<pad>	0
</s>	0
<unk>	0
¦	-1.23532
▁¦	-1.40233
▁	-3.76828
a	-4.00594
𐋇	-4.1485
an	-4.52853
▁.	-4.53348
▁,	-4.58461
ar	-4.6848
agus	-4.82191
dh	-5.01959
na	-5.17015
le	-5.18997
d	-5.19854
í	-5.25006
go	-5.28322
i	-5.29184
n	-5.33702
s	-5.37159
e	-5.52865
is	-5.55275
do	-5.56416
t	-5.67996
-	-5.68506
ag	-5.74202
il	-5.86626
r	-5.87925
ú	-5.92326
in	-6.01271
ithe	-6.03394
bh	-6.07032
covid	-6.07092
igh	-6.09885
tá	-6.11353
-19¦	-6.13781
nó	-6.17923
de	-6.19044
ir	-6.19111
▁’	-6.21526
mar	-6.2703
anna	-6.28863
seo	-6.31141
mh	-6.41287
ch	-6.42747
chun	-6.45337
tú	-6.45497
eile	-6.49456
má	-6.53486
aoine	-6.54176
bhfuil	-6.5679
ó	-6.58436
f	-6.58587
sa	-6.59224
▁(	-6.59572
ach	-6.60556
cás	-6.67425
sé	-6.69744
íonn	-6.70322
h	-6.74203
ann	-6.75134
atá	-6.75591
iad	-6.85118
ta	-6.87542
m	-6.91777
ort	-6.92865
faoi	-6.94056
ná	-6.95242
féid	-6.95469
é	-6.95578
cov	-6.9641
sin	-6.96448
eann	-6.96855
adh	-6.96883
ní	-7.00477
tar	-7.03721
▁)	-7.03729
g	-7.04319
duine	-7.04475
víreas	-7.06708
íos	-7.06711
sláinte	-7.08259
c	-7.08585
leis	-7.10132
aon	-7.15963
b	-7.17055
mó	-7.18816
as	-7.19718
uair	-7.24051
tear	-7.26325
nach	-7.26332
u	-7.26733
aí	-7.27293
bhí	-7.27322
sars	-7.27724
▁:	-7.29098
dhéana	-7.29442
bás	-7.3129
nío	-7.31561
vacsaín	-7.31744
ba	-7.3788
gach	-7.38868
úsáid	-7.39153
chur	-7.39173
rud	-7.3922
p	-7.40733
idir	-7.42128
aibh	-7.42551
tuairiscío	-7.43189
éis	-7.43371
ón	-7.44692
th	-7.45406
aghaidh	-7.46328
féin	-7.47675
lá	-7.49316
comharthaí	-7.50832
gur	-7.52184
eadh	-7.53161
la	-7.53231
duit	-7.53623
▁¦2020¦	-7.53847
ina	-7.54243
fhéadfa	-7.54368
árta	-7.54764
al	-7.55251
eith	-7.55681
idh	-7.56164
roinnt	-7.57325
thug	-7.58113
chóir	-7.58903
den	-7.59394
nn	-7.63067
trí	-7.63221
don	-7.63849
líon	-7.6578
san	-7.66184
l	-7.66398
o	-7.68352
tástáil	-7.68785
déan	-7.72049
nua	-7.72448
roimh	-7.74973
air	-7.75216
dói	-7.75715
hu	-7.78455
amach	-7.78853
isteach	-7.79089
mb	-7.8011
anacht	-7.82851
fre	-7.82932
mór	-7.82987
gan	-7.83215
.	-7.85581
leat	-7.85715
isin	-7.86188
iú	-7.86507
-2¦	-7.86965
aíonn	-7.87051
á	-7.88648
chás	-7.89377
sonra	-7.89419
mháin	-7.89531
aithe	-7.90043
ráig	-7.90812
ionfhabhtaithe	-7.90965
tástála	-7.91414
chuir	-7.91442
coronavirus	-7.91448
fáil	-7.92338
gheall	-7.93581
chuig	-7.94153
irt	-7.94609
▁/	-7.95211
▁%	-7.95861
ionfhabht	-7.95988
áirí	-7.96724
chomh	-7.9792
tír	-8.00538
linn	-8.00927
lámha	-8.01299
leor	-8.02291
fu	-8.02437
teaghla	-8.02612
ul	-8.03201
íortha	-8.0449
náisiún	-8.05109
réir	-8.05346
bhaile	-8.06226
fháil	-8.06238
aonta	-8.06341
scaipea	-8.06686
tuga	-8.06985
cé	-8.07428
1¦	-8.07522
chuid	-8.07581
sín	-8.0867
am	-8.08809
acu	-8.08973
aigh	-8.09387
gcás	-8.09686
bei	-8.0993
mura	-8.10697
dá	-8.11459
▁-	-8.11629
measc	-8.11884
dtí	-8.12268
tinn	-8.12489
ospidé	-8.15013
5¦	-8.1515
aghaidhe	-8.15164
sna	-8.15564
eabhra	-8.15802
fh	-8.15948
mí	-8.16964
eanna	-8.16979
tha	-8.17263
gal	-8.17582
“	-8.17869
chéad	-8.17981
te	-8.18977
vír	-8.19089
ard	-8.20104
cur	-8.21061
pháist	-8.23062
othair	-8.23547
gh	-8.23697
fógra	-8.23725
eanái	-8.23934
aip	-8.24036
fuair	-8.24934
hiomláin	-8.24994
▁"	-8.24994
riospráid	-8.2573
cuirea	-8.26509
ionad	-8.27295
áil	-8.27483
clúda	-8.27774
bhain	-8.28182
fad	-8.28409
oibl	-8.28917
dí	-8.28925
cúram	-8.30596
hcov	-8.30803
▁¦2¦	-8.30931
bhfeidhm	-8.31098
thabha	-8.31477
eamh	-8.31566
maidi	-8.31703
faoin	-8.31997
aois	-8.32434
maith	-8.32661
▁;	-8.32817
bearta	-8.32848
léir	-8.32913
▁'	-8.33466
aol	-8.33703
each	-8.34444
os	-8.34493
lean	-8.35013
scoile	-8.35104
agat	-8.35643
áin	-8.36514
seirbhís	-8.36722
chaithea	-8.38003
leo	-8.38602
ne	-8.39198
leighis	-8.40117
stái	-8.41413
aibreá	-8.41829
shampla	-8.4274
3¦	-8.42866
áit	-8.43342
bhei	-8.43351
leibhé	-8.43615
sh	-8.43674
níl	-8.43962
dhochtúir	-8.44487
im	-8.45142
ig	-8.45272
teagmhá	-8.45299
acha	-8.45681
síne	-8.4621
thar	-8.46277
riosca	-8.46296
cuir	-8.46298
srianta	-8.464
wh	-8.46834
iomlán	-8.47059
▁).	-8.47439
eola	-8.48065
blia	-8.48846
laghd	-8.48913
gá	-8.49051
mbea	-8.49549
dearfach	-8.51116
siú	-8.51803
rial	-8.51816
liú	-8.52477
4¦	-8.53542
mhéad	-8.53756
uas	-8.53957
▁¦10	-8.53988
comhairle	-8.54177
óstach	-8.55875
rialtas	-8.56494
dhá	-8.56694
fó	-8.57637
luath	-8.57876
beal	-8.58296
neamh	-8.58543
▁¦14	-8.58955
glao	-8.59201
orthaí	-8.59504
cinn	-8.59584
9¦	-8.59763
mbei	-8.59927
sóisial	-8.60005
othar	-8.6021
fhógraío	-8.60338
cha	-8.60434
eas	-8.61096
han	-8.61123
tarchur	-8.61347
ceart	-8.61737
tora	-8.62541
srian	-8.63439
bia	-8.63442
co	-8.64034
6¦	-8.64171
fhógair	-8.64254
mhí	-8.64724
casacht	-8.65409
tháin	-8.65952
chomhartha	-8.66292
▁”	-8.66415
▁–	-8.66462
▁),	-8.66623
mhór	-8.66773
bhféadfa	-8.6684
vacsaíní	-8.67325
mers	-8.67617
2¦	-8.67748
staidé	-8.67805
úil	-8.6862
bhás	-8.68741
8¦	-8.68925
minic	-8.69095
seachtain	-8.69701
fhaigh	-8.69954
tioncha	-8.70058
céanna	-8.70271
um	-8.7029
thart	-8.70317
beag	-8.70488
lú	-8.70593
ghnáth	-8.70753
wu	-8.71079
milliú	-8.71128
ialtóg	-8.72214
chosaint	-8.72235
dúna	-8.7234
fear	-8.73098
oscailt	-8.73897
amhail	-8.73931
cheart	-8.7462
cosú	-8.74784
rinne	-8.76527
rian	-8.76536
oibre	-8.76611
leana	-8.76681
teagmhála	-8.77256
háir	-8.77261
iarracht	-8.77277
roinn	-8.77672
paindéim	-8.77787
léin	-8.78663
ghala	-8.78677
omhain	-8.79059
thástá	-8.79843
ceann	-8.8069
obair	-8.80854
nd	-8.80918
ráta	-8.8111
,000¦	-8.81522
thor	-8.82178
odh	-8.82358
airde	-8.82491
dó	-8.82596
mbás	-8.82611
cuairt	-8.82912
coraintín	-8.82938
taine	-8.8301
theas	-8.83024
láthair	-8.83486
ra	-8.83803
cheann	-8.84469
rai	-8.84962
déana	-8.85155
líne	-8.854
scoil	-8.85635
án	-8.86015
éal	-8.8631
leith	-8.87281
aonrú	-8.87549
masc	-8.88436
taisteal	-8.88623
fiabhra	-8.88916
laghad	-8.88916
anta	-8.88928
taist	-8.89022
nós	-8.89383
▁¦11	-8.89607
éagsúla	-8.89758
fhéid	-8.90505
daoin	-8.90975
thuairisc	-8.91113
fs	-8.91116
▁¦15	-8.91547
ma	-8.91723
iompar	-8.91893
oibrithe	-8.92017
gcuid	-8.92065
sula	-8.92588
mid	-8.92842
tús	-8.92929
7	-8.92996
measa	-8.93163
oideacha	-8.93256
ár	-8.93734
imní	-8.9423
iodáil	-8.94483
átha	-8.94488
éigeandála	-8.94692
aire	-8.94721
bharr	-8.94721
choinneá	-8.9486
dearbha	-8.94922
rón	-8.95396
y	-8.95527
dochtúir	-8.95666
có	-8.95708
laist	-8.96197
tabhair	-8.96254
dt	-8.96887
rtha	-8.97501
súil	-8.97604
géar	-8.97647
sampla	-8.97681
▁¦20	-8.98981
liath	-8.99471
bunúsach	-8.99606
imh	-8.99767
teacht	-9.00647
víreasach	-9.00906
lár	-9.01445
imeachta	-9.01992
▁?	-9.02369
láithreach	-9.02379
cosc	-9.02388
éine	-9.0243
rialtais	-9.02546
coróin	-9.03305
▁¦1	-9.03697
lacha	-9.03764
imdhíonacht	-9.0399
dáileog	-9.04055
heamh	-9.04248
úirt	-9.04386
ceal	-9.046
bhaint	-9.0483
meit	-9.04889
athr	-9.05013
buna	-9.055
cleachta	-9.05595
díreach	-9.0573
▁¦5	-9.06082
ainmh	-9.06701
the	-9.06754
▁¦4¦	-9.0729
druga	-9.07303
thas	-9.07841
cona	-9.07861
dteagmhá	-9.08372
córas	-9.09107
fiú	-9.09549
stá	-9.09567
gcoinne	-9.09629
cuid	-9.09756
v	-9.10252
cabhr	-9.10607
▁¦2019	-9.10686
cion	-9.10708
éifeachtach	-9.10871
pian	-9.11209
dhiaidh	-9.1248
tábhachtach	-9.125
uine	-9.12613
0¦	-9.12784
athair	-9.1291
▁¦12	-9.12915
onn	-9.13014
00¦	-9.13321
orth	-9.13648
daonn	-9.13713
ionai	-9.13987
choróinvír	-9.14147
déanta	-9.1424
cúraim	-9.14247
chloig	-9.1425
faireacha	-9.14292
chosc	-9.14316
mheas	-9.14323
fan	-9.14337
baint	-9.14523
tapa	-9.14539
▁¦24	-9.14622
próitéin	-9.15541
foláir	-9.1594
▁¦13	-9.16017
méad	-9.16097
fhorbair	-9.16343
freastal	-9.1734
fra	-9.17365
poba	-9.17737
eagraíocht	-9.17907
ghluaiseacht	-9.17917
riocht	-9.18029
cliniciú	-9.18093
deirea	-9.18487
láimh	-9.18826
tí	-9.18939
tharla	-9.19044
nna	-9.1922
scar	-9.19497
básmhaireacht	-9.19805
sraotharta	-9.19821
phoba	-9.199
taobh	-9.20063
chomhairle	-9.20129
mac	-9.2043
eacha	-9.20484
mhol	-9.20613
ís	-9.20655
glan	-9.20681
int	-9.20693
w	-9.21196
haine	-9.21639
mhíoc	-9.21723
chéi	-9.21977
caith	-9.22376
eipidéim	-9.22647
choinne	-9.23002
chúis	-9.23017
coiti	-9.23679
treala	-9.23688
pearsanta	-9.23693
breis	-9.23734
▁¦3	-9.23929
méid	-9.23958
áitiú	-9.2442
ama	-9.24648
tréimhs	-9.25107
dara	-9.26488
▁¦16	-9.2657
ainn	-9.27622
éadrom	-9.27729
fíneá	-9.27731
taighde	-9.27741
cúis	-9.27804
dtug	-9.27976
fuar	-9.2805
gala	-9.28375
raí	-9.28675
shláinte	-9.29812
niúmói	-9.29815
amhras	-9.29824
fhág	-9.29838
údará	-9.29944
lé	-9.30239
smuig	-9.31287
daonra	-9.31416
eachas	-9.3161
amh	-9.3161
céim	-9.31659
anála	-9.31757
domhand	-9.32355
thosa	-9.32508
fola	-9.3284
uait	-9.33337
▁¦50	-9.33367
mol	-9.33587
cosain	-9.34023
míochain	-9.34115
diúltach	-9.34199
oifig	-9.34266
áireamh	-9.34284
riachtanach	-9.34504
deacracht	-9.34582
airíonn	-9.3467
cóireá	-9.35599
cheana	-9.3573
bhrí	-9.36077
ord	-9.36088
speic	-9.36336
cosant	-9.36511
éir	-9.37236
▁¦7	-9.37999
gartheagmhála	-9.38163
▁¦19¦	-9.38398
cóir	-9.38584
ndearna	-9.38609
cdc	-9.38613
bpaindéim	-9.38756
sheachain	-9.38988
óirí	-9.39131
chos	-9.39178
astra	-9.39449
nec	-9.39594
garda	-9.40231
onair	-9.40364
gnáth	-9.40456
ph	-9.4046
nár	-9.4059
mhair	-9.40634
leagan	-9.4072
éireann	-9.40775
oisc	-9.40892
tógálach	-9.41002
▁¦30	-9.41115
ráige	-9.41452
chéim	-9.41657
spreag	-9.42265
rianair	-9.42321
artha	-9.42676
eis	-9.42709
▁%)	-9.42737
rna	-9.42992
ollaig	-9.42996
sábháilte	-9.43287
diagnóis	-9.43315
sábháilteacht	-9.43343
ze	-9.43425
rthu	-9.43861
éil	-9.44149
▁¦200	-9.4451
deara	-9.44636
timpeall	-9.44648
úsáide	-9.44809
éigh	-9.45065
aige	-9.45116
príomh	-9.45256
▁¦26	-9.45713
róm	-9.45717
béite	-9.45828
gcéad	-9.45848
lua	-9.45942
teast	-9.45977
uimh	-9.46105
dé	-9.46653
▁¦28	-9.47294
▁¦22	-9.47426
rinnea	-9.47628
ois	-9.4804
dhomhand	-9.48254
afraic	-9.48258
▁¦2021¦	-9.48261
labhair	-9.48282
eorpach	-9.48411
irí	-9.48532
▁¦100	-9.48705
rá	-9.48725
paindéime	-9.49151
baile	-9.49333
íocht	-9.49378
clár	-9.49409
cad	-9.49434
iaráin	-9.49471
teach	-9.50154
liosta	-9.50157
reath	-9.5069
inne	-9.50786
chibear	-9.50819
siopadóireacht	-9.50822
fios	-9.50847
suntasach	-9.50852
maisc	-9.50853
k	-9.50877
ath	-9.5088
altra	-9.50886
nigh	-9.51035
hairío	-9.51493
tuill	-9.51866
theast	-9.52083
áite	-9.52186
,	-9.52314
▁¦23	-9.525
tosa	-9.526
fhad	-9.53002
oirea	-9.53414
dromchla	-9.5345
eanta	-9.53538
sholáth	-9.53669
aitheanta	-9.53931
shár	-9.53943
mhain	-9.54236
fás	-9.54326
chinnti	-9.54333
phe	-9.54438
gc	-9.54795
saor	-9.55223
for	-9.55237
chu	-9.55337
cúig	-9.55608
phaindéim	-9.56152
nádúr	-9.5622
dócha	-9.56222
eithre	-9.56253
taire	-9.56408
uisc	-9.56528
bu	-9.5669
mui	-9.57164
cruinn	-9.5735
fion	-9.57725
lámh	-9.58222
grúpa	-9.58442
eacnamaíoch	-9.58931
bith	-9.58982
lae	-9.59334
aice	-9.5936
ró	-9.59375
rianaithe	-9.59795
bun	-9.60182
meán	-9.60269
éile	-9.60651
bain	-9.60848
theann	-9.60895
éid	-9.61524
siopa	-9.61786
anailís	-9.61788
uirth	-9.61794
athoscailt	-9.61969
▁¦27	-9.62125
sláintiú	-9.6213
fhor	-9.62266
únta	-9.62552
▁¦18	-9.62685
ige	-9.62818
áirith	-9.62911
anaí	-9.62975
chéil	-9.63054
deimhn	-9.63571
stair	-9.63604
cinnte	-9.63732
▁¦17	-9.64108
lasm	-9.64321
dáile	-9.64497
comparáid	-9.64729
antasubstaint	-9.64731
monatóireacht	-9.64733
tromchúiseach	-9.64754
íseal	-9.64767
slaghdá	-9.64824
anaithnid	-9.64828
fo	-9.64854
brú	-9.64913
es	-9.65008
inn	-9.65823
fe	-9.65872
ábhar	-9.66186
fíor	-9.66685
trialach	-9.66745
frith	-9.66834
riachtana	-9.67188
álta	-9.67348
eitilt	-9.67581
stiú	-9.67592
tu	-9.67688
forba	-9.67707
suíomh	-9.67759
cógais	-9.67759
chlúda	-9.67763
idirmheánach	-9.67774
fhreagairt	-9.6782
soláthair	-9.67822
gcóna	-9.67921
ing	-9.68213
acht	-9.68396
dheimhn	-9.69026
sí	-9.69093
ligean	-9.69333
caoi	-9.69339
rc	-9.69716
thógá	-9.70213
mo	-9.70236
domhan	-9.7039
giorra	-9.70884
chineál	-9.70891
teorainn	-9.70895
shóis	-9.70907
leanúnach	-9.70969
uachtarán	-9.71028
cineál	-9.71043
fianaise	-9.71111
id	-9.7115
43¦	-9.71208
fá	-9.71638
uiscint	-9.71644
fóin	-9.71676
ladh	-9.71938
toba	-9.71972
ísle	-9.72133
níochá	-9.72267
foir	-9.72505
faisnéis	-9.72761
ollscoil	-9.72955
dhéan	-9.72966
dlúth	-9.72985
iarrai	-9.73116
dhearbh	-9.73429
dú	-9.73449
on	-9.73474
tinnea	-9.73539
ialta	-9.73748
stop	-9.73807
shocr	-9.73812
theaghla	-9.7411
éigeantach	-9.7411
seachain	-9.7412
neamhriachtanach	-9.74138
éigin	-9.74153
beo	-9.74588
india	-9.74688
nochta	-9.74709
mhaol	-9.74909
▁¦31	-9.74923
dáta	-9.74958
iúl	-9.75189
haoine	-9.75298
roghna	-9.75303
fhio	-9.75914
coinnig	-9.76027
cúna	-9.76169
comhair	-9.76888
saotharla	-9.77237
ól	-9.77343
eamhshiomptómach	-9.77448
speisialta	-9.77483
gceist	-9.77497
ciall	-9.77502
oibrí	-9.77642
faid	-9.77772
inneach	-9.77876
hiomlán	-9.77936
bheala	-9.77954
aer	-9.78121
st	-9.78566
tacaíocht	-9.78606
ine	-9.78619
ála	-9.79537
aonad	-9.80373
dlí	-9.80468
faigh	-9.80515
earfach	-9.8057
rthóir	-9.80843
229	-9.80893
réims	-9.80894
tarchuir	-9.80898
forleathan	-9.80899
phoibl	-9.80929
me	-9.80965
hio	-9.81302
siúl	-9.81328
comh	-9.81371
ghrúpa	-9.81703
tóg	-9.81723
teocht	-9.81911
úint	-9.82067
tor	-9.82134
iméad	-9.82152
earra	-9.82158
seas	-9.8217
dheirea	-9.82397
molta	-9.8246
óstá	-9.82574
cill	-9.82608
chumas	-9.82716
nas	-9.82858
dhún	-9.83091
iseach	-9.83501
plean	-9.83517
gartheagmhá	-9.83788
géanóm	-9.83808
to	-9.83876
sion	-9.8388
áir	-9.83902
ghal	-9.84072
rogha	-9.8409
díobh	-9.84398
aclaíocht	-9.84466
figiú	-9.84467
folláin	-9.84472
chorp	-9.84474
rsc	-9.84484
croí	-9.84509
áise	-9.84569
seacht	-9.84587
leath	-9.84714
ol	-9.84832
trom	-9.84865
bhfaigh	-9.84875
tug	-9.8492
coinne	-9.85007
hionfhabht	-9.85349
ríocht	-9.85383
▁¦29	-9.85409
gp	-9.85478
rialacha	-9.85539
95¦	-9.85586
osta	-9.8576
rialta	-9.86002
gná	-9.86118
▁¦60	-9.86184
fach	-9.86582
dianchúra	-9.87041
fhoir	-9.87444
sia	-9.87823
scrúd	-9.88159
▁‘	-9.88166
chóras	-9.88173
pcr	-9.88184
sláinteacha	-9.88292
cead	-9.8863
éasca	-9.88772
nasc	-9.88894
dhearbha	-9.89014
eorai	-9.89106
siar	-9.89288
iarr	-9.89523
óga	-9.89838
oireann	-9.90232
se	-9.90413
ithint	-9.90662
óca	-9.91601
déanfai	-9.91613
shonra	-9.91651
treoirlín	-9.91718
chóireá	-9.91736
buail	-9.9187
bhailiú	-9.91957
sheirbhís	-9.92013
toirch	-9.92013
fachtóir	-9.92023
nuashonr	-9.92029
slán	-9.92045
mhilliú	-9.92105
▁."	-9.92125
mich	-9.92185
réamh	-9.9231
clúd	-9.92313
cuirfi	-9.92482
báis	-9.92923
uath	-9.9304
ainm	-9.93593
ghlana	-9.93623
agann	-9.93754
fhéadf	-9.94181
straitéis	-9.94192
oibr	-9.9449
éirí	-9.94703
sheol	-9.9479
rainc	-9.95119
caithfi	-9.95132
éiri	-9.95151
eisío	-9.95306
amu	-9.95567
zónóiseach	-9.96029
meastachá	-9.96046
tirim	-9.96053
brath	-9.96058
mall	-9.96252
aidh	-9.96301
íche	-9.96313
aireacht	-9.96359
féadfai	-9.96569
▁¦25¦	-9.96767
48	-9.97249
re	-9.97396
theach	-9.97906
luan	-9.98272
scorna	-9.98339
▁¦4	-9.98466
gcomh	-9.9848
páist	-9.985
bhun	-9.98638
ion	-9.99032
oc	-9.99056
70¦	-9.99065
bunús	-9.99181
tithe	-9.99412
teoran	-9.99684
íochta	-9.99688
gine	-9.99691
63	-9.99692
céad	-9.99818
cód	-9.99872
institiúid	-9.99992
díot	-10.0012
$	-10.0018
pfizer	-10.0018
taifead	-10.0018
athbhreithni	-10.0018
gallúnach	-10.0018
seicheamh	-10.0018
ainmn	-10.002
sealadach	-10.0021
cathrach	-10.0025
ais	-10.0025
gceanta	-10.0052
johns	-10.0062
chleachta	-10.0082
con	-10.0092
héann	-10.0101
easp	-10.0101
reacha	-10.0157
fillea	-10.0162
ghartheagmhála	-10.0163
▁¦6	-10.0186
díol	-10.0226
mic	-10.0257
fhógra	-10.0302
léi	-10.0351
caithea	-10.0361
acmhainn	-10.0382
cún	-10.0399
cóireála	-10.0413
cu	-10.0422
meiriceá	-10.0427
ineacht	-10.0441
rochtain	-10.0449
contae	-10.0451
[	-10.0453
athlastach	-10.0453
phríomh	-10.0453
taiscuma	-10.0453
póirt	-10.0454
láimhseáil	-10.0455
seomra	-10.0456
imscrúd	-10.0456
torrach	-10.0467
braoinín	-10.0478
huaire	-10.0481
freagair	-10.0489
aisce	-10.052
éifeachta	-10.0554
braithea	-10.0564
agóid	-10.0569
osú	-10.0574
frithdhú	-10.0583
23¦	-10.0586
ndéanfa	-10.0612
ceanta	-10.0614
haghai	-10.0669
oifigiú	-10.0682
ché	-10.0686
far	-10.0709
eagla	-10.0738
cht	-10.0757
maid	-10.0765
bhlia	-10.0803
méadaithe	-10.0828
hlat	-10.0835
féideartha	-10.0855
diai	-10.0872
bua	-10.0902
seapáin	-10.0907
téacs	-10.0907
íomhá	-10.0907
swab	-10.0907
thaobh	-10.0908
scaipthe	-10.0908
hku	-10.0909
spáinn	-10.091
teachtaireacht	-10.0911
scotha	-10.0914
bhrolla	-10.0916
▁”.	-10.0924
▁".	-10.0939
gluaiseachta	-10.0946
nithe	-10.099
▁¦8¦	-10.0999
tru	-10.103
deimhnío	-10.1037
neart	-10.1041
bí	-10.1042
moill	-10.1071
mbail	-10.1072
mbai	-10.1074
mblian	-10.1076
ghlac	-10.1078
scaip	-10.1133
mná	-10.1145
oidh	-10.1164
leatha	-10.118
héir	-10.1186
ionas	-10.1188
oll	-10.1203
thru	-10.1206
freagra	-10.1214
gníomhaíochta	-10.1283
bill	-10.1313
▁¦9	-10.1317
lán	-10.1378
&	-10.1383
astráil	-10.1383
▁¦21	-10.1384
gheo	-10.1388
▁]	-10.139
bheag	-10.1391
éigeandá	-10.1391
áiste	-10.1399
aoire	-10.1403
aimsío	-10.1415
fág	-10.142
iún	-10.1434
bhia	-10.1434
criticiú	-10.1434
tacú	-10.1435
cóna	-10.144
chliniciú	-10.144
seach	-10.145
cathai	-10.1473
coinn	-10.1496
dhúna	-10.1503
dtosa	-10.1505
domhna	-10.1514
raitheann	-10.1525
shrian	-10.1536
bhfoir	-10.1544
thag	-10.1548
char	-10.1551
impl	-10.1566
meas	-10.1573
tin	-10.1599
▁.,	-10.1602
pas	-10.1606
sciathá	-10.161
laghdaithe	-10.1633
tugt	-10.1641
shr	-10.1668
ghníomhaíocht	-10.1672
1	-10.1689
ntana	-10.1706
lacht	-10.1709
ace	-10.1745
0	-10.175
gnó	-10.1756
eol	-10.1787
bhf	-10.1801
▁¦80	-10.1812
éann	-10.1818
iv	-10.183
modh	-10.1856
▁¦40	-10.1875
oiriún	-10.188
measún	-10.1881
rasaíl	-10.1883
plód	-10.1883
california	-10.1883
leigheas	-10.1884
sóchá	-10.1886
rialachá	-10.189
seans	-10.19
tuismitheoir	-10.1911
saotharlann	-10.1915
gníomhach	-10.1919
eoir	-10.1936
hír	-10.1984
úine	-10.2
bola	-10.2009
othú	-10.2021
18¦	-10.2022
sain	-10.204
mola	-10.2052
gar	-10.2078
imeacht	-10.211
fa	-10.2115
húsáid	-10.2116
nolla	-10.2123
ainne	-10.2144
deac	-10.2164
thuai	-10.2169
ist	-10.2171
oir	-10.2176
▁¦38	-10.2206
aid	-10.2213
eachta	-10.2258
chúram	-10.2289
láir	-10.229
heith	-10.2336
cp	-10.2338
aithnío	-10.2346
scaoilea	-10.2354
anál	-10.2393
coinníoll	-10.2399
coimeád	-10.24
biontech	-10.241
phróitéin	-10.241
thaispeáin	-10.241
bheatha	-10.241
téarna	-10.2411
20¦	-10.2416
cónaitheoir	-10.2421
thit	-10.2428
dtagann	-10.2432
víreolaíoch	-10.2433
uaire	-10.244
marga	-10.2441
géarchéim	-10.2447
▁%.	-10.2449
ilse	-10.2459
saorána	-10.2486
▁¦19	-10.251
éire	-10.2514
cm	-10.2516
meánscoile	-10.2541
shin	-10.2562
eál	-10.2578
leithlis	-10.2582
iarrfa	-10.2635
x	-10.2643
éad	-10.2665
lin	-10.2677
sonrach	-10.27
us	-10.2705
scamhóg	-10.2717
féach	-10.2746
earmáin	-10.2747
dam	-10.2768
íoc	-10.2775
maol	-10.2799
lann	-10.2831
all	-10.2838
21¦	-10.2843
ton	-10.2847
chill	-10.2856
leathn	-10.2856
cam	-10.2863
réigiú	-10.2908
cúige	-10.2908
eachtrach	-10.2945
soiléir	-10.2956
thú	-10.2959
ceist	-10.2959
éabhlóid	-10.2965
ainsealach	-10.2965
núíosach	-10.2965
difríocht	-10.2965
dhíon	-10.2966
spíc	-10.2966
limisté	-10.2966
aicéit	-10.2966
modern	-10.2967
chógais	-10.2967
tábla	-10.2968
gné	-10.2969
chórais	-10.2969
▁”,	-10.2969
riarachá	-10.2969
mhic	-10.2975
chuga	-10.2981
theorann	-10.2986
ábhair	-10.2988
aerála	-10.299
coite	-10.2991
dtiocfa	-10.2992
gcéim	-10.3002
mrna	-10.3003
seiceáil	-10.3011
clainn	-10.3016
osca	-10.3053
thuairisci	-10.3066
glac	-10.3067
tarl	-10.3075
▁¦2	-10.3075
rang	-10.3085
eipidéimeolaíoch	-10.3099
nais	-10.3155
lit	-10.3166
ge	-10.3182
ndéan	-10.3192
rith	-10.3217
fón	-10.3221
idí	-10.3223
teicneolaíocht	-10.3228
dhí	-10.3246
beir	-10.3265
phlean	-10.3268
ly	-10.3272
chúrsa	-10.3329
éard	-10.3341
theagmhá	-10.3366
ocht	-10.3375
rán	-10.3379
iúd	-10.3384
fhreagra	-10.3385
chtaí	-10.3392
iond	-10.3431
ontráil	-10.3451
réit	-10.3497
lachtaí	-10.3498
treoir	-10.3516
braisl	-10.3524
fi	-10.3528
cuairteoir	-10.3544
réigiún	-10.355
iarmhairt	-10.3554
bronchi	-10.3554
dochtúr	-10.3554
pangolin	-10.3554
ullmhacht	-10.3555
coicís	-10.3555
bialann	-10.3557
phataigineach	-10.3558
saoráid	-10.3561
smaoin	-10.3562
aslonn	-10.3563
meácha	-10.3571
gearr	-10.3573
gcuirf	-10.3574
ndéant	-10.3582
pháirtí	-10.3584
chlár	-10.3585
gcoróin	-10.3587
cloí	-10.3587
eamó	-10.3613
tuarascá	-10.3618
freaga	-10.3622
dearbh	-10.3679
par	-10.3706
mé	-10.3709
bhuna	-10.3724
chruth	-10.3737
bhearta	-10.3774
tair	-10.3775
13	-10.3811
feabh	-10.3825
sár	-10.3826
tao	-10.3827
bhfor	-10.3834
ré	-10.3857
agtha	-10.3877
oin	-10.3905
tos	-10.3917
áine	-10.3928
bpob	-10.3941
breith	-10.3942
ngartheagmhá	-10.3965
gcaithf	-10.3995
bhrú	-10.3995
fógraí	-10.4003
ce	-10.4009
dhéanta	-10.4034
chinnea	-10.4036
mbeal	-10.4042
scaga	-10.4065
ja	-10.4091
namh	-10.4104
shuí	-10.4118
shla	-10.4133
cealla	-10.4133
soláthra	-10.4158
úsáideoir	-10.4173
icu	-10.4177
aigéad	-10.4179
leithead	-10.4179
paisinéir	-10.418
maireachtá	-10.418
aistriú	-10.418
fadtéarmach	-10.4181
saineola	-10.4181
cheist	-10.4182
scála	-10.4183
rabha	-10.4194
coláist	-10.4198
naíoná	-10.4205
marfach	-10.4216
gabha	-10.4216
fhoils	-10.4218
cáine	-10.4226
thaisteal	-10.425
teiripe	-10.4255
rath	-10.4281
ngrúpa	-10.4293
aeráil	-10.4294
aoi	-10.4299
leanann	-10.4306
leithr	-10.4313
gov	-10.4323
eiceáil	-10.4329
lig	-10.4334
struchtúr	-10.4334
com	-10.4336
gcuirfea	-10.4391
nuacht	-10.4391
sheola	-10.4398
taithe	-10.4398
chaith	-10.4416
throm	-10.4421
land	-10.4425
coróinvír	-10.4427
dteast	-10.4436
cabhróid	-10.4465
ase	-10.4476
oici	-10.4483
scriosa	-10.4485
laethú	-10.4489
meast	-10.4495
leochaileach	-10.4501
ról	-10.4504
nl	-10.4545
mhaithe	-10.4551
éifeachtúlacht	-10.4568
cáis	-10.4568
su	-10.4596
dearbhaío	-10.4606
cheal	-10.4613
tacaíochta	-10.4615
tabharfa	-10.4654
tuairiscí	-10.4659
19¦	-10.4688
shú	-10.47
páirt	-10.4703
tis	-10.4705
raon	-10.4724
ofen	-10.4728
aipe	-10.4729
oifige	-10.4739
ct	-10.4741
fhó	-10.4761
féadf	-10.4767
bainea	-10.4778
olog	-10.4785
ur	-10.4785
áis	-10.4795
chlé	-10.48
be	-10.4816
fen	-10.4841
prótaca	-10.4845
choraintín	-10.4845
civet	-10.4845
iontaofa	-10.4845
fadhb	-10.4846
mheánoirth	-10.4846
breoiteacht	-10.4847
ciarsú	-10.4849
ceathr	-10.4849
múinteoir	-10.4849
randamach	-10.4849
dhaonra	-10.4855
post	-10.4857
fheidhmeannach	-10.4857
alfa	-10.486
ael	-10.4864
tus	-10.487
bhfón	-10.4885
foirm	-10.4889
córa	-10.4892
nnel	-10.4908
ionsaí	-10.4913
thu	-10.4921
osclaío	-10.4927
tria	-10.4934
ius	-10.4958
gurb	-10.4964
ití	-10.4982
scamhóga	-10.5019
ca	-10.5028
agairt	-10.504
dún	-10.5048
sat	-10.5078
cá	-10.5081
fé	-10.5087
trácht	-10.5088
béil	-10.5089
ith	-10.5114
ollscoile	-10.5124
scaoil	-10.516
thair	-10.5162
antai	-10.5175
gcoda	-10.5183
tháirgea	-10.5183
cuims	-10.5193
tuairisciú	-10.5211
ástáil	-10.5245
tuairisc	-10.5251
gast	-10.5287
cor	-10.5328
orf	-10.5376
gníomh	-10.5387
tuarascála	-10.5391
roghn	-10.5404
órt	-10.5407
rúis	-10.5419
caill	-10.5437
naidhme	-10.5449
oileá	-10.546
uile	-10.5463
páipé	-10.5463
scrío	-10.5495
foils	-10.5505
tr	-10.5524
séasúr	-10.5538
oimisiún	-10.5544
bailiú	-10.5548
fhaisnéis	-10.5556
foghlaim	-10.5559
fhiabhra	-10.5559
dteistiméireacht	-10.5559
fhostóir	-10.5559
géiniteach	-10.5559
eiseama	-10.5559
sceideal	-10.556
enteri	-10.556
ceanada	-10.556
bhuail	-10.5561
leithreas	-10.5562
fhaireacha	-10.5565
sraith	-10.5568
deich	-10.5569
blu	-10.5571
caithfe	-10.5571
gcontae	-10.5576
glasá	-10.558
luaite	-10.5586
cheanta	-10.5591
bean	-10.56
tais	-10.5612
atos	-10.562
thuas	-10.5631
athmhol	-10.5646
q	-10.5657
páipéar	-10.5658
eto	-10.5659
leac	-10.5689
leacht	-10.5695
thógálach	-10.5699
táirg	-10.5707
▁¦90	-10.5713
ball	-10.5719
méar	-10.5722
cho	-10.5735
oth	-10.5743
30¦	-10.5745
hom	-10.5748
úrscé	-10.5749
di	-10.576
eachtaí	-10.576
ry	-10.5763
óstái	-10.5763
or	-10.578
foinse	-10.5801
ndochtúir	-10.5809
teasta	-10.5824
so	-10.5826
líonra	-10.5853
lag	-10.5856
du	-10.5861
faisnéise	-10.5871
éifeachtúlachta	-10.5877
ghabhálach	-10.5879
bog	-10.5904
matá	-10.5906
rú	-10.5913
héifeacht	-10.592
laeth	-10.5945
gcear	-10.5952
cheada	-10.5986
ros	-10.5995
núiclé	-10.5998
sco	-10.601
bío	-10.6018
achas	-10.6039
taispeán	-10.6053
óna	-10.607
rt	-10.6089
tóga	-10.61
long	-10.6106
iscint	-10.6126
nacht	-10.616
eisiúin	-10.6161
lach	-10.6181
ghearr	-10.6193
aidhm	-10.6203
frithvíreas	-10.6236
orm	-10.6238
ck	-10.6263
ianaise	-10.6272
eorpa	-10.6279
dúir	-10.6287
iomarca	-10.6292
phian	-10.6306
pá	-10.6316
thiocfa	-10.6329
antashubstaint	-10.6329
€	-10.6329
ullmhú	-10.6329
ocsaigin	-10.6329
ábalta	-10.6329
eitleá	-10.6329
réasún	-10.6329
smacht	-10.6329
áinliacht	-10.633
gréasá	-10.633
pangóil	-10.633
fliuch	-10.633
alcól	-10.6332
difriú	-10.6332
príomhoifig	-10.6337
bunscoile	-10.6338
dtreo	-10.6341
pataigineach	-10.6347
haipe	-10.6349
scéim	-10.637
nasctha	-10.6372
tosaíocht	-10.6372
cumas	-10.6372
eachtain	-10.6375
cel	-10.638
ghlas	-10.6381
mian	-10.6395
ss	-10.6403
treocht	-10.6404
stopa	-10.6406
lucht	-10.641
spás	-10.642
buidé	-10.6424
fheic	-10.6464
fíochá	-10.647
mbe	-10.6474
nochtadh	-10.6494
uala	-10.6502
une	-10.6531
94	-10.654
oibríochta	-10.6564
meá	-10.6583
hong	-10.6629
ip	-10.665
spreaga	-10.6689
síneach	-10.669
ria	-10.6719
ghabh	-10.6726
aill	-10.6728
haon	-10.6764
creid	-10.677
chiall	-10.6785
mhar	-10.6793
eolaíochta	-10.6795
dian	-10.6801
macasamhl	-10.6825
bhainist	-10.6827
deir	-10.6857
atreor	-10.6857
dír	-10.6859
óil	-10.6863
choróinvíre	-10.6876
príomha	-10.6878
oiriúnach	-10.6897
dhír	-10.6898
pe	-10.6901
.30	-10.6946
polai	-10.6971
z	-10.6999
léan	-10.7016
ainaithnío	-10.7026
úlacht	-10.7027
chlinic	-10.7062
cú	-10.7076
iste	-10.7082
aird	-10.7085
fhan	-10.711
ruthú	-10.7129
plé	-10.7136
earná	-10.7146
ceo	-10.7147
tógála	-10.7152
eiriceá	-10.7152
ste	-10.7152
iompa	-10.7153
stoc	-10.716
orainn	-10.716
innéacs	-10.7162
phylogenetic	-10.7162
oghluaiste	-10.7162
céatadá	-10.7162
luimn	-10.7162
tiomána	-10.7162
toirmeasc	-10.7162
titim	-10.7162
iolrach	-10.7162
miondíol	-10.7162
▁..	-10.7163
leabharlann	-10.7165
coisctheach	-10.7166
díhiodráitiú	-10.717
ionann	-10.7171
thuras	-10.7173
fheabhs	-10.7173
ibé	-10.7174
ontae	-10.7174
cumann	-10.7177
seachadta	-10.7177
tic	-10.7181
racha	-10.7181
inis	-10.7194
antaigin	-10.7195
brusca	-10.7198
laethúil	-10.7201
iarrthóir	-10.723
airí	-10.7248
eabhrac	-10.7256
bhfuar	-10.7272
mbain	-10.7277
leathna	-10.7291
tráth	-10.7299
roinnte	-10.7314
héifeachtach	-10.7318
dhíol	-10.7357
theacht	-10.736
próitéine	-10.7362
om	-10.7399
ghnó	-10.7406
ineach	-10.7406
pla	-10.7437
mp	-10.7438
leanfai	-10.7453
díghalr	-10.7461
orda	-10.7478
scan	-10.7492
aisc	-10.7508
uaidh	-10.7517
coraintíní	-10.752
bpoba	-10.7534
olainn	-10.7535
éagsúlacht	-10.7551
vi	-10.7552
sinsear	-10.7562
thaca	-10.7585
uathú	-10.7586
bhall	-10.7607
ump	-10.7614
lamh	-10.7633
cruthaío	-10.7644
glaca	-10.765
oiliú	-10.7661
gu	-10.7685
sua	-10.7695
ngal	-10.7698
réi	-10.77
mhoill	-10.77
nce	-10.772
aerlín	-10.7724
díghalrá	-10.7726
séireolaíoch	-10.7743
tro	-10.7759
eacht	-10.7764
tógfai	-10.7767
shín	-10.7768
lee	-10.7769
bhféadf	-10.7784
chónaí	-10.7789
caint	-10.7798
glaonn	-10.7837
staid	-10.7843
bail	-10.7849
cuirfe	-10.7859
cúrs	-10.7859
feá	-10.786
feidhmeanna	-10.791
uillea	-10.7911
ithne	-10.7912
náisiú	-10.7928
leithli	-10.7939
socr	-10.794
míchuma	-10.7945
holo	-10.7949
gcuir	-10.7951
guaise	-10.798
imdhíon	-10.7984
saol	-10.7985
áilte	-10.7991
mio	-10.7998
fho	-10.8008
cuma	-10.8018
cógas	-10.8036
teas	-10.8037
mor	-10.804
fhoins	-10.8044
lorg	-10.8053
ve	-10.806
cytokine	-10.8071
cumarsáid	-10.8071
iontrála	-10.8071
shroich	-10.8071
gaillimh	-10.8071
camel	-10.8072
físe	-10.8072
reiligiúnach	-10.8072
bhreis	-10.8073
glantach	-10.8073
dóchú	-10.8073
codlata	-10.8074
cluich	-10.8074
smaois	-10.8075
cáithnín	-10.8076
rbd	-10.8077
láithreá	-10.8078
droch	-10.8082
2012	-10.8082
oibriú	-10.8085
foghlaimeoir	-10.8085
ndúnfa	-10.8085
thairg	-10.8089
sheiceáil	-10.8091
dalta	-10.8092
oirse	-10.8092
▁¦33	-10.8103
gnéas	-10.8104
salach	-10.8108
hse	-10.8108
2	-10.8111
gcúis	-10.8116
rté	-10.8116
lárnach	-10.8118
feidhmiú	-10.8129
suí	-10.813
rem	-10.8133
choir	-10.8154
thinn	-10.816
chód	-10.8163
margaí	-10.8166
laid	-10.8167
ghlao	-10.8174
foirmiú	-10.8178
liún	-10.8185
víreolaíocht	-10.8186
▁¦42	-10.8197
frithvíreasach	-10.8214
cóid	-10.8228
sreabhá	-10.8232
ghá	-10.8246
bó	-10.8246
bo	-10.8254
fl	-10.8258
clis	-10.8275
rthe	-10.8282
fisiciú	-10.8291
oidea	-10.8313
ndeac	-10.8333
údar	-10.834
app	-10.8355
dheal	-10.8356
abair	-10.8363
rat	-10.8372
aisghabhá	-10.8372
gl	-10.8386
cúl	-10.8395
un	-10.8399
ng	-10.8423
dhiagnóisi	-10.8427
bhreith	-10.8431
ghlasá	-10.8436
oil	-10.8449
96¦	-10.8479
cuairte	-10.8484
memb	-10.8486
shá	-10.849
mhuin	-10.8511
ghlaca	-10.8522
haigh	-10.854
53	-10.8551
tháirg	-10.8583
aims	-10.8585
freagraí	-10.8597
47	-10.8604
fhoghlaim	-10.8619
ibe	-10.8623
faí	-10.863
▁¦55	-10.8642
ga	-10.8649
gró	-10.865
aoise	-10.8664
cothaith	-10.8664
eartha	-10.8688
ifr	-10.8693
úla	-10.8699
té	-10.8737
chreid	-10.8763
37	-10.8767
bótha	-10.8782
iúnta	-10.8785
ardaithe	-10.8795
uil	-10.8822
slabhra	-10.8852
chon	-10.8878
▁¦2.	-10.8887
ha	-10.8894
mhaith	-10.8895
éin	-10.8896
bord	-10.8917
ted	-10.8927
cair	-10.8927
pháirt	-10.8947
foins	-10.8952
che	-10.8953
soláth	-10.8977
comhartha	-10.9012
gcoi	-10.9013
mhala	-10.9018
forbraío	-10.9027
inni	-10.9036
éill	-10.9037
phost	-10.9038
fosta	-10.9043
mála	-10.9047
kin	-10.9054
príobháideacha	-10.9055
tura	-10.9055
breathnaío	-10.9061
hoifigi	-10.9064
glas	-10.9069
+	-10.9071
foghlam	-10.9071
prognóis	-10.9071
shaorána	-10.9071
fhachtóir	-10.9071
uirlis	-10.9071
ghloin	-10.9071
brasaíle	-10.9071
gloin	-10.9072
thioncha	-10.9072
teoiric	-10.9072
plasma	-10.9073
réamhchúraim	-10.9073
sochraid	-10.9074
mheasún	-10.9074
dlúthpháirtíocht	-10.9075
mheastachá	-10.9075
iniúch	-10.9075
amharclann	-10.9075
muc	-10.9078
mheabhair	-10.9079
oilliú	-10.908
aeriompa	-10.9082
ngall	-10.9082
uachtarach	-10.9083
muint	-10.9084
thábhachtach	-10.9085
raid	-10.9088
tras	-10.9088
treorach	-10.9088
brand	-10.9097
déileáil	-10.9101
roim	-10.9103
shaol	-10.9106
léitheoir	-10.9111
háise	-10.9112
fhorb	-10.9112
tréith	-10.9114
tasc	-10.9116
bpáist	-10.9118
príobháideachas	-10.912
mama	-10.9124
bhunús	-10.9126
comhch	-10.9126
▁¦45	-10.9127
araib	-10.9128
póilín	-10.913
caigh	-10.9136
lu	-10.9142
ghéanóm	-10.9143
iii	-10.9143
triú	-10.9145
eo	-10.9146
leas	-10.9154
sca	-10.916
teagla	-10.917
tagra	-10.9174
idirlí	-10.9189
mill	-10.9191
tai	-10.9197
teorann	-10.9197
oird	-10.9205
práinne	-10.9209
thóg	-10.9211
óifein	-10.9218
sholáthra	-10.9225
sainmhín	-10.9244
tuirse	-10.9245
feidhmeannach	-10.9256
páirtea	-10.9266
fút	-10.9277
aireachta	-10.9288
thuairiscí	-10.9295
airgeada	-10.9313
dy	-10.9318
mheabhra	-10.9338
éilliú	-10.9366
bainistíocht	-10.9367
taí	-10.9373
teicneolaíochta	-10.9383
phríobháideach	-10.9393
cuimhn	-10.9419
▁¦39	-10.9427
páirc	-10.9428
úsáidte	-10.9434
séireolaíocht	-10.9451
cultúr	-10.9479
loch	-10.9504
▁¦37	-10.952
gasc	-10.9526
scagthástá	-10.9579
iúla	-10.9592
he	-10.9593
92¦	-10.9607
singe	-10.9619
po	-10.9625
fai	-10.9628
óir	-10.9648
ex	-10.9649
ainmnío	-10.9665
gcion	-10.9691
íreach	-10.9694
chean	-10.9706
tra	-10.9733
▁¦4,5	-10.9734
seachtainiú	-10.9738
▁¦35	-10.9739
phlé	-10.9745
ndéanf	-10.9756
cal	-10.9761
atáirg	-10.9774
tinne	-10.9778
scagthástála	-10.978
téarmaí	-10.9781
dhaonn	-10.9781
li	-10.9829
vir	-10.9847
éadaí	-10.9872
déanach	-10.9882
athraitheach	-10.9884
moil	-10.9887
itheann	-10.9908
throi	-10.9924
spéis	-10.9942
fhill	-10.9943
91	-10.9944
;	-10.9948
▁¦300	-10.9953
corp	-10.9973
míonn	-10.9975
62	-10.9997
óid	-10.9997
fisic	-10.9999
feidhm	-11.0008
éasc	-11.0009
tion	-11.001
ham	-11.0017
luí	-11.0018
10	-11.0062
pailin	-11.0067
lte	-11.0069
huisc	-11.0074
oltar	-11.0086
ghéanó	-11.0103
iompai	-11.0107
ser	-11.0108
ephe	-11.0112
tiocfa	-11.0127
pór	-11.0149
leanúnacha	-11.0155
shl	-11.0163
huimh	-11.0165
féad	-11.0176
caite	-11.0179
breoite	-11.018
iobúpr	-11.0182
stéarói	-11.0182
dhromchla	-11.0182
ghéiniteach	-11.0182
sheomra	-11.0182
taispeáin	-11.0182
≥	-11.0182
dtarló	-11.0182
ríthábhachtach	-11.0183
ócáid	-11.0183
ghabhdóir	-11.0183
gastro	-11.0183
ealaíon	-11.0183
strus	-11.0183
wash	-11.0183
buaic	-11.0183
shábháilteacht	-11.0184
fóill	-11.0184
ghníomhaireacht	-11.0184
chaill	-11.0184
alpaca	-11.0188
uel	-11.019
seineafó	-11.0191
céa	-11.0193
patrú	-11.0195
gabhdóir	-11.0195
príobháideacht	-11.0201
thí	-11.0206
ách	-11.0207
sput	-11.0208
bhunú	-11.0211
ithíoch	-11.0213
iarrata	-11.0221
sráid	-11.0224
tionsca	-11.0229
deireanach	-11.0233
réige	-11.0237
óimheas	-11.0249
séasúrach	-11.025
8	-11.025
nia	-11.026
costa	-11.0269
chomhlíona	-11.0273
fhear	-11.0274
únaí	-11.0284
céime	-11.0285
iúsca	-11.0296
réigiúnach	-11.0307
imdhíonta	-11.0312
léirithe	-11.0314
it	-11.0321
of	-11.0326
tosó	-11.0335
tóireacht	-11.0337
fhu	-11.0338
iocht	-11.0341
luain	-11.0352
ema	-11.036
▁¦1,0	-11.0364
aera	-11.0382
dháile	-11.0389
leab	-11.0393
.5	-11.0411
news	-11.0415
inte	-11.0436
▁¦43	-11.044
bliantú	-11.0443
chinn	-11.0444
gair	-11.0449
gcaithea	-11.0452
siv	-11.0495
críoch	-11.05
gníomhaireachta	-11.05
50	-11.0518
ire	-11.0525
thro	-11.0563
▁¦85	-11.0583
dtástáil	-11.06
isce	-11.0608
eagr	-11.0637
siomptóm	-11.0639
66	-11.0656
roid	-11.0667
ibu	-11.0668
íochán	-11.0677
sach	-11.0697
oiliúna	-11.0699
romla	-11.0702
brid	-11.0704
ning	-11.071
chuims	-11.0715
▁¦4,9	-11.0718
aoil	-11.0739
ke	-11.0777
lín	-11.0778
gclúd	-11.078
dhiúlta	-11.0802
phleanáil	-11.0803
déanf	-11.0829
ite	-11.0835
seolfa	-11.0861
siltí	-11.0866
lí	-11.0867
leathan	-11.0877
maoini	-11.0903
fhéi	-11.0916
léar	-11.092
scaoilte	-11.0936
rogh	-11.0938
ipín	-11.0943
ac	-11.0956
gas	-11.0963
chosa	-11.0967
57	-11.097
ci	-11.097
ophar	-11.0985
íní	-11.1001
airt	-11.1007
67	-11.1011
▁¦44	-11.103
ionn	-11.106
athró	-11.1071
▁¦65	-11.1072
mhaí	-11.1088
abhair	-11.1094
sláint	-11.1109
mhéada	-11.1117
álaí	-11.1121
cl	-11.1128
scéal	-11.1133
ic	-11.1135
lasta	-11.1151
tom	-11.1158
deacra	-11.1165
14	-11.117
uí	-11.1194
eolaíoch	-11.1201
alcó	-11.1206
hiar	-11.1208
déar	-11.1213
gníomhaíocht	-11.1217
imoibri	-11.1239
aithne	-11.1241
cheadú	-11.1254
láriona	-11.1272
bailío	-11.1281
ny	-11.131
choi	-11.1315
sró	-11.1335
éireo	-11.1337
ríochta	-11.1344
géine	-11.1349
ianta	-11.1351
amhlai	-11.1363
uismitheoir	-11.1374
ghiniú	-11.1378
bhail	-11.1383
▁¦52	-11.1393
ation	-11.1395
pataigin	-11.1401
27	-11.1403
éalainn	-11.1409
seachad	-11.1414
eagraithe	-11.1426
eografach	-11.1428
eán	-11.1431
cos	-11.1432
sprioc	-11.1432
comhsheasmhach	-11.1432
fadthéarmach	-11.1432
staitisti	-11.1432
http	-11.1432
thromchúiseach	-11.1432
oilithr	-11.1432
thaifead	-11.1432
músae	-11.1432
google	-11.1432
threor	-11.1432
scáileá	-11.1432
corónach	-11.1432
tuirc	-11.1432
fiafr	-11.1432
chuairteoir	-11.1433
cheap	-11.1433
luch	-11.1434
digiteach	-11.1434
cathaoir	-11.1434
tharraing	-11.1434
delta	-11.1435
dífhostaíocht	-11.1437
vót	-11.1438
tuáill	-11.144
cep	-11.144
dtuai	-11.1443
foriomlán	-11.1444
thaist	-11.1447
34¦	-11.1448
eilge	-11.145
polaitiú	-11.1451
mhéadaithe	-11.1452
cothrom	-11.1454
bhfanfa	-11.1457
comhpháirt	-11.1457
fanfa	-11.1457
ngeal	-11.146
omharc	-11.1461
ardoideacha	-11.1464
beta	-11.1464
neamhghnácha	-11.1471
éara	-11.1471
braislí	-11.1474
frí	-11.1479
iobr	-11.1479
chónaitheoir	-11.1485
cianfhoghla	-11.1488
cónaitheach	-11.149
lop	-11.1493
bolg	-11.1498
díobhálach	-11.15
cuideachta	-11.15
dhéanf	-11.1503
fhail	-11.1503
ionca	-11.1505
point	-11.1507
staidr	-11.1507
feidhmchlá	-11.1508
gcleachta	-11.1509
beatha	-11.151
orgán	-11.1512
iomp	-11.1515
cuarda	-11.1517
tiomáint	-11.1518
aeir	-11.1531
pea	-11.1534
shonrach	-11.1537
chúramóir	-11.1539
eaglais	-11.154
réamhscoile	-11.1545
▁¦4.	-11.1547
rolla	-11.1555
díghalrú	-11.1559
ocra	-11.1562
táirge	-11.158
hipir	-11.1581
áileog	-11.1589
bc	-11.1613
saíocht	-11.1628
lúb	-11.1632
luach	-11.1636
card	-11.1643
eachtra	-11.1643
éim	-11.1651
mbeart	-11.1674
eáin	-11.1683
ndia	-11.1693
hoile	-11.1693
earr	-11.1727
dhear	-11.1729
bán	-11.1731
cí	-11.1732
mit	-11.1736
slabhr	-11.1737
leata	-11.1753
faighte	-11.1757
idirghabhá	-11.1768
hathr	-11.1789
theagmhála	-11.1791
fuinn	-11.1794
ghinea	-11.1795
míl	-11.1803
ráite	-11.1819
choinn	-11.1825
cr	-11.1826
dúi	-11.1831
▁¦25	-11.1839
pp	-11.1866
ásta	-11.1873
rúise	-11.1924
36	-11.1935
dúshlán	-11.1939
las	-11.1948
soláthr	-11.1957
thain	-11.1958
eisia	-11.198
reim	-11.1986
gnótha	-11.1998
ions	-11.1998
cinnt	-11.2011
cas	-11.2027
has	-11.2058
taispeána	-11.2075
ghéar	-11.2095
éarchéim	-11.2115
sam	-11.2136
sen	-11.2139
comhla	-11.215
25¦	-11.2173
ciníocha	-11.2179
78	-11.2184
sean	-11.222
oscail	-11.2246
zho	-11.2249
bhfaighea	-11.2252
boga	-11.2273
háite	-11.2288
64	-11.2296
coinní	-11.2308
ríofa	-11.231
thaga	-11.2326
ofa	-11.2349
chair	-11.2354
conair	-11.2355
críocha	-11.236
nocht	-11.2373
tonn	-11.2426
son	-11.2436
scaipf	-11.2474
87	-11.2478
wi	-11.2486
sha	-11.2492
gníomhaireacht	-11.251
banc	-11.2518
moo	-11.2519
eras	-11.253
col	-11.2543
dtabharfa	-11.2552
iomad	-11.2565
draig	-11.2574
3	-11.259
use	-11.2601
ríomh	-11.2649
foirgn	-11.265
mair	-11.2658
ghlan	-11.2677
thaisteala	-11.2681
irseach	-11.2699
fheidhm	-11.2703
socró	-11.2723
asc	-11.2738
▁¦46	-11.2742
alla	-11.2748
íghalrú	-11.2763
leictreon	-11.2782
bagairt	-11.2786
caighdeá	-11.2793
tánaiste	-11.2804
crua	-11.2813
samplá	-11.2817
alair	-11.2823
oiriú	-11.2835
aisgha	-11.2837
oiriúnaithe	-11.284
caillte	-11.285
substaint	-11.2859
samhalt	-11.286
dhigiteach	-11.2861
gheilleaga	-11.2861
innealtóireacht	-11.2861
taidhleoireacht	-11.2861
teicníc	-11.2861
veicteoir	-11.2861
fráma	-11.2861
polapróitéin	-11.2861
pragh	-11.2861
shoiléir	-11.2861
chothabhá	-11.2861
compord	-11.2861
oxford	-11.2861
urlabhra	-11.2861
pictiúrlann	-11.2861
íbhuntáist	-11.2861
ollmharga	-11.2861
iobúproif	-11.2861
solúbthacht	-11.2861
mhiondíol	-11.2861
orgá	-11.2862
▁¦4.30	-11.2862
einsím	-11.2862
óthach	-11.2862
ceolchoirme	-11.2863
cáilíocht	-11.2863
dhifriú	-11.2863
nigéir	-11.2863
comhlachtaí	-11.2864
comhdhúil	-11.2864
fhoirmiú	-11.2865
49	-11.2865
cothromaíocht	-11.2866
tubaiste	-11.2866
rannpháirteach	-11.2867
stoi	-11.2867
uillinn	-11.2868
toirmisc	-11.2869
mach	-11.287
dhíola	-11.2871
liom	-11.2871
shiúl	-11.2872
asho	-11.2872
leantach	-11.2872
éifeacht	-11.2872
ionrach	-11.2872
iosr	-11.2877
euro	-11.2879
abhróid	-11.2879
chúige	-11.2879
súg	-11.2882
choláist	-11.2883
feithic	-11.2884
mothú	-11.2884
veicteorach	-11.2885
samhra	-11.2886
gly	-11.2887
mbialann	-11.2889
prote	-11.2889
tionscada	-11.2891
thoil	-11.2892
chomhord	-11.2893
07.	-11.2901
phlá	-11.2902
thrasn	-11.2903
stóráil	-11.2903
téalainn	-11.2904
sualainn	-11.2904
aerbheala	-11.2905
face	-11.2906
taom	-11.291
mbun	-11.2911
jo	-11.2918
costas	-11.2918
▁¦1,000	-11.2931
zhan	-11.2932
phacáist	-11.2937
mbunscoil	-11.2942
scoir	-11.2943
reasach	-11.2944
norm	-11.2966
tagann	-11.2977
taith	-11.2992
chúna	-11.3
ko	-11.3006
agu	-11.3015
ifn	-11.3023
aimín	-11.3023
65	-11.3033
abc	-11.3038
5	-11.3044
74	-11.3057
coga	-11.3068
ron	-11.3075
phróise	-11.3086
pob	-11.3087
dtreoirlín	-11.3096
bainis	-11.3106
beagá	-11.3115
sint	-11.3119
xi	-11.3125
iúltach	-11.3127
goir	-11.3131
marbh	-11.3136
chéime	-11.3167
tap	-11.317
iomadú	-11.3174
ullmha	-11.3178
▁¦2019-	-11.3189
gharda	-11.3191
dae	-11.3208
bhío	-11.322
breatain	-11.3242
hard	-11.3242
▁¦196	-11.3247
sp	-11.325
cheanga	-11.3252
ovirus	-11.3254
cárta	-11.3262
uibh	-11.3264
uinchill	-11.3266
arda	-11.3273
en	-11.3278
cúisí	-11.328
measta	-11.3284
féacha	-11.3294
ley	-11.3309
ráit	-11.3311
dtréimhs	-11.3315
duán	-11.3317
ola	-11.3318
áracha	-11.3318
lo	-11.3333
arman	-11.3341
idirghabhála	-11.3345
aiste	-11.3346
bhfaighfe	-11.3357
mear	-11.3393
gceann	-11.3403
téarma	-11.3414
cumhachta	-11.3419
▁¦78	-11.3422
ince	-11.3422
féar	-11.3423
chaí	-11.3433
chá	-11.3442
fhreastala	-11.3445
cean	-11.3466
breithe	-11.3466
bil	-11.3484
eart	-11.3488
dteann	-11.3489
choróin	-11.3497
.7	-11.3528
fhil	-11.3555
fheidhmiú	-11.3561
ráid	-11.3578
brisea	-11.3612
thi	-11.3628
sl	-11.3632
ens	-11.3639
pleanáil	-11.364
ós	-11.3642
fuil	-11.3665
bholg	-11.3684
uaslódála	-11.372
▁¦99	-11.3729
ceannach	-11.3734
chóna	-11.3736
isté	-11.3743
chúraim	-11.3748
▁¦41	-11.3751
),	-11.3751
riticiú	-11.3759
71	-11.3765
das	-11.3767
inse	-11.3789
▁¦8	-11.38
cúramóir	-11.385
bl	-11.3852
aimse	-11.3855
beart	-11.3883
att	-11.3903
dirghníomhaíocht	-11.3915
bheart	-11.3921
bhaini	-11.3933
lúna	-11.3933
fiche	-11.3937
anáil	-11.3943
▁¦2,3	-11.3947
chealla	-11.3963
cionta	-11.3983
▁¦4,4	-11.403
mbeid	-11.4033
amp	-11.4035
fol	-11.4099
ceacht	-11.411
9	-11.4124
airgead	-11.4124
ald	-11.4131
rac	-11.4132
eabhair	-11.4139
mhant	-11.4143
99	-11.4164
nur	-11.4169
táirgea	-11.4172
tal	-11.4177
athraío	-11.4179
vac	-11.4184
chta	-11.4193
poi	-11.4197
ireacht	-11.4201
deis	-11.4202
alt	-11.4243
braite	-11.426
bi	-11.4266
neamhspleách	-11.4277
)	-11.4286
órsa	-11.4298
rathú	-11.4298
30	-11.4324
▁¦5.	-11.4326
nell	-11.4362
ghl	-11.4371
halla	-11.4392
gluaiseacht	-11.4394
chúl	-11.4403
éigean	-11.4408
chógaslanna	-11.4414
riara	-11.4414
ionfhabh	-11.4419
chaomhn	-11.4421
ceadú	-11.4434
anac	-11.4437
staim	-11.4439
cógaslanna	-11.4453
piri	-11.4456
theoran	-11.4463
theiripe	-11.4469
rochta	-11.4481
dtéa	-11.4482
wo	-11.4493
dteaghla	-11.4495
osclófa	-11.4515
úinteoir	-11.4519
éiginnte	-11.4524
oirth	-11.4525
hop	-11.4527
ferret	-11.4527
insteall	-11.4527
thaispeán	-11.4527
thoirch	-11.4528
tholg	-11.4528
guang	-11.4528
fionnachta	-11.4528
fhabht	-11.4528
oidhreacht	-11.4528
coronaviri	-11.4528
déantúsaíocht	-11.4528
suite	-11.4528
dtuig	-11.4528
claon	-11.4528
máithreacha	-11.4529
gaolmhar	-11.4529
eardchuma	-11.4529
bacainn	-11.4529
fecal	-11.4529
▁¦2019-20	-11.4529
frithghiniú	-11.453
stróc	-11.453
braithf	-11.453
trádá	-11.4531
cupá	-11.4531
scíth	-11.4532
giniú	-11.4532
sainord	-11.4532
ungáir	-11.4533
bhronn	-11.4533
▁¦1.4	-11.4533
chúpl	-11.4533
ollmhór	-11.4534
paul	-11.4534
gclinic	-11.4534
bainisteoir	-11.4534
athraithe	-11.4538
chúins	-11.4539
bhraite	-11.454
feirme	-11.454
contúirt	-11.4541
iompróir	-11.4541
ymp	-11.4544
lomba	-11.4544
cóip	-11.4545
deonach	-11.4545
chathrach	-11.4547
ionsaithe	-11.4555
ok	-11.4555
nhs	-11.4557
mise	-11.4558
chabhair	-11.4559
mbraisl	-11.4561
▁¦2002	-11.4561
cheadaí	-11.4562
dhéag	-11.4562
gaire	-11.4562
oiriúnaitheach	-11.4571
itheoir	-11.4577
heagr	-11.4581
pain	-11.4584
gcineál	-11.4584
róimh	-11.4587
álacha	-11.459
44	-11.4591
suíochá	-11.4599
tánaisteach	-11.4605
iomarcach	-11.4612
deimhni	-11.4614
serop	-11.4618
éig	-11.462
leictreonach	-11.4622
teilea	-11.4623
carna	-11.4628
bprói	-11.4636
hainmh	-11.4646
ear	-11.4647
uineachá	-11.465
chomhair	-11.4655
inné	-11.4658
aíocht	-11.4664
▁¦36	-11.4668
phac	-11.467
ras	-11.4674
asma	-11.4679
teiripeach	-11.4703
oid	-11.4709
spr	-11.471
thús	-11.4712
stra	-11.4715
88	-11.4722
naoi	-11.4726
oliti	-11.473
fhon	-11.4732
maill	-11.4738
himeacht	-11.4739
dtuarascá	-11.4753
cirt	-11.4757
▁¦4,8	-11.4766
olann	-11.4776
▁¦51	-11.4798
igg	-11.4821
luas	-11.4829
dhlúth	-11.484
ow	-11.4845
thástála	-11.485
eáil	-11.4853
alún	-11.4857
60	-11.4868
imsithe	-11.4878
gcor	-11.488
cabhrach	-11.4891
cuar	-11.4898
thap	-11.4898
cv	-11.49
chrutha	-11.4916
óg	-11.4916
gcóireá	-11.4922
ilíoch	-11.4922
ceadúna	-11.4924
buí	-11.4928
hospidé	-11.4934
ngnáth	-11.4942
stoirm	-11.4944
ballstá	-11.4946
0,000	-11.4948
bruitín	-11.497
ndaonra	-11.4984
▁¦34	-11.4988
▁¦32	-11.4994
tip	-11.5015
dúr	-11.5047
cíoch	-11.5052
eisiata	-11.5055
íor	-11.5076
79	-11.5081
aisleá	-11.5083
adóir	-11.5084
res	-11.5089
feist	-11.5108
dáil	-11.5113
82	-11.5114
tionscna	-11.512
dtabharf	-11.5121
dtógfa	-11.5152
08	-11.516
dhéanfa	-11.5174
dhiúlt	-11.5174
dtria	-11.5177
forle	-11.5178
leanfa	-11.5182
chuairt	-11.5183
tearc	-11.5186
med	-11.5205
lon	-11.5226
alára	-11.5234
hath	-11.5236
laois	-11.525
vo	-11.5265
dath	-11.5265
ty	-11.5277
déanaim	-11.5304
84¦	-11.531
tine	-11.5311
námha	-11.5367
▁¦69	-11.5369
chrai	-11.5395
ill	-11.5398
caillea	-11.5415
spleách	-11.5417
sci	-11.5424
▁¦59	-11.5428
diam	-11.543
inní	-11.544
chí	-11.5462
ual	-11.5496
fhé	-11.5505
dhó	-11.5515
uartha	-11.5529
52	-11.5543
abhrach	-11.5556
chois	-11.556
iata	-11.5571
sciath	-11.5573
hen	-11.5588
35¦	-11.5595
ua	-11.5614
bhreithe	-11.5616
ísl	-11.5631
we	-11.5643
itis	-11.5658
rl	-11.5661
tf	-11.5683
íochtar	-11.5696
bio	-11.5696
▁¦57	-11.5701
comhord	-11.5701
dach	-11.5716
ostair	-11.5718
ealaí	-11.5734
1,1	-11.5763
hi	-11.5769
er	-11.5776
22	-11.5777
chuairte	-11.5793
tráchtá	-11.5796
▁¦4,90	-11.5818
bheal	-11.5827
lainn	-11.5831
arad	-11.5833
▁¦47	-11.5843
choinní	-11.5847
pne	-11.5859
hsa	-11.587
iom	-11.587
16	-11.59
98	-11.5912
cló	-11.5922
soláthraí	-11.5923
ghníomhach	-11.5929
rún	-11.5931
annta	-11.5933
▁¦2,5	-11.596
bhailí	-11.5965
cop	-11.5967
féa	-11.5972
33	-11.5974
sheacha	-11.5981
samh	-11.5981
reatain	-11.6007
séala	-11.6016
láidr	-11.6028
aimsí	-11.6044
meánscoil	-11.6045
▁¦4,6	-11.6048
insí	-11.6052
ior	-11.6154
ards	-11.6154
cont	-11.6159
sreabh	-11.6162
bru	-11.617
lt	-11.6171
new	-11.6173
mharga	-11.619
sholátha	-11.6191
kat	-11.6193
ji	-11.6199
mheasa	-11.6199
áthair	-11.622
bharnó	-11.6232
ileog	-11.6233
threoir	-11.6237
dom	-11.6255
ceadaío	-11.6264
threa	-11.6299
scagth	-11.6304
▁¦6.	-11.6331
gi	-11.6347
alraí	-11.6356
ghin	-11.6367
teip	-11.6369
aingea	-11.6375
páirce	-11.6391
ghearra	-11.6394
iarrthó	-11.6402
hiond	-11.6408
eicniú	-11.642
sub	-11.6425
ionchóda	-11.6436
oise	-11.6436
iúin	-11.6443
time	-11.6444
reva	-11.6459
iomáint	-11.6463
íobhálach	-11.647
put	-11.6471
ualainn	-11.6475
éinte	-11.6476
gcinn	-11.6478
ongó	-11.6479
éasúr	-11.6481
éagsú	-11.6484
asta	-11.6486
fhreagair	-11.6487
ceangla	-11.649
veicteora	-11.6493
dtaca	-11.6497
réamhchúra	-11.6501
fhreasta	-11.6501
bunaío	-11.6504
fuinneog	-11.651
tac	-11.6512
iomláin	-11.6514
7,1	-11.6516
lio	-11.6517
oimeád	-11.6519
caifé	-11.652
rraing	-11.6521
lóistí	-11.6527
chruinnithe	-11.6527
#	-11.6527
iargúlta	-11.6527
paiteolaíoch	-11.6527
phríosú	-11.6527
pionós	-11.6527
reáchtáil	-11.6527
rouhani	-11.6527
theicneolaíocht	-11.6527
▁~	-11.6527
bolsonaro	-11.6527
gearrthéarmach	-11.6527
gruagair	-11.6527
ribonucle	-11.6527
éiceolaíoch	-11.6527
anglaidéis	-11.6528
néareolaíoch	-11.6528
peptid	-11.6528
íoslódá	-11.6528
toghchá	-11.6528
mhothúchá	-11.6528
áireofa	-11.6528
prince	-11.6528
riospróir	-11.6528
cispheil	-11.6528
mhinic	-11.6528
cúlchist	-11.6528
lrti	-11.6528
antaigín	-11.6528
shaotharlann	-11.6528
chógas	-11.6528
logáil	-11.6528
suaimhn	-11.6528
tharló	-11.6528
toitín	-11.6528
gcorróg	-11.6528
reachtaíocht	-11.6528
phearsan	-11.6528
seilf	-11.6528
seasmhach	-11.6528
plaicint	-11.6528
bhearna	-11.6528
bhainisteoir	-11.6529
lymphocyt	-11.6529
▁¦8.30	-11.6529
shábháilte	-11.6529
mionsonra	-11.6529
▁¦3,1	-11.6529
míchompord	-11.6529
imoibríoch	-11.6529
comhionann	-11.6529
malart	-11.6529
dífhost	-11.6529
chianfhoghla	-11.6529
nsaid	-11.6529
bhreathn	-11.653
ionanál	-11.653
comhlán	-11.653
socrúchá	-11.6531
fairsing	-11.6531
impí	-11.6531
blúir	-11.6531
pacáist	-11.6532
aeráid	-11.6532
parlaimint	-11.6533
cumhda	-11.6534
thráth	-11.6534
ww	-11.6535
modheolaíocht	-11.6536
mífhaisnéis	-11.6537
croith	-11.6538
cónaithe	-11.6538
ceimiceach	-11.6538
itéir	-11.6539
fulaing	-11.6539
ionchas	-11.654
deoch	-11.6541
▁¦1,2	-11.6541
carr	-11.6544
aoisghrúpa	-11.6545
spórt	-11.6546
gaothair	-11.6547
way	-11.6548
bhrisea	-11.6549
pholaitiú	-11.655
conclúid	-11.655
fhosta	-11.6551
ector	-11.6551
rúnda	-11.6551
bhuaic	-11.6551
heaglais	-11.6552
mín	-11.6553
caillteana	-11.6555
fiaclóir	-11.6555
gníomhaire	-11.6556
ghorta	-11.6559
tábhacht	-11.656
leithdháil	-11.6561
soiléire	-11.6563
▁¦2018	-11.6564
infheidhm	-11.6567
iam	-11.6568
lance	-11.657
mhodhn	-11.6573
fhoirm	-11.6575
múnla	-11.6577
thrí	-11.6577
homalógach	-11.6579
chomhpháirt	-11.6579
húsáideoir	-11.658
napro	-11.658
caighdeánach	-11.658
gceanglaí	-11.6581
choimisiún	-11.6582
dhos	-11.6582
bac	-11.6587
ligf	-11.6589
dheireanach	-11.659
ro	-11.6595
fhillea	-11.6603
thuaisc	-11.6603
polar	-11.6608
cairte	-11.661
comhdhá	-11.6616
aici	-11.6618
ordaío	-11.6621
mont	-11.6626
tharchuir	-11.6628
irde	-11.664
síochán	-11.6643
zhe	-11.6643
tionól	-11.6644
pha	-11.6645
cheo	-11.6648
ity	-11.6649
intern	-11.6654
leamhna	-11.6654
barda	-11.6655
ceangailte	-11.6655
cheil	-11.6659
chor	-11.666
advi	-11.6661
choinníoll	-11.6662
aithin	-11.6662
chógaslann	-11.6668
crích	-11.6668
eirse	-11.6675
chomhbhr	-11.6682
aidrea	-11.6689
amino	-11.6691
bhfíor	-11.6709
stáisiú	-11.671
íceolaíoch	-11.6715
reast	-11.6715
shuío	-11.6731
laghdói	-11.6732
slándá	-11.6744
aigéin	-11.6754
▁¦400	-11.6757
acadú	-11.6765
bhfill	-11.6777
chairt	-11.6779
oireachta	-11.6782
ive	-11.6785
sea	-11.6797
geall	-11.6802
gcamá	-11.6811
idirghníomhaío	-11.6817
haer	-11.6827
irmheánach	-11.6848
chuma	-11.6856
▁¦68	-11.686
eata	-11.6868
ánach	-11.6873
fhá	-11.6878
45	-11.6879
ik	-11.6886
▁¦9.3	-11.6889
anom	-11.69
aldi	-11.6901
tabharf	-11.6903
cinntí	-11.6918
iseoir	-11.6919
gairm	-11.6923
slua	-11.6929
cúrsa	-11.6944
iall	-11.6945
mu	-11.695
dtóg	-11.6961
lian	-11.6962
crit	-11.6964
iontach	-11.6976
liúchá	-11.6985
scagair	-11.699
ond	-11.699
lón	-11.6997
mc	-11.7011
digh	-11.7015
dife	-11.7052
íogaire	-11.7056
her	-11.7066
réada	-11.7074
taibh	-11.7084
shíni	-11.7092
▁¦73	-11.7093
chen	-11.7094
sochaí	-11.7097
dteach	-11.7107
61	-11.7108
1.7	-11.7125
saille	-11.7129
balla	-11.7188
longfo	-11.719
láidre	-11.7192
port	-11.7215
allmhair	-11.7219
chreidte	-11.7223
radagrafaíochta	-11.7237
nda	-11.7238
nte	-11.7239
bhfreastalaí	-11.7241
pro	-11.7245
cleacht	-11.7248
scrios	-11.7297
mad	-11.7303
modhn	-11.7317
úsáidf	-11.7319
gcéi	-11.7335
chán	-11.7371
she	-11.7385
rí	-11.7409
coir	-11.741
omh	-11.7414
cosúlachta	-11.7423
ionc	-11.7428
athnaío	-11.7436
labhra	-11.744
▁¦9.	-11.7458
athl	-11.7471
ghaol	-11.7483
nsom	-11.7501
vei	-11.751
fhua	-11.752
sainaith	-11.7528
imir	-11.7536
fáilt	-11.7544
▁¦201	-11.7549
shen	-11.7555
▁¦75	-11.7558
éilí	-11.7563
chialla	-11.7575
ims	-11.7575
leic	-11.7589
▁¦77	-11.7605
ciníoch	-11.7607
.4	-11.7644
rann	-11.7657
úr	-11.7661
hiondú	-11.7674
sc	-11.7704
ghabhá	-11.7725
sá	-11.7732
bor	-11.7752
dán	-11.7755
beanna	-11.7765
spleácha	-11.7771
iarth	-11.7777
sne	-11.7785
uachtar	-11.7803
dlú	-11.7811
cruinni	-11.7864
scr	-11.7869
bhfreagra	-11.7873
75	-11.7896
80	-11.7906
gen	-11.7906
dars	-11.7912
chabhra	-11.7925
j	-11.7955
gabh	-11.7971
luc	-11.7984
40	-11.799
39	-11.799
cheath	-11.8006
▁¦86	-11.8021
aidri	-11.8027
bunai	-11.8027
cf	-11.8038
fhreastal	-11.8041
untas	-11.8048
meabhra	-11.8052
bhra	-11.8054
thabh	-11.8055
fill	-11.807
tach	-11.8079
line	-11.8088
▁¦250	-11.8105
tóir	-11.8108
asach	-11.8141
▁¦4,92	-11.8152
▁¦2-	-11.8165
bear	-11.817
jan	-11.8175
aistrí	-11.8232
aerfo	-11.8245
maola	-11.8253
diclo	-11.8259
cois	-11.826
12	-11.8279
meabhr	-11.8281
eip	-11.831
bus	-11.8319
war	-11.8355
chait	-11.8355
gceall	-11.8368
uirb	-11.8389
20,000	-11.8396
imhe	-11.8403
my	-11.8408
ghrúp	-11.8412
chod	-11.8417
4	-11.8422
oga	-11.8423
ipt	-11.843
teirip	-11.8439
ibh	-11.844
chlo	-11.8441
▁¦4,3	-11.8476
ceapt	-11.8478
chas	-11.8508
mhó	-11.8514
neas	-11.8528
ilte	-11.8539
ment	-11.8541
teochta	-11.8546
docht	-11.8558
chríochn	-11.8573
cia	-11.8579
aitheoir	-11.8583
lond	-11.8592
tráthú	-11.8593
reagairt	-11.8611
▁¦0.	-11.8616
réad	-11.8617
scrí	-11.8621
mur	-11.8629
réamhth	-11.8646
geal	-11.8655
thionsca	-11.8684
shan	-11.8687
chónaithe	-11.8715
br	-11.8717
idéal	-11.8717
▁¦1,3	-11.8731
gcóir	-11.8742
clinic	-11.8753
bliant	-11.8765
reacht	-11.8767
ile	-11.8767
próise	-11.8771
coróivír	-11.8782
critic	-11.8786
bup	-11.8789
bre	-11.8793
tairg	-11.8814
zi	-11.8821
01	-11.8839
▁¦2,4	-11.8851
mbia	-11.8856
treacha	-11.8863
comhgh	-11.8863
bhfeic	-11.8865
próis	-11.8866
ghairm	-11.8873
éimeagrafach	-11.8884
eipidéimeola	-11.8887
866	-11.8893
téama	-11.8895
casachta	-11.8901
mholta	-11.8911
itheach	-11.8911
uaig	-11.8921
feic	-11.8929
tábhachta	-11.8933
41	-11.8937
caiteacha	-11.8939
foilsithe	-11.8946
tril	-11.8948
eora	-11.8956
phob	-11.8957
▁¦3,5	-11.8958
geilleaga	-11.8964
eatramh	-11.8965
22,6	-11.8966
clóirí	-11.8968
reid	-11.8976
▁¦3,9	-11.8981
aipín	-11.8982
rúpa	-11.8987
thábhacht	-11.8988
dhea	-11.8994
▁¦8,	-11.8994
uter	-11.8995
ream	-11.9005
ulaing	-11.9016
ainéa	-11.9016
rannpháirt	-11.9017
acasamhl	-11.9017
réagach	-11.9019
luich	-11.9019
arlaimint	-11.9021
oicís	-11.9021
sraoth	-11.9022
shábháil	-11.9023
shlándá	-11.9026
patr	-11.9027
fóirdheon	-11.9027
léarscáil	-11.9027
murtall	-11.9027
phrótaca	-11.9027
shuiteá	-11.9027
bhreoiteacht	-11.9027
chumarsáid	-11.9027
cnáimhseacha	-11.9027
corticosteroid	-11.9027
dioplóma	-11.9027
grianghraf	-11.9027
heipitít	-11.9027
leordhóthanach	-11.9027
neamhshiméadrach	-11.9027
tomagrafaíocht	-11.9027
trédhearcach	-11.9027
×	-11.9027
bricfe	-11.9027
chumhacht	-11.9027
gruaige	-11.9027
interferon	-11.9027
monocl	-11.9028
turgnamhach	-11.9028
cairdiach	-11.9028
dhúshlá	-11.9028
déthaobhach	-11.9028
bonneaga	-11.9028
wiki	-11.9028
tuaslag	-11.9028
fíric	-11.9028
oilimpeach	-11.9028
infheistíocht	-11.9028
urlac	-11.9028
coibhneas	-11.9028
mídhleathach	-11.9028
pub	-11.9028
gheimhr	-11.9028
aclaí	-11.9028
thabharfa	-11.9028
▁¦1890	-11.9028
pholaiteoir	-11.9028
▁¦2,1	-11.9028
raidió	-11.9029
lochtach	-11.9029
meaisín	-11.9029
turasóireacht	-11.9029
comhráite	-11.903
exo	-11.903
ghné	-11.903
▁¦1.8	-11.903
politic	-11.903
riarthóir	-11.903
shocha	-11.9031
dánlann	-11.9031
nideo	-11.9031
trans	-11.9031
muinín	-11.9032
creat	-11.9032
sceid	-11.9032
theorainn	-11.9033
píolótach	-11.9035
▁¦1.1	-11.9036
cnap	-11.9036
rhino	-11.9036
ogra	-11.9037
lou	-11.9037
míneo	-11.9037
batcov	-11.9037
iníocha	-11.9038
úcrá	-11.9038
▁¦3.5	-11.9038
méadrach	-11.9039
bhialann	-11.904
chroí	-11.904
forlíontach	-11.904
féilir	-11.904
choimpléasc	-11.9041
fhisic	-11.9041
franc	-11.9041
lbou	-11.9044
fostóir	-11.9047
buíoch	-11.9048
mairf	-11.9049
baictéarach	-11.9049
mothúchá	-11.9049
stail	-11.905
.1.	-11.905
eiceálacha	-11.905
bpoint	-11.9051
-200	-11.9051
sicín	-11.9052
▁¦3.8	-11.9052
thriú	-11.9052
tuairimí	-11.9053
ceannasach	-11.9053
mhonaróir	-11.9054
epi	-11.9055
uimi	-11.9055
gairdín	-11.9056
jiang	-11.9057
angio	-11.9058
dhruga	-11.9059
drui	-11.906
gcúl	-11.9063
choim	-11.9064
tochas	-11.9065
borr	-11.9066
shuíochá	-11.9066
gnóthacha	-11.9066
thán	-11.9067
acmhainneacht	-11.9069
lab	-11.907
príosúnach	-11.9074
bhforb	-11.9074
cruthú	-11.9074
▁¦0.3	-11.9074
imeallach	-11.9076
sell	-11.9076
bhailiúchá	-11.9077
claontacht	-11.9078
osúla	-11.908
folc	-11.9083
you	-11.9084
bhfo	-11.9084
admha	-11.9086
fhéach	-11.9086
▁...	-11.9088
nochtú	-11.9089
conra	-11.909
sheasa	-11.9092
gáma	-11.9092
chli	-11.9093
paráid	-11.9093
rdr	-11.9095
uasdát	-11.9096
madra	-11.9098
syn	-11.9099
stad	-11.9101
thuiscint	-11.9101
nji	-11.9103
múch	-11.9104
paid	-11.9108
feithi	-11.911
barr	-11.9115
ribo	-11.9117
▁¦4.8	-11.9118
earráid	-11.912
cruach	-11.9125
cata	-11.9126
cúrsaí	-11.9127
meicn	-11.913
bpríomh	-11.9132
déantús	-11.9135
tómach	-11.9136
iasc	-11.9137
dtimpeallacht	-11.914
imint	-11.9141
oirf	-11.9142
gníomhair	-11.9142
shása	-11.9143
scríb	-11.9145
taif	-11.9145
éidearthacht	-11.9157
▁¦10,000	-11.9159
buntáist	-11.916
catar	-11.916
uaslódá	-11.9171
urg	-11.9173
forfheidhmi	-11.918
eascair	-11.9182
ainiú	-11.9186
bhfoirm	-11.9188
teilifíse	-11.9189
haitheanta	-11.9191
▁¦2,6	-11.9192
rrt	-11.9195
shean	-11.9199
nsp	-11.9199
fhoinsí	-11.9204
gy	-11.9205
mhéadaitheach	-11.9205
cúirte	-11.9205
iac	-11.9209
ioslam	-11.9211
ríomhpho	-11.9213
bailiúchá	-11.9214
ngníomh	-11.9216
zoo	-11.9217
feicfi	-11.922
taistealaí	-11.9224
corói	-11.9226
meiriceána	-11.9228
siam	-11.9229
ghnóth	-11.924
astaío	-11.924
teo	-11.9245
gel	-11.9246
bheirt	-11.9247
shraith	-11.9247
spi	-11.9252
tástálaí	-11.9252
núicléach	-11.9252
iceo	-11.9263
fhéin	-11.9265
mífheidhm	-11.9271
huath	-11.9275
húlra	-11.9288
áirithint	-11.929
76¦	-11.9296
scríbhinn	-11.93
imer	-11.9315
éisteachta	-11.9319
mheasta	-11.9319
raideolaíoch	-11.9328
eitril	-11.9339
fual	-11.9347
300	-11.9358
mhodh	-11.936
roinne	-11.9363
ora	-11.9366
fhíorú	-11.9371
ll	-11.9371
béile	-11.9373
olaiteoir	-11.9382
ru	-11.9385
íoch	-11.9407
bro	-11.9412
asacht	-11.9412
jin	-11.9423
roth	-11.9426
▁¦4,83	-11.943
neamhspleácha	-11.9437
iúr	-11.9441
coinneoi	-11.9446
dearca	-11.9446
ome	-11.9457
bhuana	-11.9469
thrá	-11.9471
feola	-11.948
gm	-11.9492
núicléas	-11.9507
romha	-11.9513
deartha	-11.9528
ceap	-11.9528
gceadó	-11.9536
easc	-11.954
▁¦4,7	-11.9542
núicléa	-11.9545
ho	-11.9547
avir	-11.9549
ainmhí	-11.9551
dtarchuir	-11.9551
neodr	-11.9555
▁¦3.	-11.9572
feasach	-11.9572
live	-11.9579
chuimsithe	-11.9584
scanrú	-11.9584
sanit	-11.9587
téachtá	-11.9591
shí	-11.9609
triom	-11.9618
chomhaont	-11.963
riar	-11.9637
éadan	-11.9646
bhfear	-11.9655
seáil	-11.9669
eipidéime	-11.9696
▁¦290	-11.9698
freagracht	-11.9712
ell	-11.9723
bhlian	-11.9741
mel	-11.9748
sola	-11.976
himpl	-11.9784
▁¦0.2	-11.9801
lg	-11.9802
leog	-11.982
▁¦8.	-11.9833
bhlain	-11.9846
stáil	-11.9857
míos	-11.9863
díhiodráiti	-11.9866
mes	-11.987
sú	-11.9871
óim	-11.9872
dicl	-11.988
vs	-11.989
elli	-11.9892
▁¦79	-11.9897
ndála	-11.9906
críosta	-11.991
per	-11.9915
aisinéir	-11.9917
gáil	-11.9921
íocaíochta	-11.9921
gcúig	-11.993
óidí	-11.9949
háit	-11.9966
deas	-11.9979
eánscoil	-11.9997
óip	-11.9998
mi	-11.9999
tacht	-12.0015
bunaíochta	-12.0035
mhíni	-12.0039
iarmhar	-12.0047
roghnach	-12.0053
áras	-12.0054
ionsa	-12.0056
isp	-12.0077
thos	-12.0078
▁¦2015	-12.0078
wel	-12.0082
rne	-12.0096
chaighdeán	-12.0102
eálacha	-12.0148
úsáidfi	-12.0157
bró	-12.0182
rid	-12.0195
isear	-12.0203
▁¦2.2	-12.0211
▁¦1201	-12.0215
cothaithe	-12.0217
socraío	-12.0231
remi	-12.026
uachtará	-12.0283
eilg	-12.0288
ney	-12.0358
teagmhálach	-12.0358
théa	-12.0362
béa	-12.0367
fead	-12.0369
▁¦2,2	-12.0371
,54	-12.0439
3,40	-12.0442
ghlant	-12.0443
test	-12.0445
▁¦4,71	-12.0457
rach	-12.0467
bri	-12.0492
athscrí	-12.0503
oibreoi	-12.0506
mais	-12.0509
mheicn	-12.0514
ailte	-12.0516
fororda	-12.0543
▁¦97,0	-12.055
cac	-12.0568
ews	-12.0594
pail	-12.0606
stór	-12.0632
drom	-12.0632
ríomhaire	-12.0635
).	-12.0638
fíorú	-12.0639
cuimsi	-12.064
05	-12.0647
gcaithfe	-12.0649
aicm	-12.0656
ochtain	-12.0658
-19	-12.0663
mhíle	-12.069
mhais	-12.069
laghdaío	-12.0691
73¦	-12.0692
peile	-12.0716
iarra	-12.0726
alb	-12.0749
▁¦76	-12.0749
laithe	-12.0766
samhail	-12.0804
féinmh	-12.0822
77	-12.0827
oirte	-12.0829
ceannachá	-12.0829
pol	-12.0834
eil	-12.0841
riton	-12.0843
isceacht	-12.086
35	-12.0901
shrutha	-12.0912
ts	-12.0917
consalacht	-12.0945
brón	-12.0946
cultú	-12.0962
colainn	-12.0986
dúshlá	-12.0992
iomptómach	-12.0993
phla	-12.1
icít	-12.1018
chaighdeá	-12.1034
io	-12.106
taca	-12.1062
forá	-12.1064
gcógaslann	-12.1077
neamhdh	-12.1085
méadaío	-12.1101
ghartheagmhá	-12.1102
1,6	-12.111
onas	-12.1114
sep	-12.1117
ped	-12.1123
gorta	-12.1133
deise	-12.114
aireo	-12.1186
gr	-12.1194
comhábha	-12.1201
mheán	-12.1205
mórt	-12.1212
7,6	-12.1218
saill	-12.1219
yw	-12.1231
108	-12.124
idirch	-12.1242
íocaíocht	-12.1257
aisghabh	-12.1264
phríobháideacha	-12.1275
mhara	-12.1283
ngartheagmhála	-12.1295
príosún	-12.131
phei	-12.1334
bhé	-12.1337
pre	-12.1343
éada	-12.1388
cosnaí	-12.1394
▁¦4,0	-12.1401
nuachtá	-12.1417
cait	-12.142
mú	-12.1452
ki	-12.1454
teanna	-12.1468
dheir	-12.1477
▁¦4,1	-12.148
si	-12.1482
chuirf	-12.1484
15	-12.1534
ope	-12.155
theag	-12.1559
bal	-12.1575
laghdó	-12.1578
▁¦3,6	-12.1605
dháta	-12.1605
cheall	-12.162
téacht	-12.1631
neodra	-12.167
iamh	-12.1673
cro	-12.1677
sraiththástála	-12.1681
ib	-12.1681
chó	-12.1683
ers	-12.1692
íre	-12.1739
ue	-12.1775
rcaí	-12.1782
isc	-12.1785
airg	-12.1805
bairt	-12.1807
scanr	-12.1808
stat	-12.1856
wor	-12.1868
ri	-12.1881
gco	-12.1894
81	-12.1898
▁¦140	-12.1919
caoine	-12.1922
bair	-12.1929
cloch	-12.1935
clo	-12.1948
ionadaíoch	-12.195
úlra	-12.1952
gníomhaí	-12.1954
end	-12.1972
gla	-12.1983
mao	-12.1987
mer	-12.1996
"	-12.2008
hy	-12.2021
▁¦179	-12.204
rianaío	-12.2046
breathn	-12.2054
sholáthraí	-12.2066
59¦	-12.2084
pa	-12.2084
06	-12.209
grán	-12.209
eolaíocht	-12.2094
ceadaí	-12.2102
róid	-12.2104
céadfach	-12.2126
laghdaí	-12.2138
dinimic	-12.2139
teilifís	-12.214
nio	-12.215
táin	-12.2157
nder	-12.2158
leve	-12.2161
fheicf	-12.2174
saint	-12.2179
sk	-12.2186
ilín	-12.2196
bunscoil	-12.2207
tóm	-12.2222
eadófa	-12.2222
rdia	-12.2225
irim	-12.2227
fheist	-12.2229
forbrói	-12.2231
gairmi	-12.2237
ocha	-12.2238
ilíneachta	-12.2253
bailí	-12.2257
dia	-12.2261
▁¦269,	-12.2261
eachtranna	-12.2277
oibríoch	-12.2278
▁¦1,7	-12.2287
liacht	-12.2291
tho	-12.2294
bhéil	-12.23
ott	-12.2302
▁¦72	-12.231
bhfan	-12.2311
speisial	-12.2314
chúig	-12.2318
siomptó	-12.2319
clúidí	-12.232
seice	-12.2326
ireann	-12.2326
impist	-12.2326
gcait	-12.2327
suntasa	-12.2332
phataigin	-12.2332
comhshao	-12.2338
séasú	-12.2338
tob	-12.2339
tromchúis	-12.2339
tiom	-12.2342
fuinneo	-12.2343
dhíri	-12.2343
raoin	-12.2343
phor	-12.2344
zónóis	-12.2345
airdín	-12.2348
itíop	-12.2351
rithghníomha	-12.2351
fein	-12.2355
mhaoin	-12.2356
hiodráiti	-12.2357
adtéarmach	-12.2359
treo	-12.2359
inflamma	-12.2361
shuaimhnea	-12.2361
@	-12.2361
athbheochan	-12.2361
coigeart	-12.2361
círéib	-12.2361
eitibileach	-12.2361
infhéitheach	-12.2361
iompraíochta	-12.2361
péidiatraice	-12.2361
trioblóid	-12.2361
α	-12.2361
β	-12.2361
▁¦6,1	-12.2361
associat	-12.2361
cheimice	-12.2361
doorknob	-12.2361
giomnáis	-12.2361
hypox	-12.2361
líomhna	-12.2361
threocht	-12.2361
ambasáid	-12.2361
cóngarach	-12.2361
mheabhrú	-12.2361
service	-12.2361
colaistéaró	-12.2361
ocsaíd	-12.2361
praiticiú	-12.2361
torthúlacht	-12.2361
cliceáil	-12.2361
sábhál	-12.2361
thoitín	-12.2361
health	-12.2361
cryo	-12.2361
choigeart	-12.2361
club	-12.2361
inaistrithe	-12.2361
shaoráid	-12.2361
sreang	-12.2361
ionscópacht	-12.2361
atlanta	-12.2361
cileav	-12.2361
iarsma	-12.2361
ortaingéil	-12.2361
dualga	-12.2361
pleura	-12.2361
sheich	-12.2361
▁¦235,	-12.2361
fhigiú	-12.2361
ríoga	-12.2361
thréimhs	-12.2361
capita	-12.2361
vaicsaín	-12.2361
díréireach	-12.2361
▁¦37.6	-12.2361
staidiam	-12.2361
cliniceoir	-12.2361
áipéis	-12.2361
lóistíocht	-12.2362
neamhchinntithe	-12.2362
fauc	-12.2362
fhadhb	-12.2362
wipe	-12.2362
foilseachá	-12.2362
broncho	-12.2362
aonchineálach	-12.2362
shíomptó	-12.2362
medical	-12.2362
coincheap	-12.2362
athmhúnl	-12.2362
bloc	-12.2362
naíolann	-12.2362
thaiscuma	-12.2362
faeca	-12.2363
phragh	-12.2363
shamhla	-12.2363
shaineola	-12.2364
neamhshlándá	-12.2364
sícea	-12.2364
impeach	-12.2364
oirdheisc	-12.2365
siúcra	-12.2365
▁¦1,4	-12.2365
priontá	-12.2365
mbraithfe	-12.2365
mhicreascóp	-12.2365
▁¦6.30	-12.2365
neamhchinnte	-12.2365
móilín	-12.2365
spot	-12.2365
-1	-12.2366
thshlán	-12.2366
▁¦3,7	-12.2366
fáisc	-12.2366
dóchúlacht	-12.2366
▁¦1960	-12.2367
tithíocht	-12.2367
▁¦6.0	-12.2367
corv	-12.2368
comórta	-12.2368
genómach	-12.2369
thaighde	-12.2369
▁¦247,	-12.2369
comhrá	-12.237
-7.2	-12.237
éiginnteacht	-12.237
luaise	-12.237
lúbtha	-12.2371
dhiagnóiseach	-12.2371
thura	-12.2371
prop	-12.2371
aitíopú	-12.2371
mhóilíneach	-12.2371
bplá	-12.2372
ocsaineacht	-12.2372
mhaíochta	-12.2373
cheangla	-12.2375
sholáthró	-12.2375
pho	-12.2375
sólá	-12.2376
luasghéa	-12.2376
dídean	-12.2377
víosa	-12.2377
alóg	-12.2377
heiscea	-12.2378
ribí	-12.2378
bpacáist	-12.2378
flam	-12.2378
mheácha	-12.2379
glio	-12.2379
ambas	-12.2379
dúlaga	-12.238
teirmeach	-12.238
chothaith	-12.2381
measúnacht	-12.2381
geallta	-12.2382
heagraíochta	-12.2383
athlas	-12.2384
dóchúla	-12.2385
móilíneach	-12.2386
sprae	-12.2386
intín	-12.2386
plaisteach	-12.2387
chobhsaí	-12.2387
lanc	-12.2387
súl	-12.2388
raenach	-12.2388
onnmhair	-12.2389
obla	-12.2389
bhrost	-12.239
abb	-12.239
póil	-12.2393
fabhrach	-12.2394
ocyto	-12.2395
craice	-12.2397
fp	-12.2397
athoscló	-12.2397
bréagach	-12.2399
oibriúchá	-12.2399
ailléirgeach	-12.2399
utó	-12.24
ultra	-12.24
glais	-12.24
othromaíocht	-12.2402
eagra	-12.2403
misinéir	-12.2404
hearnála	-12.2405
adóireacht	-12.2405
chónaidhm	-12.2405
▁¦3.0	-12.2405
bhfost	-12.2406
eirfiúr	-12.2408
yes	-12.2408
freagrach	-12.2409
189	-12.2409
mhuir	-12.2409
heipidéime	-12.2409
lim	-12.241
mmer	-12.2411
▁¦243,	-12.2411
chluas	-12.2412
scuain	-12.2412
dtaispeánta	-12.2412
amnes	-12.2415
ástacht	-12.2415
péire	-12.2417
choga	-12.2417
mosc	-12.2418
thóir	-12.2418
breathnóireacht	-12.2419
thosca	-12.2419
fhac	-12.2419
ey	-12.2419
child	-12.2419
▁):	-12.2424
6	-12.2425
▁¦2,8	-12.2426
bhféad	-12.2427
siom	-12.2427
teampa	-12.2428
0.1	-12.2428
haem	-12.2431
leochail	-12.2435
▁¦195	-12.2435
ghlacad	-12.2438
gcos	-12.244
mcen	-12.2443
comharthaíocht	-12.2445
eatramhach	-12.2449
▁¦2004	-12.2449
clóiríd	-12.2451
fhionn	-12.2452
mbreathn	-12.2453
ógart	-12.2454
mboga	-12.2456
▁¦4,78	-12.2457
mháinliacht	-12.2459
hantai	-12.2463
bhean	-12.2464
orróg	-12.2464
feno	-12.2467
bearna	-12.2469
ks	-12.2469
fhágfa	-12.2469
cuimil	-12.247
gcód	-12.2473
anatamaíocht	-12.2475
samplála	-12.2475
óide	-12.248
phre	-12.2482
cca	-12.2483
rithf	-12.2486
oimpléasc	-12.2491
agrach	-12.2493
seal	-12.2494
píosa	-12.2499
bhola	-12.2503
mhui	-12.2504
theiripeach	-12.2504
hacmhainn	-12.2504
ys	-12.2505
stin	-12.2506
fontan	-12.2509
ybe	-12.2509
margaíocht	-12.2511
massa	-12.2513
plu	-12.2515
bhuí	-12.2516
málta	-12.2516
▁¦114	-12.2516
ubai	-12.2518
ionta	-12.2523
coinneálach	-12.2523
wen	-12.2524
ionchód	-12.2528
pof	-12.2529
cosúla	-12.2533
riom	-12.2534
achta	-12.2535
inter	-12.2536
9,33	-12.2537
comhpháirtí	-12.2547
9,32	-12.2549
inrochta	-12.255
4.5	-12.2551
crs	-12.2552
tarraingt	-12.2557
upro	-12.2557
nlr	-12.2557
lic	-12.2558
lonna	-12.2558
media	-12.2566
bailt	-12.2574
chonaic	-12.2578
doirtea	-12.2583
aiseola	-12.2583
ócaireacht	-12.2585
gcomhair	-12.2586
ríoch	-12.2587
bainte	-12.2588
fall	-12.2589
aimsir	-12.259
earnála	-12.2591
▁¦251,	-12.2591
▁¦1,38	-12.2596
204	-12.2618
plú	-12.2621
gail	-12.2622
bhur	-12.2623
eitic	-12.2629
críochna	-12.2637
fer	-12.264
ndír	-12.264
ka	-12.2649
trasna	-12.2656
yl	-12.2657
asti	-12.2666
tge	-12.2669
▁¦99.	-12.267
astái	-12.267
scá	-12.2671
seir	-12.2671
chop	-12.2677
thacú	-12.268
marthan	-12.268
dhlí	-12.2709
chónaitheo	-12.2716
shé	-12.2719
cór	-12.2721
próiseáil	-12.2723
stua	-12.2725
istic	-12.2726
head	-12.2728
páirtí	-12.273
bea	-12.2736
daingn	-12.2739
▁¦242,	-12.2741
▁¦62	-12.2741
ranna	-12.2746
rus	-12.2749
méadó	-12.2754
bharda	-12.2754
feabhsa	-12.2755
faire	-12.2765
chúrsaí	-12.2765
▁¦4,87	-12.2766
tas	-12.2767
56	-12.2779
isín	-12.2783
scam	-12.2806
tions	-12.2815
horm	-12.2831
hai	-12.2835
lom	-12.2842
▁¦10-1	-12.2842
oibreo	-12.285
▁¦186	-12.286
líneach	-12.2873
mórimeacht	-12.2873
blin	-12.2877
aistr	-12.2892
chuarda	-12.2894
ióga	-12.2894
gear	-12.29
próiseála	-12.2903
rua	-12.2907
val	-12.2941
racht	-12.2946
urra	-12.2948
sti	-12.2956
3,56	-12.2959
pholai	-12.2961
omhdhúil	-12.2969
phróiseáil	-12.2974
▁¦7.4	-12.2974
ather	-12.299
ghlactha	-12.2991
ju	-12.2991
fáilte	-12.3023
gaol	-12.3024
comhthéacs	-12.3043
▁¦198	-12.3057
loing	-12.3063
vel	-12.3064
plan	-12.3082
coireacht	-12.3085
sraiththástá	-12.31
déag	-12.3102
caps	-12.3111
shain	-12.3122
▁¦3,3	-12.315
scamhógach	-12.3155
rathúla	-12.3166
mul	-12.3171
monarchan	-12.3173
ku	-12.3173
68	-12.3181
neamhch	-12.3182
▁¦56	-12.3189
aillí	-12.3209
laí	-12.3211
ardaí	-12.3212
foll	-12.3218
tiú	-12.322
qa	-12.322
eastái	-12.3221
ainistíocht	-12.3242
86	-12.3243
meánach	-12.3252
obh	-12.3254
coronav	-12.3277
viv	-12.3286
cap	-12.3302
raigh	-12.3308
ento	-12.3318
▁¦4,13	-12.3333
dlín	-12.3334
máin	-12.3345
ios	-12.3358
28	-12.336
▁¦6,5	-12.336
carn	-12.3364
contr	-12.3382
mai	-12.3398
aeltacht	-12.3404
abhar	-12.3417
chorói	-12.3418
osaint	-12.3425
istí	-12.3431
orb	-12.3451
gcomhar	-12.3479
ghai	-12.3488
gcu	-12.3512
seisiúin	-12.3525
urna	-12.354
inathraithe	-12.354
ghníomhacht	-12.3541
dow	-12.3546
hion	-12.3549
vin	-12.3559
mona	-12.3563
ndéana	-12.3563
ern	-12.3568
criosann	-12.3571
▁¦402	-12.3583
pé	-12.3584
ógá	-12.3584
cainte	-12.3602
ick	-12.3608
cuide	-12.3612
ndeimhní	-12.363
tíní	-12.366
.8	-12.3664
pr	-12.3667
spá	-12.3686
▁¦08	-12.3699
dtitf	-12.3706
cuimhne	-12.3709
beann	-12.3745
fhreagrach	-12.3752
cri	-12.3789
ltaí	-12.379
idhmeanna	-12.3791
ings	-12.3796
ghu	-12.3797
díri	-12.3814
5,000¦	-12.3829
úra	-12.3843
aimsi	-12.3868
▁¦520	-12.3876
fhillte	-12.3907
inal	-12.3914
athúsáidte	-12.3917
fel	-12.3927
ónach	-12.3963
isiún	-12.397
46	-12.3979
▁¦61	-12.4005
url	-12.4016
théacs	-12.4023
féidearthachta	-12.4032
▁¦98	-12.4039
macasamhla	-12.4071
▁¦254,	-12.4083
coi	-12.4091
▁¦13.	-12.4108
tachta	-12.413
42	-12.4133
maoin	-12.414
cabh	-12.4152
▁¦5.7	-12.4158
béi	-12.4168
▁¦121	-12.4201
consalachta	-12.4223
bat	-12.4224
istan	-12.4226
natur	-12.4245
gortaío	-12.4268
rit	-12.4271
chói	-12.43
2-	-12.431
straitéise	-12.4316
ut	-12.4317
diúlt	-12.4326
mhúnla	-12.4347
chabh	-12.4393
athnua	-12.4404
som	-12.4418
bhá	-12.4432
creidea	-12.4438
ráin	-12.4442
aipeann	-12.4463
bhla	-12.4463
xin	-12.4485
laise	-12.4489
nglan	-12.4504
uaslódál	-12.4504
▁¦7.	-12.4506
diú	-12.4551
lia	-12.4559
clói	-12.4559
cil	-12.4584
em	-12.4593
deor	-12.4595
áideann	-12.4599
fhíochá	-12.4605
igine	-12.4611
géin	-12.4619
07	-12.4636
ingt	-12.4636
cuirim	-12.4708
6,8	-12.4718
bp	-12.4723
81¦	-12.4747
que	-12.4764
cast	-12.4784
reach	-12.4798
gní	-12.4807
insearach	-12.4818
chríostaí	-12.487
6.2	-12.4871
east	-12.4886
2,30	-12.4887
rean	-12.489
ostas	-12.4895
croi	-12.4911
hoifig	-12.4916
antas	-12.4942
medi	-12.4961
mothaí	-12.497
fheicthe	-12.498
léirí	-12.4984
eachtar	-12.4986
príomhch	-12.4995
frithghníomh	-12.5015
ov	-12.5031
leanúna	-12.5099
hot	-12.5111
fhol	-12.5121
▁¦8,0	-12.515
coinneála	-12.5164
rabh	-12.5181
,40	-12.5188
lait	-12.5194
▁¦10.	-12.5201
thromb	-12.5203
láid	-12.5217
▁¦4,58	-12.524
sruth	-12.5281
qu	-12.529
cumhacht	-12.5307
riú	-12.5353
buan	-12.5373
ngá	-12.5401
mat	-12.5412
▁¦320	-12.5426
tionsc	-12.5454
dtitfe	-12.5487
niú	-12.5487
977	-12.5494
angóil	-12.5501
ille	-12.5521
bá	-12.5532
pap	-12.5534
radagrafaíocht	-12.5537
bol	-12.5543
pen	-12.5551
múin	-12.5559
ndún	-12.5566
rub	-12.557
shi	-12.5576
ast	-12.5588
aim	-12.5594
cadh	-12.5618
bunaíocht	-12.5625
hidr	-12.5678
achtaí	-12.5679
ginea	-12.5682
cian	-12.5774
páirceá	-12.5778
oibríocht	-12.5778
comhairleoir	-12.5796
teag	-12.5796
géill	-12.5848
caí	-12.5857
chuirea	-12.5858
íosta	-12.5871
irtí	-12.5872
▁¦96	-12.5873
illeann	-12.589
▁¦2,0	-12.5899
aff	-12.5902
cluas	-12.5907
sceit	-12.5918
shruth	-12.5923
ruitín	-12.5927
virus	-12.5938
tionscn	-12.5955
gael	-12.5957
féidearthacht	-12.5973
íogair	-12.5976
léirío	-12.5991
chuideachta	-12.5998
ter	-12.6023
idirghníomh	-12.6036
onavir	-12.6085
dhaon	-12.6099
iartha	-12.6108
éi	-12.6113
athchui	-12.6154
chomhlacht	-12.616
monarcha	-12.6161
rothaí	-12.6169
géir	-12.619
iasacht	-12.6198
tacaí	-12.6199
chomparáid	-12.6201
conspóid	-12.6203
triomai	-12.6204
chomhsh	-12.6206
xia	-12.6226
04¦	-12.623
gairt	-12.6238
thria	-12.6257
cala	-12.6259
údaraío	-12.627
ndeir	-12.6284
loings	-12.6312
▁¦4,31	-12.6344
olaí	-12.6374
roch	-12.6382
nova	-12.6413
chol	-12.6418
hráma	-12.643
airmheán	-12.6488
chona	-12.6514
earcaí	-12.656
harr	-12.6569
▁¦193	-12.6576
wall	-12.6612
osclaí	-12.6632
romhai	-12.6637
chomhairleoir	-12.6652
ceannas	-12.6655
téig	-12.6674
fhéad	-12.6688
pléi	-12.6702
gcarr	-12.6719
8,9	-12.6756
pra	-12.6783
cúise	-12.681
cear	-12.6813
fí	-12.6824
bra	-12.6835
onal	-12.6854
saigh	-12.6863
▁¦5,000¦	-12.6892
réamhscoil	-12.6899
táil	-12.6902
rave	-12.6915
luig	-12.6922
93	-12.6923
gcam	-12.693
gcol	-12.6935
iticiú	-12.6939
▁¦223,	-12.6952
ent	-12.6966
fhíor	-12.6981
mas	-12.6983
cuim	-12.6988
▁¦3,0	-12.6994
ceangail	-12.6998
achtain	-12.7006
1,9	-12.7012
sul	-12.7029
▁¦242	-12.703
galra	-12.7044
éisteacht	-12.7044
▁¦238,	-12.7044
ghe	-12.7054
dírí	-12.7054
09	-12.7059
príobháideach	-12.706
,33	-12.7061
idine	-12.7062
níoch	-12.7063
illí	-12.7068
sáraí	-12.7069
foirc	-12.7075
onsalacht	-12.7075
nsin	-12.7077
fisici	-12.7088
raoinín	-12.7091
zha	-12.7091
timpeallacht	-12.7094
ritheoir	-12.7117
shampl	-12.7123
2,69	-12.7134
iúlacht	-12.7139
,56	-12.7142
naithnid	-12.7147
breac	-12.7148
úite	-12.7149
form	-12.7159
pórt	-12.7176
socha	-12.7182
iarái	-12.719
5-1	-12.7204
órais	-12.7209
our	-12.7214
homalóg	-12.7214
hea	-12.7227
▁¦3,4	-12.7232
cre	-12.7238
tiomáin	-12.7239
ruga	-12.724
pháirteach	-12.7241
thras	-12.725
putó	-12.7253
ilead	-12.7257
imirce	-12.7268
sei	-12.7277
fheabh	-12.7278
chothrom	-12.7282
tuairim	-12.7289
roichead	-12.7291
láithr	-12.7293
seic	-12.7298
ailléirge	-12.7299
cent	-12.7303
angel	-12.7307
ainníocht	-12.7308
baictéar	-12.7312
eineafó	-12.7314
boilg	-12.7314
uimilt	-12.7315
ealadach	-12.7316
meall	-12.7318
1.61	-12.7319
díhiodr	-12.7319
thiom	-12.7321
claonta	-12.7321
thomha	-12.7322
2017	-12.7322
oirmisc	-12.7325
tór	-12.7326
gluais	-12.7327
chais	-12.7327
dhiai	-12.7328
deach	-12.7331
▁¦250,	-12.7333
idirmheána	-12.7334
láimhseá	-12.7336
oinnítea	-12.7341
raotharta	-12.7343
scamhó	-12.7345
pearsan	-12.7346
caif	-12.7346
bronnta	-12.7347
icín	-12.7349
chinnt	-12.7351
paill	-12.7351
onatóireacht	-12.7352
eolchoirme	-12.7352
reathnóireacht	-12.7352
núicl	-12.7352
reiligiú	-12.7352
áipéar	-12.7355
ógra	-12.7355
dhochtú	-12.7356
cost	-12.7356
lympho	-12.7358
gnóth	-12.7358
tneam	-12.7359
eacnamaí	-12.7359
athaoir	-12.7359
gclúda	-12.7359
vax	-12.7359
,59	-12.7359
shíom	-12.736
chruinni	-12.736
251	-12.7361
▁¦246,	-12.7361
chaipitl	-12.7361
timthriall	-12.7361
cianrialtá	-12.7361
coimhlint	-12.7361
columbia	-12.7361
dhromhchla	-12.7361
dromhchla	-12.7361
eastósc	-12.7361
hiodrocsai	-12.7361
ildisciplíneach	-12.7361
iodrocsaicloróic	-12.7361
oibleagáid	-12.7361
phróifíl	-12.7361
pictiúir	-12.7361
próifíl	-12.7361
scríbhneoir	-12.7361
shreabhá	-12.7361
siombáib	-12.7361
stiogma	-12.7361
toilteana	-12.7361
trópaiceach	-12.7361
vitimín	-12.7361
|	-12.7361
£	-12.7361
°	-12.7361
ã	-12.7361
γ	-12.7361
—	-12.7361
▁¦268,	-12.7361
武	-12.7361
肺	-12.7361
2,64	-12.7361
5,9	-12.7361
6,60	-12.7361
fiosrúchá	-12.7361
lockdown	-12.7361
meiteashonr	-12.7361
preasagalla	-12.7361
tomhalt	-12.7361
3,32	-12.7361
covzx	-12.7361
epitheli	-12.7361
socheacnamaíoch	-12.7361
teimhneacht	-12.7361
thorthúlacht	-12.7361
fhuinneog	-12.7361
ionstraimí	-12.7361
ç	-12.7361
macasamhail	-12.7361
sporad	-12.7361
ullmhó	-12.7361
3,532	-12.7361
endemic	-12.7361
georg	-12.7361
▁¦240,	-12.7361
choincheap	-12.7361
240,19	-12.7361
richard	-12.7361
díospói	-12.7361
díshealbha	-12.7361
folúsghlan	-12.7361
▁¦221,64	-12.7361
comharsanach	-12.7361
odráitiú	-12.7361
conraitheoir	-12.7361
feces	-12.7361
aeróba	-12.7361
gcatagóir	-12.7361
philip	-12.7361
róifiolac	-12.7361
inmheánach	-12.7361
stampa	-12.7361
▁¦220,	-12.7361
▁¦1.0	-12.7361
páirtíneach	-12.7361
seanadóir	-12.7361
bhogearra	-12.7361
contagio	-12.7361
▁¦226,	-12.7362
ciceáil	-12.7362
chultúr	-12.7362
quit	-12.7362
9,5	-12.7362
josep	-12.7362
cholpa	-12.7362
chlóirí	-12.7362
eideal	-12.7362
phléasc	-12.7362
ghiorr	-12.7362
,35	-12.7362
▁¦225,	-12.7362
▁¦7,8	-12.7362
uasghr	-12.7362
díbrí	-12.7362
gluco	-12.7362
colleg	-12.7362
dhíhiodráiti	-12.7362
nea	-12.7362
shiopa	-12.7362
ngealltana	-12.7363
ognaíoch	-12.7363
furast	-12.7363
comhchruinnithe	-12.7363
ordlatha	-12.7363
íosparta	-12.7364
▁¦248,	-12.7364
shainaithin	-12.7364
chomhleá	-12.7364
comhpháirtíochta	-12.7364
phaiteolaíoch	-12.7364
diagn	-12.7364
950	-12.7364
baitsilé	-12.7365
íciatra	-12.7365
▁¦245,	-12.7365
dramhaí	-12.7365
crophage	-12.7365
núicléasíd	-12.7365
gcuspóir	-12.7365
21,6	-12.7366
abhcóideacht	-12.7366
izer	-12.7366
cnuasa	-12.7366
proto	-12.7366
mbreithn	-12.7366
▁¦1957	-12.7367
tolg	-12.7367
físchomhdhá	-12.7367
foréigneach	-12.7367
cruthaithe	-12.7367
rogen	-12.7367
▁¦6-9	-12.7367
▁¦107,9	-12.7367
chomhairliúch	-12.7367
scolaíocht	-12.7368
will	-12.7368
qing	-12.7368
5,1	-12.7368
▁¦1,5	-12.7368
chomhthreomha	-12.7369
tiarna	-12.7369
díleá	-12.7369
ghabhálta	-12.7369
scaiptheoir	-12.7369
ghuaillí	-12.7369
comhghaol	-12.7369
comhréit	-12.7369
bhfac	-12.737
▁¦1950	-12.737
craobh	-12.737
boni	-12.737
chúit	-12.737
super	-12.7371
bhfágfa	-12.7371
dealra	-12.7372
cript	-12.7372
1.3	-12.7372
críochnú	-12.7373
sparta	-12.7373
9,83	-12.7373
pósta	-12.7373
marbhán	-12.7373
insamhalta	-12.7373
▁¦1.5	-12.7374
work	-12.7374
zon	-12.7375
oombe	-12.7375
teagmhas	-12.7375
fabr	-12.7375
jav	-12.7376
mhainneachta	-12.7376
ork	-12.7376
príomhinstitiúid	-12.7376
scáth	-12.7376
slóga	-12.7377
siopadóir	-12.7378
chroith	-12.7378
vatacáin	-12.7378
tuairimíocht	-12.7379
plái	-12.7379
ogaid	-12.7381
▁¦8.3	-12.7381
liv	-12.7381
pháirc	-12.7382
mbronn	-12.7382
muire	-12.7382
gheografach	-12.7382
taibléid	-12.7383
séipé	-12.7383
39,7	-12.7384
oby	-12.7384
oglob	-12.7384
gcruthó	-12.7384
iríonn	-12.7385
mhaoirs	-12.7385
ound	-12.7385
téise	-12.7386
tarraingí	-12.7386
▁¦14,7	-12.7386
stró	-12.7387
meic	-12.7388
bhog	-12.7388
▁¦473	-12.7388
ardghrá	-12.7389
grád	-12.7392
comhcheanglaí	-12.7395
seich	-12.7399
9,43	-12.7399
bpain	-12.7399
seac	-12.7399
4,27	-12.74
comhiomlánóir	-12.74
mcc	-12.74
gcaifé	-12.7401
alach	-12.7403
rizon	-12.7404
shainaithní	-12.7406
neamhshonrach	-12.7406
íobairt	-12.7406
gcúrsa	-12.7407
thaistealaí	-12.7409
tiúch	-12.7411
lasca	-12.7412
cmo	-12.7412
dhearca	-12.7413
liatro	-12.7413
617	-12.7415
mionla	-12.7416
gcosnó	-12.7416
oilg	-12.7416
truailleá	-12.7417
imoibrí	-12.7419
profa	-12.7419
phá	-12.7419
haz	-12.742
timpeallachta	-12.7421
lava	-12.7421
covax	-12.7423
▁¦15,8	-12.7425
7,55	-12.7425
ága	-12.7427
víreolaí	-12.7427
elf	-12.7428
micrea	-12.7428
what	-12.7429
ghoile	-12.743
thac	-12.7431
beath	-12.7432
athchúrsáil	-12.7433
timpist	-12.7433
sroich	-12.7434
gléasa	-12.7435
thaith	-12.7436
thomhais	-12.7436
ovira	-12.7438
gcógas	-12.7441
▁¦2,97	-12.7441
homa	-12.7442
hamhlai	-12.7444
bhfuinneog	-12.7445
odheolaíocht	-12.7446
leabhar	-12.7447
meabhrú	-12.7448
chór	-12.7448
htach	-12.7448
▁¦172	-12.7451
px	-12.7451
thiont	-12.7453
heli	-12.7453
tnf	-12.7455
imirceach	-12.7456
thocsaineacht	-12.7457
cainníochta	-12.7457
▁¦210	-12.7458
iúnaithe	-12.7458
mbraislí	-12.746
adór	-12.7462
ramh	-12.7463
sintéis	-12.7463
3,93	-12.7463
freasta	-12.7464
▁¦2.0	-12.7466
scór	-12.7467
codla	-12.7467
haireachta	-12.7468
sce	-12.7472
bróg	-12.7472
treor	-12.7477
bpu	-12.748
earach	-12.7482
chóimheas	-12.7484
asctha	-12.7484
lorgó	-12.7486
chrom	-12.7487
gcuairteoir	-12.7487
,97	-12.7489
riabha	-12.7491
maraío	-12.7494
iminte	-12.7495
ádú	-12.7496
▁¦53	-12.7499
eipidéimeolaí	-12.7499
tter	-12.75
úinéir	-12.75
regula	-12.7502
contúirteach	-12.7503
gcoinníoll	-12.7503
▁¦10.9	-12.7504
tseirb	-12.7504
gcoimeád	-12.7506
ngeilleaga	-12.7506
turca	-12.7508
caighdeán	-12.751
cosnó	-12.7511
eipea	-12.7511
eachtrannach	-12.7514
tríon	-12.7516
castil	-12.7516
chosain	-12.7516
laith	-12.7516
ráchtá	-12.7517
éiteolaíocht	-12.7517
hionann	-12.752
▁¦124	-12.7523
hidirghabhá	-12.7526
fallo	-12.7527
ript	-12.7527
fhaig	-12.7528
víreola	-12.7533
2013	-12.7534
97	-12.7534
gceap	-12.7544
▁¦545	-12.7549
héad	-12.755
gceal	-12.7555
cairde	-12.7556
1,87	-12.756
gri	-12.7562
teoir	-12.7563
ghnóthach	-12.7567
1.35	-12.7572
cott	-12.7575
comhfh	-12.7577
socrú	-12.7583
milse	-12.7591
éime	-12.7592
reachtach	-12.7593
▁¦202	-12.7596
riontá	-12.7602
scaoilf	-12.7602
insc	-12.7605
gcuims	-12.7608
spú	-12.761
mhac	-12.7612
tsai	-12.7613
sásta	-12.762
cáiliú	-12.7623
réamhph	-12.7625
conc	-12.7626
clor	-12.7628
▁¦1,00	-12.7629
hinstitiúid	-12.7632
jak	-12.7634
ilio	-12.7636
hainm	-12.764
róis	-12.7642
crú	-12.7646
omórta	-12.7648
mísh	-12.7649
▁¦120	-12.7656
.3	-12.7657
dav	-12.7662
toiliú	-12.7674
leadói	-12.7678
fhoghla	-12.7679
tionó	-12.7681
cumh	-12.7687
léas	-12.7696
ghlantóir	-12.7697
bhrais	-12.7702
▁¦1,37	-12.7702
▁¦12014	-12.7704
bhac	-12.7705
arbói	-12.7713
3,89	-12.7717
erly	-12.7727
tairbh	-12.773
pead	-12.773
bpróitéin	-12.7741
heitilt	-12.7747
chaomhnóir	-12.775
bhfaighf	-12.7752
mhill	-12.7757
tre	-12.7761
terte	-12.7763
costasach	-12.7764
réamhthuairisc	-12.7765
céadfacha	-12.7767
rabhsá	-12.7767
gao	-12.7767
▁¦267,	-12.7771
2,16	-12.7772
▁¦2,46	-12.7783
céile	-12.7784
cúntó	-12.7791
ibo	-12.7792
pac	-12.7797
ied	-12.7797
dinimiciú	-12.7804
ordaí	-12.7809
héag	-12.7828
▁¦215	-12.7834
cóiríocht	-12.7845
▁¦218,	-12.7847
meal	-12.7849
bhitheolaí	-12.7849
dhótha	-12.7862
nex	-12.7862
otharcha	-12.7869
dhích	-12.7871
neolaíoch	-12.7873
punann	-12.7876
íomhaireachta	-12.7883
cáil	-12.7886
chúlra	-12.7895
4,69	-12.7906
▁¦2,25	-12.7907
heipidéim	-12.7915
thairis	-12.7936
riz	-12.7941
▁¦866	-12.7947
treabh	-12.7975
ghairmiú	-12.7978
▁¦2,39	-12.799
teipeann	-12.7992
méadrachta	-12.7992
chiníocha	-12.7996
74,8	-12.8013
▁¦82	-12.8016
ice	-12.803
choin	-12.8031
85	-12.8036
guaiseach	-12.804
antó	-12.8045
1,75	-12.8046
leachta	-12.8054
truaill	-12.8062
imeo	-12.8066
zar	-12.8067
nge	-12.8069
socrófa	-12.807
canta	-12.807
forma	-12.8076
díls	-12.808
láire	-12.8082
pont	-12.8082
38,90	-12.8089
arraig	-12.8092
mheasca	-12.8126
suaite	-12.8136
comhroinnt	-12.8137
under	-12.8147
istéir	-12.8169
acmhainne	-12.817
ery	-12.8173
antóir	-12.8175
sheachai	-12.8175
faighim	-12.8178
ionadaíocht	-12.8181
thionsc	-12.8188
3,21	-12.8196
meli	-12.82
aillte	-12.821
caire	-12.8211
spe	-12.8217
seachtrach	-12.8223
reoirlín	-12.8224
lun	-12.8236
179	-12.8238
bpail	-12.826
haire	-12.8265
duga	-12.8266
nglac	-12.827
hal	-12.8273
onta	-12.828
féi	-12.8281
sta	-12.829
dtaisteala	-12.8325
cheadúna	-12.8326
deimh	-12.8329
thuairi	-12.8335
itil	-12.8335
od	-12.8343
easaont	-12.8346
tea	-12.8355
ken	-12.8356
aoin	-12.8357
hepa	-12.8362
dubh	-12.8373
deimhní	-12.8375
bunú	-12.8393
pat	-12.8401
ítea	-12.8401
omharthaí	-12.8407
phy	-12.8427
díb	-12.843
nairí	-12.8435
cine	-12.8439
irmeach	-12.8442
aigí	-12.8443
shamha	-12.8448
iarn	-12.8456
leit	-12.8457
ceola	-12.8463
seachrá	-12.8502
roinnf	-12.8517
mary	-12.8517
mheá	-12.8525
cyte	-12.8525
ipid	-12.8526
chríochna	-12.8527
obharnó	-12.8536
aet	-12.8548
íonach	-12.8552
naíochta	-12.8563
ops	-12.8564
ocd	-12.8573
mhama	-12.8577
rómh	-12.858
ngéanóm	-12.8629
tuis	-12.863
▁¦800	-12.8631
nios	-12.8637
conta	-12.8641
alls	-12.8643
▁¦900	-12.8643
.2	-12.8645
ob	-12.8659
mou	-12.8662
conspóide	-12.8665
chomparáide	-12.8668
mbíc	-12.871
19	-12.8715
ánfhad	-12.8716
gclá	-12.8721
rcha	-12.8725
méadaitheach	-12.8729
▁¦3,68	-12.8729
slí	-12.873
asraon	-12.8757
tionta	-12.8759
▁¦29.	-12.8782
▁¦228,	-12.8785
▁¦231,	-12.8794
lanna	-12.8811
bhu	-12.8814
▁¦215,	-12.8827
póna	-12.8837
iasachta	-12.8847
anda	-12.8859
spéisiú	-12.8872
▁¦1-1	-12.8875
ologi	-12.8886
ionsclaíoch	-12.8903
bplé	-12.8905
ovi	-12.8915
anai	-12.8916
iciú	-12.8917
sher	-12.8939
ílim	-12.8943
.1	-12.8944
parai	-12.8956
▁¦4,63	-12.8957
▁¦4,91	-12.9015
ric	-12.9052
áirge	-12.9055
shínea	-12.9063
▁¦17.	-12.9102
▁¦1,8	-12.9106
cli	-12.9134
xe	-12.9136
freas	-12.9137
dteicneolaíochta	-12.914
liostaí	-12.9161
sol	-12.9166
54	-12.9167
up	-12.9171
▁¦2,94	-12.9175
mháil	-12.9176
dúis	-12.9182
69	-12.9186
,05	-12.9191
za	-12.9202
ghlanta	-12.9206
▁¦1.7	-12.9219
2,53	-12.9219
comhaonta	-12.9231
ghair	-12.9267
4,3	-12.9294
bpríosú	-12.9305
90	-12.9311
▁¦54	-12.9319
chead	-12.9357
len	-12.9359
misin	-12.9378
laghdóf	-12.9381
lac	-12.9384
intéis	-12.9389
ao	-12.9414
▁¦34.	-12.943
choinneál	-12.9443
mhatán	-12.9445
pia	-12.9455
díolt	-12.9472
yel	-12.9497
▁¦3,8	-12.9501
phle	-12.951
83¦	-12.9512
aut	-12.9534
raic	-12.9543
▁¦3-	-12.9554
,36	-12.9594
tuil	-12.9642
asán	-12.9663
aithneo	-12.9687
raithe	-12.9694
idiú	-12.9713
ippo	-12.9721
éite	-12.9732
cea	-12.9736
▁¦4,73	-12.9756
▁¦1918¦	-12.9763
tech	-12.9777
ionsaío	-12.979
emm	-12.9792
▁¦4,65	-12.9797
hum	-12.9808
daing	-12.9809
spé	-12.9824
rthach	-12.9831
▁¦20-	-12.9882
cail	-12.9882
gré	-12.9883
sinoph	-12.9909
héid	-12.9921
uaite	-12.9929
riosp	-12.9941
irgeoir	-12.9947
1,68	-12.9963
príomhchú	-12.9968
tréi	-12.9985
comhar	-12.9988
gcuimhn	-13.0025
ngníomhaíocht	-13.0105
impléi	-13.0111
940	-13.0121
uba	-13.0132
hoiriún	-13.015
▁¦1-	-13.0154
metha	-13.0154
mbó	-13.0158
neamhfh	-13.0186
oghlaimeoir	-13.0191
▁¦227,	-13.0197
ví	-13.0212
aniar	-13.022
ngóil	-13.0238
gearmá	-13.0253
1,07	-13.0264
aitéis	-13.0269
,72	-13.0288
leagt	-13.031
eála	-13.0319
▁¦2,70	-13.0322
feachta	-13.0322
imealla	-13.0323
ial	-13.0334
▁¦4,68	-13.0342
onra	-13.0356
git	-13.0372
cóirí	-13.04
usta	-13.0428
ffin	-13.0434
frithghníomha	-13.0446
rim	-13.0449
huas	-13.0455
éadracht	-13.0455
▁¦4,89	-13.0456
naimh	-13.0502
gcógaslanna	-13.0505
moille	-13.0525
etic	-13.0528
fr	-13.0531
▁¦58	-13.0541
cuirf	-13.0542
otic	-13.0552
dheis	-13.0553
▁¦10.1	-13.0596
ngéin	-13.0627
seolta	-13.0641
sainiúla	-13.0649
chríosta	-13.0653
chritic	-13.0688
omhthéacs	-13.0718
ósta	-13.0726
tri	-13.0735
▁¦4,66	-13.0744
earthacht	-13.0788
uacht	-13.0793
dex	-13.0793
treoró	-13.0794
póg	-13.0814
molfa	-13.0843
toirt	-13.0857
seolfai	-13.0861
ichead	-13.0905
fhéideartha	-13.0912
tíd	-13.0915
eighilt	-13.0921
aicmi	-13.0946
llaí	-13.0954
quee	-13.0981
cóim	-13.0984
ceanna	-13.1006
uisci	-13.103
déimeagrafa	-13.104
24	-13.1042
navir	-13.1056
galú	-13.1058
11	-13.1059
▁¦87	-13.1069
chuimsi	-13.1081
cítea	-13.1108
tim	-13.112
fheidhmeanna	-13.113
▁¦2020	-13.1145
moth	-13.1168
ati	-13.1187
braith	-13.1204
dheon	-13.1206
deireann	-13.1214
gat	-13.1215
eánoirth	-13.1218
forord	-13.1309
gabhála	-13.1314
bholgá	-13.1318
eonach	-13.1347
leochaileacht	-13.1354
neamhrialta	-13.1366
nid	-13.1385
▁¦20.	-13.1401
▁¦4,86	-13.1402
1,48	-13.1467
och	-13.1467
cni	-13.1505
mea	-13.1538
áisiú	-13.1548
met	-13.16
nom	-13.1608
hub	-13.1626
ver	-13.1659
bona	-13.1675
eiscea	-13.1676
mait	-13.1685
scor	-13.1726
1.	-13.1738
mhonar	-13.1758
crios	-13.1787
29	-13.1835
mon	-13.1836
caip	-13.1873
cruth	-13.1878
brúsca	-13.1881
fhai	-13.1885
ici	-13.1887
dhéimeagrafa	-13.1906
mhcheangailte	-13.1922
nta	-13.1924
▁¦12013	-13.193
cod	-13.1938
32	-13.1962
▁¦83	-13.198
só	-13.1996
acadói	-13.1997
ailt	-13.1998
gclua	-13.2005
rabhad	-13.2014
mhion	-13.2033
shao	-13.2057
bris	-13.2075
bhrat	-13.2096
og	-13.2097
dheimhni	-13.2111
imeall	-13.2131
féintuairisci	-13.2134
pun	-13.2155
olú	-13.2174
mei	-13.2224
tanach	-13.2247
▁¦2,7	-13.225
cheangail	-13.2297
280	-13.2341
ener	-13.2414
lge	-13.2419
déarf	-13.2431
89	-13.2455
-10	-13.2458
ture	-13.2464
corr	-13.2479
neamhsh	-13.2506
posi	-13.2512
dhiagnóis	-13.2517
aighne	-13.2548
diúlta	-13.2561
el	-13.262
cliabh	-13.2627
bpá	-13.2696
pó	-13.2761
soc	-13.277
ndeimhn	-13.2776
3,8	-13.2785
uta	-13.2797
dúchas	-13.2802
éata	-13.2816
seó	-13.2834
sóid	-13.2835
402	-13.2843
mbr	-13.288
brains	-13.2897
emi	-13.2908
peann	-13.2923
▁¦1918	-13.293
atama	-13.2954
cleachtai	-13.3012
dai	-13.3017
ondú	-13.3055
exam	-13.3062
18-	-13.3079
athúsáid	-13.3111
casta	-13.3177
gus	-13.3184
sy	-13.3246
críost	-13.3308
je	-13.331
▁¦252,	-13.3315
▁¦4,82	-13.3316
iceach	-13.3319
cra	-13.3332
allmhairi	-13.3332
phróis	-13.3333
íorúil	-13.3339
thadh	-13.3377
toc	-13.3397
▁¦216,	-13.3431
díhiodrái	-13.3445
17	-13.3446
15-1	-13.348
coinín	-13.3498
clúdó	-13.3516
▁¦5,000	-13.3518
16,8	-13.3576
gcá	-13.362
iti	-13.3631
cabhró	-13.3658
choróivír	-13.3667
6,54	-13.3678
▁¦88	-13.3693
páis	-13.3715
215	-13.3737
38	-13.3759
4,65	-13.3763
2,94	-13.3771
8,7	-13.3854
siomba	-13.3856
1,8	-13.3861
deireana	-13.3898
4,58	-13.3949
struchtú	-13.399
cin	-13.3998
600	-13.3998
comhaont	-13.4115
,7	-13.4119
méa	-13.4125
mblia	-13.4128
ionra	-13.4135
stoirme	-13.4166
chomhthá	-13.4167
lithe	-13.4174
gabhál	-13.4224
orleathan	-13.424
jam	-13.4249
290	-13.4259
58	-13.4267
laíochta	-13.4301
corona	-13.4337
ingea	-13.4363
socrai	-13.437
hl	-13.4382
rás	-13.4387
lay	-13.4406
ullmhaío	-13.4408
phó	-13.4463
thástál	-13.4501
lad	-13.4546
▁¦3,30	-13.458
dhála	-13.4588
op	-13.4612
dheirean	-13.4613
rinn	-13.468
,50	-13.4686
31	-13.4709
000¦	-13.4717
6,5	-13.4729
ceimic	-13.4733
dháil	-13.4735
sáil	-13.474
cábá	-13.4774
gcoinní	-13.4786
ánta	-13.4794
lve	-13.4826
chompord	-13.4867
8.	-13.4887
ailliú	-13.4892
síli	-13.4918
chruthaío	-13.4938
4,39	-13.4947
va	-13.4949
2019	-13.4963
lip	-13.4969
mharg	-13.4976
clé	-13.4977
sainmhíni	-13.4986
eisi	-13.499
comhréir	-13.5014
ndíol	-13.5029
óst	-13.5143
chro	-13.5192
ghníomhaíochta	-13.5204
chomhcheanga	-13.5232
iop	-13.5274
chlói	-13.5294
acad	-13.5332
ónaí	-13.5349
próiseál	-13.536
top	-13.5376
scail	-13.5383
taispeánta	-13.5399
bhfoins	-13.5406
práinn	-13.5415
rica	-13.5416
thais	-13.5444
ceadófa	-13.5445
6,0	-13.5531
cairt	-13.5582
4,45	-13.5609
0.00	-13.5626
-5	-13.5627
▁¦253,	-13.563
cruthaí	-13.5635
hagha	-13.5665
mion	-13.5695
ntáin	-13.5697
unt	-13.5762
thacht	-13.5778
john	-13.5788
samhl	-13.579
déileála	-13.5799
chleacht	-13.5801
íslío	-13.5816
bhuan	-13.5828
dteocht	-13.5831
iang	-13.5852
ghiú	-13.5853
4,80	-13.5875
aontaí	-13.5884
peri	-13.5891
chuimsith	-13.5905
,81	-13.5912
olta	-13.5939
ranga	-13.5996
thagair	-13.5998
chiníoch	-13.6003
ceadún	-13.6007
míle	-13.6008
cio	-13.6023
théarma	-13.6051
66,5	-13.6105
▁¦92	-13.6116
nra	-13.612
dío	-13.6123
▁¦211,	-13.6159
uaslód	-13.6182
ect	-13.6185
▁¦2,00	-13.6205
.6	-13.6212
tagraí	-13.6221
bhforbr	-13.6222
▁¦237,	-13.6223
cosúlacht	-13.625
ás	-13.6252
9,8	-13.6284
atreoraío	-13.6297
02	-13.6307
▁¦3,2	-13.6325
oslamach	-13.6357
teagmh	-13.6363
▁¦232,	-13.6379
dírío	-13.6383
zo	-13.6391
fhorá	-13.6411
dhúlag	-13.6415
nóimé	-13.6416
choinníol	-13.6427
méadracht	-13.6441
foirml	-13.6465
17,	-13.6471
enti	-13.6483
gcean	-13.6501
óideach	-13.6512
vil	-13.6512
rmic	-13.6517
cró	-13.653
▁¦204,	-13.6562
iliú	-13.6567
fhrith	-13.6572
5,2	-13.6578
fhreagr	-13.6578
coim	-13.6583
coro	-13.6583
7,7	-13.6607
mino	-13.6608
adeno	-13.6625
sero	-13.6652
tarraing	-13.6659
maolai	-13.6662
aithní	-13.6671
tuirs	-13.6674
▁¦207	-13.6691
dro	-13.6714
comhlíona	-13.6729
tosaío	-13.6737
ilít	-13.6744
cust	-13.6753
gcoimplé	-13.6763
áideach	-13.6769
hollscoil	-13.6774
earál	-13.6777
loíte	-13.6791
▁¦4,	-13.6803
íocha	-13.6812
,88	-13.6814
óireachta	-13.6816
phrion	-13.6826
▁¦2,	-13.6834
naíon	-13.6839
fic	-13.684
,92	-13.684
-20	-13.6861
oma	-13.6862
cover	-13.6869
,30	-13.6875
anatamaíoch	-13.6899
neamhghnách	-13.69
fíoch	-13.6913
soithí	-13.6916
▁¦90,0	-13.6922
mharaío	-13.6932
itean	-13.6951
enz	-13.6955
7,5	-13.6967
uathacha	-13.6969
éiteolaíoch	-13.6973
íod	-13.6997
ontúirt	-13.7019
thr	-13.7021
▁¦10.3	-13.7031
chuimsí	-13.7034
cógaslannaí	-13.7035
ithre	-13.7041
▁¦241,	-13.7042
,49	-13.7044
ngé	-13.7048
ried	-13.7053
imdhíoneolaí	-13.7059
peir	-13.7062
ghnách	-13.7066
itheoireacht	-13.7066
seanbh	-13.7069
preg	-13.7087
63,0	-13.7091
▁¦20,	-13.7096
pléif	-13.7097
):	-13.7103
rása	-13.711
...	-13.7115
,84	-13.7117
etamin	-13.7118
▁¦244,	-13.7124
]	-13.714
'	-13.7144
sync	-13.7144
fhoilsi	-13.7146
%)	-13.7149
7,4	-13.7158
thocsain	-13.7158
fiacl	-13.716
".	-13.7169
cógaslann	-13.7175
ics	-13.7178
athchúrsá	-13.7179
phríobháid	-13.7182
omáint	-13.7185
7.2	-13.7185
príosú	-13.7188
,74	-13.7191
hleamhn	-13.7197
inimic	-13.7201
tuismitheo	-13.7205
slonn	-13.7216
ker	-13.7225
0,4	-13.7226
330	-13.7227
achainí	-13.7231
ríomhair	-13.7238
rib	-13.7238
teipe	-13.7246
iompró	-13.7256
,27	-13.7257
agraío	-13.7257
,43	-13.7259
éagsúl	-13.726
bréag	-13.7261
bhua	-13.7261
scua	-13.7267
cun	-13.7273
,14	-13.7273
áithnín	-13.7275
tocsain	-13.7277
coiscthe	-13.7283
69,7	-13.7285
forlíonta	-13.7287
▁¦135,	-13.7292
díobhála	-13.7295
ghníomha	-13.7296
ngéanó	-13.7296
theirip	-13.7298
3,23	-13.73
lobul	-13.7301
cruthói	-13.7301
nteoir	-13.7302
gabhdó	-13.7303
eacracht	-13.7304
lúthpháirtíocht	-13.7308
áithreacha	-13.7308
ífhostaíocht	-13.7311
gcomhcheang	-13.7312
athoscail	-13.7314
píolóta	-13.7317
3,95	-13.7319
310	-13.7319
mhóilín	-13.7321
rew	-13.7324
▁¦13,	-13.7325
ochraid	-13.7325
teirm	-13.7326
taiblé	-13.7329
subgen	-13.7329
5,3	-13.733
randam	-13.7331
áthú	-13.7334
neur	-13.7334
chríoch	-13.7335
ghníomhaire	-13.7336
guais	-13.7338
liuch	-13.7338
ritic	-13.7341
omhthreomha	-13.7341
íneach	-13.7342
erior	-13.7342
,09	-13.7342
ainmni	-13.7343
icreascóp	-13.7343
cuain	-13.7344
oréigneach	-13.7345
uspóir	-13.7346
íschomhdhá	-13.7346
ibléid	-13.7347
,933	-13.7347
▁¦77,	-13.7348
ceimi	-13.7348
,18	-13.7349
turasóir	-13.735
aitsilé	-13.7351
,85	-13.7352
giúir	-13.7353
reoite	-13.7353
,42	-13.7354
8,3	-13.7354
ncy	-13.7354
eicean	-13.7355
aib	-13.7357
solúbtha	-13.7357
013	-13.7357
laicint	-13.7357
cmhainn	-13.7358
eaisín	-13.7359
pictiúr	-13.7359
248	-13.7359
droich	-13.7359
heicní	-13.7359
sheirbh	-13.736
ifiolac	-13.736
vaic	-13.736
atagóir	-13.736
scópacht	-13.736
shealbh	-13.736
oxf	-13.736
radagrafaí	-13.736
inneog	-13.7361
=	-13.7361
_	-13.7361
­	-13.7361
å	-13.7361
′	-13.7361
汉	-13.7361
漢	-13.7361
炎	-13.7361
polaprói	-13.7361
à	-13.7361
phait	-13.7361
difríoc	-13.7361
neamhsple	-13.7361
dromhc	-13.7361
amhnait	-13.7361
cortico	-13.7362
abhcóid	-13.7362
bangla	-13.7362
leabharla	-13.7362
radac	-13.7362
ardéifeachtú	-13.7363
íolót	-13.7364
sainchomha	-13.7364
mhicro	-13.7364
cuspóir	-13.7365
lock	-13.7365
aryng	-13.7365
stiti	-13.7365
tibil	-13.7366
▁¦10,0	-13.7366
237	-13.7366
ialait	-13.7367
~	-15.1016
‘	-15.1017
?	-15.1018
–	-15.1019
”	-15.102
/	-15.1021
%	-15.1022
:	-15.1023
(	-15.1024
’	-15.1025
