<pad>	0
</s>	0
<unk>	0
▁¦	-0
▁።	-1
▁፥	-2
▁፤	-3
እን	-4
ንም	-5
ቸው	-6
አብ	-7
እግ	-8
ሔር	-9
እግዚ	-10
እግዚአብ	-11
እግዚአብሔር	-12
ንድ	-13
ወደ	-14
ሁሉ	-15
ነበ	-16
ርሱ	-17
ችሁ	-18
እንደ	-19
ነው	-20
አለ	-21
የሚ	-22
እስ	-23
ነገ	-24
አን	-25
ላይ	-26
ዘንድ	-27
እነ	-28
ለሁ	-29
እርሱ	-30
እንዲ	-31
ስለ	-32
ኤል	-33
ግን	-34
አል	-35
ውን	-36
ድር	-37
▁?	-38
ትን	-39
እኔ	-40
ትም	-41
መን	-42
ዎች	-43
ሰው	-44
ጊዜ	-45
የተ	-46
ልጆ	-47
አም	-48
ዚህ	-49
አይ	-50
ነገር	-51
እስራ	-52
ውም	-53
እስራኤል	-54
ምን	-55
ንጉ	-56
ልጆች	-57
ጋር	-58
መል	-59
ልጅ	-60
ይህ	-61
እና	-62
ነበር	-63
ዚያ	-64
ሕዝ	-65
በት	-66
ምድር	-67
ርስ	-68
ከተ	-69
አንተ	-70
ደረ	-71
ሪያ	-72
አት	-73
ነበረ	-74
ያስ	-75
ችን	-76
እንዲህ	-77
ለም	-78
አምላ	-79
ፊት	-80
ላቸው	-81
ሰማ	-82
እንዳ	-83
ደር	-84
ለው	-85
ያን	-86
ኢየ	-87
ስም	-88
መጣ	-89
ሆነ	-90
ዋል	-91
ድረ	-92
ሆን	-93
ንተ	-94
ቤት	-95
ላችሁ	-96
እርሱም	-97
ለት	-98
ወይ	-99
ጌታ	-100
ቃል	-101
ንና	-102
እነርሱ	-103
እናንተ	-104
በአ	-105
ላል	-106
በመ	-107
እጅ	-108
ተኛ	-109
ናገ	-110
ቀን	-111
ደግ	-112
ድን	-113
መለ	-114
አስ	-115
ሥራ	-116
ነት	-117
ሠራ	-118
እግዚአብሔርም	-119
ቸውም	-120
ሆይ	-121
ለህ	-122
ደግሞ	-123
ቶች	-124
ስጥ	-125
ቱም	-126
ይሁ	-127
ስት	-128
አባ	-129
በዚያ	-130
ሰዎች	-131
እነሆ	-132
ወጣ	-133
ብር	-134
በእ	-135
ወር	-136
ህን	-137
ሆና	-138
ለች	-139
አንድ	-140
የም	-141
አለው	-142
ንጉሥ	-143
የእግዚአብሔር	-144
ብሎ	-145
ገባ	-146
ነበሩ	-147
ልና	-148
ንጉሡ	-149
አምላክ	-150
ድረስ	-151
ወንድ	-152
በሰ	-153
ህም	-154
ቸውን	-155
ዳዊ	-156
ተቀ	-157
ቱን	-158
ካከ	-159
ኃጢ	-160
ዓመ	-161
እስከ	-162
ፍራ	-163
አገ	-164
ውስጥ	-165
ዳን	-166
ግብ	-167
ያለ	-168
ያው	-169
ኋላ	-170
ይወ	-171
አድር	-172
ችኋ	-173
ይላል	-174
ሳሌ	-175
ናቸው	-176
ተው	-177
በል	-178
ደስ	-179
ርም	-180
ሕዝቡ	-181
ኢየሱ	-182
መንገ	-183
የእስራኤል	-184
ምም	-185
ነሣ	-186
ባት	-187
መጡ	-188
ሉት	-189
ባሪያ	-190
በእግዚአብሔር	-191
ድም	-192
በታ	-193
ከተማ	-194
ውያን	-195
በኋላ	-196
ሕዝብ	-197
ይሆና	-198
ቀር	-199
ልም	-200
ትና	-201
ፈር	-202
ስለዚህ	-203
መካከ	-204
አሳ	-205
አላ	-206
ብዙ	-207
በር	-208
ወገ	-209
የሚያ	-210
ምና	-211
ነፍ	-212
በተ	-213
ችም	-214
ሙሴ	-215
ይሁዳ	-216
ደረገ	-217
የአ	-218
ልን	-219
ልብ	-220
ካህ	-221
የማ	-222
እነርሱም	-223
መስ	-224
ስን	-225
ኢየሩ	-226
ውንም	-227
ኢየሩሳሌ	-228
መካከል	-229
ከፍ	-230
እነዚህ	-231
ወይም	-232
ዛብ	-233
መጥ	-234
ማን	-235
ይህን	-236
በላ	-237
ሕዛብ	-238
በረ	-239
ሁለት	-240
ሰጠ	-241
አው	-242
ዓመት	-243
በም	-244
ሁለ	-245
መልካ	-246
ቤቱ	-247
ኢዮ	-248
ክፉ	-249
ቹም	-250
ወን	-251
ቻቸው	-252
ራት	-253
ዓይ	-254
ጠፋ	-255
ለመ	-256
ዋዕ	-257
ስፍራ	-258
በደ	-259
እንዲሁ	-260
በው	-261
እንግ	-262
እኔም	-263
እርስ	-264
ሥዋዕ	-265
አታ	-266
ተናገ	-267
ረው	-268
አሁ	-269
ፍር	-270
መሥዋዕ	-271
ታላ	-272
አይደ	-273
ገለ	-274
ይል	-275
ንን	-276
አቸው	-277
ክርስ	-278
ቢያ	-279
ይሆናል	-280
ኞች	-281
ርያ	-282
ጠብ	-283
ማል	-284
ዋም	-285
መቶ	-286
እኛ	-287
ርባ	-288
ዘላ	-289
እግዚአብሔርን	-290
ናት	-291
ገና	-292
አላቸው	-293
ሞች	-294
ሆኑ	-295
ለማ	-296
በሚ	-297
ራራ	-298
ዲህ	-299
ባል	-300
ታል	-301
ወለ	-302
የመ	-303
እንጂ	-304
ዘላለም	-305
መንገድ	-306
ገብ	-307
አለቆ	-308
ዋለሁ	-309
ሮች	-310
ቀረ	-311
ለን	-312
ይሰ	-313
ያል	-314
መንፈ	-315
ግሥ	-316
ድቅ	-317
ሰማይ	-318
ያደር	-319
ታው	-320
ክርስቶ	-321
ሳት	-322
ኢየሱስ	-323
ኢየሩሳሌም	-324
መሰ	-325
ብን	-326
እጅግ	-327
ባቸው	-328
በዚህ	-329
በምድር	-330
ጠላ	-331
በዚያም	-332
ሥጋ	-333
ሩት	-334
መጠ	-335
የሰ	-336
ለእግዚአብሔር	-337
ተኛው	-338
አሕዛብ	-339
ለሚ	-340
ጠራ	-341
ባለ	-342
ሠራዊ	-343
ቅር	-344
ሕይወ	-345
ሆነው	-346
መሥዋዕት	-347
ነኝ	-348
ውኃ	-349
ጀራ	-350
ሌላ	-351
ምስ	-352
እው	-353
ቅዱ	-354
በማ	-355
ቸዋል	-356
የእግዚአብሔርን	-357
መልካም	-358
በእስራኤል	-359
ብም	-360
ስድ	-361
በግ	-362
ሥር	-363
እንደሚ	-364
ዋን	-365
ፍሬ	-366
ብት	-367
ታቸው	-368
ዴት	-369
ቀድ	-370
ኃጢአት	-371
ተነ	-372
አልና	-373
ለምን	-374
ዳዊት	-375
ሩም	-376
አቤቱ	-377
የምት	-378
ክርስቶስ	-379
በፊ	-380
ጀም	-381
ታችሁ	-382
ብላ	-383
ነውና	-384
ኑም	-385
ቶቻ	-386
እንግዲህ	-387
ሺህ	-388
በጎ	-389
አምላካ	-390
ከራ	-391
ኢያ	-392
ሃለሁ	-393
መረ	-394
ወሰ	-395
ገደ	-396
ፈል	-397
በራ	-398
በየ	-399
ከአ	-400
ዘመን	-401
ፈረ	-402
ከዚያ	-403
ክር	-404
ኃጢአ	-405
አገር	-406
ከእርሱ	-407
አለቃ	-408
ቅም	-409
ወጡ	-410
ሄደ	-411
ቃጠ	-412
ተሰ	-413
ዛሬ	-414
አንዱ	-415
በሉ	-416
እንዳይ	-417
ያም	-418
አጠ	-419
ክት	-420
ወጥ	-421
ንጉሡም	-422
መንግሥ	-423
ታት	-424
ወዳ	-425
ችኋለሁ	-426
ፈራ	-427
ባሕ	-428
በዳ	-429
ቱንም	-430
አለቆች	-431
እንዲህም	-432
ከሚ	-433
እንድ	-434
ድንጋ	-435
በስ	-436
ያዕ	-437
ወለደ	-438
አደረገ	-439
ቹን	-440
ያዕቆ	-441
መና	-442
ወስ	-443
ሦስት	-444
ዶች	-445
ይሁን	-446
እዛ	-447
አሉ	-448
ከን	-449
ሃል	-450
ላም	-451
ሠዊ	-452
ይፍ	-453
ኖች	-454
ራቸው	-455
መቅ	-456
ታላቅ	-457
መንፈስ	-458
ችሁም	-459
መር	-460
ለዘላለም	-461
ምር	-462
ሳይ	-463
ዳዊትም	-464
ሳኦ	-465
ወገን	-466
ሱን	-467
ሞት	-468
በቀ	-469
ሴቶች	-470
ፍል	-471
ክብር	-472
ሰጣ	-473
አዘ	-474
ምድ	-475
ሄዱ	-476
ችሁን	-477
ጀምሮ	-478
መው	-479
አደረ	-480
ኖር	-481
ህንም	-482
ሰጥ	-483
ትእዛ	-484
ኛው	-485
ሎች	-486
ሠራዊት	-487
ውያ	-488
እንጀራ	-489
ቀደ	-490
እስኪ	-491
ከብ	-492
ፈጽ	-493
ቍርባ	-494
ልኝ	-495
ኛል	-496
ድንኳ	-497
ዕቃ	-498
ድምፅ	-499
ሰባት	-500
ወንድሞ	-501
አሁን	-502
ቅን	-503
ከት	-504
ተመለ	-505
ታደር	-506
ታን	-507
ገዛ	-508
ዘው	-509
ማንም	-510
ልፍ	-511
ይቀ	-512
በዙ	-513
ግብፅ	-514
አደ	-515
ያሉ	-516
በእርሱ	-517
ቍጣ	-518
ወረ	-519
ወርቅ	-520
ነበርና	-521
ሴት	-522
ብቻ	-523
ኖሩ	-524
ክንድ	-525
ረት	-526
ቃሉ	-527
ሕይወት	-528
ሕግ	-529
ስሙ	-530
ዳር	-531
ከመ	-532
ወድ	-533
ተራራ	-534
ራስ	-535
ፈሩ	-536
ዓት	-537
ችኋል	-538
አይሁ	-539
የለም	-540
እር	-541
እነሆም	-542
ቹንም	-543
ኩል	-544
ዘር	-545
አሥራ	-546
ሆኖ	-547
ደም	-548
ይልቅ	-549
ልጁ	-550
አጠገብ	-551
ሳን	-552
ፋት	-553
ክን	-554
ይም	-555
ነገሥ	-556
ሄድ	-557
ብል	-558
ናል	-559
አንተም	-560
ብለው	-561
አሁንም	-562
ከማ	-563
ጥር	-564
ቸዋለሁ	-565
ራል	-566
እንዴት	-567
ከተሞች	-568
ያንዳን	-569
መታ	-570
ሀያ	-571
አምስት	-572
በዛ	-573
እየ	-574
ጥበ	-575
ተነሥ	-576
ከእኔ	-577
አያ	-578
አየ	-579
ሌሊ	-580
በታች	-581
አንቺ	-582
ሕዝቡም	-583
ችው	-584
ወይን	-585
ኢየሱስም	-586
በለ	-587
ሞተ	-588
ሩን	-589
አባት	-590
ከዚህ	-591
አሉት	-592
ረገ	-593
ባሕር	-594
ፋን	-595
ጽድቅ	-596
በኩል	-597
አደር	-598
ተመል	-599
ያለውን	-600
አይደለም	-601
ሰባ	-602
ቢሎ	-603
ባይ	-604
ነግ	-605
ገድ	-606
የተነሣ	-607
ናገር	-608
አሳል	-609
ሱም	-610
የቀ	-611
ደው	-612
ሎሞ	-613
ገቡ	-614
እያንዳን	-615
ኝም	-616
ባቢሎ	-617
የሆነ	-618
መዛ	-619
ስፋ	-620
ገረ	-621
ሳቸው	-622
በአንድ	-623
አክ	-624
ምንም	-625
ችንም	-626
የሰው	-627
ውያንም	-628
ደግሞም	-629
ሌዋ	-630
ተዋል	-631
ህል	-632
ሙር	-633
ስጥኤ	-634
የነበረ	-635
የነበሩ	-636
ከእስራኤል	-637
ቢሆን	-638
ፍርድ	-639
ንስ	-640
ከእናንተ	-641
ያዘ	-642
ሮን	-643
ሰም	-644
በዓ	-645
የእ	-646
ጥን	-647
ደቀ	-648
ነገድ	-649
ከእግዚአብሔር	-650
ንቀ	-651
ባሪያዎች	-652
በቅ	-653
ፈርዖ	-654
ከተማይ	-655
አራ	-656
ግባ	-657
ካህና	-658
ግብጽ	-659
ጣል	-660
ቍርባን	-661
ቤተ	-662
ከአንተ	-663
ጠር	-664
ሰብ	-665
ሉም	-666
ታም	-667
ተኞች	-668
ተዋ	-669
ማግ	-670
በፊት	-671
ይሆን	-672
ስማ	-673
ዘን	-674
ለእስራኤል	-675
ከዚያም	-676
ከሰ	-677
ውል	-678
አፍ	-679
በይሁዳ	-680
ተኛውም	-681
ከእርሱም	-682
ሄዳ	-683
በዘ	-684
ይጠ	-685
ስጥኤማ	-686
እርስዋም	-687
መድ	-688
ፎች	-689
ያለው	-690
ሦስ	-691
ይለ	-692
የእስራኤልም	-693
ሁት	-694
▁!	-695
አለሁ	-696
ሙሴም	-697
ርሃ	-698
ያት	-699
ዱም	-700
በፍ	-701
ተማ	-702
ሽማግ	-703
እም	-704
ገል	-705
ሠዊያ	-706
ርዳ	-707
ሴፍ	-708
ከለ	-709
ይመጣ	-710
ነገሥታት	-711
ዮሴፍ	-712
በዚያን	-713
የእግዚአብሔርም	-714
ነቢያ	-715
ትእዛዝ	-716
ቶቻቸው	-717
ገኘ	-718
ሶች	-719
ቀድሞ	-720
አብርሃ	-721
ልቅ	-722
ስላ	-723
አራት	-724
እውነት	-725
ሚስ	-726
ረብ	-727
ነፋ	-728
ጥቂ	-729
ነፍስ	-730
ቅዱስ	-731
በእው	-732
እንስ	-733
ዋለህ	-734
በሬ	-735
ያላ	-736
ድንጋይ	-737
በእኔ	-738
አድርገ	-739
ነህ	-740
ጠው	-741
ባለው	-742
ከእነርሱ	-743
ነቢ	-744
መዛሙር	-745
ሙሴን	-746
በትን	-747
ሽማግሌ	-748
ሰሎሞ	-749
ላከ	-750
የታ	-751
ጸና	-752
ነገሠ	-753
ቴን	-754
በኢየሩሳሌም	-755
በሩ	-756
ጀመ	-757
ጽሐ	-758
በትም	-759
አድርጎ	-760
አውራ	-761
ወይስ	-762
የሠራዊት	-763
ሁም	-764
ሜን	-765
ባር	-766
ታስ	-767
እላ	-768
ተቀም	-769
ቶአል	-770
እጁ	-771
የማይ	-772
አምላክህ	-773
ምሕ	-774
ርን	-775
ዛት	-776
ንድር	-777
ሽም	-778
ሰውም	-779
እንድት	-780
ልህ	-781
ሽን	-782
ፈው	-783
ተና	-784
በመካከ	-785
ኑን	-786
ከም	-787
ራለሁ	-788
ኪዳን	-789
ሂድ	-790
ውሎ	-791
ከንቱ	-792
እርስዋ	-793
ላለ	-794
ላት	-795
ይህም	-796
ደረግ	-797
ከፈ	-798
ዕጣ	-799
ባቢሎን	-800
ድንኳን	-801
ፍልስጥኤማ	-802
ሳል	-803
ብርሃ	-804
ዘረ	-805
ሳችሁ	-806
ልት	-807
ተጠ	-808
ዝም	-809
ደነ	-810
ጆች	-811
ተስፋ	-812
ጀመሪያ	-813
መልሶ	-814
ብላቴ	-815
ምንድር	-816
ቦት	-817
ችንን	-818
ላሳ	-819
ሠሩ	-820
በሰማ	-821
ነፍሴ	-822
ልብስ	-823
የአባ	-824
ያስም	-825
ላሉ	-826
ብዓ	-827
ሰሙ	-828
ከነ	-829
ጆሮ	-830
ዓይን	-831
ሞዓ	-832
ዋጋ	-833
ዘጋ	-834
ገር	-835
ዳቸው	-836
ጌታዬ	-837
ምል	-838
የለ	-839
መለሰ	-840
አደረጉ	-841
ሰድ	-842
ፈጸ	-843
በቀር	-844
ስድስት	-845
ይስ	-846
ሌሊት	-847
ትንም	-848
በእውነት	-849
ልባ	-850
ወዲ	-851
ጊዜም	-852
በዙሪያ	-853
ያዕቆብ	-854
እናንተም	-855
በድ	-856
ኖስ	-857
ሮስ	-858
ቅል	-859
ዊው	-860
ፈቃ	-861
ኃይል	-862
ገን	-863
ሰይፍ	-864
የይሁዳ	-865
አድ	-866
ራችሁ	-867
እንጨ	-868
ላቸውም	-869
ነጋ	-870
ባረ	-871
ናን	-872
አር	-873
ሕዝቤ	-874
ስለዚህም	-875
ንጹ	-876
ይታ	-877
ጥሩ	-878
ዋልና	-879
ደሪያ	-880
ጽሐፍ	-881
ያደርጋ	-882
ቀው	-883
ዳል	-884
መሠዊያ	-885
ርስት	-886
አለኝ	-887
አማል	-888
መንግሥት	-889
ወንድሞች	-890
ዩም	-891
ሆንሁ	-892
እሳት	-893
ዋንም	-894
ዓለም	-895
ካህናት	-896
አሮ	-897
ሰላም	-898
ዮርዳ	-899
ተናገረ	-900
አይሁድ	-901
ሌለ	-902
ማስ	-903
ሳለ	-904
ጠብቅ	-905
ለቆ	-906
ሞላ	-907
ሲል	-908
ቢት	-909
ብኝ	-910
ዎቹ	-911
ሠላሳ	-912
ባልን	-913
ከእነርሱም	-914
ታና	-915
ጠጅ	-916
በውኑ	-917
ሳሉ	-918
አሰ	-919
እያ	-920
ድጓ	-921
መለከ	-922
መከራ	-923
ሚስት	-924
ቀመጡ	-925
እንኳ	-926
ጠብቁ	-927
ቻቸውም	-928
ተራ	-929
ሕያው	-930
አምሳ	-931
ሊያ	-932
ኤፍሬ	-933
ሐሰ	-934
ድማ	-935
ጣሉ	-936
ለውን	-937
ተቀመጠ	-938
የሚያስ	-939
ራም	-940
ናችሁ	-941
ሁል	-942
ዛፍ	-943
ገኝ	-944
አልተ	-945
ጨለማ	-946
ሕዝቡን	-947
በእናንተ	-948
ሕፃ	-949
ረድ	-950
ቴም	-951
ጕል	-952
ሰጠው	-953
ይገባ	-954
የሆነው	-955
የእስራኤልን	-956
ዘይ	-957
አንበ	-958
ዳርቻ	-959
የምድር	-960
ግም	-961
ፀሐ	-962
ወንዶች	-963
ፈን	-964
የወይን	-965
ተም	-966
ዮን	-967
ጠጣ	-968
በላይ	-969
ቤቶች	-970
ታውቃ	-971
አገል	-972
ተኞ	-973
ራሉ	-974
በኵ	-975
የና	-976
ዶም	-977
ፈጥ	-978
እንዲያ	-979
መዝ	-980
ቁም	-981
ሁለቱ	-982
በአንተ	-983
የሚቃጠ	-984
በሕይወት	-985
ልጄ	-986
ይዞ	-987
ጥም	-988
ጨረ	-989
ሁሉም	-990
እንዲሁም	-991
ሽማግሌዎች	-992
ኢየሩሳሌምም	-993
ሙን	-994
ራብ	-995
ሻል	-996
ወቅ	-997
ጥቂት	-998
ላቅ	-999
ቈጠ	-1000
አካ	-1001
አመጣ	-1002
አንዲ	-1003
ዎቹም	-1004
ማት	-1005
ተን	-1006
ዘመ	-1007
ደን	-1008
ጉባ	-1009
ሳኦልም	-1010
መነ	-1011
ሰን	-1012
ጻፈ	-1013
ምርኮ	-1014
አንዳ	-1015
አምላኬ	-1016
ርኩ	-1017
ሸለቆ	-1018
በጎች	-1019
ትውል	-1020
እርሻ	-1021
መጽሐፍ	-1022
በእሳት	-1023
እንዳዘ	-1024
ኃይ	-1025
መለስ	-1026
ታችን	-1027
ኋቸው	-1028
ይሆናሉ	-1029
አምላካችን	-1030
ሙት	-1031
ደኅ	-1032
ጣት	-1033
ጽና	-1034
ምድሪ	-1035
ወዴት	-1036
ጋለሁ	-1037
ብላቴና	-1038
እንዲሆን	-1039
ማኅ	-1040
ሰደ	-1041
ቤል	-1042
ጡት	-1043
ትንና	-1044
ኸው	-1045
ከነዓ	-1046
ኮረብ	-1047
ይወድ	-1048
ጉባኤ	-1049
ጥበብ	-1050
እንዳት	-1051
ወንድም	-1052
ባሉ	-1053
አኖ	-1054
ቀመጥ	-1055
ጳውሎ	-1056
በምድረ	-1057
በሰይፍ	-1058
ተህ	-1059
ዕድ	-1060
ዮሐ	-1061
ካህኑም	-1062
ይህንም	-1063
ክህ	-1064
ዬን	-1065
አወጣ	-1066
ሸክ	-1067
ቶቹ	-1068
ዮና	-1069
ለአንተ	-1070
አባቶቻ	-1071
ሌዋውያን	-1072
ርኵ	-1073
ጴጥ	-1074
ፈለ	-1075
ምድረ	-1076
ተነሣ	-1077
ናገሩ	-1078
ካህኑ	-1079
ተቀመጡ	-1080
ለብ	-1081
ሴሎ	-1082
መልስ	-1083
አድርግ	-1084
ራሱ	-1085
ዝና	-1086
ይሸ	-1087
በፊቱ	-1088
ደስታ	-1089
እክ	-1090
ጋና	-1091
መጥቶ	-1092
ጻድቅ	-1093
አሳልፎ	-1094
አማልክት	-1095
ያዕቆብም	-1096
ማለ	-1097
ያሳ	-1098
ጽኑ	-1099
ብርሃን	-1100
ተናገረው	-1101
ጥላ	-1102
ሙኤል	-1103
ፋንታ	-1104
ከሰማይ	-1105
ዮች	-1106
ጠባ	-1107
ሰውን	-1108
አሥር	-1109
ከምድር	-1110
ሠር	-1111
ዓዛ	-1112
ይኖ	-1113
ሳለሁ	-1114
ኛልና	-1115
የተቀደ	-1116
ትር	-1117
ደሱ	-1118
ገኙ	-1119
ሃልና	-1120
ሰልፍ	-1121
ሳኦል	-1122
አርባ	-1123
ጕድጓ	-1124
ተናገር	-1125
ቸር	-1126
ትሆና	-1127
ኤርም	-1128
ፈሪያ	-1129
መልአክ	-1130
ታቸውን	-1131
እንዳል	-1132
መጋ	-1133
የል	-1134
የት	-1135
ግል	-1136
ጠቀ	-1137
ገንዘ	-1138
ሎት	-1139
መም	-1140
ቀረበ	-1141
ንጹሕ	-1142
ኃጢአታ	-1143
ነበረች	-1144
ምት	-1145
እባ	-1146
እውነ	-1147
ያደረገ	-1148
ፈርዖን	-1149
አልነበረ	-1150
በእግዚአብሔርም	-1151
አቤ	-1152
አዳ	-1153
ነውን	-1154
አደባ	-1155
እግር	-1156
ወዲህ	-1157
ይወጣ	-1158
ሠዊያው	-1159
ባልንጀራ	-1160
ህና	-1161
ሜዳ	-1162
ረኛ	-1163
አጥ	-1164
ይበ	-1165
ጣን	-1166
ሁሉን	-1167
ምሳሌ	-1168
ዘረጋ	-1169
ከሙ	-1170
ፈስ	-1171
ደርግ	-1172
ያደርጉ	-1173
ቡም	-1174
ካል	-1175
ዘም	-1176
ቅያስ	-1177
ቻችሁ	-1178
ወራት	-1179
ኢዮአብ	-1180
መቱ	-1181
ረዳ	-1182
ወል	-1183
ሥራቅ	-1184
የጌታ	-1185
ገለዓ	-1186
ሥርዓት	-1187
ሳሙኤል	-1188
ያደርግ	-1189
እስራኤልም	-1190
መግ	-1191
ማረ	-1192
ብራ	-1193
ወግ	-1194
መጠን	-1195
አጠፋ	-1196
ወሰደ	-1197
ይመጣል	-1198
እያንዳንዱ	-1199
በደል	-1200
በጌታ	-1201
ባችሁ	-1202
ከእኛ	-1203
ዙሪያ	-1204
ፈጽሞ	-1205
በፊትህ	-1206
¦	-1207
▁	-1208
ን	-1209
ም	-1210
አ	-1211
በ	-1212
እ	-1213
ር	-1214
ው	-1215
ል	-1216
ት	-1217
ለ	-1218
ስ	-1219
የ	-1220
ይ	-1221
።	-1222
ነ	-1223
መ	-1224
ደ	-1225
፥	-1226
ብ	-1227
ና	-1228
ች	-1229
ድ	-1230
ተ	-1231
ያ	-1232
ከ	-1233
ሁ	-1234
ግ	-1235
ላ	-1236
ወ	-1237
ህ	-1238
ሰ	-1239
ገ	-1240
ራ	-1241
፤	-1242
ረ	-1243
ባ	-1244
ታ	-1245
ዚ	-1246
ሉ	-1247
ማ	-1248
ቸ	-1249
ቀ	-1250
ጠ	-1251
ዘ	-1252
ዳ	-1253
ፍ	-1254
ሆ	-1255
ሱ	-1256
ሔ	-1257
ሳ	-1258
ቅ	-1259
ክ	-1260
ጥ	-1261
ሚ	-1262
ዋ	-1263
ፈ	-1264
ቱ	-1265
ሩ	-1266
ጋ	-1267
ጣ	-1268
ሥ	-1269
ቶ	-1270
ሞ	-1271
ቃ	-1272
ሕ	-1273
ካ	-1274
ዲ	-1275
ኤ	-1276
ዝ	-1277
ዓ	-1278
ቤ	-1279
ጅ	-1280
ኛ	-1281
ጉ	-1282
ዛ	-1283
ኝ	-1284
ዎ	-1285
ሌ	-1286
ሎ	-1287
ኑ	-1288
ኔ	-1289
ጆ	-1290
ሙ	-1291
ሮ	-1292
ፋ	-1293
ዱ	-1294
ጊ	-1295
ቢ	-1296
ሴ	-1297
ኢ	-1298
ኖ	-1299
?	-1300
ፊ	-1301
ሠ	-1302
ሪ	-1303
ዜ	-1304
ቡ	-1305
ዕ	-1306
ቻ	-1307
ዊ	-1308
ቆ	-1309
ሽ	-1310
ጡ	-1311
ዮ	-1312
ኃ	-1313
ጽ	-1314
ቹ	-1315
ኋ	-1316
ጌ	-1317
ሬ	-1318
ዙ	-1319
ቁ	-1320
ሃ	-1321
ሊ	-1322
ዶ	-1323
ሐ	-1324
ሸ	-1325
ቴ	-1326
ሄ	-1327
ፉ	-1328
ጀ	-1329
ሣ	-1330
ጸ	-1331
ሶ	-1332
ሲ	-1333
ጢ	-1334
ሜ	-1335
ሡ	-1336
ሻ	-1337
ጨ	-1338
ዩ	-1339
ጎ	-1340
ኪ	-1341
ጻ	-1342
ቍ	-1343
ኩ	-1344
ቦ	-1345
ጭ	-1346
ኞ	-1347
ዬ	-1348
ዴ	-1349
ኮ	-1350
ጃ	-1351
ቈ	-1352
ሦ	-1353
ጁ	-1354
ቼ	-1355
ፎ	-1356
ቂ	-1357
ፅ	-1358
ጦ	-1359
ጕ	-1360
ኳ	-1361
ኅ	-1362
ኸ	-1363
ዖ	-1364
ኵ	-1365
ጫ	-1366
ሺ	-1367
ጂ	-1368
ኦ	-1369
ሀ	-1370
ጐ	-1371
ኘ	-1372
ዞ	-1373
ኬ	-1374
ፀ	-1375
ጹ	-1376
ጮ	-1377
ጄ	-1378
ጓ	-1379
ዔ	-1380
ፌ	-1381
ሹ	-1382
ሾ	-1383
ቄ	-1384
ቲ	-1385
ፃ	-1386
ሂ	-1387
ኒ	-1388
ቺ	-1389
ኙ	-1390
ቋ	-1391
ጳ	-1392
!	-1393
ኰ	-1394
ዐ	-1395
ኣ	-1396
ጩ	-1397
ጤ	-1398
ጴ	-1399
ዌ	-1400
ኀ	-1401
ዉ	-1402
ዑ	-1403
ፁ	-1404
ሤ	-1405
ኹ	-1406
ጾ	-1407
ዣ	-1408
ሖ	-1409
ዥ	-1410
ጵ	-1411
ኽ	-1412
ፆ	-1413
ኜ	-1414
ኻ	-1415
ጪ	-1416
ጲ	-1417
ሑ	-1418
ኆ	-1419
ዪ	-1420
ዒ	-1421
a	-1422
ሒ	-1423
ሼ	-1424
ዠ	-1425
ጶ	-1426
w	-1427
ዢ	-1428
ኡ	-1429
ኚ	-1430
ጼ	-1431
ጺ	-1432
𐋇	-1433
ጬ	-1434
k	-1435
ዦ	-1436
ዤ	-1437
ሢ	-1438
ቾ	-1439
ሓ	-1440
ዡ	-1441
ፄ	-1442
𐊣	-1443
𐊼	-1444
g	-1445
ኄ	-1446
r	-1447
d	-1448
ኾ	-1449
ጰ	-1450
ጱ	-1451
ቧ	-1452
ፔ	-1453
ፕ	-1454
t	-1455
ኺ	-1456
*	-1457
1	-1458
v	-1459
"	-1460
l	-1461
ሷ	-1462
ፐ	-1463
ፓ	-1464
2	-1465
s	-1466
3	-1467
[	-1468
]	-1469
o	-1470
ፑ	-1471
ፒ	-1472
(	-1473
)	-1474
-	-1475
5	-1476
e	-1477
ቊ	-1478
ዷ	-1479
ፂ	-1480
0	-1481
4	-1482
@	-1483
b	-1484
m	-1485
u	-1486
ሏ	-1487
ቷ	-1488
ቿ	-1489
ኗ	-1490
ኟ	-1491
ኲ	-1492
ኼ	-1493
ጒ	-1494
ጧ	-1495
ፏ	-1496
