<pad>	0
</s>	0
<unk>	0
,	-2.79285
▁och	-3.32038
.	-3.57153
▁till	-4.19265
▁i	-4.19554
s	-4.23269
▁som	-4.36026
▁att	-4.48533
▁han	-4.49903
▁de	-4.54258
;	-4.58926
▁så	-4.66782
:	-4.73584
▁för	-4.7398
h	-4.7693
▁skall	-4.79426
▁jag	-4.8108
▁det	-4.82101
▁Oc	-4.82686
▁en	-4.83829
▁på	-4.87134
▁icke	-4.87995
▁är	-4.93863
▁den	-4.95734
▁av	-4.97077
▁med	-4.98072
▁har	-5.05568
▁dem	-5.07714
▁honom	-5.08895
▁»	-5.09971
▁du	-5.11421
▁	-5.22714
en	-5.29898
▁HERREN	-5.321
a	-5.34063
▁I	-5.34701
▁mig	-5.36117
▁dig	-5.42221
▁sig	-5.42365
t	-5.44154
▁sade	-5.46851
▁var	-5.46881
.»	-5.50761
▁hade	-5.5327
▁eder	-5.54358
som	-5.60337
▁hans	-5.63145
▁om	-5.63168
r	-5.6861
▁då	-5.6902
▁upp	-5.75496
▁Men	-5.76184
▁sin	-5.76913
▁Gud	-5.7889
▁alla	-5.79198
▁över	-5.86549
▁ett	-5.87711
▁åt	-5.87944
▁från	-5.88082
▁din	-5.90022
▁nu	-5.92938
de	-5.93392
▁min	-5.93732
er	-5.97004
▁man	-5.97272
▁efter	-6.00034
▁när	-6.02397
▁Då	-6.04906
n	-6.0508
▁skola	-6.0694
▁vad	-6.07766
▁ut	-6.09166
▁hava	-6.12299
▁ty	-6.14288
▁där	-6.17464
▁vi	-6.19029
▁men	-6.19574
▁son	-6.20687
▁mot	-6.22964
e	-6.23464
▁sina	-6.23803
▁deras	-6.23838
▁vid	-6.27882
▁allt	-6.28545
▁detta	-6.2887
?	-6.2994
▁barn	-6.31307
▁HERRENS	-6.32801
▁oss	-6.36577
▁ock	-6.41624
▁hus	-6.42596
▁Israels	-6.43589
▁eller	-6.43773
▁vara	-6.46007
▁Ty	-6.46998
▁säger	-6.47919
▁mitt	-6.50538
▁sitt	-6.52133
▁Så	-6.5283
▁göra	-6.53764
▁folk	-6.53938
▁äro	-6.54687
▁skulle	-6.55336
▁fram	-6.55579
▁komma	-6.55776
▁vill	-6.56059
▁dina	-6.57669
▁genom	-6.57718
▁land	-6.5777
▁bliva	-6.57971
na	-6.58178
d	-6.58711
▁må	-6.59816
▁någon	-6.63745
▁in	-6.65564
▁utan	-6.66559
▁se	-6.66994
▁voro	-6.6761
▁ned	-6.68928
▁dess	-6.71044
▁konungen	-6.73123
▁under	-6.74439
▁gå	-6.76781
▁bort	-6.7801
▁få	-6.78031
▁konung	-6.78766
▁hon	-6.78927
▁kom	-6.79051
▁ur	-6.79575
▁hela	-6.8041
▁skolen	-6.81438
▁ord	-6.82012
▁ditt	-6.82067
▁inför	-6.82641
▁hand	-6.83634
▁folket	-6.83927
▁andra	-6.85668
▁ifrån	-6.86246
▁Han	-6.86792
▁Guds	-6.86966
▁Israel	-6.8717
▁svarade	-6.88147
▁blev	-6.89098
▁mina	-6.89468
▁När	-6.89474
▁jorden	-6.91321
▁dag	-6.91969
▁dessa	-6.94141
▁ingen	-6.94281
▁söner	-6.95474
▁bland	-6.95913
▁Jag	-6.97017
▁David	-6.9752
▁något	-6.9874
▁gick	-6.99217
ar	-7.0112
▁sedan	-7.01192
▁tjänare	-7.01393
▁ju	-7.01415
▁--	-7.01762
▁giva	-7.02165
▁'	-7.02655
?»	-7.0307
▁låt	-7.03293
▁gjorde	-7.04189
▁än	-7.04603
▁Juda	-7.06521
▁blivit	-7.07356
▁Jerusalem	-7.07471
▁kommer	-7.07496
▁Jesus	-7.07996
et	-7.08366
▁namn	-7.08764
-	-7.09231
▁henne	-7.09311
it	-7.10071
▁män	-7.10754
▁kan	-7.11413
▁mer	-7.13013
edra	-7.13442
▁De	-7.14111
▁säga	-7.14569
▁ej	-7.16482
▁Mose	-7.16959
▁tid	-7.17363
▁lät	-7.18503
o	-7.18752
▁därför	-7.18782
▁Herren	-7.19147
▁två	-7.19394
▁gjort	-7.20972
▁Ja	-7.21678
▁själv	-7.22229
!	-7.24047
▁denna	-7.24712
▁får	-7.26186
▁landet	-7.27865
▁hos	-7.29457
▁tillbaka	-7.3055
▁ögon	-7.30651
▁vår	-7.31462
▁fader	-7.31643
▁gav	-7.3259
▁låta	-7.33305
▁tog	-7.34318
▁himmelen	-7.3561
▁Egypten	-7.36382
▁år	-7.36433
g	-7.36594
▁ja	-7.36944
▁dagen	-7.37009
▁taga	-7.37771
▁väl	-7.38271
▁hundra	-7.38404
▁haven	-7.38432
▁Om	-7.39009
▁huru	-7.39078
▁denne	-7.39092
▁åter	-7.41015
▁ännu	-7.41346
▁intet	-7.42398
▁kommit	-7.44023
▁här	-7.44387
▁höra	-7.45717
▁gör	-7.46749
l	-7.4728
▁tusen	-7.48987
▁bliver	-7.49602
▁hjärta	-7.50687
▁Den	-7.50953
▁åstad	-7.51477
▁Du	-7.52504
k	-7.5295
▁kunna	-7.53242
▁Se	-7.54487
▁ansikte	-7.54714
▁ända	-7.54929
▁bröder	-7.55402
▁emot	-7.56279
▁skull	-7.56396
▁liv	-7.57879
▁fick	-7.57887
▁också	-7.58926
▁många	-7.59135
▁talade	-7.59333
▁omkring	-7.59765
'	-7.6034
v	-7.61132
▁väg	-7.61772
▁kommo	-7.62327
▁staden	-7.62551
▁äta	-7.62649
Jag	-7.66222
nde	-7.66255
▁hålla	-7.6697
▁mycket	-7.67658
▁rätt	-7.67797
▁såg	-7.68081
▁dagar	-7.68344
▁kvar	-7.68363
▁lika	-7.68608
▁tala	-7.68875
▁stor	-7.69198
▁tre	-7.69544
▁måste	-7.69916
▁vilken	-7.70665
▁sju	-7.70778
▁förde	-7.72043
▁människor	-7.72094
▁går	-7.72273
▁hustru	-7.73071
▁be	-7.73236
▁sagt	-7.7401
▁vatten	-7.75192
▁givit	-7.76261
▁stå	-7.76347
or	-7.77542
▁hörde	-7.78625
m	-7.78834
▁vare	-7.79101
f	-7.79124
▁Sedan	-7.79255
▁bo	-7.80485
▁Därför	-7.82408
▁hennes	-7.8247
i	-7.82832
▁stod	-7.83937
▁stora	-7.84249
om	-7.84474
▁Därefter	-7.8451
▁allenast	-7.84785
▁guld	-7.85507
▁HERRE	-7.85619
▁sände	-7.85768
▁nåd	-7.86093
▁heller	-7.86413
▁städer	-7.87112
▁eld	-7.8782
▁vilka	-7.88078
▁samma	-7.88875
▁både	-7.89486
▁prästen	-7.89595
▁våra	-7.89767
▁vilja	-7.90357
▁ville	-7.90621
▁Aron	-7.90629
▁finnes	-7.90638
▁dit	-7.90801
es	-7.9109
an	-7.91575
▁dock	-7.91782
▁stad	-7.91823
▁Det	-7.92396
▁vände	-7.92754
da	-7.92884
▁kunde	-7.94131
▁röst	-7.94131
▁herre	-7.94163
▁gott	-7.94429
▁döda	-7.95203
re	-7.95361
▁själva	-7.95728
▁blod	-7.96162
▁broder	-7.96226
.'	-7.97039
▁all	-7.97243
▁svärd	-7.97988
▁händer	-7.97995
▁Kristus	-7.99003
▁varit	-7.9913
▁En	-7.99182
▁sätt	-7.99204
▁blevo	-7.99858
▁gingo	-8.00604
än	-8.00643
▁nämligen	-8.00897
▁fäder	-8.0152
▁Saul	-8.02001
▁heliga	-8.0216
▁plats	-8.02264
▁Detta	-8.02637
▁framför	-8.02642
för	-8.03704
st	-8.03791
▁tro	-8.04211
▁födde	-8.04363
▁bud	-8.04403
▁veta	-8.04589
▁havet	-8.0514
▁Jakob	-8.05332
▁fast	-8.06365
▁annan	-8.06798
▁mun	-8.07012
▁o	-8.07669
▁hör	-8.07874
▁föra	-8.07986
▁själ	-8.08287
▁giver	-8.08595
▁satte	-8.08596
▁dotter	-8.09176
▁ont	-8.09523
▁båda	-8.09604
▁sidan	-8.09633
b	-8.09911
▁tiden	-8.10215
▁dö	-8.10355
▁bära	-8.10452
▁fått	-8.10667
▁draga	-8.11137
▁vrede	-8.11604
jämte	-8.12123
▁För	-8.12505
▁konungens	-8.12541
ade	-8.14358
▁huvud	-8.1483
▁stam	-8.1486
▁frågade	-8.15049
▁tron	-8.15589
▁mannen	-8.15756
▁onda	-8.1605
▁På	-8.16382
▁leva	-8.17053
▁varandra	-8.17454
▁ande	-8.18332
▁drog	-8.18537
▁undan	-8.18969
▁arvedel	-8.19348
▁vet	-8.1998
▁makt	-8.20135
▁Där	-8.20483
▁fyra	-8.20938
▁rättfärdighet	-8.21221
la	-8.21364
▁lade	-8.21452
»,	-8.21491
▁lag	-8.21594
▁moder	-8.21861
▁kraft	-8.21984
▁därefter	-8.2211
as	-8.22203
▁gärningar	-8.22515
▁vägen	-8.23013
▁fem	-8.23184
▁sådant	-8.23255
▁öknen	-8.24045
▁offra	-8.24225
▁talat	-8.24412
▁kläder	-8.25196
▁an	-8.25471
Vad	-8.25531
▁vidare	-8.25799
▁Salomo	-8.25837
▁Sebaot	-8.26243
het	-8.26465
▁prästerna	-8.26973
▁huset	-8.27111
▁silver	-8.27183
▁vem	-8.27314
▁g	-8.27718
▁fiender	-8.27818
▁vända	-8.27879
y	-8.28319
▁filistéerna	-8.28559
▁marken	-8.28773
▁bröd	-8.28875
arna	-8.28885
▁sätta	-8.28974
▁döttrar	-8.28975
▁berg	-8.29088
▁sådan	-8.29934
▁står	-8.30014
▁tillsammans	-8.30341
▁Var	-8.30481
▁förbund	-8.3049
tt	-8.30624
▁några	-8.30673
▁runt	-8.30673
▁härlighet	-8.30697
▁människa	-8.30894
Du	-8.30996
j	-8.31314
▁hjärtan	-8.31482
▁alnar	-8.31565
▁mellan	-8.31966
▁strid	-8.32204
▁Babel	-8.32401
▁bjudit	-8.32412
▁Davids	-8.32748
▁slag	-8.33073
▁länge	-8.33276
▁kallade	-8.33895
▁döden	-8.33918
▁bodde	-8.34167
▁kött	-8.34472
▁lägga	-8.34494
ra	-8.35467
▁barns	-8.35822
▁skaffa	-8.36116
▁altaret	-8.36165
▁synd	-8.36511
▁frukt	-8.36739
▁satt	-8.36881
!»	-8.36992
▁S	-8.37356
▁Josua	-8.37771
▁hit	-8.37834
▁igen	-8.37887
▁hem	-8.37914
▁ära	-8.37978
▁verk	-8.38039
▁släkte	-8.38041
▁Dessa	-8.38324
at	-8.38974
▁död	-8.39127
ken	-8.39195
▁gång	-8.3921
▁ropade	-8.39313
▁rike	-8.39552
▁drag	-8.3977
▁tag	-8.39806
▁äldste	-8.40097
▁brännoffer	-8.40097
▁lik	-8.40197
▁folken	-8.40236
▁gudar	-8.40341
▁kvinna	-8.40792
▁tio	-8.41002
▁dricka	-8.41075
▁natten	-8.41338
Så	-8.41465
▁s	-8.4228
▁fötter	-8.42429
▁gått	-8.42661
▁Vad	-8.43121
▁medan	-8.44119
▁del	-8.44147
▁ären	-8.44187
p	-8.44521
Se	-8.44643
▁fingo	-8.44917
▁därav	-8.45005
▁släkt	-8.45411
▁alltså	-8.45414
rän	-8.4618
ad	-8.46338
▁Farao	-8.46471
▁vin	-8.46773
▁H	-8.47273
▁kropp	-8.47493
ta	-8.47655
▁redan	-8.47945
▁därpå	-8.47979
▁månaden	-8.48033
▁sönder	-8.48392
▁låg	-8.48505
ja	-8.4864
▁första	-8.48698
▁fråga	-8.48899
▁säd	-8.49472
▁hört	-8.49601
▁mån	-8.49914
▁goda	-8.50251
▁konungar	-8.50307
▁Jordan	-8.50502
▁därtill	-8.5061
el	-8.51121
▁skam	-8.52091
▁glädje	-8.52756
▁sett	-8.52789
u	-8.52822
▁togo	-8.53459
▁tjugu	-8.53682
▁Herre	-8.53883
▁ena	-8.54117
▁ligger	-8.5477
▁tolv	-8.5477
▁vart	-8.54795
▁alltid	-8.5482
▁faders	-8.54821
▁därifrån	-8.54908
▁leviterna	-8.54959
▁falla	-8.55072
▁djur	-8.55224
▁hämta	-8.55246
▁slog	-8.55774
▁Nej	-8.5599
▁föll	-8.56427
▁före	-8.56644
▁lagen	-8.56759
▁A	-8.56923
▁visa	-8.57077
▁ske	-8.57199
are	-8.57393
▁gammal	-8.57532
▁annat	-8.5756
▁Min	-8.57653
▁tjänst	-8.57676
▁känna	-8.58094
den	-8.58204
▁Josef	-8.5834
bland	-8.5868
▁Abraham	-8.58926
▁talar	-8.59021
▁for	-8.59181
▁ser	-8.59245
▁högr	-8.59758
▁evinnerligen	-8.59799
▁besittning	-8.59816
▁tagit	-8.59928
▁sex	-8.60116
▁sänt	-8.60373
▁stodo	-8.6064
▁världen	-8.60669
▁missgärning	-8.60861
▁levande	-8.61026
▁förut	-8.61054
Det	-8.6117
▁sak	-8.61267
▁edert	-8.61436
▁ligga	-8.61495
▁tal	-8.62037
▁morgon	-8.6215
▁offer	-8.62179
▁frid	-8.62254
▁männen	-8.62339
▁kvinnor	-8.6254
ka	-8.62605
us	-8.62852
▁stadgar	-8.63403
▁begynte	-8.63424
▁ed	-8.63536
▁drogo	-8.64019
ning	-8.64091
▁fara	-8.64216
▁kärlek	-8.64408
ligt	-8.64915
▁helig	-8.65067
▁Paulus	-8.657
▁släkter	-8.65821
▁bygga	-8.65852
ens	-8.65917
▁kasta	-8.66416
sk	-8.66831
▁vägar	-8.67071
▁Ande	-8.67225
▁Bet	-8.67237
ande	-8.68049
▁övriga	-8.68163
▁säg	-8.68721
ns	-8.6884
▁Av	-8.68928
▁Petrus	-8.69416
▁judarna	-8.69529
va	-8.69658
▁lärjungar	-8.69866
▁tecken	-8.70067
▁berget	-8.70213
▁följde	-8.70412
▁lever	-8.70676
▁andre	-8.70685
▁fanns	-8.70795
▁förstånd	-8.70862
▁steg	-8.71372
▁slå	-8.71633
▁sådana	-8.72071
I	-8.72082
▁bor	-8.72236
▁olycka	-8.72665
ma	-8.72737
▁Nu	-8.72788
▁Kristi	-8.73275
▁synder	-8.74308
gav	-8.74352
å	-8.74526
▁däri	-8.74636
▁finnas	-8.74671
▁stället	-8.75002
▁våld	-8.75125
▁tredje	-8.75276
▁B	-8.75278
▁Jesu	-8.75284
▁förnimma	-8.75286
▁hög	-8.75293
▁Jeremia	-8.75933
▁vandra	-8.75949
▁vattnet	-8.75956
▁arbete	-8.7612
am	-8.76126
▁profeten	-8.76199
▁bär	-8.76679
▁frukta	-8.77331
▁söka	-8.77388
håller	-8.77754
▁aldrig	-8.77974
▁rädda	-8.7818
▁varda	-8.78295
▁ljus	-8.78563
»	-8.78581
▁lägra	-8.78663
enbarelsetältet	-8.78664
▁Huru	-8.78975
▁olja	-8.79121
▁vila	-8.7924
▁trettio	-8.79356
▁furstar	-8.79844
▁frälsning	-8.80305
▁ängel	-8.80443
▁vishet	-8.80683
▁höll	-8.80735
▁Samuel	-8.80762
▁Joab	-8.80769
▁sända	-8.80855
▁först	-8.80973
▁Låt	-8.81243
▁ro	-8.81379
▁finna	-8.81445
▁hjälp	-8.81458
▁koppar	-8.8147
Om	-8.82036
▁befallning	-8.82094
▁tjäna	-8.82208
▁träd	-8.82367
väl	-8.82423
ig	-8.82524
▁trädde	-8.82617
▁bön	-8.82851
▁lämna	-8.83129
▁helgedomen	-8.83202
▁femtio	-8.83718
▁slut	-8.84081
▁hette	-8.84359
intill	-8.84645
▁Vi	-8.84683
▁akta	-8.85568
▁enda	-8.85661
ste	-8.85746
▁människorna	-8.85892
▁hedningarna	-8.8664
'»	-8.86701
▁därmed	-8.86752
Vi	-8.86796
▁tänkte	-8.86952
▁Fader	-8.87052
▁vore	-8.87097
▁område	-8.87333
▁lära	-8.87404
▁sons	-8.87509
Varför	-8.87578
▁ställe	-8.87607
▁vittnesbörd	-8.8785
▁byggde	-8.88156
▁fört	-8.88206
▁given	-8.88447
▁solen	-8.88983
▁stort	-8.89178
▁Varför	-8.89459
▁förgås	-8.89627
▁allasammans	-8.89658
▁kommen	-8.89778
▁församlade	-8.898
ing	-8.89878
▁stannade	-8.89879
▁Herrens	-8.89892
▁Må	-8.90568
▁långt	-8.90737
▁egen	-8.91177
▁bjöd	-8.91179
▁förkunna	-8.91745
▁evig	-8.91786
▁råd	-8.92032
▁Manasse	-8.92079
Låt	-8.9222
▁boning	-8.92725
▁Johannes	-8.92797
▁svara	-8.92797
▁Hon	-8.92817
▁Alla	-8.9289
▁mat	-8.92999
▁sågo	-8.9303
▁oren	-8.931
▁fyrtio	-8.9362
▁utgjorde	-8.94394
▁ställde	-8.94499
▁sten	-8.94579
te	-8.94729
▁ting	-8.94834
▁nära	-8.94905
▁namnet	-8.9492
▁länder	-8.95123
▁Jonatan	-8.9518
▁Dock	-8.95181
les	-8.95318
▁dom	-8.95383
▁k	-8.95424
ot	-8.95456
▁boskap	-8.95489
▁hustrur	-8.95663
▁strax	-8.96002
ifrån	-8.96022
▁nöd	-8.9628
▁sant	-8.96826
▁spisoffer	-8.96826
▁livet	-8.96843
liga	-8.96981
▁profeterna	-8.97016
▁Sion	-8.97032
iga	-8.97407
▁gören	-8.97434
▁eget	-8.97659
▁känner	-8.97684
▁Fadern	-8.98014
▁hopp	-8.98311
▁sjunde	-8.98673
gen	-8.98822
▁nästa	-8.98838
▁Har	-8.98961
▁far	-8.99294
kså	-8.99348
▁föda	-8.99409
▁vårt	-8.99961
▁gåvo	-9.00046
▁full	-9.00111
▁syster	-9.00202
ga	-9.00221
▁likväl	-9.00229
▁gånger	-9.0032
▁rätta	-9.0039
▁akt	-9.00459
▁fall	-9.00554
▁regera	-9.01064
▁inne	-9.01336
Var	-9.01379
▁hop	-9.01431
▁Hiskia	-9.022
▁ren	-9.02246
▁Är	-9.02282
▁håll	-9.02317
nen	-9.02339
▁skrivet	-9.02833
▁natt	-9.03146
is	-9.03165
▁fruktan	-9.03199
▁högt	-9.0337
▁kvinnan	-9.03537
▁behag	-9.03603
▁tillhopa	-9.03695
▁läppar	-9.03696
▁floden	-9.03804
▁fly	-9.03891
▁K	-9.03923
▁ark	-9.04088
▁Moses	-9.04172
▁egna	-9.04588
▁främmande	-9.04588
▁levde	-9.04589
▁profeter	-9.04633
▁öppna	-9.04646
▁funnit	-9.04724
▁Vem	-9.05084
▁kastade	-9.05093
▁regeringsår	-9.05489
▁flydde	-9.05494
▁bad	-9.0556
▁döma	-9.05734
▁tunga	-9.05771
▁lamm	-9.05803
▁sitta	-9.0605
▁sida	-9.06165
▁läger	-9.06396
med	-9.06423
▁rättfärdiga	-9.0648
▁tillhör	-9.0653
▁altare	-9.06631
▁Jakobs	-9.06735
▁syn	-9.06978
▁nog	-9.07083
▁dog	-9.07238
▁tempel	-9.07314
▁utmarker	-9.07326
ika	-9.0734
▁lägret	-9.07366
▁allde	-9.07427
▁bringa	-9.0744
▁Isak	-9.07818
▁Absalom	-9.08242
▁större	-9.08244
▁orätt	-9.08254
be	-9.08314
▁invånare	-9.08333
▁stenar	-9.08334
im	-9.08473
',	-9.08568
Min	-9.08642
▁inom	-9.08702
▁b	-9.08724
▁förgöra	-9.08919
▁ogudaktiga	-9.09107
else	-9.09118
▁E	-9.09165
▁älskade	-9.09521
▁bergen	-9.09658
▁platsen	-9.09726
▁vagnar	-9.09966
▁stammar	-9.09988
▁siklar	-9.1012
▁finner	-9.10121
▁bröto	-9.10209
▁P	-9.10727
▁god	-9.10779
▁lust	-9.10793
▁morgonen	-9.1102
▁människobarn	-9.11072
▁porten	-9.11108
▁lägg	-9.11439
▁sen	-9.11611
▁ytterligare	-9.12034
▁Ammon	-9.12034
lig	-9.12401
un	-9.1295
▁försoning	-9.13004
des	-9.13111
▁höllo	-9.13186
▁fördärva	-9.13371
os	-9.13478
till	-9.13667
▁rätter	-9.13813
Herre	-9.13868
▁portar	-9.1387
erna	-9.14322
▁Gilead	-9.14498
▁rättfärdige	-9.14699
▁stanna	-9.14893
▁jämväl	-9.14975
▁barmhärtighet	-9.14987
▁lön	-9.1502
▁lång	-9.15061
▁skåda	-9.15067
▁styggelse	-9.15316
▁slagna	-9.15327
ri	-9.15371
▁uppstå	-9.15593
▁penningar	-9.15878
Gå	-9.16211
▁T	-9.1664
▁rättfärdig	-9.16698
▁fasta	-9.16865
▁bättre	-9.16985
▁innan	-9.17013
▁aftonen	-9.17207
▁jord	-9.17263
▁ropa	-9.17323
Ja	-9.17404
ras	-9.1779
▁sång	-9.17913
▁evangelium	-9.18007
▁vän	-9.18115
▁köttet	-9.1825
▁lovat	-9.18283
▁grund	-9.18496
▁lott	-9.18588
on	-9.18606
▁likna	-9.187
▁bevara	-9.18731
▁hästar	-9.18779
▁rena	-9.18893
▁fjärran	-9.19036
▁vilket	-9.19036
▁förstå	-9.19488
Vem	-9.19544
▁församlingen	-9.19609
sökte	-9.19641
▁lejon	-9.19924
▁gamla	-9.20078
▁Sela	-9.20225
ll	-9.20725
▁funnos	-9.20925
▁bryta	-9.21293
igt	-9.21731
▁träda	-9.21868
▁slakta	-9.21912
▁Samaria	-9.22195
▁f	-9.22239
▁ingången	-9.22418
▁bör	-9.22677
▁året	-9.22937
▁präster	-9.22939
▁bar	-9.22967
▁gud	-9.22976
▁ände	-9.23019
▁ändå	-9.2327
▁Kanaan	-9.2327
▁sanning	-9.23615
▁församling	-9.23665
▁räkna	-9.23784
▁byte	-9.23943
▁fött	-9.24086
▁lyfte	-9.24325
▁öster	-9.24349
▁O	-9.24356
▁led	-9.24455
▁rop	-9.24487
▁handen	-9.24525
▁unga	-9.24534
▁Vid	-9.24544
▁Efraims	-9.24612
▁lagt	-9.24695
▁samla	-9.24901
▁Be	-9.24903
▁Sauls	-9.24924
sta	-9.24971
▁krig	-9.2503
▁tält	-9.25348
▁litet	-9.25456
▁stilla	-9.25458
▁därvid	-9.25541
▁Till	-9.25564
▁lämnade	-9.25925
▁L	-9.25983
▁G	-9.26354
▁elden	-9.26482
▁eljest	-9.26567
▁inbyggare	-9.26567
▁hälft	-9.26567
▁tabernaklet	-9.26567
▁t	-9.26633
lar	-9.2666
▁slogo	-9.26754
▁ute	-9.26754
▁ställa	-9.26881
▁tacka	-9.269
▁varder	-9.26964
▁ben	-9.27042
▁Moab	-9.27363
▁följande	-9.27739
▁skett	-9.27748
▁arm	-9.28286
ren	-9.28568
▁h	-9.28782
▁pris	-9.288
▁seger	-9.28824
▁Josafat	-9.28827
▁bedja	-9.2883
▁ogudaktige	-9.2893
».	-9.28935
▁fri	-9.28953
räckte	-9.29004
▁Icke	-9.29041
ne	-9.29154
ur	-9.29195
▁striden	-9.29233
▁otukt	-9.2947
▁Son	-9.29551
▁allena	-9.2995
ng	-9.29996
lä	-9.30065
▁kunnen	-9.3008
▁älska	-9.30389
▁hören	-9.30569
nas	-9.30733
▁mått	-9.30926
▁sägen	-9.30949
▁bröt	-9.31058
▁skuld	-9.31135
al	-9.31138
▁älskar	-9.31179
▁dräpa	-9.31191
▁tänka	-9.3125
▁syndat	-9.31433
▁tage	-9.31554
▁menigheten	-9.31572
▁Man	-9.31709
▁fot	-9.3181
▁Efraim	-9.3204
▁lov	-9.32278
▁visste	-9.32397
▁snart	-9.32406
▁kunskap	-9.32781
▁fäders	-9.3295
S	-9.33354
▁domare	-9.33385
▁konungs	-9.33396
▁familjer	-9.33421
▁viljen	-9.33506
▁öga	-9.33508
▁skynda	-9.33516
▁förgården	-9.33591
▁tionde	-9.33625
▁resa	-9.33971
▁svar	-9.34152
Huru	-9.3417
▁F	-9.34288
▁fördärv	-9.34524
▁Assyrien	-9.34711
▁följa	-9.3478
▁Ingen	-9.3483
▁djup	-9.35264
▁fröjd	-9.35353
▁Anden	-9.35527
in	-9.35579
▁därom	-9.35655
▁mörker	-9.3597
▁Benjamins	-9.36145
▁ene	-9.36408
▁stycke	-9.36444
▁kär	-9.36535
▁ny	-9.36574
▁arken	-9.36624
▁sorg	-9.3663
öd	-9.36642
▁församla	-9.36682
▁Benjamin	-9.36948
▁fann	-9.36952
▁avgudar	-9.37036
▁lida	-9.37116
▁öde	-9.3716
▁längre	-9.37165
pp	-9.37272
▁förvisso	-9.37369
▁vakt	-9.37738
▁port	-9.3778
rna	-9.37872
▁hata	-9.37878
▁öron	-9.37896
▁prisa	-9.38141
▁orda	-9.38159
nvid	-9.38289
▁Jo	-9.38319
▁mörkret	-9.38415
▁Levi	-9.38426
▁Ell	-9.38477
▁utom	-9.38631
▁föllo	-9.38691
▁p	-9.38791
▁starka	-9.38849
▁faller	-9.38862
▁förtära	-9.39178
▁plåga	-9.39261
▁kärl	-9.39364
▁Ma	-9.39482
▁järn	-9.39559
▁blygd	-9.39681
▁syndoffer	-9.39687
▁haft	-9.39705
▁dräpte	-9.3974
▁sidor	-9.3983
▁tåga	-9.39996
av	-9.40247
▁utanför	-9.40252
▁slår	-9.40365
▁trä	-9.40529
▁offrade	-9.40552
▁Baal	-9.40645
▁stycken	-9.40713
len	-9.40714
Den	-9.40762
▁fåglar	-9.40819
▁kalla	-9.40862
▁hövding	-9.40914
▁smälek	-9.40963
▁Alltså	-9.40963
▁utvalt	-9.40963
▁fint	-9.40965
▁Daniel	-9.40989
▁Med	-9.41115
▁Frå	-9.41245
▁blodet	-9.4132
▁lärjungarna	-9.41339
lade	-9.41379
▁fångenskap	-9.415
yllen	-9.4167
Tag	-9.41722
▁sanningen	-9.41845
▁orena	-9.41975
▁buro	-9.42261
▁tankar	-9.42261
▁tillbedja	-9.42261
▁förstfödde	-9.42278
▁Gad	-9.4234
▁stark	-9.42559
▁Ve	-9.4269
▁graven	-9.42756
▁veten	-9.42772
▁fäkreatur	-9.42962
ab	-9.43009
▁vandrade	-9.43143
▁rikedom	-9.43493
ten	-9.43518
▁sjuttio	-9.4361
▁berättade	-9.43635
▁strida	-9.43704
De	-9.43812
▁Eftersom	-9.44038
▁svärdet	-9.44052
▁rent	-9.4424
▁Allt	-9.4432
helst	-9.44504
▁åker	-9.44641
▁bok	-9.44676
▁frälsa	-9.44884
▁evärdlig	-9.44911
▁fursten	-9.45146
▁Moabs	-9.45305
ut	-9.45437
▁öppnade	-9.45499
För	-9.45559
HERREN	-9.45715
Är	-9.45721
▁ringa	-9.45768
lighet	-9.45791
orna	-9.46003
▁lögn	-9.46109
▁Faraos	-9.46128
▁välsignelse	-9.46262
▁beständigt	-9.46277
▁Eleasar	-9.46288
▁redo	-9.46299
▁förbliver	-9.46313
▁söker	-9.46314
▁välsigna	-9.46426
▁profetera	-9.46461
▁profet	-9.46481
▁ondska	-9.46616
gående	-9.46619
▁präst	-9.46823
▁stiga	-9.46979
▁grav	-9.46996
▁Tag	-9.47087
▁fulla	-9.47099
▁Et	-9.4711
▁egyptierna	-9.47616
▁ofta	-9.47632
▁slaktoffer	-9.47632
▁vikt	-9.47643
▁Människosonen	-9.47688
▁människan	-9.4773
▁äter	-9.47748
▁bevisa	-9.47754
▁illa	-9.47785
▁ljuset	-9.47872
▁ordet	-9.47937
▁mod	-9.48068
▁döds	-9.48134
▁lyssna	-9.48158
▁tillhöra	-9.48368
▁evigt	-9.48394
▁horn	-9.48508
Han	-9.48949
▁förskräckelse	-9.49021
▁ovänner	-9.49021
▁vingar	-9.49027
▁Simon	-9.49057
▁Aram	-9.49114
li	-9.49309
▁bet	-9.49352
▁Gen	-9.49363
▁utrota	-9.49485
▁huvuden	-9.49558
▁utföra	-9.49666
▁fröjda	-9.49684
▁arbeta	-9.49833
▁fruktade	-9.49908
▁förra	-9.50242
▁m	-9.50299
▁ditupp	-9.50429
▁förtörnelse	-9.50429
▁ihåg	-9.50429
▁skedde	-9.50441
▁Betel	-9.5049
▁hast	-9.50606
▁åto	-9.50723
äck	-9.50867
▁upprätta	-9.50985
▁mätta	-9.51432
▁sk	-9.51692
▁mjöl	-9.51728
▁Hebron	-9.51858
▁hals	-9.51858
▁trodde	-9.51884
▁myckenhet	-9.5189
▁tagen	-9.52236
▁gränsen	-9.52293
iternas	-9.52353
▁ung	-9.52361
▁bak	-9.52559
▁förgät	-9.5277
▁styggelser	-9.52809
▁bliv	-9.52889
▁rökelse	-9.5302
ske	-9.53166
▁helige	-9.53782
▁Hören	-9.53981
man	-9.54047
▁städerna	-9.54109
▁somliga	-9.54131
▁norr	-9.54272
▁visade	-9.54303
▁undervisa	-9.54559
▁(	-9.54777
▁dödsriket	-9.54778
▁tillflykt	-9.54778
▁öken	-9.54778
▁därinne	-9.54786
▁fjärde	-9.54838
▁tänker	-9.54853
▁vredes	-9.54963
iten	-9.55019
▁förbi	-9.55064
▁gåvor	-9.55249
▁mark	-9.55491
▁gråt	-9.55612
▁Josefs	-9.55638
Detta	-9.5579
▁göm	-9.55858
kar	-9.55998
▁Elia	-9.5601
▁klippa	-9.56135
▁hövdingar	-9.5623
)	-9.5627
▁Sikem	-9.5627
▁hunger	-9.5627
▁öra	-9.5627
▁åkalla	-9.56276
▁havande	-9.5633
▁gäller	-9.56361
▁berömm	-9.56471
▁välsignade	-9.56603
▁Joas	-9.56633
▁Denne	-9.56677
ter	-9.56737
▁ropar	-9.56912
▁helga	-9.56952
▁vänd	-9.57402
▁stund	-9.57417
▁främlingar	-9.5746
▁mantel	-9.5755
▁Abimelek	-9.57785
▁drickoffer	-9.57786
▁åsyn	-9.57788
▁herde	-9.57792
▁skriftlärde	-9.57815
▁förråd	-9.57818
▁Esau	-9.57846
▁samman	-9.58016
▁Här	-9.58056
men	-9.58275
▁fån	-9.5846
c	-9.58625
▁helgedom	-9.58687
▁hår	-9.58756
▁skatt	-9.59056
talade	-9.5918
▁driva	-9.59324
▁skada	-9.59325
▁fariséerna	-9.59411
▁därigenom	-9.59433
utom	-9.59529
▁hjärtat	-9.59712
▁glada	-9.59822
fall	-9.59944
▁regn	-9.60045
▁Eli	-9.60049
▁hållen	-9.60206
▁vandrar	-9.60346
ningen	-9.60425
▁moders	-9.60435
▁vika	-9.60483
▁lågo	-9.60744
?'	-9.60779
▁murar	-9.60857
▁Jeriko	-9.60886
▁särskild	-9.60886
▁araméerna	-9.60891
▁nytt	-9.60911
▁Galileen	-9.60923
▁träl	-9.60994
▁frambära	-9.61149
▁skara	-9.61462
▁varar	-9.61708
Stå	-9.61929
▁hände	-9.62184
▁furste	-9.62193
▁giv	-9.62207
del	-9.62223
▁å	-9.62423
▁tungomål	-9.62473
▁honung	-9.62474
▁R	-9.62605
▁träffade	-9.62745
▁Edom	-9.6278
▁stav	-9.62947
▁sänder	-9.62997
▁inga	-9.63093
▁kände	-9.63283
▁bergsbygd	-9.63575
▁konungarna	-9.63789
▁judar	-9.63799
ai	-9.64018
▁tider	-9.64064
▁Sidkia	-9.64086
▁psalm	-9.64086
▁vilse	-9.64086
▁heter	-9.64262
▁dödade	-9.64287
▁stånd	-9.64319
▁ogudaktigas	-9.64423
▁Job	-9.64463
um	-9.64519
▁inre	-9.64677
ol	-9.64951
▁dal	-9.64966
kor	-9.65
▁Abrahams	-9.65009
år	-9.65202
▁uppteckna	-9.65413
▁skyldig	-9.65521
▁Mika	-9.65617
▁Elisa	-9.65719
▁eldsoffer	-9.65726
▁Abner	-9.65726
▁möda	-9.65726
▁bedrövelse	-9.65727
le	-9.65769
▁gången	-9.65868
▁skänker	-9.65947
▁översteprästen	-9.66104
▁fånga	-9.66203
▁stig	-9.66223
▁gräns	-9.66354
efter	-9.66558
▁hjälpa	-9.66558
inna	-9.67024
▁Hör	-9.67104
▁hälsa	-9.67121
▁sp	-9.67225
tal	-9.6727
bar	-9.67271
▁bord	-9.67275
▁Bileam	-9.67392
▁Damaskus	-9.67392
▁Basan	-9.67393
▁garn	-9.67393
▁Jehu	-9.67394
▁Abram	-9.67395
▁begått	-9.67419
▁st	-9.67445
▁pass	-9.67469
▁dräpt	-9.67482
▁bäcken	-9.67493
▁smorde	-9.67519
▁ok	-9.67641
▁förbliva	-9.67642
▁kroppen	-9.67861
▁vittnesbördet	-9.67925
▁drabba	-9.67954
▁konungars	-9.68769
▁änglar	-9.68861
▁likt	-9.68956
▁Je	-9.6905
▁Mordokai	-9.69087
▁belägra	-9.69087
▁lukt	-9.69087
▁sannerligen	-9.69087
▁efa	-9.69087
▁vänner	-9.69089
▁trofasthet	-9.69095
▁alltsammans	-9.69135
▁Medan	-9.69139
▁byggt	-9.69303
▁Hav	-9.69311
▁kallas	-9.69316
▁Ahab	-9.69333
▁Noa	-9.69392
▁Sannerligen	-9.69418
▁löfte	-9.69688
»;	-9.69843
▁l	-9.70074
▁Sa	-9.703
översteprästerna	-9.70403
▁Efter	-9.70492
▁vittna	-9.70594
▁folks	-9.70699
▁ångest	-9.70811
▁lös	-9.70821
▁nödga	-9.70842
▁beder	-9.70923
▁övergivit	-9.70944
▁skatter	-9.70952
▁begiv	-9.71149
var	-9.7116
▁muren	-9.71294
▁tjänares	-9.71311
▁hjord	-9.71499
▁lova	-9.71617
em	-9.71687
▁höga	-9.71714
▁kroppar	-9.71847
▁högtid	-9.71871
▁stött	-9.71918
▁menighet	-9.72028
▁bruka	-9.72029
▁anden	-9.72075
dra	-9.72177
▁Ad	-9.72276
▁tjurar	-9.72316
▁Nebukadnessar	-9.72566
▁sutto	-9.72566
▁pest	-9.72567
▁gudsmannen	-9.72571
▁växa	-9.7263
▁tror	-9.72651
▁gossen	-9.72658
▁sinne	-9.72677
▁helt	-9.72795
▁lovade	-9.72881
▁höjden	-9.73122
▁fattiga	-9.7339
▁händerna	-9.73395
▁orent	-9.7353
▁synden	-9.73547
▁folkets	-9.73768
▁fruktar	-9.73818
▁dör	-9.73954
▁välde	-9.74274
▁jubel	-9.7435
▁tackoffer	-9.74351
▁Allsmäktige	-9.74352
▁rycka	-9.74352
▁sångmästaren	-9.74352
▁spillo	-9.74352
▁babyloni	-9.74352
▁fåfänglighet	-9.74353
▁ditin	-9.74407
▁foro	-9.74594
▁slagit	-9.74696
▁funno	-9.74706
▁sabbaten	-9.74722
▁månader	-9.74901
▁vingård	-9.75055
▁nådig	-9.75195
▁mätte	-9.75457
▁pröva	-9.75506
▁Judas	-9.75536
▁bränna	-9.75542
mar	-9.75698
▁föröka	-9.75699
▁mur	-9.75741
▁väsende	-9.75894
▁fullt	-9.76066
▁byar	-9.76077
▁le	-9.76131
▁Laban	-9.7617
▁Pilatus	-9.7617
▁Sadok	-9.7617
▁glöd	-9.7617
▁gästabud	-9.7617
▁Ester	-9.76174
▁liten	-9.76283
▁Skulle	-9.76325
▁orter	-9.76403
▁befästa	-9.76437
▁omvänd	-9.76442
iska	-9.76496
F	-9.76535
▁Jerobeam	-9.76548
▁vittne	-9.76581
▁huvudet	-9.76624
der	-9.76647
▁lär	-9.76673
▁gåva	-9.76735
▁Si	-9.76995
▁Salomos	-9.77219
hörande	-9.77383
▁komme	-9.77448
verk	-9.77492
▁ödemark	-9.77502
▁slipp	-9.78022
▁Maria	-9.78022
▁upptändes	-9.78035
▁hemlighet	-9.78054
ledes	-9.78295
tag	-9.78508
▁vise	-9.78607
▁förkunnade	-9.78781
▁ängeln	-9.78888
▁gån	-9.78946
Kom	-9.79379
▁vinträd	-9.79812
▁brev	-9.79822
▁ryttare	-9.79908
▁Messias	-9.79908
▁brännoffret	-9.79909
▁Tyrus	-9.7991
▁bittida	-9.7991
▁ofärd	-9.79923
▁Din	-9.79961
▁ovanpå	-9.79977
▁råda	-9.80015
▁mycken	-9.80016
▁hemsöka	-9.8006
▁vinning	-9.80072
ni	-9.80094
▁fäste	-9.80181
▁hatar	-9.80473
▁kalk	-9.80497
▁detsamma	-9.80509
▁spetälska	-9.80573
▁Kan	-9.80677
▁samlade	-9.80821
▁vis	-9.81013
▁åtta	-9.81072
▁syndare	-9.81079
▁bred	-9.81106
▁främling	-9.8121
A	-9.81229
Gud	-9.81294
▁överlämna	-9.81305
▁sjuk	-9.81337
▁bröderna	-9.81438
▁sändebud	-9.81439
▁herres	-9.81623
▁spjut	-9.81745
▁vädurar	-9.8176
▁östra	-9.81831
▁kananéerna	-9.81832
▁Haman	-9.81873
▁främst	-9.81931
▁glädja	-9.82299
▁helgat	-9.82392
▁Rubens	-9.82424
på	-9.82594
▁vitt	-9.8266
▁väldig	-9.83036
▁förlåta	-9.8311
▁fängelse	-9.83352
▁huvudmän	-9.83491
▁rök	-9.83781
▁ålder	-9.83789
▁Helige	-9.83792
▁Rehabeam	-9.83792
▁betyder	-9.83792
▁åsnor	-9.83792
▁därutöver	-9.8385
▁predika	-9.83854
▁reste	-9.83867
▁bjuder	-9.83953
▁bästa	-9.83998
▁räddade	-9.84669
▁korn	-9.84871
▁sextio	-9.84996
männen	-9.8504
▁böj	-9.85101
▁frågar	-9.85132
▁sköld	-9.85188
▁ljud	-9.85246
▁sjön	-9.85408
▁N	-9.85414
▁ve	-9.85514
▁rör	-9.85563
Gån	-9.8571
▁dröm	-9.85779
▁söder	-9.85784
▁Naftali	-9.85792
▁Simeon	-9.85792
▁brutit	-9.85792
▁bättring	-9.85792
▁eländig	-9.85792
▁ohelga	-9.85792
▁föremål	-9.85792
▁offereld	-9.85792
▁nej	-9.85792
▁Joram	-9.858
just	-9.85852
▁munnen	-9.85873
▁gift	-9.85908
▁avkomlingar	-9.85925
▁förmår	-9.85959
giva	-9.86003
▁borta	-9.86053
▁missgärningar	-9.86107
▁fattige	-9.86128
▁begär	-9.86185
▁rik	-9.86245
▁vinna	-9.86599
▁små	-9.86656
far	-9.86678
tid	-9.87227
▁Säg	-9.87699
▁tjänade	-9.87739
▁mankön	-9.87833
▁rykte	-9.87833
▁Asarja	-9.87833
▁fotstycken	-9.87833
▁halv	-9.87833
▁Sodom	-9.87834
▁tjänarinna	-9.87837
▁flera	-9.87838
ba	-9.87909
▁trälar	-9.87944
▁Åter	-9.87974
▁sista	-9.87978
▁Lot	-9.88032
▁frukten	-9.88072
▁dörren	-9.881
▁givet	-9.88121
dag	-9.88221
ets	-9.88285
▁vinden	-9.88398
▁furstarna	-9.8849
▁ansikten	-9.88688
▁fria	-9.88848
▁fiende	-9.88875
▁hämtade	-9.88902
▁välbehaglig	-9.88981
▁fåren	-9.89011
▁född	-9.89222
▁förrätta	-9.89612
▁röra	-9.89851
▁andar	-9.89865
▁undfå	-9.8989
▁Ismael	-9.89916
▁trampa	-9.89916
▁iakttaga	-9.89917
▁offergåva	-9.89925
▁rov	-9.89973
▁rörde	-9.90209
▁fattade	-9.90349
▁överträdelser	-9.90368
ligen	-9.90388
▁träffa	-9.9044
följde	-9.90528
▁lycka	-9.90543
▁Dina	-9.90752
▁förstår	-9.90891
Din	-9.91015
▁köpa	-9.91334
▁hugg	-9.91368
▁stadga	-9.91378
låt	-9.91437
Giv	-9.91495
Ack	-9.91497
▁ställ	-9.91585
▁snara	-9.91604
▁sker	-9.9164
▁Asa	-9.91722
▁Aser	-9.91953
▁antal	-9.91993
▁Gibea	-9.92044
▁Rakel	-9.92044
▁ihop	-9.92044
▁särskilt	-9.92044
▁kring	-9.92044
▁utvalda	-9.92044
▁Än	-9.92044
▁strömmar	-9.9209
bo	-9.92117
▁antalet	-9.92128
▁bereda	-9.92242
▁gripa	-9.92255
▁vek	-9.92306
dan	-9.9231
▁orenhet	-9.92328
▁fångar	-9.92328
lydande	-9.92341
▁samt	-9.92345
▁Gör	-9.92379
▁undervisade	-9.92432
ud	-9.92554
▁sinnet	-9.92589
sten	-9.92996
▁förbundet	-9.93019
▁Mitt	-9.93215
ölj	-9.93369
▁öva	-9.93417
▁riken	-9.93486
▁heligt	-9.93613
▁Jerobeams	-9.93767
▁barnet	-9.93902
En	-9.93981
▁aln	-9.9406
▁stoft	-9.94134
▁himmel	-9.94184
▁riket	-9.94187
▁gärna	-9.94218
▁fred	-9.94227
▁rev	-9.9423
▁ljusstaken	-9.94259
▁stoftet	-9.94302
▁utgjuta	-9.94306
▁israeliterna	-9.94324
▁synda	-9.94364
yck	-9.94425
▁fallit	-9.94432
▁blotta	-9.94441
▁förbarma	-9.9447
▁Libanon	-9.94651
▁vänt	-9.94656
▁igenom	-9.94811
▁kor	-9.94839
▁jungfru	-9.95169
▁föddes	-9.95199
▁gods	-9.95392
▁hungersnöd	-9.95869
▁Sions	-9.95896
▁vittnen	-9.9597
▁frälst	-9.9599
▁sluta	-9.96075
handa	-9.96089
▁förbanna	-9.96099
▁häpnad	-9.96324
▁fett	-9.96363
▁Sara	-9.96416
▁Gideon	-9.9644
▁bröst	-9.9644
▁hydda	-9.9644
▁äger	-9.9644
▁övermåttan	-9.9644
▁Tänk	-9.96441
▁Sebulon	-9.96441
▁sjätte	-9.96442
▁krönika	-9.96444
▁verkligen	-9.96537
▁dött	-9.96609
▁höjderna	-9.96619
▁mjölk	-9.96674
▁Gå	-9.96698
▁tuktan	-9.96778
▁hållit	-9.96856
▁helgade	-9.96931
▁par	-9.96955
▁altaren	-9.97146
land	-9.97153
▁nya	-9.97317
▁He	-9.97412
▁omtala	-9.97461
▁brödet	-9.97526
▁världens	-9.97632
▁inmönstrades	-9.97769
▁vädur	-9.97917
Må	-9.98184
Seba	-9.98191
▁brunn	-9.98237
H	-9.98285
▁barnen	-9.98379
▁föras	-9.98705
▁Herodes	-9.98713
▁Isaskar	-9.98713
▁Simei	-9.98713
▁herrar	-9.98713
▁templet	-9.98713
▁förbundsark	-9.98713
▁velat	-9.98713
▁berett	-9.98713
▁band	-9.98716
▁mindre	-9.98716
▁konungshuset	-9.98723
▁femte	-9.98778
▁visar	-9.9881
▁begynnelsen	-9.98849
▁högg	-9.98925
▁styrka	-9.98963
▁svårt	-9.98976
▁härom	-9.98989
▁klippan	-9.9913
▁givas	-9.99186
▁Beer	-9.99241
▁främlingen	-9.99315
▁bestå	-9.99372
▁överste	-9.9939
▁voren	-9.99434
▁tänder	-9.99451
od	-9.99761
▁tukta	-9.99883
▁amoréernas	-9.99968
let	-10.0011
▁Ben	-10.0011
▁blott	-10.0016
gåvo	-10.0028
ul	-10.0036
ram	-10.0052
▁störta	-10.0075
▁brist	-10.0077
▁hjältar	-10.0084
id	-10.0089
▁evighet	-10.0099
▁högmod	-10.0103
▁arv	-10.0103
Mästare	-10.0104
▁Balak	-10.0104
▁Sakarja	-10.0104
▁tillfälle	-10.0104
▁tjugufem	-10.0104
▁åminnelse	-10.0104
▁utbred	-10.0104
▁Judeen	-10.0104
▁mötes	-10.0105
▁judisk	-10.0106
▁hoppas	-10.0113
▁keruberna	-10.0115
▁bredvid	-10.0115
▁evigheter	-10.0125
▁tältet	-10.0127
▁krossade	-10.0137
▁förbränna	-10.014
▁bese	-10.0173
▁råder	-10.0181
▁Ar	-10.0183
of	-10.0193
▁sköt	-10.0204
▁märke	-10.0211
ty	-10.0228
▁månad	-10.0229
▁ond	-10.0248
rätt	-10.0252
▁rot	-10.0284
▁skön	-10.0287
▁länd	-10.0316
▁dödas	-10.0323
x	-10.0323
Lehem	-10.0342
▁Jisreel	-10.0342
▁bestämt	-10.0342
▁Natan	-10.0342
▁Benaja	-10.0342
▁alltjämt	-10.0342
▁fastmer	-10.0342
▁mörkblått	-10.0342
nar	-10.0343
▁värde	-10.0351
▁orättfärdighet	-10.0354
▁skapat	-10.0362
▁kärleken	-10.0377
▁El	-10.0398
vänd	-10.0429
▁krossa	-10.0437
bi	-10.0444
▁uppe	-10.0444
▁dalen	-10.0455
▁bosatt	-10.0463
▁lotten	-10.0467
▁slöt	-10.0469
▁Mi	-10.0499
slag	-10.0505
träd	-10.051
K	-10.0524
Nej	-10.0532
▁afton	-10.0532
▁ingång	-10.0546
▁båge	-10.0551
▁invånar	-10.0562
lösa	-10.0566
▁vagn	-10.0575
nu	-10.0582
▁förfölja	-10.0582
▁Ahas	-10.0584
▁stöt	-10.0584
▁Amasja	-10.0586
▁Kirjat	-10.0586
▁tillbehör	-10.0586
▁tända	-10.0586
▁vänstra	-10.0586
▁Semaja	-10.0586
▁Silo	-10.0586
▁undervisning	-10.0586
▁Mispa	-10.0586
llenast	-10.0586
▁någonsin	-10.0586
▁jubla	-10.059
▁utskifta	-10.0593
▁leda	-10.0599
▁plägade	-10.0608
▁begraven	-10.0617
▁förgjorde	-10.0618
▁uppenbarat	-10.0622
huset	-10.0627
▁lärt	-10.0644
▁väldiga	-10.0646
▁bäva	-10.0651
▁kallar	-10.0655
▁kvinnorna	-10.0659
gå	-10.0675
iel	-10.0684
▁inmönstrade	-10.0693
ker	-10.0719
heten	-10.074
▁förbannelse	-10.0747
▁trösta	-10.0774
▁bi	-10.0779
▁vind	-10.0798
▁träden	-10.0804
▁hov	-10.0817
▁skörda	-10.0828
▁väster	-10.0835
▁Gilgal	-10.0836
▁hyddor	-10.0836
▁utplåna	-10.0836
▁krona	-10.0836
▁släppa	-10.0836
▁brände	-10.0836
▁drabanterna	-10.0836
▁myndighet	-10.0836
▁överdrag	-10.0836
red	-10.0839
▁Gat	-10.0841
▁Seir	-10.0841
▁ätit	-10.0843
▁däremot	-10.0852
▁dragen	-10.0854
▁bestämda	-10.0857
▁behöva	-10.0859
▁Vänd	-10.0862
▁skilja	-10.0864
▁vänta	-10.087
▁skickade	-10.0871
▁sabbat	-10.088
▁rättfärdigheten	-10.0884
eln	-10.0897
▁hin	-10.0906
dde	-10.0907
▁Rama	-10.0912
▁behålla	-10.0946
éerna	-10.095
▁rätten	-10.0969
▁hämnd	-10.0977
▁änden	-10.0983
▁uppfyll	-10.0996
▁slaktade	-10.0998
▁arbetet	-10.1001
▁förkasta	-10.1026
▁gagn	-10.1035
▁ostrafflig	-10.1038
Allt	-10.1038
▁Lik	-10.1046
▁finge	-10.1059
farit	-10.1064
vis	-10.1075
▁plundra	-10.1088
▁bild	-10.1089
▁utför	-10.109
samma	-10.1091
▁Jesaja	-10.1092
▁Midjan	-10.1092
▁Simson	-10.1092
▁burit	-10.1092
▁skrev	-10.1092
▁svek	-10.1092
▁Under	-10.1092
ir	-10.1092
▁Stor	-10.1092
▁föreskrivet	-10.1093
▁tiondedel	-10.1094
▁behöver	-10.1097
▁talenter	-10.1097
▁husfolk	-10.1101
▁Uria	-10.1114
▁förlåten	-10.1129
▁gensträviga	-10.1133
▁armar	-10.1135
▁tjuren	-10.1137
▁beslut	-10.1141
▁vinet	-10.1142
▁uppenbarade	-10.1154
▁brunnen	-10.117
▁härskara	-10.1175
▁begärde	-10.1177
▁kallat	-10.1181
▁Stå	-10.1182
▁löften	-10.1195
▁själar	-10.1195
ek	-10.1196
▁hörn	-10.1214
▁aktade	-10.1222
▁bockar	-10.1225
▁di	-10.1239
▁klädd	-10.1252
▁varna	-10.1257
▁förskräckt	-10.131
▁vackla	-10.132
▁linne	-10.1321
▁Ai	-10.133
▁falsk	-10.1344
▁prov	-10.1347
▁vingårdar	-10.1347
ord	-10.1349
▁besvär	-10.1355
▁Hesbon	-10.1355
▁anklaga	-10.1355
▁begjut	-10.1355
▁bådo	-10.1355
▁ihjäl	-10.1355
▁ungtjur	-10.1355
▁överallt	-10.1355
▁tvist	-10.1355
▁känt	-10.1355
▁gudstjänst	-10.1355
▁tredjedel	-10.1359
▁härefter	-10.1365
▁ogudaktighet	-10.1369
▁Vår	-10.1374
▁höjder	-10.1382
▁dömer	-10.1384
lagt	-10.1387
▁ädla	-10.1387
▁vakta	-10.1403
▁Tala	-10.1404
▁Konungen	-10.1415
▁översten	-10.1421
▁allting	-10.1421
▁hugga	-10.1428
▁skriften	-10.143
▁plantera	-10.1438
▁räknas	-10.1447
▁fattig	-10.1461
▁amoréerna	-10.1478
▁Dan	-10.1481
▁envar	-10.1484
▁tronen	-10.1485
▁fattas	-10.1488
▁nitälskan	-10.1514
▁utgå	-10.153
vid	-10.1534
▁förvandla	-10.1563
▁överträdelse	-10.1568
porten	-10.1572
▁ödmjuka	-10.1596
▁hedningar	-10.161
▁domen	-10.1611
▁böner	-10.1618
▁intog	-10.1623
▁överflöd	-10.1624
▁övermod	-10.1624
▁vederfar	-10.1625
▁Kaleb	-10.1626
▁gärd	-10.1626
▁upphöjd	-10.1626
▁äktenskapsbrott	-10.1626
▁även	-10.1626
▁anförare	-10.1626
▁skräck	-10.1626
▁krets	-10.1626
▁femton	-10.1626
▁Satan	-10.1626
▁Sinai	-10.1627
▁buk	-10.1627
▁Hamat	-10.1627
▁Ahasja	-10.1628
▁ungdom	-10.1628
▁trygghet	-10.1628
▁anslag	-10.1629
▁räck	-10.1629
▁apostlarna	-10.1637
▁fullborda	-10.1644
▁gälla	-10.1652
▁djuren	-10.1663
▁tjänaren	-10.167
▁tröst	-10.1671
▁visst	-10.1672
Ha	-10.1675
▁färd	-10.1703
▁upplyft	-10.1723
▁drev	-10.1723
▁besatt	-10.1736
aim	-10.1754
▁fullbordas	-10.1773
▁vete	-10.1784
▁lyssnade	-10.1797
▁basun	-10.1808
▁viss	-10.182
▁lösa	-10.1823
▁moln	-10.1832
▁oskyldig	-10.1838
▁säng	-10.1844
▁dryck	-10.1846
Sannerligen	-10.1849
Denne	-10.1852
iterna	-10.1855
▁beläten	-10.1874
▁skugga	-10.188
▁åsna	-10.188
▁oxar	-10.1882
▁vred	-10.1884
▁Mo	-10.1884
E	-10.1887
▁trolös	-10.1892
▁D	-10.1894
▁grät	-10.1896
unnit	-10.1902
▁Gibeon	-10.1903
▁längd	-10.1903
▁plötslig	-10.1903
▁svärdsegg	-10.1903
▁tjänstekvinna	-10.1903
▁värn	-10.1903
▁Assur	-10.1903
▁blygas	-10.1903
▁buga	-10.1903
▁Merari	-10.1903
▁efoden	-10.1904
▁lemmar	-10.1904
▁lovsång	-10.1904
▁söners	-10.1904
▁vänster	-10.1904
▁red	-10.1904
▁lysa	-10.1904
▁rum	-10.1905
▁Vidare	-10.1908
▁skaror	-10.191
undrade	-10.1911
▁framgent	-10.1914
▁utgöra	-10.194
▁ved	-10.195
▁vista	-10.1971
▁bredd	-10.1984
hövitsmännen	-10.1988
▁sjuka	-10.1996
▁böjde	-10.2001
▁kaldéernas	-10.2028
luktande	-10.2036
▁lätt	-10.2042
ub	-10.205
▁måst	-10.2055
▁därjämte	-10.2072
▁uppstod	-10.2103
▁stån	-10.2122
T	-10.2127
Säg	-10.2135
Icke	-10.2135
När	-10.2135
▁Sin	-10.2136
▁drottning	-10.2138
▁skriva	-10.2146
drevo	-10.2163
▁svär	-10.2172
▁Esaus	-10.2178
gång	-10.218
låter	-10.2183
▁smäda	-10.2183
▁budskap	-10.2184
▁kameler	-10.2185
▁gläd	-10.2187
▁Sydlandet	-10.2189
▁tabernakel	-10.2189
▁yttre	-10.2189
▁åttonde	-10.2189
▁förklara	-10.2189
▁Sihon	-10.2189
▁famn	-10.2189
▁flickan	-10.2189
▁utvalde	-10.2189
▁fromma	-10.219
▁visdom	-10.219
▁fältet	-10.2192
▁brinnande	-10.2192
▁cederträ	-10.2193
▁storligen	-10.2196
▁stjärnorna	-10.2196
▁hemma	-10.22
▁utrotas	-10.2201
▁ryckte	-10.2205
▁båten	-10.2207
▁andarna	-10.2223
▁djupet	-10.2225
▁v	-10.2231
▁förskräckta	-10.2242
▁alls	-10.2251
▁växte	-10.2257
▁trolösa	-10.2259
▁skjuta	-10.2267
▁tom	-10.2286
▁fötterna	-10.2291
▁borg	-10.232
▁Gileads	-10.2329
▁ordning	-10.2333
▁Dans	-10.2348
▁glad	-10.2355
▁förståndig	-10.2365
väpnade	-10.2382
▁höjd	-10.2395
▁Ram	-10.2397
det	-10.24
igenom	-10.2408
▁värdig	-10.2409
▁märkt	-10.2426
▁domar	-10.2427
▁Kis	-10.2437
▁Ahabs	-10.2441
▁människo	-10.2448
▁nät	-10.2453
▁förneka	-10.2454
▁pläga	-10.2457
▁Över	-10.2459
▁by	-10.2467
▁pilar	-10.2475
▁lidande	-10.248
▁offergärd	-10.2483
▁Filippus	-10.2483
▁Hilkia	-10.2483
▁förhäv	-10.2483
▁årsgam	-10.2483
▁tårar	-10.2483
▁vapen	-10.2483
▁ägodelar	-10.2483
▁ådrag	-10.2483
▁rosenrö	-10.2483
▁vandel	-10.2484
▁Abia	-10.2484
▁avund	-10.2484
▁fordom	-10.2485
▁osyrade	-10.2485
▁oomskurna	-10.2489
▁molnskyn	-10.2489
▁skrivit	-10.2491
▁uppstått	-10.2491
▁härpå	-10.2492
▁sålde	-10.2495
ödra	-10.2497
▁yttersta	-10.2498
▁vilddjuret	-10.2499
▁hav	-10.2527
▁Re	-10.2531
▁Lea	-10.2538
▁härliga	-10.2541
▁blinda	-10.2551
▁fienden	-10.2561
▁tillstädes	-10.2564
Har	-10.2566
▁leder	-10.2571
▁U	-10.2571
▁väduren	-10.2572
▁begrava	-10.2588
▁höger	-10.2598
▁rikt	-10.26
▁Na	-10.2601
▁skicka	-10.262
tjänar	-10.2626
▁fatta	-10.263
▁ät	-10.2635
▁Jojada	-10.2637
▁ensam	-10.2638
▁förakt	-10.2642
▁förtär	-10.2645
väg	-10.2648
▁flytt	-10.2651
ke	-10.2656
▁nå	-10.2662
▁lämnat	-10.2666
▁döm	-10.2673
▁blind	-10.2676
▁drive	-10.2677
▁stenen	-10.2685
skap	-10.2696
▁ort	-10.27
pen	-10.2717
▁sken	-10.2728
Här	-10.2732
R	-10.2732
▁uppenbara	-10.2733
Nu	-10.2733
▁gensträvig	-10.2738
stodo	-10.2744
▁klädnad	-10.2747
▁oxe	-10.2756
mått	-10.2777
▁tappra	-10.2785
▁barmhärtig	-10.2785
▁Johanan	-10.2786
▁Nebukadressar	-10.2786
▁efterkommande	-10.2786
▁förstfött	-10.2786
▁moderlivet	-10.2786
▁nalkas	-10.2786
▁visserligen	-10.2786
▁ägde	-10.2786
▁bedjen	-10.2786
▁frivillig	-10.2786
▁Kehat	-10.2786
▁befallde	-10.2786
▁förnämsta	-10.2787
▁hindra	-10.2787
▁kanhända	-10.2787
▁förmer	-10.2789
▁nionde	-10.2791
▁grepo	-10.28
▁baner	-10.2801
▁måltid	-10.2807
▁härifrån	-10.2809
▁förtröstar	-10.2812
▁Sådan	-10.2822
▁Ab	-10.2834
▁huden	-10.2834
rar	-10.2835
▁V	-10.2844
▁upptecknade	-10.2845
▁bordet	-10.2845
▁övergiva	-10.2864
▁sköldar	-10.2879
▁Sem	-10.2879
▁skörd	-10.2882
▁guldet	-10.2882
▁sår	-10.2883
▁förhärliga	-10.2887
▁ögonen	-10.2897
uk	-10.2899
▁rygg	-10.2931
nne	-10.2933
▁dyrbara	-10.2938
▁förkunnat	-10.2958
▁hopen	-10.2967
▁dagg	-10.2969
Be	-10.2973
▁räddat	-10.2983
M	-10.2987
▁ändar	-10.2988
▁Herres	-10.301
▁rika	-10.3011
▁köp	-10.3016
▁bjud	-10.3017
hålla	-10.3024
▁övertäck	-10.3036
▁träng	-10.3037
ägg	-10.3048
▁vålla	-10.3054
▁försmäkta	-10.3058
▁Ba	-10.3059
▁syndar	-10.3066
ighet	-10.3075
▁åttio	-10.3077
▁olyckan	-10.3077
▁dårar	-10.308
▁begrov	-10.3091
▁Gedalja	-10.3099
▁Rebecka	-10.3099
▁djävulen	-10.3099
▁fylla	-10.3099
▁gröda	-10.3099
▁motståndare	-10.3099
▁ditned	-10.3099
▁stridbara	-10.3099
▁släppt	-10.3099
▁Dag	-10.3099
▁fira	-10.3099
▁sorgdräkt	-10.3099
▁uppenbarelse	-10.3099
▁överstepräst	-10.3101
▁angår	-10.3101
▁lovligt	-10.3104
▁beslutit	-10.3109
uja	-10.3111
▁fästa	-10.3114
▁fränder	-10.3115
▁möta	-10.3126
▁botade	-10.3127
▁kläd	-10.3131
▁vedergälla	-10.3138
▁änglarna	-10.3141
▁stänk	-10.3153
▁tränga	-10.3153
▁knän	-10.3155
▁åkern	-10.3163
▁frälsta	-10.3169
▁Ack	-10.318
▁höj	-10.3199
▁straffas	-10.3206
▁oljan	-10.3207
▁månen	-10.3208
▁förkunnar	-10.3211
▁förgäta	-10.3217
stod	-10.3223
mon	-10.3228
▁begå	-10.3233
▁uträckt	-10.3243
▁Sonen	-10.325
ett	-10.3252
▁mätt	-10.3254
▁dyrbar	-10.3263
▁ringar	-10.329
▁Me	-10.3295
▁leviternas	-10.3319
▁strå	-10.3321
▁tjän	-10.3323
▁liknelse	-10.3325
▁tack	-10.3341
emot	-10.3352
▁hud	-10.3373
▁hemsökelse	-10.3377
▁Edoms	-10.3395
▁gräs	-10.3406
▁grenar	-10.3409
▁skriv	-10.3413
▁förtryck	-10.3418
▁döpa	-10.3421
▁längta	-10.3421
▁Ahasveros	-10.3421
▁Ytterligare	-10.3421
▁påskhögtid	-10.3421
▁svurit	-10.3421
▁tillbådo	-10.3421
▁tillsyningsmän	-10.3421
▁utväljer	-10.3421
▁västra	-10.3421
▁fullkomlig	-10.3421
▁stötesten	-10.3421
▁avkomma	-10.3421
▁darra	-10.3421
▁purpurrött	-10.3421
▁arter	-10.3422
▁avfällighet	-10.3422
▁Sidon	-10.3422
▁likaså	-10.3422
▁raka	-10.3422
▁ris	-10.3422
▁gap	-10.3422
▁beståndande	-10.3422
▁grop	-10.3423
▁Elias	-10.3423
▁österut	-10.3424
▁försynda	-10.3425
▁skepp	-10.3428
▁dåre	-10.3434
▁dyrka	-10.3436
▁däröver	-10.3438
▁förtälja	-10.3442
▁sörja	-10.3443
▁sjunga	-10.3449
▁dagarna	-10.3456
▁salt	-10.3459
▁överträd	-10.3463
▁tåg	-10.3466
▁borde	-10.3468
▁sjö	-10.3481
▁Ka	-10.3485
▁bock	-10.349
▁portarna	-10.3495
▁stigar	-10.3502
▁lösen	-10.3517
▁Baals	-10.3524
▁förstöra	-10.3527
▁välsignat	-10.3527
▁muns	-10.3528
▁skor	-10.353
▁bygg	-10.3554
▁högre	-10.3562
slut	-10.3575
▁Seba	-10.358
▁uttala	-10.358
lag	-10.359
▁Högste	-10.3605
▁kaldéerna	-10.361
▁Asaf	-10.3611
▁hel	-10.362
▁hölj	-10.3626
▁förhus	-10.3626
▁sabbater	-10.3627
▁korsfäst	-10.3636
▁vandrat	-10.3637
▁kort	-10.3653
▁sälja	-10.3654
▁ax	-10.3674
tre	-10.3675
▁lyd	-10.368
▁sed	-10.3681
▁broders	-10.3689
▁förvar	-10.3698
Drag	-10.37
kärl	-10.37
▁betala	-10.3701
▁förmana	-10.3711
ala	-10.3716
▁förskingra	-10.372
▁herdar	-10.3733
ans	-10.3735
Hören	-10.3741
rat	-10.3754
▁Ebjatar	-10.3755
▁Jefta	-10.3755
▁bekymmer	-10.3755
▁betyda	-10.3755
▁dödsklagan	-10.3755
▁göt	-10.3755
▁hungrig	-10.3755
▁samvete	-10.3755
▁ståthållare	-10.3755
▁yngre	-10.3755
▁Safan	-10.3755
▁vattna	-10.3755
▁Obed	-10.3755
▁tillstadde	-10.3755
▁befallt	-10.3755
▁insikt	-10.3755
▁utropa	-10.3755
▁dåraktig	-10.3756
▁berömmelse	-10.3757
▁orenlighet	-10.3758
▁sabbatsdagen	-10.3761
▁sångarna	-10.3763
▁dricker	-10.3764
▁bada	-10.3764
els	-10.3768
▁framgång	-10.3772
▁änkor	-10.3774
▁sträcka	-10.3774
▁skapade	-10.3781
▁redliga	-10.3789
▁torka	-10.3791
▁vård	-10.3811
▁förbida	-10.3812
▁förkastat	-10.3812
▁länderna	-10.3816
▁Saba	-10.3817
▁syner	-10.3851
▁hårt	-10.3851
▁Ti	-10.3859
par	-10.3863
▁norra	-10.3866
▁flytta	-10.388
jor	-10.3895
dom	-10.3897
▁riv	-10.3898
▁storm	-10.3904
▁Jona	-10.3907
▁ler	-10.3916
▁svarar	-10.393
▁sökt	-10.3934
▁jungfrur	-10.395
▁vanlig	-10.3957
syn	-10.3963
▁eviga	-10.3964
föll	-10.3969
satt	-10.3973
▁vita	-10.3999
sak	-10.4004
▁menar	-10.4004
opp	-10.4023
je	-10.4032
Gör	-10.4045
▁felfri	-10.4051
▁frimodig	-10.4052
landet	-10.4063
satte	-10.407
▁skona	-10.4081
▁skål	-10.4088
▁dörrar	-10.4094
▁änka	-10.4098
▁Lammet	-10.41
▁löv	-10.41
▁räddning	-10.41
▁tacksägelse	-10.41
▁öppet	-10.41
▁brud	-10.41
▁ömka	-10.41
▁åstunda	-10.41
▁locka	-10.41
▁förjaga	-10.41
▁dårskap	-10.41
▁----	-10.41
▁räkning	-10.41
▁tanke	-10.41
allel	-10.41
▁vaka	-10.4101
▁skaka	-10.4102
▁flyter	-10.4103
▁Hananja	-10.4104
▁stena	-10.4106
▁pant	-10.411
ick	-10.4112
▁Ditt	-10.4114
▁Att	-10.4118
▁tillsade	-10.4122
▁Rö	-10.4122
▁nio	-10.4136
▁begår	-10.4142
▁Skall	-10.4142
▁handlat	-10.4143
▁småboskapen	-10.4145
▁gjorda	-10.4151
▁gjuta	-10.4153
▁predikade	-10.416
▁gråta	-10.4161
▁förste	-10.4165
▁Ne	-10.417
▁utrotade	-10.4182
▁prisade	-10.4185
»?	-10.4195
▁tillhörde	-10.4202
ims	-10.4208
▁starkt	-10.4217
▁tjänar	-10.4237
▁handla	-10.4243
▁stöta	-10.4262
▁boken	-10.4266
▁ovan	-10.4271
▁benen	-10.4281
▁förlåt	-10.4302
▁mäktig	-10.4317
▁oro	-10.4329
går	-10.4345
▁sjukdom	-10.4366
▁skog	-10.437
▁Jesua	-10.4382
▁gjut	-10.4388
▁hednafolk	-10.4392
▁skrift	-10.4396
▁säll	-10.4402
djur	-10.4402
höll	-10.4402
▁röva	-10.4405
▁förstod	-10.4408
lopp	-10.4408
▁gärning	-10.4411
▁förvärva	-10.4412
▁häpna	-10.4416
▁anställ	-10.4429
▁vakna	-10.4429
▁vilddjur	-10.4437
▁häst	-10.4445
falt	-10.4445
▁tak	-10.4456
▁Barnabas	-10.4457
▁Tarsis	-10.4457
▁akacieträ	-10.4457
▁assyrisk	-10.4457
▁bespeja	-10.4457
▁elände	-10.4457
▁förblev	-10.4457
▁kryddor	-10.4457
▁lyckosam	-10.4457
▁gamle	-10.4457
▁plågor	-10.4457
▁Baesa	-10.4457
▁himmelriket	-10.4457
▁grönska	-10.4457
▁mängd	-10.4458
▁fördrag	-10.4458
▁drömmen	-10.4458
▁skrivelse	-10.4458
▁jebuséerna	-10.4458
▁Kades	-10.4459
▁faderlöse	-10.4459
anska	-10.4459
▁delaktig	-10.4461
▁växer	-10.4464
▁sekreteraren	-10.4465
▁äkta	-10.4467
▁intaga	-10.4468
▁förtäljde	-10.4469
▁föräldrar	-10.4471
▁förtorka	-10.4471
▁synes	-10.4473
▁överdrog	-10.4473
▁berättat	-10.4475
▁betänk	-10.4481
▁söken	-10.4484
▁fullbordan	-10.4488
▁Ussia	-10.4498
▁Lova	-10.4501
▁mäktiga	-10.4502
▁finger	-10.4506
▁består	-10.4514
▁jämra	-10.4521
▁köpt	-10.4534
män	-10.4537
▁personer	-10.4555
samt	-10.4558
▁flyga	-10.4561
▁Josias	-10.4602
▁profeterade	-10.4609
▁klädde	-10.4613
▁talrika	-10.4617
▁Sam	-10.4627
▁förströ	-10.4631
aga	-10.4637
▁känd	-10.4654
▁fisk	-10.4657
▁Ke	-10.4659
▁Josia	-10.4679
sätt	-10.4709
kam	-10.4731
▁förtörna	-10.4733
▁ti	-10.474
ret	-10.4742
▁besök	-10.4754
gick	-10.4758
Hadad	-10.4771
Kommen	-10.4773
▁tjänstgöring	-10.4776
▁fatt	-10.4777
▁folkslag	-10.4784
▁Åt	-10.4801
▁sy	-10.4804
▁behåll	-10.4806
▁gator	-10.4813
Frukta	-10.4822
▁källa	-10.4823
ög	-10.4825
ldrig	-10.4827
▁sol	-10.4827
▁Amalek	-10.4827
▁Amnon	-10.4827
▁hämna	-10.4827
▁kedjor	-10.4827
▁psaltare	-10.4827
▁upphöjt	-10.4827
▁ögonblick	-10.4827
▁Häls	-10.4827
▁upphöja	-10.4827
▁fyrfotadjur	-10.4827
▁anseende	-10.4827
▁framåt	-10.4827
▁pund	-10.4828
▁Sallum	-10.4828
▁naken	-10.4828
▁Samma	-10.4829
▁begynna	-10.483
▁förföljare	-10.4833
▁fångna	-10.4838
▁Väl	-10.4839
▁fläck	-10.484
lys	-10.4841
▁förtörnade	-10.4842
▁heta	-10.4842
▁dörrarna	-10.4845
▁härtill	-10.4849
▁behövde	-10.485
▁spar	-10.4853
▁skriver	-10.4857
▁andan	-10.4859
val	-10.4866
▁stått	-10.4868
▁bott	-10.487
▁väggen	-10.4875
▁befallningar	-10.4875
▁hemsökelsen	-10.4879
▁sakna	-10.4887
▁avdelningar	-10.4888
▁äten	-10.489
▁fängelset	-10.4912
▁Ahi	-10.4916
▁högtider	-10.4919
▁täckes	-10.4921
▁svår	-10.4937
▁onde	-10.4944
▁meddela	-10.4959
▁sucka	-10.4966
ställ	-10.4984
▁skuldoffer	-10.4986
▁van	-10.4993
▁räddar	-10.5005
ningar	-10.5008
▁svag	-10.5011
▁svaga	-10.5017
▁kära	-10.5028
▁kvarleva	-10.5054
kon	-10.5055
▁svart	-10.5057
▁löpa	-10.5071
▁bleve	-10.5093
lad	-10.5109
▁utstå	-10.5123
fi	-10.5125
vikit	-10.5143
▁sänd	-10.5144
▁bryt	-10.5149
▁vedergäll	-10.515
O	-10.5153
▁begärelse	-10.5153
▁Manasses	-10.5156
▁talen	-10.5158
ack	-10.5161
▁småboskap	-10.5161
▁palats	-10.5163
▁form	-10.5164
▁önska	-10.5176
▁strömma	-10.5178
▁anda	-10.5185
▁saken	-10.519
▁stridsmän	-10.521
▁Baruk	-10.5212
▁Bättre	-10.5212
▁Karmel	-10.5212
▁drucko	-10.5212
▁fördenskull	-10.5212
▁förmörka	-10.5212
▁hellre	-10.5212
▁lovsjunga	-10.5212
▁nådastolen	-10.5212
▁stormvind	-10.5212
▁vattnen	-10.5212
▁betjäna	-10.5212
▁legat	-10.5212
▁innersta	-10.5212
▁svärfader	-10.5212
▁syntes	-10.5212
▁försåt	-10.5212
▁förlita	-10.5212
▁Esra	-10.5212
▁Tamar	-10.5212
▁förvilla	-10.5212
▁tjugufyra	-10.5213
▁drömmar	-10.5213
▁västerut	-10.5213
▁egendom	-10.5213
Intet	-10.5214
▁budbärare	-10.5216
▁Elam	-10.5217
▁rening	-10.5221
▁ljuda	-10.5221
▁intogo	-10.5223
▁godhet	-10.5223
▁Adonia	-10.523
▁lärare	-10.5235
▁utkräva	-10.5235
▁bedriva	-10.5237
▁herdarna	-10.5237
▁njuta	-10.5243
▁hjältarna	-10.5244
▁filistéen	-10.5246
▁behagade	-10.5247
▁binda	-10.5249
▁följer	-10.5251
▁övergåvo	-10.526
▁visheten	-10.5265
▁penningarna	-10.5269
▁fullbordat	-10.5275
▁falskt	-10.5276
▁ansiktet	-10.5279
▁tyg	-10.53
lå	-10.5303
▁hjordar	-10.5326
▁hjorden	-10.5336
▁högtiden	-10.5337
▁befäst	-10.5342
nam	-10.5344
över	-10.5358
▁fördärvade	-10.5364
▁Ham	-10.5373
▁människas	-10.5375
son	-10.538
slöto	-10.5391
B	-10.5392
▁företag	-10.5411
▁ordspråk	-10.5414
visa	-10.542
▁begrav	-10.542
▁Al	-10.5425
lägga	-10.5426
▁förakta	-10.547
▁Asas	-10.5485
▁straff	-10.5507
träde	-10.5515
innes	-10.5515
▁ring	-10.5517
▁frisk	-10.5524
▁Ahia	-10.5524
▁Gån	-10.5535
▁frambär	-10.5544
▁avdelning	-10.5546
gent	-10.5547
kammare	-10.5557
lust	-10.5558
Eftersom	-10.5566
▁betyga	-10.5576
▁fjorton	-10.5585
▁uppståndelse	-10.5588
▁bedrövad	-10.5592
▁pil	-10.56
▁börda	-10.5602
▁fikonträd	-10.5603
▁aska	-10.5605
▁vrång	-10.5609
▁stöd	-10.561
▁Arnon	-10.5612
▁Mesullam	-10.5612
▁Nasaret	-10.5612
▁Nebat	-10.5612
▁Pinehas	-10.5612
▁Samarien	-10.5612
▁bälte	-10.5612
▁helgedomssik	-10.5612
▁hjälte	-10.5612
▁misskund	-10.5612
▁pelarna	-10.5612
▁äventyr	-10.5612
▁heder	-10.5612
▁skipa	-10.5612
▁betalning	-10.5612
▁förödelse	-10.5612
▁Nåd	-10.5612
▁spisoffret	-10.5612
▁tackoffret	-10.5612
▁hetta	-10.5612
▁kejsaren	-10.5613
▁hetiterna	-10.5613
▁hövitsmannen	-10.5613
▁stolta	-10.5613
▁Seraja	-10.5614
▁Boas	-10.5614
anför	-10.5614
▁svärja	-10.5615
▁Fördenskull	-10.5622
▁övergiv	-10.5624
▁dörr	-10.5624
▁uträcka	-10.5625
▁hårda	-10.5626
▁Förbannad	-10.5626
▁ståndaktighet	-10.5627
▁like	-10.5628
▁närmaste	-10.5628
▁pelare	-10.5629
▁församlingarna	-10.5629
▁torn	-10.5635
▁stående	-10.5639
▁underdåniga	-10.5646
▁uppfyllda	-10.5648
▁frälste	-10.5649
▁Upp	-10.5657
▁fåglarna	-10.5657
▁givna	-10.5661
▁väsendena	-10.5673
▁hövdingdöme	-10.5682
▁djuret	-10.5685
▁hednafolken	-10.5685
▁vagnen	-10.5696
urs	-10.5705
▁skogen	-10.5712
lät	-10.5718
▁hustrun	-10.5732
▁lustgård	-10.5735
▁hänga	-10.5738
▁överlämnade	-10.5754
▁uppfylldes	-10.5761
▁sal	-10.5762
få	-10.5791
▁våg	-10.5807
▁bävan	-10.5811
▁långa	-10.5812
▁fräls	-10.5854
▁svåra	-10.5858
▁tjänat	-10.5868
Sa	-10.5874
▁arma	-10.5879
▁klaga	-10.5884
▁arme	-10.5888
▁räknade	-10.5905
ins	-10.5911
▁ätas	-10.5912
Hör	-10.5923
▁uppfyllde	-10.5936
▁breda	-10.5937
▁oförnuft	-10.5941
▁stadens	-10.5945
▁härlig	-10.5953
▁gäll	-10.5955
vänt	-10.5957
färd	-10.5967
Frå	-10.5974
▁fördärvlig	-10.5975
▁Konung	-10.5976
▁sömn	-10.5977
▁förmå	-10.5977
▁bords	-10.5979
▁snö	-10.5982
▁uppväckt	-10.6003
▁israeliter	-10.6013
▁tjuv	-10.6019
▁räd	-10.6025
anhända	-10.6027
abb	-10.6028
ngalunda	-10.6028
▁Darejaves	-10.6028
▁Lakis	-10.6028
▁Serujas	-10.6028
▁Timoteus	-10.6028
▁drack	-10.6028
▁förgrymmelse	-10.6028
▁förgäves	-10.6028
▁försvinna	-10.6028
▁längs	-10.6028
▁söt	-10.6028
▁tecknet	-10.6028
▁tjugutvå	-10.6028
▁trångmål	-10.6028
▁upphäva	-10.6028
▁vandren	-10.6028
▁viftoffer	-10.6028
▁åkrar	-10.6028
▁örter	-10.6028
▁Joahas	-10.6028
▁Kores	-10.6028
▁tretton	-10.6028
▁sexton	-10.6028
▁feta	-10.6029
▁vilda	-10.6029
▁harpor	-10.6029
▁förmådde	-10.6029
▁Jabes	-10.6029
▁Jotam	-10.6029
▁höjde	-10.6029
▁vinner	-10.6029
▁rådslag	-10.6031
▁bojor	-10.6034
▁Abel	-10.6039
▁skändlighet	-10.6039
▁upphörde	-10.6041
▁timmen	-10.6043
▁fiskarna	-10.6044
▁Sera	-10.6053
▁himmelska	-10.6054
▁fjortonde	-10.6056
▁harpa	-10.6057
▁druvor	-10.6059
▁drivit	-10.6065
▁följt	-10.6065
▁hemfall	-10.6068
▁Vilk	-10.6072
▁Bort	-10.6072
makt	-10.6073
▁störtade	-10.6083
▁felfria	-10.6088
ock	-10.6093
▁Drag	-10.6098
▁aga	-10.6098
▁begära	-10.6106
▁Lika	-10.6114
lek	-10.6129
▁frälsar	-10.6129
sätta	-10.6131
▁ha	-10.6133
ull	-10.6145
▁avstånd	-10.6161
rade	-10.617
▁vårda	-10.6189
▁älskat	-10.6193
▁sov	-10.62
Herren	-10.622
▁Kom	-10.6222
▁vari	-10.6225
▁ikläd	-10.6226
▁förvara	-10.6227
▁Jojadas	-10.6238
▁älsk	-10.6261
▁fäll	-10.6272
▁Sebaots	-10.6278
éernas	-10.6279
▁Isaks	-10.6284
jär	-10.6288
▁Jojakim	-10.6313
▁beskär	-10.6318
▁tände	-10.6322
▁hemsökt	-10.6341
▁förtal	-10.6346
stånd	-10.6349
▁An	-10.6352
▁bete	-10.6357
▁bedraga	-10.6369
ikt	-10.6381
näst	-10.6385
jud	-10.6394
▁uppfylla	-10.6395
▁förtrösta	-10.6397
gjort	-10.6408
'?	-10.6409
▁hasta	-10.6409
▁Sen	-10.6411
▁begynnelse	-10.6437
bud	-10.6439
▁förskjut	-10.6447
▁gräshoppor	-10.6448
▁ungdoms	-10.646
▁fikon	-10.6463
▁Ekron	-10.6463
▁Gomorra	-10.6463
▁Maaseja	-10.6463
▁dörrvaktarna	-10.6463
▁egyptisk	-10.6463
▁flöda	-10.6463
▁osyrat	-10.6463
▁sammalunda	-10.6463
▁tolfte	-10.6463
▁utseende	-10.6463
▁värre	-10.6463
▁ämbete	-10.6463
▁öppning	-10.6463
▁Frälsare	-10.6463
▁förfärdiga	-10.6463
▁Hasael	-10.6463
▁kungjor	-10.6463
▁söderut	-10.6465
▁Kain	-10.6466
▁utgjutit	-10.6466
▁list	-10.6467
▁uppsikt	-10.6467
▁stänger	-10.6467
▁hörsamma	-10.6469
▁undfått	-10.6469
▁låd	-10.647
▁lin	-10.6471
▁bedrivit	-10.6471
▁fästen	-10.6471
▁kännen	-10.6472
▁grottan	-10.6473
▁Mång	-10.6474
▁taket	-10.6474
▁tyst	-10.6476
▁spetsen	-10.6476
eser	-10.6476
▁smörja	-10.6477
▁sanden	-10.648
▁övermäktiga	-10.6495
▁egyptiernas	-10.6497
▁bota	-10.6498
▁Hor	-10.6502
▁Vill	-10.6505
▁ormen	-10.6507
▁oför	-10.6507
▁stranden	-10.6508
▁brett	-10.6509
▁Given	-10.651
▁torra	-10.6511
▁når	-10.6515
ernas	-10.6521
▁tjänstgöringen	-10.6524
ban	-10.6524
▁uppväckte	-10.6532
▁därur	-10.6547
▁näpst	-10.6548
▁fördärvet	-10.6548
Semes	-10.6551
tligen	-10.6558
▁förvandlade	-10.6566
▁ägare	-10.6569
▁platser	-10.6574
▁väntade	-10.6575
▁ynglingar	-10.6584
▁trakt	-10.6592
▁bredde	-10.66
▁lärde	-10.6603
äll	-10.6603
▁gränser	-10.6606
▁ovän	-10.6613
▁sattes	-10.6622
▁församlat	-10.6623
▁kläderna	-10.6625
▁hjälper	-10.6627
▁So	-10.6631
▁korg	-10.6634
▁uppstår	-10.6639
▁kvarlevan	-10.6647
▁fälla	-10.6659
ahat	-10.6669
▁utfärda	-10.6682
▁straffa	-10.6683
▁store	-10.6686
▁dåren	-10.6688
▁und	-10.6704
▁larma	-10.6716
▁fångenskapen	-10.6726
taga	-10.673
▁tillräkna	-10.674
▁törst	-10.6753
▁försvara	-10.6765
▁bortförd	-10.6781
▁Has	-10.6786
▁förlossa	-10.6796
▁fresta	-10.6808
▁val	-10.6812
▁väv	-10.6818
▁All	-10.682
kast	-10.682
▁torr	-10.6823
▁dröj	-10.6842
▁livklädnad	-10.6845
▁sträng	-10.6845
▁sinnes	-10.6846
plats	-10.6862
Lova	-10.6863
Skall	-10.6864
Vilk	-10.6864
Oc	-10.6865
▁bäst	-10.687
▁himlar	-10.6879
nio	-10.6884
▁gräv	-10.689
▁grep	-10.6898
▁offerhöjder	-10.6903
▁säden	-10.691
▁ståndaktig	-10.6913
▁fostr	-10.6915
▁Makir	-10.6918
▁perisséerna	-10.6918
skaffen	-10.6918
▁Esaias	-10.6918
▁Macedonien	-10.6918
▁allraheligaste	-10.6918
▁antända	-10.6918
▁bakhåll	-10.6918
▁begrunda	-10.6918
▁blodskuld	-10.6918
▁hungra	-10.6918
▁näsa	-10.6918
▁sålunda	-10.6918
▁tjänarinnor	-10.6918
▁omkull	-10.6918
▁klagorop	-10.6918
▁log	-10.6918
▁Gasa	-10.6918
▁elva	-10.6918
▁miste	-10.6918
▁dold	-10.6918
▁Nabal	-10.6918
▁Susan	-10.6918
tvinna	-10.6918
▁silvret	-10.6918
▁Likaledes	-10.6918
▁bräder	-10.6918
▁Amos	-10.6918
▁rådslut	-10.692
▁Säll	-10.692
bryter	-10.6922
▁ersättning	-10.6922
▁Hela	-10.6927
▁glans	-10.6929
▁angripna	-10.693
▁föder	-10.6931
▁synagogan	-10.6932
▁vedergällning	-10.6934
▁ständigt	-10.6935
▁uppmana	-10.6935
▁gjutna	-10.6936
▁starkare	-10.6938
▁leviten	-10.694
▁omskurna	-10.6941
▁upphöra	-10.6942
▁anskaffa	-10.6943
▁Dess	-10.6944
▁Og	-10.6945
▁hängde	-10.6945
▁stadsporten	-10.6945
▁konungadömet	-10.6948
▁sjunka	-10.6948
gåva	-10.6949
▁kanten	-10.6954
▁godo	-10.6955
▁duvor	-10.6956
▁frihet	-10.6969
▁köpte	-10.6974
▁ull	-10.6976
▁förbannelser	-10.6983
▁begärelser	-10.699
▁väldige	-10.6991
▁änkan	-10.6992
skrift	-10.6996
▁grundvalar	-10.7002
▁lejonet	-10.7003
▁bjuda	-10.7005
kol	-10.7009
▁Amen	-10.7012
▁ändan	-10.7018
▁tillbad	-10.7025
▁kysst	-10.703
▁försyn	-10.7032
▁noga	-10.7036
▁Koras	-10.7048
▁bergsbygden	-10.7065
▁hat	-10.7068
▁dela	-10.7076
▁samlat	-10.7107
▁strö	-10.7118
▁konungslig	-10.7128
▁fäkreaturen	-10.7141
▁regna	-10.7143
▁hållas	-10.7143
mma	-10.7158
▁dödat	-10.7158
▁olik	-10.7163
▁åkallan	-10.7167
▁Ta	-10.7168
såg	-10.7173
▁fiskar	-10.7174
▁förgöras	-10.7193
▁smaka	-10.722
▁sköte	-10.7221
stängd	-10.7226
▁Ruben	-10.7247
▁Isai	-10.7247
isk	-10.7251
▁kvinnans	-10.7252
▁Gudens	-10.7254
▁bihustru	-10.7258
▁högtids	-10.7273
▁sköna	-10.7274
▁tjur	-10.7298
Hel	-10.7302
▁hären	-10.7309
▁hövdingdömen	-10.7311
▁behaga	-10.7314
folk	-10.7322
samme	-10.7323
▁framsida	-10.7326
▁Först	-10.7334
▁flod	-10.7334
offer	-10.7335
mannen	-10.7338
skilja	-10.7339
Amen	-10.7341
På	-10.7341
ärv	-10.7343
▁fågel	-10.7345
▁trött	-10.7345
▁bitter	-10.7349
▁lagar	-10.735
▁sky	-10.7351
▁löst	-10.7354
▁bon	-10.7356
▁närmast	-10.7374
▁följd	-10.7379
▁läst	-10.7382
▁keruber	-10.7383
mus	-10.7383
▁Ju	-10.7386
▁leviter	-10.7388
▁övr	-10.7392
▁teg	-10.7392
▁rämna	-10.7394
0	-10.7394
▁Gerson	-10.7394
▁Hiram	-10.7394
▁Isebel	-10.7394
▁Nabot	-10.7394
▁Persien	-10.7394
▁Serubbabel	-10.7394
▁apostel	-10.7394
▁arbets	-10.7394
▁frågen	-10.7394
▁förvirring	-10.7394
▁genomborra	-10.7394
▁kunglig	-10.7394
▁sammankomst	-10.7394
▁skilje	-10.7394
▁smort	-10.7394
▁spärra	-10.7394
▁vanära	-10.7394
▁vapendragare	-10.7394
▁vånda	-10.7394
▁yngste	-10.7394
▁ypperst	-10.7394
▁äldre	-10.7394
▁årsgammal	-10.7394
▁Akis	-10.7394
▁Elkana	-10.7394
▁Sisera	-10.7394
▁Timna	-10.7394
▁bommar	-10.7394
▁uppdrag	-10.7394
▁Itamar	-10.7394
▁skända	-10.7394
▁Amasa	-10.7394
▁vifta	-10.7394
▁underbara	-10.7394
▁rycke	-10.7394
▁amalekiterna	-10.7394
▁hån	-10.7394
▁fåfängliga	-10.7394
▁säck	-10.7395
▁ström	-10.7395
▁påskalammet	-10.7395
▁svor	-10.7396
▁övertäckte	-10.7396
▁spis	-10.7397
▁dånet	-10.7398
▁tungor	-10.7398
▁äran	-10.7398
bränt	-10.7398
▁Adam	-10.7398
▁nit	-10.7401
▁Kus	-10.7404
▁dödad	-10.7404
▁Eliab	-10.7406
▁framställde	-10.7408
▁Geba	-10.7409
▁Joel	-10.741
▁gravar	-10.7411
▁olivträd	-10.7413
▁lyster	-10.7415
▁gräset	-10.7416
▁starkhet	-10.7419
▁uppenbart	-10.7423
▁fånge	-10.7432
▁lidanden	-10.7433
▁skär	-10.7433
▁kammare	-10.7435
▁torrt	-10.7441
▁tiga	-10.7441
▁förstlingen	-10.7443
▁ödmjukade	-10.7443
▁föraktade	-10.7444
▁planterade	-10.7444
▁hövdingarna	-10.745
▁utförde	-10.7452
▁friska	-10.7453
▁Kommen	-10.7466
▁Giv	-10.7468
▁fattat	-10.7469
▁förbannar	-10.747
▁utfört	-10.7479
▁vissna	-10.7481
▁mäns	-10.7481
▁trädet	-10.7487
▁drycker	-10.7495
▁välbehagligt	-10.7499
sluter	-10.7501
givit	-10.751
▁Le	-10.7513
▁tronar	-10.7523
given	-10.753
▁förväg	-10.7543
▁Isais	-10.7546
▁gives	-10.7551
▁stunden	-10.7559
▁rättvisa	-10.7559
▁rådde	-10.7561
ennes	-10.7562
▁barm	-10.7589
▁höres	-10.7593
▁helst	-10.7603
▁törnen	-10.7608
▁röd	-10.7617
▁grunden	-10.7638
trätt	-10.7643
mak	-10.7653
▁Sal	-10.7657
▁sova	-10.7663
▁Do	-10.7669
▁lammen	-10.7672
▁besinna	-10.7679
▁husen	-10.7689
▁törne	-10.7689
▁synen	-10.7699
▁boskapen	-10.7702
driver	-10.7702
▁näst	-10.7703
▁give	-10.7704
▁hy	-10.7707
▁tänk	-10.7718
▁sprid	-10.7735
▁förskräcka	-10.7743
torka	-10.7752
▁klok	-10.7752
▁blive	-10.7756
löst	-10.776
▁bund	-10.7769
▁kyss	-10.7771
▁Ana	-10.7781
▁gudlös	-10.7787
▁doms	-10.7791
▁Libanons	-10.7794
▁skjut	-10.7799
▁brännas	-10.7801
offret	-10.7826
▁trygg	-10.7827
Upp	-10.7839
HERRE	-10.784
sex	-10.784
Edom	-10.784
▁förstling	-10.7842
▁strand	-10.7843
▁topp	-10.7845
▁stolpar	-10.785
';	-10.7859
▁aderton	-10.7866
▁familj	-10.7867
▁bägare	-10.787
▁skändlig	-10.7881
▁fariséer	-10.7883
▁vederkvick	-10.7893
▁hagel	-10.7894
▁bröllop	-10.7894
▁plundring	-10.7894
Rätt	-10.7894
▁Ahitofel	-10.7894
▁Nadab	-10.7894
▁Netanja	-10.7894
▁Nilfloden	-10.7894
▁Noomi	-10.7894
▁Obadja	-10.7894
▁Själv	-10.7894
▁drucken	-10.7894
▁druckit	-10.7894
▁druckna	-10.7894
▁elfte	-10.7894
▁fängsla	-10.7894
▁fönster	-10.7894
▁jämmer	-10.7894
▁nasir	-10.7894
▁plocka	-10.7894
▁stappla	-10.7894
▁surdeg	-10.7894
▁tidsålder	-10.7894
▁tillkommelse	-10.7894
▁vedermöda	-10.7894
▁äktenskapsbryt	-10.7894
▁håg	-10.7894
▁mutor	-10.7894
▁omsorg	-10.7894
▁vredgas	-10.7894
▁lagbok	-10.7894
▁härskri	-10.7894
▁hivéerna	-10.7894
▁ingenting	-10.7894
▁Ahikam	-10.7894
▁varelser	-10.7895
▁skapare	-10.7897
▁livsdagar	-10.7898
▁inälvorna	-10.7899
▁gatan	-10.7901
▁mål	-10.7901
▁sörjande	-10.7903
▁härbärge	-10.7904
▁Maaka	-10.7904
▁ostrafflighet	-10.7904
tänt	-10.7906
▁offerhöjderna	-10.791
▁ledare	-10.7911
▁gatorna	-10.7914
▁talrikt	-10.7921
▁andliga	-10.7923
▁förtröstan	-10.7923
Men	-10.7924
▁härmed	-10.7928
▁hjulen	-10.7931
▁märka	-10.7931
▁köttslig	-10.7933
▁levitisk	-10.7935
▁anställde	-10.7937
▁bunden	-10.7945
▁toppen	-10.7945
▁förskingrade	-10.7946
▁trakten	-10.7953
▁avbild	-10.7955
▁omgjordade	-10.7958
hål	-10.7963
▁härskarorna	-10.7969
ias	-10.7977
▁kämpar	-10.7985
▁följ	-10.7991
▁borgen	-10.7994
▁klädda	-10.7995
riva	-10.7996
▁rökelsen	-10.7998
▁ungar	-10.8001
▁bröden	-10.8002
▁bedrag	-10.8004
▁höre	-10.8019
▁brodern	-10.8023
▁hungersnöden	-10.8025
▁färde	-10.8026
larna	-10.8028
▁släkten	-10.803
▁villig	-10.8031
▁baka	-10.8036
▁kalvar	-10.8037
heter	-10.8041
▁ljungeldar	-10.8047
må	-10.8049
ster	-10.8051
▁bevisat	-10.8062
▁stycket	-10.808
göra	-10.8115
seglade	-10.812
▁Högstes	-10.8124
▁fäderna	-10.8153
▁befäste	-10.8167
▁Frukta	-10.8169
föra	-10.8179
▁yngling	-10.8212
▁bespotta	-10.8213
▁måtte	-10.8233
▁spetälsk	-10.8234
▁sl	-10.825
kommit	-10.825
▁föraktar	-10.8254
D	-10.8254
▁Kora	-10.8271
▁glädjen	-10.8275
illa	-10.8295
▁stänkt	-10.8331
visso	-10.8332
▁härskaror	-10.8341
▁skapa	-10.8346
▁döpt	-10.8349
▁orättfärdig	-10.8357
brett	-10.8365
Bort	-10.8365
tåg	-10.8365
Välan	-10.8366
Vänd	-10.8366
Med	-10.8366
▁tjänsten	-10.8372
▁våd	-10.8373
▁täckelse	-10.8375
▁invig	-10.8376
▁ko	-10.8379
▁smord	-10.8379
Av	-10.838
▁handfyllning	-10.8384
▁omgjorda	-10.8386
▁höljd	-10.839
▁fat	-10.8394
▁lyft	-10.8397
▁hedningarnas	-10.8408
▁bedrev	-10.8412
▁upptänd	-10.8413
▁Salig	-10.8417
▁ogärningsmän	-10.8419
▁hövitsman	-10.8419
evad	-10.842
▁välsigne	-10.842
saltaret	-10.842
▁Antiokia	-10.842
▁Asdod	-10.842
▁Asien	-10.842
▁Sammalunda	-10.842
▁Simri	-10.842
▁Suckot	-10.842
▁angrep	-10.842
▁befria	-10.842
▁cedrar	-10.842
▁förfäran	-10.842
▁jordbävning	-10.842
▁kruka	-10.842
▁lidit	-10.842
▁livsfrukt	-10.842
▁lugn	-10.842
▁omskära	-10.842
▁systrar	-10.842
▁tålamod	-10.842
▁utgöt	-10.842
▁förvissna	-10.842
▁hårdhet	-10.842
▁otrogna	-10.842
▁klagosång	-10.842
▁lampa	-10.842
▁trädgård	-10.842
▁benjaminit	-10.842
▁ostraffad	-10.842
▁Peres	-10.842
▁fyrfat	-10.842
▁kind	-10.842
▁landsmän	-10.842
▁smörjelse	-10.8421
▁lider	-10.8421
▁konst	-10.8421
▁halm	-10.8421
▁kraftgärningar	-10.8421
▁strömmen	-10.8421
▁emellan	-10.8422
▁kallad	-10.8422
Stann	-10.8422
▁släppe	-10.8422
▁förlåtelse	-10.8422
▁hundarna	-10.8422
▁norrut	-10.8423
▁Abisai	-10.8423
▁lur	-10.8423
éer	-10.8424
▁snaror	-10.8424
▁förrådshus	-10.8425
▁Hasor	-10.8425
▁upptagen	-10.8427
▁mötte	-10.8429
▁vänligt	-10.843
trot	-10.8431
▁skyarna	-10.8432
jon	-10.8433
▁förlåtet	-10.8433
▁Eden	-10.8433
▁fel	-10.8434
summa	-10.8436
▁stängerna	-10.8439
ryta	-10.8445
▁spela	-10.8446
▁hurudan	-10.8447
▁avskild	-10.8449
▁Haran	-10.8452
▁palatser	-10.8456
▁Följ	-10.8457
▁byggnad	-10.8458
▁uppväcka	-10.8458
▁rikligen	-10.846
▁gröna	-10.8461
▁palmer	-10.8463
▁Välsigna	-10.8464
▁personen	-10.8464
▁kungöra	-10.8467
▁fördrivna	-10.8467
▁angrip	-10.8477
▁hänt	-10.8479
▁kriget	-10.848
▁gladde	-10.8484
Hav	-10.8485
▁tillkommer	-10.8485
▁spår	-10.8487
▁familjerna	-10.8487
▁härja	-10.85
▁densamme	-10.8501
▁manteln	-10.8505
▁slagen	-10.8507
▁övar	-10.8508
▁planterat	-10.8511
▁skäl	-10.853
▁vittnar	-10.8531
▁förtryckare	-10.8534
▁räcka	-10.8535
▁Tre	-10.8537
▁Ur	-10.8537
▁slutat	-10.8547
▁terebint	-10.8548
▁löftet	-10.856
▁mening	-10.8568
▁Di	-10.8569
▁hästarna	-10.8573
▁hölja	-10.8576
▁inbärga	-10.8583
▁kal	-10.861
▁bytet	-10.8642
▁värd	-10.8673
▁sådde	-10.8676
▁blick	-10.8687
▁borgare	-10.8693
▁rygga	-10.8712
▁sinnen	-10.8715
Sänd	-10.8719
▁förlossare	-10.8749
▁tung	-10.875
▁avföll	-10.8766
▁kunskapen	-10.8768
▁efterfölj	-10.8768
▁kors	-10.8768
▁tänkt	-10.8779
min	-10.8812
städes	-10.8823
▁M	-10.8832
▁förståndiga	-10.8834
▁orenade	-10.885
▁förtrycka	-10.8856
▁halta	-10.8859
▁bestämd	-10.8871
▁dy	-10.8872
stid	-10.8874
▁flykt	-10.8877
▁överens	-10.8891
▁örn	-10.8898
G	-10.8916
▁väga	-10.8918
Till	-10.8922
bröd	-10.8922
Ingen	-10.8922
Dessa	-10.8922
▁skådade	-10.8923
▁brokig	-10.8926
▁bönhör	-10.8926
▁kungör	-10.8927
▁underdånig	-10.8927
▁betryck	-10.8927
▁uppkalla	-10.8934
▁sköka	-10.8942
▁panna	-10.8951
▁funne	-10.8951
▁dråpare	-10.8953
▁lärjunge	-10.8954
▁klipp	-10.8956
▁besitt	-10.8958
▁Dem	-10.897
▁trofast	-10.8973
tillrättavisning	-10.8976
▁Kegila	-10.8976
▁Libna	-10.8976
▁Tirsa	-10.8976
▁Tobia	-10.8976
▁beröva	-10.8976
▁bestämmer	-10.8976
▁fyllde	-10.8976
▁förhänge	-10.8976
▁hitupp	-10.8976
▁högheligt	-10.8976
▁infria	-10.8976
▁kräldjur	-10.8976
▁landshövdingen	-10.8976
▁majestät	-10.8976
▁möjligt	-10.8976
▁plöj	-10.8976
▁röj	-10.8976
▁sannfärdig	-10.8976
▁sonhustru	-10.8976
▁försagd	-10.8976
▁glatt	-10.8976
▁glöm	-10.8976
▁Hesron	-10.8976
▁Loven	-10.8976
▁hetiten	-10.8976
▁Nahor	-10.8976
▁bekänne	-10.8976
▁kiv	-10.8976
▁svärmoder	-10.8976
▁bröstskölden	-10.8976
▁fördriva	-10.8976
▁fina	-10.8976
▁korteligen	-10.8976
▁Manoa	-10.8976
▁utsänd	-10.8976
▁avkastning	-10.8976
▁svin	-10.8976
▁fullkomna	-10.8976
Jearim	-10.8976
▁moabiterna	-10.8977
▁fru	-10.8977
▁rötter	-10.8977
fat	-10.8977
▁högeligen	-10.8977
▁träldom	-10.8977
▁skarp	-10.8977
▁Frat	-10.8977
▁skrifterna	-10.8977
▁otrohet	-10.8978
▁koka	-10.8978
▁last	-10.898
▁Amon	-10.898
▁frimodighet	-10.898
▁Soba	-10.8982
▁doppa	-10.8983
▁tillbörligt	-10.8985
▁svaghet	-10.8986
▁bida	-10.8987
▁trots	-10.8988
▁Asael	-10.8988
▁Sif	-10.8988
▁gällande	-10.8988
▁skinn	-10.8989
▁fritt	-10.8989
▁begrovo	-10.899
▁Rimmon	-10.899
▁morgonrodnaden	-10.8991
▁skeppet	-10.8994
▁skott	-10.8995
▁Mikal	-10.8996
▁fettet	-10.8998
▁dubbelt	-10.9
▁skriade	-10.9001
▁tecknade	-10.9002
▁upphört	-10.9003
▁bedrövade	-10.9005
▁Hur	-10.9006
▁flyta	-10.9007
▁håret	-10.9008
varande	-10.9009
▁Omri	-10.9014
▁nätter	-10.9015
▁ugnen	-10.9019
▁Sarai	-10.9021
▁kunnigt	-10.9032
▁kunnig	-10.9035
▁skyn	-10.904
▁brand	-10.9046
▁mal	-10.9046
▁Sur	-10.9047
Dina	-10.9052
▁snar	-10.9054
▁rövare	-10.9058
▁förtärt	-10.9059
▁lyfta	-10.906
▁lagd	-10.9066
▁förkastade	-10.9074
▁förtärde	-10.9075
▁övergiven	-10.9078
▁sjung	-10.9082
▁stenarna	-10.9085
▁krossat	-10.9089
▁törsta	-10.909
▁förstån	-10.9093
▁stadgat	-10.9095
▁träffat	-10.9096
▁förtörnad	-10.9096
ljudet	-10.9111
▁kloka	-10.9119
▁våldsam	-10.9119
▁molnen	-10.9121
▁klagan	-10.9123
▁rådsherrar	-10.9134
▁bered	-10.9137
satta	-10.9139
▁Sua	-10.9139
▁Andr	-10.9144
▁liknelser	-10.9147
▁stråla	-10.9154
▁älskare	-10.9159
▁bind	-10.917
▁Jojakims	-10.9172
cka	-10.9189
▁inbjud	-10.919
▁nitälska	-10.9213
▁kärlen	-10.9213
▁bespottar	-10.9227
'?»	-10.923
▁Asafs	-10.9234
ordnade	-10.9262
▁åren	-10.9291
lem	-10.9299
don	-10.9305
one	-10.9322
▁aktat	-10.9341
gör	-10.9354
▁frälsningen	-10.9361
hållit	-10.9377
▁väktare	-10.939
▁Ner	-10.9403
▁kalv	-10.9415
▁täcke	-10.9419
▁äga	-10.9422
▁rost	-10.9433
bild	-10.9436
▁begynt	-10.9436
Sen	-10.9442
▁bevis	-10.9448
▁knä	-10.9459
gått	-10.9459
▁fördärvar	-10.9474
▁Het	-10.9475
▁blås	-10.9479
▁hövitsmän	-10.948
int	-10.9482
▁sörj	-10.9487
▁påbud	-10.9506
dräkt	-10.9507
▁Ela	-10.9507
kunnen	-10.951
fråga	-10.951
ron	-10.9517
▁bäck	-10.9519
kaka	-10.9521
▁uttydning	-10.9523
▁prydd	-10.9527
▁uppsluka	-10.9529
▁lögnaktig	-10.9537
▁skria	-10.9538
▁krigsfolk	-10.955
▁Rab	-10.9553
▁säge	-10.9558
▁ofruktsam	-10.9562
huggna	-10.9563
▁krigsmän	-10.9563
▁evangeli	-10.9563
▁gudsman	-10.9563
Bär	-10.9564
▁regering	-10.9564
ärtes	-10.9564
▁Barak	-10.9564
▁Cesarea	-10.9564
▁Eljasib	-10.9564
▁Etiopien	-10.9564
▁Hedmarken	-10.9564
▁Låglandet	-10.9564
▁avföda	-10.9564
▁exempel	-10.9564
▁förföljer	-10.9564
▁förlorat	-10.9564
▁gasell	-10.9564
▁hankön	-10.9564
▁inföding	-10.9564
▁krukmakar	-10.9564
▁långmodig	-10.9564
▁mästare	-10.9564
▁mönstrade	-10.9564
▁omskärelse	-10.9564
▁skonsamhet	-10.9564
▁skördetiden	-10.9564
▁tordön	-10.9564
▁tyckte	-10.9564
▁upphäve	-10.9564
▁uthärda	-10.9564
▁Bergsbygden	-10.9564
▁Horeb	-10.9564
▁knapp	-10.9564
▁landshövdingar	-10.9564
▁frambur	-10.9564
▁rytande	-10.9564
▁Likaså	-10.9564
▁böljor	-10.9564
▁orsak	-10.9564
▁Atalja	-10.9564
▁färdades	-10.9564
▁Ahimelek	-10.9564
▁närmare	-10.9564
krans	-10.9565
aljas	-10.9565
▁rusta	-10.9565
▁uppåt	-10.9565
▁förmaning	-10.9566
▁Heman	-10.9566
▁syndoffret	-10.9567
▁tillfalla	-10.9567
▁tillrett	-10.9567
▁uträtta	-10.9568
girig	-10.9568
▁tillreda	-10.9568
▁bestånd	-10.9569
▁Eder	-10.9569
▁vunnit	-10.9569
Sake	-10.9569
tiofem	-10.9569
läpp	-10.957
▁Elisama	-10.957
▁bras	-10.9572
▁mäktigare	-10.9573
▁Baalerna	-10.9574
▁Teman	-10.9576
▁skönhet	-10.9579
▁tig	-10.9579
▁Naaman	-10.9581
▁Vart	-10.9586
▁Skol	-10.9586
▁ångrar	-10.9587
▁undergång	-10.9589
▁falskhet	-10.9599
▁grannar	-10.96
▁getter	-10.9603
▁stäng	-10.9605
▁läsa	-10.9606
▁ljuvligt	-10.9606
▁tjänarna	-10.9608
▁upptaga	-10.9611
▁frälsare	-10.9612
▁tröstar	-10.9612
▁uttydningen	-10.9616
▁manskap	-10.9616
▁våder	-10.9618
▁flykten	-10.9619
▁bortför	-10.9619
▁oxen	-10.9625
▁beläte	-10.9627
fas	-10.9628
▁uppbygga	-10.963
▁förvärvat	-10.9639
arbete	-10.9639
▁frimodigt	-10.9641
▁lopp	-10.9657
▁höljde	-10.966
▁törstig	-10.9661
▁trolöst	-10.9664
inner	-10.9665
▁orten	-10.9667
▁greker	-10.968
kall	-10.9687
▁härligt	-10.9689
▁begärt	-10.9697
▁Er	-10.9705
▁höja	-10.9708
▁nödens	-10.9711
▁sjukdomar	-10.9718
▁vett	-10.9731
▁bihustrur	-10.9736
▁bevarade	-10.975
▁förståndet	-10.9753
gjorda	-10.9763
▁färdig	-10.9763
▁förtjäna	-10.9778
▁insatt	-10.9788
▁korsfästa	-10.9788
▁hornen	-10.9789
▁förståndige	-10.9789
▁Mer	-10.9796
▁stång	-10.9796
tiden	-10.9801
torn	-10.9805
▁larm	-10.9821
▁översta	-10.9822
▁vartill	-10.9827
Saliga	-10.9878
▁misshaga	-10.9899
▁vingården	-10.9901
▁portens	-10.9919
▁person	-10.9966
mur	-10.9978
▁Frukt	-10.9979
▁Hiskias	-10.9995
▁lyckas	-11
▁Red	-11.0001
▁skicklig	-11.0023
kläder	-11.0024
▁stann	-11.003
▁stadd	-11.0031
▁ingå	-11.0034
▁låna	-11.0053
▁ljuvlig	-11.0072
▁barnlös	-11.0076
▁häng	-11.0102
▁bran	-11.0111
sju	-11.0111
▁myck	-11.0132
stöt	-11.0134
▁omstörta	-11.0134
gingo	-11.0134
Skulle	-11.0135
hjälp	-11.0135
stund	-11.0135
Tala	-11.0135
stycke	-11.0136
sedan	-11.0136
drivit	-11.0136
▁grön	-11.014
▁återstod	-11.0141
▁avkomling	-11.0147
▁uppfylld	-11.0152
▁uppenbarad	-11.0155
▁granatäpplen	-11.016
▁apostlar	-11.0162
Far	-11.0168
▁stjärnor	-11.0173
▁lampor	-11.0174
▁etiopiern	-11.0177
drog	-11.0182
▁nåden	-11.0184
▁bäckar	-11.0186
▁förbannad	-11.0187
brot	-11.0189
▁purpur	-11.0189
▁förskräcke	-11.0189
▁frestelse	-11.0189
stift	-11.0189
▁Amarja	-11.0189
▁Efesus	-11.0189
▁Jefunne	-11.0189
▁Kapernaum	-11.0189
▁Nebusa	-11.0189
▁Nineve	-11.0189
▁avgrunden	-11.0189
▁bekant	-11.0189
▁betrakta	-11.0189
▁bädd	-11.0189
▁flöde	-11.0189
▁förbrutit	-11.0189
▁förföljelse	-11.0189
▁förtrampa	-11.0189
▁insegel	-11.0189
▁jubelåret	-11.0189
▁lottkastning	-11.0189
▁lyte	-11.0189
▁nalkades	-11.0189
▁oförgänglig	-11.0189
▁rubeniterna	-11.0189
▁sikel	-11.0189
▁styggelig	-11.0189
▁tillförsikt	-11.0189
▁vuxit	-11.0189
▁värt	-11.0189
▁Åklagaren	-11.0189
▁öppen	-11.0189
▁Anatot	-11.0189
▁landsflykt	-11.0189
▁hitned	-11.0189
▁källor	-11.0189
▁besked	-11.0189
▁boskapsdjur	-11.0189
▁kakor	-11.0189
▁närvaro	-11.0189
▁stol	-11.0189
▁Hanok	-11.0189
▁rand	-11.0189
▁farbroder	-11.0189
▁sammansvärjning	-11.019
▁stum	-11.019
▁Mattanja	-11.019
▁uppehöll	-11.019
▁offren	-11.019
▁tempelsalen	-11.019
▁nätverk	-11.019
▁övrigt	-11.019
▁krigsmännen	-11.019
▁Siba	-11.0191
▁skölj	-11.0191
▁förhud	-11.0191
▁Akt	-11.0191
▁trälinna	-11.0192
▁huvudmannen	-11.0194
▁oomskuren	-11.0196
▁gömma	-11.0196
▁Ussiel	-11.0196
▁njurarna	-11.0198
Stig	-11.0199
▁vältra	-11.0201
▁Eber	-11.0202
▁undkomma	-11.0203
▁lamporna	-11.0204
▁styrk	-11.0204
▁ouppsåtligen	-11.0204
▁utlämna	-11.0205
▁bat	-11.0207
▁spänna	-11.0207
▁lydnad	-11.0209
erskor	-11.0209
▁trängta	-11.021
▁korset	-11.021
▁utgjuten	-11.0211
▁stjäla	-11.0213
▁lögnen	-11.0213
▁brinna	-11.0214
▁spjutet	-11.0218
▁brevet	-11.0218
▁Vet	-11.0219
▁utgått	-11.0221
▁uppståndelsen	-11.0227
▁förfärade	-11.0228
▁sover	-11.0228
▁störste	-11.0229
▁regnet	-11.0233
▁hovmän	-11.0235
▁fruktansvärda	-11.0235
▁Malkia	-11.0235
▁begäran	-11.0237
▁blåsa	-11.0241
▁dogo	-11.0244
▁smädade	-11.0249
▁fångarna	-11.0251
▁offret	-11.0259
▁försmäktar	-11.0261
▁betryckta	-11.0271
▁boningar	-11.0271
▁vacklar	-11.0275
ämne	-11.0285
▁murarna	-11.0292
▁Kvinn	-11.0294
▁vall	-11.0296
▁häpnade	-11.0296
▁klädnaden	-11.0298
▁stänga	-11.0301
▁renas	-11.0303
▁folkslagen	-11.0304
▁drottningen	-11.0305
▁väntar	-11.0307
▁verket	-11.031
▁avgudarna	-11.0311
▁hälsade	-11.0312
▁betesmarker	-11.0316
▁hjälpare	-11.0327
▁profetisk	-11.033
▁födda	-11.0344
▁främlingarna	-11.0367
▁avstå	-11.0375
gårdarna	-11.0381
▁förskräckas	-11.0382
erska	-11.039
lott	-11.0403
▁Su	-11.0404
▁makten	-11.0404
▁renade	-11.0411
▁orolig	-11.042
▁pu	-11.0421
▁uppehåll	-11.0429
▁guds	-11.044
▁flyr	-11.0447
▁Bo	-11.0482
▁våga	-11.0484
▁sök	-11.0492
▁försök	-11.0496
omma	-11.0497
▁upprätt	-11.0523
föllo	-11.0524
▁hän	-11.053
▁förstörd	-11.0532
salen	-11.0547
▁väktar	-11.0551
▁Hanna	-11.0558
gande	-11.06
▁sätten	-11.0602
▁hund	-11.0604
tam	-11.0634
färdas	-11.0655
sammans	-11.0658
unno	-11.0659
▁beskärm	-11.0662
▁spän	-11.0664
▁killing	-11.067
terna	-11.067
▁maten	-11.067
giver	-11.0691
▁smädar	-11.07
▁bistå	-11.071
ider	-11.0713
▁saktmod	-11.0722
falska	-11.0734
▁rinna	-11.0747
▁betryckt	-11.0753
▁förbarmar	-11.0762
▁offrar	-11.0767
▁Am	-11.077
▁härska	-11.0783
▁sist	-11.0787
▁delar	-11.079
▁möt	-11.079
▁skild	-11.0791
▁högst	-11.0797
bad	-11.0797
fyra	-11.0798
Välsigna	-11.08
▁ugn	-11.0804
HERRENS	-11.0806
▁fruktansvärd	-11.0807
▁konungadöme	-11.0812
▁frände	-11.0821
▁teckna	-11.0824
skjuta	-11.0825
▁överlämnad	-11.0825
▁timme	-11.0832
▁förstör	-11.0834
▁förbliv	-11.0836
▁avgud	-11.0844
▁ceder	-11.0847
▁trumpeter	-11.0847
▁ammonit	-11.0852
▁nittio	-11.0853
▁härhövitsman	-11.0854
▁natur	-11.0854
framt	-11.0855
Nego	-11.0856
▁Ahimaas	-11.0856
▁Ahitub	-11.0856
▁Bilha	-11.0856
▁Eljakim	-11.0856
▁Hasabja	-11.0856
▁Jedutun	-11.0856
▁Jonadab	-11.0856
▁Mirjam	-11.0856
▁Oljeberget	-11.0856
▁Sanherib	-11.0856
▁Siklag	-11.0856
▁befann	-11.0856
▁bågar	-11.0856
▁cymbaler	-11.0856
▁enträget	-11.0856
▁fyrkant	-11.0856
▁förbjöd	-11.0856
▁förbrände	-11.0856
▁fördolt	-11.0856
▁förebrå	-11.0856
▁förlossning	-11.0856
▁gestalt	-11.0856
▁gudsfruktan	-11.0856
▁nämner	-11.0856
▁rannsakning	-11.0856
▁sammansvur	-11.0856
▁smycken	-11.0856
▁snabba	-11.0856
▁sträcke	-11.0856
▁tillbedjen	-11.0856
▁trolova	-11.0856
▁trävirke	-11.0856
▁uppegga	-11.0856
▁upphängd	-11.0856
▁vallfartssång	-11.0856
▁återhållsamhet	-11.0856
▁endräktigt	-11.0856
▁fingrar	-11.0856
▁gissla	-11.0856
▁myrra	-11.0856
▁skattkamrar	-11.0856
▁svans	-11.0856
▁tvärstänger	-11.0856
▁trettiotvå	-11.0856
▁sjutton	-11.0856
▁Gosen	-11.0856
▁ädlingar	-11.0856
▁danat	-11.0856
▁Aroer	-11.0856
▁kransar	-11.0856
▁romersk	-11.0856
▁oförtänkt	-11.0856
▁vävnad	-11.0856
▁Hosea	-11.0856
▁telning	-11.0856
▁medbröder	-11.0856
▁late	-11.0856
▁barnbarn	-11.0856
▁landsbygden	-11.0856
▁vass	-11.0856
▁Medien	-11.0856
▁rida	-11.0856
▁huggorm	-11.0856
▁brudgummen	-11.0856
klätt	-11.0856
▁Rabba	-11.0856
▁Mesak	-11.0856
▁Elifas	-11.0856
▁åkerstycke	-11.0857
▁Elieser	-11.0857
▁förgör	-11.0857
▁Bani	-11.0857
▁offerhöjden	-11.0857
▁lägerplats	-11.0857
▁spåmännen	-11.0857
▁tjugutre	-11.0858
▁ogärningsmännen	-11.0858
▁Geser	-11.0858
▁hugnad	-11.0858
▁döparen	-11.0858
▁lydiga	-11.0858
▁bestämma	-11.0859
▁troende	-11.0859
Peor	-11.0859
▁överflödande	-11.086
▁rafaéerna	-11.0861
▁havsländerna	-11.0861
▁fordra	-11.0864
▁avfälliga	-11.0864
▁synagogorna	-11.0865
▁smörjelseoljan	-11.0866
▁basunerna	-11.0869
▁mottagit	-11.0869
▁fikonträdet	-11.087
▁sålt	-11.0871
▁rest	-11.0872
▁rummet	-11.0873
▁gräto	-11.0875
▁smädelser	-11.0877
▁beror	-11.0877
▁provet	-11.0878
▁hebreiska	-11.0881
▁Mikael	-11.0883
▁synas	-11.0883
▁påminn	-11.0884
▁förvaltare	-11.0886
▁skrivna	-11.0886
▁Folket	-11.0888
▁betäcka	-11.0891
▁fördolda	-11.0891
▁blickar	-11.0894
▁dröjer	-11.0895
▁förmån	-11.0895
▁Saulus	-11.0896
▁fräcka	-11.0899
▁lyda	-11.09
▁läste	-11.0909
▁Abe	-11.091
▁styra	-11.0914
▁utgång	-11.0914
▁keruben	-11.0915
städer	-11.0915
▁gården	-11.0916
▁orättfärdiga	-11.0919
▁angripen	-11.0921
▁trogen	-11.0921
▁riklig	-11.0922
▁förlossat	-11.0923
▁publikaner	-11.0923
▁beredde	-11.0925
▁knorrade	-11.0926
▁tänken	-11.0926
▁Joa	-11.0927
▁förordnat	-11.0929
▁betryckte	-11.093
▁bävade	-11.0931
▁slutet	-11.0938
▁storhet	-11.0938
▁brus	-11.0941
▁upplåta	-11.0942
▁skära	-11.0943
▁fullbordade	-11.0962
▁stammarna	-11.0963
▁räddad	-11.0972
▁krigshövitsmän	-11.0978
tog	-11.0987
kri	-11.0987
▁veden	-11.0989
▁övat	-11.0998
▁sängen	-11.1003
▁Ut	-11.1016
▁basunen	-11.1023
▁skörden	-11.1024
▁följe	-11.1024
▁ordningen	-11.1028
▁förökade	-11.1035
▁gömme	-11.1039
▁Far	-11.1054
atiten	-11.1071
▁svik	-11.1072
▁utrotat	-11.1076
pi	-11.1077
Ve	-11.108
sdagar	-11.1091
▁uppfyllas	-11.1102
▁beskärma	-11.1115
▁domaren	-11.1117
▁orenat	-11.1118
▁nöden	-11.1137
▁jämn	-11.1165
▁övergav	-11.1167
▁Ki	-11.1173
▁hemsök	-11.1186
körde	-11.1192
▁ru	-11.1193
▁uppenbaras	-11.1201
▁häl	-11.1204
▁rota	-11.121
▁vällukt	-11.1229
▁krossas	-11.129
El	-11.1313
▁dans	-11.1324
▁Lo	-11.1332
▁ogudaktig	-11.1392
jungen	-11.1396
▁glädjas	-11.1399
▁uppenbar	-11.1404
▁styr	-11.141
bliv	-11.1423
▁bevisade	-11.1429
ägna	-11.1469
mmel	-11.1477
lyft	-11.1482
under	-11.1492
▁filisté	-11.1498
▁spå	-11.1499
▁väggar	-11.1501
syssla	-11.1514
tjänst	-11.1516
finnas	-11.1516
▁kläde	-11.1519
Vill	-11.1525
▁sjunk	-11.1528
Konungen	-11.1536
▁synderna	-11.1539
dalen	-11.154
é	-11.1542
▁kamel	-11.1544
skifta	-11.1547
rop	-11.1559
▁penning	-11.1559
▁spåmän	-11.1569
▁krön	-11.1569
▁fortf	-11.1569
▁östanvind	-11.157
Horon	-11.157
▁Efron	-11.157
▁Jerubbaal	-11.157
▁Netanel	-11.157
▁Sadrak	-11.157
▁behandla	-11.157
▁doft	-11.157
▁dödsskugga	-11.157
▁glänsa	-11.157
▁hädan	-11.157
▁klappa	-11.157
▁konstförfar	-11.157
▁luttra	-11.157
▁lystnad	-11.157
▁nämna	-11.157
▁tillrättavisa	-11.157
▁utrannsaka	-11.157
▁utsago	-11.157
▁vandring	-11.157
▁vinpress	-11.157
bruten	-11.157
flöt	-11.157
skifte	-11.157
▁Abigail	-11.157
▁Artasasta	-11.157
▁Eglon	-11.157
▁Festus	-11.157
▁Husai	-11.157
▁Josabad	-11.157
▁Rehob	-11.157
▁drista	-11.157
▁finnen	-11.157
▁fotapall	-11.157
▁fyllest	-11.157
▁fyllt	-11.157
▁fönstret	-11.157
▁förlidna	-11.157
▁förött	-11.157
▁hänryckning	-11.157
▁inrista	-11.157
▁midjaniterna	-11.157
▁oförfärad	-11.157
▁olycks	-11.157
▁omhängen	-11.157
▁pliktig	-11.157
▁skrymtare	-11.157
▁slockna	-11.157
▁späda	-11.157
▁strängaspel	-11.157
▁svavel	-11.157
▁tahasskinn	-11.157
▁tillkommande	-11.157
▁tillsagt	-11.157
▁töcken	-11.157
▁anbefall	-11.157
▁bäckenställen	-11.157
▁ledsaga	-11.157
▁gaditerna	-11.157
▁Jorden	-11.157
▁Ussa	-11.157
▁Peka	-11.157
▁brännoffersdjur	-11.157
▁nederlag	-11.157
▁tumm	-11.157
▁vräng	-11.157
vrigt	-11.157
▁fyrtiofem	-11.157
▁förändra	-11.157
▁underbart	-11.157
▁murpelare	-11.157
▁guldsmed	-11.157
▁avsked	-11.157
▁Amram	-11.157
▁använde	-11.157
▁slätten	-11.1571
▁Gersom	-11.1571
▁främja	-11.1571
▁bergfäste	-11.1571
▁redskap	-11.1571
▁bildstod	-11.1571
Skynd	-11.1571
▁flytning	-11.1571
▁lärdom	-11.1571
▁underrätta	-11.1571
▁kvistar	-11.1572
▁silverfat	-11.1573
▁fjärdedel	-11.1574
▁botad	-11.1574
▁hebréerna	-11.1576
▁mantlar	-11.1579
oniten	-11.158
▁dörrvaktare	-11.1581
▁draken	-11.1581
▁Rem	-11.1583
▁förlorade	-11.1583
▁Hasar	-11.1585
▁dräper	-11.1585
▁fogdar	-11.1585
▁salig	-11.1586
▁hjälpte	-11.1586
▁försona	-11.1586
▁krigsfolket	-11.1587
▁förbarmande	-11.1587
▁siaren	-11.1587
▁framtiden	-11.1588
▁Aseran	-11.1589
▁berättelsen	-11.1589
▁träta	-11.1589
▁Bela	-11.159
Rabbi	-11.159
▁faderlösa	-11.1591
▁dalar	-11.1591
▁Tel	-11.1592
▁budskapet	-11.1592
▁Jair	-11.1593
▁Bliv	-11.1593
▁ödelagda	-11.1594
▁rader	-11.1595
▁bördiga	-11.1598
▁fridens	-11.1602
▁skökor	-11.1602
▁skålar	-11.1607
▁Håll	-11.1609
▁redligt	-11.161
▁klokhet	-11.161
▁dricken	-11.1611
▁mörkt	-11.1612
▁förlossade	-11.1614
▁pryd	-11.1615
▁stängde	-11.1616
▁utgick	-11.1616
▁Skaff	-11.1618
▁färdigt	-11.1626
▁ljuvliga	-11.1627
▁välsignad	-11.1627
▁betog	-11.1629
▁tungt	-11.1629
▁klövar	-11.1632
▁himlarna	-11.1633
▁stolparna	-11.1633
▁skuggan	-11.1634
▁åsnan	-11.1634
▁ångrade	-11.1637
▁önskar	-11.1637
▁bittert	-11.1638
▁avstod	-11.1639
▁hållet	-11.1643
▁bestämde	-11.1644
▁trötta	-11.1645
skurna	-11.1646
vägen	-11.1646
▁trygga	-11.1661
▁sömnen	-11.1661
▁örnen	-11.1671
▁skilde	-11.1672
▁vållat	-11.1675
▁tomt	-11.1677
▁Hadad	-11.168
▁ormar	-11.1684
▁smädat	-11.1685
▁livklädnader	-11.169
▁arbeten	-11.1691
▁fågeln	-11.1691
▁bed	-11.1693
▁stormen	-11.1705
▁silverpenningar	-11.1708
▁res	-11.1709
▁drabbade	-11.1713
▁nedgjord	-11.1717
▁bosatta	-11.1723
▁drabbar	-11.1726
▁gode	-11.1728
▁vävd	-11.1731
▁hoppet	-11.1732
▁mättade	-11.1737
▁Uts	-11.1737
led	-11.1741
▁välbehagliga	-11.1747
delade	-11.1764
▁minsta	-11.1765
ställe	-11.1774
▁silverskål	-11.1785
vara	-11.1791
▁hopar	-11.1791
Tro	-11.1806
▁arbetat	-11.1807
▁otro	-11.1808
▁staven	-11.181
▁vägg	-11.181
▁fullgör	-11.1815
reas	-11.1816
▁försvar	-11.1825
▁vägarna	-11.1837
▁förvaras	-11.1841
▁fastade	-11.1841
▁stavar	-11.1863
▁kränkt	-11.1866
höjden	-11.1867
mätt	-11.1876
gjorde	-11.1885
utöver	-11.1885
▁syndade	-11.1887
▁gårdar	-11.1891
▁kast	-11.1916
ius	-11.1921
ogo	-11.1924
▁straffe	-11.1927
▁göre	-11.1928
▁sträckt	-11.1934
▁havs	-11.1947
▁röda	-11.1984
▁gripe	-11.1987
steg	-11.1992
▁skydd	-11.2032
▁suckan	-11.2051
▁gåve	-11.2052
bygger	-11.2056
▁gäst	-11.2057
▁löp	-11.2065
▁anse	-11.2069
▁handel	-11.2131
står	-11.2138
▁maktlös	-11.2138
▁orm	-11.2142
▁märk	-11.2149
▁undersök	-11.2194
▁föreståndare	-11.2204
▁underordn	-11.2216
▁innehåll	-11.2239
▁förhärja	-11.2246
▁måg	-11.2251
▁tvag	-11.2254
▁knorra	-11.2258
▁mörk	-11.2268
N	-11.2277
▁Pi	-11.228
▁hjul	-11.2282
▁övermäktig	-11.2283
sköt	-11.2284
byggnad	-11.2284
Vår	-11.2285
David	-11.2285
bringan	-11.2291
▁lägre	-11.2296
▁gosse	-11.2297
▁stormän	-11.2303
▁lyste	-11.2305
▁lejonen	-11.2306
ledning	-11.2308
▁förstocka	-11.2312
▁Öv	-11.2313
▁sysslor	-11.2324
rått	-11.233
▁blottad	-11.2332
▁skägg	-11.2332
farande	-11.2333
▁upplåt	-11.2334
▁bedriv	-11.2334
▁tär	-11.2339
▁trapp	-11.2339
▁ägo	-11.2339
▁Kär	-11.2339
▁Vatten	-11.2339
▁begagna	-11.2339
gemenskap	-11.2339
▁Abihu	-11.2339
▁Amminadab	-11.2339
▁Askelon	-11.2339
▁Jedaja	-11.2339
▁Josadak	-11.2339
▁Mahanaim	-11.2339
▁Rekab	-11.2339
▁Sefatja	-11.2339
▁Sök	-11.2339
▁arameisk	-11.2339
▁arvsbesittning	-11.2339
▁barnaföderska	-11.2339
▁begabba	-11.2339
▁bekänna	-11.2339
▁döljer	-11.2339
▁förgänglig	-11.2339
▁föröke	-11.2339
▁härstamma	-11.2339
▁höves	-11.2339
▁kehatiterna	-11.2339
▁konungatron	-11.2339
▁köpenskap	-11.2339
▁mellersta	-11.2339
▁midjanitisk	-11.2339
▁mista	-11.2339
▁människohänder	-11.2339
▁mätsnöre	-11.2339
▁oskära	-11.2339
▁paddor	-11.2339
▁planer	-11.2339
▁rankor	-11.2339
▁rannsaka	-11.2339
▁räkenskap	-11.2339
▁rådgivare	-11.2339
▁sidonierna	-11.2339
▁skådebröden	-11.2339
▁sprang	-11.2339
▁syndoffersbock	-11.2339
▁tjuguåtta	-11.2339
▁tvärt	-11.2339
▁vackra	-11.2339
▁vattenkällor	-11.2339
▁ynnest	-11.2339
▁ättföljd	-11.2339
▁öglor	-11.2339
▁Andreas	-11.2339
▁Ofir	-11.2339
▁allestädes	-11.2339
▁betrodd	-11.2339
▁domstol	-11.2339
▁feber	-11.2339
▁träldomshuset	-11.2339
▁töm	-11.2339
▁underhåll	-11.2339
▁yppa	-11.2339
▁Hermon	-11.2339
▁Jehiel	-11.2339
▁skrämm	-11.2339
▁Titus	-11.2339
▁dölja	-11.2339
▁medarbetare	-11.2339
▁offergåvor	-11.2339
▁signetring	-11.2339
▁tillbeder	-11.2339
▁fyrtiotvå	-11.2339
▁Debir	-11.2339
▁våningen	-11.2339
▁sanna	-11.2339
▁vaken	-11.2339
▁ränta	-11.2339
▁nordlandet	-11.2339
▁avfallit	-11.2339
▁arab	-11.2339
▁lerkärl	-11.234
▁ohörsamma	-11.234
Två	-11.234
▁hovman	-11.234
▁utsett	-11.234
▁springa	-11.234
▁smådjur	-11.234
▁Nebo	-11.234
▁ålderdom	-11.234
▁Aseror	-11.2341
▁ödelägga	-11.2341
▁Tera	-11.2341
muel	-11.2341
▁hovmannen	-11.2341
▁slunga	-11.2341
▁rund	-11.2341
▁tjänstgjorde	-11.2341
▁mildhet	-11.2341
▁fullgjort	-11.2341
▁stul	-11.2342
▁ödelagt	-11.2342
▁unna	-11.2342
▁släpa	-11.2342
▁tegel	-11.2343
▁arvinge	-11.2343
▁Rut	-11.2343
▁lastade	-11.2344
▁femtedel	-11.2344
▁förläna	-11.2344
▁hända	-11.2344
▁bördeman	-11.2344
▁befälet	-11.2344
▁Mefiboset	-11.2346
▁Hamor	-11.2348
▁israelitisk	-11.2353
▁föraktad	-11.2353
▁Jaeser	-11.2354
▁tavlorna	-11.2356
▁tycker	-11.2358
▁tröskeln	-11.2358
▁dömda	-11.2361
▁ansedd	-11.2361
▁skålarna	-11.2361
▁sänka	-11.2361
▁därunder	-11.2363
▁föröda	-11.2364
▁hörnsten	-11.2365
▁häftigt	-11.2366
▁förstockade	-11.2367
▁reser	-11.2368
▁oförståndiga	-11.2369
▁upphöjer	-11.2371
▁höghet	-11.2371
▁fåfängt	-11.2373
▁mottaga	-11.2376
▁uppehåller	-11.2378
▁dagligen	-11.2379
▁rad	-11.2379
▁pelarhuvuden	-11.2381
▁kamelerna	-11.2381
▁Sätt	-11.2382
▁renhet	-11.2383
▁fälten	-11.2383
▁uppbygg	-11.2384
▁lärjungen	-11.2384
▁företog	-11.2384
▁skökan	-11.2386
▁grävde	-11.2386
▁ringarna	-11.2386
▁Frid	-11.2386
▁vinträdet	-11.2387
▁helgad	-11.2389
▁skur	-11.2389
▁askan	-11.2389
▁rikedomar	-11.2395
▁strömmarna	-11.2396
▁leta	-11.2396
▁vaknade	-11.24
▁skonade	-11.2402
▁uppkallat	-11.2402
▁rasa	-11.2404
▁klagar	-11.2407
▁dammen	-11.2413
▁kaka	-11.2414
▁bönfall	-11.2423
▁lögnaktiga	-11.2423
▁stenade	-11.2433
▁tjock	-11.244
▁ödmjukar	-11.245
▁dyr	-11.2451
▁get	-11.2458
▁härskare	-11.2465
▁förrättade	-11.2466
▁skälv	-11.2467
▁behagar	-11.2483
▁verkar	-11.2501
▁vindar	-11.2502
▁predikat	-11.2521
▁båt	-11.2526
▁upprättade	-11.2529
skaran	-11.2542
▁allo	-11.2545
utgjuter	-11.2545
▁korgar	-11.2549
▁välsignar	-11.255
elst	-11.2551
▁drabbat	-11.2553
▁sändebuden	-11.2556
▁ödemarken	-11.2564
▁fog	-11.257
▁No	-11.2576
▁budet	-11.2581
▁Edr	-11.2589
▁fruktsam	-11.2595
▁Hass	-11.2603
▁profeterar	-11.2635
▁fång	-11.2649
▁djupa	-11.2664
!'	-11.2668
▁öronen	-11.2676
▁trohet	-11.2688
▁foten	-11.2696
krä	-11.2697
▁rättfärdigt	-11.2698
▁hämnden	-11.2703
▁uppbyggd	-11.2717
▁skänkt	-11.2719
▁fördärvat	-11.2728
lai	-11.2744
▁öppnat	-11.2746
▁styckena	-11.2748
▁bränn	-11.2752
staden	-11.2754
▁talrik	-11.2754
vor	-11.2776
▁luta	-11.2807
tiotvå	-11.2814
geln	-11.2826
▁hämt	-11.2841
akta	-11.2843
▁gudarna	-11.2866
▁Jäm	-11.2869
▁upplyfta	-11.2906
▁gjord	-11.2913
▁ljungeld	-11.2919
▁fördrev	-11.293
vil	-11.2962
fallet	-11.2966
▁Ge	-11.2982
▁arvslott	-11.2986
söka	-11.3004
▁kämpa	-11.302
sidan	-11.3028
▁växt	-11.3065
▁sido	-11.3071
▁läs	-11.3073
ringar	-11.3074
▁häri	-11.3078
▁förtälj	-11.3089
▁berätta	-11.3091
▁damm	-11.3093
▁Hos	-11.3111
U	-11.3116
Träd	-11.3116
Skaff	-11.3117
märke	-11.3118
Mitt	-11.3118
Baal	-11.3118
▁skyl	-11.3118
Israel	-11.3119
▁omringa	-11.3119
Följ	-11.312
▁förfärad	-11.312
Därför	-11.3121
▁fåkunnig	-11.3123
skepp	-11.3123
▁andlig	-11.3129
▁utgör	-11.3133
▁tillhåll	-11.3141
▁likadan	-11.3142
▁farisé	-11.3142
▁störst	-11.3143
▁sälj	-11.3144
▁kuva	-11.3145
▁uppror	-11.315
eligen	-11.3158
▁orättrådig	-11.317
▁dråp	-11.317
väsen	-11.3172
vkomlingar	-11.3172
▁Megiddo	-11.3172
▁cypress	-11.3172
▁elfenben	-11.3172
▁förgängelse	-11.3172
▁gruvlig	-11.3172
▁konstvävnad	-11.3172
▁munskänk	-11.3172
▁mörda	-11.3172
▁pansar	-11.3172
▁prästadöme	-11.3172
▁späk	-11.3172
▁undfly	-11.3172
▁utsäde	-11.3172
Hjälp	-11.3173
tecknen	-11.3173
▁Abinadab	-11.3173
▁Barsillai	-11.3173
▁Betania	-11.3173
▁Folken	-11.3173
▁Gehasi	-11.3173
▁Gehenna	-11.3173
▁Kidron	-11.3173
▁Maheli	-11.3173
▁Pashur	-11.3173
▁Rädd	-11.3173
▁Salmunna	-11.3173
▁Sebedeus	-11.3173
▁Simea	-11.3173
▁avsides	-11.3173
▁avskaffade	-11.3173
▁bedräglig	-11.3173
▁bohag	-11.3173
▁fettstyckena	-11.3173
▁frossa	-11.3173
▁fängelsegården	-11.3173
▁fördölja	-11.3173
▁förskräcklig	-11.3173
▁gossebarn	-11.3173
▁hedar	-11.3173
▁håvor	-11.3173
▁högheliga	-11.3173
▁instrumenter	-11.3173
▁jordagods	-11.3173
▁kulor	-11.3173
▁lyssnen	-11.3173
▁otillbörlig	-11.3173
▁safir	-11.3173
▁sannskyldig	-11.3173
▁släktregister	-11.3173
▁snärja	-11.3173
▁stentavlor	-11.3173
▁ståthållarna	-11.3173
▁sväng	-11.3173
▁sväva	-11.3173
▁säcktyg	-11.3173
▁tillstädja	-11.3173
▁uppbära	-11.3173
▁vilostad	-11.3173
▁våldsverkare	-11.3173
▁ymnig	-11.3173
▁döpelse	-11.3173
▁olje	-11.3173
▁ragla	-11.3173
▁släcka	-11.3173
▁vanvett	-11.3173
▁Iddo	-11.3173
▁umgängelse	-11.3173
▁Neko	-11.3173
▁sarga	-11.3173
▁Ornan	-11.3173
▁fager	-11.3173
▁Kedar	-11.3173
▁utvälja	-11.3173
▁fotsid	-11.3173
▁sammankalla	-11.3173
▁kula	-11.3173
▁skyndsam	-11.3173
▁huvudhår	-11.3173
▁trappsteg	-11.3173
▁Silas	-11.3173
▁trogna	-11.3173
▁tärnor	-11.3173
▁nord	-11.3173
▁Hadadeser	-11.3173
▁isop	-11.3173
▁Baana	-11.3173
▁uppträda	-11.3173
▁någonting	-11.3173
▁stamfurstar	-11.3173
▁vingårdsmännen	-11.3173
▁förnämste	-11.3173
▁tand	-11.3173
▁pukor	-11.3173
▁Javan	-11.3174
▁pärlor	-11.3174
▁hota	-11.3174
▁förstöring	-11.3174
▁härhövitsmannen	-11.3174
▁hakar	-11.3174
▁tillsluta	-11.3174
▁trettiosju	-11.3175
▁samtalade	-11.3175
▁ätter	-11.3175
▁tillredde	-11.3175
▁Lägg	-11.3175
▁synagoga	-11.3175
▁Dagon	-11.3176
▁Kedes	-11.3176
▁begynner	-11.3176
▁juble	-11.3176
▁förtryckte	-11.3176
▁befaller	-11.3177
▁nyttigt	-11.3178
▁Just	-11.3179
▁fastställd	-11.318
▁tillspillogivna	-11.3181
▁Tack	-11.3181
▁fruktsamma	-11.3182
▁hemligen	-11.3182
▁beblanda	-11.3183
▁Lasarus	-11.3185
▁leverne	-11.3186
▁därbredvid	-11.3189
▁gäck	-11.3189
▁djupare	-11.3191
▁tjuvar	-11.3192
▁Sex	-11.3192
▁Rom	-11.3195
▁sjönk	-11.3196
▁bundna	-11.3197
▁Mig	-11.3197
▁hemliga	-11.3198
▁omskuren	-11.3198
▁insåg	-11.3198
vida	-11.3201
▁prydnad	-11.3205
▁sångare	-11.3205
▁inställ	-11.3206
▁Dedan	-11.3207
▁dalarna	-11.321
▁sörjer	-11.3211
▁ersätt	-11.3216
▁Sikri	-11.3219
▁mäta	-11.3228
ddai	-11.3229
▁församlingar	-11.323
▁dop	-11.3233
▁saliga	-11.3234
▁oförnuftiga	-11.3234
▁vågar	-11.3239
▁understöd	-11.324
▁domarna	-11.3243
▁skyla	-11.3243
▁mättad	-11.3245
▁täckelset	-11.3245
▁bönhöra	-11.3249
▁kalven	-11.3249
▁betygar	-11.3249
▁invigning	-11.325
▁dräkt	-11.3254
▁lammet	-11.3256
▁utslag	-11.3258
▁dröja	-11.3266
▁snöre	-11.3268
▁friskt	-11.327
▁uppgång	-11.3272
▁Välan	-11.3272
▁föraktat	-11.3278
▁fången	-11.3279
bereder	-11.328
▁mäktigt	-11.3282
▁flyttade	-11.3285
▁blinde	-11.329
▁rådet	-11.3299
▁reda	-11.3305
▁kall	-11.3334
▁ostraffliga	-11.334
▁kraftig	-11.3342
▁Utan	-11.3346
▁värdet	-11.335
▁lån	-11.3353
▁samlad	-11.3354
▁förordna	-11.3356
▁förbannelsen	-11.3358
▁gagna	-11.3368
▁hörnen	-11.3382
▁fästet	-11.3386
▁Sägen	-11.3395
▁Sisa	-11.3402
▁Ned	-11.3432
▁ungt	-11.3445
▁beskydda	-11.3446
▁beså	-11.3453
▁bly	-11.3458
▁uttyda	-11.3472
▁gråten	-11.3478
▁reslig	-11.3494
▁Kal	-11.3547
▁dundra	-11.3559
tingen	-11.3567
▁blicka	-11.3578
▁strödd	-11.359
▁försmå	-11.3615
▁vinge	-11.362
▁väpnad	-11.3621
▁uppenbarar	-11.3633
▁vägra	-11.3657
▁jämna	-11.367
▁predikan	-11.3681
▁foga	-11.3699
▁himmelsk	-11.3708
stående	-11.3734
▁Hanan	-11.3754
▁stäm	-11.3798
driven	-11.3815
▁därovan	-11.3829
▁ondskan	-11.3838
▁skänk	-11.3846
▁spotta	-11.3858
kunniga	-11.3899
▁vaktar	-11.3902
▁sälje	-11.3903
▁Uri	-11.391
ligare	-11.3928
säga	-11.3928
▁drick	-11.394
▁redlig	-11.3946
▁föd	-11.3948
fattade	-11.3951
▁uppväck	-11.3959
▁ångra	-11.396
▁upphör	-11.3961
▁Ussi	-11.3963
lämna	-11.3975
▁motsvara	-11.3983
▁grå	-11.3989
gift	-11.3994
spill	-11.3996
▁egyptier	-11.4006
faller	-11.4015
▁fält	-11.4021
▁hål	-11.4022
vilja	-11.4026
Frid	-11.4026
P	-11.4026
skyn	-11.4026
klipp	-11.4026
form	-11.4029
▁fördold	-11.4033
▁ytterst	-11.4033
▁säker	-11.4033
▁stadsport	-11.4035
▁bespottare	-11.4036
▁hitin	-11.4037
Man	-11.4043
färgad	-11.4049
▁bokrulle	-11.4057
▁berättelse	-11.4057
▁tavlor	-11.4062
sträcka	-11.4069
▁välbehag	-11.4077
▁grym	-11.4078
trax	-11.4079
▁mild	-11.4079
▁from	-11.408
efod	-11.4081
▁frö	-11.4081
flicka	-11.4081
▁Paddan	-11.4082
Fräls	-11.4082
▁välbehåll	-11.4082
▁bestryk	-11.4082
▁erövra	-11.4082
▁fårhjord	-11.4082
▁huvudgärd	-11.4082
▁käpp	-11.4082
▁månadsrening	-11.4082
▁netofatite	-11.4082
▁präktig	-11.4082
▁vildåsn	-11.4082
▁väderstreck	-11.4082
Boset	-11.4082
kämpe	-11.4082
pipor	-11.4082
▁Abiram	-11.4082
▁Agrippa	-11.4082
▁Berekja	-11.4082
▁Dibon	-11.4082
▁Haggai	-11.4082
▁Iskariot	-11.4082
▁Jojakin	-11.4082
▁Lemek	-11.4082
▁Magdala	-11.4082
▁Mikmas	-11.4082
▁Milka	-11.4082
▁Rahab	-11.4082
▁Sakarias	-11.4082
▁Selofhad	-11.4082
▁Söderlandet	-11.4082
▁agnar	-11.4082
▁bedrifter	-11.4082
▁blodshämnaren	-11.4082
▁dagsresor	-11.4082
▁eldslågor	-11.4082
▁fotställning	-11.4082
▁frodig	-11.4082
▁förestå	-11.4082
▁förhärda	-11.4082
▁galenskap	-11.4082
▁grämelse	-11.4082
▁gudabild	-11.4082
▁helgelse	-11.4082
▁husbonden	-11.4082
▁hädelse	-11.4082
▁hätsk	-11.4082
▁idissla	-11.4082
▁jordkretsen	-11.4082
▁livsmedel	-11.4082
▁ljuga	-11.4082
▁ljunga	-11.4082
▁nämnda	-11.4082
▁olyckor	-11.4082
▁omöjligt	-11.4082
▁pluggar	-11.4082
▁pressa	-11.4082
▁skilt	-11.4082
▁skorpion	-11.4082
▁stryk	-11.4082
▁suttit	-11.4082
▁säte	-11.4082
▁tapper	-11.4082
▁tistel	-11.4082
▁tvinga	-11.4082
▁uppriktig	-11.4082
▁varnagel	-11.4082
▁viljes	-11.4082
▁värm	-11.4082
gissel	-11.4082
▁Tomas	-11.4082
▁blomstra	-11.4082
▁däromkring	-11.4082
▁förströdda	-11.4082
▁grytan	-11.4082
▁skrud	-11.4082
▁stenhop	-11.4082
▁Hagar	-11.4082
▁stolthet	-11.4082
▁uppbränd	-11.4082
2	-11.4082
▁Paran	-11.4082
▁uppsåt	-11.4082
▁Ebed	-11.4082
▁Gog	-11.4082
▁snår	-11.4082
▁Heber	-11.4082
▁sjöngo	-11.4082
▁vattenbäckar	-11.4082
▁Marta	-11.4082
▁sticka	-11.4082
▁jämför	-11.4082
▁Elihu	-11.4082
▁avsomnade	-11.4082
▁homer	-11.4082
▁ohelig	-11.4082
▁usla	-11.4082
▁Resin	-11.4082
▁förförelse	-11.4082
▁schakaler	-11.4082
▁Beria	-11.4082
▁Jafet	-11.4082
▁aftontiden	-11.4082
▁straffdom	-11.4082
▁syrat	-11.4082
▁förblinda	-11.4083
▁människoson	-11.4083
▁bitterligen	-11.4083
▁föreläst	-11.4083
▁kallelse	-11.4083
▁gödd	-11.4083
▁avvända	-11.4083
▁stock	-11.4083
▁stamfader	-11.4083
▁beklädd	-11.4084
▁lans	-11.4084
▁behöves	-11.4084
▁glädjerop	-11.4084
▁tjugusju	-11.4085
▁Kenas	-11.4085
▁sommaren	-11.4085
▁medlare	-11.4086
▁armod	-11.4086
▁högmodiga	-11.4087
▁jordiska	-11.4087
▁arbetarna	-11.4088
▁tempelträlarna	-11.4089
Profetera	-11.4089
▁Reguel	-11.4089
▁Hinnoms	-11.409
Fall	-11.4091
▁kamrarna	-11.4091
▁Ord	-11.4091
▁reta	-11.4091
▁blyge	-11.4091
▁förstfödda	-11.4094
▁Berg	-11.4094
▁intagit	-11.4094
▁Lyssna	-11.4095
▁lögnare	-11.4096
hägnad	-11.4098
▁trumpeterna	-11.4102
▁Aserorna	-11.4103
fogade	-11.4103
▁mångahanda	-11.4104
▁kval	-11.4104
▁klenoder	-11.4105
▁utlovat	-11.4105
▁bokrullen	-11.4106
▁förstått	-11.4107
▁danad	-11.4108
▁åsninnan	-11.411
▁oförnuftig	-11.4112
▁förödda	-11.4112
leda	-11.4113
▁oliver	-11.4114
▁beslutet	-11.4114
▁färg	-11.4114
▁uppgift	-11.4115
▁häravdelningar	-11.4116
▁understödde	-11.4117
▁Hanani	-11.412
▁koret	-11.412
▁funnen	-11.4122
▁dråparen	-11.4122
▁bägaren	-11.4127
▁säkert	-11.4127
omliga	-11.4129
▁bäckenet	-11.4131
▁adertonde	-11.4133
▁uppslukade	-11.4136
▁blåst	-11.4139
▁modet	-11.4142
▁rättsinniga	-11.4142
▁förtröstade	-11.4143
▁bördan	-11.4143
▁källan	-11.4143
▁Träd	-11.4144
▁förstört	-11.4145
täckta	-11.4151
▁syssla	-11.4155
▁slita	-11.4157
▁basuner	-11.4158
▁utväg	-11.4158
▁omstörtade	-11.4164
▁vädurarna	-11.4165
▁brokiga	-11.4165
lons	-11.4166
▁värda	-11.4168
▁fullo	-11.417
▁pung	-11.4177
▁nästen	-11.418
▁bilder	-11.418
▁gåvorna	-11.4187
▁Hanun	-11.4188
▁profetian	-11.4194
▁ynglingen	-11.4195
▁mäktige	-11.4196
▁lustgården	-11.4202
▁nedtill	-11.4205
▁förtorkade	-11.421
▁fläcken	-11.4212
▁bågen	-11.4217
▁bävar	-11.422
▁anna	-11.4223
▁talet	-11.4225
▁faror	-11.4225
▁förmanar	-11.4229
▁värdigt	-11.4232
▁Harim	-11.4252
▁skick	-11.4257
▁axen	-11.4261
▁dårarna	-11.4262
▁halt	-11.428
▁dömen	-11.4288
▁återstå	-11.4301
Leve	-11.4304
▁oskyldige	-11.4304
▁frestade	-11.4311
▁föreståndar	-11.4319
▁grip	-11.4329
▁blottade	-11.4354
höjer	-11.4356
▁bocken	-11.436
▁anfall	-11.436
▁ogärning	-11.4365
▁lera	-11.4371
▁lie	-11.4383
▁bruk	-11.4395
lagda	-11.4413
▁Jämr	-11.4424
▁handlade	-11.4427
▁gäster	-11.4428
▁lem	-11.4498
▁otuktig	-11.4508
▁nymånader	-11.4512
▁brusa	-11.4519
Pil	-11.4533
veck	-11.4536
liten	-11.4538
▁förlossar	-11.4577
stiga	-11.4647
källa	-11.4662
▁kränk	-11.4676
trogen	-11.4693
▁hopfogad	-11.47
▁förhärligad	-11.4745
▁båtar	-11.4778
▁skar	-11.4783
strött	-11.4798
▁inträd	-11.4808
ehåll	-11.4818
▁neka	-11.4828
▁grek	-11.4884
Frukt	-11.4888
▁tjocka	-11.495
▁fyr	-11.4955
gudar	-11.4957
▁björn	-11.4973
▁profetia	-11.4982
agg	-11.4983
▁brunnar	-11.4987
drivna	-11.5009
Där	-11.5024
▁ryckt	-11.5025
Sätt	-11.5026
Håll	-11.5026
ikris	-11.5027
▁pelarhuvud	-11.5027
hövding	-11.5027
fulla	-11.5027
Fader	-11.5028
Sua	-11.5029
▁hedmark	-11.5029
▁tröskplats	-11.5029
Aram	-11.503
måltid	-11.5032
Hon	-11.5032
▁fåfäng	-11.5033
▁Adoni	-11.5033
▁brinn	-11.5033
▁dubbel	-11.5037
leva	-11.5038
▁häravdelning	-11.5044
▁bräde	-11.5046
▁siare	-11.5057
▁grotta	-11.5058
▁Lär	-11.5059
▁kva	-11.5059
▁tröskel	-11.5059
lika	-11.5059
▁verksam	-11.5063
▁brott	-11.5065
▁ruiner	-11.5067
▁tempelkamrar	-11.5067
▁njurar	-11.5067
god	-11.5068
▁stadig	-11.5069
▁jebusé	-11.5077
▁omkom	-11.508
▁brudgum	-11.5081
läglar	-11.5082
▁Gläd	-11.5082
▁Efrat	-11.5082
▁gileadit	-11.5082
▁tiotusen	-11.5082
Barnea	-11.5082
Beltesassar	-11.5082
▁Apollos	-11.5082
▁Barabbas	-11.5082
▁Himmelen	-11.5082
▁Immer	-11.5082
▁Jeroham	-11.5082
▁Jishar	-11.5082
▁Millo	-11.5082
▁Molok	-11.5082
▁Naheson	-11.5082
▁Ribla	-11.5082
▁Sanballat	-11.5082
▁Sealtiel	-11.5082
▁Sefanja	-11.5082
▁Sekanja	-11.5082
▁Selemja	-11.5082
▁Sippor	-11.5082
▁Slut	-11.5082
▁Vasti	-11.5082
▁anklagelse	-11.5082
▁ankomst	-11.5082
▁arbetspliktig	-11.5082
▁behov	-11.5082
▁bordsgäster	-11.5082
▁fjäll	-11.5082
▁folkhopen	-11.5082
▁foster	-11.5082
▁fröjderop	-11.5082
▁fädernesland	-11.5082
▁förbindelse	-11.5082
▁förskoning	-11.5082
▁förstfödslorätt	-11.5082
▁gudfruktig	-11.5082
▁haglet	-11.5082
▁honkön	-11.5082
▁häktor	-11.5082
▁höft	-11.5082
▁högljudd	-11.5082
▁illfundig	-11.5082
▁inbjöd	-11.5082
▁keretéerna	-11.5082
▁leverfettet	-11.5082
▁liljor	-11.5082
▁läkedom	-11.5082
▁mulåsnor	-11.5082
▁mygg	-11.5082
▁mönsterbild	-11.5082
▁oavlåtligen	-11.5082
▁ogräs	-11.5082
▁pannor	-11.5082
▁ridhästar	-11.5082
▁rymlig	-11.5082
▁rymma	-11.5082
▁rökelsealtaret	-11.5082
▁scharlakan	-11.5082
▁sidokamrar	-11.5082
▁skördemännen	-11.5082
▁stamfamilj	-11.5082
▁stjärna	-11.5082
▁sträva	-11.5082
▁syndofferstjur	-11.5082
▁säkra	-11.5082
▁sönderkrossa	-11.5082
▁tillfriskna	-11.5082
▁trolldom	-11.5082
▁turturduvor	-11.5082
▁upprörd	-11.5082
▁utforska	-11.5082
▁utslitna	-11.5082
▁utspän	-11.5082
▁vanartig	-11.5082
▁villebråd	-11.5082
▁yxa	-11.5082
hjälm	-11.5082
ögtidsförsamling	-11.5082
▁Akaja	-11.5082
▁Datan	-11.5082
▁Debora	-11.5082
▁Joppe	-11.5082
▁Mamre	-11.5082
▁Tabor	-11.5082
▁balsam	-11.5082
▁flöjt	-11.5082
▁kvarblivna	-11.5082
▁stillhet	-11.5082
▁sunda	-11.5082
▁Sorga	-11.5082
▁kansler	-11.5082
▁löftesoffer	-11.5082
▁tappa	-11.5082
▁vredesdomen	-11.5082
▁Betuel	-11.5082
▁efterskörd	-11.5082
▁fortsatte	-11.5082
▁egg	-11.5082
▁skökolön	-11.5082
▁mödrar	-11.5082
▁Ehud	-11.5082
▁vintern	-11.5082
▁rigla	-11.5082
▁trång	-11.5082
▁sönderslå	-11.5082
▁blomster	-11.5082
▁leven	-11.5082
▁kamp	-11.5082
▁mest	-11.5082
▁kust	-11.5082
▁förhatlig	-11.5082
▁nere	-11.5082
▁stycka	-11.5082
▁stridsman	-11.5082
▁strängeligen	-11.5082
▁bevaka	-11.5082
▁uppträdde	-11.5082
▁lyser	-11.5082
▁virke	-11.5082
dropp	-11.5082
▁förledde	-11.5082
▁förgångna	-11.5082
▁Både	-11.5082
slarm	-11.5082
▁veckor	-11.5082
▁sänkte	-11.5082
▁tillbett	-11.5082
▁utsaga	-11.5083
▁sadla	-11.5083
▁fattigdom	-11.5083
▁molnstod	-11.5083
▁klipporna	-11.5083
▁Ajalon	-11.5083
▁utåt	-11.5083
▁edoméerna	-11.5083
▁fåfängligt	-11.5083
▁lovoffer	-11.5084
görelse	-11.5084
stupa	-11.5084
Ställ	-11.5084
▁grymma	-11.5084
trogne	-11.5084
▁prat	-11.5085
▁Huram	-11.5085
▁mord	-11.5085
▁förmåga	-11.5085
▁femtiotvå	-11.5085
▁uppförde	-11.5085
▁Matti	-11.5085
▁Eser	-11.5086
▁skärp	-11.5086
▁övermodiga	-11.5087
▁maskar	-11.5087
▁försvunnit	-11.5088
▁rörelse	-11.5088
▁redlighet	-11.5088
▁lejoninna	-11.5088
▁upptändas	-11.5088
▁slät	-11.509
▁fortfara	-11.509
▁ansatte	-11.509
▁lejde	-11.5091
▁Kenan	-11.5092
▁dunder	-11.5093
▁skägget	-11.5093
▁Jeus	-11.5093
▁miss	-11.5094
▁förbittrade	-11.5095
▁itu	-11.5096
▁rista	-11.5096
▁hala	-11.5096
▁Eliel	-11.5098
▁egyptiern	-11.5098
▁återfå	-11.5098
▁plundrare	-11.5099
▁tillkalla	-11.5099
▁ödmjukhet	-11.51
▁återställ	-11.5101
▁iver	-11.5101
▁huvudman	-11.5102
▁säckar	-11.5102
rep	-11.5103
▁gemensamt	-11.5103
▁Vilket	-11.5103
▁Soar	-11.5103
▁Neria	-11.5103
▁skyar	-11.5105
▁senare	-11.5105
▁Församl	-11.5106
▁stödja	-11.5106
▁Eva	-11.5106
▁hårdnackade	-11.5106
▁torgen	-11.5107
▁grundat	-11.5108
▁gråtande	-11.5109
▁gripit	-11.5112
▁ging	-11.5112
▁dödliga	-11.5112
▁nätet	-11.5113
▁slet	-11.5113
▁Gerar	-11.5115
▁bräderna	-11.5116
lön	-11.5116
▁profetlärjungar	-11.5117
▁gräshopporna	-11.5117
▁behöven	-11.5119
▁krossad	-11.5119
▁fle	-11.5119
▁ljuv	-11.512
tagit	-11.5122
▁oryggligt	-11.5122
▁Aja	-11.5123
▁gördel	-11.5125
▁rovet	-11.5126
▁hoppade	-11.5126
hängivet	-11.5126
▁blommor	-11.5127
Melek	-11.5128
▁helighet	-11.5131
huggen	-11.5131
▁Nob	-11.5132
▁därnäst	-11.5134
▁hedmarken	-11.5134
▁tröskplatsen	-11.5134
▁kammaren	-11.5135
▁härav	-11.5137
▁pilarna	-11.5141
▁Kir	-11.5142
▁likadana	-11.5143
▁palatset	-11.5143
dugliga	-11.5144
liggande	-11.515
▁middagen	-11.5152
▁Hat	-11.5152
▁måtto	-11.5154
melek	-11.5159
▁utrotad	-11.516
▁oxarna	-11.5163
▁efterföljt	-11.5166
▁sönderriv	-11.517
leder	-11.517
▁föredöme	-11.517
▁gripen	-11.5171
▁trott	-11.5172
▁ledning	-11.5174
▁byarna	-11.5176
▁Meriba	-11.5179
▁skatterna	-11.5179
▁Hosa	-11.5181
▁järnet	-11.5183
▁vingårdarna	-11.5186
▁oförnuftige	-11.5191
▁slit	-11.5197
▁brister	-11.5202
▁förhärjare	-11.5206
▁förstörde	-11.5207
▁skyldige	-11.5213
▁döpte	-11.5223
▁undgå	-11.5247
▁stränga	-11.5248
▁upplåter	-11.525
▁tjurarna	-11.5257
▁sjuke	-11.5342
▁rensa	-11.5344
▁köpmän	-11.536
▁spänne	-11.5373
stämma	-11.54
värdighet	-11.5408
▁förelägg	-11.5423
Vakna	-11.5427
▁tukt	-11.5449
bärare	-11.5461
ruset	-11.5465
Svara	-11.5473
Vore	-11.5489
▁utbyte	-11.5497
▁bjälk	-11.5571
▁medborgare	-11.562
vaktaren	-11.5621
▁bekymra	-11.5627
▁nymånad	-11.5666
lvis	-11.5701
ovantill	-11.5703
elade	-11.5717
anja	-11.5748
▁Fördärv	-11.5765
Kall	-11.5767
▁uttyd	-11.5783
▁rättvis	-11.584
Dor	-11.5843
tåget	-11.5878
▁kosta	-11.5884
bal	-11.5933
▁ansätt	-11.5935
▁förgård	-11.5938
ståndet	-11.5939
▁förbränn	-11.5946
▁spira	-11.5956
▁näps	-11.5971
elagt	-11.5973
fristad	-11.5994
rött	-11.6023
komna	-11.6052
tänkt	-11.6054
▁kerub	-11.6064
blivit	-11.6102
▁Malki	-11.6109
bredvid	-11.6116
▁fräck	-11.6119
▁utkräv	-11.6123
▁känne	-11.6134
Folket	-11.6137
fågeln	-11.6137
fjärde	-11.6139
Johannes	-11.6139
våld	-11.6139
Alla	-11.6139
släkt	-11.6139
Jesus	-11.6139
▁ask	-11.6147
▁orygglig	-11.6147
▁ständig	-11.6148
dagar	-11.6149
▁bosätt	-11.6152
Kan	-11.6157
▁smädelse	-11.6157
▁åsninna	-11.6157
väckte	-11.616
stenar	-11.6163
▁sekreterare	-11.6165
▁hårdnacka	-11.6165
▁bero	-11.6166
▁förlorad	-11.6172
▁trösk	-11.618
▁synagogor	-11.6181
▁hebré	-11.6183
▁förnumm	-11.6184
öner	-11.6188
▁tjug	-11.6189
jäm	-11.6189
ugga	-11.6191
▁dörrpost	-11.6192
ilistéerna	-11.6192
ittida	-11.6192
▁hälsning	-11.6192
▁belägring	-11.6193
Hugg	-11.6193
Köp	-11.6193
störtning	-11.6193
▁Afek	-11.6193
▁Cefas	-11.6193
▁Hadareser	-11.6193
▁Mackeda	-11.6193
▁Smorde	-11.6193
▁Syrien	-11.6193
▁angeläg	-11.6193
▁flätverk	-11.6193
▁förbittring	-11.6193
▁glup	-11.6193
▁glädjebudskap	-11.6193
▁granatträd	-11.6193
▁hädar	-11.6193
▁häv	-11.6193
▁kedja	-11.6193
▁luft	-11.6193
▁malört	-11.6193
▁misstanke	-11.6193
▁mätstång	-11.6193
▁nämnt	-11.6193
▁smältugn	-11.6193
▁stridsvagnar	-11.6193
▁tvivl	-11.6193
▁utrusta	-11.6193
▁utsläcka	-11.6193
▁väss	-11.6193
▁ävla	-11.6193
brutna	-11.6193
▁Adullam	-11.6193
▁Ammihud	-11.6193
▁Ananias	-11.6193
▁Arpaksad	-11.6193
▁Astarte	-11.6193
▁Besalel	-11.6193
▁Eljoenai	-11.6193
▁Höjen	-11.6193
▁Jegiel	-11.6193
▁Jetro	-11.6193
▁Kaifas	-11.6193
▁Sackur	-11.6193
▁Tekoa	-11.6193
▁Tubal	-11.6193
▁andekraft	-11.6193
▁andevärlden	-11.6193
▁anstiftade	-11.6193
▁avskilt	-11.6193
▁begabberi	-11.6193
▁begrät	-11.6193
▁bittra	-11.6193
▁blodsförvant	-11.6193
▁brutet	-11.6193
▁cypressträ	-11.6193
▁drypa	-11.6193
▁fagra	-11.6193
▁forntiden	-11.6193
▁fädernestam	-11.6193
▁följeslagare	-11.6193
▁fönstren	-11.6193
▁förundran	-11.6193
▁hopsamla	-11.6193
▁inbyggarna	-11.6193
▁kopparaltaret	-11.6193
▁krigshär	-11.6193
▁liksidig	-11.6193
▁ljusstakarna	-11.6193
▁lykta	-11.6193
▁obetänksam	-11.6193
▁penningpung	-11.6193
▁persisk	-11.6193
▁rakt	-11.6193
▁rättstjänarna	-11.6193
▁skidan	-11.6193
▁skrymteri	-11.6193
▁slöja	-11.6193
▁smälte	-11.6193
▁sorgesång	-11.6193
▁spenabarn	-11.6193
▁spräcklig	-11.6193
▁utpost	-11.6193
▁vanmäktig	-11.6193
▁vinbärg	-11.6193
▁ädel	-11.6193
▁åtlöje	-11.6193
▁åtskillnad	-11.6193
▁övermorgon	-11.6193
▁överskyl	-11.6193
▁Sebadja	-11.6193
▁bekände	-11.6193
▁kviga	-11.6193
▁nakna	-11.6193
▁sidovägg	-11.6193
▁ödeläggelse	-11.6193
▁Mesek	-11.6193
▁fetma	-11.6193
▁förfång	-11.6193
▁kista	-11.6193
▁oaktat	-11.6193
▁sjuttiotvå	-11.6193
▁utlänning	-11.6193
dubbla	-11.6193
▁råka	-11.6193
▁skapelse	-11.6193
▁försorg	-11.6193
▁sjuttiofem	-11.6193
▁trettiofem	-11.6193
▁Gaal	-11.6193
▁föreskrifter	-11.6193
▁ombord	-11.6193
▁Elisabet	-11.6193
▁Hefer	-11.6193
▁klart	-11.6193
▁rådslå	-11.6193
▁besvärjare	-11.6193
▁intaget	-11.6193
▁Adaja	-11.6193
▁skorven	-11.6193
Glädjens	-11.6193
▁Nahas	-11.6193
▁därnere	-11.6193
▁girighet	-11.6193
▁konungamakt	-11.6193
▁trätor	-11.6193
▁Sebna	-11.6193
Drick	-11.6193
▁lovsjungen	-11.6193
Geber	-11.6193
▁byggningsmännen	-11.6193
▁händelse	-11.6193
▁pina	-11.6193
▁lösaktighet	-11.6194
▁Salmon	-11.6194
▁amma	-11.6194
ispa	-11.6194
▁kräv	-11.6194
▁jubelrop	-11.6194
▁buske	-11.6194
▁besinning	-11.6194
▁betäckte	-11.6194
▁axeln	-11.6194
▁husvill	-11.6194
▁lita	-11.6195
▁virka	-11.6195
▁efteråt	-11.6195
▁parti	-11.6195
▁skuldoffret	-11.6195
▁fotfolk	-11.6195
▁spejare	-11.6195
▁förgåtts	-11.6195
▁styrkte	-11.6196
▁allmänn	-11.6196
▁tull	-11.6196
▁ofruktsamma	-11.6196
▁hinder	-11.6196
▁orättrådighet	-11.6196
▁riktigt	-11.6197
▁efterföljare	-11.6197
▁tunn	-11.6197
▁stödje	-11.6197
▁Horma	-11.6197
▁torget	-11.6197
▁brödstycke	-11.6198
▁plåt	-11.6198
▁Jeter	-11.6198
▁bevilja	-11.6198
▁satraperna	-11.6199
▁Jobab	-11.6199
▁lövhyddohögtid	-11.62
▁överhovmästaren	-11.62
▁utgjutet	-11.62
▁amen	-11.62
▁vrånghet	-11.6201
▁misshandlade	-11.6201
▁spådomar	-11.6201
▁kärvar	-11.6201
▁förnummit	-11.6201
▁Nof	-11.6202
▁tröskar	-11.6202
▁altarna	-11.6202
▁ställning	-11.6203
▁norrifrån	-11.6204
▁Sobal	-11.6205
▁stek	-11.6208
▁tempelkamrarna	-11.6209
▁vederfares	-11.6211
▁huvudbindeln	-11.6212
▁rullen	-11.6212
▁sadducéerna	-11.6212
▁framställ	-11.6212
▁nymånadsdag	-11.6213
▁Dig	-11.6213
▁hitut	-11.6214
▁sysslorna	-11.6215
▁läror	-11.6221
▁bebo	-11.6222
▁ditut	-11.6227
▁Gera	-11.6227
▁skenet	-11.6228
▁siste	-11.6228
▁bedrevo	-11.6229
▁tornet	-11.6229
▁kuvade	-11.6231
▁lame	-11.6237
▁förlåtna	-11.6242
▁rådför	-11.6243
▁pannan	-11.6244
▁grenarna	-11.6249
▁Etan	-11.6249
▁gravarna	-11.6251
▁stormade	-11.6251
▁axlar	-11.6254
▁törnbusk	-11.6256
▁tålig	-11.6264
▁omringade	-11.6266
▁smaklig	-11.6272
▁fåkunniga	-11.6275
▁betäck	-11.6282
▁försmådd	-11.6299
Arba	-11.6316
▁tvagning	-11.6319
▁storma	-11.6322
▁vissla	-11.6333
▁Visa	-11.6337
▁kåpa	-11.6338
▁bane	-11.6346
▁fullhet	-11.6355
▁anförd	-11.6369
▁mottage	-11.6378
▁sko	-11.6387
▁åligganden	-11.6408
låg	-11.6419
löse	-11.6423
▁Salma	-11.6427
▁spiran	-11.6435
▁beslöt	-11.6449
▁arvslotter	-11.645
Kunn	-11.6475
▁kost	-11.6502
ffergärdsområdet	-11.6536
▁krok	-11.6574
▁plågare	-11.6589
▁dansa	-11.6602
▁Sol	-11.6616
hundar	-11.6628
▁skydda	-11.6663
▁planter	-11.6699
▁besinn	-11.6703
▁stortå	-11.6766
V	-11.6807
▁grus	-11.6821
▁fäst	-11.6894
räknad	-11.6897
löshet	-11.6914
▁slakt	-11.6943
▁syndig	-11.6974
skålar	-11.7012
▁mu	-11.7038
▁arbetare	-11.7043
sikte	-11.7082
▁so	-11.7084
▁beskärd	-11.7102
skuren	-11.7116
▁kniv	-11.715
▁stånga	-11.7179
edda	-11.7185
▁betesmark	-11.7186
kommer	-11.719
▁grundval	-11.7208
tack	-11.7223
▁dräp	-11.7226
▁levit	-11.7248
▁väx	-11.7257
▁ödmjuk	-11.726
uld	-11.7303
skild	-11.7315
▁Fråg	-11.7323
▁druv	-11.733
▁rättsinnig	-11.7364
▁läka	-11.7382
Väl	-11.7384
blommor	-11.7386
straff	-11.7386
pelare	-11.7387
skickade	-11.7388
Människosonen	-11.7389
berget	-11.7389
blod	-11.7389
huvud	-11.7389
konungen	-11.7389
hjärta	-11.7389
Saul	-11.739
▁värld	-11.7391
▁sand	-11.7392
Då	-11.7393
▁oförståndig	-11.7393
▁hebreisk	-11.7393
▁stjäl	-11.7394
▁förnimm	-11.7394
▁bördig	-11.7395
Gad	-11.7395
▁häftig	-11.7398
meller	-11.7398
▁Naama	-11.7405
▁borgar	-11.741
▁klo	-11.7413
klädnad	-11.7421
hänt	-11.7424
▁kaldéer	-11.7427
▁lam	-11.7431
▁spådom	-11.7434
▁befäl	-11.7434
sinnig	-11.7438
▁aramé	-11.7439
▁tjänstekvinnor	-11.7439
▁timmermän	-11.7441
▁ful	-11.7442
▁Babylon	-11.7443
▁umgänge	-11.7443
▁Döm	-11.7443
▁förhindra	-11.7443
▁Älsk	-11.7443
Kornelius	-11.7443
Profeten	-11.7443
▁Jerameel	-11.7443
▁Nehemja	-11.7443
▁avbärga	-11.7443
▁bebygg	-11.7443
▁betydelse	-11.7443
▁flugsvärmar	-11.7443
▁förödmjuk	-11.7443
▁herradöme	-11.7443
▁inbördes	-11.7443
▁linneduk	-11.7443
▁märg	-11.7443
▁ogunst	-11.7443
▁skillnad	-11.7443
▁tröskvagn	-11.7443
▁vildmark	-11.7443
▁återbörda	-11.7443
▁öka	-11.7443
▁örsnibb	-11.7443
Tappua	-11.7443
fjädrar	-11.7443
▁Arauna	-11.7443
▁Asmavet	-11.7443
▁Belsassar	-11.7443
▁Betlehem	-11.7443
▁Cilicien	-11.7443
▁Cypern	-11.7443
▁Elifelet	-11.7443
▁Felix	-11.7443
▁Gilboa	-11.7443
▁Kadmiel	-11.7443
▁Karmi	-11.7443
▁Kemos	-11.7443
▁Maresa	-11.7443
▁Markus	-11.7443
▁Melkisedek	-11.7443
▁Misael	-11.7443
▁Sabdi	-11.7443
▁Salthavet	-11.7443
▁Serebja	-11.7443
▁Sibeon	-11.7443
▁Sunem	-11.7443
▁Svärd	-11.7443
▁Väktar	-11.7443
▁allmosor	-11.7443
▁användas	-11.7443
▁avsöndrade	-11.7443
▁axelstycken	-11.7443
▁befunno	-11.7443
▁bjällr	-11.7443
▁blygsel	-11.7443
▁boningsorter	-11.7443
▁eldsglöd	-11.7443
▁flög	-11.7443
▁folkmängden	-11.7443
▁förborgat	-11.7443
▁förfäras	-11.7443
▁förskyllt	-11.7443
▁försvinner	-11.7443
▁förutsagt	-11.7443
▁giller	-11.7443
▁gräsmaskar	-11.7443
▁hyllning	-11.7443
▁högtidsdräkter	-11.7443
▁inseglet	-11.7443
▁ismaelite	-11.7443
▁konungasonen	-11.7443
▁krankhet	-11.7443
▁krysolit	-11.7443
▁ljuger	-11.7443
▁lup	-11.7443
▁lårstycket	-11.7443
▁löje	-11.7443
▁midnattstiden	-11.7443
▁misshandling	-11.7443
▁nyktra	-11.7443
▁olycklig	-11.7443
▁oväder	-11.7443
▁prakt	-11.7443
▁påbjudit	-11.7443
▁raseri	-11.7443
▁sidolister	-11.7443
▁skiljebrev	-11.7443
▁skovlarna	-11.7443
▁skördeskri	-11.7443
▁smälta	-11.7443
▁sämre	-11.7443
▁trälinnor	-11.7443
▁tråd	-11.7443
▁trög	-11.7443
▁utspy	-11.7443
▁vaktkamrar	-11.7443
▁Öst	-11.7443
▁äldsta	-11.7443
▁Aksa	-11.7443
▁Edrei	-11.7443
▁Menahem	-11.7443
▁Musi	-11.7443
▁Ofra	-11.7443
▁därutanför	-11.7443
▁dövstum	-11.7443
▁gethår	-11.7443
▁infattning	-11.7443
▁profetissa	-11.7443
▁rovfåglar	-11.7443
▁slumra	-11.7443
▁störtskur	-11.7443
▁uppfostra	-11.7443
▁Agag	-11.7443
▁Rehum	-11.7443
▁Pisga	-11.7443
▁Soko	-11.7443
▁armband	-11.7443
▁foder	-11.7443
▁hjort	-11.7443
▁solstoder	-11.7443
▁väcka	-11.7443
huggare	-11.7443
▁Jakin	-11.7443
▁Vaken	-11.7443
▁kringspridda	-11.7443
▁löftesord	-11.7443
▁omvärv	-11.7443
▁rustning	-11.7443
▁barnsnöd	-11.7443
▁insamla	-11.7443
▁Sinear	-11.7443
▁idog	-11.7443
hållning	-11.7443
▁Ittai	-11.7443
▁skygd	-11.7443
Skriv	-11.7443
▁Rop	-11.7443
▁täcka	-11.7443
▁döper	-11.7443
▁troget	-11.7443
Driv	-11.7443
▁Asarel	-11.7443
Vattne	-11.7443
▁karm	-11.7443
▁Haggi	-11.7443
▁stamhövdingar	-11.7443
▁moabitiska	-11.7443
▁Jabin	-11.7443
▁Bosra	-11.7443
▁därute	-11.7443
▁tillslutit	-11.7443
▁Onan	-11.7443
▁Vilj	-11.7443
▁dräg	-11.7443
▁Abdon	-11.7444
▁Hak	-11.7444
▁grand	-11.7444
▁kräla	-11.7444
▁flik	-11.7444
▁Oholibama	-11.7444
▁dörrposterna	-11.7444
▁bördor	-11.7444
▁födelse	-11.7444
▁Mycke	-11.7444
▁Safat	-11.7444
▁Pedaja	-11.7444
▁Ackub	-11.7444
▁laggärningar	-11.7445
▁Jahat	-11.7445
▁Jahas	-11.7445
▁Ebal	-11.7445
▁Kebar	-11.7445
▁torde	-11.7446
▁ursäkt	-11.7446
▁avsikt	-11.7446
▁blek	-11.7446
▁ihjälrivet	-11.7447
uvor	-11.7447
▁lagkloke	-11.7447
▁fortsätt	-11.7447
▁hull	-11.7447
▁ovännen	-11.7447
▁Ariel	-11.7447
▁vänskap	-11.7447
▁lösningen	-11.7448
▁fostrat	-11.745
▁förgöres	-11.7451
▁minnet	-11.7451
▁uppskrivna	-11.7452
▁uthållig	-11.7453
▁hastigt	-11.7453
▁Bred	-11.7453
▁malm	-11.7454
▁tomhet	-11.7455
▁gera	-11.7455
▁åsninnorna	-11.7456
▁Asaja	-11.7456
▁Anak	-11.7458
▁sjufalt	-11.746
▁regnskur	-11.7461
▁Etam	-11.7462
▁ruinerna	-11.7462
▁bytt	-11.7462
▁Elon	-11.7463
gnist	-11.7463
▁Dal	-11.7464
▁försmäktande	-11.7464
▁Lus	-11.7466
▁hundrafalt	-11.7467
▁etiopier	-11.7468
▁gren	-11.7468
▁avog	-11.7469
▁larmet	-11.7471
▁vägnar	-11.7476
▁Sered	-11.7477
▁blomma	-11.7489
eliternas	-11.749
▁tyget	-11.7491
▁krigare	-11.75
▁läkare	-11.7505
▁Eb	-11.7538
▁Rik	-11.7567
▁tim	-11.7575
▁lovsäg	-11.7583
▁prövning	-11.7599
▁hängiv	-11.7629
kastade	-11.7654
Förstå	-11.7671
alm	-11.7677
▁Sofa	-11.7692
▁krokig	-11.7692
▁befatta	-11.7705
▁saktmodig	-11.7707
▁irra	-11.7722
jamin	-11.7738
▁spott	-11.7764
▁kullar	-11.7768
▁baksida	-11.7772
▁killingar	-11.7812
▁vunn	-11.7821
▁Ari	-11.7831
▁smak	-11.7849
nekade	-11.792
Fördärva	-11.795
föreståndaren	-11.7955
▁golv	-11.7966
rivit	-11.8013
▁saml	-11.8015
▁beredd	-11.8036
känd	-11.8057
ffa	-11.8122
▁förtärd	-11.8187
▁bjälkar	-11.8198
▁bruse	-11.822
minst	-11.8222
▁ovis	-11.8263
Slå	-11.8276
▁vederstygglig	-11.8307
▁utgjut	-11.836
kalv	-11.8454
▁Någ	-11.8501
▁behöv	-11.8558
▁flykting	-11.8587
kok	-11.8602
äderna	-11.8609
▁deltag	-11.8627
från	-11.8636
▁ädl	-11.8691
▁mät	-11.8724
▁tillspillogiv	-11.8726
▁klöv	-11.8743
▁middag	-11.877
▁förtröst	-11.8785
svärd	-11.8811
fader	-11.8815
prydnad	-11.8815
▁samarit	-11.8816
Förbannad	-11.8816
penningar	-11.8817
Ditt	-11.8817
Abraham	-11.8817
Juda	-11.8817
vattnet	-11.8817
och	-11.8818
havet	-11.8818
▁stör	-11.882
▁smörj	-11.8821
▁ödelagd	-11.8822
tredje	-11.8823
▁lytt	-11.8832
finnes	-11.8834
▁tycke	-11.8836
▁Tema	-11.8841
▁molnsky	-11.8841
▁ljusstake	-11.8843
▁inmönstra	-11.8843
▁huvudbindel	-11.8847
▁rulle	-11.8847
▁smörjelseolja	-11.8847
▁åsninnor	-11.8856
▁kamrar	-11.8856
▁inälvor	-11.8857
▁bedröv	-11.8862
▁försvunn	-11.8863
▁Abisa	-11.8863
släp	-11.8865
Präste	-11.8868
▁Mattan	-11.8869
uppehälle	-11.8871
▁fallgrop	-11.8871
▁Märk	-11.8871
▁bågskytt	-11.8871
▁dagakarl	-11.8871
▁översvinnlig	-11.8871
1	-11.8871
Hogla	-11.8871
Hämt	-11.8871
länges	-11.8871
polis	-11.8871
stlingsfrukter	-11.8871
österlänningarna	-11.8871
▁Akbor	-11.8871
▁Arjok	-11.8871
▁Aseka	-11.8871
▁Basemat	-11.8871
▁Beelsebul	-11.8871
▁Betsaida	-11.8871
▁Binnui	-11.8871
▁Bucki	-11.8871
▁Böj	-11.8871
▁Dödsriket	-11.8871
▁Eljest	-11.8871
▁Elnatan	-11.8871
▁Estaol	-11.8871
▁Flyn	-11.8871
▁Främling	-11.8871
▁Hedningarna	-11.8871
▁Jabbok	-11.8871
▁Jarmut	-11.8871
▁Jekonja	-11.8871
▁Jerimot	-11.8871
▁Jojarib	-11.8871
▁Jordanslätten	-11.8871
▁Laedan	-11.8871
▁Mahalalel	-11.8871
▁Malluk	-11.8871
▁Mispe	-11.8871
▁Otniel	-11.8871
▁Peleg	-11.8871
▁Penuel	-11.8871
▁Refaimsdalen	-11.8871
▁Silpa	-11.8871
▁Stefanus	-11.8871
▁Taanak	-11.8871
▁andebesvärjar	-11.8871
▁avgudadyrkare	-11.8871
▁bagaren	-11.8871
▁betunga	-11.8871
▁boskapshjordar	-11.8871
▁bränsle	-11.8871
▁bulnader	-11.8871
▁efraimit	-11.8871
▁fiendskap	-11.8871
▁förbrända	-11.8871
▁förföljt	-11.8871
▁galilé	-11.8871
▁gathörn	-11.8871
▁girgaséerna	-11.8871
▁hammare	-11.8871
▁hovmästare	-11.8871
▁hädisk	-11.8871
▁jaspis	-11.8871
▁jägare	-11.8871
▁kainéerna	-11.8871
▁kastskovel	-11.8871
▁kittéerna	-11.8871
▁klagomål	-11.8871
▁konstnär	-11.8871
▁konungasönerna	-11.8871
▁krubba	-11.8871
▁köld	-11.8871
▁köpebrev	-11.8871
▁larmsignal	-11.8871
▁levnadsår	-11.8871
▁lilja	-11.8871
▁ljöd	-11.8871
▁lösepenning	-11.8871
▁lövhyddor	-11.8871
▁modersskötet	-11.8871
▁mulåsna	-11.8871
▁murpelarna	-11.8871
▁nedböjd	-11.8871
▁nedtramp	-11.8871
▁nöj	-11.8871
▁oavlåtligt	-11.8871
▁offerhöjdspräst	-11.8871
▁okunnighet	-11.8871
▁ovärdig	-11.8871
▁peletéerna	-11.8871
▁pretoriet	-11.8871
▁påträffades	-11.8871
▁rakkniv	-11.8871
▁reskost	-11.8871
▁rådklok	-11.8871
▁råmärke	-11.8871
▁röse	-11.8871
▁sabbatsvila	-11.8871
▁skinande	-11.8871
▁skuggorna	-11.8871
▁skäppan	-11.8871
▁skåden	-11.8871
▁slagordning	-11.8871
▁smärta	-11.8871
▁strimmig	-11.8871
▁strupe	-11.8871
▁sädesfält	-11.8871
▁söndring	-11.8871
▁tandagnisslan	-11.8871
▁täckte	-11.8871
▁uppblåst	-11.8871
▁upphöjning	-11.8871
▁uppvigla	-11.8871
▁utblotta	-11.8871
▁utrymme	-11.8871
▁veckodagen	-11.8871
▁villfarelse	-11.8871
▁vredgades	-11.8871
▁översvämma	-11.8871
▁övlig	-11.8871
▁Ahinoam	-11.8871
▁Blev	-11.8871
▁Havila	-11.8871
▁Häst	-11.8871
▁Jebus	-11.8871
▁Väst	-11.8871
▁avlägse	-11.8871
▁bebodda	-11.8871
▁bestyr	-11.8871
▁böcker	-11.8871
▁gödsel	-11.8871
▁högtlovad	-11.8871
▁inhysesman	-11.8871
▁lönndom	-11.8871
▁magra	-11.8871
▁tillsyningsman	-11.8871
▁uppsyningsmän	-11.8871
syndoffersdjuret	-11.8871
▁Jeremot	-11.8871
▁Seboim	-11.8871
▁Stark	-11.8871
▁harpospel	-11.8871
▁mullen	-11.8871
▁älskog	-11.8871
▁Oreb	-11.8871
▁avsatser	-11.8871
▁kronor	-11.8871
▁nitton	-11.8871
▁utvidga	-11.8871
blåsar	-11.8871
▁Gesur	-11.8871
▁Sebanja	-11.8871
▁avvant	-11.8871
▁fromme	-11.8871
Bygg	-11.8871
▁slicka	-11.8871
▁vattenrik	-11.8871
▁avtvå	-11.8871
▁lekamlig	-11.8871
▁svalla	-11.8871
▁fastställt	-11.8871
▁husgudarna	-11.8871
▁stämpla	-11.8871
▁utkorade	-11.8871
▁Delaja	-11.8871
▁skrapa	-11.8871
isreel	-11.8871
▁dikta	-11.8871
▁famla	-11.8871
▁skingra	-11.8871
▁tyngre	-11.8871
▁Visheten	-11.8871
▁Merajot	-11.8871
Gråt	-11.8871
▁Akan	-11.8871
▁strövskar	-11.8871
▁altaroffret	-11.8871
▁Massa	-11.8871
▁gibeoniterna	-11.8871
▁Lais	-11.8872
▁gersoniterna	-11.8872
▁vitmena	-11.8872
vrida	-11.8872
▁stank	-11.8872
▁usel	-11.8872
▁spikar	-11.8872
attenai	-11.8872
▁murbruk	-11.8872
▁undandrag	-11.8872
uppim	-11.8872
nacken	-11.8872
▁Jahasiel	-11.8872
▁palmträd	-11.8872
▁förkorta	-11.8872
▁gräddmjölk	-11.8872
▁Tola	-11.8872
▁lydstäder	-11.8872
▁stinga	-11.8872
▁stall	-11.8872
▁uppstånden	-11.8872
▁linnekläderna	-11.8872
▁övertyga	-11.8872
▁koraiterna	-11.8872
▁uttömm	-11.8872
▁ovänskap	-11.8873
▁nedåt	-11.8873
▁inåt	-11.8873
▁Saron	-11.8873
▁uppbyggelse	-11.8873
▁kokt	-11.8873
▁fristäder	-11.8874
▁Rättfärdighet	-11.8874
▁väcke	-11.8874
▁kvarnsten	-11.8874
▁jordstycke	-11.8874
▁gnat	-11.8874
▁angripne	-11.8874
Gott	-11.8874
▁sålda	-11.8874
▁naturliga	-11.8874
▁Präster	-11.8874
▁femtiofyra	-11.8875
▁Asel	-11.8875
▁tillsluten	-11.8875
▁mänsklig	-11.8875
▁Jered	-11.8875
▁stumma	-11.8875
▁säkerhet	-11.8876
▁vårregn	-11.8876
▁udd	-11.8877
▁förgicks	-11.8877
▁förebild	-11.8877
▁partisk	-11.8877
▁stridsmännen	-11.8877
▁ovanifrån	-11.8877
▁högfärd	-11.8877
▁Helg	-11.8878
▁salva	-11.8878
▁hålor	-11.8879
▁Fast	-11.8879
▁namngivna	-11.8879
▁tappraste	-11.8879
▁ammoniterna	-11.888
▁Fem	-11.888
▁basunljudet	-11.888
▁samtal	-11.888
▁förfäder	-11.8881
▁Beerot	-11.8881
▁ringhet	-11.8882
Sebu	-11.8882
▁lättare	-11.8883
▁förtryckta	-11.8883
▁minnes	-11.8883
▁Maon	-11.8884
▁fruktträd	-11.8886
▁ulv	-11.8887
▁umgå	-11.8887
▁sluttning	-11.8891
▁Mara	-11.8902
▁skeppare	-11.8911
▁lada	-11.8911
Heres	-11.8913
▁emell	-11.8919
▁samaritisk	-11.8927
▁rusa	-11.8927
Lämn	-11.893
▁Soan	-11.893
▁språk	-11.8941
▁granatäpple	-11.8941
sång	-11.9003
▁förnämliga	-11.9044
▁Hamme	-11.906
▁bita	-11.9077
atiterna	-11.9081
▁linnekläde	-11.9082
ovanpå	-11.9147
olivplanteringar	-11.915
budet	-11.9165
▁flyktingar	-11.9168
knivar	-11.922
▁förödd	-11.9229
▁Tjänar	-11.9229
▁pröv	-11.9256
▁Någo	-11.9256
▁skal	-11.9291
▁verklig	-11.9336
▁Tal	-11.9347
givna	-11.9397
årig	-11.951
sopa	-11.952
▁synagog	-11.9529
▁skönast	-11.9586
▁åkall	-11.9616
▁gatite	-11.9645
▁påstå	-11.9684
ången	-11.9702
▁avmät	-11.9703
skicklighet	-11.9716
bjuda	-11.9828
▁förkläd	-11.9856
ordnat	-11.9924
födde	-11.9946
lutade	-11.9948
▁Vakn	-11.997
skänkte	-11.9976
skäres	-11.9992
brännes	-11.9996
▁inbärg	-12.001
▁lämn	-12.0038
träffar	-12.006
▁underkasta	-12.0086
▁kull	-12.0117
▁bräck	-12.0154
▁åliggande	-12.0217
▁jämr	-12.0225
assar	-12.0232
▁förtvina	-12.0237
Kvinna	-12.0248
funnits	-12.0274
▁beröm	-12.0284
▁uträck	-12.0291
ungar	-12.0303
kåpan	-12.0318
aktigt	-12.0324
▁förnäm	-12.0336
▁publikan	-12.0363
övitsmannen	-12.038
▁palm	-12.0396
▁grann	-12.043
kvarter	-12.0436
▁altar	-12.0438
Efter	-12.0446
Bryt	-12.0453
▁utsträck	-12.0457
▁blom	-12.0475
Församl	-12.0481
Bliv	-12.0482
lydnad	-12.0482
broder	-12.0483
törnen	-12.0483
skott	-12.0483
lidande	-12.0484
märkt	-12.0484
förråd	-12.0484
fruktade	-12.0484
pant	-12.0484
tecken	-12.0484
havande	-12.0484
Jerusalem	-12.0484
Skol	-12.0486
▁utlova	-12.0493
▁spets	-12.0494
▁skriftlärd	-12.0503
▁Eleasa	-12.0503
▁gata	-12.0515
nyo	-12.0519
▁vederf	-12.0522
▁havsländer	-12.0523
▁Asri	-12.0524
▁basunljud	-12.0529
▁mask	-12.053
smål	-12.053
▁föreskriv	-12.053
▁speja	-12.0534
▁Rättfärdig	-12.0535
▁mörkblå	-12.0535
▁edomé	-12.0535
▁Peda	-12.0536
▁drabant	-12.0536
▁Oholiba	-12.0536
▁åligg	-12.0536
▁ohörsam	-12.0536
▁vingårdsmän	-12.0537
▁Sebul	-12.0537
faldig	-12.0538
▁klago	-12.0538
▁avgudaoffer	-12.0538
▁helbrägda	-12.0538
▁svep	-12.0538
▁Hedmarks	-12.0538
▁avgudabeläte	-12.0538
▁förtvivla	-12.0538
▁gästvänlig	-12.0538
Förgäves	-12.0538
Gedi	-12.0538
Hosianna	-12.0538
Korsfäst	-12.0538
flutit	-12.0538
hjässan	-12.0538
hugget	-12.0538
kpela	-12.0538
planta	-12.0538
▁Abieser	-12.0538
▁Abihail	-12.0538
▁Akvila	-12.0538
▁Alexander	-12.0538
▁Ammisa	-12.0538
▁Arabien	-12.0538
▁Arpad	-12.0538
▁Astarot	-12.0538
▁Bigvai	-12.0538
▁Bild	-12.0538
▁Cyrene	-12.0538
▁Eljasaf	-12.0538
▁Filippi	-12.0538
▁Gibbeton	-12.0538
▁Gihon	-12.0538
▁Goljat	-12.0538
▁Hodia	-12.0538
▁Ikonium	-12.0538
▁Jediael	-12.0538
▁Jib	-12.0538
▁Jissia	-12.0538
▁Jisv	-12.0538
▁Joktan	-12.0538
▁Korint	-12.0538
▁Laodicea	-12.0538
▁Lystra	-12.0538
▁Majestät	-12.0538
▁Mattat	-12.0538
▁Metusela	-12.0538
▁Migdol	-12.0538
▁Nordlandet	-12.0538
▁Pareos	-12.0538
▁Predikaren	-12.0538
▁Rekem	-12.0538
▁Rådet	-12.0538
▁Selomit	-12.0538
▁Serug	-12.0538
▁Skapare	-12.0538
▁Talmai	-12.0538
▁Tapanhes	-12.0538
▁Tessalonika	-12.0538
▁Upphöj	-12.0538
▁assyrierna	-12.0538
▁avlägsna	-12.0538
▁befrynd	-12.0538
▁befälhavar	-12.0538
▁bekräftelse	-12.0538
▁belägringsmur	-12.0538
▁bemäktiga	-12.0538
▁blodsdåd	-12.0538
▁bölder	-12.0538
▁dariker	-12.0538
▁däruppe	-12.0538
▁ertappas	-12.0538
▁fejat	-12.0538
▁fjättra	-12.0538
▁fläkt	-12.0538
▁folkstammar	-12.0538
▁friköpt	-12.0538
▁fruktansvärt	-12.0538
▁frågor	-12.0538
▁förbjudit	-12.0538
▁förborgad	-12.0538
▁förkovra	-12.0538
▁förkrossad	-12.0538
▁förkunnelse	-12.0538
▁försvann	-12.0538
▁förtroende	-12.0538
▁förtrogna	-12.0538
▁förvirra	-12.0538
▁grushög	-12.0538
▁gryr	-12.0538
▁handsbredd	-12.0538
▁havsdjupet	-12.0538
▁hebroniterna	-12.0538
▁hulpen	-12.0538
▁hädat	-12.0538
▁häpen	-12.0538
▁hörntofs	-12.0538
▁hövisk	-12.0538
▁inympa	-12.0538
▁kasernen	-12.0538
▁knoppar	-12.0538
▁knorren	-12.0538
▁konungavälde	-12.0538
▁kopparfjättrar	-12.0538
▁kristall	-12.0538
▁livskraft	-12.0538
▁misslynt	-12.0538
▁människohand	-12.0538
▁mångfaldig	-12.0538
▁mönstring	-12.0538
▁nattväkt	-12.0538
▁näsring	-12.0538
▁nässlor	-12.0538
▁nöt	-12.0538
▁onyxstenar	-12.0538
▁oskicklig	-12.0538
▁oskuld	-12.0538
▁outrannsaklig	-12.0538
▁ryka	-12.0538
▁självdött	-12.0538
▁skymningen	-12.0538
▁smulor	-12.0538
▁spränga	-12.0538
▁stadsmuren	-12.0538
▁stengrund	-12.0538
▁stubbe	-12.0538
▁styresmän	-12.0538
▁sunnanvind	-12.0538
▁svämma	-12.0538
▁sänklod	-12.0538
▁tillförlitlig	-12.0538
▁tillredelsedag	-12.0538
▁tistlar	-12.0538
▁triumfera	-12.0538
▁tveegga	-12.0538
▁tvillingar	-12.0538
▁tålmodig	-12.0538
▁uppvakna	-12.0538
▁utrikes	-12.0538
▁vedermödor	-12.0538
▁vilosabbat	-12.0538
▁vädja	-12.0538
▁vädurskinn	-12.0538
▁åkerfält	-12.0538
▁ålägge	-12.0538
▁överskygg	-12.0538
Y	-12.0538
själisk	-12.0538
▁Abib	-12.0538
▁Gedor	-12.0538
▁Haserot	-12.0538
▁Simron	-12.0538
▁brädd	-12.0538
▁härutanför	-12.0538
▁kananeisk	-12.0538
▁knyt	-12.0538
▁legodräng	-12.0538
▁läcker	-12.0538
▁nyckel	-12.0538
▁ränsel	-12.0538
▁svett	-12.0538
▁tavla	-12.0538
6	-12.0538
▁Ofel	-12.0538
▁egendomsfolk	-12.0538
▁lekamen	-12.0538
▁skumma	-12.0538
▁Delila	-12.0538
▁Leviatan	-12.0538
▁brak	-12.0538
▁budordet	-12.0538
▁förunderliga	-12.0538
▁hjärte	-12.0538
▁tempelbolar	-12.0538
▁Doeg	-12.0538
▁förtröttas	-12.0538
▁Troas	-12.0538
▁blodgiriga	-12.0538
▁dygn	-12.0538
▁klagen	-12.0538
▁Absai	-12.0538
▁Ajo	-12.0538
▁koger	-12.0538
▁Bebai	-12.0538
▁Ammiel	-12.0538
▁Natanael	-12.0538
▁Pont	-12.0538
▁virvla	-12.0538
▁horéerna	-12.0538
skepnad	-12.0538
▁beställt	-12.0538
▁vitnat	-12.0538
Grip	-12.0538
▁lycklig	-12.0538
▁flotta	-12.0538
▁flit	-12.0538
▁läglarna	-12.0538
▁Gidd	-12.0538
▁nasaré	-12.0538
▁Gomer	-12.0538
Männen	-12.0538
▁profetsyner	-12.0538
▁utkante	-12.0538
▁förliden	-12.0538
▁trösklarna	-12.0538
▁bortryck	-12.0538
▁ilbud	-12.0538
▁rövarskara	-12.0538
▁härsmakt	-12.0538
▁hagelstenar	-12.0538
▁Syn	-12.0538
▁anropa	-12.0538
▁summan	-12.0538
▁upptagna	-12.0538
▁gomer	-12.0538
▁motpart	-12.0538
▁förnya	-12.0538
▁Kaldeen	-12.0538
ffren	-12.0539
▁Seeb	-12.0539
ryg	-12.0539
ängare	-12.0539
▁stadier	-12.0539
▁ödslig	-12.0539
▁Disan	-12.0539
▁oroligheter	-12.0539
▁nedslå	-12.0539
▁Dison	-12.0539
▁grekiska	-12.0539
▁förhållande	-12.0539
▁heloffer	-12.0539
▁Ahieser	-12.0539
▁genstridighet	-12.0539
▁allvarlig	-12.0539
▁tuktigt	-12.054
▁timmermännen	-12.054
▁fållor	-12.054
▁sextiosex	-12.054
▁sticke	-12.054
▁Efa	-12.0541
▁landsman	-12.0541
▁ansenlig	-12.0541
imlarna	-12.0541
▁bedrövat	-12.0541
▁omkomma	-12.0541
▁ålägga	-12.0541
▁snodder	-12.0542
▁hamn	-12.0542
▁förgingos	-12.0542
▁Naara	-12.0542
▁Gäll	-12.0542
▁högtidsdag	-12.0542
▁vederkvickelse	-12.0543
Sky	-12.0543
▁Mosa	-12.0543
▁Setar	-12.0543
▁Tron	-12.0543
▁bestänk	-12.0543
▁tillkom	-12.0544
▁segerrik	-12.0545
▁tigga	-12.0546
▁seraiterna	-12.0546
gossar	-12.0547
Pelet	-12.0549
Besek	-12.0549
ambu	-12.0549
▁Kark	-12.0552
▁Asriel	-12.0552
▁läkt	-12.056
kostnad	-12.0568
ajot	-12.0579
lytta	-12.0584
▁kärve	-12.0596
▁förtröt	-12.06
▁Visst	-12.0601
Sefer	-12.0602
skänker	-12.0624
▁timra	-12.0642
▁flyktig	-12.0686
Meon	-12.0713
▁iaktt	-12.0732
mkring	-12.0752
▁befläcka	-12.0757
▁förgriplig	-12.0829
sällskap	-12.083
▁hemfödd	-12.0971
Hamma	-12.1057
▁stengolv	-12.1059
▁prästerlig	-12.1119
▁beräkna	-12.1148
▁sorglös	-12.1351
äkta	-12.1352
▁tillfoga	-12.1429
örjan	-12.149
▁hjälpkvinn	-12.1551
trakter	-12.1684
kläden	-12.1777
▁inträffa	-12.178
fäste	-12.1824
gärningar	-12.1848
klädd	-12.1854
kriften	-12.1928
▁rådsherr	-12.1948
▁underhövitsmän	-12.1958
▁räkn	-12.1972
▁åtföljd	-12.1976
▁Tjän	-12.2043
▁församl	-12.2112
▁väpn	-12.218
bärande	-12.2248
Ske	-12.2275
dömen	-12.2294
▁omslöt	-12.2298
▁Merib	-12.2336
▁njut	-12.2363
▁Människo	-12.2409
▁främ	-12.2423
Konung	-12.2423
▁förvalta	-12.2442
äldrarna	-12.245
▁israelit	-12.2471
▁torg	-12.2477
regn	-12.2478
växt	-12.2482
rummet	-12.2482
Rimmon	-12.2483
glans	-12.2483
Fördenskull	-12.2483
dömer	-12.2484
stadga	-12.2484
Simon	-12.2484
kunskap	-12.2484
bröt	-12.2484
Jakob	-12.2484
Farao	-12.2485
▁Galile	-12.2486
▁ouppsåtlig	-12.2486
bäcken	-12.2489
▁gemensam	-12.2493
▁kvinno	-12.2503
▁drake	-12.2505
▁oomskure	-12.2514
▁lejd	-12.2518
budbärar	-12.2519
▁uppskriv	-12.2523
Sju	-12.2527
▁Regu	-12.2527
snodd	-12.2534
▁moabit	-12.2534
våning	-12.2535
munt	-12.2536
uttöm	-12.2536
▁amoré	-12.2537
▁hivée	-12.2537
ovsjungen	-12.2537
▁vämj	-12.2538
▁Poti	-12.2538
▁ahoait	-12.2538
▁dalbygd	-12.2538
▁pirgatonit	-12.2538
▁skogsbygd	-12.2538
Räkn	-12.2538
▁Efod	-12.2538
▁bergstopp	-12.2538
▁dristig	-12.2538
▁förpliktelse	-12.2538
▁gryning	-12.2538
▁oansenlig	-12.2538
▁slungsten	-12.2538
▁sorgefest	-12.2538
▁veckohögtid	-12.2538
Begär	-12.2538
Hattaava	-12.2538
Människan	-12.2538
Naharaim	-12.2538
Utgjut	-12.2538
Värdes	-12.2538
edermera	-12.2538
efterforskningar	-12.2538
ibanonskogshuset	-12.2538
sföreståndare	-12.2538
språng	-12.2538
stämmelse	-12.2538
trolldomskonster	-12.2538
usikinstrumenter	-12.2538
vgudadyrkan	-12.2538
▁Abidan	-12.2538
▁Abisua	-12.2538
▁Argob	-12.2538
▁Aristarkus	-12.2538
▁Assir	-12.2538
▁Bahurim	-12.2538
▁Egla	-12.2538
▁Eleale	-12.2538
▁Furstar	-12.2538
▁Gajus	-12.2538
▁Gamliel	-12.2538
▁Gemarja	-12.2538
▁Hackos	-12.2538
▁Herodias	-12.2538
▁Jeguel	-12.2538
▁Jessai	-12.2538
▁Jisei	-12.2538
▁Kedorlaomer	-12.2538
▁Kenaana	-12.2538
▁Libni	-12.2538
▁Magog	-12.2538
▁Mahela	-12.2538
▁Matteus	-12.2538
▁Nebajot	-12.2538
▁Nikodemus	-12.2538
▁Ohola	-12.2538
▁Oholiab	-12.2538
▁Pagiel	-12.2538
▁Pallu	-12.2538
▁Pamfylien	-12.2538
▁Patros	-12.2538
▁Pelatja	-12.2538
▁Raema	-12.2538
▁Refidim	-12.2538
▁Rehabja	-12.2538
▁Saltdalen	-12.2538
▁Sanoa	-12.2538
▁Selomot	-12.2538
▁Selumiel	-12.2538
▁Skön	-12.2538
▁Stolt	-12.2538
▁Tarsus	-12.2538
▁Tykikus	-12.2538
▁Vinkeln	-12.2538
▁allmosa	-12.2538
▁aloe	-12.2538
▁alstra	-12.2538
▁barfota	-12.2538
▁basilisk	-12.2538
▁beflita	-12.2538
▁beskrivning	-12.2538
▁bespottelse	-12.2538
▁bevingad	-12.2538
▁bloss	-12.2538
▁brännoffren	-12.2538
▁bulnaden	-12.2538
▁bålverk	-12.2538
▁bönehus	-12.2538
▁bördesrätt	-12.2538
▁daglönare	-12.2538
▁druvsaft	-12.2538
▁dunkel	-12.2538
▁dämpa	-12.2538
▁dörröppning	-12.2538
▁ertappad	-12.2538
▁flickebarn	-12.2538
▁folkskockning	-12.2538
▁fotspår	-12.2538
▁fädernestad	-12.2538
▁förbjudes	-12.2538
▁förbön	-12.2538
▁förgrymmad	-12.2538
▁förhoppning	-12.2538
▁förmätenhet	-12.2538
▁förvaringsrum	-12.2538
▁gafflarna	-12.2538
▁gemål	-12.2538
▁gruva	-12.2538
▁gälda	-12.2538
▁handpåläggning	-12.2538
▁hednisk	-12.2538
▁hägern	-12.2538
▁hövdes	-12.2538
▁ingivelse	-12.2538
▁inspärrad	-12.2538
▁jeterite	-12.2538
▁karneol	-12.2538
▁klentrogne	-12.2538
▁konstarbeten	-12.2538
▁lamptänger	-12.2538
▁lejongropen	-12.2538
▁lummig	-12.2538
▁mandråpare	-12.2538
▁marmor	-12.2538
▁mognad	-12.2538
▁nardus	-12.2538
▁obebott	-12.2538
▁obesmittad	-12.2538
▁offergärdslåret	-12.2538
▁offerhöjdshus	-12.2538
▁offerkistorna	-12.2538
▁oförskräckt	-12.2538
▁oskälig	-12.2538
▁prästämbete	-12.2538
▁purpurröda	-12.2538
▁putéer	-12.2538
▁ricinbuske	-12.2538
▁rymde	-12.2538
▁ryter	-12.2538
▁räfst	-12.2538
▁samfällt	-12.2538
▁senapskorn	-12.2538
▁smaragd	-12.2538
▁snidverk	-12.2538
▁stamfränder	-12.2538
▁stenröse	-12.2538
▁strutsar	-12.2538
▁stärkt	-12.2538
▁svallkött	-12.2538
▁svägerska	-12.2538
▁sädesutgjutning	-12.2538
▁sälta	-12.2538
▁tekoaite	-12.2538
▁topas	-12.2538
▁tunnkakor	-12.2538
▁turturduva	-12.2538
▁tygvåder	-12.2538
▁täpp	-12.2538
▁töcknet	-12.2538
▁undangöm	-12.2538
▁underlivet	-12.2538
▁utländsk	-12.2538
▁vacker	-12.2538
▁vagnshjul	-12.2538
▁vagnshästar	-12.2538
▁vagnsstäderna	-12.2538
▁vattenbrunn	-12.2538
▁veteskörden	-12.2538
▁vinlägel	-12.2538
▁väta	-12.2538
▁våldsverkarna	-12.2538
▁ylle	-12.2538
▁Österlandet	-12.2538
▁ättling	-12.2538
▁återfunn	-12.2538
▁öknar	-12.2538
▁örtagård	-12.2538
▁överväldiga	-12.2538
▁Nimsi	-12.2538
▁bekräfta	-12.2538
▁dryckenskap	-12.2538
▁flamma	-12.2538
▁förlikna	-12.2538
▁försörj	-12.2538
▁invändigt	-12.2538
▁kainéen	-12.2538
▁knåda	-12.2538
▁krämare	-12.2538
▁macedoni	-12.2538
▁missbruka	-12.2538
▁nådegärningar	-12.2538
▁ombesörj	-12.2538
▁ondskefull	-12.2538
▁plundringståg	-12.2538
▁saft	-12.2538
▁skinnsaken	-12.2538
▁spillror	-12.2538
▁spyor	-12.2538
▁underrättelse	-12.2538
▁upprycka	-12.2538
▁utsprid	-12.2538
Perasim	-12.2538
utinnan	-12.2538
▁Fastmer	-12.2538
▁Galli	-12.2538
▁Gosan	-12.2538
▁Hattus	-12.2538
▁Ulam	-12.2538
▁buller	-12.2538
▁dvälj	-12.2538
▁erkän	-12.2538
▁nedbryta	-12.2538
▁omfång	-12.2538
▁teckentyd	-12.2538
▁utplundrad	-12.2538
▁ögonlock	-12.2538
▁Medeba	-12.2538
▁föga	-12.2538
▁förrådsstäder	-12.2538
▁purim	-12.2538
▁ruttna	-12.2538
▁våldsgärningar	-12.2538
▁blomstre	-12.2538
▁missunnsam	-12.2538
▁otålig	-12.2538
▁skiner	-12.2538
▁syfta	-12.2538
▁Profeterna	-12.2538
▁Kreta	-12.2538
▁påskoffer	-12.2538
▁ludéer	-12.2538
▁Innan	-12.2538
▁livrock	-12.2538
▁vadställena	-12.2538
▁ränker	-12.2538
dränka	-12.2538
▁livsuppehälle	-12.2538
▁Mibsa	-12.2538
▁förbinda	-12.2538
▁människoben	-12.2538
▁Raka	-12.2538
▁sluka	-12.2538
▁åsne	-12.2538
▁krigsman	-12.2538
▁pålitlig	-12.2538
▁Jafia	-12.2538
▁fester	-12.2538
ungo	-12.2538
▁liden	-12.2538
▁skymf	-12.2538
▁skuldror	-12.2538
klasar	-12.2538
▁kräslig	-12.2538
▁sunt	-12.2538
▁snöpt	-12.2538
Ammi	-12.2538
▁Besai	-12.2538
▁lapp	-12.2538
▁folkförsamling	-12.2538
▁uppresa	-12.2538
▁Sihor	-12.2538
▁grannskap	-12.2538
▁enfaldiga	-12.2538
▁betsel	-12.2538
▁Talmon	-12.2538
▁slaktdjur	-12.2538
▁förband	-12.2539
▁rulla	-12.2539
▁förvissad	-12.2539
▁banna	-12.2539
▁berus	-12.2539
▁salvor	-12.2539
▁erlägga	-12.2539
▁Gitt	-12.2539
▁födelsedag	-12.2539
▁glädjebudbärare	-12.2539
▁utstött	-12.2539
▁yta	-12.2539
▁Diana	-12.2539
▁Betänk	-12.2539
▁bestraffa	-12.2539
▁försumlig	-12.2539
▁osynlig	-12.254
▁gurk	-12.254
▁tinning	-12.254
▁svält	-12.254
▁ekar	-12.254
▁daniterna	-12.254
▁Ono	-12.2541
▁vinnlägg	-12.2541
▁otalig	-12.2541
▁framkalla	-12.2542
▁Semira	-12.2542
▁ansvar	-12.2549
▁lönnlig	-12.2551
▁Esba	-12.2554
Addar	-12.2563
▁druvkak	-12.2566
▁upptage	-12.2595
▁ståtlig	-12.2596
▁upprorisk	-12.2605
▁underhövitsman	-12.2733
▁Övergiv	-12.2791
ittror	-12.2825
rinnande	-12.2896
▁undkomm	-12.3053
tiosju	-12.3077
benkläder	-12.3083
▁folkskara	-12.3283
▁hyse	-12.3466
arbetar	-12.3476
▁Fyrtio	-12.3504
▁förgrip	-12.3579
▁misshag	-12.3602
krokar	-12.3702
▁medborgar	-12.3715
Tide	-12.3767
▁omgive	-12.3776
▁avsegla	-12.388
skaffat	-12.39
▁dundr	-12.3919
mullbärsfikonträ	-12.3998
▁huvudstad	-12.4012
▁kross	-12.4036
Blo	-12.4147
▁beskydd	-12.4193
löpare	-12.424
offergärdsområde	-12.4253
▁silverpenning	-12.453
▁split	-12.4681
▁avfatta	-12.4719
▁tillslöt	-12.4808
▁tål	-12.4869
Samle	-12.487
kunna	-12.4896
vuxen	-12.4898
hundra	-12.4899
▁sköko	-12.4916
▁olivträ	-12.4926
▁oliv	-12.4937
gudaktigheten	-12.495
▁sänk	-12.496
▁överkläd	-12.4973
bruk	-12.4981
skyar	-12.4982
flyttade	-12.4982
fogdar	-12.4982
Soba	-12.4983
kunnigt	-12.4983
Maaka	-12.4983
härbärge	-12.4983
sjön	-12.4984
Daniel	-12.4984
moder	-12.4984
vård	-12.4984
haft	-12.4984
Mose	-12.4984
köttet	-12.4985
kropp	-12.4986
▁sabbatsdag	-12.4987
▁sadducéer	-12.4992
▁tillbörlig	-12.4994
▁förbittra	-12.5003
▁utmark	-12.5006
Begiv	-12.5006
▁trumpet	-12.5011
▁tempelträlar	-12.5017
▁osyrad	-12.5018
▁satraper	-12.5023
▁kvist	-12.5029
▁ihjälriv	-12.5029
guels	-12.5029
▁pärl	-12.5034
▁Sallu	-12.5034
ammansvärjning	-12.5035
▁byggningsmän	-12.5037
immelriket	-12.5037
bygdens	-12.5037
ångt	-12.5037
edergäll	-12.5038
▁ödelägge	-12.5038
ó	-12.5038
▁Melki	-12.5038
▁Nergal	-12.5038
▁abiesrit	-12.5038
▁kringstråla	-12.5038
▁pelikan	-12.5038
▁underkuva	-12.5038
▁utskämd	-12.5038
Merodak	-12.5038
tävl	-12.5038
▁Jisma	-12.5038
▁Kinneret	-12.5038
▁bespis	-12.5038
▁folkräkning	-12.5038
▁mångtusen	-12.5038
▁spillsäd	-12.5038
▁svinhjord	-12.5038
▁undfing	-12.5038
▁vågskål	-12.5038
▁äktenskap	-12.5038
9	-12.5038
Bosenai	-12.5038
Bröder	-12.5038
Hahirot	-12.5038
Hajesimot	-12.5038
Risataim	-12.5038
Ruhama	-12.5038
Teckn	-12.5038
Vederkvick	-12.5038
í	-12.5038
▁Abarimberge	-12.5038
▁Aksib	-12.5038
▁Ararats	-12.5038
▁Asgad	-12.5038
▁Asuba	-12.5038
▁Bartolomeus	-12.5038
▁Bespottare	-12.5038
▁Bilga	-12.5038
▁Druvdalen	-12.5038
▁Dyngporten	-12.5038
▁Fiskporten	-12.5038
▁Fåfänglighet	-12.5038
▁Fårporten	-12.5038
▁Förtröst	-12.5038
▁Galatien	-12.5038
▁Gerissim	-12.5038
▁Hadoram	-12.5038
▁Hananeltornet	-12.5038
▁Hodauja	-12.5038
▁Joksan	-12.5038
▁Keriot	-12.5038
▁Ketura	-12.5038
▁Kimham	-12.5038
▁Mahelon	-12.5038
▁Meselemja	-12.5038
▁Miklot	-12.5038
▁Nefeg	-12.5038
▁Nimrod	-12.5038
▁Olycka	-12.5038
▁Palmstaden	-12.5038
▁Pasea	-12.5038
▁Petaja	-12.5038
▁Rogelskällan	-12.5038
▁Sesbassar	-12.5038
▁Sibbekai	-12.5038
▁Silvanus	-12.5038
▁Slätten	-12.5038
▁Sutela	-12.5038
▁Togarma	-12.5038
▁Tvärtom	-12.5038
▁Tyatira	-12.5038
▁arglistig	-12.5038
▁avgudabild	-12.5038
▁baktråg	-12.5038
▁blomsterband	-12.5038
▁blånad	-12.5038
▁boskapsskötsel	-12.5038
▁brodd	-12.5038
▁brännsåret	-12.5038
▁bröllopssven	-12.5038
▁bytesvaror	-12.5038
▁bägarna	-12.5038
▁dagsljus	-12.5038
▁diademet	-12.5038
▁ditbort	-12.5038
▁drift	-12.5038
▁drinkare	-12.5038
▁drype	-12.5038
▁dränkt	-12.5038
▁därhemma	-12.5038
▁dödssjuk	-12.5038
▁efterforska	-12.5038
▁eftertänksamhet	-12.5038
▁eldslåga	-12.5038
▁facklor	-12.5038
▁fiendehand	-12.5038
▁flint	-12.5038
▁fotsenorna	-12.5038
▁fridsförbund	-12.5038
▁frodas	-12.5038
▁fräta	-12.5038
▁fullmogna	-12.5038
▁fyrtioåtta	-12.5038
▁fägring	-12.5038
▁förbrytelse	-12.5038
▁förbytt	-12.5038
▁fördömelse	-12.5038
▁förgårdsmuren	-12.5038
▁förhärjelse	-12.5038
▁förlikning	-12.5038
▁förminskas	-12.5038
▁förnedring	-12.5038
▁förnöj	-12.5038
▁förruttnelse	-12.5038
▁förövat	-12.5038
▁gallret	-12.5038
▁gengäld	-12.5038
▁givmild	-12.5038
▁gruml	-12.5038
▁gudahus	-12.5038
▁gödkalvar	-12.5038
▁hagariterna	-12.5038
▁handelsvän	-12.5038
▁helkluvna	-12.5038
▁hembär	-12.5038
▁hjärtesorg	-12.5038
▁hälleberget	-12.5038
▁härkomst	-12.5038
▁höstregn	-12.5038
▁ivraren	-12.5038
▁jishariterna	-12.5038
▁jordbeck	-12.5038
▁jubelbasuner	-12.5038
▁järnspira	-12.5038
▁kalcedon	-12.5038
▁karbunkel	-12.5038
▁konungamodern	-12.5038
▁konungapalatse	-12.5038
▁kortsida	-12.5038
▁krigsredskap	-12.5038
▁kroppshydda	-12.5038
▁käft	-12.5038
▁källsprång	-12.5038
▁libyer	-12.5038
▁linneskjortor	-12.5038
▁livsfläkt	-12.5038
▁livslängd	-12.5038
▁ljugit	-12.5038
▁lutsalt	-12.5038
▁maakatiten	-12.5038
▁medarvingar	-12.5038
▁metall	-12.5038
▁middagstiden	-12.5038
▁munväder	-12.5038
▁nasirlöfte	-12.5038
▁nämnde	-12.5038
▁obefäst	-12.5038
▁oförvitlig	-12.5038
▁ohöviskt	-12.5038
▁oläklig	-12.5038
▁oländig	-12.5038
▁oordentlig	-12.5038
▁oskadd	-12.5038
▁oskrymtad	-12.5038
▁outsäglig	-12.5038
▁oärlig	-12.5038
▁pelargång	-12.5038
▁plogen	-12.5038
▁presskar	-12.5038
▁proselyt	-12.5038
▁prytt	-12.5038
▁påträffas	-12.5038
▁russinkakor	-12.5038
▁räta	-12.5038
▁rövarkula	-12.5038
▁samkväm	-12.5038
▁silversiklar	-12.5038
▁simeoniterna	-12.5038
▁sinsemellan	-12.5038
▁skattmästar	-12.5038
▁skeppsbrott	-12.5038
▁skröplighet	-12.5038
▁skyttarna	-12.5038
▁skämmas	-12.5038
▁slagfältet	-12.5038
▁slummer	-12.5038
▁slöjd	-12.5038
▁sondotter	-12.5038
▁spegel	-12.5038
▁stjärntydar	-12.5038
▁stungit	-12.5038
▁styckverk	-12.5038
▁styresman	-12.5038
▁stänkelsevatten	-12.5038
▁svedda	-12.5038
▁sädesskyl	-12.5038
▁tempeltärna	-12.5038
▁tempelvakten	-12.5038
▁terebintlund	-12.5038
5	-12.8371
3	-13.3371
7	-13.3371
]	-13.3371
á	-14.3371
8	-15.0149
4	-15.015
C	-15.0151
(	-15.0152
Ö	-15.0153
Å	-15.0154
Ä	-15.0155
L	-15.0156
J	-15.0157
ö	-15.0158
ä	-15.0159
