<pad>	0
</s>	0
<unk>	0
¦	-1.36489
▁¦	-1.77797
▁	-3.13903
𐋇	-3.43614
▁,	-3.66087
ja	-3.98637
n	-4.2305
a	-4.43154
▁.	-4.60601
i	-4.64336
t	-4.91542
si	-4.97913
on	-5.20215
s	-5.36824
l	-5.41849
in	-5.41868
o	-5.51819
u	-5.52812
e	-5.54309
ä	-5.58278
hän	-5.58443
r	-5.63161
se	-5.64484
▁:	-5.65404
lle	-5.66341
ta	-5.68149
y	-5.71519
en	-5.71639
he	-5.75656
te	-5.75806
sta	-5.7799
ni	-5.79941
an	-5.81308
niin	-5.82253
ka	-5.82315
h	-5.84434
pa	-5.88383
ke	-5.88415
▁;	-5.91382
minä	-5.92264
lla	-5.92832
sa	-5.9748
tä	-5.98814
ssa	-5.98973
tu	-5.99103
oli	-6.01113
ksi	-6.05285
▁"	-6.05847
d	-6.07265
nsa	-6.10719
vat	-6.11343
ko	-6.11548
herra	-6.12169
ku	-6.19125
hänen	-6.19363
ra	-6.21369
sen	-6.22018
mi	-6.22213
vi	-6.24037
jo	-6.27376
na	-6.27836
mutta	-6.27892
me	-6.29728
ri	-6.3185
to	-6.33578
joka	-6.336
k	-6.34688
nsä	-6.36365
ne	-6.36592
kun	-6.36971
ei	-6.40036
ki	-6.42872
va	-6.43402
m	-6.437
sillä	-6.45144
ma	-6.46324
et	-6.47772
nne	-6.47938
että	-6.48771
p	-6.50826
kuin	-6.51487
pu	-6.51601
ha	-6.54
kaikki	-6.55944
ti	-6.56165
minun	-6.57495
sanoi	-6.57631
sinun	-6.58639
nä	-6.61863
le	-6.6196
mme	-6.62754
ve	-6.63609
stä	-6.63612
nyt	-6.63979
kaa	-6.64715
nut	-6.66065
maan	-6.66067
li	-6.67376
vä	-6.68073
jumala	-6.68093
isi	-6.68156
pi	-6.69544
mu	-6.70822
ty	-6.7295
v	-6.72981
la	-6.73418
sinä	-6.73826
b	-6.75464
de	-6.76253
vät	-6.7905
saa	-6.80116
lu	-6.82966
kä	-6.83416
re	-6.83558
ole	-6.84354
ssä	-6.86301
kin	-6.86638
tta	-6.86753
llä	-6.87098
jotka	-6.88432
sano	-6.91246
tti	-6.93784
neet	-6.94747
tte	-6.95248
hu	-6.95995
heidän	-6.96332
pe	-6.97126
kansa	-6.98465
herran	-7.00217
▁".	-7.01467
pää	-7.03378
israeli	-7.0356
kse	-7.05011
itse	-7.06092
ovat	-7.06362
ille	-7.10063
van	-7.10207
ö	-7.11678
ista	-7.13789
it	-7.14723
jä	-7.15467
da	-7.16141
lta	-7.16416
mitä	-7.18976
us	-7.19333
as	-7.21556
olen	-7.21833
poika	-7.22351
po	-7.23212
voi	-7.23955
ho	-7.2637
än	-7.26674
aa	-7.27448
jos	-7.27491
▁?	-7.27498
▁."	-7.29009
su	-7.2911
oi	-7.29944
kka	-7.3273
val	-7.33268
hänelle	-7.33684
maa	-7.33992
tuli	-7.34177
katso	-7.36294
el	-7.37132
je	-7.38953
tämä	-7.39595
g	-7.397
kö	-7.40989
olivat	-7.42027
un	-7.43383
koon	-7.43658
var	-7.43881
isä	-7.43961
yö	-7.44116
ten	-7.44606
teidän	-7.45045
sä	-7.45137
▁`	-7.45495
ar	-7.45719
kuningas	-7.47016
jumalan	-7.47095
hänet	-7.47696
kanssa	-7.48545
vastaan	-7.48576
ru	-7.49409
kää	-7.50567
aan	-7.50706
hi	-7.51032
ro	-7.52453
sti	-7.53164
tai	-7.53379
tule	-7.53416
vuo	-7.54185
vai	-7.55215
kan	-7.55727
ita	-7.55823
kuu	-7.56431
at	-7.56524
häntä	-7.56666
teh	-7.57746
jonk	-7.58213
ivat	-7.58253
inen	-7.60676
eivät	-7.61767
sy	-7.62141
heille	-7.6217
koko	-7.62356
asu	-7.62652
istä	-7.63117
sitä	-7.63143
oma	-7.63417
eli	-7.63421
so	-7.6467
den	-7.65972
f	-7.67671
olet	-7.68075
eikä	-7.68496
näin	-7.68542
mat	-7.68614
pois	-7.68675
silloin	-7.70255
sana	-7.70538
rin	-7.71114
teen	-7.7118
taan	-7.71227
puhu	-7.71363
suu	-7.72785
sanoo	-7.73304
ttu	-7.7334
-	-7.73393
istu	-7.7394
kir	-7.74403
hä	-7.74613
toi	-7.74819
vaan	-7.75538
lä	-7.75613
sten	-7.76258
lo	-7.76831
ttä	-7.77022
luo	-7.77352
mä	-7.77545
be	-7.7818
lai	-7.78645
ksen	-7.79792
meidän	-7.79952
asti	-7.80597
tuo	-7.80894
minulle	-7.80906
ji	-7.81319
ee	-7.82363
ette	-7.82637
ään	-7.82717
päivänä	-7.82766
heidät	-7.8315
pä	-7.83589
sitten	-7.83718
minua	-7.84405
ihin	-7.84856
elä	-7.85748
▁-	-7.86156
aika	-7.8682
otta	-7.87193
llis	-7.88218
il	-7.89099
mene	-7.89189
mo	-7.89288
myös	-7.8966
esi	-7.90376
jen	-7.90819
ut	-7.91083
min	-7.91898
edessä	-7.92386
meni	-7.92479
tar	-7.92625
han	-7.93095
palvelija	-7.93619
ihmis	-7.9364
uh	-7.94924
käsi	-7.95118
▁!	-7.95957
or	-7.97649
sivat	-7.97993
kään	-7.98233
teille	-7.98373
uu	-7.98373
mies	-7.98433
vaimo	-7.9852
usko	-7.98572
kuninkaan	-7.98663
am	-7.98729
ju	-7.99028
astu	-7.995
ot	-8.00338
vie	-8.00461
ker	-8.00945
teki	-8.01075
joi	-8.01231
vaa	-8.01265
sinua	-8.0134
nime	-8.01467
per	-8.0165
tään	-8.01914
set	-8.02085
utta	-8.02703
heitä	-8.0305
kor	-8.0312
ansa	-8.03291
▁?"	-8.03764
älä	-8.04646
pyhä	-8.05249
tämän	-8.05504
ah	-8.05743
tee	-8.06358
sinulle	-8.06408
päivä	-8.0668
nen	-8.06944
ttaa	-8.07177
mään	-8.0739
ivät	-8.07698
kaksi	-8.08963
uksen	-8.09394
siitä	-8.10173
vastasi	-8.10711
al	-8.10844
uhri	-8.11049
ltä	-8.11627
minut	-8.12054
kuka	-8.12873
tykö	-8.12894
jerusalemi	-8.13256
yli	-8.14148
mukaan	-8.14395
egypti	-8.14461
käy	-8.14514
tulee	-8.15031
vielä	-8.15048
miehe	-8.15883
kii	-8.17261
mikä	-8.17495
ys	-8.17665
hyvä	-8.18319
nämä	-8.18652
kuul	-8.18786
temppeli	-8.18866
iset	-8.19423
lleen	-8.20712
ol	-8.2084
kuninkaa	-8.21015
muut	-8.22124
syö	-8.2215
eltä	-8.22391
koi	-8.22599
tuu	-8.22974
yksi	-8.23067
tähden	-8.23564
maahan	-8.23592
sydäme	-8.23918
daavid	-8.24089
laiset	-8.24129
tie	-8.24272
sentähden	-8.24572
lau	-8.24891
kseen	-8.25029
suku	-8.25196
koska	-8.25273
vir	-8.25636
kolme	-8.26322
man	-8.26823
otti	-8.27659
kaiken	-8.27793
suure	-8.27941
siihen	-8.28307
kautta	-8.28768
mma	-8.28812
kar	-8.29546
juo	-8.29769
seen	-8.29984
synti	-8.30192
ollut	-8.31611
velje	-8.31667
vel	-8.31723
kki	-8.32521
lähti	-8.32574
toista	-8.32631
älkää	-8.32912
usta	-8.33218
viha	-8.33682
juudan	-8.34005
kaupungi	-8.34364
käsky	-8.34364
lähe	-8.34384
pala	-8.34387
sota	-8.34484
iden	-8.35546
oleva	-8.35663
ga	-8.36122
paha	-8.37302
sekä	-8.3764
koht	-8.38043
antoi	-8.38082
taivaa	-8.3881
miehet	-8.38831
yttä	-8.38902
seura	-8.39605
tietä	-8.3975
olkoon	-8.39845
niiden	-8.40637
siellä	-8.4065
köön	-8.42512
jeesus	-8.43297
ssaan	-8.43405
minu	-8.43432
kaiki	-8.43533
ilo	-8.43637
hal	-8.4381
ttava	-8.44098
tele	-8.44129
puu	-8.44331
valta	-8.44605
sinut	-8.44789
ota	-8.4652
kutsu	-8.47007
antaa	-8.47011
anna	-8.47325
kuinka	-8.48838
pojan	-8.48964
olette	-8.48977
laisten	-8.49309
ettei	-8.4931
teitä	-8.50233
enää	-8.50269
kaupunki	-8.50562
eteen	-8.51385
nuo	-8.51663
koot	-8.51761
seitsemän	-8.52111
jota	-8.52667
kasvo	-8.52783
tanut	-8.52985
ympäri	-8.53504
pitä	-8.5412
loi	-8.54952
sinu	-8.55034
neljä	-8.55123
siis	-8.55171
tava	-8.55439
lähte	-8.55772
herralle	-8.56314
takaa	-8.56458
suuri	-8.56543
viini	-8.56677
niitä	-8.5699
pappi	-8.57361
▁`.	-8.57571
näki	-8.57638
joita	-8.58564
armo	-8.5865
voima	-8.59385
vasta	-8.59532
maassa	-8.5958
tuhat	-8.6039
siinä	-8.6148
kaike	-8.62127
daavidi	-8.62634
miehi	-8.62675
käte	-8.62702
mpi	-8.62814
hävit	-8.62987
kymmenen	-8.63552
kymmen	-8.63745
mooses	-8.63764
kyl	-8.63826
jää	-8.63985
silmä	-8.64307
synty	-8.64433
talo	-8.65132
suo	-8.65184
saul	-8.65548
osa	-8.65889
aina	-8.66349
ettiin	-8.66706
kuule	-8.67217
tullut	-8.67356
j	-8.68027
tettu	-8.68089
alttari	-8.69438
annan	-8.6976
surma	-8.70881
antanut	-8.71421
ttää	-8.71445
lah	-8.71612
jeesukse	-8.71796
jaakob	-8.72035
nouse	-8.73
puhui	-8.73691
miksi	-8.74376
ennen	-8.74714
jälkeen	-8.75446
opet	-8.75467
olemme	-8.77103
sataa	-8.77387
,	-8.77463
tulivat	-8.77635
tiedä	-8.77708
lapsi	-8.77713
moosekse	-8.77955
päälle	-8.78436
oikea	-8.78533
lähetti	-8.7913
liha	-8.79431
kristukse	-8.8079
pysy	-8.81637
abi	-8.81812
nousi	-8.83179
kysy	-8.83721
luokse	-8.84153
ilmoit	-8.84794
vih	-8.84833
minkä	-8.85059
pyhi	-8.85066
miestä	-8.85113
jälkeläi	-8.85332
päin	-8.85593
älköön	-8.85888
tapahtu	-8.86437
jouko	-8.86728
toinen	-8.86938
henki	-8.87059
kulta	-8.87637
sielu	-8.87897
rauha	-8.87909
`	-8.87913
aaron	-8.87922
ineen	-8.88069
kuuli	-8.88247
kunnia	-8.88357
rukoil	-8.893
ynnä	-8.90146
syy	-8.90299
vuore	-8.90633
ruhtina	-8.90675
toisen	-8.91504
vanhurskau	-8.91836
seiso	-8.91975
israel	-8.92211
ssään	-8.92923
kuolema	-8.93717
erämaa	-8.95411
leiri	-8.95839
soi	-8.96378
päivää	-8.96537
alas	-8.96923
pojat	-8.97006
meitä	-8.97142
viholli	-8.9725
tahto	-8.97306
mieli	-8.97914
henge	-8.98791
palveli	-8.98806
lapse	-8.9886
takaisin	-8.99102
päällä	-8.99207
hopea	-9.00067
utui	-9.00571
vaikka	-9.01291
määrä	-9.01645
uuden	-9.02655
ulos	-9.0289
käänty	-9.02896
tekee	-9.02971
itten	-9.03636
salomo	-9.04587
hallit	-9.04651
jumal	-9.05075
teidät	-9.05252
lline	-9.05923
henke	-9.06392
lainen	-9.06684
leik	-9.06698
miele	-9.08021
heimo	-9.08664
huonee	-9.0867
enkeli	-9.0901
juutalai	-9.09344
tahdo	-9.09344
pelasta	-9.09344
käske	-9.09355
paikka	-9.09358
▁!"	-9.10069
baabeli	-9.1039
neuvo	-9.10394
rakasta	-9.10407
öljy	-9.1145
kohd	-9.1179
sebaot	-9.11806
kuitenk	-9.12166
tehdä	-9.12231
farao	-9.12524
joukko	-9.12881
puolella	-9.12885
profeetta	-9.13604
elämä	-9.15734
tetty	-9.15883
laisia	-9.17072
ollee	-9.1791
juuda	-9.1813
pelastu	-9.1844
laske	-9.18868
auta	-9.19057
verta	-9.19242
äiti	-9.19907
ttävä	-9.20353
joosef	-9.2075
häpeä	-9.20832
hedelmä	-9.21533
keskellä	-9.22322
aabraham	-9.22719
samoin	-9.22724
ruoka	-9.23598
kyynärä	-9.24322
kööt	-9.25265
"	-9.25799
kulki	-9.25968
vanno	-9.2627
ensimmäi	-9.26363
saastai	-9.26623
ylös	-9.26776
iankaikkisest	-9.27191
pelkää	-9.27201
rikko	-9.28897
turva	-9.29141
totisest	-9.29293
tytär	-9.29729
maailma	-9.29736
polve	-9.3101
suvu	-9.31038
porti	-9.31448
polttouhri	-9.31873
miekka	-9.32754
tunte	-9.32979
ruumii	-9.33191
täyty	-9.33226
kiinni	-9.33232
tuomit	-9.33407
joosua	-9.34522
hänellä	-9.3544
valmis	-9.35531
kaikke	-9.35874
baal	-9.35999
käski	-9.36372
huusi	-9.3674
kaua	-9.37204
rakenta	-9.37249
tyttäre	-9.37708
yhtä	-9.37787
sukukunna	-9.38169
vaelta	-9.38218
perintöosa	-9.40515
muukalai	-9.4052
puolesta	-9.40521
kulke	-9.40544
kirjoitettu	-9.40991
kärsi	-9.42468
pidä	-9.42957
julista	-9.4341
vaunu	-9.4379
kauhistu	-9.43897
meidät	-9.44884
liiton	-9.46393
viisau	-9.46897
papit	-9.46927
tuomio	-9.48005
ainoastaan	-9.48421
korkea	-9.48618
meren	-9.49024
jälkeläisiä	-9.49462
puolelle	-9.49464
hänestä	-9.50001
vaattee	-9.50032
todista	-9.50503
kaksikymmentä	-9.51024
toimitta	-9.51032
onnettomuu	-9.52085
jordani	-9.5262
toivo	-9.527
salli	-9.53111
hyvin	-9.53158
uudesta	-9.53644
muuri	-9.54317
efraim	-9.54788
nähdä	-9.55338
lloin	-9.56943
kahdeksan	-9.58131
edellä	-9.58465
palvele	-9.587
silmissä	-9.60425
paavali	-9.60427
kahden	-9.60431
karitsa	-9.60437
arvo	-9.60615
kansoje	-9.61601
kirkkau	-9.61645
asettui	-9.62184
valtakunta	-9.6219
kulutt	-9.62231
mooabi	-9.6277
uhreja	-9.62783
loppu	-9.63969
yhden	-9.63971
peljät	-9.64011
kallio	-9.65784
benjamini	-9.66395
laakso	-9.66396
anteeksi	-9.66399
pietari	-9.67013
lähde	-9.67026
syödä	-9.68927
karkoit	-9.69228
ihme	-9.69884
keskuudessa	-9.70157
ymmärtä	-9.70158
juhla	-9.7016
kanaani	-9.70903
kimppuu	-9.71444
valtaistuime	-9.71444
:	-9.85397
1	-10.2167
[	-10.2493
;	-10.2614
?	-10.5127
3	-10.6195
2	-10.7382
.	-10.8891
4	-10.9152
9	-11.2431
0	-11.2734
5	-11.3046
(	-11.3369
)	-11.3369
8	-11.4404
6	-11.6865
7	-11.7841
!	-13.4539
z	-15.3317
/	-15.3318
]	-15.3318
