<pad>	0
</s>	0
<unk>	0
.	-3.01887
▁	-3.87131
ى	-3.87851
ا	-3.91472
▁ال	-3.93586
▁في	-4.1132
ه	-4.19363
▁من	-4.20484
ي	-4.27826
وا	-4.46166
ت	-4.55222
ك	-4.57861
ّ	-4.58267
ة	-4.58672
▁و	-4.63393
ن	-4.67782
ون	-4.783
▁الرب	-4.80654
▁ان	-4.93021
م	-5.08213
▁عل	-5.10174
▁لا	-5.15884
▁الذي	-5.16082
هم	-5.16275
▁ي	-5.17482
▁كل	-5.21477
ها	-5.28141
▁ت	-5.31252
ين	-5.3431
▁ا	-5.43793
نا	-5.51759
ر	-5.52984
▁ف	-5.56171
ب	-5.60346
▁ب	-5.65043
كم	-5.68585
▁م	-5.69613
▁اسرائيل	-5.70135
▁قد	-5.70839
▁وال	-5.71107
▁ل	-5.79433
▁الله	-5.83782
▁لي	-5.84955
▁ولا	-5.85006
س	-5.89122
▁وي	-5.89694
▁وا	-5.90419
▁لان	-5.91482
▁.	-5.9632
▁هذا	-5.96487
ان	-6.00664
ل	-6.02542
▁الارض	-6.02609
▁التي	-6.03294
ح	-6.03764
ف	-6.04404
ع	-6.04907
▁لم	-6.06505
▁يا	-6.06794
▁له	-6.0737
د	-6.08264
▁هو	-6.10286
ما	-6.10549
ق	-6.11052
ني	-6.11224
▁فقال	-6.15369
▁ما	-6.15912
▁ايضا	-6.2248
▁لل	-6.23096
▁عن	-6.23396
▁كان	-6.24089
▁بيت	-6.2428
▁بن	-6.2555
▁ن	-6.25623
▁وت	-6.27708
ش	-6.2902
▁الملك	-6.30333
ض	-6.31421
▁مع	-6.33423
ص	-6.33493
▁الم	-6.35153
▁جميع	-6.35264
خ	-6.3697
غ	-6.37882
▁ملك	-6.38097
اء	-6.38511
ج	-6.39646
▁وقال	-6.41118
▁انا	-6.41177
▁لانه	-6.41888
▁قال	-6.43723
▁بال	-6.45822
▁فا	-6.51224
▁وكان	-6.51245
▁ك	-6.51979
▁ثم	-6.52474
ث	-6.53105
▁بل	-6.53296
▁بني	-6.53447
ته	-6.53661
ز	-6.57158
ط	-6.58564
ار	-6.60921
و	-6.61169
▁اليوم	-6.6194
▁هكذا	-6.64078
▁او	-6.6507
▁عند	-6.65594
▁داود	-6.66878
▁ارض	-6.6702
▁لهم	-6.67378
▁الشعب	-6.68161
▁ومن	-6.68471
▁به	-6.68701
▁وكل	-6.69247
▁كما	-6.70066
▁يسوع	-6.70778
▁هذه	-6.72549
ات	-6.74228
▁قائلا	-6.74476
▁بعد	-6.77155
▁حت	-6.77724
▁واحد	-6.78481
▁امام	-6.78678
ور	-6.79685
▁رب	-6.80471
▁ذلك	-6.80636
▁انت	-6.80683
وه	-6.80934
ال	-6.83811
▁وفي	-6.83938
▁يهوذا	-6.84184
▁واما	-6.8429
▁ابن	-6.84803
▁ع	-6.86605
▁ولكن	-6.86968
▁ولم	-6.87778
▁يكون	-6.88037
تم	-6.88254
▁موسى	-6.88838
▁اورشليم	-6.88977
ئ	-6.90084
▁هناك	-6.90302
▁بنو	-6.91066
أ	-6.91563
ية	-6.92578
▁أ	-6.93883
▁يقول	-6.95739
▁حسب	-6.96398
▁ليس	-6.96584
▁وان	-6.98328
▁فت	-6.99124
▁هي	-7.00411
▁لكي	-7.02053
▁انه	-7.0245
▁لكم	-7.03501
▁لك	-7.04572
▁فان	-7.04923
ام	-7.0631
▁وب	-7.07562
▁مصر	-7.07895
▁عليه	-7.09906
▁ايام	-7.10934
تك	-7.11236
▁وم	-7.12186
▁الا	-7.12896
▁بين	-7.13045
يا	-7.14746
ذ	-7.16011
▁رجل	-7.16622
▁اجل	-7.1798
تي	-7.17981
يم	-7.18088
▁اذا	-7.18663
▁المدينة	-7.22006
▁اذ	-7.22415
اد	-7.22792
▁وعل	-7.23231
ول	-7.26155
▁ام	-7.26506
ير	-7.27998
▁المسيح	-7.28179
▁يوم	-7.28699
▁احد	-7.28995
▁للرب	-7.29195
را	-7.30569
دي	-7.31143
▁يد	-7.31965
هوذا	-7.32237
بر	-7.34243
اب	-7.34965
اف	-7.35225
▁مثل	-7.35905
▁مئة	-7.36338
▁فلا	-7.36898
وب	-7.37082
جل	-7.37723
يد	-7.38606
ود	-7.38771
▁اما	-7.39103
▁السماء	-7.4014
تهم	-7.40718
جر	-7.41786
▁ج	-7.42316
بي	-7.42458
▁ولما	-7.42546
با	-7.42644
▁اني	-7.43098
ري	-7.44102
▁لت	-7.44748
▁اله	-7.44994
▁بها	-7.45232
قي	-7.45483
▁الامم	-7.48436
▁الانسان	-7.49091
▁عمل	-7.49713
▁خ	-7.5031
▁با	-7.51179
▁الآن	-7.51581
▁وهو	-7.51611
هما	-7.51629
▁انتم	-7.51814
▁لاجل	-7.52246
▁سنة	-7.52596
▁عشر	-7.52856
▁ابي	-7.53112
مر	-7.53146
▁تكون	-7.53257
يل	-7.53654
وف	-7.54501
▁كلام	-7.5476
▁اليه	-7.55405
▁واذا	-7.56506
▁شاول	-7.56512
▁معه	-7.56684
▁الكاهن	-7.57689
▁فلما	-7.57811
▁تحت	-7.58466
▁البيت	-7.58762
وم	-7.58777
▁الع	-7.58899
▁جاء	-7.59381
صر	-7.59475
▁حين	-7.59638
▁قبل	-7.6173
وس	-7.62147
اح	-7.62227
قر	-7.62284
▁ايه	-7.638
▁لذلك	-7.63927
▁وع	-7.6394
▁قائلين	-7.64485
تها	-7.64553
▁ول	-7.65336
▁انسان	-7.65514
▁جدا	-7.65784
▁صوت	-7.66003
حم	-7.66394
▁هل	-7.66407
▁كال	-7.6672
▁الهك	-7.67171
▁يعقوب	-7.67338
▁والم	-7.67345
▁الرجل	-7.67378
▁امر	-7.67799
خر	-7.68104
▁السيد	-7.69456
▁هم	-7.69516
كل	-7.69935
اع	-7.70024
▁نحو	-7.70058
▁الشر	-7.70435
عد	-7.70885
▁فلم	-7.71807
▁هؤلاء	-7.71987
قل	-7.72443
▁رأ	-7.73054
بل	-7.74059
▁كنت	-7.74182
▁شيء	-7.74238
▁ش	-7.74426
▁ذهب	-7.7444
▁لانهم	-7.74551
▁البحر	-7.75189
▁وسط	-7.75278
فر	-7.75416
رف	-7.75522
لا	-7.75532
▁الابد	-7.75689
▁الف	-7.75947
حر	-7.76041
رج	-7.76972
وها	-7.77135
ظ	-7.77138
يين	-7.77288
وع	-7.77683
▁صار	-7.77743
▁مر	-7.77935
▁عليهم	-7.78488
وق	-7.78493
عل	-7.78521
يق	-7.79426
▁الس	-7.79597
▁نفسه	-7.80202
قب	-7.804
▁غير	-7.80653
صي	-7.80745
قا	-7.80923
▁طريق	-7.81163
▁الكهنة	-7.81588
▁يت	-7.81844
▁الناس	-7.82028
بت	-7.82933
▁فيها	-7.82946
رق	-7.82976
▁لماذا	-7.8322
▁لها	-7.83542
رت	-7.8372
▁اي	-7.83841
دم	-7.83911
▁بابل	-7.8394
▁ولد	-7.84612
▁وقد	-7.84643
▁عليك	-7.84939
▁الجنود	-7.85716
قت	-7.86007
▁فاجاب	-7.86094
▁امرأة	-7.86607
▁وح	-7.86898
مة	-7.87695
رب	-7.88032
يت	-7.88061
▁فيه	-7.88094
▁لنا	-7.88532
▁الايام	-7.89269
▁بر	-7.89616
لم	-7.89686
▁وك	-7.89822
▁كثيرة	-7.90043
▁رجال	-7.90345
▁يكن	-7.90516
▁الق	-7.90597
▁ارسل	-7.90644
▁ويكون	-7.90838
▁جبل	-7.90854
زل	-7.91279
▁كانوا	-7.91398
▁كانت	-7.91522
▁آخر	-7.92218
سر	-7.92289
طي	-7.92507
▁سليمان	-7.92552
▁وجميع	-7.92926
▁مت	-7.93373
عط	-7.941
▁باب	-7.94278
▁قدام	-7.94851
حا	-7.94866
▁وانا	-7.94897
▁رئيس	-7.95337
رد	-7.95488
▁السموات	-7.95962
▁وجه	-7.95988
▁لكن	-7.96106
عا	-7.96271
ذا	-7.9643
▁تلك	-7.9648
▁دم	-7.96694
اق	-7.97212
▁نحن	-7.97401
▁س	-7.97625
▁الحق	-7.98531
▁ز	-7.98601
▁عيني	-7.99858
▁اسمه	-7.99919
فت	-8.00131
▁فعل	-8.00178
▁مدن	-8.00339
عة	-8.00341
ست	-8.00914
▁ماذا	-8.00932
▁وراء	-8.01345
رض	-8.0139
▁رؤساء	-8.01508
▁واخذ	-8.01763
▁الي	-8.01795
▁عشرة	-8.01945
▁مجد	-8.02125
آ	-8.02324
قول	-8.02415
سكن	-8.02431
▁ير	-8.02504
بع	-8.02634
رح	-8.03251
▁ابنه	-8.03368
▁حينئذ	-8.03528
بة	-8.03635
▁يده	-8.03912
ئلا	-8.03994
دا	-8.04161
وي	-8.043
▁عنه	-8.04608
صب	-8.05379
▁الروح	-8.05435
صا	-8.05817
▁تكلم	-8.06326
▁نفسي	-8.06431
▁تن	-8.06466
▁فرعون	-8.06595
▁شر	-8.06705
ؤ	-8.06833
▁عليها	-8.06875
▁لانك	-8.07263
لت	-8.07653
عمل	-8.08115
▁يدي	-8.08223
▁وبنو	-8.08393
▁مدينة	-8.08673
قض	-8.08885
▁سمع	-8.08979
وح	-8.0904
▁سي	-8.09051
▁علي	-8.09189
▁اقول	-8.09192
▁فوق	-8.09775
▁الكلام	-8.09826
▁اليك	-8.09947
▁البرية	-8.10094
▁روح	-8.1083
جا	-8.12089
▁هرون	-8.1229
▁اليهود	-8.12381
▁وليس	-8.12891
در	-8.12907
▁راس	-8.12993
▁السنة	-8.13067
اس	-8.13378
▁حي	-8.13721
حفظ	-8.13793
▁هانذا	-8.14079
▁لن	-8.14093
ذبح	-8.1418
▁وس	-8.14264
▁حيث	-8.14686
▁آ	-8.14986
▁يوسف	-8.1501
▁وانت	-8.15087
▁الفا	-8.15329
فرح	-8.15415
▁است	-8.15792
له	-8.16501
عت	-8.16718
وت	-8.16786
▁ابراهيم	-8.16889
سم	-8.16989
▁المذبح	-8.17083
▁تر	-8.17355
▁عظيم	-8.17699
▁الطريق	-8.17844
صل	-8.1804
به	-8.18106
نة	-8.1869
▁واحدة	-8.19084
اني	-8.19173
▁اسم	-8.19309
▁لما	-8.19501
▁وأ	-8.19627
▁بيد	-8.19672
از	-8.19736
عبد	-8.19823
▁سبط	-8.19888
جم	-8.19934
وك	-8.19954
خل	-8.20003
▁اكثر	-8.2006
▁اخرج	-8.20515
سا	-8.20592
▁اع	-8.20635
وهم	-8.20837
▁اثم	-8.21502
▁سبع	-8.21534
▁والذي	-8.2164
▁فكان	-8.2224
عي	-8.22397
▁شعب	-8.22401
▁سيدي	-8.22614
ملك	-8.2269
▁الشعوب	-8.22758
▁وعمل	-8.22896
▁قو	-8.23015
▁يشوع	-8.23289
رك	-8.23389
تين	-8.23685
▁يس	-8.23755
خت	-8.23838
▁فن	-8.24187
هر	-8.24496
▁ار	-8.24689
حد	-8.24792
▁اش	-8.25319
جمع	-8.25451
▁باسم	-8.25541
▁معك	-8.25544
حل	-8.25623
▁الشهر	-8.2589
▁اذهب	-8.26189
قطع	-8.26203
▁كلم	-8.26336
▁ها	-8.26371
جن	-8.26618
▁مكتوب	-8.26872
هد	-8.26999
▁القدس	-8.27534
▁مس	-8.27688
▁خرج	-8.27824
▁الحقل	-8.27827
▁شيئا	-8.27927
قة	-8.27953
▁سبعة	-8.27972
▁بكل	-8.27984
▁والآن	-8.27996
▁اس	-8.28051
▁ثلاثة	-8.28356
▁صنع	-8.28374
▁الهنا	-8.28418
▁قتل	-8.28855
▁شعبي	-8.28862
▁لكل	-8.29025
اص	-8.29265
▁العالم	-8.29274
مل	-8.29319
▁اخذ	-8.29558
ضع	-8.29579
▁هنا	-8.29629
▁جعل	-8.29763
▁كيف	-8.29949
▁لحم	-8.2997
▁سيد	-8.30306
▁بيته	-8.3032
▁يخرج	-8.30388
فا	-8.30461
▁كلمة	-8.30506
▁بك	-8.30977
▁الح	-8.31128
سي	-8.31737
▁فلي	-8.3175
ورة	-8.31755
▁قلب	-8.31874
▁يعمل	-8.31897
▁وش	-8.32325
▁وكلم	-8.3261
▁يأتي	-8.32725
▁وجاء	-8.32835
▁لبني	-8.33061
▁وجعل	-8.33169
موت	-8.33418
▁را	-8.33567
▁ست	-8.33579
لة	-8.33892
▁ط	-8.33902
▁ثلاث	-8.34116
طر	-8.34124
▁الموت	-8.34427
▁الاردن	-8.34509
▁جهة	-8.34543
▁معي	-8.34611
صد	-8.34632
ايا	-8.34826
▁ماء	-8.34827
قص	-8.34853
شر	-8.35152
▁الج	-8.35321
رة	-8.35336
أكل	-8.35374
▁بي	-8.35449
▁خارج	-8.35584
▁وملك	-8.35696
▁متى	-8.35723
▁وكانت	-8.35984
كسر	-8.36072
شف	-8.36157
▁فضة	-8.36263
▁فم	-8.36603
▁الاول	-8.36775
ذل	-8.36846
▁قلبه	-8.36935
▁عبر	-8.37017
▁سر	-8.37031
▁واحدا	-8.37238
▁الرجال	-8.37383
▁الفلسطينيين	-8.37471
▁اخي	-8.37557
وج	-8.3772
▁وبعد	-8.3783
▁انك	-8.37889
▁المرأة	-8.37964
▁خيمة	-8.37968
لي	-8.3798
دع	-8.3826
▁وخ	-8.38294
▁بم	-8.38481
▁رأيت	-8.38504
دين	-8.38733
▁بلا	-8.38936
▁وذهب	-8.38937
▁الباب	-8.39235
▁الجميع	-8.39247
وث	-8.39253
ذهب	-8.39346
وص	-8.39365
لق	-8.39612
▁الهكم	-8.39673
▁النبي	-8.39791
▁اليكم	-8.40077
مت	-8.40117
▁البر	-8.40198
▁موآب	-8.40338
▁نصيب	-8.40343
▁قلت	-8.40348
قتل	-8.40395
ذر	-8.40551
▁خمس	-8.40629
▁يدخل	-8.40824
▁اعط	-8.40886
سمع	-8.40901
▁منهم	-8.40998
▁ولي	-8.41485
شبع	-8.41687
▁الجبل	-8.41723
شرب	-8.41739
ظل	-8.42135
▁اعمال	-8.42431
دعو	-8.42469
نزع	-8.43072
▁ابيه	-8.43549
▁غضب	-8.43579
▁عليكم	-8.43583
▁افرايم	-8.43672
حت	-8.43813
▁فانه	-8.43965
قيم	-8.43982
▁وضرب	-8.44006
▁آدم	-8.44063
بن	-8.44128
▁ملوك	-8.44652
▁ذبيحة	-8.4472
▁سكان	-8.44743
▁منذ	-8.45479
رام	-8.45546
▁مكان	-8.45609
▁وقالوا	-8.46045
▁ابني	-8.46269
وني	-8.4643
▁يفعل	-8.46484
▁اين	-8.465
خبر	-8.46766
▁قدس	-8.46926
في	-8.47249
رس	-8.4759
▁صهيون	-8.47818
لح	-8.47857
▁لداود	-8.48469
▁يعلم	-8.4867
رون	-8.48993
▁حص	-8.49146
▁اخ	-8.49174
جي	-8.49314
▁وارسل	-8.49369
▁وجد	-8.49576
طا	-8.49734
قف	-8.49734
طلق	-8.49991
فق	-8.50012
فعل	-8.50027
▁يسمع	-8.50301
صو	-8.50601
▁عبدك	-8.50706
▁يدك	-8.5076
▁يقتل	-8.51104
▁الاجتماع	-8.51108
▁ولل	-8.51165
▁اربع	-8.51451
▁دخل	-8.51658
هلك	-8.5174
عظ	-8.51905
▁وقت	-8.51939
▁يعرف	-8.5215
صنع	-8.52281
▁تت	-8.52376
▁الشمس	-8.52522
▁بنت	-8.52561
▁فاخذ	-8.52621
تكلم	-8.52666
▁فارسل	-8.52762
▁معا	-8.52885
▁كذلك	-8.53105
▁بطرس	-8.53145
▁قول	-8.53293
▁المياه	-8.53449
طف	-8.53851
▁بعض	-8.53854
تكم	-8.53954
▁اهل	-8.54011
▁بولس	-8.54093
▁فخرج	-8.54204
▁يب	-8.54226
زم	-8.54282
▁بع	-8.5447
▁اكل	-8.54707
كتب	-8.54956
سب	-8.55334
يئيل	-8.55467
▁الصد	-8.55587
حب	-8.5569
▁صعد	-8.55727
▁قر	-8.5578
▁فمن	-8.56165
▁والا	-8.56211
▁الشرير	-8.56368
خي	-8.56802
▁اشور	-8.56941
▁أم	-8.57027
أتي	-8.57035
بون	-8.57281
▁عظيمة	-8.5741
▁كن	-8.57493
▁خطية	-8.57832
حارب	-8.57875
جوع	-8.58368
▁وابن	-8.58381
▁وضع	-8.58535
▁كثيرا	-8.58552
▁رجلا	-8.58659
يه	-8.5866
صف	-8.58719
▁الاخوة	-8.58759
موا	-8.58838
شهد	-8.58865
دون	-8.58885
▁قلبك	-8.59111
▁وف	-8.59232
عال	-8.593
▁الناموس	-8.59309
تني	-8.59466
▁فجاء	-8.59481
بط	-8.59632
▁بهذا	-8.59725
▁كر	-8.59933
▁قوم	-8.60614
▁اصعد	-8.60637
▁الهي	-8.6067
يع	-8.60782
حيا	-8.60832
وة	-8.6085
▁الر	-8.60913
▁نعمة	-8.60939
▁ووضع	-8.61194
▁السيف	-8.61695
▁بيوت	-8.61736
▁حر	-8.61793
جد	-8.61926
▁النار	-8.61988
▁لد	-8.62026
▁والس	-8.62142
أت	-8.62162
بس	-8.62371
اث	-8.62387
▁وهي	-8.62418
▁بنيامين	-8.62431
▁أليس	-8.62447
▁عم	-8.62459
▁وقل	-8.62642
دفع	-8.62832
▁واذ	-8.62891
▁المن	-8.62999
▁الاشرار	-8.63179
هن	-8.63235
▁ونزل	-8.63237
عز	-8.6327
▁الفضة	-8.63295
▁الش	-8.63447
▁علينا	-8.63684
▁عبيد	-8.63896
▁اب	-8.63936
▁حق	-8.63946
حز	-8.63993
بني	-8.64126
▁الواحد	-8.6447
▁جانب	-8.64707
▁قريب	-8.64727
▁وخرج	-8.64837
ظهر	-8.65057
▁بنات	-8.65065
▁نفس	-8.65277
▁أمر	-8.65312
▁سلام	-8.65349
مون	-8.65359
▁مح	-8.65492
▁الجبال	-8.65555
▁فس	-8.65572
سجد	-8.65574
▁لانكم	-8.65663
وش	-8.65905
▁ابنا	-8.66029
▁فرح	-8.66085
عون	-8.66095
▁مقدس	-8.66167
إ	-8.66222
▁ارميا	-8.66249
ئيل	-8.66303
▁يموت	-8.66316
▁لو	-8.66354
▁خير	-8.66401
▁تابوت	-8.6661
حمل	-8.67018
▁الشمال	-8.67027
▁وجهه	-8.67029
▁السابع	-8.67038
▁قام	-8.67118
▁والب	-8.67189
▁لست	-8.67213
ارة	-8.67267
▁الجسد	-8.67274
▁افعل	-8.67594
▁جسد	-8.67602
▁الب	-8.6762
▁الآب	-8.67632
▁ليد	-8.6778
غني	-8.67818
▁كرسي	-8.6785
▁سمعت	-8.67918
ضل	-8.68042
رث	-8.68114
▁يقدر	-8.68196
▁فقالت	-8.68265
دوا	-8.68614
▁ملاك	-8.68653
قوا	-8.68901
▁رؤوس	-8.69158
▁ترك	-8.69172
▁الثاني	-8.69186
▁مذبح	-8.69207
▁ارام	-8.6945
▁الحرب	-8.69496
▁خبز	-8.69646
▁يوآب	-8.69771
▁قلبي	-8.69892
▁فهو	-8.70207
▁جلعاد	-8.70213
شد	-8.70291
▁معهم	-8.70319
▁سفر	-8.7032
▁اخت	-8.70411
ائي	-8.70453
▁ذكر	-8.70473
▁والع	-8.70493
▁سن	-8.70511
▁فقد	-8.7064
▁يمين	-8.70698
صعد	-8.70891
▁بكر	-8.70901
▁يتكلم	-8.70902
رو	-8.71078
▁فال	-8.71226
▁تقول	-8.71263
عن	-8.71439
▁الامر	-8.71475
فل	-8.71559
حو	-8.71598
▁عر	-8.71749
▁عز	-8.72013
▁الدم	-8.72079
سد	-8.72135
غي	-8.7218
جلس	-8.72264
▁وما	-8.72403
▁يصنع	-8.72567
▁الهيكل	-8.72729
حكم	-8.72838
▁عد	-8.72849
الآن	-8.72898
▁الجماعة	-8.72964
▁مات	-8.73093
▁اعطي	-8.73117
تنا	-8.73138
كثر	-8.73247
▁اولاد	-8.73291
أخذ	-8.73404
▁آلاف	-8.73507
▁يوجد	-8.73509
▁بسبب	-8.73509
▁نار	-8.7355
▁نفسك	-8.73571
نت	-8.73651
تعل	-8.73933
▁الكل	-8.74037
▁تح	-8.74059
▁وبيت	-8.74212
تان	-8.74237
▁واعط	-8.74364
▁الموضع	-8.74402
تعب	-8.74502
▁وتكون	-8.74724
▁اولا	-8.7479
▁يع	-8.74906
رسل	-8.74912
ثر	-8.74917
▁راسه	-8.74968
▁للم	-8.75168
▁واجعل	-8.7536
▁فقام	-8.75464
▁خل	-8.75517
▁صموئيل	-8.75625
دان	-8.75992
▁خبزا	-8.76085
▁الوقت	-8.76109
لبس	-8.76173
صير	-8.76263
▁وبين	-8.76304
▁سنين	-8.76597
هو	-8.76619
هب	-8.76727
▁ابا	-8.76762
جيب	-8.76838
عود	-8.76906
▁بالسيف	-8.76911
▁ادوم	-8.76944
▁النهر	-8.76947
▁عوض	-8.77339
▁صالح	-8.77417
▁اسمع	-8.77471
طلب	-8.77535
وط	-8.77668
▁الانبياء	-8.7778
▁آلهة	-8.7778
ارا	-8.7822
عب	-8.78239
▁المحل	-8.78338
دخل	-8.78374
▁كثير	-8.78386
▁ارت	-8.78395
▁بهم	-8.78395
لام	-8.78506
صرف	-8.78546
دة	-8.78637
▁السامرة	-8.78657
▁الساكن	-8.78658
عشيرة	-8.78703
نظر	-8.78725
▁تخم	-8.78734
▁اللاويين	-8.78734
▁أت	-8.78914
▁يست	-8.78984
▁رد	-8.7916
جز	-8.79189
▁خذ	-8.79547
▁المكان	-8.79576
▁ثمر	-8.79949
اش	-8.80071
▁وادي	-8.8016
بوا	-8.8025
▁يش	-8.80273
▁واسم	-8.80487
▁اليهم	-8.80593
▁اخو	-8.80651
▁عني	-8.80799
▁تقدم	-8.80863
▁ذراع	-8.80863
▁ضرب	-8.80863
▁داخل	-8.80892
▁فيكون	-8.80978
ونها	-8.8105
▁يجد	-8.8121
▁فعلت	-8.81224
▁خلاص	-8.81285
▁سيف	-8.81309
▁غنم	-8.81341
▁وسبع	-8.81362
لك	-8.8139
▁المدن	-8.81523
▁الذهب	-8.81538
▁واقام	-8.81574
▁بعيد	-8.81719
▁معكم	-8.81923
ء	-8.82253
ولا	-8.82254
▁قم	-8.82415
▁طرق	-8.82452
▁شعبه	-8.82698
▁حزقيا	-8.8275
▁يعطي	-8.82752
▁مياه	-8.82804
مثل	-8.82823
قسم	-8.82956
▁اخبر	-8.83023
▁انهم	-8.83057
▁تأكل	-8.83067
▁ملكوت	-8.83076
قوم	-8.83538
▁وهذه	-8.83585
▁قا	-8.83799
▁د	-8.83984
▁العظيم	-8.83995
▁وصل	-8.84143
▁يخ	-8.84181
ائر	-8.84321
قدم	-8.84541
▁وست	-8.84583
اط	-8.84672
▁الخطية	-8.84678
▁تلاميذه	-8.84685
جت	-8.84717
سلك	-8.84793
▁ايل	-8.84815
▁تفعل	-8.84855
▁فقط	-8.85323
▁امه	-8.85331
▁اجعل	-8.85333
▁اربعة	-8.85489
وجه	-8.8552
ده	-8.85708
▁خطايا	-8.85925
▁يوحنا	-8.85971
▁فل	-8.86022
▁اخرى	-8.86023
غش	-8.86051
مثال	-8.86067
▁المساء	-8.86104
ريح	-8.86284
▁عينيك	-8.86521
▁وانتم	-8.8682
▁حول	-8.86919
▁الجنوب	-8.86922
تسلط	-8.86923
▁بالنار	-8.86951
▁ودخل	-8.87027
حث	-8.8708
▁وخمس	-8.87101
قد	-8.87121
اتي	-8.87264
▁الماء	-8.87286
▁للملك	-8.87322
▁وحده	-8.87355
▁سا	-8.87357
▁آبائهم	-8.87359
▁ويل	-8.87602
▁جيش	-8.87643
▁كف	-8.87676
▁فب	-8.87757
▁الدهر	-8.87899
▁الحياة	-8.87928
▁ساكن	-8.87936
باب	-8.87961
حضر	-8.87969
▁اجاب	-8.88193
▁عمون	-8.88194
▁ومع	-8.88291
▁واخبر	-8.88355
▁عبد	-8.88374
دد	-8.88379
▁كلها	-8.88415
شب	-8.88422
▁المت	-8.88427
▁وعن	-8.88834
▁لنفسه	-8.88865
آب	-8.88901
▁صور	-8.89006
▁غل	-8.89087
▁نجس	-8.89124
▁عدد	-8.89151
▁اليها	-8.8924
▁اعطيت	-8.89467
حجارة	-8.89578
▁منس	-8.89728
▁تعمل	-8.89782
▁الايمان	-8.89833
▁الاثم	-8.89868
▁ابو	-8.89916
▁تعب	-8.89938
▁جعلت	-8.89958
▁قل	-8.90022
▁عين	-8.90076
▁وام	-8.90094
حسن	-8.90131
▁الليل	-8.9022
▁الحي	-8.90364
لون	-8.90491
هكذا	-8.9066
▁بقر	-8.90669
فض	-8.90699
مو	-8.90716
▁لنفسك	-8.90824
▁المقدس	-8.90945
عوا	-8.90954
▁اخطأ	-8.91448
▁احب	-8.91522
▁وق	-8.91551
ضرب	-8.91726
▁الصباح	-8.91824
▁عبيده	-8.91891
▁يأكل	-8.91927
▁سل	-8.91959
▁بحسب	-8.92016
▁تم	-8.92023
▁وصعد	-8.92048
▁ومات	-8.92187
▁فقالوا	-8.92274
قط	-8.92309
▁وهم	-8.92358
▁كثيرين	-8.92396
بال	-8.92554
▁والق	-8.93171
▁مكانه	-8.93392
▁أل	-8.934
▁الثالث	-8.93846
ائه	-8.93924
شجرة	-8.93938
▁والرب	-8.9396
بيت	-8.94064
▁مش	-8.94157
مجد	-8.94195
يس	-8.94463
فهم	-8.94735
▁موت	-8.94751
▁انفسهم	-8.94889
▁وهذا	-8.94931
عام	-8.95006
ره	-8.9512
▁اجر	-8.95199
▁اعلم	-8.95239
▁اقام	-8.95303
فة	-8.95559
ملأ	-8.95613
عر	-8.95718
▁وقتل	-8.95818
كثرة	-8.95888
▁مقابل	-8.95925
وز	-8.96204
▁انكم	-8.96242
ائل	-8.9629
▁نعم	-8.96438
▁الاله	-8.96469
أتوا	-8.96555
▁يطلب	-8.96783
طو	-8.96844
آنية	-8.96871
▁ووقف	-8.96998
▁حياة	-8.97056
▁امامك	-8.97095
ذب	-8.97129
▁صل	-8.9716
▁نسل	-8.9721
زرع	-8.9729
بو	-8.97305
▁اسمعوا	-8.97384
▁اسحق	-8.97411
▁كم	-8.97413
▁انظر	-8.97455
حلف	-8.97527
▁مد	-8.9768
▁جر	-8.97689
▁تصنع	-8.97787
▁حم	-8.97893
▁ميراث	-8.98041
▁أف	-8.98089
▁شعبك	-8.98096
▁وبنات	-8.9825
▁تعلم	-8.98361
عرض	-8.98377
▁يرجع	-8.98393
▁سب	-8.98701
تقدم	-8.98785
▁سلطان	-8.99118
▁كنعان	-8.99118
▁عينيه	-8.99121
لو	-8.99184
▁الغنم	-8.99217
▁عهد	-8.99233
▁عظيما	-8.99303
ليكن	-8.99491
بقية	-8.99522
▁ابشالوم	-8.99543
▁ذراعا	-8.99812
▁حسن	-8.99813
▁فأ	-8.99963
▁حجر	-9.00096
▁مج	-9.00162
▁السبت	-9.00407
▁وأت	-9.00424
▁ودعا	-9.0047
▁وحي	-9.00631
مالك	-9.00725
دن	-9.0086
▁سم	-9.00932
سكر	-9.01071
غير	-9.01123
▁قطع	-9.01136
صح	-9.01289
▁اذرع	-9.01313
▁قدم	-9.01776
▁بس	-9.01969
▁فذهب	-9.02024
كف	-9.021
▁يصعد	-9.02116
▁شرا	-9.02261
▁قالوا	-9.02336
▁نج	-9.02339
▁ارجع	-9.02385
▁مسكن	-9.02407
▁عيسو	-9.02413
▁الخارج	-9.02413
▁مبارك	-9.02414
▁الرابع	-9.0242
خرج	-9.02484
سير	-9.02485
▁تع	-9.0269
زا	-9.0275
▁وعند	-9.02791
▁نحاس	-9.02868
هلاك	-9.02873
▁قليل	-9.02876
▁واقف	-9.0317
▁سقط	-9.0342
▁تكلمت	-9.03551
▁النساء	-9.0358
▁وعشرين	-9.038
▁يربعام	-9.03906
طل	-9.03933
▁بار	-9.03967
▁جماعة	-9.03991
▁وصنع	-9.04058
▁بالرب	-9.04084
صرخ	-9.04319
ثق	-9.04368
▁يقوم	-9.04566
▁ملكا	-9.04603
ريب	-9.04625
▁بان	-9.04637
▁المحرقة	-9.04674
▁يوناثان	-9.04674
▁فقلت	-9.047
▁اذكر	-9.05043
▁معل	-9.05057
ائم	-9.05163
▁تخرج	-9.05209
▁المسكن	-9.05229
▁تعرف	-9.05319
امة	-9.05353
لع	-9.05413
زوج	-9.0542
▁ويقول	-9.05491
▁منها	-9.05555
ونني	-9.05657
▁حلف	-9.05711
▁يهو	-9.05758
▁يحب	-9.05836
▁وهرون	-9.05876
سحق	-9.05942
▁ايليا	-9.0596
▁سبي	-9.05976
▁الآخر	-9.05987
ناثان	-9.06188
▁تف	-9.06283
▁فدخل	-9.06353
▁كنتم	-9.06363
رفع	-9.06509
رش	-9.06539
▁نور	-9.06691
▁وقف	-9.06735
عبر	-9.06764
▁تسمع	-9.06813
تاج	-9.06934
نجس	-9.07054
خلاص	-9.07236
قلب	-9.07365
▁لبيت	-9.07371
يلة	-9.07398
▁اخوته	-9.07496
جتمع	-9.07619
▁واخوته	-9.07817
▁كثيرون	-9.08132
▁ياكل	-9.0814
▁محرقة	-9.08163
▁آمن	-9.08213
▁فاذا	-9.08361
جاز	-9.08372
▁اسمك	-9.08495
▁العلي	-9.08522
▁وعشرون	-9.08634
سقط	-9.08686
بنى	-9.08735
▁تكن	-9.08741
خير	-9.08794
▁ظلم	-9.08834
▁تدخل	-9.08851
▁نزل	-9.08853
قون	-9.0908
▁شيوخ	-9.09353
▁يم	-9.09408
▁وصار	-9.09436
متلك	-9.09475
▁مست	-9.09523
يء	-9.09606
يرة	-9.09623
▁تس	-9.09716
▁المح	-9.09801
▁ثياب	-9.09817
نطق	-9.09961
▁بما	-9.10047
▁ايديهم	-9.10115
ثمر	-9.10143
▁الشرق	-9.10224
▁لجميع	-9.1032
▁الاموات	-9.10562
▁الدار	-9.10635
▁شا	-9.10876
▁واع	-9.10936
▁عشائرهم	-9.11041
روا	-9.11045
▁منكم	-9.11147
▁للذي	-9.11249
▁حن	-9.11344
▁القلب	-9.11371
▁فدعا	-9.11491
▁حكم	-9.11516
▁رع	-9.11666
عيد	-9.11726
▁يذهب	-9.11767
▁قربان	-9.11782
لف	-9.11789
▁اسباط	-9.11792
▁زمان	-9.11845
▁اياه	-9.11851
فتخر	-9.11959
▁ومت	-9.12017
فكر	-9.12103
▁آتي	-9.1215
▁احكام	-9.12175
▁مل	-9.12496
▁المس	-9.12544
▁يأخذ	-9.12646
▁وابي	-9.12831
▁وط	-9.12893
يتها	-9.12913
▁دفع	-9.12948
▁دائما	-9.13011
▁ضيق	-9.13032
▁الكلمة	-9.13096
▁ولدت	-9.13212
▁ثيابه	-9.13384
▁جاءوا	-9.13454
آل	-9.13757
▁امور	-9.13788
خجل	-9.14093
مح	-9.14149
▁امامه	-9.14158
▁قوة	-9.14217
▁الامور	-9.14239
▁ينبغي	-9.14261
بصر	-9.14302
▁والارض	-9.1435
ركب	-9.1436
▁الغد	-9.14374
قدر	-9.14431
▁اذن	-9.1459
مشي	-9.14595
▁خشب	-9.14738
كيف	-9.1526
▁خمسة	-9.15304
▁بصوت	-9.1554
▁لموسى	-9.15549
حور	-9.15553
▁عظم	-9.15609
▁موضع	-9.15683
للوقت	-9.15712
ضطجع	-9.16018
قام	-9.16045
▁صنعت	-9.16112
نتظر	-9.16487
▁اج	-9.16656
طين	-9.16683
▁محل	-9.16739
▁اوص	-9.16777
بغض	-9.168
▁طوب	-9.16803
▁اخآب	-9.16838
▁وز	-9.16883
تموه	-9.16974
وئيل	-9.16995
▁نصف	-9.17197
هؤلاء	-9.17204
▁حقل	-9.17262
تقد	-9.17449
سبح	-9.17481
▁رجع	-9.17624
▁امامي	-9.17638
راس	-9.1772
▁عنده	-9.17811
▁حكمة	-9.17972
▁واب	-9.18075
▁امرأته	-9.1811
▁النهار	-9.18115
▁قسم	-9.18253
بتهج	-9.1827
▁سار	-9.1829
▁يعل	-9.18342
▁واست	-9.18373
▁ليست	-9.1844
شير	-9.18456
معرفة	-9.18532
▁وانظر	-9.18583
▁ويو	-9.18634
شاء	-9.18644
ايضا	-9.18692
▁فصعد	-9.1874
مسك	-9.18809
▁تأتي	-9.19059
▁وزن	-9.19389
▁يقولون	-9.19403
▁اعظم	-9.1943
▁فتكون	-9.19602
▁رم	-9.19654
▁صاحبه	-9.19693
▁ابواب	-9.19749
▁فتح	-9.19881
خو	-9.1992
طيور	-9.1993
▁جد	-9.20107
▁اياها	-9.20355
▁تعط	-9.20358
▁قدامه	-9.204
▁ورؤساء	-9.20757
▁الهاوية	-9.20757
▁آمين	-9.20765
▁مطر	-9.20915
فتح	-9.2094
▁تقدمة	-9.20974
▁يحفظ	-9.21136
▁آبائه	-9.21486
▁ادخل	-9.21502
يوس	-9.21522
▁لهذا	-9.21593
كشف	-9.21726
قال	-9.21828
غسل	-9.21865
▁صحيح	-9.22108
▁ههنا	-9.2213
▁سلاه	-9.22151
دفن	-9.22172
▁ويس	-9.22256
▁واخرج	-9.22498
مه	-9.22499
▁فضرب	-9.22631
▁كله	-9.2292
▁صف	-9.22972
▁عيون	-9.23072
بسط	-9.23388
▁لصوت	-9.23505
▁الملوك	-9.23566
▁ابنة	-9.23652
▁وغ	-9.23671
▁الجب	-9.23675
نحن	-9.23678
▁جاد	-9.2368
طلع	-9.23803
▁برية	-9.23962
▁اطلب	-9.24239
▁وقلت	-9.24256
امير	-9.24464
▁ورأ	-9.24591
شار	-9.24633
▁ابيك	-9.24649
وقد	-9.24651
▁عبيدك	-9.24669
▁وسل	-9.2473
▁بجانب	-9.24867
▁خيرا	-9.24869
بطل	-9.24873
▁الجليل	-9.24874
▁وجهك	-9.2489
▁وعبد	-9.24941
▁العهد	-9.25049
حمد	-9.25448
▁كرم	-9.25508
سخط	-9.2559
ؤمن	-9.25634
▁طلب	-9.25652
▁معنا	-9.25729
▁بقية	-9.25774
تنجس	-9.25932
▁جميعا	-9.26003
▁اسمي	-9.2611
▁اعين	-9.26193
▁شريعة	-9.26278
▁جئت	-9.26301
▁ليلا	-9.26352
▁كنا	-9.26502
▁يديه	-9.26508
▁دعا	-9.26559
▁دار	-9.26634
▁وار	-9.26657
▁واصعد	-9.26829
▁وقو	-9.27143
شكر	-9.27177
▁وجهي	-9.27187
قرية	-9.27239
▁بيده	-9.27353
▁ثوب	-9.27357
دل	-9.27478
▁وسمع	-9.27609
اصم	-9.27628
ذنب	-9.2768
▁دانيال	-9.27706
تضرع	-9.27719
▁يقبل	-9.27731
قضاء	-9.27794
▁وات	-9.27872
▁هلم	-9.27892
▁المر	-9.27991
▁والح	-9.28019
▁قلوبهم	-9.28033
▁اكون	-9.2814
▁يجعل	-9.28241
▁انها	-9.28505
▁الجمع	-9.28584
▁فسمع	-9.28649
▁جب	-9.28656
عجب	-9.28701
▁اصنع	-9.28719
▁امة	-9.28722
حكام	-9.2878
▁فد	-9.28818
مسح	-9.28968
▁يرى	-9.29083
▁رأوبين	-9.29154
▁عظام	-9.29159
▁ميخا	-9.29164
▁يف	-9.29187
▁فصار	-9.29194
▁اللذ	-9.29218
▁تز	-9.29221
▁السجن	-9.29297
نعم	-9.29402
▁عاد	-9.29618
▁لاوي	-9.29822
شتر	-9.29825
▁يسكن	-9.29848
▁ايدي	-9.29848
▁الخير	-9.3011
▁لأ	-9.30531
ائد	-9.30577
وخ	-9.30583
▁آباء	-9.30631
▁ارد	-9.3067
غيظ	-9.30723
▁يبق	-9.30846
▁بحر	-9.30899
▁جمع	-9.30902
▁احت	-9.31011
▁صاحب	-9.3111
▁نبي	-9.3115
تمرد	-9.31184
عاقب	-9.31285
هرب	-9.31328
غرس	-9.31337
صلاة	-9.31359
تنبأ	-9.31383
▁ربنا	-9.31389
▁يسقط	-9.31408
ذي	-9.31517
▁الأمر	-9.31585
▁سمعوا	-9.31694
▁اثنا	-9.318
فرس	-9.31831
▁نوح	-9.31873
▁عهدا	-9.31904
▁بعضا	-9.31994
▁الحكمة	-9.32021
▁للشعب	-9.32117
▁يسلم	-9.32241
▁العظيمة	-9.32271
▁الرؤساء	-9.32299
▁قلوبكم	-9.32321
▁ضد	-9.3234
▁وبال	-9.32356
▁مما	-9.32392
▁يوما	-9.3247
اؤك	-9.32553
▁اضطجع	-9.32674
▁فأخذ	-9.32817
ائك	-9.32839
مطر	-9.32884
▁الصالح	-9.3289
سكت	-9.32896
مدخل	-9.32935
▁ففعل	-9.33009
يات	-9.33082
▁هرب	-9.33128
▁وجدت	-9.33253
▁يسمعوا	-9.3329
حاكم	-9.33369
▁فمه	-9.33417
▁عمله	-9.33428
▁اول	-9.33499
▁حمل	-9.33614
▁قائلة	-9.33631
▁شعوب	-9.33632
▁المغنين	-9.33635
▁غريب	-9.33664
▁دان	-9.33686
لوا	-9.33746
▁فاعط	-9.33774
▁بارك	-9.3378
▁جز	-9.33962
جع	-9.33987
▁تخف	-9.34007
▁حل	-9.3401
قدس	-9.34144
▁هيكل	-9.34171
▁سأل	-9.34209
راعي	-9.34214
▁بينهم	-9.34302
▁ويع	-9.34478
▁سكن	-9.3449
▁وتكلم	-9.34536
▁تطلب	-9.34552
▁ارسلني	-9.34632
▁تست	-9.34671
▁حد	-9.34698
▁ورجع	-9.34959
▁بيتك	-9.34977
▁فمات	-9.35062
▁عشرين	-9.35133
حائط	-9.35171
▁حامل	-9.35174
▁للحرب	-9.35176
▁حبرون	-9.3519
▁بئر	-9.352
▁بشر	-9.35212
ائيل	-9.35307
▁اعرف	-9.35322
▁البقر	-9.35324
▁سك	-9.35325
▁بكلام	-9.35514
مئة	-9.35711
▁يكلم	-9.35763
▁بعل	-9.35867
▁تنظر	-9.36095
▁واس	-9.36151
ناداب	-9.36221
▁ينظر	-9.36231
فين	-9.36255
غرب	-9.36357
ادة	-9.36378
نحاس	-9.36456
صنا	-9.36527
طير	-9.36618
▁نير	-9.36631
▁جن	-9.36669
▁سو	-9.3669
▁الكلدانيين	-9.36732
▁الساعة	-9.36741
▁تخوم	-9.36744
▁مرض	-9.36744
▁نجسا	-9.36829
▁لسان	-9.36859
▁خوف	-9.37116
▁الفلسطينيون	-9.37158
▁وسي	-9.37216
اخذ	-9.37259
▁ليكون	-9.37284
▁مكر	-9.37439
جرب	-9.37447
▁عصا	-9.37485
▁تل	-9.37499
▁فكلم	-9.37589
▁محب	-9.37703
▁وسار	-9.37787
ائع	-9.37893
▁وقالت	-9.38068
▁يقف	-9.38208
▁يثبت	-9.38324
▁صغير	-9.38326
ضايق	-9.38349
جو	-9.3852
▁وثلاث	-9.38578
داء	-9.3875
▁وتصنع	-9.38793
▁ذبائح	-9.38888
▁باطل	-9.38903
▁ارفع	-9.39002
▁لهما	-9.39002
▁يعط	-9.39035
▁وعد	-9.39043
سأل	-9.39069
▁وراءه	-9.39089
▁ولو	-9.39189
فسد	-9.39226
▁ابر	-9.39463
جعل	-9.39574
قع	-9.39696
تقي	-9.39834
▁جمهور	-9.39933
▁حكيم	-9.39934
▁صانع	-9.39934
▁وحدث	-9.39939
▁القديسين	-9.3994
▁تاكل	-9.40002
▁حرب	-9.40005
بث	-9.40019
▁النفس	-9.4003
قرض	-9.40047
▁رحمته	-9.40098
▁ونظر	-9.40156
▁يضع	-9.40173
▁صو	-9.40188
▁ويجعل	-9.4023
▁يخطئ	-9.40277
▁لبنان	-9.40374
▁خرجت	-9.40527
بيع	-9.40579
▁صرت	-9.40585
▁الز	-9.407
▁عرفت	-9.40722
▁عملت	-9.4076
شفي	-9.40809
خبز	-9.4086
▁سمعان	-9.40942
▁اتكلم	-9.414
نوح	-9.41403
▁الخامس	-9.41572
▁طاهر	-9.41578
▁فريض	-9.41578
▁بالحق	-9.41578
▁مسح	-9.41612
▁ونصف	-9.41637
▁الريح	-9.41654
▁ابيمالك	-9.41655
▁تعلمون	-9.41719
▁الثلاثة	-9.41792
▁ارسلت	-9.41818
▁الخبز	-9.4186
▁ونح	-9.41893
▁الآباء	-9.41936
عش	-9.41973
قرأ	-9.41976
▁فاخبر	-9.41985
▁العمل	-9.42
اثنان	-9.42051
▁خدمة	-9.42072
▁بعضهم	-9.42091
▁طريقه	-9.42223
▁ابد	-9.42291
▁تدع	-9.42363
▁الاولى	-9.42515
ذكر	-9.42719
▁يهلك	-9.43064
▁غر	-9.43167
يهود	-9.43222
▁الاراضي	-9.43239
▁بجميع	-9.43239
▁السفينة	-9.43239
▁اريحا	-9.43259
▁وبارك	-9.43263
▁الفصح	-9.43316
▁وعبر	-9.43386
▁شهر	-9.43473
▁النور	-9.4349
خشب	-9.43847
▁يهوشافاط	-9.44177
▁السلام	-9.44244
جيء	-9.44267
▁اناس	-9.44317
▁عرف	-9.44331
غضب	-9.44367
بشر	-9.44437
▁غضبه	-9.44451
▁كاس	-9.44718
▁ميت	-9.44784
▁نبوخذن	-9.44933
▁المعدود	-9.44934
▁مزمور	-9.44935
▁سريعا	-9.44936
▁شكيم	-9.44938
▁الصخر	-9.44954
▁فماذا	-9.44974
▁اخيه	-9.45012
اطفال	-9.45038
▁فنزل	-9.45078
▁دور	-9.45134
علمون	-9.45265
شون	-9.45294
دهن	-9.45589
▁السبي	-9.45605
ساق	-9.45897
ودي	-9.45971
▁تأخذ	-9.45993
تراب	-9.46084
▁عبدي	-9.46189
▁اطلق	-9.46195
▁بطن	-9.46408
▁فرجع	-9.46453
▁ورفع	-9.46464
▁ظل	-9.46502
▁الملاك	-9.46504
▁المصريين	-9.46658
▁البهائم	-9.46659
▁وبر	-9.46661
▁الشريعة	-9.46662
▁يخبر	-9.46669
▁نساء	-9.4667
▁الضيق	-9.46679
حنطة	-9.46687
▁وشعب	-9.46721
▁ألعل	-9.46735
▁ينزل	-9.46736
▁ذو	-9.46749
شعر	-9.46812
▁انظروا	-9.46847
▁خارجا	-9.46851
▁اصل	-9.46881
▁الصبي	-9.46919
▁سرور	-9.47009
رتعد	-9.471
منظر	-9.47175
▁شد	-9.47212
▁دقيق	-9.4735
▁يؤمن	-9.47392
▁عندك	-9.4744
▁ابصر	-9.47463
رعى	-9.47613
▁الههم	-9.47701
هتف	-9.47704
▁وسجد	-9.47772
▁الجيش	-9.4781
▁عندكم	-9.47897
رى	-9.47973
▁وولد	-9.48219
▁اجمع	-9.48252
▁الاخ	-9.48253
▁علمت	-9.48367
▁يستطيع	-9.48413
▁دمشق	-9.48414
▁عابر	-9.48453
▁كاهن	-9.48473
▁لعل	-9.48485
▁التلاميذ	-9.48492
▁فرأ	-9.48505
▁عامل	-9.48514
▁جلد	-9.4863
طعم	-9.48655
▁شبه	-9.48668
▁وبني	-9.48675
▁قبر	-9.48785
▁حج	-9.48793
▁قدوس	-9.488
▁زيت	-9.48852
ذلك	-9.48953
دوس	-9.48969
▁يصل	-9.4917
▁شعبا	-9.49235
▁حلم	-9.49329
▁سيده	-9.49355
خزي	-9.49428
▁بكم	-9.49461
▁فمي	-9.49596
▁معرفة	-9.49654
▁اثنين	-9.49778
▁اد	-9.49834
▁وبنيه	-9.49864
▁ومس	-9.49867
ميت	-9.50002
▁وقام	-9.50024
▁ابوه	-9.50138
الكتبة	-9.50151
▁افكار	-9.50198
باد	-9.50202
▁باشان	-9.50204
▁فما	-9.50216
▁بسلام	-9.50228
▁شمعي	-9.50232
▁حمو	-9.50489
▁بد	-9.50565
▁افضل	-9.50579
ثقل	-9.50583
▁سلم	-9.50592
كلم	-9.50739
▁رفع	-9.50888
▁اراد	-9.51109
اربعين	-9.51142
▁يرفع	-9.51151
▁حولي	-9.51162
▁بنيه	-9.51289
▁الخمر	-9.51301
▁تش	-9.51459
▁تذهب	-9.51774
▁عينا	-9.5179
▁ظهر	-9.51831
▁ستة	-9.51852
▁تموت	-9.51959
▁عشائر	-9.5197
▁لاسرائيل	-9.52016
▁الخيمة	-9.52019
▁المملكة	-9.52023
▁مستقيم	-9.52056
▁طعاما	-9.52079
▁صرخ	-9.52102
▁ذاك	-9.52133
▁زرع	-9.52213
▁دعي	-9.52228
▁بينكم	-9.5226
لعنة	-9.52362
▁ايوب	-9.52416
▁فرائض	-9.52459
▁المعز	-9.52491
▁حجارة	-9.52519
وحوش	-9.52525
▁اسأل	-9.52562
▁وادخل	-9.52669
▁شاقل	-9.5272
▁ثورا	-9.52743
قاد	-9.5278
▁مرات	-9.52917
▁كلامي	-9.52935
▁ثور	-9.53161
▁وصايا	-9.53181
▁حسنا	-9.53185
صوم	-9.5339
خيل	-9.53547
▁وفر	-9.5358
نقذ	-9.53719
▁صراخ	-9.53869
▁نهارا	-9.53888
▁كبير	-9.53935
▁مشور	-9.5396
▁الابن	-9.53975
▁بالروح	-9.53991
▁بط	-9.54028
▁طرف	-9.5408
▁بق	-9.54103
▁الجيل	-9.54107
▁مسر	-9.5411
▁التراب	-9.54111
▁اللاويون	-9.54149
▁يقر	-9.54149
▁حو	-9.5426
حسب	-9.54307
خبار	-9.5431
▁الظلمة	-9.54561
كثير	-9.54598
▁وسكن	-9.54694
▁سور	-9.54717
▁نقي	-9.54782
عمود	-9.54838
▁عنك	-9.55005
ذبيحة	-9.55048
فني	-9.55107
▁عنهم	-9.55168
▁ابناء	-9.55252
▁البكر	-9.55254
▁عار	-9.5528
▁نارا	-9.55306
▁قليلا	-9.55384
▁يرد	-9.55494
▁تذكر	-9.55518
▁وسطهم	-9.55532
▁ناموس	-9.5554
حاج	-9.55543
ائهم	-9.55625
▁بيلاطس	-9.55755
▁فصاعدا	-9.55755
▁يوشيا	-9.55756
▁اليشع	-9.55758
▁انفسكم	-9.5576
▁خروج	-9.55792
▁يشرب	-9.55799
▁تقولون	-9.55849
▁قرع	-9.55912
▁وجلس	-9.56214
▁ياهو	-9.56377
▁المجمع	-9.56448
ريس	-9.5645
▁السور	-9.56525
اؤه	-9.56592
▁تقدر	-9.5662
فرز	-9.56762
▁وله	-9.5691
▁ففي	-9.57127
▁طول	-9.5725
حدر	-9.57342
▁يسير	-9.57375
▁ألم	-9.57477
▁فهي	-9.57493
▁يعطيك	-9.57525
▁اباه	-9.57537
جاب	-9.5761
شور	-9.57658
▁طعام	-9.57662
▁مردخاي	-9.57678
▁ابتدأ	-9.57678
▁ارتحلوا	-9.57678
▁فوجد	-9.57688
▁مملكة	-9.57691
▁العدو	-9.57697
▁غدا	-9.57698
▁بنفس	-9.57714
▁زوجة	-9.57717
ختار	-9.57877
لامام	-9.58039
▁ابنير	-9.581
زر	-9.58211
خضع	-9.58239
▁مريم	-9.58253
الفضة	-9.58273
▁فليس	-9.58292
▁نهر	-9.5831
▁شعر	-9.58311
▁السبعة	-9.58378
▁فتعلم	-9.58404
▁ياتي	-9.58451
غطاء	-9.5853
هناك	-9.58538
صيد	-9.58654
▁شاهد	-9.58709
▁سخط	-9.58814
لقاء	-9.58844
▁شم	-9.58853
▁الكتاب	-9.58856
▁تصير	-9.58885
▁اط	-9.58937
▁كلمت	-9.59077
▁وسطها	-9.59138
▁عنها	-9.5924
بعد	-9.5927
غار	-9.59302
▁يطلبون	-9.59372
▁ايمان	-9.59394
▁اضع	-9.59437
▁بقي	-9.59514
وبة	-9.59614
▁يقيم	-9.59619
▁بالايمان	-9.59639
▁المستقيم	-9.59639
▁لانفسهم	-9.5964
▁الكبير	-9.59643
▁اليمنى	-9.59644
▁بأس	-9.59653
▁جو	-9.59659
▁الزمان	-9.59659
▁رجاء	-9.59662
▁رفض	-9.59681
▁صدقيا	-9.59686
▁الاموريين	-9.59717
▁حديد	-9.59731
▁الليلة	-9.59732
▁البعل	-9.59834
▁يترك	-9.59857
▁فكانت	-9.59859
▁الوادي	-9.59871
▁ارجل	-9.59919
▁فخر	-9.59948
ذراع	-9.60005
▁حب	-9.60095
▁الرسل	-9.60162
خمسة	-9.60212
▁لش	-9.60247
▁المش	-9.60365
▁ذات	-9.60377
▁واربع	-9.6038
▁فتقدم	-9.60579
كونوا	-9.6069
▁لمن	-9.60728
▁واذهب	-9.60767
قش	-9.61049
▁ودفن	-9.61089
▁حوله	-9.61212
▁جالس	-9.61292
▁خمرا	-9.6134
▁وامر	-9.61365
▁والف	-9.61367
▁آسا	-9.61545
▁صنعة	-9.61549
▁فمك	-9.61609
▁شرك	-9.6161
▁رحبعام	-9.61638
متلئ	-9.6164
▁نفوس	-9.61642
▁بزيت	-9.61642
▁اقوال	-9.61655
▁القديم	-9.61655
▁لرجل	-9.6166
▁كذب	-9.61692
▁احفظ	-9.617
▁حواليها	-9.61719
▁القائل	-9.6172
▁رسلا	-9.61746
▁تعطي	-9.61777
▁عدو	-9.6182
مائدة	-9.61831
▁ابرام	-9.61836
▁فرق	-9.62178
كتان	-9.62212
▁جند	-9.62296
طول	-9.62309
اكر	-9.62415
هتاف	-9.62439
▁رجليه	-9.62513
▁ويهوذا	-9.6253
▁عيد	-9.62578
▁وثلاثين	-9.62687
▁ذنب	-9.62751
▁المحبة	-9.62828
▁حقا	-9.62974
▁ثماني	-9.63113
▁مخل	-9.6312
كرز	-9.63129
ولد	-9.63136
▁يحل	-9.63241
▁واعطاه	-9.63287
صبر	-9.63369
▁اخا	-9.63632
▁محرقات	-9.6368
▁الشهادة	-9.6368
▁وآخر	-9.63682
▁رآه	-9.63687
▁بركة	-9.63759
خفي	-9.63806
فحص	-9.63809
▁اولئك	-9.63833
▁يفهم	-9.63863
▁ومعه	-9.63876
▁شق	-9.63976
▁بلعام	-9.63987
▁السفر	-9.64011
رجعوا	-9.64027
▁وتخ	-9.64039
ترنم	-9.64083
▁وخر	-9.64101
▁خزي	-9.64222
▁فات	-9.64546
▁وسب	-9.6465
▁يكونون	-9.64657
▁اخذت	-9.64729
▁الكنيسة	-9.64755
▁اقسم	-9.64764
عيش	-9.64874
▁بذهب	-9.64941
▁سائر	-9.65028
▁تسع	-9.65082
▁يدعى	-9.65427
وزن	-9.65458
▁واعطي	-9.65494
▁وجمع	-9.65504
▁طرقه	-9.65536
▁احدا	-9.65595
▁مملوء	-9.65763
▁التخم	-9.65766
▁يفن	-9.65777
▁الثامن	-9.65791
▁حبيب	-9.6581
▁الهه	-9.65817
▁الشيوخ	-9.65839
رئيس	-9.65856
▁الداخلي	-9.65981
▁المجد	-9.65987
خدام	-9.66073
▁ضربة	-9.66105
▁ألا	-9.66151
▁انقذ	-9.6632
فصل	-9.66444
▁تجعل	-9.6645
▁بكثرة	-9.66503
يفة	-9.66526
▁التابوت	-9.66636
▁يسمعون	-9.6665
▁وعشر	-9.66787
▁وعز	-9.66812
▁البار	-9.67068
▁يقدم	-9.67139
حكمة	-9.67159
ملاك	-9.67192
▁يصير	-9.67267
▁ولك	-9.67388
▁نسلك	-9.67483
▁وقود	-9.67486
▁وقطع	-9.67703
▁وسطك	-9.67872
اسمانجوني	-9.6789
▁يهوياداع	-9.6789
▁الصغير	-9.67897
▁رائح	-9.67898
▁الغلام	-9.67899
▁ارتفع	-9.67899
▁نهاية	-9.67911
تبرر	-9.67952
▁لابان	-9.68042
▁وعاش	-9.68062
▁ومجد	-9.68074
▁اعداء	-9.68074
▁تحفظ	-9.68153
تقدس	-9.68166
▁وطلب	-9.68224
▁الغرب	-9.68263
▁لملك	-9.68354
▁ارضهم	-9.68391
▁فسأل	-9.68415
▁وارض	-9.68418
▁شو	-9.68475
▁الثانية	-9.685
تعظم	-9.68529
ساب	-9.68559
هذه	-9.68569
▁ودفع	-9.68583
آثام	-9.686
▁يحمل	-9.68603
▁ريح	-9.68789
▁ابنك	-9.68843
▁الجالس	-9.68873
يقين	-9.69287
تمسك	-9.69641
لباس	-9.6988
▁خرب	-9.69898
▁ومسارحها	-9.70064
▁ومسرحها	-9.70064
▁الآلهة	-9.70065
▁دخول	-9.70065
▁اعدائك	-9.70072
ارتفاع	-9.70075
▁نعلم	-9.70076
▁اعدائي	-9.70078
▁سام	-9.70109
تغرب	-9.70147
▁الشيطان	-9.70185
▁اخوتي	-9.7029
تراء	-9.70307
▁الغريب	-9.70358
▁الحجر	-9.70378
▁يجب	-9.70383
▁القفر	-9.70396
باط	-9.70547
▁اخاه	-9.70616
▁اليهودية	-9.7062
▁اصحاب	-9.70689
▁سوف	-9.70792
▁حز	-9.70817
▁عبده	-9.70825
▁الينا	-9.70848
▁انسانا	-9.70895
▁اخترت	-9.70982
▁اختار	-9.7103
▁كلامك	-9.7104
▁عنكم	-9.71092
▁احسن	-9.71125
▁السلامة	-9.71409
▁عبيدا	-9.71487
▁باسمي	-9.71592
▁تعال	-9.71881
خراب	-9.72035
▁حواليه	-9.7209
ثور	-9.72141
▁عينه	-9.72165
ثمانية	-9.72227
▁ثانية	-9.72287
▁جديدة	-9.72288
▁مركبات	-9.72288
▁الكاتب	-9.72288
▁غنيمة	-9.72289
▁سدوم	-9.7229
▁مشيئ	-9.72293
▁اصنام	-9.723
زعزع	-9.72307
▁بالحري	-9.72309
▁تسمعوا	-9.72323
▁الضربة	-9.7233
▁خرابا	-9.72331
▁جبعة	-9.72348
▁فأتى	-9.72357
ضحك	-9.72362
▁اسفل	-9.72365
▁ضعف	-9.72379
طالب	-9.72394
▁وتجعل	-9.72569
▁اريد	-9.72629
▁اياما	-9.72768
▁مز	-9.72789
▁يريد	-9.7283
▁نظر	-9.72841
▁بماء	-9.7303
▁بدم	-9.73063
▁احمد	-9.73086
▁فش	-9.73113
لتكن	-9.73205
▁فهم	-9.73236
فرق	-9.73403
مدينة	-9.7341
▁خيل	-9.73441
سق	-9.73547
▁قدامك	-9.73557
▁يضرب	-9.73606
▁الراس	-9.7362
▁تتكلم	-9.74057
▁ترت	-9.74207
▁وسقط	-9.74257
▁الثور	-9.74302
▁بالع	-9.74331
زهر	-9.74391
نبت	-9.74518
▁خزائن	-9.74559
كبرياء	-9.74561
▁قائم	-9.74579
▁الآتي	-9.74629
انسان	-9.74674
▁قيل	-9.74687
الحديد	-9.74812
▁فاجتمع	-9.7487
▁جبال	-9.74895
▁استير	-9.74936
▁لاسم	-9.7494
▁كسر	-9.74971
▁روحي	-9.7498
▁اقترب	-9.75016
▁فاست	-9.75033
▁وخذ	-9.75078
▁تحب	-9.75101
طال	-9.75139
▁عندي	-9.75144
▁وقر	-9.75196
▁كس	-9.75214
▁فلن	-9.75313
▁ثلاثين	-9.75354
▁فهل	-9.75585
▁خربة	-9.75655
▁والص	-9.75769
▁أتى	-9.75826
▁يبصر	-9.75858
▁ونج	-9.75925
رمي	-9.76019
▁حال	-9.76129
▁باطلا	-9.76207
دور	-9.76235
يمين	-9.76239
▁خبر	-9.76432
▁وزنة	-9.76463
فضل	-9.76567
نتقم	-9.76596
حرس	-9.76633
▁كلمات	-9.76671
▁الاقداس	-9.76885
▁مساكن	-9.76886
▁السادس	-9.76886
▁تثبت	-9.7689
▁كهنة	-9.76907
▁القدوس	-9.76944
▁يسر	-9.76983
▁عدا	-9.76988
شرق	-9.77062
لتمس	-9.77151
▁الغضب	-9.77206
▁الاولاد	-9.77445
ساعد	-9.77603
▁يخلص	-9.77691
▁اشتر	-9.77756
▁نذر	-9.77761
سفك	-9.7781
▁كلهم	-9.77814
▁خمر	-9.77838
▁تنبأ	-9.78057
▁ترى	-9.78624
▁وهرب	-9.78648
غلب	-9.78862
▁وصرخ	-9.79037
قترب	-9.79093
▁بت	-9.79137
جاع	-9.79167
▁يعود	-9.79212
▁الولد	-9.79225
▁المرتفعات	-9.79266
ضطهد	-9.79268
▁يبارك	-9.79276
اغصان	-9.79278
▁وقراها	-9.79279
▁هامان	-9.79291
متحن	-9.79346
▁كلاهما	-9.79403
▁اللحم	-9.79412
▁اشهر	-9.79426
▁ابدية	-9.79434
▁الخيل	-9.79443
حينئذ	-9.79484
▁در	-9.79587
▁بهذه	-9.797
▁البشر	-9.79735
▁دعوت	-9.79736
▁القبر	-9.79823
▁اشعياء	-9.79842
▁آية	-9.79851
فتش	-9.79888
▁ومل	-9.79985
▁قط	-9.80064
▁خاف	-9.80094
▁القضاء	-9.80099
▁الواحدة	-9.80105
▁فسقط	-9.80107
▁سلامة	-9.80107
▁ياخذ	-9.80182
▁لج	-9.80263
▁لهرون	-9.8029
رواق	-9.80415
قاتل	-9.8043
عتمد	-9.80454
▁اشير	-9.80528
▁يمسك	-9.80607
شأ	-9.80732
▁وسأل	-9.8077
▁يسلك	-9.80855
حيوان	-9.8086
▁رئيسا	-9.80882
▁اكتب	-9.80914
نجح	-9.81002
▁يجلس	-9.81044
▁بالاق	-9.81241
▁اجتمع	-9.8151
▁حيوان	-9.81623
▁نفتالي	-9.81705
▁هيرودس	-9.81705
▁المسكونة	-9.81705
▁راحيل	-9.81705
ستهزئ	-9.81706
▁اقداس	-9.81706
▁وكبش	-9.81711
▁لنفسي	-9.81714
▁وبيوت	-9.81716
▁خطيته	-9.81719
▁واحرق	-9.81732
▁فارس	-9.81755
▁ملعون	-9.81755
دخان	-9.81767
تألم	-9.81799
▁واورشليم	-9.81826
▁وصية	-9.81826
طاع	-9.81834
بخور	-9.81902
▁مضى	-9.81944
▁راسي	-9.8202
الكهنة	-9.82035
▁غلام	-9.82042
▁امك	-9.82223
▁تعملوا	-9.82231
قليل	-9.82261
▁النحاس	-9.82277
▁وناد	-9.82321
فطن	-9.82372
▁اوصيك	-9.82489
▁فصرخ	-9.82568
▁اسماء	-9.82585
▁جسده	-9.82587
ترس	-9.82629
▁امين	-9.82638
▁انتظر	-9.82641
ناموس	-9.82681
▁فنظر	-9.82822
عوج	-9.82836
▁كتاب	-9.82856
▁وتقدم	-9.82961
▁وصاياك	-9.83094
▁وفعل	-9.83138
قبض	-9.83148
▁يعبر	-9.83166
▁لستم	-9.83181
▁يحسن	-9.83196
▁عملها	-9.83245
▁يعد	-9.83503
▁شفتي	-9.83556
▁الكرم	-9.83601
▁تجد	-9.83629
▁كالب	-9.83643
▁ذبح	-9.83708
▁واخت	-9.83759
▁خمسين	-9.83763
▁اصاب	-9.8395
ميل	-9.83959
▁سبق	-9.84113
▁الفهم	-9.84141
▁الجلجال	-9.84205
▁اسماعيل	-9.84205
▁ويعقوب	-9.84205
▁بغتة	-9.84206
▁مستدير	-9.8421
استقامة	-9.84213
شهادات	-9.84213
▁انفسنا	-9.84214
▁انبياء	-9.8422
▁خيام	-9.84237
▁النعمة	-9.84239
▁خائف	-9.84243
▁مبغضي	-9.84287
▁وصوت	-9.84299
▁وطرح	-9.84315
▁بالكذب	-9.84363
▁قف	-9.84367
▁شاقلا	-9.84453
▁العين	-9.84606
▁كوش	-9.8477
▁اذهبوا	-9.84887
▁واسحق	-9.84894
▁يدعو	-9.85029
▁ولكل	-9.8505
▁فمض	-9.85096
▁ابغض	-9.85144
شديد	-9.85266
▁وحل	-9.85321
▁صباحا	-9.85382
▁ويشرب	-9.85437
▁وخمسين	-9.85533
▁وثلاثون	-9.85554
جثث	-9.85643
▁اعطاه	-9.85665
فلت	-9.85674
▁رفعت	-9.85697
▁السحاب	-9.85733
كذلك	-9.85783
▁الاربع	-9.85814
زيد	-9.85886
▁وعر	-9.85924
▁دخلت	-9.85957
▁قلوب	-9.86005
العشرين	-9.86187
▁اجد	-9.86449
▁سمعتم	-9.86504
▁يطلق	-9.86511
▁وشم	-9.86546
▁الرئيس	-9.86556
قيس	-9.86567
▁يرسل	-9.86674
▁معها	-9.86745
تحول	-9.8676
كروبيم	-9.86769
▁الاشياء	-9.86769
▁بشيء	-9.8677
▁مزمع	-9.8679
▁لشعب	-9.86798
قضيب	-9.86801
▁اسرع	-9.86816
▁التقدمة	-9.86819
العبراني	-9.86874
▁جناح	-9.869
بائس	-9.86933
▁ونس	-9.86962
▁اسلم	-9.86979
▁بكلمة	-9.86999
▁حدث	-9.87028
▁المشرق	-9.87045
الرحمة	-9.8706
سلب	-9.87072
▁الجاهل	-9.87273
▁ترجع	-9.87278
كذب	-9.87419
قيامة	-9.87426
▁غضبي	-9.87455
شاي	-9.87461
▁لملوك	-9.87511
▁فهرب	-9.8752
تشدد	-9.87551
▁يدع	-9.87599
▁رحمة	-9.87605
ابطال	-9.87618
رنم	-9.87645
▁امامهم	-9.87673
حمق	-9.87689
▁وكال	-9.87993
▁برج	-9.88063
▁تقل	-9.88107
▁بنين	-9.88107
صغر	-9.88123
لذلك	-9.88323
▁وحمل	-9.88332
انفس	-9.88341
▁فوقف	-9.8869
▁شبا	-9.88696
▁عدل	-9.88772
نفخ	-9.88912
▁وسمعت	-9.88968
ائب	-9.89179
▁سال	-9.89233
▁نصب	-9.89275
▁سمعنا	-9.89363
▁واللاويين	-9.894
▁ذنوب	-9.894
▁تسبيح	-9.89401
طمئن	-9.89401
▁لانفسكم	-9.89401
▁شهادة	-9.89402
▁الابواب	-9.89403
▁اثنتي	-9.89404
▁ذاهب	-9.89405
▁الجموع	-9.89407
▁ملتوت	-9.89414
▁وسكان	-9.89418
▁القتال	-9.89427
▁وشر	-9.89428
▁ووجد	-9.89433
▁رحمتك	-9.89478
ذهاب	-9.8949
▁مدينته	-9.89524
بتلع	-9.896
▁كتبت	-9.89606
▁الغرباء	-9.89618
▁امسك	-9.89683
▁آكل	-9.89706
حسان	-9.89728
▁وذبح	-9.89763
▁دعوا	-9.89767
▁بلاد	-9.8978
▁فاخرج	-9.89791
▁حارس	-9.89854
شتا	-9.89898
▁ذي	-9.89953
لذبيحة	-9.90029
▁كامل	-9.90109
▁ورأيت	-9.90204
▁ورد	-9.90217
▁محبة	-9.903
▁يخل	-9.90331
▁الاثني	-9.90494
▁اعد	-9.90547
▁امامكم	-9.90577
▁وأمر	-9.90621
▁يبغض	-9.90638
▁اصغ	-9.90851
▁فاذ	-9.91007
▁حزن	-9.91253
▁دب	-9.91383
▁يحيا	-9.91595
▁وخمسون	-9.91779
▁يأكلون	-9.91895
▁وابتدأ	-9.92103
▁جبابرة	-9.92103
▁واسرائيل	-9.92103
▁بيسوع	-9.92104
▁الحكيم	-9.92109
▁قادش	-9.92111
▁القدير	-9.92111
رسالة	-9.92115
▁الحكماء	-9.92118
اعمدة	-9.92118
نجاسة	-9.92124
▁فخذ	-9.92125
▁جبعون	-9.92145
لاعمال	-9.9215
▁اترك	-9.92151
▁الجلد	-9.92192
زداد	-9.92199
لجميع	-9.92235
▁الرامة	-9.92272
▁المسكين	-9.92286
صفح	-9.92351
▁الكنعانيين	-9.92357
▁طرح	-9.9237
▁يقطع	-9.92509
▁عشب	-9.92511
▁اخوة	-9.92605
▁نبو	-9.92773
▁قرون	-9.92855
لد	-9.92877
▁لابن	-9.92898
▁عهدي	-9.92933
ملائكة	-9.92939
▁جث	-9.92952
▁يحسب	-9.92983
▁الابدية	-9.931
▁عيب	-9.93113
▁وتحت	-9.93155
▁عزر	-9.93191
▁يطرد	-9.93207
▁وكتب	-9.93352
▁آذان	-9.93354
▁وغش	-9.93357
▁وتبع	-9.93553
حراسة	-9.93659
ائح	-9.93671
▁فدع	-9.93705
▁عبدا	-9.93712
▁بحد	-9.93902
▁الظلم	-9.93917
▁تعد	-9.93922
▁وحم	-9.9403
▁الملائكة	-9.94037
▁طرد	-9.94167
▁الكذب	-9.94211
▁بفرح	-9.94246
خطئ	-9.9431
▁والشر	-9.94338
▁ابوابك	-9.94444
▁لوط	-9.94478
خدع	-9.94578
▁حشبون	-9.94881
▁مذابح	-9.94881
▁زبولون	-9.94881
▁الموجود	-9.94881
▁صادق	-9.94882
كنائس	-9.94889
▁الكروب	-9.9489
▁الثالثة	-9.94896
▁امصيا	-9.94896
▁يأتون	-9.94901
▁خراف	-9.94904
▁شمعون	-9.94911
▁مديان	-9.94913
▁الارامي	-9.94918
▁خادم	-9.94932
▁جدعون	-9.94938
▁حماة	-9.9494
▁ومضى	-9.9495
▁ساعة	-9.95
▁تجار	-9.95001
▁نازل	-9.95006
▁جمال	-9.95013
▁تترك	-9.95049
▁الوحش	-9.95069
▁اعمل	-9.95173
▁عالي	-9.95178
زلزل	-9.95202
▁مختار	-9.95397
▁وشرب	-9.95489
▁تريد	-9.95571
▁وسم	-9.95605
▁يفرح	-9.95701
تواضع	-9.95765
▁مقدسة	-9.9581
▁ممالك	-9.95823
▁يسأل	-9.95935
▁واكثر	-9.95961
▁تخافوا	-9.95978
شقق	-9.95999
دهش	-9.96012
▁بماذا	-9.96036
▁يغسل	-9.96124
▁صلب	-9.96127
▁سبب	-9.96152
▁يفتح	-9.96156
▁العاز	-9.96206
▁برجل	-9.96218
▁ارز	-9.96263
زعج	-9.96301
▁خلق	-9.96313
راري	-9.96443
روت	-9.96603
▁وولدت	-9.96605
▁ولت	-9.96631
▁تصعد	-9.96715
▁وسجدوا	-9.9683
▁جالسا	-9.96848
▁واخي	-9.96861
▁تحمل	-9.96908
▁واكل	-9.96911
▁حمي	-9.9696
▁السبع	-9.97087
▁يظهر	-9.97092
▁اخوتهم	-9.97231
وضع	-9.97319
▁نسي	-9.97348
جاد	-9.97355
▁طوله	-9.97363
▁لابراهيم	-9.97738
▁زكريا	-9.97738
▁المصفاة	-9.97738
▁آحاز	-9.97739
▁الاحياء	-9.97739
▁يزرعيل	-9.97739
▁والشعب	-9.9774
▁لبعض	-9.97742
▁حاشا	-9.97743
▁خروف	-9.97754
▁الفقير	-9.9776
▁أعطي	-9.97765
▁يمكن	-9.9777
▁وملوك	-9.97779
▁للقائه	-9.97783
▁عالم	-9.97838
▁للانسان	-9.97991
▁بدون	-9.98058
تموني	-9.98071
▁يتبع	-9.98112
▁وذبائح	-9.98202
الخراف	-9.98212
▁يونان	-9.98231
▁الاسد	-9.98233
عجلة	-9.98297
▁رجعت	-9.98335
▁حياته	-9.98436
▁واضطجع	-9.98452
▁وشب	-9.98498
▁ويد	-9.9861
فتكر	-9.98689
▁ويأخذ	-9.98756
ظالم	-9.98768
▁وامسك	-9.98783
▁حفر	-9.98821
▁لاله	-9.9886
▁وحارب	-9.98899
▁سبت	-9.99037
▁يلق	-9.99169
▁الحصاد	-9.99174
▁يعرفون	-9.99226
▁جهت	-9.99229
نسل	-9.9932
ثام	-9.99341
▁والحق	-9.994
▁ويضع	-9.99435
سنة	-9.99444
▁علامة	-9.99446
نجوم	-9.99468
زرا	-9.99487
▁حلق	-9.99535
▁رمم	-9.99556
▁آخذ	-9.99575
▁اذني	-9.99639
▁منظر	-9.99765
▁كاملا	-9.99942
▁الزيت	-9.99958
▁القاتل	-10.0007
▁وصاياه	-10.0013
▁رؤوسهم	-10.002
▁وجوه	-10.0028
▁وقع	-10.0034
جيش	-10.0055
ستعبد	-10.0056
ثوب	-10.0059
▁الرؤيا	-10.0068
▁امتلأ	-10.0068
▁شمشون	-10.0069
▁للرجل	-10.0069
دائرة	-10.007
▁اوريا	-10.0074
▁الرداء	-10.0076
فقراء	-10.0077
▁يتكلمون	-10.0083
عمق	-10.0084
▁رجس	-10.0085
▁مرتفعات	-10.0086
▁ابديا	-10.0088
امتعة	-10.0089
مغارة	-10.0098
▁اكمل	-10.0103
▁احببت	-10.0116
▁يبني	-10.0125
▁وزيت	-10.0137
▁ارجعوا	-10.0154
قطيع	-10.016
حبلت	-10.0164
الاربعة	-10.0177
▁العشر	-10.0178
▁اخطأت	-10.018
▁شهود	-10.0182
▁واوص	-10.0185
▁وسطكم	-10.0193
أمر	-10.0199
▁رعب	-10.0202
▁وتقول	-10.0216
▁هما	-10.0231
لواتي	-10.0244
▁عيناك	-10.0246
▁وحسب	-10.0248
▁تخاف	-10.0254
خطية	-10.0267
▁تعود	-10.0275
▁اثني	-10.0283
تغط	-10.0297
▁فرائضي	-10.0297
▁تهلك	-10.0307
▁واربعين	-10.0317
طردهم	-10.032
▁واقفا	-10.033
حطم	-10.0365
▁تضع	-10.0371
▁ليعقوب	-10.0371
▁يوآش	-10.0371
▁وعجائب	-10.0371
▁عماليق	-10.0371
▁اجتاز	-10.0371
▁اشجار	-10.0371
▁سعير	-10.0371
▁فولدت	-10.0372
▁قيصر	-10.0372
▁سيحون	-10.0372
▁اخزيا	-10.0373
▁طلبت	-10.0375
▁فهذا	-10.0376
▁آيات	-10.0381
جدليا	-10.0382
▁فضلا	-10.0383
▁اسوار	-10.0383
▁فكل	-10.039
▁استيقظ	-10.0392
▁جميل	-10.0393
▁ولبني	-10.0394
▁وملأ	-10.04
صمت	-10.0401
▁اعدائهم	-10.041
▁مخدع	-10.041
نتخب	-10.0423
▁اوصيت	-10.0428
▁حبل	-10.0445
▁فدور	-10.045
▁فاسمع	-10.0453
▁زنا	-10.0454
▁وقلب	-10.0461
▁بالله	-10.0484
▁واربعون	-10.0503
▁وترك	-10.0514
▁الاخير	-10.0515
▁مسيح	-10.0518
قهات	-10.0519
▁صادوق	-10.0523
▁وجب	-10.0526
▁ثلث	-10.0534
▁والذهب	-10.0546
▁الفلسطيني	-10.0549
▁قوته	-10.0552
▁واقطع	-10.0559
▁يحكم	-10.0605
▁تقوم	-10.0608
لخدمة	-10.0637
▁فعمل	-10.0639
▁تشدد	-10.0641
▁سارة	-10.0644
▁آبائنا	-10.0683
▁الخطايا	-10.0683
▁عجائب	-10.0683
▁لفرعون	-10.0684
▁الفتاة	-10.0684
▁سيناء	-10.0685
▁الوسط	-10.0687
▁للامم	-10.0687
▁رديء	-10.0688
عوبيد	-10.0688
▁اتبع	-10.069
▁الوعر	-10.0692
▁ويعطي	-10.07
▁ورجل	-10.0705
لاحظ	-10.0706
▁يكف	-10.0706
▁الشحم	-10.0708
▁واقم	-10.0713
راقب	-10.0714
▁واسمع	-10.0716
▁آبائكم	-10.0723
▁العدل	-10.0726
▁فوضع	-10.0727
▁وانقذ	-10.0738
▁ولست	-10.0745
▁غز	-10.0752
▁يزيد	-10.0759
▁اعينكم	-10.0766
▁ويخرج	-10.0768
▁شرير	-10.0769
هوشع	-10.077
▁صخرة	-10.0772
▁لتكون	-10.0778
▁وحق	-10.0794
▁فرفع	-10.0796
▁وبقر	-10.0797
▁يذكر	-10.0798
▁الحال	-10.0804
▁افن	-10.0809
▁للموت	-10.0811
▁عيونهم	-10.0822
جاوب	-10.0823
ياس	-10.0832
▁وكثير	-10.0848
طرب	-10.0888
▁رحم	-10.0892
▁واخو	-10.0912
▁يناد	-10.0927
▁برص	-10.0941
▁اقيم	-10.0943
لسلام	-10.0953
▁اتكل	-10.0964
▁تقتل	-10.0966
شتهي	-10.0975
▁تعرفون	-10.1001
نبوخذراصر	-10.1006
▁احشويروش	-10.1006
▁واللاويون	-10.1006
▁يهوياقيم	-10.1006
▁وبنيامين	-10.1006
▁ابليس	-10.1006
▁خيمته	-10.1006
▁الحيوانات	-10.1006
▁الوجوه	-10.1007
▁الظلام	-10.1007
▁غنى	-10.1008
▁فراش	-10.1008
▁شديدة	-10.1009
▁الكثيرة	-10.1009
▁رسول	-10.1011
▁اقصى	-10.1012
▁الوراء	-10.1015
تبارك	-10.1017
عشار	-10.1023
▁قورح	-10.1028
اماكن	-10.104
▁اكليل	-10.1041
▁مراري	-10.105
وجع	-10.106
▁شحم	-10.1062
جرح	-10.1062
اغفر	-10.1064
▁اخوتكم	-10.1064
▁وجوههم	-10.1072
▁حفظت	-10.109
▁سبل	-10.1102
▁وامه	-10.1105
▁ينقذ	-10.1111
▁حط	-10.1126
طار	-10.1136
▁والام	-10.115
▁وعاد	-10.1152
▁ولماذا	-10.1158
▁اجتمعوا	-10.1166
فتحت	-10.1196
شيش	-10.1198
السهل	-10.12
▁عصي	-10.1204
▁ليعمل	-10.1223
▁ويعمل	-10.1226
▁يلبس	-10.1241
لآخر	-10.1268
لسبط	-10.1295
▁اعينهم	-10.1299
▁ويرد	-10.1317
وليمة	-10.1322
▁عاي	-10.1331
حانان	-10.1333
▁المكتوب	-10.134
▁الرعاة	-10.134
▁ملآن	-10.134
زاوية	-10.134
▁الانهار	-10.134
▁حضن	-10.134
▁كباش	-10.134
ظاهر	-10.1341
▁كاذب	-10.1341
▁العاشر	-10.1341
▁قصور	-10.1341
▁زب	-10.1342
ضمير	-10.1342
▁فاعلم	-10.1342
▁الجهال	-10.1342
▁الصبح	-10.1343
▁بقوة	-10.1343
▁بخورا	-10.1346
▁فرغ	-10.135
▁الباقين	-10.1352
▁حلقيا	-10.1352
▁الانجيل	-10.1358
▁العرش	-10.1359
▁الكاس	-10.1361
▁والآخر	-10.1371
▁ظلام	-10.1381
▁وخمر	-10.1382
سوء	-10.1398
توكل	-10.1406
تكئ	-10.1406
رمل	-10.1419
▁ايديكم	-10.1423
جرشون	-10.1427
▁خدم	-10.1433
▁الزيتون	-10.1438
▁يدعون	-10.1441
▁وحدي	-10.1462
▁تلاميذ	-10.1462
مزق	-10.1466
جهل	-10.1481
▁يهرب	-10.149
▁يحملون	-10.1491
▁تسقط	-10.1493
طارد	-10.1519
▁ورجاله	-10.1521
▁وحش	-10.1526
يعزر	-10.1541
الاخرى	-10.1545
▁السحابة	-10.1564
تقوى	-10.1576
▁لبنا	-10.1583
البركة	-10.1592
لسنا	-10.1597
▁تمام	-10.1623
سكين	-10.1627
خطف	-10.1636
ربض	-10.1649
ساقط	-10.1651
بيض	-10.1654
كتابة	-10.1666
▁الفريسيون	-10.1684
▁شيلوه	-10.1684
يؤخذ	-10.1684
▁اقاصي	-10.1684
▁البئر	-10.1684
خاطئ	-10.1685
ربط	-10.1685
▁ويوحنا	-10.1685
▁الوصية	-10.1686
▁القلوب	-10.1686
▁توجد	-10.1686
▁تعليم	-10.1686
▁شيخ	-10.1688
▁اقبل	-10.1689
▁النازل	-10.1692
▁ترنيم	-10.1692
محبة	-10.1699
▁تبق	-10.171
▁وعرضه	-10.1722
حننيا	-10.1726
▁فاقام	-10.1732
افعال	-10.1737
داس	-10.1761
▁حقول	-10.177
▁بغضب	-10.1773
▁ويوقد	-10.1776
▁حمار	-10.178
▁نظرت	-10.1798
▁ضربت	-10.1802
▁افتح	-10.1811
آخذ	-10.1816
▁اضرب	-10.185
▁فدفع	-10.1869
خزى	-10.1887
▁وتقدمته	-10.1918
▁ولحم	-10.1932
▁الشرط	-10.1938
سافر	-10.1974
▁رجاسات	-10.1975
▁افواه	-10.1983
▁وعرف	-10.2026
لغريب	-10.2038
▁والانبياء	-10.2041
▁المصريون	-10.2041
موضوع	-10.2041
▁الاحباء	-10.2041
▁ثابت	-10.2041
▁الصانع	-10.2042
▁حار	-10.2042
▁اجيالكم	-10.2042
▁الجديد	-10.2043
▁يختاره	-10.2043
▁واولاد	-10.2043
▁الكلمات	-10.2043
▁ثبت	-10.2046
▁تلد	-10.2049
▁وغنم	-10.2051
▁واسلم	-10.2052
▁عزريا	-10.2056
▁حياتي	-10.2057
▁غربا	-10.2063
▁القتلى	-10.2066
▁آساف	-10.2084
▁ومدن	-10.2088
▁ورم	-10.2091
سيل	-10.2092
▁فانطلق	-10.2092
منطقة	-10.2093
▁يرحم	-10.2094
سائر	-10.2102
▁سرير	-10.2106
▁وياخذ	-10.2109
▁دام	-10.2112
مدح	-10.2115
▁أتيت	-10.2137
▁يخدمون	-10.2144
▁شمس	-10.215
▁ثيابهم	-10.2156
مجيء	-10.2185
عثرة	-10.219
▁واعطيت	-10.2207
▁يحص	-10.2216
لماذا	-10.2228
كنيسة	-10.2255
دموع	-10.226
▁خدمته	-10.2265
سكوت	-10.2267
الخمر	-10.2282
▁ونع	-10.23
▁صخر	-10.2313
▁سحاب	-10.2314
▁يخدم	-10.2324
خلع	-10.234
▁يعو	-10.2342
قطر	-10.2351
▁فاعطاه	-10.2354
فار	-10.2372
صالح	-10.2402
▁الفريسيين	-10.2412
▁البدء	-10.2412
▁للكهنة	-10.2412
▁الشغل	-10.2412
▁يكرم	-10.2412
ميثاق	-10.2412
▁لسبب	-10.2412
▁الخروف	-10.2413
▁وفرسان	-10.2413
عصفور	-10.2413
▁قبور	-10.2415
▁مضايقي	-10.2416
▁الختان	-10.2417
▁اللوح	-10.2417
▁سفن	-10.2418
صادف	-10.242
▁وقاس	-10.243
▁بفم	-10.243
▁حوالي	-10.243
▁يشبه	-10.2431
▁رأينا	-10.2431
▁يخاف	-10.2443
▁الفلك	-10.2446
▁بروح	-10.2448
▁يهودي	-10.2456
قمر	-10.2457
اجيال	-10.246
▁حكماء	-10.2466
▁يبيد	-10.2467
▁تكمل	-10.2468
لمحاربة	-10.2482
▁جبار	-10.2488
▁وحدك	-10.2501
الواح	-10.2502
▁فجعل	-10.2506
منون	-10.2522
▁تحسب	-10.2528
▁جيل	-10.2532
اليتيم	-10.2533
خضر	-10.2551
▁الشق	-10.2578
▁قاس	-10.2583
▁وتيس	-10.2592
▁حراس	-10.2608
▁بدل	-10.261
▁شفت	-10.2612
▁وارجع	-10.267
▁قس	-10.2711
قديسي	-10.2716
لرؤساء	-10.2749
تذكر	-10.2779
▁لسليمان	-10.2796
▁صروية	-10.2796
▁مخارج	-10.2796
▁هللويا	-10.2796
▁اتخذ	-10.2796
مصاريع	-10.2796
▁تذكار	-10.2796
▁تستطيع	-10.2796
▁المركبات	-10.2796
▁وقرمز	-10.2797
▁يؤكل	-10.2797
▁النهاية	-10.2797
▁سلاحه	-10.2797
▁مواشي	-10.2797
▁جيوش	-10.2797
▁شمالا	-10.2797
▁رفقة	-10.2797
▁القرعة	-10.2797
▁يغفر	-10.2798
▁قائد	-10.2798
▁مملكته	-10.2799
الثياب	-10.28
لثيران	-10.28
تكفير	-10.2801
▁بهيمة	-10.2802
▁فارغ	-10.2803
▁تجاه	-10.2804
▁ليئة	-10.2805
اعضاء	-10.2806
▁والشيوخ	-10.2806
▁سراج	-10.2808
▁الارز	-10.2809
▁جنوب	-10.2816
▁البنين	-10.2817
▁وماذا	-10.2817
▁ألست	-10.2819
▁والبحر	-10.2821
▁العشب	-10.2823
▁البوق	-10.2831
▁الخرب	-10.2842
▁الخدمة	-10.2856
▁افواههم	-10.2861
▁اياك	-10.2865
▁وسلام	-10.2876
▁قمح	-10.2902
لآكل	-10.291
ائف	-10.2915
البعض	-10.2917
▁الكو	-10.293
ؤدب	-10.2942
يهوشافاط	-10.2973
حزقيا	-10.2974
امرأة	-10.2984
لحق	-10.2993
▁سبيل	-10.3004
تمجد	-10.3025
تلف	-10.3139
▁محص	-10.3179
حداث	-10.3192
الفرائض	-10.3196
▁الشياطين	-10.3196
▁الدائمة	-10.3196
▁بعشا	-10.3196
▁مواليد	-10.3196
▁مفتوح	-10.3196
شعل	-10.3196
▁وثياب	-10.3196
▁وعسلا	-10.3197
▁نذور	-10.3197
▁شهوة	-10.3197
▁وداود	-10.3197
▁المركبة	-10.3197
▁البيوت	-10.3198
▁مخاف	-10.3198
▁واوقف	-10.3199
▁ترشيش	-10.32
▁حافظ	-10.32
▁اكرم	-10.32
▁ثقيل	-10.32
▁آنيته	-10.3201
▁وشمعي	-10.3202
▁ارنون	-10.3203
▁الحادي	-10.3205
▁يعثر	-10.3206
▁البطن	-10.3208
▁اعمى	-10.3208
زاباد	-10.321
تأمل	-10.3211
لصق	-10.3211
▁بالابواق	-10.3211
▁الشوك	-10.3216
▁المساكين	-10.3217
▁وليلا	-10.3232
▁نباط	-10.3237
▁ذوات	-10.3245
▁اخيرا	-10.3254
▁اعداؤ	-10.3264
▁ايمانكم	-10.3271
▁شرقي	-10.3288
▁فترك	-10.329
ضربات	-10.3293
▁يمد	-10.3336
قيود	-10.3369
▁ورجال	-10.3391
رؤوس	-10.3392
دبير	-10.3412
صاحب	-10.3419
حصاد	-10.3536
▁غم	-10.354
لبناء	-10.3577
▁اخوتك	-10.3595
▁شلوم	-10.3606
ملكوت	-10.3612
▁التاسعة	-10.3613
▁اليابسة	-10.3613
▁باعمال	-10.3613
▁شريعتك	-10.3613
▁والنساء	-10.3613
▁وارجوان	-10.3613
▁وشيوخ	-10.3613
▁ينبوع	-10.3613
▁مسبوك	-10.3613
▁قبائل	-10.3613
▁الوصايا	-10.3613
▁الكبش	-10.3613
▁شافان	-10.3614
▁بالبوق	-10.3614
▁يابيش	-10.3614
▁ارملة	-10.3614
▁مستحق	-10.3614
اصعاد	-10.3614
▁لتلاميذه	-10.3614
▁تفيض	-10.3615
يرتفع	-10.3615
▁كهذا	-10.3616
▁رنموا	-10.3617
▁وقائد	-10.3618
▁انجيل	-10.3618
▁ملء	-10.3619
▁يساكر	-10.3619
▁فالذي	-10.3621
▁احرق	-10.3622
▁السنين	-10.3623
▁اسنان	-10.3625
غناء	-10.3626
▁الجند	-10.3628
ثلث	-10.3629
جالس	-10.3631
شهوات	-10.3641
▁اقتن	-10.3653
▁بهائم	-10.3664
▁خصي	-10.3698
▁طالبي	-10.3701
رعب	-10.3774
▁عارف	-10.3787
داخل	-10.3823
صموئيل	-10.3826
عبيدك	-10.3828
▁صباح	-10.3846
▁فضت	-10.3905
▁غط	-10.391
▁ويرجع	-10.3944
مياه	-10.3952
تعرف	-10.396
▁تقو	-10.398
▁فخا	-10.4014
▁زربابل	-10.4048
▁ايزابل	-10.4048
▁لآبائك	-10.4048
▁الجبابرة	-10.4048
▁دهرية	-10.4048
▁الجمهور	-10.4048
▁ملجأ	-10.4048
▁احترز	-10.4048
▁السماوي	-10.4048
غتسل	-10.4048
▁دينونة	-10.4048
▁نظير	-10.4048
▁فالتفت	-10.4048
▁مسامع	-10.4048
▁المؤمنين	-10.4048
▁الحبيب	-10.4048
▁فحدث	-10.4048
▁يفتاح	-10.4048
▁الكامل	-10.4048
بتدئ	-10.4048
▁زانية	-10.4049
▁نعرف	-10.4049
▁ليوسف	-10.4049
▁صاعد	-10.4049
▁بنهدد	-10.405
▁راحة	-10.405
▁وبنايا	-10.405
▁طويل	-10.405
▁كبش	-10.4052
▁الرجاء	-10.4053
ابتداء	-10.4053
▁جلال	-10.4056
▁احتمل	-10.4059
تشاور	-10.406
▁صدق	-10.4061
ابتهاج	-10.4062
▁هدد	-10.4068
▁حيرام	-10.407
ستحي	-10.4074
▁لشاول	-10.4076
▁السمك	-10.4076
نقمة	-10.4081
ابواق	-10.4085
نكون	-10.4089
عوض	-10.4096
زمجر	-10.41
زوايا	-10.41
لاولاد	-10.41
يوحانان	-10.4102
▁وكذا	-10.4105
سجف	-10.4105
▁قصب	-10.4109
▁وطرد	-10.4128
آلات	-10.4158
▁الكرمل	-10.4163
▁اضطر	-10.4169
تفسير	-10.4227
▁يزن	-10.4227
فرخ	-10.4245
صادوق	-10.4277
شاهد	-10.4323
قارب	-10.4324
ماكير	-10.4375
ثلاثين	-10.4418
مسوح	-10.4431
▁النس	-10.4448
▁ضياعها	-10.4502
▁المخادع	-10.4502
▁الموآبي	-10.4502
▁رفيعة	-10.4502
▁فآمن	-10.4502
▁ثيران	-10.4502
▁معروفا	-10.4502
▁وعبيده	-10.4502
▁تقويمك	-10.4502
▁والبهائم	-10.4502
السلطان	-10.4502
▁خيانة	-10.4502
▁لآسا	-10.4503
▁ناحية	-10.4503
▁ادونيا	-10.4503
▁الدهور	-10.4504
▁عيلام	-10.4504
▁العبيد	-10.4504
تجاوز	-10.4504
▁يزول	-10.4504
▁يقو	-10.4504
▁السنط	-10.4504
▁فطيرا	-10.4505
عوز	-10.4505
▁ولسان	-10.4506
▁اقمت	-10.4506
▁خمير	-10.4506
▁مريض	-10.4508
زينة	-10.4509
▁صلاتي	-10.4511
عظائم	-10.4511
▁وروح	-10.4513
▁محفل	-10.4514
▁يشفق	-10.4516
مقدار	-10.4517
▁قصد	-10.4517
▁بالمسيح	-10.4517
▁الفطير	-10.4518
▁التفت	-10.4528
▁اعطاني	-10.4531
تذمر	-10.4531
▁ونساء	-10.4533
▁فخاف	-10.4545
▁اساس	-10.4546
▁كروم	-10.455
عزيز	-10.4556
اشتد	-10.456
تابوت	-10.4568
▁وبكى	-10.4569
▁هدم	-10.4573
اثنين	-10.4584
معسيا	-10.4617
درجات	-10.4623
▁سلكت	-10.4638
حجب	-10.465
▁حاف	-10.468
قميص	-10.4731
افرايم	-10.4759
تذلل	-10.4768
عروس	-10.4803
اليبوسيين	-10.4803
▁مرتفع	-10.4949
▁فرع	-10.4962
يوآب	-10.4975
▁المديانيين	-10.4978
▁المرتفعة	-10.4978
▁لاستقبال	-10.4978
▁شيطان	-10.4979
▁للاويين	-10.4979
الخمسين	-10.4979
▁وامرأته	-10.4979
اقوياء	-10.4979
▁احياء	-10.4979
▁نابوت	-10.4979
▁اطراف	-10.4979
▁مبروم	-10.4979
▁ضارب	-10.4979
▁ثامار	-10.4979
▁يوثام	-10.4979
▁شوشن	-10.4979
▁تعيير	-10.4979
▁شواقل	-10.498
▁بوعز	-10.498
▁تخدم	-10.498
▁يتنبأون	-10.498
اقسام	-10.498
شتغل	-10.4981
▁يصدق	-10.4983
▁العلاء	-10.4984
▁القادر	-10.4985
▁وفضة	-10.4985
▁الفرات	-10.4985
▁ايادي	-10.4986
لشمس	-10.4986
مقاوم	-10.499
▁مدينت	-10.4996
▁القائم	-10.4997
▁الكرام	-10.4997
▁للمسيح	-10.4998
▁قدميه	-10.5
▁فلست	-10.5004
▁تحرق	-10.5007
▁القوة	-10.5009
ابكار	-10.5029
يمضي	-10.5043
معصية	-10.5043
الكلام	-10.5046
عجول	-10.5051
▁عنقه	-10.506
▁ارجو	-10.5066
استجب	-10.5114
مسيح	-10.5125
بكرا	-10.5147
▁تشته	-10.5275
شاقل	-10.5276
ليآب	-10.5279
اعطاهم	-10.5318
شاول	-10.5335
▁آبائك	-10.5416
▁اعدائه	-10.5418
▁حف	-10.5476
▁العبودية	-10.5478
▁فابتدأ	-10.5478
▁مكدونية	-10.5478
▁والفريسيون	-10.5478
▁وقواعدها	-10.5479
▁تأديب	-10.5479
▁الخطاة	-10.5479
▁النفوس	-10.5479
▁بواسط	-10.5479
لتسبيح	-10.5479
▁شوارع	-10.5479
▁عذراء	-10.5479
▁مضجع	-10.5479
▁البحار	-10.5479
▁يقاوم	-10.5479
▁والزيت	-10.5479
عناثوث	-10.548
▁وآتي	-10.548
▁اجناد	-10.548
▁بالعدل	-10.5482
▁استمع	-10.5482
▁ورائي	-10.5483
اجساد	-10.5483
▁ويحرق	-10.5483
▁بسيف	-10.5484
▁نابال	-10.5486
▁وميش	-10.5487
يرثون	-10.5487
▁واصغ	-10.5488
زقاق	-10.5488
▁يقضي	-10.5489
▁ارواح	-10.5489
▁مائدت	-10.5489
▁للناس	-10.5489
▁كرامة	-10.549
▁وواحد	-10.5491
▁شفاه	-10.5491
▁دنس	-10.5491
▁سهام	-10.5491
▁زبدي	-10.5494
▁العريس	-10.5495
▁الآبدين	-10.5495
لدينونة	-10.55
▁والعاز	-10.5501
▁الوالي	-10.5502
▁زنى	-10.5505
▁قادر	-10.5506
لغنم	-10.5509
▁قصر	-10.5517
رؤى	-10.5518
يونانيين	-10.5519
▁وهدم	-10.552
المئات	-10.552
▁وقبل	-10.5525
▁ورائه	-10.5537
▁يستطع	-10.555
ختبأ	-10.5551
اخلص	-10.5587
▁والمغن	-10.5589
▁افتر	-10.5663
بهجة	-10.5697
سكبت	-10.5737
ياكين	-10.575
الزنى	-10.5764
▁فيرجع	-10.5792
خصم	-10.5816
▁الدرج	-10.5885
الاخيرة	-10.593
▁الكنعاني	-10.5955
▁لحي	-10.5987
الليل	-10.5998
▁الأسود	-10.6005
▁لعبيده	-10.6005
▁ورؤساؤ	-10.6005
▁الذكور	-10.6005
▁يعاريم	-10.6005
▁الحاضر	-10.6005
▁بالقرعة	-10.6005
▁نينوى	-10.6005
▁لمحرقة	-10.6005
▁آباؤه	-10.6005
▁البأس	-10.6005
▁الآيات	-10.6005
▁ثروة	-10.6005
▁اثنتا	-10.6005
ضجيج	-10.6005
▁وعزريا	-10.6005
▁مئتين	-10.6005
▁قضاة	-10.6005
▁يهوآحاز	-10.6005
▁الحطب	-10.6005
▁لرجال	-10.6006
▁السعاة	-10.6006
▁اجنبي	-10.6006
▁ينابيع	-10.6006
▁جاهل	-10.6006
▁سيسرا	-10.6006
▁ثروت	-10.6006
▁الشيخ	-10.6007
▁للبعل	-10.6007
▁ركاب	-10.6007
▁مركبة	-10.6007
▁احاط	-10.6007
▁جوابا	-10.6007
▁العمودين	-10.6008
خطيتي	-10.6008
▁الباطل	-10.6009
▁يجازي	-10.6009
طوفان	-10.601
▁تظلم	-10.6012
▁ومضوا	-10.6012
▁فارص	-10.6014
▁الحجاب	-10.6014
▁يظن	-10.6014
بالحقيقة	-10.6015
▁يؤت	-10.6015
▁اسكب	-10.6016
عصوين	-10.6017
▁تقرب	-10.6019
قرابين	-10.6019
▁وإل	-10.602
▁تبيد	-10.6021
▁راكب	-10.6021
▁بلسان	-10.6022
▁وقولوا	-10.6025
▁صدر	-10.6032
اعماق	-10.6037
▁كثرت	-10.6049
غزاة	-10.6049
البكاء	-10.607
مناع	-10.609
الحمير	-10.6109
تؤمنوا	-10.6127
جماعة	-10.6142
▁وعدلا	-10.616
ليعلم	-10.6168
امراض	-10.6177
ملابس	-10.6227
▁يفتر	-10.6227
أرسل	-10.6228
تعقل	-10.632
ابشالوم	-10.6338
دقيق	-10.6341
بولس	-10.6361
يخلص	-10.6409
▁اللاوي	-10.6427
الروح	-10.6512
▁وثمانين	-10.656
▁وبجانبه	-10.656
▁وزكريا	-10.656
▁الحصينة	-10.656
▁للكاهن	-10.656
▁اليوبيل	-10.656
▁شاطئ	-10.656
▁استطيع	-10.6561
▁الشبكة	-10.6561
▁فدفنوه	-10.6561
▁اقطاب	-10.6561
▁مختوم	-10.6561
▁مخاصم	-10.6561
▁ليخدمو	-10.6561
▁الزانية	-10.6561
▁الناصري	-10.6561
▁للقتال	-10.6561
▁جارية	-10.6561
▁لخيش	-10.6561
غبياء	-10.6561
الارجوان	-10.6561
القرمز	-10.6561
▁والشحم	-10.6562
▁الطعام	-10.6562
▁ونهارا	-10.6562
▁الايادي	-10.6562
▁بفضة	-10.6563
▁خالق	-10.6563
▁اثبت	-10.6563
ستأصل	-10.6564
▁قياس	-10.6564
▁لعبدك	-10.6564
▁هدية	-10.6564
▁اشرار	-10.6565
▁ومريم	-10.6565
▁صيدون	-10.6567
▁اعطاكم	-10.6567
▁رجوع	-10.6569
▁يحرق	-10.6569
▁المسحة	-10.6569
▁تشفق	-10.657
▁ليعطي	-10.657
▁عتيد	-10.657
تعزية	-10.6571
▁فأخبر	-10.6572
الاصنام	-10.6575
▁الطرف	-10.6577
▁ودعت	-10.6581
▁محبو	-10.6583
غمس	-10.6589
دحرج	-10.659
مرحض	-10.661
▁يكمل	-10.6614
طبخ	-10.6625
▁اموال	-10.6629
رعدة	-10.6679
خزوا	-10.671
▁اكلمك	-10.6714
ابناء	-10.6786
▁وتعلم	-10.6821
ملتو	-10.6893
معمودي	-10.6917
عشائر	-10.6941
بماذا	-10.695
اجير	-10.7024
شهود	-10.7025
▁اخيتوفل	-10.7149
▁التلميذ	-10.7149
▁وفرائضه	-10.7149
اغتصاب	-10.7149
▁لحظة	-10.7149
▁افسس	-10.7149
▁قعيلة	-10.7149
▁تلميذ	-10.7149
▁الاجنبي	-10.7149
▁عاجلا	-10.7149
عثليا	-10.7149
▁رسائل	-10.7149
▁مئتان	-10.7149
▁واغلق	-10.7149
زوبعة	-10.7149
▁السفلى	-10.7149
▁خالص	-10.7149
ارغفة	-10.7149
▁وأعطي	-10.715
▁فعند	-10.715
▁الجزية	-10.715
▁الحصن	-10.7151
الأمور	-10.7151
▁عقاب	-10.7152
عضائد	-10.7152
▁العموني	-10.7152
▁ليأكلوا	-10.7152
▁يورام	-10.7152
▁حوريب	-10.7153
العذراء	-10.7153
▁فعاد	-10.7153
▁اصوات	-10.7155
غرفات	-10.7155
▁الخوف	-10.7159
اسبوع	-10.7162
▁حورون	-10.7166
▁ينجو	-10.7172
تبدد	-10.7181
▁حياتك	-10.7185
▁ودار	-10.7194
عربات	-10.7204
العسل	-10.7209
ساحة	-10.725
تبرأ	-10.731
داثا	-10.7325
غلظ	-10.735
اوصاهم	-10.7367
ذبائح	-10.7451
القانة	-10.7465
فارق	-10.7477
▁المنحوت	-10.7524
اضطراب	-10.7613
▁وبكر	-10.7618
لمعان	-10.7678
ورشليم	-10.7695
ولئك	-10.773
▁آباؤنا	-10.7774
▁انطاكية	-10.7774
▁للمرأة	-10.7774
▁والاموريين	-10.7774
▁وامتلأ	-10.7774
▁ترديدا	-10.7774
▁يجتاز	-10.7774
▁فرصة	-10.7774
بالأولى	-10.7774
▁ومواشي	-10.7774
▁موطئ	-10.7774
▁الشعير	-10.7774
▁آبائي	-10.7774
▁ناظر	-10.7774
▁الاوثان	-10.7774
▁الاقوال	-10.7774
▁وعمورة	-10.7774
▁يضيء	-10.7774
▁الجيوش	-10.7774
▁القاضي	-10.7774
▁السطح	-10.7774
▁وسلطان	-10.7774
▁خزف	-10.7775
▁اغلق	-10.7775
مخاوف	-10.7775
▁وكروم	-10.7775
▁الجيدة	-10.7775
▁الغلف	-10.7775
▁العظام	-10.7776
▁تؤمنون	-10.7776
▁الموعد	-10.7776
▁يابسة	-10.7776
▁البيدر	-10.7776
غتصب	-10.7776
▁وركض	-10.7777
▁لصاحبه	-10.7777
▁يمنع	-10.7777
▁اليسار	-10.7777
▁والابد	-10.7777
▁نسمة	-10.7778
▁توكلت	-10.7778
▁لبنة	-10.7779
صنوج	-10.7779
▁باثم	-10.778
▁زوجها	-10.7781
ترتفع	-10.7782
▁كأن	-10.7789
زارع	-10.779
ياقوت	-10.7794
يدوثون	-10.7796
▁فقير	-10.7803
▁نغو	-10.7806
يحيئيل	-10.7838
يغلق	-10.7847
طوبيا	-10.7867
اصابع	-10.7873
تسعين	-10.7932
لجانب	-10.7969
سند	-10.8062
تصدق	-10.8082
غروب	-10.8089
تعثر	-10.8092
عالمين	-10.8175
ستند	-10.82
▁المظال	-10.8203
▁يؤد	-10.8217
منضح	-10.8232
يربعام	-10.8234
قوائم	-10.8266
نطرح	-10.8328
مناحة	-10.8339
تنهد	-10.8356
لنسلك	-10.8374
ستيقظ	-10.8395
▁الرديئة	-10.844
▁المعمدان	-10.844
▁ممدودة	-10.844
ملجإي	-10.844
▁الاشجار	-10.844
▁الخصيان	-10.844
▁حاصور	-10.844
▁لآبائهم	-10.844
▁والمرأة	-10.844
▁شياطين	-10.844
▁تطهير	-10.844
▁ملائكته	-10.844
▁والارملة	-10.844
▁الخفاء	-10.844
▁ومئتان	-10.844
العمالقة	-10.844
▁المصاعد	-10.844
▁سقوط	-10.844
▁الجارية	-10.8441
▁صوغر	-10.8441
▁مجيئه	-10.8441
▁الارملة	-10.8441
▁عورتها	-10.8441
▁سبوتي	-10.8441
تعاظم	-10.8441
مفيبوشث	-10.8441
▁خضراء	-10.8441
▁الاعمى	-10.8441
▁واستراح	-10.8441
▁مولود	-10.8441
▁وطريق	-10.8441
▁حقويه	-10.8441
▁بيضاء	-10.8442
▁التعليم	-10.8442
-	-11.5027
ً	-11.6456
)	-12.2623
I	-12.2623
:	-12.5956
1	-13.0956
2	-13.0956
[	-13.0956
]	-13.0956
h	-13.0956
o	-13.0956
(	-14.0954
ـ	-14.0955
5	-14.0956
6	-14.0956
J	-14.0956
T	-14.0956
n	-14.0956
y	-14.0956
ٍ	-14.0956
*	-14.0956
i	-14.0956
m	-14.0956
t	-14.0956
