<pad>	0
</s>	0
<unk>	0
¦	-1.96891
▁¦	-2.09105
▁、	-2.53905
▁	-2.86178
▁。	-3.24301
は	-4.54539
の	-4.57106
を	-4.66102
と	-4.79247
に	-4.91598
が	-4.9702
その	-5.20669
▁、「	-5.39594
▁」。	-5.49132
また	-5.5731
わたしは	-5.80976
も	-5.81328
から	-5.85202
た	-5.86215
で	-5.97
い	-6.01075
て	-6.01904
る	-6.06517
よ	-6.18105
し	-6.19337
か	-6.19722
あなたの	-6.20608
である	-6.21848
あなたは	-6.2502
り	-6.2524
彼らは	-6.30456
なさい	-6.38402
言った	-6.43202
しかし	-6.47267
わたしの	-6.49653
彼は	-6.51314
そして	-6.5416
この	-6.54737
き	-6.55777
あなたがたは	-6.55811
主は	-6.57931
▁」	-6.60807
すなわち	-6.6156
って	-6.7035
な	-6.71733
く	-6.72029
った	-6.72801
これを	-6.76113
した	-6.77112
み	-6.8492
▁「	-6.86759
わたしが	-6.8677
および	-6.8791
であろう	-6.88141
そこで	-6.90163
して	-6.9036
のために	-6.91009
え	-6.91395
ことを	-6.91571
す	-6.94966
いた	-6.98659
それを	-6.98958
によって	-7.03783
なければならない	-7.04255
をもって	-7.05048
からである	-7.07195
人	-7.07577
め	-7.09357
ように	-7.09398
▁、『	-7.09441
これは	-7.11051
わたしを	-7.12658
すべての	-7.12668
わたし	-7.13058
のように	-7.13201
あなたがたの	-7.14191
の子	-7.16304
ので	-7.16397
う	-7.17453
者	-7.17515
わが	-7.18157
▁』	-7.18186
ら	-7.18315
者は	-7.19021
わたしに	-7.2079
です	-7.21186
のか	-7.22792
すべて	-7.23292
する	-7.23839
主が	-7.24263
や	-7.24264
自分の	-7.25241
主の	-7.25418
お	-7.27238
彼らの	-7.27629
もし	-7.27735
あなたが	-7.28229
見よ	-7.30632
それは	-7.31609
であった	-7.32766
彼ら	-7.3302
ない	-7.34522
ある	-7.36967
時	-7.37421
あなた	-7.39438
に言った	-7.40247
彼を	-7.41762
れ	-7.42313
彼らを	-7.42333
ます	-7.43611
彼	-7.43852
ず	-7.4469
のである	-7.47226
ならば	-7.47319
け	-7.47422
・	-7.48055
には	-7.49124
いる	-7.49653
神は	-7.51081
とき	-7.52661
王	-7.54005
なかった	-7.55134
こうして	-7.55709
だ	-7.55777
ま	-7.56571
あなたに	-7.56973
主よ	-7.57298
神	-7.58448
いて	-7.58644
あなたを	-7.58742
られた	-7.59409
であって	-7.59935
神の	-7.60726
ている	-7.61409
イエスは	-7.61754
主	-7.62106
言われた	-7.62195
こと	-7.62221
あなたがた	-7.63356
られる	-7.64262
彼らに	-7.66248
ア	-7.67435
それゆえ	-7.70534
一	-7.7064
行って	-7.70795
われわれは	-7.72036
ください	-7.72323
彼らが	-7.72654
と共に	-7.7266
これ	-7.73059
そ	-7.73159
あなたがたに	-7.73837
ました	-7.7429
まで	-7.74587
つ	-7.75197
『	-7.75401
シ	-7.75652
わたしたちは	-7.76287
あ	-7.77004
もろもろの	-7.77276
あなたがたが	-7.7737
こ	-7.78489
ために	-7.78649
主に	-7.79801
彼の	-7.81525
人は	-7.81888
彼が	-7.81987
ン	-7.82247
みな	-7.82684
人々は	-7.82844
今	-7.83002
るであろう	-7.83553
さ	-7.83554
テ	-7.84064
てはならない	-7.8428
民	-7.84442
とを	-7.84626
すると	-7.84637
び	-7.84752
む	-7.85412
言う	-7.85594
行った	-7.8616
ただ	-7.86661
地	-7.87437
物	-7.8748
ル	-7.88078
見	-7.88476
人の	-7.88527
の上に	-7.89959
じ	-7.90587
王は	-7.90944
それ	-7.9221
のは	-7.92643
その時	-7.92741
について	-7.93077
彼に	-7.93554
なら	-7.93754
として	-7.94676
させ	-7.95087
びと	-7.95312
にある	-7.9584
キリスト	-7.95926
そこに	-7.96264
イエス	-7.96365
された	-7.97081
のです	-7.98368
イスラエル	-7.98663
もの	-7.98677
立って	-7.9868
にも	-7.99067
てください	-7.99099
こう	-8.00384
手	-8.0091
の中に	-8.00984
事を	-8.01259
事	-8.01428
のうちに	-8.01604
十	-8.01608
悪	-8.01821
大	-8.02394
さて	-8.02657
ヤ	-8.03049
きた	-8.03338
大いなる	-8.04053
なお	-8.04115
人を	-8.04431
地に	-8.04469
あなたの神	-8.04889
べ	-8.05056
んで	-8.05086
どうして	-8.05778
イスラエルの	-8.06296
でしょう	-8.06966
それで	-8.0764
の子孫	-8.08022
多くの	-8.08136
よう	-8.08507
者が	-8.08542
日	-8.08815
ば	-8.08928
▁』。	-8.09474
ダビデは	-8.10874
している	-8.10922
王の	-8.11036
と言った	-8.11179
人々	-8.12486
なる	-8.12528
マ	-8.12732
心	-8.13053
父	-8.13707
行き	-8.14879
たので	-8.15429
祭司	-8.15655
主は言われる	-8.15706
エ	-8.15782
所	-8.1587
そう	-8.15893
される	-8.16044
あなたがたを	-8.16279
へ	-8.1631
行く	-8.16355
罪	-8.16451
ではないか	-8.16467
がある	-8.16759
来る	-8.17033
となり	-8.17289
預言者	-8.17326
しい	-8.17492
わ	-8.17832
ぎ	-8.18273
を見	-8.18595
そうすれば	-8.18863
からだ	-8.19032
者を	-8.19123
石	-8.19351
います	-8.1943
よりも	-8.19766
時に	-8.20092
ことは	-8.20227
知	-8.20341
全	-8.20665
神が	-8.20685
のだ	-8.20864
人が	-8.2118
律法	-8.21597
んだ	-8.21922
きて	-8.21942
恐れ	-8.22944
喜び	-8.23447
イ	-8.23805
かつ	-8.2388
ため	-8.23958
子	-8.24269
を取り	-8.24891
取り	-8.25079
力	-8.25356
敵	-8.25461
とは	-8.26236
町	-8.26307
出	-8.26964
せ	-8.27248
一つの	-8.27321
年	-8.28088
あった	-8.28186
と言う	-8.28224
われわれの	-8.28576
ところ	-8.28729
の前に	-8.29101
のですか	-8.29151
ハ	-8.29294
デ	-8.29654
国	-8.29661
自分	-8.29684
っている	-8.29746
一つ	-8.30105
愛	-8.30208
にむかって	-8.30797
レ	-8.30852
モーセは	-8.31145
物を	-8.31253
女	-8.31349
後	-8.32721
下	-8.32771
という	-8.32936
聖なる	-8.33123
きょう	-8.33603
牛	-8.33619
ところが	-8.33838
兄弟たち	-8.3415
はならない	-8.34388
このように	-8.35135
ことごとく	-8.35668
ぶ	-8.35919
これらの	-8.35968
だれが	-8.36394
民は	-8.36626
立ち	-8.3671
にしたがって	-8.36739
われわれ	-8.37639
とし	-8.37802
行	-8.3783
でも	-8.38088
があった	-8.38289
に向かって	-8.38602
とが	-8.38711
それから	-8.38873
ものである	-8.38989
手を	-8.39032
主の前に	-8.39086
彼女は	-8.3918
わたしたちの	-8.39814
があり	-8.40228
まだ	-8.40274
えて	-8.40841
どうぞ	-8.41012
に対して	-8.41074
心を	-8.4123
がよい	-8.41316
ましょう	-8.41633
おり	-8.42178
ご	-8.42208
二	-8.42319
これに	-8.42325
であり	-8.4249
ち	-8.42711
思い	-8.4275
兄弟	-8.43284
神に	-8.43659
道	-8.43967
死んだ	-8.44055
会	-8.44249
言	-8.44577
ラ	-8.45395
だから	-8.4565
光	-8.46378
のに	-8.46563
ためである	-8.46989
ナ	-8.47299
どうか	-8.47324
せよ	-8.47395
となる	-8.47421
出て	-8.47835
肉	-8.48121
々	-8.48165
ダビデ	-8.48194
ひとりの	-8.48453
あるいは	-8.48512
になった	-8.48685
皆	-8.4884
水	-8.49144
らせ	-8.49155
金	-8.49172
ていた	-8.49921
海	-8.50257
ここに	-8.50465
共に	-8.50549
木	-8.50568
をも	-8.50856
かな	-8.5106
られ	-8.51414
人に	-8.51517
もまた	-8.51924
天	-8.51959
妻	-8.52094
羊	-8.52322
わたしたち	-8.52529
香	-8.52742
ム	-8.52881
る者	-8.53025
ユダ	-8.53113
レビびと	-8.53141
不	-8.53175
ものを	-8.53643
夫	-8.53743
銀	-8.53761
その子	-8.54222
なぜ	-8.54338
ついに	-8.5435
ほかの	-8.54816
る者は	-8.55272
ヤコブ	-8.55291
に従って	-8.55513
しもべ	-8.55673
必ず	-8.55876
ス	-8.56352
のうちから	-8.56501
足	-8.56856
人々が	-8.56866
その日	-8.56872
門	-8.56901
ながら	-8.56983
げ	-8.57171
エルサレム	-8.57324
ブ	-8.57385
助け	-8.57593
いで	-8.57682
リ	-8.57828
三	-8.58542
夜	-8.58802
再び	-8.58961
月	-8.59061
イスラエルの神	-8.5934
金の	-8.59607
死	-8.59651
ことが	-8.59783
▁』」。	-8.60016
命	-8.60219
の前で	-8.60237
あり	-8.60335
多く	-8.60614
心に	-8.61085
になって	-8.61317
すでに	-8.61665
こう言われる	-8.61818
をことごとく	-8.62497
悪い	-8.62523
来て	-8.62833
の家	-8.63468
言い	-8.63529
宮	-8.63544
バ	-8.64046
エル	-8.64343
めて	-8.64384
者である	-8.64385
を取って	-8.64557
所に	-8.64645
馬	-8.64904
山	-8.6514
ものは	-8.6522
恵み	-8.65388
ク	-8.65412
良い	-8.65562
行い	-8.6557
では	-8.65823
えた	-8.65984
地の	-8.66071
目	-8.66086
主なる神は	-8.66386
よく	-8.66435
数	-8.66485
アブラハム	-8.66491
され	-8.66597
はその	-8.66804
ろ	-8.66889
家	-8.66947
定め	-8.6713
互に	-8.67311
器	-8.67785
のゆえに	-8.67952
または	-8.68269
イエスを	-8.68271
ど	-8.68405
正しい	-8.68442
死ぬ	-8.68777
苦	-8.68845
たち	-8.68962
間	-8.69114
教え	-8.69399
みずから	-8.69469
のうち	-8.69592
食	-8.69607
あの	-8.70533
と言って	-8.70596
イスラエルの人々	-8.70725
であろうか	-8.70808
生	-8.7086
るように	-8.70951
代	-8.71198
ね	-8.71225
となった	-8.71507
エルサレムに	-8.71688
の子らは	-8.7186
タ	-8.72055
だれ	-8.72524
など	-8.7262
のもとに	-8.72687
知恵	-8.73224
イエスが	-8.73359
ユダヤ人	-8.73422
はみな	-8.73523
サウルは	-8.73648
と一緒に	-8.73731
なく	-8.738
イスラエルの人々は	-8.73864
聖所	-8.74088
霊	-8.74234
世	-8.74352
男	-8.74452
だけ	-8.74474
分	-8.75063
聞いて	-8.75239
身	-8.75269
成	-8.75472
るために	-8.75578
ベ	-8.75804
他の	-8.75861
無	-8.76067
人の子	-8.7614
のある	-8.76536
来	-8.76542
ろば	-8.76737
言葉を	-8.76912
義	-8.77304
四	-8.77634
打ち	-8.77701
身を	-8.77716
主を	-8.77927
もはや	-8.77999
五	-8.78051
れて	-8.78112
える	-8.78194
中	-8.7826
その人は	-8.78278
川	-8.78396
七	-8.78471
者の	-8.785
異邦人	-8.7862
聞き	-8.78944
ると	-8.78979
これらは	-8.79132
引き	-8.7921
イスラエルの王	-8.79479
実	-8.79515
座	-8.79558
れる	-8.79591
娘	-8.79595
獣	-8.79658
内	-8.79927
産	-8.7993
長	-8.80018
なんの	-8.80024
おのおの	-8.80104
がない	-8.80149
過	-8.80494
祭壇	-8.80544
ん	-8.80599
と言い	-8.80606
かた	-8.80704
語り	-8.81084
とその	-8.81454
まず	-8.81461
いなさい	-8.8178
かの	-8.82187
上	-8.82533
とする	-8.82618
を見て	-8.82787
パン	-8.82816
ふ	-8.82824
人たち	-8.82827
入れ	-8.82829
大きな	-8.83197
従	-8.83309
方	-8.83502
名を	-8.83545
の王	-8.83545
手に	-8.83603
ミ	-8.8383
偶像	-8.83868
滅び	-8.8418
答えて	-8.84264
二つの	-8.84979
民の	-8.85165
前に	-8.85352
自	-8.85478
戒め	-8.85571
ってはならない	-8.85577
害	-8.85893
モーセに言われた	-8.85933
着	-8.86011
あなたがたの神	-8.86147
つるぎ	-8.86356
サウル	-8.86489
語る	-8.86708
オ	-8.86806
そのとき	-8.86862
ないでください	-8.86884
られて	-8.86972
地は	-8.86991
ではなく	-8.87107
ダ	-8.87174
顔	-8.8722
それに	-8.87351
道を	-8.87507
栄光	-8.87846
エジプト	-8.88083
とこしえに	-8.88089
と言われた	-8.88446
水を	-8.88578
信仰	-8.88704
ひ	-8.88861
わざ	-8.88861
わたしたちが	-8.8914
セ	-8.89278
真実	-8.89311
麦	-8.89363
めた	-8.89429
契約	-8.89508
種	-8.89555
て言った	-8.89902
戦い	-8.89915
彼らに言った	-8.90088
兵	-8.90111
親	-8.90113
の中で	-8.90113
ひとり	-8.90129
またその	-8.90279
だれも	-8.90347
ヨセフ	-8.90348
教	-8.90381
しなければならない	-8.90413
パ	-8.90576
させた	-8.90632
悩み	-8.90809
を攻め	-8.91008
ぐ	-8.91081
残	-8.91377
彼に言った	-8.91481
らない	-8.91559
たとい	-8.9158
さばき	-8.91691
どんな	-8.91716
天に	-8.91884
彼女	-8.92099
血	-8.92329
知らせ	-8.9239
エルサレムの	-8.92542
者に	-8.92798
ロ	-8.92878
よい	-8.93109
ああ	-8.93159
子供	-8.93328
すべての民	-8.93341
なければ	-8.93886
ようと	-8.93887
時は	-8.93927
名	-8.93931
の言葉	-8.93935
病	-8.94029
このような	-8.94033
イエスの	-8.94413
畑	-8.94429
祈	-8.94468
あかし	-8.94487
富	-8.94564
答え	-8.9462
主人	-8.94713
の妻	-8.94715
求め	-8.94739
神を	-8.95314
ではない	-8.95462
捨て	-8.96045
民を	-8.96113
の下に	-8.96254
大いに	-8.96495
だからである	-8.96536
において	-8.96647
れた	-8.96821
人々に	-8.96917
にいる	-8.97016
声	-8.97071
ふたりの	-8.9709
言葉	-8.97094
母	-8.97118
何	-8.97188
シャ	-8.97455
百	-8.97471
軍勢	-8.97559
非常に	-8.9756
ける	-8.97678
を受け	-8.9768
食物	-8.97751
のを見て	-8.98001
穴	-8.98306
けて	-8.98573
その上に	-8.98588
願い	-8.98615
顔を	-8.9862
地を	-8.98663
べき	-8.99053
ニ	-8.99076
ザ	-8.99092
の父	-8.99112
口	-8.99295
かれ	-8.99384
風	-8.99591
官	-8.99886
ほかに	-8.99944
の部族	-8.99991
出す	-9.00101
当	-9.00259
高	-9.00403
祭	-9.00412
ことはない	-9.00519
ふたり	-9.00565
ることを	-9.00606
軍	-9.00642
のうちで	-9.00735
ユダの	-9.00821
女は	-9.00838
家畜	-9.01019
寝	-9.01023
を見た	-9.01314
カ	-9.01437
だろうか	-9.01486
祝福	-9.01551
とした	-9.01572
われわれの神	-9.01983
ことができる	-9.02088
主である	-9.02223
群れ	-9.02276
たちは	-9.02284
わず	-9.02385
メ	-9.02566
のような	-9.0257
幕屋	-9.02586
神々	-9.02611
見た	-9.02714
死に	-9.02888
ること	-9.03035
ただし	-9.03306
アロン	-9.03344
ることがない	-9.03349
しく	-9.03357
者と	-9.03447
書	-9.03502
ペリシテびと	-9.03503
土	-9.03532
災	-9.03588
しるし	-9.03722
キリストの	-9.03838
朝	-9.03881
糸	-9.03958
ても	-9.0413
取	-9.04181
答えた	-9.04207
王が	-9.04232
おられる	-9.04269
小羊	-9.04295
に言われた	-9.04399
造	-9.04473
の娘	-9.04493
いだ	-9.04637
は皆	-9.04734
会衆	-9.04736
食べ	-9.04769
わたしはあなたの	-9.04787
ません	-9.05158
おまえ	-9.05254
となって	-9.05506
かつて	-9.05684
める	-9.05696
者も	-9.05855
つかさたち	-9.05885
二十	-9.06263
ネ	-9.06366
知らない	-9.06549
千	-9.06568
使	-9.0661
子を	-9.06914
あげ	-9.0712
不義	-9.07146
苦しみ	-9.07227
のうちの	-9.07233
バアル	-9.07329
だれか	-9.07403
わなければならない	-9.07479
怒り	-9.08009
いま	-9.0811
マナセ	-9.08139
これが	-9.08335
報い	-9.08375
あわれみ	-9.08464
たが	-9.08616
なし	-9.08631
離れ	-9.08644
は言った	-9.08802
の人々	-9.08934
もなく	-9.09013
ヤコブは	-9.09078
長老たち	-9.09121
そこ	-9.09193
かえって	-9.09269
パウロ	-9.09626
それが	-9.09669
去って	-9.09676
あって	-9.09714
僕	-9.09797
を得る	-9.10014
天から	-9.10015
そのすべての	-9.10164
やり	-9.10298
を与え	-9.10323
荒	-9.10454
町の	-9.10484
六	-9.10569
下って	-9.10592
頭	-9.10706
歌	-9.10711
平	-9.10861
油を	-9.10885
雲	-9.10895
してはならない	-9.10919
らなければならない	-9.11006
聞く	-9.11018
全く	-9.11043
何も	-9.1111
国々	-9.11186
神よ	-9.11297
その中に	-9.11537
エリ	-9.11579
ることはない	-9.11621
者たち	-9.11916
酒	-9.12115
聞いた	-9.12277
モーセ	-9.12299
切	-9.12382
により	-9.12485
終り	-9.12487
出して	-9.12583
者ども	-9.12839
による	-9.1284
の間に	-9.12924
の地	-9.13215
日に	-9.13247
かせ	-9.13322
エドム	-9.13355
われわれに	-9.13514
油	-9.13575
われわれを	-9.13709
わたしたちに	-9.13715
権	-9.13752
とに	-9.13847
さらに	-9.13994
の門	-9.1422
同じ	-9.14475
万	-9.14539
万軍の主	-9.1464
つく	-9.14918
強	-9.14957
心の	-9.15157
約束	-9.15164
でしょうか	-9.15244
望み	-9.15263
ようになる	-9.15267
パロ	-9.15273
命じた	-9.15421
イエスに	-9.15477
させる	-9.1553
の中から	-9.15675
道に	-9.15942
わたしたちを	-9.16143
流れ	-9.16161
もう	-9.16226
さあ	-9.16332
んでいる	-9.16694
の間	-9.16798
ざ	-9.16901
箱	-9.16942
言え	-9.17025
の木	-9.17179
罪を	-9.17604
のため	-9.17622
していた	-9.1763
があって	-9.17681
ゆえ	-9.17716
イサク	-9.17837
ヨハネ	-9.17849
の子である	-9.17859
柱	-9.17859
ような	-9.17873
を得	-9.17913
同	-9.17935
生れた	-9.17948
ヨシュアは	-9.17997
イスラエルは	-9.18052
所有	-9.1808
意	-9.18089
出し	-9.18129
町々	-9.18219
通	-9.18301
王たち	-9.18344
目を	-9.18757
来た	-9.18779
知っている	-9.18914
新しい	-9.19006
ヨセフは	-9.19083
重	-9.19105
のを	-9.19127
になる	-9.19146
その人	-9.19167
おのおのその	-9.19177
わたしのために	-9.1919
ことができない	-9.19203
わたしと	-9.19269
じて	-9.19329
しない	-9.19339
わたしはあなた	-9.19361
かに	-9.19483
墓	-9.19484
部族	-9.19648
外	-9.19673
叫び	-9.19706
先に	-9.19715
東	-9.19771
殺し	-9.19823
フ	-9.19948
らず	-9.19964
を造り	-9.20084
野	-9.20196
立て	-9.20237
ソロモンは	-9.20314
の手から	-9.20343
の子たち	-9.20373
絶え	-9.20396
生れ	-9.20446
明	-9.20447
家に	-9.20485
帰って	-9.20488
何を	-9.20493
目に	-9.20558
与え	-9.20773
ト	-9.20884
平安	-9.20944
かった	-9.20983
ベニヤミン	-9.21146
われらの	-9.21236
前	-9.21497
造った	-9.21642
告げ	-9.21784
荒野	-9.21814
そこから	-9.21978
出た	-9.21999
のすべての	-9.22051
悲しみ	-9.22094
すれば	-9.22153
けた	-9.22519
ろう	-9.22559
ばかり	-9.22924
に対する	-9.2308
取って	-9.23131
勇士	-9.23152
受け	-9.23243
雄牛	-9.23301
場所	-9.23356
してください	-9.2339
自分を	-9.23424
どう	-9.23529
ユダの王	-9.23658
となるであろう	-9.2367
ぶどう酒	-9.23726
ほど	-9.23797
夕	-9.23908
は次のとおりであ	-9.23933
台	-9.24149
悪を	-9.24203
部	-9.24297
ですか	-9.24305
その所で	-9.24313
ダン	-9.24365
されて	-9.24499
救	-9.24502
布	-9.24899
なぜなら	-9.24993
聖霊	-9.25019
のところに	-9.25071
信	-9.25161
国の	-9.2517
わせ	-9.25426
わが神	-9.25465
彼はまた	-9.2552
岩	-9.25578
火	-9.2559
主はこう言われる	-9.25597
戸	-9.2563
っていた	-9.25953
るでしょう	-9.26104
のない	-9.2615
工	-9.26219
ヨアブ	-9.26276
宮の	-9.26546
もろもろの民	-9.26699
ぬ	-9.2689
あなたと	-9.26903
のだから	-9.26945
聞け	-9.26968
見ると	-9.27141
合わせて	-9.27144
まことに	-9.27196
王に	-9.27301
山に	-9.2773
しえたげ	-9.27733
「	-9.27933
ケ	-9.27974
戦車	-9.28001
起	-9.28241
帰	-9.28255
出てきた	-9.28259
常に	-9.28376
尋ね	-9.28508
ダビデの	-9.2868
さない	-9.28725
声を	-9.28743
服	-9.28848
預言者たち	-9.28929
の手	-9.28936
かない	-9.28984
出る	-9.29147
ベテ	-9.29333
しし	-9.29926
別	-9.29967
られました	-9.29969
シオン	-9.30158
国民	-9.30175
すぐ	-9.30247
その子は	-9.3028
の子ら	-9.30365
場	-9.30407
群衆	-9.30738
いたが	-9.30764
ソロモン	-9.30975
この事を	-9.31082
ド	-9.31129
ヨ	-9.31138
息	-9.31194
ごらん	-9.31204
けれども	-9.31205
とおりに	-9.31284
深い	-9.31356
移	-9.31494
バビロン	-9.31611
言われる	-9.31883
のを見た	-9.32084
をとって	-9.32155
ガ	-9.32166
わし	-9.32182
海の	-9.32275
真理	-9.32298
進んで	-9.32302
ぶどう	-9.32305
語った	-9.32394
宝	-9.32438
しめ	-9.32486
切り	-9.3258
くだ	-9.32613
さきに	-9.32686
時には	-9.32702
日の	-9.32709
るならば	-9.32713
強い	-9.32745
ギレアデ	-9.3276
八	-9.32783
滅ぼし	-9.32805
王と	-9.32841
命じられた	-9.32995
ませ	-9.33016
宿営	-9.33092
わたしはまた	-9.33123
行う	-9.33229
働き	-9.33289
車	-9.33382
会見の幕屋	-9.33389
平和	-9.33397
ごとに	-9.33693
ささげる	-9.33761
十二	-9.33809
せず	-9.33857
第	-9.33924
嗣業	-9.33929
強く	-9.3403
つるぎを	-9.34182
なり	-9.34302
サ	-9.3432
れば	-9.34357
ホ	-9.34433
法	-9.34481
あらゆる	-9.34501
計	-9.34501
セラ	-9.34585
決して	-9.34656
殺した	-9.34686
正義	-9.34718
集め	-9.34972
去らせ	-9.35146
する者	-9.35205
を打ち	-9.35265
生きている	-9.3533
ひとりも	-9.35414
命を	-9.35501
民に	-9.35531
とその放牧地	-9.3563
しよう	-9.35673
わたしはあなたを	-9.35723
ことである	-9.35794
自ら	-9.35876
いつも	-9.35897
祭司たち	-9.36072
ゆえに	-9.36135
を見る	-9.36183
あがない	-9.36215
父の	-9.36242
持って	-9.36316
出した	-9.36316
去り	-9.36331
を愛し	-9.36465
を離れ	-9.36773
を守る	-9.36917
サマリヤ	-9.36959
悟り	-9.36968
先祖たち	-9.37082
彼はその	-9.3714
て言われた	-9.37159
主はまた	-9.37294
一緒に	-9.37369
主の宮	-9.37437
ダビデに	-9.37549
あなたがたも	-9.37599
逃げ	-9.37684
キュビト	-9.37715
小	-9.37737
見る	-9.37759
作	-9.3788
の声	-9.37892
られない	-9.379
だろう	-9.37924
金を	-9.38046
その後	-9.38104
させてください	-9.38124
いない	-9.38287
雄羊	-9.38335
のがれ	-9.38501
所で	-9.38518
栄え	-9.38655
投げ	-9.39048
イスラエルに	-9.39345
導き	-9.39528
堅く	-9.39622
戦	-9.3973
ゆ	-9.39804
ことはできない	-9.39851
わか	-9.39874
なす	-9.39943
ちり	-9.39945
しなかった	-9.39976
落ち	-9.39996
かなければならない	-9.40003
とをもって	-9.40016
エジプトの	-9.40022
とおり	-9.40048
の言葉を	-9.40181
告	-9.40218
グ	-9.4025
むしろ	-9.4025
を生んだ	-9.40256
の町	-9.40257
あなたのしもべ	-9.40286
だれでも	-9.40297
嘆き	-9.40325
取った	-9.40414
に命じて	-9.40465
の時	-9.40481
彼らはその	-9.40602
一頭	-9.40622
エジプトの地	-9.40734
祭司は	-9.40742
娘たち	-9.40927
にはいって	-9.40956
天の	-9.41034
燔祭	-9.41426
ならびに	-9.41442
罰	-9.41458
合	-9.41466
造られた	-9.41541
るべき	-9.41735
の上	-9.41753
弟子たちは	-9.41757
を設け	-9.41953
結	-9.42034
住む	-9.42152
ことに	-9.42211
先	-9.42273
の家に	-9.42413
負	-9.42556
の日	-9.42578
もろもろの国民	-9.4259
放	-9.4259
おこない	-9.4271
ころ	-9.42778
見て	-9.42784
去る	-9.42784
谷	-9.42809
上って	-9.42826
われた	-9.42907
三十	-9.42986
おきて	-9.43008
行かせ	-9.43077
務	-9.4326
の名は	-9.43319
に行き	-9.43448
つえ	-9.43533
父は	-9.43582
ことも	-9.43636
の方	-9.43721
耳を	-9.43768
誇	-9.43776
ゼ	-9.43818
のろい	-9.43883
女の	-9.43925
こそ	-9.44094
その兄弟	-9.4418
のもの	-9.44274
救う	-9.44451
長子	-9.4449
わり	-9.44514
教会	-9.44546
歩み	-9.44553
つけ	-9.44568
この地	-9.446
伝え	-9.44627
青銅の	-9.44757
ようか	-9.44765
弟子たち	-9.44818
やみ	-9.44823
生きる	-9.44866
になり	-9.44926
われわれが	-9.45024
うちに	-9.45067
ヤラベアム	-9.451
あなたがたのうちに	-9.45149
のようだ	-9.45231
われ	-9.45521
がなく	-9.45635
バビロンの王	-9.45746
したので	-9.45962
らは	-9.46027
つかわした	-9.46143
人々を	-9.462
高き所	-9.46327
聖	-9.46337
それぞれ	-9.4635
アサ	-9.46423
はいって	-9.46451
アッスリヤの王	-9.46515
国に	-9.46523
のかたわらに	-9.46591
サムエル	-9.46605
主なる神は言われ	-9.4662
思	-9.46639
あなたはわたしの	-9.46649
得	-9.46669
なのである	-9.46821
示し	-9.46821
かれる	-9.46836
は彼	-9.46838
ないで	-9.46944
の子孫は	-9.47066
もない	-9.47196
若者	-9.47213
かれた	-9.47332
あなたの前に	-9.47427
に至る	-9.47465
城壁	-9.47551
シケル	-9.47584
ウ	-9.47586
ズ	-9.47615
とも	-9.47679
近	-9.47729
恥	-9.47834
より	-9.47892
はない	-9.481
をお	-9.48117
北	-9.48248
の血	-9.48371
主なる神	-9.48376
こさせ	-9.48425
証人	-9.48462
堅	-9.48667
宣べ伝え	-9.48854
喜ぶ	-9.48903
ききん	-9.49066
を造った	-9.49222
汚れ	-9.4933
あなたの父	-9.49514
置いた	-9.49562
を離れて	-9.49564
間に	-9.49697
感謝	-9.49729
わたしも	-9.49769
彼女を	-9.49815
上げ	-9.49858
アル	-9.4999
イスラエルの家	-9.5012
以上	-9.50167
エフライム	-9.50181
くる	-9.50354
あと	-9.50387
たからである	-9.50417
のことを	-9.50427
あなたのために	-9.5045
エリヤ	-9.5045
渡	-9.50453
大祭司	-9.50705
七つの	-9.50969
な者	-9.51001
連れて	-9.51032
さえ	-9.51099
そのように	-9.51132
拝	-9.51149
ったので	-9.51262
ビ	-9.51399
真	-9.51464
滅ぼす	-9.51518
あるように	-9.51551
女が	-9.51607
なかったので	-9.51633
去った	-9.51649
主の宮の	-9.51685
捕	-9.51901
者よ	-9.51937
の人々は	-9.52001
エジプトびと	-9.52253
ようとした	-9.52275
ようとする	-9.52286
庭	-9.52314
立つ	-9.52322
におる	-9.52326
のではない	-9.52404
コ	-9.52453
のみ	-9.5246
天幕	-9.52483
人と	-9.52496
ささげた	-9.52517
あなたがたのために	-9.52579
ヨナタン	-9.5258
については	-9.52609
をし	-9.52644
エルサレムで	-9.5267
すべての人	-9.52675
わたしの前に	-9.52716
子供たち	-9.52768
皮	-9.52822
人たちは	-9.52827
理	-9.5283
あなたの民	-9.52915
少し	-9.53064
流	-9.53248
集まって	-9.53267
定	-9.53327
撃	-9.53349
おられた	-9.53404
安息日	-9.53435
の神	-9.53515
にし	-9.53552
高い	-9.53714
を追い	-9.53823
外に	-9.53827
牧者	-9.54008
ないであろう	-9.54058
ヨアシ	-9.54196
ヘブロン	-9.54197
を与えて	-9.54204
シモン	-9.54214
わが民	-9.54293
主はこう仰せられる	-9.54329
のひとり	-9.54386
地から	-9.54394
衣	-9.54526
証	-9.54604
離	-9.54651
すること	-9.54668
むすこ	-9.5467
を捨て	-9.54712
にはいる	-9.54737
この民	-9.54833
望	-9.54849
したが	-9.55023
暗	-9.55161
この町	-9.55279
高く	-9.55365
進み	-9.55369
救われる	-9.55438
をなし	-9.5544
わざわい	-9.55501
アブサロム	-9.55516
安らかに	-9.55589
を引き	-9.55618
ベテル	-9.55627
罪を犯し	-9.55752
わない	-9.55767
断	-9.5589
さし	-9.55931
飲む	-9.55967
ノア	-9.56136
立った	-9.56147
の名	-9.56231
水の	-9.56382
空	-9.56435
ものと	-9.56445
わざを	-9.5649
を受ける	-9.56617
くれ	-9.56798
レビ	-9.56851
をする	-9.56854
ッ	-9.5693
あらわ	-9.56992
語られた	-9.57003
の供え物	-9.57012
食べる	-9.57033
ぶどう畑	-9.5707
に属する	-9.5712
なりません	-9.57141
アブラハムは	-9.57177
ダビデが	-9.57228
のち	-9.57239
わな	-9.57351
る時	-9.5744
せて	-9.57528
報	-9.57597
の谷	-9.57635
これら	-9.57684
て下さる	-9.57868
らなかった	-9.57923
手で	-9.57953
すべき	-9.57974
生き	-9.5799
の日に	-9.58073
屋	-9.58104
福音	-9.58168
ことがない	-9.58291
この世	-9.5832
つか	-9.58321
ジ	-9.58346
倒れる	-9.58349
ガリラヤ	-9.58364
おこなった	-9.58366
激しい	-9.5854
帰り	-9.58602
いたので	-9.58645
洗	-9.58649
争い	-9.58694
者たちは	-9.5895
わたしに言われた	-9.5904
割礼	-9.59248
災を	-9.5926
像	-9.59321
にお	-9.59398
偽り	-9.59473
サムエルは	-9.59496
力を	-9.59553
おおい	-9.59563
側	-9.59633
歳	-9.59636
仕え	-9.5965
重ねて	-9.59793
住	-9.59818
の手に	-9.59837
ペテロは	-9.59915
わたしの民	-9.59922
の住民	-9.59997
うち	-9.60056
人をつかわして	-9.6019
長く	-9.6028
の境	-9.60399
語って	-9.604
起る	-9.60401
父が	-9.60461
起き	-9.6053
何か	-9.60556
くじ	-9.60597
その家	-9.60648
返し	-9.60674
遠く	-9.60963
神の人	-9.61144
度	-9.61154
ヘ	-9.61197
に住む	-9.61226
青	-9.61229
営	-9.61236
▁――	-9.61242
ピ	-9.61242
喜んで	-9.61263
ひと	-9.61339
死んで	-9.61374
気	-9.61419
怒りを	-9.61439
思う	-9.61462
ことなく	-9.61495
な子	-9.61749
の者	-9.61788
にして	-9.61832
るためである	-9.61867
恐れる	-9.61873
罪祭	-9.61875
わたしの父	-9.6204
町に	-9.62052
境	-9.62076
つかさ	-9.62079
ヨシュア	-9.62086
であることを	-9.6209
と言ったので	-9.6219
見え	-9.62211
正	-9.62369
ども	-9.62411
罪を犯した	-9.62457
を捕え	-9.62554
の中	-9.62639
後に	-9.62663
シケム	-9.62712
足の	-9.62713
ペリシテびとの	-9.62791
病気	-9.62845
ようとして	-9.62851
さいわいである	-9.62867
につけ	-9.62913
貧しい者	-9.62948
火を	-9.62977
カナンびと	-9.63024
へ行って	-9.6303
いったい	-9.63066
自分のために	-9.63148
造り	-9.63178
の道	-9.63226
ペテロ	-9.63375
パウロは	-9.63436
する者は	-9.63497
荒野に	-9.63634
奪	-9.63707
民が	-9.63754
羊の	-9.63861
数え	-9.63866
ささげ	-9.63982
立	-9.63988
与えられた	-9.64018
呼び	-9.64081
族	-9.64088
語	-9.64141
を携えて	-9.64177
議	-9.64183
ヨルダン	-9.64263
言葉は	-9.64263
その民	-9.64273
楽しみ	-9.64282
知る	-9.64337
われる	-9.64477
燃え	-9.64566
青銅	-9.64621
右	-9.64669
自分たち	-9.64718
おいて	-9.64868
耳	-9.64874
エサウ	-9.64885
あだ	-9.65022
その子ら	-9.65091
その日には	-9.65172
二百	-9.65175
地で	-9.6521
つかわし	-9.65217
かけ	-9.65272
モーセが	-9.65409
求める	-9.65421
争	-9.6544
事は	-9.65446
やめ	-9.65472
はずかしめ	-9.65574
ときに	-9.65705
永	-9.65718
むなしい	-9.65721
わが子	-9.65909
人々の	-9.6612
偽りの	-9.66181
っ	-9.66184
にあって	-9.66281
するであろう	-9.66348
に与え	-9.66393
激しく	-9.66395
に与えた	-9.66398
水は	-9.66466
神の国	-9.66467
します	-9.66498
御霊	-9.66584
仕	-9.66611
を滅ぼす	-9.66633
パロは	-9.66983
正しく	-9.66984
おく	-9.67101
定められた	-9.67174
弟	-9.67184
み名	-9.67221
を連れて	-9.67237
悪人	-9.67246
食物を	-9.67251
から出て	-9.6729
に臨んだ	-9.67298
ふさ	-9.67351
むち	-9.67395
に至るまで	-9.67442
の長	-9.67486
と名づけた	-9.67523
現れ	-9.67548
イスラエルを	-9.67601
つるぎをもって	-9.67802
ますます	-9.67824
のところへ	-9.67862
もろもろの国	-9.67892
くら	-9.68014
まい	-9.68029
ることができない	-9.68036
を建て	-9.68043
がきて	-9.68079
女たち	-9.6823
三日	-9.68322
にいた	-9.68448
注ぎ	-9.68472
立っている	-9.68588
およびその	-9.68617
去	-9.68708
エレミヤ	-9.68721
おき	-9.68734
ることは	-9.68737
ラッパ	-9.68818
身に	-9.68858
置いて	-9.68947
を生み	-9.68951
捕え	-9.69043
を行う	-9.69053
ないように	-9.69079
悪しき者	-9.69125
へ行った	-9.69127
淫	-9.6922
その名を	-9.69309
若い	-9.6942
御	-9.6955
らって	-9.69552
いった	-9.6962
今日	-9.69662
守	-9.6967
そのころ	-9.69689
永遠の	-9.69706
られている	-9.6986
世の	-9.70007
されている	-9.70042
すべてのもの	-9.70087
万軍の主は	-9.70106
すまい	-9.70153
立っていた	-9.70187
汚れた	-9.70209
弟子	-9.70235
を滅ぼし	-9.70248
もので	-9.70306
ゆるし	-9.70393
ケルビム	-9.70408
モルデカイ	-9.70408
スリヤびと	-9.70439
モーセとアロン	-9.70444
ゲ	-9.70454
いや	-9.70518
見せ	-9.70559
示す	-9.70679
物と	-9.70798
引いて	-9.70818
のための	-9.70838
置き	-9.70916
栄	-9.70968
エリシャは	-9.71048
を集め	-9.71078
もとに	-9.71098
知って	-9.71124
祭壇の	-9.71124
ませんでした	-9.71256
の所に	-9.71327
死人	-9.71346
自分たちの	-9.71407
ユダの人々	-9.71433
われらは	-9.71487
受ける	-9.71504
モアブの	-9.71525
契約を	-9.71769
今は	-9.71775
あなたも	-9.71807
ろうと	-9.71821
事が	-9.71839
モ	-9.71958
に入れ	-9.72003
みこころ	-9.72021
祭の	-9.72039
のあいだ	-9.72041
を与える	-9.72119
わたしはあなたに	-9.72152
日は	-9.72155
はあなた	-9.72211
さんび	-9.72218
定めと	-9.72305
を殺し	-9.72329
出された	-9.72332
供え物	-9.72349
彼に言われた	-9.72443
に告げ	-9.72516
その手	-9.72564
言って	-9.72564
主は言われた	-9.72623
宿	-9.72736
と思う	-9.72777
の上で	-9.72797
を求め	-9.72797
たとき	-9.72945
子牛	-9.72947
正しい者	-9.72971
さなければならない	-9.72999
まれる	-9.73094
らくだ	-9.73183
おまえは	-9.73319
られます	-9.73339
ユダは	-9.73345
まし	-9.73375
その女	-9.73408
空の	-9.73412
を立てて	-9.73428
場合	-9.73607
に従い	-9.73608
飲み	-9.73637
愛する	-9.7366
びとの氏族が出	-9.73664
その上	-9.73664
先生	-9.73683
たちが	-9.7377
破	-9.73815
務を	-9.73823
残っている	-9.73873
を殺した	-9.73891
主はその	-9.73933
この人は	-9.73947
これを聞いて	-9.74033
次の	-9.74245
地と	-9.74255
取る	-9.74415
四つの	-9.74495
除	-9.74674
ついて	-9.74747
命じて	-9.74757
んじ	-9.74781
いのち	-9.74864
にきた	-9.75218
待	-9.75239
兄	-9.75272
彼のために	-9.75295
利	-9.75303
あふれ	-9.75331
いばら	-9.75348
荒野で	-9.75471
物は	-9.7563
女に	-9.75651
自身	-9.75658
にまさって	-9.75807
町を	-9.75811
イスラエルの人々の	-9.75918
その神	-9.75929
出てきて	-9.7608
もしあなたが	-9.76109
のかしら	-9.76327
器を	-9.76357
とり	-9.76409
を知る	-9.76414
出て行って	-9.76452
立たせ	-9.76481
ときは	-9.76523
まれ	-9.76638
ことをしない	-9.76729
てしまった	-9.7673
彼女の	-9.7676
燔祭と	-9.76797
の氏族	-9.76803
清め	-9.76854
着物	-9.7686
ほ	-9.76994
祭と	-9.76995
ねばならない	-9.77017
かま	-9.7705
子ら	-9.77092
りを	-9.77141
野の	-9.77285
ヒゼキヤ	-9.77291
人であった	-9.77344
たのである	-9.77491
主にささげる	-9.77519
を助け	-9.77588
と同じ	-9.77629
らし	-9.77693
小さい	-9.77694
もど	-9.777
幕	-9.77725
のではなく	-9.77778
深く	-9.77826
荒れ	-9.77854
わが主	-9.77892
入	-9.78019
かき	-9.78152
話	-9.78302
の国	-9.78338
四十	-9.78339
信じる	-9.78594
を受けて	-9.78628
渡し	-9.78704
かしら	-9.78724
万軍の	-9.78753
ひとりは	-9.78771
の口	-9.78775
カナンの地	-9.7879
絶えず	-9.78852
るとき	-9.78878
にまさる	-9.78886
滅ぼされる	-9.78944
主君	-9.78977
へび	-9.7901
を持って	-9.79138
ほめ	-9.7915
を聞いて	-9.79272
なされた	-9.79326
らい	-9.79364
彼らのために	-9.79405
女を	-9.79456
行われた	-9.79461
の方に	-9.79553
御子	-9.7957
飲ませ	-9.79624
寄り	-9.79634
ることなく	-9.79663
持ち	-9.79672
ノ	-9.79736
その妻	-9.79743
祭壇を	-9.79821
に住んでいる	-9.79836
国を	-9.79839
らせた	-9.79857
かく	-9.7986
二つ	-9.79957
レア	-9.79962
はい	-9.79975
パロの	-9.79987
まり	-9.80023
わたしはこの	-9.80187
わた	-9.802
に仕え	-9.80235
いつまで	-9.80244
なった	-9.80396
彼らと	-9.80497
アザリヤ	-9.80501
を守って	-9.80584
大きく	-9.80585
歩	-9.80638
なるであろう	-9.80807
いつまでも	-9.80807
を行い	-9.80823
分け	-9.8085
の入口	-9.80861
家来	-9.81013
に告げて	-9.81091
ることができる	-9.81172
られるであろう	-9.81193
からは	-9.81203
終った	-9.81281
年に	-9.81318
まさ	-9.8138
七年	-9.81381
帰らせ	-9.81397
されました	-9.81439
命じ	-9.81451
自分で	-9.81537
多い	-9.81626
ヨアブは	-9.81699
その身	-9.81865
先祖	-9.8211
主にささげ	-9.82112
をささげ	-9.82229
誓いを	-9.82281
の書にしるされている	-9.82286
シメオン	-9.82286
ヘロデ	-9.82286
王よ	-9.82292
半ば	-9.82307
知らなかった	-9.82323
神の子	-9.82362
撃ち	-9.82407
まれた	-9.82501
力と	-9.82506
民衆	-9.82542
得た	-9.8256
乳	-9.82771
悟	-9.82784
彼女に	-9.8292
されるであろう	-9.83058
なさ	-9.83062
戦いに	-9.83206
ことによって	-9.8321
諸	-9.83238
義と	-9.83281
獲た	-9.83284
を得させ	-9.83503
エジプトに	-9.83525
断食	-9.8357
動	-9.83603
がその	-9.83702
賜わった	-9.83721
売	-9.83747
守り	-9.83798
の前	-9.83881
その国	-9.83937
あなたがたのうち	-9.8396
水が	-9.83961
入れて	-9.84005
必	-9.84046
しもべは	-9.84072
使者	-9.84093
よろしく	-9.84104
しました	-9.84121
しかも	-9.84128
殺す	-9.84141
ユダヤ	-9.84166
六十	-9.84169
なんと	-9.84175
買	-9.84242
食事	-9.84273
があれば	-9.84328
ものが	-9.84355
の兄弟	-9.84393
はしため	-9.84422
家族	-9.84455
ともに	-9.84497
安息	-9.84509
君	-9.84579
悪しき	-9.84599
殺され	-9.84619
日が	-9.84632
安息日に	-9.84698
衣を	-9.84715
パンを	-9.84768
手の	-9.84771
彼と	-9.84771
のつかさ	-9.84775
右の手	-9.84799
破れ	-9.84851
聖なる物	-9.84896
ソロモンの	-9.84903
頭に	-9.84949
の子は	-9.84965
かを	-9.85054
一日	-9.85069
まない	-9.8507
よみがえ	-9.85118
きよめ	-9.85131
に宿営し	-9.85187
に着いた	-9.85211
下の	-9.85217
一千	-9.85262
エジプトから	-9.85372
耳に	-9.85462
いつ	-9.85522
を呼び	-9.85535
せた	-9.8556
様	-9.85721
祭を	-9.85783
ことができようか	-9.8579
十二人	-9.85838
満	-9.85869
和	-9.8594
やもめ	-9.85946
聞かせ	-9.85949
ベツレヘム	-9.85956
そんな	-9.85957
暗やみ	-9.85967
吹き	-9.85969
さず	-9.85969
を捨てて	-9.85973
いなご	-9.85974
わたしたちの主イエス	-9.8598
目は	-9.85981
に投げ入れ	-9.85983
その子孫	-9.86099
らす	-9.86099
められる	-9.86112
主イエス	-9.86151
用	-9.86232
かけて	-9.86236
前から	-9.86261
使徒たち	-9.86272
われらを	-9.86315
モアブ	-9.86345
もし人が	-9.8635
三人	-9.86374
と思った	-9.86378
の中の	-9.86382
男子	-9.86407
に与えて	-9.86449
おられます	-9.86516
わら	-9.86526
愚か	-9.86544
までも	-9.86559
彼と共に	-9.86652
わたしはわが	-9.86661
れない	-9.86744
召し	-9.86818
を造って	-9.8687
者には	-9.86902
あなたと共に	-9.86958
るのは	-9.87004
を守り	-9.8703
その地	-9.87177
足を	-9.87177
ことのない	-9.87222
解	-9.87257
から出た	-9.8734
の町々	-9.87388
主の言葉	-9.87459
年の	-9.87635
いたからである	-9.87637
るからである	-9.87682
罪の	-9.87698
あなたがたと	-9.87808
城	-9.87825
しばらく	-9.87827
倒れた	-9.87838
アブネル	-9.87843
すみやかに	-9.87845
送り	-9.87846
に伏し	-9.87851
やがて	-9.87867
神殿	-9.87918
を焼き	-9.87941
石を	-9.87982
その町	-9.88006
この事	-9.88035
ダニエル	-9.88076
かず	-9.8812
ほどの	-9.88127
残して	-9.8822
しもべたち	-9.88262
この人	-9.8828
イスラエルの人々が	-9.88295
りました	-9.88348
送った	-9.88444
ほしい	-9.88453
たる者	-9.88508
御使	-9.88639
さいわい	-9.88643
た時	-9.88707
恵みを	-9.88733
近く	-9.88751
信じ	-9.88834
滅びる	-9.8885
にとって	-9.88884
口に	-9.88893
心は	-9.88906
に言い	-9.88998
つかわされた	-9.89013
与える	-9.89013
男の子	-9.89033
アナ	-9.8906
民はみな	-9.8919
安	-9.89217
あります	-9.8922
わたしのしもべ	-9.89286
衣服	-9.89295
自分が	-9.89299
の所へ	-9.89415
の名を	-9.89425
愚かな	-9.89504
すべての事	-9.89521
いている	-9.89533
聖書	-9.89764
たくわえ	-9.89766
のごとく	-9.89766
ラケル	-9.89773
一同	-9.8981
驚き	-9.8986
を撃ち	-9.89939
正しい人	-9.90033
主をほめたたえよ	-9.90087
東の方	-9.90094
金銀	-9.90095
にはいった	-9.90277
死体	-9.90285
わけ	-9.90295
をした	-9.90381
わたしと一緒に	-9.90398
与えた	-9.90406
広	-9.9045
イエスは答え	-9.90619
までは	-9.9067
に与える	-9.90788
若	-9.90797
といった	-9.90799
永遠に	-9.90816
てくれた	-9.90862
を守ら	-9.90901
いなかった	-9.90955
ったが	-9.91324
宣	-9.91329
と答えた	-9.91366
今日まで	-9.91382
の書	-9.91434
帰った	-9.91472
礼拝	-9.91484
他	-9.91509
に住み	-9.91636
連れ	-9.91641
守って	-9.91671
力ある	-9.91709
悪しき者は	-9.91717
不思議	-9.91727
ヨラム	-9.91733
サタン	-9.91735
サラ	-9.91738
ぶどうの木	-9.91771
ゲル	-9.91774
を喜ばせ	-9.91931
作った	-9.91934
叫んで	-9.92006
ふたりは	-9.92262
まった	-9.9231
この国	-9.92311
祭司の	-9.92467
書き	-9.92498
長さ	-9.92729
い者	-9.92738
ようになった	-9.92749
へ行き	-9.92764
あなたの家	-9.92781
生きながらえ	-9.92787
わたしの子	-9.92794
これらのことを	-9.93058
アンモンの人々	-9.93104
わたしは彼らを	-9.93141
ています	-9.93345
心が	-9.93405
聖徒	-9.9346
まま	-9.93579
ソドム	-9.93727
そむいて	-9.93731
アビ	-9.93749
のぼって	-9.9377
いつくしみ	-9.93786
話し	-9.93796
ささえ	-9.93796
世々	-9.93797
彼らの上に	-9.93815
頭を	-9.93857
神から	-9.93882
国は	-9.9397
テル	-9.94009
諸国民	-9.94024
きたので	-9.94054
るなら	-9.94107
を求める	-9.94114
さばく	-9.9418
山地	-9.94223
この女	-9.94341
をかけ	-9.94408
信じた	-9.94444
ペリシテびとは	-9.94509
べた	-9.94518
キ	-9.94528
べて	-9.94562
ここで	-9.94565
て下さった	-9.94581
歩む	-9.94734
偽りを	-9.94892
ることができ	-9.94897
滅ぼされ	-9.94977
恥じ	-9.95004
土地	-9.95006
れている	-9.95045
幕屋の	-9.95054
落	-9.95095
わたしはその	-9.95119
キリストは	-9.95252
同じように	-9.95279
をつかわして	-9.95308
ぜ	-9.95353
アッスリヤ	-9.9539
悪しき者の	-9.95505
次に	-9.9552
の家の	-9.9558
だと	-9.95625
みわざ	-9.95632
ゼカリヤ	-9.95768
アロンとその子たち	-9.95769
進んだ	-9.95781
年の間	-9.9583
ガテ	-9.95843
高さ	-9.95895
ではありません	-9.95903
高ぶり	-9.95942
聞きいれ	-9.95945
アモリびと	-9.95953
妻と	-9.95971
とおりである	-9.95975
のようであった	-9.96218
ここ	-9.96234
変	-9.96329
らい病	-9.9635
人も	-9.96364
なくなった	-9.96409
に臨む	-9.96412
もしあなたがたが	-9.96419
むべき	-9.9644
憎むべき	-9.96475
イエスは彼らに	-9.96572
魂	-9.96582
祈って	-9.96674
をうけ	-9.96692
神の宮	-9.96694
祭司たちは	-9.9673
しき	-9.96747
ささげ物	-9.96761
日を	-9.96839
したように	-9.9686
から離れ	-9.9687
楽し	-9.96931
神である	-9.96936
あなたはまた	-9.96954
その所	-9.96968
人間	-9.97038
するのか	-9.97388
うと	-9.97505
清い	-9.97628
良	-9.97706
所から	-9.97752
どこに	-9.97771
てきた	-9.97776
体	-9.97781
律法の	-9.97799
ペ	-9.978
の肉	-9.97849
おおよそ	-9.97851
アハズ	-9.97851
ギベオン	-9.97851
を出立して	-9.97852
主の言葉がわたしに臨ん	-9.97861
アンモンびと	-9.97861
ことについて	-9.97874
ヒゼキヤは	-9.97885
ロン	-9.97911
って言った	-9.97931
置く	-9.9794
するように	-9.97974
シロ	-9.97975
歩き	-9.98017
木の	-9.98021
国々の民	-9.98072
かかって	-9.98102
主にむかって	-9.98116
アイ	-9.98118
わたしはこれを	-9.98247
るのか	-9.98276
の分	-9.98323
をして	-9.98373
その父	-9.98428
それらの	-9.98525
に従った	-9.98596
犠牲をささげ	-9.98669
しい者	-9.98752
を撃って	-9.98843
呼ばわって	-9.98869
偽	-9.98976
若者たち	-9.99091
獲	-9.99115
銀の	-9.99125
にあった	-9.99129
に行って	-9.9916
なくなる	-9.99361
この日	-9.99396
のかたわら	-9.99519
られたので	-9.99684
義人	-9.9975
できる	-9.99807
告げた	-9.99835
を呼んで	-9.99903
生きて	-9.99905
福	-9.99972
プ	-9.99979
集まった	-9.99979
ギベア	-9.99979
ほむべきか	-9.9998
ともしび	-9.99996
入れた	-10.0008
立てた	-10.0008
世を治めた	-10.001
そうと	-10.0011
ヨシヤ	-10.0017
彼女が	-10.0027
寄せ	-10.005
に会う	-10.0052
しもべら	-10.0058
これらのもの	-10.006
義を	-10.0063
なわ	-10.0064
その罪	-10.0066
周囲の	-10.0067
であるか	-10.0069
ためであった	-10.0069
ていない	-10.0073
その町々	-10.0077
に満ち	-10.008
があるか	-10.0081
すであろう	-10.0082
これによって	-10.0083
サウルの	-10.0091
なって	-10.0092
出て行った	-10.0094
信仰によって	-10.0097
そこには	-10.0108
家来たち	-10.0109
歩いて	-10.0111
しても	-10.0111
と同じように	-10.0129
はず	-10.0134
示	-10.0146
くなって	-10.0161
すえ	-10.0162
門の	-10.0166
たちを	-10.0166
だけで	-10.0183
町は	-10.0186
を出て	-10.0186
パリサイ人	-10.0187
中で	-10.0188
行わなければならない	-10.0201
ヒ	-10.021
ゼデキヤ	-10.0214
を選び	-10.0215
選ばれた	-10.0215
アセル	-10.0215
シメイ	-10.0215
やぐら	-10.0215
雄やぎ	-10.0217
あざ	-10.0223
るのである	-10.0225
主の宮に	-10.0232
右に	-10.0236
この時	-10.0236
持っている	-10.0252
すみか	-10.0257
せる	-10.0265
コラ	-10.0271
の水	-10.0272
はいり	-10.0274
に従う	-10.0275
とされた	-10.0276
まわり	-10.0281
野に	-10.0281
初	-10.0283
カルデヤびと	-10.0284
返	-10.0284
ヤコブの	-10.0288
るため	-10.0291
もしわたしが	-10.0293
あす	-10.0303
を汚し	-10.0311
しようと	-10.0326
民と	-10.0326
ことがなく	-10.0335
上った	-10.0339
祈り	-10.034
を恐れ	-10.0343
に行く	-10.0347
エリシャ	-10.0348
呼ばわり	-10.0349
これを見て	-10.0354
その人を	-10.0356
与えられる	-10.0359
ことができましょう	-10.0359
あなたの子	-10.0364
オン	-10.0366
主に仕え	-10.0366
たちに	-10.0368
イスラエルよ	-10.0375
供え	-10.0381
すみ	-10.0381
満ち	-10.0388
建て	-10.0389
あなたの子孫	-10.039
君たち	-10.0391
さばきを	-10.0405
わたしの名	-10.0409
わたしの言葉	-10.0411
嘆	-10.0411
その口	-10.0423
を切り	-10.0427
間は	-10.0432
恐るべき	-10.0435
ゼブルン	-10.0437
ひそかに	-10.0437
アマジヤ	-10.0437
おまえたち	-10.0438
羊を	-10.044
ご自身	-10.044
全体	-10.044
わたしがあなたがた	-10.0441
を持っている	-10.0453
さま	-10.0455
上り	-10.0457
というのは	-10.0465
食べて	-10.0469
から出る	-10.0471
るのを	-10.0481
イスラエルびと	-10.0485
さき	-10.0486
食べてはならない	-10.0486
であるから	-10.0496
の命	-10.05
肉を	-10.0504
置か	-10.0507
救を	-10.0511
それによって	-10.0512
帰ってきて	-10.0513
御使が	-10.052
に仕える	-10.0523
主の言葉が	-10.0523
やぎ	-10.0525
律法を	-10.0535
されたので	-10.0552
べきである	-10.0554
恐れて	-10.0565
バビロンに	-10.0575
うる	-10.0579
示された	-10.0589
起きて	-10.0592
なかったからである	-10.0593
イスラエルの人々に	-10.0593
救い	-10.0603
大きい	-10.0605
全部	-10.0609
その人が	-10.061
をさばく	-10.0616
るべきである	-10.062
葉	-10.0622
ひも	-10.0624
打	-10.0626
全き	-10.0628
雄	-10.0631
ほめたたえ	-10.0631
エリヤは	-10.0631
氏族	-10.0633
あるもの	-10.0636
に住んだ	-10.0636
はありませんか	-10.0638
知り	-10.064
前の	-10.0641
られるように	-10.0643
を奪い	-10.0645
のがれて	-10.0646
世に	-10.0651
の血を	-10.0651
を得た	-10.0655
物の	-10.0662
ポ	-10.0665
誓願	-10.0665
イシマエル	-10.0665
もっと	-10.0665
そしり	-10.0666
をおおう	-10.0668
明らかに	-10.0669
ごろ	-10.0674
おとめ	-10.0674
ぶんどり物	-10.0675
メン	-10.0676
散らし	-10.0679
人で	-10.0679
に代って	-10.0681
であれば	-10.0683
囲	-10.0684
タラント	-10.0687
を食い	-10.0692
何事	-10.0693
母の	-10.071
イサクは	-10.0718
レビびとは	-10.0718
座して	-10.072
多くの人	-10.0726
おる	-10.0729
の霊	-10.073
と思って	-10.0731
川の	-10.0736
ヨブ	-10.0741
出される	-10.0741
とどまる	-10.0746
ることはできない	-10.0746
聖別し	-10.0747
をはずかしめ	-10.0748
内に	-10.0751
血の	-10.0752
声が	-10.0762
とどまって	-10.0765
家を建て	-10.0766
ルベン	-10.0771
との間に	-10.078
そこで彼らは	-10.0785
うしろ	-10.0788
したら	-10.0788
の道を	-10.079
殺される	-10.0793
の目の前で	-10.0799
アハブ	-10.08
定めた	-10.0805
千人	-10.0807
集める	-10.081
言いました	-10.0812
主のために	-10.0817
に告げた	-10.0827
シラ	-10.083
ホル	-10.0832
はじめ	-10.0835
戦う	-10.0841
ずに	-10.0841
いって	-10.0847
初め	-10.0848
に帰する	-10.0849
が彼	-10.0857
使徒	-10.0858
わたしは彼	-10.086
その兄弟たち	-10.0861
者で	-10.0861
アロンは	-10.0861
見ている	-10.0867
死の	-10.0869
戸を	-10.0874
に住んでいた	-10.0876
かご	-10.0877
人である	-10.0887
ナフタリ	-10.0892
を犯し	-10.0893
下り	-10.0896
その母	-10.0897
イッサカル	-10.0897
ザドク	-10.0897
五頭	-10.0904
所を	-10.0907
わざわいだ	-10.0909
タン	-10.091
みんなの者	-10.0916
ハテ	-10.0921
わたしの所に	-10.0921
王を	-10.0921
声をあげ	-10.0925
のがれる	-10.0926
そして彼は	-10.093
王の前に	-10.0932
おいた	-10.0933
御使たち	-10.094
のようになり	-10.0945
殺された	-10.0948
を殺す	-10.0949
てしまう	-10.0955
ずつ	-10.0956
ことのないように	-10.0963
をとり	-10.0965
近い	-10.0966
から取り	-10.097
導いて	-10.0972
らう	-10.0984
現	-10.0985
あなたはその	-10.099
わたしには	-10.099
あなたがたはわたし	-10.0996
はかり	-10.0998
アブラム	-10.1004
三つの	-10.1008
を取った	-10.1013
に行った	-10.1019
着せ	-10.102
モーセの	-10.1025
を産んだ	-10.1034
五人	-10.1036
ことと	-10.1038
者たちが	-10.1041
イスラエルの人々のうち	-10.1045
父よ	-10.1046
悟る	-10.1052
たいと	-10.1057
ことができず	-10.1063
に住む者	-10.1073
王に言った	-10.1074
いたく	-10.1077
そして彼らは	-10.1078
されない	-10.1081
目が	-10.1082
出て行く	-10.1087
家の	-10.1095
残りの	-10.11
いつくしみを	-10.1101
誇る	-10.1104
火の	-10.1113
の下	-10.112
しみ	-10.1121
こう仰せられる	-10.1122
べる	-10.1124
ヨルダンの	-10.1125
ことを知る	-10.1125
ソ	-10.1135
ミヅパ	-10.1135
キリア	-10.1135
罪を犯す	-10.1135
石がき	-10.1136
建てる	-10.1137
七日の間	-10.1138
五キュビト	-10.1139
酒を	-10.1141
り物	-10.1143
のもと	-10.1149
おのが	-10.1151
良き	-10.1152
に当った	-10.1152
を治める	-10.1158
わたしはあなたがたを	-10.1164
全地	-10.117
ヨナタンは	-10.1184
ましたが	-10.1185
そのために	-10.1187
臨	-10.119
しかしわたしは	-10.1193
できない	-10.1195
ユダヤ人の	-10.1198
そのしもべ	-10.1201
てくれる	-10.1208
をあらわし	-10.121
外の	-10.1212
ぼ	-10.1217
はことごとく	-10.122
いました	-10.1221
エヒウ	-10.1222
山々	-10.1226
でなく	-10.123
あらわれ	-10.1236
それでは	-10.1237
ることができようか	-10.1238
められた	-10.1254
光を	-10.126
行かれた	-10.1262
彼らのうちに	-10.1263
ピラトは	-10.1273
みんな	-10.1289
かい	-10.129
エジプトの国	-10.1294
わたしがあなた	-10.1302
いな	-10.1302
ようにと	-10.131
北の	-10.1313
行け	-10.1316
であれ	-10.1317
こうして彼らは	-10.1317
この言葉を	-10.1319
知恵と	-10.1325
事の	-10.1333
いえ	-10.1335
長老	-10.1337
下さい	-10.135
中に	-10.1353
を数え	-10.1362
を汚す	-10.1368
心から	-10.1368
ミカ	-10.1375
エレアザル	-10.1376
タマル	-10.1377
に向かい	-10.1379
を選んで	-10.1379
こんな	-10.1379
つかわす	-10.138
父祖	-10.1381
ロト	-10.1383
第四	-10.1388
アブサロムは	-10.1388
その血	-10.139
ハム	-10.1392
パル	-10.1392
尋ねて	-10.1394
ヨシャパテ	-10.1401
栄光を	-10.1403
他人	-10.1405
を救い	-10.1409
十分の一	-10.141
初めから	-10.141
聖徒たち	-10.1413
と呼ばれる	-10.1413
はすべて	-10.1413
ぜた	-10.1414
を祝福し	-10.1424
怒って	-10.1429
に向け	-10.1435
と言われ	-10.1438
主人は	-10.1444
でない	-10.1445
あがめ	-10.1446
を備え	-10.1448
食い	-10.1452
その人に	-10.1453
日の間	-10.1456
落し	-10.1461
ありません	-10.1464
神と	-10.1467
帰ってきた	-10.1469
イム	-10.1477
恐	-10.1487
どの	-10.1488
させられた	-10.1489
れさせ	-10.1494
を通	-10.1495
するために	-10.1495
もと	-10.1497
あなたがたの先祖	-10.1502
不義を	-10.1503
第十	-10.1508
しるしと	-10.151
に耳を	-10.1512
をつかさど	-10.1512
とがを	-10.1517
すべての者	-10.1518
時から	-10.152
人には	-10.1521
三つ	-10.1531
み前に	-10.1533
えない	-10.1538
がなかった	-10.154
ものです	-10.1544
ささげなければならない	-10.1546
ギレアデの	-10.1548
るのですか	-10.1549
すぐに	-10.1551
祈を	-10.1555
のその他の	-10.1557
賜わる	-10.1579
はなく	-10.158
るな	-10.1586
して言った	-10.159
第三	-10.1606
決	-10.161
あなたはわたしを	-10.1613
うもの	-10.1616
に乗って	-10.1627
ちょうど	-10.1629
アハジヤ	-10.1629
ギ	-10.1629
ひじょうに	-10.1629
ヅ	-10.1629
ネゲブ	-10.1629
つまずき	-10.1629
むなしく	-10.1631
の族長	-10.1631
全会衆	-10.1634
あなたのいつくしみ	-10.1634
シャン	-10.1638
つけた	-10.1638
それとも	-10.1639
尋ねた	-10.1639
をとおって	-10.1639
だれにも	-10.1645
えている	-10.1655
時まで	-10.1659
望む	-10.166
バル	-10.1663
主の命	-10.1667
ことができなかった	-10.1677
墓に	-10.1677
ってきた	-10.1681
群衆が	-10.1686
ようにし	-10.1688
初めの	-10.169
山の	-10.169
かり	-10.1694
かたが	-10.1701
いても	-10.1707
のようになる	-10.173
主の名	-10.173
ゆるされ	-10.1731
死を	-10.1732
すべての物	-10.1738
を治め	-10.1749
万人	-10.1755
の女	-10.1756
マリヤ	-10.176
連れてきて	-10.1761
歩く	-10.1774
悪霊	-10.178
加え	-10.1787
エラ	-10.1788
変え	-10.1788
第二	-10.179
の名によって	-10.179
産んだ	-10.18
そのような	-10.1817
信心	-10.1821
おのれの	-10.1828
う者	-10.1833
を聞いた	-10.1835
を捕えて	-10.1843
るまで	-10.1848
われら	-10.1848
の世に	-10.1851
いてはならない	-10.1853
わす	-10.1855
が満ち	-10.1865
かすめ	-10.188
から救い	-10.1881
ひとりで	-10.1884
のひとりが	-10.1884
いちじく	-10.1885
ヘテびと	-10.1885
近づいた	-10.1886
ピリポ	-10.1886
あまねく	-10.1886
ギルガル	-10.1886
目をあげて	-10.1887
あなたがたに言っておく	-10.1888
ダマスコ	-10.1888
ヨナ	-10.1889
救い出し	-10.189
ものに	-10.1896
これがために	-10.1899
わなかった	-10.1904
宝石	-10.1911
着物を	-10.1912
高ぶる者	-10.192
ではなかった	-10.1923
隠れ	-10.1924
を知らない	-10.1928
われらの神	-10.1929
を出	-10.1943
パンを食べ	-10.1943
魂を	-10.1949
にまで	-10.195
げる	-10.1957
肉の	-10.1959
渡って	-10.196
があっても	-10.1971
ユダヤ人たち	-10.1971
彼らも	-10.1975
受けた	-10.1975
食べさせ	-10.1987
りなく	-10.2
あだを	-10.2006
あなたの兄弟	-10.201
を負わせ	-10.2012
せられる	-10.2013
るもの	-10.2025
のようで	-10.2027
を彼らに	-10.203
用いる	-10.2036
自分に	-10.2037
せられ	-10.204
罪は	-10.2044
これらの事を	-10.2057
引	-10.2061
者たちを	-10.2062
主があなた	-10.2073
りなさい	-10.208
上に	-10.2087
住む者	-10.2097
生かし	-10.2098
と名づけ	-10.2104
開いて	-10.2108
海に	-10.211
につき	-10.2124
みて	-10.2125
ある者	-10.2126
ダビデを	-10.2128
父に	-10.2128
その血を	-10.213
立てて	-10.2137
導	-10.2142
母は	-10.2147
大ぜい	-10.2149
ふたたび	-10.2149
めいめい	-10.2149
あざけり	-10.2149
大声で	-10.2149
シマヤ	-10.215
逃げて	-10.2151
アサフ	-10.2152
その道	-10.2155
り人	-10.2164
ラマ	-10.2166
の一族	-10.2166
のういご	-10.2168
現れた	-10.2169
主にあって	-10.217
ヒラム	-10.2178
エステル	-10.2188
の山	-10.219
次のとおりであ	-10.2193
おきてを	-10.2199
荒野の	-10.2201
あげて	-10.2207
をつけ	-10.2209
答	-10.2212
いと高き者	-10.2214
呼ばれ	-10.2216
ツロ	-10.2231
アビメレク	-10.2248
ほか	-10.225
サムソン	-10.225
せられた	-10.2258
飲	-10.2263
のもとへ	-10.2263
万軍の神	-10.2266
燔祭をささげ	-10.2269
家を	-10.2272
ペテロが	-10.2275
きました	-10.2278
その地を	-10.2285
ただひとり	-10.2285
洗い	-10.2286
殺された者	-10.2291
起す	-10.2292
を知っている	-10.2301
家畜と	-10.231
神はその	-10.2312
その前に	-10.2316
を撃った	-10.2319
テラ	-10.2321
働	-10.233
心のうちに	-10.2334
女と	-10.2347
父の家	-10.2349
天を	-10.2353
にささげ	-10.2356
愛する者	-10.2358
ねたみ	-10.2358
主を恐れ	-10.2361
パウロが	-10.2362
対	-10.2363
あなたがたに言う	-10.2363
そこでわたしは	-10.2368
次	-10.237
二千	-10.2371
にはいり	-10.2372
あなたの心	-10.2381
時代	-10.2392
側に	-10.2392
の内に	-10.2401
大水	-10.2403
ガド	-10.2404
獣の	-10.2406
の地に	-10.2407
半	-10.2414
のことで	-10.2416
そのいつくしみはとこしえに絶え	-10.2419
に至り	-10.2419
いけにえ	-10.2419
ざくろ	-10.2419
ひねもす	-10.2419
ラッパを吹き	-10.2419
リベカ	-10.2419
ほら穴	-10.2419
そむく	-10.2419
まっすぐに	-10.2419
たきぎ	-10.2419
メラリ	-10.242
喜んだ	-10.242
三度	-10.2423
数えられた者は	-10.2423
野の獣	-10.2427
つつ	-10.2428
の部族の	-10.2436
七十	-10.2444
約束された	-10.2445
むだ	-10.245
おまえの	-10.2453
見える	-10.2458
住んだ	-10.2459
つぎ	-10.2459
知恵ある者	-10.246
淫を行	-10.2461
かす	-10.2463
これは彼らが	-10.2466
ならず	-10.2467
彼女に言った	-10.2468
すべての事を	-10.2471
に臨み	-10.2474
殺そうと	-10.2474
を負う	-10.2481
恥を	-10.2486
の周囲	-10.2487
いやし	-10.2489
そのうちに	-10.249
しるしを	-10.2495
おのの	-10.2495
汚	-10.2496
ある人が	-10.2505
を憎む者	-10.2515
わたされ	-10.2517
を満たし	-10.2518
ダビデと	-10.2518
帰る	-10.2527
尋ねる	-10.2528
すわって	-10.2533
モーセと	-10.2536
主によって	-10.254
タイ	-10.2553
行こうと	-10.2558
その足	-10.256
立た	-10.2561
かし	-10.2568
さなかった	-10.2573
られると	-10.2575
レハベアム	-10.2577
用意	-10.2577
食べることができる	-10.258
させて	-10.2581
サムソンは	-10.2591
二頭	-10.2592
ってきて	-10.2592
滅ぼした	-10.2592
エヒウは	-10.2596
その他の	-10.2599
に座し	-10.2605
仕える	-10.2605
のつえ	-10.2613
あれ	-10.2616
のまわりに	-10.2625
カナン	-10.2631
それを食べ	-10.2642
その所に	-10.2644
この世の	-10.2656
葬った	-10.2658
行こう	-10.2663
現れる	-10.2666
泣き	-10.2673
ところで	-10.2678
。	-10.2678
三年	-10.2689
の賜物	-10.2697
たくさん	-10.2697
つかえめ	-10.2697
連れてきた	-10.2698
の代りに	-10.2698
戦争	-10.2699
待ち	-10.2699
を打つ	-10.2701
呼んだ	-10.2701
にさわ	-10.2705
心にとめ	-10.2707
祭司が	-10.2708
ユダとエルサレム	-10.2708
カル	-10.2708
働く	-10.2709
神の前に	-10.2712
子たち	-10.2714
動く	-10.2716
日々	-10.2716
それだから	-10.272
わが愛する者	-10.2721
知っています	-10.2721
イスラエルのすべての	-10.2721
みもとに	-10.2724
けよ	-10.2732
そこでイエスは	-10.2739
を負わ	-10.2748
叫ぶ	-10.2758
こられた	-10.2759
エフライムの	-10.276
わたしはあなたがたの	-10.2763
をもつ	-10.2773
貧しい者を	-10.2776
られなかった	-10.2779
者となり	-10.2781
をする者	-10.2784
持	-10.2793
らが	-10.2804
目には	-10.2804
お聞き	-10.2807
彼らと共に	-10.2812
計りごと	-10.2812
集めた	-10.2814
わからない	-10.2816
わたしと共に	-10.2816
主の家	-10.2824
を攻める	-10.2842
民は皆	-10.2853
ままで	-10.2855
レバノン	-10.2855
石の	-10.2856
置	-10.286
声をあげて	-10.286
この地に	-10.2861
これらの事	-10.2869
近づいて	-10.2872
ことになる	-10.2884
壁	-10.2887
オリブ	-10.2888
いかに	-10.2888
呼ばわる	-10.2895
ダビデの町	-10.2895
御座	-10.2899
を立て	-10.2907
にならない	-10.2912
を与えた	-10.2913
まして	-10.2918
つかさたちは	-10.2918
エポデ	-10.2924
言葉が	-10.2926
ているのである	-10.293
畑に	-10.2933
に投げ	-10.2937
天幕に	-10.2939
目の	-10.2942
につかわして	-10.2944
知者	-10.2952
実な	-10.2954
リヤ	-10.2958
この人が	-10.2958
言葉に	-10.2964
これと	-10.2966
思って	-10.2969
有	-10.2972
悲	-10.298
ナタン	-10.2981
感	-10.2982
かも知れない	-10.2983
エズレル	-10.2983
エブスびと	-10.2983
たちまち	-10.2983
に聞え	-10.2983
なにゆえ	-10.2984
救の	-10.2984
を聞き	-10.2984
犯した罪	-10.2985
を持つ	-10.2986
敵を	-10.2994
御名	-10.2994
わたしのもとに	-10.3004
拝み	-10.3006
住み	-10.3012
コハテ	-10.3018
日には	-10.3022
七日	-10.3033
じた	-10.3042
に入り	-10.3048
ラバン	-10.3049
いる者	-10.3051
驚	-10.3058
銀を	-10.3066
口を	-10.3068
であったが	-10.307
その頭	-10.3077
しましょう	-10.3082
敵は	-10.3082
持ち物	-10.3083
たちの	-10.3085
導き出し	-10.309
められ	-10.3091
これは主が	-10.3092
ばし	-10.3094
音	-10.3095
はいった	-10.3095
奪い	-10.3098
もしその	-10.3115
のようである	-10.3122
み手	-10.3127
求めた	-10.3136
人の子は	-10.3143
まって	-10.3143
あなたがたと共に	-10.3153
ハマン	-10.3153
所へ	-10.3154
だれの	-10.3154
食べた	-10.3163
信仰の	-10.3163
キリストが	-10.3166
みつけ	-10.3166
ヨセフの	-10.3169
えさせ	-10.3172
上着を	-10.3176
を作り	-10.3179
をささげなければならない	-10.3179
カルデヤびとの	-10.3187
うせ	-10.3191
たちと	-10.3194
もみな	-10.3197
柱の	-10.3197
残った	-10.3198
告げる	-10.3204
上の	-10.3204
ナイ	-10.3212
なのか	-10.3212
の頭	-10.3213
が来る	-10.322
者はみな	-10.322
あげる	-10.3228
地のすべての	-10.3233
が代って王となった	-10.3234
守る	-10.3243
の最も	-10.3252
ことがある	-10.3253
きます	-10.3254
つるぎと	-10.3257
勇	-10.3257
望みを	-10.3267
火祭	-10.3268
愚かな者	-10.327
父ダビデ	-10.3271
ボ	-10.3272
祈る	-10.3274
集まり	-10.3277
あがなう	-10.3277
に乗り	-10.3277
七日のあいだ	-10.3277
氏族の長	-10.3277
どこへ	-10.3278
ゼラ	-10.3282
楽しむ	-10.3282
にむかい	-10.3283
目の前に	-10.3283
一度	-10.3285
わが君	-10.3289
大麦	-10.3291
しかし彼らは	-10.3291
ロテ	-10.3293
む者	-10.3294
その氏族によ	-10.3297
主の箱	-10.33
思い出	-10.3303
買い	-10.331
工事を	-10.3315
頼む	-10.3316
霊が	-10.3316
嗣業として	-10.332
エルサレムを	-10.334
バプテスマを	-10.334
悪を行う者	-10.334
三人の	-10.3342
イスラエルの人々を	-10.3344
開かれ	-10.3354
から出	-10.3358
万物	-10.3361
と共にいる	-10.3374
その言葉	-10.3376
おそれ	-10.3376
義は	-10.3379
王の家	-10.3383
の手によって	-10.3387
力をもって	-10.3387
があろうか	-10.3393
送る	-10.3394
にする	-10.3394
の道に歩	-10.3409
レバノンの	-10.341
庭の	-10.3412
罪人	-10.3419
このことを	-10.342
主は彼らを	-10.3421
わせた	-10.3421
いただき	-10.3423
初めに	-10.3428
聖なる者	-10.3438
力は	-10.3439
種の	-10.345
をこわし	-10.3458
アデ	-10.3459
になると	-10.3465
二年	-10.3467
割礼を受け	-10.3469
を汚した	-10.3472
エリコ	-10.3473
国の民	-10.3474
この後	-10.3484
その人の	-10.3486
てほしい	-10.3486
たのは	-10.3492
叫んだ	-10.3499
行われる	-10.35
の心は	-10.35
ぞ	-10.3508
起った	-10.351
あとに	-10.3518
ようとしている	-10.3522
モーセに	-10.3525
神を恐れ	-10.3543
をおおい	-10.3548
部分	-10.3556
の家から	-10.3557
入り	-10.3565
殿	-10.3565
を受けた	-10.3567
者は皆	-10.357
つき	-10.3573
得ない	-10.3574
撃ち殺し	-10.3575
キシ	-10.3579
バラク	-10.358
オベデ	-10.358
うわさ	-10.358
臨ませ	-10.3581
ウジヤ	-10.3581
イスラエルの聖者	-10.3581
アビヤ	-10.3585
憎むべき事	-10.3586
軍の長	-10.3586
開き	-10.3587
知らず	-10.3589
ものではない	-10.359
けられた	-10.359
きわめ	-10.359
その敵	-10.3592
羊の群れ	-10.3593
きたるべき	-10.3594
清く	-10.3595
は滅び	-10.3599
語っている	-10.3599
海べ	-10.36
の手に渡し	-10.3623
いっさいの	-10.3626
エルサレムから	-10.3631
になっている	-10.3632
け所	-10.3635
ものも	-10.3639
のほとり	-10.3641
の後	-10.3646
ものだ	-10.3647
の者が	-10.3648
教を	-10.3649
まなかった	-10.365
燔祭の	-10.3652
ならなかった	-10.3657
くびきを	-10.3658
重い	-10.366
建てた	-10.3665
わたしはあなたがたの神	-10.3667
しさ	-10.3673
思っている	-10.3673
こない	-10.3675
勝利を得	-10.3679
上から	-10.3679
わされ	-10.368
わたしについて	-10.3686
このかた	-10.3687
次は	-10.3696
打たれ	-10.3708
そのうちの	-10.3719
知恵を	-10.3719
わき	-10.3726
を撃ち殺した	-10.3733
にとどまってい	-10.374
その部	-10.3741
の門に	-10.3745
のろわれ	-10.3753
はしない	-10.3755
くなった	-10.3759
物に	-10.3768
知恵は	-10.3769
の道は	-10.3772
シバ	-10.3776
一歳の雄の小羊	-10.3782
ラム	-10.3788
火は	-10.3793
はいけない	-10.3797
分け与え	-10.38
先祖の神	-10.3806
国々の	-10.381
イスラエルの家の	-10.3811
イスラエルのすべての人	-10.3811
くびき	-10.3813
ことができるか	-10.3816
三百	-10.3817
聖所の	-10.3818
滅ぼされた	-10.3819
子孫	-10.3821
金で	-10.3824
ヨシャパテは	-10.3828
さと	-10.3836
時にも	-10.3838
いっさい	-10.3844
御言	-10.3845
頼み	-10.3846
頭の	-10.3854
がこれを	-10.3857
アヒ	-10.3862
にそむいた	-10.3864
滅	-10.387
散	-10.387
を殺して	-10.3872
ろうとして	-10.3874
にきて	-10.3877
はいない	-10.3878
代々	-10.388
捕われ	-10.388
のを聞いた	-10.3888
地方	-10.389
祝	-10.3891
束	-10.3892
エズラ	-10.3892
恐ろしい	-10.3892
アムノン	-10.3892
ひとりびとり	-10.3892
いずれ	-10.3893
にしたがい	-10.3895
霊は	-10.3895
ながく	-10.3896
その境は	-10.3896
淫行	-10.3896
自分自身	-10.3897
つぼ	-10.3898
君たる者	-10.3898
他の神々	-10.3899
シオンの娘	-10.39
子ども	-10.3901
エパ	-10.3904
といい	-10.3904
ほふら	-10.3904
おのれ	-10.3907
実は	-10.3907
わたし自身	-10.3908
いた時	-10.3908
打ち場	-10.3914
長い	-10.3915
日が来る	-10.3916
この所	-10.392
かけた	-10.3921
それに属する	-10.3922
畑の	-10.3924
を破	-10.3929
ユダに	-10.3936
死人の中からよみがえ	-10.3937
を食べ	-10.3942
くし	-10.3946
知られ	-10.3948
の全地	-10.3951
みた	-10.3955
なん	-10.3956
に会い	-10.3957
預言者エレミヤ	-10.396
返す	-10.3962
、	-10.3967
人の子ら	-10.3969
口から	-10.3973
ダビデの子	-10.3976
ができ	-10.3977
命じる	-10.3988
をすえ	-10.3988
備え	-10.3992
イスラエルの人々に言	-10.3994
泣いた	-10.4
栄光の	-10.4002
そしてその	-10.4004
人の心	-10.4007
力が	-10.4013
わたしにむかって	-10.4017
だけが	-10.4021
したのである	-10.4025
携えてきた	-10.4033
とどまった	-10.4036
へ行く	-10.4038
なすべき	-10.4039
海を	-10.404
サウルが	-10.4043
はじめた	-10.4045
とりで	-10.4048
わがしもべ	-10.405
を治めた	-10.4054
食事をし	-10.406
燃える	-10.407
どろ	-10.408
城壁を	-10.4083
を憎む	-10.409
導かれ	-10.4102
ない者	-10.4106
勝利	-10.4111
第二の	-10.4111
書いた	-10.4114
人間の	-10.4128
ちまた	-10.4129
教える	-10.4129
嗣業を	-10.4133
足で	-10.4136
の事について	-10.4139
高い所	-10.415
のパン	-10.4155
われわれの先祖	-10.4158
たか	-10.4164
わたしは彼ら	-10.4172
あわせ	-10.4173
ひとりの人が	-10.4189
火の中	-10.419
ひれ伏して	-10.419
落ちた	-10.4191
のようにし	-10.4192
たずね	-10.4194
となえ	-10.4197
恵	-10.4201
東の	-10.4205
にあり	-10.421
エゼル	-10.4214
礼	-10.4214
に及んだ	-10.4215
に油を注いで	-10.4215
サウロ	-10.4215
ラモテ	-10.4215
おとずれ	-10.4215
こちら	-10.4215
ナダブ	-10.4216
しきりに	-10.4216
牧場	-10.4216
いちじくの木	-10.4216
アマレクびと	-10.4218
乳香	-10.4219
光栄	-10.4219
の皮	-10.4221
に報い	-10.4222
五百	-10.4224
ベル	-10.4226
身を清め	-10.423
おののき	-10.4231
を受けいれ	-10.4231
り物を	-10.4241
いつくしみと	-10.4245
上ってきて	-10.4246
ふえ	-10.4253
知れ	-10.426
のない者	-10.4265
言っている	-10.4267
を用い	-10.4268
この地を	-10.4271
祭司はその	-10.4274
メル	-10.4274
火に	-10.4282
にかけて	-10.4286
宮を建て	-10.4295
火が	-10.4297
百二十	-10.4302
わたしの心	-10.4303
で満ち	-10.4303
どこで	-10.4306
災が	-10.4313
その名は	-10.4314
にあずかる	-10.4319
楽	-10.4324
人のように	-10.4327
おいで	-10.4337
命の	-10.4341
そこで王は	-10.4345
言おう	-10.4358
入る	-10.4362
怒	-10.4369
隠	-10.437
深	-10.437
の周囲に	-10.4372
自分の家	-10.4373
言われました	-10.4375
こわし	-10.4375
ということ	-10.4378
イスラエルの王は	-10.4384
者であった	-10.4387
ユダの家	-10.4393
夜の	-10.4405
わたしの口	-10.4409
おおわれ	-10.441
とこしえの	-10.4415
らせて	-10.4425
み言葉	-10.4427
ソロモンが	-10.4429
主は生きておられ	-10.443
を起し	-10.443
とされる	-10.4435
主と	-10.4436
ることができなかった	-10.4436
った時	-10.4439
弟子たちに	-10.4441
のところにきて	-10.4442
からきた	-10.4453
終	-10.4464
願って	-10.4471
おこ	-10.4471
助	-10.4475
サマリヤの	-10.4486
追い出し	-10.4488
これらの言葉を	-10.4492
したこと	-10.4493
を置き	-10.4493
おし	-10.4494
王ひとり	-10.4495
であったので	-10.4495
与えられ	-10.4499
わたしの足	-10.4505
の祭	-10.4508
開	-10.451
その嗣業	-10.4512
また彼らの	-10.4512
うしろに	-10.4513
にかけ	-10.4515
に分け	-10.4515
行われ	-10.4516
のほとりに	-10.4516
ハル	-10.452
一万	-10.4532
寄留の他国人	-10.4536
祭の犠牲	-10.4539
そばに	-10.4546
わたしは自分の	-10.4547
モン	-10.4547
マアカ	-10.4548
夕まで汚れる	-10.4548
に及ぶ	-10.4548
アシラ像	-10.4548
ヘシボン	-10.4548
祭壇の上で焼	-10.4548
出身の	-10.4548
シャルム	-10.4549
となし	-10.4549
ケルブ	-10.4549
を呼び寄せ	-10.4549
ミデアンびと	-10.455
と呼ばれた	-10.4551
ひろ	-10.4554
アラバ	-10.4554
に住んで	-10.4554
泣く	-10.4554
エラム	-10.4554
どこから	-10.4557
子よ	-10.4559
をひき	-10.456
の上にある	-10.4561
捨てる	-10.4563
なんでも	-10.4563
リム	-10.4564
のことである	-10.4566
ておられる	-10.4567
留め	-10.4569
しません	-10.4574
あなたの所に	-10.4576
寝た	-10.458
わたしに答え	-10.4581
福音を	-10.4587
に下る	-10.4587
その名	-10.4591
娘を	-10.4592
牧	-10.4594
者と共に	-10.4596
に現れて	-10.4596
代って王となった	-10.4597
る者も	-10.4604
召された	-10.4609
わたしはあなたがたに	-10.461
と書いてある	-10.461
おのれを	-10.4613
らせる	-10.4617
の柱	-10.4633
このようにして	-10.4635
結んだ	-10.4643
万国	-10.4646
と言っている	-10.4655
六百	-10.4655
出かけ	-10.4655
知っているとおり	-10.4657
するならば	-10.4658
おうと	-10.4671
ご自分	-10.4672
大いなる者	-10.4673
気をつけ	-10.4675
僕たち	-10.4682
神の宮の	-10.4685
わたしの命	-10.4687
できません	-10.4687
ピラト	-10.4695
集めて	-10.4699
わたしの心は	-10.47
仕事	-10.4702
わが魂は	-10.4706
を集めて	-10.4714
方が	-10.4716
の言葉を聞いて	-10.472
歳であった	-10.4721
のうちにある	-10.4724
ことはありません	-10.4726
者です	-10.4728
貧しい人	-10.4729
いるのを見	-10.4731
えられ	-10.4731
歌い	-10.4733
預言して	-10.4741
わたしはあなたがた	-10.4745
三十人	-10.4754
殺さ	-10.4754
四百	-10.4759
持ってきた	-10.4767
持ってきて	-10.4768
を造る	-10.4781
設けた	-10.4783
おう	-10.4791
わが名	-10.4792
の前から	-10.4799
移し	-10.48
その子たち	-10.4801
パリサイ人たち	-10.4803
ためではなく	-10.4803
わたしは彼らの	-10.4809
をあけ	-10.4816
汚れたもの	-10.4819
は彼らを	-10.4826
ろうとする	-10.4831
かたを	-10.4831
たちも	-10.4832
あなたの敵	-10.4837
を愛して	-10.4843
者がある	-10.4846
あなたのうちに	-10.4846
エレミヤは	-10.4848
ダニエルは	-10.485
づけ	-10.4861
つり	-10.4867
に帰った	-10.4867
わたしから	-10.487
アラ	-10.4877
その日に	-10.4877
に仕えた	-10.4884
を裂き	-10.4887
ナオミ	-10.4893
立ちあがり	-10.4893
いなずま	-10.4893
メシュラム	-10.4893
歌うたう者	-10.4893
カデシ	-10.4893
ベエルシバ	-10.4893
バルナバ	-10.4893
みなしご	-10.4893
よろず	-10.4893
わたしを助け	-10.4893
主がモーセに命じられたとおり	-10.4893
あわて	-10.4893
あわれむ	-10.4893
カルメル	-10.4893
エフライムの山地	-10.4894
ハナニヤ	-10.4894
エシュア	-10.4895
青糸	-10.4896
親族	-10.4896
といって	-10.4897
ペル	-10.4897
つるぎに倒れ	-10.4898
一日に	-10.4899
をおおって	-10.49
七日目に	-10.4904
わたしはそれを	-10.4904
地上の	-10.4906
っても	-10.4906
心の中で	-10.4909
見つか	-10.4909
くなり	-10.491
でもない	-10.4913
こともない	-10.4917
五つ	-10.4917
することを	-10.4922
るものは	-10.4929
んだ像	-10.4931
があなた	-10.4933
くださった	-10.4933
あなたの命	-10.4934
広い	-10.4938
安全	-10.4943
祭司長たち	-10.4945
ところを	-10.4945
またあなたの	-10.4946
連れて行き	-10.4946
そして主は	-10.4948
アダ	-10.4949
くつ	-10.4965
日まで	-10.4965
をもって彼らを	-10.4971
の実	-10.4979
父母	-10.498
歌う	-10.4982
に当る	-10.4986
これらを	-10.4994
びとは	-10.4995
正しい者は	-10.4998
火で	-10.5001
わたしたちのために	-10.5001
主の使は	-10.5003
十一	-10.5007
アハブは	-10.5012
われわれのために	-10.5016
つかわされ	-10.5016
かなかった	-10.5017
御言を	-10.5017
はこれである	-10.5022
その夜	-10.5023
させよ	-10.5027
間の	-10.5027
悲しむ	-10.5029
弟子たちが	-10.5031
すぐれた	-10.5035
も共に	-10.5036
町から	-10.5036
ある者は	-10.5036
隠され	-10.5036
が起って	-10.5038
いやされた	-10.504
住まわせ	-10.5046
ようにして	-10.5051
治め	-10.5059
したからである	-10.506
エジプトびとは	-10.5064
くなる	-10.5068
バビロンの	-10.5071
あなたがもし	-10.5071
ります	-10.5073
明け	-10.5074
受けいれ	-10.5078
アム	-10.5079
のがれた	-10.5096
者のように	-10.5097
のなかに	-10.5098
彼の手	-10.5103
されたのである	-10.5103
小さい者	-10.5109
ものであって	-10.5114
アビメレクは	-10.5117
多くの民	-10.5117
やせ	-10.5118
かたは	-10.5118
が死んで	-10.5128
を断ち	-10.5134
の子孫である	-10.5135
こう言って	-10.5137
の死体	-10.5141
ひれ伏し	-10.5141
孫	-10.516
主に感謝	-10.5161
のうちには	-10.5164
わたしに言った	-10.5166
律法に	-10.5184
山で	-10.5185
奪われ	-10.5192
恐れた	-10.5193
上が	-10.5209
兄弟たちは	-10.521
わたしをお	-10.5212
町の門	-10.5215
人たちが	-10.5218
に与えられた	-10.522
捨てられた	-10.5221
家は	-10.5226
布の	-10.5229
ていたので	-10.5234
わたしの目	-10.5235
えうせ	-10.5241
士	-10.5248
アカシヤ	-10.525
ヨタム	-10.525
を切り倒し	-10.525
タルシシ	-10.525
荒れすたれ	-10.525
バビロンの王ネブカデレザル	-10.525
わきまえ	-10.525
ウリヤ	-10.5251
たせ	-10.5251
動か	-10.5252
勝つ	-10.5254
キリストにあって	-10.5259
地上に	-10.5259
バテ	-10.5261
門を守る者	-10.5262
サル	-10.5263
ささげて	-10.5269
手を伸べて	-10.527
でさえ	-10.5271
タル	-10.5273
かわき	-10.5275
一部	-10.5279
事実	-10.5281
ユダの町々	-10.5286
遠い	-10.5288
あなたをほめたたえ	-10.5289
ダビデの家	-10.5291
何ゆえ	-10.5295
隠れた	-10.53
わが救	-10.5309
あなたのもとに	-10.5313
イザヤ	-10.5315
開け	-10.5316
求めて	-10.5316
しないで	-10.5316
彼らの神	-10.5319
アン	-10.5321
預言した	-10.5321
ヨハネは	-10.5329
を携え	-10.5338
祭壇と	-10.5339
しまい	-10.5342
これを攻め	-10.5343
パロと	-10.5344
なくても	-10.5347
ベニヤミンの人々	-10.5355
られるでしょう	-10.537
ソロモン王	-10.5398
罪所	-10.5408
言わない	-10.5415
つぐ	-10.5415
人のために	-10.5418
その数	-10.5421
工人	-10.5423
地の上に	-10.5424
つけて	-10.543
召	-10.5432
を知り	-10.5432
のかしらたち	-10.5433
霊の	-10.5434
をいやし	-10.5441
を得て	-10.5444
に上って	-10.5446
などの	-10.5449
父なる神	-10.5449
エフライムは	-10.5451
滅ぼそうと	-10.5451
の後に	-10.5452
に時があ	-10.5456
呼ばわった	-10.5475
愚かな者の	-10.5484
ったからである	-10.5484
救主	-10.549
イエスにあって	-10.549
ほふり	-10.5491
ハラ	-10.5499
ヨルダンを渡	-10.55
木と	-10.551
神の栄光	-10.5512
隠し	-10.5516
を送り	-10.552
やぎの	-10.5522
どんなに	-10.5526
散らされ	-10.5527
葬られ	-10.5528
へや	-10.5533
ことのないため	-10.5536
理し	-10.5537
にゆだね	-10.5541
吹	-10.5542
者はない	-10.5555
異	-10.5557
町々に	-10.5558
こう言い	-10.5561
とともに	-10.5575
祭司長	-10.5576
第一の	-10.5577
ついた	-10.5583
あなたとあなたの	-10.5584
わたしの言葉を	-10.5589
を加え	-10.5594
ふところに	-10.5599
そこで彼は	-10.5602
書物	-10.5605
ものはない	-10.5609
群衆は	-10.5615
ないようにし	-10.5617
非	-10.562
めぐり	-10.562
マアセヤ	-10.5621
ナイル川	-10.5621
さまざまの	-10.5621
カレブ	-10.5621
マケドニヤ	-10.5621
火で焼か	-10.5621
預言する	-10.5621
テモテ	-10.5621
にすぎない	-10.5621
先見者	-10.5621
ンの子ヨシュア	-10.5621
主の契約の箱	-10.5622
分け前	-10.5623
をおおった	-10.5623
スリヤの王	-10.5623
出入り	-10.5624
ヘブルびと	-10.5624
祭司エレアザル	-10.5625
モラ	-10.5626
証言	-10.5627
ベラ	-10.5634
につく	-10.5636
囲み	-10.5638
七人	-10.564
ガドの子孫	-10.564
その中の	-10.5649
言葉の	-10.5652
びとの氏族	-10.5653
に進み	-10.566
さら	-10.566
売り	-10.5677
から来る	-10.5689
のままに	-10.5694
おろし	-10.5697
帰れ	-10.5697
知っていた	-10.5706
したことを	-10.5707
を愛する	-10.5708
をさして	-10.5709
おのおのの	-10.5711
野で	-10.5719
彼の上に	-10.572
十六	-10.5724
罪びと	-10.5726
おのおの自分の	-10.5727
娘は	-10.5728
ないので	-10.573
身を汚し	-10.5734
えず	-10.5734
を送って	-10.5741
う者は	-10.575
の中にいる	-10.5758
ヤコブと	-10.5764
よく言っておく	-10.5768
させよう	-10.5769
三日目に	-10.577
の手は	-10.5772
何者	-10.5775
主から	-10.5776
そののち	-10.5779
台と	-10.5782
になりました	-10.5784
供え物をささげ	-10.5787
たび	-10.5788
やかに	-10.5789
かわいた地	-10.579
正しい者の	-10.5793
城壁の	-10.5797
その民を	-10.5802
を食べる	-10.5805
ギデオンは	-10.5805
幕の	-10.5807
うように	-10.5812
しかし主は	-10.5813
しかった	-10.5817
救われた	-10.5818
あなたがたの所に	-10.582
一つも	-10.5822
を見つけ	-10.5826
主なる	-10.5827
めぐらし	-10.5828
アブラムは	-10.583
ヒルキヤ	-10.5834
四つ	-10.5836
に座する	-10.5841
そうである	-10.5849
を取る	-10.5852
わたしの手	-10.5853
者であって	-10.5862
を通らせ	-10.5863
を見ない	-10.5867
勝	-10.5867
バラム	-10.587
いのちの	-10.5871
ことを聞いた	-10.5874
ユダヤ人たちは	-10.5879
ヨブは	-10.5884
救われ	-10.5889
した事	-10.589
かどうか	-10.5894
を荒し	-10.5895
バプテスマを受け	-10.5899
なした	-10.5908
さとし	-10.591
しまう	-10.5912
はありません	-10.5922
信じる者	-10.5924
喜ば	-10.5925
ツ	-10.5928
者たちに	-10.5931
しようとする	-10.5935
の上の	-10.5936
その命	-10.5941
五日	-10.5942
エッサイ	-10.5943
荒れ地	-10.5944
五十	-10.5954
彼らはみな	-10.5955
わたしは彼らに	-10.5963
つける	-10.5968
だれかが	-10.5971
事と	-10.5973
葬	-10.5974
その道を	-10.598
それをもって	-10.5984
恥じる	-10.5987
またすべて	-10.5988
シオンに	-10.599
かれて	-10.5999
者のために	-10.6
ようにしてください	-10.6001
あらかじめ	-10.6005
エホアハズ	-10.6005
に至らせ	-10.6005
を憎み	-10.6005
を砕き	-10.6005
エルカナ	-10.6005
ヒビびと	-10.6005
ベナヤ	-10.6005
あやまち	-10.6005
に及んで	-10.6005
アビシャイ	-10.6005
アマサ	-10.6005
酒ぶね	-10.6005
カイン	-10.6005
きびしく	-10.6005
かさね	-10.6005
どういう	-10.6005
ひどく	-10.6005
立ちあがって	-10.6006
実を結ぶ	-10.6007
雄羊一頭	-10.6008
天と地	-10.6009
ガザ	-10.601
ることのできる	-10.601
のようであり	-10.6013
ガデ	-10.6014
近寄って	-10.6015
同時に	-10.6015
を打って	-10.6018
シセラ	-10.602
ものとし	-10.6022
供え物として	-10.6022
妻をめと	-10.6026
いやす	-10.603
勇気	-10.6031
悪い事を	-10.6031
見るであろう	-10.6032
祭壇の上に	-10.6032
を持ち	-10.6036
およびすべて	-10.6039
終え	-10.6048
に負わせ	-10.6051
いません	-10.6051
あなたに対して	-10.6052
様子	-10.6054
工事	-10.6057
あなたは彼らを	-10.606
主の前で	-10.6063
上がって	-10.6067
そのもろもろの	-10.6071
を罰する	-10.6076
願う	-10.6078
この町に	-10.608
に感謝せ	-10.6085
出せ	-10.6089
願った	-10.6097
に近づいて	-10.6098
祭壇に	-10.6098
主のみ	-10.6099
罪を犯させ	-10.6106
その周囲に	-10.611
手のわざ	-10.611
しえたげる者	-10.6111
イスラエルの子ら	-10.6113
この所に	-10.6114
あなたの口	-10.6125
のへや	-10.6128
残りの者	-10.6136
める者	-10.6152
怒りをもって	-10.6159
切れ	-10.6167
われわれと	-10.6168
人の子が	-10.6169
十人の	-10.6173
神の箱を	-10.6184
怒りは	-10.6195
わたしの家	-10.6195
生きておられる	-10.6197
のろう	-10.6198
彼女たち	-10.6206
下った	-10.6208
ギデオン	-10.621
するため	-10.6211
エサウは	-10.6211
女たちは	-10.622
妻たち	-10.622
乳と	-10.6222
重く	-10.6238
水で	-10.624
の音	-10.6247
愛する者たち	-10.6248
子を産む	-10.6251
天地	-10.6258
わたしたちも	-10.626
もろもろの山	-10.6263
驚いて	-10.6264
携えてきて	-10.6266
良い物	-10.6271
にそむき	-10.6277
その地に	-10.6292
すことを	-10.63
ようにした	-10.6303
さばかれる	-10.631
その所から	-10.631
がせ	-10.6311
あなたにむかって	-10.6312
づ	-10.6313
おじ	-10.6316
その力	-10.6319
八十	-10.6328
まなければならない	-10.6329
の長は	-10.6339
ことはしない	-10.6339
あなたのおきてを	-10.634
さば	-10.6341
平地	-10.6347
ペリシテびとが	-10.6351
言われたように	-10.6353
をとどめ	-10.6353
二万	-10.6357
そうとして	-10.636
すると彼は	-10.6369
彼の前に	-10.6372
獣と	-10.6372
む者は	-10.6376
わたしの敵	-10.638
心をつくし	-10.6383
さして誓	-10.6383
主の言葉を	-10.6389
さお	-10.6389
スリヤ	-10.6397
シドン	-10.64
はなはだ	-10.6401
その地の	-10.6403
やって	-10.6403
徒	-10.6403
エホヤキム	-10.6404
バアシャ	-10.6405
にもかかわらず	-10.6405
に及び	-10.6405
アドニヤ	-10.6405
をかえりみ	-10.6405
マナセの半部族	-10.6405
リンモン	-10.6405
つむじ風	-10.6405
に至った	-10.6405
はっきり	-10.6405
それだのに	-10.6405
主の目の前に悪を行	-10.6405
口づけし	-10.6405
主の栄光が	-10.6405
たましい	-10.6406
寄留者	-10.6406
イスラエルの人々の全会衆	-10.6406
信じて	-10.6406
あわれま	-10.6407
兵士	-10.6407
うぶん	-10.6407
合わせて十二人	-10.6407
ラキシ	-10.6408
が起り	-10.6409
アヒヤ	-10.6409
ひとしく	-10.641
結ぶ	-10.6411
宿っている	-10.6411
歌をうた	-10.6412
不法	-10.6413
スト	-10.6413
アベル	-10.6414
よりは	-10.6416
の町々と	-10.6422
多かった	-10.6424
ならぬ	-10.6431
その栄光	-10.6434
気づ	-10.6444
いましめ	-10.6445
自分の命を	-10.645
引き上げ	-10.6452
御国	-10.6452
いまし	-10.6453
造られ	-10.6455
害を加え	-10.6456
の数は	-10.6456
少なく	-10.646
高ぶ	-10.6464
働いて	-10.6466
は偽り	-10.6467
のもとにきて	-10.6469
かえして	-10.6471
真実な	-10.6472
祭司に	-10.6477
ひとりを	-10.6478
かえて	-10.6488
と思われ	-10.6496
伝えた	-10.6497
し加え	-10.6502
れる者は	-10.6505
方に	-10.6506
もしてはならない	-10.6506
ならせ	-10.651
しまった	-10.6517
泣いて	-10.6519
を捨てた	-10.6522
進	-10.6526
そのとおりに	-10.6529
解き明かし	-10.653
苦しめられ	-10.6536
を聖別し	-10.6536
およびすべての	-10.6542
そこへ	-10.6544
送	-10.6545
捕えて	-10.6545
用い	-10.6551
うであろう	-10.6557
道で	-10.6559
供え物を	-10.656
全地の	-10.6563
神の御	-10.6568
らした	-10.6571
の産物	-10.6574
備	-10.6574
えられた	-10.6575
どうしてあなたは	-10.6575
聞いている	-10.6576
下さった	-10.6581
愚かな者は	-10.6589
主はあなたを	-10.6589
上る	-10.6593
二十キュビト	-10.6597
わたしがあなたに	-10.6598
ヤコブの神	-10.6598
らせてください	-10.6601
あがないをし	-10.6606
を求めて	-10.6606
の中にある	-10.6607
気が	-10.6608
かったので	-10.6609
近寄	-10.6611
実に	-10.6614
わたしもまた	-10.6621
逃げ去った	-10.6625
はげ	-10.6631
に先立って	-10.6634
かわいた	-10.6635
十二の	-10.6639
その家来たち	-10.6641
あなたの名を	-10.6644
終る	-10.6647
ことがなかった	-10.6647
彼らに与え	-10.6648
すわっていた	-10.6648
喜ばれ	-10.6649
悪事を	-10.6657
てくださる	-10.666
雲が	-10.6664
衣服を	-10.6668
を信じ	-10.6672
よくよく	-10.6673
そのほか	-10.6682
それでも	-10.6682
なくなり	-10.6684
呼	-10.6685
仕事を	-10.6687
にあずか	-10.6687
ようなものである	-10.669
バシャン	-10.669
小羊と	-10.6692
心をもって	-10.67
をつけて	-10.6704
生ける	-10.6704
神の霊	-10.6705
る人は	-10.6712
得よう	-10.6713
その子供	-10.6717
彼らにむかって	-10.672
つるぎで	-10.6724
わたしに告げ	-10.6725
物を食べ	-10.6726
ラバンは	-10.6729
隠して	-10.6734
に満たされ	-10.6739
一年	-10.6749
者があれば	-10.6753
あなたの手に	-10.6759
も皆	-10.676
は何か	-10.6761
おろして	-10.6771
の魂は	-10.6773
を起して	-10.6777
の娘で	-10.6783
イスラエルの民	-10.6788
その家に	-10.6789
思いを	-10.6791
エデ	-10.6797
その先祖	-10.6803
わたしの怒り	-10.6806
糸で	-10.6806
をうける	-10.6811
セイル	-10.6815
設け	-10.6815
貧	-10.6816
広場	-10.6817
いくさ	-10.6818
ダマスコの	-10.6818
シュア	-10.6818
ハナン	-10.6821
ヤベシ	-10.6822
必ず殺されなければならない	-10.6822
近づき	-10.6822
を憎んで	-10.6822
エクロン	-10.6822
つまずく	-10.6822
身をかがめ	-10.6822
持たない	-10.6822
飲み食い	-10.6823
はるかに	-10.6823
もう一度	-10.6823
諸教会	-10.6824
おこなって	-10.6825
という名の	-10.6825
ひざ	-10.6827
を祝福して	-10.6827
ミカヤ	-10.6828
わが魂	-10.6828
くずれ	-10.6829
ラバ	-10.683
アラム	-10.6831
ひげ	-10.6833
主が賜わる	-10.6834
あなたがた自身	-10.6834
イスラエルの長老たち	-10.6838
合わせ	-10.6838
とびら	-10.6838
罪を犯しました	-10.6843
おさめ	-10.6846
マナ	-10.6848
声を聞いた	-10.6848
ばせ	-10.6851
気を	-10.6855
に帰る	-10.6857
をつくり	-10.6864
北の方	-10.6869
清い者	-10.6875
群れを	-10.6875
の岩	-10.6876
男は	-10.6889
アハシュエロス王	-10.6892
を建てた	-10.6898
暗い	-10.69
ったのである	-10.6903
めとった	-10.6918
燔祭を	-10.6922
富と	-10.6925
とび	-10.6931
をあらわす	-10.6935
をもち	-10.6935
エルサレムは	-10.6942
今や	-10.6948
を結んで	-10.6956
神の言	-10.6966
かたである	-10.6971
五十人	-10.6979
このすべての	-10.6986
ネブカデネザル	-10.6988
すべての人に	-10.6991
イシ	-10.6996
エジプトで	-10.7004
を強くし	-10.7006
連れ出し	-10.7011
戦いを	-10.702
共	-10.7021
そしてダビデは	-10.7021
しかし彼は	-10.7021
悪しき者を	-10.7025
あなたは自分の	-10.7034
その家の	-10.7036
定められ	-10.7039
従わせ	-10.7042
彼のもとに	-10.7043
いっ	-10.7046
なるでしょう	-10.7049
を買い	-10.7068
こう言った	-10.7068
み顔を	-10.7081
主の言葉は	-10.7082
を持っていた	-10.7083
ままに	-10.7085
行いを	-10.7085
ついで	-10.709
常	-10.71
さばきの	-10.7106
遠	-10.7115
そうではない	-10.7116
イスラエルの地	-10.7117
わが民の	-10.7118
の上を	-10.712
むすこ娘	-10.712
富を	-10.712
のうちにあって	-10.7122
とどまり	-10.7126
満たし	-10.7132
勇士たち	-10.7135
捕われ人	-10.7138
エルサレムにある	-10.714
ことを聞いて	-10.7141
ユダのすべての	-10.7145
行きます	-10.7147
が起った	-10.7147
モアブは	-10.7154
ことで	-10.7154
売って	-10.7163
残って	-10.7171
す者は	-10.718
海と	-10.7182
わたしに対して	-10.7184
者となる	-10.7189
ないもの	-10.719
主の怒り	-10.7198
アモリびとの	-10.7217
祭とし	-10.7223
愚	-10.7229
おかれ	-10.723
ダビデ王	-10.7235
人たちに	-10.7238
を満たしてい	-10.7238
よこしまな	-10.7239
あなたの上に	-10.7239
第一	-10.724
かたくな	-10.7243
御霊が	-10.7244
書きしるし	-10.7248
に立つ	-10.7251
らぬ	-10.7253
ないことを	-10.7257
テムナ	-10.7257
その子たちおよびその兄弟たち	-10.7257
を悩ます	-10.7257
ペリジびと	-10.7257
みだらな	-10.7257
ピネハス	-10.7257
さもないと	-10.7257
他国人	-10.7257
死なせ	-10.7257
すわった	-10.7258
わたしの名を	-10.7258
オリブの木	-10.7258
ハガル	-10.7259
解放	-10.7259
ためであり	-10.7259
一エパ	-10.7259
十二弟子	-10.7259
シオンの山	-10.7259
かしの木	-10.726
あげた	-10.7261
肉体	-10.7261
しるされている	-10.7261
めない	-10.7262
エジプトびとの	-10.7263
ヨエル	-10.7264
かわいて	-10.7264
によらず	-10.7266
の手に渡す	-10.7269
エジプトの王パロ	-10.727
それらは	-10.7271
のところへ行って	-10.7273
場合には	-10.7274
についた	-10.7275
ルベンの子孫	-10.7275
朝まで	-10.7276
となられた	-10.7277
夜のうちに	-10.7278
飲んだ	-10.7278
汚れる	-10.7279
嘆く	-10.7281
内庭	-10.7281
ぶどうの	-10.7292
を呼んで言った	-10.7294
数人	-10.7294
を分け	-10.7296
十キュビト	-10.7301
取られ	-10.7304
おうとして	-10.7315
やめさせ	-10.7316
預言し	-10.7317
って行って	-10.7319
の長さは	-10.732
をつかさどる	-10.732
ここにいる	-10.7321
七月	-10.7324
やかな	-10.7327
アロンと	-10.7336
王の命	-10.7344
じか	-10.7348
はいらせ	-10.7349
今わたしは	-10.7355
生き物	-10.7361
わたしは今	-10.7362
なさった	-10.7364
主の宮で	-10.7364
書いてある	-10.7369
ギリシヤ人	-10.7373
を立てた	-10.7374
わが民イスラエル	-10.7375
そばめ	-10.7375
老い	-10.7377
命じたように	-10.7378
この事は	-10.738
王のもとに	-10.7381
聖なる山	-10.7391
われて	-10.7394
生ける者	-10.7398
風に	-10.7403
戒めと	-10.7411
エルサレムへ	-10.7416
罰する	-10.7416
使者を	-10.7425
その心は	-10.743
一方	-10.7436
数にしたがって	-10.7439
あなたのあかし	-10.7441
モーセは言った	-10.745
の天幕	-10.7453
くださる	-10.7456
話して	-10.7458
れた者	-10.7459
祝福された	-10.7462
を罰し	-10.7463
それである	-10.7469
彼らは皆	-10.747
ヨシュアが	-10.7471
とりこ	-10.7478
わたしの顔	-10.7478
を撃つ	-10.748
を知った	-10.7486
ライ	-10.7488
救って	-10.7494
彼に答え	-10.7494
エジプトの国から	-10.7499
ラン	-10.7505
良いこと	-10.7516
から出たもの	-10.7519
従い	-10.752
書きしる	-10.7528
の君	-10.7528
なるもの	-10.7535
荒れ地とな	-10.7538
おられ	-10.7549
神の箱	-10.755
アロンの子孫	-10.7554
上着	-10.7557
んではならない	-10.7557
彼らの中に	-10.7559
彼らのうち	-10.756
すように	-10.7561
心で	-10.7562
れてはならない	-10.7573
泣き叫	-10.7576
者たちよ	-10.7578
イスラエルのうちに	-10.7581
あわれみを	-10.7582
帰ってくる	-10.7586
逃げる	-10.7596
者として	-10.7605
歩んだ	-10.7605
信じない	-10.7612
その時わたしは	-10.7614
祭をささげ	-10.7615
と戦った	-10.7618
うならば	-10.7637
出て行き	-10.7639
臨み	-10.7639
土台	-10.7641
不正	-10.7644
ききんと	-10.7655
あがなわ	-10.7665
神の恵み	-10.7666
呼んで	-10.7666
わたしのところに	-10.7676
するのは	-10.7677
手を伸べ	-10.7686
われらに	-10.7694
ヨセフが	-10.7694
示して	-10.7695
エレミヤに臨んだ	-10.7702
罰を	-10.7703
エルサレムの住民	-10.7704
生ける神	-10.7704
わたしがもし	-10.7708
ハマテ	-10.7708
こういう	-10.7711
ゼルヤの子	-10.7711
にまで及んだ	-10.7711
を焼いた	-10.7711
エペソ	-10.7711
ニネベ	-10.7711
ラザロ	-10.7711
ローマ	-10.7711
血を流す	-10.7711
おびただしい	-10.7711
イゼベル	-10.7711
ゼルバベル	-10.7711
ベテシメシ	-10.7711
トビヤ	-10.7711
乳ぶさ	-10.7711
アジヤ	-10.7711
身をめぐらして	-10.7712
大ぜいの群衆	-10.7712
をとおして	-10.7712
七たび	-10.7713
にいたるまで	-10.7713
成長し	-10.7714
心に留め	-10.7714
めのう	-10.7714
の子孫のうちでは	-10.7715
朝ごとに	-10.7716
いくさびと	-10.7717
のそばに	-10.7717
アモン	-10.7718
ユフラテ川	-10.7718
アキシ	-10.7718
ゆえなく	-10.7719
のぼる	-10.772
あかり	-10.772
を呼ぶ	-10.7721
天使	-10.7722
ニム	-10.7723
福音を宣べ伝え	-10.7724
破り	-10.7724
セム	-10.7724
人々はみな	-10.7727
するとイエスは	-10.7727
大勇士	-10.7727
あがなわれた	-10.773
無知	-10.7732
モアブびと	-10.7739
泣き悲し	-10.7739
心をつくして	-10.774
に出会	-10.774
取り去られ	-10.7744
モーセの律法	-10.7746
一生	-10.7746
と同じく	-10.7746
連な	-10.7747
さばきびと	-10.7749
君たちは	-10.7749
清くなる	-10.7768
いだいている	-10.7786
売った	-10.7788
とどめ	-10.7792
屋上	-10.7792
死ぬであろう	-10.7797
ありますか	-10.7805
老人	-10.7805
に帰り	-10.7809
渡り	-10.7809
場所で	-10.7809
六日	-10.7811
全きもの	-10.7812
あなたがたの信仰	-10.7815
あがる	-10.7817
作り	-10.7823
主を求め	-10.7824
を撃たれた	-10.7826
使者をつかわし	-10.7841
高くあげ	-10.7845
ることができるか	-10.7849
の地方	-10.7859
のようになった	-10.7868
に話した	-10.7869
勢い	-10.7879
こられる	-10.7884
うべき	-10.7888
の祭を行	-10.7893
なのですか	-10.7893
遠くから	-10.7901
られるのですか	-10.7902
わたしを見	-10.7903
の雄羊	-10.7903
まことの	-10.7906
をつくし	-10.7906
んでも	-10.791
の実を	-10.7912
を下し	-10.7924
むすこたち	-10.7926
打ち破	-10.7926
おまえたちは	-10.794
けてください	-10.7941
ことをしなかった	-10.7941
に臨んで	-10.7945
荒れた	-10.7947
に下り	-10.7951
四万	-10.7951
よりも多く	-10.7956
百キュビト	-10.7961
のために家を建て	-10.797
の内で	-10.7986
あなたの子ら	-10.7989
言っておく	-10.7997
されること	-10.8005
に満ちた	-10.8012
勢	-10.8013
に渡した	-10.8016
の前から逃げ	-10.8017
汚され	-10.8033
みまえに	-10.804
主はその民	-10.8042
わたしのうちに	-10.8044
ことを知り	-10.8048
広く	-10.8049
断たれる	-10.8055
あわれんで	-10.8055
ことを知らない	-10.8061
神のみまえに	-10.8072
ヤコブの家	-10.8077
四方	-10.8081
その心に	-10.8083
きている	-10.8085
教えた	-10.8087
愛した	-10.8089
この言葉	-10.809
にふさわしい	-10.809
なしに	-10.8097
したのです	-10.8115
流れる	-10.8116
ならない	-10.8123
死んだ者	-10.8124
を召して	-10.8124
の手に渡された	-10.8125
臨む	-10.8126
宮殿	-10.8128
目をさまして	-10.8137
地のおもてに	-10.8144
ゲバ	-10.8154
あなたの国	-10.8165
主はわたしを	-10.8167
であります	-10.817
彼らの前に	-10.8176
オピヤ	-10.8177
エホヤダ	-10.8184
放牧地	-10.8185
ユ	-10.8186
メレク	-10.8187
ヘヅロン	-10.8187
ペレテ	-10.8187
異邦の	-10.8187
アシドド	-10.8187
ナアマン	-10.8187
水に身をすす	-10.8187
注意し	-10.8187
そそぎ	-10.8187
満たす	-10.8187
シナイ山	-10.8187
足なえ	-10.8187
たしかに	-10.8188
きっと	-10.8188
ひょう	-10.8188
一生の間	-10.8188
の子たちのつかさ	-10.819
権利	-10.8191
五十キュビト	-10.8191
バルク	-10.8191
断じて	-10.8191
ひっ	-10.8192
ヤリム	-10.8192
ウザ	-10.8192
立ち返	-10.8193
シャンマ	-10.8193
小麦	-10.8193
の知事	-10.8194
どおりに	-10.8194
議会	-10.8194
サライ	-10.8195
ハラン	-10.8195
わらべ	-10.8196
戦車と	-10.8196
長官	-10.8197
望んだ	-10.8197
を去り	-10.8198
ているからである	-10.8199
いやされる	-10.8199
あなたがた一同	-10.82
もうひとりの	-10.82
々しく	-10.8201
セラヤ	-10.8202
ドル	-10.8205
ならわし	-10.8206
大軍	-10.8208
下ってきて	-10.821
うとめ	-10.821
お告げにな	-10.8211
を守る者は	-10.8215
四方から	-10.8217
ないうちに	-10.822
香ばしいかおり	-10.8221
若き	-10.8224
遠く離れて	-10.8225
天幕を	-10.8226
く起きて	-10.8229
全地に	-10.8235
ささげ物を	-10.8239
この民に	-10.824
主の前	-10.8242
滅ぼさ	-10.8242
にいる人々	-10.8244
ほんとうに	-10.8245
命じられる	-10.8245
四日	-10.8247
礼拝し	-10.8249
る者はない	-10.8249
を守らせ	-10.8254
あなたの母	-10.8256
その実を	-10.8259
主が命じられた	-10.8265
エッサイの子	-10.8266
血を流した	-10.8273
四方に	-10.8279
上って行って	-10.8283
のある所	-10.8284
パン種	-10.8292
偽って	-10.8294
宮で	-10.8302
えば	-10.8305
彼らを恐れ	-10.8307
を造ら	-10.8307
女の子	-10.8311
おののい	-10.8313
火で焼き	-10.8317
ユダの地	-10.8317
デヤ	-10.8319
少ない	-10.8322
あなたと一緒に	-10.8327
これはあなたが	-10.8329
ボアズは	-10.8332
落ちて	-10.8334
を与えられる	-10.8336
に会った	-10.8337
語られる	-10.8339
よみがえらせ	-10.8339
に聞き従わ	-10.8344
しかり	-10.8348
もし彼らが	-10.8348
主の使が	-10.835
栄える	-10.8359
バラムは	-10.8361
エリコの	-10.8364
だけである	-10.8368
あなたのむすこ	-10.8371
ことを知っている	-10.8371
と共におる	-10.8376
ておいた	-10.8376
ないなら	-10.8376
の多い	-10.8384
戸口	-10.8385
を祝福した	-10.8386
があります	-10.8387
あるものは	-10.8391
そこに住む	-10.8396
あなたがたの上に	-10.8397
そうだ	-10.8398
レハベアムは	-10.8399
怒りと	-10.84
彼について	-10.8406
あなたの民イスラエル	-10.8407
どうぞ主が	-10.8412
ある人々は	-10.8414
てくださるように	-10.8415
七人の	-10.8419
罪のために	-10.8421
上ってきた	-10.8422
決め	-10.8425
ルベンびと	-10.8434
あなたがたの兄弟	-10.8438
こともなく	-10.8457
させられる	-10.8459
病人	-10.8461
連れてき	-10.8463
すべての国民	-10.8465
かえる	-10.8468
まっ	-10.8473
することができる	-10.8474
計りごとを	-10.8481
仰せられる	-10.8485
おきてと	-10.8488
百人	-10.8492
周囲に	-10.8496
全地は	-10.8512
同様に	-10.8523
を恐れた	-10.8538
行わない	-10.8541
を与えよう	-10.8548
もせず	-10.855
神の言を	-10.8552
獲物を	-10.8552
この子	-10.8559
うな	-10.856
あざける	-10.8567
七十人	-10.8568
頼	-10.857
良く	-10.8572
像を	-10.8575
に属する者	-10.858
あなたがたに対して	-10.858
愛と	-10.8584
べきことを	-10.8587
異なる	-10.8594
ておく	-10.8597
その後に	-10.8599
イスラエルとユダ	-10.8599
意を	-10.8599
地に投げ	-10.86
求	-10.8601
立てられた	-10.8602
この事が	-10.8604
ことを聞き	-10.8621
の全家	-10.8624
まことと	-10.8629
をもってあなたを	-10.8632
み言葉を	-10.864
あなたがたの父	-10.864
これらのこと	-10.8643
義とされる	-10.8644
行くべき	-10.8648
を離れる	-10.8657
を追って	-10.8667
仰せ	-10.8676
ことごとく滅ぼし	-10.8679
主をほめ	-10.868
王となり	-10.868
アマレク	-10.8683
司	-10.8684
アナトテ	-10.8687
アヒトペル	-10.8687
アンテオケ	-10.8687
エホデ	-10.8687
オバデヤ	-10.8687
エホヤダの子ベナヤ	-10.8687
しかるに	-10.8687
めぐみ	-10.8687
の子らのうちでは	-10.8687
と言えば	-10.8688
外国人	-10.8688
アビヤタル	-10.8688
ののしり	-10.8688
会見の幕屋の入口に	-10.8688
ただちに	-10.8688
足りない	-10.8689
生き残った	-10.8689
ヨルダンの向こう側	-10.8689
ペルシャ	-10.8689
聞かせた	-10.8689
その家族にしたがって	-10.869
にわかに	-10.869
立ち上がって	-10.8691
おそく	-10.8691
実を結び	-10.8691
力づけ	-10.8691
悟らない	-10.8691
なおさら	-10.8692
ナホル	-10.8692
んだので	-10.8693
わたしをつかわされた	-10.8693
の氏族では	-10.8694
ゆるされるであろう	-10.8696
どのような	-10.8701
よく聞き	-10.8702
あがめられ	-10.8702
人をつかわし	-10.8707
一キュビト	-10.8707
エドムびと	-10.8708
注ぎ油	-10.8709
長たち	-10.871
わたしが見ている	-10.8711
ようなことは	-10.8714
をさして誓う	-10.8715
あがないをする	-10.8718
建物	-10.8719
あなたの手を	-10.8724
これらはみな	-10.8726
自分の家に	-10.8727
あかしをし	-10.873
山の上に	-10.8733
王の宮殿	-10.8733
のあとについて	-10.8737
十三	-10.8745
だち	-10.8748
くちびるは	-10.8752
ものとなる	-10.8755
その行い	-10.8756
備えを	-10.8768
合う	-10.8771
悪人の	-10.8773
寄	-10.8774
その衣服を洗	-10.8774
みると	-10.8781
今後	-10.8782
恐れるな	-10.8783
喜び歌	-10.879
かすめられ	-10.8791
肉を食べ	-10.8795
理した	-10.8803
わたしよりも	-10.8807
十八人	-10.881
わせて	-10.8812
を求めた	-10.8817
仕えた	-10.8821
イスラエルの部族	-10.8824
まこと	-10.883
を聞く	-10.8832
の前に立って	-10.8833
ことわざ	-10.8836
みんなが	-10.8838
と戦って	-10.8839
あなたがたに与え	-10.8846
バシャンの	-10.8852
そこでダビデは	-10.8853
壁に	-10.8855
りません	-10.8855
産む	-10.8858
と尋ねた	-10.8859
何事も	-10.8864
地のおもて	-10.8868
み前	-10.8868
これはあなたがたが	-10.8878
るまでは	-10.888
過ぎて	-10.8884
犠牲をささげる	-10.8887
あれは	-10.889
にかなう	-10.8891
捕えられ	-10.8898
言葉をもって	-10.89
ハマンは	-10.8903
わたしの兄弟たち	-10.8906
あなたの戒め	-10.8906
者となった	-10.8911
人を殺した者	-10.8925
生命	-10.8928
用いた	-10.8929
民のために	-10.8929
つるぎは	-10.8929
その家族	-10.8933
見えるようにな	-10.8934
良い地	-10.8937
主なるわたしは	-10.8939
その父の	-10.8945
神の家	-10.8947
火と	-10.8951
者があるか	-10.8952
来るように	-10.8955
されます	-10.8956
信頼	-10.8963
を過ぎ	-10.8965
としても	-10.897
後の子孫	-10.8973
権力	-10.8987
しるされ	-10.8987
その周囲の	-10.8988
淫を行う	-10.899
あなたがたのうちの	-10.8992
上げられ	-10.8994
若い者	-10.8999
と言いました	-10.8999
帰し	-10.9009
んでいた	-10.9012
同様である	-10.9026
神によって	-10.9028
わせる	-10.9038
あの人	-10.9046
してはいけない	-10.9059
おります	-10.9074
イスラエルの家に	-10.9075
二度	-10.9078
この二つ	-10.9087
おど	-10.9093
去れ	-10.9113
あなたに向かって	-10.9117
イザヤは	-10.9119
民のうちに	-10.9122
注がれ	-10.9124
となっている	-10.9126
主をほめたたえ	-10.9129
ことができません	-10.9132
水のように	-10.9132
下さる	-10.9137
ある日	-10.914
彼によって	-10.9155
滅ぼす者	-10.9155
を拝む	-10.9157
連	-10.9158
につけた	-10.9167
器物	-10.9172
国びと	-10.9176
従わず	-10.9179
百五十	-10.918
のほとりの	-10.918
主はこう仰せられ	-10.919
悪を行う	-10.9191
ふるまい	-10.9203
アルノン	-10.9214
に属し	-10.9214
アタリヤ	-10.9214
マッタニヤ	-10.9214
お命じになった	-10.9214
ヘマン	-10.9214
リブナ	-10.9214
なまけ者	-10.9214
スコテ	-10.9214
ハシャビヤ	-10.9214
ハンナ	-10.9214
ラハブ	-10.9214
オムリ	-10.9214
ひずめ	-10.9214
分かち	-10.9214
よろしい	-10.9214
実を結ば	-10.9214
一か月	-10.9214
おつかわしになった	-10.9214
まむし	-10.9214
見えた	-10.9214
かわく	-10.9214
アサヘル	-10.9214
こういうわけで	-10.9215
バビロンの王ネブカデネザル	-10.9215
千人の長	-10.9215
はなはだしく	-10.9215
罰せられる	-10.9216
おいでになる	-10.9216
富める者	-10.9216
ユダの王ゼデキヤ	-10.9216
導き出された	-10.9216
その解き明かしを	-10.9216
今まで	-10.9216
貧しく	-10.9217
アダム	-10.9217
重んじ	-10.9217
酒を飲んで	-10.9218
ナバル	-10.9218
進む	-10.922
ままにしてお	-10.9222
広場に	-10.9223
偽りを言う	-10.9225
知っておられる	-10.9225
すべての町々	-10.9225
ヘル	-10.9227
羊と牛	-10.9227
主なるわたしが	-10.9229
多くの国民	-10.9231
かぎり	-10.9231
終って	-10.9232
わたしをお救い	-10.9234
そのかたわらに	-10.9234
するのである	-10.9234
く起き	-10.9234
につけて	-10.9235
わたしをあわれんで	-10.9238
ベニヤミンびと	-10.9242
永遠の命	-10.9242
下って行って	-10.9245
備えた	-10.9246
びん	-10.9247
いたします	-10.9248
ペリシテびとの君たち	-10.9251
主に対して	-10.9251
イスラエルのすべての人々	-10.9252
エジプト全国	-10.9254
て下さったのである	-10.9256
まかせ	-10.9257
大な	-10.9262
を知ろうと	-10.9272
イエスのところに	-10.9274
わたしを捨てて	-10.9279
ゆき	-10.928
らせられる	-10.9281
つながれ	-10.9285
されていた	-10.9286
させない	-10.929
あなたを助け	-10.9303
こうしてダビデは	-10.9304
エフタは	-10.9306
その先祖たちと共に	-10.9306
アマリヤ	-10.9315
を行う者は	-10.9315
わたしに向かって	-10.9318
歩む者	-10.9321
そのまま	-10.9322
のこうべ	-10.9329
のようになって	-10.9343
を買う	-10.9343
あざける者	-10.9347
は大きい	-10.9359
ものであり	-10.9361
に近づく	-10.9365
くつを	-10.9367
の庭に	-10.9367
を用いて	-10.937
彼に告げ	-10.937
ちまたに	-10.9371
ばれ	-10.9374
産んだ子	-10.9376
受けいれる	-10.939
の所へ行って	-10.9412
その衣服	-10.9413
あなたがたは皆	-10.9414
ソロモン王は	-10.9415
次の日	-10.9417
にとどま	-10.9428
告げられた	-10.9435
マリヤは	-10.9444
わたしの兄弟	-10.9446
に敵して	-10.9448
行っている	-10.9453
すべてのわざ	-10.9459
につかせ	-10.946
家にはいって	-10.9462
パリサイ人たちが	-10.9475
あなたに仕え	-10.9481
めかけ	-10.9482
へ連れて行	-10.9486
されたからである	-10.9486
はずかしめを受け	-10.949
悪事	-10.9504
わたしの目は	-10.9506
寄って	-10.9511
思います	-10.9513
書かれ	-10.9522
と書いてあるとおり	-10.9524
わたしの手から	-10.9531
えてください	-10.9531
示した	-10.9532
てみよ	-10.9548
を変えて	-10.9551
男女	-10.9566
捕えられて	-10.9569
進ま	-10.9572
数えられた	-10.9572
感謝して	-10.9573
尋ね求め	-10.9583
はわたしのもの	-10.9592
らい病人	-10.9615
のために備え	-10.9615
神をあがめ	-10.9621
割礼を	-10.9622
目に見	-10.9624
あいさつを	-10.9624
と言わせた	-10.9625
除かれ	-10.9625
喜	-10.9626
モアブの王	-10.9629
に喜ばれる	-10.963
されなかった	-10.9634
貧しい	-10.9637
によるのである	-10.9641
ひとりの人	-10.9655
行かない	-10.9656
のしわざ	-10.9662
と共におられる	-10.9662
全な	-10.9663
の間で	-10.9667
戦った	-10.9667
エステルは	-10.9686
強い者	-10.969
の十分の一を	-10.9705
送って	-10.9705
つねに	-10.971
の間から	-10.9711
の中にあって	-10.9722
香ばしいかおりとし	-10.973
地所	-10.9732
てもらいたい	-10.9733
へりくだ	-10.9738
ここから	-10.9741
はいってきた	-10.9745
生きもの	-10.9746
種入れぬパン	-10.9752
驚く	-10.9753
ぼれ	-10.9759
激	-10.9764
香をたき	-10.9766
約	-10.9769
に至って	-10.9769
に及ばない	-10.9769
男女の奴隷	-10.9769
若い雄牛一頭	-10.9769
追いやられた	-10.9769
おそらく	-10.9769
ケイラ	-10.9769
ペレヅ	-10.9769
業	-10.9769
を選んだ	-10.9769
クロス	-10.9769
川向こうの	-10.9769
彼がしたすべての事	-10.9769
男子と女子	-10.9769
荒布をまと	-10.9769
あやまって	-10.9769
ゲダリヤ	-10.9769
レパイム	-10.9769
八日目に	-10.9769
と平安とが	-10.9769
におもむ	-10.977
新たに	-10.977
ウジエル	-10.9771
和解	-10.9771
のぼった	-10.9771
っていて	-10.9772
に目をとめ	-10.9772
テルザ	-10.9773
ミカエル	-10.9773
主の言葉を聞き	-10.9774
水を飲ませ	-10.9774
さとき者	-10.9774
キム	-10.9775
仰せられた	-10.9775
なんという	-10.9776
罪のない者	-10.9776
おぼえ	-10.9776
によれば	-10.9779
ハッ	-10.978
香の祭壇	-10.978
身内の	-10.9781
集まってきて	-10.9781
オピヤびと	-10.9781
マノア	-10.9782
バニ	-10.9782
罪に定め	-10.9783
あらし	-10.9784
コル	-10.9786
家に帰った	-10.9789
そのもろもろの器	-10.9789
にわたって	-10.9791
すわる	-10.9791
を除き	-10.9792
に着いて	-10.9795
ネル	-10.9796
がたい	-10.9798
引き出して	-10.9798
ひと言	-10.9798
のもとに帰って	-10.9799
主権	-10.9801
あなたに与える	-10.9801
御霊によって	-10.9803
建てられ	-10.9805
東風	-10.9807
あかしをする	-10.9807
を負い	-10.9808
アハブの家	-10.9813
そして祭司は	-10.982
彼と共にいた	-10.9821
あご	-10.9824
をめとって	-10.9825
あなたの目は	-10.9835
ユダヤ人の王	-10.984
わたしにとって	-10.9844
わたしの名によって	-10.9844
それを見て	-10.9848
すべてのイスラエルびと	-10.9851
誇り	-10.9862
あなたがたの先祖たち	-10.9886
エポデの	-10.9886
があったので	-10.9894
はずかしめられ	-10.9901
地に住む者	-10.9907
主の声に聞き従	-10.991
な町	-10.9914
あいさつ	-10.9917
二度と	-10.9924
今夜	-10.9929
主を恐れること	-10.993
少	-10.9933
行わせ	-10.9936
その目は	-10.9947
これを食べ	-10.9949
山から	-10.9951
いの国々	-10.9954
えたもの	-10.9961
もし彼が	-10.9963
獲物	-10.9978
老	-10.9978
何をも	-10.998
いだし	-10.9981
ダビデ王は	-10.9998
を賜わった	-10.9999
ことができます	-11.0001
どこにいるか	-11.0002
憎むべきもの	-11.0004
さん	-11.0017
語ること	-11.0018
ミデアンの	-11.0024
を共にし	-11.003
きたのである	-11.0042
あなたは何を	-11.0043
六千	-11.0057
子を産んだ	-11.0059
てはいけない	-11.0062
帰って行った	-11.0069
北から	-11.0074
ことがあろう	-11.0074
るだろう	-11.0082
を通り	-11.0083
になろう	-11.0085
あの人は	-11.0086
の手に渡され	-11.0101
しるされた	-11.0104
願	-11.0108
攻め上	-11.011
ことがあるなら	-11.0124
くださ	-11.0126
これを行う	-11.0128
ってくれ	-11.0129
のところに行って	-11.0136
堅く立って	-11.0137
感謝する	-11.0142
に手をかけ	-11.0146
そのようにした	-11.0158
のぼり	-11.0161
ることのできない	-11.0166
わたしの手に	-11.0172
悲しんで	-11.0173
ツロの	-11.0176
隠した	-11.0177
汚れた者	-11.0182
もうけ	-11.0201
自分の命	-11.0208
から出た者	-11.0213
に報いる	-11.0215
くすしきみわざを	-11.0219
ととなえられる	-11.0221
すべての木	-11.0225
ことでしょう	-11.0229
を聞くと	-11.0234
をかすめ	-11.0235
第三の	-11.0242
知ってお	-11.0242
ようなもの	-11.0246
ほえる	-11.0252
願い求め	-11.0269
全身	-11.0271
知りません	-11.0271
ていく	-11.0272
連れ帰	-11.028
報告	-11.028
ことを知って	-11.028
ている間	-11.0284
子を産み	-11.0294
建	-11.0296
ものがある	-11.0309
に対し	-11.0309
が主であることを知るようになる	-11.0312
ライム	-11.033
て下さい	-11.0337
新	-11.035
仰	-11.0352
火のように	-11.0353
取れ	-11.0357
おびただしく	-11.0357
エリアシブ	-11.0357
ホレブ	-11.0357
最初の	-11.0357
最後の	-11.0357
アビガイル	-11.0357
カペナウム	-11.0357
捕え移された	-11.0357
油そそがれた者	-11.0357
しっくい	-11.0357
カイザリヤ	-11.0357
ラブシャケ	-11.0357
神をつくして	-11.0357
香をたいた	-11.0357
いとすぎ	-11.0357
に追いつ	-11.0357
デナリ	-11.0357
一万二千人	-11.0357
その父祖の家によ	-11.0357
ナジルびと	-11.0357
マルタ	-11.0357
しばしば	-11.0358
ぬぐい	-11.0358
そこなう	-11.0358
地上で	-11.0358
主を怒らせた	-11.0358
アヒメレク	-11.0358
たびたび	-11.0358
いよいよ	-11.0358
うめき	-11.0358
も夜も	-11.0358
口を開いて	-11.0359
ヨハナン	-11.0359
拝殿	-11.0359
主の言葉を聞け	-11.0359
宿営の外に	-11.0359
新月	-11.0359
対する	-11.0359
ここにおります	-11.036
四十年の間	-11.036
ホロン	-11.036
思い起し	-11.0361
かもしか	-11.0361
百人の長	-11.0361
あしら	-11.0362
祭および	-11.0362
を作って	-11.0364
にあう	-11.0364
あなたがたの間で	-11.0365
アロンの子たち	-11.0365
永遠のいのち	-11.0368
苦しんで	-11.0368
合った	-11.0369
祭司はその人を	-11.037
ケル	-11.0372
待つ	-11.0373
ビン	-11.0376
あなたに感謝し	-11.0376
ガル	-11.0376
吹く	-11.0377
を放って	-11.0379
おゆるしくださ	-11.0379
わたしが命じる	-11.038
あなたの前に恵みを得	-11.038
もろもろの宮殿	-11.038
重さ	-11.0382
これらは皆	-11.0383
われている	-11.039
年々	-11.0391
ヤエル	-11.0394
上っていって	-11.0394
はかりごと	-11.0395
くじによって	-11.0396
アベ	-11.04
子やぎ	-11.0404
と争う	-11.0405
を得るために	-11.0407
をひく	-11.0412
火をもって	-11.0412
これに対して	-11.0419
安らかで	-11.0424
さしあげ	-11.0424
葬り	-11.0428
その中から	-11.0429
を下す	-11.0429
悪意	-11.043
エン	-11.0431
しています	-11.0436
少女	-11.0441
呼び集め	-11.0442
治める	-11.0443
逃げた	-11.045
町を建て	-11.0455
ベネハダデは	-11.0458
ユダの部族	-11.046
聖別	-11.0461
時が来る	-11.0464
天国は	-11.0464
主の使	-11.0467
語ら	-11.0469
このほかに	-11.0471
香油	-11.0474
その中にある	-11.0475
きよい	-11.0483
住むべき	-11.0486
引き出し	-11.0492
住んでいた	-11.0504
喜びをもって	-11.0505
を悩ました	-11.0505
べきもの	-11.0508
連れて行って	-11.0509
そのさお	-11.0511
ほふる	-11.0513
罪祭とし	-11.0513
生きた	-11.0518
天の神	-11.0521
彼らと一緒に	-11.0523
ようになり	-11.0523
着物を着	-11.0531
追い出す	-11.0533
望んでい	-11.0541
を撃ち破	-11.0549
そむき	-11.0551
者はのろわれる	-11.0554
ヨルダンを渡って	-11.0557
にのぼり	-11.0558
見捨て	-11.0561
アンモンの人々の	-11.0563
話を	-11.0568
油を注がれ	-11.0571
を囲んで	-11.0589
ることができよう	-11.0599
エジプトの王	-11.0603
人を殺した	-11.0604
この人たち	-11.0613
主に信頼	-11.0617
と同様に	-11.0626
ルキ	-11.0631
を苦しめ	-11.0638
恐れることはな	-11.0646
と共にあり	-11.0648
を見ました	-11.0659
加	-11.0662
主を捨て	-11.0684
ダイ	-11.0688
に答えて言	-11.0691
ほう	-11.0693
を解く	-11.0722
ネブカデネザル王	-11.0735
伝	-11.0739
彼らを滅ぼし	-11.0753
住む人	-11.0754
人はみな	-11.0759
ないのに	-11.0759
あなたの先祖	-11.076
集まってきた	-11.0769
持ってき	-11.0777
とは共に	-11.0789
彼らは互に	-11.0791
を見いだ	-11.0795
渡された	-11.0801
ようです	-11.0805
主にささげた	-11.0826
を悩まし	-11.0828
断ち滅ぼされ	-11.0831
宝物	-11.0834
な町々	-11.085
救う者	-11.085
心にかなう	-11.0858
生きながらえる	-11.0863
愚かなことを	-11.0872
エフタ	-11.0873
悲しんだ	-11.0874
つれ	-11.0875
を建てて	-11.0877
しておられた	-11.0877
血を流し	-11.0889
良い事	-11.0893
三十歳	-11.0898
先祖たちと共に	-11.0898
につながれ	-11.0899
主の祭壇	-11.0906
を洗って	-11.0906
六百人	-11.0908
彼らはわたしが主であることを知る	-11.091
食ら	-11.0918
人がもし	-11.0925
多くの者が	-11.093
とがめ	-11.0947
いろいろ	-11.097
すわっている	-11.0971
に聞き従う	-11.098
ヨルダンの向こう	-11.0981
ハザエル	-11.0982
ネバテの子ヤラベアム	-11.0982
シンバル	-11.0982
アミナダブ	-11.0982
マルキヤ	-11.0982
くじを引いた	-11.0982
しっかり	-11.0982
エホヤキン	-11.0982
ハザル	-11.0982
バシャンの王オグ	-11.0982
ホセア	-11.0982
三分の一は	-11.0982
ゲゼル	-11.0982
アシタロテ	-11.0982
アモリびとの王シホン	-11.0982
シホン	-11.0982
ハダデ	-11.0982
民のうちから断たれ	-11.0982
うかがい	-11.0983
お与えになった	-11.0983
と呼ぶ	-11.0983
たいまつ	-11.0983
つばき	-11.0983
こがね	-11.0983
ヘルモン	-11.0983
恥をこうむ	-11.0983
聖会を開	-11.0983
アムラム	-11.0983
くつがえ	-11.0983
を従えて	-11.0983
常燔祭と	-11.0983
ゆるしてや	-11.0983
祭司とレビびと	-11.0984
あたり	-11.0984
誓いを立てて	-11.0984
諸君	-11.0984
数々の	-11.0984
その氏族によれば	-11.0984
ほまれ	-11.0985
めぐって	-11.0985
主の手が	-11.0985
ペカ	-11.0986
小屋	-11.0986
堅く立つ	-11.0987
イスラエルの全家	-11.0987
言わなかった	-11.0988
近寄ってきて	-11.0988
しばらくの間	-11.0988
人をやって	-11.0988
かねて	-11.0988
ボテ	-11.0989
イスラエルの全会衆	-11.0991
四キュビト	-11.0991
引き返し	-11.0991
滅びうせ	-11.0992
むかし	-11.0993
よかろうか	-11.0993
守ら	-11.0994
ゼレ	-11.0996
出かけて行	-11.0996
ある人々が	-11.0996
アブラハムの神	-11.0997
トラ	-11.0997
願っている	-11.0998
の手にわたされた	-11.0999
どこにある	-11.1
神をほめたたえ	-11.1002
わたしをつかわされたかた	-11.1003
せん	-11.1003
お答え	-11.1004
主のみ前に	-11.1004
てあげよう	-11.1007
のあとを追って	-11.1008
喜んでいる	-11.1011
クレ	-11.1012
信じている	-11.1013
知らせてください	-11.1018
ユダとベニヤミン	-11.102
進み出て	-11.1023
われわれのうち	-11.1029
布を着	-11.1034
あなたについて	-11.1034
の家来たちは	-11.1038
を定めて	-11.1045
主のみ名	-11.1046
を怒らせ	-11.105
ゆく	-11.105
ユダの王ヨシャパテ	-11.1058
罪過	-11.1059
み使	-11.1067
行かれると	-11.1069
町の人々	-11.1072
歩いた	-11.1077
の分である	-11.1082
おご	-11.1087
来るのを見	-11.109
動かされ	-11.1099
柱頭	-11.1106
臨んだ	-11.111
雲の中	-11.1112
夫たち	-11.1115
を守られる	-11.1117
このゆえに	-11.1118
天国	-11.1127
を思い出して	-11.1134
拝む	-11.1143
下って行き	-11.1144
ないようにする	-11.1153
を立てる	-11.1162
金でおお	-11.1166
かかる	-11.117
待ち望む	-11.1181
ない時は	-11.1181
ユダの子孫	-11.1183
家にはいった	-11.119
がありません	-11.119
さばかれ	-11.1195
しもべども	-11.1204
これに仕え	-11.1207
ことがあるか	-11.1209
地を獲	-11.1219
らないように	-11.122
良いわざ	-11.1227
町の中	-11.1238
諸民	-11.1241
わたしの父の家	-11.1244
ことを知った	-11.1244
イスラエルの子孫	-11.125
わかっている	-11.1254
メラ	-11.1258
てもよい	-11.126
食わせ	-11.1268
を着け	-11.127
与えよ	-11.127
をのろった	-11.1271
いと高き神	-11.1273
力ある者	-11.128
告げ知らせ	-11.1281
残る者	-11.1284
寝台	-11.1307
入口	-11.1315
告げ示	-11.1315
人に対して	-11.1315
て下さるように	-11.1319
モアブの地	-11.1323
変り	-11.1328
どのように	-11.1342
ミデアン	-11.1346
をきよめ	-11.136
罪を犯さない	-11.1362
変って	-11.1373
えさせる	-11.1374
つづけた	-11.1401
シマ	-11.1405
先祖と共に	-11.1413
も同様	-11.1417
高ぶって	-11.1423
の宿営の	-11.1434
地の獣	-11.1441
ボアズ	-11.1449
を喜ばれる	-11.1451
を起した	-11.1451
歳になって	-11.1457
と言わせ	-11.1458
流され	-11.1462
あなたのまこと	-11.1463
に向けて	-11.1495
ばれる	-11.1495
はいることができ	-11.151
ることができるであろう	-11.1512
わたしたちの神	-11.1521
注がれた	-11.1524
家に帰り	-11.1538
日ごとに	-11.1543
衆	-11.155
ほんとう	-11.1568
悟った	-11.157
うたい	-11.1578
災害	-11.1579
日数	-11.1581
にむかって怒り	-11.1595
十日	-11.1604
を結び	-11.1614
祝福される	-11.1619
前のように	-11.1625
海の中	-11.1637
信じなかった	-11.1642
正月の	-11.1645
セナケリブ	-11.1649
ハダデゼル	-11.1649
ミリアム	-11.1649
アナニヤ	-11.1649
クラグ	-11.1649
シャデラク	-11.1649
年の間エルサレムで世を治めた	-11.1649
ごぞんじ	-11.1649
の長ネブザラダン	-11.1649
アホリバ	-11.1649
アルタシャスタ	-11.1649
エイエル	-11.1649
エリアブ	-11.1649
ネタニヤの子イシマエル	-11.1649
ビルハ	-11.1649
メシャク	-11.1649
メピボセテ	-11.1649
争に出ることのできる二十歳以上の	-11.1649
にかかわる	-11.1649
アヒマアズ	-11.1649
ゲハジ	-11.1649
ヤイル	-11.1649
産みの苦しみ	-11.1649
解き放	-11.1649
なめらか	-11.1649
心をかたくなにし	-11.1649
のあまり	-11.1649
聖所のシケルによ	-11.1649
お願いする	-11.165
よろい	-11.165
山ばと	-11.165
の頭に手を置	-11.165
わたしに従ってき	-11.165
ラッパの音	-11.165
破滅	-11.1651
すわらせ	-11.1651
ふるい	-11.1651
の流れる地	-11.1651
エリエゼル	-11.1651
仰せになった	-11.1652
働かせ	-11.1652
が生じ	-11.1653
半分	-11.1653
その柱は	-11.1654
ジフ	-11.1654
もとの所に	-11.1654
じこめ	-11.1655
イエスのもとにきて	-11.1655
エベル	-11.1655
主は恵みふか	-11.1656
天の万	-11.1656
預言者ナタン	-11.1656
ふつか	-11.1657
の手にわたし	-11.1657
ホシャ	-11.1657
強くなり	-11.1657
戒し	-11.1658
そうしたら	-11.1658
ガドびと	-11.1658
シドンびと	-11.1658
イスラエルの山々	-11.1659
どころ	-11.1659
ゆるさない	-11.1659
大いなる恐るべき	-11.1659
川を渡	-11.1659
に心をとめ	-11.166
とどけ	-11.1665
だけではなく	-11.1667
のように思われ	-11.1669
十シケルの	-11.1669
宣教	-11.167
デネ	-11.167
楽器	-11.1672
すべてのういご	-11.1676
あなた自身	-11.1676
いにしえから	-11.1677
下って行った	-11.168
水がめ	-11.1682
レム	-11.1684
供	-11.1685
を隠す	-11.1687
のほかは	-11.1688
パテ	-11.1688
に当て	-11.1689
ていた時	-11.1691
すべて戦	-11.1693
わたしのいのちを	-11.1695
エジプトの国で	-11.1698
残れる者	-11.1709
売られ	-11.1713
ユダの王ヒゼキヤ	-11.1714
を救った	-11.1723
暗き	-11.1723
を打った	-11.1725
事を行う	-11.1725
十五年	-11.1743
わたしが見た	-11.1745
北側	-11.1745
イエスについて	-11.1745
のろわれる	-11.175
知恵をもって	-11.1751
近づいている	-11.1751
三百人	-11.1752
書く	-11.1752
殺人	-11.1757
あなたがたの前に	-11.1765
シル	-11.1767
王わが主	-11.1769
わたしども	-11.177
モーセに命じられた	-11.1774
正しくない	-11.1778
器物を	-11.1788
つづ	-11.1795
聞くこと	-11.1804
彼らの神々	-11.1804
出会った	-11.1809
ひとりもない	-11.181
ンの荒野	-11.1813
酒を飲む	-11.1823
を愛する者は	-11.1825
立ち去	-11.1828
わたしたちの先祖	-11.1828
ながめ	-11.1835
その地の民	-11.1841
げられた	-11.1841
に宿る	-11.1842
あだを報い	-11.1844
を清める	-11.1847
苦しむ者	-11.1851
彼らに告げ	-11.1862
何をした	-11.1866
にきた時	-11.1868
示される	-11.1871
あなたに臨む	-11.1876
身につけ	-11.1877
を通って	-11.1891
出て来る	-11.1892
地にひれ伏し	-11.1912
にいる者は	-11.1919
ベニヤミンの子孫	-11.1921
起させ	-11.1921
満たされる	-11.1922
そこを去	-11.1935
その残り	-11.1937
攻め上って	-11.1938
道を歩	-11.1948
彼に仕え	-11.196
バプテスマを受けた	-11.1965
囲まれ	-11.1973
知恵を得	-11.1974
に渡して	-11.1978
伝えられ	-11.1987
喜びの声	-11.1991
通り過ぎる	-11.1998
口をもって	-11.1999
殺させ	-11.2015
おかれた	-11.2015
大空	-11.2017
しぼ	-11.2028
与えられて	-11.2028
を焼き滅ぼ	-11.2037
激しく怒	-11.2045
アルバ	-11.2056
撃たれ	-11.2076
泣	-11.2087
に仕えている	-11.2088
追い払われ	-11.2092
ししのように	-11.2094
に葬られた	-11.2096
守った	-11.211
に残し	-11.2127
気をつけて	-11.2135
信仰による	-11.2135
えた者	-11.2154
与えてください	-11.216
ヒゼキヤ王	-11.2167
を戒めて	-11.218
求める者は	-11.2189
聞き従わない	-11.2189
あなたの手から	-11.2192
六年	-11.2199
捨てられる	-11.22
殺そう	-11.2227
ほえ	-11.2235
に仕える者	-11.2239
あなたがたのところに	-11.2258
死人の中から	-11.2264
をいだいて	-11.2273
主の名によって	-11.2282
ければ	-11.2284
ギレアデの地	-11.2285
わたしの言うことを	-11.2297
らしめ	-11.2309
と戦おう	-11.2313
いにしえ	-11.2333
勝ち	-11.2336
台の上に	-11.2358
ウジ	-11.2362
エフロン	-11.2363
カレヤの子ヨハナン	-11.2363
アドラム	-11.2363
シパテヤ	-11.2363
ヨッパ	-11.2363
百三十シケル	-11.2363
しりぞけ	-11.2363
にふさわしく	-11.2363
ザカリヤ	-11.2363
パシュル	-11.2363
マハナイム	-11.2363
会見の幕屋の入口で	-11.2363
さばきづかさ	-11.2363
に注ぐ	-11.2363
エグロン	-11.2363
エドトン	-11.2363
エフラタ	-11.2363
ケナズ	-11.2363
バルジライ	-11.2363
絶やす	-11.2363
預言をし	-11.2363
願わくは	-11.2363
エダヤ	-11.2363
ジムリ	-11.2363
テコア	-11.2363
テトス	-11.2363
デビル	-11.2363
メデア	-11.2363
ヤゼル	-11.2363
ヤミン	-11.2363
ささぐべき	-11.2363
カイザルに	-11.2363
ほめうたえ	-11.2363
そうでないと	-11.2363
でいらせられる	-11.2364
とどろき	-11.2364
ベリア	-11.2364
と呼ばれている	-11.2364
一キュビト半	-11.2364
ほかならない	-11.2364
みきらわれる	-11.2364
銀のさら	-11.2364
よく聞いてお	-11.2365
なんであるか	-11.2365
やすい	-11.2365
を手に持って	-11.2365
夕方にな	-11.2365
供えのパン	-11.2365
悪霊ども	-11.2365
七十シケル	-11.2366
生き返	-11.2366
マキル	-11.2366
諸族	-11.2366
異言を語	-11.2366
アビウ	-11.2366
を高める	-11.2366
もろもろの民の中	-11.2366
ネボ	-11.2366
お怒りにな	-11.2367
地のはて	-11.2367
ひろげ	-11.2368
祭司エホヤダ	-11.2368
にあたって	-11.2368
わたしたちの父なる神	-11.2368
ゲラ	-11.237
ヨシュアに言われた	-11.237
まき散ら	-11.2371
先祖たちの神	-11.2371
イタマル	-11.2372
出ていって	-11.2373
を取りあげて	-11.2373
をさばいた	-11.2373
手をあげて	-11.2374
つまずい	-11.2376
いろいろな	-11.2378
死なない	-11.2378
祭司長たちや	-11.2379
大声をあげて	-11.2379
主に祈って	-11.2379
エルバアル	-11.2379
の治世	-11.238
いただく	-11.2382
主の霊が	-11.2383
まいない	-11.2384
かぶと	-11.2384
み手のわざ	-11.2385
彼らの目の前で	-11.2385
イエスは彼らに答え	-11.2387
ミナ	-11.2387
知らなければならない	-11.2388
ることもできない	-11.2388
につけられた	-11.239
わたしを憎む者	-11.239
に渡さ	-11.2393
バク	-11.2395
十分	-11.2397
殺せ	-11.2399
シャル	-11.2399
れはて	-11.24
彼らを追い	-11.2401
一万人	-11.2405
悪霊を追い出し	-11.2405
あなたの名は	-11.2405
主を恐れる者	-11.2406
正しい事を	-11.2408
こう言うの	-11.2411
イスラエルは皆	-11.2412
王の子たち	-11.2414
わたしを離れて	-11.242
いたしましょう	-11.242
このすべての言葉を	-11.2422
のうちの最も	-11.2424
の定めに歩	-11.2426
家の主人	-11.2426
わたしを生かし	-11.2426
に告げて言	-11.2427
国語	-11.2431
た日から	-11.2431
氏族の長たち	-11.2431
目をさましてい	-11.244
を獲て	-11.2441
しおれ	-11.2441
おられない	-11.2444
をわたしに与え	-11.2449
地の王たち	-11.2469
こうべに	-11.2473
不正な	-11.2482
われわれの神の宮	-11.2489
に注ぎかけ	-11.2498
わが岩	-11.2504
ルツ	-11.2506
聞いているところ	-11.2513
あってはならない	-11.2515
思わない	-11.2525
を切って	-11.2526
働きをし	-11.2528
燔祭の祭壇	-11.253
足の下に	-11.2536
宮にはい	-11.2542
を得ようと	-11.2554
あるのを見た	-11.2558
正しいさばき	-11.2559
者があろうか	-11.2561
あなたに告げる	-11.2561
られないように	-11.2566
断たれ	-11.257
のくちびる	-11.2582
ほかの人々	-11.2585
知らせよう	-11.2606
動き	-11.2613
もろもろの天	-11.2614
の住む所	-11.2616
地のもろもろの	-11.2618
イスラエルの王たち	-11.2619
まん中に	-11.2637
の方へ	-11.2641
エルサレムに上	-11.2656
の前から追い払	-11.2661
報いられる	-11.2685
地の産物	-11.2686
ものとする	-11.2691
八百	-11.2691
用意をし	-11.2694
生きている者	-11.2725
絶	-11.2735
にやど	-11.2755
災の日	-11.2814
多	-11.2825
バプテスマ	-11.2826
の近くに	-11.2828
に敵し	-11.2836
捕えられる	-11.2857
手に渡される	-11.2875
ものでない	-11.2881
どうなる	-11.2888
ひとり子	-11.2893
携えてこ	-11.2915
を思い出し	-11.2915
わけではない	-11.2918
上って来	-11.2919
怒る	-11.2922
そのくちびる	-11.2927
座している	-11.2932
言葉を聞いた	-11.2943
叫	-11.2948
服を着	-11.2958
もないのに	-11.2968
つかまえ	-11.2969
地のすべての民	-11.2989
悲しませ	-11.3001
まとい	-11.3004
それに仕え	-11.3005
四百人	-11.3007
の言うこと	-11.3026
結ばれ	-11.3037
飲んで	-11.3037
言葉に従って	-11.3043
わかってい	-11.3046
にかえ	-11.3049
携え入れ	-11.3051
ヨシヤの子	-11.3061
呼ばわれ	-11.3077
取って食べ	-11.3077
教えられた	-11.3083
そうしなければ	-11.3092
ほしいままに	-11.3118
のよわい	-11.3118
のそば	-11.312
投	-11.3123
香をたく	-11.3131
ほふって	-11.3131
どれほど	-11.3133
エヒエル	-11.3133
ケニびと	-11.3133
罪祭に使う雄やぎ	-11.3133
デボン	-11.3133
ベレキヤ	-11.3133
罪なき者	-11.3133
いちばん	-11.3133
エノク	-11.3133
オフル	-11.3133
みそなわし	-11.3133
アシケロン	-11.3133
ペオル	-11.3133
声が聞え	-11.3133
戦いの備えをした	-11.3133
また燔祭に使う	-11.3133
むずかしい	-11.3133
よろこび	-11.3133
イスラエルに罪を犯させた	-11.3133
イヅハル	-11.3133
ステパノ	-11.3133
互に愛し合	-11.3133
祭の犠牲に使う雄牛	-11.3133
いたずらに	-11.3133
には及ばな	-11.3133
は二万四千人	-11.3133
あたかも	-11.3133
しろがね	-11.3133
ダビデとその従者たち	-11.3133
主のしもべモーセが	-11.3133
過ごす	-11.3133
おおかみ	-11.3133
主がモーセに命じられたように	-11.3133
をエジプトの地から導き出	-11.3133
主がモーセによって	-11.3133
恥ずべき	-11.3133
と契約を結び	-11.3133
そしる者	-11.3133
わたしを怒らせた	-11.3133
書きおくる	-11.3133
散らす	-11.3133
思いわずら	-11.3133
みつぎを	-11.3133
にひとしい	-11.3133
どなた	-11.3133
ヨザバデ	-11.3133
返さ	-11.3134
行動し	-11.3134
に従わない	-11.3134
に従わなかった	-11.3134
エジプトから導き出し	-11.3134
ヘペル	-11.3134
受け入れられ	-11.3134
エデンの	-11.3134
ヘベル	-11.3134
多数	-11.3134
若い時から	-11.3135
メンと言	-11.3135
ナボテ	-11.3135
雲の柱	-11.3136
のぼらせ	-11.3136
の歌を	-11.3136
理解	-11.3136
ことを知るようになる	-11.3136
若い時の	-11.3136
五千人	-11.3137
その重さは	-11.3137
利息	-11.3137
口寄せ	-11.3137
ひざまずいて	-11.3138
から生れたもの	-11.3138
金持	-11.3139
歩兵	-11.3139
を除いて	-11.3139
火ざら	-11.314
に当り	-11.314
あなたの前から追い払	-11.3141
そうしないと	-11.3141
メリバ	-11.3142
ひとりの名は	-11.3143
さばきを行う	-11.3143
弟子たちと一緒に	-11.3143
良くない	-11.3143
をことごとく集め	-11.3144
義なる	-11.3144
かぶり	-11.3145
地のちり	-11.3145
あなたがたに命じる	-11.3146
聖会	-11.3146
言伝え	-11.3147
食事をする	-11.3147
囲む	-11.3149
一タラント	-11.3149
こともしない	-11.315
足かせ	-11.315
はじめられた	-11.315
力強く	-11.3153
イド	-11.3153
に満ちている	-11.3155
かたくなな	-11.3157
の戒めを守り	-11.3157
悩みの時	-11.3157
帰らなかった	-11.3158
における	-11.3158
はいる時	-11.316
に着き	-11.3161
上って行った	-11.3162
岩の上に	-11.3163
だれをも	-11.3165
彼ら自身	-11.3165
わたしに賜わった	-11.3166
と言ってはならない	-11.3167
をいだく	-11.3167
立ち去った	-11.3167
その死体を	-11.3169
それらを	-11.3173
へりくだる者	-11.3177
をつくって	-11.3177
目しい	-11.3177
ほかの人が	-11.318
彼に与えた	-11.3181
パロの娘	-11.3182
衣服を洗	-11.3184
声をあげて泣	-11.3184
驚くべき	-11.3188
苦しみを受け	-11.319
地の上	-11.3191
のすべての王たち	-11.3192
自分の身に	-11.3193
に変らせ	-11.3193
頼んだ	-11.3194
わたしにそむいた	-11.3207
を食う	-11.322
年の終り	-11.3222
の前に恵みを得	-11.3227
あなたに命じる	-11.3235
四十年	-11.3237
報告した	-11.3241
大海	-11.3246
家に帰らせ	-11.3249
の実を食べ	-11.3277
喜ばない	-11.3279
の所にきた	-11.3282
外に出	-11.3283
となれ	-11.3306
はいってはならない	-11.3311
憎むべき者	-11.3312
開いた	-11.3316
サウルの家	-11.3316
をおさえ	-11.3317
なぞを	-11.3319
年老いた	-11.3319
の聖者	-11.3329
レビの子孫	-11.3335
起らない	-11.3335
主に犠牲をささげ	-11.3338
の王たちは	-11.3349
互	-11.3349
十四人	-11.3355
汚れた物	-11.3355
清くない	-11.3359
一緒にいる	-11.3372
切る者	-11.3385
」	-11.3392
やかで	-11.3395
破られ	-11.3395
の中に投げ	-11.3399
をつかさどらせ	-11.34
世を治め	-11.3402
救を得	-11.3413
食い飲みし	-11.3432
谷の中	-11.3442
それらのもの	-11.3449
はいってきて	-11.3459
神の怒り	-11.3464
汚れた者とし	-11.3482
汚れている	-11.3489
ユダの王たち	-11.3499
のようであって	-11.3501
くちびるを	-11.3508
にある教会	-11.3518
七つ	-11.3523
そうとした	-11.3527
のふたりの子	-11.3543
ことができよう	-11.3594
まかれ	-11.3595
の右に座し	-11.36
除いた	-11.3602
恐れさせる	-11.3607
に加えられ	-11.3624
耳のある者は	-11.3634
滅ぼさない	-11.3649
の所にきて	-11.3661
ほかの人たち	-11.3678
をたて	-11.3682
出てくる	-11.3684
その従者	-11.3691
食い飲み	-11.3691
ることを命じた	-11.37
ダリヨス	-11.3705
彼らの口	-11.3711
の門の入口	-11.3714
るようになるため	-11.3716
苦しむ	-11.3717
祝福を受け	-11.3737
身を隠し	-11.374
ギリシヤ	-11.3742
のやから	-11.3753
報いを受け	-11.3763
をふり	-11.3765
お互	-11.3768
で満たされ	-11.3799
造られたもの	-11.3805
の子どもたち	-11.3831
と戦うために	-11.3832
を祝福され	-11.3835
コハテびと	-11.3863
百タラント	-11.3865
上らせ	-11.3865
取られた	-11.3872
ういご	-11.3872
諸国	-11.3898
主を待ち望	-11.3915
不信の	-11.3924
に隠れて	-11.3924
祭としてささげ	-11.3926
はずれ	-11.394
アンモン	-11.394
ょう	-11.3949
よこしま	-11.3956
追い払う	-11.3957
種入れぬ	-11.3957
受くべき	-11.3958
ヘブル	-11.3958
その月の	-11.3959
ペリシテ	-11.3962
ナザレ	-11.3965
ザバデ	-11.3965
テラピム	-11.3966
アヒカムの子ゲダリヤ	-11.3966
わたしが主であることを悟る	-11.3966
ゼパニヤ	-11.3966
タボル	-11.3966
ヒソプ	-11.3966
最初に	-11.3966
の奴隷とな	-11.3966
また雄やぎ一頭を罪祭としてささげ	-11.3966
エフンネの子カレブ	-11.3966
エリアキム	-11.3966
ケデシ	-11.3966
ベタニヤ	-11.3966
メギド	-11.3966
レホブ	-11.3966
主に憎まれ	-11.3966
伸ばした	-11.3966
先祖たちに誓われた	-11.3966
アポロ	-11.3966
エレモテ	-11.3966
クプロ	-11.3966
ゼバとザルムンナ	-11.3966
デボラ	-11.3966
家ばとのひな	-11.3966
つまずかせ	-11.3966
ねんごろに	-11.3966
を取り除き	-11.3966
バラクはバラム	-11.3966
どちらが	-11.3966
カイザルの	-11.3966
ケダル	-11.3966
六か月	-11.3966
みだりに	-11.3966
香ばしい	-11.3966
不信仰な	-11.3966
うかがう	-11.3966
レマリヤの子	-11.3966
外庭に	-11.3966
祭に使う	-11.3966
遠い国から	-11.3966
きびしい	-11.3966
のなかで	-11.3966
強い手と	-11.3966
サフ	-11.3966
安んじて	-11.3966
き足り	-11.3966
手ずから	-11.3966
あがなって	-11.3967
の叫びを	-11.3967
立ちどま	-11.3967
はげたか	-11.3967
つどい	-11.3967
光る所	-11.3967
ハマテの入口	-11.3967
まわった	-11.3967
あかしの幕屋	-11.3967
アビナダブ	-11.3967
ひとりも残さ	-11.3968
を楽しませ	-11.3968
淫行をなし	-11.3968
新しく	-11.3969
まわる	-11.3969
数えられたものは	-11.3969
罪のゆるし	-11.3969
その供え物は	-11.3969
語り終え	-11.397
パンと水	-11.397
み名をほめたたえ	-11.397
かがんで	-11.397
ことのないようにするため	-11.397
今の時代	-11.3971
かもしれない	-11.3971
七頭の	-11.3971
知らぬ	-11.3972
馬に乗って	-11.3972
スサに	-11.3973
住まわれる	-11.3974
に投げ捨て	-11.3974
アダヤ	-11.3974
のがれの町	-11.3974
さまよい	-11.3975
悩みの日に	-11.3975
天の使	-11.3975
新しいぶどう酒	-11.3975
心のままに	-11.3975
行かなかった	-11.3975
投げすて	-11.3977
エリシャマ	-11.3978
偽証	-11.3978
を生じ	-11.3979
ゆりの	-11.3979
のあとを追い	-11.3979
語ろう	-11.398
セイル山	-11.398
をこうむ	-11.3982
すべての生き物	-11.3983
耳しい	-11.3983
んだことがない	-11.3984
エリエル	-11.3984
のもとへ行って	-11.3985
時がきた	-11.3985
死ぬことはない	-11.3986
イエスは弟子たちに	-11.3986
キリストの恵み	-11.3987
夜の間に	-11.3987
なんら	-11.3988
もらった	-11.3989
そうとするの	-11.3993
飲め	-11.3994
き去られる	-11.3994
あなたは彼らに言	-11.3997
手に入れ	-11.4001
主の名をもって	-11.4004
その持ち主	-11.4011
アッスリヤびと	-11.4011
者はひとりもない	-11.4013
よこしまな者	-11.4014
話している	-11.4017
はばか	-11.4018
あがなわれる	-11.4018
ヤコブの子ら	-11.4035
の良心	-11.4036
の望みは	-11.4051
をさばいて	-11.4057
けて逃げ	-11.4058
口から出る	-11.4058
つるぎで殺された	-11.4059
キヤ	-11.4061
となられる	-11.407
呼びかけ	-11.4078
のほお	-11.408
宣べ	-11.4081
パラン	-11.4086
ことになろう	-11.4087
若いしし	-11.4092
を頼みとし	-11.4105
を奪う	-11.4122
を受けいれる者	-11.4123
ことはなく	-11.4124
できなかった	-11.4128
激しい怒りを	-11.4147
悪しき人	-11.4154
主が命じられたように	-11.4159
ねたみを起	-11.4164
起され	-11.4165
エフライムの子孫	-11.4176
をはぎ取	-11.4177
を行え	-11.4189
嗣業の地	-11.4211
一つの祭壇	-11.4219
守らせ	-11.4225
ホル山	-11.4235
ととなえられ	-11.4237
上にあった	-11.4253
を求めている	-11.4253
ありませんでした	-11.4268
一歳の	-11.4273
を取り出し	-11.4309
叫びつづけ	-11.4322
見いだす	-11.433
言わせた	-11.4334
に住ま	-11.4338
ヒルキヤの子	-11.4356
の残った者	-11.4371
をひいて	-11.4375
へ行かれた	-11.4407
共にいる民	-11.4424
をおおわ	-11.4428
出て行け	-11.4444
わたしを恐れさせ	-11.446
ゆるさ	-11.4491
緒	-11.4491
宮の庭	-11.4508
をのろっ	-11.452
の食物と	-11.453
を栄えさせ	-11.4531
の耳は	-11.455
に捨てられ	-11.4573
門の入口に	-11.4589
家に帰	-11.4597
引きあげ	-11.4602
近づく	-11.4614
を殺そうとして	-11.4624
焼きつくし	-11.4635
老いた者	-11.4659
人と獣とを	-11.4661
火祭とし	-11.4669
王を立て	-11.4702
嗣業を与え	-11.471
合ってい	-11.4711
のわきに	-11.4715
永遠	-11.4719
置かれた	-11.4722
者の名の	-11.4731
清められ	-11.4738
に命じられたように	-11.4746
救うことができない	-11.4755
はいって来	-11.4767
戒	-11.4769
見捨てられ	-11.4771
の声を聞き	-11.4776
殺	-11.4808
渡らせ	-11.4809
あがって	-11.4853
カルデヤ	-11.4867
いと聖なる物	-11.487
ハナニ	-11.4872
ひざまず	-11.4873
割	-11.4875
サドカイ人	-11.4875
むさぼる	-11.4875
ザドクとアビヤタル	-11.4875
あめんどう	-11.4875
つぶやいて	-11.4875
アグリッパ	-11.4875
ザックル	-11.4875
ジクリ	-11.4875
ゼロペハデ	-11.4875
ネルの子アブネル	-11.4875
ハモル	-11.4875
ミクマシ	-11.4875
四十日四十夜	-11.4875
選ばれる場所	-11.4875
けがれた霊	-11.4875
こなたかなた	-11.4875
にまで及ぶ	-11.4875
シナイの荒野	-11.4875
シロミテ	-11.4875
流出ある者	-11.4875
火に焼いて	-11.4875
どこからきたのか	-11.4875
マグダラのマリヤ	-11.4875
マヘリ	-11.4875
ヤペテ	-11.4875
ヨザダクの子	-11.4875
二十歳以上	-11.4875
すみずみ	-11.4875
は王となった時	-11.4875
一歳の雄の全き小羊	-11.4875
主の言葉がまたわたしに臨ん	-11.4875
ほかに神はない	-11.4875
り動かして	-11.4875
小さな	-11.4875
三か月	-11.4875
不信者	-11.4875
日の下で	-11.4875
水をくみ	-11.4875
道ばた	-11.4875
国に生れた者	-11.4875
つかわそう	-11.4875
かしこに	-11.4875
今日に至ってい	-11.4875
加わって	-11.4875
いるのをごらんになっ	-11.4875
パンくず	-11.4875
とどろく	-11.4875
まぶた	-11.4875
取り除いて	-11.4875
さそり	-11.4875
の小葉	-11.4875
れんが	-11.4876
金でこれをおお	-11.4876
年老いて	-11.4876
喜び楽しま	-11.4876
身分の	-11.4876
祭のほかのものであ	-11.4876
割礼を受けない者	-11.4876
十八年に	-11.4876
四つの生き物	-11.4876
預言者のともがら	-11.4877
異言	-11.4877
ユダの王エホヤキム	-11.4877
子を産んで	-11.4878
次第	-11.4878
わたしはあなたのさとし	-11.4878
はげしく	-11.4879
セツ	-11.4879
に導く	-11.4879
話しておられる	-11.4879
絶やさ	-11.4881
にあずかっている	-11.4881
おとめたちは	-11.4881
ひとりずつ	-11.4881
実行し	-11.4881
買い取った	-11.4881
五十人の長	-11.4881
待っていた	-11.4882
いっそう	-11.4882
に引き渡し	-11.4882
同族	-11.4882
はなはだしい	-11.4882
定めの祭	-11.4882
少しばかり	-11.4882
ハリム	-11.4883
から助け出し	-11.4883
所有の地に	-11.4883
ホサ	-11.4883
その顔は	-11.4883
証書	-11.4884
ひとりもいない	-11.4884
頼みとする	-11.4884
死んでしまった	-11.4885
顔おおい	-11.4885
に下らせ	-11.4886
石の柱	-11.4887
であられる	-11.4887
しまえ	-11.4889
の初物	-11.489
キル	-11.489
助かる	-11.4891
実現	-11.4892
そこに住み	-11.4893
ミカル	-11.4895
あなたを祝福される	-11.4897
兄エサウ	-11.4903
を解いて	-11.4907
エドムの地	-11.4908
聖別された	-11.491
主にささげる火祭	-11.4914
を拝んで	-11.4917
宮に仕えるしもべたち	-11.4919
の戒めを守る	-11.4919
道を備え	-11.4926
携えて来た	-11.4927
あなたのくちびる	-11.4929
命じておいた	-11.4933
くずし	-11.4938
知恵のない	-11.4956
同じような	-11.4957
与えられている	-11.4971
銀の器	-11.4977
を聖別する	-11.4993
に別れ	-11.5012
につき従	-11.5039
生かしておい	-11.5044
わたしが主であることを知る	-11.5056
ることのないようにし	-11.5078
起きあがっ	-11.5085
万事	-11.5104
を現し	-11.5108
散らされる	-11.5112
語り合っ	-11.5115
をつれて	-11.513
はいらない	-11.5132
貧しい人々	-11.514
にせ預言者	-11.5143
を獲る	-11.5154
苦しめる	-11.5157
ダリヨス王	-11.5168
断食をし	-11.5169
につれて	-11.5174
を祝福する	-11.5182
を助ける者	-11.5182
ことのできない	-11.5187
オリブ山	-11.5188
いと高き	-11.5197
神に祈	-11.5207
数を得	-11.5232
事どもを	-11.5299
かけられ	-11.5315
安息日を守	-11.5329
義とされ	-11.5364
怒ること	-11.5373
の上に臨む	-11.5373
はどこにいる	-11.5381
にこう言	-11.5389
の敵となる	-11.5419
の中を歩	-11.5487
になれば	-11.5493
生きながらえさせ	-11.5518
を高くし	-11.5548
その治世の	-11.5552
にのせ	-11.5552
のいのちを	-11.559
三日目	-11.5594
男の子を産んだ	-11.5627
月の第	-11.5639
エルサレムに帰っ	-11.5674
をもとに返	-11.5698
ベネハダデ	-11.5703
石で打	-11.5706
自分のからだを	-11.5715
しるしを見	-11.5747
あわれみを受け	-11.5769
留	-11.5804
手に取って	-11.5819
つづけて	-11.584
明らかにされ	-11.5857
ユフラテ	-11.586
落され	-11.5862
むさぼり	-11.5874
十分の二	-11.5875
アロエル	-11.5875
レメク	-11.5875
神のみまえで	-11.5875
ひきうす	-11.5875
パダンアラム	-11.5875
メルキゼデク	-11.5875
世々かぎりなく	-11.5875
最後まで	-11.5875
ございます	-11.5875
すばらしい	-11.5875
りどよめ	-11.5875
エリサベツ	-11.5875
シカニヤ	-11.5875
ツロとシドン	-11.5875
ベルテシャザル	-11.5875
中風の者	-11.5875
主に寄り頼む	-11.5875
立ちあがった	-11.5875
その家族にしたがって獲た嗣業であ	-11.5875
と結ばれた契約	-11.5875
もみがらのように	-11.5875
アカヤ	-11.5875
アヤロン	-11.5875
アンデレ	-11.5875
オテニエル	-11.5875
バルネア	-11.5875
メラヨテ	-11.5875
ヤキン	-11.5875
何ひとつ	-11.5875
アルパクサデ	-11.5875
ケレテ	-11.5875
父または母	-11.5875
立ち上がり	-11.5875
つぶやく	-11.5875
と向かい合っている所	-11.5875
リウエル	-11.5875
不信実な者	-11.5875
ナハシ	-11.5875
ヘテの人々	-11.5875
つぶやき	-11.5875
マルコ	-11.5875
書きおくり	-11.5875
おおぞら	-11.5875
力をつくして	-11.5875
その氏族にしたがって	-11.5875
非常な	-11.5875
そのかいせん	-11.5875
のなかから	-11.5875
軍勢の長たち	-11.5875
人も獣も	-11.5875
かしこで	-11.5875
追いやられる	-11.5875
つなぎ	-11.5875
をかぶって	-11.5875
伝道者	-11.5875
ねたむ	-11.5875
お立てになった	-11.5875
だちょう	-11.5875
奪い去られ	-11.5875
捕え移した	-11.5875
スリヤの王ハザエル	-11.5876
に感じた	-11.5876
バラムはバラク	-11.5876
四十年のあいだ	-11.5876
シメア	-11.5876
を持たせ	-11.5876
を追うことをやめ	-11.5876
馬と戦車	-11.5876
土の器	-11.5876
ヘテびとウリヤ	-11.5876
ナザレのイエス	-11.5876
エラメル	-11.5876
大事な	-11.5876
口を開き	-11.5876
種入れぬパンを食べ	-11.5876
二万二千	-11.5876
ふれ示	-11.5876
夜が明けると	-11.5877
守備	-11.5877
あなたの右の手は	-11.5877
見つからなかった	-11.5878
携えて行か	-11.5878
ホメル	-11.5878
言いひろめ	-11.5878
雄羊二頭	-11.5878
その所の名は	-11.5879
主の前に悪を行	-11.588
安心し	-11.588
意見を	-11.588
を救おうと	-11.588
ゲラル	-11.5881
バアラ	-11.5881
アラビヤびと	-11.5881
どりに	-11.5883
万軍の主はこう仰せられる	-11.5883
が王となった	-11.5883
をきたらせる	-11.5887
主の目にかなう事を	-11.5888
に当って	-11.589
これらの事の後	-11.5891
日からこのかた	-11.5892
いかなる	-11.5894
初めの日に	-11.5898
ナフタリの部族	-11.5898
まつる	-11.5898
清められる者	-11.5899
聖所の務	-11.5901
お話しにな	-11.5907
を取らせ	-11.5912
種入れぬパンの祭	-11.5916
じ合っ	-11.5918
の時代に	-11.5921
を呼び集めて	-11.5922
を宣べ伝える	-11.5924
父のみもと	-11.5935
万八千	-11.5938
に住むすべての者	-11.5943
外側	-11.5948
に会わせ	-11.5951
そしられ	-11.5954
を救え	-11.5955
み名に感謝	-11.5957
いけない	-11.5965
怒りの日に	-11.5968
ダビデの家来たち	-11.598
どこにいるの	-11.5983
そのみわざを	-11.5984
彼を捕え	-11.5985
預言して言	-11.5987
にくだる	-11.6024
をあなたに与え	-11.6031
老人たち	-11.604
罪を犯さ	-11.605
契約を破った	-11.6081
燃える火	-11.6093
をつかまえて	-11.6095
から断ち	-11.6095
群衆の中	-11.6111
に渡す	-11.6112
得られない	-11.6118
ととなえる	-11.6122
身にまと	-11.6132
わたしは彼らの神とな	-11.6151
に宿った	-11.6158
に信頼し	-11.6215
書き送	-11.6224
喜び呼ばわ	-11.6248
ことのないようにしてください	-11.628
焼き滅ぼ	-11.6293
の広間	-11.6373
をめぐらして	-11.6374
さいわいを得	-11.639
宮の周囲	-11.6405
し合い	-11.6418
あなたがたと一緒にい	-11.6452
びとのうちでは	-11.6532
の嗣業は	-11.6534
みごもって	-11.6576
を解いた	-11.661
動かされることはな	-11.6624
に信頼する	-11.6674
三分の一を	-11.6674
契約を守	-11.6737
と結んだ契約を	-11.6761
主がイスラエルの人々の前	-11.6803
を深く思	-11.6894
から遠く離れ	-11.6899
わたしたちに賜わ	-11.6917
に寄留	-11.694
はどこか	-11.696
苦しめた	-11.6961
石で撃ち殺さ	-11.6961
お救いくださ	-11.697
を見つめて	-11.6971
契約の箱	-11.6972
アラビヤ	-11.698
を放ち	-11.698
再	-11.6982
逃	-11.6984
に備えて	-11.6984
夜が明け	-11.6984
向こう側	-11.6986
アクラ	-11.6986
マレシャ	-11.6986
ヤハジエル	-11.6986
滅ぼせ	-11.6986
あなたと取引し	-11.6986
あわてふため	-11.6986
ぞくぞくと	-11.6986
エウシ	-11.6986
エリパズ	-11.6986
カヤパ	-11.6986
トマス	-11.6986
ヒンノムの谷	-11.6986
ペダヤ	-11.6986
マッサ	-11.6986
ヨバブ	-11.6986
主の目の前に悪をおこな	-11.6986
夜もすがら	-11.6986
戦いをいど	-11.6986
そういうわけ	-11.6986
コルネリオ	-11.6986
シャルテルの子	-11.6986
ゼバデヤ	-11.6986
タップア	-11.6986
トペテ	-11.6986
マハラレル	-11.6986
代々ながく守るべき定め	-11.6986
手をさし伸べ	-11.6986
焼きつくす火	-11.6986
から悪を除き去	-11.6986
から遠ざけ	-11.6986
の年は合わせて	-11.6986
みどりご	-11.6986
アカン	-11.6986
アリエル	-11.6986
エタム	-11.6986
エロハムの子	-11.6986
シシャク	-11.6986
シレミヤ	-11.6986
テサロニケ	-11.6986
テレビンの木	-11.6986
モレク	-11.6986
右のもも	-11.6986
長いあいだ	-11.6986
風が吹いて	-11.6986
あなたに寄り頼みま	-11.6986
アズマウテ	-11.6986
ヘブル語で	-11.6986
ペリクス	-11.6986
マッケダ	-11.6986
家づかさ	-11.6986
強い手をもって	-11.6986
悪霊につかれた	-11.6986
神に栄光を帰	-11.6986
祭司およびレビびとの	-11.6986
衣を着て	-11.6986
を再び栄えさせ	-11.6986
十歳以下	-11.6986
および彼と共にある男	-11.6986
バテシバは	-11.6986
他国の人	-11.6986
はなかろう	-11.6986
知れぬ所	-11.6986
こわされた	-11.6986
ねずみ	-11.6986
ナザレ人イエス	-11.6986
名をもってとなえられ	-11.6986
ヤコブに産んだ	-11.6986
お願いした	-11.6986
第五は	-11.6986
サウルの子ヨナタン	-11.6986
敵の手から救い出	-11.6986
高き所で犠牲をささげ	-11.6986
ネバテの子ヤラベアムの罪	-11.6987
を仰ぎ見	-11.6987
悪い道を離れ	-11.6987
あなたこそは	-11.6987
によらないで	-11.6987
あまりに	-11.6987
まじない	-11.6987
すこし	-11.6987
を恵まれる	-11.6987
たくらむ	-11.6987
見まわし	-11.6988
良しとされ	-11.6988
天が下	-11.6988
ぶどう畑を作って	-11.6988
いにしえの日	-11.6988
火の燃える	-11.6988
着くと	-11.6988
アビラム	-11.6988
大きかった	-11.6988
無事です	-11.6988
は荒れはて	-11.6988
ゲベル	-11.6988
満足し	-11.6989
をけがす	-11.6989
終の行	-11.6989
主を拝し	-11.699
をこぼ	-11.6991
子をもうけ	-11.6992
定めのようにささげ	-11.6992
めぐる	-11.6994
目で見	-11.6995
を囲んだ	-11.6997
の全土	-11.6998
川々の	-11.7
朝はやく起きて	-11.7003
言い争う	-11.7005
の一部を	-11.7011
てしまっている	-11.7012
二か月	-11.7014
レビびとである祭司	-11.7015
不義を行う者	-11.7016
ともし火	-11.7018
悲しみの歌	-11.7023
そなえ	-11.7028
の手にわたされる	-11.7031
ダビデの町に葬られ	-11.7032
勝ち誇	-11.7036
を追い出して	-11.7038
七人の御使	-11.704
もらいたい	-11.7061
を流し	-11.7065
撃ち破った	-11.7067
主の激しい怒り	-11.7096
あなたがたの所に行	-11.7111
を開かれた	-11.7144
を荒す	-11.7148
待ち望んでいる	-11.7156
を殺さない	-11.7186
乳を飲	-11.7191
くちびるの	-11.7205
エルサレムとユダ	-11.7221
つとめ	-11.7224
あなたのくすしきみわざ	-11.726
みごもって男の子を産	-11.7274
にならって	-11.7293
のふところ	-11.7297
に導き入れ	-11.733
滅ぼそう	-11.7356
り人を愛	-11.7362
と異な	-11.7403
に分れ	-11.7427
務につ	-11.7432
過ぎる	-11.7481
偽りを語	-11.7483
の衣服を着	-11.7511
門を開	-11.7515
アヒトブの子	-11.7572
くちびるをもって	-11.7618
の命を取	-11.7675
の顔を見る	-11.7746
を全うする	-11.7834
の上に置かれ	-11.7857
示され	-11.7881
牛の群れ	-11.8058
種をまき	-11.8098
全国にわたって	-11.8139
受	-11.817
の残りを	-11.8173
宮に仕えるしもべ	-11.8176
に加わる	-11.8178
よかろう	-11.8216
を待っている	-11.8231
妻にめとった	-11.8234
たがいに	-11.8235
かもしれ	-11.8235
よろめき	-11.8236
種を入れたパン	-11.8236
エコニヤ	-11.8236
ネヘミヤ	-11.8236
エテロは	-11.8236
メナヘム	-11.8236
モアブの平野で	-11.8236
あすの今ごろ	-11.8236
あなたの罪はゆるされた	-11.8236
うちに寄留している他国人	-11.8236
きらめく	-11.8236
しかばね	-11.8236
すべての肉なる者	-11.8236
むさぼっ	-11.8236
カデミエル	-11.8236
ベオルの子バラム	-11.8236
待ち伏せする	-11.8236
過ぎ去った	-11.8236
ざんげ	-11.8236
しんがり	-11.8236
に身をゆだね	-11.8236
の右の耳たぶと	-11.8236
の方へのびる地方	-11.8236
わが高きやぐら	-11.8236
アナクびと	-11.8236
エズレルびとナボテ	-11.8236
エノス	-11.8236
セレビヤ	-11.8236
ヘシボンの王シホン	-11.8236
ペテロとヨハネと	-11.8236
乳五十をつけ	-11.8236
切りばさみ	-11.8236
待ち伏せし	-11.8236
捕え移される	-11.8236
目方を定め	-11.8236
過ぎ去る	-11.8236
長さ二万五千キュビト	-11.8236
から追い出さ	-11.8236
ごんの皮のおおい	-11.8236
には及びま	-11.8236
ひたすら	-11.8236
ひとり残らず	-11.8236
を解散させ	-11.8236
アバリム	-11.8236
アペク	-11.8236
アモス	-11.8236
オフラ	-11.8236
ケモシ	-11.8236
コリント	-11.8236
ピスガの	-11.8236
ベルシャザル	-11.8236
ペレグ	-11.8236
ホリびと	-11.8236
レホム	-11.8236
不思議に思った	-11.8236
宿営の外で	-11.8236
御座にいますかた	-11.8236
悪霊につかれて	-11.8236
満ち足らせ	-11.8236
自分を愛するように	-11.8236
近づかせ	-11.8236
かたより見	-11.8236
その四すみ	-11.8236
アズリカム	-11.8236
アックブ	-11.8236
インメル	-11.8236
ギルボア	-11.8236
ミルカ	-11.8236
一ヒンの四分の一を	-11.8236
大声に呼ばわ	-11.8236
恐ろしく	-11.8236
目を上げて	-11.8236
絶やし	-11.8236
聖書に書いてある	-11.8236
に攻めこさせ	-11.8236
キリキヤ	-11.8236
ボズラ	-11.8236
買いもどすことができ	-11.8236
うろたえ	-11.8236
こぞって	-11.8236
をいざなって	-11.8236
ネリヤの子バルク	-11.8236
道と正義とを行	-11.8236
アハブの子ヨラム	-11.8236
オナン	-11.8236
サウルの子イシボセテ	-11.8236
ペルシャ王クロス	-11.8236
二ひき	-11.8236
顔をそむけ	-11.8236
が多ければ	-11.8236
くじを引いて	-11.8236
をそり落	-11.8236
シバの女王	-11.8236
十四頭	-11.8236
そういう人	-11.8236
またほかの人には	-11.8236
から帰って来た	-11.8236
その雄牛と雄羊と	-11.8236
乳のみ子	-11.8236
災を下そうと	-11.8236
ひどい	-11.8236
わたしの民を去らせ	-11.8236
ほかの神々に仕え	-11.8236
の小羊をほふ	-11.8236
イスカリオテのユダ	-11.8236
神の激しい怒り	-11.8236
エフライムとマナセ	-11.8236
を召し寄せ	-11.8236
ブッキ	-11.8236
第六は	-11.8236
と契約を結んだ	-11.8236
死ななければならない	-11.8236
あくる朝	-11.8236
にまかれたもの	-11.8237
たくらみ	-11.8237
木や石	-11.8237
ことがわかる	-11.8237
その中のすべての人を	-11.8237
みにじる	-11.8237
をととのえ	-11.8237
たとえば	-11.8237
風を捕えるよう	-11.8237
父と母と	-11.8237
信仰と愛と	-11.8237
そこなわれ	-11.8237
祭司と預言者	-11.8237
神を信じない者	-11.8237
に次ぐ	-11.8237
ことがわかった	-11.8237
まちが	-11.8237
に敵対し	-11.8238
さだめ	-11.8238
二万五千	-11.8239
銀と金	-11.8239
をあわれまれる	-11.8239
を信ぜ	-11.824
神をさんびし	-11.824
をあらわされる	-11.824
わたしに仕えさせ	-11.8241
を奪って	-11.8241
アクサ	-11.8241
わめき	-11.8241
次のように言われ	-11.8242
おだやか	-11.8243
子じし	-11.8243
はどこにあるか	-11.8243
のを常とし	-11.8244
バアルの宮	-11.8244
をしかって	-11.8244
心をこめ	-11.8244
の受くべき分	-11.8248
から除き	-11.8249
あすの朝	-11.8249
ことをやめよ	-11.8249
書にしるされた	-11.8251
にそむか	-11.8252
とどまらない	-11.8258
嗣業とさせ	-11.8262
出立し	-11.8262
主はモーセとアロンに	-11.8264
にかかっている	-11.8268
を尋ね求める者	-11.828
に勝った	-11.8283
わきあが	-11.8284
手にわたされるでしょう	-11.8284
サマリヤでイスラエル	-11.8292
きよくな	-11.8295
結びつけ	-11.8301
まいないを取	-11.8321
堅く立てられ	-11.8334
にめとっ	-11.8337
を現す	-11.8341
をおこし	-11.8355
断ち滅ぼす	-11.8361
をあなたがたに与える	-11.8373
きつね	-11.8376
につかわして言わせ	-11.8405
をはなれ	-11.8421
十四年	-11.8427
は王に答え	-11.8445
を撃たれる	-11.8448
にわたす	-11.8454
を吹いて	-11.8464
を行おうと	-11.8469
の全国	-11.8476
ゆだねられた	-11.8522
に食物を与え	-11.8565
も残さ	-11.8577
とこしえ	-11.8584
を殺そうとした	-11.8606
ふりかけ	-11.8641
に勝って	-11.8644
の治世の第	-11.8661
の墓に葬	-11.8666
酒を飲ま	-11.8708
と呼ば	-11.8724
万軍の主は仰せられ	-11.8792
清	-11.8814
くちびるに	-11.8899
のことをあかしし	-11.8921
を守れ	-11.8962
悪を行わ	-11.898
を待ち望み	-11.9022
その激しい怒り	-11.9042
呼ばない	-11.9082
そそがれ	-11.9133
七頭をささげ	-11.9199
し去ら	-11.921
てよいでしょう	-11.9245
と争って	-11.9439
を待ち望んで	-11.9453
民に命じて言	-11.9466
に隠れること	-11.949
の残りは	-11.952
ののしって	-11.9525
与	-11.9559
をうかがっ	-11.9573
から救い出してくださ	-11.9587
ぶんどり	-11.9595
どうしたらよい	-11.9596
明くる朝	-11.9643
恵みふか	-11.9652
香をたいて	-11.9661
のあとを追う	-11.9663
に聞き従って	-11.9663
書いてあった	-11.9664
ネトパびと	-11.9665
ゼボイム	-11.9665
その五分の一を加え	-11.9665
ガラテヤ	-11.9665
ヤボク	-11.9665
ヨベルの年に	-11.9665
ラオデキヤ	-11.9665
パテロス	-11.9665
ポリス	-11.9665
あかしの箱の前に	-11.9665
あなたの信仰があなたを救った	-11.9665
おごそかに	-11.9665
これもまた空であっ	-11.9665
これもまた空である	-11.9665
し加わる	-11.9665
なされたくすしきみわざと	-11.9665
に向かわせ	-11.9665
に帰せしめ	-11.9665
は王となった時二十五歳で	-11.9665
もし王がよしとされ	-11.9665
をエジプトの国から導き出した	-11.9665
アゼカ	-11.9665
エリオエナイ	-11.9665
ギルガシびと	-11.9665
ハビラ	-11.9665
バスマテ	-11.9665
ホグラ	-11.9665
メトセラ	-11.9665
リブニ	-11.9665
主からエレミヤに臨んだ言葉	-11.9665
主の良しと見られることを	-11.9665
会見の幕屋で働くことのできる者	-11.9665
口を開く	-11.9665
思いがけない	-11.9665
長さは二キュビト	-11.9665
音が聞え	-11.9665
ひざをかがめ	-11.9665
を召集し	-11.9665
アザリエル	-11.9665
カイナン	-11.9665
マナセの子マキル	-11.9665
メンピス	-11.9665
ヤルムテ	-11.9665
主がその名を置くために選ばれる	-11.9665
天にいますあなたがたの父	-11.9665
岩の裂け目	-11.9665
年の間イスラエルをさばいた	-11.9665
荒布を身にまと	-11.9665
あなたがたに書きおくった	-11.9665
かみそり	-11.9665
さまざまな	-11.9665
のあとを追った	-11.9665
ふり返って	-11.9665
ぶちのもの	-11.9665
へつらう	-11.9665
を一つに連ね	-11.9665
アブデ	-11.9665
アリオク	-11.9665
エリコに近いヨルダンのほとり	-11.9665
シナルの	-11.9665
シャウル	-11.9665
ゼベダイの子	-11.9665
パンも食べず	-11.9665
ベツサイダ	-11.9665
ベトエル	-11.9665
喜びと楽しみと	-11.9665
男も女も	-11.9665
皮よりも深く見え	-11.9665
諸国語の者	-11.9665
いっせいに	-11.9665
いてもらいたく	-11.9665
しまのあるもの	-11.9665
その命を求める者	-11.9665
どこへ行くのか	-11.9665
なつめやし	-11.9665
におとしいれ	-11.9665
に立ち向かう	-11.9665
へつらい	-11.9665
アタロテ	-11.9665
サンバラテ	-11.9665
シッテム	-11.9665
タアナク	-11.9665
ハシュブ	-11.9665
日の下に行われる	-11.9665
部下の五十人と	-11.9665
かろうじて	-11.9665
たそがれ	-11.9665
アモツの子預言者イザヤ	-11.9665
ケバル川のほとり	-11.9665
マムレ	-11.9665
マルク	-11.9665
会見の天幕	-11.9665
異邦の女をめと	-11.9665
あらぶる	-11.9665
みをおび	-11.9665
主が約束されたように	-11.9665
山のふもと	-11.9665
デラヤ	-11.9665
引きつづき	-11.9665
雄じし	-11.9665
あくる日	-11.9665
つまらない	-11.9665
みなわざをもって	-11.9665
淫するな	-11.9665
ベテアベン	-11.9665
主のみ声は	-11.9665
お願いです	-11.9665
かすめ奪う	-11.9665
彼らを導き出して	-11.9665
つなぐ	-11.9665
はたらき	-11.9665
みきらう	-11.9665
スサで	-11.9665
言いふらし	-11.9665
主なるあなたの神を	-11.9665
まのあたり	-11.9665
たぶん	-11.9665
のために罪のあがないをし	-11.9665
のみつくした	-11.9665
第七日に	-11.9665
助けを呼び求め	-11.9665
持ち物をみな	-11.9665
食いつくす	-11.9665
ひらき	-11.9665
を仰ぎ望	-11.9665
死人を葬	-11.9665
やさしい	-11.9665
満ち足り	-11.9665
仰せのとおり	-11.9665
目ざめ	-11.9665
一頭ごとに十分の	-11.9666
をエジプトから導き出された	-11.9666
をそしった	-11.9666
はわたしの愛する子	-11.9666
にもまさる	-11.9666
と彼に従う	-11.9666
の母マリヤ	-11.9666
に告げる者があっ	-11.9666
利をむさぼ	-11.9666
世話をし	-11.9666
外へ出	-11.9667
を導き入れる	-11.9667
の娘を妻にめと	-11.9667
を呼び起し	-11.9667
町の長老たちは	-11.9667
恐れおののいて	-11.9667
悪をなす者	-11.9668
の門のかたわらにあ	-11.9669
間が終	-11.967
サムエルはサウルに	-11.967
に同意	-11.967
を生かす	-11.9671
寄留した	-11.9671
に帰すべき	-11.9673
ることもでき	-11.9673
死なれ	-11.9673
夜明けに	-11.9675
をしたりする	-11.9677
にある柱頭の	-11.968
取り除かれる	-11.9685
にならう者	-11.9685
しかの肉を	-11.9692
をののしる	-11.9695
と契約を立て	-11.9699
主をほめまつ	-11.9702
を罪に定める	-11.9709
ししの穴	-11.9719
血に変	-11.9736
のぼられ	-11.9754
お答えにならな	-11.9766
をたずね求め	-11.9766
る方がよい	-11.9789
の数えられた者	-11.9797
パロの心をかたくなに	-11.9842
に当らせ	-11.9874
女から生れ	-11.9875
に使者をつかわして言	-11.9889
ために上ってきたの	-11.9907
おきてとを守	-11.9945
通り過ぎ	-11.997
千六百人であ	-11.9987
日から今日	-12.0046
は汚れたものであ	-12.0056
の叫び声	-12.0141
たらよいでしょう	-12.0196
の広さ	-12.0204
のおる所	-12.0557
祭司はこれを見	-12.0664
のおもてに	-12.0666
自分の国に帰	-12.069
油一ヒン	-12.0854
言うべきこと	-12.0933
アハシュエロス	-12.1039
に加わった	-12.1053
ようなことがあ	-12.1159
言い合っ	-12.1261
追い払うことができ	-12.1287
をそそぐ	-12.1317
新しい歌を	-12.1323
銅	-12.1331
ベザレル	-12.1331
メデアとペルシャの	-12.1331
アブドン	-12.1331
にかかわらず	-12.1331
主の会衆に加わ	-12.1331
トロアス	-12.1331
ー	-12.1331
この出来事	-12.1331
アクボル	-12.1331
イコニオム	-12.1331
シャレゼル	-12.1331
バの王ハダデゼル	-12.1331
ヨヤリブ	-12.1331
祭司としてわたしに仕えさせ	-12.1331
かんらん石	-12.1331
ございません	-12.1331
つぶやいた	-12.1331
に携えて行き	-12.1331
の身に断った物断ち	-12.1331
みごとな	-12.1331
み手を伸ばされる	-12.1331
エジプトの国から導きのぼった	-12.1331
タパネス	-12.1331
テマンびとエリパズ	-12.1331
ナタナエル	-12.1331
ミグドル	-12.1331
三度わたしを知らないと言う	-12.1331
主に従うことをやめ	-12.1331
地にひれ伏して拝し	-12.1331
地に伏して拝し	-12.1331
庭のあげばり	-12.1331
良いと思われることを	-12.1331
血を流そうと	-12.1331
遠ざかり	-12.1331
かんばしい	-12.1331
さいせん箱	-12.1331
ささやき	-12.1331
その血を祭壇の周囲に注ぎかけ	-12.1331
つぶさに	-12.1331
に攻め入	-12.1331
の上にさし伸べて	-12.1331
アビハイル	-12.1331
アラウナは	-12.1331
カフトル	-12.1331
キンネレテ	-12.1331
ギベトン	-12.1331
サウルとその子ヨナタン	-12.1331
サウルの娘ミカル	-12.1331
シバニヤ	-12.1331
ゼポン	-12.1331
ダリク	-12.1331
ハゼロテ	-12.1331
バホリム	-12.1331
ビクリの子シバ	-12.1331
メセク	-12.1331
ヤレド	-12.1331
ヨクタン	-12.1331
ヨベルの年まで	-12.1331
一エパの十分の三	-12.1331
乳飲み子	-12.1331
夕方まで	-12.1331
夜を過ごし	-12.1331
恥ずかし	-12.1331
月の十四日の夕	-12.1331
追い使う者	-12.1331
馬に乗せ	-12.1331
あからさまに	-12.1331
ひるがえって	-12.1331
またたくまに	-12.1331
わが口の言葉	-12.1331
わたしの声に聞き従わ	-12.1331
アロンの子なる祭司たち	-12.1331
エデアエル	-12.1331
エンゲデ	-12.1331
ミルトス	-12.1331
ユダヤ全土	-12.1331
ラッパを吹いた	-12.1331
安らかな	-12.1331
栄光とほまれと	-12.1331
あぶの群れ	-12.1331
の願いを聞かれた	-12.1331
まどろむ	-12.1331
シムロン	-12.1331
ネタンエル	-12.1331
ルステラ	-12.1331
入口のとばり	-12.1331
死ねば	-12.1331
しもべである預言者たちによって	-12.1331
わが魂の愛する者	-12.1331
エサヤ	-12.1331
セルグ	-12.1331
ヘブロンにいるダビデのもとに	-12.1331
ミルコム	-12.1331
何をなし得	-12.1331
勇ましい	-12.1331
あなたの手にわたす	-12.1331
アミホデ	-12.1331
シムリ	-12.1331
ッポルの子バラク	-12.1331
きるほど食べ	-12.1331
さすらい	-12.1331
しだいに	-12.1331
アテネ	-12.1331
アモツの子イザヤ	-12.1331
ギホン	-12.1331
クレネ人	-12.1331
汚れを清める水	-12.1331
者にして主なる神	-12.1331
から火が出て	-12.1331
男らしく	-12.1331
教えておられた	-12.1331
目をくらまし	-12.1331
みにじり	-12.1332
えじきに	-12.1332
てがらを立て	-12.1332
でいらせられます	-12.1332
野のすべての獣	-12.1332
今日見るとおりであ	-12.1332
を石で打ち殺	-12.1332
小さき者	-12.1332
服従させ	-12.1332
立ち上がった	-12.1332
名を置くために	-12.1332
男または女	-12.1332
ヨハネのバプテスマ	-12.1332
水で洗わ	-12.1332
ふくろう	-12.1332
ゼブルンの部族のうち	-12.1332
千七百人	-12.1332
引かれて行	-12.1332
言われた言葉のとおりであ	-12.1332
百四十五人	-12.1332
ご自身をささげられ	-12.1332
主に火祭をささげ	-12.1332
ベニヤミンの部族のうち	-12.1332
撃ち滅ぼして	-12.1332
をかわかし	-12.1332
一体とな	-12.1332
次いで王	-12.1332
によってこれらの事をするの	-12.1333
わなにかか	-12.1333
先祖たちも知らなかった	-12.1333
正しくいらせられ	-12.1333
人の住む所とな	-12.1333
彼女の所にはいっ	-12.1333
別れて嘆	-12.1333
バビロンに引いて行	-12.1333
燔祭としてささげ	-12.1333
ダビデのしもべとなっ	-12.1333
持ちつづけ	-12.1333
地を行きめぐ	-12.1334
分かたれ	-12.1334
清まる	-12.1334
祝い日	-12.1334
先頭に立	-12.1335
切ろうとしてい	-12.1335
にふりかか	-12.1335
からわたしを助け出し	-12.1335
べ治められ	-12.1335
備わっ	-12.1337
あざけられ	-12.1337
聞くところによ	-12.1338
のまえに	-12.1339
かつぎ上	-12.1339
信者になっ	-12.1341
契約の箱をかき	-12.1345
妻として与え	-12.1349
王の所へ行く	-12.1351
人を殺す者	-12.1355
との間をさば	-12.1363
その父祖の部族	-12.1365
わたしを受けいれるので	-12.1366
のくびを	-12.1369
祖	-12.3273
設	-12.556
治	-12.5566
ょ	-12.9157
偶	-12.9161
畜	-14.4093
燃	-14.4121
裂	-14.4122
奴	-14.4123
隷	-14.4124
払	-14.4125
属	-14.4126
砕	-14.4127
伸	-14.4128
乗	-14.4129
邦	-14.413
最	-14.4131
周	-14.4132
以	-14.4133
犠	-14.4134
牲	-14.4135
―	-14.4136
及	-14.4137
賜	-14.4138
選	-14.4139
携	-14.414
伏	-14.4141
至	-14.4142
燔	-14.4143
悩	-14.4144
注	-14.4145
氏	-14.4146
契	-14.4147
憎	-14.4148
攻	-14.4149
倒	-14.415
焼	-14.4151
誓	-14.4152
犯	-14.4153
群	-14.4154
律	-14.4155
捨	-14.4156
壇	-14.4157
追	-14.4158
集	-14.4159
向	-14.416
預	-14.4161
ュ	-14.4162
ャ	-14.4163
尋	-14.4163
』	-14.4164
謝	-14.4164
嗣	-14.4165
聞	-14.4165
