<pad>	0
</s>	0
<unk>	0
,	-3.07262
▁	-3.51885
n	-3.54479
a	-3.6617
▁ja	-3.83627
i	-3.84856
.	-4.00824
r	-4.29189
t	-4.34357
u	-4.40423
in	-4.43083
e	-4.43689
o	-4.56923
si	-4.62948
ä	-4.63758
s	-4.67533
l	-4.70779
h	-4.78118
en	-4.81273
▁on	-4.9823
ta	-5.01637
:	-5.05685
y	-5.09574
an	-5.11907
▁hän	-5.1237
lle	-5.12518
▁Ja	-5.17524
;	-5.31864
ja	-5.33295
▁he	-5.3766
ni	-5.42496
v	-5.43313
sta	-5.43785
ka	-5.45227
tä	-5.45523
et	-5.48545
lla	-5.50157
▁"	-5.52642
▁Herra	-5.53155
▁oli	-5.5379
▁minä	-5.54424
▁niin	-5.60035
vat	-5.6068
▁ka	-5.61779
▁te	-5.61857
tu	-5.64009
is	-5.65038
ko	-5.65988
▁hänen	-5.66264
nsa	-5.66594
ke	-5.66852
ksi	-5.67554
k	-5.68257
ssa	-5.68259
va	-5.71889
▁va	-5.723
kä	-5.74241
ma	-5.75958
to	-5.78247
m	-5.791
nne	-5.80036
▁a	-5.80306
▁joka	-5.81636
te	-5.82274
p	-5.82791
mi	-5.82845
na	-5.84262
▁se	-5.84478
▁o	-5.84868
nsä	-5.86972
ri	-5.88734
sa	-5.88915
▁ei	-5.90328
mme	-5.91314
on	-5.95295
b	-5.95778
la	-5.96852
▁pa	-5.97646
ty	-5.97844
▁jo	-5.98629
el	-6.00161
li	-6.0124
▁että	-6.02398
isi	-6.03384
▁sen	-6.03882
ki	-6.04909
▁minun	-6.0499
▁sinun	-6.06248
de	-6.07263
▁kaikki	-6.08676
kse	-6.09668
ö	-6.10772
nut	-6.11878
▁ku	-6.13623
us	-6.13699
▁sanoi	-6.14156
it	-6.14928
ille	-6.15048
tta	-6.15396
▁si	-6.17636
ista	-6.17979
vi	-6.18132
ti	-6.19099
▁me	-6.21012
▁la	-6.21103
▁Mutta	-6.21259
d	-6.21815
tte	-6.21958
▁p	-6.22975
stä	-6.23585
vät	-6.23875
▁ki	-6.24442
än	-6.24578
kaa	-6.25524
▁Jumala	-6.25586
at	-6.25948
kin	-6.26508
▁ole	-6.28508
▁A	-6.29209
lta	-6.29266
▁jotka	-6.309
ut	-6.31553
re	-6.31962
aa	-6.32265
▁saa	-6.3234
▁sinä	-6.34788
j	-6.35775
ku	-6.36299
un	-6.36624
neet	-6.36857
jä	-6.36929
ten	-6.37396
pa	-6.37979
▁sa	-6.3817
▁sillä	-6.38429
tti	-6.38912
▁m	-6.39215
▁tu	-6.39871
▁mu	-6.40829
▁heidän	-6.41683
".	-6.41727
ssä	-6.42499
le	-6.42747
▁pää	-6.42915
kka	-6.43543
▁kun	-6.44066
as	-6.44194
▁ko	-6.44385
pu	-6.45616
▁l	-6.47511
kuin	-6.48967
maan	-6.49572
uu	-6.5021
ll	-6.51734
▁ovat	-6.51961
▁Herran	-6.52124
▁Niin	-6.5215
▁ve	-6.52609
inen	-6.52611
▁ke	-6.52947
uh	-6.53916
▁nä	-6.54959
▁pi	-6.55005
▁tuli	-6.55015
llä	-6.55035
se	-6.55748
hd	-6.56055
vä	-6.56668
mä	-6.57564
▁ne	-6.61329
▁mutta	-6.62158
▁kuin	-6.62471
▁pe	-6.63104
▁E	-6.63618
▁ra	-6.63639
g	-6.63999
pi	-6.6422
ttu	-6.64559
."	-6.65406
?	-6.66415
▁sano	-6.68216
nä	-6.68903
▁vi	-6.69565
▁ha	-6.70457
ttä	-6.70498
▁vuo	-6.70819
mm	-6.72184
▁pu	-6.73565
kää	-6.74407
▁Si	-6.75043
ivat	-6.75463
▁poika	-6.75752
kö	-6.76359
pä	-6.76551
▁hänelle	-6.76596
aan	-6.76679
▁kansa	-6.76747
▁olen	-6.7678
▁val	-6.76983
▁T	-6.77052
koon	-6.79155
ul	-6.80609
ee	-6.8082
sä	-6.81622
▁Sillä	-6.82043
▁vä	-6.8227
▁kuu	-6.85364
▁olivat	-6.8588
▁luo	-6.86225
▁puhu	-6.86723
istä	-6.86999
ha	-6.87481
ita	-6.87871
da	-6.88362
ro	-6.8854
▁kanssa	-6.88834
▁teidän	-6.89134
sti	-6.89547
jo	-6.8992
nyt	-6.90332
▁vastaan	-6.90394
taa	-6.90486
▁le	-6.90697
ään	-6.91035
▁sy	-6.91204
ne	-6.91774
ud	-6.92093
▁tai	-6.9255
▁hänet	-6.9256
▁K	-6.92577
▁S	-6.93721
▁hu	-6.94563
▁ta	-6.94685
asta	-6.94846
ik	-6.95191
▁e	-6.95694
▁mitä	-6.96164
kun	-6.96325
▁kuningas	-6.96638
yy	-6.98299
▁tuo	-6.98369
▁tule	-6.99411
do	-6.99949
▁häntä	-7.00207
▁jonk	-7.00273
am	-7.00297
▁Israelin	-7.01293
▁Jumalan	-7.02185
he	-7.02496
▁asu	-7.02697
M	-7.02892
-	-7.02903
▁voi	-7.02905
▁itse	-7.02999
▁heille	-7.05095
me	-7.05127
▁sitä	-7.05476
ltä	-7.057
`	-7.07823
f	-7.07939
il	-7.08174
▁Hän	-7.08193
usta	-7.08387
▁ma	-7.0874
▁maa	-7.09246
▁He	-7.09589
im	-7.10999
issa	-7.11482
▁koko	-7.11615
▁s	-7.12933
rin	-7.13904
or	-7.14412
eli	-7.14752
▁Daavid	-7.15085
dä	-7.15118
ju	-7.15368
▁var	-7.15626
▁`	-7.15657
▁sanoo	-7.16107
▁pois	-7.16157
▁sana	-7.16798
▁Se	-7.17235
▁jos	-7.17298
ske	-7.17662
▁eivät	-7.17907
taan	-7.19723
▁tämä	-7.2047
jan	-7.21248
▁lu	-7.22028
isen	-7.22214
itä	-7.22533
oit	-7.23176
ivät	-7.23293
▁olet	-7.23299
▁kuo	-7.23578
▁toi	-7.23688
utta	-7.24154
▁minulle	-7.2463
itse	-7.24709
▁al	-7.25382
▁maan	-7.25696
▁heidät	-7.25716
▁elä	-7.26
kan	-7.26031
▁meidän	-7.26213
ihin	-7.26274
▁minua	-7.26514
▁päivä	-7.27504
▁V	-7.28619
▁isä	-7.29812
▁P	-7.30062
▁päivänä	-7.30338
iksi	-7.30432
▁en	-7.31402
ansa	-7.31481
▁Kun	-7.31643
oo	-7.3182
illa	-7.32008
▁ru	-7.32392
▁mies	-7.3251
llis	-7.33248
uksen	-7.3425
teen	-7.34492
ot	-7.3467
▁vaan	-7.34917
▁I	-7.35436
▁ase	-7.36353
!	-7.3725
▁kaksi	-7.3734
ää	-7.37449
er	-7.378
▁nime	-7.38102
aika	-7.38583
▁edessä	-7.3919
mu	-7.3935
ia	-7.39626
elle	-7.39745
▁kor	-7.39749
lu	-7.39814
▁so	-7.39971
sivat	-7.39995
▁pal	-7.40122
▁kuninkaan	-7.40969
▁katso	-7.41372
van	-7.41575
▁palvelija	-7.41953
▁myös	-7.42538
▁Minä	-7.43031
▁Mi	-7.43297
?"	-7.43304
iset	-7.43391
▁Joo	-7.43504
▁sinua	-7.43724
▁-	-7.43977
▁teille	-7.43982
▁meni	-7.45018
min	-7.45239
▁syö	-7.45299
mään	-7.45702
▁ky	-7.45969
▁heitä	-7.46698
po	-7.46766
illä	-7.47275
ellä	-7.48088
▁Jerusalem	-7.48092
▁hy	-7.48558
▁yli	-7.48697
▁oma	-7.49136
▁sinulle	-7.49217
ttaa	-7.49436
kymmentä	-7.49593
▁usko	-7.49853
▁Silloin	-7.50098
ys	-7.50262
▁vastasi	-7.51211
▁et	-7.51297
▁suku	-7.51506
kään	-7.51563
▁vaimo	-7.5179
essa	-7.5216
▁teki	-7.52304
oja	-7.52427
▁käsi	-7.52991
sten	-7.53647
▁minut	-7.53907
▁O	-7.53934
▁Jo	-7.5414
Katso	-7.55434
▁viha	-7.56205
▁mukaan	-7.56229
▁jälke	-7.56371
▁ihmis	-7.56372
▁vie	-7.57074
▁R	-7.57598
kseen	-7.57599
ensa	-7.57854
▁tie	-7.58109
▁tykö	-7.594
▁lähe	-7.59634
▁siitä	-7.60344
▁mene	-7.60485
▁tulee	-7.60637
▁hä	-7.6133
▁tämän	-7.61563
▁L	-7.62109
▁temppeli	-7.62345
▁ette	-7.62711
▁hal	-7.63316
essä	-7.63919
▁seura	-7.64672
▁mikä	-7.6511
▁anna	-7.65111
J	-7.65357
▁näin	-7.65597
köön	-7.66905
H	-7.67107
iden	-7.67114
▁käy	-7.67461
▁Israel	-7.67592
▁hyvä	-7.68009
ran	-7.68286
▁asti	-7.68798
▁vielä	-7.68868
▁B	-7.69372
▁maahan	-7.70678
tele	-7.7077
▁puole	-7.709
▁nyt	-7.71357
S	-7.71858
▁juo	-7.71879
▁kolme	-7.72116
▁suure	-7.72499
han	-7.72974
▁synti	-7.73451
▁suu	-7.73582
kki	-7.73958
estä	-7.74291
▁kaiken	-7.74496
▁lähti	-7.7451
▁Egypti	-7.7467
ttava	-7.7491
▁tähden	-7.7532
▁pyhä	-7.75975
seen	-7.76225
▁velje	-7.76471
▁sota	-7.76522
takaa	-7.77218
läis	-7.77295
▁Ha	-7.77422
▁Juudan	-7.77874
▁käsky	-7.77963
▁paha	-7.78304
▁Je	-7.79002
toista	-7.79313
▁oleva	-7.80188
▁sekä	-7.80396
ttanut	-7.81259
▁siihen	-7.82064
▁sanoen	-7.82589
hti	-7.82911
▁tietä	-7.83008
▁vanh	-7.83071
▁neljä	-7.83121
▁vanhurska	-7.83129
▁antoi	-7.83306
eksi	-7.84478
▁kautta	-7.85088
T	-7.85346
▁tot	-7.85359
▁sinut	-7.85374
▁tehnyt	-7.8562
▁niiden	-7.85811
▁esi	-7.85882
▁seitsemän	-7.85974
▁Jeesus	-7.86885
ksensa	-7.87409
▁kansan	-7.87414
▁koska	-7.87458
▁Ka	-7.88342
▁sanoivat	-7.88485
K	-7.88736
▁otti	-7.89289
▁olkoon	-7.90243
▁ollut	-7.90806
▁sitten	-7.91239
kymmene	-7.91249
▁ettei	-7.91653
▁tapa	-7.92153
▁kutsu	-7.92339
▁pala	-7.92515
▁siellä	-7.9272
▁Ma	-7.92825
▁Be	-7.93767
▁rake	-7.93926
▁eteen	-7.94271
▁hi	-7.94391
▁olette	-7.94796
▁jumala	-7.94858
▁enää	-7.94894
▁yht	-7.94916
▁yksi	-7.95456
jen	-7.95998
▁kaupunki	-7.96078
▁teitä	-7.96188
▁Me	-7.96192
▁nuo	-7.96595
▁vir	-7.97671
▁istu	-7.98237
koot	-7.98302
ttää	-7.98587
▁Sitten	-7.98957
▁kirjoit	-7.9934
▁ilo	-7.99726
ttänyt	-8.00018
▁niitä	-8.0042
▁Jos	-8.00822
▁nämä	-8.0164
▁täyt	-8.01647
E	-8.02697
▁voima	-8.0289
ojen	-8.03949
▁pojan	-8.04027
voi	-8.0406
▁Ku	-8.04299
miehi	-8.04682
▁pappi	-8.05102
▁Mooses	-8.05981
▁lähte	-8.06425
▁suuri	-8.06436
▁viini	-8.06797
▁kaike	-8.06851
▁näki	-8.06856
▁siis	-8.0703
▁mitään	-8.0712
ttoma	-8.07749
▁antaa	-8.08108
▁hävit	-8.08191
▁silmä	-8.08712
▁siinä	-8.08789
kasv	-8.08901
▁maassa	-8.08955
ettiin	-8.09224
▁tullut	-8.09361
▁armo	-8.0959
▁ympäri	-8.11677
▁Saul	-8.12394
▁antanut	-8.14051
mise	-8.14208
▁talo	-8.14456
▁Jaakob	-8.15015
▁surma	-8.15989
▁kuuli	-8.16126
Minä	-8.17046
sydäm	-8.17704
▁älä	-8.17726
▁Sentähden	-8.17967
▁kuule	-8.18406
▁Näi	-8.1897
▁El	-8.19037
isesti	-8.19519
▁suo	-8.20428
▁jää	-8.20716
▁lähetti	-8.21326
"	-8.21478
▁liha	-8.21484
Ä	-8.22035
uuden	-8.22304
tuhatta	-8.22347
▁joutu	-8.22414
▁ennen	-8.22445
▁aina	-8.22831
▁kohta	-8.22911
▁oikea	-8.23889
▁alttari	-8.23891
▁rii	-8.24572
▁nousi	-8.24949
▁tiedä	-8.25382
▁pysy	-8.27147
▁silloin	-8.27386
O	-8.27465
Älä	-8.27945
▁oikeu	-8.29622
▁ilmoit	-8.30167
ilaiset	-8.30596
▁sielu	-8.30829
▁kysy	-8.3105
▁polt	-8.31236
▁Aaron	-8.31876
ttävä	-8.32071
▁kunnia	-8.33344
▁paljon	-8.3362
▁yö	-8.34365
▁seiso	-8.34586
▁viisa	-8.3465
▁miehen	-8.34786
▁opet	-8.35446
▁rukoil	-8.36311
▁leiri	-8.38195
▁rauha	-8.38517
▁kuolema	-8.39029
▁pojat	-8.39326
▁toisen	-8.39486
▁erämaa	-8.40251
▁älkää	-8.40251
ilaisten	-8.40252
▁tahto	-8.40578
▁työ	-8.419
▁takaisin	-8.4214
Mitä	-8.42229
▁toinen	-8.42295
▁herra	-8.4283
▁kukaan	-8.42868
▁pyhi	-8.43747
▁sydämen	-8.44487
▁tekee	-8.4512
▁hopea	-8.457
▁minkä	-8.46462
▁Salomo	-8.46693
▁vihollis	-8.47697
▁nimi	-8.48315
▁teidät	-8.48372
▁ulos	-8.49052
▁käänty	-8.49417
▁astu	-8.49883
▁Jeesuksen	-8.51116
▁lapse	-8.51127
!"	-8.51899
▁Baabel	-8.52517
▁miele	-8.5255
▁kuninka	-8.5337
▁Sebaot	-8.53581
▁enkeli	-8.53589
▁tehdä	-8.54823
▁neuvo	-8.55019
▁pelasta	-8.55398
▁synny	-8.55801
▁tahdo	-8.56521
▁leeviläis	-8.57581
▁filistealais	-8.57581
▁lapsi	-8.57619
▁heimo	-8.57742
▁rakasta	-8.5797
Herra	-8.57993
P	-8.58377
A	-8.58377
▁farao	-8.58701
▁tuho	-8.59785
▁profeetta	-8.60595
▁Juuda	-8.61181
▁tänä	-8.61588
▁juutalais	-8.61749
▁pelastu	-8.61749
▁taivaan	-8.61765
▁verta	-8.61866
▁älköön	-8.62137
▁äiti	-8.62554
tetty	-8.62724
▁sentähden	-8.62916
▁velji	-8.6331
▁poiki	-8.63312
▁kaupungin	-8.64097
▁keskellä	-8.64893
▁Moosekselle	-8.65694
▁israelilaiset	-8.65694
▁hedelmä	-8.65694
▁Joosef	-8.66097
▁perhe	-8.66109
▁määrä	-8.66502
▁jumal	-8.66553
▁tapp	-8.66604
kööt	-8.66928
▁häpeä	-8.67318
▁Aabraham	-8.67726
▁huonee	-8.68156
▁katsel	-8.68567
▁ylös	-8.69801
▁paikka	-8.69893
▁Kristuksen	-8.70221
▁päivi	-8.70645
▁vanno	-8.7069
▁tähän	-8.71068
▁huom	-8.71377
U	-8.71492
▁öljy	-8.71493
▁kuninkaaksi	-8.71503
▁riemu	-8.7192
▁maailma	-8.7323
puolella	-8.73546
▁turva	-8.73789
V	-8.74597
▁iankaikkisesti	-8.74964
▁ruumii	-8.74968
▁tytär	-8.75409
▁kuitenk	-8.75417
▁nouda	-8.75851
▁kuninkaalle	-8.7587
▁pelkää	-8.75877
▁Joosua	-8.76299
▁polttouhri	-8.76745
▁kulki	-8.77234
▁Kaikki	-8.78106
▁käski	-8.78107
▁tuomit	-8.79866
▁kätensä	-8.80408
▁miekka	-8.81817
▁valmis	-8.81902
▁tark	-8.81969
▁perintöosa	-8.8229
▁palvelijoi	-8.83244
▁ahdist	-8.83325
▁tyttäre	-8.83725
▁Nämä	-8.84208
urska	-8.84406
▁rikko	-8.86166
▁kärsi	-8.86174
▁meidät	-8.86659
▁kaikille	-8.86666
▁kauhistu	-8.88664
▁samoin	-8.90195
▁jälkeläisiä	-8.91228
▁ylen	-8.91772
I	-9.18316
L	-9.4375
R	-9.53236
1	-9.63441
]	-9.66703
3	-10.0372
B	-10.0907
2	-10.156
4	-10.3329
9	-10.6608
0	-10.6911
5	-10.7224
)	-10.7546
6	-11.1042
Z	-14.7486
Ö	-14.7487
7	-14.7488
8	-14.7489
(	-14.749
[	-14.7491
F	-14.7492
Y	-14.7493
G	-14.7494
D	-14.7495
/	-14.7496
N	-14.7496
