<pad>	0
</s>	0
<unk>	0
s	-3.07269
▁	-3.11878
▁the	-3.59969
.	-3.72818
e	-3.75534
t	-3.90085
,	-3.90797
o	-3.97932
▁of	-4.2975
d	-4.31688
▁to	-4.3797
▁in	-4.38158
a	-4.39311
ed	-4.39771
c	-4.40834
y	-4.53487
ing	-4.53531
p	-4.53711
n	-4.66553
▁a	-4.67178
u	-4.67547
g	-4.73136
m	-4.77793
▁and	-4.7873
i	-4.82196
in	-4.90436
ar	-4.9745
al	-5.01439
er	-5.03085
or	-5.06343
f	-5.09197
re	-5.13903
h	-5.15286
▁is	-5.16023
l	-5.19498
▁be	-5.21121
ur	-5.2567
▁c	-5.28548
k	-5.31014
▁The	-5.33212
r	-5.35512
an	-5.35788
es	-5.37786
▁f	-5.38607
b	-5.40166
▁for	-5.42241
ly	-5.44535
-	-5.45802
on	-5.45964
▁A	-5.47687
le	-5.48659
▁m	-5.49159
at	-5.49218
▁on	-5.52538
▁S	-5.53488
en	-5.53496
w	-5.54034
▁re	-5.54742
st	-5.56838
ent	-5.57024
▁are	-5.60887
ic	-5.62145
▁p	-5.62759
it	-5.65955
se	-5.66096
ri	-5.74016
▁that	-5.75693
▁has	-5.76664
'	-5.78204
ro	-5.78605
v	-5.82074
▁b	-5.8371
▁C	-5.83802
▁have	-5.85111
ation	-5.86969
un	-5.90558
▁with	-5.90657
as	-5.91254
▁P	-5.91538
▁M	-5.91577
us	-5.9527
il	-5.98578
▁w	-5.99079
▁was	-6.02734
▁1	-6.03841
▁vaccine	-6.06584
▁will	-6.06839
ir	-6.07276
ac	-6.07775
▁corona	-6.08221
▁from	-6.0893
ol	-6.09616
▁W	-6.09764
▁l	-6.10547
ter	-6.10716
▁co	-6.14384
is	-6.14478
id	-6.15628
ive	-6.16059
ce	-6.16226
▁not	-6.17148
▁R	-6.17852
▁g	-6.18402
ad	-6.19041
▁pro	-6.21256
ha	-6.25262
ra	-6.26628
▁by	-6.26817
j	-6.2716
0	-6.27368
out	-6.27526
▁been	-6.29006
th	-6.29591
te	-6.29931
ve	-6.30612
▁as	-6.30643
am	-6.30706
▁patients	-6.32023
▁B	-6.32044
ll	-6.32128
li	-6.32429
5	-6.33782
ch	-6.34168
vi	-6.34294
▁an	-6.35066
im	-6.35149
ig	-6.35333
▁or	-6.35704
ne	-6.36575
▁this	-6.3668
ity	-6.37643
▁it	-6.3795
2	-6.39176
ul	-6.40487
▁ex	-6.4076
▁D	-6.40988
▁at	-6.42095
▁N	-6.42605
▁do	-6.43517
▁de	-6.43699
▁state	-6.44345
ate	-6.44653
▁T	-6.45715
4	-6.45774
▁said	-6.46215
ect	-6.47455
di	-6.47883
▁I	-6.4835
)	-6.48655
ers	-6.49783
op	-6.51262
if	-6.52037
C	-6.52304
▁In	-6.53622
▁government	-6.54043
▁(	-6.54228
▁"	-6.54835
▁h	-6.54978
▁people	-6.54996
1	-6.55036
ment	-6.55715
ion	-6.5759
▁con	-6.57734
me	-6.5806
mp	-6.58323
he	-6.5916
ial	-6.59958
▁d	-6.60383
▁also	-6.606
▁r	-6.62617
om	-6.62693
la	-6.63036
▁you	-6.64091
el	-6.64156
▁no	-6.64161
x	-6.65565
va	-6.66289
9	-6.67389
hi	-6.68875
▁number	-6.69306
?	-6.69768
ist	-6.70107
▁ca	-6.7016
▁K	-6.70983
▁were	-6.72153
▁virus	-6.7307
ver	-6.73464
▁test	-6.74748
ated	-6.75319
▁U	-6.75669
▁can	-6.77047
▁F	-6.77765
8	-6.78062
▁H	-6.78846
ction	-6.79055
▁2	-6.79143
6	-6.7948
ho	-6.79637
▁so	-6.80137
-19	-6.80505
▁day	-6.81086
▁we	-6.81497
sh	-6.81621
ut	-6.81811
ta	-6.82223
S	-6.82974
7	-6.83432
▁Corona	-6.84178
▁e	-6.86324
▁he	-6.86927
▁tr	-6.8712
▁pre	-6.87184
▁E	-6.88706
tion	-6.88914
▁G	-6.89434
com	-6.89901
▁should	-6.92074
I	-6.92835
▁other	-6.93667
wa	-6.9368
▁work	-6.93948
▁per	-6.93964
▁India	-6.94791
um	-6.95002
▁health	-6.95245
ther	-6.95463
▁me	-6.95586
da	-6.95637
▁Minister	-6.96203
▁ab	-6.97548
and	-6.97966
ab	-6.98493
▁had	-6.98795
age	-6.98916
ant	-6.9932
▁dis	-6.99833
ies	-7.01377
qu	-7.02447
ry	-7.02909
ical	-7.02962
ill	-7.03002
E	-7.0301
ak	-7.03741
▁hospital	-7.03842
▁O	-7.04761
end	-7.05934
A	-7.06254
ide	-7.06635
▁who	-7.06746
:	-7.07283
▁app	-7.08366
3	-7.0909
▁use	-7.10773
▁after	-7.10866
▁all	-7.10975
▁Maharashtra	-7.11268
P	-7.11383
▁oxygen	-7.11408
"	-7.11552
ard	-7.11936
▁COVID	-7.12679
T	-7.1318
▁V	-7.14558
▁time	-7.14697
vir	-7.15811
CoV	-7.15861
▁hand	-7.16417
▁infection	-7.16445
▁Dr	-7.16819
R	-7.17245
▁there	-7.17299
▁L	-7.17829
ance	-7.18716
ia	-7.19166
▁J	-7.19613
▁disease	-7.21594
▁take	-7.21627
▁say	-7.22567
▁more	-7.23003
▁It	-7.2517
tra	-7.2528
▁3	-7.25509
▁This	-7.25734
▁lockdown	-7.29178
ence	-7.29285
▁than	-7.29498
har	-7.29667
▁vaccination	-7.29682
han	-7.29896
▁But	-7.30031
▁some	-7.30125
▁new	-7.30575
z	-7.3344
▁under	-7.34517
ever	-7.36767
ach	-7.36862
▁report	-7.383
ize	-7.38503
▁sp	-7.38997
▁year	-7.39234
▁country	-7.4034
▁Health	-7.40341
▁imp	-7.40557
▁sta	-7.41885
ack	-7.42246
hich	-7.44575
▁He	-7.4576
O	-7.46296
▁need	-7.46508
▁20	-7.47928
▁but	-7.4886
▁district	-7.49975
▁first	-7.51439
M	-7.51441
▁On	-7.51875
▁high	-7.52068
ould	-7.52175
▁many	-7.52737
▁increase	-7.53119
D	-7.5436
ities	-7.56009
▁found	-7.56587
▁spread	-7.56588
▁may	-7.57363
00	-7.57636
▁second	-7.57918
▁effect	-7.58142
low	-7.59097
▁two	-7.59507
▁get	-7.60629
▁last	-7.60979
▁cases	-7.61455
▁over	-7.62222
▁such	-7.62732
%	-7.63195
own	-7.63839
▁start	-7.6416
N	-7.64193
hief	-7.64417
able	-7.64546
▁March	-7.65104
▁Mumbai	-7.6582
▁symptoms	-7.6582
▁SARS	-7.66062
▁develop	-7.66062
H	-7.66568
▁2020	-7.67774
▁According	-7.68021
▁death	-7.69282
▁given	-7.70535
▁situation	-7.71032
due	-7.72054
▁children	-7.73352
▁treatment	-7.74137
▁wave	-7.74435
tric	-7.74896
▁like	-7.75729
▁person	-7.75782
line	-7.75999
ness	-7.76147
▁However	-7.7926
▁Covid	-7.79537
▁school	-7.80372
▁system	-7.80933
▁doctor	-7.81498
▁home	-7.81833
▁countries	-7.8235
▁coronavirus	-7.82923
▁available	-7.83209
▁infected	-7.85245
▁part	-7.85391
▁April	-7.85539
▁even	-7.86218
▁world	-7.86426
▁during	-7.89168
▁against	-7.90366
▁risk	-7.91312
▁see	-7.91371
▁how	-7.92008
▁when	-7.92898
▁every	-7.93281
;	-7.93506
▁while	-7.9383
▁mask	-7.93845
▁week	-7.94505
▁Pune	-7.95176
▁those	-7.95767
Y	-7.96747
▁medical	-7.99777
▁Thackeray	-8.00439
,000	-8.00451
▁public	-8.0147
▁through	-8.02163
▁cause	-8.02642
▁provide	-8.02879
▁State	-8.03282
▁place	-8.03575
▁outbreak	-8.04985
▁large	-8.05346
▁drug	-8.05704
▁made	-8.06138
K	-8.06773
▁restrictions	-8.06791
▁patient	-8.08435
▁China	-8.0863
▁lakh	-8.11266
/	-8.1241
▁know	-8.12428
▁plan	-8.12532
▁current	-8.13573
▁contact	-8.13573
▁anti	-8.13618
▁issue	-8.13628
▁including	-8.14749
▁covid	-8.15168
▁Hospital	-8.15541
▁announced	-8.15541
▁travel	-8.15542
unicipal	-8.16741
W	-8.17295
▁control	-8.17551
▁important	-8.17956
▁month	-8.17971
▁Center	-8.18014
▁human	-8.19189
▁information	-8.19599
▁follow	-8.19601
▁prevent	-8.19604
▁condition	-8.2127
▁result	-8.22117
▁what	-8.22604
▁relat	-8.22655
▁same	-8.23013
▁affect	-8.23397
▁include	-8.23828
▁closed	-8.24695
▁help	-8.25166
▁level	-8.25572
U	-8.26488
▁show	-8.26837
▁positive	-8.27345
▁decision	-8.27793
▁respirator	-8.27793
▁supply	-8.28243
ndra	-8.28347
▁increasing	-8.28696
▁body	-8.2961
▁administration	-8.30066
▁meeting	-8.30529
▁million	-8.30992
▁demand	-8.3146
▁between	-8.31922
ology	-8.31924
▁where	-8.32403
activ	-8.32603
though	-8.32863
▁Uddhav	-8.33337
▁office	-8.34042
V	-8.3423
▁students	-8.34772
▁question	-8.35741
G	-8.36274
▁service	-8.36719
▁Delhi	-8.37708
▁central	-8.38705
▁direct	-8.38715
▁around	-8.4022
▁three	-8.40225
▁citizens	-8.4073
▁period	-8.4073
▁before	-8.40734
▁BBC	-8.41758
▁reduce	-8.4176
L	-8.4368
▁thousand	-8.44376
▁campaign	-8.45442
▁change	-8.45448
▁require	-8.47067
▁safe	-8.47067
▁different	-8.4816
▁private	-8.4816
▁recommend	-8.4816
▁study	-8.4816
B	-8.48198
▁shortage	-8.49827
peaking	-8.49833
▁January	-8.50954
▁education	-8.50954
▁allowed	-8.50955
▁sample	-8.51522
▁possible	-8.52668
▁research	-8.52668
F	-8.59809
J	-8.73672
Z	-8.92496
q	-10.5599
(	-11.6227
