<pad>	0
</s>	0
<unk>	0
¦	-1.2142
▁¦	-1.65365
▁	-2.93476
𐋇	-3.2987
▁,	-3.40122
a	-3.74962
i	-4.23184
▁.	-4.37794
u	-4.77899
v	-5.07381
s	-5.13571
se	-5.25591
na	-5.37565
z	-5.41779
y	-5.48163
k	-5.50516
o	-5.54193
m	-5.63922
▁:	-5.67634
e	-5.68094
ho	-5.72712
ne	-5.77249
ch	-5.92335
po	-5.97905
ti	-6.05681
í	-6.10805
za	-6.1108
jest	-6.12046
hospodin	-6.1412
do	-6.15849
jeho	-6.16065
▁;	-6.1665
to	-6.23209
že	-6.25457
ť	-6.31889
pak	-6.32223
ě	-6.33573
od	-6.39519
nebo	-6.42108
syn	-6.47298
te	-6.51603
em	-6.54441
jsem	-6.5464
vy	-6.55943
l	-6.55955
é	-6.57347
je	-6.61201
by	-6.62326
aby	-6.62564
▁?	-6.65562
li	-6.66069
řekl	-6.71098
ale	-6.75498
když	-6.76882
ové	-6.77247
š	-6.785
ž	-6.78688
mi	-6.81664
bude	-6.82381
byl	-6.8689
tak	-6.89266
ní	-6.89393
lid	-6.89831
kterýž	-6.91275
ce	-6.93629
t	-6.96022
mu	-6.96194
jejich	-6.98016
před	-6.98266
jí	-6.98565
své	-6.99765
ů	-7.00021
kteříž	-7.00747
jako	-7.02365
á	-7.05255
při	-7.08258
ou	-7.09888
pro	-7.10788
tedy	-7.11959
jsou	-7.13796
já	-7.16325
mne	-7.2243
svého	-7.23746
král	-7.23752
b	-7.23937
ty	-7.24541
toho	-7.26183
ně	-7.29032
on	-7.3787
proti	-7.38627
kteréž	-7.38655
jsi	-7.39777
až	-7.40265
bůh	-7.42067
ý	-7.42651
vých	-7.43176
ten	-7.43468
země	-7.44512
dom	-7.44557
jim	-7.44671
měst	-7.45522
také	-7.46012
nad	-7.46794
protož	-7.47182
ého	-7.47376
tvé	-7.48105
zemi	-7.48718
r	-7.51078
jemu	-7.51484
což	-7.53896
tě	-7.54103
budou	-7.5486
tobě	-7.558
né	-7.58154
me	-7.58493
ji	-7.58764
jej	-7.59258
synů	-7.60343
aj	-7.61
ve	-7.61134
vám	-7.61748
mé	-7.62007
byli	-7.62379
věc	-7.62406
roz	-7.64383
en	-7.64826
-	-7.65143
d	-7.68433
obě	-7.7108
obět	-7.71754
ovi	-7.72504
má	-7.72646
kdo	-7.7302
h	-7.74467
té	-7.74801
n	-7.75004
p	-7.75489
dal	-7.75899
ani	-7.7631
jmén	-7.76617
dí	-7.77196
ští	-7.77657
la	-7.78746
svým	-7.79759
vás	-7.80144
ku	-7.80159
ze	-7.80328
ův	-7.80635
boha	-7.81186
ni	-7.8339
ma	-7.8356
mluvil	-7.83709
il	-7.83853
ním	-7.8416
le	-7.84949
ob	-7.85613
ta	-7.86399
bylo	-7.87295
všeck	-7.87648
pán	-7.88915
boží	-7.90044
ých	-7.90093
mezi	-7.90223
míst	-7.91385
praví	-7.92207
den	-7.92633
dne	-7.93439
jste	-7.94251
tu	-7.94438
ech	-7.94604
no	-7.9581
co	-7.96773
všecky	-7.97177
lo	-7.97232
pře	-7.97729
svém	-7.97896
těch	-7.98557
ná	-7.99669
můj	-7.99828
cí	-8.00646
všickni	-8.01421
ruk	-8.01492
řk	-8.02427
hospodinov	-8.02534
ům	-8.03293
ře	-8.03544
ích	-8.04099
david	-8.04595
všech	-8.05173
pod	-8.05952
mně	-8.06162
aniž	-8.06685
c	-8.068
kteráž	-8.07013
vod	-8.0732
ci	-8.08716
vou	-8.09595
jeden	-8.09692
če	-8.10637
vše	-8.10744
sti	-8.10803
ný	-8.10929
kdož	-8.11448
všecko	-8.11779
jsme	-8.13083
skrz	-8.13528
izraelský	-8.13553
svo	-8.13702
krále	-8.13884
jeruzalém	-8.14837
ra	-8.15018
koli	-8.15372
potom	-8.15897
slov	-8.15984
měl	-8.16085
srdce	-8.16331
j	-8.1656
jisté	-8.16744
č	-8.17123
vá	-8.17889
čas	-8.18093
služebník	-8.18259
není	-8.18457
iti	-8.18664
uje	-8.19223
učinil	-8.20268
byla	-8.20363
tam	-8.21219
cest	-8.21678
ježíš	-8.22176
její	-8.23179
(	-8.24215
el	-8.24664
však	-8.24838
jakž	-8.25819
tvůj	-8.26474
sedm	-8.26932
žen	-8.26975
nás	-8.27217
še	-8.28225
tr	-8.28389
ke	-8.28597
podl	-8.28642
oči	-8.28675
ví	-8.28826
ky	-8.29073
abys	-8.29387
an	-8.30038
izrael	-8.30069
ova	-8.30174
národ	-8.30507
f	-8.31066
dá	-8.3163
budu	-8.31811
stalo	-8.32165
tebe	-8.32681
každý	-8.32827
nich	-8.33113
soud	-8.33295
pa	-8.33659
více	-8.34511
tí	-8.34547
ó	-8.3606
kterouž	-8.36066
nyní	-8.36124
již	-8.36139
ha	-8.36632
nu	-8.37261
otce	-8.37267
let	-8.37274
pl	-8.38328
naše	-8.38487
odpověděl	-8.39478
moc	-8.39741
nám	-8.40047
něm	-8.41392
nou	-8.41552
hlas	-8.4184
živ	-8.42699
život	-8.42955
budeš	-8.44697
jich	-8.45018
vaše	-8.4541
lí	-8.46274
ské	-8.46486
něho	-8.46905
proto	-8.47107
nic	-8.47378
oni	-8.47714
ať	-8.47882
jakož	-8.48202
pokolení	-8.48508
přišel	-8.48591
tomu	-8.48948
jestliže	-8.49106
ách	-8.49424
bohu	-8.49896
šel	-8.50087
aneb	-8.50354
toto	-8.51006
jenž	-8.51541
zákon	-8.52551
ovati	-8.5352
my	-8.53634
ší	-8.53837
vel	-8.54146
ještě	-8.5428
íti	-8.54542
vedl	-8.54714
zlé	-8.54873
abych	-8.54927
hřích	-8.55407
ří	-8.55485
poslal	-8.55692
budete	-8.55779
člověk	-8.55883
muži	-8.56221
takto	-8.56731
hor	-8.57311
muž	-8.57389
dům	-8.58152
bý	-8.58418
němu	-8.58721
neb	-8.59081
ek	-8.59749
stran	-8.59872
ží	-8.60422
tvář	-8.60432
ď	-8.60904
slovo	-8.60952
bez	-8.62379
žádné	-8.62955
knížat	-8.64336
ím	-8.64471
oval	-8.64765
prostřed	-8.64844
hospodine	-8.65137
díl	-8.65398
kr	-8.65454
dcer	-8.65603
tebou	-8.65611
da	-8.66166
duch	-8.66324
val	-8.66643
mojžíš	-8.66728
bratří	-8.66991
každé	-8.67094
úst	-8.67275
tom	-8.67699
vůj	-8.6778
tvá	-8.6798
hlav	-8.68703
mnou	-8.68793
království	-8.6884
nebude	-8.6915
rá	-8.69952
st	-8.70025
pravím	-8.70028
nimi	-8.70435
čí	-8.71085
vší	-8.71355
zdaliž	-8.71364
nej	-8.71555
tři	-8.71662
ují	-8.72104
bratr	-8.72543
ým	-8.72654
řekli	-8.72692
lé	-8.73078
al	-8.73782
ň	-8.74267
než	-8.74344
vz	-8.74743
veliké	-8.74833
otc	-8.75574
iáš	-8.75608
izraelské	-8.75911
ro	-8.76022
et	-8.76499
vaši	-8.77813
ru	-8.78258
viděl	-8.78716
dva	-8.78878
mě	-8.79155
re	-8.79241
hl	-8.80121
tím	-8.80392
ny	-8.81744
kněz	-8.81991
měsíc	-8.82044
oh	-8.82473
g	-8.83027
sláv	-8.83149
zase	-8.83197
ba	-8.83484
sil	-8.83731
pět	-8.83941
sám	-8.83968
pr	-8.84513
věky	-8.84716
člověka	-8.84858
ský	-8.85071
muže	-8.85409
druhé	-8.85721
spravedlnost	-8.85986
ost	-8.8638
sto	-8.86462
ot	-8.86926
sta	-8.86966
vojsk	-8.87146
eň	-8.8719
tento	-8.87393
ení	-8.87911
davidov	-8.88827
přikázal	-8.88931
duše	-8.89241
noc	-8.89535
hu	-8.89637
egypt	-8.89663
dn	-8.9022
de	-8.90527
pe	-8.90927
šli	-8.91847
činil	-8.92393
padl	-8.92554
sebe	-8.92596
svá	-8.9299
jednoho	-8.93426
hněv	-8.93498
buď	-8.94137
mužů	-8.94312
mojžíšov	-8.94466
vůkol	-8.947
mou	-8.94708
dvě	-8.948
otec	-8.95022
pří	-8.95534
mých	-8.95613
poněvadž	-8.95646
smlouv	-8.95964
bou	-8.96053
vzal	-8.9617
ste	-8.96221
joz	-8.96296
dědictví	-8.96922
nim	-8.9718
dar	-8.97325
přišli	-8.97498
ových	-8.97848
ode	-8.98077
boj	-8.98142
dl	-8.98208
kdež	-8.98309
ská	-8.98382
kněží	-8.98554
ruc	-8.98878
anděl	-8.98962
nechť	-8.99207
nepřátel	-8.99247
ry	-8.99379
pročež	-8.99525
tisíc	-8.9986
zástupů	-9.0045
činí	-9.00757
mohl	-9.00888
řkouc	-9.01017
chom	-9.01253
ř	-9.01509
ja	-9.02053
umřel	-9.02249
um	-9.02264
něj	-9.0301
přes	-9.03504
di	-9.0372
bys	-9.03753
tý	-9.03879
proč	-9.03883
ám	-9.03994
rán	-9.04724
pil	-9.04838
žádný	-9.0494
bych	-9.05139
bo	-9.05525
těm	-9.05764
pí	-9.05876
egyptské	-9.05876
stál	-9.05886
ej	-9.06146
panovník	-9.06387
množství	-9.06694
oltář	-9.06844
noh	-9.06892
str	-9.07042
dobré	-9.07079
vý	-9.07259
prv	-9.07397
dám	-9.07626
jedno	-9.07685
pokoj	-9.08117
stříbr	-9.08686
izraele	-9.0916
nebe	-9.09682
všem	-9.09725
jiné	-9.09809
milosrdenství	-9.09932
pane	-9.10286
hned	-9.11036
klá	-9.11099
vámi	-9.12282
dnů	-9.12286
eli	-9.12701
kou	-9.12837
zlat	-9.13021
opět	-9.1305
tiž	-9.13074
první	-9.13368
ště	-9.13462
há	-9.14317
bývá	-9.14331
jedn	-9.15088
br	-9.15139
otců	-9.1578
osti	-9.15831
léta	-9.16062
měli	-9.16076
liž	-9.16111
jehož	-9.16282
brán	-9.16399
moře	-9.17136
kníže	-9.17142
jedl	-9.17451
kteréhož	-9.17921
bydlil	-9.17921
bože	-9.18147
dě	-9.182
kon	-9.1842
pakli	-9.18612
chleb	-9.18764
meč	-9.19662
saul	-9.19781
ly	-9.19862
zdali	-9.20305
šest	-9.20421
přijde	-9.20481
ovali	-9.2056
všeliké	-9.2057
izraelským	-9.20583
náš	-9.20605
řeč	-9.2076
hospodinovo	-9.21023
mnoho	-9.21557
bral	-9.22096
prav	-9.22731
nost	-9.22818
uj	-9.22983
nežli	-9.23007
duš	-9.23171
byly	-9.23215
srdc	-9.23569
matk	-9.23638
toliko	-9.2382
mluv	-9.23826
tá	-9.23838
dnes	-9.24003
ruko	-9.2403
čeled	-9.24193
tvoji	-9.24468
ar	-9.24638
kristu	-9.24828
mají	-9.24946
ování	-9.24975
dej	-9.25633
rad	-9.26003
manželk	-9.2628
vidí	-9.26283
tělo	-9.2637
jákob	-9.26928
svatý	-9.26967
mluví	-9.27006
fa	-9.27077
nebylo	-9.27332
hoře	-9.27346
vin	-9.27367
slyší	-9.27695
lu	-9.28296
boh	-9.28309
aron	-9.2843
jdi	-9.28457
národů	-9.28674
tud	-9.2874
jak	-9.28885
moudrost	-9.2923
zplodil	-9.29233
spolu	-9.29676
obyvatel	-9.29703
této	-9.29716
ducha	-9.29746
služebníc	-9.29815
dali	-9.30684
silný	-9.3077
slyšel	-9.30896
stane	-9.30897
shromáždění	-9.31116
nepravost	-9.31373
tež	-9.3162
stánk	-9.31623
us	-9.31964
postavil	-9.32082
nes	-9.32336
prchlivost	-9.32384
všechněm	-9.32465
ano	-9.32524
vír	-9.32726
veliký	-9.32786
ješto	-9.32846
ící	-9.33085
modl	-9.33295
svědectví	-9.33303
dává	-9.3341
nádob	-9.33829
volal	-9.34614
prosím	-9.347
chvál	-9.34726
síl	-9.34809
er	-9.34836
hle	-9.34997
mluvit	-9.35214
chrám	-9.35818
svět	-9.35818
ků	-9.36058
tato	-9.36096
pole	-9.36867
svaté	-9.36916
ři	-9.36963
judské	-9.37086
ú	-9.37242
nalezl	-9.37549
dobře	-9.3755
těla	-9.3764
tvým	-9.37865
set	-9.38491
žena	-9.38509
truhl	-9.38521
judský	-9.38723
pravil	-9.38774
váš	-9.38816
smrti	-9.38901
kterak	-9.39007
tří	-9.39046
ber	-9.39285
tře	-9.39287
nez	-9.3935
kudž	-9.39379
mám	-9.39826
obětoval	-9.39831
ustanovení	-9.39993
příčin	-9.39995
starší	-9.40483
kraloval	-9.40483
▁),	-9.40483
ami	-9.40983
chodil	-9.40984
vol	-9.4131
šalomoun	-9.41379
du	-9.41481
žid	-9.41841
jordán	-9.41983
ohně	-9.42019
nepo	-9.42061
íš	-9.42305
vrch	-9.42417
tel	-9.42468
zná	-9.42541
svatyn	-9.42547
rci	-9.42655
ému	-9.42707
navrátil	-9.4283
počal	-9.42997
lot	-9.43476
jde	-9.43586
vati	-9.43958
kal	-9.43978
meče	-9.44521
nesl	-9.44686
učiním	-9.45044
levít	-9.45153
milost	-9.45156
chodí	-9.45205
js	-9.45267
amen	-9.4527
jiný	-9.45648
vyšel	-9.46108
krv	-9.46468
děl	-9.46508
oznámil	-9.46624
učiněn	-9.46656
udělal	-9.47043
ježíše	-9.4725
krajin	-9.47267
lok	-9.47296
třetí	-9.47393
dělá	-9.47791
nebyl	-9.47822
nichž	-9.48041
přikázaní	-9.48219
bu	-9.48493
naši	-9.4866
krev	-9.48767
ejte	-9.49156
hovad	-9.49532
poušt	-9.49677
mým	-9.50068
bál	-9.50105
vali	-9.50258
činit	-9.50355
zástup	-9.51055
vydal	-9.51579
vyvedl	-9.51584
psáno	-9.51672
ným	-9.51803
stojí	-9.51884
div	-9.51966
jazyk	-9.52045
stře	-9.52489
sam	-9.52619
čtyři	-9.52793
prorok	-9.52929
hod	-9.52983
dan	-9.53007
ání	-9.53374
mar	-9.5365
dní	-9.53754
zá	-9.53826
němž	-9.54081
ačkoli	-9.54909
ga	-9.54914
hlad	-9.54936
přední	-9.55073
ač	-9.55155
skutk	-9.55239
nejvyšší	-9.55444
psal	-9.55446
řkoucí	-9.55851
položil	-9.56635
moj	-9.56721
nebes	-9.56721
bí	-9.56738
slunce	-9.57189
jud	-9.57301
rou	-9.57314
mr	-9.57713
hnu	-9.57889
ství	-9.5789
služebníků	-9.58319
padesát	-9.58389
bet	-9.58605
přivedl	-9.58607
krist	-9.58621
ající	-9.59015
roze	-9.59055
hrob	-9.59176
stá	-9.59208
zápal	-9.59336
stí	-9.59564
nebudeš	-9.5963
ován	-9.59667
ými	-9.59726
přede	-9.59802
stě	-9.59888
vždy	-9.60165
poznal	-9.60175
petr	-9.60216
řek	-9.6063
obrátil	-9.60771
pokrm	-9.60795
pu	-9.60953
tou	-9.60993
či	-9.61245
deset	-9.61342
ujte	-9.6135
vola	-9.6137
mat	-9.61377
voz	-9.61583
dříví	-9.61995
pá	-9.62469
nemohl	-9.6257
stráž	-9.62623
abraham	-9.62693
učinili	-9.62695
spasení	-9.62738
mas	-9.62766
tvém	-9.63035
námi	-9.63281
kamení	-9.63285
potok	-9.63426
věděl	-9.63452
královské	-9.63755
tisíců	-9.63776
hejtman	-9.63858
ohavnost	-9.63895
ue	-9.63928
zabil	-9.6401
▁.)	-9.64011
služb	-9.6416
navrátí	-9.64487
tého	-9.645
▁)	-9.64511
veliko	-9.64654
spravedlivý	-9.64806
achi	-9.64921
jozef	-9.65712
údolí	-9.65757
chlé	-9.66141
ukázal	-9.66296
ovoce	-9.66398
večer	-9.66403
vají	-9.66736
znám	-9.66926
pouště	-9.66945
krát	-9.67508
čist	-9.67532
kteří	-9.67581
jistě	-9.6775
hr	-9.67829
budi	-9.68405
druhý	-9.68447
vyšl	-9.68617
očí	-9.68658
necha	-9.68697
lež	-9.68831
éž	-9.68834
tuto	-9.68842
zůstal	-9.68854
pravé	-9.68905
klad	-9.68969
ější	-9.69322
íce	-9.69557
mrtvý	-9.6997
měř	-9.70076
rok	-9.70102
iž	-9.70293
jděte	-9.70511
roucho	-9.70516
činili	-9.70637
cestou	-9.70718
vím	-9.70895
umře	-9.70975
sobot	-9.71005
všemu	-9.71035
hn	-9.71298
ec	-9.71444
tito	-9.71542
uzřel	-9.7168
stád	-9.71892
roucha	-9.71952
oltáře	-9.72073
aronov	-9.72081
řeči	-9.72289
úmluv	-9.72373
uvedl	-9.72375
nebeské	-9.72424
obětova	-9.72892
izraeli	-9.7296
sami	-9.73169
nepravosti	-9.73196
rž	-9.73212
stup	-9.73314
chází	-9.7332
kamen	-9.73599
faraonov	-9.74135
osl	-9.74748
příbytk	-9.74943
patř	-9.74948
zdrav	-9.75093
budeme	-9.75244
jákobov	-9.75307
mor	-9.75391
všel	-9.75466
odšel	-9.75518
sion	-9.75536
pál	-9.75548
znamení	-9.75832
půjde	-9.75836
hřeš	-9.75836
pust	-9.7632
páně	-9.7636
efraim	-9.76373
dědičn	-9.76541
stan	-9.7667
mém	-9.76729
ující	-9.7685
galád	-9.77256
větší	-9.77256
moři	-9.77258
oblak	-9.77263
rod	-9.77277
stolic	-9.77336
postav	-9.77654
vín	-9.77797
čtyřidceti	-9.77975
čím	-9.78082
řekla	-9.78247
hledal	-9.78301
slyš	-9.78329
býval	-9.78475
mnozí	-9.787
dalek	-9.78882
blázn	-9.78913
uši	-9.7908
stal	-9.79206
staven	-9.79264
babylon	-9.7934
sloup	-9.79366
pověděl	-9.79648
tváří	-9.79908
desát	-9.80126
mnohé	-9.80173
způsob	-9.80215
střel	-9.80225
vůl	-9.80279
áš	-9.80328
vede	-9.80645
strach	-9.80919
eš	-9.80993
tyto	-9.81255
níž	-9.81369
vesel	-9.81627
bydlí	-9.81668
mysl	-9.81825
vaší	-9.8246
věk	-9.82586
může	-9.8286
práv	-9.82893
chtěl	-9.82899
ruka	-9.82917
go	-9.83032
sloužil	-9.83062
bohů	-9.83247
viděli	-9.83431
dán	-9.83637
vstav	-9.83884
výsost	-9.83929
rozkázal	-9.83961
jedna	-9.83984
kost	-9.84086
nevy	-9.84392
ele	-9.84608
čil	-9.84641
dílo	-9.8473
těmi	-9.84914
počt	-9.85145
něhož	-9.85148
východ	-9.85198
víte	-9.85443
judov	-9.85445
pomezí	-9.85469
porodil	-9.85554
ským	-9.85984
milosti	-9.86099
modlitb	-9.86596
vid	-9.86953
kterýchž	-9.87038
sem	-9.87127
zápaln	-9.87338
ímě	-9.8751
sar	-9.87626
slyše	-9.88096
mír	-9.88185
nemá	-9.88206
ven	-9.88317
bratřím	-9.88384
všelik	-9.88624
pálil	-9.88727
velikým	-9.8873
ovu	-9.88828
filistinský	-9.88835
radost	-9.88898
kdyby	-9.89047
božím	-9.89108
táhl	-9.89174
mnohý	-9.89391
okol	-9.89416
posvěcen	-9.89438
plat	-9.89467
jemuž	-9.89542
oleje	-9.89574
silné	-9.89606
izraelov	-9.89721
dobrý	-9.90271
slyšeli	-9.90356
samuel	-9.904
spravedliv	-9.90412
vidě	-9.90586
vezme	-9.90615
seděl	-9.90812
saulov	-9.91043
tehdáž	-9.91071
třidcet	-9.91071
zemí	-9.9115
dokonal	-9.91192
dveří	-9.91267
samař	-9.91298
sestr	-9.91545
poli	-9.91621
vydá	-9.91766
knih	-9.91774
tvrd	-9.91897
učedlníc	-9.91897
zhřešil	-9.91898
přísah	-9.91898
hanb	-9.9193
přijal	-9.91972
hrozn	-9.92007
osm	-9.92051
kni	-9.92302
utekl	-9.92399
učiní	-9.92499
pozdvih	-9.9251
uslyšel	-9.92554
žalm	-9.92641
dvadcet	-9.92731
světlo	-9.9274
lev	-9.92813
věčné	-9.92855
neměl	-9.92878
pouš	-9.92886
jdou	-9.93043
lů	-9.93144
říká	-9.93286
vzav	-9.93477
troub	-9.93555
děla	-9.9376
les	-9.93841
tolik	-9.94046
hojn	-9.94268
buďte	-9.94284
pohan	-9.94407
jaké	-9.94569
kněze	-9.94592
nikoli	-9.94659
pustil	-9.94669
upřím	-9.95261
nebudou	-9.95292
pomst	-9.95366
věz	-9.95383
maje	-9.95494
roh	-9.95807
udělá	-9.95832
rozum	-9.95917
kterémž	-9.96135
lidí	-9.96158
ustanovil	-9.96167
kol	-9.96182
ona	-9.96205
šla	-9.96229
naplnil	-9.96388
máš	-9.96452
skál	-9.96454
poklad	-9.96469
oko	-9.96621
zem	-9.96784
prostředk	-9.96842
běd	-9.96959
bezbožný	-9.97005
bydliti	-9.97005
dvanácte	-9.97312
cím	-9.97315
dáš	-9.97612
které	-9.97681
nadto	-9.97687
zlato	-9.97902
volá	-9.9793
ros	-9.98085
vidění	-9.9809
shromáždil	-9.98099
joáb	-9.98581
ge	-9.98662
vyvolil	-9.98767
studnic	-9.98767
káže	-9.98781
čině	-9.98939
čehož	-9.99012
hledá	-9.99045
beniamin	-9.99095
nemoc	-9.9922
bal	-9.99221
nové	-9.99398
dni	-9.99445
uzří	-9.99526
juda	-9.99623
vstal	-9.99823
miluje	-9.99824
beránk	-9.99929
volk	-10.0038
odpovídaj	-10.006
itsk	-10.0078
zlořečen	-10.008
pravic	-10.0089
hospodinovým	-10.0099
zdvih	-10.0099
podobn	-10.0106
prác	-10.0108
dáno	-10.0119
králov	-10.0122
pravd	-10.013
žádost	-10.0139
tehdy	-10.0147
potřeb	-10.0149
nazval	-10.015
přijí	-10.0195
vedu	-10.0204
rám	-10.0237
nešlechetnost	-10.0239
dřev	-10.0239
pás	-10.0248
uješ	-10.0257
:	-10.026
kde	-10.0261
spravedlivé	-10.0266
dítě	-10.029
odešl	-10.0301
ovým	-10.0307
olej	-10.0309
miloval	-10.031
tomto	-10.0318
učení	-10.0319
vstoupil	-10.0321
kem	-10.0328
křik	-10.0332
pokoje	-10.0355
romě	-10.0362
posloucha	-10.0422
podobenství	-10.0425
loupež	-10.0425
proroka	-10.0444
dvou	-10.0455
prach	-10.0482
vzali	-10.0485
lodí	-10.0491
cky	-10.0498
rt	-10.0512
niž	-10.0516
ovce	-10.0528
ptá	-10.053
věří	-10.0534
jiní	-10.0544
máme	-10.0592
dobyt	-10.0595
pastýř	-10.0614
bolest	-10.0615
úrod	-10.0616
strom	-10.0617
nebudete	-10.0623
tisíce	-10.0626
ezechiáš	-10.0627
modlil	-10.0628
eliáš	-10.0666
ostříhal	-10.0683
filistin	-10.0684
mládenc	-10.071
světa	-10.0712
cizí	-10.0713
vytáhl	-10.0713
ohniv	-10.0716
vezmi	-10.073
věr	-10.0742
dobro	-10.075
požehnání	-10.0757
pís	-10.0765
bojoval	-10.0767
▁,)	-10.0774
jím	-10.0779
bývají	-10.0786
dají	-10.0793
jezukrist	-10.0808
náramn	-10.0812
odplat	-10.0828
učil	-10.0865
dcera	-10.0866
babylonské	-10.0908
drží	-10.091
svat	-10.0912
lože	-10.0926
bil	-10.095
umění	-10.0997
takž	-10.0998
jan	-10.0999
jeroboám	-10.1012
svrch	-10.1021
posl	-10.1022
slouži	-10.1022
ostříha	-10.1023
anob	-10.1027
prosil	-10.1035
hodin	-10.1044
had	-10.1053
skutků	-10.1059
pozůstal	-10.106
evangeli	-10.1105
želez	-10.1111
kázal	-10.1112
přichází	-10.1117
těle	-10.1139
něco	-10.1155
ran	-10.1182
takové	-10.1193
izraelském	-10.1202
lepší	-10.1206
stavě	-10.1208
člověčí	-10.1209
slyšte	-10.121
ezau	-10.1223
šalomounov	-10.1226
nemůže	-10.1265
povolal	-10.1286
dobrého	-10.13
ramen	-10.1305
rovn	-10.1307
farize	-10.1308
nalezen	-10.1308
přišla	-10.1308
končin	-10.1309
houf	-10.1309
zdi	-10.1365
list	-10.1381
levítů	-10.1393
pokoji	-10.141
hrdl	-10.1415
přijdou	-10.1431
án	-10.144
vešl	-10.1441
zůsta	-10.1498
chová	-10.1505
blahoslaven	-10.1515
vstaň	-10.1516
rychle	-10.1518
ustavičně	-10.1524
iášov	-10.1524
vejde	-10.153
izák	-10.1534
učedlníků	-10.1539
níci	-10.1541
bližní	-10.1541
los	-10.1553
dy	-10.1588
nenávist	-10.162
miluj	-10.1628
dvé	-10.1631
zabit	-10.1636
živé	-10.1639
zdá	-10.1649
pomoc	-10.1651
zůstane	-10.1651
egyptský	-10.1731
vrz	-10.1732
některé	-10.1735
nečistý	-10.1746
dvanáct	-10.1796
děti	-10.1814
voj	-10.1816
poledn	-10.1817
poškvrn	-10.182
zlý	-10.1824
bohy	-10.183
hubil	-10.1836
předměstí	-10.1837
porazil	-10.1842
hledají	-10.1844
žil	-10.1865
jal	-10.1868
jednom	-10.1873
plod	-10.1898
čtyř	-10.1906
držel	-10.1924
moáb	-10.1926
[	-10.1943
přisáhl	-10.1943
polovic	-10.1943
radě	-10.1943
jen	-10.1945
dával	-10.1947
věd	-10.1958
veselí	-10.1967
sen	-10.1968
síla	-10.197
dělal	-10.1977
víš	-10.1978
nechtěl	-10.1988
bráně	-10.1993
prac	-10.2
ben	-10.2001
mojžíše	-10.2003
ulic	-10.2013
kraj	-10.2023
kání	-10.2041
oblíčeje	-10.2047
moudrý	-10.2053
plakal	-10.2053
navštív	-10.2053
rostl	-10.2054
marnost	-10.2055
skou	-10.2066
čiňte	-10.2095
bojí	-10.2131
peníze	-10.2164
jed	-10.2188
jeremiáš	-10.2205
edle	-10.2222
jaký	-10.223
lásk	-10.2233
dobrořeč	-10.226
proroc	-10.2277
trůn	-10.2277
vyšed	-10.2282
cedr	-10.2287
dr	-10.2294
konce	-10.2304
hledí	-10.2313
obraz	-10.2329
jte	-10.2335
snad	-10.2336
bran	-10.2338
komu	-10.234
dejte	-10.2344
žal	-10.2355
smrt	-10.2375
otevř	-10.2382
cherubín	-10.239
jozafat	-10.239
zahanben	-10.239
děvk	-10.2399
prut	-10.2404
přinesl	-10.241
veleb	-10.2413
dobytk	-10.245
dsk	-10.245
učinit	-10.2472
nesou	-10.2473
apoštol	-10.2505
vykoná	-10.2506
farao	-10.2526
ssoužení	-10.2527
lokt	-10.2549
všeliký	-10.2605
který	-10.261
des	-10.2612
pošli	-10.2613
sstoupil	-10.2621
daniel	-10.2622
červ	-10.2624
přistoupil	-10.2626
jozefov	-10.2629
vyjde	-10.2631
pořád	-10.2632
ámen	-10.2633
trápení	-10.2638
mající	-10.2649
spí	-10.265
musí	-10.2655
mlč	-10.266
pustí	-10.2672
světl	-10.2692
vnitř	-10.2712
nabuchodonozor	-10.2739
převrácen	-10.2739
křídl	-10.2739
naplněn	-10.2739
pusť	-10.2739
ozdob	-10.2739
odpověděv	-10.2739
počet	-10.2739
odvrátil	-10.2743
králů	-10.275
ram	-10.2761
hleda	-10.2766
půlno	-10.2778
vědě	-10.2786
nější	-10.2801
vad	-10.2802
živi	-10.2824
psán	-10.2824
vodil	-10.2833
abrahamov	-10.2842
máte	-10.2857
odpočinutí	-10.2858
koho	-10.2865
přijd	-10.2866
navrať	-10.2869
sucho	-10.2875
pravdě	-10.2884
manassesov	-10.2887
semene	-10.2892
uvěřil	-10.2913
stín	-10.292
jdu	-10.2932
kananejské	-10.2939
ostatk	-10.2962
kralovati	-10.2978
naději	-10.2978
zvuk	-10.2979
vyuč	-10.2985
polní	-10.2986
připrav	-10.3001
opustil	-10.3029
drob	-10.3037
vdov	-10.3065
báz	-10.3068
proroků	-10.3075
ostříhá	-10.31
přestoupení	-10.31
půlnoční	-10.31
křič	-10.3105
výše	-10.3111
sprav	-10.3119
křt	-10.3122
hrad	-10.3129
hledě	-10.3149
poslední	-10.3154
lat	-10.3169
tuk	-10.3187
pec	-10.3188
východní	-10.3203
tský	-10.322
prvorozené	-10.3224
vyhlazen	-10.3224
vysvobodil	-10.3224
nenávidí	-10.3224
nevěst	-10.3224
doufá	-10.3224
kozl	-10.3224
udy	-10.3226
slib	-10.3233
čelede	-10.3238
pas	-10.3241
pustin	-10.3255
nečisté	-10.3255
job	-10.3257
soudil	-10.3272
padne	-10.3282
jž	-10.3289
ček	-10.3323
obrácen	-10.3349
oznam	-10.3349
chlub	-10.335
vidouc	-10.3352
vlas	-10.3372
pouští	-10.3394
věř	-10.3438
cti	-10.3453
absolon	-10.3468
příchozí	-10.3475
judstv	-10.3475
uzřev	-10.3476
séla	-10.3476
hůr	-10.3478
přišed	-10.3479
stů	-10.3484
slavi	-10.3497
stavěl	-10.3517
polední	-10.3552
mim	-10.357
šimon	-10.3603
chudý	-10.3604
zjeven	-10.3604
přebývá	-10.3615
bar	-10.3634
krá	-10.3653
nechá	-10.3654
loži	-10.3655
vycházel	-10.3656
jonata	-10.3662
jichž	-10.3666
kam	-10.3679
mzd	-10.37
eliká	-10.3708
zbit	-10.3713
stavil	-10.3727
hebron	-10.3733
obyčej	-10.3733
béře	-10.3734
korun	-10.3741
kořen	-10.3754
ejský	-10.3757
činíš	-10.3769
přitáhl	-10.3785
měj	-10.3809
syr	-10.3825
povol	-10.3832
kristov	-10.3832
zde	-10.3858
ujete	-10.386
čin	-10.3862
takový	-10.3865
1	-10.3865
kterýmž	-10.3865
hvězd	-10.3865
cizím	-10.3874
vystavěl	-10.388
zda	-10.3881
noé	-10.3886
bíd	-10.3894
přistup	-10.3895
pilně	-10.3896
patří	-10.3902
říkají	-10.3906
obrátí	-10.3914
pít	-10.3927
vcháze	-10.3938
jimž	-10.3947
postaví	-10.3955
podstavk	-10.3998
shromažď	-10.3998
uposlechl	-10.3998
bedr	-10.3998
vysvobodí	-10.3998
vzdělal	-10.4001
svědk	-10.4001
sur	-10.4004
otevřel	-10.4006
požehnaný	-10.4007
slavnost	-10.4022
vázal	-10.4048
čeledí	-10.407
léví	-10.4071
vezm	-10.4075
kmen	-10.4076
riáš	-10.4084
mrtv	-10.409
ostříhej	-10.4133
ratolest	-10.4133
přikázání	-10.4133
chudé	-10.4134
eleazar	-10.4134
rozkoš	-10.4136
očištěn	-10.4136
šetř	-10.4138
spole	-10.4158
podobné	-10.4203
čten	-10.4221
věčn	-10.4229
sadil	-10.4245
přítel	-10.4245
nohá	-10.4255
nechal	-10.4267
pamět	-10.4271
skryt	-10.4271
větr	-10.4271
šedesát	-10.4275
příbyt	-10.4308
pozdvihl	-10.4311
chodi	-10.4324
odejd	-10.4328
jat	-10.4332
druh	-10.4348
skopce	-10.4367
hel	-10.4387
učiň	-10.4401
ptactv	-10.4409
palác	-10.4409
pohostin	-10.4409
malomoc	-10.441
fík	-10.4416
nádobí	-10.4427
krásn	-10.443
dáva	-10.4434
káz	-10.4438
zed	-10.4447
meze	-10.4467
každému	-10.4468
bij	-10.449
kamž	-10.4509
tekl	-10.4529
kněžím	-10.4544
myšlení	-10.455
odpoví	-10.4552
přestal	-10.4553
libán	-10.4558
doufa	-10.456
pann	-10.4563
královský	-10.4565
lás	-10.4566
prorokuj	-10.4578
připravil	-10.4583
osob	-10.4588
známost	-10.4618
nebyli	-10.4638
svatost	-10.4639
proroky	-10.4657
klaně	-10.469
prázdn	-10.4693
církv	-10.4693
velice	-10.4694
zlost	-10.4703
samé	-10.4727
škol	-10.4735
tajn	-10.4763
díš	-10.4774
prst	-10.4782
jednostejn	-10.4838
madian	-10.4838
vůdc	-10.4838
oznámí	-10.484
zlaté	-10.4841
rodin	-10.4847
kup	-10.485
těžk	-10.4851
mysli	-10.4862
přišlo	-10.4865
jaká	-10.4867
pát	-10.4895
pobil	-10.4897
rot	-10.4906
kop	-10.4938
každ	-10.4944
svatým	-10.4945
čisté	-10.4955
západ	-10.4974
shromáždí	-10.4985
zahynul	-10.4985
úzkost	-10.4985
rozkaz	-10.4986
vážil	-10.4989
potup	-10.4992
běh	-10.5055
vrže	-10.5056
neboj	-10.5058
leč	-10.5067
bát	-10.5088
oděn	-10.5104
předním	-10.5122
vypravoval	-10.5125
sín	-10.5127
udatn	-10.5133
slíbil	-10.5134
bethel	-10.5135
pláč	-10.5136
koupil	-10.5139
ryb	-10.5146
vývod	-10.5148
slou	-10.518
dávali	-10.519
nadělal	-10.5201
kor	-10.5219
char	-10.5231
per	-10.5243
učedlník	-10.5251
rady	-10.5252
abimelech	-10.5286
joas	-10.5286
stanou	-10.5286
souzen	-10.5286
jitra	-10.5287
nejprv	-10.5293
sbír	-10.5298
věčný	-10.531
naděje	-10.5324
ležel	-10.5335
odpor	-10.5343
jejím	-10.5372
povstal	-10.54
nebudu	-10.5419
pij	-10.5424
kdy	-10.5439
maličko	-10.5439
počátk	-10.5439
zůstává	-10.544
bořil	-10.544
filistinské	-10.5443
zabije	-10.5443
vycháze	-10.5445
složil	-10.5446
lidský	-10.5449
ostate	-10.5453
poškvrnil	-10.5455
písm	-10.5461
víře	-10.5471
konal	-10.5472
slep	-10.5473
věrný	-10.5494
sečten	-10.55
vůn	-10.5526
vašim	-10.5533
propustil	-10.5534
vinic	-10.5578
vysvobozen	-10.5596
obrace	-10.5596
dnešní	-10.5596
moábské	-10.5599
vyvýšen	-10.5601
galile	-10.5601
zpíva	-10.5609
přivedu	-10.561
celý	-10.561
pohr	-10.561
právě	-10.5633
vytrhn	-10.5644
sedl	-10.5647
smrtí	-10.5652
mrtvé	-10.5656
zej	-10.5658
jediné	-10.5671
odšed	-10.5705
žádal	-10.5708
plnil	-10.571
drže	-10.5727
slavn	-10.5731
gaba	-10.5738
otázal	-10.5739
sedechiáš	-10.5754
požehnal	-10.5754
roční	-10.5755
abner	-10.5755
sichem	-10.5755
opuštěn	-10.5755
cházející	-10.5765
klaněl	-10.5768
pochoval	-10.5773
babylonský	-10.5773
správc	-10.5776
pohanů	-10.5789
vnitřní	-10.5789
hotov	-10.5791
pojal	-10.58
dopustil	-10.58
hříchů	-10.5803
zbil	-10.5805
stán	-10.5809
vlož	-10.59
pohanění	-10.5916
pověst	-10.5916
íně	-10.5919
oblíčej	-10.5924
chanan	-10.5925
stezk	-10.5927
ježíšov	-10.593
pokojné	-10.5939
líbi	-10.5943
židů	-10.5945
chat	-10.5968
jiným	-10.5975
saule	-10.5979
činím	-10.5983
obil	-10.5995
beniaminov	-10.6019
jeremiášov	-10.6019
zub	-10.6039
rách	-10.6041
blízko	-10.608
rozhněval	-10.608
bohatství	-10.608
hynou	-10.608
assyrské	-10.6081
sluší	-10.6085
přináše	-10.6086
všelijak	-10.6088
posly	-10.6095
oděv	-10.6096
honil	-10.611
vinice	-10.612
volů	-10.6139
kopí	-10.6198
nemají	-10.6205
vstan	-10.6209
svad	-10.6236
osvědč	-10.6238
kadidl	-10.6244
dvadcíti	-10.6246
peněz	-10.6247
vlastní	-10.6247
abram	-10.6247
velbloud	-10.6247
chceš	-10.6248
bázan	-10.625
vztáhl	-10.625
padnou	-10.6252
izaiáš	-10.6252
slušn	-10.6253
dítk	-10.6256
jdouc	-10.6279
pustím	-10.6281
dále	-10.6285
ičk	-10.6289
věřící	-10.6301
pevn	-10.6331
stol	-10.6366
pahrbk	-10.6377
běl	-10.638
brav	-10.6381
přebýva	-10.6415
hříš	-10.6415
děvečk	-10.6416
lučiště	-10.6416
mardoche	-10.6416
očekáva	-10.6416
sedmdesáte	-10.6416
nečistot	-10.6416
základ	-10.6418
konec	-10.6419
bezbožní	-10.6419
škod	-10.642
vztáhn	-10.642
dvakrát	-10.642
vložil	-10.6424
mokr	-10.6425
přijm	-10.6425
elize	-10.6437
nství	-10.6445
ítr	-10.6447
skopc	-10.6469
starc	-10.6539
zim	-10.6544
rouch	-10.6554
pravdu	-10.6581
všemohoucí	-10.6588
nasycen	-10.6588
jistot	-10.6589
syrské	-10.659
nikdy	-10.6593
spal	-10.6594
jdeš	-10.6609
semen	-10.6609
zlatý	-10.6612
táhne	-10.6622
znají	-10.6628
nutí	-10.6671
vejd	-10.6675
znáš	-10.6686
enství	-10.6715
málo	-10.6725
rozumí	-10.674
mecítm	-10.6762
širokost	-10.6764
odpuštěn	-10.6764
bezbožné	-10.6764
joiad	-10.6764
jerich	-10.6764
posvětil	-10.6764
pěš	-10.6766
silnější	-10.6766
slouží	-10.6766
šlo	-10.6771
přicházel	-10.6773
jeruzalémské	-10.679
bit	-10.6792
plésa	-10.6794
med	-10.6801
suché	-10.6802
hojnost	-10.6809
syrský	-10.6826
našim	-10.6829
soudí	-10.6829
stává	-10.6848
veden	-10.6855
víme	-10.6892
sic	-10.6892
přivede	-10.6916
mordova	-10.6942
obličejem	-10.6942
zvěstuj	-10.6942
pohleď	-10.6942
izmael	-10.6942
skryl	-10.6942
zpuštěn	-10.6942
poklon	-10.6942
hůl	-10.6943
uložil	-10.6944
kořist	-10.6944
proměn	-10.6952
svatém	-10.6983
čistý	-10.7005
mluvím	-10.7012
átk	-10.7096
azar	-10.7107
všed	-10.7114
bezbožník	-10.7121
lában	-10.7124
sádoch	-10.7124
moudré	-10.7124
pilát	-10.7125
popouze	-10.7125
rodí	-10.7134
očistí	-10.7137
vstup	-10.7147
veselil	-10.7147
rovin	-10.7156
podobně	-10.716
zahrad	-10.7162
trub	-10.7164
raduj	-10.7177
tráv	-10.7233
věřil	-10.7243
rim	-10.7269
všelijaké	-10.7302
prvorozený	-10.7309
zachariáš	-10.7309
zpurn	-10.7309
hlubo	-10.731
temnost	-10.731
mohou	-10.731
provaz	-10.731
břeh	-10.7311
satan	-10.7314
líbí	-10.7318
zůstáva	-10.7331
aman	-10.7331
zvěř	-10.7333
přistoupiv	-10.7354
stupuje	-10.7359
uslyšev	-10.7367
vytrhl	-10.7368
poslav	-10.7378
kůž	-10.7404
stanů	-10.7405
prorokoval	-10.7422
gád	-10.7428
nepřítel	-10.743
kázán	-10.7441
dokud	-10.7478
mořské	-10.7498
neftalím	-10.7498
zázrak	-10.7498
ďábl	-10.7498
pojď	-10.7498
hrazen	-10.7498
betlém	-10.7498
rozumnost	-10.75
zruš	-10.7507
sodom	-10.7507
lépe	-10.7508
bílé	-10.7508
pit	-10.7514
oliv	-10.7518
dél	-10.7525
děje	-10.7533
utíka	-10.7541
such	-10.755
odkudž	-10.7573
navra	-10.7586
běhl	-10.759
řekne	-10.7601
činíte	-10.7605
přijímá	-10.7607
dveř	-10.7649
podobný	-10.7659
roboám	-10.7677
obyvatelů	-10.7678
zpěv	-10.7689
znamenit	-10.769
cizozemc	-10.769
vysoké	-10.769
šarlat	-10.769
žoldnéř	-10.769
pomazal	-10.769
jmen	-10.7692
líbilo	-10.7694
hubí	-10.7698
vzýva	-10.7698
síňc	-10.7698
milý	-10.7699
zšíří	-10.77
mnohým	-10.772
posadil	-10.7726
panuj	-10.774
žaláře	-10.7741
bitv	-10.7742
čtvrt	-10.7755
berou	-10.7771
staví	-10.7779
ejší	-10.782
radil	-10.7829
spasen	-10.7846
přátel	-10.7855
ustanov	-10.7878
déšť	-10.7886
poškvrň	-10.7886
přikazuji	-10.7886
tovaryš	-10.7886
zabulon	-10.7886
nalezne	-10.7886
zavrhl	-10.7886
amalech	-10.7886
zkažen	-10.7887
pyšn	-10.7887
ester	-10.7888
poslechn	-10.7889
ptal	-10.789
hromad	-10.7891
patrn	-10.7897
stupoval	-10.7899
vrat	-10.7902
druhém	-10.7939
pozoruj	-10.7955
užíva	-10.797
obrátím	-10.8012
přitáh	-10.8086
otcovský	-10.8086
stvoři	-10.8086
3	-10.8086
osídl	-10.8086
mladost	-10.8086
příbuzn	-10.8086
jezdc	-10.8086
stříc	-10.8087
zámut	-10.8087
assyrský	-10.8088
sidon	-10.8091
žádá	-10.8101
ucho	-10.8104
někd	-10.8109
utíkal	-10.8118
rytin	-10.8119
klam	-10.814
nepřítele	-10.815
drž	-10.8209
zkazí	-10.8211
celé	-10.8227
manasses	-10.824
panoval	-10.8252
jezreel	-10.829
zaslíbení	-10.829
čtrnáct	-10.829
pavéz	-10.829
moudř	-10.8292
zmordoval	-10.8293
příjemn	-10.8295
azariáš	-10.8297
vozů	-10.8299
neviděl	-10.8313
jeruzalémský	-10.8334
vyhnal	-10.8335
achab	-10.8359
her	-10.8375
stříbrný	-10.838
křiv	-10.8386
hledej	-10.8422
půl	-10.843
ammon	-10.8477
ustavičn	-10.8481
vězte	-10.8496
třás	-10.8499
následuj	-10.8499
prvotin	-10.8499
vzácn	-10.8499
užitečn	-10.85
choď	-10.85
krývá	-10.85
zítra	-10.85
vizte	-10.8502
uslyšav	-10.8503
popel	-10.8505
zjevn	-10.8506
smí	-10.8506
vyhladí	-10.8507
udatný	-10.8514
způsobil	-10.8517
narodil	-10.8541
divil	-10.8553
vrace	-10.8558
požehná	-10.8608
navráti	-10.8609
jonat	-10.8616
dlouho	-10.8693
idumej	-10.871
očekává	-10.8712
kahat	-10.8712
trestán	-10.8712
následov	-10.8712
páchal	-10.8712
zvědí	-10.8712
nazván	-10.8712
římě	-10.8712
dobrovoln	-10.8712
pohlaví	-10.8713
hrůz	-10.8713
vězení	-10.8715
lítost	-10.8716
zemdl	-10.8717
válk	-10.8718
dělej	-10.874
říkajíc	-10.8776
znáte	-10.8778
.	-10.8831
zemřel	-10.8863
manžel	-10.8874
drah	-10.8903
skut	-10.8909
dávej	-10.8928
bláznovství	-10.8929
uvrhl	-10.8929
2	-10.8929
půjdu	-10.8929
okršl	-10.8929
obrátiv	-10.8929
pokryt	-10.8929
usnul	-10.8929
mnohem	-10.8929
kvíli	-10.893
ostrov	-10.893
přišedš	-10.893
slýchal	-10.893
pochován	-10.893
asser	-10.8931
vonný	-10.8931
potrav	-10.8931
milují	-10.8932
slaven	-10.8936
metal	-10.8937
odjal	-10.894
abé	-10.8942
pekl	-10.8945
přednější	-10.8946
zahyne	-10.8948
trpí	-10.8949
jímž	-10.8957
moábský	-10.8958
ammonitský	-10.897
ruben	-10.8975
vylil	-10.8975
plné	-10.8992
rozuměl	-10.9028
smilství	-10.904
masf	-10.9078
jímal	-10.9084
vzat	-10.909
odejme	-10.9094
služ	-10.91
vzavš	-10.91
rubenov	-10.9108
přicháze	-10.9136
tar	-10.9147
amorejské	-10.9151
mladší	-10.9151
mrákot	-10.9151
přisluhování	-10.9151
filip	-10.9151
dotkl	-10.9151
vyhladil	-10.9151
jeskyn	-10.9151
nedostat	-10.9153
poďte	-10.9153
šťastně	-10.9155
zachoval	-10.9155
způsobím	-10.9157
svobodn	-10.9157
čtl	-10.9158
ráchel	-10.9165
žádostiv	-10.917
ostříhají	-10.9173
gabaon	-10.918
myslí	-10.9224
musil	-10.9233
pých	-10.9239
hledění	-10.9245
koš	-10.9253
vychází	-10.9259
vinný	-10.9274
svár	-10.9282
učini	-10.9311
centnéř	-10.9378
hedbáv	-10.9378
přiblížil	-10.9378
gedeon	-10.9378
herodes	-10.9378
oškliv	-10.9378
zbroj	-10.9379
izachar	-10.9379
přisah	-10.938
rcete	-10.938
poručil	-10.9382
maria	-10.9394
fer	-10.9398
pis	-10.9399
mužské	-10.9401
výborn	-10.9403
chtěj	-10.9413
faraon	-10.9434
beránků	-10.9436
malé	-10.9463
mouk	-10.9472
obilí	-10.9503
klín	-10.9503
trpěl	-10.9506
svícen	-10.9514
spoj	-10.9524
čtvrté	-10.9534
ničeho	-10.9547
táhnou	-10.9572
rodil	-10.9579
čemž	-10.9587
spasitel	-10.9611
zplozen	-10.9611
břemen	-10.9611
vezměte	-10.9611
poražen	-10.9611
pavla	-10.9611
ochotn	-10.9611
vyvolen	-10.9612
kalich	-10.9613
nátan	-10.9615
propast	-10.9615
řeknou	-10.962
pokorn	-10.9622
slituj	-10.9623
sstupují	-10.9627
řad	-10.9631
dlouhost	-10.9632
uzříte	-10.965
bán	-10.9688
nápoj	-10.9697
myslil	-10.9729
adam	-10.9733
roztrh	-10.9752
achabov	-10.9771
pád	-10.9781
ložení	-10.9782
stával	-10.9788
bližním	-10.9789
vrátil	-10.9794
úhl	-10.9797
dadí	-10.9831
svobod	-10.9844
třidcíti	-10.9849
jedenáct	-10.9849
falešn	-10.9849
harf	-10.9849
vítěz	-10.9849
oslavuj	-10.985
zpěvák	-10.985
nejmenší	-10.985
jakub	-10.9851
uzdraven	-10.9852
zlořečil	-10.9855
trápi	-10.9856
achas	-10.9856
starý	-10.9856
mlék	-10.9856
vezmou	-10.9865
jimiž	-10.9877
řkuc	-10.9884
statk	-10.9884
seir	-10.9886
hlédl	-10.9889
drahé	-10.9893
obživ	-10.9914
házel	-10.9923
přebýval	-10.9937
roztrhl	-10.9949
ohléd	-10.9998
nebojte	-11.0014
radoval	-11.0027
úředník	-11.0045
trvá	-11.0048
odkud	-11.0082
zvlášt	-11.0091
bezbožnost	-11.0093
galgal	-11.0093
koflík	-11.0093
kralování	-11.0093
nadarmo	-11.0093
vysoký	-11.0093
rozdělil	-11.0093
vyplénil	-11.0093
nátisk	-11.0093
balák	-11.0093
líbost	-11.0094
semaiáš	-11.0096
sedící	-11.0096
kadidlnic	-11.0097
obdržel	-11.0102
říkal	-11.0106
damašk	-11.0109
přinese	-11.0112
kohož	-11.0116
balám	-11.0117
nebeský	-11.0132
rodič	-11.0133
potěšení	-11.015
efraimov	-11.0151
úd	-11.0168
vytrh	-11.0201
pyt	-11.021
lněn	-11.022
ger	-11.0222
nun	-11.0225
sadí	-11.0267
milova	-11.03
odpověd	-11.0341
4	-11.0343
merari	-11.0343
rozptýlen	-11.0343
amaziáš	-11.0343
památk	-11.0343
přikryl	-11.0343
pominul	-11.0343
vrátn	-11.0343
rozdělen	-11.0343
modré	-11.0343
melech	-11.0344
osmdesát	-11.0345
pětmecítm	-11.0345
protivil	-11.0345
zkazil	-11.0348
pastv	-11.035
bezpečně	-11.0357
písař	-11.0357
mocný	-11.0361
horší	-11.0368
čern	-11.037
tázal	-11.0373
panova	-11.0404
snáše	-11.0429
plný	-11.045
achiáš	-11.045
ložím	-11.0452
vládařst	-11.046
dělají	-11.05
vstávaj	-11.0539
působí	-11.0553
stěn	-11.0557
kvílení	-11.0599
nástroj	-11.0599
protivník	-11.0599
obrať	-11.06
samson	-11.06
opravoval	-11.06
úřad	-11.06
vypléní	-11.06
válečn	-11.0601
setník	-11.0601
přivodí	-11.0603
potřín	-11.0605
neposlouchal	-11.0606
morduj	-11.0608
poškvrněn	-11.0608
pozdvižen	-11.0608
ranil	-11.0615
západní	-11.0619
kolen	-11.0631
položí	-11.0634
polož	-11.0639
šedš	-11.0642
ponese	-11.0682
sít	-11.0715
posled	-11.0748
slož	-11.0748
rej	-11.0752
jda	-11.0765
bláz	-11.0785
zlořeč	-11.0787
bálov	-11.0789
váh	-11.0797
výborné	-11.0834
vstavš	-11.0851
ezebon	-11.0863
patnáct	-11.0863
rozmnoží	-11.0863
mladé	-11.0863
plavil	-11.0863
zavřel	-11.0863
vražedlník	-11.0863
pomazán	-11.0863
přikryt	-11.0863
potkal	-11.0863
oznámen	-11.0863
maced	-11.0864
zajaté	-11.0864
gáz	-11.0864
okras	-11.0865
slyšán	-11.0865
kterémuž	-11.0868
zapomen	-11.087
smut	-11.087
židovsk	-11.0908
modlit	-11.0917
pohrdá	-11.0918
měd	-11.092
vypravuj	-11.0981
ženin	-11.1062
řád	-11.1108
hyne	-11.1112
padn	-11.1123
ochoziáš	-11.1133
devět	-11.1133
kálef	-11.1133
městečk	-11.1133
rozmnožil	-11.1133
čtver	-11.1133
joakim	-11.1133
obřízk	-11.1133
sochor	-11.1133
kaldejský	-11.1133
sirotk	-11.1133
naplň	-11.1133
oslavova	-11.1133
for	-11.1134
pečet	-11.1134
zamordoval	-11.1135
spálen	-11.1135
dokonán	-11.1135
palm	-11.1144
ovcí	-11.1144
piš	-11.1159
přijel	-11.1161
pevnost	-11.1196
sloul	-11.1209
zelen	-11.1217
oslic	-11.1219
utisk	-11.1273
hrom	-11.1296
pokojný	-11.1314
povolán	-11.1335
vcházel	-11.1357
izákov	-11.1364
kantor	-11.1411
odstoupil	-11.1411
sstoupí	-11.1411
stvořen	-11.1411
uchýlil	-11.1411
měděné	-11.1411
mladý	-11.1411
zahladil	-11.1411
přísloví	-11.1411
spatřil	-11.1411
kadil	-11.1411
nuzné	-11.1411
císař	-11.1411
zloděj	-11.1411
noční	-11.1413
ponížen	-11.1413
vnitřnost	-11.1413
hořkost	-11.1414
pamatuj	-11.1416
zemské	-11.1419
důstojnost	-11.1419
staré	-11.1421
plamen	-11.1423
posel	-11.1426
nějaký	-11.1428
pokouše	-11.1431
razí	-11.1434
zadělan	-11.1439
ložc	-11.1439
vinen	-11.1441
uvodí	-11.1446
vejdou	-11.1451
hin	-11.1473
gádov	-11.1514
ničem	-11.1527
přišl	-11.1554
děsil	-11.1611
přistoup	-11.1617
pravý	-11.1665
vedou	-11.1689
mouřenín	-11.1696
poslouchejte	-11.1696
vzkříšení	-11.1696
zahynutí	-11.1696
pšenic	-11.1696
smilnil	-11.1696
korouh	-11.1696
běžel	-11.1696
posilň	-11.1696
kádes	-11.1696
zpívej	-11.1696
živočich	-11.1696
gát	-11.1696
přepásan	-11.1696
žízni	-11.1697
ďábel	-11.1697
květ	-11.1697
idumejské	-11.1699
zachováva	-11.17
vyhledáva	-11.1708
hluk	-11.1714
naplní	-11.1716
pojav	-11.1721
beř	-11.1736
zachován	-11.1744
učitel	-11.1749
roviná	-11.1771
pytl	-11.1777
vylit	-11.1789
braná	-11.1791
stydě	-11.1802
vázán	-11.1802
lámal	-11.1816
okn	-11.1935
ammonit	-11.1966
užite	-11.1989
hnal	-11.199
kaldejské	-11.199
služebnic	-11.199
udeřil	-11.199
zvířat	-11.199
zvěstoval	-11.199
útočiště	-11.199
částk	-11.199
vladař	-11.199
vzkřísi	-11.199
záloh	-11.199
nalézá	-11.199
vztažen	-11.199
břich	-11.1991
odvrátí	-11.1991
ďábelství	-11.1991
naříkání	-11.1992
skoná	-11.2012
kopal	-11.2013
tučn	-11.2015
drak	-11.2016
nesnadn	-11.2023
vstoupi	-11.2024
troubil	-11.2031
elam	-11.206
povolav	-11.206
čiň	-11.2205
zemský	-11.2216
soužení	-11.2234
židovský	-11.2241
bezpečn	-11.2276
rozpomenul	-11.2293
tajemství	-11.2293
vstoupí	-11.2293
obřezán	-11.2293
osmnáct	-11.2293
pachole	-11.2293
jochanan	-11.2293
kozel	-11.2293
jonáš	-11.2294
chíram	-11.2294
helkiáš	-11.2294
blesk	-11.2294
pěkn	-11.2294
docela	-11.2294
hříšník	-11.2294
nešlechetný	-11.2295
chvalte	-11.2296
obzvláštn	-11.2296
slepý	-11.2297
vládnou	-11.2297
huben	-11.2299
uhlí	-11.2299
bydlen	-11.23
prosb	-11.2303
obloži	-11.2305
přítomnost	-11.2325
povst	-11.2357
orli	-11.2379
jeft	-11.2393
odejm	-11.2436
trpě	-11.2442
pomíj	-11.2495
izar	-11.2508
kupc	-11.2514
síň	-11.2595
bloudil	-11.2606
krupobití	-11.2606
náramenník	-11.2606
svědomí	-11.2606
vysokost	-11.2606
měděný	-11.2606
gerson	-11.2606
přiveď	-11.2606
zachvát	-11.2606
uchyl	-11.2606
uzdravil	-11.2606
utvrdil	-11.2606
vysvobodit	-11.2606
zrnat	-11.2607
poslán	-11.2608
posmíva	-11.2608
výklad	-11.2612
propustí	-11.266
joábov	-11.2672
bázn	-11.2692
žáda	-11.2718
simeon	-11.2726
mocen	-11.2736
rozuměj	-11.2812
noham	-11.2829
učit	-11.2887
opustiv	-11.2923
rozhněvání	-11.2929
vládl	-11.2929
vypléněn	-11.2929
zpéře	-11.2929
skrýš	-11.2929
joram	-11.2929
kterýmiž	-11.2929
stupňů	-11.2929
bojovní	-11.2929
makovic	-11.2929
koráb	-11.2929
obrací	-11.2929
asver	-11.2929
lamp	-11.2929
pomaže	-11.2931
smrteln	-11.2931
mudrc	-11.2932
upřímnost	-11.2933
zajatý	-11.2933
snížen	-11.2934
malý	-11.2946
prah	-11.2957
abel	-11.297
kananejský	-11.2979
kain	-11.3
předešl	-11.3017
poruč	-11.3034
královn	-11.3132
přísn	-11.3209
opon	-11.3259
abiatar	-11.3262
odpočinul	-11.3262
přisluhoval	-11.3262
horlivost	-11.3262
hřmot	-11.3262
trpělivost	-11.3262
očišťován	-11.3262
zeměplaz	-11.3262
rozsívá	-11.3262
vzbudil	-11.3262
povědíno	-11.3262
pomocník	-11.3263
kobylk	-11.3263
řetěz	-11.3263
povstane	-11.3266
úpě	-11.3268
svěde	-11.3271
absolonov	-11.3282
zmužil	-11.3334
děsí	-11.3391
berán	-11.3423
kříž	-11.3432
zbožn	-11.347
ezechiášov	-11.3559
polám	-11.3588
5	-11.3607
barnabáš	-11.3607
rozptýlí	-11.3607
godoliáš	-11.3607
obklíčil	-11.3607
ospravedlněn	-11.3607
vzbudí	-11.3607
amorejský	-11.3607
pavlov	-11.3607
předěšen	-11.3607
pošlapá	-11.3607
mordován	-11.3607
banaiáš	-11.3607
nešlechetní	-11.3607
otvírá	-11.3607
milování	-11.3607
dědic	-11.3607
taková	-11.3608
takovou	-11.3608
braň	-11.3608
pochyb	-11.3609
hřiv	-11.3609
příhodn	-11.361
rabb	-11.361
zapomenul	-11.3611
litoval	-11.3619
rádc	-11.3645
plén	-11.3666
zhoub	-11.3671
zastřen	-11.3674
říkaj	-11.3752
razil	-11.3772
shromáždi	-11.3875
menší	-11.3963
posměvač	-11.3964
rozmnožuj	-11.3964
slitovnic	-11.3964
karmel	-11.3964
kormoutil	-11.3964
skotů	-11.3964
posměch	-11.3964
svícn	-11.3964
proroctví	-11.3964
oblečen	-11.3964
rebek	-11.3964
odpočíva	-11.3964
tábor	-11.3964
zvýší	-11.3964
protivenství	-11.3964
smilní	-11.3964
barvené	-11.3964
slýchá	-11.3964
kazoval	-11.3964
dobrá	-11.3964
čtyřmecítm	-11.3965
zvuč	-11.3968
nuzný	-11.3968
rouhán	-11.3969
užasn	-11.397
jezer	-11.3973
kvas	-11.3975
zdržuj	-11.3975
amnon	-11.4032
vrací	-11.4054
vezl	-11.4072
smilstv	-11.4147
koř	-11.4153
běln	-11.4245
kterou	-11.4323
bloudí	-11.4333
ukáži	-11.4334
adoniáš	-11.4334
oblékl	-11.4334
pohřb	-11.4334
rozmnožen	-11.4334
sallum	-11.4334
utvrzen	-11.4334
dvadcát	-11.4334
půjdou	-11.4334
hebrej	-11.4334
trestat	-11.4334
zjevil	-11.4334
odsud	-11.4334
timote	-11.4334
závor	-11.4334
maaseiáš	-11.4334
duchovní	-11.4334
halelu	-11.4334
oddělil	-11.4334
heber	-11.4334
pláště	-11.4334
zkušen	-11.4334
začal	-11.4335
azafov	-11.4336
sára	-11.4336
jistý	-11.4336
oklamá	-11.4337
dělník	-11.4338
otevřín	-11.434
blud	-11.434
uvržen	-11.4341
vědouc	-11.4342
zisk	-11.4343
bořen	-11.4344
plnit	-11.435
mateř	-11.4354
vln	-11.4361
zkaz	-11.4476
propusti	-11.4541
odpír	-11.4556
vyved	-11.4584
žalář	-11.4618
shromážděn	-11.4636
bič	-11.4659
trápen	-11.4662
panovní	-11.4668
vytáh	-11.467
která	-11.4708
lebn	-11.4709
ječmene	-11.4719
kněžský	-11.4719
plésání	-11.4719
pokušení	-11.4719
vysvoboď	-11.4719
benadad	-11.4719
báruch	-11.4719
dosáhl	-11.4719
komorník	-11.4719
naklonil	-11.4719
nakloň	-11.4719
poskvrn	-11.4719
zmocnil	-11.4719
řemeslník	-11.4719
ukydaným	-11.4719
změnil	-11.4719
kulhav	-11.4719
zlehč	-11.4719
porušen	-11.4719
kněžstv	-11.4719
chvátá	-11.4719
opatrnost	-11.4719
zpívá	-11.4719
přikryj	-11.4719
loutn	-11.4719
pohleděv	-11.4719
nasytí	-11.472
prozpěvova	-11.472
bóz	-11.4722
stydí	-11.4723
ebed	-11.4723
big	-11.474
rozdíln	-11.4743
vypravova	-11.4754
stávají	-11.4818
nezemře	-11.4839
vynáše	-11.4864
vládař	-11.4932
pozor	-11.4978
královsk	-11.4988
zhoubc	-11.5052
janov	-11.5099
házejí	-11.5108
absa	-11.5109
abizai	-11.5119
ezdráš	-11.5119
mesullam	-11.5119
milosrdn	-11.5119
pomazané	-11.5119
provinění	-11.5119
vichřic	-11.5119
cizoložn	-11.5119
obecné	-11.5119
pokřtěn	-11.5119
zorobábel	-11.5119
dokavad	-11.5119
šestnáct	-11.5119
nemohu	-11.5119
zůřiv	-11.5119
fínes	-11.5119
remmon	-11.5119
závist	-11.5119
blát	-11.5119
připojen	-11.5119
lékař	-11.5119
ponížil	-11.5119
povrh	-11.5119
vzdálen	-11.5119
prozpěvuj	-11.512
vyprahl	-11.512
pozdravte	-11.5121
provodí	-11.5122
rudé	-11.5125
zkřikl	-11.5127
různ	-11.5132
pozdravuj	-11.5132
desetin	-11.5163
jedin	-11.5163
srozumě	-11.5164
humn	-11.5195
řečeno	-11.5205
přilož	-11.5272
egyptsk	-11.5421
jasn	-11.5435
8	-11.5535
devadesát	-11.5535
holubic	-11.5535
nejmilejší	-11.5535
náprsník	-11.5535
slitování	-11.5535
ukřižován	-11.5535
užitk	-11.5535
zvěstovat	-11.5535
čaloun	-11.5535
joachaz	-11.5535
možné	-11.5535
jábes	-11.5535
prudk	-11.5535
třináct	-11.5535
veřeje	-11.5536
oréb	-11.5536
zkusil	-11.5536
jotam	-11.5536
tratil	-11.5536
očistil	-11.5538
příliš	-11.5539
soused	-11.5539
kudyž	-11.5539
užívá	-11.5542
večeř	-11.5547
ptej	-11.555
třesení	-11.5555
raněn	-11.5579
levic	-11.5587
sionsk	-11.583
samuelov	-11.5892
balámov	-11.5933
spokojuj	-11.5963
odcházej	-11.5963
0	-11.597
cizoloží	-11.597
hrnčíř	-11.597
mládene	-11.597
nařízení	-11.597
rozkázaní	-11.597
rozpomeň	-11.597
mořský	-11.597
poslouchá	-11.597
přestoupil	-11.597
útržk	-11.597
hetejské	-11.597
mrzkost	-11.597
plášť	-11.597
čtyřidc	-11.597
efez	-11.597
odvrácen	-11.597
pomoz	-11.597
zavřín	-11.597
vyvrh	-11.597
statečn	-11.5971
azor	-11.5971
dávno	-11.5971
příchod	-11.5971
machir	-11.5972
ábel	-11.5972
cýr	-11.5972
ostrost	-11.5973
potření	-11.5973
potřel	-11.5974
hřeb	-11.5974
dotkn	-11.5976
starost	-11.5976
vinař	-11.6012
varuj	-11.6036
obnov	-11.6046
hrud	-11.6109
požehnan	-11.6395
rozličný	-11.6425
účastní	-11.6425
bojovný	-11.6425
drabant	-11.6425
eufrate	-11.6425
fáres	-11.6425
jitřní	-11.6425
micheáš	-11.6425
nebezpečenství	-11.6425
ohlašuj	-11.6425
starodávní	-11.6425
vyhlásí	-11.6425
výmluvnost	-11.6425
popléněn	-11.6425
oblehl	-11.6425
rechab	-11.6425
sladk	-11.6425
lačně	-11.6425
chvíle	-11.6425
čerstv	-11.6425
sprostn	-11.6425
rozplyn	-11.6425
robot	-11.6425
rybník	-11.6425
těhotn	-11.6426
rozpálen	-11.6426
hnízd	-11.6426
procháze	-11.6426
rouhal	-11.6427
posílal	-11.6427
hádk	-11.6427
nábot	-11.6427
susan	-11.6432
zahladí	-11.6434
placu	-11.6443
utíká	-11.6464
poznán	-11.6464
scháze	-11.658
nemůž	-11.682
damaš	-11.687
hřbet	-11.6901
jablk	-11.6901
napomína	-11.6901
rozpomína	-11.6901
sformoval	-11.6901
sváteční	-11.6901
vyslýchej	-11.6901
zachovej	-11.6901
9	-11.6901
lehkost	-11.6901
obcování	-11.6901
přívětiv	-11.6901
rozmlouv	-11.6901
smýšle	-11.6901
strojil	-11.6901
výpověd	-11.6901
kormoutí	-11.6901
panování	-11.6901
upevněn	-11.6901
kvílí	-11.6901
neduh	-11.6901
čistern	-11.6902
joel	-11.6904
hrnc	-11.6906
jsuc	-11.691
skládá	-11.6912
říkej	-11.6918
štípen	-11.6919
anatot	-11.6922
klíč	-11.6937
úřední	-11.6997
těžc	-11.7094
6	-11.7401
)	-11.7435
7	-11.9071
x	-11.9696
𐊣	-13.2045
𐊼	-13.2045
]	-13.7874
!	-13.7875
?	-13.7876
;	-13.7877
#	-13.7878
,	-13.7878
