<pad>	0
</s>	0
<unk>	0
▁	-1.48059
¦	-1.95626
▁¦	-2.54153
ም	-3.68374
ን	-3.90957
፥	-4.2347
።	-4.43528
ት	-4.5384
ና	-4.60836
በ	-4.65354
ው	-4.75345
ል	-4.81645
፤	-4.84616
ለ	-4.97678
▁የ	-4.99015
የ	-5.02944
▁።	-5.04163
▁በ	-5.12197
አ	-5.32076
ስ	-5.35729
ተ	-5.39258
▁፥	-5.41927
ከ	-5.47736
ያ	-5.54313
ር	-5.5605
መ	-5.57876
ንም	-5.62487
ች	-5.63491
▁ከ	-5.64938
ህ	-5.66409
▁ወደ	-5.77563
▁አ	-5.82972
ላ	-5.84184
▁፤	-5.86263
ድ	-5.8684
ይ	-5.88821
▁ሁሉ	-5.90517
?	-5.924
ብ	-5.99284
ወደ	-6.01207
ቸ	-6.01291
ረ	-6.02819
ሁሉ	-6.04828
ዋ	-6.0641
ባ	-6.09364
▁እንደ	-6.11373
ማ	-6.15725
ሰ	-6.23111
ገ	-6.28351
ደ	-6.339
▁ላይ	-6.34236
ራ	-6.34987
ችሁ	-6.35206
ጥ	-6.35746
ጠ	-6.35842
▁ዘንድ	-6.36853
እንደ	-6.39277
ሁ	-6.44804
ሳ	-6.5223
▁እግዚአብሔር	-6.5228
▁ለ	-6.53743
ላይ	-6.54698
ዘንድ	-6.55915
▁ግን	-6.55958
ፍ	-6.59124
ነው	-6.60059
▁ይ	-6.62009
እግዚአብሔር	-6.63421
እን	-6.6531
ግ	-6.67206
ግን	-6.72316
▁ስለ	-6.76324
▁ነገር	-6.77821
ቱ	-6.80366
▁ጋር	-6.82813
▁ጊዜ	-6.92974
ጊዜ	-6.93873
ነገር	-6.95763
እ	-6.95819
▁ልጆች	-6.98636
▁ልጅ	-7.00098
▁እ	-7.01551
ሉ	-7.0252
ስለ	-7.03681
ጋር	-7.05866
ልጆች	-7.08641
ቢ	-7.09449
▁ሰው	-7.11941
ልጅ	-7.12122
ሰው	-7.14995
▁ሆይ፥	-7.18218
▁እኔ	-7.19048
▁እንዲህ	-7.2344
▁ቤት	-7.30806
ኑ	-7.31059
ካ	-7.31131
ሲ	-7.3151
▁ቀን	-7.32012
ጣ	-7.32758
ቃ	-7.33707
▁ፊት	-7.33839
እኔ	-7.37053
ም።	-7.38346
ልና	-7.40266
አለ	-7.40727
ቤት	-7.45002
ነበር	-7.45478
ፋ	-7.46949
▁አለው።	-7.47753
ፊት	-7.47829
ቀን	-7.4796
ቃል	-7.49213
እንዲ	-7.50589
▁ነው።	-7.51611
▁ደግሞ	-7.52122
እንዲህ	-7.52422
▁ቃል	-7.52949
▁ጌታ	-7.54612
▁ሰዎች	-7.54791
▁ነበር።	-7.56375
▁አለ።	-7.58002
▁አንድ	-7.59645
▁ድረስ	-7.60699
ኛ	-7.60747
▁እርሱ	-7.61079
▁ምድር	-7.61956
▁እስከ	-7.62047
▁ንጉሥ	-7.63367
ሰዎች	-7.63919
▁አንተ	-7.65064
▁ይህ	-7.69381
▁ውስጥ	-7.69784
እርሱም	-7.70671
ንጉሥ	-7.70955
▁በእግዚአብሔር	-7.70986
▁እነሆ፥	-7.72233
ነበረ	-7.73765
አንድ	-7.75897
ሆይ	-7.76238
እርሱ	-7.77281
ድረስ	-7.78072
▁ብሎ	-7.78558
ደግሞ	-7.78648
▁እግዚአብሔርም	-7.80456
ሆነ	-7.81323
ዱ	-7.8155
አንተ	-7.86236
▁በኋላ	-7.86442
ምድር	-7.86477
መጣ	-7.87111
▁ነው፤	-7.88523
ውስጥ	-7.88821
እነሆ	-7.89017
እስከ	-7.90665
▁ይህን	-7.90702
▁አምላክ	-7.91204
ወጣ	-7.91734
አለው	-7.92119
▁እናንተ	-7.9224
እግዚአብሔርም	-7.92651
▁አይ	-7.93177
▁ወይም	-7.94502
▁መካከል	-7.94684
ናቸው	-7.95486
ይህ	-7.95644
▁እጅ	-7.97652
▁ዓመት	-7.9767
▁እርሱም	-7.98431
ይላል	-7.9868
ብሎ	-7.98803
ሱ	-7.99771
▁የእግዚአብሔር	-8.03351
እናንተ	-8.05283
ማን	-8.06063
መካከል	-8.07162
በእግዚአብሔር	-8.07266
አምላክ	-8.07806
በኋላ	-8.07912
▁ሕዝብ	-8.08642
እጅ	-8.09652
▁ሁለት	-8.10299
ሕዝብ	-8.1139
እንዳይ	-8.11468
ዬ	-8.11684
ያን	-8.12325
ሁለት	-8.12894
▁አላቸው።	-8.13653
▁ስለዚህ	-8.14845
ከፍ	-8.16292
▁ነበረ።	-8.16578
ዓመት	-8.17066
▁ነው	-8.17972
ና።	-8.19317
▁እንጂ	-8.19465
▁ምን	-8.20151
ወር	-8.20356
▁እግዚአብሔርን	-8.20405
ይሆናል	-8.20804
▁ነበር፤	-8.21896
▁ለእግዚአብሔር	-8.21915
ወይም	-8.23124
መቶ	-8.24136
ደስ	-8.2416
ይህን	-8.25871
ተው	-8.26406
▁መቶ	-8.26592
አይ	-8.27251
▁ስፍራ	-8.27686
ማል	-8.2794
▁ክፉ	-8.28326
▁እንዲሁ	-8.29026
ገባ	-8.30819
▁ይላል።	-8.3093
ሥራ	-8.31481
ብዙ	-8.31642
▁እኔም	-8.31655
▁መሥዋዕት	-8.32035
▁በዚያም	-8.32267
ነበሩ	-8.32893
▁ደስ	-8.33167
▁በዚያ	-8.34122
▁የእግዚአብሔርን	-8.34623
▁እነርሱም	-8.35222
▁ብዙ	-8.35446
ስለዚህ	-8.35547
▁የእስራኤል	-8.35911
▁ጊዜ፥	-8.36665
▁እጅግ	-8.36911
▁ዛሬ	-8.39526
▁ከእርሱ	-8.4006
▁ከፍ	-8.40425
የእግዚአብሔር	-8.40825
▁ሺህ	-8.41009
▁አቤቱ	-8.42037
ገና	-8.43285
▁መልካም	-8.4375
▁በምድር	-8.43903
▁ከተማ	-8.44949
እኔም	-8.45391
▁ሁሉ፥	-8.45549
ያለ	-8.45863
▁ውኃ	-8.45922
እነርሱም	-8.46734
ስም	-8.46798
ባል	-8.47148
▁ሥራ	-8.47613
▁መንገድ	-8.47852
▁ዘመን	-8.47953
!	-8.47976
እንጂ	-8.47996
መሥዋዕት	-8.48184
▁ያለ	-8.48288
ከዚያም	-8.48615
▁እርሱም።	-8.49107
እግዚአብሔርን	-8.49119
ሠራ	-8.49451
▁ማን	-8.49802
ስፍራ	-8.49902
▁በእስራኤል	-8.50487
መልካም	-8.51224
▁ነበረ፤	-8.52672
▁ነበሩ።	-8.52876
አላቸው	-8.53184
በር	-8.53712
▁እነዚህ	-8.53893
ከተማ	-8.54124
▁አገር	-8.55289
ማለ	-8.55464
▁በዳ	-8.55509
መንገድ	-8.56131
በዚያ	-8.56328
ለእግዚአብሔር	-8.5682
ሺህ	-8.57688
እንዲሁ	-8.58197
▁በዚህ	-8.58361
የእስራኤልም	-8.58842
ከእርሱም	-8.58926
በዚያም	-8.61048
መጡ	-8.6108
▁ይላል	-8.61218
▁ነው፥	-8.61538
ሰማ	-8.617
ሄ	-8.61838
▁ታላቅ	-8.62642
አገር	-8.62669
ሰብ	-8.63809
▁እንዲህም	-8.64178
▁ለዘላለም	-8.64965
ዘመን	-8.65105
▁ጀምሮ	-8.65142
▁ሴት	-8.65381
▁ሆነ	-8.65518
▁አለቆች	-8.66175
እነዚህ	-8.6662
▁ዘንድ፥	-8.66744
▁በእርሱ	-8.6717
ሦስት	-8.68328
▁ኢየሱስ	-8.68336
ፈራ	-8.68727
ሆኑ	-8.68797
የእግዚአብሔርን	-8.69043
▁እንግዲህ	-8.69412
እጅግ	-8.69607
አለቆች	-8.70564
አቤቱ	-8.70671
▁ድምፅ	-8.71168
የእግዚአብሔርም	-8.71768
ክብር	-8.71847
ክርስቶስ	-8.72082
የእስራኤል	-8.72283
▁አሁን	-8.72811
ኃጢአት	-8.73014
▁ሰባት	-8.73052
▁ይሆናል።	-8.73411
▁ኃጢአት	-8.73681
ጅ	-8.73709
በል	-8.73724
ሕግ	-8.74161
ሴቶች	-8.7507
▁አሉት።	-8.75439
ጠፋ	-8.75846
▁ወገን	-8.75895
ወንድ	-8.76103
ባለ	-8.76123
እነርሱ	-8.76188
ከእርሱ	-8.76336
▁ንጉሡም	-8.76781
ኢየሱስ	-8.76853
▁አለቃ	-8.76863
▁ሌላ	-8.77017
▁ንጉሡ	-8.77298
▁እነሆም	-8.77333
ሰባት	-8.77373
▁ክርስቶስ	-8.78275
▁ከእኔ	-8.78516
▁እነርሱ	-8.78543
ና፥	-8.78781
▁መንፈስ	-8.7891
ተኛ	-8.78995
▁ይልቅ	-8.79064
▁ስም	-8.80007
▁አጠገብ	-8.80115
ያው	-8.80153
በምድር	-8.80374
ነውና	-8.80527
▁ክንድ	-8.80887
▁ሦስት	-8.80915
ታላቅ	-8.81867
ወገን	-8.82051
▁ያለውን	-8.82299
መንፈስ	-8.82827
ኔ	-8.82941
ማንም	-8.83382
ይሁን	-8.8405
▁እኛ	-8.843
ዲ	-8.85014
▁እንጀራ	-8.85078
▁ናቸው።	-8.85454
▁አሁንም	-8.85684
በእስራኤል	-8.85788
▁በኩል	-8.85863
ንጉሡም	-8.86285
በሉ	-8.86289
ሄደ	-8.86398
ማር	-8.86589
▁ብለው	-8.86777
ገቡ	-8.86787
አሥራ	-8.87104
▁ሴቶች	-8.87323
▁በታች	-8.87439
ልብ	-8.87571
መከራ	-8.87607
አለቃ	-8.87671
▁አሕዛብ	-8.87832
ከእነርሱም	-8.88123
ች።	-8.88431
ገዛ	-8.8847
አደረገ	-8.88476
▁ከተሞች	-8.89113
በዚህ	-8.89209
▁እንዴት	-8.8941
▁የተነሣ	-8.89942
▁አምስት	-8.90221
▁ማንም	-8.9077
▁ዳዊት	-8.90885
አሁን	-8.91055
▁ከእግዚአብሔር	-8.91265
▁ከአንተ	-8.91427
እንዲህም	-8.92728
▁ቍርባን	-8.93326
አሉ	-8.93353
▁እግዚአብሔር።	-8.9341
▁ሙሴም	-8.93669
ሰጠ	-8.93769
ጀምሮ	-8.93784
መቅደሱ	-8.94468
▁የሆነ	-8.95162
ዔ	-8.95925
▁ነበር፥	-8.95931
እንግዲህ	-8.95976
በምድረ	-8.9598
ዳዊትም	-8.96041
▁ኢየሱስም	-8.96253
ደም	-8.96606
በላ	-8.9663
ሆ	-8.96708
ላለ	-8.97455
ሌዋውያን	-8.97607
▁ሀያ	-8.9821
▁አሉ።	-8.98526
▁እስኪ	-8.98613
አሳልፎ	-8.98846
ድምፅ	-8.98852
እንጀራ	-8.98982
▁ብቻ	-8.99035
ብለው	-8.9904
ለዘላለም	-8.99178
በታች	-8.99438
ሆነው	-8.99743
▁የሰው	-9.0012
ጠራ	-9.00601
እኛ	-9.00673
አምስት	-9.00868
▁ነገድ	-9.0102
ክንድ	-9.0126
ናችሁ	-9.01458
ነገሥታት	-9.01693
▁ኪዳን	-9.02086
▁ዳዊትም	-9.02198
▁ሆኖ	-9.02511
ጌታዬ	-9.0301
▁ከእነርሱ	-9.03146
▁ተራራ	-9.03265
ጠጣ	-9.03634
አሕዛብ	-9.0407
በእርሱ	-9.04173
▁እስራኤል	-9.04211
አብ	-9.04517
▁ይሆናል፤	-9.04713
ጠላ	-9.05057
▁ደግሞም	-9.05588
▁ልብ	-9.0562
አጠገብ	-9.05645
▁ፍሬ	-9.05984
መለከት	-9.06109
አንዱ	-9.06724
ቅዱስ	-9.06978
አሳ	-9.07112
በራ	-9.07231
ተናገረ	-9.07245
ከተሞች	-9.07399
▁በኢየሩሳሌም	-9.07557
ይልቅ	-9.07712
ነበርና	-9.07819
አይሁድ	-9.08075
▁አሳ	-9.08248
ራስ	-9.08461
ነገሠ	-9.08523
ዮሴፍ	-9.0855
▁ያለው	-9.08685
አባቴ	-9.08907
▁አሥራ	-9.08999
ተስፋ	-9.09263
ኢየሩሳሌም	-9.09361
▁ናቸው፤	-9.09457
አለሁ	-9.09794
እንዲያ	-9.09892
▁ከእናንተ	-9.09916
ፍራ	-9.09948
▁የሠራዊት	-9.10049
▁በዚያን	-9.10778
ያለውን	-9.10981
▁አራት	-9.11241
ሕዝቡም	-9.11603
ቍርባን	-9.11687
ለምን	-9.1184
አውራ	-9.11844
▁ለእስራኤል	-9.12189
▁ሆነ፤	-9.12211
አሁንም	-9.12325
ዕቃ	-9.12582
▁ሙሴን	-9.12673
▁ወር	-9.12786
ተራራ	-9.13197
▁ደቀ	-9.13221
▁ነገሥታት	-9.13662
ከእኔ	-9.13859
▁ክብር	-9.14011
▁ወይስ	-9.14128
ዋንም	-9.14299
እነሆም	-9.14429
▁ዕቃ	-9.14442
በኩል	-9.14513
አራት	-9.14631
ብር	-9.14836
ኢየሱስም	-9.15154
▁ቅዱስ	-9.15267
ቸውንም	-9.15281
ጥል	-9.15425
የሰው	-9.15438
▁ገና	-9.1544
▁ከእስራኤል	-9.15581
ነገድ	-9.16147
አይደለም	-9.16198
▁ልጆች፥	-9.16395
የተነሣ	-9.16422
ነቢዩ	-9.16536
ተናገረው	-9.16574
ሰላም	-9.17074
አይደለምን	-9.17264
▁ሕዝቡም	-9.1764
እንዴት	-9.18204
ድር	-9.18509
ቢሆን	-9.19184
እውነት	-9.19581
ስማ	-9.20276
ዓለም	-9.203
▁ባለ	-9.20319
ቍጣ	-9.20602
የለም	-9.20693
▁እንኳ	-9.20868
ተነሣ	-9.21222
▁እርስዋም	-9.21283
ገር	-9.21338
ጥበብ	-9.21451
አፍ	-9.21496
▁ከዚህ	-9.21798
አምላክህ	-9.22026
▁በእኔ	-9.22145
▁ምንም	-9.22196
▁መጣ።	-9.2243
ከእግዚአብሔር	-9.22828
ሄዱ	-9.22975
ፌ	-9.2319
▁በይሁዳ	-9.23377
▁ትእዛዝ	-9.23684
▁በእውነት	-9.23848
▁ደም	-9.24153
▁ዘር	-9.24182
የሆነ	-9.24692
▁እሳት	-9.24773
ዘረጋ	-9.24917
እሳት	-9.25172
ልጆቹ	-9.25224
ድንኳን	-9.25409
ከእናንተ	-9.25563
▁አንተም	-9.25668
ባሕር	-9.25914
▁ነበረ፥	-9.26128
▁ነበሩ፤	-9.26201
ወለደ	-9.26458
▁ልብስ	-9.26462
▁ምንድር	-9.26513
ከአንተ	-9.26659
▁ቤተ	-9.26873
እስራኤል	-9.27194
እስኪ	-9.27623
▁ሕግ	-9.27631
▁ከዚያ	-9.27649
ሰሎሞን	-9.27733
ሆንሁ	-9.27991
ይህንም	-9.28152
▁አፍ	-9.28271
▁እውነት	-9.28286
አምላካችሁ	-9.28444
ትእዛዝ	-9.2864
ብላ	-9.28945
ግራ	-9.28974
ግባ	-9.29031
ተቀመጡ	-9.29122
ብረት	-9.29219
ቅዱሳን	-9.29605
ሰይፍ	-9.29726
እስክ	-9.30114
▁ዛፍ	-9.30307
▁ድንኳን	-9.30378
መንግሥት	-9.30426
▁አድርጎ	-9.30649
ጥፋት	-9.30885
ደግሞም	-9.31079
ሆኖ	-9.31175
▁በቀር	-9.31202
ፍርድ	-9.31641
እርስዋም	-9.31712
▁በሕይወት	-9.31787
▁ሕዝቡ	-9.3179
ያወጣ	-9.31896
ካህኑ	-9.3193
አሉት	-9.31969
ወይን	-9.32236
ሰጣቸው	-9.3243
ላከ	-9.32785
ያደርግ	-9.32853
▁ሚስት	-9.33012
እያንዳንዱ	-9.33173
▁በእናንተ	-9.33623
ባሪያ	-9.33732
አምላካችን	-9.34422
ወንድሞቹ	-9.34605
ክፋት	-9.34666
እንጨት	-9.35003
▁ፍርድ	-9.35168
ሰማያት	-9.3541
ምንድር	-9.35759
ልብስ	-9.35854
▁በውኑ	-9.35878
ነበረች	-9.35895
ሠላሳ	-9.35952
▁ይህም	-9.3597
መጽሐፍ	-9.35999
ሰልፍ	-9.3603
▁ልጁ	-9.36084
▁ኢየሩሳሌም	-9.36116
▁ወንድ	-9.36199
ብንያም	-9.36627
ያለው	-9.36773
በኢየሩሳሌም	-9.3689
ስድስት	-9.3694
ድንጋይ	-9.37268
ጠብ	-9.37493
▁ያዘ	-9.37782
▁እርስ	-9.37879
▁ርስት	-9.379
▁የእስራኤልን	-9.37914
አማልክት	-9.37965
▁በእሳት	-9.38114
ሁለቱ	-9.38573
▁ራስ	-9.3875
የሠራዊት	-9.38843
▁ባሪያ	-9.39012
አለኝ	-9.39179
አንተም	-9.39222
▁ባሕር	-9.39369
ከእነርሱ	-9.39504
ሰባ	-9.39557
አብርሃም	-9.39586
▁አውራ	-9.39679
▁በአንተ	-9.39724
በዚያን	-9.3973
▁የወይን	-9.39772
▁ስለዚህም	-9.4053
▁ስድስት	-9.40565
▁ሌሊት	-9.4073
▁ነገ	-9.40932
ሕያው	-9.40995
▁በአንድ	-9.41058
▁መንግሥት	-9.41471
ግድ	-9.41535
ካህናት	-9.41741
▁ሕዝቡን	-9.42105
አራተኛው	-9.42167
▁ባሪያዎች	-9.42616
ወይስ	-9.42794
ተቀመጠ	-9.42837
አሮን	-9.43132
▁ይሁን።	-9.43168
ፈርዖን	-9.43391
▁ተስፋ	-9.43448
▁ለአንተ	-9.43542
በእርሱም	-9.4368
ጣል	-9.43934
ሠራዊት	-9.4404
▁በግ	-9.444
▁ድንጋይ	-9.44438
አባቱ	-9.44598
▁ዳርቻ	-9.44763
▁ሆነ፥	-9.44856
▁ጠጅ	-9.44856
ስብ	-9.44992
ብርሃን	-9.45004
ከዚህም	-9.45109
ነፍስ	-9.45161
▁ባለው	-9.45328
ነቢያት	-9.45348
አንቺ	-9.45553
በጎች	-9.45588
▁ታቦት	-9.46038
አምሳ	-9.46116
በግ	-9.46275
ርስት	-9.46518
▁ቢሆን	-9.46699
ጠብቅ	-9.46953
ሳኦል	-9.47144
▁ስሙ	-9.47204
ድል	-9.4732
ሕይወት	-9.47585
▁ነበርና	-9.47783
ለእስራኤል	-9.4796
ርያ	-9.48397
▁አባት	-9.48833
ባሪያዎችህ	-9.49006
አባት	-9.49009
▁አለኝ።	-9.49095
ራሱን	-9.49236
▁አንቺ	-9.49359
ሰፈሩ	-9.49545
ጽድቅ	-9.49793
▁ወንድሞች	-9.49917
በረታ	-9.5005
ና፤	-9.50095
▁አምላክህ	-9.50244
ተራ	-9.50693
መቅደስ	-9.50766
መልሶ	-9.50905
ሳሉ	-9.50972
▁ቤቶች	-9.51174
ጆ	-9.51278
ጻድቅ	-9.51304
ከእስራኤል	-9.51435
▁ልጅ፥	-9.51535
▁አንዱ	-9.51645
በደ	-9.51772
በእግዚአብሔርም	-9.51941
ዳርቻ	-9.52134
▁ነፍስ	-9.52285
ገል	-9.5232
▁መልሶ።	-9.52327
ሺ	-9.52743
ወንድሞች	-9.52822
ነፋስ	-9.52883
ሳለ	-9.52963
በእውነት	-9.53308
▁ቍጣ	-9.53564
ሚስት	-9.53825
▁ንጹሕ	-9.53829
▁ዙሪያ	-9.53829
አደረጉ	-9.53996
ጠጅ	-9.54032
ምድረ	-9.54103
▁እንዲሁም	-9.54238
▁በፊትህ	-9.54321
▁አሥር	-9.54387
ጳውሎስ	-9.54417
አርባ	-9.54603
▁በፊቱ	-9.54683
▁አማልክት	-9.5482
ስምዖን	-9.54909
▁መጽሐፍ	-9.54938
▁እንዲሆን	-9.54942
መለስ	-9.54993
መሠዊያ	-9.55001
▁ለእኔ	-9.55042
ጠል	-9.55132
▁ትንቢት	-9.5527
▁ወስዶ	-9.55313
▁ሰይፍ	-9.55339
በደል	-9.55344
▁ሲል	-9.5537
ኃይል	-9.55388
ኤርምያስ	-9.55614
ደኅንነት	-9.55659
▁ነውና	-9.55681
▁አብ	-9.55831
ባሉ	-9.55858
ባለው	-9.55993
ጣት	-9.56096
እህል	-9.56263
ቀረበ	-9.56397
ኢዮአብ	-9.56421
አባትህ	-9.56513
▁አደረገ።	-9.56587
ሰጠው	-9.5661
እርስዋ	-9.56745
ራሳችሁ	-9.5683
▁ብርሃን	-9.56839
ቤቶች	-9.56936
▁ለምን	-9.57079
▁ከሰማይ	-9.57143
▁ይሁዳ	-9.57178
ኃጢአተኞች	-9.57383
መካ	-9.5755
ከዚህ	-9.57656
ረሱ	-9.57686
ይህም	-9.57789
ጠብቁ	-9.57791
▁እንዳለ	-9.57976
አፌ	-9.58087
ዓይን	-9.58237
ዮሐንስ	-9.58433
▁ምድረ	-9.58507
ባሪያዎች	-9.58593
ፈሪሳውያን	-9.59123
▁የለም።	-9.59267
▁ወለደ፤	-9.59368
አድርጎ	-9.59368
▁መልአክ	-9.59513
▁ወዲህ	-9.5955
በቀር	-9.59879
▁ወዴት	-9.59903
በእኔ	-9.5993
ሰማይ	-9.60083
ባሪያህ	-9.60194
▁ወርቅ	-9.60314
▁አምሳ	-9.60452
▁ፋንታ	-9.60863
በሕይወት	-9.60883
እንስሳ	-9.60926
▁ሕያው	-9.60949
መልስ	-9.61061
በፊቱ	-9.6119
ወርቅ	-9.61382
ይሆን	-9.61566
▁ወራት	-9.61877
በይሁዳ	-9.61942
▁በላይ	-9.62244
ላሉ	-9.62649
▁መሠዊያ	-9.62665
ደመና	-9.6268
ገደለ	-9.62875
ምሳሌ	-9.63039
ሠራው	-9.63047
ያደረገ	-9.63476
▁ሕይወት	-9.63503
ምርኮ	-9.63796
▁ሆነ።	-9.63846
መጠን	-9.63882
እህሉ	-9.63902
ከዚያ	-9.63961
እርስ	-9.645
በውኑ	-9.64601
ተራራው	-9.6481
▁ሆንሁ	-9.64815
▁አለ፤	-9.65073
▁መታ	-9.65087
አስታ	-9.65125
ኢያሱ	-9.65293
ወረደ	-9.65296
ዘይት	-9.65667
ጉባኤ	-9.65673
▁ለእናንተ	-9.65682
በእናንተ	-9.65692
በምድርም	-9.65797
ይስሐቅ	-9.66022
▁እናንተም	-9.66039
እርሻ	-9.66147
ጌታችን	-9.66302
▁ወጥቶ	-9.66339
አሥር	-9.66375
▁ሁልጊዜ	-9.66514
▁በሰይፍ	-9.66596
ደረሰ	-9.66776
▁ይሆን	-9.66803
▁ከእኛ	-9.6721
ግፍ	-9.67366
▁ይሁን፤	-9.67615
▁ጥቂት	-9.67736
▁አስቀድሞ	-9.67867
ካህኑም	-9.68174
ጣሉ	-9.68197
ከንቱ	-9.68197
ፍልስጥኤማውያን	-9.68449
የወይን	-9.68661
ግብጽ	-9.68695
▁ካህኑም	-9.68728
▁ርኩስ	-9.68961
ኢዮርብዓም	-9.68973
ያጠፋ	-9.68977
ስለዚህም	-9.69035
▁እላችኋለሁ	-9.6933
ትንቢት	-9.6939
ያደርጉ	-9.69408
▁ሄደ።	-9.69518
▁ደስታ	-9.69697
ጥቂት	-9.69904
▁ምልክት	-9.69946
ኤዶምያስ	-9.7007
አምላኬ	-9.7019
ስምህ	-9.70387
እናንተም	-9.70564
ሰለ	-9.70567
ይሉ	-9.70599
▁ወንዝ	-9.70635
▁ሠላሳ	-9.70665
አራቱ	-9.70717
ሲል	-9.70775
ወንዶችና	-9.70829
ጨለማ	-9.70842
ወንድምህ	-9.70886
▁ከንቱ	-9.70932
የእስራኤልን	-9.70937
▁እስራኤልም	-9.71061
ወሰደ	-9.71178
ዔሳው	-9.71248
ምዕራብ	-9.714
ታደርጉ	-9.71443
መቱ	-9.71496
ሁላችሁ	-9.71505
ልጆቹም	-9.71634
▁ብር	-9.72179
▁ነውና።	-9.7221
ይሆናሉ	-9.7251
ያዕቆብ	-9.72565
▁በር	-9.72618
▁ብዛት	-9.72697
ቤትህ	-9.7279
▁ሸለቆ	-9.72851
ደግ	-9.72892
በኣል	-9.72893
▁ነገሠ።	-9.72898
▁አርባ	-9.7291
ምስጋና	-9.73045
▁ግን።	-9.73133
በአንድ	-9.73182
▁እንደዚህ	-9.73189
በአንተ	-9.73202
በእሳት	-9.73371
ሁለቱም	-9.73393
▁አላት።	-9.73487
ይመጣል	-9.73604
▁መከራ	-9.73743
መሬት	-9.73817
▁ብለህ	-9.73853
ነበሩት	-9.73894
ጆሮ	-9.73898
ታቸውን	-9.74115
▁በንጉሡ	-9.74222
እግር	-9.74424
ቆመው	-9.74429
ጻድቃን	-9.74573
▁ከምድር	-9.74615
▁በታላቅ	-9.74771
▁ቢሆን፥	-9.74857
▁ዓለም	-9.74986
▁ለእርሱ	-9.75198
ልጆቻችሁ	-9.75547
▁የይሁዳ	-9.75659
▁ጳውሎስ	-9.75734
መንግሥቱ	-9.75766
አቤሴሎም	-9.75777
አንበሳ	-9.75884
ላባ	-9.75924
▁የወርቅ	-9.75958
▁ኃይል	-9.76094
▁ምክንያት	-9.7619
ሳኦልም	-9.76265
▁ያህል	-9.76591
▁የነበረውን	-9.76723
▁ይህች	-9.76875
▁ብዬ	-9.76897
ትውልድ	-9.76898
ኬብሮን	-9.76929
ሠራዊቱ	-9.77083
ራብ	-9.77332
▁ከእንግዲህ	-9.77553
ወዲህ	-9.77816
▁ማዶ	-9.77862
መለሰ	-9.78036
አምላካቸው	-9.78337
▁ተናገረው።	-9.78365
▁ሽማግሌዎች	-9.78399
ተናገሩ	-9.78529
▁በሰማይ	-9.78586
▁ሥርዓት	-9.78587
ድንኳኑ	-9.78751
▁ዳር	-9.78803
መቃብር	-9.78833
ለአንተ	-9.79047
ወራት	-9.7928
▁ሳለ	-9.7936
ይሁዳ	-9.79552
ራስህ	-9.79616
ጕድጓድ	-9.79675
ርሱ	-9.79711
ሲኦል	-9.79753
ብዛት	-9.79904
▁መጠን	-9.80039
ወርድ	-9.80128
ተገለጠ	-9.80417
እንዲሁም	-9.80443
ሆንህ	-9.80459
▁ሰቅል	-9.80624
▁ሳኦልም	-9.8063
አደባባይ	-9.80736
▁ነፍሴ	-9.80864
▁ሰላም	-9.80888
ጥላ	-9.80978
▁ክፍል	-9.81041
ወስደው	-9.81195
ጣለ	-9.81283
ባልዋ	-9.81447
▁በእጁ	-9.81476
ሰባቱ	-9.81649
▁አይሁድ	-9.81876
ራሱ	-9.82002
▁ከግብፅ	-9.82045
አየሁ	-9.82129
▁በግብፅ	-9.82257
ጥራ	-9.82281
▁ካህናት	-9.82298
ዚ	-9.82315
▁ራሱን	-9.82322
ትሆን	-9.82358
▁በመንገድ	-9.8245
ዱር	-9.82575
ተሰበሰቡ	-9.82619
▁የምድር	-9.82686
አህያ	-9.82982
▁አደረገ፤	-9.83111
ሽማግሌዎች	-9.83539
በፊትህ	-9.83605
እንዲሆን	-9.83644
መልአክ	-9.83646
ናቸውና	-9.83757
▁አደባባይ	-9.83773
ቃሉ	-9.83951
ተመለሰ	-9.84028
▁ነበርና።	-9.84034
ወንጌል	-9.84117
ብሩን	-9.84141
ኃጢአቱ	-9.84144
አግኝ	-9.84144
ምስክር	-9.84267
▁የሆነውን	-9.84311
ሥርዓት	-9.84437
ቀረቡ	-9.84492
▁እስራኤልን	-9.84661
ፋንታ	-9.84902
አገሩ	-9.84959
ሳለሁ	-9.84969
▁ወጣ።	-9.8548
ርኩስ	-9.85588
ኮረብታ	-9.85605
▁ትውልድ	-9.85689
▁ይቅር	-9.85704
▁መቅደስ	-9.85706
እንድን	-9.85799
ያዕቆብም	-9.85879
▁እርስዋ	-9.86075
▁ዘይት	-9.86147
ከሰማይ	-9.8618
ሰቅል	-9.86252
▁በክርስቶስ	-9.86304
እንዳለ	-9.86674
▁አንዳች	-9.8668
▁ምስክር	-9.86981
ማስተዋል	-9.87036
ብዬ	-9.87136
አንደኛው	-9.87182
ወንድሞቻቸው	-9.87182
ቅጥር	-9.87197
እስራኤልም	-9.87405
ርግ	-9.87469
እምነት	-9.87471
▁ዋጋ	-9.87602
ገንዘብ	-9.87622
ብዙዎች	-9.87631
በፍታ	-9.8764
ኃያላን	-9.87642
ብለህ	-9.87675
ያህል	-9.87774
ብርቱ	-9.87828
ኃጢአተኛ	-9.87865
ከእስራኤልም	-9.87944
ዓይንህ	-9.88161
ቍጥር	-9.88263
በእስራኤልም	-9.88483
▁በአሕዛብ	-9.88643
ፋሲካ	-9.88681
▁ጻድቅ	-9.88706
ክፉዎች	-9.88737
▁ነኝ፤	-9.88737
▁መዛሙርቱ	-9.88845
▁በፊት	-9.88854
አምስተኛው	-9.88885
መንገዱ	-9.88999
▁በኢየሩሳሌምም	-9.89234
▁ተነሥቶ	-9.89384
ላለች	-9.89468
▁ጉባኤ	-9.89509
አባቶቻችሁ	-9.89549
አመጣ	-9.89576
አልዓዛር	-9.89637
ገለዓድ	-9.90085
ስስ	-9.90259
▁ለሕዝቡ	-9.90266
መጥቶ	-9.90278
▁እጁን	-9.90306
▁ተብሎ	-9.9031
የሚለው	-9.90316
የሚችል	-9.90316
አበኔር	-9.9032
▁ፈቃድ	-9.90711
አልሁ	-9.90796
እነዚያ	-9.9084
▁ነኝ።	-9.90847
አንዲት	-9.90969
▁እንጨት	-9.90977
▁ምሳሌ	-9.91135
አልነበረም	-9.91147
▁ሁለቱ	-9.91194
▁ሰማይ	-9.91273
▁የዘላለም	-9.91519
ፍየል	-9.91551
▁እነዚህን	-9.91599
ታውቃላችሁ	-9.91652
መለሱ	-9.91762
ተራሮች	-9.91786
▁ካህኑ	-9.91801
▁ጽድቅ	-9.91839
ትዕቢት	-9.9192
▁መስፈሪያ	-9.91974
ባይ	-9.9206
▁ዓይን	-9.92135
ምልክት	-9.92245
▁አይደለም።	-9.92304
▁ስንኳ	-9.92434
a	-9.9246
ሚስቱ	-9.92759
▁በልቡ	-9.93004
ፈቃድ	-9.93144
አድርግ	-9.93192
▁አለው፤	-9.93253
▁አምላኬ	-9.93333
▁ጊዜም	-9.93522
ሰውም	-9.93542
አፈር	-9.93545
ጠላቶቻቸው	-9.9355
ወረዱ	-9.9355
▁ባሪያህ	-9.93561
እናቱ	-9.93564
ምድሪቱ	-9.93574
መጠጥ	-9.93575
▁ኤርምያስ	-9.93658
▁ጆሮ	-9.93677
▁ዳዊትን	-9.93686
ይዘው	-9.93743
▁ቅጥር	-9.93758
▁ቤቱ	-9.93919
ቃልህ	-9.94077
▁አድርገው	-9.94308
▁ወጣ፥	-9.9436
ወገኖች	-9.94475
መብል	-9.94536
ለእኔ	-9.94581
ሕዝቅያስ	-9.94702
▁በሕዝቡ	-9.94907
ኤልያስ	-9.95109
▁ብላ	-9.95123
አሞራውያን	-9.95153
▁ኋላ	-9.95202
አካዝ	-9.95205
ገሊላ	-9.95418
▁ባየ	-9.95473
መጨረሻ	-9.955
ማናቸውም	-9.95525
ያደርጋል	-9.95552
▁ዕጣ	-9.95759
▁ያሉትን	-9.95768
▁ለንጉሡ	-9.95884
አሞን	-9.95933
እድል	-9.95987
ሁለተኛው	-9.96057
▁ነፋስ	-9.96065
ሦስቱ	-9.96118
ዘወትር	-9.96169
▁የሚል	-9.96217
▁ስጦታ	-9.96328
▁ምርኮ	-9.96434
ሰፈር	-9.96438
አስቀድሞ	-9.96577
▁ሆነው	-9.96594
▁ይዘው	-9.96694
ከእኛ	-9.96716
▁ናት፤	-9.96729
ውጣ	-9.96803
መርዶክዮስ	-9.96893
ጸልይ	-9.96893
ዓይኔ	-9.96893
ጠላቶችህ	-9.97142
▁ወደዚህ	-9.97187
ሐዋርያት	-9.9739
ፊተኛው	-9.97696
ከለዳውያን	-9.97783
በትር	-9.97804
▁ባድማ	-9.97861
እነዚህን	-9.97872
▁እርሻ	-9.97946
እላችኋለሁ	-9.98041
እርሱን	-9.98079
▁በጎች	-9.98102
▁ተቀምጦ	-9.98122
ተናገር	-9.9818
▁በውኃ	-9.98245
▁ጌታዬ	-9.98258
▁ሰሎሞን	-9.9828
ሳን	-9.98339
አባታችን	-9.98608
▁ሂዱ	-9.98608
ርስቱ	-9.98673
ገደሉ	-9.98707
▁አለችው።	-9.98787
ፍርሃት	-9.98901
በሰ	-9.98908
ሳኦልን	-9.98945
▁በመሠዊያው	-9.98965
እውቀት	-9.99041
አክዓብ	-9.99378
ያሉ	-9.99711
▁የነበሩትን	-9.99721
ለእናንተ	-10.0007
▁አለች።	-10.0008
ቤቱም	-10.0011
እግሩ	-10.0023
▁እያሉ	-10.0025
በቀል	-10.0035
ኤልሳዕ	-10.0035
▁አሳብ	-10.0036
በላይ	-10.0038
ጠላት	-10.0045
▁መጥተው	-10.0054
▁በሰው	-10.0065
ሥራቸው	-10.0067
በእርስዋም	-10.009
▁ወገኖች	-10.0113
አንዳች	-10.0127
ሰማርያ	-10.0139
ለት።	-10.0161
ነገረ	-10.0164
እንደዚህ	-10.0166
▁በአንድነት	-10.017
አላት	-10.018
▁መጥቶ	-10.0184
በሮች	-10.0189
ሆነች	-10.02
ጠሉ	-10.02
▁በኢየሱስ	-10.0206
ልጆቹን	-10.0209
ሁልጊዜ	-10.0212
አስቴር	-10.0213
አጠፋለሁ	-10.0213
መገናኛው	-10.0219
ድካም	-10.0223
▁በብዙ	-10.0238
ብል	-10.0266
▁ቍጥር	-10.0267
▁ልጆች፤	-10.0269
▁አድርግ	-10.027
▁ያሉት	-10.0275
ፈረሶች	-10.0276
ሳለች	-10.0282
ሰረገሎች	-10.0292
ሊባኖስ	-10.031
▁አንዲት	-10.0319
አባቱን	-10.0326
▁ሠራዊት	-10.033
▁ነኝና	-10.0333
ሰጡት	-10.0334
በት።	-10.0348
የእግዚአብሔርንም	-10.0353
▁ልብሱን	-10.0372
ግብፃውያን	-10.0383
ዙፋኑ	-10.0386
አምባ	-10.0388
መንግሥታት	-10.0393
ቀርበው	-10.0393
ተግሣጽ	-10.0393
ታውቃለህ	-10.0393
ድንጋጤ	-10.0393
ሰጣችሁ	-10.0394
ክፍል	-10.0413
▁እርሱን	-10.042
ተመለሱ	-10.0425
ረብ	-10.0439
▁አይደለም፤	-10.0442
▁እኛም	-10.0442
▁ሰባ	-10.0444
▁ለዳዊት	-10.0457
ፍቅር	-10.0481
▁አልሁ።	-10.0485
በሰይፍ	-10.0487
▁ፀሐይ	-10.0488
▁በእነርሱ	-10.0489
ምክንያት	-10.0491
▁አደረጉ።	-10.0499
የወርቅ	-10.0517
▁ሰዓት	-10.0529
▁እኔን	-10.0532
ያድር	-10.0538
የነበረውን	-10.0544
ይቅር	-10.0571
▁ወፎች	-10.0577
▁ጥሩ	-10.0577
አባታቸው	-10.058
በሬዎች	-10.0586
ሆድ	-10.0586
ዙፋን	-10.0587
ሰነፍ	-10.0589
▁አምላካችን	-10.0594
▁ሁለተኛው	-10.0616
የዚህ	-10.0622
ይህች	-10.0626
ምድርም	-10.0635
መጥተው	-10.0653
▁ነውና፤	-10.0668
ምድሪቱም	-10.0677
ካህናቱ	-10.0699
ነፍሱ	-10.0706
▁ወዲያ	-10.071
መልክ	-10.072
▁ወጣ፤	-10.0729
እጅግም	-10.0732
▁ፍቅር	-10.0757
ደማስቆ	-10.0758
ሁኑ	-10.0763
ወልድ	-10.0765
መጻተኛ	-10.0765
▁ባል	-10.0766
ጠማማ	-10.0767
▁ናት።	-10.077
ያላችሁ	-10.077
▁በባሕር	-10.0774
ካለ	-10.0775
ደቡብ	-10.0794
ተናገርሁ	-10.0805
ተለየ	-10.0813
የይሁዳም	-10.0825
▁በአሥራ	-10.0838
ስፍራው	-10.0863
ዳዊትን	-10.088
▁የነበሩት	-10.0889
ሰደደ	-10.089
ርኵሰት	-10.0898
አባቶቻችን	-10.09
▁የተቀደሰ	-10.0916
▁የለም፤	-10.0923
መልከ	-10.0924
ታደርግ	-10.0924
በንጉሡ	-10.0932
አለች	-10.0941
ፈረሰ	-10.0951
ተፈጸመ	-10.0956
አንዲቱ	-10.0956
ኢሳይያስ	-10.0956
ለይ	-10.0957
▁በእጅህ	-10.0974
ልብሱን	-10.098
ማደሪያ	-10.098
ያይ	-10.1002
▁መብል	-10.1006
▁የነበሩ	-10.1009
▁በርሳቸው	-10.103
በሰው	-10.1042
▁አወጣ	-10.1046
▁ያሉ	-10.1052
▁በሌሊት	-10.1052
▁በከንቱ	-10.1053
▁ክፋት	-10.1076
ከግብፅ	-10.1087
በታላቅ	-10.1127
መስፈሪያ	-10.1143
ዘመኑ	-10.1144
ቀንም	-10.1145
ነቢይ	-10.1148
ተራራማው	-10.1148
▁ወይን	-10.115
ሮብዓም	-10.1151
ተቈጣ	-10.1151
እሾህ	-10.1151
ክርክር	-10.1151
ይናገራሉ	-10.1151
ፈጽመው	-10.1151
ፍየሎች	-10.1151
ከምድር	-10.1154
አደርጋለሁ	-10.1154
ይኖራል	-10.1155
ገመድ	-10.1156
ካህን	-10.1171
እኔን	-10.1192
▁በእኛ	-10.12
በሰማይ	-10.1205
መንጋ	-10.122
አባቶቻቸው	-10.1236
አዲስ	-10.1236
ያደረ	-10.1236
ይመለስ	-10.1237
▁ነውር	-10.1242
ዳንኤል	-10.1263
▁ያዕቆብም	-10.1281
▁ብዙዎች	-10.1291
▁ወደዚያ	-10.1297
የሆነውን	-10.1304
▁አንዱን	-10.1304
▁በቤቱ	-10.1307
እናቱም	-10.1307
ከእንግዲህ	-10.131
▁ኢያሱም	-10.1319
በመንገድ	-10.1319
▁ሌሎች	-10.132
▁ጊዜ።	-10.1322
አፍህ	-10.1325
የይሁዳ	-10.1327
ተቈጠሩ	-10.1348
ልዑል	-10.135
በሐሰት	-10.135
አሴር	-10.135
ዘካርያስ	-10.135
ፈረሰኞች	-10.135
▁ካህን	-10.1352
እልፍ	-10.1358
ተከለ	-10.1358
አንዱም	-10.1359
▁ልጁን	-10.1366
▁ናቸው፥	-10.1375
▁በራሱ	-10.1377
▁ነፍሴን	-10.1393
መባ	-10.1396
▁በመንፈስ	-10.1405
▁ባቢሎን	-10.1417
ራእይ	-10.1436
ላቸው።	-10.1442
▁ከይሁዳ	-10.1444
ትሰማ	-10.1445
ሰዎችም	-10.1454
በረከት	-10.146
መሥዋዕትና	-10.1468
▁ተነሥ	-10.1481
▁ጭፍራ	-10.1484
▁ጽኑ	-10.1484
ወይኑ	-10.149
መላእክት	-10.15
ሕዝብህ	-10.1517
እያንዳንዱም	-10.153
ይላሉ	-10.1548
▁ሄዱ።	-10.1551
መዝገብ	-10.1552
ኢዮራም	-10.1552
አፋቸው	-10.1553
መፍራት	-10.1553
▁የሚቃጠለውን	-10.1563
አሕዛብም	-10.1594
የአገሩ	-10.1597
በእጁ	-10.1606
▁መጡ።	-10.1609
ሆናችሁ	-10.1612
ባድማ	-10.1619
እጁን	-10.1633
ለእርሱ	-10.1636
▁የዚያን	-10.1646
▁ነውና፥	-10.1649
መታው	-10.1655
▁አንተን	-10.1658
▁ይሆናሉ።	-10.1662
በዓል	-10.1666
ራራ	-10.1668
▁የብር	-10.1668
ስምንት	-10.1684
ሴዴቅያስ	-10.169
▁በዮርዳኖስ	-10.1693
ባላ	-10.1694
በክርስቶስ	-10.171
ንቃ	-10.1718
የዘላለም	-10.1732
▁በሆነ	-10.1749
ትተው	-10.1756
አትፍሩ	-10.1759
ከነዓናውያን	-10.1759
ያጸና	-10.1759
እፍረት	-10.1759
▁ይወጣል	-10.1765
በላቸው	-10.1766
በግብፅ	-10.1772
ርግብ	-10.1778
በኢየሩሳሌምም	-10.1788
ሴቲቱ	-10.1789
ጀመረ	-10.1813
ሰባተኛው	-10.1815
በሉት	-10.1818
ስተው	-10.1821
▁ተቀመጡ።	-10.1824
▁ለሰው	-10.1833
ያድን	-10.1842
የሰጠ	-10.1842
ምክር	-10.1845
እስራኤልን	-10.1855
ወንዶች	-10.1859
የምድር	-10.1862
ያገለግሉ	-10.1862
ኖረው	-10.1862
ሰማሁ	-10.188
ልያ	-10.1884
▁ምክር	-10.1884
▁ሥልጣን	-10.1884
▁ወንድም	-10.1901
አለቆችና	-10.1902
ብሉ	-10.1916
▁ቢኖር	-10.1938
እኛም	-10.1939
ኢዮሣፍጥ	-10.194
▁በሰማ	-10.1954
▁እያንዳንዱ	-10.1958
ራሔል	-10.197
ተመለከተ	-10.197
ፈረስ	-10.197
ነገራቸው	-10.1971
ልካ	-10.1971
▁ኃጢአትን	-10.1975
አትፍራ	-10.1975
እባብ	-10.1975
ገለባ	-10.1978
አሳብ	-10.1995
ሰሎሞንም	-10.1995
ወርዱም	-10.2006
▁ካለው	-10.2008
ንጉሡን	-10.2012
▁ጥበብ	-10.202
ትሆናለች	-10.203
▁የሚኖሩ	-10.2035
ጠርቶ	-10.2036
▁የነበረው	-10.2041
▁ሰልፍ	-10.2048
ወሰዱ	-10.2051
ጣለች	-10.2057
▁ድረስ፥	-10.2065
▁በዓል	-10.2067
▁ዕለት	-10.2067
መታሰቢያ	-10.2074
ያመጣ	-10.2074
▁ስምንት	-10.2076
ዘላለም	-10.2097
▁ዮሐንስ	-10.2098
ልጆቻቸውን	-10.2099
በለው	-10.2108
ስንኳ	-10.2117
ወዲያውም	-10.2121
▁አይደለም	-10.2123
▁ገንዘብ	-10.2124
ፈልግ	-10.2131
አደረ	-10.2132
ተሰጠ	-10.2133
ጥና	-10.2138
▁ፍጻሜ	-10.2139
▁ምድርን	-10.2161
እነዚህም	-10.2172
ፈጠረ	-10.2183
በረዶ	-10.2184
ሂድ፥	-10.2186
ሥጋዬ	-10.2186
ነገዶች	-10.2186
ጠቢባን	-10.2186
ሰበሰበ	-10.2187
▁በትር	-10.2188
▁ደጅ	-10.2194
ወርዱ	-10.2195
ቤቱን	-10.2196
ከፋ	-10.2204
▁በስተ	-10.2227
መጣሁ	-10.2234
▁ጨለማ	-10.2237
ቍጣዬ	-10.2239
ከነዓን	-10.2244
ሞገስ	-10.2247
▁ተናገር	-10.2247
▁ርኵሰት	-10.2252
▁የሚሆን	-10.2253
▁ወዳለው	-10.2253
ያንን	-10.2256
ይበላ	-10.2262
▁ከሕዝቡ	-10.2275
▁በደል	-10.2292
▁የባቢሎን	-10.23
አድርገው	-10.2305
አድርጉ	-10.231
ያገባ	-10.2316
▁ሰውም	-10.2321
እጁንም	-10.2322
▁በምን	-10.2325
ተብሎ	-10.2348
ነውን	-10.235
ውኆች	-10.2375
መጀመሪያ	-10.2385
ይሁኑ	-10.2394
ጠራቸው	-10.2401
በኵራት	-10.2407
ተጕዘው	-10.2407
አርጤክስስ	-10.2407
እስማኤል	-10.2407
ጠይቅ	-10.2407
ሁላችን	-10.2407
አደረግሁ	-10.2407
ውሰዱ	-10.2409
ርስታቸው	-10.2411
▁ወንጌል	-10.2411
መከር	-10.2424
▁በዚህም	-10.2427
በደሉ	-10.2433
ያሉትን	-10.2458
ማኅፀን	-10.2485
ደረሱ	-10.2489
የሚል	-10.2496
ሥልጣን	-10.2498
በፊት	-10.2503
ወዲያ	-10.2507
ሰረገላ	-10.2545
ዕጣን	-10.2546
መዛሙርቱ	-10.2547
▁ሞገስ	-10.257
በአሕዛብ	-10.2576
▁ፍርድን	-10.258
ሌላው	-10.2581
ወደዚህ	-10.2593
▁ልቅሶ	-10.2631
ልጆቼ	-10.2632
ሰነፎች	-10.2632
ቤርሳቤህ	-10.2632
አዳም	-10.2632
እናገራለሁ	-10.2632
ከወሩም	-10.2632
ዓመፀኞች	-10.2632
ያስነሣ	-10.2632
ይሳኮር	-10.2632
ጣዖት	-10.2632
▁ነቢይ	-10.2636
በለስ	-10.2641
ፈርዖንም	-10.2641
ያለች	-10.2643
▁ጕድጓድ	-10.2645
▁ኤልያስ	-10.2646
አባቱም	-10.2647
ባሪያዬ	-10.2655
ይበል	-10.266
▁በፍጹም	-10.2677
ሰጣት	-10.2678
ቅርብ	-10.2686
▁መጣ፥	-10.2687
▁ሰፈሩ።	-10.269
ተቀምጦ	-10.2691
ከተማይቱም	-10.2697
▁ከግብጽ	-10.27
አውቃለሁ	-10.27
ዓይኖችህ	-10.2701
▁የሰማይ	-10.272
መልሰው	-10.2722
▁ሰሎሞንም	-10.2746
ሌዋውያኑም	-10.275
ያለበት	-10.2764
▁ተጻፈ	-10.2786
ውሰድ	-10.2793
▁ቃሉን	-10.2799
መሆን	-10.2804
ግንብ	-10.2806
▁በፊታቸው	-10.2818
ጊዜም	-10.2827
ጀመር	-10.2836
የለውም	-10.2847
የነበሩትን	-10.2847
መሰንቆ	-10.2863
እረኞች	-10.2863
ዓመፀኛ	-10.2863
ዮአስ	-10.2863
ገባዖን	-10.2863
ጠባቂ	-10.2863
ጥበበኞች	-10.2863
እሳቱ	-10.2864
ሌላቸው	-10.2864
መናገር	-10.2864
እረኛ	-10.2864
በናያስ	-10.2865
አካል	-10.2885
ኤፍሬም	-10.2885
አንዱን	-10.2893
እያሉ	-10.2904
▁ጴጥሮስ	-10.2907
በኛ	-10.2908
መራራ	-10.291
ትሆኑ	-10.2925
▁የአሕዛብ	-10.2925
▁ወንዶች	-10.2932
▁ሰላምታ	-10.2941
ተከተሉት	-10.2949
▁እግዚአብሔር፤	-10.2954
ነገረው	-10.2967
ኢያሱም	-10.297
▁ጠቦት	-10.297
▁ተናገረ።	-10.2972
ዕለት	-10.2992
ስራ	-10.2993
▁ታላቁ	-10.3007
▁ነበረች።	-10.3015
▁ኢያሱ	-10.3027
▁ኃያላን	-10.3029
ገደለው	-10.3032
▁አንበሳ	-10.3042
ጠላቶች	-10.3065
▁ሁለቱን	-10.3075
▁ሄደ፥	-10.3079
ሶርያውያን	-10.3085
▁ዙፋን	-10.3088
ቸነፈር	-10.3092
መድኃኒት	-10.3096
▁ዮሴፍም	-10.3097
ባሪያዎቹን	-10.3099
ወዳጆች	-10.3099
▁አሜን	-10.3099
▁ዛፎች	-10.3099
ለንጉሡ	-10.3102
ይወጣሉ	-10.3105
ግርማ	-10.3107
ይቀመጥ	-10.3139
ናቡከደነፆር	-10.3142
ምናምን	-10.3144
ኃጢአታቸውን	-10.3154
አጋንንት	-10.3157
ድብ	-10.3171
▁አሳልፌ	-10.3172
▁ለፊት	-10.3173
ያሉት	-10.3174
ያውቃል	-10.3183
ምድራቸው	-10.3193
መልሳ	-10.3194
ከብንያም	-10.3241
ይሄዳል	-10.3242
ከተማይቱን	-10.3253
ወለደች	-10.3258
▁ፍጹም	-10.326
ቀንደ	-10.3265
ዝናብ	-10.3272
ዮናታን	-10.3278
▁ይህችን	-10.3285
ስድብ	-10.3287
እሰጣለሁ	-10.3296
▁ገብቶ	-10.3314
ኢዮስያስ	-10.3314
▁ተቀመጠ።	-10.3326
ባሉት	-10.3334
▁በመካከላቸው	-10.3337
▁ሄደ፤	-10.3337
▁እንዳዘዘ	-10.3337
በውኃ	-10.3339
መንፈሱ	-10.3341
መጋረጆች	-10.3341
ነገሩን	-10.3341
ነፍሰ	-10.3341
አባታችሁ	-10.3341
ይቀመጡ	-10.3341
ይነሣል	-10.3341
ፍላጻ	-10.3341
ምኵራብ	-10.3341
ሰውዮው	-10.3341
ይደረግ	-10.3341
አጥንት	-10.3343
ትሄድ	-10.3343
▁እነዚህም	-10.3344
ይናገር	-10.3347
ማኅበሩ	-10.3349
ያላቸው	-10.3352
ሆኖአል	-10.3356
ዮርዳኖስ	-10.3357
ካህናቱም	-10.3359
▁ከሰው	-10.3369
ወንድም	-10.3372
ያድርግ	-10.3382
በኢየሱስ	-10.3402
ሰዓት	-10.3405
እንግዶች	-10.3413
እንግዳ	-10.3414
ሌላውን	-10.342
▁አድርጌ	-10.3447
▁የታመነ	-10.3451
▁እባክህ	-10.3451
▁ከእርስዋ	-10.3451
ባቢሎን	-10.3454
▁ይላሉ።	-10.3456
ውኃውም	-10.3458
በመሠዊያው	-10.346
ብሎአልና	-10.3462
ማርያም	-10.3483
▁አራዊት	-10.3487
በብዙ	-10.3488
የቀረውም	-10.3491
በርሳቸው	-10.3494
አንተን	-10.3509
▁አገባ	-10.3516
ወደደ	-10.3517
ድንቅ	-10.3517
እንስሶች	-10.3518
መጋረጃ	-10.353
▁እንዳዘዘው	-10.3533
ታመን	-10.3535
ማለት	-10.3535
ዋይ	-10.3543
▁ነቢያት	-10.3545
ግልሙትና	-10.3565
ይቀር	-10.3577
ምድሩን	-10.3582
▁ሆነች	-10.3583
መልአኩ	-10.3589
ራእዩ	-10.3589
ሴይር	-10.3589
ቃዴስ	-10.3589
አህዮች	-10.3589
አሜስያስ	-10.3589
ከደቀ	-10.3589
▁ሙሉ	-10.3589
አካዝያስ	-10.359
ይሄድ	-10.3591
▁ደጃፍ	-10.3594
በእነርሱ	-10.3603
▁ቀድሞ	-10.3613
▁መለሰ	-10.3623
▁መጀመሪያ	-10.3626
▁የኢየሱስ	-10.3627
ሆና	-10.3637
እናቱን	-10.3648
ሥራውን	-10.3653
በይሁዳም	-10.3653
▁መግቢያ	-10.3666
ይኖር	-10.3681
▁በእምነት	-10.3693
ይገደል	-10.3696
▁ቃሌን	-10.3697
▁በረከት	-10.3704
በአንድነት	-10.3706
▁ራሱ	-10.3722
ይሰማ	-10.3724
ጣፋጭ	-10.373
አገልግሎት	-10.3731
▁ጠጕር	-10.3738
▁ተነሥተው	-10.3741
ገደል	-10.3745
▁የያዕቆብ	-10.3756
ወሰደው	-10.3757
▁በኵር	-10.3758
▁ዘወር	-10.3758
▁ሠራ።	-10.3763
▁በዳዊት	-10.3773
ቀንበር	-10.3774
ነፍሴን	-10.378
▁አምላካችሁ	-10.3784
የነበሩት	-10.3792
ከፈተ	-10.3798
▁አለን	-10.3798
ኃጢአትን	-10.381
ይወድቃሉ	-10.3817
ምስክሩ	-10.3821
መርከብ	-10.3829
የተቀደሰ	-10.3831
ምድያም	-10.3834
ምድርን	-10.3834
ተገኘ	-10.3835
ሠራ፥	-10.3835
▁በገባ	-10.3836
አምላኩ	-10.3837
▁ሳሙኤልም	-10.3837
▁ወለደ።	-10.384
ኢትዮጵያ	-10.384
ቃሎች	-10.3844
ታላቂቱ	-10.3844
ትንሣኤ	-10.3844
ነበልባል	-10.3844
አስተዋይ	-10.3844
አንዳንዶች	-10.3844
እናቴ	-10.3844
ዓመታት	-10.3844
ዓዛርያስ	-10.3844
የሚበላ	-10.3844
ስእለት	-10.3844
መርገም	-10.3844
በእጅህ	-10.3844
ያመጡ	-10.3854
ጠሩት	-10.3855
ውረድ	-10.3863
ባልንጀራህ	-10.3864
ልባችሁ	-10.3871
መጣች	-10.3877
አሮንም	-10.3879
▁ምናልባት	-10.3884
▁እንዳደረገ	-10.3884
ርቃ	-10.3889
ደጅ	-10.3915
▁ለእነርሱ	-10.3934
ተመለስ	-10.3935
በአሥራ	-10.3935
▁ነበረና	-10.3935
አባቶች	-10.3939
አለችው	-10.394
ሰረገላው	-10.3944
ከበረ	-10.3947
▁እግር	-10.3949
ወጥመድ	-10.3954
▁ኢየሱስን	-10.3954
እግርህ	-10.3954
ሕዝቅያስም	-10.3958
ወሰዱት	-10.3973
▁አልነበረም።	-10.3973
አይሆንም	-10.3978
የፈርዖን	-10.3991
▁ግንብ	-10.3993
ለዳዊት	-10.3998
ጠራሁ	-10.3999
የነበሩ	-10.4002
ተቀበለ	-10.4017
▁ራእይ	-10.4028
በከንቱ	-10.4028
▁የሚያደርግ	-10.4033
▁ስድሳ	-10.4034
ይውጣ	-10.4043
▁እምነት	-10.4055
አባትዋ	-10.406
አምስቱ	-10.4063
ሳሙኤልም	-10.4088
የአሮን	-10.4089
▁ሌዋውያን	-10.4093
▁በመጣ	-10.4095
ጠበቁ	-10.4104
ሐማት	-10.4104
መንገዴ	-10.4104
መጐናጸፊያ	-10.4104
ማዕድ	-10.4104
ምስክሮች	-10.4104
ርኵስ	-10.4104
ሰልፈኞች	-10.4104
ሸማያ	-10.4104
ናዳብ	-10.4104
አርነት	-10.4104
አድርጋችሁ	-10.4104
እመልሳለሁ	-10.4104
ያደርጋሉ	-10.4104
ግብዣ	-10.4104
ፈለገ	-10.4104
ፈቃዱ	-10.4104
ፊልጶስ	-10.4104
▁ሞዓብ	-10.4104
መብራት	-10.4105
ሲናገር	-10.4105
አንገት	-10.4106
ባለጠግነት	-10.4107
ባልንጀራውን	-10.4107
ጥርስ	-10.4116
ይሰጥ	-10.4122
ነውር	-10.4123
ላማ	-10.4127
▁ነፍሱን	-10.4129
አራዊት	-10.4132
▁ተራሮች	-10.4137
የተቀደሰውን	-10.4143
ሳሙኤል	-10.4148
▁መጣ፤	-10.4154
ይስሐቅም	-10.4165
▁የሚገባ	-10.4171
ወደዚያ	-10.4175
ውያንም	-10.4177
ጠቢብ	-10.4179
▁ዝናብ	-10.418
▁መልካሙን	-10.4181
▁ወጥተው	-10.4181
▁ዱቄት	-10.4185
እናትህ	-10.4188
▁የዳዊት	-10.4211
እርም	-10.4216
▁አባቴ	-10.4233
ዮሴፍም	-10.4245
አመጡ	-10.4253
ሁላቸው	-10.4257
እነዚያም	-10.4259
ጴጥሮስ	-10.4275
▁በመገናኛው	-10.4279
መግቢያ	-10.429
ተደረገ	-10.4291
የእስራኤልንም	-10.4291
የተወለደ	-10.4297
▁እግዚአብሔርንም	-10.4299
▁ከኢየሩሳሌም	-10.4317
▁ልጁም	-10.4325
▁አቤሴሎም	-10.4327
እኅት	-10.4331
▁የሚሆነውን	-10.4339
አእምሮ	-10.4345
▁ይመጣል፥	-10.4348
ጲላጦስ	-10.4361
በመጀመሪያ	-10.4365
ይናገሩ	-10.4368
ጋለሞታ	-10.4372
አቤሜሌክ	-10.4372
ሐናንያ	-10.4372
ቅዱሳኑ	-10.4372
በቀለ	-10.4372
በደኅና	-10.4372
በፊታችሁ	-10.4372
ኪዳኔን	-10.4372
ካሌብ	-10.4372
የሚበልጥ	-10.4372
ድስት	-10.4373
ዛብሎን	-10.4379
▁የበግ	-10.438
የሚኖሩትን	-10.438
▁ነውን	-10.4382
አድርጎአል	-10.439
ኮረብቶች	-10.439
▁መጋረጃ	-10.44
ማኅበር	-10.4407
ቢኖር	-10.4414
ይናገራል	-10.4418
ከነበሩት	-10.4425
ተሰማ	-10.4425
ማመን	-10.4427
▁በእርስዋ	-10.4433
ባለችው	-10.4433
መንገዳቸው	-10.4439
ያልፍ	-10.4446
▁ግብጽ	-10.4453
መረጠው	-10.4454
በባሕር	-10.4456
▁የንጉሡ	-10.4461
▁በደስታ	-10.4468
በእኛ	-10.4469
ካሉት	-10.4473
በራሱ	-10.4474
▁ንጉሡን	-10.4475
ለራሳቸው	-10.4477
▁የተጻፈ	-10.4481
▁አልዓዛር	-10.4489
▁በሰሜን	-10.4492
▁ያደረገውን	-10.4493
መልሱ	-10.45
ፈሰሰ	-10.451
እላለሁ	-10.451
▁በቤት	-10.4518
ጠቦት	-10.4522
በፍቅር	-10.4526
በመንፈስ	-10.4529
አመስግኑ	-10.4539
ኃይልህ	-10.4543
ነበረው	-10.4543
ሰዶም	-10.4547
▁አሉ፤	-10.4554
▁ላከ።	-10.4556
እንባ	-10.4588
ኑ፥	-10.4598
ይመጡ	-10.46
▁በዙሪያው	-10.4624
ወርቅና	-10.463
ተቀበል	-10.4632
በዮርዳኖስ	-10.4634
ከእኔም	-10.4638
ባቸው።	-10.464
▁ያዕቆብ	-10.4641
▁በሰሙ	-10.4643
መቅሠፍት	-10.4645
በሌሊት	-10.4646
ፍልስጥኤማውያንም	-10.4646
ንገሩ	-10.4647
መሣሪያ	-10.4648
ያቀርቡ	-10.4648
ያጠፉ	-10.4648
ላሞች	-10.4648
መዳን	-10.4648
ምስሎች	-10.4648
አንዳንዶቹ	-10.4648
አይሁዳዊ	-10.4648
ያገኝ	-10.4648
ይለኛል	-10.4648
እጆች	-10.4648
ገብተው	-10.4648
መግባት	-10.4649
ረጅም	-10.4651
▁መድኃኒት	-10.4651
▁ተባት	-10.4653
አደራ	-10.4662
ሰጠን	-10.4663
▁በመጀመሪያው	-10.4663
የብር	-10.4665
ሰንበት	-10.4667
▁እሄዳለሁ	-10.4668
ታመኑ	-10.4669
ሥራህ	-10.468
እንዲሆኑ	-10.468
ግልጥ	-10.4694
▁ይሁዳም	-10.4694
ለእስራኤልም	-10.471
የዚያን	-10.4711
በዙሪያውም	-10.4712
በስተ	-10.4713
ተናገራቸው	-10.4714
ይለዋል	-10.4718
ተመልከት	-10.4724
▁በኋላ፥	-10.4726
▁አንዱም	-10.4727
▁ርዝመቱ	-10.4729
▁ወይፈን	-10.4732
የምድርም	-10.4737
እይ	-10.4741
ልመና	-10.4753
ይወጣል	-10.4757
ጠጕር	-10.4764
አገባ	-10.4765
ከብት	-10.4765
▁አዲስ	-10.481
▁መክሊት	-10.4812
▁ምስል	-10.4813
▁መባ	-10.4816
ያገኙ	-10.4822
▁ያደርግ	-10.4828
▁በውጭ	-10.4835
ከዘላለም	-10.4843
▁ማደሪያ	-10.4846
መረጠ	-10.4848
መሠዊያውን	-10.4862
ለካ	-10.4873
የነበረው	-10.488
በቤቱ	-10.4886
ፍርዴ	-10.4889
በሦስተኛው	-10.4904
እጃቸው	-10.4906
እጅህን	-10.4911
ትሁን	-10.4915
ፍርድን	-10.4916
▁እርሱንም	-10.492
ይሰሙ	-10.4924
ርጉም	-10.493
መዝጊያ	-10.4931
ብልሃት	-10.4931
ትዕግሥት	-10.4931
ኃጢአታችሁ	-10.4931
አሳልፈው	-10.4931
አደርገዋለሁ	-10.4931
እጆቹ	-10.4931
ወልደ	-10.4931
ይፈልጉ	-10.4931
ደረቀ	-10.4931
ድምፃቸው	-10.4931
ድንጋዩ	-10.4931
በደለኛ	-10.4931
እንዳይሆን	-10.4931
መታቸው	-10.4931
ድንግል	-10.4932
ትላለህ	-10.4933
▁ተነሣ፥	-10.4952
ምናሴም	-10.4952
ሠራተኛ	-10.4957
ምግብ	-10.496
መሠዊያው	-10.4965
ይሆኑ	-10.497
▁በጽድቅ	-10.4971
ዳዊትና	-10.4971
▁በየወገናቸው	-10.4975
▁የሚቃጠል	-10.4975
ቸርነት	-10.4984
ነበረበት	-10.4998
አወጣ	-10.5003
ጽድቅን	-10.5014
ስድሳ	-10.5015
▁አይተው	-10.5015
▁እጄን	-10.5027
ካለው	-10.5029
አየ	-10.5037
ትጠብቅ	-10.5038
ለሰው	-10.5041
የዳዊት	-10.5056
▁የሆነው	-10.5056
▁ክርስቲያን	-10.5058
▁ጣፋጭ	-10.5058
▁ድንበር	-10.5058
ነፍስህ	-10.5061
▁ቸርነት	-10.5064
ከይሁዳ	-10.5064
▁እውነተኛ	-10.5066
ውበት	-10.5068
▁እህል	-10.5073
▁መዛሙርቱም	-10.5073
ለዚህ	-10.5074
ገባችሁ	-10.5086
ናቸውን	-10.5092
ጠራው	-10.5097
በእኔና	-10.5097
ተከተሉ	-10.5114
▁መቃብር	-10.5118
ከኤፍሬም	-10.5121
ወዳለው	-10.5132
የሚሆን	-10.5132
ማዕዘን	-10.5136
▁በላያቸው	-10.5141
ብርና	-10.5146
ከተማይቱ	-10.5146
ባሪያዎቹም	-10.5149
▁በእርግጥ	-10.515
ምሕረት	-10.5155
ኢየሱስን	-10.5159
▁በልባቸው	-10.5167
ዕረፍት	-10.5167
▁ለልጅ	-10.5171
ሰበሰቡ	-10.5176
ወንድሞችህ	-10.5181
▁በላቸው።	-10.5182
▁አደረገ፥	-10.5192
የሚቃጠለውን	-10.5194
እስራኤልንም	-10.5195
ከበር	-10.5197
ሥራው	-10.5198
▁ለእኛ	-10.5209
▁ሰምቶ	-10.5216
የሶርያ	-10.522
ሄዳችሁ	-10.5222
ቀርቦአል	-10.5222
ቍርባናቸው	-10.5222
ኃፍረተ	-10.5222
አሸዋ	-10.5222
እንቅልፍ	-10.5222
ከሰሜን	-10.5222
ከበሩ	-10.5222
ኪዳኑን	-10.5222
ወስደህ	-10.5222
የሚነካ	-10.5222
ያስተምር	-10.5222
▁ኃያል	-10.5222
▁ንስሐ	-10.5222
▁አንሥቶ	-10.5222
መልእክተኛ	-10.5223
ትበላላችሁ	-10.5223
ገድል	-10.5225
አሮንና	-10.5231
አላችሁ	-10.5248
ገብቶ	-10.5255
ይመልስ	-10.5259
ተባለ	-10.5262
▁ወገን፥	-10.5264
አብያተ	-10.5265
ወጣች	-10.5266
▁አደረጉ፤	-10.5269
▁ታውቃላችሁ።	-10.5271
ብትሆን	-10.5273
በዚህም	-10.5279
ይሰጡ	-10.5284
እናት	-10.5286
▁ቆመው	-10.5286
▁ለዚህ	-10.5325
የአባቶቻቸው	-10.5333
ይሠራል	-10.5337
▁በመልካም	-10.5343
ብላቴናውን	-10.5352
ግብፅ	-10.5352
▁እንስሳ	-10.5363
▁ቅዱሳን	-10.5363
ከሰው	-10.5366
እውነተኛ	-10.538
ካህናቱን	-10.5385
ተቀበሉ	-10.5386
ሌላም	-10.5387
አክዓብም	-10.5388
ሰይጣን	-10.5389
▁የክርስቶስ	-10.5392
ይሁዳም	-10.5392
ድንበር	-10.5395
ከሆነ	-10.5398
▁ከንጉሡ	-10.5406
▁ሄዶ	-10.5417
ላላችሁ	-10.5419
▁በጽዮን	-10.5421
▁ትልቅ	-10.5421
▁ፈሳሽ	-10.5421
አቀረበ	-10.5422
ሁለቱንም	-10.5424
የአሞን	-10.5426
▁ምሕረቱ	-10.5434
ጠየቀ	-10.5438
▁መጡ፥	-10.5444
ሁለቱን	-10.5449
▁የእሳት	-10.5454
▁ይችላል	-10.5456
▁የኢየሩሳሌም	-10.5458
ይጠራ	-10.5465
▁ተናገረ	-10.5467
▁ሕዝቅያስ	-10.548
ልብህ	-10.5481
▁ሳይሆን	-10.5482
▁ማኅበር	-10.5483
▁ሰውን	-10.5489
▁ሰጠው።	-10.5494
ራሳቸው	-10.5495
ነፍሳቸው	-10.5496
ተመልከቱ	-10.5504
▁ይመጣሉ	-10.5506
▁ምድሪቱን	-10.5506
▁ባላ	-10.5512
ደጃፍ	-10.5517
ችግረኛ	-10.5517
ትምህርት	-10.5519
ርዝመት	-10.5522
ሽንገላ	-10.5522
ቅርንጫፎች	-10.5522
ብርታት	-10.5522
ኢይዝራኤል	-10.5522
እንዳሉ	-10.5522
ዕውሮች	-10.5522
የሌለው	-10.5522
የሚባል	-10.5522
የተዘጋ	-10.5522
ያመሰግኑ	-10.5522
ይኖራሉ	-10.5522
ጣዖታት	-10.5522
ፈልገው	-10.5522
ጭንቀት	-10.5522
ፍጥረት	-10.5522
እናገር	-10.5523
የተባረከ	-10.5526
መሆኑን	-10.5529
ሰማንያ	-10.5535
ልጆችዋ	-10.5539
ካሉ	-10.5541
▁መጡ፤	-10.5543
▁በእጃቸው	-10.5546
▁እጅህን	-10.555
ማሰማርያ	-10.5558
ወይራ	-10.5561
▁ባይ	-10.5565
▁የተሠራ	-10.5565
▁የይሁዳን	-10.5569
በሰማ	-10.5584
የኤፍሬም	-10.5586
ውኃም	-10.5586
ተጽፎአል	-10.5596
▁ጠቦቶች	-10.5597
ሸለቆው	-10.5614
▁አሮንም	-10.5614
ከግብጽ	-10.5615
▁በጨለማ	-10.5622
▁ዳግመኛ	-10.5645
▁መሰምርያዋን፥	-10.5648
▁ዳንኤል	-10.5655
▁አገልግሎት	-10.5657
▁ሁለተኛ	-10.566
▁ይላልና።	-10.5664
ይመታ	-10.5669
ምላስ	-10.5669
▁ይጠፋል	-10.5673
አይሁን	-10.5674
የሰማይ	-10.5681
ስንፍና	-10.5689
▁ሌሎችን	-10.5691
መንደሮችዋ	-10.5698
ያመልኩ	-10.5703
▁በግብጽ	-10.5705
ብላችሁ	-10.5722
▁የአንድ	-10.5725
▁የለም	-10.573
ተከተለ	-10.5744
▁በአንቺ	-10.5747
ተባለው	-10.5758
▁ናቡከደነፆር	-10.5761
▁አሮንን	-10.5765
በሆነ	-10.5775
▁መንጋ	-10.5791
ገነት	-10.5797
ማናቸው	-10.5798
እናውቃለን	-10.5804
▁መልሶ	-10.5819
▁ተመልሶ	-10.5825
ምሕረትህ	-10.5826
ያቀርብ	-10.5826
መርከቦች	-10.5831
መቅረዙ	-10.5831
መንግሥተ	-10.5831
ሥጋቸው	-10.5831
ባለጠጋ	-10.5831
ቤታቸው	-10.5831
ተለይቶ	-10.5831
አዕማድ	-10.5831
ክርስቲያናት	-10.5831
ዘመናት	-10.5831
የሚመጣው	-10.5831
ያዘዘውን	-10.5831
ድምፁን	-10.5831
ጎዶልያስ	-10.5831
ፈጽመህ	-10.5831
▁ሕዝቤን	-10.5831
እርግማን	-10.5831
ብላቴናይቱ	-10.5831
ከጥንት	-10.5833
▁ተቀምጠው	-10.5834
▁መምህር	-10.5834
አቢሳ	-10.584
ብለዋል	-10.584
▁በደቡብ	-10.5844
ልጅህ	-10.5847
አውጣ	-10.5849
የባቢሎን	-10.5849
▁ሰዎችም	-10.5856
ከአንተም	-10.5873
ድንገት	-10.5875
ደመናው	-10.5875
ከአሥር	-10.5881
▁የነበረ	-10.5887
የማምለኪያ	-10.5891
እልል	-10.5896
▁አየሁ፥	-10.5902
አድነኝ	-10.5909
ይጠፋሉ	-10.591
ባለች	-10.5913
ግምጃ	-10.5917
ይሰጣል	-10.5919
ልከው	-10.5926
ከዋክብት	-10.5941
▁እንቢ	-10.5942
▁ኤፍሬም	-10.5943
መሐላ	-10.5993
▁ያደርጉ	-10.5994
▁ከሁሉ	-10.5995
ይበላችሁ	-10.5997
ይወድ	-10.6002
ተማረ	-10.6006
ኃጢአተኛው	-10.6008
▁አሕዛብን	-10.601
ባለበት	-10.601
▁አይደለሁም	-10.6015
▁ከሙታን	-10.6015
▁በርሳችሁ	-10.6016
እሰጥሃለሁ	-10.6016
▁በሉ።	-10.6016
▁ታደርጋለህ	-10.6017
▁በቀን	-10.6029
▁ሕልም	-10.6043
▁ሞተ።	-10.6043
▁አዘዘ።	-10.6043
▁ወንድሞቼ	-10.6043
▁እነርሱን	-10.6047
አሳልፌ	-10.6053
የአባቶች	-10.6065
መልኩ	-10.6074
ወንድሙን	-10.6084
ይመለሱ	-10.6092
▁ፍርሃት	-10.6096
መጣህ	-10.6103
▁በል።	-10.6103
▁ነገርን	-10.6106
ሁልጊዜም	-10.6119
ተቀበረ	-10.6123
▁ሁላችሁ	-10.6132
ወለድ	-10.6134
ሰገዱ	-10.6135
አሮንን	-10.6138
ገበታ	-10.6139
ስምንተኛው	-10.6143
መንፈሴ	-10.615
ሰይፉ	-10.615
በግዞት	-10.615
ተገዙ	-10.615
ታንኳይቱ	-10.615
ኬልቅያስ	-10.615
ውስጠኛው	-10.615
ያለቅሱ	-10.615
ያሳድዱ	-10.615
ደረቅ	-10.615
ግመሎች	-10.615
ጭፍሮች	-10.615
መንጎች	-10.615
መዛግብት	-10.615
በጎነት	-10.615
ተሻገሩ	-10.615
ተዋጉ	-10.615
ታያለህ	-10.615
ኃጢአታችን	-10.615
ነፍሳችሁ	-10.615
እናደርጋለን	-10.615
ከንፈር	-10.615
ዕቃዎች	-10.615
የሚጠብቅ	-10.615
ይቀመጣል	-10.615
ይቀበላል	-10.615
ፈራጆች	-10.615
ያልፋል	-10.6151
በየወገኖቻቸው	-10.6151
ስርየት	-10.6151
አዋጅ	-10.6152
ርብቃ	-10.6153
አድርጌአለሁ	-10.6156
ያማረ	-10.6159
ለብሰው	-10.6162
ባደረገ	-10.617
የአሕዛብ	-10.6175
▁ደመና	-10.6183
ተቀደሱ	-10.6184
▁የከበረ	-10.6192
አባቶችህ	-10.6195
▁ኢዮሣፍጥ	-10.6196
በፍጹም	-10.6201
በጌታችን	-10.6201
ሄሮድስ	-10.6202
▁በምሥራቅ	-10.6203
ጌልገላ	-10.6204
ምስል	-10.6204
▁አጠፋ	-10.6205
ቃሉን	-10.6206
ቢሆኑ	-10.6208
▁ስሙንም	-10.6211
▁በፍርድ	-10.6214
▁የሆኑ	-10.6218
▁ከአሕዛብ	-10.622
ነደደ	-10.6226
ጥሉ	-10.6232
ቀበሩት	-10.6232
▁በባቢሎን	-10.6233
▁በወርቅ	-10.6239
እርሻው	-10.6247
▁ዘጠኝ	-10.6259
▁እኵሌታ	-10.6259
▁የሠራ	-10.6271
ደሴቶች	-10.6279
ሄደው	-10.628
▁የካህናት	-10.6287
▁በዚህች	-10.6288
ተሳለ	-10.6289
▁መስገጃዎች	-10.6294
▁ለራሱ	-10.6308
ሌላውም	-10.6309
▁ከአንቺ	-10.6314
በምን	-10.6317
አሕዛብን	-10.6318
አብያ	-10.6322
ተአምራት	-10.633
አድርጌ	-10.6332
ታላቁን	-10.6332
እባክህ	-10.6332
የታመነ	-10.6332
ፀሐይም	-10.6338
ቀድሞው	-10.6338
እንዳዘዘው	-10.6339
▁ስለዚህ፥	-10.634
በእጃችሁ	-10.6351
በመካከላቸውም	-10.6362
በገለዓድ	-10.6364
▁ምስጋና	-10.6367
ደብዳቤ	-10.6375
በሰባተኛውም	-10.6376
▁ስምዖን	-10.6378
▁ማርያም	-10.6379
ልጆችህ	-10.6389
▁ግምጃ	-10.6389
▁ይገባል	-10.6389
▁ጴጥሮስም	-10.6396
▁በከተማይቱ	-10.6409
▁አብርሃም	-10.6409
ይለው	-10.641
ሙሴንና	-10.6412
▁በእነዚህ	-10.6417
ወንድሞቹን	-10.6419
በፊታቸው	-10.6422
▁ለኃጢአት	-10.6435
አይችልም	-10.6436
▁ነበረው	-10.6437
ያውቃሉ	-10.6439
ያዋን	-10.6442
ተዋጋ	-10.645
ይገዙ	-10.6462
▁እልል	-10.6463
የተባለ	-10.6464
ዕቃውን	-10.6465
▁ባሪያዬ	-10.6468
▁ለያዕቆብ	-10.6473
መጠጊያ	-10.6477
ተሰወረ	-10.6478
ወገኑ	-10.6478
ቡቃያ	-10.648
መለከቱን	-10.648
ርቀው	-10.648
በኢያሪኮ	-10.648
አልሰሙም	-10.648
አኖራለሁ	-10.648
አያውቅም	-10.648
እርሾ	-10.648
እያንዳንዳችሁ	-10.648
ይኸውም	-10.648
▁ልሔም	-10.648
የላቸውም	-10.648
አደረግህ	-10.648
መቃብሩ	-10.6481
ፍርዱ	-10.6481
አንተና	-10.6484
▁ትቢያ	-10.6485
ወጥቶአል	-10.6489
ትቢያ	-10.6494
ሳፋን	-10.6496
በልባችሁ	-10.6498
አጥብ	-10.6505
ተጠራ	-10.6507
ባሪያውን	-10.6509
ተባት	-10.6521
አሥረኛው	-10.6527
ቍጣህ	-10.6528
ምድሪቱንም	-10.6528
ልባቸው	-10.653
▁አኖረ	-10.6534
▁ክፋትን	-10.6535
▁ሕዝቡንም	-10.6535
ከተሞችና	-10.6539
ተንኰል	-10.6545
▁ከብዙ	-10.6561
ያያሉ	-10.6562
ጨረቃ	-10.6564
ያየው	-10.6573
በሁለተኛውም	-10.6597
▁ብላቴና	-10.6601
ትላላችሁ	-10.6601
ምድሪቱን	-10.6602
በሦስተኛውም	-10.6607
ከምሥራቅ	-10.6614
አይደሉም	-10.662
ተነሥተው	-10.662
ሞላበት	-10.6621
መዝሙር	-10.6621
▁በሰባተኛው	-10.6625
ማድረግ	-10.6626
▁በእነርሱም	-10.6626
▁ይኖራል።	-10.6631
ንስር	-10.6635
▁የሕይወት	-10.6639
▁ከሆነ	-10.664
አፈሰሰ	-10.6648
ሐሰትን	-10.6654
▁ወዲያው	-10.6671
መልእክተኞችን	-10.6674
ወጣሁ	-10.6675
በእምነት	-10.668
▁በላዩ	-10.6681
የኢየሱስ	-10.6684
▁ለሚቃጠል	-10.6691
▁ምሕረት	-10.6705
▁አበዛ	-10.6706
▁ማለዳ	-10.6706
▁ነህና	-10.6706
ከመጀመሪያ	-10.6706
▁ፈርዖን	-10.6712
በላው	-10.6715
ሳለህ	-10.6728
▁ምሥራቅ	-10.6731
▁እርስዋን	-10.6734
ጠቦቶች	-10.6736
▁ስሙ፤	-10.6738
▁በገዛ	-10.6738
▁ፊቱን	-10.6738
▁ተናገራቸው።	-10.6739
ሰጠሁ	-10.674
▁እናት	-10.6764
እንዳደረገ	-10.6766
ምናልባት	-10.6766
እግዚአብሔርንም	-10.677
በቤቱም	-10.6772
▁ከአባቶቹ	-10.6774
ልባችሁን	-10.678
▁ብቻውን	-10.6786
በራሳቸው	-10.6789
መንደሮች	-10.6789
በማደሪያው	-10.679
ሰጥቶ	-10.6817
መስገጃ	-10.6821
ለደቀ	-10.6821
መታጠቂያ	-10.6821
መገረዝ	-10.6821
ሰልፉ	-10.6821
በረሃ	-10.6821
በነጋውም	-10.6821
ተናግሬአለሁ	-10.6821
ታምኑ	-10.6821
አሚናዳብ	-10.6821
አስቡ	-10.6821
አብያታር	-10.6821
አይደላችሁም	-10.6821
ኤልያብ	-10.6821
ከቤተ	-10.6821
ክህነት	-10.6821
ወዮላቸው	-10.6821
ዘርግቶ	-10.6821
የሚሰጥ	-10.6821
ድንበሩም	-10.6821
ጥቂቶች	-10.6821
ጦርነት	-10.6821
በርናባስ	-10.6821
ብድራት	-10.6821
ምድራችሁ	-10.6821
ይላቸው	-10.6821
እንደዚሁ	-10.6821
ገደላቸው	-10.6822
▁የእኔ	-10.6823
ይገዛ	-10.6824
ጴጥሮስም	-10.6824
ዕጣንም	-10.6827
ከፊትህ	-10.6834
▁በሰንበት	-10.6838
በነበረው	-10.686
አለቃው	-10.6861
▁አብርሃምም	-10.6862
▁አባቱ	-10.6865
ረከሱ	-10.6866
▁ሳኦል	-10.6867
አመድ	-10.6871
ይህችን	-10.6878
የተወደደ	-10.6879
▁ላሉት	-10.6879
▁ካህናቱ	-10.6897
▁አገኘ	-10.6904
▁ጽድቅን	-10.6908
የሚያደርግ	-10.6916
ጥዋት	-10.6917
አትክልት	-10.6917
ሕዝቡንም	-10.6918
መኖሪያ	-10.6925
በረቱ	-10.6931
ትገባ	-10.6933
ዕድሜው	-10.6933
▁አልፎ	-10.6935
ድሆች	-10.695
በመካከላቸው	-10.6951
▁ራብ	-10.6962
መልእክተኞች	-10.6971
▁መዛሙርት	-10.6973
▁እለምንሃለሁ	-10.6975
▁ተአምራት	-10.6979
▁ያዕቆብን	-10.6981
▁ያደርጋል።	-10.6993
▁ይሞታል	-10.6995
▁ገባ።	-10.6998
ብላቴናው	-10.7003
የፊተኛው	-10.7006
አምላክህም	-10.7008
ሕዝብህን	-10.7021
ሆነዋል	-10.7022
▁ስማ፤	-10.7025
ከባቢሎን	-10.7027
ነገሩት	-10.7028
የገለዓድ	-10.7036
▁ነበሩ፥	-10.7051
ከከተማይቱ	-10.7055
▁ሥራው	-10.7059
ምሕረቱ	-10.7061
▁በቍጣ	-10.7061
▁የሰውን	-10.7063
ዱቄት	-10.7065
የሚገባ	-10.7065
ወይፈን	-10.7067
እግሮች	-10.7069
▁ዘላለም	-10.7069
ከእርስዋ	-10.707
ርዝመቱ	-10.7071
ወጥተው	-10.7071
መልካሙን	-10.7071
▁ጠርቶ።	-10.7074
▁ጠቢብ	-10.7075
▁ጕልማሳ	-10.7075
ሦስተኛ	-10.7088
ላሉት	-10.7093
ብልህ	-10.7094
▁መጨረሻ	-10.7112
▁ለአሕዛብ	-10.7114
▁ልጅህ	-10.7126
▁ሳሙኤል	-10.7147
▁የናስ	-10.7148
ብላቴና	-10.7152
▁ይሰማ	-10.7155
▁ጥላ	-10.7159
ሰገደ	-10.717
ከበቡ	-10.7173
ተናግሮ	-10.7174
መሳፍንት	-10.7174
መድኃኒቴ	-10.7174
ሜሱላም	-10.7174
ተጠንቀቅ	-10.7174
አላውቅም	-10.7174
አምኖን	-10.7174
አድርገሃል	-10.7174
ኢያቢስ	-10.7174
እስትንፋስ	-10.7174
ወገኔ	-10.7174
ዘለፋ	-10.7174
ይቀመጣሉ	-10.7174
ዲያብሎስ	-10.7174
ገንዘቡ	-10.7174
ተከትለው	-10.7174
በላያችን	-10.7174
አመጣለሁ	-10.7174
ያቀርባል	-10.7174
ይሰጠዋል	-10.7176
▁ከጥሩ	-10.7176
መምጣት	-10.7177
▁ሰምተው	-10.7178
ንፍታሌም	-10.7182
ለወንድሞቹም	-10.7186
ገብስ	-10.7187
ለምኑ	-10.7189
አትበል	-10.719
ልማድ	-10.7196
▁ያውቃሉ።	-10.7203
ሰገነት	-10.7214
ለዘላለምም	-10.7216
▁ይሁኑ።	-10.7218
ኢዮአብም	-10.7223
▁መንገዱን	-10.7226
አስብ	-10.723
አውሬው	-10.7234
▁በሌላ	-10.7242
ቃሌን	-10.7246
የሌለበት	-10.7249
በመገናኛው	-10.7249
▁ካህናቱም	-10.725
▁ኢዮአብም	-10.7251
▁በኃይል	-10.7253
ነፍሱን	-10.7254
▁ኢየሩሳሌምን	-10.7255
አልቻሉም	-10.7267
ይመለሳል	-10.7267
እሴይ	-10.7269
ይበሉ	-10.727
▁ሰፈር	-10.7271
ከኢየሩሳሌም	-10.7277
ለእርሱም	-10.728
▁እግሮች	-10.728
▁ድንጋዮች	-10.7281
▁እያለ	-10.7297
ይሠራ	-10.7315
ባየ	-10.7327
የበግ	-10.7333
እሆን	-10.7338
ካራ	-10.7342
ዘርፍ	-10.7345
ሥራችሁ	-10.7354
ከአሥራ	-10.7368
▁በመጡ	-10.7368
▁ጥበብን	-10.7371
▁አደርጋለሁ	-10.7372
በደስታ	-10.7375
ክርስቲያን	-10.7377
በሰሜን	-10.7377
▁ምሕረትን	-10.7379
ለፊት	-10.7382
▁ሰዎችን	-10.7383
ያደረገውን	-10.7383
የተጻፈ	-10.7384
▁ትሆናለህ	-10.7384
▁አንጻር	-10.7384
▁እጃቸውን	-10.7396
▁ቸር	-10.741
▁ፍየል	-10.7412
የተነገረ	-10.7414
የሚሆነውን	-10.7414
ባረከ	-10.7416
▁ምኞት	-10.7416
▁በቤተ	-10.7416
▁ነህ፤	-10.7416
▁እኩሌታ	-10.7416
▁ፈጥኖ	-10.7416
▁ብላችሁ	-10.7421
▁ዮርዳኖስን	-10.7425
ሆንን	-10.7429
ስጥ	-10.743
ሐዋርያ	-10.7432
ምሥራቅ	-10.7439
ይበላል	-10.745
በዳዊት	-10.7452
እርሱንም	-10.7454
▁አየሁ፤	-10.7461
▁ልብህ	-10.7462
▁በሰላም	-10.7463
ተሰጠው	-10.7464
▁ይሆናሉ፤	-10.7466
ብሎአል	-10.7466
▁ተመለሱ።	-10.7471
▁የለምና	-10.7477
▁ክፉን	-10.7485
የተጠራ	-10.7488
▁ከእነዚህ	-10.749
▁ዓይኖች	-10.7502
▁ይሆናልና	-10.7512
እሄዳለሁ	-10.7512
ጸለየ	-10.7513
ይባላል	-10.7514
በፈርዖን	-10.7525
ግቢ	-10.7538
አቀረቡ	-10.7539
የሚሄዱ	-10.754
ልጆቻችን	-10.754
መሥዋዕቱ	-10.754
መቄዶንያ	-10.754
መጻሕፍት	-10.754
ሚክያስ	-10.754
ምርኮኞች	-10.754
ሠራተኞች	-10.754
በየዓመቱ	-10.754
ባኦስ	-10.754
ተርሴስ	-10.754
ተቀበላችሁ	-10.754
ንግሥቲቱ	-10.754
አመሰግንሃለሁ	-10.754
አቁማዳ	-10.754
እምነታችሁ	-10.754
የሚያህል	-10.754
ያልፉ	-10.754
ጕድጓዱ	-10.754
ፈሳሾች	-10.754
ፍልስጥኤም	-10.754
ይመለሳሉ	-10.754
ከብር	-10.754
አንገቱ	-10.754
ለመለመ	-10.754
አዲሱ	-10.754
መከራቸው	-10.7542
ጆሮአቸው	-10.7542
ከመስፈሪያው	-10.7542
ስፍራቸው	-10.7543
ላደርግ	-10.7543
የያዕቆብ	-10.7544
ትበላ	-10.7546
በሰሙ	-10.7546
እንግዲያስ	-10.7547
ውደድ	-10.756
አንበጣ	-10.7563
▁ፈርዖንም	-10.7564
ጥራቸው	-10.7565
▁ልባቸው	-10.7576
ሳንቃ	-10.759
▁በመቅደስ	-10.7592
▁በእጄ	-10.7595
▁ከወዴት	-10.7596
▁አድርገህ	-10.7596
▁የሚመስል	-10.7596
ማደሪያውን	-10.7602
▁አውሬ	-10.7602
የሆኑት	-10.7606
የአምላክህን	-10.7624
▁ይሠራ	-10.7626
▁አድርጉ	-10.7627
▁ሄደው	-10.7628
ውኃውን	-10.7633
በመጀመሪያው	-10.7636
ያዕቆብን	-10.7656
▁መውጫ	-10.7658
▁ሰንበት	-10.7664
ትርፍ	-10.7665
▁ዮናታን	-10.7666
ይስጥ	-10.7671
▁ግብፅ	-10.7672
ከፍልስጥኤማውያን	-10.7694
መክሊት	-10.7696
መሠረት	-10.7697
ታላላቆች	-10.7698
▁ሰዎቹም	-10.7705
ሦስተኛው	-10.7714
ይጠጣ	-10.7718
በሌሊትም	-10.7732
ወደዱ	-10.7733
▁ሰማያት	-10.7744
▁ሙሴን።	-10.7773
▁ፈረሶች	-10.7784
መዛሙርቱም	-10.7797
▁የሞዓብ	-10.7812
▁ዓይነት	-10.7812
▁ተመልሰው	-10.7813
▁ዳዊትም።	-10.7817
▁በእርሻ	-10.7822
▁በዚያች	-10.7825
▁ፍልስጥኤማውያንም	-10.7836
አሰበ	-10.784
▁በድንጋይ	-10.784
▁ሴቲቱም	-10.785
በየወገናቸው	-10.786
የሚቃጠል	-10.786
▁በብር	-10.786
▁የአብርሃም	-10.7865
የተሠራ	-10.7868
▁ራስህን	-10.7873
ቈረጠ	-10.7874
▁ሰላምን	-10.7876
▁ለሰልፍ	-10.7877
ልብሳቸው	-10.7878
▁ይኖራል	-10.7881
አሕዛብንም	-10.7886
አይገኝም	-10.7893
▁የአሦር	-10.7893
አይተው	-10.7899
አውድማ	-10.7905
አድን	-10.7905
▁ሆኜ	-10.7916
ሰጡአቸው	-10.792
ቀደመው	-10.792
ባርኩ	-10.792
አማካሪ	-10.792
እንደሚገባ	-10.792
የሚጠሉ	-10.792
ያመነ	-10.792
ማረኝ	-10.792
ማኅተም	-10.792
ሞተች	-10.792
ሰረገሎቹ	-10.792
ሳንቆች	-10.792
ቀርሜሎስ	-10.792
ቀደደ	-10.792
ቈነጃጅት	-10.792
አሳልፈህ	-10.792
አንበሶች	-10.792
አዘጋጅ	-10.792
አዶንያስ	-10.792
አገልጋይ	-10.792
እንኪያስ	-10.792
እንደሚሆን	-10.792
ክንዱ	-10.792
ወይፈኖች	-10.792
ወዳለበት	-10.792
ይሞታሉ	-10.792
ዳሰሰ	-10.792
ፀነሰች	-10.792
▁ክንፍ	-10.792
እግራቸው	-10.7921
ልባችን	-10.7921
ይሁንላችሁ	-10.7921
▁ትምህርት	-10.7923
ጠበቀ	-10.7937
ሁለተኛ	-10.7938
ተድላ	-10.7938
ይጠብቅ	-10.7947
ሲሄዱ	-10.7952
ያዘው	-10.7953
ኃጢአታቸው	-10.7953
ይኑር	-10.796
▁ጀመር።	-10.7964
ጣሉት	-10.7966
አብርሃምም	-10.7975
ሰጠህ	-10.798
▁መጥቶ።	-10.7986
ይሄዱ	-10.7986
▁አለው፥	-10.799
▁ዕረፍት	-10.7992
ሳላችሁ	-10.7992
▁ራሳቸውን	-10.7994
▁በዘይት	-10.7999
▁ወንድሙን	-10.8
▁በሁለተኛው	-10.8004
የሆነው	-10.8026
▁ማለት	-10.8026
የሚሉት	-10.8026
እግሮቹ	-10.8027
ሐሰተኛ	-10.8027
በላያቸው	-10.8027
የሰማ	-10.8027
▁በሕግ	-10.8029
▁እንስሶች	-10.8031
▁ድንቅ	-10.8032
▁ይሻላል	-10.8033
▁የሚናገር	-10.8033
▁ሰጣቸው።	-10.8036
የወይኑ	-10.8039
በጽድቅ	-10.8039
በእርግጥ	-10.8045
ትሄዱ	-10.8045
▁አበባ	-10.8067
▁በሁለቱ	-10.807
አደባባዩ	-10.8071
▁ጥፋት	-10.8076
▁ለይሁዳ	-10.8106
▁በዓለም	-10.8108
እውነትን	-10.811
ልጆቻቸውም	-10.8111
በንጉሡም	-10.8114
በሕዝብህ	-10.8115
▁በጎች፥	-10.8115
ራሳችን	-10.8116
በመልካም	-10.8123
▁ወጥመድ	-10.8145
▁መዝሙር	-10.8148
▁መሠረት	-10.8148
አታድርጉ	-10.8149
ለዚያ	-10.8168
▁በስሜ	-10.8181
▁አውቆ	-10.8181
▁የጌታን	-10.8181
▁በራብ	-10.8194
ደጆች	-10.8195
ድንጋዮች	-10.8196
▁አዘዛቸው።	-10.8202
በመጣ	-10.8217
▁ተራ	-10.8218
ሽማግሌ	-10.8227
▁ክፉውን	-10.8228
▁የእህል	-10.8229
በአሕዛብም	-10.8232
ቀርባ	-10.8234
ለሚቃጠል	-10.8235
በእርስዋ	-10.8239
▁ሚስቱን	-10.8242
ሁለተኛውንም	-10.8244
አብራምም	-10.8251
▁እውቀት	-10.8255
በዙሪያው	-10.8255
▁ሦስተኛው	-10.8255
▁በሞዓብ	-10.8259
▁በስውር	-10.826
▁ሄዱ፤	-10.8268
▁በሰማርያ	-10.8269
▁የንጉሡን	-10.8269
ማሰ	-10.8272
ይላቸዋል	-10.8285
ይወስዳል	-10.8287
ስማቸው	-10.831
▁ፊትህን	-10.8312
ተገረዙ	-10.8314
መከሩ	-10.8314
መልክተኞች	-10.8314
ቀድሱ	-10.8314
አያሌ	-10.8314
የሚቀመጥ	-10.8314
ይፈርድ	-10.8314
ጠላቶቻችሁ	-10.8314
መንፈሳዊ	-10.8314
መጥመቂያ	-10.8314
በቅንነት	-10.8314
በውስጡ	-10.8314
በዙሪያዋ	-10.8314
ባሪያዎቼ	-10.8314
አስጨናቂ	-10.8314
አንዳንድ	-10.8314
አውጥቶ	-10.8314
አገልጋዮች	-10.8314
ኢዮአታም	-10.8314
እሰጣቸዋለሁ	-10.8314
ዘሩባቤል	-10.8314
የምትኖሩ	-10.8314
የዝግባ	-10.8314
ይበሉታል	-10.8314
ጌድሶን	-10.8314
ጭልፋ	-10.8314
ጽላቶች	-10.8314
ፊንሐስ	-10.8314
ይመስል	-10.8316
▁ተቀመጥ	-10.8316
▁በሁለት	-10.8316
መበለት	-10.8316
ዮርዳኖስን	-10.832
ታችኛው	-10.8324
በውስጥዋ	-10.8327
▁እንዳለው	-10.8332
ናባጥ	-10.8334
ያልሆነ	-10.8336
ይመጣሉ	-10.8343
▁የግብፅ	-10.835
እነዚያን	-10.8351
ሰማይንና	-10.8354
ሳውል	-10.8367
ከምድርም	-10.8374
▁መንገሥ	-10.8375
ምስጋናው	-10.8386
የክርስቶስ	-10.8389
▁አለቆችም	-10.839
በልባቸው	-10.839
▁የሕዝቡን	-10.839
ባይሆን	-10.8391
የተባለች	-10.8393
ኔር	-10.8397
ይችላል	-10.8402
▁ከዳዊት	-10.841
ሳይሆን	-10.8417
▁ይሄዱ	-10.8425
የእሳት	-10.8425
ጥለው	-10.8435
ቅድስና	-10.8449
▁ሰሜን	-10.845
▁ዓምድ	-10.845
▁የሮቤል	-10.845
▁ግብር	-10.8451
▁ይጠብቁ	-10.8451
▁ስምህን	-10.8455
▁ውሰድ	-10.8461
አለቆቹም	-10.8463
የከበረ	-10.8471
አመስግኑት	-10.8473
▁የመቶ	-10.8481
▁አለቃ፥	-10.8485
▁እሆናለሁ	-10.8491
▁ሚስቶች	-10.8492
▁ቁርበት	-10.8492
▁ያደርጋል፤	-10.8493
▁እያንዳንዳቸው	-10.8493
ቀባው	-10.8503
በእጃቸው	-10.8504
ሴቲቱም	-10.8513
▁ያመጡ	-10.8515
▁ተቀመጠ፤	-10.8523
ይጠፋል	-10.8525
▁ተናገሩ።	-10.8527
አቆመ	-10.8532
እያንዳንዳቸው	-10.8543
መስገጃዎች	-10.8543
ለአባቶቻቸው	-10.8545
የኢየሩሳሌም	-10.8545
ሳኦልና	-10.8546
ሰማይም	-10.8562
የአደባባዩ	-10.8564
ይወጣ	-10.8569
ናትና	-10.8577
የፍልስጥኤማውያን	-10.8579
ራስዋን	-10.8586
ተቀመጠች	-10.8589
ዳግመኛ	-10.86
▁መኖሪያ	-10.8601
ሰማችሁ	-10.8603
▁ጽኑዓን	-10.8609
▁በሦስት	-10.8609
▁እግሮቹ	-10.8611
▁ለማድረግ	-10.8619
▁አላቸው፤	-10.863
▁ስሙን	-10.8631
ገባች	-10.8634
ኢያሱን	-10.8637
በስብ	-10.8648
በከተማይቱም	-10.8656
በጨለማ	-10.8666
የቀረው	-10.8667
▁አድርግ፤	-10.8669
ወለዱ	-10.8679
ካህናቱና	-10.8686
ኢዮርብዓምም	-10.8704
ባደረ	-10.8706
ወጣችሁ	-10.8708
▁ይበሉ	-10.8712
አማሌቅ	-10.8713
ቢል	-10.8716
ተቀምጠው	-10.8721
መምህር	-10.8722
ትእዛዛት	-10.8723
የሚቀመጡ	-10.8723
መቀመጥ	-10.8725
መናወጥ	-10.8725
መኳንንት	-10.8725
ማስተስረያ	-10.8725
ማድጋ	-10.8725
ምስጉን	-10.8725
ሰምቻለሁ	-10.8725
ሳያውቅ	-10.8725
በሌለበት	-10.8725
በረኞች	-10.8725
በግምባሩ	-10.8725
ብላቴኖች	-10.8725
ተደነቁ	-10.8725
ታላላቅ	-10.8725
ታደርጋላችሁ	-10.8725
ትዕቢተኞች	-10.8725
ችግረኞች	-10.8725
አቅርቡ	-10.8725
አንዳንዱ	-10.8725
አዛሄል	-10.8725
አደርግሃለሁ	-10.8725
እሰጣችኋለሁ	-10.8725
እጆቼ	-10.8725
ዓይኑን	-10.8725
የሚያስፈራ	-10.8725
የሚጠብቁ	-10.8725
የቀሩትም	-10.8725
ያስቡ	-10.8725
ይሆንላችኋል	-10.8725
ይፈርዳል	-10.8725
ደንቆሮ	-10.8725
ገሞራ	-10.8725
ጢሞቴዎስ	-10.8725
ጣዖቶቻቸው	-10.8725
ጨረሰ	-10.8725
ፈጥነህ	-10.8725
▁ለሞት	-10.8725
መግደል	-10.8726
ተዋቸው	-10.8726
ይገለጥ	-10.8726
ይመስላል	-10.8726
ካለችው	-10.8726
▁ሊሆን	-10.8727
▁ቀንዶች	-10.8727
አያለሁ	-10.8728
ከግራር	-10.8728
ሰምተው	-10.8729
ቃላችሁ	-10.8729
▁መቅሠፍት	-10.8729
▁መናፍስት	-10.8729
▁አደርግ	-10.8732
የከተማው	-10.8744
እንቢ	-10.8745
▁እውቀትን	-10.8745
ሄደች	-10.8752
▁በዳም	-10.8756
ዋልና፥	-10.8756
▁ይሆኑ	-10.8765
▁እንደሆነ	-10.8789
ለበጠ	-10.88
ተከፈተ	-10.8801
▁ዋይ	-10.8804
ጣለው	-10.8816
ባረከው	-10.8821
በሲና	-10.8822
መረብ	-10.8826
▁መላእክት	-10.8834
አታውቁምን	-10.8837
▁መሬት	-10.884
▁በኤፍሬም	-10.8841
▁ሕግን	-10.8843
▁በልብህ	-10.8844
▁ቀለበቶች	-10.8849
▁አንቀላፋ	-10.8849
ፊታቸው	-10.885
▁ደጆች	-10.8851
ራሳቸውን	-10.8853
አማት	-10.8862
ለእኛ	-10.8864
ዓረባ	-10.8869
አቢሜሌክ	-10.8876
▁የኃጢአት	-10.8896
አገሮች	-10.8897
ስድስተኛው	-10.8899
ታደርጋለህ	-10.8901
ከሙታን	-10.8903
አይደለሁም	-10.8903
በርሳችሁ	-10.8903
ተመልሶ	-10.8905
መሰምርያዋን	-10.8923
▁ስድብ	-10.8925
የአንድ	-10.8927
▁ቤቱን	-10.8932
▁የአይሁድ	-10.8937
በጣም	-10.894
በተቀደሰው	-10.8942
ቀለበት	-10.8956
▁ይወድቃል	-10.897
▁ነገሮች	-10.897
▁የተለወሰ	-10.897
▁ተነሥተህ	-10.897
▁አብረው	-10.8971
▁የተቈጠሩት	-10.8971
▁ታላላቆች	-10.8972
▁መጥቶአል	-10.8974
አቅርብ	-10.8978
▁ይሁን፥	-10.8979
▁የተናገረውን	-10.8981
አቃጠለ	-10.8982
▁ስንፍና	-10.8984
▁ሀብት	-10.9009
▁ክምር	-10.9009
▁ይሰጣል	-10.9021
ለኃጢአትም	-10.9029
የሰሎሞን	-10.9032
ቃሉንም	-10.9035
ተቀመጥ	-10.9039
▁አባቱን	-10.9044
ጠይቁ	-10.9045
▁ሰማሁ።	-10.9064
ያገኘ	-10.9067
ዓይኖች	-10.9067
ማኅበሩም	-10.9075
▁ሆናችሁ	-10.9075
በቤት	-10.9075
ያያል	-10.908
▁ተመለሰ።	-10.9087
▁በጀመረ	-10.9095
▁ከኢየሱስ	-10.9098
▁ነበርሁ	-10.9105
ትእዛዜ	-10.9105
ባልንጀራ	-10.9108
ቀደሱ	-10.9108
ትእዛዙ	-10.911
ይጠብቁ	-10.9116
▁ወሰደ፥	-10.9117
እንዴትስ	-10.9118
ማየት	-10.9121
አሳፍ	-10.9135
ወለደችለት	-10.9136
▁አየ፤	-10.9151
ፈረደ	-10.9151
ቀደሰ	-10.9152
ያደርገው	-10.9154
ሰደዱ	-10.9154
መዓካ	-10.9154
መዕሤያ	-10.9154
ሰዎቹን	-10.9154
በታቦቱ	-10.9154
በዙሪያቸው	-10.9154
ትሆናላችሁ	-10.9154
ትዕማር	-10.9154
ኑኃሚን	-10.9154
አላወቁም	-10.9154
አታድርግ	-10.9154
አኪያ	-10.9154
አያውቁም	-10.9154
ኤልዛቤል	-10.9154
ኤፍራጥስ	-10.9154
እወዳለሁ	-10.9154
ዘጠና	-10.9154
የላከኝ	-10.9154
የሚበሉ	-10.9154
የሚያምን	-10.9154
የሚያውቅ	-10.9154
የበኵር	-10.9154
ያከብሩ	-10.9154
ይባረክ	-10.9154
ይወርዳል	-10.9154
ደመወዝ	-10.9154
ገዳይ	-10.9154
ጕልማሶች	-10.9154
ጠባቂዎች	-10.9154
ሰውነቱ	-10.9154
ትችላለህ	-10.9154
ፋሬስ	-10.9154
ተቃጠለ	-10.9154
መሰከረ	-10.9154
ሁለተኛይቱ	-10.9154
እንድትሆን	-10.9154
አልወደደም	-10.9154
መስጠት	-10.9154
ይበልጣል	-10.9156
ይጠብቃል	-10.9157
ይጥፋ	-10.9158
ወንድሞቻችሁ	-10.9158
ደማቸው	-10.9159
በአገርህ	-10.9164
ሰማያዊ	-10.9167
ከተማይቱንም	-10.9169
በዚህች	-10.9172
ወደድሁ	-10.9176
የሚገባውን	-10.9178
የተጠላ	-10.9183
ጣላቸው	-10.9184
ሰውነትህ	-10.9185
አትበሉ	-10.919
▁አለቃው	-10.9198
ለማገልገል	-10.9204
▁ሠራ፤	-10.9207
▁ደሙን	-10.9208
▁ብርቱ	-10.9212
የይሁዳን	-10.9216
▁በፊቱም	-10.9216
▁በማለዳ	-10.9218
▁ደርሶአል	-10.9218
▁በመካከላችሁ	-10.9218
▁የሚሰማ	-10.9218
▁ይሄዳሉ	-10.9219
መጣበት	-10.9227
የዓለም	-10.9239
ዔሳውም	-10.9243
▁ለአሥራ	-10.9245
የካህናት	-10.9248
▁ምሕረትህ	-10.9258
ተነሥቶም	-10.9261
▁በደረሰ	-10.9264
በለጠ	-10.9267
ከአንቺ	-10.9268
ስንት	-10.9273
ጕልማሳ	-10.9276
ፍሬውን	-10.9277
ይገባል	-10.9282
▁ለባሪያህ	-10.9282
እሺ	-10.9301
▁ስሜን	-10.9301
▁ቀስት	-10.9301
▁ብፁዓን	-10.9301
▁ነህ፥	-10.9301
▁በየአባቶቻቸው	-10.9311
ከሰፈሩ	-10.932
ከተሞቻቸው	-10.9325
እጃችሁ	-10.9325
አጠፋ	-10.933
▁ነገሩት።	-10.9335
▁ጠራው።	-10.9344
▁ሰይጣን	-10.9348
▁በላዬ	-10.9349
በለዓምም	-10.9354
በፍርድ	-10.9357
▁ከእናንተም	-10.9363
▁የገዛ	-10.9368
ሳባ	-10.9369
▁አየሁ።	-10.9383
ለእነርሱ	-10.9388
የሆኑ	-10.9389
አምጣ	-10.9394
ተናገርህ	-10.9405
▁ያለበትን	-10.9407
ለአባቱ	-10.9418
ይገባዋል	-10.9423
ልጆቻቸው	-10.9425
ተወለደ	-10.9432
▁ልጆችህ	-10.9442
▁ከዋክብት	-10.9444
ልባቸውን	-10.9447
▁ከሁለት	-10.9448
▁በአምላካችን	-10.9459
▁እንግዳ	-10.9467
▁እንግዶች	-10.947
▁የሚሄድ	-10.9473
▁ተሰብስበው	-10.9474
▁እጥፍ	-10.9475
▁አክሊል	-10.9475
▁ይበላሉ	-10.9476
▁አትክልት	-10.9477
ከአሕዛብ	-10.9477
▁ሐሰተኛ	-10.9477
▁ኢየሩሳሌምም	-10.9478
በግብጽ	-10.9483
ይገቡ	-10.9489
▁የዚህን	-10.9496
ሚስቱን	-10.9497
▁ናት፥	-10.9498
▁አደርጋለሁ።	-10.9509
አበባ	-10.9525
▁መሐላ	-10.9526
የሕይወት	-10.9528
የሠራዊቱ	-10.9552
▁ከፀሐይ	-10.9555
በደቡብ	-10.9564
በአንቺ	-10.9567
መንደሮቻቸው	-10.9575
አኖረው	-10.958
ሰበረ	-10.9582
▁ጠርቶ	-10.9586
▁አለቆቹ	-10.9587
የያዕቆብም	-10.9589
እስኪመጣ	-10.9593
ሽማግሌዎችም	-10.9593
▁ናትና	-10.9595
መያዣ	-10.9597
ይወስድ	-10.9599
አገኘ	-10.9599
መክደኛ	-10.96
▁በከነዓን	-10.96
ስምህም	-10.9601
ደነገጠ	-10.9602
ለብቻው	-10.9602
ሕፃኑን	-10.9602
መላእክቱ	-10.9602
መጋቢ	-10.9602
መጽናናት	-10.9602
ማኪር	-10.9602
ምንጮች	-10.9602
በምድሩ	-10.9602
ተማረኩ	-10.9602
ተማከሩ	-10.9602
ተሰለፉ	-10.9602
ኀጥእ	-10.9602
ነፍሳት	-10.9602
አመሰግናለሁ	-10.9602
አማልክቶቻቸው	-10.9602
አሰኘ	-10.9602
አስቀድመው	-10.9602
እቶን	-10.9602
ከንፈሮች	-10.9602
ኪሩቤልም	-10.9602
ይጮኻሉ	-10.9602
▁ማታም	-10.9602
▁ሞተ፥	-10.9602
▁ቍስል	-10.9602
መንገዳችሁ	-10.9602
ምሰሶች	-10.9602
ትርጓሜ	-10.9602
ኢያቡስ	-10.9602
የሚያውቁ	-10.9602
የሰሙ	-10.9602
ይቀበል	-10.9602
የማይገባ	-10.9602
ይገድሉ	-10.9602
ያገኛል	-10.9602
ተናግሮአልና	-10.9602
እናድርግ	-10.9602
ብልጥግና	-10.9602
እስራት	-10.9603
በአጠገቡ	-10.9603
ይድናል	-10.9603
ብቻዬን	-10.9603
ይገባሉ	-10.9603
ደካማ	-10.9603
አወጣቸው	-10.9604
ወርደው	-10.9606
አላደረገም	-10.9606
የኮረብታው	-10.9609
ላይኛው	-10.9616
ፈራጅ	-10.9618
▁መለሰለት።	-10.9621
▁ጠላት	-10.9625
አመኑ	-10.9629
ትእዛዝህን	-10.9642
▁አእምሮ	-10.9648
የናሱ	-10.9654
የአምላካችንን	-10.9655
▁ዮናታንም	-10.9656
ከብዙ	-10.9659
አስመጣ	-10.966
ካደ	-10.9661
ለራሱ	-10.9663
ከአባቶቹ	-10.9664
ብቻውን	-10.9664
▁እጅህ	-10.9687
ለመሥራት	-10.9691
▁ይመጣል።	-10.9694
ሠራበት	-10.9696
ስጠን	-10.9697
ሄድሁ	-10.9704
▁ደብዳቤ	-10.9734
▁ማዕዘን	-10.9736
ያጠፋል	-10.9737
▁አሦር	-10.9766
▁በአምላክህ	-10.9772
▁አባቶች	-10.979
▁ዘወትር	-10.98
በሕይወቱ	-10.9808
እጁም	-10.9822
▁በነገሠ	-10.9829
ይሞታል	-10.9835
ፍሬዋን	-10.9838
▁ለምድር	-10.9842
በለዓምን	-10.9845
እርሱንና	-10.9851
ማልሁ	-10.9851
ደርብ	-10.9857
የተደረገው	-10.9857
ሴቲቱን	-10.9857
በምሥራቅ	-10.986
እለምንሃለሁ	-10.9862
ሰዎቹም	-10.9862
ቁርበት	-10.9863
ሚስቶች	-10.9863
መዛሙርት	-10.9864
ሰሉ	-10.9866
ተጠንቀቁ	-10.9867
ረከሰ	-10.987
ያምኑ	-10.9871
▁ነበርና፥	-10.9878
▁ስንዴ	-10.9895
መንገዱን	-10.9901
በወርቅ	-10.991
▁ሥጋውን	-10.9912
በባቢሎን	-10.9918
የንጉሡንም	-10.9922
መከተል	-10.9923
ንገር	-10.9924
ወንዶችንም	-10.9935
▁ንጉሥ፥	-10.9939
ይዋጋ	-10.9941
▁መልክ	-10.9983
መንግሥቱም	-10.9995
ይይ	-10.9998
እውቀትን	-11
ገደሉት	-11.0016
ለወጠ	-11.0025
ታቀርባላችሁ	-11.0044
የሳኦልም	-11.0047
▁በደም	-11.006
መቀመጫ	-11.0061
ይጨምር	-11.0063
መናፍስት	-11.0067
ከጥሩ	-11.0068
የሚያደርጉ	-11.0068
ታመመ	-11.0071
ለማዳን	-11.0071
ለብቻቸው	-11.0071
መልካሚቱ	-11.0071
መቅደሴ	-11.0071
መተላለፍ	-11.0071
መጻተኞች	-11.0071
ሰጠኋቸው	-11.0071
ሲሣራ	-11.0071
ስሕተት	-11.0071
ቁመቱም	-11.0071
ቍርባኑ	-11.0071
በሕያዋን	-11.0071
በኃይሉ	-11.0071
ቢሞት	-11.0071
ኅጥኣን	-11.0071
ነበራችሁ	-11.0071
ነቢያቱ	-11.0071
ነገርኋችሁ	-11.0071
ናትናኤል	-11.0071
ኖርሁ	-11.0071
አልቅሱ	-11.0071
አልቻለም	-11.0071
አመንዝራ	-11.0071
አስጸያፊ	-11.0071
አንኩስ	-11.0071
አእላፋት	-11.0071
አኪጦፌል	-11.0071
እሰድዳለሁ	-11.0071
ክንፎቻቸው	-11.0071
ወዮላችሁ	-11.0071
የሚገዛ	-11.0071
ያስተምሩ	-11.0071
ይሆንልሃል	-11.0071
ይነሣሉ	-11.0071
ይወድዳል	-11.0071
ይዘህ	-11.0071
ጕልበት	-11.0071
ጠብቀው	-11.0071
ፈጽማችሁ	-11.0071
መዘምራኑ	-11.0071
በዓሉ	-11.0071
እንዳየ	-11.0071
ዘበኞች	-11.0071
ዘይቱን	-11.0071
ገደሉአቸው	-11.0071
አትችሉም	-11.0071
አድርገዋል	-11.0071
ስድስቱ	-11.0071
ስጣቸው	-11.0071
መጥተህ	-11.0071
አይገባውም	-11.0071
የተቀመጡትን	-11.0071
አድምጥ	-11.0072
በየትውልዳቸው	-11.0072
ያስባል	-11.0073
ብሆን	-11.0075
አይጠፋም	-11.0076
▁በእጅ	-11.0076
በፋንታው	-11.0078
ብላችኋል	-11.0079
አይቀርም	-11.008
ገለጠ	-11.0082
እስያ	-11.0084
ተወለዱለት	-11.0085
የናስ	-11.0086
መስለው	-11.0089
▁እውነትን	-11.0094
ልብህን	-11.0097
በከተማይቱ	-11.0106
ከእርስዋም	-11.0108
አደረገች	-11.0112
እንስት	-11.0113
ሁከት	-11.0114
በእነርሱም	-11.0114
ተሰበረ	-11.0119
የሠራውን	-11.012
▁እኔንም	-11.0125
ከለከለ	-11.0128
▁በተራሮች	-11.0133
▁ለወንድ	-11.0154
▁ሆነህ	-11.0154
ታላቅና	-11.0155
መንገድህን	-11.0162
ያገኘው	-11.0167
ባለቤቱ	-11.0168
በእነዚህ	-11.0172
ከአሦር	-11.0189
ለማየት	-11.0198
ነበርሁ	-11.0206
ሚስትህ	-11.0207
▁ውጣ	-11.022
▁ንጉሡንም	-11.0225
በዳዊትም	-11.0227
ለድሆች	-11.0227
▁ተነሡ፥	-11.0232
▁ደኅና	-11.0232
▁ግዛት	-11.0232
ቸርነትህ	-11.0243
▁ንገራቸው።	-11.0255
መስማት	-11.0257
አንጻር	-11.0275
ትሆናለህ	-11.0275
▁በክብር	-11.0276
የወርቁን	-11.0279
ወደደው	-11.028
በባሳን	-11.0281
እያለ	-11.0284
ኋላቸው	-11.0288
▁ነገረው።	-11.0288
▁በለው።	-11.0296
ቅዱሱ	-11.0298
▁በሕዝብ	-11.0304
ሌዋውያኑ	-11.0307
▁ለማን	-11.0307
ሠራሁ	-11.0308
▁ነበረች፤	-11.0328
▁ወሰደ።	-11.0332
ግብር	-11.0336
ናትን	-11.034
ወዲያው	-11.0354
አይደሉምን	-11.0356
በሰባተኛው	-11.037
▁በተራራ	-11.0429
▁ከአንድ	-11.0433
ምሕረትን	-11.0453
▁ስሙ።	-11.047
▁አየ።	-11.0475
በተቀደሰ	-11.0477
መንገሥ	-11.0487
የሚመስል	-11.0488
አድርገህ	-11.0488
ከወዴት	-11.0488
በእጄ	-11.0488
ከገሊላ	-11.0499
የአሞንም	-11.0504
ነፍስህም	-11.0511
ሰውነት	-11.0528
በሰንበት	-11.0536
ነበሩት፤	-11.0538
መሸፈኛ	-11.0563
ሕልቃና	-11.0563
መማፀኛ	-11.0563
መብረቅ	-11.0563
መቱአቸው	-11.0563
መድኃኒታችን	-11.0563
ማቅረብ	-11.0563
ረዳቸው	-11.0563
ሰውነታችሁ	-11.0563
ቤትሳሚስ	-11.0563
ብልቶች	-11.0563
ብርሃኑ	-11.0563
ተከትሎ	-11.0563
ተገረሙ	-11.0563
ትሄዳለህ	-11.0563
ኃያላኑ	-11.0563
ኃይለኛ	-11.0563
ነጐድጓድ	-11.0563
ንገረኝ	-11.0563
አላወቀም	-11.0563
አኪቃም	-11.0563
አዛጦን	-11.0563
አደጉ	-11.0563
ኤፌሶን	-11.0563
እሰጠዋለሁ	-11.0563
እስኪፈጸም	-11.0563
እንሄዳለን	-11.0563
እኵሌቶቹ	-11.0563
ክፋታቸው	-11.0563
ወተትና	-11.0563
ወንድሙም	-11.0563
ወንድማማች	-11.0563
ወዳለችው	-11.0563
ዓይኖቻቸው	-11.0563
ዕንቅፋት	-11.0563
ዘለላ	-11.0563
የሚፈርድ	-11.0563
የተሠሩትን	-11.0563
የዮዳሄ	-11.0563
ያስተሰርይለታል	-11.0563
ያደርገዋል	-11.0563
ይሸከሙ	-11.0563
ይጸናል	-11.0563
ደከሙ	-11.0563
ግልገሎች	-11.0563
ጠነከረ	-11.0563
ጥምቀት	-11.0563
▁ሞትን	-11.0563
ያጥባል	-11.0564
ሰጥቶአል	-11.0565
የተቀረጸውን	-11.0565
ማልደው	-11.0565
በዚች	-11.0566
እንደዚያ	-11.0566
ካልሆነ	-11.0569
ከእጅህ	-11.0573
ሰማው	-11.0574
በሉአቸው	-11.0574
ምድርንም	-11.0574
ለያዕቆብ	-11.0581
▁አሉአቸው።	-11.0586
▁አምላክህን	-11.0598
▁ተጽፎአል።	-11.0607
ተለወጠ	-11.0611
▁የቃል	-11.0612
የአባትህን	-11.0612
የመገናኛውን	-11.0615
ይስማ	-11.0617
ለኃጢአት	-11.0619
ሕግህን	-11.0624
ብርም	-11.0627
ብታደርግ	-11.0629
▁ወሰደ፤	-11.0631
▁ቀንድ	-11.0635
አገኘሁ	-11.0649
መልእክት	-11.065
ያቅርብ	-11.065
▁ዕቃውንም	-11.0652
በሰላም	-11.0657
ሽማግሌው	-11.0673
▁ለካ	-11.0674
በኃይል	-11.0687
የዚያ	-11.0692
የለምና	-11.07
አክሊል	-11.0704
ጽኑዓን	-11.0704
ዓይነት	-11.0705
የሞዓብ	-11.0705
ባርያ	-11.0705
አዘዛቸው	-11.0705
የሚቃጠለውንም	-11.0706
ከምድረ	-11.0718
በመቅደስ	-11.0719
ከፊታቸው	-11.0739
መሰለ	-11.0747
በድን	-11.0762
ሲባ	-11.0764
ልጅዋ	-11.0782
ይልቁን	-11.0791
ሦስቱም	-11.0796
ተመልሰው	-11.0807
ፋርስ	-11.0821
ተጠሩ	-11.0837
እሳትም	-11.0838
ይብላ	-11.0852
ሥርዓትና	-11.0857
ለማድረግ	-11.0864
አገኙት	-11.0869
የአብርሃም	-11.087
አይደለችም	-11.0876
▁ሲል።	-11.0881
የተሞላ	-11.0886
ሦስተኛውም	-11.0892
▁መለሰ።	-11.0904
▁ለድሀ	-11.0905
▁ሕፃናት	-11.0905
▁በቤቴል	-11.0905
▁ነህን	-11.0905
▁የንጉሥ	-11.0905
ጠራት	-11.0912
ቀለበቶች	-11.0926
አንቀላፋ	-11.0926
የሚናገር	-11.0926
ይሻላል	-11.0927
▁ጻድቃን	-11.0929
▁በልብ	-11.0932
▁አገኙ	-11.094
ዮናታንም	-11.0942
ትናገር	-11.095
አደን	-11.095
አጋንንትን	-11.0954
▁እላለሁ።	-11.0956
▁ተመለሱ፤	-11.0956
በደልን	-11.0987
▁ደግሞ።	-11.1003
በድንጋይ	-11.1007
▁ሰጣቸው፤	-11.1009
ውድማ	-11.1014
▁ዮሴፍን	-11.1022
እጃቸውን	-11.1037
ተቀባ	-11.1038
ቢወድ	-11.1041
ንግሥት	-11.1042
ገባሁ	-11.1055
የባቢሎንም	-11.1061
▁ለአንድ	-11.1062
ተደፋ	-11.1067
ትቀመጥ	-11.1073
▁ቃልህን	-11.1078
ወገብ	-11.1079
ስምህንም	-11.1079
ሃይማኖት	-11.108
ሊገናኘው	-11.108
ሊገድሉ	-11.108
መስኮቶች	-11.108
ሰብስቦ	-11.108
ሰጥቼሃለሁ	-11.108
ሱኮት	-11.108
ስፍራዎች	-11.108
ቅርንጫፍ	-11.108
በጊብዓ	-11.108
በግምባራቸው	-11.108
በፈጸመ	-11.108
ባረካቸው	-11.108
ባርቅ	-11.108
ታካች	-11.108
ትወስዳለህ	-11.108
ኅብስት	-11.108
አምጡልኝ	-11.108
አሮጌው	-11.108
አስቀድሜ	-11.108
አታውቅም	-11.108
አናውቅም	-11.108
አንጾኪያ	-11.108
አግብቶ	-11.108
አጸናለሁ	-11.108
ኢያቡሳውያን	-11.108
እንዳደረግሁ	-11.108
ከፊታችሁ	-11.108
የሚፈራ	-11.108
የጭፍራ	-11.108
ያስቈጡ	-11.108
ይቆማል	-11.108
ይነጋገር	-11.108
ይወስዱ	-11.108
ይወስዳሉ	-11.108
ጃንደረቦች	-11.108
ጃግሬው	-11.108
ግብዞች	-11.108
ጠላቶቻችን	-11.108
ጻፎችና	-11.108
ቂርያትይዓሪም	-11.108
አስቀሎና	-11.108
እግሮቼ	-11.108
ያደረጉት	-11.108
ግብጻውያን	-11.108
ጠበቅሁ	-11.108
ጠሩአቸው	-11.108
አገራቸው	-11.108
አቃጠሉ	-11.108
ያፍራሉ	-11.108
ያስተውል	-11.1081
ፍረዱ	-11.1081
ወንድማችሁ	-11.1081
ማለላቸው	-11.1084
ለሰልፍ	-11.1085
ጥላው	-11.1085
ለመነው	-11.1088
አይገባም	-11.1091
በስምንተኛውም	-11.1091
የተቀመጠው	-11.1093
የተጻፈውን	-11.1093
▁ይሰጣል።	-11.1095
ሠራቸው	-11.1096
በዘይት	-11.1098
ክብርና	-11.1101
▁ጲላጦስም	-11.1102
የምታደርጉ	-11.1107
በአምላኩ	-11.111
▁የሰላም	-11.1115
▁በዚያው	-11.1115
ይልቁንስ	-11.1129
ከባድ	-11.1138
ላከው	-11.1141
▁ሰጠ።	-11.1145
ጥለዋል	-11.1148
በሞዓብ	-11.1154
በስውር	-11.1154
ለብሳ	-11.1158
ይበረታ	-11.1168
የእህል	-11.1183
የዳዊትም	-11.1186
▁በንጉሥ	-11.1201
ሠራሁት	-11.1208
ፊትህን	-11.1215
ይመለከቱ	-11.1224
ማረከ	-11.1224
እንዳለው	-11.1228
የኋለኛው	-11.123
አደረጋቸው	-11.1231
ይምጣ	-11.1244
ቍጣውን	-11.1246
▁አሥራት	-11.1248
ሰጠሁት	-11.1255
▁ሕያዋን	-11.1259
▁ሞተም።	-11.1259
ከሰማያዊ	-11.126
ይጠሩ	-11.1265
የግብፅ	-11.127
አልን	-11.1278
ከእነዚህ	-11.1281
አይደለችምን	-11.1288
ብለን	-11.1311
▁ወለደች።	-11.1321
በዓለም	-11.1322
ሰደደው	-11.1324
ለባቢሎን	-11.1324
▁ይልቁንም	-11.1328
ከለዳውያንም	-11.1337
መልስለት	-11.1345
ታላቁም	-11.1349
▁ተመለሱ፥	-11.1356
ደሙንም	-11.1372
እሆናለሁ	-11.1385
የከተማይቱም	-11.1389
በይሁዳና	-11.14
በኋላቸው	-11.1401
ይህችንም	-11.1402
ከነበረው	-11.1404
ተወለዱ	-11.1407
▁አድርጉ፤	-11.1417
በላዬ	-11.1418
▁አደረጉ፥	-11.142
▁አደርጋለሁ፤	-11.1426
የሕዝቡን	-11.1429
በፍጹምም	-11.1432
▁ገባ፥	-11.1455
ድንኳኑን	-11.146
የምሥራቅ	-11.1469
የለበሰ	-11.147
ከመንጋ	-11.1478
የእሴይ	-11.1479
▁ሄዱ፥	-11.1479
በቃሉ	-11.1492
የለምን	-11.1495
በዚያች	-11.1499
የአሦር	-11.1504
ባየች	-11.1512
አንዳችም	-11.1518
▁ለማንም	-11.1519
አምላኬም	-11.1521
ጥላቸው	-11.1529
ተራሮችም	-11.1531
▁በአይሁድ	-11.1536
የገዛ	-11.1538
በደቡብም	-11.1545
ከዳዊት	-11.1587
ደመናውም	-11.1596
▁መሥዋዕት፥	-11.1598
አድምጡ	-11.1608
በዓይኑ	-11.1619
ጠግነት	-11.1621
▁ማዳን	-11.1622
ሊሆን	-11.1623
ቀንዶች	-11.1623
መወርወሪያ	-11.1626
ሐሰተኞች	-11.1626
መሥዋዕታችሁ	-11.1626
መንኰራኵር	-11.1626
መዘምራን	-11.1626
መጥታ	-11.1626
መጽሐፉን	-11.1626
ምልክቶች	-11.1626
ሞዓባውያን	-11.1626
ሥቃይ	-11.1626
ሰደዳቸው	-11.1626
ሽማግሌዎቹ	-11.1626
ቀርቶአል	-11.1626
በሚሆነው	-11.1626
በኤርትራ	-11.1626
በዘበዙ	-11.1626
ባላቅም	-11.1626
ብልጣሶር	-11.1626
ብርቱዎች	-11.1626
ተሻገረ	-11.1626
ተንቀሳቃሾች	-11.1626
ትሞታለህ	-11.1626
ነገሩም	-11.1626
ነግረው	-11.1626
ነፋሳት	-11.1626
አለቆቻቸው	-11.1626
አሣሄል	-11.1626
አቃሮን	-11.1626
አቅራቢያ	-11.1626
አባቶቼ	-11.1626
አብድዩ	-11.1626
አይቻለሁ	-11.1626
አጥንቶቼ	-11.1626
እኅቱ	-11.1626
እዘምራለሁ	-11.1626
እፈልጋለሁ	-11.1626
ዓይኖቹን	-11.1626
የሚቀበል	-11.1626
የሚያድን	-11.1626
የተሞሉ	-11.1626
የዘበኞቹም	-11.1626
የግሪክ	-11.1626
ይነግሣል	-11.1626
ድሀውን	-11.1626
ጃንደረባ	-11.1626
ጠፍቶአል	-11.1626
ጦብያ	-11.1626
ጽዋውን	-11.1626
ጽዋዎች	-11.1626
ፈጥናችሁ	-11.1626
ፊተኞች	-11.1626
ፍጹማን	-11.1626
▁ቀኑን	-11.1626
▁በሙሉ	-11.1626
▁በጽኑ	-11.1626
▁ኢዮአስ	-11.1626
ድፍረት	-11.1626
አልችልም	-11.1626
እንድትሆኑ	-11.1626
ይወርሳሉ	-11.1626
አንካሳ	-11.1626
ማኑሄ	-11.1626
ሲሄድ	-11.1626
ተመለከትሁ	-11.1626
ረባት	-11.1627
ግደሉ	-11.1627
አይችሉም	-11.1628
አሰብሁ	-11.1628
ገላውን	-11.1628
በባልንጀራው	-11.1629
ምስጋናን	-11.1629
መውጣት	-11.1629
ያስተሰርይ	-11.1629
ዲናር	-11.163
አትብሉ	-11.163
አትሁኑ	-11.163
ያለችውን	-11.163
ትበላለች	-11.163
አደርግ	-11.1632
መጣችሁ	-11.1634
ስካር	-11.1634
▁ነፋስም	-11.1635
ዔድን	-11.1635
ወድደው	-11.1636
አይኖርም	-11.1637
በለዓም	-11.1639
▁ሆኑ፥	-11.164
▁በአንዱ	-11.1642
አያይም	-11.165
መንጋውን	-11.1651
ሥርዓትህን	-11.1653
የመጡት	-11.1663
በላዩም	-11.1666
▁ይባላል።	-11.1666
ስላደረገው	-11.1674
ዘርህን	-11.1677
ቢያደርግ	-11.1678
ዚፍ	-11.1678
ትእዛዙንም	-11.1679
ረከሰች	-11.1679
▁ይወድቃሉ።	-11.1684
ከጥቂት	-11.1688
▁በከተማ	-11.169
ተቈረጠ	-11.1693
የንጉሡን	-11.1701
▁በነቢያት	-11.1703
▁ሰደደ።	-11.1704
▁ሄደህ	-11.1705
አምላካችንም	-11.1715
▁የቀረውን	-11.1722
▁ተሰበሰቡ።	-11.1728
▁የሚሉ	-11.1747
▁ላከ፤	-11.1752
መጣለት	-11.1753
ተነሣና	-11.1768
▁ለሌላ	-11.1774
የአገሩም	-11.178
ተከተለው	-11.1784
በኋለኛው	-11.1787
በጊዜው	-11.1787
ድሆችን	-11.1801
በልብህ	-11.1802
ከመከተል	-11.1802
▁የተመረጡ	-11.1806
▁በዕጣ	-11.1823
በሁለተኛው	-11.183
በላችሁ	-11.1837
የሆድ	-11.1856
በኤፍሬም	-11.1859
የባሳን	-11.1865
ነገሮች	-11.1867
የተለወሰ	-11.1867
ተነሥተህ	-11.1867
መጥቶአል	-11.1868
አብረው	-11.1868
የተቈጠሩት	-11.1869
ይወድቃል	-11.1877
ጣራ	-11.1878
የተናገረውን	-11.188
ሠራያ	-11.1884
▁ናችሁ።	-11.1892
የሐሰት	-11.1901
ኃጢአተኞችን	-11.1914
▁ልጆቹንም	-11.1916
ያመጣል	-11.1921
ቅድስተ	-11.1925
ፍረድ	-11.1931
ጣልሁ	-11.1933
ዕድሜህ	-11.1937
ይግባ	-11.1943
ሌሎችንም	-11.1967
▁ለካህኑ	-11.1975
የተቀባ	-11.1977
ንገራቸው	-11.198
▁ሰማ።	-11.1981
ዔር	-11.1982
▁በአራቱ	-11.1985
በማናቸውም	-11.1987
▁ከከተማ	-11.1992
ይመካ	-11.1996
ለይሁዳ	-11.2004
▁ሰጡ።	-11.2007
▁ነህ።	-11.2007
▁ነጋዴዎች	-11.2007
ከይሁዳም	-11.2029
በሰማርያ	-11.2042
ራሱም	-11.2052
የጠራ	-11.2054
▁አለች፤	-11.2064
ልባቸውም	-11.2064
▁አመጡት	-11.2066
▁አልነበረም፤	-11.2071
የኢየሩሳሌምንም	-11.2085
በማድረግ	-11.2085
ሠራች	-11.2095
ሆናለች	-11.2095
መሥራት	-11.2096
▁ሰጠው፤	-11.21
ከእግሩ	-11.2104
ለበሰ	-11.2109
ይሄዳሉ	-11.2116
በመካከላችሁ	-11.2116
የሚሰማ	-11.2116
ደርሶአል	-11.2116
በማለዳ	-11.2116
በድንገት	-11.2122
በጀመረ	-11.2132
▁የድንጋይ	-11.2137
የሌለባቸው	-11.2142
▁ከኃጢአት	-11.215
▁ይሆናሉ፥	-11.2151
የምናሴም	-11.2158
ኮረብቶችም	-11.2163
አሉአቸው	-11.2176
የበኣል	-11.2178
ተጣለ	-11.218
ከአገሩ	-11.2184
የደስታ	-11.2187
▁በኃጢአት	-11.2192
ስብ፥	-11.2195
ይቈጠር	-11.2198
ልመናዬ	-11.22
ተበተኑ	-11.22
በእሳትም	-11.2202
የሚቀር	-11.2202
ነበራቸው	-11.2203
እጆቻቸው	-11.2203
የሚጠራ	-11.2203
ላክሁ	-11.2203
መልካቸው	-11.2203
መሠዊያዎች	-11.2203
መርከቡ	-11.2203
መስኮት	-11.2203
መካከለኛ	-11.2203
መዓቱ	-11.2203
ሙሽራው	-11.2203
ማዕዘኑ	-11.2203
ሞላባቸው	-11.2203
ሠርተዋል	-11.2203
ረዓብ	-11.2203
ራፋስቂስ	-11.2203
ርቆአል	-11.2203
ሰጠኋት	-11.2203
በሕልም	-11.2203
በመካከላችን	-11.2203
በሚመጣው	-11.2203
በደለኞች	-11.2203
ተቀምጣ	-11.2203
ተቈጥቶ	-11.2203
ታቦቱን	-11.2203
ትኵሳት	-11.2203
ትወድድ	-11.2203
አውቄአለሁ	-11.2203
አድርገኝ	-11.2203
አገልግሎታቸው	-11.2203
እልሃለሁ	-11.2203
እሰብራለሁ	-11.2203
እንናገራለን	-11.2203
እኖራለሁ	-11.2203
ከሚቃጠለው	-11.2203
ከሞዓብ	-11.2203
ከረጢት	-11.2203
የሚባለው	-11.2203
የሚወጡት	-11.2203
የሚያመጣ	-11.2203
የሚጠላ	-11.2203
የማንሣት	-11.2203
የሜራሪ	-11.2203
ያቀርበዋል	-11.2203
ያገለግል	-11.2203
ይፈጸማል	-11.2203
ደረጃ	-11.2203
ጨካኞች	-11.2203
አቤሜሌክም	-11.2203
በደላችን	-11.2203
ነበሩአቸው	-11.2203
አቢግያ	-11.2203
አልሰማችሁም	-11.2203
ይገኛል	-11.2203
በርሳችን	-11.2203
አልተገኘም	-11.2203
ያደረግህ	-11.2203
ትወርሱአት	-11.2203
በላያችሁ	-11.2204
ሲሆን	-11.2204
አትግለጥ	-11.2204
ይወርሱ	-11.2204
ብዔል	-11.2205
ከብበው	-11.2205
የሚያደርጉትን	-11.2206
ብረቱ	-11.2208
የምታደርገው	-11.2209
በሱሳ	-11.2213
ደብረ	-11.2214
ችግር	-11.2216
ተቀምጦአል	-11.2219
የተገኘ	-11.2221
ልበሱ	-11.2222
እንዲያደርጉ	-11.2228
ግምቱ	-11.2229
ወለድሁ	-11.2232
አህያውን	-11.2234
በመርከብ	-11.2236
የአሮንም	-11.2238
ታመንሁ	-11.2241
አመጡለት	-11.2241
የብንያምም	-11.2246
ተቈጠረ	-11.2246
የባሪያህን	-11.2265
የመጣው	-11.227
ገባበት	-11.227
በሰይፍና	-11.2287
ያላት	-11.2295
በየአባቶቻቸው	-11.2308
▁ገባ፤	-11.2337
ኃጢአትንም	-11.234
▁ሆኑ።	-11.2342
▁የአንተ	-11.236
▁ለአምላክህ	-11.2367
ይጠራል	-11.2368
የሚሄድ	-11.2372
እጥፍ	-11.2374
እኛስ	-11.2383
ይበላሉ	-11.2395
ተሰብስበው	-11.2402
▁ሂድ፤	-11.2403
▁ዘንግ	-11.2403
▁አልሁት።	-11.2404
የተልባ	-11.2416
የከተማይቱ	-11.2426
ያገኙት	-11.2431
▁ይለዋል፤	-11.2441
ከነቢያት	-11.2453
▁የምድረ	-11.2456
▁አይደለምና	-11.2457
ሥራቸውም	-11.2464
ለባሪያህ	-11.2466
የሊባኖስ	-11.2479
▁ጠል	-11.2482
ይደርስ	-11.2483
አትሁን	-11.2494
መሄድ	-11.2502
▁በሕያው	-11.2509
ያገለግሉት	-11.2511
አለቀሰ	-11.2514
ከመሠዊያው	-11.2517
ቁርበቱ	-11.2537
ሕይወቱ	-11.2538
ለአባቶቻችን	-11.2549
እሠራ	-11.2555
ነፍሴም	-11.2562
አገሮችም	-11.2563
ከዮርዳኖስ	-11.2564
አወጣው	-11.2579
ሰባቱም	-11.2597
▁የባሕር	-11.2605
በውኃም	-11.2615
ከፀሐይ	-11.2617
ፍርድንና	-11.2621
▁ነበርና፤	-11.2635
በከነዓን	-11.2639
በግብፅም	-11.2643
▁ላከ፥	-11.2657
በአንድነትም	-11.2675
▁ኃይልን	-11.2677
ይሰጠው	-11.2679
ጥበብንና	-11.268
▁በተስፋ	-11.2698
መልእክ	-11.2706
ምንኛ	-11.2712
የይሁዳንም	-11.2727
አሥረኛ	-11.2728
አራተኛ	-11.273
ተደረገው	-11.2744
ዳግመኛም	-11.2751
ደምዋ	-11.2752
▁ከሆነ፥	-11.2755
ቈጠረ	-11.2769
ሥርዓቱ	-11.2771
በደላቸውን	-11.2771
መሎጊያዎቹ	-11.2773
ይባርክ	-11.278
▁በአልጋ	-11.2788
የለንም	-11.2803
ደከመ	-11.281
ከእንግዲህም	-11.2811
ምልክትና	-11.2812
ላካቸው	-11.2813
ትውልዳቸው	-11.2813
በሶርያ	-11.2814
ለሚያደርጉ	-11.2815
ሌዋዊው	-11.2815
ሐውልት	-11.2815
መለሰልኝ	-11.2815
መሸሸጊያ	-11.2815
መንግሥቴ	-11.2815
መደነቂያ	-11.2815
ርኵሳን	-11.2815
ሰጠሃቸው	-11.2815
ሻለቆች	-11.2815
ቃርሚያ	-11.2815
ቅርንጫፎቹ	-11.2815
ቅፍርናሆም	-11.2815
ቍጠር	-11.2815
በረኞቹ	-11.2815
በወገቡ	-11.2815
በውስጤ	-11.2815
በየዕለቱ	-11.2815
ተላለፉ	-11.2815
ተመልሰህ	-11.2815
ተመልክቶ	-11.2815
ተዘልለው	-11.2815
ትኖራላችሁ	-11.2815
ትፈርድ	-11.2815
አላገኙም	-11.2815
አልቀረም	-11.2815
አማሌቃውያን	-11.2815
አሜሳይ	-11.2815
አምጥቶ	-11.2815
አርማቴም	-11.2815
አነበበ	-11.2815
አነገሡ	-11.2815
አደርጋታለሁ	-11.2815
አድርጌሃለሁ	-11.2815
ኤሊሳማ	-11.2815
ኤልያሴብ	-11.2815
እንግድነት	-11.2815
እገባለሁ	-11.2815
እጠብቃለሁ	-11.2815
ከብቶች	-11.2815
ከተማዎች	-11.2815
ኬጢያውያን	-11.2815
ክፋቱ	-11.2815
ወይፈኑን	-11.2815
ወድቀው	-11.2815
ዓለቱ	-11.2815
ዘመኔ	-11.2815
የሚሰሙ	-11.2815
የሚያህሉ	-11.2815
የሚያስተው	-11.2815
የሚያጠፋ	-11.2815
የማደርገው	-11.2815
ያመስግኑ	-11.2815
ይመስገን	-11.2815
ይቃጠላል	-11.2815
ይታጠባል	-11.2815
ይፈርዱ	-11.2815
ድምፄን	-11.2815
ጕስቍልና	-11.2815
ጕድፍ	-11.2815
ጠየቃቸው	-11.2815
እጠራለሁ	-11.2815
ወዳጆቹ	-11.2815
ያልፋሉ	-11.2815
ይገለጣል	-11.2815
አንደበት	-11.2815
ትወርሳት	-11.2815
ወንድማችን	-11.2815
አምጥተው	-11.2815
ይከተሉ	-11.2815
ጥፋታቸው	-11.2815
መንደር	-11.2815
በደላችሁ	-11.2816
አልበላም	-11.2816
ንገረው	-11.2816
ንገረን	-11.2817
ለማጥፋት	-11.2817
ይመልሳል	-11.2817
ስብራት	-11.2817
ስገዱ	-11.2818
መጠጊያዬ	-11.2821
ቃላቸው	-11.2825
ገረድ	-11.2825
ግለጥ	-11.2826
ሰልሉ	-11.2826
አትብላ	-11.2827
▁ተባባሉ።	-11.2828
የተባለውን	-11.283
ትናንት	-11.2833
ብትሉ	-11.2834
ስገድ	-11.2835
ያድነው	-11.2835
በዙፋኑም	-11.2839
ትሰጥ	-11.2841
▁አምላካችሁን	-11.2848
ሆዱ	-11.2856
ሶርያውያንም	-11.2862
▁አስብ።	-11.2866
ሰጠችው	-11.2868
ጆሮውን	-11.2868
▁ይመጣ	-11.287
ገበያ	-11.2871
ተመለከቱ	-11.2873
▁አመጡ።	-11.2886
ከበበ	-11.2893
በዕድሜ	-11.2898
ውኆችም	-11.2905
▁ሁኑ።	-11.2907
ፍርዴንም	-11.2907
ተነገረ	-11.292
▁የሰጠው	-11.2929
እምቢ	-11.2933
ለመሄድ	-11.2934
ቀረበች	-11.2936
ምሳሌውን	-11.2937
▁ወረደ።	-11.2952
ወርቅም	-11.2955
አውድማው	-11.296
ከፍልስጥኤማውያንም	-11.2961
ይሁዳና	-11.2962
በባሪያዎቹ	-11.2972
በሰንሰለት	-11.2974
ይፈልግ	-11.2976
ተመረጡት	-11.298
ነበሩበት	-11.3004
ጠገቡ	-11.3011
ሴዴቅያስን	-11.3027
ተቀበለው	-11.3027
ልብዋ	-11.303
ባየሁ	-11.3043
ቃየን	-11.3063
ባሳን	-11.3074
▁አድርጉ።	-11.3098
▁የአባቴ	-11.3139
መንደሮችዋን	-11.3148
መቱት	-11.3149
▁በአደባባይ	-11.3179
ለሚቃጠልም	-11.3185
▁ነፍስህን	-11.3194
ለእያንዳንዱም	-11.32
የአሦርም	-11.3204
ምሕረቱም	-11.3205
ግፍን	-11.3206
ያቃጥለዋል	-11.3218
አቢሜሌክም	-11.3231
መልኩም	-11.3232
▁ቆመ።	-11.3245
▁ዮሐናን	-11.3245
▁አደረገው።	-11.3248
መዓትህ	-11.325
ኃጢአታቸውም	-11.3259
ይፈራ	-11.3264
▁ለሳኦል	-11.3268
▁ሳለ፥	-11.3273
በፊታቸውም	-11.3289
ብላቴናውም	-11.3296
ጨረቃም	-11.3302
መብላት	-11.3309
▁የዳዊትን	-11.3313
▁አይሆንም።	-11.3314
ራፋይም	-11.3318
ባርነት	-11.3318
▁አውቃለሁ።	-11.3323
ትረሳ	-11.3329
▁ይመጣል፤	-11.3333
ሄሮድስም	-11.3361
▁ያደርጋል፥	-11.3375
በግብጽም	-11.3384
እንጀራና	-11.3391
ፊቱንም	-11.3404
ካህናትና	-11.3407
▁ወርቁን	-11.3416
ሰምቶአል	-11.3435
ጠየቁት	-11.3441
ሰማይና	-11.3445
መለሰለት	-11.3445
▁ናችሁ፤	-11.3452
▁ገቡ፤	-11.3454
ትቀመጡ	-11.3461
ታደርገው	-11.3461
ወንድሞቻችሁን	-11.3461
▁ፍልስጥኤማውያንን	-11.3467
ትወዳለህ	-11.3467
ለዘርህ	-11.3467
መስዋዕት	-11.3467
መንቀጥቀጥ	-11.3467
መንኰራኵሮቹ	-11.3467
መደረቢያ	-11.3467
መድረክ	-11.3467
መጠምጠሚያ	-11.3467
መጥምቁ	-11.3467
ሚካኤል	-11.3467
ማሰናከያ	-11.3467
ሜምፊቦስቴ	-11.3467
ሞቶአል	-11.3467
ርኅራኄ	-11.3467
ሰገነቱ	-11.3467
ሰጠኋችሁ	-11.3467
ሸመገለ	-11.3467
ሽማግሎች	-11.3467
ቀድሰው	-11.3467
በቅጥሩ	-11.3467
በነገውም	-11.3467
በአጠገባቸውም	-11.3467
በዓይናቸው	-11.3467
ቤቶቻቸው	-11.3467
ተሰነጠቀ	-11.3467
ተባበሩ	-11.3467
ተናገራችሁ	-11.3467
ትኖራለህ	-11.3467
ነፋሱ	-11.3467
ናቡዘረዳን	-11.3467
ንጥቂያ	-11.3467
አሳየኝ	-11.3467
አስወገደ	-11.3467
አስገባሪ	-11.3467
አብደናጎ	-11.3467
አገልጋዮቹ	-11.3467
አፈረሱ	-11.3467
ኤልያቄም	-11.3467
ኤልፋዝ	-11.3467
እለምናችኋለሁ	-11.3467
እሪያ	-11.3467
እቀጣለሁ	-11.3467
እንሞታለን	-11.3467
እንዳደረጉ	-11.3467
እዘረጋለሁ	-11.3467
እግሬን	-11.3467
እግሮቻቸው	-11.3467
ከተፈተለ	-11.3467
ከነዓናዊው	-11.3467
ወሰድሁ	-11.3467
ወንድሞቻችን	-11.3467
ውሽሞች	-11.3467
የሚወድዱ	-11.3467
የሚወድድ	-11.3467
የሚወጣው	-11.3467
የሞቱት	-11.3467
ያረክሱ	-11.3467
ያሰኘው	-11.3467
ይሆንላቸዋል	-11.3467
ይሰግዳሉ	-11.3467
ይሸከማሉ	-11.3467
ይቀበሉ	-11.3467
ደነገጡ	-11.3467
ደካሞች	-11.3467
ገዙአቸው	-11.3467
ግዛቱ	-11.3467
ጕልበቱ	-11.3467
ጠንቋዮች	-11.3467
ጸሐፊውም	-11.3467
ጺቅላግ	-11.3467
ፌጎር	-11.3467
ተዋረዱ	-11.3467
ትመስላለች	-11.3467
ድንበራቸው	-11.3467
ጠፍተዋል	-11.3467
ሰምተናል	-11.3467
ሰጥተዋል	-11.3468
መራቸው	-11.3468
ኵርንችት	-11.3468
እሠራለሁ	-11.3468
ዘጠኝኛው	-11.3468
ተመልሳችሁ	-11.3468
እንዲሄድ	-11.3468
አሳደዱ	-11.3468
ያቃጥል	-11.3468
መታመኛ	-11.3468
አብራምን	-11.3468
አልመለስም	-11.3468
ደረስን	-11.3468
ተከተል	-11.3468
ላድርግ	-11.3468
አትደንግጡ	-11.3468
በመከራዬ	-11.3468
ያደረግሁትን	-11.3469
ፍሬያማ	-11.3469
አጠፋቸው	-11.3469
እንላለን	-11.3471
ያጥኑ	-11.3472
መከራዬን	-11.3473
ያድኑ	-11.3474
ረገጠ	-11.3474
አሠራር	-11.3477
እስከዚህ	-11.3481
ቃላት	-11.3485
ስፋት	-11.3492
ተጣሉ	-11.3497
ወጣበት	-11.3501
▁ለንጉሥ	-11.3502
አደገ	-11.3504
ሰማህ	-11.3505
የዮናታን	-11.3511
ከእነዚህም	-11.3513
ላደረጉት	-11.3518
ወደድህ	-11.3519
▁ነፍሳቸውን	-11.3524
ይወድድ	-11.3528
ስጠው	-11.3528
እንውጣ	-11.3529
መጣባቸው	-11.3534
ይሠራሉ	-11.3534
ያለህን	-11.354
በኢዮስያስ	-11.3542
ወደደች	-11.3543
አማርያ	-11.3554
መዛሙርቱን	-11.3556
ተቀመጥሁ	-11.3556
ተዋት	-11.3565
በልተው	-11.3566
ወረደ፥	-11.3576
ጠላቱ	-11.358
ያጥን	-11.3585
ጠላሁ	-11.3595
አደረገለት	-11.3632
▁ነቢያትን	-11.3635
በሰማርያም	-11.3646
አለቀሱ	-11.3656
በአባቱም	-11.3658
ይሁዳንና	-11.3671
በፈርዖንና	-11.3676
ግመል	-11.3682
ላላቸው	-11.3687
▁ሞተ፤	-11.3695
▁አለፈ፥	-11.3695
ለአባቶችህ	-11.3707
ተቀበሉት	-11.3712
ጉባኤውም	-11.3725
ማኔ	-11.3736
▁አለህ	-11.3737
የንጉሡም	-11.3738
ለአሮንና	-11.374
ነውርም	-11.3742
በዚያችም	-11.3747
▁አይችልም።	-11.375
▁ትሆናለች፤	-11.3752
መልክያ	-11.3758
ጽድቅንም	-11.3773
▁መልሰው።	-11.3776
የሚሆነው	-11.3785
▁መጥተው።	-11.3803
በከተማው	-11.3816
▁ሰማያትን	-11.3832
▁ተቀመጡ፤	-11.3838
የተሸከሙ	-11.3842
በሰንበትም	-11.3852
ነቢዩን	-11.386
አራም	-11.3871
ዳርዮስ	-11.3887
ዕብራውያን	-11.3892
በስድስተኛው	-11.3909
አይልም	-11.3912
▁የቀሩትን	-11.3916
ከማኅፀን	-11.3918
አልጋው	-11.3948
▁በፍታም	-11.3954
ይበለው	-11.3976
ከሕዝቡም	-11.398
▁መንገዳቸውን	-11.3991
በጥዋት	-11.4008
▁በቅጥር	-11.4068
በመሠዊያውም	-11.407
በአንቺም	-11.407
ይበላቸው	-11.4096
ለመኑ	-11.4099
አገኘው	-11.4101
▁አየ፥	-11.4119
ያወጣው	-11.4122
መሰምርያ	-11.4142
የሚናገሩ	-11.4158
ያስተውሉ	-11.416
በሁሉም	-11.4161
የቂጣ	-11.4161
ቀጠቀጠ	-11.4164
ወደዳችሁ	-11.4164
አዳራሾች	-11.4164
r	-11.4165
ምንዝር	-11.4165
ባትሰሙ	-11.4165
ተዋረደ	-11.4165
የሚወዱ	-11.4165
መሃናይም	-11.4165
መስቀል	-11.4165
መንገዶች	-11.4165
መጥተዋል	-11.4165
ሚዛኑም	-11.4165
ማገልገያ	-11.4165
ምላሳቸው	-11.4165
ምልክቱ	-11.4165
ምክራቸው	-11.4165
ምጽዋት	-11.4165
ሮማኖች	-11.4165
ሰብስቡ	-11.4165
ሰዱቃውያን	-11.4165
ሲዶናውያን	-11.4165
ቀልጠው	-11.4165
በሚኖሩት	-11.4165
በዓለት	-11.4165
በዝግባ	-11.4165
በፊታችን	-11.4165
ቢታንያ	-11.4165
ባልንጀሮቹ	-11.4165
ብልሃተኛ	-11.4165
ቦዔዝም	-11.4165
ተነሺ	-11.4165
ታናሺቱ	-11.4165
ትወስድ	-11.4165
ትወዳላችሁ	-11.4165
ኃጢአቴን	-11.4165
ኋለኞች	-11.4165
ነገሥታቶቻቸው	-11.4165
ነፍሳችን	-11.4165
አርሞንዔም	-11.4165
አስነሣው	-11.4165
አብልጦ	-11.4165
አኪማአስ	-11.4165
አይዞህ	-11.4165
አይጸናም	-11.4165
እስኪጠፉ	-11.4165
እነሣለሁ	-11.4165
እንደሚሠራ	-11.4165
እንዳላችሁ	-11.4165
እንዳልሆነ	-11.4165
እየጮኹ	-11.4165
እፉኝት	-11.4165
ከመካከላቸው	-11.4165
ዓይናችን	-11.4165
የሚመስለው	-11.4165
የሚሰጠው	-11.4165
የሚናገረው	-11.4165
የሚያምኑ	-11.4165
የሚያይ	-11.4165
የሚጠጣ	-11.4165
የምትኖር	-11.4165
የተረገመ	-11.4165
የናዝሬቱ	-11.4165
ይሆንበታል	-11.4165
ይሸከማል	-11.4165
ይታያል	-11.4165
ይደርሳል	-11.4165
ጀምረው	-11.4165
ገበታዎች	-11.4165
ጠላቶቹን	-11.4165
ጠራቢዎች	-11.4165
ፌዘኛ	-11.4165
▁መስሎ	-11.4165
▁አለቻት።	-11.4165
▁ኢዮብም	-11.4165
ሰፈራቸው	-11.4165
እመጣለሁ	-11.4165
ይሰግዱ	-11.4165
አስባለሁ	-11.4165
አይደለንም	-11.4165
የምስራች	-11.4165
ብንሆን	-11.4165
ንግግር	-11.4165
ያልተገረዘ	-11.4166
አንችልም	-11.4166
ነገራችሁ	-11.4166
ትበላለህ	-11.4166
ሰይፌ	-11.4166
ውርደት	-11.4166
ጥበበኛ	-11.4166
አልሰማም	-11.4166
ለመንሁ	-11.4166
ስደተኛ	-11.4167
አልመጣም	-11.4167
መምሰል	-11.4168
የተገኘውን	-11.4168
ውደዱ	-11.4171
ተነሥቶአል	-11.4174
ለአብርሃምና	-11.4174
ይፈራሉ	-11.4176
በኮረብታው	-11.4177
ሰውዬው	-11.4178
ለደኅንነትም	-11.4184
ይጠጣሉ	-11.4184
ተቀመጠበት	-11.4186
ጌታቸው	-11.4187
ተገለጠለት	-11.4187
የቤቱንም	-11.4188
መባውም	-11.419
አይመለስም	-11.419
በጥቂት	-11.419
ጆሮህን	-11.4192
▁ጠየቁት።	-11.4194
የተሠራውን	-11.4197
የይስሐቅም	-11.4203
▁ታቀርባላችሁ።	-11.4206
እራት	-11.4211
▁አኖረው።	-11.4212
መሎጊያዎቹንም	-11.4213
ሥርዓቱንም	-11.4213
▁ይላቸዋል።	-11.4214
በደላቸው	-11.4216
በሰልፍም	-11.4219
ዕቃውም	-11.4232
▁ማስተዋልን	-11.4234
▁የሌለባቸውን	-11.424
የደኅንነቱን	-11.4243
ልብሳቸውንም	-11.4244
▁የእውነት	-11.4245
ይራራል	-11.4246
ይሰማሉ	-11.4246
ስደት	-11.4247
ተስፋዬ	-11.4253
ተዋበ	-11.4257
እኅትዋ	-11.4276
ልሄድ	-11.4281
በጎችና	-11.4296
▁ሆኖአልና	-11.431
ጠበቃ	-11.4312
ተራራዬ	-11.4313
▁ነበሩት።	-11.4319
ከባርነት	-11.4328
ምረጥ	-11.4338
እግሩንም	-11.4338
ልብስህ	-11.4342
▁ከሳኦል	-11.4342
አይደለህምን	-11.4344
ጠይቁት	-11.4348
ለፍርድ	-11.436
ራሳቸውንም	-11.4386
ጠራችው	-11.439
በመዓት	-11.4404
አምላኬን	-11.4406
አለበት	-11.4429
ሽማግሌዎችና	-11.4442
አውራውን	-11.4446
ጠላትህ	-11.4461
እጅዋን	-11.4463
▁መካን	-11.447
በተሠራ	-11.4472
ማደሪያውም	-11.448
ይመልሱ	-11.4497
ከከተማው	-11.4509
ለአሕዛብም	-11.4523
ሰይፍና	-11.4531
ለመታሰቢያ	-11.4546
የፋርስ	-11.4548
▁ተናገረ፤	-11.4556
ጠየቀው	-11.4597
ለአንዱም	-11.4608
በከተሞቻቸው	-11.4619
በሰማያዊ	-11.4626
በስማቸው	-11.4643
በቅድስና	-11.4661
▁ነበሩና	-11.4664
▁አደሰ።	-11.4681
▁ጠየቀው።	-11.4687
በምሥራቅም	-11.4687
አታውቁም	-11.4712
▁አቀረቡ።	-11.4717
▁ይሁኑ፤	-11.4721
ተልባ	-11.4723
▁ይጠፋሉ።	-11.4724
▁እሰጣለሁ።	-11.4743
ለመኑት	-11.4747
▁የሌለበትን	-11.4756
ከስፍራው	-11.4761
▁የሆኑትን	-11.4793
▁አውቃለሁና	-11.4793
▁በሬዎች፥	-11.4794
የተደረገ	-11.4811
በሰማይና	-11.4814
የወይራ	-11.4815
ፍጻሜው	-11.482
የሚያደርገው	-11.4827
ላደረገ	-11.4861
▁ውሰድ፤	-11.4868
ትኖራለች	-11.4889
አኖራቸው	-11.4889
የአምላኩ	-11.4894
ያመልጥ	-11.4908
መታጠቢያ	-11.4916
ተቃዋሚ	-11.4916
የሚያስጨንቁ	-11.4916
ሆንሽ	-11.4916
ለሚጠብቁ	-11.4916
ለበጣቸው	-11.4916
ልኮኛል	-11.4916
ሕይወቴን	-11.4916
መሠረቱ	-11.4916
መሥዋዕታቸው	-11.4916
መንኰራኵሮች	-11.4916
መወርወሪያዎች	-11.4916
ማዕበል	-11.4916
ሠርተው	-11.4916
ሠርቶአል	-11.4916
ሰላትያል	-11.4916
ሰናክሬም	-11.4916
ሲሰሙ	-11.4916
ሲናገሩ	-11.4916
ሹማምቶች	-11.4916
በሕይወታቸው	-11.4916
በሚባል	-11.4916
በማግሥቱ	-11.4916
በሬውን	-11.4916
በከንፈሩ	-11.4916
በዕብራይስጥ	-11.4916
በዝቶአል	-11.4916
በፈቃዳቸው	-11.4916
ተሞልታለች	-11.4916
ተሻገር	-11.4916
ተቀምጠዋል	-11.4916
ተአምራቱ	-11.4916
ተከፈለ	-11.4916
ተገለጡ	-11.4916
ተፈወሰ	-11.4916
ታደርጋለች	-11.4916
ትሰጣላችሁ	-11.4916
ቸርነቱ	-11.4916
አመለኩ	-11.4916
አመጣቸዋለሁ	-11.4916
አሞራዊው	-11.4916
አስቀድማችሁ	-11.4916
አስተምረኝ	-11.4916
አትፍሪ	-11.4916
አንደበቴ	-11.4916
አንጥረኛ	-11.4916
አውቀው	-11.4916
አዝዣለሁ	-11.4916
አደርጋቸዋለሁ	-11.4916
አድራጊዎች	-11.4916
አድርገናል	-11.4916
አገሪቱ	-11.4916
አጥንቴ	-11.4916
ኢያዜር	-11.4916
ኤዊያውያን	-11.4916
እሆናቸዋለሁ	-11.4916
እምቦሳ	-11.4916
እሞታለሁ	-11.4916
እነማን	-11.4916
እናውቅ	-11.4916
እንስሶቻቸው	-11.4916
እንድርያስ	-11.4916
ከሐምራዊም	-11.4916
ከቀይም	-11.4916
ከንፈሮቼ	-11.4916
ኪራምም	-11.4916
ኵላሊቶች	-11.4916
ወዳሉት	-11.4916
ዓይኖቻችሁ	-11.4916
ዘመዶች	-11.4916
ዝንጕርጕር	-11.4916
የሚያሰኘውን	-11.4916
የሚያቀርበው	-11.4916
የሚፈልግ	-11.4916
የሻለቃው	-11.4916
የባዶስ	-11.4916
የተናገርኸው	-11.4916
የታሰረ	-11.4916
የኀጥኣን	-11.4916
የናታንያ	-11.4916
ያለቅስ	-11.4916
ያስተምራቸው	-11.4916
ያበዛል	-11.4916
ይሒኤል	-11.4916
ይሰበሰባሉ	-11.4916
ይሰጣችኋል	-11.4916
ይሸከም	-11.4916
ይነግዱ	-11.4916
ይገረዝ	-11.4916
ዮፍታሔም	-11.4916
ጐበዛዝት	-11.4916
ጩኸታቸው	-11.4916
ፌርዛውያን	-11.4916
እመለሳለሁ	-11.4916
እባካችሁ	-11.4916
እወጣለሁ	-11.4916
እጥላለሁ	-11.4916
ጥፍጥፍ	-11.4916
ሰይፋቸው	-11.4916
በድያለሁ	-11.4916
እምላለሁ	-11.4916
ይወርሳል	-11.4916
ትከተሉ	-11.4916
ውሰደው	-11.4916
ፍርምባ	-11.4916
ያየሁት	-11.4916
ባሪያይቱ	-11.4916
ወደምትባል	-11.4916
እንበረም	-11.4916
ስልማና	-11.4916
አካሄዱ	-11.4917
ይሰጣሉ	-11.4917
ያጠፋቸው	-11.4917
አወጣለሁ	-11.4917
ለባልንጀራው	-11.4917
መለየት	-11.4917
ነውረኛ	-11.4918
በየስማቸው	-11.4919
የሚቀመጡትን	-11.492
አልፎአል	-11.4921
ይለናል	-11.4921
ይዘረጋል	-11.4921
ማርከው	-11.4921
የተረፈውን	-11.4921
ፍልስጥኤማዊውን	-11.4921
የምትሉ	-11.4922
ማልሁላቸው	-11.4924
አደሱ	-11.4924
የምትቀመጥ	-11.4926
ሲላስ	-11.4926
ችግረኛውን	-11.4928
መውጫውም	-11.4929
ከመካከልህ	-11.4931
▁ነበረች፥	-11.4937
አማቱ	-11.4941
ገበታውን	-11.4943
ፋሲካውን	-11.4944
በመካከልህ	-11.4945
ምስክርህን	-11.4953
ሰገዱለት	-11.4955
የገቡት	-11.4956
አያደርግም	-11.4958
ሳይኖር	-11.4962
በለሱ	-11.4962
▁የአባቶቻቸውን	-11.4994
አሳባቸውን	-11.4994
እያየ	-11.5007
▁ስማ፥	-11.5015
አማች	-11.5018
በሮችዋ	-11.5019
ይጠብ	-11.5027
መንግሥትም	-11.5032
አምስቱንም	-11.504
አይተዋል	-11.5046
ደስታዬ	-11.5052
ከምርኮ	-11.5058
ከተቀደሰው	-11.5058
መሆናችሁ	-11.5061
▁ሰጠ፥	-11.5092
በደልሁ	-11.5093
ይገድል	-11.5097
ናባው	-11.5109
አሮንንና	-11.5125
አሦርም	-11.5127
አራዊትም	-11.5156
ለመስማት	-11.5167
አሳይ	-11.5172
ሳይመጣ	-11.5183
ፈራሁ	-11.5184
መመለስ	-11.5186
▁ሉያ።	-11.5188
የሰነፍ	-11.5189
አድርግለት	-11.5192
እፍ	-11.5196
ሰዶምና	-11.5203
አካሉ	-11.5228
በዚህና	-11.5228
አይግባ	-11.5233
▁ይሄዳል፤	-11.5238
መሰምርያዋ	-11.5238
▁አመጡ፤	-11.5238
▁ወለደች፤	-11.5238
ከንፍታሌም	-11.5241
የተመረጡ	-11.525
ከማድረግ	-11.5259
አይብላ	-11.5261
የመሠዊያው	-11.5271
የአባቶቻችሁ	-11.5285
▁ወረደ፤	-11.5294
አልህ	-11.5297
▁ትሆናለች፥	-11.5303
በባሕርም	-11.5305
መለስሁ	-11.5316
አየና	-11.5332
ቅዱሱን	-11.5339
▁ደረሰ።	-11.5352
ሰረገሎችና	-11.5353
▁ተነሣ፤	-11.5359
▁የንፍታሌም	-11.5368
ተቀደሰው	-11.5391
▁ይኖራል፤	-11.542
ከተማቸው	-11.5421
▁ሳሉ፥	-11.5432
መሐላው	-11.5439
በናስ	-11.5457
በባቢሎንም	-11.5471
ተመቱ	-11.5494
ሄድን	-11.5497
አይደለህም	-11.5522
የሚመልስ	-11.5523
▁ልጅዋን	-11.5554
በተንኰል	-11.5565
▁ገቡ።	-11.5566
በጌልገላ	-11.5588
ይተዋል	-11.559
ለሁሉም	-11.5593
መረጥሁ	-11.5618
ከሚስቱ	-11.5638
አትመልስ	-11.568
ባላችሁ	-11.5717
ተግባር	-11.5723
ታስተውሉ	-11.5726
ተከፈቱ	-11.5727
ተመሸገ	-11.5727
አይተሃል	-11.5727
ይመስላችኋል	-11.5727
ፕ	-11.5727
ልብሶች	-11.5727
መለኪያ	-11.5727
መረገጫ	-11.5727
መቅሠፍቱ	-11.5727
መቅረዝ	-11.5727
መበለቶች	-11.5727
መኰንን	-11.5727
መግደላዊት	-11.5727
ረድኤት	-11.5727
ሰቀሉት	-11.5727
ሰንፔር	-11.5727
ሰፋጥያስ	-11.5727
ሽምግልና	-11.5727
ቀስተኞች	-11.5727
ቀደዱ	-11.5727
ቍጥራቸውም	-11.5727
በሚሰጥህ	-11.5727
በሚኖሩበት	-11.5727
በስሙም	-11.5727
በቈላው	-11.5727
በበሩም	-11.5727
በኣሊምን	-11.5727
በዓላት	-11.5727
በዓይናችሁ	-11.5727
በየቀኑ	-11.5727
ቤትሖሮን	-11.5727
ብለሃል	-11.5727
ብልሃተኞች	-11.5727
ተመላለሱ	-11.5727
ተረፉት	-11.5727
ተቀመጣችሁ	-11.5727
ተነጋገሩ	-11.5727
ተናወጠች	-11.5727
ተንቀሳቃሽ	-11.5727
ተከማቹ	-11.5727
ተዉአቸው	-11.5727
ተደነቀ	-11.5727
ተገናኘው	-11.5727
ታቀርባለህ	-11.5727
ትዕቢተኛ	-11.5727
ንጉሣቸው	-11.5727
አልራቀም	-11.5727
አልፈው	-11.5727
አስቀመጠ	-11.5727
አትደንግጥ	-11.5727
አንካሶች	-11.5727
አዋቂዎች	-11.5727
አይታችኋል	-11.5727
አግሪጳ	-11.5727
አጥንቶች	-11.5727
ኢኮንያን	-11.5727
እኅታቸው	-11.5727
እንቢልታ	-11.5727
እንኖራለን	-11.5727
እንዳላቸው	-11.5727
እንዳትሆን	-11.5727
እንዳዘዛቸው	-11.5727
እንዳያዩ	-11.5727
እንዳይሞቱ	-11.5727
እንዳገኘ	-11.5727
እንጨቱን	-11.5727
እዘዛቸው	-11.5727
እያንዳንዳችን	-11.5727
ከብቶቻቸው	-11.5727
ኬጢያዊውን	-11.5727
ወታደሮች	-11.5727
ዓይናቸውን	-11.5727
ዓይኖቹም	-11.5727
ዕብራዊ	-11.5727
የመጠጡ	-11.5727
የሚሸፍነውን	-11.5727
የሚኖረው	-11.5727
የሚያነሣ	-11.5727
የሰሜን	-11.5727
የኖረበት	-11.5727
ያዛቸው	-11.5727
ይልሃል	-11.5727
ይረጨዋል	-11.5727
ይሩበኣል	-11.5727
ይቀራል	-11.5727
ይበዛል	-11.5727
ይታጠብ	-11.5727
ይደነግጣሉ	-11.5727
ይፈልጋል	-11.5727
ደነደነ	-11.5727
ድንኳኖቻቸው	-11.5727
ድንግሊቱ	-11.5727
ፊተኛይቱ	-11.5727
አድናለሁ	-11.5727
እልካለሁ	-11.5727
አሳያቸው	-11.5727
አፍርሰዋል	-11.5727
ይገልጣል	-11.5727
አላየውም	-11.5727
ተለይተው	-11.5727
በድለናል	-11.5727
ተከማቸ	-11.5727
አትችልም	-11.5727
ያመለጠ	-11.5727
ተጣጣሉ	-11.5727
መቃጠል	-11.5727
መርበብ	-11.5727
ያይደለ	-11.5728
መረግድ	-11.5728
እንደየስማቸው	-11.5728
አመለከ	-11.5728
እስኪሆን	-11.5729
መልሰን	-11.5729
ጠርተው	-11.5729
ምዋርት	-11.5729
ከብቱን	-11.5731
ያበራል	-11.5731
በየወገኑ	-11.5731
ማንኛው	-11.5732
ያልሆነውን	-11.5733
እናንት	-11.5734
በየስፍራው	-11.5735
በረዶውም	-11.5735
የላከውን	-11.5736
ይቀርባል	-11.5737
ሰደድሁ	-11.5737
ብሎኛል	-11.574
ባት፤	-11.5744
በጣቱ	-11.5748
ይገዛሉ	-11.575
ስንዴውን	-11.5757
በተራራማውም	-11.5757
ይወርድ	-11.5761
የሁለተኛውም	-11.5761
አይሰማም	-11.5762
ገለበጠ	-11.5765
የሦስት	-11.5768
▁ተጠንቀቁ።	-11.5775
ተቀበልሁ	-11.5776
እንዳይጠፋ	-11.5778
ሳመው	-11.5779
በደጅ	-11.578
መስላ	-11.5782
በእጁም	-11.5785
ሰብስብ	-11.5785
ፍሬውም	-11.5787
አረደ	-11.5789
ለበሱ	-11.579
የሠራውም	-11.5793
ለማግኘት	-11.5794
ደረት	-11.5794
▁ኢያሱን።	-11.5795
ብብት	-11.5798
ከምዕራብ	-11.5798
▁እናውቃለን።	-11.58
የዮሴፍም	-11.5802
ሰበከ	-11.5803
▁ተባለ።	-11.5806
ትእዛዜንም	-11.5808
የተመረጠው	-11.5812
የተመሰገነ	-11.5818
ያከብር	-11.5822
▁የለውም።	-11.5825
ተመለስሁ	-11.5828
ባድማና	-11.5832
መረጥሁት	-11.5837
▁በሉት።	-11.5842
▁ገደለ፤	-11.5853
ዋጋውን	-11.5855
በማኅበሩ	-11.5857
አይተን	-11.5861
መታመን	-11.5865
አፍዋን	-11.5881
ሰውንና	-11.5923
ሄድህ	-11.593
ለመብላት	-11.5933
መልስልኝ	-11.5935
ይዋጋል	-11.596
ይችል	-11.5966
ሰባቱንም	-11.5967
ይላችሁ	-11.5978
አልኋቸው	-11.5986
በአርኖን	-11.5989
የቀረውንም	-11.6039
ለልጆችህ	-11.6043
ቃሌንም	-11.6048
ጴጥሮስና	-11.6056
▁ለካህናቱ	-11.6065
እውነትህም	-11.6103
በቁርበቱ	-11.6111
ልበስ	-11.6121
ተሰቀለ	-11.6121
በቅድስተ	-11.6136
▁እርሻውን	-11.6147
ለሕዝብህ	-11.6199
የምድርንም	-11.622
ለሰነፍ	-11.6242
ይሰጠን	-11.6245
▁ምድራቸውን	-11.6256
ከጥፋት	-11.6262
መለሰላቸው	-11.628
በዓረባ	-11.6285
𐋇	-11.6307
እጃችን	-11.6331
አርኖን	-11.6331
▁መለሱለት።	-11.6333
▁አልኋቸው።	-11.6335
▁ጠራችው።	-11.6339
በሕዝቡም	-11.6346
▁አስብ፤	-11.6355
▁ያጠፋል።	-11.6361
▁ተመልከት፤	-11.6364
▁አይሆንም፤	-11.6368
▁አልቻሉም።	-11.6374
▁ይመለሳል።	-11.6374
▁ቀበሩት።	-11.6381
▁አድነኝ።	-11.6383
ጥበብህ	-11.6394
▁ሆኖአል።	-11.6405
▁ያውቃል።	-11.6408
በሴቶች	-11.6476
▁ጠብቁ።	-11.6518
አስጠራ	-11.652
አምስተኛ	-11.6523
የተመረጠ	-11.6526
የታመኑ	-11.6539
ሰብስበው	-11.6563
በታላቅም	-11.657
የዛብሎን	-11.6588
በሥራው	-11.6593
ፍልስጥኤማዊ	-11.6601
▁ፊታቸውን	-11.6602
የተረፈ	-11.6603
እየሰበከ	-11.6603
ተኣምራት	-11.6607
የሚያገለግሉ	-11.661
ራቁትነት	-11.661
ቀረባችሁ	-11.661
ለመርዳት	-11.661
ለመዋጋት	-11.661
ለመውጋት	-11.661
ለመገናኘት	-11.661
መምታት	-11.661
መሰደቢያ	-11.661
መቅረዞች	-11.661
መበለቲቱን	-11.661
መበስበስ	-11.661
መግዛት	-11.661
መጥረቢያ	-11.661
መጥቻለሁ	-11.661
ማለፊያ	-11.661
ማክማስ	-11.661
ምሄድበት	-11.661
ምናምንቴዎች	-11.661
ሠርተናል	-11.661
ራቁቱን	-11.661
ሰልሞን	-11.661
ሰውነታችን	-11.661
ሴሰኝነት	-11.661
ሹማምት	-11.661
ቀራጮችና	-11.661
ቀድሳቸው	-11.661
ቈርጠው	-11.661
ቋንቋቸው	-11.661
በልሳኖች	-11.661
በመሸም	-11.661
በሚባለው	-11.661
በበረሀ	-11.661
በትጋት	-11.661
ባልንጀሮች	-11.661
ተለውጦ	-11.661
ተመሠረተ	-11.661
ተራራዎች	-11.661
ተስማሙ	-11.661
ተሸክመው	-11.661
ተንኰለኛ	-11.661
ተወሰነው	-11.661
ተዘጋጅታ	-11.661
ተደፍቶ	-11.661
ታላላቆቹ	-11.661
ታናናሾች	-11.661
ትላቸዋለህ	-11.661
ትሞታላችሁ	-11.661
ትናገራለህ	-11.661
ትፈልጋላችሁ	-11.661
ኀፍረተ	-11.661
ኃይለኞች	-11.661
አላስተዋሉም	-11.661
አላገኘሁም	-11.661
አልኋችሁ	-11.661
አልፈቀደም	-11.661
አመሰገነ	-11.661
አመሰገኑ	-11.661
አመንዝሮች	-11.661
አስተዋልሁ	-11.661
አስተዋዮች	-11.661
አስነሣለሁ	-11.661
አቆማቸው	-11.661
አብዩድ	-11.661
አንሥተው	-11.661
አይሞትም	-11.661
አይቶአል	-11.661
አይጠቅምም	-11.661
አደረጋችሁ	-11.661
አድነን	-11.661
አጥፊው	-11.661
አፈለሰ	-11.661
እመልሳቸዋለሁ	-11.661
እሰበስባቸዋለሁ	-11.661
እነግራችኋለሁ	-11.661
እንዲቀበሉ	-11.661
እወስዳለሁ	-11.661
እያለቀሱ	-11.661
እድናለሁ	-11.661
ከመጠጡም	-11.661
ከሜራሪ	-11.661
ከምድሩ	-11.661
ከየነገዱ	-11.661
ወሰዳቸው	-11.661
ወጥተህ	-11.661
ዖቤድኤዶም	-11.661
የሚሠራው	-11.661
የሚበቃ	-11.661
የሚተኛ	-11.661
የማዝዝህን	-11.661
የምትናገሩ	-11.661
የራጉኤል	-11.661
የዋህነት	-11.661
የዔናቅ	-11.661
የጽዮንን	-11.661
ያለቅሳሉ	-11.661
ያቃጥላል	-11.661
ያዘዝሁህን	-11.661
ያደረግኸው	-11.661
ያድነናል	-11.661
ያጠፋቸዋል	-11.661
ያፈርስ	-11.661
ያፈስሱ	-11.661
ይላታል	-11.661
ይመለከታሉ	-11.661
ይሞላል	-11.661
ይሰጣቸዋል	-11.661
ይሸሻሉ	-11.661
ይቀበላሉ	-11.661
ይቆማሉ	-11.661
ይወርዳሉ	-11.661
ይዋረዳል	-11.661
ይፈልጋሉ	-11.661
ዮፍታሔን	-11.661
ድንኳኖች	-11.661
ጀርባቸው	-11.661
ግብዝነት	-11.661
ግድግዳ	-11.661
ጕልላት	-11.661
ጕልላቶች	-11.661
ጥሎአል	-11.661
ፈለግሁ	-11.661
ተመላለስ	-11.661
ትሰጣለህ	-11.661
አያፍርም	-11.661
ይገባኛል	-11.661
መረጣችሁ	-11.661
አንገታቸውን	-11.661
አልሰማቸውም	-11.661
ባደረግሁ	-11.661
አውጥተው	-11.661
እልከኛ	-11.661
ምትሄድበት	-11.661
ይመላለስ	-11.661
ይጣላል	-11.661
የቀደሰውን	-11.661
ደናግል	-11.661
ሰጥቶኛል	-11.661
አልደረሰም	-11.661
ደከምሁ	-11.661
አልሄዱም	-11.661
እስካለው	-11.661
አጥንቱ	-11.661
ይጠብቃሉ	-11.661
ቀርባለች	-11.661
ትሰጣለች	-11.6611
ቢበድል	-11.6611
አልገባም	-11.6611
ነገረችው	-11.6611
በረከቱ	-11.6612
ተቀመጡባት	-11.6612
አፈርሳለሁ	-11.6613
የለበሰውን	-11.6613
ምንደኛ	-11.6613
ስደዱ	-11.6614
እንዳይደለ	-11.6614
ይሁንልህ	-11.6615
ያፌት	-11.6615
ትእዛዛትህን	-11.6615
መገዛት	-11.6616
መሰላቸው	-11.6619
የወደደውን	-11.662
ሰማያዊውን	-11.6621
ወጣህበት	-11.6621
መታንያ	-11.6621
ጠባብ	-11.6621
አትግባ	-11.6626
ያድግ	-11.6626
አይመጣም	-11.6628
ሰገደለት	-11.6631
እመኑ	-11.6631
የከነዓንን	-11.6633
ሲያልፍ	-11.6633
እሰይ	-11.6633
ያስቱ	-11.6634
ከፍለው	-11.6634
በርባን	-11.6636
በቸነፈርም	-11.6637
▁ሰጣቸው፥	-11.6642
ወንዶችንና	-11.6642
በስፍራውም	-11.6645
በናቡከደነፆር	-11.6653
ሲወርድ	-11.6654
አድኑ	-11.6654
አብረን	-11.6657
የግብጽም	-11.6659
ቢወድድ	-11.666
በጎችንና	-11.6661
ይባርክህ	-11.6661
ያጠፋሉ	-11.6675
ክብርህን	-11.6685
▁ሰማ፤	-11.6685
የወለደች	-11.6687
ባይኖር	-11.6693
ነበረባት	-11.6699
ያለዚያ	-11.6703
ገበሬዎች	-11.6704
ልናገር	-11.6704
አለቀሰች	-11.6708
መብት	-11.6729
አላለም	-11.6732
በዘጠነኛው	-11.6737
ካላቸው	-11.6738
ሰርግ	-11.674
ያገቡት	-11.6747
ቢተኛ	-11.6762
ሆኑላቸው	-11.6764
ይለምኑ	-11.6787
ኢየሩሳሌምንም	-11.6796
ለመጠበቅ	-11.6815
አምሳውን	-11.6848
አትናገር	-11.6853
ሆነናል	-11.6884
በሰይፍም	-11.6889
ከመስማት	-11.6893
በእጃችን	-11.6897
መለሱለት	-11.69
▁ተናገሩት።	-11.6924
አደሰ	-11.6929
አለዚያ	-11.6935
▁አቅርቡልኝ።	-11.6943
▁ለመኑት።	-11.6956
▁ተጠንቀቁ፤	-11.6959
▁መሰምርያዋ፥	-11.6961
▁ያያል፤	-11.6962
▁አለቀሰ።	-11.6964
የዕብራውያን	-11.697
በዳርዮስ	-11.6977
▁አሰበ።	-11.6991
▁እሰጣለሁ፤	-11.6992
▁እሰጥሃለሁ።	-11.7003
▁ይለዋል።	-11.7014
▁ይናገራል።	-11.7017
ኋለኛው	-11.702
በሰማች	-11.7023
የተወለዱ	-11.7057
▁ደረሰ፤	-11.7059
በልብሱ	-11.7063
▁ራሳችንን	-11.7081
የባሰ	-11.709
▁የሰሎሞንን	-11.7097
ትተዋል	-11.7128
▁ተመለሰ፥	-11.7136
የአሳፍ	-11.7202
አሳብህ	-11.7216
▁ይመጣልና	-11.7294
ያምጣ	-11.7301
ይለወጥ	-11.7304
የሚቃጠለው	-11.7336
ከገለዓድ	-11.7458
ይገልጥ	-11.746
ማገልገል	-11.7464
▁ለሁለቱ	-11.7493
ስላደረገ	-11.7553
የተቀረጸ	-11.7573
ከሶርያ	-11.7573
አይደር	-11.7574
የሚያሰኝ	-11.7575
ተንቀጠቀጡ	-11.7578
k	-11.7578
g	-11.7578
ሀብታቸው	-11.7578
ሆምጣጤ	-11.7578
ለሚያምኑ	-11.7578
ለጠቦቶቹም	-11.7578
መሳፍንቱ	-11.7578
መቀመጫዎች	-11.7578
መቃኖች	-11.7578
መኳንንቱ	-11.7578
መውጊያ	-11.7578
መጎናጸፊያ	-11.7578
ማምለክ	-11.7578
ምሰሶቹም	-11.7578
ምግባቸውን	-11.7578
ረአሶን	-11.7578
ሰላዮች	-11.7578
ሰሌምያ	-11.7578
ሰምታችኋል	-11.7578
ሰጥቻለሁ	-11.7578
ስደተኞች	-11.7578
ሶፎንያስ	-11.7578
ቀስቱን	-11.7578
ቁርባን	-11.7578
በልቶአል	-11.7578
በትሮች	-11.7578
በአዕማዱም	-11.7578
በኢዮአቄም	-11.7578
ብትሰሙ	-11.7578
ተነጋገረ	-11.7578
ተገኝቶአል	-11.7578
ታለቅሳለች	-11.7578
ታስባላችሁ	-11.7578
ታገኛለህ	-11.7578
ነገሥታቱ	-11.7578
አላነበባችሁምን	-11.7578
አላወቅሁም	-11.7578
አሦራውያን	-11.7578
አሳደዱአቸው	-11.7578
አስተማሪ	-11.7578
አስወግዱ	-11.7578
አስጢን	-11.7578
አቆማለሁ	-11.7578
አታግባ	-11.7578
አትሂዱ	-11.7578
አትሥሩበት	-11.7578
አትግደል	-11.7578
አንጐራጐሩ	-11.7578
አከማቹ	-11.7578
አዘንብል	-11.7578
አይዞአችሁ	-11.7578
አደጎች	-11.7578
አድርጋቸው	-11.7578
እለምናለሁ	-11.7578
እመታለሁ	-11.7578
እሸቶች	-11.7578
እኅቶች	-11.7578
እነግርሃለሁ	-11.7578
እንደነዚህ	-11.7578
እንዲቀበል	-11.7578
እንዳትል	-11.7578
እንዳደረግህ	-11.7578
እውነቱን	-11.7578
እግረኞች	-11.7578
እጮኻለሁ	-11.7578
ከፈላቸው	-11.7578
ኰበለሉ	-11.7578
ወጥተዋል	-11.7578
የሚመዝዙ	-11.7578
የሚያልፍ	-11.7578
የሚደረግ	-11.7578
የቃሬያም	-11.7578
የኢዮአስ	-11.7578
የዘብዴዎስ	-11.7578
ያዘዛቸው	-11.7578
ያደረጋችሁት	-11.7578
ያደርጋት	-11.7578
ያድነን	-11.7578
ይበቅላል	-11.7578
ይበዛሉ	-11.7578
ይባረካሉ	-11.7578
ይነድዳል	-11.7578
ይንቀጠቀጣሉ	-11.7578
ይንገሥ	-11.7578
ይጠቅማል	-11.7578
ይጭናል	-11.7578
ደበደቡ	-11.7578
ድውዮች	-11.7578
ጀምረህ	-11.7578
ጣዖቶቻችሁ	-11.7578
ጸሎታቸው	-11.7578
ፈርሶአል	-11.7578
ፈጣኖች	-11.7578
ፍላጾች	-11.7578
ፍቅራችሁ	-11.7578
▁ስሙኝ፤	-11.7578
▁አዘዘው።	-11.7578
ሆናችኋል	-11.7578
መለያየት	-11.7578
መሠረቶች	-11.7578
መስቀሉን	-11.7578
ማሰሪያ	-11.7578
ምሰሶቹን	-11.7578
ሥርዓታቸው	-11.7578
ሰንባላጥ	-11.7578
ሲቀርብ	-11.7578
በመካከሉ	-11.7578
በውሸት	-11.7578
በዙሪያችሁ	-11.7578
በግምባሬ	-11.7578
ባቱኤል	-11.7578
ብዛታቸው	-11.7578
ተመላለሰ	-11.7578
ተበቃዩ	-11.7578
ተካፈሉ	-11.7578
አልፈር	-11.7578
አመጣባቸዋለሁ	-11.7578
አርፋክስድ	-11.7578
አያዩም	-11.7578
አድምጠኝ	-11.7578
አድራጊ	-11.7578
ኤልሳቤጥ	-11.7578
እችላለሁ	-11.7578
እንሆናለን	-11.7578
ከጠላቶቼ	-11.7578
ወገባቸው	-11.7578
ይመለከታል	-11.7578
ይሸፍኑ	-11.7578
ዲቦራ	-11.7578
ተናገሩአቸው	-11.7578
ይደርቃል	-11.7578
ትተኛለህ	-11.7578
ትገዛለህ	-11.7578
አልሰማህም	-11.7578
አካይያ	-11.7578
የመታጠቢያውን	-11.7578
አይገባህም	-11.7578
ጥርሳቸው	-11.7578
መለሳችሁ	-11.7578
አሰናበተ	-11.7578
ያቀርባሉ	-11.7578
ጋለሞታይቱ	-11.7578
ሱባዔ	-11.7578
ተገለጥ	-11.7578
የተጠቃ	-11.7578
ይሰማራሉ	-11.7578
አልመጣሁም	-11.7578
ያድራል	-11.7578
መሰምርያቸው	-11.7578
ይሆኑኛል	-11.7579
ያቃጥሉ	-11.7579
ጠንካራ	-11.7579
ይተኛሉ	-11.7579
ቢሰፋ	-11.7579
ይሰግድ	-11.7579
የተዋበች	-11.758
ሌላይቱ	-11.758
የወጣውን	-11.758
የጠፋውን	-11.758
እንዲሰጥ	-11.7581
ወደዚች	-11.7581
አላደረጉም	-11.7582
ቢሰጥ	-11.7582
ይጥላል	-11.7582
አካሄድ	-11.7582
አድናት	-11.7584
አስተውል	-11.7584
ማዳንህን	-11.7584
የቂጣውን	-11.7584
ያፈራል	-11.7585
የተመሸጉትን	-11.7585
የተሰወረው	-11.7585
ጠፍር	-11.759
ደረሰባቸው	-11.7592
የተሰጠውን	-11.7594
የልመናዬን	-11.7594
አረዱ	-11.7595
እስኪያልፍ	-11.7596
አባትህንና	-11.7597
የምድያምን	-11.76
ተከሉ	-11.76
በሸለቆውም	-11.7601
ሳይደርስ	-11.7603
ፈረሰኛ	-11.7605
የተፈራ	-11.7605
▁ትኖራለች።	-11.7614
▁አኖራቸው።	-11.7614
በዘመኑም	-11.7614
የምታደርግ	-11.7614
ተገልጦአል	-11.7615
አይወጣም	-11.7617
አልልም	-11.7623
በመንገዱም	-11.7623
▁ለመነው።	-11.763
አረግ	-11.7632
▁ያውቃሉ፤	-11.7633
ገባባት	-11.7634
ለማፍሰስ	-11.7635
ደከመች	-11.7637
ይውሰድ	-11.7638
▁ተመልከቱ፤	-11.7638
▁መንደሮቻቸው።	-11.7639
ስደድ	-11.764
ፍጠን	-11.764
▁እንዲመጣ	-11.764
▁ወለደችለት።	-11.7642
▁አቆመ።	-11.7645
▁ይወስዳል።	-11.7647
አገረ	-11.7648
ተሰምቶአል	-11.7649
▁አይገኝም።	-11.765
አውናን	-11.765
የዚያች	-11.7651
▁ጸለየ።	-11.7652
▁ይበላል።	-11.7655
▁አውቃለሁ፤	-11.7658
▁ሰውነታቸውን	-11.7659
▁ተቀበረ።	-11.7664
እየሆኑ	-11.7667
▁ተቀበሉ።	-11.767
በርኔ	-11.7672
ካስማ	-11.7675
ያደረግሁ	-11.7675
ያወጣሉ	-11.768
የኤዶምያስን	-11.768
አጥር	-11.7689
▁የሚያደርገውን	-11.7695
ያሳይ	-11.7698
ይጠግቡ	-11.7698
ከማሳደድ	-11.7699
▁ወሰዱ።	-11.7707
ተቀመጥህ	-11.7713
በአሦር	-11.773
ለማደሪያውም	-11.7736
ነበረባቸው	-11.7743
ምርኮውን	-11.7751
▁የሚሉትን	-11.7758
አደረገላቸው	-11.7771
▁ሲገባ	-11.7788
▁አልነበረም፥	-11.7788
ከራፋይም	-11.7808
▁የፍልስጥኤማውያንን	-11.7882
ለልጆቻቸው	-11.7892
አልባ	-11.7902
ተመሸጉት	-11.7912
ይገደሉ	-11.7918
የአምላክን	-11.7927
የምትል	-11.8036
ጊዜውን	-11.8042
ዳርቻቸው	-11.8067
የማደሪያው	-11.8068
ይፍረድ	-11.8094
ልብሱም	-11.8149
w	-11.828
አገኘች	-11.8302
▁አለቀሱ።	-11.8323
ይራራ	-11.8325
▁ይበላል፤	-11.8334
▁አደረጋቸው።	-11.8335
ከአባቶቻችን	-11.8338
▁አይችልም፤	-11.8339
ሆነበት	-11.8339
▁ገደሉት።	-11.8344
▁አቀረበ፤	-11.8349
▁እላለሁ፤	-11.8351
ሰንሰለት	-11.8372
▁ይበላችሁ።	-11.8374
▁ሰደደ፤	-11.8383
▁አቀረበ።	-11.8384
▁ነደደ፥	-11.8391
ጣላት	-11.8487
ሰውነታቸው	-11.8561
ይነድድ	-11.8629
ምታፈስሰው	-11.8638
ተደርጎ	-11.8649
ተገረዘ	-11.865
ለዘላለሙ	-11.8651
ላክኋቸው	-11.8651
መምህሩ	-11.8651
መቅሠፍቴን	-11.8651
መተላለፊያ	-11.8651
መንፈሳችሁ	-11.8651
መዛነቢያዎቹም	-11.8651
ማረፊያ	-11.8651
ምሳሌዎች	-11.8651
ሠርተህ	-11.8651
ሰንበታቴንም	-11.8651
ሰጥቶታል	-11.8651
ሰጥቼአለሁ	-11.8651
ሲነጋገሩ	-11.8651
ሲድራቅና	-11.8651
ስለሚሆን	-11.8651
ስቀለው	-11.8651
ሽመልመሌ	-11.8651
በሚናገሩ	-11.8651
በእልልታ	-11.8651
በእርሳቸው	-11.8651
በዘርህ	-11.8651
በዙሪያችን	-11.8651
በዙሪያዬ	-11.8651
በየሰሞናቸው	-11.8651
በጥቂቱ	-11.8651
ባሎቻቸው	-11.8651
ባስልኤል	-11.8651
ባዶውን	-11.8651
ተመልከቺ	-11.8651
ተሰሎንቄ	-11.8651
ተሰብሰቡ	-11.8651
ተናግረሃል	-11.8651
ተከናወነ	-11.8651
ተፈቅዶአል	-11.8651
ታስተምር	-11.8651
ታደርገዋለህ	-11.8651
ታደርጋቸዋለህ	-11.8651
ትመላለሱ	-11.8651
ትምክህት	-11.8651
ኑሮአችሁ	-11.8651
አላስቀረም	-11.8651
አላውቀውም	-11.8651
አልተመለሰችም	-11.8651
አምላኮቻቸው	-11.8651
አሞናውያን	-11.8651
አስቀድመን	-11.8651
አታመንዝር	-11.8651
አኑሩት	-11.8651
አይዘገይም	-11.8651
አጥማጆች	-11.8651
ኢይዝራኤላዊው	-11.8651
ኢዮሳፍጥ	-11.8651
እመለከታለሁ	-11.8651
እምነቱ	-11.8651
እንዳዘዝሁህ	-11.8651
እንዳያልፍ	-11.8651
እንዳይሰሙ	-11.8651
እንድታውቁ	-11.8651
እጸልያለሁ	-11.8651
እጽፍላችኋለሁ	-11.8651
እፈጽማለሁ	-11.8651
ከመካከላችሁ	-11.8651
ከሚቀመጡ	-11.8651
ከሚወርዱ	-11.8651
ኰበለለ	-11.8651
ወረድሁ	-11.8651
ወስደዋል	-11.8651
ወደሚሆን	-11.8651
ዘይቱም	-11.8651
የሚሆኑትን	-11.8651
የሚቃወም	-11.8651
የሚበልጠው	-11.8651
የሚታመን	-11.8651
የሚከፍት	-11.8651
የሚያበራ	-11.8651
የሚያኖር	-11.8651
የሚያፈራ	-11.8651
የሠሩትን	-11.8651
የተናቀ	-11.8651
ያረክስ	-11.8651
ያደርጋቸዋል	-11.8651
ያድነዋል	-11.8651
ያድናቸዋል	-11.8651
ይሆንለታል	-11.8651
ይመሰክር	-11.8651
ይሞላሉ	-11.8651
ይረግፋል	-11.8651
ይሮጣሉ	-11.8651
ይሰናከላሉ	-11.8651
ይስዓር	-11.8651
ይቈጣል	-11.8651
ይታመናሉ	-11.8651
ይታወቃል	-11.8651
ይዘምራሉ	-11.8651
ይዘራል	-11.8651
ይያዛል	-11.8651
ይፈስሳል	-11.8651
ደረጃዎች	-11.8651
ደንዳና	-11.8651
ጠይቀው	-11.8651
ጣፋጩን	-11.8651
ፈርሰዋል	-11.8651
ፈንታቸው	-11.8651
ፈወሳቸው	-11.8651
ለሚቀመጡ	-11.8651
ማጽናናት	-11.8651
ምኞታቸው	-11.8651
ሰዎቻቸው	-11.8651
ቂርያትአርባቅ	-11.8651
ባልቴቶች	-11.8651
አናጢዎች	-11.8651
አዝዞአል	-11.8651
እፈራለሁ	-11.8651
ከተሞቹን	-11.8651
ከንፈሩን	-11.8651
ወላጆች	-11.8651
ወንበዴዎች	-11.8651
ዋነኛው	-11.8651
ዓይበታቸው	-11.8651
የሌለባት	-11.8651
የሚደርስ	-11.8651
የምታየው	-11.8651
የምትሰሙ	-11.8651
የቢዖር	-11.8651
የተሾሙት	-11.8651
ደጆቹ	-11.8651
ጣሉአቸው	-11.8651
ፍላጻዎች	-11.8651
ሰምተዋል	-11.8651
ይጠግባል	-11.8651
ተማራችሁ	-11.8651
የማይጠፋ	-11.8651
ዘርግተው	-11.8651
የወደደችውን	-11.8651
መፍረስ	-11.8651
እናደርግ	-11.8651
ያዋርድ	-11.8651
አልነበረውም	-11.8651
ግደለው	-11.8651
ባይሰፋ	-11.8651
ብሎአቸው	-11.8651
ብቻቸውን	-11.8651
ያርፋል	-11.8651
ይመስሉ	-11.8651
ይገባናል	-11.8651
ሀያኛው	-11.8651
ያየዋል	-11.8651
ያልሁት	-11.8651
ትወርሱ	-11.8651
መውለድ	-11.8651
የምናገር	-11.8652
አበዛለሁ	-11.8652
ያድናል	-11.8652
የማያምኑ	-11.8652
ትችላላችሁ	-11.8652
ያመጣዋል	-11.8652
አልነበሩም	-11.8652
ይሆንላችሁ	-11.8652
ያስባሉ	-11.8652
በየጊዜው	-11.8653
አልወጣም	-11.8653
እሄድ	-11.8653
ወገብህን	-11.8653
ሳምናስ	-11.8654
በተገደሉት	-11.8654
ያብባል	-11.8654
የሚያሰኝህን	-11.8654
እየሄዱ	-11.8654
ከባልንጀራው	-11.8654
አንገተ	-11.8654
አትወጣም	-11.8654
ስፋቱ	-11.8655
እንጀራዬን	-11.8655
እንሆን	-11.8656
ጅማት	-11.8656
ሰባበረ	-11.8656
እንስሳውንም	-11.8658
የላችሁም	-11.8659
መያዣውን	-11.8662
እመቤት	-11.8662
የሚናገሩትን	-11.8662
ይተኛል	-11.8663
ሰረገሎችንና	-11.8663
ዓይኑም	-11.8665
የሰማሁት	-11.8667
የቀሩትንም	-11.8668
አለቃቸው	-11.8669
ዋርሳ	-11.867
የተገዛ	-11.8671
የምወደው	-11.8671
አጣሁ	-11.8671
የመቅደሱንም	-11.8671
ይጠላል	-11.8672
ባያችሁ	-11.8673
መቀመጫውን	-11.8675
ይበራል	-11.8675
በባሪያው	-11.868
አገቡት	-11.868
እርድ	-11.8684
ደብዳቤውን	-11.8685
ተደፋሁ	-11.8685
አያልፍም	-11.8686
የአሞራውያንን	-11.8688
ጴጥሮስንና	-11.8688
በደማስቆም	-11.8692
አይበላም	-11.8697
እስከዚያ	-11.8697
ከባሕርም	-11.8701
አኑር	-11.8701
የሰንበትን	-11.8707
የነቢያትን	-11.8711
ለምለም	-11.8712
ሰባውን	-11.8718
የሰጣቸውን	-11.872
በቤትህም	-11.8725
ምንቸት	-11.8745
የምስክሩን	-11.8751
እስኪገባ	-11.882
ቤትዋም	-11.8877
ማለለት	-11.8907
▁ቢገኝ፥	-11.9035
▁ያቀርቡላችኋል።	-11.9048
▁መለሰላቸው።	-11.9074
የአይሁድን	-11.908
▁ያቃጥለዋል።	-11.9084
▁መሰምርያዋን፤	-11.9085
▁አታድርጉ፤	-11.9089
▁ይስማ።	-11.9102
▁ይገባዋል።	-11.9106
▁አቃጠለ።	-11.9109
▁ጠራው፤	-11.9111
▁ይናገራል፤	-11.9113
ምድርህን	-11.9188
አቅርቡልኝ	-11.9408
የተመሸጉ	-11.944
መጠበቅ	-11.9575
ማሳደድ	-11.9702
ተሞላች	-11.9789
ገልጦአል	-11.9805
ተባባሉ	-11.9826
የሚመስሉ	-11.9848
ሠራዊታቸው	-11.985
ደንግጡ	-11.985
ተደበቁ	-11.9852
*	-11.9852
1	-11.9852
ሆዳቸው	-11.9852
ለመሸከም	-11.9852
ለመወዝወዝ	-11.9852
ለመያዝ	-11.9852
ለሚቃጠለው	-11.9852
ለሚታመኑ	-11.9852
ለሚወድዱ	-11.9852
ሊገድለው	-11.9852
ልባሞች	-11.9852
መለከቶች	-11.9852
መላልኤል	-11.9852
መሳለቂያ	-11.9852
መብራቶቹን	-11.9852
መወርወሪያዎቹንም	-11.9852
መያዣዎች	-11.9852
መዳራት	-11.9852
መፍታት	-11.9852
ማረካቸው	-11.9852
ማስተዋሉ	-11.9852
ምስጉኖች	-11.9852
ምዋርተኞች	-11.9852
ምድያማውያን	-11.9852
ራቁታቸውን	-11.9852
ሰናዖር	-11.9852
ሰጥቶአችኋል	-11.9852
ሳይሞት	-11.9852
ሴቶቻቸውም	-11.9852
ሹማምቱ	-11.9852
ቀድምኤል	-11.9852
ቆርኔሌዎስ	-11.9852
በሄኖም	-11.9852
በመልካሙ	-11.9852
በቴርሳ	-11.9852
በእንጨቱ	-11.9852
በኮረብቶቹ	-11.9852
በዙፋኔ	-11.9852
በጥንቃቄ	-11.9852
በጸናጽል	-11.9852
ብንያማዊ	-11.9852
ተሰናከሉ	-11.9852
ተሰጥታለች	-11.9852
ተሸከመ	-11.9852
ተናገርኋችሁ	-11.9852
ተናግረዋል	-11.9852
ተንበርክኮ	-11.9852
ተገድለው	-11.9852
ተጠመቁ	-11.9852
ታምኛለሁና	-11.9852
ታስረው	-11.9852
ታኖረዋለህ	-11.9852
ትምህርቱ	-11.9852
ትሰጣቸዋለህ	-11.9852
ትቀበላላችሁ	-11.9852
ትወልዳለች	-11.9852
ትወድዱ	-11.9852
ትገኛለህ	-11.9852
ትጠብቃለህ	-11.9852
ትጠግቡ	-11.9852
ነጦፋዊው	-11.9852
አህሊባማ	-11.9852
አላዋቂዎች	-11.9852
አልረሳሁም	-11.9852
አልተፈቀደም	-11.9852
አልጋህን	-11.9852
አመዳይ	-11.9852
አመጣብሻለሁ	-11.9852
አሳይሃለሁ	-11.9852
አስቀመጡት	-11.9852
አስቀድመህ	-11.9852
አስቈጣ	-11.9852
አስበኝ	-11.9852
አስተማሪዎች	-11.9852
አብዝተው	-11.9852
አትመኝ	-11.9852
አትቀበሉ	-11.9852
አነሣለሁ	-11.9852
አነድዳለሁ	-11.9852
አንበጣዎች	-11.9852
አንጀቱ	-11.9852
አውቃችኋልና	-11.9852
አውታር	-11.9852
አያሌዎች	-11.9852
አያታልል	-11.9852
አይቅረብ	-11.9852
አይቻለኝም	-11.9852
አደርግልሃለሁ	-11.9852
አደባባዮች	-11.9852
አድርአዛርን	-11.9852
አድርጋችኋል	-11.9852
አገኛቸው	-11.9852
አጥፋቸው	-11.9852
አጫጆች	-11.9852
አፈሰሱ	-11.9852
ኤሊፋላት	-11.9852
ኤድራይ	-11.9852
እሰባብራለሁ	-11.9852
እሰጣታለሁ	-11.9852
እስረኞች	-11.9852
እስራቴ	-11.9852
እሻለሁ	-11.9852
እቈርጣለሁ	-11.9852
እበቀላለሁ	-11.9852
እበትናቸዋለሁ	-11.9852
እባቦች	-11.9852
እንዳትሞቱ	-11.9852
እንዳያይ	-11.9852
እንዳይናገሩ	-11.9852
እያለቀሰ	-11.9852
እያመሰገኑ	-11.9852
እገልጣለሁ	-11.9852
እገድላለሁ	-11.9852
እጨምራለሁ	-11.9852
ከሚመጣው	-11.9852
ከታናሽነቴ	-11.9852
ከነዚህ	-11.9852
ከአሮዔር	-11.9852
ከእንቅልፉ	-11.9852
ክብራቸው	-11.9852
ወላጆቹ	-11.9852
ወሰድን	-11.9852
ወደሚመለከተው	-11.9852
ወደቀበት	-11.9852
ወደቀባቸው	-11.9852
ወድቀዋል	-11.9852
ወድቆአል	-11.9852
ወድዶአልና	-11.9852
ዓይናችሁን	-11.9852
ዓይኖቻችን	-11.9852
ዝባድያ	-11.9852
የሚሰግዱ	-11.9852
የሚያስፈልገው	-11.9852
የሚደረገው	-11.9852
የማዝዘውን	-11.9852
የማይረባ	-11.9852
የማይታዘዙ	-11.9852
የምሥራቁ	-11.9852
የምትቀመጪ	-11.9852
የምነግርህን	-11.9852
የምናገረው	-11.9852
የቀናውን	-11.9852
የቅብዓቱን	-11.9852
የበረሀ	-11.9852
የተገኙት	-11.9852
የኃጥኣን	-11.9852
የአስቆሮቱ	-11.9852
የአኪጦብ	-11.9852
የኢያዕር	-11.9852
የከበሬታ	-11.9852
የወደቀው	-11.9852
የዓሚሁድ	-11.9852
የዘንበሪ	-11.9852
የጌድሶናውያን	-11.9852
የጣፈጠ	-11.9852
ያርደዋል	-11.9852
ያሰረችበት	-11.9852
ያስታውቁ	-11.9852
ያስታውቅ	-11.9852
ያሸንፍ	-11.9852
ያነግሡት	-11.9852
ያከማቹ	-11.9852
ያደርጋቸው	-11.9852
ያገልግሉ	-11.9852
ያፈስሰዋል	-11.9852
ይላችኋል	-11.9852
ይመሰክሩ	-11.9852
ይመሰክራል	-11.9852
ይሠዋና	-11.9852
ይረሕምኤል	-11.9852
ይቀላል	-11.9852
ይታገሣል	-11.9852
ይወሰዳል	-11.9852
ይዘጋበታል	-11.9852
ይደረጋል	-11.9852
ይገባሃል	-11.9852
ይገባቸዋል	-11.9852
ይገድላል	-11.9852
ይጠቅመዋል	-11.9852
ይጠግባሉ	-11.9852
ይጭናሉ	-11.9852
ይፈርሳሉ	-11.9852
ድህነት	-11.9852
ድንጋዮቹን	-11.9852
ገረዶች	-11.9852
ጋኔኑ	-11.9852
ግደላቸው	-11.9852
ጠባቆች	-11.9852
ጠብቄአለሁ	-11.9852
ጫንቃዎች	-11.9852
ጸንቶአል	-11.9852
ፈቀደላቸው	-11.9852
ፈታላቸው	-11.9852
ፍቀድልኝ	-11.9852
ፍዳቸውን	-11.9852
በቀረው	-11.9852
በእግራችሁ	-11.9852
ትጠጣላችሁ	-11.9852
ትጠፋላችሁ	-11.9852
አመጡአቸው	-11.9852
አጥፍቶ	-11.9852
ያገኛሉ	-11.9852
ይበተናሉ	-11.9852
መረባቸውን	-11.9852
እሰማለሁ	-11.9852
መብራቱ	-11.9852
ተማማሉ	-11.9852
ይሰበራል	-11.9852
▁አሉአት።	-11.9852
ተማመኑ	-11.9852
አጥብቃችሁ	-11.9852
በተዘረጋች	-11.9852
ትገድሉ	-11.9852
ያሰኛል	-11.9852
ያሳድድ	-11.9852
ያገኛችሁ	-11.9852
ይከፍላል	-11.9852
ትሠራለህ	-11.9852
ትወርሳላችሁ	-11.9852
አይበልጥም	-11.9852
አድርገን	-11.9852
ትጠፋለች	-11.9852
ተማከረ	-11.9852
አልወደዱም	-11.9852
ተቃጠሉ	-11.9852
አልራራም	-11.9852
ይድናሉ	-11.9852
ስንሆን	-11.9852
አልተመለሰም	-11.9852
ትውልዱ	-11.9852
በአርያም	-11.9852
በደረቱ	-11.9852
የተናገሩትን	-11.9852
የተሰበረውን	-11.9852
ዔግላ	-11.9853
በጆሮዬ	-11.9853
የምትባለው	-11.9853
አመለጠ	-11.9853
ተበትነው	-11.9853
አልፈራም	-11.9853
ሰምተህ	-11.9853
አትፍራቸው	-11.9853
የለበትም	-11.9853
ሰራብያ	-11.9853
አትፈራም	-11.9853
ይቃጠል	-11.9853
አብራችሁ	-11.9854
ከበቡአት	-11.9854
ከተገደሉት	-11.9854
የማይወድ	-11.9854
አሳደደ	-11.9854
ገብሱ	-11.9854
የምትባል	-11.9854
ያልቃሉ	-11.9855
ይበላዋል	-11.9855
ያወጣቸው	-11.9855
የተገደሉት	-11.9855
ፍልስጥኤማዊውም	-11.9855
ይልካል	-11.9856
የሚመስሉትን	-11.9856
ጅራት	-11.9857
የተቀረጹትን	-11.9857
የከበረውንም	-11.9857
ትእዛዙንና	-11.9858
በማደሪያህ	-11.9858
አትሰጥም	-11.9859
አያስብ	-11.986
አትውሰድ	-11.986
ሰማቸው	-11.9861
አይቈጠርም	-11.9861
አልናገርም	-11.9862
የግብጽንም	-11.9863
ጠርቶአል	-11.9864
አያመልጥም	-11.9864
ለተቀመጠው	-11.9865
አይመለከትም	-11.9868
ይብሉት	-11.9871
እድፍ	-11.9873
ለአባቶቻችሁም	-11.9875
አስማት	-11.9876
ይርቃል	-11.9878
የቀረበው	-11.9878
መጋረጃውም	-11.9879
ቱንቢ	-11.9882
ተዋችሁ	-11.9882
መንግሥትህን	-11.9885
እነርሱንና	-11.9887
እየሠራ	-11.9887
የእርሻውን	-11.9892
▁አድምጡ፤	-11.9893
በወጣህ	-11.9893
የምሥራች	-11.9894
በረኛ	-11.9897
ማደሪያዬ	-11.9897
የደቡብም	-11.9898
አትሆንም	-11.991
የልጆቹንም	-11.9919
አውራውም	-11.9946
ይችሉ	-11.9953
ሰበንያ	-11.9955
ጨለማውን	-11.9971
ነበሩአት	-11.9984
ሥራችን	-11.9986
መጋረጃውን	-12.0003
ደረሰበት	-12.0016
ለአብራም	-12.0058
በከተማም	-12.0374
ተሸከሙት	-12.0449
ኢዮአቄምም	-12.0516
▁አለቻቸው።	-12.0741
▁ብትጠብቅ፥	-12.0742
▁ተጽፎአልና።	-12.0745
▁ለነበሩ፥	-12.076
ማምለኪያ	-12.0945
የቍጣው	-12.0998
እርስዋንና	-12.104
ማግኘት	-12.1102
ላደረጉ	-12.1104
ወርቁንና	-12.1188
የተቀረጹ	-12.1211
ትመለከታለህ	-12.1217
ትፈርዳለህ	-12.1217
ካጠፋቸው	-12.1217
ወጥቻለሁ	-12.1217
የተዘራ	-12.1217
ያስተምራል	-12.1217
ሀብቱን	-12.1217
ሁለንተናው	-12.1217
ለመቀበል	-12.1217
ለሚገባው	-12.1217
ለብጣቸው	-12.1217
ሐውልቶች	-12.1217
መልካሞቹን	-12.1217
መልካሞች	-12.1217
መርጫለሁ	-12.1217
መዛግብቱ	-12.1217
መደምደሚያ	-12.1217
ሚስቶቻቸውን	-12.1217
ማንደጃዎቹን	-12.1217
ማፋጨት	-12.1217
ማፍዋጫ	-12.1217
ምስሎቻቸው	-12.1217
ሞልቶአል	-12.1217
ሥርዓቴንና	-12.1217
ርስታችሁ	-12.1217
ሰምተሃል	-12.1217
ሰብሮአል	-12.1217
ሲነጋገር	-12.1217
ሳንቃዎቹንም	-12.1217
ሳይቀጣ	-12.1217
ስእለቴን	-12.1217
ቀኛቸው	-12.1217
ቂርያታይም	-12.1217
ቈረጥሁ	-12.1217
በመጽናት	-12.1217
በማዳንህ	-12.1217
በቀትርም	-12.1217
በወለሉ	-12.1217
በጫንቃው	-12.1217
በፍጥነት	-12.1217
ባለጠጎች	-12.1217
ባገኘው	-12.1217
ብታሰናክልህ	-12.1217
ብንያማውያን	-12.1217
ተመደቡ	-12.1217
ተረድቼአለሁ	-12.1217
ተሸክመህ	-12.1217
ተካፋዮች	-12.1217
ተኵላዎች	-12.1217
ተወልዶአል	-12.1217
ተወግተውም	-12.1217
ተዘርግታ	-12.1217
ተዘጋጅቶአል	-12.1217
ተጠመቀ	-12.1217
ታቃጥላለህ	-12.1217
ታገኛላችሁ	-12.1217
ታጠፋቸዋለህ	-12.1217
ትእዛዛቱን	-12.1217
ትውልዶች	-12.1217
ንግግሬን	-12.1217
አላወጣቸውም	-12.1217
አላዝንም	-12.1217
አልማዝ	-12.1217
አልታየም	-12.1217
አስማተኞች	-12.1217
አስቀረ	-12.1217
አስቀራለሁ	-12.1217
አስቈጡት	-12.1217
አስቦአልና	-12.1217
አስታሮትን	-12.1217
አታርክሱ	-12.1217
አታገኝም	-12.1217
አትመስክር	-12.1217
አትስረቅ	-12.1217
አትዘግይ	-12.1217
አትግቡ	-12.1217
አከብራለሁ	-12.1217
አኪናሆም	-12.1217
አካሄዳቸው	-12.1217
አወሩለት	-12.1217
አወጣችኋለሁ	-12.1217
አውቀዋለሁ	-12.1217
አዛውንት	-12.1217
አዝዛለሁ	-12.1217
አይጠግብም	-12.1217
አደርግሻለሁ	-12.1217
አገልግሉ	-12.1217
አጠፉአቸው	-12.1217
አጠፋቸዋለሁ	-12.1217
አጥንቶቹ	-12.1217
አፈስሳለሁ	-12.1217
ኤውላጥ	-12.1217
እሆነዋለሁ	-12.1217
እለዋለሁ	-12.1217
እልከኝነት	-12.1217
እሰበስባችኋለሁ	-12.1217
እስራኤላዊ	-12.1217
እስራኤላውያን	-12.1217
እስካደርግልህ	-12.1217
እቀመጣለሁ	-12.1217
እቀኛለሁ	-12.1217
እባርክሃለሁ	-12.1217
እንደሚበርር	-12.1217
እንዳልነበረ	-12.1217
እንዳያስተውሉ	-12.1217
እንዳይረክስ	-12.1217
እንድትኖሩ	-12.1217
እከፍታለሁ	-12.1217
እውነተኞች	-12.1217
እደክማለሁ	-12.1217
እግዚአሔር	-12.1217
እፈርዳለሁ	-12.1217
እፍረታቸውን	-12.1217
ከሚቃጠል	-12.1217
ከወይፈኑ	-12.1217
ከዘርህ	-12.1217
ካስማዎች	-12.1217
ዓመፃቸው	-12.1217
ዘራቸውን	-12.1217
ዘበኛውም	-12.1217
ዛብሄልና	-12.1217
የሚመጡትን	-12.1217
የሚችለውን	-12.1217
የሚንቀሳቀሱ	-12.1217
የሚኖርባት	-12.1217
የሚከለክል	-12.1217
የሚከተል	-12.1217
የሚያሰክር	-12.1217
የሚያቀርቡት	-12.1217
የሚገቡት	-12.1217
የማያውቁትን	-12.1217
የማያውቅ	-12.1217
የማይቻል	-12.1217
የማይችሉትን	-12.1217
የምታቀርቡት	-12.1217
የምትወዱ	-12.1217
የሬካብ	-12.1217
የተሸሸገ	-12.1217
የተጻፉትን	-12.1217
የይሮሐም	-12.1217
የዳኑት	-12.1217
የፈረሱት	-12.1217
ያመለጡት	-12.1217
ያመሰግናሉ	-12.1217
ያመነዝራል	-12.1217
ያስተምረው	-12.1217
ያብረቀርቅ	-12.1217
ያወራል	-12.1217
ያዋርዳል	-12.1217
ያገለግለኝ	-12.1217
ይሆሐናን	-12.1217
ይሆንባችኋል	-12.1217
ይሉአቸዋል	-12.1217
ይመልስለታል	-12.1217
ይመልስልኛል	-12.1217
ይመስለኛል	-12.1217
ይሠዋሉ	-12.1217
ይሰበካል	-12.1217
ይሰድዳል	-12.1217
ይቈጠራል	-12.1217
ይቈጥር	-12.1217
ይከራከር	-12.1217
ይወድዳሉ	-12.1217
ይዞራል	-12.1217
ይደነቃሉ	-12.1217
ይደነቃል	-12.1217
ይደክማሉ	-12.1217
ደኅነኛው	-12.1217
ደክማለች	-12.1217
ድንኳናቸው	-12.1217
ድንኳኔ	-12.1217
ጓጕንቸሮች	-12.1217
ጠማምነት	-12.1217
ጥርሶች	-12.1217
ጭከናውም	-12.1217
ፍቺውንም	-12.1217
መስሎአቸው	-12.1217
መጫሪያዎቹን	-12.1217
ቢደረግ	-12.1217
ተደፍተው	-12.1217
ታደርጋት	-12.1217
ትለዋለህ	-12.1217
አላመኑም	-12.1217
ከበርቴዎች	-12.1217
ወረደባቸው	-12.1217
ወሰዱአቸው	-12.1217
የማደርግ	-12.1217
የአድባር	-12.1217
ያጠፉአቸው	-12.1217
ይደርቃሉ	-12.1217
ማቱሳላ	-12.1217
ያርፋሉ	-12.1217
ያወጣቸዋል	-12.1217
ይሆንላቸው	-12.1217
አህያይቱን	-12.1217
እንድሆን	-12.1217
ያያችሁትን	-12.1217
ይሆንልኛል	-12.1217
ይሰብራል	-12.1217
ትመልሳለህ	-12.1217
ትወጣላችሁ	-12.1217
አሳድደው	-12.1217
ራራላቸው	-12.1217
አምናለሁ	-12.1217
እንሠራለን	-12.1217
ለማምጣት	-12.1217
ይበትናል	-12.1217
እንወጣለን	-12.1217
በተጠራበት	-12.1217
ከአፋችሁ	-12.1217
መገለጥ	-12.1217
ሰድደው	-12.1217
ይለምናል	-12.1217
ግርፋት	-12.1218
እሰበስብ	-12.1218
ይሰድድ	-12.1218
አልተናገርሁም	-12.1218
እየተንቀጠቀጡ	-12.1218
አኑረው	-12.1218
ገላትያ	-12.1218
የታመመውን	-12.1218
ግምባር	-12.1218
በመከራችን	-12.1218
ካሳተው	-12.1218
እስካለችው	-12.1218
ፋንድያ	-12.1218
የምትለው	-12.1218
አልጠጣም	-12.1218
የተቀደሱትን	-12.1218
ትቃጠል	-12.1218
አልሄደም	-12.1218
ትገባለህ	-12.1218
ትተውኛል	-12.1219
አትመኑ	-12.1219
ትላቸው	-12.1219
እንሄድ	-12.1219
ካደረገ	-12.1219
ተለያየ	-12.1219
በየሠራዊቶቻቸው	-12.1219
አትርሳ	-12.1219
በብብትህ	-12.1219
ግልገል	-12.1219
ብያለሁ	-12.1219
በጥማት	-12.1219
የሚቀርበው	-12.1219
አመጣቸው	-12.122
ትባላለች	-12.122
የፍችዋ	-12.122
ገልጠው	-12.122
የተቀጠቀጠ	-12.122
የተወደዳችሁ	-12.122
ቃይናን	-12.122
እንድመጣ	-12.122
አፍስሰው	-12.122
ያድናችሁ	-12.122
አማትዋም	-12.122
ትመጣለች	-12.122
ይሺያ	-12.1221
ብትመለስ	-12.1221
ደግመው	-12.1221
ያቀረቡት	-12.1222
ምርኮአቸውን	-12.1222
ከተፈጠረ	-12.1222
ማውጣት	-12.1222
ከብትህም	-12.1222
ሥርዓቱንና	-12.1222
ጽድቅህንም	-12.1222
ብናገር	-12.1222
አቢሱ	-12.1223
የኔርያ	-12.1224
የተከበረ	-12.1224
መክደኛውም	-12.1224
የተበተኑት	-12.1225
አትስጥ	-12.1226
በማጣት	-12.1226
የማያደርግ	-12.1227
የዚች	-12.1227
ያልሆኑ	-12.1227
ባልንጀራዬ	-12.1228
አያስተውሉም	-12.1228
የሰማችሁት	-12.1228
ያድናቸው	-12.1229
ወረደበት	-12.123
ሰብከው	-12.123
ደንገል	-12.123
ልማዱ	-12.123
ባሉበት	-12.1231
ዕጣኑን	-12.1231
ሳምንት	-12.1232
ውረዱ	-12.1233
የፈጠረው	-12.1233
በሬዎችንና	-12.1233
ሄደዋል	-12.1234
ገፋው	-12.1235
ምያለሁ	-12.1235
ሄዶአል	-12.1236
ከእጃቸውም	-12.1237
ከእጅዋ	-12.1237
ኢትዮጵያውያን	-12.1238
ሰበከላቸው	-12.1239
እሰጥ	-12.1241
በትእዛዜም	-12.1241
የተመለሱት	-12.1241
አይናገሩም	-12.1241
አለቀሱለት	-12.1242
ይጨምርበት	-12.1243
እናመጣ	-12.1244
የውኃውንም	-12.1244
የሳባም	-12.1244
ከተቀመጡት	-12.1245
ከእንጀራው	-12.1247
በአመድም	-12.1247
ወደምትሆን	-12.1247
አይገቡም	-12.1249
አይሰሙም	-12.1249
አትጠጣ	-12.125
የምትሠራ	-12.1253
እንጀራውንም	-12.1254
በሠላሳው	-12.1255
ያለባት	-12.1256
የምድያምም	-12.1257
ሰይፍህን	-12.1257
የምድሩንም	-12.1258
አፍርሱ	-12.126
እብድ	-12.126
በተቀመጡት	-12.1268
የተገባ	-12.1269
አደረጉበት	-12.1277
ከደነው	-12.1283
ልመናቸውን	-12.1285
አያደርጉም	-12.1297
የግብፃውያንን	-12.1305
ርስትህን	-12.1337
ጣለበት	-12.1346
ፍርድህም	-12.1392
አትሥራ	-12.1397
የሰማርያን	-12.1397
ተስፋችን	-12.1403
ይረሳ	-12.1406
ሆነላቸው	-12.1414
ወጣላቸው	-12.1675
▁ዮዛባት፥	-12.1717
አድርግላቸው	-12.1751
የኢዮአቄም	-12.1971
መጣባችሁ	-12.2242
በጉባኤው	-12.2281
ስድስተኛ	-12.2712
ተንቀጠቀጠች	-12.2777
የምትበሉ	-12.2781
ሠራዊቶቻቸው	-12.2797
ወገኖቻቸው	-12.2797
ፈጠርሁ	-12.2799
𐊣	-12.2799
መደገፊያ	-12.2799
የተከደነ	-12.2799
𐊼	-12.2799
"	-12.2799
gWd	-12.2799
ሄሮድያዳ	-12.2799
ሆኛለሁ	-12.2799
ለመጠየቅ	-12.2799
ለመፈለግ	-12.2799
ለማንሣት	-12.2799
ለወይፈኖቹና	-12.2799
ሊገለጥ	-12.2799
መልሰዋል	-12.2799
መረጥኋት	-12.2799
መርከበኞች	-12.2799
መርከቢቱም	-12.2799
መስኮቶቹም	-12.2799
መብራቶች	-12.2799
መኳንንቶች	-12.2799
መድኃኒቶች	-12.2799
መጠቅለያ	-12.2799
ሙሽራይቱ	-12.2799
ማላገጫ	-12.2799
ማልህላቸው	-12.2799
ማናቸይቱ	-12.2799
ሞልተዋል	-12.2799
ሞግዚት	-12.2799
ሬሳቸውም	-12.2799
ርኵሰታችሁ	-12.2799
ሰማዮችን	-12.2799
ሰገዱላቸውም	-12.2799
ሰጥቼዋለሁ	-12.2799
ቀርሜሎሳዊው	-12.2799
ቅድሳቱ	-12.2799
ቅድስቲቱ	-12.2799
በሚኖርበት	-12.2799
በትሕትና	-12.2799
በኢያቡሳዊው	-12.2799
በእንቢተኝነት	-12.2799
በወይፈኑ	-12.2799
በየሕዝባቸው	-12.2799
ተላላፊዎች	-12.2799
ተርጓሚዎች	-12.2799
ተሰረየችልህ	-12.2799
ተሳዳቢ	-12.2799
ተሻግረው	-12.2799
ተሻግራችሁ	-12.2799
ተአምራቴ	-12.2799
ተከማችተው	-12.2799
ተከራከር	-12.2799
ተከተለቻቸው	-12.2799
ተወገደ	-12.2799
ተገናኙት	-12.2799
ተጨንቄአለሁ	-12.2799
ታስወግዳለህ	-12.2799
ታቀርበዋለህ	-12.2799
ታድነኛለህ	-12.2799
ታድናለህ	-12.2799
ታጠፋለህን	-12.2799
ቴልጌልቴልፌልሶር	-12.2799
ትሄዳላችሁ	-12.2799
ትመታለህ	-12.2799
ትምህርቴ	-12.2799
ትምክህታችን	-12.2799
ትረጨዋለህ	-12.2799
ትሰግዱላቸውም	-12.2799
ትሰጠኛለህ	-12.2799
ትሸሻላችሁ	-12.2799
ትቀመጣላችሁ	-12.2799
ትቆማለች	-12.2799
ትወልጃለሽ	-12.2799
ትወድቃላችሁ	-12.2799
ትወድዳለህ	-12.2799
ትጠግባለች	-12.2799
ትጸናለች	-12.2799
ነዋትዘራማ	-12.2799
ነድዶአል	-12.2799
ነገሩአቸው	-12.2799
ነግሬአችኋለሁ	-12.2799
ነጠብጣብ	-12.2799
አላዘነበሉም	-12.2799
አላገኘሁበትም	-12.2799
አላገኘም	-12.2799
አልለቀቀም	-12.2799
አልቀረለትም	-12.2799
አልበላሁም	-12.2799
አልተመለሳችሁም	-12.2799
አልተቻለውም	-12.2799
አልተወም	-12.2799
አልተወገዱም	-12.2799
አልወድም	-12.2799
አመለጥሁ	-12.2799
አርክሰዋል	-12.2799
አሰናበታቸው	-12.2799
አሰኛቸው	-12.2799
አሳለፈው	-12.2799
አሳደዳቸው	-12.2799
አስቤአለሁ	-12.2799
አስተዋሉ	-12.2799
አስወግድ	-12.2799
አቀረበላቸው	-12.2799
አቢካኢል	-12.2799
አትሞትም	-12.2799
አትጣለኝ	-12.2799
አኖሩአቸው	-12.2799
አዋላጆች	-12.2799
አዝዞኛል	-12.2799
አያስፈልጋቸውም	-12.2799
አይሆንልህም	-12.2799
አይምሰላችሁ	-12.2799
አይገኙም	-12.2799
አደርቃለሁ	-12.2799
አደርገው	-12.2799
ኢያቡሳዊውንም	-12.2799
ኢያዔል	-12.2799
ኢይዝራኤላዊቱ	-12.2799
ኤልዮዔናይ	-12.2799
ኤዊያዊውንም	-12.2799
እሆናችኋለሁ	-12.2799
እለምንሻለሁ	-12.2799
እልክሃለሁ	-12.2799
እመልሰዋለሁ	-12.2799
እመልስልሃለሁ	-12.2799
እምነታችን	-12.2799
እሰበስባለሁ	-12.2799
እሰጥሻለሁ	-12.2799
እቆማለሁ	-12.2799
እበትናለሁ	-12.2799
እኅታችን	-12.2799
እነግርህ	-12.2799
እናመሰግናለን	-12.2799
እናታችሁ	-12.2799
እንለምንሃለን	-12.2799
እንዲሠለጥን	-12.2799
እንዲናገሩ	-12.2799
እንዲገድሉ	-12.2799
እንግዶቹን	-12.2799
እይዛለሁ	-12.2799
እጆቻችሁ	-12.2799
እግዚአብሄር	-12.2799
ከሚሆን	-12.2799
ከተጋጠሙት	-12.2799
ከአድርአዛር	-12.2799
ኮርማዎች	-12.2799
ወደሚሰጥህ	-12.2799
ውርንጫውን	-12.2799
ዓይንጋዲ	-12.2799
ዘመናችን	-12.2799
የሕዚኤል	-12.2799
የሚላቸው	-12.2799
የሚመሰክር	-12.2799
የሚበርር	-12.2799
የሚከተሉ	-12.2799
የሚያረክሰው	-12.2799
የሚያስብ	-12.2799
የሚገልጥ	-12.2799
የምታደርጊ	-12.2799
የምትለምኑትን	-12.2799
የምትሻውን	-12.2799
የምትፈሩት	-12.2799
የአቆስጣ	-12.2799
የፍርስራሽ	-12.2799
ያልተፈቀደውን	-12.2799
ያሰኘዋል	-12.2799
ያስተሰርያል	-12.2799
ያስፈልገናል	-12.2799
ያቃጥላሉ	-12.2799
ያእዛንያ	-12.2799
ያዘዝሁትን	-12.2799
ያገለገሉ	-12.2799
ያገለግለው	-12.2799
ያፈርሳሉ	-12.2799
ያፈስሳል	-12.2799
ይሆንባቸዋል	-12.2799
ይመረምራል	-12.2799
ይመጣበታል	-12.2799
ይማረካሉ	-12.2799
ይሰበራሉ	-12.2799
ይሰበስባል	-12.2799
ይሰጡአችኋል	-12.2799
ይሰጣታል	-12.2799
ይሰፍራሉ	-12.2799
ይቀልጣል	-12.2799
ይቀጠቅጣል	-12.2799
ይቃጠላሉ	-12.2799
ይቈረጣሉ	-12.2799
ይቈረጣል	-12.2799
ይቈርጣል	-12.2799
ይበላቸዋል	-12.2799
ይባረካል	-12.2799
ይብዛላችሁ	-12.2799
ይወገድ	-12.2799
ይገባችኋል	-12.2799
ይገደላል	-12.2799
ይገድሉአቸው	-12.2799
ይገድላቸዋል	-12.2799
ይጐስቍሉ	-12.2799
ይፈርሳል	-12.2799
ይፈወሳል	-12.2799
ደጎብያ	-12.2799
ዲያቢሎስ	-12.2799
ድስቶቹንም	-12.2799
ገብታችሁ	-12.2799
ገደላችሁት	-12.2799
ጠሪዎችንና	-12.2799
ጠብቃቸው	-12.2799
ጦራቸውን	-12.2799
ጵርስቅላ	-12.2799
ጻፋቸው	-12.2799
ፈረሶቻቸውም	-12.2799
ፈረዱበት	-12.2799
ፈጥረሃል	-12.2799
ፈጽመዋል	-12.2799
ፌርዛዊውንም	-12.2799
l	-12.2799
ብልቶቻችሁ	-12.2799
ትመለሳላችሁ	-12.2799
አልተውህም	-12.2799
አንደበቱ	-12.2799
አውጥተህ	-12.2799
አገራችን	-12.2799
አጠፋዋለሁ	-12.2799
እንድናለን	-12.2799
እያስተማረ	-12.2799
ያዘዝኋቸው	-12.2799
ተለይተህ	-12.2799
ተመልክተህ	-12.2799
ትመረምር	-12.2799
ትድናለህ	-12.2799
የፍየሉን	-12.2799
ይሆነኛል	-12.2799
ገብተዋልና	-12.2799
መጥተናል	-12.2799
በጆሮአችሁ	-12.2799
ከሳምንቱ	-12.2799
ያሉአቸው	-12.2799
ያመልጣል	-12.2799
እስረኛ	-12.2799
እንድትመጣ	-12.2799
ወንድማቸው	-12.2799
ፍሬያቸው	-12.2799
አላየሁም	-12.2799
አላልሁም	-12.2799
እግራችሁን	-12.2799
የዋሆች	-12.2799
kw	-12.2799
አለባቸው	-12.2799
አእላፍ	-12.2799
ይስጣችሁ	-12.2799
መዋደድ	-12.2799
አርፋድ	-12.2799
እንሰማለን	-12.2799
እንስራዋን	-12.2799
አልሆንም	-12.2799
እንበላለን	-12.2799
ሆዲያ	-12.2799
መሆኔ	-12.2799
ገለጥህ	-12.2799
ገብተህ	-12.2799
መቃብራቸው	-12.2799
አልጠበቁም	-12.2799
የሚያገለግሉበትን	-12.2799
መቃጥን	-12.2799
ባደረግህ	-12.2799
አጥንታቸው	-12.2799
ልብሳችሁን	-12.2799
ትሠራለች	-12.2799
እስክትጠፋ	-12.28
እግዚ	-12.28
ከለከልሁ	-12.28
ይሁኑላችሁ	-12.28
ችንካር	-12.28
ባያቸው	-12.28
ደረቱን	-12.28
የተናገርሁትን	-12.28
ተከልሁ	-12.28
የወደዱትን	-12.28
ተገዛለት	-12.28
ያሳያል	-12.28
አልወረደም	-12.28
አልመለሰም	-12.28
በግምባርዋ	-12.28
ልስጥራን	-12.28
ተወለድህ	-12.28
ይሰማኛል	-12.28
የሱባን	-12.28
ቢሄድ	-12.28
ጥጆች	-12.28
አስተውሉ	-12.28
የማታስተውሉ	-12.28
ይዘረጋሉ	-12.28
የመረረ	-12.28
አልተናገረም	-12.2801
የተጠበሰ	-12.2801
ያልተገረዙ	-12.2801
የምጠጣው	-12.2801
አልሰጠም	-12.2801
▁ንገሩት።	-12.2801
ያምናሉ	-12.2801
ቢናገር	-12.2801
አትጠፋም	-12.2801
▁ቢወጣ፥	-12.2801
የምትገዛ	-12.2801
ትሰማለህ	-12.2801
ምላሱን	-12.2802
እርከን	-12.2802
ብሄድ	-12.2802
አዳራሾችዋንም	-12.2802
ብትመለሱ	-12.2802
እየተናገሩ	-12.2802
እንዳይሰጥ	-12.2802
አለበሱት	-12.2802
መርምር	-12.2802
አትሠራም	-12.2802
እየመቱ	-12.2803
መጡብህ	-12.2803
የሰማነውን	-12.2803
ያጣምም	-12.2803
አሳባችሁ	-12.2803
ብትጠብቁ	-12.2803
በደጆችህ	-12.2803
ተኣምራትህን	-12.2804
በየብስ	-12.2804
አሳረገ	-12.2804
የሚሉአት	-12.2804
ማግባት	-12.2804
ማደሪያቸው	-12.2804
አልሆነም	-12.2805
ያለባቸውን	-12.2805
ጠብቃት	-12.2806
ተጠማች	-12.2806
እየራሳቸው	-12.2807
በድለው	-12.2807
በየስፍራቸው	-12.2808
በጥልፍ	-12.2809
ይከተለኝ	-12.281
በድኑን	-12.281
ፈረደባቸው	-12.281
የተግባርን	-12.281
አስበው	-12.2811
በጆሮህ	-12.2811
ሰጥቶናል	-12.2812
ምንጣፍ	-12.2813
አይራራም	-12.2813
ይረዱ	-12.2814
ተስፋቸው	-12.2814
ዕጣኑም	-12.2814
ሆኜአለሁ	-12.2814
አትውጣ	-12.2816
የምትቀመጡ	-12.2817
የምታፈስሰውን	-12.2817
በትእዛዝህ	-12.2818
በራስዋ	-12.2819
በጽድቅህም	-12.2819
እየተንቀጠቀጠ	-12.2822
አላየም	-12.2822
ከመካከልዋ	-12.2823
ስብከት	-12.2825
ቍጣቸው	-12.2826
ይሰበር	-12.2832
አይሰጠውም	-12.2833
አይድንም	-12.2836
የማለላቸውን	-12.2838
ተመልሶአል	-12.2844
አቀረቡለት	-12.2844
በልጠው	-12.2845
የአማሌቅን	-12.2848
አታድርጉበት	-12.2859
የበግህን	-12.2898
መልሱለት	-12.296
ግልሙትናዋን	-12.2964
ተቀመጡባቸው	-12.3018
እህልህን	-12.3019
ይከፈቱ	-12.3118
ሆነለት	-12.327
ሲገለጥ	-12.3349
ገለጠላቸው	-12.3893
ዘጠነኛው	-12.4399
አሳባቸው	-12.4474
እርግጥ	-12.4523
ማፍሰስ	-12.4564
ብራቸውን	-12.4679
v	-12.4679
የማላውቀው	-12.4679
ሆነኸኛልና	-12.4679
ሆዳይዋ	-12.4679
ለመበዝበዝ	-12.4679
ለመነችው	-12.4679
ለወይፈኑ	-12.4679
ሐውልቶቻቸውን	-12.4679
ሕመምተኞች	-12.4679
መስክሮአል	-12.4679
መቅሠፍቶች	-12.4679
መቅሰፍት	-12.4679
መብረቆች	-12.4679
መተላለፌን	-12.4679
መድኃኒቱ	-12.4679
መጠመቂያ	-12.4679
መጥታችኋል	-12.4679
ሚስቶቻቸውም	-12.4679
ምዑናውያን	-12.4679
ምጽራይም	-12.4679
ሥልጣናት	-12.4679
ረክሰዋል	-12.4679
ርገምልኝ	-12.4679
ሰድቦአል	-12.4679
ሰዶማውያን	-12.4679
ሰፈረበት	-12.4679
ሱነማይቱ	-12.4679
ሲመላለስ	-12.4679
ሲድራቅንና	-12.4679
ስለሚመጣው	-12.4679
ስላልሰሙ	-12.4679
ስእለቱን	-12.4679
ስእለታችሁን	-12.4679
ቀለበቱን	-12.4679
ቀንዲሎቹን	-12.4679
ቈርጠዋል	-12.4679
ቈርጦአልና	-12.4679
ቍርባኔን	-12.4679
በመምጣቱ	-12.4679
በሚሉአት	-12.4679
በሚመስል	-12.4679
በሚቃጠል	-12.4679
በሚገለጥበት	-12.4679
በምትኖሩበት	-12.4679
በረከቴን	-12.4679
በአሮዔር	-12.4679
በአቆስጣ	-12.4679
በአጠገቤ	-12.4679
በከበሮና	-12.4679
በክንፎችህ	-12.4679
በውስጣችሁ	-12.4679
በዝተዋል	-12.4679
በየማለዳው	-12.4679
በየሰንበቱ	-12.4679
በጕበቱም	-12.4679
በፈቃዳችሁ	-12.4679
ቢኖራችሁ	-12.4679
ቢደኸይ	-12.4679
ባርሰነት	-12.4679
ባርኮአል	-12.4679
ባወጣኋቸው	-12.4679
ተላልፈዋል	-12.4679
ተመካከሩ	-12.4679
ተምዋገቱ	-12.4679
ተባባሪዎቻቸው	-12.4679
ተኝተዋል	-12.4679
ተኣምራቱን	-12.4679
ተከትላችሁ	-12.4679
ተከናወን	-12.4679
ተከፋፈሉ	-12.4679
ተደብቀው	-12.4679
ተጠባበቅን	-12.4679
ታቀርባቸዋለህ	-12.4679
ታደርጉታላችሁ	-12.4679
ታገለግሉ	-12.4679
ታገኛለች	-12.4679
ቴስብያዊው	-12.4679
ትሆኑኛላችሁ	-12.4679
ትሆኛለሽ	-12.4679
ትለኛለህ	-12.4679
ትሉኛላችሁ	-12.4679
ትሸከማላችሁ	-12.4679
ትቀመጣለች	-12.4679
ትቀድሳለህ	-12.4679
ትበላዋለህ	-12.4679
ትነግራቸዋለህ	-12.4679
ትነግራቸው	-12.4679
ትክደኛለህ	-12.4679
ትወሰዳለች	-12.4679
ትፈልጊያለሽ	-12.4679
አለቆቻችንም	-12.4679
አላርቅም	-12.4679
አላሰቡም	-12.4679
አላወቀውም	-12.4679
አላወቁትም	-12.4679
አላደርገውም	-12.4679
አላገኘሁትም	-12.4679
አልሰሙኝም	-12.4679
አልሰማችሁኝም	-12.4679
አልሰጥህም	-12.4679
አልቈጣም	-12.4679
አልተቻላቸውም	-12.4679
አልኖርም	-12.4679
አልጠበቅህም	-12.4679
አልፋለሁ	-12.4679
አመሰገንሁ	-12.4679
አመጣባችኋለሁ	-12.4679
አምላችኋለሁ	-12.4679
አምልሃለሁ	-12.4679
አርስጥሮኮስ	-12.4679
አርካዊው	-12.4679
አርጤምስ	-12.4679
አሰናብተኝ	-12.4679
አስተምራችኋለሁ	-12.4679
አስጥለኝ	-12.4679
አቁማቸው	-12.4679
አባረሩአቸው	-12.4679
አትስጠኝ	-12.4679
አትቅረብ	-12.4679
አትወድቅም	-12.4679
አንጸባረቀ	-12.4679
አኪዔዘር	-12.4679
አውቀናል	-12.4679
አየዋለሁ	-12.4679
አይቻለውም	-12.4679
አይደክሙም	-12.4679
አይገላመጡም	-12.4679
አይገባኝም	-12.4679
አደርጋችኋለሁ	-12.4679
አደነደኑ	-12.4679
አድርገሽ	-12.4679
አግኝቻለሁ	-12.4679
አጕረመረሙ	-12.4679
አፈስስባቸዋለሁ	-12.4679
እመልስሃለሁ	-12.4679
እርግማኑ	-12.4679
እሰድድባቸዋለሁ	-12.4679
እስክንድሮስ	-12.4679
እታመናለሁ	-12.4679
እነግራለሁ	-12.4679
እናመልካለን	-12.4679
እናገኛለን	-12.4679
እንክርዳዱ	-12.4679
እንደሚደረግ	-12.4679
እንደማይቻል	-12.4679
እንዳልሆን	-12.4679
እንዳልነበሩ	-12.4679
እንዳስተውል	-12.4679
እንዳትገቡ	-12.4679
እንዳትጠፋ	-12.4679
እንዳይሆንባቸው	-12.4679
እንዳደርግ	-12.4679
እንድትናገሩ	-12.4679
እንድትኖር	-12.4679
እንድትጠፉ	-12.4679
እከፍላለሁ	-12.4679
እወርዳለሁ	-12.4679
እወድዳለሁ	-12.4679
እዘምርልሃለሁ	-12.4679
እያስተማሩ	-12.4679
እጠይቃችኋለሁ	-12.4679
እጽፋለሁ	-12.4679
እፈውሳለሁ	-12.4679
ከለከላቸው	-12.4679
ከሊታውያንና	-12.4679
ከላውዴዎን	-12.4679
ከብቶቻችን	-12.4679
ካወጣሁበት	-12.4679
ክርስቲያኑ	-12.4679
ዛብሄልንና	-12.4679
የሄልዮቱ	-12.4679
የለባቸውም	-12.4679
የለብኝም	-12.4679
የሚሰፍሩ	-12.4679
የሚሸከሙትን	-12.4679
የሚሻለውን	-12.4679
የሚቀመጠውን	-12.4679
የሚተረጕም	-12.4679
የሚናገረኝን	-12.4679
የሚያመልክ	-12.4679
የሚያሳፍር	-12.4679
የሚያስጨንቅ	-12.4679
የሚያስፈልግ	-12.4679
የሚያጠጣ	-12.4679
የማታውቀው	-12.4679
የማይፈወስ	-12.4679
የምትመስሉ	-12.4679
የምትመስል	-12.4679
የምትናገረው	-12.4679
የምትፈልጉ	-12.4679
የምናደርገው	-12.4679
የምንቀመጥ	-12.4679
የሠራኸውን	-12.4679
የሰዲዮር	-12.4679
የሱሪሰዳይ	-12.4679
የሴፈርዋይም	-12.4679
የቀባኸውን	-12.4679
የተራቈተ	-12.4679
የተጐነጐኑትን	-12.4679
የተጨመረ	-12.4679
የአሒሉድ	-12.4679
የአሚሳዳይ	-12.4679
የእልፍዮስ	-12.4679
የፈቀደውን	-12.4679
ያስቈጣው	-12.4679
ያስተስርይ	-12.4679
ያስፈልገዋል	-12.4679
ያቃጥሉአታል	-12.4679
ያንጠባጥባሉ	-12.4679
ያኖረዋል	-12.4679
ያከማቻል	-12.4679
ያከብረኛል	-12.4679
ያከብረዋል	-12.4679
ያከብረው	-12.4679
ያከብራል	-12.4679
ያዙአቸው	-12.4679
ያደርገኛል	-12.4679
ያደርጋታል	-12.4679
ያጽናኑት	-12.4679
ይሆኑባችኋል	-12.4679
ይሆንብሃል	-12.4679
ይማረካል	-12.4679
ይረዝማል	-12.4679
ይሰበስባሉ	-12.4679
ይሰናከላል	-12.4679
ይሸፍናል	-12.4679
ይሻለኛል	-12.4679
ይቀልጣሉ	-12.4679
ይቀመጡባታል	-12.4679
ይቃወማል	-12.4679
ይቈጥራል	-12.4679
ይበቃኛል	-12.4679
ይበትናቸዋል	-12.4679
ይባርካል	-12.4679
ይተክላሉ	-12.4679
ይነግሣሉ	-12.4679
ይነግሩሃል	-12.4679
ይነግራቸው	-12.4679
ይከብራል	-12.4679
ይከናወንለት	-12.4679
ይወሰድበታል	-12.4679
ይወስዳቸዋል	-12.4679
ይዋረዳሉ	-12.4679
ይይዛቸዋል	-12.4679
ይደረግለታል	-12.4679
ይዲኤል	-12.4679
ይጠብቀዋል	-12.4679
ይጠብቃታል	-12.4679
ይጨምራል	-12.4679
ይጨምርበታል	-12.4679
ይጸልያል	-12.4679
ደነገጥሁ	-12.4679
ደንገጥሮች	-12.4679
ጌርጌሳዊው	-12.4679
ግዙአቸው	-12.4679
ጎረቤቶችዋ	-12.4679
ጕልበታቸው	-12.4679
ጕሮሮአቸው	-12.4679
ጠርቻለሁ	-12.4679
ጠፍታለች	-12.4679
ጲርዓቶናዊው	-12.4679
ጽድቃችን	-12.4679
ፍርፋሪ	-12.4679
ምከራቸው	-12.4679
ስላልነበረው	-12.4679
በመጣህበትም	-12.4679
በደረስህ	-12.4679
በጆሮአችን	-12.4679
ነቢያቶቻችሁ	-12.4679
አህያይቱም	-12.4679
አለማመናቸው	-12.4679
አቀርባለሁ	-12.4679
አትበድሉ	-12.4679
ወለዱአቸው	-12.4679
የሚሰበስብ	-12.4679
ይናገረው	-12.4679
ጵንፍልያ	-12.4679
2	-12.4679
ረግረግ	-12.4679
ሰበሰብሁ	-12.4679
ተቸገርሁ	-12.4679
ተዋደዱ	-12.4679
አእምሮአቸው	-12.4679
አድርጉባቸው	-12.4679
ወርቃቸው	-12.4679
የሚኖሩባቸው	-12.4679
ያሳደዱ	-12.4679
በትራቸው	-12.4679
ትሠራላችሁ	-12.4679
አላፍርም	-12.4679
ያመጡአቸው	-12.4679
በየብልቱ	-12.4679
እንችላለን	-12.4679
ገባባቸው	-12.4679
ትዋደዱ	-12.4679
እንዲሆንላቸው	-12.4679
ያጣምማል	-12.4679
መገረፍ	-12.4679
ሲደርስ	-12.4679
ትጠብቃላችሁ	-12.4679
ድካማቸው	-12.4679
ወርሰዋል	-12.4679
ያደረገችውን	-12.4679
አፍረዋል	-12.4679
የሰለለች	-12.4679
ዋጋቸውን	-12.4679
ይመስላሉ	-12.4679
የሚኖሩባትም	-12.4679
እንዲመስል	-12.4679
አልመለሰለትም	-12.4679
እንደምትወልድ	-12.4679
ትመጣለህ	-12.4679
አሰናዱ	-12.4679
ያመኑት	-12.4679
የማያምን	-12.4679
አልሰማንም	-12.4679
አዋረደ	-12.4679
እንድንሆን	-12.4679
አምባይቱ	-12.4679
የምትሰጡአቸው	-12.4679
አትበቀልም	-12.468
ሰበሰባቸው	-12.468
እብደት	-12.468
እናያለን	-12.468
ቢለምነው	-12.468
የሰበረውን	-12.468
መስተዋት	-12.468
አልሰጣችሁም	-12.468
ይመልሳሉ	-12.468
ማሳየት	-12.468
አቃጥሉ	-12.468
የደከመውን	-12.468
አልነበሩትም	-12.468
የለመለመውን	-12.468
ይሉኛል	-12.468
በአቢብ	-12.468
አትማሉ	-12.468
ደርሳለች	-12.468
ለብጠው	-12.468
አቃለለ	-12.468
ከብደው	-12.468
አልተነሣም	-12.468
አትመለከቱም	-12.468
በመካከልዋም	-12.468
ይፍሰስ	-12.468
የሆነችውን	-12.468
በመሠዊያዬ	-12.4681
ለመፍረድ	-12.4681
ይቃጠሉ	-12.4681
የትኛው	-12.4681
የዔናን	-12.4681
ተደርጎአል	-12.4681
ለእናትዋ	-12.4681
የማይፈራ	-12.4681
የምበላውን	-12.4681
አልገቡም	-12.4682
የማለውን	-12.4682
የፈረሰውን	-12.4682
የማያደርገው	-12.4682
አትገቡም	-12.4682
በየሠራዊታቸው	-12.4682
ይጥላሉ	-12.4682
በምጣድ	-12.4683
እንዲሆንላችሁ	-12.4683
ይሁናችሁ	-12.4683
አይገባንም	-12.4683
የዱዲ	-12.4683
አንብብ	-12.4684
ለስላሳ	-12.4684
የማይበላ	-12.4685
የተሰደዱ	-12.4685
የሰለቱ	-12.4685
እየተናገረ	-12.4686
ተገባቸው	-12.4688
ይርከስ	-12.469
ሁለታቸው	-12.4696
ለማያምኑ	-12.4698
የማይሰማ	-12.4709
ዓረባውያን	-12.4715
አድርጉላቸው	-12.4971
መሠዊያቸውን	-12.5152
ሆነባቸው	-12.5309
ገላችሁን	-12.5353
ልግስና	-12.5822
መለከቱም	-12.6096
ያቀርቡላችኋል	-12.6135
d	-12.6163
ተመሰገነ	-12.6721
ደኅንነቱን	-12.6722
እንግዲያ	-12.6948
ልጽፍላችሁ	-12.6996
መጽናናታችሁ	-12.6996
ማስተስሪያ	-12.6996
ማዕካታውያን	-12.6996
ሬካባውያን	-12.6996
ቁርበታቸው	-12.6996
ተመላለሳችሁ	-12.6996
ተንኰላቸው	-12.6996
ተንጠልጥሎ	-12.6996
ተጠመቃችሁ	-12.6996
ታላላቆቻቸው	-12.6996
ትበልጣለህ	-12.6996
ትከፍታለህ	-12.6996
አላደረግንም	-12.6996
አመሰግነው	-12.6996
አስተማሩ	-12.6996
አስቸገረ	-12.6996
አዳኑአቸው	-12.6996
እፈቅዳለሁ	-12.6996
የመርከቢቱ	-12.6996
የሚመላለሱ	-12.6996
የሚመላለስ	-12.6996
የሚያደርሰው	-12.6996
የሚያጕረመርሙ	-12.6996
የማይታየው	-12.6996
የምቀመጥበት	-12.6996
የምነግራችሁ	-12.6996
የምኖርበት	-12.6996
የተጋገረ	-12.6996
የወለደቻቸው	-12.6996
ያስታውቀው	-12.6996
ያስወግዱ	-12.6996
ያስወግዳል	-12.6996
ያስፈልገን	-12.6996
ያኖሩአቸው	-12.6996
ያወጡአቸው	-12.6996
ይለመልማል	-12.6996
ይረክሳል	-12.6996
ይሰበስቡ	-12.6996
ይነግረዋል	-12.6996
ደርቃለች	-12.6996
ደገፋዎች	-12.6996
ሁለመናውን	-12.6996
ለመበለቲቱ	-12.6996
ለመግፈፍ	-12.6996
ለሚከተሉ	-12.6996
ለማፍረስ	-12.6996
ለበጡአቸው	-12.6996
ለዋጮችንም	-12.6996
ለየዕለቱ	-12.6996
ለጎረቤቶቻችን	-12.6996
ሊገድላቸው	-12.6996
ላሞቻቸውን	-12.6996
ላደርጋት	-12.6996
ሐጸርዔናን	-12.6996
ሕፃናቶቻቸውን	-12.6996
መልእክተኞቹን	-12.6996
መልካካሞች	-12.6996
መረጥሃት	-12.6996
መሰከሩለት	-12.6996
መቃብሮች	-12.6996
መቅሰፍቱ	-12.6996
መንገደኛ	-12.6996
መንገደኞች	-12.6996
መዛነቢያዎቹንም	-12.6996
ማስተስረይ	-12.6996
ማከማቸት	-12.6996
ማጋጠሚያዎች	-12.6996
ሞሉአቸው	-12.6996
ረስቶኛል	-12.6996
ርኵሰታቸውም	-12.6996
ሰምተኸኛልና	-12.6996
ሰረገለኞች	-12.6996
ሰሳብሳር	-12.6996
ሰተርቡዝናይ	-12.6996
ሰጥቶአቸዋል	-12.6996
ሰጥቻቸዋለሁ	-12.6996
ሲመለከቱ	-12.6996
ሲናገረኝ	-12.6996
o	-13.0016
]	-13.0016
s	-13.0016
3	-13.0016
D	-13.1266
e	-13.4361
)	-13.4361
-	-13.4361
5	-13.4361
A	-13.8861
ፏ	-14.1999
ጧ	-14.2
ጒ	-14.2001
ኼ	-14.2002
ኲ	-14.2003
ኟ	-14.2004
ኗ	-14.2005
ቿ	-14.2006
ቷ	-14.2007
ሏ	-14.2008
4	-14.2009
0	-14.201
ፂ	-14.2011
ዷ	-14.2012
ቊ	-14.2013
(	-14.2014
ፒ	-14.2015
ፑ	-14.2016
[	-14.2017
t	-14.2018
ፓ	-14.2019
ፐ	-14.202
ሷ	-14.2021
T	-14.2022
ኺ	-14.2023
ፔ	-14.2024
ቧ	-14.2025
K	-14.2026
ጱ	-14.2027
ጰ	-14.2028
ኾ	-14.2029
ኄ	-14.203
ፄ	-14.2031
ዡ	-14.2032
ሓ	-14.2033
ቾ	-14.2034
ሢ	-14.2035
ዤ	-14.2036
ዦ	-14.2037
W	-14.2038
ጬ	-14.2039
ጺ	-14.204
ጼ	-14.2041
ኚ	-14.2042
ኡ	-14.2043
ዢ	-14.2044
ጶ	-14.2045
ዠ	-14.2046
ሼ	-14.2047
ሒ	-14.2048
ዒ	-14.2049
ዪ	-14.205
ኆ	-14.2051
ሑ	-14.2052
ጲ	-14.2053
ጪ	-14.2054
ኻ	-14.2055
ኜ	-14.2056
ፆ	-14.2057
ኽ	-14.2058
ጵ	-14.2059
ዥ	-14.206
ሖ	-14.2061
ዣ	-14.2062
ጾ	-14.2063
ኹ	-14.2064
ሤ	-14.2065
ፁ	-14.2066
ዑ	-14.2067
ዉ	-14.2068
ኀ	-14.2069
ዌ	-14.207
ጴ	-14.2071
ጤ	-14.2072
ጩ	-14.2073
ኣ	-14.2074
ዐ	-14.2075
ኰ	-14.2076
ጳ	-14.2077
ቋ	-14.2078
ኙ	-14.2079
ቺ	-14.208
ኒ	-14.2081
ሂ	-14.2082
ፃ	-14.2083
ቲ	-14.2084
ቄ	-14.2085
ሾ	-14.2086
ሹ	-14.2087
ጓ	-14.2088
ጄ	-14.2089
ጮ	-14.209
ጹ	-14.2091
ፀ	-14.2092
ኬ	-14.2093
ዞ	-14.2094
ኘ	-14.2095
ጐ	-14.2096
ሀ	-14.2097
ኦ	-14.2098
ጂ	-14.2099
ጫ	-14.21
ኵ	-14.2101
ዖ	-14.2102
ኸ	-14.2103
ኅ	-14.2104
ኳ	-14.2105
ጕ	-14.2106
ጦ	-14.2107
ፅ	-14.2108
ቂ	-14.2109
ፎ	-14.211
ቼ	-14.2111
ጁ	-14.2112
ሦ	-14.2113
ቈ	-14.2114
ጃ	-14.2115
ኮ	-14.2116
ዴ	-14.2117
ኞ	-14.2118
ጭ	-14.2119
ቦ	-14.212
ኩ	-14.2121
ቍ	-14.2122
ጻ	-14.2123
ኪ	-14.2124
ጎ	-14.2125
ዩ	-14.2126
ጨ	-14.2127
ሻ	-14.2128
ሡ	-14.2129
ሜ	-14.213
ጢ	-14.2131
ሶ	-14.2132
ጸ	-14.2133
ሣ	-14.2134
ጀ	-14.2135
ፉ	-14.2136
ቴ	-14.2137
ሸ	-14.2138
ሐ	-14.2139
ዶ	-14.214
ሊ	-14.2141
ሃ	-14.2142
ቁ	-14.2143
ዙ	-14.2144
ሬ	-14.2145
ጌ	-14.2146
ኋ	-14.2147
ቹ	-14.2148
ጽ	-14.2149
ኃ	-14.215
ዮ	-14.2151
ጡ	-14.2152
ሽ	-14.2153
ቆ	-14.2154
ዊ	-14.2155
ቻ	-14.2156
ዕ	-14.2157
ቡ	-14.2158
ዜ	-14.2159
ሪ	-14.216
ሠ	-14.2161
ፊ	-14.2162
ኖ	-14.2163
ኢ	-14.2164
ሴ	-14.2165
ጊ	-14.2166
ሮ	-14.2167
ሙ	-14.2168
ሎ	-14.2169
ሌ	-14.217
ዎ	-14.2171
ኝ	-14.2172
ዛ	-14.2173
ጉ	-14.2174
ቤ	-14.2175
ዓ	-14.2176
ዝ	-14.2177
ኤ	-14.2178
ሕ	-14.2179
ሞ	-14.218
ቶ	-14.2181
ሥ	-14.2182
ጋ	-14.2183
ሩ	-14.2184
ፈ	-14.2185
ሚ	-14.2186
ክ	-14.2187
ቅ	-14.2188
ሔ	-14.2189
ዳ	-14.219
ዘ	-14.2191
ቀ	-14.2192
ታ	-14.2193
ወ	-14.2194
m	-14.2195
u	-14.2195
@	-14.2195
b	-14.2195
ነ	-14.2195
