<pad>	0
</s>	0
<unk>	0
¦	-1.584
▁¦	-1.62162
▁.	-4.33859
ा	-4.35954
े	-4.48297
र	-4.48302
स	-4.50206
ं	-4.53431
त	-4.56493
न	-4.6017
ी	-4.65433
ल	-4.74717
व	-4.76743
क	-4.81412
म	-4.83789
प	-4.84112
य	-4.90431
▁,	-4.92321
ला	-4.98703
ट	-5.07408
ो	-5.08542
्	-5.10715
आ	-5.18273
ज	-5.25051
द	-5.26085
ड	-5.2705
ग	-5.28171
अ	-5.30024
वा	-5.30459
ात	-5.37526
्या	-5.38455
ि	-5.39075
आहे	-5.393
या	-5.42447
र्	-5.48494
च	-5.49196
च्या	-5.49869
ब	-5.51105
ह	-5.51191
ण	-5.51226
श	-5.533
ू	-5.53619
आणि	-5.56345
चा	-5.58334
्य	-5.59598
ु	-5.61206
ची	-5.64424
प्र	-5.68685
ना	-5.69927
▁	-5.70646
ने	-5.72817
सा	-5.73694
ता	-5.80351
रा	-5.81954
ध	-5.82172
वि	-5.85873
का	-5.86534
ून	-5.929
ख	-5.93024
अस	-5.93151
ही	-5.94644
ल्या	-5.95697
ळ	-5.97942
पा	-6.01037
चे	-6.02559
ली	-6.04419
त्या	-6.0529
मा	-6.10091
री	-6.10185
ले	-6.10454
कर	-6.13098
हा	-6.13668
फ	-6.13973
मध्ये	-6.14831
घ	-6.14933
थ	-6.15804
ते	-6.15915
ठ	-6.20303
सं	-6.20596
ित	-6.20935
िक	-6.24063
के	-6.2561
नि	-6.32428
कोरोना	-6.3293
ती	-6.34691
क्	-6.35456
वर	-6.40295
1	-6.40596
कार	-6.41098
क्ष	-6.4111
साठी	-6.44463
रो	-6.47158
उ	-6.4897
दा	-6.49607
जा	-6.50408
होत	-6.51529
त्	-6.51761
-	-6.52007
त्र	-6.52037
0	-6.52459
व्ह	-6.53806
भ	-6.54919
लं	-6.57955
नाही	-6.58356
आहेत	-6.58515
रि	-6.62057
ॅ	-6.62864
तर	-6.63593
एक	-6.64311
ए	-6.66739
शी	-6.67343
से	-6.69309
इ	-6.71092
𐊣	-6.72548
𐊼	-6.72548
चं	-6.74578
स्	-6.74626
ई	-6.76919
यांनी	-6.76997
2	-6.7828
हे	-6.78582
णे	-6.79686
रे	-6.81438
मुळे	-6.81571
की	-6.82325
शा	-6.82826
ांना	-6.83877
देश	-6.84858
मो	-6.86735
वे	-6.88292
ष	-6.90774
बा	-6.92115
लस	-6.92555
पण	-6.92932
को	-6.95491
ील	-6.95502
राज्य	-6.96504
टी	-6.98598
हि	-6.99156
णार	-6.99264
णा	-6.99403
▁"	-7.00239
पु	-7.00873
गा	-7.01025
किं	-7.02266
▁(	-7.02267
भा	-7.02989
c	-7.03191
ण्याच	-7.04339
ातील	-7.04496
णी	-7.04761
वी	-7.05097
▁)	-7.0518
ृ	-7.05387
𐋇	-7.06424
सरकार	-7.06449
झ	-7.06486
आरोग्य	-7.06585
सु	-7.0784
शकत	-7.07978
जी	-7.09703
मु	-7.09809
▁'	-7.1096
मान	-7.1225
स्थ	-7.1399
नंतर	-7.14107
सि	-7.14392
सर्व	-7.14755
जे	-7.14995
काही	-7.15181
यु	-7.15624
5	-7.18871
क्त	-7.18887
वाढ	-7.19325
संसर्ग	-7.19326
शि	-7.1949
स्ट	-7.20205
▁?	-7.20427
ाच्या	-7.20542
खा	-7.22039
टा	-7.23
करत	-7.24137
न्	-7.24505
कमी	-7.24943
ऊ	-7.25144
करण्यात	-7.2547
ष्ट	-7.26171
ंग	-7.26402
णाऱ्या	-7.2799
गेल	-7.28985
दु	-7.29931
ढ	-7.302
धा	-7.30797
रुग्ण	-7.31388
ंचा	-7.31458
विषाणू	-7.32153
ंड	-7.3325
लशी	-7.34943
3	-7.34992
लि	-7.3536
करण्या	-7.3538
तो	-7.35902
4	-7.3628
पर्यंत	-7.36497
प्	-7.36539
केली	-7.38577
-19	-7.38686
प्रमाण	-7.38725
वापर	-7.38749
i	-7.39019
दी	-7.39297
e	-7.39687
o	-7.40023
r	-7.40473
भाग	-7.42158
असं	-7.42286
जात	-7.4257
काळ	-7.42982
केले	-7.43369
तील	-7.43758
द्ध	-7.43778
ण्यात	-7.4396
आले	-7.4473
भारत	-7.45112
अधिक	-7.45571
a	-7.46152
मिळ	-7.46527
ांमध्ये	-7.46765
नी	-7.47382
मे	-7.47454
9	-7.47594
.	-7.47745
पासून	-7.47971
केंद्र	-7.48265
ति	-7.48759
ज्या	-7.4972
ांनी	-7.50446
करोना	-7.51813
लोकां	-7.52059
येत	-7.52597
कडे	-7.52651
ांची	-7.52851
ण्यासाठी	-7.52869
माहिती	-7.54093
ै	-7.54479
द्या	-7.54704
रुग्णां	-7.55051
बंद	-7.55824
काम	-7.57178
ांच्या	-7.57574
घेत	-7.58124
योग	-7.5844
ावर	-7.58463
डि	-7.58593
करा	-7.59239
▁:	-7.5981
सुरू	-7.60912
असल्याच	-7.6107
होते	-7.61621
कोव्हिड	-7.62296
वर्ष	-7.62305
आजार	-7.62499
लेल्या	-7.6289
१	-7.63423
स्व	-7.63428
8	-7.64277
ँ	-7.64277
स्त	-7.64527
महाराष्ट्र	-7.64851
7	-7.65283
6	-7.66445
s	-7.66738
२	-7.66884
वेळ	-7.68532
ऑ	-7.68661
लसीकरण	-7.70318
प्रति	-7.71036
ट्र	-7.72301
ऑक्सिजन	-7.72777
०	-7.73089
ग्र	-7.73961
रुग्णालय	-7.74032
जास्त	-7.74056
दोन	-7.7445
इतर	-7.74451
लोक	-7.75258
झाल्या	-7.75465
अनेक	-7.75822
संख्या	-7.76486
उद्	-7.78781
होती	-7.8054
ओ	-7.80542
बाबत	-7.80743
व्हायरस	-7.82925
असलेल्या	-7.83084
लक्षण	-7.83298
t	-7.83443
पेक्षा	-7.84313
कोण	-7.84378
n	-7.84487
क्रम	-7.84597
न्स	-7.85576
करण्यासाठी	-7.86117
मृत्यू	-7.86968
ांत	-7.87356
ठेव	-7.87512
p	-7.88778
नुसार	-7.88961
यांच्या	-7.89336
उपचार	-7.90436
परिणाम	-7.91932
▁-	-7.92153
िंग	-7.92728
मधील	-7.93076
तयार	-7.93221
आढळ	-7.93454
झाला	-7.93664
झाले	-7.94731
झाली	-7.94807
चाचणी	-7.95388
covid	-7.97155
पूर्ण	-7.97156
व्यक्ती	-7.98154
योज	-7.98237
ांवर	-8.00319
लॉकडाऊन	-8.0059
त्यांच्या	-8.00597
औषध	-8.0204
म्हणून	-8.03212
h	-8.03299
कडून	-8.03786
ौ	-8.03934
▁¦20	-8.05106
दिवस	-8.05556
,	-8.06402
झालेल्या	-8.08589
पूर्व	-8.10073
मार्च	-8.10991
गरज	-8.11081
शोध	-8.11936
त्यांना	-8.12063
दिली	-8.12375
परिस्थिती	-8.14224
"	-8.14598
m	-8.14695
v	-8.14932
होऊ	-8.15414
देण्यात	-8.15897
उपलब्ध	-8.16366
मुंबई	-8.16366
आपल्या	-8.16647
होण्या	-8.16892
टक्के	-8.17584
नोंद	-8.18557
म्हणजे	-8.18847
म्हटलं	-8.19544
डॉक्टर	-8.21299
आम्ही	-8.21299
शाळा	-8.21402
सीओव्ही	-8.21552
म्हणाले	-8.21807
हजार	-8.23219
घेण्या	-8.24212
स्थिती	-8.24387
संबंध	-8.25165
शहर	-8.2555
महिन्या	-8.26231
एप्रिल	-8.26488
▁¦2020	-8.2729
चाचण्या	-8.28383
सांगता	-8.28922
रूग्ण	-8.29187
डोस	-8.29913
d	-8.30288
सध्या	-8.31464
संख्य	-8.32201
४	-8.33093
येई	-8.36313
पैकी	-8.38052
दिले	-8.38495
३	-8.3865
कोविड	-8.38958
वैद्यकीय	-8.39253
निर्णय	-8.39557
मुख्यमंत्र	-8.40471
प्रसार	-8.40487
देख	-8.4054
मंत्री	-8.42015
मुलां	-8.4205
५	-8.42325
बदल	-8.4233
सांगितलं	-8.43266
सोबत	-8.43899
गंभीर	-8.44215
जिल्ह्य	-8.44853
नवीन	-8.45219
दिवसां	-8.4564
मास्क	-8.47464
नियम	-8.48977
ः	-8.49437
होणार	-8.49449
दुसऱ्या	-8.49772
९	-8.49772
l	-8.50447
बाहेर	-8.50793
द्वार	-8.50794
संपर्क	-8.51127
समावेश	-8.51468
शिक्षण	-8.54956
ठाकरे	-8.57455
छ	-8.58547
बद्दल	-8.5855
आठवड	-8.59287
पुढे	-8.60032
क्षेत्र	-8.60045
u	-8.60776
दरम्यान	-8.61152
सुरुवात	-8.6153
शक्यता	-8.62671
च्छ	-8.62673
विषय	-8.6271
जागतिक	-8.63438
/	-8.64212
अभ्यास	-8.64602
;	-8.64991
निर्माण	-8.65384
g	-8.65384
६	-8.65384
w	-8.65384
वेगळ	-8.66181
निर्बंध	-8.66569
परवानगी	-8.66968
बाधित	-8.67773
महत्त्वाच	-8.68173
म्हणतात	-8.6818
तुम्हाला	-8.69392
हॉस्पिटल	-8.69392
sars	-8.69393
बोलता	-8.69803
तुमच	-8.70746
८	-8.71042
अमेरिक	-8.73569
ात्मक	-8.73998
तज्ज्ञ	-8.74425
ञ	-8.83891
७	-8.99188
़	-9.03121
b	-9.08417
f	-9.18584
“	-9.20611
‘	-9.29903
’	-9.33721
)	-9.44922
!	-9.49721
y	-9.61328
'	-9.63067
ऐ	-9.72149
”	-9.74462
‍	-9.83003
ऩ	-9.89584
औ	-9.96628
k	-10.0421
x	-10.5168
–	-10.5425
•	-10.5688
[	-10.7431
]	-10.7431
#	-10.8432
ऍ	-10.8789
$	-11.1726
ऋ	-11.2226
z	-11.2226
q	-11.3308
:	-11.5869
(	-11.6638
j	-11.6671
<	-11.9414
≥	-11.9414
>	-12.0525
+	-12.1775
ॲ	-12.487
*	-12.487
_	-12.937
×	-12.937
α	-13.2704
ऎ	-13.7703
=	-13.7704
β	-13.7704
—	-13.7704
?	-14.7673
%	-14.7702
ऱ	-14.7703
~	-14.7704
ß	-14.7704
å	-14.7704
γ	-14.7704
ॉ	-14.7704
