<pad>	0
</s>	0
<unk>	0
¦	-1.37726
▁¦	-1.69221
▁	-3.25628
𐋇	-3.2873
▁,	-3.50871
u	-4.08872
a	-4.38657
e	-4.44091
▁.	-4.51557
o	-4.55792
i	-4.68272
ni	-4.93845
na	-5.10008
yo	-5.16413
▁:	-5.23477
▁;	-5.2739
“	-5.31859
wa	-5.44856
ku	-5.60706
kepha	-5.64566
ngokuba	-5.69321
ba	-5.70322
ka	-5.71452
nga	-5.72017
nkulunkulu	-5.80621
no	-5.84655
▁.”	-5.9349
ne	-5.97738
eni	-6.00283
ukuba	-6.01518
-	-6.01978
nke	-6.03048
ukuthi	-6.16634
lo	-6.16713
aba	-6.17083
ngi	-6.18077
wathi	-6.19198
nge	-6.22801
si	-6.27884
uku	-6.2811
be	-6.28615
ya	-6.33392
ngo	-6.35098
ko	-6.36204
khona	-6.37576
ke	-6.38259
le	-6.39676
li	-6.39806
jes	-6.41891
uma	-6.42734
nkosi	-6.45656
kuye	-6.48438
yi	-6.57091
la	-6.60122
▁?	-6.60342
weni	-6.60869
muntu	-6.60997
kwa	-6.61171
zo	-6.63608
kubo	-6.69204
we	-6.70571
krist	-6.719
ndla	-6.72019
za	-6.74782
𐊣	-6.78615
𐊼	-6.78615
se	-6.82492
kini	-6.83092
kodwa	-6.8419
sa	-6.84966
lokho	-6.86354
ini	-6.86358
bo	-6.89254
nxa	-6.89626
so	-6.91559
wo	-6.97162
ye	-6.99453
ngakho	-6.999
lokhu	-7.00007
noku	-7.04246
ngoku	-7.05151
lu	-7.07563
‘	-7.07947
zi	-7.09075
ngu	-7.12503
bathi	-7.12717
ile	-7.14471
lowo	-7.16427
kwaba	-7.16495
bonk	-7.16512
kwe	-7.17257
▁?”	-7.17732
um	-7.17733
ama	-7.17972
ukuze	-7.18524
noma	-7.20188
moy	-7.2118
ma	-7.22404
kholwa	-7.22652
ze	-7.24356
isi	-7.24479
naba	-7.30251
lapho	-7.30984
bili	-7.31332
n	-7.31574
kanye	-7.3265
baba	-7.34357
mina	-7.36972
kube	-7.37688
yena	-7.38369
eli	-7.38813
m	-7.40217
nina	-7.43215
kwathi	-7.43888
de	-7.44035
oku	-7.44174
phakathi	-7.45638
futhi	-7.46073
ngcwele	-7.5085
yakhe	-7.50895
pha	-7.52151
phezu	-7.53434
juda	-7.53583
njalo	-7.54254
uj	-7.54398
izi	-7.54648
phambi	-7.54682
esi	-7.54695
mtheth	-7.55029
nani	-7.55207
esu	-7.56282
lwa	-7.56571
tha	-7.569
nye	-7.56956
leyo	-7.57766
naye	-7.62149
izwi	-7.62783
kuthi	-7.63049
▁.’	-7.65365
bakhe	-7.65858
yini	-7.66664
kwen	-7.66813
kakhulu	-7.67034
ndodan	-7.67994
kwakhe	-7.68855
ezi	-7.69293
ningi	-7.71533
ela	-7.71762
gama	-7.72232
bheka	-7.72531
zalwane	-7.72733
ngithi	-7.72868
sikhathi	-7.74767
pho	-7.7679
nase	-7.76821
kuphila	-7.76989
ese	-7.80418
usa	-7.80495
kho	-7.82112
kimi	-7.82151
nama	-7.82768
base	-7.82979
nami	-7.82993
wena	-7.84399
phansi	-7.84581
dwa	-7.85132
ngelosi	-7.85158
funa	-7.85481
kuqala	-7.85733
rist	-7.86395
suku	-7.86788
thu	-7.87227
wu	-7.88847
ndlu	-7.88936
waye	-7.89305
hlala	-7.89801
kwabo	-7.89989
babe	-7.91016
munye	-7.9159
abanye	-7.92131
ngena	-7.93125
nabo	-7.95223
bona	-7.95311
omunye	-7.95792
ru	-7.96068
lika	-7.9705
lutho	-7.97244
ngalokho	-7.97338
sika	-7.97459
hamba	-7.9775
abafundi	-7.97884
waba	-7.97939
kuka	-7.98721
uya	-7.9885
jer	-7.99378
abe	-7.99573
njengalokh	-7.9975
kuphela	-8.00535
shumi	-8.00566
nalowo	-8.00801
vela	-8.03348
abantu	-8.03893
misebenzi	-8.04168
the	-8.0436
lema	-8.04524
file	-8.04945
wayese	-8.05546
eziyi	-8.0575
bu	-8.059
manje	-8.06782
emv	-8.07728
bantu	-8.07836
khuluma	-8.08004
ngiya	-8.08006
labo	-8.08594
kuwe	-8.09436
ezulw	-8.09633
kuze	-8.09719
pawu	-8.10461
anga	-8.10701
nom	-8.123
nam	-8.12874
lakhe	-8.1293
nezi	-8.13439
fa	-8.13726
lwe	-8.13799
qinisile	-8.13993
musa	-8.14164
phi	-8.15172
kanjalo	-8.15173
phandle	-8.15226
is	-8.15322
thi	-8.15615
nguye	-8.15793
abo	-8.1597
zwi	-8.16386
wayeseth	-8.16809
pet	-8.1687
ngaye	-8.17672
phuma	-8.18118
yise	-8.1911
uyaku	-8.19161
in	-8.19412
zwe	-8.19636
iya	-8.20622
yami	-8.21354
njengokuba	-8.21961
esifazane	-8.22206
kuba	-8.22324
vangeli	-8.22441
kade	-8.23259
ayi	-8.2441
zakhe	-8.25448
ninga	-8.25533
masinya	-8.25847
indoda	-8.26184
zulu	-8.26558
w	-8.26777
mi	-8.26786
johan	-8.2681
thina	-8.27476
nkazimul	-8.27806
mazwi	-8.28327
sebe	-8.28475
ng	-8.28769
kwase	-8.29615
kwam	-8.29729
enga	-8.30234
sikhombis	-8.31398
laba	-8.31739
khuleka	-8.3192
ndle	-8.31951
isa	-8.32168
wam	-8.32182
waphendula	-8.32346
ezwe	-8.32915
kuyo	-8.33067
yethu	-8.33291
ngiyaku	-8.33317
far	-8.33989
nyama	-8.34434
siya	-8.35027
ndawo	-8.35973
thula	-8.36085
sixuk	-8.36191
ki	-8.36367
ethi	-8.36433
da	-8.36464
ngase	-8.36748
ngokuthi	-8.368
wakhe	-8.38434
hla	-8.38864
yathi	-8.39369
kwazi	-8.39685
iwe	-8.40105
phe	-8.40428
ani	-8.40856
thanda	-8.41225
ngama	-8.41997
khonza	-8.42068
themba	-8.42598
mvu	-8.42637
bam	-8.42859
kukhona	-8.43128
kulo	-8.43249
yen	-8.43523
zen	-8.44176
nje	-8.44261
kithi	-8.44757
thokoza	-8.45001
zwa	-8.46272
khulu	-8.46507
mo	-8.46623
em	-8.46833
yakho	-8.46833
wami	-8.4699
▁,”	-8.4703
izwe	-8.47319
yebo	-8.4742
lesi	-8.47598
ngaba	-8.48439
nhliziyo	-8.48492
kanja	-8.49114
baya	-8.49169
fanele	-8.4918
zimba	-8.49356
ezizwe	-8.49578
uthi	-8.49675
kudla	-8.4971
bi	-8.49902
ababe	-8.50026
nokuba	-8.50027
umbus	-8.50687
fu	-8.50852
lunga	-8.5119
sakhe	-8.51461
kwakho	-8.51569
bhekani	-8.51811
l	-8.52265
hlezi	-8.52752
niya	-8.53506
kuthe	-8.53929
gazi	-8.5394
endl	-8.54327
manzi	-8.54512
mbe	-8.54639
lapha	-8.55256
s	-8.55385
wethu	-8.56011
awu	-8.56098
ngubani	-8.56867
abayi	-8.56949
wazi	-8.57113
fanekis	-8.57142
dla	-8.57226
fundisa	-8.57293
beka	-8.58116
ngesi	-8.58226
sto	-8.58288
oya	-8.58735
aka	-8.5912
▁,’	-8.59594
kwenza	-8.59632
k	-8.60457
melwe	-8.61117
mkhulu	-8.61159
me	-8.61331
thand	-8.61818
wase	-8.62336
lase	-8.6273
uzaku	-8.62864
ray	-8.62986
kha	-8.63042
leli	-8.63292
khanda	-8.63694
kukho	-8.63751
qinis	-8.64052
ow	-8.64074
simo	-8.64128
vuka	-8.64147
zinto	-8.64352
ngalo	-8.64754
kwakukhona	-8.64773
nene	-8.64926
bani	-8.65359
imi	-8.65388
zabo	-8.65578
okukhulu	-8.66364
ngathi	-8.66818
athu	-8.67256
bayaku	-8.67329
ump	-8.67413
lele	-8.67476
okuhle	-8.67972
lami	-8.68534
obe	-8.69089
shumayela	-8.6946
ele	-8.69673
bukhosi	-8.69693
abra	-8.69698
ngokwe	-8.70517
eza	-8.70604
lungile	-8.70926
soku	-8.71073
hama	-8.71154
limi	-8.72152
galil	-8.7238
emhlab	-8.72418
loku	-8.72933
esa	-8.73025
owa	-8.73037
waya	-8.73224
ngani	-8.73383
un	-8.73505
niyaku	-8.7353
enye	-8.73886
ethempeli	-8.74026
h	-8.74077
bethi	-8.74674
abakhulu	-8.75196
kile	-8.75342
kunge	-8.75679
fika	-8.75824
nathi	-8.76313
memeza	-8.76923
thile	-8.76978
b	-8.78182
▁”	-8.78184
mashumi	-8.78415
sizwe	-8.78426
kungathi	-8.78601
kulotshiwe	-8.79841
mpela	-8.79943
othi	-8.80161
nakho	-8.80423
ose	-8.80666
indi	-8.80746
jak	-8.81071
yala	-8.81238
mbus	-8.81552
uqo	-8.82232
njengo	-8.8243
banga	-8.8247
bazi	-8.82704
up	-8.829
engi	-8.83012
iso	-8.83197
kwethu	-8.83428
sha	-8.84056
mbi	-8.84115
yaba	-8.84255
wakho	-8.84258
angi	-8.84406
ngaphambi	-8.84542
njenge	-8.84588
leso	-8.84791
ezint	-8.84836
yabo	-8.85311
eya	-8.85444
bhali	-8.85766
nawe	-8.86415
nika	-8.86435
kubona	-8.86555
sathan	-8.87142
kungabi	-8.87197
ngom	-8.87296
mazi	-8.87388
nesi	-8.87506
thuma	-8.87742
elo	-8.87833
phendula	-8.87972
inkosi	-8.88161
kuzwa	-8.88324
abatha	-8.89194
zwile	-8.89358
mari	-8.89404
elwa	-8.89797
nibe	-8.89942
kufika	-8.89969
beza	-8.9007
cela	-8.90256
elikhulu	-8.90287
wana	-8.90293
akakho	-8.90572
onga	-8.90635
msebenzi	-8.91009
lilo	-8.9134
sho	-8.91409
aku	-8.91589
tho	-8.91625
izinsuk	-8.92128
fakaza	-8.92404
nazi	-8.9253
bufakazi	-8.92586
khanya	-8.926
kuya	-8.92703
wabo	-8.92734
biza	-8.93785
atu	-8.93875
lakho	-8.94018
ngizaku	-8.9419
amadoda	-8.94191
kahle	-8.94207
zulw	-8.94438
lomo	-8.94718
cal	-8.9549
naku	-8.95541
ngomus	-8.95833
ngazi	-8.96326
nange	-8.96768
hle	-8.96887
linye	-8.9693
iza	-8.97129
kanti	-8.97356
busisiwe	-8.97552
thembis	-8.97938
yoku	-8.97964
kuvela	-8.98234
kuso	-8.98698
abantwan	-8.9897
qha	-8.99017
asi	-8.99508
mhla	-8.99632
uyi	-8.99661
omkhul	-8.99745
amehl	-8.9981
nda	-9.00381
ngabe	-9.00391
kusuk	-9.00418
ngezi	-9.00647
am	-9.00673
luka	-9.00678
yimi	-9.00695
mhlaba	-9.00712
▁!”	-9.00952
bami	-9.00995
enu	-9.01069
us	-9.01531
nokho	-9.01548
muzi	-9.0161
sindis	-9.02063
kuyi	-9.0285
mp	-9.03018
sihlan	-9.03072
om	-9.03787
izon	-9.0385
hlane	-9.0397
olu	-9.04052
kazi	-9.04232
koku	-9.04259
tshe	-9.04395
ungu	-9.04677
buthakathak	-9.0469
esikhulu	-9.04928
fi	-9.05006
nikela	-9.05112
emzi	-9.05762
nguku	-9.05763
hor	-9.06151
kukhuluma	-9.0619
bakho	-9.06325
ukufa	-9.06606
dlula	-9.07016
nemi	-9.07184
babo	-9.07422
mhlo	-9.07461
y	-9.08315
woku	-9.08382
thela	-9.08532
nithi	-9.08642
kubant	-9.08767
uthe	-9.09021
iqinis	-9.09345
baprofethi	-9.09563
dem	-9.09832
ncenga	-9.0989
zinceku	-9.10109
okuphaka	-9.10691
buka	-9.10877
letha	-9.10969
ayo	-9.11075
maye	-9.11266
khipha	-9.11369
othile	-9.11547
madoda	-9.11641
oni	-9.11942
thumela	-9.12821
ubu	-9.12887
abaning	-9.13118
sondela	-9.13179
maka	-9.13239
bulala	-9.13303
kwenze	-9.13609
thempeli	-9.13969
khala	-9.14401
emi	-9.14454
akukho	-9.14489
kesari	-9.147
owaye	-9.14872
sin	-9.14994
egam	-9.1526
bumnyam	-9.15385
sibe	-9.16136
kusho	-9.16151
seku	-9.16565
abanga	-9.16831
bantwan	-9.17088
yihlo	-9.17196
sami	-9.17853
yona	-9.1793
lile	-9.18009
ngezw	-9.18205
bone	-9.18271
bar	-9.18373
shiya	-9.18448
kwafik	-9.18504
khu	-9.18831
mbona	-9.18923
makhosi	-9.19045
sesi	-9.19053
sindiswa	-9.19063
iminya	-9.19075
nangoku	-9.19168
zizwe	-9.20034
bala	-9.20217
fumana	-9.20378
phenduka	-9.20499
esiphamban	-9.20702
kwaku	-9.20765
ngum	-9.20982
jud	-9.21029
abase	-9.21059
gr	-9.21222
herod	-9.21222
su	-9.21638
abap	-9.21753
eki	-9.2193
mpof	-9.22108
eyi	-9.22704
tsha	-9.22812
kwesaba	-9.22828
gula	-9.23495
ab	-9.23512
yawo	-9.23766
wabona	-9.23798
weza	-9.23833
sizi	-9.23837
lithi	-9.23911
z	-9.23971
nde	-9.2423
ngabo	-9.24409
sebenzi	-9.24811
kuzo	-9.2485
ngibona	-9.24944
wen	-9.25013
ezining	-9.2507
kuhle	-9.25098
lwakh	-9.25274
zinkulungwa	-9.25278
lawo	-9.25524
uthand	-9.25544
akhe	-9.25651
izix	-9.25849
yizi	-9.25919
ezimbi	-9.26042
kugcina	-9.26119
ngekho	-9.26122
saba	-9.26123
ra	-9.26126
umfow	-9.26179
izingu	-9.26256
gcina	-9.26415
yayi	-9.26969
kwaze	-9.27053
kwab	-9.27242
mba	-9.27601
nginga	-9.27631
yayo	-9.27752
khe	-9.27779
ema	-9.27858
amane	-9.27917
wasi	-9.28111
waqala	-9.28201
ngakwesok	-9.28226
lukhu	-9.28272
mkhunj	-9.28387
ngawo	-9.28549
uhla	-9.28559
aye	-9.28679
ubus	-9.28744
lalela	-9.29198
wakhuluma	-9.29611
ngesa	-9.29718
benza	-9.29742
phu	-9.29959
butho	-9.29962
bayi	-9.30515
kubafundi	-9.30624
goli	-9.30639
ngceb	-9.3065
pil	-9.30655
uva	-9.30737
sithi	-9.30767
endaw	-9.30861
umzalwane	-9.30909
omuhl	-9.31065
d	-9.31099
kule	-9.31124
fakazi	-9.31311
hlanganyel	-9.31365
mfundis	-9.3149
landela	-9.31499
mali	-9.32222
sazi	-9.32321
mhlabathi	-9.32325
izinya	-9.32336
ize	-9.32346
ngiku	-9.32354
c	-9.32485
zinsuk	-9.32557
gcwele	-9.32655
etr	-9.32752
nyaka	-9.32938
zami	-9.32948
yayisi	-9.32975
kulunkulu	-9.33069
nzi	-9.33407
beni	-9.33556
bonile	-9.33739
ngayo	-9.34009
nab	-9.34431
dle	-9.34477
kela	-9.34881
ngiyi	-9.34896
ngakholwa	-9.34948
phonsa	-9.34998
umuzi	-9.35279
wayini	-9.35387
wabuye	-9.35482
mbo	-9.35572
ngqond	-9.35705
zikhathi	-9.35712
▁?’	-9.35715
phika	-9.35791
hlambalaza	-9.35868
hlupheka	-9.35976
kum	-9.3603
baka	-9.36145
ngize	-9.36246
wazal	-9.36301
f	-9.36569
yase	-9.36619
mzimb	-9.36624
iswa	-9.3686
wenza	-9.36903
siyazi	-9.36965
use	-9.37167
ha	-9.37438
qonda	-9.37571
eliya	-9.37879
kude	-9.38169
kw	-9.38249
hlobo	-9.38261
umo	-9.38572
wamuka	-9.38722
ngene	-9.38857
yikho	-9.38874
inceku	-9.3906
okung	-9.39133
okubi	-9.39805
phila	-9.39857
sebenza	-9.39944
wafika	-9.39983
muka	-9.40105
butha	-9.40132
khumbula	-9.40245
p	-9.40282
njengaba	-9.40452
siza	-9.40493
nges	-9.40594
hlakanipha	-9.40695
wayi	-9.407
zika	-9.40746
etilong	-9.41039
ngithumile	-9.41083
jose	-9.41153
lisa	-9.41269
siye	-9.41707
mele	-9.42094
benga	-9.42097
zethu	-9.42286
yibo	-9.42451
enkulu	-9.42522
izithe	-9.42536
yeza	-9.42652
athi	-9.43036
ezinga	-9.43096
zibonga	-9.43268
fana	-9.43474
suka	-9.43511
abaprofethi	-9.43596
al	-9.43765
kuyaku	-9.43815
nanga	-9.43816
kuqale	-9.43816
liphu	-9.43903
yama	-9.43945
zoku	-9.43964
phatha	-9.44093
yenza	-9.44152
ukum	-9.44401
lunye	-9.44752
ngemi	-9.44867
zelwe	-9.45034
phawu	-9.45047
kuna	-9.4537
ifa	-9.45714
khi	-9.4598
tar	-9.4618
bekezela	-9.46212
njenga	-9.46241
lahlwa	-9.4638
yazi	-9.46596
unga	-9.46598
ndoda	-9.46886
nawo	-9.46997
umprofethi	-9.47307
fazi	-9.47523
imp	-9.4775
mu	-9.48295
azi	-9.48649
jo	-9.48722
nabafundi	-9.48977
kunga	-9.4934
ekudl	-9.49488
waphuma	-9.49522
phelele	-9.4953
sikhashan	-9.49616
soka	-9.49704
ngami	-9.49919
indun	-9.49967
lela	-9.50013
kwenzeka	-9.50092
esefik	-9.50434
di	-9.50454
kukholw	-9.50711
ntand	-9.50985
uyise	-9.51022
laka	-9.51152
maqo	-9.5126
enhliziy	-9.51538
kabi	-9.51622
yisa	-9.51754
lezi	-9.52014
izinto	-9.52052
bonga	-9.52139
ngaso	-9.52298
thole	-9.52444
vunyelw	-9.52645
sana	-9.53087
azare	-9.53263
duze	-9.53348
phulukisa	-9.53401
intand	-9.53541
lingu	-9.53724
mabandl	-9.53735
mehl	-9.53869
kuyakub	-9.539
ho	-9.53904
ngeza	-9.5408
hambani	-9.54105
thatha	-9.54163
khali	-9.54411
sila	-9.54495
ethu	-9.54694
bem	-9.54848
yisi	-9.5487
zibonakalis	-9.54913
ngisho	-9.54974
ncwadi	-9.55395
ndana	-9.55589
vule	-9.55697
nxusa	-9.55786
udum	-9.5588
engena	-9.55986
duduz	-9.56282
zonda	-9.5629
kosi	-9.56292
bamangal	-9.56421
yalo	-9.56517
kwavela	-9.5658
nqum	-9.56696
amad	-9.56779
langa	-9.56788
ezine	-9.56825
umyal	-9.56846
swa	-9.56945
lony	-9.56955
okwa	-9.57179
usuku	-9.57203
sukuma	-9.57318
zindl	-9.57436
manga	-9.57493
amen	-9.57648
wafa	-9.57948
inhliziyo	-9.58065
nango	-9.58272
owenza	-9.58278
lula	-9.58363
sasi	-9.58371
buye	-9.58434
hlale	-9.58451
hlo	-9.58483
buza	-9.58587
emon	-9.586
gibi	-9.58951
sivumelwan	-9.58996
sizukulwane	-9.58996
wona	-9.59165
siyi	-9.59204
mphefumul	-9.5932
isin	-9.59417
esihlal	-9.59492
makub	-9.5953
lizwa	-9.59916
bethu	-9.6002
siyaku	-9.60129
ngobu	-9.60465
matshe	-9.60633
ben	-9.60799
wula	-9.60827
umnt	-9.60878
ene	-9.61027
thabatha	-9.61114
naphaka	-9.61189
baze	-9.61214
kufanele	-9.61222
emihle	-9.6131
unina	-9.6134
abakholwa	-9.61422
ngoko	-9.61545
thwa	-9.6162
besi	-9.61676
hambi	-9.61718
ebus	-9.62016
bemi	-9.62062
nceku	-9.62146
sihawu	-9.62472
kangaka	-9.62562
shwa	-9.62635
ukwenza	-9.62966
nkulungwa	-9.63118
indlela	-9.63183
bese	-9.63198
amanga	-9.63199
profetha	-9.63216
ali	-9.63524
hi	-9.63698
phuza	-9.63706
nakuba	-9.63774
mbethe	-9.63871
hu	-9.64043
ri	-9.64192
esandl	-9.64294
kwabant	-9.64317
ebona	-9.64366
wawu	-9.64553
ethun	-9.64651
thewu	-9.64775
kwezin	-9.6486
yeka	-9.65178
inyama	-9.65398
esinagoge	-9.65738
khulume	-9.65785
awulu	-9.66014
ase	-9.6607
wathatha	-9.66274
ala	-9.66391
iband	-9.6654
sakho	-9.66626
busa	-9.66784
baphendula	-9.66833
entab	-9.66881
buthe	-9.67193
nta	-9.67261
vula	-9.67305
zile	-9.67401
lahla	-9.6771
iyaku	-9.67892
fiki	-9.68342
ane	-9.68414
ngalez	-9.68518
itshe	-9.68875
phethe	-9.68985
kuno	-9.69031
kungesi	-9.69113
utho	-9.69141
mangalis	-9.69245
khethiwe	-9.69361
ise	-9.69398
mkhosi	-9.69409
mbhapathiz	-9.69422
kedoni	-9.6945
ngenza	-9.69577
nenza	-9.69901
ngokunjalo	-9.70283
izizwe	-9.70328
msindis	-9.70329
mnika	-9.70332
ningaba	-9.70857
linga	-9.70946
enhle	-9.70951
wele	-9.71186
mlandela	-9.71208
wesi	-9.71421
kungalungi	-9.71846
lali	-9.72133
ungum	-9.7236
ndlela	-9.72546
ndodakazi	-9.7287
ezinhliziy	-9.72885
thini	-9.73053
zinkanuk	-9.73059
lungel	-9.73304
sise	-9.73371
dum	-9.73394
zaba	-9.73394
ziyaku	-9.73521
mesaba	-9.73687
j	-9.73732
sabo	-9.73975
kugcwalisek	-9.74428
mvusa	-9.74463
ef	-9.7468
singa	-9.74818
libe	-9.74891
kele	-9.74944
simu	-9.75345
ngcolile	-9.75406
bafika	-9.75517
besaba	-9.75639
ami	-9.75646
loba	-9.75715
kungena	-9.75767
bonakala	-9.75876
gan	-9.75904
oyaku	-9.76027
ube	-9.76125
thethelelw	-9.76128
khwe	-9.76207
funda	-9.7623
bathandeka	-9.76356
ngiye	-9.76533
r	-9.7654
qinisa	-9.7666
ebe	-9.76663
nizaku	-9.76711
ariy	-9.76849
jabula	-9.76899
liva	-9.76899
sezinyaw	-9.77164
okazi	-9.77198
phuze	-9.77223
amatha	-9.77241
thola	-9.77281
hambe	-9.77335
khula	-9.77409
mbuza	-9.77432
chitha	-9.7774
namalu	-9.77794
bufebe	-9.77804
seni	-9.77877
zalwa	-9.77894
ithi	-9.779
kwenzile	-9.77957
ngithanda	-9.77971
dabul	-9.78016
sengi	-9.78023
phela	-9.78109
hlis	-9.78397
ukwahlulel	-9.7853
abafi	-9.78599
woza	-9.78599
umbhal	-9.7862
qonde	-9.78648
ngise	-9.7875
ukuya	-9.78777
ngibe	-9.78883
ngwa	-9.78972
kholwe	-9.79228
im	-9.79255
kwahlulel	-9.79406
len	-9.79586
okunga	-9.80219
bhubha	-9.80236
seli	-9.80337
wenze	-9.80399
linda	-9.80418
ukulung	-9.80581
bethelw	-9.80613
komhlaba	-9.80625
kufike	-9.80637
nithanda	-9.80812
bezwa	-9.80815
betha	-9.80821
mfihlakal	-9.80899
khuthazela	-9.809
thimo	-9.81009
incwadi	-9.81044
yam	-9.81129
khuza	-9.8118
khonzi	-9.81218
kunjalo	-9.81382
mar	-9.81414
yezi	-9.81549
zithombe	-9.81597
febe	-9.81661
bhapathiza	-9.8169
lelwa	-9.81699
bali	-9.81739
masinagoge	-9.8174
nembe	-9.81849
ndi	-9.82061
lama	-9.82264
njan	-9.82691
kwalo	-9.82938
kuza	-9.82982
naka	-9.83342
wela	-9.8357
ubi	-9.83604
sekel	-9.83623
mphendula	-9.83761
susa	-9.83818
niyazi	-9.84056
zinga	-9.8428
enyam	-9.84332
yane	-9.84359
njengoku	-9.84431
yayisith	-9.84627
benze	-9.84879
zazi	-9.84956
anti	-9.85047
sivini	-9.85066
khululekile	-9.85076
ngeni	-9.85113
▁;’	-9.85127
emba	-9.85426
kunguku	-9.85459
weyo	-9.85461
rom	-9.8547
vuswa	-9.85563
faka	-9.86152
esizwe	-9.86195
sam	-9.86238
ingub	-9.86269
nababe	-9.86336
ngabona	-9.86519
sikhonzi	-9.8671
gcwal	-9.87093
ngikhuluma	-9.8743
isitsh	-9.87438
kungaba	-9.87527
zakh	-9.87635
mthanda	-9.87695
ipha	-9.87784
obu	-9.88211
kungu	-9.8829
ngingu	-9.88374
x	-9.88484
isilo	-9.88665
zela	-9.88673
qondi	-9.88734
ngini	-9.89095
mbamba	-9.89238
mahlulel	-9.89291
ngaphezu	-9.89369
hlangothi	-9.89418
nabafow	-9.8945
bezi	-9.89463
abapho	-9.89569
ophila	-9.89571
mibhal	-9.89588
phambene	-9.89654
kwesi	-9.8973
ngezin	-9.89829
ngemihla	-9.89862
phesh	-9.89884
boshiwe	-9.9017
sishiyagalo	-9.90207
nto	-9.90353
melana	-9.90382
nalo	-9.90388
okwe	-9.90401
nca	-9.90751
yilo	-9.90833
umvuz	-9.90923
sawul	-9.90947
khazimulis	-9.90984
ngam	-9.91156
thele	-9.91328
kuse	-9.91559
lwane	-9.91607
kolw	-9.91612
khubekis	-9.9175
yemi	-9.91854
badla	-9.92004
nenze	-9.92154
sithanda	-9.92241
mawu	-9.92247
bakholwa	-9.92618
endlel	-9.92691
nothand	-9.92723
ngomkhu	-9.92965
thelisi	-9.9297
bengi	-9.93725
akusi	-9.93794
ngumuphi	-9.93992
upha	-9.9406
esinga	-9.94118
kwezw	-9.94127
kariy	-9.94239
kuvuk	-9.94275
eze	-9.94327
sile	-9.9442
bazaku	-9.94514
nisa	-9.94834
ningabi	-9.94852
isib	-9.94943
ngenisa	-9.94957
izin	-9.95037
bebona	-9.95063
masi	-9.95175
owazi	-9.95224
xway	-9.95267
shay	-9.9538
mbusi	-9.95552
ngokwam	-9.95791
kuzwile	-9.95935
bambe	-9.96156
umkakh	-9.96193
nitshela	-9.96265
kwama	-9.96334
ahla	-9.96338
nezin	-9.96457
wasuka	-9.96549
khubek	-9.96554
bele	-9.9687
thembekile	-9.96982
nikwa	-9.97088
dabuka	-9.97239
mela	-9.97374
anazi	-9.97573
dani	-9.97598
nen	-9.97662
akusikh	-9.97762
imihla	-9.97813
oza	-9.97825
bakhuluma	-9.97875
zom	-9.98536
zanga	-9.98601
ngayiku	-9.98609
ngilandele	-9.98721
kukhanye	-9.98722
lungisiswa	-9.98728
wayo	-9.98756
bheke	-9.99005
izinkw	-9.99048
muzwa	-9.99084
bhe	-9.99142
into	-9.99199
dala	-9.992
isibonakalis	-9.99232
zinhluphek	-9.9928
isithe	-9.99305
liwe	-9.99347
besa	-9.99436
izibonakalis	-9.9953
hlwanyela	-9.99569
sizwa	-9.99634
misa	-9.99684
bafumana	-9.99895
kwawo	-9.99932
nabantwan	-9.99964
umkhumb	-10.0027
mandl	-10.0029
ndulela	-10.0041
uyakuba	-10.005
ethile	-10.0054
naso	-10.007
isaka	-10.0075
ukubona	-10.0083
okholwa	-10.0085
ngiyazi	-10.0088
ukuthul	-10.0098
ungubani	-10.0101
zin	-10.0125
sela	-10.0176
baye	-10.0182
abazal	-10.0183
bus	-10.0223
umi	-10.0235
phiwe	-10.0242
ngiyani	-10.0249
du	-10.0264
okuningi	-10.0278
buyel	-10.0286
nqoba	-10.0301
imvu	-10.0302
sakwa	-10.0302
ayaku	-10.0304
phinda	-10.0312
bamanga	-10.0323
basho	-10.0324
lukhulu	-10.0325
ongena	-10.0388
fike	-10.0398
iyu	-10.0409
yekhulu	-10.0409
fokazi	-10.0409
ngozi	-10.041
bambuza	-10.042
wema	-10.0429
lahlekelwa	-10.0431
landisa	-10.0438
abathi	-10.044
nhloko	-10.0442
ebu	-10.0444
lani	-10.046
lazi	-10.0497
akusho	-10.0508
izimp	-10.0509
sibonakalis	-10.0516
nize	-10.0532
memezel	-10.0567
on	-10.0578
kom	-10.0597
ukuza	-10.0626
zisa	-10.0628
sibo	-10.0646
ezinhl	-10.0647
ziboph	-10.0663
sezi	-10.0664
engum	-10.0665
gqila	-10.0695
ngeze	-10.0733
selwa	-10.0744
ngasho	-10.0749
ngokwa	-10.0771
niye	-10.0786
nesib	-10.0787
umhlaba	-10.0798
babona	-10.0798
fisa	-10.0799
sifundis	-10.0835
ekha	-10.0849
mprofethi	-10.0857
wamukela	-10.0868
thobela	-10.0887
guny	-10.0898
ntombazan	-10.0898
▁;”	-10.0903
okuyi	-10.0927
kwesihla	-10.0929
uze	-10.0931
nim	-10.0936
bhapathizwa	-10.0942
bangena	-10.0943
babusi	-10.0944
hlushwa	-10.0945
kwamukela	-10.0984
hlanga	-10.0985
yinkosi	-10.1039
ngezwa	-10.1045
khumb	-10.1056
ngawe	-10.1066
she	-10.1081
bonwa	-10.1108
washo	-10.1112
behlel	-10.1123
tshela	-10.1137
asiya	-10.1144
lwen	-10.1153
ez	-10.1168
dli	-10.1176
behamba	-10.1181
ny	-10.1186
shelwa	-10.1189
phiwa	-10.1203
mthatha	-10.1216
lawa	-10.1231
size	-10.1255
phakamisa	-10.1267
zase	-10.1276
saya	-10.1285
abu	-10.1304
ngokunga	-10.1311
uhlala	-10.1324
siphamban	-10.1327
njengom	-10.1343
ngenzi	-10.136
nonina	-10.1366
neze	-10.1419
qinile	-10.1454
shisekel	-10.1458
jor	-10.1461
ngasem	-10.1467
ntaba	-10.1469
qoth	-10.1472
miphefumul	-10.1478
senza	-10.1497
liyaku	-10.1498
ziya	-10.1525
mukeliswa	-10.1534
zala	-10.1541
hawukel	-10.1551
sathi	-10.1571
alifa	-10.1576
yeli	-10.1598
sendlel	-10.1637
oma	-10.1639
nele	-10.1646
liya	-10.1647
yize	-10.1657
ning	-10.1657
uye	-10.1672
lungisa	-10.1678
ndu	-10.1678
mafu	-10.1708
mise	-10.1725
es	-10.1733
imiyal	-10.1733
kuyini	-10.1734
nas	-10.1735
sona	-10.1735
kuphikisa	-10.1737
yikhona	-10.1739
wama	-10.1752
othand	-10.1773
isihla	-10.1781
lungisela	-10.1805
yok	-10.1821
bubi	-10.1834
kukhulu	-10.1869
odwa	-10.1876
ngen	-10.1879
abani	-10.1882
qed	-10.1889
ukukhany	-10.1895
ngisa	-10.1901
nzal	-10.1902
khiphe	-10.1906
aze	-10.1913
kwemi	-10.1922
zini	-10.1923
yesi	-10.1926
phonse	-10.1936
ethanda	-10.1949
nkonz	-10.1954
nya	-10.1958
ngesib	-10.1958
unama	-10.1979
fundisi	-10.199
ngifuna	-10.1996
hane	-10.1999
hlela	-10.2018
kelwa	-10.2018
gcwalisa	-10.2026
hhashi	-10.2042
hlukene	-10.2042
gijimela	-10.2043
fela	-10.2047
mhlambi	-10.2048
yingco	-10.2088
babuye	-10.209
zenza	-10.2093
bingelela	-10.2094
ngiphe	-10.2101
ngump	-10.2101
kuphi	-10.2104
khulula	-10.2113
uzakuba	-10.2138
bonakaliswa	-10.2162
ngco	-10.2165
kungenzek	-10.2181
semhlab	-10.2186
ngizwa	-10.2199
kwenziwa	-10.2203
guqul	-10.2206
kusa	-10.221
ndwang	-10.2214
bezwe	-10.2215
bikela	-10.223
kuphil	-10.2244
ju	-10.2284
manyal	-10.2285
lolo	-10.2291
sase	-10.2303
akayiku	-10.2305
ngokwesi	-10.2322
gatsha	-10.2324
thokozisa	-10.2327
bamba	-10.2332
sala	-10.2365
uk	-10.2374
sawo	-10.238
zifundis	-10.2383
leka	-10.2388
uza	-10.2391
mkhaphela	-10.2394
khulek	-10.2399
zindlela	-10.2407
sib	-10.2412
wehlela	-10.242
zezi	-10.242
nte	-10.2424
kor	-10.2445
nabase	-10.2456
yaso	-10.2525
ababi	-10.2527
rabi	-10.2541
khathazek	-10.2553
kukhonza	-10.2554
muhl	-10.256
waze	-10.257
awume	-10.2582
kungco	-10.2592
bonakalis	-10.2602
mqond	-10.2603
kubap	-10.2606
engaka	-10.2607
oyi	-10.2619
bulawa	-10.2629
zihlal	-10.2631
lwesith	-10.2632
thule	-10.2637
ange	-10.2639
phathi	-10.2642
ern	-10.2665
qaphelan	-10.2667
qambi	-10.2667
thukuthela	-10.2668
mkhiwane	-10.2669
shesha	-10.2669
zinkanyezi	-10.2671
cele	-10.2671
hlangabeza	-10.2672
khwelwe	-10.2673
zamazam	-10.2691
dama	-10.2696
zenzis	-10.2703
kap	-10.2726
okwakhulunywa	-10.2727
emlil	-10.2729
mbul	-10.2736
nasema	-10.2739
ahlale	-10.2751
mnike	-10.276
namukel	-10.2761
miselwe	-10.2762
yile	-10.2768
yima	-10.2769
shunyayelw	-10.2785
namahlon	-10.2791
wala	-10.2813
qeda	-10.2828
zimu	-10.2829
iqhu	-10.2833
ninika	-10.2836
uyazi	-10.286
sihambe	-10.2862
nangama	-10.2866
kunye	-10.2869
fes	-10.2873
abakhile	-10.2875
ica	-10.2877
bulo	-10.2887
bubele	-10.2892
nobus	-10.2896
den	-10.29
yilokhu	-10.2914
phumele	-10.2916
izaku	-10.292
sokuba	-10.2921
ukhuluma	-10.2921
ntwan	-10.2922
abangena	-10.2927
mene	-10.2931
thwe	-10.2931
kwambulw	-10.2933
nendoda	-10.2941
eseshi	-10.2944
nale	-10.2945
emini	-10.2955
nquma	-10.2971
usi	-10.2975
ngas	-10.2998
ngikusho	-10.2999
izimv	-10.3012
isidum	-10.302
mbulala	-10.3025
ongum	-10.305
ndaba	-10.3052
yiphi	-10.3086
zuz	-10.3089
kushay	-10.3095
ibe	-10.3096
ngowo	-10.3109
isile	-10.3113
dela	-10.3121
kufa	-10.3134
ezandl	-10.3136
kuqonda	-10.3143
makez	-10.3191
lotshiwe	-10.3196
ziwe	-10.3217
ithu	-10.3227
ukuyo	-10.3235
bahamba	-10.3238
niyala	-10.3239
okwesitha	-10.3241
iceb	-10.3255
ezindaw	-10.3264
usho	-10.3289
angina	-10.3289
bangaba	-10.3301
yiba	-10.3304
nginge	-10.3315
omhlaba	-10.3315
ngenk	-10.3315
ebi	-10.3317
ekwazi	-10.332
nezon	-10.332
sondel	-10.3323
thethelela	-10.3329
othanda	-10.3331
2	-10.3334
baqala	-10.3334
mshad	-10.3334
kholekile	-10.3334
ziphambek	-10.3334
njengezi	-10.3335
esabi	-10.3339
nezinhlanz	-10.3349
asiyiku	-10.3351
ngathandi	-10.3351
uthanda	-10.3352
buhlung	-10.3353
nasezi	-10.336
beb	-10.3376
sigqila	-10.3385
zibe	-10.3398
elish	-10.34
ayese	-10.3404
mshay	-10.3405
ngokufanele	-10.3407
▁’	-10.3411
bhubhisa	-10.342
alanga	-10.345
mbiza	-10.3451
kumbe	-10.3469
khathazeki	-10.3472
busisa	-10.3475
ukuzi	-10.3481
izinyo	-10.3506
lwase	-10.3518
ilanga	-10.353
chith	-10.3535
oko	-10.3536
zindlebe	-10.354
sadu	-10.354
kwezi	-10.354
misile	-10.3545
zingela	-10.3557
bamukel	-10.3558
jona	-10.3567
kulokho	-10.3568
sokile	-10.3571
zalo	-10.3579
nginilobel	-10.3584
kuphumul	-10.3593
heb	-10.3597
ngulu	-10.3603
yison	-10.3627
umye	-10.3631
vumela	-10.368
hlukanis	-10.3694
buya	-10.3694
yimp	-10.3698
hlatshel	-10.3707
feze	-10.3726
wabayal	-10.3732
luleka	-10.3735
hlwanyel	-10.3738
senze	-10.3741
khombis	-10.3745
livela	-10.3747
thenga	-10.3751
esasi	-10.3783
nobu	-10.3784
bede	-10.3784
cho	-10.3805
zam	-10.3829
sisw	-10.3836
bakhonza	-10.384
yiyo	-10.3846
isisa	-10.3863
wakha	-10.387
okwenzekile	-10.3873
mhawu	-10.3873
ngokoku	-10.3876
dukisa	-10.3879
yana	-10.3881
ezindlebe	-10.3885
sinagoge	-10.3906
wali	-10.3906
bafa	-10.3908
neni	-10.3915
ngizakuku	-10.3916
yizin	-10.3916
ar	-10.3918
akho	-10.3923
hlulela	-10.3924
pi	-10.393
ukuhlakaniph	-10.3933
umfundi	-10.3951
dumisa	-10.3955
ubula	-10.3994
nomunye	-10.3998
zange	-10.4002
onama	-10.4008
lokuba	-10.4009
qondile	-10.4019
wezi	-10.4023
bakwa	-10.4026
uf	-10.4027
doni	-10.4034
izind	-10.4042
buqili	-10.4048
1	-10.4048
qamba	-10.4048
khanyis	-10.4049
cathul	-10.405
ngamesabi	-10.4054
vuthulu	-10.4057
musha	-10.4059
nzuzo	-10.4059
nibona	-10.406
alu	-10.4067
hayi	-10.4081
yasi	-10.4084
ukwahlukan	-10.4085
buyisan	-10.4088
gijima	-10.4088
umakhelwa	-10.4089
siphuza	-10.409
makungabi	-10.4095
inga	-10.4096
enza	-10.4099
yisibon	-10.4113
thandeka	-10.4114
izith	-10.4117
lom	-10.4118
ngingum	-10.4131
dra	-10.4133
dale	-10.4144
ceb	-10.4145
siyakuba	-10.4154
ukuzwa	-10.4156
mnini	-10.4171
mphakathi	-10.4178
enze	-10.4183
ngim	-10.4187
ongwe	-10.42
thwele	-10.4207
hlangana	-10.4207
funyanwa	-10.4217
ud	-10.4218
bonisi	-10.4233
ncin	-10.4242
sifazane	-10.4259
kubhujisw	-10.4273
wabanik	-10.4278
bayakuba	-10.4278
mdumisa	-10.4281
aw	-10.4284
lungiselwe	-10.4292
ibi	-10.4295
bambelel	-10.4297
olungi	-10.4298
bazenzis	-10.4302
philile	-10.4311
re	-10.4312
othe	-10.4328
kwenziw	-10.4331
akele	-10.4338
ngalaleli	-10.4355
sithel	-10.4359
engu	-10.4377
bengena	-10.4378
lini	-10.4383
minikel	-10.4421
hleka	-10.4425
sisa	-10.4429
okhokh	-10.443
mvini	-10.4434
babil	-10.4442
ningena	-10.4443
zele	-10.4459
angala	-10.4459
ende	-10.446
kucela	-10.4468
hlanganis	-10.4491
elwe	-10.4499
mile	-10.4501
hluph	-10.4509
laza	-10.4526
mukis	-10.453
nakhu	-10.4536
bamlandela	-10.454
kubi	-10.4541
lelwe	-10.4547
esihle	-10.4554
lis	-10.456
gcwalisek	-10.4582
sipho	-10.4582
maba	-10.4583
nikele	-10.4584
ngafi	-10.4589
nishumaye	-10.4614
kungaka	-10.462
nolwa	-10.4638
ezazi	-10.4641
ngemv	-10.465
senu	-10.4651
ngele	-10.4662
ding	-10.4663
shumayele	-10.469
wom	-10.4693
wawo	-10.4699
ekufik	-10.4702
imbe	-10.4709
bekwa	-10.4736
abela	-10.4736
imizi	-10.4737
kuphuma	-10.4741
nilobela	-10.4741
lise	-10.4743
fanis	-10.4754
som	-10.4755
ngokufa	-10.4756
baphenduke	-10.4759
bule	-10.4766
ulwa	-10.4773
hlakaniphile	-10.4778
nezinya	-10.4784
ebandl	-10.4787
ngomli	-10.4793
philisa	-10.4794
pro	-10.4817
tir	-10.4817
mamukela	-10.4819
par	-10.4819
abern	-10.482
phumela	-10.482
yaluyal	-10.482
andr	-10.4821
akhay	-10.4828
nyoko	-10.4832
lambile	-10.4833
hunyu	-10.4837
xosha	-10.4839
zuza	-10.4842
mpande	-10.485
kathath	-10.4858
nemini	-10.4862
shilo	-10.4862
sendl	-10.4862
gcoba	-10.4865
ngikhulume	-10.4866
emikhawul	-10.4871
khonze	-10.4884
nezinyo	-10.4921
kubonile	-10.493
eside	-10.4937
makabe	-10.4945
thunzi	-10.4957
andle	-10.4994
mkhonza	-10.5
ufana	-10.5007
phonsw	-10.5008
muke	-10.5012
nangezi	-10.5022
yibamba	-10.5026
and	-10.5049
now	-10.5051
eyaku	-10.5051
wab	-10.5055
diya	-10.5055
boku	-10.5058
dalw	-10.5059
zesi	-10.5062
yibona	-10.5085
ozaku	-10.5088
sekus	-10.51
mihla	-10.5113
alusi	-10.512
sinda	-10.5123
inte	-10.5127
qhel	-10.5135
nowa	-10.5136
kow	-10.5138
ses	-10.5138
khulekela	-10.5152
amas	-10.5153
lombus	-10.5164
mbethel	-10.5166
kuvele	-10.5169
tsheli	-10.5175
mfel	-10.5179
lwesi	-10.5185
ayisithu	-10.5189
bahlakaniphile	-10.5189
okhuluma	-10.519
engiku	-10.5198
lenta	-10.5204
ukuthel	-10.5204
khetha	-10.5227
amaziny	-10.5234
kulabo	-10.5244
bayizi	-10.5261
misela	-10.5264
izink	-10.527
sibusis	-10.5292
umqh	-10.5302
umnikel	-10.5303
khaphela	-10.5328
ngaziwa	-10.5332
fundise	-10.5338
koze	-10.5349
umpho	-10.5371
mfundi	-10.5375
ukwazi	-10.5379
ukuhluphek	-10.5397
nanto	-10.5407
eqinis	-10.5413
silinganis	-10.5433
fakazela	-10.5437
nifuna	-10.5452
bel	-10.5457
nasem	-10.5466
inxe	-10.5499
ngenze	-10.5514
ungesab	-10.5528
bahlala	-10.5529
waso	-10.5555
nane	-10.5558
zithanda	-10.5582
benzi	-10.5583
thuka	-10.5593
khohlisa	-10.5597
ohlezi	-10.5599
bathumela	-10.5601
abafow	-10.5607
viviny	-10.5615
enqab	-10.5615
ekufe	-10.5629
zama	-10.5637
linganis	-10.5639
tshi	-10.5647
gqolozel	-10.5651
esihog	-10.5651
unywa	-10.5653
ezinkulu	-10.5654
hlangulis	-10.5657
phinga	-10.5658
beli	-10.5659
njengokulotshiwe	-10.566
zingulube	-10.5661
abhu	-10.5663
thembeka	-10.5664
sokwahlulel	-10.5674
thinti	-10.5674
kuzingelw	-10.568
kuyakuthi	-10.5693
kuboshw	-10.5707
encwadi	-10.5707
mzane	-10.571
duka	-10.571
elis	-10.5712
emizi	-10.5714
okom	-10.572
balekela	-10.5726
mkhumb	-10.5731
umnini	-10.5733
salo	-10.5736
yazini	-10.5738
adle	-10.5753
ngokom	-10.5766
bamuka	-10.5766
abezwa	-10.5769
uhlaka	-10.5781
cabanga	-10.5793
ntombi	-10.5796
sekuphele	-10.5807
ndile	-10.5829
filip	-10.5844
yenze	-10.585
lesith	-10.5854
uyindoda	-10.5861
umhawu	-10.5862
nhlan	-10.5867
eru	-10.5878
imon	-10.5896
wakholwa	-10.5921
nx	-10.5941
yin	-10.5942
ambo	-10.5971
lokugcina	-10.598
sibosh	-10.5982
khiwa	-10.5989
nsim	-10.5989
buyisela	-10.6002
kukhulume	-10.6012
kune	-10.6016
uhambe	-10.6032
mbhal	-10.6037
dlulile	-10.6052
ngaqondi	-10.6062
angiso	-10.6071
eliphezu	-10.6089
mbela	-10.6091
embona	-10.6091
thith	-10.6098
siprofeth	-10.6108
lila	-10.6123
weli	-10.6186
ukusindis	-10.6193
kusebenza	-10.6215
namathel	-10.6223
sifanele	-10.6223
nj	-10.6241
bathanda	-10.6247
endun	-10.6248
kwabase	-10.6249
diliz	-10.6262
bunga	-10.628
akala	-10.6286
siphe	-10.6288
khulumile	-10.6293
isiwe	-10.6295
uyihlo	-10.6299
babuza	-10.6307
bapha	-10.6314
gcine	-10.632
ingena	-10.632
owam	-10.6324
zabant	-10.634
valel	-10.6341
sine	-10.6387
bukhulu	-10.6396
ofuna	-10.6399
esixuk	-10.6401
nezindu	-10.6403
ehamba	-10.6408
ezon	-10.642
makab	-10.6431
cabang	-10.6433
lungisele	-10.6465
dodan	-10.6479
komo	-10.6496
sizaku	-10.6503
ezinye	-10.6504
sim	-10.6505
kubonakalis	-10.6506
niyi	-10.6506
wehla	-10.6508
singaba	-10.6519
lud	-10.6524
langazelela	-10.6535
amata	-10.6545
basi	-10.6552
ebub	-10.6557
gqok	-10.656
kulotshwe	-10.656
fundiswa	-10.6562
apholo	-10.6565
bekiwe	-10.6565
angithandi	-10.6568
mnqum	-10.6568
kugcine	-10.6571
nabap	-10.6571
bongeka	-10.6572
babamba	-10.6575
kukhubekisa	-10.6576
owasi	-10.6579
ngokuphelele	-10.6589
dukiswa	-10.6591
dumile	-10.6601
hola	-10.6601
umka	-10.6601
ngamukela	-10.6604
afe	-10.6604
chithek	-10.6611
ukulwa	-10.662
embathisa	-10.6621
adam	-10.6624
mamukele	-10.663
yazisa	-10.6632
kobus	-10.6635
ngento	-10.6636
ithole	-10.6638
ungumprofethi	-10.6639
phikisa	-10.664
kukhala	-10.6645
sikhundl	-10.6653
lingwa	-10.6654
nezinye	-10.6656
egazi	-10.6659
ngalel	-10.6666
phumi	-10.6677
phendul	-10.6677
cindezela	-10.6679
ngaboni	-10.668
okungena	-10.6682
wezwa	-10.6692
ukukhulul	-10.6709
bheki	-10.671
dumis	-10.6716
endlebe	-10.6716
kulokhu	-10.6727
qob	-10.674
nyukela	-10.6769
luya	-10.6771
abethe	-10.6777
izuze	-10.6792
yafika	-10.6796
isho	-10.6797
okuza	-10.68
ziyi	-10.6819
nohlezi	-10.6826
bawo	-10.6827
sihamba	-10.683
ngithe	-10.6844
bizela	-10.6848
omnc	-10.6864
thukulul	-10.6864
okunjalo	-10.689
abenza	-10.6892
umphathi	-10.6896
mhl	-10.6898
enca	-10.6905
sekufik	-10.6918
nombus	-10.6927
ngadli	-10.6948
angisho	-10.6956
suse	-10.6959
mdala	-10.6975
khiwe	-10.6975
duma	-10.6979
yindoda	-10.6988
ekuse	-10.7007
iyakuba	-10.7013
izindl	-10.7019
bha	-10.7022
bakhuleka	-10.7034
ethemb	-10.7038
abahamba	-10.704
uphi	-10.7041
hlali	-10.706
inama	-10.706
kuthethelel	-10.7062
babulal	-10.7069
zishay	-10.7095
kumi	-10.7095
miswa	-10.7102
ensim	-10.7111
fun	-10.7113
bebe	-10.7121
kungcol	-10.7126
singena	-10.7127
kungalaleli	-10.7135
asina	-10.714
sibani	-10.714
ekuzwa	-10.7144
ungene	-10.7145
kwaso	-10.715
embi	-10.7151
suke	-10.7169
embez	-10.7175
abalungile	-10.7184
ngoka	-10.7188
yalez	-10.7208
odla	-10.721
wayesem	-10.7213
edwal	-10.7214
nifund	-10.7231
ehlo	-10.7232
meyo	-10.7243
fw	-10.7249
nezilim	-10.725
elik	-10.7252
sir	-10.7255
phuzi	-10.7255
ziboshw	-10.7287
kokuthi	-10.7293
ofe	-10.7305
andi	-10.7308
enkazimul	-10.731
lingaka	-10.7314
lungis	-10.7316
mfow	-10.735
nikelwa	-10.735
kakhe	-10.7354
lobela	-10.7367
akuvel	-10.7377
bamnceng	-10.7378
mphathi	-10.7384
mntana	-10.7386
kubola	-10.739
ngakwazi	-10.7397
izitho	-10.74
ingani	-10.7402
aso	-10.7415
yela	-10.7437
njengama	-10.7443
mathun	-10.7456
kusiza	-10.7468
ekuling	-10.7471
hlatshelwe	-10.7488
mhlatshel	-10.7506
zithi	-10.751
azo	-10.7517
thembisa	-10.752
khathalel	-10.7528
cil	-10.753
ukungi	-10.7537
kokubi	-10.7538
bamukis	-10.7539
likhi	-10.7554
phuc	-10.7555
inkanyezi	-10.7559
aleksandr	-10.756
tro	-10.756
cwebezela	-10.756
gumbi	-10.756
nqunyw	-10.756
zizukulwane	-10.756
menyiwe	-10.756
ngasoleki	-10.756
hlwith	-10.756
thunyiwe	-10.756
dunyisw	-10.756
kusithek	-10.7561
okodo	-10.7562
kre	-10.7563
samukela	-10.7563
anothi	-10.7565
hlanzekile	-10.7567
siphile	-10.7567
sodo	-10.7568
fundile	-10.7569
arki	-10.7569
limaza	-10.7572
shiwo	-10.7583
wamukele	-10.7585
endal	-10.759
akuyiku	-10.7602
kwezinya	-10.7607
ziba	-10.7614
lokwahlulel	-10.7617
sebefik	-10.7619
bulale	-10.7619
sihlale	-10.7624
phindisel	-10.7626
fuman	-10.7637
kamu	-10.7638
okunye	-10.7639
engikwenz	-10.7639
zigcwele	-10.7643
zithel	-10.7647
kise	-10.7649
ngow	-10.7652
thiya	-10.7658
nod	-10.7659
zinhluph	-10.7662
nginitshela	-10.7663
phumul	-10.7667
anikholwa	-10.7672
ethandeka	-10.7677
aniso	-10.7712
kuzila	-10.7715
sithombe	-10.7716
ngowase	-10.7723
ngamafu	-10.7723
bile	-10.7737
khulumisa	-10.7739
khuthalela	-10.7743
notho	-10.775
inkon	-10.7753
ngokuningi	-10.7762
lamba	-10.7784
sebu	-10.7785
bathengisa	-10.7803
ezith	-10.781
wavuka	-10.7839
gcini	-10.7847
fihl	-10.7853
yinto	-10.7854
siwe	-10.7859
khazimula	-10.7861
safa	-10.7872
nokw	-10.788
ngezo	-10.7881
swela	-10.7882
mnt	-10.7885
angisiy	-10.7889
ezixuk	-10.7895
inko	-10.7896
he	-10.7905
ngokubona	-10.7908
namadoda	-10.7938
zingane	-10.7945
uthembekile	-10.7953
mbele	-10.7953
yafa	-10.7964
mbonga	-10.7964
ningabe	-10.7965
nguwe	-10.7972
yab	-10.7976
ababizi	-10.7987
ningam	-10.7996
bangcolile	-10.8001
eniyakuku	-10.8019
kweza	-10.8021
eyisi	-10.8034
yakwenza	-10.8035
wabafundi	-10.8036
dinga	-10.8051
ngasoki	-10.8051
yamuka	-10.8052
lusiz	-10.8053
amalung	-10.8054
zawo	-10.8108
ngiyakuba	-10.8113
hohlo	-10.8114
thabath	-10.8122
hlan	-10.8178
kufumana	-10.818
emnya	-10.8195
akubanga	-10.8196
ezingena	-10.82
thengisi	-10.8217
ngesibo	-10.8239
uphonsw	-10.824
akenz	-10.824
ukuma	-10.8246
nginama	-10.8255
kwala	-10.8265
delela	-10.8269
ntab	-10.8276
benyama	-10.8279
thwale	-10.8296
bathath	-10.8313
mini	-10.8314
ntsha	-10.8321
ezinyaw	-10.8328
okuqond	-10.8331
baphila	-10.8349
hlwanyelw	-10.8361
hutsh	-10.8377
hlabelel	-10.8381
uvuk	-10.8385
onakho	-10.8388
neza	-10.8388
ziye	-10.8401
mboph	-10.8402
funyanw	-10.8408
kungengoku	-10.8439
angazi	-10.845
vik	-10.8463
wenyukel	-10.8469
nabanga	-10.8471
lungu	-10.8481
bambulal	-10.8501
yis	-10.8507
bamemez	-10.8509
kwalez	-10.8525
akaze	-10.8527
sitsh	-10.8527
aban	-10.8528
shwe	-10.8532
ababusi	-10.8537
abangama	-10.8543
anakho	-10.8551
ngesihl	-10.8562
dakwa	-10.8566
ngabap	-10.8569
gco	-10.8578
sabel	-10.8578
zim	-10.8582
lindele	-10.8594
nginoku	-10.8596
phulukisw	-10.8604
akwenza	-10.8617
inkulu	-10.8632
buzana	-10.8645
ste	-10.8648
seza	-10.8657
lwes	-10.8661
wasukuma	-10.8663
gay	-10.8669
chasisel	-10.8671
ezimvab	-10.8671
ngcwelisiwe	-10.8671
qhweb	-10.8671
5	-10.8671
nqamuk	-10.8671
ucez	-10.8671
chibi	-10.8671
ngitshele	-10.8673
lwi	-10.8673
hlanza	-10.8674
lamukela	-10.8676
ngamadoda	-10.8676
azenza	-10.8676
khulile	-10.8679
njengokush	-10.8683
wammisa	-10.8684
balekele	-10.8684
mbongol	-10.8686
ndiswe	-10.8688
okudal	-10.8689
lamul	-10.869
dumaza	-10.869
izincwadi	-10.8692
stefan	-10.8694
ngcweliswa	-10.8694
jas	-10.8695
ngehl	-10.8701
kukusindis	-10.8715
yesith	-10.8718
bagcwal	-10.8718
zigabisa	-10.8726
yesaba	-10.8748
inzal	-10.8749
khandleka	-10.8755
njengokwe	-10.8759
kuhambe	-10.8759
ngamado	-10.8761
lenze	-10.8764
ngipha	-10.8768
yisho	-10.8773
mathe	-10.8787
ngobus	-10.88
likhuluma	-10.8803
nabangena	-10.8804
ngukufa	-10.8811
bunzi	-10.8815
bungcwele	-10.8824
wayesebabiz	-10.8824
mesab	-10.8825
phelelisiwe	-10.883
libo	-10.8841
onqoba	-10.8852
mbeka	-10.8866
uyaphi	-10.8871
hloniph	-10.8872
okungaka	-10.8877
mel	-10.8885
ngeziny	-10.8894
cindezel	-10.8907
bafel	-10.8909
umnya	-10.8917
senziw	-10.8919
kuyint	-10.8933
ziphendulel	-10.8936
vamile	-10.8938
qinisek	-10.8941
ziyisith	-10.8943
baph	-10.8951
ondo	-10.8957
kunale	-10.896
bekezelela	-10.8964
angizang	-10.8982
thethelele	-10.8998
nganhliziyo	-10.9013
abafel	-10.9015
kubuye	-10.9017
swele	-10.9024
lindi	-10.9031
nxanel	-10.9036
sizini	-10.904
yindl	-10.904
shu	-10.9046
izikhonz	-10.9069
sikhulul	-10.9081
nxazo	-10.9081
beze	-10.9088
ngabaza	-10.9095
finyelel	-10.9096
phuzisa	-10.9101
ongakholwa	-10.9148
nikhuleke	-10.9173
mak	-10.9178
zisho	-10.9194
zidla	-10.9204
kunja	-10.9221
yithanda	-10.9231
yobu	-10.9279
indlal	-10.9284
abanjalo	-10.9303
yinceku	-10.932
wabayi	-10.9327
kungum	-10.9328
buwul	-10.933
mlalela	-10.9333
lube	-10.9336
nayi	-10.9354
asinik	-10.9368
abangakholwa	-10.9381
nhlobo	-10.9389
izif	-10.9404
ber	-10.9417
kukhulek	-10.9421
waphind	-10.9422
wayeseba	-10.9432
hlubuk	-10.9433
sibone	-10.944
nkulu	-10.9448
okoku	-10.9476
mukeli	-10.9477
vimb	-10.9486
shisa	-10.9487
sekuyi	-10.9488
ngaphi	-10.9499
mbuzi	-10.9517
esish	-10.9529
okufa	-10.9536
lathi	-10.9554
nezinto	-10.9564
mikhulek	-10.9576
sidal	-10.9583
nemp	-10.9591
inza	-10.9603
udle	-10.9604
ndisa	-10.9614
cebile	-10.9614
semnya	-10.962
yizwi	-10.9622
thengisa	-10.963
babule	-10.9643
benginga	-10.9644
bamyis	-10.965
khulelwe	-10.9664
embethe	-10.9665
maninga	-10.9668
thumile	-10.9668
angifuman	-10.9671
okus	-10.9681
ondele	-10.9687
isifundis	-10.97
neliy	-10.9723
sekuf	-10.9741
lulek	-10.9755
balandela	-10.9755
shumayez	-10.9757
mnikel	-10.9761
nezink	-10.9773
nakekela	-10.9789
ukubiz	-10.9799
ngeson	-10.9805
wamangal	-10.9811
ngezind	-10.9816
qhube	-10.9816
akazi	-10.9825
buth	-10.9835
nesih	-10.9836
fil	-10.9849
nesithu	-10.9865
impande	-10.9871
deki	-10.9878
ndiswa	-10.989
khathaz	-10.9897
shiye	-10.9898
aboku	-10.9907
avam	-10.9921
ital	-10.9921
gceke	-10.9921
mbhinq	-10.9921
ngabhubhi	-10.9921
ngqongqotha	-10.9921
nyakaziswa	-10.9921
londoloz	-10.9921
khuren	-10.9921
lahlekile	-10.9921
minyanis	-10.9924
pholi	-10.9924
kuhlanjululwa	-10.9927
sekuhlw	-10.9928
hlakazekile	-10.9928
ngatheli	-10.9929
nigcwalis	-10.9929
ngapheli	-10.9931
zithoba	-10.9932
luva	-10.9933
ukuyobona	-10.9933
kuthwala	-10.9933
zisindise	-10.9934
ntshon	-10.9937
ngokwesith	-10.9937
qhuzu	-10.9944
dabukisw	-10.9945
mthomb	-10.9946
khalela	-10.9952
holi	-10.9958
nezikhulu	-10.996
kuswelekile	-10.9963
phithi	-10.9966
ngihawukel	-10.997
mbulal	-10.9976
hlalisa	-10.9979
bamdumisa	-10.9987
qalekisiwe	-10.9996
nesishiyagalo	-11.0001
tshala	-11.0004
bonwe	-11.0006
ndwe	-11.0008
zibona	-11.0009
zincoma	-11.001
elimn	-11.001
sikhw	-11.0011
elise	-11.0023
meli	-11.0028
azany	-11.0034
bahambe	-11.0039
owahlulela	-11.0053
yokulung	-11.0055
ink	-11.0057
ingco	-11.006
kubulala	-11.0067
nithethelela	-11.007
abahlezi	-11.0071
bangabi	-11.0071
sebenzela	-11.0072
indwang	-11.0076
ngisindis	-11.0083
macal	-11.0084
zany	-11.0086
basuka	-11.0089
awusi	-11.0112
ngokw	-11.0119
zahlulel	-11.012
bahlulel	-11.0124
kungenge	-11.0132
simi	-11.0141
vumelana	-11.0148
nkathi	-11.0149
zibonel	-11.015
fafaz	-11.0154
vikel	-11.0162
pham	-11.0179
ukuthanda	-11.0192
leh	-11.0212
ukuphenduk	-11.0215
masang	-11.0215
nangom	-11.0224
abakhuleka	-11.0228
empum	-11.0235
kawu	-11.0239
kuhlanganyel	-11.0246
muki	-11.0253
bekile	-11.0256
fungi	-11.0263
mfula	-11.028
sengiya	-11.0281
ezif	-11.0286
bafanele	-11.0296
imbal	-11.031
sitshel	-11.0316
ningab	-11.0331
zenzi	-11.0332
alf	-11.036
ngelika	-11.0372
kulula	-11.0376
banjw	-11.0381
kuzakub	-11.0383
ahlul	-11.0398
kwakha	-11.0422
babutha	-11.0423
nyathel	-11.0451
ngamazi	-11.0473
ahlukan	-11.0473
dlule	-11.0482
nhloni	-11.0482
emith	-11.0486
ngabafundi	-11.0486
buthong	-11.0497
bengaba	-11.0504
nginike	-11.0506
hleba	-11.0523
hlile	-11.0552
nezimp	-11.056
mbonile	-11.0563
kuchith	-11.0568
ngokwazi	-11.0577
nothile	-11.0592
muphi	-11.0596
ndo	-11.0599
wakhuphuk	-11.0614
duduza	-11.0627
abazaku	-11.0632
nezing	-11.0637
fumani	-11.0653
mngcolis	-11.0655
yenziw	-11.0703
wadabu	-11.071
yithatha	-11.0716
imini	-11.0728
ungaphing	-11.0737
umbon	-11.0742
uyakusindis	-11.0748
angabi	-11.0757
msind	-11.076
okunje	-11.0769
ngcolisa	-11.0776
bema	-11.0776
buqinisile	-11.0788
emikhulek	-11.0802
inyang	-11.081
amuke	-11.0815
feza	-11.085
ngibuye	-11.0852
nokuqond	-11.0865
zithiba	-11.0868
isabe	-11.0879
khuphukel	-11.0885
ngokum	-11.0885
ngamad	-11.0889
athen	-11.0895
lobu	-11.0908
ngumfundi	-11.0911
ayida	-11.0958
angisi	-11.0965
abacebile	-11.0971
sahamba	-11.0994
wehle	-11.0997
athan	-11.1003
kulahl	-11.1006
zinja	-11.1045
olub	-11.1073
sama	-11.1085
ifik	-11.1086
izinhla	-11.1087
wabiz	-11.1098
njengase	-11.1102
zimpond	-11.1105
isiphi	-11.1105
kwabonakal	-11.1116
kuziphendulel	-11.1118
hlephula	-11.1127
nizwa	-11.1156
zivela	-11.1163
wabapha	-11.1172
nakwab	-11.1174
siphambe	-11.1178
yinhl	-11.1195
ngofakaz	-11.1211
wobu	-11.1235
emse	-11.1251
uzakuthi	-11.1273
elihle	-11.1274
eson	-11.1298
riy	-11.1312
lahlwe	-11.1323
abancin	-11.1328
nginitsheli	-11.1334
ikamel	-11.1334
bets	-11.1339
qaphele	-11.134
yakwahlulel	-11.1343
kuhlwanyel	-11.1347
ogw	-11.1349
gedla	-11.1349
guquka	-11.1349
etaful	-11.1349
gingq	-11.1349
gongol	-11.1349
hlatshwa	-11.1349
kutusw	-11.1349
noval	-11.1349
phakanyisw	-11.1349
ukuvun	-11.1349
hudulel	-11.135
angisayiku	-11.135
mmangalela	-11.135
dons	-11.135
thukuthelel	-11.135
fihlakele	-11.135
zibekelel	-11.135
indlebe	-11.1351
ululela	-11.1352
nikhumbuza	-11.1356
nodadew	-11.1356
kuqonde	-11.1358
utshani	-11.1358
vulekile	-11.1358
inkath	-11.1359
basuth	-11.1359
funela	-11.136
anisibo	-11.1361
siqhingi	-11.1361
sicebi	-11.1361
mkhathi	-11.1362
mhawukela	-11.1364
ngizakwenz	-11.1365
zinsukw	-11.1367
uthabath	-11.1368
bhapathizelwa	-11.1371
kwehlela	-11.1374
ungabu	-11.1375
phathwa	-11.1376
zibonge	-11.1377
benzela	-11.1379
uyakuphi	-11.1379
langabi	-11.1381
andulele	-11.1385
lahliwe	-11.1389
ngikhaphela	-11.139
cim	-11.14
kuswele	-11.1408
hloniphek	-11.1409
mphongol	-11.1411
ngiyam	-11.1416
womile	-11.1417
lithukulul	-11.1418
zungez	-11.1425
esingesi	-11.1428
thengise	-11.1437
lishilo	-11.1453
okusha	-11.1479
bangam	-11.1481
ngalob	-11.1483
ngacim	-11.1488
eyenziw	-11.1491
izilim	-11.1492
uthela	-11.1495
kwenzele	-11.1495
badle	-11.1498
bakhonona	-11.15
shuk	-11.1505
indaba	-11.1508
yema	-11.1511
enzela	-11.1519
ihlaz	-11.1535
uyakuthi	-11.1537
phelelisw	-11.1541
nqobe	-11.1549
kubonakala	-11.1554
sebenzisa	-11.1558
ngimi	-11.1559
bememeza	-11.156
balala	-11.1564
obezaku	-11.1568
sihlephula	-11.1577
misiwe	-11.1581
nyuka	-11.1588
kukhetha	-11.1592
angiyiku	-11.1592
ngabahlanganyel	-11.1605
abonakalis	-11.1609
unec	-11.1612
roni	-11.1616
wanikwa	-11.1619
emgod	-11.1639
sethempeli	-11.1648
bamukela	-11.1657
mthumile	-11.1666
sihawukel	-11.1684
khand	-11.1689
isitha	-11.1698
kungenga	-11.1705
singabant	-11.1712
okuyiz	-11.1723
hlabathi	-11.1739
basindisw	-11.1744
sithandw	-11.1745
yath	-11.1749
baphath	-11.1754
umkhu	-11.1765
babela	-11.1775
lawod	-11.1778
bashumayela	-11.1792
lungisisi	-11.1794
nenhla	-11.1798
thokozis	-11.1822
bayibulal	-11.1825
siyakuthi	-11.1831
wayengum	-11.1851
mibi	-11.1873
sar	-11.1874
isihl	-11.1884
bafike	-11.1885
siyizi	-11.189
wabafundis	-11.1901
nezida	-11.191
koniy	-11.1916
mnya	-11.1929
bingelel	-11.194
isif	-11.1958
yinye	-11.1964
behl	-11.1974
kwabuth	-11.1997
semi	-11.2011
khana	-11.2021
thusi	-11.2038
ngabazi	-11.2047
ningaze	-11.2075
bengaka	-11.2088
baphume	-11.2131
enqo	-11.2133
phelelise	-11.2158
siphila	-11.2158
samuk	-11.2175
zimp	-11.2187
wamanga	-11.2206
dlela	-11.2229
niphum	-11.2231
bonakali	-11.2258
hlambuluk	-11.2262
ngiyakum	-11.2265
hlamba	-11.2277
kuswela	-11.2281
kubizw	-11.2312
ngithokozi	-11.2313
yaliwe	-11.2336
njiwe	-11.2338
khaphel	-11.2341
amukele	-11.2359
iziny	-11.2378
bhapathizwe	-11.2387
ngokunye	-11.2388
zab	-11.2442
asid	-11.2444
mkhiphel	-11.2447
isela	-11.2455
ngamukeli	-11.2471
ungabi	-11.2472
nokum	-11.2481
ezintab	-11.2548
ngumbus	-11.2568
ngenama	-11.2589
okunc	-11.2591
ayisishiyagalo	-11.2594
mewu	-11.2611
ngahlulel	-11.2615
sesifi	-11.2648
babalek	-11.2666
fulathel	-11.2682
dluli	-11.2686
sasinga	-11.2688
kuyakum	-11.2692
bhapathizi	-11.2694
yibonile	-11.2701
busiswa	-11.2712
zula	-11.2716
kulinganis	-11.2719
bavusel	-11.272
shiwe	-11.2722
ngakhulumi	-11.2727
ungang	-11.2728
luhla	-11.2735
kuthuka	-11.2737
ndela	-11.2743
nilinde	-11.2764
imith	-11.2768
singabe	-11.2798
kudlule	-11.2817
khuthalel	-11.2819
baphulukis	-11.2821
wehlelw	-11.2841
kufunda	-11.2881
ngobum	-11.2882
nenya	-11.2884
nivam	-11.2885
ngamalung	-11.289
esibi	-11.2908
jiswa	-11.2912
phepha	-11.2923
lokufa	-11.2924
babik	-11.2957
bonakale	-11.2974
sihlwa	-11.298
ezigc	-11.2993
nokubi	-11.2997
nitshele	-11.2999
fundisiwe	-11.3008
hlanjulul	-11.3008
ezincek	-11.3012
umus	-11.3014
uphume	-11.3014
esengen	-11.3014
esigc	-11.3015
usulu	-11.3015
herodiy	-11.3016
bhidliz	-11.3016
funyaniswa	-11.3016
gxum	-11.3016
ngcwelisa	-11.3016
pont	-11.3016
vunyiwe	-11.3016
sambathek	-11.3016
kuhuhek	-11.3016
hlanjalazwa	-11.3016
hlolisis	-11.3016
khafulel	-11.3016
mbhede	-11.3017
adiy	-11.3017
mcol	-11.3017
phunyuka	-11.3018
shiywa	-11.3018
yizwani	-11.3018
endod	-11.3018
olekile	-11.3019
nyakazisa	-11.302
bayishay	-11.3021
valelisa	-11.3022
unyisw	-11.3022
ningethu	-11.3024
bathandiwe	-11.3024
chil	-11.3025
wembe	-11.3025
uthuli	-11.3025
nenk	-11.3026
yizinhlobo	-11.3027
kokudal	-11.3028
yizimp	-11.3028
zakufa	-11.3028
pris	-11.303
eseqed	-11.303
nikiwe	-11.303
ningangeni	-11.3032
funisisa	-11.3032
wenzile	-11.3035
engingaku	-11.3035
aniyiku	-11.3037
zikhukhumez	-11.3038
betho	-11.3044
iziphi	-11.3053
enyusel	-11.3055
besahamba	-11.3055
obizw	-11.3057
eras	-11.3058
bonise	-11.3059
elic	-11.3066
ngingoka	-11.3067
sesang	-11.3069
mam	-11.3071
ngidumisa	-11.3072
ochok	-11.3073
ngemizi	-11.308
sesitha	-11.3087
ningahlulel	-11.31
khawulez	-11.3102
sisondel	-11.3102
babhapathizw	-11.3111
wesaba	-11.312
sibambis	-11.312
buntwan	-11.3122
namad	-11.3127
ubeke	-11.3135
oyisim	-11.3137
kuseza	-11.3138
ukuthatha	-11.3141
belusi	-11.315
yehla	-11.3156
sahlukanis	-11.3161
ayinike	-11.3165
ekuphum	-11.3167
amahla	-11.3171
ngephu	-11.3175
ungayi	-11.3178
libala	-11.3188
zilungisele	-11.3203
bathele	-11.3214
kwenezel	-11.3219
khokhel	-11.3225
ukhulul	-11.3234
nibuthan	-11.3246
qinisela	-11.3247
bashay	-11.3247
ngokuhl	-11.3257
mfuma	-11.3257
banike	-11.3269
senyam	-11.327
ash	-11.3287
batshela	-11.3302
nezithe	-11.3314
akhuleke	-11.3323
mkhaphel	-11.3335
fikelwa	-11.3343
phelela	-11.337
bashiya	-11.3377
uyakwamukel	-11.3397
izakukh	-11.3399
njengesel	-11.3401
yalel	-11.3419
yizon	-11.344
unja	-11.3443
wababiz	-11.3447
nginika	-11.345
sebandl	-11.3453
isith	-11.3459
bube	-11.3463
khotham	-11.3468
nangokuthu	-11.3469
kwenzekile	-11.3475
nikhulul	-11.3477
hange	-11.3482
boshwe	-11.3483
lwabo	-11.3496
lisiwe	-11.3502
ngaphathi	-11.3514
dlile	-11.3528
uyakuthath	-11.3532
kuseyi	-11.354
sibalo	-11.3546
yinquma	-11.356
emizan	-11.3605
sigcin	-11.3618
hlola	-11.3619
math	-11.3623
nesif	-11.3627
vimbel	-11.364
engiyakum	-11.3645
owavus	-11.3672
ngafuni	-11.3681
ngifika	-11.3686
umum	-11.3689
ngenhla	-11.369
neson	-11.3695
buzisis	-11.3704
thobele	-11.3741
hlole	-11.3759
wababusi	-11.3778
abathath	-11.3785
londe	-11.3792
makunga	-11.3812
njengabant	-11.382
mbisa	-11.3823
mzuz	-11.3844
kushilo	-11.3877
jezis	-11.388
esambath	-11.3904
sukw	-11.3905
kubonakalisw	-11.3928
okulungi	-11.3954
mfumana	-11.3961
semihl	-11.3983
ngaphenduki	-11.3988
ukwambul	-11.3992
akasiy	-11.4011
bahlu	-11.4023
khawul	-11.4042
kubekezel	-11.4062
bambisis	-11.409
yangithanda	-11.4128
baphile	-11.4152
ezinde	-11.416
ngazalwa	-11.4173
lwand	-11.4216
zakwazi	-11.4229
bemli	-11.4235
nganelis	-11.425
okubonwa	-11.4269
esephum	-11.4284
ando	-11.4289
kuvam	-11.4295
ngikhonze	-11.4303
ngezins	-11.4306
bambamb	-11.4307
zifakazela	-11.4315
ngukulung	-11.4325
zindab	-11.4326
phakamisel	-11.4334
buyisel	-11.435
bethele	-11.4359
bhujisw	-11.4373
ngamath	-11.4395
njengam	-11.4398
buze	-11.4408
abagan	-11.4409
izelwa	-11.4418
enzeki	-11.4446
khulunywa	-11.4454
isih	-11.4463
bahawukel	-11.4481
bizele	-11.4482
bagcine	-11.449
njwa	-11.4495
khohlisi	-11.4509
uqinise	-11.4572
yihl	-11.4605
shunyaye	-11.4622
;	-11.463
qhubek	-11.4644
kwaph	-11.4651
zinhlanz	-11.4658
mkhiphe	-11.4678
akusiy	-11.4684
wayesethath	-11.4745
dukile	-11.475
zidle	-11.4754
bacebile	-11.4754
bakhuleke	-11.477
wemi	-11.4793
kungak	-11.4812
sakhiw	-11.4814
sifuman	-11.4825
enc	-11.4827
waphenduk	-11.4854
sifik	-11.4859
khandlek	-11.4864
buyis	-11.4878
imikh	-11.4895
bazuz	-11.4895
shiyi	-11.49
buhle	-11.4901
ngabafundisi	-11.4909
klebhul	-11.4917
hlambalaz	-11.4921
ngumprofethi	-11.4927
mlandele	-11.4936
cish	-11.4944
mangalelwa	-11.4955
sekudlul	-11.4958
ukugcwal	-11.4965
jabhis	-11.4968
mful	-11.4969
benja	-11.497
ahlulelwe	-11.4978
inkokh	-11.4986
ngcwelise	-11.4987
dingek	-11.4993
kuhlw	-11.4995
esifub	-11.4999
hliwe	-11.5006
ashiyw	-11.5014
uphenduk	-11.5014
wenziwa	-11.5016
yivus	-11.5016
4	-11.5016
beqala	-11.5016
esevuk	-11.5016
gubuzel	-11.5016
gxil	-11.5016
khukhumele	-11.5016
linqaba	-11.5016
ncintisana	-11.5016
pherg	-11.5016
qhoth	-11.5016
vunguz	-11.5016
wayeseqal	-11.5016
kuhlambulul	-11.5016
kutamas	-11.5016
nawodadew	-11.5016
klolodel	-11.5016
nikhumbule	-11.5016
sishwabene	-11.5016
yembatha	-11.5016
thotshis	-11.5016
kwembatha	-11.5016
zinganekwane	-11.5016
ephafr	-11.5016
nqolobane	-11.5016
yamukela	-11.5017
kufiphazw	-11.5017
yezinyo	-11.5017
kubandezek	-11.5017
zihlambulul	-11.5017
khumul	-11.5017
ithakal	-11.5019
wayengaka	-11.5021
udadew	-11.5021
nihlambulul	-11.5022
kwamukele	-11.5022
yamukele	-11.5023
wayenamadoda	-11.5025
awuyiku	-11.5027
dazuluk	-11.5032
sard	-11.5037
nabangalaleli	-11.5038
liwil	-11.5043
ekamel	-11.5047
nend	-11.5048
kwaphuc	-11.5048
zabapho	-11.5049
bahlulek	-11.505
sishiye	-11.5051
alikho	-11.5053
obekuzaku	-11.5054
nyamalal	-11.506
sifaka	-11.5065
wathwal	-11.5074
sithume	-11.5074
lahli	-11.508
sanguluk	-11.5081
qinisekile	-11.5085
pheme	-11.5092
kwenzelwe	-11.5093
ukuphelel	-11.5096
sebezw	-11.5098
nxib	-11.51
basuke	-11.5101
sici	-11.5102
isibon	-11.5103
aris	-11.5106
iyakuzond	-11.511
umhum	-11.5112
julile	-11.5112
nyazi	-11.5116
kumfow	-11.5122
nosiz	-11.5126
ngiyakwenza	-11.5127
ngokuf	-11.513
imibu	-11.5131
nansi	-11.5141
ngingaz	-11.5142
kabana	-11.5147
mduduz	-11.5149
ngombus	-11.515
kwabalungile	-11.5155
buzela	-11.5159
kujul	-11.5163
okungayikwa	-11.517
mayib	-11.5177
hambela	-11.5185
abangayiku	-11.5192
esinama	-11.52
ngabafo	-11.5201
kudingek	-11.521
khishw	-11.5215
zihlobo	-11.522
liyisi	-11.5223
senz	-11.5226
ezingak	-11.5246
qhubekel	-11.5256
akunaku	-11.5267
shanel	-11.5279
langazel	-11.5285
kusilele	-11.5288
kukheth	-11.5293
hlanzek	-11.5301
rob	-11.5301
balamukele	-11.5316
waqhubek	-11.5319
ici	-11.5321
bathunyelw	-11.5324
yitshe	-11.5334
onesa	-11.5336
zizwa	-11.5342
yisihl	-11.5356
entan	-11.5357
ushisw	-11.5366
zenzile	-11.538
kholiwe	-11.5381
vuselela	-11.5389
ushane	-11.542
eyihla	-11.5431
lalise	-11.5437
nahlulel	-11.5446
nezim	-11.5454
yizindl	-11.5457
fenik	-11.5462
njengab	-11.5482
ilong	-11.5489
zikh	-11.5493
kayiku	-11.5509
kukhulunywa	-11.5513
ezindlel	-11.5529
kwakungesi	-11.5537
siyin	-11.5588
kujezis	-11.5593
yichi	-11.5608
zimisel	-11.5614
ekufundis	-11.5623
kuhluphek	-11.563
zibuthe	-11.5634
kusas	-11.5659
bajezis	-11.5683
owadal	-11.5691
masinga	-11.5693
insiz	-11.5699
bugqil	-11.5715
mzingela	-11.5721
hlengwa	-11.5728
yamukeliswa	-11.575
yahlulela	-11.5751
kokufa	-11.5782
kukhonz	-11.5785
usus	-11.5788
idili	-11.5795
sifinyelel	-11.5816
nokubekezel	-11.5839
okungabon	-11.5841
zithobe	-11.5844
kufund	-11.5849
ithume	-11.5857
jabhiswa	-11.5888
nqol	-11.5897
badukis	-11.5904
bakhulule	-11.5916
fihliwe	-11.5959
ufik	-11.5972
ngayazi	-11.5974
kubhubh	-11.6037
zilinganis	-11.6047
liphilile	-11.6053
abangasoki	-11.6056
anizang	-11.6063
ukwamukel	-11.6083
myal	-11.6087
esebuy	-11.6098
umfan	-11.6102
did	-11.6118
ngomuhl	-11.6127
hlanganisel	-11.6135
ngikhulul	-11.616
bayeke	-11.6192
kwabelw	-11.6218
chok	-11.6248
kangak	-11.625
kwenyuk	-11.6276
ngesen	-11.6282
iyakon	-11.6286
ithathe	-11.6312
yisith	-11.6313
fakelw	-11.632
amnceng	-11.6337
waphons	-11.636
ebukha	-11.6363
nithokoz	-11.6377
ngishumayel	-11.6383
kubaph	-11.6411
kufihliwe	-11.6434
athath	-11.6464
sekuy	-11.6471
bumpof	-11.6476
ilin	-11.6484
izim	-11.6516
ifund	-11.6543
kulidl	-11.6549
delelwa	-11.6554
nokubong	-11.6594
kungavel	-11.6609
uyaphil	-11.6639
akukuhl	-11.6693
asithand	-11.6707
nobumn	-11.671
aphulw	-11.6712
benyukel	-11.6722
wayehlez	-11.6744
asibeke	-11.6786
kwesab	-11.6801
phelekezela	-11.6812
ukubhapathiz	-11.6865
bashayw	-11.6868
ziphathi	-11.6912
miyal	-11.6923
ngathethelel	-11.6937
abanc	-11.6944
nezint	-11.698
bamkhand	-11.6996
phendukel	-11.6998
aphume	-11.7044
angibang	-11.705
ngife	-11.7057
kuthath	-11.7084
.	-11.7124
ngabad	-11.7146
silungisis	-11.7176
lamukele	-11.7178
dabuki	-11.7192
zikhohlisa	-11.721
usufik	-11.7219
ife	-11.7247
mkhomb	-11.7273
lotshelw	-11.7301
nibikel	-11.7309
zincom	-11.7329
nezind	-11.7335
ihlambulul	-11.734
abaphenduk	-11.734
gijim	-11.7359
khonona	-11.7373
bafe	-11.7376
nceng	-11.7389
asilahle	-11.7401
miswe	-11.7405
ungebi	-11.7407
yivula	-11.7427
uyakwamuk	-11.7438
esihlahl	-11.7448
ngenja	-11.7453
bantw	-11.7465
enyukel	-11.7473
ezimpi	-11.7485
encek	-11.749
igax	-11.7494
simfu	-11.7494
profethe	-11.7501
zidele	-11.7502
halel	-11.7503
zokubu	-11.7504
izidum	-11.7505
odadew	-11.7509
umpheth	-11.751
kunxuse	-11.7514
ekuphele	-11.7514
lingwe	-11.7515
umangalela	-11.7516
bhula	-11.7516
siqong	-11.7516
6	-11.7516
agcinw	-11.7516
gudluk	-11.7516
jabulisa	-11.7516
mqamekel	-11.7516
nivusel	-11.7516
ntshumayel	-11.7516
phakanyiselw	-11.7516
siqashi	-11.7516
sivunguvung	-11.7516
tiberiy	-11.7516
ziklabi	-11.7516
phuphuthek	-11.7516
ncelisa	-11.7516
qongelel	-11.7516
setshenzw	-11.7516
ungivum	-11.7516
lidlulisel	-11.7516
mbuq	-11.7516
xutsh	-11.7516
cunul	-11.7516
hlunyelelw	-11.7516
nimangalela	-11.7516
mthathe	-11.7516
ugob	-11.7516
umthen	-11.7516
ngizingele	-11.7516
kubafo	-11.7517
sikhulekele	-11.7517
sivulele	-11.7517
kwambulela	-11.7517
kris	-11.7517
ngabalingis	-11.7517
ixha	-11.7518
laywa	-11.7518
akusayikuba	-11.7518
ukugana	-11.7518
amnqabel	-11.7518
ngahawukelwa	-11.7518
bhekisisa	-11.7519
nxusela	-11.7519
engenziwa	-11.7519
hlephule	-11.7519
humusha	-11.7519
hemu	-11.752
sayikuba	-11.752
yiphathe	-11.7521
jabule	-11.7521
akhushul	-11.7521
kungenziwa	-11.7523
enalizwa	-11.7523
sihibe	-11.7523
hlanzwe	-11.7524
yaluza	-11.7525
ukhulumela	-11.7525
kuzwisis	-11.7527
philisiwe	-11.7527
thengela	-11.7528
dabukisa	-11.7528
enkanuk	-11.7529
ubup	-11.753
uyahlan	-11.753
ayiyiku	-11.753
ukubuke	-11.7531
niqinise	-11.7531
babengenaku	-11.7532
iyakubiz	-11.7532
uzakwenza	-11.7532
shelwe	-11.7533
ziqaphele	-11.7533
kungakabi	-11.7533
thokozela	-11.7535
kuthunjelw	-11.7537
songela	-11.7537
zamukele	-11.7538
akususw	-11.7538
awukhathal	-11.7539
nenxe	-11.754
yilethe	-11.7541
yenyukela	-11.7542
rod	-11.7542
okuthandeka	-11.7543
ungowaba	-11.7546
sesifub	-11.7549
zikhulumel	-11.755
nabakhile	-11.7555
indisel	-11.7555
kungokwen	-11.7557
okuphind	-11.7558
mataful	-11.756
lungisisa	-11.7561
afune	-11.7561
mbuyise	-11.7576
nembal	-11.7579
yokushis	-11.7591
endul	-11.7591
mbhubhis	-11.7596
nginibekezelel	-11.7616
wamonyuk	-11.7622
ungenis	-11.7624
encik	-11.7637
ngikulobel	-11.7637
owayefak	-11.7638
bavumel	-11.7643
siqalekis	-11.7651
ekulung	-11.7653
sitaladi	-11.7654
kukhahlel	-11.7659
esiqh	-11.768
ezitsh	-11.7686
kusuthis	-11.769
welul	-11.7695
emfuy	-11.7702
chichima	-11.7707
zigcinel	-11.7712
izikhw	-11.7717
myeke	-11.7736
asebenze	-11.7736
babulaw	-11.7745
ngangihl	-11.7746
imind	-11.7748
wahlukanisi	-11.7754
kayina	-11.7778
abathenw	-11.7783
dabukile	-11.7787
hlotshis	-11.7793
ngimangalelw	-11.7807
kwalotsh	-11.7831
abaphili	-11.7837
ngembathis	-11.7852
ziphakamis	-11.7859
sesihlal	-11.786
ngokubong	-11.7886
niyakwamukel	-11.7895
bayakwamukel	-11.7897
ch	-11.7908
impeth	-11.7912
nihl	-11.7923
kulinganiselw	-11.7938
bamlalela	-11.7943
okhal	-11.7957
ongumf	-11.7987
wabakhiph	-11.7999
yink	-11.8001
okwesith	-11.8013
kubuthan	-11.8039
bayizimp	-11.8042
ibilis	-11.8044
nombha	-11.8052
ngifake	-11.8067
benqabel	-11.8164
esihlabathi	-11.8171
njengemi	-11.8185
menyezelw	-11.8209
esenikel	-11.8231
linjengel	-11.8233
nasezind	-11.8258
zinikele	-11.83
bahlabel	-11.8302
amabhan	-11.832
sibekele	-11.8331
sikhuphuk	-11.834
msus	-11.8349
kulethw	-11.8362
phathisw	-11.8375
kuhlakaniph	-11.838
ningikhumbul	-11.8381
dalelwa	-11.8419
bafund	-11.8419
ilahle	-11.8439
mfane	-11.8441
bamangalel	-11.8461
rakh	-11.8465
wakhul	-11.8467
kufez	-11.8502
ngumkab	-11.853
qondakal	-11.8533
baland	-11.8554
nenhlam	-11.8555
ababez	-11.8565
nemith	-11.8579
kukhazimul	-11.8615
asihamb	-11.8647
lingel	-11.8664
ubonakalisi	-11.8664
mmukis	-11.8675
ningahlangan	-11.8689
profethi	-11.8713
sithibez	-11.8716
kuchachi	-11.872
ngithumel	-11.8843
niphendulan	-11.8856
bengahla	-11.8859
esezaku	-11.8928
aniswe	-11.8945
bathethelel	-11.8964
ngokwethemb	-11.8986
zibamb	-11.8989
badabu	-11.9038
inyan	-11.9052
lwesin	-11.9093
ngesiphamb	-11.911
aphang	-11.9115
sithol	-11.9159
akanak	-11.9174
kuhlwanyelw	-11.9181
azesul	-11.9197
ababiz	-11.92
onakale	-11.9253
sikhon	-11.9315
maqom	-11.9317
zilethe	-11.9319
zihlakaniphile	-11.9359
chachi	-11.9383
ikhumbuz	-11.9388
neliswa	-11.9405
lwezw	-11.9437
adel	-11.9466
ukumth	-11.9512
kuphenduke	-11.9517
bakhuphu	-11.9564
baphind	-11.9571
ngiphuzis	-11.9575
areth	-11.9579
kuphume	-11.9591
epheth	-11.961
enziw	-11.9646
ngakuyek	-11.9647
cindezelw	-11.9649
lokuzal	-11.9666
vunul	-11.9704
zilind	-11.9704
ningakhohl	-11.9746
ngend	-11.9781
nesihla	-11.9785
ngikhuleke	-11.9787
engumbu	-11.9788
wamad	-11.9831
bakuzw	-11.985
lahlekelw	-11.9858
nyathelw	-11.986
nokuhleng	-11.9889
’	-11.9931
amaphik	-11.9931
kuvusw	-11.9935
abapheth	-11.9952
bacebi	-11.9956
entsh	-11.9962
qalekisa	-12.0004
zwakale	-12.0024
bababulal	-12.0051
zikhethel	-12.009
wamphath	-12.0103
niphelelis	-12.0125
mgodi	-12.014
nqabel	-12.0159
nembath	-12.0176
kugcin	-12.0192
iphile	-12.0254
nabatheng	-12.0255
shumayel	-12.0293
nowesith	-12.0299
khuphuk	-12.0325
thunyelwa	-12.0332
bhubhis	-12.036
zinhl	-12.0368
kwahlukan	-12.0413
ngalandel	-12.0435
kungokwakh	-12.0462
enec	-12.0488
ngamac	-12.0522
ekungen	-12.0522
kuchichim	-12.0589
ukukhuthal	-12.0605
nokuphulukis	-12.0654
italadi	-12.066
zigabis	-12.0668
okukhulunyw	-12.0674
buthanel	-12.0693
sikhule	-12.07
wahlukan	-12.0721
bekezele	-12.0736
kashi	-12.0737
abasayiku	-12.0779
ziphendu	-12.0779
enhl	-12.0783
yahlul	-12.0783
ngathembeki	-12.0825
ngathokozi	-12.0826
iphulukis	-12.0828
sithokoz	-12.0837
abulaw	-12.0845
uyiqamb	-12.0848
akhohlw	-12.0848
galiy	-12.0849
7	-12.0849
9	-12.0849
cetshis	-12.0849
emigodi	-12.0849
ikhihliz	-12.0849
izigidi	-12.0849
klawudiy	-12.0849
lihlatshiwe	-12.0849
maviy	-12.0849
nqatshelw	-12.0849
nqunyelw	-12.0849
sitshekelwe	-12.0849
xokozela	-12.0849
zivuth	-12.0849
▁¦6:2	-12.0849
engiwuphiwe	-12.0849
ezivumelwan	-12.0849
kujwayela	-12.0849
abayimangalela	-12.085
nokushi	-12.085
zihlobis	-12.085
ngibekezelele	-12.085
zithobis	-12.085
dunyazw	-12.085
khukhumal	-12.085
cunuk	-12.085
elithulul	-12.085
herm	-12.085
sasilalelwe	-12.085
zikholek	-12.085
ukuphamban	-12.085
amvusel	-12.085
kubhidlik	-12.085
salimon	-12.085
kuduke	-12.085
njengezinyo	-12.085
ngitshengis	-12.085
iphilisile	-12.085
phaphama	-12.085
ezibhebhe	-12.085
sisaswele	-12.0851
awuseyi	-12.0851
wayithum	-12.0851
zethembi	-12.0851
bahlazisa	-12.0851
mkhond	-12.0852
owalenza	-12.0852
ngikunike	-12.0852
bekelwe	-12.0852
njengokushiwo	-12.0852
angizuk	-12.0852
hlumelel	-12.0852
zenzekile	-12.0852
camel	-12.0852
zondelel	-12.0852
cansi	-12.0853
delelekile	-12.0853
nilalele	-12.0853
balenza	-12.0853
akwethembela	-12.0854
kumangalela	-12.0854
casuk	-12.0855
gaxa	-12.0856
ungishiy	-12.0857
funeka	-12.0859
bacebe	-12.0859
thukuthelis	-12.0861
yalusa	-12.0861
bamehlis	-12.0863
bamqhub	-12.0865
zithathel	-12.0866
yiqondis	-12.0867
ngithobi	-12.0869
ejwayele	-12.0869
bakhandw	-12.0869
beyakuli	-12.0869
lukiy	-12.0871
uyakwehlis	-12.0872
ngifuni	-12.0873
mahluk	-12.0875
owanibiz	-12.0885
silandel	-12.0887
kuyakukh	-12.0888
wenezel	-12.089
inhlanz	-12.0892
ithunyelw	-12.0894
nasezinta	-12.0897
ondliw	-12.0897
alingcwelis	-12.0901
nginibong	-12.0902
enhlam	-12.0902
olungol	-12.0908
kududuzek	-12.0914
yehlel	-12.0916
kungenjenga	-12.0921
kusuth	-12.0922
bahlehl	-12.0926
ngikulobi	-12.0928
beyakukhu	-12.0929
nimhlu	-12.0935
juliy	-12.0936
senginitshel	-12.0938
bakubik	-12.094
kabaqond	-12.0944
ngamlahl	-12.0945
usilahl	-12.0954
nilangazelel	-12.0968
ambulela	-12.0973
ngezenz	-12.0976
ngokwambul	-12.0981
ngaluphi	-12.0985
senhla	-12.1023
kuklebhu	-12.103
esibuk	-12.1038
akayek	-12.1054
bamqaphel	-12.1054
umlind	-12.1056
ukuphang	-12.1056
kulingana	-12.1061
mzuzwan	-12.107
ork	-12.1074
kulindel	-12.1079
ngayidl	-12.1083
asihlambulul	-12.1088
kubuyiselw	-12.1092
muny	-12.112
kunciph	-12.1126
njengabazenz	-12.1129
iyihlan	-12.113
xaban	-12.1152
bemangal	-12.1158
iyalid	-12.1195
nginibhapathiz	-12.1228
ngehlelw	-12.1243
ukuyiph	-12.1292
nesiphuz	-12.1345
inhlangan	-12.1365
yaphul	-12.1404
midum	-12.1415
yalisis	-12.1429
engashiy	-12.1433
inento	-12.1456
ngilethe	-12.1474
abakhel	-12.1493
kufik	-12.1523
uvukel	-12.1525
thunji	-12.1538
hekile	-12.1566
izelel	-12.1588
bembamb	-12.1594
nokuva	-12.1629
yikuph	-12.1629
ehlelw	-12.1655
akumisel	-12.1685
yakubusiswa	-12.1721
akunikel	-12.1735
wembath	-12.1809
ngafung	-12.1908
nokusol	-12.1925
kwakhiw	-12.1949
ningakwenz	-12.1959
enzile	-12.196
ukuphan	-12.1971
ebayal	-12.2029
lokaz	-12.2049
ngoweny	-12.2059
”	-12.4957
?	-12.5461
'	-12.5849
0	-12.5849
,	-13.5486
8	-14.0239
3	-14.024
—	-14.0241
!	-14.0242
v	-14.0243
q	-14.0244
:	-14.0245
t	-14.0246
g	-14.0247
