<pad>	0
</s>	0
<unk>	0
▁	-3.02063
၊	-3.65704
ကို	-3.94589
သည်	-4.25194
သော	-4.4359
နှင့်	-4.74849
၍	-4.76172
၌	-5.15017
၍၊	-5.23987
မ	-5.37623
တို့ကို	-5.40875
၏	-5.42623
တို့သည်	-5.4316
▁ငါ	-5.4573
ကြ၏။	-5.4627
်	-5.53939
▁မ	-5.61439
၏။	-5.65916
ရ	-5.6949
▁ထာဝရဘုရား	-5.82521
▁အ	-5.8589
▁ထို	-5.86844
လေ၏။	-5.87923
သား	-6.01025
အ	-6.05217
▁သူတို့	-6.08763
▁သင်တို့	-6.10227
သို့	-6.11456
တော်	-6.12231
▁ငါသည်	-6.16775
▁သင်သည်	-6.18144
ခြင်း	-6.19682
လျက်၊	-6.20645
လျက်	-6.23455
▁သင်တို့သည်	-6.24092
လည်း	-6.2522
▁မိမိ	-6.25925
တော်မူ၏။	-6.28559
▁သူတို့သည်	-6.2899
ကြ	-6.32081
▁ဘုရားသခင်	-6.33495
▁ထာဝရဘုရားသည်	-6.36493
▁အကျွန်ုပ်	-6.37195
မှ	-6.37291
အား	-6.40012
ကြလော့။	-6.4106
ရာ	-6.42227
▁ငါ့	-6.43188
▁သင်၏	-6.43211
တို့	-6.44323
▁ကိုယ်	-6.44433
လျှင်၊	-6.44546
က	-6.46317
။	-6.46652
သဖြင့်၊	-6.47252
မည်။	-6.51816
▁သူ၏	-6.52861
ကဲ့သို့	-6.53276
ရမည်။	-6.54652
လိမ့်မည်။	-6.54869
း	-6.54899
သောသူ	-6.55278
▁သူ	-6.56047
▁ထာဝရဘုရား၏	-6.56926
▁ထိုအခါ	-6.57019
လော့။	-6.57725
▁ထိုသို့	-6.58018
များ	-6.58118
ကြလိမ့်မည်။	-6.58384
▁လူ	-6.59258
က၊	-6.59863
စေ	-6.5987
တ	-6.60841
▁တဖန်	-6.62704
များကို	-6.62995
▁မိန့်တော်မူ၏။	-6.66442
▁ပြု	-6.66559
လျှင်	-6.68077
လ	-6.68657
သောအခါ၊	-6.68885
▁သည်	-6.68955
▁အကြောင်းမူကား၊	-6.69335
ရှိ	-6.70053
တွင်	-6.70098
ခြင်းငှါ	-6.7096
▁သော	-6.72164
အားဖြင့်	-6.72825
▁ငါ့ကို	-6.73936
▁သူသည်	-6.75568
ဖြစ်	-6.75645
ခြင်းကို	-6.76391
▁နေ	-6.7657
ကလည်း၊	-6.76775
တော်မူ	-6.7903
ပြု	-6.7958
သ	-6.79858
▁ဘုရားသခင်၏	-6.80811
နေ	-6.80925
ကို၎င်း၊	-6.81483
စေခြင်းငှါ	-6.83755
တတ်၏။	-6.83939
▁သင်	-6.85541
သောကြောင့်၊	-6.87194
▁ငါတို့	-6.8727
ရ။	-6.88297
ပြီ။	-6.89199
▁မိန့်တော်မူ	-6.89321
ဖြစ်၏။	-6.89593
▁ရောက်	-6.89774
▁ဘုရား	-6.92166
ခြင်း၊	-6.92851
ရသော	-6.93657
▁ဤ	-6.96353
▁ယဇ်ပုရောဟိတ်	-6.97633
▁သူတို့ကို	-6.97799
သောသူသည်	-6.97925
▁သား	-6.99058
▁ဣသရေလအမျိုးသား	-7.00207
ထဲက	-7.02156
ကား၊	-7.03162
ဟု	-7.04071
ဘဲ	-7.04109
ကိုလည်း	-7.05278
တို့အား	-7.05613
သာ	-7.06164
တော်မူသော	-7.06455
ပြီးမှ၊	-7.06674
သွား	-7.07535
ရှိ၏။	-7.07605
▁သင့်ကို	-7.0783
▁ကိုယ်တော်	-7.08166
ပါ	-7.08835
▁သင့်	-7.09628
၎င်း၊	-7.11314
▁ထာဝရ	-7.11441
▁ငါတို့သည်	-7.11506
▁ရှင်ဘုရင်	-7.12826
သောအခါ	-7.13552
ပြီးလျှင်၊	-7.14089
▁တ	-7.1523
ာ	-7.15519
ထား	-7.15936
သည်လည်း	-7.16117
▁ကိုယ်တော်သည်	-7.16518
အမျိုး	-7.16856
ပါ၏။	-7.17525
▁အလွန်	-7.18047
▁အဘယ်သို့	-7.1828
▁အပြစ်	-7.18894
တတ်	-7.19512
မြို့	-7.20346
▁အို	-7.21015
မူကား၊	-7.21275
မည်ဟု	-7.21337
▁ဣသရေလ	-7.21374
သည်ကား၊	-7.2334
တည်းဟူသော	-7.23655
စား	-7.23904
▁ယေရုရှလင်မြို့	-7.23984
မှစ၍	-7.24384
တို့၌	-7.26627
▁ငါ၏	-7.26832
ပေါ်မှာ	-7.28087
တတ်သော	-7.28432
့	-7.29276
သော်လည်း၊	-7.29281
ရှိသော	-7.29624
တော်မူပါ။	-7.29818
ပင်	-7.30279
မှာ	-7.3076
▁မိမိတို့	-7.31501
နိုင်	-7.31962
▁ရှိ	-7.32023
တော်ကို	-7.32679
ပေး	-7.32844
ကြီး	-7.33885
ကား	-7.34202
ရှ	-7.34582
▁သေ	-7.34594
ဖြင့်	-7.35274
တို့၏	-7.35353
▁မြို့	-7.35681
ု	-7.35928
ရ၏။	-7.3605
ိ	-7.36687
▁သွား	-7.36911
▁ကိုယ်တော်ကို	-7.3704
ံ	-7.37472
ထဲသို့	-7.37865
▁သင်တို့ကို	-7.38126
ထံသို့	-7.38225
ကြောင့်	-7.38227
▁ဘုရားသခင်သည်	-7.38325
▁မိန်းမ	-7.38598
လူ	-7.39125
ငါ	-7.39208
သိ	-7.39313
ကြပြီ။	-7.3982
အဘို့	-7.39844
▁ပြော	-7.40669
သောသူ၊	-7.41219
▁စီရင်	-7.41333
သေ	-7.42026
တည်း။	-7.42222
▁ပေး	-7.42283
သည်အတိုင်း၊	-7.42527
သဖြင့်	-7.42658
▁အဘယ်ကြောင့်	-7.43592
ုတ်	-7.4363
ဗ	-7.44485
ရှေ့မှာ	-7.45279
ပ	-7.45481
▁အဘယ်	-7.4611
မိ	-7.47057
မင်း	-7.4715
သောကြောင့်	-7.47221
▁ရေ	-7.47235
▁ယခု	-7.47345
စရာ	-7.47639
လာ	-7.47664
မည်	-7.4772
ပြည်	-7.48299
▁ပရောဖက်	-7.48849
စေခြင်းငှါ၊	-7.49033
▁ကောင်းကင်	-7.49153
▁အကျွန်ုပ်တို့	-7.49457
▁ထာဝရဘုရားကို	-7.49705
▁သူ့ကို	-7.50021
တောင်	-7.50102
▁သူ့	-7.50144
သည်ဟု	-7.50206
▁သတ်	-7.50246
ချ	-7.50458
စွာ	-7.50589
▁ဆို	-7.51492
▁ပ	-7.51543
နာ	-7.52164
ရောက်	-7.52428
က်	-7.53216
န	-7.53995
▁ကောင်း	-7.54069
နှင့်တကွ	-7.54459
င်	-7.54666
ပြီးမှ	-7.55287
ကို၎င်း	-7.55986
▁ကိုယ်တော်၏	-7.56337
သူ	-7.56385
▁သိ	-7.56697
မျှ	-7.56748
အပေါင်းတို့သည်	-7.56811
▁ဣသရေလအမျိုး	-7.56907
မြင်	-7.57111
စကားကို	-7.5727
▁ခံ	-7.57371
သည်အတိုင်း	-7.57415
နှစ်	-7.57444
ဇ	-7.57763
▁အမှု	-7.58053
ဒ	-7.58114
ခံ	-7.58601
ပါ။	-7.58659
▁အသက်	-7.58958
ဘ	-7.59135
ခ	-7.5929
ဘို့	-7.59304
သနည်း။	-7.59575
အမှုကို	-7.60054
▁အကျွန်ုပ်သည်	-7.60247
▁သခင်	-7.605
▁ခံရ	-7.60975
▁အကျွန်ုပ်ကို	-7.61915
▁မည်။	-7.62125
န်	-7.62163
၏သား	-7.62339
▁အဘ	-7.62557
▁တည်	-7.62676
လော့ဟု	-7.62789
ဖ	-7.63104
၎င်း	-7.63121
▁နောက်တဖန်	-7.63245
တို့နှင့်	-7.63353
တို့တွင်	-7.63894
ကြောင်းကို	-7.64415
▁ကျောက်	-7.64588
▁ထိုသူသည်	-7.64631
လက်	-7.64648
▁စား	-7.64972
ဆောင်	-7.65082
တိုင်အောင်	-7.6513
အဘ	-7.65405
ဝ	-7.65496
▁ဖြစ်	-7.6664
ဆို	-7.66825
ပြ	-7.6697
▁လိုက်	-7.67055
များ၊	-7.67081
▁မြေ	-7.67302
▁သင်တို့၏	-7.67371
ကြ။	-7.6808
အတွက်	-7.68803
လေ	-7.69224
ထ	-7.69902
▁ထိုသူတို့သည်	-7.70124
ယ	-7.7014
သတည်း။	-7.70341
မြို့၊	-7.70367
ပြော	-7.7045
တော်မူပြီ။	-7.70635
မရှိ။	-7.71067
သည်ကို	-7.71762
▁အဘယ်သူ	-7.72334
နေရာ	-7.72667
▁အခြားသော	-7.73383
▁နားထောင်	-7.73666
▁သန့်ရှင်းသော	-7.74167
▁ကြား	-7.74205
နှင့်အတူ	-7.74343
▁သူတို့၏	-7.74732
ပ်	-7.74816
▁ထား	-7.76371
လုပ်	-7.76842
သောသူတို့သည်	-7.76966
မည်အကြောင်း၊	-7.77026
ို	-7.77069
▁ထိုကြောင့်	-7.77247
▁မြင်	-7.77254
ပြန်	-7.77481
▁လက်	-7.77562
သည်ဖြစ်၍၊	-7.77806
ကြပါ၏။	-7.77908
ယူ	-7.78468
▁သို့ဖြစ်၍	-7.79375
▁ပြည့်စုံ	-7.79577
▁ကျွန်	-7.7973
▁လာ	-7.8011
ုန်	-7.80542
ထက်	-7.80784
▁ဝင်	-7.80977
▁အား	-7.8133
သကဲ့သို့	-7.81506
ကြား	-7.81548
ကျ	-7.81618
ဲ	-7.81924
▁ဟောပြော	-7.82805
ဖြစ်သော	-7.83219
တရား	-7.83332
▁ယနေ့	-7.83415
တိုင်	-7.83482
စ	-7.8386
လိုက်	-7.84276
ရလိမ့်မည်။	-7.84531
▁ဟု	-7.84737
▁မြေကြီး	-7.84889
သနည်းဟု	-7.84918
အတိုင်း	-7.84957
ရကြမည်။	-7.85306
▁ဖျက်ဆီး	-7.85416
▁တပါးအမျိုးသား	-7.8545
▁တရား	-7.86528
နှုတ်	-7.86643
နှင့်။	-7.871
▁ပူဇော်	-7.8766
▁မိ	-7.87695
ေ	-7.87705
▁စကား	-7.87842
▁နွား	-7.88023
ရှာ	-7.88083
▁စောင့်	-7.88415
ရှေ့တော်၌	-7.88519
သော်လည်း	-7.88601
မှီ	-7.88792
င်း	-7.89025
စီရင်	-7.89063
ငယ်	-7.89297
▁ဘုရားသခင်ကို	-7.8959
ရှင်ဘုရင်	-7.90159
▁အဘယ်သူမျှ	-7.90469
အမှု	-7.90482
တွေ့	-7.91312
▁သို့ရာတွင်	-7.91388
▁ထိုသူ	-7.91404
ဖြစ်စေ၊	-7.91651
▁ရှေ့တော်၌	-7.91691
▁စိတ်	-7.91988
တည်း	-7.92636
အပေါ်မှာ	-7.92747
▁ယုဒ	-7.93178
▁၏။	-7.93825
ရေ	-7.93896
ခြင်းသို့	-7.94147
ဟူမူကား၊	-7.94263
မှတ်	-7.94473
ကောင်း	-7.94773
စကား	-7.94885
ပြီဟု	-7.94941
▁ထာဝရဘုရားအား	-7.94944
▁ယာကုပ်	-7.94954
▁စိတ်နှလုံး	-7.95
▁ဆုတောင်း	-7.95221
▁သို့သော်လည်း	-7.95225
▁ဝမ်းမြောက်	-7.9545
▁အမျိုး	-7.95461
▁တောင်	-7.9559
▁ဒါဝိဒ်	-7.95657
ပါပြီ။	-7.95658
▁စကားကို	-7.95771
▁တဲတော်	-7.95903
▁လူမျိုး	-7.96015
လည်း၊	-7.96384
သကဲ့သို့၊	-7.96387
တံခါး	-7.97212
▁အစဉ်	-7.97378
ဝင်	-7.97566
▁အကြောင်း	-7.97832
တ်	-7.9808
ဘုရား	-7.98346
လိမ့်မည်ဟု	-7.98651
လို	-7.98933
ဂ	-7.98991
ကျွန်	-7.99184
▁ကောင်းကင်တမန်	-8.00256
မည်အကြောင်း	-8.00491
▁သူငယ်	-8.00521
▁ယေရှုသည်	-8.0107
▁အာ	-8.01267
အမျိုးသား	-8.01462
ရကြ၏။	-8.01526
အရာ၌	-8.01832
အပ်	-8.0184
သုံး	-8.02183
စောင့်	-8.02229
▁ပြ	-8.02318
သမျှသော	-8.02583
▁ရန်သူ	-8.02585
▁မီး	-8.02814
မင်းကြီး	-8.02847
ချစ်	-8.03112
ခံရ	-8.03125
▁ကိုယ်ကို	-8.03276
▁မူ	-8.03481
အပြစ်	-8.03652
သမျှ	-8.03798
တိုက်	-8.04278
တတ်ကြ၏။	-8.04934
သလော။	-8.04989
▁ဆောင်ခဲ့	-8.05006
လှ	-8.05251
▁ရွှေ	-8.05302
▁ရ	-8.05506
▁တွေ့	-8.05583
▁ချီးမွမ်း	-8.05717
▁အသက်ရှင်	-8.05852
ဟူ၍	-8.05852
▁သူတပါး	-8.06001
▁ရှာ	-8.06023
▁အောက်မေ့	-8.0622
▁နှုတ်	-8.06465
ပါဟု	-8.06595
▁ပြည်	-8.06712
အပေါင်းတို့ကို	-8.0675
စီ	-8.07059
သွား၍	-8.07192
▁ကြည့်ရှု	-8.07345
ိတ်	-8.0753
▁အရာ	-8.07619
▁ဒါဝိဒ်သည်	-8.07682
ရိ	-8.0769
▁တိရစ္ဆာန်	-8.0776
▁ထွက်	-8.07991
▁လိမ့်မည်။	-8.08311
တိုင်း	-8.08537
သတ်	-8.08662
▁မီးရှို့	-8.08761
ဘူး	-8.08799
ချက်	-8.09014
မရှိ	-8.09203
တဘက်၌	-8.09219
မ္မ	-8.09303
ဦး	-8.09365
▁မင်း	-8.09427
လက်မှ	-8.0966
▁တော	-8.09702
▁အဲဂုတ္တုပြည်	-8.09886
▁မူ၏။	-8.09982
ဖြစ်ကြ၏။	-8.10053
▁သန့်ရှင်း	-8.10063
အိမ်	-8.10651
လေး	-8.10748
▁ထင်ရှား	-8.11262
သမီး	-8.1131
▁ကျင့်	-8.11364
ရမည်	-8.1148
အရပ်	-8.1159
ပြုသော	-8.11591
ဖြစ်၍၊	-8.11684
▁ကျွန်ုပ်	-8.11707
ညီ	-8.11819
▁မိုဃ်းကောင်းကင်	-8.11864
ဆ	-8.12049
ကြနှင့်။	-8.1213
ထာဝရဘုရား	-8.12206
▁ဗိမာန်တော်	-8.12357
ပေါ်	-8.12389
ထွက်	-8.12395
▁မောရှေ	-8.12515
အုပ်	-8.12607
တင်	-8.12675
▁တော်	-8.1281
▁အရှင်ထာဝရဘုရား	-8.12989
▁ငွေ	-8.13027
▁အိုထာဝရဘုရား၊	-8.13054
သောအရာ	-8.13381
ရော	-8.13455
▁နား	-8.13748
▁ငါ့အား	-8.13897
ခြေ	-8.1394
▁အကျွန်ုပ်၏	-8.14132
▁ရှောလု	-8.1418
▁ယဇ်ပလ္လင်	-8.14219
▁တိုက်	-8.14403
လျက်နေ	-8.14487
တည်	-8.14557
လိ	-8.14673
▁ဣသရေလအမျိုး၏	-8.14781
▁လူများ	-8.15024
▁အကယ်စင်စစ်	-8.15052
နေသော	-8.15394
ပြီး	-8.15685
▁ထိုကြောင့်၊	-8.15945
▁လုပ်	-8.16257
လျှောက်	-8.16328
▁စစ်တိုက်	-8.16429
▁အိမ်	-8.16479
▁ကြောက်ရွံ့	-8.16882
ကြလော့ဟု	-8.169
အသက်	-8.16996
အာ	-8.17154
နားမှာ	-8.17248
မိန်းမ	-8.17485
ရက်	-8.17661
သားတို့သည်	-8.17732
ရှိသမျှတို့ကို	-8.17813
▁ခပ်သိမ်းသော	-8.18072
သင့်	-8.18155
▁သင်၏ဘုရားသခင်	-8.18316
▁ပညာ	-8.18398
▁ပင်လယ်	-8.18474
ပါမည်။	-8.18477
လျက်ရှိ၏။	-8.18634
နိ	-8.18861
၌ရှိသော	-8.19044
၌၎င်း၊	-8.19341
▁လည်း	-8.19562
အပေါင်းတို့	-8.19568
▁ပြေး	-8.19672
▁ဟော	-8.19699
နည်း	-8.1975
▁ယဇ်	-8.20025
ဏ္	-8.20103
ရမည်ဟု	-8.20133
▁ငါတို့ကို	-8.20283
▁ကိုယ်တိုင်	-8.20356
ထဲမှာ	-8.20409
ခြင်းငှါ၊	-8.20479
▁အရင်	-8.20649
▁လွှတ်	-8.21128
လမ်း	-8.21213
သခင်	-8.21801
▁မတရားသော	-8.21949
▁သင်၌	-8.22028
စေမည်။	-8.22067
▁သို့	-8.22233
မ်း	-8.2225
▁ကာလ	-8.22258
ရှေ့၌	-8.22324
▁လျှောက်	-8.22379
▁ဘ	-8.22515
▁ကျွန်တော်	-8.22717
▁တို့ကို	-8.22899
▁အိမ်တော်	-8.229
▁လေး	-8.23221
▁သိုး	-8.23372
ခံရသော	-8.23386
လုံး	-8.23392
▁ထိုနောက်	-8.23608
▁ထွက်သွား	-8.23738
ခေါ်	-8.23925
▁ယောသပ်	-8.24235
▁သာ၍	-8.24405
သံ	-8.24568
ွ	-8.25122
ဘုရားသခင်	-8.25235
ကာ	-8.25289
▁သို့မဟုတ်	-8.25479
တော်မူမည်။	-8.25841
စရာဘို့	-8.25896
လေပြီ။	-8.26019
တပ်	-8.26486
သောသူတို့ကို	-8.26766
ကျောက်	-8.27021
ပြင်	-8.27044
▁အရပ်	-8.27105
အံ့သောငှါ	-8.27171
▁ခမည်းတော်	-8.27328
ကာလ	-8.27331
အပေါင်း	-8.27767
နိုင်သော	-8.27771
▁ပူဇော်သက္ကာ	-8.27813
▁မယား	-8.27816
▁ချစ်	-8.2782
▁သင်တို့အား	-8.27832
▁ဆောင်	-8.27911
ည	-8.27947
▁မီးရှို့ရာယဇ်	-8.27995
မရှိ၊	-8.2803
ဥစ္စာ	-8.28755
▁အပ်	-8.2884
▁ယောက်ျား	-8.28922
မျက်နှာ	-8.28955
▁သားတော်	-8.29004
▁ပြင်ဆင်	-8.29216
▁ပြန်	-8.29405
▁ယုံကြည်ခြင်း	-8.29744
▁လုပ်ကြံ	-8.29798
ဆုံး	-8.30014
▁စေလွှတ်	-8.30126
မြို့သို့	-8.30459
တော်မူ၍၊	-8.30544
▁ရှောလမုန်	-8.30666
▁အတိုင်း	-8.30739
▁ထိုသို့သော	-8.30775
▁ဗာဗုလုန်	-8.30788
မြတ်	-8.30859
ချင်း	-8.30964
▁အချင်းချင်း	-8.30993
▁ခေါ်	-8.31302
ကင်ဗိုလ်ခြေအရှင်	-8.31357
▁ဧ	-8.31471
ဘက်၌	-8.31659
ကုန်	-8.31934
မြေ	-8.3195
အောင်	-8.32034
သည်လည်း၊	-8.32118
▁ဖြစ်၏။	-8.32212
ကိုယ်	-8.32391
▁မင်းကြီး	-8.32512
▁ကောင်းကြီးပေး	-8.3252
တို့ကို၎င်း၊	-8.32624
အချိန်	-8.32737
မူကား	-8.32786
▁ခန့်ထား	-8.32889
▁ယုဒရှင်ဘုရင်	-8.32919
ရှိသမျှ	-8.33376
▁များစွာသော	-8.33511
ခြင်းနှင့်	-8.33643
စီး	-8.33648
▁သွား၍	-8.33734
ချိန်	-8.33808
▁တင်	-8.33973
လာ၍	-8.34362
ကျင့်	-8.34526
▁မျက်နှာ	-8.34632
▁ညှဉ်းဆဲ	-8.34827
သော်၊	-8.34883
▁သူတို့အား	-8.34899
မိန့်တော်မူ	-8.35001
▁အမျိုးသား	-8.35135
စိတ်	-8.35259
▁သုံး	-8.3544
ရကြ။	-8.35505
ပုံ	-8.35563
▁ဝန်ခံ	-8.35607
လွန်	-8.35844
▁သို့သော်လည်း၊	-8.36169
▁ညီအစ်ကို	-8.36264
ည်	-8.36268
▁ပရိသတ်	-8.36385
ကြည့်	-8.36546
ပါစေ။	-8.36611
▁ချီးမြှောက်	-8.36764
▁ကျ	-8.36767
▁မောရှေအား	-8.36948
မသိ	-8.37042
တော်မမူ	-8.37086
ူး	-8.37203
တိ	-8.37311
▁ထိုသူကို	-8.37325
▁သောက်	-8.37382
မယား	-8.37554
▁မြည်း	-8.37706
ကဲ့သို့၎င်း၊	-8.37802
ေလ	-8.37916
ထင်	-8.38105
အပေါ်သို့	-8.38283
▁ပြစ်မှား	-8.3854
မိန့်တော်မူ၏။	-8.38631
ဟ	-8.38895
▁ဥစ္စာ	-8.39039
သောသူကို	-8.39307
အရာ	-8.39447
▁မောရှေသည်	-8.39529
စေလွှတ်	-8.39708
▁ကြွေးကြော်	-8.39737
▁သံ	-8.39787
▁ယုဒပြည်	-8.39888
စေ။	-8.39889
▁သိမ်းယူ	-8.399
ဘွယ်	-8.40219
▁ဆောင်ရွက်	-8.4023
ဆယ်	-8.40312
▁ပြောဆို	-8.40398
▁ကယ်တင်	-8.40456
တောင်း	-8.40545
ရှင်	-8.40943
နိုင်။	-8.41351
ဟော	-8.41371
▁ပြန်ပြော	-8.41511
▁တပည့်တော်တို့	-8.41526
ပြည်သို့	-8.41795
နိုင်ငံ	-8.41913
▁ရှိသော	-8.42112
တန်ဆာ	-8.43089
▁မျက်စိ	-8.43169
▁သို့ဖြစ်၍၊	-8.4331
လူအပေါင်းတို့သည်	-8.43446
ိမ်	-8.43618
▁သင်တို့၌	-8.43621
▁အသီးအသီး	-8.43709
ဘဲ၊	-8.43747
▁တို့သည်	-8.43779
▁ရှိ၏။	-8.43793
▁အာဗြဟံ	-8.43832
▁ကျွန်မ	-8.43853
▁ထာဝရဘုရားမိန့်	-8.44
▁နှုတ်ကပတ်တော်	-8.44004
တရားကို	-8.44051
များနှင့်	-8.44101
▁တက်	-8.44174
ရဟု	-8.442
ရှိသမျှကို	-8.44269
ဘဲနေ	-8.44316
စု	-8.44337
ပြီးလျှင်	-8.44388
▁အောင်	-8.44427
▁မြော်လင့်	-8.44436
▁တပ်	-8.44453
▁စောင့်ရှောက်	-8.44652
▁အဲဂုတ္တုပြည်မှ	-8.45094
▁ထ၍	-8.45166
ဖျက်ဆီး	-8.45419
စွဲ	-8.45435
သလောဟု	-8.45531
ပိုင်	-8.45547
ဝေး	-8.45796
စာ	-8.45805
▁လေဝိသား	-8.45869
သောသူတို့	-8.45874
▁တယောက်	-8.45908
အရာကို	-8.4596
▁အတူ	-8.46049
▁လော့။	-8.46338
▁နာ	-8.46486
မခံ	-8.46522
ရကြလိမ့်မည်။	-8.46585
▁နားမထောင်	-8.46629
▁သင်တို့တွင်	-8.46642
▁လမ်း	-8.46683
အမည်ရှိသော	-8.46745
ဖြစ်သတည်း။	-8.46842
ပါသည်ဟု	-8.4692
အပြစ်ကို	-8.46957
ထိုင်	-8.47142
တော်မမူ။	-8.47357
နေ့	-8.4738
ဆို၏။	-8.47519
မာ	-8.47639
လိမ့်	-8.47641
▁မြင်း	-8.47656
နှစ်ယောက်	-8.47824
▁အကျိုး	-8.48085
သားကား	-8.48107
▁တောင်း	-8.4841
ထ၍	-8.48908
တို့၊	-8.48939
▁ထ	-8.48945
ပျက်	-8.49165
▁ကျေးဇူးတော်	-8.49168
▁ဆို၏။	-8.49317
ပေါက်	-8.4955
▁ကြီးစွာသော	-8.49875
နယ်	-8.50051
▁ကိုယ်တော်ကျွန်	-8.50171
▁?????????	-8.50309
▁အဝတ်	-8.50321
▁နန်းတော်	-8.50361
အလယ်၌	-8.50429
▁အဲဂုတ္တု	-8.50495
▁နေရာ	-8.50522
ရန်	-8.50524
ပြည်၌	-8.50739
▁ကျေးဇူး	-8.50831
ဖြစ်စေ	-8.50905
ထက်သာ၍	-8.51007
တို့သည်လည်း	-8.51179
▁ဒုစရိုက်	-8.51361
▁နောက်	-8.51382
▁လွတ်	-8.51537
လက်၌	-8.51617
▁ဆီ	-8.5162
ဘက်	-8.51798
အရပ်၌	-8.51901
▁မပြု	-8.52116
▁နှစ်	-8.52223
▁သိုးသငယ်	-8.52342
ရွာ	-8.52573
▁သက်သေခံ	-8.5269
▁အော်ဟစ်	-8.52844
▁ပညတ်တရား	-8.52874
▁ရောက်လာ	-8.52906
စေ၍၊	-8.53304
▁အစဉ်အမြဲ	-8.53331
▁တော၌	-8.53337
သည်မဟုတ်။	-8.53399
သင်	-8.53595
▁စ	-8.53887
▁ကြေးဝါ	-8.54294
လဲ	-8.5442
စစ်	-8.54487
တို့ကိုလည်း	-8.54524
လျက်ရှိ	-8.54611
အိမ်သို့	-8.54639
▁ညီအစ်ကိုတို့	-8.54843
▁ဣသရေလရှင်ဘုရင်	-8.5487
▁အထက်က	-8.55131
▁ထိုင်	-8.55253
တော	-8.55492
တယောက်	-8.55803
ဖြစ်၍	-8.55985
▁လူသည်	-8.55992
အပေါ်၌	-8.56021
▁ထိုအရပ်၌	-8.56022
▁တံခါး	-8.56043
▁နေကြ၏။	-8.56078
နောက်	-8.56099
▁ငါ့သား	-8.56228
ော	-8.56255
ီ	-8.56264
▁ယေရှုကလည်း၊	-8.56468
▁ငါ့စကားကို	-8.56475
ဆက်	-8.56563
▁ထောင်	-8.56656
▁ကျေးဇူးပြု	-8.56669
ရှိ၍၊	-8.56722
▁သစ္စာ	-8.56851
▁သဘော	-8.56906
တော်မူသဖြင့်၊	-8.57063
တော်သည်	-8.57307
ော်	-8.57711
ရာအရပ်	-8.57744
▁ဝိညာဉ်တော်	-8.57773
▁ယေရုရှလင်မြို့၌	-8.57799
▁ဖြောင့်မတ်သောသူ	-8.57944
▁အာရုန်	-8.58005
▁အသွေး	-8.58136
တွင်၊	-8.58332
▁အိပ်	-8.58453
မှန်	-8.58571
▁ခရစ်တော်	-8.58629
▁ဖြောင့်မတ်ခြင်း	-8.58684
▁ငါ၌	-8.58717
▁ဘုရားသခင့်	-8.58902
လွတ်	-8.58912
▁ယောရှု	-8.59235
▁အမှုကို	-8.59808
တရာ	-8.59939
တူ	-8.60001
▁မှာ	-8.60094
စေတော်မူ၏။	-8.60247
▁သ	-8.60474
▁နှင်ထုတ်	-8.60515
တို့က၊	-8.60555
အနားမှာ	-8.60689
လော	-8.60701
ပတ်လုံး	-8.60708
နား	-8.60822
တော်မူပါဟု	-8.60847
အမျိုးသား၊	-8.60862
▁ကြားပြော	-8.61253
▁ငါမ	-8.61379
တော်မူသည်ကား၊	-8.61387
▁ကြောက်	-8.61513
ခြင်းရှိ	-8.61525
ချင်	-8.61546
▁အလျင်အမြန်	-8.61552
ောက်	-8.61581
▁လူများတို့သည်	-8.61609
အဆွေအမျိုး	-8.61624
ဒိ	-8.61695
▁ကြောင့်၊	-8.61801
▁ထိုမှတပါး၊	-8.6193
▁တော်ကို	-8.61994
▁ယေရှု	-8.62072
၏ဟု	-8.62307
မြို့၌	-8.62579
များတို့သည်	-8.62588
▁ကြောင့်	-8.62674
ပယ်	-8.62789
▁ထုတ်	-8.62869
▁ကောင်းသော	-8.62895
စေ့	-8.62916
▁ယေ	-8.62952
လာ၍၊	-8.62986
▁ဝတ်	-8.63201
သာ၍	-8.63238
▁နိုင်ငံတော်	-8.63262
▁မြေပေါ်မှာ	-8.63311
ပြေး	-8.63457
မှတပါး	-8.63607
▁သမီး	-8.63647
▁ဆင့်ဆို	-8.63657
ကြောင်း	-8.63769
▁ဖြစ်၍၊	-8.63863
ကြလိမ့်မည်ဟု	-8.63912
▁ကျိန်ဆို	-8.63915
▁အုပ်စိုး	-8.64027
စ်	-8.64068
▁ငိုကြွေး	-8.64118
အကြောင်း	-8.64128
▁အရှင်	-8.64204
▁မြစ်	-8.64381
▁ဘော်ပြ	-8.64415
▁ယူ၍	-8.64462
ိညာဉ်	-8.64515
မြင့်	-8.64568
အလို	-8.64578
▁ကိုးကွယ်	-8.64609
▁မေး	-8.64742
▁ဖိလိတ္တိလူတို့	-8.64766
▁နှစ်သက်	-8.64836
ငါ့	-8.64879
▁ဥာဏ်	-8.64896
သူအပေါင်းတို့သည်	-8.65205
▁အထံတော်သို့	-8.65219
▁မိုဃ်းတိမ်	-8.65358
▁ဆိုကြ၏။	-8.65447
▁ဆုံးမ	-8.65565
ရှိရာ	-8.65731
တ္တ	-8.65763
စေခြင်းငှါ၎င်း၊	-8.65767
▁ကဲ့ရဲ့	-8.65916
ရှိကြ၏။	-8.66025
စေ၏။	-8.6622
▁လဲ	-8.66286
ဆိုသော်၊	-8.6629
▁ကျေးဇူးတော်ကို	-8.66356
ဟူ၍၎င်း၊	-8.66552
▁မြေကြီးပေါ်မှာ	-8.66632
▁အကြောင်း၊	-8.66672
▁ထာဝရဘုရားကလည်း၊	-8.66762
▁ခ	-8.6683
ထံတော်သို့	-8.67031
ဆိုး	-8.67083
နှင့်၎င်း၊	-8.67131
▁ပရိသတ်စည်းဝေးရာ	-8.67344
ပေါင်း	-8.67377
အောက်၌	-8.67424
လက်သို့	-8.67519
▁ချ	-8.67795
▁ခံရသော	-8.67819
▁ယုံကြည်	-8.67834
ပါစေသော။	-8.67939
အိမ်၌	-8.67995
▁ထာဝရဘုရားက၊	-8.68055
▁မသိ	-8.68112
????????????????	-8.6816
ပွင့်	-8.68163
▁ပျက်စီး	-8.68274
▁ဟာ	-8.68402
နှစ်ဆယ်	-8.68548
တန်ခိုး	-8.68608
▁ယော	-8.68609
▁ယူ	-8.68886
ဖြစ်ကြောင်းကို	-8.68912
▁နေရ	-8.68984
▁မဟုတ်လော။	-8.69024
▁ယေရမိ	-8.69055
▁လုယူ	-8.69093
▁ဣသရေလအမျိုးကို	-8.6918
ပြီ	-8.69273
▁နာမတော်	-8.69383
▁လူတို့သည်	-8.69457
သော်၎င်း၊	-8.69592
လောက်	-8.69643
▁တော်မူ၏။	-8.70134
္	-8.70158
ခဲ	-8.70183
▁ထိုနောက်မှ	-8.70211
မြောက်	-8.70269
ပြစ်မှား	-8.703
ဒါဝိဒ်	-8.70316
▁သားသမီး	-8.70532
သားတို့	-8.70571
ဇာ	-8.70777
ခုနစ်	-8.70858
ကြဟု	-8.70883
▁အထက်	-8.70936
ယ်	-8.71034
▁ထိုသူတို့	-8.711
ဟိ	-8.71178
စဉ်တွင်၊	-8.7137
▁ထိုမြို့	-8.71404
မရှိဘဲ	-8.7143
စရာအကြောင်း	-8.71452
▁စပျစ်ရည်	-8.71591
ပါး	-8.71597
ရွက်	-8.71604
ဆောင်ခဲ့	-8.71608
▁ခြင်္သေ့	-8.71645
▁ပေါလု	-8.71671
▁မိန့်တော်မူသည်	-8.71893
▁န	-8.72138
▁လေ	-8.72164
▁ဒုစရိုက်ကို	-8.72201
▁??????????	-8.72233
ပြည့်စုံ	-8.72285
ယဇ်	-8.72312
▁ယဇ်ပူဇော်	-8.7242
ရှိရာသို့	-8.72568
တက်	-8.72733
▁ရေးထား	-8.7275
နှင့်ဆိုင်သော	-8.72814
ခတ်	-8.72819
▁ပေတရု	-8.72869
အံ့	-8.72905
▁မှာထား	-8.73009
▁အသံ	-8.73063
▁သင်္ဘော	-8.73072
▁ယာ	-8.73172
▁မခံ	-8.73193
▁နှလုံး	-8.732
ဖြစ်သည်ဟု	-8.73218
ဟာ	-8.73261
▁ပြင်	-8.73443
▁တောင်းပန်	-8.73454
သူတို့	-8.73576
ထံ၌	-8.73612
ယော	-8.73643
▁ဘုရား၏	-8.73644
▁ခြေ	-8.7365
▁ရှင်ဘုရင်သည်	-8.73653
ထဲ၌	-8.73669
▁မုသာ	-8.73731
ပြု၍	-8.73894
▁တည်ဆောက်	-8.73905
ဖြစ်တော်မူ၏။	-8.73915
▁ဘေး	-8.73983
▁ဖြစ်ကြ၏။	-8.73995
ကဲ့သို့၎င်း	-8.74115
▁ဘုရားသည်	-8.74122
မည်နည်း။	-8.74123
▁သွင်း	-8.74164
▁ဝါကြွား	-8.74344
င	-8.74354
မျက်စိ	-8.74355
▁ဗာဗုလုန်မြို့	-8.74413
▁ကြီး	-8.74489
▁စစ်	-8.74567
▁ဤသို့	-8.74622
ငါး	-8.74639
▁မာ	-8.74652
သေး	-8.74881
ရှု	-8.74887
ဘွယ်သော	-8.74917
သုံးဆယ်	-8.75105
တဘက်	-8.7512
စည်း	-8.75156
▁မှတ်	-8.75206
ပါမည်ဟု	-8.75275
▁မြို့ရိုး	-8.75471
▁ကင်းလွတ်	-8.75473
▁ချက်ခြင်း	-8.75531
▁ဆက်	-8.75672
▁အခါ၊	-8.75696
ထင်ရှား	-8.75738
▁အသီး	-8.75777
ပြန်၍	-8.75778
ပြည်၊	-8.75834
အမျိုးသားတို့သည်	-8.7591
▁နှိုးဆော်	-8.75926
▁ထိုကာလ၌	-8.76
▁ဖြောင့်မတ်	-8.76037
▁စည်းဝေး	-8.76146
ရှိသမျှတို့သည်	-8.76158
▁အမိ	-8.76214
မပြု	-8.76354
သွင်း	-8.76481
▁လူအပေါင်းတို့	-8.76517
▁ယေရှုခရစ်	-8.76569
ပေ၏။	-8.76579
▁ကား၊	-8.76601
▁အလိုရှိ	-8.76638
ရိုး	-8.76668
သော်	-8.76764
တန်	-8.76896
သည်မဟုတ်လော။	-8.76906
▁ယော်ဒန်မြစ်	-8.77357
နီး	-8.7743
ကောင်	-8.77507
▁နာမတော်ကို	-8.77579
ချီးမွမ်း	-8.77698
▁ငါ့ထံသို့	-8.77837
?????????	-8.77887
ုံ	-8.77917
▁ရှိကြ၏။	-8.7793
▁ယုဒလူ	-8.78037
တခု	-8.78072
အစရှိသော	-8.78206
ခြောက်	-8.7843
▁သီချင်းဆို	-8.78633
▁ကြည့်	-8.78634
အရှင်	-8.78802
တော်မူလိမ့်မည်။	-8.78855
▁မကောင်းသော	-8.78856
လု	-8.7889
ဖွင့်	-8.78954
▁တရားစီရင်	-8.79447
မေး	-8.79508
▁တန်ခိုး	-8.79663
ချုပ်	-8.79731
ရင်း	-8.79737
ူ	-8.79749
စေနှင့်။	-8.79782
▁ပယ်ရှင်း	-8.79819
▁ကရုဏာ	-8.79863
▁ဝိညာဉ်	-8.79888
▁ပြည်သား	-8.80012
သောသူဖြစ်	-8.80083
▁ကရုဏာတော်	-8.80148
▁ယုဒအမျိုး	-8.80322
▁၎င်း၊	-8.80337
▁သန့်ရှင်းစေ	-8.80369
▁ရထား	-8.80539
▁နေ့ရက်	-8.80862
▁ထိုမိန်းမ	-8.80871
တတ်။	-8.80916
▁ကယ်တင်တော်မူ	-8.80993
▁သန့်ရှင်းရာဌာန	-8.81098
ဖျက်	-8.81223
ရကြ	-8.81225
▁ပညတ်	-8.81258
သောသူ၏	-8.81275
▁အဘယ်သူသည်	-8.81447
▁သို့ရာတွင်၊	-8.81594
အစဉ်	-8.81731
▁အတောင်	-8.81784
တပါး	-8.82123
▁ထမ်း	-8.82161
▁ပြန်လာ	-8.82278
▁ခရီးသွား	-8.82288
ရမည်အကြောင်း၊	-8.82375
၏ဘုရားသခင်	-8.82379
▁ရုပ်တု	-8.82444
▁ဧဖရိမ်	-8.82526
▁မစ	-8.82542
စဉ်	-8.82555
ခြင်းအမှု	-8.82563
▁က	-8.82646
မဟုတ်	-8.82928
ယူ၍	-8.82954
တဆယ်	-8.82986
▁????????????	-8.83049
▁ပယ်	-8.83084
▁ဒုတိယ	-8.83101
မီး	-8.83371
▁ပေးတော်မူ	-8.83413
▁ဆိတ်	-8.83607
ဥစ္စာကို	-8.84074
မြ	-8.84128
ခြင်းအားဖြင့်	-8.84143
▁မိန့်တော်	-8.84265
▁မှာထားတော်မူ	-8.84324
▁ဘိုးဘေးတို့	-8.84364
သိုး	-8.84372
▁အကြင်သူသည်	-8.84667
▁မှောင်မိုက်	-8.84727
▁ဗင်္ယာမိန်	-8.84768
မှီတိုင်အောင်	-8.84922
ဝိညာဉ်	-8.84955
▁သခင်ဘုရား	-8.8511
▁သိမ်းသွား	-8.85115
အဝတ်	-8.8518
▁ငါး	-8.85213
လင်	-8.85308
▁ပြုပြင်	-8.85462
ပြေ	-8.85513
စေသော	-8.85581
▁အမိန့်တော်ကို	-8.85609
▁ခေါင်း	-8.85624
▁လာ၍	-8.85674
ကြသနည်း။	-8.85751
▁စုဝေး	-8.85829
▁စာ	-8.85892
ကြောင့်၊	-8.85907
▁မိုဃ်း	-8.85946
▁ခရစ်တော်၏	-8.85986
စင်	-8.86124
ဝတ်	-8.86219
သောက်	-8.86269
နှလုံး	-8.86328
အခွင့်	-8.8643
ဘေး	-8.86466
▁အချိန်	-8.8647
လူတို့သည်	-8.86483
ဒ်	-8.86499
ခဲ့	-8.86544
အကြီး	-8.86574
▁သူရဲ	-8.86586
န်း	-8.86604
အကျင့်	-8.86607
▁ဆောင်သွား	-8.8666
မဟုတ်၊	-8.86669
ကြိုး	-8.86675
▁ဘောဇဉ်	-8.867
▁ဝတ်ပြု	-8.86705
▁အနာ	-8.86821
ခါ	-8.86898
ပူဇော်	-8.87014
▁အဘိုး	-8.87067
▁ပညာရှိ	-8.87073
▁အဆွေအမျိုး	-8.87279
စဉ်တွင်	-8.87319
▁နားလည်	-8.87431
▁နှိမ့်ချ	-8.87547
လည်	-8.87641
▁ယွာဘ	-8.87666
▁တိုင်	-8.87831
▁ငှါ	-8.87987
ရပ်	-8.87997
သည်နှင့်အညီ၊	-8.88022
ွန်	-8.88047
▁???????????	-8.88112
▁မြောက်	-8.88146
မျိုး	-8.88202
▁တပြည်လုံး	-8.88258
▁မင်္ဂလာရှိ	-8.88297
▁စစ်သူရဲ	-8.88323
ှ	-8.88361
▁အမှုတော်ကို	-8.88366
▁မေးမြန်း	-8.88401
▁အလင်း	-8.88428
▁တရားသဖြင့်	-8.88432
▁စီး	-8.88562
▁သွန်သင်	-8.88578
ဖြတ်	-8.88604
ဝန်	-8.88694
▁ဆီးတား	-8.88831
နားထောင်	-8.88952
▁သူ၌	-8.89081
▁ရွေး	-8.89082
မော	-8.89166
▁ထမြောက်	-8.89257
ဖြူ	-8.89264
ခြင်းငှာ	-8.89376
▁ဣသ	-8.89377
▁ဟေ	-8.89518
ပြည်ကို	-8.89568
▁ယခုမှာ	-8.89603
▁မှားယွင်း	-8.89715
လွှတ်	-8.89758
▁ဣ	-8.89809
တို့မှ	-8.89823
အကျွန်ုပ်	-8.8991
▁မင်္ဂလာ	-8.89928
ခြင်းငှါ၎င်း၊	-8.89977
▁သင်နှင့်	-8.90073
သားတို့ကို	-8.90098
ပြည့်	-8.90115
▁ယောဟန်	-8.90125
ဂါ	-8.90218
ပတ်	-8.90257
▁ချမ်းသာ	-8.90265
နေ့၌	-8.90325
ထံ	-8.90344
▁သင်္ဂြိုဟ်	-8.90566
▁လောကီ	-8.90605
ပေါ်သို့	-8.90706
▁အခွင့်	-8.90898
ဘုရား၊	-8.90925
▁ဗိုလ်	-8.90935
မြို့သား	-8.9098
ယောက်ျား	-8.9099
ကြစေ။	-8.91099
အမည်ဖြင့်	-8.91268
▁အစဉ်မပြတ်	-8.91269
ကြလျှင်၊	-8.91326
ဟူသော	-8.91419
▁ယဇ်ပုရောဟိတ်သည်	-8.9144
ပေတည်း။	-8.91539
ပစ်	-8.91764
အဝတ်ကို	-8.918
▁အချင်း	-8.91972
တော်မူလျှင်၊	-8.91975
▁လက်တော်	-8.92006
သောအရာကို	-8.92019
▁ရောင်း	-8.92045
ညှဉ်းဆဲ	-8.92142
▁သနား	-8.92149
▁သင့်အား	-8.92186
ကပ်	-8.92201
တဲ	-8.92214
▁တိုင်အောင်	-8.92224
ကာလ၌	-8.92262
▁စုံစမ်း	-8.92299
▁အရေဖျားလှီး	-8.92356
နောက်သို့	-8.92665
▁အခွင့်ကို	-8.92671
ပညာ	-8.92702
တို့နှင့်အတူ	-8.92722
▁အဲဂုတ္တုပြည်၌	-8.9293
▁တပါး	-8.93018
သမျှတို့ကို	-8.93132
ကိုသာ	-8.93222
ဘော်	-8.93246
ဖြစ်လိမ့်မည်။	-8.93277
တတ်သောသူ	-8.93323
▁တပည့်တော်	-8.93369
▁ညီ	-8.93393
လူတို့	-8.93415
▁လုလင်	-8.93551
သစ်	-8.93558
တဦး	-8.9417
သင်တို့	-8.94208
▁အခြား	-8.94308
ဇိ	-8.94467
ငှက်	-8.94519
အချို့	-8.94557
မွေး	-8.94557
မြဲ	-8.94565
▁ဖျက်	-8.9466
ဧ	-8.94815
▁အသရေ	-8.94852
ဘူးသော	-8.94862
▁ငါနှင့်	-8.95025
အောက်	-8.95038
အကျိုးကို	-8.9509
▁ငါပြော	-8.95169
▁ဆယ်	-8.95186
ဖာ	-8.95287
အလုံးစုံတို့ကို	-8.95299
▁အကုန်အစင်	-8.95304
▁သူတို့၌	-8.9531
▁အကျင့်	-8.95425
ပါပြီဟု	-8.95492
ဆီ	-8.95617
ဆွဲ	-8.95705
နည်းဟူမူကား၊	-8.95718
သို့ရောက်	-8.95725
ကြာ	-8.95784
ကြည့်ရှု	-8.95803
▁ပြုစု	-8.95849
လျော့	-8.95856
ရမည်အကြောင်း	-8.95954
▁အချင်းလူသား၊	-8.95957
▁မုန့်	-8.96065
▁ပညတ်တော်	-8.96162
▁ပုန်ကန်	-8.96281
ပု	-8.96312
▁ပါ	-8.96352
နှင့်တကွ၊	-8.96377
ောင်	-8.96447
ပျောက်	-8.96471
သောစိတ်နှင့်	-8.96554
ပြီးသော	-8.96619
ီး	-8.96713
▁ထိုသခင်	-8.96786
သွား၍၊	-8.96871
▁စပါး	-8.96899
နွား	-8.96915
▁ဝမ်း	-8.96958
▁ရှောက်သွား	-8.97023
ား	-8.97043
ဟောပြော	-8.97045
▁သခင်၊	-8.97067
▁တူ	-8.97071
▁လည်း၊	-8.97107
လုပ်သော	-8.97176
ကွာ	-8.97268
ကွယ်	-8.97295
တော်မူခြင်း	-8.97347
အသံ	-8.97376
▁ငှက်	-8.97406
▁ကျန်ကြွင်းသော	-8.97414
▁ဧလ	-8.97423
တို့ကို၎င်း	-8.97474
ဖြစ်သည်ကို	-8.97482
▁ကြ	-8.97576
▁မေတ္တာ	-8.97848
လူများ	-8.97983
▁ပြန်သွား	-8.98041
အမျိုးမျိုး	-8.98056
▁ဤသူတို့သည်	-8.98078
ဝေ	-8.98082
သဘော	-8.9809
ကိုယူ၍	-8.98106
▁စုဝေးစေ	-8.9815
တို့နှင့်တကွ	-8.98183
ဖွဲ့	-8.98197
အသက်ရှင်	-8.98213
▁ဘွားမြင်	-8.98252
▁အရှင်မင်းကြီး	-8.98295
စေတော်မူ	-8.98409
▁တဲ	-8.98416
ခု	-8.98538
▁ရာ	-8.98568
ညီအစ်ကို	-8.98595
▁ဤသူသည်	-8.98645
ပေါ်၌	-8.98666
မည်ကို	-8.98691
ရစ်	-8.98872
မြစ်	-8.9896
▁ဤအမှု	-8.9944
စာကို	-8.99458
အိမ်တော်	-8.99551
▁ဟ	-8.99644
▁ယေရောဗောင်	-8.99893
ချောင်း	-8.99961
သား၊	-9.00137
အကျိုး	-9.00167
ဘို့ရာ	-9.0026
▁အတိုင်း၊	-9.00322
လုံးကို	-9.0038
▁ရွှင်လန်း	-9.00466
▁ရပ်နေ	-9.00504
ကိုမျှ	-9.00551
ရွေး	-9.00584
▁အပြစ်တင်	-9.00595
ထားသော	-9.00596
ကိုးကွယ်	-9.00614
လည်ပင်း	-9.00634
▁ယောနသန်	-9.00637
ုပ်	-9.00714
▁ဘုန်း	-9.00765
မင်းကြီးသည်	-9.00792
▁ယနေ့တိုင်အောင်	-9.00829
ပေ	-9.00919
ပြည်မှ	-9.01021
▁ဣဇာက်	-9.01027
ရှိသမျှတို့	-9.01078
▁နေ့	-9.01247
▁မိဘ	-9.01328
တည်းဟူသော၊	-9.01345
အမျိုးအနွယ်	-9.01497
▁လူတို့ကို	-9.01501
▁ဖြစ်စေ	-9.0158
ကြောက်	-9.01587
ထွက်၍	-9.01705
ဏ	-9.018
▁တန်ဆာ	-9.01829
▁သို့ပြုလျှင်	-9.01847
ရုပ်တု	-9.01878
သောသူတို့၏	-9.01919
၌နေသော	-9.01975
▁ပြန်၍	-9.01987
အဘယ်သို့	-9.02032
▁မေ	-9.02201
ဦးမည်။	-9.02213
ရှိ၍	-9.02218
▁?????????????	-9.02246
▁ယုဒအမျိုးသား	-9.02269
▁ပယ်ရှား	-9.02311
▁အမိန့်တော်	-9.02504
ိုင်း	-9.02568
▁ဥ	-9.02579
▁လျှောက်ဆို	-9.02652
တယောက်သည်	-9.02662
▁သိုးထိန်း	-9.02682
တော်၌	-9.02817
များတို့ကို	-9.02961
လမ်းသို့	-9.03014
ရန်သူ	-9.03045
ကြကုန်အံ့။	-9.03057
▁ဖြစ်သတည်း။	-9.03082
ဖုံး	-9.03104
ကြလိမ့်	-9.0311
▁အသင်းတော်	-9.03163
များပြား	-9.03268
▁လူအမျိုးမျိုး	-9.03353
တရှောက်လုံး	-9.03358
▁ဆင်ခြင်	-9.0341
▁ထာဝရဘုရားအဘို့	-9.03437
ဒေါ	-9.0347
မိမိ	-9.03603
ကူး	-9.03691
▁ဆင့်ဆိုရမည်မှာ၊	-9.0378
စေဟု	-9.0381
နှစ်ကောင်	-9.03816
▁မရောက်	-9.03821
တို့အဘို့	-9.03829
ရှေ	-9.03861
▁ဖန်ဆင်း	-9.0414
▁သူ၏သား	-9.04261
▁အခြားတပါးသော	-9.04293
တော်မမူပါနှင့်။	-9.04317
မှာထား	-9.0433
အိုး	-9.04465
▁မောဘ	-9.0448
▁ကိုယ်ကိုကိုယ်	-9.04525
▁မိုက်သောသူ	-9.04751
▁ဆင်းရဲ	-9.04755
ဆုံးမ	-9.04757
▁ငြိမ်သက်ခြင်း	-9.04773
နေ၏။	-9.04836
သောစကားကို	-9.04983
▁ပေါင်း	-9.05006
▁သားရဲ	-9.05029
တော်မူသည်ကို	-9.05149
ရှစ်	-9.05192
▁အကြံ	-9.05231
အသက်ကို	-9.05328
▁လင်	-9.0547
▁အိပ်မက်	-9.05538
▁ထို့ကြောင့်	-9.05545
ထိ	-9.05575
အမိ	-9.05616
▁မရှိ	-9.0574
သို့သွား၍	-9.05805
▁စေ	-9.05856
ခြင်းအကြောင်း	-9.05876
နင်း	-9.05916
▁ထိုနေ့၌	-9.06116
ရှေ့	-9.0638
▁ရှုတ်ချ	-9.06417
လိမ့်မည်	-9.06428
အမျိုး၊	-9.06429
▁သူကို	-9.06522
▁အပေါင်းတို့သည်	-9.0654
▁ဝန်	-9.06587
လျက်ရှိသော	-9.06713
ရှိသည်ဟု	-9.06713
ထို	-9.06717
▁ကောက်	-9.06719
▁ကျွန်တော်တို့	-9.06906
▁သူအပေါင်းတို့	-9.06907
နှင်ထုတ်	-9.07124
ငြိမ်း	-9.07135
▁ပို့ဆောင်	-9.07135
▁ချိုင့်	-9.07203
ရိုက်	-9.07224
▁ထိုပြည်	-9.07224
▁ရှောလုသည်	-9.07248
▁နိုင်ငံ	-9.07281
ကျင်	-9.07348
သန်	-9.07362
▁လမ်း၌	-9.07381
▁ရှောင်	-9.07383
▁ရှင်ဘုရင်၏	-9.07391
ခန်း	-9.07399
အလင်း	-9.07431
▁ဖ	-9.07436
▁လျှောက်လေ၏။	-9.07499
▁ဧလိယ	-9.07551
စုံ	-9.07668
ကလည်း	-9.07857
▁မောဘပြည်	-9.07887
▁မုန်း	-9.07902
နိုင်အောင်	-9.0792
▁အမျိုးအနွယ်	-9.0794
တာ	-9.07986
▁ကယ်နှုတ်	-9.08011
▁ဧသော	-9.08117
▁စင်ကြယ်	-9.08124
▁ချဉ်းကပ်	-9.08151
ရှိသည်အတိုင်း	-9.08288
ပြုစု	-9.0832
ခွဲ	-9.08324
မရှိသော	-9.08511
တယောက်ကို	-9.08523
င့်	-9.08548
▁အပြစ်ကို	-9.08631
ကြသောအခါ၊	-9.0866
▁ရေကို	-9.08703
▁ထိုမင်း	-9.08703
▁မထီမဲ့မြင်ပြု	-9.08751
ဖြစ်ပါ၏။	-9.08792
▁ရိုက်	-9.08878
ရဲ	-9.08944
ခရိုင်	-9.09016
▁သမုတ်	-9.09239
လာ၏။	-9.09274
▁ပြောဆို၏။	-9.0928
အတွင်း	-9.09288
▁ဤမြို့	-9.09314
လတံ့သော	-9.09364
▁ကျိန်ဆဲ	-9.09371
မနေ	-9.09383
▁ဂတိတော်	-9.09396
ခန္	-9.09424
▁သစ်ပင်	-9.09549
ကိုယ်တော်	-9.09612
ထူး	-9.09635
မုန်း	-9.09739
ခြင်းသို့ရောက်	-9.0976
လာသော	-9.09777
ပိ	-9.09856
ဝယ်	-9.099
သမျှကို	-9.09902
▁ချည်နှောင်	-9.09902
မဟုတ်။	-9.09904
ွေ	-9.09998
ဆိုင်	-9.10025
ဆိုလျက်၊	-9.10026
▁ပြင်းစွာ	-9.10071
▁လ	-9.10107
▁ယ	-9.10123
သက်	-9.10251
တထောင်	-9.1028
▁ရပ်	-9.1028
ဟေ	-9.10373
နှင်	-9.1045
▁ဤအရပ်၌	-9.10524
▁မြည်တမ်း	-9.10574
▁သိမ်း	-9.10629
လျက်နေ၏။	-9.10748
မျှော်	-9.10886
▁ဖြောင့်မတ်သော	-9.10949
နှစ်ပါး	-9.11053
မျက်နှာကို	-9.11077
▁????????	-9.11171
ယေရှု	-9.11181
▁ထိုအမှု	-9.11222
▁ကုလားကာ	-9.11223
▁မှာလိုက်	-9.11236
သံကို	-9.11262
အလုံးစုံ	-9.11277
မုန့်	-9.11336
ပူ	-9.11366
လ၊	-9.11375
▁ဘုရားကို	-9.11459
▁ဗျာဒိတ်တော်	-9.1148
▁ထိုအ	-9.1153
▁ငါသည်လည်း	-9.11532
မရှိရ။	-9.11534
ငါးဆယ်	-9.11608
▁အမွေခံ	-9.11613
အပေါ်	-9.11663
▁ကျွန်ခံ	-9.1168
▁ပွဲ	-9.11686
တံ	-9.11806
သည်ကို၎င်း၊	-9.11808
▁မောရှေနှင့်	-9.11958
▁ဥယျာဉ်	-9.11998
▁မည်ဟု	-9.12017
▁အုပ်	-9.12383
▁များ	-9.12612
သို့၎င်း၊	-9.12712
▁ကြံစည်	-9.12781
ခိုး	-9.13006
▁အမှီပြု၍	-9.13109
▁နှုတ်ဆက်	-9.13197
သည်တိုင်အောင်	-9.132
သည်ဖြစ်၍	-9.13244
ခက်	-9.13309
▁ဗာလ	-9.13353
▁စည်းစိမ်	-9.13377
▁ရှေ့ဦးစွာ	-9.13389
▁အရှေ့	-9.13428
▁လူအသက်ကို	-9.1352
▁ကြွ	-9.13594
▁ယူသွား	-9.13599
နာမ	-9.13631
▁သမုဒ္ဒရာ	-9.13631
မတ်	-9.13727
ွယ်	-9.139
▁ကြီးမြတ်	-9.13917
ကြပါ	-9.1398
▁မဟာ	-9.14003
▁ရှေ	-9.14043
▁ငြိမ်ဝပ်စွာ	-9.14094
ေး	-9.14237
▁ငါ့ရှေ့မှာ	-9.14268
▁မိန့်	-9.14314
▁အသေသတ်ခြင်းကို	-9.14364
▁ခရစ်တော်သည်	-9.14455
▁ရှောက်	-9.14526
▁အဝတ်ကို	-9.14532
▁ဆုံးရှုံး	-9.14608
အသွေး	-9.14628
▁ရှင်းရှင်း	-9.14759
မှစ၍၊	-9.14787
နက်	-9.14813
ယာ	-9.14862
ဝင်၍	-9.14862
ြ	-9.1498
▁အပေါင်းတို့	-9.15009
နှစ်ရာ	-9.15223
▁မစင်ကြယ်	-9.15224
ဟုဆို	-9.1525
▁ဆိုလေ၏။	-9.15277
မြို့နှင့်	-9.15408
▁အားဖြင့်	-9.15429
သောအမှု	-9.15463
ဤ	-9.15525
▁လိုက်၍	-9.15575
လောင်	-9.15673
၌လည်း	-9.15699
ဖြစ်သည်	-9.15717
လျက်ရှိကြ၏။	-9.15721
ထောင့်	-9.1576
▁နတ်ဆိုး	-9.15768
မြေကြီး	-9.15778
ထုတ်	-9.15795
ရိတ်	-9.15833
▁အရာကို	-9.15847
ခြင်းကိုခံရ	-9.15861
▁သုတ်သင်ပယ်ရှင်း	-9.15919
▁ထိုသူတို့ကို	-9.1597
စဉ်၊	-9.16009
ဆရာ	-9.16114
ဗိုလ်ခြေ	-9.16193
လူ၊	-9.16206
ချီ	-9.16212
ပူဇော်သက္ကာ	-9.16256
▁တရားကို	-9.16277
သိမ်း	-9.16399
ခါး	-9.16439
▁နံနက်	-9.16445
ချေ	-9.16446
အမည်	-9.16483
▁သွန်း	-9.16485
ရှောင်	-9.16496
ချင်သော	-9.16571
ထိုး	-9.16589
▁ရောက်သောအခါ၊	-9.16621
▁ဆင်းသက်သော	-9.16705
▁မှူးမတ်	-9.16767
▁ငါတို့၏	-9.16785
▁မုတ်ဆိုးမ	-9.16823
▁အဗရှလုံ	-9.16823
▁ခွန်အား	-9.16846
လက်ထက်	-9.1693
တို့ရှေ့မှာ	-9.16991
ပျက်စီးခြင်းသို့	-9.16997
▁ဟေဇကိ	-9.17009
▁၎င်း	-9.17013
ဖျား	-9.17115
ပျို	-9.17196
သောအမှုကို	-9.17217
▁ယုဒလူတို့	-9.17222
ရှက်	-9.17353
သောစိတ်	-9.17454
▁လွန်ကျူး	-9.17465
▁အချည်းနှီး	-9.17478
▁အသက်ကို	-9.17491
▁ထိုအတူ	-9.17577
လှုပ်	-9.17593
▁ဂိလဒ်ပြည်	-9.17682
▁ခိုလှုံ	-9.17739
▁ခြောက်	-9.17744
သောနေ့၌	-9.17745
ထဲ	-9.17889
▁ဘုန်းတော်	-9.17951
▁ဟူသော	-9.18145
မြို့မှ	-9.1815
ဘွား	-9.1818
▁ငါပြု	-9.18296
ချီးမြှောက်	-9.18482
မြင်လျှင်၊	-9.18499
▁ဗေ	-9.18533
▁ထိုအမှုကို	-9.18561
ဒေ	-9.18631
ည်း	-9.18635
▁မေးလျှောက်	-9.18875
▁လူကို	-9.18912
နီ	-9.18933
▁အိုဘုရားသခင်	-9.18948
▁စွန့်ပစ်	-9.19006
▁မီးလောင်	-9.19019
သည်ဖြစ်စေ၊	-9.19051
စွန်း	-9.19133
ပန်း	-9.19276
ခြင်းအမှုကို	-9.19447
▁သေတ္တာတော်	-9.19495
▁တန်ခိုးတော်	-9.19498
အခွင့်နှင့်	-9.19503
ပွဲ	-9.1952
သူရဲ	-9.19529
ပျက်စီး	-9.19717
ပိုင်သော	-9.19744
▁ဣသရေလအမျိုး၌	-9.19759
▁ဒါဝိဒ်၏	-9.19761
စိတ်နှလုံး	-9.19828
ဗာ	-9.19829
▁အစိုးရ	-9.19871
ဆေး	-9.19901
▁စေလွှတ်တော်မူ	-9.19946
အရပ်သို့	-9.19976
အလုံးအရင်း	-9.19981
မထား	-9.20008
▁ကောင်းကြီး	-9.20048
လမ်းကို	-9.20108
သူ၏	-9.20121
▁ဥပုသ်နေ့	-9.2013
နေ၍	-9.20175
▁ဗာ	-9.20229
သုံးယောက်	-9.20275
▁ဆင်းရဲသောသူ	-9.20317
အသီး	-9.20386
▁ပြုတော်မူ	-9.20498
▁ပြန်လျှောက်	-9.20511
▁ထိုသူ၏	-9.20546
▁မြင်ရ	-9.20568
ဘက်မှာ	-9.20582
▁အရပ်၌	-9.20582
▁ကိုင်	-9.20651
ကျန်	-9.20694
▁ခုနစ်	-9.20698
ထိုက်	-9.207
▁တိုင်ပင်	-9.20727
လေ့	-9.20746
▁ပျောက်	-9.20776
မှူး	-9.20793
ထပ်	-9.2085
▁ထွက်လာ	-9.20966
▁ဂုဏ်အသရေ	-9.21024
▁ကြီးသော	-9.21049
▁အမျိုးသားချင်း	-9.21103
▁ဒဏ်ခတ်	-9.21159
▁အမျက်	-9.21236
▁တွင်	-9.21272
ထောက်	-9.21281
▁မြွက်ဆို	-9.21327
▁ဆောက်	-9.21333
▁ဒုစရိုက်အပြစ်	-9.21507
▁ပေးတော်မူ၏။	-9.21554
အကြောင်းကို	-9.21641
▁ပစ်	-9.21642
▁အသေကောင်	-9.21695
▁ထိုသို့ပြု	-9.21794
▁သူတို့နှင့်	-9.21818
ပြား	-9.21854
▁ယေရုရှလင်	-9.21861
ပတ်လည်၌	-9.21966
▁မြတ်	-9.21987
ဘုရားသခင်၏	-9.22205
▁ညည်းတွား	-9.22386
▁စားသောက်	-9.22389
▁လွှမ်းမိုး	-9.22489
တေ	-9.22497
ဘက်သို့	-9.2253
▁ထိုမြို့၌	-9.22548
▁ခေါ်၍၊	-9.22665
▁အဆင်း	-9.22667
▁ပြန်ပြော၏။	-9.22709
▁မှန်	-9.22746
▁ယောရှုသည်	-9.2292
▁သက်သေ	-9.22933
▁ဗိမာန်တော်၌	-9.23056
မင်းသည်	-9.23095
▁ချီသွား	-9.23122
▁ရှု	-9.2313
ပေးသော	-9.23137
▁ဖြစ်လိမ့်မည်။	-9.23158
▁ပြည်သူပြည်သား	-9.23194
▁ပိတ်	-9.23225
နှုတ်ကပတ်တော်သည်	-9.23305
သားတော်	-9.23305
▁ဖါရောဘုရင်	-9.23397
ထိပ်	-9.23411
ကြပါစေသော။	-9.23487
ရေကို	-9.23505
▁မိန်းမသည်	-9.23505
မြို့ကို	-9.2354
ပြု၍၊	-9.23568
▁ညဉ့်	-9.23621
▁ထိုလူ	-9.23671
▁အသွေးကို	-9.23705
▁နေသော	-9.23728
အရိုး	-9.23737
နိုင်သနည်း။	-9.23807
▁ဆင်းရဲသား	-9.23832
▁အမှန်	-9.23846
▁လူသား	-9.2386
▁လူတို့	-9.23934
ငွေ	-9.23946
ဘုန်း	-9.23979
▁ထိုနည်းတူ	-9.24028
ဣ	-9.24031
တော်နှင့်	-9.24051
▁ဧလိ	-9.24094
ွဲ	-9.241
ယဇ်ပလ္လင်ပေါ်မှာ	-9.24253
▁အစိုးရသော	-9.24421
▁ဖြေ	-9.24543
▁လွှတ်လိုက်	-9.24551
▁အားကြီးသော	-9.2458
ခေါင်း	-9.24631
သောအားဖြင့်	-9.24673
ဥာဏ်	-9.24682
ကယ်တင်	-9.2472
ကြပါပြီ။	-9.24752
ခြင်းကိုခံ	-9.24757
▁ရှမွေလ	-9.24979
သန္	-9.24986
မည်လော။	-9.24993
▁သတ္တဝါ	-9.25051
▁မီးရှို့ရာ	-9.25098
သောသူတို့အား	-9.25195
ရွေ့	-9.25292
အိမ်ကို	-9.25445
▁ယေရှုက	-9.25645
▁တုန်လှုပ်	-9.25661
မျက်မှောက်၌	-9.25738
▁နံ့သာပေါင်းကို	-9.25957
▁မတွေ့	-9.25968
▁ပျက်	-9.25968
သနား	-9.26016
တော်မူသည်ဟု	-9.26221
▁ဒဏ်	-9.26274
ပြတ်	-9.26316
▁ပြင်းစွာသော	-9.26329
▁ကာလပတ်လုံး	-9.26441
▁ထိုမျှမက	-9.26451
တောင်းပန်	-9.2649
ပိုင်း	-9.26532
▁ထိုမင်းသည်	-9.26552
လျက်ပင်	-9.26599
စည်းစိမ်	-9.26615
▁ဤလူမျိုး	-9.26641
▁ကိုးစား	-9.26681
▁မသွား	-9.267
ခေါ်၍	-9.2674
ပါစေ	-9.26878
▁သားဦး	-9.2689
▁လူတိုင်း	-9.26911
ယေ	-9.27016
▁သိမြင်	-9.27095
▁တည်း။	-9.27104
▁အိမ်နီးချင်း	-9.27228
အမွေ	-9.27266
▁လှည့်စား	-9.27274
ရှင်း	-9.27281
▁ဆုံး	-9.27301
ဝမ်းမြောက်	-9.27337
ဟောင်း	-9.27349
▁ဝေး	-9.27365
ထမ်း	-9.27396
ပရောဖက်	-9.27475
ါ	-9.2754
▁ရန်သူတို့	-9.27586
တော်မူသည်	-9.27593
သန့်ရှင်း	-9.27593
အခန်း	-9.27689
သို့သွား	-9.27795
အခါ	-9.27811
▁ကာ	-9.27816
▁ပဌမ	-9.2786
▁ဤသူ	-9.27863
ဘာသာ	-9.27896
▁သက်ရောက်	-9.27931
▁တွင်း	-9.27963
▁ဆန့်	-9.27972
▁စေလွှတ်၍၊	-9.28078
▁အပင်	-9.28095
အဆွေအမျိုးအလိုက်	-9.28165
လက်ထက်၌	-9.2818
မရောက်မှီ	-9.28238
ျာ	-9.28257
ကြသည်ကို	-9.28262
ဖူး	-9.28309
အများ	-9.28359
▁ကူး	-9.28473
▁ယာကုပ်အမျိုး	-9.28628
▁ပေးလိုက်	-9.2868
သားမြေး	-9.28704
ခေါင်းပေါ်မှာ	-9.28734
ဟူ၍၎င်း	-9.28747
ရင်	-9.28748
လယ်	-9.28865
▁အဘို့	-9.28921
▁စစ်ကြော	-9.29063
▁သတည်း။	-9.29177
ခွက်	-9.29181
▁ငါတို့၌	-9.29243
နေ့ရက်	-9.29285
▁ကျွေးမွေး	-9.29426
▁ဝိညာဉ်တော်သည်	-9.29432
▁သေခြင်း	-9.29471
▁ကြွင်းသော	-9.29482
ချမ်းသာ	-9.2954
အမှု၌	-9.29548
သိတင်း	-9.29575
▁တတိယ	-9.29586
သွေးဆောင်	-9.29595
▁မုန့်ညက်	-9.296
အကြံအစည်	-9.29601
▁ရောက်ကြ၏။	-9.2964
ပါစေနှင့်။	-9.29679
▁ယေရှုကို	-9.29694
▁အနှစ်	-9.29728
ဆီသို့	-9.2973
▁အမွေ	-9.29733
လိုက်၍	-9.29795
▁နိမိတ်လက္ခဏာ	-9.29825
▁နှုတ်ဆောင်	-9.29848
▁အိပ်ပျော်	-9.29868
▁အပ်နှံ	-9.29905
▁အဲဂုတ္တုလူတို့	-9.29937
လက်ကို	-9.29945
သက်သေ	-9.29962
ကြသည်	-9.29963
ရထား	-9.30001
▁မြင်းစီးသူရဲ	-9.30051
နှမ	-9.30067
▁မြို့ကို	-9.30085
▁ဗာလမ်	-9.30097
အနား	-9.30193
ချိုင့်	-9.3031
▁အလို	-9.30327
ခိုင်မာ	-9.30465
နှင့်ပြည့်စုံ	-9.30529
▁မာန	-9.30558
၌ပါသော	-9.3061
▁ဧဝံဂေလိတရားကို	-9.30708
ကြွ	-9.30773
▁လောက	-9.30817
အစ်ကို	-9.30883
တံခါးဝ	-9.30898
အထဲ၌	-9.30954
ဆင်ခြင်	-9.31056
▁ထောက်	-9.31133
ငါ့ကို	-9.31157
ရွှေ	-9.31202
▁မြေကြီးကို	-9.31202
▁အမျိုးသားတို့	-9.31224
နန်းစံ	-9.31266
အသီးအသီး	-9.31274
▁အစရှိသော	-9.31292
▁အကျိုးကို	-9.31293
ရသောအခွင့်ကို	-9.31306
ပြင်ဆင်	-9.31312
▁ဘမ်းဆီး	-9.31316
အပြစ်ကြောင့်	-9.31351
နှင့်တူ၏။	-9.31449
ဆီဥ	-9.31494
သေး။	-9.31514
▁ခေါ်တော်မူ	-9.31587
▁ကွပ်မျက်	-9.31606
▁လောင်	-9.31723
ရှိသည်	-9.3173
ပြန်လျှင်၊	-9.31741
▁စားပွဲ	-9.31763
ထွက်သွား	-9.31894
▁အာရုန်နှင့်	-9.31923
▁မိမိကျွန်	-9.31934
▁ကျေးဇူးကို	-9.31969
▁ဤအမှုကို	-9.31974
ကု	-9.31988
အာရှုရိရှင်ဘုရင်	-9.31994
▁နားထောင်ကြလော့။	-9.32086
▁နေရာကျ	-9.32241
ုန်မြို့	-9.32274
▁သခင်သည်	-9.32403
ပြု၏။	-9.32473
▁အနံ	-9.32514
▁ဘုန်းအသရေ	-9.32654
ရှေ့တော်	-9.32673
▁ကုလားအုပ်	-9.32853
▁ညဉ့်အခါ	-9.32863
ထံမှာ	-9.32865
▁တပ်မှူး	-9.32878
၌၎င်း	-9.32903
ခြင်းရှိ၏။	-9.32919
များတို့	-9.32949
▁နောင်တရ	-9.32961
ယဇ်ပလ္လင်	-9.32998
စစ်ကြော	-9.33002
ကြားလျှင်၊	-9.33014
ထား၍	-9.33017
ဆုတောင်း	-9.33027
ဝမ်း	-9.33049
လော့	-9.33134
▁မြေမှုန့်	-9.3314
▁ငါနှင့်အတူ	-9.33319
▁ငါသိ၏။	-9.33335
▁အလုံးအရင်း	-9.33367
▁ပြုရမည်။	-9.33369
သင်၏	-9.33375
▁မေ့လျော့	-9.3342
▁ထိုစကားကို	-9.3343
▁ပူဇော်ရမည်။	-9.33485
▁အရိုး	-9.33694
သူငယ်	-9.3376
▁ယခုမူကား	-9.338
▁ပေါက်	-9.33805
မင်္ဂလာ	-9.33831
▁လူသားသည်	-9.33844
ရာ၌	-9.33942
▁ဝှက်ထား	-9.34075
▁တံပိုးမှုတ်	-9.34262
တ္တိ	-9.34262
အောက်မေ့	-9.34368
▁အာဗြံ	-9.34517
အင်္ကျီ	-9.34519
▁မော်ဒကဲ	-9.34519
အပိုင်းအခြား	-9.34519
ဝံ့	-9.34534
ပေးတော်မူသော	-9.34593
▁တို့	-9.34596
ခန့်ထား	-9.34615
▁မဝင်	-9.34682
တိရစ္ဆာန်	-9.34701
သီး	-9.34754
▁အဘယ်မှာ	-9.34768
▁အတွင်း	-9.34788
▁အမြဲ	-9.34801
▁ယုံ	-9.34857
▁သို့ဖြစ်လျှင်	-9.34888
အဝင်	-9.34971
သမျှအတိုင်း	-9.35013
▁လယ်	-9.3504
ရှိသောသူ	-9.35042
▁ဆေး	-9.35051
▁ဒါဝိဒ်ကို	-9.3515
န့်	-9.35154
ကြသလော။	-9.35157
ကြပြီဟု	-9.35235
အထဲက	-9.35297
▁ငါတို့အား	-9.35305
တို	-9.35311
▁စုံလင်	-9.35327
▁ကျမ်းစာ	-9.35329
▁လည်	-9.35377
▁သေတ္တာ	-9.35382
ဒုစရိုက်	-9.3539
▁အသက်ရှင်တော်မူ	-9.35409
ကလေး	-9.35454
သည်ထက်	-9.35456
▁အမျက်ထွက်	-9.35467
▁မိမိသား	-9.35482
နု	-9.35495
လတံ့။	-9.35522
သေး၏။	-9.35552
▁ခံယူ	-9.35579
▁သည်းခံ	-9.35634
▁သင်္ချိုင်း	-9.35726
ပြောဆို	-9.35765
လျှင်၎င်း၊	-9.35792
မြွက်ဆို	-9.35815
▁တိတ်ဆိတ်စွာ	-9.35843
နည်းဟု	-9.35845
ရှိရမည်။	-9.35932
သင်တို့သည်	-9.35992
????????	-9.36037
ထံမှ	-9.36062
ရာသို့	-9.36092
▁ဖြစ်တော်မူ၏။	-9.36093
▁ထိုအရာ	-9.361
အမျက်	-9.36136
ဆိုလျှင်၊	-9.3616
ငိုကြွေးမြည်တမ်း	-9.36167
ခြုံ	-9.36223
ကျယ်	-9.36232
▁နေ့တိုင်း	-9.36263
▁ခံရမည်။	-9.36271
ဆင်းရဲ	-9.36288
ရှာ၍	-9.36327
▁လျှင်၊	-9.36327
▁ဆင်း	-9.36352
ပါ၏ဟု	-9.36363
▁??????????????	-9.36376
ရှိသည်ကို	-9.36417
အိပ်	-9.3644
▁ဝင်စား	-9.36484
▁မြင့်သောအရပ်	-9.36549
ရှိလျှင်၊	-9.36549
ကဲ့ရဲ့	-9.36559
မြော်လင့်	-9.36561
သစ္စာ	-9.36565
▁အလျှင်းမ	-9.36577
ဖြစ်စေခြင်းငှါ	-9.36633
▁စွန့်	-9.36636
▁ရွာ	-9.36672
ပါလော့။	-9.36728
▁ကြည့်ရှုလော့။	-9.36734
ဟန်	-9.36802
▁စိတ်ရှိ	-9.36821
မလိုက်	-9.36823
▁ဗိုလ်ခြေ	-9.36888
▁စကားတော်ကို	-9.36994
▁မစား	-9.37019
▁ကောင်းကင်ဘုံ၌	-9.37075
▁မပြော	-9.37081
မိုး	-9.37101
▁ယခုတွင်	-9.37116
▁နေကြ	-9.37156
▁ရိတ်	-9.37163
လောဟု	-9.37171
▁မနာရှေ	-9.37185
မြေကို	-9.37266
▁ရိုသေ	-9.37325
ရေး	-9.37336
▁ဝယ်	-9.37371
▁ငါ၏လူ	-9.37383
နှင့်အညီ	-9.37505
▁အကျွန်ုပ်တို့၏	-9.37615
ဆင်း	-9.37741
▁အရပ်ရပ်	-9.37746
▁အလုံးစုံတို့ကို	-9.37753
လှည့်	-9.3776
▁စပျစ်ရည်ကို	-9.37823
သောအရာတို့ကို	-9.37908
▁တကွ	-9.37939
▁ယေရု	-9.3796
နှစ်သက်	-9.37986
ကြပါ။	-9.38016
စကားသည်	-9.38089
▁ယာကုပ်သည်	-9.38107
ပြန်၏။	-9.38144
▁တောင်ပေါ်မှာ	-9.3825
ဖြေ	-9.3827
▁ထွက်၍	-9.38276
မပြတ်	-9.38306
ရှုံး	-9.38312
▁ပိတ်ချော	-9.38337
▁တဆယ်	-9.38352
ထည့်	-9.38356
ယာကုပ်	-9.38381
နေ့တွင်	-9.38392
ဆောင်ရွက်	-9.38539
မိုက်	-9.38562
ရပ်နေ	-9.38578
▁သခင်ဘုရား၏	-9.38723
လမ်းဖြင့်	-9.38801
အကြောင်းကြောင့်	-9.38874
▁သတိပြု	-9.38908
ပြန်ပြော	-9.38927
▁ပြုကြ၏။	-9.38985
▁ဧလာဇာ	-9.39034
မက်	-9.39088
စက်	-9.39119
▁လေဝိ	-9.39194
▁နေ၏။	-9.39231
▁ရဲတိုက်	-9.39246
နှစ်တွင်	-9.39268
▁ကုန်း	-9.39371
ပါလျက်	-9.39416
ငြိမ်	-9.39528
▁ပလ္လင်	-9.39546
▁သွန်းလောင်း	-9.39601
ရောက်သောအခါ၊	-9.39614
▁ဒံယေလ	-9.39672
ဟာယယဇ်	-9.39708
ဟာယဖွဲ့	-9.39724
▁ယုဒလူတို့သည်	-9.39757
▁သိုထား	-9.39763
▁မလိုက်	-9.39794
သောသူဖြစ်၏။	-9.3987
▁သူသည်လည်း	-9.39942
အချိန်၌	-9.39981
▁ငါစေလွှတ်	-9.40067
ထု	-9.40068
▁လူများတို့အား	-9.4013
▁ယေဟု	-9.40203
ပြုသောအမှု	-9.40255
▁ချိုး	-9.40279
▁ကြွလာ	-9.40337
▁သာ	-9.40366
▁မိန်းမောတွေဝေ	-9.40369
▁ခြင်း	-9.40386
▁အသက်ကြီးသူ	-9.40504
ပညတ်	-9.40517
▁ပူဇော်သက္ကာကို	-9.4053
▁ဘေးဥပဒ်	-9.4064
လူမျိုး	-9.40677
▁ရှေး	-9.40712
▁တည်းခို	-9.40959
အသံကို	-9.40996
▁?????	-9.41181
▁လက်ဝါးကပ်တိုင်	-9.41185
ဝိညာဉ်တော်	-9.41197
ဟူ	-9.41229
မယူ	-9.41272
မဝင်	-9.41275
ကြသည်ဟု	-9.41278
တပါးတည်း	-9.41367
လုပ်၍	-9.41434
▁ကျင်လည်	-9.41479
▁လမ်းခရီး	-9.41486
ခံထိုက်	-9.41492
▁ထိုပြည်၌	-9.41511
▁ခေါ်၍	-9.41537
သည်ရှိသော်၊	-9.41546
▁ယောဘ	-9.41589
တော်မူသောအခါ၊	-9.41627
▁ဧဒုံပြည်	-9.41651
▁ရွေးနှုတ်	-9.41681
▁နေရာချ	-9.41706
ယုံကြည်ခြင်း	-9.41743
ပေးတော်မူ	-9.41788
▁စီရင်တော်မူ	-9.41795
ခြင်းအလိုငှါ	-9.4187
ခြောက်ဆယ်	-9.41965
ယုံကြည်	-9.4208
ကျိန်	-9.42095
▁ထားဖြင့်	-9.42126
နှစ်ခု	-9.42205
အမိန့်တော်	-9.42254
▁စိုက်	-9.42394
ရာ၊	-9.42444
ကျွမ်း	-9.42452
အမြစ်	-9.4246
▁မိက္ခာ	-9.42479
▁အမှုတို့ကို	-9.42516
▁ထားဘေး	-9.42552
ကေ	-9.4256
▁မေးလျှင်၊	-9.42566
တော်မူပြီဟု	-9.42662
▁အရေ	-9.42712
စွန့်	-9.42847
သားဖြစ်သော	-9.43185
▁အသီးသီး	-9.43194
▁သိတင်း	-9.43215
▁ပြုသော	-9.4322
ကြဲ	-9.43223
နှ	-9.43252
အရှိန်	-9.43281
▁မတရားသဖြင့်	-9.43338
▁ထပ်၍	-9.43349
▁စိတ်ပျက်	-9.43392
အသားကို	-9.43392
▁ယောရှဖတ်	-9.43466
လွှဲ	-9.43539
မစား	-9.43539
▁ပူဇော်သော	-9.43606
သူတို့သည်	-9.43621
ဖိ	-9.43654
▁အလိုတော်	-9.43689
▁???????	-9.43726
ဖြစ်တော်မူ	-9.43732
▁တန်ခိုးကြီး	-9.43815
▁စိုးရိမ်	-9.43823
တပါး၊	-9.43878
▁ချီ	-9.43927
▁ငွေကို	-9.43945
ဆောက်	-9.44014
▁စိုးစံ	-9.44022
▁ပဌနာပြု	-9.44032
ရွှင်လန်း	-9.44032
နှိုးဆော်	-9.44037
သောနောက်၊	-9.44051
မပေး	-9.4413
▁ကွဲပြား	-9.4427
▁တံပိုး	-9.44275
▁ရှင်	-9.44309
▁လှည့်လည်	-9.44409
▁အစ်ကို	-9.44434
▁ဖြိုဖျက်	-9.4447
▁ခံရလိမ့်မည်။	-9.44496
▁အာသ	-9.44526
ရကြလိမ့်မည်ဟု	-9.44551
အကျင့်ကို	-9.44582
▁များစွာ	-9.44584
ဖြစ်၏ဟု	-9.44642
▁မိုက်	-9.44708
ရမည်နည်း။	-9.44794
▁ခါနာန်ပြည်	-9.44812
▁အံ့ဩ	-9.44866
ယုဒ	-9.44937
▁နေဗုခဒ်နေဇာ	-9.44938
▁ထိုမှတပါး	-9.45049
▁အမှုအရာ	-9.4507
နှင့်၎င်း	-9.45092
▁ဖာရောဘုရင်	-9.45119
▁ကိုက်စား	-9.45125
▁မြင့်သော	-9.4513
ဖြန်း	-9.45149
▁တစုံတယောက်	-9.45163
▁အပြည်ပြည်	-9.45164
ရှေ့သို့	-9.45223
▁ပြည်တန်ဆာ	-9.45244
ဟာယ	-9.45247
ဖါ	-9.45282
▁ပေါလုသည်	-9.45344
▁ရောက်လိမ့်မည်။	-9.4539
အိပ်ရာ	-9.45398
ပြင်မှာ	-9.45409
▁မတည်	-9.45469
နိုင်ရာ။	-9.45557
ွင်း	-9.45566
ဘိုးဘေး	-9.45639
နည်းတူ	-9.45644
▁ရန်သူတို့ကို	-9.4565
အတောင်	-9.45695
သောစကား	-9.45724
▁အမျက်တော်	-9.45769
မြွက်	-9.4584
▁စက်ဆုပ်ရွံရှာ	-9.45864
▁အသေခံ	-9.45884
တော်မူသည်အတိုင်း	-9.45887
ရမည်လော။	-9.45936
ဖန်ဆင်း	-9.45988
ကြံစည်	-9.4599
မ္မလူ	-9.45992
▁မတရားသောသူ	-9.46102
မပြော	-9.46114
တန်း	-9.46149
▁နို့	-9.46158
▁ဟူမူကား၊	-9.4619
▁နှောင့်ရှက်	-9.46204
▁မဟုတ်	-9.46244
▁အိုး	-9.46265
ကြောင်းကို၎င်း၊	-9.46289
▁လေဝိသားတို့သည်	-9.46366
▁ခေါ်ဝေါ်	-9.46405
▁သခင်၏	-9.46432
လူတို့ကို	-9.46449
▁ပေါ်ထွန်း	-9.46459
▁ဂေါ	-9.46499
▁ငြင်းပယ်	-9.46533
▁မိဒျန်	-9.46627
▁ကျက်စား	-9.46726
▁အသက်ကြီးသူတို့	-9.46781
▁ဤလောက	-9.46807
▁သီး	-9.46809
▁ငါပေးသော	-9.46845
▁ဝ	-9.4686
နိုင်ကြ။	-9.46887
▁ဝင်၍	-9.46904
▁ဘွား	-9.46926
▁ယောသပ်သည်	-9.46941
ထာဝရ	-9.46957
▁သစ်သား	-9.46971
▁ခြင်းငှါ	-9.46987
ကြော	-9.47002
▁ယဇ်ပလ္လင်ကို	-9.47021
တော်မူကြောင်းကို	-9.47021
▁အမြင့်ဆုံးသော	-9.47036
▁တယောက်မျှ	-9.47064
▁ခဏ	-9.47066
▁ငါမှာထား	-9.47132
နွယ်	-9.47156
ဘုရားသခင်သည်	-9.47202
ဦးချို	-9.47203
မှီတိုင်အောင်၊	-9.47244
▁ဤအရပ်	-9.4729
▁ရေတွက်	-9.47294
ပါလော့ဟု	-9.47366
ခုံ	-9.47438
ယဇ်ပုရောဟိတ်မင်း	-9.47493
နှင့်သူ၏	-9.47497
▁ဆက်ဆံ	-9.47508
▁အခန်း	-9.47615
သားအပေါင်းတို့	-9.47728
ဘော်ပြ	-9.47743
▁နက်ဖြန်နေ့၌	-9.47758
▁ငါ၏နာမ	-9.47792
▁ဗိမာန်	-9.47908
▁ပြောင်းလဲ	-9.48117
စိုက်	-9.48193
သားကား၊	-9.48264
▁မြို့သား	-9.48336
▁အာဏာ	-9.48341
▁ကြားရ	-9.48389
သောအားဖြင့်၊	-9.48442
မြင်သော	-9.48444
ရှိသော်	-9.48456
ဘိ	-9.48489
▁လက်နက်	-9.48514
▁မော	-9.48592
ရောင်း	-9.48646
အလွန်	-9.48734
▁ရွှေငွေ	-9.48752
▁အခွင့်ရှိ	-9.48769
အနီးသို့	-9.48787
စဉ်အခါ၊	-9.48864
▁ယေရှုခရစ်၏	-9.48877
သမား	-9.48898
▁ချို	-9.48906
ရောက်လာ	-9.48913
ဝါ	-9.48922
▁ရှိသမျှ	-9.48951
ပွါး	-9.48958
▁တရားသူကြီး	-9.48958
▁နောဧ	-9.48966
▁ရန်ဘက်ပြု	-9.48976
▁အဘ၏	-9.48991
▁ထင်မှတ်	-9.48997
▁ဆုတ်	-9.49044
စုဝေး	-9.49155
▁အခွင့်ပေး	-9.49172
▁လက်ခံ	-9.49189
အောက်မှာ	-9.49282
▁လူစု	-9.4934
အသွေးကို	-9.49358
▁အမိန့်တော်ရှိ	-9.49372
▁ခိုင်ခံ့	-9.49419
▁ငယ်	-9.49479
▁ကောင်းကင်ဘုံ	-9.49538
မဆို	-9.49588
▁ချမ်းသာပေး	-9.49595
▁ယူခဲ့	-9.49706
ဇေ	-9.49795
▁ရှက်	-9.49827
ရှင်ဘုရင်သည်	-9.49908
နှိမ့်ချ	-9.49962
ကွဲပြား	-9.50032
မီးရှို့	-9.50056
▁အရာ၌	-9.5008
သားတို့တွင်	-9.5009
ဖလား	-9.50132
▁အဦး	-9.50169
▁???????????????	-9.50192
မှု	-9.50212
ရိမ်	-9.50231
▁စစ်ချီ	-9.50253
▁ကိုယ်တော်က	-9.50265
▁အပေါင်းတို့ကို	-9.50454
▁ငြိမ်ဝပ်	-9.50523
▁လျှောက်ကြ၏။	-9.50568
အားကြီး	-9.50651
သောအပြစ်	-9.50737
▁တတ်နိုင်	-9.50766
▁ဣသရေလလူတို့သည်	-9.50789
▁ကုန်	-9.50802
▁ပေါင်းဘော်	-9.50807
ဒု	-9.50819
ကြကုန်အံ့ဟု	-9.50919
▁စားခန်းချကြ၏။	-9.50919
▁ရည်မှတ်၍	-9.5092
ထရံ	-9.50924
▁သွေးဆောင်	-9.50968
▁ဗက်	-9.50974
▁တမန်	-9.50984
▁ငါကြား	-9.50987
ငါ၏	-9.51004
မျိုးစေ့	-9.51023
▁နောက်မှ	-9.51054
▁ဖြောင့်မတ်စွာ	-9.51059
တင်၍	-9.51087
▁ထူးဆန်းသော	-9.51087
ွား	-9.51123
▁သစ်	-9.51172
ကြ၍၊	-9.51172
▁အားကြီး	-9.51195
သွားရာလမ်း	-9.51219
မောင်	-9.51264
▁အိုဣသရေလအမျိုး	-9.51266
▁ငါအပ်	-9.51272
▁သားကို	-9.51427
အမ္မုန်အမျိုးသား	-9.51463
▁အမျက်ထွက်၍	-9.51468
များကိုလည်း	-9.51473
▁ဝမ်းမြောက်ခြင်း	-9.51483
▁သနည်း။	-9.51517
▁လျှောက်လျှင်၊	-9.51543
▁တော်မူ	-9.51553
နေကြ၏။	-9.51581
ဖြောင့်မတ်	-9.51581
အမျိုးသားချင်း	-9.51609
ခဲ့ပြီ။	-9.51681
▁ဖလား	-9.51682
▁စီရင်ထုံးဖွဲ့	-9.51718
▁ပြုကြ	-9.51726
▁ရှိသတည်း။	-9.51727
ဆိုသည်အတိုင်း၊	-9.51758
▁များပြား	-9.51806
▁ဆင်းရဲခြင်း	-9.51881
ိညာဉ်ကို	-9.51904
▁သင်တို့သိ	-9.51942
သောသဘော	-9.52067
တမန်	-9.52068
▁မုန့်ကို	-9.52097
ယဇ်ပုရောဟိတ်	-9.5211
စိတ်ကို	-9.52132
▁အမွေခံရ	-9.52148
▁ခင်ပွန်း	-9.52325
မေးလျှင်၊	-9.52445
▁မြက်ပင်	-9.52521
စိုးစံ	-9.52558
▁အကျွန်ုပ်၌	-9.52611
မြို့မှာ	-9.52665
▁မြင်၍	-9.52669
▁ပေးတော်မူသော	-9.52792
▁နားမလည်	-9.52846
▁ဆူးပင်	-9.52919
▁တကျွန်းတနိုင်ငံ	-9.52919
▁စင်စစ်	-9.52921
▁ရှိမုန်	-9.52921
မလုပ်	-9.52958
လိုက်သော	-9.53026
▁မြို့ရွာ	-9.53034
▁မူပါ။	-9.53151
သဘောကို	-9.53151
ရသောအခွင့်	-9.53164
စေခြင်းငှာ၊	-9.53165
▁လက်ျာ	-9.53254
▁မိမိအဝတ်ကို	-9.53281
▁သွား၍၊	-9.53356
လင်း	-9.53382
▁အဘယ်သို့ပြု	-9.53488
▁လှည့်	-9.53515
▁မင်းသား	-9.53557
ေါ	-9.53572
အဘယ်	-9.53606
▁ကယ်	-9.53694
▁အာရှုရိ	-9.53695
ကျော်	-9.53735
တော၌	-9.53767
ကိုခေါ်၍၊	-9.53772
▁အရာတို့ကို	-9.53815
ငွေကို	-9.53873
▁အရှင်ဘုရား	-9.53875
▁ကယ်တင်ခြင်း	-9.53877
တော်အားဖြင့်	-9.53881
▁အစွမ်းသတ္တိ	-9.53927
အခ	-9.54008
▁ကျမ်းစာလာ	-9.54024
▁ကြယ်	-9.54061
နံ	-9.54133
ရှောလမုန်	-9.54252
ပို့	-9.54274
မသွား	-9.54332
▁အာဟပ်	-9.54347
ထိုက်သော	-9.54383
ဝန်ခံ	-9.54388
ဝပ်	-9.54396
▁ဣသရေလပြည်	-9.54421
ပါလိမ့်မည်။	-9.54432
▁တိုင်းနိုင်ငံ	-9.5444
▁ထည့်	-9.54467
အဆင်း	-9.54519
▁ဆိုးသော	-9.54538
ခြင်းသည်	-9.54562
ောင်း	-9.54564
▁ထိုမိန်းမသည်	-9.54566
လေးရာ	-9.54567
▁ကြွတော်မူ	-9.54579
▁တမန်တော်	-9.54626
သန့်ရှင်းသော	-9.54678
▁ငါတို့ဘုရားသခင်	-9.54697
▁ဖွင့်	-9.54739
န္န	-9.54814
▁ည	-9.54825
▁ရွေးကောက်	-9.54826
အချို့တို့သည်	-9.54827
▁မှီ	-9.54898
လက်ဖြင့်	-9.54954
▁ဂိ	-9.54956
▁ခုနစ်ရက်	-9.54959
▁ရောဗောင်	-9.5496
▁ဖါရောမင်း	-9.5496
▁အနတ္တ	-9.5496
▁မှည့်	-9.54962
▁စကားတော်	-9.54965
▁တယောက်ကိုတယောက်	-9.54976
▁တရားစရပ်	-9.54994
▁နောက်ဆုံး	-9.55034
▁အခါ	-9.55076
▁ကယ်လွှတ်	-9.55085
စေတော်မူပါ။	-9.55114
▁ပေတရုသည်	-9.55152
အပြစ်ဖြေခြင်းကို	-9.5518
▁ဇေ	-9.5523
ရာမှ	-9.55299
▁စတုတ္ထ	-9.55319
ရလိမ့်မည်ဟု	-9.55354
▁ပလ္လင်တော်	-9.55374
▁လိုက်ကြ၏။	-9.55396
မှတပါး၊	-9.55413
▁မြဲမြံ	-9.55463
▁တိုင်း	-9.55494
အဆွေ	-9.55618
▁မနေ	-9.55641
▁ဖြန့်	-9.5578
▁ခွဲ	-9.55782
▁ခါး	-9.55843
▁ထင်	-9.5588
တပည့်	-9.559
ထာဝရဘုရား၏	-9.55954
▁ဇာခရိ	-9.5596
▁အချို့တို့သည်	-9.55999
▁အောက်	-9.56024
ကြွတော်မူ	-9.56136
▁စင်ကြယ်စေ	-9.56161
▁အလျား	-9.56164
▁??????	-9.56222
ရှိသနည်း။	-9.5627
မေးမြန်း	-9.5642
သွန်သင်	-9.56421
မင်း၏	-9.56436
မောရှေ	-9.56445
▁ရှမာရိ	-9.5656
တကောင်	-9.56655
▁သုံးရက်	-9.56663
▁အခြားသောသူ	-9.56688
တဖန်	-9.56726
ဌာန	-9.56766
မလာ	-9.56816
တွင်း	-9.56859
တသောင်း	-9.56889
▁ခေရုဗိမ်	-9.56899
▁အစာကို	-9.56957
▁ရှလင်မြို့	-9.57044
တော်မူစေသတည်း။	-9.57083
ကျေးဇူး	-9.57092
▁ဆွဲ	-9.57097
▁သေတ္တာတော်ကို	-9.57114
▁သစ္စာစောင့်	-9.57136
စေသဖြင့်၊	-9.57136
▁တောင်ပေါ်	-9.57139
ပြောဆို၏။	-9.57166
ဖြစ်စေမည်။	-9.57265
နည်း။	-9.57319
▁ထင်း	-9.57337
အနွှယ်	-9.5736
သောသူနှင့်	-9.57379
အမျိုးမျိုးတို့	-9.57386
သားတို့၊	-9.57464
ွန်း	-9.5751
နောက်၌	-9.57515
မြင်း	-9.57569
▁အကြင်	-9.57601
▁ထိုဘုရား	-9.57625
ဲ၊	-9.57649
▁ဖြောင့်	-9.57658
မပျက်	-9.57734
▁လာကြ	-9.57808
ထား၏။	-9.57835
▁သူတို့က၊	-9.57838
▁စပျစ်ဥယျာဉ်	-9.57882
ရှိပါ၏။	-9.57942
ပေးလိုက်	-9.58092
ချိုး	-9.58103
▁တင်ထား	-9.58156
▁စိတ်နှင့်	-9.58187
▁ယူ၍၊	-9.58215
▁အရှက်ကွဲ	-9.58292
▁လုပ်လေ၏။	-9.58292
နန်း	-9.58334
ရပြီ။	-9.58341
▁ကိုယ်အဘို့	-9.58405
ပေး၍	-9.58409
▁ငါဆို	-9.58456
ကောင်းသော	-9.58522
ကြီးသော	-9.58555
▁သူနှင့်	-9.58587
▁ပုံ	-9.58594
အပ်သော	-9.58597
စပျစ်ရည်	-9.58638
▁ဇိအုန်မြို့	-9.58657
▁ဤမည်သော	-9.58662
▁သင်တို့နှင့်အတူ	-9.58673
ဖြစ်ကြ	-9.58723
▁ဥစ္စာကို	-9.58726
▁ဇ	-9.58746
လိမ့်မည်နည်း။	-9.58763
▁ပြောဆိုကြ၏။	-9.58789
ပါသော	-9.58863
▁ရောက်၍၊	-9.59129
▁ရှံဆုန်	-9.59171
▁ခုနစ်ရက်ပတ်လုံး	-9.5919
အရပ်တို့၌	-9.59272
▁ချောင်း	-9.59297
ကျောင်း	-9.59341
▁သင်တို့အဘို့	-9.59344
နှစ်နှစ်	-9.59349
တော်မူထသော၊	-9.59354
▁ဖန်ဆင်းတော်မူ	-9.59381
▁ပင်ပန်း	-9.5942
▁မမူ	-9.59454
▁ထင်ရှားစွာ	-9.59511
▁တစုံတခု	-9.59513
တော်မူသနည်း။	-9.59576
အမည်ရှိ၏။	-9.59593
▁ဘုရင်	-9.59698
▁မြွက်ဆို၏။	-9.59711
▁ယခုပင်	-9.59741
ကန်	-9.59828
▁နာမ	-9.59829
ကွဲ	-9.59834
▁နားထောင်၍	-9.59856
မရှိဟု	-9.59908
▁ငါ့ကျွန်	-9.5996
မသိ။	-9.60067
စမ်း	-9.60081
▁အာရုန်သည်	-9.60113
▁နိုး	-9.60136
▁ဆိုလျှင်၊	-9.60149
▁အများ	-9.60255
▁ဖိလိတ္တိလူ	-9.60307
အလယ်	-9.60328
ပါမည်	-9.6033
ပြုမူသော	-9.60363
▁မြို့တံခါး	-9.60382
▁ချွတ်	-9.604
▁အကြောင်းအရာ	-9.60454
▁နည်း	-9.60485
▁စားစရာ	-9.60488
စင်ကြယ်	-9.60513
▁မွေ့လျော်	-9.60546
▁သူတို့သည်လည်း	-9.60568
ရှိလျှင်	-9.60584
အတွင်း၌	-9.60618
ဣသရေလ	-9.60627
ပွဲကို	-9.60721
▁ဖုံးအုပ်	-9.60787
▁အကြောင်းကို	-9.6079
▁သိုးနွား	-9.60803
▁မသောက်	-9.60878
မှန်လျှင်	-9.60995
စပါး	-9.60999
▁အလုပ်	-9.61045
▁ခွန်အားကြီးသော	-9.61088
▁ဟေဗြုန်မြို့	-9.61088
▁ဗိမာန်တော်သို့	-9.61203
▁ယောက်	-9.61267
ပတ်ဝန်းကျင်	-9.61272
သူတို့ကို	-9.61274
တင့်တယ်	-9.61287
ဂဒ်	-9.61334
ဥပမာ	-9.61341
▁ရာခေလ	-9.61345
▁ရုပ်တုဆင်းတု	-9.61345
▁ပေါ်မှာ	-9.61363
▁ကင်	-9.61368
▁ရှင်ဘုရင်ကို	-9.6137
▁မူကား၊	-9.61372
▁ဦးခေါင်း	-9.61376
▁ကျန်ကြွင်း	-9.6138
▁မေးသော်၊	-9.61388
တစုံတခု	-9.6143
▁ဒ	-9.61454
ဗ္ဗ	-9.61474
▁ခိုင်ခံ့သော	-9.61479
တကာတို့	-9.61497
▁လောင်း	-9.61569
ကိုယ်တိုင်	-9.61585
▁အထွ	-9.61634
နဲ	-9.61642
ွေ့	-9.6166
▁မြစ်ရေ	-9.61698
နိုင်သလော။	-9.61709
စပ်	-9.61722
▁ပရိသတ်အပေါင်း	-9.6193
တော်မူပါစေသော။	-9.61936
ကြ၏ဟု	-9.61997
ရှိသတည်း။	-9.62002
မြင်၍	-9.62028
တိုင်အောင်၊	-9.62053
သောသူအား	-9.62105
▁တဘက်၌	-9.62105
▁ပြည့်	-9.62151
▁မယုံ	-9.62266
▁လော။	-9.62271
▁သူတို့တွင်	-9.62327
ကိုင်လျက်	-9.62329
▁ပဌနာ	-9.62409
▁အာဗနာ	-9.62412
▁ဆင်းသက်	-9.62446
၏သမီး	-9.62475
▁ဖြတ်	-9.62505
နေ့၊	-9.62536
ညဉ့်	-9.62686
အဘ၏	-9.62708
▁တည်စေ	-9.62725
▁ကြွယ်ဝ	-9.62828
ပလ္လင်	-9.62861
▁အမျက်တော်ကို	-9.62863
▁ရှိသမျှတို့ကို	-9.62936
▁ဆိုင်သော	-9.62937
စေတော်မူမည်။	-9.62957
▁မယ်တော်	-9.6299
▁ငါမြင်	-9.63031
▁ပရောဖက်ပြု	-9.63045
ရပါ၏။	-9.63106
▁မီးခွက်	-9.63134
▁မှန်သော	-9.632
ပေါလု	-9.63242
▁ရောက်လာ၍၊	-9.63301
▁သိမ်းသွားခြင်း	-9.63352
သည်နည်းတူ၊	-9.63368
ကိုးစား	-9.63385
ရောက်စေ	-9.63413
ချက်တို့ကို	-9.63428
ရှိသည်ဖြစ်၍၊	-9.63457
▁ဟစ်ကြော်	-9.63527
▁ဣရှမေလ	-9.63567
▁ဧသတာ	-9.63567
ပျံ	-9.63606
▁အလိုလို	-9.63621
▁သိုးစု	-9.63749
ပြင်သို့	-9.63901
နှစ်ယောက်တို့သည်	-9.63945
ခင်	-9.64052
▁သင်တိုင်း	-9.64076
▁ဗာလဘုရား	-9.64096
▁အပြစ်ဖြေရာယဇ်	-9.64105
▁ဆိုင်	-9.64119
▁အထပ်ထပ်	-9.64198
▁တရားတော်	-9.64207
▁ဒမာသက်မြို့	-9.64245
အော်ဟစ်	-9.64309
▁ငြိမ်းစေ	-9.6438
▁ဘမ်း	-9.64445
တမျိုး	-9.64449
အရပ်၊	-9.64464
▁အသံကို	-9.64486
▁ရှက်ကြောက်	-9.64499
ရေး၍	-9.64527
▁ကြိုး	-9.64546
▁ဒဏ်ပေး	-9.64577
▁အာမောရိ	-9.64602
▁အမှုတော်	-9.64662
▁ဆိုးသောသူ	-9.64781
▁ဆရာ	-9.64795
ဇော	-9.6481
▁နှစ်ဆယ်	-9.64847
▁နှုတ်ယူ	-9.64884
▁ဘုန်းကြီး	-9.6491
▁သေခြင်းမှ	-9.64993
▁အပြစ်ဖြေရာ	-9.65081
▁ငါ့အဘို့	-9.65085
▁ဂိလဒ်	-9.65108
▁တယောက်တည်း	-9.65129
ကြသော်၊	-9.65168
▁ထိုနည်းတူ၊	-9.6523
▁ခြားနား	-9.65237
ပါသနည်း။	-9.6524
အမှန်ဆိုသည်ကား၊	-9.65244
ရှေ့မှ	-9.65247
သုံးရာ	-9.65298
နှောင့်ရှက်	-9.6539
ကြသနည်းဟု	-9.65452
▁ကျိန်းဝပ်တော်မူ	-9.65504
▁စိတ်ဝိညာဉ်	-9.65541
▁အထံတော်၌	-9.65552
အကြံ	-9.65564
▁လှံ	-9.65612
ရှိသည်အတိုင်း၊	-9.65761
အရွယ်	-9.65804
▁အထူးသဖြင့်	-9.6584
▁လာဗန်	-9.65841
▁ဇိဒုန်	-9.65841
▁ဟာမန်	-9.65893
▁မြေကြီးစွန်း	-9.65904
▁ဟိတ်	-9.65911
▁ချုပ်ထား	-9.65917
ပြုပြင်	-9.65933
အနန္တတန်ခိုးရှင်	-9.65963
ရက်မြောက်သောနေ့၌	-9.65976
▁မေထုန်	-9.66
လေးပါး	-9.6605
▁ကြံ	-9.66055
လှဲ	-9.66063
▁အသား	-9.66124
ခုတ်	-9.66134
▁မြှား	-9.66169
▁တကျိပ်	-9.66275
▁ပေါ်လာ	-9.66373
▁အလိုတော်ရှိ	-9.66401
▁လှုပ်ရှား	-9.66404
▁ထက်	-9.66412
တော်မူသည်ဖြစ်၍၊	-9.6642
သေးသော	-9.6644
တို့သည်လည်း၊	-9.66458
ကြွလာ	-9.66475
မလွတ်	-9.66487
▁အားထုတ်	-9.66502
▁ရေတွင်း	-9.66568
▁သင်နှင့်အတူ	-9.66575
ကြားရ	-9.66649
အရပ်မှ	-9.66717
တံခါးဝ၌	-9.6676
▁ကျော့ကွင်း	-9.66839
▁ဆ	-9.66922
စေတတ်၏။	-9.6693
▁လွင်ပြင်	-9.66938
ကြည့်၍	-9.6722
သို့၎င်း	-9.67397
▁ဤရွေ့ကား၊	-9.67428
▁ဒါဝိဒ်နှင့်	-9.67495
▁ရှ	-9.67513
သက်သက်	-9.67514
ကျိုး	-9.67533
နာမကို	-9.67557
▁သတိပေး	-9.67636
▁တပ်ချ	-9.67642
အပေါင်းတို့အား	-9.67648
▁သူတို့နှင့်အတူ	-9.67726
ပြေး၍	-9.67736
▁ဇိအုန်တောင်	-9.67761
သတို့သမီး	-9.67768
ာတော်	-9.67795
တော်မူခြင်းကို	-9.67797
ပြန်၍၊	-9.67825
▁လက်ကို	-9.67858
▁သိုး၊	-9.67861
ပို	-9.67869
ိညာဉ်တရား	-9.67887
ပါနှင့်။	-9.67887
▁ရဲရင့်	-9.67914
လဲ၍	-9.6797
▁ဒုက္ခ	-9.67974
▁အဘိမလက်	-9.67983
မင်္ဂလာကို	-9.68001
▁တိုင်တည်၍	-9.68017
▁သွားကြ၏။	-9.68026
▁အမိန့်	-9.68057
▁ခပ်သိမ်းသောအရာ	-9.68074
ကောင်းကင်တမန်	-9.68078
▁မျက်နှာကို	-9.68095
▁ရန်သူတို့သည်	-9.68102
ငြင်း	-9.68139
ဝိုင်း	-9.6814
▁နောက်တော်သို့	-9.68146
▁မူသော	-9.68163
▁ဤမျှလောက်	-9.68165
▁ဂိဗာမြို့	-9.68166
▁သံတမန်	-9.68194
▁အဘိ	-9.68217
▁သက်သေခံချက်	-9.68265
မှပြောင်း၍	-9.68275
ဖန်	-9.68301
ဖြစ်လေ၏။	-9.6831
ခွ	-9.68315
▁ကိုယ်တော်၏လူ	-9.68329
လေသော်၊	-9.6835
▁ငါပေး	-9.68351
သိမြင်	-9.68358
▁ခမည်းတော်သည်	-9.68477
▁စုံဘက်	-9.68573
▁မယုံကြည်	-9.68675
ဖြောင့်မတ်ခြင်း	-9.68697
▁လုပ်၍	-9.68756
▁တဖန်တုံ	-9.68857
▁ယဇ်ကောင်	-9.68891
မဖြစ်	-9.68913
မထွက်	-9.68928
တတ်ပါ၏။	-9.69103
သိမ်းယူ	-9.69122
▁ဘတ်	-9.69137
▁အာဇ	-9.69278
▁အစဉ်အမြဲတည်	-9.69294
ဆိုကြ၏။	-9.693
▁ရှမာရိမြို့	-9.69352
▁တိတ်ဆိတ်စွာနေ	-9.69353
▁မိမိလူ	-9.69358
▁အိုင်	-9.69504
စကားသံကို	-9.69508
▁ရွေးကောက်တော်မူ	-9.69533
▁မပေး	-9.69609
▁အခွန်	-9.69724
ခြင်းကို၎င်း၊	-9.69732
▁ဒါဝိဒ်မင်းကြီး	-9.69754
▁ထားနှင့်	-9.69879
မြို့ရိုး	-9.6989
ပါစေဟု	-9.69905
တော့ဟု	-9.69961
▁ရှိသမျှတို့သည်	-9.69974
▁ရှုံး	-9.69984
အားဖြင့်၎င်း၊	-9.70012
အလိုသို့	-9.70087
▁ကိုယ်တော်အား	-9.70147
▁ဆုံးမဩဝါဒပေး	-9.70217
▁လူအစုအဝေး	-9.70315
▁တန်တိုင်း	-9.70315
▁လူများတို့	-9.70327
▁ရေလ	-9.70328
ကျွေး	-9.70335
အသံနှင့်	-9.70339
စေခြင်း	-9.70361
▁ကိုယ်တော်နှင့်	-9.70366
ပေါင်းကား	-9.70373
▁ဣသရေလလူ	-9.70408
▁နက်ဖြန်နေ့	-9.70454
▁အာန	-9.70513
▁ဩဇိ	-9.70546
▁ဟေဗြဲ	-9.70546
▁ကွယ်ကာ	-9.70549
ဥယျာဉ်	-9.7055
▁ဆက်ဆက်	-9.70599
▁ရှိသမျှသော	-9.70602
လေးဆယ်	-9.70611
▁ကြွလာတော်မူ	-9.70641
▁လှေ	-9.70659
တို့ထံသို့	-9.70661
ယခု	-9.70669
ျ	-9.7069
နေ၍၊	-9.70695
▁ရေကန်	-9.70712
▁အဆွေ	-9.70722
▁ပြစ်မှားသော	-9.70727
တစုံ	-9.70754
သားတို့အား	-9.70772
▁သွန်းလောင်းရာ	-9.70776
▁သူတို့အဘို့	-9.70802
ပေါက်ဘော်	-9.70819
စားစရာဘို့	-9.70836
ဒန်	-9.70857
▁ဂါလိလဲပြည်	-9.70889
▁တွေ့မြင်	-9.70905
ကျပ်	-9.70934
ရုံ	-9.70934
နိုင်ငံတော်	-9.70936
နိ၊	-9.70938
ာန်	-9.71065
▁ကြားသိ	-9.71088
▁ကိုယ်တော်တိုင်	-9.71104
ရေးထား	-9.71134
ကူ	-9.71143
▁ကိုယ်တော်၌	-9.71198
ပေါင်းဘော်	-9.71209
▁ကြိုးစားအားထုတ်	-9.71224
▁ဂေ	-9.71241
▁အနည်းငယ်	-9.71262
အမှုအရာ	-9.71313
မဲ့	-9.71327
တ်မြို့	-9.71389
အရောင်	-9.7144
တောင်ပေါ်မှာ	-9.71476
▁ဧည့်သည်	-9.71492
▁မြေ၌	-9.71506
အစ	-9.71523
▁မတရားသောသူတို့	-9.71534
▁အိမ်တော်ကို	-9.71598
▁ပြု၍	-9.7164
အားဖြင့်၊	-9.71667
▁ဖြင့်	-9.71679
ဝတ်ကို	-9.71687
စကားအားဖြင့်	-9.71722
▁တည်ကြည်	-9.71842
▁ထိုပြည်ကို	-9.71945
ရပ်လျက်၊	-9.72035
▁အံ့ဘွယ်သော	-9.72086
▁ပကတိ	-9.72091
မှာထားတော်မူ	-9.72133
သူသည်	-9.72182
▁လုပ်သော	-9.72228
▁အသေ	-9.72268
လောင်း	-9.72306
▁တော်သည်	-9.72429
ချီးမွမ်းကြလော့။	-9.72543
အရင်	-9.72623
ကြွ၍	-9.72624
သင့်ကို	-9.72688
အမှုတို့ကို	-9.72695
ပင်၊	-9.72727
▁အမြစ်	-9.7276
▁ရှောလမုန်သည်	-9.72831
▁မြို့နယ်၊	-9.72859
▁နန်းစံ	-9.72904
ပညတ္တိကျမ်း	-9.72985
▁ထိမိ၍	-9.72985
▁ယဇ်ပုရော	-9.72985
▁ရွေးချယ်	-9.72985
လျှို	-9.72985
စွမ်း	-9.72987
ဘုံဗိမာန်	-9.72988
▁ဖြစ်ရမည်။	-9.73033
စောင်	-9.73057
▁ဖြစ်ကြ	-9.73075
ပြစ်	-9.73075
တကျိပ်	-9.73125
လုပ်ကြံ	-9.73127
▁မုသာစကားကို	-9.73128
▁ခမည်းတော်အရာ၌	-9.73131
စာရင်း	-9.73141
▁သိမှတ်	-9.73148
▁မစားရ။	-9.73148
စုံလင်	-9.73155
▁ထိုအကြောင်းအရာ	-9.73181
▁ကြားလျှောက်	-9.73205
ဆန့်	-9.73209
ရှိကြ	-9.73217
နှုတ်ဆက်	-9.73242
ကာလပတ်လုံး	-9.73243
▁သန့်ရှင်းခြင်း	-9.73285
ခဲ့ပြီးသော	-9.73315
▁ဧဒုံ	-9.73385
▁ငါမြင်၏။	-9.7339
စရပ်	-9.73394
▁အသက်ရှင်သော	-9.73408
▁ထိုအရပ်မှ	-9.73443
ရကြမည်ဟု	-9.73462
စေခြင်းငှာ	-9.73521
▁ငါစီရင်	-9.73566
▁ထိုကာလ	-9.73588
ငါသည်	-9.73641
▁ဆည်းကပ်	-9.73719
▁မီးရှို့ရမည်။	-9.73751
လျှာ	-9.7377
တယောက်မျှ	-9.73776
▁ဇာတိပကတိ	-9.73807
သဏ္	-9.73814
▁ဗတ္တိဇံကို	-9.73839
▁ဆန့်ကျင်ဘက်ပြု	-9.7385
ရှေ့၊	-9.73867
ပေးမည်။	-9.73895
ဘွားသော	-9.73936
▁ယခုမှစ၍	-9.73967
▁ယုဒပြည်၌	-9.73976
မည်နည်းဟု	-9.7398
▁ရုဗင်အမျိုး	-9.74028
▁ဗေသလမြို့	-9.7403
သင်သည်	-9.74167
သင်္ချိုင်းတွင်း	-9.74168
▁ကြိုးစား၍	-9.74175
▁နှံ့ပြား	-9.74187
တကောင်၊	-9.74193
ဟာန	-9.74196
လှသော	-9.74202
▁ဥပုသ်နေ့၌	-9.74224
▁အာရှ	-9.7424
သောအရပ်၌	-9.74258
ပြည်သား၊	-9.74277
သားများ	-9.7432
တခါ	-9.74338
▁သစ္စာတော်	-9.74407
▁ရုဗင်	-9.74427
▁ဇာဒုတ်	-9.74441
▁ကွယ်ပျောက်	-9.74442
ဖတ်	-9.74474
▁သမ္မာတရား	-9.74532
▁မှီဝဲ	-9.74613
▁မြေကြီးသား	-9.74613
▁သီချင်း	-9.74618
▁ရှေ့မှာ	-9.7468
▁ကြည့်ရှု၍	-9.74708
▁အပြစ်ဒဏ်	-9.74748
▁ခံရကြ၏။	-9.74789
▁မေးတော်မူလျှင်၊	-9.74831
▁ဧလိရှဲ	-9.74896
▁အသီးကို	-9.74909
ငါးယောက်	-9.74933
▁ထိုင်နေ	-9.75016
စေ၍	-9.75021
များစွာ	-9.7508
▁မြင်လျှင်၊	-9.75116
▁နင်း	-9.75153
▁ပြုမိ	-9.75197
တို့လည်း	-9.75216
▁ရှေခင်မြို့	-9.7524
▁မောရှေ၏	-9.75247
▁ယေရိခေါမြို့	-9.75254
▁ကျင့်သောသူ	-9.75291
ံ၊	-9.75296
▁ရောက်၍	-9.75318
ာကို	-9.75357
စေတော်	-9.7542
မုန့်ကို	-9.75438
ဆွေးနွေး	-9.75485
ကိုယ်ကို	-9.75642
အမျက်ထွက်	-9.75646
ထိန်း	-9.75701
ငိုကြွေး	-9.75718
ဆံပင်	-9.75722
သေတ္တာ	-9.75743
▁တောင်မျက်နှာ	-9.75745
▁ကင်း	-9.75749
ဝါကြွား	-9.75758
▁မီးဖြင့်	-9.75766
▁ဣသရေလနိုင်ငံ	-9.7577
တန်တိုင်း	-9.75804
▁ရှက်ကြောက်ခြင်း	-9.75805
▁ခါလဒဲ	-9.7581
လက်ခံ	-9.75819
ရာအရပ်၌	-9.75821
ရပ်၍	-9.75841
အရိပ်	-9.75877
▁ကျိန်ခြင်း	-9.75925
ဆူ	-9.75927
▁အမြင့်	-9.75948
ထွေး	-9.75951
မ္မအမှုကို	-9.76004
ကြားမှာ	-9.7603
မရှိပါ။	-9.76063
▁အနှံ့အပြား	-9.76068
ပါသည်တကား။	-9.76083
▁ငါဆိုသည်ကား	-9.76084
▁ငါပေးမည်။	-9.76094
▁မျက်	-9.76128
▁တစုံတယောက်သောသူ	-9.76134
▁သင်တို့အဘ	-9.76141
▁အာရ	-9.76141
▁ပြည်၌	-9.76169
▁နှစ်ယောက်	-9.76246
အဘို့အလိုငှါ	-9.76285
▁မကြောက်	-9.76358
ရွှေ့	-9.76397
များကို၎င်း၊	-9.764
▁သလော။	-9.76481
▁အဘယ်မျှ	-9.76502
ကြောက်မက်ဘွယ်သော	-9.76553
▁ဇာ	-9.76637
ပြပ်ဝပ်	-9.76639
▁ကြားလျှင်၊	-9.76645
▁ရွံရှာဘွယ်	-9.7669
▁ကြာမြင့်စွာ	-9.76718
▁မာရိ	-9.76718
မပြုရ။	-9.76724
အရှေ့ဘက်	-9.76766
▁အဘယ်အရာ	-9.76773
အမျိုးသားတို့ကို	-9.76823
အများတို့သည်	-9.76829
တော်မူမည်ဟု	-9.76856
▁မမြင်	-9.76936
▁တိုက်တွန်း	-9.76979
ပညတ်တရား	-9.77043
▁မကြား	-9.77088
▁ဝိုင်း၍	-9.77113
▁အကြီးအကဲ	-9.77148
▁ယစ်မူး	-9.7724
လုလင်	-9.77275
ကာလ၊	-9.77321
▁ကျွန်ုပ်သည်	-9.77327
▁အသက်ကြီး	-9.77366
▁အမ္မုန်	-9.77461
နှစ်ဘက်	-9.77524
ငါတို့	-9.77539
သောကြောင့်၎င်း၊	-9.77569
ဘဲနေ၏။	-9.77672
သောသူအပေါင်းတို့	-9.77736
တို့အပေါ်မှာ	-9.77742
▁တတ်၏။	-9.7776
လွ	-9.77812
တရားသည်	-9.77812
မက	-9.77818
ရာတွင်	-9.77831
ရောနှော	-9.7784
သွားကြ၏။	-9.77936
အစဉ်အဆက်	-9.7798
နှစ်လုံး	-9.77984
▁အရိပ်	-9.77997
▁ညဦး	-9.78034
ယောယဒ	-9.78038
▁ဟုတ်မှန်	-9.7805
▁သူတို့ရှေ့မှာ	-9.78081
▁ဣသခါ	-9.78084
စပ်ကြားမှာ	-9.78106
▁ညဦးတိုင်အောင်	-9.78111
▁မီးခိုး	-9.78114
▁နားမထောင်ဘဲ	-9.78146
▁တံခါးစောင့်	-9.78172
မြို့သားတို့သည်	-9.78225
ရှိတော်မူ	-9.78231
ခမည်းတော်	-9.78294
▁အမင်္ဂလာရှိကြ၏။	-9.78347
▁အဘယ်သို့သော	-9.78358
▁အစ	-9.78393
▁ဗိုလ်ခြေအရှင်	-9.78435
ခိုင်ခံ့	-9.78441
ထမြောက်	-9.78455
စစ်သူရဲ	-9.78493
▁သင်၏သား	-9.78514
▁တရားတော်ကို	-9.78539
ရှိသမျှသည်	-9.78585
▁ယခုတိုင်အောင်	-9.78602
ကြိုးစား	-9.78604
ချေး	-9.78638
▁ပျော်မွေ့	-9.7868
▁သားတို့သည်	-9.78701
▁စစ်ကြောစီရင်	-9.78706
▁လက်နှင့်	-9.78787
▁သွားလေ၏။	-9.78829
▁အားနည်း	-9.78912
တွေ့၍	-9.78925
▁သင့်ရှေ့မှာ	-9.78926
ခံရ၏။	-9.78959
ရှိတော်မူ၏။	-9.78964
▁စစ်ချီ၍	-9.78973
စီရင်သော	-9.78979
များစွာသော	-9.78982
▁ပြပ်ဝပ်လျက်	-9.78993
▁နည်း။	-9.79034
ရုပ်	-9.79064
ရာ။	-9.7909
▁လှံတံ	-9.79103
ဘွားမြင်	-9.79164
▁မီးဖို	-9.79181
ခဲ့သော	-9.79188
ကြွင်း	-9.79243
▁ထိုနေ့ရက်	-9.79317
ကြပါလိမ့်မည်။	-9.7936
လိုသော	-9.79387
ပြောင်း	-9.79411
▁မိမိအိမ်	-9.79417
▁အနာရောဂါ	-9.7943
ကောင်ကို	-9.79456
စိတ်ဝိညာဉ်	-9.79519
▁တမန်တော်တို့	-9.79633
ထာဝရဘုရားသည်	-9.79664
▁အကြံရှိ	-9.79697
မြေတွင်း	-9.79747
▁ငါ့လက်	-9.79761
ခေါင်းကို	-9.79803
မျိုး၊	-9.79928
ပညာရှိ	-9.79944
ပြန်လေ၏။	-9.7998
▁ထိခိုက်	-9.79986
သူ၊	-9.80039
လှ၏။	-9.80062
▁စားရ	-9.80077
▁ပြန်ပေး	-9.80116
အလောင်း	-9.80133
▁ပြည်တော်	-9.80217
ကြသည်ဖြစ်၍၊	-9.80221
မသေ	-9.80233
▁ဒါဝိဒ်အား	-9.8024
ရလိမ့်	-9.80278
ကောင်း၏။	-9.80302
ဝင်သော	-9.80308
ခန့်	-9.80377
▁ခုနစ်နှစ်	-9.80468
▁အကျွန်ုပ်အား	-9.80491
▁လက်မှ	-9.80496
▁ဘိုးဘေးများ	-9.8052
စွာသော	-9.80671
▁ပုရောဟိတ်	-9.80681
္ဌမ	-9.80681
▁တကား။	-9.80683
အဆွေအမျိုးသူကြီး	-9.80683
▁ဖြစ်ပါ၏။	-9.80684
▁မရဏာနိုင်ငံ	-9.80684
▁ခုတ်လှဲ	-9.80688
▁ဆက်ကပ်	-9.80722
▁အပ်တော်မူ	-9.80739
အသီးကို	-9.80746
သည်မှန်လျှင်၊	-9.80753
သွား၏။	-9.80756
▁ပွဲခံ	-9.80771
စေမည်ဟု	-9.80773
▁မြောက်မျက်နှာ	-9.80792
ငါတို့သည်	-9.80795
▁မြေကို	-9.80799
သိ၏။	-9.80867
ခြောက်ရာ	-9.80907
▁မြွေ	-9.80914
ညှိ	-9.80923
▁အသီးအနှံ	-9.80934
ခြင်	-9.80944
လိုက်ကြ၏။	-9.81007
▁စကားပြော	-9.81008
▁ရာဇပလ္လင်	-9.81034
▁မှည့်လေ၏။	-9.81057
သွားသော	-9.81106
တဝက်	-9.81112
▁ခုတ်	-9.8115
ထံသို့သွား၍	-9.81151
ကြနှင့်ဟု	-9.81174
▁အဘသည်	-9.81178
ကြသော်လည်း၊	-9.81191
ပါမည်အကြောင်း	-9.81199
ပါလျက်၊	-9.8122
▁မကောင်း	-9.81232
စိတ်နှင့်	-9.81257
▁မင်းပြု	-9.81269
လျက်နေကြ၏။	-9.81287
▁တညီတညွတ်တည်း	-9.813
▁ဘိုးဘေးတို့၏	-9.81306
▁မအောက်မေ့	-9.81306
▁လာ၍၊	-9.81349
ချိုင့်၌	-9.8136
▁ခေါ်ခဲ့	-9.81412
မြည်း	-9.81413
▁ထိုကျောက်	-9.81421
ဆီး	-9.81457
▁ဒါဝိဒ်ကလည်း၊	-9.81475
လက်နက်	-9.8149
ပင်လယ်	-9.81518
လုယူ	-9.81563
တစုံတယောက်မျှ	-9.81593
အဲဂုတ္တုပြည်သို့	-9.81608
▁ပို့	-9.81656
ထွာ	-9.81728
▁ဖာရိရှဲ	-9.81813
▁တုရုမြို့	-9.8183
▁မိမိနေရာ	-9.81843
▁သူတပါးတို့သည်	-9.81904
အပြစ်တင်	-9.81932
ကိုယ်အလိုအလျောက်	-9.81958
▁နွားသငယ်	-9.8198
▁မတ်	-9.8198
▁ထိတ်လန့်	-9.81981
▁ဗျာဒိတ်	-9.81996
ကြီးစွာသော	-9.82075
▁ဗိမာန်တော်ကို	-9.82101
အမျိုးသားတို့	-9.82104
ဆိုသော်လည်း၊	-9.82128
▁ဘာသာစကား	-9.82153
တော်မူမည်	-9.82161
အရေ	-9.82164
ထာဝရဘုရား၊	-9.82207
ငါးရာ	-9.82238
▁တိုးပွား	-9.823
ရှိပါ	-9.82331
သားကို	-9.82392
▁အင်္ဂါ	-9.82396
ဝေဒနာကို	-9.82462
▁သတိ	-9.82492
တွေ့လျှင်၊	-9.82519
နှင့်တူ	-9.82551
▁လွှင့်	-9.82576
▁သက်	-9.82612
ထုံးစံ	-9.82629
တော်မူသောသူ	-9.82641
အလိုက်	-9.82714
▁ငါ့အမျက်	-9.82747
လတံ့	-9.82785
မစီရင်	-9.82806
▁အဆွေခင်ပွန်း	-9.82814
ဆိုင်သော	-9.82849
▁အနောက်	-9.82859
အကြံကို	-9.82869
ို့	-9.82884
▁ယောရှ	-9.82935
▁မြင်လေ၏။	-9.8301
တပည့်တော်တို့အား	-9.83076
▁အရှင်ထာဝရဘုရား၏	-9.83091
ပေး၏။	-9.83124
▁ဆံပင်	-9.83128
ကျေးဇူးတော်ကို	-9.83156
၏ကျွန်	-9.83173
ငတ်မွတ်	-9.83184
ကြည့်ရှု၍	-9.8324
အိမ်ထောင်	-9.83241
▁ခံရသောသူ	-9.83324
▁ပြည့်စုံသော	-9.8337
▁ဖိလိပ္ပု	-9.83384
▁ခွေး	-9.83384
▁အပြစ်မပါသော	-9.83385
▁စိရ	-9.83387
▁ခါးပန်း	-9.83398
▁ရှော	-9.83459
▁ပညာကို	-9.83487
▁အဘယ်သူကိုမျှ	-9.83496
န္	-9.83518
▁ရှေ့	-9.83518
▁မိဖုရား	-9.8353
ခုနစ်ယောက်	-9.83532
▁တာ	-9.83534
လေရာရာ၌	-9.83562
▁ဇိ	-9.8362
အလိုမရှိ	-9.83627
▁ကောင်းမြတ်	-9.8364
ဖောက်	-9.83709
ငှါး	-9.83778
▁ညစ်ညူးစေ	-9.83794
မည်လောဟု	-9.83869
▁လယ်လုပ်	-9.83876
▁ဘုရား၊	-9.8389
မြည်	-9.83901
မြို့ရွာ	-9.83909
▁လောတ	-9.83961
အသေကောင်	-9.83971
▁မျိုး	-9.83973
▁မတရား	-9.83978
စဉ်အခါ	-9.83989
▁ပြေး၍	-9.8399
▁ထင်ရှားစေ	-9.84015
အုပ်စိုး	-9.84027
လှန်	-9.84049
သွားလော့။	-9.84058
ဣသရေလအမျိုး	-9.84067
ခရစ်တော်	-9.84084
ကရုဏာ	-9.84095
စုံစမ်း	-9.84107
အကောင်	-9.84122
▁ထောက်၍	-9.84144
ရဲတိုက်	-9.84149
အဘယ်ကြောင့်	-9.84194
တကားဟု	-9.84197
▁တော်၌	-9.84203
▁ခံရ၏။	-9.84248
သာလျှင်	-9.84256
မပြုဘဲ	-9.84267
လူဆိုး	-9.84306
▁လု	-9.84343
▁စပါးကို	-9.84456
▁မြို့နယ်	-9.84489
ဖြစ်သောကြောင့်၊	-9.84536
တို့ရှိရာသို့	-9.84625
▁မျက်နှာပြု	-9.84627
▁အစာ	-9.84632
▁သုတ်သင်	-9.84715
ခွဲထား	-9.84719
▁လွန်	-9.8473
▁ကယ်တင်ခြင်းသို့	-9.84856
ကုန်း	-9.849
▁နှိပ်စက်	-9.84906
နှောင်	-9.84949
သမီးတို့	-9.84959
အံ့သောငှါ၊	-9.84964
▁ညှိုးငယ်	-9.85048
နှစ်သောင်း	-9.8512
နှင့်စပ်ဆိုင်	-9.85121
▁ငါးဆယ်	-9.85139
အစာ	-9.85141
▁နက်နဲသော	-9.85175
စေတော်မူပြီ။	-9.85182
▁ပယ်ဖြတ်	-9.85183
▁ရှိပါ၏။	-9.8523
ပတ်လည်	-9.85257
▁နောက်သို့	-9.85273
▁ညစ်ညူး	-9.85297
ဆင့်	-9.85404
▁တိုက်ယူ	-9.85444
▁ရှိတော်မူ	-9.85553
▁ကောရ	-9.85574
▁ရူပါရုံ	-9.85575
▁မသတ်	-9.85669
ခြ	-9.85731
ကပင်	-9.85741
ထောက်၍	-9.85752
စေရမည်။	-9.85755
ခေါ	-9.85811
▁ပါ၏။	-9.85816
▁ရှိတော်မူ၏။	-9.85926
စီရင်တော်မူ	-9.85935
စွန့်ပစ်	-9.86002
▁ရေလအမျိုး	-9.86027
▁မိန့်တော်မူသော	-9.86103
ဆိုသတည်း။	-9.86135
▁ဘုရားသခင်အား	-9.86152
▁သက္ကာ	-9.86162
မြစ်တား	-9.86163
▁ရောက်လေ၏။	-9.86173
▁ကျွေး	-9.86181
နှင့်အမျှ	-9.86182
▁ပြီးစီး	-9.8619
▁ချီလွှဲ	-9.86198
▁အရာရာ၌	-9.86224
သနည်း	-9.86265
▁သခင်ယေရှု	-9.86271
▁ဤသူတို့	-9.86293
▁ရှုရိရှင်ဘုရင်	-9.86294
▁ကြွင်း	-9.86296
စို့	-9.86315
▁ဣသရေလအမျိုးသည်	-9.86339
▁ထာဝရဘုရားဖြစ်၏။	-9.86381
▁ထိုအရပ်	-9.86457
▁မစင်ကြယ်။	-9.86484
သင်တို့ရှိရာသို့	-9.86517
မျိုးကို	-9.86524
ကဲ့သို့ဖြစ်၏။	-9.86544
▁အပ်ပေး	-9.86618
က္က	-9.86619
ခင်ပွန်း	-9.86622
အမည်ကား	-9.8663
▁စည်း	-9.86699
▁စောင်း	-9.86735
တို့၌၎င်း၊	-9.86776
သားဦး	-9.86787
တစုံတခုကိုမျှ	-9.86825
▁သူတယောက်	-9.86952
အကြွင်းမဲ့	-9.86987
အပေါင်းအဘော်	-9.86999
လွှင့်	-9.87005
▁ချဉ်းကပ်၍	-9.87008
ရှုတ်ချ	-9.8703
နှင့်လွတ်	-9.87032
ခုနစ်ဆယ်	-9.87058
▁ကျွန်တို့သည်	-9.87068
▁လှည့်ဖြား	-9.87103
ပေါ်ထွန်း	-9.87105
ကျော	-9.8714
▁ခြင်းငှါ၊	-9.8717
▁စင်ကြယ်သော	-9.87179
ပြည်သားတို့	-9.87249
▁ကြိုးစား	-9.87323
▁သူနှင့်အတူ	-9.87385
တော်မူ၏ဟု	-9.87389
▁မဖြစ်	-9.87459
မိုဃ်းရွာ	-9.87464
▁ဆု	-9.87511
မျက်စိကို	-9.87512
ျေလ	-9.87527
ကြိုးကို	-9.87547
တည်သော	-9.87557
▁သင်တို့နှင့်	-9.8756
ဒ္ဒ	-9.8756
▁ငါသိ	-9.8756
ဆပ်	-9.87663
အဘယ်သူ	-9.87668
တယောက်တည်း	-9.87732
ဗိမာန်တော်	-9.87736
နောက်မှာ	-9.87789
စေကြ၏။	-9.87857
အတွက်ကြောင့်	-9.87907
များ၌	-9.87917
▁ထမ်းဘိုး	-9.87943
အပင်	-9.87952
▁လုပ်ဆောင်	-9.88033
▁ယောက္ခမ	-9.88119
▁မြို့တော်	-9.88147
အချို့တို့ကို	-9.8815
▁အပေါင်းအဘော်	-9.88165
ရသနည်း။	-9.88271
ရသောအချိန်	-9.8828
ဆန်	-9.88291
တက်၍	-9.88305
ရှိပါစေသော။	-9.88316
▁မဟုတ်။	-9.88356
▁တို့နှင့်	-9.88412
▁စ၍	-9.88427
ဘယ်မျှကာလပတ်လုံး	-9.88439
▁လိုက်သွား	-9.88471
▁အရပ်ရပ်သို့	-9.88491
ကျင့်သော	-9.88555
▁လျောင်း	-9.88562
▁ပြာ	-9.88592
ဗေရ	-9.88659
▁အကြီး	-9.88715
သားတို့၏	-9.88735
စေသတည်းဟု	-9.88757
လျောက်	-9.88801
သုံးဆောင်	-9.8884
▁အံ့ဩဘွယ်	-9.8886
▁သစ္စာဂတိ	-9.88874
▁ကာလ၌	-9.88892
▁ယောဟန်သည်	-9.89003
▁မျက်နှာတော်ကို	-9.89012
▁ကမ္ဘာအဆက်ဆက်	-9.89019
ငြူစူ	-9.89019
▁ကျန်းမာ	-9.89019
▁စောစော	-9.89019
▁မေရာရိ	-9.89019
▁ရေငတ်	-9.89019
▁ဟေလသ	-9.89019
▁လျောက်ပတ်	-9.89019
▁ထိုသိတင်းကို	-9.89029
▁တံဆိပ်ခတ်	-9.89031
ရှင်းလင်း	-9.89033
▁သွားလာ	-9.89043
ဆွတ်	-9.89043
▁အာမင်။	-9.89069
▁နှင်း	-9.89073
အစ်မ	-9.89078
အလံ	-9.89083
▁လျှောက်သော်၊	-9.89156
▁နတ်	-9.89176
▁နံ့သာပေါင်း	-9.89191
▁နှုတ်ကပတ်တရား	-9.8924
ရမည်ကို	-9.89252
▁သက်သေဖြစ်	-9.89263
▁ဟေဇကိမင်း	-9.89283
သည်နောက်၊	-9.89284
မန်	-9.89289
▁ဇေဒကိ	-9.8929
▁အမင်္ဂလာရှိ၏။	-9.89363
▁အာရုန်၏	-9.89365
ဆဲ	-9.89372
သို့ရောက်၍	-9.89409
▁နိုင်	-9.89417
▁ငါ့နောက်သို့	-9.89451
ပြန်လာ	-9.89461
▁ငါ့ခမည်းတော်	-9.89474
▁ရိုက်ထား	-9.89483
ဗတ်	-9.89506
▁မီးလျှံ	-9.89539
▁မြို့၌	-9.89545
▁အခါမလည်သော	-9.896
▁ထိုလူမျိုး	-9.89608
လမ်းမှ	-9.8963
နေရာသို့	-9.89648
▁သန့်ရှင်းသူ	-9.89656
တုန်လှုပ်	-9.89674
ကယ်	-9.89734
မစ	-9.89764
▁ငါခန့်ထား	-9.89775
▁ပစ်ထား	-9.89817
▁ခရီးဦးကြိုပြု	-9.89889
မှီဝဲ	-9.89892
တရက်	-9.89916
ထိုသူ	-9.89982
▁ဗက်လင်မြို့	-9.89986
ဗိုလ်	-9.89991
သစ်ကို	-9.90014
▁မသေ	-9.90033
အကြီးအကဲ	-9.90034
▁ဘုရားသခင်နှင့်	-9.9004
ရိုသေ	-9.90052
မေတ္တာ	-9.90059
ရှောလု	-9.90065
▁ပြည်သို့	-9.90102
မပေး။	-9.9011
လိုလျှင်၊	-9.90127
အနောက်ဘက်	-9.90155
▁သွားလော့။	-9.9018
▁လျှာ	-9.90183
▁မထင်ရှား	-9.90245
လိုသောငှါ၊	-9.90317
▁သင်းဖွဲ့	-9.90387
▁အကျင့်ကို	-9.90395
▁ငါဆောင်ခဲ့	-9.90458
▁ယု	-9.90465
▁ငြိမ်ဝပ်စွာနေ	-9.90512
ဗင်္ယာမိန်အမျိုး	-9.9057
▁တပ်မက်	-9.90609
▁အသက်ချမ်းသာ	-9.90717
▁????	-9.90757
▁နှ	-9.90769
▁အမင်္ဂလာ	-9.90792
ဲ့	-9.90821
ဖြစ်ရလိမ့်မည်။	-9.90826
မူ	-9.90839
▁ကြွေး	-9.90907
သလော	-9.91009
ဆင့်ဆို	-9.91045
▁အနိုင်အထက်	-9.91073
▁အာဗြဟံသည်	-9.91106
လက်နှင့်	-9.91123
အရာတို့ကို	-9.91129
▁တပ်သား	-9.91261
▁လက်သို့	-9.91333
▁ချမ်းသာရ	-9.91411
ပြာ	-9.91416
သကဲ့သို့၎င်း၊	-9.91444
▁တဘက်	-9.9146
▁သွားကြ	-9.91544
သောသူမူကား	-9.91552
ထဲသို့ဝင်၍	-9.91573
▁ဆပ်ပေး	-9.91596
▁ဗိ	-9.91598
▁မောရှေကလည်း	-9.91608
လျင်	-9.91713
▁သိုးထီး	-9.91797
▁လွှဲ	-9.9181
▁ပါသော	-9.91852
တော်မူရာ	-9.91929
ပေါ	-9.9193
▁အင်တုံ	-9.91942
▁ဗေနာယ	-9.91961
မှဆင်းသက်သော	-9.91961
ရေခပ်	-9.91963
▁နံ့သာမျိုး	-9.91965
▁ကယ်မသနား	-9.91965
ခွါ	-9.91972
▁ကျမ်းစာ၌	-9.92033
▁တံခါးကို	-9.92058
▁ထောင်ထဲမှာ	-9.92068
▁အမျိုးမျိုးသော	-9.92108
▁နန်းတော်၌	-9.92111
မင်း၊	-9.92121
▁မလာ	-9.92123
▁ထိုသူတို့၏	-9.92144
လျက်ရှိသည်ကို	-9.92147
▁လိမ့်မည်ဟု	-9.92159
▁ထိုစကား	-9.92162
▁ကြက်	-9.92202
တိုင်အောင်၎င်း၊	-9.92213
▁အလှူ	-9.92233
ိမ်မြို့	-9.92262
▁စစ်မှု	-9.92263
▁နန်းထိုင်၍	-9.92275
▁ဆွဲထား	-9.92323
ရှိသလော။	-9.92356
ချွတ်	-9.92401
မည့်	-9.92411
▁ငါပေးမည်ဟု	-9.92435
မှထွက်၍	-9.92544
▁လူ၏	-9.92545
▁ထုတ်၍	-9.92569
သည်သာမက၊	-9.92586
စကားဟူမူကား၊	-9.92648
ဘုရားကို	-9.92669
ပစပ်	-9.92683
▁ဆောင်ခဲ့၍၊	-9.92706
▁ထာဝရအရှင်	-9.92733
အပေါင်းတို့၏	-9.92768
▁ကျွန်တို့	-9.92774
▁လုပ်ရမည်။	-9.92875
ပေးတော်မူ၏။	-9.92893
▁ယုဒပြည်သူ	-9.92926
သောမြို့	-9.92955
▁ညှိုးနွမ်း	-9.92956
▁ဟစ်	-9.92968
▁ရှောလု၏	-9.92984
ဥ	-9.93035
ကြောက်ရွံ့	-9.93037
ညှိုးငယ်	-9.93153
တိုးပွား	-9.93155
ရှိကြောင်းကို	-9.93157
ကောင်းကင်	-9.93161
▁နံနက်အချိန်	-9.93176
မှီ၊	-9.93181
လှည့်လည်	-9.93197
ကောင်းကြီးပေး	-9.93205
ဖြောင့်မတ်ရာသို့	-9.9334
ဆိတ်	-9.93353
ကောင်တို့ကို	-9.93372
▁ဆိုလျက်၊	-9.93397
ကြောင့်၎င်း၊	-9.93458
ကိုင်သော	-9.93465
ကြသည်တကား။	-9.93478
တစုံတယောက်	-9.93663
ချဉ်းကပ်	-9.93667
ကြလတံ့။	-9.93686
▁ဟာမ	-9.93779
ပြီတကားဟု	-9.93835
ပါစေသောဟု	-9.93872
▁စာရင်း	-9.93884
▁အပြစ်တရား	-9.93935
▁ကျွန်တော်သည်	-9.94024
▁ထိုသို့နှင့်အညီ	-9.94044
▁ငါတို့နှင့်	-9.94154
ကောင်၊	-9.94217
အမှုမှာ	-9.94249
▁စိတ်သဘော	-9.9437
▁အာမလက်	-9.94382
▁တဝက်	-9.94405
▁ထိုမြေ	-9.94414
မလွှဲ	-9.94427
အားဖြင့်သာ	-9.94435
▁သက်သေခံတော်မူ	-9.94461
▁ကျမ်း	-9.94482
▁အရေအတွက်	-9.94522
သောစိတ်ရှိ	-9.94527
▁သည်ဟု	-9.94552
▁ခရစ်တော်ကို	-9.94566
▁လင်း	-9.94586
ပြုကြ၏။	-9.94632
▁ဖောက်ပြန်	-9.94669
▁ပသခါပွဲကို	-9.94671
▁အရာရှိ	-9.94691
▁ထိန်း	-9.94713
အလိုတော်	-9.9479
လျော	-9.94816
ကြားပြော	-9.94902
လျှော	-9.94916
ပမာဏ	-9.94919
ပိုင်းခြား	-9.94948
▁ချိုးဖဲ့	-9.94973
▁ကြောက်လန့်	-9.9499
▁လျင်မြန်	-9.9499
▁ရှာကြံ	-9.94991
▁သင်္ဘောသဖန်းပင်	-9.94991
အကြီးအငယ်	-9.94991
အိမ်တော်၌	-9.94996
ဖျ	-9.95
▁ရေချိုး	-9.95076
ရှို့	-9.95093
နှင့်ဟု	-9.9514
▁ယောက်ျားမိန်းမ	-9.95144
▁သေဘေး	-9.95192
▁လူမိုက်	-9.95238
▁နန်းထိုင်၏။	-9.95293
ပိုက်	-9.95381
စာတန်	-9.9539
မခံရ။	-9.95404
▁ငါ့အဘ	-9.95421
ရှောက်	-9.95489
▁တနည်း	-9.9549
▁ဖိလိတ္တိ	-9.95497
▁မိုဃ်းသီး	-9.9557
နှင့်တူသော	-9.95591
▁ယော်ဒန်မြစ်တဘက်	-9.95592
▁တကောင်	-9.95594
ဘုရားသည်	-9.95618
▁တထောင်	-9.95647
▁ဝိုင်း	-9.95682
ဝိညာဉ်တော်သည်	-9.95698
▁ဤသို့ပြု	-9.95744
ကြသဖြင့်၊	-9.95774
▁ဒုစရိုက်ကိုပြု	-9.95858
ဘုရား၏	-9.95886
ထွန်း	-9.95906
▁မိမိမယား	-9.95941
နောင်တ	-9.95965
▁ထိုသားကို	-9.95996
▁အရပ်သို့	-9.96048
▁တယောက်ကို	-9.96049
▁မိမိလက်	-9.96075
▁ထိုအမှုအရာ	-9.96076
ယူ၍၊	-9.96083
တပည့်တော်	-9.96103
လိုက်၍၊	-9.96129
ရွံ့ရှာဘွယ်	-9.96161
▁သိတင်းကြား	-9.96244
▁အဝတ်တန်ဆာ	-9.9637
▁အာဇရိ	-9.96377
နှိပ်စက်	-9.9638
အရပ်က	-9.96408
ခွန်အား	-9.96408
ဆီးတား	-9.96414
▁ပတ်လည်	-9.96507
ကျေးဇူးကို	-9.96509
စေနှင့်ဟု	-9.96527
▁ဝတ်ဆင်	-9.96563
▁ပြီး	-9.96573
▁တွေ့ကြုံ	-9.96654
ပြောင်းလဲ	-9.96665
▁ခြင်းကို	-9.96682
▁ဂုဏ်တော်ကို	-9.96708
▁ယေရှု၏	-9.96714
ငှာ	-9.96765
▁မကျင့်	-9.96782
ဆိုးညစ်	-9.96871
▁မစင်ကြယ်သော	-9.97016
ကြယ်	-9.97033
▁မိုက်သော	-9.97053
စားပွဲ	-9.97067
▁နက်ဖြန်	-9.97086
ရှေ့တွင်	-9.97131
▁စောင့်မ	-9.97197
▁ထိုသို့ပြုလျှင်	-9.97224
စားစရာ	-9.97225
▁အမျိုးကို	-9.9723
နေရာအရပ်	-9.97235
ပါသည်	-9.97248
လှည့်၍	-9.97285
အမွေဥစ္စာ	-9.97311
▁အဘယ်သူမျှမ	-9.97313
စိတ်နှလုံးကို	-9.97356
▁လုပ်ကျွေး	-9.97485
လူစု	-9.97516
▁သက်သာ	-9.97532
▁မစောင့်	-9.97548
ငါးနှစ်	-9.97585
▁စေ့စေ့	-9.97607
▁အဲဂုတ္တုလူ	-9.97613
▁မိမိအိမ်သို့	-9.9763
ကိုင်၍	-9.97638
▁ရှေမ	-9.97658
သို့ရောက်၍၊	-9.9766
သိမ်းသွား	-9.97716
▁ခုနှစ်	-9.97749
▁ဖုံးလွှမ်း	-9.97776
▁အကောင်	-9.97825
▁လွင်ပြင်၌	-9.97869
အပေါင်းတို့သည်၊	-9.97911
▁လူတို့၏	-9.97937
▁ဆိုကြ	-9.97963
▁တောင်ဘက်	-9.97982
▁ဘိုးဘေး	-9.97984
ပခုံး	-9.98046
▁ထိုမိန်းမကို	-9.98057
▁ချိန်းချက်သော	-9.98115
လေ့ကျက်	-9.98115
▁ပြာသောအထည်	-9.98117
▁အကယ်၍	-9.98118
▁အစာခေါင်းပါး	-9.98119
▁လူများကို	-9.98125
▁အနှစ်လေးဆယ်	-9.98128
▁မီးခုံ	-9.9813
▁တာရှု	-9.98136
တရု	-9.9816
▁ဥာဏ်ပညာ	-9.98168
▁ဘေးလွတ်	-9.98183
▁အသက်ပျိုသော	-9.98187
▁တောင်ထိပ်	-9.98196
အပေါင်းတို့နှင့်	-9.9831
▁စပျစ်သီး	-9.98313
▁သူတပါးကို	-9.98351
▁ကျမ်းပြုဆရာ	-9.98368
နှစ်ပတ်လုံး	-9.98381
▁တစု	-9.98389
▁နှမြော	-9.98423
▁ငါတို့သခင်	-9.98442
▁အပေါ်မှာ	-9.9847
လေပြီဟု	-9.98472
▁ရွှေတန်ဆာ	-9.98481
▁မြို့ထဲမှာ	-9.98523
သားရဲ	-9.98583
တွင်းထဲသို့	-9.98585
▁ငါပြ	-9.98623
▁ကွာ	-9.98647
မြေကြီးတပြင်လုံး	-9.9869
▁ရှုရိ	-9.98739
သင်္ဘော	-9.98747
▁တရားတွေ့	-9.98788
ပြုမိသော	-9.98839
မိလျှင်၊	-9.98911
ဖြစ်ပါ	-9.98917
▁အတတ်	-9.98919
▁အိမ်၌	-9.98929
▁အနက်	-9.98937
▁မတတ်နိုင်	-9.98957
▁သားငယ်	-9.9897
ကိုယ်စား	-9.98978
▁နှမ	-9.98985
အတွင်းတွင်	-9.99044
▁အသီးအနှံကို	-9.99049
▁ငါတို့အဘ	-9.99061
▁ခါနာန်	-9.99064
▁မှတ်သား	-9.9907
▁အဘယ်သူ၏	-9.99084
▁မှုတ်	-9.99112
▁အမိန့်ရှိ	-9.99156
တဘက်တချက်	-9.99172
ခိုလှုံရာ	-9.99174
▁သားစဉ်မြေးဆက်	-9.99176
▁အပေါင်း	-9.99177
မလွှတ်	-9.99206
သူ့	-9.99247
▁လုပ်၍၊	-9.99249
▁ဆန်	-9.99336
ဖြစ်လျှင်၊	-9.9935
▁ကား	-9.99381
▁မီးကို	-9.99395
▁မောရှေကို	-9.9949
မနေရ။	-9.99509
▁အပြစ်ပေး	-9.99544
▁ငါလာ	-9.99582
သင်္ချိုင်း	-9.99675
အစွမ်းသတ္တိ	-9.99727
▁ယုဒမြို့	-9.99744
▁ရှိမောင်	-9.99799
▁သနားခြင်း	-9.99819
ခံသော	-9.9982
လှည့်စား	-9.99872
ကျိန်ဆို	-9.99881
▁အမှုရောက်	-9.99884
▁ယေဇရေလမြို့	-9.99895
▁စားရမည်။	-9.99933
▁ဖြစ်ကြလိမ့်မည်။	-9.99938
အလုံး	-9.99944
ကြပြီ	-9.99954
လုံ	-10.0001
တို့ဖြင့်	-10.0001
စပြု	-10.0003
▁ရှေးကာလ၌	-10.0006
စိမ်း	-10.0008
▁ညစ်ညူးသော	-10.0011
▁နောင်	-10.0021
ဒါဝိဒ်သည်	-10.0022
▁ပြန်ပြောကြ၏။	-10.0024
ဖြစ်ရမည်။	-10.0025
▁စေလွှတ်၍	-10.0039
▁ရှိလိမ့်မည်။	-10.0043
▁ညစ်ညူးခြင်း	-10.0045
လိမ့်မည်လော။	-10.0048
▁အိမ်သူအိမ်သား	-10.0049
လျက်နှင့်	-10.0052
လွန်၍	-10.0053
▁ရွှေစင်	-10.0056
▁ဗ	-10.0057
▁ချက်	-10.0069
▁ကောဟတ်	-10.0073
▁အမျိုး၏	-10.0076
ရောက်သော	-10.0079
နိုင်ငံတော်သည်	-10.0084
▁မြင်သောအခါ၊	-10.0087
မ္မအမှု	-10.0087
သည်နှင့်၊	-10.0088
▁ဒါ	-10.0088
▁ရောက်သော	-10.0092
အသရေကို	-10.0095
သက်သေခံ	-10.0111
ခံတွင်း	-10.0114
▁လှည့်၍	-10.0127
▁နူနာ	-10.0132
နံ့သာ	-10.0132
▁ဘိုးဘ	-10.0133
ယေရှဲ	-10.0134
အညစ်အကြေး	-10.0134
▁နေ့ညဉ့်မပြတ်	-10.0134
▁ပဥ္စမ	-10.0134
▁လက်စသတ်	-10.0134
ဗာနဗ	-10.0134
ဆုတောင်းပဌနာပြု	-10.0135
▁သူ့မယားကို	-10.0135
▁မျက်နှာတော်	-10.0136
▁အဘယ်မျှလောက်	-10.0136
▁ပျက်စီးခြင်း	-10.0137
▁ခြေနင်း	-10.0139
▁ဖာရောဘုရင်၏	-10.0139
▁စပျစ်	-10.0142
▁ယောက်ျားသည်	-10.0142
▁ငါ့ဆီသို့	-10.0143
▁ချည်	-10.0144
▁အဘယ်သို့နည်း။	-10.0146
▁အာခတ်	-10.0147
▁အားလျော့	-10.0148
▁တည်း	-10.015
▁ငါ၏ဘုရားသခင်	-10.0151
အနား၌	-10.0156
▁လက်ျာလက်	-10.0157
▁ငါ့ထံမှ	-10.016
▁သိရကြလိမ့်မည်။	-10.0161
မြေ၌	-10.0164
▁ဝိုင်းထား	-10.0166
ဟုတ်	-10.0167
လက်ျာဘက်၌	-10.017
▁ဝမ်းနည်းခြင်း	-10.0176
သခင်သည်	-10.0179
သုံးပါး	-10.0182
▁နှုတ်ကပတ်	-10.0185
▁ထိုအပင်	-10.0185
ဦးမည်ဟု	-10.0186
သောအမှု၊	-10.0186
▁ခွန်အားကြီး	-10.0187
အခြား	-10.0196
သုံးထောင်	-10.02
ဘုရားသခင်ကို	-10.0201
▁မွှေးကြိုင်သော	-10.0204
ှက်	-10.0206
▁ဤလူတို့	-10.0209
▁ဣသရေလလူတို့	-10.021
▁တပည့်	-10.0211
▁အသက်ရှင်ခြင်း	-10.0212
လှူ	-10.0215
▁နေထွက်	-10.0216
▁ရှိမိ	-10.0229
▁ပြုတော်မူသော	-10.0235
▁မြည်	-10.0242
▁ခန့်ထားတော်မူ	-10.0243
တိုက်မြစ်	-10.0243
မိဘ	-10.0244
မြို့တိုင်အောင်	-10.0252
▁အံ့ဘွယ်သောအမှု	-10.0255
ပရိသတ်	-10.0263
▁မင်္ဂလာရှိ၏။	-10.0274
▁တဆယ်နှစ်	-10.0274
ပါလိမ့်မည်ဟု	-10.0275
ရပါ	-10.0288
▁ကာလက်	-10.0289
▁သင့်ကိုငါ	-10.029
▁တနှစ်	-10.0295
အဘို့၊	-10.0296
▁ပညတ်တရားကို	-10.0296
▁ရသော	-10.0297
▁ရှေမာယ	-10.03
ခံယူ	-10.0302
▁ဗောဇ	-10.0312
လူအပေါင်းတို့ကို	-10.0315
နိုး	-10.0317
ပြင်းစွာ	-10.0319
ယွာဘ	-10.032
မှူးမတ်	-10.032
မာရိ	-10.0331
သူ့ကို	-10.0337
▁ခံရကြလိမ့်မည်။	-10.0337
▁ရုပ်တုကို	-10.0339
ဗေလ	-10.0346
▁မင်းများ	-10.0351
ဖွဲ့သော	-10.0357
မကြား	-10.036
▁ကျိန်ဆိုတော်မူ	-10.0361
▁တနေ့	-10.0361
လေသမျှ	-10.0362
ခြင်းတွင်	-10.0363
ဆင်	-10.0369
နိမ်	-10.0371
▁ကျွန်တော်မ	-10.0371
▁အလိုငှါ	-10.0373
▁ရှင်ဘုရင်က	-10.0377
ပ္ပ	-10.0379
▁များပြားစေ	-10.0389
▁ဆောင်း	-10.0396
▁ဗေလ	-10.0396
▁မာရ်နတ်	-10.0397
ဖြစ်လိမ့်မည်ဟု	-10.0399
တော်မူချက်	-10.0399
▁မတရားသောသူသည်	-10.0405
▁ဧဝံဂေလိတရား	-10.0405
▁ယောယကိမ်	-10.041
အမှန်	-10.0419
စစ်တိုက်ခြင်းငှါ	-10.0426
သောအခွင့်ကို	-10.0428
အလုပ်ကို	-10.0428
▁သူ၏သားတို့သည်	-10.0429
အထက်	-10.0429
▁ငြင်းခုံ	-10.0431
▁နွားထီး	-10.0439
နှင့်ကင်းလွတ်	-10.0442
ပြသ	-10.0445
နား၌	-10.045
ကဲ့သို့ဖြစ်၍၊	-10.0456
ပသခါ	-10.0461
ကျိန်ဆိုခြင်းကို	-10.0466
ခုတင်	-10.0467
▁စူးစမ်း	-10.0467
▁ဧကန်အမှန်	-10.0467
▁တသက်လုံး	-10.0467
▁တွားတတ်သော	-10.0467
▁အာရှရပင်	-10.0467
ကိုအမှီပြု၍	-10.0467
▁အာမဇိ	-10.0467
▁ဗာလက်မင်း	-10.0468
မည်အကြံ	-10.047
▁လင်ပန်း	-10.047
ရေသည်	-10.0471
ကြီးမား	-10.0474
▁သစ္စာပျက်	-10.0477
▁ရေးထားလျက်ရှိ၏။	-10.0478
လတွင်	-10.048
▁ခံရကြ	-10.0482
မြောက်ဘက်	-10.0482
▁ကျောက်ကပ်	-10.0483
မှစသော	-10.0486
▁ငါ့ဆီသို့ရောက်	-10.0494
▁ညှဉ်းဆဲခြင်းကို	-10.0497
▁ဒဏ်ခတ်တော်မူ	-10.0501
▁ဘုရားအား	-10.0503
ဖြည့်	-10.0503
လော။	-10.0509
▁နေရစ်	-10.051
▁ဆုံးမတော်မူ	-10.0514
▁အလုပ်လုပ်	-10.0515
▁ကျွန်မသည်	-10.0516
▁နက်နဲ	-10.0521
▁အကျိန်	-10.0524
▁ငါထာဝရဘုရားသည်	-10.0528
ကြေး	-10.053
ဘမ်း	-10.0532
▁ရှင်ဘုရင်အရာ၌	-10.0532
၏မယား	-10.0535
အတွင်းသို့	-10.0536
ခြင်းအရာ	-10.0545
▁မိုဃ်းရေ	-10.0546
▁ကော	-10.055
ထသော၊	-10.0551
▁နေသောသူ	-10.0558
နေကြ	-10.0561
▁တည်းဟူသော	-10.0563
▁ဟေရှာယ	-10.0563
နှစ်ဦး	-10.0573
▁လေဗနုန်တောင်	-10.0577
တပိုင်း	-10.0581
လည်းရှိ၏။	-10.0582
▁ရေး	-10.0583
▁ဂဒ်အမျိုး	-10.0586
သည်းခံ	-10.0586
သဖြင့်၎င်း၊	-10.0605
တပ်ကို	-10.0607
သည်မှာ၊	-10.0611
▁နော	-10.0614
▁ကြီးပွား	-10.0616
ရှိပါ၏ဟု	-10.062
▁သူ့အား	-10.063
▁ပတ်လည်၌	-10.0631
ကျန်ကြွင်း	-10.0633
▁ဒါဝိဒ်က	-10.0633
လိမ်	-10.0635
တော်မူသောကြောင့်	-10.064
▁ဘာသာ	-10.0648
▁မိဇပါမြို့	-10.0648
တဲတော်	-10.0652
သူမည်သည်ကား၊	-10.0655
ပေးမည်ဟု	-10.0658
▁လူတို့တွင်	-10.0658
ဗိ	-10.0661
လည်းဖြစ်၏။	-10.0664
သီချင်း	-10.0666
လွှမ်းမိုး	-10.0669
ဖြန့်	-10.067
လက္ခဏာ	-10.0671
လွင်ပြင်	-10.0673
အနက်ကို	-10.0673
လှံတံ	-10.0673
ချည်နှောင်	-10.0676
▁သိကြ၏။	-10.0676
မှားယွင်း	-10.0677
တို့တွင်၊	-10.0677
ပယ်ရှား	-10.0677
▁ဒန်	-10.0677
ကုလားကာ	-10.0678
ဂုဏ်အသရေ	-10.0678
တည်ဆောက်	-10.0682
ကြစဉ်၊	-10.0689
▁ထိုသူနှစ်ယောက်	-10.0689
▁သုံးနှစ်	-10.069
မသောက်	-10.0692
▁လေဝိအမျိုး	-10.0695
ကျေးဇူးပြု	-10.0696
▁ရွံရှာ	-10.0699
စီရင်ထုံးဖွဲ့	-10.0704
အနာကို	-10.0708
▁အကြွင်းမဲ့	-10.0711
▁အသေသတ်	-10.0713
▁ခုနစ်ဆယ်	-10.0716
▁အလင်းကို	-10.0718
ွေလ	-10.0719
▁သတိရ	-10.0719
▁မပြ	-10.0723
ဆိုသည်အတိုင်း	-10.0739
▁မိမိအဘ	-10.0746
▁လျှောက်ထား	-10.0747
▁မျက်မှောက်	-10.075
သိန်း	-10.0753
▁ပြေးကြ၏။	-10.0755
▁လူများတို့ကို	-10.0755
တန်ဆာရှိသမျှ	-10.0757
▁ရွံ့	-10.076
▁ထွက်၍၊	-10.0765
▁ဘုရားသခင်ဖြစ်	-10.077
▁ရှစ်	-10.0772
▁ထိုသခင်သည်	-10.0772
ကျိပ်	-10.0772
ထံတော်မှ	-10.0784
▁တွင်၊	-10.0784
▁ဖုံး	-10.0787
▁သည်လည်း	-10.0789
တစုံတခုကို	-10.079
▁ရှင်ဘုရင်အား	-10.0792
▁ပြုတော်မူ၏။	-10.0795
ဗတ္တိဇံ	-10.0796
ကိုခေါ်၍	-10.0797
▁ထိုနေ့	-10.0798
▁ထွက်သော	-10.08
▁ပြေးသွား	-10.0801
▁သွန်	-10.0802
ကြလိမ့်မည်	-10.0807
▁ပေးသနားတော်မူ	-10.0807
▁အမဲသား	-10.0811
ပရိယာယ်	-10.0812
▁ဖာရိရှဲတို့	-10.0812
သောသူကဲ့သို့	-10.0812
▁ကာဣန	-10.0812
ကျိုးပဲ့	-10.0812
ပါတကား။	-10.0812
ဟိလခိ	-10.0812
▁တညဉ့်လုံး	-10.0812
လှောင်ထား	-10.0812
▁ရွှေလင်းတ	-10.0812
ပါလေစေ။	-10.0812
▁ပြောင်း	-10.0812
အာမနုန်	-10.0812
▁လျှော်	-10.0814
နှင့်ယှဉ်သော	-10.0815
တော့။	-10.0816
▁ဘွားမြင်သော	-10.0817
▁မီးဖြင့်ပြုသော	-10.0817
မင်းကြီးတပါး၊	-10.0819
▁အဘယ်သူနည်း။	-10.082
ဇိအုန်သတို့သမီး	-10.0822
▁အချုပ်ခံ	-10.0823
ကိုယူ၍၊	-10.0824
▁ခွက်	-10.0826
ဖို့	-10.0826
▁ညီအစ်ကိုချင်း	-10.0827
▁ရွှင်လန်းစွာ	-10.0829
မပြု၊	-10.0833
▁ယောန	-10.0834
ဘူးသလော။	-10.0836
မွတ်သိပ်ခြင်းဘေး	-10.0838
ဖြစ်လျှင်	-10.0839
▁ဖြစ်လေ၏။	-10.084
နိုင်မည်နည်း။	-10.0841
▁ချင်း	-10.0843
▁စာရင်းယူ	-10.0843
▁စောင့်နေ	-10.0845
▁အစဉ်အတိုင်း	-10.0846
အိမ်မှ	-10.0848
▁အလျောက်	-10.0849
▁အလုံးစုံတို့	-10.0849
▁ဘေးရောက်	-10.0851
မရှိလျှင်၊	-10.0856
▁ဧလိယသည်	-10.086
▁သင်၏အမျိုးအနွယ်	-10.086
▁ဧဖရိမ်တောင်	-10.0863
▁ကြမ်းတမ်းသော	-10.0872
▁ဧလာ	-10.0877
▁အောင်မြင်	-10.0877
▁အမည်	-10.0881
▁တော်မူသော	-10.0887
▁ခပ်သိမ်း	-10.0889
▁မြို့ထဲသို့	-10.0894
▁ထိုသူအပေါင်း	-10.0896
▁ဘီး	-10.0899
ကြားလျှင်	-10.0901
တသိန်း	-10.0907
မတည်	-10.0908
ရုသ	-10.0908
▁တူး	-10.0908
ရှေ့တော်မှာ	-10.0914
ခြင်းနှင့်တကွ	-10.0916
ထုတ်၍	-10.0922
များနှင့်တကွ	-10.0931
▁မိမိလူတို့ကို	-10.0936
▁သင့်အဘို့	-10.0938
နှင့်စပ်ဆိုင်သော	-10.0944
▁တခု	-10.0946
▁ဇိအုန်	-10.0946
▁ငါဟောပြော	-10.0947
▁တကိုယ်လုံး	-10.0948
▁အမည်ဖြင့်	-10.0952
▁လက္ခဏာ	-10.0954
▁မည်သည်ကား၊	-10.0956
▁အိမ်ကို	-10.0964
▁အလျှင်း	-10.0971
▁လာကြ၏။	-10.0974
ရေလ	-10.0976
စပ်ကြား	-10.0983
မည်သည်ကား၊	-10.0997
▁ဤပြည်	-10.0999
▁အစာရှောင်	-10.1005
▁သေရ	-10.1005
ကျောက်ပြား	-10.1005
▁တည်၏။	-10.1007
သောသူသည်လည်း	-10.1012
မပါ	-10.1012
အခွင့်ကို	-10.1014
▁အရက်	-10.1018
▁အာခဇိ	-10.1021
▁နည်းတူ	-10.1021
ဒဏ်	-10.1025
ခိုလှုံ	-10.1028
▁ကြောက်မက်ဘွယ်	-10.1031
▁စိတ်မ	-10.1033
ပယ်ရှင်း	-10.1037
နှောင့်ရှက်ခြင်း	-10.1037
မရှိသောသူ	-10.1039
တိုးပွါး	-10.1041
ဖြောင့်	-10.1043
ပဌနာ	-10.1044
များအားဖြင့်	-10.1049
အံ့သော	-10.105
▁လေဗနုန်	-10.1053
▁ဆိတ်ညံ	-10.1057
▁ကြဲ	-10.1062
▁တိရစ္ဆာန်များ	-10.1064
မေ့လျော့	-10.1066
ပွဲခံ	-10.1066
▁မခံသော	-10.1068
ချ၍	-10.1069
စောင့်ရှောက်	-10.1073
▁ဆုံးဖြတ်	-10.1079
နှင့်အညီ၊	-10.1085
▁အဆုံး	-10.1086
ဘတ်	-10.1088
▁နန်းထိုင်	-10.1096
▁သူကဲ့သို့	-10.1098
▁ပြည်ကို	-10.1105
အာရုန်	-10.1109
▁ထားကို	-10.111
အပ်ပေး	-10.1112
▁ရောက်သောအခါ	-10.1113
လာသည်ကား၊	-10.1116
ကျမ်းစာ	-10.1122
▁နားထောင်၍၊	-10.1138
ပါသနည်းဟု	-10.114
ကြီးကို	-10.1141
သွင်း၍	-10.1142
ယေရုရှလင်မြို့	-10.115
▁ဆောင်ခဲ့ကြ၏။	-10.1156
▁ကမ်း	-10.1164
နိုင်လျှင်	-10.1167
ရမည်မှာ၊	-10.1168
▁မောင်းသောအထည်	-10.1169
ကျော့မိ	-10.1169
ပိုက်ကွန်	-10.1169
ရောင်ခြည်	-10.1169
▁ကာမဂုဏ်	-10.1169
▁ကောင်းမွန်စွာ	-10.117
အမှိုက်	-10.117
စုံမက်	-10.1171
▁နေ့အချိန်၌	-10.1172
▁လျော်	-10.1173
▁လျှောက်ကြသော်၊	-10.1174
ဝါး	-10.1174
▁ထုလုပ်	-10.1174
လေပြီတကား။	-10.1176
▁ရာမမြို့	-10.1176
▁နာသန်	-10.1177
လူး	-10.1181
ရှိသော်လည်း၊	-10.1184
▁သဖြင့်	-10.1189
▁သိုးထီးတကောင်	-10.1189
လေ့ရှိ၏။	-10.1191
▁ငို	-10.1193
▁တဖန်ထာဝရဘုရား၏	-10.1193
▁လမ်းပြ	-10.1196
အကျွန်ုပ်အသက်ကို	-10.1196
▁ဆင်	-10.1198
▁ဧလံ	-10.12
ခုနစ်ရာ	-10.1202
မပေးဘဲ	-10.1202
▁ငါ၏လူမျိုး	-10.1202
▁ပေါလုကို	-10.1203
▁ထိုသို့ငါ	-10.1206
▁ငါပြုမည်။	-10.121
▁သင့်လက်၌	-10.1213
ရာတွင်၊	-10.1215
မယုံ	-10.1216
▁ဘုရားတို့ကို	-10.1219
▁လာသတည်း။	-10.122
သောသူတို့၊	-10.122
ပူဇော်သက္ကာကို	-10.1222
တည်၏။	-10.1224
▁အဘယ်မည်သော	-10.1229
▁ရေတွက်၍	-10.123
▁တစုံတခုကို	-10.1232
▁ငါကြား၏။	-10.1236
ကိုထောက်၍	-10.1239
▁အကြင်သူ	-10.124
▁တဘက်တချက်၌	-10.124
▁ဒုက္ခဆင်းရဲ	-10.1242
▁ဤအရာ	-10.1245
▁ပြတ်	-10.1248
▁ကိုးကွယ်သော	-10.1249
သောအသံကို	-10.1252
▁ငါ့စကား	-10.1252
▁အမဲသားကို	-10.1255
မှသည်	-10.1255
နန်းတော်	-10.1257
▁မြေမှုန့်ကို	-10.1264
▁စပ်ဆိုင်	-10.1267
▁ဗျာဒိတ်တော်ကို	-10.1273
▁သခင်ယေရှုခရစ်	-10.1273
▁လမ်းသို့	-10.1275
ဦးလော့။	-10.1277
▁အလွန်သန့်ရှင်း	-10.1278
▁ဆင်းရဲခံရ	-10.1284
အကြောင်းအရာ	-10.1295
▁အသေခံရ	-10.1296
▁တိုးပွါး	-10.1299
▁ဤစကား	-10.1301
ချဉ်းကပ်၍၊	-10.1304
▁ဂုဏ်	-10.1305
▁မျိုးစေ့ကို	-10.1306
▁မွတ်သိပ်	-10.1309
း၍	-10.1313
အမျိုးမျိုးကို	-10.1322
▁ဗာရှန်ပြည်	-10.1328
ပျ	-10.1328
မွေလ	-10.1332
▁မပြစ်မှား	-10.1333
နုန်	-10.1354
▁သန့်ရှင်းသူတို့	-10.1355
ခြင်းအရာသည်	-10.1364
▁စား၍	-10.1371
▁ဂိလဂါလမြို့	-10.1378
နှစ်ထောင်	-10.1381
▁လွှတ်တော်မူ	-10.1384
▁လေးဆယ်	-10.1387
လက်ျာ	-10.1391
▁ငါ့နာမ	-10.1391
▁ယုံကြည်သော	-10.1396
▁သူကြီး	-10.1407
ကြီးမင်္ဂလာကို	-10.1408
▁ခရီး	-10.1409
▁လူအများ	-10.141
▁ထိုကျွန်	-10.1414
အထွ	-10.1417
မသိကြ။	-10.1422
▁ရှာဖွေ	-10.1424
ဆည်းကပ်	-10.1429
အနည်းငယ်	-10.1429
ရေတွက်	-10.143
အစိုးရ	-10.1431
ပုန်ကန်	-10.1431
သိုးသငယ်	-10.1432
နားမထောင်	-10.1432
▁အလိုအလျောက်	-10.1434
အိုင်	-10.1434
▁ပူဇော်သက္ကာပြု	-10.1443
▁မြို့ဝန်	-10.1445
▁အသစ်သော	-10.145
ပြစ်ဖြေရာယဇ်ဘို့	-10.1453
▁စိတ်တော်	-10.1453
ာတိုက်	-10.1459
မြို့သူမြို့သား	-10.1461
▁သားမြေးတို့	-10.1465
▁ငယ်သား	-10.1469
▁ဆင်းရဲသော	-10.1474
▁ရှေးကာလ	-10.148
▁ညှဉ်းဆဲခြင်း	-10.1484
▁ပေးကြ၏။	-10.1484
ဥပုသ်နေ့	-10.149
▁သွေး	-10.1498
▁လှူ	-10.15
▁တောင့်တ	-10.1501
▁ကောင်းကင်ဗိုလ်	-10.1502
▁ရှင်ဘုရင်နှင့်	-10.1506
▁စာရေးတံ	-10.1507
▁မိမိတို့နေရာ	-10.1511
အမြတ်	-10.1512
▁မှောင်မိုက်၌	-10.1517
ဝတ်လျက်	-10.1518
ဆိုလေ၏။	-10.152
▁ပညတ်တော်တို့	-10.1532
▁ကျိန်းဝပ်	-10.1533
▁မမြင်ရ	-10.1539
▁ချောင်းမြောင်း	-10.154
▁ချော့မော့	-10.154
ကျယ်ဝန်း	-10.154
▁လုယက်	-10.154
▁စစ်သူကြီး	-10.154
ကုန်သွယ်	-10.154
▁ဂါသမြို့	-10.154
ကျေးလက်	-10.1542
▁မဟုတ်လောဟု	-10.1542
သည့်အတိုင်း	-10.1542
▁ရှိလောမြို့	-10.1542
▁ကန့်လန့်ကျင်	-10.1543
▁ပေါင်	-10.1543
နားသို့	-10.1544
▁ပိလတ်မင်း	-10.155
▁သင်္ဂြိုဟ်ခြင်း	-10.155
▁ပြို	-10.1551
ဟုဆိုလျှင်၊	-10.1552
▁အကျိုးအပြစ်ကို	-10.1553
▁ပြောသော	-10.1558
လား	-10.1559
ပြိုလဲ	-10.1565
ဆစ်	-10.1572
စွန့်၍	-10.1577
▁သူခိုး	-10.1581
▁လူတယောက်သည်	-10.1586
▁သိတင်းကို	-10.1588
▁ထိုညဉ့်	-10.1589
▁လျှော်တေအဝတ်ကို	-10.1589
ခုနစ်ပါး	-10.1591
▁ကာလအချိန်	-10.1593
▁ခါလဒဲလူတို့	-10.1595
▁ကိုယ်အသက်ကို	-10.1595
မာခါ	-10.1598
သွားသောလမ်း	-10.1603
မှုတ်	-10.1608
▁ခံရကြမည်။	-10.1613
အနံ့	-10.1613
▁မြို့သို့	-10.1618
▁ပြက်ယယ်ပြု	-10.1621
▁နှစ်သိမ့်စေ	-10.1624
▁အရပ်ရပ်တို့၌	-10.1632
▁အဘိယ	-10.1632
ဖန်ဆင်းတော်မူသော	-10.1635
▁ချထား	-10.1637
စေရ။	-10.1638
ယူပြီးလျှင်	-10.1639
▁မွေး	-10.164
နှင့်ပြည့်စုံသော	-10.1641
ပြီလော။	-10.1648
▁တဲတော်ကို	-10.165
▁သားတို့ကို	-10.1654
▁ရှေဘ	-10.1654
▁စောင့်ရသော	-10.1654
▁ဤရွေ့ကား	-10.1659
▁မေးတော်မူ၏။	-10.1661
▁အာဣမြို့	-10.1665
▁စီရင်တော်မူချက်	-10.1674
▁ပြန်ကြား	-10.1675
ရှိပါသည်ဟု	-10.1678
▁ကိုယ်တော်ထံသို့	-10.1679
▁ထောက်၍၊	-10.168
▁တမျိုး	-10.1681
သည်မဟုတ်၊	-10.1682
▁မျှ	-10.1687
▁အရပ်ရပ်၌	-10.1695
▁လူဆိုးတို့	-10.1697
▁သခင်ဘုရားသည်	-10.1701
▁ဝင်း	-10.1701
▁ထိုသို့ဆိုသော်	-10.1703
▁ဥရိယ	-10.1706
ကိုမြင်လျှင်	-10.1708
▁သက်သာခြင်း	-10.1709
▁ဆိုလိုသတည်း။	-10.171
ကြလော့	-10.1714
▁အကြံပေး	-10.1714
▁ဘုန်းကြီးသော	-10.1719
များကြောင့်	-10.1723
▁လှိုင်းတံပိုး	-10.1725
အရှေ့	-10.1725
ကြောင်းကို၎င်း	-10.173
▁တော်မူပါ။	-10.1732
အရပ်ရပ်တို့	-10.1736
လျက်နေသော	-10.1738
▁ထားတော်မူသော	-10.174
▁တယောက်သောသူ	-10.1742
▁နောက်တဖန်မ	-10.1743
▁သူ၏စကားကို	-10.1743
လွှဲ၍	-10.1749
▁အကြည့်အရှု	-10.1751
▁ကဲ့ရဲ့ခြင်း	-10.1758
▁ဂိဗောင်မြို့	-10.1761
▁သီချင်းသည်	-10.1768
မျက်	-10.1773
ခြင်းမရှိ။	-10.1779
▁လူကြီး	-10.178
▁သူတို့အပေါ်မှာ	-10.178
မျက်မှောက်	-10.1784
စိုးရိမ်	-10.1788
ဆက်ဆံ	-10.1788
▁မွမ်းမံ	-10.1796
ရှိသေး၏။	-10.1798
▁အလွန်ကြီး	-10.1798
▁လူဆိတ်ညံ	-10.1802
▁တံဆိပ်	-10.1802
▁တောင်ပေါ်သို့	-10.1804
▁စကားဟူမူကား၊	-10.1813
▁ရှမာရိမြို့၌	-10.182
အချိန်ရှိသော	-10.1822
▁လေအာ	-10.1822
ဘုရင်	-10.1823
▁သေသောသူ	-10.1823
▁ပရောဖက်ပြု၍	-10.1825
▁တပါးအမျိုး	-10.1828
လှုပ်ရှား	-10.1829
မြဲမြံ	-10.1829
ကွပ်မျက်	-10.1831
▁စက်ဆုပ်ရွံ့ရှာ	-10.1835
ပို့ဆောင်	-10.184
▁ငါတို့အဘို့	-10.1841
▁နေ့ရက်ကာလ	-10.1841
ရာလမ်း	-10.1842
▁ဇေရ	-10.1847
▁မြေကြီးသည်	-10.1849
▁သံလွင်	-10.1849
▁သမ္မာတရားကို	-10.1863
▁ဩဝါဒ	-10.1864
ခုနစ်လုံး	-10.1864
အရပ်ရပ်၌	-10.1868
ပွဲသို့	-10.1872
▁ခါနာန်ပြည်၌	-10.1878
▁ပညာရှိသော	-10.1879
ခွာ	-10.188
စေလွှတ်၍၊	-10.1882
အမှုကြောင့်	-10.1884
▁ဤလူမျိုးသည်	-10.1898
ာတ်	-10.19
လျက်ရှိ၍၊	-10.1903
လမြို့၊	-10.1904
သည်နှင့်အညီ	-10.1906
ရိပ်	-10.1907
▁သေကြ၏။	-10.1907
▁ဆိတ်သငယ်	-10.1912
▁အကြောင်းမူ	-10.1914
မြှောက်	-10.1923
မွှေ	-10.1924
ချွေးမ	-10.1924
စိမ့်သောငှါ	-10.1924
မိတ်ဆွေ	-10.1924
ရိက္ခာ	-10.1924
▁ကိုယ်ရံတော်မှူး	-10.1924
▁ငါအမှန်အကန်ဆို	-10.1924
▁ဒိုင်းလွှား	-10.1924
▁အဗျာသာ	-10.1924
အသံဗလံ	-10.1924
▁အဒေါနိယ	-10.1924
▁အရှက်ခွဲ	-10.1924
▁နီသောအထည်	-10.1924
▁လွင့်	-10.1924
▁လမ်းလွဲ	-10.1926
▁သားယောက်ျားကို	-10.1926
ပါသည်တကားဟု	-10.1927
ရပါမည်နည်း။	-10.1927
▁ဆား	-10.1927
▁ထားပြ	-10.1929
▁သားဘွား	-10.1931
▁အရှင်ဘုရားသခင်	-10.1935
▁နမ်း	-10.1936
▁မိမိဘုရားသခင်	-10.194
စီရင်ချက်	-10.1941
▁ထိုတရား	-10.1943
ဝမ်းမြောက်ခြင်း	-10.1944
▁ကျော်စော	-10.1944
▁စွဲလမ်း	-10.1944
▁မိမိခင်ပွန်း	-10.1951
▁ယော်ဒန်မြစ်နား	-10.1952
▁သတို့သမီး	-10.1955
▁ဂုဏ်ကျေးဇူးတော်	-10.1955
▁ကုရှ	-10.1957
▁ပြန်လာ၍	-10.1963
ပါနှင့်ဟု	-10.1967
▁ဟေဗြုန်	-10.197
▁ခြေတော်	-10.1971
▁တနိုင်ငံ	-10.1976
▁စာရေး	-10.1976
▁ဖြစ်လတံ့သော	-10.1979
▁ပေး၍	-10.1981
လိမ့်မည်နည်းဟု	-10.1981
▁ဘုရားရှင်	-10.1985
အပြစ်များကို	-10.1989
▁ဤမိန်းမ	-10.1997
နှင့်ပြည့်စုံ၍	-10.2007
တပ်မက်ခြင်း	-10.2025
▁ခါနနိလူ	-10.2025
နှင့်မြို့နယ်၊	-10.2026
▁ပေးစား	-10.2029
▁အခွင့်ရှိ၏။	-10.203
▁ငါ့ညီ	-10.203
▁ထိုသူငယ်	-10.2031
နေသည်ကို	-10.2032
ချွတ်၍	-10.2037
အို	-10.2041
▁ဘုရားသခင်၏လူ	-10.2043
ပြောသောစကား	-10.2044
▁ဤပြည်၌	-10.2044
▁မနာရှေအမျိုး	-10.2046
ရာအရပ်သို့	-10.2047
မြို့တည်း။	-10.2047
လွှတ်လိုက်	-10.205
▁မင်းကြီးသည်	-10.2056
▁အမှုသည်	-10.2058
▁နေလေ၏။	-10.2058
▁ကောင်းကင်နှင့်	-10.2065
▁အနိုင်	-10.2068
▁အစ်ကိုတို့	-10.2068
▁အမွေး	-10.2068
▁ဂိဒေါင်	-10.2072
▁နှစ်ပေါင်း	-10.208
▁ကြားသောအခါ၊	-10.2081
ဘဲနေကြ၏။	-10.2083
▁ထိုမြို့ကို	-10.2083
▁အမင်္ဂလာရှိ	-10.2086
▁ထိုသူတို့အား	-10.2087
▁နားထောင်လော့။	-10.2094
▁ပြု၍၊	-10.2095
▁ပျားရည်	-10.2097
တို့လက်သို့	-10.2098
ိုက်	-10.2101
ညစ်ညူး	-10.2102
▁သွား၏။	-10.2102
ထံတော်က	-10.2111
▁သတ်ခြင်းငှါ	-10.2115
တော့	-10.2124
ရှိသောသူသည်	-10.2125
ဧလ	-10.2131
▁လက်ရုံး	-10.2136
▁လေဝိသားတို့ကို	-10.2136
▁သည်အတိုင်း၊	-10.2141
▁အာဒ	-10.2143
▁တည်နေ	-10.2146
သောလူမျိုး	-10.2148
▁မဖျက်ဆီး	-10.2151
▁ဖာရိရှဲတို့သည်	-10.2154
▁လူသေ	-10.2155
အစာကို	-10.2157
ငြိမ်းစေ	-10.2162
သားသမီးတို့သည်	-10.2174
▁ရှာလ	-10.2178
▁အပြစ်ကြောင့်	-10.2183
▁သတ်ကြ၏။	-10.2184
▁ဤပြည်ကို	-10.2185
▁မျို	-10.2185
▁သင့်နေရာ	-10.2192
▁လျှောက်၏။	-10.2196
▁ရှမွေလသည်	-10.2203
▁အနက်ကို	-10.2204
သမျှအတိုင်း၊	-10.2215
ပြုသကဲ့သို့	-10.222
ချီ၍	-10.2226
▁မိမိလက်ကို	-10.2228
▁အစေခံ	-10.2228
ကြပါလော့။	-10.223
နိုင်၏။	-10.2234
▁ထိုအရပ်ကို	-10.2234
လပ်	-10.2239
▁ရေသည်	-10.2241
နှုတ်ခမ်း	-10.2241
လှူသော	-10.2244
ခြင်းကျေးဇူးကို	-10.2245
လက်ရုံး	-10.2245
အပ်နှံ	-10.2247
လွန်ကျူး	-10.2248
▁ဖိလိတ္တိမင်း	-10.2248
ဣဇာက်	-10.2248
ယောသပ်	-10.2249
သင်္ဂြိုဟ်	-10.2249
နားလည်	-10.225
ရေတွင်း	-10.2252
သက်သက်ဖြစ်	-10.2253
▁ပူဇော်သက္ကာဘို့	-10.2256
▁ဖြည်	-10.2257
ယုဒလူ	-10.2267
▁ကောင်းကင်သို့	-10.2267
စစ်တိုက်	-10.2268
သွန်း	-10.2269
▁လှန်	-10.2269
▁ဧဖရိမ်အမျိုး	-10.227
▁ဘိုးဘေးတို့အား	-10.227
▁ယောက်ျားပေါင်း	-10.2277
နာမတော်ကို	-10.2281
ခြင်းဘေး	-10.2281
▁အပြစ်ဖြေ	-10.2283
▁စားစရာကို	-10.2288
မှတ်မိ	-10.2291
▁လမ်းကို	-10.23
ရှိစေခြင်းငှါ	-10.2302
စေမည်အကြောင်း	-10.2304
စောင်း	-10.2307
▁လူတို့အား	-10.2309
▁မျက်စိကန်း	-10.2311
ရွံ	-10.2314
သာယာ	-10.2319
ပျော်	-10.2324
▁ကဲသာဘုရင်	-10.2324
▁အပြစ်တင်ခွင့်	-10.2324
ကောက်နယ်တလင်း	-10.2324
ဗင်္ဟာဒဒ်	-10.2324
▁ကိရယ	-10.2324
▁ယေဖသ	-10.2324
▁ငြင်းဆန်	-10.2324
▁မိုက်မဲ	-10.2324
နှာခေါင်း	-10.2324
သာသနာ	-10.2325
▁ဗျာဒိတ်ရူပါရုံ	-10.2325
▁တခါမျှ	-10.2325
▁အငယ်ဆုံးသော	-10.2325
▁ရှိဟုန်	-10.2325
▁လိဗန	-10.2325
▁ဆန်စပါး	-10.2325
▁လယ်ယာ	-10.2327
▁မစိုးရိမ်နှင့်။	-10.2328
သခင်ယေရှုခရစ်၏	-10.2328
▁ချပစ်	-10.2332
ခန့်မျှ	-10.2332
▁ရှေလ	-10.2334
▁စိတ်မပျက်	-10.2334
▁ပင်ပန်းစွာ	-10.2335
▁အခွန်ခံ	-10.2337
▁ငါ၏လူတို့	-10.2337
▁ကယ်တင်သော	-10.2338
▁အရှေ့မျက်နှာ	-10.2339
လူအပေါင်းတို့အား	-10.234
▁အိမ်ရှင်	-10.2343
ရွာသို့	-10.2345
လမ်း၌	-10.2348
▁အပြစ်လွှတ်	-10.2354
စေခြင်းငှါ၎င်း	-10.2359
လေဝိသားတို့	-10.2365
▁အလျင်	-10.2366
ရှောက်သွား	-10.2368
▁ယောရှိမင်း	-10.2373
▁နောင်ကာလ၌	-10.2379
▁သင်တို့ဆီသို့	-10.2384
▁သွင်းထား	-10.2385
သောသူကား	-10.2388
▁စည်းဝေး၍	-10.2393
နေ့ရက်၌	-10.2393
▁ခိုင်မာစေ	-10.2394
ပူပန်	-10.24
▁ထိုပရောဖက်	-10.24
▁ကိုင်လျက်၊	-10.2407
▁သတ္တမလ	-10.2412
သည်တိုင်အောင်၊	-10.2413
▁မှား	-10.2417
ပြုရသော	-10.2418
▁သင်ပြုသော	-10.2422
ဥစ္စာရှိသမျှကို	-10.2423
▁ဘိသိက်ပေး	-10.2429
ဖြစ်သော်လည်း၊	-10.2435
▁ဒေါသ	-10.2435
▁ချီးမွမ်းခြင်း	-10.2436
▁ကိ	-10.2437
မမြင်ရ။	-10.2437
▁ရှုရိလူတို့သည်	-10.244
▁တည်ထောင်	-10.244
▁လွှဲသွား	-10.2446
ဖြစ်သတည်းဟု	-10.2448
▁တိုက်၍	-10.2449
▁ဆုံးမခြင်းကို	-10.2455
▁ဆောင်ခဲ့ရမည်။	-10.2459
ရှင်ဘုရင်၏	-10.246
ယုံ	-10.2462
▁အိုအရှင်	-10.2467
▁ကင်းစောင့်	-10.2467
▁လေကို	-10.2469
▁ကောင်းသောအကျင့်	-10.2483
မြို့များ	-10.2485
ခြင်းအခွင့်ကို	-10.2486
▁ဆိုးညစ်သော	-10.2487
ထောမနာ	-10.2487
ခြေရင်း၌	-10.2487
စေတနာစိတ်	-10.2492
စေမည်အကြောင်း၊	-10.25
တပါးသည်	-10.2502
ဆိုသည်ကား၊	-10.2507
▁အဝေးက	-10.251
▁ထားဘေး၊	-10.2511
သောသူမည်သည်ကား	-10.2513
ကျေးဇူးတော်	-10.2517
▁သင်၏ဘုရား	-10.2522
▁ချစ်ခြင်းမေတ္တာ	-10.2526
ခဲ့ပြီး	-10.2529
▁ကောင်းကင်က	-10.2536
ဖြစ်သောကြောင့်	-10.254
▁စစ်တိုက်၍	-10.2542
တပြား	-10.2545
▁ထွန်းလင်း	-10.2547
▁ထိုသူ၌	-10.2547
ိညာဉ်တရားကို	-10.2553
ဖြစ်လျက်၊	-10.2553
သန့်ရှင်းစေ	-10.2558
▁လက်ျာလက်တော်	-10.2558
ပါပြီ	-10.2562
▁စမ်းရေတွင်း	-10.2569
တခုကို	-10.2577
မေရ	-10.2581
▁စပျစ်နွယ်ပင်	-10.259
▁ဂတိ	-10.259
ဆွ	-10.2591
▁တိမ်	-10.2594
▁ကျယ်သော	-10.2601
▁စည်းဝေးရာ	-10.2603
မတင်	-10.2604
ပြစ်မှားပါပြီ။	-10.2606
▁ဘေးဒဏ်	-10.2613
▁များပြားသော	-10.2622
▁စပ်ဆိုင်သော	-10.2628
လှေ	-10.2631
မာန	-10.2646
မှာလိုက်	-10.2646
▁တည်လုပ်	-10.2659
စည်းဝေးရာ	-10.2674
ညည်းတွား	-10.2674
▁ထိုင်လျက်	-10.2677
ဒုက္ခ	-10.2679
မြှား	-10.268
မှည့်	-10.2681
ပျော်မွေ့	-10.2681
နိမိတ်လက္ခဏာ	-10.2682
မှောင်မိုက်	-10.2683
လတံ့ဟု	-10.2684
▁ကဲ့ရဲ့ခြင်းကို	-10.2686
▁တဖန်ငါ	-10.2686
ရွံရှာ	-10.2686
▁ပညာရှိသောသူ	-10.2687
▁ဟေရုဒ်	-10.2695
မပါဘဲ	-10.2697
ပင်ပန်း	-10.2701
ရအောင်	-10.2728
ပါသတည်း။	-10.273
ပြန်သွား	-10.2737
မကျ	-10.2741
မြှုပ်	-10.2741
သပိတ်ပင်	-10.2741
▁ဖိနဟတ်	-10.2741
▁လောဗန်	-10.2741
▁သောငှါ	-10.2741
သူဌေး	-10.2741
ဧလျာဘ	-10.2741
▁ပြတင်းပေါက်	-10.2741
▁အဟိယ	-10.2741
▁လှည်း	-10.2741
▁ဧဒုံပင်လယ်	-10.2742
▁ဟာဇေလ	-10.2743
▁ထိုကာလအခါ	-10.2743
▁လိမ်း	-10.2743
▁စွန်ပလွံပင်	-10.2744
▁မျက်ရည်ကျ	-10.2745
▁တောသားရဲ	-10.2745
တီးမှုတ်	-10.2746
▁အပိုင်ပေး	-10.2746
▁ပိုင်းခြား၍	-10.2747
▁အာရဇ်ပင်	-10.2747
အမျိုးအစဉ်အဆက်	-10.2748
ပုံသဏ္ဌာန်	-10.2748
လောက်အောင်	-10.2753
▁ငါအလိုရှိ၏။	-10.2754
▁အာသပ်	-10.2754
▁နားထောင်ကြ	-10.2758
▁နံနက်တိုင်အောင်	-10.2759
▁တောင်းလျှောက်	-10.2759
တိုင်ပင်	-10.276
တစု	-10.2761
▁ပျဉ်ပြား	-10.2763
မှုကို	-10.2771
▁ဘမ်းမိ	-10.2775
▁တယော	-10.2776
သို့မရောက်	-10.2778
▁ထာဝရအသက်ကို	-10.2778
▁လူတထောင်	-10.2787
တော်မူမည်လော။	-10.2787
▁သွေ့ခြောက်	-10.2792
ပူဇော်သော	-10.2792
အောက်သို့	-10.2797
ပြောဆိုကြ၏။	-10.2798
▁ပေး၍၊	-10.2808
ခြင်းကိုပြု	-10.2811
▁စာရာ	-10.2815
▁ငါ့ဝိညာဉ်	-10.2818
▁မိုဃ်းသက်မုန်	-10.2818
▁သစ္စာရှိ	-10.2821
အလျှင်း	-10.2824
▁နှုတ်ခမ်း	-10.2828
ချက်ဟူမူကား၊	-10.2837
မပေါ်	-10.2848
▁တကောင်ကို	-10.2848
▁လွန်ကျူးခြင်း	-10.2849
ပေါ်လာ	-10.285
ဆိုင်သနည်း။	-10.285
ဒက်	-10.2851
သည်တကား။	-10.2852
▁ဘုရားရှေ့တော်၌	-10.2854
▁ပေး၏။	-10.2855
သံလွင်ပင်	-10.2866
▁ပြန်လာ၍၊	-10.2873
▁သောဒုံမြို့	-10.2879
တန်ဆာများကို	-10.2885
ခုနစ်ထောင်	-10.2891
တော်မူပါစေသောဟု	-10.2898
▁ထမ်းဘိုးကို	-10.2899
▁ပြုသောသူ	-10.2901
▁စိုက်ပျိုး	-10.2906
▁ထောက်မ	-10.2925
▁မင်္ဂလာရှိကြ၏။	-10.2926
▁သေမင်း	-10.2927
ယို	-10.293
▁တောသို့	-10.2936
တဘက်တချက်၌	-10.2946
▁မျက်ရည်	-10.2947
ဖြစ်စေခြင်းငှါ၊	-10.2948
▁အသက်တော်	-10.2949
▁မြော်လင့်ခြင်း	-10.2962
ကင်းလွတ်	-10.2965
ဖြစ်ဘူးသော	-10.297
မည်ဟူ၍၎င်း၊	-10.2973
▁ဒေါသအမျက်	-10.2974
▁မွတ်သိပ်ခြင်း	-10.2975
▁ဆင်းသွား	-10.2977
တို့ထက်	-10.2978
▁လူပျို	-10.2983
▁ဆိုလို	-10.2985
▁ဆောင်သွား၍၊	-10.2988
သည်တွင်၊	-10.2993
▁ဝမ်းမြောက်စရာ	-10.2993
▁ပြုကြလော့။	-10.2994
ရောက်လိမ့်မည်။	-10.2998
▁သင်တို့ရှိသမျှ	-10.3013
▁ဝတ်လုံ	-10.3014
လိပ်	-10.303
▁ဝစွာ	-10.3033
▁အသက်ရှင်စေ	-10.3034
မြည်တမ်းခြင်းကို	-10.3041
▁အမှီပြု	-10.3044
▁သတ္တမ	-10.3045
စေပြီ။	-10.3054
အားဆိုလျှင်၊	-10.3067
တရှောက်လုံးကို	-10.3068
▁မေးတော်မူ	-10.3069
ဘဲနေလျှင်	-10.307
▁လုယူသော	-10.3093
ပြီတကား။	-10.3093
▁မသိဘဲ	-10.3102
အရာတို့သည်	-10.3111
စေပြီးမှ၊	-10.3112
သတ္တဝါ	-10.3116
▁မျက်နှာရ	-10.3126
▁ဟိတ္တိ	-10.3127
▁သု	-10.3128
▁စုဝေး၍	-10.3128
နှမြော	-10.3133
ယောရှဖတ်	-10.3136
▁ပဌမလ	-10.3137
မြွေ	-10.3139
▁ဦးချ	-10.3141
ညှဉ်းဆဲခြင်း	-10.3152
ဆောင်ယူ	-10.3155
▁ပုန်း	-10.3161
▁လွန်စေ	-10.3164
▁သိုးတို့ကို	-10.3166
▁မိဘမရှိသောသူ	-10.3166
▁ပေးသနား	-10.3167
သစ်ပင်	-10.3173
ပြညွှန်	-10.3176
ယုဒရှကာရုတ်	-10.3176
▁ဂေရရှုံ	-10.3176
▁အမှတ်တမဲ့	-10.3176
▁အာရွှေရု	-10.3176
ကြော်ငြာ	-10.3176
တိုင်းအပြည်ပြည်	-10.3176
▁မေရှုလံ	-10.3176
▁မြေခွေး	-10.3176
▁အပိုင်းပိုင်း	-10.3176
▁အဦးသီးသော	-10.3176
▁ကျပ်ကျပ်	-10.3176
▁ယောရံ	-10.3176
ပါရစေဟု	-10.3176
▁မာနထောင်လွှား	-10.3176
▁ခန်းခြောက်	-10.3176
နာဗုတ်	-10.3176
▁ဟာဂရ	-10.3176
ခေါင်းပါး	-10.3176
▁တနေ့ခြင်းတွင်	-10.3176
▁သနားစုံမက်	-10.3178
▁တရားဆုံးဖြတ်	-10.3179
▁စပါးရိတ်	-10.318
ရင်ပတ်	-10.318
အပေါင်းအသင်း	-10.318
▁သိသရ	-10.318
▁အက္ခရာတင်	-10.3181
▁စိတ်နှိမ့်ချ	-10.3185
▁အခွင့်တောင်း	-10.3185
▁ရဲရင့်စွာ	-10.3186
အရည်	-10.3187
▁သော်လည်း၊	-10.3189
▁သိုးတကောင်	-10.319
▁ဤပညတ်	-10.319
▁လူသတ္တဝါ	-10.319
မှ၎င်း၊	-10.3191
▁ဝက်	-10.3193
▁မီးခဲ	-10.3193
▁အာဗြဟံ၏	-10.3198
▁အမိန့်တော်ရှိ၏။	-10.3198
▁ခံလေ၏။	-10.32
▁ဖြူသော	-10.32
ရပါမည်နည်းဟု	-10.3202
▁ယေဗုသိလူ	-10.3205
▁မစွန့်	-10.3205
▁ကျင့်စောင့်	-10.3207
▁အသက်ကြီးသော	-10.3214
ထံသို့လာ၍	-10.3217
▁သတ်လေ၏။	-10.3218
ပြောစရာ	-10.322
▁လယ်၌	-10.3229
ရှိစေသတည်း။	-10.3234
တည်းဟူ	-10.3235
▁စားရကြမည်။	-10.3238
▁ငါကျိန်ဆို	-10.3238
▁ညဦးယံ၌	-10.3241
▁မိမိလူမျိုး	-10.3241
ကြပါဟု	-10.3244
နားမှာရှိသော	-10.3244
အရာမှာ၊	-10.3244
▁သည်ကား၊	-10.3246
စေ့သောအခါ၊	-10.3246
မင်္ဂလာရှိ	-10.3251
▁သူ့နောက်မှ	-10.3252
▁ရောက်လျှင်၊	-10.3253
▁စိတ်အားကြီး	-10.3255
▁ပြပ်ဝပ်၍	-10.3258
အရေအတွက်	-10.3273
▁မြော်လင့်စရာ	-10.329
▁မယ်တော်ကား	-10.3293
▁သူ၏မယား	-10.3301
▁အုပ်စိုးသော	-10.3306
အရေဖျားလှီးခြင်း	-10.3309
အခြားသော	-10.3316
▁ငါပေး၏။	-10.3318
▁ရေဗက္က	-10.3326
▁မူမည်။	-10.3326
▁မိမိသခင်	-10.3337
ဗာလ	-10.3339
စာလိပ်	-10.3363
တတ်သည်ဟု	-10.3365
ခြင်းရှိကြလော့။	-10.3375
ဒေါသ	-10.3375
မျက်စိမြင်	-10.3377
▁စပျစ်ရည်နှင့်	-10.338
▁စီရင်တော်မူသော	-10.3385
▁နို့နှင့်	-10.3388
ဘမ်းဆီး	-10.34
▁အကြောင်းမူကား	-10.3403
▁ပြည်သားတို့သည်	-10.3424
ကြီးမြင့်	-10.3435
▁လူမျိုးတို့ကို	-10.3444
သောသူဖြစ်၍၊	-10.3445
▁အမျက်တော်ထွက်၍	-10.3445
စကားတော်ကို	-10.3447
▁ဗေသလ	-10.3448
▁စပျစ်သီးကို	-10.346
▁ပေးရမည်။	-10.3461
▁ကူးသွား	-10.3466
မြင်ရသော	-10.3468
ဟစ်ခေါ်	-10.3483
မည်အကြောင်းတည်း။	-10.3502
ကြားရသော	-10.3521
▁ဖြစ်သော	-10.3533
နိုင်သောသူ	-10.3538
ထားခဲ့	-10.3541
▁ထွက်သွားကြ၏။	-10.3541
▁မုန့်နှင့်	-10.3542
▁လက်တော်နှင့်	-10.3548
▁ဣသရေလလူတို့ကို	-10.355
ယှဉ်	-10.3551
▁တဆေး	-10.3558
▁အမ္မုန်ပြည်	-10.356
▁တော်သို့	-10.3569
သခင်ယေရှုခရစ်	-10.3575
ကြသောအခါ	-10.3589
ဟူမူ	-10.3591
ပေါင်	-10.36
နိုင်မည်အကြောင်း	-10.3602
▁ကျောက်ခဲနှင့်	-10.3603
တွေ့မြင်	-10.3605
ပြစ်မှားခြင်း	-10.3605
ပျဉ်ပြား	-10.3607
ကျော်စော	-10.3608
ကယ်လွှတ်	-10.3611
သွန်းလောင်း	-10.3613
သိုထား	-10.3615
▁တစုံတခုမျှ	-10.3616
ရေကန်	-10.3619
သိုးစု	-10.3621
စွဲလမ်း	-10.3622
လွှ	-10.3624
▁မြက်	-10.3624
ျဉ်း	-10.3626
▁ကောင်းသောအမှု	-10.3626
ယောရှု	-10.3628
ပြင်းထန်	-10.363
▁မုယော	-10.363
ကျင့်ကြံပြုမူ	-10.363
ယဟောရံ	-10.363
▁နဂါး	-10.363
▁ရက်ကန်း	-10.363
▁လာဇရု	-10.363
တိမောသေ	-10.363
ဝေငှ	-10.363
▁တတ်စွမ်းနိုင်	-10.363
▁ကိုယ်ဝန်ဆောင်	-10.363
▁အကဲအမှူး	-10.363
▁ဂေဒလိ	-10.363
တခွန်း	-10.3631
▁ကျော်နင်း	-10.3631
▁ဝေဖန်	-10.3631
▁သင်းအုပ်	-10.3631
▁ကျန်ရစ်	-10.3631
▁အထုံးအဖွဲ့တော်	-10.3631
ကြိမ်မြောက်အောင်	-10.3631
ဗာရုတ်	-10.3631
▁အမှန်ခံရမည်။	-10.3631
▁အမှုတော်ထမ်း	-10.3632
▁ထူထပ်သော	-10.3632
▁သင်နှင့်သင်၏	-10.3635
ရည်ဆောင်၍	-10.3635
စာရေး	-10.3636
▁စေတနာစိတ်နှင့်	-10.3636
▁ငါချစ်သော	-10.3636
လေးထောင်	-10.3637
▁မမှန်သော	-10.3637
▁မိုဃ်းပွင့်	-10.3638
▁မေးလျှောက်သော်၊	-10.3638
တယောက်က၊	-10.3643
▁အဘယ်သူနည်းဟု	-10.3644
ပြုလေရာရာ၌	-10.3644
သောင်းငါးထောင်	-10.3649
▁ကျွန်ယောက်ျား	-10.3649
ကာလနာဘေး	-10.3653
▁ဖက်	-10.3655
▁ယုတ်	-10.3656
▁သူ့ဥစ္စာကို	-10.3657
▁အလျားအတောင်	-10.3659
▁သိမှတ်ကြလော့။	-10.3662
▁မြို့ဝန်မင်း	-10.3674
▁ရန်တွေ့	-10.3679
▁အခြင်းအရာ	-10.3679
▁လက်ဝဲ	-10.3687
▁အချိန်ကာလ	-10.3691
တွင်း၌	-10.3691
▁ကိုယ်တော်၏ကျွန်	-10.3702
▁လူမျိုးအပေါင်း	-10.3713
သဘောရှိ၏။	-10.3714
▁စိမ်းသော	-10.3715
ငါးရက်	-10.3722
ဖြစ်သလော။	-10.3722
▁ရွေးယူ	-10.3722
▁ငါ့မျက်နှာကို	-10.3726
နောမိ	-10.373
▁ပြည့်စေ	-10.3735
ရာဘို့	-10.3736
▁ပိတ်ထား	-10.3742
▁ယုံကြည်သောသူ	-10.3748
▁ကိုယ်အပြစ်ကို	-10.3753
▁စိတ်တော်နှင့်	-10.3756
▁ထိုရှင်ဘုရင်	-10.3756
▁ကောင်းစား	-10.3759
▁အမျက်တော်သည်	-10.376
▁ငါ့ဘက်၌	-10.3761
▁ရှလ္လုံ	-10.3763
▁ခိုင်မာသော	-10.3769
မသင့်	-10.3779
▁ကြည်ညိုသော	-10.3782
▁တောင်းပန်လေ၏။	-10.3782
▁သတိနှင့်	-10.3784
အမွေခံ	-10.3784
▁ငါတို့တွင်	-10.3785
ဝတ်လုံကို	-10.3788
▁ခံသောသူ	-10.3791
▁မပျောက်	-10.3792
▁ပြုသကဲ့သို့	-10.3798
▁ဗာရှန်	-10.38
ထားမည်။	-10.38
သရဖူကို	-10.3804
▁ဘုန်းအာနုဘော်	-10.3805
တရာနှစ်ဆယ်	-10.3806
▁မိမိညီအစ်ကို	-10.3808
လာသည်ကို	-10.3808
မှတ်တိုင်	-10.3809
တတ်သကဲ့သို့	-10.381
▁ရပ်နေကြ၏။	-10.381
နိုင်ဟု	-10.381
ချုပ်ထား	-10.3813
▁ပြန်သွားကြ၏။	-10.3813
▁စပျစ်ဥယျာဉ်ကို	-10.3815
ရာဇပလ္လင်ပေါ်မှာ	-10.382
▁ထောင်လွှား	-10.3823
ရသောအခွင့်ရှိ	-10.3827
▁ထိုအရပ်သို့	-10.3831
ညီအစ်ကိုတို့	-10.3837
▁ထိုမြို့မှ	-10.3838
▁ပြစ်မှားမိ	-10.3842
ဆင်း၍	-10.3846
▁လူဆိတ်ညံရာ	-10.3848
▁လူအပေါင်း	-10.3857
▁စေတနာ	-10.3861
▁ထိုသူက	-10.3864
မြို့မှစ၍	-10.3866
▁သန့်ရှင်းရာ	-10.3875
▁မိမိအသက်ကို	-10.3879
ချစ်သူတို့	-10.3884
▁အသက်နှစ်ဆယ်	-10.3891
▁အရှင်ထာဝရ	-10.3902
▁ငါ့နာမကို	-10.3914
▁ငါ၏လူတို့သည်	-10.3923
▁စီရင်ရမည်။	-10.3925
မခေါ်	-10.3932
▁အိုထာဝရ	-10.3934
▁စွန့်၍	-10.3939
တယောက်ရှိ၏။	-10.394
ဝတ်ပြု	-10.3948
▁ဝမ်းနည်း	-10.3953
အသရေ	-10.3959
▁အသစ်	-10.3967
▁မင်္ဂလာဆောင်	-10.3969
ဖြစ်သောသူ	-10.397
သည်အကြောင်းကို	-10.3971
အရာရှိ	-10.3971
▁မချဉ်း	-10.3972
▁ဖျက်ဆီးခြင်းငှါ	-10.3977
▁သင်တို့ဘိုးဘေး	-10.3986
တုရ	-10.399
▁ဆည်းဖူး	-10.3991
ထဲမှ	-10.3992
▁အဝတ်တော်	-10.3998
▁တို့၏	-10.4004
ာယ၊	-10.4013
ပူပန်ခြင်း	-10.4013
မရှိသောကြောင့်၊	-10.4014
▁မထီမဲ့မြင်	-10.4019
▁ချီလာ	-10.4024
မြည်တမ်း	-10.4026
စိတ်ပျက်	-10.4029
▁ဘိသိက်	-10.4032
သင့်။	-10.4033
▁တမန်တော်တို့သည်	-10.4043
▁ဤစကားကို	-10.4047
ဟုဆို၏။	-10.4055
▁အချည်းနှီးသော	-10.4061
အားကြီး၍	-10.4063
▁ငွေအခွက်	-10.4068
ဌ	-10.4076
▁လိုက်လေ၏။	-10.4077
▁လယ်ပြင်	-10.4082
၏အကြောင်းကို	-10.409
▁တရားသောအမှု	-10.4093
အစဉ်အမြဲ	-10.41
အင်တုံ	-10.4106
နံနက်စောစော	-10.4106
ဖေါက်ပြန်	-10.4107
လျှက်	-10.4107
▁ကျပ်တည်းစွာ	-10.4107
▁ထိုခဏခြင်းတွင်	-10.4107
▁ယုဘိလနှစ်	-10.4107
▁အကျပ်တော်အလိုက်	-10.4107
▁ဥဖရတ်မြစ်	-10.4107
▁နိစ္စထာဝရ	-10.4107
▁ရှေးဦးစွာ	-10.4107
▁ဧလကာန	-10.4107
▁ခေါ်ဘိတ်	-10.4107
▁အိုဘုရားရှင်	-10.4107
▁နာဗလ	-10.4107
▁နံနက်စောစောထ၍	-10.4107
▁ဂျုံစပါး	-10.4107
▁နုန်၏သား	-10.4107
▁အာမုတ်	-10.4107
▁ထိုနေ့ခြင်းတွင်	-10.4107
▁လက်ကိုဆန့်	-10.4108
ထမ်းဘိုး	-10.4109
ချိုးဖဲ့	-10.4109
▁ညဉ့်အချိန်၌	-10.4109
▁နူနာစွဲ	-10.411
▁ဝေဒနာ	-10.411
▁မင်းအရာရှိ	-10.411
နောက်တော်သို့	-10.4111
▁စေသော။	-10.4111
▁အာဗေလ	-10.4112
▁ဗိုလ်ချုပ်မင်း	-10.4112
သမီးတို့သည်	-10.4112
ဒံယေလ	-10.4112
မှောက်လှန်	-10.4113
နည်းဥပဒေသ	-10.4113
ထုံးစံအတိုင်း	-10.4114
▁ငွေဖလား	-10.4114
▁မေဒိ	-10.4114
▁သူဖြစ်၏။	-10.4114
သန့်ရှင်းရာဌာန	-10.4115
ကျိန်ဆဲ	-10.4115
ကြွေးကြော်	-10.4115
▁ရေလွှမ်းမိုး	-10.4115
▁သိတင်းကြားပြော	-10.4115
အိပ်မက်	-10.4116
▁ပမာဏမပြု	-10.4117
▁ဗာရှာ	-10.412
▁မြင်းစီး	-10.4123
မေးသော်၊	-10.4124
▁မျက်နှာပျက်	-10.4124
အစဉ်အမြဲတည်	-10.4126
▁အကြောင်းမရှိဘဲ	-10.4126
မြေး	-10.4128
ရွေးနှုတ်	-10.4128
▁မေ့	-10.4134
လွှဲရှောင်	-10.4136
▁ကိုယ်လက်နှင့်	-10.4136
ကိုက်စား	-10.4137
▁ရှာသောသူ	-10.4137
လာကြ။	-10.4143
▁ခြေဖြင့်	-10.4145
▁ငါမှတပါး	-10.4149
▁အသက်ဆုံး	-10.4151
▁မြို့ပြင်သို့	-10.4152
နီးပြီ။	-10.4152
နမ်း	-10.4156
တံခါးခုံ	-10.4161
▁အမှုစောင့်	-10.4166
▁သိမြင်လျှင်၊	-10.418
မိန့်တော်အတိုင်း	-10.4182
▁ထမြောက်ခြင်း	-10.4193
အုံ	-10.4194
▁သင့်တဘက်၌	-10.4195
▁တိရ	-10.4198
ခရီးသွား	-10.42
မရှိကြနှင့်။	-10.4201
▁မဆိုင်	-10.4205
မည်မျှ	-10.4208
အရပ်ရပ်တို့၌	-10.4208
မတရားသော	-10.4208
ဗင်္ယာမိန်ခရိုင်	-10.4211
▁ပြောလော့ဟု	-10.4212
ခံရမည်။	-10.4219
▁မူပြီ။	-10.422
အဆုံး၌	-10.4224
တော်မူသောအခါ	-10.4234
ရမည်လောဟု	-10.4245
တည်စေ	-10.426
ကြပါ၏ဟု	-10.4261
▁အထံတော်မှ	-10.4266
▁မှာထားလေ၏။	-10.4267
အချို့တို့က၊	-10.4268
ဆီမီး	-10.427
ညစ်ညူးစေ	-10.4284
▁အာမင်ဟု	-10.4284
▁ထိုအရာတို့ကို	-10.4289
▁သွားပြီးလျှင်၊	-10.4291
▁ထိုသူအား	-10.4296
▁မပယ်	-10.4303
ဝင်း	-10.4324
▁လောကီသားတို့သည်	-10.4337
▁အပြစ်ရောက်	-10.4353
အမှီပြုလျက်	-10.4357
▁ဘုန်းတန်ခိုး	-10.4357
သင်တို့၏	-10.4358
ဟံ	-10.4389
မတွေ့။	-10.439
ကြစဉ်တွင်၊	-10.4394
▁သခင်ဘုရား၌	-10.4394
▁ဧလိရှဲသည်	-10.4395
▁ထားတော်မူ၏။	-10.4402
▁လူများအပေါင်း	-10.4419
▁ရှိတော်မူသော	-10.4423
သပ်	-10.4427
ဝင်စား	-10.4441
နှင့်စုံဘက်	-10.4443
မဟုတ်လော။	-10.4443
သို့ရောက်သောအခါ	-10.4444
▁သေလွန်	-10.4446
ပညတ်တော်	-10.4449
▁စွန့်ပစ်၍	-10.4456
▁သိတော်မူ၏။	-10.446
▁နှစ်သက်တော်မူ	-10.4462
▁အခြားသူ	-10.4477
နှစ်သိမ့်	-10.4494
▁???	-10.4511
ခေါ်ခဲ့	-10.4512
ကျမ်းစာ၌	-10.4517
သွားမည်ဟု	-10.4521
▁မစိုးရိမ်	-10.4529
▁မငြိမ်း	-10.4543
တိုင်အောင်၎င်း	-10.4545
ပေးစား	-10.4548
▁ရန်တွေ့ခြင်း	-10.4554
▁ငါ့ခမည်းတော်သည်	-10.4559
▁ကြွင်းသောသူတို့	-10.4561
သိလျှင်၊	-10.4569
▁ကွဲပြားစေ	-10.4569
တံခါးတို့ကို	-10.4575
▁ဣသရေ	-10.4581
ငါးထောင်	-10.4588
▁ငါ့ဝိညာဉ်သည်	-10.4597
ထိမ်းမြား	-10.4607
အနီးအပါး	-10.4607
ငံ့လင့်	-10.4607
ရွှံ့	-10.4607
္ဌာန်	-10.4607
▁ငါချစ်ရာသခင်	-10.4607
▁မာကေဒေါနိ	-10.4607
▁သက္ကရာဇ်	-10.4607
▁သာသနာပလူတို့	-10.4607
ပုဆိန်	-10.4607
မြိန်	-10.4607
▁အိုးကင်း	-10.4607
ယောင်ဆောင်	-10.4607
▁ပေရသိ	-10.4607
▁ရုပ်သိမ်း	-10.4607
▁အထည်	-10.4607
▁ဒသမ	-10.4607
ကြစို့။	-10.4607
အမြီး	-10.4607
တညီတည်း	-10.4607
▁စမ်းရေ	-10.4607
▁ဟာနနိ	-10.4608
▁မလုပ်ရ။	-10.4608
▁အာဏာစက်	-10.4609
▁တနေ့လုံး	-10.4611
▁ပုန်းရှောင်၍	-10.4611
▁ဇာတိ	-10.4612
▁ဟေဗာ	-10.4612
▁မကြောက်ကြနှင့်။	-10.4613
သောသူအပေါင်း	-10.4613
▁ကာရန်	-10.4614
သောင်းလေးထောင်	-10.4615
▁ဒါဝိဒ်မင်း	-10.4615
▁စာရင်းဝင်	-10.4617
▁စာရင်းဝင်သော	-10.4617
▁လက်သမား	-10.4619
▁ထူးခြားသော	-10.462
ပုန်းရှောင်	-10.462
▁ဌာနတော်	-10.4623
▁ဆိတ်သငယ်တကောင်	-10.4623
အလယ်မှာ	-10.4623
▁တောဘိ	-10.4625
▁အထံတော်	-10.4627
▁တယောက်ကိုမျှ	-10.4627
▁နားမထောင်ဘဲနေ	-10.4628
ရကြလိမ့်	-10.4629
▁အာမခံ	-10.4633
န်မြို့၊	-10.4634
▁ကိုယ်ခင်ပွန်း	-10.4636
နားမလည်	-10.4638
အသင်းတော်	-10.464
အဲဂုတ္တု	-10.464
ခြင်္သေ့	-10.464
အချင်းချင်း	-10.4641
▁ခုန်	-10.4642
▁ရည်	-10.4642
▁အဘိမလက်သည်	-10.4647
အကြီးတို့နှင့်	-10.4651
▁မြေအသီးအနှံ	-10.4653
နေ့ရက်ကာလ	-10.4654
▁အလွန်ဝမ်းမြောက်	-10.4656
▁သတိပြုကြလော့။	-10.4657
▁ရှေခင်	-10.4659
်အမြတ်	-10.4661
▁ဟေရုဒ်မင်း	-10.4662
တိုင်တည်၍	-10.4662
▁ဟိတ္တိလူ	-10.4663
▁ပစ်ချ	-10.4664
တခုတည်း	-10.4667
▁ပရော	-10.4667
ယေဟု	-10.4669
လာသောအခါ၊	-10.467
▁နေဝင်	-10.4673
ပြုမူ	-10.4675
ခေါင်းပေါ်သို့	-10.468
▁ဤစာ	-10.4682
▁သူ၏ညီ	-10.4684
▁သာယာသော	-10.4684
အလျှင်းမရှိ	-10.4685
▁ငွေရတတ်	-10.469
ကြပြီတကား။	-10.4693
▁အာဟပ်မင်း	-10.4697
▁တပ်ချကြ၏။	-10.4703
ဘုရားသခင့်	-10.4703
▁ခပ်သိမ်းသောသူ	-10.4705
လျက်ရှိပါ၏။	-10.471
မကြောက်နှင့်။	-10.4718
▁ယောရှုအား	-10.4718
▁တောအရပ်	-10.4718
▁မြေတပြင်လုံး	-10.4725
▁ဂေရ	-10.4727
▁မကောင်းသောအကြံ	-10.4728
ဖြစ်သကဲ့သို့	-10.4733
မကယ်မ	-10.4734
စိုးရိမ်ကြနှင့်။	-10.4735
▁ကျမ်းပြုဆရာတို့	-10.4737
▁ငါနှစ်သက်	-10.4737
▁မသနား	-10.474
ကိုသတ်၍	-10.4741
ဧဖာ	-10.4742
တသောင်းနှစ်ထောင်	-10.4746
သဘောရှိ	-10.4748
နတ်ဆိုးစွဲ	-10.475
ထံတော်၌	-10.4753
သေကြောင်းကို	-10.4754
ဗျာဒိတ်တော်	-10.4757
▁ပြောဆိုလျှင်၊	-10.476
သိမ်	-10.4761
▁ထိုမြို့သို့	-10.4766
▁သူတို့ရှိရာသို့	-10.4771
▁ဖန်ဆင်းတော်မူ၏။	-10.4775
တန်ဆာတို့ကို	-10.4775
လွှတ်၍	-10.4778
▁ငါ၏ကျွန်	-10.4778
သင်တို့အား	-10.4782
အတတ်ကို	-10.479
ချစ်တော်မူ	-10.4793
တော်မမူဟု	-10.4793
▁သက်သာစေ	-10.4795
▁စားပွဲ၌	-10.48
ဆယ်ဘို့တဘို့ကို	-10.4802
▁အဘယ်မှာရှိသနည်း	-10.4805
တော်မူသလော။	-10.4806
▁လျ	-10.4809
▁သင်တို့အပေါင်း	-10.4812
▁မိမိအပြစ်	-10.4815
မြည်သံ	-10.4817
ဆယ်ခြောက်	-10.4823
အမှုထမ်း	-10.4831
သိကျွမ်း	-10.4846
မြို့ရွာများ	-10.4855
တပိ	-10.486
▁သူတို့တဘက်၌	-10.4862
▁လယ်ပြင်၌	-10.4862
ဆယ်ရှစ်နှစ်	-10.4864
သောစိတ်ရှိ၍	-10.4866
▁စေလွှတ်လေ၏။	-10.4873
များဟူမူကား၊	-10.4883
▁စောင့်မတော်မူ	-10.489
ခိုင်ခံ့သောမြို့	-10.4894
▁ဂိလဒ်ပြည်သား	-10.4899
ထဲကထွက်၍	-10.4906
▁ဇေဒကိမင်း	-10.4916
▁သင့်ထံသို့	-10.4921
ယောက်တည်း။	-10.4925
▁ဂိဒေါင်သည်	-10.4933
▁ပေတရုက	-10.4934
သရဖူ	-10.4935
▁ငါသည်ကိုယ်	-10.4943
ောနိ	-10.4946
▁သူ၏အိမ်	-10.4948
ဖြစ်ပါသည်ဟု	-10.4953
▁လက်ရုံးတော်	-10.4955
ဖြစ်သနည်းဟု	-10.4959
▁ရှုရိလူ	-10.496
သည်ကိုမြင်လျှင်၊	-10.4967
အာဗြဟံ	-10.4967
▁ရွှင်လန်းခြင်း	-10.4967
ဇေလ	-10.497
▁ဂါလိလဲ	-10.4971
ဗတ္တိဇံကိုခံ	-10.4974
▁ထိုစကားကိုကြား	-10.4976
တုံး	-10.4976
ကြသည်မဟုတ်။	-10.4982
▁ထိုင်တော်မူ	-10.4987
▁ကိရှ	-10.4991
မြို့ရွာတို့၌	-10.5006
အစေကို	-10.5031
▁နန်းတော်သို့	-10.5034
▁ထုတ်ဆောင်	-10.5042
▁လူဆိတ်ညံလျက်	-10.5062
▁နာမည်	-10.5072
▁ဇိဖ	-10.509
စီရင်သည်အတိုင်း၊	-10.5092
ဖြင့်၎င်း၊	-10.5093
▁ငါ့အသက်	-10.5097
▁ထကြ	-10.5099
အရှင်ဘုရားသခင်	-10.5101
▁ဗေရိ	-10.511
▁မိမိအသက်	-10.511
ဇုရ	-10.5111
ရှိသမျှကို၎င်း၊	-10.5121
ပေါ်မှ	-10.5122
▁မိန့်မြွက်	-10.5129
သွေး	-10.5129
ခင်းကျင်း	-10.5131
▁သုံးကြိမ်	-10.5132
ပျင်းရိ	-10.5132
ကွပ်	-10.5133
လယ်ကွက်	-10.5133
သုံးစုတစု	-10.5133
အကွက်	-10.5133
▁ရောင့်ရဲ	-10.5133
ဘတ်ရွတ်	-10.5133
▁ကိလေသာ	-10.5133
▁တံစိုး	-10.5133
▁ပရိတ်သတ်	-10.5133
▁မရဏနိုင်ငံ	-10.5133
▁အာရဇ်သစ်သား	-10.5133
အသုံးအဆောင်	-10.5133
▁အမြတ်ဆုံးသော	-10.5133
▁ဆင်းတု	-10.5133
▁ဂါဇမြို့	-10.5133
▁အထက်ဆိုခဲ့ပြီး	-10.5133
ပညတ္တိကျမ်းစာ၌	-10.5133
▁တမြို့လုံး	-10.5133
▁အအူ	-10.5133
▁စုသိမ်း	-10.5133
တကြိမ်	-10.5134
ဆိတ်ကွယ်ရာအရပ်	-10.5134
▁ဗိုလ်ချုပ်	-10.5135
▁လဆန်းနေ့	-10.5135
▁ပတ်သာ	-10.5135
▁အဆင်းအရောင်	-10.5135
▁ကြီးသောအသံနှင့်	-10.5135
တေမန်	-10.5136
▁စွန့်ကြဲ	-10.5136
▁လုံခြုံစွာ	-10.5136
▁ကင်းစင်	-10.5136
▁စာစောင်	-10.5136
ငါးတောင်ရှိ	-10.5138
▁မေရှက်	-10.5138
▁စီရင်ဆုံးဖြတ်	-10.5138
▁သာ၍ကောင်း၏။	-10.5139
▁သို့သော်	-10.5139
တို့ကိုခေါ်၍၊	-10.5142
ခြံ	-10.5143
▁သိုးမွေး	-10.5146
▁လုယူဖျက်ဆီး	-10.5147
▁တင့်တယ်သော	-10.5147
▁လျှောက်ကြလျှင်၊	-10.5148
စေ့အောင်	-10.5149
▁ယောသံ	-10.515
▁အသင့်ရှိ	-10.5151
▁ပလ္လင်ပေါ်မှာ	-10.5155
လ္လ	-10.5156
▁နာခေါ်	-10.5157
▁ငါရွေးကောက်	-10.5157
မရှိသည်ကို	-10.516
ရှိသမျှတို့၌	-10.516
▁ခြေထောက်	-10.516
▁အာရပ်	-10.5161
▁ခင်း	-10.5163
▁အာမသ	-10.5167
▁ကြောက်ရွံ့ခြင်း	-10.5167
▁တီး	-10.5168
▁ကျောက်မြတ်	-10.5179
▁ဧလိရှဲက	-10.5179
တောင့်တ	-10.5181
▁ဧည့်သည်ဖြစ်	-10.5182
ဝိုင်း၍	-10.5186
▁ခစား	-10.5187
သွေ့ခြောက်	-10.5188
▁အမျက်ထွက်တော်မူ	-10.5188
ဦးလော့ဟု	-10.5189
ဖုံးလွှမ်း	-10.5191
ငြင်းခုံ	-10.5192
အရှင်မင်းကြီး	-10.5193
နေဗုခဒ်နေဇာ	-10.5194
▁ရန်သူလက်သို့	-10.5194
▁မကျန်ကြွင်း	-10.5195
အသက်ကြီးသူ	-10.5196
ဆင်းသက်	-10.5196
သမုတ်	-10.5196
ကျွေးမွေး	-10.5197
ဂေါဂ	-10.5198
ဖြိုချ	-10.52
ဆုံးရှုံး	-10.5203
▁ထွက်ပြေး	-10.5204
▁နွားတကောင်	-10.5211
▁ခေါ်ပြီးလျှင်၊	-10.5211
ကိုးနှစ်	-10.5211
▁သားဘွားခြင်း	-10.5216
▁လျှို့ဝှက်သော	-10.5218
▁ရှိနေ	-10.522
▁အသက်ရှင်သောသူ	-10.5222
▁ယှဉ်သော	-10.5223
နေရင်းပြည်	-10.5224
ေယူ၍	-10.5226
▁ငြိမ်ဝပ်ခြင်း	-10.5226
▁ဣသရေလလူအပေါင်း	-10.5229
ဖောက်ပြန်	-10.5233
▁လမ်းလွှဲ	-10.5238
နာဟတ်	-10.5246
▁အာရုန်အား	-10.5253
▁ထလော့။	-10.5253
▁တောင်ကြီး	-10.5255
▁သူ့ရှေ့မှာ	-10.5255
တပ်မက်	-10.5257
နှုတ်ကပတ်တော်	-10.5258
▁အားယူ	-10.5259
▁သူ့အဘို့	-10.5262
▁ကယ်မ	-10.5263
▁ထွက်ဝင်	-10.5264
▁ညအချိန်	-10.5267
▁မည်သည်	-10.5273
▁ထုံးစံရှိ	-10.5275
▁ရွှေစင်နှင့်	-10.528
မိမိတို့	-10.528
▁တကျိပ်နှစ်ယောက်	-10.5282
တရားအတိုင်း	-10.5284
▁မရှောင်	-10.5287
လျှာသည်	-10.5288
▁ငါမှာထားသမျှ	-10.531
ယောရှ	-10.5314
▁ပေးတော်မူပါ။	-10.5325
မဟုတ်ဟု	-10.5326
▁တိုက်ခြင်းငှါ	-10.5334
ဖြစ်စေဟု	-10.5339
ပါမည်လောဟု	-10.5342
သူတပါး	-10.5352
▁ကြားရ၏။	-10.5352
ပြန်လာ၍	-10.5359
▁အမျက်တော်ထွက်	-10.5365
▁ခန့်ထားတော်မူ၏။	-10.5367
နှင့်အလျောက်	-10.537
အမျိုးသားတို့အား	-10.5374
▁ပင်လယ်ရေ	-10.5386
▁စုံလင်ခြင်း	-10.5387
ပဌနာစကားကို	-10.5388
▁ပြုတ်	-10.5389
သောင်းနှစ်ထောင်	-10.5389
သီချင်းဆို	-10.5391
မြို့သူ	-10.5393
▁ချဉ်း	-10.5398
ပြည်သူပြည်သား	-10.5404
▁တက်သွား	-10.5407
▁အာရုန်၏သား	-10.5419
ဘုရားမိန့်တော်မူ	-10.5424
စကားအတိုင်း	-10.5433
ကြမည်	-10.5437
▁ကြဉ်ရှောင်	-10.5442
▁ဝစွာစားရ	-10.545
အထဲမှာ	-10.5455
▁ဆယ်ဘို့တဘို့	-10.5475
▁ရှောလုက	-10.5475
▁ဆုံးမဩဝါဒ	-10.5476
▁အပ်လိုက်	-10.5477
ရှိသကဲ့သို့	-10.5491
ရင်ခွင်၌	-10.55
▁ဖိလိတ္တိပြည်	-10.55
မည်မဟုတ်။	-10.5504
▁ယေရှုကလည်း	-10.5506
▁ရှုရိပြည်	-10.5508
▁ဂဒ်အမျိုးသား	-10.5514
▁လင်းစေ	-10.5516
▁ငါ့သမီး	-10.5552
ရန်ဘက်	-10.5557
▁မြင်သောအခါ	-10.5562
▁သွေ့ခြောက်သော	-10.5563
▁မွှေးကြိုင်	-10.5568
▁စစ်သူရဲတို့သည်	-10.5571
▁မြော်ကြည့်၍	-10.5574
ဆပ်ပေး	-10.5584
▁ညဦးယံ	-10.5589
ရမည်နည်းဟု	-10.5595
▁ဤအမှုအရာ	-10.5597
▁အစာအာဟာရ	-10.5608
▁ထိုပလ္လင်	-10.5609
▁ပိလတ်မင်းသည်	-10.5609
တန်ခိုးအာနုဘော်	-10.5612
ထုံးဖွဲ့	-10.5636
▁ရွေးနှုတ်တော်မူ	-10.5639
အချို့တို့	-10.5639
ခိုလှုံရာဖြစ်	-10.5649
တောင်းပန်ပါ၏။	-10.5666
ခရီး	-10.567
▁အနာဂတ္တိ	-10.5678
▁ဟေရှဘုန်	-10.5681
▁ကြောက်ရွံ	-10.5684
▁ငြိမ်သက်	-10.5685
▁မှောက်	-10.5687
မွန်းတည့်	-10.5688
ကမ္ဘာ	-10.5688
ာစိုး	-10.5688
ချို့တဲ့	-10.5688
မ္မစည်းဝေးခြင်း	-10.5688
အတည့်အလင်း	-10.5688
▁ခြေစွပ်	-10.5688
▁ဇေရုဗဗေလ	-10.5688
▁တရံရောအခါ	-10.5688
▁ဟိဝိလူ	-10.5688
▁အန္တိအုတ်မြို့	-10.5688
▁အဝတ်အချည်းစည်း	-10.5688
▁အဟိမလက်	-10.5688
▁ဩဇေလ	-10.5688
▁ဩဗဒိ	-10.5688
တခြားစီ	-10.5688
အလို့ငှါ	-10.5688
ဩဗဒေဒုံ	-10.5688
▁ဧကြုန်မြို့	-10.5688
▁သုကုတ်	-10.5688
▁ဟာဇော်	-10.5688
▁မိုဃ်းမရွာ	-10.5688
ိညာဉ်သေတ္တာတော်	-10.5689
▁အမြန်	-10.5689
▁အတိုး	-10.5689
ပွားများ	-10.5689
▁ခါရန်	-10.5689
▁ဟာနန်	-10.5689
▁လက်ရဥစ္စာ	-10.5689
▁ရောဂါ	-10.5689
မုရန်	-10.569
▁တန်ဆာဆင်	-10.5691
▁အဘယ်အရာကိုမျှ	-10.5692
▁လွတ်လပ်	-10.5692
▁ချယ်လှယ်သော	-10.5692
▁အကောင်းဆုံးသော	-10.5692
▁အာရှာအမျိုး	-10.5693
▁ဒိုင်း	-10.5693
ရွေ့လျော့	-10.5693
▁မုန့်ပြား	-10.5694
▁မခံမယူ	-10.5694
▁စာရေးတံပြု၍	-10.5695
▁စစ်ဆေး	-10.5695
▁ခြင်္သေ့ပျို	-10.5695
▁လျှောက်လေသော်၊	-10.5695
▁လက်ဝါး	-10.5696
စဖူး	-10.5696
▁ဟေရှဘုန်မြို့	-10.5696
▁မိုဃ်းကြိုး	-10.5696
▁သမက်	-10.5697
▁အာဒံ	-10.57
▁ဣသမာ	-10.57
▁လောကီနိုင်ငံ	-10.57
မ္မဆရာ	-10.5701
▁ဖွင့်ပြ	-10.5703
▁ဆိုလေသော်၊	-10.5703
▁အစာစား	-10.5705
▁ပြအိုး	-10.5705
ပါတော့။	-10.5705
▁ဝပြော	-10.5707
▁မျက်စိကန်းသောသူ	-10.5707
▁ဝံ	-10.5709
▁ပြစ်မှားစေသော	-10.5712
▁မြေပေါ်၌	-10.5714
▁အဘယ်သို့နည်းဟု	-10.5715
အမွေခံရာ	-10.572
▁အသက်သုံးဆယ်	-10.5721
ကျောက်ခဲနှင့်ပစ်	-10.5722
▁ကာလနာ	-10.5722
▁လူကိုစေလွှတ်၍	-10.5724
▁ချီးမွမ်းပါမည်။	-10.5725
▁လူပေါင်းကား	-10.5725
နှင့်ကင်း	-10.5727
၏အမိန့်တော်ကို	-10.5731
▁ဘိသိက်ခံသော	-10.5734
▁စာရေးတံချ	-10.5735
▁ဤသူငယ်	-10.5736
သည်ဟုဆို၏။	-10.5741
▁ယဇ်ဘို့	-10.5746
▁အချို့က	-10.575
▁ငါ့ဘုန်း	-10.5751
▁ဝေးစွာ	-10.5755
▁သင်ရှိရာသို့	-10.5759
ိရှဲ	-10.576
ခိုက်	-10.576
▁စာတန်သည်	-10.5761
အိပ်ပျော်	-10.5763
အရပ်ဌာန	-10.5767
ဩဝါဒ	-10.5776
နှင့်ဆိုင်၍	-10.578
▁မေးမြန်းလျှင်၊	-10.5781
လက်ဝါးကပ်တိုင်	-10.5782
ကျက်စား	-10.5782
သုတ်သင်ပယ်ရှင်း	-10.5783
လျောင်း	-10.5787
▁အာရှုရိပြည်	-10.5789
ကြစေဟု	-10.5791
ကယ်နှုတ်	-10.5791
အဘယ်သူမျှ	-10.5796
မ္မပွဲ	-10.5796
▁အမွေမြေ	-10.5797
▁အခွက်	-10.5798
▁အကြောင်းပြု၍	-10.5803
▁ငါချိုး	-10.5807
▁စာရင်း၌	-10.5808
ဘုန်းအသရေ	-10.5811
▁အခက်	-10.5819
▁ထိုအကြောင်းကို	-10.5829
▁တမန်တို့ကို	-10.583
ကဲ့	-10.5835
▁ယဇ်ပူဇော်ခြင်း	-10.5838
▁ဤသူကား	-10.5844
ပညတ်တို့ကို	-10.5853
၏ဘုန်းကို	-10.5857
▁ငါ့ရှေ့၌	-10.5865
နှစ်ကြိမ်	-10.587
▁အမှုအရာတို့ကို	-10.587
▁အိမ်သား	-10.588
▁ချစ်ခြင်း	-10.5881
မပြု။	-10.5883
▁ကိုယ်တော်သိ	-10.5899
နှစ်မျိုး	-10.5903
▁ငါ့စိတ်နှလုံး	-10.5911
အုပ်စိုးခြင်းကို	-10.5912
တင်လျက်	-10.5913
▁အစာရှောင်ခြင်း	-10.5955
ပြင်၏။	-10.5958
အပေါင်းတို့တွင်	-10.596
မြောက်သောသူ	-10.5972
▁အကျွန်ုပ်သခင်	-10.5978
စပ်ကြား၌	-10.5989
▁နှစ်စဉ်	-10.5997
အမြင့်	-10.5999
▁ကိုယ်စိတ်နှလုံး	-10.6003
နိုင်မည်	-10.6005
လိုသောငှါ	-10.6011
အရာကြွင်းလေသမျှ	-10.6053
▁ကျွန်ခံရ	-10.6056
တည်ရာ	-10.6057
▁ဇာဗုလုန်အမျိုး	-10.6058
▁လူသားတို့	-10.6065
ခြောက်ထောင်	-10.6079
ရှိသေး	-10.6102
▁ပြည်တော်၌	-10.6115
နေစဉ်၊	-10.6117
အပေါင်းတို့ထက်	-10.6117
▁ထူ	-10.6128
▁အချင်းလူ	-10.6132
▁ဝစွာစား	-10.6147
▁အခါမလည်	-10.6156
ပြစ်မှားသောအပြစ်	-10.6168
▁သစ္စာတရား	-10.617
▁ရထားတော်	-10.6176
ထောမနာသီချင်းဆို	-10.6186
သုံးသောင်း	-10.6203
မိုဃ်းလင်း	-10.6206
▁အိုဣသရေလ	-10.6209
▁ကယ်နှုတ်တော်မူ	-10.6225
▁အမှုတော်တို့ကို	-10.6237
▁တက်လာ	-10.6258
ရောင်	-10.626
ထဲကထွက်	-10.6261
ဥမင်	-10.6264
▁ဖွင့်၍	-10.6266
▁အာရဇ်	-10.6268
ကုလား	-10.6275
နူးညံ့သိမ်မွေ့	-10.6277
မိုဃ်းချုန်း	-10.6277
ဟာဒဒေဇာ	-10.6277
▁ကာဒေရှ	-10.6277
▁ဆူဖြိုး	-10.6277
▁တုံးလုံးနေ	-10.6277
▁ပရောဖက်ယေရမိ	-10.6277
▁ယေခေါနိ	-10.6277
▁လေဘွေ	-10.6277
▁အသင့်အတင့်	-10.6277
▁ဧဖက်မြို့	-10.6277
နူးညွတ်	-10.6277
နွမ်း	-10.6277
အလိုဆန္ဒ	-10.6277
▁ခြေဆွံ့	-10.6277
▁ဗက်ရှေမက်မြို့	-10.6277
▁သိပ္ပံအတတ်	-10.6277
ဘိသိတ်	-10.6277
ပဲ့ပြင်	-10.6277
▁မျောက်မထား	-10.6277
▁ဧဒင်	-10.6277
ကြည်လင်	-10.6277
ဆီမွှေး	-10.6277
▁နွေကာလ	-10.6277
▁ကိုယ်ကာယ	-10.6277
ကုရု	-10.6277
▁စစ်ကဲ	-10.6277
ကျူလုံး	-10.6277
နွေး	-10.6277
ပါရစေ။	-10.6277
ရည်းစား	-10.6277
ထင်းရူး	-10.6277
▁သင်္ဘောသဖန်းသီး	-10.6277
▁မြင့်မြတ်	-10.6278
▁ယုဒရာဇဝင်၌	-10.6278
▁ချုပ်တည်း	-10.6278
▁အာဇုတ်မြို့	-10.6278
အုတ်ရိုး	-10.6278
▁ကြမ်းတမ်းစွာ	-10.6278
▁သတ္တမနေ့၌	-10.6279
တံစို့	-10.6279
▁ကိလမြို့	-10.6279
ပြိုပျက်ရာ	-10.6279
▁စေ့စေ့နားထောင်	-10.6279
▁ဆင်းရဲငတ်မွတ်	-10.6279
စ္စ	-10.628
▁ကျဉ်း	-10.628
▁အာမောရိလူ၊	-10.628
▁သဘောဖြောင့်	-10.628
▁အဦးဘွားသော	-10.628
▁စိတ်စွဲလမ်း	-10.6282
▁အစေခံကျွန်	-10.6282
▁တာမာ	-10.6282
▁အနိစ္စရောက်	-10.6282
▁အဘိရှဲ	-10.6282
အံ့နည်းဟု	-10.6283
ပျားရည်စီးသော	-10.6283
မြုပ်	-10.6284
▁ဘောဇဉ်ပူဇော်	-10.6286
ိညာဉ်ဖွဲ့	-10.6286
▁လူခပ်သိမ်းတို့	-10.6287
ခေါက်	-10.6289
ဒုစရိုက်ဖြေရာယဇ်	-10.629
ရာမုတ်မြို့သို့	-10.6291
▁စိတ်မသာ	-10.6292
▁ဣသရေလရာဇဝင်၌	-10.6295
ကြွလာတော်မူ	-10.6297
▁ဖေရဇိလူ	-10.6298
▁အမှုကိုပြု	-10.6298
ရသောနေ့	-10.6298
မြင်တော်မူလျှင်၊	-10.6299
▁လေတိုက်	-10.6302
▁ဟုန်း	-10.6303
▁ဒါဝိဒ်မြို့၌	-10.6305
တံခါးဝမှာ	-10.6307
▁သစ္စာဂတိထား	-10.6307
▁ခါလဒဲပြည်	-10.6313
▁ငတ်မွတ်သောသူ	-10.6318
ပါမည်နည်းဟု	-10.6321
▁ငါ့ကိုယ်တိုင်	-10.6323
▁ဗိုလ်မင်း	-10.6323
▁မြို့ထဲ၌	-10.6325
▁စေ့စေ့ကြည့်ရှု	-10.633
▁မနာရှေအမျိုးသား	-10.6331
ဆိုတတ်ကြ၏။	-10.6334
▁ကိုယ်စိတ်	-10.6335
▁အခွင့်မရှိ	-10.6335
တပါးအမျိုးသား	-10.6336
တော်မူလိမ့်	-10.6337
ဘွားမြင်သောနောက်	-10.6337
▁ထိုသူတို့ကလည်း	-10.6346
ကောက်သိမ်း	-10.6346
▁ဤလောကသို့	-10.635
▁ငါပယ်ရှင်း	-10.6352
▁ပသခါပွဲ	-10.6353
▁အချိန်ရောက်	-10.636
▁လွန်သွား	-10.6362
▁လူအချို့တို့သည်	-10.6364
ဆုကျေးဇူး	-10.6368
▁ဒန်အမျိုးသား	-10.6371
နေ့ညမှာ	-10.6378
▁ထားတော်	-10.6386
ရူပါရုံ	-10.6386
ရှိစေလော့။	-10.6391
▁ပညတ်ထား	-10.6399
▁အသက်ငယ်	-10.6402
စပျစ်ဥယျာဉ်	-10.6406
အဆွေခင်ပွန်း	-10.6407
မြက်ပင်	-10.6407
▁မောရှေသည်လည်း	-10.6407
အစဉ်မပြတ်	-10.6414
မီးခွက်	-10.6429
အမိန့်တော်ရှိ၏။	-10.6431
မဟုတ်ပါ။	-10.6432
▁ညှဉ်းဆဲသောသူ	-10.6434
လုပ်ကျွေး	-10.6442
ကြေးဝါ	-10.6443
သုံးရက်	-10.6446
▁မှတ်တော်မူ၏။	-10.6453
တံခါးဝသို့	-10.6456
▁အနိုင်အထက်ပြု	-10.646
▁ဗေသ	-10.647
▁ရှောလုသည်လည်း	-10.6473
▁သင်္ချိုင်းတော်	-10.6474
▁ထသွား	-10.6491
▁သေစေခြင်းငှါ	-10.6492
ကောင်းမွန်	-10.651
လက်မှ၎င်း၊	-10.6518
အဘအာဗြဟံ	-10.6525
▁မှတ်တော်မူ	-10.6527
▁ကိုယ်တိုင်မှစ၍	-10.6531
မည်သည်ကား	-10.6552
စေဘဲ၊	-10.6553
ဆုကို	-10.6565
▁စားသောက်လျက်	-10.6566
▁လူအချို့	-10.6576
▁အမှန်သိ	-10.659
ပေးသနားတော်မူသော	-10.6608
တကျိပ်နှစ်ပါးသော	-10.6611
အထက်က	-10.6617
▁အမျိုးဖြစ်	-10.6637
မြို့ဝန်	-10.6644
ဆင်းရဲခံ	-10.6661
၌ရှိသမျှသော	-10.6676
▁ဣရှ	-10.6692
ကြည့်ရှုသောအခါ၊	-10.6716
▁ငိုကြွေးလျက်	-10.6734
မပြော။	-10.674
ယုဒပြည်	-10.675
အကြံရှိ၏။	-10.6755
▁မြေတပြင်လုံး၌	-10.6757
နှစ်စိုးစံလေ၏။	-10.6764
▁အဘယ်အရပ်သို့	-10.6769
▁စေခိုင်း	-10.6774
▁ထွန်	-10.6778
▁ဗျာဒိတ်ပေး	-10.679
အခက်အလက်	-10.6791
▁ကြည့်မြင်	-10.6794
▁တောင်ရိုး	-10.6794
ဥပုသ်	-10.6797
▁ငွေတန်ဆာ	-10.68
လျှို့ဝှက်	-10.6801
▁မြို့သားတို့ကို	-10.6803
အိမ်များ	-10.6806
▁ဟာဒ	-10.6816
ဖြစ်လိမ့်	-10.6837
တရားစကား	-10.6847
အသုံး	-10.6849
တည်လိမ့်မည်။	-10.6849
▁မတရားသောမေထုန်	-10.688
▁နိမိတ်	-10.6884
စားသောက်	-10.6885
▁တဆေးမဲ့	-10.6885
အရေအတွက်ကား	-10.6888
သဏ္ဌာန်	-10.6891
▁ရှင်ဘုရင်ထံသို့	-10.6893
အပြစ်ရှိသည်ဟု	-10.6896
▁ခုနစ်ကြိမ်	-10.6901
မိန်းမစိုး	-10.6902
▁ဂေဟာဇိ	-10.6902
▁အဘိဂဲလ	-10.6902
ချက်တီးအချိန်	-10.6902
ချီးမြှင့်	-10.6902
တည့်တည့်	-10.6902
ပုပ္ပနိမိတ်	-10.6902
ဖြားယောင်း	-10.6902
လျှပ်စစ်	-10.6902
အစည်းအဝေး	-10.6902
▁နိနေဝေမြို့	-10.6902
▁မှူးတော်မတ်တော်	-10.6902
▁ယေဇဗေလ	-10.6902
▁သေချာစွာ	-10.6902
▁သေရည်သေရက်	-10.6902
▁အဇုမပွဲ	-10.6902
မဘော်မပြ	-10.6902
▁ကဲ့ရဲ့ပြစ်တင်	-10.6902
▁ကြိတ်ဆုံ	-10.6902
▁တောခွေး	-10.6902
▁ဟဂ္ဂ	-10.6902
ညှစ်	-10.6902
နာသနေလ	-10.6902
ရုံမျှသာ	-10.6902
▁ကျိုင်းကောင်	-10.6902
သတို့သမီးကညာ	-10.6902
▁ဟေဇရုံ	-10.6902
ပျိုးပင်	-10.6902
▁ယုံမှား	-10.6902
▁ကြားလိုက်ပါ၏။	-10.6902
▁မထောင်	-10.6902
▁မျိုးစေ့ကြဲ	-10.6902
သည်မဟုတ်လောဟု	-10.6902
ကြင်နာ	-10.6902
▁ဘုရားဝတ်၌	-10.6902
▁သူတော်ကောင်း	-10.6902
▁စိတ်ရှည်	-10.6902
▁ချီမြှောက်	-10.6903
▁လောဘ	-10.6903
▁ဝန်စာရေး	-10.6903
▁စစ်ခင်းကျင်း	-10.6904
▁တိမန	-10.6904
သူတယောက်မျှမရှိ။	-10.6904
▁ငါသည်သင်တို့ကို	-10.6905
▁မိမိအဘော်	-10.6906
▁မြစ်အနောက်ဘက်	-10.6906
▁မနာရှေခရိုင်	-10.6906
▁ဟန္န	-10.6906
▁မြွေဆိုး	-10.6906
▁နာဇရက်မြို့သား	-10.6906
အပြောက်	-10.6906
ပေါ့	-10.6907
▁တပ်ပြင်သို့	-10.6908
▁ကွင်း	-10.6909
▁မသိကြသလော။	-10.6909
▁အုပ်ချုပ်	-10.691
▁ရှာဖန်	-10.6911
▁အညီ၊	-10.6912
ကျင့်သောအကျင့်	-10.6912
▁မွေးဘွား	-10.6916
▁တံခါးရွက်	-10.6917
တဖန်ထာဝရဘုရားသည်	-10.6917
▁ဥယျာဉ်စောင့်	-10.6918
▁ကျွန်တော်မျိုး	-10.6919
▁ဤအကြောင်းအရာ	-10.6919
▁မြင်မက်	-10.6919
▁လှေကား	-10.692
▁အငြိုးထား	-10.6922
▁အာနနိ	-10.6922
နှင့်ပြည့်၍	-10.6927
▁ကြော်	-10.6927
▁ငါ့ညီအစ်ကိုတို့	-10.6928
▁အတိုင်းမသိ	-10.693
▁နေမန်	-10.6931
▁ငါမြင်ပြီ။	-10.6933
▁နေအောက်မှာ	-10.6943
▁တပါးတည်းသော	-10.6946
မည့်သူ	-10.6947
ဝင်သောသူ	-10.6947
အရသာ	-10.6948
▁ကျွန်မိန်းမ	-10.6957
သတည်းဟု	-10.6961
▁ဝေးသောအရပ်	-10.6962
နှစ်ယောက်တည်း။	-10.6964
▁ရေစီး	-10.6966
▁မဆက်ဆံ	-10.6968
▁ထိုလုလင်	-10.6975
▁အချို့သောသူတို့	-10.6977
▁သင့်အလယ်၌	-10.6979
▁အကျပ်	-10.6983
▁ငါ့ထံမှာ	-10.6983
▁နှုတ်ဆက်ကြလော့။	-10.6985
▁အသေခံတော်မူ	-10.6988
လေဝိ	-10.6988
မရှိစေနှင့်။	-10.699
▁ငါ့နှလုံး	-10.7006
▁ထိသောသူ	-10.701
တတ်သလော။	-10.7011
▁ဤအရပ်သို့	-10.7023
ရှိစဉ်	-10.7024
▁ပင်လယ်အလယ်	-10.7037
▁အဆုံးတိုင်အောင်	-10.7039
ဆင်းရဲခြင်း	-10.704
▁တဆေးမပါ	-10.7041
နှုတ်ယူ	-10.7051
မနေ။	-10.7057
▁စင်ကြယ်ခြင်း	-10.7058
▁ဆောင်လျက်	-10.7062
အိမ်သူအိမ်သား	-10.7071
ပတ်လည်၌နေသော	-10.7071
▁ခေါင်းတော်	-10.7073
ခြားနား	-10.7073
ထိခိုက်	-10.7073
ဝှက်ထား	-10.7074
နံ့သာပေါင်း	-10.7074
ဆုံးဖြတ်	-10.7074
ဂတိတော်	-10.7075
ငြင်းပယ်	-10.7079
သိုးနွား	-10.7081
ယောဟန်	-10.7082
တုန်လှုပ်ခြင်း	-10.7088
▁အသရေရှိသော	-10.7089
ဖုံးအုပ်	-10.7089
▁တရားစကားကို	-10.7092
ပူဇော်သက္ကာဘို့	-10.7093
အထံတော်၌	-10.7104
တိုင်းနိုင်ငံ	-10.7105
▁ဖွင့်ထား	-10.7106
▁သန့်ရှင်းသောအရာ	-10.7107
▁ကယ်လွှတ်တော်မူ	-10.7109
ဣသရေလအမျိုးအနွယ်	-10.7113
နေ့တိုင်အောင်	-10.7135
ကြလိမ့်မည်နည်း။	-10.7148
▁လူအစုအဝေးတို့	-10.7157
ထံသို့ဝင်၍	-10.718
▁အပြစ်ကင်း	-10.7198
အကြံရှိ	-10.7202
အဖြစ်သို့	-10.721
ဗေန	-10.7213
စိတ်နှလုံးထဲမှာ	-10.7235
မသေမှီ	-10.7251
တချောင်း	-10.7253
မဖြစ်မှီ	-10.7298
▁ကောင်းမွန်သော	-10.731
ခြင်းနှင့်၎င်း	-10.7323
▁အာဟပ်အမျိုး	-10.7333
▁ဆယ်နှစ်	-10.7336
▁အပ်ပေးတော်မူ	-10.7339
▁အကျင့်အားဖြင့်	-10.7355
▁သိုးဆိတ်	-10.7367
မိန်းမတယောက်သည်	-10.7368
မသိမမှတ်	-10.7371
သူရှိသမျှတို့သည်	-10.7373
အလိုငှါ	-10.7375
မည်မဟုတ်လော။	-10.7383
▁ထမြောက်စေတော်မူ	-10.7399
ဆောင်သွား	-10.7413
▁လောကီသားတို့	-10.7415
တော်မူစေသတည်းဟု	-10.7419
▁သိနာတောင်	-10.7419
နှစ်စု	-10.7426
အလိုအလျောက်	-10.7436
မည်ဟူသော	-10.7437
ငါတို့ရှိသမျှသည်	-10.7473
သောသူဖြစ်သည်ဟု	-10.7474
▁ဆင်းလာ	-10.7486
လွန်သောအခါ	-10.7488
တော်မူလတံ့။	-10.7493
ညံ့	-10.7495
▁အရေဖျား	-10.7509
ဖြစ်လိမ့်မည်	-10.7517
▁ဧဇရ	-10.7519
သကဲ့	-10.7542
▁နေသောသူတို့	-10.7549
ညွတ်	-10.7549
ွှတ်	-10.7555
▁ရှည်	-10.7555
▁အကျဉ်းခံ	-10.7568
▁ညစ်ညူးသောနတ်	-10.7568
▁ဒေသနာ	-10.7568
▁သလဲသီး	-10.7568
▁အရည်ကျို	-10.7568
ကြကုန်အံ့၊	-10.7568
▁ခြိုးခြံစွာ	-10.7568
▁ပုပ်စပ်	-10.7568
▁ယေဖုန္န	-10.7568
▁ရှိမုန်ပေတရု	-10.7568
▁အညွန့်	-10.7568
ညှင်းဆဲ	-10.7568
နှိပ်နင်း	-10.7568
ယေရုဗ္ဗာလ	-10.7568
ိပ္ပါယ်	-10.7568
▁ကိရယတ်ယာရိမ်	-10.7568
▁ကျဉ်းမြောင်း	-10.7568
▁ဂေရရှုန်	-10.7568
▁စောင်းတီး	-10.7568
▁တပြိုင်နက်	-10.7568
▁သတေဖန်	-10.7568
▁အသက်ကြီးရင့်	-10.7568
▁အာခိတ်မင်း	-10.7568
ကေနတ်	-10.7568
ပေတည်းဟု	-10.7568
▁မာလခိ	-10.7568
▁အာသဟေလ	-10.7568
▁ကခုန်	-10.7568
▁မဟုတ်မမှန်	-10.7568
ရက်လေးဆယ်ပတ်လုံး	-10.7568
ဟာရှဘိ	-10.7568
▁ခေါ်ပင့်	-10.7568
▁တဖန်မောရှေအား	-10.7568
▁တကျွန်း	-10.7569
▁နားပင်း	-10.7569
▁အာနုန်မြစ်	-10.7569
▁ရင်ဖုံး	-10.7569
ပါလေစေဟု	-10.7569
▁ကောင်းမကောင်း	-10.7569
ကျုံး	-10.7569
▁ဇာဗုလုန်ခရိုင်	-10.7569
ပြတင်း	-10.7569
▁ငါတို့သိကြ၏။	-10.757
▁ဥပမာကား၊	-10.757
▁ရှေ့တော်မုန့်	-10.757
▁မမူပါနှင့်။	-10.757
▁ယောယဒသား	-10.7572
▁ကျိန်အပ်	-10.7572
▁ကြွယ်ဝပြည့်စုံ	-10.7574
▁သုံးရက်ပတ်လုံး	-10.7575
▁အာရှိပြည်	-10.7577
မှီခိုရာ	-10.7578
အမည်သစ်ကို	-10.7579
▁ရွှေဖလား	-10.758
နှစ်ကျိပ်	-10.7581
အသက်နှစ်ဆယ်လွန်၍	-10.7583
▁ချမ်း	-10.7583
▁စကားမပြော	-10.7584
မဆိုလို	-10.7584
ပခုံးပေါ်မှာ	-10.7584
လိခရိုင်	-10.7584
မင်းသေ၍	-10.7585
ကျယ်သောအသံနှင့်	-10.7586
▁ယုဒခရိုင်	-10.7588
ဗျာဒိတ်ထားတော်မူ	-10.7589
ဆင်းရဲဒုက္ခကို	-10.759
▁ဖိလိတ္တိတပ်	-10.7592
ခုနစ်ကျိပ်	-10.7592
▁လောကီရှင်ဘုရင်	-10.7593
▁အရှေ့လေ	-10.7593
▁ဤအရာများကို	-10.7595
စေခြင်းငှာ၎င်း၊	-10.7595
▁ပြန်ဆို၏။	-10.7596
▁ငါပေးပြီ။	-10.7601
▁သူငှါး	-10.7606
ဗျာဒိတ်	-10.7606
▁ရယ်	-10.7608
ဖွယ်	-10.761
▁လူတမျိုး	-10.7613
▁ဒန်မြို့	-10.7613
▁နှုတ်ထွက်	-10.7616
▁ဧဒုံအမျိုးသား	-10.7618
▁မစင်ကြယ်ဖြစ်၏။	-10.7621
ဒါန	-10.7622
▁ဆန့်ကျင်ဘက်	-10.7625
▁မိမိကိုယ်ကို	-10.7627
လက်ျာတော်ဘက်	-10.763
▁ဆောင်သွင်း	-10.7634
သန့်ရှင်းသူတို့၏	-10.7636
▁အမြဲတည်	-10.7637
နာမတော်အဘို့	-10.7642
▁လမ်းမှာ	-10.7642
▁နက်သော	-10.7645
▁ထိုသူတို့က	-10.7655
တော်မူသည်နည်းတူ	-10.7656
▁ဟောက်	-10.7656
▁ကျွန်တော်သခင်	-10.7657
ဇေရုယာသား	-10.7661
ငြိမ်သက်စွာ	-10.7674
▁သင့်အသက်	-10.7678
▁ကယ်တင်တော်မူပါ။	-10.7681
ဝေးဝေး	-10.7684
▁အာမောရိလူတို့	-10.7685
အဘိုးကို	-10.769
မေထုန်ကိုပြု	-10.7693
မြစ်နား	-10.7695
တကောင်မျှ	-10.7703
▁ချစ်တော်မူသော	-10.7714
▁သင်၏သားသမီး	-10.7714
ဆီးကြို	-10.7722
▁ဂတိထား	-10.7731
မတတ်နိုင်	-10.7733
ကောရ	-10.7739
မျို	-10.7769
ဟေဇကိ	-10.7774
တံဆိပ်	-10.7783
ရှာဖွေ	-10.7784
အာဏာ	-10.7784
ဖြစ်ပါ၏ဟု	-10.7784
အစေခံ	-10.7784
စပျစ်သီး	-10.7784
ဘေးဒဏ်	-10.7785
ယောက္ခမ	-10.7786
ယစ်မူး	-10.7786
ဇေဒကိ	-10.7786
အရပ်ရပ်သို့	-10.7789
ဧလိယ	-10.7789
မိုဃ်းတိမ်	-10.779
အခွန်	-10.7792
နံနက်	-10.7793
သိုးထိန်း	-10.7794
မေးတော်မူလျှင်၊	-10.7797
မိသော်၎င်း၊	-10.7797
အပြစ်ဒဏ်	-10.7803
လိုက်လာသော	-10.7813
ရွှေငွေ	-10.7816
ထင်ရှားလိမ့်မည်။	-10.7838
▁ရှာသော်လည်း	-10.7838
ိယ၊	-10.784
▁ဗေရရှေဘမြို့	-10.7858
ခြင်းပါရမီ	-10.7859
▁ဂိဗောင်	-10.7862
စည်းဝေးကြ	-10.7915
▁စီးစေ	-10.7924
▁ရှိမောင်အမျိုး	-10.7927
သွားစဉ်တွင်	-10.7943
▁သေလွန်သောသူတို့	-10.7946
▁လူပျိုတို့	-10.7946
ငါတည်စေမည်	-10.7961
▁အသက်တရာ	-10.7983
▁ယေရိခေါ	-10.7994
▁တောင်ခြေရင်း	-10.7995
တပည့်တော်တို့	-10.8026
ထောင်ငါးရာ	-10.8027
ဟုခေါ်ဝေါ်	-10.8035
▁ဆင်းရဲဒုက္ခ	-10.8039
တခုမျှ	-10.804
▁ပယ်ရှင်းခြင်း	-10.8041
ခေါ်ဝေါ်	-10.8042
▁အိပ်ပျော်၍	-10.8046
ခဲ့ပြီဟု	-10.8056
▁မှိုင်တွေ	-10.8059
ရှိသလောဟု	-10.8066
▁အလွန်ဆင်းရဲ	-10.8081
အဘယ်မှာရှိသနည်း။	-10.8091
ဘိုးဘေးတို့အား	-10.8094
▁သည်းခံခြင်း	-10.81
အပ်တော်မူသဖြင့်၊	-10.8106
လက်ျာလက်	-10.8122
ငါတို့၏ဘုရားသခင်	-10.8136
အကြွင်း	-10.8141
ယောက်တို့သည်	-10.8141
လေးသောင်း	-10.8165
နိုင်ငံတော်သို့	-10.8167
▁ကုရှပြည်	-10.8185
▁ဦးညွှတ်	-10.819
▁တရားဟော	-10.8207
ိဖုရား	-10.8243
▁ပျောက်စေ	-10.8246
▁စိုးရိမ်ခြင်း	-10.8249
▁ရုန်းရင်းခတ်	-10.825
▁သမ္မာ	-10.826
▁ဧဖရိမ်အမျိုးသား	-10.8275
▁သတိမရှိ	-10.8278
ကပေရနောင်မြို့	-10.8283
ဒ္ဒုကဲ	-10.8283
▁ဇိကလတ်မြို့	-10.8283
▁ဘွဲ့နာမရှိ	-10.8283
▁မိရိအံ	-10.8283
▁မုန့်ကိုဖဲ့	-10.8283
▁ရာဗရှာခ	-10.8283
▁လျှပ်စစ်ပြက်	-10.8283
▁သုစရိုက်	-10.8283
▁အာမရံ	-10.8283
▁ဣဇဟာ	-10.8283
▁ဩမရိ	-10.8283
ကြမ်းကြုတ်	-10.8283
စကားတခွန်းကိုမျှ	-10.8283
ထွန်းတောက်	-10.8283
▁ဆဌမ	-10.8283
▁တိတု	-10.8283
▁ရွှေဇွန်း	-10.8283
▁သင်းဝင်သူ	-10.8283
▁အစအဦး	-10.8283
မမေ့မလျော့	-10.8283
ဆွဲငင်	-10.8283
ခြောက်ရက်ပတ်လုံး	-10.8283
▁နှုတ်တော်ထွက်	-10.8283
▁ထိုမျှလောက်	-10.8283
တစပ်တည်း	-10.8283
▁သူနှင့်သူ၏သား	-10.8283
အနာဂတ်	-10.8283
▁ပြပ်ဝပ်ကိုးကွယ်	-10.8283
▁ကမ္ဘာဦး	-10.8283
▁မတ်တတ်နေ	-10.8283
▁အာမရိ	-10.8283
▁ငါနှုတ်ဆောင်	-10.8283
▁ဒါရိမင်းကြီး	-10.8283
မရိပ်မိ	-10.8283
▁ယေရှဲ၏သား	-10.8283
ကနားပြင်	-10.8284
အံ့သောငှာ	-10.8284
▁အာရော်မြို့	-10.8284
▁ပရိယာယ်အားဖြင့်	-10.8284
▁လုံးလုံး	-10.8284
ဖန်များစွာ	-10.8285
ရတနာ	-10.8285
▁ထားနှင့်လုပ်ကြံ	-10.8285
▁လက္ခဏာသက်သေ	-10.8285
▁ပရောဖက်ဟေရှာယ	-10.8285
▁နောင်တမရ	-10.8285
▁ဧဂလ	-10.8286
▁ဆေးသမား	-10.8286
▁ယမန်	-10.8286
▁ပုံသက်သေ	-10.8286
အသက်မရှင်	-10.8287
▁ငွေအင်တုံ	-10.8287
▁နောက်ချေး	-10.8289
▁အရှေ့ဘက်မှ	-10.8289
▁အနှစ်နှစ်ဆယ်	-10.8291
▁ကာလအစဉ်အဆက်	-10.8291
ပိုင်ထိုက်သော	-10.8291
▁ဘထွေး	-10.8292
▁ရေးမှတ်	-10.8292
အစရှိသည်တို့	-10.8292
▁ဝတ်ပြုကိုးကွယ်	-10.8292
နှိုး	-10.8292
▁အနာပျောက်	-10.8292
မိန့်မြွက်တော်မူ	-10.8292
▁မိုဃ်းချုပ်	-10.8294
▁မောရှ	-10.8294
▁အာသလိ	-10.8295
▁လူမျိုးတကာတို့	-10.8295
▁စုထား	-10.8295
▁ထမ်းရွက်	-10.8296
▁နှလုံးသွင်း	-10.8296
▁ဤအရပ်ဌာန	-10.8298
▁ထုပ်	-10.8298
▁လူအသက်ကိုသတ်	-10.83
▁ကောင်းကျိုး	-10.8301
▁ပြည့်ဝ	-10.8301
▁ချောက်	-10.8302
▁ကြည့်ရှုပြုစု	-10.8302
▁အလွန်ကြောက်ရွံ့	-10.8302
မှန်းကို	-10.8303
▁ငါ့ပညတ်တို့ကို	-10.8304
▁မြေတိရစ္ဆာန်	-10.8304
မနာရှေအမျိုးတဝက်	-10.8305
▁လူအသီးအသီးတို့	-10.8305
▁နီသော	-10.8306
▁တိုက်ဖျက်	-10.8306
▁အာရံ	-10.8312
▁စိတ်ဆိုး	-10.8317
ယောရှိသား	-10.8319
သေခြင်းမှထမြောက်	-10.8319
▁မြေတွင်းထဲသို့	-10.8322
▁သမ္မာသတိရှိ	-10.8326
▁အိမ်တော်ဦး	-10.8327
▁မယားငယ်	-10.8334
ပါတကားဟု	-10.834
▁ဆီဥ၊	-10.8341
▁လေဝိလူ	-10.8352
▁စည်းစိမ်ဥစ္စာ	-10.836
စစ်တိုက်နိုင်သော	-10.8367
ကျိန်းဝပ်	-10.837
ဗိမာန်	-10.8371
▁သိုးသငယ်တကောင်	-10.8374
▁ဆိုးယုတ်	-10.838
▁ရှုရိလူတို့	-10.8387
▁စော်ကား	-10.8394
စုံဘက်ခြင်းကို	-10.8395
ဂါလိလဲပြည်သို့	-10.8402
▁ပဌမနေ့ရက်	-10.8414
ဆုံ	-10.842
မသိဘူးသော	-10.8425
▁အမွေပေး	-10.8433
နှုတ်ကပတ်	-10.8436
ဆိုင်သမျှသော	-10.8438
အချိန်ရောက်မှ	-10.8446
မိုဃ်းလင်းသောအခါ	-10.8463
▁ထူးဆန်း	-10.8466
▁ချဉ်းလာ	-10.8514
အင်္ဂါ	-10.8544
စပျစ်နွယ်ပင်	-10.8552
ပကတိ	-10.8554
▁ဇာဗုလုန်	-10.8556
မွေ့လျော်	-10.8556
ဖြိုဖျက်	-10.8557
ဧလာဇာ	-10.8557
အနာစွဲ	-10.8558
ကြွေး	-10.856
မီးရှို့ရာယဇ်	-10.856
အပြစ်ဖြေရာ	-10.8562
မိုဃ်းကောင်းကင်	-10.8562
ပယ်ဖြတ်	-10.8568
▁ဒန်အမျိုး	-10.857
▁အသက်ရှင်သေး	-10.8606
အချည်းနှီးသက်သက်	-10.8644
▁အသင်း	-10.8651
▁ဆောင်းကာလ	-10.8677
မတတ်နိုင်။	-10.869
မျက်နှာကြက်	-10.8703
▁ပိုင်ရ	-10.8706
▁သားဦးအပေါင်း	-10.8762
မိန့်တော်မူသော်၊	-10.877
▁လိမ္မာသော	-10.8778
▁အဟိကံ	-10.8779
စိုးရိမ်စရာရှိ၏။	-10.8882
▁ဆီဥကို	-10.889
သေသောနောက်	-10.8892
▁မုန်းသောသူတို့	-10.8903
▁အသေသတ်ခြင်း	-10.8904
▁ဂတိထားတော်မူ	-10.8936
▁ငွေရတတ်သောသူ	-10.894
▁နောင်ကာလ	-10.8955
▁ခရစ်	-10.8956
နိုင်မည်နည်းဟု	-10.8969
▁သို့မဟုတ်လျှင်	-10.8969
▁မမြင်နိုင်	-10.897
▁ပျော်မွေ့ခြင်း	-10.8972
▁အနန္တတန်ခိုး	-10.9009
သီချင်းဆိုပါမည်။	-10.9017
လေရာရာ	-10.902
ယာဗက်မြို့	-10.9033
မာသေယ	-10.9039
ရှစ်သောင်း	-10.904
သမင်	-10.904
ကန့်လန့်	-10.9046
▁ထားလက်နက်	-10.9051
▁ခြိမ်း	-10.9052
ဗာသရှေဘ	-10.9052
ရန်ငြိုးဖွဲ့	-10.9052
ရှစ်ယောက်၊	-10.9052
ဧလျာကိမ်	-10.9052
▁ဆိတ်ထီး	-10.9052
▁ဒွါဒသမ	-10.9052
▁နံနက်ယံ၌	-10.9052
▁ပုလွေ	-10.9052
▁ယောဟနန်	-10.9052
▁လျှံ	-10.9052
▁အဟိသောဖေလ	-10.9052
▁ဩဖိရ	-10.9052
ဗတ္တိဇံဆရာယောဟန်	-10.9052
အတိုင်းအရှည်	-10.9052
▁ရိမ္မုန်	-10.9052
▁လှိမ့်	-10.9052
▁ဟာလေလုယ	-10.9052
▁အာရှာခရိုင်	-10.9052
ရဗ္ဗာမြို့	-10.9052
▁ကုန်းနှီး	-10.9052
▁ရိုက်ပုတ်	-10.9052
ခြိမ်းချောက်	-10.9052
▁သီလ	-10.9052
ယောနဒပ်	-10.9052
▁နေဗော	-10.9052
▁သားရေဘူး	-10.9052
▁ဆဲရေး	-10.9052
▁လွှား	-10.9052
အဟောလိဗ	-10.9052
▁တနေ့သ၌	-10.9052
လက်ချည်း	-10.9052
▁နဝမ	-10.9052
▁မုဆိုး	-10.9052
▁လူကန်း	-10.9052
▁နီးစပ်	-10.9052
▁ကေနိ	-10.9052
▁စုန်း	-10.9053
ျက်နှာချင်းဆိုင်	-10.9053
▁ပြင်းထန်စွာ	-10.9053
▁အကျပ်တဆယ်	-10.9054
ချန်ထား	-10.9054
▁ငါပေါလုသည်	-10.9054
▁အဘယ်ကျေးဇူးရှိ	-10.9054
▁ဆရာသမား	-10.9055
တံခါးမုတ်	-10.9055
▁သစ်သီး	-10.9056
သောက်ကြူး	-10.9056
အရောန	-10.9056
▁သိုးခြံ	-10.9056
▁ငါ့ကျွန်ဒါဝိဒ်	-10.9058
▁ခါးစည်း	-10.9059
ခိုင်	-10.9059
▁စစ်တိုက်လက်နက်	-10.9061
▁ပညာမဲ့	-10.9062
▁မာနော်	-10.9062
▁အမှုတော်စောင့်	-10.9064
▁ကန့်	-10.9064
▁သန့်	-10.9065
ရောက်လုနီး	-10.9065
ထူးခြား	-10.9065
▁တရားပလ္လင်	-10.9067
▁ဗာရက်	-10.9069
▁နံနက်တိုင်း	-10.907
▁အသက်အရွယ်	-10.907
▁မီးဖြင့်ပူဇော်	-10.9071
▁လက်ဝဲဘက်၌	-10.9072
▁ပြင်သို့ထွက်	-10.9073
▁အနောက်မျက်နှာ	-10.9073
▁ဆယ်ရက်	-10.9074
▁မောဘရှင်ဘုရင်	-10.9077
▁သိုးငါး	-10.9077
လေ့မရှိ။	-10.9077
▁မိဘမရှိသော	-10.9081
အလိုသို့လိုက်၍	-10.9082
▁သေထိုက်သော	-10.9082
▁စပျစ်ပင်	-10.9082
▁နွားထီးတကောင်	-10.9083
▁မြောက်ဘက်၌	-10.9084
▁သတ်သောအပြစ်	-10.9084
▁နှစ်ရက်	-10.9088
အသီးကိုသီး	-10.9089
ာဒရက်	-10.909
▁ဒေါသစိတ်	-10.911
▁သတ္တမနေ့ရက်	-10.9116
▁ကူညီ	-10.9143
ငါးခု	-10.9148
မရဘဲ	-10.9154
ရှည်သော	-10.9156
ခြင်းငှါအလိုရှိ	-10.9166
▁နှိမ့်ချလျက်ရှိ	-10.9173
ကိုရခြင်းငှါ	-10.9192
ဘုံ၌ရှိတော်မူသော	-10.9203
သောအချိန်ကာလ	-10.9205
▁အာမလက်လူ	-10.9212
▁မိဒျန်လူတို့	-10.9225
▁ပစ်လိုက်	-10.925
မမြင်ရကြ။	-10.9267
▁ချီကြွ	-10.9277
▁ဇိဘ	-10.9285
▁ပေရ	-10.9293
▁ယဇ်မျိုး	-10.9294
▁ငြိုငြင်	-10.9297
တံဖျာ	-10.9303
မိမိအိမ်နီးချင်း	-10.9319
လိုက်သောလမ်း	-10.9329
▁တေရ	-10.9335
▁မြစ်နားမှာ	-10.9345
ရွှေနှင့်မွမ်းမံ	-10.9351
၏ဝိညာဉ်သည်	-10.9362
လက်ထောက်	-10.9366
ဆိတ်ညံ	-10.9371
တည်းခို	-10.9377
▁ဝတ်မပြု	-10.9383
အာခဇိ	-10.9387
စမ်းရေတွင်း	-10.9387
တိုက်တွန်း	-10.9389
ဇာဒုတ်	-10.9389
အလျား	-10.939
သတိပေး	-10.939
သက်သာခြင်း	-10.939
ဆင့်ဆိုရမည်မှာ၊	-10.9393
ဗာဗုလုန်	-10.9393
ဒဏ်ခတ်	-10.9395
▁ထူးတော်မူ	-10.9396
ကွယ်ပျောက်	-10.9398
▁အသက်ချမ်းသာရ	-10.942
ဇ္ဇ	-10.9425
▁လျှောက်ပြန်	-10.9442
▁အသက်တာရှည်	-10.9446
▁သိတင်းစကား	-10.9467
ပရိသတ်အပေါင်း	-10.9534
တာရှည်စွာ	-10.9535
မှောင်မိုက်ထဲမှာ	-10.9536
ချီးမွမ်းပြီးမှ	-10.954
▁မြို့ထဲသို့ဝင်	-10.9567
မသွားဘဲ	-10.9574
ပြန်သွား၏။	-10.9578
ကယ်လွှတ်တော်မူ၏။	-10.9614
ချင်သောစိတ်	-10.9632
မြို့တို့ကို၎င်း	-10.9688
ပေါ်သို့တက်၍	-10.9708
သာမက၊	-10.9716
ောရှေနှင့်အာရုန်	-10.9742
▁ဗင်္ယာမိန်လူ	-10.977
ပြိုင်၍	-10.9774
တွက်	-10.978
မှီခို	-10.9855
▁ကြောက်မက်	-10.9863
▁အနိစ္စ	-10.9877
သောနေ့မှစ၍	-10.9881
▁လွှမ်း	-10.9885
အာဗြ	-10.9885
သမီးကညာ	-10.9885
▁အထီး	-10.9885
နှစ်ဩမဲ	-10.9885
သဲလုံးနှင့်အမျှ	-10.9885
အန္ဒြေ	-10.9885
▁ချိန်ခွင်	-10.9885
▁ခွက်ကွင်း	-10.9885
▁မာဂု	-10.9885
▁မေဖိဗောရှက်	-10.9885
▁ယေဒါယ	-10.9885
▁အစိုးပိုင်	-10.9885
▁အပြည့်ထည့်သော	-10.9885
▁ဧည့်သည်အာဂန္တု	-10.9885
ငြီးငွေ့	-10.9885
ဉာဏ်	-10.9885
▁တဟာရှသားရေ	-10.9885
▁ထပ်ဆင့်၍	-10.9885
▁ထူထောင်	-10.9885
▁ဟေရမုန်တောင်	-10.9885
▁အစေအပါး	-10.9885
▁အမိနဒပ်	-10.9885
▁အံသွားခဲကြိတ်	-10.9885
စုရုံး	-10.9885
▁ကုန်အံ့။	-10.9885
▁နေဗတ်၏သား	-10.9885
▁ဗျာဒိတ်ဌာနတော်	-10.9885
▁ဟိန္နုံ	-10.9885
ပွင့်လန်း	-10.9885
▁အစေကျွန်ခံ	-10.9885
▁စာရေးတော်ကြီး	-10.9885
▁ယာဖက်	-10.9885
▁အဟိမတ်	-10.9885
▁ကညာ	-10.9885
▁ဆိတ်ငါးကောင်	-10.9885
အကျန်အကြွင်း	-10.9885
▁ဇိမရိ	-10.9885
▁ပါရှုရ	-10.9885
ပြွတ်	-10.9885
နံရံ	-10.9885
▁မရိတ်ရ။	-10.9885
▁မနှမြောဘဲ	-10.9885
▁စေ့စပ်	-10.9886
နောက်ဖြစ်လတံ့သော	-10.9886
▁အချို့သောအ	-10.9886
▁အမူအရာ	-10.9886
▁အကျွန်ုပ်သိပါ၏။	-10.9886
▁ပတ်ရစ်	-10.9886
အနံတတောင်	-10.9886
ကြစို့ဟု	-10.9886
နဖူး၌	-10.9886
▁ဇောဘ	-10.9886
▁မုယောဆန်	-10.9886
အချည်း	-10.9887
▁ဂေရှုရ	-10.9887
▁လဲ၍သေ	-10.9887
▁လှဲချ	-10.9887
▁တရာအုပ်	-10.9887
▁ဝိညာဉ်ပကတိ	-10.9887
▁အမွေမခံရ	-10.9887
▁ဧည့်သည်ဝတ်ကို	-10.9888
နှင့်ပြည့်၏။	-10.9888
ရေတွက်နိုင်အောင်	-10.9888
တိုး၍	-10.9888
▁မောဘလွင်ပြင်	-10.9888
▁ရိပ်မိ	-10.9888
▁ဧလိဖတ်	-10.9889
▁အိမ်မိုးပေါ်မှာ	-10.9889
▁ကြိမ်လုံးနှင့်	-10.9889
▁ဥပဒ	-10.9889
▁ပညာအတတ်ကို	-10.989
ဗေဒင်	-10.989
▁လွှတ်အရာရှိ	-10.989
▁ညီပေါင်းကား	-10.9891
▁စက်တော်	-10.9891
▁လက်နက်စုံ	-10.9891
▁အသံမြည်	-10.9891
▁လက်ဝဲဘက်သို့	-10.9891
▁ဗောင်	-10.9891
▁ဝင်စားလတံ့သော	-10.9891
▁ပေရသိရှင်ဘုရင်	-10.9892
▁ဒါဝိဒ်၏သားတော်	-10.9892
ရပါမည်လော။	-10.9892
▁ချိုးငှက်	-10.9892
▁စိတ်ပူပန်ခြင်း	-10.9893
▁အတွင်းဝန်	-10.9893
▁သစ္စာဝတ်ကို	-10.9893
▁ပဌမနေ့၌	-10.9893
▁ဟောရတောင်	-10.9894
▁ယာဟတ်	-10.9894
▁ဒါဝိဒ်မင်းမျိုး	-10.9895
▁သန်လျက်	-10.9895
▁စွန့်ပယ်	-10.9895
▁မီးခုံတိုင်	-10.9896
▁ပိုင်တော်မူ၏။	-10.9897
▁တည်းနေသော	-10.9897
▁သိနားလည်	-10.9897
▁ထားနှင့်သတ်	-10.9898
▁ကဲ့ရဲ့သံကို	-10.9898
▁ဘုန်းပွင့်	-10.9899
▁မာသေယ၊	-10.9899
အနာဂတ္တိကျမ်း	-10.9901
သူရဲသုံးယောက်	-10.9909
၏ဦးခေါင်း	-10.9912
နှင့်အိပ်ပျော်၍	-10.9914
▁သတ်ပြီးလျှင်	-10.9924
ရှေဗန	-10.9931
အရှက်ကွဲခြင်းကို	-10.9939
ငါ၏လူဣသရေလအမျိုး	-10.9953
▁ရောနှော၍	-10.9956
ဆွဲဖြတ်	-10.9958
ဒုစရိုက်အပြစ်	-10.9974
ဗေဒ	-10.9986
တပ်ချ၍	-10.9992
မကုန်မှီ	-10.9993
ိအဆွေအမျိုး၊	-11.0009
ိမ်လူ၊	-11.0009
ခပ်သိမ်းတို့	-11.0014
▁စက်ဆုပ်	-11.0025
ဂေဗ	-11.0035
ထုတ်ပစ်	-11.0047
သနည်းဟူ၍၎င်း	-11.0051
တရားမှုကို	-11.0061
တပါးပါး	-11.0066
အထဲသို့ဝင်	-11.0075
စေ့စေ့ကြည့်	-11.0079
▁လက်ဝဲလက်	-11.0093
▁ရှမွေလကလည်း	-11.0113
ဆယ်တနှစ်	-11.0117
▁နာမည်များ	-11.0125
ခြင်းမရှိဘဲ၊	-11.0125
ယောက်တို့ကို	-11.0152
အော်ဟစ်သံကို	-11.0155
ရင်ခွင်	-11.0179
▁ဒေါန	-11.0239
▁သေသောသူတို့	-11.0257
▁လုပ်ဆောင်သောသူ	-11.0277
▁ကျမ်းစကား	-11.0288
တဘို့ကို	-11.0288
▁အောက်အရပ်	-11.0289
ရာဇပလ္လင်	-11.0296
ဗောဇ	-11.0296
အနာရောဂါ	-11.0296
ထွန်းလင်း	-11.0296
တွေ့ကြုံ	-11.0297
အာဟပ်	-11.0299
တည်ကြည်	-11.03
တံပိုး	-11.03
ဘေးဥပဒ်	-11.03
သတိပြု	-11.03
ဘောဇဉ်	-11.0302
ငြိမ်သက်ခြင်း	-11.0302
ရှက်ကြောက်	-11.0308
သောအနာ	-11.0342
ဂုဏ်တော်ကို	-11.0347
၏ဝိညာဉ်ကို	-11.0363
ပေးသနားတော်မူပါ။	-11.0366
နက်နဲသောအရာကို	-11.0367
▁တုရု	-11.0395
▁အာမင်	-11.0441
▁အိုယေရုရှလင်	-11.0542
▁မှန်သောစကား	-11.0548
▁နီမောင်းသော	-11.056
၏ရန်သူတို့	-11.0592
ညည်းတွားမြည်တမ်း	-11.0636
မတွေ့မ	-11.0643
လှီးခြင်းကို	-11.0707
ြောင့်	-11.0739
ရာမုတ်မြို့	-11.0772
ကြွယ်ဝခြင်း	-11.0782
▁ရွှေအခွက်	-11.0782
အာနုဘော်တော်	-11.0783
ကြိမ်လုံး	-11.079
အကောင်းဆုံး	-11.0791
ယိုယွင်း	-11.0792
▁ဆွေးမြေ့	-11.0792
▁ယော်ဒန်	-11.0793
သောအထည်	-11.0794
▁ဆင်စွယ်	-11.0794
ခဲယဉ်း	-11.0794
ဆိုင်းလင့်	-11.0794
ညစ်ညှုး	-11.0794
ဘေးအန္တရာယ်	-11.0794
အဆိပ်	-11.0794
▁ကရမေလမြို့	-11.0794
▁ဇာလမုန္န	-11.0794
▁တေကော	-11.0794
▁ဒါဂုန်	-11.0794
▁မထိမခိုက်	-11.0794
▁မာဂဒလမာရိ	-11.0794
▁မိဖုရားဧသတာ	-11.0794
▁အချည်းစည်းရှိ	-11.0794
▁အခြံအရံ	-11.0794
▁အာနသုတ်မြို့	-11.0794
▁အိုးထိန်းသမား	-11.0794
ကေဒေရှမြို့	-11.0794
စီးပွားကို	-11.0794
ဆွေတော်မျိုးတော်	-11.0794
တင်းကုပ်	-11.0794
နူကွက်	-11.0794
နေဗုဇာရဒန်	-11.0794
မေလခိဇေဒက်	-11.0794
မြွတ်ဆို	-11.0794
ယေရှုရှလင်မြို့	-11.0794
ယောဇဗဒ်	-11.0794
ရွှေနှစ်ကွင်း	-11.0794
အချုပ်အခြာ	-11.0794
အနည်းအများအလိုက်	-11.0794
▁ကရမေလတောင်	-11.0794
▁ညက်ညက်	-11.0794
▁ဖေတ္တုမင်း	-11.0794
▁ဗင်္ယာ	-11.0794
▁မိက္ခေလ	-11.0794
▁အကွယ်အကာ	-11.0794
▁အဒုလံ	-11.0794
▁အသနားတော်ခံ	-11.0794
▁အေ့ဟေ	-11.0794
အထူးထူးအပြားပြား	-11.0794
▁ဇိခရိ	-11.0794
▁နာကျင်စွာ	-11.0794
▁ဗေသနိရွာ	-11.0794
▁အဆင်သင့်	-11.0794
▁အလှည့်လှည့်	-11.0794
▁တံခါးထုပ်	-11.0794
▁ဒရယ်	-11.0794
▁မွှေးသော	-11.0794
▁ထိမ်းမြားပေးစား	-11.0794
▁မသိမ်းမယူ	-11.0794
▁အာဂတ်	-11.0794
▁စမ်းသပ်	-11.0794
▁ဂေဇာမြို့	-11.0794
▁ဟောင်းနွမ်း	-11.0794
▁အဘယ်အမှုကိုမျှ	-11.0794
▁အဘိရံ	-11.0794
▁အသံကိုလွှင့်၍	-11.0794
ဥတု	-11.0794
▁အဘယ်ကာလမှ	-11.0794
▁နံ့သာဆီ	-11.0794
▁ထရံအခန်း	-11.0795
▁လက်ျာဘက်၊	-11.0795
▁ဂေါရှင်ပြည်	-11.0795
▁ဂျုံဆန်	-11.0795
▁တုရိယာမျိုး	-11.0795
▁ဆီနှင့်ရော	-11.0795
▁စိတ်မသာညည်းတွား	-11.0795
▁ငရဲ	-11.0795
▁တခါတည်း	-11.0795
▁သူရူး	-11.0795
အမှတ်ပြု၍	-11.0795
မွန်းတည့်အချိန်၌	-11.0796
▁အလောင်းတော်ကို	-11.0796
▁အာဗြံဟံ	-11.0796
အဝတ်ကိုဆုတ်	-11.0796
▁အာဒါ	-11.0797
▁ကြွင်းသေးသော	-11.0797
▁ဟာမတ်မြို့	-11.0797
ငါးနှစ်ရှိသော်	-11.0797
▁တိုင်ပင်မှူးမတ်	-11.0797
▁ဥာဏ်ကောင်းသောသူ	-11.0798
▁မကြားမပြော	-11.0798
▁အတွင်းတန်တိုင်း	-11.0798
▁မုန့်စိမ်း	-11.0798
▁အမျက်တော်အရှိန်	-11.0799
▁ယုတ်မာ	-11.0799
▁မင်းအာဏာ	-11.0799
▁ချိုးကလေး	-11.0799
▁ဂါလ	-11.08
▁ဘားတို့	-11.08
▁သတ်မိသောသူ	-11.08
▁အနာရောဂါစွဲ	-11.0802
ဗေသွေလ	-11.0803
▁စရာယ	-11.0803
▁ဧဖရိမ်ခရိုင်	-11.0806
မဖြစ်စဖူး	-11.0807
ဒေါသအရှိန်	-11.0807
ဟစ်ကြော်ကြ၏။	-11.0809
▁အကိုင်း	-11.0809
▁တဲတော်တံခါးနား	-11.081
▁မနာလိုသောစိတ်	-11.0811
ထောင်ဝင်းထဲ	-11.0817
ညီညွတ်	-11.082
တို့အထဲမှ	-11.0822
▁ဗိုလ်လုပ်ရ	-11.0822
မြုံသော	-11.0823
အကျိုးအလိုငှါ	-11.0825
▁ပတ်ဝန်းကျင်အရပ်	-11.0826
▁ဝေပေး	-11.0826
မျိုးစေ့ကိုကြဲ	-11.0828
သားအာမ	-11.0837
တစုံတခုမျှမရှိ။	-11.0848
စီးသောရေ	-11.0856
ဧဇရသည်	-11.0863
ပြုတော်မူသောအမှု	-11.0863
▁ရဲရင့်ခြင်းရှိ	-11.0874
အမွေခံစရာဘို့	-11.0908
ကျန်ကြွင်းသေးသော	-11.0909
▁ဤအမှုအလုံးစုံ	-11.0936
ရကြလတံ့ဟု	-11.0955
အိမ်နီးချင်း	-11.0959
▁အခက်အလက်တို့	-11.0961
ချဉ်း၍	-11.0996
▁စိုးရိမ်စရာရှိ	-11.1004
သောမိန်းမသည်	-11.1004
င်္ဂလာဆောင်လုလင်	-11.1031
▁အမိဝမ်းထဲ	-11.1048
▁ငါအမှန်ဆို	-11.105
▁အာခိ	-11.106
သောအချက်	-11.1072
▁ဆာလံ	-11.1102
▁လိမ္မာသောသူ	-11.113
ပြီလောဟု	-11.1174
▁မြင်သောသား	-11.1175
▁ဂိလဂါလ	-11.1214
ရွေးကောက်	-11.1224
▁ယေဇရေလ	-11.1226
▁ကိုယ်သားသမီး	-11.1259
ယဇ်ပုရောဟိတ်အရာ၌	-11.126
တော်မမူလျှင်	-11.1265
ကိုစွန့်ပစ်၍	-11.1284
မျက်ရည်	-11.1294
ချစ်ခြင်းမေတ္တာ	-11.1294
လှိုင်းတံပိုး	-11.1295
ဧဝံဂေလိတရား	-11.1296
ရှေမာယ	-11.1296
သုတ်သင်	-11.1297
ထိတ်လန့်	-11.1298
ကြာမြင့်စွာ	-11.1298
ဆုံးမဩဝါဒပေး	-11.1298
နှံ့ပြား	-11.1298
ဧည့်သည်	-11.1298
အာဗနာ	-11.1299
ဇာခရိ	-11.1299
အဗရှလုံ	-11.1301
မုတ်ဆိုးမ	-11.1301
လောကီ	-11.1302
နွားသငယ်	-11.1305
▁ပင်လယ်ကမ်းနား	-11.1305
အကျွန်ုပ်အော်ဟစ်	-11.1305
ထာဝရဘုရားထံတော်၌	-11.1408
▁ကောက်လှိုင်း	-11.1491
သွားကြစဉ်	-11.1501
▁ရှောလုကလည်း	-11.1522
▁ခါနနိလူတို့	-11.1532
နှင့်မြို့နယ်	-11.1536
▁ထောမနာသီချင်း	-11.1541
▁မိမိသန့်ရှင်းသူ	-11.1604
အလိုတော်ရှိလျှင်	-11.1635
▁မုတ်ဆိတ်	-11.1638
ဆိုးယုတ်သော	-11.1658
▁ဖြို	-11.1664
သင်းဖွဲ့	-11.1675
သံလွင်တောင်	-11.1692
ခြားသော	-11.172
အသက်ငယ်စဉ်	-11.1726
▁ဥပဒေသ	-11.1736
ဘွယ်အမှုတို့	-11.1739
ရက်မြောက်သောနေ့	-11.176
နှိမ့်	-11.1783
▁စွန်ပလွံ	-11.1786
နာဇရက်မြို့	-11.1787
ချယ်လှယ်	-11.1788
▁တိတ်ဆိတ်	-11.1789
▁လုံခြုံ	-11.1789
မိစ္ဆာ	-11.1793
လဆန်း	-11.1793
ထိမ်ဝှက်	-11.1794
▁အစိုးတရပြု	-11.1794
ငဲ့ကွက်	-11.1794
ဒူးထောက်လျက်	-11.1794
ရပါအံ့နည်း။	-11.1794
လုပ်ဘော်ဆောင်ဘက်	-11.1794
▁ကင်းမြီးကောက်	-11.1794
▁ကုလားကာတထည်	-11.1794
▁ကေဒြုန်ချောင်း	-11.1794
▁ကြိုဆိုခြင်းငှါ	-11.1794
▁စုတေ့	-11.1794
▁တညွတ်တည်း	-11.1794
▁ဒေဗောရ	-11.1794
▁နတ်ဝိဇ္ဇာ	-11.1794
▁ဗာဇိလဲ	-11.1794
▁မိလ္လော	-11.1794
▁မှန်စေတော့။	-11.1794
▁ယေရိမုတ်	-11.1794
▁ယေရောဟံ	-11.1794
▁ရှုရှန်မြို့	-11.1794
▁လက်ခုပ်တီး	-11.1794
▁လိမ်းရန်ဆီ	-11.1794
▁သမင်ဒရယ်	-11.1794
▁သောဒုံအိုင်	-11.1794
▁အထောင်အသောင်း	-11.1794
▁အာဂန္တု	-11.1794
▁အဲသယောပိ	-11.1794
နှင့်မစပ်ဆိုင်	-11.1794
ယေဒုသုန်	-11.1794
ရှင်ဘုရင်ရှိဟုန်	-11.1794
ရှေလောမိတ်	-11.1794
▁ကာဒေရှဗာနာ	-11.1794
▁ကေဒါ	-11.1794
▁ဇေဘဟ	-11.1794
▁ဒေလိလ	-11.1794
▁ပညာသတိရှိ	-11.1794
▁ဖာရောမင်း	-11.1794
▁မိတ်မတ်မြို့	-11.1794
▁အစားအသောက်	-11.1794
▁အဗေဒနေဂေါ	-11.1794
စိမ်းလန်း	-11.1794
နူးညံ့	-11.1794
ရှည်လျား	-11.1794
ဧလိရှဗက်	-11.1794
▁နှုတ်သတ္တိ	-11.1794
▁သေတ္တာအဖုံး	-11.1794
▁ပရောဖက်နာသန်	-11.1794
▁ငွေအကျပ်	-11.1794
▁ပွတ်	-11.1794
▁သံချပ်	-11.1794
▁ရာဇဝတ်	-11.1794
သားဂေဒလိ	-11.1794
ဣဇာတ်	-11.1794
▁အထီးအမ	-11.1794
▁အနှံ	-11.1794
▁ကဲသရိမြို့သို့	-11.1794
▁နားတော်လျှောက်	-11.1794
▁ဟာမတ်ပြည်	-11.1794
ဗိုလ်မင်းကား	-11.1794
တခဲနက်	-11.1794
မျောက်	-11.1795
ခြေတော်ရင်း၌	-11.1795
▁နံဝိညာဉ်	-11.1795
▁တဖန်ထာဝရဘုရားက၊	-11.1795
▁ဗေဒင်တတ်	-11.1795
▁ဆီရောသော	-11.1795
ခဏကြာပြီးမှ	-11.1795
▁သာ၍မြတ်သော	-11.1795
▁အပေါ်တဲ	-11.1795
▁ရောမလူ	-11.1795
▁တံစဉ်	-11.1795
▁အမျိုးပျက်သော	-11.1795
မမှန်သောသက်သေကို	-11.1795
▁အပျိုတော်	-11.1795
▁ပျင်းရိသောသူသည်	-11.1795
▁အဝေးသို့	-11.1795
▁ဥတုရောက်	-11.1795
▁ဧဟုဒ	-11.1796
▁ဖာရက်	-11.1796
▁ဒုတိယအကြိမ်	-11.1796
အထောင်	-11.1796
▁သေမင်းအရိပ်	-11.1796
▁အသစ်ပြုပြင်	-11.1796
အစုစု	-11.1796
သည်အကြောင်းကား၊	-11.1796
▁နီလာ	-11.1796
▁မင်းလုလင်တို့	-11.1798
▁တဆေးမဲ့မုန့်	-11.1799
▁မထွက်မသွား	-11.1801
လက်ညှိုးနှင့်	-11.1803
▁အဘယ်သို့ဆိုလိုသ	-11.1805
▁မှီခိုလျက်	-11.1805
တော်မူသောအရှင်၊	-11.1806
▁မှီခိုရာမြို့	-11.1806
ဇာဗဒ်	-11.1807
ခြင်းမရှိနှင့်။	-11.1808
▁ငါမသိဟု	-11.1808
လူနှင့်တိရစ္ဆာန်	-11.1811
▁မချုပ်တည်း	-11.1811
▁တဲတော်တံခါးရှေ့	-11.1819
▁ဦးညွှတ်ချ၍	-11.1823
သုံးနှစ်တွင်၊	-11.1825
မပိတ်	-11.1837
▁ပိန်	-11.1849
လူမျိုးသတို့သမီး	-11.1862
ခေရုဗိမ်နှစ်ပါး	-11.1867
▁အရာရာတို့	-11.1869
အလိုတော်နှင့်အညီ	-11.1872
▁စေတနာစိတ်ရှိ	-11.1891
နေ့ညဉ့်တွင်	-11.1903
▁ပိလတ်မင်းကလည်း	-11.1914
ဒါရိ	-11.1926
လတရက်နေ့	-11.1974
သိနာတောင်ပေါ်မှာ	-11.2032
တမန်တော်ဖြစ်	-11.2075
သိုးဆိတ်များကို	-11.212
အရှက်ကွဲ	-11.2168
မမှတ်ဘဲ	-11.2184
ကိုဘမ်းဆီး၍	-11.2271
ပျားရည်	-11.2398
▁ဝပ်လျက်	-11.2401
ဧဖရိမ်	-11.2404
ဥရိယ	-11.2406
ကြီးပွား	-11.2407
အာဇရိ	-11.2408
အမိန့်ရှိ	-11.2408
သမ္မာတရား	-11.2408
မီးဖို	-11.2409
ဧလိရှဲ	-11.2409
ဆိုလိုသတည်း။	-11.2409
ကျော့ကွင်း	-11.241
ပြစ်နှင့်အလျောက်	-11.241
▁ခြေဘဝါး	-11.241
မြေမှုန့်	-11.2411
အကုန်အစင်	-11.2412
▁ဗေရရှေဘ	-11.2431
လက်တော်ဖြင့်	-11.2432
အသေခံ	-11.2446
ပဇ္	-11.2451
▁ဧဖရတ်	-11.2486
အနက်အ	-11.2506
▁ဒမာသက်	-11.2558
သမျှသောအရာတို့	-11.2674
မိမိတို့နေရာသို့	-11.2717
နွှယ်	-11.2731
▁ဇေရုယာ	-11.275
လက်တော်သို့	-11.2806
▁စပျစ်သီးနယ်ရာ	-11.2828
▁ယေဗုသိ	-11.2829
▁ပါရမီ	-11.2832
▁တာရှည်	-11.2853
▁ငါအလိုရှိ	-11.2882
▁မနာလိုသော	-11.2885
▁သိနာတော	-11.2902
ခါနနိ	-11.2902
အထုံးအဖွဲ့	-11.2904
အကြိမ်	-11.2905
မိစဉ်ဘဆက်	-11.2905
မြန်မြန်	-11.2905
▁ကုပရု	-11.2905
▁ကော်နေလိ	-11.2905
▁ဖွင့်လှစ်	-11.2905
▁မက္ကဒါ	-11.2905
▁မသုရှလ	-11.2905
▁သကေနေပွဲ	-11.2905
▁သဖန်းပင်	-11.2905
ဂင်္နေသရက်	-11.2905
ငါးစုတစုကို	-11.2905
တခြား၊	-11.2905
တလုံးတဝတည်းဖြစ်	-11.2905
ဒေသစာရီ	-11.2905
နာသနိသား	-11.2905
အခိုးအငွေ့	-11.2905
အဘိနဒပ်	-11.2905
အသိအကျွမ်း	-11.2905
▁ကျိန်းစက်	-11.2905
▁ချိုဆယ်ချောင်း	-11.2905
▁ချေးငှား	-11.2905
▁ဇက္ကုရ	-11.2905
▁တေရပ်ရုပ်တု	-11.2905
▁ပတ္တမြား	-11.2905
▁မချဉ်းမကပ်ရ။	-11.2905
▁မြေကွက်	-11.2905
▁ယဇ်ပုရာဟိတ်	-11.2905
▁ရှာလသေလသား	-11.2905
▁လယ်ထွန်	-11.2905
▁လွယ်အိတ်	-11.2905
▁ဟင်းလင်း	-11.2905
▁အကျဉ်းထား	-11.2905
▁အသက်ရှည်သမျှ	-11.2905
▁ဧဖရုန်	-11.2905
အငန်းအတာ	-11.2905
▁ခေရုဗိမ်အရုပ်	-11.2905
▁ခဲနှင့်ပစ်	-11.2905
▁တဆူတည်း	-11.2905
▁ဗိလဟာ	-11.2905
▁မီးညှပ်	-11.2905
▁ရိနာစွဲသော	-11.2905
▁လက်စွပ်	-11.2905
▁ဥာဏ်သတ္တိ	-11.2905
▁ဧလိရှမာ	-11.2905
ပေအံ့။	-11.2905
▁ရေဇိန်	-11.2905
▁အမိဟုဒ်	-11.2905
▁လွန်ကဲ	-11.2905
▁မိစ္ဆာပရောဖက်	-11.2905
▁မုန့်ငါးလုံး	-11.2905
▁ယာဣရ	-11.2905
လူငါးကျိပ်	-11.2905
သတိလစ်၍	-11.2905
▁ချေးငှါး	-11.2906
▁အငတ်	-11.2906
အဖန်ဖန်	-11.2906
▁အပြစ်မှလွှတ်	-11.2906
▁အရူးဖြစ်	-11.2906
▁ဥာဏ်တိမ်သော	-11.2906
▁မဟာနိမ်မြို့	-11.2906
▁ထို့နောက်	-11.2906
တယောက်မျှမကြွင်း	-11.2906
▁မြေးဆက်	-11.2906
▁တနှစ်တနှစ်	-11.2906
▁ငါ၏ချစ်သား	-11.2906
ရအံ့နည်း။	-11.2906
အထူးထူး	-11.2906
ယောဗပ်	-11.2906
ပြုလေသမျှတို့၌	-11.2906
▁လောဘလွန်ကျူး	-11.2906
▁ထိုက်တန်	-11.2906
▁အပျိုမ	-11.2906
▁ဘူးသီး	-11.2906
▁ဆူဝ	-11.2907
လွဲသွား	-11.2907
▁မောင်းမ	-11.2907
▁ဟေသအမျိုးသား	-11.2907
▁ဖြစ်ဘွားစေ	-11.2907
လက်ကောက်	-11.2907
ဝိုင်းညီ၍	-11.2907
အနက်ဆုံးသော	-11.2907
တစင်း	-11.2907
▁ရောမမြို့	-11.2907
▁ပမာဏပြု	-11.2908
ပဌာနပြု	-11.2908
▁ဝေမျှ	-11.2908
စစ်မတိုက်	-11.2909
ခြေတင်ရာ	-11.2911
တမန်တော်တို့	-11.2912
လူရိုင်း	-11.2912
▁ငါပညတ်သည်ကား	-11.2913
ထက်မက၊	-11.2914
မျက်စိနှင့်မြင်	-11.2914
▁တဖန်ဘုရားသခင်က	-11.2914
တိုက်လှန်ခြင်း	-11.2915
နှစ်စင်း	-11.2916
▁မလွှတ်ဘဲနေ	-11.2917
▁လူအသီးသီး	-11.2933
▁ဥစ္စာရတတ်	-11.2933
▁ယာဗက်	-11.2934
▁ခိုးယူ	-11.2937
အာရှတရက်	-11.2946
အသီးသီးတို့	-11.2956
လက်နက်ဆောင်လုလင်	-11.2964
▁ဆုကျေးဇူးတော်	-11.2995
သားစုတွင်	-11.2999
▁မကွာစေ	-11.3001
ေးလျှောက်ကြသော်၊	-11.3017
မကျင့်ဘဲ	-11.3044
ကမ်းနားမှာ	-11.3046
▁ယဟောရှ	-11.3069
ပြုမိသမျှသော	-11.3098
ထောင်ခြောက်ရာ	-11.3131
မာရ်နတ်သည်	-11.3155
သစ်သားဖြင့်	-11.3186
▁ယုဒမြို့ရွာတို့	-11.3211
ထိုပလ္လင်ပေါ်မှာ	-11.3229
ကောက်လှိုင်းကို	-11.3256
မတွေ့ကြ။	-11.3344
ဧလိဟု	-11.3374
▁အခါယပြည်	-11.3424
ိုဃ်းမျက်နှာကြက်	-11.3444
▁သရွတ်	-11.3461
အသီးအနှံကို	-11.3538
▁မီးရှို့သောယဇ်	-11.3581
မိမိနေရာ၌	-11.3611
လက်ဝဲဘက်	-11.3649
စိုက်ပျိုး	-11.3655
တကိုယ်လုံး	-11.3658
မိန်းမောတွေဝေ	-11.3659
စက်ဆုပ်ရွံရှာ	-11.3661
ယေရောဗောင်	-11.3662
ယော်ဒန်မြစ်	-11.3663
ခပ်သိမ်းသော	-11.3664
ကိုင်ယူ၍	-11.3679
နှင့်မွမ်းမံလေ၏။	-11.3707
သောဒုံမြို့နှင့်	-11.3735
▁ဣရှဗောရှက်	-11.3752
ာဟတ်၊	-11.3868
အားနည်းသောသူ	-11.3868
လေးရက်နေ့တွင်၊	-11.3901
တပြင်လုံး၌	-11.3913
မကြောက်ဘဲ	-11.3955
▁ဣဇာက်၏ဘုရား	-11.397
ကူညီ၍	-11.4007
▁အံ့ဩခြင်းရှိကြ၏	-11.4037
▁သမ္မာသတိ	-11.4078
▁ပရိသတ်စည်းဝေး	-11.4139
▁အဆက်ဆက်	-11.4151
ရွှ၊	-11.4155
▁အလျားအနံ	-11.4155
ကဲသရိ	-11.4155
ခေမုရှ	-11.4155
ပုစ္ဆာအမေး	-11.4155
မသင့်မတင့်	-11.4155
ယာခိန်	-11.4155
ဥစ္စာပစ္စည်း	-11.4155
▁ကျားသစ်	-11.4155
▁စားမြုံ့ပြန်သော	-11.4155
▁နာဇရိလူ	-11.4155
▁ဗာရဗ္ဗကို	-11.4155
▁မထင်မရှား	-11.4155
▁ရှေ့မဆွက	-11.4155
▁အာဖာဇဒ်	-11.4155
▁ဧဇယုန်ဂါဗာ	-11.4155
▁ဩဗက်	-11.4155
တင့်တယ်လျောက်ပတ်	-11.4155
ထုံးတမ်း	-11.4155
ပုံးရည်	-11.4155
ဗေဇလေလ	-11.4155
ဗေသောရုန်မြို့	-11.4155
ဘယ်သူအားမျှမပြော	-11.4155
လက်ျာနားပျဉ်း	-11.4155
သန်းခေါင်အချိန်၌	-11.4155
အဂြိပ္ပမင်းကြီး	-11.4155
အထောက်အပင့်	-11.4155
▁ငယ်သောအရွယ်မှစ၍	-11.4155
▁စပ်ဆိုသောဆာလ	-11.4155
▁ဇလောဖဒ်	-11.4155
▁ဒေဗိရမြို့	-11.4155
▁ပိုးရွ	-11.4155
▁ဗောရသား	-11.4155
▁မကြည့်မရှု	-11.4155
▁ရှုရှန်နန်းတော်	-11.4155
▁လက်တော်ကိုဆန့်၍	-11.4155
▁အစိုးမရ	-11.4155
▁အညီအမျှ	-11.4155
▁အဗျေဇာ	-11.4155
▁အာရှကေလုန်မြို့	-11.4155
စပါးခုနစ်နှံတို့	-11.4155
ထားဝရဘုရား	-11.4155
နံဖေး	-11.4155
နှလုံးကြေကွဲ	-11.4155
နှောက်ရှက်	-11.4155
မေနဟင်	-11.4155
လေးယောက်၊	-11.4155
သမ္ဘာလတ်	-11.4155
▁ကွန်ရွက်	-11.4155
▁ဗေရခိ	-11.4155
▁ဗေါင်း	-11.4155
▁လုံ့လဝိရိယ	-11.4155
▁ဟိရံမင်း	-11.4155
▁အထိအခိုက်	-11.4155
▁အာဇလုန်မြို့	-11.4155
ဘက်ယမ်း	-11.4155
သားယောနသန်	-11.4155
▁ဆီလိမ်း	-11.4155
▁ထိုအမူအရာ	-11.4155
▁ဖလားတော်ဝန်	-11.4155
▁ကျူပင်	-11.4155
▁စည်ပင်	-11.4155
▁တွန်းချ	-11.4155
▁ရှေရဘိ	-11.4155
▁အလျားနှစ်တောင်	-11.4155
ဆက်မှီရာ၌	-11.4155
▁ယေသရော	-11.4155
▁သင့်အဘဒါဝိဒ်	-11.4155
▁အသီးမသီး	-11.4155
▁ဣန္ဒြေစောင့်	-11.4155
▁လွှတ်စေချင်	-11.4155
▁အဘယ်ဆိုဘွယ်	-11.4155
ေစွဲယူ၍	-11.4155
▁အကြံမမြောက်	-11.4155
▁ပိုက်ဆန်	-11.4156
ကြည်ဖြူ	-11.4156
▁ဇောရာမြို့	-11.4156
▁ကျောက်ခင်း	-11.4156
▁ယားနာ	-11.4156
▁လောင်သောမီး	-11.4156
▁အာနကအမျိုးသား	-11.4156
ပုပ်ပျက်	-11.4156
တလုံးစီ	-11.4156
နှစ်ပါးအဝင်ဖြစ်	-11.4156
▁မိန်းမစိုးအုပ်	-11.4156
နေရာထိုင်ရာ	-11.4156
▁အိုယာကုပ်အမျိုး	-11.4156
တိုးတက်	-11.4156
▁အလွဲ	-11.4156
လွယ်၏။	-11.4156
မူလအမြစ်	-11.4156
▁ထိုနတ်	-11.4156
▁ကပတ်တော်	-11.4156
▁ယာဇာမြို့	-11.4156
နန်းစံလေးနှစ်	-11.4156
▁ဆိုင်ပြိုင်	-11.4156
▁ဇောရမြို့	-11.4156
▁စပါးရိတ်ရာကာလ	-11.4156
▁ဖွဲကဲ့သို့	-11.4156
▁တံသင်	-11.4156
ခွန်အားဗလ	-11.4157
ယေရှာယ	-11.4157
▁မြေလှုပ်ခြင်း	-11.4157
များမကြာ	-11.4157
▁မီးထွန်းစရာ	-11.4158
▁ဆောင်ယူခဲ့	-11.4159
အတန်းကား	-11.4159
▁ဇိနတော	-11.4159
ချိုလေးချောင်း	-11.416
▁ရွှေရုပ်တုကို	-11.416
မုန့်ကြွပ်	-11.4161
▁စွဲကိုင်	-11.4162
▁အစွဲပြု	-11.4163
ယောက်နောက်တယောက်	-11.4165
▁သားမဘွား	-11.4165
ဟေဇရ	-11.4166
▁အမှီမပြု	-11.4172
သောလူပျို	-11.4172
▁ဖြောင့်သောလမ်း	-11.4178
ထူထပ်	-11.4181
ဇိဘောင်	-11.4184
မှားယွင်းစေလျှင်	-11.4186
လက်ဆွဲ၍	-11.419
▁ငါ့ရန်သူတို့	-11.419
▁လွဲစေ	-11.4203
တော်ကြီးလှပါ	-11.4207
ပြားနှစ်ပြားကို	-11.4215
စစ်ပွဲထဲ	-11.4221
ဦးညွှတ်ချ	-11.4287
အသက်ပျိုစဉ်	-11.431
အနံ့ရှိစေ	-11.4369
ဂုဏ်ကျေးဇူး	-11.4428
ဆည်းဖူးသော	-11.4478
ယဇ်ကိုပူဇော်	-11.4492
တတ်နိုင်တော်မူ၏။	-11.4551
အံ့ဩခြင်းရှိ	-11.4557
ယောက်နှင့်တယောက်	-11.4558
သင်္ဘောသဖန်း	-11.4559
ကြွယ်ဝစွာ	-11.4613
ကြွင်းလေသမျှတို့	-11.4666
အချက်ဟူမူကား	-11.4734
▁အဘယ်ဆု	-11.5016
ခြေအရှင်ထာဝရ	-11.5045
ကြီးမြတ်တော်မူ၏။	-11.5057
လှည့်ဖြား	-11.5057
အခွက်တဆယ်ကို	-11.5082
ရေဗက္က	-11.5083
ကင်းစောင့်	-11.5084
ခါလဒဲ	-11.5085
မိဇပါမြို့	-11.5086
သားစဉ်မြေးဆက်	-11.5086
ညှိုးနွမ်း	-11.5087
ကျမ်းပြုဆရာ	-11.5087
ဗက်လင်မြို့	-11.5087
ဧဒုံ	-11.5088
ဇာတိပကတိ	-11.5088
ဂိလဒ်	-11.5088
ထူးဆန်းသော	-11.5089
အချည်းနှီး	-11.509
လူအစုအဝေး	-11.509
မထီမဲ့မြင်ပြု	-11.5091
▁ကြည်ညို	-11.51
▁အမြှေး	-11.5129
ဇေဗုလ	-11.5241
ထောင်ထား	-11.5248
ဘီးတို့	-11.5258
▁မိဇပါ	-11.5289
▁လျှော်တေအဝတ်	-11.5387
ယ်ကိုကိုယ်သိသော	-11.5391
ောင်လွှားစော်ကား	-11.5431
ဘုံ၏အရှင်	-11.5441
▁ဧလျေဇာ	-11.5463
▁ခမည်း	-11.5509
▁မေဂိဒ္ဒေါ	-11.5527
▁အဆီးအတား	-11.5528
ကုသိုလ်က	-11.5541
မွမ်းမံသော	-11.5546
▁ဒုစရိုက်ဖြေရာ	-11.5549
▁လက်ညှိုး	-11.5571
နည်းဥပဒေ	-11.5573
▁ဂျုံ	-11.5583
တုရိယာ	-11.5583
▁ကြေးဝါခြေစွပ်	-11.5583
မထီမဲ့	-11.5584
▁ဆူအောင်ကျွေး	-11.5584
▁ဗိနွိ	-11.5584
▁ရာဇလှံတံ	-11.5584
▁သနာခရိပ်	-11.5584
▁ဧရှတောလမြို့	-11.5584
ကျူတပြန်	-11.5584
ကြိုဆိုအံ့သောငှါ	-11.5584
ချင့်တွက်	-11.5584
ခြားမလပ်	-11.5584
ငါရေး၍ပေးလိုက်၏။	-11.5584
စတုရန်းလေးထောင့်	-11.5584
ဆံခြည်တပင်	-11.5584
ဆွေးနွှေး	-11.5584
နေဗုခဒ်	-11.5584
ရိုသေစွာပြုလော့။	-11.5584
ရှိငြားသော်လည်း	-11.5584
အပေါ်နားပတ်လည်၌	-11.5584
အမိဝမ်းတွင်းကပင်	-11.5584
ာဇမာဝက်	-11.5584
ာယ်ဆရာ	-11.5584
ုပ်ပင်ညွန့်	-11.5584
▁ကိလိကိပြည်	-11.5584
▁ကျောခိုင်း	-11.5584
▁ကြိမ်းပ	-11.5584
▁ခြံရံလျက်	-11.5584
▁ဂုဏ်ပြိုင်ခြင်း	-11.5584
▁ငုံ့၍	-11.5584
▁ဇက္ခဲ	-11.5584
▁တောဖက်အရပ်	-11.5584
▁ဒိရှုန်	-11.5584
▁နှဲခရာ	-11.5584
▁ဗေလရှာဇာ	-11.5584
▁မကျန်းမမာသော	-11.5584
▁မရှုတ်မချရ။	-11.5584
▁မိုဃ်းခေါင်	-11.5584
▁မုန်ညင်းစေ့	-11.5584
▁ရှေဘမိဖုရား	-11.5584
▁လက်စမသတ်	-11.5584
▁လက်ဆောင်ပဏ္ဏာ	-11.5584
▁လုတ္တရမြို့	-11.5584
▁ဝိဇ္ဇာဆရာ	-11.5584
▁ဝှက်၍မထား	-11.5584
▁သစ်ကြံပိုး	-11.5584
▁အာခဗော်	-11.5584
▁ဩနန်	-11.5584
ဆိပ်သို့	-11.5584
နှီးနှော	-11.5584
ဖင့်နွှဲ	-11.5584
မထိမ်မဝှက်	-11.5584
ရေဖိမ်ချိုင့်	-11.5584
ရွှင်မြူး	-11.5584
သုတ်ရည်	-11.5584
အချိန်နာရီ၌	-11.5584
အမွှေးအကြိုင်	-11.5584
အဟိနောင်	-11.5584
▁ကျူးဧ	-11.5584
▁ခေဗာမြစ်နားမှာ	-11.5584
▁ချည်းကပ်	-11.5584
▁ဂိရဂါရှိ	-11.5584
▁ငါရွေးချယ်	-11.5584
▁ငါးဆယ်မမှီ၊	-11.5584
ဩ	-13.0304
ဃ	-13.0305
ဦ	-13.0306
ဉ	-13.0307
၎	-13.0308
?	-13.0309
