<pad>	0
</s>	0
<unk>	0
¦	-1.17895
▁¦	-1.54554
▁	-3.00713
𐋇	-3.43855
e	-3.63872
o	-3.87316
i	-3.90279
▁,	-4.06469
a	-4.25565
di	-4.67282
il	-4.91523
la	-5.1303
▁'	-5.35542
che	-5.38616
in	-5.58559
per	-5.61183
▁:	-5.63041
non	-5.65854
ò	-5.73069
si	-5.75989
le	-5.76033
signore	-5.84134
del	-5.87209
no	-5.87876
è	-5.89603
gli	-5.96843
l	-6.03396
é	-6.05929
un	-6.06464
▁;	-6.11242
re	-6.11495
con	-6.14288
«	-6.16146
loro	-6.27145
da	-6.28223
de	-6.32828
▁.	-6.34622
al	-6.35295
lo	-6.38705
suo	-6.40123
ha	-6.40566
ti	-6.49618
te	-6.50363
dio	-6.51153
ma	-6.51223
perch	-6.54246
mi	-6.5779
come	-6.61269
vi	-6.61508
nel	-6.63239
della	-6.66222
▁»	-6.6789
tutt	-6.69513
se	-6.70974
tuo	-6.78169
sono	-6.83657
d	-6.84311
una	-6.87739
me	-6.91533
vo	-6.92171
ci	-6.92737
disse	-6.92997
c	-6.93687
à	-6.94367
ro	-6.95246
io	-6.95641
figli	-7.03054
dell	-7.03611
figlio	-7.04518
era	-7.06678
alla	-7.09137
rono	-7.09594
li	-7.10079
sua	-7.11572
egli	-7.12432
nell	-7.14099
mio	-7.15007
dal	-7.1506
tu	-7.15532
rà	-7.16007
chi	-7.16326
n	-7.20276
ne	-7.22158
giorn	-7.22782
quell	-7.25071
quand	-7.25087
aveva	-7.26128
israel	-7.26951
p	-7.3122
questo	-7.32707
lui	-7.33941
popolo	-7.35558
ho	-7.39543
ai	-7.41458
vostr	-7.42146
su	-7.42932
quest	-7.43965
contro	-7.44475
g	-7.46517
allor	-7.46713
dall	-7.48751
padr	-7.49807
anche	-7.50395
uom	-7.50639
sarà	-7.51135
terra	-7.5208
osì	-7.53671
paes	-7.53674
ranno	-7.54179
tutto	-7.55211
anno	-7.55582
tua	-7.56457
città	-7.59797
iù	-7.61142
parol	-7.61587
casa	-7.62379
fu	-7.6435
ad	-7.65467
mia	-7.66054
s	-7.6778
poi	-7.70709
ecco	-7.71848
que	-7.72836
▁?	-7.73033
ogni	-7.73582
sull	-7.77093
david	-7.78085
ì	-7.78643
sul	-7.80587
essi	-7.81399
ed	-7.8164
tà	-7.83015
all	-7.83627
uomin	-7.83733
ora	-7.86659
esù	-7.86982
fatto	-7.87004
mie	-7.90973
erà	-7.91177
nostr	-7.91567
qual	-7.9253
secondo	-7.92829
fratell	-7.93459
ono	-7.95617
noi	-7.96805
mos	-7.97005
fece	-7.97385
mano	-7.99376
sacerdot	-7.99418
to	-8.00487
fino	-8.01857
rispose	-8.02525
far	-8.02748
giuda	-8.03296
fatti	-8.03933
mezzo	-8.04629
dice	-8.0486
due	-8.04923
poich	-8.05751
vanti	-8.0613
ver	-8.06831
cuor	-8.07022
sia	-8.07706
quant	-8.08041
gerusalemm	-8.0819
occhi	-8.0852
ità	-8.10548
vita	-8.10753
israelit	-8.13378
tempi	-8.13873
quel	-8.14341
vers	-8.15845
ù	-8.15989
ete	-8.18174
ciel	-8.18602
-	-8.19966
tutta	-8.20272
tra	-8.20453
eran	-8.22146
sue	-8.22287
cosa	-8.23454
grande	-8.23504
cui	-8.23563
sa	-8.25798
mentr	-8.26087
nessun	-8.26509
dopo	-8.26958
ndo	-8.27595
mani	-8.27845
uno	-8.28066
sei	-8.28981
dun	-8.30516
alle	-8.30754
senz	-8.31702
stess	-8.32159
va	-8.33338
ri	-8.34852
mo	-8.35303
egitt	-8.36196
mort	-8.36525
han	-8.37119
sta	-8.37598
▁?»	-8.37684
agli	-8.37845
▁!»	-8.38352
▁».	-8.38427
fra	-8.3861
regn	-8.39477
essa	-8.3955
ancor	-8.39937
cose	-8.40965
▁-	-8.4114
dove	-8.41987
capo	-8.42178
donn	-8.42297
tempo	-8.43338
questi	-8.43789
zione	-8.44018
spirit	-8.44411
dett	-8.4608
nza	-8.47987
forse	-8.48217
crist	-8.5012
parte	-8.50567
anni	-8.51043
one	-8.52494
alcun	-8.53152
avet	-8.53176
bene	-8.53365
semp	-8.54198
nno	-8.54202
legge	-8.55978
porta	-8.56301
stato	-8.56938
capi	-8.57916
sopra	-8.58247
fuoc	-8.58577
là	-8.59104
rò	-8.62163
giustizia	-8.62294
za	-8.6297
altri	-8.63339
altro	-8.63727
sotto	-8.64147
luogo	-8.64924
via	-8.64967
pietr	-8.65259
sacrifici	-8.6554
essere	-8.66321
nei	-8.66583
fa	-8.6717
servo	-8.67364
and	-8.68279
altar	-8.68852
nom	-8.68884
spad	-8.69148
solo	-8.69606
tue	-8.70107
sangu	-8.71204
saul	-8.71431
tre	-8.71701
oro	-8.72062
dato	-8.72268
vien	-8.72835
male	-8.73154
tanto	-8.73378
amo	-8.73578
pi	-8.74224
ezza	-8.74754
voc	-8.74908
presso	-8.75035
nemic	-8.76925
davan	-8.77878
sette	-8.78606
famigli	-8.79193
prima	-8.79317
m	-8.80264
oggi	-8.81379
insiem	-8.81497
gloria	-8.81802
prese	-8.81892
abbiam	-8.82922
peccato	-8.83414
trib	-8.83936
fare	-8.8394
bocca	-8.84106
desert	-8.84634
giacobb	-8.84647
acqua	-8.85168
saran	-8.8528
ebbe	-8.8706
colu	-8.88245
invec	-8.88569
mare	-8.8879
dai	-8.89007
van	-8.90666
aronn	-8.91052
giude	-8.9139
moglie	-8.91927
mente	-8.92183
servi	-8.92471
pu	-8.92573
dicendo	-8.92762
mond	-8.92846
furon	-8.93088
av	-8.93536
buon	-8.93805
popol	-8.93868
nott	-8.9401
andar	-8.94518
posto	-8.95138
tenda	-8.95595
venne	-8.98056
molt	-8.98238
piedi	-8.99576
mento	-8.99905
offert	-9.00112
co	-9.00451
quali	-9.00459
santo	-9.00485
causa	-9.01421
monte	-9.01572
rete	-9.02523
nazion	-9.02837
alleanz	-9.03043
nulla	-9.03669
argent	-9.03964
gente	-9.05034
ira	-9.05569
qui	-9.05859
stava	-9.06116
babiloni	-9.06269
carne	-9.06602
fede	-9.0677
salomon	-9.06915
▁?».	-9.07585
madre	-9.07996
abram	-9.08425
diede	-9.08472
seppe	-9.08581
t	-9.09064
eserciti	-9.09579
erò	-9.09692
giu	-9.10022
mai	-9.10283
olocaust	-9.103
k	-9.10853
faccia	-9.1124
filiste	-9.11338
gia	-9.1139
bestia	-9.11634
dimora	-9.11833
abitant	-9.11868
gioi	-9.12476
dico	-9.13122
pac	-9.13136
finch	-9.14164
fara	-9.14763
nuov	-9.15418
propri	-9.15909
quanti	-9.1608
fuor	-9.16456
porte	-9.16467
gran	-9.17006
discepol	-9.17433
visto	-9.17633
diceva	-9.17696
giust	-9.17768
abbia	-9.17866
pa	-9.18038
pane	-9.18259
siamo	-9.18392
mand	-9.19077
figlia	-9.19569
r	-9.19643
grazia	-9.20052
salv	-9.20246
leviti	-9.20864
acque	-9.21706
molti	-9.22212
farà	-9.22811
ciascun	-9.23138
profeti	-9.23612
gios	-9.24227
amente	-9.24681
profeta	-9.2482
color	-9.25261
ascolta	-9.25347
schiav	-9.25362
ni	-9.2547
vesti	-9.26083
dar	-9.26762
altra	-9.26833
uè	-9.27286
zza	-9.27426
iamo	-9.27501
cubit	-9.27541
fronte	-9.27548
alz	-9.27717
guerr	-9.28287
mese	-9.28291
comand	-9.28438
strad	-9.28678
aver	-9.28716
sara	-9.29457
ben	-9.29551
ve	-9.29776
scritt	-9.30878
so	-9.30995
arca	-9.31479
chiam	-9.31631
dire	-9.31824
fosse	-9.32146
am	-9.32517
poter	-9.33145
nque	-9.33804
comuni	-9.34063
ato	-9.34217
rai	-9.34348
intorn	-9.34416
stati	-9.34479
riguard	-9.34538
mangiar	-9.34806
sto	-9.34901
ta	-9.35941
u	-9.36133
gener	-9.36559
quindi	-9.3777
luce	-9.38062
avr	-9.38086
opere	-9.3825
forza	-9.38441
dieci	-9.38617
volta	-9.38763
sui	-9.39174
corpo	-9.39531
uscire	-9.39768
oltre	-9.39859
ar	-9.39966
quattro	-9.40454
dov	-9.41082
primo	-9.4152
rest	-9.41882
messo	-9.41923
chiamat	-9.42202
fedel	-9.42323
udit	-9.42428
orecchi	-9.42511
cio	-9.42828
sol	-9.43067
▁!».	-9.43467
cinque	-9.43721
angel	-9.43957
camp	-9.44092
ordine	-9.45094
trova	-9.45645
èl	-9.45949
veder	-9.45986
vino	-9.46259
grida	-9.46692
divenne	-9.46921
oracol	-9.47404
opera	-9.47703
vide	-9.47706
parla	-9.47728
giordan	-9.47878
grid	-9.48129
ano	-9.483
etern	-9.48904
venuto	-9.48938
sì	-9.49209
lontan	-9.4927
ch	-9.49507
fine	-9.50166
anziani	-9.50576
iniquit	-9.50815
santuari	-9.50932
esso	-9.5094
testa	-9.51627
fate	-9.52413
stranier	-9.52495
servizi	-9.52774
chiu	-9.52785
na	-9.52901
genti	-9.53079
esercit	-9.53197
dodici	-9.53552
mod	-9.53726
mor	-9.54419
farai	-9.54539
gregg	-9.54657
potenz	-9.54727
ognun	-9.55155
generazion	-9.55216
mandat	-9.55956
pot	-9.5598
libr	-9.5604
lavor	-9.56175
stata	-9.56305
grandi	-9.56614
efraim	-9.56642
parti	-9.56649
entr	-9.56702
eredit	-9.56752
destra	-9.57171
mont	-9.57631
và	-9.5784
anzi	-9.57896
venir	-9.58359
malvagi	-9.58442
peccat	-9.58489
mise	-9.59261
b	-9.59333
ordinat	-9.59359
terz	-9.59495
cavall	-9.60141
empi	-9.60242
presenz	-9.60385
discende	-9.62234
tron	-9.62242
lung	-9.62251
nostra	-9.6226
sion	-9.62382
giovann	-9.62453
immond	-9.62662
metter	-9.63108
alber	-9.63459
parlar	-9.63838
amore	-9.64174
anch	-9.64209
im	-9.64283
liber	-9.64354
giudizi	-9.64768
sapien	-9.64882
morti	-9.65115
fium	-9.65961
possesso	-9.6598
idol	-9.66082
numero	-9.66094
lio	-9.66182
pur	-9.66565
avev	-9.66857
sabat	-9.66944
ra	-9.66946
morire	-9.67099
padrone	-9.6748
region	-9.67499
or	-9.67986
moab	-9.68281
saggi	-9.68427
testimonianz	-9.68433
tale	-9.69018
conosce	-9.69917
preso	-9.69939
sse	-9.70386
orient	-9.70906
voglio	-9.71075
ministr	-9.71125
certo	-9.71162
misericordi	-9.71439
diritt	-9.71595
vicin	-9.71794
beniamin	-9.72029
assal	-9.72081
bet	-9.72122
bambin	-9.72154
,	-9.72339
sole	-9.7257
folla	-9.73002
frutt	-9.73245
cor	-9.73362
convegn	-9.73441
scelt	-9.73563
oggett	-9.74043
dà	-9.74278
parl	-9.74529
esse	-9.74799
subit	-9.7541
costu	-9.75437
cammin	-9.75546
timor	-9.7557
lato	-9.75634
venti	-9.75792
valle	-9.75854
allo	-9.75861
accampament	-9.76377
pien	-9.76696
fin	-9.76965
sicl	-9.77016
as	-9.77128
prender	-9.77184
muel	-9.77223
appen	-9.77396
tali	-9.77596
bere	-9.77706
territori	-9.78077
dagli	-9.78138
elia	-9.78277
esser	-9.78294
uscì	-9.78349
lingua	-9.78457
osserva	-9.78656
condott	-9.78978
cerca	-9.79416
età	-9.79423
promess	-9.79545
gerem	-9.79806
confin	-9.79906
letto	-9.80286
on	-9.80943
dono	-9.81278
sera	-9.81384
denar	-9.81604
baal	-9.81621
rivolta	-9.81883
alto	-9.81955
espiatori	-9.82242
rimase	-9.8243
volte	-9.82436
utto	-9.82551
remo	-9.82949
do	-9.83002
marit	-9.83453
neppur	-9.8373
benedett	-9.83747
maestr	-9.83748
oab	-9.83904
preghier	-9.8418
sor	-9.84313
costo	-9.84447
stolt	-9.84745
mura	-9.84833
possa	-9.85144
sorte	-9.85249
ca	-9.85737
aiut	-9.85843
prendi	-9.85854
forte	-9.85991
son	-9.86129
entrar	-9.86534
montagn	-9.86563
santi	-9.86805
simil	-9.87006
render	-9.871
ezechi	-9.87304
dare	-9.87409
onore	-9.87654
primogenit	-9.88114
mattin	-9.88677
isacc	-9.88776
qualcun	-9.88815
rovina	-9.88966
ariet	-9.89091
vivent	-9.89329
vento	-9.89639
pure	-9.89787
gàla	-9.90001
ura	-9.90428
usci	-9.90837
venga	-9.91076
torn	-9.91142
condusse	-9.9127
cento	-9.91466
ando	-9.91691
manàss	-9.91867
anima	-9.92018
altre	-9.92464
passa	-9.93104
pecore	-9.93373
sorell	-9.93483
po	-9.93613
cib	-9.93848
menti	-9.94165
nascost	-9.9429
faceva	-9.94317
giudic	-9.94604
mangia	-9.94641
volto	-9.9486
scrib	-9.9503
campagn	-9.9503
battagli	-9.95047
commess	-9.95206
trovato	-9.95553
festa	-9.95665
mila	-9.95807
f	-9.95894
hi	-9.96118
ricchezz	-9.96649
ammonit	-9.96657
dani	-9.96797
poc	-9.96888
carri	-9.96958
consacrat	-9.97353
ero	-9.97587
assiri	-9.97631
uccise	-9.97789
andate	-9.97794
egizian	-9.98295
parlato	-9.9837
pes	-9.98784
cad	-9.98879
samari	-9.99166
dietr	-9.99191
oblazion	-9.99219
prendere	-9.99911
messagger	-9.99968
fà	-10.0005
pascoli	-10.0008
ce	-10.0026
pian	-10.0027
seguito	-10.0043
azion	-10.0054
ìa	-10.0068
ingress	-10.0082
giònat	-10.0083
giunse	-10.0089
pratica	-10.0093
besti	-10.0098
avver	-10.0102
mmo	-10.0106
assemble	-10.0167
polver	-10.0167
ordin	-10.0175
guarda	-10.0175
speranz	-10.021
case	-10.0232
passar	-10.0239
uscit	-10.0241
abomini	-10.0253
sepolcr	-10.0253
grass	-10.0255
ber	-10.0266
bracci	-10.0281
decret	-10.0302
gio	-10.0322
ascoltate	-10.0324
trov	-10.0327
prossim	-10.034
colonn	-10.0349
bala	-10.0369
incens	-10.0386
duran	-10.0406
olo	-10.0424
saper	-10.0448
avra	-10.0459
tenebr	-10.0485
dom	-10.0503
settim	-10.0512
giovani	-10.0517
concess	-10.0553
vision	-10.0562
fame	-10.057
pass	-10.0602
giovane	-10.0607
ab	-10.061
onne	-10.0612
altur	-10.0631
ntro	-10.0647
state	-10.0679
saret	-10.0705
alza	-10.0748
ricevut	-10.0787
paura	-10.0788
trovava	-10.08
piet	-10.0807
prova	-10.0814
sarò	-10.0815
sdegn	-10.0839
principi	-10.0878
potr	-10.0886
lode	-10.0941
villaggi	-10.0971
compiut	-10.0974
leggi	-10.0978
pover	-10.1004
port	-10.1026
passat	-10.1041
fat	-10.1054
colpa	-10.1062
sventura	-10.1086
sappia	-10.1099
chiama	-10.1119
piccol	-10.1128
empio	-10.116
vedi	-10.1166
lech	-10.1207
settentrion	-10.1219
pose	-10.1242
uccelli	-10.1246
miser	-10.1251
cadaver	-10.1264
dan	-10.1279
giusti	-10.1288
salva	-10.1325
giovenc	-10.133
stanz	-10.1338
dinanz	-10.136
ghe	-10.1379
diventat	-10.1396
cadut	-10.145
torrent	-10.1451
lascia	-10.1455
bronz	-10.1469
chiese	-10.1479
baston	-10.1546
maschi	-10.1547
rito	-10.1552
potente	-10.1567
labbr	-10.1569
tende	-10.1587
entra	-10.1598
asin	-10.1604
gerobo	-10.1645
ritorn	-10.1687
stermin	-10.1698
animal	-10.1698
ved	-10.17
moment	-10.1715
compi	-10.1729
sarebbe	-10.1746
cattiv	-10.1764
cammina	-10.1768
vecchi	-10.1769
fi	-10.1771
veni	-10.1778
manger	-10.1778
propria	-10.1779
fortezz	-10.1787
preser	-10.1836
guai	-10.1844
esa	-10.1854
entrat	-10.1857
scese	-10.1888
manda	-10.1892
dolor	-10.1896
agnell	-10.1905
ferr	-10.1915
farise	-10.1969
viver	-10.1971
piena	-10.1973
prodigi	-10.1975
domand	-10.2021
ripos	-10.2033
occident	-10.2051
chiamava	-10.2057
dev	-10.2094
indietr	-10.2106
angoscia	-10.2156
beni	-10.2158
rimast	-10.218
orpora	-10.2199
comandat	-10.2201
legn	-10.2207
mari	-10.2224
gett	-10.2226
bas	-10.2277
tornar	-10.2283
mori	-10.2288
venuti	-10.2317
portato	-10.2332
preda	-10.2369
eppur	-10.239
costruit	-10.2399
ione	-10.2408
reggia	-10.2468
vergogna	-10.2468
abitava	-10.2482
ucciso	-10.2493
gad	-10.2526
campi	-10.2534
col	-10.2535
vuol	-10.2555
bo	-10.2555
offrire	-10.2566
ricord	-10.2623
vivo	-10.2635
calde	-10.2638
trenta	-10.2642
mezzogiorn	-10.265
consigli	-10.2681
favore	-10.2689
acab	-10.2693
perenn	-10.2693
quart	-10.2704
frutti	-10.2708
gno	-10.2711
h	-10.2711
cinquanta	-10.2714
avut	-10.2714
mogli	-10.2716
abi	-10.2716
andava	-10.272
data	-10.2762
lascer	-10.2767
canaa	-10.2785
buo	-10.2794
alzati	-10.2797
diventer	-10.2808
segn	-10.281
person	-10.2815
discendent	-10.283
cura	-10.2843
canto	-10.2871
ascoltato	-10.2878
nte	-10.2902
ud	-10.2905
date	-10.2915
gàba	-10.2918
ossa	-10.2919
mille	-10.292
car	-10.293
pro	-10.294
temere	-10.2952
torna	-10.2978
guardi	-10.2996
reso	-10.2996
sali	-10.3004
nub	-10.3016
avversari	-10.303
facendo	-10.303
vedendo	-10.3032
partor	-10.3107
venut	-10.3134
piogg	-10.3144
nabucod	-10.3145
amorre	-10.3146
vangel	-10.3146
cherubin	-10.3147
offrir	-10.315
tavola	-10.3152
angeli	-10.316
mattina	-10.3165
nato	-10.3179
ascolt	-10.3193
giò	-10.3239
prì	-10.3244
qua	-10.3244
profum	-10.3258
radun	-10.326
pront	-10.3273
vuo	-10.3284
òn	-10.3291
parlava	-10.3307
conoscere	-10.3311
prende	-10.3354
grazie	-10.3378
forestier	-10.3379
sommo	-10.338
zio	-10.339
accampa	-10.3429
atri	-10.3459
v	-10.3465
getta	-10.3468
udire	-10.3476
mander	-10.3501
copp	-10.3516
lasci	-10.3538
àm	-10.3568
salì	-10.3574
scender	-10.3602
sola	-10.361
avendo	-10.3619
forma	-10.3626
conto	-10.3636
arriv	-10.3647
prest	-10.3659
apostol	-10.3662
part	-10.3686
bell	-10.3722
vigna	-10.3742
passi	-10.3743
partire	-10.3761
pasqua	-10.3763
vista	-10.3774
ach	-10.3775
terror	-10.378
giurat	-10.3783
veste	-10.3789
abita	-10.3807
rifugi	-10.3819
bar	-10.3835
elis	-10.3847
inviat	-10.385
largh	-10.386
tropp	-10.3864
devo	-10.3869
misura	-10.3876
desideri	-10.3876
sagg	-10.3902
sti	-10.3914
agnelli	-10.3918
censi	-10.3926
testimoni	-10.3926
prostr	-10.3935
vestit	-10.3943
molte	-10.3944
abbandonato	-10.3945
go	-10.3958
acces	-10.3958
fatta	-10.3984
attorn	-10.3989
viv	-10.399
ebron	-10.401
stabilito	-10.4012
simon	-10.4035
passer	-10.407
nto	-10.407
pagan	-10.4097
pelle	-10.41
governator	-10.4115
comandament	-10.4126
benedizion	-10.4135
cadde	-10.4145
veniva	-10.4153
retto	-10.4154
vengo	-10.4156
schiavi	-10.4164
presi	-10.4186
dite	-10.4187
aspett	-10.4212
mette	-10.4228
dì	-10.4229
ate	-10.4236
aram	-10.424
lontà	-10.4245
lunghe	-10.4245
dur	-10.4264
circoncisi	-10.4278
fann	-10.4288
avere	-10.4295
bbe	-10.43
canane	-10.4305
stra	-10.4344
ferm	-10.435
cambi	-10.4352
arame	-10.4359
galile	-10.4373
sinistr	-10.4373
vittim	-10.4375
is	-10.4377
com	-10.4379
conosco	-10.4435
tal	-10.4438
ga	-10.445
giardin	-10.4505
sicur	-10.4506
prigionier	-10.4509
mantell	-10.451
rispost	-10.4517
secol	-10.4523
àr	-10.4531
dispers	-10.4559
gat	-10.4561
intern	-10.4591
viaggi	-10.4605
colpit	-10.4627
ieu	-10.4627
erba	-10.4629
principe	-10.4638
tromb	-10.4641
intelligen	-10.4655
cominci	-10.4689
negli	-10.4721
sser	-10.4744
leone	-10.4759
giunt	-10.4765
raduna	-10.4766
liba	-10.4771
vede	-10.4781
abitar	-10.4789
ram	-10.4794
doman	-10.481
sape	-10.4822
innocent	-10.4839
lasciar	-10.487
ste	-10.4876
ruben	-10.4895
sai	-10.4908
pensier	-10.4921
estremi	-10.5023
stabil	-10.5031
consumat	-10.5035
volle	-10.5052
motiv	-10.5058
libera	-10.5061
ombra	-10.5074
sogno	-10.5084
finit	-10.5094
sommi	-10.5137
resta	-10.5143
addoss	-10.5149
sald	-10.5155
quaranta	-10.5162
lamento	-10.5169
conosciut	-10.5186
violenz	-10.519
betel	-10.5191
speci	-10.5191
muro	-10.5193
piede	-10.5194
asa	-10.5201
arco	-10.5208
copert	-10.5209
ggi	-10.5235
portar	-10.5239
mar	-10.5253
tori	-10.5262
mosse	-10.5288
avre	-10.5289
servire	-10.5304
agit	-10.5307
maggior	-10.5333
avrebbe	-10.5337
fai	-10.5338
viva	-10.5363
bi	-10.5371
ata	-10.5389
spalle	-10.5412
decim	-10.5442
decimo	-10.5446
abim	-10.5456
nti	-10.5457
rti	-10.5465
fossa	-10.5478
levi	-10.5482
uman	-10.5508
nud	-10.5571
erai	-10.5594
salvar	-10.5597
fanciull	-10.5607
lancia	-10.5611
stirpe	-10.5616
coller	-10.5627
sichem	-10.5631
coro	-10.5641
circ	-10.5651
acaz	-10.5656
dura	-10.568
udi	-10.5693
colp	-10.5697
inter	-10.5698
settanta	-10.5705
ba	-10.571
manca	-10.5728
riscatt	-10.5738
fals	-10.5756
carr	-10.5762
tura	-10.5763
rami	-10.5771
scienz	-10.5772
superstit	-10.5774
possia	-10.5786
sguard	-10.5794
libazion	-10.5814
distrugger	-10.5822
comun	-10.5856
sap	-10.5857
ricc	-10.5862
prezios	-10.587
distrutt	-10.5872
present	-10.5879
bal	-10.5884
santa	-10.5918
catene	-10.5918
facci	-10.5926
avesse	-10.5944
fian	-10.5952
gradit	-10.5967
punt	-10.5969
scrittur	-10.6012
preparat	-10.6024
dò	-10.604
moltitudin	-10.6079
raccolt	-10.608
apparve	-10.608
essendo	-10.6086
tornat	-10.6087
salit	-10.6104
pani	-10.6106
espia	-10.6127
peccator	-10.6142
accan	-10.6142
registrat	-10.6147
bile	-10.6198
inferi	-10.6219
cos	-10.623
bon	-10.6234
rimarr	-10.6238
mangiato	-10.6243
posso	-10.6257
gest	-10.6261
schiere	-10.6266
ester	-10.6274
amic	-10.6306
rocci	-10.6307
trovar	-10.6326
giunto	-10.6339
fuggi	-10.6367
armi	-10.6375
provinc	-10.6395
erico	-10.6397
numeros	-10.6398
maledizion	-10.6399
sedec	-10.6403
seduto	-10.6403
miseri	-10.6417
chiamar	-10.6421
ggio	-10.6485
offr	-10.6491
aser	-10.6509
partit	-10.6511
saf	-10.6517
assi	-10.6534
tranquill	-10.6547
altissim	-10.6556
flagell	-10.6556
tto	-10.6585
messi	-10.6594
giog	-10.6611
preg	-10.6618
rende	-10.6626
cima	-10.6629
salmo	-10.6641
decis	-10.6656
crede	-10.6657
notizi	-10.6664
fondament	-10.6712
nubi	-10.6715
dobb	-10.6719
fiducia	-10.6719
hittit	-10.6719
splendor	-10.6719
banchett	-10.6719
guardia	-10.6726
velo	-10.6728
tavole	-10.6729
sentier	-10.6734
lasciato	-10.6771
macchia	-10.6771
arriva	-10.6774
allontan	-10.6793
fior	-10.6805
bà	-10.6826
cader	-10.6829
poveri	-10.6836
pezzi	-10.6844
cedro	-10.6853
menzogn	-10.6855
ur	-10.686
infedel	-10.6861
isai	-10.6865
prigione	-10.6883
sentit	-10.6884
cammell	-10.6886
miglior	-10.6889
bruciat	-10.6896
ascoltar	-10.6911
talent	-10.6929
stare	-10.6934
creato	-10.6944
mettere	-10.6948
elea	-10.6949
vedova	-10.6954
amici	-10.6962
signor	-10.6974
viola	-10.6976
cercate	-10.6991
combattere	-10.6999
segui	-10.7002
orma	-10.7003
he	-10.7013
ava	-10.7019
sepolt	-10.7022
san	-10.7024
lavori	-10.7029
tiro	-10.7037
tesori	-10.7037
rame	-10.7048
mardoche	-10.7056
significa	-10.7056
damasc	-10.7056
tolt	-10.7058
custodi	-10.7061
vive	-10.7071
schiera	-10.7078
giurament	-10.7101
attravers	-10.7102
rimane	-10.7118
natan	-10.7133
vider	-10.714
beat	-10.7149
base	-10.7157
conosci	-10.7164
otto	-10.717
bri	-10.7181
odia	-10.7215
fianc	-10.7228
botti	-10.7236
presente	-10.7239
furor	-10.7246
luog	-10.7246
tratta	-10.7253
resti	-10.726
pre	-10.7264
lì	-10.7298
bue	-10.7316
erava	-10.7382
sacc	-10.7395
asse	-10.7396
aggiunse	-10.7403
precett	-10.7403
onnipoten	-10.7404
fretta	-10.7404
portava	-10.7405
regin	-10.7414
generat	-10.7427
eli	-10.7437
perire	-10.744
continu	-10.7445
annunzia	-10.7459
iniqu	-10.7484
offri	-10.7512
mes	-10.7539
ricordat	-10.7541
soffi	-10.7546
segni	-10.7558
gettato	-10.7562
collo	-10.758
dottrin	-10.7582
vitell	-10.7586
dissi	-10.7595
disprezzat	-10.7599
maledett	-10.7601
fil	-10.7602
ordina	-10.7603
peste	-10.7622
risuscitat	-10.7622
valoros	-10.7624
benevole	-10.7624
selvatic	-10.7634
bisogno	-10.7641
pilat	-10.7645
alta	-10.7651
segu	-10.7652
pastor	-10.7654
costru	-10.7667
rsi	-10.767
ner	-10.7682
aperto	-10.7687
pensa	-10.7692
porr	-10.7693
benedisse	-10.7693
abiss	-10.7715
guardate	-10.7719
nove	-10.7723
proprie	-10.7729
segret	-10.7764
betlemm	-10.7764
zaccari	-10.7764
frontier	-10.7764
vigne	-10.7764
chiamati	-10.7766
ufficial	-10.777
vedo	-10.7792
sale	-10.7802
az	-10.7819
sposa	-10.7819
arred	-10.7825
superbi	-10.7836
ribelli	-10.7837
devi	-10.7843
duecento	-10.7855
prodi	-10.7861
doni	-10.7864
potent	-10.788
braccia	-10.7899
persona	-10.7914
portaron	-10.7916
fugg	-10.7917
compier	-10.7923
fod	-10.7924
inoltr	-10.7939
angol	-10.794
nati	-10.7943
cavalier	-10.7949
appartien	-10.7949
palazz	-10.7949
ordini	-10.795
vidi	-10.7972
profetizza	-10.7975
ardente	-10.7982
cari	-10.7983
riprese	-10.7998
uccidere	-10.8003
castig	-10.8006
zaro	-10.8007
median	-10.8012
quint	-10.8026
zad	-10.8027
be	-10.8063
giunge	-10.8082
second	-10.8094
mangi	-10.8098
ragazz	-10.8106
aià	-10.8118
corona	-10.812
atana	-10.8128
difes	-10.8138
pozz	-10.8148
oscur	-10.815
kì	-10.8157
sces	-10.8165
felic	-10.8176
profond	-10.8184
amat	-10.8195
consegnato	-10.8199
pianto	-10.8204
cr	-10.8208
descritt	-10.822
abiter	-10.8227
scere	-10.8229
vendett	-10.8233
amen	-10.8266
condanna	-10.8279
sigill	-10.8293
voglia	-10.8308
nomi	-10.8312
stes	-10.8314
tratt	-10.8316
abiti	-10.8316
gono	-10.8317
denti	-10.8317
sorge	-10.8322
gross	-10.8329
azzim	-10.833
medesim	-10.833
prodott	-10.8331
cortil	-10.8335
ridott	-10.8336
nèf	-10.8338
simeon	-10.8343
▁"	-10.8355
fec	-10.8359
estrem	-10.8366
vada	-10.8374
morir	-10.8378
ferma	-10.84
legat	-10.8432
sò	-10.8441
doma	-10.8448
comincia	-10.8471
chies	-10.8487
numerosi	-10.8488
candelabr	-10.8526
frecc	-10.8526
piaga	-10.8526
integr	-10.8527
primizi	-10.8528
rach	-10.8538
usciva	-10.8539
temete	-10.8541
prendete	-10.8543
risponde	-10.8543
robo	-10.8544
retta	-10.8551
doveva	-10.8587
latte	-10.8587
salvato	-10.8594
piccoli	-10.8599
nna	-10.8602
portate	-10.8605
perdona	-10.8608
real	-10.8644
stell	-10.865
spezzat	-10.8654
recint	-10.8655
zer	-10.8655
letter	-10.866
retti	-10.8676
salire	-10.8679
presa	-10.8685
parler	-10.87
vergin	-10.871
entre	-10.872
teso	-10.8722
parabol	-10.8726
desolazion	-10.8726
serpent	-10.8728
òt	-10.8731
dirgli	-10.8737
cintur	-10.8741
vicini	-10.8761
guerrier	-10.8762
ebre	-10.8765
metti	-10.8781
sino	-10.8797
cetr	-10.8803
dis	-10.8812
divora	-10.8815
zà	-10.8817
soldat	-10.8817
stese	-10.882
spos	-10.8829
nuova	-10.8833
sina	-10.884
annunzi	-10.884
capro	-10.8851
tan	-10.8852
tti	-10.8869
gheb	-10.8901
gala	-10.8903
giosi	-10.8918
scarlatt	-10.893
compassione	-10.893
azaria	-10.893
riparazion	-10.893
costituit	-10.8934
stepp	-10.8936
guarit	-10.8939
ultim	-10.8942
discors	-10.8947
cercava	-10.8952
primi	-10.8959
achis	-10.8996
statu	-10.9001
du	-10.9003
ezer	-10.9006
oram	-10.9039
tesor	-10.904
colpevole	-10.9052
amà	-10.9056
consegn	-10.9058
sorgent	-10.906
insegna	-10.9069
forti	-10.9096
prezzo	-10.9133
agguat	-10.9139
bulon	-10.9139
prostitut	-10.9139
sconfisse	-10.9139
immagin	-10.9139
mizp	-10.9139
volut	-10.9139
desolat	-10.914
antichi	-10.9146
sapeva	-10.9147
passava	-10.9152
soav	-10.9153
commette	-10.9169
trecento	-10.9173
agisc	-10.9183
vado	-10.9188
commettere	-10.921
sacro	-10.9222
brucer	-10.9227
divorer	-10.9231
biss	-10.9234
sabea	-10.9242
malat	-10.9262
spin	-10.9265
avvicin	-10.9268
avvicinar	-10.9271
uccider	-10.9292
ritorna	-10.9299
ge	-10.9306
an	-10.9312
naba	-10.9321
pastore	-10.9321
inn	-10.9334
madian	-10.9337
abbonda	-10.9346
confida	-10.9348
giovine	-10.9349
niente	-10.935
autori	-10.935
keat	-10.9352
caresti	-10.9352
basa	-10.9353
allontana	-10.9354
confusi	-10.9355
capell	-10.9364
seppelli	-10.9374
ingann	-10.9376
giura	-10.9378
terren	-10.9379
sacar	-10.9388
rib	-10.9399
pascol	-10.9404
riva	-10.9433
sc	-10.9442
bella	-10.9446
ret	-10.9453
mesi	-10.9456
lacci	-10.946
presentaron	-10.9463
petto	-10.9471
seme	-10.9472
riceve	-10.9473
arrivat	-10.9504
costruire	-10.9531
addorment	-10.9533
uscir	-10.9537
prendera	-10.954
spavento	-10.9543
andato	-10.9549
ismael	-10.9554
attenzion	-10.9569
sconfitt	-10.9569
barca	-10.9569
orfan	-10.957
distruggere	-10.9581
credent	-10.9592
adulter	-10.9595
ppur	-10.9598
calic	-10.9599
rrezion	-10.9602
portic	-10.961
riferisci	-10.9615
legna	-10.9615
quarant	-10.9621
andati	-10.9634
risu	-10.9645
mòn	-10.965
caso	-10.9655
canti	-10.9677
anti	-10.9679
endo	-10.9682
dimenticat	-10.9687
strett	-10.9702
sacri	-10.972
invi	-10.9735
cade	-10.9743
siede	-10.9746
lino	-10.9755
potra	-10.9761
disprezza	-10.9761
supplica	-10.9771
liberato	-10.9781
fiamme	-10.9791
necessari	-10.9791
successo	-10.9792
accadut	-10.9793
insegui	-10.9794
rotol	-10.9795
recò	-10.9795
tribolazion	-10.9797
punir	-10.9798
destinat	-10.98
ghi	-10.9802
altezz	-10.9812
lot	-10.9813
cesar	-10.9813
at	-10.9817
trattat	-10.982
ieri	-10.9825
teme	-10.9834
ragione	-10.984
z	-10.9904
oriental	-10.9914
capri	-10.9917
tenta	-10.9921
corse	-10.9924
torner	-10.9931
pesci	-10.9934
gliel	-10.9953
kiriat	-11.0018
minut	-11.0019
migliai	-11.0021
strument	-11.0022
indovin	-11.0027
impur	-11.0028
fama	-11.0035
inni	-11.0038
cener	-11.004
stabilir	-11.0061
vite	-11.0069
itù	-11.0076
contaminat	-11.0099
ssi	-11.01
uccisi	-11.011
sans	-11.0113
misur	-11.0118
mangere	-11.0128
potre	-11.0133
seguire	-11.0136
predica	-11.0137
annunziato	-11.0173
ricorda	-11.0174
osserver	-11.0197
accoglie	-11.0202
compagni	-11.0208
sinagog	-11.0242
trombe	-11.0245
fam	-11.0247
ottav	-11.0251
occas	-11.0251
violent	-11.0251
resister	-11.0252
abbattut	-11.0252
perdut	-11.0253
orgoglio	-11.0254
anani	-11.0259
iniqui	-11.0263
senti	-11.0267
inva	-11.027
pal	-11.0275
volet	-11.0281
gede	-11.0291
fatica	-11.0301
insegnament	-11.0303
iesse	-11.0303
purificat	-11.0303
coraggio	-11.0306
poteva	-11.0312
leon	-11.0319
lebbr	-11.0323
condizion	-11.034
arment	-11.0344
sessanta	-11.0354
toccat	-11.0364
dica	-11.0366
futur	-11.0381
lasciate	-11.0383
efa	-11.0384
abne	-11.0387
caccia	-11.0397
scamp	-11.0397
deportat	-11.0401
domanda	-11.0433
colpe	-11.0436
sorta	-11.044
superior	-11.0445
senn	-11.046
grave	-11.049
giudicher	-11.0492
corna	-11.0493
ruot	-11.0494
rifer	-11.0497
avvenne	-11.0502
lia	-11.051
quattrocento	-11.0511
omicid	-11.0511
veda	-11.0515
rumore	-11.0515
trover	-11.0515
izre	-11.0519
rosso	-11.052
scud	-11.0525
sappiate	-11.0529
finestr	-11.0536
vivi	-11.055
dovr	-11.0579
lu	-11.0583
semina	-11.059
er	-11.06
toglier	-11.06
abbandona	-11.06
diventa	-11.0614
aquil	-11.0615
animo	-11.0634
andiamo	-11.0641
flu	-11.0646
rivest	-11.0647
acazi	-11.0659
convoc	-11.0659
giaco	-11.066
prepara	-11.0668
stabilit	-11.0669
rzo	-11.0682
abbi	-11.0698
sentire	-11.072
lizia	-11.0721
filipp	-11.0733
quattordici	-11.0733
terribil	-11.0733
credut	-11.0734
ioia	-11.0735
culto	-11.0738
merari	-11.0738
annunziar	-11.0745
rester	-11.0762
suocer	-11.0764
piacer	-11.0767
zze	-11.0773
compagn	-11.0778
avvicina	-11.0779
apri	-11.0779
sacerdo	-11.079
gàl	-11.0803
fumo	-11.0811
destr	-11.0812
iadà	-11.0812
tomb	-11.0814
fo	-11.0834
gelosi	-11.0837
ciec	-11.0853
faret	-11.0853
anelli	-11.0889
sogli	-11.0901
stend	-11.0901
potevan	-11.0921
dovu	-11.0923
pare	-11.0924
reca	-11.0954
sottomess	-11.0957
vigor	-11.0972
usa	-11.0982
cistern	-11.0983
lacrim	-11.0983
trafitt	-11.0983
rovine	-11.0983
soggiunse	-11.0984
posson	-11.0984
crescer	-11.0989
progett	-11.0992
colpi	-11.0996
pezz	-11.1014
seicento	-11.1035
vaso	-11.1043
uria	-11.1053
cantor	-11.1065
tri	-11.1095
manifestat	-11.1107
lingu	-11.1118
erod	-11.1129
cur	-11.1146
finir	-11.115
fer	-11.116
ssim	-11.1172
istant	-11.1182
pregat	-11.119
baci	-11.1196
condotto	-11.1197
seb	-11.1212
sacra	-11.1216
monton	-11.1224
seguir	-11.1226
carcer	-11.123
afflitt	-11.1239
gremb	-11.1239
sce	-11.1239
cittadin	-11.1239
croce	-11.1239
ridurr	-11.124
rispetto	-11.1241
ugual	-11.1242
scacciat	-11.1243
potrebbe	-11.1244
fossi	-11.1244
fuggit	-11.1254
riferit	-11.1281
godo	-11.1297
rama	-11.1316
vedr	-11.1325
etiopi	-11.1329
possiede	-11.1337
pecca	-11.1338
distrutto	-11.1347
affidat	-11.1349
umili	-11.1353
mica	-11.1353
perdonat	-11.1354
stel	-11.1372
partorit	-11.1374
seir	-11.1379
insult	-11.1383
fru	-11.141
colpir	-11.1417
susa	-11.1417
termine	-11.1432
beati	-11.144
tocc	-11.1453
cercar	-11.1457
piace	-11.1457
percosse	-11.1458
salari	-11.1468
abit	-11.1469
beve	-11.148
rug	-11.1489
titudin	-11.1495
ari	-11.1498
crocifiss	-11.1502
gebuse	-11.1502
appunt	-11.1503
cerchi	-11.1512
continua	-11.1528
credete	-11.1534
forze	-11.1536
spiegazion	-11.1538
versat	-11.1541
vedete	-11.1541
atto	-11.1545
mangera	-11.1556
esulta	-11.1562
conduce	-11.1572
salvator	-11.1576
venticinque	-11.1577
priv	-11.1577
sedere	-11.158
becc	-11.1592
onache	-11.1596
giovench	-11.1622
tam	-11.1627
assedi	-11.1628
oz	-11.1631
divis	-11.1679
semai	-11.1681
estern	-11.1681
riconosce	-11.1684
fichi	-11.1685
attent	-11.1689
dovre	-11.1698
àn	-11.1712
adoni	-11.1718
rendo	-11.173
scende	-11.1735
rispondere	-11.1736
prega	-11.1739
alzate	-11.1739
unic	-11.174
seguiva	-11.174
votat	-11.1744
sero	-11.175
germogli	-11.175
avanza	-11.176
vittori	-11.1767
prostrar	-11.1767
sedette	-11.177
nadà	-11.1771
vendut	-11.1773
pecora	-11.1773
prescrizion	-11.1773
bevand	-11.1773
pregar	-11.1774
chelk	-11.1781
muor	-11.1784
combatte	-11.1784
eliminat	-11.1785
sandal	-11.1787
nghe	-11.1791
sè	-11.1804
prode	-11.1815
serva	-11.1815
obbedit	-11.1817
avessi	-11.1818
aria	-11.1825
agi	-11.1843
piatt	-11.1848
hadà	-11.1858
intris	-11.1858
accesso	-11.1878
onora	-11.1901
domina	-11.1907
ventre	-11.1914
pena	-11.1922
riempi	-11.1923
unì	-11.1924
testimon	-11.1925
mostrer	-11.1929
pianse	-11.1937
rivolto	-11.1938
spera	-11.1944
canter	-11.1953
dovra	-11.1961
venivan	-11.1962
chius	-11.1974
circoncis	-11.1976
piazze	-11.198
salut	-11.1992
assegnat	-11.1998
rendi	-11.2
nasconder	-11.2025
ntì	-11.2028
disposizion	-11.205
doppi	-11.205
muoia	-11.205
carissim	-11.2051
trupp	-11.2051
triste	-11.2051
cavern	-11.2051
caleb	-11.2053
rivolse	-11.2054
font	-11.206
voleva	-11.2063
saliva	-11.2064
silo	-11.2064
seguent	-11.2065
stima	-11.2073
moabit	-11.2073
lavat	-11.2077
meraviglie	-11.2078
pazien	-11.2089
eunuc	-11.209
arab	-11.2104
adempi	-11.2128
fatte	-11.2132
chesb	-11.2149
produce	-11.2168
tramont	-11.2168
sen	-11.2175
umiliat	-11.2176
inizi	-11.2188
àb	-11.2196
stoltezz	-11.2202
rupe	-11.2204
paterni	-11.2206
esce	-11.2219
vent	-11.2222
acc	-11.2229
ribell	-11.2242
liberat	-11.2246
ascolter	-11.2247
guida	-11.2257
ciech	-11.2263
focacc	-11.2289
fico	-11.229
consultar	-11.2307
giudicar	-11.2324
kades	-11.2336
miracol	-11.2336
meridion	-11.2336
dipendenz	-11.2337
estrane	-11.2338
sapendo	-11.2342
domini	-11.2344
amazi	-11.2347
malatti	-11.2358
cess	-11.2361
terre	-11.2361
can	-11.2364
consiglier	-11.2374
agire	-11.2384
pianta	-11.2388
pagli	-11.2393
chiest	-11.2404
menzogne	-11.2407
basta	-11.241
digiun	-11.2415
alzato	-11.2426
ritorner	-11.244
attes	-11.2453
insegnar	-11.2457
accost	-11.2458
cam	-11.2471
bruci	-11.2472
rese	-11.2486
ita	-11.2509
camminar	-11.2514
sài	-11.2514
riunit	-11.2517
trema	-11.2523
àba	-11.2543
osservato	-11.2558
tira	-11.2558
simili	-11.2562
esili	-11.2562
nav	-11.2565
bu	-11.2575
taglia	-11.2585
condurr	-11.2593
tr	-11.2596
dito	-11.2604
schern	-11.261
uso	-11.2617
abominevol	-11.263
fiamma	-11.263
prostituzion	-11.263
scrisse	-11.263
ricompensa	-11.263
vantaggio	-11.263
antenat	-11.2631
obed	-11.2631
basso	-11.2634
bruciar	-11.2645
core	-11.2651
rivestit	-11.2652
liet	-11.2658
pen	-11.2666
delitt	-11.268
nacque	-11.2691
quindici	-11.2697
andra	-11.2704
portando	-11.2714
rim	-11.2718
perfett	-11.2721
uccide	-11.2726
mè	-11.2739
limit	-11.2743
ferit	-11.2759
atti	-11.2787
ascolti	-11.2789
iate	-11.2791
cat	-11.2805
voler	-11.2812
difetto	-11.2821
membra	-11.2831
safà	-11.284
scudi	-11.2854
rvi	-11.2859
giur	-11.291
acquist	-11.2922
torre	-11.2929
brucia	-11.2931
sciagur	-11.2933
fragor	-11.2934
proposit	-11.2934
valor	-11.2937
mister	-11.2938
ultimo	-11.2938
coscienz	-11.2939
spars	-11.2942
popolazion	-11.2945
massa	-11.2945
dammi	-11.2951
mà	-11.2952
vedeva	-11.2952
tamar	-11.2955
amato	-11.296
vasi	-11.2963
appars	-11.2964
norme	-11.2974
abbondan	-11.2976
colpisc	-11.2976
profanato	-11.2978
ief	-11.2979
simei	-11.2986
letti	-11.2991
riferi	-11.2997
invitat	-11.2999
visse	-11.3
tta	-11.3004
torni	-11.3013
prepar	-11.3014
direzion	-11.3019
pronunziat	-11.3041
allontanato	-11.3042
avan	-11.3042
dor	-11.3042
disperder	-11.3047
lampad	-11.3064
mando	-11.3066
mettete	-11.3066
liberar	-11.3073
vedra	-11.3078
uto	-11.3103
agita	-11.3131
voti	-11.3146
porti	-11.3154
acquistat	-11.3162
grandin	-11.3165
fiss	-11.3169
abitan	-11.3173
bel	-11.3174
debole	-11.3186
ente	-11.3188
stabili	-11.3196
rossa	-11.3203
consegner	-11.3208
battent	-11.3211
pote	-11.3212
uliv	-11.3233
veglia	-11.3243
sincer	-11.3246
carni	-11.3247
adora	-11.3247
eresse	-11.3256
dòn	-11.3257
scopert	-11.3257
settiman	-11.3265
credette	-11.3271
sante	-11.3284
vanto	-11.3291
spezzer	-11.3303
sentenz	-11.3308
porzion	-11.3317
guard	-11.3318
incontr	-11.3318
tocca	-11.3322
teneva	-11.3323
bbro	-11.3342
sapr	-11.3343
lunga	-11.3348
palme	-11.3353
volo	-11.3361
nemm	-11.3404
comprendere	-11.3407
sparse	-11.3408
interroga	-11.3413
mettera	-11.3415
stà	-11.3415
anna	-11.3421
sarem	-11.3422
assegna	-11.3423
accord	-11.3426
st	-11.3427
ritir	-11.3453
cani	-11.3453
poser	-11.3457
concep	-11.3458
dolce	-11.3464
opprime	-11.349
affid	-11.3503
eri	-11.3505
assu	-11.3508
guadagn	-11.3508
demò	-11.3509
mietit	-11.351
band	-11.3521
abbandoner	-11.3523
navi	-11.3528
idume	-11.3531
esci	-11.3538
istruzion	-11.3546
mostrat	-11.3551
colle	-11.3555
saputo	-11.3559
presentar	-11.3559
giacigli	-11.3569
genito	-11.3582
ricondurr	-11.3585
sentinell	-11.3586
marci	-11.3587
fet	-11.3589
forest	-11.3596
potut	-11.3604
scudier	-11.3605
accorse	-11.3609
solleva	-11.363
chiude	-11.3633
seminato	-11.3643
costruzion	-11.3643
marcia	-11.3657
giona	-11.3661
abbandonat	-11.3664
scorre	-11.3666
spi	-11.3677
piange	-11.3678
tributo	-11.369
difett	-11.3696
stender	-11.3702
credere	-11.3706
giudicat	-11.3715
dimore	-11.3722
rispondi	-11.3728
cal	-11.3732
aperta	-11.3738
sapre	-11.374
presenti	-11.3762
accade	-11.377
ito	-11.3786
piomb	-11.3786
ramo	-11.3787
ot	-11.3789
sall	-11.38
ban	-11.3804
sem	-11.3823
bot	-11.3843
miche	-11.3845
getter	-11.3852
zi	-11.387
assù	-11.3876
trovi	-11.3892
fondo	-11.3899
risponder	-11.3901
sostegn	-11.3902
celest	-11.3902
memoria	-11.3902
proclama	-11.3903
nazare	-11.3904
ebiat	-11.3906
passate	-11.3906
▁...	-11.3907
predett	-11.3907
canna	-11.3909
us	-11.3926
uccell	-11.3929
considera	-11.3931
coperchi	-11.3935
portier	-11.3944
tò	-11.3952
total	-11.3953
lodate	-11.3959
temi	-11.3967
bàt	-11.3973
purificazion	-11.398
contar	-11.3985
impres	-11.4006
men	-11.4008
àd	-11.402
settentrional	-11.4026
schiacciat	-11.4028
volge	-11.4034
scacci	-11.4037
colli	-11.4042
eredi	-11.4056
seguendo	-11.406
caric	-11.407
mostr	-11.4087
scrivi	-11.4088
purifica	-11.4092
trent	-11.4106
perfetta	-11.4115
presta	-11.4142
scendeva	-11.4147
scendon	-11.4154
offrira	-11.4174
diventar	-11.4184
strappat	-11.4184
servito	-11.4213
dri	-11.4213
rut	-11.4213
benedir	-11.4215
frod	-11.4226
saluta	-11.4244
affann	-11.4244
possibil	-11.4246
bevut	-11.4246
afflizion	-11.4246
volontari	-11.4246
minister	-11.4246
malfattor	-11.4246
contrari	-11.4247
scaccer	-11.4247
toccher	-11.4248
carmel	-11.4248
invoc	-11.425
coppier	-11.426
conclus	-11.4261
fuga	-11.4263
pesa	-11.4273
ladro	-11.4277
congiura	-11.4286
scoprir	-11.4289
elam	-11.4291
tolse	-11.4291
sposat	-11.4294
sazia	-11.4298
baas	-11.43
ricevere	-11.43
divin	-11.4311
serve	-11.4328
disprezz	-11.4332
piazz	-11.4349
infami	-11.4372
riferir	-11.4376
coprir	-11.4378
minaccia	-11.4381
disegn	-11.4401
interess	-11.4402
abbatte	-11.4405
pelo	-11.442
sappi	-11.4422
nobil	-11.4427
immondi	-11.4428
tremila	-11.4434
rifiut	-11.4435
ze	-11.4457
fel	-11.4461
larg	-11.4464
parente	-11.4466
anat	-11.4469
dava	-11.4471
isole	-11.4478
bes	-11.448
ritornat	-11.4513
persia	-11.4519
volgi	-11.4523
radic	-11.4527
cci	-11.4544
oppresso	-11.4551
sdra	-11.4552
prosper	-11.4556
bagn	-11.4558
centocinquanta	-11.456
anim	-11.4562
raccont	-11.4568
reb	-11.4572
lievit	-11.4574
capaci	-11.4577
esiste	-11.4584
gherson	-11.4588
osservar	-11.4603
scruta	-11.4604
brecc	-11.4604
grupp	-11.4604
santissim	-11.4604
acaci	-11.4604
capitell	-11.4605
apparteneva	-11.4605
fecond	-11.4606
vicend	-11.4608
cantate	-11.4611
ser	-11.4612
confus	-11.4624
achia	-11.4629
raccoglie	-11.4632
mater	-11.4633
pari	-11.4635
porgi	-11.4646
por	-11.465
ùm	-11.4651
scuote	-11.4662
mission	-11.4667
cercher	-11.467
dad	-11.4682
osservate	-11.4686
sollev	-11.4691
zelo	-11.4692
conced	-11.4694
condotti	-11.4695
muto	-11.4695
battezzat	-11.4696
fondat	-11.4698
tenuto	-11.4704
tagli	-11.4706
operato	-11.4713
innalz	-11.4744
spezz	-11.4747
gira	-11.4748
spetto	-11.4768
giustificat	-11.4787
entri	-11.4797
radici	-11.4798
dispost	-11.4801
paret	-11.4801
fus	-11.4813
rivolt	-11.4815
bianc	-11.4817
vicina	-11.4817
fila	-11.4818
dita	-11.4818
ove	-11.4834
vole	-11.4848
vedov	-11.4853
spazio	-11.4857
riguarda	-11.4861
abbatter	-11.4872
avanz	-11.4887
bada	-11.4889
santificat	-11.4892
mer	-11.4904
ritornar	-11.4919
fuggire	-11.4938
teste	-11.4945
lontani	-11.4966
conged	-11.4971
mucchi	-11.4974
tempesta	-11.4974
rapport	-11.4974
ncipi	-11.4974
raccolse	-11.4974
glorios	-11.4975
zeru	-11.4976
prenda	-11.4976
raggiunse	-11.4976
richiest	-11.4977
messaggi	-11.4982
lavorava	-11.4983
dati	-11.4984
abbandon	-11.4995
celebrar	-11.5011
ricade	-11.5015
mangiava	-11.5018
sembra	-11.5019
ozia	-11.5036
detest	-11.5038
avvolto	-11.5041
giurar	-11.5058
battezza	-11.5063
maest	-11.5066
cen	-11.5074
querc	-11.5075
for	-11.5075
afferr	-11.508
greci	-11.5081
serviva	-11.5088
zo	-11.51
abba	-11.5104
innalza	-11.5113
ventiquattro	-11.5137
cessat	-11.5146
salvat	-11.5151
cella	-11.5166
tieni	-11.5173
vedre	-11.5176
grad	-11.5177
riferire	-11.5181
rendere	-11.5185
improvvis	-11.5187
parli	-11.519
spetta	-11.519
proclam	-11.5192
prendo	-11.5198
rocc	-11.5199
averl	-11.5212
kis	-11.5215
stupit	-11.5223
divise	-11.5224
rebbe	-11.5227
profan	-11.5229
sterminar	-11.523
tener	-11.5236
eve	-11.5241
toglie	-11.5243
nia	-11.5249
cinquemila	-11.5259
corni	-11.5268
pone	-11.5281
abia	-11.5282
innalzat	-11.5294
cerc	-11.5299
stai	-11.5305
vuot	-11.531
zib	-11.5339
pens	-11.535
prime	-11.5356
mostri	-11.5357
femmin	-11.5359
magistrat	-11.5359
asciutt	-11.5359
maaca	-11.5359
veggent	-11.5359
vestibol	-11.5359
complet	-11.5359
compiace	-11.5361
dovrebbe	-11.5362
benedica	-11.5363
esplorar	-11.5363
leva	-11.5367
manass	-11.5368
cà	-11.5369
fan	-11.5371
prendendo	-11.5373
perdoner	-11.5373
divina	-11.5374
salutate	-11.5377
merib	-11.538
fost	-11.538
incint	-11.5389
immondezza	-11.539
pegn	-11.5394
gridava	-11.5396
lecit	-11.5423
nun	-11.5433
mostra	-11.5435
benedici	-11.5438
temo	-11.5438
zion	-11.5443
corda	-11.5458
addett	-11.5468
risulta	-11.5469
sar	-11.5471
god	-11.5477
scavat	-11.5482
membr	-11.5491
ru	-11.5491
abbandonar	-11.5508
pensava	-11.5518
pongo	-11.5521
credo	-11.5521
sur	-11.5542
vall	-11.5552
servitor	-11.5552
saziat	-11.5552
turbat	-11.5557
verde	-11.5557
belle	-11.556
sal	-11.5568
tanti	-11.5569
rigettat	-11.557
milacinquecento	-11.5578
uscita	-11.5591
amant	-11.5594
ter	-11.5598
etro	-11.5598
distes	-11.5602
germoglia	-11.561
ricopr	-11.5615
volt	-11.5616
colpire	-11.5631
devastat	-11.5639
uel	-11.5639
gettar	-11.5663
riuscir	-11.5667
apert	-11.5681
cinquecento	-11.5688
lavar	-11.5697
ammi	-11.5703
avvenut	-11.5705
piangere	-11.5715
peggio	-11.5719
isce	-11.5721
suon	-11.5725
util	-11.5727
elif	-11.5733
ricchi	-11.5735
intera	-11.5736
legnam	-11.5737
armat	-11.5744
falsi	-11.5746
archi	-11.5756
pettor	-11.5758
cresciut	-11.5758
zorobab	-11.5759
affamat	-11.5759
diffus	-11.5759
profezi	-11.5759
ornament	-11.5759
relativ	-11.5759
diciotto	-11.5759
scompars	-11.5759
lemb	-11.5759
mu	-11.576
baruc	-11.576
cuocer	-11.576
tessut	-11.5761
scoppi	-11.5761
virt	-11.5761
orror	-11.5764
impose	-11.5764
centurion	-11.5766
pregava	-11.5767
vorre	-11.5769
lebbros	-11.5778
considerat	-11.578
pascolar	-11.5782
generos	-11.5783
camminava	-11.5785
seduti	-11.579
fiore	-11.5793
almen	-11.5797
muove	-11.5798
attaccat	-11.5798
sà	-11.5808
prostra	-11.5812
costituir	-11.5815
passando	-11.5824
giova	-11.5832
percoss	-11.5833
sever	-11.5833
stende	-11.5843
affar	-11.585
posta	-11.5851
glorificat	-11.5858
paga	-11.5864
attacca	-11.5884
attenta	-11.5884
cedr	-11.5885
cessar	-11.5888
rivelato	-11.5888
lastri	-11.5888
precede	-11.5895
ribellion	-11.5902
gaz	-11.5908
fissato	-11.5909
divenut	-11.5923
mik	-11.5926
replic	-11.5926
dè	-11.5929
tito	-11.5938
concubina	-11.5953
divers	-11.5955
accetta	-11.596
volger	-11.596
depose	-11.6012
mon	-11.6014
colomb	-11.6014
art	-11.602
pronunzi	-11.6031
hin	-11.6032
timò	-11.6034
tarsi	-11.6039
consuma	-11.6042
consacra	-11.6044
corde	-11.6051
ppa	-11.6057
guar	-11.6061
costruir	-11.6082
rientr	-11.6086
minor	-11.6096
moltiplica	-11.6105
quattromila	-11.6106
inseguire	-11.6109
merai	-11.6115
mòt	-11.6126
ignora	-11.6127
espert	-11.6138
fiori	-11.6144
mine	-11.6145
rmi	-11.6145
figura	-11.6175
affett	-11.6175
centinai	-11.6175
rimanga	-11.6175
sofferenz	-11.6175
spiritual	-11.6175
error	-11.6176
impossibil	-11.6176
gemit	-11.6177
prescritt	-11.6178
battesim	-11.618
parto	-11.618
misfatt	-11.6187
caprett	-11.6192
bia	-11.6198
tunic	-11.6201
alzar	-11.6204
conceder	-11.6205
consolazion	-11.6205
bisogna	-11.6209
nutri	-11.621
steril	-11.621
capac	-11.6216
crea	-11.6218
mess	-11.622
riscattar	-11.6229
riparo	-11.6241
infermi	-11.6245
mangiate	-11.6258
cordon	-11.6259
averi	-11.6263
lotta	-11.6272
ara	-11.6306
tien	-11.6311
giudica	-11.6312
aiuta	-11.6312
segue	-11.6312
ffa	-11.6314
esclam	-11.6317
lettere	-11.6319
perversa	-11.6323
preziosi	-11.633
zia	-11.6332
abitat	-11.636
vor	-11.6362
parent	-11.6362
morira	-11.6367
fanciulli	-11.6374
batt	-11.6378
dimentica	-11.638
sazi	-11.6381
vale	-11.6383
immolat	-11.6396
aur	-11.6397
dici	-11.64
calpestat	-11.6404
sentir	-11.6411
posti	-11.6414
cre	-11.6439
presenta	-11.644
conta	-11.6442
piant	-11.6445
peccar	-11.648
profumi	-11.6481
comp	-11.6487
mri	-11.6491
servirl	-11.6503
capr	-11.6513
divorato	-11.6527
dando	-11.6533
scono	-11.6549
investit	-11.655
morra	-11.6556
bor	-11.6557
ttene	-11.656
centoventi	-11.6561
forn	-11.6562
eseguire	-11.6578
ngo	-11.6583
spezza	-11.6585
esempi	-11.6587
moltiplicat	-11.6608
inebriant	-11.661
irreprensibil	-11.661
perizzit	-11.661
scettr	-11.661
moltiplicher	-11.661
sinedri	-11.661
eleàzar	-11.661
lucern	-11.661
macedon	-11.661
vassoi	-11.661
amalecit	-11.6611
assur	-11.6612
fornac	-11.6613
abel	-11.6613
scelse	-11.6616
offriva	-11.6618
turbin	-11.6618
sedeva	-11.6619
achitò	-11.6621
otam	-11.6623
guardando	-11.6624
sinagogh	-11.6626
bestemmia	-11.6626
ciro	-11.6627
enzio	-11.6629
purificar	-11.6631
super	-11.6631
pervers	-11.6632
vendicato	-11.6635
domandat	-11.6636
ekr	-11.6637
parlando	-11.6641
par	-11.6642
invocher	-11.6652
correzion	-11.6654
convertir	-11.6654
scampat	-11.6655
inferior	-11.6657
asso	-11.6667
siedi	-11.667
ginocchia	-11.667
ambe	-11.667
alba	-11.6673
caza	-11.6676
rimani	-11.6679
ricerca	-11.6711
foll	-11.6712
scendi	-11.6714
zzo	-11.6715
colm	-11.6717
dore	-11.6718
tenne	-11.6724
arom	-11.6737
gua	-11.6742
sare	-11.6752
vergini	-11.6755
riferira	-11.6762
secca	-11.6767
gall	-11.6782
guarir	-11.6786
saba	-11.6787
riservat	-11.6796
inciamp	-11.6801
cresce	-11.6805
divor	-11.6807
guardat	-11.681
question	-11.6811
amate	-11.6811
aia	-11.6813
inganni	-11.6829
insiste	-11.6832
statut	-11.6834
giubile	-11.6841
sterminer	-11.686
batte	-11.6862
sene	-11.6867
riposa	-11.6877
ered	-11.6878
stracci	-11.6887
invocat	-11.6893
ucciderl	-11.6894
deposit	-11.6895
imposto	-11.6899
umil	-11.69
afferra	-11.6912
credi	-11.6925
vac	-11.6938
chiamera	-11.6938
rabb	-11.6942
rimprovera	-11.6942
llo	-11.6947
dovut	-11.6954
compie	-11.6958
duemila	-11.6968
abd	-11.6969
centotrenta	-11.6974
morta	-11.6983
scaccia	-11.6986
camer	-11.6987
deport	-11.6988
vari	-11.6999
gra	-11.7007
piacque	-11.7012
rza	-11.7027
ir	-11.7031
deboli	-11.704
frantum	-11.7044
arim	-11.7045
pubblic	-11.7048
oppressi	-11.7051
lance	-11.706
sacrificar	-11.7065
splendid	-11.7065
risposi	-11.7065
efes	-11.7065
timna	-11.7065
cavallett	-11.7065
stipit	-11.7065
melagran	-11.7065
cortin	-11.7065
elka	-11.7066
tralci	-11.7066
demoni	-11.7066
eufrat	-11.7066
capann	-11.7066
cittadell	-11.7068
omer	-11.707
sicch	-11.7072
continuava	-11.7074
giungeva	-11.7076
pubblican	-11.7081
pigr	-11.7083
racconta	-11.7084
giovinett	-11.7087
fall	-11.7089
distru	-11.709
distrusse	-11.7093
set	-11.7096
madianit	-11.7097
debb	-11.7097
pesc	-11.7102
tribunal	-11.7105
ricordar	-11.7109
proclamar	-11.7118
sacch	-11.7119
sento	-11.7119
amarezz	-11.7131
concede	-11.7136
metto	-11.7138
palma	-11.7143
dimenticar	-11.7151
pat	-11.7152
beniaminit	-11.7157
tando	-11.7158
dichiar	-11.7165
scriver	-11.7168
venisse	-11.7168
sparge	-11.7168
ritort	-11.7169
sco	-11.7169
nuor	-11.7171
copre	-11.7182
uscite	-11.7182
acquista	-11.719
mensa	-11.7196
radunate	-11.7205
vecchia	-11.721
unghi	-11.7213
entrava	-11.7213
priva	-11.7213
comprende	-11.7215
eliminer	-11.7225
insulta	-11.7228
cas	-11.7234
ribellat	-11.7237
ana	-11.7242
classi	-11.7244
onde	-11.7257
sdegnat	-11.726
vò	-11.7266
sterminato	-11.7268
barba	-11.7274
consolat	-11.7276
chiuse	-11.7294
regali	-11.7297
abdi	-11.7306
piantato	-11.7308
immol	-11.7311
rendete	-11.7318
zerach	-11.7326
lampada	-11.7337
gola	-11.7341
giusta	-11.7352
antic	-11.7354
spall	-11.7355
possied	-11.7363
diventi	-11.7364
sorgere	-11.7364
sente	-11.7365
lodar	-11.7367
strappa	-11.7368
rup	-11.7379
razza	-11.738
cert	-11.7383
chieder	-11.7392
magnific	-11.7403
torto	-11.7404
torment	-11.7413
invoca	-11.743
mettit	-11.743
sga	-11.7442
portata	-11.7452
drago	-11.7454
cuo	-11.7471
condannat	-11.7473
piene	-11.7475
intelligent	-11.7479
sapient	-11.7486
tare	-11.7497
dovevan	-11.75
ezabe	-11.7508
vera	-11.7509
incaric	-11.7521
distribu	-11.7525
provoca	-11.7534
renda	-11.7538
sacre	-11.7539
bugiard	-11.7541
bevve	-11.7541
funzionari	-11.7541
argill	-11.7541
cepp	-11.7541
mattan	-11.7542
accolt	-11.7542
maggiordom	-11.7542
canestr	-11.7543
intona	-11.7545
designat	-11.7545
brama	-11.7549
scongiur	-11.755
gelos	-11.755
sopportar	-11.7552
pagher	-11.7553
imparat	-11.7553
accusa	-11.7553
firma	-11.7556
fuggiasc	-11.7559
piove	-11.756
rimaneva	-11.7563
formato	-11.7563
don	-11.7565
tranquilli	-11.7566
decision	-11.7566
sconvolt	-11.7572
geme	-11.7575
incaricat	-11.7581
prestit	-11.7584
comandant	-11.7585
sso	-11.7594
presentato	-11.7595
elli	-11.7595
fogli	-11.7596
interrog	-11.7599
trasportar	-11.7604
padroni	-11.762
punit	-11.7623
demolit	-11.7623
accorto	-11.7628
pericolo	-11.7631
mat	-11.7633
terminato	-11.7648
accostar	-11.765
termin	-11.7651
riempit	-11.7652
let	-11.7655
separ	-11.7658
coron	-11.7659
facciamo	-11.7661
tore	-11.7664
accosta	-11.7683
disonorat	-11.7693
stringe	-11.7703
avveni	-11.7715
piante	-11.7719
appari	-11.7727
pelli	-11.773
rimaner	-11.7738
bis	-11.7751
àch	-11.7758
dichiarat	-11.7769
resa	-11.777
andre	-11.7776
rettil	-11.7798
regna	-11.78
batti	-11.7813
rimand	-11.7817
eber	-11.7842
cambia	-11.7843
disperse	-11.7845
infelic	-11.7848
avvi	-11.7849
colloc	-11.7851
chiedi	-11.7857
invit	-11.7858
bui	-11.7861
fanciulle	-11.7865
riversa	-11.7865
chiedere	-11.7869
purificher	-11.787
appartengo	-11.787
odiat	-11.7879
abbatt	-11.7882
circonda	-11.7895
ricad	-11.7897
sazie	-11.7904
man	-11.7915
insultat	-11.7918
ruba	-11.7918
mot	-11.7922
vanta	-11.7925
seppellir	-11.7929
aduna	-11.7932
apre	-11.7932
rì	-11.794
conservat	-11.795
fir	-11.795
cors	-11.7973
sfog	-11.7976
nà	-11.798
ripudiat	-11.7996
bara	-11.7999
conserva	-11.8001
amale	-11.8013
incendi	-11.8017
oppressor	-11.8026
uri	-11.8028
afferma	-11.8033
gettat	-11.8036
uzzi	-11.8037
celebrer	-11.804
raccogliere	-11.804
nazire	-11.8041
individu	-11.8041
spande	-11.8041
breve	-11.8041
ottenuto	-11.8041
amava	-11.8041
striscia	-11.8041
impunit	-11.8041
rivelazion	-11.8042
rendendo	-11.8042
machir	-11.8042
arpe	-11.8043
fertil	-11.8044
beff	-11.8045
volse	-11.8046
comanda	-11.8046
perez	-11.8047
distinguer	-11.805
muoveva	-11.8052
metta	-11.8056
temeva	-11.8058
rivolger	-11.8067
zol	-11.8074
tumult	-11.8077
tetto	-11.8078
pesant	-11.8088
diadem	-11.809
spero	-11.8092
achik	-11.8095
riconobbe	-11.8098
eden	-11.8099
sparir	-11.8106
nive	-11.8108
fabbrica	-11.8108
vende	-11.8116
mandar	-11.8125
indicher	-11.8125
scomparir	-11.8126
sterminat	-11.8131
ascoltava	-11.8133
divide	-11.8133
mmensa	-11.8136
pos	-11.8155
tenebra	-11.8164
cain	-11.8169
affilat	-11.8172
radunati	-11.8173
dintorn	-11.818
rader	-11.8183
enoch	-11.8192
devastato	-11.8193
esulti	-11.8216
colline	-11.8221
riscattato	-11.8228
amara	-11.8237
levato	-11.8244
cominciat	-11.8246
sfuggir	-11.8246
caro	-11.8248
rifiutat	-11.825
condurre	-11.8251
tagliat	-11.8255
tredic	-11.8258
liab	-11.8271
guardar	-11.8288
intende	-11.8296
macell	-11.83
rubat	-11.8301
giubil	-11.8305
accampat	-11.8317
servite	-11.832
nari	-11.833
disces	-11.8336
tacer	-11.8342
urla	-11.8355
verg	-11.8377
sedici	-11.838
superb	-11.838
class	-11.8383
veleno	-11.8396
misure	-11.8398
edifici	-11.8398
diffonde	-11.8403
togli	-11.8404
aprir	-11.8404
dir	-11.8406
mortal	-11.8415
circondat	-11.842
cava	-11.8439
prostrer	-11.8454
commett	-11.8465
tagliato	-11.8467
costitu	-11.8486
giudicate	-11.8487
comparire	-11.8498
trasport	-11.8503
cambiat	-11.8509
calma	-11.8517
ricostruir	-11.8525
serai	-11.8534
scar	-11.8539
agar	-11.8541
dichiara	-11.8555
comprese	-11.8558
feste	-11.856
(	-11.8567
libna	-11.8567
succot	-11.8567
solenni	-11.8567
prelever	-11.8567
suppliche	-11.8567
produrr	-11.8568
notabil	-11.8568
torri	-11.8569
traverse	-11.857
trascors	-11.857
impedit	-11.857
aromatic	-11.8571
falc	-11.8571
ossia	-11.8572
mercant	-11.8576
comandava	-11.8578
sovran	-11.8578
uzza	-11.8579
partori	-11.8583
acquistar	-11.8585
accompagna	-11.8585
arpa	-11.8586
scolpit	-11.8586
difficil	-11.8594
esaltat	-11.8601
nasce	-11.8601
osservi	-11.8605
allontaner	-11.8608
pensate	-11.8614
alzava	-11.8614
conosca	-11.8621
appare	-11.8624
compra	-11.8627
misericordios	-11.8634
sentiment	-11.8639
gen	-11.864
insegu	-11.8656
cint	-11.866
potesse	-11.8661
comprar	-11.8661
eman	-11.8665
attraversar	-11.8665
uèl	-11.8678
dimorava	-11.8678
tro	-11.869
rimprover	-11.8695
achim	-11.87
ricostru	-11.8706
demolir	-11.8711
sopport	-11.8713
amò	-11.8718
confid	-11.8724
deportato	-11.8735
etto	-11.8738
deporta	-11.8743
lega	-11.8744
respir	-11.8748
calpesta	-11.8763
esort	-11.8766
sud	-11.8767
colomba	-11.8777
occup	-11.8786
tizia	-11.8791
rci	-11.8795
cercat	-11.8799
perversi	-11.8802
mali	-11.8804
annunzier	-11.8806
corso	-11.8812
done	-11.8817
lasciam	-11.8823
refai	-11.8826
bani	-11.8826
riferite	-11.8827
adrà	-11.883
aim	-11.883
prove	-11.8836
riprender	-11.8837
regale	-11.8847
passion	-11.8858
frat	-11.887
farn	-11.8876
ccio	-11.8885
nac	-11.8889
muover	-11.8898
ochia	-11.8902
stiamo	-11.8912
intimo	-11.8916
ordi	-11.8933
esclama	-11.8935
reni	-11.894
ella	-11.894
arrivar	-11.8943
martell	-11.8943
impost	-11.8946
malign	-11.8948
disonora	-11.895
bat	-11.8951
aghe	-11.8959
invia	-11.8964
rallegrat	-11.8967
armate	-11.8968
compres	-11.8978
zeba	-11.8996
procede	-11.8996
cala	-11.9004
pasto	-11.9007
possede	-11.9026
dendo	-11.9042
liberer	-11.9043
scor	-11.9043
trovera	-11.905
indigen	-11.9055
intender	-11.9059
cessa	-11.9061
iere	-11.9061
mettendo	-11.9067
lev	-11.9076
rre	-11.9091
lud	-11.9094
celebra	-11.9096
cresc	-11.9096
prigioni	-11.9103
certa	-11.9105
cap	-11.9107
pentol	-11.9117
manifesta	-11.912
scina	-11.9121
circoncider	-11.9123
gazzell	-11.9123
ioiachì	-11.9123
offes	-11.9123
battut	-11.9123
proverbi	-11.9123
scandalo	-11.9123
terremot	-11.9123
raggiunt	-11.9123
scomparve	-11.9123
trasgredit	-11.9124
infrant	-11.9124
cran	-11.9124
adempisse	-11.9125
adirat	-11.9125
covon	-11.9126
vignaiol	-11.9126
amasà	-11.9127
appartenent	-11.9128
fallac	-11.9129
ripet	-11.9131
canàn	-11.9134
dormire	-11.9134
riconosciut	-11.9136
turbant	-11.9136
fortificat	-11.9138
necess	-11.9138
pensato	-11.9141
diresse	-11.9146
ottanta	-11.9153
abbondante	-11.9157
sfinit	-11.9158
terr	-11.9159
manifester	-11.9159
egl	-11.916
prendeva	-11.9165
spoglie	-11.9173
toccar	-11.9174
facesse	-11.9179
peggior	-11.9179
bevi	-11.918
keil	-11.919
turba	-11.9191
trasse	-11.9205
veduto	-11.9206
preparar	-11.9214
allontani	-11.9218
occupar	-11.922
oppression	-11.9222
raccoglier	-11.9223
felici	-11.9228
sede	-11.9229
premur	-11.9231
tass	-11.9235
accad	-11.9243
spa	-11.925
solit	-11.9252
scrivo	-11.9253
venera	-11.9253
cotta	-11.9257
ìb	-11.9258
attesta	-11.9277
convers	-11.9278
soggiorna	-11.9282
espost	-11.9297
propost	-11.9299
stri	-11.93
carica	-11.9302
gioisca	-11.9305
spiega	-11.9306
raggiunge	-11.9312
lavorar	-11.9324
scol	-11.9325
mezz	-11.9358
mezza	-11.9383
attira	-11.9387
riconoscere	-11.9388
condur	-11.9395
rra	-11.9411
restar	-11.9416
nor	-11.9418
correre	-11.9432
domandar	-11.9432
alte	-11.9434
ventimila	-11.9438
genere	-11.9446
badat	-11.945
consult	-11.945
perseguita	-11.9454
confort	-11.9458
spaventat	-11.9459
mostrar	-11.9462
consumer	-11.9467
spiegat	-11.9468
stanc	-11.9494
chiede	-11.95
pensi	-11.95
consegnar	-11.9502
vuote	-11.9505
etiop	-11.9505
spir	-11.9506
offre	-11.9513
verac	-11.9521
copri	-11.9524
lavora	-11.9525
dargli	-11.9531
accett	-11.9532
sazier	-11.9542
lesse	-11.9546
piombar	-11.9552
selva	-11.9555
perseguitat	-11.9557
riscattat	-11.9561
pienezz	-11.9567
ricorder	-11.9568
mul	-11.9594
apparir	-11.9602
profonda	-11.9604
invidia	-11.9611
cinto	-11.9613
desiste	-11.9619
scur	-11.9628
tato	-11.9632
trovere	-11.9639
sorti	-11.9644
segua	-11.9646
domande	-11.9646
sciac	-11.9647
divent	-11.9652
rom	-11.9652
attaccar	-11.9653
eseguir	-11.9665
pruden	-11.9671
mas	-11.9675
nsegnato	-11.9676
esca	-11.9685
recar	-11.9688
dignit	-11.9691
patria	-11.9691
conosceva	-11.9695
festo	-11.9697
feg	-11.9698
malchi	-11.9699
squill	-11.9704
folgor	-11.9708
sosten	-11.9709
document	-11.9711
cembal	-11.9711
ignomini	-11.9711
introdusse	-11.9711
sorveglianz	-11.9711
grappol	-11.9711
noviluni	-11.9711
sbarre	-11.9711
rimango	-11.9711
locust	-11.9711
balsam	-11.9712
nefandezz	-11.9712
beffard	-11.9713
possedeva	-11.9715
ungera	-11.9717
guide	-11.9717
disporr	-11.9717
convint	-11.9718
tar	-11.9718
fatiche	-11.9719
plasmat	-11.9719
adorna	-11.9719
merita	-11.972
rmon	-11.9721
rapit	-11.9721
insegnava	-11.9722
vittorios	-11.9724
delizie	-11.9724
bacin	-11.9727
corpi	-11.9727
rispondeva	-11.9728
strapp	-11.973
redento	-11.9731
metall	-11.9732
confidi	-11.9732
respint	-11.9733
avvertit	-11.9735
dicesse	-11.9737
deriva	-11.9737
vai	-11.9737
cato	-11.9738
inciampa	-11.974
accende	-11.9741
tapp	-11.9748
creatur	-11.9749
cammini	-11.9751
soggett	-11.9755
acclamazion	-11.9756
edifica	-11.9763
dàn	-11.9775
rubenit	-11.978
cald	-11.9782
calunnia	-11.9783
piantat	-11.9786
norma	-11.9787
camminat	-11.9787
milizi	-11.9794
predicat	-11.9803
magi	-11.9807
stup	-11.9807
metterl	-11.9809
content	-11.9809
accamp	-11.9811
subir	-11.9814
zimr	-11.9817
contien	-11.9833
consegna	-11.984
cu	-11.985
lav	-11.9852
procurar	-11.9856
ostinat	-11.9866
cazi	-11.9867
salvi	-11.9868
stimat	-11.9869
impadronir	-11.9873
partorire	-11.9875
larga	-11.9878
tratter	-11.9879
mmi	-11.9881
vorr	-11.9884
profumat	-11.989
sorpres	-11.9901
allontanat	-11.9901
rot	-11.9902
nai	-11.9902
abin	-11.991
fissa	-11.9915
nsegnando	-11.9917
compia	-11.992
scop	-11.992
aumenta	-11.993
offrite	-11.9934
desidera	-11.9941
comporta	-11.9944
bianca	-11.9953
bir	-11.9956
avrest	-11.9956
cantar	-11.9967
unir	-11.9968
esulter	-11.9974
cesser	-11.9975
media	-11.9986
sens	-11.9989
persevera	-11.9993
abili	-12.0034
fissat	-12.0035
scioglie	-12.0037
tremer	-12.0041
scrivere	-12.005
ipocrit	-12.006
benedi	-12.0067
lavorato	-12.0071
canan	-12.0074
pazz	-12.0081
tagliar	-12.0081
vela	-12.009
amari	-12.009
avanzat	-12.0092
gine	-12.0095
izia	-12.0104
tenendo	-12.0111
soffia	-12.0123
fron	-12.0136
consacrer	-12.0141
santifica	-12.0147
rivel	-12.0153
ginocchi	-12.0153
rimess	-12.0159
erub	-12.0165
estate	-12.0166
amare	-12.0172
finita	-12.0177
rit	-12.0189
ghera	-12.0191
muta	-12.0193
seggi	-12.0194
guarire	-12.0194
metton	-12.0198
coprire	-12.0199
preleva	-12.02
poni	-12.0217
vest	-12.0219
contat	-12.0224
manifest	-12.0226
importa	-12.0226
sapra	-12.0228
preparate	-12.0229
iel	-12.0237
rialza	-12.0243
rallegr	-12.0249
ascoltere	-12.0255
pendent	-12.0258
zzaro	-12.0258
scorrer	-12.0259
informar	-12.0272
convoca	-12.0275
obla	-12.028
alon	-12.0287
piang	-12.0288
arrogan	-12.029
accia	-12.0292
giro	-12.0296
dichiarer	-12.0299
andando	-12.0315
attend	-12.0316
ancelle	-12.0319
coste	-12.0319
ebbi	-12.0325
destin	-12.0326
carbon	-12.0329
angosc	-12.0329
somiglia	-12.0331
giunga	-12.0332
erbe	-12.0335
eccels	-12.0336
mediterrane	-12.0336
provvist	-12.0336
leoncell	-12.0336
nascit	-12.0336
venendo	-12.0336
bulb	-12.0336
istruit	-12.0336
apparterr	-12.0336
allargat	-12.0336
disonest	-12.0336
luvio	-12.0336
vegliard	-12.0337
storpi	-12.0337
muoio	-12.0337
effett	-12.0337
inaridit	-12.0338
somma	-12.0339
soddisfar	-12.034
disgrazia	-12.034
bracier	-12.034
amministrator	-12.0342
creta	-12.0342
detta	-12.0344
predilett	-12.0351
settemila	-12.0352
ritual	-12.0354
affatt	-12.0357
ann	-12.0358
ricevette	-12.0362
compens	-12.0364
undic	-12.0375
tornava	-12.0378
cosci	-12.038
sfugg	-12.0384
stette	-12.0384
circon	-12.0387
ampi	-12.0387
rimanete	-12.0395
candid	-12.0401
uncin	-12.0403
suscita	-12.0403
benedire	-12.0416
indurit	-12.0428
ricordatev	-12.0431
leggere	-12.0437
cada	-12.0438
valid	-12.0443
superiori	-12.0455
distrugge	-12.0457
traviat	-12.0462
soffrire	-12.0474
zoppi	-12.0482
provocar	-12.0483
fargli	-12.0486
nasconde	-12.0486
cervi	-12.0489
scaten	-12.0499
erra	-12.0502
kà	-12.0503
coglier	-12.0507
coric	-12.0507
bramo	-12.0507
riposar	-12.0513
preghi	-12.0513
osserv	-12.0527
tuni	-12.0528
degna	-12.0531
kor	-12.0538
canale	-12.0543
ingiust	-12.0545
prelevat	-12.0553
aman	-12.0572
mag	-12.0583
pensav	-12.0586
freme	-12.0586
cass	-12.059
fonder	-12.0595
saccheggiat	-12.06
strapper	-12.0603
sioni	-12.0616
ardo	-12.0626
patern	-12.0631
dona	-12.0633
capita	-12.0634
sam	-12.0636
iscono	-12.0639
camminera	-12.0648
stia	-12.066
fim	-12.0677
zab	-12.0678
concubin	-12.0683
genealogi	-12.0684
collocat	-12.0691
giungere	-12.0695
separat	-12.07
preoccupa	-12.0702
immoler	-12.0707
guid	-12.071
crebbe	-12.0715
spar	-12.072
riserva	-12.0727
ottene	-12.0745
trui	-12.0747
attende	-12.0764
beri	-12.0765
gon	-12.0766
inform	-12.0783
incas	-12.0787
attacc	-12.0792
usar	-12.0794
scuot	-12.08
rivelat	-12.081
ventidue	-12.082
pas	-12.0822
divamp	-12.0832
confidat	-12.0833
seguite	-12.0834
agitar	-12.0836
torio	-12.0848
costruisc	-12.0854
unto	-12.0854
ventitr	-12.0857
lunghi	-12.0863
nego	-12.0872
arabi	-12.0882
novanta	-12.0898
fortific	-12.0899
ostant	-12.09
piangete	-12.0906
conduci	-12.0907
andat	-12.0909
conquista	-12.0912
guardava	-12.0928
ioiad	-12.0937
penetra	-12.0941
uniti	-12.0943
consegnat	-12.0946
tras	-12.095
risparmi	-12.0951
atali	-12.0952
pol	-12.0961
percuote	-12.0965
ascen	-12.0973
uffici	-12.0978
zif	-12.0983
accender	-12.0985
iair	-12.0985
uce	-12.099
ripete	-12.0994
artigian	-12.1003
ebraic	-12.1003
inavvertenz	-12.1003
lettucci	-12.1003
picchett	-12.1003
quotidian	-12.1003
bagagli	-12.1003
nabuzar	-12.1003
soccors	-12.1003
solenne	-12.1003
introdott	-12.1003
insensat	-12.1003
elemosin	-12.1003
timpan	-12.1003
istruir	-12.1003
ringraziament	-12.1003
uragan	-12.1003
pregher	-12.1004
cazor	-12.1005
comprendo	-12.1005
giaceva	-12.1006
divoran	-12.1006
corrott	-12.1007
cresceva	-12.1009
quarantacinque	-12.1009
esortazion	-12.1009
molì	-12.1013
cùr	-12.1014
insidie	-12.1015
sub	-12.1016
avvenga	-12.1017
riusciva	-12.1017
iozab	-12.1018
caldai	-12.102
amram	-12.1021
spinge	-12.1024
scenda	-12.1025
vasai	-12.1028
nta	-12.1028
tratti	-12.1029
violato	-12.1029
lamenta	-12.1029
ricostruit	-12.1031
tradizion	-12.1034
star	-12.1038
nipot	-12.1039
seduta	-12.104
onorat	-12.104
goder	-12.1043
prudent	-12.1048
perfidi	-12.105
rette	-12.1051
osservera	-12.1051
governan	-12.1056
gettava	-12.1057
consum	-12.1058
informato	-12.1062
combatt	-12.1063
bord	-12.1063
lievitat	-12.1063
spegne	-12.1066
inutil	-12.1069
magh	-12.1075
risorger	-12.1084
pela	-12.1087
rane	-12.1088
rapina	-12.1093
stella	-12.1098
degni	-12.1104
ribella	-12.1105
bàr	-12.1123
custodit	-12.1127
centottanta	-12.1135
profane	-12.1139
copriva	-12.1148
òr	-12.1151
scherni	-12.1155
cusà	-12.1155
predic	-12.1157
gradin	-12.1164
mariti	-12.1164
uova	-12.1165
porre	-12.1169
enna	-12.117
nascondi	-12.1171
divorat	-12.1172
ponga	-12.1176
chiamate	-12.1176
creat	-12.1179
rompe	-12.1181
porra	-12.1183
discutere	-12.1202
rimandar	-12.1206
tera	-12.121
sadd	-12.1213
usanz	-12.1221
luci	-12.1233
spint	-12.1237
medita	-12.1237
esalt	-12.1243
zeb	-12.1247
iechi	-12.1247
dente	-12.1255
tarda	-12.1256
sv	-12.1264
iedai	-12.127
trama	-12.1277
neg	-12.1279
cco	-12.1288
iok	-12.1291
zikl	-12.1301
raggiunger	-12.1307
scoss	-12.1312
ndiamo	-12.1317
elimin	-12.1337
perfezion	-12.1351
bela	-12.1355
forme	-12.1356
uz	-12.1367
pascer	-12.1372
affrett	-12.1372
achima	-12.1374
provat	-12.1374
amati	-12.1375
conoscendo	-12.1376
fonde	-12.1396
gna	-12.1399
udir	-12.1403
ùb	-12.1405
raggiung	-12.1408
formazion	-12.1419
gioisc	-12.1437
manten	-12.1451
scacciar	-12.1453
alzando	-12.1458
pì	-12.1459
impadron	-12.1468
bilanc	-12.1474
circondan	-12.1481
rifiuta	-12.1482
cro	-12.1498
cibi	-12.1499
cinge	-12.1504
bila	-12.1509
pianter	-12.1509
vante	-12.1512
svegli	-12.1514
fonda	-12.1516
fermar	-12.1517
operai	-12.1521
salda	-12.1532
raf	-12.1533
durat	-12.1534
unisc	-12.1544
sventur	-12.1551
pagat	-12.1566
pronunzia	-12.1567
tenut	-12.1569
prati	-12.157
esige	-12.1575
terrazz	-12.1579
ddo	-12.1582
nomin	-12.1593
ciamo	-12.1598
lava	-12.1601
rivolg	-12.1605
esaminer	-12.161
sforz	-12.1614
attivi	-12.1614
gog	-12.1615
lavorat	-12.1615
suonava	-12.1622
colloca	-12.1624
stagn	-12.1624
abbandonate	-12.1633
esercita	-12.1634
stendere	-12.1641
sorgi	-12.1654
messa	-12.1656
rice	-12.1665
mandati	-12.167
ospit	-12.1674
grec	-12.1674
rovesci	-12.168
sperat	-12.1685
concluse	-12.1685
osso	-12.1686
mantelli	-12.1689
inseguir	-12.1694
zona	-12.1695
trovata	-12.1699
vendemmia	-12.1705
chiara	-12.1705
canta	-12.1706
kena	-12.1709
assai	-12.1713
immer	-12.1716
desse	-12.1716
piegava	-12.1716
magazzin	-12.1717
sostien	-12.1717
assolut	-12.1717
febbr	-12.1717
smarrit	-12.1717
zamp	-12.1717
faccenda	-12.1717
guarigion	-12.1717
paralitic	-12.1717
diciassette	-12.1717
intenzion	-12.1717
coltell	-12.1717
muovon	-12.1717
pekach	-12.1717
fredd	-12.1717
rinchius	-12.1717
notturn	-12.1717
reticolat	-12.1717
corruzion	-12.1717
matton	-12.1717
prun	-12.1717
regole	-12.1717
anfor	-12.1717
tortuos	-12.1717
confront	-12.1718
litigi	-12.1719
avvolse	-12.1719
sotterrane	-12.1719
saett	-12.172
macina	-12.172
appes	-12.1721
pelet	-12.1721
elevazion	-12.1721
dormiva	-12.1721
giudichi	-12.1724
uzziel	-12.1724
rabbì	-12.1724
aspersion	-12.1724
stabilisc	-12.1725
assetat	-12.1727
suddit	-12.1728
respinger	-12.1729
piangeva	-12.1731
clamor	-12.1731
toccava	-12.1733
mietitor	-12.1733
cominciava	-12.1737
chiedete	-12.1737
rendeva	-12.1738
imprecazion	-12.174
tazz	-12.1748
esultat	-12.1749
trentadue	-12.1751
liel	-12.1759
ride	-12.1759
custode	-12.1761
nascer	-12.1761
incensier	-12.1761
manifestar	-12.1762
mam	-12.1763
vivand	-12.1763
credeva	-12.1764
disonore	-12.1764
zalm	-12.1766
svanisc	-12.1769
pasta	-12.1771
nebo	-12.1772
voltato	-12.1777
bagnar	-12.1778
cipro	-12.1782
sana	-12.1786
stando	-12.1807
trapi	-12.1812
impor	-12.1815
benefici	-12.1816
trem	-12.182
spira	-12.1822
usato	-12.1823
zob	-12.1827
casabi	-12.1831
musical	-12.1849
macli	-12.1855
ricordato	-12.1858
tardi	-12.1866
obbedisc	-12.1876
bro	-12.1879
elisa	-12.188
mini	-12.1889
tek	-12.1905
rivestira	-12.1914
restaur	-12.1921
contese	-12.1932
spuntar	-12.1937
risuona	-12.1938
spogliato	-12.1953
concepir	-12.196
annientat	-12.1961
gridate	-12.1963
piomba	-12.1964
suona	-12.1965
percors	-12.1973
riflett	-12.1973
alleat	-12.1975
assali	-12.1977
arrestar	-12.1979
celebr	-12.1983
segnal	-12.1984
prestar	-12.1997
svegliat	-12.2017
contamina	-12.202
sorse	-12.2021
pagar	-12.2022
tì	-12.2027
sottopost	-12.2027
colpevol	-12.2029
debito	-12.2031
visitar	-12.2032
preparati	-12.2033
sciogliere	-12.2039
guarder	-12.2046
decretat	-12.2048
accusar	-12.205
avviciner	-12.2054
consacr	-12.2061
procurat	-12.2066
occorre	-12.2066
folli	-12.2067
gel	-12.2074
profet	-12.2076
ottocento	-12.2091
attraversat	-12.2091
precipit	-12.21
passione	-12.2104
pura	-12.2105
mancar	-12.211
anzian	-12.2118
vendette	-12.2121
vaga	-12.2124
desiderat	-12.2126
elett	-12.2128
tenete	-12.2129
scosse	-12.2131
sob	-12.2136
recat	-12.2139
beer	-12.214
scure	-12.2142
obbedire	-12.2153
ponendo	-12.2171
sogn	-12.2178
tab	-12.2192
esimo	-12.2194
riusci	-12.2194
mech	-12.2196
falli	-12.2199
credia	-12.22
abitere	-12.22
immens	-12.2204
trionfa	-12.2204
attraversa	-12.2214
riemp	-12.2217
sicura	-12.2218
riuni	-12.2237
restaura	-12.2244
immola	-12.2252
guidat	-12.2265
ebed	-12.2267
genera	-12.2268
cum	-12.227
provocat	-12.2276
tengo	-12.228
elim	-12.2286
ked	-12.2289
taglier	-12.2289
abitate	-12.229
berret	-12.2291
naama	-12.2307
ripudi	-12.2307
scendo	-12.2309
scan	-12.2312
elevat	-12.2315
alzer	-12.2316
rusc	-12.2318
tù	-12.2322
esamina	-12.2326
considerate	-12.2333
asine	-12.234
ombr	-12.2343
efrat	-12.2351
corri	-12.2355
cori	-12.236
turn	-12.2365
comportar	-12.2368
cinse	-12.2377
gadi	-12.2378
ringrazi	-12.238
carich	-12.2383
um	-12.2385
centr	-12.2389
ricercat	-12.2391
ritirar	-12.24
cane	-12.2402
calpest	-12.2406
agitat	-12.2407
spegner	-12.2415
esaud	-12.2415
spond	-12.2421
gar	-12.2421
rida	-12.2421
cantic	-12.2428
bruc	-12.2442
marc	-12.2443
inganna	-12.2455
obbedien	-12.2462
neri	-12.2465
guardian	-12.2466
cavalca	-12.2473
portera	-12.2473
astro	-12.2481
quadrat	-12.2481
prostituir	-12.2486
spontane	-12.2486
esclus	-12.2486
fornicazion	-12.2486
unguent	-12.2486
impetuos	-12.2486
prostituit	-12.2486
terebint	-12.2486
brigant	-12.2486
kenit	-12.2486
prefett	-12.2486
comincer	-12.2486
circostanz	-12.2486
scrizion	-12.2486
dimension	-12.2486
moltiplichi	-12.2486
particolar	-12.2486
profitt	-12.2486
indemoniat	-12.2486
asdod	-12.2486
sanguinari	-12.2487
perisca	-12.2487
dimenticher	-12.2487
porgete	-12.2488
origin	-12.2488
assennat	-12.249
incision	-12.249
accreditat	-12.249
avori	-12.2492
sorteggiat	-12.2492
fiere	-12.2492
inaridisc	-12.2493
catturat	-12.2493
natura	-12.2494
attendeva	-12.2497
sembrava	-12.2498
▁..	-12.2499
porci	-12.2499
vegliate	-12.25
obbligat	-12.2503
feroc	-12.2504
possedut	-12.2506
bruciava	-12.2506
alti	-12.2507
irritat	-12.2511
cancellat	-12.2512
serba	-12.2513
nascondigli	-12.2517
giustifica	-12.2518
ghersonit	-12.252
capire	-12.2521
vorrest	-12.2523
facil	-12.2524
locali	-12.2526
risparmiat	-12.2528
spoglia	-12.2528
idut	-12.2533
avvicinate	-12.2537
montar	-12.2539
umiliazion	-12.2545
aspetta	-12.255
elias	-12.2552
ruggin	-12.2552
profanar	-12.2553
assis	-12.2556
sbranat	-12.2561
unica	-12.2563
difend	-12.2565
arì	-12.257
nacas	-12.2575
corazza	-12.2578
division	-12.258
imita	-12.2582
aument	-12.2583
convocazion	-12.2585
spiegar	-12.2591
ttura	-12.2602
canceller	-12.2604
funi	-12.2606
mietere	-12.262
salutar	-12.2628
pretest	-12.2631
debolezz	-12.2638
crolla	-12.2644
sigillat	-12.2645
kil	-12.2647
assalir	-12.2647
risult	-12.2648
lasciat	-12.2658
inver	-12.2661
tign	-12.2664
brac	-12.2666
stro	-12.268
indossa	-12.268
modell	-12.2692
lup	-12.2692
contempla	-12.2693
rivestir	-12.2694
bil	-12.2695
rispond	-12.2695
travolt	-12.2697
convertite	-12.2702
rallegra	-12.2708
passant	-12.2721
tortor	-12.2722
combatti	-12.2728
ace	-12.2731
mancher	-12.2736
soffre	-12.2746
meri	-12.2749
collin	-12.275
comportat	-12.2762
volti	-12.2763
entrera	-12.2766
succede	-12.2775
deviar	-12.278
aggiunge	-12.278
zz	-12.2785
mutat	-12.2789
muli	-12.2801
perseguiter	-12.2801
:	-12.2813
edific	-12.2815
distrett	-12.2836
simo	-12.2837
micm	-12.2841
metteva	-12.285
lite	-12.286
edificar	-12.2865
bbra	-12.2873
resiste	-12.2875
mak	-12.2878
dimostra	-12.2879
tribun	-12.2889
diriger	-12.2891
allontanate	-12.2896
insegni	-12.29
giornat	-12.2916
abitazion	-12.2935
orso	-12.2936
narr	-12.2938
togliere	-12.294
capisc	-12.2946
protegge	-12.2954
rifugia	-12.2961
uccid	-12.2962
lach	-12.2962
meravigliat	-12.2963
scava	-12.2965
dimostrat	-12.2966
gdal	-12.2966
pugn	-12.2975
prestat	-12.2995
vacilla	-12.2998
concedi	-12.3002
maledir	-12.3005
dedica	-12.3018
leoness	-12.3028
conquist	-12.303
spes	-12.3033
adorar	-12.3042
predicar	-12.3046
custodire	-12.3048
ponete	-12.3048
permetter	-12.3051
posa	-12.3055
sazio	-12.3056
romper	-12.3066
corte	-12.3078
vana	-12.3086
àg	-12.3092
restituir	-12.3096
affretta	-12.3098
settecento	-12.3102
lavorator	-12.3104
vota	-12.3105
ripaga	-12.3107
scagli	-12.3111
percuot	-12.3113
cati	-12.3115
arte	-12.3124
elisam	-12.313
fuggiti	-12.3135
atura	-12.3135
illumina	-12.3146
inghiott	-12.3151
tàn	-12.3159
separa	-12.3164
tosa	-12.3198
lontana	-12.3199
indugi	-12.3203
sparti	-12.3218
efer	-12.3221
affida	-12.3222
scandalizza	-12.3232
romp	-12.3238
cant	-12.3253
ultima	-12.3256
acclama	-12.3258
efun	-12.3268
dro	-12.3283
riso	-12.329
ubriach	-12.3295
dispiac	-12.3305
himè	-12.331
secche	-12.3312
agge	-12.3313
accolse	-12.3318
ieter	-12.3319
trasgression	-12.3319
impiccat	-12.3319
trappol	-12.3319
arbitr	-12.3319
baluard	-12.3319
cupidigi	-12.3319
irriga	-12.3319
persecutor	-12.3319
sciolt	-12.3319
trebbia	-12.3319
vessill	-12.3319
costruttor	-12.3319
vissut	-12.3319
crudel	-12.3319
parziali	-12.332
galaadit	-12.332
spregevol	-12.332
opportun	-12.332
arcier	-12.332
predico	-12.3321
domestic	-12.3321
accorge	-12.3321
sollecit	-12.3321
collaborator	-12.3322
fischi	-12.3322
solitari	-12.3322
allieta	-12.3323
ventotto	-12.3323
amoz	-12.3323
gradisc	-12.3324
sentendo	-12.3324
brucera	-12.3325
spigola	-12.3325
mantien	-12.3325
collan	-12.3326
discuteva	-12.3326
rischi	-12.3326
riconosci	-12.3326
servendo	-12.3326
brutt	-12.3326
sammà	-12.3327
torchi	-12.3327
mascell	-12.3327
possent	-12.3328
rimpatri	-12.3332
tremend	-12.3332
sentiva	-12.3332
prostrato	-12.3333
ruggisc	-12.3333
persecuzion	-12.3334
avvicinava	-12.3335
consolid	-12.3339
ricever	-12.3343
baan	-12.3347
beveva	-12.3347
lasciando	-12.3347
dispose	-12.335
mangiando	-12.3351
occupat	-12.3351
religio	-12.3353
assunt	-12.3357
fuggiva	-12.3359
intendo	-12.3361
nuc	-12.3362
mart	-12.3366
astension	-12.3366
aste	-12.3367
bevete	-12.3371
trovando	-12.3373
milaquattrocento	-12.3374
agri	-12.3375
perder	-12.3376
piega	-12.3377
catturar	-12.3386
escr	-12.3397
bagnat	-12.3399
inespert	-12.34
fabbr	-12.3405
netane	-12.3406
ggiava	-12.3406
gonfi	-12.341
vist	-12.341
comprendi	-12.341
ses	-12.3411
domandava	-12.3413
rinnegat	-12.343
dominer	-12.3432
canal	-12.3435
teman	-12.3435
cerv	-12.3444
attingere	-12.3448
dottor	-12.3448
invest	-12.3448
spalanca	-12.345
ònic	-12.3452
recob	-12.3459
milc	-12.3459
addormentat	-12.3462
cipress	-12.3466
partiva	-12.3468
pula	-12.3473
indicato	-12.3475
alteri	-12.3477
spargere	-12.3477
reden	-12.3479
permetti	-12.3484
ritirat	-12.3484
approva	-12.3489
zill	-12.3492
borsa	-12.3493
sedott	-12.3493
alter	-12.3504
nota	-12.3505
amiamo	-12.3506
legam	-12.3509
incoraggia	-12.3515
grott	-12.3516
cusa	-12.3525
ardor	-12.3525
lapidat	-12.3529
inginocchi	-12.3531
betà	-12.3532
devastator	-12.3532
fermava	-12.3538
mentisc	-12.3546
onori	-12.355
aderi	-12.3551
giace	-12.3557
palm	-12.356
difender	-12.356
rivolge	-12.3572
iota	-12.3573
taf	-12.3595
vantar	-12.3601
assenz	-12.3602
granai	-12.3608
dolc	-12.3616
tars	-12.3616
precipita	-12.3624
suoner	-12.3626
spe	-12.3626
ricada	-12.3626
potrem	-12.3626
riversat	-12.3636
comportate	-12.3639
conferma	-12.365
abig	-12.3653
crete	-12.3655
continuament	-12.3656
cinger	-12.3664
suscit	-12.3665
usi	-12.3665
put	-12.3692
ritt	-12.3693
decise	-12.3705
precipitat	-12.372
divorar	-12.3721
veloci	-12.373
tendo	-12.3734
vergogne	-12.374
fras	-12.3746
castigher	-12.3768
serv	-12.3771
percorrer	-12.3781
persuas	-12.3784
tornera	-12.3785
intes	-12.3786
vuota	-12.379
rub	-12.3796
aggira	-12.3812
big	-12.3818
fia	-12.3832
disfatt	-12.3833
curv	-12.3837
vet	-12.3842
celebrat	-12.3843
personal	-12.3845
comprator	-12.3846
corregge	-12.3847
zebe	-12.3855
procura	-12.3855
assassin	-12.3868
arma	-12.3873
minacciat	-12.3876
eria	-12.3879
pronuncia	-12.3879
avvolge	-12.3887
appoggia	-12.3895
nominat	-12.3907
acai	-12.391
ìt	-12.3912
vacillar	-12.3924
contaminar	-12.3925
capre	-12.3926
goda	-12.3928
batter	-12.3932
edificat	-12.3936
fissar	-12.394
convert	-12.3945
assiste	-12.3949
nuvol	-12.3949
aiutar	-12.3952
terrori	-12.3956
svani	-12.3962
sala	-12.3978
saccheggi	-12.398
seimila	-12.4005
adab	-12.4008
capite	-12.4022
zopp	-12.4024
disperde	-12.4031
consola	-12.4036
terminat	-12.4038
accumula	-12.4043
cinquant	-12.4046
provved	-12.4057
preferi	-12.4061
arat	-12.4066
ricevo	-12.4073
corre	-12.4076
narra	-12.4077
brilla	-12.4079
ritira	-12.4079
spie	-12.408
templi	-12.4085
taci	-12.4093
regal	-12.4094
ostin	-12.4096
tur	-12.4098
costruira	-12.4104
offro	-12.4108
trascina	-12.4112
adult	-12.4115
tant	-12.4116
mut	-12.4116
desiderar	-12.4117
condann	-12.4141
inginocchia	-12.4144
diminu	-12.4145
lacer	-12.4146
preparer	-12.4153
aran	-12.418
oltraggi	-12.4191
iscritt	-12.4197
paran	-12.4199
sib	-12.4207
fresc	-12.4215
mmas	-12.4218
liti	-12.422
estende	-12.4222
caston	-12.4225
bbie	-12.4227
languisc	-12.4228
trattenne	-12.4228
nuzial	-12.4228
rinnegher	-12.4228
soccomb	-12.4228
adull	-12.4228
solitudin	-12.4228
allegria	-12.4228
paddan	-12.4229
ulcer	-12.4229
astuzi	-12.4229
zelofc	-12.4229
sgoment	-12.4229
tessitor	-12.4229
compiaciut	-12.4229
apposta	-12.4229
cognat	-12.4229
viandant	-12.4229
rimmon	-12.4229
raccolgo	-12.4229
apollo	-12.4229
manciat	-12.4229
consiste	-12.4229
impudic	-12.4229
chezron	-12.4229
punizion	-12.4229
zorea	-12.423
natural	-12.423
insegn	-12.423
mandorl	-12.423
stefan	-12.4231
dirigeva	-12.4231
usura	-12.4231
nnui	-12.4231
cazar	-12.4231
milleduecento	-12.4232
sconter	-12.4232
sefati	-12.4232
boz	-12.4233
branco	-12.4233
cilici	-12.4234
cavalcava	-12.4235
comporter	-12.4236
costrett	-12.4236
kir	-12.4237
lateral	-12.4238
rigetter	-12.4238
scelleratezz	-12.424
pregando	-12.4241
ristabilir	-12.4242
riars	-12.4243
rialzer	-12.4243
punisc	-12.4243
spiagg	-12.4243
rovet	-12.4244
cantava	-12.4245
volesse	-12.425
quarantadue	-12.4251
preferisc	-12.4251
esprim	-12.4251
beva	-12.4255
gravi	-12.4255
indign	-12.4256
sollevat	-12.4261
ricam	-12.4261
consolator	-12.4262
insidia	-12.4263
stagion	-12.4267
rizz	-12.4267
balda	-12.4267
promulgat	-12.4269
vagar	-12.4269
tentato	-12.4269
merci	-12.427
cozza	-12.4273
tuit	-12.4273
coricat	-12.4274
rovesciat	-12.4276
marina	-12.4279
scegli	-12.428
udiva	-12.4283
process	-12.4286
indicar	-12.4287
avvicinati	-12.4289
musi	-12.4298
lasciati	-12.43
parve	-12.43
penser	-12.4301
aspettava	-12.4304
ignor	-12.4304
esatt	-12.4308
fermati	-12.4308
principat	-12.4317
rinnova	-12.4321
contrad	-12.4331
ùr	-12.4332
servir	-12.4333
proteggi	-12.4337
ripost	-12.4338
divampa	-12.4342
cav	-12.4342
risiede	-12.4343
permise	-12.4351
confess	-12.4354
considerer	-12.4357
sping	-12.4358
manifestazion	-12.4362
orme	-12.4365
segnat	-12.4369
rispondera	-12.438
riempir	-12.4381
mira	-12.4384
adorarl	-12.4385
giun	-12.4388
devast	-12.4393
rimandat	-12.44
ritenut	-12.44
capito	-12.44
indosser	-12.4409
stupi	-12.4409
arrestat	-12.4417
sconta	-12.4428
ricercar	-12.4433
seppellire	-12.4436
tor	-12.4442
favol	-12.4443
goli	-12.4443
sàr	-12.4451
stacc	-12.4451
cali	-12.4455
costrui	-12.4458
rimoss	-12.4458
dors	-12.4459
osava	-12.4466
desidero	-12.448
spacca	-12.4481
insorge	-12.4485
riesc	-12.4489
sin	-12.4491
ventun	-12.4507
arli	-12.4511
lascera	-12.4521
corromp	-12.4524
nab	-12.4526
piegat	-12.4532
abbassa	-12.4539
preannunzia	-12.454
conservar	-12.4553
pazzi	-12.4554
eleg	-12.4558
grava	-12.458
arde	-12.4595
rocca	-12.4597
immolar	-12.4598
contatt	-12.46
vett	-12.4601
canne	-12.4602
sosta	-12.4613
cena	-12.4617
gam	-12.4617
sorg	-12.4625
nu	-12.4628
filo	-12.4629
andai	-12.463
contener	-12.4632
pendic	-12.4633
bora	-12.4635
laggi	-12.4639
sospira	-12.4639
appell	-12.464
ger	-12.4644
visita	-12.4647
mena	-12.4652
risal	-12.4653
imit	-12.4656
glorifica	-12.4667
selom	-12.4669
nativ	-12.4678
capitat	-12.4693
vendere	-12.4701
br	-12.4716
ncas	-12.4725
ricostruire	-12.4731
ricorre	-12.4737
traditor	-12.4746
ssa	-12.4754
indigent	-12.4755
provi	-12.4759
duri	-12.4762
tradito	-12.4767
spia	-12.4778
sospir	-12.4797
lapider	-12.4799
ferito	-12.481
salta	-12.4819
olivet	-12.482
risuscit	-12.4822
camminate	-12.4827
dibon	-12.484
suonar	-12.484
sella	-12.4847
punta	-12.4866
rifugiat	-12.4866
tranell	-12.4872
aggiungere	-12.4883
cambiar	-12.4884
sassi	-12.4885
percorre	-12.4888
taglio	-12.4896
debitor	-12.4904
partecipa	-12.4925
amaro	-12.4928
partecipi	-12.4948
riuscit	-12.4951
rido	-12.4962
impegna	-12.4963
convertit	-12.4967
sostitu	-12.4968
accettar	-12.4978
vigila	-12.4986
coraggios	-12.4987
squarcia	-12.4988
chiedeva	-12.5001
stò	-12.5004
depress	-12.5008
flaut	-12.5009
cerchera	-12.5011
adoper	-12.5015
chiaro	-12.5016
tribut	-12.5018
milasettecento	-12.5038
consulta	-12.5045
bita	-12.5047
bez	-12.5059
conoscer	-12.506
zim	-12.5065
offrendo	-12.507
cancell	-12.5072
splendent	-12.5081
sput	-12.5082
sessant	-12.5085
vince	-12.5088
ripagher	-12.5088
betta	-12.509
crì	-12.5091
togliete	-12.5096
gusta	-12.5098
lattant	-12.5105
andasse	-12.5107
glori	-12.5113
rallegri	-12.5115
enorme	-12.5116
speri	-12.5121
esamin	-12.5126
ferite	-12.5134
trascur	-12.5138
vasti	-12.5143
discese	-12.5143
insegne	-12.5157
riferisc	-12.516
legar	-12.5161
menzogner	-12.5166
mute	-12.5169
vacc	-12.5171
tramonta	-12.5172
custodisc	-12.5183
issò	-12.5186
form	-12.5189
placa	-12.5189
addai	-12.5194
fasci	-12.5195
visibil	-12.5195
distruttor	-12.5197
formar	-12.5198
nata	-12.5207
massacr	-12.5207
ammal	-12.5209
girava	-12.521
attua	-12.5213
spaventa	-12.5222
passeggia	-12.5223
disciplina	-12.5226
raggiungere	-12.5227
atrimoni	-12.5227
q	-12.5228
ornan	-12.5228
guarnigion	-12.5228
irrevocabil	-12.5228
negromant	-12.5228
predecessor	-12.5228
sorvegliant	-12.5228
sottratt	-12.5228
vendicar	-12.5228
zippor	-12.5228
esecra	-12.5228
istruisc	-12.5228
estingu	-12.5228
recipient	-12.5228
sprang	-12.5228
bimb	-12.5229
introdurra	-12.5229
boccon	-12.5229
rappresenta	-12.5229
trattener	-12.5229
pescator	-12.5229
effond	-12.5229
semplici	-12.5229
attaccher	-12.5229
struzz	-12.5229
brocca	-12.5229
chezr	-12.5229
guancia	-12.5229
mandria	-12.523
poneva	-12.523
retroced	-12.523
folt	-12.523
zebu	-12.523
vincitor	-12.5231
selvaggi	-12.5231
rinforz	-12.5231
samaritan	-12.5231
soddisfatt	-12.5232
tradisc	-12.5232
funzion	-12.5233
litiga	-12.5233
aggiunt	-12.5234
letame	-12.5234
arba	-12.5234
sconvolge	-12.5234
provocando	-12.5234
bran	-12.5235
fissando	-12.5235
brame	-12.5235
mattat	-12.5236
occult	-12.5237
impedir	-12.5237
combattut	-12.5237
provenient	-12.5238
riedificat	-12.5239
stallo	-12.5239
trentacinque	-12.5241
riempiva	-12.5242
posterior	-12.5243
anakit	-12.5244
ispirat	-12.5245
sasso	-12.5245
vendeva	-12.5246
ricopert	-12.5246
ricordando	-12.5246
adempiut	-12.5247
corrier	-12.5248
raso	-12.5248
isear	-12.5248
picchi	-12.5248
fren	-12.5249
distribuit	-12.5254
sealti	-12.5255
mantener	-12.5257
urlat	-12.5258
pule	-12.5259
incorruttibil	-12.526
trascurat	-12.5261
concepit	-12.5262
tacque	-12.5263
prescriv	-12.5263
governar	-12.5264
spunta	-12.5264
anak	-12.5264
circondava	-12.5264
trasmess	-12.5264
accadde	-12.5265
lasciava	-12.527
ricolm	-12.5272
rivelar	-12.5274
risort	-12.5275
cinquantin	-12.5277
varie	-12.5282
tubal	-12.5285
verra	-12.5286
zur	-12.5286
vomit	-12.5289
piegher	-12.5289
radunerann	-12.5291
ghidd	-12.5292
làt	-12.5293
sopportat	-12.5294
pratiche	-12.5298
ismaelit	-12.5298
manufatt	-12.5299
collochera	-12.5302
intercede	-12.5306
sapevo	-12.5308
ventiduemila	-12.531
isola	-12.5311
guadagnar	-12.5317
fermate	-12.5318
naviga	-12.5323
pieg	-12.5323
sgozza	-12.5328
seguim	-12.5329
appeti	-12.5334
salgo	-12.5335
boll	-12.5344
nascose	-12.5353
raccogli	-12.536
costernat	-12.5362
rifugiar	-12.5363
esult	-12.5364
regnar	-12.5368
monet	-12.5368
parecchi	-12.5369
annulla	-12.5371
presentati	-12.5372
allevato	-12.5377
riteng	-12.5381
armatur	-12.5383
vorra	-12.5383
tenebros	-12.5384
risorg	-12.539
tenere	-12.5392
prepost	-12.5403
tace	-12.5405
potrest	-12.5405
premi	-12.5409
riscontra	-12.5412
partorisc	-12.5413
novecento	-12.5417
relazion	-12.5418
artisti	-12.5424
bianchi	-12.5426
oppost	-12.543
invocan	-12.543
scriva	-12.5438
sepoltur	-12.5439
palett	-12.5441
accuse	-12.5448
susciter	-12.5448
estendeva	-12.546
ello	-12.5464
famos	-12.5466
muovere	-12.5467
proced	-12.5468
interrogar	-12.5471
sena	-12.5471
abbattere	-12.5472
scriv	-12.5473
visitat	-12.5474
toccate	-12.5475
ammirat	-12.5481
salpa	-12.5481
sach	-12.55
tati	-12.5508
stancat	-12.5513
riconcilia	-12.5527
stacca	-12.5533
gettata	-12.5535
depost	-12.5543
assegn	-12.5544
possedere	-12.5559
vocher	-12.556
restate	-12.5561
ris	-12.5568
strazi	-12.557
martella	-12.557
conca	-12.5573
seminat	-12.5573
benefica	-12.559
trionf	-12.5612
uscira	-12.5615
custodisci	-12.5616
ieroc	-12.5623
opprim	-12.5627
proclamat	-12.5632
ragiona	-12.5645
prestera	-12.5645
calm	-12.5654
abbandoni	-12.5656
amminad	-12.5665
digiuni	-12.5665
uccidi	-12.5666
rovinar	-12.5671
distese	-12.5673
impari	-12.5684
mandando	-12.5694
risplende	-12.5698
abbass	-12.5703
accetter	-12.5717
gigli	-12.572
mortali	-12.5722
guidar	-12.5723
zerachi	-12.5732
meraviglia	-12.5735
regola	-12.5739
letta	-12.5739
mettevan	-12.5744
accumulat	-12.5745
infa	-12.5752
calat	-12.5771
accoster	-12.5773
delus	-12.5775
desist	-12.5776
gioire	-12.5777
foc	-12.5779
distin	-12.5782
ostina	-12.5787
luc	-12.5789
battezz	-12.5792
.	-12.5792
eliè	-12.5796
risuscita	-12.5797
aprire	-12.5799
comprat	-12.58
cul	-12.5801
keda	-12.5817
dormi	-12.5818
vergognar	-12.5819
spunt	-12.5822
tramat	-12.5825
supplic	-12.583
accusat	-12.5831
assir	-12.5842
».	-12.5852
chiedo	-12.5854
insegue	-12.5866
seder	-12.5867
divori	-12.588
proclamer	-12.59
riempite	-12.5902
aliment	-12.5904
giglio	-12.5907
imper	-12.5911
zel	-12.5911
schiaccia	-12.5914
nuda	-12.5919
squa	-12.5922
etan	-12.5932
avven	-12.5934
undecim	-12.5934
spogliat	-12.5936
stillan	-12.5939
depor	-12.594
croll	-12.5943
eton	-12.5945
macl	-12.5952
concord	-12.5956
danza	-12.5968
avvent	-12.5975
fortuna	-12.5985
china	-12.5989
spian	-12.5991
spogli	-12.6002
calv	-12.6006
benedice	-12.6011
bisognos	-12.6021
imputa	-12.603
rez	-12.603
rialzar	-12.6031
mirabil	-12.6035
radunar	-12.6037
para	-12.6038
ku	-12.6045
risana	-12.6046
condannar	-12.6047
mettil	-12.605
ribellar	-12.6066
gir	-12.6077
maltratta	-12.6079
àta	-12.6086
gioisco	-12.6087
maledice	-12.6089
rive	-12.6096
siep	-12.6105
palp	-12.6109
annienter	-12.6117
robust	-12.6122
volga	-12.6125
isan	-12.6127
pericol	-12.6137
met	-12.6151
contes	-12.6152
erige	-12.6155
artist	-12.6159
ingannato	-12.6161
privat	-12.6163
scaglia	-12.617
irrit	-12.6183
etam	-12.6199
raccomanda	-12.6202
spedi	-12.6206
invitar	-12.6209
custodir	-12.621
amon	-12.6211
trave	-12.6235
omicidi	-12.6247
fugge	-12.6254
bbon	-12.6258
separar	-12.626
dovrem	-12.6267
provvede	-12.6268
govern	-12.6271
rici	-12.6278
salga	-12.6287
ingannar	-12.629
obblig	-12.6293
crocifigg	-12.6298
esisto	-12.6301
urim	-12.6301
infuri	-12.6302
stor	-12.6303
seguirl	-12.6309
distingu	-12.6319
posteri	-12.6327
interpret	-12.6328
pecchi	-12.6335
traffic	-12.6339
simbol	-12.634
sconfigger	-12.634
vendicher	-12.634
affrant	-12.634
alessandr	-12.634
costrinse	-12.634
frequent	-12.634
presiedeva	-12.634
rumina	-12.634
sacchegger	-12.634
sciolse	-12.634
scompare	-12.634
sommers	-12.634
tessalonic	-12.634
inflitt	-12.634
j	-12.634
franchezz	-12.634
indenni	-12.634
accurat	-12.634
appiccher	-12.634
sguainat	-12.634
levatric	-12.634
arpacs	-12.634
salverebbe	-12.634
uguaglia	-12.634
sofon	-12.634
eccett	-12.634
peccher	-12.634
pollic	-12.634
affinch	-12.634
leopard	-12.634
veritier	-12.634
sublim	-12.634
fulmin	-12.6341
conduco	-12.6341
hinnò	-12.6341
bezale	-12.6341
indossar	-12.6341
insolent	-12.6341
chiacchier	-12.6341
sostenta	-12.6341
tolga	-12.6342
licenz	-12.6342
ingiuri	-12.6343
abbraccia	-12.6343
guarisc	-12.6343
scegliete	-12.6344
ghesur	-12.6344
incastona	-12.6344
esplorato	-12.6344
lor	-12.6344
restituit	-12.6345
fiond	-12.6345
falegnam	-12.6346
chiedendo	-12.6346
eseguisc	-12.6347
bosco	-12.6347
mercat	-12.6348
svergognat	-12.6348
gob	-12.6349
trattien	-12.6349
carovan	-12.6349
compiendo	-12.6349
uccidendo	-12.635
precis	-12.6353
ieracm	-12.6354
colto	-12.6355
spig	-12.6355
comprendeva	-12.6355
convincer	-12.6357
rapir	-12.6357
arricchir	-12.6357
gerar	-12.6357
scanna	-12.6358
creditor	-12.636
cadeva	-12.6362
imparer	-12.6365
esaudit	-12.6365
ricordera	-12.6366
spianat	-12.6367
avanzava	-12.6368
sapesse	-12.6368
opposi	-12.6372
accogli	-12.6373
interrogava	-12.6375
congiunt	-12.6376
coricher	-12.6376
prostrava	-12.6379
uccis	-12.6379
benevol	-12.638
ospital	-12.638
temanit	-12.6383
invisibil	-12.6384
conserver	-12.6385
ccur	-12.6385
pacific	-12.6386
prostrati	-12.6387
prostrate	-12.6389
volp	-12.6392
tanta	-12.6392
dorme	-12.6394
coroll	-12.6394
cinquantadue	-12.6398
arrivava	-12.6405
umilia	-12.6406
bevo	-12.6409
avveniment	-12.641
camos	-12.6413
ast	-12.6415
ruggit	-12.6417
miria	-12.6418
affatica	-12.6419
arrogant	-12.6424
rologi	-12.6428
recabi	-12.6432
accort	-12.6433
terrapien	-12.6441
vitto	-12.6446
predichi	-12.6449
senta	-12.6458
irritar	-12.646
devastar	-12.6464
cospars	-12.6464
spavent	-12.6466
ceder	-12.6468
macchi	-12.647
annunziate	-12.6475
ittài	-12.6476
digiunat	-12.648
vivra	-12.6496
distruggi	-12.6497
azm	-12.6502
gusto	-12.6503
farebbe	-12.651
asinell	-12.6511
rattristato	-12.6513
sussiste	-12.6523
soffert	-12.6523
estirper	-12.6526
presentate	-12.6538
brill	-12.6543
erigere	-12.6543
falsa	-12.6547
siedo	-12.6551
iamin	-12.6552
natà	-12.6555
foder	-12.6558
eliminar	-12.6563
soffri	-12.6572
aspira	-12.658
avrem	-12.6584
scopr	-12.6589
scacciarl	-12.6589
calpester	-12.659
flauti	-12.6591
rafforzat	-12.6591
zil	-12.6592
acconsenti	-12.6597
seduce	-12.6599
onest	-12.6611
volgendo	-12.6612
risusciter	-12.6618
nimr	-12.6618
predi	-12.6626
lasciarl	-12.6629
cornic	-12.6636
retro	-12.6641
ttim	-12.665
oppo	-12.6651
bianch	-12.6657
costruisci	-12.6659
bacur	-12.666
macan	-12.6672
malann	-12.6672
percuoter	-12.6683
fissera	-12.669
proclamate	-12.6701
sebn	-12.6701
ìr	-12.6701
nuvole	-12.6702
astri	-12.6708
pentit	-12.6711
vender	-12.6721
accada	-12.6722
muti	-12.6731
restituire	-12.6734
ziz	-12.6744
primaver	-12.6751
trasportat	-12.6755
spesso	-12.6765
alzat	-12.6766
protesta	-12.6769
protegger	-12.6786
scori	-12.6796
milaseicento	-12.6802
kede	-12.6809
ragion	-12.6818
olive	-12.6822
timorat	-12.6825
biasim	-12.6826
penetrat	-12.6826
accamper	-12.6838
dovette	-12.6848
scalz	-12.6852
ster	-12.6852
ipocri	-12.6864
improvvisa	-12.6873
aggiung	-12.6874
enos	-12.688
attender	-12.6883
leggera	-12.6884
ovil	-12.6897
digiunar	-12.6898
ribellato	-12.6901
convocat	-12.6912
traviar	-12.6912
posar	-12.6928
piomber	-12.6928
adorer	-12.693
samm	-12.6935
stanchi	-12.6951
assisti	-12.6956
consideri	-12.696
innocen	-12.6968
ritrovat	-12.6969
sura	-12.6977
elon	-12.6988
curam	-12.6994
gione	-12.6994
regolar	-12.6994
gradi	-12.6995
sterminate	-12.7
nizie	-12.7024
amità	-12.7024
izie	-12.7025
raccogliera	-12.7032
matura	-12.7035
appres	-12.7035
madr	-12.7037
partecipar	-12.7041
innalzar	-12.7048
santific	-12.7049
cantan	-12.706
nutrit	-12.7062
nob	-12.7064
consultat	-12.7073
ragg	-12.7076
;	-12.7084
tard	-12.7091
insegner	-12.711
matur	-12.7111
giacc	-12.7122
onan	-12.7122
ceste	-12.7128
dek	-12.7129
confessa	-12.7131
riunir	-12.7134
cacciato	-12.7139
soffoca	-12.7141
soccorrer	-12.715
scioglier	-12.7151
evitar	-12.7156
splender	-12.7167
archivi	-12.7183
preoccupat	-12.7194
sacerdotal	-12.7204
creder	-12.7207
calcol	-12.7218
battere	-12.7223
beel	-12.7227
ricerche	-12.7231
sù	-12.7233
restava	-12.7239
tirato	-12.7251
azer	-12.7252
amministra	-12.7268
esalter	-12.7276
oppor	-12.7283
scatena	-12.7283
obbedisco	-12.7304
impar	-12.7305
acconsent	-12.7306
realizz	-12.7316
obbedi	-12.7316
conservi	-12.733
nico	-12.7338
odios	-12.7345
stanca	-12.7345
stendeva	-12.7345
condanner	-12.7346
ania	-12.7349
merit	-12.7363
facciata	-12.738
interrogarl	-12.7381
togliera	-12.7383
monit	-12.7388
colma	-12.7397
consolarl	-12.7399
riempire	-12.7406
curi	-12.7406
tenga	-12.741
riporta	-12.741
sembr	-12.7423
rinnega	-12.7423
padron	-12.7456
pietos	-12.7458
misurat	-12.7478
commise	-12.7487
saccheggia	-12.7489
indica	-12.749
cus	-12.7498
rilasci	-12.7503
paghi	-12.7507
picc	-12.7515
affront	-12.7522
elat	-12.7525
rinunzi	-12.7537
roba	-12.7538
corruttibil	-12.755
sposta	-12.755
prosciug	-12.7558
intrecci	-12.7566
perdere	-12.7566
affond	-12.7566
annunziava	-12.7568
rattrist	-12.7568
peda	-12.7569
pende	-12.757
consider	-12.7574
coltiva	-12.7577
incute	-12.7579
traccia	-12.7583
allarm	-12.7583
garant	-12.7584
9	-12.759
dissolutezz	-12.759
drapp	-12.759
accovacciat	-12.759
adùlter	-12.759
rigoglios	-12.759
rovescer	-12.759
afek	-12.759
arrossire	-12.759
ascalòn	-12.759
esecutor	-12.759
gabaonit	-12.759
hurrit	-12.759
inaccessibil	-12.759
mercenari	-12.759
officia	-12.759
panettier	-12.759
punteggiat	-12.759
quadruped	-12.759
sacrificava	-12.759
sufficient	-12.759
fantasm	-12.759
fessur	-12.759
proferir	-12.759
sporgenz	-12.759
zoccol	-12.759
fidanzat	-12.759
ricuper	-12.759
proprietari	-12.759
squisit	-12.759
stoppi	-12.759
stritoler	-12.759
strepit	-12.759
astarot	-12.759
assicurat	-12.759
topazi	-12.759
riduc	-12.759
approd	-12.759
inserir	-12.759
foraggi	-12.759
melogran	-12.759
delizios	-12.759
stritola	-12.759
persuadere	-12.759
cumul	-12.759
spazzat	-12.759
rombo	-12.759
carnal	-12.759
fratern	-12.759
valuta	-12.7591
guariva	-12.7591
militar	-12.7591
cordicell	-12.7591
riviv	-12.7591
appaia	-12.7591
comprenda	-12.7591
svelat	-12.7591
appassi	-12.7591
mendica	-12.7591
stracciate	-12.7591
emigra	-12.7591
discussion	-12.7591
sospes	-12.7591
intatt	-12.7591
dimentichi	-12.7591
ricamato	-12.7591
misael	-12.7592
congedato	-12.7593
complott	-12.7593
ficie	-12.7593
venditor	-12.7594
spasim	-12.7594
defunt	-12.7594
mescolat	-12.7594
grandissim	-12.7594
esaminando	-12.7595
sefe	-12.7597
otni	-12.7597
rotond	-12.7598
mormorazion	-12.7598
conducetel	-12.7599
pasce	-12.7599
mormorava	-12.7599
energi	-12.76
sistem	-12.7601
canut	-12.7603
singol	-12.7605
percuoteva	-12.7605
riflession	-12.7605
ammen	-12.7606
sordo	-12.7606
rasat	-12.7608
dominava	-12.7608
infrang	-12.7608
credendo	-12.7612
genèsare	-12.7612
zef	-12.7613
interior	-12.7613
rimettere	-12.7613
paragonar	-12.7614
combatteva	-12.7615
dormo	-12.7615
allegr	-12.7616
kenan	-12.7616
sostener	-12.7617
informate	-12.762
vasc	-12.7621
sperava	-12.7621
decid	-12.7622
oolibam	-12.7625
gettando	-12.7627
declina	-12.7629
sostanz	-12.763
opprimeva	-12.7632
matte	-12.7633
sconosciut	-12.7635
mancava	-12.7636
riverser	-12.7638
ammalat	-12.7638
secc	-12.764
disprezzar	-12.7641
sonagli	-12.7641
indoss	-12.7643
dominator	-12.7645
incomincia	-12.7647
dissipa	-12.7652
raccogliete	-12.7654
preoccupazion	-12.7656
soco	-12.7656
ereditar	-12.7657
tremant	-12.7657
ripar	-12.7658
sottrarr	-12.7659
otterr	-12.766
dipende	-12.766
dilegu	-12.7662
devastazion	-12.7663
disordin	-12.7666
discute	-12.7668
insorse	-12.7668
imparar	-12.767
distogli	-12.7671
stabilirvi	-12.7672
aspers	-12.7672
trovasse	-12.7674
abbondanti	-12.7676
creda	-12.7679
rmut	-12.7681
sobà	-12.7681
sovrintendente	-12.7686
provo	-12.7687
riunion	-12.7687
recava	-12.769
chinato	-12.769
salma	-12.769
raffinat	-12.7694
caricat	-12.7697
demolire	-12.7698
valent	-12.7698
naso	-12.7699
obbedira	-12.7699
adorato	-12.7699
apro	-12.7705
trarre	-12.7708
sperar	-12.7712
annunziat	-12.7714
diletta	-12.7714
gocc	-12.7716
riuscire	-12.7722
odiava	-12.7723
iachin	-12.7725
manchi	-12.7725
achit	-12.7728
sottomett	-12.773
arse	-12.7734
cocci	-12.7735
risparmiar	-12.7739
pento	-12.774
cana	-12.7754
delizia	-12.7762
cerie	-12.7766
vaciller	-12.7771
danze	-12.7778
esporre	-12.7788
castigat	-12.7791
pellic	-12.7793
pag	-12.7796
ment	-12.7802
trasporta	-12.7804
comunic	-12.7805
àz	-12.781
dipendent	-12.7811
straordinaria	-12.7811
ragazza	-12.7812
barn	-12.7818
tita	-12.7819
dibri	-12.782
delusi	-12.782
osservava	-12.782
attuat	-12.7827
razzia	-12.7835
pretende	-12.7837
unite	-12.784
solid	-12.7841
robusti	-12.7842
nutric	-12.7851
proven	-12.7851
usat	-12.7852
conoscent	-12.7853
incontra	-12.7855
kadm	-12.7856
percorr	-12.7856
simeà	-12.7857
berra	-12.7862
incredul	-12.787
icòn	-12.7875
arar	-12.788
ritirer	-12.7895
devaster	-12.7905
perseguiti	-12.7905
tenerezz	-12.7905
luz	-12.7916
gendo	-12.7934
interrogat	-12.7937
abbassat	-12.7939
finisc	-12.794
gan	-12.7941
zèr	-12.7946
efraimit	-12.7947
convocate	-12.7953
incontrat	-12.7956
raccontat	-12.7968
scolo	-12.7968
frond	-12.7969
bestemmie	-12.7971
pendi	-12.7976
magnifica	-12.7977
custodisca	-12.7988
curve	-12.8001
balza	-12.8001
ammon	-12.8004
trovate	-12.8012
sereb	-12.8013
voltar	-12.8018
trovarl	-12.8019
mettiamo	-12.8028
tradir	-12.8033
ritirate	-12.8036
scampar	-12.8038
archit	-12.8039
fiorisc	-12.804
favori	-12.8048
scegliere	-12.8048
suonat	-12.8053
obab	-12.8083
paio	-12.8085
liberam	-12.8088
lenti	-12.8091
loch	-12.8095
giungo	-12.8098
rovinat	-12.8102
maltrattat	-12.8112
prostrera	-12.8113
fidat	-12.8121
final	-12.813
conquistat	-12.8133
risplender	-12.8157
vocazion	-12.8164
consacrar	-12.8168
iniziat	-12.8171
mach	-12.8172
vacill	-12.8174
piaciut	-12.818
chiamer	-12.8182
gari	-12.8184
inizia	-12.8188
incominci	-12.8189
riveler	-12.8198
esaminat	-12.8203
lanci	-12.8209
veglier	-12.8216
tigno	-12.8218
afferm	-12.8221
giustificar	-12.8223
compre	-12.8223
raccomand	-12.8225
devasta	-12.8226
decider	-12.8227
prosegu	-12.8232
scel	-12.8257
manifesti	-12.8265
nim	-12.8273
disobbedien	-12.8274
tumor	-12.8281
magr	-12.8284
avvolg	-12.8316
accor	-12.8319
vergogn	-12.8322
quiet	-12.8349
annienta	-12.8356
calcolar	-12.8362
artene	-12.8386
rallegrar	-12.839
barbar	-12.839
apra	-12.8394
lapida	-12.8395
calcola	-12.8396
ricev	-12.8398
camminer	-12.8427
impegn	-12.8429
partecip	-12.8432
preserva	-12.8435
aspettar	-12.8442
rimetti	-12.8443
comprato	-12.8446
castigh	-12.8449
ritrov	-12.8453
cerve	-12.8458
avvolt	-12.846
prote	-12.8463
luss	-12.8471
chimà	-12.8478
bussa	-12.8479
caz	-12.8485
sopporter	-12.8491
tassa	-12.8494
costruendo	-12.8494
element	-12.8507
arresta	-12.8513
accorr	-12.8522
agag	-12.8531
insist	-12.8533
veglie	-12.8535
persian	-12.8566
levar	-12.8567
beon	-12.8571
restituisc	-12.8578
rimas	-12.8578
gust	-12.8579
enan	-12.8587
travolge	-12.8589
oppress	-12.8594
soggiorn	-12.8603
cristall	-12.8606
spacc	-12.8608
affrettat	-12.8613
preoccup	-12.862
carmi	-12.8637
sceglier	-12.864
radunat	-12.8647
sposar	-12.8649
trame	-12.8654
illuminar	-12.8685
forni	-12.8686
ripudia	-12.8693
contad	-12.8701
piombat	-12.8703
increduli	-12.8704
dichiarar	-12.8709
trar	-12.8711
atting	-12.8719
dimentic	-12.8737
pigia	-12.8749
precipitar	-12.8753
sessantadue	-12.8761
migd	-12.8767
chiudere	-12.8773
qu	-12.8775
penetrar	-12.8783
dispon	-12.8791
possedet	-12.8795
rafforz	-12.88
plac	-12.88
acb	-12.8809
sicc	-12.881
rattristat	-12.8814
precipi	-12.882
ubriaco	-12.8825
ammassa	-12.8838
null	-12.8878
profanat	-12.8878
spezzar	-12.8886
ghes	-12.8887
saccheggiar	-12.8891
nzia	-12.8893
salir	-12.8894
prestava	-12.8897
poste	-12.8911
dimorer	-12.8914
penti	-12.8915
trava	-12.8927
levava	-12.8933
succed	-12.8941
capitan	-12.8941
utun	-12.8948
poggiava	-12.8948
occupava	-12.8965
servira	-12.8972
striat	-12.8976
saliamo	-12.8976
ker	-12.8982
facce	-12.8983
sovr	-12.8983
edificher	-12.8994
abbo	-12.8994
imped	-12.8994
orgoglios	-12.8998
pisce	-12.8999
appogg	-12.9004
consolar	-12.9005
offend	-12.901
commerci	-12.901
sobilla	-12.9012
minacc	-12.9013
vendit	-12.9013
impietosi	-12.9014
anteri	-12.9015
gemm	-12.9016
lomb	-12.9018
prato	-12.9018
figure	-12.9018
inimicizi	-12.9018
lenzuol	-12.9018
soprus	-12.9018
discern	-12.9018
sommerg	-12.9018
bukki	-12.9018
digrigna	-12.9018
eccellent	-12.9018
equipaggi	-12.9018
inorgogli	-12.9018
intinger	-12.9018
scalpelli	-12.9018
’	-12.9018
abluzion	-12.9018
incantesim	-12.9018
inebriat	-12.9018
presbiter	-12.9018
scrosci	-12.9018
graticol	-12.9018
pellegrin	-12.9018
prevarr	-12.9018
simron	-12.9018
esaurit	-12.9018
valute	-12.9018
gergese	-12.9018
scorpion	-12.9018
usalemm	-12.9018
argoment	-12.9018
fiaccol	-12.9018
semplice	-12.9018
responsabil	-12.9018
indirizza	-12.9018
trattenut	-12.9018
altrettant	-12.9018
tiranni	-12.9018
addolorat	-12.9018
porgeva	-12.9018
preferenz	-12.9018
lambi	-12.9018
cingi	-12.9018
aguzza	-12.9018
chiazzat	-12.9018
mallu	-12.9018
cause	-12.9018
ghibb	-12.9019
astàrt	-12.9019
baglior	-12.9019
enigm	-12.9019
toller	-12.9019
atarot	-12.9019
lchì	-12.9019
idolàtr	-12.9019
tizzon	-12.9019
aboli	-12.9019
akku	-12.9019
aggrav	-12.9019
trabocchett	-12.902
barcolla	-12.902
abituat	-12.902
ispirazion	-12.902
ammaestrava	-12.902
profanando	-12.9021
elioen	-12.9021
scorge	-12.9022
scherz	-12.9022
calce	-12.9022
stupend	-12.9022
secchi	-12.9023
vergognos	-12.9023
granelli	-12.9023
luppa	-12.9023
atterrit	-12.9025
riforni	-12.9025
buz	-12.9025
insolenz	-12.9026
maestos	-12.9026
rissa	-12.9027
trepid	-12.9027
spergiur	-12.9028
appartene	-12.9028
uccidetel	-12.9028
rivolgeva	-12.9029
riserve	-12.9029
astut	-12.903
stupefatt	-12.903
diffondeva	-12.903
zedà	-12.9031
consigliato	-12.9031
interpretar	-12.9031
spuntava	-12.9032
glorificava	-12.9032
sobri	-12.9032
pustol	-12.9033
volent	-12.9033
iacat	-12.9033
cuta	-12.9033
coltivator	-12.9033
cinquantaquattro	-12.9035
prostrando	-12.9035
libni	-12.9036
piango	-12.9036
impiegat	-12.9036
sleal	-12.9036
carbonchi	-12.9038
palud	-12.9038
accresce	-12.904
fresch	-12.9041
seminera	-12.9041
inghiottit	-12.9041
ammonisc	-12.9041
risalire	-12.9042
volgo	-12.9045
sviat	-12.9045
insett	-12.9047
riconosco	-12.9047
insisteva	-12.9047
aiutat	-12.9048
rapac	-12.905
netofa	-12.9052
protett	-12.9057
rivolgete	-12.9057
combatter	-12.9058
esisteva	-12.9061
negar	-12.9062
passiamo	-12.9062
rimproverar	-12.9062
accusator	-12.9062
maledici	-12.9063
allontanava	-12.9064
setta	-12.9064
verbo	-12.9067
passasse	-12.907
misurava	-12.9072
scorreva	-12.9073
concu	-12.9078
tormentat	-12.9078
appiccar	-12.9079
ottie	-12.9079
avvertir	-12.9081
ostil	-12.9082
accede	-12.9084
bandito	-12.9084
ritornava	-12.9087
canzone	-12.9087
diaspr	-12.9092
espose	-12.9093
decide	-12.9094
confortat	-12.9096
ardent	-12.9102
contratt	-12.9102
allatt	-12.9103
discordi	-12.9106
proibit	-12.9108
paziente	-12.9108
commoss	-12.9109
accostati	-12.911
ravveder	-12.9112
svegliar	-12.9114
azek	-12.9121
massim	-12.9125
fragran	-12.9128
oppone	-12.9131
urli	-12.9133
ricevete	-12.9136
uta	-12.9144
carcerat	-12.9145
imitar	-12.9145
riporr	-12.915
comunicar	-12.9155
assediat	-12.9155
comer	-12.9159
vit	-12.9159
formava	-12.9163
prevalg	-12.9165
sospett	-12.9167
testimoniar	-12.9167
rimedi	-12.9167
alzera	-12.9169
salvera	-12.9175
preced	-12.9179
capar	-12.918
piegar	-12.9192
quarantun	-12.9193
zat	-12.9195
mangiasse	-12.9197
controlla	-12.9198
fiaccat	-12.9203
esaudir	-12.9203
rèf	-12.9211
negat	-12.9216
precedente	-12.9222
sapor	-12.9222
salariat	-12.9226
depredar	-12.9234
prosperar	-12.9237
nutre	-12.9247
vacillan	-12.9248
brezz	-12.9252
appi	-12.9254
zabdi	-12.9255
squadrat	-12.9263
sfuggit	-12.9264
pito	-12.9265
rilasciar	-12.9266
rientrar	-12.9271
rafforza	-12.9279
murator	-12.9294
pallu	-12.9296
pedai	-12.9296
frattur	-12.9296
mmin	-12.9306
chira	-12.9312
comporti	-12.9313
pesta	-12.9322
nava	-12.9328
accecat	-12.9328
apparenz	-12.933
rispondete	-12.9333
mostrando	-12.9336
uci	-12.9345
seguitel	-12.9348
placat	-12.9364
donato	-12.9364
fornito	-12.9365
perdoni	-12.9366
schernito	-12.9373
pigiat	-12.9374
spedit	-12.9378
squarci	-12.9381
scamper	-12.9384
governi	-12.9397
belv	-12.9401
smo	-12.9404
imitato	-12.9404
spaventi	-12.9415
risanat	-12.9422
rendit	-12.9426
centotrentasette	-12.9438
baciar	-12.9441
insorg	-12.9456
dicessi	-12.9461
converta	-12.9473
montat	-12.9474
azaz	-12.9474
frust	-12.9477
distacch	-12.9479
restituisci	-12.948
diffond	-12.9488
plach	-12.9493
zebo	-12.95
prepotent	-12.9501
testimoniat	-12.9503
abib	-12.9517
immolera	-12.9527
intent	-12.9528
dovessi	-12.9542
potes	-12.9548
maligna	-12.9562
colmat	-12.9567
condurl	-12.9572
stilla	-12.9573
porse	-12.958
àk	-12.9583
beb	-12.9587
lapid	-12.96
sciogli	-12.9614
pronunciat	-12.9615
assassini	-12.9629
richiede	-12.9638
rifiutan	-12.9643
appoggiat	-12.9656
cacciat	-12.9673
ventisette	-12.9687
risuscitar	-12.9689
distruggerl	-12.9704
maneggiar	-12.9752
disperdi	-12.9753
avid	-12.9754
morde	-12.9819
raccontar	-12.9827
consacrarl	-12.983
acsa	-12.9844
dimostrar	-12.9854
aggiunger	-12.9858
casu	-12.988
liberarl	-12.9887
maneggia	-12.9897
salira	-12.9916
giacera	-12.9919
zik	-12.9945
ammass	-12.9954
eccita	-12.9956
pascoler	-12.9965
iaaz	-12.9968
perfida	-12.9975
accettat	-12.9985
correva	-12.9989
replicar	-12.9994
soffro	-13.0004
spargera	-13.0018
scors	-13.0037
affermat	-13.004
sollevar	-13.0042
privata	-13.0063
spessor	-13.0065
registra	-13.0069
naan	-13.0071
rallegrer	-13.0095
contempl	-13.0095
stringer	-13.0101
umiliar	-13.0102
pet	-13.0116
rinnov	-13.0117
curar	-13.0143
piantar	-13.0153
schier	-13.0168
allontanar	-13.0179
tremo	-13.0203
rivolgo	-13.0212
bacu	-13.0214
orsa	-13.0224
subb	-13.0239
popolat	-13.024
ttero	-13.025
salat	-13.0252
veloc	-13.0275
mormor	-13.0276
supplicar	-13.0277
rotta	-13.0283
kem	-13.0286
abbond	-13.0289
dovess	-13.0303
faticat	-13.0305
taana	-13.0311
umilier	-13.0322
costruiamo	-13.0341
erge	-13.0362
laodic	-13.0364
ricerc	-13.0383
operator	-13.039
pretes	-13.039
spieg	-13.0395
riposat	-13.0396
penetr	-13.04
marciar	-13.0412
settantacinque	-13.0416
racimol	-13.0419
maltratt	-13.0434
vedut	-13.0438
gradir	-13.0442
giunc	-13.0452
paia	-13.0453
coglie	-13.0461
temera	-13.0463
mostram	-13.0464
giov	-13.0465
compiang	-13.0466
eserci	-13.0474
canà	-13.0482
spaventar	-13.0491
costa	-13.0491
spalli	-13.0503
congiur	-13.0506
gri	-13.0511
cof	-13.0512
cordo	-13.0515
pentir	-13.0516
saziar	-13.0522
risparmier	-13.0525
vello	-13.053
salter	-13.0538
settant	-13.0541
ttài	-13.0546
regger	-13.0547
sveglia	-13.0548
tendi	-13.0551
salendo	-13.0551
impreca	-13.0551
impugna	-13.0573
supp	-13.0576
arad	-13.0579
portasse	-13.0583
leghera	-13.0583
protegg	-13.0584
batteva	-13.0584
portarl	-13.0588
diffic	-13.0597
affligg	-13.0598
porg	-13.06
àrat	-13.0601
accompagnat	-13.0607
attu	-13.0607
compari	-13.0621
assoggett	-13.0648
moss	-13.065
paragon	-13.0651
buf	-13.0653
sprezza	-13.0657
seguita	-13.0659
disgust	-13.0659
annient	-13.066
scellerat	-13.0663
soddisf	-13.0667
serpe	-13.0673
trasfer	-13.0673
ghid	-13.0676
pronunc	-13.0679
scaldar	-13.0682
asciug	-13.0684
efficac	-13.0685
afflui	-13.0685
ammazzat	-13.0685
attribu	-13.0685
cerbiatt	-13.0685
crocicchi	-13.0685
divulga	-13.0685
giavellott	-13.0685
infligger	-13.0685
inflisse	-13.0685
maldicent	-13.0685
rinneghi	-13.0685
sacrifical	-13.0685
schiena	-13.0685
sozzur	-13.0685
zaffir	-13.0685
zaffìr	-13.0685
brull	-13.0685
cespugli	-13.0685
gaudent	-13.0685
immorali	-13.0685
implorar	-13.0685
liturgic	-13.0685
sacrificher	-13.0685
scoraggiar	-13.0685
sfrenat	-13.0685
smarrir	-13.0685
impallidi	-13.0685
professi	-13.0685
sbigottit	-13.0685
agghì	-13.0685
eccezion	-13.0685
languir	-13.0685
maldicenz	-13.0685
sovrasta	-13.0685
amareggiat	-13.0685
mischia	-13.0685
prisc	-13.0685
temperan	-13.0685
seppellisci	-13.0685
purissim	-13.0685
uzzà	-13.0685
gagliard	-13.0685
bersagli	-13.0685
proferisc	-13.0685
sorvegliar	-13.0685
asperger	-13.0685
glorificher	-13.0685
impastat	-13.0685
guf	-13.0685
compiaccio	-13.0685
azrik	-13.0685
cicogn	-13.0685
santificher	-13.0685
associar	-13.0685
tributari	-13.0685
dodicesim	-13.0685
arruola	-13.0685
raccolga	-13.0685
pranz	-13.0685
trafisse	-13.0685
arricchisc	-13.0686
nemb	-13.0686
irritando	-13.0686
spaccher	-13.0686
commerciava	-13.0686
pupill	-13.0686
elnatà	-13.0686
consuetudin	-13.0686
millesettecento	-13.0686
docili	-13.0686
sopprimer	-13.0686
audac	-13.0686
divezzat	-13.0686
estemo	-13.0686
attacchi	-13.0687
pervertit	-13.0687
distrugga	-13.0687
densa	-13.0687
appartat	-13.0687
misterios	-13.0687
interroghi	-13.0687
interpretazion	-13.0687
straripa	-13.0687
ricompense	-13.0687
assicurar	-13.0687
impedisc	-13.0688
incantator	-13.0688
fiacch	-13.0688
material	-13.0688
incider	-13.0688
taccia	-13.0689
imparent	-13.0689
bicchier	-13.0689
costringer	-13.0689
costituisc	-13.0689
disabitat	-13.069
muz	-13.069
tolgo	-13.069
uccidiamo	-13.069
assolv	-13.069
astener	-13.0691
logor	-13.0691
oolib	-13.0692
strugg	-13.0692
corrent	-13.0692
glob	-13.0692
aggiungendo	-13.0692
meraviglios	-13.0692
maacatit	-13.0692
sembianz	-13.0692
specchi	-13.0693
inserit	-13.0693
reputa	-13.0693
sciocch	-13.0694
bèt	-13.0694
asport	-13.0694
scaturire	-13.0694
frig	-13.0695
litigios	-13.0696
stru	-13.0696
rifiutando	-13.0696
ventesim	-13.0697
trasgredisc	-13.0697
cancellar	-13.0697
prediceva	-13.0697
taceva	-13.0698
ghideo	-13.0698
desiderava	-13.0698
coricar	-13.0698
riparar	-13.0698
proveniva	-13.0698
sentiamo	-13.0699
aspettando	-13.07
sfamar	-13.07
pingu	-13.07
ritirava	-13.07
subì	-13.0701
fasce	-13.0701
regge	-13.0702
calcagn	-13.0702
diligente	-13.0703
cambiando	-13.0703
stiere	-13.0705
raggiungeva	-13.0706
conversava	-13.0707
ible	-13.0707
proferit	-13.0707
sgridava	-13.0708
ricevendo	-13.0708
abbandonando	-13.0709
cheres	-13.0709
sfrutta	-13.0709
conducesse	-13.071
azare	-13.0711
ònagr	-13.0711
inaridir	-13.0711
arpi	-13.0711
vigilant	-13.0712
rapisc	-13.0713
mormora	-13.0713
propon	-13.0713
impadronit	-13.0715
trasformat	-13.0715
resident	-13.0716
giungesse	-13.0717
insistette	-13.0719
obbligh	-13.0719
riferiva	-13.072
supplicava	-13.0721
pregiat	-13.0721
premuros	-13.0722
imbarc	-13.0723
sedurr	-13.0724
trasform	-13.0727
circonder	-13.0728
prosciugat	-13.0728
annunziamo	-13.0729
ifica	-13.073
indagar	-13.073
sbrana	-13.0733
cuci	-13.0734
suonator	-13.0735
bastard	-13.0736
patriarc	-13.0736
collocar	-13.0737
gài	-13.0739
scintilla	-13.0744
disturb	-13.0745
favorevol	-13.0749
assume	-13.0749
ammira	-13.075
bruch	-13.0753
accostato	-13.0754
propizia	-13.0757
rinunziar	-13.0757
abort	-13.0761
settantadue	-13.0762
mangiamo	-13.0763
affligger	-13.0764
aspettate	-13.0764
frantumat	-13.0765
incalza	-13.0767
custodiva	-13.077
volgete	-13.0774
attè	-13.0776
consun	-13.0776
riveder	-13.0781
vigoros	-13.0783
llò	-13.0789
presagi	-13.0791
medici	-13.0791
sarè	-13.0792
serrat	-13.08
cazer	-13.0803
adirar	-13.0804
faces	-13.0804
depositat	-13.0807
impadronisc	-13.0808
rivedr	-13.081
accogliete	-13.0817
sabb	-13.082
suggerit	-13.0822
abisa	-13.0827
pente	-13.0828
tigl	-13.0831
spalm	-13.0831
margin	-13.0834
ricav	-13.0837
profumier	-13.0844
zered	-13.0845
frema	-13.0848
disperda	-13.0859
matri	-13.0861
rider	-13.0862
superat	-13.0867
rotolat	-13.0871
mandava	-13.0873
accogliere	-13.0873
produca	-13.0875
baster	-13.0879
costanz	-13.0883
vestiva	-13.0887
dovrest	-13.0887
dissens	-13.089
scongiurar	-13.0895
vincer	-13.0895
rischiara	-13.0896
simè	-13.0903
rientrat	-13.0905
ammis	-13.0905
testard	-13.092
sradicat	-13.0922
potessi	-13.0928
situat	-13.0929
ozios	-13.0931
face	-13.094
disputa	-13.0972
riceva	-13.0978
arbie	-13.0979
topi	-13.0982
preferit	-13.0984
spuntat	-13.1
mamm	-13.101
deform	-13.101
allattan	-13.1013
ragor	-13.1017
zicr	-13.1022
naara	-13.1025
inseguiva	-13.1027
spogliar	-13.103
presentera	-13.103
offrisse	-13.1052
comperat	-13.1064
versera	-13.1065
centonovanta	-13.1071
attenu	-13.1081
attirer	-13.1081
kel	-13.1084
vicinanz	-13.1097
prevals	-13.1108
tirator	-13.1114
balen	-13.1125
abì	-13.1127
formate	-13.114
chiuder	-13.1164
pianger	-13.1167
darme	-13.1168
meritat	-13.118
tuona	-13.1185
disperdev	-13.1188
gustat	-13.119
ratt	-13.1192
maritat	-13.1202
assedian	-13.1203
biti	-13.1204
stancar	-13.1206
sillem	-13.1224
spett	-13.1232
realizzar	-13.1234
gioira	-13.1239
intendi	-13.125
ripudiar	-13.1252
guizzan	-13.1259
attirar	-13.1264
ascoltarl	-13.1266
dedicat	-13.1273
velenos	-13.1285
danz	-13.1298
comprender	-13.1302
apparteng	-13.1313
contamin	-13.1317
opporre	-13.1329
mpati	-13.1366
sort	-13.1373
assediar	-13.1381
liev	-13.1385
obbedir	-13.1403
attir	-13.1405
consoler	-13.141
affaticat	-13.141
concluder	-13.1423
esortar	-13.1426
attraversava	-13.1436
marciat	-13.1442
conferm	-13.1443
incaten	-13.1459
cova	-13.148
considerar	-13.1481
strid	-13.1488
levate	-13.1489
spruzzer	-13.1499
avì	-13.1502
contaminer	-13.1512
cacciator	-13.1517
invocar	-13.1525
ricondott	-13.1534
esporr	-13.1535
eng	-13.1539
ingannat	-13.1544
procuri	-13.1565
scav	-13.1568
provent	-13.1571
erran	-13.1585
distoglier	-13.1589
debit	-13.1593
produc	-13.16
travia	-13.1613
lapidar	-13.1625
gui	-13.1628
incis	-13.1645
perseverat	-13.1669
petti	-13.1674
rta	-13.1677
inciamper	-13.1689
indossat	-13.1708
gemon	-13.1713
resist	-13.1715
divorator	-13.1719
asten	-13.1724
vigilat	-13.1729
procurer	-13.173
cantato	-13.1731
scars	-13.1755
format	-13.1778
fermato	-13.1797
custodisco	-13.1832
ristabilit	-13.184
riport	-13.1841
occorr	-13.1905
bestemmiato	-13.1927
impegnat	-13.1944
interven	-13.1965
consegnarl	-13.1983
stanch	-13.1991
mediat	-13.2002
saron	-13.2015
degnat	-13.2042
colato	-13.2044
scandalizzat	-13.2051
insort	-13.2061
fitt	-13.208
fabbricat	-13.2083
mandarl	-13.2114
mpo	-13.2115
montava	-13.213
trascin	-13.2137
dotto	-13.2143
insegnam	-13.2145
forz	-13.2171
impostor	-13.2172
soffr	-13.2181
?	-13.2185
conduss	-13.2187
affila	-13.2188
legaron	-13.2206
imporr	-13.2236
lott	-13.2238
sultiamo	-13.2254
acceca	-13.2256
difendi	-13.2269
vener	-13.2292
quarantamila	-13.2295
indic	-13.23
glorificar	-13.2304
riscontr	-13.231
trafigge	-13.2318
centosessanta	-13.2353
gioven	-13.2366
impieg	-13.2389
rapin	-13.2403
distruggil	-13.2415
ranco	-13.2454
izr	-13.2463
risuon	-13.2477
precedent	-13.2479
educa	-13.2507
digiunan	-13.2514
corazz	-13.2519
compera	-13.2529
ccesso	-13.2536
tortur	-13.2556
presentat	-13.2558
arsen	-13.2559
spettava	-13.2563
sottrar	-13.257
conveniente	-13.2573
travolger	-13.2582
vampa	-13.2587
scatur	-13.2588
soll	-13.2594
appicc	-13.2598
sorprende	-13.2612
tronco	-13.2615
trasformer	-13.262
tornando	-13.2634
secuzion	-13.2647
trattarl	-13.2654
restitu	-13.2655
vincol	-13.2655
sciocc	-13.2665
prep	-13.2665
comput	-13.267
imprigion	-13.2674
spugna	-13.2681
scandali	-13.2684
buca	-13.2684
ghirland	-13.2685
abbreviat	-13.2685
alleggerisci	-13.2685
espuls	-13.2685
smerald	-13.2685
aggrapp	-13.2685
aggressor	-13.2685
angustie	-13.2685
arrossisca	-13.2685
avvizzit	-13.2685
bakbuk	-13.2685
caratter	-13.2685
corrispondent	-13.2685
diciannove	-13.2685
fiducios	-13.2685
fraudolent	-13.2685
impaurit	-13.2685
incessante	-13.2685
lampeggia	-13.2685
luminos	-13.2685
mugghi	-13.2685
offensiv	-13.2685
panfili	-13.2685
quattordicesim	-13.2685
raddrizzat	-13.2685
ragguardevol	-13.2685
sacrificat	-13.2685
sbarrat	-13.2685
scassina	-13.2685
sonnecchia	-13.2685
accarezza	-13.2685
grazios	-13.2685
incrocia	-13.2685
piraton	-13.2685
schiaffeggia	-13.2685
scultur	-13.2685
sfracellat	-13.2685
cucciol	-13.2685
dubbi	-13.2685
torrenzial	-13.2685
intens	-13.2685
fenic	-13.2685
infierir	-13.2685
sguainer	-13.2685
padiglion	-13.2685
sussult	-13.2685
derideva	-13.2685
imbalsama	-13.2685
raggiant	-13.2685
abitudin	-13.2685
meritevol	-13.2685
atteggia	-13.2685
zampogn	-13.2685
succhia	-13.2685
molester	-13.2685
gronda	-13.2685
impossess	-13.2685
angheri	-13.2685
ravviv	-13.2685
stipuler	-13.2685
vertigin	-13.2685
beker	-13.2685
tratteng	-13.2685
sognator	-13.2685
interrogher	-13.2685
perpless	-13.2685
rinunc	-13.2685
accorreva	-13.2685
divelt	-13.2685
accontent	-13.2685
veget	-13.2685
attinse	-13.2685
correggi	-13.2686
disponeva	-13.2686
vicendevol	-13.2686
attrae	-13.2686
accresciut	-13.2686
trecc	-13.2686
proconsol	-13.2686
rinchiude	-13.2686
imposi	-13.2686
ispezion	-13.2686
furios	-13.2686
bastion	-13.2686
ebus	-13.2686
ostacol	-13.2686
lavandai	-13.2686
esasperat	-13.2686
akko	-13.2686
lisci	-13.2686
orribil	-13.2687
pungol	-13.2687
trafficava	-13.2687
indipendente	-13.2687
portinai	-13.2687
gravos	-13.2687
scredit	-13.2687
peniten	-13.2687
estrarr	-13.2687
spazzer	-13.2687
aiuol	-13.2687
autore	-13.2687
predestinat	-13.2687
ingrassat	-13.2687
spelonc	-13.2688
mmed	-13.2688
immobil	-13.2688
segretari	-13.2688
esortando	-13.2688
arrostit	-13.2688
briciol	-13.2688
affannate	-13.2688
aramaic	-13.2688
cicatri	-13.2688
trecentosessanta	-13.2689
piantagion	-13.2689
arricchit	-13.2689
iaak	-13.2689
ingoia	-13.2689
agricoltor	-13.2689
immortal	-13.269
espugnar	-13.269
architrav	-13.269
libidin	-13.269
comunicato	-13.269
precedut	-13.269
iniziativ	-13.269
iekam	-13.269
impet	-13.269
indicando	-13.269
demolisc	-13.2691
ridurl	-13.2691
risaner	-13.2692
assediava	-13.2693
diroccat	-13.2693
spossat	-13.2693
spende	-13.2694
fracass	-13.2694
pascolava	-13.2695
mecola	-13.2695
continen	-13.2696
consigliate	-13.2696
succhier	-13.2696
ardeva	-13.2696
commerciant	-13.2696
austr	-13.2696
induc	-13.2696
legacci	-13.2697
alfe	-13.2698
giacch	-13.2699
spiegher	-13.2699
ergeva	-13.2699
compos	-13.2699
concedendo	-13.27
zocar	-13.27
maledica	-13.2703
obbediva	-13.2703
dipendeva	-13.2704
assegnando	-13.2705
anticrist	-13.2708
cinquantamila	-13.2708
sprofonda	-13.2709
afferrato	-13.2709
egual	-13.2711
respinse	-13.2712
raccoglieva	-13.2715
innalzava	-13.2717
incostant	-13.2718
pasci	-13.2718
ferenz	-13.2719
risvegli	-13.2719
oltrepassar	-13.272
rigettar	-13.2721
onam	-13.2722
depredat	-13.2723
immolava	-13.2723
ovu	-13.2723
bufal	-13.2724
pastur	-13.2725
troviamo	-13.2725
poder	-13.2726
computat	-13.2726
indurre	-13.2728
avvicinato	-13.2728
percorrete	-13.2728
realizzat	-13.2728
delicat	-13.2729
saccheggiator	-13.2729
domandando	-13.2729
accusava	-13.2731
magn	-13.2732
accostava	-13.2733
riportava	-13.2734
lavava	-13.2734
conquistator	-13.2735
fuorch	-13.2736
confidava	-13.2737
marciava	-13.2737
cingete	-13.2738
conferito	-13.2741
mettesse	-13.2741
gonfiat	-13.2742
tribola	-13.2742
traviament	-13.2742
intimi	-13.2743
aspr	-13.2744
nascondete	-13.2745
contava	-13.2745
ubriachezz	-13.2748
seminava	-13.2748
ristar	-13.2749
attien	-13.275
preparava	-13.2753
predicava	-13.2754
allevat	-13.2755
presentava	-13.2757
catenell	-13.2758
rubin	-13.2764
orpore	-13.2765
versava	-13.2765
grate	-13.2766
tebe	-13.2768
conforme	-13.2768
confonder	-13.277
zuf	-13.277
peccatric	-13.2772
tremava	-13.2775
coopera	-13.2777
viveva	-13.2778
tavolett	-13.2781
esaltar	-13.2782
chiamando	-13.2786
ricostruisc	-13.2789
duratur	-13.2789
consuet	-13.2791
miliar	-13.2792
affrontar	-13.2799
gheder	-13.2799
issia	-13.2801
spinse	-13.2804
espong	-13.2806
sdegnaron	-13.2807
ghin	-13.2817
aiutant	-13.2822
voltando	-13.2825
sacrosant	-13.283
delusion	-13.2833
servisse	-13.2833
applicat	-13.2833
manterr	-13.2834
parlass	-13.2836
amabil	-13.2839
torturat	-13.2845
innestat	-13.285
conteneva	-13.2851
imna	-13.2852
angolar	-13.2855
cattur	-13.2864
rimanent	-13.2868
càr	-13.2869
ponent	-13.2874
epafr	-13.2875
arald	-13.2882
leviat	-13.289
mentitor	-13.2906
guadagnat	-13.291
elargi	-13.2938
aspid	-13.2943
proge	-13.2956
berat	-13.2958
dividere	-13.2969
sesso	-13.2972
grandios	-13.2974
tesorier	-13.2976
aprite	-13.2981
ripens	-13.2981
indicat	-13.2982
favorit	-13.2987
conducil	-13.2997
trascinar	-13.3003
calcolat	-13.3018
rtan	-13.3022
isolat	-13.3025
oscurat	-13.3026
ibni	-13.3029
accorrer	-13.3035
proseguir	-13.306
ghemar	-13.307
riguardant	-13.3075
ruggent	-13.3094
constatar	-13.3095
annunziatel	-13.31
impiant	-13.3101
diligen	-13.3102
cibar	-13.3109
gioiva	-13.3125
pronunzier	-13.3126
divampat	-13.3133
seccat	-13.3141
giacere	-13.3142
intima	-13.3153
catt	-13.3166
preservat	-13.3173
svanit	-13.3177
ammess	-13.3183
goz	-13.3185
confessar	-13.3188
scosta	-13.3189
banc	-13.3194
clement	-13.3195
ricoprir	-13.3201
tripudi	-13.3205
sata	-13.3207
mettetel	-13.3216
persist	-13.322
facev	-13.3222
citar	-13.3233
preannunzi	-13.324
scaltr	-13.325
appar	-13.3259
scagliat	-13.3271
ibsa	-13.3281
continuar	-13.3293
indurir	-13.3312
ripagat	-13.3313
dicazion	-13.3337
riterr	-13.3337
elenc	-13.3344
bramosi	-13.3357
spaventos	-13.3362
restaurar	-13.3372
ricercher	-13.338
intell	-13.338
spazios	-13.3402
turb	-13.3412
libi	-13.3413
sortit	-13.3413
deportar	-13.3419
soccorre	-13.3477
soffocat	-13.3478
aghit	-13.3478
aggiran	-13.3495
addu	-13.3517
partecipat	-13.3568
depositar	-13.3578
occuper	-13.3584
stracciar	-13.359
trafigger	-13.3591
vvia	-13.3598
lapidarl	-13.3599
zek	-13.3622
dimorant	-13.3633
corregger	-13.3634
castigar	-13.3664
incontrar	-13.3677
compost	-13.369
annientarl	-13.3749
provoc	-13.3752
càn	-13.3756
trentasette	-13.3757
riporter	-13.3784
testimonian	-13.3786
prover	-13.3793
salmon	-13.3816
dormit	-13.3818
fornit	-13.3819
demoli	-13.3819
gemo	-13.3822
distint	-13.3843
allontanars	-13.3846
rimise	-13.3847
pesato	-13.3848
fezione	-13.3867
confermer	-13.3933
preceder	-13.3939
mobil	-13.3949
azani	-13.3954
achin	-13.3963
eccit	-13.397
indag	-13.4029
posat	-13.403
celle	-13.404
disobbedient	-13.4047
vas	-13.4058
macchin	-13.4063
medit	-13.4121
induri	-13.4126
conclud	-13.4129
dissimula	-13.4133
sussist	-13.4154
trasportaron	-13.4188
settecentotrenta	-13.4202
rifletter	-13.4203
spartire	-13.4211
gravam	-13.4217
partorir	-13.4233
togliendo	-13.4264
differen	-13.4294
insultar	-13.4295
nutr	-13.4316
santificar	-13.432
spinger	-13.4323
vigil	-13.4349
pazient	-13.4358
succeder	-13.436
preval	-13.4372
governer	-13.4386
trentanove	-13.4402
kam	-13.4402
riconciliar	-13.442
procur	-13.4551
smette	-13.4556
sibm	-13.4581
sedut	-13.4606
ademp	-13.4613
protest	-13.4615
contaminarl	-13.4619
visiter	-13.4621
zapp	-13.4627
innalzer	-13.4629
auguri	-13.4671
»	-13.4681
ievo	-13.4686
piu	-13.4686
torce	-13.4694
musica	-13.4702
angustia	-13.4703
portiamo	-13.471
arrest	-13.4723
sgorgar	-13.4724
meravigli	-13.4736
retribu	-13.4743
riz	-13.4743
incontrera	-13.4821
sradica	-13.4825
sbran	-13.4837
oltrepassan	-13.4853
sopravviv	-13.4854
indegn	-13.4855
eder	-13.4865
annientar	-13.4866
stirp	-13.4875
tavol	-13.4881
affi	-13.4883
impugn	-13.4901
illumin	-13.4918
pèr	-13.4921
genit	-13.4928
dissolv	-13.4939
profetizz	-13.4946
deposi	-13.4953
spost	-13.496
calca	-13.4972
argine	-13.4977
rumor	-13.4978
trentamila	-13.4991
cadra	-13.4996
assist	-13.4997
nascond	-13.5005
dirige	-13.5008
ravved	-13.501
livid	-13.501
manc	-13.5026
calmar	-13.5026
tumul	-13.5027
stension	-13.5036
ottant	-13.5038
lzati	-13.5042
immondezz	-13.5045
nacat	-13.5045
netan	-13.5054
biam	-13.5071
legu	-13.5087
rifiuter	-13.5099
calzo	-13.5103
copra	-13.5103
sciam	-13.5114
agì	-13.5116
venerat	-13.5118
istitu	-13.5122
vampe	-13.5124
esplor	-13.5141
plasm	-13.5145
riscald	-13.5145
eggiant	-13.5147
tirar	-13.5153
citt	-13.5162
design	-13.5162
cosce	-13.5167
sovrabbonda	-13.5168
ugu	-13.5173
curava	-13.5175
valga	-13.5175
ostruit	-13.5176
torbid	-13.5176
collabora	-13.5176
ttì	-13.5179
estrasse	-13.5179
compars	-13.5181
attrezz	-13.5183
struiva	-13.5183
presun	-13.5184
accolgo	-13.5184
articola	-13.5184
ulam	-13.5184
introduc	-13.5185
respons	-13.5185
privilegiat	-13.5185
rispettiv	-13.5185
smarrisc	-13.5185
legisla	-13.5185
scalpit	-13.5185
scrupolos	-13.5185
sopravvisse	-13.5185
abbruti	-13.5185
abiezerit	-13.5185
affoga	-13.5185
ambasciator	-13.5185
burron	-13.5185
circoncidete	-13.5185
diciottesim	-13.5185
fannullon	-13.5185
francament	-13.5185
infieriva	-13.5185
insensibil	-13.5185
kenizzit	-13.5185
lusinga	-13.5185
nauseat	-13.5185
offerent	-13.5185
paralizz	-13.5185
prostituiv	-13.5185
quadrangolar	-13.5185
rosseggia	-13.5185
sbalordit	-13.5185
sfrontat	-13.5185
sottrasse	-13.5185
spavald	-13.5185
successiv	-13.5185
sussurro	-13.5185
variopint	-13.5185
brulic	-13.5185
domicili	-13.5185
fornicator	-13.5185
iaflet	-13.5185
immacolat	-13.5185
impaurir	-13.5185
impiccar	-13.5185
introdurl	-13.5185
progredi	-13.5185
ridusse	-13.5185
rinfrancar	-13.5185
schiant	-13.5185
scoraggiat	-13.5185
similitudin	-13.5185
sradicher	-13.5185
sussurra	-13.5185
abbrustolit	-13.5185
appartament	-13.5185
crisòlit	-13.5185
effimer	-13.5185
maschera	-13.5185
prostituisc	-13.5185
virgult	-13.5185
arbust	-13.5185
illustr	-13.5185
macèdon	-13.5185
spicciol	-13.5185
trucidat	-13.5185
gigant	-13.5185
buttat	-13.5185
inasprit	-13.5185
stimolat	-13.5185
stroncat	-13.5185
ringhi	-13.5185
inneggia	-13.5185
riducendol	-13.5185
reclus	-13.5185
convinzion	-13.5185
fustiga	-13.5185
sopraggiunger	-13.5185
sparvier	-13.5185
ammucchia	-13.5185
korachit	-13.5185
primaticci	-13.5185
coltiver	-13.5185
sfasciar	-13.5185
angaria	-13.5185
nergal	-13.5185
dirigi	-13.5185
esitazion	-13.5185
accorgi	-13.5185
appianat	-13.5185
illusion	-13.5185
sopraggiunt	-13.5185
vaticin	-13.5185
alleggerir	-13.5185
vescov	-13.5185
sconvolgi	-13.5185
insipient	-13.5185
spodest	-13.5185
rodusse	-13.5185
sbandat	-13.5185
possedia	-13.5185
immediata	-13.5185
vettovagli	-13.5185
togarm	-13.5185
diriga	-13.5186
rispettat	-13.5186
imponent	-13.5186
parallel	-13.5186
aderent	-13.5186
sosteneva	-13.5186
agghi	-13.5186
inservient	-13.5186
minaccios	-13.5186
campestr	-13.5186
comunicata	-13.5186
sosterr	-13.5186
complic	-13.5186
nekod	-13.5187
bilga	-13.5187
vibra	-13.5187
inquilin	-13.5187
fortissim	-13.5187
studia	-13.5187
soddisfazion	-13.5187
azub	-13.5187
iotba	-13.5187
legittim	-13.5187
ignud	-13.5187
nìc	-13.5188
garanzi	-13.5188
netofatit	-13.5188
speng	-13.5188
racchiu	-13.5188
ghermi	-13.5188
dirigendo	-13.5188
riferendo	-13.5188
nsuetudin	-13.5188
inebrier	-13.5188
adatta	-13.5188
rigid	-13.5188
nebai	-13.5188
incombe	-13.5189
ulul	-13.5189
fastidi	-13.5189
pasciut	-13.5189
esortava	-13.519
volatil	-13.519
abbeveratoi	-13.519
scongiurava	-13.519
denunc	-13.519
ricondurl	-13.519
sospint	-13.519
assicurer	-13.519
trebbie	-13.5191
scioglietel	-13.5191
asmon	-13.5191
otteng	-13.5191
divertir	-13.5191
scapp	-13.5191
pulc	-13.5192
dilania	-13.5192
asbel	-13.5192
tremilaseicento	-13.5192
zelant	-13.5192
enormi	-13.5193
affaccia	-13.5193
sicomor	-13.5193
baalat	-13.5193
misma	-13.5193
ripuli	-13.5193
angoscios	-13.5193
addestrat	-13.5193
bunn	-13.5194
riserb	-13.5194
espression	-13.5194
identic	-13.5194
ristor	-13.5194
distribuiss	-13.5194
immerger	-13.5194
temerl	-13.5194
ritenete	-13.5194
fremit	-13.5195
rallegriamo	-13.5195
risolv	-13.5195
aggiungeva	-13.5195
prepariamo	-13.5196
castell	-13.5196
prescelt	-13.5196
rifulg	-13.5196
rattristar	-13.5196
rapid	-13.5196
spruzzat	-13.5197
distruggendo	-13.5197
riscaldar	-13.5197
folgorant	-13.5197
roghel	-13.5198
cardin	-13.5198
compatt	-13.5198
mantenete	-13.5198
riflettete	-13.5198
suddett	-13.5198
dramm	-13.5199
rifonder	-13.5199
bacer	-13.5199
moviment	-13.5199
autorizza	-13.5199
passeggiava	-13.52
conficc	-13.52
melchi	-13.5201
caccer	-13.5201
offender	-13.5201
transit	-13.5201
storce	-13.5201
zu	-13.5202
funest	-13.5202
confuta	-13.5202
avvolgeva	-13.5203
insuperbit	-13.5203
organizzat	-13.5203
rondine	-13.5204
stordit	-13.5204
riprenda	-13.5204
guardarob	-13.5205
rimetteva	-13.5206
affannar	-13.5206
meravigliava	-13.5207
invasor	-13.5207
profug	-13.5208
distruggeva	-13.5208
scuotendo	-13.5208
scacciando	-13.5208
colta	-13.5208
scostate	-13.5209
innamorat	-13.521
danzava	-13.521
serber	-13.521
proporzionat	-13.521
sbattut	-13.5211
invasion	-13.5211
trasferit	-13.5211
sbranar	-13.5211
commuover	-13.5212
sbuff	-13.5213
accompagnava	-13.5214
cusan	-13.5214
spaccia	-13.5214
falciat	-13.5215
intendeva	-13.5215
gettiamo	-13.5216
frit	-13.5217
riscaldat	-13.5217
assaliva	-13.5218
assisteva	-13.5219
traversat	-13.5219
arvad	-13.5219
cub	-13.522
constatat	-13.522
eduto	-13.522
tragg	-13.5221
somigliava	-13.5221
gonfiar	-13.5222
logorat	-13.5222
presentiamo	-13.5222
mietut	-13.5223
scorta	-13.5223
contrista	-13.5223
scacciava	-13.5224
temendo	-13.5224
colpendo	-13.5225
rifiutava	-13.5225
costruiva	-13.5226
giungendo	-13.5228
adott	-13.5228
asna	-13.5229
proporzion	-13.5229
manu	-13.5229
corrido	-13.5231
intrapres	-13.5231
soffriva	-13.5231
trasgredir	-13.5232
investiga	-13.5232
diventasse	-13.5232
cattu	-13.5233
unanimi	-13.5233
piacevol	-13.5233
imbatt	-13.5233
vinse	-13.5234
affondat	-13.5235
proclamava	-13.5236
aiutarl	-13.5238
acoch	-13.5238
costant	-13.5239
intrecciat	-13.5239
rinzi	-13.5243
invocava	-13.5243
nacà	-13.5244
consumava	-13.5244
abiett	-13.5245
allieter	-13.5246
assoggettat	-13.5246
spiegava	-13.5247
caricava	-13.525
disgustat	-13.525
rimanesse	-13.5251
tremit	-13.5252
fontan	-13.5253
avvint	-13.5254
important	-13.5255
dispiacer	-13.5256
setar	-13.5257
ricercava	-13.5257
sparit	-13.5259
semira	-13.5259
adorava	-13.526
carsa	-13.526
indurisc	-13.5261
rèset	-13.5261
malchiel	-13.5262
uccideva	-13.5263
achitu	-13.5263
agitav	-13.5264
dissemin	-13.5266
divorava	-13.5266
entrasse	-13.5268
asèn	-13.5268
intrig	-13.5272
mperato	-13.5272
ioadda	-13.5273
scorti	-13.5274
fasciat	-13.5278
invader	-13.5279
sostengo	-13.5279
giudicava	-13.5281
abitasse	-13.5282
dignitos	-13.5286
disperd	-13.5286
lacerat	-13.5288
sopravviver	-13.5288
stendendo	-13.5289
oltrepassat	-13.5289
bocci	-13.529
sopravve	-13.5291
tormentav	-13.5294
beneficar	-13.5295
vomitat	-13.5298
conness	-13.5306
milion	-13.5307
sottoporr	-13.5307
ondeggia	-13.5308
canalett	-13.5312
rimuove	-13.5316
vivesse	-13.5318
astien	-13.5324
frang	-13.5324
liberava	-13.5325
recise	-13.5326
riceveva	-13.5328
attinger	-13.5331
riscuot	-13.5337
ospitat	-13.5337
melli	-13.5354
ascoltasse	-13.5355
piastr	-13.5356
espress	-13.5361
raccomandazion	-13.5363
rimat	-13.5365
riconquista	-13.5378
vertic	-13.5379
avveniva	-13.5382
cedim	-13.5382
pudor	-13.5383
ppongo	-13.5394
espon	-13.5403
ritener	-13.5404
imperfett	-13.5407
giuntur	-13.5409
pilot	-13.5411
compiva	-13.5418
trascurar	-13.5423
derivan	-13.5424
selv	-13.543
riunisc	-13.5433
immondizi	-13.5433
dissolver	-13.5437
risaput	-13.5443
prepoten	-13.5452
munit	-13.5458
lussur	-13.5463
frodat	-13.5469
indugiar	-13.5469
pars	-13.547
guast	-13.5478
amasa	-13.5485
annovera	-13.5491
fogher	-13.5493
benefic	-13.5494
ritenn	-13.5494
sorprender	-13.5509
saalb	-13.5515
gettatel	-13.5527
invidie	-13.5529
fortificar	-13.5544
asportat	-13.5548
ubriacon	-13.5552
sorteggi	-13.5563
esiliat	-13.5567
univa	-13.5571
bart	-13.5582
atterr	-13.559
impotent	-13.5599
rinfacc	-13.5607
trasmette	-13.5613
racimolat	-13.5615
condottier	-13.5616
fabbricar	-13.5642
fèl	-13.5644
ammaestrat	-13.5645
versando	-13.565
abigà	-13.5652
depred	-13.5657
annullat	-13.5657
impugnat	-13.5662
kitt	-13.5663
zrachi	-13.567
angustiat	-13.5691
festant	-13.5707
realizzer	-13.5715
rruzion	-13.5727
invidiar	-13.5774
preservar	-13.5776
fiorit	-13.5788
ripagh	-13.5792
giungera	-13.58
fruttet	-13.5806
digiuner	-13.5825
tormentar	-13.5841
sussister	-13.5854
cchiere	-13.5856
scade	-13.5885
stituire	-13.5887
provveder	-13.5899
avverat	-13.5901
aderir	-13.5924
ammassera	-13.5925
inghiottir	-13.5948
orri	-13.5953
levata	-13.5962
conteng	-13.5974
lèt	-13.6013
ificat	-13.6019
ingannator	-13.6045
allontanart	-13.6082
bidan	-13.6087
fortunat	-13.6096
scorra	-13.6109
splende	-13.612
mormorat	-13.6134
soppress	-13.6136
centosettanta	-13.6149
divert	-13.6175
sgorgan	-13.6182
purifich	-13.6198
perfid	-13.6205
assegner	-13.6211
moltiplicar	-13.6217
attest	-13.622
scaver	-13.6224
suscitat	-13.6247
visit	-13.6248
benediss	-13.6255
glorific	-13.6291
scolpir	-13.6316
bestemmiator	-13.6321
stiate	-13.6362
espor	-13.6409
germogliat	-13.6555
berit	-13.6561
compira	-13.6583
sellat	-13.6584
vantars	-13.6585
ripres	-13.6614
genealogic	-13.6616
caricher	-13.6625
deporter	-13.6625
inaugur	-13.6648
travolg	-13.6705
residenz	-13.6709
tess	-13.6716
vagan	-13.6769
illuminat	-13.6772
duemilaseicento	-13.6783
investir	-13.6788
arrende	-13.6816
riedific	-13.6817
favorir	-13.6817
duemiladuecento	-13.6842
splendeva	-13.6858
tradit	-13.6891
remato	-13.694
bab	-13.6954
staccat	-13.6969
concim	-13.6975
catena	-13.7009
amminadà	-13.7064
frem	-13.7097
bosch	-13.7116
narrat	-13.7116
schernisc	-13.7122
attuar	-13.7164
discut	-13.7215
confermat	-13.7235
vomer	-13.728
ombe	-13.7303
svergogn	-13.733
barach	-13.7356
tristi	-13.7372
augura	-13.7386
guizz	-13.7424
nascon	-13.7436
annull	-13.7443
realizzarl	-13.7454
accumul	-13.7462
potif	-13.7474
accus	-13.7501
assen	-13.7514
girar	-13.7517
àtir	-13.7527
rafforzer	-13.7544
ascoltat	-13.7551
stacchi	-13.7574
risplend	-13.7602
evidente	-13.7613
acz	-13.7623
desideros	-13.7676
salpar	-13.7722
rivol	-13.7736
nascos	-13.7792
abbevera	-13.7824
clemen	-13.7855
trasciner	-13.7859
sgorga	-13.7875
broni	-13.7882
disprezzer	-13.7882
calar	-13.7905
ammaestra	-13.7923
ruggi	-13.7928
squadra	-13.7937
calunni	-13.8015
"	-13.803
costerna	-13.8033
ngue	-13.8041
fiacca	-13.8059
rischiarar	-13.8074
riconobb	-13.8087
risied	-13.8113
ricò	-13.8114
ghè	-13.8151
staccar	-13.8169
suggeri	-13.8171
}	-15.3518
]	-16.2593
0	-16.2594
8	-16.2595
7	-16.2596
5	-16.2597
4	-16.2598
3	-16.2599
)	-16.26
2	-16.2601
6	-16.2602
1	-16.2603
!	-16.2604
'	-16.2605
