<pad>	0
</s>	0
<unk>	0
.	-3.51366
▁	-3.55687
ा	-3.95315
,	-4.08712
े	-4.27118
त	-4.3167
ी	-4.38309
ं	-4.56999
▁आहे	-4.58778
क	-4.59529
र	-4.72264
न	-4.76348
▁आणि	-4.76571
च्या	-4.76674
ल	-4.79374
व	-4.86343
म	-4.99727
▁या	-5.03777
ला	-5.05403
य	-5.08452
ो	-5.0866
च	-5.14161
ड	-5.15305
स	-5.17285
चा	-5.20874
ची	-5.21214
ि	-5.26197
प	-5.27441
चे	-5.41642
ात	-5.44877
्	-5.45041
ज	-5.5033
ण	-5.5098
ू	-5.52202
▁क	-5.53049
ही	-5.53696
्या	-5.55977
ने	-5.56144
▁अ	-5.57635
मध्ये	-5.58204
ग	-5.63239
ु	-5.64707
द	-5.64753
ित	-5.68454
्य	-5.68966
▁आ	-5.71547
-	-5.71897
ले	-5.72729
▁स	-5.72932
▁त्या	-5.73255
▁कोरोना	-5.74065
▁न	-5.75008
ट	-5.75399
वर	-5.75409
ब	-5.75732
ह	-5.77932
▁ज	-5.78059
ली	-5.78979
▁आहेत	-5.79816
श	-5.82102
्र	-5.82467
िक	-5.84202
ना	-5.85684
▁ब	-5.89026
वा	-5.91032
साठी	-5.91364
▁प	-5.91646
ळ	-5.94008
▁नाही	-5.96617
ील	-5.97376
ल्या	-6.0008
▁म	-6.00345
चं	-6.04397
▁व	-6.07054
▁प्र	-6.09871
ून	-6.11317
▁हे	-6.11739
ष	-6.13851
ध	-6.13946
)	-6.16506
ता	-6.16515
▁लस	-6.22545
र्	-6.23492
▁एक	-6.24958
ॅ	-6.25595
शी	-6.2573
▁ते	-6.25776
मुळे	-6.29099
▁(	-6.29152
व्ह	-6.30647
▁तर	-6.31245
ाय	-6.3174
▁किंवा	-6.31928
थ	-6.3299
का	-6.34944
▁द	-6.36574
▁आरोग्य	-6.36749
▁काही	-6.37108
ख	-6.37957
▁उ	-6.38366
?	-6.40402
▁"	-6.4128
▁यांनी	-6.41369
▁ग	-6.41701
री	-6.42546
▁ह	-6.43221
▁करण्यात	-6.45143
ाच्या	-6.45466
▁नि	-6.46452
▁श	-6.46687
▁कमी	-6.47295
घ	-6.47673
▁सर्व	-6.48947
▁की	-6.50112
▁हा	-6.51347
▁वि	-6.51515
्स	-6.51912
▁रुग्ण	-6.51953
▁लशी	-6.54398
▁सं	-6.54446
▁र	-6.54472
▁पा	-6.54495
ई	-6.55152
रा	-6.55901
-19	-6.57216
▁असं	-6.57266
▁विषाणू	-6.57325
▁केली	-6.57892
▁सा	-6.59214
लं	-6.59384
ांना	-6.60603
फ	-6.61618
▁पण	-6.63965
▁इ	-6.64146
त्र	-6.65318
▁ज्या	-6.66723
ती	-6.66807
▁वापर	-6.67994
पासून	-6.68118
▁ही	-6.68624
▁करत	-6.69921
▁का	-6.6997
▁अस	-6.70361
▁संसर्ग	-6.71096
ते	-6.71969
ंड	-6.7311
0	-6.75082
▁आले	-6.75508
पर्यंत	-6.75527
▁मा	-6.7622
▁सरकार	-6.76737
ठ	-6.78346
▁होते	-6.79409
ार	-6.80452
▁येत	-6.80714
▁सुरू	-6.80974
भ	-6.81603
▁केले	-6.81998
झ	-6.82077
ंग	-6.82188
'	-6.82372
ांमध्ये	-6.82576
▁राज्य	-6.83436
▁त	-6.83468
▁करोना	-6.83633
ाला	-6.84512
▁डॉ	-6.84774
कार	-6.85179
वि	-6.86202
▁2	-6.86311
▁कोव्हिड	-6.87541
नंतर	-6.88669
स्त	-6.89726
▁काम	-6.89756
▁फ	-6.89873
णे	-6.90357
1	-6.90562
▁बंद	-6.90595
ातील	-6.91093
▁भ	-6.91609
▁माहिती	-6.9185
कडे	-6.92113
▁लसीकरण	-6.92291
▁केंद्र	-6.92613
िन	-6.92928
ांनी	-6.93723
▁ऑक्सिजन	-6.94255
▁इतर	-6.94432
ाने	-6.95121
▁देश	-6.9517
▁जास्त	-6.95374
पा	-6.97079
सा	-6.97109
▁अनेक	-6.97644
▁होती	-6.98088
▁होता	-6.99206
▁आली	-6.9975
अ	-6.99822
तील	-7.00262
▁जात	-7.00566
्व	-7.01189
▁अधिक	-7.02475
▁केला	-7.02543
▁असलेल्या	-7.02545
िल	-7.03274
ाचा	-7.03758
ेट	-7.04009
▁'	-7.0402
पेक्षा	-7.0438
▁वाढ	-7.04396
▁हात	-7.0451
ांच्या	-7.052
5	-7.05573
▁करण्यासाठी	-7.05865
▁1	-7.06879
2	-7.0701
्ट	-7.07169
▁होत	-7.07203
▁मृत्यू	-7.07395
ंना	-7.07701
▁एका	-7.08118
▁काय	-7.08769
णार	-7.10302
ण्यासाठी	-7.10391
ाची	-7.10464
िंग	-7.1048
▁उपचार	-7.10503
▁ला	-7.11763
▁दु	-7.12027
नी	-7.12439
वी	-7.12998
ावर	-7.13085
से	-7.13115
▁तयार	-7.13141
▁करण्या	-7.13337
ंचा	-7.13754
▁को	-7.13804
▁झाला	-7.13849
टी	-7.13877
C	-7.13902
▁वा	-7.14715
▁झाल्या	-7.14815
▁झाले	-7.14879
▁झाली	-7.15126
▁चाचणी	-7.16235
ण्यात	-7.17173
ासाठी	-7.18215
▁आजार	-7.18283
▁व्यक्ती	-7.19888
ेल	-7.20163
▁दोन	-7.20258
I	-7.21691
वे	-7.21691
डी	-7.21795
ै	-7.21898
स्ट	-7.22049
ांत	-7.22313
▁त्यांच्या	-7.22587
िया	-7.2277
हा	-7.23025
▁ट	-7.23811
कडून	-7.23826
▁औषध	-7.24002
3	-7.2441
▁असे	-7.24416
▁व्हायरस	-7.24428
णं	-7.24477
▁ख	-7.24685
▁म्हणून	-7.24746
▁सो	-7.24855
e	-7.24856
8	-7.25049
▁लॉकडाऊन	-7.2507
▁घेत	-7.2561
▁जे	-7.25828
▁राज्यात	-7.25839
▁ए	-7.26422
▁COVID	-7.27034
▁असेल	-7.27614
दा	-7.27681
▁सु	-7.27775
▁लोकां	-7.27898
ृत	-7.2814
▁झालेल्या	-7.28423
ंद	-7.28575
▁च	-7.28617
जी	-7.28688
▁अशा	-7.29177
मधील	-7.29946
ेस	-7.30059
▁संख्या	-7.3038
4	-7.30432
▁दिवस	-7.31009
ास	-7.31124
7	-7.31248
▁लक्ष	-7.31391
गा	-7.314
▁करून	-7.31609
▁मार्च	-7.31734
प्र	-7.31887
▁मान	-7.3189
न्स	-7.32308
▁दिली	-7.32431
▁यांच्या	-7.32586
ढ	-7.32589
▁स्व	-7.32623
▁केल्या	-7.33128
▁ने	-7.33487
न्	-7.33527
▁कारण	-7.33543
नुसार	-7.33957
▁लोक	-7.3438
ंट	-7.34412
ांची	-7.34905
▁आता	-7.3493
▁परिस्थिती	-7.35475
▁होऊ	-7.35475
6	-7.35529
आ	-7.35746
▁उपलब्ध	-7.36193
▁देण्यात	-7.36837
▁गेल्या	-7.3697
नं	-7.37307
▁परिणाम	-7.37399
णाऱ्या	-7.37833
:	-7.38026
▁टक्के	-7.38132
▁त्यांना	-7.38347
मान	-7.38507
सं	-7.3851
ाचे	-7.38765
ेश	-7.38848
ुक	-7.38991
बाबत	-7.39339
▁म्हटलं	-7.39612
▁म्हणजे	-7.39615
▁आपल्या	-7.39781
र्स	-7.40272
स्	-7.41177
▁मात्र	-7.41626
▁म्हणाले	-7.41877
२	-7.41898
कर	-7.42394
ांवर	-7.42429
िट	-7.42643
▁केलं	-7.42919
णी	-7.43194
▁हजार	-7.43673
▁ध	-7.43713
▁आला	-7.43787
a	-7.43927
E	-7.43927
▁वेळ	-7.44242
▁त्यामुळे	-7.44423
▁करा	-7.44438
S	-7.44447
▁घेण्या	-7.44719
▁करणे	-7.4527
रो	-7.45372
ंत	-7.45491
मिळ	-7.46036
इ	-7.46395
o	-7.46555
▁आम्ही	-7.46555
▁असल्याच	-7.46833
▁गरज	-7.47099
▁अशी	-7.47337
▁असा	-7.47557
▁2020	-7.47626
▁एप्रिल	-7.47896
▁च्या	-7.48187
▁पुर	-7.48207
▁त्यांनी	-7.48482
%	-7.49255
िस	-7.49824
र्म	-7.49979
▁१	-7.50499
▁तरी	-7.50745
▁सह	-7.50768
▁डोस	-7.5119
▁ह्या	-7.51274
▁असून	-7.51307
R	-7.51468
▁मोठ्या	-7.51748
▁4	-7.51837
▁खा	-7.52052
ंची	-7.52099
लो	-7.52121
A	-7.5231
▁रुग्णालय	-7.52563
४	-7.5316
▁पड	-7.5332
▁शकतो	-7.53344
स्थ	-7.53397
ीय	-7.53566
▁3	-7.53777
▁पर	-7.53877
▁असल्याचं	-7.53967
त्त	-7.53972
ंनी	-7.54173
ोज	-7.54481
9	-7.54599
०	-7.54715
▁होतं	-7.5479
ेन	-7.54967
शा	-7.5518
▁सांगतात	-7.55283
के	-7.55455
ळी	-7.55639
▁लाख	-7.56082
▁ना	-7.56601
▁शि	-7.56737
▁शाळा	-7.56946
"	-7.57043
ंच्या	-7.57383
वार	-7.5746
▁:	-7.57651
▁सध्या	-7.57825
▁महाराष्ट्रात	-7.57826
."	-7.57855
▁दिले	-7.57962
पैकी	-7.58118
i	-7.58417
ष्ट	-7.58486
३	-7.58717
▁भारतात	-7.5897
▁प्रमाण	-7.5953
▁निर्णय	-7.59624
ृ	-7.59626
▁शकतात	-7.59994
▁सरकारने	-7.60244
ीत	-7.60608
नि	-7.6076
▁येईल	-7.61461
▁वैद्यकीय	-7.61461
▁ठ	-7.61584
ए	-7.61696
लेल्या	-7.62136
५	-7.62393
▁प्रसार	-7.62717
▁आवश्यक	-7.63019
▁सांगितलं	-7.63334
▁आलं	-7.63692
सोबत	-7.63707
▁बदल	-7.64032
▁होतो	-7.64091
ांचा	-7.64521
▁चीन	-7.64523
सह	-7.64587
रे	-7.64677
दर	-7.64694
ीन	-7.6515
▁कोविड	-7.65243
▁लोकांना	-7.65861
▁प्रति	-7.65953
ामध्ये	-7.6649
▁नोंद	-7.66786
▁ठर	-7.67073
▁प्रकार	-7.67075
▁गंभीर	-7.67186
▁नवीन	-7.67194
िय	-7.67228
वरील	-7.68622
▁राज	-7.69376
▁कु	-7.69443
▁प्रवास	-7.69527
▁दिवसां	-7.69742
व्या	-7.69833
या	-7.69861
▁दुसऱ्या	-7.70177
▁मदत	-7.70242
t	-7.70514
ांसाठी	-7.70607
▁होणार	-7.71195
ऱ्या	-7.71428
M	-7.71535
▁-	-7.71547
▁समावेश	-7.71899
ण्याची	-7.72369
▁होण्या	-7.72486
▁चा	-7.72595
▁रोग	-7.73036
▁मास्क	-7.73357
▁स्थिती	-7.73889
▁करू	-7.74222
▁देशात	-7.7434
▁वाढत	-7.74617
ोट	-7.74633
▁वाट	-7.74745
▁शकते	-7.75613
r	-7.75724
▁संपर्क	-7.75724
▁लागण	-7.75993
िम	-7.76376
▁घट	-7.76474
ळा	-7.76566
सीओव्ही	-7.76799
जा	-7.76895
▁मुलां	-7.76914
▁10	-7.77853
बद्दल	-7.7789
▁आल्या	-7.78261
▁ठाकरे	-7.78617
▁घ्या	-7.78718
▁वर्ष	-7.78968
n	-7.78985
ुन	-7.79245
▁तो	-7.79356
▁मुंबई	-7.79723
▁रुग्णालयात	-7.79903
▁मे	-7.79962
▁घर	-7.80001
पूर्वी	-7.80222
▁शकत	-7.80223
P	-7.8122
▁संसर्गा	-7.81255
▁स्ट	-7.81448
▁6	-7.81511
▁आज	-7.81674
वेळी	-7.81799
▁वर्	-7.82162
▁कि	-7.82193
▁देण्या	-7.82386
▁विचार	-7.82391
पणे	-7.82432
ुर	-7.82652
s	-7.82737
▁सुरुवात	-7.82762
टा	-7.82796
▁शक्यता	-7.82857
▁डॉक्टर	-7.8311
▁मध्ये	-7.83171
▁नाहीत	-7.8356
▁कार्य	-7.83595
सी	-7.83678
िश	-7.83773
द्वारे	-7.83892
▁आपण	-7.84021
पत्र	-7.84113
/	-7.84279
▁ट्र	-7.84551
द्ध	-7.84656
▁अभ्यास	-7.84668
▁जाहीर	-7.84669
;	-7.85059
▁आलेल्या	-7.85062
▁सम	-7.85388
▁भाग	-7.85443
६	-7.85451
CoV	-7.85451
निर्माण	-7.85452
▁7	-7.85495
▁मो	-7.85946
▁येथ	-7.86241
▁जागतिक	-7.86637
▁निर्बंध	-7.86637
टे	-7.86651
00	-7.87193
▁5	-7.87393
र्ज	-7.8747
▁पसर	-7.87483
▁परवानगी	-7.87837
▁मु	-7.8791
▁लागत	-7.87968
१	-7.88249
▁म्हणतात	-7.88273
क्त	-7.88478
पूर	-7.8881
्ह	-7.8906
▁असते	-7.89091
ब्	-7.89335
▁काळात	-7.89445
▁येणार	-7.8946
्यू	-7.89704
क्षण	-7.89716
मी	-7.89743
▁केलेल्या	-7.898
▁चाचण्या	-7.89856
▁हॉस्पिटल	-7.8987
▁पुढे	-7.90007
▁जर	-7.90008
▁भारत	-7.90247
▁तुम्हाला	-7.90281
▁महत्त्वाच	-7.90534
▁जाऊ	-7.90545
▁रि	-7.90603
▁करण्याची	-7.90654
▁लाटे	-7.90689
▁लागू	-7.90705
▁शिक्षण	-7.90747
८	-7.91109
▁प्रमाणात	-7.91298
▁लक्षणे	-7.91304
▁ऑ	-7.91415
▁भर	-7.91802
▁देत	-7.9207
ालय	-7.92151
T	-7.92364
दान	-7.92668
करण	-7.93039
्म	-7.93101
▁माग	-7.9319
▁शोध	-7.93216
▁बोलताना	-7.93232
▁दिसून	-7.93339
▁8	-7.94104
▁लसी	-7.94121
▁प्रयत्न	-7.94492
▁प्रश्न	-7.94492
▁जो	-7.94802
▁करणार	-7.94942
▁अॅ	-7.95054
पर	-7.95075
▁रोजी	-7.95365
स्क	-7.95382
र्ड	-7.95507
▁दाखल	-7.95791
▁कोटी	-7.95983
▁काढ	-7.96054
ग्र	-7.96455
▁जाईल	-7.96666
भाव	-7.96827
▁पहिल्या	-7.97107
तो	-7.97193
▁ति	-7.97241
▁ऑफ	-7.9725
▁जाण	-7.97287
▁ल	-7.97787
ल्यानंतर	-7.9794
▁जाते	-7.9807
मंत्री	-7.98251
-2	-7.98418
▁SARS	-7.9844
▁करणाऱ्या	-7.9845
▁कोणत्या	-7.98893
ायला	-7.98907
▁दिसत	-7.99105
▁मागणी	-7.99863
▁रुग्णांची	-8.0017
▁विभागा	-8.00729
▁म्हण	-8.00889
▁कंपनी	-8.01161
▁गु	-8.01384
▁दर	-8.01435
▁नियंत्रण	-8.01622
▁पो	-8.01632
ँ	-8.02167
ेंद्र	-8.0217
ावी	-8.02476
▁श्वसन	-8.0255
▁धोका	-8.02553
▁मी	-8.02828
तून	-8.02894
▁अँ	-8.02935
▁योग्य	-8.03018
▁असताना	-8.03133
ातून	-8.03206
▁आजारा	-8.03576
र्ट	-8.03662
▁देखील	-8.03662
▁9	-8.03808
▁काळजी	-8.04018
▁पुरवठा	-8.04909
मधून	-8.04929
रण	-8.05281
वाद	-8.05493
l	-8.05868
▁मुख्यमंत्री	-8.05888
▁शहर	-8.05997
▁ताप	-8.06042
▁आठवड्या	-8.06073
▁डि	-8.06142
ेशन	-8.06254
N	-8.06351
▁उत्पादन	-8.06351
▁पुन्हा	-8.06351
▁सेवा	-8.0657
▁तीन	-8.06587
▁महाराष्ट्र	-8.07209
एन	-8.07395
दार	-8.0764
भर	-8.07783
▁उद्धव	-8.07816
ाऊ	-8.07914
प्रमाणे	-8.08055
▁उत्तर	-8.08313
▁थ	-8.08372
▁यु	-8.08411
▁वाढव	-8.08526
▁20	-8.08691
▁यांना	-8.08766
▁तेव्हा	-8.08825
९	-8.0907
▁शे	-8.09185
▁बीबीसी	-8.093
▁ठेवण्या	-8.09302
▁नसल्या	-8.09316
▁साध	-8.09553
▁कोरोनाची	-8.09617
ंमध्ये	-8.09702
ांचे	-8.09731
▁भागात	-8.09807
र्ग	-8.10222
▁टेस्ट	-8.10308
▁मोदी	-8.10308
▁गेले	-8.10557
▁स्पष्ट	-8.10807
▁साम	-8.10858
▁२	-8.11278
▁कोण	-8.11285
▁पंतप्रधान	-8.11315
▁परीक्षा	-8.11321
ोर	-8.11419
▁बाहेर	-8.11677
▁संबंधित	-8.11944
ताना	-8.12074
c	-8.12338
▁दिला	-8.12377
ावे	-8.12454
▁असू	-8.1262
▁महिन्या	-8.12729
▁पूर्ण	-8.12782
▁दिल्ली	-8.13372
हून	-8.13649
▁किती	-8.13651
▁सार्स	-8.1368
▁प्रत्येक	-8.13892
▁विकसित	-8.13893
▁बैठक	-8.14416
धार	-8.14566
▁रक्त	-8.14634
▁आधार	-8.14744
▁याचा	-8.14829
▁सूचना	-8.15293
▁कर्मचाऱ्यां	-8.15471
▁विशेष	-8.15472
रोग	-8.15656
▁जानेवारी	-8.16003
▁तुम्ही	-8.16003
▁नये	-8.16105
▁रूग्ण	-8.1636
▁डेटा	-8.17079
▁सार्वजनिक	-8.17616
▁पातळी	-8.17623
िड	-8.17666
▁ठिकाणी	-8.17683
▁रुग्णांना	-8.17825
▁साथी	-8.18172
▁पाठव	-8.18177
▁ती	-8.18181
शिवाय	-8.18221
क्स	-8.18316
▁उच्च	-8.18783
▁घा	-8.19065
७	-8.19256
▁टप्प्या	-8.19256
▁विद्यार्थ्यां	-8.19808
▁महिन्यात	-8.19942
▁घरी	-8.19998
▁नागरिकां	-8.2022
▁द्या	-8.20343
▁आढळून	-8.20364
▁राज्या	-8.20365
राष्ट्रीय	-8.20433
▁करता	-8.20607
▁प्रतिबंध	-8.21484
छ	-8.22046
▁आधी	-8.22069
तात	-8.22198
▁करतात	-8.22227
▁मुल	-8.22402
▁मन	-8.22495
▁पाहिजे	-8.22617
▁होईल	-8.22617
▁पद्धती	-8.22618
▁मध्य	-8.23044
▁लहान	-8.23195
▁लक्षणं	-8.23379
▁रूग्णां	-8.2338
▁संपूर्ण	-8.23819
▁याबाबत	-8.24126
▁चर्चा	-8.24345
▁प्रभावी	-8.24345
▁अर्थ	-8.24347
▁महा	-8.24652
▁पुढ	-8.2473
▁विविध	-8.24924
▁तसंच	-8.24925
▁पुण्या	-8.25053
▁वर्षां	-8.25108
संदर्भात	-8.25225
▁नमुन	-8.25445
▁पोहोच	-8.25508
▁झालं	-8.25597
ीकरण	-8.25687
▁असतात	-8.25704
▁पॉझिटिव्ह	-8.26096
▁ओळख	-8.26096
▁टाळ	-8.26188
▁पाळ	-8.26427
▁करण्यास	-8.26708
▁असतो	-8.26899
युक्त	-8.27007
▁अंदाज	-8.27283
▁जगभरात	-8.27283
▁आहोत	-8.27283
▁19	-8.27461
▁दुसरी	-8.27885
क्रम	-8.28258
▁काळ	-8.28316
▁शहरात	-8.28389
ात्मक	-8.28597
एस	-8.28633
ण्याचा	-8.28799
▁बोल	-8.28936
▁व्यक्त	-8.28944
▁50	-8.28986
▁लि	-8.29043
d	-8.297
▁कुटुंब	-8.297
▁येऊ	-8.297
▁ओ	-8.29876
▁गोष्टी	-8.30313
▁सी	-8.30479
सारख्या	-8.30567
▁आढळले	-8.30931
▁तीव्र	-8.30934
▁चाल	-8.32459
▁आपल	-8.32897
▁बस	-8.32916
विषयी	-8.33439
▁केसेस	-8.3344
सुद्धा	-8.33477
▁जीव	-8.34042
H	-8.34075
▁कालावधी	-8.34076
▁भारता	-8.34186
समोर	-8.34242
▁उपाय	-8.34427
D	-8.34717
▁सामान्य	-8.34719
▁राहत	-8.34737
▁घेतला	-8.34779
राव	-8.35104
▁फेब्रुवारी	-8.35362
▁फार	-8.35466
▁जिल्ह्य	-8.35597
▁एकूण	-8.36024
▁अमेरिके	-8.36087
▁नियम	-8.3625
▁वय	-8.36417
▁तुमच्या	-8.36893
▁मिळत	-8.37844
▁खूप	-8.37991
▁त्यानंतर	-8.38097
▁जाणार	-8.38262
धान	-8.3849
h	-8.38651
▁असल्याने	-8.38657
▁अंतर	-8.38689
▁दरम्यान	-8.38817
▁फक्त	-8.38823
▁प्रशासना	-8.38844
▁जिल्ह्यात	-8.39078
▁प्रदेश	-8.39325
▁कार्यक्रम	-8.39367
▁धुण्या	-8.39377
▁लढ	-8.39496
ेवळ	-8.39975
▁मला	-8.39996
▁रोख	-8.40019
▁बेड्स	-8.40109
▁केंद्रीय	-8.4027
▁वर्षा	-8.41309
▁सेंटर	-8.41365
▁त्रास	-8.41378
▁अनु	-8.4153
गृह	-8.41994
▁आदेश	-8.42057
▁“	-8.42084
▁प्रतिसाद	-8.42749
▁वेगळ	-8.4275
▁जेव्हा	-8.4276
▁संख्ये	-8.42773
▁स्वच्छ	-8.42803
▁संशोधन	-8.43447
▁तसेच	-8.4345
▁होत्या	-8.43569
प्प	-8.43675
▁नाव	-8.44014
▁खासगी	-8.44151
▁अहवाल	-8.44153
▁रुग्णसंख्या	-8.44153
▁सरकारी	-8.44345
▁सांगितले	-8.4486
▁गर्दी	-8.4486
▁सगळ्या	-8.44862
िस्ट	-8.45077
▁असतील	-8.45413
▁संक्रमण	-8.45575
▁परत	-8.45588
▁जातो	-8.46045
द्द	-8.46195
▁मूळ	-8.4636
▁पाच	-8.46609
वरून	-8.4664
▁अप	-8.46956
क्षम	-8.46996
▁आकडेवारी	-8.47019
▁येणाऱ्या	-8.47019
▁संस्था	-8.47058
▁चार	-8.47517
▁मर्याद	-8.47749
▁घेऊन	-8.48218
भार	-8.48237
▁घाल	-8.48313
▁शिफारस	-8.48484
▁कर्मचारी	-8.49225
▁अजून	-8.49242
▁दिस	-8.49905
▁सुरक्षित	-8.49971
▁रात्री	-8.49972
▁लागेल	-8.49972
▁दोन्ही	-8.49979
▁रुग्णांच	-8.50014
ावं	-8.50221
▁दिल्या	-8.50391
▁साबण	-8.50732
▁वेगान	-8.50733
ळ्या	-8.50815
▁प्रमुख	-8.5094
▁शरीरात	-8.51235
▁शक्य	-8.51271
▁गाव	-8.51894
ण्यास	-8.52034
▁मंत्रालया	-8.52244
▁प्रवेश	-8.52257
▁अधिकारी	-8.52264
▁दूर	-8.52276
▁जणां	-8.52326
▁12	-8.52613
▁बाब	-8.52691
▁करताना	-8.52719
m	-8.53013
▁पक्ष	-8.53013
▁कार्यालय	-8.53087
मुख	-8.53311
’	-8.53788
▁डॉक्टरां	-8.5381
▁नागरिक	-8.5399
▁पूर्व	-8.54312
▁क्षेत्रात	-8.54569
▁ग्रामीण	-8.54569
ियन	-8.54629
▁14	-8.54867
▁आर्थिक	-8.55357
▁मुंबईत	-8.5536
▁घेतली	-8.5573
p	-8.5615
▁थांब	-8.56151
▁आणखी	-8.56151
▁होणाऱ्या	-8.56154
▁स्थानिक	-8.56157
▁उपस्थित	-8.56158
▁तास	-8.56223
▁करावी	-8.56444
▁आमच्या	-8.56581
▁फि	-8.56754
O	-8.5695
▁कंपन्या	-8.5695
▁सल्ला	-8.56957
▁महाराष्ट्रा	-8.56975
▁नव्या	-8.57035
ल्ल	-8.57493
▁मुख्य	-8.57885
▁होण्याची	-8.58248
▁जिल्हा	-8.58569
▁टोपे	-8.5857
▁गेली	-8.5862
▁पेशी	-8.58628
▁पालक	-8.58668
▁फे	-8.58802
▁संरक्ष	-8.58996
बरोबर	-8.5939
▁पुणे	-8.59395
▁पर्याय	-8.594
▁चाचण्यां	-8.59422
तः	-8.59606
▁असणाऱ्या	-8.59802
राज	-8.59974
▁अधिकाऱ्यां	-8.60217
▁महिला	-8.60224
▁बरे	-8.60328
▁मार्ग	-8.60426
▁माहितीनुसार	-8.60568
▁15	-8.6062
क्क	-8.60691
उ	-8.60708
ॅक्स	-8.60838
▁लाट	-8.61686
▁30	-8.61824
च्छ	-8.61827
तज्ज्ञ	-8.61844
▁घोषणा	-8.6189
▁संनिरीक्षण	-8.6189
▁नागपूर	-8.6189
▁परंतु	-8.61891
▁अन्य	-8.61958
▁प्रमाणावर	-8.62199
स्थाप	-8.62422
▁दिव	-8.62517
एम	-8.62607
▁लॉकडाउन	-8.62737
ओ	-8.6294
▁उद्रेका	-8.6356
▁एचसीओव्ही	-8.63593
▁ठेवा	-8.63646
▁करणं	-8.63682
▁सर्वाधिक	-8.63683
▁मिळव	-8.63756
दरम्यान	-8.6424
▁पत्रकार	-8.64463
▁संकट	-8.64514
▁कधी	-8.65388
पणा	-8.6551
▁समज	-8.65698
▁आतापर्यंत	-8.65763
▁विमान	-8.65881
ांचं	-8.66142
▁बाल	-8.66146
▁तज्ज्ञां	-8.66248
▁सुरु	-8.67044
▁बाधित	-8.67086
▁दाखव	-8.67087
▁भीती	-8.67993
▁युके	-8.68104
▁प्रक्रिया	-8.68185
▁जाण्या	-8.69036
▁त्यांची	-8.69141
!	-8.69789
भूत	-8.69848
िओ	-8.70221
▁झाल्यानंतर	-8.70308
ल्ड	-8.704
रुप	-8.70412
▁इन्स्टिट्यूट	-8.70706
▁स्पर्श	-8.70706
▁विलगीकरण	-8.71632
▁पुष्टी	-8.71632
▁प्रवाशां	-8.71636
▁प्रकरणां	-8.71696
▁बेड	-8.72552
▁इंडिय	-8.72592
▁तपासणी	-8.7261
वर्षी	-8.72928
अत्यावश्यक	-8.7351
▁तुटवडा	-8.7351
▁वेगवेगळ	-8.7351
▁संघटने	-8.7351
▁इटली	-8.73518
ंतर्गत	-8.73539
ाईन	-8.73639
▁प्राण	-8.74445
▁प्राथमिक	-8.74462
▁अत्यं	-8.74468
▁क्षमता	-8.74487
मेंट	-8.74521
▁कोणती	-8.74739
भाग	-8.74749
▁आरोग्यमंत्री	-8.74832
▁क्ल	-8.74912
▁इंजेक्शन	-8.75424
▁रेमडेसिवीर	-8.75424
▁मोठा	-8.75429
कोव्ह	-8.75513
▁एखाद्या	-8.75636
हळू	-8.75656
▁आमच	-8.76145
▁झा	-8.76146
▁असल्यास	-8.7639
U	-8.76395
▁अध्यक्ष	-8.76395
▁क्वारंटाईन	-8.76395
▁मृत्यु	-8.76395
B	-8.76395
▁सुविधा	-8.76395
▁देऊ	-8.76397
▁शेवट	-8.76446
कोरोना	-8.76521
ॅक्ट	-8.76576
▁चालू	-8.76926
प्त	-8.77366
▁श्वास	-8.77376
▁मोठी	-8.77379
▁आव्हान	-8.77399
ऊ	-8.77527
००	-8.77673
g	-8.78365
तिरिक्त	-8.78365
▁आम्हाला	-8.78365
▁नियोजन	-8.78365
▁संभाव्य	-8.78366
▁लवकर	-8.78367
ग्न	-8.7863
▁11	-8.78939
क्रिया	-8.79139
u	-8.79365
▁अवलंब	-8.79365
▁येण्या	-8.79472
▁जोखीम	-8.80375
▁तुलनेत	-8.80375
▁असलेले	-8.80385
्युट	-8.80512
▁नोंदणी	-8.80615
(	-8.80624
बाहेर	-8.8067
स्थान	-8.80921
▁लोकांनी	-8.81234
▁सामाजिक	-8.81396
थेट	-8.81604
ग्रस्त	-8.8165
▁WHO	-8.82427
▁जवळपास	-8.82427
▁मराठी	-8.82427
▁बाजार	-8.82427
▁तोंड	-8.82816
१९	-8.82905
▁सुरक्षा	-8.83468
▁योजना	-8.83469
▁छाती	-8.83469
▁लोकसंख्ये	-8.83469
▁परिणामकारक	-8.83473
▁कामगार	-8.83476
▁दिलं	-8.83489
▁पालन	-8.83542
▁राख	-8.83553
▁स्वतः	-8.83554
▁टाक	-8.83693
ण्याच्या	-8.84254
▁व्यवस्था	-8.84508
▁तिथे	-8.84527
▁भारतीय	-8.84683
G	-8.85585
▁खर्च	-8.85601
▁जनते	-8.85611
▁करावे	-8.85972
▁रेल्वे	-8.8666
▁डिसेंबर	-8.8666
▁वुहान	-8.8666
▁प्रकाश	-8.86669
▁आरोप	-8.86671
संबंधी	-8.86996
▁वाहतूक	-8.87747
▁व्हेंटिलेटर	-8.87747
माध्यम	-8.87747
▁भाजप	-8.87748
▁करावं	-8.87796
विरोधात	-8.88769
▁२०	-8.88816
▁युरोप	-8.88827
▁बहुतांश	-8.88846
▁आंतर	-8.88861
मुक्त	-8.88869
रित्या	-8.89047
▁विद्यार्थी	-8.89957
▁पोलीस	-8.89962
▁मोहीम	-8.89965
▁सौम्य	-8.9108
▁2019	-8.91081
▁फ्लू	-8.91081
▁टास्क	-8.91088
▁थोड	-8.91114
▁200	-8.91437
संख्य	-8.91487
▁तुमच	-8.9183
विरोधी	-8.91858
L	-8.92217
▁सकाळी	-8.9222
▁सांगण्या	-8.9229
V	-8.93366
▁अमरावती	-8.93366
▁कोव्हॅक्सिन	-8.93366
▁बायोटेक	-8.93366
▁अद्याप	-8.93367
▁अनुभव	-8.9337
▁प्ल	-8.93462
ञ	-8.94526
”	-8.94529
▁तिसऱ्या	-8.9453
▁माध्यमातून	-8.9453
▁राहिल	-8.94531
▁दुसरा	-8.94535
▁साठा	-8.94555
▁विकास	-8.94562
▁रद्द	-8.94801
▁जबाबदार	-8.95706
▁दररोज	-8.95708
▁जगात	-8.95727
▁अन्न	-8.9573
▁सांगत	-8.95936
▁सचिव	-8.96897
▁मान्यता	-8.969
▁होणे	-8.96905
▁विरोध	-8.97359
▁नातेवाईक	-8.98101
▁समस्या	-8.98117
▁आपत्	-8.98125
W	-8.9932
▁चिंता	-8.9932
▁व्हेरियंट	-8.9932
▁टक्क्यां	-8.99321
▁प्रभावित	-8.99323
▁उद्रेक	-8.99366
च्च	-8.99372
▁कडक	-8.99517
ः	-9.00129
ांमधील	-9.00485
सारखी	-9.00523
▁मिळाली	-9.00556
▁राजकीय	-9.00557
▁बंधन	-9.00558
म्प	-9.01016
्झा	-9.01041
▁अमेरिक	-9.01659
v	-9.01805
▁उद्योग	-9.01805
▁कोरोनाव्हायरस	-9.01805
▁प्रसिद्ध	-9.01805
▁सुमार	-9.01812
▁लागली	-9.01814
▁संस्थे	-9.01815
,000	-9.01817
▁फायद	-9.01843
▁यंत्रणा	-9.03071
▁जिथे	-9.03071
▁दक्षिण	-9.03071
▁बऱ्याच	-9.03077
▁उघड	-9.03102
▁आवाहन	-9.04353
▁फोर्स	-9.04357
▁धोरण	-9.0436
▁तासां	-9.04455
▁आणण्या	-9.04696
▁प्राणवायू	-9.05651
▁घेऊ	-9.06124
▁लावण्या	-9.06175
दीप	-9.0682
▁महापालिके	-9.06967
▁उपाययोजना	-9.06967
▁रिपोर्ट	-9.06967
▁सप्टेंबर	-9.06967
▁खरेदी	-9.08301
▁दशलक्ष	-9.08301
▁मार्गदर्शक	-9.08301
▁राहण्या	-9.08318
▁ठिकाण	-9.08404
▁राष्ट्र	-9.09484
▁करोनाबाधित	-9.09652
▁चिकित्सालय	-9.09652
▁असलेली	-9.09664
▁देव	-9.1072
▁सॅनिटायझर	-9.11022
▁महत्वाच	-9.11022
ज्ञात	-9.11026
▁देशभरात	-9.11053
▁गर्भ	-9.11374
▁विशिष्ट	-9.12411
▁वस्तू	-9.1242
▁वितरण	-9.12421
▁करुन	-9.12433
▁नसेल	-9.12447
▁गेला	-9.12619
▁तपास	-9.12671
▁सूच	-9.13332
सारखे	-9.13673
▁प्रादुर्भाव	-9.13819
▁फायझर	-9.13819
▁आढावा	-9.13819
▁प्रॅक्टिस	-9.13819
▁2021	-9.1382
▁दर्शव	-9.1382
▁अगदी	-9.1382
जिनोम	-9.13822
आधी	-9.13865
▁फोन	-9.13894
▁पूर्णपण	-9.15193
▁परिषद	-9.15248
▁अंमलबजावणी	-9.15248
▁प्रणाली	-9.15248
▁नसलेल्या	-9.15257
▁व्यवस्थापन	-9.15265
▁होम	-9.15313
▁दावा	-9.15395
▁शरीरा	-9.15723
ाधिक	-9.16347
▁निश्चित	-9.16697
▁फडणवीस	-9.16697
▁म्युटेशन	-9.16697
▁वटवाघळ	-9.16697
▁विद्यापीठ	-9.16697
▁समुदाय	-9.16697
▁संक्रमित	-9.16698
▁ट्रायल	-9.16703
▁सीरम	-9.16715
▁गरजेचं	-9.16716
अखेर	-9.16866
▁प्रशासन	-9.17742
▁ऑक्सफर्ड	-9.18168
▁ट्वीट	-9.18168
▁सिरम	-9.18169
▁करायला	-9.1821
▁निष्कर्ष	-9.1966
▁अडचणी	-9.1966
▁मेडिकल	-9.1966
▁बांध	-9.19661
▁चित्र	-9.19674
▁राहा	-9.20036
▁संबंध	-9.20351
▁वापरण्या	-9.2047
▁फुफ्फुस	-9.20727
▁मुख्यमंत्र्यां	-9.20901
य़ा	-9.20936
▁युनायटे	-9.21175
शासकीय	-9.21175
▁कठोर	-9.21177
▁साधारण	-9.21181
▁होणं	-9.21183
▁साठव	-9.21188
पूर्ण	-9.21303
▁लागल्या	-9.21357
▁उपयोग	-9.22714
▁हॉटेल	-9.22714
▁संचालक	-9.22715
▁टीका	-9.22777
स्थिती	-9.2306
▁नियमां	-9.23781
▁अँटीबॉडी	-9.24276
▁ऑनलाईन	-9.24276
▁कमतरता	-9.24276
▁भूमिका	-9.24276
▁हृदय	-9.24276
▁पोलिसां	-9.24277
▁सदस्य	-9.24278
▁मिनिट	-9.24278
▁एवढ	-9.2428
▁इंटर	-9.24299
▁समाव	-9.24359
ीक्ष	-9.24644
▁चौकशी	-9.25864
▁ब्रिटन	-9.25864
▁म्हटले	-9.25864
▁कारवाई	-9.25864
▁हेल्थ	-9.25864
▁रुपये	-9.25864
▁रुग्णसंख्ये	-9.25867
▁सेवे	-9.25929
़	-9.26115
▁रेमडेसिव्हिर	-9.27477
विरुद्ध	-9.27477
▁शाळे	-9.27478
▁धुणे	-9.27479
▁कुठे	-9.27484
▁नव्हती	-9.27486
▁पोशिंद	-9.29116
▁प्रकल्प	-9.29116
▁वयोगटा	-9.29116
▁टँकर	-9.29116
▁देणार	-9.29138
▁समाज	-9.29173
▁आठवड	-9.30072
RCGP	-9.30783
▁पार्श्वभूमीवर	-9.30783
▁प्राधान्य	-9.30783
▁वारंवार	-9.30783
▁आयोगा	-9.30783
▁आकडा	-9.30786
▁प्राप्त	-9.3079
▁उदाहरणार्थ	-9.32477
▁उद्भव	-9.32477
▁रेमडेसिविर	-9.32477
▁रोगप्रतिकार	-9.32477
▁नियमावली	-9.32477
▁राहणार	-9.32478
▁वातावरण	-9.32478
▁राहू	-9.33557
सायन	-9.33668
▁धार्मिक	-9.34202
▁व्यावसायिक	-9.34202
▁कोरोनाबाधित	-9.34202
▁व्यवसाय	-9.34202
क्लिनिकल	-9.34202
▁लागले	-9.3431
▁प्राण्यां	-9.34367
▁सापडल	-9.34418
▁फुफ्फुसां	-9.34715
▁प्रोटोकॉल	-9.35956
▁पृष्ठभाग	-9.35956
▁अतिशय	-9.35956
▁स्वरूप	-9.35956
▁उद्देश	-9.35956
▁खोकला	-9.35956
▁जंतू	-9.35983
▁नमुन्यां	-9.36176
▁RSC	-9.37742
▁पश्चिम	-9.37742
▁प्रयोगशाळे	-9.37742
▁संघटना	-9.37742
▁महामारी	-9.37742
▁आढळत	-9.37742
▁किंमत	-9.37743
▁मिळेल	-9.37758
▁एखाद	-9.39159
▁ICU	-9.3956
▁प्रक्रिये	-9.3956
▁महाविद्यालय	-9.3956
▁जैविक	-9.3956
▁ट्विट	-9.3956
▁बाजू	-9.39561
▁मीडिया	-9.39562
▁जर्मनी	-9.39562
▁ढकल	-9.39563
▁बातमी	-9.39567
▁समूह	-9.39572
क्षि	-9.4037
ज्ञान	-9.41412
▁अपेक्षित	-9.41412
▁काँग्रेस	-9.41412
▁पुरवठ्या	-9.41412
▁प्रयोगशाळा	-9.41412
RNA	-9.41412
▁आफ्रिक	-9.41412
PCR	-9.41412
▁स्ट्रेन	-9.41413
▁क्षमते	-9.41422
▁तुलना	-9.4183
▁उत्पन्न	-9.43298
▁प्रारंभ	-9.43299
▁शास्त्रज्ञ	-9.43299
▁शिक्षक	-9.43299
व्हायरल	-9.43299
▁सहभागी	-9.433
▁इशारा	-9.433
▁रविवार	-9.43301
▁कोणताही	-9.43302
▁कोरोनाग्रस्तां	-9.43384
▁ज्येष्ठ	-9.45222
▁तथापि	-9.45222
▁फ्रान्स	-9.45222
▁तक्रार	-9.45222
▁परदेश	-9.45226
▁राबव	-9.45233
▁ठेवत	-9.45236
▁तपासण्या	-9.45393
तंत्रज्ञान	-9.47182
▁आयसोलेशन	-9.47182
▁निर्देश	-9.47182
▁निवडणूक	-9.47182
▁संशोधक	-9.47182
CDC	-9.47183
▁धोक्या	-9.47183
▁सर्दी	-9.47183
▁कुठल्या	-9.47184
▁युनिव्हर्सिटी	-9.49182
▁व्हॅक्सिन	-9.49182
▁जोखमी	-9.49183
▁चंद्र	-9.49186
▁मिळाल्या	-9.49218
देखील	-9.50459
▁इतिहास	-9.51223
▁महापालिका	-9.51223
▁प्रोटीन	-9.51225
▁बोर्डा	-9.51228
शास्त्र	-9.51228
क्शन	-9.51229
▁चुकीच	-9.5123
पीसीआर	-9.53306
▁अल्कोहोल	-9.53306
▁झपाट्यान	-9.53306
▁क्रमांक	-9.53307
▁सकारात्मक	-9.53308
कर्त्या	-9.5331
▁तातडीन	-9.53312
▁पाण्या	-9.53406
▁घालण्या	-9.55111
▁मोहिमे	-9.55434
▁सिक्वेंसिंग	-9.55434
▁यशस्वी	-9.55434
▁चेहऱ्या	-9.55434
▁स्थगित	-9.55434
ऑ	-9.7679
ऐ	-12.9424
‘	-12.9425
ौ	-12.9426
औ	-12.9427
ऱ	-12.9428
ॉ	-12.9429
“	-12.9429
