<pad>	0
</s>	0
<unk>	0
なた	-0
あなた	-1
って	-2
たし	-3
わたし	-4
その	-5
った	-6
であ	-7
ない	-8
して	-9
から	-10
こと	-11
われ	-12
である	-13
彼ら	-14
あなたが	-15
たち	-16
よう	-17
あなたがた	-18
また	-19
した	-20
られ	-21
、「	-22
」。	-23
なら	-24
わたしは	-25
エル	-26
これ	-27
いる	-28
あなたの	-29
それ	-30
ように	-31
さい	-32
言った	-33
ため	-34
この	-35
の子	-36
いた	-37
する	-38
され	-39
べて	-40
ので	-41
わたしの	-42
いて	-43
ならない	-44
ろう	-45
すべて	-46
なる	-47
イス	-48
ラエル	-49
イスラエル	-50
ある	-51
ために	-52
れば	-53
主は	-54
かし	-55
人々	-56
びと	-57
あなたは	-58
には	-59
彼らは	-60
であろう	-61
主の	-62
もの	-63
言われ	-64
ことを	-65
者は	-66
すべての	-67
▁そ	-68
なさい	-69
エス	-70
イスラエルの	-71
をも	-72
によ	-73
イエス	-74
彼は	-75
うち	-76
られた	-77
ければ	-78
なければ	-79
こう	-80
自分	-81
しかし	-82
られる	-83
ます	-84
かった	-85
これを	-86
くだ	-87
あなたがたの	-88
もろ	-89
しい	-90
なければならない	-91
ことが	-92
んで	-93
▁その	-94
あなたがたは	-95
われわれ	-96
なわ	-97
えて	-98
れる	-99
なかった	-100
んだ	-101
れた	-102
わが	-103
のために	-104
わたしを	-105
わたしが	-106
わたしたち	-107
れて	-108
によって	-109
すなわ	-110
すなわち	-111
どう	-112
させ	-113
人の	-114
をもって	-115
ンの	-116
からである	-117
わたしに	-118
こで	-119
きて	-120
ょう	-121
およ	-122
ください	-123
言葉	-124
を見	-125
える	-126
ユダ	-127
された	-128
とり	-129
のうち	-130
言われた	-131
および	-132
でき	-133
では	-134
につ	-135
▁また	-136
もし	-137
神の	-138
ころ	-139
なく	-140
のように	-141
っている	-142
前に	-143
に言った	-144
共に	-145
のか	-146
ダビ	-147
ダビデ	-148
それを	-149
彼らの	-150
はならない	-151
えた	-152
まで	-153
らせ	-154
とを	-155
▁わたしは	-156
とな	-157
きた	-158
彼らを	-159
ました	-160
であった	-161
とき	-162
主が	-163
のである	-164
とに	-165
自分の	-166
▁しかし	-167
▁そこで	-168
ささ	-169
祭司	-170
これは	-171
人を	-172
あなたを	-173
神は	-174
ひとり	-175
つか	-176
ことは	-177
▁それ	-178
しょう	-179
ゆえ	-180
人は	-181
たちは	-182
リヤ	-183
ところ	-184
主に	-185
アブ	-186
上に	-187
あなたに	-188
ことができ	-189
です	-190
があ	-191
べき	-192
として	-193
おの	-194
、『	-195
ささげ	-196
らの	-197
モー	-198
モーセ	-199
そう	-200
ませ	-201
される	-202
者の	-203
と共に	-204
にな	-205
物を	-206
だれ	-207
▁主は	-208
の中	-209
そして	-210
おり	-211
レム	-212
▁そして	-213
サレム	-214
事を	-215
エルサレム	-216
兄弟	-217
者を	-218
みな	-219
かって	-220
行って	-221
こに	-222
もろの	-223
シャ	-224
と言	-225
彼を	-226
彼らに	-227
のです	-228
もろもろの	-229
める	-230
はその	-231
受け	-232
エジ	-233
地に	-234
言われる	-235
出て	-236
プト	-237
エジプト	-238
人々は	-239
めた	-240
つの	-241
ならば	-242
めて	-243
のは	-244
とい	-245
の王	-246
かに	-247
人が	-248
彼女	-249
彼に	-250
イエスは	-251
者が	-252
取り	-253
命じ	-254
見よ	-255
預言	-256
▁彼らは	-257
キリ	-258
滅ぼ	-259
とその	-260
彼の	-261
ロン	-262
行った	-263
にある	-264
しも	-265
▁あなたは	-266
の家	-267
にも	-268
スト	-269
多く	-270
らは	-271
あなたがたに	-272
の子孫	-273
であって	-274
しく	-275
▁彼は	-276
けて	-277
▁「	-278
ごと	-279
しもべ	-280
キリスト	-281
ただ	-282
にあ	-283
わせ	-284
について	-285
こうして	-286
ている	-287
でしょう	-288
しみ	-289
所に	-290
たちの	-291
与え	-292
サウ	-293
王の	-294
地の	-295
ません	-296
ごとく	-297
りを	-298
主よ	-299
言葉を	-300
ける	-301
びとの	-302
それは	-303
行き	-304
るであろう	-305
▁この	-306
りの	-307
いに	-308
ルの	-309
ムの	-310
わざ	-311
食べ	-312
をあ	-313
いつ	-314
したが	-315
彼らが	-316
言う	-317
にお	-318
告げ	-319
とし	-320
とは	-321
あなたがたが	-322
ことごとく	-323
とおり	-324
ような	-325
の間	-326
これらの	-327
かの	-328
います	-329
人に	-330
民は	-331
立って	-332
王は	-333
いを	-334
さば	-335
の	-336
、	-337
た	-338
に	-339
は	-340
な	-341
を	-342
し	-343
。	-344
て	-345
い	-346
と	-347
る	-348
あ	-349
れ	-350
ら	-351
▁	-352
が	-353
わ	-354
で	-355
っ	-356
か	-357
そ	-358
こ	-359
う	-360
も	-361
ま	-362
す	-363
よ	-364
さ	-365
き	-366
り	-367
彼	-368
ち	-369
く	-370
え	-371
言	-372
エ	-373
め	-374
人	-375
ル	-376
主	-377
者	-378
お	-379
だ	-380
つ	-381
ろ	-382
け	-383
イ	-384
ス	-385
ア	-386
せ	-387
び	-388
み	-389
「	-390
」	-391
ラ	-392
べ	-393
ば	-394
子	-395
ン	-396
神	-397
ん	-398
ヤ	-399
行	-400
シ	-401
ム	-402
リ	-403
ど	-404
々	-405
ダ	-406
王	-407
見	-408
地	-409
む	-410
げ	-411
サ	-412
レ	-413
ロ	-414
ビ	-415
出	-416
デ	-417
ず	-418
民	-419
ブ	-420
じ	-421
テ	-422
一	-423
祭	-424
分	-425
や	-426
日	-427
上	-428
時	-429
ト	-430
自	-431
物	-432
モ	-433
知	-434
家	-435
所	-436
手	-437
ヨ	-438
セ	-439
前	-440
事	-441
ひ	-442
マ	-443
ハ	-444
立	-445
バ	-446
十	-447
国	-448
パ	-449
女	-450
ナ	-451
聞	-452
キ	-453
ご	-454
ほ	-455
心	-456
ベ	-457
大	-458
中	-459
取	-460
ゆ	-461
生	-462
食	-463
二	-464
葉	-465
ぎ	-466
町	-467
ょ	-468
ユ	-469
『	-470
』	-471
カ	-472
悪	-473
命	-474
父	-475
ぶ	-476
死	-477
名	-478
弟	-479
罪	-480
与	-481
ウ	-482
下	-483
共	-484
ジ	-485
聖	-486
来	-487
タ	-488
へ	-489
長	-490
目	-491
ふ	-492
ク	-493
間	-494
ぼ	-495
司	-496
族	-497
ざ	-498
殺	-499
身	-500
ね	-501
全	-502
滅	-503
天	-504
プ	-505
オ	-506
ミ	-507
ー	-508
三	-509
会	-510
住	-511
兄	-512
コ	-513
思	-514
帰	-515
フ	-516
ペ	-517
ネ	-518
入	-519
信	-520
道	-521
恐	-522
ザ	-523
従	-524
ャ	-525
語	-526
受	-527
宮	-528
孫	-529
メ	-530
年	-531
水	-532
ュ	-533
多	-534
救	-535
今	-536
呼	-537
ニ	-538
羊	-539
ゼ	-540
先	-541
喜	-542
造	-543
ケ	-544
高	-545
口	-546
恵	-547
去	-548
万	-549
山	-550
七	-551
四	-552
得	-553
ド	-554
正	-555
預	-556
守	-557
愛	-558
答	-559
頭	-560
使	-561
義	-562
霊	-563
力	-564
戦	-565
起	-566
書	-567
荒	-568
ぐ	-569
何	-570
声	-571
方	-572
向	-573
告	-574
金	-575
実	-576
部	-577
五	-578
持	-579
光	-580
軍	-581
火	-582
ヒ	-583
同	-584
世	-585
後	-586
百	-587
野	-588
ッ	-589
集	-590
幕	-591
・	-592
木	-593
ヘ	-594
御	-595
ホ	-596
仰	-597
仕	-598
定	-599
怒	-600
教	-601
着	-602
求	-603
供	-604
娘	-605
ソ	-606
不	-607
妻	-608
足	-609
法	-610
栄	-611
対	-612
安	-613
石	-614
数	-615
残	-616
汚	-617
ガ	-618
づ	-619
皆	-620
約	-621
追	-622
牛	-623
雄	-624
門	-625
引	-626
打	-627
敵	-628
歩	-629
祖	-630
離	-631
ギ	-632
衆	-633
海	-634
福	-635
血	-636
渡	-637
ぜ	-638
小	-639
壇	-640
捨	-641
連	-642
他	-643
近	-644
ぬ	-645
良	-646
合	-647
置	-648
撃	-649
産	-650
ぞ	-651
場	-652
捕	-653
満	-654
屋	-655
臨	-656
千	-657
律	-658
苦	-659
代	-660
群	-661
飲	-662
第	-663
犯	-664
肉	-665
男	-666
緒	-667
建	-668
寄	-669
誓	-670
夜	-671
強	-672
香	-673
望	-674
次	-675
銀	-676
助	-677
焼	-678
倒	-679
願	-680
遠	-681
顔	-682
平	-683
座	-684
月	-685
油	-686
切	-687
真	-688
祈	-689
ズ	-690
若	-691
酒	-692
六	-693
導	-694
ノ	-695
器	-696
攻	-697
祝	-698
母	-699
憎	-700
契	-701
囲	-702
流	-703
示	-704
進	-705
息	-706
氏	-707
偽	-708
終	-709
結	-710
ピ	-711
注	-712
報	-713
川	-714
内	-715
外	-716
像	-717
君	-718
悩	-719
老	-720
獣	-721
宿	-722
燔	-723
断	-724
叫	-725
耳	-726
病	-727
至	-728
畑	-729
過	-730
重	-731
ゲ	-732
伏	-733
常	-734
清	-735
治	-736
携	-737
気	-738
選	-739
歌	-740
必	-741
明	-742
衣	-743
伝	-744
拝	-745
種	-746
異	-747
ボ	-748
服	-749
放	-750
尋	-751
災	-752
箱	-753
青	-754
当	-755
業	-756
落	-757
営	-758
戒	-759
破	-760
初	-761
賜	-762
送	-763
絶	-764
悲	-765
及	-766
投	-767
牧	-768
柱	-769
通	-770
開	-771
嗣	-772
現	-773
礼	-774
隠	-775
負	-776
感	-777
用	-778
歳	-779
互	-780
悟	-781
愚	-782
逃	-783
楽	-784
意	-785
争	-786
作	-787
永	-788
恥	-789
返	-790
理	-791
―	-792
働	-793
別	-794
風	-795
土	-796
勇	-797
体	-798
夫	-799
車	-800
牲	-801
犠	-802
ツ	-803
解	-804
再	-805
右	-806
徒	-807
話	-808
以	-809
度	-810
東	-811
奪	-812
待	-813
馬	-814
朝	-815
罰	-816
備	-817
証	-818
音	-819
グ	-820
堅	-821
周	-822
最	-823
激	-824
貧	-825
富	-826
士	-827
加	-828
壁	-829
深	-830
頼	-831
麦	-832
八	-833
謝	-834
害	-835
泣	-836
無	-837
獲	-838
諸	-839
谷	-840
勢	-841
城	-842
宣	-843
新	-844
動	-845
工	-846
束	-847
邦	-848
成	-849
兵	-850
庭	-851
ポ	-852
利	-853
穴	-854
乗	-855
台	-856
伸	-857
砕	-858
北	-859
糸	-860
雲	-861
権	-862
除	-863
属	-864
寝	-865
布	-866
淫	-867
魂	-868
境	-869
暗	-870
乳	-871
親	-872
少	-873
広	-874
戸	-875
洗	-876
非	-877
側	-878
嘆	-879
畜	-880
和	-881
務	-882
勝	-883
吹	-884
払	-885
空	-886
変	-887
夕	-888
殿	-889
移	-890
隷	-891
岩	-892
様	-893
奴	-894
銅	-895
裂	-896
僕	-897
官	-898
決	-899
留	-900
偶	-901
割	-902
皮	-903
買	-904
ヅ	-905
墓	-906
宝	-907
散	-908
有	-909
誇	-910
燃	-911
葬	-912
議	-913
召	-914
驚	-915
売	-916
計	-917
設	-918
半	-919
学	-920
訴	-921
善	-922
果	-923
降	-924
令	-925
消	-926
隣	-927
張	-928
憤	-929
授	-930
位	-931
尊	-932
隊	-933
確	-934
労	-935
角	-936
踏	-937
ゴ	-938
傾	-939
役	-940
眠	-941
築	-942
素	-943
相	-944
鳥	-945
傷	-946
枝	-947
花	-948
識	-949
公	-950
南	-951
好	-952
難	-953
復	-954
指	-955
納	-956
領	-957
骨	-958
村	-959
迎	-960
妹	-961
首	-962
問	-963
舟	-964
越	-965
込	-966
保	-967
忘	-968
ゅ	-969
威	-970
毛	-971
弱	-972
施	-973
昼	-974
友	-975
失	-976
陣	-977
熱	-978
草	-979
逆	-980
配	-981
刈	-982
招	-983
覚	-984
陰	-985
急	-986
舌	-987
白	-988
続	-989
要	-990
字	-991
記	-992
閉	-993
雨	-994
両	-995
慰	-996
