<pad>	0
</s>	0
<unk>	0
¦	-1.48877
▁¦	-1.49876
▁်	-2.20922
င	-3.52069
▁့	-3.81551
ည	-4.12103
▁့်	-4.4242
း	-4.53508
သ	-4.63192
▁၊	-4.68162
ကို	-4.76783
တော	-4.87531
က	-4.96217
တို	-5.05945
စ	-5.09308
▁၏။	-5.14779
▁	-5.43315
နှ	-5.45931
မည	-5.50662
▁်၊	-5.52922
ောင	-5.57853
အ	-5.60491
▁။	-5.62823
န	-5.64938
သို	-5.65728
သင	-5.65939
တ	-5.68428
သော	-5.69516
ခြ	-5.72742
္	-5.79462
ဖြ	-5.87847
▁်။	-5.91184
ယ	-5.9881
▁၍	-6.02513
လည	-6.0506
ကြ	-6.07409
ငါ	-6.11059
▁၏	-6.15235
မူ	-6.19966
ပ	-6.25857
မြို	-6.26594
▁်၌	-6.283
သူတို	-6.30233
မ	-6.30637
▁၌	-6.45942
▁်၏	-6.46191
ကိုယ	-6.47246
ောက	-6.48528
ဟု	-6.48758
သခ	-6.50017
ဘုရား	-6.50828
▁်၍	-6.51089
ရှင	-6.51732
၎	-6.52657
ုပ	-6.55221
ဆ	-6.57284
လိမ	-6.62283
သူ	-6.6336
ပြည	-6.65137
ဉ	-6.65996
ရ	-6.70997
စေ	-6.71642
▁၍၊	-6.71863
တည	-6.75866
မိန	-6.76913
ထာဝရဘုရား	-6.77418
းကို	-6.79389
မြ	-6.80632
မှာ	-6.84468
လျှ	-6.88344
▁်၍၊	-6.89549
▁့။	-6.89711
▁့်၊	-6.90555
လက	-6.92308
တွ	-6.93494
အား	-6.94391
ထို	-6.95405
အဘယ	-6.97496
▁်၏။	-6.99136
အကျွန	-7.02591
းငှါ	-7.04561
းတို	-7.06437
အကြော	-7.07148
လျ	-7.07484
ရောက	-7.1062
ိမ	-7.12701
လော	-7.13669
▁့၌	-7.13718
မင	-7.14651
မှ	-7.14903
တတ	-7.15719
ဇ	-7.15769
လင	-7.18253
လေ	-7.22125
သား	-7.2417
နေ	-7.25961
တိုင	-7.26743
ကား	-7.27718
ရှိ	-7.28794
သန	-7.31299
ငါတို	-7.31997
ရှေ	-7.3367
ဘုရ	-7.34296
ကျွန	-7.35556
ကြော	-7.38391
ချ	-7.38883
ရပ	-7.38957
အသက	-7.39627
▁့၊	-7.40449
ဖန	-7.40698
▁့၏	-7.42559
ပေါ	-7.42953
အပေါ	-7.43945
ိတ	-7.44427
စိတ	-7.45845
ကဲ	-7.4593
ုတ	-7.47909
ထ	-7.482
ပြန	-7.49481
နို	-7.51977
ငါသ	-7.52202
ျက	-7.52827
သောအခါ	-7.53914
ပါ	-7.57356
မူသ	-7.59226
ပြ	-7.59308
ရာ	-7.59861
းသော	-7.60747
သဖြ	-7.62291
သက	-7.6405
ထွ	-7.654
လုပ	-7.66662
သွား	-7.67162
ထော	-7.67471
ဆို	-7.68122
ခ	-7.6814
ပြု	-7.68148
အတို	-7.68851
ပြစ	-7.6921
ဘက	-7.7102
လိုက	-7.73317
ထိုသို	-7.7454
မူသော	-7.75621
ုန	-7.76025
ထာဝရဘုရားသ	-7.76324
းကင	-7.76899
ကြလော	-7.796
မို	-7.80173
ခေါ	-7.81245
ဝ	-7.81752
စီရ	-7.8186
ှင	-7.81963
ဆော	-7.82147
ပေး	-7.82238
းတော	-7.82437
လွှတ	-7.82602
စစ	-7.83166
ိုင	-7.83681
အစ	-7.84237
အားဖြ	-7.8515
ကျ	-7.86525
သူသ	-7.86784
ယောက	-7.87049
ရှိသော	-7.87129
တန	-7.88049
တောင	-7.89333
လာ	-7.90012
သာ	-7.90558
မိမိ	-7.93593
ဝတ	-7.93996
ပတ	-7.95312
လ	-7.96427
ပူဇော	-7.9693
ခဲ	-7.97277
ဗ	-7.98329
သောသူ	-7.98409
အပြ	-8.00737
သတ	-8.01113
ဂု	-8.01568
နား	-8.02339
သားတို	-8.0276
ဒါဝိဒ	-8.02949
အဘို	-8.02963
တပ	-8.04014
လူ	-8.04042
▁့်။	-8.06826
အော	-8.07832
မတ	-8.08431
ထိုအခါ	-8.08455
တင	-8.08528
လှ	-8.09
လူတို	-8.09271
မုန	-8.09466
သိမ	-8.09874
ထက	-8.10592
ဏ	-8.11093
တယောက	-8.11818
ကယ	-8.12206
ဤ	-8.13467
ဥ	-8.13811
းမူကား	-8.13833
မျ	-8.14027
ပုရောဟ	-8.15749
တွေ	-8.15899
းနှ	-8.16949
ွန	-8.17095
လမ	-8.17867
လုံး	-8.17873
အမျိုးသား	-8.18067
လွ	-8.20606
ဘို	-8.2298
ရန	-8.242
မဟု	-8.24977
ထံ	-8.26435
ပြီးမှ	-8.26452
များ	-8.26595
မြောက	-8.26914
လယ	-8.2868
ိပ	-8.28719
ကြွ	-8.2933
ဃ	-8.29877
တိုက	-8.30367
အဲ	-8.30485
ကြောက	-8.30512
သေ	-8.30687
အံ	-8.31087
အပ	-8.33175
ယေရုရှ	-8.33375
ခံ	-8.35178
အမှု	-8.35963
မက	-8.37371
မူပါ	-8.37638
ဟ	-8.38824
းသို	-8.38919
စပ	-8.3957
အမျိုး	-8.3997
အတူ	-8.40116
အလွ	-8.40275
ဝမ	-8.41277
ကျောက	-8.41351
သောကြ	-8.42386
းဟု	-8.42941
ပလ	-8.43265
သောသူတို	-8.43507
အချ	-8.437
တု	-8.43922
ရိုက	-8.43963
တကွ	-8.44098
ဒ	-8.4421
အခွ	-8.44326
သစ	-8.44344
ဝိညာ	-8.44526
ရကြ	-8.45874
ရက	-8.46589
မှန	-8.47018
များကို	-8.47196
ဣသရေလ	-8.47564
ဆက	-8.47898
းသ	-8.48195
ဣသရေလအမျိုးသား	-8.49522
ထာဝရ	-8.50781
ဘုရားသ	-8.51493
းခြ	-8.51882
ဣသရေလအမျိုး	-8.52365
မေ	-8.52449
းဟူသော	-8.52884
ပရောဖ	-8.52917
စကားကို	-8.52922
တရား	-8.53821
ရှိသ	-8.5429
ဘော	-8.54916
အဘ	-8.54931
ချက	-8.55042
ယူ	-8.5507
ြိမ	-8.5543
ယုဒ	-8.55655
ထုတ	-8.57054
ဝန	-8.57311
ခုန	-8.57402
မှတ	-8.57707
ထား	-8.58188
သကဲ	-8.58623
အတွ	-8.59019
အရ	-8.59736
မီးရှို	-8.59904
းကြီး	-8.6001
သောသူသ	-8.60022
အချိ	-8.60134
ခန	-8.60219
တမန	-8.60966
ပြော	-8.63006
မူကား	-8.63085
ပြီးလျ	-8.63543
ထိုသူ	-8.64952
ကျိ	-8.65806
မိမိတို	-8.66292
ခရ	-8.66719
မှစ	-8.66762
ဖျ	-8.66986
ပည	-8.6732
ရှိသမျှ	-8.68596
အို	-8.68706
ချစ	-8.69031
ဘဲ	-8.70137
စွန	-8.70196
းမ	-8.71119
ပိုင	-8.72241
ကာလ	-8.72649
ရှောက	-8.73123
ကျေးဇူး	-8.7326
ဗို	-8.73375
ိမာန	-8.73474
ရသော	-8.74276
စွာ	-8.74528
ပန	-8.74632
နန	-8.748
အရာ	-8.74847
ဘု	-8.75955
မူပြီ	-8.7612
လူများ	-8.76539
ွတ	-8.77315
ခံရ	-8.77375
ရှု	-8.77401
စား	-8.78422
ထိုကြ	-8.78973
ကွယ	-8.79157
စာ	-8.79327
ွယ	-8.80382
ပြီ	-8.80744
ီအစ	-8.8094
ယုံကြ	-8.81531
နာမ	-8.81534
ဟူမူကား	-8.82284
ထဲ	-8.82323
အမျ	-8.83088
ဒုစ	-8.83553
အန	-8.83645
းဖြ	-8.83767
ျစ	-8.84229
အမိန	-8.8439
နက	-8.85342
လျှော	-8.86641
ထိုန	-8.86774
ဟူ	-8.87564
ထဲက	-8.87982
ိန	-8.88416
ပစ	-8.89188
အမြ	-8.89814
မြေကြီး	-8.90883
စရာ	-8.90993
ချီးမွ	-8.91203
နေသော	-8.92167
ထာဝရဘုရားကို	-8.92422
ယာကု	-8.92512
နေကြ	-8.9302
ပြုသော	-8.94015
ရှိကြ	-8.94141
စကား	-8.94869
ခပ	-8.94981
းစေ	-8.95674
ရွံ	-8.96879
ဖွဲ	-8.97193
ပျ	-8.97278
အခါ	-8.97749
ဆီး	-8.98519
ဘွ	-8.98789
ပျော	-8.99048
ှုတ	-8.99184
မှီ	-8.99301
ကာ	-8.99533
ကျမ	-9.00075
ရှက	-9.00143
မြေ	-9.00224
းရှိ	-9.00315
ထိုင	-9.00656
အမှုကို	-9.01188
ပရိသတ	-9.01405
ယနေ	-9.01715
ဟုတ	-9.0223
နှာ	-9.02258
ယခု	-9.02405
နေရာ	-9.0241
လူအပေါ	-9.03191
အာရု	-9.03383
လျော	-9.03446
လန	-9.04753
ရလိမ	-9.06439
မျှ	-9.06488
စုံ	-9.06565
မစ	-9.07083
းကြ	-9.07279
ငံ	-9.07599
ဝပ	-9.07654
တာ	-9.08466
ကြား	-9.09126
ညှ	-9.09257
ရွက	-9.09337
ွမ	-9.0935
ရှား	-9.09719
ရစ	-9.09746
အရှ	-9.09755
ရေ	-9.10119
ဆာန	-9.10163
အချို	-9.10357
ရဲ	-9.10623
ာ	-9.1091
မရှိ	-9.11547
ချိုင	-9.14008
ရုပ	-9.146
ထိုသူသ	-9.14652
တိရစ	-9.15137
အကျ	-9.16227
အလို	-9.16488
ဖိလိ	-9.16915
ဓမ	-9.17994
ဆုတော	-9.18009
သွ	-9.18211
ကော	-9.18298
သမီး	-9.18459
အခြားသော	-9.19495
တိ	-9.19804
ကြပါ	-9.20212
မြော	-9.20228
တက	-9.20309
တဲတော	-9.20331
ကြီး	-9.20837
လတံ	-9.21447
ချမ	-9.2172
ဘ	-9.21805
သိ	-9.22131
ခို	-9.22481
စီး	-9.23146
ထမ	-9.24034
သွားကြ	-9.24052
ေခြ	-9.24134
ဒန	-9.24508
ကျန	-9.24752
မူလျှ	-9.25744
းချ	-9.2607
လူမျိုး	-9.26075
ကြပြီ	-9.26351
ဗာဗုလု	-9.26523
နှလုံး	-9.27032
တပါးအမျိုးသား	-9.28739
ရှိရာ	-9.28747
ထိုအ	-9.29521
ရှာ	-9.30537
သလော	-9.30539
ခံရသော	-9.30549
သုံး	-9.30651
အညီ	-9.31736
ဆိုသ	-9.31848
များတို	-9.31855
ခိုး	-9.32221
အမြဲ	-9.32845
သားတော	-9.33682
းလျ	-9.33773
စာကို	-9.33804
သောငှါ	-9.34343
အထံ	-9.34923
ုပြည	-9.35141
မုတ	-9.3546
အမ	-9.35742
ထားတော	-9.36114
ငါနှ	-9.36287
စိမ	-9.36987
းကပ	-9.37038
ထာဝရဘုရားက	-9.37644
ပဋိညာ	-9.37757
ရှောလမုန	-9.37807
ာဏ	-9.38222
နားမ	-9.38303
အက	-9.38398
သေတ	-9.385
းရ	-9.38544
းတူ	-9.39037
ရွှေ	-9.39215
ဘိုးဘေး	-9.3932
ဗျာဒိ	-9.39351
မောရှေ	-9.39396
အကြ	-9.40185
ယေရှုသ	-9.40332
နယ	-9.40414
ထာဝရဘုရားအား	-9.41075
မဲ	-9.4111
ဆာ	-9.41138
ပြုကြ	-9.41212
သူမျှ	-9.413
ဦး	-9.41337
ယောသ	-9.41529
တမ	-9.41564
ကျော	-9.42012
ခတ	-9.42397
ဘေး	-9.42525
ယေရှုခ	-9.43377
တံခါး	-9.4397
မိမိအ	-9.44717
းဆဲ	-9.45331
ယော	-9.46317
ီချ	-9.46596
အလျ	-9.46732
းရဲ	-9.47377
သူတပါး	-9.48122
မမူ	-9.48169
ယေရှုက	-9.48379
ချီးမြှ	-9.48558
ခြေအ	-9.48579
ဘွား	-9.48726
ခွန	-9.49466
တဆ	-9.49477
ယုဒလူ	-9.50617
နံ	-9.51345
သူအပေါ	-9.51511
ရေတွ	-9.51585
ပို	-9.51746
▁့၍၊	-9.51841
ရွှ	-9.52025
ရာယ	-9.52282
ဖွ	-9.52943
လာကြ	-9.53085
လောက	-9.53414
တရားကို	-9.5366
ငွေ	-9.53827
ဆိုကြ	-9.53843
ဥယျ	-9.54386
တပါး	-9.55144
-	-9.55468
မယား	-9.55532
မေး	-9.55622
ဆိုသော	-9.55779
ပြေး	-9.55812
အရာတို	-9.56216
မြွ	-9.56326
ထိုက	-9.56674
ထပ	-9.56976
ကန	-9.57306
ညီ	-9.57525
ဧဖရ	-9.57525
နွား	-9.5789
ျား	-9.57999
အိုထာဝရဘုရား	-9.58545
းစွာ	-9.59021
ကြံ	-9.60199
သေခံ	-9.60262
းပေါ	-9.60434
မတရားသော	-9.60452
မေးလျှ	-9.60477
နံန	-9.60555
ခြေ	-9.60984
ွက	-9.60985
ဟော	-9.60996
လူသ	-9.61453
သိတ	-9.62654
းငှာ	-9.62709
ပုန	-9.62752
ခံရကြ	-9.62886
အထ	-9.63042
အရှေ	-9.63346
မပြတ	-9.63528
ဤသူ	-9.64078
အသီးအသီး	-9.64108
များစွာသော	-9.64384
သံ	-9.65279
တိလူ	-9.66281
ထဲမှာ	-9.66448
ပါပြီ	-9.66583
ငြ	-9.66621
အမျိုးအနွ	-9.67088
ဘမ	-9.67103
နေရ	-9.6743
ပါသ	-9.67591
အလ	-9.678
ကရုဏာ	-9.68025
ဆုံးမ	-9.68928
းတွ	-9.6911
နတ	-9.69209
ပေါက	-9.69594
ငှက	-9.70296
လုလ	-9.70552
ထိုနေ	-9.70632
မောရှေအား	-9.70915
ထိုအရ	-9.71307
ရှောလု	-9.71646
ဘုံ	-9.72101
ပညာ	-9.72203
အဆွေအမျိုး	-9.72232
ယောဟန	-9.72429
မမြ	-9.72459
မွေ	-9.72486
မောရှေသ	-9.72659
ထားသော	-9.72758
းသက	-9.7346
းလော	-9.7348
းကြီးပေး	-9.73952
ပြုလျှ	-9.7442
လွှမ	-9.74518
ပြောဆို	-9.74606
လေပြီ	-9.75003
ခမ	-9.75079
ပါစေ	-9.75254
အဆ	-9.75714
ယာမိန	-9.75846
ထိုမှတပါး	-9.75872
မှတပါး	-9.75889
းအားဖြ	-9.7609
မောဘ	-9.76277
▁့်၍၊	-9.76341
းယူ	-9.76741
စာရ	-9.76987
ထမြောက	-9.77042
ကြားလျှ	-9.77493
ချော	-9.77628
ပေ	-9.77674
းမရှိ	-9.78029
ခွ	-9.78275
မြေပေါ	-9.78775
ယုဒရှ	-9.79465
တရားတော	-9.79759
ဟောပြော	-9.7998
မော	-9.79998
ချီ	-9.80171
သူဖြ	-9.80587
ံတော	-9.80601
သုံးဆ	-9.81049
းမသ	-9.81167
လောဟု	-9.81397
သားကား	-9.81721
ွေးကြော	-9.81824
ငိုကြွေး	-9.81921
ဝှ	-9.82176
အစရှိသော	-9.82485
းလွ	-9.82624
ထိုသူကို	-9.82727
သားအပေါ	-9.83088
ထိုကာလ	-9.83276
းလျှ	-9.83286
မှာထားတော	-9.84231
အရာကို	-9.84308
နာ	-9.8504
သောနေ	-9.85107
ထိ	-9.85124
ဥပု	-9.8513
မျိုး	-9.85184
နှိုးဆော	-9.85228
ကြီးစွာသော	-9.85435
ကပ	-9.85764
ဂလာရှိ	-9.85838
မိဿဟာယ	-9.85844
ရှ	-9.86027
တဲ	-9.86099
းလေ	-9.86195
ရှိပါ	-9.86429
ဇိအုန	-9.8647
တကော	-9.86833
ရှော	-9.87002
ဝို	-9.87173
သမျှ	-9.87199
သားဖြ	-9.87313
ဂလာ	-9.87723
ဗက	-9.87754
တကား	-9.87862
လေး	-9.87895
ရှစ	-9.88395
လာသော	-9.88569
ဆီသို	-9.88624
ဧ	-9.88753
သူင	-9.88831
လုံးကို	-9.89024
သိုးသ	-9.89025
သောသူကို	-9.89239
းဝေးရာ	-9.89259
စိ	-9.89378
ဖြေရာ	-9.89946
းသွား	-9.90026
တူ	-9.90163
ရွေး	-9.90164
ယေရှု	-9.90245
မေတ	-9.9035
းကား	-9.90555
းမှ	-9.91032
ပြုပြ	-9.91427
းသာ	-9.91493
ပြတော	-9.91558
ရေကို	-9.91701
သမျှသော	-9.92074
သူနှ	-9.92076
ဩ	-9.92175
ဗတ	-9.92699
အလုံးစုံ	-9.92872
ဂြို	-9.92944
ဟူသော	-9.92951
အသေ	-9.93142
းရာ	-9.93639
ဤသို	-9.93682
းပ	-9.93874
ရွာ	-9.9403
ဤအရ	-9.94093
လာသ	-9.94207
းကြီးသ	-9.94739
သူရဲ	-9.9508
သောအရာ	-9.96005
ရိုး	-9.96151
ပြုရ	-9.96199
သားသမီး	-9.96207
မဖြ	-9.96552
ဆိုရ	-9.96725
ခုတ	-9.96801
တုံ	-9.97046
မူပါဟု	-9.97093
ြန	-9.97112
ပြား	-9.97146
ဆိုလေ	-9.9751
▁?????????	-9.97545
ဂိလဒ	-9.97739
စိုက	-9.97832
မှူး	-9.98067
ကျေးဇူးပြု	-9.98312
းတိမ	-9.98488
ကိုခေါ	-9.98527
ရွေ	-9.98533
စက	-9.98548
စိုးရ	-9.98735
လဲ	-9.99215
ငါပေး	-9.99446
ပြီးသော	-9.99956
ကြေးဝါ	-10.0011
ကြသ	-10.0014
အမိ	-10.0022
နားမှာ	-10.0087
လေဝိသားတို	-10.0107
ထူး	-10.0117
ဣသရေလလူ	-10.0125
ဟုဆို	-10.0207
းထဲ	-10.0221
နှာကို	-10.0252
တိတ	-10.0265
အသင	-10.0274
ပါသော	-10.0356
သိမြ	-10.0424
အလုံးအရ	-10.0427
းဝ	-10.0428
ဒုက	-10.0434
ဲ	-10.0441
ိမိတ	-10.0442
ရိတ	-10.0523
အကျိုးကို	-10.0576
မှားယွ	-10.0577
းမတို	-10.0585
ရပါ	-10.0595
းနို	-10.0617
မထ	-10.0618
မေးမ	-10.0667
ငါးဆ	-10.072
လူသား	-10.0731
ရာအရ	-10.0739
းအ	-10.0763
းစာ	-10.0764
သောက	-10.0774
အားကြီးသော	-10.0797
သားကို	-10.0805
သောအမှု	-10.0856
ကြီးမြ	-10.0858
ဋ	-10.0865
ဝက	-10.0882
အသံ	-10.0928
ရှုတ	-10.0945
ကြီးသော	-10.0951
ကွ	-10.0999
စေသော	-10.1008
မဝ	-10.1025
မာ	-10.1034
မပြု	-10.1037
ဖါရော	-10.1044
ဘောဇ	-10.1081
အဆွေ	-10.1091
မမူပါ	-10.1103
သောအရ	-10.1113
ရသောအခွ	-10.1124
ရှမာရိ	-10.1125
တရားသ	-10.1157
လေးဆ	-10.1164
ဣသရေလအမျိုးကို	-10.1166
ချိ	-10.1179
ပြီဟု	-10.1197
အာရှုရိ	-10.121
ငှါ	-10.122
းတည	-10.1229
တစုံတ	-10.1239
အလျှ	-10.1261
ငါမြ	-10.1281
ကြွလာ	-10.1304
ဦးမည	-10.1312
းများ	-10.132
အခန	-10.1337
အာဗြဟံ	-10.1345
အကျိုး	-10.1364
ရှိသမျှကို	-10.1368
ခါနာန	-10.1368
ဣဇာ	-10.1384
ဟိတ	-10.1389
စုံလ	-10.1398
းကျ	-10.1406
လို	-10.1436
အသွေးကို	-10.144
ကျပ	-10.1454
တကျိ	-10.1462
ဆုံး	-10.1507
ံ	-10.1528
စုံစ	-10.1541
ကြံစ	-10.1559
တုန	-10.1583
သွားသော	-10.1592
အသရေ	-10.1653
ခဏာ	-10.1678
းပါ	-10.1681
တဝါ	-10.1707
ဆုံးသော	-10.1742
????????????????	-10.176
ပညာရှိ	-10.1802
သွားလော	-10.1809
မလိုက	-10.181
းအရာ	-10.1834
သူကို	-10.1876
မှား	-10.1934
ဆီ	-10.1937
မထီ	-10.1962
အရေဖျားလှီး	-10.1965
အားကြီး	-10.1978
အမွေ	-10.198
စီ	-10.1984
ကမ	-10.1993
ထုံး	-10.2015
းသောသူတို	-10.2045
▁??????????	-10.2046
ဆုပ	-10.206
အသီး	-10.2102
အာမ	-10.2119
ပွဲ	-10.215
စိုးစံ	-10.2156
စော	-10.2181
ရွေးက	-10.226
းကြလော	-10.2286
ငါသိ	-10.2291
ဂတိ	-10.2311
အနားမှာ	-10.2314
သုံးရက	-10.2322
ထားကြ	-10.2347
ပြပ	-10.2351
ကျူး	-10.2386
မတရားသောသူ	-10.2407
သနား	-10.2422
တနေ	-10.2426
ယာ	-10.2451
ဖာရော	-10.25
ရင	-10.2522
စိုး	-10.2538
ပွ	-10.2561
နှံ	-10.2586
အကြီး	-10.2602
သိကြ	-10.2618
ယောရှ	-10.2619
လုယူ	-10.2621
အသေသ	-10.265
ချိုး	-10.2653
ဣသရေလရှ	-10.2673
အထဲ	-10.2703
ဖတ	-10.2738
ကွပ	-10.2743
ိုလ	-10.2747
ကြိုးစား	-10.2755
မြေမှ	-10.2758
ကာကို	-10.2812
ဘုရားကို	-10.2841
အဆက	-10.2851
မျိုးစေ	-10.2873
ဌာန	-10.2879
အမှီပြု	-10.2887
မိ	-10.29
ရှောလုသ	-10.2939
းသောသူ	-10.2942
ဟာမ	-10.2998
သွားလေ	-10.3058
အသွေး	-10.3064
ရာသို	-10.3072
တံခါးဝ	-10.3103
ကိုမြ	-10.3105
ရာဇ	-10.3127
နှလုံးကို	-10.3155
ကိုသာ	-10.3167
သေကြ	-10.3169
ကျက	-10.3198
စားသောက	-10.3208
မချ	-10.3227
သိပ	-10.3232
သောအ	-10.3247
ထိုမ	-10.3341
မှူးမ	-10.3372
သိရကြ	-10.3375
ဂဒ	-10.3384
လေဝိသား	-10.3398
ဆီးတား	-10.3402
စားစရာ	-10.3406
ပါစေသော	-10.343
မူကြ	-10.3452
ကုလားကာ	-10.3466
ဖာရိရှဲ	-10.3467
ယောနသ	-10.348
▁????????????	-10.3481
သူပြည	-10.3492
စားရ	-10.3494
ယေရော	-10.3496
ပြတ	-10.3503
းတန	-10.3503
နေသ	-10.3544
ွေးဆ	-10.3551
ကိုယူ	-10.3563
ဆိုလျှ	-10.3567
အမျိုးမျိုး	-10.3666
ဆရာ	-10.3684
သိုးထ	-10.3685
ဇာ	-10.369
တခု	-10.369
အာဟ	-10.3734
ပါလျ	-10.3742
▁???????????	-10.3767
ကွဲ	-10.3771
ဘဲနေ	-10.3833
ခိုက	-10.3843
ပါလော	-10.3851
နေတော	-10.3855
အကြံ	-10.3891
ယခုမှာ	-10.3925
သားများ	-10.3928
ယုဒအမျိုးသား	-10.3936
အမျိုးကို	-10.3973
ရှုရိ	-10.3979
းအမှု	-10.3987
?????????	-10.3995
မပျ	-10.401
ဍာ	-10.4038
ဘူးသော	-10.404
ဧဒုံ	-10.4051
မနှ	-10.4074
ပူ	-10.4091
ရှိစေ	-10.4095
ကိုမျှ	-10.4109
မကျ	-10.4128
သောလမ	-10.4135
ခံကြ	-10.4158
ထားနှ	-10.4164
ဆုတ	-10.4169
အိုဘုရား	-10.4178
ဖုံး	-10.4181
သားမြေး	-10.4213
လူအမျိုးမျိုး	-10.4231
ရွေးန	-10.4246
ဘတ	-10.4256
ဣသ	-10.4271
စမ	-10.4276
လူကို	-10.4291
အသံကို	-10.4293
ရဲရ	-10.4296
သံကို	-10.4309
တိမ	-10.433
းလူသား	-10.4359
မီး	-10.4399
ပေးသော	-10.4402
ရဲတို	-10.4404
ဆွဲ	-10.442
ပြောသော	-10.4426
းစရာ	-10.4458
အမှုအရာ	-10.4484
ရုဗ	-10.4485
ပြုစု	-10.4512
သလောဟု	-10.4514
းဘော	-10.4521
မီးဖြ	-10.4538
စားပွဲ	-10.4564
အနား	-10.4583
ပဌမ	-10.4587
ပြောကြ	-10.4601
းများကို	-10.464
သူရဲတို	-10.4659
ယေရမိ	-10.466
ရေသ	-10.4662
ပြေးကြ	-10.4676
ပေးသနား	-10.4687
အလိုက	-10.4688
းအကြော	-10.4704
စားကြ	-10.4705
ပြောဆိုကြ	-10.4706
မြေကို	-10.4718
ပြီး	-10.4731
ရိပ	-10.4746
ထုန	-10.4755
ဝေါ	-10.4767
သောသူအပေါ	-10.4769
အနှ	-10.477
နှလုံးသ	-10.4809
ချယ	-10.4816
ဗာလ	-10.4818
းမကို	-10.4826
သောအရာကို	-10.483
သဘော	-10.4837
ယောရှု	-10.4843
သေး	-10.4843
အရိုး	-10.4847
အာ	-10.4879
မှုတ	-10.4893
ငါအမှ	-10.4915
ဘိသိ	-10.4921
းဝေး	-10.4933
ပေါလု	-10.5001
းဝပ	-10.5005
အလိုငှါ	-10.5011
အဝ	-10.5012
များစွာ	-10.5032
မနေ	-10.506
စာစ	-10.5066
မိက	-10.5076
ကြက	-10.5079
ထံမှ	-10.5103
ခွဲ	-10.5126
စို	-10.5138
ယေရှုကို	-10.5149
ဝါကြွား	-10.5162
ပုံ	-10.5172
းသောအရာ	-10.5172
ဖြေ	-10.5174
သားရဲ	-10.5176
ပြုလျ	-10.5205
အဘသ	-10.5214
ညှိုး	-10.5218
းတတ	-10.5222
ရှားစေ	-10.5228
ချို	-10.5234
အခြားတပါးသော	-10.5245
းတွား	-10.5246
ကျေးဇူးကို	-10.5258
ဆိုလျ	-10.5267
ငွေကို	-10.53
ထသော	-10.5303
ဤအ	-10.5343
မြေကြီးကို	-10.5348
နာမကို	-10.5353
စပါး	-10.5357
နေဗု	-10.5362
တံဆ	-10.5368
းသတ	-10.5376
▁?????????????	-10.5389
ထာဝရဘုရားထံ	-10.5411
သီး	-10.5412
အလိုအလျ	-10.5415
တရာ	-10.5425
ဗိမ	-10.5436
အနာ	-10.5446
ရှလ	-10.5461
မှားသော	-10.5476
းမနှ	-10.5486
တေ	-10.5487
ီးချ	-10.5495
စုဝေး	-10.5503
အာဏာ	-10.551
ပါဟု	-10.5524
လွှဲ	-10.5538
သမ	-10.5599
▁့၏။	-10.561
မုဒ	-10.5612
းနှီး	-10.5623
ရဟု	-10.5633
မျှော	-10.5657
ထိုသူအပေါ	-10.5678
ငါပြု	-10.5683
ဝံ	-10.5693
စုံသော	-10.5704
းစွာသော	-10.5735
ယှ	-10.5737
ရော	-10.5743
ကျွေး	-10.5763
ထားလျ	-10.5782
▁????????	-10.5808
ကြားပြော	-10.5817
ကြမ	-10.5819
ာပေါ	-10.5845
စေတနာ	-10.585
ရှိရ	-10.5861
ာဗန	-10.5865
ပြုသ	-10.5871
မသိ	-10.5878
ခေရု	-10.5902
သောသူမူကား	-10.5924
ကြသော	-10.5946
းအမှုကို	-10.5975
ဟေဗြ	-10.5994
ဥပဒ	-10.5995
ဆံပ	-10.6
းရှိကြ	-10.6002
ရွံရှာဘ	-10.6016
းခံ	-10.6017
အစိုးရ	-10.6035
မူစေသ	-10.6035
ရေး	-10.6042
မိဘ	-10.6068
ကူး	-10.6073
လောကီ	-10.6076
မသောက	-10.6081
ငါအပ	-10.6083
ဂလာကို	-10.6092
မာန	-10.6108
ရုံး	-10.6114
သေရ	-10.6125
ဆုံးဖြ	-10.6126
▁၌၊	-10.6128
းဆီး	-10.6128
ဤအမှု	-10.6154
အစိုးရသော	-10.6159
ဖလား	-10.6162
ဆိုး	-10.6201
မြက	-10.6203
ဝါးက	-10.6215
ဆပ	-10.6247
ရထား	-10.6262
ကြီးသူ	-10.6262
မှာထား	-10.6277
သောအမှုကို	-10.6289
မဆ	-10.629
းစံ	-10.6315
ယောရှုသ	-10.6331
ရှိသမျှသော	-10.6356
မယားကို	-10.6371
းထ	-10.6384
းထဲက	-10.6388
တွန	-10.6395
နိ	-10.6396
ပေတရု	-10.6404
သူန	-10.6417
ခံသော	-10.6425
းပြု	-10.6436
ကြားမှာ	-10.6437
မီးလ	-10.6452
ပေါလုသ	-10.6459
မူပြီဟု	-10.6485
ပေတ	-10.6517
ရွံရှာ	-10.6519
ပေးရ	-10.6527
အာခ	-10.653
အာရဇ	-10.6534
ယုဒအမျိုး	-10.6536
းလဲ	-10.6548
တုလူ	-10.6572
ထားရ	-10.6574
နေရာအ	-10.659
းသာပေး	-10.6594
ထိုအမှုကို	-10.6595
အဘိမ	-10.662
ခုနှ	-10.6628
ိ	-10.6661
ိမှတ	-10.6674
စေဟု	-10.6692
ထံမှာ	-10.6695
ျာလ	-10.6699
ငံကို	-10.6701
လူဆိ	-10.6704
ရသ	-10.6723
သံလွ	-10.6726
ဂါလိလဲ	-10.6731
ဆေး	-10.6754
ထိုအတူ	-10.6765
ဖ	-10.6784
ထိုအကြ	-10.6802
ဖြိုဖ	-10.6813
လေဗန	-10.6814
ငါပြော	-10.6815
ဂလာရှိကြ	-10.6817
သိန	-10.6818
သားဦး	-10.6845
တထ	-10.6849
ခံသောသူ	-10.6855
စာရေး	-10.6874
စုဝေးစေ	-10.6891
အခြား	-10.6917
ထားဘေး	-10.6957
ယခုမူကား	-10.6964
မှည	-10.6969
မရှိဘဲ	-10.6972
တုတ	-10.699
မူရာ	-10.6999
ပိုက	-10.7013
ကွက	-10.7033
ကျွေးမွေး	-10.7035
စားသော	-10.7048
ရေက	-10.7069
မပြော	-10.707
သားနှ	-10.7085
မပ	-10.7095
အမွေခံ	-10.7097
▁်၌၊	-10.7101
မစိုးရ	-10.7111
ဖဲ	-10.7115
ဗာလမ	-10.7119
သွေ	-10.7124
နေရကြ	-10.7135
သားသ	-10.7141
းမိုး	-10.7184
အရာရှိ	-10.7204
းရဲသား	-10.721
ဟန	-10.7213
ဒုတိယ	-10.7218
မိဒျ	-10.7246
ထိုမျှမက	-10.7247
တညီတည	-10.7248
ကုလားအု	-10.725
ဆိုးမ	-10.7265
ခရီးသွား	-10.7272
ဧဝံဂေလိတရားကို	-10.7312
လွှ	-10.7329
ြိုင	-10.7339
ရေးထား	-10.7348
ထိုအမှု	-10.7367
ကိုသတ	-10.7378
ပညာကို	-10.7395
ပေးကြ	-10.7399
ဤအမှုကို	-10.7407
လူတယောက	-10.7408
ငါဆိုသ	-10.7408
ဤလူမျိုး	-10.7413
လှဲ	-10.7463
ဆူး	-10.7479
မထွ	-10.7498
မသတ	-10.7501
အလိုရှိ	-10.7517
ပေတရုသ	-10.752
အားပေး	-10.7531
အနံ	-10.7534
ဟုဆိုလျှ	-10.755
ျာဘက	-10.7551
ဗေသလ	-10.7558
ဟုဆိုသော	-10.7559
ရာလမ	-10.7581
ငါစေ	-10.7583
စွဲ	-10.7593
မဆို	-10.7614
စွဲလ	-10.7629
စကားသ	-10.763
နေဇာ	-10.764
အရေ	-10.7644
အနီး	-10.7648
တံခါးတို	-10.7649
ညဦး	-10.7656
ဘူး	-10.7664
ယွာဘ	-10.7665
ကိုချ	-10.7671
ဖုံးအ	-10.7687
ပဋိ	-10.77
ရှိသမျှသ	-10.7703
ဗာရှ	-10.7716
အထွ	-10.7725
မလွ	-10.7726
မူပါစေသော	-10.773
အထဲက	-10.7761
ဆာကို	-10.7775
ဒုတ	-10.7822
သမား	-10.7832
ရှေခ	-10.785
ဧသော	-10.785
ရွာတို	-10.7863
ပါပြီဟု	-10.7904
းဟူ	-10.7905
မယ	-10.7928
ဆံ	-10.7929
ထားဖြ	-10.7956
အသီးကို	-10.7972
တံပိုးမ	-10.7975
ရှိမ	-10.7982
ယောဘ	-10.8003
ကြားသောအခါ	-10.8017
းဆို	-10.803
ဘိုးဘေးများ	-10.8031
ဂါ	-10.8054
မစားရ	-10.8058
းမဲ	-10.8078
ရှိန	-10.8083
ကြားရ	-10.8087
မယုံကြ	-10.8093
ဓာ	-10.81
လူအစုအဝေး	-10.8101
ငါမ	-10.8113
မြေး	-10.812
ခံယူ	-10.8152
မရှိသော	-10.8155
▁့်၏။	-10.8177
ပိလတ	-10.8177
သွားရ	-10.8183
မခံ	-10.8213
ယူသွား	-10.8216
မရှိရ	-10.8224
ဖော	-10.8245
အသားကို	-10.8267
????????	-10.8268
အရေအ	-10.827
ဆဲ	-10.8277
ကြဲ	-10.8281
ကြပါပြီ	-10.8284
ပုံသ	-10.8287
မောရှေက	-10.8289
ထားလေ	-10.8327
ပေးလို	-10.8339
ယခုတွ	-10.8399
ဂ	-10.8404
လူနှ	-10.8425
ရာဇဝ	-10.8436
းမြော	-10.8447
ထိုစကားကို	-10.8453
မေးသော	-10.8461
တရားစ	-10.8471
ဤလောက	-10.8491
တပါးတ	-10.8509
အသီးသီး	-10.8519
လေဝိ	-10.8537
ရှိလျ	-10.8543
းအသရေ	-10.8548
မပေါ	-10.8577
နီး	-10.859
ငါဆော	-10.859
အသရေကို	-10.8591
မန	-10.8599
းစီးသူရဲ	-10.8603
အသေခံ	-10.8623
ရှိသောသူ	-10.8652
စုံဘ	-10.866
းပြုဆရာ	-10.8677
စားရကြ	-10.8678
ခံစေ	-10.8687
ဘောသ	-10.8692
ရှုရိလူ	-10.8726
ပြောရ	-10.8733
လျှာ	-10.8738
းနားမှာ	-10.8747
ယေရု	-10.8747
▁??????????????	-10.8756
းရှိသ	-10.8768
ဒါ	-10.8777
ျာ	-10.8783
သဘောကို	-10.8784
ကျို	-10.8795
နေလေ	-10.8808
စီးသော	-10.8818
မပေး	-10.8819
ဒမာသ	-10.8845
ကြဟု	-10.8853
ကိုပြု	-10.889
မလှ	-10.89
းရဲသောသူ	-10.8901
နီ	-10.8902
းမက	-10.8904
တံ	-10.8923
စွာနေ	-10.8945
အခက	-10.8949
▁?????	-10.895
ရိုးကို	-10.8968
ဆိုးသော	-10.897
စိကို	-10.8979
သွားသောအခါ	-10.8993
စုံစေ	-10.8997
ဆုံးရှုံး	-10.9006
ာခေါ	-10.9022
▁၏၊	-10.9028
တရားသူကြီး	-10.9041
တကားဟု	-10.9043
လူဆိုး	-10.9043
မအော	-10.9044
ို	-10.9064
ယေရိခေါ	-10.9065
ဧလိယ	-10.9084
တံခါးကို	-10.9089
းထံ	-10.9102
အနှံ	-10.9104
ဟုဆိုလျ	-10.9107
မနာရှေ	-10.9116
တီး	-10.912
းရာဌာန	-10.9156
းတမ	-10.9157
အိုင	-10.917
ရှားသော	-10.9182
းအလိုငှါ	-10.9187
ရောဗ	-10.9189
မူသောသူ	-10.9193
အရာရာ	-10.9197
မီးခ	-10.9241
ခြေရ	-10.9281
ကြသလော	-10.9291
သောစကားကို	-10.9301
ငါပေးသော	-10.9315
နားတော	-10.9321
ဆိုးည	-10.9321
▁???????	-10.9321
းမရှိဘဲ	-10.9329
အစာကို	-10.9338
မူသမျှ	-10.935
းခရီး	-10.9352
ရွှေစ	-10.9357
မဖ	-10.9362
အစာရှ	-10.9389
းချကြ	-10.939
ဒံယေလ	-10.9409
လေရာရာ	-10.9413
မမှတ	-10.9421
ရာကို	-10.9424
ချီသွား	-10.9428
ရေလ	-10.9429
သွားပြီး	-10.9438
သောသဘော	-10.9455
မူလျ	-10.9463
မာသော	-10.9466
ခါလဒဲ	-10.9468
ပရိ	-10.948
ကွာ	-10.9485
ဆိုလိုသ	-10.9488
မရ	-10.9496
သေလ	-10.9499
လိပ	-10.9515
းမောတွေဝေ	-10.953
မာရိ	-10.956
မလျော	-10.957
ပဲ	-10.9582
သတိပြု	-10.9583
းပွ	-10.9591
းကိုခံရ	-10.9596
းထား	-10.962
အမျှ	-10.9645
မြေတ	-10.9647
ထားကို	-10.9657
ဝေ	-10.9667
မာရ	-10.9671
ငါကြား	-10.9683
လုံ	-10.9693
ချလျ	-10.9705
အခါမ	-10.9709
ဧလိ	-10.9718
ချကြ	-10.9727
လျှို	-10.9732
းအရာကို	-10.9734
မတရားသ	-10.9742
ဦးချို	-10.9751
မှာရှိသော	-10.977
အစေခံ	-10.9776
ရေးထားလျ	-10.9786
နေရာချ	-10.9795
ဧလာဇာ	-10.9797
တုရု	-10.9812
းအပေါ	-10.9813
တရ	-10.9816
များသော	-10.9841
အထူး	-10.9858
ရှာဘ	-10.987
ယခုပ	-10.9896
မသိမ	-10.9905
ကာလပ	-10.9923
ပု	-10.9932
မှဆ	-10.9934
းစား	-10.9954
ယုံ	-10.9955
ကြာမြ	-10.9962
တုကို	-10.9963
ကြိုးစားအား	-10.9971
လူပျို	-10.9984
လွှား	-10.9989
ဦးစွာ	-10.999
စု	-10.9994
ခဏ	-11.0013
နေလော	-11.0016
ူးခြ	-11.0037
အကြံအ	-11.0064
မျှမရှိ	-11.0066
တစုံ	-11.0068
လိုသောငှါ	-11.0072
သောအကျ	-11.0072
ထိမိ	-11.0121
ဟတ	-11.0127
ပြုပါ	-11.0136
ခါးပ	-11.0145
အကြီးအကဲ	-11.0147
လူစု	-11.016
းခြား	-11.0164
ပြုလေ	-11.0164
သေသော	-11.0173
စေရ	-11.0174
မဆော	-11.0235
းပြီးမှ	-11.0251
သောအပြ	-11.0256
ထာဝရအ	-11.0264
အိုဣသရေလအမျိုး	-11.0286
အားန	-11.0286
ဆွေ	-11.0288
▁???????????????	-11.0294
သူကြီး	-11.0302
ခံလျ	-11.0307
ထိတ	-11.0313
သိုးနွား	-11.0313
အာဗြဟံသ	-11.0314
ရှေးကာလ	-11.033
ငါးနှ	-11.0339
စေကြ	-11.0346
ညဦးယံ	-11.0348
မွှေးက	-11.0353
ေရုဒ	-11.0359
တူသော	-11.0373
သွေး	-11.0383
ထားသ	-11.0384
ဆိုတော	-11.0416
ကိုကား	-11.0427
ျားသ	-11.0428
ရှိလော	-11.0428
တစုံတခုကို	-11.0453
မသနား	-11.0453
ဇာခရိ	-11.0471
ဘာသာ	-11.0473
▁??????	-11.0484
းမံ	-11.049
ဤမျှ	-11.0501
ဆာတို	-11.0501
းရေ	-11.0505
အဆွေအမျိုးအ	-11.0508
မပြုရ	-11.0523
ဟောပြောသော	-11.0528
ချေ	-11.0543
ခက	-11.0544
တယ	-11.055
ရှံဆု	-11.0552
ဂိဒေါ	-11.0553
ပြုသောသူ	-11.0557
ရှိပါသ	-11.0581
လူများကို	-11.0583
ရှုံး	-11.0613
နေသောသူ	-11.0615
ကြပါစေသော	-11.0624
ခါ	-11.0628
သွားကြလော	-11.0637
ထရံ	-11.0638
းရာဌာနတော	-11.0644
စပါးကို	-11.0647
သောဒုံ	-11.0653
ဆုံးမဩဝါဒပေး	-11.0657
မျှကာလ	-11.0659
ဇေရ	-11.0666
ကိုးစား	-11.07
ပြက	-11.07
များပြား	-11.0702
းတရား	-11.0708
လူများအပေါ	-11.072
သဘောရှိ	-11.0728
ဇာဗုလ	-11.076
စကားဟူမူကာ	-11.0769
ဇိဒ	-11.0769
စောစောထ	-11.0771
းတရားကို	-11.0783
ခံရသ	-11.0795
အပြား	-11.08
ပြောသ	-11.08
ညှိုးန	-11.0814
အသံနှ	-11.0851
မိတ	-11.0853
မှု	-11.0862
သမျှကို	-11.0869
သေစေ	-11.0905
အမျိုးသ	-11.0914
ပါးတို	-11.0915
ငါပြ	-11.0922
ဗော	-11.0945
ရှာကြ	-11.0969
ဒရာ	-11.097
မှီဝဲ	-11.0973
ဂိဗာ	-11.0974
တရားနှ	-11.0983
ဂိဗ	-11.0984
ဒကဲ	-11.0987
းဝေးကြ	-11.0988
ပျို	-11.1006
လပ	-11.1034
မသာ	-11.1056
ညူးစေ	-11.1065
ဟာ	-11.1081
စာတော	-11.1086
သောသူနှ	-11.1089
ဖြူ	-11.11
တဆေး	-11.1109
လောကီသား	-11.1129
ပကတိ	-11.1131
သီးကို	-11.1134
ဆီနှ	-11.114
ဗာရ	-11.1141
မိဖုရား	-11.1141
တကာ	-11.1157
ပုရော	-11.117
စာနှ	-11.1177
ပေးပါ	-11.1196
မရှိစေ	-11.1201
အဗရှလုံ	-11.1223
ခါး	-11.1226
ဟုဆိုသ	-11.1257
းဆ	-11.1258
းပေါက	-11.126
မပါသော	-11.1267
ရိမ	-11.1273
စာဖြ	-11.1292
းရှော	-11.1298
စားခ	-11.1306
ရှမွေလ	-11.1316
ရွှေနှ	-11.1316
ဆီဥ	-11.1324
အမှုသ	-11.1354
ခြေကို	-11.1381
မဟာ	-11.1383
လှံတံ	-11.1391
အနာဂတ	-11.1412
▁့၌၊	-11.1414
ငါကြ	-11.1418
ကွန	-11.1428
မိမိနှ	-11.1441
နေပါ	-11.1494
ဖက	-11.151
မသိသော	-11.1512
ထိုသူနှ	-11.1519
းချက	-11.1522
းဖျ	-11.154
တံခါးစ	-11.1543
ခု	-11.1546
ပြောလော	-11.1554
ရူပါရုံ	-11.1558
ကျီ	-11.1561
ခြေန	-11.1601
ငံသား	-11.1613
နေရာကျ	-11.1616
သောသူအား	-11.1621
နူးည	-11.164
မိဇပါ	-11.164
ငါဆို	-11.1645
သူအိ	-11.1662
ရာမ	-11.1664
ဟေဇကိ	-11.1666
ဟေဇကိမ	-11.1671
းစာလာသ	-11.1679
ကိုရ	-11.1682
စိက	-11.1693
ယာယ	-11.1703
ဆာရှိသမျှ	-11.1734
ထူထ	-11.1745
ြို	-11.1749
းခုံ	-11.1757
ပြုစေ	-11.1758
းဘေး	-11.1764
ထုံးစံ	-11.1769
သေသောသူ	-11.1777
သိုးစု	-11.1781
အိုး	-11.1795
းသောအခါ	-11.1806
တစုံတခု	-11.1811
ညံ	-11.1819
နာသန	-11.1821
ရွတ	-11.1823
ကိုဆ	-11.1849
ပြီးသ	-11.185
ခိုလှုံရာ	-11.1853
မာတရား	-11.1854
ားထ	-11.186
ဒေါသ	-11.1881
မြေကြီးတ	-11.1889
ကာဘို	-11.1896
သောအခွ	-11.1902
ထိုဘုရား	-11.1906
ရှောလုက	-11.1942
ခံရသောသူ	-11.1966
မိမိနေရာ	-11.1988
ယောန	-11.2005
လေးသော	-11.2024
ခြေစွ	-11.2037
မပြန	-11.2061
ာဟတ	-11.2061
ဒေါ	-11.2064
အဘိုး	-11.209
မြှော	-11.2094
ယေဇရေလ	-11.2111
ထားခြ	-11.2124
အလိုရှိသ	-11.2128
ငွေရ	-11.2162
မရဏာန	-11.2164
ငါပြန	-11.218
မောရှေကို	-11.2227
းသောကြ	-11.2233
ရိုသေ	-11.2234
ထာဝရဘုရားပေး	-11.2256
နေရစ	-11.2257
နေလျ	-11.2258
ဗာလက	-11.2264
ပြေ	-11.2272
အနာကို	-11.228
သွားပါ	-11.2285
မလာ	-11.2285
ျားရ	-11.2323
ဌာနတော	-11.2347
မယားနှ	-11.2352
ခရီးဦးကြိုပြု	-11.2356
မြှား	-11.2357
ယောယကိ	-11.236
ဍာန	-11.2372
မာစေ	-11.2376
သိရ	-11.2379
ရုန	-11.2381
ဩဇိ	-11.2383
ရှားစွာ	-11.2385
မထော	-11.2387
အစာ	-11.2393
းကြီးကို	-11.2397
ရှို	-11.2398
းမြ	-11.2406
သိစေ	-11.2412
ရှာသော	-11.2418
မထား	-11.2433
းအခွ	-11.244
ုံမက	-11.2453
မိစ	-11.2486
အကြံရှိ	-11.2494
သွားစေ	-11.2503
မိမိဘုရား	-11.2504
ဟေရှ	-11.2507
းပါး	-11.2543
ောဟတ	-11.2544
ခိုးကြီး	-11.2547
းအရ	-11.2548
းဘိုး	-11.2556
မှပြ	-11.2562
ဗာ	-11.257
သားစ	-11.2573
ဗာလဘုရား	-11.2574
များပြားစေ	-11.2575
မျိုးကို	-11.2576
အလျား	-11.26
စိရ	-11.2601
းသောအ	-11.2606
အကြေး	-11.2611
ဒူး	-11.2624
ငါဖြ	-11.2625
ဓ	-11.2637
ပုပ	-11.2654
နေစ	-11.2655
တာကို	-11.2666
ငါပ	-11.2673
သိသော	-11.2674
မီးကို	-11.2675
းဘိုးကို	-11.2697
းအခြား	-11.2699
းရှိသမျှ	-11.2713
ပေတရုက	-11.2728
မကယ	-11.2733
မရှ	-11.2737
းနား	-11.2741
ကြားသော	-11.2745
ူ	-11.2763
းခို	-11.2767
နှလုံးအ	-11.2767
တဦး	-11.2783
းတု	-11.2786
သွားလာ	-11.2804
ကြစေ	-11.2808
တမျိုး	-11.2813
ရပြီ	-11.2829
ရွှေငွေ	-11.283
သတိပေး	-11.2839
မောရှေန	-11.2841
အာမောရိ	-11.2845
ငါးရာ	-11.2863
မီးလျှံ	-11.2865
ကြီးပွား	-11.2865
ကြာ	-11.2869
သုံးကြ	-11.2875
မိမိသား	-11.2875
မိသော	-11.2889
းသီး	-11.2897
တရက	-11.2902
လေးရာ	-11.2911
ခါနနိလူ	-11.2925
ဖေါ	-11.2987
ထိမ	-11.2994
အတူရှိ	-11.2999
မှုကို	-11.3044
မိလျှ	-11.3047
းသောသူသ	-11.3049
သေးသော	-11.3077
ပဌနာ	-11.3089
သူမျှမ	-11.3099
စကားပြော	-11.3107
တာရှ	-11.3107
ခိုလှုံ	-11.3111
အလိုလို	-11.3111
ငါးထ	-11.3116
ဝဲဘ	-11.3116
းရဲသော	-11.3122
းသောအရာကို	-11.3122
နူနာ	-11.3123
ဂိလဂါလ	-11.3124
အာမောရိလူ	-11.3124
ကာလကို	-11.3128
ဘိတ	-11.3139
းကိုခံရသော	-11.315
မုသာစကားကို	-11.3155
မအမှုကို	-11.3168
များပြားသော	-11.318
ားတတ	-11.3185
မရှိပါ	-11.3188
ထိုအရာ	-11.3188
ဧက	-11.3191
သေဘေး	-11.3193
သေသ	-11.3206
ကြပြီဟု	-11.3223
ယောရှိ	-11.3232
ရှေမာယ	-11.3253
မြဲ	-11.3257
အသီးအနှံကို	-11.3267
ရောနှော	-11.3271
ဟုန	-11.3274
ဇာတိပကတိ	-11.3289
မြေကြီးသ	-11.3292
အဆွေအမျိုးသူကြီး	-11.3297
ရှိသေး	-11.3311
မပြ	-11.3313
ပြောဆိုသော	-11.3316
ခြေတို	-11.3344
မိမိလူ	-11.335
အများ	-11.3353
ဂေါ	-11.3361
ချသော	-11.3371
ကြွေး	-11.3374
နော	-11.3381
ဟာဒဒ	-11.3395
ပျိုသော	-11.3407
ဆီကို	-11.3428
နောဧ	-11.3438
ဘာအဆ	-11.344
ပသခါပွဲကို	-11.3442
လှေ	-11.3443
အာဂ	-11.3445
ွှန	-11.345
နွားသ	-11.3454
မစား	-11.3461
အခြားသောသူ	-11.3471
မယုံ	-11.3481
ကိုဆော	-11.35
ဝေး	-11.3513
းသာရ	-11.3524
းသောအကျ	-11.3529
ကျိုး	-11.3554
မရှိဟု	-11.3559
ခွေး	-11.3564
အဟိမ	-11.3567
သမီးသ	-11.3569
ပြုမူသော	-11.3579
စိနှ	-11.3589
လှံ	-11.3592
ျားကို	-11.3597
ကြိုး	-11.361
ဦးညွ	-11.3613
သားဘွား	-11.3633
လေပြီတကား	-11.3633
ပြို	-11.3637
ရှာဖွေ	-11.3639
းအပြ	-11.3649
ဘုရားအား	-11.3654
လာပါ	-11.3671
သိနာတော	-11.3672
ပလွံ	-11.3673
ပြသော	-11.3681
မကြ	-11.3682
သူတပါးကို	-11.3682
ကာရ	-11.3684
ဖို	-11.3685
လုယ	-11.3694
ဖုတ	-11.3696
ပြုတ	-11.3706
အာမလ	-11.3718
ခာ	-11.372
စကားနှ	-11.3728
းဆိုကြ	-11.3743
ညူးသော	-11.3745
ဆွဲထား	-11.375
ျှင	-11.3759
တစုံတခုကိုမျှ	-11.3766
ရအံ	-11.3777
ဂါသ	-11.3787
ခံလေ	-11.3793
ကောရ	-11.3796
သူများ	-11.3801
နေစေ	-11.3809
မခံသော	-11.3814
ဣသရေလအမျိုးသ	-11.3817
မျှလ	-11.3828
ဧဝံဂေလိတရား	-11.3832
းအရာသ	-11.3852
တတိယ	-11.3854
သောအထ	-11.388
တသက	-11.3889
▁????	-11.3892
မြေကြီးသား	-11.3896
ိုက	-11.3947
ပခုံး	-11.3954
ဓေယူ	-11.3958
လာပြီ	-11.3958
တံပိုး	-11.396
နာဇရ	-11.396
ဗေလ	-11.3964
စေပြီးမှ	-11.398
ဖိန	-11.3983
စားစရာကို	-11.3988
ပါး	-11.3993
ဟောပြောကြ	-11.4004
စုံခြ	-11.4005
အနိ	-11.4007
နုန	-11.4022
ကိုပေး	-11.4029
ကွဲပြားစေ	-11.4036
အသွေးနှ	-11.4039
ကာလအ	-11.4049
းကြီးမ	-11.405
မကြား	-11.4053
ပဌနာပြု	-11.4057
မမေ	-11.4062
ဘာ	-11.4063
းဘဲ	-11.4071
မှာရှိ	-11.4073
အမျိုးမျိုးသော	-11.4073
မီးခိုး	-11.4092
မွေး	-11.411
ရွှေလ	-11.4119
ငွေနှ	-11.4121
တူး	-11.413
စွာသော	-11.4141
သောနော	-11.4143
အရာနှ	-11.4157
လူအများ	-11.4159
စရာရှိ	-11.4166
ပြားကို	-11.4169
ပြုသောအမှု	-11.4172
ကွဲပြား	-11.4181
ဘေးလွ	-11.4181
သေကို	-11.4187
ု	-11.4192
ထိုသူက	-11.4198
ငါရေး	-11.4208
းကိုခံ	-11.4224
အသား	-11.4225
ကျေး	-11.423
နဿလိ	-11.4239
စကားသံကို	-11.4239
မသိကြ	-11.424
တခါ	-11.4241
ပွဲကို	-11.4276
းရှိသော	-11.4288
တာရှု	-11.4297
သတိ	-11.4297
ကုရှ	-11.4298
ငွေအ	-11.4302
ကာလက	-11.432
များကြ	-11.4328
တိဇံကို	-11.433
အမဲသားကို	-11.435
ရိ	-11.4353
မမှီ	-11.4386
ှတ	-11.4386
သောကာလ	-11.4387
ပေးလေ	-11.4389
ကြံကြ	-11.4412
ထကြ	-11.4428
ဝေးသော	-11.443
လူတ	-11.4444
အဆုံး	-11.4448
ယေ	-11.4453
ဧလျာ	-11.4462
မုသာ	-11.4471
ခြေသ	-11.4472
ပြုကြပြီ	-11.4507
ပေါလုကို	-11.4511
စားတော	-11.4514
သမီးကို	-11.4522
နေရသော	-11.4541
အနွ	-11.4542
ပေရသိ	-11.4555
ခိုးကို	-11.4557
စူးစ	-11.4561
ပြုမိသော	-11.4561
ရံ	-11.4578
ရာမှ	-11.4579
ခရာ	-11.4583
စာပျ	-11.4597
မျို	-11.4605
လေးပါး	-11.4624
ဆွေးနွေး	-11.4627
ယခုမှ	-11.4628
သူမူကား	-11.4639
မခံရ	-11.4654
ပြာသောအ	-11.4655
ရာဖြ	-11.4663
ဖြား	-11.4671
မာတရားကို	-11.4679
ရှမွေလသ	-11.4691
းထော	-11.4715
ဧလိယသ	-11.4723
သေလေ	-11.4747
အရာဖြ	-11.475
တိုးပွါး	-11.4803
အာနု	-11.4813
ပြောဆိုလျ	-11.4815
ဝိ	-11.483
မြေသ	-11.4834
ထားပြီ	-11.4851
ဟောရ	-11.4859
မပျော	-11.4861
အာရှရပ	-11.4864
အာဣ	-11.4869
ကိရယ	-11.4872
နေထွ	-11.4883
သိုထား	-11.489
ပြိုပ	-11.4891
ကိုရှာ	-11.4905
တိုးပွား	-11.4909
ထိုသားကို	-11.4909
သူကိုမျှ	-11.4924
တစု	-11.4926
မပြုကြ	-11.4929
းထဲမှာ	-11.4942
ဆာများကို	-11.4961
ထုလ	-11.4961
အကြံကို	-11.4964
ဒရ	-11.4987
လု	-11.4988
မသေ	-11.4988
အားဆို	-11.4992
ရှန	-11.4995
ဇေဒကိမ	-11.5001
လုယူသော	-11.5017
ငါအလိုရှိ	-11.502
အထုံး	-11.5023
စားလျ	-11.5066
သု	-11.5075
ဒိ	-11.5084
းဆဲသော	-11.509
နှမြော	-11.5091
ခိုးရှ	-11.5101
နွားထီး	-11.5106
ထုပ	-11.5109
းယူကြ	-11.5136
ယွာဘသ	-11.5138
ရှိသောကြ	-11.5145
ဆီးသော	-11.5147
စောစော	-11.5174
ွပ	-11.5176
ကြားကြ	-11.5183
ရှိပါစေသော	-11.5185
သောဥ	-11.5192
အကျိုးန	-11.5193
သောဘုရား	-11.5195
အာသပ	-11.5208
ပြားနှ	-11.5209
ဝစွာ	-11.5215
ညံလျ	-11.5232
ကိုစေ	-11.5243
ဤပည	-11.5249
ကာမ	-11.5252
ရှားလျ	-11.5261
ထိုအပ	-11.5269
အိုအ	-11.5274
ဆီးကြ	-11.5284
မသွ	-11.5285
ငါးက	-11.5286
ဗေရ	-11.5312
စာသ	-11.5315
လိုသော	-11.532
းမာ	-11.535
အလှ	-11.5356
ရေလအမျိုး	-11.5357
မတရား	-11.5367
မိဘကို	-11.537
သတိရ	-11.5376
တံခါးနားမှာ	-11.5379
ဝဲ	-11.5393
ယူပြီးလ	-11.54
လုန	-11.5404
းမဖြ	-11.5412
ခရီး	-11.5417
းသောအမှု	-11.5422
အဦး	-11.5425
မှသ	-11.5438
ထားပြီး	-11.5453
လူကြီး	-11.5476
ပျား	-11.5478
းလေသမျှ	-11.5478
ရေင	-11.548
နဲသော	-11.5482
အသေခံရ	-11.5497
နေကြသ	-11.5504
ဗေဒ	-11.552
အဒေါနိယ	-11.5527
အလှူ	-11.5541
ဥပမာ	-11.5541
အသီးအနှံ	-11.5565
မပြေ	-11.5567
တစုံတခုမျှ	-11.557
လူက	-11.5574
ဧလိရှဲက	-11.5577
ဘူးသလော	-11.5579
မှာရှိသ	-11.5581
ာလမုန	-11.5584
ရွာများ	-11.5588
ပါစေဟု	-11.5595
မှာထားသ	-11.5598
ဟာနန	-11.561
ာမုတ	-11.5613
မိမိညီ	-11.563
စိုးသော	-11.5634
ပါးကို	-11.566
းရကြ	-11.5663
ဆီဥကို	-11.5665
းလာ	-11.5665
ချိုးဖ	-11.5671
ပြာ	-11.5695
စီးစေ	-11.5695
မှာထားလေ	-11.5704
းစာကို	-11.5711
ထိုအမှုအရာ	-11.5751
ဇော	-11.5753
အားရ	-11.5756
ရှေဘ	-11.5756
ထိုသိ	-11.5771
စာရေးတံပြု	-11.5773
အနာရောဂါ	-11.5774
ရေဗ	-11.5776
ယေရှဲ	-11.581
ပုတ	-11.5818
သာမျိုး	-11.5837
ရေးထားသော	-11.5846
အာဇ	-11.5858
းမျိုး	-11.5861
အမှိုက	-11.5869
ခိုးအာနု	-11.587
ထောမနာသီ	-11.5872
အာဇရိ	-11.588
နှလုံးထဲ	-11.5884
းတဘ	-11.5884
ရှိမိ	-11.5886
းထက	-11.5917
ခုံ	-11.593
ဣရှမေလ	-11.593
လုံးနှ	-11.595
မှားပါပြီ	-11.595
နွှ	-11.5954
ငါမူကား	-11.5954
ဘွားသော	-11.5958
ရှေမ	-11.5958
စာရှိသမျှကို	-11.5959
သိုးထီးတ	-11.5968
သိပါ	-11.5971
ီ	-11.5973
ရှမွေလက	-11.5978
းသမျှ	-11.5981
အာသ	-11.5986
ပြုရသော	-11.5993
လေပြီဟု	-11.5995
လှူသော	-11.6003
နှလုံးနှ	-11.6005
နှာပြု	-11.6021
ငံသ	-11.6023
သွားစ	-11.6034
ော	-11.6038
ကေ	-11.605
ခါလဒဲလူ	-11.6055
ှယ	-11.6084
မိမိခ	-11.6091
မသွား	-11.6101
မရှိသ	-11.6101
ကဲသာ	-11.6104
ပိ	-11.6121
သောသူကား	-11.6123
မီးသ	-11.6142
ကြားရသော	-11.6152
ှုပ	-11.6153
းလွဲ	-11.6157
ဟုဆိုကြ	-11.6161
အကြီးအ	-11.6171
ချောက	-11.6183
အမွေမြေ	-11.619
အမှုမှာ	-11.6192
ဘဲနေကြ	-11.6193
မူပါစေ	-11.6196
စပါးရ	-11.6199
မိမိကို	-11.62
▁-	-11.6213
ပညာရှိသောသူ	-11.6221
ညိုသော	-11.6223
သမီးကညာ	-11.6225
ကြိုဆို	-11.6225
တပါးအမျိုး	-11.625
မိမိအဘ	-11.6252
လုံကို	-11.6262
မသိဘဲ	-11.6268
မူသောဘုရား	-11.6269
ရာတို	-11.6271
ဒေါသအမ	-11.6277
အလျားအ	-11.6279
ကူ	-11.6281
လေအာ	-11.6308
ကိုပြ	-11.6308
အာမန	-11.631
ယေဗုသိလူ	-11.6314
သမျှအတ	-11.6317
ရူပါရုံကို	-11.6317
ပြောလေ	-11.6324
မပြုဘဲ	-11.6328
စရာမရှိ	-11.6335
အမျိုးမျိုးကို	-11.634
ဆိုးသောသူ	-11.634
မခံန	-11.6342
ငိုကြွေးကြ	-11.6348
မရှိကြ	-11.6351
းအာနု	-11.6352
ဖျား	-11.6358
စေပြီ	-11.6364
ကြီးသောအသံ	-11.6377
ုသိမ	-11.6378
နွားကို	-11.6379
ပညာရှိသော	-11.6392
ဘဝ	-11.6397
ပါလေစေ	-11.64
ျားနှ	-11.6412
ပေးစား	-11.6414
မညှ	-11.6417
ဓာတ	-11.6418
းသကဲ	-11.6425
ရာကာလ	-11.6429
ဣ	-11.643
ဧန	-11.6444
းခုန	-11.645
မနေရ	-11.6454
နိမ	-11.6457
ျားပေါ	-11.6477
ဇိ	-11.6478
ပွဲခံ	-11.6497
းတံပိုး	-11.6533
ရှာသောသူ	-11.6538
ပြုကြသ	-11.6555
းခေါ	-11.6565
များအပေါ	-11.6568
သောသား	-11.6571
မသွားရ	-11.6572
ညူး	-11.6584
အာရှာ	-11.6585
ကရမေလ	-11.6595
ဆာလံ	-11.6597
ဘာသာစကား	-11.6599
ဘီး	-11.6607
ဆေးကြော	-11.6612
ထိုခဏ	-11.6614
တယော	-11.6621
ရသောအချ	-11.665
ပြုသောသူတို	-11.6653
အဘနှ	-11.6659
မူပါစေသောဟု	-11.6666
လူမျိုးကို	-11.6669
ရိက	-11.6679
နီးပြီ	-11.6689
စုဝေးကြ	-11.6703
ယူရ	-11.6713
ျားတို	-11.6713
စာများကို	-11.6717
ငုံ	-11.6727
ယေဖသ	-11.6738
ငံတို	-11.6743
မလူ	-11.6743
ဧလိရှဲသ	-11.6744
အာခဇိ	-11.677
ထိုလူမျိုး	-11.679
နေစရာ	-11.6791
ငါရွေး	-11.6801
အလိုမရှိ	-11.6804
လိ	-11.6809
ဒပ	-11.6811
မူသောသူသ	-11.6819
မအမှု	-11.6819
ယို	-11.6821
ခြုံ	-11.6821
ငါထား	-11.683
ဗေနာယ	-11.6857
မူသလော	-11.6882
ခရီးသွားကြ	-11.6883
ရှုလျ	-11.6894
လေးရ	-11.6901
ဟောပြောသ	-11.6908
ယုဒသ	-11.691
လာကြသ	-11.692
ပြုရကြ	-11.6928
ဂတိထား	-11.6936
ဘုရားထံ	-11.694
ခံပြီးမှ	-11.6942
ထိုစကား	-11.6956
ကြုံ	-11.6964
းကျေးဇူးကို	-11.6965
စကားသံ	-11.6966
ဣသခါ	-11.6968
မုယော	-11.6974
စဖူး	-11.6975
ဗေရရှေဘ	-11.698
မရွေ	-11.6984
စုံကြ	-11.6986
းကြီးထံ	-11.6987
ဂါဇ	-11.6999
နှလုံးထဲမှာ	-11.7
ကာလသ	-11.7
ကိုလှ	-11.7021
အကျိုးရှိ	-11.7024
နှမ	-11.7026
တမလ	-11.704
အာဗြံ	-11.7056
အာရ	-11.7059
ဘေးနှ	-11.709
ရသောသူ	-11.709
လေးနှ	-11.7102
သိုးဆ	-11.711
ရှိသလော	-11.7114
းသွားသော	-11.7119
းပြီ	-11.712
လဆ	-11.713
ဗိ	-11.7133
မှူးသ	-11.7139
တချ	-11.7146
ဟေဇကိသ	-11.7149
ယံ	-11.7158
သောအသံ	-11.7167
ယာက	-11.7171
ပညာသ	-11.7174
မနာရှေအမျိုး	-11.7184
ရှိဟု	-11.7199
းမများ	-11.7199
ရဗ	-11.7202
ထိုလူ	-11.7205
ဧလံ	-11.721
းမိ	-11.7225
စားရသော	-11.7234
ယောယဒ	-11.7234
ယေဟု	-11.7235
သုံးရာ	-11.7242
ထိုဘုရားသ	-11.7243
အမှုစ	-11.7243
ကြွသွား	-11.7269
ခဏာကို	-11.7271
အဗျာသာ	-11.7272
စကားကိုနား	-11.7285
မျှမ	-11.7309
ဘဲလ	-11.7309
သွားသ	-11.7318
မီးဖို	-11.7322
သူအား	-11.7342
နီသောအ	-11.7353
ကိလ	-11.7369
မာသေယ	-11.738
ဟာနနိ	-11.7381
မှီခိုရာ	-11.7381
ငွေဖလား	-11.7385
မှားသောအ	-11.7386
ပြီးစီး	-11.7396
ယေရမိသ	-11.7414
မယားသ	-11.7415
လူကိုစေ	-11.7419
နွားနှ	-11.743
သိသရ	-11.7431
တွားတ	-11.7441
စိမြ	-11.7445
ဧဒုံပ	-11.7455
းရေကို	-11.7463
ဘာသာစကားကို	-11.7479
သိသ	-11.748
းမစိုး	-11.7482
ခြားနားသော	-11.7504
ဆာဆ	-11.7509
မှစသော	-11.7515
းဝေးသော	-11.7517
ဧလိရှဲ	-11.7526
းကိုပြု	-11.7541
ဧလိယက	-11.7544
မာသ	-11.7553
းသား	-11.7564
အကြံပေး	-11.7569
ပြုရပါ	-11.7576
သားသမီးများကို	-11.7578
းရသော	-11.7584
သိလ	-11.7585
ဧဖ	-11.7591
တပါးသ	-11.7596
းလှ	-11.7609
ငါထ	-11.7612
အမဲသား	-11.7617
မိဘမရှိသောသူ	-11.7618
းရွက	-11.7622
းဆဲသောသူ	-11.7657
ဘယ	-11.768
သဘောနှ	-11.7703
အဝေး	-11.7724
သေလျ	-11.7728
းရှိစေ	-11.7735
ဍာတို	-11.7738
းစေသော	-11.7747
ကြီးကို	-11.7754
ခံပါ	-11.7757
ဖြူသော	-11.7764
လုံးသ	-11.7777
သားမယား	-11.7789
ဂျုံ	-11.7795
မေရှုလံ	-11.7797
မရဏန	-11.7797
ခွာ	-11.7798
ဟာဂရ	-11.7805
အကာရှသား	-11.7805
ဒါရိ	-11.7807
ပြောလျ	-11.7814
ထု	-11.7824
ညီပေါ	-11.7846
အဓိ	-11.7855
သောသူမရှိ	-11.7857
မပါ	-11.7861
ရွှေကို	-11.7864
အာမခံ	-11.7866
စီးလ	-11.7875
သာသနာပလူ	-11.7875
းခိုသော	-11.7877
တိကို	-11.7883
းဆိုပါ	-11.7885
မထိမ	-11.7891
သနားစ	-11.7895
းသေးသော	-11.7897
သောငှာ	-11.7908
အဘထံ	-11.7908
ဌမ	-11.7914
ရှိကြပါ	-11.7936
ပါတကား	-11.7941
ဘိုးဘ	-11.7941
လေဝိအမျိုး	-11.7957
ကြီးတို	-11.7958
ပညာအတ	-11.7966
းကြီးသော	-11.798
နဖူး	-11.7993
းလွှဲ	-11.7998
မရှိသောသူ	-11.8001
လဲလျ	-11.8017
သောမြေ	-11.8018
ဩဇ	-11.8028
သုံးလ	-11.8029
သွားရသော	-11.8041
အသံသ	-11.8042
းဟုမေး	-11.8049
ခြေဖြ	-11.8051
ဥဖ	-11.8053
မိမိအိ	-11.8054
ကိုမသိ	-11.8061
ကူးသွား	-11.8067
းဖူး	-11.8077
ထားပြီးမှ	-11.8094
လဲကြ	-11.8102
နဲ	-11.8109
ပြုစုသော	-11.8113
ရကြပါ	-11.8116
ခံရသောအခါ	-11.8118
သွားရာ	-11.8126
ျားအပေါ	-11.8165
အဆုံးတို	-11.8166
သဘောသ	-11.817
သုံးသော	-11.8175
သားများကို	-11.8184
ဝေဒနာကို	-11.8199
မဟော	-11.8204
ခြားနား	-11.8207
မိမိဥ	-11.8211
တခုကို	-11.8216
ဒေသနာ	-11.8221
အရာသ	-11.8221
ဂေါမောရ	-11.8231
ဂလာရှိစေသ	-11.8232
ဒြေ	-11.8232
ရေဖိ	-11.8234
ထားရာ	-11.8235
ဟဂ	-11.8237
လဲစရာ	-11.824
ကြိုးနှ	-11.8244
မမူမှီ	-11.8245
တား	-11.8246
နေရာကို	-11.8247
ဩဃ	-11.8248
မေဒိ	-11.8249
မလွှဲ	-11.8252
ဝါ	-11.8255
အာရှိ	-11.8258
ခံစား	-11.827
အကျိုးမရှိ	-11.8289
ယူသော	-11.8294
ငါမှာထားသမျှ	-11.8295
သားရေ	-11.83
အဝေးက	-11.8307
းဆဲကြ	-11.8316
ိုငြ	-11.8317
သရဖူကို	-11.8342
လုတ	-11.8349
ငါချိုး	-11.8354
ကာလမှ	-11.8373
အမွေး	-11.8381
အကဲအမှူး	-11.8391
ရွှေငွေကို	-11.8395
တာသ	-11.8405
တရာနှ	-11.8411
းအသင	-11.8412
နာဗ	-11.8412
ပိန	-11.8414
အမိသ	-11.8424
းကြီးတော	-11.8426
လူသေ	-11.8429
လေးမျ	-11.8436
စုံသ	-11.8441
ေဖန	-11.8446
ခြေထ	-11.8452
ထူးခြားသော	-11.8457
သောအရာသ	-11.846
ဟောက	-11.8465
နု	-11.8465
သောအသံကို	-11.8473
လွှဲသွား	-11.848
းစီ	-11.8482
းကြီးနှ	-11.849
အာဇု	-11.8498
သိလျ	-11.8509
ကြီးရ	-11.8513
ထားပါ	-11.854
မနို	-11.8541
စကားကိုကြားလျှ	-11.8544
ယာဗ	-11.8555
ဟေလသလူ	-11.8555
စုံလျ	-11.8567
ဧလ	-11.858
အဘများ	-11.8581
အမွေခံရသော	-11.859
ဟေ	-11.8591
ဂေ	-11.8615
ခွါ	-11.8624
အခကို	-11.8628
နေဝ	-11.8634
ဆုံ	-11.8636
မြွေ	-11.8653
ရေချိုး	-11.8658
ကြပါစေ	-11.866
ကျီကို	-11.8666
သောသူများ	-11.8677
ယုဘိလ	-11.8684
မာကေဒေါနိ	-11.8686
ဂိဒ	-11.8687
ကူညီ	-11.8687
ကာလနာဘေး	-11.8687
အာဗေလ	-11.8688
ရှုရှန	-11.8688
ပျိုး	-11.8691
လုယူဖျ	-11.8695
မြဲမြံစေ	-11.8702
ငါပည	-11.871
ပါစေသောဟု	-11.8711
အားယူ	-11.8713
ထိုယ	-11.8714
ကြားလျ	-11.8717
ပြအိုး	-11.8724
နှာရ	-11.8729
ထာဝရဘုရားနှ	-11.8733
နှာမှ	-11.8733
ပရော	-11.8737
ကြိုးကို	-11.8738
ပြေးသော	-11.8744
သာစေ	-11.8746
ကျိုးပ	-11.8747
ဖိ	-11.8753
နာဗလ	-11.876
းကိုမျှ	-11.8773
ကာပြု	-11.8773
းတယောက	-11.8774
းအတွ	-11.8787
ခံရာ	-11.8788
နှာပ	-11.8798
သဘောဖြ	-11.8815
ဣသရေလသ	-11.8817
အမှီပြုလျ	-11.8818
မှလာ	-11.8823
ရိုးတို	-11.8826
စာဂတိ	-11.8837
မှားစေသော	-11.8848
တိအ	-11.8848
ဤအရာ	-11.8856
ဧကြ	-11.8877
မီးခဲ	-11.8891
အပျို	-11.8893
ခြေနှ	-11.8899
ယူကြ	-11.8901
လူမျိုးသ	-11.8912
စားသောသူ	-11.8918
ေ	-11.8918
ယောခ	-11.8922
ထားပြ	-11.8927
တာနှ	-11.893
ရေတို	-11.8934
ပမာဏ	-11.8943
းစေရ	-11.8944
ဒုန	-11.8955
ယောရှုက	-11.8972
မုသာကို	-11.8974
းမိုးသော	-11.8978
စေပြီးလျ	-11.8994
ဖာ	-11.9
းစကားကို	-11.9001
ရှိကြသ	-11.9011
းရန	-11.9018
ပါရစေဟု	-11.9028
းအရာရှိ	-11.9029
သရဖူ	-11.9034
မိကြ	-11.9044
ကြားသိ	-11.905
နွားမ	-11.9052
းမရှိသော	-11.9061
းရိ	-11.9067
ကွဲပြားလျ	-11.9073
ငါမှာထားသော	-11.9078
ခံရသောသူတို	-11.9078
မီးနှ	-11.909
ကိုဖျ	-11.9092
လှီး	-11.9095
ညီမ	-11.9118
အဘိယ	-11.9123
ဤစကားကို	-11.9125
နေရာမှ	-11.914
ခိုးကြီးသော	-11.9146
သွားပြီ	-11.9148
သူဌေး	-11.9151
ဟိန	-11.9154
ကိလေသာ	-11.9162
အာဒံ	-11.9162
မကြာမ	-11.9171
ယေဟုသ	-11.9177
ဝါး	-11.9178
သားဦးအပေါ	-11.9183
အထီး	-11.919
အဘိုးကို	-11.9204
ပွဲသ	-11.9205
သံချ	-11.9208
ကြံပြုမူ	-11.9213
တာမာ	-11.9215
အရာရှိသမျှ	-11.9216
ပြေစေ	-11.922
သောစကား	-11.925
ခိုလှုံသော	-11.925
ရှိပြီ	-11.9253
နေမန	-11.9272
စာတရား	-11.928
အခြားသို	-11.9286
သမီးနှ	-11.9293
စားစေ	-11.9293
ထားသောသူ	-11.9294
ထိုသူအား	-11.93
ရှာလ	-11.9301
ပြေးသွား	-11.9309
တေမန	-11.9328
အဘက	-11.9332
ရခြ	-11.9345
ရှာရ	-11.9356
ရာခေလ	-11.9368
ကျလျ	-11.9374
သိုးထီး	-11.938
မရော	-11.9384
အိုထာဝရ	-11.9389
ကိုသိ	-11.9396
ဤလူ	-11.9404
သံနှ	-11.9404
အဘကို	-11.9409
စကားအ	-11.9436
ရှေးဦးစွာ	-11.944
ခံရပါ	-11.9444
နွားတ	-11.9449
အမှုဖြ	-11.945
စကားတခ	-11.9452
ဤလူမျိုးကို	-11.9453
ကာသော	-11.9461
အာဗြံသ	-11.9467
ယောရှုအား	-11.9472
ငှါး	-11.9486
ဦးချ	-11.9494
ကြံလေ	-11.9497
ခါးစ	-11.9497
ဇေဒကိ	-11.9504
မိပြီ	-11.9505
လှေကား	-11.9509
သေရက	-11.9513
ငိုကြွေးလ	-11.9515
အမျိုးမှ	-11.9517
နားမှာရှိသော	-11.952
အများသော	-11.9521
ညံရာ	-11.9533
ွေ	-11.9536
မအပ	-11.9549
ခွဲထား	-11.9561
ဟိလခိ	-11.9567
အဘိရှဲ	-11.9573
စာချ	-11.9581
ဝေးသောအရ	-11.9582
းကြပါ	-11.9615
ငါချ	-11.9622
အမိကို	-11.9629
မနေန	-11.9637
ဇိဘ	-11.964
မိလ	-11.9649
လောဘ	-11.9655
ဇာတိ	-11.966
အဦးသီးသော	-11.9662
နိနေဝေ	-11.9662
အနီးအပါး	-11.9662
အမြီး	-11.9662
မုရန	-11.9663
ပုဆိ	-11.9664
သလဲသီး	-11.9666
ဣရ	-11.9668
မြေခွေး	-11.9669
ပေးလျ	-11.9679
မငြ	-11.9682
သူမရှိ	-11.9684
စာတို	-11.9685
ဧဒ	-11.9687
လူအသီးအသီး	-11.9696
ပမာဏမပြု	-11.9703
ဟုပြောဆို	-11.9705
အမှုအရာကို	-11.9709
လှံတံကို	-11.9711
လူငါး	-11.9713
အာရပ	-11.9715
မစပ	-11.9721
အကျိ	-11.9727
သွားလျ	-11.9728
ပြုပြီ	-11.9728
သာယာသော	-11.9732
မီးထဲ	-11.9733
အဗရှလုံသ	-11.9734
းပေး	-11.9744
ဍာကို	-11.9746
ခာကို	-11.9758
ရုသ	-11.9764
မေးကြ	-11.9765
းရဲခံရ	-11.9765
အားကြီးသောသူ	-11.9801
းကြီးအား	-11.9805
မနာလိုသော	-11.9805
မီးမ	-11.9807
အသွေးဖြ	-11.9821
အမျိုးထဲ	-11.983
တောဘိ	-11.9835
အားပြောဆို	-11.985
လူမျ	-11.9853
းသမျှသော	-11.9857
းအများ	-11.9861
းအခြားသ	-11.9868
ပေါလုက	-11.9869
အထိ	-11.9871
ရှာဖ	-11.988
ပျံ	-11.9885
ရုတ	-11.9887
အလိုကို	-11.9906
းမှစ	-11.9917
မပါဘဲ	-11.9926
ပေးပြီ	-11.9941
စီရှိ	-11.9954
ဗာနဗ	-11.9957
လွှားသော	-11.9967
နာရီ	-11.9978
းရွာ	-11.9979
းကြပြီ	-11.9988
ပါရစေ	-11.9993
ပေးစေ	-12
မီးခုံ	-12.0002
ဟေရှာယ	-12.0009
မြဲမြံ	-12.0033
းသာစေ	-12.0044
သွားကြစ	-12.0051
စာရာ	-12.0051
ငါနား	-12.0058
အာန	-12.0063
အကြံရှိသ	-12.0064
ာကြက	-12.0075
ယောလ	-12.0078
ထုံးစံရှိ	-12.0078
ယုဒအမျိုးကို	-12.0084
သွားရကြ	-12.0086
သူခိုး	-12.0097
မီးထွ	-12.0098
းသောအကြံကို	-12.0126
တလုံး	-12.0129
းကိုသာ	-12.013
လှံကို	-12.0134
ငါးရ	-12.0156
နေကြပါ	-12.0162
မမူဟု	-12.0163
အပွ	-12.0168
ပါးသော	-12.0168
အထဲမှာ	-12.017
ငါကလ	-12.0181
မာခါ	-12.0188
ဇေရုဗဗေလ	-12.0188
မသေမှီ	-12.0191
ချုံ	-12.0192
လူအကြီးအကဲ	-12.02
ချေး	-12.0202
းနှီးသော	-12.0208
သူရဲသုံး	-12.021
အသွေးသ	-12.0215
သားသမီးကို	-12.0221
အမှုများကို	-12.0224
အသုံး	-12.0229
ငါနေ	-12.0229
ကျွေးသော	-12.0232
ွေးမြေ	-12.0245
တူကြ	-12.0249
ပညာတရား	-12.0254
သားကိုဘွား	-12.026
တရားဆုံး	-12.026
မူသောသူကို	-12.0262
အမွေခံရ	-12.0264
းသမား	-12.0267
သားရေဘူး	-12.0268
ဤသူကား	-12.0271
းကြား	-12.0272
ဤအမှုအရာ	-12.0279
ရှုံးစေ	-12.028
အမွေကို	-12.0285
ပဌနာစကားကို	-12.0289
လူမ	-12.0301
းပြ	-12.0302
နာကြ	-12.0313
အမျိုးနှ	-12.0317
ယေရမိကို	-12.032
ဤစကား	-12.0346
မြေကြီးအ	-12.0349
အဟိ	-12.0358
မွေးဘွား	-12.0361
းစံနှ	-12.0363
ဟာဇ	-12.0364
ကိ	-12.0369
ရွေးယူ	-12.0371
သောစပ	-12.0371
ရကြဟု	-12.0374
းကိုယူ	-12.0376
ကု	-12.0384
းလွှား	-12.0384
သေအ	-12.0389
နာမဖြ	-12.0392
ိကျွ	-12.04
ဟေမ	-12.0408
ပြောပါ	-12.0422
ကိုထော	-12.043
ဥရိယ	-12.0442
ထိုမျှ	-12.0446
မကိုး	-12.0448
ရှမ	-12.0451
ကိရှ	-12.0451
သောအမျိုး	-12.0457
သောဘေး	-12.0463
ငါလာသ	-12.0468
သုက	-12.0472
ထိုအမျိုး	-12.0474
သောသူရှိသမျှ	-12.0475
အားဆိုလျ	-12.0491
ရေးထားသ	-12.0492
ပြုသမျှ	-12.0493
အာလ	-12.0494
ငါမသိ	-12.05
ဆု	-12.0501
ကြပြီတကား	-12.0507
ငါပေးပြီ	-12.051
မဖွ	-12.0514
ဆုံးစေ	-12.0521
သတိပြုကြ	-12.0524
ဣသရေလန	-12.0528
စားလော	-12.0532
ရှောလုအား	-12.0546
ချီလာ	-12.0555
ငါပို	-12.0562
အမှုကိုဆ	-12.0562
ဖေ	-12.0565
ပြကြ	-12.0569
ပြောဆိုသ	-12.0575
မေရှ	-12.058
ရထားများ	-12.0581
မကြွ	-12.0586
အာတ	-12.0599
အရူး	-12.0602
ဝါကြွားသော	-12.0636
အမိနဒ	-12.0643
ဟေဗာ	-12.0646
ပြိုလဲ	-12.0671
အသရေပ	-12.0682
ထူ	-12.0684
ငါဆ	-12.069
ဣသရေ	-12.0691
ွံ	-12.0692
ထိုမြေ	-12.0705
ရှားကြ	-12.0705
ဝေးစွာ	-12.0711
တောသားရဲ	-12.0722
ဧလျာဘ	-12.0729
ဂိတ	-12.0731
ပဌမလ	-12.0732
တခါမျှ	-12.0735
ကာယ	-12.0738
ဝေငှ	-12.0739
မာခိရ	-12.0741
ကာဒေရှ	-12.0744
တရံရောအခါ	-12.0744
ဩဗဒေဒုံ	-12.0744
ကဲသရိ	-12.0744
အရာကိုမျှ	-12.0745
လေဘွေ	-12.0745
လူမျိုးတကာ	-12.0747
ရွှေဖလား	-12.0753
ယူလော	-12.0754
ရွာစေ	-12.0755
ဇုရ	-12.0758
ဘထွေး	-12.0762
စားဘ	-12.0766
မသိကြသလော	-12.0768
ဟိဝိလူ	-12.0771
ဣသရေလအမျိုးအနွ	-12.0775
နားပ	-12.0777
ံအတ	-12.0779
အမွေခံရကြ	-12.0782
တရားစကားကို	-12.0784
းဟုမေးလျှ	-12.0787
စားရာအ	-12.0793
ငွေတ	-12.0795
ချီသွားကြ	-12.0802
ပြေးလေ	-12.0807
ာနော	-12.0818
သူရှေ	-12.0818
ငါရှိ	-12.082
တဦးကို	-12.0826
ရောသော	-12.0828
ငါမှာထား	-12.0839
အာရော	-12.0845
ဧလိဖ	-12.0846
ဖလားကို	-12.0857
ွှတ	-12.0862
မတရားသောအမှုကို	-12.0869
ကြီးလှ	-12.0871
ဒု	-12.0883
ပြောစေ	-12.0884
အမှုကိုပြု	-12.0889
တရားဟော	-12.0904
ပေးပါဟု	-12.0909
သိုးတ	-12.0913
ခြေဆ	-12.0915
သေသောန	-12.0917
တံစို	-12.0919
လူတသ	-12.0923
စိုးရသော	-12.0927
နေအ	-12.0931
ပြီးစေ	-12.0935
စတု	-12.0937
သီးန	-12.0947
အသံဗလံ	-12.0948
ဆိုးသောသူတို	-12.0953
မခံကြ	-12.0972
အာခိ	-12.0976
တီ	-12.0998
နေရာကျကြ	-12.0998
သေခံကြ	-12.1002
ဆိုကြသော	-12.1005
မနာရှေအမျိုးသား	-12.1009
းသလော	-12.1019
လူတရာ	-12.102
လုံခြုံစွာ	-12.1049
မရိတ	-12.105
လှူ	-12.1053
းလှသော	-12.106
ကျကြ	-12.106
စေဘဲ	-12.1065
တိရှိ	-12.1067
မယူရ	-12.1068
ငါသွား	-12.1071
ဖူးမြ	-12.1099
ကျသော	-12.1105
ဟာနု	-12.1108
ဟာရ	-12.1117
မိသောသူ	-12.1151
းပေ	-12.1154
အနံတ	-12.1156
မှာနေသော	-12.117
ရဘဲ	-12.1172
အဘအား	-12.1173
လောတ	-12.1188
ထိသောသူ	-12.1192
ဗေ	-12.1202
ဆုံးမဩဝါဒ	-12.1206
းဆုံးသော	-12.1207
ဆုကို	-12.1212
အာဗနာသ	-12.1215
ဆုကျေးဇူး	-12.1243
အာသမ	-12.1245
ချထား	-12.1248
သာယာ	-12.1252
နောမိ	-12.127
ကိုခံရ	-12.1286
မသိန	-12.1298
ရှိစေသ	-12.1303
ဇေဒက	-12.1322
ကွာသော	-12.1323
လောကီန	-12.1326
အဘိဂဲလ	-12.1332
တုံးလုံးနေ	-12.1332
ဟာဒဒေဇာ	-12.1332
ဆေးသမား	-12.1335
ဣသမာ	-12.1336
ဆိုကြသ	-12.1337
ဩမဲ	-12.1338
မှာနေ	-12.1343
ကုရု	-12.1348
ဖေရဇိလူ	-12.1353
းသောအမှုကို	-12.1366
မှားမိသော	-12.1367
လူစုထဲက	-12.1372
အိုဣသရေလ	-12.1387
အိုးထ	-12.1396
လူတမျိုး	-12.14
သနားသော	-12.1402
ဆူ	-12.1406
ဒိန	-12.1409
းပါရမီ	-12.141
လေးကို	-12.1423
တံခါးဝမှာ	-12.1427
ရှိစ	-12.1434
းပဌနာပြု	-12.1435
အမှုဆ	-12.145
ဟေလ	-12.145
အဘိုးပြ	-12.1452
နှာပြုသော	-12.1454
စုထား	-12.1456
ဆုံးမသော	-12.146
ဆံခြ	-12.1461
ရှုပြုစု	-12.1464
ကေန	-12.1468
ရကြပြီ	-12.148
လုယူကြ	-12.1482
စိုးစေ	-12.1486
းသေ	-12.1491
းသမျှကို	-12.1502
ကိုညှ	-12.1502
လုယူရာ	-12.1509
တောခွေး	-12.151
ပြုလေသမျှ	-12.1513
ညံရာအ	-12.1515
မသန	-12.1516
ဧရ	-12.1519
အမွေခံရာ	-12.1519
မပြုပါ	-12.1523
နေရပါ	-12.1532
ကြားသ	-12.1533
ဗာရက	-12.1538
ရှုကြ	-12.1539
နာသော	-12.154
အားကြီးသ	-12.1541
းတံခါး	-12.1548
နီသော	-12.1553
းအသရေကို	-12.1572
လေးချ	-12.158
ကိုးစားသော	-12.1601
တဲကို	-12.1602
မိမိမ	-12.1603
ကိုစား	-12.1606
သူမှစ	-12.1621
လာခိရှ	-12.1636
ဩဝါဒ	-12.1636
အသရေရှိသော	-12.1637
ဒဒ	-12.1638
ပြုလို	-12.1644
စကားကြ	-12.1647
ပြုသမျှသော	-12.1656
းရဲကို	-12.1656
နေကြစ	-12.1657
ငြီး	-12.1661
ဖြိုချ	-12.1695
စာရှိ	-12.1698
ကိုအမှီပြု	-12.1699
းရာအရ	-12.1703
ဧလာ	-12.1703
မမေးမ	-12.1704
ကြီးသောသူ	-12.1709
မြွေဆိုး	-12.1709
ဆီမီး	-12.1713
နှာနှ	-12.1726
ဧသောသ	-12.1729
ဤတော	-12.1735
မိမိလူမျိုး	-12.1748
ယောရံ	-12.1754
ဣသရေလအမျိုးနှ	-12.1758
တိဇံ	-12.1767
ကလေး	-12.1769
ယေဖ	-12.1775
စာရှိသမျှ	-12.1778
မလ	-12.1786
ပသခါပွဲ	-12.1791
းသာကို	-12.1795
ဒံယေလကို	-12.1796
အာဒ	-12.18
းမှီ	-12.1808
ရောမ	-12.1808
ညူးသောန	-12.1822
လိဗန	-12.183
ထိုတရား	-12.1834
မခံမယူ	-12.1841
းမအား	-12.1848
မေရာရိ	-12.185
ဟေရှာယသ	-12.1851
ကြီးမား	-12.1851
ဧလကာန	-12.1852
ဤစာ	-12.1856
အဘအာဗြဟံ	-12.1861
တံခါးခုံ	-12.1864
စကားအလုံးစုံ	-12.1874
ကြားရပြီ	-12.1874
ကျူလုံး	-12.188
ရှေလ	-12.1901
နေဇာမ	-12.1903
ထီး	-12.1919
ပိဿာ	-12.192
ဧဖာ	-12.1922
သူအများ	-12.1927
မူသမျှအ	-12.1927
းမရှိကြ	-12.1934
ဟေဇရုံ	-12.1949
းသုံး	-12.1953
မေလခိ	-12.1957
ခြိုးခြံစွာ	-12.1957
အာမရိ	-12.1958
ယေဟေလ	-12.1958
ဆဲရေး	-12.1959
မောရှ	-12.196
ဆီရောသော	-12.1961
မုဆိုး	-12.1961
ရထားစီးသူရဲ	-12.1964
းအသံကို	-12.1965
စုဝေးစေပြီးလျ	-12.1966
သီလ	-12.1973
ငြိုး	-12.1973
အစေ	-12.1973
ယခုကာလ	-12.1973
ဘဲနေလျ	-12.1974
ခေလ	-12.1974
ဖယ	-12.1979
သူငှါး	-12.1981
းရှိသမျှကို	-12.1984
အာရှတရ	-12.1985
ပျိုးပ	-12.1987
ဣရှဗ	-12.1994
တဆူ	-12.1996
ဧဒုံအမျိုးသား	-12.1998
ပြီးစီးစေ	-12.2001
ရေခ	-12.201
အရာများကို	-12.2017
ဣန	-12.2019
ကြီးသ	-12.2024
တိဇံကိုပေး	-12.2025
အမှုများ	-12.2029
ဧဇရ	-12.2037
ငါလာ	-12.2038
လူကလေး	-12.2039
းစေကြ	-12.204
ဧသတာသ	-12.2047
အထဲမှ	-12.2047
ထိုစာ	-12.2051
ဘူးပြီ	-12.2057
းအဝ	-12.2059
စပါးပ	-12.2063
ထသွား	-12.2065
အလျားနှ	-12.207
အစေကို	-12.2074
အာနသ	-12.2079
ကြသေး	-12.2093
ဆာများ	-12.2093
မရှာ	-12.2101
ဦးတို	-12.2101
တူသ	-12.2121
ယာရ	-12.2121
ငါဆုံးမ	-12.2122
ဦးရ	-12.2127
အလိုရှိကြ	-12.2129
ဗေရိ	-12.2134
းအဝေး	-12.2135
ဆိုပါ	-12.2139
တေရ	-12.2147
လာလျ	-12.2149
ပကတိအ	-12.2151
ဒကဲသ	-12.2164
းမအပေါ	-12.2182
ဧသတာ	-12.2182
ရသောကြ	-12.2196
သိကြပါ	-12.2217
လူသုံး	-12.2219
ငါခံရသော	-12.2221
လာခဲ	-12.2221
ရှောလုကို	-12.2225
အလိုရှိသမျှ	-12.2231
ရယ	-12.2244
အမှုရှိသမျှ	-12.2263
နွေး	-12.2283
မှားသောသူ	-12.2287
မစေ	-12.2292
အမျိုးသမီး	-12.2322
အရှု	-12.2328
ဟေဗြဲလူ	-12.2329
းနေသော	-12.2338
ခါရ	-12.2354
တံပိုးကို	-12.2359
ဩဗ	-12.2363
တဲများ	-12.2375
ဆိုကြပါ	-12.2389
ရုံ	-12.2391
များပြားသ	-12.2399
ဇေ	-12.2406
ရတ	-12.2419
သမီးဖြ	-12.2422
ခိ	-12.2431
ဘွားစေ	-12.2432
အသနား	-12.2433
ါ	-12.2444
ကြားပြောသော	-12.2449
သွားကြပြီ	-12.2462
ဂျုံစပါး	-12.2465
သူကား	-12.2466
ရေပေါ	-12.2469
မိမိသန	-12.2475
စားရာ	-12.2491
ဆာမ	-12.2515
ဩဗဒိ	-12.252
ယဟောရံ	-12.252
သေချာစွာ	-12.2528
းပါးသော	-12.2533
းကြစေ	-12.2534
စုဝေးလ	-12.2538
ကာလနာ	-12.2548
ငါပြုသ	-12.2551
စုဝေးသော	-12.2557
အာမဇိ	-12.2561
ာဒပ	-12.2564
းတရားသ	-12.2568
ဟောပြောရ	-12.2569
ကိုအပ	-12.2578
သုံးပါး	-12.2595
သားမရှိ	-12.2597
ကြဲသော	-12.2604
ထိုပွဲ	-12.2606
စရာယ	-12.2607
းကျိုး	-12.261
ပသခါ	-12.2613
ရသောနေ	-12.2613
တိမောသေ	-12.2615
သုံးစုတစု	-12.2618
ဟောလေ	-12.2623
ဂြိ	-12.2624
မိရိအံ	-12.2624
မေဖိဗောရှ	-12.2624
ဇိကလ	-12.2624
ဒရာသဲလုံး	-12.2624
ဟာရှဘိ	-12.2624
ကျုံး	-12.2624
နဲသောအရာ	-12.263
အစအဦး	-12.2633
▁်၏၊	-12.2634
ဗာနိ	-12.2636
ဂေရရှု	-12.2637
ိုယွ	-12.2637
ယေရိ	-12.2644
မိမိမယား	-12.2644
ဆီးကြို	-12.265
ဆံသော	-12.2651
ဤအရာများကို	-12.2657
းဆဲနှ	-12.2663
ယောယဒသား	-12.2664
မဆိုလို	-12.2668
ကြားပြောလေ	-12.267
ဟုဆိုလေ	-12.2676
ထုသော	-12.2679
မမူဘဲ	-12.2681
လှေထဲ	-12.2694
ေလ	-12.2695
ခွေ	-12.27
ဇေဘ	-12.27
ဆွဲချ	-12.2709
လူတဦး	-12.2718
နာယူ	-12.2721
တိလ	-12.2732
မဆရာ	-12.2737
အစိုး	-12.274
အလုံးစုံကို	-12.2741
းဝေးစေ	-12.2742
မမူသော	-12.2742
နဲရာ	-12.2747
သာဆီ	-12.2755
မေးလေ	-12.2758
တိတု	-12.2769
ခဏသာ	-12.2781
ဆိုလို	-12.2782
ောရှက	-12.2784
လုံးလုံး	-12.28
ထားကြပြီ	-12.2801
ခာက	-12.2801
အနာရောဂါကို	-12.2801
လာစေ	-12.2808
ငါပြုသော	-12.2809
ခြေအပေါ	-12.281
းရဲခံ	-12.2811
နောဧသ	-12.2817
မူစေ	-12.2826
ဟေဗြဲ	-12.2835
ဤအကြ	-12.2841
ကြားရကြ	-12.2844
ငါအသက	-12.285
းရံ	-12.2862
ဣဗ	-12.2863
အစရှိသ	-12.2864
တံစ	-12.2869
အာဗြဟံအား	-12.2872
ဘောထဲ	-12.2879
မူသောအ	-12.2883
ကာလအခါ	-12.2908
အာရှ	-12.2912
ဥတု	-12.292
ယူလေ	-12.2931
ဗေသ	-12.2935
ဖာရ	-12.2941
စကားဖြ	-12.2956
တပါးသော	-12.296
ေါ	-12.2961
လူသားကို	-12.2972
နှာအရ	-12.2974
မယူ	-12.2978
းတီး	-12.2979
ကုသ	-12.2993
းမရှိရ	-12.2997
ပြုသောအမှုကို	-12.2998
အမိုး	-12.3
စားချ	-12.3019
အလုံး	-12.3019
ပြောဆိုလေ	-12.3027
ငါကိုး	-12.304
ဂေရ	-12.304
းကြားပြော	-12.3043
အဦးဘွားသော	-12.3046
ပုံကို	-12.306
ဝေဒနာ	-12.3061
ိဒ	-12.3067
ရေစီး	-12.3073
းယူသော	-12.3076
ကပေရ	-12.3104
ကိုမစ	-12.311
တံခါးဖြ	-12.3124
သူများကို	-12.3131
တရားမှု	-12.3141
လျှာကို	-12.3144
းတက	-12.3158
မရိပ	-12.3158
းဆဲရ	-12.3178
ဂလာစကားကို	-12.3181
ဥရိ	-12.3191
သားယ	-12.3197
းမသိ	-12.3204
ချွေးမ	-12.3206
ထွေး	-12.3221
ဧဂလ	-12.3221
မသွားန	-12.3222
ဗာရှာ	-12.3225
စားပွဲကို	-12.3245
ဂေဟာဇိ	-12.326
ချီကြွ	-12.3266
အားသာ	-12.3273
ဘောကို	-12.3277
သူရှိသမျှ	-12.3281
ပြလျ	-12.3299
စွဲသော	-12.3301
ကိုကြဲ	-12.3301
သားအကြီး	-12.3306
ငှာ	-12.331
သာသနာ	-12.3312
မုသာစကား	-12.3313
လှသော	-12.3316
းသာရကြ	-12.3327
အရေဖျား	-12.3327
းဆိုလျ	-12.3329
စာပြု	-12.3329
ဖေလ	-12.3333
တံခါးနား	-12.3335
ဆီမွှေး	-12.3338
ဧလျေဇာ	-12.3338
ပုလွေ	-12.3338
အဟိသောဖေလ	-12.3338
အာမရံ	-12.3338
နာသနေလ	-12.3338
တိဇံဆရာ	-12.3339
ဆရာသမား	-12.334
ဘာဦး	-12.334
ဟာမော	-12.3341
ပါရှုရ	-12.3343
အာရံ	-12.3344
ဒုကဲ	-12.3351
အမြှေး	-12.3352
းငှါသာ	-12.3356
ဒုတိယလ	-12.3357
ပြုကြပါ	-12.336
ရှာကြံ	-12.3364
သံကြိုးနှ	-12.3364
ယေရှုထံ	-12.3369
းကြိုး	-12.337
မူသမျှသော	-12.3377
ပုံပြ	-12.3381
ဆုံးလေ	-12.3383
စာရှိသော	-12.3389
လူအ	-12.3393
ပါလေစေဟု	-12.3395
းအကျ	-12.3397
အစာစား	-12.34
မခံမှီ	-12.3401
မနာရှေအမျိုးတ	-12.3402
ားယော	-12.3422
ကြံသော	-12.3423
အာဗနာ	-12.3429
နှလုံးခ	-12.3433
ကြပါဟု	-12.3439
အဘိန	-12.344
အာမဇိသ	-12.3446
ဟောရှေ	-12.3447
နဲသောအရာကို	-12.3453
းဆုံး	-12.3454
မျှသာ	-12.3463
ကြီးမားသော	-12.3475
အာရွှေရု	-12.3475
အစေအပါး	-12.3486
းအရာများကို	-12.3486
းသောစကားကို	-12.349
းရွာစေ	-12.3503
နေပူ	-12.3518
စေပြီဟု	-12.3519
ခွဲခ	-12.3527
စီးရာ	-12.3528
ထဲမှ	-12.3528
မှီအော	-12.356
ဟေလက	-12.3567
နှာထား	-12.3573
ဂေရရှုံ	-12.3577
ဒုတိယအ	-12.3587
ခြုံလ	-12.3597
းကြီးအပေါ	-12.3599
စာဂတိပြု	-12.3601
ရု	-12.3602
မပြုဘဲနေ	-12.3607
ပြုမိ	-12.3641
ဆိုစေ	-12.3641
ဝပြော	-12.3648
ငြူစူသော	-12.3656
ဘွားသောသား	-12.3656
မိဘမရှိသော	-12.3659
းဝေဒနာကို	-12.3664
ဝဲလ	-12.3682
သူရဲများ	-12.3687
မှာထားသမျှ	-12.3691
ယောရှိသား	-12.3691
စကားများ	-12.3693
ခဏာသ	-12.3696
လာသောသူ	-12.3701
ပါကြ	-12.3703
းစီး	-12.3705
စာစကား	-12.3706
ငြူစူ	-12.3714
မြှားတော	-12.3719
နှံကြ	-12.3721
နားပြ	-12.3722
မြုံ	-12.3722
ကြားပြောကြ	-12.3726
လာရ	-12.3726
ထိုအရာကို	-12.3729
ယေရှုရှ	-12.3731
သူတစုံ	-12.3735
ဇဒ	-12.3741
ထိုခရ	-12.3748
ဟူသောအ	-12.3749
တရားသောသူ	-12.375
မလျှော	-12.3757
ကူမ	-12.376
တစပ	-12.3771
ဒေါသအ	-12.3781
လူမျိုးများ	-12.379
မိသ	-12.3791
လေဝိလူ	-12.3793
ဘူးသ	-12.3795
ပေးပါလော	-12.3798
အမြဲနေ	-12.3801
ထွာ	-12.3812
မဟာန	-12.3814
မပြုန	-12.3832
အတူနေ	-12.3844
မာနကို	-12.3846
ညံသော	-12.3847
မဆိုဘဲ	-12.3852
းမော	-12.3858
စာရေးတံချ	-12.3873
အစား	-12.3874
းအရေအ	-12.388
းသောလူမျိုး	-12.3886
ဟာရှ	-12.3894
မှာထားသော	-12.3896
အဟိယ	-12.3896
အကာ	-12.3901
သားယောရှု	-12.3906
တညီ	-12.3919
ကိုသိသော	-12.3939
ပြပါ	-12.3943
းဖ	-12.3944
ဗောဇ	-12.3944
ဂဲ	-12.3946
ထိုမြ	-12.3949
သူလျှို	-12.395
ငါမနှ	-12.3952
ဘုရားများ	-12.396
သွားလေရာရာ	-12.398
အသားသ	-12.3991
လောကီအ	-12.4005
မပြုစု	-12.4007
ဇေလ	-12.4008
ရှုန	-12.4013
ငါထာဝရဘုရား	-12.4017
အစာအာဟာရ	-12.4018
နေရာပြ	-12.4025
းမှတပါး	-12.4027
ပြောသောသူ	-12.403
အေ	-12.4036
တိဖြ	-12.4042
ဂလာရှိပါ	-12.4057
ထိုသား	-12.4065
အခြားသူ	-12.4068
အလိုရှိလျ	-12.4079
နွားထီးတ	-12.4084
းတုကို	-12.4093
နွေကာလ	-12.4094
မကျိ	-12.41
တံဖျာ	-12.4106
ယေဒါယ	-12.4107
ဗာသရှေဘ	-12.4107
ဟာလေလုယ	-12.4107
ရဟောဘ	-12.4107
ဈာ	-12.4107
အပျိုကညာ	-12.4107
အံသွားခဲ	-12.4108
ဧလိရှ	-12.4108
ဧလိရှမာ	-12.4108
ယာဖက	-12.4109
တလုံးတဝတ	-12.4109
အရောန	-12.4109
ယောဇဗ	-12.4109
ယာဇာ	-12.411
ခုစီ	-12.4112
တိရဇ	-12.4112
သူရူး	-12.4115
နှာလွှဲ	-12.4116
အမွေခံစရာ	-12.4117
မစစ	-12.412
အိုးက	-12.4121
ကြီးလှပါ	-12.4129
နေဗော	-12.4133
ပြုစား	-12.4133
ကညာ	-12.4138
လူနာ	-12.4141
လှဲချ	-12.4143
အကြံမ	-12.4145
သိုးငါး	-12.4147
းရှိရ	-12.4149
ရွှေဒ	-12.4153
ဖု	-12.4154
းကြီးက	-12.4156
မသွားဘဲ	-12.416
းကိုမပြု	-12.4162
ထိုတပ	-12.417
သံကိုကြား	-12.4171
ဂေဇာမ	-12.4171
လိုသောသူ	-12.4176
းသွားချ	-12.4185
မတရားသောအမှု	-12.4188
အမှုအလုံးစုံ	-12.4198
မရှား	-12.4205
မီးထဲက	-12.4207
မရိုမသေပြု	-12.4219
မှလွှဲ	-12.4223
ပွဲခံရာ	-12.4227
ဧဇရသ	-12.423
ကြီးပေး	-12.4231
ရပါသ	-12.4251
ရောမလူ	-12.4254
လူနေရာ	-12.4259
မခံသောသူ	-12.4263
ယူသွားကြ	-12.4267
မပေးရ	-12.4271
ဟေရမ	-12.4271
မရှိမှီ	-12.4276
ငါးပါး	-12.4278
ပြောသောစကားကို	-12.4282
ရေများ	-12.4287
မကြဲ	-12.4288
မပြောန	-12.4293
တီးလ	-12.43
ထိုဘေး	-12.4304
းတွားကြ	-12.4305
လူဣသရေလအမျိုး	-12.4309
ဒိရှ	-12.431
သောနေရာ	-12.4316
ဆွဲဖြ	-12.432
တရားအ	-12.4327
မရကြ	-12.4334
ရလေ	-12.4341
ရာခေလသ	-12.4347
တစုံတခုသော	-12.4355
ီးအချိ	-12.4359
းထားသော	-12.4362
းဘို	-12.4366
ယခုသွား	-12.4373
ကြဲသောသူ	-12.4382
အာရှာအမျိုး	-12.4393
မိမိအမျိုးသား	-12.4404
သားသုံး	-12.4406
ငါလှ	-12.4408
းစမ	-12.4408
သူမျှမသိ	-12.4409
သိုးစုကို	-12.4412
နှာကိုထ	-12.4412
းကြီးပေးကြ	-12.4428
ပေးရသော	-12.443
ကွဲပြားသော	-12.4447
ုံ	-12.4455
နေပါသ	-12.4456
တွေးတော	-12.4467
အလုံးစုံသော	-12.4474
နားကို	-12.4475
အာသန	-12.4488
ယေခေါနိ	-12.4489
ဟေလသ	-12.4489
သမျှသ	-12.4491
စရာရှိသ	-12.4493
မထားသော	-12.4495
ဇောရ	-12.4503
သေသောအခါ	-12.4504
ကိုမမြ	-12.4508
တိအမျိုး	-12.451
ကူးကြ	-12.4527
းရဲသောသူကို	-12.4533
မိပါပြီ	-12.4537
ပုလ	-12.4545
သူတပါးသ	-12.4549
ဩဇေလ	-12.455
ဖြူစ	-12.4555
းပါလော	-12.4574
းပြုလေ	-12.4585
ပြုမိသ	-12.4586
ဖူး	-12.4594
သားပေါ	-12.4599
စာမရှိ	-12.4602
ငါဆိုသော	-12.4603
စုံကို	-12.4612
တရားသော	-12.4616
တခြားစီ	-12.4622
လေးက	-12.4623
ဆုံးရှုံးကြ	-12.4634
ရှုရ	-12.4638
ာရိမ	-12.464
စွာနေကြ	-12.4642
မီးခုံတို	-12.4647
ဘုံမှ	-12.4653
မခံရကြ	-12.4657
ဧဇ	-12.4659
လုဒ	-12.4661
ခြေမ	-12.4674
ပါတကားဟု	-12.4679
မေလက	-12.4679
ဝေးကို	-12.4682
ဇာရ	-12.4697
ငါဝ	-12.4698
မိမိအလို	-12.4698
ဤလူများ	-12.4706
မလာရ	-12.4707
းတွားလ	-12.4713
ရွာမှ	-12.4717
ပြေးသောသူ	-12.4718
ဟာဇေလ	-12.4725
ကျေးဇူးရှိ	-12.4726
စုဝေးရာ	-12.4731
စကားကိုပြော	-12.4734
နဿလိအမျိုး	-12.4745
များပြားကြ	-12.4747
အခိုး	-12.4763
စုံတို	-12.4763
တပါးကို	-12.4769
ကိုထား	-12.4771
လုံးအ	-12.4779
ာပွ	-12.4807
းမိသော	-12.4808
ပါရမီ	-12.4818
သဘောတူ	-12.4819
အာနနိ	-12.4831
သားအ	-12.4836
းစာလာ	-12.4842
စာရေးတံ	-12.4843
မပေးဘဲ	-12.4843
ငံအရ	-12.4847
ဩမရိ	-12.4847
ဆီးလေ	-12.4856
တရာအ	-12.486
ထိုအရာများ	-12.4864
ယူစေ	-12.4868
အကျိုးအပ	-12.4874
စုထဲက	-12.4882
ဆုံးကြ	-12.4898
အိုအဘ	-12.4905
းဝန	-12.4906
မိမိအပေါ	-12.4911
ရှိသလောဟု	-12.4912
ပါသလော	-12.4913
းတပါး	-12.4914
ငံအ	-12.4916
လုံခြုံ	-12.4936
ဣဇဟာ	-12.4938
မိခါလ	-12.494
ရာနှ	-12.494
ကေဒေရှမ	-12.4941
ဈေး	-12.4941
တဟာရှသားရေ	-12.4941
ဗာဇိလဲ	-12.4941
အခြံအရံ	-12.4941
အဘိရံ	-12.4941
ာခရိပ	-12.4941
မနှမြောဘဲ	-12.4941
နေဗုဇာရ	-12.4941
မသိဘူးသော	-12.4942
နံရံ	-12.4943
သီ	-12.4943
အမွှေး	-12.4943
ပုလဲ	-12.4943
အရှုကြွလာ	-12.4944
လာပြီဟု	-12.4947
ယောအာ	-12.4947
မီးညှ	-12.495
းမရွာ	-12.4953
ဟာရိမ	-12.4956
ဤအမှုအလုံးစုံ	-12.4957
ဂေရာ	-12.4958
ရှိပ	-12.4962
အဘိဟု	-12.4969
ရှာကြံကြ	-12.4972
မှလာသော	-12.4972
မူရာအ	-12.4981
ဟောကြ	-12.4983
ငံလုံးကို	-12.4984
အာဗြဟံကို	-12.4993
မှီခိုလ	-12.4994
ငါအလိုမရှိ	-12.4995
နီးသော	-12.5006
ကေဒါ	-12.5011
ဆုံးရှုံးစေ	-12.5011
ချီလွှဲသော	-12.5014
အလံကို	-12.5015
မဝါကြွား	-12.5016
ဏာ	-12.5022
ရှောလ	-12.5022
မြဲမြံသော	-12.5024
တစုံတခုမျှမရှိ	-12.5028
မစားရဟု	-12.5029
ထာဝရပဋိညာ	-12.5033
အစာအာဟာရကို	-12.5038
ယောရှသား	-12.5039
ဒေါရ	-12.5041
ဒြုန	-12.5046
ကာဣနန	-12.5049
ဧလု	-12.5054
ကိုချီ	-12.507
ဆီးစေ	-12.5082
အမျိုးမ	-12.5087
ဝခြ	-12.5094
အမူအရာ	-12.5101
မျိုးအပေါ	-12.5101
တခါတ	-12.5111
ယုန	-12.5118
ငါဟောပြောသော	-12.512
မှာစာကို	-12.5123
ဿု	-12.5127
ဆိုမိသော	-12.5131
းစံသုံး	-12.5134
တိအမျိုးသား	-12.5136
ငါအော	-12.514
မသွားကြ	-12.5141
သားယောန	-12.5145
အနံအ	-12.5147
အရာအလုံးစုံ	-12.5148
ပေးသ	-12.5166
ဒေဒ	-12.5189
အသရေရှိ	-12.5199
တစုကို	-12.5202
ငါဟောပြော	-12.5208
ရသေး	-12.5213
မဝတ	-12.5214
မှားစေ	-12.5219
ဧလိမ	-12.5239
များထဲက	-12.5242
မူသလောဟု	-12.5249
သားရဲကို	-12.5259
ထိုတရားကို	-12.5259
းရဲစေ	-12.5272
ရူ	-12.5274
စကားကိုကြား	-12.5283
သားသမီးများ	-12.5295
းစွာအမ	-12.5299
မှားလျ	-12.53
ရွှေချ	-12.5301
ချီစေ	-12.5303
ုံးရ	-12.5311
ထားစေ	-12.5314
ပြုဘူးသော	-12.5314
တရားစကား	-12.5334
မသိရ	-12.5339
ယွာဘက	-12.5348
ယုံမှား	-12.5356
ပြီလော	-12.5377
းရာဌာနကို	-12.5381
မှားပြီ	-12.54
ဂါများ	-12.5415
ပုံထား	-12.5415
မပြုစေ	-12.5417
ငါချီးမြှ	-12.5421
စာရာသ	-12.5425
ချန	-12.5427
မရပ	-12.5428
ခံရကြပြီ	-12.5431
းခံရ	-12.5432
းခံလျ	-12.5436
တခုတ	-12.5439
ပြီတကားဟု	-12.5453
ငါးရာရှိ	-12.5466
ခစား	-12.5473
ယောရှသ	-12.5485
သိုးခြံ	-12.5489
ထိုပည	-12.5493
ဓိ	-12.5494
အခြာ	-12.5498
မတက	-12.5505
တုများကို	-12.5513
ကြွလာသ	-12.5514
းကိုမခံ	-12.5518
အမှုမထား	-12.5531
ကရုဏာကို	-12.5531
ပြုရာ	-12.5533
ာပြီးမှ	-12.5549
အမတ	-12.5551
ကိုကူး	-12.5555
စထာဝရ	-12.5556
မရန	-12.5558
ရှုဆ	-12.5564
ငါပေါလု	-12.557
ဒေ	-12.5578
သောသဘောရှိ	-12.5588
မနာလို	-12.5593
ကာပြုရ	-12.5594
မှုန	-12.5601
ယေဇဗေလ	-12.5606
သားဦးကို	-12.5607
နှာသ	-12.561
ပါပြီတကားဟု	-12.5616
းစက	-12.5626
းအာဏာ	-12.5631
းဝေးရာတဲ	-12.5635
စာများ	-12.5637
မွှေ	-12.5644
နာသ	-12.565
ရောဂါ	-12.566
ဟံ	-12.5662
အမြဲပြု	-12.5664
ပုသ	-12.5667
တရားသောအမှု	-12.5672
ပြောစရာ	-12.5683
အာမသ	-12.5689
ကိုမစား	-12.5691
ရိုးသ	-12.5711
တိဇံကိုခံ	-12.5719
ပွါး	-12.5729
မြေအသီးအနှံ	-12.573
အငြိုးထား	-12.5731
ကြွလာသောသူ	-12.5739
မပို	-12.574
ဟေရ	-12.5741
ီးတတ	-12.5741
းမြား	-12.5741
ပေလ	-12.5749
အကျိုးကိုခံရ	-12.576
ဒသမလ	-12.5766
ဍာစိုး	-12.577
ချိုသော	-12.5776
ဂါလ	-12.5786
းသပ	-12.5802
သောအစေ	-12.581
ဝကြ	-12.5817
မာလခိ	-12.5822
အာဖ	-12.5826
ကိုးစားကြ	-12.5834
မာလ	-12.5834
ကိုငြ	-12.5835
ပြေးသွားကြ	-12.5837
ထိုဘုရားကို	-12.5838
အုံ	-12.5839
တတိယအ	-12.5842
နာမရှိ	-12.5845
ဂေါဂ	-12.5848
အစားအသ	-12.5848
ဒေဗိရ	-12.585
ဒေဗောရ	-12.585
မာဂဒလမာရိ	-12.585
ရိဗလ	-12.585
မြီးက	-12.585
ယေဒုသု	-12.585
ဗေသနိရွာ	-12.585
ယုပွေ	-12.585
အာဗြံဟံ	-12.585
ဗေသွေလ	-12.585
ယာဣရ	-12.585
ဗိလဟာ	-12.585
မခံဘဲ	-12.5851
ကုရ	-12.5851
အထူးထူးအပြားပြား	-12.5851
စုတေ	-12.5851
တဝါလေးပါး	-12.5851
ချိုးကလေး	-12.5851
ဂတေ	-12.5851
အသီးမသီး	-12.5851
အထီးအမ	-12.5852
ရှေလမိ	-12.5852
ခွဲဝေ	-12.5852
အကျိုးအလိုငှါ	-12.5853
ချေးငှါး	-12.5854
ဇေဘဟ	-12.5854
အညီအမျှ	-12.5855
ရိုသေစွာပြု	-12.5856
ရှေလောမိ	-12.5857
အကျိုးမဲ	-12.5859
အာရှကေ	-12.586
မူလ	-12.5861
တဆေးမပါသော	-12.5861
ရေချိုးရ	-12.5869
မိဖုရားဧသတာ	-12.5872
ပြုဘိ	-12.5874
နွားစု	-12.5877
ရေဘူးကို	-12.588
ခုကို	-12.588
ရေဇိ	-12.5884
စာရဲ	-12.5885
အမှုကိုမျှ	-12.5887
ရှိလေ	-12.5888
ကိုဆုတ	-12.5889
ခိုလှုံပါ	-12.589
စီးရ	-12.5893
ထိုငွေကို	-12.5895
ပြီတကား	-12.5898
ခေ	-12.5898
ဆီးမှီ	-12.5898
ရွေးရ	-12.5904
ဩကြ	-12.5909
ပညာစကား	-12.5911
းငှါအလိုရှိ	-12.5917
ကာရာသား	-12.5917
ပျံတ	-12.5918
ဆိုးသ	-12.5924
းဝေဒနာ	-12.5925
ဇာအတ	-12.5925
ယောသံသ	-12.593
ကြုံသော	-12.5931
အအူကို	-12.5931
နူက	-12.5934
ခံနေရာ	-12.5937
ကာလမ	-12.5938
ပြေးရသော	-12.5938
ကြားသိကြ	-12.5939
မထမ	-12.594
ရှေးကာလမှ	-12.5942
သောစကားသ	-12.5945
မီးဖိုထဲ	-12.5948
ဝစွာစားရ	-12.5956
ရွ	-12.5966
သားမြ	-12.5966
ကျူးသော	-12.5973
ခာအ	-12.5982
ပြေးလာ	-12.5992
သောသူရှိ	-12.5993
းရံလ	-12.5993
းကြိုးကို	-12.5995
ကျူ	-12.5997
ထိုသတ	-12.5997
ရှုပ	-12.5998
မရှု	-12.5999
မကြားရ	-12.6001
ဝစွာစား	-12.6001
မှားပါ	-12.6003
မပေးဘဲနေ	-12.6003
ရှိနေ	-12.6006
မြွေကို	-12.6012
ဆုံးမသွ	-12.6018
လေပြ	-12.6024
းသွားလေ	-12.6026
သားခုန	-12.6043
ပါသွား	-12.6045
ပြုစုကြ	-12.6046
ျာနား	-12.6053
တိုးပွားစေ	-12.6055
ဝသော	-12.6055
မာစွာ	-12.606
ပါသမျှသော	-12.6063
းလဲစေ	-12.6064
ဣရှမေလသ	-12.6069
မောဘအမျိုးသား	-12.6072
ပြုမိပါပြီ	-12.6072
တဆေးကို	-12.6077
ပါပြီတကား	-12.6088
းသောမြေ	-12.6095
မရဘဲ	-12.6095
ေးသန	-12.6097
ယောယဒသ	-12.6097
ခြေရာ	-12.6103
သေးသ	-12.6116
ပြောပြီးမှ	-12.6116
စာပေး	-12.6118
အသေခံရသော	-12.6119
လောဘလ	-12.6129
းရပါ	-12.6136
ကြီးစွာ	-12.6136
အနံနှ	-12.6139
သုံးချ	-12.6147
အဖျား	-12.6149
ဆိုးသောအမှု	-12.615
ခါးကို	-12.6151
စီးသွား	-12.6155
မသွားပါ	-12.6156
းသားသ	-12.6157
စကားကိုနားမ	-12.6168
သားဘွားသော	-12.6168
းရဲင	-12.617
သိလို	-12.6182
ပညာသတိ	-12.6195
နှံသော	-12.6199
းစေလျ	-12.6208
သိုးများ	-12.6211
ဩဝါဒကို	-12.6212
ယုဒအမျိုးသ	-12.6222
ဖုံးသော	-12.6231
မစုံ	-12.6231
ငါယူ	-12.6234
မပြုရဟု	-12.6234
ယေရမိက	-12.6243
စေလျ	-12.6253
ခြံ	-12.6257
ဟိရံ	-12.6276
မူသောအမှုကို	-12.6288
သိုးမွေး	-12.6302
ပြီဟုဆိုလျ	-12.6304
လာပါသ	-12.6328
စွဲစေ	-12.6331
မှီဝဲလ	-12.6333
ခိုးယူ	-12.6339
နေသန	-12.6341
မြုံသော	-12.6342
းသုံးဆ	-12.6362
သားရှိသမျှ	-12.6376
စကားတည	-12.6378
ရာဘက	-12.6389
ခံယူသော	-12.6398
တရားဖြ	-12.6401
ဂုန	-12.6408
ကာလကြာ	-12.641
ထိုအကျ	-12.6417
းသောအရ	-12.642
ရှိနေသော	-12.6423
တူးသော	-12.6428
ဒိမ	-12.6439
ခြေချ	-12.6445
မှားရာ	-12.6446
မူသောစကား	-12.6466
းရထား	-12.6484
ပေတရုကို	-12.6484
မယားစာရာ	-12.6488
ဘဲနေသော	-12.6494
တရားသောအမှုကို	-12.6497
ေရုဗ	-12.6498
မှလွ	-12.6501
ထိသော	-12.6524
ရေလအမျိုးသား	-12.6532
ထာဝရဘုရားပြု	-12.6532
မိမိအမျိုး	-12.6537
နှံတို	-12.6538
သလောဟုမေး	-12.6551
ဦးထ	-12.6556
သွားရပါ	-12.6562
ြစ	-12.6568
ဆဌမ	-12.6571
းမံသော	-12.6571
လှစ	-12.658
ရွှေဖြ	-12.6587
ကြစေဟု	-12.6593
မဆုံးမ	-12.6597
မူသောအမှု	-12.6614
အမှုကြ	-12.6616
ဗိလ	-12.6632
ခံလော	-12.6632
ယေလ	-12.6633
ဒေလ	-12.6638
ဥပဒေသများ	-12.6639
သောအကြံ	-12.666
သွားသောသူ	-12.6661
သိအမျိုး	-12.6663
ဂေဒလိ	-12.6674
ပြာကို	-12.6684
ရှားစွာပြ	-12.6686
မေလ	-12.6687
မောန	-12.669
မကျရ	-12.6693
ဆုံးသောဘုရား	-12.6697
တလုံးကို	-12.6697
ငါးတို	-12.6702
အာဗြဟံက	-12.6716
အလံ	-12.6725
လွဲစေ	-12.6725
ဣရှ	-12.6726
သေပါပြီ	-12.6726
ညူးစေကြ	-12.673
နေလိ	-12.6731
အာသဟေလ	-12.6745
အပျိုမ	-12.675
မောဘအမျိုး	-12.6751
အအူ	-12.6761
အမဲ	-12.677
ရာဗရှာခ	-12.6772
အားပြော	-12.6781
းမရှိပါ	-12.6786
မပြောဘဲ	-12.6795
အလိုရှိသော	-12.68
စီးမှီ	-12.6802
အာရှုရိလူ	-12.6806
မာသောသူ	-12.6807
ပြေးသ	-12.6813
အခြားတပါး	-12.6813
းအရှ	-12.6815
ကုလား	-12.6815
ညီသ	-12.6818
တခဏ	-12.682
ပေးရကြ	-12.682
သူကိုမျှမ	-12.6826
းသလောဟု	-12.683
းပြောဆိုကြ	-12.6831
ဂေဗ	-12.6831
ထိုနွား	-12.6835
နှိုး	-12.6839
ရထားတ	-12.6842
ဓေ	-12.6843
တေကော	-12.6843
ဘုရားများကို	-12.6845
ဇေဗေဒဲ	-12.685
ပါဒနာရံ	-12.685
အဗေဒနေဂေါ	-12.685
အဲသယောပိ	-12.685
မသုရှလ	-12.685
အစိုးတရပြု	-12.685
ဒေလိလ	-12.685
အာဖာဇ	-12.685
ကာဒေရှဗာနာ	-12.685
ဇေဖနိ	-12.685
ကြေးနီ	-12.685
မံရေ	-12.685
မပေးဘဲမနေ	-12.685
ယေရောဟံ	-12.685
မုသားစကားကို	-12.6851
ဓေစွဲယူ	-12.6851
ဗာနာ	-12.6852
သတိပညာ	-12.6852
မြဲမြံစွာ	-12.6853
ဇလောဖ	-12.6854
ချီလွှဲရာ	-12.6855
းကလေးကို	-12.6856
ဝေမျှ	-12.6857
လဲရှ	-12.6858
စားပါ	-12.6858
းမလျှာ	-12.6862
ခံသ	-12.6863
လာကြပါ	-12.6865
ဆူဝ	-12.6869
အစုစု	-12.6872
ဆူဖြိုးသော	-12.6882
ရှာလျ	-12.6882
အစိုးမရ	-12.6882
ရာဇလှံတံ	-12.6885
ဝေးပါစေသော	-12.6887
ဟုဒ	-12.6888
ဟောသော	-12.6892
တေလ	-12.6894
သွားကြပါ	-12.6896
ယေဟုက	-12.6897
ငါးလုံး	-12.6899
လဲနေ	-12.6901
ဒုတိယသား	-12.6903
သူရဲတသ	-12.6903
ရပြီဟု	-12.6905
တာကရုဏာ	-12.6906
မျှမကြွ	-12.6906
လူစ	-12.6907
တပိဿာ	-12.6907
ပမာဏပြု	-12.691
းရိသောသူသ	-12.6912
ပြောသောစကား	-12.6913
ဖာလ	-12.6918
ခံစရာ	-12.692
မယူကြ	-12.6921
ပဌမလတ	-12.6922
လာဇရုကို	-12.6922
မိခ	-12.6923
ထိုရွှေ	-12.6925
တိုးပွားများပြား	-12.6928
းဥပဒေသကို	-12.6928
းထားကြ	-12.6934
စေသောသူ	-12.6935
မိမိမယားနှ	-12.6935
ငါသွားရာ	-12.6938
လိုသေး	-12.6941
သောလူ	-12.6942
အရာမျှ	-12.6943
ဟာဇေလသ	-12.6953
ဟေဇ	-12.6957
သုံးစု	-12.6959
အသရေထ	-12.696
ဂလာသ	-12.6965
မသိပါဟု	-12.6966
သူပြော	-12.6967
သွားကြသ	-12.6971
ငါဖ	-12.6977
မပွဲ	-12.6982
မြေအသီးအနှံကို	-12.6995
ဗာရှာသ	-12.6996
ငါမပြော	-12.6999
လွဲသွား	-12.7004
လူမရှိ	-12.7008
မုသာနှ	-12.7009
ဆုကျေးဇူးကို	-12.701
မထိ	-12.7017
မစွဲ	-12.702
ထိုစာကို	-12.702
အာခဇိသ	-12.7025
မာသတိရှိ	-12.7029
းအုံ	-12.7034
ဇေရုယာသား	-12.7036
ခစားသော	-12.7036
ဖါ	-12.7038
မစားန	-12.7041
ဘိသ	-12.7042
ငါမသိဟု	-12.7047
ဆိုးစွဲသောသူ	-12.7049
ရိုးနှ	-12.7053
ခွံ	-12.7056
မသိပါ	-12.7062
မှီရာ	-12.7063
းငှါလာ	-12.7066
းလွှားကို	-12.7067
လုသော	-12.7068
ရှားလေ	-12.7071
အဘိယသ	-12.7072
အိုယုဒ	-12.7074
ပွားများ	-12.7075
ခံစားရ	-12.7089
သောငွေကို	-12.7089
အရသာ	-12.7089
ခုစီရှိ	-12.7091
ကိုများ	-12.7093
မျိုးနှ	-12.7099
ငါမှာထားသ	-12.7113
အာခေါ	-12.7118
ခြေများ	-12.7119
ပြုစရာ	-12.7121
အစိုးရသောမ	-12.7128
စွဲက	-12.7128
ဧသန	-12.7129
မာနကြီးသော	-12.714
ပြုကြသော	-12.7144
ခိတ	-12.7148
ငါကြံစ	-12.715
တိရ	-12.7151
းကြိုးနှ	-12.7163
ရထားနှ	-12.7165
စမလ	-12.7168
ငိုကြွေးသံ	-12.7171
ကြားသိလျ	-12.7178
ကျေးဇူးရှိသ	-12.7182
းဖူးသော	-12.719
ဟုရ	-12.7197
သောတရား	-12.7201
မအိ	-12.7201
မြေက	-12.7202
အများရှိကြ	-12.7207
ျိုင	-12.7208
အိုးများ	-12.721
ယောဗ	-12.7211
မရိုသေ	-12.7213
လဟာ	-12.7219
ဆုလ	-12.7229
သူဟူ	-12.7232
ဟမ	-12.7233
ဘာလ	-12.7236
ပြလေ	-12.7237
ပဌနာကို	-12.7237
ငါရှာ	-12.7255
ပြောရသော	-12.7266
ဇာခရိသ	-12.7272
ကိုသိလျ	-12.7275
ဦးစွာမှ	-12.7279
းဘေးကို	-12.7284
ငါအကြံရှိ	-12.7293
းသောအပ	-12.7303
ထိုတံခါး	-12.7312
ဆုံးသောသူ	-12.7324
ပဋ	-12.7328
အမှုရှိ	-12.7336
မကျော	-12.7339
လေဝိအမျိုးသား	-12.7341
သားအတွ	-12.7345
ခံယူကြ	-12.7351
းစီးသူရဲများ	-12.7357
ရွာသား	-12.7361
သာမည	-12.7385
ဗု	-12.7389
စပါးနှ	-12.739
ရိုသေကြ	-12.7391
ဥပမာကို	-12.7399
ာဗော	-12.74
ဆဲသောသူ	-12.7408
ထိုအမျိုးသား	-12.7431
အဘိတ	-12.7438
မခိုး	-12.7442
သောအက	-12.7443
စကားများကို	-12.7455
လူကဲ	-12.7455
၊	-12.746
လေဝိသားများ	-12.7469
ဆွဲလျ	-12.7471
သာဆို	-12.7478
ဆဲပါ	-12.7481
ပေးသောသူ	-12.7482
သိလူ	-12.7485
ထိုချိုင	-12.7495
ပြောပြီ	-12.7508
လှူကြ	-12.7509
အားဘော	-12.751
းမကလ	-12.7516
ဤသူကို	-12.7526
အာဇလ	-12.753
စောသော	-12.754
ကြွပ	-12.7546
ကြီးသောအခါ	-12.7552
နီးသ	-12.7553
အယူ	-12.7554
ဧရှ	-12.7556
ရုံမျှသာ	-12.7569
ဘိုးဘအဆွေအမျိုး	-12.7572
ပွဲကိုခံ	-12.7575
မေရာရိသား	-12.7584
သောမီး	-12.7587
ဆီးသောသူ	-12.761
းကိုမြ	-12.7616
ခါးသော	-12.7621
သူကြီးသ	-12.7622
းရိုး	-12.7634
မီးတို	-12.7637
မဖြေ	-12.764
မိမိသမီး	-12.7646
ကြီးနှ	-12.7654
တရားစကားကိုကြား	-12.7666
ကွဲပြားကြ	-12.7669
ကိုရှော	-12.7671
စူး	-12.7673
ရသောအမှု	-12.7676
ယေဗုသိ	-12.7685
ရေထဲ	-12.7691
ဣသခါအမျိုး	-12.7697
မီးအ	-12.7704
ဗေနာယသ	-12.7707
မဟာလိ	-12.7718
ယောရှုကို	-12.7718
းသောဥ	-12.7718
လုသ	-12.7722
ကိုဆွဲ	-12.7722
မာနကြီး	-12.7727
ယခုနေ	-12.7727
းရဲခံရသော	-12.7739
မီးကျ	-12.775
ညူးစေသော	-12.7751
ရှိနေစ	-12.7755
ခြေဘဝါး	-12.776
မြဲရှိ	-12.7771
၏	-12.7772
ဘေးပြု	-12.7774
အနာရောဂါစွဲ	-12.7777
မြေအိုး	-12.7778
ကြီးသောအမှု	-12.7789
ချီလွှဲ	-12.7796
းမမူကား	-12.7797
တုရိယာမျိုး	-12.78
ဆိုရသော	-12.7824
နူနာစွဲ	-12.7825
ဘူးသောသူ	-12.7827
ကြပြီလော	-12.7831
သိုထားသော	-12.7842
ရှောလုထံ	-12.7845
အဆွေအမျိုးအသီး	-12.7846
ဘဲမနေန	-12.785
ဝေးဝေး	-12.7851
ဇာဗဒ	-12.786
မရှိသလော	-12.7875
တံခါးထ	-12.7877
ခိုးသ	-12.7878
လှပြီ	-12.7883
ရှေးက	-12.7885
မသိစေ	-12.7885
ခဝေဒနာ	-12.7885
ဇိဖ	-12.7887
စုထဲ	-12.7896
အသီးကိုသီး	-12.7907
းရှိပါ	-12.7907
ဓာကို	-12.7909
မခံရဘဲ	-12.7919
တိမနတ	-12.7921
ဆူဖြိုး	-12.7926
းမြားပေးစား	-12.794
အသိအ	-12.7944
တခြား	-12.7945
ဇိခရိ	-12.7952
အစုအဝေး	-12.7953
အဒုလံ	-12.7958
ရှေဖတိ	-12.7958
းလာကြ	-12.796
ငါးစုတစုကို	-12.7961
ဒေသစာရီ	-12.7961
ယုရှ	-12.7961
ဣမေရ	-12.7961
မရေရှ	-12.7961
ယာခိန	-12.7961
နာဇရိလူ	-12.7961
ခြံရံ	-12.7961
တံထွေး	-12.7961
ကယာဖ	-12.7961
တခုခုကို	-12.7961
းမမိဿံ	-12.7962
ပြုမိသမျှသော	-12.7962
အစွဲပြု	-12.7962
ယောဇဒ	-12.7962
နွှဲ	-12.7963
ပဌာနပြု	-12.7963
နာသနိသား	-12.7963
ဟေသအမျိုးသား	-12.7964
တမြား	-12.7965
ခြေသေသောသူ	-12.7965
မွှေးသော	-12.7967
တပိသာ	-12.7967
ဩဝါဒပေး	-12.7968
ဝစွာကျွေး	-12.797
အလျားအနံ	-12.797
လုနီးပြီ	-12.7971
ငြာစေ	-12.7973
တံခါးမှူး	-12.7975
ယေသာ	-12.7976
ဇောရာ	-12.7978
အမှီမပြု	-12.7981
အခါယ	-12.7983
တခါမျှမ	-12.7984
လူအသီးသီး	-12.7985
မိစေ	-12.7988
ဟုရှဲ	-12.7992
စကားကိုသာ	-12.7995
ေဇန	-12.7998
ရှာလသေလသား	-12.8001
ကိုမျှမ	-12.8006
တိုးပွါးစေ	-12.8011
ကာမျှ	-12.8016
းပြေး	-12.8016
ဗဒ	-12.8018
ယခုအခါ	-12.8019
စိရှိ	-12.8024
ခြွ	-12.803
အိုးမြေ	-12.8032
အာပေါလု	-12.8034
ထာ	-12.8037
ိအဆွေအမျိုး	-12.8039
မထားရ	-12.8041
လူရို	-12.8042
အလိုမရှိကြ	-12.8043
းသာမရ	-12.8045
တပါးပါး	-12.8047
သူတပါးနှ	-12.8049
ချေဟု	-12.8052
ကိုမပြု	-12.8053
သီးသော	-12.8054
မနာရှေခ	-12.8059
ဧလိဟု	-12.8061
လူမျိုးနှ	-12.8062
ဝပြောသော	-12.8062
ချပြီ	-12.8078
စပါးန	-12.8081
မဆီးတား	-12.8083
ပြုဘူးသ	-12.8085
ဟိရ	-12.8085
နဂါး	-12.8085
ထိုချို	-12.8092
သူရှိရာ	-12.8093
ဗေသောရု	-12.8096
တမရ	-12.8097
းမြားဆ	-12.8097
းသောစကား	-12.81
မှာရှိကြသ	-12.8103
ဗောဇသ	-12.8116
ရှားသ	-12.8119
စီးပြီ	-12.812
ဟေရှာယက	-12.8123
ကိုငါမ	-12.8127
မိမိသားကို	-12.8128
သိုးမွေးကို	-12.813
မြဲမြံခ	-12.8131
နှာကိုဖုံး	-12.8135
းထွာ	-12.8136
သဘောကော	-12.8137
လာပါဟု	-12.8138
ခိုလှုံလ	-12.814
ရသောအခါ	-12.8148
ဝါးတို	-12.8151
ရာခေလကို	-12.8154
မသုံး	-12.8157
ငါနားမ	-12.816
ဒေါန	-12.816
သားပေ	-12.8162
ကုပရု	-12.8164
လှံတို	-12.8165
ဂလာရှိပါစေသော	-12.8168
အဖြူ	-12.8171
လူအို	-12.8175
ဟိလခိသား	-12.8181
ယေရှိမု	-12.8183
ဝေပေး	-12.8185
လိဗနိ	-12.8191
ညှိ	-12.8208
ဘူးဟု	-12.8221
မိမိနေရာအ	-12.8222
ခံလို	-12.8223
ရာအချိ	-12.8223
ပွေ	-12.8225
ဆိုဘ	-12.8226
မများ	-12.8227
ရှားသောသူ	-12.8229
ငံရှိသမျှ	-12.823
သောနှမ	-12.8233
းပါသ	-12.8235
ညှိတ	-12.8247
ရထားကို	-12.8252
အသေမခံရ	-12.8259
စာဂတိထား	-12.8261
ယေဇ	-12.8271
စားအပ	-12.8272
လျှာနှ	-12.8275
မိမိမြ	-12.8287
ပုရ	-12.8288
ရောနှောသော	-12.829
စီးကြ	-12.8292
ဟုလာသ	-12.8295
နာစေ	-12.8306
ရှိရာအ	-12.8312
းသွားကြပြီ	-12.832
လူလွ	-12.8322
သုံးပါးမ	-12.8329
တုသ	-12.8335
းမကျ	-12.8335
ယောသံ	-12.8336
ကြွေးကို	-12.8348
အဗရှလုံက	-12.8356
းသမီး	-12.8367
ကိုဖြေ	-12.8368
းဥပဒေသ	-12.8369
သောသိုး	-12.8389
ပြုပါပြီ	-12.8391
ဧလိက	-12.8392
အာဗ	-12.8398
ဗုန	-12.8405
းရာဌာနထဲ	-12.8406
မပြဘဲ	-12.8411
ဟာဇရ	-12.8418
ဣသရေလအမျိုးအပေါ	-12.8421
ဟောသ	-12.8434
ဆုံးရ	-12.8438
စွဲသောသူ	-12.8451
းသာစွာ	-12.8453
ကြေးဝါဖြ	-12.8459
မရှိပါဟု	-12.8459
ကြားပါစေ	-12.8463
ရာနေ	-12.8472
မာခ	-12.8481
းကြပါစေသော	-12.8488
မြှားကို	-12.849
သိုးများကို	-12.85
ရှာပါ	-12.8508
ရှာကြပါ	-12.851
လူအမျိုး	-12.8515
တာရှိ	-12.8516
စေကြပြီ	-12.8519
အတူသွား	-12.8522
မု	-12.8524
းပြီဟု	-12.853
ရိုးရှိသမျှ	-12.8538
မလမ	-12.8539
တအမှု	-12.8549
ခရီးသွားသော	-12.855
မိမိခြေ	-12.8553
မှီဝဲသောသူ	-12.8562
သူထံ	-12.8572
စားလေ	-12.8578
နေသေး	-12.8579
လှသောအ	-12.8597
မပြုရကြ	-12.8598
ဆိုသောသူ	-12.86
ဧလာဇာသ	-12.8613
းရှိပါစေသော	-12.8616
းကိုခံလျ	-12.862
သောအစာကို	-12.8622
းကြသော	-12.8624
းနှီးသ	-12.8628
တနာရီ	-12.8644
မညီ	-12.865
ဂါလိလဲလူ	-12.8652
သူရဲသ	-12.8657
းမရှိစေ	-12.8658
ဘုရားမရှိ	-12.8663
ျားဖြ	-12.8665
းပြသော	-12.8665
ငြာ	-12.8666
စုထဲမှာ	-12.8669
းအတာ	-12.8671
မဆီးတားန	-12.8675
သတိပေးသော	-12.8685
စားကြသ	-12.8691
စုတစု	-12.8694
နာသောသူ	-12.8695
ပြုမူသောအမှုအရာ	-12.8701
းသောသူကို	-12.8707
သတိပြုလျ	-12.8715
းနှီးတ	-12.872
ထားဘေးကို	-12.8727
ဆိုပြီ	-12.873
ငါခံရ	-12.8732
ပုံစကား	-12.8749
လှူရ	-12.8752
ဂေရရှုံသား	-12.8755
စေစား	-12.8757
ငါမှာ	-12.8761
တုများ	-12.8762
မာဝ	-12.8767
ဗနိ	-12.8779
သူခံရသော	-12.88
ထိုဥ	-12.8804
အဘိ	-12.8813
ခံပြီ	-12.8831
းသေး	-12.8834
းခံရသော	-12.8834
ရှားသောအရာ	-12.884
မကိုးစား	-12.8843
ဘွားစ	-12.8846
ပြုသမျှအတ	-12.8864
အားပေးသော	-12.8868
ကာများ	-12.8873
ဥဇ	-12.8874
ယုံလ	-12.8895
တုမြ	-12.8896
သောစာ	-12.8899
းပြီး	-12.8905
းသာရပါ	-12.8908
ရေမရှိ	-12.8921
ငါခံ	-12.893
မလာမှီ	-12.8949
အမျိုးသားနှ	-12.8953
သားဣဇာ	-12.8957
အစရှိ	-12.8962
ဇေရုယာ	-12.8971
ပဌနာပြုသော	-12.8978
ယခုငါ	-12.8985
ဥပဒေသ	-12.8986
းမလှ	-12.8989
ထောမနာ	-12.899
ဟောပြောလေ	-12.8992
ဆံကြ	-12.9004
သွာ	-12.9022
းသီးကို	-12.9027
အာဗနာကို	-12.9027
ဘဲမနေရ	-12.9029
သံကြိုး	-12.904
ကြားပြောပါ	-12.9041
ငါရှိရာ	-12.9049
လူတစုံတ	-12.9054
ချီလျ	-12.9054
းပါးသ	-12.9056
ငါမဖ	-12.9064
ပြုလေပြီ	-12.907
ိလူ	-12.908
စုံပါ	-12.9084
မှီဝဲသော	-12.9099
းခွဲ	-12.91
းတံခါးတို	-12.9102
မာနကြီးသောသူ	-12.9104
အခြားသောဘုရား	-12.9113
တူအ	-12.9114
ရွေလ	-12.9118
အနာစွဲသော	-12.9127
ယဟောရှ	-12.9129
ိပွ	-12.9129
အဇုမပွဲ	-12.9132
းထဲမှ	-12.9133
မြေကြီးမှ	-12.914
စီးပွါး	-12.9145
းဘူး	-12.9149
လေသမျှ	-12.9154
ကြီးပွါး	-12.9155
တမျိုးတ	-12.9165
ခြားသော	-12.9181
ဆိုပါသ	-12.9189
လုဇ	-12.9191
အဟိကံ	-12.9194
တံစိုးကို	-12.9206
ဩဖိရ	-12.9208
မီးခုံတ	-12.9208
ကြားလေ	-12.921
မဆွက	-12.9211
မပေးန	-12.9211
ခေမုရှ	-12.9211
ပြဿနာ	-12.9211
ဗေဇလေလ	-12.9211
ဂိလဗော	-12.9211
တာပွါ	-12.9211
ရှေရဘိ	-12.9211
ကိလိကိ	-12.9211
များမကြာ	-12.9211
ယေရမေလ	-12.9211
ဗောရသား	-12.9211
ဧရှတောလ	-12.9211
နေဟမိ	-12.9211
ဆာအမေး	-12.9211
နံဖေး	-12.9211
ယေရှာယ	-12.9211
ေဗာမြ	-12.9211
စာပရိကံ	-12.9211
းရူးပ	-12.9211
အာဇရေလ	-12.9212
မိရှေလ	-12.9212
အဒါယ	-12.9212
နှလုံးကြေကွဲ	-12.9212
ဂါဗာ	-12.9212
သူအားမျှမပြော	-12.9213
အာနကအမျိုးသား	-12.9214
မိဿ	-12.9215
နေရိသား	-12.9215
ပုဆိုး	-12.9215
နုံသား	-12.9216
ဟောလျ	-12.9216
စုပုံ	-12.9216
▁၍။	-12.9217
ဇိနတော	-12.9217
မဿနိ	-12.9218
ယေသရော	-12.9218
ဘူးသီး	-12.9219
ထားဝရဘုရား	-12.922
ဧဇာ	-12.922
လူဇာတိ	-12.922
ဤစကားအလုံးစုံ	-12.922
းကြိုးသံ	-12.9221
ဗေရခိ	-12.9223
ရွဲ	-12.9223
ငါခံရပြီ	-12.9227
ဖြေစရာ	-12.9227
တဧဖါ	-12.9228
မုယောစပါး	-12.9232
ငံထဲ	-12.9232
ဗောဇရ	-12.9233
းမကလေး	-12.9234
လေးသမား	-12.9235
သေစားသေစေသောသူ	-12.9238
နားရှိသောသူ	-12.9238
ထိုအမှုအလုံးစုံ	-12.9239
မိမိအစ	-12.9239
ရိုးအမြ	-12.924
ဤအမှုများကို	-12.9241
ကိုခွဲ	-12.9242
ရွာရှိသမျှ	-12.9246
အာဗြံအား	-12.9247
ကလာသ	-12.9251
ဖြေသော	-12.9252
လျား	-12.9256
နိုးသောအခါ	-12.9257
ရှဟံ	-12.926
ကရုဏာမရှိ	-12.9262
ငါကြားရပြီ	-12.9263
မိမိသားသမီး	-12.9264
အတိုးစား	-12.9271
ကိုရှာသော	-12.9277
းသွားကြ	-12.9281
များပြားစွာ	-12.9283
မဟောမပြော	-12.9286
ဇိမ	-12.9289
အကြံကိုကြံ	-12.929
မတရားစွာ	-12.9298
ဆွဲယူ	-12.9302
စီးပွါးကို	-12.9303
ခိုးများကို	-12.9307
မနှမြော	-12.931
အမှုအမျိုးမျိုး	-12.931
ငွေတပိဿာ	-12.9311
ယဟောရှသ	-12.9312
မနာ	-12.9312
ယူပြီးမှ	-12.9312
နဂါးကို	-12.9313
နံပါး	-12.9313
ပြောဆိုရ	-12.9313
းပါဟု	-12.9314
မိမိရထား	-12.9315
းမဝ	-12.9319
စွာနေစေ	-12.9323
လူသုံးရာ	-12.9325
စာဂတိထားသ	-12.9326
ခံသူ	-12.9329
သိုးထီးနှ	-12.9332
ဗောဇက	-12.9337
ရိုသေဘ	-12.9339
လဲသော	-12.934
အာဗနာက	-12.934
ဒိယ	-12.9341
မုသာဖြ	-12.9342
ရှိမာ	-12.9344
သဘောကျ	-12.9345
ငါခိုလှုံရာ	-12.9346
နှမြောသော	-12.9347
စေသောဟု	-12.9349
လူစုထဲ	-12.9355
ကာဣနသ	-12.9357
အကြား	-12.9362
သုံးရာနှ	-12.9364
ခွဲထားသော	-12.9366
ငါအမျ	-12.9366
သေရသော	-12.9366
းတံခါးဝ	-12.9369
သေရကြ	-12.9372
ဩန	-12.9376
ကွဲစေ	-12.9379
နံစော	-12.9386
သောပွဲ	-12.9391
းဘေးဖြ	-12.9392
းတုများကို	-12.9393
ဇောဘမ	-12.9403
ါးကျပ	-12.9404
မပြောဘဲနေ	-12.9406
းကိုခံစေ	-12.9407
ပါသမျှ	-12.9408
မြေကြီးမ	-12.941
းမွှေး	-12.9417
အနာစွဲ	-12.9418
ဥရိယသ	-12.9419
ဟဒ	-12.9424
ဂေဒလိကို	-12.9426
စွာနေသော	-12.9429
ရွာမှာ	-12.9432
းမောတွေဝေကြ	-12.9433
ကိုရသော	-12.9437
ရာထဲက	-12.9439
နားမကြား	-12.944
ိအဆွေ	-12.9442
ဧလာသ	-12.9444
တရုတ	-12.9453
မသေရ	-12.9456
းတံပိုးတို	-12.9457
ငါကြားပြီ	-12.9462
ာရှုန	-12.9467
းလန	-12.9472
မသေစေ	-12.9473
ဝါကြွားကြ	-12.9483
ရသောအမှုကို	-12.9484
မကူး	-12.9488
တရော	-12.95
ထိုမြေသ	-12.9506
တံစကား	-12.9509
မွေးစား	-12.9512
ကုရှိ	-12.9513
ကိုသနား	-12.9516
းကိုကြားလျှ	-12.9518
မစသောသူ	-12.9526
ဟေသ	-12.9527
းယူရ	-12.9532
လေးမြ	-12.9532
အနံငါး	-12.9546
ထိုမြေကို	-12.955
ထသား	-12.9556
ကိုရှာကြ	-12.9558
းဝေးသောသူ	-12.9561
ယေဇဗေလသ	-12.9563
သမီးများကို	-12.9565
လူးလ	-12.9567
လေးခု	-12.9572
ယေရ	-12.9573
ဍာရှိသမျှ	-12.9575
ယူဆ	-12.9591
ဆဲသော	-12.9595
တနိ	-12.9607
အစု	-12.9612
ပဌနာပြုလျ	-12.9612
ယူသွားရ	-12.9615
အာသသ	-12.9621
ဟိရံမ	-12.9628
အကြံရှိလျ	-12.9634
လောတကို	-12.964
းညီ	-12.9645
ဟေဇကိက	-12.9645
စုံသောသူ	-12.9646
ဘူးကြ	-12.965
းပြတ	-12.9657
နေရသ	-12.9659
မှူးများ	-12.9661
ပြီးကြ	-12.9662
ဟူသောစကား	-12.9666
နူနာစွဲသောသူ	-12.9673
အဆုံးသ	-12.9682
မြေထဲက	-12.9684
အမျိုးပ	-12.9686
မူသောနေ	-12.9687
လောနိ	-12.9689
ဆေးရ	-12.969
ဆိုရကြ	-12.9697
မခံစေ	-12.97
ငါဆိုရ	-12.9701
ဥရိယကို	-12.9736
ငါပြုရ	-12.9739
စရာရှိသော	-12.9749
ဂိ	-12.9754
ယေရှုအား	-12.9762
စားပွဲနှ	-12.9763
မိမိတပ	-12.9766
ငါပြောပြီ	-12.977
းပဌနာ	-12.977
အဘရှေ	-12.9777
မူပါပြီ	-12.9781
အားဆိုသော	-12.9782
နှာပြ	-12.9786
မြေမျ	-12.9787
သိကြသ	-12.9792
တာဖုံး	-12.9794
သောအပ	-12.9795
စားမိ	-12.9797
ထောမနာပြု	-12.9798
းအမှုမှာ	-12.9802
နေရာသ	-12.9806
ကျားသ	-12.9808
ဒရာကို	-12.9809
လုပြီ	-12.9813
ကိုလွှဲ	-12.9814
သောအနာ	-12.9818
နွားအသွေး	-12.9823
ငါးကျ	-12.9825
အရေလ	-12.9827
ယောယ	-12.9844
မူသောအရာ	-12.9853
သားစု	-12.9856
မိမ	-12.9857
မြဲသော	-12.9861
းသွားစေ	-12.9866
ချောဖြ	-12.9868
မှားကြ	-12.9874
ရာဂေါ	-12.9882
ကြားစေ	-12.9891
ပညာရှိသ	-12.9893
းခရီးကို	-12.99
ထိုဖလား	-12.9907
ရှောဗ	-12.991
ဟောရိ	-12.9911
နှံသောသူ	-12.9922
သုံးဩမဲ	-12.9928
စွာခံရ	-12.9931
အဖုံး	-12.9932
ပြောလ	-12.9934
ငါဖွ	-12.9935
းဆီးကြ	-12.994
ာလ	-12.9947
အသီးနှ	-12.9953
မတူ	-12.996
တရားမ	-12.9961
ှောက	-12.9964
အကြီးဆုံးသော	-12.9965
တုရုမ	-12.9965
မျှမကျ	-12.9966
စွာကျ	-12.9966
ချောကို	-12.9968
မဘွား	-12.9972
မဖုံး	-12.9975
ဦးစွာသော	-12.9979
မီးခိုးထ	-12.9983
မှားမိ	-13.0009
မနာရှေသ	-13.0015
ပေတရုအား	-13.005
မောရှေထံ	-13.0066
ွဲ	-13.0067
ရွာသော	-13.0067
လူအကြီးအ	-13.0068
အာရဒ	-13.0069
ဝါသ	-13.0073
လေသမျှသော	-13.0078
သောအရာများကို	-13.0087
မချော	-13.0101
ပြေးစေ	-13.0113
ဆိုရာ	-13.0114
ဇောန	-13.0129
တဲတ	-13.0129
အလျားတ	-13.0132
သူရဲနှ	-13.0135
ကူးသော	-13.0147
ထိုလူများ	-13.0151
ပြောပြီဟု	-13.0151
အမျိုးအား	-13.0158
သမီးများ	-13.0159
ခံချ	-13.017
ဆီးရာ	-13.0174
စုကို	-13.0183
အတာကို	-13.0198
ဘဲနေရ	-13.0201
ံတည	-13.0201
လောတန	-13.0202
ယုဒဘာသာ	-13.0202
ဂလာနှ	-13.0215
ခရီးသွားလ	-13.0223
ထားဘေးသ	-13.0225
ပါသောသူ	-13.023
းအမျိုးမျိုး	-13.0231
စိုးသောသူ	-13.0245
းကြီးများ	-13.0248
ငါခို	-13.0255
ကြီးတော	-13.0255
ကျူတ	-13.0272
ရေထွ	-13.0278
ပွဲထဲ	-13.0283
တံခါးမှ	-13.0291
ပါဟုဆိုသော	-13.0294
မဲသော	-13.0309
အဟိန	-13.0312
မိမိဘ	-13.032
သူတပါးက	-13.0324
ခြေတ	-13.0334
ရူး	-13.034
မြေအက	-13.0343
ထိုအမူအရာ	-13.0349
ကြားရကြပြီ	-13.035
ဿ	-13.0359
ပြုသောသူကို	-13.0367
ရှေဗန	-13.0368
ရေဘူး	-13.0384
မျှမရှိသ	-13.0387
ယေရှဲသား	-13.0387
သေးသလော	-13.0388
ဣဒ	-13.039
နီလာ	-13.0397
တရာရှိ	-13.0399
ရေဖြ	-13.0403
ဌာနကို	-13.0408
ဒေါသသ	-13.0425
လေဝိအဆွေအမျိုး	-13.0426
ဆိုးစွဲသော	-13.0434
ကျေးဇူးမပြု	-13.0435
အာသလိ	-13.0437
ရွှေအခ	-13.0448
ဦးစွာက	-13.0455
ယူသွားပြီး	-13.046
နေရာကျသော	-13.0462
မီ	-13.0465
ရှဲ	-13.0469
ကြံသောသူ	-13.0474
လေးလ	-13.0487
ရုံးကို	-13.0488
ဆုံးသောနေ	-13.05
ဥပ	-13.0508
သေခံနှ	-13.0538
ဇိမရိ	-13.0539
ဝစေ	-13.0546
ဤဗ	-13.0553
အရိုးများ	-13.0555
းအကျိုး	-13.0567
ြားသော	-13.057
ဗေသော	-13.0572
မလို	-13.0587
မောလု	-13.0587
ရိုသေရ	-13.0587
မျေလ	-13.0596
ဗာဗု	-13.0597
တာပ	-13.0598
ရှိစေရ	-13.0599
နျ	-13.0602
ထူးခြား	-13.0603
းမပ	-13.0609
မသနားရ	-13.0615
ကြူး	-13.0617
ဂတိရှိသ	-13.0625
ညှုး	-13.0627
ရတနာ	-13.0631
စီးသောရေ	-13.0634
မေရော	-13.0634
းများစွာ	-13.0635
ရထားစီး	-13.0635
အာဒါ	-13.0638
တုဗလ	-13.0639
နှဲခရာ	-13.0639
ဆွေးနွှေး	-13.0639
ဗေလရှာဇာ	-13.064
အဟောလိဗာမ	-13.064
အာလဂုံ	-13.064
ယေဟောဝါ	-13.064
အာကုလ	-13.064
ပုံပမာ	-13.064
ဗိနွိ	-13.064
အဇေကာ	-13.064
ဟေရောဒိ	-13.064
မလုမယူ	-13.064
ဩရဘ	-13.064
ယေယေလ	-13.064
မာဂုပညာရှိ	-13.064
ဇေရဟိ	-13.064
ဧဒြိ	-13.064
မဟာလေလ	-13.064
ဂိရဂါရှိ	-13.064
ရှေဘမိဖုရား	-13.064
ဧလျေလ	-13.064
ရိုသေစွာ	-13.0641
ကြံပိုး	-13.0641
တဩမဲကို	-13.0641
နဝမလ	-13.0641
စပါးကျီ	-13.0641
အသီးအခြား	-13.0642
အရှုံးခံရ	-13.0642
းဆွဲမ	-13.0642
အမှုအရေး	-13.0643
ခါးစွာသော	-13.0643
မကြားမပြော	-13.0643
းတွားသံကို	-13.0644
းကျပ	-13.0645
ဇာဆရာ	-13.0645
ဇိလပ	-13.0648
ထိုပွဲကို	-13.065
အနံလေး	-13.0654
ပျံသွား	-13.0654
းချမ	-13.0655
းပွား	-13.0657
မခံဘဲနေ	-13.0657
သေပါ	-13.0658
အာဗြဟံအမျိုး	-13.0659
ဗေဇ	-13.0659
အရိုးကို	-13.066
လေပြီးသော	-13.0664
ထသောအခါ	-13.0667
ကျူးစွာ	-13.067
ခါးသ	-13.067
စွာသွားလော	-13.0672
မိမိလူစု	-13.0675
ဗာလာ	-13.068
သံတူ	-13.068
ကျားသော	-13.068
ဝစွာစားရကြ	-13.0684
ရထားဘီး	-13.0689
နှာဖုံးကို	-13.0689
ပေရဇ	-13.069
ဲဒ	-13.069
ခေရသိလူ	-13.0692
သောသူဟူ	-13.0695
ဟောရှ	-13.0696
ကျီးအ	-13.0703
ဖြားစေ	-13.0707
အလံနှ	-13.0708
မိမိသွားရာ	-13.0708
းဟော	-13.0712
ဆိုးမအ	-13.0713
ခရီးသွားသောသူ	-13.0713
ဂလာတိ	-13.0713
မိမိအဆွေ	-13.0715
းတထ	-13.0715
မြွေဖြ	-13.0717
ငါပျော	-13.0721
ကိုးစားရာ	-13.0725
ကြားနာရ	-13.0728
နာဘေး	-13.0731
ဝါကြွားစရာ	-13.0734
ဗုက	-13.0741
ဂလ	-13.0743
ကိစ	-13.0743
ဇိမရိသ	-13.0744
ပိုးရွ	-13.0745
စာထဲက	-13.0747
တိသိ	-13.0748
ထူသော	-13.0751
ချီလာကြ	-13.0751
လကျော	-13.0752
ဖုံးထား	-13.0757
ထလျ	-13.0761
ဤရွှေ	-13.0762
ဟေန	-13.0768
ကေဖ	-13.0773
လှေစီး	-13.0776
ကြီးတ	-13.0776
စားပြီ	-13.078
းမိုးစေ	-13.0782
အိုမြေကြီး	-13.0783
ရောဂါကို	-13.0792
းအနား	-13.0793
ဩဇိသား	-13.0794
းမပျ	-13.0796
နာမကိုအမှီပြု	-13.0797
းသွ	-13.0799
ငါပြောသ	-13.08
အမိကား	-13.08
နိုးရာ	-13.0801
ပျိုးသော	-13.0802
းကုလားကာ	-13.0806
တံခါးများကို	-13.0806
ပြုစုသောသူ	-13.0807
တိဇံတရား	-13.0819
ယောသေ	-13.082
စေတနာရှိ	-13.082
ရေထဲက	-13.082
းမျှ	-13.082
မချမထား	-13.0822
ယေခေါနိသ	-13.0832
ဟေဗြဲဘာသာ	-13.0835
အငြိုးထားသော	-13.0835
ပေါလုအား	-13.0836
ငါဒံယေလ	-13.084
ထားပါပြီ	-13.0843
ကရုဏာတရား	-13.0848
းယူပြီးမှ	-13.0851
ငါမပေး	-13.0852
တစုတ	-13.0853
အာရွှေရုသ	-13.0854
အာသဟေလသ	-13.0855
ရဲသော	-13.0866
စီးပွားကို	-13.0868
တဦးနှ	-13.0869
အာနက	-13.0871
ယဟောရံသ	-13.0875
လေးရာသုံး	-13.0875
သူရဲများကို	-13.0876
းကာလ	-13.0886
ေတတ	-13.0889
ယောရံသ	-13.0896
ငါစုဝေးစေ	-13.0899
ကြီးသူများ	-13.0903
ကြိုးများ	-13.0905
မီးခုံကို	-13.0907
ဆီးတားကြ	-13.0908
အကြံထမြ	-13.0909
ကာလနှ	-13.0915
းဆိုသံ	-13.0928
းသောအသီးကို	-13.0931
စုံရာ	-13.0938
မခံမရ	-13.0938
တံငါ	-13.0945
အသရေတ	-13.0953
လူဣသရေလ	-13.0963
မေန	-13.0965
နဂါးသွ	-13.0969
ကြေး	-13.097
ဒဲ	-13.0986
လျှိုထား	-13.099
ချိုနှ	-13.0992
မှာထ	-13.0994
ထိုအသေ	-13.0995
စကားပုံ	-13.0998
မိမိခံ	-13.1003
စားစရ	-13.1004
ရေအ	-13.1005
းစေဘဲ	-13.1007
ဂျုံစပါးကို	-13.1008
အကြံရှိကြ	-13.1009
ပေးကြပါ	-13.1015
လုံနှ	-13.102
အရာတစုံတခုမျှ	-13.1022
ပြုသောအခါ	-13.1025
ဟောပြောစေ	-13.1026
းသောအမှုအရာ	-13.1031
မိမိတဲ	-13.1035
တခုမျှ	-13.1035
နဟာ	-13.1046
ထိုလူမျိုးကို	-13.106
တတိယသား	-13.1062
စွာပြု	-13.1074
သေပြီ	-13.1074
သာမျိုးကို	-13.1074
အရာကိုရ	-13.1076
ဤဥ	-13.1077
ဧလျာသ	-13.1091
ရာခုန	-13.1095
မဟာလ	-13.1098
ကြူးသောသူ	-13.1102
းများအပေါ	-13.1102
ဧမ	-13.1103
သောတရားကို	-13.1103
ပေကာ	-13.1106
ငါးခု	-13.111
ဒေါသမီး	-13.1115
းလဲကြ	-13.1115
မနေစေ	-13.112
တပုံ	-13.1122
ကရုဏာကျေးဇူး	-13.1123
ရွာများတို	-13.1134
တလုံးသ	-13.1134
ရှိသောအရာ	-13.1137
းရဟု	-13.114
လဲပ	-13.1142
းရှိရာ	-13.1142
ခံရပါသ	-13.1151
အားပြု	-13.1158
ထိုလူကို	-13.1162
ဖြူလျ	-13.1164
ပြာသော	-13.118
မှီလျ	-13.1181
မှသာ	-13.1182
းလဲသော	-13.1183
မလွှမ	-13.1187
အမိက	-13.1208
ဒေရ	-13.1214
ဣသရေလအမျိုးမှ	-13.1215
ကြီးသူနှ	-13.1216
ကျွေးမွေးသော	-13.1216
ဆီးရ	-13.1217
ပေးဦး	-13.1225
မိမိမယားကို	-13.1228
အားမရှိသော	-13.1237
ခာသ	-13.1239
ရှိမရ	-13.1243
ဝေးသ	-13.1249
းခံရကြ	-13.125
ယာရိ	-13.1251
အရိ	-13.1271
တပါးအခြားသော	-13.1283
ကြားသိရ	-13.1289
လူမျိုးအား	-13.1292
သေသွား	-13.1298
ရှိလေသမျှ	-13.1299
ထိုသူကား	-13.1311
ငါဟောပြောသ	-13.1312
းမိုးလ	-13.1327
နှာပြုလ	-13.1332
ခံစေဟု	-13.1337
ဧလာဇာသား	-13.134
ငါထာဝရ	-13.1341
မပေးကြ	-13.1351
လဲသောအခါ	-13.1354
မူးသောသူ	-13.1355
ငါသွားရ	-13.1362
ကာစ	-13.1367
စုံရ	-13.1368
နှမကို	-13.1371
သောအကြံကို	-13.1372
ကြားသောသူတို	-13.1372
သားမျိုး	-13.1373
ိုလေ	-13.1388
းဟုဆို	-13.1404
ဧသောက	-13.1404
သောသူအများ	-13.1417
သီးနှ	-13.1427
ကိုးစားသောသူ	-13.1439
ထိုကျေးဇူး	-13.1451
ပုက	-13.1459
အဦးပြု	-13.1463
မဆိုရ	-13.1465
ြ	-13.1466
ကွာစေ	-13.1468
သုံးစရာ	-13.1477
ဟောပြောသောစကား	-13.1478
းရူး	-13.1482
ရာကျ	-13.1488
တရာကို	-13.1489
ဆိုးကို	-13.149
မသိသလော	-13.149
ကျူးဧ	-13.1493
နေလ	-13.1507
ဤလောကကို	-13.1511
စကားမ	-13.1513
ွေလ	-13.152
အရာကိုခံရ	-13.152
သောငွေ	-13.1521
ဒါလ	-13.1523
ပူသော	-13.1525
ွ	-13.1532
ခံရသောအမွေတ	-13.1539
ကျေးဇူ	-13.154
ဗဲ	-13.1547
နာလ	-13.155
သူတပါးအား	-13.1557
ထားပြီဟု	-13.1558
ပညာမရှိသော	-13.1568
အားဆိုသ	-13.1578
းသောသူနှ	-13.1609
ဟိ	-13.1609
ချထားကြ	-13.1611
မယားများ	-13.1611
ကြားနာ	-13.1612
မိဘစကား	-13.1612
ရှာကြသ	-13.1627
အားကြားပြော	-13.1639
ဂလာရှိသ	-13.1644
ကိုမှာထား	-13.1656
ဝါကြွားသောသူ	-13.1657
းရဲသားကို	-13.1666
ကြီးစွာသောအသံ	-13.167
ထုံးစံကို	-13.1683
ငါသွ	-13.1699
ထိုသိုးသ	-13.1705
ရေးသော	-13.1705
အဦးဆုံး	-13.171
အာဝ	-13.1714
ေမွေလ	-13.1719
မနိုး	-13.1722
သမားကို	-13.1726
တားကြ	-13.1726
ကာမိ	-13.1729
းခုတ	-13.1734
းစေပြီ	-13.1734
စိမှ	-13.1748
မခံသောလူ	-13.1756
စာဆ	-13.1757
အနာသ	-13.1769
သေချ	-13.1772
ခံရကြပါစေ	-13.1782
းထားလေ	-13.1784
ကျူးသောသူ	-13.18
းမန	-13.1816
အားဟောပြော	-13.182
သေလု	-13.1821
းမိကြ	-13.183
သားဇေဒကိ	-13.1841
စုဝေးစေကြ	-13.1845
လိုပါဟု	-13.1845
အမွေပေး	-13.1846
ပွဲခံစ	-13.1862
ခါနနိ	-13.1866
အမျိုးသူကြီး	-13.1873
မမူသေး	-13.1876
နေရပါသ	-13.1879
အခြားသောသူကို	-13.188
သိုးရေ	-13.1881
ဖါရ	-13.1885
များထံ	-13.1888
ခိုလှုံသောသူ	-13.1896
စားရသ	-13.1897
မပြုကြပါ	-13.19
မနာရှေသား	-13.1902
အာဗြံကို	-13.1909
ချီရ	-13.191
မကွာ	-13.1912
နူနာစွဲသော	-13.1912
မဆုံး	-13.1918
မာသတိ	-13.1931
လာဇရု	-13.1944
သွားဦး	-13.196
ပါဟုဆိုလျ	-13.1961
သားယောသ	-13.1964
မာနသ	-13.197
ကြားဘူး	-13.1972
မစုံမ	-13.1981
တရားနာ	-13.1985
ဗာလသား	-13.1992
တံခါးများ	-13.1997
ဟာဒ	-13.2003
အသံကြ	-13.2005
သောအခက	-13.2009
ကိရ	-13.2012
ပြောပါဟု	-13.2027
းမှု	-13.2031
ပေးဝေ	-13.2031
ဧလိယကို	-13.2032
အဆီးအတား	-13.2037
ပေးပါပြီ	-13.2039
ပြေးလျ	-13.2044
အပါး	-13.205
ရေလရှ	-13.2055
မရိုမသေ	-13.2058
လူမျိုးကြီး	-13.2059
ကျေးဇူးတရား	-13.2078
းသောနေ	-13.2078
သောသူမှစ	-13.2083
အဘအိ	-13.2087
ထိုရွာ	-13.2106
ဇေဗုလ	-13.2111
ကိုပြုသောသူ	-13.2116
းခံကြ	-13.213
မယုံသော	-13.2135
မညှိုး	-13.2154
အဗျေဇာ	-13.2159
တူပါ	-13.2161
ရှိမိသ	-13.2168
ပြီလောဟု	-13.2174
နားခံ	-13.2177
တွဲ	-13.2182
းကျစ	-13.2182
းထိုး	-13.219
ဇောဘ	-13.2192
စုရုံး	-13.2193
ပြောဆိုပြီး	-13.2201
လွှဲသွားသော	-13.2207
ပိုးက	-13.2215
ဟိဝိ	-13.2221
ဌမလ	-13.2227
သေးသလောဟု	-13.223
ဘိန	-13.2232
သွားသမျှသော	-13.2233
နေရာချရ	-13.2245
ဖေရဇိ	-13.2245
အခြေအ	-13.2252
ဂေရှုရ	-13.2257
ဖြူသောအ	-13.2259
ငါဆုတ	-13.2261
အမွေမခံ	-13.2279
ပေဂုရ	-13.2279
မခြားမ	-13.2282
ရွေးထား	-13.2289
းစံလေ	-13.2291
ဧဝံဂေလိ	-13.2292
ခရီးဦးကြို	-13.2293
ယားနာ	-13.2293
ဇေဗဒိ	-13.2298
သဲသဲ	-13.2299
ပေဒါ	-13.23
ငါရေးထား	-13.23
ဒွါဒသမ	-13.2302
ကြဲသ	-13.2302
အားဗလ	-13.2304
လဝိရိယ	-13.2305
သုံးလောဃ	-13.2306
မိဂဒေါလမ	-13.2306
ပေနွေလ	-13.2306
ရှမွာ	-13.2306
အဗိဗလ	-13.2306
အဘိဟဲလ	-13.2306
အယူဝါဒ	-13.2306
အဟောလိဗ	-13.2306
အဿိရ	-13.2306
မဒေသနာဆရာ	-13.2306
ဩသံယေလ	-13.2306
ရေဖာယ	-13.2306
ဗေလတရှာဇာ	-13.2306
ဟုရှံ	-13.2306
ကုရေနေ	-13.2306
မွေးဘွားရာဌာန	-13.2306
တရံတခါမျှ	-13.2306
မပြီးမှီ	-13.2306
မဖြိုမ	-13.2306
အပြုအမူ	-13.2306
ကြားစရာနားရှိသော	-13.2306
လူနူ	-13.2306
မိဖုရားဝါရှတိ	-13.2306
ဟေဖါ	-13.2306
အလံကိုထူ	-13.2306
အသီးသီးအခြားခြား	-13.2306
ကရေတေ	-13.2306
ကေနိလူ	-13.2306
ဖျားလှီး	-13.2306
ပါးစလုံး	-13.2306
ဟေဂဲ	-13.2306
ပိသဂါ	-13.2306
လျူသော	-13.2306
အာရုံပြု	-13.2306
မဿဲ	-13.2306
ဂေဒိ	-13.2307
ျာခြေမ	-13.2307
ဦးရီး	-13.2307
ရှဘိ	-13.2307
ပြုမြဲပြု	-13.2307
ောဒိကိ	-13.2307
ချေးနု	-13.2307
အဘိရွှ	-13.2307
ျာပခုံး	-13.2307
လူသေအရိုး	-13.2308
ဒေါဂ	-13.2308
ဧပဖြ	-13.2308
သေကြေ	-13.2308
ဗာတံသီး	-13.2308
အသားစို	-13.2308
ပြားတပြား	-13.2309
သဲလုံး	-13.2309
ပညာသတိရှိသောသူ	-13.2309
ပြုဘူးသမျှ	-13.2309
ကေဒမ	-13.2309
ဩနဲ	-13.2309
ဧဗလ	-13.2309
သားမရှိဘဲသေ	-13.2309
မလာကြဟု	-13.2309
ပေးချ	-13.231
ဆီဥရှိသမျှကို	-13.231
တဆေးပါသော	-13.231
ချေးပုံ	-13.2311
သာယာစွာ	-13.2311
ရှိခိုးကြ	-13.2312
အသုံးမရသော	-13.2313
ယခုဘဝ	-13.2314
ဤအမူအရာ	-13.2314
မုရှိ	-13.2315
ဦးဆံ	-13.2316
တဲတံခါးဝ	-13.2317
ပသခါသိုး	-13.2317
နိဿ	-13.2317
ယွ	-13.2317
ဇေရုယာသားယွာဘ	-13.2319
ခြေဆေး	-13.232
ဗေသာ	-13.2321
ေါက	-13.2321
ယေဟုဒိ	-13.2322
မပြေဘဲ	-13.2324
သွားသောသူသ	-13.2324
ဆိုမိပြီ	-13.2325
လူမျိုးအဆက	-13.2327
တဩမဲစီ	-13.2327
အသာယ	-13.2327
သိုးနွားများကို	-13.2327
ဣကောန	-13.2328
နောဗ	-13.2328
းခိုစရာ	-13.2328
ပါသရု	-13.2329
သားအကြီးကား	-13.2329
တာလမဲ	-13.2329
ဆာအလုံးစုံ	-13.233
ုမိမ	-13.233
မထိရ	-13.2331
ပြိုလဲပြီ	-13.2334
တတိယလ	-13.2335
လဝိ	-13.2336
ဟောပြောသောသူ	-13.2337
မကျွ	-13.2338
ဧသောအမျိုးသား	-13.2342
သာမညအမှု	-13.2344
အားပေးရ	-13.2346
ဩချီးမွ	-13.2346
မိမိထားကို	-13.2347
တံကျ	-13.2347
ထိုဒေသနာ	-13.2349
ယောရှုထံ	-13.235
အမွေခံရာမြေ	-13.2351
ာဗရိမ	-13.2352
မယားစာရဲ	-13.2353
ဇိဇ	-13.2354
အာဏာထား	-13.2354
လုနီးသ	-13.2355
နေသောသူမရှိ	-13.2355
သိုးမွှေး	-13.2357
စာကိုခိုး	-13.236
ဗာလဇေ	-13.2361
ထဲမှာနေသော	-13.2366
အမျေလ	-13.2369
ဝေးလှ	-13.2373
ဗျာသ	-13.2374
မချန	-13.2375
မြေရိုးကို	-13.2376
ငါမငြ	-13.2377
လုံသား	-13.2381
ချီယူ	-13.2382
ပေါလိ	-13.2385
အလွဲ	-13.2386
ငါချထား	-13.2389
ယဟာဇေလ	-13.2389
အဟောလ	-13.2391
စာဂတိရှိ	-13.2391
ဧဟုဒသ	-13.2394
းမပေါ	-13.2395
ရေမလိသား	-13.2395
သားဦးအရာ	-13.2396
မသိသေး	-13.2401
ပါဟူ	-13.2402
ခြေဘဝါးမှ	-13.2403
လုံသ	-13.2406
းမယူ	-13.2408
လှဲရ	-13.2412
အတူနေသော	-13.2413
းပူး	-13.2429
ဧသောအား	-13.2429
ယေရှုအ	-13.2432
အာသလိသ	-13.2432
ဂေါလျ	-13.2433
ခြားနားစေ	-13.2435
ရောဒ	-13.2435
ဗာဟု	-13.2436
ရာများကို	-13.2437
အလှူကျေးဇူး	-13.244
းမိုးရ	-13.244
းတွားငိုကြွေး	-13.2443
းတွဲ	-13.2444
မိမိနေရ	-13.2445
အသွေးအသား	-13.2446
ဤဘေး	-13.2449
သူရဲကြီး	-13.245
နုသော	-13.2452
နေကြပြီ	-13.2455
ကြားရသ	-13.2457
မြေကြီးပြ	-13.2458
နွားများ	-13.2461
းသောဘုရားကို	-13.2461
သိရပါ	-13.2467
ဂေါမာ	-13.2469
သံပြား	-13.2471
ဝလျ	-13.2472
မဖေါ	-13.2474
ရေမရှိသော	-13.2474
ငါသတိပေး	-13.2476
ဆဲကြ	-13.2477
းကြီးဟိရံ	-13.2477
ချဘဲ	-13.248
ငါများပြားစေ	-13.2481
မိမိလူမျိုးစ	-13.2483
အသားနှ	-13.2484
ပြီးလေ	-13.2484
ဖျားကို	-13.2485
ဝေးဝေးနေ	-13.2485
ကိုသိကြ	-13.2494
သံကြိုးကို	-13.2496
မကြားမသိ	-13.2502
များလှ	-13.2504
ထလ	-13.2505
ဟာဇေလကို	-13.2506
းခွံ	-13.2507
ဤကော	-13.2509
ဂါဒ	-13.251
အယူကို	-13.2512
ဗာနဗသ	-13.2513
ဧသတာက	-13.2516
ထိုဂတိ	-13.2516
တီက	-13.252
ရှာဖွေကြ	-13.2523
မိမိပြုသော	-13.2529
ငွေကိုယူ	-13.253
ဆူးလေ	-13.2531
ရှေခနိ	-13.2535
မေရမ	-13.2541
လုဟိ	-13.2544
ငါပြသ	-13.2544
စာကိုယူ	-13.2547
တထွာ	-13.2548
မြေဖြ	-13.2549
အဟိယသ	-13.2554
ခံရကြပါ	-13.2555
ကြီးမှ	-13.2555
ကိုးစားပါ	-13.2558
မသွားရဟု	-13.2559
ယေဟုကလ	-13.256
းကျိုးကို	-13.2562
ဌမသား	-13.2568
ဒသမ	-13.2571
ကြားသောသူ	-13.2571
ဂေါအ	-13.2572
မကျွေး	-13.2574
သွားလာကြ	-13.2575
းကြစေဟု	-13.2581
ငါဝါကြွား	-13.2582
ကျီစား	-13.2584
ရာခေလက	-13.2585
မိမိအမိ	-13.2585
ထာဝရဘု	-13.2587
နာခံ	-13.2587
ောနိ	-13.2591
ဩဗဒိသ	-13.2591
စောစေ	-13.2592
ဆဲရာ	-13.2597
မပွဲကို	-13.2597
ဇိဘက	-13.2599
တပြား	-13.26
ပွား	-13.26
ထိုလူများကို	-13.2605
မှာလဲ	-13.2605
ထိုရေကို	-13.2606
အသံဗလံကို	-13.2607
ဧလကာနသ	-13.2609
တရားကိုမသိ	-13.261
မယားကိုမ	-13.2618
ဟောပြောလျ	-13.2619
ညီအဘိရှဲ	-13.263
မရှာဘဲ	-13.263
မထူး	-13.2633
ခရီးသွားရာ	-13.2635
ုးမတ	-13.2635
တရာရှိသော	-13.2638
ကူးစေ	-13.264
ထိုလူနှ	-13.2643
ဇေဒကိကို	-13.2644
ထိုးလေ	-13.2648
သိုးထီးကို	-13.2649
မပူ	-13.2661
ဆွဲတ	-13.2664
ငါဖြေ	-13.2664
ဟိရံသ	-13.2665
ရှေးကပ	-13.2669
ပြားကြ	-13.2672
အဘိဒ	-13.2672
ချောသော	-13.2679
ကျီနှ	-13.268
ကိုငှါး	-13.2683
းစေပါ	-13.2686
ယာရှု	-13.2688
မိမိအဆွေအမျိုး	-13.2699
ကြိုးသ	-13.2705
းခိုရာ	-13.2709
းစီးသောသူ	-13.2712
ငါကြားရသော	-13.2712
ပြသကြ	-13.2726
မိမိအကျ	-13.2727
အရာဘ	-13.273
းစပြု	-13.2737
သားယေဟု	-13.2744
သောခွ	-13.2753
ကြီးသောသူသ	-13.2754
ဧလိဖလ	-13.2756
းပမာဏ	-13.2761
ယာကို	-13.2767
လွဲ	-13.2779
းနှီးသောအရာ	-13.2785
အရေကို	-13.2786
ဘာသာအ	-13.2786
အာရန	-13.2789
ကြိုးများကို	-13.279
ဇာတိပကတိအ	-13.2796
ကြားပါ	-13.2798
ပြုမိသောအမှု	-13.2799
ဆီလ	-13.281
လောကီမ	-13.2813
နေဘူးသော	-13.2821
အာဗြဟံသား	-13.2821
ထရံကို	-13.2821
ရေများသော	-13.2823
းကိုခံသော	-13.2825
လိုဘ	-13.2835
အိုးတလုံး	-13.2836
နွားထီးကို	-13.2837
နောဖ	-13.2837
ာဒဒ	-13.2838
ငါကြားသော	-13.2843
သူမျှမနေ	-13.2844
ငြာကြ	-13.2846
ရှာကြံသော	-13.2846
မုသာအ	-13.2852
ငါကြားရ	-13.2854
မပွ	-13.2861
းရိသောသူ	-13.2868
ဲပေးက	-13.2871
ချီကြ	-13.2876
ယေရှဲသ	-13.2879
ပြုစားသော	-13.2882
သုံးရာကို	-13.2884
ဥတုမ	-13.2885
အဆုံးကို	-13.2886
များစွာရှိ	-13.2888
အလိုရှိသောသူ	-13.289
းမဖ	-13.289
စာရေးတံချကြ	-13.2891
းသောအသံကို	-13.2892
ပိသ	-13.2893
ငါမပြု	-13.2902
ဗာနဗန	-13.2904
းမွေးညှ	-13.2907
နာရီကို	-13.2914
ဒါန	-13.2917
ကိုမချ	-13.2924
လှေကို	-13.293
ဂုနိ	-13.2936
ခံပါစေ	-13.2938
သူပြုသောအမှု	-13.2949
ခံရသောနေ	-13.2965
ပေးသောအကြံ	-13.2973
တူးကြ	-13.2985
သောစကားဖြ	-13.2995
ထိုပျ	-13.2996
ဗာလဘုရားကို	-13.3006
တခြားစီနေ	-13.3007
မခွဲ	-13.3009
ငါမေးမ	-13.302
အားကြီးကြ	-13.3021
မရှိပါတကား	-13.3023
ာဘိန	-13.3029
ရဲစေ	-13.3035
ပြုမိလျ	-13.3054
လူဣသရေလအမျိုးသား	-13.3059
အမျိုးအပေါ	-13.3066
မှီတွ	-13.3069
သွားကြဟု	-13.3074
းကြီးပေးသော	-13.3076
မြေအော	-13.3087
ဤစာကို	-13.3096
မီးတော	-13.3097
ရှိနာ	-13.3097
ယေဟ	-13.3107
ရှိရကြ	-13.3109
ရူပါရုံသ	-13.3111
စေရသော	-13.3113
ယုဒလူများ	-13.3124
ဗေန	-13.3124
စားစရာမရှိ	-13.3128
အရာသုံးပါး	-13.3132
ညဦးမှ	-13.3147
ရေးသား	-13.3153
ကွာသွား	-13.3162
ူးလျ	-13.3162
ခံရသောအ	-13.3168
စကားပြောလ	-13.3172
ရှိရှိသမျှ	-13.3186
အခြားသောအရ	-13.3189
ရေထ	-13.3189
ယူပါ	-13.3192
မြေမှတ	-13.3192
ခွဲပြီး	-13.3197
နွေ	-13.3204
ခံရလေ	-13.3214
ပွဲခံရ	-13.3214
ပြောသမျှ	-13.3222
သောနွား	-13.3223
ဘေ	-13.3226
ပုံများ	-13.3236
ကြီးမတ	-13.3248
ပြေးရ	-13.3273
မနေဘဲ	-13.3284
သေသောက	-13.3286
ကောဇ	-13.3292
စွာမနေ	-13.3293
ကြီးပေါ	-13.3295
ထားပြတို	-13.3298
အာဗဒ	-13.3312
းထိမ	-13.332
မောလျ	-13.3325
ကြွေးတ	-13.3325
စကားမပြော	-13.3333
ဝေရ	-13.3335
သားရေအ	-13.335
ယုံမှားသော	-13.3364
မီးမွေး	-13.3365
စွတကား	-13.3376
မြွေသ	-13.3382
တိဇံကိုခံကြ	-13.3385
အဇုမပွဲကို	-13.3388
ဥပမာစကားကို	-13.3391
ရှုမြ	-13.3405
ဆီးဘဲ	-13.3415
အိုဗ	-13.3419
ိရ	-13.342
အာရှရ	-13.3449
ပြောသမျှသော	-13.345
လုံးနေ	-13.345
ကြားပါစေဟု	-13.3452
ရှာစေ	-13.3459
ဝါကြွားလျ	-13.347
ရှမွေလအား	-13.347
ကြားသိသော	-13.3472
ပါသေး	-13.3476
ရှုံးရ	-13.3477
မေရာရိအမျိုး	-13.3478
သောဆုကို	-13.3484
စကားများသော	-13.3485
ဤလောကသ	-13.3504
းဆိုး	-13.3506
ယေရှ	-13.3519
ာလျှ	-13.3532
ရှုအာ	-13.3543
ပုံခ	-13.3551
မျှရှိ	-13.356
မသီး	-13.3572
မနေကြ	-13.3574
ဘိ	-13.3578
းမရှိရာ	-13.3584
းမိုးကြ	-13.3587
မေသောပေါတာမိ	-13.3588
ကြားသမျှ	-13.3596
ဆိုးမကို	-13.36
ငွေဖြ	-13.3606
သတိမရှိသော	-13.3611
ုံးအဆ	-13.3614
ဆေ	-13.3617
ယခုထ	-13.3621
ရာအဘို	-13.3626
ဆွဲထားကြ	-13.3628
နာရ	-13.3628
မိမိနို	-13.3629
အာရှာအမျိုးသား	-13.3629
ိသား	-13.3637
အမျိုးမျိုးထဲက	-13.3643
ယောဘကို	-13.3645
ဤခ	-13.3652
သောဆရာ	-13.3655
ဂါတခု	-13.367
ပါးတ	-13.3673
သေခံသောသူ	-13.368
သားယေရှု	-13.3683
စုံပြီ	-13.3683
ခမက	-13.3687
နေရာချကြ	-13.3689
ချီဆ	-13.3693
ဟာရှဗ	-13.3709
ပညာမရှိ	-13.3711
ကာဣန	-13.3714
ရပါပြီ	-13.3726
ဤလူမျိုးတ	-13.373
တလုံးစီ	-13.3731
းထောမနာ	-13.3732
သတိထား	-13.3752
မှီခိုသော	-13.3767
မယူဘဲ	-13.3768
ဟာဇာ	-13.3773
နိုးလျ	-13.3773
အမွေခံရသ	-13.3774
းသဘောကို	-13.3776
လောကီအမှု	-13.3786
ထိုသူများ	-13.3789
အသီးသီးသော	-13.3799
ရှေးလူ	-13.3803
မှီပါ	-13.3805
ခိုလှုံကြ	-13.3808
မာကု	-13.3811
စီးပွား	-13.3826
မရဏာ	-13.3827
သောစပါးကို	-13.3828
မကွာစေန	-13.3845
းခုံကြ	-13.3852
ကြုံရ	-13.3867
လွှားသောသူ	-13.3875
သားနာ	-13.388
သီးပြ	-13.3894
ဆားချ	-13.3903
းကိုသိ	-13.3912
မိဇ	-13.394
စကားရှိသမျှ	-13.3945
စိုးစံရသော	-13.3954
ဘဲနေစေ	-13.3974
တိုးပွားသ	-13.3975
းယူရာ	-13.3975
လိုပါ	-13.3981
ရှေးလ	-13.3987
ျားကိုဘွား	-13.3988
ဆိုသောစကား	-13.4
ဟာယ	-13.4002
ဂေရှုရိ	-13.4015
သွေးသ	-13.4021
ကြွေ	-13.4026
ငါကွဲပြား	-13.4029
မိုးလ	-13.403
ဒြု	-13.4043
ကာရာ	-13.4044
နဂါးသ	-13.4045
ဘေးမရှိ	-13.4063
ပြုစုရ	-13.4063
တလုံးတ	-13.4067
များအတွ	-13.408
ကုလားကာတ	-13.4092
ဟူသောစကားကို	-13.4103
ုသိ	-13.4106
ကွာဝေး	-13.4106
သူခိုးကို	-13.4108
ပြသသ	-13.4112
သောအလေး	-13.4123
နေရသား	-13.4125
အားငါပေး	-13.4136
ပုဒ	-13.4137
သီးဟ	-13.4139
ျသတ	-13.4144
စိုစေ	-13.4146
ကျေးဇူးပြုလိုသော	-13.4149
တူပါသ	-13.4163
ကွဲလ	-13.4167
ဒရာအ	-13.4169
ချောစား	-13.4181
မေရိဘ	-13.4186
ကြားပြောလျ	-13.4196
သားဦးများ	-13.4196
ဥပဒေ	-13.4197
ဧဟုဒ	-13.4204
ပွဲခံကြ	-13.4209
တိဖ	-13.4213
တာအဖုံး	-13.4214
ဝေးသေး	-13.4214
ကြံပြီး	-13.4214
ချကြပြီ	-13.4225
လာရကြ	-13.4238
သားယောရံ	-13.4239
အားမရှိ	-13.4245
သားယောရှ	-13.4247
ထွာရှိ	-13.4254
ဣဒေါ	-13.4259
လှူဒါန	-13.4263
ထိုအနာ	-13.4264
မြှေး	-13.4265
စာဖ	-13.4273
ဇေဒကိသ	-13.4276
မကိုင	-13.4278
အဆတရာ	-13.4279
ဂေဒလိရှိရာ	-13.4281
ဝေးပါစေ	-13.4283
ချီသွားလေ	-13.4284
ရေးထားသမျှ	-13.4294
ယေဗု	-13.4298
ဧသတာအား	-13.4298
ရွေးလို	-13.43
းဝေးလ	-13.4301
ဖျားနာ	-13.4301
ဿေ	-13.4303
တုရိယာ	-13.4304
ဂျ	-13.4305
တစုံတခုရှိသလော	-13.4305
မိလခါ	-13.4306
ဒျေလ	-13.4306
ဆာဒိဌိ	-13.4306
အဟောဟိအမျိုး	-13.4306
ကိဗြု	-13.4306
တူရိယာ	-13.4306
မွေးမြူ	-13.4306
ယာဖျာ	-13.4306
အစာအဟာရ	-13.4306
အမွှာ	-13.4306
ဧရှတမော	-13.4306
ကိရယသာဘ	-13.4306
ကေနိအမျိုးသား	-13.4306
မိလကုံ	-13.4306
မေဒါသသား	-13.4306
အနီဆိုးသော	-13.4306
အမှီတကဲ	-13.4306
အရှုံးခံစေ	-13.4306
အာရုံမပြုဘဲ	-13.4306
ဦးသုံးဦး	-13.4306
ဧဝံဂလိတရား	-13.4306
ဣတလိ	-13.4306
ပိလေသာ	-13.4306
ဒေလာယ	-13.4306
မေဒဘ	-13.4306
ဥလံ	-13.4306
ဂေမရိ	-13.4306
ကောရိနသု	-13.4306
ထိုကုလားကာဘို	-13.4306
မုရတု	-13.4306
လေဟိအ	-13.4306
အာတေမိ	-13.4306
းပဲသမား	-13.4306
ဗေလဇေဗုလကို	-13.4306
အဒေါနိရံ	-13.4306
တဟောမဲ	-13.4306
ခေဖိရ	-13.4306
စံကော	-13.4306
ဆီလူးသော	-13.4306
အာဂေါဘ	-13.4306
ငါးမျှား	-13.4306
ဖုံးသောဆီဥ	-13.4307
ဂါယု	-13.4307
ဇာဗဒိ	-13.4307
မဖူးမ	-13.4307
ခါနာနိလူ	-13.4307
တံပိုးခရာ	-13.4307
ခါသိလ	-13.4307
မာဂေါဂ	-13.4307
လိဗု	-13.4307
းမာပကတိ	-13.4307
ဝေါဟာရ	-13.4307
အာကာသ	-13.4307
ဒေါဒေါ	-13.4308
တောသားရဲစားစရာ	-13.4308
အာမသဲ	-13.4308
ဟေလံ	-13.4308
ဩဖေလ	-13.4308
သေဖရဝိမ	-13.4308
ဆီမီးခုံ	-13.4308
အဟိဩ	-13.4308
ခြေကိုဆေး	-13.4309
ပြုစေလိုသ	-13.4309
ဗေဇာ	-13.4309
သံချေး	-13.4309
ဧဗဒ	-13.431
အာရှု	-13.431
အထူးထူး	-13.431
ရာဂမ	-13.431
နွားကလေး	-13.431
သူအားမျှ	-13.431
ဗုဒ	-13.431
မောရှေမှာထားသ	-13.431
ခါလဒဲဆရာ	-13.431
ဩနော	-13.4311
ငါမမှာထား	-13.4311
းဥပဒေကို	-13.4311
မီးဖိုပြာ	-13.4311
ဩဖိရရွှေ	-13.4311
ကြံရာမှ	-13.4312
အဒေါနိ	-13.4312
ရှောဗလ	-13.4312
းရဲလျ	-13.4313
ဟာဗော	-13.4313
ပုဝါ	-13.4313
မလဲရ	-13.4313
းမမာသောသူ	-13.4314
အဘိုးများစွာ	-13.4315
တိရိ	-13.4315
မသွားမှီ	-13.4315
ဧဝံ	-13.4316
းမသိများ	-13.4317
ဟိဒ	-13.4317
ရွှေမီးခ	-13.4318
ရှာမာရိ	-13.4318
လူသားတစုံ	-13.4318
ကြွား	-13.4319
နိကော	-13.4319
မသိဘဲနေစေ	-13.4319
မောဘအမျိုးသမီး	-13.4319
ကိုမွေးရ	-13.432
ဝံပို	-13.432
ရှေးမဆွ	-13.4321
ဤအရာအလုံးစုံ	-13.4323
မုသာစကားကိုပြော	-13.4323
သားဂေဒလိ	-13.4323
အရှုလာ	-13.4323
းရာကာလ	-13.4325
းစွတ	-13.4326
အနားမှာနေ	-13.4326
မဿန	-13.4326
ဦးမချ	-13.4327
ပဌနာမပြုသော	-13.4327
မရွေးလို	-13.4327
မိရှမ	-13.4328
နှလုံးပူ	-13.4328
ရှုံးရကြ	-13.4328
ဧလျာဒ	-13.4329
ကုရှအမျိုးသား	-13.4329
အကျိုးမရှိဘဲ	-13.433
နှာဆွဲ	-13.4334
အဟိကံသားဂေဒလိ	-13.4334
ဧလာလေ	-13.4335
ူမျိုးတစုံတမျိုး	-13.4335
မိကျော	-13.4336
စာရေးတံကျ	-13.4336
ဆေးခါး	-13.4336
ဘကြီး	-13.4339
ဖုံးလျ	-13.4339
မီးမြွေ	-13.434
ရာခုံ	-13.4341
ဇာနော	-13.4342
ဗာလပေဂုရ	-13.4343
မကွာရ	-13.4345
လူလေး	-13.4345
ရူးသ	-13.4346
တပါးစီ	-13.4347
တံစိုးစား	-13.4347
ိရှဒ	-13.4348
လူလေးရာ	-13.4348
ငါသဘောကျ	-13.4349
ဂေရဇိ	-13.4351
းမရွာစေ	-13.4353
ျားအလို	-13.4354
ရှိပါသေး	-13.4354
စပါးနှံ	-13.4354
ဣဒေါသား	-13.4355
ခုဖြ	-13.4358
ဂလတ	-13.436
ရှိဟောရ	-13.436
တာထဲမှာ	-13.4361
နိုးပါ	-13.4361
ဆုချ	-13.4363
ပွဲစား	-13.4364
များရှိကြ	-13.4365
သိသောသူ	-13.4365
ရေနားမှာ	-13.4371
းဆဲကြပြီ	-13.4371
မာလခိယ	-13.4371
ဆဲရ	-13.4373
ရေအိုး	-13.4377
လွှဲစေ	-13.4379
ဘာကု	-13.4382
ငါပြုသောအမှု	-13.4384
ငါးလ	-13.4386
းကိုမခံရ	-13.4386
မူဘူးသ	-13.4387
မိမိအမှုအရာ	-13.4389
ရိုးပျ	-13.4389
ဆဲစေ	-13.439
အာဒမာ	-13.4391
အလှူဒါနကို	-13.4394
စမသား	-13.4394
ထိုဆီကို	-13.4394
းစေသောသူ	-13.4395
ငါးစီး	-13.4398
တာအဖုံးကို	-13.4402
နုံ	-13.4403
စားကြူးသောသူ	-13.4404
ကာဣနကို	-13.4404
ေဗက	-13.4405
ဖြေရာစကားကို	-13.4405
ငါဆုံးစေ	-13.4405
မသိသောသူ	-13.4407
နဲသောအရ	-13.4407
လေးမြှား	-13.4408
တံခါးရှိသမျှ	-13.4408
ဆူပ	-13.4411
ငါကျွေးမ	-13.4414
စုံမှီ	-13.4414
မနေရဟု	-13.4417
ဤရေကို	-13.4418
လူများရှိရာ	-13.4418
ဤကြီးစွာသော	-13.4421
မပြရ	-13.4424
မေရိဘရေ	-13.4427
လဒ	-13.4433
မီးပေါ	-13.4434
ရှေမိ	-13.4434
ဗာသေ	-13.4436
အိုဖ	-13.4436
ကျေးဇူးပြုပါ	-13.4437
တခုမျှမ	-13.4438
မသုံးဘဲ	-13.4439
အမှုကြီး	-13.444
အကျိုးကိုပေး	-13.4441
အာဒန	-13.4442
ထိုထားကို	-13.4446
းကိုခံလေ	-13.4446
အနာမှ	-13.4446
ငါကြွလာ	-13.445
ပြုစုလေ	-13.4451
ယူရကြ	-13.4451
သမျှသောအရာ	-13.4452
ထဲမှာလှ	-13.4454
ရိနာစွဲသောသူ	-13.4455
ခြုံစေ	-13.4457
ငါလွှ	-13.4458
ယွာဘအား	-13.4459
ရေဆိ	-13.4459
ဟောပြောပါ	-13.4461
ရေခါး	-13.4462
ပြေးလွ	-13.4465
ပြောဆိုကြပါ	-13.4469
တာအတွ	-13.447
ယောရှုအမျိုး	-13.4471
သားယောဟန	-13.4478
သားမရှိဘဲ	-13.4482
သေရပါ	-13.4483
လာပါစေ	-13.4484
မာသတိရှိသောသူ	-13.4484
ရေတံခါး	-13.4486
းတုံး	-13.4488
ယခုဆို	-13.4489
ဝေးရာ	-13.4492
ရေအန	-13.4497
ဧဝ	-13.45
ထားသမျှသော	-13.4504
မိမိဘု	-13.4504
တရားပေ	-13.4504
အသံကိုကြားရ	-13.4507
သားနာရှ	-13.4509
ငါးလုံးကို	-13.4515
ဂိန	-13.4517
ပေရဂ	-13.4519
ချိုမြ	-13.4519
းသွားရာ	-13.4519
ဂိဟု	-13.4522
တစုံတခုရှိလ	-13.4526
ခာယ	-13.4528
မမှီဝဲ	-13.4528
လူထံ	-13.453
ရှုမှတ	-13.4531
ရှိမရိ	-13.4531
းစရာဆီ	-13.4538
သတိပြုရ	-13.4541
ပြားလေ	-13.4561
မရွေးရ	-13.4564
မိဇရ	-13.4564
ထိုအသံကို	-13.4567
ငါချေ	-13.4571
ကြားပြောစေ	-13.4572
းမယူဘဲ	-13.4575
ပုခ	-13.4575
ဇာတိပကတိလူ	-13.4581
ဩမရိသ	-13.4585
ပြုစုစေ	-13.4591
လာကြပြီဟု	-13.4593
တံခါးကိုပ	-13.4594
းပဌနာပြုသော	-13.4594
နဲရာထဲ	-13.4595
နှာလှ	-13.4595
စားပြီးမှ	-13.4595
နောမိက	-13.4596
မွေးသောသူ	-13.4597
မျှရှိသ	-13.4602
မပြောစေ	-13.4605
သွားပြီဟု	-13.4609
ဖြေလျ	-13.4609
အာမဇိကို	-13.4612
ဟာလ	-13.4612
အဘဣသရေလ	-13.4614
လိုဟု	-13.4624
ဘာမ	-13.4624
အလုံ	-13.4629
အဆီးအတားမရှိ	-13.4629
စိုးကြ	-13.463
တပြားနှ	-13.463
ရေကျ	-13.463
တံခါးခုံကို	-13.4639
ပြုပြီးသ	-13.464
ရုသက	-13.4641
ရွံရှာကြ	-13.4648
စွာပြော	-13.4648
းအလိုငှ	-13.4649
အသီးသီးကြ	-13.465
အမဲသားချ	-13.4652
ဆူသော	-13.4659
အဘိရှ	-13.466
ဆုံးမဩဝါဒကို	-13.4663
ဖြေရသော	-13.4669
ကာလနာကို	-13.4678
ဤအရာများ	-13.4679
ကောရနှ	-13.4682
မလာဘဲနေ	-13.4682
ပေါလုဟောပြော	-13.4686
ခမအား	-13.4687
မရောနှော	-13.4703
အဟိယအား	-13.4706
ယာလ	-13.4708
စေပါပြီ	-13.4711
သောအကျိုးအ	-13.4717
လောကီအရာ	-13.4719
အကာရှသ	-13.4724
ယောရံကို	-13.4728
ဘွားလေ	-13.4728
ဟေဗာသ	-13.4736
မသာအ	-13.4737
ဝေးနှ	-13.4737
အာဗြံက	-13.4748
ညီမကို	-13.4748
အဘိုးပေး	-13.4748
လူမူကား	-13.4752
ကြေ	-13.4757
မကွဲ	-13.4762
မိမိထံ	-13.4765
ဦးချပြ	-13.4768
ိရဟ	-13.4769
ကာရသော	-13.4772
တုအမျိုးသား	-13.4777
လူတဆ	-13.4778
ဍန	-13.4781
မပြောရ	-13.4785
ကြေးဝါကြိုး	-13.4786
ရှိနေသ	-13.4789
းမှထ	-13.4789
သောလူစု	-13.479
ငါခံသော	-13.4792
ထိုးလျ	-13.4801
ယေကမ	-13.4803
အာဇရိက	-13.4804
ရွာအရ	-13.4805
စုံသောအခါ	-13.4806
မကြိုးစား	-13.4813
ထာဝရဘုရားကိုရှာ	-13.4815
စာစကားကို	-13.4819
မှီခို	-13.4819
ဝါးကို	-13.4819
ောဒိ	-13.4824
အဘိုးရ	-13.4844
ကိုချိုးဖ	-13.4845
ယုံပါသ	-13.4849
မပေးသော	-13.4854
းကိုခံရလျ	-13.4861
ကြွဝ	-13.4883
ပေါလုဆို	-13.4888
ငါမသွား	-13.4899
းသီးနှ	-13.4902
းမလွှဲ	-13.4903
ကာလလ	-13.4907
အဗျာသာသ	-13.4912
မေရှိ	-13.4914
အမှုဆိုး	-13.4914
နဿလိအမျိုးသား	-13.4918
းသောနာမ	-13.4924
ခံရပါပြီ	-13.493
တရာငါး	-13.4934
ဝေးလ	-13.4939
အမွေခံစေ	-13.4947
လေးတော	-13.4951
ပြုသောအ	-13.4953
မထရ	-13.4961
ညူးသ	-13.4964
မိမိပြုသောအမှု	-13.4966
ပြုမိသောအ	-13.4976
စကားသံကိုကြား	-13.4988
အမွေမြေသ	-13.4992
ရေစီးရာ	-13.4995
သားကိုမြ	-13.4997
သိုးမြ	-13.5004
ဧဗ	-13.5005
ယေရမိအား	-13.5005
သေဘ	-13.501
ရသောကာလ	-13.5011
သားအများ	-13.5026
စကားအသောသူ	-13.5029
ထိုဥပမာ	-13.5029
ဌာနထဲ	-13.503
တိရှိသမျှ	-13.5033
သေခံစေ	-13.5037
တံခါးဝဖြ	-13.5037
ကိုမမှီ	-13.5038
လေးကိုတ	-13.5039
မပြောကြ	-13.5044
အသီးအနှံများ	-13.5044
အနာဆိုး	-13.5047
ခံရသောဒ	-13.5052
းမပါဘဲ	-13.5065
ထိုအဆွေအမျိုး	-13.5069
မဆံ	-13.5071
မပေးစား	-13.5076
ချီးမြ	-13.5093
ထိုစကားသ	-13.5099
ပသခါပွဲခံ	-13.5103
ပဌနာပြုသောသူ	-13.5104
သုံးရာရှိ	-13.5108
းမနေရာ	-13.5115
ပုံတူ	-13.5118
လဲစေ	-13.5136
ပြောစရာရှိသ	-13.5137
ခံကြပြီ	-13.5153
မျိုးများ	-13.5159
ဧလနာ	-13.5163
တာခု	-13.5179
လျှံ	-13.5185
တရားပေး	-13.5187
တွားလ	-13.5187
မိပါ	-13.5189
ဧသတာကို	-13.5194
ခံရပြီ	-13.521
ရှိရပါ	-13.5211
ဝံမ	-13.5225
အဖူး	-13.5228
အဦးဆုံးသော	-13.5237
မိမိအသွေး	-13.5237
ဖိလ	-13.5248
မှခံယူ	-13.5275
းဆဲစေ	-13.5283
ဧလံအမျိုး	-13.5283
ခကိုခံရ	-13.5285
အနာပေါ	-13.5287
းကိုခံရကြ	-13.5291
းကြားပြောရ	-13.5301
ထားကြပါ	-13.5309
ရှောလုအမျိုး	-13.5318
ဖြားသောသူ	-13.5322
ရိုသေသောသူ	-13.5338
ဩရာ	-13.534
တတိယအဆ	-13.5342
မထားဘဲ	-13.5344
နေရာမြေ	-13.5365
စကားမပြောန	-13.5373
အကျိုးကျေးဇူး	-13.5375
ပြာသ	-13.5383
ဆိုးသောအမှုကို	-13.5393
စွတကားဟု	-13.54
အတူရှိသော	-13.5401
လူအစုအဝေးထဲ	-13.5419
အသံရှိ	-13.5422
သောအမှုကိုပြု	-13.5442
မပြောမဆို	-13.5454
းမျိုးကို	-13.5461
ဒိဗ	-13.5463
ခိုးကြီးသောသူ	-13.5466
မသေဘဲ	-13.5476
ညံစေ	-13.5482
ကွာလျ	-13.5489
ခြေချော	-13.5494
မှားရ	-13.5498
ရာကိုဆ	-13.5501
သောဒုံမ	-13.5501
သွားပါလေစေ	-13.5522
အတူအိ	-13.5529
ခေရ	-13.5561
ယုံလော	-13.5563
ဆီမှ	-13.5579
စုအဝ	-13.5582
ဆုံးမဩဝါဒပေးလ	-13.5587
ေဇာသ	-13.5597
လှဲသော	-13.56
မူပြီဟုဆို	-13.5635
သားဣ	-13.566
ထားရကြ	-13.5663
မှူးအား	-13.5669
ထားလေပြီ	-13.5672
လောကီပညာ	-13.5678
နိအဆွေအမျိုး	-13.5685
သားယေ	-13.5687
းခြားလ	-13.5689
သတိမရှိ	-13.5697
ဤအမှုကြ	-13.5708
တာဖုံးကို	-13.5708
မီးခဲတ	-13.5724
တူသောသူ	-13.575
တံပိုးများ	-13.5762
ကျေးဇူးမရှိ	-13.578
းရေပေါ	-13.5789
တံစိုး	-13.5792
ငါခံရသ	-13.5808
ဒိဗလ	-13.5824
ထိုအသီးကို	-13.5825
းသောအသီး	-13.5827
ဩဇိန	-13.5827
ဆဲရှိ	-13.5827
မီးစက	-13.5842
နှလုံးသဘော	-13.5856
ထိုပြာ	-13.5857
းစွာပြု	-13.5891
ဣသရေအမျိုး	-13.5893
ရှားပြ	-13.5894
တတိယသူ	-13.5907
ရေစီးသ	-13.5912
အသရေရှိသောသူ	-13.5912
သိသလော	-13.5919
ကြုံကြ	-13.5939
လျှံလ	-13.5948
လုယူပြီ	-13.5948
သိုထားရ	-13.5948
ပြေးလာကြ	-13.595
မယားသားသမီး	-13.5964
မယုံဘဲ	-13.5977
မွေးဘွားသော	-13.5977
ခံပြီးသော	-13.5985
မိမိအမျိုးမှ	-13.5989
ကျသောသူအ	-13.599
ဘူးသောအရာ	-13.5996
နေကြပါသ	-13.5998
စာကြ	-13.6022
မာဂ	-13.6027
းယူပြီ	-13.603
ရသောငွေ	-13.6074
လာသလော	-13.6078
ဒွါဒသမလ	-13.6085
ယခုရှိသော	-13.6087
ဖြူတို	-13.6109
အကြံရှိသော	-13.6112
ဂါးနှ	-13.6118
းဘီး	-13.6142
တေမ	-13.6144
ဂလာကိုခံ	-13.6149
ာအမျိုးသား	-13.6152
အာဇရိသား	-13.6155
ယုံသလော	-13.6156
ဗာလဟာ	-13.6166
ဒုတိယသူ	-13.6167
ရာဌာန	-13.617
ယေရိခေါမ	-13.6199
စာတစုံတခုကို	-13.62
မရှိစေရ	-13.6201
အစေအပါ	-13.6219
ဌမသူ	-13.6223
ဍ	-13.6227
းပြမ	-13.623
အကာရှ	-13.6242
ာလံ	-13.6243
အနုမောဒနာ	-13.6267
ကာပြုလ	-13.6309
ဟေဗြဲအမျိုး	-13.6313
အမှုအရာများကို	-13.6321
သာလ	-13.6324
မစားဘဲ	-13.6345
ကူးရာ	-13.6347
အတူနေကြ	-13.6348
အမှုထဲက	-13.635
ဟာန	-13.6366
သောသိုးကို	-13.6371
သာသနာပ	-13.6377
ထိုဆိ	-13.6384
ျားမရှိ	-13.6396
ဧလဇာ	-13.64
ခိုးကြ	-13.6401
မီးထ	-13.6429
ယွာဘညီ	-13.6444
စပါးကျ	-13.6457
နိအမျိုး	-13.6464
မနွ	-13.6475
းအုံး	-13.6479
ဝစွာစားရသော	-13.6494
အသံကြီး	-13.6496
ညီဗ	-13.6499
မျှမလွ	-13.6503
သွားစေဟု	-13.6504
ဆုံးမပေး	-13.6506
မြေထဲ	-13.6514
ခေလသား	-13.6525
တရားရှုံး	-13.6525
ပွါးများ	-13.6539
သိဗေ	-13.6545
မလာဘဲ	-13.6559
သေသောအ	-13.6561
အားမနာ	-13.6573
မှီကာလ	-13.6578
အဗျ	-13.6578
ပြောရပါ	-13.6597
ရှဗ	-13.66
ပိဿာစီ	-13.66
အမျိုးတမျိုး	-13.6605
ရာယသား	-13.6611
ရိနာစွဲသော	-13.6619
ဗေရိယ	-13.6625
အာမောရိအမျိုး	-13.6642
ရဲပြေ	-13.6643
သားဆုံး	-13.6647
ဟောမာမ	-13.6653
မေးစေ	-13.6656
ဆိုးစွဲ	-13.6666
ဌာနာပြု	-13.6682
ုဒ	-13.6685
မိုးအ	-13.6686
နှာရပါ	-13.6694
စားကြူး	-13.6698
ရှာလသေလ	-13.671
ဘီးတခု	-13.672
ကြီးသောအမှုကို	-13.6728
ညီများ	-13.6735
ဖုန	-13.6735
လှဲကြ	-13.6737
မိလျ	-13.6741
ဒေါနိ	-13.675
ငါပြောသောစကား	-13.675
နှာဖုံး	-13.675
ခေရသိ	-13.6756
သားအာဇရိ	-13.6759
သားအဟိရ	-13.676
ချွေး	-13.6766
ကြေကွဲ	-13.6768
ဧဖါ	-13.6772
မိရ	-13.6776
ဟောပြောရသော	-13.6786
ပြောသောအရာကို	-13.6786
ဖိလေ	-13.6787
အဟိကံသား	-13.6788
ဩဖရ	-13.6789
အာဣမ	-13.6792
ရှေကနိ	-13.6793
ပေဂုရဘုရား	-13.6802
ဣသရလ	-13.6803
သံဝေဂ	-13.6804
းစံငါး	-13.6804
ဒြိ	-13.6805
ကရုဏ	-13.6805
ဝါရှတိ	-13.6806
ဦးကြိုပြု	-13.6806
ခေဒေါရလောမာ	-13.6806
ခေနာနာ	-13.6806
ချေးငှားသော	-13.6806
ခွါမကွဲပြားသော	-13.6806
ဂိဒေါနိသား	-13.6806
ဆီတလောဃ	-13.6806
ဒွေလသား	-13.6806
ဗေရောသိအမျိုး	-13.6806
မဆီးမတား	-13.6806
ဝှါကိန	-13.6806
သာဓု	-13.6806
သိလွာနု	-13.6806
ဣမလသား	-13.6806
ဧရှကောလချ	-13.6806
စိဗမာ	-13.6806
ဗိခရိသားရှေဘ	-13.6806
မြူးထူး	-13.6806
ရှေဗွေလ	-13.6806
ဟဒေါရံ	-13.6806
ဟဝိလ	-13.6806
အထူးထူးအထွေထွေ	-13.6806
အနုဆေးသီး	-13.6806
ဧမာနွေလ	-13.6806
ဗာလစံစေး	-13.6806
အဇုဘ	-13.6806
အဟောလျဘ	-13.6806
ဧလတေက	-13.6806
ခိမဟံ	-13.6806
မနီးမဝေး	-13.6806
ကေတုရ	-13.6806
ရေမလိသားပေကာ	-13.6806
ဟာနမေလ	-13.6806
စကြဝဠာ	-13.6806
ဟာရရိအမျိုး	-13.6806
အနာမတိုးပွါး	-13.6806
မြူးသော	-13.6806
ရွာတရွာ	-13.6806
ဂေလိ	-13.6806
ဆွေးနွေးနှီးနှော	-13.6806
မသေပါလေ	-13.6806
ဒုံး	-13.6806
ရိဇပ	-13.6806
နာသနိသားဣရှမေလ	-13.6806
ဖုဝါ	-13.6806
ကြေးဖြူ	-13.6806
မဆေးဘဲ	-13.6807
ဟာမုလ	-13.6807
ခေနနိ	-13.6807
ရှမိဒ	-13.6807
တလစီ	-13.6807
ဟာနနေလ	-13.6807
အာရှဗေလ	-13.6807
ဇေမရိ	-13.6807
အကျိုးစီးပွားကို	-13.6807
အာဇဇိ	-13.6807
ဗေခါ	-13.6807
ဍာရီ	-13.6807
နုပျိုသော	-13.6807
အဟေဇာ	-13.6807
ရှေးထုံးစံ	-13.6807
နွားမပျို	-13.6807
အမွေမခံရဟု	-13.6807
ပညာရတနာ	-13.6807
မဿာ	-13.6807
အရှုံးမခံ	-13.6807
ထုံ	-13.6807
သားပါဂျေလ	-13.6807
ဂလာရှိပါစေသ	-13.6808
ယာဇေလ	-13.6808
လေးစုတစု	-13.6808
အရွာရွာ	-13.6808
အာဇေလ	-13.6808
မမွေးရ	-13.6808
ရေဟုံ	-13.6808
မီးညှိ	-13.6808
သေနာစွဲ	-13.6808
မြေညီရာ	-13.6808
ဗေသဲ	-13.6808
ကလောဒိ	-13.6808
ဒုမာ	-13.6808
အဦးသီးသောအသီး	-13.6809
မဿ	-13.6809
ဟာဒါ	-13.6809
စပါးအသီးအနှံကို	-13.6809
းမသိများစွာသော	-13.6809
မေလခိရွှ	-13.681
သုံးစွဲသော	-13.681
အရှုကြွ	-13.681
ရှုအာအမျိုးသား	-13.6811
းမေးရိုး	-13.6811
ကြွေးရှိသမျှကို	-13.6811
တိဗေရိ	-13.6811
လေဝိသားအကြီးအကဲ	-13.6811
ညီတိမောသေ	-13.6812
တိရဇာ	-13.6812
ဧဝိ	-13.6812
သမီးမာခါ	-13.6812
လိုသမျှကို	-13.6812
သတိမပေး	-13.6813
ရောရှ	-13.6813
အလိုလိုသေသော	-13.6813
ရှေဖတိအမျိုးသား	-13.6814
ရှိလောရွာ	-13.6814
▁်၍။	-13.6814
အာဒါလ	-13.6814
မဖုံးဘဲ	-13.6814
ဂမာ	-13.6815
လူမနေသော	-13.6817
ယုဘိလတံပိုး	-13.6817
အဝေးဆုံးသော	-13.6817
ရှိခိုးလျ	-13.6818
လုံးထွေး	-13.6819
ဧတံ	-13.6819
ရုံမျှ	-13.6819
နွားလား	-13.6819
သားရဲမျိုး	-13.682
ပွါးများစေ	-13.6821
ရွှေအိုး	-13.6821
ငိုကြွေးသောအသံ	-13.6822
းဘိုးနေရာ	-13.6822
အနာရောဂါရှိသမျှ	-13.6822
ပညာမရှိဘဲ	-13.6822
ထားဖျား	-13.6823
မျှား	-13.6823
ရှောဗာလ	-13.6824
ပြာသောကြိုး	-13.6824
ငွေခွဲ	-13.6824
ခဏမျှ	-13.6825
အဆီးအတားမရှိစေ	-13.6826
ပျံဝဲ	-13.6826
တိမနာ	-13.6826
ယခုခဏ	-13.6826
ဧလိရှဲထံ	-13.6826
ခိသလု	-13.6826
ဂိလော	-13.6827
ကျွံ	-13.6828
ဝေငှပေး	-13.6829
မပေးစားရ	-13.6829
ဘိုးငွေ	-13.6829
သားဂါလ	-13.6831
ညှုးစေ	-13.6832
လူသုံးစုတစု	-13.6832
မသနားဘဲ	-13.6833
ဟာလေ	-13.6833
ရှုသေလ	-13.6834
းမပျို	-13.6834
ဧဒါ	-13.6835
တံခါးအနားမှာ	-13.6835
မုသာကိုသုံးသောသူ	-13.6835
သားမဘွားသော	-13.6835
ဇေရုဗ	-13.6836
ဩနေသိ	-13.6838
ဒေသအ	-13.6838
ချီလွှဲရ	-13.6839
တိဆရာ	-13.6839
နှာကလာ	-13.6841
သမီးအကြီး	-13.6844
ပိုးစာ	-13.6846
ချေပြီးမှ	-13.6846
ဧသံ	-13.6848
ခွါကွဲပြား	-13.6848
ကာဟူ	-13.6848
သကေနေပွဲကို	-13.6849
ထိုလူနာ	-13.6849
မောရိ	-13.6849
မရဘဲနေကြ	-13.6849
ယေမွေလ	-13.6852
ေးကွ	-13.6853
မျှမရှိသလောဟု	-13.6853
းဘီကို	-13.6853
ာလိန	-13.6853
ခြုံထ	-13.6853
အသီးအနှံများသော	-13.6854
မီးလှုံလ	-13.6855
းသီးကျ	-13.6855
လူမျိုးအများ	-13.6856
နွေကာလအသီး	-13.6857
ဓေစွဲနေ	-13.6857
စီစရာ	-13.6857
ထိုအခါပေါလု	-13.6859
သုံးခွ	-13.686
သူရွာသား	-13.686
အစာကိုရှ	-13.6861
သားဧလိရှဲ	-13.6862
ရှောလုရှိရာ	-13.6863
လုမ	-13.6866
းဝေးရကြ	-13.6866
ဩနံ	-13.6868
မှာထားကြသ	-13.6869
ဍာများကို	-13.687
ဆုံးသောကာလ	-13.6872
တွေဝေ	-13.6872
ချေးတံခါး	-13.6874
အိုယုဒအမျိုး	-13.6874
အာဗနာန	-13.6875
ဂတိထားသော	-13.6876
ဇရတ	-13.6876
ရေးထားသမျှသော	-13.6877
ပါသောလူများ	-13.6878
ရာဇသရဖူကို	-13.6879
ပါးရိုးကို	-13.6879
အမွေပေးသော	-13.688
သားတစ	-13.6881
တံပိုးသံကို	-13.6881
ဘာမျှမ	-13.6882
ရွေးယူရ	-13.6883
ခံဘူးသော	-13.6885
ဗာရှာအမျိုး	-13.6885
ျာမျ	-13.6885
မငြူစူ	-13.6886
ပဌမလဆ	-13.6889
အခြားခြား	-13.6889
မိမိသိုးစုကို	-13.689
တားလေ	-13.6892
ဒေနာရိတပြားကို	-13.6892
လာပါပြီဟု	-13.6893
အာတာအမျိုး	-13.6895
ယောဟ	-13.6895
စာမလ	-13.6897
မောသရ	-13.6898
အမှုကိုပြုသောသူ	-13.6899
ရီး	-13.69
မြေခွေးနေရာ	-13.69
ဗေလာ	-13.6903
ရေးကူး	-13.6905
အားတိုးပွါး	-13.6906
ာလမဲ	-13.6906
အစေကိုခံ	-13.6906
အတူပါသော	-13.6909
မသိဘဲနေ	-13.6911
ဟဲ	-13.6911
မခံရသေး	-13.6917
ကြီးစွာသောဒ	-13.6919
စံန	-13.692
ကြေးဝါလေး	-13.692
ကြဲရသော	-13.6922
သီးစေ	-13.6923
မေးကြသော	-13.6925
အလုံးသေး	-13.6925
းသောအကြံအ	-13.6926
နေလေရာရာ	-13.6931
သိုးမွေးအ	-13.6935
မကူးရ	-13.6936
လူမျိုးထဲက	-13.6939
ခနဲ	-13.694
မာဂု	-13.6941
မမေးကြ	-13.6943
လျားသော	-13.6944
ရောဂါနှ	-13.6944
လေးခုရှိ	-13.6947
ဧလာသာ	-13.6949
ယေရှုရှိ	-13.695
းဆိုကြပါစေသော	-13.6951
မိမိကိုမိမိ	-13.6952
ငြူစူကြ	-13.6952
ထွေးကြ	-13.6953
ပမာဏမပြုကြ	-13.6954
ရေချိုးပြီး	-13.6954
တဆောထ	-13.6954
မေရာယ	-13.6955
ဆာဆရာ	-13.6957
လျှံသော	-13.696
သေနေသောသူ	-13.6961
ဧလာဇာအမျိုး	-13.6963
ကောလ	-13.6964
ဘွေ	-13.6965
ကူးသွားပါ	-13.6965
စောသောသူ	-13.6965
ရှိသောရွာ	-13.6966
ကျေးဇူးကိုပြု	-13.6966
ထိုဦးချို	-13.6969
အလိုလိုလှူ	-13.6972
ခိုလှုံရာအရ	-13.6972
မတိုးပွား	-13.6972
ဂေရှ	-13.6974
ယောဒ	-13.6974
မိမိအမွေ	-13.6975
ဍာစိုးက	-13.6976
အစာမစားဘဲ	-13.6976
းတူပြုကြ	-13.6976
မခံရဟု	-13.6977
တဧဖာ	-13.6978
လာဇရုသ	-13.6988
မယားထံ	-13.6989
အာသလိကို	-13.699
အသီးကိုသီးသော	-13.6994
မှုပါတကား	-13.6995
စီးသောရေကို	-13.6996
ချွေးမနှ	-13.6997
ထိုလူဆိုး	-13.7002
မျိုကြ	-13.7003
ငါရွေးယူ	-13.7003
အသီးအသီးရှိကြ	-13.7004
ဧလိရှဲအား	-13.7004
ဝေးစွာသော	-13.7005
ကျွေးမွေးပြုစု	-13.7006
ဗိလဟ	-13.7008
ပြောစရာမရှိ	-13.7011
မထားပါ	-13.7012
ကောရတ	-13.7012
နဲခ	-13.7013
မဆိုပါ	-13.7014
သံခ	-13.7015
ခါးကိုစ	-13.7018
ရာဗရှာခက	-13.7019
ထားလှံ	-13.7019
ယဟာဇ	-13.7021
မစားဘဲနေ	-13.7024
ရှိပါပြီ	-13.7027
မူရသ	-13.7029
ရှမွေလဟု	-13.703
အားငါပြော	-13.7031
ရေကိုပေး	-13.7032
အနုမောဒနာပြု	-13.7033
းမောတွေဝေစေ	-13.7036
ဟောပြောရကြ	-13.7037
မခိုလှုံ	-13.7038
နေရကြပါ	-13.7039
အဗျေဇာသား	-13.7041
ကြွလာပါ	-13.7041
ဖြားကြ	-13.7044
ဗာယ	-13.7045
မိမိမတရားသော	-13.7048
ထိုသိုးနွား	-13.7053
အဘသေ	-13.7056
ဘဲနေလေ	-13.7058
အထု	-13.7061
သောအရသာ	-13.7063
ယေလသ	-13.7065
လူရှိရာ	-13.7065
းတီးသော	-13.7069
ထိုသားရဲ	-13.707
တရားမရှိ	-13.7076
ဆေးမျိုး	-13.7077
ရေရှိရာ	-13.7081
ငါးခုကို	-13.7082
သဘောကျပါ	-13.7087
မဟာပ	-13.7089
မသိမှီ	-13.7096
ာဒိ	-13.7098
ဧကဒသမ	-13.7111
းသောမယား	-13.7113
အစာကိုမစား	-13.7113
ဂေဟာဇိက	-13.7113
အလိုမရှိသော	-13.7116
သိုထားရာ	-13.712
ဇိဖတော	-13.7121
ချိုးလျ	-13.7127
မခံဘဲလ	-13.7128
ငါနှမြော	-13.7128
အသေခံစေ	-13.7132
မသိရပါ	-13.7134
ပုံရ	-13.7137
ဇာတိအမျိုး	-13.7143
သာလော	-13.7146
အာမောရိအမျိုးသား	-13.7146
စွာနေရသော	-13.7151
ခြေဘဝါးတို	-13.7151
မဘွားမှီ	-13.7152
းယူရကြ	-13.7154
လားအ	-13.7157
မိမိအဘအ	-13.7157
းရဲခံရကြ	-13.716
မရွေးမ	-13.7161
ဩဝါဒစကား	-13.7161
ရသောတရား	-13.7167
းကြီးမေး	-13.7167
သောသူတစုံတ	-13.7171
ဤဘုရားသ	-13.7173
ဟာတ	-13.7173
အာနနိသ	-13.7176
အာမသသ	-13.7176
းဆိုရာ	-13.718
သူသိသ	-13.7182
းဖူးသမျှ	-13.7182
မသွားစေ	-13.7183
ထိုအသွေးကို	-13.7188
ကြားရပါ	-13.7188
စပါးပုံ	-13.7191
အစာမစား	-13.7202
အကြံရှိပါ	-13.7203
ရေဘ	-13.7203
ကွာဝေးရာ	-13.7206
မောလဒ	-13.7206
ညူးစွာ	-13.7207
တုရိယာမျိုးကို	-13.7209
ညူးကြ	-13.721
ဆီမှာ	-13.7212
ထိုအသံ	-13.7217
ပါးတွ	-13.7228
ခံကြပါ	-13.7231
ရှုံးသော	-13.7231
ရှာကြံလ	-13.7245
ရှောလုသား	-13.7246
ဇေရိအဆွေ	-13.7247
သွေးဖြ	-13.7247
ခံရသောဘေး	-13.7249
မေရက	-13.725
အားပြောလော	-13.7251
ဂါလက	-13.7252
ငံလုံး	-13.726
တုအမျိုး	-13.7268
ငါမခံ	-13.727
နေရိ	-13.7275
နှာမပ	-13.728
းစွာသောအမ	-13.7282
မျှမပါ	-13.729
ထာဝရဘုရားပေ	-13.7303
အနာရောဂါစွဲသောသူ	-13.7304
စားနု	-13.7323
ရွှေကြိုး	-13.7327
းပဌနာပြုလ	-13.7328
ကိုထိုး	-13.7336
နီလာကျော	-13.7338
ပြောမိ	-13.7339
မုသာသုံးသော	-13.7341
အသံပြ	-13.7346
ဘောစီး	-13.7349
တိရှိသောသူ	-13.7357
သားဦးရှိသမျှ	-13.7363
မခံမယူဘဲ	-13.7366
ဆိုးအပေါ	-13.7368
းရှိရကြ	-13.7381
ဝေဒနာကိုခံရ	-13.7387
အတူရှိနေ	-13.7388
သဘောတူလျ	-13.7397
မွေးညှ	-13.7402
ဂလာလ	-13.7403
မြေရိုး	-13.7406
နေပါစေ	-13.7406
ဗိလဂ	-13.7408
ခိုးကိုပြ	-13.7434
ရှိဖ	-13.7437
မျှမသိ	-13.7445
ငိုရ	-13.7446
ဗိခရိ	-13.7452
သားအဟိမ	-13.7455
မနမ	-13.7463
ပြောပါဟုဆို	-13.7468
ထဲမှာနေရ	-13.747
မာကုအ	-13.7482
အရာကိုခံ	-13.7499
စာများသော	-13.7514
ဟောရနိ	-13.7516
စုရုံးစေ	-13.7545
ပြောကြပါစေ	-13.7553
ဆုံကြ	-13.7556
ဣသခါအမျိုးသား	-13.7564
ိုလျှ	-13.7568
ငါမှာထားပြီ	-13.758
ဆုမ	-13.759
ဣယ	-13.7594
ပဌနာပြုလေ	-13.7612
အဦးမှ	-13.7613
ကြားပြောရကြ	-13.7625
ာဒဲ	-13.7633
သွားလာသောသူ	-13.7636
ထိုမြွေ	-13.7652
ဆုံးရကြ	-13.7663
ကျွေးစရာ	-13.7664
းသောကြိုး	-13.7669
မမူရာ	-13.7672
သီးမျိုး	-13.7681
ပြောရကြ	-13.7681
သဘောရှိကြ	-13.7694
ယုဒလူမျိုး	-13.7699
သဘောထား	-13.77
ောဂ	-13.7714
ဖေရ	-13.7724
အစေခံရ	-13.7741
မကွာစေ	-13.7759
စာရှိသောသူ	-13.7759
ခကိုခံ	-13.7776
သူပေ	-13.7788
သတိမရှိသောသူ	-13.7801
မွေးလော	-13.7828
သားအဗရှလုံ	-13.7836
ခံရသောအခွ	-13.7849
သာမညလူ	-13.7854
ခံရသမျှ	-13.786
မလွှဲမ	-13.7868
မသွားဘဲနေ	-13.7869
အခြားသူမ	-13.7871
နိမရ	-13.789
တဆေးမပါ	-13.7898
ပေတရုဆို	-13.7903
သားရှိမိ	-13.7907
ဂလာရှိသောသူ	-13.7921
အာဝိ	-13.7923
မရှိသေး	-13.7929
ထိုအမှုများ	-13.7941
သမားများ	-13.7961
ဇိဖသား	-13.7971
စွာဟော	-13.7971
းဆဲခံရသော	-13.7972
ဗေဗဲအမျိုး	-13.7976
ခွဲထားရ	-13.798
အားတိုးပွား	-13.798
စေသောရေ	-13.7981
ေလုန	-13.7986
မြွေဆိုးအ	-13.7994
သာတီး	-13.8
ရေလန	-13.8005
ဤစကားများ	-13.8008
ကာသောသူ	-13.8031
စကားကိုမယုံ	-13.8057
ရှေးပ	-13.8061
ခံစားရသော	-13.8076
မိမိနှမ	-13.8088
ကားကြားပါစေ	-13.8094
မိမိအကြံ	-13.8109
မရိ	-13.8115
မပွဲခံ	-13.8121
နာဟ	-13.8123
ဟေဟု	-13.8127
စေဟုဆိုသ	-13.8136
ပေးဝေရ	-13.8154
သူတဦး	-13.8155
နေကြပါဟု	-13.8181
လှံများ	-13.8187
မဖြေဘဲ	-13.8198
စားပြီး	-13.8199
ပဌနာပြုသောအခါ	-13.8215
ဩမဲစီ	-13.8241
ကြားရပါပြီ	-13.8248
ရှုနိ	-13.8248
ပေလသိ	-13.8251
ဆိုစေသော	-13.8256
မြေအသီး	-13.8262
မီးစာ	-13.8263
ယေရှုရု	-13.828
စကားပြောရ	-13.8295
မပြောသလော	-13.832
ဟာရော	-13.8338
ယိမန	-13.8343
ဂလာပေး	-13.8346
မလွှဲဘဲ	-13.8352
အဇုမပွဲကိုခံ	-13.8354
သောသဘောရှိသ	-13.8356
အကြီးဆုံးသောသူ	-13.8357
လာခိရှမ	-13.8358
ပြောသံ	-13.8388
ရှေမာယသား	-13.839
တမျိုးရှိ	-13.8398
ထူးခြားသောအ	-13.841
စားပွဲမှ	-13.8416
ပေလသိလူ	-13.8426
ခမထံ	-13.8441
သိုးစုများ	-13.8444
နှမများ	-13.8446
ချိုသောစ	-13.8449
ဂါရှ	-13.8452
ရိုးအတ	-13.8456
အဦးပြုကြ	-13.8464
ခွဲဖ	-13.8482
အာလဖ	-13.8485
ဇောဖ	-13.8491
မျော	-13.8504
အဝါ	-13.8507
ကြီးပေ	-13.8509
နေတောဖ	-13.8529
ေဇိ	-13.8532
ပါးစပ	-13.8533
သားပါလ	-13.8539
ရိလူ	-13.8554
ဆီးလို	-13.8558
သုံးလုံး	-13.8564
ေနိန	-13.8576
အခြားမ	-13.858
ကိရှသား	-13.8593
သံမရှိ	-13.8594
ထိုဥပမာစကား	-13.862
ခရီးမသွား	-13.8623
အာရေ	-13.8642
ေကိုမခံ	-13.8651
သံဝါသပြု	-13.8653
ဆွ	-13.8654
အပြားနေ	-13.8669
းမပြုန	-13.8679
ေနန	-13.8683
အနီးမှာ	-13.8688
လုကိ	-13.8705
အကြံပေးန	-13.8724
မရွေးန	-13.8748
သူမျှမကြား	-13.8751
းသာရပြီ	-13.8758
သိုထားလ	-13.8811
ုကန	-13.8818
အကဲအမှူးပြု	-13.8818
းသာရွ	-13.8819
ဌမသားရဲ	-13.8821
ဣရွ	-13.8827
ပြောစရာရှိ	-13.8846
ဆုံးကာလ	-13.8847
အဖူးဖြ	-13.8854
နှာပြရ	-13.8855
ကြေမွ	-13.8882
မလှူ	-13.8883
းဆိုသောသူ	-13.8909
စာကိုဖ	-13.892
အာရွှေရုန	-13.8928
းသောရူပါရုံ	-13.893
မဖုံးန	-13.893
အသရေမရှိ	-13.8954
သဘောရှိသောသူ	-13.8956
ဇေရု	-13.8994
းနှီးသောစကား	-13.9008
အာနတ	-13.9025
ပွားများကြ	-13.9026
ှ	-13.9054
ေလိတ	-13.9106
ခြားနားလျ	-13.9111
ာသဲ	-13.9116
သွားလာရ	-13.9122
စရာရှိလျ	-13.9138
မှာရသ	-13.9146
ဘီးလေးခု	-13.9159
သတိပြုပါ	-13.9191
ှိ	-13.9242
ွေးနွေးပြောဆိုကြ	-13.9257
အိုးထဲ	-13.927
ရေးသားပြီး	-13.9278
မိအဆွေအမျိုး	-13.9291
ငါအရှ	-13.9296
စဲစေ	-13.9318
အသုံးမ	-13.9339
ကြံသွား	-13.9359
မှလွှဲသွား	-13.9365
ကြူးသော	-13.9373
ဆီးတားန	-13.9381
စုဝေးသောလူ	-13.9391
နောဧသား	-13.94
စုဝေးစေလ	-13.944
မုသာသုံး	-13.9454
နေရာမကျရ	-13.9494
ယုံလျ	-13.9545
မာဒ	-13.9551
ကာရှိသမျှ	-13.9558
သမီးသုံး	-13.9576
ယေရှိ	-13.9579
မိရှ	-13.9593
ဒေနာရိအပြား	-13.9612
လွှာ	-13.9627
မကြားရကြ	-13.964
ရောဖ	-13.9642
ဒဲသား	-13.9642
မဟောလ	-13.9661
သားမဘွား	-13.9665
ပြုသောပဌနာ	-13.9672
ယူကြပြီ	-13.9686
ုဿ	-13.969
အမှီပြုသောသူ	-13.9737
အာလမ	-13.9746
ကျေးဇူးကြ	-13.9771
သတိမပြု	-13.9772
ထိုအခါပေတရု	-13.9796
ဖုံ	-13.9799
စာကိုရေး	-13.9825
ဌ	-13.9869
ဆီကိုလ	-13.9879
ဣရှိ	-13.9916
မကြားမပြောဘဲ	-13.9917
ခဏထ	-13.9918
တုလူများ	-13.9923
ဂိဗေ	-13.9938
ဟာဂ	-13.9943
မပြုလို	-13.9948
တစုံတခုသောအရ	-13.996
ဥပမာစကား	-13.9966
နှမတာမာ	-13.9974
ပြုမိပါ	-13.9977
ရေမလိ	-13.9993
မိညာ	-13.9999
အားကြားပြောလေ	-14.0003
သားဟူမူ	-14.001
မချေး	-14.0011
ဒေနာရိ	-14.0021
မောတွေဝေ	-14.0032
အသီးများ	-14.0039
လုနီး	-14.0039
ဘာမျှ	-14.0045
ရာဇသရဖူ	-14.0046
ရှလုံ	-14.0046
ဆွဲသောသူ	-14.0052
တံပိုးသံ	-14.0053
စီးပါပြီ	-14.0058
သေစားသေစေ	-14.006
ခွေးစား	-14.0062
အလှူဒါန	-14.0063
ဟီ	-14.0068
မီးလှုံ	-14.0073
သားယွာဘ	-14.0074
ခွဲထားလေ	-14.0075
ပါးရိုး	-14.0075
နှီး	-14.0085
တစုံတပါးမျှ	-14.0088
ဩမရ	-14.0092
သူမျှမရှိ	-14.0101
ကြွလာပြီ	-14.0101
ပဌနာမပြု	-14.0111
ဒါဝိ	-14.0114
မိမိသိုးစု	-14.0114
ဝရဘုရားသ	-14.0117
အစီးအပွား	-14.0118
ခါနီး	-14.0118
မောရှေပေးသ	-14.0119
ဌနာပြု	-14.0119
ရှမေရ	-14.0121
ငွေပေးမ	-14.0129
အပြားပြားသော	-14.0136
ဗိဂဝဲ	-14.0136
သေဖရ	-14.0137
အစာမရှ	-14.0138
ဆီဘူးကို	-14.0138
အာဗြ	-14.0138
မိဿံ	-14.0139
နှီးနှော	-14.0139
ဇုအာသား	-14.0139
ပေါတိဖေရ	-14.0139
အထွေထွေ	-14.0139
ဇီယာ	-14.014
တွဲလွဲဆွဲ	-14.014
ဒေါနိကံအမျိုးသား	-14.014
နာဒုဆီမွှေး	-14.014
ပြာခံစရာအိုး	-14.014
မဟေတဗေလ	-14.014
မီးရှူး	-14.014
မေရှလေမိ	-14.014
ယေဒယေလ	-14.014
ရေမှိုတထွေးကို	-14.014
လောကဓံ	-14.014
လောကီတရားနု	-14.014
ဟောဒဝိ	-14.014
အခုအခံမရှိ	-14.014
အခြွေအရံ	-14.014
ဧလျောနဲ	-14.014
ကိရယဿေဖါ	-14.014
ဂါဗြေလ	-14.014
ဒိဒုမု	-14.014
ဒေမေတရိ	-14.014
နွားလားဥသဘ	-14.014
ယာဇညာ	-14.014
ယာဒွါ	-14.014
ချေးငှားရသော	-14.014
ဗိသုကာ	-14.014
ဗေရလဟဲရော	-14.014
မြေဩဇာ	-14.014
ယုလိ	-14.014
ရေဟဘိ	-14.014
ရှေရှဗာဇာ	-14.014
လေးလံသ	-14.014
သေချာသော	-14.014
ဟခိလတော	-14.014
းသပြတား	-14.014
ဒေနာရိတပြားစီ	-14.014
ပေသဟိ	-14.014
ဗေသရာဗ	-14.014
ဟာမအမျိုးနေရာ	-14.014
ဆာဒိဌိအယူကို	-14.014
မာဒမေန	-14.014
ဣသရိအမျိုး	-14.014
ဧလပါလ	-14.014
ဩမေဃ	-14.014
မချီဘဲနေ	-14.014
အပုံပုံ	-14.014
ဂါမလျေလ	-14.014
ဗာကဗုကိ	-14.014
ဟာရှုံအမျိုး	-14.014
ဂါအများရှိ	-14.014
ဗြောန	-14.014
အနာဂတံသ	-14.014
တာတနဲ	-14.014
ရှရေဇာ	-14.014
နာဟုံ	-14.014
မာလချေလ	-14.014
အားမပြရာ	-14.014
သံဝါသမပြု	-14.014
ရေမချိုး	-14.014
အမှုအရာအစအဆုံး	-14.014
ရှိလဟိ	-14.014
အဆီးအကာ	-14.014
လျေလအ	-14.014
တူးဆွ	-14.014
ထာဝဘုရား	-14.014
ဗိဂသ	-14.014
လုမျေလ	-14.014
လေးလောဃ	-14.014
ဣကေ	-14.014
တပါးပါးကိုရွေး	-14.014
ရုဖု	-14.014
ချွေးမတာမာ	-14.014
ဖါလု	-14.014
ဧဗနေဇာ	-14.014
အမြုံမ	-14.014
းတစီးကို	-14.014
နေမြဲအ	-14.014
စကားပြောကာမျှ	-14.014
အရိုးကျိုးသော	-14.014
အခစားသောသူ	-14.014
ဒေဗာ	-14.014
စိုးရေဟုံ	-14.014
မကူးမသွား	-14.014
အဘိုးမခံဘဲ	-14.014
ရှူသော	-14.014
ဣဝါ	-14.014
ဇေဖေါ	-14.014
ဟေလသဘာသာ	-14.014
သဘောမတူ	-14.0141
တပြားစီ	-14.0141
ရှမိရ	-14.0141
ယေဇနိ	-14.0141
ဇုသ	-14.0141
နာသနိ	-14.0141
ဖြူနီသော	-14.0141
ဗေဇဲ	-14.0141
နှာလေးခုစီ	-14.0141
ဇောဟာ	-14.0141
မခံဘဲမနေရ	-14.0141
ညီမသောဒုံ	-14.0141
အငြိုးမထား	-14.0141
အမျိုးသားကိုးရာ	-14.0141
အမိရှဒ	-14.0142
ံဖု	-14.0142
ဌိ	-14.0142
သွားကိုချိုး	-14.0142
အနီးအဝေး	-14.0142
ရောဂေလ	-14.0142
ယိဖ	-14.0142
အမှုကြီးအလုံးစုံ	-14.0143
ဇောဖဲ	-14.0143
ဟေဖာ	-14.0143
ဗိဂဝဲအမျိုးသား	-14.0143
အာရံသားကား	-14.0143
မကွာမှီ	-14.0143
မြေညီသော	-14.0143
ကုဋ	-14.0143
အသုံးလို	-14.0143
ဂဒေရ	-14.0143
မခံသေးသော	-14.0143
ပခုံးကြားမှာ	-14.0143
အနာတိုးပွါး	-14.0143
ခဏခဏ	-14.0144
တိကဝ	-14.0144
ဟုရှသိ	-14.0144
ဂေဒရ	-14.0144
အာသရေလ	-14.0144
တမျိုးတမျိုး	-14.0144
နောအာ	-14.0144
မယားကိုမယုံ	-14.0144
းမလွဲ	-14.0144
အမွေခံသောမြေ	-14.0144
ပေလတိ	-14.0144
ပိရသ	-14.0144
နောဗာ	-14.0145
သကေနေပွဲခံ	-14.0145
အစာကျွေး	-14.0145
ထိုမြေခွ	-14.0145
ဟေရှာယဟောဘူးသ	-14.0145
ကြားပြောကြပါဟု	-14.0145
သမီးမိခါလ	-14.0145
ဒသမသူ	-14.0145
နှလုံးအရေဖျား	-14.0146
ရေစုဝေးရာ	-14.0146
ဒေကာ	-14.0146
ဗေရောသ	-14.0146
ရေပုံး	-14.0146
ကုလားကာများ	-14.0146
မချိုးရ	-14.0146
အာရှုရ	-14.0146
လဲလုသော	-14.0146
မေရှိလမ	-14.0147
မရေရသော	-14.0147
တရာကွာ	-14.0147
ရွှေမီးခုံ	-14.0147
အမှုအခ	-14.0147
သေဆဲရှိ	-14.0148
ရှေမသားကား	-14.0148
ရွှေငွေကြေးဝါ	-14.0148
အိုဂေါဂ	-14.0148
ဧသရ	-14.0148
အသရေတမျိုး	-14.0148
ဥဿ	-14.0148
ပျိုသောနွားထီး	-14.0148
ဆံဘူးသော	-14.0149
းဆီးယူသွား	-14.015
ထရံနားမှာ	-14.015
ဆီအိုး	-14.015
သိဖိ	-14.015
ပြောသောစကားသံကို	-14.015
အဒုလံအမျိုးသား	-14.0151
အကျိုးကိုမရ	-14.0151
အနီးဆုံးသော	-14.0151
းပြစွာ	-14.0152
ဣဇဟာအမျိုး	-14.0152
ဝစွာစားပြီးမှ	-14.0152
ဖြူခွ	-14.0152
ဘူးသေး	-14.0152
ီးအမ	-14.0152
သတိမရ	-14.0153
မေရာရိသားကား	-14.0153
ပေကတိ	-14.0153
အမွေခံရသောမြေ	-14.0153
မပေးရကြ	-14.0153
အဘတေရ	-14.0154
စိကိ	-14.0154
တခုတခု	-14.0154
ဇိလ	-14.0155
ဖျားနာစွဲ	-14.0155
အထွေးကို	-14.0155
ဂေဗလ	-14.0156
အာရွှေရုထံ	-14.0156
ခုံတခု	-14.0156
ဓေလ	-14.0156
လုကာ	-14.0157
ရေပေးပါဟု	-14.0157
သားဇေဗဒိ	-14.0158
ယခုတခါ	-14.0159
နဲသောစကား	-14.0159
အရာတခုကို	-14.0159
ဟောရနိလူ	-14.0159
အာဘိအမ	-14.016
းကိုးရာငါး	-14.016
ဆွဲကာရ	-14.016
ရှိပါစေသ	-14.016
လေပြီးသောကာလ	-14.016
ဣရှမေလအမျိုး	-14.0161
နှာကိုလွှဲ	-14.0161
ရှမွေ	-14.0162
ရှာလုံ	-14.0162
ကောရိန	-14.0163
ကောနနိ	-14.0163
မာခိရအမျိုးသား	-14.0163
ထိုသူကိုဆိုလိုသ	-14.0164
ကျေလ	-14.0165
သားအဟိကံ	-14.0165
ဣသမာအမျိုး	-14.0165
သားယဟောရှ	-14.0165
အရာများဖြ	-14.0166
းပြားသော	-14.0167
ပညာအမျိုးမျိုး	-14.0167
ယောသံသား	-14.0167
သံပူ	-14.0168
ပေဒါဇုရသား	-14.0168
ထိုရတနာ	-14.0169
သာသနာပြု	-14.0169
းတံခါးဝကာ	-14.017
ဇိဟ	-14.0171
သားရဲဘေး	-14.0171
ဇိခရိသား	-14.0171
နိကောလ	-14.0173
ဆီဥကိုယူ	-14.0173
ထိုအမှုအရာများ	-14.0175
သူခိုးလာ	-14.0175
မွေးစက	-14.0176
ပျိုးကြဲ	-14.0177
ဆုံးသောညီ	-14.0178
သီးသောအသီး	-14.0179
အားကြီးသောသူရဲ	-14.0179
စွာသွားကြလော	-14.0179
မကြေ	-14.0179
မပြောမှီ	-14.018
အမွေမခံရကြ	-14.0181
ပျိုးရသော	-14.0183
မယူရာ	-14.0184
အဘယောန	-14.0184
စာကိုလုယူ	-14.0185
မြဲမြံပါ	-14.0185
မြွေဟော	-14.0185
ဣရှမေလအမျိုးသား	-14.0185
သားဩဗ	-14.0186
သားထွေး	-14.0186
ရောအခါ	-14.0186
းသာမပေး	-14.0187
သူဆိုရာ	-14.0187
ုဖံ	-14.0187
မွေးစရာ	-14.0187
ဒုတိယသားကား	-14.0188
ပုံဥပမာ	-14.0188
သားတိမောသေ	-14.0189
ိညာ	-14.0189
နံရိုး	-14.019
ဇိဝ	-14.019
းကိုတူးကြ	-14.0191
ရှောလုအဆွေအမျိုး	-14.0191
ထိုပါရမီ	-14.0192
ပြုစရှိ	-14.0192
ဟေဇရုံသား	-14.0192
သူရဲလေးသ	-14.0193
ပွားများစေ	-14.0193
ဆဌမလ	-14.0193
ကြေကွဲသော	-14.0193
ဧဒုံလူတ	-14.0195
ပြိုကျ	-14.0195
မိမိပခုံး	-14.0198
ာခလိ	-14.0199
ဧလျာဘသား	-14.0199
သားဧလျာဘ	-14.0199
ဣသရေလအနွ	-14.0199
စာထိုး	-14.0199
မဆွဲမ	-14.02
ထိုအစေအပါး	-14.0201
ရှာလမန	-14.0204
မမြဲသော	-14.0204
စွာနေရကြ	-14.0204
မြေအနားမှာ	-14.0204
မပျိုးသော	-14.0204
သူပြောသောစကား	-14.0205
ဖာလေ	-14.0205
ငါမကျွေး	-14.0205
တိုးတိုးပြော	-14.0205
ခံယူရကြ	-14.0207
အားကြီးကြပါ	-14.0207
အဆတရာသော	-14.0211
မနှိုး	-14.0212
ခါလဒဲအမျိုးသား	-14.0213
ဥရေလ	-14.0214
ရှုလမိ	-14.0216
သေကြပြီဟု	-14.0216
ဣသရေလအဆွေအမျိုး	-14.0218
မခံဘဲနေကြ	-14.022
ဗာရခိ	-14.022
ဝေးပါ	-14.0223
တစုံတပါး	-14.0223
ချိုသောအသီး	-14.0225
မထားသောအမျိုး	-14.0226
ဆေးပြီးမှ	-14.0226
ဂေရရှုံအမျိုး	-14.0227
ခြုံလေ	-14.0229
ထိုသူဌေး	-14.0232
ဤလူဆိုး	-14.0232
ခြားနားစေသော	-14.0232
မခံမယူရ	-14.0232
လူထဲကထ	-14.0233
တာဟန	-14.0233
ကရုဏာအကျ	-14.0236
သားယေရှဲ	-14.0237
ဒေမ	-14.0237
လုဒိအ	-14.0237
ငါဟောသော	-14.0246
ဍာစိုးအရာ	-14.0251
ကြုံရကြ	-14.0252
ရှေမိရ	-14.0253
အာဗြဟံမှစ	-14.0253
စိုးစံရကြ	-14.0254
ခံသောသူများ	-14.0254
လုံးစီ	-14.0256
ဂေါဘ	-14.026
ထိုလဆ	-14.026
းမအများ	-14.0265
ညှိညွ	-14.0267
အဆိုးအ	-14.0268
ဂါးတ	-14.027
တူးလေ	-14.027
ရေညှိ	-14.0271
နေစရာမရှိ	-14.0271
သာနိ	-14.0271
ယာများ	-14.0272
နာဗာ	-14.0273
းမှီထ	-14.0274
တကားဟုဆို	-14.0276
ပညာကိုရသော	-14.028
အလိုလေး	-14.0281
မီးထဲမှာ	-14.0281
မီးအရ	-14.0281
ေးစေ	-14.0282
လူပေးသော	-14.0282
ဗေလသား	-14.0283
အစာအမျိုးမျိုး	-14.0287
းတကြီး	-14.0287
ဖြေပါ	-14.0292
ဧဒုံအမျိုး	-14.0294
ဦးစွာသွား	-14.0296
နာစွဲ	-14.0296
ဂမ	-14.0297
သံမီးဖို	-14.0299
ခွဲသောအ	-14.0306
စကားမပြောဘဲနေ	-14.0309
နားရှိလျ	-14.0312
ကိုးစားစရာ	-14.0313
သာမရ	-14.0314
ပဌာနာ	-14.0315
ူဂိ	-14.032
းအသရေကိုရှာ	-14.0322
ဆဲဆဲ	-14.0322
ယောယဒသားဗေနာ	-14.0325
ကြီးပွါးစေ	-14.0327
ဘာသာတရား	-14.0331
မခွါ	-14.0333
လူအနွ	-14.034
းမိုးသောရေ	-14.0341
ခဏအိ	-14.0344
တသံတ	-14.0345
မုသာကိုသုံး	-14.0359
အဝေးကလာ	-14.0361
ဂါဗ	-14.0365
ဩဇေလတ	-14.0368
စုံကြပါ	-14.0373
ဇေဖ	-14.0375
အမြဲစွဲ	-14.0379
လေလသား	-14.0384
မာရိအမ	-14.0399
ကြားသမျှသော	-14.0403
ပုံထု	-14.0406
ဆားခ	-14.0407
မကြားမပြောဘဲနေ	-14.0413
ရောသောမီး	-14.0421
မထူးကြ	-14.0429
မယူဘဲနေ	-14.0429
နုသေ	-14.0436
ချိုသီး	-14.0437
ဆွဲကာ	-14.0442
ပညာရှိသောသား	-14.0443
ညူးသောအမှု	-14.0445
သူနေသန	-14.0455
ဘောသူကြီး	-14.0455
ဣရှိသား	-14.0457
သားယောရှိ	-14.0467
အာနမ	-14.048
ဖြာကွဲ	-14.0481
ကရုဏာကျေးဇူးပြု	-14.0491
ယေဇရ	-14.0494
ပေတရုအမ	-14.0498
အားမနာဘဲ	-14.0507
သမီးရာခေလ	-14.0512
ခံရသောဝေဒနာ	-14.0518
မမွေးသောသူ	-14.052
မဝါကြွားကြ	-14.0522
ကျိုးလေပြီ	-14.0524
ခိသား	-14.0524
နေတောဖာသိ	-14.0536
အာဒြမ	-14.0538
သိုမှီး	-14.0539
ဤအနာမှ	-14.0541
ခဇိ	-14.0542
တောသားရဲများ	-14.055
ဗေရိယသား	-14.0575
ပြုသမျှသောအမှု	-14.0586
စပါးကိုမရိ	-14.0588
စားသောအမှု	-14.0591
ယာဖလ	-14.0596
ဧဒုံအမ	-14.0597
အမှုပြီး	-14.0597
ပျံလာ	-14.0598
သံရထား	-14.0607
ဒါဗရ	-14.0614
သွားမြဲ	-14.0618
ဆဲသောစကား	-14.0619
ယေဟုသား	-14.0621
သိုးနွားမှ	-14.0622
မဆရာအရာ	-14.063
ယခုငါထ	-14.0636
ဗျာ	-14.0651
ချွေးမများ	-14.0656
အသီးကိုစား	-14.0672
ခံဘူးသ	-14.0688
မယုံဘဲနေ	-14.069
ပြိုလဲလ	-14.0691
ဗေရှ	-14.0695
နွားသုံး	-14.0703
စွာနေကြပါစေ	-14.0705
ပျိုးသောသူ	-14.0705
စပါးသီး	-14.0708
တိမဲ	-14.0713
စီးလေပြီ	-14.0714
ဆဲမရှိ	-14.0725
မိမိသားဦး	-14.0731
းမတဦး	-14.0732
ထိုမယား	-14.0739
တရားစကားဟူမူကာ	-14.0754
မှူးမှစ	-14.0755
ဇေဗိ	-14.0779
မမူဟုဆို	-14.0784
ကြီးအလ	-14.0787
အစာစားသောသူ	-14.0798
ီးဘဲ	-14.0809
ချီကြွလ	-14.0815
များပြားပါစေသော	-14.0818
အစာကိုစားရ	-14.082
ကြိုးတပ	-14.0825
ပြုမူသမျှ	-14.0831
လေဗော	-14.0834
မသဲ	-14.0836
သိုးခြံထဲ	-14.0841
စဖူးပါ	-14.0842
စားစရာတစုံတခု	-14.0842
ခါလ	-14.0847
ကောရသိ	-14.0853
စာကိုစားကြ	-14.0856
ဝေပေးရ	-14.0862
ဆုံးရှုံးရသော	-14.0866
စာအန	-14.087
အရာတစုံတခုကို	-14.0872
ာဟိ	-14.0873
အမြဲရှိစေ	-14.088
မြေအိုးထဲ	-14.0881
တွဲရ	-14.0881
ပြောထားပြီ	-14.089
နေရာမကျ	-14.0893
းမခံရသ	-14.0893
သားအဟိ	-14.09
ဟေဗြဲအမျိုးသား	-14.0904
မစုမသ	-14.0917
မိမိမသိ	-14.0919
သားအာဗြံ	-14.093
စေလိုသောငှ	-14.0938
ဧလိရှာ	-14.095
းလွဲစေကြ	-14.0974
ဂလာစကား	-14.0976
ောလဟော	-14.0979
တဝါးရှိ	-14.0983
းအသွ	-14.1005
ဂါသမ	-14.1011
မိဖုရားအရာကို	-14.1022
လုံးပွဲခံ	-14.1028
မှာဦးချ	-14.1032
သိုးခြံများ	-14.1039
အာမဇိသား	-14.1039
များစွာသောရွှေ	-14.1049
မှုကား	-14.1072
ရေအနားမှာ	-14.1085
အသေခံရာ	-14.1122
မဟာလိသား	-14.1129
စွာနေပါ	-14.1131
မစဲ	-14.1133
မကွာဘဲ	-14.1134
အမွေပေးရ	-14.1147
ေဖာ	-14.1148
ပါဦးဟု	-14.1154
းမတူသော	-14.1182
ာဟာယ	-14.1194
ရှိနေစေ	-14.121
မျှမရှိပါ	-14.1229
အကြံပေးပါ	-14.124
ဒွါဒသမလတ	-14.1246
ျ	-14.3155
။	-14.3592
ဦ	-14.4644
ဪ	-14.514
ဈ	-15.5138
ဠ	-15.5139
?	-16.7367
၌	-16.7368
၍	-16.7369
့	-16.737
်	-16.7371
