<pad>	0
</s>	0
<unk>	0
¦	-1.29973
▁¦	-1.49337
▁,	-3.49985
▁	-3.70156
𐊣	-4.078
𐊼	-4.078
ꭲ	-4.13638
ꭰꮄ	-4.18462
▁.	-4.22246
ꮎꮝꭹ	-4.43237
ꮓ	-4.58564
▁;	-4.61696
ꭹ	-4.80664
ꭿꭰ	-5.1188
ꭸꮢ	-5.19375
ᏹ	-5.25238
ꭿ	-5.39791
ꮧ	-5.5109
ꭽ	-5.55132
ꭵꮭ	-5.71005
ꭸꮢꭲ	-5.72509
ꮎ	-5.73518
ᏸꮓ	-5.74681
ꭴꮑꮃꮕꭿ	-5.8832
ꮫ	-5.98097
ꭰ	-6.02833
ꭶ	-6.09467
ꭴ	-6.15559
ꮵ	-6.19973
ꮙ	-6.21005
▁?	-6.22943
ꭸꮞꮝꮧ	-6.23716
ꭰꮞ	-6.33034
ꮵꮜ	-6.35497
ᏼꮻ	-6.36848
ꮎꮝꮙ	-6.37305
ꭹꮆ	-6.37792
ꭰᏼ	-6.41335
ꮎꮝꭹꮿ	-6.41658
ꮏꮙ	-6.44706
ꮒ	-6.47851
-	-6.49229
ꮒꭿ	-6.50516
ꮝꭹꮒ	-6.51085
ꮵꭹ	-6.51163
ꮒꭸꮢꮎ	-6.52236
ꭴꭼꮻᏻꭿ	-6.52829
ꮣ	-6.5382
ꮧᏹ	-6.54499
ꭲᏻꮝꮧ	-6.56009
ᏻ	-6.60538
ꮝꮧ	-6.65538
ꮎꮏ	-6.67734
ꭶꮆꮑꮫ	-6.71342
ᏹꭹ	-6.76515
ꭺꮁꮝꮧ	-6.82633
ꮷ	-6.8628
ꮿ	-6.86842
ꮒꭶꮫ	-6.86957
ꮳ	-6.90333
ꮕ	-6.90648
ꭳꮝꮫ	-6.92322
ꮟ	-6.94667
ꭲᏻꮓ	-6.981
ꭲꭶ	-7.00397
ꮅ	-7.02079
ꭲᏻ	-7.04657
ꭶꮩ	-7.06902
ꮎꮝꭹꮓ	-7.07716
ꮻ	-7.09845
ꮮꮝꮧ	-7.10494
ꭾꮝꮧ	-7.10574
ꭴꮺꮵ	-7.1218
ꭸ	-7.1246
ꭱꮆꭿ	-7.12889
ꭴꮒ	-7.13313
ꮝꭹ	-7.14172
ꭼ	-7.14315
ꭰꮒ	-7.1758
ꭴᏺ	-7.23784
ꮥ	-7.24526
ꭴꮳꮨ	-7.24871
ꮒꭶꭵ	-7.27278
ꭸꮝꮧ	-7.27635
ꮔꮝꮫ	-7.32844
ꭼꮒꭸꮢ	-7.34145
ꭷꮓꭾꮫ	-7.34787
ꮈ	-7.35017
ꮞ	-7.35605
ꭴꮹꮢ	-7.36364
ꭶꮈꮙꮧᏻ	-7.36471
ꮝꭺ	-7.36943
ꮪ	-7.37736
ꭰꮣꮕꮩ	-7.38015
ꭼꮹ	-7.38839
ꭸꮞ	-7.40066
ꭶꮈꮃꮧ	-7.40877
ꮔꮺꮞ	-7.41029
ꭿꭰꮓ	-7.42629
ꮧꭷꮏꮹꮫꮝꮧ	-7.42678
ꭳꮟᏻ	-7.42684
ꭰꮵꮈ	-7.43714
ꭺꭿ	-7.44053
ꭲᏼꮫ	-7.44214
ꮈꭿ	-7.445
ꭱ	-7.47524
ꮎꭿᏻ	-7.4829
ꭴꮯ	-7.49742
ꭺ	-7.49746
ꭱꭿ	-7.49811
ꭲᏻꮅꮝꮩꮧ	-7.51236
ꭰꮝꭶꮿ	-7.51318
ꮝꭸꮝꮧ	-7.53831
ꮤꮕꭿ	-7.54101
ꮢ	-7.55086
ꮑ	-7.55627
ꮕꭹ	-7.5675
ᏼ	-7.5684
ꭴꮴꮅꭶ	-7.57943
ꮨ	-7.58322
ꮈꭹ	-7.5936
ꭲꮵ	-7.5956
ꮔ	-7.60242
ᏸꮅ	-7.61066
ꭴꮴꮅ	-7.63363
ꭼꮒᏻꮙ	-7.637
ꮎꮒꭵ	-7.65275
ꮔꮺꮢ	-7.68092
ꮄ	-7.68677
ꮵꮜꮓ	-7.70244
ꮪᏻꭺꮫ	-7.7198
ꭾ	-7.72895
ꮜꮙ	-7.73163
ꮴ	-7.73234
ꮝꮧᏹ	-7.74771
[	-7.749
ᏺ	-7.75465
ꮤ	-7.75691
ꭴꮒꮳꮨ	-7.77409
ꮂ	-7.78459
ꮩ	-7.79027
ꮕꭿ	-7.80465
ꮄꭲ	-7.80889
ꭰꮑꭿ	-7.81623
ꮔꮺꮞꮄ	-7.82285
ꮒꮪꮺꮞꮄ	-7.8283
ꮤꮅꮑ	-7.84321
ꮩꮧᏹ	-7.84385
ꮙꮃ	-7.84953
ꭰꮒꮷꮟ	-7.85315
ꮷꮣꮄꮕꮫ	-7.86996
ꭼꮹꮝꮣꮹꮧꮩꭿ	-7.87532
ꭺꭲ	-7.88718
ꭴꭼꮹꮅ	-7.90357
ꭵ	-7.92877
ꮢꭹ	-7.92922
ꮘꮣ	-7.94814
ꮹ	-7.97708
ꭳ	-7.99397
ꮳꮒ	-7.99934
ꮸ	-8.03595
ꮕꮧꭶꮅꮝꮩꮧꭽ	-8.03974
ꭴꮩꭿᏻꭿꮿ	-8.03989
ꭰꭹ	-8.05877
ꭶꭺ	-8.06553
ꮭꮝꭺ	-8.06566
ꮑꭲ	-8.06792
ꭺꭿᏻꮧ	-8.0763
ꮀ	-8.07772
ꮧꭶꮃꮻꭲꮝꮧᏹ	-8.07958
ꮒꮪꮺꮞꮈ	-8.08336
ꭲꮷꮃꭽ	-8.08753
ꮂꭲ	-8.09727
ꮵꮇꮟꮅꮋ	-8.10747
ꭲꭼᏹ	-8.11003
ꮒꭺꭿꮈ	-8.1104
ꮪꮒ	-8.11184
ꮧꭽ	-8.13033
ꭰꮉ	-8.13133
ꮩꮧ	-8.13717
ꭶꮪ	-8.13724
ꭼꮒꮫ	-8.13866
ꭼꮒ	-8.14231
ꭰꮟ	-8.14741
ꮳꭼꮻᏻꭿ	-8.15085
▁]	-8.15088
ꮶ	-8.15699
ꭶꮪꮂ	-8.15735
ꭴꮑꮸ	-8.16099
ꭰꭸᏼ	-8.16603
ꭴꮎ	-8.16788
ꮕꮹꮣꮄ	-8.18074
ꭼꮧ	-8.1841
ꭰᏸꮅ	-8.19499
ꭲꭶꮫ	-8.2011
ꭲꮿꮒ	-8.20143
ꮤꮅ	-8.202
ꮔꮅꮝꮤꮕ	-8.20441
ꭰꮖ	-8.21122
ꭱꮝꭶ	-8.21841
ꮔꮺꮞꮈ	-8.23107
ꭰꮥꮈ	-8.23537
ꭴꮣꮩꮅꮝꮧ	-8.23559
ꭴꮕꮢ	-8.23595
ꮼ	-8.23808
ꮒꭶꮧᏻ	-8.24352
ꮵꭺ	-8.248
ꭳꭹ	-8.25239
ꮷꮺꮵ	-8.26023
ꮷꮎꮣꮄꮕꮫ	-8.26819
ꮷꮒ	-8.28239
ꮎꭵ	-8.2861
ꮝꭶ	-8.29029
ꮀꭲ	-8.29415
ꭼꭲ	-8.297
ꭲꮸ	-8.29863
ꮝꭼꭲ	-8.30118
ꮷꮎ	-8.30582
ꭼꭹ	-8.3372
ꮆ	-8.34506
ꮒꮸꮺꮞ	-8.3557
ᏹꭸꮞ	-8.37204
ꮝꮫ	-8.3721
ꭲᏻꮹꮒꮜ	-8.37344
ꮲ	-8.37352
ꭰꮑꮂ	-8.37481
ꭲꮳ	-8.3766
ꭻ	-8.38103
ꭼꮹꭶꮨꮿ	-8.3918
ꭴꮝꮧ	-8.3976
ꭴꮩꭿᏻꭿ	-8.40102
ꭹꮃꮙ	-8.40182
ꮽ	-8.41667
ꮭ	-8.41809
ꭿꮝꮧᏹ	-8.41857
ꭰꮟꮙ	-8.42285
ꮓꮕ	-8.42415
ꮖ	-8.42558
ꭲꮴ	-8.42742
ꮷꮎꮑꮆꮧ	-8.42994
ꭰꮟᏼꮻ	-8.42999
ꭷ	-8.43364
ꮵꭶꮤꭽ	-8.4419
ꮷꮴꮅ	-8.44974
ꮙꮝꭹꮒ	-8.45376
ꮢꭿ	-8.45737
ᏸ	-8.46057
ꮷꮩ	-8.46063
ꭲꭶꭲ	-8.46094
ꮃ	-8.46117
ꮔꭼꮻᏻꮢ	-8.46969
ꮧꭷꮏꮹꮧꮩꭿ	-8.46969
ꮜ	-8.47087
ꮧꮝꭸꮝꮧ	-8.47364
ꮧꮒ	-8.47487
ꮔꮒꮺꮞ	-8.47619
ꮔꮒꮺꮢ	-8.4799
ꭱꮵ	-8.48856
ꭴꮇꮸ	-8.49105
ꭰᏸꮈ	-8.49295
ꮧꭶꮈꮻꮝꮣꮑꮧ	-8.50063
ꮤꮕ	-8.50869
ꭲꮣꮅꮕꮯ	-8.51192
ꭰꮣ	-8.51707
ꭰꮻ	-8.52245
ꮂꭹ	-8.53098
ꮕꮿ	-8.5338
ꭹꮆꮓ	-8.53457
ꮠ	-8.53464
ꭴꮗꮣꮅ	-8.54506
ꭴꮅꮒꭹꮫ	-8.55368
ꭲꭶꮴꮅ	-8.55454
ꮶꭲ	-8.56095
ꭳꮒ	-8.56454
ꭲꮫ	-8.56773
ꭴꮣ	-8.57596
ꮑꮧᏹ	-8.58202
ꭴꮪꭹ	-8.58373
ꭲꭹ	-8.5874
ꮔꮅꮝꮤꮑ	-8.59483
ꭴꮺ	-8.59782
ꮩꮣ	-8.59809
ꭴꮥꮅꮫ	-8.5996
ꮕꮹꮩꭿꮿꮫ	-8.59963
ꮷꭼꮹꮆꮧ	-8.59973
ꭱꮩꮣ	-8.60017
ꭲꮧꮲ	-8.60219
ꭺꮺꮅ	-8.60709
ꭸꭲ	-8.61263
ꭰꮒꮝꭶꮿ	-8.62345
ꭰꮑꮆ	-8.62687
ꮞꮝꮧ	-8.63198
ꮠꭲ	-8.63641
ᏸꮅꮙ	-8.64025
ꮯ	-8.64194
ꭴꮑꮃꭹ	-8.64794
ꭰꮎꮩꮄꮀꮝꭹ	-8.65914
ꮪꮩꭵ	-8.65953
ꭴꮎꮣꮕꮨ	-8.65992
ꮣꮒ	-8.66033
ꭲꭼᏹᏹ	-8.6683
ꭶꮅꮙꭹ	-8.68217
ꮤꮃꮪ	-8.68414
ꮕꮣᏻꮣꮄꮕ	-8.68914
ꭲꮈꭿᏻ	-8.69673
ꮕꮧꭶꮅꮝꮩꮧꮝꭸ	-8.69753
ꮧꭶ	-8.70172
ꮒꭼ	-8.70219
ꮝꮣ	-8.70361
ꮩꭿ	-8.70758
ꭺꮺꮃ	-8.70804
ꮔꮝꮧ	-8.71126
ꮺ	-8.71286
ꭰꮒꮤꮅ	-8.72375
ꮵꭸꮞ	-8.72732
ꭶꮣꭽ	-8.73327
ꭱꮖꭽꮋ	-8.73561
ꮜꮹꮒ	-8.73564
ꭱꮃꮧ	-8.7365
ꭸꮠꭲ	-8.73667
ᏹꮀꮹ	-8.73845
ꭶꮨ	-8.73933
ꭲꮟꮅ	-8.74521
ꮔꮒꭼꮻᏻꮢ	-8.74896
ꮕꮣ	-8.75002
ꮤꮑ	-8.75341
ꮡ	-8.76111
ꭸꮅꮅ	-8.76261
ꭰꮝꭶꮒ	-8.7629
ꭰꭶꮤꮂ	-8.76535
ꭴꮝꮖꮒꭺꮧ	-8.77562
ꮸꭿ	-8.77593
ꮌꮟ	-8.77633
ꮂꭶ	-8.77748
ꭴꮎꮴꮅꭶ	-8.77857
ꮤꮕꭹ	-8.7844
ꮥꮝꮧ	-8.78648
ꭰꮒꮖꮅꮟ	-8.79019
ꭴꮎꮣꮱꭼ	-8.79041
ꭸꮆꭿ	-8.79048
ꮇ	-8.79223
ꮧꮝꭹ	-8.79321
ꮥꮵ	-8.79456
ꮧꮒꭷꮏꮹꮧꮩꭿ	-8.80412
ꭰꮩꮄꮀꮝꭹ	-8.80425
ꭰꮵ	-8.81173
ꭴꮕ	-8.81824
ꭶꮩꭿ	-8.82061
ꮵꭸꮠ	-8.82727
ꮒꭼꮕ	-8.83588
ꮫꮎ	-8.83698
ꭰꮞꮙ	-8.83762
ꭶꮑꮈ	-8.84693
ꭰᏺꮁꭿꮝꮧ	-8.84761
ꭴꭺꮂ	-8.85401
ꭿᏻ	-8.85409
ꮑꮈꭿ	-8.85879
ꭶꮅ	-8.85959
ꮥᏺꮂꮝꭹ	-8.86132
ꭱꮳ	-8.86227
ꭰꮣꮑꮈ	-8.8652
ꭹꭼ	-8.86907
ꭵꭹ	-8.87102
ꭷꮑꭼ	-8.87593
ꭰꭶᏼꮅꭸ	-8.87718
ꭲꮸꮢ	-8.87761
ꮵꭸꮢ	-8.88154
ꮂꮎ	-8.88234
ꮢꮎ	-8.88786
ꭴᏺꮁꮢ	-8.88883
ꮊꮅ	-8.89297
"	-8.89372
ꮪꮎ	-8.89378
ꭸꮳ	-8.90401
ꭴꮫꮕ	-8.90615
ꭲᏻꮝꭹꮒ	-8.9075
ꭲꮿꭶᏼꮅ	-8.9087
ꮥꮻ	-8.91324
ꭺꮺꮈ	-8.9162
ꭰꮝꭹꮎ	-8.92464
ꮕꮟꮣꮝꮧ	-8.92676
ꮨꮒꮩ	-8.92878
ꮕꮫ	-8.93628
ꮑꭽ	-8.93705
ꭶᏻꮃ	-8.9407
ꭰꮣꭸᏻꮧ	-8.94094
ꮈꭲ	-8.9441
ꭴꮵ	-8.94584
ꮝꭼ	-8.94666
ꮒꭼꮎꮫ	-8.95711
ꭲᏻꮎꮝꮧ	-8.95712
ꭴꮅꮒꭹꮧᏻ	-8.95742
ꮧꮵ	-8.96037
ꭴꮩꮣ	-8.96046
ꮥꮳ	-8.96095
ꮑꮃꮕꭿ	-8.964
ꭲꮴꮂ	-8.96441
ꮧꮳ	-8.96975
ꭰꮝꮣꮿ	-8.97407
ꭰꭶᏼꮅꭸꭲ	-8.97471
ꭲꮎꭸ	-8.97541
ꮥꭶ	-8.97576
ꭰꮎꮅꮕꮯ	-8.99072
ꭰꮖꮴꮅ	-8.99078
ꭶꮆꭿꮝꮧᏹ	-8.99213
ꮝꮩꮧ	-8.99382
ꮦ	-9.0065
ꭰꮒꮝꭹꮎ	-9.00797
ꭴꮰᏹ	-9.00844
ꮸꮢ	-9.01218
ꭼꮧꮝꭼ	-9.01772
ꮘ	-9.0247
ꭸꮵꮕꮟꮫ	-9.02565
ꮒꮵꭵ	-9.02578
ꭼꮎ	-9.03181
ꭴꮑ	-9.03191
ᏹꭶ	-9.03215
ꮤꮒ	-9.03903
ꭰꮓꭿᏻꮂꮝꭹ	-9.04387
ꮖꮄꮧ	-9.04492
ꭹꭶꭸ	-9.05023
ꮒꭶꮺꮝꭼ	-9.05219
ꮧꮣ	-9.05234
ꮹꮫ	-9.05371
ꮧꮎ	-9.06117
ꮕꮹꮎꮣꮄ	-9.06153
ꮷꮒᏺꮁꮢꭿ	-9.06153
ꭸꮵ	-9.06288
ꮎꮝꭹꮝꭹꮒ	-9.06861
ꮔꮼ	-9.07001
ꮥꭿ	-9.07167
ꭶᏸꭺꭹ	-9.08032
ꭰꮒꭸᏼ	-9.08036
ꮑꮈ	-9.08818
ꭰꮵꮈꮙꮧ	-9.09643
ꭰꭹꮎ	-9.09834
ꮧꮓꮺꮅꮝꭹ	-9.09892
ꭲꭼᏹꮧꮲ	-9.09901
ꮢꮓᏹ	-9.09917
ꮕꮩ	-9.1005
ꮒꭶ	-9.10248
ꭴꮎꮫꭶꮕ	-9.10473
ꭶꮈꮆꭲ	-9.10755
ꭱꮂ	-9.10766
ꮑꮅ	-9.10769
ꭰꭶ	-9.11431
ꮥꭹ	-9.11449
ꮔꮣꮄꮢ	-9.11823
ꭰꮒꭶꮤꮂ	-9.11844
ꮝꭼꮎ	-9.12252
ꭰꮫ	-9.12446
ꭶꮣ	-9.12827
ꮩꮅ	-9.13107
ꭿꮝꭹ	-9.13207
ꮝꭸ	-9.13252
ꮫꭹ	-9.13342
ꮣꮑꮧ	-9.13458
ꭴꮣꮕꮨ	-9.13785
ꮝꭶꮿ	-9.13854
ꭵꭵ	-9.13897
ꮝꮩꮧᏹ	-9.14117
ꭴꮴꮅꭺꭿ	-9.14273
ꭴꮑꮴ	-9.1473
ꭴꮎꮴꮅ	-9.15449
ꮵᏻ	-9.15514
ꭲꮿ	-9.1553
ꭰꮊꮙꭿ	-9.15776
ꭴꮎꮩꮣꮖꮝꭼ	-9.15776
ꭴꮣꮅꭲ	-9.1578
ꭱꮆꮫ	-9.15788
ꭴꮒꭼꮻᏻꭿ	-9.15816
ꮳꮑ	-9.16087
ꮶꭲꮑ	-9.16101
ꮂꮟ	-9.1625
ꭴᏺꭲᏻ	-9.16394
ꭳꭶ	-9.16953
ꮴꭲ	-9.17023
ꮑꭾꮝꮧ	-9.17179
ꮱꭼ	-9.17327
ꭱꮊ	-9.17823
ꭴᏸꮈꮫ	-9.17873
ꭰᏺꮅ	-9.17884
ꮯꮆꮫ	-9.17936
ꮈꭽ	-9.1806
ꮢꭲ	-9.18289
ꮰ	-9.18855
ꮝꭸꭲ	-9.19277
ꮵᏻꭿ	-9.19289
(	-9.199
ꮪꮎꮣꮕꮫ	-9.19942
ꮕꮧꭶꮅꮝꮩꮧꮝꭼ	-9.2005
ꮜꮧ	-9.20136
ꭴꮅ	-9.20861
ꮗ	-9.21368
ꮵꮪ	-9.21646
ꭴꮫꭶꮕ	-9.2206
ꭴꮠꮕ	-9.22162
ꭰꮧꮤꮝꮧ	-9.2239
ꮒꭶꮺ	-9.23239
ꮑꮄ	-9.23783
ꭲꮈꭿꮲ	-9.24204
ꮕꮣꭶꮅꮝꮩꮧꮝꭼ	-9.24214
ꭴꮒꮝꭶꮕꮸ	-9.24231
ꮝꮣꮹꮧꮩꭿ	-9.24257
ꭼꮹꮒ	-9.24728
ꭸꮠ	-9.24957
ꮕꮣꭼꮹꮣꮄꮕ	-9.25073
ꭰꮧ	-9.25494
ꮝ	-9.25639
ꮣꮕꮩ	-9.25789
ꮷꮧᏹ	-9.25811
ꭰꮎ	-9.2588
ꭶꮝꭹꮈ	-9.26354
ꮷꮒꮈꮻꮝꮣꮑꭿ	-9.2643
ꭼꮻᏻꮜꮥꭹ	-9.26522
ꭰꮒꮠꭲ	-9.26572
ꮧꭼꮹ	-9.26778
ꮧꭶꮕ	-9.27496
ꮒꮵ	-9.27553
ꭶꮈꮙꮧ	-9.28212
ꭲꮳꮅꮝꮣꮑꮧ	-9.28709
ꭴꮒᏺ	-9.29179
ꮝꭼꭹ	-9.29818
ꭲꭺꭿ	-9.29992
ꮕꮟꮫ	-9.30114
ꮣꮝꮧᏹ	-9.30907
ꭰꭶꮩꭵꭿꮝꮧ	-9.3106
ꮄꮝꮧ	-9.3111
ꭲꭼꮑ	-9.31404
ꮒꮳ	-9.31542
ꭱꭽ	-9.31575
ꭶᏸ	-9.31898
ꮣꮄꮕꮫ	-9.32207
ꮒꮧ	-9.3297
ꭰꮝꭺꭿꮷꮘ	-9.33405
ꮅꮝꮥꮈꮩꮧ	-9.33467
ꭰꮗꮵ	-9.33516
ꮋ	-9.33888
ꮎꮝꮙꮝꭹꮒ	-9.33907
ꭼꮕ	-9.34244
ꭶꮅꮝꮩꮣ	-9.34991
ꮒꮩ	-9.35167
ꮀꮹ	-9.35438
ꭴꮑꮃꮕꭿꮝꭹꮒ	-9.35772
ꭴꮅꮝꮖꮈꮧ	-9.35842
ꮘꮅꭹ	-9.36089
ꮎꮒꮺꮝꭸ	-9.36134
ꭹꮃ	-9.3623
ꮉ	-9.36258
ꭹꮆꮝꭹꮒ	-9.36346
ꮕꭿꮫ	-9.37049
ꮳꮴꮅꭶ	-9.37304
ᏹꮵ	-9.37396
ꮜꮙꮙ	-9.37557
ᏹꮧ	-9.37752
ꭴꮇꮴ	-9.37935
ꭴꮒꮇꮴ	-9.38163
ꭲꮷꮃ	-9.38236
ꮧꮣꮝꮪꮧᏹ	-9.38342
ꭲꮈꮝꭹ	-9.3836
ꮥꮳꮣꮕꮫ	-9.38372
ꭰꮒꮿꮻꮝꭹ	-9.38396
ꮔꮫꮑꮈ	-9.38498
ꮵꮋ	-9.38554
ꮒꭶꮅꮝꮧ	-9.38977
ꮵꮥ	-9.39318
ꮷꮣ	-9.39619
ꭶꮤꭽ	-9.39967
ꮻꮎꮝꮫꮎ	-9.40906
ꮧꮒᏺꮅ	-9.40912
ꮎꮭꭲ	-9.40978
ꮝꮪ	-9.41111
ꮆꭿ	-9.41675
ꭺꮲꮤꮕꭿ	-9.41792
ꮧꭻꭺꮩꮧ	-9.41868
ꮝꮖ	-9.41903
ꭰꮅꮝꮣᏼꮧ	-9.42157
ꭴꮇꭿꮝꮧ	-9.42214
ꮑꭿ	-9.42372
ꭾꮎ	-9.42523
ꮪꮈꮻꮝꮣꮑꮂ	-9.43204
ꭱꮝꮧ	-9.4337
ꮧꮝꭼ	-9.43392
ꮰꭸꮟ	-9.4354
ꮅꮟ	-9.43789
ꭴᏸꮈꮧ	-9.43905
ꮿꮒ	-9.44108
ꭲᏻꮎꮫꮑꮧ	-9.44177
ꭽꮲ	-9.44692
ꮩꮫ	-9.45505
ꮸꭹ	-9.45596
ꭱꮅ	-9.45876
▁."	-9.46126
ꮿꭹ	-9.46133
ꮦꮈꮃꮧ	-9.4624
ꭴꮓꮥꮎ	-9.46242
ꭴꮣꮕꮩ	-9.46544
ꮵꮩ	-9.46708
ꭴꮥꮑꮄ	-9.46738
ꮱ	-9.46855
ꮝꭹꮿ	-9.46911
ꮷꮟ	-9.47174
ꭰꮛꮢ	-9.48067
ꮝꮥ	-9.4851
ꮷꮒꮎꮻ	-9.49028
ꭴꮩꮄꮀꮢ	-9.49069
ꭽꮻꮒꮧꮲ	-9.49082
ꮪꮅ	-9.49118
ꭿꮝꮧ	-9.49119
ꮧꮎꮣꮕꮯ	-9.49217
ꮤꮄ	-9.49497
ꭲꮶꭿᏻꮢ	-9.49839
ꮝꮤꮕ	-9.50337
ꭴꮳꮨꮒ	-9.50486
ꭼꮓ	-9.50497
ꭶꮫꭶ	-9.51123
ꮑꮈꭹ	-9.5142
ꮝꮩ	-9.51446
ꭼꮩꮧ	-9.5145
ꭰꮴꮅꮝꮫ	-9.51875
ꮒꮪᏻꭺꮫꮎ	-9.51879
ꭴꮳꮤꮕꭿ	-9.51908
ꭴꮒꮇꮸ	-9.51915
ꭴꮝꭶꮕꮸ	-9.51977
ꮶꮹ	-9.52009
ꭴꮪꮅꮝꭼ	-9.52027
ꭲꮎꮫ	-9.52056
ꮎꮓ	-9.52222
ꮒꭶꮅꮝꮣ	-9.52244
ꭱꭾ	-9.52638
ꭴᏺꮁꮢꭿ	-9.52739
ꭷꮑ	-9.53733
ꭺꮹꮫꮧᏹ	-9.53901
ꭼꭶ	-9.53913
ꭴꮹ	-9.54385
ꭲꮸꭸᏻꭲ	-9.54816
ꭴꮒꮝꮖꮒꭺꮞ	-9.54816
ᏹꮣ	-9.54818
ꭰꮒꮝꭶꮎ	-9.54883
ᏸꮒ	-9.54974
ꮞꮣꮒ	-9.54975
ꮵꮒꭼꮕ	-9.55254
ꮝꮤꮒ	-9.5529
ꭴꮥ	-9.55792
ꭴꮎꮣ	-9.55816
ꭰꮂ	-9.56121
ꮽꮒ	-9.56393
ꭲᏻꮹꮑ	-9.56825
ꭰꮝꭶꮎ	-9.57164
ꭴꭶꮤ	-9.57315
ꮣꮎ	-9.57763
ꮣꮆꮒꭸ	-9.57818
ꮕꭼꮹꮺꮞꮈ	-9.57847
ꭴꭹꮸꮫ	-9.57847
ꮧꮅꮝꮣᏼꮧᏹ	-9.57954
ꮝꭶꭹ	-9.58047
ꭲᏻꮎꮅꮝꮣꮑꮧ	-9.58154
ꮥꭲ	-9.58592
ᏼꮻꮙ	-9.59086
ꭵꮣ	-9.59217
ꭰᏸꮈꭲ	-9.59581
ᏹꮳ	-9.59725
ꮑꮧ	-9.59824
ꮫꭿ	-9.60061
ꮫꭶ	-9.60099
ꭴꮹꮢꮙ	-9.60159
ꮣᏻ	-9.60236
ꮔꭺ	-9.60513
ꭴꮒꮳꮦ	-9.60834
ꮣꮑꮹꮧꮢ	-9.60972
ꮪꮄꮕ	-9.60978
ꭲꮳꮫꮑꮧᏹ	-9.60987
ᏺꮞꭽ	-9.61026
ꭰꮀꮅ	-9.61031
ꭴꭷꮅꮸꭿ	-9.61115
ꮷꮣꮟ	-9.61125
ꭴꮼ	-9.61134
ꮒꭸ	-9.61262
ꭴꮒꮑꮸ	-9.61356
ꭰꮔꮼ	-9.61391
ꭸꮃꮝꮧ	-9.61712
ꭴꮫꮎ	-9.61763
ꭴꮲ	-9.62049
ꮒꮵꮺ	-9.62233
ꮵꮿ	-9.62457
ꭲꮕ	-9.62485
ꮒꭼꮹꮺꮞꮄ	-9.62606
ꮅꮝꮣ	-9.62684
ꮏ	-9.62754
ꮔꮝꮥ	-9.62868
ꭸꮵꮈꮙ	-9.62888
ꮾ	-9.63067
ꭼꮹꮎ	-9.63173
ꮥꭼ	-9.63399
ꮧꭼ	-9.63413
ꭹꮩꮣ	-9.63417
ꮵᏸꮈ	-9.63437
ꮝꮥꮈꮧᏹ	-9.63543
ꮝꮥꮝꮧ	-9.63583
𐋇	-9.64197
ꮥꭴꮩꭵ	-9.64198
ꭴꮄꮕꭾ	-9.64223
ꮧꮵꮎꮻ	-9.64258
▁,]	-9.64259
ꭶꮇꮸꭽ	-9.64358
ꮁ	-9.64385
ꭱꮖ	-9.64392
ꭶꮈꮙꮩꮧ	-9.64487
ꮵꮔꮝꮧ	-9.64722
ꮃꮻꭹ	-9.65494
ꮣꮵ	-9.65947
ꭰꮣꮑ	-9.6608
ꮣꭶ	-9.6639
ꮥꭸ	-9.66437
ꭰꮎꮣ	-9.66463
ꮥꭴ	-9.66581
ꮣꮃ	-9.66651
ꮫꮑꮧ	-9.66826
ꭱꮧ	-9.6713
ꭴꮒꭺꮂ	-9.67353
ꮠꮕ	-9.67395
ꮑꮴꮈ	-9.67446
ꭰᏸꮃꮝꮧ	-9.67531
ꮧꮖꮴꮅ	-9.67531
ꭴꮅꮟꭼ	-9.67533
ꮓꮘꮟ	-9.67533
ꮣꮣꮕꮯ	-9.67533
ꭲꮃꮿ	-9.67536
ꮧꭸꮵ	-9.67539
ꭴꮤꮃꮼꭿꮝꮧ	-9.67572
ꭰꮒꮟᏼꮻꭽ	-9.67601
ꭴꮎꮔꭺꮻꮢ	-9.67627
ꭴꮯꭿᏻ	-9.67665
ꭳꮵ	-9.67718
ꭼꮹꮇꮴꮈ	-9.68092
ꭿꮫ	-9.68186
ꭿꮿ	-9.68218
ꮴꭾ	-9.68547
ꭴꮺꮕ	-9.69071
ꮟꮜ	-9.6911
ꮣꮅ	-9.69111
ꭰꮣꮕꮦꮝꭼ	-9.69316
ꭰꮝꭺꭿ	-9.69981
ꭲꮵꭶꮤꭽ	-9.70027
ᏼꭼ	-9.70612
ꮥꮅ	-9.70765
ꭶꮨꮿ	-9.70892
ꮣꮣꮏꮹꮝꮫ	-9.70979
ꮩᏹꮧꮲ	-9.7098
ꭴꭶꮅꮝꮧ	-9.70981
ꭳꮣꮈ	-9.70982
ꮎꭹꮺꮞꮈ	-9.70983
ꮕꮣᏻꮆꮢ	-9.70984
ꭰꮳꮧ	-9.70995
ꮔꮅꮝꮤꮒꮩꮈ	-9.71017
ꮎꮝꭶꮕꮎ	-9.71021
ꭴꮔꭺꮸ	-9.71058
ꭲᏻꮹꮒꮠꮧ	-9.711
ꮕꮣᏻ	-9.711
ꮕꮓ	-9.7126
ꭽꮻꮒ	-9.71302
ꭶꮼꮒꭿꮝꮧ	-9.71424
ꭴꭹꭼ	-9.71501
ꭶꮼꮒꮝꭼ	-9.71631
ᏸꭽ	-9.71782
ꭺꮺꮅꭿ	-9.72374
ꮒꮪ	-9.72412
ꮳꮵ	-9.72425
ꮹꮫꮂ	-9.72508
ꮕꮅ	-9.72968
ꭶꮈꮆ	-9.73012
ꮔꮎ	-9.73771
ꭼꮹꮝꮣꮹꮫ	-9.74084
ꮕꭲ	-9.74123
ꭶꮤꮂꮎ	-9.74349
ꮧꭹꭶᏼꮅꭸ	-9.74552
ꮷꮒꮲꭹ	-9.74552
ꮔꮓꭿᏻ	-9.74552
ꮧꮕꮓꮫ	-9.74553
ꮖꮒꮖ	-9.74556
ꭴꮅꮝꮖꮧꮝꮧ	-9.74607
ꮥꮸ	-9.74621
ꮳꮣ	-9.74629
ꭶꮈ	-9.74757
ꭴꮢ	-9.75002
ꮧꭸꭶꮑꮆ	-9.75267
ꮎꮫꮏꮥ	-9.75355
ꭶꮫꭼ	-9.75536
ꮣᏺ	-9.7554
ꮮ	-9.76198
ꮿꮝꮧ	-9.76253
ᏺꭿ	-9.76279
ꭷꮒ	-9.76399
ꮒꭶꭵꮙ	-9.76571
ꭶꮵꮿ	-9.77223
ꮴꮂ	-9.77227
ꭵꮟ	-9.7742
ᏼꭹ	-9.7776
ꮎꮝꭹꮿꮙ	-9.78143
ꮧꭼꮹꮒ	-9.78185
ꮟᏼꮻꭽ	-9.78204
ꮪꮎꮣꮱꮹꮧꮢ	-9.78255
ꮣꮖꮩꭵ	-9.78255
ꭲꮿꮫꮑꭿ	-9.78258
ꭲꮴꮿꮤ	-9.78261
ꮠꮘꮅ	-9.78263
ꭴꮅꮝꮘꮧ	-9.78267
ꭲꮸᏺꮞꭽ	-9.78339
ꮎꮞꮅꮧ	-9.78343
ꮔꮎꮝꮫ	-9.78359
ꮪꮑꮴꮄ	-9.78386
ꭲꮿꮫꮑꮧ	-9.78387
ꮠꮃ	-9.78416
ꭰꮵꮕꮟꮣꮝꮧ	-9.7844
ꮎꮝꭹꮙ	-9.78567
ꮪꮈꮻꮝꮣꮑꮈ	-9.78643
ꭴꮫ	-9.78696
ꮥꮳꮣ	-9.78707
ꭰꮓ	-9.78782
ꮎꮎꮫꮑꮂ	-9.78961
ꮪᏻꭺꮧ	-9.79099
ꮷꮓ	-9.79435
ꭸꮃ	-9.79582
ꮒꮣ	-9.80182
ꮎꮒꭵꮙ	-9.80351
ꭲᏻꮺ	-9.80417
ꮫꮑꮅ	-9.80546
ꭴꮎꮅ	-9.80989
ꮣꮕ	-9.81298
ꭲꭼꮹ	-9.81387
ꮧꮝꭺ	-9.81634
ꮵꭸᏻꭲ	-9.81801
ꮴꭶꮘ	-9.82101
ꭲꮵꮘᏹ	-9.82101
ꭴꮥꮿꮩꮧ	-9.82102
ꮽꮆꮞ	-9.82104
ꭺꮳꮄ	-9.82105
ꭴꮎꮩꮄꮀꮢ	-9.82111
ꮧꭸꮻ	-9.82182
ꮕᏺꭿ	-9.82212
ꮷꮈꮻꮝꮣꮑꭿ	-9.82217
ꭲꮵꮩꮣ	-9.8229
ꭼꮒꮧᏻ	-9.82294
ꭶꮇꮵ	-9.82315
ꭰꮖꮫꭶꮕꭹ	-9.82315
ꭲᏻꮅꮝꮣꮑꮧ	-9.82347
ꭲꭶꭶꮫ	-9.82449
ꮹꮝꮫ	-9.8261
ꭰꮒꭺꭲ	-9.82661
ꭷꮅꭲ	-9.82894
ꭰꭲꮢ	-9.82938
ꮕꮣᏻꮅꮝꮩꮤꮕ	-9.82983
ꭴꮈ	-9.83045
ꮕꮢꭹ	-9.83173
ꮕꮎ	-9.83187
ꮥꮎ	-9.83283
ꮃꮝꮣꮈ	-9.83288
ꭴꮓꮄ	-9.83289
ꭰꮅ	-9.83423
ꭱꭿꮝꮧ	-9.83816
ꮜꮒ	-9.83938
ꮷꮺ	-9.83955
ꮫꮒ	-9.83961
ᏻꮒ	-9.83986
ꭵꭶ	-9.84017
ꭱꮧᏹ	-9.8424
ꮻꮵ	-9.84476
ꮵꮒꭶꮺ	-9.84631
ꮳꮴꮅ	-9.84846
ꮴꮈ	-9.84872
ꭷꮓꭾ	-9.85451
ꮕꮫꭹꮕꮟꮫ	-9.86106
ꭴꮼᏸꮒ	-9.8611
ꮕꮧꭶꮅꮝꮩꮧꮝꭺ	-9.86151
ꭷꮓꭿᏸꭹ	-9.86153
ꭴꮒꮼꮒꭿꮝꮧ	-9.86167
ᏹꮸ	-9.86327
ꮣꮄ	-9.86395
ꮑꮆ	-9.86497
ꭰᏺꭹ	-9.86606
ꭰꮅꮝꮖꮧꮝ	-9.86644
ꭴꮕꮟꮣꮝꮧ	-9.86645
ꮵꮑ	-9.86877
ꭴꮣꮕꮦ	-9.86959
ꭿꭰꮝꭹꮒ	-9.87231
ꮞꭽ	-9.87362
ꮎꭹ	-9.87396
ꮵꮝꮖ	-9.87424
ꮞꮈꭿ	-9.87974
ꮪꮣ	-9.88039
ꮷꮅ	-9.88317
ꮎꮒ	-9.88382
ꮔꮎꮣ	-9.88424
ꮄꭿꮠꮧ	-9.88594
ꮅꮝꮩꮧ	-9.88823
ꭴꮣꮕꮢ	-9.8898
ꭴꮩꭿᏻ	-9.89167
ꮵꮑꭼ	-9.89413
ꮽꮆꮢ	-9.90279
ꭴꮺꮏꭲ	-9.90283
ꮧꮣꮄꮒꮝꭼ	-9.90347
ꮥꮨᏼꮫ	-9.90366
ꮪꮒꮈꮻꮝꮣꮑꮂ	-9.9048
ꭴꮑꭼ	-9.90654
ᏸꮈ	-9.91315
ꮝꭶꮕꭲꮝꮧ	-9.91484
ꮅꮝꭺꮈꮤꮕꭿ	-9.91487
ꮬ	-9.91519
ꮈꮙꮧᏻ	-9.9156
ꮑꮆꮧ	-9.91608
ꮝꮖꮒꭺꮧ	-9.91738
ꭷꮕ	-9.91756
ꮧꭸ	-9.91875
ꭴꮣꮕꮦꮈ	-9.92051
ꮝꮣꮹꮥ	-9.92329
ᏸꭿ	-9.92332
ꮃꮕꭿ	-9.92372
ꮩꭽ	-9.92494
ꭲᏻꮎꮅꮝ	-9.92695
ᏺꭹ	-9.92835
ꮝꮤꮑ	-9.92984
ꮷꮄ	-9.93014
ꮕꭶꮈ	-9.93435
ꮑꮂ	-9.94133
ꭸꮫ	-9.94158
ꮣꮖ	-9.94415
ᏹꮧꮵ	-9.9452
ꮒꮖꮨ	-9.94552
ꮴꮵ	-9.94585
ꮉꮟꮩꮒ	-9.94615
ꮣꮥᏺꮂꮝꭼ	-9.94615
ꮕꭶꮝꭺꭿ	-9.94619
ꭴꮳꮄꮝꮧ	-9.9462
ꭼꮹꮪꮻꮫ	-9.94625
ꮷꮒꮈꮻꮝꮣꮑꮧ	-9.94627
ꮷꮎꮴꮅ	-9.94631
ꮝꭶꭲꭾꮝꮧ	-9.94642
ꭰꭶꮨꮟꮧꮲ	-9.94676
ꭴꮩꭿᏻꮢ	-9.94702
ꭸꮵꮕꮟꮣꮝꮧ	-9.94705
ꮧꮥᏺꮧ	-9.94735
ꭶꮫ	-9.94753
ꮮꭶ	-9.94891
ꮝꮧꮝꭸꮝꮧ	-9.94995
ꮧꮉꮧ	-9.95033
ꮹꮫꭾ	-9.95068
ꭴꮑꮸꭹ	-9.95178
ꮒꮧᏻ	-9.95286
ꭲꮳꮴꮅ	-9.95288
ꭰꭷꮅꭲ	-9.95446
ꮴꮳ	-9.95676
ꮇꮴ	-9.95685
ꭰꮵꮈᏹ	-9.96768
ꭺꭹ	-9.96816
ꮎꮒꮺꮝꭼ	-9.96819
ꮒꭶꮺꮝꭸ	-9.96955
ꮻꮪ	-9.96988
ꮎꮫꮑꭾ	-9.97068
ꮑꮝꮧ	-9.97164
ꭲꭶꮺ	-9.97201
ꮒꮳꮫꮑ	-9.9748
ꮩꭾ	-9.97818
ꭰꮝꮣᏹ	-9.98126
ꭸᏻꭿ	-9.98205
ꮧꮳꮣ	-9.98318
ꭶꮩꭸ	-9.98388
ꮥꭺ	-9.98404
ꮗꮅ	-9.9842
ꮔꮣ	-9.98517
ꮈꮙꮧ	-9.98602
ꮳꮨ	-9.98636
ꭲꮳꮣꮩꮅꮝꮧ	-9.98803
ꮻꮒ	-9.98849
ꮵꮵ	-9.99025
ꭲᏻꮣꮄ	-9.99086
ꮒꮪꭹꮸꮒꮢ	-9.9916
ꭴꮆꭹꮈ	-9.99164
ꮽꮇꮸ	-9.99178
ꭰꮒꭹꮟ	-9.99179
ꮑꭼ	-9.99179
ꭶꮩꭼ	-9.99181
ꭴᏺꮁꮞ	-9.99191
ꮜꮊꮅ	-9.99226
ꭶꮕꮕ	-9.99253
ꮎꮅ	-9.99257
ꭰꮣꮕꮣꮧꮝꮧ	-9.99262
▁--	-9.99287
ꭴꮎꮴꮅꭺꭿ	-9.993
ꮔꮹ	-9.99357
ꭶꮹꮢ	-9.99412
ꮵꭶ	-9.99427
ꭴꮣꮕꮫ	-9.99465
ꮹꭶ	-9.99601
ꮡᏸꮫ	-9.99618
ꭱꭲ	-9.99768
ꮿꮕꮂ	-9.9985
ꮵꭺꭵ	-9.99877
ꮇꭹ	-9.99985
ꮣꮒꮈ	-10.0052
ꭴᏸꮈꮕ	-10.0069
ꭶꮩꮅ	-10.0097
ꭶꮑ	-10.0109
ꮝꭺꭿ	-10.0115
ꮕꮝꮧᏹ	-10.0119
ꭴꮒᏸꮈ	-10.0176
ꭸꭶ	-10.0186
ꭸᏼ	-10.0225
ꮅꭺ	-10.0244
ꭴꮪꮅꮝꭸ	-10.0246
ꮕꮯ	-10.0253
ꭲꮝꮧ	-10.0262
ꮽꮇꮴ	-10.0268
ᏺꭿꮞꮈ	-10.0324
ꭰꮝꭶ	-10.0334
ꮷꮈꮻꮝꮣꮑꮧ	-10.0348
ꮝꮖꮒꭺꮩꮧᏹ	-10.0369
ꭳꮳꮅꮕꮯ	-10.0392
ꮥꭸꮜꮧꮢ	-10.0392
ꮥꮳꮩꭵ	-10.0393
ꭴꭷꮫ	-10.0393
ꭷꮃꮹꮧꮢ	-10.0393
ꭲꮜꮿ	-10.0393
ꭱꮩꮂ	-10.0393
ꭲꮧꭶꮤꭽ	-10.0393
ꮸꮧꮣꮄꮂꮝ	-10.0395
ꮣꮰꭿꮝꮫ	-10.0395
ꮸꮝꭹꮓ	-10.0396
ꮥꮵꮈꮻꮝꮣꮑꮂ	-10.0406
ꭰꮦꮅꮩ	-10.0406
ꮧꭶꮩꮅ	-10.0409
ꭰꮵꭶꮨꮧꮝꮧ	-10.0409
ꭴꮅꭾꮅꮝꮧ	-10.0412
ꭼꮹꮇꮴꮄ	-10.0416
ꮧᏸꮈ	-10.042
ꭴꮎꮰꮎꮝ	-10.0424
ꮿꮖ	-10.0434
ꭱꮘꮜ	-10.0436
ꮔꮒ	-10.0442
ꭷꮅ	-10.0482
ꭴꮎꮅꮝꮣᏼꮧ	-10.0493
ꭺꭿꮝꭹꮒ	-10.0542
ꭴꮓꭿᏻꮕ	-10.0554
ᏼꭸ	-10.0562
ꭵꮭꮝꭹꮒ	-10.0575
ꭰꭹꮅ	-10.0576
ꮕꮧ	-10.0581
ꮷꮎꮝꮧ	-10.0627
ꮒꭼꮹꮺꮞ	-10.0636
ᏹꮪ	-10.0646
ꭶꮆ	-10.0647
ꭲꮵᏸꮈ	-10.065
ꮎꭿᏻꮙ	-10.0661
ꭻᏼ	-10.0666
ꮿꮕ	-10.0666
ꮰꮎꮝꮧ	-10.0675
ꮥꮕ	-10.0686
ꮒꮺ	-10.0728
ꭶꮤꮂ	-10.0739
ꮇꭶ	-10.0744
ꮕꮧꭶꮅꮝꮩꮧ	-10.0763
ꮫꮏꮥ	-10.0763
ꮪꮓ	-10.0776
ꮥꭸꮵ	-10.0807
ꭰꮖꮣꮕꮩ	-10.081
ꮒꭼꮑ	-10.0811
ꮪꮣꮄꮝꮩꮧ	-10.0838
ꭰꮖꮪꮅ	-10.0845
ꮞꮅ	-10.0881
ꮡꮎꮣꮱꭹ	-10.0892
ꭴꮅꮟꭹ	-10.0893
ꭴꮅꮑꮸ	-10.0893
ꮔꮒꭼꮻᏻꮜꮥꭹ	-10.0893
ꭴᏺꮁꭿꮝꮧ	-10.0894
ꮒꮧꭵ	-10.0901
ꭸꮒ	-10.0901
ꭰᏺꮁꮝ	-10.0905
ꭴꮺꮕꮞ	-10.0906
ꭰꮝꭺꮅ	-10.0907
ꮪꮒꮈꮻꮝꮣꮑꮈ	-10.0913
ꭴꮺꮨ	-10.0915
ꭴꮹꮢꭿᏻ	-10.0916
ꭲꮳꮣ	-10.0916
ꮝꮧꮝꭹ	-10.0917
ꭺꭿᏻꮂꮝꭹ	-10.092
ꮟꮖ	-10.0926
ꭴᏸꭿ	-10.0939
ꭴꮒꭹꮢ	-10.0939
ꭰꮅꮝꮥꮈꮩꮧ	-10.0945
ꮪꭶ	-10.0966
ꭰꭹꮟ	-10.0984
ᏺꮞ	-10.1023
ꮣꮿꭲ	-10.103
ꭴꮼꮈ	-10.1044
ꭱꭹ	-10.1048
ꭲᏻꮕꮑꮧ	-10.1075
ꮆꮋ	-10.1086
ꮎꮙ	-10.1095
ꮥꭽ	-10.1113
ꮽꮎ	-10.113
ꭳꮒᏹ	-10.1143
ꮧꮸ	-10.1144
ꮅꮓꭾ	-10.1145
ꮅꭾꮅꮝꮧ	-10.1153
ꮑꮀ	-10.1179
ꮩꭹ	-10.1208
ꭲꮝꮧᏹ	-10.1231
ꮝꮥꮅꮝꭹ	-10.1238
ᏸꮈꭽ	-10.1241
ꮝꮤꮕꭿ	-10.1256
ꮩꭾꮝꮧ	-10.1258
ꮅꮩꭿ	-10.129
ꮷꮑ	-10.1308
ꮕꮢ	-10.1323
ꮿꮕꮫ	-10.1327
ꮅꮒꭹꮫ	-10.133
ꮝꭹꮓ	-10.1336
ꮵꮔꮺꮞ	-10.1342
ꭴꮥꮕ	-10.1353
ꮧꭶꮪꮂ	-10.1369
ꮷꮹ	-10.1387
ꭺꮲꮕꭿ	-10.1393
ꭺꮅ	-10.1409
ꭴꮝꮖꮈꮂ	-10.1419
ꮃꭸꮿꮫ	-10.1419
ꭴꮪꮈꮧ	-10.1419
ꮔꮎꮫꮕ	-10.1419
ꭴꮑꮲꮤꮕ	-10.1419
ꭴꮎꮣꮴꮅꮫ	-10.1419
ꭶꮅꮶꮥ	-10.1421
ꭴꮆꮠꮕ	-10.1427
ꭺꭿꮧᏻ	-10.1428
ꮔꮹꮑꮈ	-10.1432
ꮔꮫꮑꮄ	-10.1438
ꭱꮟᏹ	-10.1441
ꭱꮟꭹ	-10.1445
ꭴꮎꮑꮃꭹ	-10.1457
ꭴꮒꮳꮫꭹ	-10.1467
ꮅꮝꮧ	-10.1467
ꮒꮳꮫꮑꮈ	-10.1479
ꭴꮒꮳꮤ	-10.1499
ꮒꮥ	-10.1529
ꮮꭹ	-10.1541
ꭴꮿ	-10.1548
ꮂꮝꭶ	-10.1579
ꮪꮺ	-10.1582
ꮒꮳꮫꮑꮂ	-10.161
ꮦꮝꮧ	-10.1619
ꮆꮧ	-10.1619
ꮿꭵ	-10.1643
ꭺꮲ	-10.1662
ꭴꮎꮫꮑ	-10.1665
ᏼꭶ	-10.1693
ꮧꮝꭸꭲ	-10.1693
ꭶꮑꮃ	-10.1699
ꮅꭶ	-10.1726
ꮑꮂꮎ	-10.1781
ꮳꮒꮓ	-10.1782
ꮒꮸ	-10.179
ꮵꮝ	-10.1792
ꮥꭼꮹ	-10.1846
ꮷꮘ	-10.1859
ꮕꮞ	-10.1865
ꮩꮅꮝꮧ	-10.187
ꮞꮄ	-10.188
ꮒꮩꮈ	-10.1902
ꮻꮢ	-10.1923
ꮣꮡꮿ	-10.1943
ᏺꮟ	-10.1945
ꮫꮧ	-10.1956
ꮈꮙꮩꮧ	-10.1956
ꭴꮄꮕ	-10.1958
ꮞꭾ	-10.196
ꭲꮳꮪꮅ	-10.1968
ꭴꮗꮣꮈ	-10.1974
ꮧꮯꮆꮝꮤꮕꭿ	-10.1974
ꮕꮷꮅꮝꮩꮤꮕ	-10.1974
ꮪꮃꮝꭼ	-10.1974
ꮔꮎꮫꮑꮈ	-10.1974
ꭲꮳꮅꮕꮯ	-10.1975
ꮷꮃꮟꮥꮒ	-10.1976
ꭰꭻᏼꮩ	-10.1976
ꮽꮒꮆꮞ	-10.1977
ꭼꮹꮯꮝꮧ	-10.1977
ꭴꮒꮓꮥꮎ	-10.1981
ꭴꮒᏼꮝꮧ	-10.1982
ꮪꮑꮴꮈ	-10.1985
ꭶꮣꮕꮦꮝꭼ	-10.1988
ꭰꭹꮑꮸ	-10.1992
ꮩꮄꮫ	-10.1992
ꮧꮳꮣꮕꮩ	-10.2004
ꮪꮕꮞ	-10.2011
ꭳꮟ	-10.2048
ꮩꭶ	-10.206
ꭺꮩꮧ	-10.2087
ꮧꭸꮢ	-10.21
ꭸᏻꭽ	-10.2101
ꮪꭹ	-10.2101
ꮒꮻ	-10.2111
ꮷꮕ	-10.2118
ꮔꮅ	-10.2128
ꮻꮧ	-10.2159
ꮟᏹ	-10.216
ꮧꭶꮈꮙꮧ	-10.2162
ꮞꮈꭹ	-10.2165
ꮆꮔꭾ	-10.2186
ꮻꭼ	-10.2209
ꮷꮳ	-10.2218
ꮧꭺ	-10.2226
ꮣꮏꮹ	-10.2228
ꮝꮥꮈꮧ	-10.2229
ꮶꭹ	-10.223
ꮴꮃꮧꮩꭾꮝꮧ	-10.2237
ꮎꮣꮕꮯ	-10.2256
ꭴꮺꮇꮕ	-10.2297
ꭰꭹᏸꮈ	-10.2307
ꮝꭶꮕꮸ	-10.2307
ꮝꮥꮈ	-10.2312
ꮕꭶ	-10.2313
ꮧᏻ	-10.2352
ꮝꮖꮫ	-10.2367
ꮥꮀ	-10.2368
ꮧꮝꮧᏹ	-10.2394
ꮵꮑꭶ	-10.2409
ꭴꮕꮢꮙ	-10.2424
ꮡꮎꮄ	-10.2429
ꭴꭼꮻᏻ	-10.2509
ꮵꭼ	-10.251
ꮑꭻꮵꮫ	-10.2558
ꭰꮰꮑꮧ	-10.2562
ꭰꮪꭲꮝꮫ	-10.2562
ꭴꮔꭺꮴ	-10.2562
ꮧꮒꭸꮻ	-10.2562
ꭴꮫꮫꮑ	-10.2563
ꭰꮎꮣꮕꮦꮝꭼ	-10.2563
ꭴꮑꮇꮕ	-10.2563
ꭲꮿꮎꮫꮑ	-10.2563
ꮎꭼꮑꮈ	-10.2563
ꮡꮣꮄꭹ	-10.2563
ꮧꮒꮟꮧ	-10.2564
ꮧꮒꭶꮩꮅ	-10.2565
ꭲꮵꮝꭶꮕꮸ	-10.2568
▁.]	-10.2568
ꮪꮄꮑ	-10.2571
ꮅᏸꭲꮆꭿꮝꮧ	-10.2574
ꭴꮎꮻᏹ	-10.258
ꭰꭹꮅᏺꭲꮝꮧ	-10.2585
ꭰꭺꮞ	-10.2586
ꭼꮹꮫꮫꮑ	-10.2587
ꮷꮑꮵ	-10.2588
ꭰꮒꮩꮎꭵ	-10.2604
ꮇꮸ	-10.2614
ꮔꭶ	-10.2621
ꮾꮣ	-10.2622
ꭰꮒꮑꭼ	-10.2627
ꮽᏼꮄ	-10.2629
ꮧꮵᏸꮈ	-10.2643
ꮵꮻ	-10.2645
ꭰꮑꮩꮂ	-10.2646
ꭵꮮꮝꮧ	-10.2649
ꮈꮻꮝꮣ	-10.2661
ꭲꭼꮢ	-10.2663
ꮣᏸ	-10.2676
ꮎꮔꭺꮻꮞ	-10.271
ꭶꮤ	-10.2712
ꮪꮎꮣ	-10.2717
ꭴꮆ	-10.2726
ꭴꮩ	-10.2756
ꮕꮣꭶꮅꮝꮩ	-10.278
ꮴꭿ	-10.2794
ꮪꭷꮏꮕ	-10.2795
ꮵꮳ	-10.2805
ꮉꮧ	-10.2807
ꮹꮫꮧᏹ	-10.2843
ꮒꮈ	-10.2848
ꮣꮣ	-10.2852
ꮸꮑꮅ	-10.2866
ꮷꮎꮣ	-10.2868
ꮒꭺ	-10.2883
ꮻꭼꮹ	-10.2895
ꭴꮕꮞ	-10.2896
ꭼꮖ	-10.2905
ꭰꮿ	-10.2916
ꭹꮅ	-10.2924
ꭲꮳꮅ	-10.294
ᏼꮫ	-10.2965
ꮑꮃ	-10.2982
ꮲꮧ	-10.2982
ꮵꮕꮟꮣꮝꮧ	-10.2993
ꭴꮒꮑ	-10.3013
ꮻꮣ	-10.3013
ꭴꮫꮑ	-10.3016
ꮣꭹꮈꮻꮝꮣꮑ	-10.3031
ꮑꮢ	-10.3041
ꭰꮣꮩꮅꮝꮧ	-10.3067
ꮣꮑꭿ	-10.3078
ꭲꮶꭿᏻ	-10.3106
ꮕꮤ	-10.3121
ꭵꮝꭹ	-10.3147
ꮣꮳ	-10.3164
ꮷꮢ	-10.317
ꭴꮥꮀꭿꮝꮧ	-10.3172
ꮒꮳꮫꮕ	-10.3175
ꮤᏺꮞꮄ	-10.3181
ꭰꮁꮝꮥꮝꮧ	-10.3187
ꮔꮣꮅꮣꮝꮫꮎ	-10.3187
ꮥꮉꮝꭶ	-10.3187
ꮒꮪꮹꮑꮈ	-10.3187
ꮟꮜꮅᏹ	-10.3187
ꭰꭺꮔ	-10.3188
ꭲꮃꭺ	-10.3188
ꮻꮪꮿꮕꮂ	-10.3188
ꮤꮇꭹꮝ	-10.3188
ꮷꮎꮫꮠꮕꭿ	-10.3188
▁;]	-10.3191
ꮧꮵᏺꮅ	-10.3192
ꭴꮎᏸꭿꮝꮧ	-10.3194
ꭸꮖꮒ	-10.3195
ꭰꮕꮧꮝꭼ	-10.3196
ꮧꮵꮈꮻꮝꮣꮑ	-10.3201
ꭴꮼꮲꮕ	-10.3203
ꭰꮒꮼꮒꮝꭼ	-10.3204
ꮟꮣꮑꮈ	-10.3206
ꮑꭾ	-10.3207
ꭴꮑꭻꮵꮫ	-10.3211
ꮵꭺꭸ	-10.3215
ꭼꮹꭺꮂ	-10.3215
ꮽꮒꮇꮴ	-10.3238
ꭵꮨ	-10.3244
ꭰꮵꮓꭾꮝꭼ	-10.3263
ꮄꭿꮜꮕ	-10.3273
ꭰꭼꮧꮝꭼ	-10.3282
ꮔꮈ	-10.3294
ᏹꮩ	-10.3295
ꮣꭼ	-10.3297
ꮧꮣꮄꮂꮝ	-10.3312
ꭸꮵꮝꮥꮈꮧ	-10.3319
ꭰꮑꭽ	-10.3323
ꮶꭿᏻꮢ	-10.3332
ꮔꮫꮕ	-10.3337
ꮽᏼꮈ	-10.3337
ꭺꮃ	-10.3341
ꭰꮑꭾ	-10.3345
ꭲꭹꮝꮥꮅꮝ	-10.3357
ꭺꮲꮢ	-10.3365
ꮄꮓ	-10.338
ᏺꮁꭿ	-10.3384
ꮪꮈ	-10.3391
ᏹꮕꭶ	-10.3397
ꭲꮵꭶꮤ	-10.3398
ꭶꮆꮔꭾ	-10.3429
ꭲꭼꮹꮅꮝ	-10.3429
ꭱꮩꭾ	-10.3429
ꮻꮳ	-10.344
ꮜꮃ	-10.3452
ꮩꭿᏹ	-10.3464
ꮃꮧ	-10.3469
ꮺꮃ	-10.3486
ꮧꮲ	-10.3508
ꮣꮑꮈ	-10.3527
ꮩꭲ	-10.3576
ꮒꭺꭿꮈꮎ	-10.359
ꮅꮝꭺꮈꮣꮑꮈ	-10.361
ꮼꭿ	-10.3612
ꭶꭸ	-10.3642
ꭴꮆꮢ	-10.3688
ꭹꮅᏺꭲꮝꮧ	-10.3689
ꭿꭶꮤꭽ	-10.3694
ꭲꮵꮿꮻꮝ	-10.3695
ꮕꮝꮣ	-10.3695
ꮓꮑꮄ	-10.3702
ꭴꮄ	-10.3713
ꮧꮎꮣ	-10.3741
ꭲꮝꮫ	-10.3758
ᏹꭼ	-10.3763
ꮵꭺꮹꮫ	-10.3784
ꭲꮸꮤ	-10.3793
ꮞꮧ	-10.3819
ꮡꮆ	-10.3821
ꮬꮟꮫꭱ	-10.3823
ꭱꮈ	-10.3827
ꭲꭹꮑꮈ	-10.3831
ꮔꮬꮟꮫꮢꮎ	-10.3854
ꮣꮯꮆꮝꮫ	-10.3854
ꮥꭶꮪꮹꮧꮢ	-10.3854
ꮧꮝꮣꮣꮕꮯ	-10.3854
ꭴꮎꮄꮕꭾ	-10.3854
ꭱꮙꭿᏻ	-10.3854
ꮜᏹꮃ	-10.3854
ꮫꮝꮖꮈꭿ	-10.3855
ꭴꮺꮩꮈ	-10.3855
ꭲꮿꮖꮫꮑꮧ	-10.3855
ꮔꮢꮈ	-10.3857
ꮃꮟꮃ	-10.3858
ꮕꮣᏻꮒꮆ	-10.3859
ꭴꮑꮕꮞ	-10.3861
ꭰꮅꮝꮪꮆ	-10.3862
ꭰꮤꮄꮢ	-10.3862
ꭲꭸ	-10.3863
ꮷꮑꮴ	-10.3866
ꭴꮝꮪꭲꮢ	-10.3867
ꮧꭸꮵꭴꮝꮥꮞꮈꭿ	-10.3869
ꭶꮎᏸꭿꮝꮧ	-10.3869
ꭴꮺꮅꭿꮝꮧ	-10.3869
ꮶꮣꮒ	-10.387
ꭰꮑ	-10.3877
ꮥꮱꭼ	-10.3879
ꮔꭺꭲ	-10.3881
ꭰꮝꭶꮕꮸ	-10.3882
ꭰꮑꮩꭿ	-10.389
ꭰꮅꮝꭺꮈꮤꮕꭿ	-10.3894
ꮣꮣꮑꮈ	-10.391
ꮵᏸ	-10.3916
ꭴꮼꮅ	-10.3917
ꮯꮜ	-10.3919
ꮷꮒᏺ	-10.3919
ꭲꭼꮑꮧ	-10.392
ꭰꮎꮫꭹꮝ	-10.3923
ꭲꮵᏼ	-10.3926
ꭴꮝꮖꮒꭺꮧᏻ	-10.393
ꮧꮴꮵ	-10.3937
ꭴꮳꮫ	-10.3943
ꮵꭸ	-10.396
ꭲꮵꭺꮹꮨ	-10.3965
ᏹꭸ	-10.3968
ꮴꮅꮞ	-10.3974
ꭲꮳꮕ	-10.3985
ꮧꮣꮼꮝ	-10.4002
ᏺꮂꮝꭹ	-10.4081
ꭰꮛꮢꮙ	-10.4091
ꭼꮹꮣ	-10.4115
ꭿꮞꮧᏹ	-10.4118
ꭴꮪꮅ	-10.4118
ꮪꮓꮈ	-10.4127
ꮿꮕꮩ	-10.4137
ꮎꭵꮒ	-10.4149
ꭰꮣꮕꮩꮝꭹꮒ	-10.417
ꮪꮑ	-10.417
ꮔꭺꮻꮢ	-10.4205
ꮂꮝꭹ	-10.4223
ꮴꮅ	-10.423
ꮔꮺ	-10.4238
ꭴꮑꮸꭿ	-10.4242
ꭺꮧᏹ	-10.4272
ꮣꮄꮕ	-10.4279
ꭴᏼꮈ	-10.4287
ꮸꮣ	-10.4295
ꮣꮩꮅꮝꮣꮑ	-10.4303
ꭶᏸꮵ	-10.4335
ꮕꮣᏻꮎꮅꮝꭺꮈꮤ	-10.4366
ꮺꮞꮈ	-10.4378
ꭲꭼ	-10.4389
ꭼꮕꭲ	-10.4404
ᏻꭺꮧ	-10.4413
ꭲꮸꮿ	-10.4414
ꭰꮒꮑ	-10.4425
ꭷꮑꭲꮝꮧ	-10.4428
ꮧꮳꮴꮅ	-10.4434
ꮏꮥ	-10.4435
ꭺꮅᏸꮧ	-10.4455
ꭲᏻꮫꮑ	-10.4477
ꭰꮑꮩꭾ	-10.4483
ꭷꮏ	-10.4484
ꭱꮃꮺ	-10.449
ꮅꮝꮩꮧᏹ	-10.4518
ꮡꮣꮅ	-10.4549
ꭶꮎꮔꭺ	-10.4557
ꭰꮒꭶꮤꭿ	-10.4557
ꭰꮒꮜꮪꮟ	-10.4568
ꭴꮒꮗꮣꮈ	-10.4568
ꭴꮜꭿꮈ	-10.4568
ꮻꮸꮇꮴꮧ	-10.4568
ꭴꮎꮪꮅꮝꭼ	-10.4568
ꮼꭹꮇꮸ	-10.4569
ꮳꮤꭶ	-10.4569
ꮪꮎꮩꭵ	-10.4569
ꮷꮓꮡꮆ	-10.4569
ꭰꮒꮻꮕ	-10.4569
ꮫᏻꭸꮧ	-10.457
ꮶꭿᏻꮞꮝꮧ	-10.4571
ᏺꭿꮞꮄ	-10.4571
ꮱꮤꮒ	-10.4572
ꮧꮒᏸꮈ	-10.4572
ꭶꮅꭱꮅ	-10.4573
ꮆꮠꮒ	-10.4573
ꭴꮎꮃꮕꭿ	-10.4573
ꭰꮣᏸꮝꭹ	-10.4579
ᏼꮣ	-10.4579
ꮷꮣꮕꮫ	-10.458
ꭷꮓꭾꮝꭹ	-10.4585
ꭰꮣᏺꮑ	-10.4585
ꮖꮅꮟ	-10.4586
ꭴꮕꮟꮩꭿ	-10.4586
ꭰꮸꮝꮩꮧ	-10.4587
ꮣꮻꮢ	-10.4588
ꭴꮓꭾꮈ	-10.4589
ꮵꮒꮳꮫꮕ	-10.4592
ꮹꭻꮧ	-10.4594
ꭳꮵꭶꮤꭽ	-10.4596
ꭲꮷꮹꮑ	-10.4598
ꮪꭺ	-10.4603
ꮥꭸꮝꮧ	-10.4612
ꮣꮋ	-10.4612
ꭰꮒꮒ	-10.4612
ꮎᏸꮝꭼꮎ	-10.4615
ꭲꭹꮝꭶꮕꮸ	-10.4617
ꮹꮧꮢ	-10.4619
ꮑꮓ	-10.4622
ꮝꭶꭲꮂꮎ	-10.4635
ꮪꭺꮂ	-10.4637
ꮧꮑꮂ	-10.4645
ꭶꮎꮔꭺꮻꮝꭺ	-10.4649
ꮅꮵꮩꮑ	-10.4649
ꭰꮖꮪꮅꮝꭼ	-10.465
ꭰꮎꮫ	-10.466
ꮕꭲꮝꮧ	-10.4678
ꭸꮵꮑꮈ	-10.4686
ꭴᏼꮝꮧ	-10.4693
ꮺꭽ	-10.4694
ꭴꮑꮴꮄ	-10.4711
ꮆꮟ	-10.4722
ꮒꮟ	-10.4722
ꮣꮞꭺꭹꮝ	-10.4726
ꮪꮎꮅ	-10.4733
ꮰᏹ	-10.4749
ꭴꮎꮫꭶꮕꭿ	-10.4751
ꮲꮘꮝ	-10.4751
ꮣꭹꮈꮻꮝꮣꮑꮂ	-10.4752
ꭷꮓꭾꮝꭼ	-10.4768
ꮴꮅꭿꮝ	-10.4779
ꮣꮕꭶꮈꮫ	-10.478
ꭴꮎꮥ	-10.4792
ꮝꮖꮒꭺꮤꮕ	-10.4792
ꮎꮔꭺꮻꮞꮈ	-10.4794
ꮪᏺ	-10.4802
ꭶꮤꮀ	-10.481
ꮜꮫ	-10.4817
ꮥꮿꮩ	-10.4826
ꮿꮫ	-10.4864
ꭻꮣꮄ	-10.4864
ꭴꮎꮫꮕ	-10.4872
ꭸꮵꮫ	-10.4876
ꭲᏻꮫꮑꮧ	-10.4889
ꮶꮎ	-10.4904
ꭲꮝ	-10.4907
ꮻꮝꮧ	-10.4918
ꭲꮴꮅ	-10.4921
ꮪꮑꮄ	-10.4935
ꭴꮂ	-10.4946
ꭴꮑꮕ	-10.4957
ᏸꭲ	-10.4958
ꭰꮗ	-10.4986
ꮣꮸ	-10.5007
ꮝꮣᏹ	-10.5015
ꭴꮳ	-10.5034
ꭶꮜ	-10.5037
ꮶꭿᏻ	-10.5048
ꭰꮑꮲ	-10.5061
ꮵꮑꮈ	-10.5063
ꮅꮝꭺꮈꮣ	-10.5064
ꭶꮑꮂ	-10.5119
ꭻᏼꭱꮧ	-10.5141
ᏼꮅ	-10.5163
ꮻꮸᏺꮺꮃ	-10.5163
ꮯꮆꮝꮧ	-10.5167
ꮵꮣ	-10.5179
ꭱꭾꮝꮧ	-10.5191
ꮴꮘ	-10.5197
ꭴᏼ	-10.5203
ꭰꭶꮤ	-10.5214
ᏹꮩꭶ	-10.5217
ꭲᏻꭲ	-10.5228
ꮝꮥꮅ	-10.5232
ꭸꮵᏸꮈ	-10.5256
ꮎꮖ	-10.5258
ꭰꮒꮩꮎ	-10.5268
ꭴꮿꮕ	-10.5272
ꮣꭲꮕ	-10.5282
ꮵꮣꮒ	-10.5288
ꮳꮪꮅ	-10.5297
ᏼꮃ	-10.5311
ꮅꮝꮖꮧꮝ	-10.5317
ꮵꮎꮭꭵꮎ	-10.5323
ꮣꮒꮈꮸꭿ	-10.5334
ꭰꭶꮨꮟ	-10.5337
ꭰꮒꭶꮤꮏꭲ	-10.5338
ꮥꭶꮃꮻꭵ	-10.5338
ꭶꮓꮝꭹꮝꭹ	-10.5338
ꭴꮬꮕꮫ	-10.5338
ꭴꮪꭲꮝꮤꮕ	-10.5338
ꮥꭴꮄꮤꮕ	-10.5338
ꭰꮯꮝꮫ	-10.5338
ꮕꮣꭶꮅꮝꮤꮒ	-10.5338
ꮜꮩꮒ	-10.5338
ꭴꮹꭸꮻ	-10.5338
ꭴꮺꮝꭹꮈ	-10.5338
ꮪꮣꮨꮎꭵ	-10.5338
ꮽꮒꮇꮸ	-10.5338
ꮎꭶꭵ	-10.5339
ꮷꮒꮃꮻꭲꮝꮧᏹ	-10.5339
ꮧꮒꮀꮅ	-10.5339
ꭰꮎꭲꮢ	-10.534
ꮗꮝꮣ	-10.5344
ꮈꮙꮩꮧᏹ	-10.5344
ꮷꭶᏼꮅꭸ	-10.5345
ꭰꮧꮢꮝꮧ	-10.5345
ꭴꮎꮅꮝꮥꮈꮩꮧ	-10.5348
ꮥꭸꮵᏸꮈ	-10.5349
ꮻꮵꭶꮫ	-10.535
ꭰꮹꮎꭶꮃ	-10.535
ꭴꮅꮒꭼꭼ	-10.5351
ꮅꮿ	-10.5351
ꭰꮵꮎꮭꭲ	-10.5353
ꭴꭺꭾ	-10.5354
ꭶꮈꮙ	-10.5356
ꭰꮎꮣꮩꮅꮝꮣꮑ	-10.5356
ꭱꮒꮧ	-10.5359
ꮣꮣꮟ	-10.5362
ꭴꭹꮈ	-10.5367
ꭶꮕꭼ	-10.5369
ꭰꮣᏸ	-10.5372
ꭼꮼꭿᏻꮂꮝ	-10.5377
ꭰꮖꮅꮟ	-10.5378
ꭴꭸᏻꭿ	-10.5387
ꭲꮳꮰꮎꮝ	-10.5402
ꭴꮎꮭꭲ	-10.5405
ꮪꮯꮆꮝꮣꮑꮄ	-10.5416
ꮴꮝꮩ	-10.5419
ꮥꭶꮪꮂ	-10.542
ꭴꮎꮅꭺ	-10.5431
ꮧꭶꮅꮝꮩꮧꭽ	-10.5438
ꭺꮂ	-10.5441
ꮳꮣꮕꮦ	-10.5446
ꭴꮅꮰꮿꮝ	-10.5452
ꭴꮺꮇꮑ	-10.5461
ꮧꮴꮂ	-10.5461
ꮫꮤꮒ	-10.5461
ꮒꭼꮺꮞ	-10.5478
ꭲꮵꮿ	-10.548
ꭳꮳ	-10.5481
ꮳꭲꮢ	-10.5485
ꮘꮅ	-10.5493
ꮷꮫ	-10.5496
ꭰꮕ	-10.5501
ꭵꮣꮈ	-10.5518
ꮤꮃ	-10.552
ꮃꮟ	-10.5521
ꮑꮆꮩꮧ	-10.5532
ꭰꮵꮝꮥꮈꮧ	-10.5558
ꭸꮅ	-10.558
ꭰꮒꮕ	-10.5588
ꭲᏻꮅꮝ	-10.5592
ꮣꮎꮣ	-10.5595
ꮇꮴꮈ	-10.5596
ꮝꮧꭽ	-10.5596
ꮙꮧ	-10.5618
ꭱꭶ	-10.563
ꭴꮄꮕꮂ	-10.563
ꮝꮧꮙ	-10.5635
ꮕꮼꮧ	-10.5641
ꮧꭼꮹꮎ	-10.5648
ꮷꮎꮄꭿꮠ	-10.5652
ꮕꮣꮣ	-10.5663
ꭸᏻꮧ	-10.5669
ꮩꮄ	-10.5687
ꮧꭷꮓꭹꮝꮧ	-10.5695
ꭲꮴꮎ	-10.5704
ꭴꮼꮄ	-10.5706
ꭴꮹꮢꮝꭹꮒ	-10.5713
ꮎꮟ	-10.5714
ꮒꮅ	-10.5729
ꭿꮟ	-10.5735
ꮻꭶ	-10.5737
ꮒꮟꮂꮝ	-10.5755
ꭶꮅꮝꮤꮕ	-10.5763
ꮅᏻ	-10.5765
ꮏꮹꮫ	-10.5767
ꮑꮸ	-10.5792
ꭼꮼꭿᏻꮕ	-10.5804
ꭺꮹꮫꮧ	-10.5816
ꮈꮎ	-10.5823
ꭺꮅᏸꭵ	-10.5862
ꭿᏸ	-10.5867
ꭸᏻꭿᏻ	-10.5876
ꮎꭹꮺꮢ	-10.5914
ꭼꭺꮹꮫꮧ	-10.5917
ꮵꮴ	-10.5922
ꭰꮉᏹ	-10.5959
ꮧꭷꮓ	-10.5962
ꮆꮈ	-10.5986
ꮳꭶꮜꮿꮝ	-10.5993
ꮑꮯᏼ	-10.6045
ꮧꮫ	-10.6052
ꭵꭿꮝꮧ	-10.6052
ꭸꮵꮝꭶ	-10.6071
ᏹꮩꭸ	-10.6073
ꭴꮺꮇ	-10.6086
ꭰꮑꮃ	-10.6098
ꮝꭺꮅ	-10.6119
ꭴꮅꭾꮅꮸ	-10.6122
ꮅꮝꭺꮈꮩꮧ	-10.6123
ꭺꭿᏻ	-10.6129
ꮦꮅꮩ	-10.6144
ꭼꭽꮇᏼ	-10.6147
ꭰꮝꮪ	-10.6151
ꭼꮒꭸꮢꭲᏻ	-10.6158
ꮅꮇ	-10.6163
ꮵꮅꭵꮒ	-10.6169
ꭰꮥꮢꮂꮝ	-10.6171
ꭶꭻꮝꮫꮧ	-10.6171
ꮖꮃꮖ	-10.6171
ꮧꮎꮣꮒᏹꮝꭹ	-10.6171
ꮧꮡꮲꮫ	-10.6171
ꮷꮣꮥꮢꮫ	-10.6171
ꮩꮷꮎꮣꮕꮫ	-10.6171
ꮷꮼᏸꮒ	-10.6171
ꭰꮵꭴꮝꮥꮞꮈꭿ	-10.6171
ꮿꮓꭹᏻ	-10.6171
ꭰꮎꮅꮵꮩꮂꮝ	-10.6171
ꭸꭶꮡᏸꮫ	-10.6172
ꮣꮒꮃꮻꭵ	-10.6172
ꭰᏸꮂ	-10.6172
ꭴꮑꮙꮸ	-10.6173
ꭸꮩꮂ	-10.6174
ꭳꮣꮕꮫ	-10.6174
ꭴꮆꮢꮝꮤꮕꭿ	-10.6174
ꮪꮒꮲꭼ	-10.6175
ꭷꮑꮸꭿ	-10.6175
ꮪꮈꮜꮫ	-10.6175
ꮻꮪꮿꮕꭾ	-10.6176
ꮳꭶꮯꮆꮝ	-10.6176
ꭴꮎꮩꮄꮀꭿꮝ	-10.6178
ꭴꮒꮔꭺꮸ	-10.6178
ꭵꭹꮕꮟꮫ	-10.618
ꮪꮄꭿꮜꮕ	-10.618
ꭴꮣꮕꮞ	-10.618
ꮒꮵꭶꮤꮂꮎ	-10.6181
ꭱꮩꭽ	-10.6183
ꭴꮓꭿᏻꮢ	-10.6188
ꭴꮎꮔꭺꭲꮝꮧ	-10.6188
ꮑꭲꮝꮤꮑ	-10.6188
ꭲꮳꮫꭶꮕꭿ	-10.6189
ꭴꮏꭵ	-10.6191
ꭰᏺꮁꮢ	-10.6194
ꭱꮃꮒꭼ	-10.6195
ꭴꮎꮫꭺꮧ	-10.6197
ꭴꮳꮦ	-10.6201
ꮥꮵᏺꮅ	-10.6211
ꭳꭼꮢ	-10.6212
ꭴꮝꭺ	-10.6214
ꭴꮒꮓꭾꮈꭿ	-10.6215
ꭰꭹꭺꮂꭹ	-10.6215
ꮒꮩꮣ	-10.6221
ꭲꮳꮣꮕꮨ	-10.6224
ꭴꮹꮫꮂ	-10.6225
ꮒꮸꮑꮈ	-10.6227
ꮝꮣꮹꮧꮢ	-10.6243
ᏺꮁꮟ	-10.6244
ꮕꮹ	-10.6249
ꮉꮅ	-10.6251
ꭰꮎꮅ	-10.6253
ꮧꮴ	-10.6253
ꮳꮩꮣ	-10.6257
ꮥꮳꮈꮻꮝꮣꮑꮂ	-10.626
ꮎꮔꭺꮻꮞꮅ	-10.6265
ꮹꮒ	-10.6268
ꭴᏸꮈꮑ	-10.6287
ꮝꮣꮑꮈ	-10.6289
ꮫꮒꮟ	-10.6297
ꭰꮩꮄꮀ	-10.6297
ꭴꮫꭺꮧ	-10.6306
ꭰꮅꮵꮩꮂꮝꭸ	-10.6308
ꮪꮩ	-10.6313
ꭼꮹꮝꮣꮹꮧ	-10.6314
ꭴꮒꮎᏸ	-10.6321
ꭹꭸᏻꭿᏻ	-10.6323
ꭴꮔꮼ	-10.6324
ꮕꮹꮝꮧ	-10.6326
ꭶꮅꮶꮫꭲ	-10.6327
ꭴꭹꮢ	-10.6335
ꮇꮴꮧ	-10.636
ᏻꮞꮝꮧ	-10.6363
ꮵᏺꮟ	-10.6366
ꭴꮹꮤꮕ	-10.6378
ꮅꭾꮅ	-10.6382
ꮕꮣꭼꮹ	-10.6395
ꭲꭼꮹꮑꮧ	-10.6403
ꮣꮰ	-10.641
ꭶꮕ	-10.6412
ꮩꮄꮀꭿꮝꮧ	-10.6419
ꮎꮔꭺꮻꮢ	-10.642
ꭵꭿ	-10.6423
ꮆꭿꮝꮧᏹ	-10.6441
ꮩꮣᏻ	-10.6445
ꭲꮳꮅꮝ	-10.6451
ꭷꮅꮸꭿ	-10.6474
ᏸꮳ	-10.6494
ꮣꮑꮂ	-10.6506
ꭱꮎ	-10.6513
ꮽꮆꭿꮝꮧ	-10.6514
ꭲꮳꮫ	-10.6519
ꮝꭶꮈ	-10.6529
ꮫꮑꮧᏹ	-10.6561
ꮏꭲ	-10.6586
ꭵꮵꭺ	-10.6592
ꮵꮿꭵ	-10.661
ꮩꮣꭸ	-10.6612
ꮶꭶ	-10.6628
ꮅꮝꭼꮎ	-10.6637
ꭴꮎꮕ	-10.6648
ꭲꮸᏺꮺꮃꮑ	-10.6674
ᏹꭸꮠ	-10.6694
ꮣꭼꮑꮅ	-10.6702
ꮔꭺꮻꮝ	-10.6705
ꮒꮸꮑ	-10.6722
ꭺꭿᏻꮧꮝꭹ	-10.6726
ꮃꮻꮞ	-10.6729
ꮩꮅꮸ	-10.6731
ꮎꮎꮫꮑ	-10.6735
ꭰꭼ	-10.6744
ꭲꮿꮝ	-10.6746
ᏼꮂ	-10.6756
ꮟꮃ	-10.6758
ꮧꮸꮒꮧ	-10.6771
ꮵꮓꭾꮝꭼ	-10.6778
ꮵꮝꭶꮎ	-10.6779
ꮵꭺꮅᏸ	-10.6809
ꮝꮥꮈꭿ	-10.6811
ꮧꮷꭺ	-10.6821
ꮈꮙꮣ	-10.6821
ꭴꮺꮕꮝꮧ	-10.6825
ꭴᏸꮈ	-10.6825
ꭴꮕꮑ	-10.684
ꮒꭺꮂ	-10.6846
ꭺꮅᏸꮝꭼ	-10.6853
ꮱꮧꮝꭹ	-10.6853
ꮔꮰꮎꮝꮫ	-10.6864
ꮅꮣꮝꮧ	-10.6883
ꮹꮎ	-10.6895
ꭺꮅᏸꮝ	-10.6895
ꮝꮪꭲꮝꮧ	-10.6912
ꭴꮒᏸꮈꮢ	-10.6917
ꭶꮓꮩꮧ	-10.6921
ꮧꮶ	-10.6922
ᏺꮁꮢ	-10.6925
ꭹꮝꭸꮝꮧ	-10.6929
ꮒꭺꭿ	-10.6937
ꭰꮻꮢ	-10.6946
ꮣꮑꭽ	-10.695
ꮣꮒꮈꭸꮝꮧ	-10.6952
ᏺꮅ	-10.6952
ᏺꮺꮃ	-10.6954
ꭸꮃꮝꮩꮧ	-10.6955
ꮨꮿ	-10.6961
ᏺꮝꮫ	-10.6964
ꭶꮩꭵ	-10.6982
ꭶꮅꮶꮫ	-10.6987
ꭶꮆꮑꮫᏸꮓ	-10.6995
ꮝꭹꮑ	-10.6995
ꭶꮿ	-10.7001
ꭴꮒꮳꮫ	-10.7009
ꭶꮿꮇ	-10.701
ꮔꭺꮸ	-10.7021
ꭴꮔꮼꮝ	-10.7027
ꮕꮟꮩꭿ	-10.7029
ꮳꮎ	-10.7043
ꮻꮝꭹ	-10.7054
ꭴꮇꮴꮈ	-10.7071
ꮅꮝꮩꮤꮕ	-10.708
ꭰꭸᏻꮳ	-10.708
ꭱꭹꮅꮘ	-10.708
ꭱꮒꮎꮿ	-10.708
ꭶꮓꮈꭵꮝꭼ	-10.708
ꮥꭸꭶꮸꮝꮧꮝꭼ	-10.708
ꮷꮹꭻꮤꮕꮢ	-10.708
ꭴꭹꮸꮕ	-10.708
ꭰꮴꮇꭹ	-10.708
ꭴꮒꮝꮖꮒꭺꮢ	-10.708
ꮔꮎꮣꮄꮢ	-10.708
ꭰꮟꮎꮜꮒ	-10.708
ꮤꮇꮳ	-10.708
ꭲꮸꮝꮧᏸ	-10.708
ꭴꮈꮣꮈꭵꮝ	-10.708
ꮣꮥᏺꮂꮝꭸ	-10.708
ꭰꭶꮤꮏꭲ	-10.708
ꭴꭶꮤꮂꮢ	-10.708
ꭴꮥꮅꮢ	-10.7081
ꭼꮹꮆꮧ	-10.7081
ꮷꮺꮕꮢ	-10.7081
ꭳꭶꮫꭶꮕ	-10.7081
ꭴꮳꮤ	-10.7081
ꮝꮣꮹꮥꭹ	-10.7081
ꭰꮻꮝꭹ	-10.7082
ꭵᏻꭹ	-10.7082
ꭼꮻᏻꭿ	-10.7082
ꮔꮹꮑꮄ	-10.7082
ꭰꮒꮝꭶꭲꭾ	-10.7083
ꭴꭼꮻᏻꮞꮝꮧ	-10.7083
ꭰꭹꭼꮻᏻꭿ	-10.7083
ꭰꮒꮿ	-10.7084
ꭲꮵꭶꮩꭵꭿꮝꮧᏹ	-10.7085
ꭸꮳꮝꮣꮹꮧꮩꭿ	-10.7086
ꭼꮺ	-10.7087
ꮢꭶꮤ	-10.7088
ꮼꮑꮧꮝ	-10.7088
ꮆꮫ	-10.709
ꮷꮎꮔꮼ	-10.7093
ꮶꮘ	-10.7096
ꮎꮒꭶꮤꮂꮎ	-10.7096
ꭶᏺꮅ	-10.7098
ꭰꮣꮕꮦꮧ	-10.7101
ꭰꮝꭺꭿꮑ	-10.7102
ꮵꮇꮵ	-10.7103
ꭴꮩꮄꮀꭿꮝꮧ	-10.7104
ꭴꮫꭶꮑ	-10.7105
ꮶꭰꮝꭺꭿ	-10.7106
ꮣꮕꮼꮧ	-10.7117
ꮏꭵ	-10.7119
ꭲꮳꮣꮱꭼ	-10.7123
ꮅꮻ	-10.7133
ꮪꮕ	-10.7135
ꭴꮕꮯ	-10.7136
ꮒꮳꮫꮏꮥꭼ	-10.7138
ꭿᏻꮂꮝꭼꮎ	-10.7139
ꮵꮿꮅꭱꮅꮴ	-10.7142
ꭴꮑꮃꮕꭿᏹ	-10.7143
ꭰꮣꮩꮅꮝꮩꮧ	-10.7147
ꮣꮕꮤ	-10.7149
ꮤꮑꮝꮧ	-10.7159
ꭵꮝꭸꮝꮧ	-10.7169
ꮝꭹꭸᏻ	-10.7171
ꭶꮣꮩꮅꮝꮧꮝꭼ	-10.7172
ꭰꮫꮕꭲꮝ	-10.7172
ꮑꮈꭲ	-10.7173
ꮎꮫꮑꮂ	-10.7175
ꮒᏼꮂꭹ	-10.7176
ꮒꮩꮣᏻ	-10.7179
ꭴꮣꮕꮑ	-10.718
ꭲꮵꮺꮝ	-10.7184
ꭴꭺ	-10.7201
ꭰꮑꭹ	-10.7203
ꭴꮺꮧᏹ	-10.7206
ꮻꮪꮎ	-10.7208
ꮞꭾꮝꮧ	-10.7214
ꮎꮔꭺꮻꮟ	-10.7217
ꭲꭶꮨ	-10.7222
ꭶꮃꮧ	-10.7223
ꭰꭶꮤꭽ	-10.7224
ꭲꮿꭼꮑ	-10.7227
ꭿᏸꮈ	-10.7228
ꮳꮣꮕꮩ	-10.7233
ꮒꮪꮎꮣꮺꮞꮄ	-10.7238
ꭰꮝꮪꮂ	-10.7238
ꮣꮕꮫ	-10.7246
ꮧꮒꮕ	-10.7247
ꮎꮕ	-10.725
ꭴꮴ	-10.7278
ꮵꮒꮵꮺ	-10.7281
ꭼᏼ	-10.73
ꮳꮕ	-10.7302
ꮶꮵ	-10.732
ꭴꭶꮎ	-10.7325
ꭶꮄꮒ	-10.7326
ꮧꮣꮼꮝꮧ	-10.734
ꭼꮻᏻ	-10.7354
ꮄꮕꮂ	-10.7363
ꭴꮒꮓꭾꮈ	-10.7368
ꮜꮎ	-10.738
ꮔꮕ	-10.7388
ꮣꮣꮒꮈꭸꮝꮧ	-10.7403
ꭺꮹꮨꮝꭺ	-10.742
ꭰꮝ	-10.7421
ꮳꮩꮄꮀ	-10.7429
ꭴꮎꮫꭶꮑ	-10.7431
ꮯꮠꮧ	-10.7433
ꭺꮩ	-10.7443
ꮩꮳ	-10.7446
ꮕꮣᏻꮅꮝꮩ	-10.745
ꭴꮝꮫ	-10.7453
ꭰꮣꮫ	-10.7457
ꭴꮇꮴꮄ	-10.7463
ꮓꮑꮅ	-10.7469
ꮪꮼ	-10.7473
ꭺꮞ	-10.7502
ꮅꮝꮣᏼꮂ	-10.7503
ꮒꮲ	-10.7511
ꮎꭶꮫ	-10.7554
ꭸꮵꮑ	-10.7559
ꮝꭹᏺ	-10.756
ꭲꮵᏺ	-10.7564
ꮥꭶꮆ	-10.7583
ꭲꮵꮝꮖꮒꭺ	-10.7586
ꮝꮙ	-10.759
ꭴꭼ	-10.7592
ꭲꮳꮥ	-10.7605
ꮧꮝꭼꮎ	-10.761
ꮣꮘ	-10.762
ꮝꮥꮅꮝꭼ	-10.7629
ꮧꮟ	-10.7649
ꭼꮹꮃ	-10.765
ꭱꮵꮑꮈ	-10.7656
ꮩꮕ	-10.7661
ꭴꮣꭸᏻ	-10.7664
ꮿꮓ	-10.7669
ꮧꭸꭶ	-10.7678
ꭰꮵꮑꮧ	-10.7681
ꮯꮆꮝꮩꮧ	-10.7691
ꮈꮙꮤꮕ	-10.7712
ꭴꮑꮃ	-10.7713
ꭻᏼꭱ	-10.7733
ꮵꮹꮫꮂ	-10.7737
ᏹꮝꭹ	-10.7753
ꮃꮋ	-10.7755
ꮎꮩꮣꮖꮝ	-10.7769
ꮒꮈꭹ	-10.7771
ꮒꭼꮑꮂ	-10.7795
ꮫꮕꭲꮝ	-10.7799
ꭴꮒꮇꮴꮧ	-10.782
ꮸꮝꮩꮧ	-10.7825
ꮪꮈꮻꮝꮣꮑ	-10.7831
ꭰꮢ	-10.7837
ꮥꭶꮕ	-10.7837
ꭲᏻꮹ	-10.7858
ꮎꮔꭺꮻꮝ	-10.7878
ꮩꮣꭶ	-10.7878
ꮷꮥꮨᏼ	-10.7881
ꭹꮕꮟꮫ	-10.7887
ꭴꮣꮕ	-10.7894
ꮷꮣꮄꮕ	-10.79
ꭶꮨꮄ	-10.7924
ꭰꮧꮤꮝ	-10.7945
ꭶꮼꮒ	-10.7947
ꮝꮨ	-10.7949
ꭲꮝꮣ	-10.7957
ꭿꭸᏻ	-10.7963
ꮳꮣꮕꮫ	-10.7968
ꭶꮨᏸ	-10.7973
ꮥꮝꭹ	-10.7977
ꮵꮝꮧᏸ	-10.799
ꭶꮼꮒꮝ	-10.7994
ꭰꮲ	-10.8005
ꭲꮝꮥ	-10.8006
ꭳꮢ	-10.801
ꮣꮒꮈꭲꮝꮧ	-10.8011
ꮻꮿ	-10.8017
ꮇꮸꭽ	-10.8024
ᏹꭼꮹ	-10.8027
ꮵꭺꮹꮨ	-10.8046
ꮎꮑꮂꮎ	-10.8047
ꮑꮯᏼꮫ	-10.8049
ꮒꮼꮒꮝ	-10.8053
ꮒꮠꮧᏹ	-10.8054
ꮴꮺ	-10.8062
ꮠꮅꮉꮕ	-10.808
ꭰꮒꮓꮝꭹꮝꭹ	-10.808
ꮎꮅꮝꮖꮧꮝꭼꮎ	-10.808
ꮴꭶꮃꮿ	-10.808
ꮝꭺꮒꮧꮲ	-10.808
ꭴꮎꮒꭹꮢ	-10.808
ꭴꮧꮹꮢ	-10.808
ꮧꭹꮎꮻ	-10.808
ꭼꭸᏻꭲ	-10.808
ꭼꮹᏺꮁꭿꮝꮧ	-10.808
ꮶꭹꮈꮻꮝꮣꮑ	-10.808
ꭶꮝꭹꮆ	-10.808
ꮒꮳꮅꮝꮤꮕ	-10.8081
ꭷꮒꮅꮿ	-10.8081
ꭱꮙꮒ	-10.8081
ꭰꮪꮈꮧ	-10.8081
ꮧꮒꮹꮎꭶꮃ	-10.8081
ꭴꮼꭿꮸ	-10.8082
ꮷꮩꮲꮕ	-10.8082
ꭳꭶꮴꮅ	-10.8082
ꮻꭸꮵᏺꮅ	-10.8082
ꭴꮒꮇꭿꮝꮧ	-10.8082
ꭴꮓꮝꮫ	-10.8083
ꭰꭹꮇꮵꮈ	-10.8083
ꭳꭶꮳꮕ	-10.8083
ꭶꮼꭵ	-10.8083
ꮔꮒꮂꮎ	-10.8083
ꭳꮒꮧꮲ	-10.8083
ꮝꭹꮝꮣꮹꮪꭶ	-10.8084
ꭰꮔꭶꮈ	-10.8084
ꮷꮒꮑꮯᏼꮝꮧ	-10.8084
ꭲꭼꮺꮕꮫ	-10.8084
ꮦꮈꮧ	-10.8085
ꮽꮿꮕꮂ	-10.8085
ꭴꮒꮓꭾꮄ	-10.8085
ꮤꮅꮷꮘ	-10.8085
ꮼꮃ	-10.8086
ꮪꮒꮕꮞ	-10.8086
ꮫꮫꮕꭹ	-10.8086
ꮅꮟꮎꭿꮝ	-10.8086
ꭴꮼꮪꭿᏻ	-10.8087
ꮣꮣꮆ	-10.8087
ꭰꮒꭶᏼꮅꭸ	-10.8087
ꭸꮄ	-10.8089
ꭰꮓꮝꮫ	-10.809
ꮧꭼꮹꮈꮜꮫ	-10.809
ꭸꭵ	-10.8091
ꮪꭺꭾ	-10.8091
ꭴꮕꮟ	-10.8092
ꭱꮓᏹ	-10.8096
ꮣꮫꮑ	-10.8096
ꮷꮑꮸ	-10.8101
ꭼꮹꮤᏺꮞꮄ	-10.8103
ꭺꮝꮪ	-10.8103
ᏻꮆꮧ	-10.8105
ꭰꭶꮫꮕ	-10.8107
ꭴꮼꭿᏻꮢ	-10.8108
ꮒꮥꭶꮺꮞꮂ	-10.8116
ꭰꮿꮻꮝ	-10.812
ꮳᏺ	-10.8122
ꮷꮽꭺꮩꮧ	-10.8123
ꮎꮵꮎꮭꭵꮎ	-10.8125
ᏺꮵꭶꮤꭽ	-10.8128
ꭰꭹꮎꮻ	-10.8129
ꭰꮿꭵ	-10.8135
ꭰꮬ	-10.8142
ꮥꮵꮒᏼ	-10.8144
ꭰꮒꭶꮣꭽ	-10.8145
ꮒꮜꮑ	-10.815
ꭰꮎꮅꮝꮣᏼꮂꮝꭼ	-10.8159
ꮜꮅ	-10.8171
ꮅꮝꮣᏼꮕ	-10.8174
ꮣꮒꮑꮈ	-10.8176
ꮒꮜ	-10.8189
ꮴꮩꮂ	-10.8196
ꮹꮫꮧ	-10.8196
ꮺꮳ	-10.8205
ᏸꮈꮕ	-10.8207
ꮣꮑꭾꮝꮧ	-10.821
ꮵꮝꮥꮈ	-10.8213
ᏹꮒꭼꮑ	-10.8216
ꮣꮴꮈ	-10.8219
ꮓꭾꮝꭼ	-10.8226
ꭶꮃ	-10.8226
ꭰꮑꮅꮝꭼ	-10.8233
ꮃꮑ	-10.8257
ꮝꮩꭲ	-10.8289
ꮝꮫꮙ	-10.8292
ꭲꭶꮑꮃꮕꭿ	-10.8293
ꮝꮫꮎ	-10.8297
ꮼꭹ	-10.8303
ꮧꮳꮅ	-10.8304
ꮻꮞ	-10.8311
ꭲꮶꭿᏻꭿ	-10.832
ꮑꮯᏼꮝꮧ	-10.8324
ꮣꮄꭹ	-10.8326
ꮽꮒꮆꮢ	-10.8328
ꮝꮣᏼ	-10.8331
ꮄꮒ	-10.8348
ꮵꮪꮈꮻꮝꮣꮑ	-10.8352
ꮤꮕꮎ	-10.8375
ꮓꭾꮝꭹ	-10.8385
ꭲꮵꮂ	-10.8389
ꮥꮈꭹ	-10.8392
ꭲꭸꭼꮑ	-10.8394
ꮆꮢ	-10.8397
ꮈꮻꮝꮣꮑ	-10.8403
ꭶꮩꭵꮢ	-10.8409
ꭴꮓꭾ	-10.8409
ꭲꮷꮥꮨᏼ	-10.8412
ꭶꮅꮝꮣꮧꮝ	-10.842
ꮣꮟ	-10.8429
ꮧꮕ	-10.8429
ᏸꮈꮧ	-10.8437
ꮷꮎꮃꮟꮥ	-10.8439
ꮻꮝꭺ	-10.8453
ꭰꮒꭹꮅᏺ	-10.8479
ꮒꭸꮞ	-10.8486
ꮖꮅ	-10.8507
ꮟꮅᏹ	-10.8508
ꭵꮎ	-10.8509
ꭰꮝꭻꮥꮝꮧ	-10.8518
ᏻꭺꮣꮑ	-10.8527
ꭲꮣꮅ	-10.8528
ꮡꮎ	-10.8539
ꮒꮶꭿᏻ	-10.8544
ꮅꮒꭺꭿꮝ	-10.8565
ꭰꮱꮧꮝ	-10.8572
ᏺꮝꮩꮣꮑ	-10.858
ꮖꮟ	-10.8596
ꭰꮣꮕꮦꮝꭼꭲ	-10.8607
ꭸꮵꮑꮧ	-10.8617
ꭰꭶꮤꭾ	-10.8626
ꭱꮵꮎᏸꮝ	-10.8653
ꭳꭼ	-10.866
ꮨꮓꭾꮈꭹ	-10.8661
ᏺꮝꮧ	-10.8673
ꭴꮲꭼ	-10.8673
ꮴꮃ	-10.8678
ꭶꮤꭾ	-10.8688
ꭴꮎꮅꭲ	-10.8707
ꭶꮩꭵꭿꮝꮧᏹ	-10.8707
ꭴꮑꮅ	-10.8718
ꮕꮣꭼ	-10.8732
ꮣꮫꭹ	-10.8748
ꮎꮔꭺꭲꮝꮧ	-10.875
ꮧꭸꮳ	-10.878
ꭺꮂꭹ	-10.8783
ꭴꮎꮣꮕꮦ	-10.8783
ꭾꮈ	-10.879
ꮳꮇ	-10.8791
ꭼꮢ	-10.8803
ꮫꮕꭲꮝꮣꮑ	-10.8818
ꮩꮀ	-10.884
ꭲꭸꭼꮑꮧ	-10.8856
ꮪꭹꮢ	-10.8865
ꮵꮑꮝꮧ	-10.8885
ꮷꮣꮄ	-10.8896
ꮣꮕꮦꮧ	-10.8899
ꮤᏺꮞꮈꭹ	-10.8906
ꮎꮝꮫ	-10.8911
ꮨᏸ	-10.8917
ᏹꮅꮩ	-10.8918
ꮑꭶ	-10.8937
.	-10.8941
ꮕꮹꮕ	-10.8942
ꮔꮪ	-10.8945
ꮅꮝꮣᏼꮧᏹ	-10.8945
ꭶꮑꮃꮕꭿ	-10.8946
ꭱꮘ	-10.8962
ᏺꮁꮝ	-10.8964
ꮧꮤꮂ	-10.8966
ꭴꮇ	-10.9017
ꮵꮥꮳ	-10.9034
ꮄꮕꮫ	-10.9037
ꮧꭷꮏꮹ	-10.9047
ꭲꮵꮤᏺ	-10.906
ꭲꮸꮑ	-10.9064
ꮣꮩꮅꮝꮧ	-10.909
ꮝꮖꮒꭺꮩ	-10.9094
ꭴᏸ	-10.9095
ꮎꮒꭵꭹ	-10.9102
ꭰꮵꮑꮈ	-10.9104
ꮳꮎꮧ	-10.9117
ꭺꮤꮕ	-10.9118
ꮯꮝꮧ	-10.9119
ꭰꮅꮵꮩ	-10.9121
ꭰꮝꮖ	-10.913
ꮩꮄꮀꮝꭶ	-10.9132
ꭶᏼꮅꭸ	-10.9138
ꭰꮙꭿᏻ	-10.9143
ꭳꮅꮹ	-10.9144
ꭺꮈꮎ	-10.915
ꮈꮙꮩ	-10.9156
ꭸꮵꮿꮕ	-10.9173
ꮌ	-10.9176
ꮁꮝꮧ	-10.9178
ꮣꮒꮈꮴ	-10.9178
ꮥꭺꮲꮹꮧꮢ	-10.9191
ꭲꮿꮛꮑ	-10.9191
ꭼꮝꭶꭲꮝꮣꭹ	-10.9191
ꮕꮷꮅꮝꮩꮤꮑ	-10.9191
ꮣꮎꮥᏺꮂꮝꭼ	-10.9191
ꮳꮓꮞꮀꭲ	-10.9191
ꭰꮅꮟꮎꭿꮝꮩꮧ	-10.9191
ꮠꭳꮑꮃ	-10.9191
ᏹꮵꭺꮅᏸꭳ	-10.9191
ꮨꮏꮻꮫ	-10.9191
ꮧꭷꮈꭼ	-10.9191
ꮪꮺᏺꮑ	-10.9191
ꭰꮩꮄꮀꭿꮝꮩꮧ	-10.9191
ꮷꮼꮈ	-10.9191
ꮒꭶꮵᏼꮑꮈ	-10.9191
ꮽꮒᏼꮄ	-10.9191
ꭴꮅꮝꮪꭲ	-10.9191
ꮶꮣꮈ	-10.9191
ꮧꮗꮵ	-10.9192
ꭴꮾꮤꮕ	-10.9192
ꮷꮑꮏꭲ	-10.9192
ꮗꮧꮒᏹ	-10.9192
ꮧꭶꮅꭰꮕ	-10.9192
ꮔꮹꮑꮀ	-10.9192
ꮥꮵꮑꮴ	-10.9192
ꮧꮵꭶᏼꮅꭸ	-10.9192
ꭵꮳᏹ	-10.9193
ꮣꮺꮃꭹꮝ	-10.9193
ꮥꮵꭷꮏꮹꮧꮩ	-10.9193
ꭴꮑꮩꮈ	-10.9193
ꮩꮫꮎꮄ	-10.9193
ꭴꮼꮒꮢ	-10.9193
ꭱꮵᏺꮅꮈ	-10.9193
ꭰꮣꭿꭿ	-10.9193
ꭴꮑꭲꮝꮤꮕ	-10.9194
ꮠꮣꮋ	-10.9194
ꮩꮧꮳꮣꮕꮫ	-10.9195
ꭰꭼꭽꮈꮫ	-10.9196
ꮷꮎꮔꭺꮻꮞꮧ	-10.9197
ꭴꮣꮩꮅꮝꮤꮑ	-10.9198
ꮪꮎꮑꮆꮫ	-10.9198
ꭴꭹꮅᏺꮸ	-10.9198
ꭲꮳꮅꭾꮅꭸꮝꮧ	-10.9199
ꮣꮎꮅꮝꮣᏼꮂꮝꭼ	-10.92
ꮲꮣꮵ	-10.92
ꭴꮓꭿᏻꮧᏹ	-10.92
ꭴꮒꭶꮩꭵꮢ	-10.92
ꮈꮙꮤꮒ	-10.9202
ꮧꭼꮹꮣꮒꮈꭲꮝꮧ	-10.9203
ꮥꮳꮣꮒꮈꮸ	-10.9207
ꭰꮒꮓꭾꮝꭹ	-10.9208
ꭴꮺꮅꮞ	-10.9208
ᏺꮁꮞꮈ	-10.9209
ꭷꮑꮙ	-10.921
ꮔꮅꮝꮣꮑꮈ	-10.9211
ꮘꮅꮟ	-10.9211
ꭰꭶꮤꭿᏻ	-10.9211
ꭰꮒꮓꭿ	-10.9212
ꭽꮣꮕꮦꮝꭼ	-10.9212
ꭷꮂꮝ	-10.9213
ꭴꮥꮢ	-10.9214
ꭰꮵꮈꭸꮃꮝꮧ	-10.9215
ꭴᏸꮈꮞ	-10.9217
ꭴꮱꮧꮝꭹ	-10.9218
ꮥꭷꮑꮴ	-10.9218
ꭰꮖꮣꮕꮫ	-10.9225
ꭰꮅꮝꭺꮈꮩꮧ	-10.9226
ꭲꮳꮣꮕꮦ	-10.9226
ꭸꭶꭻᏼꭱ	-10.9229
ꮴꮿꮩꮴ	-10.923
ꭴꭹꮅᏺꭲꮝꮧ	-10.923
ꮅꮝꮣᏼꮩꮧ	-10.9231
ꮥꭶꮝꭹꮈ	-10.9231
ꭴꮺꮑ	-10.9233
ꮎꮕꮑ	-10.9236
ꮳꮑꭾ	-10.9238
ꭳꮅꮹᏺ	-10.9241
ꭴꭹꮅ	-10.9242
ꮅꮢ	-10.9244
ꭴꭸᏻꭿᏻ	-10.9244
ꮥꭶꮔꭺꮻꮝ	-10.9246
ꭴꮣꮤꮕꭿ	-10.925
ꮳꭶꮈ	-10.9257
ꮝꮥꮈꮂ	-10.9258
ꮦꮃ	-10.926
ꭲꮳꮧꮤꮝ	-10.9263
ꭰꮣꮩꮅꮝꮣꮑ	-10.9263
ꮴꮩ	-10.9265
ꭲꮧꭼꮑ	-10.9265
ᏹꮕꮹꮝꮧ	-10.9266
ꮩᏹ	-10.9268
ꮥꮝꮧꮝꭹ	-10.9269
ꮫꮩꮧ	-10.9272
ꮔꭺꮹ	-10.9272
ꭲꮳꮩꮄꮀꭿ	-10.9287
ꭲꮳꮣꮩꮅꮝꮧꮝꭼ	-10.9288
ꭲᏻꮕ	-10.9288
ꮎꮩꮄꮀ	-10.929
ꭰꮣꮻ	-10.929
ꭿꮧᏻ	-10.9297
ꮉꭶ	-10.9304
ꮟꮩ	-10.931
ꮻꮔ	-10.931
ꮧꮤꮝꮧ	-10.9327
ꮩꮄꮀꮢ	-10.9345
ꭲꮿꮵꮈꮙ	-10.935
ꮣꭼꮎ	-10.9355
ꭶꮅꮙꭹꮑ	-10.9363
ꭱꮈꭹ	-10.9366
ꭴꮎꮥꮕ	-10.937
ꮎꮣꮩꮅꮝꮣꮑ	-10.9371
ꮧꮕꮧ	-10.9376
ꭴꮄꮑ	-10.9377
ꭶꮎꮔꭺꮻꮝ	-10.9379
ꮳꮪꮅꮝꭺ	-10.9382
ꮯᏼ	-10.9387
ꮣꮑꮀ	-10.9389
ꭷꮈ	-10.9396
ꭲꮳꮣꮕꮫ	-10.9404
ꮡᏼ	-10.9409
ꮒꭼꮹ	-10.9411
ꭶꮑꮅ	-10.9416
ꮼꮒꭿꮝꮧ	-10.9425
ꮩꭼ	-10.9427
ꭱꮝꭶꮒ	-10.9435
ꭴꮤꮕ	-10.944
ꮷᏺ	-10.9446
ꮒꭶꮅꮝꮧꮝꭺ	-10.9459
ꮫꭶꮑ	-10.9462
ꭲꮳꮅꭾꮅ	-10.9464
ꭴꮎꮑꮃ	-10.9475
ꮫꮣꮄꮂꮝ	-10.9493
ꮵꮸ	-10.9501
ꮷꮣꮄꮕꮂ	-10.951
ꭶꭻᏼꮣꮑꮧ	-10.952
ꮳᏸꮈꮕ	-10.9522
ꮵꭸꮵ	-10.9523
ꭲꮵꭶꮤꮂ	-10.9538
ꮿꮕꮧ	-10.9544
ꭺꮹꮫ	-10.9544
ꭲꮧꮝꮣ	-10.956
ꭶꮪꭲ	-10.9567
ꭱꮅꭹ	-10.9573
ꭴꮹꮫꮧ	-10.96
ꮧꭶꮣꭽ	-10.9606
ꮎꮫꭶ	-10.9608
ꮣꮕꮣꮧꮝꮧ	-10.9612
ꮔꮳ	-10.9614
ꭴꮼꮲ	-10.9614
ꭰꮒꮓꭾ	-10.9624
ᏺꮅꮈ	-10.9626
ꭴꮼꭿᏻ	-10.9637
ꮳꮕꮣꮧꮝ	-10.9639
ꮝꮪꭲꮢ	-10.9641
ꭰꮑꮩ	-10.9642
ꭼꮼꭿᏻ	-10.9651
ꭼꮝꭶ	-10.9668
ꭴꮒᏺꮄ	-10.9669
ꮝꮘ	-10.9671
ꮈꮙꮥꮝꮧ	-10.9694
ꮣꮩꮅꮝꮧꮝꭼ	-10.9696
ꮵꮑꮅ	-10.9701
ᏻꮺ	-10.9702
ꮡᏸꮢ	-10.9703
ꮺꮞ	-10.9713
ꮢꮒꮈ	-10.9726
ꭶᏺꭶ	-10.973
ꭴꮎꮣꮫ	-10.9732
ꭴꮎꮫꭶꮕꭹ	-10.9738
ꭴꮒᏸꮈꮕ	-10.9742
ꮝꮧꮝꭺ	-10.9744
ꮩꭹꮿ	-10.9765
ꭰꮝꮣᏹꮧꮝ	-10.9766
ꮔꮫ	-10.9766
ꮺꮢ	-10.977
ꮅꮝꮤꮑ	-10.9776
ꭰꭹꮇꮴ	-10.9778
ꭴꮑꮈ	-10.978
ꮵꮇꭹ	-10.9781
ꮒꮪꮕ	-10.9812
ꭲᏻꮣ	-10.9814
ꭲꮸꮓꮑꮈ	-10.9828
ꮎꮄꮕ	-10.9846
ᏹꮩꭼ	-10.9846
ꮸꭶ	-10.9849
ꮰꭰ	-10.9849
ꮰꮸ	-10.9858
ꮲꮕ	-10.9871
ꭰꮒꮇ	-10.9895
ꮵꭴꮝꮥꮞ	-10.9895
ꭾꭿ	-10.9897
ꮧꭻꭺ	-10.99
ꮕꭹꮑ	-10.9917
ꭰꮵꮓꭾ	-10.9949
ꭰᏼꮙ	-10.9959
ꮇꮆ	-10.9972
ꮵꮺ	-10.9982
ꭰᏺ	-11.001
ꮧꮝꭸ	-11.0014
ꮆꭲ	-11.0015
ꭶꮎꮝ	-11.0039
ꮅꮒꭺꭿꮝꮧ	-11.0047
ꭴꮒꮓꭾꮧ	-11.0048
ꭽꮄ	-11.0055
ꮒꮧꮳ	-11.0067
ꭲꮸᏸꮃꮧꮩ	-11.0068
ꮺꮞꮅ	-11.007
ꮫꮫꮂꮝ	-11.0071
ꭿꭰꮙ	-11.0093
ꭴꮝꮖꮈꭿꮧ	-11.013
ꭰꭹᏺ	-11.0149
ꭱꮳꭻᏼ	-11.0153
ꮝꭶꮕꮴ	-11.0163
ꮴꮅꮫ	-11.0179
ꮨꮒ	-11.0182
ꮃꮝꮣ	-11.0186
ꮣꮝꮥꮈꮧ	-11.0203
ꮩꮣꮵ	-11.0217
ꭸꮵꮓꭾꮝ	-11.0224
ꮧꮒᏹ	-11.0225
ꮒꮳꮅꮝꮣꮑ	-11.0226
ꭼꮼꮞ	-11.0227
ꮣᏸꮵ	-11.0235
ꮻꮩ	-11.0245
ꭲꮿꭼꮑꮧ	-11.0254
ꮕꮣꮥ	-11.0254
ꮵᏼꭹ	-11.0254
ꮧꮒꮝꭺ	-11.0264
ꭼꮹᏺ	-11.0267
ꮵꮓꭾ	-11.0293
ꮡꮅ	-11.031
ꮥꮳꮈꮻꮝꮣꮑ	-11.0314
ꮥꮵꮩ	-11.0329
ꮣꮑꮧᏹ	-11.0338
ꭰꭷꮅ	-11.0345
ꭰꮅꮝꮣᏼꮂꮝ	-11.0348
ꭶꮆꭿꮝꮧ	-11.0352
ꮅꮵꮩꮑꮈ	-11.0374
ꭳꭶꮪꮅ	-11.0382
ꮥꮆꮖ	-11.0382
ꮪꮒᏺ	-11.0384
ꭽꮣꮕ	-11.0388
ꮇꮵꮈ	-11.0392
ꮩꮃꮕꮝꮧ	-11.0392
ꭶꮅꮝꮩꮧꭽ	-11.04
ꮝꮣꮿ	-11.0403
ꭴꮒꭼꭵꮝ	-11.0407
ꮅꮒꭼꭼ	-11.0412
ꭼꮤᏺꮞ	-11.0413
ꮪꮣꮥꮻꮢ	-11.0416
ꮑꮩꮂ	-11.0419
ꭶꮜꮿꮝꮧꮥꭹ	-11.0422
ꭷꮏꮹꮧꮩꭾ	-11.0424
ꭴꮒꮓꮑ	-11.0427
ꮳꮎꮻ	-11.0433
ꮣꮒꮔꮩꭼ	-11.0441
ꮪꮣꮨꮏꭵ	-11.0441
'	-11.0441
ꭴꮣꮩꮅꮳꮫ	-11.0441
ꮎꮛꮑꮈ	-11.0441
ꮔꮼꭿᏻꮢꮎ	-11.0441
ꮣꮅꮝꮧꮃꮑꭼ	-11.0441
ꮥꮟꮆꮒꭶ	-11.0441
ꮷꭶꮢꮝꮧ	-11.0441
ꮷꮑꮲꮤꮕ	-11.0441
ꮣꭷꮏꮹꮥ	-11.0441
ꮧꭸꭻꭺꮣꮑꮧ	-11.0441
ꮷꮼꮪꭿ	-11.0441
ꭰꮒꭺꮧᏻ	-11.0441
ꮧꮶꮺꮅꮝꭹ	-11.0441
ꭴꮎꮣꮯꮜꮕ	-11.0441
ꮥꭶꮼꮑꮧꮝꭼ	-11.0441
ꭸꮵꮕꮢꭿ	-11.0441
ꭲꮳꮯꮒꭼꮑ	-11.0441
ꮎꭼꮑꮄ	-11.0441
ꮪꮼꮑꮤꮕ	-11.0441
ꭼꮣꭸꮒ	-11.0441
ꮳꭶꮡ	-11.0441
ꭴꮑꮇꭼ	-11.0441
ꭴꮔꮹꭵ	-11.0441
ꮦꮖꮆ	-11.0441
ꮧꮵꭷꮏꮹꮫꮝꮧ	-11.0442
ꮻꮵᏺꮅ	-11.0442
ꮩꮫꮎꮣ	-11.0442
ꮳꮣᏺꮑꮈ	-11.0442
ꭰꮝꮖꮈꮂ	-11.0443
ꭰꮵꮕꮹꮕ	-11.0443
ꭰꮗꮅꮢ	-11.0443
ꭹᏺꮁꮢꭿ	-11.0444
ꭴꮎꮣꮩꮅꮝꮣꮑꮈ	-11.0444
ꮷꮒꭶᏼꮅꭸ	-11.0444
ꭴꮝꮧꭹꮫ	-11.0444
ꭴꮺꮩꮄ	-11.0445
ꭲꮳꮫꮕꭲꮝ	-11.0445
ꮪꮹꮒꭶꮈ	-11.0445
ꭴꮎꮔꭺꮵꮈ	-11.0446
ꭰꭻᏼꮧ	-11.0446
ꮎꮧꮕꮞ	-11.0446
ꭰꮒꮝꭶꭲꮂ	-11.0447
ꭴꮒꮈꮙꮤꮑ	-11.0447
ꮻꭶꮇꭹ	-11.0448
ꭴꮺꭷꮕ	-11.0448
ꮴꮅꭺ	-11.0449
ꮅꮜꮃꮣꮕ	-11.0449
ꭲꮵꮇꮴꮈ	-11.0451
ꭼꮹꭺꭾ	-11.0452
ꭴꮑꮕꮢꭹ	-11.0452
ꭴꮒᏼꮈ	-11.0452
ꭰꭹꮗꮣꮈ	-11.0453
ꭺꮅꮒꮧ	-11.0453
ꭲꮵꮇꮴꮧ	-11.0453
ꭴꮒꮪꮂ	-11.0454
ꮸꮇꮴꮅ	-11.0454
ꮩꮣꮖꮫ	-11.0455
ꭲꮸꮧꮝꭼ	-11.0457
ꭰꮙꭿᏻꮂꮝ	-11.046
ꭲꭶꮅꮝꮩꮧᏹ	-11.0462
ꭴꮎꮔꭺꮸ	-11.0464
ꮳꮝꭶꮕꮸ	-11.0464
ꮈꮓꮨ	-11.0466
ꭼꮑꮝꮧ	-11.0466
ꭲꮫꮧꮝꭼ	-11.0466
ꭰꮵꮕꮟꮫ	-11.0467
ꭴꮝꮖꮒꭺꮞ	-11.0467
ꭴꮎꮅꭾꮅꮴ	-11.0467
ꭼꮝꭺꮈꮑ	-11.0468
ꭴꮆꮞ	-11.047
ꮷꮎꮣꮅ	-11.0472
ꮎꮖꮝꮫ	-11.0472
ꭷꮓꮧ	-11.0473
ꮈꮻꮝꮣꮑꮧ	-11.0474
ꭴꮝꮖꮒꭺꮫ	-11.0475
ꭶꮪꭲꮧꮲ	-11.0478
ꮒꮳꮤ	-11.0482
ꮵꮑꭲꮝꮧ	-11.0483
ꭰꮒꭺꮹꮨꮝꭼ	-11.0485
ꮧꭹꮈꮻꮝꮣꮑꮧ	-11.0485
ᏼꮅꮈ	-11.0486
ꮰꭰꮟ	-11.049
ꭴꮪꮣꮄ	-11.049
ꮥꭴꮈꮻꮝꮣꮑꮂ	-11.0491
ꭰꮒᏼꭿ	-11.0495
ꮶꮟ	-11.0498
ꮈꮝꮧᏹ	-11.0499
ꭴꮒꮳꮦꮝꮧ	-11.0499
ꮎꮝꭶꭲꮂꮎ	-11.0503
ꮧꮄ	-11.0504
ꮥꭼꮧꮝꭼ	-11.0505
ᏹꮒꭼꮹ	-11.0507
ꮀꮅ	-11.0509
ꭻꮣꮄꮝ	-11.0512
ꭴꮒꮤꮃꮼ	-11.0517
ꭰꮒꮓꭾꮝꭼ	-11.052
ꮷꮔꮼ	-11.0521
ꭴꮝꮣꮹꮫꮞ	-11.0528
ꭲꮳꮅꭾꮅꭼ	-11.0529
ꭶꮔꭺꭼ	-11.0529
ꭶꮈꮃꮧꮲ	-11.0535
ꮵꭹꮅᏺꭼ	-11.0536
ꮥꮵꭸᏻ	-11.0537
ꭰꮒꮶꭲ	-11.0542
ꮉꮣ	-11.0547
ꮢꭶꮈ	-11.0556
ꭲꮳꮫꭺꮧ	-11.0557
ꮪꭲꮝꮣꮑꮄ	-11.0563
ꮎꮎꮫꮑꮀ	-11.0565
ꮂꮝꭼꮎ	-11.0566
ꭲꭹᏸꮈ	-11.0575
ꭶꮑꮯᏼꮝꮧ	-11.0581
ꮡᏸꮝꮧ	-11.0582
ꮃꮡꮆ	-11.0589
ꭲꮳꮫꮣꮝꮣ	-11.0593
ꮔꮕꮑꮄ	-11.0593
ꮎꮖꮅꮝꮣꮑꮈ	-11.0599
ꮷꮣꮄꮑ	-11.0599
ꮻꮵꮇꮸ	-11.0611
ꭾꮅ	-11.0612
ꭼꮑꮴ	-11.0614
ꮟꮤꮧꮝ	-11.0619
ꭵꮝꭼ	-11.062
ꭴꮳꮕ	-11.0624
ꮒꮿ	-11.0625
ꮓꮝꭹꮢ	-11.0632
ꭴꮒꭺꮂꭿ	-11.0633
ꭱꮀ	-11.0642
ꮣꮕꭶꮈ	-11.0664
ꮝꮣꮑꮧ	-11.0667
ꮧꮑꭿ	-11.0669
ꭶꮵᏺ	-11.0677
ꮵꮵꮿ	-11.0677
ꮹꮝꮧ	-11.0683
ꮖꮣꮄꮕ	-11.0685
ꮧꮳꭷ	-11.0689
ꭲꮳꮪꮅꮝꭼ	-11.0689
ꮥꮴ	-11.0692
ꮫꮑꮂ	-11.0693
ꭰꮙᏸ	-11.0697
ꮸꮫ	-11.0703
ꮃꮝꮤꮑ	-11.0704
ꭶꮅꮝꮩ	-11.0707
ꮾꮫ	-11.0718
ꮹꭶꮫ	-11.0718
ꮅᏹꮆꭿꮝꮧ	-11.0725
ꭶꮑꮯᏼ	-11.0728
ꮏꮫꮑ	-11.0735
ꭶꮒ	-11.0739
ꮝꮥꮈꭿꮩ	-11.0743
ꭱꮵꮑꮧ	-11.0755
ꮩꮫꮒ	-11.0781
ꭴꮒꮈ	-11.0782
ꮝꮧꮝꭼ	-11.0796
ꮅꮩꮈ	-11.0798
ꭱꮵꮈꮙ	-11.0798
ꭱꮵꮿꮕ	-11.0805
ꮑꮳ	-11.0817
ꮣꮿ	-11.0817
ꭶꮤꭿ	-11.0831
ꭴꮑꭲꮝꮧ	-11.0835
ꮒꮄ	-11.0835
ꮫꮑꭿ	-11.0841
ꭰꮝꭺꭿꮓ	-11.0841
ꭲꮳꮅꮝꮣᏼꮧ	-11.0849
ꮷꮺᏺ	-11.0849
ꭸᏻꮢ	-11.085
ꮟꮝꭹ	-11.085
ꮜꮄ	-11.086
ꮕꮩꮧ	-11.086
ꭶꮤꮎꭵ	-11.0862
ꮷꮝꮧ	-11.0866
ꭰꮝꮫ	-11.0878
ꮪꮅꮝꭸ	-11.0892
ꮪꮒꮈꮻꮝꮣꮑꭾ	-11.0914
ꮕꮫꮎ	-11.0919
ꮝꮧꮝꭸꭲ	-11.0935
ꭺꭾ	-11.0936
ꭸꮟ	-11.0964
ꭰꮎꮅꭾꮅꭸ	-11.0968
ꮕꮣꮧꮝꮧ	-11.0974
ꮩꮣꮈ	-11.1
ꮟᏻ	-11.1025
ꮣꮱꮧ	-11.1037
ꮣꮕꮟ	-11.1042
ꭴꮼꭿᏻꮕ	-11.1045
ꭴꮎꮣꮕꮦꮈ	-11.1049
ꭴꮝꭶ	-11.1055
ꮳꭲꮞ	-11.1067
ꮣꮅꮣꮝꮧ	-11.1087
ꮤᏺꭿꮂ	-11.1094
ꮅꮝꮤꮕ	-11.1105
ꭼꮹꭺꮹꮫ	-11.1107
ꭻꭺꮣ	-11.1118
ꮪꮂ	-11.1119
ꮓꭾꮈꭹ	-11.1125
ᏸꮈꮞ	-11.1131
ꭴꮣꮡ	-11.1134
ꭶꮵᏼꮑ	-11.114
ꭺꮧ	-11.1156
ꮒꭶꮺꮞ	-11.1157
ꮵᏻꭿꮓ	-11.1165
ꮝꮖꮒꭺꮫ	-11.1165
ꭶꮕꭸ	-11.1167
ꮆꮠꮕ	-11.1169
ꭲꮸᏺꮺꮃ	-11.1173
ꮸꭽ	-11.1185
ꮧꮵꮑꮯᏼ	-11.1189
ꮂꮝꭼ	-11.1192
ꮣꮒᏼꭸ	-11.1202
ꮷꮃ	-11.1215
ꭶꮫꭲ	-11.1215
ꮨꮓꮈ	-11.1218
ꮝꮣꮑꭿ	-11.1221
ᏹꮖ	-11.1223
ᏼꮲ	-11.1225
ꭲꮸꮓꮑ	-11.1239
ꮩꭿᏻ	-11.124
ꭷꮑꭲꮝꮧꮝꭸ	-11.1246
ꮒꮧꭸ	-11.1263
ꮵꮝꮣ	-11.1268
ꭰꮎꮅꭾꮅ	-11.1269
ꮄꮒꮩꮂ	-11.1269
ꭷꮎ	-11.1274
ꮧꭷꮓꭹꮝ	-11.1279
ꮓꭾꮧ	-11.1319
ꮕꮫꮕ	-11.1331
ꮔꭺꮻꮞ	-11.1353
ꮎꮣꮃ	-11.1353
ꭴꮅꭾꮅꮴ	-11.1378
ꭴꮒꭺꮹꮫꮧ	-11.139
ꮵꮇ	-11.139
ꮤꮈ	-11.1407
ꭲꮵꮑꮧ	-11.143
ꭴꭸᏻ	-11.1431
ꭼꭹꮇꮴ	-11.1435
ꮈꮩꮧ	-11.1446
ꭱꮵꮝꮥꮈꮧ	-11.1447
ꮒꭺꭾ	-11.1453
ꭾꭾꮈ	-11.1465
ꭲꭶꮈꮙꮧ	-11.1526
ꮒꮢ	-11.1527
ꮳꮣꮄꮕ	-11.1546
ꮪꮔꮹꭵ	-11.1584
ꮒꮪꮎꮣꮺꮞ	-11.162
ꮕꮣᏸ	-11.1644
ꮇꮟ	-11.1646
ꭴꮗꮣꮅꮙ	-11.1647
ꮆꮤꮕꭿ	-11.1654
ꮣꮄꮒꮩ	-11.1658
ꮝꭹꭺꮹꮨꮝ	-11.1664
ꮶꮸ	-11.1669
ꭱꮃꮺᏹ	-11.1687
ꭴꮒꮂ	-11.169
ꮵꮒꭶꮅꮝꮧ	-11.1693
ꮒꭸꮵꮺꮞ	-11.1697
ꮴꮧᏹ	-11.171
ꮅꮝꮥꮈ	-11.1712
ꭴꮕꮕ	-11.1721
ꭶᏸꮵꮠꮲ	-11.1746
ꮴꮏ	-11.1756
ꮷꮎꮔꭺꮻ	-11.1765
ꮅꮝꭶꮝꮩꮧ	-11.1767
ꮩꮄꮀꮞ	-11.177
ꮩꭹꮈꮻꮝꮣꮑ	-11.1773
ꭰꮖꮫꭶꮕ	-11.1789
ꭰꮹꮫ	-11.1789
ꭺꮅꮝꮧ	-11.1791
ꮵꭶꮤꭾ	-11.1803
ꮪꮣꮄꮝ	-11.1805
ꮓꭾꮈ	-11.1811
ꭺꮺꮄ	-11.1824
ꮪꮺꭷ	-11.1824
ꭼꮼꮅ	-11.1826
ꮎꮫꮑꮀ	-11.1827
ꮫꮑꮅꮣꮝꮧ	-11.1829
ꮅꮣꮝꮤꮕ	-11.1832
ꮧꮒꭷꮏꮹ	-11.1842
ꭺꭿᏻꮂꮝ	-11.1846
ꮑꮝꭸꮂ	-11.1847
ꭱꮃ	-11.1851
ꭶꮇꭺ	-11.1851
ꮒꮜꮫ	-11.1854
ꮪꮑꮈ	-11.1855
ꭴᏺꮄ	-11.1855
ꮼꮑꮩꮧ	-11.1861
ꮞꭺꭹꮢ	-11.1862
ꮃꮧꮣꮝꮧᏹ	-11.1865
ꮣꮈꮫ	-11.1868
ꭰꮒꭶꮤꮎꭲ	-11.187
ꭱꮩꮩᏹ	-11.187
ꭼꭽꮇᏸ	-11.187
ꮣꮣꮑꮃꮧꮢ	-11.187
ꭴꮤᏺꮄ	-11.187
ꭴꮼꮿꮑꮢ	-11.187
ꮄꭳꮧꮟ	-11.187
ꮒꮶꮅꭼꮎ	-11.187
ꮧꮖꮃꮟꮥꮒ	-11.187
ꮪꮟꮤꮫ	-11.187
ꮷꭶꮎꮾ	-11.187
ꭰꮅꮝꭶꮑꮫ	-11.187
ꭰꮛꮤꮕ	-11.187
ꭲꮸꮑꭲꮝꮧꮝꭼ	-11.187
ꭴꮣꮩꮅꮳꮨ	-11.187
ꭴꮴꮇꭿ	-11.187
ꭷꮕꮡꮈ	-11.187
ꮥꭶꮈꮻꮝꮣꮑꮈ	-11.187
ꮥꭶꮓꮳꮈ	-11.187
ꭴꮧꮫꭾ	-11.187
ꮧꮔꭺꮧꮝꭹ	-11.187
ꮪꮫꮫꮑ	-11.187
ꭰꭶꮝꭶꮒ	-11.187
ꭴꮎꮸꮞ	-11.187
ꭴꮺꮠꮕᏼ	-11.187
ꭳꮹꮢ	-11.187
ꮥꮿꮤꮑ	-11.187
ꭴꮧꮧꮲ	-11.187
ꭴꮑꮇꮑ	-11.187
ꭷꭿꮿꮝꮧ	-11.187
ꮎꮑꮝꭸꮝ	-11.187
ꮥꮕꮩꭵ	-11.187
ꮀꮺꮈ	-11.187
ꭴꮎꮅꮦꮈꮕ	-11.187
ꮵꮝꭺᏼ	-11.187
ꮷꮑꮅꮑ	-11.187
ꭰꮠᏼ	-11.187
ꮫꮠꮕꭿ	-11.187
ꭲꮸꮓꭾꭾꮈ	-11.1871
ꮷꮎꭹꮈ	-11.1871
ꮷꮒꭷꮏꮹꮫꮝꮧ	-11.1871
ꭰꮳꮺꮠꮈꮝꮩꮧ	-11.1871
ꭰꮎꮣꮩꮅꮝꮧꮝꭼ	-11.1871
ꭰꮒꮈꮙꮧꮝꭸ	-11.1871
ꮑꮝꭸꭾ	-11.1871
ꮧꮣꮒꮠꮧᏹ	-11.1872
ꭴꮢꮒꮄ	-11.1872
ꮔꮣꮡᏼ	-11.1872
ꭲꭸꮳꮫꮑꮧ	-11.1872
ꮪꮏꮝꮥꮲ	-11.1872
ꭴꮎꮣꮡᏸꮫ	-11.1872
ꭰꮪꮣꮄꮝꮧ	-11.1872
ꭴꮒꮝꭶꮄ	-11.1872
ꮔꮺꮂꮎ	-11.1873
ꭴꮒꭹꮞ	-11.1873
ꮥꮿꮩꮤꮕꭹ	-11.1873
ꭴꮣꮰꮝ	-11.1873
ꮧꭸꮵᏸ	-11.1874
ꮪꮒᏺꮁꮢ	-11.1875
ꭴꮒꮅꮕꮸ	-11.1875
ꭰꭹꮕꮟꮩꭿ	-11.1875
ꮡꮥꮨᏼꮫ	-11.1876
ꭰᏸꮩꮃꮫ	-11.1876
ꮪꮒꮒᏼꭾ	-11.1876
ꭴꮎꮔꭺꮻꮝꮧ	-11.1876
ꮒꮳꮣꭸᏻꮢ	-11.1876
ꭶꮎꮔꭺꮵꮈ	-11.1876
ꮆꮑꮫ	-11.1876
ꭴꮒꮕꮕ	-11.1876
ꮳꮑꮲꮤꮕ	-11.1877
ꭲꮳꮔꮼꮝ	-11.1877
ꮷꮥᏺ	-11.1877
ᏻꮓꮅꮴ	-11.1877
ꭴꮏꮈ	-11.1878
ꮵꮸᏸꮃꮧꮩ	-11.1878
ꭴꮎꮣꮕꮞ	-11.1878
ꮣꭹꭺꮂ	-11.1879
ꮪꮎꮄꮕ	-11.188
ꮧꮥꮆꮖꮝ	-11.1881
ꮝꭹꮿꮕꮣꮧꮝ	-11.1881
ꮻꭸꮵꮿꮕ	-11.1883
ꭴꮎꮮ	-11.1883
ꮜꮿꮒ	-11.1883
ꭰꮒꭶᏺꮅ	-11.1883
ꮧꮝꭹꭷꮑ	-11.1883
ꭴꮣꮕꮝꮧᏹ	-11.1883
ꭴꮎꮳꮕ	-11.1884
ꮧꮳꮨꮒꮩ	-11.1884
ꮟꮠꮧ	-11.1885
ꮃꮕꭹ	-11.1885
ꭰꮣꭸꮧ	-11.1885
ꭹꮕꮝꮤꮕ	-11.1886
ꮪꮒꭷꮑ	-11.1886
ꭰꮔꭿꮝꮧꮝꭼ	-11.1886
ꮔꮎꮅꮝꮣꮑꮈ	-11.1887
ꮥꭺꮲꮢ	-11.1888
ꭴꮒꭺꮑ	-11.1888
ꮎꮒꮝꭶꮕꮎ	-11.1889
ꭱꮆꮧ	-11.1889
ꭰꭹꮝꮫꮧꮝꭼ	-11.1891
ꭰꮊ	-11.1891
ꭸꭺꮞ	-11.1893
ꮧꮳꮃꮟꮥꮒ	-11.1894
ꮅꮒꭹꮧᏻ	-11.1894
ꮝꭹᏸꮅꮞ	-11.1895
ꭴꮺꮕꮢꭹ	-11.1895
ꮣꮝꭻꮣꮫ	-11.1895
ꭴꮣꮕꮣꮫ	-11.1897
ꭰꮒꮩꮎꭱ	-11.1898
ꮣꮣᏹ	-11.1899
ꭴꮒꮹꮫꭾ	-11.1899
ꭴꮧꮤꮝꮧ	-11.1899
ꮷꮪꭺ	-11.1902
ꮧꮵᏺꭿ	-11.1902
ꮵꮒᏼ	-11.1903
ꭰꮝꮖꮒꭺꮧꮝ	-11.1904
ꮒꮵꮺꮝ	-11.1905
ꭰꮒꭶꮤꭾ	-11.1907
ꭰꭹꭹꭼ	-11.1908
ꭴꮝꭶꮴ	-11.1909
ꮪꮎꮣꮕ	-11.191
ꮧꮹꮎꭶꮃ	-11.1913
ꮧꭶꮫꭿ	-11.1915
ꮣᏺꮳ	-11.1915
ꮑꮸꮑꮈ	-11.1916
ꮡꮣꮅꮑ	-11.1916
ꭰꮣꮺꮅꭹꮝꭼ	-11.1917
ꭰꮴꮝꮩ	-11.1919
ꭰꮅꮵꮩꮂꮝꭼ	-11.1924
ꭳꭹꮩꮣ	-11.1924
ꮹꮎꭶꮃ	-11.1925
ꮧꮶꮈ	-11.1925
ꭴꮅꮝꮣᏼꮧ	-11.1926
ꮅꮆꮂꮝ	-11.1926
ꭴꮑꮙꮴ	-11.1929
ꮜꮪ	-11.1933
ꭳꭹꭺꮂ	-11.194
ꭰꮒꮘ	-11.1941
ꭴꮓᏼꭼ	-11.1942
ꭶꮑꮵ	-11.1943
ꭷꮑꮙꭸ	-11.195
ꭻꮄ	-11.1952
ꮒꮪꮒꮺꮞꮄ	-11.1958
ꮺꮅꮞ	-11.1958
ꮥꭼꮹꮒ	-11.1959
ꮵꮳꮫꭹ	-11.1961
ꭼꮹꮤᏺꮞꮈꭹ	-11.1962
ꮵꮑꭲꮝꮧꮝꭼ	-11.1965
ꭲꮳꮣꮕꮦꮝꭼ	-11.1966
ꭼꮹꮣꮩꮅꮝꮣꮑ	-11.1967
ꮣꭶꮨꮄ	-11.1968
ꮒꮸꮑꮂ	-11.1975
ꭴꮎꮫ	-11.1982
ꭰꮎꮫꭹꮝꭼ	-11.1994
ꮷꮈꮻꮝꮣꮑ	-11.1999
ꭲꮥꮂ	-11.2001
ꭴᏸꮈꭽ	-11.2004
ꮣᏸꮳ	-11.2004
ꮥꮸꮕ	-11.2005
ꭰꮅꮝꮣᏼꮂꮝꭼ	-11.2009
ꮔꮕꮑ	-11.2013
ꭴꮒꮑꭲꮝꮧ	-11.2015
ꮿꮫꮕ	-11.202
ꮳꮪꮅꮝꭼ	-11.2024
ꮥꮶ	-11.2026
ꮩꮨ	-11.2031
ꭲꮸᏸꮃꮧꮩꮂ	-11.2034
ꭰꮖꮣ	-11.2041
ꮘꮅᏹ	-11.2046
ꭴꮎꮅꭺꮢ	-11.2046
ꭱꭹꮝꮥꮈꮧ	-11.2047
ꭴꮼꮞ	-11.205
ᏹꮒꮳꮫꮑ	-11.2062
ꮪꮣꮒꮈꮴ	-11.2063
ꮒꮥꭼꮑ	-11.2072
ꮒꭼꮑꮈ	-11.2083
ꭿꮿꮫ	-11.2089
ꮖꮄ	-11.2094
ꮧꮉ	-11.2098
ꭴꮩꭿᏻꮑ	-11.21
ꮒꮑꮯᏼꮝ	-11.2101
ꭰꮅᏸꭲꮆ	-11.2108
ꮑꮕ	-11.2124
ꮧꮸᏺ	-11.2124
ꮀꮂꮝꮧ	-11.2128
ꮴꮟ	-11.213
ꮵꮖ	-11.2133
ꭼꮏ	-11.2133
ꮥꭼꮹꮰ	-11.2136
ꮧꭸꮵꮎꮭ	-11.214
ꮣꮵᏼ	-11.2147
ꮵꭹꮅᏺ	-11.2156
ꭿꮝꮧꮝꭹ	-11.2159
ꭴꮑꮢ	-11.2166
ꭶꮅꮶ	-11.2168
ꭸꭶꮅꮝꭺꮈꮣꮑꮈ	-11.2197
ꮩꮷ	-11.2199
ꭰꮒꮼꮒꮝ	-11.2216
ꮸꮧꮝꭺ	-11.2222
ꭰꮖꮅ	-11.2224
ꮷᏺꭿꮞꮧ	-11.2224
ꭱꮵᏺ	-11.2235
ꭴꮣꮅꮣꮝ	-11.2241
ꮣꮒꮩ	-11.2244
ᏻꮎꮣ	-11.2259
ꮧꭼꮹꮑꮆ	-11.2265
ꮻꮣꮒ	-11.2293
ꮷꭼꮹ	-11.2302
ꮽᏼ	-11.2311
ꭶꮜꮿꮝꮥ	-11.2311
ꭲꮳꮣꮕꮣ	-11.2325
ꮳꮣꮈ	-11.2329
ꭺꮫ	-11.2329
ᏹꮵᏸꮈ	-11.2336
ꭶꮅꭽ	-11.2337
ᏺꮂ	-11.2339
ꮸꮿ	-11.235
ꭴꮫꮓ	-11.2365
ꭴꮑꮃꮕ	-11.237
ꮕꮣᏻꮎ	-11.2386
ꮻꭶꮎꮔꭺ	-11.2402
ꭼꮹꮫꮑ	-11.2402
ꭶꮫꮑꮅ	-11.2405
ꭴꮥꮑ	-11.2419
ꮥꮵꮃꮻ	-11.2427
ꭴꮆꮢꮝ	-11.2432
ᏹꮳꮣ	-11.2451
ꮒᏼꭿ	-11.2477
ꮳꮅꮝꮣᏼ	-11.2487
ꮘꮒ	-11.2497
ꮣꭶꮅꮝꮣꮧꮝ	-11.2498
ꮪᏺꮞ	-11.2524
ꭸꮵꮫꮩꮧ	-11.2534
ꭼꮹꮫꮧ	-11.2536
ꭾꮣ	-11.2537
ꭳꭶꮕ	-11.2544
ꭿꭶꮤꮂ	-11.2549
ꮪᏻ	-11.255
ꮃꮒ	-11.2559
ꮝꮧꮻ	-11.2561
ꭼꮹꮒꭺꮹꮫꮧ	-11.2564
ꮉꮎ	-11.2564
ꮤᏺꮞꮧ	-11.257
ꭶꮦꮓ	-11.2571
ꮕꭶꮈꮫ	-11.2574
ꮳᏸꮈ	-11.2576
ꮝꭹꮝꮣꮹꮥ	-11.2576
ᏹꮪꮎ	-11.2589
ꮋꮒ	-11.2592
ᏹꮕꮧꭶꮅꮝꮩꮧꮝꭸ	-11.2626
ꭴꮎꮣꮕ	-11.2638
ꮖꮫꮑꮧ	-11.265
ᏹꮒꭶꮫꮑ	-11.2661
ꭶꮅꮝꭺ	-11.2686
ꮣꮅꮒꭺꭿꮝꮧꮝ	-11.2696
ꭰꭺꭲ	-11.272
ꮧꭶꮄ	-11.2727
ꮳꮣꮡꮿ	-11.2732
ꮵꭺꮅᏸꭵ	-11.2733
ꮵꮿꮩꮅ	-11.2752
ꮖꮒ	-11.2759
ᏸꮅꭶ	-11.2771
ꮵꮿꮫꮑ	-11.2781
ꮪꮒꮈꮻꮝꮣꮑ	-11.2782
ꮫꭶꮕ	-11.2805
ꭰꮣꮕ	-11.2814
ꮣꮕꮢ	-11.2814
ꮒꮵꮝꭶꮕ	-11.2817
ꮥꭿꮑ	-11.2846
ꮣꮝꮣ	-11.2859
ꮝꮖꮧꮝ	-11.2872
ꭶꮑꮆꮧ	-11.2872
ꮪꮹ	-11.2877
ꭴꮎꮲ	-11.2917
ꮈꮙꮫ	-11.2918
ꮣꮣꮫ	-11.2925
ꮣꮒᏼ	-11.293
ꮕꮣꭶ	-11.293
ꭵꭹꮑꮈ	-11.2949
ꮒᏼꮧ	-11.2971
ꮣꮫꮑꮈ	-11.2975
ꮂꮝꭺ	-11.298
ꮇꮴꮅ	-11.298
ꭲᏸꮸꮑꮈ	-11.2984
ꮵꮝꮣꮹꮥꭹ	-11.2994
ꮰꮿꮝꮧ	-11.3011
ꭴꮎꮣꮕꭶꮈ	-11.3016
ꮣꮝꮪꮂ	-11.3022
ꮑꮯᏼꮞ	-11.3027
ꮒꮡꮺꮞ	-11.3041
ᏹꮒꮸ	-11.3046
ꮵꮒꭼ	-11.3047
ꮎꮣꮫꮑ	-11.3085
ꭺꮹꮨꮝꭸ	-11.3086
ꮧꮝꮣᏹ	-11.3091
ꮑꮴꮄ	-11.3093
ꮧꮳꮣꮄꮕ	-11.3096
ꭴꮣꮄꮕ	-11.3108
ꮎꮔꭺꮸ	-11.312
ꭰᏸꮈꮢ	-11.3122
ꮸꮑꮈ	-11.3125
ꭶꮕꭲ	-11.3142
ꮵꭶꮤꮂ	-11.3155
ꭼꮹꮓꭾꮝ	-11.3177
ꭴꮑꮃꮧꮝꮧ	-11.3203
ᏺꭿꮝꮧ	-11.3204
ꭰꭹꮝꮖꮒꭺ	-11.3211
ꭶꮜꮿꮝꮧ	-11.3216
ꭿꮝꮩꮧ	-11.3226
ꭰꮎꮅꮝꮣᏼꮂꮝ	-11.3229
ꮒꮳꮫ	-11.3229
ꭱꮣ	-11.323
ꭼꮑꮅ	-11.3247
ꭰꮵᏸ	-11.3258
ꮅꮈ	-11.3269
ꭶꮕꭶ	-11.3277
,	-11.3286
ꮿꮣꮕꮦ	-11.3301
ꭲꮸᏼ	-11.3309
ꮎꮞꮅ	-11.3312
ꭶꮫꮕ	-11.3325
ꮤᏺꭿ	-11.3336
ꮽꮒꮆ	-11.3341
ꭸꮵꭸᏻ	-11.3342
ꭷꮿ	-11.335
ꮣꮕꮦꮄ	-11.3356
ꭲꮿꮖꮅꮝ	-11.3358
ꮪꮯꮆꮝꮣꮑ	-11.3364
ꮸᏺꮺꮃꮑ	-11.3365
ꭰꮑꮅꮝ	-11.3377
ꭴꮺꮂ	-11.3378
ꭴꮅᏸ	-11.3378
ꭶꮵꭺꭵ	-11.338
ꮿꭳ	-11.3382
ꭰꮵᏸꮈꮎꮑ	-11.3394
ꮣꮕꭱꮈ	-11.3401
ꮼꮕ	-11.3406
ᏻᏺ	-11.3418
ᏹꮒꭶ	-11.3424
ꭶꮅꮵꮩꮂꮝ	-11.3442
ꭰꭹꭺꮂ	-11.3459
ꮳꮺꮠꮈꮝ	-11.3466
ꮅꮝꮤꮒ	-11.3467
ꮧꮳꮣꭸᏻ	-11.3468
ꭱꮳꮈꮙꮧ	-11.3475
ꭰꮣꮺꮅꭹꮝ	-11.348
ꭶꭼꮹꮠꮲ	-11.3489
ꮥꮵꮈꮻꮝꮣꮑ	-11.3489
ꮊ	-11.3491
ꭴꮒꮑꭻ	-11.3493
ꮤꮃꮼꭿꮝꮧ	-11.3497
ꮩꮣᏸ	-11.3499
ꮸꮝꮫ	-11.3501
ꮻꮒꮧꮲ	-11.3503
ꭼꮻᏻꮜꮥ	-11.3508
ꮽꮣꭺꮎꮫ	-11.351
ꮝꮙꮅᏹ	-11.3513
ꮤᏺꮝꮧ	-11.3522
ꭴꮣꮩꮅꮝꮤꮕ	-11.3529
ꮎꮻꮫꭾ	-11.3529
ꭶꮃꮕꮫ	-11.3531
ꮪꮣꮃꭱ	-11.3532
ꮣꭷꮑ	-11.3532
ꮒꮸᏼꮑ	-11.3533
ꮅᏸꮧ	-11.3535
ꭶꮨꮧꮝꮧᏹ	-11.3535
ꮹꮅᏸꭲꮆꭿ	-11.3535
ꮈꮙꮤꮑ	-11.3536
ꮪꮈꮕꮧ	-11.3536
ꮒꮥꮳꮫꮑ	-11.3536
ꭰꮯꮆꭵ	-11.3536
ꭲꮳꭶꮤꮕꮞ	-11.3536
ꭴꮨᏼꭿ	-11.3536
ꭵꮖꮈꭲꮫ	-11.3536
ꭼꭹꮑꮙꮴꮧ	-11.3536
ꮡꮅꭺꭼꮎ	-11.3536
ꮩꮷꮑꮕꮢ	-11.3536
ꮪꮒꮃꮻꮸ	-11.3536
ꮪꮥᏺꮑ	-11.3536
ꮶꮝꮣꮣꮕꮯ	-11.3536
ꮷꮒᏼꮝꮥꮝ	-11.3536
ꮅꮦꮈꮒ	-11.3536
ꮣꮎꮥꮢꮂꮝ	-11.3536
ꮣꮗꭺꮤꮕ	-11.3536
ꮵꭶꮇꭿꮝꮧ	-11.3536
ꭴꮎꮅꮟꮎꭿꮝꮧ	-11.3536
ꮔꮎꮫꮑꮄ	-11.3536
ꮣꮒꭷꮏꮹꮥ	-11.3536
ꮣꮴꮅꮝꮫ	-11.3536
ꮥꮳꮑꮆꮫ	-11.3536
ꮧꮵᏺꮁꮢꭿ	-11.3536
ꭰꮖꮣꮕꮦꮫ	-11.3536
ꭲꮃꭹᏻ	-11.3536
ꭴꮑꮃꮻꮞꮈ	-11.3536
ꭸꮋꮅ	-11.3536
ꮝꮪꭲꭱꮈ	-11.3536
ꮽꮥꮅꭼ	-11.3536
ꭶꮆꮠꮂꮝ	-11.3536
ꮪꮎꭷꮫ	-11.3536
ꮶꭹꮎꮻ	-11.3536
ꮵꮕꮝꮣꮥꮈꭹ	-11.3536
ꮵꮿꮫꭶꮑꮈ	-11.3536
ꮕꭹꮶꮑ	-11.3536
ꭲꭺꮒꮿ	-11.3536
ꭼꮽꭿꮝꮧꮝ	-11.3536
ꮁꮝꮥꮞ	-11.3536
ꭰꮪꭲꮝꮤꮕ	-11.3536
ꮥꮳꮒᏼ	-11.3536
ꮒꮤᏺꮄ	-11.3537
ꭲꮵꮑꭻ	-11.3537
ꭴꮟꮩꮅ	-11.3537
ꮪꮕꮹꮑ	-11.3537
ꮪꮈꮕꭵꮝꭼ	-11.3537
ꮧꭺꮺꮆꮧ	-11.3537
ꮪꮎꮄꮑ	-11.3537
ꭴꮧꮄꭹ	-11.3537
ꮎꭺꮤꮕꮎ	-11.3537
ꭽꮯꮒꭼꮑ	-11.3537
ꭴꮪꮈꮂ	-11.3537
ꮪꮅꮵꮩꮑꮄ	-11.3537
ꮔꮹꮒꮜꮕ	-11.3537
ꮧꮠᏼ	-11.3537
ꭲꮸꮿꮅꮵꮩꮑꮈ	-11.3537
ꮕꮓꮁꮆꮧ	-11.3537
ꮔꮎꮫꮑꮅꮩꮈ	-11.3537
ꮝꮖꮣᏹ	-11.3537
ꭴꮜꮃꮣꮕ	-11.3537
ꮣꮎꮣꮕꮦꮝꭼ	-11.3537
ꮣꮎꮰᏹꮂ	-11.3537
ꭼꮹꮝꮫꮧꮝ	-11.3537
ꭰꮖꮫꮕꭲꮝꮧ	-11.3537
ꮒꭺꭿᏻꮂꮝꭼꮎ	-11.3537
ꮬꮕꮣꮥ	-11.3537
ꮩꮿꮕꭿꮫ	-11.3537
ꭺꭲᏻꮂꮝꭶ	-11.3537
ꭴꮎꮑꮆꮤꮕ	-11.3537
ꭲꮣꮅꭾꮅ	-11.3537
ꮔꮎꮅꮝꮤꮕ	-11.3537
ꭼꮹꮓꭿᏻ	-11.3537
ꮕꮣꮧꮝꮩꮧ	-11.3537
ꭳꭸꮩꮈ	-11.3537
ꭰꭹꮅᏺꭼ	-11.3537
ꭴꮎꮣꮡᏼ	-11.3537
ꭴꮣꮩꮅꮝꮣꮑꮄ	-11.3538
ꮽꮒᏼꮈ	-11.3538
ꮧꮒᏺꭴꮅ	-11.3538
ꭴꮝꮧꭹᏻ	-11.3539
ꮧꭻꭺꮧꮝꭹ	-11.3539
ꮥꮵꮈꮙꮥꮝꮧ	-11.3539
ꮥꮶꮥꮝꮧ	-11.3539
ꭰꭶꭻᏼꭱꮧ	-11.3539
ꮣꮅꮑꭿ	-11.3539
ꮧꮴꮕꮢ	-11.3539
ꭰꭶꮅꮝꭺꮈꮣꮑꮈ	-11.354
ꭲꮳꮄꮒꮩꮂ	-11.354
ꮷꮼꮲ	-11.354
ꮥꭼꮹꮨꮓꭾꮄ	-11.354
ꮕꮹꮩꭿ	-11.354
ꮣꮿꮒꮝꭺ	-11.354
ꮪꮨꮕꮞ	-11.3541
ꮳꮝꮖ	-11.3541
ꮪꮅꮝ	-11.3541
ꭰꮉᏻꮆꮧ	-11.3542
ꭴꮎꮪꮅꮝꭸ	-11.3542
ꮵꮃꮻꮞꮂ	-11.3542
ꭴꮅꮝꮖꮥ	-11.3542
ꭴꮎꮒꮲ	-11.3543
ꭰꮎꮣꮩꮅꮝꮧꮝꭸ	-11.3543
ꭰꮒꮑꭲꮝꮧꮝ	-11.3543
ꮻꭼᏺꮺꮃ	-11.3543
ꮣꮵꮹꮫꭿ	-11.3544
ꮧꮤꭿ	-11.3544
ꭴꭶꮫꮄ	-11.3544
ꭴꮣꮡᏸꮫ	-11.3544
ꮥꭶꮃꮕꮫ	-11.3544
ꭸꮵꮑꮴꮈ	-11.3544
ꭴꮾꮩꮧ	-11.3544
ꮕꮣᏻꮔꭺꮸ	-11.3545
ꮣꮒꭷꮕ	-11.3545
ꮵꮜꮃꮣꮕ	-11.3545
ꮣꭼꮹꮅ	-11.3545
ꮝꮨᏸ	-11.3545
ꮷꮣꮕꮣꮧꮝ	-11.3545
ꮅꮝꮣᏼꮧ	-11.3546
ꭰꭶꮤꮎꭲ	-11.3546
ꭴꭹꮞ	-11.3547
ꮳꮧꮻꮝ	-11.3548
ꭴꮅꮝꮧᏻ	-11.3548
ꮧꮒꭶꮨꮿ	-11.3548
ꮷꮽꮣꮄ	-11.3549
ꮽꮳꮕ	-11.355
ꮧꮣꮩꮥ	-11.355
ꭳꭸꮕ	-11.355
ꮕꮅꮜꮅꮙ	-11.355
ꭿꮼꮒꮝꭼ	-11.355
ꮪꮒꭷꮅ	-11.355
ꮧꮳꮔꮼ	-11.3551
ꮣꮕꮕ	-11.3551
ꭶꮰꮿꮝꮤꮕ	-11.3551
ꭴꮝꭶꮞꮧ	-11.3552
ꭼꮹꮫꮫꮕꭹ	-11.3552
ꮼꭹꮆꮢ	-11.3552
ꭰꮥꮈꮣꮆꮒꭸ	-11.3553
ꮪꮔꭺꮻꮢ	-11.3553
ꮣꮄꮎꮝꮧ	-11.3554
ꭴꭼꭵꮝ	-11.3554
ꭼꮹꮓꮑꮄ	-11.3555
ꮝꮖꮅꮝꭸ	-11.3555
ꮷꮣꮒꮈꭲꮝꮧ	-11.3556
ꭺꮲꮕ	-11.3557
ꮝꭹꮝꮥꮈ	-11.3558
ꭿᏺꮝꮧꮝ	-11.3559
ꮒᏼꭾ	-11.3559
ꭱꮳꭻᏼꭱꮧ	-11.3559
ꭴꮑꭻ	-11.3562
ꮪꮻꮮꮻꮢ	-11.3563
ꭴꮒꮝꮖꮫ	-11.3563
ꮽꮣꭺꮎꮫꮫ	-11.3564
ꭴꮆꮧ	-11.3564
ꮵꭹꮅᏺꭶ	-11.3565
ꭰꮒꮆꮋ	-11.3565
ꮳꭺꮞ	-11.3565
ꮒꭶꮅꮝꮤꮒꮩꮂ	-11.3566
ꮪꮓꭿᏻ	-11.3568
ꭴꮎꮅꮞ	-11.3568
ꭸꮶꮞ	-11.357
ꮣꮵᏺ	-11.357
ꮔꮣꮄ	-11.3571
ꭼꮙꮞ	-11.3573
ꭴꮒꮆꮢ	-11.3576
ꭴꭼꮹꮈ	-11.3577
ꭶꭺꮅꮝꮧ	-11.3579
ꭷꮃ	-11.3579
ꮝꮖꮧꮝꮧᏹ	-11.358
ꭰꮒꭶꮨꮿ	-11.358
ꭴꮓꭿᏻꭿ	-11.358
ꭷꮑꭸ	-11.3582
ꭴꮅꮝꭺꮈꮩꮧ	-11.3584
ꮥꮵꮓꭹꮝ	-11.3585
ꮷꮄꭿꮠꮧ	-11.3586
ꭴꮒꭼꭵꮝꭼ	-11.3586
ᏼꮑꮈ	-11.3587
ꭴꮆꭿꮝꮧᏹ	-11.3588
ꭴꮑꮴꮈꭹ	-11.3588
ꭳꮝ	-11.3589
ꭶꭲꮢ	-11.359
ꮧꭶꭺꮩꮧ	-11.359
ꮢꮒꭶ	-11.3591
ꭰꭶꮕꭹ	-11.3591
ꮳꮑꮸ	-11.3592
ꭲꮣꮩꮄꮀꭿꮝꮧ	-11.3594
ꭶꮨꮟꮧꮲ	-11.3599
ꮵꮆꮢꮝ	-11.3602
ꭴꮹꮕ	-11.3602
ꮓꭿᏼ	-11.3603
ꭱꮟ	-11.3606
ꭴꮎꮔꭺꮻꮞ	-11.3607
ꮽꮹ	-11.3607
ꭴꮓꮲ	-11.3608
ꭲꭶꮪꭹ	-11.3609
ꭰꮠꮲꭲꮝꮧꮝꭼ	-11.3612
ꮔꮺꭱ	-11.3613
ꮵꮹꮎꭶ	-11.3619
ꮵꮺꮞꮈ	-11.3622
ꭴꮺᏼ	-11.3623
ꮒꭼꮒꮟ	-11.3626
ꭹꮎꮅꭲ	-11.3631
ꮣꭹꭷ	-11.3633
ꭴꮓꭿᏻꮑ	-11.3636
ꭳꮝꭶ	-11.3637
ꮎꮒꭱ	-11.3639
ꭴꮅꭾꮅꮸꭿ	-11.364
ꮋꮃ	-11.364
ᏸꭺꭹ	-11.3641
ꭸꭿꮩ	-11.3643
ꭲꮸᏸꮅꮞ	-11.3651
ꭲꮳꮣꮕꮯ	-11.3653
ꭴꭷꮅ	-11.3653
ꭲꮳꮣꮴꮅ	-11.3659
ꭼꮹᏼ	-11.3663
ꮵꮔꮝꮥ	-11.3663
ᏹꮶꭿᏻꮂ	-11.3666
ꮥꭸꮵᏺ	-11.3668
ꮶꮢ	-11.3675
ꭰꮎꮧꮝꭼ	-11.3681
ꭰꭹꮝꮣꮹꮥ	-11.3682
ꮵꮼꮒꮝꭼ	-11.3686
ꮧꭺꮲꮕꭿ	-11.369
ꮵꭶꮤꮂꮎ	-11.3691
ꭴꮣᏼꮝꮧ	-11.3694
ꮟꮠꭲ	-11.3697
ꮧꮧᏸꮈ	-11.3702
ꭴꮎꮻ	-11.3706
ꮅꮼꮸ	-11.3706
ꭺꮟꮟꮝ	-11.3707
ꭱꮅꮝꭸ	-11.3712
ᏼꮤꮑ	-11.3714
ꭴꮣᏼ	-11.3714
ᏹꮳꮮ	-11.3715
ꮻꮲ	-11.3715
ꮧꮳꮄ	-11.3717
ꭰꭹꮕ	-11.3734
ꮒᏺꭿꮞ	-11.3739
ꭶꮑꮝꭸ	-11.375
ꮧꮵꭸ	-11.3751
ꭴꮒꮑꮴ	-11.3753
ꭴꮨꮓ	-11.3758
ꭼꮤꮒ	-11.3761
ꮒᏼꮫ	-11.3764
ꭲꮶꭿᏻꮂꮝ	-11.3768
ꮝꮖꮈ	-11.3769
ꮳꮫꮎ	-11.3771
ꭶꭺꭸ	-11.3775
ꭰꮅꭾꮅꮴꮧ	-11.3777
ꭴꮎꮣꮕꮣ	-11.3778
ꮵꮔꭺꮻꮝꮧ	-11.3785
ꭲꭶꮪꮣꮄꮝ	-11.3792
ꭲꮸᏺ	-11.3795
ꭼꮹꮫꮕ	-11.3796
ꮔꮼꭱ	-11.3801
ꮃꮻꭲꮝꮧᏹ	-11.3804
ꭰꮅꮝꮖ	-11.3825
ꮫꮒꮧꮝꮧ	-11.3827
ꭼꮹꭶꮧ	-11.3829
ꮪᏸꮅ	-11.3832
ꮨꮕꮝꮤꮕ	-11.3832
ꮩꭵꭿꮝꮧ	-11.385
ꭰꮖꮣꮕꮩꭹ	-11.3861
ꭷꮑꮝ	-11.3861
ꮔꮕꮑꮈ	-11.3862
ꭲꮵꮤᏺꭿ	-11.3867
ꭺꮣꮑꮈ	-11.3871
ꭴᏸꮈꮢ	-11.3874
ꭴꮒꭹꮝꮧ	-11.3876
ꮣꭸᏻꮧ	-11.3886
ꭴꮝꮣᏹ	-11.3887
ꮣᏻꮒ	-11.389
ᏹꮔꮝꮥ	-11.389
ꭲꮸꮑꮴꮈ	-11.3895
ꭰꮣꭺꮅᏸꮝ	-11.3896
ꭼꮹꭺꮅᏸ	-11.3905
ꮶꭲꮙ	-11.391
ꮦꮈꮕ	-11.3925
ꭲꭶꮫꮝꭹꮒ	-11.3928
ꮕꮹꮝꮥ	-11.3938
ꭽꮣꮕꮣ	-11.3942
ᏺꭶꮫ	-11.3948
ꮅꮝꮣᏼꮎꮑ	-11.3949
ꮵꮒꭼꮑ	-11.3955
ꮰꮎꮝꮫꮎ	-11.396
ꮪꮼꮥ	-11.3966
ꮒꭸꭼꮑꮈ	-11.3967
ꮪꮅꮝꮪꭲ	-11.3972
ꭰꮟᏼꮻꮙ	-11.3972
ꮷꮒᏺꮁꭿꮝꮧ	-11.3977
ꭰꮒꮕꭲ	-11.3977
ꮵꮕꮢ	-11.3981
ꭳꮝꮧ	-11.399
ꮝꮥꮈꭿꮣꮝꮧ	-11.3994
ꮵꮀꮅ	-11.3994
ꭳꭶꮅ	-11.4003
ꮽꮑ	-11.4005
ꮻꮵꮆ	-11.4005
ꮒꮆꮢ	-11.401
ꭺꮹꮨꮝꭼꮎ	-11.4011
ꭴꮒꮹꮫꮧ	-11.4029
ꭰꭺꮹꮨꮝ	-11.4031
ꮕᏼ	-11.4035
ꮟꮒꮩ	-11.4043
ꮫꭹꮝꭼ	-11.4047
ꮤꮒꮣꮝꮧ	-11.4068
ꮺꮝꭹ	-11.4069
ꭳꮵꮓꭾꮝ	-11.4072
ꮹꭹꮆ	-11.4095
ꭴꮧꭶꮅꮝꮩꮧꮝꭸ	-11.41
ꮔꮃ	-11.4107
ꮷꮎꮒꮟ	-11.4108
ꭶꭸꮵꮑ	-11.4112
ꮒꮺꮝꭼ	-11.4113
ꭸꭶꮅꮵꮩꮑ	-11.4114
ꭲᏸꮸꮑ	-11.4121
ꮕꮣꭶꮺ	-11.4129
ꮅꮉ	-11.413
ꮳꮩ	-11.4135
ꮒꭶꮅꮝꮧꮝꭸ	-11.4173
ꭰꮵꭲꮝꮧ	-11.4184
ꭼꮹꮅꭵꮒ	-11.4185
ꮧꭶꮑꮈ	-11.4187
ꭲꮳꮣꮑ	-11.419
ꭺꭿᏻꮂꮝꭸ	-11.4192
ꮦꮢ	-11.4194
ꭴꮒꮇꮴꮈ	-11.4209
ꮟꮅ	-11.421
ꮑꮅꮢ	-11.4215
ꭹꮑꮈ	-11.4229
ꮳꭻᏼ	-11.4237
ꮔꮒꮺꮞꮄ	-11.4239
ꮷꮒᏸꮈ	-11.4253
ꮵꮝꭶꮸ	-11.4263
ꮒꭶꮅꮝꮧꮝꭼ	-11.4276
ꮗꮕ	-11.4294
ꭳꭹꮓꭾ	-11.4297
ꮩꭿᏻꮂ	-11.4297
ꭴᏺꭲꮝꮧ	-11.4298
ꭵꮝꭸꭲ	-11.4304
ᏼꭸꮵ	-11.4312
ꭶꭷꮂ	-11.4313
ꭴꭻᏼ	-11.4314
ꭴꮑꮕꮝꮧ	-11.4317
ꭲꭶꮥ	-11.4336
ꭰꮵꮿꮕ	-11.4341
ꮵꭶꮦꮓ	-11.4375
ꭲꮵꮑꮙ	-11.4397
ꮝꮣꮹꮧꮞ	-11.44
ꮣᏺꮑ	-11.4416
ꭴꮅꮝꭺꮈꮣꮑ	-11.4418
ꮪꮎꮔꭺꮻꮞ	-11.4459
ꮕꮣꭼꮹꮝꮣꮹ	-11.4469
ꮜꮑ	-11.4474
ꭰꭺꮅᏸꮝ	-11.4477
ꭴꮑꮣꮝꮧ	-11.4479
ꮿꭹᏸꮈ	-11.4479
ꭼꮹꮒᏼꮂ	-11.448
ꭶꮵᏼ	-11.4487
ꮒꭶꮤꭾ	-11.4496
ꮳꮫꮕꭲꮝꮣꮑ	-11.455
ꮎᏸꮝꭼ	-11.4554
ꭴꮒꮕꮑ	-11.4561
ꮵꮼꮒ	-11.4562
ꭺꮹꮧꭽ	-11.4567
ꮎꮰᏹ	-11.4595
ꮕꮧꭶꮅꮝꮩ	-11.4605
ꮵꭶꮤꭿ	-11.4607
ꭴꮓꭿᏻ	-11.4623
ꭶꮺ	-11.4643
ꮅꮝꮥꮅꮝꭼ	-11.465
ꮵᏺꮝꮩꮣꮑ	-11.4655
ꭴꮒꮹ	-11.4663
ꮩꮄꮀꭿ	-11.4665
ꮝꮣꮹꮫꮞ	-11.4673
ꮩꭿꮙ	-11.4679
ꮒꭶꮫꮑꮀ	-11.4686
ꮵꮎꮭꭲ	-11.4688
ꮣꮣꮈ	-11.4692
ꮝꮪꮂ	-11.4696
ꮕꮝꮩ	-11.4715
ꭲᏻꮒ	-11.4733
ꮎꮫꮑꮧ	-11.4737
ꭶꮇꭹ	-11.4745
ꮅꮒꭺꭿꮝꮤ	-11.48
ꮧꭺꮲ	-11.4828
ꮜꮆ	-11.4836
ꭺꮅᏸ	-11.4858
ꮣꮑꮄ	-11.4859
ꭴꮎꮕꮕ	-11.488
ꭰꭹꮑ	-11.4886
ꭰꮤᏺꭿ	-11.4897
ꮸꮑꮀ	-11.4914
ꮒꭶꮅꮝꮤꮒ	-11.4919
ꮓꮯꮝ	-11.4955
ꮥꭻꭺ	-11.498
ꮒꭼꮞꮂ	-11.5017
ꭴꮆꭸꮢ	-11.503
ꮵꭸᏻ	-11.505
ꮣꮸꮿ	-11.5057
ꮳꮼꮝꮤ	-11.5064
ꮒꮝꭶꭹ	-11.5098
ꮵꮕꮟꮫ	-11.5111
ꮝꮣꮑꮧᏹ	-11.5113
ꮺꮝꭼ	-11.512
ꮞꭺꭹꮝꮧ	-11.5128
ꮽꮇꮴꮈ	-11.5129
ꮸᏼꮑ	-11.5133
ꮳꮅꭾꮅ	-11.5154
ꭶꮄꮧ	-11.5166
ꮧꭶꮣ	-11.5174
ꭿꭺꮹꮨ	-11.5175
ꭼꮹꮫꮫꮧ	-11.5184
ꭰꭹꮓꭾ	-11.5199
ꭲᏻꮕꮑ	-11.5206
ꭼᏸꮈ	-11.5211
ꮝꮣꮹꮧꮩ	-11.5228
ꮰꮞ	-11.524
ꮽꮕ	-11.5246
ꮹꮎꭶꮆ	-11.5263
ꮎꮥꮨᏼ	-11.5278
ꮑꮲ	-11.5289
ᏹꮪꮈꮻꮝꮣꮑ	-11.5302
ꭳꮅ	-11.5307
ꮔꮎꮅꮝꮣ	-11.5323
ꮹꮵꮿꮕ	-11.5342
ꮅꮝꮣᏼꮒ	-11.5386
ᏹꮒꭺ	-11.5388
ꮣꮅꮕꮯ	-11.5393
ꮝꭹᏺꭲᏻꮂ	-11.5394
ꮑꮺꮞ	-11.541
ꭼꮹꮣꮩꮅꮝ	-11.5413
ꭶꮜꮿꮝꮩ	-11.5414
ꮝꭶꮕꭸꮝꮧ	-11.5416
ꮎꮻꮫꮂ	-11.5425
ꭶꮤꮂꮝꮤꮕ	-11.5425
ꮳꮫꭹꭽ	-11.5434
ꮈꮙꮧꮝꭼ	-11.5435
ꮅꮝꭺꮈꮧꮝꭼ	-11.5441
ꮣꮡᏸ	-11.5442
ꮵꭶꮨꮟ	-11.5445
ꭴꮼꮺꮃꮕ	-11.5446
ꮵꭺꮹꮫꮧᏹ	-11.5456
ꭰꭹꮂ	-11.5458
ꮴᏺꮂꮝ	-11.5459
ꭸꮶꭿᏻ	-11.5461
ꮒꮥꭶꮺꮞ	-11.5462
ꮧꭹꮈꮻꮝꮣꮑ	-11.5465
ꭶꮒꮃ	-11.5477
ꮅꮝꭶꮝꮩꮩ	-11.5478
ꮣꮒꮼꮒ	-11.5483
ꮳꮅꮝꭶꮝꮩꮧ	-11.5483
ꮅꮝꭺꮈꮤꮕ	-11.549
ꮵꭶꮨꮧꮝꮧ	-11.5491
ꭴꮎꮣꮱ	-11.5491
ꭴꮎꮅꮝꮣᏼꮕ	-11.5491
ꮪꭷꮏ	-11.5492
ꮩꭵ	-11.5493
ꭲꮳꮫꭶꮕ	-11.5494
ꮥꮨᏼ	-11.5496
ꮵꭿꮝꮧ	-11.5497
ꮣꮄꮒꮝꭼ	-11.5497
ꮣꮜ	-11.5499
ꮝꭻꮣꮫ	-11.55
ꮅꮝꮪꮆ	-11.5512
ꮓꭿꮝꮣ	-11.5514
ꮺꮞꭽ	-11.5517
ꮠꮲꭲꮝꮩꮧ	-11.5519
ᏺꮂꮝꭼ	-11.5521
ꭴꮼꮪꭿ	-11.5522
ꭴꮅꮒꭹꮧ	-11.5523
ꮹꮫꭱꮂ	-11.5523
ꭿꭶꮨꮟ	-11.5524
ꮝꮣꮹꮪꭶ	-11.5528
ꮵꮈꮙꮧ	-11.5528
ꮎꮅꮝꮣᏼꮂꮝꭼ	-11.553
ꮒꮷꮘꮝ	-11.5532
ꮣꮴꮅꭶ	-11.5535
ꭴꮤꮃꮼ	-11.5535
ꭴꮒꮆꮞ	-11.5536
ꭽᏸꮃꮝꮧ	-11.5536
ꭰꮫꮒꮧꮝꮩꮧ	-11.5536
ꭱꮝꮥꮅꮜꮥ	-11.5536
ꭱꮶꭲᏻꮢ	-11.5536
ꭴꮧꮹꮞ	-11.5536
ꭶꮣꮇꮿꮫ	-11.5536
ꭸꮵꮪꭲꮝꮣꮑꮈ	-11.5536
ꮒꮣꮥꮨᏼꭿꮢ	-11.5536
ꮪꮒꮃꮻꮴ	-11.5536
ꮪꮝꮖꮈꮤꮑ	-11.5536
ꭰꮅᏹꮆꮈ	-11.5536
ꭴꮎꮧꭶꮄᏺꮸꭿ	-11.5536
ꭴꮏꮇꮞ	-11.5536
ꭴꮑꭲꮈꮧ	-11.5536
ꭴꮑꮙꭲꮝꮧᏹ	-11.5536
ꭶꮅꮖꮝꭺꭿ	-11.5536
ꭼꭽꮇꮿꮝ	-11.5536
ꭼꮹꮫꮣꮝꮣꮑ	-11.5536
ꮒꭶꮧꮉꮟ	-11.5536
ꮔꮑꭹᏼ	-11.5536
ꮗꮳᏹꮧ	-11.5536
ꮝꮖꮓᏼꭺ	-11.5536
ꮣꮖꮄꮇ	-11.5536
ꮣꮣꮒꮜꮂ	-11.5536
ꮥꭴꮩꮝꮫ	-11.5536
ꮥꭸꭶꮼꮝ	-11.5536
ꮪꭶꮢꮝꮫ	-11.5536
ꮪꮕꮝꮣꮥꮄ	-11.5536
ꮯꮆꭱꮈ	-11.5536
ꮽꮿꮕꭾ	-11.5536
ꭰꮎꭶꮅꮝꭹ	-11.5536
ꭰꮖꮅꮵꮩꮧᏹ	-11.5536
ꭱꮳꮅꭱꮅꮴ	-11.5536
ꭴꮅꮦꮈꮑ	-11.5536
ꭴꮎꮰꮴ	-11.5536
ꭵꮖꮼꮝ	-11.5536
ꮣꮧꮆꮒ	-11.5536
ꮪꮒꮟꮒꮩꮈ	-11.5536
ꭴꮒꭷꮅꮴ	-11.5536
ꮧꮖꮣꮕꮫ	-11.5536
ꭰᏻꮎꭶ	-11.5536
ꭴꮒꮔꭺꮴ	-11.5536
ꮷꮕꭸꮻ	-11.5536
ᏺꮣꮭꮂ	-11.5536
ꮤꮻꭲꮝꮧᏹ	-11.5536
ꭴꮎꮪꮅꮝꭹ	-11.5536
ꮧꮝꮗ	-11.5536
ꭰꭸᏺꮕ	-11.5536
ꭴꮒꮒᏼꮧᏹ	-11.5536
ꭿꮝꭶꮝꭺꭿ	-11.5536
ꮥꭴꮄꮤꮑ	-11.5536
ᏺꮸꮧꮝꭸ	-11.5536
ꭴꮒᏺꭲꮞꮈꭿ	-11.5536
ꮑꮣꮒꮅ	-11.5536
ꮧꮳꮅꮒꭺꭿꮝꮩꮧ	-11.5536
ꭲꭸꮸꮑꮧ	-11.5536
ꭼꮹꮝꮧᏸꮤ	-11.5536
ꮳꭻꭺꮣꮑꮧ	-11.5536
ꭼꮗꭿꮝꮧ	-11.5536
ꭰꮑꮇꮂꮝ	-11.5536
ꭴꮎꮅꮓꭾꮄ	-11.5536
ꭴꮺꮿꮈ	-11.5536
ꭰꮝꮩꮝꭹ	-11.5536
ꮪꮓꮺꮈ	-11.5536
ꮪꮜꮃꮣꮕ	-11.5536
ꮎꮖꮫꮑꮈ	-11.5536
ꮳꮫꭹꮝꭺ	-11.5536
ꮣꮣꮼꮝꭼ	-11.5536
ꮏꮇꮢ	-11.5536
ꭾꮿꮤ	-11.5537
ꮕꮷꮺꮞ	-11.5537
ꮻꮳᏼꮈ	-11.5537
ꭼꮿꭻᏼꭱ	-11.5537
ꮥꮵꭷꮏꮹꮧꮢ	-11.5537
ꭲᏻꮅꮝꮤꮒꮣꮝꮧ	-11.5537
ꮎꮖꮅꮝꮤꮕ	-11.5537
ꮥꭽꮣꮕꭱꭾꮝꮧ	-11.5537
ꮤꮺꮩ	-11.5537
ꭰꮩꮒꮝ	-11.5537
ꭲᏸꭼꮑ	-11.5537
ꮪꭺꮣꮑꮧ	-11.5537
ꭰꮅꭾꮅꭼ	-11.5537
ꮳꭶꮸꮝ	-11.5537
ꭴꭶꮡ	-11.5537
ꮓꭾꭾꮄ	-11.5537
ꮧꮎꮣꮎꮜꮂꮝꭹ	-11.5537
ꮪꮒꮒᏼ	-11.5538
ꭴꮅꮦꮈꮕ	-11.5538
ꮪꮽꭺꮤ	-11.5538
ꭰꮗꮕꮢꭹ	-11.5538
ꭴꮎꮃꮝꮣꭱ	-11.5538
ꮒꮳꮺꮢ	-11.5538
ꭰꮖꮲꮘꮝꮧ	-11.5538
ꮧꭺꮺꮅꮝꭹ	-11.5538
ꮧꮳꮅꮒꭹꮧᏻ	-11.5538
ꮒꭼꮹꮒꮺꮞ	-11.5538
ꮎꮎꮅꮝꮧ	-11.5539
ꭰꮖꮅꮝꭶꮝꮩꮫ	-11.5539
ꮣᏸꮵꮑꮅ	-11.5539
ꭲᏻꮒꮺꮝꮧ	-11.5539
ꮝꭹꮿꮫꭶꮑ	-11.5539
ꮴꮃꮧꮝꮧ	-11.5539
ꭲꮳꮫꭹꮝꭸꮝꮧ	-11.5539
ꮧꮅꮢꮝꮧ	-11.5539
ꭰꮒꮠꮲꭲꮝꮧꮝ	-11.554
ꮅꭺꮑꮄ	-11.554
ꭰꮒꮝꮖꮒꭺꮧꮝ	-11.554
ꭱꭽꭶꮤ	-11.554
ꮿꮖꮪꮅ	-11.554
ꮧꭹꭷꮑ	-11.554
ꮽꭺꭾ	-11.554
ꭰꮒꮤᏺꭿꭾ	-11.554
ꮧꮳꮃꮟ	-11.554
ꮥꮵꭷꮏ	-11.5541
ꭸꮵꮩꮅꮝꮧ	-11.5542
ꭶꮩꮄꭳ	-11.5542
ꭴꮒꮝꮖꮒꭺꮝꭸ	-11.5542
ꮝꮖꮈꭾ	-11.5542
ꮣꮯꮜꮑ	-11.5542
ꭴꮒꮎꮻ	-11.5542
ꭲꮳꮫꭹꮝꭼ	-11.5543
ꮪꮩꮝꮫ	-11.5543
ꮣꮒꮆꮔꭾꮝ	-11.5543
ꮷꭻᏼ	-11.5544
ꮧꭸꮵᏺꭿꮞꮈ	-11.5544
ꭳꭶꮣꮕꮤꮹꮥ	-11.5544
ꮪꮣꮕꭱꮈ	-11.5545
ꭴꮎꮪꮈ	-11.5545
ꭴꮒꮒꭼꮞꮂ	-11.5546
ꭰꭹꭺꮑꮈ	-11.5546
ꮎꮕꮑꮂ	-11.5546
ꭴꭷꮅꮸ	-11.5547
ꭴꮄꮻꮝ	-11.5547
ꭲꮵꭶᏼꮅꭸ	-11.5547
ꭴꮩꮲꮢ	-11.5547
ꮷꮆꮞ	-11.5548
ᏼꮤꮒꮈ	-11.5548
ꭼꮹꮝꮥꮈꭿꮩ	-11.5548
ꮿꮺꭲꮝ	-11.5549
ꮝꮣꭶꮈ	-11.5549
ꭴꮎꮧꮢ	-11.5549
ꭿꮿꮣꮩꮅꮝꮣ	-11.555
ꭳꮴꭿ	-11.5551
ꭰꮟꮎꮜꮕ	-11.5551
ᏹꮆꮄ	-11.5551
ꭴꮺᏸꮒ	-11.5551
ꮧꭼꮹꭹꮸꮧ	-11.5552
ꭰꮑꮿꮤꭿ	-11.5552
ꮧꮻꮞꮈ	-11.5553
ꭰꮒꭷꮈ	-11.5553
ꮅᏹꮅꮥ	-11.5553
ꭴꮺꭷꮑ	-11.5553
ꭼꭹꮑꮴꮈ	-11.5554
ꭴꮎꮣꮩꮅꮝꮤꮕ	-11.5555
ꮻꮪꮒꮿꮕꮂ	-11.5556
ꭰꮒꮟꮎꮜꮕ	-11.5556
ᏹꮵꮹꮨ	-11.5556
ꭲꮵꭹꮅᏺꭲꮝꮧ	-11.5557
ꮜꮋ	-11.5557
ꭼꮹꮒᏼꮧ	-11.5558
ꮖꮋ	-11.5558
ꮧꭶꮆꮧ	-11.5558
ꭿꮑꭹ	-11.5559
ꮵꮓꮝꮫ	-11.5559
ꮻᏼꭸꮵ	-11.5559
ꮰꭰꮢ	-11.556
ꭴꮣᏹꮄ	-11.556
ꮧꮝꭹꮿꮣꮒꮈ	-11.5561
ꮪꮒꭺꮂ	-11.5562
ꮪꮒᏺꮞ	-11.5563
ꭶꮇꮆ	-11.5563
ꮴꮜꮒ	-11.5563
ꭰꮠꮲꭲꮝꮩꮧ	-11.5563
ꭳꮳꮅꭱꮅꮴ	-11.5564
ꮑꮅꮝꭼꮎ	-11.5564
ꮳꮃꮑ	-11.5565
ꭴꮝꮙꮅᏹ	-11.5565
ꮥꮫꮕ	-11.5566
ꮒꮸᏼꮑꮈ	-11.5566
ᏸꮅꭶꮿ	-11.5566
ꭰꮅꮝꮥꮅꮝꭼ	-11.5567
ꮷꮎꮣꮄ	-11.5567
ꭴꮑꮝꭸꮂ	-11.557
ꮪꮈꮻꮝꮣꮑꭾꮝꮧ	-11.557
ꭰꮒᏼ	-11.557
ꮧꮨᏺ	-11.5571
ꭱꭶꮤ	-11.5572
ꭴꭼꮹꮄ	-11.5573
ꭲꮵꭺꮂ	-11.5574
ꮅꭼꮪ	-11.5574
ꮎꮵꮈꮙ	-11.5575
ꭴꭶꮜꮿꮝꮧꮥꭹ	-11.5575
ꮩꮡꮄ	-11.5577
ꮣꭶꮎꮔꭺ	-11.5577
ꮳꮝꭶꮈ	-11.5578
ꮒꮳꮝꮫ	-11.5578
ꮥꮵꮑꮈ	-11.5579
ꮷꮆꮔꭾ	-11.558
ꮪꮡᏸꮢ	-11.558
ꮹꮪꮅ	-11.558
ꭰꭹꮑꮴ	-11.5581
ꭴꮢꭶꮈ	-11.5583
ꮵꮎᏸꮝꭶ	-11.5584
ꮵꮵꭺꮹꮨ	-11.5584
ꮪꮎꮅꮒꭼꭼ	-11.5584
ꮎꭿꮝꮩꮧ	-11.5585
ꮷꮎꮪꮅ	-11.5586
ꮑꭶꮈ	-11.5586
ꮣꮕꮹ	-11.5586
ꮷꮑꮃ	-11.5588
ꭴꮥꮀꭿꮝꮧᏻ	-11.5588
ꮧꭸꮵꭴꮝꮥꮞꮈ	-11.5593
ꭶꭼꮹꮠꮲꮥ	-11.5594
ꭿꮠꮧ	-11.5595
ꭱꮅꮝꮣ	-11.5595
ꭴꮣꮡᏼ	-11.5596
ꮩꮣꮶ	-11.5597
ꮣꮑꮆꮫ	-11.5597
ꮻꮒꮪꮺꮞ	-11.5598
ꮒꭶꮫꮑꮂ	-11.5599
ꭸꮵꭹꮅᏺꭲꮝꮩꮧ	-11.56
ꮭꮼ	-11.5603
ꮝꮥꮩꮂ	-11.5606
ꮒꭶꮤꮂꮎ	-11.5607
ꮪꮼꭱ	-11.5607
ꮿꮓꮙ	-11.5609
ꮪꮔꭺꮤꮕ	-11.5609
ꮧꮖꮣꮄꮕ	-11.5609
ꭰꮒꭶꮤꭽ	-11.561
ꭴꮒꮝꮣꮹꮫ	-11.5612
ꮜꮙꭿᏻ	-11.5612
ꮪꮒꭹꮢ	-11.5613
ꭸꭶꮞ	-11.5614
ꮵꮆꮔꭱꮈ	-11.5614
ꭸꮎꮒ	-11.5615
ꭲꮳꮅꭺ	-11.5617
ꮎꮵꮺꮞꮈ	-11.5618
ꮳꮻꮞ	-11.5618
ꮣꮯꮆꮝꮧꮝꭼ	-11.5618
ꮎꮳꮺꮠꮈꮝꮩꮧ	-11.5621
ꭴꮼꭿᏻꭿꮝ	-11.5621
ꮹꮖ	-11.5622
ꮯꮟꮝꭺ	-11.5623
ꮣꭷꮕ	-11.5623
ꭴꮆꮔꭾ	-11.5624
ꮫꮑꮅꮩꮈ	-11.5627
ꮎꮣꮩꮅꮝꮧꮝ	-11.5627
ꭴꮅꮝꭺꮈꮣꮑꮈꭹ	-11.5627
ꭴꮼꮺꮃꮕꭹ	-11.5628
ꮀꭿᏻꮂꮝꭶ	-11.5628
ꮵꮔꮹꮑꮈ	-11.5629
ꭰꭹꮼꮒ	-11.5629
ꭳꭺꭿᏻ	-11.563
ꮧꭶꮣꭸᏻꭿ	-11.5631
ꮪꮎꮣꮒꮈꮸ	-11.5632
ꮳꮎꮻᏹ	-11.5633
ꮣꮒꮈꭲꮝꮧᏹ	-11.5636
ꮳꮅꮝꮣꮑ	-11.5637
ꮥꭸꭶꮈ	-11.5639
ꭲᏺꭶꮫꮑꮧ	-11.5641
ꭴꮧꮄꮂꮝꭼ	-11.5644
ꭰꭶꮫꮧ	-11.5644
ꮝꭶꭲꮝꮧ	-11.5645
ꭰꮎꮅꭾꮅꭼ	-11.5655
ꮆꮞ	-11.5656
ᏼꮣꭶ	-11.5658
ꭴꮒꮹꮢ	-11.5659
ꭰꭺꮹꮨꮝꭼ	-11.5661
ꮹꮒꭶꮈ	-11.5662
ꮳꮫꭶꮑꮈ	-11.5662
ꭰᏼꮣꮖꮆ	-11.5662
ꮒꮵᏺ	-11.5663
ꮎꮪꮣꮄꮝꮧ	-11.5665
ᏻꮎꮪꮅ	-11.5666
ꮅꮝꮣᏼꮂꮝꭼ	-11.5668
ꭱꮴ	-11.5669
ꮉꮪ	-11.5676
ꮒꮑꮵ	-11.5677
ᏺꮮꮢ	-11.5677
ꮏꮫꮑꮂ	-11.5679
ꮩꭹꮈꮻꮝꮣꮑꮂ	-11.568
ᏹꮝꭹᏺꭲᏻ	-11.5683
ꭴꭺꮧ	-11.5685
ꮕꮣꮝꭹ	-11.5686
ꮓᏼꮅꮝ	-11.569
ꮑꮙꭱꮧ	-11.569
ꭳꮶꭿᏻ	-11.5691
ꮣꮣꮒꮈꭺ	-11.57
ꮵꮒꭸꭼꮑ	-11.5701
ꮓꮺꮃꮕ	-11.5703
ꮵꮔꮎꮅꮝꮣꮑ	-11.5703
ꮦꮈꮂꮝ	-11.5704
ꮈꮜꮫ	-11.5707
ꮪꮔꭺꮻꮞ	-11.5709
ꭰꭶꮤꭿ	-11.571
ꮸꮣꮈ	-11.5714
ꭴꭶꮫꮎꮸ	-11.5715
ꮵꮜꮃꮩꮧ	-11.5721
ꮒꮼꮒꭿꮝꮧ	-11.5724
ꭸꮖ	-11.5724
ꭴꮓᏼ	-11.5726
ꭾꮈꭹ	-11.5732
ꮄꮩꮧ	-11.5732
ꮴꮵᏺ	-11.5732
ꭸꭶꮫꮕ	-11.5738
ꭴꮞꮅꮤꮕ	-11.5738
ꭶꮔꭺꮻꮝ	-11.5739
ꮷꮑꮴꮄ	-11.574
ꭴᏺꮸ	-11.5743
ꭹꭷꮏꮹꮫꮝꮧ	-11.5744
ꮕꮣᏻꮺ	-11.5754
ꭴꮎꮴ	-11.5755
ꮅᏸꭲꮈꮝ	-11.5757
ꮪᏺꮅꮈ	-11.576
ꮧꭷꮎ	-11.5764
ꮩꮵꮹꮫꮂ	-11.5764
ꮔꮒꭺꮈ	-11.5768
ꭴꮅꮒꭹꮫꮿ	-11.5769
ꭴꮅꮝꮧ	-11.5773
ꮣꮕꭱꭾꮝꮧ	-11.5777
ꮑꮺꮞꮄ	-11.5778
ꮤꮄꮢ	-11.578
ꮵꮎꮻ	-11.578
ꮕꮣᏻꮆꭿꮝꮧ	-11.5783
ꭳꭶꮅꮝꮣᏼꮧ	-11.5784
ꭴꮒꮓꭾ	-11.5789
ꮪꮹꮫꮂ	-11.5796
ꭶꮨꮧꮝ	-11.5797
ꮗꮣꮄ	-11.5797
ꭶꮓꭺ	-11.5797
ꭰꮒꮓꮧꮝ	-11.5798
ꮳᏸꮈꮑ	-11.5798
ꮵꮝꭶꮕ	-11.5808
ꮎᏸꭿꮝꮧ	-11.5812
ꮲꮙꮩꮧ	-11.5813
ꮝꮧᏸꭼ	-11.5814
ꮒꭶꮨꮄ	-11.582
ꮎꮝꮖ	-11.5837
ꮒꭸꮵꮺꮞꮈ	-11.5838
ꮆꭲꮝꮧᏹ	-11.5843
ꭰꭹꮝꭹ	-11.5844
ꮧꮝꭹᏺ	-11.5852
ꭰꭺꮂ	-11.5856
ꮳꮄꮒꮣꮝꮧ	-11.5864
ꮝꮙꮞ	-11.5866
ꭲꮶꮅꮝ	-11.5875
ꭶᏸꮳ	-11.588
ꭴꭷꮅꮈ	-11.5892
ꭿꮝꮧᏻ	-11.5894
ꮪꮈꮻꮝꮣꮑꭾ	-11.5901
ꭴᏼꮄ	-11.5915
ꭱꮧꭸᏻ	-11.5916
ꮎꮣꮫꮑꮂ	-11.5934
ꮒꮪꮎ	-11.5935
ꮪꮒꭼ	-11.5936
ꭼꮹꮫꮫ	-11.5936
ꭸᏻꮕꮎ	-11.5942
ꮳꮣᏹꮈ	-11.5952
ꭰꮖꮅꮝꮣᏼꮧ	-11.5955
ꭴꭷꮅꭲꮝ	-11.5964
ꭺꮅᏸꮝꭸꮝꮧ	-11.5967
ꭱꮃꮺᏹꮙ	-11.5981
ꮵᏹꮅꮩ	-11.5983
ꮧꭷꮏ	-11.5987
ꮡꮣꭸ	-11.6007
ꭶꮅꮝꮣꮫ	-11.6013
ꭿꮝꭹꮑ	-11.6014
ꮵꮥꭽ	-11.6014
ꭰꮖꮱꮧꮝ	-11.6025
ꮳꭶꮄ	-11.6029
ꮒꮺꮞ	-11.6047
ꭴꮣꮼ	-11.6048
ꮣꮕꮦꮝꭼ	-11.6053
ꮸꮹ	-11.6055
ꮻꮞꮄ	-11.6065
ꭰꮕꮧꮝ	-11.6069
ꭶꮈꮝꮧ	-11.6071
ꮵꮒꭼꮞꮂ	-11.6072
ꭴꮝꮖꮈꭿꮧꮢ	-11.6076
ꭿꮝꮧꮝꭸꮝꮧ	-11.6084
ꭱꮧꮈꮙ	-11.6095
ꮒꮵꮺꮝꭼ	-11.6098
ꭷꮑꭲꮝꮣꮑ	-11.6108
ꮧꭶꮃꮻ	-11.6116
ꮅꮝꮨ	-11.6126
ꭱꭹꮑꮈ	-11.6136
ꭿꮝꮧꮝꭼꮎ	-11.6144
ꭶꮩꭵꮞ	-11.615
ꮵꮤᏺꮞ	-11.6158
ꭲꮵꮒꮖꮨ	-11.6159
ꮆꮤꮕ	-11.6165
ꭲꮝꮣꮫ	-11.6169
ꮡꮎꮄꭲᏻ	-11.6179
ꭴꮒᏸꮈꮑ	-11.6182
ꮕꮑꮈ	-11.6192
ꭷꮓꭸ	-11.6193
ꮸꮧꭶ	-11.6211
ꭰᏺꮝꮧꮝ	-11.6222
ꭶꮰꮿꮝꮧ	-11.6242
ꭶꮅꭾ	-11.6247
ꭱꮵꮿ	-11.6249
ꮅꮝꭶꮝꮩꮫ	-11.6256
ꮤᏺꮞꭾ	-11.6268
ꮣꮕꮦꮝꭸ	-11.6277
ꭳꮵꮑ	-11.6288
ꭰꮖꮣꮕ	-11.6288
ꮒꭶꮅ	-11.629
ꮅꭺꮑꮈ	-11.6299
ꭴꭶꮤꮤꮕ	-11.6309
ꮵꭴꮝꮥꮞꮈ	-11.631
ꮎꮝ	-11.6339
ꮧꭶꭸ	-11.6353
ꭲꮸꭺꮹꮫꮧ	-11.6364
ꮷꮎꮣꮱ	-11.6379
ꮣꮣꮒꮈ	-11.6393
ꭼꮹꮇꮴꭾ	-11.6403
ꮥꮀꭿꮝ	-11.6407
ꭰꮧꮢ	-11.6424
ꮵꮎᏸꮝꭼ	-11.6473
ꭴꮝꮪ	-11.6475
ꮧꭺꮝꮣ	-11.6481
ꭱꮳꮩ	-11.6496
ꮣꮒꮈꮸꭹ	-11.65
ꮎꮅꭾꮅ	-11.6514
ꮟꮟꮝ	-11.6525
ꮷꮺᏸ	-11.6544
ꮣꮕꮦꮝꭺ	-11.6546
ꭰꮿꭱ	-11.6547
ꭾꮆ	-11.655
ꮯꮜꮒ	-11.6552
ꭴꮎꮣꮕꮢ	-11.6554
ꭴꮒᏸꮈꮞ	-11.6555
ꭴꮒᏺꮀ	-11.6567
ꭰꮒꮓꭾꮝꭸ	-11.6587
ꮵꭶꮩꭵꭿꮝꮧ	-11.6588
ꮞꮃ	-11.6604
ꮧꮳꮈꮻꮝꮣ	-11.6605
ꭵꮝꭶ	-11.6613
ꮪꮒꮝꮪ	-11.6621
ꭰꮎꮩ	-11.6635
ꮝꮪꮂꮝ	-11.6653
ꭶꮫꮑꮈ	-11.6657
ꮒꮵꮺꮞ	-11.667
ꭹᏼꮝꮧ	-11.6672
ꮥᏺꮧ	-11.6679
ꮺꮞꮄ	-11.6688
ꮤᏺꮞꮈ	-11.6704
ꮳᏹꮅ	-11.6716
ꮸꮑꭽ	-11.6718
ꭼꮹꭶꮨ	-11.6729
ꮨꮕꮢꭹ	-11.675
ꮏꮫ	-11.6752
ꭶꮠ	-11.6768
ꮝꮖꮥ	-11.6792
ꭲꭹꮑ	-11.6796
ꮵᏼꮤꮒ	-11.6806
ꮥꮆꮖꭵ	-11.6834
ꮅꮩꮂ	-11.6837
ꮣꮧꮝꮧ	-11.688
ꭰꭹꭸᏻꭿ	-11.6881
ꭼꮝꭺꮈꭵꮝꭸꮝꮧ	-11.6888
ꮒꮯ	-11.6903
ꭴꮅꮝꭺꮈꮣꮑꮈ	-11.6904
ꮹꮨꮝ	-11.6919
ꭺꮡꮄ	-11.6958
ꮧꭶꮅꮝꮩꮧ	-11.6968
ꭶᏸꭼꮝ	-11.6986
ꭴꮒꭷꮅꮸ	-11.7054
ꭼꮹꮈꮙꮩꮧ	-11.707
ꮲꮕꭿ	-11.7071
ꭴꮎꮳꭲ	-11.7073
ꭳꮴꮅ	-11.7086
ꮫꭹꮝꭸꮝꮧ	-11.7087
ꭺꮂꮝꮤ	-11.7096
ꮝꭹꭺꮹꮫ	-11.7105
ꮝꮣᏹꮧꮝꮧ	-11.7106
ꭰꭶꮅ	-11.7107
ꮩꮣꭶꮕ	-11.7115
ꮕꮣᏻꮣꮄ	-11.7118
ꮕꭲꮝꮤꮕ	-11.7128
ꭴꮑꮄ	-11.7134
ꮝꭶꮕꮴꮂ	-11.7136
ꮰꮝꭼ	-11.7156
ꮣꮑꮃꮑ	-11.717
ꮳꮝꮥꮅ	-11.7237
ꮣꮥᏺ	-11.7269
ꭸꮵᏺꭿꮞ	-11.7298
ꮣꮑꭾ	-11.7306
ꮒꮟꮕꭿ	-11.7319
ꮻꮧꭶꮨ	-11.7326
ꮣꮸꮿꮝꮧ	-11.7336
ꭼꮹꮇꮴ	-11.7361
ꮫꮕꭲꮝꮤꮑ	-11.7364
ꮵꮝꭶꮕꮴꮈ	-11.7367
ꮻꮪꭷꮏ	-11.7369
ꭴꮔꮺ	-11.7382
ꭲᏻꮺꮝꮧ	-11.7388
ꭰꮝꭻꮥꮝ	-11.7402
ꮒꭶꮿꮇ	-11.7454
ꭲꮸꮑꮴ	-11.7455
ꮜꮃꮣ	-11.7474
ꮓꭿꭾ	-11.7475
ꮣᏻꮑ	-11.7492
ꮧꮳꮰᏹ	-11.7499
ꮆꭵ	-11.75
ꭰꮎꮫꮑ	-11.7517
ꭴꮣᏸ	-11.7518
ꭴꮎꭶꮜꮿꮝ	-11.7525
ꮣꭶꮯꮆꮝ	-11.7543
ꮡꮅꭺꮸ	-11.7547
ꭶꮯꮒꭼꮑ	-11.7551
ꭳꮵꮓꭾ	-11.7561
ꮩꮳꮣ	-11.7569
ꭰꭺꮹꮫꮧ	-11.7572
ꮵꮹꮫꭱ	-11.7584
ꭶꮲꮘ	-11.7586
ꭼꮹꮒꭺꮹꮫ	-11.7596
ꭴꮎꮅꮝ	-11.7603
ꭼꮙꭿᏻꮂꮝ	-11.7605
ꮔꭸᏻ	-11.7635
ꮧꭹꭶ	-11.764
ꭴꮺꮩꮅ	-11.7646
ꭰꭹᏸꮈꮕ	-11.7661
ꮧꮤꮝ	-11.7675
ꮳꮫꮫꮂ	-11.7693
ꭶꮔꭺ	-11.7703
ꭰꮅꮵꮩꮂꮝ	-11.7706
ꮝꭶꮕꮎ	-11.7708
ꭴꮞꮅ	-11.7737
ꮻꮩꮵ	-11.7739
ꮵꮕꮹꮝ	-11.7748
ꭴꮒᏺꭾ	-11.7771
ꭼꮝꭺꮈ	-11.7772
ꮝꮪꮯꮝ	-11.7788
ᏸꮜꮫ	-11.7806
ꮹꮧꮩꭿ	-11.7829
ꮅꮵꮩꮂꮝ	-11.7833
ꭴꮒꭺꮅᏸ	-11.7851
ꮣꮕꮨꮠ	-11.7865
ꭱꮳꮡᏸ	-11.7867
ꮒꮜꮕ	-11.7867
ꮳꮣꮕꮯ	-11.7871
ꮳꮣꮕꮨ	-11.7872
ꮒꮳꮫꮏꮥ	-11.7872
ꮒꮪꮒꮺꮞ	-11.7876
ꮥꭴꮈꮻꮝꮣꮑ	-11.7895
ꭰꮎꮱꮧꮝ	-11.7899
ꮹꭶꮨ	-11.7902
ꭴꮝꮣꮹꮧ	-11.7904
ꮪꭷꮏꮑ	-11.7908
ꭲꮵꮿꮕ	-11.791
ꮧꮳꮣꮅ	-11.7914
ꭰꮹꮨꮝ	-11.7926
ꮞꭾꮅ	-11.7935
ꭰꮠꮲꭲꮝꮧ	-11.7937
ꮆꮔꭱ	-11.7938
ꮣꮩꮅꮝꮤꮒ	-11.7953
ꮵꮿꮣꮩꮅꮝꮣꮑ	-11.7955
ꮸᏸꮅꮞ	-11.7965
ꭲꭹꮹꮫ	-11.7969
ꭴꮝꮖꮒꭺ	-11.7977
ꭲꮴᏺ	-11.7979
ꮥꮳꮣꭸᏻ	-11.7988
ꭳꭹꮑ	-11.7991
ꮅꮇꭼ	-11.7992
ꭰꭶꮩꭵꭿꮝ	-11.7996
ꭰꭹꮇ	-11.7998
ꭱꮃꮒ	-11.8004
ꮝꮣꮑꭾꮝꮧ	-11.8005
ꮒꭶꮦ	-11.8008
ꮧꭼꮹꮈꮜ	-11.801
ꭴꮅꮝꮖ	-11.8011
ꭹꮗꮣꮈ	-11.8011
ꮣᏻꮣꮄꮕ	-11.8013
ꭶꮄꮕꮤ	-11.8014
ꮿꮅꭱꮅꮴ	-11.8015
ꮪꮻꮝꮤ	-11.8016
ꮕꮅꮜꮅ	-11.8016
ꭰꮒꮟꮎꮜ	-11.8017
ꮒꮝꭶꮕꮎ	-11.8019
ꮰꭿꮝꮫ	-11.8022
ꮝꭶꮞꮧ	-11.8026
ꮣꭶꮅꮝꮩꮧꮝꭼ	-11.8027
ꮣꮖꭷꮎꮕꭹ	-11.8027
ꮣᏻꮔꭺꮸ	-11.8028
ꮳꭷꮫ	-11.8029
ꭰꮅᏸꭲ	-11.8031
ꮪꮻꮫ	-11.8032
ꮒꭹꮫ	-11.8033
ꭴꮎꮄꮎ	-11.8035
ꭶꮤꭿᏻ	-11.8035
ꮳꮃꮟꮥꮒ	-11.8035
ꮷꮒꮃꮻ	-11.8036
ꮣꭶꮦꮩꭲ	-11.8036
ꮏꮈꮝꮧꮝꭸꮝꮧ	-11.8036
ꭰꮖꮣꮕꮤꮹꮥ	-11.8036
ꭱꮶꭲᏻꮧᏹ	-11.8036
ꭲꮵꮗꮣꮈ	-11.8036
ꭲꮸꮼꮑꮤꮕ	-11.8036
ꭴꮎꮅꮝꮣᏼꮓꮕ	-11.8036
ꭴꮑꮃꮧꮩꮂ	-11.8036
ꭴꮥꮨᏼꮜꮧꮢ	-11.8036
ꭴꮺᏺꮣꮫ	-11.8036
ꭼꮹꭺꮑꮆꭿꮞ	-11.8036
ꮒꮣꮩꮣꮘꮢ	-11.8036
ꮒꮪꮎꮡꮄꮂꮎ	-11.8036
ꮕꮛꮑꮈ	-11.8036
ꮥꮛꭿꮝꮧ	-11.8036
ꮫꮒꮎꮔꭺꮵ	-11.8036
ꮳꮝꭶꮕꭺ	-11.8036
ꮵꮕꭺꭵꮧ	-11.8036
ꮽꮨꮕꮝꮤꮑ	-11.8036
ᏻꮼꮅꮴ	-11.8036
ᏼꮣꮖꮆꭵ	-11.8036
ꭰꮴꮇꭿ	-11.8036
ꭴꮒᏺꮰꭿꮞꮈ	-11.8036
ꭴꮝꮧᏸꮤꮑ	-11.8036
ꭴꮞꭶꮸꭿ	-11.8036
ꭴꮤᏺꮈ	-11.8036
ꭴꮧꮜꮣꮫ	-11.8036
ꭸꮳꮣꮡᏼ	-11.8036
ꮟꮋꮿꮒ	-11.8036
ꮥꭶꮥᏺꮂꮝꭼ	-11.8036
ꮧꮣꮩꮺꮩꭵ	-11.8036
ꮪꮼꮡꮄ	-11.8036
ꮻꭸꮳᏺꮅ	-11.8036
ꮼꭿꮅᏼꮝꮣꮑ	-11.8036
ꭴꭷᏺꮫ	-11.8036
ꭴꮎꮣꮕꮤꮹꮥ	-11.8036
ꭴꮒᏼꮤꮒꭿꮝꮧ	-11.8036
ꭴꮓꮁꭶ	-11.8036
ꭴꮣꮒꮅꭸ	-11.8036
ꭶꮃꮝꮲ	-11.8036
ꮒꮪꮹꮑꮄ	-11.8036
ꮣꮎꮅꮝꮣᏼꮂꮝꭸ	-11.8036
ꮣꮒꭷꮏꮹꮧ	-11.8036
ꮪᏸꮅꭿꮝꮤꮕ	-11.8036
ꮪꮪꭺꮤꮕ	-11.8036
ꮳꮣꮱꮧꮝꭺ	-11.8036
ꮵꮣꮎꮥᏺꮂꮝ	-11.8036
ꮵꮪꮣᏺꮞ	-11.8036
ꮻꮸᏺꮅ	-11.8036
ꮻꮸꮇꮴꮈ	-11.8036
ꭰꮖꮄꮒꮩꮈ	-11.8036
ꭳꭶꮫꮕꭲꮝꮧ	-11.8036
ꭴꮹꮎꮣꮄ	-11.8036
ꭵꮦꭳꭹ	-11.8036
ꮝꮗꮅꮞ	-11.8036
ꭲꮶꮅꭹ	-11.8036
ꮧꮣꮒᏹꮝꭹ	-11.8036
ꭴꮒꮠꮲꭲꮝꮤꮕ	-11.8036
ꮡꮯꮆꮫꮙ	-11.8036
ꮪꮺꮯꮜꮕ	-11.8036
ꮣꮎꮥꮝꭺ	-11.8036
ꮣꮣꮼꮝꮧ	-11.8036
ᏹꮶꮅꭶ	-11.8036
ꭲꮳꮅꮟꮎꭿꮝꮧ	-11.8036
ꭴꮎꮪꮅꮝꭺ	-11.8036
ꮪꮅꮟꮂ	-11.8036
ꭴꮼꮒꮞ	-11.8036
ꭹꮪꭲꮝꮣꮑꮈ	-11.8036
ꭰꭶꮼꭱ	-11.8036
ꮒꮅꭵꮒꮈ	-11.8036
ꮥꮷꭺꮧꮝ	-11.8036
ꭰꮎꮧꮢꭿ	-11.8036
ꭵꮗꮅꮞꮈ	-11.8036
ꮣꮎꮧꮤꮝꭸ	-11.8036
ꮪꮕꮹꮕꭹ	-11.8036
ꭰꮖꮅꭾꮅꮸ	-11.8036
ꭴꮕꮒꮝꮧᏹ	-11.8036
ꮷꮅꮟꭼ	-11.8036
ꭱꮣꮅꮝꭶꮝꮩꮫ	-11.8036
ꭱꮴᏺꮕ	-11.8036
ꭴꮝꮨᏸꭼ	-11.8036
ꭴꮒꮖꮨꮝꮧ	-11.8036
ꭿꭹꮅᏺꭼ	-11.8036
ꮩꮧꭷꮒꮝꭼ	-11.8036
ꭰꮖꭷꮫ	-11.8037
ꮎꮮꭼ	-11.8037
ꮒꭶꮵᏼꮑꮂ	-11.8037
ꮅꮤꮧꮕꮞ	-11.8037
ꭴꮅꮝꮥꮝꮤ	-11.8037
ꭴꮵꮈꮢ	-11.8037
ꮧꭴꮸꮞ	-11.8037
ꭴꮎꮅꮵꮩꮕ	-11.8037
ꭼꮝꮧᏸ	-11.8037
ꮪᏸꮅꮟꮩ	-11.8037
ꮹꮠꮎ	-11.8037
ꭴꮔꮲ	-11.8037
ꭴꮨꮝꮫ	-11.8037
ꮎꮣꮧꮝꭺ	-11.8037
ꮥꭴꮇꭼ	-11.8037
ꮩꮲꮎ	-11.8037
ꮧꮰꭿꮝ	-11.8037
ꮶꮵꮹꮎꭶꮃ	-11.8037
ꭷꮩᏼ	-11.8037
ꮒꮪꮫꮑꮈ	-11.8037
ꭱꮣꮣꮩꮅꮝꮣꮑ	-11.8037
ꮵꮔꮝꮩ	-11.8037
ꭴꮥꮿꮤꮑꮄ	-11.8037
ꮅꮝꮧᏸꮣꮑ	-11.8037
ꮻꭼꮹᏼꮤꮑ	-11.8037
ꭴꮣꮹꮧꮝꮩꮫ	-11.8037
ᏹꮎꭶꮺ	-11.8037
ꭴꮅꮟꮎꭿꮝꮧ	-11.8037
ꭴꮥꮿꮤꮑꮈ	-11.8037
ꭸꮅꮜꮥ	-11.8037
ꮣꭹᏺꭿꮞꮈ	-11.8037
ꭴᏼꮝꮥꮝ	-11.8037
ᏹꮪꮣꮜ	-11.8037
ꭷꮓꮝꭶ	-11.8037
ꮣᏹꮣꮅ	-11.8037
ꮪꮒꮓꭹꮢ	-11.8037
ᏼꭶꭶꮧ	-11.8037
ꮒꭴꮺꮞ	-11.8037
ꭶꮵꮕꮼꮧ	-11.8037
ꭰꭹᏺꮁꭿꮝꮧ	-11.8037
ꭰꮅꭾꮅꭺ	-11.8037
ꭴꮶꮝꮧ	-11.8037
ꭳꭹꮎꮅꭺ	-11.8038
ꮩꮧꭶꮆ	-11.8038
ꭴꮎꮣꮩꮅꮝꮩ	-11.8038
ꭶꮃꭸᏼ	-11.8038
ꮜꮫꭵꮝ	-11.8038
ꮪꭺꮣꮑꭿ	-11.8038
ꭰꮫꭹꮝꭹ	-11.8038
ꭴꮎꮅꮓꭿᏼꭿ	-11.8038
ᏻᏸꮈꮑ	-11.8038
ꭰꮎꭲꮞ	-11.8038
ꮒꮣꮫꮑꮂ	-11.8038
ꭳꭶꮒꭹꮢ	-11.8038
ꭰꮵꮒꮜꮕ	-11.8038
ꮎꮖꮫꮕ	-11.8038
ꮷꮜꮄꮕ	-11.8038
ꮣꮒꮝꭶꭲꭾ	-11.8038
ꭰꮒꮕꮬ	-11.8038
ꭴꮕꮹꮑ	-11.8038
ꮧꭹꮕꮢ	-11.8038
ꮃꮡꮈ	-11.8039
ꭼꮹꮫꭶꮑꮈ	-11.8039
ꭴꮺꮃꮧꮝ	-11.8039
ꭲꮵꭶꮤꮎꭲ	-11.8039
ꭴꮼꮑꮤꮕ	-11.8039
ꮔꮅꮝꮪꮈ	-11.8039
ꭴꮔꭺꭲꮝꮧ	-11.8039
ꭰꮞꮅꮫꮝ	-11.8039
ꭲꭼꮹꮝꮧꭽ	-11.8039
ꮟꮧꮢ	-11.8039
ꮪꮇꭼ	-11.8039
ꭲꭶꮅꮝꮣꮑꮧ	-11.8039
ꮁꮆꮧ	-11.8039
ꮪꮡᏸꮞ	-11.804
ꮽꮒᏼꮝꮧ	-11.804
ꭴꮒꮝꮫꮧꮝ	-11.804
ꮣꮎꮄꭿꮜꮕ	-11.804
ꮷꮎꮣꮒꮈꭲꮝꮧᏹ	-11.804
ꭶꮩꮄꭳꮝꭶ	-11.804
ꮷꮎꮪꭺꮣꮑꮧ	-11.804
ꭰꮒꮅꮎ	-11.804
ꭰꭹꮑꭻ	-11.804
ꭶᏼꮣꮧ	-11.804
ꭴꮫꮒꮧꮝ	-11.804
ꮠꮲꮤ	-11.804
ꮣᏻꮒꮔꭺꮸ	-11.804
ꮣꮰᏹꮂ	-11.8041
ꭾꮩꮂ	-11.8041
ꮩꮧꮎꮅꮝꮣᏼꮂꮝꭼ	-11.8041
ꭴꮣꮕꮩꭹꭿ	-11.8041
ꭳꭹꮝꮫꮧꮝ	-11.8041
ꮻꭼꮹꮨꮕꮝꮤ	-11.8041
ꮅꮝꮣꮑꮅꮥꭼ	-11.8041
ꮵꮿꮅꭺ	-11.8041
ꮒꭶꮎᏸꮝꭼꮎ	-11.8041
ꭰꭹꮒꭼꮞꮂ	-11.8041
ꮪꮅꮒꮖꮕꮑ	-11.8041
ꭰꮣꮼꮝꮧ	-11.8041
ꭴꮧꭶꮅꮝꮩ	-11.8042
ꮧꭸꮷꭺ	-11.8042
ꭴꮒꮑꭲꮝꮤꮕ	-11.8042
ꮷꮒꭶꮠꭰ	-11.8042
ꮓꮝꭹꮝꮧᏹ	-11.8042
ꮽꮎꮨꮕꮝꮤ	-11.8042
ꭲꮿꮣꮫꮑ	-11.8042
ꭴꮪꮣꮈ	-11.8042
ꭱꮵꭶꮩꭵꮢ	-11.8042
ꮷꮔꭺꮩꮧ	-11.8042
ꭶꮅꮶꮩꮧ	-11.8042
ꭰꮿꮩꮅ	-11.8042
ꮷꮨᏺ	-11.8043
ꭱꮶꭿᏻꮂꮝ	-11.8043
ꮹꮒꮆꮢ	-11.8043
ꮧꮒꮄꮒ	-11.8043
ꮥꭹꮒᏼ	-11.8043
ꮧꮹꮫꭿ	-11.8044
ꮒꮕꭺꭰ	-11.8044
ꮪꮒꮿꮩ	-11.8044
ꮧꮒꮩꭼ	-11.8044
ꮕꮹꮫꮑ	-11.8044
ꭱꮵꮩꮅꮸ	-11.8044
ꮃꮹꮧꮢ	-11.8044
ꮣꮒꮈꭼꮎ	-11.8044
ꭳꮵꭹꮅᏺꭼ	-11.8044
ꮪꮒꮪꮂ	-11.8045
ꭴꮣꭺꮅᏸꮧ	-11.8045
ꮓꮅꮴ	-11.8045
ꮒꮳꮅꮝꮧ	-11.8045
ᏹꮵꮹꮨꮝꭺ	-11.8045
ꮥꭼꮹꮒꭾ	-11.8046
ꮒꮇꮵ	-11.8046
ꮻꮣꮖꭷꮎꮕꭹ	-11.8046
ꭰꮵꮩꮅꮝꮧ	-11.8046
ꮧꭶꮄᏼ	-11.8046
ꮝꭶꭲꭾ	-11.8046
ꭴᏸꮆꭲꮝꮤ	-11.8047
ꭴꮎꮄꮕꮂ	-11.8047
ꭰꮲꮘꮝꮧ	-11.8047
ꭴᏹꮈ	-11.8047
ꮎꮙꭿᏻ	-11.8047
ꮝꮣꮹꮫꮢ	-11.8047
ꮒꭶꮇꮆ	-11.8047
ꭰꭹꮻꮿ	-11.8047
ꭴꮎꮣꮩꮅꮝꮧ	-11.8047
ꭴꮣꮩꮅꮝꮤꮕꮞ	-11.8048
ꭰꮝꭹꮣꮝꭼ	-11.8048
ꮳꭶꮈꭾ	-11.8048
ꮻꭴꮒꮆꮞ	-11.8048
ꮔꮅꮒꭼꭼ	-11.8048
ꮥꭶꭷꮂ	-11.8048
ꮸꭸꮻ	-11.8049
ꮎꮩꮲ	-11.8049
ꭱꮵꮩꮅꮝꮧ	-11.8049
ꮺꮆꮧ	-11.805
ꭼꮹꮔꭿ	-11.805
ꮣꮎꮜꮂꮝꭹ	-11.805
ꮥꮳꮣꮕꮦꮝ	-11.805
ꭰꮯꮝꮥ	-11.8052
ꭰꮒᏺꮝꮧꮝ	-11.8052
ꭴꮫꮣꮝ	-11.8052
ꮎꭹꮂꮎ	-11.8053
ꮔᏺꮁꮢ	-11.8053
ꭰꮖꮅꭾꮅꮝꮧ	-11.8053
ꭴꮣꮕꭱꮄ	-11.8054
ꭰꮖꭻᏼ	-11.8054
ꭴꮒꮆꮠꮕ	-11.8054
ꭰꭹꮝꮖꮫ	-11.8055
ꮔꮝꮧꮥꭼ	-11.8055
ꮥꮳꮣᏺꮅ	-11.8055
ꭰꭹꮿꭵ	-11.8056
ꭲꮸᏺꮞ	-11.8057
ꭰꮵꮕꮑ	-11.8057
ꮷꮹꮤꮑ	-11.8058
ꮅᏸꭲꮆ	-11.8058
ꮨꮕꮞ	-11.8059
ꮩꮧꭷꮕ	-11.8059
ꭲꮷꮦ	-11.8059
ꭲꮵꮯꮜ	-11.806
ꭰꮒꮎꮔꭺꮻꮝ	-11.806
ꮕꮏꮥ	-11.806
ꭰꮵꮝꮪ	-11.8061
ꮿꮫꮣꮝꮣ	-11.8061
ᏼꮧꮣꮄꮂꮝ	-11.8062
ꭶꮤꮂꮝꮧᏹ	-11.8062
ꭴꮝꮖꮒꭺꮤꮑ	-11.8062
ꭼꮹꮒᏼꭾ	-11.8062
ꭰꮵꮫꮩꮧ	-11.8062
ꮧꮒꮑꭿ	-11.8064
ꭰꮖꮩꮄꮀꭿꮝ	-11.8064
ꮧꭶꮔꭺ	-11.8064
ꮣꮝꮧᏸꮧꮝꭼ	-11.8065
ꮻꮵꮇꮴ	-11.8065
ꭴꮣᏻꮣꮄꮕ	-11.8066
ꭶꮱꮧꮝꭼ	-11.8066
ꮶꮵᏸꮈ	-11.8066
ꭰꭹꮹꮫꮂ	-11.8067
ꮿꮕꭿꮈ	-11.8067
ꭳꮴꮂ	-11.8068
ᏻꮒꭺꭾ	-11.8068
ꮨꮒꮢ	-11.8068
ꮿꮻꮞ	-11.8069
ꮷꮻꮞ	-11.8069
ꭰꮣꮕꮦꮝꭸ	-11.8069
ꮹꭶꮣꭲꮕ	-11.8069
ꮝꮪꭹꭱ	-11.8069
ꮪꮃꮧꮝ	-11.807
ꮹꮫꮤꮑ	-11.807
ꭰꮙꮈ	-11.807
ꮪꮒꮝꮧᏸ	-11.8073
ꮪꮼꮲ	-11.8073
ꮩꭹᏺ	-11.8073
ᏹꭶꭷꮂꮝ	-11.8074
ꭴꮝꮖꮧꮝꮧᏹ	-11.8074
ꮥꭹꮈꮻꮝꮣꮑꮈ	-11.8075
ꮪꮼꮑꮤꮑ	-11.8075
ꮝꭹꭸᏻꭿᏻ	-11.8075
ꭳꮵꮼꮒꮝꭼ	-11.8075
ꭸꮳꮱꮧꮝꭼ	-11.8076
ꮷꭸᏻꭿᏻ	-11.8076
ꮰꭵꮤ	-11.8076
ᏹꮩꭼꮹ	-11.8078
ꮥꭹꮈꮻꮝꮣꮑꮂ	-11.8078
ꮪᏺꭿꮞꮈ	-11.8079
ꮵꭶꮇꭺ	-11.8079
ꭳꮎꮻᏹ	-11.8079
ꭲꮸᏺꭲᏻ	-11.8082
ꭲꮧꮝꭶꮎ	-11.8082
ꭽꮅꮝꮣᏼꮂ	-11.8083
ꮣꮝꮥꮅꮝꭼ	-11.8084
ꮩꮣꮵꮿ	-11.8085
ꭰꭹꮇꮸ	-11.8085
ꮪꮒꮑꮄ	-11.8086
ꭰꮵꮈꮙꮩꮧᏹ	-11.8086
ꭼꮹꮱꮧꮝꭼ	-11.8087
ꭴꮪꮣꮥꮻꮢ	-11.8088
ꭴꭼꮝꭺꮈꮑ	-11.8088
ꭰꭶꮨꮕ	-11.8088
ꭱꮵꭸᏻꭲ	-11.8088
ꭴꮎꮅꭾꮅ	-11.8089
ꮒꮵꮺꮢ	-11.8091
ꭶꮆꮠꮕ	-11.8092
ꮪꮑꮢ	-11.8092
ꮵꮺꮞꮅ	-11.8093
ꮷꮎꮫꮎ	-11.8095
ꮻꮨꮿ	-11.8095
ꮧꭺꮹꮨ	-11.8096
ꮧꭸꭶꮈ	-11.8096
ꮅꮝꭶꮝꮩꮤꮕ	-11.8096
ꭰꭻꭲꮝꮧꮝꭼ	-11.8099
ꮮꮴ	-11.8099
ꮷꮒꮝꮣ	-11.81
ꮝꮖꮒꭺꮤꮑ	-11.81
ꭴꮎꮅꮝꮣᏼꮕꭿ	-11.8103
ꮵꮒꭸꮞ	-11.8104
ꭰꮒꭶꮤꭿᏻ	-11.8104
ꭴᏺꮟꮜ	-11.8105
ꭴꮼꮒꭿꮝꮧ	-11.8106
ꮿꮝꭶꮕ	-11.8106
ᏺꭹꮒ	-11.8107
ꮖꭷꮏꮕ	-11.8108
ꮖꮪꮅꮝꭼ	-11.8109
ꭴꮎꮔꭺꮻꮟ	-11.8109
ꮝꮣꮃ	-11.811
ꮧꭺꮺꮃꮕ	-11.811
ꮿꮣᏹ	-11.8112
ꮣꮒꮩꭸ	-11.8113
ꭴꮅꮝꮖꮫ	-11.8113
ꭵꭹꮩ	-11.8114
ꭴꭼꭽꮇᏼ	-11.8115
ꮝꮖꮒꭺꮧᏻ	-11.8115
ꮧꭹꮒᏼ	-11.8116
ᏺꮮꭿ	-11.8118
ꮧꮒꮆ	-11.8118
ꮧꭸꭶꮼꮝ	-11.8119
ꮽꮎꮧꮕ	-11.8119
ꮵꮝꭺꮈ	-11.8121
ꮺꮞꮂ	-11.8122
ꮳꭷꮅꭲ	-11.8122
ꮧꭼꮹꮒꮠꮲ	-11.8123
ꭱꮃꮺꮙ	-11.8125
ꮣꮯꮆꮝꮧ	-11.8127
ꭶꮵꮿꮣꮩꮅꮝꮣꮑ	-11.8129
ꮻꭶꮆꭿ	-11.8129
ꭴꮲꮘꮝ	-11.8131
ꭰꮵꮿꮕꮂ	-11.8131
ᏻꮹꮫꭾ	-11.8134
ꮥꮑꮄ	-11.8136
ꮷꮾꮤ	-11.8137
ꮵꮝꮪꭲꭱ	-11.8137
ꭶꮅᏼ	-11.8138
ꮅꮰꮿꮝꮧ	-11.8141
ꭲꮳꮣꮕꮦꮝ	-11.8142
ꮎꮒꭶꮤ	-11.8142
ꮵꮿꮅꮝꭶꮝꮩ	-11.8142
ꮜꮃꮣꮑ	-11.8145
ꭰꮓꭿᏻꮂꮝ	-11.8146
ꭼꮼꮅꮴ	-11.8149
ꮥꮳꮈꮻꮝꮣꮑꮈ	-11.8151
ꮧꮴꮇ	-11.8152
ꭲꮳꮅꮝꮣᏼꮂꮝ	-11.8152
ꮅꮋ	-11.8153
ꮑꭲꮝꮣꮑꮧ	-11.8159
ꭼꭹꮹꮫ	-11.816
ꭲꮵꮎꮔꭺꮻ	-11.816
ꮥꭽꮥᏺꮂꮝ	-11.8161
ꭴꮎꮶ	-11.8163
ꭴꮝꮲꮒꮝ	-11.8164
ᏺꭲꮞꮄ	-11.8167
ꭷꮓꭾꮝꭸ	-11.8167
ꭼꮓꮜ	-11.8171
ꮒꭶꮄ	-11.8174
ꮥꭽꮥᏺꮂꮝꭼ	-11.8177
ꮠꮕꭲꮝꮤꮕ	-11.8178
ꭰꮹꮨꮝꭺ	-11.8179
ꭳꭶꮪꮅꮝꭼ	-11.8179
ꮪꮅꮝꮪ	-11.818
ꭴꮆꮟ	-11.8181
ꮔꮫꮑ	-11.8184
ꮽꮎꭶꮤꮂꮝꮤ	-11.8185
ꮧꭻꭺꮣꮑ	-11.8189
ꮵꭺꭵꮝꭶ	-11.8193
ꭰꮎꮅꮝꮣᏼꮧꮝꭼ	-11.8197
ꭶꮲꮖ	-11.8197
ꮎꮵꮺꮞꮄ	-11.8201
ꭲꮷꮕꮑ	-11.8206
ꮳᏺꮁ	-11.8209
ꭰꭺꮂꮝꮩꮧ	-11.821
ꭴꮤꮥꭹꮝ	-11.8213
ꮇꭿꮝꮣꮑ	-11.8215
ꮒꮵꮺꮞꮈ	-11.8216
ꮣꮨꮑꮂ	-11.8218
ꭰꮗꮕꮝꮧ	-11.8219
ꮎꮖꮝꮧ	-11.8222
ꮵꮑꮄ	-11.8226
ꮧꭼꮹꮒᏺꮁꭿ	-11.8227
ꭰꭹꮎꭵ	-11.8227
ꭲꮸꮿꮕꮣꮧꮝꮧ	-11.8228
ꭶꮜꮿꮝꮤꮕ	-11.8228
ꮞꮅꮩꮧ	-11.823
ᏻꮣꮄ	-11.8231
ꭶᏸꮵꮝꮥꮈ	-11.8241
ꮧꮧᏺ	-11.8245
ꭰꮅꮝꭺꮈꮣꮑ	-11.825
ꮵꮻꮕ	-11.8251
ꮒꮪꮺ	-11.8254
ꭼꮹꮨꮓꮈ	-11.8257
ꮓꮳꮫꮑ	-11.8263
ꮒꮥꭼꮑꮂ	-11.8267
ꭺꮑꮆꮝꭸ	-11.8269
ꮅꮓꭾꮤꮕ	-11.8272
ꭰꮵᏸꮈꮎꮑꮄ	-11.8273
ꮪꮣꮒꮈꮸ	-11.8275
ꭼꮹꮒꮇꮴ	-11.8286
ꭺꭿᏻꮂꮝꭺ	-11.8289
ꭳꮵꮓꭾꮝꭼ	-11.8289
ꭶꮅꮵꮩꮂꮝꭼ	-11.8294
ꭴꮺꮩꮅꮝꮧ	-11.8295
ꮷꮎꮩ	-11.8297
ꮥꮵᏺ	-11.8301
ꭼꮹꮝꮣ	-11.8309
ꮣᏼꮝꮥꮝꮧ	-11.8312
ꭹꮺꮝꮧ	-11.8312
ꭴꮒꮫꮧꮝ	-11.8314
ꮷꭼꮹꮄ	-11.8315
ꭼꮹꮈꮝ	-11.8319
ꮳꮰꮿꮝꮧꮝ	-11.8322
ꮒꮎꮥ	-11.8323
ꮷꮓꮈ	-11.833
ꭼꮹꮓꮅꮝ	-11.8338
ꭼꮹꮕꮑꮧ	-11.8344
ꭰꭹꮓꭾꮝꭼ	-11.8359
ꮶꭿᏻꮂꮝ	-11.8361
ꭼꮹꮣꮱꮻꮝꮤ	-11.8362
ꮳꮫꮣꮝꮣꮑ	-11.8386
ꮥꭻꭺꮣꮑ	-11.8387
ꭲꮿꮖꮅꮝꮣꮑ	-11.8413
ꮽꮓꮑ	-11.8413
ꭺꮂꮝꮩꮧ	-11.8413
ꮲꮖꮝꮩꮧ	-11.842
ꭰꮄꮒꮣꮝꮧ	-11.842
ꭴꮝꮣꮹꮫ	-11.8433
ꭰꮒꮎᏸꮝ	-11.8446
ꮣᏸꮝ	-11.8448
ꭼꮇꮴꮅ	-11.845
ꮎꮎꮣꮫ	-11.8453
ꮧꮢꮒ	-11.8455
ꭶꭷꭾ	-11.8464
ꮕꮻꮝꮧ	-11.8495
ꮓꭹꮺ	-11.8502
ᏻꮑꮴ	-11.8512
ꭶᏸꮜꮫ	-11.8519
ꭶꮦꮓꮂ	-11.8521
ꭼꮼꮞꮄ	-11.8529
ꮵᏺꮝꮣ	-11.8529
ꮒꮳꮅꮝꮣꮑꮂ	-11.853
ꮵꭷꮂ	-11.8533
ꮞꮅꮤꮑ	-11.8547
ꮣᏺꮴ	-11.8552
ꮿꮨꮓꭿ	-11.8555
ꮧꮄꭼ	-11.856
ꭲꮸꮿꮫꮑ	-11.8588
ꮪꮰᏹ	-11.8589
ꮅꭾꮅꭸꮝꮧ	-11.8604
ꮧꮳꮰᏹꮈ	-11.8611
ꮧꮙᏸ	-11.864
ꮳꮝꭶꮕꮴ	-11.8643
ꭹꮃꮎꮃꮧꮝ	-11.8644
ᏼꭶꭼ	-11.8647
ꮒꮈꮻꮝꮣꮑꮈ	-11.8679
ꭿꮿꮩꮅ	-11.8687
ꭴꮺꭷꮂ	-11.869
ꭹꮝꭶꮕꮸ	-11.8699
ꮥꮆꮖꭱꮈ	-11.8717
ꮥꮳꮼꮝ	-11.8725
ꮣꮎꮣꮕ	-11.873
ꭳꮳꮅꮝꭶꮝꮩ	-11.8743
ꮸꮓꭾꭾ	-11.8753
ꭰꮣꮝꮥꮅꮝ	-11.8757
ꭴꮹꮒ	-11.8768
ꭱꮳꮈ	-11.8789
ꭰꮒꮝ	-11.8799
ꮒꮳꮣꮕ	-11.8801
ꭲꮸᏸꮃꮧꮩꮈ	-11.8817
ꮥꮳꮨꮓ	-11.8852
ꭰꮝꮖꮈ	-11.8854
ꮳꭷꮂ	-11.8866
ꮵꭶꮿꮇ	-11.8892
ꮣꮫꮕꭲꮝꮣ	-11.8896
ꮒꮳꮫꮑꮀ	-11.8896
ᏺꭴꮅ	-11.891
ꮖꮑꮆ	-11.8912
ꮴꮕꭲꮝ	-11.8921
ꮢꭶꮃ	-11.8956
ꮣꮥꮅꮞ	-11.896
ꭼꮹᏺꮝꮩ	-11.8963
ꮣꮨꮑ	-11.8979
ꭻꭲꮝ	-11.8985
ꭴꮒꮔꭺꮻ	-11.8994
ꮶꮲꮕ	-11.9009
ꮯꮆꮝꮤ	-11.9018
ꮧꭼꮹᏺꭿ	-11.9028
ꭿᏻꮂꮝꭶ	-11.9043
ꮣꮒꮃꮻ	-11.9062
ꮄꮒꮣꮝꮧ	-11.9075
ꭰꮒꭺꮹꮨꮝꭸ	-11.908
ꭴꮑꮅꮢ	-11.9086
ꭼꮝꭶꮃꮕ	-11.9119
ꮹꮒᏼꭿ	-11.9124
ꮳꮅꮝꭶꮝꮩꮫ	-11.914
ꭰꮒꮑꮈ	-11.9146
ꭴꮣꮑꮯᏼꮝ	-11.9151
ꭼꮹꮓꭾ	-11.9163
ᏻꮆꮢ	-11.9188
ꮳꮒꭹꮝ	-11.919
ꭺꮅꭼ	-11.9209
ꭸꮶꭿᏻꮂ	-11.9219
ꮵꭺꮅᏸꮝꭸꮝꮧ	-11.9234
ꭼꮹꮤᏺꮞ	-11.9244
ꭰꮎꮧꮝ	-11.9246
ꭲꭹꮝꮥꮅ	-11.9262
ꮣꭺꮎꮫ	-11.9278
ꭰꭹꮓꭾꮝ	-11.9299
ꭲᏻꮎꮅꮝꮤꮕ	-11.9301
ꮔꮎꮣꮑꮯᏼ	-11.9329
ꮕꮧꮝꭺ	-11.9343
ꮑꮅꮞ	-11.9343
ꭴꮎꮕꮣ	-11.9351
ꭴꮎꮣꮔᏼ	-11.9364
ꭼꮝꭶꮈ	-11.937
ꮡꮄꮧ	-11.9372
ꮽꮒꮓꮑ	-11.9378
ꭰꮒꭺꮹꮨꮝ	-11.9381
ꮷꮒꮔꭺꮻ	-11.9397
ꮽꮇꮴꮄ	-11.9407
ꮹꮤꮑ	-11.9411
ꮪꮑꮆ	-11.9425
ꭴꮅꮶ	-11.9436
ꮷꮽꭺꮣꮑꮧ	-11.9483
ꮒꭸꮸꮑ	-11.9487
ꭲꮳꮥꮆꮖ	-11.9488
ꭲꮵᏸꮈꮢ	-11.9522
ꭷꮑꭲꮝ	-11.9533
ꮣꮫꮝꭼ	-11.9562
ꭶꮪꮅꮝꭼ	-11.9564
ꮒꮺꮝꭸ	-11.9565
ꮎꮨꮑ	-11.9586
ꭲꮳꮣꮕ	-11.959
ꮎᏸꮝꭸꮝꮧ	-11.9609
ꮣꮼꮝꮩꮧ	-11.9631
ꮝꭶꮕꭼ	-11.965
ꮵꮑꮳꮫꮑ	-11.967
ꮅꮶꮫ	-11.969
ꭴꮲꮸ	-11.9696
ꮧꮴᏺꮂ	-11.9699
ꮪꭶꮤꮂ	-11.9705
ꭸꮴꮃꮧꮩ	-11.9718
ꮣꮒᏸ	-11.9721
ꭰꮒꮝꭶꮕ	-11.9741
ꭶꮅꮂ	-11.9801
ꮵꮎꮒꮺ	-11.9807
ᏺꮝꮤꮕ	-11.9816
ꮣꭷꮏꮹꮧꮩ	-11.9829
ꮣꭶꮕ	-11.983
ꭴꮦꮈ	-11.9833
ꮝꮫꮧꮝꭸ	-11.9858
ᏸꮕꭱ	-11.9859
ꮈꮻꮝꮣꮑꮄ	-11.9862
ꭺꮎꮫꮤꮕ	-11.9863
ꭹꮒᏼ	-11.9925
ꮎꮣꮸꮿꮝ	-11.9933
ꮇꮈꭵꮝ	-11.9941
ᏻꮹꮑꮅ	-11.9955
ꭿꮓꭾꮝ	-11.9976
ꭷꮑꭺ	-11.9978
ꭰꭹᏸꮈꮢ	-12.0017
ꭼꮝꭶꮃ	-12.0025
ꭰꭹꮝꮥꮈ	-12.0037
ꮖꮣꮕꮦ	-12.004
ꭴꮎꮫꭶꮑꮈ	-12.0049
ꭼꮹꮅꭺꮑ	-12.0059
ꮃꮟꮥꮒ	-12.006
ꮬꮧꮝ	-12.006
ꮵꮎꮔꭺꮻꮞꮈ	-12.0061
ꭲꮳꮣꮕꭶꮈ	-12.0104
ꮕꮣꮧꮝꭼ	-12.0116
ꭰꭹꮝꮥꮅꮝ	-12.0124
ꮣꮨꮑꮧ	-12.0132
ꭲꮳꮣꮕꮣꮧꮝꮧ	-12.016
ꮵꮹꮫꭾ	-12.0172
ꭴꮼꮲꮕꮕ	-12.0188
ꮣꮒꮃꮝꮣ	-12.0277
ꮪꮎꮪꮻꮝ	-12.0279
ꮵꮃꮕꮣꮥ	-12.031
ꮖꮣꮕꮣꮧꮝ	-12.0316
ꭹꮅᏺꮸ	-12.0322
ꭶꮣꮕꮦ	-12.0339
ꮣꮄꮂꮝꭼ	-12.0355
ꭰꮠꮲ	-12.0367
ꭼꭹꮈꮙꮧ	-12.0394
ᏻꮤᏺꮞ	-12.0471
ꮫꮣꮝꮣꮑꭾ	-12.0504
ꭴꮎꮥꮆꮖ	-12.0505
ꮧꭶꮄꮿꮝ	-12.0538
ꮪꮄꮤꮑ	-12.0557
ꮳꭶꮤ	-12.0564
ꮵꮒꮥꭼ	-12.0581
ꮑꮲꮩꮧ	-12.06
ꭳꭶꮢ	-12.0601
ꭴꮎꮅꭺꮞ	-12.0601
ꭷꮂꮢ	-12.0613
ꮎꮑꮃꮧꮝ	-12.0615
ꮢꮒꮝꮧ	-12.0656
ᏺꭿꮞꮧ	-12.0691
ꭶꮎᏸꮝ	-12.0715
ꮄꭿꮜ	-12.0786
ꭼꮹꮝꭶ	-12.0822
ꮵꭶꭷ	-12.0826
ꭴꮅꮝꮥꮈꮩ	-12.0837
ꮅᏸꭲꮆꮈ	-12.0838
ꮟꮤꮥ	-12.0841
ꮝꭶꮃꮑꮈ	-12.0857
ꭰꮅꭾꮅꮴ	-12.0871
ꭰꮲꮖꮝ	-12.0874
ꮑꮸꮑ	-12.0898
ꮧꮻꮞꮧ	-12.0929
ꮎꮖꮅꮝꮣꮑ	-12.0937
ꮝꮖꮒꭺꮤ	-12.0962
ꮷꮣꮕꮦ	-12.0963
ꭷꮏꮹꮫꮝꮧ	-12.0965
ꭴꮎꮫꮣꮝ	-12.0965
ꮥꮳꮣꮒꮈ	-12.1013
ꭸᏺꮂꮝ	-12.1019
ꭴꭶꮫꮎ	-12.1061
ꭴꮤᏺꮞꮈ	-12.1064
ꮔꮎꮅꮝꮣꮑꮀ	-12.1083
ꮎꮵꮺꮞ	-12.1093
ꭶꮯꮟꮝ	-12.1102
ꮷꮽꭺ	-12.1111
ꮒꭸꭼꮑ	-12.1124
ꮔꮅꮝꮣꮑ	-12.1128
ꮒꮫꮑ	-12.1133
ᏼꮣꮖꮆꮝ	-12.1149
ꮔꭺꮻꮟ	-12.1151
ꭰꮎꮅꮝꮣᏼꮧꮝ	-12.1151
ꮖꮣꮔᏼ	-12.1153
ꮵꮎᏸꮝ	-12.1161
ꭲᏻꮎꮫꮑ	-12.1161
ꭴꮤꮥ	-12.1162
ꮸᏸꮃꮧꮩ	-12.1178
ꮝꮪꭲꮟ	-12.118
ꮝꮥꮞꮈꭿ	-12.1181
ꭵꭹꮈꮙꮧ	-12.1194
ꭴꮧꮄꮂꮝ	-12.1194
ꮵꮅꮶ	-12.1206
ꮴꮳꮫꮕ	-12.121
ꭷꮅꭲꮝꮤꮕ	-12.1215
ꮒꮸꮺ	-12.1219
ꮳꮫꭺꮧ	-12.122
ꭰꮒꮿꮩꭿ	-12.1224
ꮳꮣꮱꭼ	-12.1225
ᏺꭶꮫꮑꮧ	-12.1234
ꭰꮅꮝꭶ	-12.1236
ꭲꮣꮩꮄꮀꭿ	-12.1246
ꮤᏺꭿꮀ	-12.1252
ꮥꭹꮈꮻꮝꮣꮑ	-12.1264
ꮼꮝꮤꮕꭿ	-12.1281
ꮎꮭꭵꮎ	-12.1293
ꮅꮰꮿꮝ	-12.1304
ꭷꮏꮹꮧꮣ	-12.1308
ꮹꭿꮝꮤꮕ	-12.1309
ꮎᏸꮝꭶ	-12.1312
ꭳꮎꮻ	-12.1312
ꮏꮹꮧꮢ	-12.1313
ꮯꮆꮝꮣꮑ	-12.1318
ꮼꮑꮤꮑ	-12.1321
ꮧꮥᏺ	-12.1323
ꭰꮵꮈꮙꮩꮧ	-12.1323
ꮩꭿᏻꮂꮝꭶ	-12.1326
ꮝꮣꮑꮂ	-12.133
ꮟꮎꮜꮕ	-12.1335
ꭳꮵꮼꮒ	-12.1336
ꭰꮒꮿꮻꮝ	-12.1338
ꭸᏻꮠ	-12.1338
ꮳꮣꭸᏻꮢ	-12.1347
ꮪꮿꮕꭾ	-12.1347
ꮣꮕꭱꮄ	-12.1348
ꮒᏸꮈꮑ	-12.1349
ꮀꭿᏻꮂꮝ	-12.1352
ꮤꮃꮼꭿ	-12.1356
ꮅꮒꮖꮕꮑ	-12.1356
ꮔꮒꭼꮻᏻ	-12.136
ꮹꮩꭿꮿꮫ	-12.136
ꮹꭶꮦ	-12.1361
ꭴꮒꭼꮻᏻ	-12.1361
ꭼꮹꮨꮓꭾꮄ	-12.1362
ꮎꮅꮝꮣꮑꮧ	-12.1363
ꮣꭺꮔꮆ	-12.1364
ꮳꮅꭱꮅꮴꮧ	-12.1364
ꭰꭶᏼꮅ	-12.1365
ꮏꮝꮥꮲ	-12.1366
ꭸꮵᏺꮅ	-12.1366
ꮣꮅꮝꭺꮈꮧ	-12.1367
ꭶꮵꮿꮰꭲꮝꮣꮑ	-12.137
ꭰꮎꮅꮝꮣᏼꮒꮩꭾ	-12.137
ꭰꮒꭶꮿꮇꭵꮝꭹ	-12.137
ꭶꮜꮿꮝꮫꮎ	-12.137
ꮥꮣꭷꮒꮝꭼ	-12.137
~	-12.137
ᏹꮧꮵꮝꮣᏺ	-12.137
ꭰꮎꮅꮦꮈꮂꮝꭼ	-12.137
ꭰꮒꮑꮔꮃꮝꮧꮝꭺ	-12.137
ꭰꮖꮯꮒꭼꮑꮈ	-12.137
ꭰꮝꮖꮒꭺꮝꭸ	-12.137
ꭰꮵꮪꭲꮝꮣꮑꮈ	-12.137
ꭱꮶꭲᏻꮂꮝ	-12.137
ꭲꮅꭱꮜ	-12.137
ꭴꮅꮝꭺꮈꮤꮑ	-12.137
ꭴꮅꮟꮂꮞ	-12.137
ꭴꮎꮯꮆꭵ	-12.137
ꭴꮏꮝꭼꮴ	-12.137
ꭴꮒꮠꮕꮴꮄ	-12.137
ꭴꮝꭶꮕꮵꮩꮈ	-12.137
ꭴꮝꮖꮇꭺ	-12.137
ꭴꮪꭲꮝꮣꮑꮈ	-12.137
ꭵꮖꮈꭵ	-12.137
ꭶꮓꮄꮝꭼ	-12.137
ꮅꮑꮜꮈ	-12.137
ꮅꮒꮖꮕꮕ	-12.137
ꮊꮜꮿ	-12.137
ꮒꭶꮵꮺꮞꭽ	-12.137
ꮒꮝꮛꮑꮈ	-12.137
ꮔꮎꮩꮣꮘꮢ	-12.137
ꮝꭻꮥꮞ	-12.137
ꮠꭳꮑꮅꮑ	-12.137
ꮣᏸꮅꭿꮝꮧꮝꭼ	-12.137
ꮣᏻꮧꮹꮟ	-12.137
ꮥꮵꭶꮏꮹꮧꮢ	-12.137
ꮧꭶꮈꮜꮣꮧꮝ	-12.137
ꮪꮒꮃꮻꮫ	-12.137
ꮪꮕꮅᏸꭵ	-12.137
ꮪꮕꮒꮝꮤꮑ	-12.137
ꮪꮽꭺꮣꮑꮄ	-12.137
ꮳꮝꮥꮕꮸ	-12.137
ꮳꮣꮺꮅꭹꮝ	-12.137
ꮵꮝꮪꮒꭹꮝꮧ	-12.137
ꮵꮻꮧꭸꭶꮨꮕꮝꮤꮑ	-12.137
ꮷꭶꮏꮑ	-12.137
ꮷꮼꭿᏻꮑ	-12.137
ꮿꮺꮠꮈꮝ	-12.137
ᏹꮕꮞꭶꭹ	-12.137
ꭲꮳꮧꭶꮄᏺ	-12.137
ꭴꮎꮑꮆꮤꮑ	-12.137
ꭴꮎꮨꮓꭾꮄ	-12.137
ꭴꮔꮦꮞ	-12.137
ꮥꭶꭻꮝꮣꭵ	-12.137
ꮥꮵꭶꮏꮹꮥ	-12.137
ꮪꮥᏺꮕ	-12.137
ꮰꮖꮉ	-12.137
ꮵꮝꭻꮥꮢ	-12.137
ᏻꮅꮝꭺꮈꮣꮑꮄ	-12.137
ꭰꮎꮅꮕꮲ	-12.137
ꭰꮎꮅꮵꮩꮒꮩ	-12.137
ꭰꮖꮑꮃꮻꮞ	-12.137
ꭴꮎꮒꭹꮞ	-12.137
ꭴꮝꮖꮈꭿꮥ	-12.137
ꭴꮩꮄꮁ	-12.137
ꭵꮖꮢꭶꮆ	-12.137
ꮧꭼꮹꮎꮫꭺꮩꮧ	-12.137
ꮧꮤꮃꮧꮝꮧᏹ	-12.137
ꮪꮒᏼꮝꮥ	-12.137
ꮵꮸꮿꮅꮵꮩꮑ	-12.137
ꭰꮒꮓꮂꮝꭸ	-12.137
ꭰꮙꮺꮃꮕ	-12.137
ꭴꮒꮎꮔꭺꮴ	-12.137
ꭴꮒꮼꮒꮢ	-12.137
ꭴꮝꭻꮥ	-12.137
ꭼꮹᏸꮝꮤꮑ	-12.137
ꭿꮮꮻꮢ	-12.137
ꮪꮕꮒꭶꮈ	-12.137
ꮪꮝꮥꮈꭿꮈ	-12.137
ꮷꭺꮣꮟ	-12.137
ꮻꮎᏼꭿ	-12.137
ꮿꮞꭶꭹ	-12.137
ꭱꮳꮣꮕꮫꮅ	-12.137
ꭴꮎꮅꮝꮣᏼꮑ	-12.137
ꭴꮎꮣꮑꮯᏼꮢꮢ	-12.137
ꮎꮒᏼꭼꮎ	-12.137
ꮒꮪꮒꭸᏻꮢ	-12.137
ꮒꮪꮫꮑꮄ	-12.137
ꮝꮪꭲꭱꮄ	-12.137
ꮣꮎꮴꭸꮝꮧ	-12.137
ꮥꭼꮹꮃꮻ	-12.137
ꮥꮸꮿꮼꮝ	-12.137
ꮪꮎꮧꮹꮝꭸ	-12.137
ꮵꭸꮃꮧꮩꭾ	-12.137
ꮿꮵꮿꮭ	-12.137
ꭰꮎꮩꮄꮀꮝꭸꮝꮧ	-12.137
ꭰꮯꮒꭼꮑ	-12.137
ꭴꮑꮃꮻꮞꮂ	-12.137
ꮞꭺꭹꮞ	-12.137
ꮥꭶꮵꮿꮰꭲꮝꮣꮑꮈ	-12.137
ꮧꭶᏺꮵꮑ	-12.137
ꮧꮣꭺꮧꮝꭹ	-12.137
ꭼꮹꮔꭺꮴ	-12.137
ꮒꮴꮅꮝꭼꮎ	-12.137
ꮪꮒꮠꮸ	-12.137
ꮵꮃꮗꮅ	-12.137
ᏹꭶꮒꮖꮨꭽ	-12.137
ꮒꭶꮈꮙꮧꮝꭼꮎ	-12.137
ꮞꭺꭹꮟ	-12.137
ꮣꭽꮼꭲ	-12.137
ꮥꮶꮲꭿꮟ	-12.137
ꭴꮒꮝꮥᏺ	-12.137
ꭶꮃꮠꮻ	-12.137
ꮣꮙꮩꭵ	-12.137
ꮳꮝꮖꮒꭺꮥ	-12.137
ꮻꮪꮇꮴꮄ	-12.137
ꮜꮃꮣᏹꮅ	-12.137
ꭸꭶꮫꮕꭲꮝꮣꮑꮈ	-12.137
ꭴꮝꮖꮃ	-12.137
ꮷꮎꮔꭺꮴ	-12.137
ꭰꮣꮕꮼꭿꮝꮧꮝꭹ	-12.137
ꭴꮻꮢꮞ	-12.137
ꮅꮝꭶꮒꮝꮫ	-12.137
ꮪꮕꮝꮣꮥꮈ	-12.137
ꮪꮝꮖꮈꮤꮕ	-12.137
ꭰꭺꮲꮎꮑ	-12.137
ꭴꮯꮆꭵꭹ	-12.137
ꮰꮔꭾ	-12.137
ꮵꮼꮑꮤꮕ	-12.137
ꭴꮅꮝꮪꮈꭹ	-12.137
ꮧꮒꮑꮅꮫ	-12.137
ꮫꮅꮫꮤꮒ	-12.137
ꭲꮵꮆꮑ	-12.137
ꮪꮺꮃꮧꮩ	-12.137
ꮵꮪꮓꮁ	-12.137
ꮻꭼꮹꮒᏼ	-12.137
ꭴꭶꮎꮼꮝꭼ	-12.137
ꮒꭺꮅꭼꮎ	-12.137
ꭰꮖꮪꮈꮂ	-12.137
ꭴꭶꮤꮂꮞ	-12.137
ꭴꮰꮿꮝ	-12.137
ꭰꭹꮎꮔꭺꮻꮞꮈꭹ	-12.137
ꭰꮝꮖꮅꮝꭼ	-12.137
ꭸꭺꮺꮆ	-12.137
ꭴꮎꮣꮘꭼ	-12.137
ꮫꮎꮫꭶꮒ	-12.137
ᏹꮎꮵꮈꮙꮩ	-12.137
ꮪꮺꮅꮞꮄ	-12.137
ꭴꮎꭺꮈ	-12.137
ᏻꮼꭿᏻ	-12.137
ꮎꮄᏺꭵ	-12.137
ꭰꮜꮝꮫ	-12.137
ꭰꮫꮕꭲꮝꮤꮓ	-12.137
ꭴꮣꮩꮅꮝꮣꮑꮈꭹ	-12.137
ꮝꭹꮿꮥꮆꮖꭱ	-12.137
ꮥꭺꮲꮎ	-12.137
ꮷᏺꮟꮝꭸ	-12.137
ꭴꮒꮈꮙꮤꮕꭹ	-12.137
ꭶꮅꭵꮒ	-12.137
ꮒꭶꮕꭿꮢ	-12.137
ꮔꮫꮏꮥꭼ	-12.137
ꭺꮹꮦ	-12.137
ꮧꮗꮕꮢ	-12.137
ꮒꮴꮇꭿꮝ	-12.137
ꮣꮠᏼ	-12.137
ꮪꭺꮔꮆ	-12.137
ꮻᏸꮳꮣꭲ	-12.137
ꮻꮪꮒᏼ	-12.137
ꭴᏺꭿꮝꮤꮑ	-12.137
ꭴꮼꭿꮴ	-12.137
ꭵꮖꮈꮝꮧ	-12.137
ꮎꮒꭶꮤꮏꭵꮎ	-12.137
ꮔꮣꮫꮑꮄ	-12.137
ꮷꮰꭰꮞ	-12.137
ꭽꮑꮝꭸ	-12.137
ꮎꮖꮅꮝꮣꮑꮅꮥꭼ	-12.137
ꮸᏸꮿꮤ	-12.137
ꮒꭼꮹꮎꮫꮑ	-12.137
ꮪꮒꮑꮯᏼꮢ	-12.137
ꭿꮠꮲ	-12.137
ꮒꮪꮏꮝꮥꮲꮎ	-12.137
ꮣꮒꮒꮣꮫ	-12.137
ꭴꭷꮅꮶꮕ	-12.137
ꭰꮵꮠꮕꮕ	-12.137
ꭲꮳꭻᏹꮝ	-12.137
ꮎꮦꮙꮆ	-12.137
ꭰꮝꮪꭲꮝꭹ	-12.137
ꭰꭹꮤꮥꭹꮝꭼ	-12.137
ꭰꮒꭶꮨᏼ	-12.137
ꭴꭺꮅᏸꮧᏹ	-12.137
ꭲꮟꮃꮋ	-12.137
ꮝꭹꮝꮣꮹꮫ	-12.137
ꮅꮝꮩꮤꮑ	-12.137
ꭰꭹᏺꮟꮝꭼ	-12.137
ꭰꮗᏺꮕ	-12.137
ꮒꮣꮎꮴ	-12.137
ꭳꭹᏸꮈꮢ	-12.137
ꭶꮵꮼꮑꮧ	-12.1371
ꮒꮣꮣꮒꮈꭼꮎ	-12.1371
ꮻᏹꮳᏼ	-12.1371
ꮰꮧꮿ	-12.1371
ꭸꮵꮝꭹꮕꮧꮝ	-12.1371
ꮧꮹꮎꭸ	-12.1371
ꭴꮎꮫꮒꮫ	-12.1371
ꮣꮫᏻꮴ	-12.1371
ᏹꭿꭶꮤꭾ	-12.1371
ꮥꭶꮣꮼ	-12.1371
ꮓꭿᏻꮂꮝꭸ	-12.1371
ꮎꮝꮖꮆꮝ	-12.1371
ꮖꮣꮎᏸꮝ	-12.1371
ꮪᏻꭺꮥ	-12.1371
ꮪꮆꮑꮤ	-12.1371
ꭴꮒꮔꮈꮕ	-12.1371
ꭶꮜꮼꮈ	-12.1371
ꭲꭶꮰꮿꮝꮩꮧ	-12.1371
ꮵꮿꮼꭵ	-12.1371
ᏹꮕꭸꮳ	-12.1371
ꭴꮎꮳꭱ	-12.1371
ꭻꮨꮆ	-12.1371
ꭲꮳꮣꮡᏼ	-12.1371
ꭰꮣꮫꮒꮧꮝ	-12.1371
ꭴꮣꮕꮨꮜꮕ	-12.1371
ꭴꮺꮳꮔ	-12.1371
ꮣꮑꮳꮝꮪꮆ	-12.1371
ꭼꮹꮿꮻꮝ	-12.1371
ꮳꮲꮖ	-12.1371
ꭼꮖꮫꭶꮑ	-12.1371
ꮣꮿꮩꭾ	-12.1371
ꮺꮹꮢꭲꮝ	-12.1371
ꭴꮎꮨꮕꮝꮧ	-12.1371
ꮥꭸᏺꮂꮝꭸ	-12.1371
ꮻꮪꮒᏺꭿꮞ	-12.1372
ꭸꮵꮠꮕꭲꮝꮤꮕ	-12.1372
ꮵᏺꮥꮝ	-12.1372
ᏹꮧꮵᏻꭺꮣꮑ	-12.1372
ꮪꮺꮩꮅꮸ	-12.1372
ꮷꮓꭿᏻꮧ	-12.1372
ꮥꭻꭺꮧꮝꭼ	-12.1372
ꮎꮠꮒ	-12.1372
ᏹꮳꮥꮿꮤꮑ	-12.1372
ꮪꮕꮻꮝꮤ	-12.1372
ꮆꭵꮤꮒ	-12.1372
ꮪꮒꮝꮖꮈꮤ	-12.1372
ꮹꮎꭲꮢ	-12.1372
ꭰꭹꮑꮙꮴ	-12.1372
ꮔꮎꮅꮝꮤꮑ	-12.1372
ᏼꮝꮥꮝꭼ	-12.1372
ꭲꮳꮰꮿꮝꮩꮧ	-12.1372
ꮳꭶꮤꮂꮫ	-12.1372
ꮒꮪꮅꮝꮤꮕ	-12.1372
ꮿꮖꮫꮑꮈ	-12.1372
ᏻꮬꮕ	-12.1372
ꮘꮵᏹ	-12.1372
ꭴꮄꮒꮄ	-12.1373
ꮽꮒꭶꮠꭰ	-12.1373
ꮽꮅᏸꭲꮆꮈ	-12.1373
ꮒꮪꮺꮞꮅ	-12.1373
ꮒꭶꮵꮺꮞꮈ	-12.1373
ꮪꮒꮕꮸ	-12.1373
ꭰꮖꮣꮕꮦꮈ	-12.1373
ꮡꮣꮅꮝꭺꭿ	-12.1373
ꭴꮕꮣꮫ	-12.1373
ꮪꮓꮳꮆꮴ	-12.1373
ꮹꭹᏼ	-12.1373
ꭼꮹꮒꮓꭾꮧ	-12.1373
ꭰꮒꮒꮬ	-12.1373
ꮴꮳꮯᏼ	-12.1373
ꮵꮕꮟ	-12.1373
ꮒꮣꭶꮤꮀ	-12.1373
ꮷꮽꮣ	-12.1373
ꭴꮹᏼꮢ	-12.1373
ꮇꮆꮴꮂ	-12.1373
ꮣꮎꮫꮣꮝꮣ	-12.1373
ꮿꮧꮤꮝꭸ	-12.1374
ꭴꮢꭿᏸ	-12.1374
ꭴꮒꮑꮙꮴ	-12.1374
ꮧꭼꮹꮣꮒꮈꮴ	-12.1374
ꮨᏸꮅꭿꮝ	-12.1374
ꮣꮎꮳꮕ	-12.1374
ꭴꮅᏸꮤꮑ	-12.1374
ꮥꭶꮪꮣꮥꮻꮢ	-12.1374
ꮪꮇꮖꮧꮕ	-12.1374
ᏻꮓꭿᏻ	-12.1374
ꮑꮙꮵ	-12.1374
ꭴꮣꮹꮧꮝ	-12.1374
ꭴꮎꮫꮕꭲꮝꮧ	-12.1375
ꭴꮣꮑꮯᏼꮞ	-12.1375
ꭴꮝꮖꮈꮧ	-12.1375
ꮹꭶꮨꮕꮝ	-12.1375
ꮴꮵᏺꭿꮞꮈ	-12.1375
ꭰꮒꭺꮹꮧꮝꭼ	-12.1375
ꮽꮨꮕꮝꮤꮕ	-12.1375
ꭰꮖꮅꮓꭾꮤꮕ	-12.1375
ꭻꭲꮝꮩꮧ	-12.1375
ꭲꭺꭿᏻꮢ	-12.1375
ꭰꮖꮣꮴꮅꭶ	-12.1375
ꭺꮪꭲꮝ	-12.1376
ꮷꮲꮻ	-12.1376
ꮝꭻꮥꮝꭼ	-12.1376
ꮥꮸᏺꭿꮞꮈ	-12.1376
ꮎꮣꮑꮯᏼꭱꮧ	-12.1376
ꮜꭹꮿ	-12.1376
ꮃꮎꮆ	-12.1376
ꮔꮺꮅꮝ	-12.1376
ꮧꮅᏸꭲꮈꮝꮧ	-12.1376
ꭴꮎꮣꮕꮦꮤꮑ	-12.1376
ꮧꮧꮠ	-12.1377
ꮳꮎꮅꮝꮣᏼ	-12.1377
ꮶꮳꮅꮵꮩ	-12.1377
ꮪᏻꭿꮫ	-12.1377
ꭱꮵꮈꮙꮧꮝꭸꮝꮧ	-12.1377
ꮪꮟꮤꮥ	-12.1377
ꮥꮳꮰᏹ	-12.1377
ꭴꮎꮰꮿꮝꮧ	-12.1378
ꮹꮧꮩ	-12.1378
ꮪꮎꮣꮱꭼ	-12.1378
ꮪꮒꮠꭿꮝ	-12.1378
ꭴꮹꮣꮄ	-12.1378
ꮹꭹꮇ	-12.1378
ꮏꮝꮥ	-12.1378
ꭰꮿꮰ	-12.1378
ꭲꮸꭸᏻꮢ	-12.1378
ꮜꮅꮉ	-12.1379
ꭴꮎꮥꮿꮤꮑ	-12.1379
ꭴꮑꮩꮄ	-12.1379
ꭰꭶꮨꮎꮻꮫ	-12.1379
ꮧꭸꭺꮝ	-12.1379
ꮅꮝꮣꮑꮈꭹ	-12.1379
ꭰꮥꮀꭿꮝꮧ	-12.1379
ꭺꮅꭶꮣ	-12.138
ꮷꮎꮸꮝꮧ	-12.138
ꮒꮈꮻꮝꮣꮑꭿ	-12.138
ꮪꮒꮦꮈꮑ	-12.138
ꮝꮪꮮ	-12.138
ꭰꮖꮅꮜꮃ	-12.138
ꮪꮜꮃꮣꮑ	-12.138
ꮓꮳꮄ	-12.138
ꭰꮖꮣꮕꮨ	-12.138
ꭴꮎꮪꮈꮕꮧ	-12.138
ꮷᏼꮄ	-12.138
ꭴꮎꭶꮤꮕ	-12.138
ꭰꮖꮩꮄꮀꮢ	-12.138
ꮾꮥꮸ	-12.138
ꮥꭸꮵꮕꮹ	-12.1381
ꮷꮎꮥᏺ	-12.1381
ꭳꭹꭶꮅꮝꮣꮧꮝ	-12.1381
ꭲꮳꮫꮑꮂ	-12.1381
ꮧꭶꮴꮅ	-12.1381
ꮪꮨꮕꮢꭹ	-12.1381
ꭸꮵꮒꮖꮨ	-12.1381
ꮣꮕꮧꮝꭼ	-12.1381
ꮔꮒꮷꮘꮝ	-12.1381
ꮥꮳꭷꮫ	-12.1382
ꮷꮔꭺꮤꮕ	-12.1382
ꭼꮹꮨꮎꮻꮫ	-12.1382
ꮲꮻꮞꮂ	-12.1382
ꭼꮹꮥꮀꭿꮝ	-12.1382
ꭱꮳꮫꭶꮑꮈ	-12.1382
ᏹꮕꭼ	-12.1383
ꮅꭶꮅᏼꮢ	-12.1383
ꮣᏺꮅꮝꮧ	-12.1383
ꮼꮆꮢ	-12.1383
ꭰꮿꮩꭿ	-12.1383
ꮑꮵꮺꮞꮈ	-12.1383
ꭱꮶꮞ	-12.1383
ꮻꮪꮨꮕꮝꮤ	-12.1383
ꮪꮎꮪꮣ	-12.1384
ꭴꮒꮜꮃꮣꮑ	-12.1384
ꮪꮒꮕꮕ	-12.1384
ꭰꭹꮅᏺꭸ	-12.1384
ꮪꮝꮣꮹꮫꮞ	-12.1384
ꭳꮴꮩꮂ	-12.1385
ꮣꮩꮅꮝꮣꮑꮈ	-12.1385
ꮷꮅᏸ	-12.1385
ꭳꭹꮇꮴꮈ	-12.1386
ꮉꮉ	-12.1386
ꮥꮵꭷꮕ	-12.1386
ꭴꮎꮧꮤꮂ	-12.1386
ꭼꮹꮝꮖꮧꮝ	-12.1386
ꭴꮒꮠꮲꭲꮝꮩꮧ	-12.1387
ꮪꮺꮠ	-12.1387
ꮥꭸꮵᏸ	-12.1387
ꭼꮹꮝꭺꮒ	-12.1388
ꮷꮼꮞ	-12.1388
ꭶꮤꮂꮝꭼ	-12.1388
ꭸꮵꮓꭾꭾ	-12.1388
ꭶꮓꭿꮅ	-12.1388
ꭲꮸꮿꮣꮕꮦ	-12.1389
ꮑꮵꮺ	-12.1389
ᏹꮵꮅꮣꮝ	-12.1389
ꮵꮣꭹꮒᏼ	-12.139
ꭲꮵꭶꮤꭿᏻ	-12.139
ꮒꮥꭶꮅꮝ	-12.139
ꭴꮒꮒᏼꭾ	-12.139
ꭰꮵꭷꮕ	-12.139
ꭴꮎꭶꮩꮝꮤ	-12.1391
ꮭꮻꮝꮧ	-12.1391
ꭿꭺꭵ	-12.1391
ꭴᏺꭿꮝꮤꮕ	-12.1392
ꮣꮒꮑꮂ	-12.1392
ꮷꮥꮑ	-12.1392
ꭱꮳꮣꮩꮅꮝꮣ	-12.1392
ꭰꮵꮿꮒꮝ	-12.1392
ꮔꮎꮪꮅ	-12.1393
ꮝꮖꮫꭶꮑꮈ	-12.1393
ꮧꮎꮣꮩ	-12.1393
ꮣꮒꮃꮻꭱ	-12.1393
ꮒꭼꮹꮑꮈ	-12.1393
ꭴꮎꮣꮩꮅꮝꮤꮑ	-12.1393
ꭰꮒꮑꮙꭸ	-12.1394
ꮎꮻꮝꭸ	-12.1394
ꭱꮅꮋ	-12.1394
ꭲꮵꭶꮅꮝꮣꮧꮝ	-12.1395
ꭱꮳꮅꮝꭺꮈꮣꮑ	-12.1395
ꮒꮣꮕꮑ	-12.1395
ꮻꮿᏼ	-12.1395
ꭸꮅᏺ	-12.1395
ꮥꭶꮔꭺꭼ	-12.1395
ꭴꮒꮓꮄ	-12.1396
ꮻꮣꮧꮑ	-12.1396
ꮒꭼꮒꮜ	-12.1397
ꮥꮵꮝꮪ	-12.1397
ꮥꮸᏸ	-12.1397
ꮧꭶꮆꮝꭼ	-12.1398
ꭶꮣꭲꮕꮢ	-12.1398
ꭲꮵꮑꮸ	-12.1399
ꮪꮒᏺꭿꮞꮈ	-12.14
ꮣꮒꮿꮫ	-12.1401
ꭱꭹꮹ	-12.1403
ꭶꮓꮁꭹꮝꭼ	-12.1405
ꭰꮎꮣꮯꮟꮝ	-12.1406
ꮧꭹꮿꮝ	-12.1408
ꮔꮒᏸꮈ	-12.141
ꭶꮓꮈꮧꮝ	-12.1412
ꭳꮳꮅꮵꮩꮂꮝꭼ	-12.1413
ꮿꮥꮀꮝ	-12.1414
ꭳꮳꮣꮩꮅꮝꮧꮝꭼ	-12.1414
ꮥꮳꮥᏺ	-12.1415
ꭶꮵꮿꮯꮆꮝ	-12.1416
ꭰꭹꮝꭶꭹ	-12.142
ꮓꭼꮑꮈ	-12.1424
ꮥꭴꮈꮻꮝꮣꮑꮈ	-12.1425
ꭲꮴꮩꮈ	-12.1427
ꭰꮖꮥꮕ	-12.1427
ꭲꮵꮇꮸ	-12.1428
ꮵꮔꮎꮝ	-12.1428
ꭰꮴꮈꮝ	-12.143
ꮷꮒꮕꭲꮝ	-12.1433
ᏹꮧꮷꭺꮧ	-12.1433
ꭶꮆꮢꮝꮧ	-12.1434
ꭰꮎꮅꮓꭾꮝ	-12.1436
ꮝꮣꮑꮀ	-12.1436
ꭼꮹꮅꮓꭾꮤ	-12.1437
ꭱꮵꮝꮖꮒꭺ	-12.144
ꭰꮒꮿꮻꮝꭼ	-12.1441
ꭶꮜꮫꮝ	-12.1442
ꭲꭺꭿᏻꮕ	-12.1442
ꮎꮈꮝꮤ	-12.1442
ꮒᏹꮅꮩꮂ	-12.1445
ꮿꮥꮂ	-12.1446
ꭰꮖꮫꮕ	-12.1447
ꮪꮩꮲ	-12.1448
ꮳꮣꮅꮑꭿꮥ	-12.1448
ꮔꮎꮅꮝꮣꮑꮂ	-12.1454
ꮵꮝꮫꮧꮝꮩꮧ	-12.1458
ꮥꭻꭺꮣꮑꮀ	-12.1459
ꭰꮞꭺꭹꮝ	-12.1459
ꭰꭹꭺꮅᏸ	-12.146
ꭴꮣᏹꮈ	-12.1461
ꮥꮳꮣꭸᏻꮢ	-12.1461
ꮥꭸꭶꮫ	-12.1462
ꭼꮹꮒꮎꮔꭺꮻꮢ	-12.1463
ꮟꮎꭿ	-12.1464
ꭶꮜꮼꭲꮂ	-12.1469
ꮥꮵꭸᏻꮢ	-12.1469
ꭴꮎꮧꮤ	-12.1469
ꮠꭰꮢ	-12.1469
ꮶꮺꮃꮑ	-12.1477
ᏺꮵꮣꮝꮧ	-12.1477
ꭰꮙꭿᏻꮢ	-12.1477
ꮣᏹꮅꮣ	-12.1478
ꮣꮒꮼꮒꮝꭼ	-12.1484
ꮥꮵꮅꮇ	-12.1484
ꭲꮸꮑꮴꮂ	-12.1488
ꭹꮅᏺꮵꮩꮂ	-12.1491
ꭳꮸꮧꮝꭼ	-12.1492
ꭱꮳꮫꮑ	-12.1495
ꮳꮥꮀꭿꮝꮧ	-12.1495
ꮪꮒꮃꮻꮶꮄ	-12.1498
ꭴꮒꮝꭻꮥꮢ	-12.1501
ꮒꮃꮥ	-12.1506
ꭼꮖꮣꮕꮣꮧꮝ	-12.1516
ꮣᏸꮵꮔꭺꮻ	-12.1516
ᏻᏺꮀ	-12.1521
ꭲꮳꮣꮩꮅꮝꮣ	-12.1522
ꮣꮈꭵꮝ	-12.1523
ꭴꭼꭵꮝꭼ	-12.1524
ꭰꮒꮿꮩꭿꮂ	-12.1526
ꭲꮝꮣꮑꮄ	-12.1526
ꭴꮝꮪꮑ	-12.1529
ꮩꮣꮸꮿ	-12.153
ꮣꭺꮺꮃꮒ	-12.1539
ꮒꭸꭿꮩꮄ	-12.1541
ꭲꭶꮅꮝꭺꮈꮣꮑ	-12.1541
ꮣꮩꮅꮝꮤꮑ	-12.1549
ᏻꮬꮟꮫ	-12.1551
ꭴꮒꭷꮅꭲꮝ	-12.1557
ꭰꮣꭹꭱ	-12.1561
ꭴꮩꮲ	-12.1563
ꮧꮑꮝꭸꮝ	-12.1569
ꮳꮅꮵꮩꮂ	-12.1576
ꮪꮽꮣ	-12.1578
ꮔꮅꮝꮣꮑꮄ	-12.1582
ꮣꮣꮕꮣꮧꮝꮧꮝ	-12.1587
ꮷᏺꮀ	-12.1587
ꮎꮕꮑꮀ	-12.1589
ꮻꮵꮎꮔꭺ	-12.159
ꭸꮳꮥꮿꮩ	-12.1591
ꮪꮎꮟꮤ	-12.1593
ꮧꮳꮈꮻꮝꮣꮑꮧ	-12.1596
ꭼꮹꮓꮑꮈ	-12.1596
ꮩꮡꮅ	-12.1597
ꮒꮪꮕꮑꮈ	-12.1598
ꭶꮵꮝꭶꮕꮴ	-12.1599
ꮵꮸᏺꮞ	-12.1599
ꮣꮒꮔꭺꮻꮝ	-12.16
ꭸꮆꮀ	-12.1602
ꭴꮑꮕꭲꮝꮧ	-12.1606
ꭰꮵꭹꭱ	-12.1613
ꭰꮖꮄꮒ	-12.1617
ꮽꮧꮕ	-12.1617
ꭼꮹꮅꭺꮑꮄ	-12.1621
ꭴꮺꮲꮕ	-12.1621
ꮡꮅꮝꭼ	-12.1622
ꮵꮻꮸᏺꮺꮃꮑ	-12.1623
ꭴꮫꮢ	-12.1626
ꮜꮫꭵꮝꭼ	-12.1629
ꭱꮵꮿꮕꮂ	-12.163
ꮎᏸꭿꮝ	-12.1632
ꮡᏼꮑ	-12.1636
ꭴꮺꮩꮅꮸ	-12.1636
ꭳꭼꮤꮕ	-12.1638
ꭳꭹꮓꭾꮝꭼ	-12.1638
ꮣꮣꮄꮤꮕ	-12.1641
ꮓꭿᏻꮂ	-12.1654
ꮵꮕꭶꮈꭱ	-12.1656
ᏸꭲꮆ	-12.1657
ꮿꮣꮩꮅꮝ	-12.1659
ꭴꮝꭶꮄ	-12.1667
ꮥꮵꮝꮥꮅꮝ	-12.1672
ꭺꮻꮢ	-12.1672
ꭸꭼꮎꮥ	-12.1676
ꭶꮵꮑꭲꮝ	-12.1688
ꮔꭾꮅ	-12.1692
ꭲꭽꮫꮑ	-12.1696
ꮓꭾꮅꮩ	-12.1697
ꮝꭹꮤᏺ	-12.1699
ꮓꮳꮅꮝ	-12.1709
ꮒꮳꮺꮞ	-12.1711
ꭶᏸꮵꮠꮲꮤ	-12.1713
ꮷꮎꮑꮃ	-12.1715
ꭲꮝꮤꮕꮎ	-12.1719
ꭸꮳꭶꮩꭵꭿꮝꮧ	-12.1719
ꮧꮒꮓꭹꮝꮧꮝ	-12.1724
ꭰꮎꮧꮤꮝ	-12.1729
ꮥꮵꭴꮝꮥꮞꮈ	-12.173
ꮹꮵꮿꮕꮂ	-12.173
ꭺꮂꮝꭼ	-12.1754
ꮣꮣꮄꮧꮝ	-12.1779
ꮣꮠꭾ	-12.1784
ꭱꮵꮤᏺ	-12.1793
ꭰꮎꮅꮝꮣᏼꮂꮝꭺ	-12.1812
ꮒꭶꮺꮝ	-12.1812
ᏹꮝꮧꭶꮤ	-12.1816
ꭹꮝꮥꮈꭿꮩꮈ	-12.1821
ꭰꮎꮅꮝꭶꮝꮩꮧꮝ	-12.1827
ꮫꮔꮼꮝ	-12.1829
ꮣꮕꮦꮅꮩꮂ	-12.183
ꮎꭶꮈꮂ	-12.184
ꮧꮴꮃꮝ	-12.1845
ꭴᏺꮝꮤꮕ	-12.1848
ꭳꮸꮧ	-12.1864
ꮎꮔꭺꭼ	-12.1865
ꮥꮵᏺꮢ	-12.1867
ꮵꭵꭱꮈ	-12.1875
ꭲꮵꮅꮣꮝ	-12.1883
ꮪꮒꮅꮼ	-12.1889
ꭴꮼꭿᏻꮑ	-12.189
ꭸꮅꮝꭼ	-12.1892
ꭼꮹꮇꭿꮝ	-12.1896
ꮣꮄꮂꮝ	-12.1902
ꭵꭹꮩꮅ	-12.1903
ᏹꮳꮩꮄꮀꮝ	-12.1912
ꭰꮒꮓꭾꮅꮩ	-12.1914
ꮿꭹꮝꮖꮈꭱ	-12.193
ꮪꮒᏺꮢ	-12.1962
ᏻꮓᏼ	-12.1965
ꮎꮳꭵ	-12.199
ꭰᏺꭺ	-12.2007
ꭹꭹꮅᏺꭲꮝꮧꮝ	-12.2012
ꮶꭹᏺꮁ	-12.2029
ꭴꮎꮅꮝꭶꮝꮩ	-12.2049
ꭹᏺꮈ	-12.2058
ꮣꮔꮼꮝ	-12.2065
ꭲꮣꮧꮤ	-12.2066
ꭾꮅꮴꮧ	-12.2071
ꭰꮵꭺꮧ	-12.2075
ꭸꮿꮤ	-12.2092
ꮳꮣꮈꮙꮧ	-12.2095
ꮻꮸᏺꮺꮃꮑꮈ	-12.2099
ꭼꮹꮒꮠꮲ	-12.2101
ꮯꮒꭼꮑꮀ	-12.2105
ꮃꮝꮣꭱ	-12.2114
ꮣᏻꮎꮔꭺꮸ	-12.2123
ꭰꮓꭿꮝꮧꮝ	-12.2127
ꭴꮒꮓꮥ	-12.2141
ꮽꭺꮂ	-12.2142
ꭰꮖꮣꮕꮢ	-12.2144
ꮔꮹꭵꮎ	-12.2145
ꭴꮓꮢ	-12.2159
ꮣꮣꮕꮦ	-12.2166
ꭸꮵꮕꮟꮩ	-12.2171
ꮅᏹꮅ	-12.2174
ꭱꮵꮝꭶꮕꮴ	-12.2174
ꮒꮎꮻ	-12.2179
ꮔꭺꮈ	-12.219
ꭰꮣꮿꮕ	-12.219
ꭲꮸꮿꮕꮣꮧꮝ	-12.2239
ꮳꮅꮒꭹ	-12.224
ꮅᏸꮝ	-12.225
ꮨꮒꮩꮂ	-12.2251
ꮧꭸꮵꭲꮝꮧ	-12.2253
ꭱꮳꭻᏼꭱ	-12.2262
ꮵꮪꮄꮤ	-12.2265
ꮣꮵꮿꭷ	-12.2306
ꭷꮑꭲꮝꮧꮝꭼ	-12.2333
ꭴꮹꮒꮈ	-12.2338
ꭷꮎꮹꮧ	-12.2345
ꮣꭷꮏꮹꮧ	-12.2357
ꮵꮿꮻꮝꭼ	-12.2374
ꭴꮑꮃꮧꮝ	-12.2375
ꭰꮎꮣꮓꭾ	-12.2418
ꮃꮝꮧꮝꭼ	-12.243
ꮑꭲꮝꮣꮑꮈ	-12.2458
ꭴꮎꮫꮕꭲꮝꮤ	-12.2462
ꮠꮲꮩꮧ	-12.2463
ꭽꮩꮄꮀ	-12.248
ꮗꮣꮅ	-12.2487
ᏹꮵꮹꮫ	-12.2498
ꮒꭶꮅꮝꮤꮒꮩ	-12.2506
ꮷꮒꮒᏼ	-12.2517
ꭸꮳꭺꮹꮫꮧ	-12.2527
ꮒꮡꮺꮞꮈ	-12.2541
ꮣꭶꮄꮤ	-12.2558
ꮓꭿꮿꮝ	-12.2573
ꭴꮎꮑꮇꭹ	-12.259
ꭴꮎꭶꮜꮿꮝꮩ	-12.2598
ꭼꮹꮅꭺꮑꮈ	-12.2624
ꭴꮒꮝꮣꮹ	-12.263
ꭰꮎꮑꮇꭹ	-12.2631
ꮪꮎꮪꮻꮝꮤ	-12.2638
ꮎꮩꮣꮖ	-12.2645
ꮣꮏꮝꮖꮆꮝꮧꮝ	-12.2735
ꭲꭼꮹꮅꮝꮣꮑ	-12.2747
ꭴꮅꭾꮅꮴꮈ	-12.2758
ꭼꮹᏺꮁ	-12.276
ꮵᏸꮅꮞ	-12.2767
ꭱꭶꭻᏼ	-12.2798
ꮣꮅꭺꮑ	-12.2806
ꮵꮔꮅꮝꮤ	-12.2843
ꮣꮑꮃꮑꮈ	-12.2881
ꮳꮅꮓꭾ	-12.2906
ꮒꮸꮓꮑ	-12.2954
ꭶꮣꮓꭾ	-12.2961
ꭰꭸꮃꮝ	-12.2984
ꮵꮑꮯᏼꮢ	-12.3023
ꮯᏼꭱ	-12.3031
ꭰꭶꭻᏼꮣꮑ	-12.3033
ꮈꮜꮣꮥꮧ	-12.3092
ꭿꮿꮅꮝꭺꮈꮣꮑ	-12.3117
ꮵꮹꮨ	-12.3117
ꭼꭹᏸꮈ	-12.3221
ꭶꮵᏸᏺ	-12.332
ꭰꮸꮝ	-12.3337
ꮿꮣꮒꮈꮸ	-12.3406
ꮳꮣꮑꮃꮕ	-12.343
ꭰꭶꮨꮓꭾ	-12.3467
ꮎꮜꮝ	-12.3497
ꮎꮱꮧꮝꭸ	-12.3617
ꭲꮳꮣꮕꮣꮧꮝ	-12.3693
ꮵᏺꭲᏻꮣꮑꭽ	-12.3693
ꮵꮵꮇ	-12.3711
ꮑꭲꮝꮣꮑ	-12.3726
ꮥꭺꮺ	-12.3731
ᏹꮝꭹꭶꮤ	-12.38
ꮷꮽꭺꮣꮑ	-12.3822
ꭼꮝꭶꮃꮑꮈ	-12.3824
ꭰꮣꮩꮅꮝ	-12.3855
ꭸꭼꮝꭶꮃꮑ	-12.3867
ꭴꮇꭿꮝ	-12.3888
ꮺꮕꮞ	-12.3994
ꮵꮓꮑꮧᏹ	-12.4026
ꮥꭼꮥ	-12.4037
ꭺꮃꮧᏼꮧ	-12.4076
ꭲꮳꮅꮒꭼꮑ	-12.4081
ꭹꮅᏺꮵꮩ	-12.4086
ꭶꮵꮓꮑ	-12.4092
ꭼꮑꭲꮝ	-12.4154
ꮅꮤꮧ	-12.4177
ꮒꮣꮅꮝ	-12.4246
ꮔꭼꮻ	-12.4288
ꮳꭺꮹꮨ	-12.4355
ꭰᏺꮝꮩꮧꮝ	-12.4407
ꮖꮅꭺꮑ	-12.4414
ꮅꭵꮒꮝꮧᏹ	-12.4446
ꮎꮣꮔᏼꮫ	-12.4451
ꮕꮣꮧꮝꮤꮕ	-12.4492
ꭼꮿꮫꮑ	-12.4518
ꭸꭶꮅꮵꮩꮑꮈ	-12.4552
ꭰꮎꮱꮧ	-12.4582
ꭰꮎꮑꮇꭹꮝ	-12.4615
ꮑꮇꭹꭱ	-12.4628
ꭴꮒꮕꮝ	-12.4648
ꭴꮝꮖꮈꭱ	-12.4654
ꮿꮕꮣꮧꮝꭺ	-12.4731
ꮸꮓꮑꮈ	-12.4733
ꭴꮺꭺ	-12.4786
ꮣᏼꮩꮧ	-12.4816
ꮵꮒꮖꮨꮂ	-12.4823
ꮳꮣꮥꮅꮞ	-12.4861
ꮴꮃꮝꮤ	-12.4893
ꮒꭸꭼꮑꮄ	-12.4917
ꮣꭶꮎꮔꭺꮻ	-12.4951
ꭰꭶꮡᏸ	-12.4975
ꭸꮵꮿꮕꭱ	-12.502
ꭰꮒꮼꮒꮝꭸꮝ	-12.5034
ꮒꮠꮲꮧ	-12.5096
ꭸꭶꮅꮝꭺꮈꮣꮑ	-12.5105
ꭹꮃꮎꮃ	-12.511
ꭽꮕꮣꮧꮝ	-12.5122
ꭹꮝꮣꮹꮫ	-12.5213
ꮿꮩꮴ	-12.525
ꮼꭿꮝꮧꮝꭹ	-12.5266
ꮔꮑꮴ	-12.5333
ꭲꮵꮝꮖꮒꭺꮩꮧ	-12.535
ꭲꮵꮕꮟꮩ	-12.5351
ꮎꮒꮺꮝ	-12.5464
ꮳꮫꮕꭲꮝꮣ	-12.5492
ꮒꮝꭶꭲꮂ	-12.5504
ꭶꭸꮵꮠꮲ	-12.5568
ꮡᏸꮞ	-12.5569
ꮑꮿꮤꮂ	-12.5577
ꮡꮄꭵ	-12.5586
ꮣꮔᏼꮧ	-12.5632
ꮝꭹꮿꮨꮕꮝ	-12.5645
ꮵꭵꭱ	-12.5646
ꭴꮒꭶꮩꭵꭿꮝꮧ	-12.5649
ꭰꮎꮅꮝꭶꮝꮩꮧꮝꭸ	-12.5666
ꭶꮜꮼꭲ	-12.5695
ꮷꮪꭲꮝꮣꮑ	-12.5812
ꮎꮧꮤꮝꭼ	-12.5814
ꭸꮳꮩꮄꮀꭿ	-12.5822
ꮧꮒꮓꭹꮝ	-12.5823
ꮝꭻꮥꮝꭺ	-12.5858
ꮷꮎꮅꮒ	-12.587
ꮖꮩꮃ	-12.5879
ꮲꮤꮝ	-12.5884
ꭳꮵꮤᏺꭿ	-12.5891
ꮡᏸꮝ	-12.5949
ꮒᏺꮁꭿꮝꮧ	-12.5952
ꮻꮧꮝꭹꮿ	-12.6001
ꮎꮣꮅꮑꭿꮥ	-12.6011
ᏹꮸꮓꮑ	-12.6018
ꮳꮥꮿꮩꮧꮝ	-12.6047
ꮹꮣꮑꮯᏼꮝ	-12.6053
ꭲᏻꮅꮝꮣꮑ	-12.6064
ꮣꮑꮯᏼꮢ	-12.6067
ꮼꮒꮝꭼ	-12.6114
;	-12.6123
ꮑꮙꮴꮄ	-12.6125
ꭹꭺꮑꮈ	-12.6131
ꭲꮸᏸꮃꮧ	-12.6136
ꮪꮳꮃꮕ	-12.6159
ꮪꮒꮃꮻꮶ	-12.6163
ꮿꮣꮕꮣꮧꮝꮤꮕ	-12.6166
ꭱꮧꮤᏺ	-12.6169
ꮥꮩꮂ	-12.6185
ꭹꮅᏺꭲꮝꮩꮧᏹ	-12.6186
ꮎꮣꮒꮈꮸ	-12.6191
ꭽꭶꮜꮿꮝ	-12.6225
ꭴꮺꮅꭿꮝ	-12.6227
ꭰꮵꮝꮫꮧꮝ	-12.6229
ꭰꭻꭲꮝꮧꮝ	-12.623
ꮵꮿꮅꭱꮅ	-12.6243
ꮪꮔꭺꮤ	-12.6255
ꮅᏺꭲꮝꮧ	-12.6257
ꮝꮖꮒꭺꮞꮄ	-12.6264
ꮻꮮꮻꮢ	-12.6277
ꮅꮝꮪꮈ	-12.6279
ꭸꮳꮱꮧ	-12.6284
ꭰꭺꮺ	-12.6286
ꮨꮎꮻꮧꮝ	-12.629
ꭹꮅᏺꮴꮄ	-12.6292
ꭰꭹꮝꮫꮧ	-12.6293
ꮇꭿꮝꮤꮕ	-12.6294
ꮷꮒᏺꮁꭿꮝ	-12.6295
ꮷᏺꭿꮞ	-12.6299
ꭷꮓꭿᏸ	-12.63
ꭳꮳꮅꮵꮩꮂꮝ	-12.6301
ꭳꮳꮣꮩꮅꮝꮧꮝ	-12.6301
ꮔꮅꮝꮤꮒꮩ	-12.6303
ꮒꭹꮅᏺꭲꮝ	-12.6311
ꮻꮪꮒꮿꮕ	-12.6313
ꮎꮨꮓꭾꮈ	-12.6314
ꮣꮝꮧᏸꮧ	-12.6314
ꮅᏺꭼ	-12.6318
ꮅꮝꮩᏸꮧ	-12.6321
ꭼꮹꭹꮸꮧ	-12.6325
ꮎꮔꭺꮵꮈ	-12.6329
ꮕꮧꭶꮅꮝ	-12.6338
ꮵꮠꮲꮧ	-12.6341
ᏸꮩꮃꮫ	-12.6344
ꮔꭿꮝꮧꮝꭼ	-12.6344
ꮠꮲꭲꮝꮧꮝꭼ	-12.6344
ꭼꭽꮈꮫ	-12.6345
ᏸꮆꭲꮝꮤ	-12.6346
ꮽꮣꮄꮝ	-12.6348
ꮤꮥꭹꮝꭸ	-12.6349
ꮧꮳꮲꮻ	-12.635
ꮇꮟꮅꮋ	-12.635
ꭶꮣꭸᏻ	-12.6351
ꮣꭺꮹꮨ	-12.6351
ꮒꮅꮕꮸ	-12.6359
ꭿꮝꭻ	-12.636
ꮒꮝꮪꮑ	-12.636
ꮇꮖꮧꮕ	-12.6362
ꮅꮝꮘꮧ	-12.6362
ꭺꮹꮧꮝꭼ	-12.6363
ꭹꮝꮫꮧꮝꮧ	-12.6364
ꮪꮓꮳꮆ	-12.6365
ꮩꮸꮑ	-12.6366
ꮣꮑꮳꮝꮪ	-12.6368
ꮹꮅᏹꮆꭿ	-12.6368
ꮝꭹꮕꮧꮝꮧ	-12.6368
ꭶꮤꮏꭵꮎ	-12.6369
ꮓꮈꮤꮒꮩ	-12.637
ꭰꮒꭶꮿꮇꭵꮝꭸꭲ	-12.637
ꮍ	-12.637
ꮜꮖꮄꮈ	-12.637
ᏻꮒꮇꮴꭾ	-12.637
ꭲꭼꮹꮒꭹꮝꮤꮑ	-12.637
ꭴꮺꭷꭿᏼ	-12.637
ꭼꮹꮒᏺꮵꮩꮈ	-12.637
ꮎꮎꮣꮑꮯᏼꮟꮢ	-12.637
ꮒꮸꮿꮫꮑꮈ	-12.637
ꮕꮷꮫꮏꮧꮞ	-12.637
ꮣꮥꮨᏼꭾꭼ	-12.637
ꮩꮧꭸꭶꮸꮝꮤꮒꮢ	-12.637
ꮪꮎꮧꮻꮝꮧꮝꭸ	-12.637
ꮪꮯꮆꮝꮤꮑꮄ	-12.637
ꮪꮿꮩꭾꮄ	-12.637
ꮵꭼꮹꮒꮫꮤꮑ	-12.637
ꮹꮅꮝꮖꮧꭿꮂ	-12.637
ᏼꭼꭹꮇꮵ	-12.637
ꭰꭹꮤꮃꮼꮝꭼ	-12.637
ꭰꮎꮅꮝꭺꮈꮧꮝꭹ	-12.637
ꭰꮒꭶꮤꮏꭵ	-12.637
ꭰꮒꮝꭻꮥꮝꭹ	-12.637
ꭰꮒꮻꮕꭸꮜꮒ	-12.637
ꭰꮬꮹꮝꮧꮝꭸꮝꮧ	-12.637
ꭰꮿꮝꮬꮧꮝꭹ	-12.637
ꭱꮋꮒꮣꮘ	-12.637
ꭱꮳꮁꮝꮥꮞꮈꭿ	-12.637
ꭲꭹᏺꮁꭿꮞꮈ	-12.637
ꭲꮸꭹꮅᏺꮴꮂ	-12.637
ꭳꭶꮣꮕꮨᏻ	-12.637
ꭴꮃꮝꮪꮢ	-12.637
ꭴꮅꮿꮝꮪꮑ	-12.637
ꭴꮎꮣꭹꮈꮧ	-12.637
ꭴꮎꮥꮀꭿꮝꮧꮝꭹ	-12.637
ꭴꮑꮙꮵꮥꭼ	-12.637
ꭴꮣꮝꮫꮧꮝꮧ	-12.637
ꭴꮣꮵꮓꭿꮝꮤꮕ	-12.637
ꭵꮖꭸꮕꮫ	-12.637
ꭵꮗᏺꮕ	-12.637
ꭸꮝꭹꮠꮲ	-12.637
ꭼꮛꮒꮝ	-12.637
ꭼꮝꮣꮹꮫꮝꮧ	-12.637
ꭼꮹꮎꮣꮠꮲ	-12.637
ꮒꮣꮫꮣꮝꮣꮑꮂꮎ	-12.637
ꮒꮣꮯꮆꮝꮣꮑꮂꮎ	-12.637
ꮒꮪꮡᏸꮠ	-12.637
ꮒꮳꮫꮣꮝꮣꮑꮂꮎ	-12.637
ꮔꮝꮖꮈꮂꮎ	-12.637
ꮖꮨꮎꮻꮫꮂꭹ	-12.637
ꮣꮎꮅꮓꭾꮅꮩꮂ	-12.637
ꮣꮎꮥᏺꮂꮝꭸ	-12.637
ꮣꮗꮇꭼ	-12.637
ꮣꮣꮪꭺꮣꮑꮂ	-12.637
ꮣꮱꮹꮝꮧꮥ	-12.637
ꮥꮵꭶꮨꮈꮢ	-12.637
ꮩꮣꮳꮰꮟ	-12.637
ꮪꭷꮏꮹꮧꮩꮂ	-12.637
ꮪꮑꭿꮝꮣꮑꮂ	-12.637
ꮪꮿꮝꮬꮫ	-12.637
ꮪꮿꮩꭾꮈ	-12.637
ꮵꮣꮎꮅꮝꭺꮈꮧꮝꭸ	-12.637
ꮵꮥꭶꮥᏺ	-12.637
ꮵꮹꮒꮆꮝꭺ	-12.637
ꮸꮠꮘꮈ	-12.637
ꮽꮧꮲꮝꮤꮕ	-12.637
ᏻꮪꮣꮄꮝꮤꮑ	-12.637
ꭰꭹꭺꮹꮨꮝ	-12.637
ꭰꮎꮝꭹꮣꮢꭵꮝ	-12.637
ꭰꮒꭸꮥꮃ	-12.637
ꭰꮒꮭꮂꮝꭺ	-12.637
ꭰꮕᏻꮴꮂ	-12.637
ꭰꮫꮢꭵꮝꭹ	-12.637
ꭰꮵꭶꮨꮧꮝꮫ	-12.637
ꭰꮶꮃꮕ	-12.637
ꭰꮹꮒꭶꮃ	-12.637
ꭲꭼꮹꮩꮲꮤꮑ	-12.637
ꭲꮧꮿꮻꮝꭸꮝꮧ	-12.637
ꭲꮳꮄꮒꮩꮈ	-12.637
ꭲꮳꮣꮕꮤꮹꮥ	-12.637
ꭴꮎꮨꮏꮻꮫꮂꭹ	-12.637
ꭴꮎꮯꮒꭼꮑ	-12.637
ꭴꮒꮠꮕꮴꮈ	-12.637
ꭴꮣꮕꮤꮹꮥ	-12.637
ꭴꮦꮈꮃꮫ	-12.637
ꭶᏺꭹꮠꮲ	-12.637
ꭶꮵᏸꮃꮧꮩ	-12.637
ꭸꮳꮑꮔꮃꮝꮧ	-12.637
ꭹꮿꮺꮵꮩꮈ	-12.637
ꭼꮹꮝꮣꮹꮩꭿ	-12.637
ꭼꮹꮬꮻꮝꮧ	-12.637
ꮒꭶꮪꮟꮑ	-12.637
ꮕꮧꭶꮅꮝꮧꮩꮧꮝ	-12.637
ꮘꮅꮥꮅꮘ	-12.637
ꮣꮕꮅᏸꭵ	-12.637
ꮣꮖꮩꮝꮫ	-12.637
ꮣꮣꮺꮅꭹꮝ	-12.637
ꮥꭸꭶꮣꮒꮈꮸ	-12.637
ꮥꮳꮣꮼꮑꮧꮝꭸꮝꮧ	-12.637
ꮪꮃꮻꮫ	-12.637
ꮪꮅꮝꭺꮈꮣꮑꮄ	-12.637
ꮪꮏꮇꮤ	-12.637
ꮫꮅꮝꮖꮧ	-12.637
ꮳꮙꮺꮃꮕ	-12.637
ꮵꮟꮎꮜꮒ	-12.637
ꮵꮾꮧꭶꮆꮟ	-12.637
ꮶꮝꮣꮡ	-12.637
ꮷꮈꮜꮣ	-12.637
ꮷꮼꭺꮣꮑ	-12.637
ᏹꮧꮣꮣꮪꭺꮣꮑ	-12.637
ꭰꮅꮦꮈꮂꮝꭼ	-12.637
ꭱꮳꮯꮆꭱ	-12.637
ꭲꭱꮳꮥꮿꮩꮧ	-12.637
ꭴꭼꮻꮹ	-12.637
ꭴꮇꮵꮧꮢ	-12.637
ꭴꮒꭽꮇꭼ	-12.637
ꭴꮒꮭꮧꮴ	-12.637
ꭴꮝꭹꮕꮥ	-12.637
ꭴꮝꮥꮕꮸ	-12.637
ꭵꮖꮣꮣꮄ	-12.637
ꮅꮜꮥꮞ	-12.637
ꮣꮎꮣᏹꮅꮩꮂ	-12.637
ꮣꮎꮣꮫꮫꮂꮝꭸ	-12.637
ꮣꮝꮫꮧꮝꮩꮧ	-12.637
ꮥꭷꮕꮻꮝ	-12.637
ꮪᏸꮅꭿꮝꮤꮑ	-12.637
ꮪꮎꮣꮫꮫꮑ	-12.637
ꮪꮜꭿꮈ	-12.637
ꮪꮣꮈꮝꮫ	-12.637
ꮴꮿꮤꮂꮝ	-12.637
ꮵꮣꮅꮦꮈꮂ	-12.637
ꮻꮸꮆꭲꮝꮣ	-12.637
ꮽꮒꮓꭾꮄ	-12.637
ᏻꮒꮓꭾꮄ	-12.637
ꭰꮿꮦꮒ	-12.637
ꭱꮣꮅꭱꮅ	-12.637
ꭳꭶꮣꮩꮅꮝ	-12.637
ꭳꭶꮲꮖꮢ	-12.637
ꭵꮖꮅꮝꭺꮈꮣꮑ	-12.637
ꭶꮅꮵꮩꮒꮩ	-12.637
ꭼꮖꮪꮈꮧ	-12.637
ꭿꮝꮧᏸꮧꮝꭸꮝꮧ	-12.637
ꮥꮳꮅꮒꭺ	-12.637
ꮥꮵꭺꮎꮫ	-12.637
ꮨꭷꮏꮹ	-12.637
ꮪꮎꭶꮄꮕꮂ	-12.637
ꮪꮎꮣꮄꮏ	-12.637
ꮷꮎꮧꭶꮄᏺꮴ	-12.637
ꭴꮎꮣꮔꮈꮧ	-12.637
ꮣꮵꮿꮣꮩꮅꮝꮣꮑꮅ	-12.637
ꮧꮒꮝꮖꮒꭺꮧꮝꭹ	-12.637
ꮪꮯꮆꮝꮤꮕ	-12.637
ꭴꮣꮜꭷ	-12.637
ꭴꮺꮗᏼ	-12.637
ꭸꮳꮅꮝꮪ	-12.637
ꭸꮵꮕꭶꮅꮝ	-12.637
ꭹꮝꮧᏸꮧꮝꭼ	-12.637
ꭾꮟꭶꮿ	-12.637
ꮣꮣꮎꮹꮝꮫ	-12.637
ꮧꭴꮰꭰꮞ	-12.637
ꮵᏺꭲᏻꮂꮝ	-12.637
ᏹꮔꮅꮝꮣꮑꭾ	-12.637
ᏼꭶᏺꮳ	-12.637
ꭰꮒꮡꮅꭺ	-12.637
ꮣꮫꮫꭾꮈꭵꮝꭸ	-12.637
ꮩꮵꮑꮴ	-12.637
ꮪꮒᏸꮝꮫ	-12.637
ꮯꮆꮢꮈ	-12.637
ꮵꭶꮤꮹꮥ	-12.637
ᏹꭼꮹᏺꮁꮞ	-12.637
ꭱꮷꮣꮄꮝꮧ	-12.637
ꭲꮧꮿꮩꭿ	-12.637
ꭳꭹꮎꮦꮖꮆ	-12.637
ꮒꮧꮵꮑꮂꮎ	-12.637
ꮩꮣᏺꭹꮈꮻꮝꮣꮑ	-12.637
ꮷꭹꮵꮝꭺ	-12.637
ꮷꮼꭺꮩꮧ	-12.637
ꮒꮳꮫꭹꮝꭼꮎ	-12.637
ᏹꮧꭼꮥꭺ	-12.637
ꭲꮵꮝꮣꮹꮥꭸꮝꮧ	-12.637
ꭴꮎꮭꭵ	-12.637
ꭴꮒꮿꮩꮄ	-12.637
ꭴꮩꮅꮝꮩ	-12.637
ꮝꮖꮫꮕꭲꮝꮣꮑꮈ	-12.637
]	-13.559
?	-13.6138
\	-13.637
ꮚ	-14.6093
:	-14.6094
)	-14.6095
!	-14.6096
ꮛ	-14.6097
