<pad>	0
</s>	0
<unk>	0
¦	-1.16553
▁¦	-1.65263
▁	-2.81101
𐋇	-3.24752
s	-3.90971
the	-3.94407
▁.	-4.28636
▁,	-4.43465
of	-4.77032
in	-4.78172
a	-4.78575
ed	-4.79889
to	-4.8764
ing	-5.17299
and	-5.19757
is	-5.19858
th	-5.4317
be	-5.47042
at	-5.60108
y	-5.68126
𐊣	-5.73399
𐊼	-5.73399
on	-5.82427
for	-5.93792
t	-5.95797
-	-6.0923
are	-6.10494
ly	-6.11202
en	-6.14151
d	-6.16111
corona	-6.17572
has	-6.22908
▁'	-6.29173
e	-6.29327
have	-6.32162
with	-6.36
it	-6.38092
as	-6.4646
vaccine	-6.4914
will	-6.51392
n	-6.51672
from	-6.53985
w	-6.55714
not	-6.58283
patient	-6.59648
or	-6.60782
was	-6.651
by	-6.66962
i	-6.67317
an	-6.73646
state	-6.76479
al	-6.78745
pe	-6.80788
▁"	-6.86282
government	-6.88789
said	-6.911
covid	-6.91697
ople	-6.92234
there	-6.93358
day	-6.95724
se	-6.97066
health	-6.98709
▁(	-7.01069
c	-7.02226
v	-7.06512
lso	-7.06855
r	-7.1267
he	-7.15203
number	-7.15434
but	-7.15984
virus	-7.17001
we	-7.17633
▁?	-7.18553
were	-7.18714
if	-7.21389
can	-7.23448
other	-7.26553
m	-7.26877
one	-7.2803
after	-7.28418
-19¦	-7.29045
hospital	-7.30186
er	-7.31282
ies	-7.31362
minister	-7.31676
es	-7.34609
who	-7.34892
us	-7.35525
co	-7.38548
should	-7.3889
all	-7.39826
ir	-7.40655
had	-7.41318
test	-7.4205
how	-7.4285
you	-7.46316
p	-7.49326
oxygen	-7.50306
▁)	-7.50472
g	-7.51284
no	-7.51586
maha	-7.51815
some	-7.52578
so	-7.54196
rashtr	-7.57238
india	-7.57508
more	-7.57955
▁:	-7.58125
infection	-7.58979
out	-7.61703
case	-7.64407
abou	-7.64641
lockdown	-7.64686
re	-7.64885
vaccination	-7.65301
say	-7.66599
time	-7.66679
dr	-7.67348
many	-7.68622
may	-7.6911
b	-7.70748
than	-7.72078
o	-7.72521
year	-7.72572
new	-7.72852
disease	-7.74141
work	-7.77076
per	-7.79433
l	-7.79472
do	-7.79552
district	-7.79576
.	-7.7959
ion	-7.79732
what	-7.80322
ity	-7.83664
take	-7.85373
high	-7.85433
st	-7.85836
according	-7.87102
country	-7.87655
use	-7.87975
center	-7.89396
being	-7.90045
hich	-7.91675
go	-7.92902
hile	-7.9319
first	-7.94625
sh	-7.94771
up	-7.95022
spread	-7.95229
last	-7.95617
increase	-7.98095
k	-7.98375
two	-7.98512
second	-7.9872
under	-7.98819
found	-7.99349
di	-8.0081
world	-8.0126
such	-8.01692
ever	-8.02076
when	-8.02724
symptom	-8.04972
school	-8.04972
like	-8.04989
due	-8.05033
sars	-8.05931
over	-8.05932
march	-8.06092
hand	-8.06636
ce	-8.08468
any	-8.09564
dur	-8.10067
need	-8.10094
home	-8.10467
mumbai	-8.10695
start	-8.10695
cause	-8.11233
children	-8.11879
chief	-8.12357
death	-8.13082
medical	-8.13562
coronavirus	-8.1509
doctor	-8.15274
,	-8.15368
treatment	-8.15777
infect	-8.15962
now	-8.17184
situation	-8.17771
ill	-8.18521
▁¦2020¦	-8.193
le	-8.19316
april	-8.19556
his	-8.20085
dose	-8.20725
even	-8.21455
de	-8.2147
wave	-8.21638
care	-8.22805
every	-8.23753
public	-8.23762
u	-8.25561
wh	-8.26981
countries	-8.27037
system	-8.27143
ose	-8.27856
your	-8.28376
ment	-8.28643
get	-8.29871
available	-8.3014
f	-8.3035
person	-8.30783
age	-8.31527
ay	-8.31634
most	-8.3188
risk	-8.32452
rate	-8.32953
un	-8.33049
am	-8.34146
mask	-8.34561
our	-8.34808
cent	-8.35713
give	-8.36101
agains	-8.37247
come	-8.37773
et	-8.37833
ation	-8.38577
develop	-8.38682
hav	-8.38905
way	-8.39282
▁¦10	-8.40113
ar	-8.40231
vaccinat	-8.40418
pune	-8.40693
2	-8.40851
chin	-8.41292
current	-8.41646
through	-8.41967
restriction	-8.42941
where	-8.43607
includ	-8.43619
tak	-8.43838
▁."	-8.44409
place	-8.44575
ive	-8.44875
worker	-8.46077
formation	-8.46282
made	-8.46592
effective	-8.46594
-2	-8.47198
acker	-8.47256
human	-8.47604
able	-8.47973
reported	-8.48734
large	-8.4897
ic	-8.49835
well	-8.51077
1	-8.51106
announc	-8.51418
outbreak	-8.51783
ers	-8.52018
report	-8.52026
me	-8.52345
beds	-8.53366
contact	-8.53565
area	-8.53858
▁;	-8.54416
la	-8.54534
h	-8.54667
na	-8.55165
central	-8.55378
control	-8.55923
follow	-8.57248
bas	-8.57368
ould	-8.57886
lakh	-8.58761
drug	-8.59043
ry	-8.59418
them	-8.5948
know	-8.59815
,000	-8.5992
issue	-8.59936
level	-8.60684
student	-8.60684
unit	-8.61177
important	-8.61858
call	-8.62514
month	-8.63445
travel	-8.64241
municipal	-8.64241
long	-8.64284
ve	-8.64512
testing	-8.65374
administration	-8.65481
service	-8.65864
did	-8.65874
ether	-8.65892
its	-8.65988
allow	-8.66373
rs	-8.66377
ous	-8.66875
affect	-8.67514
giv	-8.67951
▁).	-8.68482
prevent	-8.6863
j	-8.68701
hour	-8.69327
part	-8.69547
same	-8.6964
▁¦1¦	-8.6984
jan	-8.69853
help	-8.6989
demand	-8.70041
education	-8.70041
positive	-8.70064
round	-8.70413
body	-8.71322
data	-8.71369
citizens	-8.72247
mean	-8.72418
respirator	-8.72632
decision	-8.73511
supply	-8.73511
few	-8.73947
increasing	-8.73954
line	-8.74275
ma	-8.74739
does	-8.75021
▁-	-8.75099
less	-8.75122
million	-8.75293
present	-8.75361
▁¦6	-8.75642
before	-8.75644
kar	-8.75763
rule	-8.75793
uk	-8.75885
question	-8.76196
meeting	-8.76285
twee	-8.76761
ro	-8.77021
udd	-8.77191
crore	-8.77566
ten	-8.77846
app	-8.78171
modi	-8.78523
hands	-8.78582
three	-8.78957
set	-8.78986
department	-8.79422
order	-8.79839
ra	-8.80163
washing	-8.80584
5	-8.81038
make	-8.81135
clos	-8.81265
social	-8.81313
provide	-8.81381
▁),	-8.8142
don	-8.81714
very	-8.81724
man	-8.82448
could	-8.8287
prim	-8.83783
show	-8.83804
delhi	-8.84219
thousand	-8.84222
speak	-8.86079
severe	-8.86359
then	-8.86554
▁¦12	-8.86796
tion	-8.87442
period	-8.87719
private	-8.87719
emergenc	-8.87721
since	-8.87757
il	-8.87807
institute	-8.8823
trial	-8.88294
/	-8.88299
open	-8.88426
low	-8.88622
organization	-8.88746
week	-8.88774
far	-8.89053
expert	-8.89258
uary	-8.89609
local	-8.89777
possibl	-8.90023
campaign	-8.90297
different	-8.91347
include	-8.92896
sample	-8.93221
ask	-8.93608
bb	-8.94357
study	-8.94564
research	-8.94741
office	-8.94775
though	-8.95066
▁¦50	-8.95187
ch	-8.95403
shortage	-8.95683
endra	-8.95692
police	-8.96304
est	-8.96539
wide	-8.96777
9¦	-8.96922
national	-8.96936
effect	-8.97306
fore	-8.97764
phase	-8.97952
ness	-8.99569
my	-8.99732
rapid	-9.00168
lance	-9.00447
id	-9.00675
te	-9.00711
clinical	-9.00765
thing	-9.00808
ri	-9.00871
li	-9.01264
bo	-9.01361
z	-9.01542
company	-9.01555
general	-9.01912
direct	-9.02345
both	-9.02473
grow	-9.02501
air	-9.02747
ministr	-9.03093
end	-9.03186
ance	-9.03369
four	-9.04335
reach	-9.04518
4¦	-9.04709
pr	-9.04766
february	-9.04889
universit	-9.04889
change	-9.05038
reason	-9.05497
union	-9.05578
ural	-9.05842
▁¦7	-9.06032
wom	-9.06202
blood	-9.06718
her	-9.07442
she	-9.07456
measures	-9.07774
▁¦2¦	-9.08206
con	-9.08442
quarantine	-9.08618
continue	-9.08745
6	-9.08952
recommend	-9.09187
▁¦30	-9.09309
among	-9.09843
00¦	-9.09865
ex	-9.10166
4	-9.10208
pur	-9.10315
pandemic	-9.1048
sever	-9.10515
media	-9.10775
hi	-9.11061
village	-9.11121
▁¦8	-9.11478
regard	-9.11766
total	-9.11795
▁¦11	-9.11815
reduce	-9.11945
im	-9.11998
back	-9.12414
market	-9.12422
ventilator	-9.12445
relat	-9.12573
old	-9.12811
avoid	-9.13069
ary	-9.13428
surveil	-9.13727
third	-9.13732
try	-9.13754
1¦	-9.14005
ld	-9.1424
cell	-9.14674
contain	-9.15056
came	-9.15096
2¦	-9.15179
ke	-9.1541
rum	-9.15469
complete	-9.15641
response	-9.15727
transmission	-9.16403
vari	-9.16586
done	-9.16745
heart	-9.17145
again	-9.17178
become	-9.17337
him	-9.17681
exam	-9.17796
here	-9.1782
0¦	-9.17972
down	-9.18643
cit	-9.18868
much	-9.19158
result	-9.1923
face	-9.19824
treat	-9.19831
essential	-9.19851
keep	-9.19855
producti	-9.19886
dis	-9.2014
coming	-9.20217
bat	-9.20527
population	-9.20557
indian	-9.20617
um	-9.20675
close	-9.21235
problem	-9.21265
process	-9.21295
approv	-9.21865
kovid	-9.22001
force	-9.22232
5¦	-9.22673
▁¦4	-9.22687
conduct	-9.22698
vi	-9.22711
percent	-9.22722
five	-9.22756
family	-9.22849
raje	-9.23122
early	-9.23255
impos	-9.23308
corporation	-9.23423
soap	-9.23426
hc	-9.23721
fa	-9.23767
limit	-9.24129
stay	-9.24276
ur	-9.2476
further	-9.24888
relative	-9.24913
fever	-9.24972
el	-9.25003
▁¦18	-9.25131
type	-9.25164
nex	-9.25494
crowd	-9.25629
ka	-9.25814
nagpur	-9.26375
group	-9.26604
ical	-9.26609
▁¦5¦	-9.26666
▁¦15¦	-9.27067
pm	-9.27092
confirm	-9.27128
water	-9.27144
side	-9.27414
ul	-9.27459
difficult	-9.27885
medicine	-9.27885
fight	-9.27901
shop	-9.28097
0	-9.28274
serious	-9.28648
support	-9.28648
crisi	-9.28904
development	-9.28934
officer	-9.29128
acros	-9.29337
3¦	-9.29396
similar	-9.29417
own	-9.29418
fire	-9.29458
▁¦3	-9.29755
ak	-9.29906
pain	-9.29982
global	-9.30193
ches	-9.30301
ant	-9.30362
ne	-9.30915
passenger	-9.30974
register	-9.30974
chinese	-9.30975
protect	-9.31
release	-9.31158
nar	-9.31615
president	-9.31776
free	-9.31785
tory	-9.31952
conditions	-9.32039
learn	-9.32397
each	-9.32481
immediate	-9.32555
half	-9.32563
remain	-9.32587
hel	-9.3276
3	-9.32796
ning	-9.32838
action	-9.32958
par	-9.32975
sure	-9.33067
small	-9.33365
good	-9.33379
parent	-9.33648
lung	-9.34166
pass	-9.34185
distance	-9.34733
sent	-9.34891
rt	-9.35084
hu	-9.35611
facilit	-9.35683
lack	-9.35749
transport	-9.35795
strain	-9.36609
concern	-9.36621
marath	-9.3663
staff	-9.37454
animal	-9.37454
9	-9.37861
po	-9.38126
want	-9.3817
strict	-9.38215
practice	-9.38294
house	-9.38342
▁¦24¦	-9.39009
addition	-9.39139
admitted	-9.39142
into	-9.39189
put	-9.39311
six	-9.39459
ok	-9.3959
gan	-9.39593
ace	-9.39664
condition	-9.39696
non	-9.39731
common	-9.39997
touch	-9.40011
proper	-9.40032
wear	-9.4021
self	-9.40661
bh	-9.40756
see	-9.40789
tope	-9.40814
college	-9.40858
war	-9.40976
critical	-9.41728
night	-9.41845
uhan	-9.41854
class	-9.42006
jun	-9.42467
epidemic	-9.42605
inform	-9.42606
claim	-9.42606
▁¦20¦	-9.43368
major	-9.4349
young	-9.43491
consider	-9.43551
dai	-9.43882
task	-9.43924
leas	-9.44158
safety	-9.44388
injection	-9.4439
post	-9.44431
ia	-9.44647
tri	-9.44677
monitor	-9.45284
host	-9.45467
ally	-9.45692
closures	-9.4604
implement	-9.46169
head	-9.4621
community	-9.46319
mp	-9.46459
gett	-9.46495
mers	-9.46514
▁¦16	-9.46901
pre	-9.46932
tic	-9.47094
remedesivir	-9.4711
ab	-9.47377
ent	-9.47774
term	-9.48039
covac	-9.48059
cough	-9.48112
lo	-9.48287
plan	-9.48406
raj	-9.4875
examination	-9.48971
food	-9.48984
flu	-9.49066
clear	-9.49185
requir	-9.49322
▁¦200	-9.49504
▁¦100	-9.49646
active	-9.49888
shield	-9.49914
immune	-9.49915
receiv	-9.50009
happen	-9.5001
plann	-9.50181
▁!	-9.50312
vs	-9.50363
right	-9.50471
icu	-9.50677
name	-9.50691
mo	-9.50761
protein	-9.50867
expected	-9.51007
kit	-9.51111
cold	-9.51404
factor	-9.51668
form	-9.51669
weeks	-9.51746
clean	-9.51829
look	-9.51837
prade	-9.52092
x	-9.52206
ba	-9.52336
companie	-9.52561
capacit	-9.528
election	-9.52825
estimate	-9.53021
pro	-9.53342
antibod	-9.53513
7¦	-9.53556
▁¦19¦	-9.53636
evidence	-9.5378
return	-9.538
enter	-9.53854
director	-9.54039
produce	-9.54367
▁¦14¦	-9.54447
board	-9.5477
mutation	-9.54778
south	-9.54778
kill	-9.54901
cities	-9.54906
cost	-9.55148
bjp	-9.5577
guideline	-9.5577
project	-9.5577
bharat	-9.5577
talk	-9.55783
big	-9.55811
ol	-9.56265
room	-9.56786
breath	-9.57659
results	-9.57685
8	-9.57734
amravati	-9.578
appear	-9.578
special	-9.58096
pawa	-9.58449
pra	-9.58681
pi	-9.58707
discuss	-9.5879
variant	-9.58846
let	-9.59047
stage	-9.59081
tweet	-9.59102
viral	-9.59736
biotech	-9.59865
december	-9.59873
court	-9.59874
studie	-9.59874
7	-9.59957
da	-9.6013
train	-9.60498
ja	-9.60814
safe	-9.60921
europe	-9.60925
check	-9.60925
genome	-9.60925
statistic	-9.60925
deliver	-9.60933
letter	-9.60947
bio	-9.6096
outside	-9.60994
cy	-9.61119
provid	-9.61245
▁¦3¦	-9.6185
cute	-9.61867
tu	-9.61952
express	-9.61997
lives	-9.62399
gi	-9.62901
fear	-9.63065
▁¦25	-9.63124
decid	-9.63303
cur	-9.63343
seem	-9.63385
aid	-9.63452
run	-9.63452
mort	-9.63688
ct	-9.63778
espec	-9.64107
visit	-9.64181
italy	-9.6421
iz	-9.64296
anti	-9.64408
ough	-9.64458
inter	-9.6455
com	-9.64985
▁¦19	-9.65002
authorit	-9.6525
stock	-9.6525
lot	-9.65338
date	-9.65459
fu	-9.65843
ture	-9.66128
lead	-9.66282
suggest	-9.66319
taluka	-9.66361
detect	-9.66362
▁¦2019	-9.66364
think	-9.66419
sub	-9.66469
ially	-9.66863
add	-9.66969
times	-9.67012
29	-9.67221
rna	-9.67306
olation	-9.67433
diagnos	-9.67477
mi	-9.675
begin	-9.67516
ward	-9.67734
recover	-9.67827
diseases	-9.67853
▁¦20	-9.67896
▁,"	-9.67965
ge	-9.68114
ight	-9.68155
store	-9.68353
polic	-9.68437
unti	-9.68603
figure	-9.68621
survey	-9.68621
sector	-9.68621
front	-9.68622
recent	-9.68801
ash	-9.6896
leader	-9.68976
challenge	-9.69008
officials	-9.69019
ram	-9.69127
ish	-9.6919
find	-9.69204
news	-9.69346
considered	-9.69691
fund	-9.69771
specific	-9.69773
mild	-9.69782
international	-9.69784
declin	-9.70286
require	-9.70471
necessar	-9.70909
industr	-9.70925
record	-9.70934
card	-9.71033
full	-9.71148
rais	-9.71665
alcohol	-9.7211
negative	-9.7211
pneumonia	-9.7211
life	-9.72115
review	-9.72148
others	-9.72169
produc	-9.72587
experience	-9.72625
needs	-9.7286
log	-9.72868
manage	-9.72912
vaccinate	-9.72965
“	-9.73301
▁¦60	-9.73304
economic	-9.7332
short	-9.7334
8¦	-9.73564
car	-9.73653
ac	-9.73883
dry	-9.73883
om	-9.74317
feel	-9.74539
later	-9.74584
political	-9.74611
ut	-9.74932
gp	-9.75012
stop	-9.75514
▁¦22	-9.75633
pfizer	-9.75725
secretary	-9.75728
wash	-9.75729
step	-9.75769
illness	-9.75785
event	-9.75798
jit	-9.75872
compar	-9.75922
uty	-9.75923
soon	-9.76061
initial	-9.76097
pay	-9.7617
pal	-9.7669
abo	-9.76809
business	-9.76959
effort	-9.76959
suspect	-9.76959
senior	-9.7696
child	-9.76965
manda	-9.77162
ial	-9.77482
chain	-9.77622
influenza	-9.78209
▁%)	-9.78209
sanitizer	-9.78275
ship	-9.78397
drugs	-9.78537
▁”	-9.78739
advis	-9.78827
stor	-9.7943
drop	-9.7958
manufactur	-9.80011
undergo	-9.80068
ni	-9.802
rise	-9.80229
collect	-9.80731
publish	-9.80757
september	-9.80757
▁¦2021¦	-9.80757
extend	-9.80848
▁¦17	-9.8087
creat	-9.80941
ho	-9.81012
great	-9.81019
healthcare	-9.81213
late	-9.81388
observ	-9.82033
just	-9.82051
impact	-9.82056
suffer	-9.82056
answer	-9.82057
employee	-9.82059
writ	-9.82063
infectious	-9.82064
flight	-9.82081
uttar	-9.8212
lab	-9.82256
ig	-9.8238
nagar	-9.82651
ha	-9.82781
cdc	-9.83376
dep	-9.83498
commissioner	-9.83513
waste	-9.83541
fill	-9.83679
once	-9.84526
oxford	-9.84705
spite	-9.84706
stress	-9.84706
team	-9.84764
ty	-9.8569
commission	-9.85914
member	-9.86008
societ	-9.86057
additional	-9.8606
em	-9.86496
sign	-9.86552
main	-9.86588
ate	-9.86767
▁¦23	-9.86923
tter	-9.87253
earlie	-9.87426
example	-9.87426
syndrome	-9.87426
application	-9.87428
instruction	-9.87442
financial	-9.87453
▁'.	-9.87526
astra	-9.87559
▁¦4¦	-9.87748
ang	-9.8793
individuals	-9.8801
han	-9.88029
abilit	-9.88081
mis	-9.88108
declar	-9.88823
hind	-9.88827
navi	-9.88902
maintain	-9.90224
temperature	-9.90224
sick	-9.90227
hotel	-9.90227
technolog	-9.90236
statement	-9.9081
supplie	-9.90933
pat	-9.91007
rc	-9.91068
act	-9.91116
off	-9.91373
significant	-9.91652
already	-9.91737
nation	-9.918
laboratory	-9.91863
▁¦28	-9.91897
▁¦13	-9.92257
ail	-9.92669
caus	-9.92709
chang	-9.92755
slow	-9.93014
mor	-9.93083
genetic	-9.93104
scientist	-9.9313
▁¦40¦	-9.93136
association	-9.93138
single	-9.93167
ting	-9.93509
pu	-9.93607
toll	-9.9363
live	-9.93895
view	-9.94518
mmunity	-9.94526
previous	-9.94572
zeneca	-9.94572
symptomatic	-9.94573
appeal	-9.94574
danger	-9.94574
minute	-9.94575
religio	-9.94582
curfew	-9.94594
past	-9.94594
light	-9.94604
perform	-9.94626
too	-9.94713
east	-9.94858
near	-9.94893
leave	-9.95001
leaders	-9.95717
official	-9.95733
deep	-9.95937
real	-9.95976
committee	-9.96065
kumar	-9.96066
nurse	-9.96069
pcr	-9.96095
▁¦45	-9.96398
stopp	-9.96506
option	-9.96531
land	-9.96566
led	-9.96584
west	-9.96763
men	-9.97289
trac	-9.97579
victim	-9.9758
region	-9.9758
permission	-9.97599
must	-9.97624
press	-9.97646
▁¦70	-9.97666
attend	-9.97781
ppe	-9.98008
oc	-9.98213
ted	-9.98876
virolog	-9.99117
benefit	-9.99118
lower	-9.99155
discussion	-9.9918
went	-9.99374
har	-9.99466
met	-9.99644
identifi	-9.99737
rsc	-9.99787
ber	-10.0004
▁".	-10.0006
gav	-10.001
phe	-10.0011
isolat	-10.0039
▁/	-10.0047
primar	-10.0058
product	-10.0061
hygien	-10.0068
protocol	-10.0068
solution	-10.0068
journalist	-10.0068
exposure	-10.0068
point	-10.0069
role	-10.0074
read	-10.0084
collector	-10.0085
ather	-10.0098
save	-10.0108
mind	-10.0141
▁¦31¦	-10.0172
reduc	-10.0181
video	-10.0227
tanker	-10.0227
usual	-10.0228
sunday	-10.0228
mela	-10.0238
lef	-10.0242
create	-10.0251
cha	-10.0255
list	-10.0267
german	-10.0286
ful	-10.0323
code	-10.036
inciden	-10.0362
agenc	-10.039
ovel	-10.0401
opposi	-10.0408
▁¦90	-10.0421
antibody	-10.0448
ttle	-10.0459
walk	-10.0463
personal	-10.0516
famil	-10.0519
covi	-10.0524
potential	-10.0529
–	-10.0532
ver	-10.0534
ilit	-10.0541
associat	-10.0548
friday	-10.0552
program	-10.0552
equipment	-10.0552
micro	-10.0553
contract	-10.0553
season	-10.0553
tention	-10.0557
wait	-10.0558
fast	-10.0564
port	-10.0595
ban	-10.0602
got	-10.0615
▁¦80	-10.0632
mu	-10.0679
ivir	-10.07
hit	-10.0702
kumbh	-10.0719
standard	-10.0719
chandra	-10.0719
entire	-10.0719
surface	-10.072
urs	-10.072
bank	-10.0723
tru	-10.0758
controll	-10.0812
su	-10.0851
break	-10.0883
paper	-10.0888
access	-10.0888
congress	-10.0888
matter	-10.089
thane	-10.0922
ages	-10.0925
nose	-10.094
▁¦26	-10.0965
miss	-10.0986
ago	-10.1006
researcher	-10.1007
method	-10.1061
play	-10.1061
import	-10.1061
diarrhea	-10.1061
pressure	-10.1061
shik	-10.1061
carri	-10.107
ji	-10.1072
phone	-10.1073
origin	-10.1082
former	-10.1086
bi	-10.1087
table	-10.1091
track	-10.1092
35	-10.1105
ari	-10.1109
bar	-10.1145
finding	-10.1148
die	-10.1149
fil	-10.115
ip	-10.1172
ond	-10.1182
fee	-10.1217
occasion	-10.1236
scale	-10.1236
gym	-10.1236
exist	-10.1237
job	-10.1239
design	-10.124
sequenc	-10.1243
50¦	-10.13
gra	-10.1302
quin	-10.131
cover	-10.1313
eight	-10.1347
dev	-10.135
fac	-10.1376
luc	-10.138
chloro	-10.1415
address	-10.1415
location	-10.1415
africa	-10.1415
exact	-10.1416
tell	-10.1417
remedivi	-10.1421
rem	-10.1456
ood	-10.1456
va	-10.1469
tog	-10.1512
tric	-10.1525
sha	-10.1536
ph	-10.1546
decide	-10.1556
.5	-10.1559
prevalen	-10.157
launch	-10.1596
korea	-10.1597
depend	-10.1597
patil	-10.1598
fic	-10.1656
tra	-10.1656
njay	-10.1672
ran	-10.1687
mal	-10.1691
iran	-10.1713
bed	-10.1775
certain	-10.1779
multi	-10.1782
material	-10.1782
particular	-10.1782
menstrua	-10.1782
power	-10.1782
responsibilit	-10.1782
antiviral	-10.1783
▁¦21¦	-10.1784
remedic	-10.1785
speci	-10.1788
modern	-10.179
final	-10.1792
onu	-10.1798
cross	-10.1802
liqu	-10.1804
win	-10.1818
teacher	-10.1821
twi	-10.1848
notice	-10.1849
▁¦27	-10.1855
mr	-10.1873
bal	-10.1965
availab	-10.1968
establish	-10.1968
amount	-10.197
diabetes	-10.1971
adar	-10.1976
statu	-10.1983
building	-10.1991
bring	-10.2022
operation	-10.203
pan	-10.2076
advi	-10.2082
recovered	-10.2111
occur	-10.2135
criticiz	-10.2163
cylinder	-10.2163
difference	-10.2163
foreign	-10.2163
railway	-10.2163
separate	-10.2163
average	-10.2163
account	-10.2163
securit	-10.2165
95¦	-10.2166
jum	-10.2167
super	-10.217
ready	-10.2194
den	-10.2211
lu	-10.2263
vira	-10.2264
groups	-10.2298
mental	-10.2342
qu	-10.2348
source	-10.2355
econom	-10.2355
schedule	-10.2359
network	-10.2359
gue	-10.2387
hard	-10.2393
hug	-10.2398
eu	-10.2403
conv	-10.2425
wal	-10.2452
priorit	-10.2461
send	-10.2466
san	-10.2491
scheme	-10.2559
science	-10.2559
vehicle	-10.2559
ghar	-10.2566
bc	-10.2573
48	-10.2576
43	-10.2598
prepared	-10.2613
tan	-10.2614
franc	-10.2621
plant	-10.264
seven	-10.2686
fel	-10.2688
eat	-10.2706
bacteria	-10.2718
door	-10.272
warn	-10.2728
mak	-10.2752
approach	-10.2763
possibilit	-10.2763
regular	-10.2763
stead	-10.2763
vasai	-10.2763
vas	-10.2767
brit	-10.2813
tract	-10.2883
ble	-10.2922
decreas	-10.2929
ily	-10.2963
distribut	-10.2967
investigat	-10.2967
guid	-10.2971
bengal	-10.2971
adult	-10.2971
cabin	-10.2971
living	-10.2971
graph	-10.2972
awareness	-10.2972
swab	-10.2973
distribution	-10.2975
arsha	-10.298
sur	-10.2985
skin	-10.2987
law	-10.299
kon	-10.3068
cancel	-10.3074
10	-10.3094
manufacturer	-10.3094
happ	-10.3171
apart	-10.3182
tensive	-10.3183
mobile	-10.3184
procedure	-10.3184
regulator	-10.3184
saturday	-10.3184
target	-10.3184
bird	-10.3184
natural	-10.3184
throat	-10.3185
update	-10.3192
33	-10.3208
count	-10.3222
site	-10.3271
training	-10.3302
br	-10.3335
ern	-10.3337
fact	-10.3357
cri	-10.3377
ice	-10.3384
scienti	-10.3397
field	-10.3401
function	-10.3401
brazil	-10.3401
announcement	-10.3401
spoke	-10.3401
▁¦15	-10.3405
lost	-10.3411
hospitaliz	-10.3413
normal	-10.3417
rush	-10.3422
.7	-10.3424
cr	-10.3429
incident	-10.3437
,5	-10.344
singh	-10.3444
mla	-10.3444
histor	-10.3456
runn	-10.3489
participat	-10.3521
cl	-10.361
detail	-10.3623
mouth	-10.3624
discover	-10.3626
sell	-10.3635
desh	-10.3647
whole	-10.3681
via	-10.3682
aim	-10.3692
mid	-10.3704
organ	-10.3731
vid	-10.3761
politic	-10.3831
turn	-10.3846
ll	-10.3847
adequate	-10.3851
physical	-10.3851
regulation	-10.3851
vegetable	-10.3851
adapt	-10.3851
pharma	-10.3851
rtpcr	-10.3852
shiv	-10.3853
rahu	-10.3857
therap	-10.3865
conference	-10.3871
decrease	-10.3897
range	-10.3922
preventi	-10.393
jo	-10.3932
jos	-10.3997
harsh	-10.4013
hra	-10.4036
laborator	-10.4049
abad	-10.4065
adhya	-10.4083
environment	-10.4083
focus	-10.4083
hundred	-10.4083
platform	-10.4083
progress	-10.4083
relax	-10.4083
strategi	-10.4083
buy	-10.4083
course	-10.4083
digit	-10.4084
successful	-10.4084
allegation	-10.4085
arrest	-10.4085
price	-10.4085
urban	-10.4088
resource	-10.4089
dom	-10.4091
ase	-10.4091
urang	-10.4094
reaction	-10.4097
shar	-10.4119
ud	-10.4141
distanc	-10.4153
octo	-10.4202
tara	-10.4209
hold	-10.4246
shank	-10.426
russia	-10.4306
kept	-10.4308
ities	-10.4316
employ	-10.4321
request	-10.4321
frequent	-10.4321
guardian	-10.4321
privacy	-10.4321
receptor	-10.4321
middle	-10.4321
antigen	-10.4321
monday	-10.4322
emerg	-10.4323
black	-10.4335
zone	-10.4351
esh	-10.4354
closure	-10.4363
rising	-10.4387
station	-10.4445
model	-10.4474
road	-10.4494
hal	-10.4517
gai	-10.4533
fr	-10.4538
▁¦14	-10.4543
ednes	-10.4547
bodie	-10.4552
cho	-10.4554
du	-10.4554
q	-10.4562
attack	-10.4565
gujarat	-10.4565
november	-10.4565
pharmaceutical	-10.4565
picture	-10.4565
admission	-10.4565
sudden	-10.4568
careful	-10.4572
move	-10.4588
confus	-10.4589
generat	-10.4591
bann	-10.4629
chi	-10.4651
aster	-10.4662
cod	-10.4669
lon	-10.4704
mone	-10.4737
never	-10.474
path	-10.479
sola	-10.4799
protecti	-10.4807
respond	-10.4815
johns	-10.4815
appropriate	-10.4815
friend	-10.4815
website	-10.4815
vardhan	-10.4815
delay	-10.4815
thus	-10.4816
chron	-10.4816
contagious	-10.4817
export	-10.4817
dead	-10.4817
worse	-10.4821
explain	-10.4834
cov	-10.4836
sale	-10.4848
double	-10.4851
mention	-10.4855
approval	-10.4856
nown	-10.4869
rest	-10.4884
rought	-10.489
king	-10.4892
pregnan	-10.4893
share	-10.4942
experienc	-10.496
lly	-10.496
cap	-10.498
;	-10.4983
ru	-10.5005
remov	-10.5041
ali	-10.5051
responsib	-10.5071
accept	-10.5072
ambulance	-10.5072
constant	-10.5072
institution	-10.5072
multiple	-10.5072
serolog	-10.5072
inquir	-10.5072
damage	-10.5072
dependent	-10.5073
mukh	-10.5073
engl	-10.5075
desivir	-10.5095
gaon	-10.5106
cil	-10.5111
kan	-10.5112
gre	-10.5129
mother	-10.5137
older	-10.5172
▁¦24	-10.5183
vit	-10.5188
raw	-10.5244
germ	-10.5251
shut	-10.5258
42	-10.5271
ep	-10.5295
presen	-10.5301
fl	-10.5313
agricultur	-10.5316
california	-10.5335
subject	-10.5335
session	-10.5335
photo	-10.5335
elder	-10.5335
acid	-10.5338
operat	-10.5345
mark	-10.5363
urg	-10.5405
.2	-10.5405
rao	-10.5406
baba	-10.5409
understand	-10.5413
meter	-10.5425
peak	-10.5452
wi	-10.5453
xi	-10.5453
ko	-10.5456
kwa	-10.5463
sistance	-10.5556
17	-10.5563
exercise	-10.5572
nnes	-10.5589
"	-10.5591
coun	-10.5592
drive	-10.5598
approximate	-10.5605
exclud	-10.5605
gregation	-10.5605
grocer	-10.5605
hyderabad	-10.5605
obtain	-10.5605
space	-10.5606
combination	-10.5607
strong	-10.5608
interest	-10.5608
ves	-10.561
hypox	-10.5611
link	-10.5612
arriv	-10.5617
hope	-10.562
loss	-10.562
involv	-10.5628
border	-10.5632
percentage	-10.5634
poor	-10.5649
outcome	-10.565
fall	-10.5665
overall	-10.5687
reli	-10.5694
thought	-10.5782
clot	-10.5802
continu	-10.5808
arise	-10.5821
ought	-10.5823
involve	-10.586
interact	-10.588
assess	-10.5881
load	-10.5882
poonawala	-10.5883
spike	-10.5883
hong	-10.5883
dispos	-10.5884
word	-10.5885
promis	-10.5885
believe	-10.5885
empt	-10.5893
amp	-10.5918
measure	-10.5966
elimina	-10.5998
analysi	-10.6008
indicat	-10.6044
farmer	-10.6064
ident	-10.61
ecut	-10.6121
meet	-10.6131
except	-10.6164
adverse	-10.6169
australia	-10.6169
medication	-10.6169
restaurant	-10.6169
sufficient	-10.6169
capital	-10.6169
failure	-10.6169
suspend	-10.6169
promot	-10.6169
preparation	-10.6171
investigation	-10.6174
section	-10.6177
nel	-10.6189
activity	-10.6195
complet	-10.6206
nce	-10.6208
dhar	-10.6216
hear	-10.6217
speed	-10.6245
intend	-10.6256
enforce	-10.626
tend	-10.6265
.8	-10.6269
etc	-10.6271
key	-10.6322
amit	-10.6343
lt	-10.6364
nc	-10.6417
dha	-10.6445
ventilat	-10.6449
resident	-10.6457
expos	-10.6463
inflamma	-10.6463
[	-10.6463
efficacy	-10.6463
introduc	-10.6463
krishna	-10.6463
simple	-10.6463
vijay	-10.6463
message	-10.6463
hydr	-10.6463
toilet	-10.6463
agent	-10.6463
inspect	-10.6464
▁...	-10.6464
ii	-10.6469
recogniz	-10.6474
spend	-10.6478
organiz	-10.6478
raja	-10.6483
gathering	-10.6491
mass	-10.6502
offer	-10.6502
ped	-10.6541
violat	-10.6549
broad	-10.655
sore	-10.6561
mode	-10.6569
agar	-10.6571
mar	-10.6593
harm	-10.6669
deal	-10.6696
fine	-10.6696
receive	-10.6735
connect	-10.6762
born	-10.6765
&	-10.6766
engineer	-10.6766
enzyme	-10.6766
sputnik	-10.6766
territori	-10.6766
wedding	-10.6766
degree	-10.6766
expen	-10.6766
intermedia	-10.6769
arter	-10.6769
fda	-10.6777
▁]	-10.6777
ze	-10.68
ongo	-10.6823
closing	-10.6828
bide	-10.6828
44	-10.684
clarifi	-10.6847
92	-10.6912
nath	-10.6913
fi	-10.6933
candidates	-10.6937
item	-10.694
▁¦37	-10.6957
cm	-10.7026
30	-10.7042
gradua	-10.7053
contaminat	-10.7078
domestic	-10.7078
pangolin	-10.7078
typical	-10.7078
profess	-10.7078
device	-10.7079
pathogenic	-10.708
billion	-10.7081
establishment	-10.7083
elief	-10.7084
position	-10.7114
01	-10.7116
chance	-10.712
transmitt	-10.712
remove	-10.7127
unk	-10.7136
serve	-10.7136
hot	-10.7151
eyes	-10.7171
ros	-10.7196
supplier	-10.7239
decline	-10.7256
covin	-10.7267
trum	-10.7281
oxy	-10.73
alve	-10.734
original	-10.7361
lik	-10.7364
postpon	-10.7367
quarantin	-10.7382
exten	-10.7391
august	-10.7401
controvers	-10.7401
organisms	-10.7401
vacanc	-10.7401
solid	-10.7401
joint	-10.7401
communication	-10.7401
shift	-10.7401
japan	-10.7402
towel	-10.7402
industrial	-10.7404
handl	-10.7405
carry	-10.7406
kera	-10.7408
complaint	-10.7411
accu	-10.7437
)	-10.7457
36	-10.7481
meal	-10.7508
rh	-10.7509
slam	-10.7521
mov	-10.7536
ium	-10.7545
hr	-10.7559
gas	-10.7559
referr	-10.756
que	-10.7567
toward	-10.7625
vac	-10.7625
bad	-10.7633
riwal	-10.7654
handle	-10.7666
reserve	-10.7669
surg	-10.7686
$	-10.7734
alternative	-10.7734
assembl	-10.7734
colleague	-10.7734
extreme	-10.7734
hotspot	-10.7734
husband	-10.7734
singapore	-10.7734
plasm	-10.7734
programmes	-10.7734
mission	-10.7737
rain	-10.7739
finger	-10.7739
karona	-10.7741
implementation	-10.7743
feder	-10.7746
tourist	-10.7747
north	-10.7759
gar	-10.7777
centre	-10.7789
intern	-10.7803
trans	-10.7803
jai	-10.7815
bus	-10.7836
lic	-10.7842
temporar	-10.7854
impose	-10.7911
rub	-10.795
pt	-10.7978
tool	-10.7994
66	-10.8041
arrive	-10.8049
threat	-10.8061
consult	-10.8077
wad	-10.8078
aerosol	-10.8079
acquir	-10.8079
#	-10.8079
encourag	-10.8079
funeral	-10.8079
describ	-10.8079
july	-10.8079
reddy	-10.8079
initiative	-10.808
actual	-10.808
orrow	-10.8086
gad	-10.8103
ale	-10.8114
beta	-10.8125
arti	-10.8133
38	-10.815
sense	-10.8153
78	-10.8207
ure	-10.8293
ction	-10.8307
tissue	-10.8322
improve	-10.8343
mer	-10.8354
jam	-10.8376
ili	-10.8386
nawa	-10.8419
sequence	-10.8421
instruct	-10.8432
purpose	-10.8436
division	-10.8436
intervention	-10.8436
pediatrician	-10.8436
shock	-10.8436
arbha	-10.8436
fatalit	-10.8436
located	-10.8436
gandhi	-10.8436
paul	-10.8436
kovac	-10.8436
vot	-10.8436
registration	-10.8437
specimen	-10.8437
unlock	-10.8438
reduction	-10.8439
hospitalization	-10.844
rong	-10.8441
vax	-10.8449
yog	-10.8455
red	-10.8459
ries	-10.8462
sitt	-10.847
.6	-10.8493
communit	-10.852
avin	-10.8539
candidate	-10.8601
cre	-10.8615
determine	-10.8615
96	-10.8622
bhus	-10.8634
mann	-10.8638
boy	-10.8652
sneez	-10.8659
arm	-10.8685
disinfect	-10.8695
heb	-10.871
cure	-10.8723
coron	-10.8745
purchase	-10.8759
operate	-10.8781
select	-10.8797
constructi	-10.8807
activist	-10.8807
chemical	-10.8807
cluster	-10.8807
hazard	-10.8807
membrane	-10.8807
petition	-10.8807
remote	-10.8807
reservoir	-10.8807
angiotensin	-10.8807
kolhapur	-10.8807
street	-10.8807
resort	-10.8807
munde	-10.8807
reveal	-10.8807
probabl	-10.8807
alleg	-10.8807
household	-10.8808
roll	-10.8809
devot	-10.881
harya	-10.8814
comment	-10.8815
moment	-10.8817
easi	-10.8824
counter	-10.8831
khada	-10.8833
summ	-10.8834
itali	-10.8834
potentially	-10.8858
teach	-10.8864
bind	-10.888
learner	-10.8882
75	-10.8893
circulat	-10.8903
nine	-10.891
extra	-10.8921
precautions	-10.8921
fit	-10.8975
63¦	-10.8983
bor	-10.8992
cry	-10.9016
72	-10.9047
86	-10.9066
02	-10.9085
gene	-10.9133
activit	-10.9156
qualit	-10.9178
lock	-10.918
province	-10.9191
respective	-10.9191
complication	-10.9191
attempt	-10.9191
convert	-10.9191
false	-10.9191
injur	-10.9192
ticket	-10.9192
british	-10.9192
machine	-10.9192
surance	-10.9194
zhan	-10.9196
worth	-10.9196
refus	-10.9198
tech	-10.9202
recommendation	-10.9206
zoono	-10.9207
base	-10.9214
agriculture	-10.9219
postpone	-10.9232
ground	-10.9241
facilitate	-10.9246
ku	-10.925
yester	-10.9255
amil	-10.9319
cut	-10.9325
iya	-10.9349
coronation	-10.936
park	-10.9378
prior	-10.9383
apply	-10.9385
dium	-10.9417
97	-10.942
sena	-10.9431
organi	-10.9439
str	-10.9441
iwal	-10.9505
cular	-10.9583
search	-10.9588
grant	-10.9591
minim	-10.9591
feature	-10.9591
holiday	-10.9591
pulmon	-10.9591
trouble	-10.9591
deploy	-10.9591
identify	-10.9591
predict	-10.9591
surviv	-10.9592
festival	-10.9594
formula	-10.9596
connection	-10.9597
proposal	-10.9601
bigge	-10.9602
msel	-10.9604
▁¦400	-10.9613
camel	-10.9623
lok	-10.9626
screening	-10.9628
arvin	-10.9635
anjal	-10.9639
occurr	-10.9652
camp	-10.9665
seek	-10.9705
settings	-10.9724
aged	-10.9755
owner	-10.9766
98	-10.98
:	-10.9839
saw	-10.9842
ration	-10.9852
nature	-10.9857
sometime	-10.9885
94	-10.991
bl	-10.9927
user	-10.994
appli	-10.9965
ket	-10.9997
combin	-11.0006
success	-11.0007
pimpri	-11.0008
document	-11.0008
jessica	-11.0008
pakistan	-11.0008
representative	-11.0008
boost	-11.0008
prompt	-11.0008
customer	-11.0008
venue	-11.0008
struggl	-11.0008
york	-11.0009
▁¦1.5	-11.0009
hku	-11.001
jee	-11.001
airport	-11.0011
book	-11.0013
idea	-11.0015
bra	-11.0015
interaction	-11.0018
surger	-11.0018
useful	-11.002
▁¦0.	-11.002
chha	-11.0022
wipe	-11.0026
prove	-11.0073
harid	-11.0092
coroner	-11.0094
13¦	-11.0112
basic	-11.0118
olar	-11.0129
ible	-11.0144
ologist	-11.0147
rele	-11.021
charge	-11.0217
ham	-11.0263
gram	-11.0265
prepar	-11.0295
lesson	-11.0299
cop	-11.0302
leav	-11.0317
spen	-11.0339
pai	-11.0346
comfort	-11.0375
agha	-11.0393
positiv	-11.0417
celebrat	-11.0443
chairman	-11.0443
cocktail	-11.0443
compound	-11.0443
deteriorat	-11.0443
therapeutic	-11.0443
—	-11.0443
commerc	-11.0443
sleep	-11.0443
headache	-11.0443
bicycle	-11.0443
birth	-11.0444
nucleo	-11.0446
kind	-11.0447
weekend	-11.0454
tele	-11.0463
bul	-11.0469
actor	-11.0475
brother	-11.0477
trace	-11.048
aware	-11.0483
tender	-11.0493
oil	-11.0496
feed	-11.05
biha	-11.0516
trader	-11.0517
forward	-11.0548
adu	-11.0565
khar	-11.059
uck	-11.0594
afr	-11.06
cloth	-11.0621
thank	-11.0712
pregnanc	-11.0756
plane	-11.0835
trip	-11.0839
62¦	-11.0859
image	-11.0862
90	-11.0862
pad	-11.0873
clinic	-11.0882
khand	-11.0885
object	-11.0895
activat	-11.0897
annual	-11.0897
demonstrat	-11.0897
doubt	-11.0897
muscle	-11.0897
opportunit	-11.0897
polymer	-11.0897
professional	-11.0897
quick	-11.0897
milk	-11.0897
mechanism	-11.0897
numer	-11.0897
stream	-11.0897
sensitiv	-11.0897
weaken	-11.0897
trend	-11.0897
consistent	-11.0898
coordinat	-11.0898
lift	-11.0899
install	-11.0899
battle	-11.0899
urgent	-11.09
nawala	-11.09
discharge	-11.09
reverse	-11.09
performance	-11.0901
cemeter	-11.0903
cremat	-11.0903
raut	-11.0903
journal	-11.0904
ramde	-11.0909
fail	-11.0914
heav	-11.0914
lescent	-11.0917
igad	-11.0918
restrict	-11.092
storm	-11.0923
coward	-11.0923
canad	-11.0938
vant	-11.0951
else	-11.0958
bill	-11.0978
karna	-11.098
bacteri	-11.0998
suit	-11.1007
box	-11.1053
gate	-11.1071
satisf	-11.1094
pti	-11.1122
ious	-11.1129
lov	-11.1137
individual	-11.117
tax	-11.1177
serv	-11.1193
morbidit	-11.1247
gun	-11.1313
administrati	-11.1344
refer	-11.1345
kol	-11.1357
pack	-11.1359
propos	-11.1363
cardio	-11.1369
pathogen	-11.1371
ahmed	-11.1373
accident	-11.1373
budget	-11.1373
envelope	-11.1373
homolog	-11.1373
physician	-11.1373
psychiatri	-11.1373
strategy	-11.1373
subsequent	-11.1373
traffic	-11.1373
volunteer	-11.1373
ceremon	-11.1373
compli	-11.1373
girl	-11.1373
enhance	-11.1373
quantit	-11.1374
suppress	-11.1374
unfortunate	-11.1374
pollut	-11.1374
broke	-11.1374
fati	-11.1375
game	-11.1375
cancelled	-11.1375
hung	-11.1375
evaluat	-11.1376
alert	-11.1377
nepal	-11.1377
jayant	-11.1378
movement	-11.1379
worri	-11.1379
lockout	-11.138
parcel	-11.1385
sharp	-11.1389
secret	-11.1398
▁¦55	-11.141
duration	-11.1423
audit	-11.1433
crete	-11.1439
kash	-11.144
kant	-11.1481
myco	-11.1485
wada	-11.1494
mant	-11.1507
blow	-11.1553
pande	-11.1564
18	-11.1572
60	-11.1582
immuno	-11.1588
sampl	-11.1611
akol	-11.1624
elf	-11.1651
bath	-11.1728
gul	-11.1729
shopp	-11.1732
rubb	-11.1745
hall	-11.1764
knowledge	-11.1827
bag	-11.1839
inject	-11.1869
mutat	-11.187
teria	-11.1873
christ	-11.1873
aught	-11.1873
google	-11.1873
proportion	-11.1873
certificate	-11.1873
complex	-11.1873
component	-11.1873
cytokine	-11.1873
governor	-11.1873
http	-11.1873
mahavikas	-11.1873
routine	-11.1873
recruit	-11.1873
dharavi	-11.1873
bound	-11.1873
hyper	-11.1874
concentrat	-11.1874
worry	-11.1874
cultur	-11.1874
stick	-11.1874
defen	-11.1875
ignor	-11.1875
interview	-11.1876
liter	-11.1876
extensive	-11.1876
▁¦5,000	-11.1877
beneficia	-11.1878
invest	-11.1878
panic	-11.1879
java	-11.1883
zer	-11.1883
disorder	-11.1887
alarm	-11.189
package	-11.189
remember	-11.1892
shah	-11.1898
ordin	-11.1898
liver	-11.1904
prepare	-11.1911
premi	-11.192
tap	-11.192
workplace	-11.1941
prevalent	-11.1948
vary	-11.1949
wadi	-11.1965
upper	-11.1982
kani	-11.1983
16	-11.2027
cation	-11.2055
▁¦150	-11.2068
sneeze	-11.2077
dhu	-11.2087
87	-11.2122
ikh	-11.2135
kha	-11.2138
manag	-11.2139
nova	-11.2142
adhan	-11.215
formal	-11.2251
▁¦32	-11.2262
hwad	-11.2327
'	-11.2334
audi	-11.2336
generate	-11.2337
reservation	-11.2341
build	-11.2358
america	-11.2384
epidemiolog	-11.2399
comprehensi	-11.24
discriminati	-11.24
transcript	-11.24
affair	-11.24
contribut	-11.24
correct	-11.24
cycle	-11.24
gloves	-11.24
legislat	-11.24
pattern	-11.24
strength	-11.24
club	-11.24
reference	-11.24
achiev	-11.24
canadian	-11.24
orphan	-11.24
worship	-11.24
mucor	-11.24
license	-11.24
laborer	-11.24
quarter	-11.24
fema	-11.24
adjust	-11.24
partner	-11.24
repurpos	-11.2401
facebook	-11.2401
wake	-11.2402
download	-11.2402
color	-11.2402
particle	-11.2402
blam	-11.2407
covax	-11.2409
bottle	-11.2411
airline	-11.2415
harad	-11.2417
anxi	-11.2426
une	-11.2429
draw	-11.2431
intestin	-11.2433
cam	-11.2444
imm	-11.2446
transfer	-11.2448
wate	-11.2458
osh	-11.2461
breathe	-11.2475
strand	-11.2478
imag	-11.2486
80	-11.2487
remedi	-11.249
driver	-11.2507
kg	-11.2541
improv	-11.2542
dropp	-11.255
osp	-11.2613
ient	-11.2622
mainl	-11.2681
▁¦600	-11.2683
preserv	-11.2689
88¦	-11.2703
provider	-11.2707
▁¦800	-11.2713
19¦	-11.2717
ix	-11.2757
eel	-11.2857
trade	-11.287
expect	-11.2872
▁¦31	-11.288
conf	-11.2896
assist	-11.2923
ghat	-11.2924
consist	-11.2955
tension	-11.2955
afford	-11.2955
agitation	-11.2955
cambridge	-11.2955
civil	-11.2955
clusive	-11.2955
contrast	-11.2955
cruise	-11.2955
definite	-11.2955
efficient	-11.2955
electric	-11.2955
evacuat	-11.2955
evolution	-11.2955
firecracker	-11.2955
methodolog	-11.2955
technique	-11.2955
traditional	-11.2955
wiki	-11.2955
‘	-11.2955
retail	-11.2955
vomit	-11.2955
cuba	-11.2955
advanc	-11.2955
imply	-11.2955
comparison	-11.2956
migrant	-11.2956
academic	-11.2956
ganga	-11.2957
background	-11.2957
abdom	-11.2957
tribal	-11.2958
realiz	-11.2958
mohan	-11.2958
garh	-11.2959
fix	-11.2959
hood	-11.2961
drink	-11.2963
alter	-11.2964
generation	-11.2965
mach	-11.2965
unnecessar	-11.2967
04	-11.2971
soph	-11.2974
variet	-11.2978
easy	-11.298
threaten	-11.2991
russian	-11.2992
▁¦59	-11.3009
purchas	-11.3027
loan	-11.303
fish	-11.3042
flow	-11.3078
iliz	-11.3134
dryer	-11.3145
rote	-11.3166
smoke	-11.3202
prohibit	-11.3213
ues	-11.3254
baj	-11.3298
oxi	-11.3319
challeng	-11.3341
standing	-11.3381
rine	-11.3429
salar	-11.3448
gather	-11.3508
text	-11.3543
agreement	-11.3543
behavior	-11.3543
brook	-11.3543
burden	-11.3543
circumstance	-11.3543
collapse	-11.3543
criticism	-11.3543
immunization	-11.3543
opinion	-11.3543
pandharpur	-11.3543
parliament	-11.3543
shivaji	-11.3543
consumer	-11.3543
cancellation	-11.3543
cinema	-11.3543
repeated	-11.3543
window	-11.3543
vitamin	-11.3543
aditya	-11.3544
fruit	-11.3544
naik	-11.3544
alpha	-11.3544
white	-11.3544
hopk	-11.3545
tide	-11.3545
agreed	-11.3545
justice	-11.3545
volu	-11.3546
nucle	-11.3546
newspaper	-11.3546
accurate	-11.3548
aryng	-11.3548
exception	-11.3552
induc	-11.3554
verge	-11.3559
chu	-11.3559
marg	-11.3561
osis	-11.3595
ika	-11.3596
20¦	-11.3613
11	-11.3618
rank	-11.3618
warm	-11.3618
53	-11.3621
gold	-11.3632
hane	-11.3643
chava	-11.3708
iii	-11.372
partial	-11.385
moti	-11.3889
setting	-11.3971
readi	-11.3973
amino	-11.4034
clar	-11.4059
79	-11.411
screen	-11.4111
indicate	-11.4128
cels	-11.415
cumulati	-11.4167
gastro	-11.4168
accelerat	-11.4168
geographical	-11.4168
influence	-11.4168
persisten	-11.4168
maxim	-11.4168
radio	-11.4168
integrat	-11.4168
vector	-11.4168
click	-11.4168
quot	-11.4169
librar	-11.4169
israel	-11.4169
surgeon	-11.4169
zhen	-11.4169
biologic	-11.4169
civet	-11.4169
watch	-11.4169
specialist	-11.4169
attach	-11.417
size	-11.4171
kamal	-11.4172
disruption	-11.4172
pool	-11.4174
angli	-11.4174
define	-11.4176
umab	-11.4176
fluid	-11.4177
tired	-11.4182
requirement	-11.4183
petrol	-11.4184
withdraw	-11.419
hou	-11.4194
▁¦82	-11.4209
gain	-11.421
acknowledg	-11.4227
khan	-11.4252
financ	-11.4276
45	-11.4288
acetam	-11.4306
taxi	-11.4436
dhana	-11.4503
▁¦73	-11.4541
ification	-11.4568
hindu	-11.4612
patholog	-11.4619
precaution	-11.4629
unte	-11.4696
emi	-11.4697
ficial	-11.4746
77¦	-11.4757
gur	-11.4789
▁¦1,0	-11.4811
touris	-11.4816
disrupt	-11.4831
07	-11.4831
collaborati	-11.4835
infrastructure	-11.4835
precedent	-11.4835
genomic	-11.4835
implications	-11.4835
module	-11.4835
protease	-11.4835
reject	-11.4835
secretariat	-11.4835
•	-11.4835
≥	-11.4835
dashboard	-11.4835
▁¦2012	-11.4835
compromised	-11.4835
blue	-11.4835
interval	-11.4835
kilo	-11.4835
rief	-11.4835
gestion	-11.4835
cadil	-11.4836
vigilan	-11.4836
leng	-11.4836
disadvantage	-11.4836
garden	-11.4836
khed	-11.4836
asthma	-11.4836
disinfectant	-11.4837
fifth	-11.4837
81	-11.4838
wild	-11.4838
grand	-11.4838
steril	-11.4845
american	-11.4855
limitation	-11.4858
erupt	-11.4858
domain	-11.4859
diff	-11.4864
arrival	-11.4864
roli	-11.4867
yava	-11.4869
fortis	-11.4873
sawan	-11.4879
confiden	-11.4883
submitt	-11.489
replicati	-11.4906
chau	-11.4919
▁¦93	-11.498
extract	-11.5011
corresponden	-11.5017
eye	-11.5174
67	-11.5184
hok	-11.5184
coach	-11.5207
eliminate	-11.5254
adopt	-11.5323
milita	-11.5339
▁¦64	-11.5342
interspe	-11.5391
buil	-11.5527
river	-11.5533
appoint	-11.5547
antibiotic	-11.5549
lymphocyt	-11.5549
bhagwa	-11.5549
obstruct	-11.5549
punjab	-11.5549
susceptib	-11.5549
antimicrobial	-11.5549
authoriz	-11.5549
conclusion	-11.5549
constituen	-11.5549
dynamic	-11.5549
foot	-11.5549
gynecologist	-11.5549
lopinavir	-11.5549
nutrition	-11.5549
occupational	-11.5549
provision	-11.5549
structural	-11.5549
taiwan	-11.5549
transmissib	-11.5549
barrier	-11.5549
abortion	-11.5549
floor	-11.5549
bronchitis	-11.5549
prescrib	-11.5549
dispute	-11.5549
smell	-11.555
exceed	-11.555
convenien	-11.555
witness	-11.555
frame	-11.555
instance	-11.555
filter	-11.555
popular	-11.5551
molecul	-11.5551
prioritize	-11.5551
ramesh	-11.5551
arrangement	-11.5552
poll	-11.5552
lethal	-11.5553
route	-11.5553
consultation	-11.5554
block	-11.5558
inhibitor	-11.5559
migrat	-11.5559
achal	-11.5561
administer	-11.5562
memor	-11.5562
trust	-11.5571
onavir	-11.5571
decentrali	-11.5573
bach	-11.5573
megh	-11.5575
suggestion	-11.5578
▁¦47	-11.5578
▁¦99	-11.5603
?	-11.5697
▁¦52	-11.5721
prasa	-11.5742
absen	-11.581
ivity	-11.5842
kale	-11.5889
abha	-11.5904
ferr	-11.5921
determin	-11.5935
05	-11.598
collecti	-11.6249
conferenc	-11.6249
kovi	-11.6299
latur	-11.6302
journ	-11.6309
emphasi	-11.6316
valu	-11.6317
anticipat	-11.6319
concept	-11.6319
diploma	-11.6319
electronic	-11.6319
mammal	-11.6319
osmanabad	-11.6319
panchayat	-11.6319
principal	-11.6319
reflect	-11.6319
stabiliz	-11.6319
steroid	-11.6319
structure	-11.6319
temple	-11.6319
zydus	-11.6319
▁¦2020-2	-11.6319
psycho	-11.6319
arabia	-11.6319
truck	-11.6319
kishor	-11.6319
drastic	-11.6319
repair	-11.6319
pulse	-11.6319
infant	-11.6319
burn	-11.6319
thorough	-11.6319
speech	-11.6319
fortnight	-11.6319
virologist	-11.6319
salunk	-11.6319
fresh	-11.632
epidemiological	-11.632
mitigation	-11.632
slum	-11.632
formulation	-11.6322
loud	-11.6322
galo	-11.6322
continuous	-11.6324
pilot	-11.6324
diagnostic	-11.6324
valid	-11.6325
disabilit	-11.6326
cott	-11.6326
uncertain	-11.6329
observation	-11.6333
oea	-11.6338
experimental	-11.634
match	-11.6354
sudh	-11.6358
modifi	-11.638
▁¦58	-11.6384
–20	-11.6414
▁¦56	-11.6481
lank	-11.6561
solve	-11.6634
thora	-11.6686
smok	-11.6797
donate	-11.695
eshwar	-11.7025
hyl	-11.7031
citizen	-11.7049
repli	-11.7064
oppos	-11.709
serie	-11.7116
complain	-11.7126
ratio	-11.7137
autopsy	-11.7152
categor	-11.7152
inaugurat	-11.7152
anonym	-11.7152
antiseptic	-11.7152
consulate	-11.7152
depriv	-11.7152
efficienc	-11.7152
eradicat	-11.7152
interrupt	-11.7152
naxal	-11.7152
niranjan	-11.7152
weapon	-11.7152
▁¦2019-20	-11.7152
analyz	-11.7152
technician	-11.7152
jack	-11.7152
lrti	-11.7152
fertilizer	-11.7152
welcome	-11.7152
recip	-11.7152
recogni	-11.7152
tighten	-11.7152
twenty	-11.7152
▁¦2.4	-11.7153
reply	-11.7153
gupt	-11.7153
honor	-11.7153
sugar	-11.7153
traveller	-11.7153
context	-11.7154
transaction	-11.7154
displeas	-11.7155
technic	-11.7155
appointment	-11.7155
consequence	-11.7155
version	-11.7155
objective	-11.7156
washroom	-11.7157
fift	-11.7158
arrange	-11.7158
nhs	-11.7159
assessment	-11.716
desire	-11.7161
▁¦144	-11.7169
panch	-11.717
debate	-11.7186
visibl	-11.7198
graduate	-11.7226
bench	-11.7248
oul	-11.7274
odal	-11.7283
omani	-11.7312
scrub	-11.7506
nik	-11.7507
gap	-11.7609
191	-11.7815
enovir	-11.7858
mitted	-11.7903
doubl	-11.7926
91	-11.8041
please	-11.8058
initiat	-11.8059
guard	-11.8061
munganti	-11.8061
accommodat	-11.8061
muslim	-11.8061
neutral	-11.8061
stagger	-11.8061
succeed	-11.8061
affidavit	-11.8061
automatic	-11.8061
bangladesh	-11.8061
bluetooth	-11.8061
cheetah	-11.8061
conclude	-11.8061
decade	-11.8061
misconception	-11.8061
phylogenetic	-11.8061
practical	-11.8061
practitioner	-11.8061
rickshaw	-11.8061
smooth	-11.8061
turkey	-11.8061
computer	-11.8061
parallel	-11.8061
philip	-11.8061
soldier	-11.8061
▁¦7,1	-11.8061
plastic	-11.8061
attraction	-11.8061
habit	-11.8061
modify	-11.8061
eparation	-11.8061
vendor	-11.8061
squad	-11.8061
monoc	-11.8062
couple	-11.8062
credit	-11.8062
chhatra	-11.8062
worst	-11.8062
minimiz	-11.8063
peptid	-11.8063
fung	-11.8063
extension	-11.8063
harass	-11.8063
capture	-11.8064
1,4	-11.8064
abnormal	-11.8065
▁¦3.5	-11.8067
assum	-11.8069
toxicit	-11.8074
spira	-11.8109
1.1	-11.8112
catch	-11.8116
escape	-11.8117
700	-11.8153
adam	-11.8153
urba	-11.8156
liva	-11.8283
resistan	-11.8289
resume	-11.834
waiv	-11.8369
norm	-11.8497
▁¦0.2	-11.8498
denie	-11.8552
systemati	-11.8666
opd	-11.8715
classifi	-11.8735
sanitiz	-11.9006
advantage	-11.906
channel	-11.9061
vadetti	-11.9061
amplify	-11.9061
ghebreyes	-11.9061
behaviour	-11.9061
characteristic	-11.9061
climate	-11.9061
corrupt	-11.9061
diminish	-11.9061
intelligence	-11.9061
kidney	-11.9061
necessit	-11.9061
negligen	-11.9061
substantial	-11.9061
tehsildar	-11.9061
visakha	-11.9061
dattatr	-11.9061
substance	-11.9061
unique	-11.9061
▁¦2015	-11.9061
fecal	-11.9061
warrior	-11.9061
neck	-11.9061
austria	-11.9061
chlori	-11.9061
embass	-11.9061
pork	-11.9061
swami	-11.9062
ahmedabad	-11.9062
obia	-11.9062
residenc	-11.9062
lawyer	-11.9062
hotelier	-11.9062
rbd	-11.9062
▁¦2018	-11.9062
,65	-11.9062
▁¦1.8	-11.9063
eventual	-11.9063
racis	-11.9063
malaria	-11.9063
topic	-11.9063
reliev	-11.9063
church	-11.9063
bhandar	-11.9064
melli	-11.9065
communica	-11.9066
mangal	-11.9067
reassur	-11.9067
mechani	-11.9069
devastat	-11.9069
rgent	-11.907
haila	-11.9076
revise	-11.9076
roh	-11.9078
procure	-11.9086
rench	-11.9102
equal	-11.9107
+	-12.1422
°	-12.1422
”	-12.2226
!	-12.2227
*	-12.4517
ा	-12.4517
_	-12.9017
×	-12.9017
武	-12.9017
肺	-12.9017
í	-13.2351
~	-13.2351
á	-13.2351
α	-13.2351
β	-13.2351
स	-13.2351
े	-13.2351
्	-13.2351
=	-13.7351
ò	-13.7351
ü	-13.7351
č	-13.7351
ş	-13.7351
γ	-13.7351
ं	-13.7351
ब	-13.7351
र	-13.7351
汉	-13.7351
漢	-13.7351
炎	-13.7351
क	-13.7351
]	-14.6767
’	-14.7349
%	-14.735
ó	-14.7351
(	-14.7351
£	-14.7351
å	-14.7351
é	-14.7351
ई	-14.7351
ओ	-14.7351
च	-14.7351
त	-14.7351
द	-14.7351
प	-14.7351
ल	-14.7351
ळ	-14.7351
व	-14.7351
श	-14.7351
ो	-14.7351
′	-14.7351
火	-14.7351
眼	-14.7351
