<pad>	0
</s>	0
<unk>	0
▁¦	-0
▁်	-1
ို	-2
ော	-3
▁့	-4
ား	-5
ကို	-6
▁့်	-7
တို	-8
သည	-9
သော	-10
ကြ	-11
ရှ	-12
▁၊	-13
တော	-14
ပြ	-15
▁၏	-16
ောင	-17
သူ	-18
နှ	-19
▁၏။	-20
ြင	-21
မျ	-22
မှ	-23
ုရ	-24
မူ	-25
ောက	-26
ဘုရ	-27
သို	-28
ိမ	-29
ငါ	-30
ီး	-31
မည	-32
မြ	-33
နှင	-34
▁်၊	-35
ေး	-36
သင	-37
ိုး	-38
ဘုရား	-39
လျ	-40
ကျ	-41
▁၍	-42
▁။	-43
ရှိ	-44
ခြင	-45
ထို	-46
ုံ	-47
ဖြ	-48
သား	-49
ရာ	-50
ဟု	-51
ပါ	-52
ချ	-53
▁်။	-54
ေါ	-55
စေ	-56
ွန	-57
▁္	-58
▁်၍	-59
▁်၏	-60
ဖြစ	-61
ကား	-62
လည	-63
သူတို	-64
ုပ	-65
ာဝ	-66
နေ	-67
ထာဝ	-68
ထာဝရ	-69
ကြောင	-70
မျိုး	-71
လူ	-72
ိန	-73
လျှ	-74
ထာဝရဘုရား	-75
ွင	-76
ပေါ	-77
??	-78
အား	-79
▁်၌	-80
မြို	-81
ိတ	-82
ခင	-83
ုန	-84
ုံး	-85
အဘ	-86
အခ	-87
အမျိုး	-88
လော	-89
ွား	-90
ရှင	-91
သခင	-92
ိုင	-93
ကိုယ	-94
ပြု	-95
ုတ	-96
▁၌	-97
မှာ	-98
ရေ	-99
ကျွန	-100
လျှင	-101
သက	-102
လိမ	-103
များ	-104
းကို	-105
ပြည	-106
တည	-107
တိုင	-108
လျက	-109
လေ	-110
ဖြင	-111
ခံ	-112
မိန	-113
သောသူ	-114
ကြီး	-115
ဘုရားသခင	-116
▁၍၊	-117
ဆို	-118
ငှ	-119
သွား	-120
မျှ	-121
ကောင	-122
ရှေ	-123
တွင	-124
လက	-125
အခါ	-126
ထား	-127
ွေ	-128
လာ	-129
ငှါ	-130
အမှ	-131
သန	-132
ိုက	-133
▁်၍၊	-134
▁့။	-135
▁့်၊	-136
ပေး	-137
အပေါ	-138
ွှ	-139
အလ	-140
းတို	-141
ပြီ	-142
ွက	-143
အရ	-144
မင	-145
အဘယ	-146
အာ	-147
သရေ	-148
သေ	-149
▁်၏။	-150
အကြောင	-151
တတ	-152
ယေ	-153
အကျွန	-154
????	-155
းငှါ	-156
းသော	-157
တရ	-158
နှစ	-159
အစ	-160
မိမ	-161
ွာ	-162
လင	-163
းမ	-164
▁၎	-165
အမှု	-166
နာ	-167
ဣသရေ	-168
▁့၌	-169
ဣသရေလ	-170
ရောက	-171
မိမိ	-172
မြင	-173
ပြစ	-174
သာ	-175
ပြော	-176
ရမည	-177
တောင	-178
စား	-179
းက	-180
သားတို	-181
အပေါင	-182
အရာ	-183
ူး	-184
ကာ	-185
တရား	-186
ွေး	-187
ပြီး	-188
စကား	-189
ယောက	-190
မူကား	-191
ပျ	-192
မီး	-193
နိုင	-194
ယဇ	-195
ဆင	-196
ဝိ	-197
ငါတို	-198
သတ	-199
နား	-200
စာ	-201
ွဲ	-202
မျက	-203
ဘုရင	-204
အရပ	-205
ဆောင	-206
ရှု	-207
သဖြင	-208
လုံး	-209
ပင	-210
အသက	-211
▁့၏	-212
သမျှ	-213
ဖန	-214
အပြစ	-215
ထဲ	-216
လှ	-217
▁့၊	-218
စွာ	-219
လွှ	-220
သောအခါ	-221
ရင	-222
အသ	-223
အတိုင	-224
ဟူ	-225
သိ	-226
ခြ	-227
စိတ	-228
ရှိသော	-229
မြေ	-230
ပြန	-231
ကဲ	-232
စုံ	-233
ထောင	-234
ယော	-235
အချ	-236
ငါသည	-237
ပါး	-238
ပည	-239
ွယ	-240
မိ	-241
ယူ	-242
▁်္	-243
စေခြင	-244
နောက	-245
ရဲ	-246
တံ	-247
ဘက	-248
ရသော	-249
ကြလော	-250
ခေါ	-251
သူသည	-252
အိမ	-253
အောင	-254
ကြလိမ	-255
တိ	-256
ဣသရေလအမျိုး	-257
လမ	-258
ာန	-259
ကြား	-260
ထံ	-261
မူသော	-262
ခါ	-263
နည	-264
လူတို	-265
ကြည	-266
စီ	-267
လိုက	-268
တဖန	-269
ရု	-270
တူ	-271
ထွက	-272
ရော	-273
မူသည	-274
အားဖြင	-275
ဘဲ	-276
းတော	-277
ဆယ	-278
နှုတ	-279
ရိ	-280
ုဒ	-281
လုပ	-282
ထိုသို	-283
စစ	-284
မော	-285
ထာဝရဘုရားသည	-286
ပြင	-287
တင	-288
းကင	-289
ဝင	-290
ယုဒ	-291
သနည	-292
စီရင	-293
လွှတ	-294
ကျင	-295
တန	-296
များကို	-297
သိမ	-298
ခု	-299
ပူ	-300
လု	-301
ိပ	-302
တပါး	-303
ဒါ	-304
ကလည	-305
ဟုတ	-306
ပတ	-307
ဘော	-308
တု	-309
ဇော	-310
းကြီး	-311
ာဉ	-312
ရကြ	-313
ဝတ	-314
စောင	-315
မာ	-316
ရစ	-317
တယောက	-318
မူပါ	-319
ညီ	-320
ချင	-321
????????	-322
ဦး	-323
ခဲ	-324
ကာလ	-325
ွတ	-326
မရှိ	-327
ရှိသမျှ	-328
ထက	-329
မဟုတ	-330
စကားကို	-331
မေ	-332
သောသူတို	-333
ပူဇော	-334
လျှောက	-335
ကယ	-336
ရှာ	-337
မတ	-338
ယာ	-339
သောကြောင	-340
တိုက	-341
ဆုံး	-342
မြောက	-343
ယေရှု	-344
သတည	-345
ဟိတ	-346
တက	-347
ဖျ	-348
ဝိဒ	-349
ဒါဝိဒ	-350
ပြီးမှ	-351
အဘို	-352
အရှင	-353
ဝေး	-354
တမ	-355
ဗာ	-356
▁့်။	-357
ထိုအခါ	-358
စရာ	-359
သောသူသည	-360
အပ	-361
အို	-362
ပုရ	-363
သုံး	-364
ရက	-365
ညာဉ	-366
ပုရော	-367
ခြေ	-368
ဘေး	-369
အသီး	-370
ကျေး	-371
းမူကား	-372
အန	-373
ရန	-374
ကိုလည	-375
ပုရောဟိတ	-376
အမျိုးသား	-377
ကြံ	-378
ငယ	-379
အမှုကို	-380
းသည	-381
မုန	-382
ကျေးဇ	-383
ရွှ	-384
ဘို	-385
အတူ	-386
ဟော	-387
ဆက	-388
ိလ	-389
းသို	-390
စည	-391
အံ	-392
စင	-393
သစ	-394
နှာ	-395
ဟာ	-396
ခံရ	-397
စု	-398
ယေရု	-399
းနှင	-400
ွမ	-401
▁????????	-402
လေး	-403
းဟူ	-404
တွေ	-405
ကြောက	-406
ရှလင	-407
မောရှေ	-408
းဟု	-409
ထင	-410
ရပ	-411
အစဉ	-412
ဇာ	-413
အဲ	-414
မေး	-415
ဆီး	-416
ဝါ	-417
ပြီးလျှင	-418
နေရာ	-419
မို	-420
မိုဃ	-421
သမီး	-422
ဂုတ	-423
ဖျက	-424
အလို	-425
အဲဂုတ	-426
မက	-427
ကြပါ	-428
¦	-429
▁	-430
်	-431
ာ	-432
ု	-433
ိ	-434
ေ	-435
း	-436
သ	-437
က	-438
င	-439
မ	-440
တ	-441
့	-442
ရ	-443
ြ	-444
အ	-445
ှ	-446
ည	-447
န	-448
လ	-449
ပ	-450
စ	-451
၊	-452
ျ	-453
ူ	-454
ခ	-455
။	-456
ါ	-457
ွ	-458
၏	-459
ထ	-460
ယ	-461
ဘ	-462
ံ	-463
ီ	-464
ဖ	-465
၍	-466
ဆ	-467
ဝ	-468
ဟ	-469
ဲ	-470
၌	-471
?	-472
္	-473
ဒ	-474
ဇ	-475
ဗ	-476
၎	-477
ဉ	-478
ဂ	-479
ဣ	-480
ဤ	-481
ဏ	-482
ဧ	-483
ဥ	-484
ဦ	-485
ဃ	-486
ဌ	-487
ဩ	-488
ဓ	-489
ဋ	-490
ဿ	-491
-	-492
ဍ	-493
ဈ	-494
ဠ	-495
ဪ	-496
