<pad>	0
</s>	0
<unk>	0
▁¦	-0
in	-1
an	-2
en	-3
ta	-4
si	-5
ka	-6
ja	-7
ll	-8
än	-9
is	-10
tä	-11
va	-12
et	-13
▁s	-14
▁𐋇	-15
▁h	-16
▁k	-17
▁m	-18
on	-19
sa	-20
un	-21
ei	-22
▁,	-23
▁p	-24
▁ja	-25
el	-26
ol	-27
ut	-28
▁t	-29
lle	-30
oi	-31
er	-32
ma	-33
ra	-34
es	-35
jo	-36
la	-37
▁n	-38
▁J	-39
ti	-40
vat	-41
ik	-42
▁hän	-43
as	-44
tu	-45
inä	-46
ki	-47
▁v	-48
ko	-49
uu	-50
iin	-51
ät	-52
▁ol	-53
▁ka	-54
it	-55
sä	-56
aa	-57
te	-58
▁.	-59
se	-60
llä	-61
ää	-62
▁va	-63
▁H	-64
▁jo	-65
ku	-66
mm	-67
▁si	-68
▁l	-69
sta	-70
inun	-71
hän	-72
uo	-73
▁on	-74
ksi	-75
utta	-76
lla	-77
▁"	-78
eid	-79
yt	-80
ul	-81
uh	-82
ke	-83
erra	-84
kä	-85
▁o	-86
▁S	-87
sen	-88
ne	-89
isi	-90
▁san	-91
ansa	-92
al	-93
uma	-94
ten	-95
mi	-96
▁Ja	-97
vi	-98
at	-99
vät	-100
eidän	-101
▁te	-102
▁j	-103
▁M	-104
hd	-105
san	-106
ista	-107
ri	-108
inu	-109
▁a	-110
to	-111
us	-112
että	-113
▁oli	-114
uk	-115
ih	-116
kaa	-117
il	-118
oo	-119
▁ta	-120
ty	-121
ot	-122
▁kun	-123
im	-124
kun	-125
eli	-126
mä	-127
▁minä	-128
een	-129
mme	-130
itä	-131
pa	-132
▁Herra	-133
ssa	-134
ran	-135
▁se	-136
▁niin	-137
▁kaik	-138
▁he	-139
▁hänen	-140
▁ei	-141
ur	-142
kö	-143
▁y	-144
elle	-145
tan	-146
▁ko	-147
äl	-148
▁pa	-149
taa	-150
iv	-151
yn	-152
kaan	-153
▁ku	-154
kin	-155
▁:	-156
▁tä	-157
yö	-158
▁K	-159
umala	-160
▁tul	-161
he	-162
inen	-163
aan	-164
▁joka	-165
kuin	-166
ed	-167
pp	-168
tka	-169
le	-170
li	-171
äh	-172
oit	-173
oli	-174
den	-175
eille	-176
erran	-177
▁N	-178
eh	-179
▁kä	-180
▁sen	-181
maan	-182
niin	-183
eet	-184
so	-185
oin	-186
elin	-187
pä	-188
iset	-189
▁la	-190
ky	-191
▁sanoi	-192
▁A	-193
▁että	-194
eni	-195
▁r	-196
▁;	-197
minä	-198
elä	-199
▁vi	-200
koon	-201
vä	-202
ksen	-203
▁an	-204
▁minun	-205
asta	-206
▁sinun	-207
kan	-208
▁mi	-209
kaik	-210
▁nä	-211
nä	-212
▁as	-213
jan	-214
ole	-215
▁Si	-216
isen	-217
▁kaikki	-218
▁ole	-219
ha	-220
▁E	-221
▁kunin	-222
kää	-223
esi	-224
herra	-225
istä	-226
män	-227
▁kan	-228
essä	-229
lan	-230
istu	-231
▁I	-232
▁Mutta	-233
▁ra	-234
▁pä	-235
ui	-236
▁po	-237
inua	-238
yh	-239
inulle	-240
▁sa	-241
hden	-242
▁et	-243
alv	-244
ee	-245
▁ki	-246
elj	-247
eitä	-248
▁en	-249
nyt	-250
tta	-251
essa	-252
pun	-253
hänen	-254
van	-255
▁jotka	-256
ys	-257
min	-258
uud	-259
lta	-260
ar	-261
ensä	-262
▁vasta	-263
kse	-264
änsä	-265
▁sinä	-266
ille	-267
itse	-268
os	-269
▁Jumala	-270
▁sillä	-271
umalan	-272
mutta	-273
".	-274
isten	-275
tanut	-276
eit	-277
▁heidän	-278
taan	-279
ään	-280
yd	-281
ellä	-282
han	-283
▁kuu	-284
eidät	-285
joka	-286
▁Herran	-287
ni	-288
mmen	-289
issa	-290
▁puh	-291
mu	-292
estä	-293
▁pää	-294
▁läh	-295
▁`	-296
▁Is	-297
assa	-298
▁ovat	-299
▁ne	-300
▁poi	-301
man	-302
▁Niin	-303
▁to	-304
▁saa	-305
upun	-306
▁ni	-307
sillä	-308
▁päiv	-309
ska	-310
ken	-311
stä	-312
änä	-313
llut	-314
po	-315
rin	-316
gas	-317
lloin	-318
▁kuin	-319
pu	-320
tiin	-321
na	-322
raelin	-323
iva	-324
iksi	-325
esta	-326
toi	-327
ud	-328
▁-	-329
ön	-330
▁mutta	-331
."	-332
ensa	-333
onka	-334
pi	-335
pää	-336
maa	-337
tin	-338
ette	-339
alveli	-340
▁is	-341
▁mitä	-342
ks	-343
re	-344
minun	-345
mat	-346
kymmen	-347
▁maa	-348
▁ti	-349
sinun	-350
tän	-351
ihm	-352
▁tuli	-353
sanoi	-354
inut	-355
lä	-356
▁T	-357
kka	-358
ees	-359
▁olen	-360
▁vuo	-361
pe	-362
rj	-363
aavi	-364
aavid	-365
▁ma	-366
kaikki	-367
▁niinkuin	-368
me	-369
yl	-370
▁van	-371
▁mu	-372
▁ha	-373
▁hänelle	-374
tun	-375
jat	-376
▁syn	-377
ura	-378
▁P	-379
yös	-380
kunin	-381
ettu	-382
issä	-383
▁su	-384
▁B	-385
men	-386
uksen	-387
▁Sillä	-388
jen	-389
tel	-390
eru	-391
▁sano	-392
ab	-393
etta	-394
jumala	-395
▁D	-396
▁olivat	-397
sinä	-398
kuu	-399
tso	-400
▁kansa	-401
su	-402
mo	-403
▁suu	-404
▁il	-405
ro	-406
ina	-407
▁Jumalan	-408
▁teidän	-409
kansa	-410
ise	-411
mmä	-412
yttä	-413
▁hänet	-414
▁vastaan	-415
▁ed	-416
laiset	-417
etä	-418
vasta	-419
sivat	-420
tähden	-421
lo	-422
mieh	-423
▁so	-424
köön	-425
ani	-426
▁pu	-427
▁tuo	-428
uon	-429
▁hä	-430
▁häntä	-431
iden	-432
hin	-433
esti	-434
id	-435
päiv	-436
vo	-437
▁vih	-438
laisten	-439
jotka	-440
neet	-441
▁?	-442
eltä	-443
kea	-444
ydä	-445
▁Israelin	-446
yp	-447
oita	-448
▁no	-449
mpp	-450
ho	-451
raeli	-452
vuo	-453
▁men	-454
uuta	-455
yy	-456
▁kaupun	-457
tei	-458
etti	-459
▁heille	-460
herran	-461
ikä	-462
▁jonka	-463
▁kul	-464
▁sitä	-465
▁val	-466
mään	-467
nan	-468
poi	-469
sale	-470
ovat	-471
▁luo	-472
erusale	-473
heidän	-474
▁teh	-475
ssä	-476
▁Hän	-477
äär	-478
▁kuningas	-479
ita	-480
puh	-481
▁jäl	-482
tti	-483
▁poika	-484
▁Joo	-485
▁yl	-486
nut	-487
▁voi	-488
usta	-489
kään	-490
▁pel	-491
▁".	-492
isesti	-493
isin	-494
kymmentä	-495
no	-496
▁käs	-497
▁palveli	-498
▁sanoo	-499
läh	-500
▁Daavid	-501
gyp	-502
▁maan	-503
▁ar	-504
äni	-505
▁eivät	-506
olen	-507
▁ihm	-508
▁kanssa	-509
tto	-510
mitä	-511
▁eikä	-512
▁mieh	-513
tyi	-514
jä	-515
vit	-516
isia	-517
saa	-518
▁olet	-519
▁ty	-520
jaa	-521
▁al	-522
hur	-523
ell	-524
isa	-525
tui	-526
atta	-527
ia	-528
tten	-529
▁äl	-530
onsa	-531
▁pois	-532
tö	-533
eitse	-534
voi	-535
▁me	-536
ir	-537
kas	-538
▁tämä	-539
hä	-540
▁jos	-541
erä	-542
▁minulle	-543
▁Moo	-544
tte	-545
▁itse	-546
▁koko	-547
▁heidät	-548
yv	-549
▁tu	-550
▁meidän	-551
▁lei	-552
▁minua	-553
▁Jees	-554
teen	-555
uudan	-556
▁V	-557
▁nim	-558
val	-559
ihen	-560
▁Kun	-561
eb	-562
▁päivänä	-563
▁Sa	-564
yhä	-565
▁vaan	-566
▁var	-567
ika	-568
sin	-569
ua	-570
kia	-571
onin	-572
kseen	-573
tänyt	-574
kee	-575
nen	-576
ea	-577
var	-578
uden	-579
▁per	-580
▁ky	-581
usko	-582
▁sil	-583
pah	-584
niinkuin	-585
oike	-586
▁kaksi	-587
▁kor	-588
lei	-589
eitsemän	-590
▁toi	-591
ian	-592
▁vä	-593
suu	-594
▁lu	-595
mpä	-596
syn	-597
tuli	-598
iä	-599
las	-600
▁."	-601
▁kol	-602
ikka	-603
▁Jo	-604
lap	-605
▁pal	-606
imo	-607
▁pol	-608
jon	-609
▁kas	-610
▁velj	-611
▁Minä	-612
lleen	-613
tivät	-614
lleet	-615
ella	-616
▁G	-617
?"	-618
ist	-619
▁myös	-620
▁teille	-621
▁kuninkaan	-622
ek	-623
ydäm	-624
da	-625
ppi	-626
asti	-627
hurska	-628
▁suku	-629
▁sinua	-630
▁ri	-631
kelä	-632
jos	-633
hänelle	-634
mit	-635
▁kes	-636
jumalan	-637
▁syö	-638
lu	-639
tule	-640
oni	-641
▁meni	-642
tää	-643
rja	-644
▁heitä	-645
sano	-646
▁Jerusale	-647
▁uh	-648
ristu	-649
aab	-650
olivat	-651
▁sinulle	-652
▁ver	-653
▁tule	-654
▁Silloin	-655
▁li	-656
kaupun	-657
rof	-658
unut	-659
itten	-660
▁O	-661
▁edessä	-662
lli	-663
kunn	-664
eksi	-665
eivät	-666
▁e	-667
haa	-668
▁minut	-669
tämä	-670
katso	-671
▁	-672
a	-673
¦	-674
i	-675
n	-676
e	-677
t	-678
s	-679
l	-680
ä	-681
k	-682
u	-683
o	-684
m	-685
h	-686
j	-687
v	-688
r	-689
,	-690
p	-691
y	-692
.	-693
d	-694
𐋇	-695
J	-696
"	-697
ö	-698
:	-699
H	-700
;	-701
S	-702
b	-703
M	-704
g	-705
K	-706
N	-707
?	-708
f	-709
A	-710
E	-711
`	-712
-	-713
I	-714
T	-715
P	-716
!	-717
B	-718
D	-719
V	-720
O	-721
G	-722
R	-723
L	-724
Ä	-725
U	-726
Y	-727
1	-728
[	-729
]	-730
F	-731
3	-732
2	-733
4	-734
9	-735
0	-736
5	-737
(	-738
)	-739
8	-740
6	-741
7	-742
Ö	-743
Z	-744
/	-745
z	-746
