<pad>	0
</s>	0
<unk>	0
▁	-3.03199
,	-3.18255
▁och	-3.71636
s	-3.73581
.	-3.95147
r	-3.97429
t	-4.0224
a	-4.0513
en	-4.42183
n	-4.47023
d	-4.50368
▁för	-4.51444
▁till	-4.5395
▁i	-4.56803
g	-4.66265
l	-4.66476
▁som	-4.76299
h	-4.76708
k	-4.79326
e	-4.80438
▁han	-4.87142
▁att	-4.88182
i	-4.91588
de	-4.92379
▁de	-4.92697
▁så	-4.97236
;	-4.97709
ar	-5.00336
er	-5.03463
v	-5.07338
o	-5.0751
m	-5.08882
:	-5.13181
å	-5.14852
▁skall	-5.19025
▁jag	-5.20688
▁Oc	-5.22282
▁det	-5.22721
▁på	-5.25124
▁är	-5.26589
▁av	-5.2661
▁en	-5.27028
▁icke	-5.27595
▁med	-5.33535
▁den	-5.37213
b	-5.38932
na	-5.4168
et	-5.43479
▁har	-5.4475
▁dem	-5.48359
▁honom	-5.48513
j	-5.48715
▁du	-5.49338
f	-5.49486
▁»	-5.50349
▁b	-5.53199
or	-5.53598
▁s	-5.5498
y	-5.58673
▁var	-5.59183
an	-5.59971
▁f	-5.60133
▁I	-5.64607
▁HERREN	-5.71634
▁upp	-5.75245
▁mig	-5.75779
st	-5.76261
da	-5.78834
än	-5.79029
▁dig	-5.81839
▁sig	-5.8185
▁be	-5.83747
tt	-5.84283
▁sade	-5.86845
p	-5.89196
▁eder	-5.89416
.»	-5.9074
▁om	-5.91014
ra	-5.91038
▁hade	-5.93129
▁h	-5.94005
▁ut	-5.94026
som	-5.95696
u	-5.9919
▁g	-5.99741
it	-5.99967
▁vi	-6.00362
▁över	-6.00932
▁där	-6.02081
▁då	-6.03372
▁hans	-6.0587
ta	-6.1015
▁sin	-6.10683
▁sk	-6.11225
el	-6.12926
ade	-6.13871
ka	-6.15394
▁Men	-6.15691
on	-6.16331
▁Gud	-6.16821
▁A	-6.19178
▁alla	-6.19226
▁åt	-6.19482
▁man	-6.21173
re	-6.21901
as	-6.21953
▁k	-6.24136
sk	-6.24493
ja	-6.25119
▁från	-6.27527
▁ett	-6.2756
▁din	-6.28419
un	-6.28609
▁t	-6.29015
▁min	-6.29316
am	-6.30558
▁nu	-6.32599
▁när	-6.33524
▁efter	-6.35225
▁in	-6.36073
ga	-6.37622
▁l	-6.38913
▁st	-6.42183
al	-6.42636
▁Då	-6.4452
la	-6.44883
at	-6.45144
▁skola	-6.46541
▁vad	-6.47288
▁allt	-6.48119
▁hava	-6.48723
te	-6.50532
ll	-6.51029
▁men	-6.5106
▁ty	-6.51088
▁barn	-6.51702
▁v	-6.52254
▁son	-6.53207
va	-6.5559
▁vid	-6.5641
ning	-6.56941
ri	-6.57345
▁m	-6.57561
▁mot	-6.57958
om	-6.59819
▁få	-6.60284
ur	-6.60327
öd	-6.6059
in	-6.62553
▁S	-6.62572
▁se	-6.62876
▁hus	-6.6295
?	-6.63036
▁deras	-6.6345
▁H	-6.63724
▁må	-6.64072
▁gå	-6.64791
lä	-6.64946
are	-6.65322
arna	-6.6539
▁sina	-6.65576
▁p	-6.6827
else	-6.69272
▁detta	-6.69534
▁folk	-6.69982
▁vill	-6.70729
der	-6.7168
▁HERRENS	-6.72553
ig	-6.73793
▁konung	-6.74695
▁oss	-6.76295
▁fram	-6.76298
D	-6.76939
le	-6.7699
ng	-6.81085
ing	-6.81123
▁o	-6.81937
gen	-6.82093
▁ock	-6.82402
▁Ty	-6.82648
▁eller	-6.83372
▁E	-6.83449
▁Israels	-6.83806
ande	-6.83894
▁sitt	-6.84152
▁under	-6.85925
het	-6.86181
▁säger	-6.87484
▁vara	-6.88329
es	-6.88518
sta	-6.88942
▁mitt	-6.90076
▁land	-6.90327
den	-6.90457
▁Så	-6.90781
ud	-6.91171
▁konungen	-6.92075
▁ju	-6.93172
▁göra	-6.9421
▁skulle	-6.9462
▁här	-6.94765
▁komma	-6.95699
▁genom	-6.95745
li	-6.96002
▁äro	-6.972
▁bliva	-6.97544
V	-6.97868
▁blev	-6.98081
ter	-6.98899
▁någon	-6.99155
▁dina	-6.99741
▁utan	-7.00909
pp	-7.01275
▁ord	-7.01306
▁ned	-7.01577
us	-7.01691
▁kom	-7.02695
'	-7.03902
äck	-7.04752
ne	-7.05149
ut	-7.05471
▁bo	-7.06145
em	-7.06957
▁voro	-7.07213
▁De	-7.07515
▁an	-7.07701
od	-7.08162
▁bort	-7.08912
▁henne	-7.09589
▁dess	-7.09684
▁vår	-7.10096
▁hon	-7.12613
ste	-7.13956
▁David	-7.14062
▁stor	-7.14557
nen	-7.14816
▁hand	-7.16753
▁Han	-7.17192
ol	-7.17991
▁tid	-7.18057
▁folket	-7.1874
ot	-7.19445
▁tro	-7.19775
▁hela	-7.20035
▁än	-7.20725
▁dag	-7.20732
för	-7.20882
▁G	-7.2095
▁skolen	-7.21038
lig	-7.21691
▁inför	-7.22395
▁ditt	-7.22426
is	-7.22907
▁själv	-7.23125
▁Se	-7.23145
offer	-7.23177
▁K	-7.23955
▁B	-7.24028
▁andra	-7.25336
▁väg	-7.25465
ad	-7.25604
gå	-7.25637
»	-7.25805
▁Israel	-7.25811
▁ur	-7.27061
▁ifrån	-7.27532
▁svarade	-7.27705
dom	-7.28814
ighet	-7.28866
S	-7.28937
▁När	-7.29051
▁Guds	-7.29477
▁tjänare	-7.30589
▁jorden	-7.31135
▁söner	-7.3116
▁dö	-7.313
▁ingen	-7.32162
▁mina	-7.32521
be	-7.32956
▁namn	-7.33102
▁hög	-7.33314
ma	-7.34076
!	-7.34189
▁män	-7.34985
ba	-7.35281
▁dessa	-7.35477
▁väl	-7.36419
▁bland	-7.36438
▁sju	-7.3678
red	-7.37023
▁Si	-7.3743
▁kan	-7.3751
▁--	-7.37998
▁giva	-7.382
▁något	-7.38338
▁gick	-7.38979
rän	-7.38994
x	-7.39258
▁Juda	-7.39489
▁tala	-7.39529
▁Jag	-7.39655
▁fader	-7.40581
?»	-7.40687
▁sedan	-7.40789
▁Ja	-7.41028
▁låt	-7.41404
-	-7.41708
träd	-7.41832
▁Herren	-7.41983
▁Mose	-7.42189
ns	-7.42531
▁sp	-7.43253
▁gjorde	-7.43748
▁hjärta	-7.45086
▁Jo	-7.45946
edra	-7.46895
▁blivit	-7.4694
▁Jerusalem	-7.47065
▁kommer	-7.47071
iga	-7.47233
uk	-7.47274
▁tog	-7.47345
yck	-7.47497
▁T	-7.47644
vis	-7.47646
▁Jesus	-7.47854
erna	-7.48136
▁stå	-7.48837
▁synd	-7.48841
▁'	-7.48966
P	-7.49852
os	-7.49867
var	-7.50102
▁all	-7.50247
ken	-7.50664
F	-7.50754
c	-7.51177
ren	-7.51923
▁först	-7.52165
▁år	-7.52582
skap	-7.52595
▁lät	-7.52651
▁säga	-7.54049
▁mer	-7.54697
▁hör	-7.55522
inna	-7.55884
▁ej	-7.56377
▁rätt	-7.57743
▁liv	-7.58087
▁därför	-7.58642
lar	-7.58719
▁två	-7.59012
▁ögon	-7.60124
liga	-7.60216
▁gjort	-7.60552
▁gör	-7.60627
ens	-7.61844
rätt	-7.61981
▁vän	-7.62294
▁vet	-7.62502
im	-7.62589
▁får	-7.62659
M	-7.63025
fall	-7.63272
▁R	-7.63694
ul	-7.63867
▁stad	-7.67
▁denna	-7.67594
▁landet	-7.68199
▁död	-7.68232
▁åter	-7.69454
▁sådan	-7.69479
▁hos	-7.69526
▁tillbaka	-7.70151
till	-7.70293
N	-7.7053
dra	-7.70904
▁gav	-7.72244
▁giv	-7.72673
des	-7.74505
▁låta	-7.74776
▁Om	-7.75006
isk	-7.75237
▁himmelen	-7.75463
▁huru	-7.75483
mma	-7.75701
▁helig	-7.75792
▁Egypten	-7.75979
▁hundra	-7.76649
stånd	-7.76978
tid	-7.77049
▁dagen	-7.77992
▁haven	-7.78002
▁vin	-7.78885
▁lik	-7.79053
▁taga	-7.7911
▁lag	-7.7933
▁denne	-7.79734
▁ansikte	-7.80413
▁sätt	-7.80413
▁Den	-7.80434
▁ännu	-7.80943
ligt	-7.80988
éerna	-7.81308
▁intet	-7.82047
▁hustru	-7.82352
H	-7.8266
▁kommit	-7.83605
▁människor	-7.83782
▁tag	-7.84744
▁ända	-7.85111
▁stod	-7.8573
▁bröder	-7.85913
▁drag	-7.86933
▁Mi	-7.86965
▁eld	-7.87479
▁Ma	-7.87524
▁fri	-7.8793
▁huvud	-7.88018
▁dit	-7.88314
▁höra	-7.88445
▁tusen	-7.88593
▁bliver	-7.89153
▁berg	-7.90118
▁fråga	-7.90495
ick	-7.90544
▁åstad	-7.91076
lag	-7.91871
▁Du	-7.91891
▁kunna	-7.92842
man	-7.92876
▁kvar	-7.93655
▁samma	-7.94103
▁sände	-7.95307
▁Be	-7.95833
▁emot	-7.95853
▁många	-7.9647
▁skull	-7.96865
▁äta	-7.97071
hål	-7.97284
▁fick	-7.97901
O	-7.98283
▁staden	-7.98512
▁också	-7.98568
▁strid	-7.98784
▁omkring	-7.99362
▁lika	-7.99521
▁nåd	-7.99836
▁talade	-8.00049
▁fast	-8.00443
▁blod	-8.01289
▁hålla	-8.01504
Jag	-8.01576
▁kommo	-8.01934
ställ	-8.01941
▁kalla	-8.02163
▁fly	-8.03052
▁kläd	-8.04036
▁vatten	-8.04111
Vad	-8.04387
▁dagar	-8.0513
▁tre	-8.05626
ack	-8.0595
▁följ	-8.06499
▁fäder	-8.06797
▁plats	-8.07025
▁mycket	-8.07254
▁döda	-8.07715
▁svärd	-8.07939
▁Me	-8.08298
▁Je	-8.08388
ölj	-8.08459
▁drog	-8.08862
▁bygg	-8.08864
▁stam	-8.09098
▁måste	-8.09278
▁städer	-8.09326
▁vilken	-8.10267
▁lov	-8.11063
▁Saul	-8.12164
▁guld	-8.12647
▁slag	-8.1354
▁sagt	-8.13612
▁Jakob	-8.13851
slut	-8.14321
▁Ne	-8.15644
ock	-8.16058
▁givit	-8.16217
▁bud	-8.1762
▁rike	-8.17758
▁För	-8.18846
▁Sedan	-8.18866
▁gång	-8.19019
um	-8.19172
▁herre	-8.19381
▁mun	-8.19493
▁hörde	-8.19829
iterna	-8.2022
▁händer	-8.21445
▁broder	-8.21703
▁Därför	-8.22017
▁ropa	-8.22376
▁altare	-8.22765
männen	-8.23547
ifrån	-8.24017
▁Därefter	-8.24103
▁frukt	-8.24356
▁allenast	-8.24374
▁vrede	-8.24414
▁hop	-8.25008
▁HERRE	-8.25144
▁råd	-8.25864
▁heller	-8.26011
▁oren	-8.26031
färd	-8.26562
▁moder	-8.27127
▁vilka	-8.27697
E	-8.27969
▁frukta	-8.27973
▁släkte	-8.2816
▁hem	-8.28357
G	-8.28736
▁både	-8.29162
▁full	-8.29681
▁prästen	-8.29764
▁vilja	-8.29957
▁födde	-8.29959
▁finnes	-8.30225
▁Aron	-8.30259
▁kvinna	-8.31092
låt	-8.31162
▁tio	-8.314
▁dock	-8.31438
▁kött	-8.31961
▁offra	-8.31961
Herre	-8.32004
▁vände	-8.32053
▁själ	-8.32115
▁tänk	-8.32694
väl	-8.32819
▁fem	-8.33668
▁röst	-8.33729
▁kunde	-8.33744
▁gott	-8.34069
▁Eli	-8.34852
▁profeter	-8.34909
▁människa	-8.35226
▁tjäna	-8.35354
U	-8.36135
▁lär	-8.36272
▁förbund	-8.3644
▁rättfärdig	-8.37252
▁Kristus	-8.386
▁vandra	-8.38914
▁kropp	-8.39227
▁bröd	-8.3937
▁tjugu	-8.39541
jämte	-8.39856
▁gingo	-8.40182
▁nämligen	-8.4049
▁evig	-8.40673
▁ro	-8.41123
R	-8.41244
▁satte	-8.41328
▁syn	-8.41741
▁Detta	-8.42129
▁ogudaktig	-8.42416
▁tjänst	-8.42417
▁framför	-8.4248
med	-8.42768
▁verk	-8.42812
stycke	-8.43058
▁Na	-8.44418
▁havet	-8.44712
▁Salomo	-8.45377
▁rättfärdighet	-8.46166
▁morgon	-8.46384
▁profet	-8.46401
▁annan	-8.46433
▁silver	-8.4706
▁bära	-8.48428
▁dotter	-8.48773
▁sidan	-8.4912
▁makt	-8.49124
▁båda	-8.4916
▁fördärv	-8.49466
▁ont	-8.50116
▁kraft	-8.50165
▁ung	-8.50233
▁ställe	-8.50487
▁skriv	-8.50896
▁ljus	-8.52293
▁kasta	-8.53866
▁visa	-8.53869
▁undan	-8.54097
▁Farao	-8.54458
▁lång	-8.54467
▁slog	-8.55194
▁onda	-8.55759
▁rädda	-8.55932
hövding	-8.56676
▁Sebaot	-8.56677
▁leva	-8.56724
▁varandra	-8.57058
gåvo	-8.57942
▁lämna	-8.58564
▁arvedel	-8.58945
Varför	-8.59316
▁föll	-8.59328
▁hjälp	-8.59328
▁höj	-8.59713
▁fyra	-8.59737
▁låg	-8.59814
▁släkt	-8.59817
▁Där	-8.60025
▁tillhör	-8.60487
▁därefter	-8.61658
▁gärningar	-8.62052
▁Var	-8.62261
▁Fader	-8.62448
rop	-8.63063
▁öknen	-8.63643
▁sak	-8.64667
▁höll	-8.65667
▁Josef	-8.65667
▁förkunna	-8.65668
▁Ande	-8.66176
▁fötter	-8.66488
▁prästerna	-8.66536
▁sönder	-8.67316
samma	-8.67486
▁filistéerna	-8.68151
▁marken	-8.68157
▁Abraham	-8.68572
▁döttrar	-8.68572
▁lärjungar	-8.69417
▁tillsammans	-8.69844
▁några	-8.7027
▁församla	-8.70272
▁runt	-8.70288
▁slå	-8.70429
▁hämta	-8.7113
▁glädje	-8.7113
▁alnar	-8.71139
▁mellan	-8.71564
▁stanna	-8.71595
▁bjudit	-8.71998
▁Babel	-8.71998
▁församling	-8.72435
▁helgedom	-8.72435
▁länge	-8.72874
Huru	-8.72916
▁brännoffer	-8.73314
▁stark	-8.73336
▁lägga	-8.73757
▁krig	-8.73824
▁bodde	-8.73825
▁missgärning	-8.75096
▁skaffa	-8.75546
▁satt	-8.75553
▁världen	-8.77369
▁Josua	-8.77369
▁Dessa	-8.77835
▁leviterna	-8.78757
håller	-8.79246
▁äldste	-8.79694
▁kvinnor	-8.8064
▁dricka	-8.8064
▁kärlek	-8.81594
▁fingo	-8.84533
▁arbete	-8.85011
▁öppna	-8.86509
▁Jordan	-8.8651
I	-8.86879
bland	-8.86913
▁välsigna	-8.87015
▁månaden	-8.87528
porten	-8.87538
▁därpå	-8.8755
▁pris	-8.87574
▁ängel	-8.88047
lyft	-8.88604
A	-8.89483
▁begär	-8.89579
▁bröt	-8.901
▁vittnesbörd	-8.901
▁furstar	-8.90101
▁präst	-8.90358
Allt	-8.90715
▁våld	-8.9115
skrift	-8.91154
K	-8.91212
T	-8.91861
▁tredje	-8.92211
▁vagn	-8.92765
é	-8.93222
▁olycka	-8.93284
▁trettio	-8.94367
▁ligger	-8.94369
▁tolv	-8.94378
▁Jesu	-8.96437
▁gammal	-8.9713
▁lever	-8.97132
▁främling	-8.97691
▁känna	-8.97718
▁samla	-8.97747
▁Efraim	-8.98256
▁besittning	-8.98256
▁helga	-8.98847
offret	-8.99396
▁evinnerligen	-8.99396
▁tempel	-9.00549
▁behag	-9.00556
▁levande	-9.00566
▁styggelse	-9.02303
▁begynte	-9.02895
▁jord	-9.03057
▁träl	-9.0349
▁sabbat	-9.04089
▁tecken	-9.04089
▁uppfyll	-9.04089
B	-9.08028
)	-9.95867
Y	-10.5585
2	-11.0423
0	-11.1354
6	-12.1402
1	-12.2831
ó	-12.4498
9	-12.4498
5	-12.6498
3	-12.6498
7	-12.6498
í	-12.8998
]	-13.7331
8	-14.7321
4	-14.7322
C	-14.7323
(	-14.7324
Ö	-14.7325
Å	-14.7326
Ä	-14.7327
L	-14.7328
J	-14.7329
ö	-14.733
á	-14.7331
ä	-14.7331
