<pad>	0
</s>	0
<unk>	0
¦	-1.2644
▁¦	-1.28021
के	-4.39011
है	-4.74649
▁़	-4.8466
▁।	-4.90362
में	-4.906
▁,	-4.96795
और	-4.99757
की	-5.01327
ी	-5.15856
से	-5.15861
को	-5.1794
का	-5.29101
ों	-5.41244
े	-5.42596
ा	-5.45282
न	-5.57608
▁(	-5.58926
कि	-5.59265
ने	-5.59361
▁)	-5.64379
क	-5.74113
पर	-5.86443
हैं	-5.96257
कर	-5.96332
-	-5.98649
लिए	-6.0094
▁.	-6.01902
एक	-6.04323
उस	-6.04528
ता	-6.04709
इस	-6.06302
या	-6.06734
तो	-6.22265
हो	-6.23751
ित	-6.24023
जो	-6.25781
नहीं	-6.2774
भी	-6.28672
अ	-6.29984
उन	-6.30048
▁	-6.33942
ज	-6.37779
ं	-6.40344
ल	-6.4958
स	-6.51343
यह	-6.53139
ई	-6.53477
किया	-6.53643
त	-6.53807
ना	-6.54331
म	-6.54543
ख	-6.55414
ही	-6.55605
तुम	-6.63117
फ	-6.6456
वह	-6.65837
र	-6.68054
करने	-6.68901
हम	-6.78289
à	-6.87165
था	-6.88848
𐋇	-6.89259
व	-6.91678
अपने	-6.9173
वे	-6.93883
आ	-6.9465
ग	-6.99279
ते	-7.00714
ये	-7.01226
जिस	-7.01481
ए	-7.06373
तथा	-7.09385
गया	-7.11366
द	-7.14225
कुछ	-7.1452
रूप	-7.1795
किसी	-7.18332
ओं	-7.19435
साथ	-7.21725
्	-7.22264
जा	-7.25066
जब	-7.26162
प	-7.26925
ला	-7.2706
ड	-7.2763
ब	-7.27884
िक	-7.28271
श	-7.32967
ले	-7.33553
वि	-7.34432
इन	-7.35723
आप	-7.35787
थे	-7.36648
्हें	-7.36965
ियों	-7.38002
द्वारा	-7.38025
दे	-7.38346
s	-7.38413
भारत	-7.38632
करते	-7.39014
लोग	-7.39761
य	-7.40128
ह	-7.42744
लोगों	-7.42948
ें	-7.43005
तक	-7.44593
▁¤	-7.4682
फिर	-7.4691
जाता	-7.47837
ती	-7.48194
हमार	-7.48946
ि	-7.50389
मैं	-7.51068
ण	-7.52043
▁"	-7.52471
क्या	-7.5293
करें	-7.53685
दिया	-7.53698
ट	-7.55883
कहा	-7.57384
करना	-7.57442
▁्	-7.5888
ुदा	-7.59023
दो	-7.60284
ो	-7.60318
/	-7.61372
अपनी	-7.61956
ल्लाह	-7.62748
थी	-7.64312
उ	-7.64669
ः	-7.64821
▁?	-7.65394
प्र	-7.65777
हुए	-7.66235
रहे	-7.68641
रा	-7.6991
सा	-7.69974
सी	-7.70613
बात	-7.70654
▁;	-7.74902
कार्य	-7.75262
वाले	-7.75833
समय	-7.75908
करता	-7.77093
सकता	-7.77882
बड	-7.79817
्य	-7.79903
अधिक	-7.80485
दी	-7.81982
होता	-7.82104
रहा	-7.82121
ऐ	-7.8272
बाद	-7.83613
बना	-7.84167
पास	-7.862
a	-7.86461
सं	-7.87075
ीय	-7.8736
कार	-7.8841
हर	-7.90948
बहुत	-7.9108
च	-7.91865
मान	-7.92092
नी	-7.9503
भ	-7.96748
ध	-7.96834
तरह	-7.96969
नि	-7.9742
सब	-7.98136
वर्ष	-7.9891
उन्होंन	-7.9912
हुआ	-8.00251
गए	-8.01103
क्षेत्र	-8.01302
मा	-8.01359
तुम्हारे	-8.02874
दिन	-8.03269
पा	-8.03347
जिन	-8.03873
प्रति	-8.04228
काम	-8.04558
.	-8.04646
▁¦_¦	-8.0493
▁'	-8.05072
जी	-8.06206
यदि	-8.06325
होने	-8.06691
राष्ट्रपति	-8.06922
इ	-8.08344
कम	-8.08383
अन्य	-8.08767
प्राप्त	-8.08808
उनकी	-8.0962
देश	-8.10211
होगा	-8.10531
पहले	-8.10618
वाला	-8.10699
ली	-8.11452
नाम	-8.12524
2	-8.1269
ओर	-8.12989
ऐसे	-8.13729
री	-8.13788
गई	-8.13819
सभी	-8.14301
▁%	-8.15458
बार	-8.15591
प्रकार	-8.16993
करो	-8.17906
भाग	-8.18033
संबंध	-8.18491
सरकार	-8.18626
स्	-8.18703
राज्य	-8.18791
सकते	-8.19189
जाने	-8.19962
कह	-8.20502
बढ	-8.21013
कारण	-8.21068
अगर	-8.21363
ाई	-8.21512
एं	-8.21632
बा	-8.21834
𐊣	-8.22413
𐊼	-8.22413
छ	-8.23232
व्यक्ति	-8.2407
पड	-8.24508
चाहिए	-8.2466
एव	-8.25502
अनु	-8.2581
होती	-8.26175
▁:	-8.27024
पी	-8.27275
घ	-8.2869
मे	-8.2873
ऐसा	-8.28777
रह	-8.29481
क्यों	-8.29808
रसूल	-8.30372
पूर्व	-8.30808
वा	-8.31033
भारतीय	-8.31264
मत	-8.31708
पूर्ण	-8.3232
मुझे	-8.34092
उप	-8.34383
ु	-8.3487
ओ	-8.35328
e	-8.35471
क्ष	-8.36588
प्रदान	-8.37336
ां	-8.37369
लिया	-8.3737
अब	-8.38037
लो	-8.38715
थ	-8.38824
राज	-8.39759
दोनो	-8.39843
रे	-8.39987
जाती	-8.40007
d	-8.41454
l	-8.41906
m	-8.42269
ू	-8.427
p	-8.43094
ै	-8.43152
सु	-8.43288
i	-8.43442
अपना	-8.44413
विकास	-8.44776
जीवन	-8.44969
होते	-8.45148
c	-8.45518
माल	-8.46138
जैसे	-8.46243
दा	-8.46376
लगा	-8.47161
यों	-8.47316
चीज	-8.47617
ंग	-8.48679
हुई	-8.4902
‍	-8.49914
चल	-8.51084
रही	-8.51315
रब	-8.51361
उपयोग	-8.51373
श्री	-8.51456
टी	-8.52038
देख	-8.52225
जान	-8.52507
बे	-8.53028
गी	-8.53448
बन	-8.53847
जन	-8.5426
बी	-8.54322
स्थान	-8.54421
बारे	-8.55013
ईमान	-8.55042
िंग	-8.55866
बीच	-8.55909
हां	-8.55961
हा	-8.56538
सेवा	-8.56637
मु	-8.56817
मेरे	-8.57412
वी	-8.57728
पैदा	-8.58445
मि	-8.593
▁!	-8.59472
ढ	-8.59598
ेकिन	-8.59848
रो	-8.60076
आज	-8.60173
समझ	-8.60718
विचार	-8.61118
गा	-8.61152
रख	-8.61343
र्	-8.61648
कु	-8.61804
हूँ	-8.62178
दर	-8.62424
ार	-8.62869
देने	-8.62974
दूसरे	-8.63142
अधिनियम	-8.63253
भर	-8.6352
्स	-8.6357
दिखा	-8.63807
▁।"	-8.63888
आग	-8.63945
t	-8.64122
▁-	-8.64381
चु	-8.64491
झ	-8.66038
भेज	-8.66337
वाली	-8.66799
छोड	-8.67156
जाएगा	-8.67182
बाहर	-8.67204
ंड	-8.67546
जाना	-8.67875
एँ	-8.68111
जाए	-8.68169
मन	-8.68436
वर	-8.68636
परि	-8.68878
थवा	-8.68901
योजना	-8.69567
बर	-8.6962
ठ	-8.69717
4	-8.70366
सर	-8.70414
ति	-8.70596
ऐस	-8.71055
हमें	-8.71887
शक्ति	-8.71913
वही	-8.71919
ॉ	-8.72416
इसे	-8.72596
अभि	-8.72664
केवल	-8.72686
राष्ट्रीय	-8.73021
तर	-8.73075
सहाय	-8.73306
एस	-8.73772
विशेष	-8.73869
तब	-8.73922
स्थिति	-8.7416
ाब	-8.74428
िया	-8.74547
बस	-8.74791
स्ट	-8.75326
▁¦1¦	-8.75758
याद	-8.75869
o	-8.76631
सबसे	-8.77477
उसी	-8.77511
आधार	-8.77782
दार	-8.77953
r	-8.77983
घर	-8.78075
प्रयोग	-8.78617
मेरी	-8.78652
धारा	-8.78969
▁¥	-8.79247
ाइल	-8.79687
सूची	-8.79893
कुल	-8.80049
कभी	-8.80604
रि	-8.80913
सूचना	-8.81139
0¦	-8.81521
चार	-8.81571
धर	-8.82111
न्	-8.82115
स्व	-8.82375
उपलब्ध	-8.82512
0	-8.8256
करती	-8.82846
आई	-8.82912
वालों	-8.83111
बल	-8.8362
मी	-8.83915
सभा	-8.83951
संदेश	-8.85002
जाते	-8.85138
रु	-8.85325
खा	-8.8546
सकती	-8.85892
ीकरण	-8.8597
b	-8.86522
दि	-8.86688
सम	-8.8675
बल्	-8.86754
तरफ	-8.86825
दूर	-8.86843
िल	-8.8739
बि	-8.88134
िर	-8.88161
मर	-8.88399
्त	-8.88764
शिक्षा	-8.8878
भाषा	-8.88959
अलग	-8.89325
दूसर	-8.89525
यर	-8.89691
पत्र	-8.89774
योग	-8.89829
आय	-8.89984
परवरदिगार	-8.90102
लोक	-8.90309
6	-8.90407
मू	-8.90567
पता	-8.90574
्र	-8.90907
गु	-8.90937
डाल	-8.91114
ोर	-8.91965
रू	-8.92214
अव	-8.92535
जल	-8.92758
यहाँ	-8.93185
निर्माण	-8.93752
अच्छा	-8.93752
स्पष्ट	-8.93756
पि	-8.94022
राम	-8.94179
कल	-8.94204
हूं	-8.9451
ीन	-8.94756
तः	-8.9487
चा	-8.94979
जोड	-8.95158
हित	-8.95202
तैयार	-8.9525
ाँ	-8.95507
▁¦1	-8.95515
किताब	-8.96028
विषय	-8.96354
लिये	-8.96843
आदि	-8.9689
गत	-8.96915
बता	-8.96987
सो	-8.9707
वर्त	-8.97287
लड	-8.97357
ष	-8.97477
g	-8.97515
name	-8.9754
▁”	-8.97544
सामान्य	-8.97605
पूरी	-8.97693
लाभ	-8.97738
%	-8.97756
लगे	-8.98362
अज	-8.98489
तौर	-8.98905
महा	-8.98946
अधीन	-8.99097
होंगे	-8.99203
ज्ञान	-8.99365
लिख	-8.99436
मिल	-8.99655
पु	-8.99822
अवसर	-8.99903
स्त	-8.99956
चित	-8.99995
करेगा	-9.00136
ँ	-9.00164
खंड	-9.00268
यक	-9.00488
सह	-9.0053
काल	-9.00568
अधिकार	-9.00572
विभिन्न	-9.00706
विश्व	-9.01465
स्तर	-9.01663
ियाँ	-9.0182
उच्च	-9.0196
प्रभाव	-9.0227
शामिल	-9.02294
मुख्य	-9.02325
पूरा	-9.02409
u	-9.02471
चाहत	-9.02816
क्	-9.02956
रंग	-9.02997
1	-9.03044
निश्चय	-9.03097
मै	-9.03135
तुम्हार	-9.03528
अर्थ	-9.03957
गो	-9.0421
होगी	-9.04305
यू	-9.0468
शब्द	-9.04742
वस्तु	-9.04743
2¦	-9.04854
4¦	-9.04956
करे	-9.05353
धन	-9.05476
▁‘	-9.0561
पक्ष	-9.05717
लग	-9.05828
डि	-9.06521
मार	-9.07204
वार	-9.07236
हों	-9.07324
मुख	-9.0757
पहल	-9.07597
पुर	-9.08125
ऊ	-9.08378
प्रक्रिया	-9.09007
निकाल	-9.09121
क्रम	-9.09324
गे	-9.09426
आर	-9.09653
सि	-9.09755
उनमें	-9.09814
in	-9.09841
उत्तर	-9.0986
ेगा	-9.09963
ट्र	-9.10164
8	-9.10171
तम	-9.10201
हे	-9.10812
बदल	-9.1095
्म	-9.1131
दौरा	-9.11336
ग्	-9.11612
बन्द	-9.11639
▁...	-9.11642
परिवर्तन	-9.11755
आपको	-9.12231
हेतु	-9.12514
हार	-9.12525
भवन	-9.12528
यही	-9.12549
जि	-9.12583
दान	-9.12664
प्रत्ये	-9.12765
3¦	-9.13343
दुनिया	-9.13409
कों	-9.13485
रखा	-9.13856
जमा	-9.13955
तू	-9.14035
नई	-9.14105
मंत्री	-9.14374
उनको	-9.14441
ऊपर	-9.1462
मूल	-9.14626
चाहता	-9.14902
▁¦19	-9.14937
जारी	-9.15183
डी	-9.15279
पढ	-9.15353
्व	-9.1565
f	-9.15687
सीमा	-9.15844
शुरू	-9.16162
विश्वास	-9.16174
अनुसार	-9.1618
मार्ग	-9.16498
मो	-9.16809
दें	-9.17003
संख्या	-9.17073
माध्यम	-9.17094
धर्म	-9.17112
गयी	-9.17167
अभी	-9.17567
▁¦3	-9.17869
n	-9.17932
इसी	-9.17969
अनेक	-9.18136
चला	-9.18224
जे	-9.189
बु	-9.18995
सुन	-9.18996
मदद	-9.19018
र्इ	-9.19253
ऋ	-9.19872
डर	-9.20025
श्	-9.20301
गू	-9.20482
खुदा	-9.20619
al	-9.209
तीन	-9.20967
दु	-9.21272
दिल	-9.21613
महत्वपूर्ण	-9.21913
ष्ट	-9.22073
लाल	-9.22142
आम	-9.2251
प्रौद्योगिकी	-9.22892
ठीक	-9.22901
देना	-9.22961
सुरक्षा	-9.23076
भाव	-9.23152
कर्म	-9.23199
वै	-9.23683
िका	-9.23815
पद	-9.24108
आदेश	-9.24567
देखा	-9.24887
उद्देश्य	-9.24902
परिणाम	-9.24902
▁#	-9.2491
निकल	-9.24953
पानी	-9.24957
चि	-9.24998
ियां	-9.2501
करा	-9.25208
क्षेत्रों	-9.25434
रहत	-9.25654
अप	-9.26378
बैंक	-9.265
करेंगे	-9.26611
रुप	-9.26743
व्य	-9.26915
मौजूद	-9.26954
▁&	-9.26969
नीचे	-9.26991
कार्यक्रम	-9.27005
टा	-9.27377
जनता	-9.27464
न्तु	-9.27766
प्रतिशत	-9.27996
केन्द्र	-9.27996
निर्धारित	-9.27997
समूह	-9.28
लि	-9.28012
विज्ञान	-9.28083
स्वीकार	-9.28101
आया	-9.28165
कला	-9.28171
अतः	-9.2827
चे	-9.28279
स्थाप	-9.2848
म्बर	-9.28553
खोल	-9.28574
हाथ	-9.28727
पन	-9.28967
गण	-9.29598
बनाने	-9.2961
तुम्हारी	-9.298
पो	-9.29962
क्रिया	-9.29991
k	-9.30087
स्वयं	-9.30112
हाल	-9.30291
अंत	-9.30452
रोक	-9.30495
200	-9.30615
बच्च	-9.30736
सामन	-9.30841
नीति	-9.30992
9¦	-9.31082
▁¤3⁄4	-9.31187
न्द	-9.31249
ऋण	-9.3127
मगर	-9.31274
मेरा	-9.31315
एम	-9.31516
फल	-9.31895
कै	-9.31948
अधिकारी	-9.31985
ंत	-9.3201
प्रस्तुत	-9.32274
व्यापार	-9.32279
चित्र	-9.32306
सिर्	-9.32329
▁>	-9.32333
सू	-9.32371
त्र	-9.32498
6¦	-9.32738
्या	-9.32822
ाव	-9.33088
सिवा	-9.33363
प्रयास	-9.33376
स्वतंत्र	-9.33382
ोल्डर	-9.33385
केंद्र	-9.33388
प्रमुख	-9.33434
वक्त	-9.33455
काफी	-9.33633
कहत	-9.33772
एन	-9.34076
▁’	-9.3437
नया	-9.34392
मीन	-9.34464
वर्ग	-9.34472
कृषि	-9.34484
पश्चिम	-9.34485
हत	-9.34495
9	-9.34505
परियोजना	-9.34517
पे	-9.34549
आवश्यकता	-9.34626
ब्	-9.3467
चाहे	-9.34685
संस्थान	-9.34921
ल्	-9.35032
मामले	-9.35112
आए	-9.35143
सन	-9.35373
ज्यादा	-9.35608
युद्ध	-9.35609
पिछल	-9.35613
किस	-9.35857
खोज	-9.35863
मानव	-9.35968
साफ	-9.36185
,	-9.36209
सार	-9.36598
हु	-9.36633
कानून	-9.36745
विश्वविद्यालय	-9.36746
▁“	-9.36747
न्याय	-9.36816
विंडो	-9.36885
बिना	-9.36994
भा	-9.37532
पीछे	-9.37894
अवधि	-9.37895
न्यायालय	-9.37897
उद्योग	-9.379
प्रधान	-9.37915
र्क	-9.37972
सर्व	-9.38093
जानते	-9.38112
रोग	-9.3829
v	-9.38292
अन	-9.38537
ान	-9.3854
्यू	-9.38592
सामाजिक	-9.39056
अच्छे	-9.39057
जीव	-9.39205
आकार	-9.39495
रात	-9.39635
y	-9.39674
उठा	-9.39768
सके	-9.39834
ेह	-9.39877
समर्थ	-9.40051
1¦	-9.4023
निम्न	-9.40233
विवरण	-9.40233
प्रेम	-9.4025
सहयोग	-9.40253
▁¦44	-9.40337
ंट	-9.40585
ृ	-9.40716
मूल्य	-9.41038
बंद	-9.41329
जैसा	-9.41661
आख	-9.41739
हि	-9.41756
राष्ट्र	-9.41895
ंद	-9.42087
साल	-9.42225
प्रदेश	-9.42429
निर्दिष्ट	-9.42628
जगह	-9.42634
क्र	-9.42839
संस्था	-9.4291
ाना	-9.42925
डे	-9.42993
लाइन	-9.43192
नो	-9.43703
आवश्यक	-9.43722
वान	-9.43841
समस्या	-9.43848
ध्यान	-9.43848
बेशक	-9.43922
निवेश	-9.43952
ऑ	-9.43985
यी	-9.43999
वास्त	-9.44153
w	-9.44161
पश्चात	-9.44223
वाद	-9.4434
साम	-9.44374
अधि	-9.44433
सारे	-9.44459
हक	-9.44476
प्रबंध	-9.44732
चयन	-9.44852
बराबर	-9.45082
सिंह	-9.45083
भू	-9.45088
सत्य	-9.45109
जुड	-9.45237
ल्ल	-9.45296
जिन्हें	-9.4539
शहर	-9.4548
ूम	-9.45531
निर्	-9.45544
टर	-9.45727
प्रणाली	-9.46332
जानकारी	-9.46352
12	-9.46434
आर्थ	-9.46435
तु	-9.46511
फा	-9.46567
क्षमता	-9.46662
अगल	-9.46722
िस	-9.46751
पार	-9.47069
आने	-9.47275
एक्स	-9.47355
ेड	-9.47373
हीं	-9.47519
लगभग	-9.47598
सुविधा	-9.47598
आकाश	-9.47602
विशिष्ट	-9.47608
दृष्टि	-9.47622
पहुँच	-9.47648
नियम	-9.47724
मध्य	-9.47873
वन	-9.47952
बाल	-9.4841
लेने	-9.48431
इतन	-9.48553
रहने	-9.48819
ास	-9.48889
रखते	-9.49236
पेश	-9.49327
द्र	-9.49389
जाओ	-9.49411
ात्मक	-9.49547
चर	-9.49585
भार	-9.49722
अतिरिक्त	-9.5018
म्ब	-9.50263
विधि	-9.50599
०	-9.50674
शा	-9.50886
ोन	-9.51259
बैठक	-9.51384
प्रकाश	-9.51388
क्स	-9.51449
संसद	-9.51524
जन्म	-9.51531
राशि	-9.51588
र्ज	-9.51615
ऑफ	-9.51635
रखने	-9.51727
शि	-9.52003
टि	-9.52188
विदेश	-9.52259
नव	-9.52581
देशों	-9.52621
	-9.52828
निर्णय	-9.52828
निशान	-9.52834
कहने	-9.52901
लू	-9.53018
शन	-9.53055
गिर	-9.53139
शील	-9.53218
र्स	-9.53303
लाए	-9.53543
ोड	-9.53738
गार	-9.53798
अंतर	-9.53825
खड	-9.53874
विभाग	-9.53972
बाज	-9.5417
पहचान	-9.54179
हुक्म	-9.54179
मंत्रालय	-9.5418
अच्छी	-9.5418
कौन	-9.54252
राह	-9.54407
न्न	-9.5444
दल	-9.54489
नए	-9.54558
ion	-9.54572
मिला	-9.5465
कारी	-9.55225
मनुष्य	-9.55549
महिला	-9.55549
गैर	-9.55601
संघ	-9.55679
गुण	-9.55816
टो	-9.56489
)	-9.56512
pr	-9.56651
लें	-9.56758
पालन	-9.56792
ची	-9.56849
यां	-9.5687
पाठ	-9.56973
संयुक्त	-9.56974
डियो	-9.5701
्ट	-9.57345
पै	-9.57873
डा	-9.58012
बिल	-9.58121
सही	-9.5817
बंगाल	-9.58346
कृप	-9.58351
परिवार	-9.58375
x	-9.58572
निश्चित	-9.58966
सदस्य	-9.59079
ar	-9.59526
िश	-9.59567
अनुसंधान	-9.59775
दक्षिण	-9.59775
यात्रा	-9.59776
सम्बन्ध	-9.59779
नर	-9.59806
शासन	-9.59887
लंब	-9.59923
सुधार	-9.59958
वेब	-9.60485
आयत	-9.60544
वत	-9.60671
पहुंच	-9.60841
समान	-9.6103
एल	-9.61066
ण्ड	-9.61221
वित्तीय	-9.61249
जाएगी	-9.61276
कर्ता	-9.614
पति	-9.61416
समिति	-9.61467
सम्	-9.61817
पत	-9.61904
▁''	-9.62103
२	-9.6211
स्थापना	-9.6219
▁¦10	-9.623
१	-9.62669
प्रारंभ	-9.62695
३	-9.62695
यातना	-9.62702
रिपोर्ट	-9.62703
कंपनी	-9.62704
संगठन	-9.62767
ौम	-9.62916
h	-9.63123
आधारित	-9.63178
जिससे	-9.63216
युक्त	-9.6353
मल	-9.63812
अंतर्ग	-9.63891
संपर्क	-9.64187
सक्रिय	-9.64187
बोर्ड	-9.64191
लाख	-9.64218
तृत	-9.64394
थोड	-9.64528
गड	-9.64753
वादी	-9.64782
बोल	-9.65009
चुका	-9.65578
साइट	-9.65732
दिशा	-9.65761
पैग	-9.65801
स्वरूप	-9.65879
जिन्ह	-9.65969
ंस	-9.66047
परन्तु	-9.66122
कृत	-9.66502
बाग	-9.66634
रण	-9.66778
हिस्स	-9.6679
वृद्धि	-9.66799
वो	-9.66826
प्रत्य	-9.66863
अल	-9.66904
झुठला	-9.67241
	-9.67241
त्रुटि	-9.67241
दिल्ली	-9.67241
समाप्त	-9.67244
मंदिर	-9.67244
बाजार	-9.67278
छा	-9.67351
हमेश	-9.67377
मेल	-9.67384
सोच	-9.67458
शक	-9.67711
भूत	-9.67991
आत्म	-9.68414
बेट	-9.68481
जाएँ	-9.68504
ौ	-9.68578
प्रथम	-9.68804
▁¤°	-9.68806
निस्संद	-9.68812
▁¦2¦	-9.68845
व्यवस्था	-9.68878
परंतु	-9.69055
जरूरत	-9.69076
िम	-9.6909
हटा	-9.69503
ूर	-9.69534
समाज	-9.69916
भूमि	-9.69919
िट	-9.70092
नही	-9.70179
टे	-9.70212
लक्ष्य	-9.70391
निर्धारण	-9.70396
ताओं	-9.70546
खेल	-9.70586
वहाँ	-9.70764
ब्र	-9.70882
नाथ	-9.71028
भय	-9.71075
कड	-9.71321
लौट	-9.71402
तों	-9.71643
डाक	-9.71702
एफ	-9.71778
अनुभव	-9.72004
बेहतर	-9.72012
वापस	-9.72026
नियंत्रण	-9.72033
भला	-9.7248
3	-9.7248
रत	-9.72551
फेर	-9.72716
मज	-9.7274
ाने	-9.72879
उत्	-9.73124
्ष	-9.73227
़	-9.73466
8¦	-9.73539
गांधी	-9.73643
पुरुष	-9.73643
ग्रामीण	-9.73643
प्रश्न	-9.73643
अंग्रेज	-9.73643
जांच	-9.73646
आसमान	-9.73835
उत्पादन	-9.73958
गोल	-9.74089
रचना	-9.74122
व्यक्त	-9.74354
रोज	-9.74379
सेट	-9.74408
भाई	-9.74496
पूछ	-9.74604
महान	-9.74971
30	-9.75137
स्वास्थ्य	-9.7531
वास्तव	-9.75376
सत	-9.75599
मक	-9.75618
ेंगे	-9.75736
भीतर	-9.75847
पथ	-9.7596
मांग	-9.76003
ुर	-9.76055
ंबर	-9.76178
कू	-9.76185
शी	-9.76316
ैर	-9.76597
फाइल	-9.76693
an	-9.76847
स्थ	-9.76899
डॉ	-9.76972
option	-9.77005
पुनर्	-9.77005
इतिहास	-9.77022
चौ	-9.77203
त्त	-9.77388
ृत	-9.7739
भावना	-9.77417
छवि	-9.77424
सामग्र	-9.77643
यो	-9.7794
गुज	-9.7799
लेख	-9.77992
समझा	-9.78162
शाय	-9.78275
अलाव	-9.78278
पाया	-9.78315
प्रा	-9.78601
व्यवहार	-9.78729
जवाब	-9.7873
इं	-9.78799
घटना	-9.78801
विकल्प	-9.79131
रस	-9.79285
ात	-9.79327
मुक	-9.79408
it	-9.79677
िए	-9.79971
ीकृत	-9.80258
नगर	-9.80266
प्रस्ताव	-9.80483
मुँह	-9.80483
६	-9.80483
दिवस	-9.80484
शरीर	-9.80484
संभव	-9.80484
kg	-9.80504
स्थित	-9.80516
स्थानीय	-9.80624
अमेरिका	-9.80634
जहाँ	-9.80643
र्जी	-9.80713
रूर	-9.80827
00¦	-9.81211
दू	-9.81481
देखने	-9.81856
लु	-9.81959
विस्	-9.81977
रिया	-9.82126
माना	-9.8223
पृष्ठ	-9.82263
मृत्यु	-9.82269
वैज्ञानिक	-9.82269
z	-9.82269
स्रोत	-9.8227
निज	-9.8233
अंग	-9.82402
ंतु	-9.82454
टन	-9.82455
धिक	-9.82579
बनाए	-9.82586
देखते	-9.82608
निर्देश	-9.82757
भिन्न	-9.82779
लगत	-9.8281
▁),	-9.82837
गुनाह	-9.82872
वीं	-9.8288
बच्चों	-9.83027
चू	-9.83198
▁¦11	-9.83414
कितन	-9.83596
▁¦18	-9.83608
सुना	-9.8366
नु	-9.83777
क्ल	-9.83992
तंत्र	-9.84056
दृश्य	-9.84137
खुद	-9.84276
मात्रा	-9.84446
ly	-9.84606
उड	-9.84623
सदस्यों	-9.84668
बहु	-9.84757
शाल	-9.84966
बो	-9.85202
रहो	-9.85369
लर	-9.85555
प्रो	-9.85587
आरंभ	-9.85939
शेयर	-9.8594
बह	-9.85949
संविधान	-9.85962
गें	-9.85978
आशा	-9.86302
पुकार	-9.86469
हल	-9.86562
बर्	-9.86629
देव	-9.86716
कैसे	-9.87097
स्प	-9.87367
पूर्वक	-9.87452
धा	-9.87626
लेखा	-9.87793
प्रमाण	-9.87812
प्रवेश	-9.8783
विस्तार	-9.87832
▁¤	-9.87833
पसंद	-9.8784
गति	-9.87873
तल	-9.87879
प्रकट	-9.87895
उपस्थित	-9.87926
सर्वर	-9.88033
गर	-9.88348
पट	-9.88592
यु	-9.88721
मना	-9.88744
तरीक	-9.88751
जू	-9.89077
वज	-9.89153
लों	-9.89285
हाँ	-9.89342
जाति	-9.89477
शेष	-9.89685
पुस्तक	-9.89689
वास	-9.89724
चिकित्सा	-9.89749
नागरिक	-9.89749
निर्यात	-9.89755
उपकरण	-9.89773
▁?"	-9.89773
ईमानदार	-9.89811
संसाधन	-9.89821
चर्चा	-9.89838
ौर	-9.89847
बै	-9.90181
रेल	-9.90238
जाएँगे	-9.90472
ॉल	-9.90556
दिनों	-9.9073
सहायक	-9.90788
लिखा	-9.90989
ैल	-9.91141
आवेदन	-9.9171
▁¥	-9.91712
शुल्क	-9.91714
इस्ते	-9.91718
प्रगति	-9.91759
विकस	-9.91811
चरण	-9.91839
▁¦20	-9.92191
ंकि	-9.92224
लोड	-9.92264
भूमिका	-9.92345
ंगी	-9.92424
निवास	-9.92503
अग्र	-9.92556
तेज	-9.92589
मुक्त	-9.92598
उत्पाद	-9.92799
प्रदर्श	-9.92839
रिक	-9.92892
पुरान	-9.93179
िता	-9.93181
गल	-9.93282
राजा	-9.93361
पहुँचा	-9.9363
५	-9.93703
छोटे	-9.93709
झूठ	-9.9371
स्कूल	-9.93717
अवस्था	-9.93721
सम्मान	-9.93761
पकड	-9.93891
दाय	-9.93938
re	-9.93992
तार	-9.94055
सौ	-9.94067
लागत	-9.94075
युग	-9.94231
्कार	-9.9438
पाल	-9.9448
र्व	-9.94643
translat	-9.94918
करण	-9.94919
आयु	-9.94932
खो	-9.95045
सरकारी	-9.95082
दम	-9.95136
पात	-9.9514
रुर	-9.95161
त्पन्न	-9.95207
पट्ट	-9.9522
अति	-9.95284
रक्त	-9.95339
लाने	-9.95485
सफल	-9.95564
बद	-9.95642
साहित्य	-9.95679
चाल	-9.95722
उदाहरण	-9.9575
दृढ	-9.9575
भुगतान	-9.9575
संपत्ति	-9.95771
tp	-9.95832
शास्त्र	-9.95841
क्षमा	-9.95914
सूर	-9.96185
त्रि	-9.96194
वेद	-9.9638
कमी	-9.96451
देग	-9.96786
आपस	-9.96843
बच	-9.971
प्रतीक	-9.97134
मोह	-9.97294
चाहि	-9.97725
बने	-9.97731
ज्	-9.97764
सिद्ध	-9.97824
हस्ताक्षर	-9.97834
ht	-9.97837
प्रशिक्षण	-9.97867
ेशन	-9.97883
निकट	-9.97923
ार्थ	-9.97942
चुनें	-9.97978
जिला	-9.98026
दिखाएँ	-9.98242
अंति	-9.98413
वैध	-9.98437
रास्त	-9.98461
निक	-9.98633
अन्त	-9.9867
राय	-9.98727
हाला	-9.99078
वर्ण	-9.99299
वाह	-9.99442
नाज	-9.99676
यन	-9.99868
बंध	-9.99872
बैठ	-9.99875
च्छ	-9.9994
महत्व	-9.9994
रज	-9.99944
पुनः	-9.99962
समुदाय	-9.99963
not	-9.99966
प्रमाणपत्र	-9.99977
सद	-9.99993
संगीत	-10
द्द	-10.0001
आसान	-10.0002
मद	-10.0005
संकेत	-10.0008
अपेक्षा	-10.0014
गलत	-10.0023
पूरे	-10.0029
न्यू	-10.0036
िय	-10.0043
गीत	-10.0047
रखना	-10.009
उठ	-10.01
खाते	-10.0119
ुल	-10.0153
िड	-10.0173
इनमें	-10.0191
मित्र	-10.0193
▁¦199	-10.0209
जैस	-10.0213
city	-10.0214
इस्लाम	-10.0214
दिनांक	-10.0214
ऊर्जा	-10.0214
अध्ययन	-10.0214
शख्स	-10.0214
रुद्ध	-10.0215
गुरु	-10.0218
राजनीति	-10.0218
खरीद	-10.022
खाता	-10.0225
र्ड	-10.0225
कट	-10.023
er	-10.024
िन	-10.0241
पाक	-10.0268
गवाह	-10.0305
प्रण	-10.0306
सात	-10.0307
बचा	-10.0312
रीब	-10.0325
ेंट	-10.0345
शु	-10.0375
हन	-10.0376
सका	-10.0381
नीय	-10.0384
ाम	-10.0393
मात्र	-10.0399
हद	-10.0403
हवा	-10.0405
चले	-10.0409
औद्योगिक	-10.0436
दस्तावेज	-10.0436
पुलिस	-10.0436
▁://	-10.0436
▁@	-10.0436
कठिन	-10.0436
htm	-10.0438
संरक्षण	-10.0438
आतंकवाद	-10.0438
ग्राम	-10.0439
प्रकृति	-10.0439
जु	-10.045
्श्	-10.0453
पंज	-10.0456
तत्व	-10.0458
वित्त	-10.0475
ent	-10.0478
राज्यों	-10.05
चाह	-10.0506
सीख	-10.0525
तौ	-10.0527
सफलता	-10.0529
र्च	-10.053
nic	-10.0535
उपधार	-10.0544
नक	-10.0545
ट्टी	-10.0557
स्थल	-10.0569
सच्च	-10.0616
पेट	-10.062
र्ट	-10.0637
आस	-10.0644
मुसलमान	-10.0663
उल्लेख	-10.0663
पहाड	-10.0663
मजबूत	-10.0663
प्राकृत	-10.0666
प्रशासन	-10.0671
रेखा	-10.0682
▁):	-10.0683
व्या	-10.072
रकम	-10.0756
ियन	-10.0758
जितन	-10.0763
बाप	-10.0772
मिलने	-10.0774
ालिम	-10.0776
शिश	-10.0784
जाय	-10.0809
en	-10.0817
अरब	-10.0846
णा	-10.0851
द्वार	-10.0852
मोट	-10.0884
लैंड	-10.0886
८	-10.0895
अनिवार्य	-10.0896
गुणवत्ता	-10.0896
पर्याप्त	-10.0896
पूंजी	-10.0896
सम्मेलन	-10.0896
इच्छा	-10.0896
▁+	-10.0896
doe	-10.0896
समाधान	-10.0896
पदार्थ	-10.0897
मीटर	-10.0899
अनुमति	-10.09
विरोध	-10.0901
बन्ध	-10.0901
विवाह	-10.0903
केंद्रीय	-10.0904
मंडल	-10.0905
वास्तविक	-10.0905
खुश	-10.091
रुपये	-10.0916
स्थाय	-10.092
भली	-10.0921
विभाज	-10.0933
अर्ज	-10.0963
धारण	-10.0982
वहन	-10.0997
िफ	-10.1028
गाह	-10.1035
मिटा	-10.104
मार्गदर्श	-10.1047
घाट	-10.1074
13	-10.1083
ूँगा	-10.1086
ावा	-10.109
स्क	-10.1093
असफल	-10.1101
समा	-10.1106
योग्य	-10.1106
ियम	-10.1108
डिस्क	-10.1131
ड्र	-10.1133
need	-10.1134
obab	-10.1134
आधुनिक	-10.1134
भविष्य	-10.1134
सार्वजनिक	-10.1134
गृह	-10.1134
व्यापक	-10.1134
प्रयोजन	-10.1134
or	-10.1138
स्था	-10.1147
संशोधन	-10.1153
सक्षम	-10.1155
महीन	-10.116
शोध	-10.1186
नज	-10.1191
आत्मा	-10.1201
रक्षा	-10.1204
ेगी	-10.1212
रखो	-10.1214
उद्	-10.1241
पक	-10.1243
कहो	-10.1246
परीक्षा	-10.1272
वाक	-10.1279
दर्ज	-10.1295
हिर	-10.1305
संरचना	-10.1306
गाड	-10.1325
शीर्ष	-10.1329
मिली	-10.1329
to	-10.1337
ुश	-10.1338
औ	-10.1361
ान्त	-10.1377
श्त	-10.1377
गर्भ	-10.1378
कंप्यूटर	-10.1378
नेटवर्क	-10.1378
समारोह	-10.1378
अध्यक्ष	-10.1379
अर्थात	-10.138
अधिकांश	-10.138
बुद्धि	-10.1382
विजय	-10.1383
डो	-10.1385
चढ	-10.1395
सुरक्ष	-10.1397
बिल्	-10.1401
आदमी	-10.1406
प्रयुक्त	-10.1406
निधि	-10.1412
रखे	-10.1421
दास	-10.1424
यें	-10.1433
ra	-10.1434
मौ	-10.1442
स्वा	-10.1466
युवा	-10.148
बनी	-10.1484
सरल	-10.1499
तरीके	-10.1517
नदी	-10.1523
सिर	-10.1532
आयोज	-10.1537
फु	-10.1547
पीड	-10.1589
सच	-10.159
पैर	-10.1597
ज्ञ	-10.1612
वात	-10.1625
परिषद	-10.1628
पर्यावरण	-10.1628
ईश्वर	-10.1628
ॅ	-10.1628
खाद्य	-10.1628
नाटक	-10.1629
डेटा	-10.163
मुद्द	-10.163
किसान	-10.1632
is	-10.1636
गिज	-10.1637
पात्र	-10.1637
▁–	-10.1638
संभावना	-10.1639
बीमार	-10.1641
हरा	-10.1643
द्यप	-10.1654
शुक्र	-10.1667
अं	-10.1681
प्रभावित	-10.169
पहुंचा	-10.1694
मिलता	-10.1705
एच	-10.1709
अंक	-10.1711
ic	-10.1734
बुला	-10.1769
सेना	-10.1776
लिंग	-10.1792
ूँ	-10.1825
पिता	-10.1828
वायद	-10.1831
समुद्र	-10.1832
ुक	-10.1837
शर्त	-10.1839
चीन	-10.185
खास	-10.185
संग्रह	-10.1851
बुरा	-10.1868
मय	-10.1869
४	-10.1883
कांग्रेस	-10.1884
जहन्नुम	-10.1884
पुरस्कार	-10.1884
भंडार	-10.1884
शीघ्र	-10.1884
संस्करण	-10.1884
कृष्ण	-10.1884
अवश्य	-10.1884
उद्यम	-10.1884
सत्ता	-10.1885
क्षेप	-10.1886
उपबंध	-10.1887
साधारण	-10.1889
आवाज	-10.1892
संसार	-10.1893
उपचार	-10.1894
खूब	-10.1898
संचार	-10.1899
दोष	-10.1901
ग्राहक	-10.1916
अत्यन	-10.1918
on	-10.1922
संस्कृत	-10.1926
वायु	-10.1927
ग्रहण	-10.1932
याँ	-10.1966
धान	-10.1967
ूब	-10.1968
देती	-10.1979
हट	-10.1985
आयात	-10.1997
प्ल	-10.2009
बदला	-10.2013
लेखक	-10.2042
वें	-10.2055
पोर्ट	-10.2065
बदले	-10.2082
माँ	-10.2104
धु	-10.212
ुड	-10.2132
जरूर	-10.2136
शताब्द	-10.2147
संदर्भ	-10.2147
हिन्दी	-10.2147
प्रेष	-10.2147
प्रेर	-10.2148
▁}	-10.2148
कठ	-10.2151
बयान	-10.2153
पन्न	-10.2156
विशाल	-10.2157
पीठ	-10.2159
व्यय	-10.2163
खर्च	-10.2164
▁)।	-10.2167
जीवित	-10.2208
काव्य	-10.2211
त्व	-10.2233
णी	-10.2254
अर	-10.2307
कथा	-10.2317
दीन	-10.2334
म्प	-10.2361
िन्द	-10.2365
कविता	-10.2374
आते	-10.2388
यंत्र	-10.241
छोटा	-10.2417
हृदय	-10.2417
कुंजी	-10.2417
सख्त	-10.2417
अनुच्छेद	-10.2418
समाचार	-10.242
of	-10.2422
दशा	-10.2433
चन	-10.2438
ढंग	-10.244
जाये	-10.2451
खुलत	-10.2455
र्थ	-10.2455
गढ	-10.2466
अभिलेख	-10.2469
ोगे	-10.2469
झु	-10.2471
खान	-10.2492
नियत	-10.2498
ब्ल	-10.2508
le	-10.2517
बैंकों	-10.2538
चलता	-10.2554
ुफ	-10.2592
रीख	-10.2596
क्त	-10.261
परिभाष	-10.2627
मुझ	-10.2633
मूर्ति	-10.2635
वृत्त	-10.2654
मोड	-10.2686
चिह्न	-10.2695
द्वीप	-10.2695
सिस्टम	-10.2695
मोमिन	-10.2695
अत्याचार	-10.2695
शुद्ध	-10.2696
भेद	-10.2696
प्रोग्राम	-10.2696
स्वागत	-10.2697
स्वामी	-10.2697
ठहरा	-10.2698
भाषण	-10.2699
कूट	-10.2704
उतार	-10.2712
मामल	-10.2716
सलाह	-10.2719
गिन	-10.2729
▁¦26	-10.2739
सदन	-10.2746
तर्क	-10.2755
नियुक्त	-10.281
इला	-10.2819
तिथि	-10.282
्ता	-10.2854
सुनिश्च	-10.2856
कार्	-10.2874
लिम	-10.2876
वीर	-10.2941
तट	-10.2945
वल	-10.2958
ल्स	-10.296
मह	-10.2967
करार	-10.2967
...	-10.2971
हिदायत	-10.2981
गुमराह	-10.2981
छोटी	-10.2981
कलकत्त	-10.2981
पांच	-10.2981
घोषणा	-10.2981
अंतर्राष्ट्रीय	-10.2982
वेतन	-10.2983
कार्यालय	-10.2985
गतिविधिय	-10.2987
सागर	-10.2988
छिपा	-10.3009
देखें	-10.3014
रहेंगे	-10.3017
मालिक	-10.3028
ांत	-10.3039
नंबर	-10.3047
किनार	-10.3059
हालत	-10.3061
रोध	-10.3065
बनाएँ	-10.3092
ॉन	-10.3104
वरी	-10.3107
मस	-10.3109
्ल	-10.3112
▁¦14	-10.3115
कदम	-10.3131
हीन	-10.3149
भि	-10.3152
्वा	-10.3163
िज	-10.3169
तेल	-10.3173
गाय	-10.3197
मनो	-10.3206
मानक	-10.3225
प्प	-10.3247
शो	-10.3258
विद्युत	-10.3275
विधेयक	-10.3275
वार्षिक	-10.3275
नैतिक	-10.3275
लघु	-10.3275
जाँच	-10.3275
तिहास	-10.3278
वाई	-10.3287
साधन	-10.3291
ुन	-10.3294
100	-10.3297
पौध	-10.3305
प्रिय	-10.3306
सत्र	-10.3318
प्रकाशित	-10.332
्टर	-10.3346
▁¦201	-10.3358
हज	-10.3372
ष्ठ	-10.3382
प्रसार	-10.3389
संकल्प	-10.3392
ग्रे	-10.3392
काफ	-10.3395
पाए	-10.3401
बध	-10.3402
ताल	-10.3412
टू	-10.3427
1.	-10.344
सिल	-10.3443
विशेषता	-10.3458
डाला	-10.3473
पाई	-10.3478
पूर	-10.3492
माज	-10.3494
ष्	-10.3498
40	-10.3514
ज्ज	-10.3532
इट	-10.3533
संपाद	-10.3533
कृति	-10.3562
ांतर	-10.3564
प्रदर्शन	-10.3566
नियंत्र	-10.3576
शिकायत	-10.3578
दर्शा	-10.3578
धीरे	-10.3578
प्रभुत्व	-10.3578
टुकड	-10.3579
वंश	-10.3579
सिद्धांत	-10.358
अर्थव्यवस्था	-10.358
दुर्	-10.3585
सित	-10.359
खुला	-10.3603
लम्ब	-10.3627
रद्द	-10.364
बैठे	-10.3644
नौ	-10.3644
बजाय	-10.365
विमान	-10.3653
31¦	-10.3661
गवान	-10.3673
देन	-10.3698
सीता	-10.3724
विधान	-10.3732
सज	-10.3758
हानि	-10.3762
जून	-10.3763
ुरान	-10.3763
दिख	-10.3764
िरत	-10.3767
माह	-10.3768
ऑन	-10.3778
रिज	-10.381
रखें	-10.3819
बग	-10.3828
अत	-10.3833
आं	-10.3833
गुना	-10.3849
ुद	-10.3882
बद्ध	-10.3889
कटौती	-10.3891
पत्थर	-10.3891
बावजूद	-10.3891
अपराध	-10.3891
निर्मित	-10.3891
बौद्ध	-10.3891
▁[	-10.3891
सरकश	-10.3892
चंद्र	-10.3892
गैस	-10.3892
स्वच्छ	-10.3893
अनुरोध	-10.3893
स्ट्र	-10.3897
बस्त	-10.3903
अनुप्रयोग	-10.3904
स्वीकृत	-10.3904
ग्रह	-10.3905
ॉप	-10.3908
de	-10.3908
दशक	-10.3909
साझ	-10.3917
हरि	-10.3918
काट	-10.3947
िन्दा	-10.3947
ऊँच	-10.3962
कल्पना	-10.3969
ट्स	-10.3969
मिले	-10.3971
प्राथमिकता	-10.3981
▁¦16	-10.3986
शांति	-10.3989
कोड	-10.3993
वर्णन	-10.3995
मिलकर	-10.3997
विरा	-10.4012
ालय	-10.4015
ma	-10.4033
भूल	-10.4047
नेट	-10.4065
पना	-10.4073
सकें	-10.4074
अता	-10.408
क्ट	-10.4094
ईसा	-10.4096
मुस्	-10.4132
्रि	-10.4133
यम	-10.414
कीमत	-10.4147
जल्द	-10.4154
रिए	-10.4158
शोर	-10.4163
ur	-10.419
>	-10.4195
बारा	-10.42
ाइड	-10.4201
वासी	-10.4204
यूरोप	-10.4209
घोष	-10.4213
आंदोलन	-10.4213
इजरायल	-10.4213
उपयोक्ता	-10.4213
कल्याण	-10.4213
वैश्वि	-10.4213
स्क्रीन	-10.4213
▁¦25¦	-10.4213
परस्पर	-10.4214
रोजगार	-10.4215
छात्र	-10.4215
मिश्र	-10.4215
श्रेणीः	-10.4216
उपयुक्त	-10.4218
गठ	-10.4223
लॉग	-10.4223
भोजन	-10.4225
चुनाव	-10.4226
अंश	-10.4236
▁¤1	-10.4236
न्स	-10.4238
प्राधिकारी	-10.4238
पस	-10.4238
शैली	-10.4243
बोध	-10.4251
पेड	-10.4253
कर्मचारी	-10.4259
कवि	-10.4261
शीर्षक	-10.4278
पं	-10.4284
us	-10.4311
मां	-10.4326
नीतिय	-10.4326
सुख	-10.4328
पाने	-10.4342
कॉ	-10.4348
लै	-10.4377
द्वि	-10.4379
ैसल	-10.4427
ग्री	-10.4432
एशिया	-10.4438
माँग	-10.4449
दस	-10.445
चुने	-10.4465
कक्ष	-10.4476
शिव	-10.4479
वाज	-10.4492
बेह	-10.4513
र्द	-10.4515
घन	-10.4527
;	-10.4529
हिन्दू	-10.4546
गंभीर	-10.4546
समृद्ध	-10.4546
गिरोह	-10.4547
बुनियाद	-10.4547
सचिव	-10.4547
▁¤®	-10.4547
पाकिस्तान	-10.4547
प्राचीन	-10.4547
गुप्त	-10.4548
लोकप्रिय	-10.4548
साहस	-10.4548
मौसम	-10.4549
आकर्ष	-10.455
अंतरराष्ट्रीय	-10.4551
पर्यट	-10.4551
पर्वत	-10.4553
▁{	-10.4553
सीम	-10.4557
ॉन्ट	-10.4564
विफल	-10.4568
प्रचार	-10.4571
उन्ही	-10.4572
अधिकारियों	-10.4573
कुमार	-10.4575
जनक	-10.4576
उभर	-10.4578
दोस्त	-10.4579
निर	-10.4581
रहेगा	-10.4586
दंड	-10.4601
जल्दी	-10.4608
भोग	-10.4608
्ति	-10.4619
उतन	-10.4621
कदा	-10.4625
क्षण	-10.4627
जय	-10.4631
ंगे	-10.4635
सहमत	-10.4647
मानते	-10.4657
प्राण	-10.4678
घट	-10.4682
ानु	-10.4689
सां	-10.4693
ड्ड	-10.4695
at	-10.4698
सड	-10.4715
तलब	-10.4724
रेट	-10.4742
सफ	-10.4778
स्त्र	-10.4797
प्त	-10.4807
ana	-10.4822
संस्कृति	-10.4834
फैल	-10.4844
घटा	-10.4849
मेट	-10.4864
प्रकाशन	-10.4868
उपाय	-10.4871
पूर्ति	-10.4882
द्ध	-10.4882
प्राप्ति	-10.4886
पद्धति	-10.4889
परंपरा	-10.489
७	-10.4891
सप्ताह	-10.4891
स्मृति	-10.4891
सुंदर	-10.4891
महात्मा	-10.4891
तुलना	-10.4891
शून्य	-10.4891
सीधे	-10.4892
मशीन	-10.4892
सत्याप	-10.4893
उत्तम	-10.4894
बोझ	-10.4895
अध्याय	-10.4895
मैदान	-10.4896
मिशन	-10.4897
ाँति	-10.4902
मंच	-10.4902
वाद्य	-10.4903
ध्वनि	-10.4906
निहित	-10.4907
दीवार	-10.4909
मुद्रा	-10.4922
कार्ड	-10.4934
िल्टर	-10.4934
वृत्ति	-10.4942
ाधिकार	-10.4945
आठ	-10.4949
टिंग	-10.495
दिला	-10.4952
दबा	-10.4957
चलते	-10.4959
▁¦192	-10.4965
un	-10.4983
रार	-10.4985
न्यून	-10.4998
हजार	-10.5
चुन	-10.5015
वश	-10.5017
संत	-10.503
हाथों	-10.5044
se	-10.5069
भूति	-10.5072
10	-10.5076
तोड	-10.508
vi	-10.5115
हरू	-10.5124
्ड	-10.5128
चीत	-10.5177
माप	-10.5186
रेशन	-10.5188
न्ध	-10.5193
बॉ	-10.5199
उज	-10.5201
जाएं	-10.5225
नियमों	-10.5231
िक्स	-10.5238
न्दर	-10.524
न्यास	-10.5246
लेन	-10.5247
आदर्श	-10.5248
विद्वान	-10.5248
व्यवसाय	-10.5248
संघर्ष	-10.5248
हिंदू	-10.5248
ोल्यूशन	-10.5248
दृष्टिकोण	-10.5249
निगम	-10.5249
गंगा	-10.5249
उद्घाट	-10.5249
comm	-10.525
संविदा	-10.5251
उपन्यास	-10.5251
गर्म	-10.5252
निर्भर	-10.5253
▁¦198	-10.5253
खिलाफ	-10.5255
जाएंगे	-10.5255
अफ्रीका	-10.5259
पशु	-10.526
उद	-10.526
क्रो	-10.527
घात	-10.5271
धो	-10.528
नियमित	-10.5285
खेती	-10.5285
दह	-10.5288
त्यंत	-10.529
तकनीकी	-10.5295
दर्शन	-10.5297
देय	-10.5299
बदलें	-10.53
करीब	-10.5304
अनक	-10.5318
ed	-10.5337
देखो	-10.5342
तोष	-10.5344
हस्त	-10.5391
कीट	-10.5392
पत्त	-10.5411
इबर	-10.5416
चम	-10.5417
हासि	-10.5425
हरे	-10.5438
बिज	-10.5455
ायिक	-10.5472
बनाना	-10.5474
चेहर	-10.5504
श्र	-10.5526
भु	-10.553
01	-10.5546
भाष	-10.5558
▁/	-10.5558
तें	-10.5573
स्थिर	-10.5575
खाने	-10.5578
विध	-10.5597
इकट्ठ	-10.5619
धार्मिक	-10.5619
बख्श	-10.5619
सांस्कृतिक	-10.5619
तस्वीर	-10.5619
इत्या	-10.5619
जर्मन	-10.5619
बिक्री	-10.5619
तथ्य	-10.5619
दयालु	-10.5619
नसीहत	-10.5619
आउट	-10.5619
सुझा	-10.562
अध्य	-10.5621
अपील	-10.5621
डाटा	-10.5622
लोकतंत्र	-10.5622
सूत्र	-10.5622
हत्या	-10.5622
ावरण	-10.5622
ांति	-10.5623
जायेगा	-10.5623
पोष	-10.5623
मुकदम	-10.5624
निष्ठ	-10.5624
कहेंगे	-10.5625
बाब	-10.5631
ॉर्	-10.5634
यूनिट	-10.5638
गरीब	-10.5638
ूंगा	-10.5638
जोर	-10.5638
फरमा	-10.5641
शाह	-10.5645
नौकर	-10.5653
उतर	-10.5657
लिब	-10.5659
साद	-10.5684
ांश	-10.5688
विष	-10.5693
शासक	-10.5695
कम्पन	-10.572
हान	-10.5731
लौ	-10.5735
पू	-10.5747
दौर	-10.5754
क्षित	-10.5758
बीमा	-10.5763
सरण	-10.5763
अना	-10.578
स्टा	-10.578
देवी	-10.5785
sh	-10.5791
तुर	-10.5793
हिक	-10.5793
लौटा	-10.5796
रेख	-10.5798
विनियम	-10.5799
▁(%	-10.5806
एड	-10.5822
शास	-10.5823
र्र	-10.5827
ध्व	-10.5832
मानसिक	-10.5851
मास	-10.5863
यथा	-10.5865
ट्ट	-10.589
देंग	-10.5891
उन्हे	-10.5892
"	-10.5904
अदा	-10.5917
सन्	-10.5923
चेतन	-10.5927
पान	-10.5928
स्त्री	-10.5951
कपड	-10.5956
समझौत	-10.5959
मान्यता	-10.5975
प्ले	-10.5978
hi	-10.5993
संगत	-10.5995
दायित्व	-10.6002
अद्यतन	-10.6003
प्रोत्साहन	-10.6003
कर्तव्य	-10.6003
प्रतीक्षा	-10.6003
संलग्न	-10.6003
शत्रु	-10.6003
पवित्र	-10.6004
१९	-10.6004
अल्प	-10.6004
आंकड	-10.6004
इंडिया	-10.6004
ब्रिटि	-10.6005
अनुकूल	-10.6005
पंजाब	-10.6007
शैक्ष	-10.6007
कुफ्फ	-10.6008
प्रतिनिधि	-10.6008
▁]	-10.6009
लिंक	-10.6012
ैम	-10.6012
▁\	-10.6014
निया	-10.6014
इयों	-10.6014
विवाद	-10.6021
लक्षण	-10.6022
खाली	-10.6022
▁¦196	-10.6025
्यु	-10.603
चौड	-10.6039
संपूर्ण	-10.6042
प्रभार	-10.6045
अनुवाद	-10.6053
डाउन	-10.6058
रूस	-10.606
महल	-10.6062
her	-10.6067
बुरी	-10.6068
सारा	-10.6069
गहर	-10.6075
लोकन	-10.6075
ॉक्स	-10.6081
me	-10.6081
कहानी	-10.6082
ुदरत	-10.6086
फैला	-10.6091
त्मक	-10.6099
हीम	-10.61
आन	-10.6107
डाय	-10.6122
उठाने	-10.6132
किलो	-10.6146
त्म	-10.6187
ारिक	-10.6219
णिक	-10.6246
पौ	-10.6249
इब	-10.6252
खिल	-10.6257
भक्ति	-10.6276
ii	-10.6277
हू	-10.6277
ार्च	-10.6282
मेंट	-10.6285
तीसर	-10.6287
23	-10.6294
जुला	-10.6299
अत्य	-10.6309
पुस्त	-10.6325
जात	-10.6339
इंटर	-10.6375
ाचार	-10.6381
आयोजन	-10.6383
j	-10.6401
रीति	-10.6403
कश्मीर	-10.6403
भागीदारी	-10.6403
पत्नी	-10.6403
समन्वय	-10.6403
प्रार्थना	-10.6403
संचालन	-10.6403
कनेक्शन	-10.6404
पंक्ति	-10.6404
यूस	-10.6404
कोशिका	-10.6404
पृष्ठभूमि	-10.6405
अनुमोद	-10.6405
ोच्च	-10.6406
संगम	-10.6406
मिनट	-10.6408
पुत्र	-10.6408
विन्यास	-10.6411
बिहार	-10.6411
ग्न	-10.6412
तय	-10.6415
जहाज	-10.6418
जानवर	-10.6418
लिक	-10.6443
दिये	-10.6458
निदेशक	-10.6472
सामान	-10.6474
लम	-10.6475
▁.)	-10.6476
बान	-10.6477
पारित	-10.6481
बेस	-10.6493
मामला	-10.6496
ैत	-10.6504
अप्र	-10.6508
ुबूल	-10.6522
टिक	-10.6529
पाद	-10.6544
आवास	-10.6571
र्जन	-10.6577
स्त्रिय	-10.6579
अफ	-10.6587
रिश्ते	-10.6595
लिखने	-10.6603
गहरा	-10.6603
th	-10.6632
बुल	-10.6634
क्यू	-10.6641
रेश	-10.6647
सुल	-10.6671
रहें	-10.6689
क्लि	-10.6693
सीन	-10.672
आर्	-10.6721
्रस्त	-10.6721
स्वर	-10.6734
नकद	-10.6735
:	-10.6744
परिवर्त	-10.6762
कर्मचार	-10.6768
मुं	-10.6797
िस्तान	-10.6797
–	-10.6802
ch	-10.6818
ख्याल	-10.682
उम्मीद	-10.682
ग्रंथ	-10.682
धैर्य	-10.682
व्याख्या	-10.682
श्रेष्ठ	-10.682
महत्त्व	-10.682
स्तंभ	-10.682
द्वितीय	-10.682
अक्सर	-10.682
ाधिकरण	-10.682
शुभकामना	-10.682
सौंप	-10.6821
निर्देशिका	-10.6823
ठिकान	-10.6824
सम्मिल	-10.6824
सहकारी	-10.6824
अंदर	-10.6824
जिम्मेदार	-10.6826
ing	-10.6827
सुबह	-10.6829
श्रम	-10.683
प्रवाह	-10.6831
ताकत	-10.6846
पार्टी	-10.6847
ियर	-10.6856
संवाद	-10.6862
-1	-10.6866
शिकार	-10.6866
कारा	-10.6893
प्रचल	-10.6907
ट्रैक	-10.6914
्टे	-10.6916
एकत्र	-10.6923
न्ट	-10.6925
नजर	-10.6929
आफ	-10.6937
बेच	-10.6946
po	-10.6953
हेज	-10.6976
माता	-10.6978
कागज	-10.6987
सजद	-10.6988
मई	-10.7006
हिल	-10.7009
ियो	-10.7013
कम्प	-10.704
es	-10.7044
टु	-10.708
मानो	-10.7082
साब	-10.7095
ाणु	-10.7095
वां	-10.7096
उपर	-10.7125
कोष	-10.7137
हल्	-10.7139
तरण	-10.7151
डीए	-10.7173
मिलिय	-10.7177
लय	-10.7177
लगी	-10.7201
आयी	-10.7211
पल	-10.7226
ल्ड	-10.7235
‘	-10.7237
९	-10.7254
μ	-10.7255
ढूंढ	-10.7255
महामहिम	-10.7255
विद्यमान	-10.7255
मस्जिद	-10.7255
माबूद	-10.7255
रौशन	-10.7255
इंजीनियर	-10.7255
ऊंचा	-10.7255
साझीदार	-10.7255
उम्र	-10.7255
परामर्श	-10.7255
तकलीफ	-10.7255
ढांच	-10.7255
अभियान	-10.7256
भौतिक	-10.7256
आरम्भ	-10.7256
जवाहर	-10.7256
कार्रवा	-10.7257
जलवायु	-10.7257
je	-10.7258
गुजरात	-10.7258
▁॰	-10.7258
यहूद	-10.726
प्राप्तकर्ता	-10.7264
दर्द	-10.7267
अज्ञात	-10.7267
साहित्यिक	-10.727
निभा	-10.7271
सीडी	-10.7283
पंचा	-10.7287
धार	-10.729
चाय	-10.7291
रमा	-10.7296
ून	-10.7298
लकड	-10.7301
खुली	-10.7302
दादा	-10.7303
ाकार	-10.7338
रिक्त	-10.7338
वाय	-10.7342
सकेग	-10.7351
आश	-10.7354
सांस	-10.7369
पूछा	-10.7374
बोले	-10.7376
घटक	-10.738
लोगो	-10.7394
शार	-10.74
मं	-10.7402
नष्ट	-10.7421
२००	-10.743
खुले	-10.744
लॉक	-10.7445
तेरा	-10.7446
फ्ल	-10.7458
▁--	-10.7468
प्रशंसा	-10.749
देर	-10.75
दुख	-10.7508
भागों	-10.7527
▁:-	-10.7559
11	-10.7574
ot	-10.7579
लिखी	-10.7594
ब्रा	-10.7598
नामक	-10.7616
ायम	-10.7618
बैक	-10.7636
इफ	-10.7647
तकनीक	-10.7652
बत	-10.7662
गांव	-10.7664
रिश्त	-10.7669
लिखे	-10.7669
शिक्षक	-10.7696
अस्तित्व	-10.7709
आध्यात्मिक	-10.7709
औषध	-10.7709
निरंतर	-10.7709
निष्क्रिय	-10.7709
मोबाइल	-10.7709
वाणिज्य	-10.7709
दीर्घ	-10.7709
सावधान	-10.7709
आबंट	-10.7709
नृत्य	-10.7709
मोहम्म	-10.7709
ग्राफ	-10.7709
अगस्त	-10.771
ख्वाह	-10.771
उत्साह	-10.771
मौलिक	-10.771
कमांड	-10.771
मूल्यांक	-10.771
qu	-10.7711
पसन्द	-10.7711
प्रेरणा	-10.7712
पूज्य	-10.7713
ख्यात	-10.7714
▁¦28	-10.7719
न्हीं	-10.772
जनसंख्या	-10.772
भरोस	-10.7721
घंट	-10.7722
लिपि	-10.7722
आईटी	-10.7722
प्रतिक्रिया	-10.7724
bm	-10.7725
फिल्म	-10.7726
पलट	-10.7727
क्रय	-10.7737
मिलेगी	-10.7739
दावा	-10.775
बरी	-10.7752
दाम	-10.7754
दत्त	-10.776
गठन	-10.7761
बाँ	-10.7772
चैन	-10.7772
संरक्ष	-10.7773
वाल	-10.778
मार्क	-10.7781
लेंगे	-10.7783
जमीन	-10.7784
ब्रि	-10.7784
▁¦80	-10.7786
निदेश	-10.7787
तमिल	-10.7805
द्रव	-10.7818
कैस	-10.7821
भले	-10.7821
बीज	-10.7824
बुर	-10.7832
समर्प	-10.7834
असम	-10.7838
किस्म	-10.784
बहा	-10.7859
op	-10.7877
सम्प	-10.7878
मूल्यों	-10.7889
ाईल	-10.7892
सिन	-10.7911
अवतर	-10.7921
मांस	-10.7927
थित	-10.7933
▁¦21	-10.7935
।	-10.7936
the	-10.7939
लाओ	-10.7966
आरोप	-10.7972
करनेवाले	-10.7975
शुभ	-10.7987
जड	-10.7989
पालि	-10.7991
क्ति	-10.7992
विषयों	-10.7995
नोट	-10.7998
लेता	-10.8002
सदी	-10.8009
पूज	-10.8012
जेल	-10.8019
पेय	-10.803
तुम्हे	-10.8039
el	-10.8049
देवता	-10.8087
नबी	-10.8089
im	-10.8112
ावस्था	-10.8113
जीत	-10.8148
कॉल	-10.8159
यश	-10.8162
गेंद	-10.8168
लेट	-10.8172
मिट	-10.8178
श्रेणी	-10.8181
पुष्टि	-10.8186
विश्लेषण	-10.8186
विश्वसनीय	-10.8186
संक्षिप्त	-10.8186
हथियार	-10.8186
गिरफ्तार	-10.8186
वृक्ष	-10.8186
समग्र	-10.8186
सिविल	-10.8186
शिखर	-10.8186
सिफारिश	-10.8186
मेहरबान	-10.8186
उत्कृष्ट	-10.8186
औलाद	-10.8186
जैव	-10.8186
झाड	-10.8186
छुट्ट	-10.8186
शेख	-10.8188
prh	-10.8188
दैव	-10.8189
जंगल	-10.819
सिक्क	-10.819
uk	-10.8191
वादा	-10.8191
शाखा	-10.8191
प्रभु	-10.8192
संकट	-10.8195
दूध	-10.8195
प्रेस	-10.8196
दोहरा	-10.8198
▁¦29	-10.8199
सराहन	-10.8203
बनाये	-10.8207
घेर	-10.8208
बदलाव	-10.821
पीढ	-10.821
असल	-10.8211
अनुमान	-10.8234
ंदेह	-10.824
पैमान	-10.8245
खण्ड	-10.8249
मस्त	-10.825
आओ	-10.8256
चंद	-10.8274
आंख	-10.8276
योग्यता	-10.8303
पाट	-10.8308
घाटी	-10.8315
कहानिय	-10.8317
डरा	-10.8333
प्रबंधक	-10.8335
अंतर्	-10.8338
मैन	-10.8367
निकलने	-10.8372
ia	-10.8372
उच्चत	-10.8383
ॉँ	-10.8383
सवाल	-10.8409
सहेज	-10.8462
ठो	-10.8483
डु	-10.8499
मारी	-10.8537
स्य	-10.8546
प्रवास	-10.8548
कुर्	-10.8551
आज्ञा	-10.8573
जानने	-10.8578
ावट	-10.8583
ूह	-10.8591
रानी	-10.8596
शख	-10.8628
मुद्र	-10.8634
छिप	-10.8638
अमेरिक	-10.8642
आदम	-10.8652
विविध	-10.8675
दाता	-10.8678
पारि	-10.8683
q	-10.8684
गाँधी	-10.8686
मस्तिष्क	-10.8686
समीक्षा	-10.8686
उपभोक्ता	-10.8686
देखभाल	-10.8686
बिंदु	-10.8686
रजिस्ट्र	-10.8686
सर्वेक्षण	-10.8686
फिलीस्तीन	-10.8686
टैब	-10.8686
जटिल	-10.8686
उन्होने	-10.8686
हिमालय	-10.8686
शरीक	-10.8686
सफेद	-10.8686
ब्याज	-10.8686
चिंता	-10.8687
ation	-10.8687
इकाई	-10.8687
आनन्द	-10.8687
महसू	-10.8687
छू	-10.8687
नियोज	-10.8688
दाखिल	-10.8688
प्रायः	-10.8689
शोथ	-10.869
संबद्ध	-10.8692
मीडिय	-10.8692
संयंत्र	-10.8693
राज्यपाल	-10.8693
विनष्ट	-10.8693
कब्ज	-10.8693
मुंब	-10.8694
कंपनिय	-10.8694
iv	-10.8698
पहलू	-10.8699
सरदार	-10.87
पाठ्य	-10.8701
ol	-10.8702
जादू	-10.8706
क्षति	-10.8706
चैनल	-10.8709
इन्सान	-10.8709
प्रारूप	-10.8709
बोली	-10.873
ौफ	-10.8734
ईमेल	-10.8735
आहार	-10.8742
बहुतेर	-10.8748
विद्यार्थ	-10.8775
सृजन	-10.8778
नेपाल	-10.8787
ज्ञापन	-10.8795
अधिसूच	-10.8801
दीक्षा	-10.8803
फू	-10.8817
उत्पादक	-10.8834
बाहम	-10.8853
अकेल	-10.8854
ऊतक	-10.8857
सुर	-10.8867
टूट	-10.8868
इतने	-10.8869
धारक	-10.8872
चन्द	-10.8877
माम	-10.8879
शाम	-10.8935
लेखन	-10.8954
ंकन	-10.8969
मुक्ति	-10.899
एगा	-10.9027
फिल	-10.9034
co	-10.9051
तात्	-10.9055
02	-10.9057
मेज	-10.9093
शोक	-10.9098
टेन	-10.9136
डेस	-10.9143
थो	-10.915
गौ	-10.9158
अपेक्ष	-10.9172
उठाए	-10.919
ंदन	-10.9205
,000¦	-10.9212
आश्चर्य	-10.9212
कॉन्फ	-10.9212
प्रोत्साहित	-10.9212
मुश्किल	-10.9212
इलेक्ट्रॉनिक	-10.9212
दैनिक	-10.9212
संक्रमण	-10.9212
संवर्धन	-10.9212
श्रद्धा	-10.9212
टैग	-10.9212
स्मारक	-10.9212
इंडियन	-10.9212
प्रतिनिधित्व	-10.9212
हिंसा	-10.9212
▁$	-10.9212
चोट	-10.9213
त्याग	-10.9213
संतुल	-10.9213
साहब	-10.9213
अक्षर	-10.9213
नेअमत	-10.9213
परिस्थितियों	-10.9213
औसत	-10.9213
क्रांति	-10.9213
खतरा	-10.9213
संध्य	-10.9213
अग्रिम	-10.9214
▁!"	-10.9215
2018¦	-10.9215
न्द्रना	-10.9215
विरूद्	-10.9216
हार्द	-10.9217
कमजोर	-10.922
दीजिए	-10.922
फिरऔन	-10.922
कौशल	-10.922
मछल	-10.9222
मिसाल	-10.9222
प्रांत	-10.9224
लानेवालो	-10.9225
प्रतिभूति	-10.9225
प्रसन्नता	-10.9228
पत्रिका	-10.9231
अपमान	-10.9232
हाज	-10.9232
राजस्थान	-10.9237
आजाद	-10.924
2014	-10.924
ौड	-10.9242
मिलती	-10.9252
निकाय	-10.9255
पहन	-10.9255
गांवों	-10.9266
दुआ	-10.9267
मित्रता	-10.9272
समझौता	-10.9275
ऑं	-10.9288
खबर	-10.9291
कारक	-10.9298
असमर्थ	-10.9299
बचाने	-10.9308
ायल	-10.9311
ेरत	-10.9325
टॉ	-10.933
समुद्री	-10.9337
id	-10.9338
ीजिए	-10.934
लिफ	-10.9341
पंथ	-10.9346
अन्तर्	-10.9359
पेज	-10.9359
दिखाये	-10.9359
कालीन	-10.9363
हिस्से	-10.9372
बादशाह	-10.9379
फायद	-10.9383
खुल	-10.9394
मकान	-10.9397
मैने	-10.9426
वर्गों	-10.9437
ct	-10.9445
जुल	-10.9471
युक्ति	-10.9473
होगे	-10.9495
झोंक	-10.9501
सिखा	-10.9503
चुना	-10.951
प्रतिभा	-10.9531
भेजें	-10.9542
ायत	-10.9556
बोस	-10.9562
नोड	-10.9567
उधार	-10.9587
ंजर	-10.9592
बरस	-10.9617
तत्काल	-10.9625
चक्र	-10.9636
कामना	-10.964
▁¦193	-10.9666
सर्वाधिक	-10.968
हिसा	-10.9681
हॉ	-10.9699
चै	-10.9743
-19	-10.9755
नुपात	-10.9758
संस्थाप	-10.9766
ञ	-10.9767
कम्प्यूटर	-10.9767
चुनौती	-10.9767
चेतावनी	-10.9767
डिजिटल	-10.9767
तत्वदर्श	-10.9767
न्यायाधीश	-10.9767
प्रतियोगिता	-10.9767
मर्श	-10.9768
आक्रमण	-10.9768
जहन्न	-10.9768
शैतान	-10.9768
मुनाफ	-10.9768
वर्ध	-10.9768
आनंद	-10.9769
बरदस्त	-10.977
खुल्ल	-10.977
प्रतीत	-10.977
तंत्रिका	-10.9771
सुभाष	-10.9771
ाधीन	-10.9771
दरवाज	-10.9771
बजट	-10.9772
मददगार	-10.9772
मुगल	-10.9773
इज्ज	-10.9773
मुर्द	-10.9774
दाहिन	-10.9774
यूरोपीय	-10.9774
मक्का	-10.9776
बाबू	-10.9777
श्रमिक	-10.9777
फसल	-10.9781
2013¦	-10.9782
क्शन	-10.9782
फैसल	-10.979
फार्म	-10.9797
जिले	-10.98
्कट	-10.9801
उदार	-10.9817
ba	-10.9818
बेल	-10.9871
गणित	-10.9877
शर्ते	-10.9882
बचे	-10.9902
पुस्तकों	-10.9905
रियल	-10.9912
ँग	-10.9916
नमून	-10.9924
िक्र	-10.9945
दिस	-10.9948
iii	-10.9958
बहन	-10.9959
भक्त	-10.996
आएग	-10.9966
sa	-10.998
फूल	-10.9981
बारह	-10.9987
लगाता	-10.9988
रंज	-11.0005
शै	-11.0009
तीसरे	-11.0028
प्रविष्टि	-11.0063
09	-11.0097
ियत	-11.0147
चिप	-11.0162
अभिव्यक्ति	-11.0168
स्तान	-11.017
प्ला	-11.018
प्राथमिक	-11.0186
सब्र	-11.0198
मंज	-11.0225
भौ	-11.0228
ुल्	-11.0229
34	-11.0258
लॉकि	-11.0281
न्तर	-11.0289
हाई	-11.0309
हिमा	-11.0325
सीसी	-11.0332
शाही	-11.0334
india	-11.0356
www	-11.0356
500	-11.0356
detail	-11.0356
आंध्र	-11.0356
उल्लंघन	-11.0356
जम्मू	-11.0356
ब्राह्मण	-11.0356
विद्रोह	-11.0356
शुरुआत	-11.0356
अवज्ञा	-11.0356
भ्रम	-11.0356
प्रतिष्ठा	-11.0356
सर्वोत्त	-11.0356
शिल्प	-11.0356
जोखिम	-11.0356
मेहनत	-11.0356
इजाज	-11.0356
जनरल	-11.0356
कार्यान्वयन	-11.0356
पुस्तकालय	-11.0357
दुर्घटना	-11.0357
सिंच	-11.0357
शिक्षण	-11.0357
अकबर	-11.0357
१५	-11.0358
ाइज	-11.0358
नवान्वेषण	-11.0358
उन्नत	-11.0358
धातु	-11.0358
for	-11.0359
घुस	-11.0359
परीक्षण	-11.0361
मजदूर	-11.0361
खेत	-11.0363
संबोध	-11.0363
चिर	-11.0371
सलाम	-11.0372
तत्	-11.0374
मानवीय	-11.0377
2015	-11.038
अहमद	-11.0388
माइ	-11.039
बटन	-11.0391
com	-11.0392
छूट	-11.0393
बुराई	-11.0395
म्मत	-11.0395
म्भ	-11.0396
कंप	-11.0402
पटल	-11.0406
बाधा	-11.0407
डराने	-11.0409
ईमानवाल	-11.041
निकास	-11.0413
एहद	-11.0416
कुरान	-11.0421
विविधता	-11.0437
शंकर	-11.0438
अनाज	-11.0442
संपादक	-11.045
पंख	-11.0455
सच्चा	-11.0459
तबाह	-11.0466
डिफ	-11.0467
अभाव	-11.0471
लिन	-11.0472
डरते	-11.0474
दावे	-11.0487
आस्था	-11.0489
घरेल	-11.0515
सहज	-11.0521
दार्	-11.0524
िब्ब	-11.0531
शाला	-11.0538
भूख	-11.0549
04	-11.0551
वॉ	-11.0556
अमर	-11.0582
आइ	-11.0593
मियान	-11.0595
▁¦194	-11.0599
सिस	-11.065
अम्	-11.0665
08	-11.0688
आईसी	-11.0719
०००	-11.0732
अन्तर	-11.0759
सोचा	-11.0768
स्टो	-11.0768
ोबार	-11.0773
उर्	-11.0799
निस्	-11.0816
ंतरिक	-11.0834
विद्यार्थियो	-11.087
पोत	-11.0893
त्तर	-11.0925
मंद	-11.0935
फ्री	-11.0959
?	-11.0963
वचन	-11.097
सरो	-11.0973
व्यावस	-11.0973
pres	-11.0975
release	-11.0981
#-#-#-#	-11.0981
आउटपुट	-11.0981
निष्कर्ष	-11.0981
प्रावधान	-11.0981
विपणन	-11.0981
श्रृंखला	-11.0981
सामर्थ्य	-11.0981
▁¦1956¦	-11.0981
ऊंचे	-11.0981
परेशान	-11.0981
ट्यूब	-11.0981
चरित्र	-11.0981
डिजाइन	-11.0981
तन्त्र	-11.0981
गौरव	-11.0981
खींच	-11.0981
कार्यवाही	-11.0981
माइक्रो	-11.0981
इमारत	-11.0981
विनय	-11.0982
आत्मनिर्भर	-11.0982
खराब	-11.0982
ायण	-11.0984
फोटो	-11.0985
चाहेंगे	-11.0985
ॉल्ट	-11.0985
र्द्ध	-11.0985
कार्बन	-11.0986
उलट	-11.0986
ेक्ट्र	-11.0986
press	-11.0987
शिशु	-11.099
प्रतिष्ठि	-11.099
तुझ	-11.099
संभाव	-11.0992
वियत	-11.0992
परीत	-11.0997
ीर्ण	-11.0997
परिसर	-11.1001
बूत	-11.1005
डीपी	-11.101
धारित	-11.101
अखिल	-11.1011
ao	-11.1017
▁/-	-11.1027
भंग	-11.1029
मर्द	-11.103
अंध	-11.1049
’’	-11.1051
आदान	-11.1052
ti	-11.1056
बाई	-11.1083
▁¦202	-11.109
सदस्यता	-11.1091
परवाह	-11.1111
राइट	-11.1115
इंग	-11.1123
जलि	-11.1124
na	-11.1143
2.	-11.1164
सतत	-11.1165
गोया	-11.1168
टेक	-11.1198
नेत्र	-11.1207
कचर	-11.1215
आईडी	-11.126
समानता	-11.1266
रोपण	-11.1272
अस्था	-11.1308
सहेजे	-11.1309
विदा	-11.1348
दस्त	-11.1362
ाएँगे	-11.137
फेंक	-11.1387
वासियों	-11.1398
रंपरि	-11.1413
आस्ति	-11.1413
खाओ	-11.1445
ाबू	-11.1448
टाल	-11.1463
प्ट	-11.1486
िश्त	-11.151
ौल	-11.1512
कहेग	-11.1514
सिफ	-11.1518
सदा	-11.1538
कल्पि	-11.155
दवा	-11.1552
िगर	-11.1607
ज्ञात	-11.1621
mb	-11.1622
'	-11.1626
\	-11.1629
ङ	-11.1638
स्वाद	-11.1641
शैल	-11.1643
बूझ	-11.1645
छुट	-11.1646
विद्या	-11.1647
info	-11.1647
जागरूक	-11.1647
प्रासंगिक	-11.1647
विष्णु	-11.1647
स्क्रिप्ट	-11.1647
गंतव्य	-11.1647
प्रयत्न	-11.1647
ब्रह्म	-11.1647
वरिष्ठ	-11.1647
सभ्यता	-11.1647
सूक्ष्म	-11.1647
फ्रांस	-11.1647
स्पर्श	-11.1647
पाँच	-11.1647
फरवरी	-11.1647
पाइप	-11.1647
सन्तान	-11.1648
स्नातक	-11.1648
उद्यान	-11.1648
ब्राउज	-11.1648
संयोज	-11.1648
बांध	-11.1648
सेक्टर	-11.1648
मंजूर	-11.1648
तलाश	-11.1649
मुकाबल	-11.1649
आबादी	-11.1649
▁—	-11.1649
दुकान	-11.1649
कर्ण	-11.165
जेक्ट	-11.165
रंगमंच	-11.165
सम्भव	-11.1651
१०	-11.1651
रणनीति	-11.1651
विशेषज्ञ	-11.1652
ठहरे	-11.1653
वेशन	-11.1655
ोत्तर	-11.1655
नस्ल	-11.1656
जिहा	-11.1656
दिव्य	-11.1657
2016¦	-11.1657
बायो	-11.1659
मुड	-11.1659
निवेद	-11.1659
शस्त्र	-11.166
विधाय	-11.166
-20	-11.166
दलील	-11.166
प्रतिवाद	-11.1666
डूब	-11.1668
प्रौ	-11.1668
प्रतिफल	-11.1669
आग्रह	-11.167
खून	-11.1672
ेंद्र	-11.1677
रेडियो	-11.1678
टिप्पणी	-11.1679
कहलात	-11.1683
बचत	-11.1683
दरबार	-11.1686
स्थग	-11.1686
चोर	-11.1687
सकेंगे	-11.1696
रूरत	-11.1698
गुल	-11.1709
िस्म	-11.1722
मध्यम	-11.1727
आखिर	-11.1735
इंच	-11.1736
सौर	-11.1746
सूर्य	-11.1753
सोस	-11.1754
नदिय	-11.1763
सेटिंग	-11.1768
सवार	-11.1776
आमंत्र	-11.1777
प्रशिक्ष	-11.1794
मौत	-11.1797
प्राय	-11.1802
अहल	-11.1812
जापान	-11.1813
सचेत	-11.1818
पत्ति	-11.1858
रचनात्मक	-11.1868
con	-11.187
ta	-11.1879
पोस्ट	-11.1904
परमाण	-11.1909
प्रोफ	-11.1962
शिक्ष	-11.1963
39	-11.1965
नहरे	-11.1988
कौ	-11.2008
एंड	-11.2018
दुखद	-11.206
पृ	-11.207
वैस	-11.2115
वली	-11.2129
दाद	-11.2135
टेल	-11.217
मोद	-11.2199
ऊँ	-11.2222
अनुज्ञा	-11.2226
दायर	-11.2231
ex	-11.2244
ादत	-11.2247
सशक्त	-11.2255
गेट	-11.227
are	-11.2278
चक्	-11.2296
ोत्	-11.2326
कैल	-11.2327
खुर	-11.234
(	-11.2344
प्रदूष	-11.2356
िम्मे	-11.236
विद्यालय	-11.2361
चिकित्सक	-11.2362
	-11.2362
अस्पताल	-11.2362
क्रियाकलाप	-11.2362
ग्रन्थ	-11.2362
पृथ्वी	-11.2362
प्रयोक्ता	-11.2362
मुलाकात	-11.2362
मुसीबत	-11.2362
मॉडल	-11.2362
आँकड	-11.2362
संतुष्ट	-11.2362
इनपुट	-11.2362
घुमा	-11.2362
सीआरए	-11.2362
दुःख	-11.2362
प्रिंट	-11.2362
बाह्य	-11.2362
कर्नाटक	-11.2362
हिन्दुस्तान	-11.2362
प्रसंग	-11.2362
चिन्ह	-11.2362
अभिगम	-11.2362
पुराण	-11.2362
संभाल	-11.2362
जादूगर	-11.2363
अय्य	-11.2363
स्विच	-11.2363
ेश्वर	-11.2363
उपेक्ष	-11.2363
वसूल	-11.2364
निर्माता	-11.2364
सम्बंध	-11.2364
अनुसूचित	-11.2364
इंग्लै	-11.2364
चन्द्र	-11.2365
इकाइय	-11.2366
खतरे	-11.2367
राजधान	-11.2369
स्टेशन	-11.2369
प्रतिबद्ध	-11.2369
चावल	-11.2371
विनिम	-11.2373
प्रवर्तन	-11.2373
प्रतिबंध	-11.2373
वकील	-11.2373
काउंट	-11.2374
पादप	-11.2375
मुशर	-11.2375
अहं	-11.2376
मासिक	-11.2377
घूम	-11.2378
प्रोटोक	-11.2379
संचालि	-11.238
स्कीम	-11.2381
आपूर्ति	-11.2383
स्पति	-11.2383
अनुदान	-11.2384
शादी	-11.2385
पारदर्श	-11.2394
घिर	-11.2395
भर्त	-11.2395
जैन	-11.2397
ईसाई	-11.2397
सेवाएं	-11.2403
शिला	-11.2404
वार्ता	-11.2407
चंड	-11.2414
दरिया	-11.2419
पाओ	-11.242
वंच	-11.2439
छुपा	-11.2442
सारण	-11.2446
मेहर	-11.2448
छाप	-11.2459
ाशय	-11.2527
कूल	-11.2532
ho	-11.2534
प्लेट	-11.2539
.09.201	-11.2539
ाहौल	-11.2568
दूँ	-11.2571
ावधि	-11.2576
सूख	-11.2597
ईरान	-11.2649
यूँ	-11.2663
डालें	-11.2673
लाएँगे	-11.2674
प्रविष्ट	-11.2731
ोक्त	-11.2747
इल्	-11.2773
60¦	-11.2775
थि	-11.2797
प्रभा	-11.2798
इंड	-11.2817
अक्षम	-11.2859
एंगे	-11.2894
बूल	-11.2903
पक्	-11.3002
सूचित	-11.3034
ग्राह	-11.305
जायें	-11.3061
साम्राज्य	-11.3078
संशोध	-11.3079
प्राधिकार	-11.308
पंच	-11.3085
व्यवस्थ	-11.309
प्रसन्न	-11.3107
गतिविधि	-11.3117
बुद्ध	-11.3118
निशानिय	-11.3129
शिष्ट	-11.313
कार्यान्व	-11.313
¬	-11.3131
एक्सचेंज	-11.3131
निष्पादन	-11.3131
व्युत्पन्न	-11.3131
सॉफ्टवे	-11.3131
निवारण	-11.3131
पासवर्ड	-11.3131
बल्लेबाज	-11.3131
कच्च	-11.3131
बूढ	-11.3131
यन्त्र	-11.3131
साझेदार	-11.3131
मजबूर	-11.3131
अक्तू	-11.3131
आचार्य	-11.3131
ट्ठ	-11.3131
पिछड	-11.3131
हिंदी	-11.3131
सैनिक	-11.3131
टेलीफ	-11.3131
अर्ध	-11.3131
िल्म	-11.3131
संकलन	-11.3131
मराठ	-11.3131
टाइम	-11.3131
निर्वाचन	-11.3131
संहिता	-11.3131
उपाधि	-11.3131
अदालत	-11.3131
क्रिकेट	-11.3132
अभ्यास	-11.3132
कठिनाइय	-11.3132
बृह	-11.3132
अग्नि	-11.3132
जन्नत	-11.3132
१७	-11.3132
सम्पाद	-11.3133
कनेक्ट	-11.3134
समापन	-11.3134
उत्सव	-11.3135
चिन्त	-11.3136
निराश	-11.3136
अनदेख	-11.3136
रहस्य	-11.3136
कालेज	-11.3137
कॉपी	-11.3138
भूष	-11.3139
सिंध	-11.314
गुफा	-11.314
व्यस्त	-11.3141
▁¦0.	-11.3142
उपयोगकर्ता	-11.3142
द्रव्य	-11.3144
रुचि	-11.3144
प्रान्त	-11.3146
▁¦2010	-11.3147
निगरा	-11.315
सीधा	-11.3151
समावेश	-11.3152
स्वर्ग	-11.3152
उपर्युक	-11.3153
समुच	-11.3154
ाएगा	-11.3158
खत्म	-11.3161
आशु	-11.317
फोर्	-11.3173
संपद	-11.3173
मुच	-11.3174
दीवान	-11.3193
बांस	-11.3193
गुरू	-11.3197
गुजर	-11.3198
फिन	-11.3206
मादा	-11.3208
जाओग	-11.3214
च्छिक	-11.3222
दंत	-11.3227
कृत्य	-11.3232
कलाकार	-11.3237
तालाब	-11.3239
अलबत	-11.3246
टर्न	-11.3248
पूछें	-11.3262
ya	-11.3284
ौलत	-11.3313
ायदा	-11.3316
वृद्ध	-11.3362
thi	-11.339
हाइ	-11.3399
दर्शक	-11.3436
वार्	-11.3462
निष्	-11.3473
if	-11.3527
ther	-11.3557
बिट	-11.3633
अंतरि	-11.3688
38	-11.3722
अन्तर्ग	-11.3751
90¦	-11.3773
टेड	-11.3809
dent	-11.3813
मंत्रण	-11.3823
टेबल	-11.3918
ice	-11.392
म्मा	-11.3924
{	-11.3946
ृष्टि	-11.3948
िलाफ	-11.3951
िरऔन	-11.3951
फोट	-11.3959
पश्च	-11.3963
भ्रष्ट	-11.3964
...............	-11.3964
	-11.3964
आलोचना	-11.3964
औपचारिक	-11.3964
ड्राइव	-11.3964
दुश्मन	-11.3964
वास्तुकला	-11.3964
वैष्ण	-11.3964
आजीविका	-11.3964
पैरामीटर	-11.3964
बिन्दु	-11.3964
लाइसेंस	-11.3964
पब्लिक	-11.3964
पीडीएफ	-11.3964
सैन्य	-11.3964
परिचय	-11.3964
प्लगइन	-11.3964
पेंशन	-11.3964
साक्ष्य	-11.3964
स्मरण	-11.3964
हिंदुस्तान	-11.3964
गाँव	-11.3964
खिलाड	-11.3964
पंडित	-11.3964
झुठलाओग	-11.3965
मुल्क	-11.3965
सर्ग	-11.3965
१९९	-11.3965
अकादम	-11.3965
साक्षी	-11.3965
म्प्रदाय	-11.3965
गंध	-11.3965
पचास	-11.3965
सटीक	-11.3965
▁=	-11.3965
संग्रहालय	-11.3965
प्यार	-11.3966
तत्त्व	-11.3966
ction	-11.3966
ट्रांस	-11.3966
ुर्वेद	-11.3966
शराब	-11.3966
ग्लोब	-11.3966
नवाचार	-11.3966
विनाश	-11.3966
कृतज्ञ	-11.3966
१८	-11.3967
डिग्री	-11.3967
व्याकरण	-11.3968
wea	-11.3968
होटल	-11.3968
प्रजातिय	-11.3969
त्सव	-11.3969
प्रेत	-11.3969
सुसंगत	-11.397
आदत	-11.397
बचपन	-11.3971
जयंत	-11.3971
प्रदूषण	-11.3971
▁¦2008	-11.3971
अपवाद	-11.3971
इराद	-11.3974
हार्ड	-11.3975
वर्गीकरण	-11.3976
▁¦2011	-11.3976
ङ्	-11.3976
टिकट	-11.3976
मृद	-11.3977
रीक्षण	-11.3978
उदय	-11.3979
कुशलता	-11.3982
ाउंड	-11.3985
कुफ्	-11.3986
कामगार	-11.3987
अधिकरण	-11.3991
फूँक	-11.3992
आगमन	-11.3994
सच्चाई	-11.3997
सितार	-11.3997
आइए	-11.3998
उभार	-11.3998
क्लब	-11.3999
चैत	-11.4004
cd	-11.4008
आकृति	-11.4013
भटक	-11.4028
आरक्ष	-11.4037
धीम	-11.4041
आपात	-11.4046
पूर्ववर्	-11.4058
अमरीक	-11.4066
बुराइय	-11.4094
नुमा	-11.4099
वगै	-11.4106
48¦	-11.4111
ट्रै	-11.4114
मूर्त	-11.4153
अस्थि	-11.4175
ter	-11.4177
बज	-11.4217
नवीन	-11.4255
पैस	-11.4283
िमाग	-11.4285
परिकल्प	-11.4305
use	-11.4306
समाजवाद	-11.4337
कॉम	-11.4373
दांत	-11.4381
बौ	-11.4394
िपत्र	-11.4398
49	-11.4438
ादिर	-11.4446
ारिश	-11.4454
मंत्र	-11.4478
वाक्य	-11.4478
त्वर	-11.4494
िणी	-11.4525
ामक	-11.4583
लटक	-11.4586
प्रशांत	-11.4601
मणि	-11.4698
सतह	-11.4759
कल्प	-11.4777
यांत्रिक	-11.4798
▁¦191	-11.4815
निपट	-11.4827
पार्ट	-11.4835
संगठ	-11.4847
चर्च	-11.4848
	-11.4873
अब्दुल्ला	-11.4873
आश्वासन	-11.4873
ऍ	-11.4873
एहसान	-11.4873
कीटनाशक	-11.4873
पार्श्व	-11.4873
फरमाबरदार	-11.4873
पुरूष	-11.4873
पृथक	-11.4873
वृक्क	-11.4873
अवधारणा	-11.4873
मौजिज	-11.4873
शिष्य	-11.4873
सुपुर्द	-11.4873
कार्यकलाप	-11.4873
परिचालन	-11.4873
पुष्प	-11.4873
हँसी	-11.4873
आह्वा	-11.4873
बाध्य	-11.4873
समायोज	-11.4873
नारायण	-11.4873
फौज	-11.4873
मधुम	-11.4873
मंडप	-11.4874
कॉलेज	-11.4874
इंसान	-11.4874
तुर्की	-11.4874
डब्लू	-11.4874
वरीयता	-11.4874
सीधी	-11.4874
सद्भाव	-11.4874
याचिका	-11.4875
अपीलार्थ	-11.4875
चुपके	-11.4875
शुरूआत	-11.4875
केडीई	-11.4875
उल्ट	-11.4875
सम्बद्ध	-11.4875
प्रयोगशाला	-11.4876
समकालीन	-11.4876
दक्षता	-11.4876
पैकेज	-11.4877
अभिदाता	-11.4877
tel	-11.4878
रिकार्ड	-11.4878
▁¦1961	-11.4878
उत्तरदाय	-11.4879
ह्रा	-11.488
सब्ज	-11.488
द्रास	-11.488
सुन्दर	-11.488
तीव्र	-11.488
वृति	-11.488
स्वचाल	-11.4881
cons	-11.4882
व्यक्तित्व	-11.4883
अटल	-11.4883
कथन	-11.4884
संगणन	-11.4884
प्रदाता	-11.4886
सौदा	-11.4886
साइक	-11.4886
फ्टवे	-11.4887
2001¦	-11.4889
छंद	-11.4896
भत्त	-11.4896
पीएम	-11.4898
सीरिया	-11.4899
ेम्स	-11.4899
गन्ना	-11.4905
परिस्थिति	-11.4905
इंट	-11.4907
झील	-11.491
इराक	-11.4917
िंदा	-11.4918
रण्य	-11.4929
डुब	-11.4948
फॉर्म	-11.4959
▁¦33	-11.4967
संचय	-11.5069
आज्ञाकार	-11.5085
श्रोत	-11.509
टोप	-11.5092
मूहि	-11.5122
मंत्रि	-11.5203
अभिव्यक्त	-11.523
्टिन	-11.5248
जरिय	-11.5361
र्पित	-11.5429
एजेंस	-11.5485
उत्पा	-11.5494
निचल	-11.5561
we	-11.5604
एसआई	-11.5626
सृज	-11.5686
ालिका	-11.58
भोज	-11.5836
लैण्ड	-11.5859
सूचक	-11.5861
हिन्दु	-11.5873
5,000	-11.5873
चुनौतिय	-11.5873
प्रतिस्पर्ध	-11.5873
भ्रंश	-11.5873
मुहम्मद	-11.5873
व्यावहारिक	-11.5873
typ	-11.5873
दिलचस्प	-11.5873
निःशुल्क	-11.5873
विद्वत	-11.5873
generic	-11.5873
आकांक्षा	-11.5873
विकलांग	-11.5873
सौभाग्य	-11.5873
संकीर्ण	-11.5873
परम्परा	-11.5873
सन्देह	-11.5873
क्रमांक	-11.5873
हफ्त	-11.5874
दरख्त	-11.5874
ance	-11.5874
षेध	-11.5874
ड्राफ	-11.5874
निर्गम	-11.5874
पर्दा	-11.5874
पथभ्रष्ट	-11.5874
नागरी	-11.5874
यथार्थ	-11.5874
अनन्त	-11.5875
अपशिष्ट	-11.5875
आभास	-11.5875
सिद्धान्त	-11.5875
डॉक्टर	-11.5876
१४	-11.5876
चाँद	-11.5876
उत्तरदायित्व	-11.5876
▁¦2006¦	-11.5877
परंपरागत	-11.5877
परिश्रम	-11.5878
स्पेन	-11.5878
खुशहाल	-11.5878
२०	-11.5878
विशेषाधिकार	-11.5878
अनुयाय	-11.5878
कुफ्फार	-11.5879
फर्म	-11.588
पद्धतियों	-11.588
लैंग	-11.588
महाराजा	-11.588
मातृ	-11.5881
चानक	-11.5882
स्वार्थ	-11.5884
डाक्टर	-11.5885
एनआर	-11.5885
▁¦2019	-11.5886
अभ्य	-11.5886
टेढ	-11.5887
सर्विस	-11.5888
क्रियान्व	-11.5888
डेयर	-11.5889
निगाह	-11.5889
जनजाति	-11.5892
कामयाब	-11.5894
झेल	-11.5894
स्वदेशी	-11.5902
सिंगा	-11.5902
ॉर्ट	-11.5914
विवेक	-11.5956
रावण	-11.5973
ढील	-11.5985
चश्म	-11.6022
per	-11.6096
▁¦189	-11.6156
ाइश	-11.6217
स्टार	-11.6299
translate	-11.6309
शोषण	-11.6367
िकेट	-11.6424
रखनेवाल	-11.6443
ेनिस	-11.6452
राष्ट्रवाद	-11.6491
बस्तिय	-11.6499
फरिश्त	-11.6583
नवीनत	-11.6621
मिलेग	-11.6664
्ट्रेट	-11.6665
uri	-11.6846
ोल्ड	-11.6881
क्यो	-11.6887
कुशल	-11.696
]	-11.6966
&	-11.6967
िम्मेदार	-11.697
शल्य	-11.6974
च्छेद	-11.6982
but	-11.6984
ubl	-11.6984
नुकसान	-11.6984
प्राधिकृत	-11.6984
प्रारम्भ	-11.6984
फ्रेम	-11.6984
लॉन्च	-11.6984
वसीयत	-11.6984
वैयक्ति	-11.6984
संवेदनशील	-11.6984
ॆ	-11.6984
चट्टान	-11.6984
पेट्रोल	-11.6984
रेगिस्तान	-11.6984
सूँघ	-11.6984
स्वप्न	-11.6984
एजेन्स	-11.6984
शरणार्थ	-11.6984
app	-11.6984
टाइप	-11.6984
औजार	-11.6985
धूप	-11.6985
गर्दन	-11.6985
सुल्तान	-11.6985
वर्मा	-11.6985
श्लेष	-11.6985
चिल्ला	-11.6985
.06.201	-11.6985
गर्भाशय	-11.6985
मेजबान	-11.6985
पैटर्न	-11.6985
गुलाम	-11.6986
अखबार	-11.6986
बूट	-11.6986
मणिपुर	-11.6986
out	-11.6986
संकुच	-11.6988
जानबूझ	-11.6988
परिवर्ध	-11.6988
तख्त	-11.6988
व्यष्टि	-11.6988
आईआईटी	-11.6988
मध्यस्थ	-11.699
समेक	-11.699
मोर्च	-11.6991
अनधिक	-11.6991
कस्म	-11.6991
age	-11.6991
्चय	-11.6992
इम्त	-11.6994
बंब	-11.6995
▁¦2003	-11.6996
न्यवाद	-11.6998
पहलुओ	-11.6998
नाभिक	-11.6999
मसीह	-11.7
स्टेट	-11.7003
बंगल	-11.7007
टेक्स	-11.7011
कंध	-11.7032
कतरा	-11.704
जायेंगे	-11.7044
चरिता	-11.7048
साम्राज्यवाद	-11.7063
निपटान	-11.7065
शेर	-11.7086
दिसम्ब	-11.7111
.04.201	-11.726
▁¦1000	-11.7291
नतीज	-11.73
निर्वा	-11.733
आस्तिय	-11.7427
ाइब्र	-11.7608
ुष्क	-11.7676
धिष्ठ	-11.7745
फॉर	-11.8026
टिप्पण	-11.8175
िवेश	-11.8197
आवश्य	-11.8201
आतंक	-11.8219
व्रत	-11.8225
नवान्वेष	-11.8229
gtk	-11.8234
अब्दुल	-11.8234
link	-11.8234
	-11.8234
अद्भु	-11.8234
असंख्य	-11.8234
एकाग्र	-11.8234
एख्ते	-11.8234
ख्तियार	-11.8234
ढूँढ	-11.8234
ध्रुव	-11.8234
ब्रैसेरो	-11.8234
सहिष्णु	-11.8234
सांप्रदायिक	-11.8234
सौंदर्य	-11.8234
हस्तांतरण	-11.8234
color	-11.8234
गोविंद	-11.8234
दुर्भाग्य	-11.8234
ॊ	-11.8234
_	-11.8842
	-11.9657
	-11.9661
ळ	-11.9663
!	-12.1312
|	-12.133
	-12.133
	-12.133
·	-12.133
é	-12.133
॰	-12.3312
*	-12.333
	-12.333
£	-12.333
©	-12.333
॥	-12.333
’	-12.5508
#	-12.5809
¥	-12.5812
	-12.583
§	-12.583
ऎ	-12.583
}	-12.9145
”	-12.9145
°	-12.9157
¢	-12.9163
—	-13.4145
“	-13.4145
	-13.4163
	-13.4163
̃	-13.4163
	-13.4163
=	-14.4146
`	-14.4146
$	-14.4146
[	-14.4146
+	-14.4146
@	-14.4146
~	-14.4147
	-14.4148
¶	-14.4149
¡	-14.415
	-14.4151
	-14.4152
«	-14.4153
	-14.4154
̄	-14.4155
̈	-14.4156
̧	-14.4157
®	-14.4158
¿	-14.4158
<	-14.4159
⁄	-14.416
7	-14.4161
5	-14.4162
ş	-14.4163
	-14.4163
	-14.4163
	-14.4163
	-14.4163
×	-14.4163
î	-14.4163
ò	-14.4163
þ	-14.4163
ĺ	-14.4163
ॄ	-14.4163
॓	-14.4163
‐	-14.4163
₹	-14.4163
¤	-14.4163
ą	-14.4163
