<pad>	0
</s>	0
<unk>	0
▁p	-0
ti	-1
ai	-2
ri	-3
os	-4
▁k	-5
▁s	-6
in	-7
au	-8
as	-9
▁t	-10
ar	-11
ir	-12
al	-13
▁n	-14
is	-15
im	-16
an	-17
en	-18
▁d	-19
am	-20
us	-21
▁v	-22
▁ir	-23
ei	-24
at	-25
▁b	-26
ad	-27
om	-28
ij	-29
es	-30
▁m	-31
ro	-32
ių	-33
on	-34
ės	-35
ek	-36
▁g	-37
tin	-38
oj	-39
er	-40
uri	-41
li	-42
ra	-43
▁š	-44
▁su	-45
▁į	-46
▁j	-47
▁kad	-48
eik	-49
▁pa	-50
tų	-51
▁E	-52
tik	-53
▁pri	-54
či	-55
iš	-56
▁r	-57
yb	-58
▁ne	-59
aus	-60
▁a	-61
em	-62
▁l	-63
um	-64
st	-65
uo	-66
▁pas	-67
▁T	-68
av	-69
uro	-70
ėl	-71
et	-72
▁iš	-73
▁at	-74
▁P	-75
rin	-76
▁tai	-77
▁kuri	-78
urop	-79
ki	-80
ijos	-81
▁Europ	-82
or	-83
aug	-84
arb	-85
ta	-86
▁K	-87
ant	-88
to	-89
▁ši	-90
ur	-91
▁Europos	-92
▁bū	-93
ži	-94
imo	-95
ėj	-96
el	-97
end	-98
▁y	-99
ais	-100
▁ap	-101
id	-102
▁ž	-103
▁vis	-104
eis	-105
omis	-106
yv	-107
▁gal	-108
▁pat	-109
už	-110
▁dėl	-111
gi	-112
▁pr	-113
▁pro	-114
▁tik	-115
▁už	-116
▁po	-117
▁kai	-118
ie	-119
ink	-120
ab	-121
min	-122
▁to	-123
oje	-124
ym	-125
ien	-126
▁yra	-127
yti	-128
▁S	-129
cij	-130
ėm	-131
eš	-132
▁-	-133
usi	-134
tu	-135
ak	-136
ok	-137
un	-138
aik	-139
iek	-140
▁val	-141
čiau	-142
uos	-143
si	-144
tas	-145
imą	-146
io	-147
▁re	-148
▁in	-149
▁teis	-150
ia	-151
pr	-152
imas	-153
tr	-154
▁sk	-155
yk	-156
▁sv	-157
▁A	-158
▁B	-159
▁pir	-160
ui	-161
ama	-162
▁turi	-163
laus	-164
aud	-165
▁par	-166
ci	-167
▁f	-168
▁pad	-169
▁M	-170
gal	-171
ūs	-172
lam	-173
▁Komis	-174
styb	-175
auj	-176
▁reik	-177
ing	-178
te	-179
ame	-180
tis	-181
vo	-182
lamen	-183
rim	-184
ąj	-185
▁(	-186
ung	-187
od	-188
▁valstyb	-189
ys	-190
čių	-191
cijos	-192
minink	-193
il	-194
toj	-195
ams	-196
▁daug	-197
▁J	-198
ik	-199
inti	-200
▁šal	-201
iu	-202
▁V	-203
▁sav	-204
až	-205
▁veik	-206
▁kaip	-207
▁klaus	-208
▁nes	-209
je	-210
kai	-211
▁taip	-212
tar	-213
▁svarb	-214
▁bend	-215
ari	-216
▁lab	-217
▁poli	-218
iai	-219
and	-220
▁per	-221
tą	-222
ėtų	-223
aneš	-224
▁N	-225
ime	-226
ija	-227
ąjung	-228
og	-229
ūsų	-230
ūr	-231
▁Par	-232
sti	-233
▁o	-234
▁D	-235
▁darb	-236
uvo	-237
▁Parlamen	-238
▁tur	-239
▁Tai	-240
▁praneš	-241
▁ES	-242
▁Sąjung	-243
tos	-244
▁did	-245
ov	-246
ans	-247
ėti	-248
▁kon	-249
▁2	-250
▁būti	-251
amas	-252
▁pirminink	-253
esn	-254
▁nar	-255
yje	-256
▁G	-257
▁būtų	-258
▁sus	-259
ol	-260
▁Š	-261
▁ats	-262
dži	-263
tat	-264
▁nor	-265
▁pasi	-266
yg	-267
▁man	-268
▁pag	-269
iau	-270
jų	-271
uom	-272
me	-273
▁savo	-274
▁nep	-275
umo	-276
mon	-277
eli	-278
eg	-279
▁ek	-280
▁vien	-281
▁labai	-282
ami	-283
▁apie	-284
inių	-285
ios	-286
oms	-287
▁buvo	-288
tai	-289
▁ki	-290
eng	-291
rink	-292
ej	-293
▁dar	-294
▁dal	-295
anči	-296
▁bendr	-297
sl	-298
▁siek	-299
uk	-300
▁susi	-301
ūl	-302
▁tar	-303
ems	-304
emon	-305
šk	-306
ties	-307
ačiau	-308
▁R	-309
ul	-310
▁pak	-311
▁galim	-312
tim	-313
auk	-314
▁laik	-315
▁ar	-316
ybos	-317
▁prie	-318
ius	-319
eig	-320
▁met	-321
onom	-322
▁mūsų	-323
iz	-324
ėčiau	-325
▁priemon	-326
▁tr	-327
ist	-328
▁įv	-329
ank	-330
▁pl	-331
alb	-332
tink	-333
▁politik	-334
▁20	-335
▁nuo	-336
▁Komisijos	-337
inės	-338
ekt	-339
▁L	-340
ed	-341
tikrin	-342
amos	-343
▁Tar	-344
pa	-345
aid	-346
▁nari	-347
▁spr	-348
ėms	-349
iaus	-350
▁ekonom	-351
avimo	-352
tum	-353
▁ver	-354
▁pirmininke	-355
ome	-356
uoti	-357
▁rink	-358
oti	-359
men	-360
▁I	-361
raš	-362
one	-363
oma	-364
inans	-365
▁veiks	-366
ori	-367
ili	-368
vir	-369
▁nauj	-370
▁bet	-371
▁mok	-372
▁proc	-373
▁užtikrin	-374
als	-375
imų	-376
cial	-377
▁kom	-378
▁bus	-379
▁aps	-380
▁finans	-381
ap	-382
▁gr	-383
▁mes	-384
orm	-385
isk	-386
▁kar	-387
jos	-388
▁naud	-389
žv	-390
acij	-391
yst	-392
ent	-393
▁net	-394
▁sri	-395
▁tarp	-396
ang	-397
▁pasiūl	-398
▁es	-399
ums	-400
rind	-401
▁1	-402
▁reikal	-403
▁gyv	-404
ymo	-405
▁pav	-406
ėjo	-407
odėl	-408
eri	-409
bl	-410
▁str	-411
▁są	-412
▁sprend	-413
▁žmon	-414
abar	-415
ter	-416
▁"	-417
ch	-418
var	-419
ėk	-420
▁skir	-421
▁tikr	-422
riz	-423
▁nus	-424
▁var	-425
▁sud	-426
▁kurios	-427
uoj	-428
▁pateik	-429
▁vyk	-430
▁kalb	-431
▁jų	-432
gyv	-433
▁gali	-434
▁pagrind	-435
▁jau	-436
▁reikia	-437
lik	-438
imus	-439
▁so	-440
gr	-441
▁pagal	-442
▁kurie	-443
▁norėčiau	-444
▁valstybės	-445
tarim	-446
imu	-447
▁Sąjungos	-448
▁taik	-449
ektyv	-450
▁sieki	-451
▁dir	-452
blem	-453
oki	-454
form	-455
▁prieš	-456
uomen	-457
▁darbo	-458
istem	-459
tus	-460
tyje	-461
eči	-462
tori	-463
▁ger	-464
▁galimyb	-465
stitu	-466
iškai	-467
erg	-468
uose	-469
enk	-470
▁pirm	-471
kur	-472
▁Komisija	-473
ini	-474
gyvend	-475
tume	-476
▁problem	-477
▁sistem	-478
▁ak	-479
▁susij	-480
▁pal	-481
▁sut	-482
ting	-483
▁turėtų	-484
ag	-485
▁Parlamento	-486
▁saug	-487
▁tiksl	-488
▁disk	-489
▁as	-490
tina	-491
val	-492
▁jos	-493
▁Todėl	-494
▁įgyvend	-495
▁e	-496
▁pili	-497
▁kur	-498
▁turime	-499
▁ypa	-500
▁toki	-501
it	-502
▁apsaug	-503
▁me	-504
ški	-505
rak	-506
ūros	-507
▁bals	-508
ėmis	-509
umą	-510
▁maž	-511
kr	-512
▁paž	-513
veik	-514
tinės	-515
eto	-516
▁įsi	-517
ies	-518
išk	-519
▁rez	-520
do	-521
▁Ši	-522
▁en	-523
▁atv	-524
▁Man	-525
▁keli	-526
▁dabar	-527
▁gyven	-528
▁narių	-529
ose	-530
žvel	-531
▁social	-532
▁susitarim	-533
▁institu	-534
▁ti	-535
▁šį	-536
▁pasiūlym	-537
▁energ	-538
▁im	-539
lyg	-540
▁pon	-541
▁valstybių	-542
▁atsi	-543
▁ji	-544
▁šiuo	-545
▁atsak	-546
tį	-547
▁regi	-548
▁Tačiau	-549
ūk	-550
atin	-551
▁ekonomik	-552
▁Pir	-553
yn	-554
tojų	-555
imai	-556
▁ypač	-557
▁nei	-558
▁teisės	-559
ėra	-560
por	-561
▁200	-562
▁ai	-563
▁i	-564
▁pasau	-565
▁nustat	-566
dž	-567
oli	-568
aip	-569
▁užtikrinti	-570
▁metu	-571
tinių	-572
▁suteik	-573
amą	-574
▁neb	-575
▁tačiau	-576
▁Pone	-577
▁Taryb	-578
▁žin	-579
dami	-580
▁sek	-581
dėl	-582
ming	-583
▁tink	-584
▁pab	-585
ųjų	-586
cija	-587
▁išs	-588
▁daugiau	-589
▁veiksm	-590
▁narės	-591
inę	-592
▁prek	-593
iet	-594
▁reg	-595
ėje	-596
ateg	-597
▁priim	-598
inio	-599
▁pasiek	-600
▁min	-601
pras	-602
ybės	-603
acijos	-604
▁mums	-605
▁prad	-606
erb	-607
iją	-608
ančių	-609
du	-610
▁tam	-611
▁bei	-612
▁pasak	-613
rik	-614
aš	-615
rė	-616
par	-617
▁pask	-618
erin	-619
tari	-620
adarb	-621
link	-622
▁kuris	-623
▁region	-624
ud	-625
.,	-626
▁šios	-627
ykl	-628
tau	-629
▁negal	-630
▁Vis	-631
▁bendradarb	-632
▁politikos	-633
▁te	-634
▁nėra	-635
▁kriz	-636
riaus	-637
trauk	-638
virtin	-639
mog	-640
ob	-641
emok	-642
▁aš	-643
▁kl	-644
inimo	-645
▁be	-646
imui	-647
▁siekiant	-648
▁lyg	-649
inink	-650
ojo	-651
iudž	-652
▁diskus	-653
aisv	-654
▁todėl	-655
▁strateg	-656
▁aplink	-657
ėmes	-658
aig	-659
ęs	-660
▁vy	-661
ėtume	-662
amų	-663
▁pan	-664
▁sąlyg	-665
▁kiek	-666
ėn	-667
▁gam	-668
sn	-669
▁sutar	-670
▁ati	-671
▁inform	-672
žiū	-673
arba	-674
▁mano	-675
▁teisių	-676
tab	-677
▁dėmes	-678
liau	-679
▁žmog	-680
amai	-681
cijų	-682
avimą	-683
▁Taip	-684
ijoje	-685
avimas	-686
ciją	-687
▁ties	-688
▁kas	-689
▁sum	-690
▁atvej	-691
▁nuom	-692
▁biudž	-693
▁kel	-694
andien	-695
▁visi	-696
▁sektori	-697
▁Nor	-698
▁demok	-699
▁žem	-700
▁nuos	-701
▁laisv	-702
▁Gerb	-703
▁vid	-704
▁tiek	-705
▁padar	-706
▁atsižvel	-707
uv	-708
▁progr	-709
▁šalių	-710
▁svarbu	-711
▁srityje	-712
anti	-713
▁bendradarbi	-714
▁manau	-715
▁C	-716
uosi	-717
cion	-718
auti	-719
antis	-720
▁visų	-721
▁Be	-722
▁ko	-723
▁iki	-724
▁jie	-725
▁ab	-726
aniz	-727
eid	-728
▁ly	-729
ečių	-730
▁šio	-731
▁tais	-732
▁sp	-733
▁viet	-734
vark	-735
▁arba	-736
eitim	-737
▁sveik	-738
▁ekonomikos	-739
▁teik	-740
▁frak	-741
ėme	-742
▁dv	-743
▁Parlamentas	-744
iausia	-745
▁plė	-746
▁komit	-747
▁mo	-748
▁didel	-749
▁or	-750
▁Pirminink	-751
▁si	-752
ėg	-753
▁prival	-754
ymą	-755
asi	-756
mės	-757
▁kol	-758
▁tarptau	-759
yta	-760
yrim	-761
▁jis	-762
▁der	-763
rov	-764
mo	-765
▁naudoj	-766
▁kurių	-767
▁sudar	-768
▁li	-769
▁padė	-770
▁veikl	-771
ęsti	-772
▁auk	-773
▁rem	-774
▁na	-775
▁žmogaus	-776
▁galima	-777
rib	-778
▁šių	-779
inis	-780
▁mėn	-781
damas	-782
▁metų	-783
ub	-784
ukt	-785
ausi	-786
žiūri	-787
ež	-788
rėž	-789
▁klausimas	-790
vien	-791
▁vykd	-792
tek	-793
oliu	-794
▁išl	-795
ūki	-796
▁st	-797
osios	-798
▁Tarybos	-799
▁raš	-800
▁vie	-801
▁priemonių	-802
▁suk	-803
▁direktyv	-804
▁ką	-805
cional	-806
▁dalyv	-807
▁skatin	-808
inį	-809
▁kurį	-810
▁taisykl	-811
▁požiūri	-812
eip	-813
umas	-814
▁jei	-815
giant	-816
yse	-817
▁žmonių	-818
ato	-819
▁įmon	-820
čia	-821
▁didži	-822
▁vad	-823
cip	-824
▁demokra	-825
▁visiškai	-826
atyv	-827
▁laiko	-828
avo	-829
▁pranešimą	-830
▁Mes	-831
▁proj	-832
▁inter	-833
▁veiksmų	-834
ymas	-835
osi	-836
tip	-837
inga	-838
▁prin	-839
▁princip	-840
dama	-841
▁šią	-842
up	-843
▁ry	-844
▁Sąjunga	-845
ada	-846
▁susijusi	-847
▁įgyvendin	-848
▁patvirtin	-849
sp	-850
▁sun	-851
▁įvai	-852
▁Manau	-853
▁pasakyti	-854
tn	-855
▁vertin	-856
ijai	-857
inius	-858
tijos	-859
▁pasaul	-860
lio	-861
pareig	-862
▁šis	-863
▁vyriaus	-864
▁trans	-865
▁įst	-866
▁proces	-867
▁visuomen	-868
▁galėtų	-869
▁jo	-870
▁pasir	-871
00	-872
rag	-873
▁el	-874
▁ned	-875
rijos	-876
▁Ž	-877
kir	-878
ystės	-879
tro	-880
▁pakeitim	-881
paž	-882
▁pris	-883
onos	-884
▁rezoliu	-885
▁energijos	-886
ves	-887
▁toliau	-888
ep	-889
ybę	-890
eigu	-891
▁org	-892
porto	-893
▁atei	-894
▁vald	-895
▁raštu	-896
iausiai	-897
▁pap	-898
▁šiandien	-899
čiai	-900
▁pagalb	-901
▁plan	-902
▁kr	-903
aist	-904
▁prod	-905
▁politin	-906
▁aiški	-907
▁kov	-908
▁pilieči	-909
ijų	-910
▁apsaugos	-911
eisti	-912
▁nacional	-913
ytų	-914
sta	-915
▁asmen	-916
uli	-917
engti	-918
▁dirb	-919
▁aug	-920
▁tyrim	-921
▁Pon	-922
▁varto	-923
▁tap	-924
▁nors	-925
▁žemės	-926
▁kok	-927
▁sumaž	-928
laug	-929
teb	-930
olog	-931
▁Pr	-932
vz	-933
▁sukur	-934
ib	-935
yl	-936
▁padėti	-937
▁konkur	-938
▁sveikat	-939
ici	-940
avau	-941
▁atlik	-942
▁koki	-943
▁pranešėj	-944
▁fon	-945
aliz	-946
▁Pri	-947
chn	-948
ūp	-949
▁įtrauk	-950
utin	-951
žin	-952
▁vaid	-953
eb	-954
▁Aš	-955
arin	-956
onės	-957
usių	-958
▁reglamen	-959
▁prekybos	-960
tais	-961
▁įvyk	-962
▁užd	-963
eidži	-964
zi	-965
▁rei	-966
▁sak	-967
▁paslaug	-968
▁didesn	-969
▁Norėčiau	-970
▁tok	-971
▁veiksming	-972
kiai	-973
giu	-974
ultat	-975
▁ūki	-976
aišk	-977
▁nu	-978
▁klausimą	-979
▁rinkos	-980
▁Taryba	-981
▁kartu	-982
pareigoj	-983
ėš	-984
ig	-985
▁būtina	-986
▁techn	-987
▁jog	-988
▁dalyk	-989
▁rezultat	-990
tiprin	-991
ja	-992
vai	-993
▁nori	-994
kait	-995
omas	-996
man	-997
▁atveju	-998
acija	-999
▁organiz	-1000
ina	-1001
▁pam	-1002
ančios	-1003
▁projek	-1004
▁il	-1005
▁Europoje	-1006
▁Dėl	-1007
ines	-1008
čio	-1009
▁darbuo	-1010
▁ponai	-1011
iais	-1012
▁dr	-1013
▁jūsų	-1014
▁inves	-1015
▁moksl	-1016
▁padėk	-1017
ver	-1018
isab	-1019
▁poveik	-1020
▁nusi	-1021
▁kuriuos	-1022
▁tuo	-1023
▁klim	-1024
▁produk	-1025
iuosi	-1026
▁pram	-1027
▁klausimu	-1028
▁konkuren	-1029
▁atst	-1030
▁geri	-1031
elio	-1032
ens	-1033
ėjimo	-1034
▁pritari	-1035
▁num	-1036
▁Lisab	-1037
▁kurią	-1038
yz	-1039
▁ištek	-1040
▁kartą	-1041
ingas	-1042
etas	-1043
etą	-1044
▁pati	-1045
žas	-1046
▁Kaip	-1047
▁aukš	-1048
kiri	-1049
▁201	-1050
▁inici	-1051
▁lėš	-1052
▁skai	-1053
▁vardu	-1054
klaus	-1055
▁svarbus	-1056
▁susid	-1057
▁iniciatyv	-1058
▁nel	-1059
ug	-1060
▁dėmesį	-1061
▁praš	-1062
▁dėlto	-1063
▁plėtr	-1064
▁Lisabonos	-1065
▁grei	-1066
▁pvz	-1067
▁Bend	-1068
tojams	-1069
▁priežas	-1070
▁vaik	-1071
▁F	-1072
▁susitik	-1073
▁vyst	-1074
▁partn	-1075
▁pasiekti	-1076
▁klimato	-1077
▁tarptautin	-1078
▁maist	-1079
▁du	-1080
▁išv	-1081
▁mokes	-1082
▁konkr	-1083
▁Ar	-1084
▁pabrėž	-1085
▁pirma	-1086
▁Ponia	-1087
tent	-1088
▁duomen	-1089
▁padid	-1090
▁biudžeto	-1091
▁ūkio	-1092
rod	-1093
▁kitų	-1094
▁šalim	-1095
▁no	-1096
▁padėkoti	-1097
eigi	-1098
▁koleg	-1099
▁piliečių	-1100
▁įsipareigoj	-1101
▁An	-1102
ven	-1103
imt	-1104
etin	-1105
▁frakcijos	-1106
▁Turi	-1107
▁Pirmininke	-1108
▁Ki	-1109
ingai	-1110
▁siūl	-1111
bū	-1112
▁pripaž	-1113
čius	-1114
▁galimybę	-1115
▁H	-1116
▁būtin	-1117
tikos	-1118
▁imtis	-1119
▁asp	-1120
žiūr	-1121
▁numat	-1122
DE	-1123
▁kain	-1124
▁priemones	-1125
▁proced	-1126
▁tikrųjų	-1127
omos	-1128
▁di	-1129
▁sm	-1130
esi	-1131
žvil	-1132
iniai	-1133
▁atžvil	-1134
20	-1135
▁Šiuo	-1136
▁past	-1137
ima	-1138
▁ponios	-1139
▁atstov	-1140
▁kontro	-1141
aipsn	-1142
tarp	-1143
▁lygmen	-1144
tuoj	-1145
tui	-1146
▁labiau	-1147
inimą	-1148
▁Gal	-1149
▁pavyz	-1150
▁grup	-1151
▁palaik	-1152
auja	-1153
▁pastang	-1154
▁politiką	-1155
▁sant	-1156
▁ml	-1157
▁rag	-1158
▁vadov	-1159
▁paj	-1160
imais	-1161
omi	-1162
lių	-1163
▁aišk	-1164
▁įvairi	-1165
▁au	-1166
▁ant	-1167
▁saugumo	-1168
rodo	-1169
laud	-1170
fik	-1171
▁tvark	-1172
▁lygi	-1173
tel	-1174
▁svar	-1175
▁įgyvendinti	-1176
▁At	-1177
liek	-1178
škia	-1179
▁moter	-1180
▁atžvilgiu	-1181
kal	-1182
džio	-1183
▁kri	-1184
▁pra	-1185
angi	-1186
▁įs	-1187
▁3	-1188
▁pateikti	-1189
ain	-1190
▁finansų	-1191
ult	-1192
▁pranešime	-1193
lės	-1194
▁U	-1195
▁rib	-1196
▁niek	-1197
▁vieš	-1198
ažn	-1199
iam	-1200
▁jeigu	-1201
▁atitink	-1202
ino	-1203
▁būd	-1204
mok	-1205
šal	-1206
▁darbą	-1207
▁transporto	-1208
aži	-1209
aciją	-1210
iniu	-1211
▁kiekvien	-1212
tojai	-1213
▁sveikatos	-1214
ild	-1215
elb	-1216
▁pozi	-1217
▁aiškiai	-1218
▁svarst	-1219
umen	-1220
sime	-1221
▁nepri	-1222
▁por	-1223
▁čia	-1224
▁ank	-1225
▁Jung	-1226
▁pavoj	-1227
▁teigi	-1228
▁Bals	-1229
▁abej	-1230
▁dok	-1231
šti	-1232
▁padaryti	-1233
▁mat	-1234
▁žod	-1235
▁neturi	-1236
▁vidaus	-1237
tok	-1238
▁šioje	-1239
▁šv	-1240
▁pažang	-1241
▁krizės	-1242
▁pareig	-1243
▁Iš	-1244
▁priklaus	-1245
▁aplinkos	-1246
ioj	-1247
▁vaidmen	-1248
▁laikotarp	-1249
▁parod	-1250
▁vert	-1251
ez	-1252
▁tek	-1253
▁atsižvelg	-1254
▁Rus	-1255
▁galime	-1256
▁gri	-1257
▁valdži	-1258
▁nuostat	-1259
▁priemonės	-1260
erinti	-1261
▁vienas	-1262
▁sukurti	-1263
▁sunk	-1264
isak	-1265
kreip	-1266
▁Tur	-1267
▁steb	-1268
▁ef	-1269
▁Gr	-1270
eišk	-1271
andar	-1272
▁skiri	-1273
▁deryb	-1274
▁politika	-1275
▁priimti	-1276
audoti	-1277
vaiz	-1278
▁Europa	-1279
▁pui	-1280
ytas	-1281
inimas	-1282
rij	-1283
▁siekiama	-1284
gai	-1285
įst	-1286
▁konf	-1287
▁išlaid	-1288
▁negali	-1289
▁maisto	-1290
▁visiems	-1291
ūrim	-1292
▁nustatyti	-1293
kl	-1294
tinai	-1295
▁sistemos	-1296
▁netur	-1297
▁standar	-1298
▁turėtume	-1299
ut	-1300
▁kil	-1301
▁gerb	-1302
▁komp	-1303
dar	-1304
▁jūs	-1305
▁ner	-1306
▁pasaulio	-1307
▁jums	-1308
ijas	-1309
▁tiesio	-1310
▁ge	-1311
▁O	-1312
cijas	-1313
▁dažn	-1314
▁lai	-1315
▁Sąjungoje	-1316
lob	-1317
▁viena	-1318
ėja	-1319
▁požiūriu	-1320
egal	-1321
▁maži	-1322
▁mas	-1323
▁užs	-1324
▁interes	-1325
škai	-1326
▁nuol	-1327
▁komiteto	-1328
▁šiame	-1329
ertin	-1330
din	-1331
▁pabrėžti	-1332
žiaug	-1333
yr	-1334
▁fond	-1335
▁pini	-1336
met	-1337
▁Af	-1338
ienio	-1339
▁Su	-1340
▁technolog	-1341
▁c	-1342
tarti	-1343
▁klausimus	-1344
ali	-1345
▁dien	-1346
▁op	-1347
▁rim	-1348
▁tikrai	-1349
gų	-1350
▁skaid	-1351
▁reiškia	-1352
rime	-1353
ūn	-1354
▁priori	-1355
▁atkreip	-1356
▁reform	-1357
▁inte	-1358
▁pači	-1359
ėsime	-1360
tyv	-1361
▁Pirm	-1362
▁straipsn	-1363
▁papild	-1364
žiūros	-1365
▁reikalav	-1366
▁nen	-1367
▁institucijos	-1368
▁turin	-1369
▁Dabar	-1370
▁neį	-1371
▁svarbi	-1372
ūrų	-1373
▁sudė	-1374
▁poreik	-1375
▁jį	-1376
kaitant	-1377
▁sėk	-1378
▁stab	-1379
▁įstat	-1380
UR	-1381
▁Bū	-1382
▁metus	-1383
▁kuriuo	-1384
▁nuro	-1385
▁kurias	-1386
▁šalyse	-1387
omų	-1388
acijų	-1389
▁atsakom	-1390
▁prisid	-1391
▁atliek	-1392
▁ūk	-1393
engv	-1394
▁vyriausyb	-1395
ingsn	-1396
▁valstybėse	-1397
▁energe	-1398
▁kurioje	-1399
ris	-1400
unk	-1401
ąją	-1402
▁br	-1403
▁savai	-1404
▁Pas	-1405
▁pagr	-1406
▁Tarybai	-1407
▁žingsn	-1408
ati	-1409
▁nuomon	-1410
▁kurio	-1411
▁šiuos	-1412
ingumo	-1413
▁padėtį	-1414
▁teises	-1415
auki	-1416
▁Taigi	-1417
racijos	-1418
dyti	-1419
▁atsižvelgiant	-1420
riklaus	-1421
".	-1422
▁šalies	-1423
▁5	-1424
▁juos	-1425
▁tvir	-1426
▁įskaitant	-1427
▁rek	-1428
▁dokumen	-1429
▁visuomenės	-1430
rikos	-1431
▁institucijų	-1432
akar	-1433
▁nariai	-1434
▁nuomone	-1435
ėjimą	-1436
ėte	-1437
▁griež	-1438
su	-1439
▁h	-1440
▁reguli	-1441
▁remi	-1442
▁patik	-1443
ras	-1444
▁žmonės	-1445
▁šalis	-1446
▁Parlamente	-1447
uol	-1448
▁pasin	-1449
▁plėtros	-1450
▁Turime	-1451
▁Bal	-1452
yba	-1453
ingi	-1454
taik	-1455
▁efektyv	-1456
▁pareišk	-1457
▁jud	-1458
▁visos	-1459
▁valstybėms	-1460
oji	-1461
varst	-1462
▁šalys	-1463
▁diskusijos	-1464
▁bank	-1465
kivaiz	-1466
▁sistemą	-1467
▁kal	-1468
▁priėm	-1469
op	-1470
gent	-1471
▁investi	-1472
▁EUR	-1473
▁nek	-1474
▁aspek	-1475
▁kult	-1476
ymu	-1477
▁spręsti	-1478
▁pasiūlymą	-1479
▁mėnes	-1480
▁pers	-1481
▁jiems	-1482
▁nusikal	-1483
agrin	-1484
▁žv	-1485
▁ateityje	-1486
umų	-1487
▁kovo	-1488
▁žinoma	-1489
ūrin	-1490
▁panaik	-1491
uje	-1492
▁Val	-1493
▁pos	-1494
▁leis	-1495
▁pras	-1496
▁ragin	-1497
▁versl	-1498
▁nuk	-1499
▁įvertin	-1500
▁skur	-1501
▁pasaulyje	-1502
▁lygmeniu	-1503
▁ją	-1504
▁pranešimo	-1505
ytis	-1506
▁strukt	-1507
tvark	-1508
ėd	-1509
▁suteikti	-1510
yd	-1511
ano	-1512
tra	-1513
anc	-1514
▁papras	-1515
▁teisę	-1516
yp	-1517
▁priežiūros	-1518
▁svarbiaus	-1519
▁nebuvo	-1520
▁sub	-1521
džiai	-1522
▁stiprin	-1523
▁moterų	-1524
▁nepriklaus	-1525
▁apib	-1526
istr	-1527
▁daugel	-1528
▁dalis	-1529
▁lygio	-1530
▁būtent	-1531
▁pirmininkauj	-1532
▁metais	-1533
▁kitos	-1534
ūm	-1535
▁skatinti	-1536
▁srit	-1537
▁Jei	-1538
▁al	-1539
ytos	-1540
▁Šis	-1541
▁partner	-1542
▁pirmiausia	-1543
▁atas	-1544
iej	-1545
iden	-1546
▁prak	-1547
▁pastar	-1548
▁4	-1549
aisant	-1550
pl	-1551
▁Kin	-1552
▁valdžios	-1553
▁energetikos	-1554
▁Bendrijos	-1555
▁geresn	-1556
▁vaidmenį	-1557
▁jaun	-1558
amo	-1559
▁tikslas	-1560
ėjusi	-1561
▁taisyklių	-1562
▁pranešimas	-1563
liai	-1564
▁atskir	-1565
alog	-1566
▁sąlygas	-1567
▁veiklos	-1568
▁dabartin	-1569
tak	-1570
▁kuriame	-1571
▁joki	-1572
lo	-1573
▁išr	-1574
▁pareng	-1575
yki	-1576
▁agent	-1577
Europ	-1578
▁form	-1579
▁skirti	-1580
▁aut	-1581
▁vėl	-1582
čiaus	-1583
audoj	-1584
▁gar	-1585
audži	-1586
▁ad	-1587
antys	-1588
timi	-1589
ančius	-1590
",	-1591
▁trūk	-1592
mas	-1593
▁susitarimo	-1594
▁noriu	-1595
▁prisi	-1596
ūrą	-1597
▁Mano	-1598
▁esu	-1599
▁am	-1600
engi	-1601
oju	-1602
▁kuo	-1603
▁tol	-1604
▁baig	-1605
▁problema	-1606
▁skaidr	-1607
▁buv	-1608
▁pritariu	-1609
ate	-1610
str	-1611
▁narys	-1612
▁problemų	-1613
▁lik	-1614
▁šie	-1615
asis	-1616
▁gerai	-1617
▁sumažinti	-1618
▁narėse	-1619
▁vietos	-1620
▁nary	-1621
sižvel	-1622
prend	-1623
ūra	-1624
ąjį	-1625
tiškai	-1626
▁vieną	-1627
tokol	-1628
ėjome	-1629
▁pagalbos	-1630
▁narėms	-1631
▁daugum	-1632
▁tau	-1633
ic	-1634
▁paslaugų	-1635
ūz	-1636
▁išteklių	-1637
▁teiki	-1638
▁piliečiams	-1639
ymų	-1640
timo	-1641
eja	-1642
tij	-1643
ingos	-1644
▁šalims	-1645
▁išsi	-1646
▁mln	-1647
ėjau	-1648
▁soli	-1649
▁ryš	-1650
▁paramos	-1651
az	-1652
▁privalo	-1653
▁produktų	-1654
abai	-1655
manoma	-1656
eln	-1657
▁teri	-1658
▁darbuotojų	-1659
▁Žin	-1660
▁oro	-1661
▁mil	-1662
▁vartotojų	-1663
▁kit	-1664
taip	-1665
▁skub	-1666
▁bendrą	-1667
▁dialog	-1668
▁konkurenc	-1669
▁perd	-1670
▁tiesų	-1671
tinio	-1672
anglaud	-1673
ump	-1674
▁konkreči	-1675
▁norime	-1676
pręsti	-1677
▁paramą	-1678
inam	-1679
uoja	-1680
▁direktyvos	-1681
irūp	-1682
▁kons	-1683
▁kuriais	-1684
▁lėšų	-1685
▁išn	-1686
▁aktyv	-1687
▁spe	-1688
▁is	-1689
mę	-1690
▁2009	-1691
ine	-1692
▁mod	-1693
▁tero	-1694
▁įgal	-1695
▁stat	-1696
▁aktų	-1697
▁neat	-1698
▁geriau	-1699
▁perk	-1700
ko	-1701
▁Kalb	-1702
▁kuriose	-1703
irš	-1704
▁Turk	-1705
▁sudėting	-1706
ėjimas	-1707
cijai	-1708
▁protokol	-1709
▁kelia	-1710
uosius	-1711
▁sien	-1712
▁mokesčių	-1713
ac	-1714
▁visus	-1715
▁priv	-1716
▁daryti	-1717
AV	-1718
▁solidar	-1719
yla	-1720
▁atlikti	-1721
▁turėti	-1722
log	-1723
▁srityse	-1724
▁tiesiog	-1725
▁tarn	-1726
▁band	-1727
▁Ai	-1728
▁pok	-1729
▁pradėti	-1730
▁bendrov	-1731
▁visas	-1732
▁neg	-1733
▁pus	-1734
▁įsitik	-1735
▁mažiau	-1736
▁Balsavau	-1737
▁klausimų	-1738
▁parlamen	-1739
ancūz	-1740
▁gauti	-1741
▁dažnai	-1742
▁poveikį	-1743
▁sprendimą	-1744
▁sistema	-1745
▁pramonės	-1746
lius	-1747
▁esmės	-1748
▁pakank	-1749
▁skirting	-1750
▁z	-1751
▁Teis	-1752
▁nurod	-1753
▁pažeid	-1754
atų	-1755
▁nepak	-1756
▁bendro	-1757
ėsi	-1758
inant	-1759
▁patir	-1760
ordin	-1761
iems	-1762
uotų	-1763
▁duomenų	-1764
prant	-1765
▁pagrindinių	-1766
usios	-1767
▁padarin	-1768
tišk	-1769
▁ras	-1770
▁padėtis	-1771
▁gyventojų	-1772
▁švie	-1773
▁naujų	-1774
rizik	-1775
▁Ir	-1776
▁Vien	-1777
omend	-1778
▁vand	-1779
ymosi	-1780
ingą	-1781
▁valdymo	-1782
▁reikalų	-1783
▁žmonėms	-1784
▁19	-1785
▁ter	-1786
▁pamin	-1787
▁tyrimų	-1788
▁užsienio	-1789
▁koordin	-1790
▁džiaug	-1791
▁JAV	-1792
▁esame	-1793
▁žodži	-1794
▁problemas	-1795
▁tari	-1796
▁deš	-1797
▁leid	-1798
gn	-1799
▁pramon	-1800
▁išk	-1801
▁sprendimo	-1802
▁balsavau	-1803
▁informacijos	-1804
▁strategijos	-1805
aun	-1806
▁susitarimą	-1807
▁Komisijai	-1808
umui	-1809
kite	-1810
▁rizik	-1811
rimin	-1812
▁reikėtų	-1813
tarin	-1814
▁reikš	-1815
▁dėk	-1816
▁akivaiz	-1817
onių	-1818
▁še	-1819
▁ket	-1820
▁įtak	-1821
▁siekti	-1822
▁gamin	-1823
▁žvej	-1824
▁jūros	-1825
▁kodėl	-1826
▁tinkamai	-1827
▁ataskai	-1828
▁euro	-1829
▁Vid	-1830
▁įmonių	-1831
▁viz	-1832
▁taikyti	-1833
istra	-1834
▁įtraukti	-1835
ete	-1836
▁šias	-1837
▁admin	-1838
▁europ	-1839
eno	-1840
sid	-1841
mą	-1842
▁rekomend	-1843
▁kuria	-1844
▁turės	-1845
uod	-1846
▁rinką	-1847
arbo	-1848
▁tikiuosi	-1849
promis	-1850
▁tikslų	-1851
▁sutarties	-1852
▁klausimais	-1853
▁fak	-1854
▁žini	-1855
▁įd	-1856
▁bi	-1857
▁suderin	-1858
▁treči	-1859
▁išš	-1860
▁ci	-1861
▁savait	-1862
kri	-1863
▁žal	-1864
▁šia	-1865
ias	-1866
ėta	-1867
▁žuv	-1868
▁paaišk	-1869
▁et	-1870
▁neteis	-1871
▁Parlamentui	-1872
▁privalome	-1873
ančias	-1874
▁nebū	-1875
umu	-1876
esnis	-1877
esti	-1878
▁vienod	-1879
▁Tik	-1880
▁atkreipti	-1881
▁socialinės	-1882
enka	-1883
▁tekst	-1884
▁Tr	-1885
▁sanglaud	-1886
▁sprendži	-1887
▁Kar	-1888
eikia	-1889
▁regiono	-1890
ėjus	-1891
▁atvir	-1892
sčiau	-1893
▁vartoj	-1894
▁Prancūz	-1895
tal	-1896
▁id	-1897
eziden	-1898
▁Kai	-1899
▁toks	-1900
▁tem	-1901
▁paskelb	-1902
▁ūkinink	-1903
▁išd	-1904
▁priorit	-1905
laik	-1906
anduol	-1907
▁mech	-1908
▁de	-1909
▁stabil	-1910
est	-1911
▁Nep	-1912
tuose	-1913
▁sprendimas	-1914
iki	-1915
▁visą	-1916
▁vietų	-1917
▁sustiprin	-1918
▁kompromis	-1919
eniai	-1920
▁prof	-1921
▁būs	-1922
▁2008	-1923
▁poky	-1924
▁mechaniz	-1925
▁Pa	-1926
ančią	-1927
autų	-1928
▁intern	-1929
▁ketin	-1930
▁metod	-1931
eda	-1932
▁2020	-1933
okių	-1934
▁atsisak	-1935
▁Galiausiai	-1936
▁jėg	-1937
),	-1938
abej	-1939
▁pajėg	-1940
rėži	-1941
siu	-1942
▁dėmesio	-1943
▁šiam	-1944
ėse	-1945
▁rodo	-1946
tinę	-1947
▁nepa	-1948
▁galėtume	-1949
▁vaikų	-1950
▁leidži	-1951
trukt	-1952
pri	-1953
▁kuriomis	-1954
▁šalyje	-1955
okie	-1956
▁nebus	-1957
▁visk	-1958
▁šiol	-1959
▁darbotvark	-1960
tinis	-1961
▁pinigų	-1962
▁integ	-1963
▁sektoriaus	-1964
FR	-1965
▁Vad	-1966
▁ženk	-1967
▁pasinaudoti	-1968
cijoje	-1969
▁pasirink	-1970
▁Mūsų	-1971
▁susirūp	-1972
▁mir	-1973
▁6	-1974
▁problemos	-1975
▁dalies	-1976
▁besi	-1977
▁susijusių	-1978
▁gai	-1979
ėjų	-1980
▁vyksta	-1981
iniais	-1982
▁kaim	-1983
▁mus	-1984
amus	-1985
▁visada	-1986
▁inf	-1987
▁8	-1988
▁vyr	-1989
▁sug	-1990
uota	-1991
erd	-1992
▁ilgal	-1993
eten	-1994
▁dvi	-1995
▁kryp	-1996
▁pasitik	-1997
▁tokių	-1998
▁lank	-1999
▁branduol	-2000
▁pabaig	-2001
▁išlaik	-2002
iant	-2003
vyst	-2004
atori	-2005
▁susiję	-2006
▁pavad	-2007
▁įt	-2008
▁sprendimus	-2009
▁administra	-2010
▁nepas	-2011
▁itin	-2012
▁programos	-2013
▁plat	-2014
▁Mums	-2015
▁tokia	-2016
▁milij	-2017
ird	-2018
žių	-2019
omob	-2020
oso	-2021
iame	-2022
▁special	-2023
▁Labai	-2024
▁Kad	-2025
▁Kon	-2026
iejų	-2027
usijos	-2028
ito	-2029
iniams	-2030
▁vertyb	-2031
▁veikti	-2032
imės	-2033
eikti	-2034
iams	-2035
PL	-2036
▁kovos	-2037
uoju	-2038
▁susitarimas	-2039
▁Daug	-2040
▁galimybes	-2041
▁piliečiai	-2042
▁dirbti	-2043
▁saugos	-2044
esnės	-2045
▁Bar	-2046
▁elg	-2047
▁grės	-2048
ūd	-2049
▁Per	-2050
▁laiv	-2051
▁demokratijos	-2052
▁nelai	-2053
▁rezoliucijos	-2054
▁Graik	-2055
▁tikslus	-2056
ber	-2057
▁susiduri	-2058
anijos	-2059
ėtis	-2060
▁žingsnis	-2061
▁pastangas	-2062
toti	-2063
▁sėkming	-2064
istų	-2065
būt	-2066
▁Šiandien	-2067
inta	-2068
▁Tiki	-2069
▁šeš	-2070
ybą	-2071
lų	-2072
tinti	-2073
ES	-2074
▁kli	-2075
▁teritori	-2076
lig	-2077
▁glob	-2078
▁krite	-2079
ins	-2080
▁naują	-2081
uot	-2082
ininkystės	-2083
▁diskrimin	-2084
tija	-2085
▁Ap	-2086
intas	-2087
▁kiti	-2088
▁ministr	-2089
▁negalime	-2090
▁kaimyn	-2091
▁anksčiau	-2092
▁rež	-2093
▁kaitos	-2094
▁keletą	-2095
▁tada	-2096
▁laikytis	-2097
▁parem	-2098
yko	-2099
▁Tarp	-2100
▁pradži	-2101
▁jas	-2102
▁lengv	-2103
▁automob	-2104
▁trump	-2105
kti	-2106
▁EP	-2107
▁žino	-2108
▁kovoti	-2109
alų	-2110
▁Nors	-2111
▁Vadov	-2112
▁apsaugoti	-2113
▁ta	-2114
▁pagrįst	-2115
orės	-2116
▁finansinių	-2117
▁krizę	-2118
▁mote	-2119
▁spaud	-2120
▁konflik	-2121
džiui	-2122
ią	-2123
varb	-2124
eikšti	-2125
▁Atsižvel	-2126
▁veiklą	-2127
▁Jeigu	-2128
mu	-2129
ūš	-2130
fer	-2131
ausias	-2132
▁mies	-2133
▁tvarkos	-2134
ani	-2135
▁kelią	-2136
▁In	-2137
▁kadangi	-2138
▁10	-2139
▁kompeten	-2140
▁fondo	-2141
▁7	-2142
žem	-2143
▁smur	-2144
▁vyriausybės	-2145
▁finansavimo	-2146
▁Antra	-2147
▁žinome	-2148
▁padėties	-2149
▁neiš	-2150
muo	-2151
▁2010	-2152
iama	-2153
eiv	-2154
▁aprib	-2155
▁dauguma	-2156
▁problemą	-2157
▁nesu	-2158
▁pastab	-2159
▁patenk	-2160
▁išspręsti	-2161
▁bendros	-2162
▁sprendimų	-2163
aj	-2164
▁vė	-2165
000	-2166
▁kontrolės	-2167
▁laikas	-2168
▁pre	-2169
giai	-2170
▁didžiul	-2171
ymus	-2172
▁susijęs	-2173
▁galimybės	-2174
▁Sutar	-2175
▁galimybių	-2176
▁pasireng	-2177
▁Sąjungai	-2178
▁Praneš	-2179
▁klausimai	-2180
▁mokslinių	-2181
avimu	-2182
sias	-2183
▁derybų	-2184
yra	-2185
▁gyvenimo	-2186
esp	-2187
▁apim	-2188
▁sudaro	-2189
▁2007	-2190
▁Rusijos	-2191
esnio	-2192
▁Ne	-2193
uojama	-2194
▁nuolat	-2195
omą	-2196
▁pagalbą	-2197
ieji	-2198
▁pavyzd	-2199
▁klausimo	-2200
▁taisykles	-2201
papras	-2202
▁padidinti	-2203
▁kor	-2204
▁kyla	-2205
rint	-2206
▁prieštar	-2207
▁kūrim	-2208
rės	-2209
▁dujų	-2210
▁ankst	-2211
ektus	-2212
▁panaš	-2213
▁pasiūlymas	-2214
cijoms	-2215
▁greičiau	-2216
▁priežasčių	-2217
▁strategiją	-2218
▁Valsti	-2219
▁vertus	-2220
vari	-2221
▁vykdyti	-2222
▁nepakank	-2223
▁partneri	-2224
▁neabej	-2225
tojus	-2226
▁gamybos	-2227
▁pasiraš	-2228
▁nagrin	-2229
▁Vadovų	-2230
▁ra	-2231
uomet	-2232
▁klaid	-2233
▁išsaug	-2234
fi	-2235
▁pasveik	-2236
▁įgyvendinimo	-2237
▁bendruomen	-2238
nauj	-2239
▁medži	-2240
▁ch	-2241
▁pone	-2242
▁rinkoje	-2243
ingų	-2244
▁beveik	-2245
IT	-2246
uojant	-2247
▁dalį	-2248
anų	-2249
▁tokios	-2250
šči	-2251
yriaus	-2252
▁Afrikos	-2253
entr	-2254
▁Ame	-2255
▁pažeidži	-2256
▁aplinkyb	-2257
apus	-2258
▁pabrėži	-2259
▁rezoliuciją	-2260
▁ilg	-2261
▁suprant	-2262
▁parengti	-2263
tinku	-2264
▁Jis	-2265
▁santyki	-2266
▁sąjung	-2267
▁įmanoma	-2268
▁kalbėti	-2269
▁om	-2270
▁skirtum	-2271
▁besivyst	-2272
▁pakeisti	-2273
▁naudo	-2274
▁atsižvelgti	-2275
▁rūp	-2276
▁neturėtų	-2277
▁Bri	-2278
▁apibrėž	-2279
▁vystymosi	-2280
▁Europą	-2281
uz	-2282
imtumo	-2283
▁Vokie	-2284
▁sanglaudos	-2285
▁supras	-2286
▁Žinoma	-2287
▁abi	-2288
▁tvar	-2289
▁naujas	-2290
▁papraš	-2291
eiti	-2292
▁teikti	-2293
esnių	-2294
▁išvad	-2295
▁esmin	-2296
▁sektoriuje	-2297
200	-2298
ana	-2299
▁išp	-2300
▁paskir	-2301
intel	-2302
▁pobū	-2303
▁Komisiją	-2304
ron	-2305
▁puik	-2306
▁rasti	-2307
kiau	-2308
▁jokių	-2309
igracijos	-2310
▁oper	-2311
▁nebūtų	-2312
stat	-2313
▁įvykd	-2314
▁bendra	-2315
▁nem	-2316
▁regione	-2317
▁reag	-2318
▁profes	-2319
▁sur	-2320
▁invest	-2321
).	-2322
▁truk	-2323
▁apsaugą	-2324
unik	-2325
▁atsir	-2326
▁turiu	-2327
▁Ital	-2328
umun	-2329
▁erd	-2330
▁frakcija	-2331
inei	-2332
ilių	-2333
▁informaciją	-2334
igr	-2335
▁remiantis	-2336
ard	-2337
▁elekt	-2338
amp	-2339
▁regionų	-2340
▁persp	-2341
▁pritar	-2342
▁valstybes	-2343
dė	-2344
▁laisvės	-2345
rd	-2346
ančio	-2347
▁000	-2348
▁dalyvauti	-2349
▁paklaus	-2350
▁erdv	-2351
▁poveikio	-2352
▁link	-2353
▁Būtent	-2354
gail	-2355
torin	-2356
▁pagerinti	-2357
▁išmet	-2358
▁nutrauk	-2359
▁Tikiuosi	-2360
▁palan	-2361
▁rūš	-2362
▁išorės	-2363
ietų	-2364
▁gin	-2365
uotos	-2366
▁teroriz	-2367
▁direktyva	-2368
▁tą	-2369
▁Veng	-2370
▁ženkl	-2371
ūkst	-2372
▁sen	-2373
▁ypating	-2374
▁Šv	-2375
išką	-2376
▁Esu	-2377
varstyti	-2378
▁Prieš	-2379
▁galioj	-2380
▁medžiag	-2381
vok	-2382
▁rod	-2383
estin	-2384
▁rezultatų	-2385
▁paskatin	-2386
▁pasiūlymus	-2387
▁supapras	-2388
▁ekonominės	-2389
▁įvairių	-2390
▁situ	-2391
▁dalykas	-2392
▁preziden	-2393
▁būdu	-2394
▁augimo	-2395
▁kliū	-2396
▁kuriems	-2397
▁an	-2398
▁Ji	-2399
▁greitai	-2400
▁šalimis	-2401
ekl	-2402
▁įgalioj	-2403
joje	-2404
rastrukt	-2405
▁įmonėms	-2406
▁teisė	-2407
▁pakankamai	-2408
▁protokolą	-2409
nel	-2410
tifik	-2411
▁atrodo	-2412
▁sudaryti	-2413
▁pasiūlymo	-2414
▁įg	-2415
tinį	-2416
▁kelių	-2417
▁neigi	-2418
▁remti	-2419
▁Dar	-2420
▁jam	-2421
imos	-2422
atas	-2423
▁diskusijas	-2424
ficial	-2425
▁tapti	-2426
▁mlrd	-2427
▁galutin	-2428
▁sąlygomis	-2429
▁sl	-2430
▁Europai	-2431
ifik	-2432
▁pasveikinti	-2433
▁Kitas	-2434
▁diskusijų	-2435
▁infrastrukt	-2436
▁įrod	-2437
re	-2438
▁tų	-2439
▁visa	-2440
imams	-2441
▁kitą	-2442
imi	-2443
▁paskutin	-2444
antį	-2445
klaid	-2446
inėmis	-2447
apit	-2448
▁procesą	-2449
▁9	-2450
ausia	-2451
▁kita	-2452
raf	-2453
▁baus	-2454
acijas	-2455
▁bent	-2456
▁virš	-2457
ind	-2458
žemio	-2459
▁Toki	-2460
▁neabejo	-2461
▁priklauso	-2462
▁Rūm	-2463
▁nepaisant	-2464
▁galbūt	-2465
▁informacija	-2466
eikal	-2467
uotas	-2468
▁pritarti	-2469
ejų	-2470
▁ang	-2471
antiems	-2472
tariu	-2473
▁priver	-2474
rindži	-2475
avimui	-2476
▁visapus	-2477
▁sąžin	-2478
esnį	-2479
▁apsauga	-2480
▁žinias	-2481
čiausi	-2482
krain	-2483
▁nusikaltim	-2484
elti	-2485
alo	-2486
▁jai	-2487
▁sritis	-2488
▁tarptautinės	-2489
▁Rumun	-2490
▁civ	-2491
▁hum	-2492
▁milijon	-2493
▁tas	-2494
inėms	-2495
▁abejo	-2496
intų	-2497
▁tapo	-2498
▁visoje	-2499
▁nuomonės	-2500
amasi	-2501
▁sąlygos	-2502
▁Lenk	-2503
▁dešimt	-2504
iešk	-2505
▁Deja	-2506
isi	-2507
▁išlaidų	-2508
džių	-2509
▁Pal	-2510
ydami	-2511
įž	-2512
▁Ukrain	-2513
ga	-2514
pro	-2515
iškų	-2516
reip	-2517
▁gink	-2518
▁verslo	-2519
▁nuomonę	-2520
baig	-2521
espub	-2522
▁asmenų	-2523
alis	-2524
imis	-2525
▁pusi	-2526
ev	-2527
▁Kalbant	-2528
▁džiaugiuosi	-2529
mes	-2530
▁karin	-2531
vencijos	-2532
▁Vakar	-2533
anitarin	-2534
alių	-2535
▁europie	-2536
▁kokybės	-2537
▁leisti	-2538
▁balsavimo	-2539
▁tiks	-2540
▁politinių	-2541
▁derybos	-2542
▁amži	-2543
▁pasik	-2544
elis	-2545
ein	-2546
▁eur	-2547
▁kurti	-2548
▁perspektyv	-2549
▁kriterij	-2550
▁patvirtinti	-2551
▁kitas	-2552
iui	-2553
tinas	-2554
▁naš	-2555
▁Isp	-2556
▁visuo	-2557
▁gyn	-2558
▁lauki	-2559
▁Tarptau	-2560
▁kapit	-2561
ysime	-2562
umus	-2563
▁švietimo	-2564
▁jame	-2565
▁PP	-2566
▁Jie	-2567
▁grindži	-2568
RO	-2569
▁nepriim	-2570
ausių	-2571
▁labiausiai	-2572
▁kaimo	-2573
▁naudoti	-2574
▁rinkimų	-2575
▁įmonės	-2576
▁strategija	-2577
inėje	-2578
▁skirtas	-2579
▁keleiv	-2580
▁Jungtinių	-2581
▁šiais	-2582
▁jus	-2583
▁Už	-2584
▁nerim	-2585
valstyb	-2586
▁aktus	-2587
▁poziciją	-2588
▁sutartis	-2589
▁Pagal	-2590
▁skaičius	-2591
▁pats	-2592
tojo	-2593
nelyg	-2594
▁nieko	-2595
inu	-2596
▁ilgalaik	-2597
iamas	-2598
▁etap	-2599
▁prieg	-2600
▁įr	-2601
▁programą	-2602
▁komitetas	-2603
▁vienintel	-2604
iliz	-2605
avome	-2606
land	-2607
lov	-2608
▁atnauj	-2609
▁naudos	-2610
▁padės	-2611
▁sutik	-2612
▁užimtumo	-2613
eren	-2614
▁nepriklausom	-2615
▁del	-2616
ojimai	-2617
▁liber	-2618
▁laiką	-2619
▁svarbūs	-2620
imti	-2621
mų	-2622
▁iešk	-2623
▁viso	-2624
▁svarbų	-2625
▁Bet	-2626
▁nare	-2627
▁globaliz	-2628
▁investicijų	-2629
▁centr	-2630
▁gyvyb	-2631
▁relig	-2632
▁Al	-2633
tys	-2634
▁balsuoti	-2635
giau	-2636
▁vidutin	-2637
▁neseniai	-2638
▁joms	-2639
ausv	-2640
iskusijos	-2641
espublik	-2642
▁draud	-2643
▁konferen	-2644
▁kalbant	-2645
▁veikla	-2646
▁svarbiausia	-2647
▁Šios	-2648
▁primin	-2649
▁stiprinti	-2650
▁neabejotinai	-2651
▁kaita	-2652
rijų	-2653
▁dviejų	-2654
▁tariant	-2655
▁vertinu	-2656
▁Did	-2657
▁galiausiai	-2658
▁išg	-2659
▁pareigas	-2660
▁įvertinti	-2661
▁Svarb	-2662
▁sustab	-2663
▁naujos	-2664
daug	-2665
▁pripažinti	-2666
bul	-2667
▁santyk	-2668
▁proceso	-2669
riai	-2670
▁14	-2671
▁reglamento	-2672
▁atvejais	-2673
elių	-2674
iškas	-2675
▁gyvūn	-2676
ančioms	-2677
▁Amerikos	-2678
ėjai	-2679
▁naujov	-2680
irb	-2681
▁kitaip	-2682
tines	-2683
▁teig	-2684
▁tokio	-2685
▁gero	-2686
Europos	-2687
rikšči	-2688
▁reguliavimo	-2689
▁zon	-2690
ėdami	-2691
▁užkir	-2692
▁mastu	-2693
▁pažangą	-2694
▁sutartį	-2695
▁direktyvą	-2696
▁aukščiausi	-2697
▁konkurencing	-2698
▁technologijų	-2699
zra	-2700
iška	-2701
▁reikalauj	-2702
uoš	-2703
▁pusiausv	-2704
rių	-2705
▁eks	-2706
▁kreip	-2707
▁partijos	-2708
▁aišku	-2709
▁kalbama	-2710
▁pasiūlymų	-2711
tugal	-2712
▁laikotarpiu	-2713
ikos	-2714
▁pašal	-2715
inama	-2716
▁punk	-2717
▁pens	-2718
ausiai	-2719
▁humanitarin	-2720
▁paminėti	-2721
▁saugumą	-2722
▁sti	-2723
▁JT	-2724
▁eksp	-2725
▁veiksmus	-2726
▁pasisak	-2727
▁prieglob	-2728
▁sąraš	-2729
▁išvengti	-2730
PT	-2731
▁demokr	-2732
▁sąlygų	-2733
▁taikymo	-2734
▁politikai	-2735
▁kovoj	-2736
▁naudotis	-2737
▁politinės	-2738
▁Izra	-2739
▁išmok	-2740
▁taigi	-2741
inter	-2742
▁nares	-2743
sak	-2744
▁daro	-2745
▁partnerystės	-2746
ograf	-2747
▁atitik	-2748
▁pasek	-2749
▁daugiausia	-2750
▁skol	-2751
rijoje	-2752
▁garanti	-2753
▁būdas	-2754
▁istori	-2755
▁subsid	-2756
▁glaud	-2757
ytą	-2758
▁Sąjungą	-2759
▁siekia	-2760
▁blog	-2761
▁tinkl	-2762
▁kontroli	-2763
tam	-2764
▁struktūrin	-2765
alon	-2766
enki	-2767
▁prioritet	-2768
▁turėjo	-2769
▁socialinių	-2770
▁derybas	-2771
žr	-2772
▁galės	-2773
▁pažym	-2774
▁pernelyg	-2775
tern	-2776
ymui	-2777
inauj	-2778
▁Por	-2779
rovės	-2780
tinka	-2781
▁vakar	-2782
▁pirmininko	-2783
▁žmones	-2784
▁šiai	-2785
▁įsigal	-2786
damos	-2787
▁negu	-2788
▁kokia	-2789
▁nuolatin	-2790
ne	-2791
▁naujo	-2792
iauti	-2793
▁integr	-2794
▁vanden	-2795
▁veiksn	-2796
▁priemonėmis	-2797
▁uždav	-2798
interes	-2799
esni	-2800
▁vartojimo	-2801
eliu	-2802
▁vartotojams	-2803
ijung	-2804
▁Slov	-2805
▁Jungtinės	-2806
▁žiniasklaid	-2807
kritai	-2808
elež	-2809
▁automobilių	-2810
▁žvejybos	-2811
tika	-2812
▁bio	-2813
▁daugelis	-2814
▁jūrų	-2815
▁rytoj	-2816
▁skirta	-2817
▁įgyvendinant	-2818
▁nariams	-2819
oriu	-2820
▁inov	-2821
▁tikras	-2822
ąžin	-2823
▁visai	-2824
▁dėkoju	-2825
tyn	-2826
▁kito	-2827
▁požiūr	-2828
▁teisėk	-2829
▁pagrindinis	-2830
▁12	-2831
▁kolegos	-2832
▁pavyzdžiui	-2833
tinius	-2834
▁Net	-2835
▁juo	-2836
▁matyti	-2837
▁užsi	-2838
▁kainų	-2839
▁rinka	-2840
▁sugeb	-2841
▁dėmesys	-2842
▁netgi	-2843
▁Respublik	-2844
▁parama	-2845
▁požiūrį	-2846
▁organizacijos	-2847
ybė	-2848
esnę	-2849
▁pot	-2850
mių	-2851
emen	-2852
iniam	-2853
▁pažangos	-2854
▁svarbą	-2855
pn	-2856
uodžio	-2857
▁Rusija	-2858
ėst	-2859
tiją	-2860
▁Nepaisant	-2861
▁suprasti	-2862
▁suinteres	-2863
▁bal	-2864
▁prar	-2865
uržemio	-2866
▁ateities	-2867
▁biuro	-2868
▁vietov	-2869
▁tikrų	-2870
▁taisyklės	-2871
▁iniciatyva	-2872
▁nacionalinių	-2873
inaujin	-2874
▁Airijos	-2875
▁artim	-2876
▁Portugal	-2877
▁panaikinti	-2878
▁refer	-2879
▁Siek	-2880
▁15	-2881
tetų	-2882
▁Rytų	-2883
▁aukščiausiojo	-2884
▁neati	-2885
▁užduo	-2886
▁pačios	-2887
sčio	-2888
▁tampa	-2889
▁Šiau	-2890
▁didinti	-2891
▁pla	-2892
▁Kinijos	-2893
engiant	-2894
▁kelias	-2895
ydamas	-2896
▁požiūrio	-2897
▁galiu	-2898
erc	-2899
▁Viduržemio	-2900
ąja	-2901
▁ekolog	-2902
▁savaitę	-2903
▁vadovauj	-2904
▁reikalavimus	-2905
ane	-2906
▁sutel	-2907
▁požiūris	-2908
▁pakar	-2909
▁negalima	-2910
▁pristat	-2911
tojas	-2912
ymai	-2913
tiniai	-2914
▁susijusius	-2915
▁Kadangi	-2916
▁susijusios	-2917
▁vai	-2918
▁teisingumo	-2919
▁paremti	-2920
▁uos	-2921
mė	-2922
enos	-2923
▁apgail	-2924
tumėte	-2925
▁lyd	-2926
▁pobūdžio	-2927
Europa	-2928
▁gelež	-2929
▁iššūki	-2930
lav	-2931
ausią	-2932
iršti	-2933
▁penk	-2934
▁kalbame	-2935
▁vaidmuo	-2936
▁pard	-2937
▁nedel	-2938
▁finansinės	-2939
▁sektorių	-2940
▁patek	-2941
▁Baltar	-2942
▁sta	-2943
ininkų	-2944
▁paslaugas	-2945
ėtas	-2946
▁norint	-2947
▁įveikti	-2948
▁gaun	-2949
▁panaudoj	-2950
ado	-2951
▁bai	-2952
▁peln	-2953
▁kred	-2954
▁Šiaurės	-2955
inęs	-2956
▁procesas	-2957
▁pagrindas	-2958
▁praei	-2959
aukti	-2960
ienį	-2961
▁grupės	-2962
▁pranešėjas	-2963
elg	-2964
▁ten	-2965
antų	-2966
▁tobul	-2967
▁Lib	-2968
▁dalykų	-2969
ern	-2970
auju	-2971
▁veiksmingai	-2972
▁tenka	-2973
▁darbas	-2974
▁keturi	-2975
ieg	-2976
▁pasteb	-2977
▁gruodžio	-2978
▁posė	-2979
▁vais	-2980
▁atsinaujin	-2981
▁palyg	-2982
▁priežasties	-2983
▁pien	-2984
▁patikrin	-2985
▁demokratų	-2986
▁Pirma	-2987
▁saus	-2988
▁oficial	-2989
rija	-2990
▁tūkst	-2991
eikš	-2992
▁sienų	-2993
▁lig	-2994
▁žuvininkystės	-2995
▁padarinių	-2996
▁prisijung	-2997
▁kalba	-2998
▁viską	-2999
▁mirties	-3000
▁Pag	-3001
▁nusprend	-3002
▁fondų	-3003
▁baudži	-3004
▁teisėkūros	-3005
▁deleg	-3006
▁bendrosios	-3007
▁didelį	-3008
▁ryž	-3009
▁atsakomybę	-3010
ūras	-3011
▁sričių	-3012
▁solidarumo	-3013
▁neap	-3014
▁tris	-3015
▁minėjo	-3016
čiausiai	-3017
iacijos	-3018
▁geležink	-3019
▁susiduria	-3020
▁pastangų	-3021
▁atk	-3022
▁pabėg	-3023
▁nukent	-3024
und	-3025
▁nepapras	-3026
gyven	-3027
▁įtvirtin	-3028
▁interesus	-3029
▁išsam	-3030
▁Ties	-3031
▁vyks	-3032
▁išlaikyti	-3033
▁reng	-3034
▁Pritariu	-3035
▁priežastis	-3036
etina	-3037
▁Šved	-3038
▁pačių	-3039
▁naudojimo	-3040
▁sustiprinti	-3041
▁pop	-3042
ims	-3043
▁stip	-3044
▁programa	-3045
▁Re	-3046
▁lem	-3047
▁ratifik	-3048
▁iniciatyvos	-3049
oc	-3050
▁taikoma	-3051
amb	-3052
▁palengv	-3053
▁sukeli	-3054
▁išdėst	-3055
▁Pirmininko	-3056
▁išteklius	-3057
ton	-3058
▁sektorius	-3059
▁Pirmiausia	-3060
▁sank	-3061
▁naudinga	-3062
▁prieglobsčio	-3063
▁27	-3064
▁sunki	-3065
eiči	-3066
▁bendradarbiauti	-3067
vis	-3068
truk	-3069
▁Ek	-3070
▁patiri	-3071
▁real	-3072
▁Vakarų	-3073
▁apima	-3074
▁kontrol	-3075
▁nukreip	-3076
▁administrac	-3077
oks	-3078
▁įsp	-3079
ingo	-3080
▁palik	-3081
▁As	-3082
▁tel	-3083
▁priek	-3084
▁pavojus	-3085
lies	-3086
▁laisvę	-3087
▁užm	-3088
▁sakant	-3089
▁komitete	-3090
roj	-3091
▁tvari	-3092
▁veiksmai	-3093
uktyv	-3094
▁išim	-3095
ulg	-3096
valifik	-3097
audo	-3098
▁aplinkai	-3099
▁standartus	-3100
▁Negal	-3101
kra	-3102
▁konkurencijos	-3103
▁Pak	-3104
▁mokykl	-3105
▁prisitaik	-3106
▁niekada	-3107
▁atsar	-3108
▁Turkijos	-3109
▁jokios	-3110
▁manome	-3111
▁visose	-3112
▁pagrindu	-3113
raus	-3114
▁tema	-3115
▁suteikia	-3116
▁nepat	-3117
▁gana	-3118
ančiai	-3119
▁veikia	-3120
▁pakeitimų	-3121
Pl	-3122
ąs	-3123
▁med	-3124
irž	-3125
ternatyv	-3126
ykiai	-3127
▁tokį	-3128
▁posėd	-3129
▁įsteig	-3130
▁planą	-3131
▁lankst	-3132
▁aptarti	-3133
▁program	-3134
▁priimtas	-3135
▁deja	-3136
▁susirūpinimą	-3137
aup	-3138
▁vil	-3139
alio	-3140
▁netink	-3141
▁kultūros	-3142
▁ob	-3143
▁biudžetą	-3144
▁reikalinga	-3145
usav	-3146
▁Atsižvelgiant	-3147
ją	-3148
▁impor	-3149
yno	-3150
aisiais	-3151
▁tikrą	-3152
▁Jos	-3153
▁santykių	-3154
▁pavaduo	-3155
▁sistemų	-3156
▁prisidėti	-3157
erk	-3158
▁šiek	-3159
timą	-3160
▁Barr	-3161
tov	-3162
yriausyb	-3163
▁standartų	-3164
▁2006	-3165
▁MV	-3166
ėjimų	-3167
▁pusiausvyr	-3168
▁draug	-3169
ybai	-3170
▁tos	-3171
inamas	-3172
▁palankiai	-3173
▁Po	-3174
tingai	-3175
▁Pietų	-3176
▁išlaidas	-3177
▁Šeng	-3178
▁tvirtai	-3179
▁amžiaus	-3180
▁Treči	-3181
▁santykius	-3182
▁siekdami	-3183
inys	-3184
▁spar	-3185
cien	-3186
▁skaidrumo	-3187
▁didelių	-3188
▁Nes	-3189
Plojimai	-3190
▁socialinę	-3191
▁priminti	-3192
▁Visi	-3193
▁tiesiogiai	-3194
▁sąs	-3195
▁Šie	-3196
cijomis	-3197
žiūrėti	-3198
▁pateiktas	-3199
▁susitikime	-3200
▁rengi	-3201
▁tikslą	-3202
▁vėliau	-3203
▁Barroso	-3204
▁interesų	-3205
▁susitarimų	-3206
tingi	-3207
so	-3208
▁kilmės	-3209
201	-3210
▁parag	-3211
ulgari	-3212
▁tarpusav	-3213
▁panaudoti	-3214
EB	-3215
▁vizų	-3216
egz	-3217
▁Jūs	-3218
▁institucijoms	-3219
kio	-3220
▁galėsime	-3221
▁pacien	-3222
▁30	-3223
/200	-3224
▁atvejų	-3225
▁visame	-3226
▁didesnį	-3227
▁didelis	-3228
▁ginč	-3229
▁romų	-3230
▁atlyg	-3231
▁konsul	-3232
ėlių	-3233
▁pasid	-3234
▁reikalavimų	-3235
▁įsipareigojimų	-3236
▁kada	-3237
ėdamas	-3238
▁Pagrind	-3239
▁integra	-3240
ečiųjų	-3241
▁atsakyti	-3242
▁Šiame	-3243
▁bendras	-3244
▁tiekimo	-3245
▁trad	-3246
▁rad	-3247
▁tinkamas	-3248
NL	-3249
po	-3250
▁kitose	-3251
erius	-3252
ert	-3253
▁antr	-3254
▁Reikia	-3255
imb	-3256
▁kitais	-3257
iami	-3258
▁naf	-3259
▁byl	-3260
▁parodyti	-3261
▁biurokra	-3262
▁anglies	-3263
▁Šengeno	-3264
▁daugelio	-3265
▁transpor	-3266
tingų	-3267
▁alternatyv	-3268
▁srities	-3269
igra	-3270
▁vykst	-3271
▁atsakomybės	-3272
▁padėtų	-3273
▁komunik	-3274
▁tie	-3275
▁kurioms	-3276
▁trečiųjų	-3277
▁globalizacijos	-3278
▁apmok	-3279
▁Bulgari	-3280
▁projektą	-3281
▁teisingai	-3282
▁masto	-3283
▁tokie	-3284
▁kuriai	-3285
▁pagalba	-3286
▁pritaik	-3287
▁atitinka	-3288
▁2011	-3289
▁tuos	-3290
▁skubiai	-3291
▁nuoš	-3292
adienį	-3293
▁nepal	-3294
▁pagrį	-3295
▁atliekų	-3296
eti	-3297
▁Kro	-3298
▁pagarb	-3299
▁kitus	-3300
▁grįž	-3301
▁atsid	-3302
▁nerimą	-3303
▁pastaruosius	-3304
lai	-3305
▁ketina	-3306
▁steng	-3307
▁suteikta	-3308
ąsias	-3309
▁taikos	-3310
▁užbaig	-3311
▁teisinės	-3312
▁sul	-3313
ydama	-3314
usį	-3315
la	-3316
▁pirmininkas	-3317
▁analiz	-3318
▁puikiai	-3319
▁pavyzdys	-3320
▁supaprastin	-3321
▁moterys	-3322
▁integracijos	-3323
▁sunku	-3324
žiau	-3325
entrin	-3326
rims	-3327
▁malon	-3328
▁žmonėmis	-3329
▁pakeitimus	-3330
aro	-3331
elį	-3332
▁nemaž	-3333
▁Pasau	-3334
▁liberaliz	-3335
eral	-3336
andid	-3337
enh	-3338
▁11	-3339
▁Prancūzijos	-3340
▁lygį	-3341
▁teisėms	-3342
▁geb	-3343
▁rimtai	-3344
▁tinkamą	-3345
▁omen	-3346
▁reikalingas	-3347
▁birž	-3348
▁garant	-3349
▁apriboj	-3350
▁įtakos	-3351
▁pavyko	-3352
▁termin	-3353
▁apsvarstyti	-3354
▁ekonomiką	-3355
etui	-3356
▁galv	-3357
▁tiems	-3358
▁procedūros	-3359
▁mis	-3360
▁elges	-3361
▁mažai	-3362
▁tokiu	-3363
siant	-3364
▁taikomos	-3365
▁projekto	-3366
▁sprendžiant	-3367
ėjos	-3368
▁šil	-3369
▁tikslai	-3370
▁valiu	-3371
▁statis	-3372
▁sutinku	-3373
▁Gruz	-3374
▁rizikos	-3375
▁apskritai	-3376
▁nelegal	-3377
▁Kop	-3378
▁žinote	-3379
pas	-3380
▁nepam	-3381
▁gird	-3382
▁svarbios	-3383
▁skirtų	-3384
▁numatyta	-3385
▁pieno	-3386
▁atl	-3387
▁dialogą	-3388
▁įsipareigojimus	-3389
▁dieną	-3390
▁kvalifik	-3391
▁pasiūlyti	-3392
▁rezultatus	-3393
▁priva	-3394
▁vienos	-3395
▁visoms	-3396
enhag	-3397
▁veiki	-3398
▁kandid	-3399
anda	-3400
▁Visų	-3401
▁autori	-3402
▁koks	-3403
▁diskusijose	-3404
▁agentūros	-3405
▁tarš	-3406
▁nuosav	-3407
▁atvyk	-3408
amųjų	-3409
▁įtaką	-3410
▁referend	-3411
▁laikom	-3412
▁Kopenhag	-3413
▁Valstyb	-3414
▁padaryta	-3415
▁pozicijos	-3416
uotą	-3417
▁kuriuose	-3418
▁puiki	-3419
▁stipr	-3420
▁tikslo	-3421
▁turėsime	-3422
▁palaikyti	-3423
roje	-3424
ėjas	-3425
▁balsavimą	-3426
▁straipsnio	-3427
jai	-3428
▁įpras	-3429
imuose	-3430
▁taikomas	-3431
ektr	-3432
obul	-3433
▁aplinkosaug	-3434
etu	-3435
▁av	-3436
▁principo	-3437
▁didėj	-3438
▁CO	-3439
urin	-3440
▁Parlamentą	-3441
▁darbuotojams	-3442
▁kompens	-3443
▁zonos	-3444
giama	-3445
inimu	-3446
▁gyvenimą	-3447
zmo	-3448
▁Es	-3449
▁rinkų	-3450
▁didelę	-3451
▁vandens	-3452
eji	-3453
gan	-3454
▁tęsti	-3455
trauki	-3456
▁vietas	-3457
▁suderinti	-3458
▁tė	-3459
uni	-3460
anaš	-3461
osioms	-3462
▁geras	-3463
▁nuostatas	-3464
▁užim	-3465
▁prasid	-3466
mus	-3467
▁Noriu	-3468
kil	-3469
▁išnagrin	-3470
▁paprašyti	-3471
▁užtikrinant	-3472
▁em	-3473
▁lėšas	-3474
▁Jungtin	-3475
▁tyrimus	-3476
▁atid	-3477
▁perkėl	-3478
▁Ind	-3479
▁teisinga	-3480
▁omenyje	-3481
▁aplinkybėmis	-3482
omus	-3483
▁tikra	-3484
▁tokią	-3485
▁visais	-3486
▁Kita	-3487
stituc	-3488
▁įsitikinęs	-3489
ytus	-3490
▁užkirsti	-3491
▁ekonomikai	-3492
alai	-3493
▁pastat	-3494
▁moteris	-3495
▁ses	-3496
▁Az	-3497
▁nario	-3498
▁Pra	-3499
▁iššūk	-3500
▁sėkmingai	-3501
▁kaž	-3502
anori	-3503
▁įstaig	-3504
▁tarptautinių	-3505
▁patobul	-3506
▁Vokietijos	-3507
▁kuriam	-3508
▁Aud	-3509
▁patys	-3510
▁Mar	-3511
▁skirtos	-3512
▁priemonė	-3513
tuoja	-3514
▁viešųjų	-3515
▁būtinas	-3516
eklar	-3517
▁nusikalst	-3518
▁atsitik	-3519
žio	-3520
usio	-3521
edant	-3522
▁kalbėjo	-3523
▁laiku	-3524
▁pareikšti	-3525
erv	-3526
▁vidu	-3527
ininkai	-3528
▁Ekonom	-3529
▁atidžiai	-3530
inamos	-3531
ument	-3532
▁mažinti	-3533
čiū	-3534
čios	-3535
▁sukūrim	-3536
▁Ponios	-3537
alus	-3538
▁egz	-3539
▁dviš	-3540
▁teršal	-3541
ry	-3542
ybe	-3543
▁Karal	-3544
▁disku	-3545
▁apsi	-3546
▁pagrindą	-3547
savo	-3548
▁aptari	-3549
▁taps	-3550
▁skurd	-3551
▁gerokai	-3552
ąž	-3553
▁atsp	-3554
▁teb	-3555
▁konkrečių	-3556
▁elemen	-3557
▁prisim	-3558
▁lin	-3559
▁prekių	-3560
iško	-3561
▁Brius	-3562
▁taikant	-3563
tras	-3564
▁25	-3565
▁Nr	-3566
▁amb	-3567
▁prekyba	-3568
▁Dėk	-3569
▁Nauj	-3570
▁priėmimo	-3571
▁finansavimą	-3572
umis	-3573
▁pamat	-3574
▁principų	-3575
▁projektas	-3576
▁minim	-3577
EL	-3578
▁skaičių	-3579
▁gerin	-3580
▁šiose	-3581
▁kartais	-3582
▁nauja	-3583
▁manymu	-3584
▁ribų	-3585
▁išsaugoti	-3586
▁išlik	-3587
▁didelės	-3588
▁svarbiausių	-3589
pač	-3590
▁gen	-3591
▁augimą	-3592
▁priekį	-3593
tiniu	-3594
▁mane	-3595
▁įstatymų	-3596
naud	-3597
vyn	-3598
anas	-3599
▁skait	-3600
▁Nuo	-3601
▁rengiant	-3602
▁Darbo	-3603
▁kamp	-3604
▁sil	-3605
aliai	-3606
▁dideli	-3607
▁pavojų	-3608
irektyv	-3609
▁raginu	-3610
▁pripažįst	-3611
▁Pranešime	-3612
▁skurdo	-3613
▁programas	-3614
▁pranešimui	-3615
..	-3616
▁199	-3617
▁kainos	-3618
▁Taryboje	-3619
▁nedelsiant	-3620
▁Tuo	-3621
tams	-3622
site	-3623
▁patvirtino	-3624
▁gim	-3625
▁plėtrą	-3626
▁tikimės	-3627
▁procedūrą	-3628
igrantų	-3629
▁patais	-3630
▁paklausti	-3631
▁nepav	-3632
atą	-3633
▁funk	-3634
lug	-3635
▁kultūrin	-3636
▁lygiu	-3637
▁birželio	-3638
▁pirk	-3639
▁Didži	-3640
▁reikės	-3641
▁terorizmu	-3642
▁Serb	-3643
▁uždar	-3644
▁aspektus	-3645
erių	-3646
▁kvo	-3647
▁kokių	-3648
ąst	-3649
▁straipsnis	-3650
▁taptų	-3651
▁nuostatų	-3652
▁indėl	-3653
▁lyčių	-3654
▁pareiškimai	-3655
▁ėm	-3656
uojami	-3657
▁mėnesius	-3658
asiūl	-3659
▁char	-3660
▁vyriausybių	-3661
čiu	-3662
mos	-3663
▁konstr	-3664
▁13	-3665
▁poreikius	-3666
▁Prival	-3667
▁priemonę	-3668
▁silpn	-3669
▁daugelį	-3670
▁nepaprastai	-3671
▁mob	-3672
▁stabilumo	-3673
▁Ch	-3674
stas	-3675
▁dem	-3676
ganist	-3677
omo	-3678
▁susitarimus	-3679
inami	-3680
▁ketvir	-3681
▁išreikšti	-3682
iamos	-3683
▁socialinio	-3684
tomis	-3685
▁sal	-3686
▁puikų	-3687
▁Dėkoju	-3688
▁nuošir	-3689
▁reikalauja	-3690
▁lėšos	-3691
▁biudžetas	-3692
▁esama	-3693
▁interneto	-3694
▁šalį	-3695
▁nuostatos	-3696
▁rezultatas	-3697
▁gyd	-3698
▁vež	-3699
▁valstybėje	-3700
prę	-3701
intos	-3702
▁imigracijos	-3703
▁tvirtin	-3704
unis	-3705
▁gyvūnų	-3706
▁rodik	-3707
▁teigiama	-3708
▁Graikijos	-3709
▁nustatyta	-3710
▁svarbiausias	-3711
▁aplinką	-3712
▁pradžių	-3713
▁abejonių	-3714
▁tarpvalstyb	-3715
▁nev	-3716
▁prid	-3717
▁sup	-3718
▁abip	-3719
▁neuž	-3720
▁reaguoti	-3721
▁praėjusi	-3722
▁nežin	-3723
▁principą	-3724
rikščionių	-3725
▁pritaria	-3726
▁pinig	-3727
oja	-3728
▁Balk	-3729
▁kartų	-3730
▁sritį	-3731
▁stu	-3732
▁Audito	-3733
▁pasiektas	-3734
eks	-3735
▁projektų	-3736
▁sand	-3737
▁taup	-3738
▁esant	-3739
▁kokios	-3740
▁naftos	-3741
▁institucijas	-3742
anta	-3743
▁susitikimo	-3744
▁laivų	-3745
▁valstybėmis	-3746
▁nuosek	-3747
▁pokyčių	-3748
enarin	-3749
▁reišk	-3750
▁įgalio	-3751
ojimo	-3752
▁joje	-3753
▁principas	-3754
▁susijusias	-3755
▁Tautų	-3756
▁status	-3757
▁žiniasklaidos	-3758
žiai	-3759
▁vas	-3760
▁Afganist	-3761
▁pakeitimą	-3762
kurti	-3763
▁Džiaug	-3764
▁lygis	-3765
AT	-3766
▁18	-3767
▁laim	-3768
▁mokė	-3769
▁ekonomika	-3770
▁įgyvendinimą	-3771
▁konven	-3772
▁Vengrijos	-3773
anija	-3774
▁pasiūlymai	-3775
▁partneryst	-3776
▁lap	-3777
▁sužin	-3778
▁plataus	-3779
▁svarbių	-3780
▁rūm	-3781
▁ateitį	-3782
▁naujus	-3783
▁paskirst	-3784
▁Pat	-3785
uojamas	-3786
▁išb	-3787
▁Vienas	-3788
▁lygybės	-3789
aujant	-3790
▁išrink	-3791
rų	-3792
tame	-3793
esnes	-3794
▁rug	-3795
▁sunkumų	-3796
▁regionuose	-3797
▁laikin	-3798
▁neteisė	-3799
▁rezoliucijoje	-3800
jek	-3801
▁išsak	-3802
▁aspektų	-3803
▁ori	-3804
▁pilie	-3805
▁įsitikin	-3806
oz	-3807
▁ja	-3808
▁grupių	-3809
eil	-3810
vimo	-3811
ugeb	-3812
mokes	-3813
▁atsis	-3814
▁šeimos	-3815
▁kalbos	-3816
▁Direktyv	-3817
prieš	-3818
▁karo	-3819
encial	-3820
na	-3821
stų	-3822
▁aptar	-3823
esnius	-3824
▁aktyviai	-3825
anki	-3826
▁bes	-3827
▁dirba	-3828
▁mokymo	-3829
▁konstruktyv	-3830
urti	-3831
▁pažad	-3832
▁medžiagų	-3833
pag	-3834
▁kriterijus	-3835
▁Italijos	-3836
▁laikomasi	-3837
▁persvarst	-3838
nyg	-3839
eliui	-3840
▁Svarbu	-3841
▁kritik	-3842
rovę	-3843
▁pareigūn	-3844
amu	-3845
uojamos	-3846
▁keleivių	-3847
▁Kinija	-3848
▁pagerin	-3849
▁PPE	-3850
▁pagaliau	-3851
yks	-3852
▁gerinti	-3853
▁akivaizdu	-3854
ęsi	-3855
▁paaiškinti	-3856
▁50	-3857
▁sausio	-3858
▁potencial	-3859
▁gav	-3860
▁smul	-3861
▁elektron	-3862
▁diskutuoj	-3863
▁bendrai	-3864
▁pagrindinės	-3865
▁mažumų	-3866
▁sprendimai	-3867
▁pasm	-3868
go	-3869
▁eurų	-3870
▁prieig	-3871
toms	-3872
▁mui	-3873
▁viskas	-3874
▁Štai	-3875
uodami	-3876
▁2020"	-3877
▁plėtoj	-3878
▁tokius	-3879
▁pranešėjui	-3880
▁knyg	-3881
▁siekdama	-3882
▁pagrindin	-3883
etų	-3884
▁gyvena	-3885
▁tuomet	-3886
▁principus	-3887
raz	-3888
▁civil	-3889
▁kelis	-3890
▁mėnesių	-3891
▁teikiama	-3892
▁pradžioje	-3893
teis	-3894
▁plenarin	-3895
▁vertinimo	-3896
▁atein	-3897
▁bendrų	-3898
▁nuveik	-3899
ono	-3900
audies	-3901
▁visuomenei	-3902
▁Rem	-3903
.)	-3904
▁Juod	-3905
▁elektr	-3906
▁savanori	-3907
kričio	-3908
▁plėtoti	-3909
▁stebėti	-3910
tumą	-3911
inimui	-3912
▁vienu	-3913
▁sau	-3914
ėjams	-3915
▁netruk	-3916
▁procese	-3917
▁antra	-3918
▁jokio	-3919
▁teršalų	-3920
▁reformos	-3921
▁mėg	-3922
▁uni	-3923
ategori	-3924
▁įtik	-3925
▁palyginti	-3926
▁paprasčiausiai	-3927
▁apg	-3928
▁apr	-3929
jans	-3930
▁valstybn	-3931
▁neįmanoma	-3932
eguž	-3933
▁diskut	-3934
▁Pirmininkas	-3935
▁vienintelis	-3936
▁pažanga	-3937
▁laikotarpį	-3938
▁laikotarpio	-3939
▁pozicija	-3940
▁rezoliucija	-3941
▁žinoti	-3942
▁abejonės	-3943
▁ekonominę	-3944
vid	-3945
▁informuoti	-3946
▁nacionalinės	-3947
▁projektus	-3948
ozi	-3949
▁sistemas	-3950
▁ekonominių	-3951
old	-3952
▁skirtą	-3953
▁užmokes	-3954
▁programų	-3955
▁pranešimu	-3956
entų	-3957
▁sąskai	-3958
▁bendrovės	-3959
▁pajamų	-3960
▁veiksmin	-3961
ach	-3962
▁įvyko	-3963
▁dalykus	-3964
zd	-3965
▁šiuose	-3966
uok	-3967
timas	-3968
▁nagrinėj	-3969
tol	-3970
▁kokyb	-3971
sis	-3972
▁eis	-3973
▁tęs	-3974
ausios	-3975
▁ekspor	-3976
▁sąnaud	-3977
dien	-3978
▁tikėtis	-3979
▁reglamentą	-3980
SV	-3981
tabil	-3982
▁dvej	-3983
ysiu	-3984
▁kategori	-3985
ario	-3986
▁Pro	-3987
žiūrą	-3988
▁atš	-3989
▁Kiek	-3990
▁Pakist	-3991
▁konsulta	-3992
urio	-3993
▁paš	-3994
elyje	-3995
ančiais	-3996
▁prat	-3997
▁draudimo	-3998
▁aljans	-3999
▁duomenis	-4000
▁Atsižvelg	-4001
▁finansuoti	-4002
▁vyrų	-4003
▁Afrik	-4004
▁mak	-4005
▁neturime	-4006
▁sveikatai	-4007
▁dipl	-4008
▁tikri	-4009
tė	-4010
žiūra	-4011
egužės	-4012
▁kitiems	-4013
▁skiriama	-4014
▁tikrin	-4015
▁aspektas	-4016
▁išaug	-4017
▁Sutarties	-4018
▁arg	-4019
▁reak	-4020
▁patikim	-4021
bud	-4022
▁asmens	-4023
▁apgailest	-4024
▁gyventojams	-4025
▁skelb	-4026
jas	-4027
▁preven	-4028
▁Pvz	-4029
akiau	-4030
▁pakeis	-4031
▁Diskusijos	-4032
▁pakeitimai	-4033
voti	-4034
▁No	-4035
▁privat	-4036
porc	-4037
▁dienos	-4038
▁univer	-4039
▁bendrovių	-4040
▁asoc	-4041
▁pageid	-4042
▁stebės	-4043
▁elektrin	-4044
▁moterims	-4045
smen	-4046
▁narė	-4047
▁Būtina	-4048
▁Džiaugiuosi	-4049
budsmen	-4050
osiomis	-4051
▁stud	-4052
▁kitomis	-4053
iųjų	-4054
▁aktai	-4055
▁sektoriui	-4056
umai	-4057
▁paskol	-4058
▁nesugeb	-4059
▁Privalome	-4060
▁ginkl	-4061
▁ginti	-4062
eglamen	-4063
▁kiekį	-4064
▁šiems	-4065
▁kovojant	-4066
▁atsisakyti	-4067
cid	-4068
ijoms	-4069
▁prim	-4070
▁pabaigos	-4071
art	-4072
▁nedid	-4073
▁siūloma	-4074
▁didesnio	-4075
vie	-4076
▁kova	-4077
▁Lenkijos	-4078
▁kapitalo	-4079
▁tarnybos	-4080
▁reikšming	-4081
▁pačiu	-4082
liu	-4083
▁finansinę	-4084
▁Ash	-4085
▁sukuri	-4086
▁pateikta	-4087
▁ein	-4088
ėp	-4089
alans	-4090
iškos	-4091
▁nepad	-4092
▁sukėl	-4093
▁smurto	-4094
▁Mo	-4095
▁vartotojai	-4096
▁visapusiškai	-4097
▁Baig	-4098
▁vaidmens	-4099
▁rezultatai	-4100
▁Jau	-4101
timis	-4102
▁konc	-4103
▁stengi	-4104
▁šaltinių	-4105
▁paskatinti	-4106
▁pasitikėjimą	-4107
▁daroma	-4108
▁sr	-4109
▁krov	-4110
▁niekas	-4111
▁kryptimi	-4112
▁aud	-4113
amumo	-4114
▁minė	-4115
▁deklar	-4116
▁Bendr	-4117
▁naudingas	-4118
▁lapkričio	-4119
▁bankų	-4120
▁teikia	-4121
▁laisvių	-4122
▁vadinam	-4123
le	-4124
pat	-4125
▁įk	-4126
avimų	-4127
▁daugelyje	-4128
▁įn	-4129
▁miškų	-4130
▁opozi	-4131
▁Izraelio	-4132
▁priklausom	-4133
ymąsi	-4134
▁pabaigoje	-4135
▁solidarumą	-4136
▁atstovai	-4137
ekuli	-4138
HU	-4139
▁mažinimo	-4140
VP	-4141
▁pik	-4142
tiški	-4143
▁žaid	-4144
iniame	-4145
▁šioms	-4146
▁diskusija	-4147
▁trag	-4148
▁organizacijų	-4149
▁biolog	-4150
ėjusių	-4151
▁parodė	-4152
▁režimo	-4153
▁naudojimą	-4154
▁dabartinės	-4155
atina	-4156
...	-4157
amės	-4158
▁keiči	-4159
▁kaltin	-4160
tinga	-4161
▁išskir	-4162
▁Siekiant	-4163
▁išlaidos	-4164
ytume	-4165
▁kažk	-4166
▁Kodėl	-4167
bals	-4168
onų	-4169
ančiomis	-4170
encijos	-4171
▁Trečia	-4172
eiskite	-4173
▁daugyb	-4174
▁ponia	-4175
▁gegužės	-4176
▁demokratiją	-4177
arank	-4178
▁proga	-4179
ančiose	-4180
▁kokybę	-4181
▁aukščiaus	-4182
▁produktus	-4183
▁paketo	-4184
yž	-4185
▁gera	-4186
▁kuriant	-4187
▁teising	-4188
▁agentūrų	-4189
▁migracijos	-4190
▁jung	-4191
▁vieno	-4192
▁Akivaiz	-4193
▁patenkinti	-4194
▁Ashton	-4195
▁pranešėja	-4196
▁kūr	-4197
▁investuoti	-4198
▁įvyki	-4199
▁tokias	-4200
▁aplinkosaugos	-4201
▁išpl	-4202
▁vykdant	-4203
▁griežtai	-4204
▁Ab	-4205
▁elektros	-4206
▁eksper	-4207
▁poreikį	-4208
▁žodžio	-4209
▁taikomi	-4210
▁pasiekta	-4211
▁komerc	-4212
▁teismo	-4213
tir	-4214
▁baz	-4215
▁dvid	-4216
▁malonu	-4217
▁derin	-4218
tuoti	-4219
▁gerą	-4220
▁dalimi	-4221
▁kolegų	-4222
▁išplės	-4223
▁iniciatyvą	-4224
tiz	-4225
▁17	-4226
▁leistų	-4227
lok	-4228
▁16	-4229
▁sandori	-4230
▁atstovauj	-4231
▁sustabdyti	-4232
▁rūšių	-4233
▁fondas	-4234
▁būdų	-4235
▁modern	-4236
▁kod	-4237
▁spalio	-4238
▁numatyti	-4239
gip	-4240
jose	-4241
▁Sch	-4242
▁prekybą	-4243
apon	-4244
▁didesnis	-4245
▁pirmen	-4246
▁prasme	-4247
tens	-4248
▁klas	-4249
▁bendroj	-4250
▁darbotvarkės	-4251
▁prašau	-4252
▁Respublikos	-4253
▁vyko	-4254
ektams	-4255
▁teisėmis	-4256
▁prisiimti	-4257
▁pakeitimas	-4258
inos	-4259
▁plano	-4260
SE	-4261
esnė	-4262
ymuisi	-4263
eiškia	-4264
▁dešimtme	-4265
▁politinę	-4266
▁neatsižvel	-4267
▁vietoje	-4268
▁aktu	-4269
▁ilgai	-4270
▁tikros	-4271
▁infrastruktūros	-4272
tini	-4273
▁smar	-4274
▁nemažai	-4275
▁Teisingumo	-4276
ATO	-4277
▁tikiu	-4278
▁savarank	-4279
▁sukurta	-4280
▁derybose	-4281
peln	-4282
▁2013	-4283
▁keitim	-4284
▁trūksta	-4285
▁pašalinti	-4286
▁įsigalioj	-4287
▁rūpes	-4288
▁šiomis	-4289
eka	-4290
▁namų	-4291
▁liaudies	-4292
▁procedūra	-4293
▁skirtingų	-4294
▁procedūras	-4295
▁susitikimas	-4296
▁plėtra	-4297
▁rėm	-4298
▁ribo	-4299
▁kūrimo	-4300
▁reformų	-4301
▁turizmo	-4302
▁stoj	-4303
▁šeim	-4304
▁suvok	-4305
▁judėjimo	-4306
tarimą	-4307
▁Turkija	-4308
▁spekuli	-4309
▁politinio	-4310
ešimt	-4311
ūroje	-4312
▁Kan	-4313
▁politinį	-4314
umi	-4315
▁grėsmę	-4316
▁erdvės	-4317
▁supr	-4318
▁ryšių	-4319
▁geležinkelių	-4320
▁įved	-4321
▁Kartu	-4322
▁mokslo	-4323
▁nariui	-4324
▁Akivaizdu	-4325
▁ombudsmen	-4326
▁gyventojai	-4327
uož	-4328
emokra	-4329
irminink	-4330
▁piliečius	-4331
▁sudėtinga	-4332
▁tarpusavio	-4333
ančia	-4334
▁sulaik	-4335
▁instituc	-4336
▁nuoširdžiai	-4337
osto	-4338
▁nepriimtina	-4339
atv	-4340
▁BŽ	-4341
▁EC	-4342
orin	-4343
▁Tam	-4344
▁artimiaus	-4345
acijai	-4346
▁sukči	-4347
▁institucija	-4348
▁stipri	-4349
▁tinkama	-4350
▁skiriasi	-4351
▁pabėgėlių	-4352
▁paraginti	-4353
▁įgyvendinimas	-4354
▁žym	-4355
▁duomenys	-4356
▁dokumentų	-4357
▁pagrindines	-4358
▁sako	-4359
▁išsami	-4360
▁vertinti	-4361
▁teritorin	-4362
▁abs	-4363
▁kyl	-4364
rauk	-4365
▁branduolinės	-4366
▁trijų	-4367
tuv	-4368
čiais	-4369
▁kalbą	-4370
▁planas	-4371
▁pirmą	-4372
▁uždraus	-4373
▁leiskite	-4374
▁pritariame	-4375
erio	-4376
▁Japon	-4377
▁nepais	-4378
▁Brit	-4379
▁sukel	-4380
ūt	-4381
▁jais	-4382
▁Slovak	-4383
▁pasirod	-4384
ėdama	-4385
adėtis	-4386
tensyv	-4387
▁skatina	-4388
▁pasiūlyme	-4389
▁mažum	-4390
▁suver	-4391
▁pasiūlymui	-4392
kiu	-4393
iln	-4394
▁II	-4395
▁Balsavimas	-4396
are	-4397
▁Si	-4398
sėjo	-4399
▁atsarg	-4400
▁paketą	-4401
▁susitar	-4402
▁Ukrainos	-4403
▁Egip	-4404
▁Biudž	-4405
▁korup	-4406
▁įrang	-4407
▁padėtyje	-4408
▁ūkininkams	-4409
inimų	-4410
▁kari	-4411
▁siūlo	-4412
▁kiekvieną	-4413
▁skiriamas	-4414
▁žlug	-4415
ekijos	-4416
▁skaidrumą	-4417
▁įsik	-4418
▁paver	-4419
▁Pasaulio	-4420
▁ban	-4421
▁istorin	-4422
▁pareiga	-4423
▁pakeitimo	-4424
mi	-4425
▁tarybos	-4426
▁poveikis	-4427
▁pastangos	-4428
CS	-4429
▁galimybe	-4430
▁atlieka	-4431
▁jaunimo	-4432
▁netrukus	-4433
▁reikalauti	-4434
▁drąs	-4435
inimai	-4436
▁produkt	-4437
▁asmenims	-4438
etai	-4439
tine	-4440
▁NATO	-4441
▁rank	-4442
▁neman	-4443
▁pastabas	-4444
▁Parlamentu	-4445
eiks	-4446
▁padeda	-4447
▁Sud	-4448
ekonom	-4449
▁leidžia	-4450
▁Baltarus	-4451
▁prioritetų	-4452
ėtoj	-4453
usius	-4454
▁labui	-4455
▁saugumas	-4456
eido	-4457
▁Kor	-4458
▁pasitel	-4459
▁pilietin	-4460
ėjimu	-4461
▁plėtrai	-4462
▁ataskaitą	-4463
▁atsakomyb	-4464
▁def	-4465
▁matome	-4466
▁ataskaitos	-4467
▁neturėtume	-4468
-201	-4469
▁tiesa	-4470
▁baigtos	-4471
▁posėdyje	-4472
▁simb	-4473
▁žali	-4474
▁Viena	-4475
▁dialogo	-4476
▁negaliu	-4477
urn	-4478
▁Turiu	-4479
▁kasdien	-4480
ef	-4481
▁gair	-4482
mogaus	-4483
▁norėtų	-4484
▁pateis	-4485
▁sustabd	-4486
▁raginama	-4487
▁policijos	-4488
cen	-4489
alios	-4490
▁trys	-4491
▁valand	-4492
▁tikslais	-4493
▁svarbos	-4494
▁kontroliuoti	-4495
▁motin	-4496
▁laipsn	-4497
▁Ispanijos	-4498
kime	-4499
igrant	-4500
traukti	-4501
▁atosto	-4502
▁įvesti	-4503
▁kandidat	-4504
▁darbotvarkę	-4505
▁darbuotojai	-4506
▁Irano	-4507
▁kliūtis	-4508
▁prieštarauja	-4509
▁konkurencingumą	-4510
▁valdymą	-4511
lieka	-4512
▁Belg	-4513
▁dalyje	-4514
lank	-4515
▁Kol	-4516
▁atliko	-4517
▁išnaudoj	-4518
jung	-4519
▁komis	-4520
▁spaudimą	-4521
▁diskusiją	-4522
▁papildomų	-4523
▁ekonominio	-4524
▁Raš	-4525
riausiai	-4526
ingus	-4527
▁asmenys	-4528
▁gyventi	-4529
▁100	-4530
▁kovą	-4531
▁mėnesį	-4532
▁narėmis	-4533
ond	-4534
▁pranaš	-4535
imosi	-4536
vys	-4537
▁40	-4538
▁jaus	-4539
aujame	-4540
▁sąlyga	-4541
ėję	-4542
▁Kas	-4543
▁palaikau	-4544
▁tend	-4545
▁išgir	-4546
▁praėjus	-4547
▁So	-4548
tingas	-4549
▁pažeidimų	-4550
▁Airijoje	-4551
▁Leiskite	-4552
▁patirties	-4553
ijo	-4554
▁įsipareig	-4555
▁pusiausvyrą	-4556
džiu	-4557
sual	-4558
▁Šioje	-4559
lams	-4560
▁mor	-4561
▁priversti	-4562
▁konkrečiai	-4563
iantis	-4564
▁įvykdymo	-4565
▁etn	-4566
▁kolegoms	-4567
▁prioritetas	-4568
▁Buvo	-4569
▁patį	-4570
▁pensijų	-4571
▁kontrolę	-4572
diskusijos	-4573
▁užtikrintų	-4574
▁susis	-4575
▁didelio	-4576
▁Valstijų	-4577
▁Visiškai	-4578
▁Irak	-4579
▁diploma	-4580
▁energiją	-4581
▁2012	-4582
▁šaliai	-4583
▁suveren	-4584
▁keis	-4585
▁iškel	-4586
▁pradėjo	-4587
trof	-4588
▁2005	-4589
▁liep	-4590
usiems	-4591
▁aprūp	-4592
▁keletas	-4593
▁politinis	-4594
▁vystymuisi	-4595
iar	-4596
▁Jo	-4597
▁duomenimis	-4598
▁PPO	-4599
▁teritorijoje	-4600
albūt	-4601
▁akivaizdžiai	-4602
razil	-4603
▁narius	-4604
atastrof	-4605
▁atsižvelgiama	-4606
amio	-4607
usią	-4608
▁kredi	-4609
imasi	-4610
▁apsis	-4611
damiesi	-4612
▁užduotis	-4613
izmo	-4614
▁laukia	-4615
▁prisitaikymo	-4616
▁nesi	-4617
acijoms	-4618
▁Galbūt	-4619
bend	-4620
▁metai	-4621
▁reglamentas	-4622
▁reikalaujama	-4623
enčia	-4624
▁lauk	-4625
▁žinių	-4626
▁stabilumą	-4627
kš	-4628
tarimo	-4629
▁pusės	-4630
▁defici	-4631
▁užtikrinta	-4632
▁reikalavimai	-4633
▁banko	-4634
▁daugia	-4635
▁vykdoma	-4636
▁sutelkti	-4637
SK	-4638
rio	-4639
tnaudži	-4640
▁sureng	-4641
▁dis	-4642
▁skurdu	-4643
▁atstovų	-4644
▁centrin	-4645
▁svarstyti	-4646
▁visuomenę	-4647
▁kitoms	-4648
▁pabrėžiama	-4649
iškumo	-4650
▁Negalime	-4651
▁sky	-4652
▁kokią	-4653
▁surin	-4654
▁vaistų	-4655
▁mokslinius	-4656
▁įdieg	-4657
▁tarnyb	-4658
▁susitikimą	-4659
tasi	-4660
▁atskl	-4661
▁griežt	-4662
ojoje	-4663
▁ryšius	-4664
▁Valstybės	-4665
▁tarptautiniu	-4666
▁Pav	-4667
▁gynybos	-4668
▁Brazil	-4669
▁dokument	-4670
▁nurodyti	-4671
▁inovacijų	-4672
eikėtų	-4673
▁pažymėti	-4674
▁priemonėms	-4675
▁sep	-4676
iname	-4677
vysči	-4678
▁Mold	-4679
▁pakr	-4680
▁stov	-4681
▁dienų	-4682
uop	-4683
▁didesnę	-4684
▁Baltijos	-4685
▁pagrindų	-4686
▁Ką	-4687
tinėje	-4688
▁atkūrim	-4689
▁suteiks	-4690
▁norėtume	-4691
▁Rumunijos	-4692
▁laisvosios	-4693
lan	-4694
Komis	-4695
▁Slovėn	-4696
▁narėje	-4697
▁nedarb	-4698
▁persek	-4699
did	-4700
▁remia	-4701
▁praktik	-4702
▁ypatingą	-4703
▁efek	-4704
▁jėgos	-4705
▁Biudžeto	-4706
etori	-4707
▁kolektyv	-4708
▁didžiausią	-4709
omai	-4710
kyr	-4711
▁prot	-4712
▁supra	-4713
▁patiria	-4714
▁pranešėjai	-4715
di	-4716
▁šim	-4717
čiams	-4718
▁egzis	-4719
▁aviacijos	-4720
ilaik	-4721
▁irgi	-4722
▁taršos	-4723
▁nesąžin	-4724
per	-4725
▁akto	-4726
kius	-4727
▁dviem	-4728
▁nutraukti	-4729
▁pranešėją	-4730
▁įvykių	-4731
▁pranešėjo	-4732
išku	-4733
▁balsuos	-4734
tės	-4735
▁žinau	-4736
▁Reglamen	-4737
▁atsižvelgta	-4738
▁konkret	-4739
▁frakcijų	-4740
he	-4741
▁Tarybą	-4742
▁pramonei	-4743
▁įsipareigojimą	-4744
pręs	-4745
▁žiau	-4746
▁intensyv	-4747
▁pagrįstas	-4748
▁ide	-4749
▁trumpai	-4750
▁pateiktų	-4751
omu	-4752
▁viduje	-4753
▁rin	-4754
▁prezidento	-4755
▁konvencijos	-4756
▁eismo	-4757
▁vaikai	-4758
▁smarkiai	-4759
mui	-4760
iški	-4761
▁Aus	-4762
▁pinigus	-4763
▁sutarčių	-4764
džius	-4765
▁posėdžio	-4766
▁kiekvienas	-4767
alyv	-4768
▁Minis	-4769
▁technologijas	-4770
sim	-4771
▁tėv	-4772
liais	-4773
▁rugsėjo	-4774
▁tri	-4775
▁vertybes	-4776
▁vertybių	-4777
▁piktnaudži	-4778
▁gerovės	-4779
▁institucijomis	-4780
▁Sar	-4781
igracija	-4782
▁netik	-4783
▁padarinius	-4784
▁pranešėjams	-4785
▁Šio	-4786
▁rinkai	-4787
▁visomis	-4788
▁politikoje	-4789
vin	-4790
toje	-4791
▁penki	-4792
▁įpareigoj	-4793
▁dy	-4794
tnamio	-4795
▁naudojant	-4796
intis	-4797
▁ilgalai	-4798
▁teigiamai	-4799
▁įtrauktas	-4800
uojame	-4801
▁skaiči	-4802
▁šešėl	-4803
uotis	-4804
amosios	-4805
▁neveik	-4806
▁Rag	-4807
umais	-4808
žvelg	-4809
▁kokį	-4810
▁pasakė	-4811
▁reglament	-4812
tumo	-4813
▁sėkmės	-4814
▁gyvybiškai	-4815
▁didėja	-4816
▁milijonų	-4817
jame	-4818
▁iššūkius	-4819
▁valstybei	-4820
ėtina	-4821
▁vari	-4822
▁geograf	-4823
▁reformas	-4824
▁eiti	-4825
▁rinkas	-4826
oksid	-4827
yčiau	-4828
anijoje	-4829
▁pasiūlymu	-4830
osn	-4831
▁atmet	-4832
kaitoje	-4833
▁nacionaliniu	-4834
▁Kitaip	-4835
▁nepakankamai	-4836
▁eil	-4837
andžio	-4838
▁tarif	-4839
balsavimas	-4840
▁procedūrų	-4841
▁patvirtinimo	-4842
▁Iki	-4843
eidžia	-4844
▁struktūrinių	-4845
▁tvarka	-4846
▁balsavo	-4847
kia	-4848
▁neišs	-4849
▁pirmąjį	-4850
▁katastrof	-4851
▁Ekonomikos	-4852
▁dik	-4853
▁Žem	-4854
▁pamiršti	-4855
▁surengti	-4856
ota	-4857
igub	-4858
uotojų	-4859
▁užmojo	-4860
▁regionams	-4861
▁veiksmingą	-4862
FI	-4863
ietuv	-4864
▁pridė	-4865
▁pavyzdį	-4866
▁šiltnamio	-4867
gnoz	-4868
vaizd	-4869
▁aukų	-4870
▁perduoti	-4871
▁sąjungos	-4872
ingu	-4873
ėsiu	-4874
tiems	-4875
tabilumo	-4876
▁gaminių	-4877
imok	-4878
▁sąvok	-4879
aiškinti	-4880
▁subsidiar	-4881
ijomis	-4882
odami	-4883
▁ėmėsi	-4884
▁paties	-4885
▁Balkanų	-4886
▁laisvai	-4887
▁išnagrinėti	-4888
▁dalykai	-4889
▁universi	-4890
▁užbaigti	-4891
▁valstybnar	-4892
▁atspind	-4893
▁daugeliu	-4894
▁lengviau	-4895
▁stengtis	-4896
▁balsavimas	-4897
ančiųjų	-4898
▁Ry	-4899
kaiči	-4900
▁galėjo	-4901
▁ištekliai	-4902
ėją	-4903
▁Šį	-4904
anks	-4905
▁bendrąją	-4906
▁išsivysči	-4907
▁nustatytas	-4908
inėse	-4909
▁reklam	-4910
▁užtikrintas	-4911
sik	-4912
atos	-4913
blema	-4914
yrimo	-4915
▁pokyčius	-4916
▁finansavimas	-4917
mai	-4918
▁BVP	-4919
▁kairi	-4920
▁susitarti	-4921
▁AL	-4922
▁Jūsų	-4923
▁Lietuv	-4924
aros	-4925
▁registr	-4926
▁energetin	-4927
▁supaprastinti	-4928
▁nepakanka	-4929
alą	-4930
▁nvien	-4931
ininkams	-4932
▁santykiai	-4933
▁efektyvumo	-4934
▁maždaug	-4935
▁pasidal	-4936
▁sveikinu	-4937
▁priežiūrą	-4938
▁kaimynystės	-4939
▁gerbti	-4940
▁nepalanki	-4941
▁partnerių	-4942
ūrai	-4943
▁ekstr	-4944
▁didžiausia	-4945
▁mažiausiai	-4946
toja	-4947
▁pli	-4948
▁atkurti	-4949
▁principu	-4950
▁naudojimas	-4951
▁Mal	-4952
▁suvar	-4953
▁atsakingas	-4954
▁Tunis	-4955
▁Pasiūl	-4956
ako	-4957
ytojų	-4958
▁garantijų	-4959
▁sutartyje	-4960
tiną	-4961
▁demon	-4962
▁dokumentą	-4963
▁Savo	-4964
▁teroris	-4965
▁nereikia	-4966
▁dom	-4967
▁Rūmų	-4968
▁aiškus	-4969
▁elgtis	-4970
▁kliūčių	-4971
▁prevencijos	-4972
▁vietą	-4973
▁siekiame	-4974
▁pirmininkavimo	-4975
ich	-4976
▁eksporto	-4977
▁sign	-4978
▁Klaus	-4979
▁riboj	-4980
▁ūkininkų	-4981
▁laikosi	-4982
▁bendruomenės	-4983
ančiu	-4984
▁naudą	-4985
▁naujosios	-4986
▁nuosavybės	-4987
▁Gaz	-4988
tijoje	-4989
▁įtrauki	-4990
▁savanorišk	-4991
▁Social	-4992
▁atsakymą	-4993
▁persekioj	-4994
▁nuv	-4995
▁tradic	-4996
▁baudžiam	-4997
▁glaudžiai	-4998
▁2004	-4999
▁patvirtintas	-5000
▁išpuo	-5001
▁sienos	-5002
▁iniciatyvų	-5003
▁21	-5004
▁ALDE	-5005
▁nesėk	-5006
▁propag	-5007
▁aljanso	-5008
▁stabiliz	-5009
▁investicijas	-5010
uoto	-5011
▁kiš	-5012
▁speci	-5013
ėtumėte	-5014
▁suform	-5015
▁didesnės	-5016
ign	-5017
▁maistu	-5018
▁susipaž	-5019
atai	-5020
gres	-5021
dav	-5022
▁pasiryž	-5023
▁informac	-5024
▁susidūr	-5025
▁daugumos	-5026
▁dabartinę	-5027
▁nesilaik	-5028
iskal	-5029
▁aštu	-5030
▁naik	-5031
▁ambic	-5032
▁kiekio	-5033
▁pažangi	-5034
▁valstybę	-5035
▁diskriminacija	-5036
lim	-5037
tijai	-5038
▁efektą	-5039
▁nedarbo	-5040
iuose	-5041
▁liepos	-5042
▁Palestin	-5043
▁reglamentuoj	-5044
▁sugr	-5045
▁vaist	-5046
▁prezidentas	-5047
▁minėjau	-5048
▁balsavome	-5049
▁įtraukta	-5050
▁patekti	-5051
▁priimta	-5052
▁tikriausiai	-5053
angl	-5054
▁Ačiū	-5055
▁priorite	-5056
▁susiduriame	-5057
▁Portugalijos	-5058
▁bar	-5059
mesti	-5060
▁milžin	-5061
▁suvien	-5062
▁tekstą	-5063
▁žalos	-5064
▁galite	-5065
▁daugybę	-5066
▁Baltarusijos	-5067
šv	-5068
▁krize	-5069
▁metams	-5070
▁strategijoje	-5071
▁žud	-5072
entas	-5073
inimus	-5074
▁dalyvauja	-5075
▁To	-5076
ced	-5077
▁buvau	-5078
tiniais	-5079
▁dioksid	-5080
▁susisiek	-5081
iamą	-5082
▁suž	-5083
▁prievar	-5084
▁rinkimus	-5085
▁socialinį	-5086
▁susitarimai	-5087
kalb	-5088
▁imtasi	-5089
▁vertės	-5090
▁obj	-5091
▁sakyti	-5092
Pirminink	-5093
▁standartai	-5094
▁Toks	-5095
▁ginklų	-5096
▁aukštos	-5097
▁pinigai	-5098
▁pagrindo	-5099
▁Žmogaus	-5100
▁sutartimi	-5101
▁patyr	-5102
▁palank	-5103
▁kiekvienos	-5104
▁kam	-5105
▁turint	-5106
▁savaime	-5107
▁įvykdyti	-5108
▁balandžio	-5109
▁apmokestin	-5110
liav	-5111
▁žais	-5112
ėjimus	-5113
▁minut	-5114
▁nuosekl	-5115
▁naudojami	-5116
las	-5117
▁veikimo	-5118
▁būtinybę	-5119
▁asmeniškai	-5120
▁vertinimą	-5121
▁koordinavimo	-5122
▁kompromisą	-5123
▁šak	-5124
▁Pastar	-5125
▁iniciatyvas	-5126
iųsti	-5127
▁kilo	-5128
▁žemyn	-5129
▁kontek	-5130
▁regioninės	-5131
▁demokratija	-5132
▁pagrindiniai	-5133
Darbo	-5134
▁keliu	-5135
ygtinai	-5136
tinos	-5137
▁EI	-5138
▁sąrašą	-5139
▁kiekviena	-5140
▁praktiškai	-5141
▁darn	-5142
finans	-5143
▁pirmin	-5144
▁suprantu	-5145
▁straipsnį	-5146
▁gra	-5147
▁tenden	-5148
▁lygmens	-5149
▁pirmasis	-5150
▁suteikiama	-5151
LE	-5152
▁žurn	-5153
▁atvirai	-5154
▁ug	-5155
rašau	-5156
▁kalbų	-5157
▁Kiekvien	-5158
▁nereikal	-5159
▁įgaliojimus	-5160
▁Švedijos	-5161
▁persvarstyti	-5162
asti	-5163
▁išme	-5164
▁medic	-5165
▁ketiname	-5166
▁visuomet	-5167
▁komitetui	-5168
▁Karalystės	-5169
▁gau	-5170
▁siau	-5171
▁balsų	-5172
▁keisti	-5173
▁nustatytos	-5174
▁didžiausias	-5175
▁nuosto	-5176
▁pagrįsta	-5177
▁pareikal	-5178
▁prir	-5179
▁pakenk	-5180
▁vaikams	-5181
▁dalyvauj	-5182
▁prioritetus	-5183
▁ketvirt	-5184
▁tenk	-5185
▁Sveik	-5186
▁lieka	-5187
▁neįgal	-5188
▁Kopenhagos	-5189
▁mon	-5190
dėlio	-5191
kyrus	-5192
▁įman	-5193
▁įmones	-5194
▁palengvinti	-5195
▁JK	-5196
▁nelaimių	-5197
▁pateiktą	-5198
▁pasirinkti	-5199
▁išgyven	-5200
ovos	-5201
telek	-5202
▁garb	-5203
▁Žemės	-5204
▁atsakingi	-5205
▁skaičiaus	-5206
▁kaina	-5207
▁kovai	-5208
▁paslaugos	-5209
▁automobili	-5210
rai	-5211
siai	-5212
▁kokie	-5213
▁Pagaliau	-5214
▁susilaik	-5215
▁valiutos	-5216
▁apibrėžti	-5217
tųsi	-5218
ūkes	-5219
▁nuž	-5220
▁Vidurio	-5221
▁gamintojų	-5222
▁patirtimi	-5223
▁sistemoje	-5224
alas	-5225
▁pasinaud	-5226
trūk	-5227
▁Tokia	-5228
▁rengti	-5229
▁kompetencijos	-5230
▁nenori	-5231
▁tikisi	-5232
▁reitingų	-5233
▁įstatymo	-5234
▁vidutinės	-5235
▁socialistų	-5236
▁diktat	-5237
▁išvadas	-5238
▁Turėtume	-5239
osovo	-5240
▁gaus	-5241
▁išreikš	-5242
▁saugumui	-5243
▁programoje	-5244
▁septyn	-5245
▁poreikis	-5246
▁įvairovės	-5247
▁pakarto	-5248
▁naujovių	-5249
▁priimant	-5250
ah	-5251
▁kalbu	-5252
▁lūkes	-5253
▁skund	-5254
▁vaikus	-5255
▁pateiks	-5256
▁demograf	-5257
▁pasakyta	-5258
▁socialin	-5259
▁vietovėse	-5260
▁pagrindinius	-5261
oh	-5262
▁kokiu	-5263
▁žaliav	-5264
▁argumen	-5265
▁Kom	-5266
▁savi	-5267
▁500	-5268
▁Pili	-5269
▁tęsi	-5270
▁nesus	-5271
▁ieškoti	-5272
▁teisinę	-5273
▁tyrimai	-5274
▁svarbius	-5275
▁skatinimo	-5276
▁ataskaitoje	-5277
50	-5278
▁Kos	-5279
retori	-5280
▁pasis	-5281
▁diskriminacijos	-5282
▁Jame	-5283
▁pagam	-5284
▁reikšmę	-5285
▁vair	-5286
▁Kosovo	-5287
▁sakiau	-5288
▁paprastai	-5289
▁pasirengę	-5290
gą	-5291
▁grąž	-5292
▁ministras	-5293
▁pasaulinės	-5294
usias	-5295
▁narko	-5296
▁kūrimą	-5297
▁augimas	-5298
tariame	-5299
▁kolega	-5300
▁ekstrem	-5301
▁partija	-5302
▁narystės	-5303
▁pasaulinio	-5304
▁gamybą	-5305
▁teksti	-5306
▁žingsnį	-5307
▁tikslams	-5308
▁naudojamos	-5309
▁diskusijoje	-5310
▁paslaugomis	-5311
▁subsidiarumo	-5312
▁konkurencingumo	-5313
įsta	-5314
žval	-5315
▁duoti	-5316
▁vertę	-5317
rikščion	-5318
▁aspektą	-5319
▁akivaizd	-5320
jam	-5321
uma	-5322
olid	-5323
tinų	-5324
avimus	-5325
erland	-5326
▁sporto	-5327
▁nusipeln	-5328
▁leidžiama	-5329
linkos	-5330
▁seksual	-5331
▁kontekst	-5332
arų	-5333
bus	-5334
▁mintis	-5335
▁Preziden	-5336
▁parengtas	-5337
gia	-5338
mei	-5339
▁Lo	-5340
▁fondą	-5341
▁neats	-5342
▁neturin	-5343
▁paskelbti	-5344
▁priešingai	-5345
otų	-5346
▁narei	-5347
▁moderniz	-5348
▁Prancūzija	-5349
liams	-5350
▁kredito	-5351
▁dioksido	-5352
▁nustatytų	-5353
▁parlamento	-5354
▁tarptautinę	-5355
▁60	-5356
▁daugeliui	-5357
▁veiksminga	-5358
▁veiksmingiau	-5359
inasi	-5360
▁asign	-5361
▁subalans	-5362
▁išmetamųjų	-5363
▁Stras	-5364
▁krizė	-5365
▁sulauk	-5366
▁valdys	-5367
inus	-5368
▁Mak	-5369
ingumą	-5370
▁esate	-5371
ėjimui	-5372
▁Trans	-5373
▁nužud	-5374
▁kortel	-5375
▁art	-5376
▁Euro	-5377
▁avari	-5378
▁intelek	-5379
▁tarptautinio	-5380
▁PV	-5381
▁mar	-5382
▁pere	-5383
▁palaiko	-5384
▁vystymąsi	-5385
▁Kroati	-5386
▁daugiašal	-5387
▁srau	-5388
ši	-5389
ėtos	-5390
▁nam	-5391
▁tradi	-5392
▁nelaimės	-5393
▁operatori	-5394
▁23	-5395
▁ign	-5396
▁jumis	-5397
acijomis	-5398
▁Briuselyje	-5399
▁europiečių	-5400
▁lo	-5401
mečio	-5402
▁žalą	-5403
▁žuvų	-5404
damasi	-5405
▁Sutinku	-5406
aną	-5407
▁įnaš	-5408
ankiai	-5409
▁tikrov	-5410
▁efektyvumą	-5411
ema	-5412
▁dėti	-5413
▁vasario	-5414
▁šiuolaik	-5415
▁gamintojams	-5416
▁problemomis	-5417
alu	-5418
tri	-5419
inte	-5420
sming	-5421
▁vyksi	-5422
▁išanks	-5423
▁Tiesą	-5424
▁rimtų	-5425
▁teikimo	-5426
▁ženklas	-5427
▁sukeliančių	-5428
LT	-5429
liui	-5430
▁pai	-5431
▁įstatymus	-5432
▁vos	-5433
bendr	-5434
▁emis	-5435
▁atvejis	-5436
▁nuveikti	-5437
main	-5438
▁paspar	-5439
▁reikalingos	-5440
eld	-5441
iojo	-5442
▁padėčiai	-5443
▁atgal	-5444
▁verta	-5445
▁dvišal	-5446
▁pradžios	-5447
▁nustatant	-5448
▁įvairiose	-5449
▁baigti	-5450
▁grįžti	-5451
▁išveng	-5452
▁miestų	-5453
▁ragina	-5454
▁žodžius	-5455
▁nepamiršti	-5456
▁įvykiai	-5457
▁narkotik	-5458
▁skirtumus	-5459
▁planus	-5460
▁tvirtą	-5461
▁peržiūrėti	-5462
▁konkurenciją	-5463
ytina	-5464
▁abiejų	-5465
▁subjek	-5466
▁nuspręsti	-5467
▁skatinant	-5468
▁atnaujinti	-5469
tims	-5470
▁Kal	-5471
ečiai	-5472
▁blok	-5473
yto	-5474
▁išsamiai	-5475
▁skaitmen	-5476
▁pažeidimus	-5477
▁for	-5478
yderland	-5479
▁konsolid	-5480
▁kreiptis	-5481
▁objektyv	-5482
▁pasirengusi	-5483
uoda	-5484
▁linkme	-5485
▁svarstymą	-5486
co	-5487
lis	-5488
▁veng	-5489
▁paded	-5490
▁pirmyn	-5491
▁įsikiš	-5492
▁pagarbą	-5493
▁sužinoti	-5494
TE	-5495
irk	-5496
▁iškil	-5497
IS	-5498
pu	-5499
▁Koki	-5500
▁atėjo	-5501
▁teise	-5502
tekcion	-5503
▁vertina	-5504
▁viešojo	-5505
▁rinkimai	-5506
▁konflikto	-5507
edon	-5508
acijoje	-5509
▁tekstilės	-5510
▁dalyvavimą	-5511
ektais	-5512
▁konserv	-5513
▁nusikalstam	-5514
▁0	-5515
▁tyrimą	-5516
▁laikantis	-5517
▁konkrečius	-5518
▁elgi	-5519
▁politinius	-5520
▁suprantama	-5521
▁likti	-5522
▁koncep	-5523
▁tikslu	-5524
▁paketas	-5525
▁susitarimu	-5526
▁skl	-5527
▁nurodyta	-5528
▁Baigdamas	-5529
krikščionių	-5530
▁prisijungti	-5531
,5	-5532
int	-5533
tingą	-5534
▁siun	-5535
albėti	-5536
▁ištir	-5537
▁prašymą	-5538
▁perkelti	-5539
▁sutarčiai	-5540
▁fiz	-5541
▁dydžio	-5542
▁proporc	-5543
▁teigiamas	-5544
▁kampan	-5545
▁sutikti	-5546
▁pranešimų	-5547
▁įž	-5548
▁Ger	-5549
▁Ver	-5550
▁naštą	-5551
▁vykdo	-5552
▁tinklo	-5553
▁tekstas	-5554
▁teisinio	-5555
▁Hai	-5556
▁Susi	-5557
▁norm	-5558
▁palanki	-5559
▁teisinį	-5560
KR	-5561
▁gamtos	-5562
▁laikyti	-5563
▁Tarptautinės	-5564
▁humanitarinės	-5565
▁įspūd	-5566
▁galios	-5567
▁agentūra	-5568
tojais	-5569
▁abipus	-5570
▁tvarką	-5571
▁rinkose	-5572
▁Nyderland	-5573
▁primygtinai	-5574
eną	-5575
eder	-5576
▁Nėra	-5577
▁darbu	-5578
▁miesto	-5579
▁Vyriaus	-5580
▁stojimo	-5581
▁krovinių	-5582
-0	-5583
ero	-5584
▁kuro	-5585
▁pral	-5586
▁nusiv	-5587
▁specif	-5588
▁produktai	-5589
iomis	-5590
▁pagrindinį	-5591
▁užmokesčio	-5592
▁esančių	-5593
▁kompromisas	-5594
arto	-5595
▁įvykius	-5596
▁prisidėjo	-5597
▁socialinius	-5598
▁chem	-5599
▁atver	-5600
tinkame	-5601
▁kenčia	-5602
▁teismų	-5603
▁tiksliai	-5604
▁pasitikėjimo	-5605
tijų	-5606
▁atsig	-5607
▁tautų	-5608
iniuose	-5609
▁kitoje	-5610
▁Ministr	-5611
▁Palestinos	-5612
▁pastaraisiais	-5613
ambl	-5614
▁popie	-5615
▁kartus	-5616
▁ekonominį	-5617
▁didžiausių	-5618
gion	-5619
▁išorin	-5620
▁neties	-5621
▁bausmės	-5622
▁pacientų	-5623
▁principais	-5624
▁asociacijos	-5625
blog	-5626
ikro	-5627
▁susil	-5628
▁tinklų	-5629
▁vadovai	-5630
▁Afrikoje	-5631
anto	-5632
▁gerų	-5633
▁stok	-5634
▁sugri	-5635
▁darbdav	-5636
▁panaudo	-5637
▁rekomendacijas	-5638
uis	-5639
▁Raštiški	-5640
▁makro	-5641
▁dialogas	-5642
▁raginame	-5643
▁mechanizmą	-5644
▁palikti	-5645
▁atitiktų	-5646
▁mokėjimų	-5647
▁numatytas	-5648
ord	-5649
▁slap	-5650
sienio	-5651
yzdžiui	-5652
▁principai	-5653
atijos	-5654
▁sumok	-5655
▁Aplinkos	-5656
▁dokumentas	-5657
▁Ark	-5658
▁jauči	-5659
▁gamyba	-5660
▁pagarbos	-5661
ier	-5662
tynų	-5663
istai	-5664
▁skyr	-5665
audami	-5666
▁kriterijų	-5667
▁sektoriuose	-5668
▁būsim	-5669
▁kainas	-5670
▁nuorod	-5671
▁išsilav	-5672
▁įsitikinusi	-5673
▁PVM	-5674
elaid	-5675
▁sujung	-5676
▁žengti	-5677
▁neišven	-5678
▁veiklai	-5679
▁prieinam	-5680
▁teigiamą	-5681
▁darbuotojus	-5682
nes	-5683
▁80	-5684
▁Nem	-5685
▁sutelk	-5686
▁laikais	-5687
▁Bulgarijos	-5688
▁Visa	-5689
▁aukšt	-5690
▁vieta	-5691
▁aspektai	-5692
▁diskutuojame	-5693
▁Ank	-5694
▁Artim	-5695
▁grand	-5696
▁pavyks	-5697
ėjęs	-5698
▁log	-5699
▁vard	-5700
▁bendrijos	-5701
▁spręs	-5702
▁aukšto	-5703
▁įgū	-5704
tumas	-5705
▁nepasiek	-5706
▁valdymas	-5707
▁direktyvoje	-5708
ru	-5709
dymo	-5710
▁toli	-5711
▁netaik	-5712
▁importo	-5713
▁aukščiausio	-5714
▁atr	-5715
istro	-5716
▁Rūmai	-5717
▁mokėti	-5718
▁varg	-5719
▁Makedon	-5720
▁plačiai	-5721
▁savaites	-5722
▁religijos	-5723
▁Sach	-5724
▁dešim	-5725
▁protekcion	-5726
▁veiksmingas	-5727
tarimas	-5728
▁klaidų	-5729
▁atkūrimo	-5730
▁netek	-5731
▁įtrauktos	-5732
augumo	-5733
▁tikrus	-5734
alią	-5735
▁ilgą	-5736
▁ruož	-5737
▁užuot	-5738
▁gaires	-5739
▁žodžių	-5740
žym	-5741
▁jėga	-5742
▁Žinau	-5743
▁Gruzijos	-5744
▁investicijos	-5745
ena	-5746
▁blo	-5747
▁vir	-5748
jomis	-5749
▁Kosov	-5750
▁nesud	-5751
▁minėta	-5752
▁atliktą	-5753
▁konstitu	-5754
▁Kroatijos	-5755
▁tūkstančių	-5756
▁technologijos	-5757
tųjų	-5758
tojui	-5759
virtina	-5760
▁kasmet	-5761
▁pranešimus	-5762
▁kelti	-5763
▁pajamas	-5764
▁Britanijos	-5765
▁riziką	-5766
▁pasiekėme	-5767
▁geriausias	-5768
ėjote	-5769
ume	-5770
▁išsprę	-5771
▁pilietinės	-5772
▁save	-5773
▁radik	-5774
▁general	-5775
▁pertvark	-5776
teik	-5777
atlan	-5778
▁Aust	-5779
▁atgai	-5780
▁išplėsti	-5781
▁imigrantų	-5782
▁socialines	-5783
aiš	-5784
opol	-5785
▁ligų	-5786
▁pagarba	-5787
▁užtikrina	-5788
▁atitinkamų	-5789
▁tab	-5790
▁lankstumo	-5791
▁ūkininkai	-5792
▁tro	-5793
iamų	-5794
esticid	-5795
▁svarba	-5796
▁pereiti	-5797
▁sukelia	-5798
▁dalyvavo	-5799
▁pareiškimą	-5800
▁projektams	-5801
eč	-5802
onien	-5803
▁geros	-5804
▁išskyrus	-5805
▁neigiamą	-5806
tinei	-5807
▁Pask	-5808
▁gale	-5809
▁aiškią	-5810
▁prisideda	-5811
▁reikalavimas	-5812
▁Vyriausyb	-5813
atūr	-5814
amomis	-5815
▁partijų	-5816
▁Stabilumo	-5817
ite	-5818
▁24	-5819
ymasis	-5820
▁gauna	-5821
▁tapat	-5822
▁išlieka	-5823
▁pokyčiai	-5824
▁sunkumus	-5825
▁ribos	-5826
▁nereiškia	-5827
▁patenkintas	-5828
▁Šių	-5829
▁main	-5830
▁Galiu	-5831
▁perdirb	-5832
▁nuomonei	-5833
poli	-5834
▁anti	-5835
▁judėti	-5836
▁struktūros	-5837
▁vidutinėms	-5838
▁pama	-5839
▁žinia	-5840
▁Teismo	-5841
▁darome	-5842
▁mokesčio	-5843
▁suteiktų	-5844
ajai	-5845
ioji	-5846
uris	-5847
▁gėd	-5848
▁res	-5849
tosios	-5850
uodama	-5851
▁pradžia	-5852
▁mažosioms	-5853
▁reikalingi	-5854
▁nusikaltimų	-5855
▁parodo	-5856
▁tebėra	-5857
▁norėjau	-5858
▁veiksnys	-5859
els	-5860
▁Ko	-5861
▁dvas	-5862
ausius	-5863
▁įdarb	-5864
▁vadovų	-5865
▁tikslui	-5866
ge	-5867
▁skirtumų	-5868
▁apgailestauju	-5869
urd	-5870
▁Bosn	-5871
▁asmuo	-5872
▁gerbiam	-5873
▁trukmės	-5874
▁nukentėjusi	-5875
ba	-5876
rius	-5877
▁Laik	-5878
▁kenki	-5879
▁vykti	-5880
▁dvigub	-5881
▁organų	-5882
▁priemone	-5883
▁palaikymo	-5884
▁sekretori	-5885
▁Pavyzdžiui	-5886
▁dalyvavimas	-5887
▁įraš	-5888
▁atgaiv	-5889
▁krikščion	-5890
▁perkėlimo	-5891
▁egzistuoja	-5892
▁straipsnyje	-5893
▁Bir	-5894
▁lob	-5895
▁indėlį	-5896
▁privači	-5897
▁susijusią	-5898
ėlyn	-5899
▁toler	-5900
▁elgesio	-5901
▁sunkiai	-5902
ūre	-5903
▁ignor	-5904
▁uostų	-5905
▁atsidūr	-5906
▁priimtų	-5907
▁prielaid	-5908
▁vienodas	-5909
▁dalyvavimo	-5910
▁užtikrinimo	-5911
eguli	-5912
▁baud	-5913
▁siej	-5914
▁naryst	-5915
▁teksto	-5916
▁atskirų	-5917
▁susidar	-5918
▁išgirsti	-5919
▁teisinių	-5920
erkti	-5921
▁jūroje	-5922
ald	-5923
ento	-5924
turi	-5925
▁Tib	-5926
egalų	-5927
▁kvie	-5928
▁pasist	-5929
▁potvyn	-5930
▁teisiškai	-5931
▁prisiminti	-5932
ade	-5933
ybių	-5934
▁šiau	-5935
▁sukūr	-5936
▁nedalyv	-5937
▁nusivyl	-5938
▁įgaliojimų	-5939
anga	-5940
▁fiskal	-5941
▁konkurencija	-5942
prasm	-5943
▁interesams	-5944
▁nekalb	-5945
▁teigia	-5946
▁tobulinti	-5947
tiko	-5948
amais	-5949
▁Remiantis	-5950
▁pakartoti	-5951
."	-5952
▁lais	-5953
▁Manome	-5954
▁atmesti	-5955
▁pritaikyti	-5956
uš	-5957
▁suma	-5958
▁tiesą	-5959
▁milijard	-5960
▁mokėtojų	-5961
▁pasiruoš	-5962
▁sunaik	-5963
▁patrauk	-5964
▁ekonominius	-5965
▁Tiesa	-5966
▁149	-5967
▁įreng	-5968
tinėmis	-5969
▁teismin	-5970
▁trūkumų	-5971
▁augin	-5972
▁pelno	-5973
▁Italijoje	-5974
▁situaciją	-5975
yme	-5976
loat	-5977
iosios	-5978
▁Moter	-5979
mano	-5980
▁rams	-5981
▁sveikatą	-5982
▁mokesčius	-5983
▁organizacija	-5984
PS	-5985
pagal	-5986
▁ateičiai	-5987
▁ekonomin	-5988
▁ataskaita	-5989
labai	-5990
▁išreišk	-5991
▁Komisare	-5992
lus	-5993
▁vidutinių	-5994
▁visuomenėje	-5995
▁pavaduotojas	-5996
sk	-5997
▁kank	-5998
▁sąmon	-5999
▁paveik	-6000
▁tyrimo	-6001
▁valdžia	-6002
▁Ket	-6003
▁teko	-6004
ektori	-6005
▁vienodai	-6006
▁ryžtingai	-6007
oro	-6008
▁Kub	-6009
▁Esame	-6010
▁nesut	-6011
▁puikus	-6012
▁svarbiu	-6013
▁bendrovėms	-6014
▁atitinkamai	-6015
ystėje	-6016
▁gyvul	-6017
▁suras	-6018
▁žinią	-6019
▁taikymą	-6020
▁žmogišk	-6021
▁susisiekimo	-6022
▁veiksmingumą	-6023
saug	-6024
ūriz	-6025
▁PSE	-6026
entus	-6027
▁Atsak	-6028
▁turite	-6029
▁sparčiai	-6030
▁internete	-6031
▁konfliktų	-6032
▁vyn	-6033
uosel	-6034
▁ligos	-6035
▁pobūd	-6036
▁demokratinės	-6037
ėmės	-6038
▁moral	-6039
▁steig	-6040
▁naudojama	-6041
▁užtikrins	-6042
iškus	-6043
▁bais	-6044
▁tašk	-6045
▁žodį	-6046
▁faktas	-6047
▁pesticid	-6048
▁priežiūra	-6049
▁koordinuoti	-6050
▁krizei	-6051
▁žodžiu	-6052
▁vykdymo	-6053
▁sumažėjo	-6054
▁besivystančioms	-6055
▁dyd	-6056
▁red	-6057
rijai	-6058
▁formul	-6059
▁eksploat	-6060
iog	-6061
alaik	-6062
iskus	-6063
▁Lotynų	-6064
▁valdyti	-6065
▁sandorių	-6066
▁situacija	-6067
viz	-6068
▁lyderi	-6069
▁leidimų	-6070
▁statybos	-6071
▁AKR	-6072
▁infrastruktūrą	-6073
koh	-6074
virš	-6075
▁Str	-6076
▁serg	-6077
▁forma	-6078
▁Graikija	-6079
esniu	-6080
▁orient	-6081
▁iškelti	-6082
▁tose	-6083
▁sprag	-6084
▁padėjo	-6085
▁pranešti	-6086
▁sankcijų	-6087
anui	-6088
▁sritys	-6089
▁nemanau	-6090
▁tvaraus	-6091
▁nepavyko	-6092
▁pavojaus	-6093
▁En	-6094
▁galo	-6095
▁mąst	-6096
▁dalyką	-6097
▁iššūkis	-6098
▁pasmerk	-6099
▁Konstitu	-6100
▁Serbijos	-6101
▁savaičių	-6102
omet	-6103
▁baigi	-6104
▁ekspertų	-6105
▁Le	-6106
▁iškėl	-6107
▁pirmas	-6108
▁rūšies	-6109
▁pasekmes	-6110
▁gamintojai	-6111
bur	-6112
▁Du	-6113
▁areš	-6114
▁aiškų	-6115
▁internetu	-6116
▁vyriausybę	-6117
▁patvirtinta	-6118
CO	-6119
▁imp	-6120
▁būdą	-6121
▁komand	-6122
▁surink	-6123
▁prisiim	-6124
▁pereinam	-6125
▁socialine	-6126
▁konferencijos	-6127
▁Alb	-6128
▁islam	-6129
▁patirtį	-6130
▁tarnyba	-6131
▁migrantų	-6132
▁įsteigti	-6133
▁civilinės	-6134
▁pirmenybę	-6135
▁pateikiama	-6136
▁besivystančių	-6137
eit	-6138
▁Niek	-6139
▁etape	-6140
padėtis	-6141
▁dvejus	-6142
▁modelį	-6143
▁tyrimams	-6144
rab	-6145
roji	-6146
▁nelyg	-6147
▁visam	-6148
▁faktiškai	-6149
▁don	-6150
styti	-6151
▁gais	-6152
▁traged	-6153
▁pamok	-6154
▁teigiamų	-6155
ros	-6156
vež	-6157
▁skry	-6158
▁dalių	-6159
▁Mok	-6160
iečių	-6161
ančiam	-6162
▁natūr	-6163
▁išklaus	-6164
▁reformą	-6165
voliu	-6166
▁erdvę	-6167
▁kūryb	-6168
▁dirbančių	-6169
▁numatytos	-6170
▁terorizmo	-6171
▁neatidėlio	-6172
zy	-6173
▁gab	-6174
ėtoją	-6175
▁Vert	-6176
▁dieg	-6177
▁mumis	-6178
▁dinam	-6179
▁rimta	-6180
▁teikiant	-6181
yboje	-6182
▁darbų	-6183
▁pasekmių	-6184
▁tokiomis	-6185
ryp	-6186
ykd	-6187
omojo	-6188
▁Būtų	-6189
▁Viet	-6190
▁menk	-6191
▁nepro	-6192
▁suman	-6193
▁turto	-6194
▁grindžiama	-6195
aujama	-6196
eticijų	-6197
▁ministrų	-6198
▁tinkamos	-6199
▁stebėjimo	-6200
▁grindžiamas	-6201
▁panaikinimo	-6202
▁nepagr	-6203
▁piliet	-6204
▁trečiosios	-6205
EN	-6206
▁2000	-6207
▁aktas	-6208
▁platin	-6209
▁tokiais	-6210
▁Palankiai	-6211
erim	-6212
▁lėk	-6213
▁Antr	-6214
▁Priešingai	-6215
amiems	-6216
▁padal	-6217
▁Strasb	-6218
aliųjų	-6219
esiems	-6220
▁Raginu	-6221
▁draudži	-6222
▁Kinijoje	-6223
▁Valstijos	-6224
▁uždrausti	-6225
▁branduolinių	-6226
▁jomis	-6227
▁būtinos	-6228
▁pastabų	-6229
▁susidom	-6230
▁Daugelis	-6231
▁vertiname	-6232
▁susitarime	-6233
tiška	-6234
▁alkoh	-6235
▁galėčiau	-6236
▁Na	-6237
iamės	-6238
oslav	-6239
▁mikro	-6240
▁vaizd	-6241
▁bankas	-6242
stra	-6243
umat	-6244
ustat	-6245
▁nauji	-6246
▁pablog	-6247
▁spaudos	-6248
▁partneriais	-6249
▁pusiausvyros	-6250
ukš	-6251
▁paraš	-6252
▁smulk	-6253
▁tikro	-6254
▁sąveik	-6255
▁kontekste	-6256
rūs	-6257
pres	-6258
tino	-6259
▁Ber	-6260
▁Mat	-6261
mingi	-6262
▁gelb	-6263
▁trej	-6264
▁dirvo	-6265
▁pried	-6266
▁būtume	-6267
▁pradedant	-6268
▁vak	-6269
-2013	-6270
▁vieni	-6271
▁grąžin	-6272
▁praktika	-6273
▁pridurti	-6274
▁sudarytos	-6275
▁perspektyvos	-6276
amoms	-6277
▁kvotų	-6278
▁nenor	-6279
▁Finans	-6280
problema	-6281
▁pavyzdžių	-6282
▁pasinaudoj	-6283
▁apd	-6284
▁anksto	-6285
▁pajėgų	-6286
▁importuoj	-6287
▁finansinio	-6288
▁De	-6289
iausi	-6290
▁Kanad	-6291
▁sutaup	-6292
▁taupymo	-6293
▁vykdomas	-6294
▁neatitinka	-6295
▁rekomendacijos	-6296
▁Aišku	-6297
▁darbe	-6298
▁integraciją	-6299
▁trečiosiomis	-6300
arą	-6301
alaus	-6302
▁metodą	-6303
▁prognoz	-6304
▁padėtimi	-6305
▁neišvengi	-6306
▁Kopenhagoje	-6307
▁Or	-6308
▁Azijos	-6309
▁mažųjų	-6310
▁klausimui	-6311
▁diskutuoti	-6312
tuos	-6313
yksta	-6314
ezoliu	-6315
▁nepag	-6316
▁puosel	-6317
▁bendrus	-6318
▁išnaudoti	-6319
▁korupcija	-6320
▁naudojasi	-6321
▁atoki	-6322
▁papli	-6323
▁Arkties	-6324
▁atsakinga	-6325
▁kiekvieno	-6326
▁nacionalinę	-6327
▁smer	-6328
▁Visos	-6329
▁Juodosios	-6330
ask	-6331
▁atim	-6332
▁išties	-6333
▁reikalus	-6334
▁įtikinti	-6335
▁įtvirtinti	-6336
▁administravimo	-6337
neš	-6338
▁Isl	-6339
▁aktą	-6340
▁įsig	-6341
prantu	-6342
▁krizių	-6343
▁sienas	-6344
antmečio	-6345
▁pakalbėti	-6346
▁sankcijas	-6347
▁šiandienos	-6348
dugn	-6349
▁Pos	-6350
▁pabėgė	-6351
▁laikoma	-6352
▁svarbią	-6353
▁regionai	-6354
ata	-6355
eviz	-6356
žvelgti	-6357
▁Sprend	-6358
▁numatoma	-6359
▁patvirtina	-6360
jer	-6361
▁abiem	-6362
▁Ispanija	-6363
▁einantis	-6364
▁imigrant	-6365
▁įsivaizd	-6366
▁galimybėmis	-6367
▁idėja	-6368
▁turinčių	-6369
ąlyg	-6370
▁ryšio	-6371
▁ištais	-6372
▁nedaug	-6373
▁nacionalinius	-6374
gas	-6375
▁kaden	-6376
▁Teisės	-6377
▁stovykl	-6378
▁apsaugai	-6379
▁teisinis	-6380
▁universit	-6381
eiški	-6382
▁išlyg	-6383
ugoslav	-6384
▁pramonę	-6385
▁įvairias	-6386
▁pavyzdžiu	-6387
▁perdavimo	-6388
▁sudėtingas	-6389
ho	-6390
aul	-6391
▁tad	-6392
▁protes	-6393
▁skaidri	-6394
vyriausyb	-6395
▁sistemai	-6396
▁kainą	-6397
▁praktikos	-6398
▁uždavinys	-6399
▁EIB	-6400
▁Šia	-6401
▁nedar	-6402
▁įveik	-6403
▁skurdą	-6404
▁atsakas	-6405
▁Užsienio	-6406
▁susijusį	-6407
▁tarpusavyje	-6408
olio	-6409
insime	-6410
▁mobil	-6411
▁nemok	-6412
▁saugą	-6413
Pirmininkas	-6414
▁nacionalines	-6415
▁išei	-6416
▁Vidaus	-6417
▁seniai	-6418
truktūriz	-6419
▁atsiranda	-6420
▁atsakingos	-6421
▁dokumentai	-6422
▁opozicijos	-6423
▁vadovaujantis	-6424
▁žr	-6425
etus	-6426
uotojai	-6427
▁smurtą	-6428
▁Centrin	-6429
▁atitikti	-6430
▁gyvenime	-6431
▁šaltinis	-6432
▁atsakymas	-6433
▁pasiprieš	-6434
▁struktūrą	-6435
▁Kr	-6436
▁kraš	-6437
▁atmes	-6438
▁lėšomis	-6439
▁visišką	-6440
▁dokumento	-6441
▁pareiškimas	-6442
▁pripažinimo	-6443
▁Fr	-6444
▁donor	-6445
▁atskirai	-6446
pus	-6447
dešimt	-6448
▁Tūkst	-6449
▁būdus	-6450
▁susipažinti	-6451
▁būst	-6452
▁peržiūr	-6453
▁Jugoslav	-6454
▁regionas	-6455
▁politines	-6456
ojimas	-6457
▁išsamų	-6458
▁kiekis	-6459
▁padidėjo	-6460
▁taikymas	-6461
esion	-6462
▁mažų	-6463
▁gautų	-6464
iskrimin	-6465
▁gyvenančių	-6466
▁Jų	-6467
▁ruoš	-6468
▁geresnės	-6469
▁klausimams	-6470
▁22	-6471
kaln	-6472
▁nusikaltimus	-6473
▁įsipareigojimas	-6474
bal	-6475
▁užp	-6476
šveln	-6477
▁galioja	-6478
▁pagrįsti	-6479
rob	-6480
ioti	-6481
uojau	-6482
uodamas	-6483
▁kokias	-6484
▁esminis	-6485
▁mechanizmas	-6486
▁išsiaiškinti	-6487
▁Aps	-6488
▁rizika	-6489
▁sutiko	-6490
▁daugiam	-6491
▁neatsak	-6492
▁pateiktus	-6493
▁politiniu	-6494
▁sprendimu	-6495
▁pasirinkimo	-6496
▁EB	-6497
ariai	-6498
▁pagir	-6499
▁nuodugn	-6500
▁paversti	-6501
▁reikalas	-6502
▁įvairovę	-6503
▁oficialiai	-6504
▁skaidrumas	-6505
ALE	-6506
sich	-6507
▁ord	-6508
▁karto	-6509
▁didžiulį	-6510
▁konstituc	-6511
olo	-6512
▁ok	-6513
▁Tada	-6514
ienyje	-6515
▁redak	-6516
▁režimas	-6517
▁švietimą	-6518
▁prem	-6519
▁darbui	-6520
▁Žinome	-6521
▁Pagrindinių	-6522
▁akc	-6523
▁energija	-6524
▁teisingas	-6525
▁naudojamas	-6526
▁pasirašyti	-6527
▁Sk	-6528
▁Verts	-6529
▁palūk	-6530
▁atostogų	-6531
▁susirink	-6532
▁dažniausiai	-6533
praneš	-6534
▁sakau	-6535
▁neaišk	-6536
▁asmenis	-6537
▁papildomą	-6538
▁aplinkybes	-6539
▁prioritetai	-6540
▁ačiū	-6541
▁Island	-6542
▁patobulinti	-6543
▁restruktūriz	-6544
no	-6545
intume	-6546
▁antai	-6547
▁stebėsenos	-6548
▁El	-6549
iasi	-6550
entro	-6551
▁suvo	-6552
▁vaiko	-6553
▁vidur	-6554
▁taryba	-6555
▁Indijos	-6556
▁reikėjo	-6557
▁bendroji	-6558
va	-6559
ečd	-6560
mūsų	-6561
▁zonoje	-6562
▁/	-6563
eistų	-6564
aiškos	-6565
▁buvusi	-6566
▁kovoje	-6567
▁ateitis	-6568
▁konsult	-6569
▁nurodoma	-6570
▁susitaik	-6571
▁savarankiškai	-6572
▁užk	-6573
▁kokius	-6574
▁Saugumo	-6575
▁Ukraina	-6576
▁iššūkių	-6577
▁baronien	-6578
▁pasaulis	-6579
▁finansines	-6580
gos	-6581
▁26	-6582
ioms	-6583
omunik	-6584
▁Pirmasis	-6585
▁regionui	-6586
▁komun	-6587
▁Norime	-6588
▁Norint	-6589
▁primen	-6590
▁pasimok	-6591
▁viešosios	-6592
▁laikotarpis	-6593
▁mechanizmus	-6594
nai	-6595
▁lemia	-6596
▁naujai	-6597
▁metodas	-6598
▁punktas	-6599
▁praeityje	-6600
▁siekdamos	-6601
▁reglamentavimo	-6602
elia	-6603
metį	-6604
▁praras	-6605
▁sakoma	-6606
▁geriausia	-6607
▁efektyviai	-6608
kozy	-6609
▁Herc	-6610
▁Latv	-6611
▁grėsm	-6612
▁protokolo	-6613
▁And	-6614
▁tun	-6615
eista	-6616
engvai	-6617
▁geresnį	-6618
▁nuomonių	-6619
tiškas	-6620
▁dirbo	-6621
▁apriboti	-6622
▁trūkumas	-6623
▁veiksmais	-6624
▁lygmenimis	-6625
imbab	-6626
▁spor	-6627
indami	-6628
tinėms	-6629
▁atrod	-6630
▁ilgiau	-6631
▁rūmuose	-6632
▁televiz	-6633
▁laikomas	-6634
▁nuostata	-6635
▁pasauliui	-6636
▁europiečiai	-6637
tap	-6638
▁Br	-6639
▁Atro	-6640
▁liūd	-6641
▁galių	-6642
▁lygiai	-6643
▁Sarkozy	-6644
▁ištirti	-6645
▁tinkami	-6646
▁istorijos	-6647
▁projektai	-6648
▁mechanizmo	-6649
▁Afganistano	-6650
▁besivystančiose	-6651
▁Buv	-6652
amumą	-6653
▁sukelti	-6654
▁daugybės	-6655
▁procesui	-6656
▁užimtumą	-6657
▁Pranešimas	-6658
ėt	-6659
vald	-6660
yven	-6661
▁norą	-6662
▁faktą	-6663
▁kitur	-6664
▁Rūmuose	-6665
▁mažumos	-6666
▁suvokti	-6667
▁žodžiais	-6668
▁motinystės	-6669
cinės	-6670
ijimo	-6671
▁pakto	-6672
▁derėtų	-6673
▁galutinį	-6674
▁prieštarin	-6675
ma	-6676
rist	-6677
▁mom	-6678
▁ram	-6679
▁atom	-6680
▁lengva	-6681
▁finansin	-6682
▁suteiktas	-6683
▁konferencijoje	-6684
zon	-6685
esia	-6686
ulio	-6687
ytik	-6688
▁iškr	-6689
olidar	-6690
▁kruop	-6691
▁leido	-6692
▁psich	-6693
▁apibūd	-6694
▁išaugo	-6695
▁išband	-6696
▁Demokra	-6697
▁ankstyv	-6698
▁pirmojo	-6699
▁vertinimas	-6700
anau	-6701
ausio	-6702
▁pusę	-6703
▁geresnio	-6704
▁renk	-6705
▁veid	-6706
▁trečd	-6707
▁atsirad	-6708
▁saugoti	-6709
▁interesai	-6710
▁suteikiant	-6711
jau	-6712
▁nusis	-6713
▁atliktas	-6714
▁produktams	-6715
▁ženklinimo	-6716
▁Poli	-6717
amasis	-6718
endrin	-6719
▁kalbė	-6720
▁brangi	-6721
▁kartos	-6722
▁perkel	-6723
▁galimas	-6724
▁laikomi	-6725
▁tinkamų	-6726
▁Komisijoje	-6727
▁informavimo	-6728
▁krikščionių	-6729
Par	-6730
inų	-6731
kon	-6732
▁TV	-6733
▁ac	-6734
▁nub	-6735
ėjimai	-6736
▁nebuv	-6737
▁populi	-6738
▁Tikimės	-6739
▁geresnę	-6740
▁lengvai	-6741
cinių	-6742
▁kokio	-6743
▁person	-6744
▁Moldovos	-6745
▁Rumunija	-6746
▁profesion	-6747
▁komen	-6748
▁rimtas	-6749
▁turėjome	-6750
▁geriausiai	-6751
▁panaudojimo	-6752
▁sch	-6753
imbabv	-6754
▁vienam	-6755
▁dažniau	-6756
.-	-6757
ell	-6758
ešim	-6759
▁Atl	-6760
▁dreb	-6761
▁toms	-6762
alizmo	-6763
▁leidimo	-6764
▁bendrojo	-6765
▁nuosekli	-6766
▁Vokietijoje	-6767
▁artėj	-6768
▁pager	-6769
▁gresia	-6770
▁būtinyb	-6771
▁išvados	-6772
▁vietose	-6773
▁dėkingas	-6774
▁nustatymo	-6775
▁preced	-6776
▁poreikių	-6777
▁veiksmingos	-6778
inome	-6779
▁ištik	-6780
▁mažas	-6781
▁tekste	-6782
▁veikloje	-6783
žu	-6784
čią	-6785
▁kelio	-6786
▁apžval	-6787
▁atstat	-6788
▁žodžiai	-6789
Komisijos	-6790
▁daugiamet	-6791
▁duj	-6792
▁jaunų	-6793
▁Paskutin	-6794
▁didžioji	-6795
▁išmetamų	-6796
▁pasienio	-6797
▁apribojimų	-6798
mėn	-6799
lika	-6800
divid	-6801
▁lyti	-6802
▁motyv	-6803
▁vakarą	-6804
▁autorius	-6805
▁vykdomos	-6806
▁skirtumai	-6807
▁Šią	-6808
▁medien	-6809
▁mobiliz	-6810
▁turinio	-6811
▁nusipelno	-6812
▁pasmerkti	-6813
▁konservatori	-6814
riją	-6815
▁Energ	-6816
▁taiką	-6817
▁šeimų	-6818
entuoti	-6819
ausiomis	-6820
▁individ	-6821
▁visuose	-6822
▁naudingi	-6823
▁prekybai	-6824
▁garantuoti	-6825
ER	-6826
▁iz	-6827
▁dži	-6828
ymais	-6829
kaitom	-6830
▁atsako	-6831
▁privers	-6832
▁užduoti	-6833
kalbėtoją	-6834
▁sveikata	-6835
▁nukentėjo	-6836
▁finansinius	-6837
autis	-6838
▁aiškios	-6839
▁kryptis	-6840
▁Graikijoje	-6841
▁gyventojus	-6842
▁Prancūzijoje	-6843
GF	-6844
vi	-6845
▁men	-6846
▁atvejus	-6847
▁prasidėjo	-6848
▁partnerystę	-6849
▁pačią	-6850
zo	-6851
iškumą	-6852
tingos	-6853
instituc	-6854
▁aplinka	-6855
▁augimui	-6856
▁bendruomenių	-6857
▁Atsižvelgdamas	-6858
kaitos	-6859
▁diena	-6860
▁Juodkaln	-6861
▁solidarumas	-6862
ks	-6863
▁deb	-6864
edarb	-6865
tišką	-6866
▁dienas	-6867
▁pagrįstą	-6868
▁teikiamos	-6869
▁situacijos	-6870
aras	-6871
▁ded	-6872
▁kitoki	-6873
▁išlikti	-6874
▁pasirūp	-6875
▁prieigą	-6876
▁nagrinėti	-6877
eic	-6878
lap	-6879
▁28	-6880
ausiu	-6881
▁mėlyn	-6882
▁pasit	-6883
▁teisus	-6884
▁sušveln	-6885
▁įstatymą	-6886
▁kriterijai	-6887
riki	-6888
tali	-6889
▁neno	-6890
▁grupėms	-6891
▁brang	-6892
▁dideles	-6893
▁revoliu	-6894
▁Transporto	-6895
▁politiniai	-6896
emp	-6897
▁štai	-6898
▁simbol	-6899
št	-6900
net	-6901
▁Sm	-6902
▁mės	-6903
Parlamen	-6904
▁sveikin	-6905
▁tinkamo	-6906
▁atsirado	-6907
▁įvairius	-6908
▁dokumente	-6909
▁dokumentus	-6910
▁ombudsmeno	-6911
▁potencialą	-6912
▁Tūkstantmečio	-6913
tur	-6914
ybų	-6915
terš	-6916
▁bud	-6917
▁laišk	-6918
ančiame	-6919
iesiems	-6920
tacijos	-6921
▁viešai	-6922
▁paskolų	-6923
▁apsvarst	-6924
▁valdysenos	-6925
▁delegacijos	-6926
ote	-6927
▁galin	-6928
▁skiria	-6929
▁smulki	-6930
▁Libijos	-6931
▁kalboje	-6932
▁Piliečių	-6933
▁Vengrija	-6934
▁Ang	-6935
eštar	-6936
▁ruožtu	-6937
▁autonom	-6938
▁transli	-6939
▁komentar	-6940
▁svarstome	-6941
VO	-6942
▁31	-6943
gąst	-6944
▁Tema	-6945
▁liud	-6946
uotojams	-6947
▁projekte	-6948
▁imigracija	-6949
▁diskusijoms	-6950
pir	-6951
icij	-6952
▁Pad	-6953
▁auto	-6954
▁Žmon	-6955
laikiau	-6956
▁sudarytų	-6957
▁kiekvienam	-6958
ulmon	-6959
varbu	-6960
▁sakė	-6961
istema	-6962
▁valios	-6963
▁tokioms	-6964
▁svarbiau	-6965
▁patikrinti	-6966
▁biur	-6967
avimai	-6968
▁trauk	-6969
▁fondai	-6970
uosiuose	-6971
▁naujųjų	-6972
▁prašome	-6973
▁prašyti	-6974
▁sudarymo	-6975
▁Pakistano	-6976
▁pabrėžia	-6977
▁skiriant	-6978
▁profesinių	-6979
▁pažeidžiami	-6980
▁užtikrinama	-6981
▁neatsižvelgiant	-6982
raud	-6983
▁Mek	-6984
▁Jums	-6985
▁ūkiui	-6986
▁žmogus	-6987
▁tarptautinėje	-6988
ėsti	-6989
▁muitų	-6990
▁aktais	-6991
▁metodus	-6992
▁mokestį	-6993
▁surasti	-6994
▁sukūrimo	-6995
▁Slovakijos	-6996
▁piliečiais	-6997
▁Pram	-6998
▁aukoms	-6999
▁judumo	-7000
▁mieste	-7001
▁pažiūr	-7002
▁žaliavų	-7003
▁atitinkamos	-7004
▁Atrodo	-7005
▁inicij	-7006
▁skolos	-7007
▁apginti	-7008
▁teroristų	-7009
▁balsuosime	-7010
ner	-7011
▁70	-7012
otiek	-7013
taria	-7014
▁test	-7015
▁susilpn	-7016
▁vietovių	-7017
▁penkerius	-7018
▁peržiūros	-7019
▁atsižvelgdami	-7020
ystę	-7021
▁det	-7022
ajame	-7023
kiant	-7024
▁tarpu	-7025
▁pirkimų	-7026
▁kairiųjų	-7027
vies	-7028
▁įrangos	-7029
▁konkrečias	-7030
▁narį	-7031
▁įkal	-7032
▁atkak	-7033
▁gerov	-7034
▁nauda	-7035
▁naudoja	-7036
▁privati	-7037
ten	-7038
▁esamų	-7039
▁lyder	-7040
▁tvarų	-7041
▁šešių	-7042
▁Ketvir	-7043
▁bankai	-7044
▁būdais	-7045
▁monopol	-7046
▁pastatų	-7047
▁susitel	-7048
▁pagrįstai	-7049
jį	-7050
inai	-7051
▁Eur	-7052
▁pie	-7053
eicari	-7054
▁gerovę	-7055
▁reiški	-7056
▁modelio	-7057
▁reikštų	-7058
▁teisėtai	-7059
▁pesticidų	-7060
▁pasauliniu	-7061
avus	-7062
otas	-7063
▁kos	-7064
▁ribas	-7065
tiniams	-7066
▁galutinis	-7067
▁biologinės	-7068
▁padariniai	-7069
rima	-7070
▁daugi	-7071
▁našta	-7072
▁matėme	-7073
▁kreditų	-7074
▁valstybė	-7075
▁milijonai	-7076
▁pavojingų	-7077
▁Rumunijoje	-7078
ojimą	-7079
ykime	-7080
▁įvairov	-7081
▁Žaliųjų	-7082
▁reguliuoti	-7083
▁vartotojus	-7084
ats	-7085
inas	-7086
tose	-7087
avusi	-7088
▁atšil	-7089
▁nemat	-7090
▁repres	-7091
▁Rytuose	-7092
▁nuostab	-7093
▁pažeidimo	-7094
uel	-7095
toju	-7096
▁siaub	-7097
▁reforma	-7098
▁remdamiesi	-7099
▁paspartinti	-7100
arm	-7101
stos	-7102
▁pais	-7103
▁prag	-7104
▁ūkis	-7105
▁jokiu	-7106
▁kilti	-7107
▁susitarimui	-7108
▁humanitarinę	-7109
būtų	-7110
▁Bus	-7111
▁lėm	-7112
▁laikui	-7113
▁nukryp	-7114
▁pasaulį	-7115
▁produktais	-7116
▁liberalizavimo	-7117
UE	-7118
▁šešis	-7119
▁ideolog	-7120
▁Neseniai	-7121
▁kadencijos	-7122
▁papildomos	-7123
▁savęs	-7124
ininkas	-7125
▁augalų	-7126
▁centro	-7127
▁galimų	-7128
▁patirtis	-7129
▁reikšmės	-7130
▁sunkumais	-7131
▁kompromiso	-7132
▁(1	-7133
egov	-7134
▁liko	-7135
▁tolim	-7136
▁gairių	-7137
▁tokiai	-7138
▁Afganistane	-7139
▁vyriausybei	-7140
▁įgyvendinta	-7141
AF	-7142
▁1,	-7143
amojo	-7144
▁skland	-7145
▁skatinama	-7146
▁Jungtinėse	-7147
ieti	-7148
ysis	-7149
▁orien	-7150
▁Teismas	-7151
▁įstaigų	-7152
▁Hercegov	-7153
▁patvirtinimas	-7154
inč	-7155
▁Ob	-7156
▁198	-7157
uotai	-7158
▁tipo	-7159
▁įvyks	-7160
▁vienoje	-7161
▁Lenkijoje	-7162
▁judėjimas	-7163
▁reikalavimą	-7164
▁teritorijos	-7165
▁demokratinių	-7166
šį	-7167
ašal	-7168
aktyv	-7169
▁Apie	-7170
▁Indija	-7171
▁naštos	-7172
▁Kroatija	-7173
▁atskaitom	-7174
▁29	-7175
▁sam	-7176
europ	-7177
▁išmokų	-7178
▁nuogąst	-7179
▁tolesnių	-7180
▁vertybės	-7181
anu	-7182
ūdin	-7183
▁gaben	-7184
▁imasi	-7185
▁atspindi	-7186
▁Šveicari	-7187
▁kariuomen	-7188
jū	-7189
imin	-7190
ėdis	-7191
ydamos	-7192
▁skamb	-7193
▁apytik	-7194
▁atskirti	-7195
▁dujotiek	-7196
▁kiekvienoje	-7197
▁apmokestinimo	-7198
▁tarptautinius	-7199
NG	-7200
Pos	-7201
▁Dun	-7202
▁buvę	-7203
▁neįv	-7204
▁gaila	-7205
▁Meksik	-7206
▁kenkia	-7207
▁tabako	-7208
▁nenorime	-7209
▁moksliniams	-7210
▁Som	-7211
▁siūlau	-7212
▁gaminti	-7213
▁verslui	-7214
▁įvairios	-7215
▁NVO	-7216
atsak	-7217
▁mand	-7218
▁ženg	-7219
▁vengti	-7220
▁trūkumus	-7221
▁aspektais	-7222
▁nereikėtų	-7223
▁gerbiamieji	-7224
tiką	-7225
▁gili	-7226
▁lanks	-7227
▁stebė	-7228
▁atidar	-7229
▁tvarios	-7230
▁supranta	-7231
▁pasisakyti	-7232
▁socialinis	-7233
▁įgyvendinama	-7234
ka	-7235
▁GUE	-7236
▁Sus	-7237
▁bendri	-7238
▁indėlis	-7239
▁naujoji	-7240
▁nepasit	-7241
▁skurdži	-7242
▁svarbaus	-7243
▁patikinti	-7244
▁politiškai	-7245
▁fil	-7246
▁liga	-7247
▁raid	-7248
▁Schul	-7249
▁švies	-7250
▁remiame	-7251
▁Švedija	-7252
▁pagalvoti	-7253
▁veiksmingumo	-7254
vad	-7255
▁Sp	-7256
kaid	-7257
uotųjų	-7258
▁Šiais	-7259
▁užuojau	-7260
▁vienodą	-7261
▁geresnių	-7262
▁direktyvų	-7263
▁skatinamas	-7264
▁trumpalaik	-7265
▁ketvirtadienį	-7266
austi	-7267
galvo	-7268
▁2003	-7269
▁marš	-7270
▁nepr	-7271
tiniam	-7272
▁klest	-7273
▁tikru	-7274
▁žurnal	-7275
▁ankstesn	-7276
▁pradėtas	-7277
▁nustatytus	-7278
▁nusikalstamumu	-7279
▁Paž	-7280
▁stai	-7281
▁įgyti	-7282
▁Nemanau	-7283
▁pareigą	-7284
▁pareikš	-7285
▁statusą	-7286
▁pateiktos	-7287
▁dabartinių	-7288
▁vertybėmis	-7289
izmas	-7290
▁būna	-7291
eityje	-7292
▁kaitą	-7293
▁Airija	-7294
▁Amerik	-7295
▁linijų	-7296
iskusija	-7297
▁nusiteik	-7298
▁priežastys	-7299
▁problemoms	-7300
▁vadovautis	-7301
▁tarptautinį	-7302
otos	-7303
▁2002	-7304
▁Kipro	-7305
▁buvome	-7306
▁kultūrą	-7307
▁pajėgos	-7308
NTE	-7309
toji	-7310
vesti	-7311
▁Tikiu	-7312
▁idėją	-7313
▁tvirt	-7314
▁sukuria	-7315
▁mažinant	-7316
▁direktori	-7317
hol	-7318
pind	-7319
▁šird	-7320
▁lėktuv	-7321
▁atidėti	-7322
▁nariais	-7323
▁nenumat	-7324
▁didžiuli	-7325
▁pripažino	-7326
▁sukūrimas	-7327
▁sutinkame	-7328
igi	-7329
apie	-7330
▁Antro	-7331
▁galią	-7332
▁rimtą	-7333
▁didele	-7334
▁nedels	-7335
▁baigtas	-7336
▁Japonijos	-7337
▁konvenciją	-7338
▁prisitaikyti	-7339
ijau	-7340
iršta	-7341
uotus	-7342
▁fondus	-7343
▁išaišk	-7344
▁pobūdį	-7345
▁teigti	-7346
▁referendumo	-7347
▁įgaliojimai	-7348
ova	-7349
▁atg	-7350
alius	-7351
▁Gazos	-7352
▁darbus	-7353
▁tolesn	-7354
▁atliekant	-7355
▁skirtingas	-7356
30	-7357
af	-7358
NGL	-7359
sus	-7360
eneral	-7361
▁izoli	-7362
▁sumos	-7363
▁leista	-7364
▁būtinai	-7365
▁dideliu	-7366
▁regioną	-7367
▁įdiegti	-7368
▁politikų	-7369
▁partneriai	-7370
▁posėdį	-7371
▁verčia	-7372
▁pozicijas	-7373
▁apsisprend	-7374
▁transatlan	-7375
▁laikotarpiui	-7376
▁nacionalinio	-7377
DA	-7378
▁abu	-7379
aukaz	-7380
▁ding	-7381
▁gavo	-7382
▁užme	-7383
▁vyno	-7384
▁Tokiu	-7385
▁formų	-7386
▁planų	-7387
oficial	-7388
igraciją	-7389
▁derėtis	-7390
▁vandenyno	-7391
▁sukčiavimu	-7392
▁institucijose	-7393
limp	-7394
▁atneš	-7395
▁minti	-7396
▁rezerv	-7397
▁režimą	-7398
▁aukomis	-7399
▁svarstymo	-7400
▁ištekliais	-7401
▁pateikiami	-7402
▁skatinimas	-7403
▁kolegas	-7404
▁modelis	-7405
▁sritims	-7406
učių	-7407
▁praded	-7408
▁kultūrų	-7409
▁stabili	-7410
▁biudžete	-7411
▁istoriją	-7412
▁musulmon	-7413
▁vykstant	-7414
▁pastaruoju	-7415
ET	-7416
▁Tau	-7417
▁moka	-7418
▁piet	-7419
▁bando	-7420
▁absurd	-7421
▁asocia	-7422
▁kruopš	-7423
▁manyti	-7424
▁valdžią	-7425
ančiosios	-7426
▁deryboms	-7427
▁profesinio	-7428
▁bedarb	-7429
▁turbūt	-7430
▁keliais	-7431
▁nedarbas	-7432
▁poreikio	-7433
▁racional	-7434
eta	-7435
sel	-7436
uotu	-7437
▁norin	-7438
▁būtini	-7439
alizuoti	-7440
▁kūrimas	-7441
▁trūkumo	-7442
▁Rusijoje	-7443
▁produkto	-7444
▁ekonominiu	-7445
▁pripažįstama	-7446
ved	-7447
▁Cas	-7448
▁toje	-7449
mingas	-7450
▁Dunoj	-7451
▁netol	-7452
▁kodeks	-7453
▁didžiulis	-7454
ile	-7455
usiųjų	-7456
▁Kaukaz	-7457
▁šalimi	-7458
▁iškraip	-7459
▁sąjunga	-7460
▁didinant	-7461
▁didinimo	-7462
▁papildyti	-7463
▁konkrečios	-7464
▁ateinančius	-7465
▁taisyklėmis	-7466
▁įsipareigojo	-7467
etos	-7468
▁nul	-7469
ankos	-7470
ykite	-7471
ančioje	-7472
priemon	-7473
▁apimti	-7474
▁tautos	-7475
ekomunik	-7476
▁regionus	-7477
▁Strasbūre	-7478
BG	-7479
utr	-7480
laid	-7481
▁Pab	-7482
▁aštuon	-7483
▁civiliz	-7484
▁paraišk	-7485
▁atleisti	-7486
▁elementų	-7487
▁prieigos	-7488
▁Direktyvos	-7489
▁papildomas	-7490
▁ekonomiškai	-7491
ck	-7492
▁kan	-7493
▁Siūl	-7494
▁teks	-7495
▁būsimą	-7496
▁nusikaltė	-7497
▁techninių	-7498
▁nepiln	-7499
▁teikiamas	-7500
▁veiksmams	-7501
▁atitinkamas	-7502
▁pirmininkui	-7503
▁suinteresuotos	-7504
gen	-7505
kar	-7506
2010	-7507
rojo	-7508
ėrim	-7509
▁varž	-7510
Posėdis	-7511
iausias	-7512
▁išlaisv	-7513
▁namuose	-7514
▁nedidel	-7515
▁nepadar	-7516
▁veiksnių	-7517
▁elementas	-7518
▁nediskrimin	-7519
▁diskriminaciją	-7520
▁ri	-7521
klos	-7522
▁rytą	-7523
▁Pasaul	-7524
▁drauge	-7525
▁absoliu	-7526
▁sudarys	-7527
▁judėjimą	-7528
▁Doh	-7529
mingų	-7530
▁Lond	-7531
▁pirš	-7532
▁ryšį	-7533
▁rūpi	-7534
ytojai	-7535
▁blogi	-7536
▁trukd	-7537
▁paband	-7538
▁tinkam	-7539
▁esminių	-7540
▁Sveikinu	-7541
▁keliauti	-7542
▁teisingą	-7543
▁narkotikų	-7544
▁neteisėtai	-7545
▁darbotvarkėje	-7546
ūno	-7547
▁Pap	-7548
▁auga	-7549
▁įlank	-7550
▁paliek	-7551
▁pasibaig	-7552
▁sukurtas	-7553
▁susidari	-7554
▁operacijų	-7555
▁stengiasi	-7556
▁elektrinių	-7557
▁paskutinis	-7558
ėkime	-7559
▁išmin	-7560
▁formos	-7561
▁maršru	-7562
▁taikomų	-7563
▁pasitelk	-7564
.00	-7565
dik	-7566
▁2015	-7567
damasis	-7568
▁Moterų	-7569
▁būtinų	-7570
▁galimą	-7571
▁lyties	-7572
▁sugrįž	-7573
▁vykusi	-7574
▁misijos	-7575
▁pabaiga	-7576
▁patenka	-7577
▁skubiau	-7578
▁įrodymų	-7579
▁palestin	-7580
▁prisidės	-7581
▁pritarta	-7582
se	-7583
ygi	-7584
▁dav	-7585
▁kenk	-7586
▁pain	-7587
▁telef	-7588
▁automa	-7589
▁norėjo	-7590
▁Rezoliu	-7591
▁atverti	-7592
▁pranešimai	-7593
kilo	-7594
▁grupę	-7595
▁infli	-7596
▁interven	-7597
▁medicinos	-7598
▁praėjusią	-7599
▁90	-7600
umos	-7601
▁Liu	-7602
▁loš	-7603
▁Irane	-7604
▁nesuk	-7605
▁organ	-7606
▁pliur	-7607
▁Galime	-7608
▁apsunk	-7609
▁požiūriui	-7610
▁Brazilijos	-7611
▁Jungtinėmis	-7612
▁kompetencija	-7613
▁koordinavimą	-7614
nei	-7615
ąsi	-7616
▁gil	-7617
utinės	-7618
▁palaikome	-7619
▁statistikos	-7620
▁pagrindinėms	-7621
▁Sav	-7622
ėsite	-7623
▁Esti	-7624
inkime	-7625
▁lygių	-7626
▁Šiomis	-7627
▁parengta	-7628
▁veiksmingi	-7629
▁intelektinės	-7630
▁kompetenciją	-7631
▁rekomendacijų	-7632
▁įsipareigojimai	-7633
ektor	-7634
▁atsip	-7635
▁Apgail	-7636
▁kažkas	-7637
▁veiktų	-7638
▁apsirib	-7639
▁smurtas	-7640
▁vienodo	-7641
▁mažinimas	-7642
▁skirtingos	-7643
-1	-7644
kos	-7645
▁rūk	-7646
▁vežimo	-7647
▁tarnybų	-7648
▁mokymosi	-7649
▁Apskritai	-7650
▁pramonėje	-7651
▁svarstomas	-7652
▁įsipareigojimo	-7653
alias	-7654
▁šeimoms	-7655
▁neteisinga	-7656
▁pono	-7657
▁gamykl	-7658
▁projektui	-7659
▁reikalaujame	-7660
▁Van	-7661
rimis	-7662
torių	-7663
orizon	-7664
▁Solidar	-7665
▁tokiose	-7666
▁reklamos	-7667
▁siekdamas	-7668
▁skiriamos	-7669
▁pranešėjos	-7670
▁stiprinant	-7671
▁sąžiningai	-7672
▁Pagrindinis	-7673
▁Pl	-7674
▁kelios	-7675
▁laisvą	-7676
▁maksim	-7677
▁pavien	-7678
▁Sutartį	-7679
▁keturių	-7680
▁individu	-7681
▁praktiką	-7682
▁pareigūnų	-7683
▁sanglaudą	-7684
▁atsižvelgdama	-7685
pid	-7686
ileg	-7687
ganiz	-7688
▁Balkan	-7689
▁Kanados	-7690
▁autobus	-7691
▁autorių	-7692
▁reikšti	-7693
▁išvengta	-7694
▁jaunimas	-7695
▁pragyven	-7696
▁išdėstyti	-7697
▁pastarųjų	-7698
▁Jugoslavijos	-7699
▁Tad	-7700
▁ser	-7701
etais	-7702
odama	-7703
▁remiu	-7704
▁Antroj	-7705
▁aktuose	-7706
▁Pramonės	-7707
▁sąskaita	-7708
▁chartijos	-7709
▁girdėjome	-7710
▁strategijas	-7711
enu	-7712
▁ECB	-7713
▁FRO	-7714
ronte	-7715
▁FRONTE	-7716
▁asambl	-7717
▁laukti	-7718
▁prarad	-7719
▁vykdomi	-7720
▁demonstra	-7721
▁nesuderin	-7722
▁privataus	-7723
▁susijusio	-7724
▁įstatymas	-7725
▁makroekonom	-7726
▁rezoliucijų	-7727
lėp	-7728
▁1.	-7729
▁įves	-7730
tokhol	-7731
yrimas	-7732
▁konstat	-7733
▁pakrant	-7734
▁įpareig	-7735
anglaudos	-7736
▁sudarant	-7737
▁socialinei	-7738
eina	-7739
▁Irako	-7740
▁Kalbu	-7741
▁mastą	-7742
▁optim	-7743
▁stich	-7744
▁taiko	-7745
▁įdomu	-7746
▁Region	-7747
▁Antrasis	-7748
▁ataskaitas	-7749
pak	-7750
raukti	-7751
▁Kongo	-7752
▁prireik	-7753
▁vystyti	-7754
▁ketinama	-7755
▁rezultatą	-7756
▁Gu	-7757
▁Maž	-7758
▁atidė	-7759
▁užmoj	-7760
▁Prašau	-7761
▁turinči	-7762
▁naujoves	-7763
▁nepritariu	-7764
▁investicijoms	-7765
▁kvalifikacijos	-7766
▁schem	-7767
▁atitinkamą	-7768
▁ekonomines	-7769
▁nepriklausomai	-7770
bų	-7771
atu	-7772
ėtai	-7773
▁Rom	-7774
/2008	-7775
eidimo	-7776
ininkus	-7777
▁Sudano	-7778
▁švaist	-7779
▁pirmoji	-7780
▁skurdas	-7781
▁jaunimui	-7782
▁atstovais	-7783
▁delegacija	-7784
▁telekomunik	-7785
ityv	-7786
▁cuk	-7787
ėdžio	-7788
▁atmin	-7789
▁trišal	-7790
▁turinį	-7791
▁atsiras	-7792
▁Belgijos	-7793
▁pagrįstos	-7794
▁suderinimo	-7795
▁kompetencijai	-7796
▁2.	-7797
▁Mc	-7798
▁ved	-7799
angos	-7800
▁pagrei	-7801
▁bendrųjų	-7802
▁paslaugoms	-7803
▁reglamentų	-7804
tęs	-7805
yži	-7806
auna	-7807
▁vers	-7808
tariau	-7809
▁esamą	-7810
▁imsis	-7811
▁nepan	-7812
▁Reikal	-7813
▁tinklą	-7814
▁Atlanto	-7815
▁didžiulę	-7816
▁platform	-7817
▁Respublika	-7818
▁ratifikavimo	-7819
SL	-7820
ybes	-7821
žmon	-7822
▁objek	-7823
ančioji	-7824
▁sutrik	-7825
▁pareigų	-7826
▁skirtus	-7827
▁sutinka	-7828
▁priėmimą	-7829
▁garantijos	-7830
▁stiprinimo	-7831
ybei	-7832
▁sukr	-7833
▁trak	-7834
ultūros	-7835
▁kalbas	-7836
▁apibūdin	-7837
▁parlamentų	-7838
▁pripažįsta	-7839
▁patvirtinimą	-7840
rus	-7841
▁kitu	-7842
usioms	-7843
▁agres	-7844
▁skand	-7845
▁būsime	-7846
▁gydymo	-7847
▁Stokhol	-7848
▁istorija	-7849
▁privileg	-7850
▁Vokietija	-7851
▁pritarimą	-7852
▁Socialistų	-7853
▁neužtikrin	-7854
▁rinkimuose	-7855
▁standartiz	-7856
AS	-7857
▁Liber	-7858
▁prašo	-7859
▁Schulz	-7860
▁siekis	-7861
▁pradėta	-7862
▁Sutartis	-7863
▁Užimtumo	-7864
▁atsispind	-7865
▁medžiagos	-7866
▁ministrai	-7867
▁socialiniu	-7868
▁svarbiausi	-7869
▁pusiausvyra	-7870
uc	-7871
emokr	-7872
▁ekos	-7873
▁patar	-7874
▁likvid	-7875
▁Reikėtų	-7876
▁atvykti	-7877
▁tikrais	-7878
▁tvarumo	-7879
▁negalėjo	-7880
▁vidutinio	-7881
▁švietimas	-7882
▁apibendrin	-7883
▁suprantame	-7884
▁Portugalija	-7885
ian	-7886
nuo	-7887
▁300	-7888
▁Gerai	-7889
▁trumpą	-7890
▁Padėtis	-7891
▁pajamos	-7892
▁prašoma	-7893
▁palūkanų	-7894
▁susiklos	-7895
▁žiniomis	-7896
▁gi	-7897
▁sos	-7898
▁kultūra	-7899
▁Posėdžio	-7900
▁atsakymo	-7901
▁priimtos	-7902
▁valstybe	-7903
▁pažeidžiamos	-7904
verg	-7905
vers	-7906
▁pamatyti	-7907
▁priskiri	-7908
▁nuosekliai	-7909
tauti	-7910
▁cikl	-7911
▁Ankst	-7912
▁tyrimas	-7913
▁gamtinių	-7914
▁ministro	-7915
▁tvarkymo	-7916
▁susilaikiau	-7917
▁kėl	-7918
▁rašy	-7919
▁žuvo	-7920
▁devyn	-7921
pagalba	-7922
▁padėsi	-7923
▁parengtą	-7924
▁privaloma	-7925
▁atsakingai	-7926
▁konkuruoti	-7927
ajam	-7928
čiui	-7929
▁dol	-7930
ysite	-7931
▁Darb	-7932
▁subj	-7933
etinės	-7934
▁pavel	-7935
▁įtamp	-7936
▁drąsos	-7937
▁pačioje	-7938
▁užimtum	-7939
▁variant	-7940
▁pristatyti	-7941
▁reikalingų	-7942
OL	-7943
gz	-7944
6-0	-7945
▁Bo	-7946
▁ato	-7947
sifik	-7948
▁Agent	-7949
▁ligon	-7950
▁verči	-7951
▁laisvo	-7952
▁gamybai	-7953
bendruomen	-7954
▁atsakymus	-7955
▁nepilname	-7956
ampa	-7957
erre	-7958
▁ypat	-7959
▁gairės	-7960
▁grėsmės	-7961
▁susidoro	-7962
▁mėnesiais	-7963
▁praėjusių	-7964
▁Baltarusijoje	-7965
Tar	-7966
oną	-7967
▁Dr	-7968
atui	-7969
inau	-7970
▁rec	-7971
roduk	-7972
▁lenk	-7973
ingumas	-7974
▁antras	-7975
▁audito	-7976
▁imperi	-7977
▁lygybę	-7978
▁prilyg	-7979
▁laisves	-7980
▁Peticijų	-7981
▁neproporc	-7982
▁pasimokyti	-7983
▁tarpinstituc	-7984
mis	-7985
vėp	-7986
liep	-7987
▁Min	-7988
uotės	-7989
▁Marok	-7990
▁išvar	-7991
▁nekal	-7992
▁apsirūp	-7993
▁grąžinti	-7994
▁ilgalaikį	-7995
▁plenariniame	-7996
engia	-7997
▁audi	-7998
▁kiau	-7999
▁Trump	-8000
▁minėtų	-8001
▁simboli	-8002
▁laukiame	-8003
▁praėjusį	-8004
▁paskatino	-8005
▁nevyriausyb	-8006
▁nepriimtinas	-8007
▁bėg	-8008
▁mit	-8009
▁Prad	-8010
▁tonų	-8011
entams	-8012
▁karinių	-8013
▁mokestis	-8014
▁nepateik	-8015
▁prisided	-8016
▁vienašal	-8017
▁neoficial	-8018
▁Jungtinėje	-8019
▁deg	-8020
▁jun	-8021
kirst	-8022
▁Suom	-8023
▁būkl	-8024
▁pavas	-8025
▁turiz	-8026
▁balans	-8027
▁laisvė	-8028
▁mokymą	-8029
▁Dauguma	-8030
▁daugumą	-8031
▁prašymas	-8032
▁šaltinius	-8033
▁galėtumėte	-8034
▁pasiūlymais	-8035
ip	-8036
inamą	-8037
▁ūkių	-8038
▁Pateik	-8039
▁vykdom	-8040
▁išplėti	-8041
▁įrodyti	-8042
▁sertifik	-8043
▁Apgailest	-8044
▁pavaduotoja	-8045
nep	-8046
▁neram	-8047
▁bausmę	-8048
▁atliktų	-8049
▁vieningai	-8050
▁dirvožemio	-8051
▁pacientams	-8052
ką	-8053
yšk	-8054
▁Bro	-8055
esnir	-8056
▁džiug	-8057
▁baigta	-8058
▁išgelb	-8059
▁skyrimo	-8060
▁apibrėži	-8061
▁2007-2013	-8062
▁lūkesčius	-8063
▁spaudimas	-8064
▁Sanglaudos	-8065
▁ekonominis	-8066
▁Karalystėje	-8067
▁demokratijai	-8068
NR	-8069
▁,	-8070
▁ty	-8071
▁Der	-8072
ytųsi	-8073
▁plane	-8074
▁sauga	-8075
▁įrodo	-8076
▁Egipte	-8077
▁keistis	-8078
▁didesnių	-8079
▁neleisti	-8080
▁spaudimo	-8081
▁nukreipti	-8082
▁įgyvendintas	-8083
▁organizacijoms	-8084
pręsta	-8085
▁Daugiau	-8086
▁apskaiči	-8087
▁nesvarbu	-8088
▁santykiuose	-8089
-200	-8090
yktų	-8091
uojamų	-8092
▁balsu	-8093
▁tarsi	-8094
▁degalų	-8095
▁vientis	-8096
▁Lietuvos	-8097
▁ištaisyti	-8098
▁pakeitimams	-8099
anzi	-8100
▁gras	-8101
▁jėgų	-8102
demokr	-8103
pasiūl	-8104
kaityti	-8105
▁mažėja	-8106
▁Korėjos	-8107
▁padarėme	-8108
▁pateikia	-8109
▁suvartoj	-8110
kų	-8111
čiuop	-8112
istams	-8113
odamas	-8114
▁Netur	-8115
▁stamb	-8116
▁totali	-8117
▁sąnaudų	-8118
▁argument	-8119
▁nepagrįst	-8120
▁tarpinink	-8121
▁komunikate	-8122
▁Svarbiausia	-8123
▁įgyvendinamos	-8124
joms	-8125
▁puol	-8126
▁ribą	-8127
▁atsaką	-8128
▁numato	-8129
▁naujoms	-8130
▁norėdami	-8131
▁dvidešimt	-8132
są	-8133
▁75	-8134
elius	-8135
ėkimės	-8136
▁būsimų	-8137
▁kelion	-8138
▁sakėte	-8139
▁trejus	-8140
▁priėmimas	-8141
▁Valstijomis	-8142
▁dokumentais	-8143
▁atmos	-8144
▁susir	-8145
▁norite	-8146
▁paskui	-8147
▁remtis	-8148
▁nepasik	-8149
▁remdamasi	-8150
▁vertinama	-8151
▁įstatymai	-8152
▁vyriausybė	-8153
ūg	-8154
gali	-8155
onas	-8156
ykti	-8157
itetų	-8158
▁kaup	-8159
▁rytų	-8160
utinių	-8161
▁plačia	-8162
▁vėliav	-8163
▁žaislų	-8164
▁pajėgas	-8165
▁priėmus	-8166
▁rinkėjų	-8167
▁sričiai	-8168
▁geresnis	-8169
▁komitetų	-8170
▁nuomones	-8171
▁operacijos	-8172
▁apribojimus	-8173
▁paskirstymo	-8174
▁tūkstančiai	-8175
▁įsigaliojus	-8176
enz	-8177
▁Prek	-8178
▁Dohos	-8179
▁pietų	-8180
▁analizę	-8181
▁sesijos	-8182
▁Nacional	-8183
▁finansinį	-8184
▁produktyv	-8185
▁sėkmingas	-8186
▁įvairiais	-8187
▁rezultatais	-8188
kuren	-8189
▁Mich	-8190
▁iden	-8191
▁jose	-8192
▁domin	-8193
▁nepasi	-8194
▁kelerius	-8195
▁pasiektų	-8196
▁pritarimo	-8197
▁ilgalaikio	-8198
▁įtraukiant	-8199
▁poz	-8200
kiame	-8201
trump	-8202
▁Nepri	-8203
▁grupes	-8204
▁General	-8205
▁horizon	-8206
▁klastoj	-8207
▁vienodos	-8208
▁2001	-8209
▁aukos	-8210
▁trukdo	-8211
▁užsienyje	-8212
▁moksliniai	-8213
▁reglamente	-8214
pre	-8215
brėž	-8216
▁bad	-8217
▁statu	-8218
ovatori	-8219
▁suvarž	-8220
▁teismas	-8221
▁konkretų	-8222
▁privalomas	-8223
abų	-8224
atus	-8225
ioje	-8226
arius	-8227
ojama	-8228
tenka	-8229
ėjais	-8230
▁gryn	-8231
uosime	-8232
▁kitok	-8233
▁elgesį	-8234
▁tranzi	-8235
▁verslą	-8236
▁griežtas	-8237
▁teritoriją	-8238
▁atsižvelgdamas	-8239
iteto	-8240
▁vakc	-8241
▁ginčų	-8242
▁teisį	-8243
▁pusėje	-8244
▁aktyviau	-8245
▁ekosistem	-8246
▁vadinamos	-8247
ski	-8248
ečia	-8249
▁esamas	-8250
▁elgesys	-8251
▁nebegal	-8252
▁nesusij	-8253
▁statykl	-8254
istracijos	-8255
▁ypatingas	-8256
▁Valstijose	-8257
škime	-8258
▁įdom	-8259
parama	-8260
▁didina	-8261
▁Lenkija	-8262
▁antrąjį	-8263
▁galvoje	-8264
▁apgailes	-8265
▁sprendimui	-8266
▁Vyriausybės	-8267
▁reguliavimą	-8268
oni	-8269
▁kir	-8270
▁ugn	-8271
▁svet	-8272
▁taus	-8273
▁šveln	-8274
▁žinios	-8275
▁plačiau	-8276
▁tinklus	-8277
▁turėjau	-8278
▁suformul	-8279
▁pateikėme	-8280
▁sudėtingą	-8281
▁inovacijas	-8282
▁pasakytina	-8283
▁supaprastinimo	-8284
BO	-8285
žud	-8286
▁Nek	-8287
▁partij	-8288
▁skirst	-8289
eidžiama	-8290
▁reikalo	-8291
▁galutinio	-8292
▁naudingos	-8293
▁nuolatinį	-8294
▁susitarta	-8295
▁užuojautą	-8296
▁produkcijos	-8297
▁sprendžiami	-8298
era	-8299
▁Gar	-8300
▁Nen	-8301
▁Šal	-8302
▁Nesu	-8303
▁biod	-8304
▁dvideg	-8305
▁metinės	-8306
▁Dunojaus	-8307
▁didelius	-8308
▁darbininkų	-8309
▁transportą	-8310
▁visuotinės	-8311
▁konferencija	-8312
▁konsultacijų	-8313
▁užtikrintume	-8314
les	-8315
ileo	-8316
▁dydį	-8317
▁savir	-8318
▁valią	-8319
▁nuosmu	-8320
▁žaidyn	-8321
▁pastabą	-8322
▁sąrašas	-8323
▁paminėjo	-8324
▁subjektų	-8325
▁įsitrauk	-8326
▁neteisėta	-8327
▁GM	-8328
mėms	-8329
asifik	-8330
▁etapą	-8331
▁taiky	-8332
▁nesaug	-8333
▁minėjote	-8334
▁pakrančių	-8335
▁pritariau	-8336
▁prioritetu	-8337
▁dešimtmečius	-8338
arim	-8339
▁kat	-8340
▁Varto	-8341
▁mažos	-8342
▁mažesn	-8343
▁būsimos	-8344
▁direktor	-8345
▁kelionių	-8346
▁balsuojant	-8347
▁sumažinimo	-8348
alūs	-8349
araš	-8350
davo	-8351
kaip	-8352
ykst	-8353
ojame	-8354
▁Praš	-8355
▁zoną	-8356
▁legal	-8357
▁išryšk	-8358
▁punktų	-8359
▁rūpestį	-8360
▁statuso	-8361
▁sujungti	-8362
▁alkoholio	-8363
▁kolegomis	-8364
▁pažvelgti	-8365
▁struktūra	-8366
▁Didžiosios	-8367
▁Ispanijoje	-8368
▁laipsniškai	-8369
▁geležinkelio	-8370
ovo	-8371
▁ECR	-8372
▁Lai	-8373
▁abor	-8374
iausių	-8375
▁neutr	-8376
▁normų	-8377
▁palyd	-8378
▁vyrai	-8379
▁pirmiau	-8380
▁Izraelis	-8381
▁išmetamo	-8382
▁programai	-8383
▁uždavinius	-8384
▁pakeitimais	-8385
▁pastangomis	-8386
▁suinteresuoti	-8387
muk	-8388
tyse	-8389
▁Mon	-8390
entai	-8391
eliant	-8392
irškime	-8393
▁išimtis	-8394
▁Solidarumo	-8395
▁tarptautines	-8396
eris	-8397
koti	-8398
timu	-8399
▁Nic	-8400
▁kalėj	-8401
▁arešto	-8402
tikrinti	-8403
▁Strateg	-8404
▁pozityv	-8405
▁geresnes	-8406
▁novatori	-8407
▁pratęsti	-8408
▁savaitės	-8409
▁sesijoje	-8410
▁priklausys	-8411
▁ekonomikoje	-8412
▁panaikinimas	-8413
nu	-8414
ean	-8415
▁darž	-8416
▁manęs	-8417
▁Praėjusi	-8418
▁keliuose	-8419
▁iššūkiais	-8420
▁pasikeitim	-8421
▁konstruktyvų	-8422
▁bankininkystės	-8423
ažny	-8424
ygard	-8425
▁visiško	-8426
▁įprasta	-8427
▁pajėgumų	-8428
▁privačių	-8429
▁subsidijų	-8430
▁netinkamai	-8431
▁transportas	-8432
▁Gv	-8433
▁IN	-8434
▁Ven	-8435
▁žad	-8436
inėti	-8437
▁civili	-8438
▁pralai	-8439
▁erdvėje	-8440
▁mokyklų	-8441
▁padarys	-8442
▁pasitaik	-8443
▁pažeidžia	-8444
▁0,	-8445
vimą	-8446
▁pig	-8447
▁Tokios	-8448
▁dalyvių	-8449
▁posėdžių	-8450
▁svarbiais	-8451
▁praėjusiais	-8452
▁visapusišką	-8453
TA	-8454
▁nutar	-8455
▁suded	-8456
▁apčiuop	-8457
▁susieti	-8458
▁Vienintel	-8459
▁kadenciją	-8460
▁suteiktos	-8461
▁įsitikinę	-8462
▁integruoti	-8463
fob	-8464
pjū	-8465
buvo	-8466
intą	-8467
▁ponas	-8468
▁trunk	-8469
▁aukštą	-8470
▁išvadų	-8471
▁metodo	-8472
▁pašarų	-8473
▁laikraš	-8474
▁migrant	-8475
▁negalės	-8476
▁Direktyva	-8477
▁skirtingi	-8478
▁skirtumas	-8479
▁Slovėnijos	-8480
▁regioninių	-8481
SP	-8482
zar	-8483
▁3.	-8484
audama	-8485
▁Palaik	-8486
▁teisin	-8487
▁apygard	-8488
▁teikiam	-8489
▁mokėjimo	-8490
▁frakcijai	-8491
▁skirtingai	-8492
jus	-8493
prie	-8494
▁liau	-8495
▁sumą	-8496
tinink	-8497
▁eilut	-8498
▁ūkyje	-8499
▁egzist	-8500
▁prekes	-8501
▁Serbija	-8502
▁svetain	-8503
▁ataskaitų	-8504
▁mokesčiai	-8505
▁sudarytas	-8506
▁istorijoje	-8507
▁įtraukties	-8508
stį	-8509
▁Tas	-8510
▁UEN	-8511
▁tip	-8512
timui	-8513
▁slyp	-8514
▁buvęs	-8515
▁apimtų	-8516
▁tikimasi	-8517
▁suteikimo	-8518
▁pasiūlymams	-8519
▁socialiniai	-8520
▁užtikrinamas	-8521
▁35	-8522
▁ūkį	-8523
antan	-8524
energ	-8525
ojome	-8526
▁narę	-8527
tumėme	-8528
▁Tokie	-8529
▁draus	-8530
prendži	-8531
▁išgird	-8532
▁konverg	-8533
▁rinktis	-8534
▁saugumu	-8535
▁valandų	-8536
▁Briuselio	-8537
▁suderintas	-8538
▁neveiksming	-8539
ot	-8540
kas	-8541
dėmes	-8542
galim	-8543
▁įsid	-8544
iogiai	-8545
▁centrų	-8546
▁aiškumo	-8547
▁gerinimo	-8548
▁keturias	-8549
▁komitetą	-8550
▁pastebėti	-8551
▁aprūpinimo	-8552
▁komunikatą	-8553
▁neprieštar	-8554
▁apribojimai	-8555
▁užtikrinimas	-8556
ers	-8557
▁Neb	-8558
audos	-8559
rinių	-8560
ymams	-8561
▁nesusi	-8562
▁salėje	-8563
▁imamasi	-8564
▁kalinių	-8565
▁galimybė	-8566
▁mažosios	-8567
▁padarytų	-8568
▁reakcija	-8569
▁paaiškėjo	-8570
▁garantijas	-8571
▁įvertinimo	-8572
▁demokratišk	-8573
▁reglamentus	-8574
▁susijusiais	-8575
▁įgyvendinimui	-8576
IF	-8577
yt	-8578
▁St	-8579
ekija	-8580
yrimą	-8581
▁matau	-8582
▁pačius	-8583
▁nustato	-8584
▁pagirti	-8585
▁transpl	-8586
▁sąnaudas	-8587
▁didžiausios	-8588
▁nusprendėme	-8589
▁pasirūpinti	-8590
▁nepriklausomybę	-8591
▁Mus	-8592
▁sem	-8593
▁rūmų	-8594
kščiai	-8595
▁Egipto	-8596
▁import	-8597
▁nusteb	-8598
▁pasikar	-8599
▁nepritar	-8600
▁Bulgarija	-8601
▁Stokholmo	-8602
▁būtinybės	-8603
▁dalyvautų	-8604
▁didinimas	-8605
▁susidoroti	-8606
▁susilaikyti	-8607
▁apgailestauti	-8608
rog	-8609
▁apyv	-8610
▁riba	-8611
▁Ferre	-8612
▁laikau	-8613
▁vienbal	-8614
▁pareiškė	-8615
▁nacionaliniai	-8616
omės	-8617
produk	-8618
▁nesik	-8619
▁jėgain	-8620
▁Praėjus	-8621
▁naujien	-8622
▁mokyklose	-8623
▁pasiektume	-8624
▁reikalingą	-8625
▁stabilumui	-8626
▁ratifikuoti	-8627
▁atsinaujinančių	-8628
▁kt	-8629
▁TVF	-8630
▁galų	-8631
▁Panaš	-8632
atsakom	-8633
tiniame	-8634
▁plėsti	-8635
▁griežtos	-8636
▁viešąsias	-8637
▁įsigalios	-8638
▁santykiams	-8639
▁vertinamas	-8640
▁integracija	-8641
▁socialdemokr	-8642
▁sprendžiamas	-8643
vil	-8644
juos	-8645
tins	-8646
▁SIS	-8647
▁apdo	-8648
▁atvejį	-8649
▁dvasia	-8650
▁priims	-8651
▁sąvoka	-8652
▁medicin	-8653
▁mokyklos	-8654
▁priimami	-8655
▁užsibrėž	-8656
▁planavimo	-8657
▁dvideginio	-8658
▁reglamentu	-8659
▁tarpvyriausyb	-8660
avę	-8661
mums	-8662
▁EGF	-8663
▁Fak	-8664
aisto	-8665
minga	-8666
onoje	-8667
▁įvaik	-8668
▁šalia	-8669
▁aiškių	-8670
▁vilčių	-8671
▁viršūn	-8672
▁Žmonės	-8673
▁draudimą	-8674
▁klasifik	-8675
▁sumokėti	-8676
▁tikėtina	-8677
▁Tarptautinio	-8678
▁Portugalijoje	-8679
▁neišvengiamai	-8680
▁raj	-8681
usiai	-8682
pjūčio	-8683
▁dalij	-8684
▁greit	-8685
▁švari	-8686
▁skirsn	-8687
▁prasmės	-8688
▁reikalams	-8689
▁sumažintas	-8690
usis	-8691
▁pavėl	-8692
▁varom	-8693
▁zonai	-8694
▁kontra	-8695
▁nusistat	-8696
▁paskutinį	-8697
▁Atsižvelgdama	-8698
ėr	-8699
mati	-8700
▁Sak	-8701
enoje	-8702
indama	-8703
▁nešal	-8704
▁žodis	-8705
▁kontak	-8706
▁mažoms	-8707
▁nevien	-8708
▁tarifų	-8709
▁mokytis	-8710
▁pagyven	-8711
▁kalbėsiu	-8712
▁pasakysiu	-8713
▁sankcijos	-8714
▁Vengrijoje	-8715
▁pabrėžiamas	-8716
edi	-8717
tariz	-8718
▁scen	-8719
▁metas	-8720
▁nariu	-8721
▁naudai	-8722
▁smurtu	-8723
▁vietoj	-8724
▁baigėsi	-8725
▁siūlomas	-8726
▁nustatoma	-8727
▁pateisinti	-8728
▁sektoriams	-8729
▁Veiks	-8730
ausiems	-8731
▁centre	-8732
▁nesame	-8733
▁Trumpai	-8734
▁panašių	-8735
▁vidurio	-8736
▁chartija	-8737
▁išdavimo	-8738
▁stipriai	-8739
▁direktyvas	-8740
▁pritariama	-8741
▁politiniais	-8742
eh	-8743
ynų	-8744
▁jūra	-8745
inantis	-8746
ėjusios	-8747
▁Birmos	-8748
▁popiet	-8749
▁riboti	-8750
▁skubių	-8751
▁turinti	-8752
▁vaistus	-8753
▁nepripaž	-8754
▁priėmėme	-8755
▁pajėgumus	-8756
▁asignavimų	-8757
▁nuostatomis	-8758
▁pirmininkaujant	-8759
25	-8760
izmą	-8761
kiek	-8762
ontro	-8763
▁Esant	-8764
▁kažką	-8765
▁progą	-8766
▁skaus	-8767
▁Neabej	-8768
▁Tibeto	-8769
▁karjer	-8770
▁kryptį	-8771
▁Gvantan	-8772
▁griežtų	-8773
▁primena	-8774
▁sunkiau	-8775
▁tokiems	-8776
▁žiūrėti	-8777
▁uždaryti	-8778
▁Baltarusija	-8779
▁susijusiems	-8780
▁reguliavimas	-8781
IV	-8782
▁tu	-8783
▁dang	-8784
▁beviz	-8785
▁trečia	-8786
▁užmegz	-8787
▁pritars	-8788
▁nepamirš	-8789
▁mechanizmų	-8790
▁atkreipiamas	-8791
centr	-8792
▁šimt	-8793
▁skirto	-8794
▁šimtai	-8795
▁kituose	-8796
▁patarim	-8797
▁veidmain	-8798
▁veiksniai	-8799
▁ekonominei	-8800
▁organizuoti	-8801
▁vyriausybėms	-8802
▁rud	-8803
▁etik	-8804
▁rodyti	-8805
▁palydov	-8806
▁sąjungų	-8807
▁įgūdžių	-8808
▁kelionės	-8809
▁nesuteik	-8810
▁žingsnių	-8811
▁pateikiau	-8812
▁pridėtinę	-8813
▁sukčiavimo	-8814
▁džiaugiamės	-8815
▁Pirmininkauj	-8816
▁įsipareigoti	-8817
▁įsivaizduoti	-8818
oto	-8819
vak	-8820
tąją	-8821
tinus	-8822
ūroms	-8823
▁nebe	-8824
▁arabų	-8825
▁grėsmė	-8826
▁siunči	-8827
▁užterš	-8828
▁Italija	-8829
▁amžiuje	-8830
▁atsitiko	-8831
▁atstovas	-8832
▁ketinimai	-8833
▁vertinant	-8834
kel	-8835
urs	-8836
▁ei	-8837
▁imun	-8838
anijai	-8839
oliber	-8840
▁požym	-8841
▁dvejop	-8842
▁priima	-8843
▁didžiuoj	-8844
▁pasekmės	-8845
▁nuostolių	-8846
▁praeities	-8847
▁biurokratijos	-8848
▁nepriklausomą	-8849
▁priklausomybę	-8850
ieš	-8851
▁2014	-8852
▁dalys	-8853
▁juris	-8854
▁neįtik	-8855
▁aspektu	-8856
▁derinti	-8857
▁keturis	-8858
▁vystymo	-8859
▁paskatins	-8860
▁atskirtimi	-8861
▁pasidžiaug	-8862
▁programose	-8863
AC	-8864
rit	-8865
aiški	-8866
▁Taiv	-8867
▁atsk	-8868
▁Tuniso	-8869
▁planai	-8870
▁prekyb	-8871
▁tokiam	-8872
▁pradeda	-8873
▁prisiėm	-8874
▁laikinai	-8875
▁numatytų	-8876
▁privatiz	-8877
▁ilgalaikės	-8878
▁patenkinta	-8879
▁teritorijų	-8880
▁rekomendaciją	-8881
enči	-8882
▁Ats	-8883
▁kab	-8884
tuoju	-8885
▁Barro	-8886
▁oblig	-8887
▁išskiri	-8888
▁laisvos	-8889
▁siūlome	-8890
▁tinkamu	-8891
▁mažinimą	-8892
▁platesnio	-8893
▁atstovauja	-8894
▁keleiviams	-8895
▁patikimumą	-8896
▁stabilumas	-8897
▁susitikimui	-8898
▁EPS	-8899
▁eig	-8900
risti	-8901
▁turė	-8902
▁rengimo	-8903
▁sudėtis	-8904
▁Liberalų	-8905
▁procesus	-8906
▁sukurtos	-8907
▁atstovams	-8908
▁plėtojant	-8909
auž	-8910
lin	-8911
Bend	-8912
entą	-8913
laiv	-8914
▁entu	-8915
▁ilgas	-8916
▁Afrika	-8917
▁veikimą	-8918
▁terorist	-8919
▁Respublikoje	-8920
▁rezoliucijai	-8921
▁Il	-8922
▁būk	-8923
eičia	-8924
ytais	-8925
▁jūrą	-8926
egistr	-8927
▁duoda	-8928
▁padirb	-8929
▁viziją	-8930
▁paveldo	-8931
▁atsiliep	-8932
▁medienos	-8933
▁Austrijos	-8934
▁pasiūlyta	-8935
▁nuodugniai	-8936
▁konferenciją	-8937
ytu	-8938
inkl	-8939
▁žiū	-8940
▁užkr	-8941
▁instr	-8942
▁trošk	-8943
▁krypčių	-8944
▁minutės	-8945
▁parengi	-8946
▁prašymų	-8947
▁uždraud	-8948
▁neturėjo	-8949
▁sėkminga	-8950
omb	-8951
▁Sep	-8952
▁sėkmę	-8953
▁apyvar	-8954
▁keleto	-8955
▁kovoja	-8956
▁normas	-8957
▁dalyvaus	-8958
▁Nyderlandų	-8959
▁stiprinimas	-8960
/2009	-8961
inusi	-8962
leisti	-8963
ūromis	-8964
▁kurst	-8965
▁Haičio	-8966
▁pradės	-8967
▁žymiai	-8968
▁Tiesiog	-8969
▁naująją	-8970
▁sugriež	-8971
▁dienomis	-8972
▁peržiūra	-8973
▁Brazilija	-8974
▁diktatori	-8975
▁ilgalaikę	-8976
▁pasitelkiant	-8977
embur	-8978
▁Taik	-8979
▁bažny	-8980
▁Škoti	-8981
▁blogai	-8982
▁metodų	-8983
▁nesiek	-8984
▁paprast	-8985
▁pasielg	-8986
▁tiekimą	-8987
▁skrydžių	-8988
▁sutarimą	-8989
▁galėdamas	-8990
▁konfliktą	-8991
▁trečiosiose	-8992
▁vienbalsiai	-8993
▁diskutuojama	-8994
▁organizavimo	-8995
imens	-8996
▁ketv	-8997
limato	-8998
▁Kokia	-8999
▁atsek	-9000
▁vyktų	-9001
▁Tikrai	-9002
▁atšauk	-9003
▁galias	-9004
▁islamo	-9005
▁pergal	-9006
▁gyvulių	-9007
▁Baigdama	-9008
▁išmetimo	-9009
▁vadinama	-9010
▁rodiklius	-9011
▁Prancūzijai	-9012
▁panaudojimą	-9013
EP	-9014
erį	-9015
▁up	-9016
emti	-9017
▁Mad	-9018
aukia	-9019
ojant	-9020
▁Arab	-9021
▁paktą	-9022
▁atvejai	-9023
▁atmosfer	-9024
▁padedant	-9025
▁suderintą	-9026
▁aplinkybių	-9027
▁specialistų	-9028
▁pakartotinai	-9029
atau	-9030
▁demp	-9031
▁iškas	-9032
▁kompiu	-9033
▁pervež	-9034
▁realis	-9035
▁sesiją	-9036
▁vaisių	-9037
▁funkcion	-9038
▁vyriausi	-9039
▁balsuojama	-9040
▁kampanijos	-9041
▁kruopščiai	-9042
▁visuotinio	-9043
▁Makedonijos	-9044
ke	-9045
▁.	-9046
▁drama	-9047
▁Kanada	-9048
▁būklės	-9049
▁gerbiami	-9050
▁išleisti	-9051
▁išreiški	-9052
▁kainuoja	-9053
▁neigiamų	-9054
▁sutarimo	-9055
▁sulaikymo	-9056
▁šešėliniams	-9057
▁tarptautinis	-9058
vos	-9059
aukš	-9060
▁užg	-9061
▁idėjų	-9062
▁neįsi	-9063
iškumas	-9064
ksembur	-9065
▁Rusiją	-9066
▁pateikimo	-9067
▁profesinės	-9068
▁instituciją	-9069
▁kiekvienais	-9070
pad	-9071
ėgi	-9072
▁Ad	-9073
krat	-9074
plan	-9075
ėjoje	-9076
▁Char	-9077
▁įkur	-9078
imasis	-9079
tingus	-9080
▁prancūz	-9081
▁šiaurės	-9082
▁neoliber	-9083
▁nepageid	-9084
▁suteiktą	-9085
▁reiškinys	-9086
▁pakeitimui	-9087
▁tiesioginių	-9088
▁pripažinimas	-9089
▁teritorijose	-9090
▁Apgailestauju	-9091
▁pasitikėjimas	-9092
▁...	-9093
▁pertek	-9094
▁galvoti	-9095
▁nuosmuk	-9096
▁dvidešim	-9097
▁sugebėjo	-9098
▁suvienod	-9099
▁dabartinis	-9100
▁veiksmingų	-9101
▁dalyvaujant	-9102
▁perspektyvą	-9103
ure	-9104
▁tir	-9105
▁Dažn	-9106
▁įšal	-9107
▁Užuot	-9108
▁rūšis	-9109
ameriki	-9110
▁Neturi	-9111
▁laukiu	-9112
▁miršta	-9113
▁išmokas	-9114
▁išsamią	-9115
▁atsisakymo	-9116
▁skirtingus	-9117
iose	-9118
ioto	-9119
Hamas	-9120
amoji	-9121
▁azar	-9122
▁skolų	-9123
▁teisei	-9124
▁pakvies	-9125
▁trūkumą	-9126
▁jurisdik	-9127
▁terminas	-9128
▁tiksliau	-9129
▁Liuksembur	-9130
▁koordinavimas	-9131
vej	-9132
susi	-9133
▁Malm	-9134
▁Kubos	-9135
▁kitai	-9136
▁suaug	-9137
▁prievo	-9138
▁ženklą	-9139
▁aspekto	-9140
▁komunis	-9141
▁netoler	-9142
▁kritikos	-9143
▁negalėtų	-9144
▁pateikto	-9145
▁Slovėnija	-9146
▁draudimas	-9147
▁gerbiamos	-9148
▁netinkamas	-9149
▁pasiūlytas	-9150
▁pasidžiaugti	-9151
▁įsigaliojimo	-9152
▁įneš	-9153
▁šven	-9154
enocid	-9155
▁Teigi	-9156
▁etapas	-9157
▁prekės	-9158
▁besąlyg	-9159
▁patiksl	-9160
▁naujomis	-9161
▁įstaigos	-9162
▁gyvenimui	-9163
▁saugojimo	-9164
▁supratimą	-9165
▁užimtumui	-9166
▁visuomene	-9167
▁principams	-9168
▁įgyvendinami	-9169
▁nepriklausoma	-9170
DS	-9171
▁Li	-9172
entu	-9173
viet	-9174
omais	-9175
▁Bank	-9176
▁Dubl	-9177
▁karą	-9178
▁juose	-9179
▁pelną	-9180
▁visur	-9181
▁įtari	-9182
▁patiems	-9183
▁siūlyti	-9184
▁palaipsn	-9185
▁paleisti	-9186
▁paprasta	-9187
▁sąžiningą	-9188
▁investavimo	-9189
▁parlamentinės	-9190
amam	-9191
inėj	-9192
▁Mane	-9193
▁licen	-9194
▁įtaka	-9195
▁atveri	-9196
▁Malmstr	-9197
▁atstovus	-9198
▁vartojimą	-9199
▁įvertinimą	-9200
▁pereinamojo	-9201
▁pranešimuose	-9202
DEM	-9203
laugų	-9204
▁pratęs	-9205
▁signalą	-9206
▁žvejyba	-9207
▁apskaitos	-9208
▁kampaniją	-9209
▁pozicijai	-9210
▁rugpjūčio	-9211
all	-9212
▁Tie	-9213
▁nepaž	-9214
▁teigė	-9215
▁padėką	-9216
▁pabrėžė	-9217
▁išsakyti	-9218
▁laivybos	-9219
▁kritiškai	-9220
▁pradėjome	-9221
▁atlyginimo	-9222
▁dabartinio	-9223
▁pasieksime	-9224
▁Tą	-9225
eitė	-9226
tosiu	-9227
uoksn	-9228
▁Gvin	-9229
▁Joje	-9230
▁liks	-9231
▁trup	-9232
▁tėvų	-9233
▁unik	-9234
▁paieš	-9235
▁maistą	-9236
▁esantys	-9237
▁kalbomis	-9238
▁ketinate	-9239
▁vieninte	-9240
▁nesutarim	-9241
▁vandenyse	-9242
▁efektyviau	-9243
▁Konstitucijos	-9244
lor	-9245
▁Barn	-9246
▁sukaup	-9247
▁pastaba	-9248
▁nepavyks	-9249
▁paveikti	-9250
▁Konstituc	-9251
▁sutaupyti	-9252
▁atliekamas	-9253
▁vystymasis	-9254
▁Mari	-9255
▁Toli	-9256
▁farm	-9257
▁bazės	-9258
▁siekį	-9259
▁imtųsi	-9260
▁išvadą	-9261
politika	-9262
▁kortelę	-9263
▁studentų	-9264
▁svarbias	-9265
▁atgaivinti	-9266
▁konfliktas	-9267
▁teisingumą	-9268
edo	-9269
▁rak	-9270
▁post	-9271
▁parėm	-9272
▁visko	-9273
▁bendru	-9274
▁dalyko	-9275
▁atviras	-9276
▁bankams	-9277
▁santuok	-9278
▁balsuoju	-9279
▁kompiute	-9280
▁susidurti	-9281
▁persvarstymo	-9282
kom	-9283
abuc	-9284
aver	-9285
uria	-9286
ateis	-9287
abucco	-9288
tavimo	-9289
▁Kioto	-9290
▁sukil	-9291
▁temos	-9292
adienio	-9293
tuojama	-9294
uojančių	-9295
▁turėčiau	-9296
▁principui	-9297
▁programoms	-9298
▁atskaitomybės	-9299
ors	-9300
tner	-9301
▁IND	-9302
esuel	-9303
▁ESBO	-9304
▁maža	-9305
▁Antras	-9306
▁Niekas	-9307
▁Reform	-9308
▁grupei	-9309
▁tvarią	-9310
▁karinės	-9311
▁pirmenyb	-9312
▁teisines	-9313
▁socialiai	-9314
▁novatorišk	-9315
▁straipsniu	-9316
▁susirūpinę	-9317
SUR	-9318
esne	-9319
seno	-9320
▁Gai	-9321
▁eina	-9322
▁Irake	-9323
▁idėjos	-9324
▁arenoje	-9325
▁padidės	-9326
▁dvišalių	-9327
▁biudžetui	-9328
▁interesais	-9329
sen	-9330
aliu	-9331
▁Cor	-9332
▁neto	-9333
▁įteis	-9334
▁būčiau	-9335
▁tokioje	-9336
▁gerinant	-9337
▁išpuolių	-9338
▁nustatomi	-9339
▁pažeidimai	-9340
▁Co	-9341
▁197	-9342
▁dia	-9343
▁dur	-9344
inamų	-9345
▁kaln	-9346
▁neleis	-9347
▁pamirš	-9348
▁užimti	-9349
▁genocid	-9350
▁mėnesio	-9351
▁nustatymas	-9352
▁regioniniu	-9353
▁transplanta	-9354
▁Mau	-9355
džiau	-9356
itetą	-9357
balans	-9358
▁krauj	-9359
▁knygos	-9360
▁atotrūk	-9361
▁metines	-9362
▁užduotį	-9363
▁vartoti	-9364
▁deficito	-9365
▁Reglamento	-9366
▁televizijos	-9367
Kar	-9368
ulk	-9369
▁2,	-9370
orid	-9371
▁Žuv	-9372
vimas	-9373
▁kitam	-9374
▁pirat	-9375
▁būtiną	-9376
▁laisve	-9377
▁tiksli	-9378
▁kliūtys	-9379
▁realiai	-9380
▁Suprantu	-9381
▁lyderiai	-9382
▁skaičiai	-9383
▁sulaukti	-9384
▁Pasiūlymas	-9385
▁dešimtmetį	-9386
▁pasirinkimas	-9387
mann	-9388
akius	-9389
▁raun	-9390
▁aiškūs	-9391
▁nežino	-9392
▁pačias	-9393
▁Venesuel	-9394
▁Graikijai	-9395
▁konvencija	-9396
▁pirmininką	-9397
▁įvairiomis	-9398
▁pasinaudojant	-9399
žū	-9400
▁Th	-9401
▁tyl	-9402
▁olimp	-9403
▁Ministre	-9404
▁atsisako	-9405
▁biudžetų	-9406
▁peržiūrą	-9407
▁skatintų	-9408
▁Regioninės	-9409
▁atsakomybė	-9410
▁kiekvienai	-9411
▁nuolatinio	-9412
▁sušvelninti	-9413
▁įgyvendintos	-9414
aki	-9415
rėp	-9416
izmu	-9417
didži	-9418
adarbi	-9419
apsaug	-9420
uojamą	-9421
▁antrą	-9422
▁aprėp	-9423
▁pastr	-9424
▁Kalbame	-9425
▁antrojo	-9426
▁elgiasi	-9427
▁rinkinį	-9428
▁įvairūs	-9429
▁Ateityje	-9430
▁galėjome	-9431
▁padidins	-9432
▁reproduk	-9433
▁siūlomos	-9434
▁Pritariau	-9435
▁uždavinių	-9436
▁sudėtingos	-9437
▁sprendžiama	-9438
▁administracinių	-9439
LAF	-9440
umaž	-9441
simės	-9442
tingo	-9443
▁duos	-9444
▁jėgą	-9445
amumas	-9446
▁kvotas	-9447
▁sluoksn	-9448
▁lyginant	-9449
▁pakenkti	-9450
▁sąskaitų	-9451
▁Valstybių	-9452
▁neįgyvend	-9453
▁personalo	-9454
istus	-9455
▁Kari	-9456
▁eurą	-9457
▁peti	-9458
▁gerus	-9459
▁skyri	-9460
ytojams	-9461
▁Barsel	-9462
▁srautų	-9463
▁skelbti	-9464
▁Paslaugų	-9465
▁pažangiojo	-9466
▁prižiūrėti	-9467
▁iniciatyvai	-9468
▁besivystančios	-9469
▁infrastruktūra	-9470
ymin	-9471
▁OLAF	-9472
▁Laisv	-9473
▁2020",	-9474
▁Papras	-9475
▁Toliau	-9476
▁Rusijai	-9477
▁leidimą	-9478
▁remiant	-9479
▁tvirtas	-9480
▁muitinės	-9481
▁nuostatą	-9482
▁Turkijoje	-9483
▁redakcija	-9484
▁pagrindinio	-9485
▁strateginės	-9486
▁tarptautinei	-9487
įš	-9488
mun	-9489
puy	-9490
umb	-9491
asad	-9492
amąją	-9493
tikai	-9494
▁vaiz	-9495
▁Iranas	-9496
▁Rompuy	-9497
▁misiją	-9498
▁įkurti	-9499
▁ameriki	-9500
▁pademon	-9501
uojančios	-9502
▁nevienod	-9503
▁projektu	-9504
▁savivald	-9505
▁milijonus	-9506
▁pagrindus	-9507
▁pranešėjų	-9508
▁problemai	-9509
▁sprendžia	-9510
▁nustatomos	-9511
▁universitetų	-9512
ekso	-9513
enev	-9514
rumo	-9515
▁Kur	-9516
iejose	-9517
▁mintį	-9518
finansų	-9519
▁manote	-9520
▁neatsi	-9521
▁normos	-9522
▁sąrašo	-9523
▁nuolaid	-9524
▁skatinimą	-9525
▁supratimo	-9526
▁energetinio	-9527
▁branduolinio	-9528
aidž	-9529
▁Vyst	-9530
▁peri	-9531
▁perž	-9532
▁vizi	-9533
erbaidž	-9534
▁Kiniją	-9535
▁Tuomet	-9536
▁daliai	-9537
▁skundų	-9538
▁aukštas	-9539
▁cukraus	-9540
▁vykdomą	-9541
▁vykdymą	-9542
▁panašaus	-9543
▁užmegzti	-9544
▁Diskusija	-9545
▁Sutartyje	-9546
▁atsirasti	-9547
▁pareigūnai	-9548
▁kriterijais	-9549
▁pareiškimus	-9550
▁tiesioginės	-9551
▁išsilavinimą	-9552
▁organizacijas	-9553
menų	-9554
/2010	-9555
gauti	-9556
ėjant	-9557
▁jokia	-9558
▁nutek	-9559
▁stalo	-9560
▁ryšiai	-9561
▁protest	-9562
▁balsavimu	-9563
▁disbalans	-9564
▁privalomą	-9565
▁akivaizdus	-9566
▁Prezidentas	-9567
▁juk	-9568
armon	-9569
▁Kriz	-9570
▁mato	-9571
pręstų	-9572
▁karas	-9573
▁namus	-9574
▁dalyse	-9575
▁idėjas	-9576
▁ženklų	-9577
▁aiškius	-9578
▁permain	-9579
▁tarnybą	-9580
▁cheminių	-9581
▁įsikišti	-9582
▁aplinkoje	-9583
▁nuspręsta	-9584
▁Bendrosios	-9585
▁nuolatinis	-9586
▁reikalavimo	-9587
7-0	-9588
iri	-9589
tarn	-9590
▁Dav	-9591
▁muz	-9592
▁pašto	-9593
▁dimens	-9594
▁atlikus	-9595
▁ieškant	-9596
▁pilietis	-9597
▁įrodymas	-9598
▁sustabdytas	-9599
▁baudžiamosios	-9600
inė	-9601
imirk	-9602
▁gene	-9603
▁voki	-9604
▁neapyk	-9605
▁persik	-9606
▁įspūdį	-9607
aujančių	-9608
▁laisvei	-9609
▁modifik	-9610
▁pasisek	-9611
▁praeitą	-9612
▁mažesnis	-9613
▁pasiteis	-9614
▁pradėtos	-9615
▁signalas	-9616
▁laikytųsi	-9617
▁pagrindinę	-9618
▁strategijai	-9619
▁pagrindinėmis	-9620
ėtą	-9621
▁elem	-9622
▁juod	-9623
▁kils	-9624
▁merg	-9625
▁pražū	-9626
organiz	-9627
▁paplit	-9628
▁galimus	-9629
▁posėdži	-9630
▁reikiam	-9631
▁teikimą	-9632
▁Ukrainoje	-9633
▁kalbėjome	-9634
▁sudėtingi	-9635
▁įsitikinti	-9636
▁pateikiamas	-9637
▁demokratiškai	-9638
aks	-9639
▁Sh	-9640
anka	-9641
iste	-9642
▁svaj	-9643
uotume	-9644
▁slypi	-9645
▁Tunise	-9646
▁kelyje	-9647
▁misija	-9648
▁rankose	-9649
▁vaikais	-9650
▁dalyviai	-9651
▁pareigos	-9652
▁Azerbaidž	-9653
▁tvarkaraš	-9654
▁integruotą	-9655
orų	-9656
pra	-9657
čias	-9658
▁Alz	-9659
▁Kel	-9660
▁mel	-9661
▁nesib	-9662
antriai	-9663
oridori	-9664
▁teismą	-9665
▁Klimato	-9666
▁aiškiau	-9667
▁turimas	-9668
▁Ketvirta	-9669
▁pasakėte	-9670
▁konkretūs	-9671
▁išaiškinti	-9672
▁pareiškimų	-9673
▁trečiadienį	-9674
▁tvirtinimas	-9675
▁nepritariame	-9676
▁suinteresuotųjų	-9677
DO	-9678
žo	-9679
aulo	-9680
▁Šri	-9681
liaus	-9682
omųjų	-9683
ulioz	-9684
▁Darf	-9685
laviet	-9686
tojoje	-9687
ūrinių	-9688
▁būsto	-9689
▁uždirb	-9690
▁nepasteb	-9691
▁pasitenk	-9692
▁popierių	-9693
▁sudaryta	-9694
▁surinkti	-9695
▁demokratinę	-9696
▁netiesiogiai	-9697
▁Artimuosiuose	-9698
▁Pastaraisiais	-9699
pret	-9700
▁Juk	-9701
▁Pers	-9702
ovietų	-9703
tinėse	-9704
ąžinti	-9705
▁trokš	-9706
▁Ženev	-9707
▁anksti	-9708
▁įsidarb	-9709
▁daugumai	-9710
▁nepatenk	-9711
▁reikiamų	-9712
▁pasidalij	-9713
▁aplinkybės	-9714
▁konfliktus	-9715
▁pažeidimas	-9716
▁susitarimais	-9717
gu	-9718
avime	-9719
▁Kank	-9720
▁bazę	-9721
▁būdo	-9722
▁vili	-9723
dėmesį	-9724
▁apraš	-9725
▁ponui	-9726
▁reali	-9727
▁ryšys	-9728
▁radijo	-9729
▁dirbame	-9730
▁prevenc	-9731
▁valiuta	-9732
▁agentūrą	-9733
▁viršūnių	-9734
▁džiaugtis	-9735
▁elgiamasi	-9736
▁neigiamas	-9737
▁nuosmukio	-9738
▁kreipiuosi	-9739
▁reformuoti	-9740
▁strategijų	-9741
▁integruotos	-9742
upa	-9743
▁dėka	-9744
▁zona	-9745
▁tinka	-9746
▁atliks	-9747
▁linkiu	-9748
▁gebėjimą	-9749
▁koridori	-9750
▁padarytą	-9751
▁padengti	-9752
▁sukūrimą	-9753
▁Gruzijoje	-9754
▁Pakistane	-9755
▁religinių	-9756
▁turinčios	-9757
▁užkirstas	-9758
▁demokratiz	-9759
▁transportu	-9760
▁ekonominiai	-9761
▁palaipsniui	-9762
▁reguliariai	-9763
▁organizacijomis	-9764
ika	-9765
žiu	-9766
▁nėš	-9767
▁sin	-9768
ėkite	-9769
▁baug	-9770
▁būdai	-9771
▁grupė	-9772
▁nepar	-9773
▁regis	-9774
▁įkvėp	-9775
▁atvyko	-9776
▁įvykti	-9777
▁apgalvo	-9778
▁neturės	-9779
▁ilgalaikių	-9780
▁pavaduotoj	-9781
▁poreikiams	-9782
▁technologijomis	-9783
nt	-9784
šio	-9785
ERCO	-9786
olas	-9787
▁Pek	-9788
▁bri	-9789
uberk	-9790
▁žala	-9791
etuose	-9792
▁bausm	-9793
▁paveld	-9794
uberkulioz	-9795
▁Gvantanamo	-9796
▁pasirengęs	-9797
siek	-9798
▁142	-9799
▁tes	-9800
▁įpro	-9801
▁mėsos	-9802
▁tarti	-9803
ERCOSUR	-9804
▁galimo	-9805
▁iškilo	-9806
▁paruoš	-9807
▁žemyno	-9808
▁Barnier	-9809
▁laisvas	-9810
▁analizės	-9811
▁atsakymų	-9812
▁esančios	-9813
▁nežinome	-9814
▁dabartinį	-9815
▁grąžinimo	-9816
▁pavojinga	-9817
▁pastangoms	-9818
▁mechanizmai	-9819
▁pažeidžiamų	-9820
▁įgyvendinamas	-9821
AR	-9822
BŽ	-9823
-20	-9824
iną	-9825
▁skr	-9826
▁2050	-9827
▁grūd	-9828
etikos	-9829
▁Atėjo	-9830
▁viltį	-9831
tabiliz	-9832
▁balsas	-9833
▁esamos	-9834
▁gaival	-9835
▁potvynių	-9836
▁sąnaudos	-9837
▁vyresnio	-9838
▁lankstumą	-9839
▁pridėtinės	-9840
▁strateginę	-9841
▁branduolinę	-9842
▁institucijai	-9843
▁administracinės	-9844
aval	-9845
augos	-9846
▁Moksl	-9847
▁perim	-9848
▁harmon	-9849
▁išliks	-9850
▁nutiko	-9851
▁penkių	-9852
▁viltis	-9853
tiesiems	-9854
visuomen	-9855
▁ambasad	-9856
▁Dabartin	-9857
▁Palaikau	-9858
▁reikalai	-9859
▁tolesnio	-9860
▁tranzito	-9861
▁žurnalis	-9862
▁atkakliai	-9863
▁neigiamai	-9864
▁nuosprend	-9865
▁plačiajuos	-9866
▁veiksmingo	-9867
▁referendumą	-9868
▁priklausomybės	-9869
GA	-9870
rą	-9871
▁Go	-9872
ianm	-9873
prek	-9874
▁Juo	-9875
▁Luk	-9876
▁vilk	-9877
mingai	-9878
▁noras	-9879
▁pakom	-9880
irdžiai	-9881
▁Septin	-9882
▁kraštu	-9883
▁kūrimui	-9884
▁tinklas	-9885
▁didžiulės	-9886
▁ekonomine	-9887
▁parlamentas	-9888
▁ro	-9889
tant	-9890
verž	-9891
▁PNR	-9892
▁miš	-9893
▁1990	-9894
uotais	-9895
▁nerib	-9896
▁Pirmoji	-9897
▁lengvatų	-9898
▁geriausią	-9899
▁interpret	-9900
▁paskirties	-9901
ash	-9902
enį	-9903
▁des	-9904
feren	-9905
▁Prie	-9906
▁kompl	-9907
▁užima	-9908
▁esamus	-9909
▁išsiun	-9910
▁manoma	-9911
▁skyrių	-9912
▁scenari	-9913
▁vadovas	-9914
▁MERCOSUR	-9915
▁susivien	-9916
▁pardavimo	-9917
▁skaidriai	-9918
▁įsitraukti	-9919
▁Pirmininkui	-9920
▁atitinkamus	-9921
BT	-9922
▁sėd	-9923
▁okup	-9924
▁tame	-9925
▁nepaj	-9926
▁suplan	-9927
▁vienai	-9928
▁deramai	-9929
▁ministe	-9930
▁priskir	-9931
▁paragino	-9932
▁prašymus	-9933
▁rinkliav	-9934
▁rūpintis	-9935
▁kalbėjote	-9936
▁miestuose	-9937
▁nebūtinai	-9938
▁nesutinku	-9939
▁sistemoms	-9940
▁atskirties	-9941
▁patikimumo	-9942
▁greičiausiai	-9943
▁nepriklausomos	-9944
amiojo	-9945
▁tikėj	-9946
▁Karibų	-9947
▁nebėra	-9948
▁vengrų	-9949
▁Problema	-9950
▁atsikrat	-9951
▁elementai	-9952
▁pranešėju	-9953
▁svarstant	-9954
▁teisėtumo	-9955
▁perkėlimas	-9956
▁atstovaujama	-9957
▁konkurencijai	-9958
rąs	-9959
▁tak	-9960
opoli	-9961
▁Pasi	-9962
▁gatv	-9963
▁netap	-9964
▁taršą	-9965
▁užsim	-9966
▁žvejų	-9967
▁mažmen	-9968
▁padari	-9969
▁pakeit	-9970
Komisija	-9971
▁emisijų	-9972
▁priimtą	-9973
▁sąjungą	-9974
▁stiprios	-9975
▁paskelbta	-9976
▁neatsižvelg	-9977
▁europiečiams	-9978
▁patvirtintos	-9979
▁mi	-9980
▁Žod	-9981
▁1999	-9982
▁žvel	-9983
turėtų	-9984
▁žudyn	-9985
▁daržov	-9986
▁ketinu	-9987
▁vaizdo	-9988
▁Norėtume	-9989
▁Turkijai	-9990
▁iššūkiai	-9991
▁keliamas	-9992
▁Klausimas	-9993
▁komisijos	-9994
▁ilgalaikis	-9995
dų	-9996
Karal	-9997
▁pasip	-9998
▁iššūkį	-9999
▁pirkti	-10000
▁Ramiojo	-10001
▁Sacharos	-10002
▁neatitik	-10003
▁paskirti	-10004
▁nustatytą	-10005
▁pasaulinę	-10006
▁negalėsime	-10007
▁prevenciją	-10008
▁susirūpinimas	-10009
kov	-10010
žiųjų	-10011
▁Rink	-10012
esniam	-10013
▁logis	-10014
▁pasen	-10015
▁nekreip	-10016
▁nepasir	-10017
▁avarijos	-10018
▁chartiją	-10019
▁patikimą	-10020
▁įmanomas	-10021
▁palaikymą	-10022
▁papildoma	-10023
▁prielaida	-10024
▁rodikliai	-10025
▁įgaliotin	-10026
▁pilietybės	-10027
▁dešimtmečio	-10028
2,	-10029
ann	-10030
maž	-10031
utį	-10032
▁ambi	-10033
ederal	-10034
tiškos	-10035
ininkais	-10036
▁civilių	-10037
▁griežtą	-10038
▁rinkoms	-10039
▁aklaviet	-10040
▁demonstr	-10041
▁parengus	-10042
▁privalau	-10043
▁pirmosios	-10044
▁Pranešėjas	-10045
▁apytikriai	-10046
▁įdarbinimo	-10047
▁vyriausybes	-10048
▁demokratinio	-10049
▁koordinatori	-10050
▁susitarimuose	-10051
bar	-10052
▁Ro	-10053
ando	-10054
andos	-10055
usiam	-10056
▁repu	-10057
▁taut	-10058
▁veda	-10059
▁sieną	-10060
▁stoka	-10061
▁susigr	-10062
▁sužlug	-10063
▁apklaus	-10064
▁centras	-10065
▁pasiektą	-10066
▁patraukl	-10067
▁remiamas	-10068
▁bendromis	-10069
▁galutinai	-10070
▁ignoruoti	-10071
▁svarstoma	-10072
▁ypatingai	-10073
▁pavojingas	-10074
▁prievartos	-10075
▁svarbiausius	-10076
ugab	-10077
▁Jac	-10078
eigti	-10079
▁bili	-10080
▁kanc	-10081
▁mišk	-10082
iečiai	-10083
▁stebi	-10084
▁jautri	-10085
▁rengia	-10086
▁akimirk	-10087
▁atlikta	-10088
▁pensiją	-10089
▁apsilank	-10090
▁medžiagas	-10091
▁paprastas	-10092
▁techninės	-10093
▁vystomojo	-10094
▁grindžiamą	-10095
▁planuojama	-10096
▁skirtingose	-10097
▁išsivysčiusių	-10098
son	-10099
▁48	-10100
▁balt	-10101
tadienį	-10102
▁stokos	-10103
▁vizija	-10104
▁būdamas	-10105
▁Negalima	-10106
▁Balsavimo	-10107
▁atsargiai	-10108
▁didžiuotis	-10109
▁nepritaria	-10110
▁prevencija	-10111
▁priimtinas	-10112
▁katastrofos	-10113
▁patikrinimo	-10114
dytų	-10115
ėmus	-10116
▁Nig	-10117
▁Reh	-10118
ament	-10119
▁nutik	-10120
▁etiket	-10121
▁atsargų	-10122
▁bandoma	-10123
▁patirti	-10124
▁didesnes	-10125
▁ministre	-10126
▁parduoti	-10127
▁tinkamus	-10128
▁komunistų	-10129
▁konkrečią	-10130
▁reagavimo	-10131
▁korupcijos	-10132
▁prioritetą	-10133
▁suderintos	-10134
▁diskutavome	-10135
▁EF	-10136
▁ni	-10137
tiškų	-10138
▁euras	-10139
▁feder	-10140
Nabucco	-10141
▁materi	-10142
▁vasarą	-10143
▁įsigyti	-10144
▁bandymas	-10145
▁kalbėjau	-10146
▁raginimą	-10147
▁mokėtojai	-10148
▁neleidžia	-10149
▁raginamos	-10150
Parlamentas	-10151
▁neturtingi	-10152
▁totalitarin	-10153
▁tuberkulioz	-10154
▁prisijungimo	-10155
10	-10156
AN	-10157
▁Ma	-10158
arch	-10159
▁nak	-10160
adeir	-10161
amąjį	-10162
▁Mugab	-10163
▁Korėja	-10164
▁bandymų	-10165
▁sukeltų	-10166
▁centrinio	-10167
▁gelbėjimo	-10168
▁reikalavo	-10169
▁susitikti	-10170
▁pasistengti	-10171
▁įsipareigojusi	-10172
ystė	-10173
▁suv	-10174
laisv	-10175
▁Apib	-10176
▁fund	-10177
▁Feder	-10178
▁bylos	-10179
▁rudenį	-10180
▁triukš	-10181
▁daugiak	-10182
▁ligomis	-10183
▁raginti	-10184
▁rinkimo	-10185
▁svarbia	-10186
▁viening	-10187
▁išrinkti	-10188
▁jauniems	-10189
▁norėjome	-10190
▁reikiamą	-10191
▁daugiausiai	-10192
▁JungtinKaral	-10193
▁konsultacijas	-10194
ger	-10195
enai	-10196
▁Mor	-10197
▁kuk	-10198
iskol	-10199
▁(200	-10200
▁gina	-10201
▁ster	-10202
▁įsis	-10203
▁mastas	-10204
▁atviros	-10205
▁sumažės	-10206
▁vilties	-10207
▁naujiems	-10208
▁patvirtintų	-10209
▁veikiančios	-10210
▁pareikalauti	-10211
▁kvalifikacijų	-10212
▁nusikalstamumo	-10213
avig	-10214
elai	-10215
elės	-10216
▁400	-10217
▁sto	-10218
itęsi	-10219
▁Tvir	-10220
▁tunų	-10221
izuoti	-10222
▁bruož	-10223
▁pasib	-10224
▁laivai	-10225
▁pastov	-10226
▁patari	-10227
▁minėtas	-10228
▁privalu	-10229
▁turinys	-10230
▁nestabil	-10231
▁prieinama	-10232
▁naudojantis	-10233
▁partneriams	-10234
▁susijusioms	-10235
▁konsultacijos	-10236
▁Žuvininkystės	-10237
ill	-10238
▁Ner	-10239
▁Red	-10240
amoje	-10241
▁nesk	-10242
imerio	-10243
▁infek	-10244
▁jėgas	-10245
▁radio	-10246
tingumo	-10247
▁atvirą	-10248
▁mokymas	-10249
▁įspūdis	-10250
▁išmetimą	-10251
ekonomikos	-10252
▁baroniene	-10253
▁naudojimu	-10254
▁Balkanuose	-10255
▁pasibaigus	-10256
▁pasitikėti	-10257
▁intervencijos	-10258
▁pasirengusios	-10259
da	-10260
IDS	-10261
▁GMO	-10262
stume	-10263
galioj	-10264
inform	-10265
▁okupa	-10266
▁minčių	-10267
▁nurodė	-10268
▁gyvybės	-10269
▁nvienas	-10270
▁tikrove	-10271
▁kainomis	-10272
▁naujasis	-10273
▁pagalbai	-10274
▁teisėtos	-10275
▁biudžetin	-10276
▁sąžiningi	-10277
▁Tarptautin	-10278
▁efektyvumas	-10279
▁elektroninių	-10280
▁paaiškinimai	-10281
arį	-10282
▁Bi	-10283
uošti	-10284
▁gimt	-10285
▁įvež	-10286
esijos	-10287
▁Intern	-10288
▁atskai	-10289
▁kvotos	-10290
▁norima	-10291
▁tvirta	-10292
▁Danijos	-10293
▁gyvybių	-10294
▁penkias	-10295
▁remiasi	-10296
▁atšaukti	-10297
▁išvadose	-10298
▁neprival	-10299
▁penkerių	-10300
▁susidaro	-10301
▁vieningą	-10302
▁konkrečiu	-10303
▁Neturėtume	-10304
▁genetiškai	-10305
▁stengiamės	-10306
▁subsidijas	-10307
▁Vienintelis	-10308
▁bendruomenei	-10309
pild	-10310
▁rems	-10311
▁sėkm	-10312
▁terš	-10313
▁tėra	-10314
▁sueig	-10315
▁Galima	-10316
▁Turint	-10317
▁Vertin	-10318
▁rinkti	-10319
▁įvykis	-10320
ėjusiems	-10321
▁neketin	-10322
▁nenoriu	-10323
▁siekius	-10324
▁išsamiau	-10325
▁prisidėtų	-10326
▁rezultato	-10327
▁sakydamas	-10328
▁sudėtingų	-10329
▁įvykdytas	-10330
▁Ankstesnio	-10331
▁papildomus	-10332
▁pirmininku	-10333
▁pripažinimą	-10334
▁č	-10335
▁Mas	-10336
uosiu	-10337
▁beje	-10338
eistas	-10339
▁Susid	-10340
▁pačia	-10341
▁priar	-10342
▁turtą	-10343
▁vėžio	-10344
▁Buvusi	-10345
▁Turkiją	-10346
▁paramai	-10347
▁apgyvend	-10348
▁nesuprant	-10349
▁papildomai	-10350
▁veikiančių	-10351
▁galiojančių	-10352
▁pasirengimo	-10353
▁transportui	-10354
▁nepakankamas	-10355
ler	-10356
ėto	-10357
škas	-10358
tinimo	-10359
▁fakto	-10360
▁Gazoje	-10361
▁Madeir	-10362
▁Dublino	-10363
▁kodifik	-10364
▁perkeli	-10365
▁statyti	-10366
▁moratori	-10367
▁atsakingą	-10368
▁perskirst	-10369
▁pagrindiniais	-10370
▁Im	-10371
▁Ly	-10372
etams	-10373
omosek	-10374
▁apkal	-10375
▁sumas	-10376
▁žvelg	-10377
▁išimčių	-10378
▁kodekso	-10379
▁tvarumą	-10380
▁tvirtos	-10381
▁neįtrauk	-10382
▁operatyv	-10383
▁sąlygoms	-10384
▁sektoriai	-10385
▁efektyvaus	-10386
▁paskelbtas	-10387
▁atsakomybėn	-10388
42	-10389
eag	-10390
ogr	-10391
▁Sal	-10392
▁Tri	-10393
▁inc	-10394
▁išan	-10395
▁įkai	-10396
▁Nepam	-10397
pažanga	-10398
▁jaučia	-10399
▁nenaud	-10400
▁prižiū	-10401
▁išraišk	-10402
▁pažiūrų	-10403
▁pirkimo	-10404
▁pradėtų	-10405
▁verslas	-10406
▁įlankos	-10407
insistema	-10408
▁planuoja	-10409
▁tikrinti	-10410
▁turėdami	-10411
▁didžiausi	-10412
▁migracija	-10413
▁padidintas	-10414
▁pateikiant	-10415
▁perdirbimo	-10416
▁stabilizuoti	-10417
▁Atsižvelgdami	-10418
▁konstitucijos	-10419
▁piktnaudžiavimo	-10420
▁ET	-10421
žius	-10422
▁Kam	-10423
osime	-10424
▁Alzhe	-10425
▁nesul	-10426
▁taiki	-10427
indamas	-10428
▁Reding	-10429
▁klaida	-10430
▁pokalb	-10431
▁Gruzija	-10432
▁atvėrim	-10433
▁dolerių	-10434
▁nelabai	-10435
▁Balsuoju	-10436
▁narystei	-10437
▁ekspertai	-10438
▁keliančių	-10439
▁užimtumas	-10440
▁operacijas	-10441
▁vartojimas	-10442
▁vertybinių	-10443
VT	-10444
alia	-10445
heug	-10446
▁Abi	-10447
etinių	-10448
rasmus	-10449
▁įvard	-10450
▁dislok	-10451
▁išvada	-10452
▁pasieks	-10453
▁prarado	-10454
▁įvairin	-10455
▁žvejybą	-10456
▁Libijoje	-10457
▁atsaking	-10458
▁gyvename	-10459
▁nenustat	-10460
▁paminėta	-10461
▁pragmati	-10462
▁statusas	-10463
▁sureguli	-10464
▁uostuose	-10465
▁nesugebėjo	-10466
▁praktikoje	-10467
▁svarbesnis	-10468
▁pagrindiniu	-10469
mar	-10470
gras	-10471
riež	-10472
▁eli	-10473
▁lav	-10474
/2007	-10475
▁gaiv	-10476
amblio	-10477
▁trims	-10478
▁atvira	-10479
▁bankro	-10480
▁nebals	-10481
▁tikime	-10482
▁Verheug	-10483
▁daromas	-10484
▁klaidin	-10485
▁liautis	-10486
▁tikrose	-10487
▁Kultūros	-10488
▁autobusų	-10489
▁bendrais	-10490
▁pozicijų	-10491
▁aptariame	-10492
▁formuluot	-10493
▁išrinktas	-10494
▁leidimais	-10495
▁priimtina	-10496
▁vieningos	-10497
▁imigraciją	-10498
▁nelegalios	-10499
▁saviraiškos	-10500
▁sprendimais	-10501
▁įvertinimas	-10502
▁administracija	-10503
ars	-10504
žia	-10505
antr	-10506
ybir	-10507
▁die	-10508
uolių	-10509
ėliau	-10510
▁Rašy	-10511
▁atak	-10512
▁nelik	-10513
▁sieks	-10514
▁švent	-10515
amąsias	-10516
daugiau	-10517
▁pagerb	-10518
▁sugebės	-10519
▁sukurtų	-10520
▁derinimo	-10521
▁nepateis	-10522
▁didžiulių	-10523
▁produktas	-10524
▁įtraukimo	-10525
▁Bulgarijoje	-10526
▁išsaugojimo	-10527
▁nepriklauso	-10528
▁teritorinės	-10529
▁atkreipdėmesį	-10530
iką	-10531
▁Ge	-10532
alui	-10533
▁Geri	-10534
▁Nuoš	-10535
▁bado	-10536
▁įmok	-10537
▁apdai	-10538
▁kartas	-10539
▁įkūrim	-10540
▁iškreip	-10541
▁popietę	-10542
▁suprato	-10543
centraliz	-10544
▁pastabos	-10545
▁visiškas	-10546
▁egzistuoj	-10547
▁vadovauti	-10548
▁ūkininkus	-10549
▁elektrinės	-10550
▁horizontal	-10551
▁perdavimas	-10552
▁alternatyvų	-10553
▁išankstinio	-10554
▁nusikaltimas	-10555
RT	-10556
▁ži	-10557
▁Galų	-10558
▁biok	-10559
acinės	-10560
▁dydis	-10561
▁Maisto	-10562
▁nurodo	-10563
▁žemyne	-10564
▁koncent	-10565
▁siūlomi	-10566
▁Latvijos	-10567
▁išsivyst	-10568
▁pageidau	-10569
▁prietais	-10570
▁tautinių	-10571
▁užsiimti	-10572
▁centraliz	-10573
▁tikrinimo	-10574
▁visuotinį	-10575
▁Paskutinis	-10576
▁susitelkti	-10577
▁įtraukimas	-10578
▁nedalyvauja	-10579
▁reikšmingas	-10580
▁suteikiamas	-10581
6,	-10582
IP	-10583
bet	-10584
▁65	-10585
Euro	-10586
ežas	-10587
▁Pui	-10588
erkel	-10589
▁Beje	-10590
▁slėp	-10591
ontroli	-10592
▁abejon	-10593
▁Artimųjų	-10594
▁laikomos	-10595
▁pabandyti	-10596
▁pastarojo	-10597
▁Kiekvienas	-10598
▁draudžiama	-10599
▁nuostolius	-10600
▁regioninio	-10601
▁finansiniai	-10602
▁strateginių	-10603
▁tarptautinėse	-10604
Gal	-10605
adem	-10606
tinu	-10607
įvai	-10608
▁Ben	-10609
▁bas	-10610
▁ili	-10611
▁Žal	-10612
aniją	-10613
▁klon	-10614
ytomis	-10615
▁Gaila	-10616
▁plėto	-10617
▁valdo	-10618
▁Išorės	-10619
▁aktyvų	-10620
▁naudodami	-10621
▁prasideda	-10622
▁dabartinei	-10623
▁struktūras	-10624
▁organizuotu	-10625
▁palestiniečių	-10626
tral	-10627
▁mai	-10628
ensus	-10629
likos	-10630
ystei	-10631
▁Kova	-10632
▁skep	-10633
▁tiri	-10634
▁orumą	-10635
uodamos	-10636
▁Bendra	-10637
▁bananų	-10638
▁faktus	-10639
▁kiekyb	-10640
▁puikią	-10641
▁turimų	-10642
▁inciden	-10643
▁registrą	-10644
▁dvišalius	-10645
▁fundament	-10646
▁paklausos	-10647
▁Alzheimerio	-10648
▁pragyvenimo	-10649
▁ateinančiais	-10650
▁panaudojimas	-10651
▁proporcingumo	-10652
eso	-10653
Kalb	-10654
ulki	-10655
▁Med	-10656
▁dyk	-10657
▁kūd	-10658
▁sie	-10659
▁Vietn	-10660
▁knygą	-10661
logijos	-10662
▁užkert	-10663
▁apdoroj	-10664
▁linijos	-10665
▁lyderių	-10666
▁atskleid	-10667
▁trečiojo	-10668
▁nuoširdži	-10669
▁Lisabonoje	-10670
▁koncepcija	-10671
KP	-10672
alį	-10673
nis	-10674
inir	-10675
timų	-10676
ytai	-10677
▁neš	-10678
iskir	-10679
▁esmę	-10680
ėtinai	-10681
▁nebeb	-10682
▁turim	-10683
▁tėvyn	-10684
▁lošimų	-10685
▁užpild	-10686
▁homosek	-10687
▁išduoti	-10688
▁naujojo	-10689
▁sutrump	-10690
▁Bosnijos	-10691
▁Ministrų	-10692
▁mėlynąją	-10693
▁prireiks	-10694
▁sunkumai	-10695
▁netiesiog	-10696
▁sistemomis	-10697
▁svarbiausią	-10698
inn	-10699
veg	-10700
ūri	-10701
▁Pie	-10702
▁Keli	-10703
▁rankas	-10704
▁trimis	-10705
▁Kartais	-10706
▁eksport	-10707
▁mobilumo	-10708
▁paklausą	-10709
▁nelegalia	-10710
▁žingsnius	-10711
▁ankstesnių	-10712
▁atstovauti	-10713
▁vartotojui	-10714
▁įgyvendina	-10715
▁paskutinius	-10716
▁socialiniais	-10717
EC	-10718
erta	-10719
ovan	-10720
▁maš	-10721
▁noro	-10722
omomis	-10723
▁Asmen	-10724
▁Atvir	-10725
▁never	-10726
▁pratę	-10727
tingiau	-10728
▁liečia	-10729
▁ginklus	-10730
▁termino	-10731
▁univers	-10732
▁aptarėme	-10733
▁iškeltas	-10734
▁steigimo	-10735
▁tyrimais	-10736
▁naikinimo	-10737
▁pasirinko	-10738
▁surinkimo	-10739
▁neįgaliųjų	-10740
▁operatorių	-10741
▁pasirengti	-10742
▁administracijos	-10743
be	-10744
angą	-10745
▁pret	-10746
kurenc	-10747
▁Mianm	-10748
▁gaisrų	-10749
▁manimi	-10750
▁padaug	-10751
▁atskiros	-10752
▁konkreti	-10753
▁partnerė	-10754
▁kalbėdami	-10755
▁prireikus	-10756
▁protingai	-10757
▁moksliniais	-10758
▁suteikiamos	-10759
▁demokratines	-10760
▁modernizuoti	-10761
▁nepriklausomų	-10762
▁veiksmingumas	-10763
ue	-10764
imp	-10765
▁km	-10766
▁Mask	-10767
▁perein	-10768
▁ragino	-10769
▁daugėja	-10770
▁išmokos	-10771
▁laikome	-10772
▁antrasis	-10773
▁pastraip	-10774
▁nustatėme	-10775
▁konkretaus	-10776
▁nelegaliai	-10777
▁nutraukimo	-10778
▁sugebėsime	-10779
▁aplinkybėms	-10780
▁finansiškai	-10781
▁kategorijos	-10782
▁pasirinkimą	-10783
▁pastarąsias	-10784
▁socialiniam	-10785
▁valstybnarė	-10786
▁deklaracijos	-10787
utb	-10788
▁McC	-10789
▁piln	-10790
acinių	-10791
▁Kalėd	-10792
▁Kosove	-10793
▁būsimo	-10794
▁keista	-10795
▁susiej	-10796
▁ženklo	-10797
▁Negaliu	-10798
▁aiškaus	-10799
▁patentų	-10800
▁procesų	-10801
▁didžiųjų	-10802
▁turintys	-10803
▁funkcijas	-10804
▁stebėseną	-10805
▁Islandijos	-10806
▁inovacijos	-10807
▁patvirtins	-10808
▁tiesioginį	-10809
▁nukentėjusių	-10810
▁liberalizavimas	-10811
nek	-10812
aikų	-10813
aime	-10814
eros	-10815
tipr	-10816
▁Pac	-10817
▁ŽIV	-10818
▁bylų	-10819
▁neli	-10820
▁laikų	-10821
▁nevyk	-10822
▁svyra	-10823
▁įtemp	-10824
audamas	-10825
traukia	-10826
▁kištis	-10827
▁laivyn	-10828
▁moters	-10829
▁sutuok	-10830
▁įnašas	-10831
eidžiant	-10832
▁bendram	-10833
▁truputį	-10834
▁Ukrainai	-10835
▁vidutines	-10836
▁dabartines	-10837
▁statistika	-10838
▁artimiausiu	-10839
▁išnaudojimo	-10840
▁situacijoje	-10841
▁nagrinėjamas	-10842
pel	-10843
▁Is	-10844
▁arm	-10845
▁esm	-10846
uočių	-10847
▁negr	-10848
▁Jiems	-10849
▁Praei	-10850
▁etapo	-10851
▁jautr	-10852
apsauga	-10853
▁postūm	-10854
▁Finansų	-10855
▁Neabejo	-10856
▁girdime	-10857
▁toleran	-10858
▁viršija	-10859
▁atskiras	-10860
▁didinimą	-10861
▁gaminius	-10862
▁girdėjau	-10863
▁komandir	-10864
▁panašiai	-10865
▁prarasti	-10866
▁rūpestis	-10867
▁dideliais	-10868
▁pacientai	-10869
▁tapatybės	-10870
▁nesąžininga	-10871
▁ombudsmenas	-10872
▁priklausomi	-10873
▁gyvenantiems	-10874
▁konstruktyviai	-10875
tę	-10876
gim	-10877
▁Car	-10878
▁Kyla	-10879
▁karš	-10880
▁pros	-10881
▁navig	-10882
▁pakil	-10883
▁parad	-10884
▁įdomi	-10885
▁bylose	-10886
▁neteko	-10887
▁užsiim	-10888
▁Belgija	-10889
▁beprasm	-10890
▁išsamus	-10891
▁įmonėse	-10892
▁keitimosi	-10893
▁konkretus	-10894
▁poreikiai	-10895
▁vertybėms	-10896
▁nesąžiningos	-10897
▁administracinę	-10898
lg	-10899
pask	-10900
pili	-10901
▁paim	-10902
tarimu	-10903
▁aukas	-10904
▁nutol	-10905
▁tėvai	-10906
▁neapsi	-10907
▁pardav	-10908
▁suklas	-10909
▁viršen	-10910
▁etninių	-10911
▁kuriama	-10912
▁mitybos	-10913
▁remiama	-10914
pasiūlymą	-10915
▁mažumoms	-10916
▁tikromis	-10917
▁padarytas	-10918
▁aptariamas	-10919
▁baudžiamojo	-10920
▁mokslininkų	-10921
▁perspektyva	-10922
▁rezoliucijas	-10923
▁vidutiniškai	-10924
gių	-10925
▁CE	-10926
▁Ky	-10927
▁ind	-10928
▁vet	-10929
ginkl	-10930
▁kurs	-10931
▁logi	-10932
▁anglų	-10933
▁Maroko	-10934
▁Norveg	-10935
▁nesupr	-10936
▁praėjo	-10937
▁puslap	-10938
ančiuose	-10939
▁kolegai	-10940
▁naujais	-10941
▁prieiga	-10942
▁tikrąją	-10943
▁vietoms	-10944
▁Siekdami	-10945
▁išimties	-10946
▁pažymėjo	-10947
▁valandas	-10948
▁laikymąsi	-10949
▁praktinių	-10950
▁neteisingai	-10951
▁padariniais	-10952
▁sumažinimas	-10953
▁vyriausioji	-10954
▁rekomendacija	-10955
lį	-10956
▁u	-10957
usiais	-10958
▁formą	-10959
▁neder	-10960
▁Dažnai	-10961
▁diegti	-10962
▁krovin	-10963
▁nesant	-10964
▁taškas	-10965
▁klaidas	-10966
▁svarsto	-10967
▁atmestas	-10968
▁buvusios	-10969
▁kapitalą	-10970
▁ketinimų	-10971
▁kompleks	-10972
▁neatsiej	-10973
▁sugebėti	-10974
▁atlyginimų	-10975
▁pranešėjus	-10976
▁sustiprins	-10977
▁visuotinai	-10978
▁dabartinius	-10979
▁alternatyvių	-10980
bo	-10981
EEB	-10982
enų	-10983
usiu	-10984
▁Ken	-10985
▁Leh	-10986
▁dvy	-10987
gionų	-10988
ipuli	-10989
▁Kiti	-10990
▁pigi	-10991
▁verg	-10992
▁Šiai	-10993
▁duris	-10994
▁jauni	-10995
▁Paryži	-10996
▁akadem	-10997
▁išvien	-10998
▁prašymo	-10999
▁abipusio	-11000
▁pabrėžta	-11001
▁perėjimo	-11002
▁rodiklių	-11003
▁pakeitimu	-11004
▁prisiimtų	-11005
▁Pirmininkų	-11006
▁pakankamas	-11007
▁Nuoširdžiai	-11008
▁nagrinėjimo	-11009
▁automatiškai	-11010
▁finansavimui	-11011
▁prieštaravimų	-11012
ath	-11013
orė	-11014
▁Ned	-11015
audon	-11016
kiama	-11017
▁Jean	-11018
▁salų	-11019
ainiui	-11020
aldner	-11021
pažįst	-11022
▁Kokių	-11023
▁gražu	-11024
▁nugal	-11025
▁pasyv	-11026
▁varik	-11027
senofob	-11028
▁bandom	-11029
▁sunkus	-11030
▁kitokia	-11031
▁taikiai	-11032
▁gebėjimų	-11033
▁padidino	-11034
▁Direktyvą	-11035
▁drebėjimo	-11036
▁nekalbant	-11037
▁pakeistas	-11038
▁atskleisti	-11039
▁geriausios	-11040
▁susitikimų	-11041
IFT	-11042
gar	-11043
▁sez	-11044
▁Piet	-11045
▁akis	-11046
▁futb	-11047
▁Kaulo	-11048
▁nusta	-11049
▁įrangą	-11050
virtinti	-11051
▁Ferrero	-11052
▁bandyti	-11053
▁metodai	-11054
▁pasižym	-11055
▁turting	-11056
▁valdymu	-11057
▁Japonija	-11058
▁pasisako	-11059
▁patikima	-11060
▁teikiamų	-11061
▁išgelbėti	-11062
▁laikymosi	-11063
▁pasiūlytą	-11064
▁sudaromos	-11065
▁farmacijos	-11066
▁nepasitenk	-11067
▁atsakomybuž	-11068
▁kompensuoti	-11069
▁panaikinimą	-11070
▁vadinamosios	-11071
▁-.	-11072
▁4.	-11073
menk	-11074
oblig	-11075
▁pusių	-11076
demokra	-11077
▁nuteis	-11078
▁padrąs	-11079
▁sąraše	-11080
imbabvės	-11081
▁atskiri	-11082
▁terminą	-11083
▁ksenofob	-11084
▁nukrypti	-11085
▁išlaidoms	-11086
▁pasaulinį	-11087
▁paskutinę	-11088
▁psicholog	-11089
▁naudojimui	-11090
▁pilietinių	-11091
▁pripažinta	-11092
▁sugebėjome	-11093
▁grindžiamos	-11094
▁paskirstyti	-11095
▁pateikiamos	-11096
▁pirmininkavimas	-11097
ęž	-11098
adi	-11099
res	-11100
ieno	-11101
usia	-11102
▁Ati	-11103
dalis	-11104
likti	-11105
trūki	-11106
▁Berl	-11107
▁kūno	-11108
▁tiki	-11109
▁Šiam	-11110
ėdamos	-11111
▁amžių	-11112
▁vargu	-11113
esniems	-11114
▁Maurit	-11115
▁Paaišk	-11116
▁formas	-11117
▁minima	-11118
▁neapib	-11119
▁neginč	-11120
▁užmojų	-11121
▁užtruk	-11122
▁lemiamą	-11123
▁pirmųjų	-11124
▁Meksikos	-11125
▁krypties	-11126
▁nusikalt	-11127
▁paprastų	-11128
▁sugrįžti	-11129
▁taryboje	-11130
▁įgūdžius	-11131
▁neapykant	-11132
▁delegacijų	-11133
▁energetika	-11134
▁nukreiptas	-11135
▁prieinamas	-11136
▁nukentėjusiems	-11137
▁supaprastinimas	-11138
sio	-11139
▁esmė	-11140
▁smūg	-11141
iniųjų	-11142
rašyti	-11143
▁banan	-11144
▁išsis	-11145
▁užsak	-11146
inaudoj	-11147
▁biomet	-11148
▁rėmimo	-11149
▁aiškias	-11150
▁dėkinga	-11151
▁panašios	-11152
▁tolesnės	-11153
▁susitvark	-11154
▁decentraliz	-11155
▁deklaraciją	-11156
▁konkrečiais	-11157
▁protekcionizmo	-11158
▁neatsižvelgiama	-11159
tuk	-11160
▁jaud	-11161
▁meto	-11162
Galileo	-11163
pažinti	-11164
▁išvyst	-11165
▁rinkod	-11166
▁staiga	-11167
▁būdinga	-11168
▁laikėsi	-11169
▁tikroji	-11170
▁įvedimo	-11171
▁nelaimes	-11172
▁paskolas	-11173
▁rinkėjai	-11174
▁rodiklis	-11175
▁vadinasi	-11176
▁nelegalių	-11177
▁nepasitik	-11178
▁taikytina	-11179
▁vertinimu	-11180
▁atitikties	-11181
▁atsisakyta	-11182
▁didžiosios	-11183
▁išklausyti	-11184
▁atvirkščiai	-11185
▁perspektyvų	-11186
▁reglamentai	-11187
▁žiniasklaida	-11188
▁nusikaltimais	-11189
iotų	-11190
pidem	-11191
▁Nuol	-11192
▁opon	-11193
▁skun	-11194
elimin	-11195
▁Koleg	-11196
▁Konkr	-11197
▁būklę	-11198
▁kolon	-11199
▁nemin	-11200
alsifik	-11201
▁Konven	-11202
▁darbai	-11203
▁mirčių	-11204
▁sakome	-11205
▁įstoti	-11206
▁dalyvav	-11207
▁kalbėta	-11208
▁pavyktų	-11209
▁Dramblio	-11210
▁dialogui	-11211
▁nebaudži	-11212
▁pakeista	-11213
▁politine	-11214
▁konsensus	-11215
▁suderinta	-11216
▁Rašytiniai	-11217
▁precedento	-11218
▁sąmoningai	-11219
▁parlamentai	-11220
de	-11221
tinė	-11222
▁150	-11223
▁Tol	-11224
ašing	-11225
lėpti	-11226
ryčių	-11227
▁daik	-11228
entais	-11229
ymuose	-11230
▁duotų	-11231
▁grūdų	-11232
avimais	-11233
▁Fronte	-11234
▁baimin	-11235
▁Austral	-11236
▁Tvirtai	-11237
▁nuomonė	-11238
▁pasipik	-11239
▁dvigubai	-11240
▁manipuli	-11241
▁paremtas	-11242
▁registra	-11243
▁Vystymosi	-11244
▁gebėjimus	-11245
▁išbraukti	-11246
▁nepaisyti	-11247
▁pasinaudo	-11248
▁struktūrų	-11249
▁Barselonos	-11250
▁pasiūlytos	-11251
▁vyriausybe	-11252
▁įgyvendinimu	-11253
▁susitikimuose	-11254
okį	-11255
ojau	-11256
arovo	-11257
▁sume	-11258
▁temą	-11259
aikiau	-11260
ečiams	-11261
▁sunkų	-11262
▁judumą	-11263
▁kartoj	-11264
▁mažina	-11265
▁nenuos	-11266
▁provin	-11267
▁Kaukazo	-11268
▁kritiką	-11269
▁pramonė	-11270
▁prašymu	-11271
▁atsargūs	-11272
▁deficitą	-11273
▁išpuolius	-11274
▁nedemokra	-11275
▁pasitrauk	-11276
▁vadinamas	-11277
▁Prezidento	-11278
▁panaudotos	-11279
▁akivaizdoje	-11280
▁kariuomenės	-11281
▁pasirašytas	-11282
▁priklausyti	-11283
▁prisidedama	-11284
▁standartais	-11285
▁programavimo	-11286
▁eksploatavimo	-11287
▁konservatorių	-11288
▁priklausančių	-11289
ildo	-11290
▁sąž	-11291
vigub	-11292
▁šito	-11293
itetas	-11294
▁kenči	-11295
▁orumo	-11296
uotojus	-11297
▁pakete	-11298
▁palink	-11299
▁pačiai	-11300
▁pernai	-11301
▁sukels	-11302
▁Antroji	-11303
▁knygoje	-11304
▁laikams	-11305
▁posėdis	-11306
▁Neturime	-11307
▁paklausa	-11308
▁premijos	-11309
▁gyvenimas	-11310
▁naudojamų	-11311
▁akivaizdži	-11312
▁skatinamos	-11313
▁panaudojant	-11314
▁investuotojų	-11315
▁susidomėjimą	-11316
▁Sol	-11317
atūros	-11318
tinimą	-11319
tuojant	-11320
▁Vašing	-11321
▁atviri	-11322
▁epidem	-11323
▁punktą	-11324
▁įsikūr	-11325
idencial	-11326
▁galioti	-11327
▁taupyti	-11328
▁teikiamą	-11329
▁Albanijos	-11330
▁europinės	-11331
▁nukreipta	-11332
▁patikimos	-11333
▁sutarimas	-11334
▁Jungtinėms	-11335
▁komercinių	-11336
▁tradicijas	-11337
▁nacionalinėms	-11338
omen	-11339
osof	-11340
tein	-11341
trin	-11342
čiame	-11343
▁važi	-11344
▁gimst	-11345
▁nauju	-11346
viprasm	-11347
▁esanti	-11348
▁pirštų	-11349
▁vyrams	-11350
▁pridėti	-11351
▁skaičiui	-11352
▁pasiruošę	-11353
▁pasiūlytų	-11354
▁vadovauja	-11355
▁nelaimingų	-11356
▁pareiškimo	-11357
▁pataisymai	-11358
▁sunaikinti	-11359
▁susiklosči	-11360
▁nusprendžiau	-11361
▁konvergencijos	-11362
▁pirmininkavimą	-11363
chaz	-11364
valg	-11365
▁Lab	-11366
▁Než	-11367
▁Ose	-11368
▁San	-11369
eriop	-11370
grama	-11371
ydyti	-11372
▁Tink	-11373
taciją	-11374
torinių	-11375
▁Merkel	-11376
▁Prisim	-11377
▁iškyla	-11378
▁priart	-11379
▁tekstų	-11380
▁blogiau	-11381
▁skyrius	-11382
▁atvyksta	-11383
▁naudingą	-11384
▁neigiamo	-11385
▁Jungtines	-11386
▁deficitas	-11387
▁išspręsta	-11388
▁privatumo	-11389
▁atsitikimų	-11390
▁kritikuoti	-11391
▁neteisėtos	-11392
▁bendradarbiauja	-11393
ene	-11394
frak	-11395
žvej	-11396
▁Kit	-11397
ostat	-11398
▁Visk	-11399
▁nenus	-11400
▁Šiuos	-11401
ulkiojo	-11402
▁2020".	-11403
▁Vietoj	-11404
▁grafik	-11405
▁laisva	-11406
▁penkis	-11407
▁tvarus	-11408
▁Reformų	-11409
▁atspaud	-11410
▁pralaim	-11411
▁punktus	-11412
▁vandenų	-11413
▁žlugimo	-11414
▁protinga	-11415
▁žmonijos	-11416
▁Pagrindin	-11417
▁vertinami	-11418
▁radioaktyv	-11419
▁susidūrėme	-11420
▁suderinimas	-11421
▁informacinės	-11422
40	-11423
LS	-11424
ido	-11425
pvz	-11426
▁45	-11427
ardo	-11428
ekst	-11429
▁joks	-11430
▁galia	-11431
▁ieško	-11432
▁knyga	-11433
▁puiku	-11434
▁saugo	-11435
▁sprog	-11436
▁tauta	-11437
tingumą	-11438
▁atgras	-11439
▁įranga	-11440
visiškai	-11441
▁bandome	-11442
▁fondais	-11443
▁tolesnį	-11444
▁vienodų	-11445
▁kalėjime	-11446
▁pabrėžiu	-11447
▁Amerikoje	-11448
▁gerbiamas	-11449
▁keleiviai	-11450
▁kalbėdamas	-11451
▁pasiryžimą	-11452
▁sektoriumi	-11453
▁stabilizavimo	-11454
ėtus	-11455
adien	-11456
imąsi	-11457
▁grob	-11458
▁jaut	-11459
ininko	-11460
▁vesti	-11461
▁žiūri	-11462
▁Martin	-11463
▁fondui	-11464
▁krizes	-11465
▁gerovei	-11466
▁girdėti	-11467
▁neaiški	-11468
▁vasaros	-11469
▁apimties	-11470
▁mažąsias	-11471
▁užduočių	-11472
▁Energijos	-11473
▁atliekami	-11474
▁dešimties	-11475
▁musulmonų	-11476
▁pakrantės	-11477
▁sukuriant	-11478
▁sąskaitas	-11479
▁veiksnius	-11480
▁solidarumu	-11481
▁įgyvendintų	-11482
▁galiojančius	-11483
▁patvirtinome	-11484
▁perspektyvas	-11485
▁svarbiausios	-11486
▁Rezoliucijoje	-11487
Pr	-11488
elę	-11489
ikų	-11490
vel	-11491
yste	-11492
▁Auk	-11493
▁bij	-11494
giame	-11495
▁Kito	-11496
▁šiur	-11497
▁švar	-11498
eliais	-11499
▁Romos	-11500
▁nebet	-11501
▁tarša	-11502
▁išeiti	-11503
▁procen	-11504
▁Londone	-11505
▁kaltinti	-11506
▁pasakius	-11507
▁rytojaus	-11508
▁taikomus	-11509
▁Sacharovo	-11510
▁išimtinai	-11511
▁rinkimams	-11512
▁subjektai	-11513
▁sulaikyti	-11514
▁Švedijoje	-11515
▁išspręstas	-11516
▁nustatomas	-11517
▁įvairiuose	-11518
▁Tarptautinis	-11519
▁elektroninės	-11520
4,	-11521
pav	-11522
ška	-11523
ytam	-11524
▁Jemen	-11525
▁Tiksl	-11526
▁atkur	-11527
▁besik	-11528
▁padėj	-11529
▁vizos	-11530
▁įtampą	-11531
▁laivams	-11532
▁lygmenį	-11533
▁išgyvena	-11534
▁išskirti	-11535
▁kokiomis	-11536
▁subsidij	-11537
▁dešiniųjų	-11538
▁išdėstyta	-11539
▁pasikliau	-11540
▁nedviprasm	-11541
▁parlamente	-11542
▁nagrinėjami	-11543
▁programomis	-11544
▁konfidencial	-11545
▁įsipareigoję	-11546
▁konservatoriai	-11547
▁administracines	-11548
adą	-11549
gra	-11550
mat	-11551
▁Taj	-11552
▁drą	-11553
▁gan	-11554
vakar	-11555
▁bomb	-11556
▁mažą	-11557
inamai	-11558
▁Armėn	-11559
▁Pasak	-11560
▁tomis	-11561
▁idėjai	-11562
▁Azijoje	-11563
▁Somalio	-11564
▁išbrauk	-11565
▁kontrab	-11566
▁saugios	-11567
▁kairieji	-11568
▁kuriamos	-11569
▁kylančių	-11570
▁primesti	-11571
▁milijardų	-11572
▁pakankamą	-11573
▁priešingu	-11574
▁asamblėjos	-11575
▁finansinis	-11576
▁pasidalyti	-11577
▁atnaujintas	-11578
▁IT	-11579
auta	-11580
erijos	-11581
kiamas	-11582
metyje	-11583
usiose	-11584
▁mainų	-11585
▁retai	-11586
▁teori	-11587
▁Inform	-11588
▁orlaiv	-11589
▁turtas	-11590
priemonė	-11591
čiausias	-11592
▁galimos	-11593
▁klaidos	-11594
▁optimis	-11595
▁pervers	-11596
▁pradžią	-11597
▁skatins	-11598
▁tęsiasi	-11599
▁emisijos	-11600
▁mažesnės	-11601
▁pasiųsti	-11602
▁planetos	-11603
▁vystytis	-11604
▁eurooblig	-11605
▁Bendrijoje	-11606
▁automobilius	-11607
▁ru	-11608
▁Jer	-11609
▁TDO	-11610
eivių	-11611
mėmis	-11612
nograf	-11613
▁akcen	-11614
▁darys	-11615
▁taika	-11616
▁niekam	-11617
▁saulės	-11618
▁įvaizd	-11619
▁agresyv	-11620
▁diagnoz	-11621
▁prižiūr	-11622
▁žinomas	-11623
▁ministru	-11624
▁tikėjimo	-11625
▁tvirtina	-11626
▁dirbantys	-11627
▁judėjimui	-11628
▁ketinimus	-11629
▁padidintų	-11630
▁svarstomi	-11631
▁užmokestį	-11632
▁importuoti	-11633
▁kaimyninių	-11634
▁nuomonėmis	-11635
▁daugiametės	-11636
▁ekonominiam	-11637
▁seksualinės	-11638
15	-11639
PO	-11640
EAC	-11641
ulis	-11642
▁11.	-11643
▁Mil	-11644
▁Neį	-11645
▁než	-11646
▁nut	-11647
▁vėjo	-11648
laikyti	-11649
▁atleid	-11650
▁iškart	-11651
▁minėti	-11652
▁nebaig	-11653
▁paktas	-11654
▁pakeiti	-11655
▁baigiasi	-11656
▁apibrėžta	-11657
▁atostogas	-11658
▁dalyvavau	-11659
▁geriausių	-11660
▁padarytos	-11661
▁gyvenantys	-11662
▁įtvirtinta	-11663
▁patikimumas	-11664
▁išsilavinimo	-11665
▁kompensavimo	-11666
▁globalizacija	-11667
▁nepriklausomi	-11668
▁tarptautiniai	-11669
cho	-11670
eam	-11671
iko	-11672
oll	-11673
▁95	-11674
▁EU	-11675
artotų	-11676
inantį	-11677
▁greitą	-11678
▁mergai	-11679
▁rimtos	-11680
▁šitaip	-11681
landijos	-11682
nacional	-11683
▁skaudži	-11684
▁sritimi	-11685
▁vyrauja	-11686
▁neveikia	-11687
▁sąžininga	-11688
▁Japonijoje	-11689
▁Reglamentą	-11690
▁džiaugiasi	-11691
▁privačiojo	-11692
▁suformuoti	-11693
▁absoliučiai	-11694
▁generalinio	-11695
▁bendruomenėms	-11696
▁Am	-11697
anos	-11698
▁Pam	-11699
▁nug	-11700
▁tal	-11701
▁porą	-11702
▁lėtai	-11703
▁uosto	-11704
ežastis	-11705
ytumėte	-11706
▁pajėgi	-11707
▁atvykst	-11708
▁didesni	-11709
▁geopoli	-11710
▁parodys	-11711
▁valanda	-11712
▁Balsuoti	-11713
▁atominės	-11714
▁kontrolė	-11715
▁leidimas	-11716
▁pavasarį	-11717
▁pertrauk	-11718
▁teisingi	-11719
▁tolimojo	-11720
▁valdymui	-11721
▁įvedimas	-11722
▁Centrinės	-11723
▁azartinių	-11724
▁identifik	-11725
▁kenksming	-11726
▁specialių	-11727
▁techninio	-11728
▁įvairioms	-11729
▁bendrojoje	-11730
▁pamatysime	-11731
▁tendencija	-11732
▁Konvencijos	-11733
▁Slovakijoje	-11734
▁technologija	-11735
▁dalyvaujančių	-11736
8/	-11737
SD	-11738
angų	-11739
▁krū	-11740
eriui	-11741
▁Lich	-11742
▁Abchaz	-11743
▁poniai	-11744
▁Airijai	-11745
▁pakanka	-11746
▁paskatų	-11747
▁veikiau	-11748
▁žmogžud	-11749
▁sutartys	-11750
▁trūkumai	-11751
▁veiksmas	-11752
▁bendroves	-11753
▁elementus	-11754
▁pasikeitė	-11755
▁pornograf	-11756
▁reakcijos	-11757
▁akcentuoti	-11758
▁pasaulinėje	-11759
▁pristatymas	-11760
▁statistinių	-11761
▁Juodkalnijos	-11762
▁pakomentuoti	-11763
▁reikalavimais	-11764
GP	-11765
OLV	-11766
ūne	-11767
▁gl	-11768
arus	-11769
▁Kaz	-11770
▁dub	-11771
OLVIT	-11772
alumo	-11773
eliai	-11774
imtys	-11775
▁Angl	-11776
▁šaud	-11777
▁bijau	-11778
alizmas	-11779
esniais	-11780
▁gydymą	-11781
▁krimin	-11782
▁lygias	-11783
▁būsimas	-11784
▁griežto	-11785
▁keliose	-11786
▁lobistų	-11787
▁neaišku	-11788
▁nedarbu	-11789
▁nepadės	-11790
▁saugiai	-11791
▁vertimo	-11792
▁didžiąją	-11793
▁laikysis	-11794
▁prisimen	-11795
▁ryžtingų	-11796
▁keitimąsi	-11797
▁netinkamo	-11798
▁pateiksiu	-11799
▁raginimas	-11800
▁apibūdinti	-11801
▁grindžiami	-11802
▁išlaidomis	-11803
▁kampanijas	-11804
▁remdamasis	-11805
▁Energetikos	-11806
▁nacionalinį	-11807
▁pertvarkyti	-11808
▁artimiausius	-11809
ff	-11810
▁55	-11811
▁Die	-11812
aidži	-11813
▁galą	-11814
▁ištis	-11815
▁jūrin	-11816
▁bankus	-11817
▁buvimo	-11818
▁tarnau	-11819
▁viršij	-11820
▁Lichten	-11821
▁nuošird	-11822
▁nuspręs	-11823
▁patinka	-11824
▁leidybos	-11825
▁pasaulin	-11826
▁biodegalų	-11827
▁sutariame	-11828
▁teigiamus	-11829
▁teisinius	-11830
▁transeurop	-11831
▁dirbantiems	-11832
▁pasinaudojo	-11833
▁susitikimus	-11834
▁trečiosioms	-11835
▁Šveicarijos	-11836
▁persekiojimo	-11837
egu	-11838
liej	-11839
esnei	-11840
▁trik	-11841
▁detal	-11842
▁įnašą	-11843
inančių	-11844
▁džiugu	-11845
▁nvieno	-11846
▁kolegės	-11847
▁kritika	-11848
▁režimui	-11849
▁taikomą	-11850
▁biudžetu	-11851
▁išsamios	-11852
▁argumentų	-11853
▁neapibrėž	-11854
▁nesilaiko	-11855
▁perkėlimą	-11856
▁sukuriama	-11857
▁sumažinta	-11858
▁terorizmą	-11859
▁įrenginių	-11860
▁argumentas	-11861
▁pavyzdžiai	-11862
▁prezidentą	-11863
▁turėtumėte	-11864
▁tarpvalstybinių	-11865
ON	-11866
osk	-11867
tikų	-11868
unku	-11869
▁tuš	-11870
ektro	-11871
▁išst	-11872
ingais	-11873
▁kilmę	-11874
▁suves	-11875
galvoti	-11876
▁suvaid	-11877
▁tiktai	-11878
▁Derybos	-11879
▁gyvybes	-11880
▁karinio	-11881
▁visiška	-11882
▁atsakyta	-11883
▁baigiant	-11884
▁esančius	-11885
▁parengtų	-11886
▁pasakiau	-11887
▁teigiami	-11888
▁Teigiamai	-11889
▁numatomas	-11890
▁atsakomybe	-11891
▁atsižvelgs	-11892
▁gamintojus	-11893
▁pateiktame	-11894
▁referentas	-11895
▁strateginis	-11896
▁susirūpinęs	-11897
▁pripažįstame	-11898
▁sveikintinas	-11899
▁tarptautinėms	-11900
3,	-11901
til	-11902
alap	-11903
▁mem	-11904
amame	-11905
▁kent	-11906
eitimi	-11907
▁pleči	-11908
▁prast	-11909
▁centrus	-11910
▁minėtos	-11911
▁neturiu	-11912
▁stiprią	-11913
▁asmeniui	-11914
▁atsirand	-11915
▁dalyviams	-11916
▁uždrausta	-11917
▁eksportuoj	-11918
▁ištekliams	-11919
▁nukreiptos	-11920
▁vadinamųjų	-11921
▁naudojamasi	-11922
▁didžiuojuosi	-11923
▁integracijai	-11924
▁sprendžiamos	-11925
▁gyvulininkystės	-11926
skir	-11927
▁Kov	-11928
▁Sen	-11929
▁Sil	-11930
▁kop	-11931
iniui	-11932
likai	-11933
partam	-11934
▁dujas	-11935
▁trejų	-11936
▁vizas	-11937
▁Pasiek	-11938
▁garbės	-11939
▁minėtą	-11940
▁žemiau	-11941
▁filosof	-11942
▁nesutik	-11943
▁spektro	-11944
▁sustipr	-11945
▁departam	-11946
▁išorinių	-11947
▁laisvėms	-11948
▁pagerins	-11949
▁skiriame	-11950
▁teisiniu	-11951
▁tvarkyti	-11952
▁atsakingo	-11953
▁galiojimo	-11954
▁minimalių	-11955
▁priimdami	-11956
▁sumažintų	-11957
▁sėkmingos	-11958
▁šaltiniai	-11959
▁branduolin	-11960
▁konsultuoj	-11961
▁nekontroli	-11962
▁padarysime	-11963
▁apsispręsti	-11964
▁demokratinį	-11965
▁dokumentuose	-11966
▁nusikaltimai	-11967
▁savanoriškai	-11968
▁technologinės	-11969
ante	-11970
ecial	-11971
orand	-11972
▁mili	-11973
vienas	-11974
čiuose	-11975
▁Obama	-11976
▁dvasi	-11977
ingomis	-11978
▁Tajani	-11979
▁kalend	-11980
▁palies	-11981
▁sinerg	-11982
▁stiprų	-11983
▁sumenk	-11984
ydamiesi	-11985
▁būtinus	-11986
▁pažvelg	-11987
▁Graikiją	-11988
▁esminiai	-11989
▁falsifik	-11990
▁padedama	-11991
▁vieninga	-11992
▁neteisėtą	-11993
▁specializ	-11994
▁paskatintų	-11995
▁atsikratyti	-11996
▁susiduriama	-11997
▁nepriklausomas	-11998
USP	-11999
ašta	-12000
elho	-12001
obod	-12002
plės	-12003
ąmon	-12004
▁užr	-12005
ribun	-12006
▁Mand	-12007
▁mažėj	-12008
▁plači	-12009
misijos	-12010
▁Coelho	-12011
▁byloja	-12012
▁esminį	-12013
▁gyvybę	-12014
▁punkto	-12015
▁sudėti	-12016
▁Haityje	-12017
▁Turkmėn	-12018
▁sunkvež	-12019
▁veikėjų	-12020
▁keičiasi	-12021
▁patekimo	-12022
▁techninę	-12023
▁atsakingų	-12024
▁atsargumo	-12025
▁didžiules	-12026
▁vertingas	-12027
▁švietimui	-12028
▁argumentus	-12029
▁imperialis	-12030
▁žmogiškųjų	-12031
▁sistemingai	-12032
▁susitarimams	-12033
▁įgyvendindami	-12034
05	-12035
eoti	-12036
▁Lam	-12037
▁durų	-12038
▁kvai	-12039
ardyti	-12040
prašau	-12041
▁Priim	-12042
▁fondu	-12043
▁lenkų	-12044
▁neper	-12045
▁spart	-12046
▁visok	-12047
esnėmis	-12048
uojanti	-12049
▁SOLVIT	-12050
▁kitame	-12051
▁komito	-12052
▁paslap	-12053
▁žuvies	-12054
▁suteiki	-12055
▁sąvokos	-12056
▁teikėjų	-12057
▁laikomės	-12058
▁turintis	-12059
▁tragedija	-12060
▁nuoseklumą	-12061
▁politinėms	-12062
▁savaitėmis	-12063
▁infliacijos	-12064
▁sprendimams	-12065
▁teisingumas	-12066
▁orientacijos	-12067
-2	-12068
uy	-12069
eiš	-12070
▁Bel	-12071
▁puse	-12072
eriems	-12073
▁užsid	-12074
▁Nustat	-12075
▁nekyla	-12076
▁įvyktų	-12077
▁Naujoji	-12078
▁avarijų	-12079
▁baigsis	-12080
▁drąsiai	-12081
▁sąveiką	-12082
▁Eurostat	-12083
▁Pateikti	-12084
▁planuoti	-12085
▁supratau	-12086
▁teikimas	-12087
▁ilgainiui	-12088
▁pakeitime	-12089
▁pavojingi	-12090
▁atsispindi	-12091
▁naujosiose	-12092
▁prieinamos	-12093
▁sąžiningos	-12094
▁Bendradarbi	-12095
▁atgaivinimo	-12096
▁atnaujinimo	-12097
▁prezidentui	-12098
▁prieglobstį	-12099
arai	-12100
chto	-12101
▁plo	-12102
▁tra	-12103
▁šūk	-12104
tasis	-12105
žiūrai	-12106
▁sekti	-12107
▁teisi	-12108
▁gynimo	-12109
▁prigim	-12110
▁nežinau	-12111
▁pakeiči	-12112
▁stiprus	-12113
▁tiekėjų	-12114
▁gabenimo	-12115
▁pasisteng	-12116
▁vykusiame	-12117
▁energetinį	-12118
▁panaikinta	-12119
▁žurnalistų	-12120
▁narkotikais	-12121
▁susitaikyti	-12122
▁Nepamirškime	-12123
▁užsitikrinti	-12124
▁perspektyvoje	-12125
ay	-12126
gil	-12127
coni	-12128
titu	-12129
zmas	-12130
įsti	-12131
▁250	-12132
▁Pet	-12133
▁pil	-12134
▁rus	-12135
▁suj	-12136
inote	-12137
ykimo	-12138
▁poil	-12139
atinės	-12140
▁kiltų	-12141
▁pasiž	-12142
▁atspar	-12143
▁vertas	-12144
▁aptarin	-12145
▁keitimo	-12146
▁klestin	-12147
▁Prekybos	-12148
▁aljansas	-12149
▁lemiamas	-12150
▁nedeklar	-12151
▁prelimin	-12152
▁tariamai	-12153
▁vaidinti	-12154
▁žymėjimo	-12155
▁tinklalap	-12156
▁įvairovei	-12157
▁demokratin	-12158
▁didėjančio	-12159
▁klausiausi	-12160
▁tūkstančius	-12161
▁užtikrintos	-12162
▁Portugalijai	-12163
▁abipusiškumo	-12164
bio	-12165
pos	-12166
SEAN	-12167
▁Jaun	-12168
▁Pati	-12169
▁drab	-12170
▁kosm	-12171
▁read	-12172
▁didės	-12173
▁drąsi	-12174
▁išves	-12175
▁tušči	-12176
▁minutę	-12177
▁paketu	-12178
▁pavirš	-12179
▁sunkią	-12180
▁Bendras	-12181
▁Bendros	-12182
▁džiaugs	-12183
▁jaunimą	-12184
▁nelieči	-12185
▁Bendrijų	-12186
▁puoselėj	-12187
▁stereoti	-12188
▁stiprina	-12189
▁tautybės	-12190
▁Tikėkimės	-12191
▁pilietinę	-12192
▁klastojimu	-12193
▁milžinišką	-12194
▁mokėtojams	-12195
▁finansavimu	-12196
▁išlaisvinti	-12197
▁pasikliauti	-12198
tes	-12199
šių	-12200
onai	-12201
ukuš	-12202
▁Dal	-12203
▁bro	-12204
▁nur	-12205
▁roj	-12206
ėmimo	-12207
eisime	-12208
eistos	-12209
ėtojas	-12210
▁Visuo	-12211
partner	-12212
▁būdami	-12213
▁parems	-12214
▁realių	-12215
▁Antrojo	-12216
▁kainoms	-12217
▁kartoju	-12218
▁kartoms	-12219
▁kokybei	-12220
▁susidur	-12221
▁sutarta	-12222
▁tinklai	-12223
▁lūkesčių	-12224
▁nubausti	-12225
▁numatytą	-12226
▁skleisti	-12227
▁aptariami	-12228
▁ekologišk	-12229
▁kampanija	-12230
▁balsuojame	-12231
▁dujotiekio	-12232
▁imigrantai	-12233
▁konfliktai	-12234
▁visokeriop	-12235
▁nepageidauj	-12236
▁pareikalavo	-12237
vą	-12238
įs	-12239
das	-12240
ėli	-12241
anai	-12242
▁koj	-12243
giais	-12244
▁arch	-12245
odamos	-12246
tacija	-12247
▁liktų	-12248
▁rūmai	-12249
▁valia	-12250
▁žlugo	-12251
antieji	-12252
▁jaučiu	-12253
▁vakarų	-12254
▁Tailand	-12255
▁minučių	-12256
▁procesu	-12257
▁funkciją	-12258
▁nepalaik	-12259
▁rinkinys	-12260
▁specialų	-12261
▁viduryje	-12262
▁neapsirib	-12263
▁pavyzdžius	-12264
▁stiprinimą	-12265
▁uždaviniai	-12266
▁vykstančių	-12267
▁savanoriškos	-12268
▁Ug	-12269
atės	-12270
toją	-12271
▁van	-12272
▁byla	-12273
▁maiš	-12274
▁ginčy	-12275
▁pasig	-12276
▁būdavo	-12277
▁realią	-12278
▁skubos	-12279
▁sąlygą	-12280
▁Kinijai	-12281
▁apimtis	-12282
▁daugybe	-12283
▁naująjį	-12284
▁paveiks	-12285
▁tikroms	-12286
▁valiutą	-12287
▁nukenčia	-12288
▁pirmieji	-12289
▁Ministras	-12290
▁nuoseklią	-12291
▁pageidauj	-12292
▁trumpalai	-12293
▁iškastinio	-12294
▁pateiksime	-12295
▁Reglamentas	-12296
▁socialistai	-12297
▁vyriausiojo	-12298
▁įgyvendinus	-12299
▁referendumas	-12300
▁Nyderlanduose	-12301
MV	-12302
pų	-12303
plė	-12304
▁Ol	-12305
iskut	-12306
▁Pats	-12307
▁Rytoj	-12308
▁koali	-12309
▁Laikas	-12310
▁dalyku	-12311
▁išpuol	-12312
▁nelaik	-12313
▁teisūs	-12314
aliosios	-12315
amuosius	-12316
▁Eurojus	-12317
▁griežti	-12318
▁vaidina	-12319
▁širdies	-12320
▁brangiai	-12321
▁dirvožem	-12322
▁išraiška	-12323
▁kortelės	-12324
▁įvertino	-12325
▁Agentūros	-12326
▁Smulkiojo	-12327
▁gerinimas	-12328
▁kiekvienu	-12329
▁parengtos	-12330
▁protokola	-12331
▁visuomenė	-12332
▁balsuodami	-12333
▁finansuojama	-12334
▁strategiškai	-12335
▁žiniasklaidoje	-12336
▁žū	-12337
šiuo	-12338
▁Bur	-12339
▁Gad	-12340
▁Hag	-12341
▁III	-12342
▁Kamp	-12343
▁Tiek	-12344
▁gėda	-12345
▁paci	-12346
atorių	-12347
inanti	-12348
▁Dalai	-12349
▁Netgi	-12350
▁akvak	-12351
▁centrą	-12352
▁gavome	-12353
▁sutruk	-12354
▁žinotų	-12355
▁Moterys	-12356
▁dirbome	-12357
▁etninės	-12358
▁siūlomų	-12359
▁sunkios	-12360
▁didžiąja	-12361
▁kreipėsi	-12362
▁pensijos	-12363
▁prekėmis	-12364
▁skiriami	-12365
▁sritimis	-12366
▁stengėsi	-12367
▁sumažins	-12368
▁Rumunijai	-12369
▁darbdavių	-12370
▁palinkėti	-12371
▁inicijuoti	-12372
▁subjektams	-12373
▁susitarėme	-12374
▁terorizmas	-12375
▁kompensacijos	-12376
1,	-12377
cu	-12378
ve	-12379
▁Ak	-12380
rimą	-12381
▁Ten	-12382
rikai	-12383
ysčių	-12384
▁(142	-12385
▁lent	-12386
▁valg	-12387
inkriz	-12388
uodant	-12389
▁gavau	-12390
▁pavid	-12391
▁antraš	-12392
▁klasės	-12393
▁pateko	-12394
▁teiktų	-12395
▁Savaime	-12396
▁minutes	-12397
▁tiesiai	-12398
▁vykdytų	-12399
▁Raginame	-12400
▁atrankos	-12401
▁daržovių	-12402
▁išsiaišk	-12403
▁neišsprę	-12404
▁pasitarn	-12405
▁peticijų	-12406
▁policija	-12407
▁savitarp	-12408
▁sėkmingą	-12409
▁įmonėmis	-12410
▁Gerbiamas	-12411
▁privalomo	-12412
▁sunkvežim	-12413
▁traukinių	-12414
▁įvairiaus	-12415
▁apsiriboti	-12416
▁partnerius	-12417
▁techninius	-12418
▁naudojimosi	-12419
▁neleidžiama	-12420
▁objektyviai	-12421
▁Svarbiausias	-12422
▁organizaciją	-12423
ou	-12424
eko	-12425
sch	-12426
▁UN	-12427
arių	-12428
▁pel	-12429
sliai	-12430
▁EIVT	-12431
▁Frat	-12432
▁klub	-12433
▁solid	-12434
tuosius	-12435
▁dvasią	-12436
▁kolegą	-12437
▁garsiai	-12438
▁pakelti	-12439
▁stebina	-12440
▁įsiskol	-12441
▁bendroje	-12442
▁pasirenk	-12443
▁praranda	-12444
▁biudžetus	-12445
▁žingsniai	-12446
▁Makedonija	-12447
▁destabiliz	-12448
▁komercinės	-12449
▁nekantriai	-12450
▁nesuprantu	-12451
▁pripažįstu	-12452
▁pritraukti	-12453
▁privalomos	-12454
▁sąžiningas	-12455
▁diskusijomis	-12456
60	-12457
pal	-12458
ykš	-12459
▁kv	-12460
uman	-12461
▁Kuo	-12462
enama	-12463
▁kint	-12464
▁namo	-12465
torius	-12466
▁Esama	-12467
▁bloga	-12468
▁paini	-12469
▁patal	-12470
▁skerd	-12471
▁tikim	-12472
▁įstoj	-12473
▁Beveik	-12474
▁aktams	-12475
▁bausme	-12476
▁nesiim	-12477
▁pasiun	-12478
▁priėms	-12479
▁sukurs	-12480
▁žiauri	-12481
▁žvejai	-12482
▁federal	-12483
▁išliktų	-12484
▁leidėjų	-12485
▁minimas	-12486
▁prekėms	-12487
▁formuoti	-12488
▁memorand	-12489
▁pagrįstų	-12490
▁pažangai	-12491
▁reikmėms	-12492
▁tiekimas	-12493
▁varomoji	-12494
▁centrinis	-12495
▁reiškinio	-12496
▁Ekonominės	-12497
▁tragedijos	-12498
▁įsigaliojo	-12499
▁perskaityti	-12500
▁socialinėje	-12501
ly	-12502
los	-12503
suk	-12504
kiep	-12505
ytuv	-12506
ėjui	-12507
▁gir	-12508
-2010	-12509
▁nenu	-12510
amuose	-12511
veikla	-12512
▁eilės	-12513
▁Laimei	-12514
▁Pabaig	-12515
▁autorė	-12516
▁paliko	-12517
▁streik	-12518
▁žodinį	-12519
▁dėkingi	-12520
▁išmokti	-12521
▁kodeksą	-12522
▁neįpras	-12523
▁pervirš	-12524
▁pirmąją	-12525
▁srautus	-12526
▁sumetim	-12527
▁sunaudoj	-12528
▁Lietuvoje	-12529
▁kandidatų	-12530
▁kapitalis	-12531
▁migraciją	-12532
▁nebuvimas	-12533
▁opozicija	-12534
▁prašytojų	-12535
▁teisėtumą	-12536
▁vartotojo	-12537
▁komunikato	-12538
▁pirmadienį	-12539
▁sklandžiai	-12540
▁susidaryti	-12541
▁tendencijas	-12542
▁liberalizuoti	-12543
▁prioritetinių	-12544
▁struktūrinius	-12545
Tai	-12546
ryt	-12547
arag	-12548
ation	-12549
rumas	-12550
▁Skir	-12551
▁atsim	-12552
▁tebes	-12553
▁Svarst	-12554
▁nviena	-12555
▁period	-12556
▁vyrauj	-12557
▁Būdamas	-12558
▁gyvybei	-12559
▁pabaigą	-12560
▁ribotas	-12561
▁vaistai	-12562
audamiesi	-12563
▁Bendrija	-12564
▁išsiųsti	-12565
▁komitetu	-12566
▁nuolatos	-12567
▁pažadėjo	-12568
▁Patvirtin	-12569
▁agentūras	-12570
▁keliantis	-12571
▁pakviesti	-12572
▁privatumą	-12573
▁Pirmininką	-12574
▁kandidatės	-12575
▁pademonstr	-12576
▁Direktyvoje	-12577
▁įtvirtintas	-12578
▁finansuojamos	-12579
▁tarptautinėmis	-12580
sut	-12581
berg	-12582
urod	-12583
varž	-12584
▁Cap	-12585
▁Var	-12586
egali	-12587
rinkti	-12588
uriant	-12589
▁Fukuš	-12590
▁salos	-12591
▁slaug	-12592
Erasmus	-12593
▁Kallas	-12594
▁nedaro	-12595
▁nuošal	-12596
uojantis	-12597
▁centrai	-12598
▁metinių	-12599
▁nuosavų	-12600
▁regionu	-12601
▁sutampa	-12602
▁atvirumo	-12603
▁didesniu	-12604
▁tėvystės	-12605
▁vienybės	-12606
▁Islandija	-12607
▁Slovakija	-12608
▁antrosios	-12609
▁glaudžiau	-12610
▁pagaminti	-12611
▁partnerės	-12612
▁priemonei	-12613
▁susidūrsu	-12614
▁komentarus	-12615
▁padidėjusi	-12616
▁pageidauja	-12617
▁pagrindine	-12618
▁readmisijos	-12619
▁darbuotojais	-12620
▁protekcionis	-12621
▁organizacijoje	-12622
▁5.	-12623
dymą	-12624
kart	-12625
skio	-12626
ypač	-12627
▁Mit	-12628
▁Rob	-12629
▁USD	-12630
▁Vas	-12631
▁cha	-12632
inaud	-12633
naudo	-12634
rinės	-12635
verči	-12636
▁prab	-12637
▁recep	-12638
▁šeimą	-12639
ausioms	-12640
chnolog	-12641
▁bausmė	-12642
▁tikėti	-12643
▁Suprant	-12644
▁esminės	-12645
▁sutvark	-12646
▁leidėjai	-12647
▁patikėti	-12648
▁sumažino	-12649
▁neatskiri	-12650
▁patikimas	-12651
▁pokyčiams	-12652
▁tinkamumo	-12653
▁įsteigtas	-12654
▁Sprendimas	-12655
▁prezidentu	-12656
▁strateginį	-12657
▁nestabilumo	-12658
▁užtikrinimą	-12659
▁kolektyvinių	-12660
▁kompensaciją	-12661
jor	-12662
▁Do	-12663
asak	-12664
avęs	-12665
dafi	-12666
erai	-12667
tarų	-12668
▁EFD	-12669
▁fik	-12670
▁higi	-12671
▁grieb	-12672
▁romai	-12673
▁skolą	-12674
▁būdama	-12675
▁didelė	-12676
▁laišką	-12677
▁sąvoką	-12678
▁temper	-12679
▁šeimai	-12680
▁žvelgti	-12681
▁Anksčiau	-12682
▁Belgijoje	-12683
▁išgyventi	-12684
▁neturting	-12685
▁testavimo	-12686
▁antradienį	-12687
▁asociacijų	-12688
▁atstovauju	-12689
▁daugiakalb	-12690
▁frakcijoje	-12691
▁koncepciją	-12692
▁vartotojas	-12693
▁viešuosius	-12694
▁panaikintas	-12695
▁suprantamas	-12696
▁pagrindiniams	-12697
RI	-12698
udo	-12699
yne	-12700
zia	-12701
ėju	-12702
šią	-12703
▁34	-12704
▁ag	-12705
▁šok	-12706
amped	-12707
ytoms	-12708
▁Koks	-12709
▁lems	-12710
▁nepl	-12711
▁Špid	-12712
▁žvejams	-12713
▁Tokiomis	-12714
▁būdingas	-12715
▁išeities	-12716
▁liberalų	-12717
▁partijai	-12718
▁sparčiau	-12719
▁tolesnis	-12720
▁Daugelyje	-12721
▁Kiekviena	-12722
▁Valstijas	-12723
▁galimybei	-12724
▁pakankama	-12725
▁pavadinimo	-12726
▁tarptautine	-12727
▁iniciatyvoms	-12728
▁pasidalijimo	-12729
ni	-12730
▁600	-12731
▁Bor	-12732
eikės	-12733
▁nusk	-12734
alinės	-12735
▁Lukaš	-12736
▁įžang	-12737
▁byloje	-12738
▁kertin	-12739
▁skurde	-12740
▁įvykus	-12741
▁Gaddafi	-12742
▁Sovietų	-12743
▁būsimus	-12744
▁gavybos	-12745
▁lėktuvų	-12746
▁aktualus	-12747
▁padvigub	-12748
▁nurodytos	-12749
▁priežiūrai	-12750
▁protokolas	-12751
▁atstovavimo	-12752
▁prieinamumą	-12753
▁operatoriams	-12754
▁strateginius	-12755
▁įgaliojimais	-12756
▁komitologijos	-12757
▁nacionaliniais	-12758
▁pi	-12759
▁Bai	-12760
▁Har	-12761
▁rom	-12762
imoje	-12763
▁Gali	-12764
▁Pasir	-12765
▁augti	-12766
▁biodu	-12767
▁brand	-12768
▁žengi	-12769
eigiant	-12770
valdyti	-12771
▁Stream	-12772
▁mačiau	-12773
▁nevirš	-12774
▁provok	-12775
▁vaizdą	-12776
▁įspėti	-12777
▁galvoju	-12778
▁nedarbą	-12779
▁bendrija	-12780
▁išsamaus	-12781
▁pinigais	-12782
▁Ispanijai	-12783
▁administr	-12784
▁bendrauti	-12785
▁energijai	-12786
▁nepaisoma	-12787
▁prilygsta	-12788
▁protingas	-12789
▁regioninę	-12790
▁surengtas	-12791
▁suvienyti	-12792
▁veikianti	-12793
▁išbandymas	-12794
▁lankstumas	-12795
▁nedelsdami	-12796
▁pasaulinis	-12797
▁visuotinis	-12798
▁atžvilgiais	-12799
▁dabartinėmis	-12800
▁persvarstymą	-12801
fe	-12802
th	-12803
ilio	-12804
▁bur	-12805
▁sod	-12806
oskep	-12807
▁Tais	-12808
▁adek	-12809
▁dras	-12810
džiais	-12811
▁akmen	-12812
▁pasiū	-12813
▁teism	-12814
▁vėlai	-12815
avusios	-12816
tarieji	-12817
ėjimais	-12818
▁Lamped	-12819
▁blogas	-12820
▁kokybė	-12821
▁liūdna	-12822
▁momentu	-12823
▁pačiame	-12824
▁Protokol	-12825
▁atliekas	-12826
▁kalinius	-12827
▁nelygybę	-12828
▁padėtume	-12829
▁sąžining	-12830
▁Praėjusią	-12831
▁pastarąjį	-12832
▁profesinį	-12833
▁rinkėjams	-12834
▁fiskalinės	-12835
▁nuolatinių	-12836
▁atskleidžia	-12837
▁pagreitinti	-12838
▁besąlygiškai	-12839
▁nepilnamečių	-12840
9,	-12841
▁33	-12842
avos	-12843
ikal	-12844
kredi	-12845
tiško	-12846
zijos	-12847
▁Penk	-12848
▁Vykd	-12849
▁apmą	-12850
elieka	-12851
ytojas	-12852
▁britų	-12853
▁tirti	-12854
▁įrank	-12855
tarptau	-12856
▁Barrot	-12857
▁pažadų	-12858
▁sakote	-12859
eidžiami	-12860
▁bausmių	-12861
▁keliami	-12862
▁paremta	-12863
▁siunčia	-12864
▁suvokia	-12865
▁Persijos	-12866
▁kitokios	-12867
▁nuosmukį	-12868
▁paskolos	-12869
▁prostitu	-12870
▁Škotijos	-12871
▁Naujosios	-12872
▁tikėkimės	-12873
▁praėjusius	-12874
▁taisyklėms	-12875
▁vadinamąjį	-12876
▁navigacijos	-12877
▁socialiniams	-12878
▁subalansuotą	-12879
▁sugriežtinti	-12880
▁apsisprendimo	-12881
▁infrastruktūrai	-12882
LV	-12883
mir	-12884
ąžų	-12885
▁Gyv	-12886
▁Sek	-12887
▁įgy	-12888
otume	-12889
urėtų	-12890
▁fraz	-12891
▁sver	-12892
aminti	-12893
ekijai	-12894
▁Pirmą	-12895
▁advok	-12896
▁miško	-12897
▁rumun	-12898
▁vyrus	-12899
▁vėžiu	-12900
▁įžval	-12901
▁žvalg	-12902
▁domina	-12903
▁gavėjų	-12904
▁nežmon	-12905
▁saugai	-12906
▁tausoj	-12907
▁Regionų	-12908
▁ribotos	-12909
▁valiutų	-12910
▁apsisaug	-12911
▁laisvojo	-12912
▁poveikiu	-12913
▁nepanaudo	-12914
▁panaudota	-12915
▁reikiamas	-12916
▁ypatingos	-12917
▁atsigavimo	-12918
▁milijardus	-12919
▁nutrauktas	-12920
▁specialios	-12921
▁eksportuoti	-12922
▁intensyviai	-12923
▁įgaliotinio	-12924
▁dešimtmetyje	-12925
7,	-12926
prad	-12927
▁fac	-12928
dymas	-12929
▁Aukš	-12930
▁akių	-12931
▁balsą	-12932
▁korek	-12933
▁pamėg	-12934
▁Mugabe	-12935
▁mėnesi	-12936
▁nestab	-12937
▁pavard	-12938
▁šimtus	-12939
▁entuzia	-12940
▁kosmoso	-12941
▁procesai	-12942
▁tikrovės	-12943
▁valdžiai	-12944
▁vokiečių	-12945
▁žuvinink	-12946
▁balsavime	-12947
▁garantija	-12948
▁tarnyboms	-12949
▁kompromisų	-12950
▁kultūrinių	-12951
▁vieningųjų	-12952
▁verslininkams	-12953
▁investuotojams	-12954
▁nacionaliniams	-12955
▁apgailestaujame	-12956
aiv	-12957
ūnų	-12958
▁38	-12959
moje	-12960
ybas	-12961
▁Coh	-12962
▁Nel	-12963
▁Niu	-12964
ymusi	-12965
▁AIDS	-12966
▁Almun	-12967
▁impul	-12968
▁linkę	-12969
▁preki	-12970
▁Šiose	-12971
▁panaši	-12972
▁Ukrainą	-12973
▁atskirą	-12974
▁laimėti	-12975
▁lygiaver	-12976
▁suklasto	-12977
▁įtrauktų	-12978
▁konsultav	-12979
▁plėtojimo	-12980
▁užtikrino	-12981
▁atlyginimą	-12982
▁procedūrin	-12983
▁atsisakymas	-12984
▁pavadinimas	-12985
▁subalansuotas	-12986
▁žyd	-12987
social	-12988
▁faktų	-12989
▁neber	-12990
▁apgaul	-12991
▁ginant	-12992
▁išaugs	-12993
▁laivus	-12994
▁neįman	-12995
▁sunkiu	-12996
▁cituoju	-12997
▁imantis	-12998
▁pačioms	-12999
▁žaliųjų	-13000
▁gyvūnais	-13001
▁išbristi	-13002
▁karjeros	-13003
▁klimatui	-13004
▁rinkinio	-13005
alizacijos	-13006
▁agentūrai	-13007
▁bendrajai	-13008
▁laimėjimų	-13009
▁netinkama	-13010
▁privačios	-13011
▁puoselėti	-13012
▁laikymasis	-13013
▁pateikiamą	-13014
▁propaguoti	-13015
▁veikiančią	-13016
▁generalinis	-13017
▁mobilizuoti	-13018
gin	-13019
vez	-13020
dirb	-13021
enkl	-13022
▁Joh	-13023
▁til	-13024
umams	-13025
uotuv	-13026
inėsiu	-13027
▁human	-13028
▁kurdų	-13029
▁Viskas	-13030
▁kovojo	-13031
▁uostus	-13032
▁Nežinau	-13033
▁jaustis	-13034
▁kilomet	-13035
▁nereikš	-13036
▁paisoma	-13037
▁panašūs	-13038
▁tvariai	-13039
▁vandenį	-13040
▁drausmės	-13041
▁tikrasis	-13042
▁ketverius	-13043
▁lengvatas	-13044
▁nusprendė	-13045
▁nustatymą	-13046
▁privalomų	-13047
▁energetiką	-13048
▁frakcijoms	-13049
▁vadinamojo	-13050
▁įstatymais	-13051
▁ekonominiais	-13052
▁nusikaltėlių	-13053
▁revoliucijos	-13054
▁sertifikavimo	-13055
▁nepriklausomumą	-13056
BP	-13057
MS	-13058
neb	-13059
šką	-13060
▁BLS	-13061
▁Bah	-13062
alizmą	-13063
▁ASEAN	-13064
ausiais	-13065
▁Visada	-13066
▁bausti	-13067
▁buvote	-13068
▁darant	-13069
▁rimtus	-13070
▁tęstin	-13071
▁Amerika	-13072
▁orderio	-13073
▁realios	-13074
▁spragas	-13075
▁turimus	-13076
▁keturios	-13077
▁vykdymas	-13078
▁Švedijai	-13079
▁Faktiškai	-13080
▁strategin	-13081
▁atkreiptas	-13082
▁nuoseklios	-13083
▁specialiai	-13084
▁darbdaviams	-13085
▁Hercegovinos	-13086
▁Konstitucinių	-13087
tte	-13088
šte	-13089
▁it	-13090
etės	-13091
šios	-13092
▁aik	-13093
ernob	-13094
▁Atsi	-13095
▁dosn	-13096
▁laid	-13097
umuose	-13098
▁Ketin	-13099
▁demen	-13100
▁etapu	-13101
endrind	-13102
trichto	-13103
▁Vėliau	-13104
▁jausmą	-13105
▁Kankūne	-13106
▁Nepriim	-13107
▁abejoti	-13108
▁futbolo	-13109
▁griežta	-13110
▁klausiu	-13111
▁laivyno	-13112
▁naujoje	-13113
▁sąžinės	-13114
▁tarifus	-13115
▁Ženevos	-13116
▁Europolo	-13117
▁Indijoje	-13118
▁Serbijai	-13119
▁abejones	-13120
▁auginimo	-13121
▁darysime	-13122
▁nepastov	-13123
▁įsteigta	-13124
▁parduotuv	-13125
▁raginimui	-13126
▁specialią	-13127
▁suderintų	-13128
▁Pritariame	-13129
▁integruota	-13130
▁valstybinių	-13131
▁demokratinius	-13132
▁liberalizavimą	-13133
vų	-13134
for	-13135
omp	-13136
▁se	-13137
▁ur	-13138
beti	-13139
keli	-13140
ukti	-13141
▁Lap	-13142
▁Sta	-13143
▁užb	-13144
▁Joki	-13145
▁Prah	-13146
▁akci	-13147
▁avia	-13148
▁dera	-13149
▁mais	-13150
▁suim	-13151
▁visu	-13152
galėtų	-13153
uoment	-13154
▁Islam	-13155
▁stygi	-13156
▁Asambl	-13157
▁įtarim	-13158
versifik	-13159
▁nelengv	-13160
▁tikrovę	-13161
atsakomyb	-13162
▁Frattini	-13163
▁Norėdami	-13164
▁Vadinasi	-13165
▁atidžiau	-13166
▁aukštojo	-13167
▁didelėms	-13168
▁teigiamo	-13169
▁asmeninių	-13170
▁imunitetą	-13171
▁instrumen	-13172
▁moterimis	-13173
▁nustatyto	-13174
▁pranašumą	-13175
▁sandorius	-13176
▁taikinimo	-13177
▁toleruoti	-13178
▁internetas	-13179
▁kategoriją	-13180
▁subsidijos	-13181
▁bendruomenes	-13182
agr	-13183
ons	-13184
reev	-13185
terp	-13186
▁Būs	-13187
▁Del	-13188
▁Jose	-13189
▁Vieš	-13190
▁ilgų	-13191
▁nusp	-13192
iančių	-13193
▁apeli	-13194
▁pažab	-13195
▁virus	-13196
▁likimo	-13197
▁mažuma	-13198
▁spektr	-13199
▁ilguoju	-13200
▁niekaip	-13201
▁papildo	-13202
▁prarand	-13203
▁esminius	-13204
▁jaučiasi	-13205
▁pasibais	-13206
▁pataisos	-13207
▁remiamos	-13208
▁valdybos	-13209
▁nuolatinę	-13210
▁pasitaiko	-13211
▁privalomi	-13212
▁užregistr	-13213
▁didžiausio	-13214
▁nesutarimų	-13215
▁pasiekimas	-13216
▁pateiktais	-13217
▁ratifikavo	-13218
▁augintojams	-13219
▁bendruomenę	-13220
▁pabėgėliams	-13221
▁politinėmis	-13222
▁tendencijos	-13223
▁patikrinimus	-13224
▁vienašališkai	-13225
2/	-13226
AO	-13227
ūro	-13228
▁3,	-13229
▁120	-13230
▁Kat	-13231
▁Lin	-13232
▁vėž	-13233
kiria	-13234
▁sąsa	-13235
▁Galim	-13236
tariama	-13237
▁Pirmas	-13238
▁aplank	-13239
▁baimės	-13240
▁išnaik	-13241
▁misijų	-13242
▁pagrob	-13243
▁perved	-13244
▁peržiū	-13245
▁tibeti	-13246
▁maistas	-13247
▁nekelia	-13248
▁pobūdis	-13249
▁ramsčių	-13250
▁reagavo	-13251
▁užsitęs	-13252
▁veterin	-13253
▁vykusio	-13254
▁vykusių	-13255
▁esančias	-13256
▁leidimus	-13257
▁paraiškų	-13258
▁paskelbė	-13259
▁įsiklaus	-13260
▁finansine	-13261
▁paminėtas	-13262
▁patraukti	-13263
▁priimsime	-13264
▁tolesnius	-13265
▁apygardoje	-13266
▁paskutinės	-13267
▁didėjančios	-13268
▁nepasieksime	-13269
akis	-13270
akte	-13271
kuri	-13272
vert	-13273
▁Bat	-13274
anden	-13275
cinio	-13276
▁niok	-13277
liškai	-13278
▁ryžtą	-13279
▁sezon	-13280
eidimas	-13281
▁amžius	-13282
▁netoli	-13283
▁panašu	-13284
▁pietus	-13285
▁sveiką	-13286
▁McCreev	-13287
▁prekiau	-13288
▁Didžiojo	-13289
▁atidėtas	-13290
▁dviprasm	-13291
▁gaminiai	-13292
▁partijas	-13293
▁prancūzų	-13294
▁įspėjimo	-13295
▁dokumentu	-13296
▁instituto	-13297
▁neteisėtų	-13298
▁pritarėme	-13299
▁stichinių	-13300
▁diskusijai	-13301
▁diversifik	-13302
▁laimėjimas	-13303
▁paminėjote	-13304
▁Šveicarija	-13305
▁valstybinės	-13306
▁atnaujinimas	-13307
▁vyriausiasis	-13308
eikv	-13309
jaus	-13310
▁lau	-13311
▁tyr	-13312
▁brut	-13313
▁juok	-13314
▁mažo	-13315
damosi	-13316
▁Gyven	-13317
▁persi	-13318
▁rūpin	-13319
gyventi	-13320
▁Kolumb	-13321
▁Niujor	-13322
▁greito	-13323
▁mobili	-13324
▁pusėms	-13325
▁Birmoje	-13326
▁antroji	-13327
▁išeitis	-13328
▁pažadus	-13329
▁stebime	-13330
▁Lampedūz	-13331
▁Siekdama	-13332
▁abiejose	-13333
▁asmeninį	-13334
▁bedarbių	-13335
▁euroskep	-13336
▁kovojama	-13337
▁susitelk	-13338
▁ypatinga	-13339
▁grandinės	-13340
▁nagrinėja	-13341
▁nesusipra	-13342
▁pagerintų	-13343
▁respublik	-13344
▁sutartyse	-13345
▁direktyvai	-13346
▁pasinaudos	-13347
▁sanglaudai	-13348
▁turintiems	-13349
▁inovacijoms	-13350
▁humanitarinių	-13351
▁reglamentuoti	-13352
6/	-13353
-00	-13354
▁36	-13355
▁6.	-13356
lama	-13357
ukus	-13358
▁opi	-13359
▁bylą	-13360
▁serb	-13361
▁kilęs	-13362
▁verti	-13363
▁artėja	-13364
▁baudos	-13365
▁galimi	-13366
▁ginčij	-13367
▁metodu	-13368
▁penkio	-13369
▁sureag	-13370
▁tribun	-13371
▁zonose	-13372
ankiausi	-13373
▁mažumas	-13374
▁privert	-13375
▁reklama	-13376
▁statuto	-13377
▁atliekos	-13378
▁komisija	-13379
▁pranešta	-13380
▁palaikant	-13381
▁patraukli	-13382
▁platinimo	-13383
▁prekiauti	-13384
▁sudarymas	-13385
▁taikydami	-13386
▁tradicijų	-13387
▁absurdiška	-13388
▁rinkodaros	-13389
▁tiesioginę	-13390
▁integruotis	-13391
▁susijusiomis	-13392
▁susitvarkyti	-13393
ala	-13394
aizd	-13395
stis	-13396
▁apl	-13397
iblio	-13398
iškam	-13399
parod	-13400
▁lang	-13401
▁Harbo	-13402
▁dešin	-13403
▁jauti	-13404
ezultat	-13405
integra	-13406
▁plačių	-13407
▁Estijos	-13408
▁minties	-13409
▁nuorodų	-13410
▁popieri	-13411
▁sunkias	-13412
▁bandymai	-13413
▁perskait	-13414
▁tapatybę	-13415
▁išpuoliai	-13416
▁nusiginkl	-13417
▁padarinys	-13418
▁pradėsime	-13419
▁tvirtinti	-13420
▁atokiausių	-13421
▁nuolatinės	-13422
▁nuostatoms	-13423
▁rengiantis	-13424
▁užmokestis	-13425
▁dabartiniai	-13426
▁išsaugojimą	-13427
▁plenarinėje	-13428
▁biurokratiją	-13429
▁ūkininkavimo	-13430
▁Te	-13431
tonu	-13432
▁700	-13433
▁Gau	-13434
▁ges	-13435
dešim	-13436
▁buve	-13437
▁Garri	-13438
▁apsik	-13439
▁facto	-13440
▁gydyti	-13441
▁režimų	-13442
▁siekių	-13443
frakcija	-13444
ibliotek	-13445
▁Didžioji	-13446
▁McCreevy	-13447
▁medžiaga	-13448
▁nesulauk	-13449
▁panagrin	-13450
▁sausumos	-13451
▁sėkmingi	-13452
▁vadovams	-13453
▁atsigauti	-13454
▁Asmeniškai	-13455
▁ilgalaikes	-13456
▁potencialo	-13457
▁priverstos	-13458
▁vertinamos	-13459
▁geografinės	-13460
▁išsivystymo	-13461
▁kaimyninėse	-13462
▁susitaikymo	-13463
▁kvalifikaciją	-13464
▁persvarstymas	-13465
▁organizacijose	-13466
▁tarpvalstybinio	-13467
pasi	-13468
▁1,5	-13469
▁bej	-13470
alais	-13471
▁Glob	-13472
ogrąžų	-13473
▁Lauki	-13474
▁Nicos	-13475
▁Verho	-13476
▁iliuz	-13477
▁matom	-13478
▁planu	-13479
▁sieja	-13480
▁Obamos	-13481
▁biuras	-13482
▁dirbtų	-13483
▁donorų	-13484
▁planui	-13485
▁rašoma	-13486
energija	-13487
▁Europol	-13488
▁Italiją	-13489
▁skundus	-13490
▁vizijos	-13491
▁civilius	-13492
▁Priešingu	-13493
▁Verheugen	-13494
▁didėjantį	-13495
▁tikslinga	-13496
▁Kalbėdamas	-13497
▁Prancūziją	-13498
▁pasirašius	-13499
▁įvaikinimo	-13500
▁ilgalaikius	-13501
▁patikrinimų	-13502
▁nepalankioje	-13503
▁susirūpinusi	-13504
▁tarptautiniuose	-13505
NP	-13506
yri	-13507
▁42	-13508
ilip	-13509
stad	-13510
urid	-13511
insiu	-13512
ėjusį	-13513
▁grįš	-13514
▁zonų	-13515
Fronte	-13516
alinių	-13517
▁Jeruz	-13518
▁karių	-13519
▁likus	-13520
iškomis	-13521
tuacija	-13522
▁deramą	-13523
▁gautas	-13524
▁saugūs	-13525
▁spragų	-13526
ėjusieji	-13527
▁Galutin	-13528
▁Komisar	-13529
▁Lietuva	-13530
▁praeitį	-13531
▁terminų	-13532
▁aktyvaus	-13533
▁pažeisti	-13534
▁suprastų	-13535
▁atliekama	-13536
▁atstatymo	-13537
▁besiverči	-13538
▁dabartine	-13539
▁papildomo	-13540
▁skatinami	-13541
▁pasitelkti	-13542
▁reikšmingą	-13543
▁tradicinių	-13544
▁Juodkalnija	-13545
▁susitikimai	-13546
▁sustiprintų	-13547
▁sveikintina	-13548
▁automobiliai	-13549
▁pažeidžiamas	-13550
▁konferencijai	-13551
▁besivystančias	-13552
nd	-13553
ley	-13554
sud	-13555
ūtų	-13556
▁Ja	-13557
rėje	-13558
ėtės	-13559
▁Jan	-13560
▁Nus	-13561
izmui	-13562
▁Lank	-13563
▁data	-13564
▁kasd	-13565
▁nere	-13566
▁suėm	-13567
atifik	-13568
tajame	-13569
▁Nauja	-13570
ultūrin	-13571
virtino	-13572
▁Moldav	-13573
▁Tibete	-13574
▁skolas	-13575
▁tekstu	-13576
▁ūkiams	-13577
▁kokiais	-13578
▁papasak	-13579
▁poilsio	-13580
▁siūlymą	-13581
▁Liaudies	-13582
▁eksperim	-13583
▁naujovės	-13584
▁neplatin	-13585
▁pasikeit	-13586
▁rengiami	-13587
▁sumažėtų	-13588
▁Vartotojų	-13589
▁išlaikymo	-13590
▁suvaldyti	-13591
▁teisingos	-13592
Pirmininknu	-13593
▁balsavimui	-13594
▁milijonams	-13595
▁pirmuosius	-13596
▁reikšminga	-13597
▁vairuotojų	-13598
▁sprendžiame	-13599
▁finansiniais	-13600
▁tarptautiniais	-13601
abi	-13602
ilg	-13603
pirm	-13604
zias	-13605
▁Tal	-13606
▁Flor	-13607
▁auka	-13608
▁dirbs	-13609
▁dvejų	-13610
▁gauta	-13611
▁paukš	-13612
▁semin	-13613
▁įrašų	-13614
pagrind	-13615
▁Lankos	-13616
▁atimti	-13617
▁baudas	-13618
▁svyrav	-13619
▁tvirto	-13620
▁progres	-13621
▁trumpas	-13622
▁šįvakar	-13623
iasdešimt	-13624
▁griežtus	-13625
Kalbėtojas	-13626
▁aptariama	-13627
▁pablogėjo	-13628
▁Mastrichto	-13629
▁pasikartoj	-13630
▁pasiryžusi	-13631
▁pažeidžiama	-13632
▁socialinėms	-13633
▁sustiprintas	-13634
▁reikalavimams	-13635
▁vadovaudamiesi	-13636
dą	-13637
yle	-13638
▁85	-13639
▁AC	-13640
ineš	-13641
ulos	-13642
▁cin	-13643
tmann	-13644
▁nuob	-13645
▁Arabų	-13646
▁dykum	-13647
tinkriz	-13648
▁Linkiu	-13649
▁krašto	-13650
▁priesp	-13651
▁puikiu	-13652
▁Jeruzal	-13653
▁einanti	-13654
▁pranešė	-13655
▁teisėje	-13656
▁įprastą	-13657
▁šaltinį	-13658
▁perėjimą	-13659
▁tikriems	-13660
▁įstaigas	-13661
Parlamento	-13662
▁lanksčiai	-13663
▁papildomi	-13664
▁partijoms	-13665
▁prieinami	-13666
▁regioninį	-13667
▁Bulgarijai	-13668
▁dokumentui	-13669
▁paskutinių	-13670
▁sumetimais	-13671
▁asignavimus	-13672
▁įsitikinimų	-13673
vyk	-13674
▁37	-13675
toki	-13676
▁Viz	-13677
darbo	-13678
▁Gold	-13679
▁Sant	-13680
▁idėj	-13681
▁nenuk	-13682
ekomend	-13683
▁neprad	-13684
▁įsisav	-13685
sigalioj	-13686
▁dirbant	-13687
▁kryptys	-13688
▁prastai	-13689
▁viešąją	-13690
▁atogrąžų	-13691
▁keliamus	-13692
▁minimalų	-13693
▁neapsaug	-13694
▁Vengrijai	-13695
▁didesnius	-13696
▁išvadomis	-13697
▁klaidinga	-13698
▁kylančios	-13699
▁pasiūlėme	-13700
▁pataisyti	-13701
▁Valstijoms	-13702
▁dvidešimtu	-13703
▁geriausius	-13704
▁išspręstos	-13705
▁keliančius	-13706
▁naujosioms	-13707
▁paskutinio	-13708
▁operatoriai	-13709
▁patvirtinus	-13710
▁įgaliotinis	-13711
▁įsidarbinti	-13712
▁plačiajuosčio	-13713
▁suinteresuota	-13714
▁svarbiausiais	-13715
ara	-13716
eino	-13717
▁Bol	-13718
aryti	-13719
fstad	-13720
orius	-13721
ėmiai	-13722
▁Gros	-13723
▁cenz	-13724
▁imti	-13725
alistų	-13726
žmonių	-13727
▁Kitos	-13728
▁dubli	-13729
▁jurid	-13730
▁kiauš	-13731
▁niekur	-13732
▁priedą	-13733
inančios	-13734
▁dalytis	-13735
▁draugai	-13736
▁negalia	-13737
▁pirmtak	-13738
▁tikrumo	-13739
imbabvėje	-13740
▁Branduol	-13741
▁atšilimo	-13742
▁didėjimo	-13743
▁išsprend	-13744
▁mokyklas	-13745
▁priimtin	-13746
▁skiriamų	-13747
▁įvykdyta	-13748
▁kalbėtojų	-13749
▁pranašumų	-13750
▁priimtiną	-13751
▁Verhofstad	-13752
▁apsaugotos	-13753
▁oficialios	-13754
▁pasikeisti	-13755
▁trečiąsias	-13756
▁nusikaltimą	-13757
▁pasirengimą	-13758
▁kontroliuoja	-13759
▁prieštarauju	-13760
▁finansuojamas	-13761
▁konkurencinga	-13762
▁konkurencingi	-13763
▁finansinparama	-13764
arg	-13765
bos	-13766
nor	-13767
rut	-13768
▁("	-13769
ikai	-13770
▁12.	-13771
▁vam	-13772
▁Komi	-13773
▁Lang	-13774
▁Tokio	-13775
▁semes	-13776
iskirst	-13777
tiškumo	-13778
▁Libija	-13779
▁būsima	-13780
▁kaltės	-13781
▁riboto	-13782
▁tarybą	-13783
▁turima	-13784
valstybė	-13785
▁Izraelį	-13786
▁atidėli	-13787
▁narystę	-13788
▁nesumaž	-13789
▁teisėta	-13790
▁telefon	-13791
▁žalieji	-13792
▁bendrąja	-13793
▁mokytojų	-13794
▁pensijas	-13795
▁rengdami	-13796
▁sukūrėme	-13797
▁susiskal	-13798
▁veikimas	-13799
▁vietinių	-13800
▁aspektams	-13801
▁parengėme	-13802
▁psichikos	-13803
▁argumentai	-13804
▁nedelsdama	-13805
▁milžiniškas	-13806
▁panaikintos	-13807
▁teisėsaugos	-13808
▁teritorinio	-13809
▁civilizacijos	-13810
▁pirmininkausi	-13811
▁išsivysčiusios	-13812
3/	-13813
.),	-13814
▁Ah	-13815
visų	-13816
▁Pan	-13817
alyje	-13818
čiant	-13819
▁Cohn	-13820
▁ilgi	-13821
▁įsiv	-13822
ravimo	-13823
region	-13824
▁Dimas	-13825
▁norma	-13826
▁nutuk	-13827
▁skirs	-13828
rindami	-13829
▁nevykd	-13830
▁panaud	-13831
▁plauki	-13832
▁vežėjų	-13833
atsižvel	-13834
tiniuose	-13835
▁Kolegos	-13836
▁dialogu	-13837
▁kančias	-13838
▁minčiai	-13839
▁realybe	-13840
▁siūlomą	-13841
▁teisėtą	-13842
▁užsimin	-13843
▁Rumuniją	-13844
▁milijono	-13845
▁palaukti	-13846
▁prasidės	-13847
▁tvarumas	-13848
▁vadovaud	-13849
▁šaltinio	-13850
▁akivaizdi	-13851
▁apsunkina	-13852
▁pastebėjo	-13853
▁pavasario	-13854
▁prekyboje	-13855
▁prievarta	-13856
▁Nepriklaus	-13857
▁konstatuoj	-13858
▁konvencijų	-13859
▁nesupranta	-13860
▁nuoseklumo	-13861
▁palengvins	-13862
▁pirmininkų	-13863
▁pasiūlymuose	-13864
vas	-13865
▁7.	-13866
▁9.	-13867
enko	-13868
nėra	-13869
▁195	-13870
▁pėd	-13871
▁ren	-13872
atams	-13873
čioms	-13874
▁prez	-13875
esnnei	-13876
prival	-13877
uodamų	-13878
▁datos	-13879
▁inžin	-13880
▁nkiek	-13881
▁skola	-13882
ekijoje	-13883
▁asmenį	-13884
▁atvejo	-13885
▁šeimas	-13886
▁forumas	-13887
▁laisvir	-13888
▁tautoms	-13889
▁viename	-13890
▁rengiasi	-13891
▁socialis	-13892
▁sutarėme	-13893
▁turtingi	-13894
▁užmiršti	-13895
▁atleidimo	-13896
▁kaltinink	-13897
▁prisimenu	-13898
▁Austrijoje	-13899
▁galimybėms	-13900
▁pasiekimus	-13901
▁reaguojant	-13902
▁savitarpio	-13903
▁nagrinėjama	-13904
▁posėdžiuose	-13905
▁pripažintas	-13906
▁reikalingus	-13907
▁verslininkų	-13908
▁finansinėmis	-13909
ce	-13910
uil	-13911
vio	-13912
stan	-13913
▁800	-13914
▁Ras	-13915
▁užt	-13916
valia	-13917
▁cian	-13918
▁eigą	-13919
▁slep	-13920
esnėms	-13921
ytojus	-13922
▁siena	-13923
▁kaitai	-13924
▁siųsti	-13925
▁uostai	-13926
▁bevizio	-13927
▁jėgomis	-13928
▁siekėme	-13929
▁vykdomų	-13930
▁paradoks	-13931
▁produktą	-13932
▁reakciją	-13933
▁registro	-13934
▁simboliz	-13935
▁sudėties	-13936
▁teikiame	-13937
▁apimantis	-13938
▁ilgalaiki	-13939
▁lygmenyje	-13940
▁neatitink	-13941
▁neišspręs	-13942
▁nelygybės	-13943
▁pasienyje	-13944
▁pasirodes	-13945
▁spręsdami	-13946
▁atsiprašau	-13947
▁mikrokredi	-13948
▁privalomus	-13949
▁rašytiniai	-13950
▁teritorija	-13951
▁įpareigoti	-13952
▁Susitarimas	-13953
▁atleistiems	-13954
▁balsuodamas	-13955
▁griežtesnių	-13956
▁nepakankama	-13957
▁nusikaltimo	-13958
▁referendume	-13959
▁suaugusiųjų	-13960
▁apibendrinti	-13961
▁apsirūpinimo	-13962
red	-13963
▁Ci	-13964
ačių	-13965
hard	-13966
imet	-13967
ėlap	-13968
stone	-13969
▁Itin	-13970
▁pamą	-13971
▁slov	-13972
iojoje	-13973
teikti	-13974
▁degal	-13975
▁nusil	-13976
▁pailg	-13977
▁teiks	-13978
▁Kotonu	-13979
▁Tautos	-13980
▁arčiau	-13981
▁bėgant	-13982
▁puikių	-13983
▁savimi	-13984
▁Nenoriu	-13985
▁apgailė	-13986
▁karines	-13987
▁kiekius	-13988
▁šeimoje	-13989
▁atotrūkį	-13990
▁finansus	-13991
▁galėdama	-13992
▁modelius	-13993
▁senosios	-13994
▁septynių	-13995
▁Pietryčių	-13996
▁atsiskait	-13997
▁didėjimas	-13998
▁jungtinės	-13999
▁pakeliant	-14000
▁palankios	-14001
▁pasisakau	-14002
▁pavadinti	-14003
▁perėjimas	-14004
▁politinei	-14005
▁regionais	-14006
▁Pastaruoju	-14007
▁ankstesnės	-14008
▁obligacijų	-14009
▁sveikiname	-14010
▁alternatyva	-14011
▁potencialas	-14012
▁prevencijai	-14013
▁išanalizuoti	-14014
▁rekomenduojama	-14015
▁Ją	-14016
▁Cos	-14017
▁vel	-14018
[...]
