<pad>	0
</s>	0
<unk>	0
▁	-2.7351
s	-3.17463
.	-3.75791
▁the	-3.76458
,	-3.78632
e	-3.84938
▁to	-4.23483
t	-4.2457
▁of	-4.25579
▁and	-4.27325
d	-4.31736
ing	-4.37744
p	-4.50376
ed	-4.5065
▁a	-4.53604
o	-4.56554
c	-4.58236
▁in	-4.59043
a	-4.67777
y	-4.87234
u	-4.97363
m	-4.97374
-	-5.02822
f	-5.04449
n	-5.0477
er	-5.14913
ar	-5.19708
al	-5.19868
i	-5.21099
in	-5.21874
▁for	-5.21967
r	-5.23822
h	-5.24261
▁you	-5.26526
▁s	-5.29506
ly	-5.30611
or	-5.33771
g	-5.33906
▁with	-5.39331
▁your	-5.43304
▁be	-5.46457
-19	-5.46656
re	-5.47482
▁covid	-5.48444
an	-5.49074
▁The	-5.4998
▁c	-5.50514
▁is	-5.52067
k	-5.53938
▁f	-5.55027
▁or	-5.56669
▁are	-5.60281
w	-5.61709
en	-5.63055
▁on	-5.63619
l	-5.64196
b	-5.64254
es	-5.65654
▁that	-5.66552
le	-5.69183
on	-5.71709
▁as	-5.72539
▁m	-5.74404
is	-5.74583
▁have	-5.75321
it	-5.77323
at	-5.7773
ro	-5.78693
▁cases	-5.79708
ir	-5.83719
▁from	-5.84826
ent	-5.85075
ic	-5.87159
st	-5.91792
)	-5.92487
▁(	-5.92907
▁re	-5.92982
se	-5.95566
▁b	-5.95733
ation	-5.95761
▁not	-5.95802
th	-5.95895
▁were	-5.97326
▁A	-5.98859
lo	-6.08156
▁de	-6.10132
ur	-6.10631
ri	-6.10908
3	-6.12382
0	-6.12779
▁2	-6.12803
ch	-6.14892
cov	-6.16506
▁w	-6.16943
8	-6.17439
▁1	-6.2084
2	-6.21681
1	-6.22177
▁can	-6.22559
v	-6.22611
▁will	-6.22671
tion	-6.23549
il	-6.2462
▁virus	-6.24884
▁it	-6.25143
5	-6.25544
▁by	-6.25625
7	-6.2566
▁was	-6.26128
ol	-6.26191
▁people	-6.26459
9	-6.27612
as	-6.28187
ve	-6.29448
ion	-6.3239
'	-6.35904
▁g	-6.36266
un	-6.36438
▁I	-6.36541
▁p	-6.36652
am	-6.37033
id	-6.38867
▁at	-6.39391
▁h	-6.39718
▁health	-6.40541
te	-6.41286
6	-6.41591
▁who	-6.41689
et	-6.42706
▁test	-6.43208
ive	-6.43219
▁do	-6.43452
ad	-6.43706
▁if	-6.44859
▁has	-6.45453
▁st	-6.46665
▁S	-6.49267
ce	-6.50926
ct	-6.50928
la	-6.51653
▁been	-6.5183
▁deaths	-6.52782
▁C	-6.52867
▁reported	-6.54035
el	-6.54368
▁may	-6.55229
▁con	-6.58003
▁an	-6.58084
ne	-6.58599
li	-6.58998
ter	-6.60626
om	-6.61455
4	-6.61514
:	-6.62714
ment	-6.64233
ers	-6.65063
us	-6.65419
▁symptoms	-6.65545
▁com	-6.65942
ate	-6.65958
ity	-6.6603
ul	-6.67718
▁other	-6.67949
▁ex	-6.68954
▁You	-6.69724
x	-6.69893
▁vaccine	-6.70027
▁contact	-6.71867
▁app	-6.73224
▁sars	-6.73891
▁4	-6.75546
uch	-6.76621
tra	-6.77732
▁no	-6.77801
▁pa	-6.77884
ac	-6.78444
▁disease	-6.78577
▁3	-6.81569
▁more	-6.81667
act	-6.82204
▁number	-6.82625
im	-6.83019
▁pro	-6.83029
▁n	-6.83848
▁coronavirus	-6.84363
qu	-6.85819
▁should	-6.86155
▁2020	-6.86843
▁me	-6.86855
ver	-6.87078
▁this	-6.8726
end	-6.89722
▁march	-6.89763
ight	-6.90518
ig	-6.91731
our	-6.92873
ry	-6.9434
ies	-6.94916
z	-6.95503
▁In	-6.95748
▁also	-6.96266
▁t	-6.97841
able	-6.98175
▁infection	-7.00273
tic	-7.00593
▁use	-7.01011
▁On	-7.0193
notified	-7.02768
ance	-7.03662
mo	-7.04582
▁pre	-7.05395
age	-7.05399
▁outbreak	-7.0576
▁than	-7.05844
ide	-7.06048
▁dis	-7.06332
▁It	-7.06384
-2	-7.06832
▁countries	-7.0707
▁about	-7.07076
ra	-7.07389
ia	-7.07536
▁further	-7.07954
▁time	-7.07962
▁spread	-7.08397
▁high	-7.08399
had	-7.09521
▁v	-7.09877
▁5	-7.10467
ng	-7.11142
j	-7.11379
▁This	-7.11565
▁tr	-7.11642
▁need	-7.11734
"	-7.13657
ine	-7.13837
▁all	-7.13851
▁face	-7.14401
ach	-7.15156
um	-7.15177
▁home	-7.15324
▁co	-7.1555
▁state	-7.15568
▁di	-7.15774
▁which	-7.15791
▁when	-7.15797
▁total	-7.15936
▁po	-7.16047
ck	-7.16156
▁school	-7.16272
▁close	-7.16292
▁person	-7.16764
if	-7.16834
ated	-7.16896
all	-7.1745
▁"	-7.18957
▁over	-7.20801
and	-7.20983
ell	-7.21432
▁new	-7.21778
est	-7.22191
▁pandemic	-7.22229
▁after	-7.22757
ab	-7.23204
▁un	-7.24742
▁risk	-7.24824
vi	-7.25312
▁patients	-7.25875
▁they	-7.26846
ph	-7.26873
▁one	-7.27583
ther	-7.27992
▁public	-7.2802
▁under	-7.28031
▁some	-7.28074
ence	-7.29825
▁get	-7.30332
▁confirmed	-7.30767
▁first	-7.30774
ill	-7.31056
ru	-7.31541
ial	-7.3347
▁child	-7.34163
day	-7.35179
▁travel	-7.35328
▁data	-7.35331
▁any	-7.35695
ary	-7.35993
▁ma	-7.36254
▁work	-7.36355
▁care	-7.36441
▁china	-7.36501
▁human	-7.37092
▁up	-7.37704
ting	-7.38433
ous	-7.38719
▁li	-7.39399
ib	-7.39525
▁us	-7.40323
▁bring	-7.40749
▁hands	-7.40925
▁go	-7.40993
▁government	-7.41334
▁including	-7.41955
▁imp	-7.42086
ge	-7.42103
iv	-7.42517
▁but	-7.42626
▁hospital	-7.44479
▁sh	-7.44733
▁cover	-7.44855
▁case	-7.45528
▁protect	-7.45767
▁we	-7.46281
▁result	-7.47069
due	-7.48336
for	-7.48742
▁february	-7.49055
up	-7.49371
▁service	-7.50402
▁stay	-7.50425
▁mask	-7.50428
out	-7.50665
▁so	-7.51905
▁H	-7.5248
sure	-7.52486
▁days	-7.53486
00	-7.53883
▁cause	-7.5456
▁help	-7.54565
▁unit	-7.55062
▁two	-7.55278
▁20	-7.55978
ical	-7.56263
▁them	-7.56629
▁follow	-7.57422
▁Do	-7.57422
▁others	-7.57455
;	-7.58152
ian	-7.58698
ities	-7.58729
ize	-7.58813
▁those	-7.5963
▁10	-7.59969
▁january	-7.60375
▁respirator	-7.61127
▁positive	-7.61127
▁ac	-7.62019
▁call	-7.62635
ute	-7.63859
▁previously	-7.64192
▁most	-7.64259
ip	-7.64523
▁develop	-7.64973
▁available	-7.64973
▁even	-7.65042
like	-7.65165
▁dur	-7.65377
▁he	-7.65448
▁ra	-7.65703
ll	-7.66039
▁these	-7.66435
line	-7.66945
ok	-7.67719
▁gp	-7.68871
▁infected	-7.68974
▁medical	-7.6898
▁week	-7.68985
▁out	-7.69274
▁6	-7.69281
▁include	-7.69793
ould	-7.7096
▁system	-7.71453
▁hcov	-7.71566
▁day	-7.72504
▁tested	-7.73087
many	-7.73573
▁per	-7.73908
▁transmission	-7.73996
▁between	-7.74858
▁illness	-7.74862
▁host	-7.74875
less	-7.74989
▁possible	-7.75727
▁take	-7.75862
▁An	-7.76548
▁advice	-7.76604
▁april	-7.78383
way	-7.78453
▁bat	-7.7885
▁age	-7.79236
▁million	-7.80193
▁children	-7.80296
▁inter	-7.80369
▁wear	-7.81066
,000	-7.81123
▁place	-7.81131
▁provide	-7.8204
▁visit	-7.8204
▁part	-7.83366
▁could	-7.84451
▁recommend	-7.84866
▁treatment	-7.84866
▁restrictions	-7.84872
▁14	-7.8559
▁hand	-7.85915
▁relat	-7.86192
▁prevent	-7.86801
▁country	-7.86804
▁severe	-7.87191
▁response	-7.87779
▁social	-7.8778
▁world	-7.88769
▁ireland	-7.88769
▁receive	-7.88771
▁only	-7.88879
ness	-7.8908
▁announced	-7.89769
▁long	-7.89805
▁into	-7.90178
▁affect	-7.91799
▁through	-7.91799
▁control	-7.918
▁don	-7.93817
▁measures	-7.93872
▁while	-7.93872
▁level	-7.93873
▁death	-7.93918
▁well	-7.94447
▁sign	-7.96004
▁centre	-7.96006
count	-7.96161
▁show	-7.97071
▁how	-7.9817
▁before	-8.00377
▁away	-8.00683
▁food	-8.01751
▁make	-8.01954
▁anti	-8.02338
▁every	-8.02625
▁19	-8.02695
gra	-8.02924
▁cough	-8.0377
▁information	-8.0377
▁group	-8.03771
▁someone	-8.03788
▁increase	-8.04933
▁same	-8.05022
▁quarantine	-8.06109
▁where	-8.0611
▁community	-8.073
▁immun	-8.073
▁national	-8.07306
▁restrict	-8.09718
▁against	-8.09724
▁vari	-8.09866
▁emergency	-8.10959
▁direct	-8.10961
viral	-8.11042
▁second	-8.12209
▁wuhan	-8.12209
ake	-8.12737
land	-8.12801
▁24	-8.14547
▁education	-8.14757
▁large	-8.14757
▁require	-8.14758
▁protein	-8.14761
resident	-8.14768
▁early	-8.1477
▁plan	-8.1479
▁fever	-8.1479
▁share	-8.15017
▁cha	-8.1576
▁When	-8.16055
▁students	-8.16055
▁contain	-8.16056
▁11	-8.16234
▁flu	-8.17408
▁eas	-8.17426
▁report	-8.17559
▁late	-8.18154
▁conditions	-8.18704
▁europe	-8.18704
▁order	-8.18921
▁rate	-8.19371
▁support	-8.20056
▁phone	-8.20058
▁detect	-8.2006
▁italy	-8.20124
▁nose	-8.2017
▁found	-8.21426
▁doctor	-8.2143
▁limit	-8.21432
▁clean	-8.2145
▁sub	-8.21497
▁june	-8.21572
▁effective	-8.21579
▁live	-8.22774
▁breath	-8.22815
▁reduce	-8.22815
▁issued	-8.2282
▁what	-8.22841
▁sample	-8.24223
▁least	-8.24228
inister	-8.24234
▁important	-8.25652
▁trial	-8.25885
▁known	-8.26028
▁clinical	-8.27101
▁surveillance	-8.27101
▁keep	-8.27101
▁south	-8.27117
▁short	-8.27133
▁effect	-8.28407
▁movements	-8.28571
▁down	-8.28587
▁self	-8.28603
▁chest	-8.28627
based	-8.28874
▁ju	-8.29014
put	-8.29348
ology	-8.30038
▁population	-8.30064
▁chinese	-8.30064
▁2019	-8.30065
▁healthcare	-8.30065
▁attend	-8.30077
▁sever	-8.31113
?	-8.31579
▁estimate	-8.3158
▁open	-8.3159
▁appointment	-8.33117
▁immediate	-8.33117
▁avoid	-8.33118
▁years	-8.33118
essential	-8.3312
▁animal	-8.33122
▁until	-8.33127
▁workers	-8.33516
isolate	-8.34407
▁center	-8.3478
▁closures	-8.36267
ccording	-8.36267
▁remain	-8.36268
▁drug	-8.36269
▁start	-8.36379
not	-8.36429
▁collect	-8.3788
▁allow	-8.37896
▁common	-8.37897
lockdown	-8.3952
though	-8.3952
▁global	-8.3952
▁Some	-8.39557
▁individual	-8.41186
▁However	-8.41188
▁safe	-8.41188
▁feel	-8.41248
▁see	-8.41867
▁produc	-8.42884
▁origin	-8.42892
▁dublin	-8.44605
▁international	-8.44605
▁study	-8.44606
▁mouth	-8.44611
▁usual	-8.4462
▁hours	-8.44645
tric	-8.45459
▁december	-8.4636
▁practice	-8.4636
▁change	-8.46386
▁because	-8.48145
▁occur	-8.48145
▁tracking	-8.48146
▁among	-8.48152
▁recover	-8.48166
▁current	-8.49964
▁major	-8.49965
▁alert	-8.49981
▁last	-8.50132
ood	-8.51224
▁epidemic	-8.51815
▁example	-8.51815
mission	-8.51817
cross	-8.51992
▁official	-8.53702
▁blood	-8.53704
▁body	-8.53704
▁another	-8.53709
▁negative	-8.55625
▁transport	-8.55625
ological	-8.55625
▁general	-8.55625
▁great	-8.55651
▁must	-8.55702
▁find	-8.55788
▁different	-8.57586
▁especially	-8.57586
▁continue	-8.57586
▁declar	-8.57587
▁become	-8.57588
▁three	-8.57594
▁made	-8.57755
í	-8.59586
▁family	-8.59586
ability	-8.59587
▁local	-8.59591
▁regula	-8.59597
▁month	-8.59604
▁addition	-8.61627
▁department	-8.61627
▁difficult	-8.61627
▁surface	-8.61627
▁Covid	-8.61627
▁leav	-8.61685
▁similar	-8.6371
▁But	-8.65838
▁organization	-8.65838
▁yourself	-8.65839
▁advis	-8.65846
▁rna	-8.65851
▁safety	-8.65852
▁since	-8.6588
▁water	-8.65899
▁infectious	-8.68012
▁research	-8.68012
▁staff	-8.68012
▁korea	-8.68015
▁phase	-8.68034
isolation	-8.68101
▁having	-8.70234
▁normal	-8.70234
▁return	-8.70234
▁worldwide	-8.70235
▁consider	-8.70235
▁assess	-8.70263
▁pneumonia	-8.72507
▁period	-8.72507
▁back	-8.72528
▁identified	-8.74832
species	-8.74832
▁concern	-8.74833
▁tracker	-8.74833
▁record	-8.74833
▁outside	-8.74844
▁region	-8.74849
▁indicat	-8.74867
ymptomatic	-8.74901
▁laboratory	-8.77213
▁africa	-8.77214
▁reopen	-8.77214
▁however	-8.77218
▁rapid	-8.7722
▁house	-8.77234
▁disinfect	-8.79652
▁equipment	-8.79652
▁suspect	-8.79652
▁genome	-8.79653
▁Stay	-8.79653
▁2021	-8.79654
▁remove	-8.79658
member	-8.79658
▁know	-8.81494
▁economi	-8.82152
▁suggest	-8.82152
▁screen	-8.82153
▁corona	-8.8219
▁Wash	-8.84716
▁associated	-8.84716
▁influenza	-8.84716
▁syndrome	-8.84716
▁vaccinated	-8.84716
▁daily	-8.84717
▁america	-8.84717
▁baby	-8.84728
▁How	-8.84728
▁manag	-8.85004
▁vaccination	-8.87348
▁learning	-8.87348
▁market	-8.87348
▁monitor	-8.87348
▁properly	-8.87348
▁adapt	-8.87349
pharmac	-8.90051
▁cyberattack	-8.90051
▁distancing	-8.90051
▁evidence	-8.90051
▁involv	-8.90051
tensive	-8.90054
▁own	-8.90062
▁arriv	-8.90089
▁identi	-8.91293
▁cluster	-8.92828
▁happen	-8.92828
▁separation	-8.92828
▁sneezing	-8.92828
▁mobil	-8.92829
▁perform	-8.9283
▁access	-8.92831
▁release	-8.92837
▁women	-8.92838
eople	-8.9544
▁exercise	-8.95686
▁potential	-8.95686
▁intermedia	-8.95686
▁type	-8.95693
▁already	-8.98627
▁antibodies	-8.98627
▁experienc	-8.98627
▁history	-8.98627
▁particular	-8.98627
▁outdoor	-8.98627
▁lung	-8.98629
▁authorities	-9.01657
▁establish	-9.01657
▁natural	-9.01657
▁primary	-9.01657
▁significant	-9.01657
▁temperature	-9.01657
q	-9.52041
C	-10.9246
I	-12.0102
A	-12.0103
’	-13.0113
V	-13.0114
U	-13.0115
G	-13.0116
–	-13.0117
N	-13.0118
L	-13.0119
/	-13.012
E	-13.0121
R	-13.0122
F	-13.0123
B	-13.0124
%	-13.0125
M	-13.0126
P	-13.0127
D	-13.0128
Y	-13.0129
W	-13.013
O	-13.0131
S	-13.0132
(	-13.0133
H	-13.0134
T	-13.0134
