<pad>	0
</s>	0
<unk>	0
.	-2.90726
▁	-3.68182
▁في	-4.0241
ا	-4.11131
▁من	-4.11639
ه	-4.41301
وا	-4.46624
ّ	-4.47316
▁و	-4.53305
ى	-4.56399
ي	-4.59049
▁ال	-4.65916
▁الرب	-4.69621
ة	-4.72525
ت	-4.86583
▁ان	-4.87633
ك	-4.87898
ن	-4.91669
ون	-4.93042
▁الذي	-5.05529
▁لا	-5.08634
▁كل	-5.11262
الى	-5.11464
لى	-5.19636
هم	-5.25125
▁ع	-5.27963
ها	-5.3156
م	-5.39904
ين	-5.49739
▁اسرائيل	-5.59185
▁قد	-5.62242
نا	-5.65348
▁ا	-5.72587
▁الله	-5.72703
▁ولا	-5.75575
▁ي	-5.77881
▁ف	-5.79095
▁لان	-5.81946
▁ب	-5.82846
كم	-5.84366
▁ل	-5.85182
▁هذا	-5.85533
▁.	-5.89464
▁لي	-5.91508
▁الارض	-5.91653
▁ت	-5.92122
▁يا	-5.93599
▁التي	-5.93723
▁لم	-5.97195
▁له	-5.97572
▁عل	-5.98901
▁هو	-6
ر	-6.00303
▁فقال	-6.04729
▁ما	-6.05242
ني	-6.1049
▁وال	-6.11018
▁ايضا	-6.11547
▁كان	-6.14842
▁عن	-6.18199
ما	-6.18635
▁الملك	-6.19117
▁بيت	-6.1937
▁بن	-6.20571
ب	-6.22425
▁م	-6.24984
ان	-6.26098
▁جميع	-6.27295
▁انا	-6.27878
▁مع	-6.30389
▁وقال	-6.30478
▁لانه	-6.30837
▁ملك	-6.32581
▁وي	-6.35556
▁قال	-6.36024
▁وكان	-6.40537
▁بني	-6.42145
▁ثم	-6.42165
▁وا	-6.4583
▁لل	-6.4583
▁بل	-6.4591
▁اليوم	-6.51004
ل	-6.51676
▁هكذا	-6.53164
▁داود	-6.55928
▁لهم	-6.56182
▁الشعب	-6.57228
▁ومن	-6.57461
▁به	-6.57934
▁او	-6.58596
▁كما	-6.5897
س	-6.59112
ع	-6.59799
▁يسوع	-6.59841
▁وكل	-6.59992
▁عند	-6.60097
▁هذه	-6.61564
▁قائلا	-6.63541
▁وت	-6.6404
▁ك	-6.64235
▁حت	-6.66608
ق	-6.67301
▁ارض	-6.67786
▁واحد	-6.68004
▁انت	-6.68331
▁امام	-6.6869
▁ذلك	-6.6966
ف	-6.70889
▁بعد	-6.71463
د	-6.73044
▁يهوذا	-6.73063
▁وفي	-6.74302
▁رب	-6.75665
▁بال	-6.77025
▁واما	-6.77053
▁ولم	-6.77338
▁موسى	-6.77885
▁اورشليم	-6.78024
▁ابن	-6.7907
▁هناك	-6.79309
▁ن	-6.79996
▁يكون	-6.80178
ض	-6.80593
▁فا	-6.82188
ص	-6.82679
ح	-6.83909
▁الم	-6.84604
▁بنو	-6.84652
▁يقول	-6.84727
ته	-6.8507
▁حسب	-6.85378
▁ولكن	-6.86108
ات	-6.86458
اء	-6.87046
▁ليس	-6.88296
وه	-6.90326
▁لكي	-6.916
▁انه	-6.91718
▁لكم	-6.92065
▁هي	-6.93473
▁لك	-6.95191
▁مصر	-6.96913
▁وان	-6.97005
خ	-6.97405
▁عليه	-7.00089
▁وع	-7.00464
ز	-7.04905
▁بين	-7.05337
▁اذا	-7.07061
▁ايام	-7.09125
▁المدينة	-7.11018
▁اله	-7.11424
ط	-7.14642
ج	-7.14785
و	-7.15354
▁اذ	-7.15449
ث	-7.158
تم	-7.16721
غ	-7.16802
▁المسيح	-7.17213
▁احد	-7.17725
▁يوم	-7.17846
▁للرب	-7.18206
▁اجل	-7.1836
ش	-7.20473
▁أ	-7.20653
▁فت	-7.21145
هوذا	-7.2255
▁مئة	-7.25242
▁فلا	-7.25629
▁رجل	-7.25761
▁اني	-7.25836
▁فان	-7.25928
ار	-7.26259
▁يد	-7.26467
▁السماء	-7.29236
▁اما	-7.29454
▁ولما	-7.30918
تك	-7.31391
▁بها	-7.32978
ية	-7.35683
▁مثل	-7.35983
▁الامم	-7.3754
▁الا	-7.37631
▁الانسان	-7.37991
▁انتم	-7.40119
▁الآن	-7.40502
▁وهو	-7.40753
▁سنة	-7.4142
▁تكون	-7.41982
▁اليه	-7.43779
▁واذا	-7.45195
▁شاول	-7.45482
▁معه	-7.45926
▁الكاهن	-7.46739
ال	-7.48476
▁البيت	-7.48512
▁حين	-7.48523
▁تحت	-7.49055
أ	-7.49676
▁عشر	-7.51066
يا	-7.51349
تي	-7.52018
▁فلما	-7.52057
▁لذلك	-7.53009
▁قائلين	-7.53545
▁لاجل	-7.53769
▁كلام	-7.53914
▁جدا	-7.54313
ور	-7.54485
▁انسان	-7.54814
ئ	-7.54997
▁ايه	-7.55061
▁هل	-7.55378
▁هم	-7.55667
▁الهك	-7.55723
▁عمل	-7.56385
▁يعقوب	-7.56388
▁الرجل	-7.56458
▁وب	-7.57532
▁لت	-7.5789
▁السيد	-7.58443
▁جاء	-7.58929
▁نحو	-7.59119
▁فلم	-7.60951
▁هؤلاء	-7.61119
▁الي	-7.62377
▁لانهم	-7.62656
▁كنت	-7.63052
▁شيء	-7.63278
هما	-7.63682
▁وم	-7.63875
▁امر	-7.63982
▁البحر	-7.64258
▁الشر	-7.64408
▁فيه	-7.6457
▁وسط	-7.64664
▁الابد	-7.64785
اب	-7.66702
▁فيها	-7.69901
▁لها	-7.70147
▁الكهنة	-7.70685
▁الناس	-7.71022
تهم	-7.71748
▁صار	-7.71936
وها	-7.72157
▁قبل	-7.7243
▁لماذا	-7.72449
▁بابل	-7.72881
▁عليك	-7.73981
▁ابي	-7.74248
▁الجنود	-7.74801
▁عليهم	-7.74952
▁ولد	-7.74997
ول	-7.75002
▁فاجاب	-7.75121
▁امرأة	-7.75684
▁ام	-7.76074
ير	-7.76167
▁لنا	-7.76236
▁غير	-7.76683
▁الف	-7.77842
▁نفسه	-7.77986
▁الايام	-7.78358
▁ول	-7.78866
▁كانت	-7.78975
▁رأ	-7.79033
▁كثيرة	-7.79035
▁علي	-7.79187
▁يكن	-7.79496
▁جبل	-7.79797
▁ويكون	-7.79821
▁كانوا	-7.80258
▁وانا	-7.8052
▁سليمان	-7.81602
▁باب	-7.81914
▁وجميع	-7.81975
▁ذهب	-7.82557
يم	-7.83279
▁اي	-7.84097
▁رئيس	-7.84651
▁لكن	-7.84894
▁السموات	-7.85011
▁وجه	-7.85284
▁تلك	-7.85302
▁طريق	-7.86619
▁صوت	-7.86789
▁نحن	-7.86793
▁عيني	-7.89155
▁ماذا	-7.89808
دي	-7.90104
▁رجال	-7.90139
▁وقد	-7.90199
▁رؤساء	-7.90557
▁عشرة	-7.90662
▁عنه	-7.92074
▁يده	-7.92166
▁حينئذ	-7.92638
ئلا	-7.92897
▁الحق	-7.92985
▁آخر	-7.93878
تها	-7.9415
▁لانك	-7.9438
ذ	-7.94424
▁الروح	-7.94492
▁كال	-7.94589
▁تكلم	-7.94809
▁عليها	-7.949
▁ابنه	-7.95109
▁ارسل	-7.95114
▁نفسي	-7.9515
اف	-7.9517
▁فرعون	-7.9563
▁قدام	-7.97247
▁مدينة	-7.97604
▁سمع	-7.97675
▁اقول	-7.98137
▁واخذ	-7.98238
▁اليك	-7.98327
▁اسمه	-7.9847
▁الكلام	-7.98738
▁البرية	-7.99098
وب	-7.99767
▁اليهود	-8.00996
▁هرون	-8.01318
صر	-8.01354
▁وليس	-8.0189
▁السنة	-8.01949
مر	-8.02213
▁هانذا	-8.03291
▁وانت	-8.03632
▁حيث	-8.03653
ام	-8.03842
يين	-8.0398
▁مر	-8.04008
▁يوسف	-8.04057
بي	-8.04211
▁فوق	-8.04978
▁لما	-8.05094
▁وراء	-8.05139
▁الفا	-8.05499
▁ابراهيم	-8.05938
▁المذبح	-8.06077
▁الطريق	-8.06893
▁والم	-8.07247
▁عظيم	-8.07265
▁واحدة	-8.07589
يق	-8.08612
▁سبط	-8.08865
▁اكثر	-8.08939
وس	-8.09022
▁يت	-8.10042
▁مدن	-8.10094
يت	-8.10186
▁روح	-8.10315
قت	-8.1094
▁سيدي	-8.1122
▁فكان	-8.11589
▁الشعوب	-8.11894
▁يدي	-8.1227
قي	-8.12311
▁راس	-8.12357
▁يشوع	-8.12486
▁والذي	-8.14309
▁لن	-8.14335
▁سي	-8.14758
▁الشهر	-8.14911
ري	-8.15044
جل	-8.15275
▁مكتوب	-8.15922
▁وبنو	-8.15998
▁القدس	-8.16105
▁شعب	-8.16109
وم	-8.16111
▁بكل	-8.16267
را	-8.1649
▁بيته	-8.16615
▁الحقل	-8.16678
اد	-8.16828
▁شيئا	-8.16977
▁سبعة	-8.17098
▁الهنا	-8.17129
▁والآن	-8.17173
▁خرج	-8.17203
▁ثلاثة	-8.17208
▁شعبي	-8.17462
اع	-8.17964
▁العالم	-8.18296
▁كلمة	-8.18658
با	-8.18759
▁هنا	-8.18785
▁جعل	-8.19013
▁كيف	-8.19158
▁مت	-8.19506
▁وعمل	-8.19978
▁معي	-8.20495
▁انك	-8.20839
▁يأتي	-8.2151
قر	-8.21664
▁وجاء	-8.21874
▁دم	-8.21997
▁فعل	-8.22064
▁الموت	-8.22076
▁ماء	-8.22151
▁متى	-8.23179
▁وكانت	-8.23214
▁الاردن	-8.23556
▁جهة	-8.2368
جر	-8.23932
بر	-8.24022
▁وملك	-8.24363
▁لكل	-8.24373
▁اذهب	-8.24411
▁واحدا	-8.2442
▁معك	-8.24587
▁سبع	-8.24922
▁خارج	-8.24963
▁اسم	-8.2517
▁فضة	-8.25289
▁منهم	-8.25441
▁بلا	-8.2574
▁حي	-8.2605
▁عبر	-8.26155
ود	-8.26374
▁الفلسطينيين	-8.26506
▁الرجال	-8.26589
▁بي	-8.2697
▁المرأة	-8.27014
▁وأ	-8.27016
▁خيمة	-8.27207
▁منه	-8.27233
▁الباب	-8.27455
▁الهكم	-8.28096
▁الجميع	-8.28238
▁لبني	-8.28288
▁فن	-8.28323
يل	-8.28558
▁اليكم	-8.2867
وق	-8.28746
▁النبي	-8.28798
▁قلب	-8.28972
▁موآب	-8.29387
▁وكلم	-8.29466
▁شر	-8.29578
▁مجد	-8.29673
وني	-8.30577
▁الجبل	-8.30669
▁اين	-8.30722
▁منذ	-8.31395
وهم	-8.31415
▁ست	-8.3155
صب	-8.31833
▁عليكم	-8.32276
رت	-8.32467
▁اخذ	-8.32516
▁افرايم	-8.32559
▁ثلاث	-8.3287
▁ابني	-8.33011
▁آدم	-8.33071
▁ذبيحة	-8.33361
▁سيد	-8.33674
▁ملوك	-8.33693
▁سكان	-8.33735
▁يخرج	-8.33758
▁فانه	-8.34083
رج	-8.34093
لت	-8.34164
▁قلبه	-8.34182
▁ابيه	-8.34211
ظ	-8.34489
▁وقالوا	-8.34947
▁وضرب	-8.35309
وف	-8.35472
▁بك	-8.35619
عد	-8.35839
حا	-8.36402
▁وعل	-8.36551
▁صهيون	-8.36868
▁فلي	-8.36925
▁صنع	-8.36941
▁وبعد	-8.37007
عبد	-8.3709
فر	-8.37309
▁لداود	-8.37517
▁الاول	-8.37535
▁يعمل	-8.37549
▁بنت	-8.37774
صل	-8.37976
▁وك	-8.38121
▁وارسل	-8.3823
عة	-8.38595
▁يدك	-8.38733
▁يسمع	-8.38991
▁قلت	-8.39056
▁عبدك	-8.3959
▁ها	-8.39651
▁لحم	-8.39665
▁دخل	-8.39711
▁وقت	-8.39785
▁الاجتماع	-8.40191
اح	-8.40452
▁كلم	-8.41165
▁فاخذ	-8.41569
وك	-8.41664
▁فارسل	-8.41687
▁الشمس	-8.41766
قل	-8.41884
▁كذلك	-8.42249
▁المياه	-8.42335
▁بطرس	-8.42445
يد	-8.42788
▁وذهب	-8.42936
▁بولس	-8.43184
▁بعض	-8.43185
▁اخرج	-8.43333
ست	-8.44059
▁فمن	-8.44605
▁اربع	-8.44636
خر	-8.45119
▁الشرير	-8.45233
▁يدخل	-8.45636
▁اشور	-8.45778
اه	-8.45954
▁عظيمة	-8.46261
▁خطية	-8.46639
▁ولي	-8.47048
▁خمس	-8.47186
▁كثيرا	-8.47344
▁خ	-8.47371
▁ج	-8.47657
▁قلبك	-8.47845
▁الاخوة	-8.47907
▁الناموس	-8.47946
حر	-8.48167
▁فجاء	-8.48548
▁يقتل	-8.48665
▁بهذا	-8.48748
▁الهي	-8.4889
▁وجعل	-8.49021
▁وجد	-8.49346
▁غضب	-8.49596
موت	-8.49634
▁نعمة	-8.49998
▁س	-8.50004
▁رجلا	-8.50474
▁قول	-8.50609
▁البر	-8.50662
▁السيف	-8.50732
▁يس	-8.50787
▁با	-8.50834
▁وقل	-8.50876
▁النار	-8.50987
بت	-8.51004
▁يعلم	-8.51139
▁بر	-8.51211
آ	-8.51219
▁أليس	-8.51487
▁بنيامين	-8.51505
▁بيد	-8.51938
▁ليد	-8.52132
▁الفضة	-8.52177
▁الاشرار	-8.52229
▁ونزل	-8.5225
▁علينا	-8.5235
فت	-8.52411
▁ابنا	-8.52592
قا	-8.52826
▁يفعل	-8.53096
سا	-8.53567
▁لانكم	-8.53614
▁ولل	-8.53625
▁الواحد	-8.53635
▁فقالت	-8.53726
▁جانب	-8.53751
▁عبيد	-8.53996
▁معا	-8.543
▁ز	-8.54328
وث	-8.54576
▁الجبال	-8.54577
▁يعرف	-8.5471
▁خير	-8.5473
▁تن	-8.54739
▁بنات	-8.55077
▁مكان	-8.5509
▁الآب	-8.55415
▁ارميا	-8.55543
▁فخرج	-8.55549
▁تابوت	-8.55715
▁وجهه	-8.55881
▁الشمال	-8.56076
وع	-8.56285
▁الجسد	-8.56339
▁سمعت	-8.56461
▁وما	-8.56503
▁اثم	-8.56554
▁فم	-8.56725
▁مات	-8.56909
▁ملاك	-8.57494
▁باسم	-8.57931
▁وح	-8.57959
▁ارام	-8.57978
▁اهل	-8.58205
▁مذبح	-8.58235
▁وهي	-8.58241
▁قلبي	-8.58241
▁رؤوس	-8.58335
▁الثاني	-8.5836
▁سر	-8.58364
سر	-8.58469
▁الحرب	-8.58511
▁فقد	-8.58553
عط	-8.5862
▁يوآب	-8.58634
▁است	-8.58636
▁خبز	-8.58722
▁لست	-8.58755
قض	-8.59096
▁بكر	-8.59181
▁فهو	-8.59227
▁جلعاد	-8.59263
▁سفر	-8.59342
▁تقول	-8.59519
▁يتكلم	-8.5956
از	-8.59802
▁ووضع	-8.59932
▁رأيت	-8.60235
▁الامر	-8.60246
مة	-8.6025
تين	-8.60331
وت	-8.60383
دم	-8.60599
▁حق	-8.60863
بة	-8.60919
▁يصنع	-8.61008
الآن	-8.6143
▁نار	-8.61596
جي	-8.61599
▁الهيكل	-8.6176
▁الجماعة	-8.6186
دا	-8.6187
▁اكل	-8.61933
▁اصعد	-8.62063
▁نفسك	-8.62107
▁واذ	-8.62276
صي	-8.624
▁آلاف	-8.62555
▁بسبب	-8.62592
▁يوجد	-8.62611
بع	-8.62982
هد	-8.63181
▁اولا	-8.63189
▁راسه	-8.63387
▁الموضع	-8.63428
▁وتكون	-8.63626
▁الس	-8.63668
اص	-8.63906
يئيل	-8.64146
▁فقام	-8.64372
▁وش	-8.64494
▁صموئيل	-8.64744
لا	-8.64793
▁خبزا	-8.64817
▁الوقت	-8.65109
▁سنين	-8.65557
▁آ	-8.65761
قص	-8.65957
▁بالسيف	-8.6596
▁ادوم	-8.65969
▁النهر	-8.66054
▁عوض	-8.66326
▁انهم	-8.66397
▁الانبياء	-8.66829
▁الع	-8.66868
▁معهم	-8.669
▁المحل	-8.66987
▁آلهة	-8.67138
بل	-8.6735
▁يموت	-8.67354
▁منس	-8.67519
▁كثير	-8.67568
▁الساكن	-8.67719
▁اللاويين	-8.67772
عشيرة	-8.67824
▁السامرة	-8.67833
وي	-8.67905
▁خذ	-8.67939
▁صعد	-8.68024
قب	-8.68063
كل	-8.68129
رض	-8.68287
▁الذهب	-8.68312
▁وادي	-8.6837
▁اعط	-8.684
▁المكان	-8.68601
▁اليهم	-8.68623
▁امه	-8.68652
▁وخرج	-8.68687
▁أمر	-8.68967
به	-8.69361
حل	-8.69484
▁ذراع	-8.69591
▁عني	-8.69691
لي	-8.69707
وح	-8.69722
▁فيكون	-8.69728
▁معكم	-8.69766
▁داخل	-8.70014
▁وضع	-8.7009
له	-8.70435
▁المدن	-8.70448
▁واقام	-8.70474
▁ير	-8.70657
▁قام	-8.71269
▁الج	-8.71381
▁حزقيا	-8.71522
▁اخبر	-8.71587
تكم	-8.7173
▁بهم	-8.71788
▁مياه	-8.71873
▁ملكوت	-8.72072
▁الق	-8.72269
رة	-8.72343
▁وهذه	-8.72496
▁مس	-8.72702
▁قم	-8.72777
▁ويل	-8.72892
يه	-8.7293
▁العظيم	-8.73172
▁الخطية	-8.73266
▁وصل	-8.73267
زل	-8.73568
▁الكل	-8.73628
▁تلاميذه	-8.7368
▁اب	-8.73708
▁الدم	-8.73797
▁اجعل	-8.74187
در	-8.74314
▁اربعة	-8.74333
▁را	-8.74384
▁ايل	-8.74696
▁الماء	-8.74784
مت	-8.74868
▁يوحنا	-8.75017
▁اخرى	-8.7503
هن	-8.75066
▁عينيك	-8.75099
▁المساء	-8.75115
▁وانتم	-8.7533
▁قتل	-8.75372
▁كلها	-8.75696
▁وهم	-8.75709
رق	-8.75822
سكن	-8.75894
▁يقدر	-8.75913
▁الجنوب	-8.75968
▁بالنار	-8.76008
لة	-8.76084
▁واسم	-8.76108
▁للملك	-8.76113
▁اخي	-8.76211
▁آبائهم	-8.76291
▁اخت	-8.76305
▁اولاد	-8.76537
▁فرح	-8.76665
لق	-8.76689
فا	-8.7681
▁اليها	-8.76827
▁عمون	-8.76889
▁الدهر	-8.76936
▁ساكن	-8.76951
▁اجاب	-8.7702
▁واجعل	-8.77064
▁الحياة	-8.77137
▁صور	-8.77316
عل	-8.77318
▁واعط	-8.77382
ذر	-8.77474
طي	-8.77815
▁لنفسه	-8.77919
جا	-8.77921
▁جعلت	-8.77929
▁عبد	-8.77998
▁وبيت	-8.78397
▁قوم	-8.78422
▁قل	-8.78609
في	-8.78744
▁الايمان	-8.78882
▁نفس	-8.78882
▁الاثم	-8.78887
ذل	-8.79186
هكذا	-8.79319
▁الليل	-8.79443
▁اسمع	-8.79751
اس	-8.7984
▁لنفسك	-8.79873
▁عز	-8.79914
▁الصد	-8.79977
▁وعن	-8.80038
▁احب	-8.80052
▁ترك	-8.80167
▁وصعد	-8.80297
قتل	-8.80301
▁يأكل	-8.80337
▁ومات	-8.8038
▁تر	-8.80495
▁عبيده	-8.8062
▁فقط	-8.80723
▁سلام	-8.808
▁الصباح	-8.80871
▁بحسب	-8.80949
▁فقالوا	-8.80959
▁مد	-8.80965
▁وخمس	-8.81037
قطع	-8.811
▁انكم	-8.81175
رك	-8.81203
تني	-8.81217
▁كثيرين	-8.81354
▁تخم	-8.81362
صد	-8.82039
▁والرب	-8.8213
▁بم	-8.82152
طا	-8.82179
شف	-8.8262
▁ذكر	-8.82711
▁وبين	-8.82725
رد	-8.82978
▁الثالث	-8.83026
▁يعطي	-8.83166
عت	-8.83173
▁تت	-8.83504
▁شعبه	-8.83606
حم	-8.83778
▁امامك	-8.83785
▁وقتل	-8.83842
ظل	-8.8391
▁انفسهم	-8.83938
▁وهذا	-8.83943
▁لو	-8.83985
دان	-8.84157
▁اعلم	-8.84284
▁تقدم	-8.84342
▁فعلت	-8.8454
▁وخ	-8.84674
مون	-8.84682
▁بقر	-8.84983
▁مقابل	-8.85008
▁الاله	-8.85116
▁السابع	-8.8512
وش	-8.85255
▁جسد	-8.85281
▁يطلب	-8.85391
▁وس	-8.85491
خل	-8.85791
ؤ	-8.85815
ورة	-8.85822
▁تصنع	-8.86152
▁انظر	-8.86208
▁اسمعوا	-8.8622
▁اع	-8.86241
▁اسحق	-8.86284
▁افعل	-8.86383
▁شعبك	-8.86496
روا	-8.86605
▁ار	-8.86643
آنية	-8.86645
▁حياة	-8.86645
▁بيوت	-8.86792
عي	-8.8688
▁ملكا	-8.8696
فق	-8.87062
▁كن	-8.87241
▁اعطيت	-8.87311
▁عظيما	-8.87492
جد	-8.87582
▁عينيه	-8.87665
▁تعلم	-8.87855
▁كرسي	-8.88045
ليكن	-8.88078
بنى	-8.88148
▁كنعان	-8.88172
▁الغنم	-8.882
▁وحده	-8.8832
▁ذراعا	-8.8834
لك	-8.88593
▁ابشالوم	-8.88662
▁مكانه	-8.88774
▁شرا	-8.88781
▁السبت	-8.89286
دوا	-8.89615
▁عهد	-8.89644
▁منها	-8.9031
▁ودعا	-8.90346
▁اذرع	-8.90537
▁فذهب	-8.90608
▁قالوا	-8.90652
▁مسكن	-8.90694
▁نحاس	-8.90908
قة	-8.91037
▁ارجع	-8.91428
▁مبارك	-8.91463
▁الرابع	-8.91464
رون	-8.91616
▁وعند	-8.91687
قوا	-8.91694
▁عيسو	-8.91741
▁تكلمت	-8.91831
هر	-8.91837
حت	-8.91878
▁وصنع	-8.91977
▁منكم	-8.92121
▁واقف	-8.92322
▁النساء	-8.92615
▁اس	-8.92654
زم	-8.92742
▁وعشرين	-8.9281
قسم	-8.92902
يع	-8.92916
تنا	-8.92997
▁يربعام	-8.93016
▁جماعة	-8.93109
▁ودخل	-8.93153
رف	-8.93154
خرج	-8.93261
▁بالرب	-8.93354
▁حول	-8.93519
ملك	-8.93626
▁سبي	-8.93631
▁نصيب	-8.93756
صا	-8.93851
▁ويقول	-8.93865
▁يوناثان	-8.93952
رام	-8.93972
▁المحرقة	-8.93976
▁المسكن	-8.93976
▁اذكر	-8.93983
▁تخرج	-8.94
سي	-8.94021
اق	-8.94024
▁ومع	-8.94155
▁بما	-8.94159
▁وأت	-8.94205
▁فقلت	-8.94208
▁كف	-8.9426
▁تعرف	-8.94357
نة	-8.94591
▁كنتم	-8.94726
▁الحي	-8.94734
▁والق	-8.94753
▁وهرون	-8.94898
▁الآخر	-8.95001
▁ايليا	-8.95025
▁فدخل	-8.95071
▁لد	-8.95089
فهم	-8.95309
صف	-8.95326
جم	-8.9553
وط	-8.95922
▁للم	-8.95923
▁والع	-8.96181
تان	-8.96229
اني	-8.96263
▁لبيت	-8.96286
اش	-8.96533
▁اخوته	-8.96544
▁اسمك	-8.96553
عن	-8.96564
▁فاذا	-8.96852
▁كثيرون	-8.97005
خجل	-8.97211
ضع	-8.9723
▁العلي	-8.97267
دين	-8.97283
▁نزل	-8.97376
▁تدخل	-8.97392
▁محرقة	-8.97393
▁وف	-8.97465
▁تكن	-8.97575
▁وعشرون	-8.97615
نحن	-8.97669
عظ	-8.97999
شب	-8.98123
طلق	-8.98158
▁شيوخ	-8.98403
▁وصار	-8.98431
▁ضرب	-8.9867
شر	-8.98932
▁ايديهم	-8.98996
ايا	-8.99001
عا	-8.99007
▁لجميع	-8.99019
عمل	-8.9903
▁القلب	-8.9909
▁مقدس	-8.99524
▁الاموات	-8.9961
▁الدار	-8.99642
▁حكم	-8.99716
جن	-8.9973
▁عدد	-8.99786
▁عشائرهم	-9.00058
▁امامه	-9.00061
▁قريب	-9.00084
ريح	-9.00128
ونها	-9.00333
▁كله	-9.00341
▁فدعا	-9.00495
▁اسباط	-9.0083
▁جيش	-9.00903
ره	-9.00918
▁قدس	-9.01313
▁تأكل	-9.0145
▁قوة	-9.01476
ئيل	-9.01482
ذبح	-9.0157
بون	-9.01627
▁ثيابه	-9.01754
خبر	-9.01819
رو	-9.0186
▁جاءوا	-9.01928
▁آتي	-9.0199
▁دائما	-9.02061
▁ضيق	-9.02242
▁امور	-9.0226
▁الكلمة	-9.0233
باب	-9.0238
▁امامي	-9.02441
طر	-9.02489
▁خشب	-9.02918
كسر	-9.03112
موا	-9.03129
▁الامور	-9.0329
▁صنعت	-9.03304
▁ينبغي	-9.03311
▁الغد	-9.03324
▁والارض	-9.03419
كيف	-9.03529
▁أم	-9.0361
▁فأ	-9.03821
أكل	-9.03826
اتي	-9.03858
يتها	-9.03941
▁محل	-9.03967
▁تفعل	-9.04005
▁خمسة	-9.04071
خت	-9.04502
▁لموسى	-9.04583
▁موضع	-9.04667
▁بصوت	-9.04685
ارة	-9.04717
▁نسل	-9.04982
▁والا	-9.05029
▁عنده	-9.05038
▁يعل	-9.05174
▁يرجع	-9.05232
رث	-9.05243
▁فال	-9.05328
▁ليست	-9.0542
▁رجع	-9.05453
ائي	-9.05481
يس	-9.05521
▁حقل	-9.05792
▁اخآب	-9.05864
هؤلاء	-9.05903
▁ثمر	-9.06401
وص	-9.06587
▁والب	-9.06607
▁حكمة	-9.06616
▁نصف	-9.0667
غي	-9.06757
▁قسم	-9.06806
▁قر	-9.06885
▁تع	-9.06983
▁اخ	-9.07006
▁امرأته	-9.07158
▁النهار	-9.07159
▁جميعا	-9.07276
▁يقولون	-9.07292
▁فصعد	-9.07316
ايضا	-9.07321
▁تأتي	-9.07397
رب	-9.0746
▁الب	-9.07481
ذهب	-9.07964
كثرة	-9.07975
▁تعمل	-9.08124
▁صاحبه	-9.0814
▁قدم	-9.08246
▁اعظم	-9.08475
▁فتكون	-9.08578
▁اياها	-9.08592
▁يب	-9.08925
▁المقدس	-9.08951
▁للذي	-9.0912
▁الش	-9.094
▁الح	-9.0942
▁سلطان	-9.09485
ائم	-9.09488
حد	-9.09566
▁يست	-9.09613
▁ورؤساء	-9.09806
▁آمين	-9.09817
حز	-9.09947
▁الهاوية	-9.1
▁ادخل	-9.10079
ولا	-9.10304
▁تقدمة	-9.10305
دت	-9.10319
▁لهذا	-9.10453
كف	-9.10544
▁آبائه	-9.10701
▁ابنة	-9.10714
▁يمين	-9.10942
▁ههنا	-9.1117
عر	-9.1118
▁سلاه	-9.11194
▁واخرج	-9.1139
▁الشرق	-9.11466
▁ط	-9.11489
غسل	-9.11514
▁امة	-9.11587
▁سيف	-9.11621
▁يرى	-9.11715
▁أل	-9.11751
ائل	-9.11804
▁ووقف	-9.11823
طلع	-9.11894
▁جاد	-9.1214
إ	-9.12399
قال	-9.12401
▁ش	-9.12502
▁يع	-9.12591
▁الملوك	-9.12601
▁لصوت	-9.12648
▁وقلت	-9.1271
دون	-9.12793
▁اطلب	-9.12865
▁وجهك	-9.13017
بقية	-9.13044
▁برية	-9.13083
▁معنا	-9.13122
▁بيده	-9.13159
▁ابواب	-9.13291
▁عبيدك	-9.13299
▁الجمع	-9.13325
▁طوب	-9.13393
▁وعبد	-9.13481
▁خيرا	-9.13541
▁اسمي	-9.13571
نظر	-9.13647
بن	-9.1372
▁طلب	-9.13793
وج	-9.13904
▁بجانب	-9.13917
▁الجليل	-9.13917
▁العهد	-9.1395
▁قدامه	-9.14037
▁يديه	-9.14048
▁نجس	-9.14105
▁بقية	-9.14192
▁المن	-9.14244
▁فب	-9.1437
جت	-9.1444
▁ليلا	-9.14442
▁يحب	-9.14553
▁وجهي	-9.14801
حمل	-9.14835
فرح	-9.1486
▁ورأ	-9.15009
▁قليل	-9.1525
▁شريعة	-9.15326
▁اقام	-9.1542
▁دار	-9.1543
▁واصعد	-9.15435
▁فضرب	-9.1554
▁هلم	-9.15581
ائه	-9.1564
▁وسمع	-9.15712
بط	-9.16038
▁جمع	-9.16171
عون	-9.16265
▁واس	-9.16288
▁يجد	-9.16418
▁مما	-9.16543
بيت	-9.16606
حفظ	-9.16754
▁يقبل	-9.16757
دعو	-9.16889
▁يجعل	-9.16902
▁قلوبهم	-9.16912
▁ابيك	-9.16943
▁اصنع	-9.1698
جاز	-9.17034
▁بيتك	-9.17042
▁سكن	-9.1706
▁فسمع	-9.17062
عم	-9.1711
سمع	-9.17144
سجد	-9.17171
▁نور	-9.17178
▁دانيال	-9.17189
حكم	-9.17205
▁الخير	-9.17247
▁يسكن	-9.17258
ونني	-9.17372
▁اثنا	-9.17443
دة	-9.17781
اث	-9.17781
▁اكون	-9.17843
▁لاوي	-9.17861
▁المس	-9.18025
خي	-9.1818
▁فصار	-9.18213
▁السجن	-9.18224
▁الخارج	-9.18265
▁رأوبين	-9.18453
▁اعمال	-9.185
▁وابن	-9.18572
▁دعا	-9.18596
▁يوما	-9.18657
طو	-9.18691
ذب	-9.18713
▁واخوته	-9.18758
▁اللذ	-9.18847
▁وست	-9.19406
بطل	-9.19522
▁معل	-9.19545
▁عمله	-9.19576
▁حجر	-9.19721
▁ربنا	-9.198
▁الأمر	-9.19861
حب	-9.19894
رى	-9.19898
▁فمه	-9.19964
▁فس	-9.201
▁بعضا	-9.20212
سكر	-9.20237
▁نوح	-9.20368
▁اول	-9.20379
▁عهدا	-9.20393
▁الحكمة	-9.20422
▁المر	-9.20575
▁صالح	-9.20599
▁يصعد	-9.2062
▁سمعوا	-9.2068
▁يقوم	-9.20771
ثمر	-9.20888
▁وجدت	-9.2096
▁لهما	-9.20996
تعب	-9.21093
▁العظيمة	-9.21111
▁يسلم	-9.21188
▁للشعب	-9.21215
▁يبق	-9.21234
▁ضد	-9.21255
▁قلوبكم	-9.21258
▁وات	-9.21276
▁اضطجع	-9.21305
▁بحر	-9.21322
ركب	-9.21328
▁ففعل	-9.21461
▁ثياب	-9.21495
▁كنا	-9.21525
▁ولدت	-9.21529
▁الصالح	-9.21531
▁وقالت	-9.21549
▁بارك	-9.21717
▁كرم	-9.21728
▁الرؤساء	-9.21894
▁دان	-9.22096
▁ورجع	-9.22139
▁وتكلم	-9.22187
▁حلف	-9.2219
▁يسمعوا	-9.22308
سحق	-9.22453
▁بينهم	-9.22646
▁شعوب	-9.22681
لم	-9.22715
أتي	-9.22716
▁وقف	-9.22741
▁المغنين	-9.22741
▁عين	-9.22756
▁محب	-9.22792
▁قائلة	-9.22801
▁حسن	-9.22823
صو	-9.22836
▁هيكل	-9.2288
شجرة	-9.22922
▁فأخذ	-9.22992
▁عشرين	-9.23503
▁تخف	-9.23509
▁ارسلني	-9.23517
فل	-9.23584
▁فمات	-9.23598
فعل	-9.23625
▁بعل	-9.2365
▁يأخذ	-9.23783
طل	-9.23821
▁عملت	-9.23907
▁وام	-9.24017
▁اعطي	-9.24043
▁بشر	-9.24068
▁تس	-9.24075
▁للحرب	-9.2422
▁وبر	-9.24225
▁بئر	-9.24227
▁اعرف	-9.24243
▁البقر	-9.24257
▁حر	-9.24313
▁يكلم	-9.24392
▁بكلام	-9.24403
▁انها	-9.24468
دع	-9.24487
▁نجسا	-9.24513
▁اياه	-9.24583
▁مرض	-9.24646
▁حامل	-9.24656
▁ابا	-9.2467
▁حبرون	-9.2473
▁أت	-9.249
ظهر	-9.2495
جع	-9.25208
▁العمل	-9.25418
بتهج	-9.25565
▁فل	-9.25644
دفن	-9.25783
▁الساعة	-9.25784
▁ليكون	-9.25832
▁خوف	-9.25844
▁ارسلت	-9.25853
▁الكلدانيين	-9.26036
▁وسبع	-9.26089
▁يقف	-9.26092
▁وسار	-9.26107
جمع	-9.26144
▁الفلسطينيون	-9.26146
هلك	-9.26192
▁سل	-9.26337
لو	-9.26364
▁فكلم	-9.26381
▁ابو	-9.26401
▁بان	-9.26639
سم	-9.26721
▁يذهب	-9.27017
مدخل	-9.27079
ائيل	-9.27254
▁وتصنع	-9.27463
▁يثبت	-9.27496
▁بعيد	-9.27545
▁ارفع	-9.27617
قرض	-9.27676
▁المت	-9.27805
▁وثلاث	-9.27826
▁يضع	-9.2783
▁ذبائح	-9.28029
لون	-9.2812
▁خل	-9.28152
▁الاولى	-9.28168
▁وبنات	-9.2837
وز	-9.28419
▁اناس	-9.28442
حمد	-9.2855
▁الريح	-9.28609
▁ونظر	-9.28617
دل	-9.28683
▁خرجت	-9.28687
مل	-9.28761
قلب	-9.28767
شار	-9.28778
▁مسح	-9.28836
▁رد	-9.28923
▁جمهور	-9.28982
▁صانع	-9.28983
▁القديسين	-9.29029
▁النفس	-9.2906
▁يخطئ	-9.29066
▁ويجعل	-9.29076
▁يهو	-9.29108
▁رحمته	-9.29124
رح	-9.29162
▁عرفت	-9.29319
▁لبنان	-9.29327
▁وحدث	-9.29352
▁صرت	-9.29397
▁مطر	-9.29448
▁تل	-9.29449
عز	-9.29514
▁اتكلم	-9.29563
▁الخبز	-9.29568
حيا	-9.29613
▁سمعان	-9.2975
أخذ	-9.29872
▁وبال	-9.29887
يوس	-9.30032
لبس	-9.30255
اربعين	-9.30351
▁الخامس	-9.30622
▁تدع	-9.30632
▁زمان	-9.30634
▁بالحق	-9.30634
▁وط	-9.30662
▁ابيمالك	-9.30662
▁اخيه	-9.30761
▁فاخبر	-9.30772
▁تعلمون	-9.30781
وئيل	-9.3082
▁الثلاثة	-9.30841
▁الآباء	-9.30843
كثر	-9.30929
▁فريض	-9.30948
▁يهلك	-9.30975
▁ونصف	-9.31026
▁بعضهم	-9.31031
جيب	-9.31237
▁مل	-9.3133
▁تنظر	-9.31332
▁خدمة	-9.31348
قد	-9.31447
▁يحفظ	-9.31465
▁عندك	-9.31502
قيم	-9.31604
▁وعبر	-9.31717
ارا	-9.31795
ذا	-9.31956
▁غضبه	-9.31973
▁ياكل	-9.3211
▁بكم	-9.32254
▁الاراضي	-9.32288
▁وبارك	-9.32294
▁اريحا	-9.32298
▁شهر	-9.32315
▁الفصح	-9.32325
▁تسمع	-9.32375
▁بجميع	-9.32443
▁السفينة	-9.32484
بغض	-9.32559
وة	-9.32614
قون	-9.32799
▁النور	-9.32812
سد	-9.3292
يلة	-9.32931
▁كاس	-9.33007
▁خطايا	-9.33074
▁نعم	-9.3315
▁السلام	-9.33213
▁عيون	-9.33252
▁لأ	-9.33293
فض	-9.33374
▁عصا	-9.33375
▁يهوشافاط	-9.33375
▁الجب	-9.3347
بشر	-9.33589
▁دور	-9.33604
سب	-9.33754
نطق	-9.33857
شعر	-9.33959
▁نبوخذن	-9.33983
▁مزمور	-9.33984
▁سريعا	-9.33984
▁فماذا	-9.33993
▁شكيم	-9.34002
▁فنزل	-9.34035
صرف	-9.3405
▁السبي	-9.34158
▁قو	-9.34181
▁تأخذ	-9.34278
▁عرف	-9.34449
▁يخبر	-9.34453
▁الملاك	-9.34478
▁اطلق	-9.34526
▁بنيه	-9.34545
▁واخبر	-9.3463
▁عبدي	-9.34686
شتر	-9.3482
▁دفع	-9.34827
▁خارجا	-9.34897
▁بع	-9.34916
▁فرجع	-9.34983
▁ورفع	-9.34993
مسك	-9.35081
▁وبني	-9.35087
▁كم	-9.35302
▁الههم	-9.35373
▁جئت	-9.35577
تكلم	-9.35587
▁عندكم	-9.35602
▁طريقه	-9.3568
▁الشريعة	-9.35709
▁الضيق	-9.35711
▁ألعل	-9.35728
▁البهائم	-9.35757
▁بس	-9.35757
▁الصبي	-9.35802
▁نساء	-9.35822
مه	-9.35874
▁انظروا	-9.35878
▁يؤمن	-9.35965
▁المصريين	-9.35976
▁وقو	-9.36047
▁عنك	-9.36096
▁ابوه	-9.36112
▁اجمع	-9.3612
▁غنم	-9.36201
▁الجيش	-9.36265
▁معرفة	-9.36275
▁ذو	-9.36363
▁فمي	-9.36375
▁سرور	-9.36628
▁شعبا	-9.36667
لع	-9.36867
قول	-9.36897
▁سيده	-9.36949
طلب	-9.36985
▁قدوس	-9.36991
مو	-9.3701
▁ظل	-9.3726
▁وولد	-9.37262
▁يستطيع	-9.37462
▁دمشق	-9.37462
▁التلاميذ	-9.37525
▁جلد	-9.37532
▁شبه	-9.37534
▁قبر	-9.37598
▁علمت	-9.37622
▁وز	-9.37634
▁سلم	-9.37675
▁حلم	-9.37691
▁ميخا	-9.37842
▁الر	-9.38107
▁عابر	-9.38163
طف	-9.38323
▁وقام	-9.38443
قط	-9.38453
▁حولي	-9.38524
▁تف	-9.3854
▁عامل	-9.38558
▁اعين	-9.38581
ء	-9.38655
▁ومت	-9.38681
قرية	-9.38733
▁اثنين	-9.38756
▁رفع	-9.38762
▁كلامي	-9.38764
ذكر	-9.38903
▁وبنيه	-9.3891
▁اجر	-9.38933
▁ارد	-9.39046
▁افكار	-9.39248
▁باشان	-9.39249
▁بسلام	-9.39254
▁سم	-9.39262
خزي	-9.39334
▁افضل	-9.39415
▁بد	-9.39437
▁يرفع	-9.39491
▁زرع	-9.39583
▁تذهب	-9.39628
▁ايدي	-9.39661
▁سار	-9.39689
▁حجارة	-9.39768
▁عد	-9.3977
زوج	-9.39831
▁تموت	-9.39951
مالك	-9.40077
▁ستة	-9.40166
▁مشور	-9.40368
▁الخمر	-9.40489
▁بينكم	-9.40571
باد	-9.40603
▁حسنا	-9.40711
▁طعاما	-9.4077
تقي	-9.40909
ادة	-9.40977
▁الص	-9.41004
▁نقي	-9.4104
▁لاسرائيل	-9.41066
يها	-9.41092
لح	-9.41168
▁عشائر	-9.41177
▁عنهم	-9.41187
▁المعز	-9.41194
▁المملكة	-9.41233
▁ايوب	-9.41243
▁وسكن	-9.41253
▁وادخل	-9.41265
▁الخيمة	-9.41285
▁ثورا	-9.413
▁آمن	-9.41348
▁ذاك	-9.41398
راء	-9.41451
بال	-9.41453
▁وعد	-9.41462
▁اباه	-9.41506
شهد	-9.41561
رش	-9.41567
▁مرات	-9.41568
متى	-9.4163
قدم	-9.4167
▁التراب	-9.41822
▁موت	-9.41922
▁الابن	-9.42
▁ثور	-9.42056
▁نير	-9.42066
▁شاقل	-9.42227
▁سأل	-9.42583
▁يرد	-9.42622
لامام	-9.42637
▁اوص	-9.42765
▁الجيل	-9.42984
خبار	-9.42995
▁بالروح	-9.4302
ضل	-9.43053
▁تح	-9.43064
▁نارا	-9.43069
▁يش	-9.43117
▁نهارا	-9.43155
▁اللاويون	-9.43158
دخل	-9.43207
▁قليلا	-9.43232
▁نج	-9.43243
▁يشرب	-9.43246
بوا	-9.4333
▁اذن	-9.43379
▁ابناء	-9.43383
▁وجلس	-9.43436
▁صراخ	-9.43487
▁والح	-9.43498
▁الظلمة	-9.43521
▁سور	-9.43556
▁علم	-9.43697
صير	-9.43706
▁اصل	-9.43842
▁ناموس	-9.43973
▁تذكر	-9.44118
▁وسطهم	-9.44199
▁آباء	-9.44511
طير	-9.44545
▁حن	-9.44604
▁تقولون	-9.44608
حسن	-9.44632
امة	-9.44644
قرأ	-9.44733
▁فصاعدا	-9.44804
▁يوشيا	-9.44805
▁انفسكم	-9.44809
ثق	-9.44811
▁اخطأ	-9.44822
▁خروج	-9.44891
▁عنها	-9.44926
▁بيلاطس	-9.4493
▁المجمع	-9.44936
▁اليشع	-9.45082
▁تقدر	-9.45115
▁حمل	-9.45118
قدر	-9.45195
مح	-9.45212
سقط	-9.45251
▁يسير	-9.45353
▁والس	-9.45372
▁ففي	-9.45465
▁السور	-9.45525
▁ألم	-9.45587
▁الرسل	-9.45587
▁ياتي	-9.45591
لقاء	-9.45668
▁ياهو	-9.45936
▁فما	-9.45936
▁يحل	-9.4595
ائر	-9.46019
للوقت	-9.46102
▁حل	-9.46104
قف	-9.46244
▁ابنير	-9.46249
▁نهر	-9.46492
▁وسب	-9.46586
هناك	-9.46638
ناثان	-9.46693
▁خلاص	-9.46699
خمسة	-9.46727
▁مردخاي	-9.46727
تقدس	-9.46733
▁لسان	-9.46744
فرز	-9.4675
▁ابتدأ	-9.4676
▁فهي	-9.46774
▁اراد	-9.46808
طول	-9.46812
▁فوجد	-9.46845
▁مريم	-9.46931
حو	-9.46937
▁فليس	-9.46968
▁العدو	-9.46992
▁ارتحلوا	-9.47013
▁تصير	-9.47025
▁زوجة	-9.47048
▁طعام	-9.47053
▁د	-9.47067
▁غدا	-9.47074
▁يقيم	-9.47123
ذين	-9.4714
▁وحي	-9.47184
▁مملكة	-9.47215
تموه	-9.47306
▁قربان	-9.47542
بس	-9.47589
▁شعر	-9.47609
أت	-9.47619
▁لمن	-9.47629
▁فتح	-9.47684
▁سن	-9.47703
شد	-9.47733
▁فكانت	-9.47764
▁السبعة	-9.47809
▁شاهد	-9.47852
نوح	-9.4788
بني	-9.47959
▁فهم	-9.47963
▁وسطها	-9.47965
يش	-9.4797
فك	-9.47982
▁وار	-9.48007
▁فخر	-9.48111
عود	-9.48115
▁فاعط	-9.48167
جوع	-9.48281
▁يطلبون	-9.48335
▁ايمان	-9.48452
▁الليلة	-9.48524
▁بالايمان	-9.48688
▁اليمنى	-9.48689
▁لانفسهم	-9.4869
▁الزمان	-9.48694
▁رجاء	-9.48697
▁حديد	-9.4871
▁صدقيا	-9.48721
▁الوادي	-9.48741
▁بأس	-9.48742
▁الاموريين	-9.48746
▁يترك	-9.48766
سير	-9.48827
▁الكبير	-9.48923
يات	-9.48986
▁فتقدم	-9.48999
▁واذهب	-9.49014
▁تعطي	-9.49032
حجارة	-9.4914
▁احفظ	-9.49198
شأ	-9.49275
▁اخو	-9.49359
▁الهه	-9.49447
▁صنعة	-9.49457
▁واربع	-9.49618
بو	-9.49732
▁فتعلم	-9.49751
صح	-9.49877
قوم	-9.49906
تعل	-9.49908
▁خمرا	-9.50064
عام	-9.50066
رس	-9.50223
▁جالس	-9.50272
شرب	-9.50313
اط	-9.50317
عوا	-9.50337
فتح	-9.5036
▁ذنب	-9.50383
▁حواليها	-9.50408
▁ويهوذا	-9.50458
▁سب	-9.50469
غيظ	-9.50478
▁لله	-9.50506
▁آسا	-9.50619
▁عيد	-9.50625
▁حقا	-9.50656
▁رحبعام	-9.50688
▁بزيت	-9.50689
▁اقوال	-9.50694
▁القائل	-9.50714
▁أف	-9.50742
▁ابرام	-9.50744
▁لرجل	-9.50836
عين	-9.50967
▁المحبة	-9.51003
▁فمك	-9.51228
▁ظهر	-9.51258
زا	-9.51287
سبح	-9.51297
شفي	-9.51371
▁رسلا	-9.51382
▁يكونون	-9.51387
تغرب	-9.51591
▁وثلاثين	-9.51603
▁المجد	-9.51652
كونوا	-9.51729
صوم	-9.51923
▁مج	-9.51941
▁وجمع	-9.52086
▁جن	-9.52224
وجه	-9.52334
▁ألا	-9.52347
بيع	-9.52564
▁محرقات	-9.5273
▁وآخر	-9.5273
لماذا	-9.52736
▁السفر	-9.52782
▁ابنك	-9.52787
▁اولئك	-9.5285
▁ولك	-9.52858
▁الكنيسة	-9.52873
▁الشهادة	-9.52878
▁بلعام	-9.52892
كشف	-9.52892
يون	-9.52919
▁بركة	-9.53141
▁بذهب	-9.53194
▁دعي	-9.53401
▁يدعى	-9.53443
▁صف	-9.53604
▁تعط	-9.53661
▁خزي	-9.53701
▁عندي	-9.53806
▁صاحب	-9.53823
مشي	-9.53836
▁شد	-9.53862
▁رجليه	-9.54006
▁تسع	-9.54123
▁حمو	-9.54295
▁ضربة	-9.54298
▁سائر	-9.54304
جز	-9.54539
▁رم	-9.54618
أتوا	-9.54626
▁سقط	-9.54638
▁اياما	-9.54694
▁فد	-9.5474
▁التخم	-9.54813
▁الثامن	-9.54819
▁الشيوخ	-9.54872
▁وقطع	-9.54955
▁تجعل	-9.5501
▁جند	-9.55097
▁البار	-9.55125
▁يصير	-9.55186
▁نسلك	-9.55209
▁وسطك	-9.5521
▁التابوت	-9.55227
▁يسمعون	-9.5528
▁بكثرة	-9.55301
▁الغرب	-9.5543
اؤه	-9.55433
▁ارضهم	-9.55538
بسط	-9.55574
ضايق	-9.55594
ثر	-9.55632
▁وقود	-9.55642
لف	-9.5573
▁وارض	-9.55838
▁وعشر	-9.55981
▁باطل	-9.56031
▁وطلب	-9.56101
▁رآه	-9.56117
حاكم	-9.56211
هب	-9.56222
▁ومجد	-9.5629
زرع	-9.56317
ملأ	-9.56495
▁جر	-9.56498
▁الينا	-9.56642
▁احكام	-9.56689
▁مست	-9.5682
▁وراءه	-9.56846
▁واعطي	-9.56864
▁انسانا	-9.56906
▁يهوياداع	-9.5694
▁ارتفع	-9.56941
▁نهاية	-9.56947
▁الصغير	-9.56948
▁لملك	-9.56998
▁تحب	-9.57125
▁وعاش	-9.57137
▁الغلام	-9.57139
▁الجالس	-9.57178
رتعد	-9.57182
▁نبي	-9.57189
▁الثانية	-9.57199
عال	-9.57273
تعظم	-9.57284
▁كلامك	-9.5731
▁ريح	-9.57335
قام	-9.57391
▁لابان	-9.57405
▁باسمي	-9.57511
سخط	-9.57682
▁عاد	-9.57755
▁عنكم	-9.57785
حور	-9.57866
▁نح	-9.57897
▁رائح	-9.57928
دن	-9.5793
شبع	-9.58049
▁يحمل	-9.58206
▁وانظر	-9.58245
▁اخاه	-9.58338
▁تخوم	-9.5834
▁ولو	-9.58345
خلاص	-9.58396
▁احدا	-9.58541
▁كسر	-9.58554
▁طاهر	-9.58672
جاع	-9.58714
▁يسقط	-9.58758
عبر	-9.5902
▁ومسارحها	-9.59114
▁ومسرحها	-9.59114
▁نعلم	-9.59122
▁اعدائي	-9.59125
▁يجب	-9.59161
▁الحجر	-9.59162
▁القفر	-9.59169
▁اخوتي	-9.59183
▁الشيطان	-9.59209
▁الغريب	-9.5927
حلف	-9.59292
▁سوف	-9.59294
▁كلهم	-9.59336
▁عبيدا	-9.59393
▁يسر	-9.59424
▁عبده	-9.59425
▁اليهودية	-9.59468
▁ترى	-9.59476
▁اختار	-9.59508
▁الآلهة	-9.59526
▁عينه	-9.59527
خو	-9.5954
▁احسن	-9.59553
▁مز	-9.59713
▁ثوب	-9.59773
▁روحي	-9.59804
▁الراس	-9.60012
دد	-9.60076
دوس	-9.60083
لد	-9.60278
▁السلامة	-9.60292
▁حرب	-9.60339
▁ظلم	-9.6035
▁قدامك	-9.60396
زهر	-9.60443
▁حد	-9.60473
▁نظر	-9.6057
▁أتى	-9.60591
▁واست	-9.60631
▁تسمعوا	-9.60654
فتش	-9.60676
▁ودفع	-9.60884
▁المش	-9.60897
▁خيل	-9.60919
▁ينظر	-9.61114
▁اش	-9.61229
▁وق	-9.61316
▁تعب	-9.61318
▁الكاتب	-9.61336
▁مركبات	-9.61337
▁سدوم	-9.61337
▁بالحري	-9.61341
▁الضربة	-9.61343
ضحك	-9.6135
▁فأتى	-9.61353
▁اسفل	-9.61357
▁جب	-9.6141
لتكن	-9.61427
▁وتجعل	-9.61434
▁فلن	-9.61502
▁ثانية	-9.61513
▁جديدة	-9.61599
▁بماء	-9.61602
▁اريد	-9.61604
▁جبعة	-9.61637
▁بدم	-9.61638
▁تتكلم	-9.61715
▁ضعف	-9.61736
▁يضرب	-9.61771
▁خبر	-9.61797
▁حواليه	-9.61814
▁طرقه	-9.61843
▁غنيمة	-9.61855
أما	-9.61858
▁الثور	-9.61877
▁خرابا	-9.61918
▁ميت	-9.62035
سكت	-9.62323
▁وسقط	-9.62638
قع	-9.62721
ئي	-9.63105
▁تعال	-9.63129
▁فهل	-9.63141
رسل	-9.63311
صلاة	-9.63339
▁خزائن	-9.63609
▁الآتي	-9.63624
▁باطلا	-9.63635
▁قائم	-9.63636
▁فاجتمع	-9.63655
▁جبال	-9.63703
▁وخذ	-9.63783
▁اقترب	-9.63805
▁ارضك	-9.63808
▁عم	-9.63815
فة	-9.63876
▁ثلاثين	-9.6388
▁يبصر	-9.63913
مطر	-9.63925
▁مش	-9.63936
▁خربة	-9.642
▁الغضب	-9.64202
▁يعط	-9.64222
▁تنبأ	-9.6426
▁ميراث	-9.64325
▁استير	-9.64362
▁وزنة	-9.64434
▁سا	-9.6457
غش	-9.64574
هرب	-9.64657
▁يصل	-9.64662
سلك	-9.64744
ودي	-9.64774
اكر	-9.64991
▁تطلب	-9.65
▁الكتاب	-9.65015
▁حال	-9.65029
▁كلمات	-9.65174
▁كر	-9.65199
ده	-9.65288
▁الاخ	-9.65384
عب	-9.65388
امير	-9.65498
▁شم	-9.65527
▁بار	-9.65556
▁قيل	-9.6562
▁ذبح	-9.65908
▁فرأ	-9.65931
▁الاقداس	-9.65935
▁كهنة	-9.65943
▁القدوس	-9.65952
▁يخلص	-9.65992
راس	-9.66028
▁الاولاد	-9.66242
▁ومعه	-9.66335
▁وصرخ	-9.66526
▁صل	-9.66569
▁تثبت	-9.66587
▁الخيل	-9.66591
▁الولد	-9.66596
▁يعود	-9.66686
▁مسر	-9.66758
▁خمر	-9.6678
▁القضاء	-9.668
▁شا	-9.66831
ساعد	-9.66892
▁ابد	-9.6699
▁وله	-9.67068
صنع	-9.67151
غرس	-9.67176
▁البشر	-9.67231
▁يعطيك	-9.67239
▁قف	-9.67554
▁رئيسا	-9.67599
▁يخ	-9.67641
▁ارت	-9.67659
▁اخذت	-9.67695
▁بنين	-9.67777
▁سلامة	-9.68075
حمق	-9.68129
حينئذ	-9.68183
▁نذر	-9.68225
▁المرتفعات	-9.68315
▁وقراها	-9.68322
▁اشهر	-9.68334
▁راسي	-9.6834
▁القبر	-9.68393
▁الز	-9.68397
كن	-9.68407
▁يجلس	-9.68507
▁تش	-9.6851
▁آية	-9.6852
▁بهذه	-9.68531
▁دعوت	-9.68544
▁وفر	-9.68544
▁صوته	-9.68558
▁ياخذ	-9.68561
▁وامر	-9.686
▁اكتب	-9.68621
▁اللحم	-9.68686
ذلك	-9.68694
▁اشير	-9.68697
▁فسقط	-9.68706
▁الواحدة	-9.68745
▁النحاس	-9.68748
▁ابدية	-9.68773
رفع	-9.6887
▁كلاهما	-9.68903
▁هامان	-9.68972
▁بالاق	-9.68981
▁لهرون	-9.68983
▁اشعياء	-9.68984
▁حيوان	-9.69016
▁يعد	-9.69032
جو	-9.69053
▁ارى	-9.69058
▁ويع	-9.69072
▁ابصر	-9.69078
▁معها	-9.6915
فطن	-9.69168
ميت	-9.69251
خضع	-9.69511
▁جسده	-9.69652
▁اجتمع	-9.69741
يرة	-9.69827
▁وسجد	-9.69845
▁وعز	-9.69847
▁وتخ	-9.6987
صنا	-9.69918
▁يمسك	-9.69993
وقد	-9.70112
▁قط	-9.7013
▁ملكه	-9.70178
▁فارس	-9.70378
▁كتاب	-9.70442
▁تعملوا	-9.70471
▁اعد	-9.70475
▁عملها	-9.70493
دهن	-9.70536
▁المعدود	-9.70681
▁ارضه	-9.70691
الكهنة	-9.70694
▁المسكونة	-9.70755
▁اقداس	-9.70755
▁وبيوت	-9.70757
▁واحرق	-9.7076
▁لنفسي	-9.70762
▁ملعون	-9.70775
▁مضى	-9.70789
▁وصية	-9.708
▁واورشليم	-9.70831
▁غلام	-9.7085
▁فصرخ	-9.70924
▁وحل	-9.70936
▁وكبش	-9.7094
كذلك	-9.71025
▁هيرودس	-9.71113
▁يعبر	-9.71162
▁راحيل	-9.71178
▁وبقي	-9.71179
▁اوصيك	-9.71185
▁يحسن	-9.71186
▁وصاياك	-9.71309
▁اسماء	-9.7143
▁نفتالي	-9.71551
▁فانا	-9.71633
▁لستم	-9.71786
لوا	-9.72124
▁يدعو	-9.72132
مسح	-9.72179
لذبيحة	-9.72214
▁خمسين	-9.72219
مجد	-9.7232
▁فيكم	-9.72357
قبض	-9.72381
▁الفهم	-9.72437
ؤمن	-9.72477
▁ينزل	-9.72547
▁ومس	-9.72576
▁برج	-9.72607
قضاء	-9.72651
▁سبق	-9.72757
▁يم	-9.72784
▁ترجع	-9.72814
دفع	-9.72835
▁شاقلا	-9.72979
▁البكر	-9.73139
صعد	-9.73141
▁كالب	-9.73148
▁الجلجال	-9.73254
▁اسماعيل	-9.73254
▁ويعقوب	-9.73254
▁بغتة	-9.73255
▁انبياء	-9.73259
▁انفسنا	-9.73263
▁اذهبوا	-9.73353
▁بالكذب	-9.73369
▁ثماني	-9.73464
▁واسحق	-9.73583
▁كوش	-9.73612
▁ولكل	-9.73635
▁فمض	-9.73636
▁عدل	-9.73677
▁النعمة	-9.73696
▁مح	-9.73744
خبز	-9.73823
▁يرسل	-9.73825
ذي	-9.73869
▁يطلق	-9.73949
▁وتر	-9.73968
▁والف	-9.73983
لذلك	-9.74017
▁وصوت	-9.74055
▁صباحا	-9.74209
▁غضبي	-9.74226
▁غل	-9.74285
▁اجد	-9.74293
▁وخمسين	-9.74324
▁طرف	-9.74349
▁رفعت	-9.74389
▁وثلاثون	-9.74406
▁يخل	-9.74453
▁سمعتم	-9.74518
جري	-9.7452
سوا	-9.74584
لام	-9.746
سق	-9.74622
▁فات	-9.74632
▁الاثني	-9.74658
▁الرئيس	-9.7499
▁امامهم	-9.75005
▁شرك	-9.7504
حث	-9.75054
كذب	-9.75117
رخ	-9.75131
▁السحاب	-9.75286
شاي	-9.75311
▁وذبح	-9.75437
▁واب	-9.75519
▁بالع	-9.75541
▁اصغ	-9.75569
▁اصاب	-9.756
▁يف	-9.75631
▁والي	-9.75707
ضرب	-9.7577
فين	-9.75782
▁البعل	-9.75811
▁بشيء	-9.75821
قضيب	-9.75825
▁مزمع	-9.75827
▁وبنوه	-9.75832
بائس	-9.75838
▁اسلم	-9.75844
شور	-9.75877
▁دخلت	-9.75878
▁بكلمة	-9.75925
▁مخل	-9.75959
▁لشعب	-9.75983
▁الاشياء	-9.7605
▁اسرع	-9.76176
▁فهرب	-9.76185
▁المشرق	-9.76209
شكر	-9.76218
ائك	-9.76244
▁يقر	-9.763
▁التقدمة	-9.763
▁الجاهل	-9.76402
لين	-9.76485
▁فوقف	-9.76628
▁لملوك	-9.76681
▁واع	-9.76736
▁وزن	-9.76894
▁وحمل	-9.77097
▁ويد	-9.77108
▁حو	-9.7721
▁نصب	-9.77211
▁تجد	-9.77273
▁الجوع	-9.77279
خفي	-9.77298
▁حدث	-9.77308
▁بنفس	-9.7739
▁وسمعت	-9.77426
نت	-9.77474
▁رحمة	-9.77496
نقذ	-9.77506
▁كس	-9.7756
▁لعل	-9.77672
حضر	-9.77779
▁طرق	-9.7781
▁سخط	-9.77813
▁دقيق	-9.77994
▁سمعنا	-9.78066
▁تعد	-9.78183
▁حزن	-9.78184
▁بلاد	-9.78267
▁لانفسكم	-9.78451
▁القتال	-9.78454
▁وسكان	-9.78455
▁ملتوت	-9.78457
▁ذاهب	-9.78461
ذهاب	-9.78471
بين	-9.78475
▁محبة	-9.78478
▁رحمتك	-9.7851
▁واللاويين	-9.78513
▁امامكم	-9.78516
▁آكل	-9.78518
▁الغرباء	-9.78583
▁مدينته	-9.78655
انه	-9.78661
▁الجموع	-9.78698
▁الابواب	-9.78699
▁مبغضي	-9.78701
▁فاخرج	-9.78712
فسد	-9.78755
▁يبغض	-9.78969
▁وأمر	-9.7898
▁شهادة	-9.78983
▁يحيا	-9.78989
▁ووجد	-9.79021
▁ذنوب	-9.79049
▁حارس	-9.7908
▁كتب	-9.79091
▁ورأيت	-9.79136
غرب	-9.79148
▁عدا	-9.7919
▁يقطع	-9.79312
▁فرائض	-9.79363
▁بط	-9.79374
▁وكتب	-9.79476
▁كامل	-9.79522
هلاك	-9.79547
رجعوا	-9.79559
▁دعوا	-9.79601
▁قالت	-9.79648
▁فرق	-9.7969
▁فدع	-9.79691
▁سك	-9.79698
▁اخوة	-9.79709
▁يطرد	-9.79919
▁وغش	-9.79975
شير	-9.80025
▁قرون	-9.80038
▁جاءت	-9.8004
▁طول	-9.80141
صفح	-9.80186
▁كتبت	-9.80241
▁وخمسون	-9.80372
زرا	-9.80411
▁فاذ	-9.80468
▁ذي	-9.80553
▁يأكلون	-9.80579
حراسة	-9.80617
خير	-9.80641
وزن	-9.80693
▁وشرب	-9.80717
زر	-9.80759
▁زيت	-9.80827
▁وغ	-9.80923
هو	-9.80961
▁عهدي	-9.80973
متلك	-9.81004
قدس	-9.81034
▁كلامه	-9.81042
▁جبابرة	-9.81153
▁واسرائيل	-9.81153
▁القدير	-9.81154
▁قادش	-9.81155
▁فخذ	-9.81158
رسالة	-9.81163
▁اترك	-9.8117
▁وابتدأ	-9.81177
▁الجلد	-9.81179
▁الرامة	-9.8119
▁طرح	-9.81208
▁بيسوع	-9.81214
▁الحكماء	-9.81215
▁المسكين	-9.81228
▁مجده	-9.81319
▁كاهن	-9.81383
▁يحسب	-9.81385
▁الحكيم	-9.81407
▁جبعون	-9.8144
▁الملائكة	-9.81456
سأل	-9.81489
▁الكنعانيين	-9.8167
تقدم	-9.81673
▁آذان	-9.81725
▁بفرح	-9.81735
▁عبدا	-9.81778
فحص	-9.81783
▁الابدية	-9.81787
▁يفرح	-9.81799
تمرد	-9.81853
▁وشم	-9.81882
شون	-9.81887
فرس	-9.81997
▁اعمل	-9.82034
▁جمال	-9.82109
▁الكذب	-9.8214
▁هما	-9.82168
تقد	-9.82224
▁شق	-9.82237
▁عدو	-9.82566
▁وسل	-9.82571
▁لوط	-9.82632
▁ورد	-9.82702
▁اسأل	-9.82885
▁قطع	-9.82921
▁بيتا	-9.82997
▁ابوابك	-9.83014
اصم	-9.83024
▁الظلم	-9.83042
▁ارسله	-9.83065
▁فش	-9.831
▁مقدسة	-9.83214
▁صلب	-9.83317
▁وخر	-9.8349
▁المستقيم	-9.83498
▁الثالثة	-9.83588
▁حم	-9.83593
▁عيب	-9.836
▁عشب	-9.83873
ضطهد	-9.8391
▁حشبون	-9.8393
▁مذابح	-9.8393
▁زبولون	-9.83931
▁امصيا	-9.83934
▁خادم	-9.83937
▁ومضى	-9.83941
▁مديان	-9.83942
▁جدعون	-9.83943
▁شمعون	-9.83945
▁حماة	-9.83947
عمق	-9.83956
▁نازل	-9.8397
▁خراف	-9.83971
▁تترك	-9.83987
▁الوحش	-9.84066
▁انقذ	-9.84095
تواضع	-9.84201
قاد	-9.84206
▁تصعد	-9.84244
▁يسأل	-9.84267
▁واكثر	-9.84269
▁ممالك	-9.84275
▁طوله	-9.84281
▁يفتح	-9.84392
▁بحد	-9.84421
▁يأتون	-9.84466
▁وقع	-9.8448
▁تحمل	-9.84489
▁تخافوا	-9.84499
▁ساعة	-9.84509
▁يظهر	-9.84515
وضع	-9.8452
▁يغسل	-9.84609
▁صادق	-9.84609
▁وحق	-9.84638
▁يفهم	-9.84694
▁صرخ	-9.84716
الفضة	-9.84728
▁اضع	-9.84804
▁وابي	-9.84824
▁واعطاه	-9.84929
▁وحارب	-9.84966
▁برجل	-9.84971
▁ارز	-9.85164
▁وولدت	-9.8518
▁بماذا	-9.85189
▁وسجدوا	-9.85318
▁كذب	-9.85338
▁سبب	-9.85365
▁جالسا	-9.85384
▁حمي	-9.85386
عوج	-9.85386
▁سبت	-9.85643
اطفال	-9.85661
▁عالي	-9.857
▁اخوتهم	-9.85784
▁واله	-9.85794
تاج	-9.85836
طار	-9.8584
▁بدون	-9.85953
▁السبع	-9.85956
ولي	-9.86104
▁منظر	-9.86277
▁انزل	-9.86287
فني	-9.86334
▁تحفظ	-9.86418
▁وتحت	-9.86636
طين	-9.86647
▁يونان	-9.86766
▁لابراهيم	-9.86788
▁الاحياء	-9.86788
▁آحاز	-9.86788
▁لبعض	-9.86789
▁الفقير	-9.86792
▁حاشا	-9.86804
▁فسأل	-9.86805
▁يزرعيل	-9.86805
▁يمكن	-9.86808
▁وملوك	-9.86811
▁وسي	-9.86835
▁يتبع	-9.86916
▁والشعب	-9.86926
▁واضطجع	-9.86931
ريب	-9.86933
▁رجعت	-9.86963
▁للانسان	-9.86973
▁غريب	-9.86996
▁الحصاد	-9.87022
▁در	-9.87063
عيد	-9.87081
▁المصفاة	-9.87099
▁زكريا	-9.87103
▁ويأخذ	-9.87112
▁علامة	-9.87116
▁وتقدم	-9.87118
▁حياته	-9.87234
▁يدع	-9.87255
▁وذبائح	-9.87303
▁وامسك	-9.8733
▁اخطأت	-9.87404
▁القاتل	-9.87414
▁الاسد	-9.87624
▁عر	-9.87647
عش	-9.8767
▁رمم	-9.87705
▁يعرفون	-9.87726
كتب	-9.87782
▁وصاياه	-9.87822
▁يبني	-9.87822
▁آخذ	-9.87916
شديد	-9.88158
▁حفر	-9.88178
▁ودفن	-9.88342
▁ويش	-9.88479
▁كاملا	-9.88567
عان	-9.88639
▁بنا	-9.88715
▁عملا	-9.88725
▁واخي	-9.88772
حكمة	-9.88793
مين	-9.88826
▁مستقيم	-9.88836
▁الصخر	-9.88858
ربط	-9.88866
ثوب	-9.89029
▁رؤوسهم	-9.89033
فتخر	-9.89061
▁رعب	-9.89188
▁دما	-9.89251
▁حص	-9.89256
علمون	-9.89372
▁يتكلمون	-9.89433
▁قوته	-9.89454
▁يفن	-9.89461
▁الزيت	-9.8948
رئيس	-9.89484
▁مشيئ	-9.8961
▁وفرح	-9.89694
دائرة	-9.89736
▁والحق	-9.89745
▁اوريا	-9.89749
▁سو	-9.8976
جيش	-9.89778
امتعة	-9.89782
▁رجس	-9.89806
▁واوص	-9.89839
▁للرجل	-9.89845
ابل	-9.89895
▁اقسم	-9.89903
شاة	-9.89909
▁مرتفعات	-9.89947
فون	-9.89949
▁الرؤيا	-9.90028
▁وتقول	-9.90053
▁الرداء	-9.90059
▁احببت	-9.90062
▁شمشون	-9.9009
▁غش	-9.90091
▁وعر	-9.90095
▁فكل	-9.90132
ائهم	-9.90138
▁وسطكم	-9.90209
▁وزيت	-9.90227
▁تعود	-9.90265
اثنان	-9.90272
▁ارجعوا	-9.90273
▁تهلك	-9.90293
▁هرب	-9.90327
▁حفظ	-9.90338
▁عيناك	-9.90433
عاقب	-9.90435
▁ونح	-9.90463
▁تضع	-9.90471
▁كرسيه	-9.9052
نبت	-9.90521
ذنب	-9.90596
▁وحسب	-9.90613
ترنم	-9.90645
مثال	-9.90672
▁قدر	-9.90688
▁ابديا	-9.90693
▁واقفا	-9.90809
▁فرائضي	-9.90852
حارب	-9.9086
▁بيتي	-9.90888
الة	-9.90918
صبر	-9.90977
▁ذات	-9.90992
▁جو	-9.90993
▁الكتب	-9.91007
▁شهود	-9.91037
راري	-9.91084
▁نصيبا	-9.91103
▁وقلب	-9.91226
العشرين	-9.91278
▁وملأ	-9.91319
▁فانت	-9.91423
لعنة	-9.91486
▁شرب	-9.91584
▁طلبت	-9.91591
حطم	-9.91594
▁لحما	-9.91641
▁اصحاب	-9.9166
▁عشرون	-9.91705
زعج	-9.91811
▁قدسه	-9.91822
▁ميراثا	-9.91833
فلت	-9.91848
مجيء	-9.91885
▁شبا	-9.91913
▁اثني	-9.92049
▁بري	-9.92054
قيل	-9.92103
▁يقدم	-9.92112
اهما	-9.92151
▁اذني	-9.92275
سور	-9.92277
▁السر	-9.9234
▁احت	-9.92367
▁واربعين	-9.92404
▁يغ	-9.92418
▁ومل	-9.92572
▁فيقول	-9.92588
قيامة	-9.92602
▁باسمك	-9.92625
وهما	-9.92631
▁عماليق	-9.92759
▁ليعقوب	-9.92759
▁وعجائب	-9.92759
▁اجتاز	-9.92759
▁اشجار	-9.92759
▁فولدت	-9.92762
▁فهذا	-9.92767
▁اخزيا	-9.9277
▁سعير	-9.92786
جدليا	-9.9279
▁سيحون	-9.92791
▁آيات	-9.92802
▁مخدع	-9.92875
▁آت	-9.92901
طعم	-9.92917
▁استيقظ	-9.92929
▁فاسمع	-9.93
▁بقي	-9.93001
▁اعدائهم	-9.93044
وكم	-9.9312
▁فدور	-9.93123
▁بالله	-9.93187
▁يوآش	-9.93208
▁امي	-9.93213
▁والذهب	-9.93274
▁المعرفة	-9.93281
▁اوصيت	-9.93351
▁واقطع	-9.9336
▁حوله	-9.93389
قهات	-9.93412
وحوش	-9.93413
▁اشتر	-9.93452
▁اسوار	-9.93489
▁يحكم	-9.93506
▁فعمل	-9.93556
▁ولت	-9.9356
▁تقوم	-9.93649
▁مسيح	-9.93683
راقب	-9.93708
▁وامه	-9.93728
▁حكيم	-9.93809
▁رأت	-9.93832
▁واربعون	-9.93889
▁اكمل	-9.94009
▁واسمع	-9.94147
▁وترك	-9.94197
▁الحجارة	-9.94207
طاع	-9.94213
فرق	-9.94214
▁ويو	-9.94366
▁سارة	-9.94397
▁عار	-9.94453
▁صادوق	-9.94521
▁جوع	-9.94548
قمر	-9.94604
▁ثلث	-9.94629
كما	-9.94636
▁فضلا	-9.94654
▁ولاجل	-9.94696
طال	-9.94707
▁تشدد	-9.94727
▁الفلسطيني	-9.94734
سخ	-9.94745
فكر	-9.94856
▁جميعكم	-9.94953
ازار	-9.95038
بلغ	-9.95108
▁جلس	-9.95148
▁فقل	-9.95204
▁نبو	-9.9532
آب	-9.95355
▁عالم	-9.95363
▁ترون	-9.9539
▁ويس	-9.95414
▁السابعة	-9.95445
▁رجلي	-9.95535
▁مساكن	-9.95583
كتان	-9.95679
▁اخوك	-9.95877
▁آبائنا	-9.95884
▁لفرعون	-9.95884
▁عجائب	-9.95884
▁الوسط	-9.95889
▁سيناء	-9.95891
▁للامم	-9.95891
▁الوعر	-9.95895
▁رديء	-9.95897
▁البن	-9.95898
▁آخرين	-9.95907
▁وسم	-9.95907
▁الشحم	-9.95926
▁العدل	-9.9593
لاحظ	-9.95934
▁وكسر	-9.9595
▁غز	-9.96053
▁الخطايا	-9.96095
▁الحال	-9.96098
▁وانقذ	-9.96125
▁الحنطة	-9.96145
▁قتلى	-9.96148
▁ولبني	-9.96167
▁يزيد	-9.96192
▁وبقر	-9.96216
▁الحائط	-9.96237
▁فوضع	-9.96238
لواتي	-9.96239
▁الفتاة	-9.96241
▁عظم	-9.96266
▁فرفع	-9.96298
جاوب	-9.96336
ستعبد	-9.96369
▁ملأ	-9.9638
▁ويخرج	-9.96386
▁تز	-9.96451
▁يذكر	-9.96457
▁قا	-9.96461
▁اعينكم	-9.96468
▁بنوه	-9.96503
▁وكن	-9.96511
ساق	-9.96545
نذر	-9.96585
▁ويعطي	-9.96589
▁برص	-9.96607
▁للموت	-9.96617
▁وكثير	-9.9662
▁اقيم	-9.9663
▁لتكون	-9.96642
▁آبائكم	-9.96669
▁صخرة	-9.96675
جة	-9.96696
▁تقتل	-9.96779
▁ورجل	-9.96786
▁دع	-9.96851
عرض	-9.96856
▁تاكل	-9.96887
▁عيونهم	-9.96905
▁عينا	-9.97015
كلم	-9.97097
▁الخلاص	-9.97209
سى	-9.97297
▁كي	-9.97303
▁وراءهم	-9.97361
تحول	-9.97421
تموني	-9.97488
▁سبل	-9.97574
نتقم	-9.97575
اخذ	-9.978
داس	-9.97863
خطف	-9.97901
▁دمه	-9.97901
▁صعدت	-9.97919
سنة	-9.97922
▁رحم	-9.97927
جعل	-9.97962
▁اعداء	-9.97968
وقف	-9.97971
▁نجسة	-9.97977
▁فج	-9.98188
▁مملوء	-9.98192
▁فانك	-9.98345
بعد	-9.98347
غني	-9.98429
▁وابنا	-9.98643
▁اعدائك	-9.98648
▁اتكل	-9.98728
▁تقل	-9.98739
▁تعرفون	-9.9875
▁وتن	-9.98751
▁نفوس	-9.98832
▁الكثير	-9.98833
▁جت	-9.98918
▁خر	-9.99036
▁خائف	-9.99095
ملاك	-9.99108
نبوخذراصر	-9.9911
▁احشويروش	-9.9911
▁ابليس	-9.99111
▁خيمته	-9.99111
▁وبنيامين	-9.99111
▁يهوياقيم	-9.99111
▁فراش	-9.99115
▁الوراء	-9.99122
▁اقصى	-9.99123
▁رسول	-9.99125
▁قورح	-9.99129
▁شديدة	-9.99135
اغصان	-9.99136
▁شحم	-9.99156
تمجد	-9.99181
▁واللاويون	-9.99243
▁لابن	-9.99349
▁واض	-9.99362
السهل	-9.99385
قه	-9.99412
اغفر	-9.9942
▁الحيوانات	-9.99455
▁اخوتكم	-9.995
▁وجوههم	-9.995
▁ينقذ	-9.9952
▁ويت	-9.99545
▁ويعمل	-9.99627
▁الوجوه	-9.99634
▁اخترت	-9.99658
▁جسدي	-9.99669
▁وطرح	-9.99724
▁يلبس	-9.9973
▁فتن	-9.9975
اماكن	-9.99752
▁الظلام	-9.99763
▁اهلك	-9.99787
▁ايامه	-9.99813
▁مراري	-9.99858
▁ليعمل	-9.9986
▁اكليل	-9.9995
▁امك	-9.99984
▁النجس	-10.0002
▁الكثيرة	-10.0003
▁وعلم	-10.0005
▁يجر	-10.0008
▁تحي	-10.0018
▁وعاد	-10.0023
كث	-10.0026
قضى	-10.0028
بث	-10.003
▁تجار	-10.003
▁ناد	-10.0032
ترس	-10.0035
▁ضربت	-10.004
▁اجتمعوا	-10.0069
▁غنى	-10.0073
▁حط	-10.0073
غير	-10.0083
صيد	-10.0087
▁شي	-10.0088
▁وانظروا	-10.0089
نجس	-10.0094
منون	-10.01
▁ولماذا	-10.0105
▁لج	-10.0116
▁قربانه	-10.0116
▁تراب	-10.0125
▁المح	-10.0128
▁اعينهم	-10.0139
▁وحش	-10.0153
قش	-10.0174
لآخر	-10.0188
▁اصنام	-10.0191
ربض	-10.0194
▁تم	-10.0207
▁ولست	-10.0209
▁قتلا	-10.0215
▁امم	-10.0219
دور	-10.0223
متحن	-10.0225
▁المكتوب	-10.0244
▁ملآن	-10.0244
▁كباش	-10.0244
▁الانهار	-10.0245
▁حضن	-10.0245
▁الصبح	-10.0245
▁كاذب	-10.0245
▁الجهال	-10.0245
▁بقوة	-10.0245
▁فرغ	-10.0247
▁بخورا	-10.0247
▁العرش	-10.0248
▁الكاس	-10.0248
▁حلقيا	-10.0248
▁قصور	-10.0249
▁الانجيل	-10.025
▁عظام	-10.0253
▁وخمر	-10.0257
▁واخت	-10.0258
سائر	-10.0262
▁اج	-10.0263
▁والآخر	-10.0264
▁الرعاة	-10.0266
▁العاشر	-10.0268
▁ظلام	-10.0271
▁وحدي	-10.0273
توكل	-10.0274
▁صوتا	-10.0278
نير	-10.028
▁وصايا	-10.0286
تراء	-10.0292
▁فاعلم	-10.0294
▁تسقط	-10.0294
▁يهرب	-10.0295
زيد	-10.0298
نادى	-10.0303
▁ايديكم	-10.0306
▁الباقين	-10.0306
خيل	-10.0306
▁يدعون	-10.0307
يعزر	-10.0311
▁فضل	-10.0316
▁ويرد	-10.0319
▁الزيتون	-10.0328
ويل	-10.0336
مئة	-10.0338
ولد	-10.0341
▁وكال	-10.0342
جرب	-10.0352
▁جز	-10.0352
البركة	-10.0364
▁غر	-10.0366
طارد	-10.0372
▁تست	-10.0372
▁يحملون	-10.0373
▁اعماله	-10.0373
▁تلاميذ	-10.0387
صمت	-10.0398
▁الوف	-10.0398
▁السحابة	-10.0401
فس	-10.0402
▁الحر	-10.0406
غار	-10.0414
▁الاربع	-10.0415
▁اجرة	-10.0416
▁اخيك	-10.0416
▁عال	-10.0422
▁شمعي	-10.0425
حرس	-10.0429
▁حفظت	-10.043
▁سبا	-10.0433
ورش	-10.0448
▁الاربعة	-10.0457
مدينة	-10.0457
تمسك	-10.0459
▁وشر	-10.0462
فصل	-10.0462
▁بق	-10.0464
▁عش	-10.0467
▁حكيما	-10.0471
مته	-10.0472
▁وحص	-10.0476
▁صحيحا	-10.0483
▁اد	-10.0484
▁ورجاله	-10.0496
مائدة	-10.0504
▁لبنا	-10.0508
▁محر	-10.0531
نفخ	-10.0551
دموع	-10.0551
▁يريد	-10.0554
وبخ	-10.0558
▁ابر	-10.0563
وبة	-10.0584
هوشع	-10.0584
▁قريبه	-10.0584
▁ساق	-10.0584
▁شيلوه	-10.0589
▁البئر	-10.0589
▁اقاصي	-10.0589
▁القلوب	-10.0589
▁الوصية	-10.0589
▁ويوحنا	-10.0589
▁اقبل	-10.059
▁ترنيم	-10.0591
عيش	-10.0592
▁ثمانية	-10.0592
ائد	-10.0593
▁قضاء	-10.0593
▁تعليم	-10.0597
▁توجد	-10.0608
▁فاقام	-10.0609
▁حمار	-10.0611
▁الفريسيون	-10.0612
▁نفسها	-10.0613
▁ابينا	-10.0613
▁قوي	-10.0614
▁قرع	-10.0614
▁وابنه	-10.0615
▁ويوقد	-10.062
▁فكم	-10.0626
▁عاي	-10.0626
▁بغضب	-10.0627
▁النازل	-10.0632
▁فيلبس	-10.064
▁نظرت	-10.0642
▁تشرب	-10.0643
▁الد	-10.0644
▁عليهما	-10.0647
▁حقول	-10.0648
▁يشبع	-10.065
▁وضعت	-10.0651
▁افتح	-10.0655
▁رفض	-10.066
▁جناح	-10.0663
▁المطر	-10.0665
▁وقر	-10.0666
▁زب	-10.0668
▁يعملون	-10.0669
▁بيدك	-10.067
▁جد	-10.0673
▁صغير	-10.0685
▁رؤيا	-10.0687
▁وامام	-10.069
▁أر	-10.0693
فتحت	-10.0697
▁اثما	-10.07
▁اجلس	-10.0702
اؤك	-10.0727
▁الشرط	-10.0731
▁رجلها	-10.0738
تقوى	-10.075
جيء	-10.0752
▁ولحم	-10.0755
جود	-10.0767
▁وتقدمته	-10.077
طردهم	-10.0771
▁القدم	-10.0775
▁وبه	-10.0778
عجب	-10.0795
هذه	-10.0797
▁امس	-10.0797
▁حز	-10.08
قليل	-10.0803
▁اسمها	-10.0803
تلف	-10.0804
▁صالحة	-10.0806
▁تفعلون	-10.0815
▁خطيته	-10.0818
▁حج	-10.082
▁شو	-10.082
▁دخول	-10.0825
▁عمود	-10.0829
▁الفرح	-10.083
لتمس	-10.0832
▁رق	-10.0836
▁تج	-10.0837
▁اغ	-10.0839
▁يدين	-10.0841
▁تأكلون	-10.0844
▁يتم	-10.0844
▁امسك	-10.0848
نابا	-10.0849
سلب	-10.0851
▁خدم	-10.0851
▁العاز	-10.0854
▁سال	-10.086
فار	-10.0862
▁وفعل	-10.0864
لسنا	-10.0878
طرب	-10.088
▁افن	-10.0883
▁افواه	-10.0893
متلئ	-10.0897
غضب	-10.0902
بصر	-10.0907
▁خرب	-10.0908
▁وحين	-10.0917
عطى	-10.0926
▁فكر	-10.0931
▁فرحا	-10.0933
▁اضرب	-10.0936
حون	-10.0938
ريك	-10.0941
مزق	-10.0944
▁والانبياء	-10.0946
▁الاحباء	-10.0946
▁ثابت	-10.0946
▁الجديد	-10.0946
▁يختاره	-10.0947
▁اجيالكم	-10.0947
▁واولاد	-10.0947
هتف	-10.0947
▁الكلمات	-10.0947
▁ثبت	-10.0948
▁واسلم	-10.0949
▁وغنم	-10.0951
▁احمد	-10.0955
▁الصانع	-10.0955
▁القتلى	-10.0956
▁حياتي	-10.0956
▁رجالا	-10.0958
لباس	-10.0961
ساء	-10.0962
▁عملوا	-10.0964
▁وياخذ	-10.0967
منطقة	-10.0967
▁فانطلق	-10.0969
▁فحم	-10.0972
▁ينزع	-10.0973
انفس	-10.0974
▁سرير	-10.0974
▁مدنهم	-10.0974
سافر	-10.098
▁رجاسات	-10.098
▁شمس	-10.0985
▁المصريون	-10.0985
▁وناد	-10.0986
▁أتيت	-10.0989
تسلط	-10.0992
▁ولكنه	-10.1
▁نع	-10.1006
▁وهرب	-10.1007
▁واعمل	-10.1008
▁ثيابهم	-10.101
▁آساف	-10.1012
▁يشهد	-10.1016
▁مظل	-10.1018
▁يجمع	-10.1022
▁صي	-10.1023
▁سام	-10.103
▁الأ	-10.1033
▁يخدمون	-10.1034
حاج	-10.1036
اتكم	-10.1042
▁دام	-10.1048
▁بيدي	-10.105
شعل	-10.105
▁رأيتم	-10.1076
ناداب	-10.1076
الخمر	-10.1081
▁اسكن	-10.1088
▁وعرف	-10.1089
▁اعمالك	-10.1094
▁ورب	-10.11
▁فانهم	-10.1104
▁صو	-10.1105
▁فاعطاه	-10.111
▁قبله	-10.1111
غطاء	-10.1112
خلع	-10.1113
ندم	-10.1116
▁فك	-10.1129
▁وارجع	-10.113
صوت	-10.114
▁ونس	-10.1145
لج	-10.115
لحق	-10.1151
▁حية	-10.1156
▁يسلك	-10.1165
▁عزريا	-10.1167
خشب	-10.1172
▁ولن	-10.1177
▁تلد	-10.1179
▁حب	-10.118
▁وعرضه	-10.119
▁ويب	-10.1194
▁ومدن	-10.1206
شتا	-10.1209
نتظر	-10.121
▁مجدا	-10.1213
كرز	-10.1219
▁يخدم	-10.123
▁العط	-10.1235
تنجس	-10.1257
▁إ	-10.1265
بتلع	-10.1274
▁حارب	-10.1281
▁والص	-10.1304
▁بهما	-10.131
هتاف	-10.1312
▁البدء	-10.1317
▁الشغل	-10.1317
▁الخروف	-10.1317
▁يكرم	-10.1317
▁قبور	-10.1317
▁الختان	-10.1318
عصفور	-10.1318
▁وفرسان	-10.1318
▁مضايقي	-10.1319
صادف	-10.1319
▁وقاس	-10.1321
▁يشبه	-10.1322
▁بفم	-10.1322
▁يخاف	-10.1324
▁الفريسيين	-10.1326
▁يبيد	-10.1327
▁اللوح	-10.1328
لمحاربة	-10.1329
▁أتوا	-10.1332
▁لسبب	-10.1333
▁الفلك	-10.1335
▁جيل	-10.1339
وحي	-10.134
▁جبار	-10.1345
▁تحسب	-10.1347
▁قاس	-10.1349
اليتيم	-10.1349
▁حكماء	-10.135
▁رأينا	-10.135
▁للكهنة	-10.1352
▁وحدك	-10.1354
صالح	-10.1354
▁حوالي	-10.1354
▁قلبهم	-10.1354
▁فجعل	-10.1356
▁بروح	-10.1358
خضر	-10.1358
▁يمشي	-10.1376
▁اباك	-10.1378
▁تنس	-10.1387
▁انهار	-10.1389
▁وتيس	-10.14
داء	-10.1402
▁فدفع	-10.1404
▁شبع	-10.1405
▁المثل	-10.1406
▁طريقك	-10.141
لمس	-10.1417
▁فأكل	-10.1418
▁ومر	-10.1422
▁قرعة	-10.1422
▁سبعون	-10.1422
▁سحاب	-10.1427
▁لف	-10.1435
▁المنظر	-10.1438
عمود	-10.144
مدح	-10.1442
▁للوقت	-10.1445
خدام	-10.1448
افة	-10.1448
▁سفن	-10.1453
▁قبلا	-10.1455
▁بدل	-10.1456
▁والله	-10.1457
▁جثث	-10.1459
▁مثله	-10.1467
نكون	-10.1467
▁الشق	-10.1468
▁شهد	-10.1469
▁يرض	-10.1469
ختار	-10.1471
▁يبس	-10.1472
ثام	-10.1474
▁نس	-10.1476
▁عصي	-10.149
▁يهودي	-10.1493
آل	-10.1495
▁تسمعون	-10.1503
▁القوم	-10.1504
حسب	-10.1514
▁اياك	-10.1526
▁صب	-10.1531
▁طيور	-10.1534
▁حسنة	-10.155
▁شمعيا	-10.1553
▁تعملون	-10.1553
▁الكرم	-10.1554
▁أن	-10.1559
▁الميت	-10.1566
مهم	-10.1581
طة	-10.1582
▁وشب	-10.1595
▁طيب	-10.1597
▁حاج	-10.1599
غلب	-10.1615
▁مقدسا	-10.1617
▁يحد	-10.1617
▁تكمل	-10.1628
▁يمد	-10.163
امي	-10.1635
▁العين	-10.1641
▁خيام	-10.1648
▁عزر	-10.1651
▁اكلت	-10.1656
▁وخل	-10.1661
يتهم	-10.1662
يهود	-10.1676
رضى	-10.1678
رعب	-10.1678
▁يو	-10.1685
زداد	-10.1685
سبعة	-10.1686
▁حضر	-10.1687
▁بعدد	-10.1692
▁باد	-10.1694
▁للشر	-10.1694
رواق	-10.1696
▁صروية	-10.1701
▁لسليمان	-10.1701
مصاريع	-10.1701
▁هللويا	-10.1701
▁النهاية	-10.1701
▁وقرمز	-10.1701
▁شمالا	-10.1702
▁جيوش	-10.1702
▁قائد	-10.1702
▁مملكته	-10.1702
▁يؤكل	-10.1702
▁رفقة	-10.1703
▁بهيمة	-10.1703
▁يغفر	-10.1704
▁فارغ	-10.1705
▁سراج	-10.1705
▁قرن	-10.1706
▁الخرب	-10.1707
▁وماذا	-10.1707
▁والشيوخ	-10.1707
▁تجاه	-10.1708
▁خمسون	-10.1709
▁جنوب	-10.1709
▁ألست	-10.1711
ثور	-10.1713
▁يذبح	-10.1717
البعض	-10.1718
▁اتخذ	-10.172
▁والبحر	-10.172
طالب	-10.1721
▁وسلام	-10.1723
تكفير	-10.1725
▁يفعلون	-10.1728
▁القرعة	-10.1728
▁الغلمان	-10.173
▁تذكار	-10.1738
▁تستطيع	-10.1738
▁الارز	-10.1742
▁يرث	-10.1744
هيئ	-10.1744
▁يحارب	-10.1744
▁الخدمة	-10.1744
طيب	-10.1745
منظر	-10.1745
▁سلاحه	-10.1747
▁المركبات	-10.1748
▁ويأتي	-10.1748
▁اقامه	-10.1749
▁بش	-10.175
▁العشب	-10.1751
تشدد	-10.1756
▁افواههم	-10.1759
▁البوق	-10.176
▁البنين	-10.176
▁تبع	-10.1762
ايم	-10.1774
▁اعبر	-10.1778
▁يجيب	-10.1781
▁غلمان	-10.1782
▁ليئة	-10.1783
▁حبيبي	-10.1795
▁باخ	-10.1797
▁دخان	-10.1798
▁لعمل	-10.1798
▁شجر	-10.1802
▁حصن	-10.1805
▁تقطع	-10.1811
▁اشرب	-10.1817
▁فملك	-10.1819
▁يبارك	-10.1821
▁محص	-10.1822
▁سبيل	-10.1823
مثل	-10.1831
▁يعو	-10.1834
ثمانية	-10.184
▁والشر	-10.1842
▁اقطع	-10.1847
يهوشافاط	-10.1847
امرأة	-10.1853
▁لابس	-10.1855
جاد	-10.1868
اقول	-10.1869
▁وسأل	-10.1875
▁ياكلون	-10.1876
▁دون	-10.1882
▁قوس	-10.1883
▁الحديد	-10.1885
ؤدب	-10.1887
▁فاعلي	-10.1889
▁عدم	-10.1901
لصق	-10.1903
قيود	-10.1908
▁القول	-10.191
أتون	-10.1914
▁لابي	-10.1925
▁بعيدة	-10.1926
▁ابوك	-10.1926
▁وارد	-10.193
وخ	-10.1942
الكتبة	-10.1946
▁ذكرا	-10.1954
▁الها	-10.1955
حداث	-10.1957
▁يمينه	-10.1957
▁وقب	-10.1959
▁فاست	-10.1971
▁المقدسة	-10.1972
ضطجع	-10.1978
▁وقدم	-10.1994
▁الامة	-10.2002
▁فعله	-10.2005
▁القديم	-10.201
▁اثمهم	-10.2023
▁فنظر	-10.2025
رعى	-10.2029
▁الاخير	-10.2029
▁اخا	-10.2041
ذوب	-10.2041
▁الداخلي	-10.2042
ارد	-10.2049
▁وحم	-10.205
▁تعل	-10.206
▁هلاك	-10.2063
▁اخرجت	-10.2065
لب	-10.2084
▁موتا	-10.2087
استقامة	-10.209
▁ونع	-10.2096
▁بعشا	-10.21
▁الدائمة	-10.2101
▁مفتوح	-10.2101
▁شهوة	-10.2101
▁وثياب	-10.2101
▁نذور	-10.2101
▁وعسلا	-10.2101
▁وداود	-10.2101
▁المركبة	-10.2102
▁الحادي	-10.2102
▁ترشيش	-10.2103
▁مخاف	-10.2103
▁حافظ	-10.2103
▁البطن	-10.2104
تأمل	-10.2104
▁ارنون	-10.2104
▁اكرم	-10.2104
▁آنيته	-10.2104
▁اعمى	-10.2104
زاباد	-10.2105
▁الشياطين	-10.2108
▁الشوك	-10.211
▁بالابواق	-10.2112
▁نباط	-10.2113
▁البيوت	-10.2113
▁وليلا	-10.2114
▁اخيرا	-10.2116
▁المساكين	-10.2118
▁عب	-10.2125
▁واي	-10.2125
▁ادع	-10.2125
جلس	-10.2127
▁واوقف	-10.2128
▁يعثر	-10.2131
برئ	-10.2132
▁بمثل	-10.2133
▁شرقي	-10.2134
▁تبصر	-10.2135
▁ثقيل	-10.2135
▁رف	-10.2136
▁فترك	-10.2138
▁يتسلط	-10.2138
▁تمثال	-10.214
▁يعلمون	-10.2144
▁يمس	-10.2149
▁حجرا	-10.2151
▁ومد	-10.2152
▁واجمع	-10.2153
▁وبكل	-10.2153
فتكر	-10.2157
▁ادعو	-10.2157
▁ابعد	-10.216
▁الكروبيم	-10.2161
يمين	-10.2165
▁ذوات	-10.2165
▁ايمانكم	-10.2167
▁لقول	-10.2169
فضل	-10.217
▁يخرجون	-10.217
▁نهب	-10.2173
▁طرقك	-10.2173
▁صحيحة	-10.2173
نجوم	-10.2176
دبير	-10.218
▁حراس	-10.2188
▁اعود	-10.219
▁بطنه	-10.2191
▁القديمة	-10.2193
▁مستديرا	-10.2201
كملت	-10.2205
▁واضع	-10.2206
▁نصيبه	-10.2208
▁ورجال	-10.2211
▁يدخلون	-10.2212
▁مراحم	-10.2216
▁سني	-10.2217
▁هات	-10.222
▁تسكن	-10.2221
ياس	-10.2225
ساب	-10.2228
▁غريبة	-10.223
▁لاجلنا	-10.2232
▁تقبل	-10.2236
▁أخر	-10.2242
▁الصخرة	-10.2249
▁ابيض	-10.2258
رؤوس	-10.226
▁كبر	-10.2261
▁نوم	-10.2264
صاحب	-10.2264
▁يملك	-10.2269
شو	-10.2275
▁والعشر	-10.2281
▁وشعب	-10.2285
ريد	-10.2287
▁واثنان	-10.2288
▁مثلك	-10.2291
▁تضرع	-10.2298
▁صرف	-10.2317
▁الرحمة	-10.2318
▁ويرجع	-10.2324
▁خلاصي	-10.2326
▁ورم	-10.2331
ثلث	-10.2332
▁ثوبه	-10.2334
▁صوتي	-10.2336
▁يمينك	-10.2336
▁نزع	-10.2337
رجل	-10.2338
يء	-10.2351
▁والام	-10.236
▁تعطون	-10.2363
ملكوت	-10.2368
▁ثمرا	-10.2371
▁الحم	-10.2375
▁شك	-10.2381
▁انزع	-10.2381
▁وسلم	-10.2384
▁ويط	-10.2393
▁وذهبوا	-10.2398
آثام	-10.2398
▁الشجرة	-10.2405
▁سقطت	-10.242
▁السادس	-10.2426
▁مقد	-10.2443
▁واضرب	-10.2444
يفة	-10.2445
هيج	-10.2446
▁اعمالهم	-10.2454
▁البرد	-10.2459
▁كلمت	-10.2467
▁تبن	-10.2469
نسل	-10.2485
▁ويشرب	-10.2485
▁اخوتك	-10.2488
▁شفتي	-10.2498
حدر	-10.2507
ثار	-10.2507
تبرر	-10.2514
▁ولكني	-10.2517
▁شلوم	-10.2518
▁اليابسة	-10.2518
▁ينبوع	-10.2518
▁وشيوخ	-10.2518
▁وارجوان	-10.2518
▁الوصايا	-10.2518
▁مسبوك	-10.2518
▁قبائل	-10.2518
▁مستحق	-10.2518
اصعاد	-10.2518
▁والنساء	-10.2518
▁يابيش	-10.2518
▁ارملة	-10.2518
▁كهذا	-10.2518
▁وقائد	-10.2519
▁لتلاميذه	-10.2519
▁انجيل	-10.252
▁احرق	-10.252
▁ملء	-10.252
▁نون	-10.2521
غناء	-10.2521
▁رنموا	-10.2521
▁يساكر	-10.2522
▁اسنان	-10.2523
شهوات	-10.2524
▁بالبوق	-10.2525
▁النس	-10.2533
▁تفيض	-10.2533
▁الجند	-10.2536
▁اعطاه	-10.2537
▁اقتن	-10.2538
▁غضبك	-10.2539
سماء	-10.2541
▁لاجلكم	-10.2544
▁الكبش	-10.2545
▁السنين	-10.255
▁لابيه	-10.2556
ايفة	-10.2558
▁وتحفظ	-10.2559
▁التاسعة	-10.2559
▁نذهب	-10.2559
▁يتنجس	-10.256
▁فالذي	-10.2565
▁بهائم	-10.2565
▁عظمت	-10.2567
شهاداتك	-10.2569
▁وافعل	-10.2572
▁تزرع	-10.2575
▁شريعتك	-10.258
▁شافان	-10.258
▁تقف	-10.2582
▁الاب	-10.2586
▁مساء	-10.2594
مياه	-10.2598
▁قطعت	-10.2602
▁يقل	-10.2604
▁امين	-10.2612
▁اسر	-10.2613
▁عارف	-10.2614
▁تخبر	-10.2616
▁الغطاء	-10.262
▁وصاياي	-10.2647
▁اسمانجوني	-10.2647
▁قوية	-10.2648
▁ملائكة	-10.265
▁فضت	-10.2651
▁وستين	-10.2656
▁راعي	-10.2659
▁فسكن	-10.2661
▁ادفع	-10.2662
▁العيد	-10.2667
قاتل	-10.2668
ابواق	-10.2673
داخل	-10.2679
جهل	-10.268
▁تجرب	-10.2683
عظمة	-10.2685
▁باعمال	-10.2686
▁كلمني	-10.2686
يلون	-10.269
▁ابغض	-10.2691
▁رع	-10.2693
▁الصلاة	-10.2693
صموئيل	-10.2695
▁تصل	-10.2719
▁نسي	-10.2729
▁يصعدون	-10.2729
▁الل	-10.2729
▁بيوتا	-10.2747
▁انتظر	-10.275
▁وشمعي	-10.2756
▁بت	-10.2757
ومة	-10.2761
▁ومسح	-10.2779
▁اخطأوا	-10.2783
▁فمد	-10.2786
تراب	-10.2789
▁صباح	-10.2791
▁بارا	-10.2812
▁نفسا	-10.2818
▁سيدك	-10.2819
▁ثقل	-10.2834
▁يكونوا	-10.2845
▁وعم	-10.2852
▁اجلب	-10.2865
▁خاف	-10.2866
▁طالب	-10.2869
اكون	-10.2871
▁فلت	-10.2876
▁وحوش	-10.288
▁ومخ	-10.2881
▁باسمه	-10.2881
قترب	-10.2897
سها	-10.2904
▁يسب	-10.291
حجب	-10.2932
نقش	-10.2938
▁مكر	-10.2943
لاولاد	-10.2949
▁زربابل	-10.2953
▁الجمهور	-10.2953
▁ايزابل	-10.2953
▁ملجأ	-10.2953
▁مسامع	-10.2953
▁نظير	-10.2953
▁دينونة	-10.2953
▁فالتفت	-10.2953
بتدئ	-10.2953
غتسل	-10.2953
▁الحبيب	-10.2953
▁صاعد	-10.2953
▁ليوسف	-10.2953
▁الكامل	-10.2953
▁راحة	-10.2953
▁بنهدد	-10.2953
▁الرجاء	-10.2953
ابتداء	-10.2954
▁نعرف	-10.2955
▁اسما	-10.2955
▁احتمل	-10.2955
تشاور	-10.2955
▁صدق	-10.2956
▁السمك	-10.2957
▁جلال	-10.2957
▁دهرية	-10.2957
ابتهاج	-10.2957
▁خصي	-10.2959
▁احترز	-10.2959
سجف	-10.296
▁هدد	-10.2961
▁لشاول	-10.2962
▁وكذا	-10.2962
▁حيرام	-10.2964
▁طويل	-10.2965
حكام	-10.2967
▁المؤمنين	-10.2973
▁يفتاح	-10.2973
زوايا	-10.2973
▁مضطجع	-10.2975
روت	-10.2978
يوحانان	-10.298
كوى	-10.2981
▁تمسك	-10.2981
نقمة	-10.2981
▁فحدث	-10.2982
▁زاد	-10.2983
آلات	-10.2983
▁ينتظر	-10.2992
▁الجبابرة	-10.2994
▁وانزل	-10.3001
▁عرض	-10.3001
▁الكو	-10.3002
▁والجوع	-10.3005
▁ترفع	-10.3006
▁الكرمل	-10.3016
▁تشبع	-10.3017
▁ويذبح	-10.3017
نزع	-10.3017
▁يزرع	-10.3019
▁وطرد	-10.3021
▁العن	-10.3022
▁يزن	-10.3024
▁السل	-10.3026
▁فحسن	-10.3028
حتم	-10.3029
▁زانية	-10.3031
▁كبش	-10.3032
▁اخطأنا	-10.304
▁واسكن	-10.3048
▁الداخلية	-10.3053
▁وبنايا	-10.3054
ناموس	-10.306
▁والتي	-10.3063
▁شيخ	-10.3076
▁مواشي	-10.308
▁ترت	-10.3086
قطر	-10.3092
▁فقتل	-10.3092
▁حصون	-10.3093
▁ولكنهم	-10.3095
▁فعلتم	-10.3096
مسوح	-10.3098
▁اعطوا	-10.3101
▁جيدا	-10.3101
ماكير	-10.3102
ميل	-10.3102
▁احكامك	-10.3104
▁عندنا	-10.3109
▁اط	-10.3114
▁كلمتك	-10.3114
حانان	-10.312
▁اقتل	-10.3125
▁وجعله	-10.3125
▁كبير	-10.3145
صادوق	-10.3147
مقت	-10.3151
▁بعيدا	-10.3152
▁قصب	-10.3163
▁وقص	-10.3165
▁لاحد	-10.3169
▁يدفع	-10.3169
شاهد	-10.317
▁واد	-10.3173
▁باع	-10.3173
عامل	-10.3174
رنم	-10.3182
▁ظلما	-10.3185
▁حلفت	-10.3202
▁لعن	-10.3205
▁يديك	-10.3208
▁عيناي	-10.3212
▁ترد	-10.3217
▁تطلبون	-10.3218
▁بغير	-10.3233
طيور	-10.3236
▁عينك	-10.3242
▁تخل	-10.3243
▁انطلق	-10.3247
▁لش	-10.3252
زينة	-10.3253
▁معكة	-10.3259
▁لاله	-10.3264
▁ورق	-10.3275
▁للقائه	-10.3275
▁ذا	-10.3286
▁الخبر	-10.329
▁يمت	-10.3297
▁حبيب	-10.3298
صرخ	-10.33
▁فانكم	-10.3301
▁ذهبت	-10.3308
ثقل	-10.3315
▁تسبيح	-10.3315
▁احل	-10.3318
▁جيشه	-10.3318
▁تشته	-10.3319
▁غني	-10.3319
▁رفضت	-10.3329
▁والد	-10.3343
▁وسر	-10.3365
لسبط	-10.3376
▁والبر	-10.338
▁وجوه	-10.3388
بها	-10.3394
▁كتان	-10.3396
▁ضياعها	-10.3407
▁فآمن	-10.3407
▁ثيران	-10.3407
▁خيانة	-10.3407
▁رفيعة	-10.3407
▁ناحية	-10.3407
▁الدهور	-10.3407
▁يزول	-10.3408
▁تقويمك	-10.3408
▁خمير	-10.3408
تجاوز	-10.3408
▁عيلام	-10.3409
▁مريض	-10.3409
▁ولسان	-10.3409
▁محفل	-10.3409
▁يشفق	-10.3412
▁التفت	-10.3412
تذمر	-10.3412
عظائم	-10.3412
▁المخادع	-10.3413
▁السنط	-10.3414
▁والبهائم	-10.3414
▁واخو	-10.3415
▁اعطاني	-10.3417
▁كروم	-10.3418
▁وروح	-10.3418
▁الفطير	-10.3418
▁اساس	-10.3419
▁وبكى	-10.342
▁قوتي	-10.3424
▁ونساء	-10.3424
▁بالمسيح	-10.3425
شفى	-10.3426
▁باق	-10.3426
نعم	-10.3427
▁فخاف	-10.3428
عزيز	-10.3428
عجلة	-10.3433
جلوس	-10.3438
▁نقول	-10.3439
رياح	-10.3439
▁هدم	-10.344
▁اثنتي	-10.3446
▁العبيد	-10.3446
▁الملح	-10.3448
▁الازل	-10.3448
▁مسل	-10.345
▁فجلس	-10.3452
▁وبيد	-10.3452
▁كذا	-10.3455
▁صلاتي	-10.3456
▁ويدخل	-10.3456
▁وتأكل	-10.3459
▁بنار	-10.3461
▁العربة	-10.3462
▁ليصنع	-10.3462
كثير	-10.3464
▁القوس	-10.3466
▁يشاء	-10.3467
عاج	-10.3467
▁ملكي	-10.3469
▁يتقدم	-10.3471
▁ادونيا	-10.3474
افر	-10.348
تذلل	-10.3487
▁ونج	-10.3487
▁يلق	-10.3489
▁نموت	-10.3489
قميص	-10.3489
▁بيننا	-10.349
▁قصد	-10.3492
▁الحلم	-10.3492
▁بكاء	-10.3492
▁جيدة	-10.3493
لال	-10.3495
▁اغني	-10.3497
▁بقلب	-10.3498
▁ساع	-10.3502
▁فطيرا	-10.3506
▁يذبحون	-10.3509
حياة	-10.3514
▁يقدروا	-10.3515
▁تفرح	-10.3516
▁الطيب	-10.3522
▁لآبائك	-10.3522
▁احمل	-10.3526
▁معروفا	-10.3529
رمل	-10.3532
تابوت	-10.3533
▁تد	-10.3534
▁كبرياء	-10.3539
شعب	-10.3541
لبناء	-10.3545
▁عظامي	-10.3549
▁اناء	-10.3559
▁حاف	-10.356
▁ومئة	-10.3561
▁يسقطون	-10.3566
رين	-10.3567
أرسل	-10.3568
▁ليهوذا	-10.3571
▁خلق	-10.3572
▁تقو	-10.3572
اعمدة	-10.3583
غدر	-10.3585
▁التاج	-10.3589
▁المعط	-10.3591
▁طرد	-10.3592
▁ضربه	-10.36
▁وجب	-10.3606
▁خلف	-10.3617
▁حصل	-10.3629
وجع	-10.3632
▁يعطيكم	-10.3637
▁فاكل	-10.3639
▁يقومون	-10.364
▁ليلة	-10.3641
▁زنا	-10.3644
▁لذ	-10.3653
▁وليد	-10.3659
▁وقفت	-10.3661
▁اقمت	-10.3663
▁سلكت	-10.3664
▁اموت	-10.3674
حيرة	-10.3674
▁وعبيده	-10.3676
▁قس	-10.3677
▁ضل	-10.3695
▁طريقهم	-10.3705
▁سفك	-10.371
مذبح	-10.3715
▁بطن	-10.3716
مقدار	-10.3717
▁خلص	-10.3721
دعوى	-10.3722
▁واخبروا	-10.3731
▁الحكم	-10.3733
▁خدام	-10.3735
▁غط	-10.3763
▁المق	-10.3767
▁تنجس	-10.3778
خيط	-10.378
▁قلوب	-10.3781
▁ارجل	-10.3781
▁نبيا	-10.3781
▁برك	-10.3792
▁جث	-10.3794
▁خروف	-10.3796
مغارة	-10.3802
بخور	-10.3806
▁فعلم	-10.3812
▁ووقفوا	-10.3817
اشتد	-10.382
▁ويضع	-10.3835
▁الكروب	-10.3835
ائب	-10.384
▁مرتفع	-10.3848
دهش	-10.3851
▁الدين	-10.3852
▁كرا	-10.3854
▁اتبع	-10.3863
▁مدينت	-10.3867
▁وتبع	-10.3868
▁وشد	-10.3869
▁يرت	-10.3872
▁المرتفعة	-10.3883
▁لاستقبال	-10.3883
▁للاويين	-10.3883
اقوياء	-10.3883
▁مبروم	-10.3884
▁نابوت	-10.3884
▁اطراف	-10.3884
▁شوشن	-10.3884
▁ضارب	-10.3884
▁شواقل	-10.3884
▁شيطان	-10.3884
▁تخدم	-10.3884
▁ثامار	-10.3884
▁تعيير	-10.3884
▁بوعز	-10.3884
▁العلاء	-10.3884
▁احياء	-10.3884
▁يوثام	-10.3884
▁زمانا	-10.3885
▁يصدق	-10.3885
▁القادر	-10.3885
▁الفرات	-10.3885
▁ايادي	-10.3886
▁وفضة	-10.3887
▁الكرام	-10.3887
▁القوة	-10.3889
شتغل	-10.389
▁القائم	-10.389
▁فلست	-10.3892
▁للمسيح	-10.3892
▁يرحم	-10.3893
▁القوي	-10.3895
ابكار	-10.3896
▁المديانيين	-10.3897
▁الاعمال	-10.3897
يمضي	-10.3898
▁آلهتهم	-10.3898
▁ضع	-10.39
▁غربا	-10.39
▁واجتمع	-10.3901
معصية	-10.3903
▁وحيث	-10.3904
▁آباؤكم	-10.3905
▁الخارجية	-10.3908
▁بمن	-10.3909
▁وابيد	-10.3916
▁وتعال	-10.3916
▁واكتب	-10.3917
▁ارجو	-10.3919
▁تحرق	-10.392
▁يضطجع	-10.3924
▁اصرخ	-10.3925
ائف	-10.3925
▁يحدث	-10.3927
▁يكرز	-10.3927
▁وامرأته	-10.3928
▁ويسقط	-10.393
▁واعطاهم	-10.3932
ؤخر	-10.3934
▁يتنبأون	-10.3936
جزع	-10.394
▁اعاقب	-10.3945
فارق	-10.3949
▁بمجد	-10.3952
▁تنال	-10.3952
▁ويشوع	-10.3958
عجول	-10.3959
▁عنقه	-10.3963
▁اهرب	-10.3968
▁فطلب	-10.3969
▁قتلت	-10.3972
سكين	-10.3974
▁اظهر	-10.3983
▁ظاهر	-10.3995
حدث	-10.3998
▁قومه	-10.4006
▁اشته	-10.4009
▁نف	-10.4012
▁المائدة	-10.4016
ونكم	-10.4017
▁الصوت	-10.4018
▁قدميه	-10.4018
▁والكتبة	-10.402
▁سلب	-10.4021
▁صرخت	-10.4022
▁ومثل	-10.4022
▁لكلام	-10.4031
▁مستقيمة	-10.4034
▁جوف	-10.4035
▁حائط	-10.4035
نحاس	-10.4036
▁كورة	-10.4044
▁تدين	-10.4054
▁يعي	-10.4056
▁عندهم	-10.4057
▁الفرس	-10.406
لجميع	-10.406
▁الخراف	-10.4061
▁قدمي	-10.4066
▁رأيته	-10.4073
تكئ	-10.4075
دعني	-10.4081
▁اعطيك	-10.4083
▁هربوا	-10.4083
▁اشد	-10.4091
شيش	-10.4092
▁وخبز	-10.4097
▁عددهم	-10.4103
▁خف	-10.4105
▁وكنت	-10.4123
شاب	-10.4131
▁راسك	-10.4137
▁وستون	-10.4139
شاقل	-10.4141
▁جيد	-10.4147
شاء	-10.4151
▁كفا	-10.4154
▁ووجه	-10.4156
جرح	-10.4161
ستحي	-10.4169
▁غنمي	-10.4169
▁نصيبهم	-10.4172
▁اثمار	-10.4173
▁رجلك	-10.4174
▁حبل	-10.4196
▁والبس	-10.4205
▁سحق	-10.421
▁مدنا	-10.4211
▁بث	-10.4214
▁مال	-10.4216
▁تقر	-10.422
▁ردي	-10.422
عبيدك	-10.4221
▁روحه	-10.4225
▁اخرجوا	-10.4233
▁الكثرة	-10.4239
▁الدرج	-10.4242
▁عقب	-10.4247
▁مختار	-10.4261
درا	-10.4263
▁تبني	-10.4286
▁ابنته	-10.4287
▁فرع	-10.4294
تقدمة	-10.4295
زلزل	-10.4301
▁اسد	-10.4313
▁واعد	-10.4313
▁طالبي	-10.4315
▁رسل	-10.432
▁آبائك	-10.4337
▁اعدائه	-10.434
▁عير	-10.4342
▁كاهنا	-10.4344
▁يرون	-10.435
اثنين	-10.4371
▁حولها	-10.4381
▁فست	-10.4381
▁الخطاة	-10.4383
▁العبودية	-10.4383
▁تأديب	-10.4383
▁النفوس	-10.4383
▁شوارع	-10.4383
▁مكدونية	-10.4383
▁بواسط	-10.4384
▁البحار	-10.4384
▁مضجع	-10.4384
▁يقاوم	-10.4384
اجساد	-10.4384
▁عذراء	-10.4384
عناثوث	-10.4384
▁وآتي	-10.4384
▁ويحرق	-10.4384
زقاق	-10.4385
▁العريس	-10.4385
▁بالعدل	-10.4386
▁مائدت	-10.4386
▁ورائي	-10.4386
▁بسيف	-10.4386
▁فابتدأ	-10.4386
جاب	-10.4386
▁والفريسيون	-10.4387
▁للناس	-10.4387
▁ارواح	-10.4387
▁نابال	-10.4387
▁شفاه	-10.4388
▁كرامة	-10.4388
رؤى	-10.4388
▁وواحد	-10.4388
▁دنس	-10.4389
▁زنى	-10.4389
▁الوالي	-10.439
▁زبدي	-10.4392
المئات	-10.4392
▁الآبدين	-10.4392
▁سهام	-10.4393
▁جسم	-10.4394
▁قادر	-10.4394
▁جف	-10.4395
▁وقواعدها	-10.4396
▁مبغض	-10.4396
▁استمع	-10.4397
▁وميش	-10.4398
▁تحر	-10.4398
▁وهدم	-10.44
▁مطمئن	-10.4402
▁والمغن	-10.4403
▁عدن	-10.4406
اخلص	-10.4411
▁متسلط	-10.4412
▁والزيت	-10.4416
▁ورائه	-10.4417
▁فافعل	-10.4421
باط	-10.4422
▁المدعو	-10.4422
▁يستطع	-10.4425
▁وانطلق	-10.4427
▁نفعل	-10.4427
سيل	-10.4431
ظهرت	-10.4431
الزنى	-10.4432
بتعد	-10.4434
جرشون	-10.4435
▁يولد	-10.4436
▁اخوه	-10.4437
الخمسين	-10.444
▁وتضع	-10.4446
هبط	-10.4446
غة	-10.4448
▁ويسمع	-10.4449
▁صحيح	-10.4449
▁الامين	-10.4449
▁المنارة	-10.445
▁ويسجد	-10.445
خصم	-10.4452
▁وقدام	-10.4459
▁قص	-10.4459
▁ورا	-10.4459
▁وبينك	-10.446
▁يقضي	-10.4465
جور	-10.4468
قار	-10.4471
وجد	-10.4472
▁وقبل	-10.4475
▁تجمع	-10.4476
▁يثر	-10.4476
ابطال	-10.4479
▁ارتد	-10.4481
▁ربوات	-10.4481
▁والبيت	-10.4482
▁البخور	-10.4483
امس	-10.4485
▁فجمع	-10.4486
▁يكثر	-10.4486
▁واحب	-10.4487
▁افتر	-10.4497
▁واقم	-10.4497
▁أب	-10.4499
▁محت	-10.4501
كيلا	-10.4513
▁رايت	-10.4514
▁صغيرة	-10.4516
باء	-10.4517
سفك	-10.4517
▁الاخرى	-10.4518
▁قصر	-10.4518
ياكين	-10.4522
▁زيتون	-10.4522
بكرا	-10.4522
▁ارتفاع	-10.4528
▁اضطر	-10.4529
▁وجعلت	-10.4529
▁يقسم	-10.4532
▁برا	-10.4534
سلكوا	-10.4545
سقف	-10.4547
▁الهلاك	-10.4548
▁يكف	-10.4551
▁ينظرون	-10.4554
▁واصغ	-10.4558
يتين	-10.456
▁كور	-10.4564
▁لحي	-10.4571
▁قطيع	-10.4573
ذبيحة	-10.4579
▁كمن	-10.4596
▁دفعت	-10.4601
▁صالحا	-10.461
شرق	-10.4619
▁يذهبون	-10.4624
▁بأ	-10.4625
▁واكل	-10.4636
غنى	-10.4645
▁يعطى	-10.4649
▁فيرجع	-10.465
▁القدر	-10.4653
نصف	-10.4662
▁وابو	-10.4663
▁أمرت	-10.4664
▁قامت	-10.4665
حجز	-10.4691
▁تعبر	-10.4694
▁شاء	-10.4697
▁لعله	-10.4701
الليل	-10.4702
غريبا	-10.471
▁قريبك	-10.4711
▁دقيقا	-10.4713
▁بعده	-10.4714
يقين	-10.4717
▁تخت	-10.4719
▁مقدسي	-10.4727
▁مرسل	-10.4742
▁ارضكم	-10.4748
▁بره	-10.475
▁اذنك	-10.4751
▁وهل	-10.4756
▁لباس	-10.4758
خدع	-10.4763
▁سامع	-10.4763
▁سيفا	-10.4766
▁ايامك	-10.4789
▁الجو	-10.4791
▁ثق	-10.4798
كام	-10.4799
▁تجر	-10.4804
▁حرا	-10.4804
▁برد	-10.4805
قاط	-10.4807
كنائس	-10.4816
▁وبلا	-10.4821
لازم	-10.4823
جذب	-10.4826
فقراء	-10.4826
▁الام	-10.4827
خطر	-10.483
▁اقل	-10.4837
دفعهم	-10.4838
▁دب	-10.4841
راني	-10.4851
ائع	-10.4852
▁ولدته	-10.4856
ياهو	-10.4857
▁العشر	-10.486
▁شرير	-10.4864
▁الكنعاني	-10.4867
▁عارا	-10.4877
▁ترنم	-10.4881
▁تريد	-10.4898
▁فسي	-10.4898
▁الذكور	-10.491
▁الأسود	-10.491
▁الحاضر	-10.491
▁نينوى	-10.491
▁بالقرعة	-10.491
▁البأس	-10.491
▁الحطب	-10.491
▁ثروة	-10.491
▁السعاة	-10.491
ضجيج	-10.491
▁اثنتا	-10.491
▁اجنبي	-10.491
▁لرجال	-10.491
▁جاهل	-10.491
▁قضاة	-10.491
▁يهوآحاز	-10.491
▁للبعل	-10.491
▁ينابيع	-10.491
▁سيسرا	-10.491
▁ثروت	-10.491
▁جوابا	-10.491
▁العمودين	-10.491
▁احاط	-10.491
▁الباطل	-10.491
▁ضي	-10.491
▁يعاريم	-10.4911
▁ركاب	-10.4911
▁مركبة	-10.4911
▁لعبيده	-10.4911
▁الحجاب	-10.4911
▁تظلم	-10.4911
▁يجازي	-10.4911
▁اياهم	-10.4912
▁يظن	-10.4912
▁تبيد	-10.4912
▁فارص	-10.4912
▁ومضوا	-10.4912
▁اسكب	-10.4912
▁وعزريا	-10.4913
▁وإل	-10.4915
▁راكب	-10.4916
▁وقولوا	-10.4916
▁حناني	-10.4916
اعماق	-10.4916
▁الآيات	-10.4917
قرابين	-10.4917
▁لمحرقة	-10.4919
▁بلسان	-10.492
عصوين	-10.492
البكاء	-10.4921
▁والبقر	-10.4921
▁صدر	-10.4922
▁فساد	-10.4926
▁معاصي	-10.4929
▁مجتمع	-10.493
▁امرأتي	-10.493
انسان	-10.493
نعمة	-10.4931
▁القصر	-10.4931
▁لليهود	-10.4932
▁فتقول	-10.4932
▁كثرت	-10.4932
▁فاصعد	-10.4934
▁تخطئ	-10.4934
▁لتعمل	-10.4935
غزاة	-10.4937
مناع	-10.4938
ليعلم	-10.4938
▁ابيا	-10.4939
▁الممالك	-10.4943
ائح	-10.4947
▁ويصعد	-10.4949
▁متمرد	-10.495
▁يقترب	-10.4951
▁زور	-10.4953
هيب	-10.4954
يخلص	-10.4954
▁واصنع	-10.4956
ملابس	-10.4957
تؤمنوا	-10.4958
▁تاخذ	-10.4958
▁يغلب	-10.4958
▁الشيخ	-10.4959
▁فاذهب	-10.4959
▁اخاف	-10.496
▁مئتين	-10.4965
▁تمتلك	-10.4968
▁الجزائر	-10.4969
▁وتعمل	-10.4971
عيون	-10.4974
▁وذراع	-10.4976
▁لسيدي	-10.4977
▁وعدلا	-10.4977
بهجة	-10.4978
▁مكانا	-10.4978
▁يؤت	-10.4986
▁يمجد	-10.4988
▁ويأكل	-10.4989
امراض	-10.4992
▁ليسوع	-10.4993
▁مكروه	-10.4994
▁وتعب	-10.4996
تذكر	-10.4998
▁شكر	-10.4999
▁دهن	-10.5003
▁تقرب	-10.5004
▁باروخ	-10.5005
▁الغنى	-10.5007
▁لوحي	-10.5009
▁الابطال	-10.501
▁ويقتل	-10.501
▁يضل	-10.5011
كتابة	-10.5016
تعقل	-10.5016
▁كنيسة	-10.5016
▁فتكلم	-10.5023
▁فيأتي	-10.5024
▁العامل	-10.5025
▁نفوسكم	-10.5025
قارب	-10.5027
▁السادسة	-10.5028
▁واهلك	-10.503
الحمير	-10.5032
▁موته	-10.5035
▁والملك	-10.5036
▁المتكلم	-10.5048
▁خافوا	-10.5056
▁تاتي	-10.5059
▁غرس	-10.5063
▁ترس	-10.5066
▁وثور	-10.5068
▁احكم	-10.5069
▁تبارك	-10.5077
▁يفتر	-10.5079
▁فصل	-10.5084
▁فرد	-10.5099
▁رداء	-10.5111
فرخ	-10.5113
جماعة	-10.5113
▁صاحبك	-10.5116
▁والحو	-10.5117
▁صن	-10.5121
▁ظلمة	-10.5141
▁امير	-10.5149
▁قدامي	-10.515
▁سمك	-10.5153
ابناء	-10.5163
▁وسبعون	-10.5167
بقي	-10.5169
بكت	-10.5175
▁يعرفوا	-10.5188
▁اسألك	-10.5189
▁جرى	-10.5189
▁ورف	-10.5197
▁فاعل	-10.5202
اياي	-10.5203
▁كنز	-10.5205
دقيق	-10.5207
الحديد	-10.5207
ابشالوم	-10.5207
▁بناه	-10.5211
بولس	-10.5212
الروح	-10.5216
▁مالك	-10.5223
حني	-10.523
▁شعبها	-10.5235
رمي	-10.5239
▁فقطع	-10.5258
▁سلاما	-10.5268
تموها	-10.5272
▁ستر	-10.5273
▁قليلة	-10.5275
▁انكسر	-10.5279
فرش	-10.5281
كتف	-10.5297
▁امينا	-10.5299
▁أعطي	-10.53
▁ودم	-10.53
▁ولول	-10.5308
جتمع	-10.5318
رائح	-10.5319
▁حربا	-10.5333
▁اللاوي	-10.535
▁وهب	-10.5354
صرنا	-10.5355
▁صنعوا	-10.5355
اجير	-10.5367
▁فتحي	-10.5367
▁يجدوا	-10.5367
▁اخذها	-10.5378
قوى	-10.5387
▁العجل	-10.5393
▁خلاصا	-10.5399
▁وخرجت	-10.5405
عشار	-10.541
▁عفر	-10.5414
الرؤساء	-10.5426
▁اختي	-10.5436
طمئن	-10.5445
▁كانه	-10.5445
▁فخا	-10.5447
▁الحو	-10.5447
ثلاثين	-10.545
▁وبناتك	-10.5454
▁للكل	-10.5457
ميثاق	-10.5463
▁الحصينة	-10.5465
▁وثمانين	-10.5465
▁وزكريا	-10.5465
▁شاطئ	-10.5465
▁اليوبيل	-10.5465
▁للكاهن	-10.5465
▁استطيع	-10.5465
▁الشبكة	-10.5465
▁جارية	-10.5465
▁مخاصم	-10.5465
▁اقطاب	-10.5465
▁الناصري	-10.5465
▁للقتال	-10.5465
▁فدفنوه	-10.5465
▁مختوم	-10.5465
القرمز	-10.5465
▁لخيش	-10.5466
الارجوان	-10.5466
▁الطعام	-10.5466
▁الايادي	-10.5466
▁خالق	-10.5466
▁اثبت	-10.5466
▁ونهارا	-10.5466
▁بفضة	-10.5466
▁قياس	-10.5467
ستأصل	-10.5467
▁هدية	-10.5467
▁والشحم	-10.5467
▁لعبدك	-10.5467
▁الطرف	-10.5467
▁المسحة	-10.5468
▁رجوع	-10.5468
الاصنام	-10.5469
▁تسلم	-10.5469
▁تشفق	-10.5469
▁الرائي	-10.547
▁محبو	-10.547
▁صيدون	-10.5471
▁فأخبر	-10.5471
▁ودعت	-10.5472
▁سنتين	-10.5472
▁ابدي	-10.5472
▁ومريم	-10.5474
▁فليسمع	-10.5475
طبخ	-10.5475
▁البتة	-10.5475
▁الحمار	-10.5477
▁آمون	-10.5478
▁عتيد	-10.5479
▁يكمل	-10.548
دحرج	-10.548
▁قدامهم	-10.5483
غمس	-10.5485
▁ارحمني	-10.5485
▁سير	-10.5486
▁فاجعل	-10.5486
▁جمل	-10.5486
▁هارب	-10.5487
▁ليشوع	-10.5488
▁اشرار	-10.5489
▁اموال	-10.5491
▁للخدمة	-10.5491
غبياء	-10.5493
▁افرح	-10.5497
▁الواقفين	-10.5499
▁بالحجارة	-10.5499
▁للخير	-10.5499
▁لاسم	-10.55
▁عديم	-10.55
▁فتأكل	-10.5501
▁الزانية	-10.5502
▁متاع	-10.5502
▁افتقد	-10.5502
▁واجر	-10.5504
▁يحرق	-10.5505
الواح	-10.5507
▁اسيا	-10.5508
▁وتصير	-10.5509
▁قلوبنا	-10.551
▁عمري	-10.5512
▁جمر	-10.5512
مواسم	-10.5513
▁اخيش	-10.5515
▁جهت	-10.5516
▁ويوناثان	-10.5517
▁ونحو	-10.5518
▁يصرخون	-10.5519
▁قلتم	-10.5522
▁بالشر	-10.5523
ثقة	-10.5523
▁كريمة	-10.5526
▁اهتف	-10.5526
▁الزاوية	-10.5528
▁يفتخر	-10.553
▁ويهلك	-10.5535
▁مشير	-10.5535
▁امتلأت	-10.5536
▁واقيم	-10.5536
▁المعل	-10.5537
▁الخشبة	-10.5538
▁مجمع	-10.5539
▁فصنع	-10.5542
▁فعلوا	-10.5543
▁واحفظ	-10.5545
▁اعطاكم	-10.5545
عتبة	-10.5546
▁الظالم	-10.5548
▁ذهبوا	-10.5552
تعزية	-10.5554
▁نورا	-10.5556
معمودي	-10.5557
▁أفلا	-10.556
▁تشهد	-10.5561
▁اكلمك	-10.5563
▁الفرائض	-10.5565
▁المعدودين	-10.5566
عريان	-10.5569
▁تظهر	-10.5569
رحب	-10.557
سند	-10.557
كسب	-10.557
▁واخذت	-10.5574
▁وشعبك	-10.5574
▁طبق	-10.558
▁كبيرة	-10.5581
▁تسجد	-10.5582
شبل	-10.5583
▁ليذهب	-10.5585
▁وذبيحة	-10.5588
▁جديدا	-10.559
▁تركت	-10.5591
▁خربت	-10.5595
▁تخاف	-10.5597
▁شوك	-10.5598
وريم	-10.5601
▁حصاد	-10.5602
قديسي	-10.5602
▁تنزل	-10.5603
▁سلطانا	-10.5604
▁فامر	-10.5607
ثكل	-10.5607
▁يرتد	-10.5612
▁غيظ	-10.5613
راي	-10.5614
▁سكوت	-10.5616
▁وحول	-10.5616
دس	-10.5622
▁صبر	-10.5623
▁تحل	-10.5626
▁ينزلون	-10.5635
▁وغضب	-10.5645
▁اكن	-10.5648
قيس	-10.5654
▁يسع	-10.5665
▁تخومك	-10.5671
▁ويحي	-10.5677
شتهي	-10.5689
▁طرقي	-10.569
▁شل	-10.5691
▁وليمة	-10.5692
▁ذهبا	-10.5699
▁جلي	-10.5701
نجح	-10.5701
حبلت	-10.5701
▁وآب	-10.5705
▁اللعنة	-10.5706
سحب	-10.571
يامين	-10.5715
▁ثمرها	-10.5715
▁والش	-10.5716
مهما	-10.5727
▁الاخيرة	-10.573
▁تاكله	-10.5731
▁معهما	-10.5733
▁انصرف	-10.5736
▁ابيهم	-10.5741
وجوه	-10.5741
▁ويعل	-10.5744
▁شفت	-10.5762
عطية	-10.5771
▁القرية	-10.5774
▁انتظرت	-10.5793
▁وبيته	-10.5794
بماذا	-10.5797
▁وفم	-10.5799
▁غيرة	-10.58
▁ببر	-10.5801
عشائر	-10.5802
▁سقطوا	-10.5805
رعدة	-10.5812
داد	-10.5815
▁قاتل	-10.5817
شهود	-10.5821
▁نعمي	-10.5824
لسلام	-10.5827
▁اجلكم	-10.5828
عاقر	-10.5833
▁وسيف	-10.5842
▁وجو	-10.5846
▁قطعه	-10.5847
▁الاولين	-10.585
▁قدسك	-10.5852
▁واخوتهم	-10.5852
▁عظامه	-10.5859
حسان	-10.586
ستقر	-10.5862
▁تمس	-10.5863
▁وابني	-10.5883
▁تدر	-10.5892
▁ويري	-10.5896
▁خلاصك	-10.5897
▁اسلك	-10.5915
▁والكل	-10.5919
ورام	-10.5921
▁سكب	-10.5921
▁المل	-10.5922
▁بيوتهم	-10.5927
▁اذهبي	-10.5931
▁نب	-10.5938
▁لدن	-10.5939
▁وعرض	-10.5955
خاطئ	-10.5958
▁جميل	-10.5965
العرض	-10.597
▁قولك	-10.5979
▁الآك	-10.598
▁وراءها	-10.5984
▁رمح	-10.6001
▁قدسا	-10.6006
▁ليعطي	-10.6012
▁غنما	-10.6013
▁فناد	-10.6023
▁ومعهم	-10.6027
فتقد	-10.6036
▁قبلي	-10.6047
▁ميراثه	-10.6049
احكامي	-10.6053
▁اخيتوفل	-10.6054
▁لحظة	-10.6054
▁وفرائضه	-10.6054
اغتصاب	-10.6054
▁الاجنبي	-10.6054
▁تلميذ	-10.6054
▁قعيلة	-10.6054
ارغفة	-10.6054
▁خالص	-10.6054
▁رسائل	-10.6054
▁واغلق	-10.6054
▁افسس	-10.6054
زوبعة	-10.6054
عثليا	-10.6054
▁الجزية	-10.6054
▁عاجلا	-10.6054
▁وأعطي	-10.6054
▁الحصن	-10.6054
▁فعند	-10.6054
▁السفلى	-10.6054
العذراء	-10.6054
▁العموني	-10.6054
▁الخوف	-10.6055
▁فعاد	-10.6055
▁حوريب	-10.6055
▁ليأكلوا	-10.6055
الأمور	-10.6055
اسبوع	-10.6055
▁والاحكام	-10.6056
عضائد	-10.6056
▁اصوات	-10.6056
▁فخرجت	-10.6057
▁اشدود	-10.6057
▁عقاب	-10.6058
▁نثنيا	-10.6058
▁اخيقام	-10.6058
تبدد	-10.6059
العسل	-10.606
▁الاصغر	-10.606
▁الكورة	-10.606
▁قيصرية	-10.6061
▁صفوف	-10.6061
▁قايين	-10.6062
▁التلميذ	-10.6062
غرفات	-10.6065
▁الصدرة	-10.6065
▁المخت	-10.6066
▁ودار	-10.6068
▁للخطية	-10.6068
عالمين	-10.6069
▁بالناموس	-10.6069
▁الاراميين	-10.6071
تمشى	-10.6071
ساحة	-10.6072
▁الاسماء	-10.6073
تبرأ	-10.6073
▁مئتان	-10.6079
▁فتصير	-10.6079
▁والنحاس	-10.608
▁شرقا	-10.6081
▁قومي	-10.6084
▁العمي	-10.6084
▁مرعى	-10.6085
▁جهتكم	-10.6086
▁فحبلت	-10.6087
▁نصنع	-10.6087
▁منتظر	-10.6087
▁والمس	-10.6088
▁والرجل	-10.6088
▁اموات	-10.6088
▁يورام	-10.609
▁ويضرب	-10.6097
▁ودخلت	-10.6102
▁يرعى	-10.6103
خراب	-10.6107
▁الضأن	-10.6111
اصابع	-10.6111
▁فرس	-10.6114
▁جدي	-10.6117
عوض	-10.6117
▁ويتكلم	-10.612
▁وعينا	-10.6123
▁ويقوم	-10.6123
▁واعطيت	-10.6123
▁الدماء	-10.6124
▁افعلوا	-10.6124
▁ينال	-10.6125
غلظ	-10.6126
القانة	-10.6128
▁وتنبأ	-10.6129
جلود	-10.6129
خفض	-10.613
▁ويحفظ	-10.6131
زمري	-10.6132
▁العبراني	-10.6132
▁الباقية	-10.6134
▁زوج	-10.6134
▁حورون	-10.6135
▁تريدون	-10.6138
▁مقيم	-10.6141
▁يوقد	-10.6141
▁اللبن	-10.6144
▁امما	-10.6145
▁اشر	-10.6145
▁لهيب	-10.6147
▁الشروق	-10.6151
▁يغش	-10.6156
▁ليأخذ	-10.6158
▁تكثر	-10.616
▁الكنائس	-10.616
▁الجمال	-10.616
ضبط	-10.6163
▁رعاة	-10.6163
▁تسير	-10.6166
▁وسق	-10.6168
▁ينجي	-10.6173
▁وبأ	-10.6174
▁لينظر	-10.6174
▁بقيت	-10.6175
▁وبعده	-10.6175
▁نجاسة	-10.6177
▁حياتك	-10.6182
▁تضرب	-10.6183
▁احمدك	-10.6185
داثا	-10.6188
▁سيفه	-10.6191
▁دخوله	-10.6192
▁طرقكم	-10.6192
▁اعضاء	-10.6193
▁حنطة	-10.6195
▁وزنه	-10.621
▁بيدر	-10.6213
▁ارجلهم	-10.6216
▁المنحوت	-10.622
تنهد	-10.6223
▁مملوءة	-10.6226
▁فرائضك	-10.6228
▁اعطيكم	-10.6231
▁أعطيت	-10.6233
▁الغني	-10.6235
▁يؤخذ	-10.6242
اثا	-10.6248
▁خطاياهم	-10.6249
▁يقرب	-10.6254
▁يذل	-10.6258
طوبيا	-10.6258
▁وسن	-10.6261
غروب	-10.6264
▁الحسن	-10.6265
▁والثلاث	-10.6266
▁وخيل	-10.628
▁فرض	-10.6284
▁غم	-10.6288
▁ذاته	-10.629
▁تزن	-10.629
▁عوبيد	-10.6292
▁وعبيد	-10.6297
▁عرضا	-10.6299
ذبائح	-10.6307
أخذت	-10.6319
محبة	-10.6324
سكبت	-10.6327
▁باني	-10.6328
▁وعملت	-10.6331
نتخب	-10.6333
▁فحمل	-10.6337
▁معلم	-10.634
▁شفي	-10.6342
▁يهود	-10.6347
▁يأخذون	-10.6349
قابل	-10.6352
ربع	-10.6354
▁لبس	-10.6373
هيمان	-10.6373
▁عادل	-10.6375
مرحض	-10.6376
▁شفتيه	-10.638
▁سف	-10.6393
▁ابق	-10.6394
خزوا	-10.6397
عاهد	-10.6399
▁الكتابة	-10.6402
▁شقق	-10.6405
سرور	-10.641
▁امل	-10.6416
▁تعبت	-10.6418
▁وتضرع	-10.6421
▁مكانهم	-10.6425
▁وسجدت	-10.6444
مناحة	-10.645
▁بقوا	-10.6452
▁ابنها	-10.6463
حمامة	-10.6466
▁وكف	-10.647
▁واثم	-10.6477
▁يباركك	-10.6485
اقضي	-10.6494
▁باس	-10.6496
▁حور	-10.6498
▁وبكر	-10.6504
▁اولادا	-10.6504
▁ناداب	-10.6505
▁اصعدت	-10.651
▁المظال	-10.6524
خطئ	-10.653
▁يحبون	-10.6536
▁يرجعون	-10.6538
▁افعله	-10.654
▁تسلط	-10.6549
اوصاهم	-10.6553
▁وتد	-10.6554
صغي	-10.6554
▁السن	-10.6556
رتي	-10.6561
▁وفتح	-10.6564
▁ابغضت	-10.6564
▁ابصرت	-10.6569
لآلهة	-10.657
▁تعز	-10.6572
▁ثيابك	-10.6585
▁جرح	-10.6586
▁امتلأ	-10.66
شهادات	-10.6602
عتمد	-10.6605
▁أي	-10.6608
▁ورث	-10.6614
ورشليم	-10.6621
▁معروف	-10.6624
▁رأي	-10.6625
وغ	-10.6631
سوء	-10.6637
ولئك	-10.6642
نهض	-10.6647
بيض	-10.6653
▁وسأله	-10.6654
▁حث	-10.6655
▁تيس	-10.6661
▁قيصر	-10.6672
▁مخارجه	-10.6674
▁فيصير	-10.6676
زعزع	-10.6677
▁آباؤنا	-10.6679
▁انطاكية	-10.6679
▁للمرأة	-10.6679
▁وامتلأ	-10.6679
ربشاقى	-10.6679
▁يجتاز	-10.6679
بالأولى	-10.6679
▁السطح	-10.6679
▁فرصة	-10.6679
▁موطئ	-10.6679
▁آبائي	-10.6679
▁الاقوال	-10.6679
▁القاضي	-10.6679
▁الاوثان	-10.6679
▁العظام	-10.6679
▁الجيوش	-10.6679
▁الغلف	-10.6679
▁الموعد	-10.6679
▁وسلطان	-10.6679
▁البيدر	-10.6679
▁الجيدة	-10.6679
▁وكروم	-10.6679
▁تؤمنون	-10.6679
▁والابد	-10.6679
▁اليسار	-10.6679
▁يمنع	-10.6679
▁يابسة	-10.6679
▁وركض	-10.668
▁الغمر	-10.668
صنوج	-10.668
▁لبنة	-10.668
مخاوف	-10.668
▁باثم	-10.668
ترتفع	-10.6681
▁خزف	-10.6681
▁العصا	-10.6681
▁وعمورة	-10.6681
▁لصاحبه	-10.6682
▁ثدي	-10.6682
▁اغلق	-10.6682
▁توكلت	-10.6682
▁ترديدا	-10.6683
▁نسمة	-10.6683
ياقوت	-10.6683
▁ولبن	-10.6684
زارع	-10.6685
غتصب	-10.6685
▁سيكون	-10.6686
▁مضت	-10.6686
▁فقير	-10.6686
▁كأن	-10.6686
▁يرفض	-10.6686
▁نغو	-10.6686
▁ينقطع	-10.6687
▁اضعاف	-10.6688
▁سبحوا	-10.6688
خطايانا	-10.6688
▁حف	-10.6689
يدوثون	-10.6692
▁مخادع	-10.6693
▁حروب	-10.6694
▁والاموريين	-10.6694
▁واتخذ	-10.6695
▁عود	-10.6696
▁المتسلط	-10.6698
▁العظماء	-10.6699
▁سواء	-10.6701
▁ونجا	-10.6702
▁وخاف	-10.6703
▁يضيء	-10.6706
▁بالخير	-10.6707
▁أمور	-10.6708
اجيال	-10.6708
▁مرار	-10.6713
▁الردي	-10.6715
▁اعتمد	-10.6717
▁للجميع	-10.6718
▁أخبر	-10.6718
▁واليبوسيين	-10.672
▁الشعير	-10.6722
▁واحضر	-10.6728
▁عزيا	-10.6729
▁تاج	-10.673
▁فاحفظ	-10.673
▁فانزل	-10.6731
▁رتب	-10.6733
تسعين	-10.6733
▁راية	-10.6734
▁الراعي	-10.6741
▁زوجها	-10.6741
ظالم	-10.6742
▁حلق	-10.6742
رعود	-10.6744
▁الحب	-10.6744
▁فكتب	-10.675
▁تبق	-10.6751
▁ويقيم	-10.6753
▁يقدس	-10.676
▁افتخر	-10.6762
غوي	-10.6763
▁وزنت	-10.6763
▁نجني	-10.6764
يحيئيل	-10.6764
▁يعيش	-10.6764
▁فداء	-10.6768
▁ينادي	-10.6769
▁وتسكن	-10.677
▁اجنحة	-10.6774
▁السلطان	-10.6775
▁بوجه	-10.6777
▁جميلة	-10.6778
يغلق	-10.6778
▁ودفنوه	-10.6779
عربات	-10.6779
▁اثنتين	-10.6785
▁نقض	-10.6785
▁فصح	-10.679
▁ويشربون	-10.6793
زلزلة	-10.6796
▁يبيع	-10.6799
▁ثلاثون	-10.68
املاك	-10.6801
▁ينطق	-10.6805
▁خراب	-10.6806
▁رجم	-10.6808
▁تسبيحة	-10.6808
ساحل	-10.6809
▁غنمك	-10.6813
▁اثر	-10.6815
▁يريدون	-10.6817
▁اشهد	-10.6819
ريس	-10.6821
▁تذبح	-10.6825
▁امتك	-10.6825
لجانب	-10.6831
▁بوص	-10.6832
▁الرواق	-10.6837
▁الطيور	-10.6841
▁ترسل	-10.6841
اضطراب	-10.6846
قوائم	-10.6848
▁وسبعين	-10.6858
▁تألم	-10.6863
▁نسلا	-10.6866
▁مختاري	-10.6868
▁حجي	-10.6869
▁للبر	-10.6869
لاي	-10.6871
▁خان	-10.6872
نطرح	-10.6873
▁صارخ	-10.6875
▁لوز	-10.6875
▁وتعلم	-10.6876
▁ينجو	-10.6877
▁ذاب	-10.6881
▁تعبه	-10.6883
توبوا	-10.6886
▁عرش	-10.6891
▁يأتوا	-10.6892
▁فحل	-10.6892
▁لديك	-10.6893
▁مجدك	-10.6894
▁يخف	-10.6896
▁حننيا	-10.6899
▁انحدر	-10.6903
▁قطعة	-10.6914
▁وغير	-10.692
▁ضمير	-10.692
ستعمل	-10.6935
تعرف	-10.694
▁نعطي	-10.6946
▁فنظرت	-10.6947
▁طرقهم	-10.6948
▁ميتة	-10.695
▁الامير	-10.6951
تضرع	-10.6963
▁اتوا	-10.6963
▁صوف	-10.6966
آخذ	-10.6968
لنسلك	-10.6973
خطية	-10.6979
▁قيس	-10.6983
عتق	-10.6989
▁ساقط	-10.6995
▁جرب	-10.7003
▁تخلص	-10.7017
▁الواح	-10.7018
▁وبسط	-10.7023
▁اعل	-10.7027
صيبا	-10.7045
▁تخافي	-10.7053
▁ضربات	-10.7054
▁وشعبه	-10.7077
▁اسمعي	-10.708
▁وحلف	-10.7082
عوبيد	-10.7083
▁بيض	-10.7086
اعطاهم	-10.7086
منضح	-10.7088
▁ويست	-10.709
يربعام	-10.7091
بطرس	-10.7092
▁يقين	-10.7093
▁واكمل	-10.7094
تضايق	-10.7099
▁تمت	-10.7101
▁آمنت	-10.7107
▁اعداءك	-10.7112
▁المدخل	-10.7112
▁كلمته	-10.7124
▁واكلت	-10.7135
شتت	-10.7141
▁يحفظوا	-10.7151
▁صخرت	-10.7152
▁ونار	-10.7171
▁يؤد	-10.7176
▁مستدير	-10.7179
▁خد	-10.7201
▁مرثا	-10.7203
▁تمام	-10.7204
▁خلقت	-10.7209
▁صنعها	-10.7214
▁المصري	-10.7234
▁بالدم	-10.7236
▁يموتون	-10.7241
▁الحية	-10.7247
▁بوق	-10.725
▁اخاك	-10.7258
ستند	-10.7288
▁الثلاث	-10.729
▁يتنبأ	-10.7297
ائق	-10.7298
ستهزئ	-10.73
تعثر	-10.7306
▁تعبد	-10.7308
▁بانه	-10.7309
▁تسلك	-10.7317
▁وكلمهم	-10.7319
▁رجلان	-10.7329
▁ومواشي	-10.7334
▁ارحم	-10.7334
▁هز	-10.7339
كروبيم	-10.7341
▁اجنحتها	-10.7345
▁الاشجار	-10.7345
▁حاصور	-10.7345
▁لآبائهم	-10.7345
▁الخفاء	-10.7345
▁المعمدان	-10.7345
العمالقة	-10.7345
▁المصاعد	-10.7345
▁تطهير	-10.7345
▁ملائكته	-10.7345
▁والارملة	-10.7345
▁ومئتان	-10.7345
▁شياطين	-10.7345
▁ممدودة	-10.7345
▁صوغر	-10.7345
▁الجارية	-10.7345
▁الرديئة	-10.7345
▁والمرأة	-10.7345
▁المولود	-10.7345
▁مجيئه	-10.7345
▁سقوط	-10.7345
تعاظم	-10.7345
▁الارملة	-10.7345
▁مولود	-10.7345
▁التعليم	-10.7345
▁واستراح	-10.7345
▁وطريق	-10.7346
مفيبوشث	-10.7346
▁الاعمى	-10.7346
▁خضراء	-10.7346
▁عورتها	-10.7346
▁فغور	-10.7346
▁السالك	-10.7346
▁العتيق	-10.7346
▁سكائب	-10.7346
اباطيل	-10.7346
▁اتراس	-10.7347
مقفرة	-10.7347
▁مكرهة	-10.7347
▁أسس	-10.7347
▁وتعطي	-10.7347
▁الغيرة	-10.7347
▁يليق	-10.7347
▁ويطرح	-10.7347
ؤسس	-10.7348
▁العشاء	-10.7348
▁بالسلام	-10.7348
▁تبكي	-10.7348
▁مجانا	-10.7349
▁يحص	-10.7349
▁يغطي	-10.7349
▁كاتب	-10.735
حشبيا	-10.735
▁دينار	-10.7351
▁عقرون	-10.7351
▁ونفس	-10.7352
قداسة	-10.7352
▁وارتفاعه	-10.7353
▁الخصيان	-10.7353
وكيل	-10.7353
▁ترتعب	-10.7354
▁العسكر	-10.7354
▁الهابط	-10.7354
▁قبال	-10.7355
▁بيضاء	-10.7357
▁المحرقات	-10.7357
▁صيدا	-10.7359
تجديف	-10.7359
▁طهر	-10.7359
جوانب	-10.7359
القواعد	-10.736
ليفاز	-10.736
▁بعينه	-10.7361
نرجع	-10.7361
▁يهدي	-10.7361
كايام	-10.7362
▁والغريب	-10.7363
▁بالاستقامة	-10.7365
▁لحزقيا	-10.7366
حول	-10.7367
▁حبال	-10.7367
▁عسل	-10.7368
▁السرير	-10.7369
▁للحياة	-10.737
▁يشتك	-10.7375
▁كهذه	-10.7376
▁وبوص	-10.7376
▁الالف	-10.7376
▁فانصرف	-10.7376
▁الجبار	-10.7376
▁ونصب	-10.7377
▁وغط	-10.7378
▁كرجل	-10.738
▁نصعد	-10.7381
▁فتحفظ	-10.7383
رقيب	-10.7383
▁الحث	-10.7385
▁الصديقين	-10.7385
▁يجتمع	-10.7386
▁لتقدمة	-10.7387
خالف	-10.7388
عثرة	-10.7389
▁ينف	-10.7398
▁نتكلم	-10.7398
▁سبوتي	-10.74
▁يتبرر	-10.74
▁الفجر	-10.74
▁فحسب	-10.7402
▁جوج	-10.7402
غنوا	-10.7403
▁واوقد	-10.7403
▁وأتيا	-10.7405
▁الغنيمة	-10.7405
سبب	-10.7407
▁نسمع	-10.7408
▁الاودية	-10.7408
▁بالحقيقة	-10.7411
▁خدمته	-10.7414
▁تفكر	-10.7417
▁المختار	-10.7417
▁بالفضة	-10.7423
▁يميل	-10.7424
▁العينين	-10.7426
▁والعاز	-10.7427
▁التمس	-10.743
▁ينجس	-10.7434
▁مهلك	-10.7438
▁فعبر	-10.7443
▁ومعرفة	-10.7444
▁وافرح	-10.7444
▁اعدائكم	-10.7445
▁تكشف	-10.7445
▁اقسام	-10.7448
▁استجب	-10.7448
▁معزى	-10.7448
▁المستقيمين	-10.7452
▁درجات	-10.7452
▁آباءكم	-10.7455
▁اصنامهم	-10.7456
يليا	-10.7457
▁تغي	-10.7459
▁شاخ	-10.7462
▁حوشا	-10.7466
▁الفقراء	-10.7467
▁فخل	-10.7472
▁ضم	-10.7475
▁تيوس	-10.7478
▁طاهرا	-10.7486
نزيل	-10.7488
▁قدسي	-10.749
▁افرحوا	-10.7492
▁اعيننا	-10.7493
▁حس	-10.7496
▁يرتفع	-10.7504
أذن	-10.7508
▁آمنين	-10.7508
بقعة	-10.7509
▁تطلق	-10.7513
لشهر	-10.7516
▁مؤمن	-10.7519
لوحا	-10.752
▁تماما	-10.7524
▁بعمل	-10.7528
▁حقويه	-10.7529
▁لديه	-10.7529
▁اقسمت	-10.7531
▁يكسر	-10.7533
ترجع	-10.7535
المدينة	-10.7536
▁الثياب	-10.7542
ستيقظ	-10.7546
عدو	-10.7548
▁يدوس	-10.7552
▁نعمل	-10.756
▁سنح	-10.7562
الشمس	-10.757
▁وهربوا	-10.7576
▁يفنى	-10.7583
رحى	-10.7586
دهشا	-10.7587
▁لرب	-10.759
▁فينحاس	-10.7593
تخس	-10.7593
▁الطين	-10.7596
رحمة	-10.76
▁اخترته	-10.7602
▁البس	-10.7614
▁خطاياك	-10.7618
▁يقدمون	-10.762
▁اخف	-10.7623
عرفون	-10.7629
تكبر	-10.7638
▁بنون	-10.7639
▁اشرق	-10.764
▁متكلم	-10.764
لآكل	-10.7644
▁ملح	-10.7644
▁باطلة	-10.7647
▁يرجم	-10.7666
▁الوجه	-10.767
▁صغيرا	-10.7676
▁توف	-10.7677
▁حلو	-10.7677
▁دمها	-10.7677
▁يتعب	-10.7696
معرفة	-10.77
▁وجدنا	-10.771
▁وألق	-10.7712
▁تخمهم	-10.7723
▁محم	-10.7735
▁تشق	-10.7748
اصد	-10.7749
▁حمام	-10.7752
لعازر	-10.7752
▁طرفي	-10.7757
▁كذبا	-10.7764
عابر	-10.777
▁العز	-10.7774
▁وراس	-10.7778
▁حرم	-10.7778
▁يراه	-10.778
آلهة	-10.7791
طمع	-10.7791
ضمير	-10.7796
جثث	-10.78
الاربعة	-10.78
وليمة	-10.7802
قطيع	-10.7803
صفق	-10.7804
الخراف	-10.7805
هانذا	-10.7805
▁طولا	-10.7805
واحي	-10.7807
▁يمل	-10.7825
زف	-10.7835
▁يحر	-10.7836
▁جثت	-10.7843
تعجبوا	-10.7857
تجف	-10.7861
بحر	-10.7863
▁ويقر	-10.7863
▁القيام	-10.7864
حريق	-10.789
▁يعر	-10.7897
ضربات	-10.7898
▁وامك	-10.7907
▁وخدم	-10.7918
▁يأت	-10.793
▁والحيوان	-10.7939
▁تسم	-10.7949
▁سرت	-10.7974
▁واخبرت	-10.7976
▁الرحم	-10.7979
▁جبع	-10.798
▁ومج	-10.7983
▁الشجر	-10.7985
▁مئتي	-10.7985
▁وكلام	-10.7988
▁واجعلهم	-10.8003
قطف	-10.8021
▁الواقف	-10.8021
تغط	-10.8021
بلاد	-10.8026
▁حام	-10.8035
يسر	-10.8039
فرقته	-10.8047
▁السماوي	-10.8047
جنده	-10.8048
فتاح	-10.8052
افعال	-10.8057
اضطجاع	-10.806
▁احشائي	-10.806
▁الشوارع	-10.806
▁الكسلان	-10.806
▁تماثيل	-10.806
▁تيموثاوس	-10.806
▁عروعير	-10.806
▁كفرناحوم	-10.806
اخيمعص	-10.806
ضفادع	-10.806
▁يهوآش	-10.806
▁الميعاد	-10.806
▁يرتحلون	-10.806
تلذذ	-10.806
▁تؤكل	-10.806
▁الاحشاء	-10.806
▁حاضر	-10.806
▁ومركبات	-10.806
▁دائمة	-10.806
▁قصيدة	-10.806
▁القهاتيين	-10.806
▁يحتاج	-10.806
▁الارواح	-10.806
▁اللسان	-10.806
▁الابرار	-10.806
▁يربعل	-10.806
▁لقيصر	-10.806
▁الرسول	-10.806
▁الشفتين	-10.806
▁مسارح	-10.806
▁ويبارك	-10.806
▁المحبوب	-10.806
جثو	-10.806
▁فركض	-10.806
▁بايمان	-10.806
▁يطرح	-10.806
▁الجراد	-10.806
▁لانفسنا	-10.806
▁تمنع	-10.806
▁مسالك	-10.806
▁ترتيب	-10.806
▁الكوشي	-10.806
▁الالوف	-10.806
▁فاسرع	-10.806
▁عطايا	-10.806
▁العتيد	-10.806
▁الرديء	-10.8061
شلميا	-10.8061
▁فتاكل	-10.8061
▁فبكر	-10.8061
▁الصيف	-10.8061
▁عماسا	-10.8061
▁وكرامة	-10.8061
▁مقبل	-10.8061
▁الرجس	-10.8061
▁تأس	-10.8061
▁ووصل	-10.8061
▁يظلم	-10.8062
▁الصغار	-10.8062
شامخ	-10.8062
لرأوبينيين	-10.8063
زيادة	-10.8063
نسكب	-10.8063
▁تارح	-10.8063
▁قاريح	-10.8063
▁البعيد	-10.8063
▁الحزن	-10.8064
▁الرمح	-10.8064
▁يخرب	-10.8065
موائد	-10.8066
▁وخروف	-10.8066
▁الصورة	-10.8067
▁ادرك	-10.8067
ساقط	-10.8067
▁بعصا	-10.8067
▁اعطانا	-10.8067
▁للكبش	-10.8068
▁ساراي	-10.8068
▁مطروح	-10.8068
طهارة	-10.8069
▁عنقك	-10.807
▁غلتها	-10.8071
▁المتكبر	-10.8072
فراخ	-10.8072
▁ابيكم	-10.8073
▁يضم	-10.8073
▁فرأيت	-10.8074
▁ينفع	-10.8074
▁العار	-10.8075
▁الباقي	-10.8077
▁كليهما	-10.8079
وناداب	-10.8079
▁وكس	-10.8082
▁معز	-10.8084
الفلس	-10.8085
▁يتألم	-10.8086
▁تام	-10.8087
▁المذنب	-10.8087
▁اقتحم	-10.809
▁وينزع	-10.809
▁فله	-10.809
اسهروا	-10.8091
▁امتد	-10.8092
▁لوم	-10.8092
▁بحق	-10.8096
▁البكرات	-10.8096
▁مجلس	-10.8097
▁واجلس	-10.8098
▁قيام	-10.8099
▁يصلح	-10.8099
▁تمتد	-10.8099
نتفع	-10.8101
رخي	-10.8102
▁ويعلم	-10.8103
▁التيمن	-10.8104
خراج	-10.8106
▁تنزع	-10.8107
▁العبرانيين	-10.8113
▁ينجح	-10.8114
تنكر	-10.8116
▁وتدخل	-10.8117
▁ويصنع	-10.8118
▁معلوم	-10.8118
▁خدمتهم	-10.812
▁فانظر	-10.8122
▁ارنم	-10.8123
▁كتفه	-10.8126
امريا	-10.813
▁تفتخر	-10.8132
▁يقض	-10.8134
▁واشرب	-10.8138
▁منقذ	-10.8143
تجند	-10.8143
▁تدفع	-10.8145
▁حرمون	-10.8147
▁ويقف	-10.8149
▁خطيتي	-10.815
▁الخشب	-10.8151
جاهر	-10.8151
▁فالق	-10.8152
▁الكروبين	-10.8156
▁ويفرح	-10.8157
▁اطعم	-10.8158
▁وحفر	-10.816
▁المرضى	-10.8161
▁مثمر	-10.8161
▁افسد	-10.8163
▁خيامهم	-10.8163
▁ترتعد	-10.8164
▁تقع	-10.8168
▁ثانيا	-10.8169
▁السوء	-10.817
▁اشكر	-10.817
▁للسكن	-10.818
عقيق	-10.8184
▁العشرة	-10.8188
▁مرارة	-10.8189
▁شريرة	-10.8196
▁يقع	-10.8197
▁لاسمي	-10.8198
▁بالبر	-10.8198
▁اشبع	-10.8201
▁خروفا	-10.8201
▁نقل	-10.8206
▁الاعمدة	-10.8209
قناة	-10.8209
▁ليسمع	-10.8212
▁صباه	-10.8215
▁خب	-10.8215
▁وساق	-10.8219
▁وابيهو	-10.822
▁السيل	-10.8229
شرائع	-10.823
▁اعي	-10.8235
▁اجيب	-10.8236
▁الكرمة	-10.8238
▁قمحا	-10.8239
عجلون	-10.8241
هدأ	-10.8243
▁وقرب	-10.8249
▁واعلم	-10.8254
▁ويضعون	-10.8254
▁يلقي	-10.8256
▁يفهمون	-10.8259
زجر	-10.8272
▁اتت	-10.8276
يرثون	-10.8282
▁عدوك	-10.8284
▁والمر	-10.8285
▁يفك	-10.8298
الطاهرة	-10.8305
▁يافا	-10.8306
▁فوقع	-10.831
▁اعمالكم	-10.831
وكلاء	-10.831
تمكن	-10.8312
▁ويهو	-10.8323
▁اعطيها	-10.8325
▁تملك	-10.8335
▁التينة	-10.8336
▁كبيرا	-10.8338
أخر	-10.834
▁اعطاها	-10.8362
▁سخطي	-10.8366
▁أأن	-10.8369
كشفت	-10.8369
شتعل	-10.8371
▁الولا	-10.8372
▁ليخدم	-10.8373
▁ففتح	-10.8374
لمعان	-10.8382
مشت	-10.8391
▁يجدون	-10.8393
▁عمي	-10.8395
▁وقدس	-10.8397
ابات	-10.8398
▁تتعب	-10.8398
▁ويسب	-10.8404
▁وبات	-10.8405
▁ليحي	-10.8406
بوق	-10.8408
▁وبناتهم	-10.8408
▁اتان	-10.8411
▁بنفسه	-10.8413
▁وتبعه	-10.8417
▁فعد	-10.8441
▁قوتك	-10.8446
▁النق	-10.8452
▁طردت	-10.8453
▁كلمهم	-10.8454
▁اعطيتها	-10.846
تنعم	-10.8466
▁أتت	-10.8466
▁ناج	-10.847
حيم	-10.8481
▁ومز	-10.8485
يشوع	-10.8488
▁الحثي	-10.8489
رحض	-10.8491
▁اليبوسي	-10.8499
▁ليخدمو	-10.8501
خيمة	-10.8503
تضرعات	-10.8508
ربح	-10.8523
نوء	-10.8524
▁قرب	-10.853
▁يناد	-10.8536
الرئيس	-10.8546
حننيا	-10.8566
▁ينج	-10.8569
اصحاب	-10.8572
▁تقدمت	-10.8575
نفتالي	-10.8575
خار	-10.8581
مشرق	-10.8584
لملوك	-10.8596
▁اعداؤ	-10.86
الجسد	-10.8601
طاف	-10.8607
▁فيعلم	-10.8607
صغر	-10.8616
▁جديد	-10.8621
▁العرب	-10.865
عوز	-10.8682
تقبل	-10.8684
ابوابها	-10.8685
حبرون	-10.8692
▁حاد	-10.8698
▁لابني	-10.8704
▁يؤ	-10.8705
عاقل	-10.8706
▁مسير	-10.8708
▁يقو	-10.8708
▁اشت	-10.8713
▁ارتحل	-10.8718
لمعرفة	-10.8718
▁سنو	-10.8724
▁واعطوه	-10.8746
▁قمح	-10.8754
سفينة	-10.8755
▁اردن	-10.8761
تنور	-10.8765
▁يحم	-10.8771
أصعد	-10.8773
▁وفعلت	-10.8777
يشد	-10.8777
التسبيح	-10.878
لغريب	-10.8781
تخذ	-10.8783
لثيران	-10.8792
▁فطير	-10.8798
▁حولهم	-10.8807
▁ملجإ	-10.881
▁يصرخ	-10.8813
▁يتكل	-10.8814
ضيء	-10.8817
شافاط	-10.8819
مقاوم	-10.8822
زمجر	-10.8823
وآحاز	-10.8828
▁اجناسه	-10.8829
▁المجامع	-10.8829
▁اليزرعيلي	-10.8829
▁جاريتك	-10.8829
▁خطواتي	-10.8829
مصابيح	-10.8829
▁رومية	-10.8829
▁تواليد	-10.8829
▁جرشوم	-10.8829
نفائس	-10.8829
▁أسلام	-10.8829
▁الاسباط	-10.8829
▁للغلام	-10.8829
▁والوبإ	-10.8829
▁الاسواق	-10.8829
▁الكروم	-10.8829
▁آموص	-10.8829
▁الرشوة	-10.8829
▁ركبتيه	-10.8829
▁اسماؤهم	-10.8829
▁غبار	-10.8829
▁امتعته	-10.8829
بوشث	-10.8829
▁وارتحل	-10.8829
العجائب	-10.8829
▁امتنع	-10.8829
مراؤون	-10.8829
مضاجع	-10.8829
▁العلامة	-10.8829
▁لاخآب	-10.8829
ذئاب	-10.8829
▁الرماد	-10.8829
▁امرأتك	-10.8829
▁للعالم	-10.8829
▁بالاثم	-10.8829
▁تطهر	-10.8829
▁زارح	-10.8829
▁جالب	-10.8829
▁رمليا	-10.8829
روماني	-10.8829
▁القبور	-10.8829
▁فطرح	-10.8829
▁ابياثار	-10.8829
▁وامتد	-10.883
▁الحفرة	-10.883
▁ترصة	-10.883
▁مصنوع	-10.883
▁الشفاء	-10.883
▁يصيح	-10.883
▁السفن	-10.883
▁غيور	-10.883
▁كالماء	-10.883
الخادم	-10.883
▁سبحوه	-10.883
▁الاذن	-10.883
▁تخرب	-10.883
▁التلال	-10.883
▁يسجدون	-10.883
▁وبعض	-10.883
يصهار	-10.883
اشقلون	-10.883
▁يخاصم	-10.8831
باراق	-10.8831
▁مشلام	-10.8831
▁تتزعزع	-10.8831
الحماقة	-10.8831
▁اطرح	-10.8831
رؤسا	-10.8831
▁بشدة	-10.8833
▁ناحور	-10.8833
▁القادم	-10.8834
▁لاخوته	-10.8835
▁عوارض	-10.8835
▁غصن	-10.8836
▁ضعيف	-10.8836
▁التنين	-10.8836
لوحش	-10.8836
▁التأديب	-10.8837
▁اشفق	-10.8837
▁الولاية	-10.8837
▁العرس	-10.8837
▁الصديق	-10.8837
▁ممن	-10.8839
▁اخرب	-10.8839
استماع	-10.884
▁دهر	-10.884
يخزون	-10.8841
ضرر	-10.8841
▁عريانا	-10.8842
▁المستهزئ	-10.8842
▁ينقض	-10.8842
▁فتنزع	-10.8843
▁تزول	-10.8843
▁ناظر	-10.8844
▁طالع	-10.8844
الاتراس	-10.8845
▁باحد	-10.8845
▁صلاح	-10.8845
▁عابد	-10.8845
▁دسم	-10.8847
العاصف	-10.8847
▁بالكلمة	-10.8848
▁لآساف	-10.8849
بركات	-10.8853
▁معثرة	-10.8853
▁كتفي	-10.8855
▁فتنبأ	-10.8857
اريم	-10.8858
برخيا	-10.8859
▁لتسمع	-10.8859
▁شهي	-10.8861
▁بالحكمة	-10.8861
▁امكث	-10.8862
فخاري	-10.8862
▁المتمرد	-10.8862
▁واجاب	-10.8862
▁العالي	-10.8863
▁بايديهم	-10.8864
أمر	-10.8864
▁فدية	-10.8865
تراءف	-10.8865
▁والتقدمة	-10.8865
▁التمثال	-10.8866
مواعيد	-10.8867
▁الثيران	-10.8868
▁يستهزئ	-10.8868
▁اخرجهم	-10.887
▁المحيطة	-10.887
▁وحفظت	-10.8873
ارميا	-10.8875
▁وتغش	-10.8878
▁ظن	-10.8879
▁مواليدهم	-10.8879
▁والانسان	-10.8882
▁ونسله	-10.8883
▁فأمر	-10.8883
▁هاجر	-10.8883
▁واعاقب	-10.8883
▁ارجلكم	-10.8885
▁وبعل	-10.8887
تفسير	-10.8887
▁عجلا	-10.8888
▁وابصر	-10.8888
▁المهلك	-10.8888
▁وشاول	-10.8891
▁والمذبح	-10.8891
▁فيوما	-10.8892
▁حسد	-10.8894
اجاج	-10.8895
▁أهو	-10.8897
جفنة	-10.8898
▁لالهنا	-10.8898
▁وتأخذ	-10.8899
▁وافرايم	-10.8899
▁وسكب	-10.89
سرجها	-10.8901
▁بمئة	-10.8903
▁يجيء	-10.8904
▁تزيد	-10.8904
▁ومعسيا	-10.8906
▁تحارب	-10.8907
▁شط	-10.8907
▁السبط	-10.8908
▁الحيوان	-10.8911
▁ليسأل	-10.8912
▁اخذتم	-10.8912
▁وتذهب	-10.8914
▁فاعطيك	-10.8915
▁اجيء	-10.8916
▁ليصعد	-10.8918
▁واسمانجوني	-10.8918
▁الموص	-10.8922
▁ويجمع	-10.8923
▁يفحص	-10.8926
لهذا	-10.8927
▁نعمان	-10.893
▁يحضر	-10.893
▁يقتلوه	-10.8932
▁لاسمك	-10.8942
▁البرص	-10.895
بتاع	-10.8953
▁ذري	-10.8954
▁الحسنة	-10.8956
▁الخراب	-10.8957
▁يحاكم	-10.8957
▁امض	-10.8961
▁اخضع	-10.8964
▁فاران	-10.8966
▁وآخذ	-10.8966
▁امضي	-10.8966
▁لطف	-10.8968
لسكان	-10.8976
▁عيونكم	-10.8977
▁اتيت	-10.8978
▁تبقى	-10.8981
▁اقوم	-10.8984
▁تقيم	-10.8986
▁المغارة	-10.8988
تعلمون	-10.8988
▁يسلكون	-10.8994
▁سرق	-10.8995
▁ايدينا	-10.8998
▁يبتهج	-10.9
▁وشدد	-10.9003
لعدم	-10.9004
▁براس	-10.9014
▁وسرا	-10.9015
▁وباع	-10.9015
▁تسلكوا	-10.9015
▁تاكلون	-10.9017
▁وحيد	-10.9018
▁ساد	-10.9021
▁احيا	-10.9022
▁ونزع	-10.9027
▁اسير	-10.903
▁واياه	-10.9031
أسر	-10.9031
▁تفر	-10.9034
▁الهتاف	-10.9035
▁ابونا	-10.9036
▁حصر	-10.9039
▁جئتم	-10.9049
▁وتشدد	-10.9053
عبور	-10.9053
▁مصو	-10.9054
▁للقائهم	-10.9061
▁يكفي	-10.9061
▁رجليك	-10.9061
▁تكف	-10.9064
▁يفكر	-10.9066
▁ليرد	-10.9066
▁تحفظون	-10.909
سنبل	-10.9091
▁الاطفال	-10.9095
▁الذبيحة	-10.9101
استار	-10.9105
فتقر	-10.9111
▁وارام	-10.9111
نبوة	-10.9112
البوابين	-10.9115
▁الفرق	-10.9117
▁خطيتهم	-10.9117
عرفاء	-10.9117
تعزى	-10.9121
فخر	-10.9122
▁اوصاك	-10.9126
▁العجلة	-10.9128
نصيب	-10.9129
▁تحكم	-10.9138
فقد	-10.9141
▁وماء	-10.9141
لنفس	-10.9152
طفل	-10.9158
بصق	-10.9169
▁ويدفع	-10.9176
▁السخط	-10.918
▁سع	-10.9189
▁الدب	-10.9199
خبث	-10.9202
قبح	-10.9209
▁نوب	-10.9219
توما	-10.9244
لود	-10.9251
انضم	-10.9262
▁أهذ	-10.9267
بطش	-10.9269
حملان	-10.9276
جالس	-10.9287
▁تمل	-10.929
▁ووضعوه	-10.9291
▁احق	-10.9298
حائط	-10.9304
ملائكة	-10.9305
▁اعبد	-10.9313
▁هربت	-10.9316
▁أظهر	-10.9316
سهر	-10.933
▁طم	-10.9332
حرف	-10.934
القسي	-10.9341
▁كروب	-10.9349
تقدمات	-10.9356
صلبوه	-10.9357
▁المعي	-10.9359
▁بالذي	-10.937
اجين	-10.9382
▁سقي	-10.9389
اضاء	-10.9392
▁اصحابه	-10.9396
يؤخذ	-10.9398
تبارك	-10.9401
يعزير	-10.9406
دانيال	-10.9406
▁ويرث	-10.9408
صراخ	-10.9414
محو	-10.9421
▁قربت	-10.944
▁وقوي	-10.9446
▁الباق	-10.9446
انتقم	-10.9446
▁متكل	-10.946
فيض	-10.9462
عشب	-10.9465
سبق	-10.9467
▁واحكام	-10.9468
عتبر	-10.9477
حيدوا	-10.9478
▁يشق	-10.9484
▁واقمت	-10.9485
فتاة	-10.9522
▁الموجود	-10.9525
لانسان	-10.9537
▁اعطاك	-10.956
حامي	-10.9565
زاوية	-10.9568
مصفاة	-10.9571
▁اللعن	-10.9585
▁سرو	-10.9585
شاع	-10.959
▁واثنا	-10.9593
▁وحدهم	-10.9602
▁واهل	-10.9607
▁مواليد	-10.9607
▁كريم	-10.9608
▁طو	-10.9612
لشيطان	-10.9625
جزائر	-10.9631
لعب	-10.9637
طلبون	-10.9662
▁الاسرائيلي	-10.9662
▁الجلعادي	-10.9662
▁الخصام	-10.9662
▁الرجاسات	-10.9662
▁الرفيعة	-10.9662
▁العذارى	-10.9662
▁الغرلة	-10.9662
▁الياشيب	-10.9662
▁فامتلأ	-10.9662
▁كاجناسها	-10.9662
▁وخزائن	-10.9662
▁ومشلام	-10.9662
▁رغيف	-10.9662
▁تيطس	-10.9662
▁فارتحل	-10.9662
▁طمثها	-10.9662
▁احتياج	-10.9662
▁الصحراء	-10.9662
▁الصليب	-10.9662
▁بقوتك	-10.9662
▁مستعدين	-10.9662
مؤامر	-10.9662
▁الاوتار	-10.9662
▁جاسان	-10.9662
▁وجانب	-10.9662
▁اخيطوب	-10.9662
▁الحصار	-10.9662
▁قاعدة	-10.9662
▁يحتقر	-10.9662
▁شعير	-10.9662
▁الكبد	-10.9662
▁مجتاز	-10.9662
▁المجدلية	-10.9662
الطبيعة	-10.9662
▁شبكة	-10.9662
▁اللابس	-10.9662
▁جهنم	-10.9662
▁مركبته	-10.9662
▁مغلق	-10.9662
▁الثلج	-10.9662
▁خطاة	-10.9662
▁هابيل	-10.9662
▁آلهتك	-10.9662
خصومات	-10.9662
▁اقصاء	-10.9662
▁هدايا	-10.9662
▁شغل	-10.9663
ليشمع	-10.9663
ذئب	-10.9663
▁الصاعد	-10.9663
▁السارق	-10.9663
▁ووصايا	-10.9663
▁مربعة	-10.9663
▁يحرسون	-10.9663
▁بليعال	-10.9663
▁آوى	-10.9663
▁الياقيم	-10.9663
▁الاكبر	-10.9663
▁المخرب	-10.9663
▁وباسم	-10.9663
▁هنوم	-10.9663
▁كواحد	-10.9663
▁يائير	-10.9663
▁ونساؤ	-10.9663
▁يركض	-10.9663
▁ومئتي	-10.9664
▁بمكر	-10.9664
الازمنة	-10.9664
▁التوبة	-10.9664
▁شدائد	-10.9664
▁واخرب	-10.9664
▁يلعن	-10.9664
▁صديق	-10.9664
▁والتفت	-10.9664
▁شفاء	-10.9664
▁ماشيا	-10.9664
▁جيران	-10.9665
خرفان	-10.9665
▁بيومه	-10.9665
▁غرباء	-10.9665
▁بالماء	-10.9665
مخاض	-10.9666
▁السهام	-10.9666
▁وكهنت	-10.9666
▁يبكون	-10.9666
▁قديسين	-10.9666
وداعة	-10.9666
▁جازر	-10.9666
▁تفهمون	-10.9667
▁صباي	-10.9667
انبيائه	-10.9667
▁يبنون	-10.9667
ابريز	-10.9667
▁ديار	-10.9668
▁صوبة	-10.9668
▁ميخائيل	-10.9668
▁فيحرق	-10.9669
▁ويترك	-10.9669
▁عمرام	-10.9669
▁المتجه	-10.967
يجوز	-10.967
▁ووقع	-10.967
▁ازال	-10.967
▁نجاة	-10.967
▁القمح	-10.9671
▁والناس	-10.9671
▁شفط	-10.9671
▁ويبيد	-10.9671
▁تغطي	-10.9671
▁ابارك	-10.9673
لسارية	-10.9674
▁اوقات	-10.9674
صعود	-10.9674
▁باصبعه	-10.9674
▁وصحن	-10.9675
▁القرن	-10.9676
▁باكثر	-10.9676
زوفا	-10.9676
▁البعليم	-10.9678
▁رماد	-10.9678
▁ميكال	-10.9679
▁الديك	-10.968
▁لاخيه	-10.968
بداءة	-10.9682
▁والمدن	-10.9684
▁ليوآب	-10.9685
▁يساره	-10.9686
▁صناع	-10.9687
المصنوع	-10.9687
ودعاء	-10.9687
▁يحق	-10.969
▁حاشي	-10.969
▁ابرص	-10.9691
▁بذراع	-10.9692
▁سررت	-10.9693
▁رذل	-10.9693
▁والمحبة	-10.9695
▁لسانه	-10.9696
▁حذ	-10.9698
▁حبس	-10.9699
يعمد	-10.9699
▁شركاء	-10.97
▁وتاخذ	-10.9701
▁تمنة	-10.9701
▁الاسم	-10.9703
▁الاراميون	-10.9705
▁الموجودين	-10.9706
▁باطن	-10.9707
▁تجتمع	-10.9707
▁وتمتلك	-10.9708
▁اراح	-10.9717
اقرع	-10.9717
▁تصرخ	-10.9718
▁غربت	-10.972
▁مذنب	-10.9722
▁محارب	-10.9722
حابر	-10.9726
▁وتشرب	-10.9726
▁النجاسة	-10.9727
▁فاخت	-10.9729
مسيح	-10.9729
▁ويرفع	-10.973
▁والآب	-10.9731
▁نأخذ	-10.9733
▁انقذني	-10.9737
▁بقليل	-10.9737
اتكأ	-10.9739
▁فغضب	-10.974
▁ليجعل	-10.974
▁وشبن	-10.9741
▁يهتف	-10.9743
▁المجن	-10.9744
▁حصرون	-10.9748
▁امانة	-10.9749
▁منحوتا	-10.975
بشارة	-10.9753
▁تسأل	-10.9754
▁فسألوه	-10.9756
▁الموجودة	-10.9757
▁وعصا	-10.976
▁سألت	-10.9761
▁يكتب	-10.9762
▁زناها	-10.9763
▁امتحن	-10.9763
▁والسب	-10.9769
▁والمجد	-10.977
▁يفسد	-10.9772
▁امثال	-10.9773
▁تنبت	-10.9774
▁للأكل	-10.9774
▁بذلك	-10.9777
▁العارف	-10.9779
▁وصرت	-10.9782
▁فمال	-10.9783
زيغ	-10.9786
سحابة	-10.9787
▁بسخط	-10.9787
▁واحكامه	-10.9788
▁قوات	-10.9788
▁واركب	-10.9788
▁حمور	-10.9789
▁واماء	-10.9789
منة	-10.979
▁ليشرب	-10.979
اشراف	-10.9793
تناول	-10.9796
لكلاب	-10.9798
▁ليطلب	-10.9798
ألقي	-10.9801
▁الخاطئ	-10.9801
▁درج	-10.9806
لكس	-10.9807
▁واعطيتهم	-10.9808
▁بطنك	-10.9809
▁ببني	-10.981
▁منتخب	-10.9814
رداء	-10.9814
▁ينوح	-10.9817
ملتو	-10.9819
▁اشرف	-10.9822
▁صخر	-10.9825
▁فحلف	-10.9827
▁العشار	-10.9827
▁مذل	-10.9839
▁وانزع	-10.9841
▁يستر	-10.9844
▁غلف	-10.9847
▁لإ	-10.9855
▁عناق	-10.9857
▁اضل	-10.9863
▁فبنو	-10.9866
▁تكسر	-10.987
▁الخمس	-10.987
المسكر	-10.9875
▁خطاياكم	-10.9879
▁كنار	-10.989
▁يبيت	-10.99
▁فذا	-10.9903
سرج	-10.9904
لحس	-10.9913
لخدمة	-10.9913
بقى	-10.9925
▁ابيد	-10.9931
جنود	-10.9936
▁اعداؤك	-10.9972
مشقة	-11
▁حبلى	-11.0002
▁رؤسائه	-11.0004
فاسد	-11.0005
▁تتبع	-11.0013
خادع	-11.0014
واجب	-11.0025
▁جنب	-11.0036
النور	-11.0045
لتمثال	-11.0048
ريئيل	-11.0081
▁نسيت	-11.0089
▁اقم	-11.0093
تنبأ	-11.0097
▁رعد	-11.0102
تنكسر	-11.0145
مغرب	-11.0147
جروح	-11.0148
خلصني	-11.015
▁مقبول	-11.0154
ليآب	-11.0155
▁سلامته	-11.0168
▁اباكم	-11.0175
▁فكن	-11.0178
▁سالم	-11.0184
ذراع	-11.0189
ذخر	-11.0204
كبرياء	-11.021
رؤيا	-11.022
▁اجرته	-11.022
لطيور	-11.0221
▁مسرع	-11.0223
▁نسائ	-11.0228
▁وحمير	-11.0231
▁السامع	-11.024
تألم	-11.0275
▁ليخز	-11.0276
ارتفاع	-11.0297
▁غد	-11.0298
الثياب	-11.0306
اشعياء	-11.0312
مراحم	-11.0325
تثبت	-11.0332
الرجال	-11.0335
▁تغل	-11.0382
▁علما	-11.0385
▁تضر	-11.0402
رشد	-11.041
▁تستر	-11.042
▁البواب	-11.0441
▁ارع	-11.0442
تموهم	-11.045
▁التاسع	-11.048
لاغاظ	-11.0494
مناظر	-11.0496
يونانيين	-11.052
▁الموآبي	-11.0528
▁الكلداني	-11.0529
▁تمم	-11.0538
لمساكين	-11.0552
غرف	-11.0555
▁نثن	-11.0558
نوعة	-11.056
▁ينطفئ	-11.0571
اضطهاد	-11.0571
▁اعدائنا	-11.0571
▁الاسخريوطي	-11.0571
▁الخنازير	-11.0571
▁الرفائيين	-11.0571
▁الظهيرة	-11.0571
▁الكائن	-11.0571
▁النثينيم	-11.0571
▁بألسنة	-11.0571
▁ثالثة	-11.0571
▁صقلغ	-11.0571
▁فلسطين	-11.0571
▁وتيموثاوس	-11.0571
▁وسكائبه	-11.0571
المذابح	-11.0571
▁ابيجايل	-11.0571
▁بنجاسته	-11.0571
▁شعائر	-11.0571
▁انتذاره	-11.0571
▁باراباس	-11.0571
▁تظنون	-11.0571
▁داجون	-11.0571
▁كالعادة	-11.0571
▁وابياثار	-11.0571
▁وميراث	-11.0571
▁يحيط	-11.0571
لتماثيل	-11.0571
للدخول	-11.0571
▁ومبارك	-11.0571
▁الصخور	-11.0571
▁القبيح	-11.0571
▁كهنوت	-11.0571
صندوق	-11.0571
▁الاسنان	-11.0571
▁الغاية	-11.0571
▁الكرسي	-11.0571
▁والجنوب	-11.0571
▁محنايم	-11.0571
▁شهادت	-11.0571
تؤخذ	-11.0571
▁ازمنة	-11.0571
▁سابقا	-11.0571
▁المجوس	-11.0571
▁خاضع	-11.0572
▁يطهر	-11.0572
▁سؤل	-11.0572
▁الاعالي	-11.0572
▁لبنيامين	-11.0572
▁فريسة	-11.0572
▁حماتها	-11.0572
الدخول	-11.0572
▁جموع	-11.0572
▁عسائيل	-11.0572
▁يحيي	-11.0572
▁اعناق	-11.0572
البهيمة	-11.0572
▁مترسة	-11.0572
▁فبارك	-11.0572
الكباش	-11.0572
▁بريئا	-11.0572
استأجر	-11.0572
▁احتمال	-11.0572
▁بامور	-11.0572
▁وتحرق	-11.0572
▁المتطه	-11.0572
▁المنتهى	-11.0572
مباحث	-11.0572
▁وموسى	-11.0572
▁اوفير	-11.0572
▁وعظام	-11.0572
▁الوبأ	-11.0572
▁اصدق	-11.0572
▁بالامان	-11.0572
▁حصينة	-11.0572
▁واطرح	-11.0573
▁جلبت	-11.0573
▁بثشبع	-11.0573
▁الملء	-11.0573
▁لابرام	-11.0573
▁العراف	-11.0573
▁استقبل	-11.0573
▁اجيالهم	-11.0573
قتحم	-11.0573
الرسائل	-11.0573
▁امناء	-11.0574
▁تدنس	-11.0574
▁ويستحم	-11.0574
▁زاغ	-11.0574
▁اسواق	-11.0574
▁ابراج	-11.0574
▁اهوال	-11.0574
▁وباقي	-11.0574
▁الايمن	-11.0575
▁اعمدتها	-11.0575
▁صباك	-11.0575
▁اغصانها	-11.0575
▁ويسلم	-11.0575
▁عطلة	-11.0575
▁القياس	-11.0576
▁ذهن	-11.0576
▁استراح	-11.0576
▁يطيع	-11.0576
▁ينكر	-11.0576
▁اكبر	-11.0576
▁لياكل	-11.0577
▁اذيال	-11.0577
القضاة	-11.0577
▁والساكن	-11.0578
مجامر	-11.0579
وياقيم	-11.0579
▁اخوتنا	-11.0579
▁حصيد	-11.0579
▁بامثال	-11.058
▁فبهت	-11.0581
▁حملت	-11.0581
نتدب	-11.0581
▁وارحم	-11.0581
▁محتاج	-11.0582
▁الحافظ	-11.0582
ينوعم	-11.0582
▁حورام	-11.0584
تهلل	-11.0587
▁وينضح	-11.0587
الندى	-11.0587
▁والغنم	-11.0588
▁قير	-11.059
▁ومكث	-11.059
استير	-11.0592
▁القيني	-11.0593
▁جزية	-11.0593
ملجإي	-11.0594
طاقة	-11.0594
▁لنذهب	-11.0594
▁اسود	-11.0595
صاهر	-11.0595
▁فصرت	-11.0597
▁والجالس	-11.0597
▁شبر	-11.0598
اليوم	-11.0599
▁بالكلام	-11.06
▁تهدي	-11.0602
▁اختبأ	-11.0603
جزيرة	-11.0603
▁الدينونة	-11.0604
▁بعور	-11.0604
▁عظماء	-11.0604
▁وحجر	-11.0605
▁آباؤهم	-11.0605
▁ونهب	-11.0608
▁وجبل	-11.0608
▁مشيئته	-11.061
▁يقم	-11.0612
▁بالوزن	-11.0612
▁تمد	-11.0613
ديبون	-11.0614
نتفخ	-11.0615
▁الموآبيين	-11.0615
▁اجنادهم	-11.0616
▁صلوات	-11.0618
▁فاصنع	-11.0618
▁اتبعني	-11.0619
سمينة	-11.062
▁مرتين	-11.0624
▁وانتظر	-11.0624
▁الشرقية	-11.0625
▁ممتلئ	-11.0626
▁اليدين	-11.0628
▁استح	-11.0628
▁ويحارب	-11.0631
▁فسار	-11.0632
▁وجوهكم	-11.0636
▁يخدع	-11.0637
▁الطوفان	-11.064
▁واختار	-11.0643
▁تزداد	-11.0644
نطح	-11.0645
▁والاطفال	-11.0648
▁يعوز	-11.0648
▁تمتلئ	-11.0648
▁فالج	-11.0648
▁كقول	-11.065
▁انواع	-11.0651
عذاب	-11.0651
▁فاحب	-11.0652
▁اثقل	-11.0653
▁يدرك	-11.0655
▁احص	-11.066
▁ليحارب	-11.0662
▁بيمين	-11.0663
▁مساكنكم	-11.0663
▁واذري	-11.0664
اخشاب	-11.0666
رحوم	-11.0666
▁العروس	-11.0667
▁احسب	-11.0667
▁ويشبع	-11.0667
▁ويصير	-11.0669
▁لبان	-11.067
عصيان	-11.067
▁الكبرياء	-11.0671
▁فتذكر	-11.0671
رسوم	-11.0672
اغاني	-11.0673
▁واحص	-11.0674
▁المؤمن	-11.0675
▁نرى	-11.0677
▁واطلب	-11.0679
▁ويكثر	-11.068
▁الشقق	-11.0682
▁بخير	-11.0683
▁ويفعل	-11.0685
▁بلهة	-11.0686
▁شكل	-11.069
يقظ	-11.0695
ترنح	-11.0701
▁مخلص	-11.0703
▁ينام	-11.0703
▁ربلة	-11.0704
▁المرض	-11.0704
ابتلعت	-11.0705
▁تأتوا	-11.0709
▁احضر	-11.0711
▁التبن	-11.0711
▁ويخبر	-11.0716
▁يملأ	-11.0717
اصلح	-11.0718
▁لامك	-11.0726
جائع	-11.0728
جهاد	-11.0728
▁وبنت	-11.0733
▁اسكت	-11.0736
▁تضل	-11.0737
▁تشتر	-11.0738
▁بخرو	-11.0744
▁فقول	-11.0747
نفذ	-11.0748
▁اسقط	-11.0764
طحن	-11.077
▁فطرد	-11.0773
عروس	-11.0776
▁قرأت	-11.0786
الرحمة	-11.0786
▁خاصم	-11.0787
يبرأ	-11.08
قاوة	-11.0807
▁تفني	-11.0809
لسبي	-11.081
تسع	-11.0817
رمحه	-11.084
هامان	-11.085
▁كرمل	-11.0859
▁اذبح	-11.0862
▁يعزي	-11.0869
تعزيت	-11.0877
▁أتيا	-11.0886
روش	-11.0893
تعبدون	-11.0919
▁فاتح	-11.0922
ساهر	-11.0929
الصوف	-11.0929
▁قدرته	-11.0941
▁حزم	-11.0942
▁ايش	-11.0955
▁اراك	-11.0965
▁صلح	-11.0977
▁ورؤساؤه	-11.0981
الاحسان	-11.0982
▁تجب	-11.0984
▁الملق	-11.0995
▁اوصاه	-11.1036
يزد	-11.105
ارز	-11.1065
▁القريب	-11.1089
راعي	-11.1106
يدعيا	-11.1109
▁بخطايا	-11.1122
جرف	-11.1126
نبني	-11.1152
اعلان	-11.1152
▁سارق	-11.1153
موازين	-11.1153
▁حان	-11.116
اسمانجوني	-11.1192
اعداء	-11.1198
حمرة	-11.1203
▁قضبان	-11.1204
حاش	-11.1226
▁اطرد	-11.1227
نهر	-11.1234
▁حدته	-11.1236
▁خاص	-11.1236
▁باكور	-11.1245
شرف	-11.1264
▁يحصد	-11.1266
النار	-11.1267
▁وسع	-11.127
حزقيا	-11.1283
رأس	-11.1293
▁ادب	-11.1311
عيسو	-11.1316
الاخرى	-11.132
سكوت	-11.1328
▁اهان	-11.1329
مملكة	-11.1337
▁وعليه	-11.1338
▁امسكت	-11.1342
اثنتي	-11.1345
جناح	-11.1367
عطيهم	-11.137
سامعين	-11.1414
▁مواش	-11.1443
سوط	-11.1447
للرب	-11.1448
يبكي	-11.1461
▁سلاح	-11.1467
▁لسيد	-11.1469
لئي	-11.1471
اشياء	-11.149
حيوان	-11.1519
دخان	-11.1521
▁وذو	-11.1522
▁آباؤك	-11.1525
لتلاميذ	-11.1531
▁استر	-11.1546
خوذة	-11.1552
ازب	-11.1561
▁مملو	-11.1571
الاكاذيب	-11.1571
▁الخليقة	-11.1571
▁الصيدونيين	-11.1571
▁المعصرة	-11.1571
▁بلطشاصر	-11.1571
▁صلفحاد	-11.1571
▁ضوء	-11.1571
▁كرنيليوس	-11.1571
▁مختلفة	-11.1571
▁مخماس	-11.1571
▁والألسنة	-11.1571
▁والخطاة	-11.1571
▁والمناضح	-11.1571
▁وتلاميذه	-11.1571
▁وسكيبها	-11.1571
▁افتخار	-11.1571
▁افراتة	-11.1571
▁عوبديا	-11.1571
▁قيدار	-11.1571
▁مرفوض	-11.1571
افسنتين	-11.1571
▁أرأيت	-11.1571
▁اخنوخ	-11.1571
▁واعمدته	-11.1571
▁والكرامة	-11.1571
▁العوسج	-11.1571
▁لبلعام	-11.1571
▁ومقببه	-11.1571
▁الادومي	-11.1571
▁مجامع	-11.1571
▁وسليمان	-11.1571
▁يخاطب	-11.1571
لتطهير	-11.1571
▁الميراث	-11.1571
▁بفرعون	-11.1571
خزانة	-11.1571
▁الجرشونيين	-11.1571
▁واعترف	-11.1571
▁تخاصم	-11.1571
▁تطفأ	-11.1571
▁بقوته	-11.1571
▁ومستقيم	-11.1571
يلتصق	-11.1571
▁وجبروته	-11.1571
▁يعترف	-11.1571
▁رفقائه	-11.1571
▁الاشبال	-11.1571
▁المحراب	-11.1571
▁بالصدق	-11.1571
▁حماقة	-11.1571
▁والفقير	-11.1571
▁بقلوب	-11.1571
▁البلدان	-11.1571
▁وآيات	-11.1571
الصدوقيين	-11.1571
▁تلتفت	-11.1571
▁اللجج	-11.1571
▁رصين	-11.1571
▁السوسن	-11.1571
▁العتاة	-11.1571
▁الخيام	-11.1571
متسربل	-11.1572
▁بشفتي	-11.1572
▁يحيون	-11.1572
▁الفراش	-11.1572
مغفرة	-11.1572
▁ميلاد	-11.1572
▁نجاسته	-11.1572
▁الفتيان	-11.1572
الكواكب	-11.1572
▁تابور	-11.1572
▁السواري	-11.1572
▁حيطان	-11.1572
بمركبات	-11.1572
▁بحجر	-11.1572
▁برنيع	-11.1572
▁مملكتي	-11.1572
▁وجمال	-11.1572
▁بثمن	-11.1572
▁بخوف	-11.1572
▁دبيب	-11.1572
قباحة	-11.1572
▁مئات	-11.1572
▁متجرد	-11.1572
الاغنياء	-11.1572
ترصيع	-11.1572
▁فاقبل	-11.1572
▁موثق	-11.1572
▁وحاصر	-11.1573
▁يدفنون	-11.1573
سلاطين	-11.1573
▁قاضي	-11.1573
▁يحمدك	-11.1573
▁فاجبت	-11.1573
▁موضوعة	-11.1573
▁لتعلم	-11.1574
تدشين	-11.1574
▁تيمان	-11.1574
▁رحيم	-11.1574
توجع	-11.1574
لانتقام	-11.1574
▁احزن	-11.1574
▁احسانا	-11.1574
▁سواري	-11.1574
▁وتاكل	-11.1574
▁افود	-11.1575
ليبارك	-11.1575
▁فقبل	-11.1575
▁الحقيقي	-11.1575
المتكئين	-11.1575
▁كهنته	-11.1575
▁ليكهن	-11.1575
▁يمشون	-11.1575
اقراط	-11.1575
▁علانية	-11.1576
▁التقط	-11.1576
▁الماشي	-11.1577
▁يتزعزع	-11.1577
▁تفلح	-11.1577
▁فكاك	-11.1577
▁اتفق	-11.1577
زحزح	-11.1578
▁مخارج	-11.1578
▁باسمائهم	-11.1578
▁انصاب	-11.1579
▁السدى	-11.1579
▁رجز	-11.1579
▁يدنس	-11.1579
▁صياح	-11.158
▁يسمى	-11.158
اطعمة	-11.1581
ستوجب	-11.1582
▁غنيمته	-11.1582
▁هتافا	-11.1583
▁قاعدتان	-11.1583
▁والشرير	-11.1584
▁تهدم	-11.1584
▁الضال	-11.1585
▁اشبه	-11.1586
▁تفسيره	-11.1586
▁الاكمة	-11.1587
▁يرعون	-11.1587
▁فاستجاب	-11.1587
▁اخدم	-11.1587
▁للنار	-11.1587
▁العلم	-11.1589
▁مضوا	-11.1589
▁ارتاع	-11.159
▁ارتحش	-11.159
تمضي	-11.159
▁حاران	-11.159
اودية	-11.1591
▁يفدي	-11.1591
ائز	-11.1592
▁يتزوج	-11.1592
▁يرذل	-11.1593
فكش	-11.1593
▁اعترف	-11.1595
▁بالنعمة	-11.1595
▁حلقات	-11.1595
▁الحرام	-11.1596
▁وفينحاس	-11.1597
▁وظلم	-11.1597
▁يهتم	-11.1597
بلوطة	-11.1598
▁استعل	-11.1599
مناطق	-11.1599
خبأت	-11.1601
▁صلات	-11.1601
▁تتعد	-11.1602
▁يخزى	-11.1602
▁الجنة	-11.1603
▁تتنبأ	-11.1605
▁نهايت	-11.1606
▁وبكوا	-11.1606
▁اخزى	-11.1607
▁فابصر	-11.1607
بددهم	-11.1608
▁بامر	-11.1609
▁زكي	-11.1609
ترديد	-11.1609
▁رجائ	-11.1611
▁لتحفظ	-11.1612
▁جرار	-11.1612
▁نيريا	-11.1616
▁يزمجر	-11.1616
▁متكئ	-11.1617
▁يأمر	-11.1617
بزر	-11.1624
▁تنجح	-11.1625
▁المرسل	-11.1627
▁مسكين	-11.1629
صفنيا	-11.1629
▁ومنظره	-11.163
سافل	-11.1631
▁والنجوم	-11.1631
للدار	-11.1632
▁اشتعل	-11.1632
▁جناحيه	-11.1632
▁وتمسح	-11.1633
▁فادخل	-11.1637
▁اليآب	-11.1638
▁اقدام	-11.1644
▁خلاء	-11.1646
▁تجلس	-11.1647
اطهر	-11.1647
▁لدار	-11.1648
▁وباني	-11.1652
▁ويداه	-11.1654
▁وارفع	-11.1662
▁ويبسط	-11.1666
وظيف	-11.1667
▁المحص	-11.1668
▁ينمو	-11.167
▁افتكر	-11.1671
ضغط	-11.1672
▁ونور	-11.1673
▁وتسجد	-11.1674
نتقل	-11.1675
شيخ	-11.1675
▁فاطلق	-11.1676
تبرع	-11.1676
تحقق	-11.168
شعيا	-11.1682
▁وناف	-11.169
لينزل	-11.1691
بتوئيل	-11.1694
▁ابرار	-11.1695
المسطار	-11.1703
▁ويحمل	-11.1709
صادق	-11.1713
ضيف	-11.1716
ستهزأ	-11.1726
يكال	-11.173
▁وعدد	-11.1733
لجند	-11.1746
ربنا	-11.1753
▁ختم	-11.1758
▁انفه	-11.1766
▁اشتريت	-11.1767
اصول	-11.1769
المنسحق	-11.1772
زنيت	-11.1773
▁فقح	-11.178
▁تاجر	-11.178
▁واخبروه	-11.1793
مرثاة	-11.1799
▁تنح	-11.1803
▁ليعرف	-11.1806
▁وبجانبهم	-11.1814
▁المغن	-11.1823
حنوك	-11.1836
▁يجدف	-11.185
قوس	-11.1869
▁ويعرف	-11.187
الكلام	-11.1893
▁مخط	-11.1906
تقلد	-11.1912
قضبانها	-11.1952
نشئ	-11.1982
باكورات	-11.1983
الاسد	-11.1995
حومر	-11.201
▁الرمان	-11.2014
▁اعمد	-11.2029
رجاساتهم	-11.203
▁والكنعاني	-11.2058
▁أفل	-11.21
حفر	-11.2127
▁سيأت	-11.2174
عبيد	-11.2178
تمثل	-11.2196
▁رعو	-11.2196
فاق	-11.2262
قدور	-11.2263
اهانة	-11.2269
▁الزمت	-11.2283
حنطة	-11.2326
غنيمة	-11.2335
الامم	-11.2351
▁قائل	-11.2376
▁اذنب	-11.2402
حتج	-11.2402
▁حقوي	-11.2403
▁وكرا	-11.2412
نضح	-11.2418
يرتفع	-11.242
اعضاء	-11.242
ظاهر	-11.242
ذنوب	-11.2423
الجاهل	-11.2423
▁ثاني	-11.2424
الاخيرة	-11.2425
▁وطرحوه	-11.2478
شقق	-11.2503
▁يعبدو	-11.2512
حمو	-11.2512
▁ادوني	-11.2534
حصاد	-11.2539
يوآب	-11.2541
ميخا	-11.2543
اسوار	-11.2548
قيقة	-11.2579
رجمه	-11.258
يكف	-11.2581
▁حار	-11.2602
▁المتكل	-11.2614
▁يضر	-11.2619
▁دود	-11.2624
▁اجناد	-11.2628
سلوك	-11.2639
خطأ	-11.2647
خزى	-11.2649
لدينونة	-11.2651
▁ذك	-11.2663
▁لآسا	-11.267
موضوع	-11.2676
ختبأ	-11.2681
الترافيم	-11.2682
تسالونيكي	-11.2682
لخزائن	-11.2682
▁التوراة	-11.2682
▁الكهنوت	-11.2682
▁المضروب	-11.2682
▁بالانبياء	-11.2682
▁بتسبيح	-11.2682
▁جواسيس	-11.2682
▁رذيلة	-11.2682
▁فاغتاظ	-11.2682
▁فامتنع	-11.2682
▁لآبائنا	-11.2682
▁هدرعزر	-11.2682
▁وايثامار	-11.2682
▁وضياعها	-11.2682
▁وعوبديا	-11.2682
▁النشيد	-11.2682
▁اليصابات	-11.2682
▁ايثامار	-11.2682
▁وحافظ	-11.2682
▁يروحام	-11.2682
▁يصغوا	-11.2682
▁كغنم	-11.2682
▁واجتاز	-11.2682
▁وموآب	-11.2682
▁اتعاب	-11.2682
▁بالباطل	-11.2682
▁فجميع	-11.2682
▁وعوارضه	-11.2682
▁والخروف	-11.2682
▁والسعاة	-11.2682
ذخائر	-11.2682
▁صليبه	-11.2682
▁بالقوة	-11.2682
▁قناز	-11.2682
▁يستحق	-11.2682
▁ارجاس	-11.2682
▁المسبيين	-11.2682
▁رديئا	-11.2683
▁مظال	-11.2683
▁الارامل	-11.2683
محاباة	-11.2683
▁احشاء	-11.2683
▁بسيوف	-11.2683
▁السبوت	-11.2683
▁واصطف	-11.2683
▁الكريم	-11.2683
▁نزول	-11.2683
الغبار	-11.2683
▁طلوع	-11.2683
▁يلهج	-11.2683
▁الوقوف	-11.2683
▁الصلاح	-11.2683
▁ببعض	-11.2683
▁شمالي	-11.2683
▁المتقدة	-11.2683
▁القلعة	-11.2683
▁يفرغ	-11.2683
▁اعضائ	-11.2683
▁صغار	-11.2683
▁الوحيد	-11.2683
خسارة	-11.2683
▁تطرح	-11.2684
▁مريبة	-11.2684
▁ناحاش	-11.2684
▁خطب	-11.2684
أبلوس	-11.2684
المشايخ	-11.2684
▁واقبل	-11.2684
▁ازدر	-11.2684
▁شرورا	-11.2684
▁باقوال	-11.2684
▁أفليس	-11.2684
ستغيث	-11.2684
آذانهم	-11.2684
▁وجلال	-11.2684
▁افعالهم	-11.2685
▁عرافة	-11.2685
▁وثبت	-11.2685
▁آثامنا	-11.2685
▁افنيهم	-11.2685
▁يصيب	-11.2685
▁باكرا	-11.2685
▁البستان	-11.2685
لجدعون	-11.2686
▁جابر	-11.2686
دفوف	-11.2686
▁دبورة	-11.2686
▁تستجيب	-11.2686
▁عشيرته	-11.2686
▁الشيء	-11.2686
▁منفعة	-11.2686
▁الايدي	-11.2686
▁يمكث	-11.2686
▁رعوئيل	-11.2686
▁قتال	-11.2686
▁موضوعا	-11.2687
الاوقات	-11.2687
▁يسكب	-11.2687
▁النهب	-11.2688
▁بذار	-11.2688
▁يختن	-11.2688
▁اوثان	-11.2688
▁ميثاقي	-11.2688
▁يهوناثان	-11.2688
▁ساكت	-11.2688
▁واستدع	-11.2688
▁وياكل	-11.2688
▁وابيرام	-11.2688
▁ينسى	-11.2689
ثغر	-11.2689
▁الناهب	-11.2689
▁وصيدا	-11.2689
رصاص	-11.269
▁وينزل	-11.269
▁امنع	-11.269
▁النخل	-11.269
ختلط	-11.2691
▁مذلتي	-11.2691
▁وينهب	-11.2692
▁ونخيل	-11.2692
▁ممرا	-11.2693
▁خائفيه	-11.2693
▁استحلف	-11.2693
▁تحصد	-11.2693
صنائع	-11.2694
▁للمحرقة	-11.2694
▁يتعجب	-11.2694
لغنم	-11.2694
▁كعك	-11.2695
▁شخت	-11.2695
▁رفيق	-11.2695
▁بستان	-11.2696
▁يترأف	-11.2697
▁وسيلا	-11.2697
▁عجبا	-11.2698
ليثبت	-11.2698
▁الجميل	-11.2699
وياريب	-11.2699
خيانته	-11.2699
▁قادم	-11.27
▁الهارب	-11.27
▁تارك	-11.2701
▁تبررت	-11.2702
▁السماويات	-11.2702
الفلاح	-11.2702
▁غراب	-11.2703
▁ترهب	-11.2703
ايثان	-11.2703
لجبال	-11.2705
▁بعهد	-11.2706
بهذا	-11.2706
▁سماع	-11.2709
▁مراعي	-11.2709
▁ودعوا	-11.2709
▁يتقون	-11.271
▁وفوق	-11.2711
▁مديون	-11.2711
أعلم	-11.2715
▁يقود	-11.2716
▁فاضطجع	-11.2717
▁واعتمد	-11.272
▁عتيق	-11.2721
▁اذهان	-11.2721
▁راجل	-11.2723
▁تركوني	-11.2724
▁يسوق	-11.2726
حاسب	-11.2727
▁معاند	-11.2729
رفوش	-11.2729
واظب	-11.2731
▁ضال	-11.2739
معسيا	-11.2753
▁قني	-11.2764
تصدق	-11.2765
▁اكمة	-11.2766
تقريب	-11.2773
▁الاتن	-11.2777
قساو	-11.2778
قترن	-11.279
▁باسط	-11.2808
▁اراه	-11.2811
▁يقلع	-11.2813
▁واخوتك	-11.2814
▁الحراس	-11.2814
عجيبة	-11.2816
▁جزيل	-11.2821
امانتك	-11.2821
▁متجه	-11.2839
اليونانيين	-11.2855
ضربوهم	-11.2861
▁يخش	-11.2869
قائ	-11.2873
اكليل	-11.2874
رزوا	-11.2877
حاريم	-11.2878
تمنطق	-11.2921
حادث	-11.2946
▁فاياه	-11.2961
حائك	-11.2962
يوباب	-11.2971
▁تقس	-11.3011
ماشك	-11.3027
تفرغ	-11.303
▁يبد	-11.3043
رعية	-11.3044
▁فتعجب	-11.3081
ايليئيل	-11.3088
لباقين	-11.3108
تنزل	-11.3119
▁حلقتي	-11.3145
▁وتحي	-11.3148
▁رآ	-11.3155
المسيح	-11.3159
▁مواز	-11.3211
▁السقا	-11.3227
▁كرهت	-11.3269
سيء	-11.3269
تحف	-11.3331
معارف	-11.3341
يحرث	-11.3345
▁ارتخ	-11.3369
استشار	-11.3373
سيدي	-11.3381
▁ورؤساؤ	-11.3385
شروق	-11.3391
لرؤساء	-11.3398
بحث	-11.3424
رمانة	-11.345
▁رزز	-11.345
جهة	-11.3484
▁والطاهر	-11.3506
زيع	-11.3543
نجاسة	-11.357
افرايم	-11.3577
غلمان	-11.3586
شهادة	-11.3591
يوناثان	-11.3607
▁وبجانبه	-11.3633
▁والآك	-11.3662
العبراني	-11.3676
الظلام	-11.3684
عينيك	-11.3699
▁والبواب	-11.3703
فريض	-11.371
جئت	-11.3713
ليئة	-11.3738
حارس	-11.3757
طبق	-11.3771
▁نهار	-11.3792
ختطف	-11.3794
▁علو	-11.3803
▁القرع	-11.3845
▁سبوت	-11.3845
طوفان	-11.3849
▁الناظر	-11.3851
▁العصي	-11.3861
▁الغبي	-11.3873
لشيوخ	-11.3875
▁فارجع	-11.3877
▁آباؤه	-11.3885
▁فطوب	-11.3887
لبهائم	-11.3891
فناء	-11.3893
لاعمال	-11.39
▁يتعلم	-11.3912
كنيسة	-11.3915
اجنحتهما	-11.3932
▁استفانوس	-11.3932
▁اكتنفتني	-11.3932
▁الشونمية	-11.3932
▁بعجائب	-11.3932
▁تنتزع	-11.3932
▁جلبوع	-11.3932
▁شنعار	-11.3932
▁لغلامه	-11.3932
▁مهللئيل	-11.3932
▁وآباؤنا	-11.3932
▁وجلعاد	-11.3932
▁وجمهور	-11.3932
▁وزبديا	-11.3932
▁وزبولون	-11.3932
▁وقاعدتها	-11.3932
▁الخاصة	-11.3932
▁القضبان	-11.3932
▁المستكبرين	-11.3932
▁بخطيته	-11.3932
▁كالثلج	-11.3932
▁لتقديسه	-11.3932
▁لتمتلكوها	-11.3932
-	-11.3932
▁الحلقات	-11.3932
▁سلاسل	-11.3932
▁مغفور	-11.3932
▁اتقيائه	-11.3932
▁رؤساؤه	-11.3932
▁والجاديين	-11.3932
▁أهوليب	-11.3932
▁مجيئك	-11.3932
تسابيح	-11.3932
▁الفسجة	-11.3932
▁خابور	-11.3932
▁غفير	-11.3932
▁كنفسك	-11.3932
▁الثروة	-11.3932
▁توبيخ	-11.3932
▁عذارى	-11.3932
▁مفقود	-11.3932
▁مقيدة	-11.3932
▁وآمن	-11.3932
▁وشعوب	-11.3932
▁اكتاف	-11.3932
▁والكاهن	-11.3932
▁والكبشين	-11.3932
رؤوف	-11.3932
▁الناصرة	-11.3932
▁فاحترز	-11.3932
▁لآلهته	-11.3932
▁ميعاد	-11.3932
▁اهتمام	-11.3932
▁منحوتة	-11.3932
▁والرابع	-11.3932
خنزير	-11.3932
▁رديئة	-11.3932
▁مستوية	-11.3932
▁تقاوم	-11.3932
▁راحاب	-11.3932
▁لتمتلكها	-11.3932
▁والسحرة	-11.3932
▁اغاظ	-11.3932
▁ترتاعوا	-11.3932
▁جحش	-11.3932
▁ينتبه	-11.3932
عضدني	-11.3933
▁غفرت	-11.3933
▁الثمن	-11.3933
▁تآمر	-11.3933
▁بثياب	-11.3933
▁راجعا	-11.3933
▁يذوق	-11.3933
خزامة	-11.3933
▁والايمان	-11.3933
▁قبيح	-11.3933
▁وانبياء	-11.3933
استعداد	-11.3933
▁ورحوب	-11.3933
▁راحتي	-11.3933
▁الازرق	-11.3933
▁بالتمام	-11.3933
تراكض	-11.3933
▁انفراد	-11.3933
▁مخيف	-11.3933
▁قينان	-11.3933
▁احيني	-11.3933
زبرجد	-11.3933
▁وابارك	-11.3933
▁الاساس	-11.3933
▁لصوص	-11.3933
▁للسيد	-11.3933
يوآخ	-11.3933
▁خصام	-11.3933
▁واحاط	-11.3933
شيخوخة	-11.3933
▁رحوب	-11.3933
▁أمناء	-11.3933
▁حماقت	-11.3933
▁وملؤه	-11.3933
▁قواعد	-11.3933
▁لشيء	-11.3933
▁ورحيم	-11.3934
لملجإ	-11.3934
مغاير	-11.3934
▁قرمز	-11.3934
▁وتسعون	-11.3934
بالوبإ	-11.3934
▁موعد	-11.3934
▁يلزم	-11.3934
▁يصومون	-11.3934
▁العتمة	-11.3934
▁اصولها	-11.3934
▁ويوسف	-11.3934
▁رافع	-11.3934
▁صائر	-11.3934
▁عورتك	-11.3934
▁فبادر	-11.3934
مكايد	-11.3934
مرضوض	-11.3935
▁وراكب	-11.3935
▁تحزن	-11.3935
▁بالاعمال	-11.3935
▁الجلاد	-11.3935
▁محيط	-11.3935
▁بوصايا	-11.3935
▁اشراك	-11.3935
▁الموكل	-11.3935
▁تيبس	-11.3935
▁يجلب	-11.3936
▁تخش	-11.3937
تكاثر	-11.3937
▁فتحنن	-11.3937
اختبئ	-11.3937
لشمعون	-11.3937
▁الراية	-11.3937
▁شالح	-11.3937
صرعه	-11.3937
▁عداوة	-11.3938
▁الجاعل	-11.3938
▁خشي	-11.3938
▁شارع	-11.3938
▁ورذل	-11.3938
الاحلام	-11.3939
مقادس	-11.3939
مذمة	-11.3939
▁ذكور	-11.3939
محرقته	-11.3939
▁احترق	-11.394
▁وطعام	-11.394
▁يبرر	-11.394
▁مستريح	-11.3941
▁وتخرب	-11.3941
▁وبذراع	-11.3941
▁ورقاق	-11.3941
▁تحولت	-11.3942
▁واعرف	-11.3942
▁نفخة	-11.3942
▁مغط	-11.3942
غادر	-11.3942
عشيرتي	-11.3942
▁لمحاربت	-11.3943
▁اعثر	-11.3943
▁كالرمل	-11.3943
▁بريء	-11.3944
▁تئن	-11.3944
▁والقوة	-11.3944
▁والعدل	-11.3944
▁اهود	-11.3944
▁يحزن	-11.3944
▁وغدا	-11.3944
▁وشبعوا	-11.3945
▁بذنبه	-11.3945
▁جشور	-11.3945
▁شقوق	-11.3945
▁كنوز	-11.3946
▁ترفض	-11.3946
▁يبرح	-11.3946
▁التيماني	-11.3946
▁جبهته	-11.3946
▁ينكسر	-11.3947
▁اسأت	-11.3948
▁رحل	-11.3949
▁حدود	-11.3949
▁المنزل	-11.395
▁صاح	-11.395
▁كمينا	-11.395
▁بصرة	-11.395
نثنئيل	-11.395
▁النوم	-11.3951
▁والعصا	-11.3951
▁يشدد	-11.3951
▁باربع	-11.3951
▁عاصف	-11.3952
▁وامرأت	-11.3952
▁فأتت	-11.3953
▁والحجر	-11.3953
▁ادوات	-11.3953
▁ينقب	-11.3954
تبكون	-11.3954
▁هذين	-11.3954
▁غناه	-11.3955
▁شريك	-11.3955
▁وفتن	-11.3955
عصافة	-11.3955
جاريتي	-11.3956
▁زنت	-11.3956
اقراص	-11.3956
▁بغوا	-11.3957
▁رهب	-11.3957
مرقس	-11.3961
▁وادفع	-11.3963
مزمار	-11.3963
ترميم	-11.3963
▁الغاب	-11.3964
▁يواش	-11.3965
لبيوت	-11.3966
▁هدب	-11.3967
▁مقاومي	-11.397
▁موهب	-11.3971
▁احتقرت	-11.3972
▁القرون	-11.3973
▁عثني	-11.3979
▁خدعت	-11.3982
▁تتكلو	-11.3984
▁وغرست	-11.3989
▁نساؤ	-11.3989
ننزل	-11.3999
لشباك	-11.4
لحوم	-11.4002
عظمائه	-11.4005
لاهلاك	-11.4017
▁ودب	-11.4018
شوبال	-11.4018
▁الزوان	-11.4021
عزرئيل	-11.4022
▁اشكو	-11.4026
شيبة	-11.4034
▁جراد	-11.4034
تقلقل	-11.4036
للرضا	-11.4036
▁وناح	-11.4038
التراب	-11.4079
عاثر	-11.4091
ارتداد	-11.4099
لحامل	-11.41
▁فريسي	-11.4101
▁كالنس	-11.4103
خاصته	-11.4119
اختيار	-11.4128
أمسكت	-11.4132
▁وامش	-11.4136
شيث	-11.4141
لتسعة	-11.4146
الكلمة	-11.4151
قصاص	-11.416
فدايا	-11.4174
تحرك	-11.4224
خنق	-11.4228
دعيتم	-11.4236
جامه	-11.4237
▁ترجم	-11.4257
لغز	-11.4274
عاشر	-11.4303
لابان	-11.4305
يرتاع	-11.4336
رعاهم	-11.4352
▁ويشفو	-11.4366
حفني	-11.4368
▁ويفن	-11.4385
▁رسم	-11.4391
يرتد	-11.4395
يسوع	-11.4416
لفيف	-11.4494
كالب	-11.4511
ارادته	-11.4518
تملأ	-11.4555
يوصي	-11.4582
سنتهم	-11.4587
خدمة	-11.4613
تجارتك	-11.4661
تردد	-11.4661
منفصل	-11.4676
تنهب	-11.4679
▁التجار	-11.4703
خفف	-11.4705
نبات	-11.4711
▁يجتر	-11.4728
▁يعتن	-11.4784
▁ليتجس	-11.4907
ردده	-11.4916
كبش	-11.4948
صغى	-11.4987
الرهن	-11.5002
رعاة	-11.5005
زانية	-11.501
شاول	-11.5033
غطت	-11.5059
تنظران	-11.5061
الفرائض	-11.5097
رأوبين	-11.5098
باروخ	-11.5098
الشعوب	-11.5105
راحيل	-11.5106
معروف	-11.5106
الجمال	-11.5114
طرقه	-11.5126
حوالي	-11.5126
مواشيهم	-11.5164
▁زكري	-11.5196
ليفعل	-11.5203
ظهور	-11.5227
▁الارامي	-11.5244
▁للحي	-11.5272
البرج	-11.5289
▁آلهته	-11.5315
▁واليبوسي	-11.5318
▁المدياني	-11.5318
▁القديس	-11.5319
لعظماء	-11.5323
بعلزبول	-11.5361
ً	-11.5361
▁احشائك	-11.5361
▁اغتاظ	-11.5361
▁البناؤون	-11.5361
▁التقوعي	-11.5361
▁الضعفاء	-11.5361
▁ببأس	-11.5361
▁بسلاسل	-11.5361
▁بطهارته	-11.5361
▁بيلشاص	-11.5361
▁تيخيكس	-11.5361
▁ثالثا	-11.5361
▁كورنثوس	-11.5361
▁لصدقيا	-11.5361
▁للشعوب	-11.5361
▁متوشالح	-11.5361
▁محفوظ	-11.5361
▁نستطيع	-11.5361
▁والفريسيين	-11.5361
▁والنثينيم	-11.5361
▁وتماثيل	-11.5361
الغوغاء	-11.5361
▁الصحيح	-11.5361
▁بيتشمس	-11.5361
▁للاوثان	-11.5361
▁مربوطا	-11.5361
▁مضاعف	-11.5361
▁مضروب	-11.5361
▁والاجنبي	-11.5361
طمأنين	-11.5361
▁الجامعة	-11.5361
▁القاعدة	-11.5361
▁للايقاد	-11.5361
▁ملتهبة	-11.5361
▁والجرجاشي	-11.5361
▁النذير	-11.5361
▁مخترط	-11.5361
▁وكبريت	-11.5361
مرابحة	-11.5361
▁السطوح	-11.5361
▁لبالاق	-11.5361
▁العطشان	-11.5361
▁بالايادي	-11.5361
▁بالخلاف	-11.5361
▁بخاتم	-11.5361
▁قيافا	-11.5361
▁نجاسات	-11.5361
▁الغمام	-11.5361
▁خيمتي	-11.5361
▁كأسد	-11.5361
▁كداود	-11.5361
▁مصيبة	-11.5361
اشتأول	-11.5361
▁احرارا	-11.5361
▁اضرم	-11.5361
▁الاعزاء	-11.5361
▁فشفاهم	-11.5361
▁الشيلوني	-11.5361
▁مشتهيات	-11.5361
▁اجتهاد	-11.5361
▁اضداد	-11.5361
▁للجسد	-11.5361
▁لملاقا	-11.5361
▁والسموات	-11.5361
▁المعسكر	-11.5361
▁بامانة	-11.5361
الدعاوي	-11.5361
▁بمرارة	-11.5361
▁الاقيسة	-11.5361
▁سطح	-11.5361
▁والوصية	-11.5361
▁يلتفت	-11.5361
▁بقربانه	-11.5361
▁الخروج	-11.5361
▁برحمتك	-11.5361
▁نخدم	-11.5361
▁واطياب	-11.5361
▁هيرودي	-11.5361
لزبولون	-11.5361
▁للسيف	-11.5361
▁وزارح	-11.5361
▁والجبل	-11.5361
تمييز	-11.5361
▁الازقة	-11.5361
▁شغب	-11.5361
▁خليقة	-11.5361
▁الغادرين	-11.5361
▁طلاق	-11.5361
▁الرقبة	-11.5361
▁لوصايا	-11.5361
▁تعبيره	-11.5361
▁يحتمل	-11.5361
▁ومرسلا	-11.5362
▁الرجمة	-11.5362
▁نقبل	-11.5362
▁لسمعان	-11.5362
▁وشكيم	-11.5362
▁بكوريت	-11.5362
▁واثبت	-11.5362
▁التصق	-11.5362
▁بانفسهم	-11.5362
▁المحاكمة	-11.5362
▁شرفاء	-11.5362
▁الشهور	-11.5362
▁شهور	-11.5362
▁العجين	-11.5362
▁ويرميا	-11.5362
▁عميناداب	-11.5362
استطعت	-11.5362
▁فعاش	-11.5362
اكارع	-11.5362
▁الحصون	-11.5362
▁صامت	-11.5362
▁الامانة	-11.5362
▁المنافق	-11.5362
▁شيشق	-11.5362
▁مقتدر	-11.5362
▁مساكين	-11.5362
لسؤال	-11.5362
▁ألسنتهم	-11.5362
▁فباطل	-11.5362
▁جبروته	-11.5362
▁بالظلم	-11.5362
مجازاة	-11.5362
▁وعظيم	-11.5362
فؤوس	-11.5362
▁بخلاصك	-11.5363
▁مسالم	-11.5363
عكبور	-11.5363
▁الاسرى	-11.5363
▁بالانجيل	-11.5363
▁نخلة	-11.5363
▁والبهاء	-11.5363
▁فيعثر	-11.5363
▁نترك	-11.5363
▁غمده	-11.5363
▁فاحرق	-11.5363
للخروف	-11.5363
▁فسكتوا	-11.5363
▁فيطهر	-11.5363
▁وأهولي	-11.5364
تجاسر	-11.5364
▁زيف	-11.5364
اسلحة	-11.5364
▁فقاس	-11.5364
▁الولادة	-11.5364
مرايوث	-11.5364
▁حجارته	-11.5364
▁الجنس	-11.5364
▁كاحد	-11.5364
▁اليسرى	-11.5364
▁عميقة	-11.5365
▁طائع	-11.5365
▁مستطاع	-11.5365
▁غرلته	-11.5365
▁اوتاد	-11.5365
▁وبكيت	-11.5365
لسكيب	-11.5365
عوائد	-11.5365
▁ويبنون	-11.5365
الجحش	-11.5365
▁يرحمئيل	-11.5365
▁شفتاي	-11.5365
▁المنحدر	-11.5366
▁نياما	-11.5366
▁وتعملونها	-11.5366
▁واستحلف	-11.5366
▁تصدقون	-11.5366
الكبار	-11.5366
▁حزينا	-11.5366
▁ركض	-11.5366
▁يزال	-11.5366
▁آثامهم	-11.5366
▁عبثا	-11.5366
▁ليبيد	-11.5366
▁افيق	-11.5366
▁الاخرس	-11.5367
الشهوة	-11.5367
▁معصرة	-11.5367
▁للارض	-11.5367
▁تكره	-11.5367
▁صوعن	-11.5367
▁ناهبي	-11.5368
ستخدم	-11.5368
▁وفاته	-11.5368
الخزف	-11.5368
توأم	-11.5368
▁مكتوم	-11.5369
▁اوصانا	-11.537
▁أفانت	-11.537
▁الديان	-11.537
شلوميث	-11.5371
▁بالغد	-11.5371
▁ضاق	-11.5371
عصائب	-11.5371
طوقين	-11.5372
الآلام	-11.5372
▁اخرس	-11.5372
▁آلام	-11.5373
▁الختم	-11.5374
عنقود	-11.5375
▁ابطلت	-11.5375
▁تأب	-11.5375
▁اهدم	-11.5376
▁بغل	-11.5378
جامات	-11.5378
احمال	-11.538
شخص	-11.5381
مراكب	-11.5381
▁وايمان	-11.5381
الجبعوني	-11.5382
فتروس	-11.5382
تحزب	-11.5384
▁شبابك	-11.5384
جدران	-11.5386
▁وصام	-11.5388
الظبي	-11.539
المحرقة	-11.539
تجدد	-11.5393
▁وجلد	-11.5395
الافود	-11.54
كافأ	-11.5402
الزناة	-11.5418
المتأخر	-11.5426
▁ودعوت	-11.5426
سياج	-11.5426
تهربون	-11.5427
الحلم	-11.5431
تجديد	-11.5441
لتسبيح	-11.5455
استبق	-11.5464
▁تتنجسو	-11.5466
سميذ	-11.5466
▁وتقو	-11.547
لصانع	-11.5473
يهوحانان	-11.5473
الحث	-11.5477
▁صعوده	-11.5486
اغاظته	-11.5487
▁اجمل	-11.549
▁ظهوره	-11.5498
لفضة	-11.5501
انكسار	-11.5525
ياوان	-11.5529
شبكته	-11.5535
حرشف	-11.5549
)	-12.1528
I	-12.1528
:	-12.4861
1	-12.9861
2	-12.9861
[	-12.9861
]	-12.9861
h	-12.9861
o	-12.9861
(	-13.9859
ـ	-13.986
5	-13.9861
6	-13.9861
J	-13.9861
T	-13.9861
i	-13.9861
n	-13.9861
y	-13.9861
ٍ	-13.9861
*	-13.9861
m	-13.9861
t	-13.9861
