<pad>	0
</s>	0
<unk>	0
▁¦	-0
ku	-1
ng	-2
ba	-3
wa	-4
th	-5
la	-6
na	-7
ni	-8
kh	-9
le	-10
si	-11
zi	-12
ka	-13
▁u	-14
ph	-15
lu	-16
we	-17
nga	-18
thi	-19
ma	-20
ya	-21
lo	-22
ye	-23
nd	-24
li	-25
be	-26
▁e	-27
oku	-28
ke	-29
▁,	-30
se	-31
kho	-32
za	-33
▁a	-34
bo	-35
▁ng	-36
ne	-37
▁i	-38
sa	-39
pha	-40
▁𐋇	-41
yo	-42
▁ku	-43
kulu	-44
yi	-45
mi	-46
▁k	-47
▁na	-48
khu	-49
▁uku	-50
▁wa	-51
bu	-52
ze	-53
mu	-54
ngi	-55
▁“	-56
nge	-57
uku	-58
▁.	-59
▁n	-60
▁ba	-61
sh	-62
bi	-63
nkulu	-64
▁o	-65
tha	-66
ko	-67
nt	-68
lwa	-69
okuba	-70
the	-71
hla	-72
so	-73
kwa	-74
nye	-75
fu	-76
▁aba	-77
nke	-78
phe	-79
ki	-80
khe	-81
wo	-82
khulu	-83
me	-84
▁K	-85
su	-86
thu	-87
▁nga	-88
je	-89
▁N	-90
▁ka	-91
ini	-92
da	-93
fa	-94
ha	-95
▁kwa	-96
ri	-97
aba	-98
▁ni	-99
ndi	-100
kepha	-101
no	-102
▁no	-103
▁ngi	-104
ntu	-105
kwe	-106
kha	-107
kulunkulu	-108
mbi	-109
zo	-110
yaku	-111
Nkulunkulu	-112
mba	-113
weni	-114
nya	-115
▁Ng	-116
tho	-117
ngo	-118
▁ya	-119
nda	-120
st	-121
khona	-122
▁si	-123
phi	-124
▁nge	-125
um	-126
kosi	-127
▁:	-128
▁be	-129
leyo	-130
▁lo	-131
.”	-132
vu	-133
fi	-134
▁;	-135
bona	-136
wu	-137
hle	-138
▁ukuba	-139
Je	-140
rist	-141
▁ne	-142
▁la	-143
zu	-144
de	-145
nza	-146
nzi	-147
ja	-148
▁um	-149
dwa	-150
ela	-151
▁ko	-152
wi	-153
pho	-154
nu	-155
ndla	-156
ngokuba	-157
Jesu	-158
lwe	-159
zin	-160
▁oku	-161
uma	-162
▁ukuthi	-163
muntu	-164
zwi	-165
ngu	-166
▁ngokuba	-167
▁ye	-168
oda	-169
epha	-170
mo	-171
tsh	-172
ga	-173
▁yi	-174
▁U	-175
ristu	-176
lela	-177
▁ngo	-178
zwe	-179
fundi	-180
▁Kepha	-181
mbe	-182
▁wathi	-183
qa	-184
lokho	-185
▁ezi	-186
▁kepha	-187
he	-188
ndu	-189
▁kwe	-190
▁isi	-191
xa	-192
nja	-193
zwa	-194
hlu	-195
kholwa	-196
phaka	-197
qo	-198
mp	-199
nje	-200
wathi	-201
nkulunkulu	-202
ndle	-203
▁ama	-204
sebe	-205
▁kuye	-206
swa	-207
▁we	-208
phu	-209
▁ngoku	-210
▁izi	-211
gc	-212
Nkosi	-213
kela	-214
va	-215
fe	-216
bonke	-217
▁esi	-218
lowo	-219
▁ma	-220
▁sa	-221
▁li	-222
▁Ngokuba	-223
▁.”	-224
▁za	-225
suku	-226
▁W	-227
zaku	-228
▁nje	-229
▁B	-230
kazi	-231
ngena	-232
yisi	-233
hlo	-234
mbu	-235
ukuba	-236
▁noku	-237
ngc	-238
▁‘	-239
wele	-240
ngoku	-241
phendu	-242
▁-	-243
nxa	-244
nze	-245
qini	-246
ningi	-247
▁naba	-248
ru	-249
▁Wa	-250
ukuthi	-251
▁em	-252
?”	-253
nkosi	-254
odana	-255
njalo	-256
munye	-257
nde	-258
yese	-259
ho	-260
ce	-261
lwane	-262
khuluma	-263
▁kubo	-264
▁se	-265
▁uma	-266
ro	-267
eli	-268
hli	-269
▁zi	-270
▁uJesu	-271
▁Nga	-272
sho	-273
kile	-274
wini	-275
lokhu	-276
ra	-277
ngaba	-278
phambi	-279
shi	-280
umi	-281
▁uNkulunkulu	-282
leni	-283
sha	-284
thanda	-285
heka	-286
isi	-287
▁kini	-288
ama	-289
bha	-290
phakathi	-291
phila	-292
phezu	-293
ezi	-294
nsi	-295
▁khona	-296
▁bonke	-297
Kristu	-298
mina	-299
ndo	-300
fika	-301
▁kwaba	-302
mandla	-303
vela	-304
sebenzi	-305
di	-306
▁A	-307
qala	-308
noku	-309
▁le	-310
▁ngu	-311
fane	-312
hu	-313
▁kodwa	-314
kubo	-315
kuye	-316
▁Ba	-317
uda	-318
mhla	-319
jesu	-320
hamba	-321
phela	-322
khathi	-323
▁yo	-324
hi	-325
zalwane	-326
sile	-327
esi	-328
dla	-329
bani	-330
khule	-331
izi	-332
▁konke	-333
nto	-334
du	-335
futhi	-336
phendula	-337
▁ukuze	-338
naba	-339
oya	-340
beni	-341
▁eli	-342
zela	-343
shumi	-344
lweni	-345
▁eku	-346
▁?	-347
nina	-348
funa	-349
awu	-350
bonaka	-351
gu	-352
lungi	-353
saba	-354
imi	-355
thetho	-356
kaNkulunkulu	-357
khi	-358
ntwa	-359
rofe	-360
bili	-361
▁noma	-362
lele	-363
tshe	-364
▁lokho	-365
nta	-366
Ma	-367
▁lu	-368
moya	-369
▁imi	-370
lwini	-371
gama	-372
gi	-373
kele	-374
ntwana	-375
zulwini	-376
bula	-377
hlizi	-378
et	-379
▁bathi	-380
hlala	-381
manga	-382
▁kaNkulunkulu	-383
leli	-384
oli	-385
ngelo	-386
▁owa	-387
ngcwele	-388
bheka	-389
ngum	-390
kristu	-391
profe	-392
kuba	-393
▁nase	-394
lile	-395
nyama	-396
dodana	-397
▁ze	-398
siwe	-399
zonke	-400
ngama	-401
mela	-402
ndlu	-403
ina	-404
mvu	-405
bathi	-406
phansi	-407
awulu	-408
ngelosi	-409
ca	-410
phuma	-411
kwaba	-412
re	-413
▁lapho	-414
moni	-415
kini	-416
▁𐊣	-417
busi	-418
▁kanye	-419
▁aku	-420
owa	-421
yu	-422
mulo	-423
risti	-424
swe	-425
nani	-426
▁kube	-427
bonakali	-428
kodwa	-429
sindi	-430
▁lokhu	-431
▁Ngakho	-432
ndodana	-433
Juda	-434
ndela	-435
▁ngenxa	-436
▁yakhe	-437
Moya	-438
zini	-439
ngakho	-440
zane	-441
▁yena	-442
musa	-443
▁abe	-444
thile	-445
kube	-446
▁Y	-447
etru	-448
phakade	-449
kani	-450
▁ese	-451
kwenza	-452
ngalokho	-453
kanye	-454
soku	-455
▁in	-456
▁nezi	-457
▁umuntu	-458
yazi	-459
Jo	-460
Si	-461
em	-462
baba	-463
zweni	-464
yini	-465
yise	-466
khosi	-467
vi	-468
▁so	-469
ngesi	-470
xuku	-471
kwazi	-472
nyane	-473
▁waba	-474
▁nina	-475
sale	-476
athi	-477
▁I	-478
▁kuba	-479
▁futhi	-480
sifa	-481
▁izin	-482
thoko	-483
salema	-484
.’	-485
▁phambi	-486
mbisa	-487
rusalema	-488
mbili	-489
▁E	-490
ngabi	-491
Ndodana	-492
▁Kwathi	-493
pristi	-494
mkhulu	-495
buso	-496
profethi	-497
yela	-498
▁izwi	-499
yakuba	-500
nezi	-501
▁UJesu	-502
yena	-503
ngathi	-504
▁mina	-505
fanele	-506
hliziyo	-507
konke	-508
▁phakathi	-509
kisa	-510
hane	-511
yoku	-512
▁bakhe	-513
sifazane	-514
ngani	-515
ngaka	-516
fileyo	-517
phandle	-518
ge	-519
eku	-520
sela	-521
go	-522
weyo	-523
themp	-524
▁Wayese	-525
shuma	-526
▁naye	-527
ceku	-528
ngwa	-529
thula	-530
khuleka	-531
thempeli	-532
lisa	-533
ngeli	-534
khonza	-535
woku	-536
▁Kho	-537
▁phezu	-538
▁kwakhe	-539
zizwe	-540
mthetho	-541
hlezi	-542
thina	-543
qinisile	-544
ndoda	-545
ta	-546
▁Ku	-547
khombisa	-548
▁kakhulu	-549
do	-550
▁uP	-551
boni	-552
riya	-553
▁wo	-554
fuma	-555
▁kwenu	-556
vangeli	-557
yishumi	-558
yiku	-559
▁iNkosi	-560
nika	-561
meni	-562
zulu	-563
ngenxa	-564
faka	-565
lapho	-566
njani	-567
ukuze	-568
kazimulo	-569
▁nama	-570
gcwele	-571
butha	-572
▁waye	-573
▁ngithi	-574
lotsh	-575
sinyane	-576
lini	-577
noma	-578
▁uya	-579
lelwa	-580
▁?”	-581
lunga	-582
▁aka	-583
▁engi	-584
ci	-585
thela	-586
beka	-587
▁angi	-588
▁zonke	-589
kukhona	-590
Ngi	-591
▁yini	-592
thathu	-593
yeli	-594
yizi	-595
meme	-596
seku	-597
qiniso	-598
kayo	-599
muka	-600
▁Khona	-601
nti	-602
pathi	-603
lula	-604
waba	-605
▁L	-606
hlwa	-607
▁uyaku	-608
bhapathi	-609
gcwa	-610
▁Ngi	-611
▁ngaba	-612
tsha	-613
mukela	-614
aku	-615
nama	-616
hawu	-617
zimba	-618
kwahlu	-619
bhu	-620
fakazi	-621
▁emi	-622
▁kwabo	-623
ese	-624
▁ninga	-625
▁eni	-626
ndlini	-627
in	-628
layo	-629
wayese	-630
ila	-631
risi	-632
ndawo	-633
doda	-634
▁babe	-635
▁loku	-636
thatha	-637
thando	-638
themba	-639
▁muntu	-640
lwandle	-641
Baba	-642
thiwa	-643
▁kimi	-644
yala	-645
jalo	-646
▁nani	-647
▁enga	-648
chi	-649
kiso	-650
nike	-651
gcina	-652
▁ngama	-653
namandla	-654
▁kuNkulunkulu	-655
nj	-656
▁ubu	-657
bonga	-658
beke	-659
muke	-660
nesi	-661
▁nalowo	-662
neni	-663
▁Kwa	-664
kileyo	-665
Yi	-666
▁Uma	-667
▁nxa	-668
zinsuku	-669
sweni	-670
hlanga	-671
lotshi	-672
▁Aba	-673
bela	-674
▁O	-675
muzi	-676
qonda	-677
fundisa	-678
▁Kristu	-679
Jerusalema	-680
umo	-681
mhlaba	-682
nq	-683
▁asi	-684
▁lwa	-685
thelo	-686
kwenze	-687
ndleni	-688
yisikhombisa	-689
▁wam	-690
▁nami	-691
bandla	-692
▁phansi	-693
ngase	-694
shiya	-695
Sa	-696
▁nesi	-697
thokoza	-698
bone	-699
fo	-700
buye	-701
keni	-702
▁wena	-703
tu	-704
ngezi	-705
ngazi	-706
nase	-707
ve	-708
cala	-709
hluphe	-710
Johane	-711
▁ngesi	-712
wesifazane	-713
hlakani	-714
phon	-715
▁omunye	-716
ngubo	-717
fumana	-718
cwa	-719
nene	-720
yakhe	-721
esa	-722
naye	-723
thwa	-724
kwathi	-725
▁njalo	-726
kakhulu	-727
▁ngakho	-728
gazi	-729
she	-730
limi	-731
▁bam	-732
▁kuze	-733
▁nabo	-734
landela	-735
zono	-736
▁nom	-737
memeza	-738
umuntu	-739
bezizwe	-740
nyu	-741
▁Ko	-742
ninga	-743
▁kuwe	-744
▁lakhe	-745
ywa	-746
stoli	-747
fikile	-748
fanekiso	-749
jo	-750
▁m	-751
lesi	-752
vuka	-753
▁ngezi	-754
▁abanye	-755
▁ezulwini	-756
labo	-757
phostoli	-758
shumayela	-759
nyi	-760
sra	-761
▁en	-762
lise	-763
srayeli	-764
izwi	-765
▁ani	-766
▁abafundi	-767
langa	-768
melwe	-769
sono	-770
▁lowo	-771
khanda	-772
zandla	-773
▁kunge	-774
koku	-775
nyaka	-776
kwakhe	-777
▁Wathi	-778
▁ngokwe	-779
juda	-780
ti	-781
aka	-782
biza	-783
lutho	-784
▁yami	-785
▁abantu	-786
nami	-787
nyawo	-788
yalo	-789
▁lwe	-790
uj	-791
nkazimulo	-792
▁yoku	-793
thethe	-794
lotshiwe	-795
▁kuphela	-796
angi	-797
xu	-798
bhe	-799
nce	-800
waye	-801
demoni	-802
khanya	-803
ngeni	-804
nguku	-805
zwile	-806
hambe	-807
▁ngaye	-808
▁ngiya	-809
bonakaliso	-810
raha	-811
▁baba	-812
lezo	-813
qobo	-814
zoku	-815
▁ema	-816
braha	-817
▁koku	-818
brahama	-819
▁wayese	-820
bakhe	-821
mehlo	-822
nkulungwa	-823
Fa	-824
mbo	-825
▁soku	-826
▁zakhe	-827
cela	-828
niya	-829
thuma	-830
▁S	-831
ndlela	-832
ngithi	-833
▁ngase	-834
thempelini	-835
nkulungwane	-836
abe	-837
sika	-838
▁esa	-839
mbula	-840
misebenzi	-841
▁iNdodana	-842
shwa	-843
bukhosi	-844
kholwayo	-845
▁.’	-846
misa	-847
kwenu	-848
▁omkhulu	-849
▁masinyane	-850
ose	-851
kobe	-852
lilo	-853
mele	-854
zayo	-855
esu	-856
babe	-857
dumo	-858
thane	-859
▁onga	-860
sandla	-861
▁kwami	-862
▁yethu	-863
lelo	-864
▁emhla	-865
▁ngokuthi	-866
mpela	-867
ebo	-868
▁yilowo	-869
▁uKristu	-870
Ba	-871
goge	-872
bhali	-873
▁kuyo	-874
nagoge	-875
phamba	-876
▁lutho	-877
▁manje	-878
▁njengokuba	-879
ena	-880
ntando	-881
▁ababe	-882
dle	-883
nwa	-884
fike	-885
yweni	-886
ngweni	-887
fundisi	-888
bele	-889
kimi	-890
leka	-891
suka	-892
▁uyi	-893
▁Base	-894
uya	-895
▁ebu	-896
Ngcwele	-897
Nkosini	-898
nhliziyo	-899
ngom	-900
ngabe	-901
zisa	-902
▁sebe	-903
Farisi	-904
▁eJerusalema	-905
▁—	-906
nabo	-907
ndwa	-908
kwami	-909
liswa	-910
ngiya	-911
thande	-912
ngalokhu	-913
Ni	-914
▁Ma	-915
▁Kodwa	-916
ani	-917
▁zo	-918
engi	-919
bindi	-920
mukele	-921
ncenga	-922
diya	-923
Ga	-924
loku	-925
wena	-926
▁Jesu	-927
▁oNgcwele	-928
boku	-929
naku	-930
nweni	-931
ndaweni	-932
sabatha	-933
,”	-934
nom	-935
buka	-936
▁ngom	-937
▁thina	-938
▁uMoya	-939
▁bazalwane	-940
▁”	-941
mpo	-942
thaka	-943
khumbi	-944
ngokwe	-945
thembi	-946
▁uzaku	-947
▁yakho	-948
asi	-949
dumi	-950
lika	-951
kwabo	-952
thini	-953
thembe	-954
▁bheka	-955
▁wakhe	-956
thumela	-957
base	-958
nkwa	-959
cwadi	-960
hlane	-961
hlanu	-962
▁ezweni	-963
phambili	-964
▁yomuntu	-965
ebe	-966
qhu	-967
fowa	-968
vide	-969
yisa	-970
hlaka	-971
ndele	-972
phele	-973
qondi	-974
▁ethi	-975
fowabo	-976
khatha	-977
ngubani	-978
▁kanjani	-979
hliziyweni	-980
ngco	-981
Na	-982
mile	-983
▁olu	-984
phulu	-985
uyaku	-986
▁labo	-987
▁woku	-988
thandi	-989
▁uPawulu	-990
▁Ngalokho	-991
bala	-992
soze	-993
hlobo	-994
lungileyo	-995
oma	-996
▁wami	-997
fakaza	-998
▁likaNkulunkulu	-999
bhi	-1000
ji	-1001
Petru	-1002
hlale	-1003
▁seku	-1004
bulala	-1005
▁yonke	-1006
▁ngiyaku	-1007
▁Wayesethi	-1008
yeza	-1009
zala	-1010
laba	-1011
▁naku	-1012
▁waphendula	-1013
▁njengalokho	-1014
emi	-1015
ngqo	-1016
mbuso	-1017
nyeni	-1018
khonzi	-1019
mileyo	-1020
tshela	-1021
busisiwe	-1022
eni	-1023
▁izwe	-1024
▁sakhe	-1025
lisi	-1026
kunge	-1027
▁Ni	-1028
▁bo	-1029
nywa	-1030
ilatu	-1031
thele	-1032
▁kulo	-1033
ngcoli	-1034
▁Bheka	-1035
▁yathi	-1036
mangala	-1037
fana	-1038
seni	-1039
,’	-1040
Ja	-1041
▁uM	-1042
▁igama	-1043
▁kwakho	-1044
▁kanjalo	-1045
!”	-1046
khala	-1047
hlwanye	-1048
sindiswa	-1049
Ku	-1050
zile	-1051
Israyeli	-1052
sithathu	-1053
▁endlini	-1054
▁abaningi	-1055
▁ngaphandle	-1056
mazi	-1057
khipha	-1058
hlanganye	-1059
qe	-1060
siya	-1061
bhalo	-1062
hlela	-1063
mbala	-1064
mbuza	-1065
nguye	-1066
▁ezin	-1067
▁nguye	-1068
▁kukhona	-1069
▁eNkosini	-1070
Lo	-1071
▁yenu	-1072
▁okukhulu	-1073
izin	-1074
dlula	-1075
ngene	-1076
kwenzi	-1077
phathi	-1078
sukela	-1079
buthaka	-1080
thembiso	-1081
▁Lo	-1082
kelwa	-1083
▁wase	-1084
▁munye	-1085
▁wethu	-1086
▁bayaku	-1087
▁nambili	-1088
ngaphandle	-1089
nakho	-1090
pu	-1091
qu	-1092
ili	-1093
sizi	-1094
▁laba	-1095
▁zabo	-1096
omunye	-1097
▁lonke	-1098
phenduka	-1099
▁umthetho	-1100
hlakanipha	-1101
ngala	-1102
ngaye	-1103
bam	-1104
▁ki	-1105
vuma	-1106
muhle	-1107
wethu	-1108
▁anga	-1109
▁ngani	-1110
dlu	-1111
hora	-1112
kulo	-1113
leso	-1114
phefu	-1115
nyameni	-1116
nagogeni	-1117
▁kwabafileyo	-1118
manje	-1119
mihla	-1120
nalowo	-1121
▁awu	-1122
lahle	-1123
lelwe	-1124
▁zenu	-1125
kulunga	-1126
sebenza	-1127
▁okuhle	-1128
yisihlanu	-1129
▁ivangeli	-1130
kuka	-1131
kuze	-1132
▁emva	-1133
Simoni	-1134
abanye	-1135
▁nokuthi	-1136
zimu	-1137
nduna	-1138
wenza	-1139
phambe	-1140
▁Na	-1141
▁bu	-1142
kuwe	-1143
nini	-1144
▁wazi	-1145
Galile	-1146
kaKristu	-1147
▁abaJuda	-1148
ngamashumi	-1149
▁kukaNkulunkulu	-1150
mpa	-1151
mise	-1152
sabi	-1153
lakhe	-1154
khutha	-1155
liwe	-1156
mpum	-1157
nazi	-1158
onke	-1159
uthi	-1160
yeni	-1161
zuku	-1162
▁Ese	-1163
▁ayi	-1164
bantu	-1165
puthe	-1166
shaya	-1167
khulume	-1168
Abrahama	-1169
gcwalise	-1170
mpumputhe	-1171
kwahlulela	-1172
thandekayo	-1173
▁emhlabeni	-1174
buza	-1175
febe	-1176
ngisa	-1177
thaba	-1178
ubu	-1179
wam	-1180
▁Ka	-1181
enga	-1182
▁lami	-1183
▁nokuba	-1184
▁amandla	-1185
▁abakhulu	-1186
cane	-1187
hlalo	-1188
mpofu	-1189
zelwa	-1190
gameni	-1191
yilowo	-1192
hlupheka	-1193
phefumulo	-1194
jerusalema	-1195
buthakathaka	-1196
nqo	-1197
Bheka	-1198
▁yisi	-1199
Jakobe	-1200
▁ngalo	-1201
abafundi	-1202
sondela	-1203
lomo	-1204
rode	-1205
muhla	-1206
zwayo	-1207
▁baya	-1208
▁siya	-1209
Pawulu	-1210
abantu	-1211
▁lapha	-1212
▁ngezwi	-1213
ngalungi	-1214
lalela	-1215
Yise	-1216
▁waya	-1217
▁zoku	-1218
▁kwesi	-1219
▁uPetru	-1220
▁ethempelini	-1221
khunj	-1222
kwini	-1223
bonile	-1224
pawulu	-1225
Thi	-1226
kithi	-1227
▁lase	-1228
▁bethi	-1229
▁uqobo	-1230
Sathane	-1231
▁indoda	-1232
▁umbuso	-1233
▁isikhathi	-1234
▁imisebenzi	-1235
njengokuba	-1236
gq	-1237
▁am	-1238
belo	-1239
vini	-1240
udiya	-1241
zakhe	-1242
▁base	-1243
▁okwa	-1244
▁sesi	-1245
ndleleni	-1246
phambanweni	-1247
sisa	-1248
phuza	-1249
kanjalo	-1250
▁niyaku	-1251
▁isixuku	-1252
▁kuKristu	-1253
duze	-1254
mini	-1255
hlophe	-1256
nokuba	-1257
nyelwe	-1258
kuphela	-1259
philayo	-1260
nxu	-1261
wazi	-1262
▁ngum	-1263
▁nathi	-1264
sana	-1265
yami	-1266
butho	-1267
ncane	-1268
ezulwini	-1269
sezulwini	-1270
wayesethi	-1271
enye	-1272
file	-1273
hloni	-1274
khuni	-1275
zelwe	-1276
▁kuka	-1277
▁ngini	-1278
▁wakho	-1279
bonakala	-1280
zukulwane	-1281
mbona	-1282
nziwe	-1283
petru	-1284
ntabeni	-1285
Da	-1286
Uma	-1287
khwe	-1288
nhla	-1289
Kepha	-1290
▁yabo	-1291
ngithu	-1292
▁umusa	-1293
bum	-1294
shu	-1295
goli	-1296
sesi	-1297
wenu	-1298
zama	-1299
ngaso	-1300
ngini	-1301
qonde	-1302
shilo	-1303
thole	-1304
golide	-1305
khunjini	-1306
mbusweni	-1307
mhlabeni	-1308
kuyo	-1309
▁lesi	-1310
▁unga	-1311
▁nguku	-1312
▁wonke	-1313
sokunene	-1314
▁nangoku	-1315
▁ukuphila	-1316
nqa	-1317
ema	-1318
nci	-1319
vume	-1320
▁eza	-1321
letha	-1322
phika	-1323
phile	-1324
▁nibe	-1325
Davide	-1326
▁nezin	-1327
▁nonke	-1328
nkosini	-1329
▁ukudla	-1330
hlambala	-1331
▁elikhulu	-1332
dumisa	-1333
lingani	-1334
He	-1335
mva	-1336
▁Yi	-1337
ngalo	-1338
▁bona	-1339
▁yaba	-1340
phonsa	-1341
▁kukho	-1342
▁sonke	-1343
▁kuqala	-1344
nzo	-1345
luka	-1346
muso	-1347
wula	-1348
dleni	-1349
lapha	-1350
ndaba	-1351
ngiyaku	-1352
emva	-1353
siye	-1354
kukho	-1355
▁kuwo	-1356
lelani	-1357
phatha	-1358
▁kahle	-1359
▁uBaba	-1360
▁kwethu	-1361
▁ngosuku	-1362
▁izinsuku	-1363
▁nguNkulunkulu	-1364
laka	-1365
liya	-1366
yimi	-1367
banga	-1368
kubona	-1369
masinyane	-1370
dli	-1371
▁om	-1372
mali	-1373
wabo	-1374
waya	-1375
ababe	-1376
khube	-1377
yethu	-1378
▁bami	-1379
▁enye	-1380
johane	-1381
ndlebe	-1382
thupha	-1383
▁bakho	-1384
▁zinto	-1385
fundiso	-1386
▁kungabi	-1387
▁indodana	-1388
yedwa	-1389
wayini	-1390
Ha	-1391
Mina	-1392
nezin	-1393
▁maka	-1394
▁onke	-1395
▁Bathi	-1396
▁kubantu	-1397
▁sikhathi	-1398
▁ukukholwa	-1399
gci	-1400
galo	-1401
wase	-1402
yaba	-1403
mbeni	-1404
shoyo	-1405
zalwa	-1406
zenzi	-1407
zinge	-1408
lisiwe	-1409
njenge	-1410
thweni	-1411
thuneni	-1412
shiyagalo	-1413
waphendula	-1414
▁Ya	-1415
sele	-1416
▁	-1417
a	-1418
¦	-1419
n	-1420
i	-1421
e	-1422
u	-1423
k	-1424
o	-1425
l	-1426
h	-1427
b	-1428
s	-1429
w	-1430
m	-1431
g	-1432
y	-1433
z	-1434
t	-1435
,	-1436
d	-1437
p	-1438
.	-1439
𐋇	-1440
f	-1441
N	-1442
:	-1443
r	-1444
;	-1445
j	-1446
“	-1447
q	-1448
c	-1449
K	-1450
v	-1451
”	-1452
J	-1453
-	-1454
?	-1455
x	-1456
U	-1457
B	-1458
M	-1459
A	-1460
W	-1461
S	-1462
‘	-1463
’	-1464
P	-1465
I	-1466
Y	-1467
L	-1468
E	-1469
𐊣	-1470
𐊼	-1471
F	-1472
O	-1473
G	-1474
!	-1475
T	-1476
H	-1477
D	-1478
—	-1479
Z	-1480
R	-1481
Q	-1482
2	-1483
1	-1484
V	-1485
3	-1486
5	-1487
X	-1488
6	-1489
4	-1490
7	-1491
8	-1492
9	-1493
C	-1494
'	-1495
0	-1496
