<pad>	0
</s>	0
<unk>	0
ܐ	-2.88056
ܘ	-3.64958
ܝ	-3.95866
ܢ	-3.96212
▁	-3.97567
ܝܢ	-4.03697
ܬ	-4.06399
ܗ	-4.07115
▁ܕ	-4.12968
▁ܡܢ	-4.38343
ܟ	-4.48121
ܡ	-4.49967
▁ܒ	-4.56261
ܕ	-4.57473
▁ܠܐ	-4.60487
ܫ	-4.6307
▁ܠ	-4.64941
▁ܗܘ	-4.64976
ܩ	-4.69138
▁ܘ	-4.70117
ܘܢ	-4.74344
▁ܕܝܢ	-4.75146
▁ܡ	-4.76378
▁ܠܗ	-4.76577
ܤ	-4.77559
ܪ	-4.7871
ܒ	-4.82304
ܬܐ	-4.86
ܠ	-4.8866
ܚ	-4.89448
ܦ	-4.90383
ܢܐ	-4.91739
ܛ	-4.94662
▁ܐ	-4.951
▁ܗܘܐ	-5.02325
▁ܐܢܐ	-5.09749
ܥ	-5.10151
▁ܢ	-5.12165
▁ܥܠ	-5.21537
▁ܓܝܪ	-5.28786
ܙ	-5.30448
▁ܐܡܪ	-5.30551
ܓ	-5.34897
ܘܬܐ	-5.39006
▁ܕܡ	-5.41786
ܘܗܝ	-5.43594
ܝܐ	-5.4561
▁ܬ	-5.48047
▁ܠܡ	-5.49993
▁ܐܝܟ	-5.50797
ܠܐ	-5.51565
▁ܝܫܘܥ	-5.54
▁ܐܠ	-5.55282
▁ܘܠܐ	-5.56728
▁ܠܗܘܢ	-5.5855
▁ܘܡ	-5.6012
ܡܐ	-5.60301
▁ܐܦ	-5.62847
▁ܐܢܬܘܢ	-5.63005
▁ܘܐܡܪ	-5.64183
▁ܗܘܘ	-5.64449
ܨ	-5.64833
▁ܟܕ	-5.65799
▁ܐܬ	-5.67095
▁ܕܠܐ	-5.68979
ܝܬ	-5.69429
▁ܕܢ	-5.75567
▁ܡܛܠ	-5.75811
▁ܠܟܘܢ	-5.77778
▁ܘܒ	-5.84131
▁ܕܐ	-5.85907
ܝܠܝܢ	-5.87621
▁ܚ	-5.87811
▁ܕܒ	-5.89038
▁ܫ	-5.89283
▁ܚܕ	-5.89861
▁ܕܐܠܗܐ	-5.90834
ܪܐ	-5.94902
▁ܗܝ	-5.95687
▁ܘܐ	-5.96451
▁ܐܢܬ	-5.9755
▁ܐܢ	-6.00302
▁ܗ	-6.01546
ܒܪ	-6.02934
▁ܠܝ	-6.03819
ܟܘܢ	-6.06136
ܫܐ	-6.07385
▁ܐܠܗܐ	-6.07488
▁ܒܗ	-6.0921
ܠܝ	-6.10471
▁ܗܢܐ	-6.11394
ܢܝ	-6.1222
▁ܘܠ	-6.1353
▁ܐܢܘܢ	-6.15777
▁ܥܡ	-6.16286
▁ܗܠܝܢ	-6.17213
ܝܠ	-6.17741
ܕܝܢ	-6.19955
ܬܗ	-6.20728
▁ܘܟܕ	-6.21871
▁ܘܢ	-6.22742
▁ܡܬ	-6.2377
▁ܟܠ	-6.25558
ܥܒܕ	-6.25965
ܘܤ	-6.26756
ܝܪ	-6.26811
▁ܘܕ	-6.27415
ܒܝ	-6.28327
▁ܡܫܝܚܐ	-6.28434
▁ܡܕܡ	-6.29285
ܘܪ	-6.29808
▁ܐܝܬ	-6.31177
▁ܥ	-6.34383
▁ܥܒܕ	-6.3453
▁ܤ	-6.356
▁ܐܘ	-6.38228
▁ܐܢܫ	-6.38336
ܟܝܠ	-6.38571
▁ܒܪ	-6.38577
▁ܦ	-6.38851
▁ܠܟ	-6.40094
ܝܬܐ	-6.40947
ܩܘ	-6.40995
▁ܕܚ	-6.42376
ܗܘܢ	-6.44643
ܬܘܢ	-6.44662
ܟܪ	-6.44742
▁ܕܬ	-6.47265
ܬܪ	-6.482
▁ܠܘܬ	-6.48479
▁ܘܡܢ	-6.49353
ܫܠܡ	-6.4948
ܟܠ	-6.50317
▁ܘܐܢ	-6.5034
▁ܗܕܐ	-6.50515
ܝܗܘܢ	-6.52864
▁ܥܕ	-6.53047
ܚܐ	-6.544
▁ܗܢܘܢ	-6.545
▁ܩܕܡ	-6.55869
ܕܡ	-6.5619
▁ܕܠ	-6.58023
ܒܐ	-6.58058
ܩܪ	-6.58101
▁ܘܐܬ	-6.5868
ܡܢ	-6.58908
▁ܕܡܢ	-6.59836
ܡܪ	-6.63248
ܘܡ	-6.64182
▁ܠܢ	-6.64519
ܦܪ	-6.65412
▁ܛ	-6.6543
ܪܝ	-6.66072
ܝܘ	-6.67263
▁ܓ	-6.67898
▁ܝܕܥ	-6.68347
ܥܠ	-6.69061
ܪܘ	-6.71052
ܛܪ	-6.71146
▁ܕܐܝܬ	-6.71732
ܪܥ	-6.76197
ܝܟ	-6.76849
▁ܘܫ	-6.77984
ܠܟ	-6.79115
▁ܒܝܬ	-6.79345
ܡܠܠ	-6.79534
▁ܘܚ	-6.80129
ܠܦ	-6.80597
ܒܘ	-6.82292
ܠܝܢ	-6.84149
ܘܒ	-6.84201
▁ܤܓܝܐܐ	-6.84601
ܒܠ	-6.8581
ܘܬ	-6.85885
ܕܥ	-6.86237
ܚܘ	-6.8674
ܝܗ	-6.86951
▁ܗܟܢܐ	-6.88969
ܝܢܢ	-6.89754
▁ܒܡ	-6.90751
▁ܘܗܘ	-6.9106
ܝܗܝ	-6.91718
▁ܕܗܘ	-6.91896
ܕܐ	-6.91957
ܪܝܢ	-6.92085
ܙܒܢ	-6.92161
▁ܗܘܬ	-6.92238
ܤܪ	-6.92636
▁ܐܬܐ	-6.94895
▁ܟܠܗܘܢ	-6.95214
▁ܓܒܪܐ	-6.95557
ܒܥ	-6.95685
ܩܠ	-6.95972
ܝܟܘܢ	-6.96572
▁ܢܬ	-6.96578
▁ܫܡܥ	-6.96825
▁ܙ	-6.97741
▁ܚܢܢ	-6.98645
▁ܢܗܘܐ	-6.99522
▁ܘܬ	-6.99755
▁ܐܚܝ	-7.00422
▁ܕܐܬ	-7.0086
▁ܪܘܚܐ	-7.01653
▁ܕܐܡܪ	-7.01677
ܒܗ	-7.01726
ܚܪ	-7.01946
ܫܝ	-7.02192
▁ܘܗ	-7.03452
ܠܝܐ	-7.04822
▁ܘܩ	-7.04904
▁ܕܐܢ	-7.05544
ܐܝܬ	-7.06385
▁ܩܪ	-7.07188
▁ܪܒ	-7.07304
ܘܪܐ	-7.07436
▁ܒܢܝ	-7.07633
▁ܘܐܡܪܝܢ	-7.07823
▁ܠܐܠܗܐ	-7.07963
ܟܝ	-7.08519
ܫܪ	-7.08547
▁ܕܤ	-7.0947
ܬܟܘܢ	-7.09649
ܪܟ	-7.09776
▁ܒܚ	-7.10499
ܘܬܗ	-7.11629
ܠܘ	-7.11904
▁ܬܡܢ	-7.12229
ܕܝ	-7.1295
ܚܕ	-7.14342
▁ܨ	-7.1492
▁ܟܠܗ	-7.15522
▁ܐܤ	-7.15706
ܚܝ	-7.1664
▁ܡܐ	-7.16931
ܩܕ	-7.16982
ܪܡ	-7.1699
▁ܘܥܠ	-7.17257
▁ܐܙܠ	-7.17915
▁ܒܬܪ	-7.17988
ܚܡ	-7.18111
ܝܩ	-7.18626
▁ܚܝ	-7.19099
▁ܗܘܝܬ	-7.20542
ܝܡܐ	-7.2136
▁ܐܡܪܝܢ	-7.21378
▁ܕܐܦ	-7.22016
▁ܘܤ	-7.22761
▁ܠܒܪ	-7.23474
▁ܘܐܝܬ	-7.23854
ܚܙܐ	-7.23903
▁ܐܡܝܢ	-7.24274
ܐܪܥܐ	-7.24679
▁ܐܝܟܢ	-7.25124
▁ܝܕܥܝܢ	-7.2555
▁ܠܒ	-7.25725
ܪܬܐ	-7.26024
ܩܐ	-7.26557
ܩܢ	-7.27411
ܬܗܘܢ	-7.27754
▁ܐܫܬ	-7.2953
ܝܒ	-7.29706
▁ܥܠܘܗܝ	-7.30184
▁ܢܦܩ	-7.30223
▁ܒܫ	-7.30572
ܓܕ	-7.3089
▁ܬܘܒ	-7.30913
▁ܝܬܝܪ	-7.31468
ܬܝ	-7.31899
▁ܡܪܝ	-7.32348
▁ܡܫܟܚ	-7.32524
▁ܡܫ	-7.33062
▁ܘܥ	-7.33375
ܫܡܫ	-7.33539
▁ܡܠܬܐ	-7.33874
▁ܡܢܗ	-7.34238
▁ܘܪ	-7.34279
▁ܒܪܗ	-7.36473
ܗܢܘܢ	-7.37152
▁ܕܦ	-7.37432
ܫܡܥ	-7.38213
▁ܘܐܦ	-7.38519
▁ܕܥܡ	-7.38629
▁ܡܗܝܡܢ	-7.3867
▁ܕܥܒܕ	-7.4062
▁ܡܚ	-7.41229
▁ܕܟܠ	-7.42128
▁ܗܫܐ	-7.43859
▁ܒܠܚܘܕ	-7.44057
▁ܒܝ	-7.44896
▁ܐܢܫܐ	-7.45146
▁ܢܤܒ	-7.45226
▁ܚܙ	-7.45326
▁ܠܘܬܗ	-7.46079
ܤܐ	-7.46331
ܥܐ	-7.46486
▁ܝܗܘܕܝܐ	-7.46643
▁ܢܦܫܗ	-7.47224
▁ܕܝܫܘܥ	-7.47354
▁ܡܢܗܘܢ	-7.48285
▁ܥܡܗ	-7.48417
▁ܠܝܬ	-7.48903
▁ܐܚܪܢܐ	-7.49758
▁ܗܘܝܬܘܢ	-7.49919
ܦܐ	-7.50062
ܠܬܐ	-7.5015
▁ܡܫܬ	-7.50179
▁ܫܡܝܐ	-7.50618
▁ܝܗܒ	-7.51497
ܕܚܠ	-7.51849
ܝܘܗܝ	-7.52068
ܓܪ	-7.52091
ܟܢܫ	-7.52327
▁ܤܒܪ	-7.52388
▁ܡܡܠܠ	-7.54072
ܠܘܢ	-7.54655
ܛܝܒ	-7.54705
▁ܢܡܘܤܐ	-7.54901
ܓܠܐ	-7.55104
▁ܒܢ	-7.55662
▁ܘܟܠ	-7.56289
▁ܢܦܫ	-7.56698
▁ܕܫܡܥ	-7.56848
ܒܥܐ	-7.57879
▁ܥܒܕܐ	-7.5797
▁ܨܒܝܢ	-7.58569
▁ܟܢܫܐ	-7.58602
▁ܥܢܐ	-7.58697
▁ܫܡܥܘܢ	-7.59331
▁ܟܗܢܐ	-7.5941
▁ܦܘܠܘܤ	-7.59512
▁ܡܢܟܘܢ	-7.59964
▁ܚܙܐ	-7.60249
▁ܬܠܡܝܕܘܗܝ	-7.60437
ܪܬ	-7.61542
▁ܐܝܢ	-7.61593
▁ܐܪܥܐ	-7.6202
ܝܬܘܢ	-7.62062
▁ܕܕ	-7.62229
▁ܠܥܠܡ	-7.62309
ܢܝܐ	-7.62558
▁ܚܠܦ	-7.62678
▁ܤܡ	-7.63192
ܠܚ	-7.6325
▁ܡܝܬܐ	-7.63893
▁ܡܪܢ	-7.64112
▁ܦܓܪ	-7.644
▁ܝܘ	-7.64795
▁ܕܥ	-7.65491
▁ܫܘ	-7.66015
▁ܕܡܪܢ	-7.66309
▁ܕܥܠ	-7.66325
▁ܡܠܐ	-7.66879
▁ܩܕܝܫ	-7.67067
ܨܒ	-7.67197
ܩܪܒ	-7.67265
▁ܨܒܐ	-7.67518
▁ܒܤ	-7.67643
▁ܟܬܒ	-7.6788
▁ܟܐܦܐ	-7.68029
▁ܬܬ	-7.68093
▁ܕܢܬ	-7.69063
▁ܘܐܙܠ	-7.69143
▁ܒܪܘܚ	-7.69406
▁ܥܡܗܘܢ	-7.70057
▁ܠܒܝܬ	-7.70296
▁ܩܪܒ	-7.71225
▁ܥܝܢ	-7.71584
▁ܪܒܐ	-7.71639
▁ܚܝܐ	-7.71931
ܟܬܒ	-7.71936
▁ܡܕܝܢܬܐ	-7.71941
▁ܐܢܬܬܐ	-7.72011
▁ܕܡܫܝܚܐ	-7.72487
ܡܕܝܢܬܐ	-7.72709
▁ܫܐܠ	-7.72731
▁ܐܝܬܘܗܝ	-7.72986
▁ܡܠܐܟܐ	-7.74093
ܬܝܗܒ	-7.74132
▁ܕܐܢܫܐ	-7.74933
▁ܫܒ	-7.74963
ܟܠܢܫ	-7.75036
▁ܘܢܦܩ	-7.75466
▁ܡܪܝܐ	-7.76235
▁ܪܘܚ	-7.76315
▁ܕܐܝܬܘܗܝ	-7.76639
▁ܢܒܝܐ	-7.76669
▁ܕܢܫ	-7.7736
▁ܠܘܬܟܘܢ	-7.7738
▁ܐܒܐ	-7.77732
▁ܩܡ	-7.77985
ܥܤܪ	-7.78434
▁ܒܟܘܢ	-7.78798
▁ܘܠܡ	-7.79016
ܪܒܐ	-7.79224
ܥܘܠ	-7.79602
▁ܡܝܬ	-7.79834
ܤܝܒܪ	-7.80568
▁ܕܒܗ	-7.80809
▁ܕܩܘܕܫܐ	-7.80915
▁ܕܐܬܐ	-7.81871
▁ܕܢܚ	-7.8199
▁ܚܕܐ	-7.8323
▁ܕܡܪܝܐ	-7.83392
▁ܢܦܠ	-7.83487
▁ܕܒܪ	-7.83561
▁ܪܒܝ	-7.84152
▁ܠܚܕ	-7.84193
▁ܟܠܗܝܢ	-7.84622
▁ܐܝ	-7.84654
ܘܕܝ	-7.84728
▁ܫܦܝܪ	-7.85608
▁ܡܠܟܐ	-7.85748
▁ܐܝܕܐ	-7.85808
▁ܦܪ	-7.8604
ܪܝܡ	-7.86173
▁ܐܫܟܚ	-7.86803
▁ܕܠܡܐ	-7.87267
ܛܐ	-7.8778
▁ܕܡܬ	-7.8787
▁ܙܒܢܐ	-7.88312
ܡܫܝܚܐ	-7.88368
ܗܦܟ	-7.89531
ܟܝܢ	-7.90052
▁ܒܟ	-7.90154
ܘܕܐ	-7.90212
▁ܡܪ	-7.90424
▁ܤܓܝ	-7.90626
ܟܠܡܕܡ	-7.90843
▁ܒܝܘܡ	-7.91272
▁ܥܠܝܗܘܢ	-7.91501
▁ܬܗܘܐ	-7.91814
ܥܒܪ	-7.91822
ܩܕܡ	-7.92239
▁ܡܨ	-7.92447
▁ܪܚܡ	-7.93094
ܦܬܚ	-7.933
▁ܒܝܕ	-7.9334
▁ܗܝܡܢܘ	-7.9392
▁ܠܡܐ	-7.94004
▁ܪܓܠ	-7.94545
▁ܘܒܪ	-7.94983
▁ܫܒܩ	-7.95575
▁ܫܕܪ	-7.95819
▁ܕܚܕ	-7.95833
▁ܬܪܝܢ	-7.9596
▁ܟܐ	-7.96255
▁ܝܘܡܬܐ	-7.97013
▁ܢܫܬ	-7.97674
▁ܠܝܫܘܥ	-7.97868
▁ܒܗܝܡܢܘܬܐ	-7.9835
▁ܐܒܝ	-7.9898
▁ܘܐܬܐ	-7.99935
▁ܒܥܐ	-8.00127
▁ܘܫܡܥ	-8.00135
▁ܕܥܠܡܐ	-8.00369
▁ܘܝܗܒ	-8.01173
▁ܘܒܥ	-8.0133
▁ܒܟܠ	-8.01515
▁ܘܐܚ	-8.01908
▁ܛܒܐ	-8.02855
ܦܠܓ	-8.03034
ܝܫܘܥ	-8.03141
▁ܥܡܐ	-8.03382
ܥܡܕ	-8.03609
ܡܠܬܐ	-8.03774
ܝܤܪܝܠ	-8.03984
▁ܐܟܠ	-8.04053
▁ܥܠܡܐ	-8.04143
ܤܓܝ	-8.0513
▁ܫܪܝ	-8.05201
▁ܘܐܝܟ	-8.05286
ܝܥܩܘܒ	-8.05398
▁ܕܨܒ	-8.05533
ܥܕܬܐ	-8.06409
▁ܐܓܪ	-8.07281
▁ܚܙܘ	-8.07473
▁ܕܚܠ	-8.08555
▁ܕܡܬܩܪ	-8.08951
▁ܬܠܡܝܕܐ	-8.09873
▁ܕܟܬܝܒ	-8.09875
▁ܕܠܥܠܡ	-8.0988
▁ܒܝܫܬܐ	-8.09897
▁ܬܠܬ	-8.10262
ܗܕܐ	-8.10918
▁ܒܟܠܗ	-8.11067
ܪܝܫ	-8.11243
▁ܠܚܡܐ	-8.1167
▁ܚܘܒ	-8.11895
▁ܗܝܡܢܘܬܐ	-8.12467
▁ܚܒܝܒ	-8.13094
▁ܕܪܘܚ	-8.13202
▁ܙܠ	-8.13421
▁ܕܝܠܝ	-8.13468
▁ܛܒ	-8.13627
▁ܥܒܪ	-8.13829
▁ܥܡܡܐ	-8.14527
▁ܪܥܝ	-8.14546
▁ܛܝܒܘܬܐ	-8.14581
▁ܒܢܝܢܫܐ	-8.14592
▁ܥܡܟܘܢ	-8.14719
▁ܘܐܫܬ	-8.14778
▁ܚܤ	-8.14845
▁ܥܠܝܟܘܢ	-8.14891
▁ܢܚܬ	-8.15236
▁ܒܥܝܢ	-8.15241
▁ܝܘܚܢܢ	-8.16175
ܝܦ	-8.16758
▁ܠܥܡ	-8.16983
ܦܘܠܘܤ	-8.17624
ܬܠܡܝܕܘܗܝ	-8.17624
▁ܒܫܡܝܐ	-8.1783
▁ܒܪܢܫܐ	-8.1785
▁ܕܝܕܥ	-8.17938
▁ܕܐܝܟ	-8.18022
ܡܬܝ	-8.18358
▁ܟܤ	-8.18728
▁ܩܕܡܝܐ	-8.18867
▁ܒܗܘܢ	-8.18912
▁ܘܫܪܝ	-8.19322
▁ܕܢܗܘܐ	-8.19511
ܫܘܒܚܐ	-8.19652
▁ܐܚܐ	-8.19795
▁ܝܘܡܐ	-8.2027
▁ܡܫܟܚܝܢ	-8.20298
▁ܘܟܠܗ	-8.20949
▁ܠܐܘܪܫܠܡ	-8.21188
▁ܡܠܟܘܬܐ	-8.21195
▁ܢܗܘܘܢ	-8.2122
▁ܕܝܗܒ	-8.2126
▁ܚܪ	-8.2127
▁ܗܢܘ	-8.21493
▁ܟܡܐ	-8.2151
▁ܙܪܥ	-8.2166
▁ܩܠܐ	-8.2181
▁ܒܝܫܐ	-8.22156
▁ܕܫܡܝܐ	-8.22903
▁ܕܝܗܘܕܝܐ	-8.2311
▁ܘܩܡ	-8.23158
▁ܤܝܡ	-8.2372
▁ܤܗܕ	-8.23923
ܬܪܬܝܢ	-8.24083
▁ܕܥܬܝܕ	-8.24661
▁ܬܪܥܐ	-8.24791
▁ܘܚܕ	-8.24842
▁ܠܟܠ	-8.26123
▁ܒܬܪܗ	-8.26776
▁ܢܦܫܟ	-8.27083
▁ܕܟܕ	-8.2716
▁ܕܝܠܗ	-8.27465
▁ܠܓܒܪܐ	-8.28261
▁ܕܫܡܗ	-8.28269
▁ܦܪܝܫܐ	-8.28282
▁ܥܬܝܕ	-8.28283
▁ܐܤܝܪܐ	-8.28314
▁ܦܐܪܐ	-8.2839
ܢܗܘܘܢ	-8.28548
▁ܛܒܬܐ	-8.29336
▁ܟܪܝ	-8.29465
▁ܠܘܩܕܡ	-8.30151
▁ܘܫܕܪ	-8.30218
▁ܩܘܪ	-8.30526
▁ܤܦܪ	-8.31418
ܦܘܩ	-8.31618
▁ܘܚܙܝ	-8.31655
▁ܘܥܡ	-8.31806
▁ܦܝܠܛܘܤ	-8.31997
ܢܘܗܪܐ	-8.32138
▁ܡܘܫܐ	-8.3226
ܡܚܕܐ	-8.32322
▁ܦܠܚ	-8.32508
▁ܫܪܝܪܐ	-8.32564
ܐܟܘܠ	-8.3297
ܫܒܩ	-8.33899
▁ܚܛܝܬܐ	-8.33936
▁ܙܥܘܪ	-8.33947
▁ܤܓܝܐܬܐ	-8.33997
▁ܐܝܬܝܗ	-8.35382
▁ܩܠܝܠ	-8.359
▁ܫܪܒܬ	-8.35902
▁ܪܫܐ	-8.36069
▁ܘܩܪܒ	-8.36125
▁ܕܐܝܬܝܗ	-8.36252
▁ܕܬܗܘ	-8.36612
▁ܟܬܝܒ	-8.37883
▁ܐܪܒܥ	-8.37965
▁ܘܡܛܠ	-8.37984
ܬܐܡܪ	-8.37984
ܒܛܠ	-8.38011
ܦܘܪ	-8.38042
▁ܕܐܢܬ	-8.38272
▁ܐܝܕܝ	-8.3847
▁ܚܡܫ	-8.38503
▁ܫܘܠܛܢ	-8.3865
▁ܦܘܩܕܢܐ	-8.39922
▁ܕܡܗܝܡܢ	-8.39922
▁ܫܠܝܚܐ	-8.39927
▁ܝܘܡܝܢ	-8.39968
▁ܤܠܩ	-8.40076
▁ܪܫܝ	-8.40287
ܚܟܡܬ	-8.40923
▁ܫܠܝܛ	-8.42028
▁ܒܡܪܢ	-8.422
▁ܐܝܬܝܗܘܢ	-8.42208
ܟܐܦܐ	-8.42466
▁ܒܒܝܬ	-8.43609
▁ܩܒܠ	-8.44228
▁ܩܘܡ	-8.4442
▁ܢܐܡܪ	-8.44449
▁ܠܘܩܒܠ	-8.46307
ܚܫܘܟܐ	-8.46313
ܚܝܘܬܐ	-8.46378
▁ܬܐ	-8.46453
▁ܫܢܝܢ	-8.46836
▁ܕܗܝܡܢܘ	-8.47238
▁ܒܠܒ	-8.47687
▁ܩܕܝܡ	-8.48531
ܗܪܘܕܤ	-8.48538
▁ܐܝܕܗ	-8.48574
▁ܡܩܒܠ	-8.48577
▁ܡܗܠܟ	-8.48621
▁ܠܟܠܗܘܢ	-8.48781
▁ܫܡܗ	-8.48788
▁ܘܬܘܒ	-8.49216
▁ܪܡܐ	-8.49267
▁ܘܫܐܠ	-8.49272
▁ܝܗܘܕ	-8.50331
ܝܡܬܐ	-8.50414
▁ܬܪܥܤܪ	-8.50818
▁ܐܘܠܕ	-8.50873
ܛܝܒܘܬܗ	-8.5106
▁ܕܪܒ	-8.52396
▁ܠܐܢܫ	-8.52517
▁ܘܢܦܠ	-8.52989
▁ܕܩܝܡ	-8.5351
▁ܘܐܚܪܢ	-8.53519
▁ܝܬܒ	-8.53544
ܫܒܘܩ	-8.53927
ܡܠܬܗ	-8.55349
▁ܕܗܠܝܢ	-8.55692
ܚܠܦ	-8.56326
▁ܪܕ	-8.57931
▁ܕܒܫܡܝܐ	-8.57948
▁ܬܗܘܘܢ	-8.57961
ܦܝܠܝܦ	-8.57986
ܕܒܚ	-8.58036
▁ܒܟܠܙܒܢ	-8.58134
▁ܕܐܫܬ	-8.58347
▁ܒܥܘ	-8.58541
ܬܝܕܥ	-8.58926
▁ܩܥ	-8.58971
ܡܠܐܟܐ	-8.58979
ܫܬܠܡ	-8.60367
V	-8.60447
▁ܒܫܡܗ	-8.60524
▁ܩܐܡ	-8.60583
▁ܕܢܦܩ	-8.60698
▁ܕܝܬܒ	-8.60793
▁ܠܡܐܡܪ	-8.60942
▁ܤܗܕܘܬ	-8.617
▁ܕܠܝ	-8.62012
▁ܕܒܝܫ	-8.62672
▁ܒܗܝܟܠܐ	-8.63021
▁ܘܦܩܕ	-8.63044
▁ܫܥܬܐ	-8.63097
▁ܠܢܦܫ	-8.6312
ܙܝܥ	-8.63432
▁ܕܢܤܒ	-8.63514
ܬܫܒܘܚܬܐ	-8.64245
▁ܐܘܪܫܠܡ	-8.65669
▁ܗܪܟܐ	-8.6573
ܕܗܒܐ	-8.6677
▁ܬܫܒܘܚܬ	-8.6706
▁ܝܡܝܢ	-8.68388
▁ܠܟܢܫܐ	-8.68579
ܪܘܪܒ	-8.68876
ܥܪܩ	-8.70938
▁ܒܐܘܪܚܐ	-8.71124
▁ܒܢܦܫܗ	-8.71126
▁ܐܚܘܗܝ	-8.71282
ܬܫܡܫܬܐ	-8.71484
▁ܒܐܦܐ	-8.71502
▁ܒܫܠܡܐ	-8.71687
ܐܝܩܪܐ	-8.728
ܬܚܫܒ	-8.73178
▁ܕܢܡܘܤܐ	-8.73983
▁ܪܫܗ	-8.74
▁ܐܠܦܝܢ	-8.74411
▁ܕܢܐܬ	-8.7647
▁ܕܒܢܝܢܫܐ	-8.76923
▁ܫܥܬܗ	-8.76948
ܤܦܝܢܬܐ	-8.76959
▁ܒܒܤܪ	-8.76988
▁ܪܓ	-8.76995
▁ܕܪܚܡ	-8.77001
ܡܤܟܢܐ	-8.77121
▁ܐܘܠܨܢ	-8.79955
▁ܡܤܗܕ	-8.80002
▁ܫܪܪܐ	-8.80031
▁ܗܝܟܠܐ	-8.802
▁ܓܢܒ	-8.80247
▁ܕܬܠܬ	-8.80256
ܟܫܠ	-8.80266
▁ܠܚܝܐ	-8.8053
▁ܒܩܠܐ	-8.80591
ܫܘܬܦ	-8.80599
ܝܘܠܦܢܐ	-8.81579
▁ܕܝܘܚܢܢ	-8.83077
▁ܡܘܗܒܬ	-8.83079
▁ܘܐܫܟܚ	-8.83081
▁ܐܩܝܡ	-8.83087
▁ܚܛܗܐ	-8.8309
▁ܟܘܡܪ	-8.83092
▁ܘܐܪܡܝ	-8.83187
▁ܕܩܒܠ	-8.83198
▁ܕܚܙܝܬ	-8.83234
▁ܘܢܤܒ	-8.8333
▁ܘܠܝܘܡ	-8.83372
ܚܫܒܬ	-8.84822
▁ܘܦܪܝܫܐ	-8.86304
▁ܕܕܘܝܕ	-8.86305
▁ܕܢܐܙܠ	-8.86333
▁ܐܚܪܝܐ	-8.86334
▁ܐܒܘܗܝ	-8.86501
ܠܥܤ	-8.87671
▁ܟܘܪܤܝܐ	-8.89636
ܐܘܢܓܠܝܘܢ	-8.89636
▁ܒܢܡܘܤܐ	-8.89636
▁ܩܒܘܪܐ	-8.89637
▁ܐܒܪܗܡ	-8.89638
▁ܘܤܠܩ	-8.89764
▁ܒܐܘܪܫܠܡ	-8.93085
▁ܒܦܓܪ	-8.93124
▁ܐܪܡܝ	-8.93558
▁ܒܥܠܕܒܒ	-8.96655
▁ܐܙܕܗܪ	-8.96656
▁ܐܬܚܙܝ	-8.96659
▁ܡܠܟܘܬܗ	-8.96664
ܡܩܕܘܢܝܐ	-8.96672
▁ܘܤܦܪܐ	-8.9672
▁ܕܐܙܠ	-8.97139
ܗܘܝܬܘܢ	-8.97669
1	-11.858
)	-12.858
4	-12.858
5	-12.858
9	-12.858
:	-12.858
