<pad>	0
</s>	0
<unk>	0
¦	-1.23951
▁¦	-1.41236
▁	-3.70706
a	-3.9731
𐋇	-4.15851
an	-4.52487
▁.	-4.5437
▁,	-4.59476
ar	-4.68569
agus	-4.83191
dh	-4.99913
d	-5.12811
na	-5.16529
í	-5.18386
le	-5.1844
i	-5.20798
go	-5.29004
s	-5.29721
n	-5.29905
e	-5.45324
is	-5.52723
do	-5.57082
t	-5.60101
r	-5.66128
-	-5.68791
ag	-5.74572
il	-5.82246
ú	-5.92425
in	-5.96399
ithe	-6.01462
bh	-6.02151
covid	-6.08092
igh	-6.08251
tá	-6.11836
-19¦	-6.14645
ir	-6.15454
nó	-6.18024
de	-6.18162
▁’	-6.22527
mar	-6.27052
anna	-6.30242
seo	-6.31812
mh	-6.33293
ch	-6.3469
chun	-6.46453
f	-6.46628
tú	-6.46662
ó	-6.48799
eile	-6.50011
aoine	-6.50229
má	-6.53771
h	-6.56562
bhfuil	-6.57791
ach	-6.58078
sa	-6.58638
▁(	-6.60572
cás	-6.68419
íonn	-6.70521
sé	-6.70946
atá	-6.76437
ta	-6.7787
g	-6.79363
ann	-6.80305
ort	-6.80978
m	-6.8151
iad	-6.84726
c	-6.85692
é	-6.90061
eann	-6.91132
féid	-6.94383
faoi	-6.9505
ná	-6.95903
ní	-6.9714
cov	-6.97196
sin	-6.97208
b	-6.98105
▁)	-7.04086
duine	-7.05483
tar	-7.08058
víreas	-7.08443
íos	-7.0929
sláinte	-7.09327
leis	-7.11281
adh	-7.11845
p	-7.15755
as	-7.17247
aon	-7.19244
mó	-7.19788
aibh	-7.21076
nach	-7.24607
nío	-7.25023
aí	-7.2514
tear	-7.25522
uair	-7.25683
u	-7.25688
dhéana	-7.26219
sars	-7.28732
bhí	-7.2923
▁:	-7.30099
la	-7.31046
bás	-7.32278
vacsaín	-7.32698
úsáid	-7.34604
al	-7.34917
ba	-7.35356
gach	-7.39936
chur	-7.40191
rud	-7.40214
aghaidh	-7.40247
eith	-7.40632
éis	-7.41248
tuairiscío	-7.44207
th	-7.46868
féin	-7.47016
lá	-7.48758
ón	-7.50391
hu	-7.50985
idir	-7.51236
comharthaí	-7.51829
eadh	-7.53159
gur	-7.53183
fhéadfa	-7.53669
duit	-7.54665
▁¦2020¦	-7.54666
árta	-7.55898
o	-7.56173
ina	-7.56327
roinnt	-7.58021
thug	-7.59112
l	-7.59608
idh	-7.59653
iú	-7.59745
den	-7.60087
chóir	-7.60979
trí	-7.63473
don	-7.64636
líon	-7.66026
nn	-7.66083
san	-7.68268
tástáil	-7.6967
nua	-7.71743
.	-7.72021
dói	-7.75537
roimh	-7.75972
air	-7.76821
á	-7.7781
isteach	-7.79288
amach	-7.79398
mb	-7.80281
déan	-7.80429
fre	-7.81912
mór	-7.82456
anacht	-7.8281
gan	-7.83823
aíonn	-7.8466
leat	-7.86292
isin	-7.86533
irt	-7.87538
-2¦	-7.87989
chuir	-7.89385
sonra	-7.90145
mháin	-7.90148
chás	-7.90361
tástála	-7.90368
ráig	-7.91791
ionfhabhtaithe	-7.91963
coronavirus	-7.92448
chomh	-7.93299
aithe	-7.93704
ionfhabht	-7.93859
fáil	-7.93871
gheall	-7.94582
chuig	-7.95155
áirí	-7.9756
aonta	-7.97748
ul	-7.98696
teaghla	-8.00123
tír	-8.00374
fu	-8.00942
linn	-8.01921
lámha	-8.02546
tuga	-8.03107
leor	-8.03265
te	-8.03425
1¦	-8.03627
íortha	-8.05232
am	-8.05455
réir	-8.05725
náisiún	-8.06044
sh	-8.06407
eanna	-8.06797
sín	-8.06845
mí	-8.06932
chuid	-8.07209
bhaile	-8.0723
fháil	-8.07245
cé	-8.0735
scaipea	-8.07731
tha	-8.07907
gal	-8.08898
ard	-8.09176
acu	-8.10056
dá	-8.10415
gcás	-8.10771
im	-8.11341
bei	-8.11488
áil	-8.11532
5¦	-8.11642
mura	-8.11688
aigh	-8.11815
measc	-8.12885
dtí	-8.13347
tinn	-8.13642
▁-	-8.14588
eabhra	-8.14732
ospidé	-8.16004
aghaidhe	-8.16279
vír	-8.16681
eamh	-8.16958
sna	-8.17026
maidi	-8.18339
“	-8.1887
chéad	-8.19085
clúda	-8.19889
fh	-8.20533
ne	-8.21326
cur	-8.2184
aip	-8.23538
os	-8.23909
pháist	-8.2419
othair	-8.2453
eanái	-8.2457
fógra	-8.24679
bhain	-8.25139
áin	-8.2548
fuair	-8.2573
each	-8.25854
hiomláin	-8.25995
▁"	-8.2601
dí	-8.26099
riospráid	-8.26731
ionad	-8.27818
cuirea	-8.27974
▁¦2¦	-8.28376
fad	-8.2934
aol	-8.29613
oibl	-8.29737
thabha	-8.29793
gh	-8.30522
cúram	-8.31671
léir	-8.31808
hcov	-8.31837
bhfeidhm	-8.32104
faoin	-8.33045
aois	-8.33373
maith	-8.3366
bearta	-8.33755
▁;	-8.33828
▁'	-8.34468
3¦	-8.34522
ig	-8.35727
scoile	-8.35956
leana	-8.36111
leo	-8.36323
agat	-8.366
eola	-8.36719
eas	-8.36849
acha	-8.37224
seirbhís	-8.37722
stái	-8.38476
chaithea	-8.39612
siú	-8.40469
leighis	-8.41121
mbea	-8.41889
lean	-8.42615
aibreá	-8.4283
gá	-8.43051
neamh	-8.43083
uas	-8.43223
laghd	-8.43326
áit	-8.43729
shampla	-8.43741
9¦	-8.4435
leibhé	-8.44617
wh	-8.44775
cuir	-8.44892
níl	-8.44931
dhochtúir	-8.45488
teagmhá	-8.46056
iomlán	-8.47226
riosca	-8.47295
thar	-8.47333
ghala	-8.47373
srianta	-8.47411
mhéad	-8.47436
síne	-8.48004
▁).	-8.48459
blia	-8.49075
cha	-8.49907
ceart	-8.49964
mbei	-8.50455
▁¦10	-8.52073
dearfach	-8.52131
comhairle	-8.52171
rial	-8.52438
6¦	-8.52728
4¦	-8.53111
dhá	-8.53881
co	-8.54262
7	-8.54353
liú	-8.5447
y	-8.54778
chéi	-8.55014
óstach	-8.56871
rialtas	-8.5702
luath	-8.57995
othar	-8.58384
tora	-8.58545
beal	-8.59268
fó	-8.5938
bia	-8.59558
han	-8.59793
▁¦14	-8.59906
glao	-8.6027
thástá	-8.60473
orthaí	-8.60687
cinn	-8.60837
sóisial	-8.60975
fhógraío	-8.61366
casacht	-8.62036
lú	-8.62039
tarchur	-8.62338
mhí	-8.6241
odh	-8.64278
2¦	-8.64386
srian	-8.64476
bhféadfa	-8.64842
fhógair	-8.65253
chomhartha	-8.6527
dúna	-8.65665
ra	-8.65679
fear	-8.66729
tháin	-8.66909
▁),	-8.67529
rón	-8.67859
mhór	-8.67953
um	-8.68378
vacsaíní	-8.68509
mers	-8.68624
staidé	-8.68805
úil	-8.69061
cosú	-8.69316
minic	-8.69723
bhás	-8.69726
déana	-8.69925
beag	-8.70182
cuairt	-8.70871
ghnáth	-8.70873
amhail	-8.70877
fhaigh	-8.70956
tioncha	-8.71125
seachtain	-8.71171
céanna	-8.71273
8¦	-8.71276
thart	-8.71362
án	-8.7154
roinn	-8.71692
wu	-8.72091
milliú	-8.72166
bhei	-8.72519
▁¦20	-8.72802
chosaint	-8.73213
ialtóg	-8.73214
nd	-8.73968
oscailt	-8.75051
rian	-8.75554
cheart	-8.75623
oibre	-8.76352
ceann	-8.77228
léin	-8.77367
iarracht	-8.78077
háir	-8.78245
omhain	-8.78263
teagmhála	-8.7831
smuig	-8.78379
paindéim	-8.787
obair	-8.79312
dó	-8.79515
thuairisc	-8.79519
v	-8.80924
airde	-8.8194
ráta	-8.82051
líne	-8.82453
aire	-8.83057
thor	-8.83113
mbás	-8.83659
coraintín	-8.8389
theas	-8.83941
taine	-8.84136
láthair	-8.84483
scoil	-8.84655
fhéid	-8.84674
anta	-8.84813
buna	-8.85072
úirt	-8.85647
cheann	-8.8593
imh	-8.85939
ma	-8.8617
éal	-8.8617
taisteal	-8.87079
dt	-8.87149
fs	-8.87158
choróinvír	-8.87204
có	-8.87254
,000¦	-8.88019
leith	-8.8844
aonrú	-8.88552
rinne	-8.88584
masc	-8.89503
mid	-8.89586
fiabhra	-8.89917
laghad	-8.89917
taist	-8.90042
▁¦11	-8.90059
éagsúla	-8.90604
nós	-8.91073
ph	-8.9128
▁¦15	-8.91594
sula	-8.91928
dearbha	-8.92659
choinneá	-8.92757
measa	-8.92771
iompar	-8.92909
oibrithe	-8.92968
gcuid	-8.93115
lacha	-8.93844
oideacha	-8.94257
tús	-8.94421
ár	-8.9456
teacht	-8.9491
átha	-8.95098
imní	-8.95528
,	-8.9568
éigeandála	-8.95695
bharr	-8.95735
rtha	-8.95844
dochtúir	-8.96647
iodáil	-8.97076
laist	-8.97198
tabhair	-8.97216
mheas	-8.97717
w	-8.97815
géar	-8.98632
sampla	-8.98682
éil	-9.00048
liath	-9.00255
▁¦4¦	-9.00295
lé	-9.0045
bunúsach	-9.00629
coróin	-9.00989
ceal	-9.01481
ainmh	-9.01833
lár	-9.01917
víreasach	-9.02099
▁¦3	-9.02273
▁¦24	-9.02418
imeachta	-9.02487
láithreach	-9.03376
éine	-9.03378
cosc	-9.03394
rialtais	-9.0356
cleachta	-9.03989
the	-9.04278
cona	-9.04547
imdhíonacht	-9.04986
dáileog	-9.05064
súil	-9.05784
00¦	-9.05864
bhaint	-9.05864
heamh	-9.06102
athr	-9.0615
▁¦12	-9.06163
cuid	-9.06167
meit	-9.06504
díreach	-9.06746
déanta	-9.07537
eipidéim	-9.07931
stá	-9.07981
druga	-9.08305
cabhr	-9.08335
thas	-9.08371
dteagmhá	-9.09476
0¦	-9.09711
tí	-9.09739
▁¦1	-9.09842
foláir	-9.1002
gcoinne	-9.1004
córas	-9.10146
▁¦13	-9.10749
fiú	-9.10885
cion	-9.10966
▁¦2019	-9.11347
baint	-9.1147
éifeachtach	-9.11864
pian	-9.12173
k	-9.12379
ionai	-9.12577
uine	-9.12931
próitéin	-9.13014
dhiaidh	-9.13464
tábhachtach	-9.13503
mhol	-9.13672
glan	-9.14209
athair	-9.14391
▁¦5	-9.14404
deirea	-9.14571
daonn	-9.14703
céim	-9.15142
cúraim	-9.15248
chloig	-9.1525
méad	-9.15265
faireacha	-9.15271
chosc	-9.15335
tapa	-9.15539
int	-9.16657
phoba	-9.17066
fhorbair	-9.17101
chomhairle	-9.17212
freastal	-9.18056
eacha	-9.1849
fra	-9.18594
eagraíocht	-9.18908
ghluaiseacht	-9.18918
cliniciú	-9.18931
riocht	-9.18973
láimh	-9.19002
poba	-9.19196
fan	-9.19388
scar	-9.19554
ama	-9.20429
básmhaireacht	-9.20806
sraotharta	-9.20819
tharla	-9.20845
taobh	-9.20926
áitiú	-9.21171
▁¦30	-9.21728
mac	-9.21781
coinn	-9.21971
íocht	-9.22208
haine	-9.22635
mhíoc	-9.22755
méid	-9.23053
ró	-9.23718
chúis	-9.23752
me	-9.23791
caith	-9.24049
nna	-9.24131
ainn	-9.24305
phe	-9.24377
cúis	-9.24472
coiti	-9.24677
treala	-9.24689
pearsanta	-9.24692
breis	-9.24737
choinne	-9.24766
tréimhs	-9.26051
ís	-9.26155
dara	-9.27607
eachas	-9.27785
▁¦16	-9.27836
mol	-9.28599
comh	-9.2872
éadrom	-9.28729
fíneá	-9.2873
taighde	-9.28744
cosain	-9.28858
rinnea	-9.28983
fuar	-9.2919
dtug	-9.29297
éir	-9.29891
ois	-9.30233
onn	-9.30602
fhág	-9.308
shláinte	-9.30813
amhras	-9.30815
niúmói	-9.30815
▁¦7	-9.30816
thosa	-9.30844
údará	-9.30983
ord	-9.31373
▁¦19¦	-9.31479
cóir	-9.31804
uait	-9.31812
eis	-9.31813
gc	-9.31858
mo	-9.32355
daonra	-9.32397
anála	-9.3243
ath	-9.32542
dú	-9.32805
▁%)	-9.3294
fola	-9.33138
gartheagmhála	-9.33205
oisc	-9.33226
príomh	-9.33271
óirí	-9.33305
domhand	-9.33395
raí	-9.33611
airíonn	-9.33918
se	-9.33965
cóireá	-9.34334
oifig	-9.34497
timpeall	-9.35114
míochain	-9.35116
diúltach	-9.35227
riachtanach	-9.3551
deacracht	-9.35728
▁¦50	-9.36088
chos	-9.36179
on	-9.36338
rá	-9.36726
cheana	-9.37019
speic	-9.37336
bhrí	-9.37357
onair	-9.37446
iaráin	-9.37531
cosant	-9.37563
acht	-9.37718
gala	-9.38751
mhair	-9.39342
ndearna	-9.3961
cdc	-9.39617
garda	-9.39702
bpaindéim	-9.3978
sheachain	-9.4007
astra	-9.40193
óstá	-9.40299
chéim	-9.40354
nec	-9.40645
gnáth	-9.4143
sholáth	-9.41452
▁¦22	-9.41621
inn	-9.41942
tógálach	-9.42007
lua	-9.42114
nár	-9.42284
▁¦23	-9.42349
daoin	-9.42418
leagan	-9.42522
ráige	-9.4256
teast	-9.42679
dé	-9.42741
tosa	-9.42769
ála	-9.43132
rianair	-9.43614
ollaig	-9.44148
sábháilte	-9.44303
diagnóis	-9.44316
▁¦26	-9.44319
sábháilteacht	-9.44329
áite	-9.44407
áireamh	-9.44508
ze	-9.44579
mbail	-9.4487
róm	-9.45071
deara	-9.45482
áirith	-9.45486
sion	-9.45703
deimhn	-9.45987
▁¦200	-9.46257
irí	-9.46314
agann	-9.46317
bu	-9.46635
cruinn	-9.46755
liosta	-9.46758
béite	-9.46782
rna	-9.46907
gcéad	-9.46922
uimh	-9.47019
baile	-9.47253
aige	-9.47657
cad	-9.47822
artha	-9.4806
spreag	-9.48075
éid	-9.48115
ing	-9.48546
únta	-9.48562
▁¦28	-9.48658
ic	-9.48704
clár	-9.48999
dhomhand	-9.49255
afraic	-9.49256
▁¦2021¦	-9.49262
labhair	-9.49269
fhad	-9.4933
eorpach	-9.49416
▁¦18	-9.49472
reath	-9.49481
for	-9.49674
▁¦100	-9.50222
paindéime	-9.50306
1	-9.50816
teach	-9.50986
2	-9.51133
mui	-9.51253
cúig	-9.5139
chibear	-9.51819
siopadóireacht	-9.51824
fios	-9.51837
altra	-9.51845
suntasach	-9.51847
maisc	-9.51857
álta	-9.51991
uisc	-9.52468
nigh	-9.52481
mhain	-9.52741
éireann	-9.52883
tuill	-9.53079
theast	-9.53202
ol	-9.53865
hairío	-9.54047
úsáide	-9.54125
oirea	-9.54357
saor	-9.54449
dromchla	-9.5445
chinnti	-9.54468
meán	-9.5454
níochá	-9.54559
shár	-9.54707
aitheanta	-9.54746
chu	-9.54769
▁¦17	-9.54798
eanta	-9.54867
iúl	-9.55656
tu	-9.55938
inne	-9.56533
fás	-9.57005
phaindéim	-9.57153
dócha	-9.5721
nádúr	-9.57217
eithre	-9.57223
fhor	-9.57313
ige	-9.57403
8	-9.57435
fhoir	-9.57752
hlat	-9.57757
fo	-9.57847
theann	-9.5814
taire	-9.58147
bain	-9.58569
lámh	-9.58781
fion	-9.5898
cr	-9.59203
faid	-9.59395
grúpa	-9.59425
eacnamaíoch	-9.59932
bith	-9.60002
osú	-9.60125
forba	-9.60283
dáile	-9.60808
sí	-9.60818
rianaithe	-9.60859
aice	-9.60866
re	-9.60876
brú	-9.61089
foir	-9.61806
fe	-9.61951
ion	-9.62383
mic	-9.62573
▁¦27	-9.62693
siopa	-9.62775
eitilt	-9.62788
anailís	-9.62788
uirth	-9.62796
sláintiú	-9.62821
athoscailt	-9.62954
lae	-9.63899
bheala	-9.64469
orth	-9.64488
stair	-9.64704
tr	-9.65252
cinnte	-9.65488
dheimhn	-9.65729
comparáid	-9.6573
íseal	-9.6573
antasubstaint	-9.65732
monatóireacht	-9.65734
tromchúiseach	-9.65755
anaithnid	-9.65818
teocht	-9.65837
slaghdá	-9.6584
id	-9.6589
ábhar	-9.66698
es	-9.66958
trialach	-9.67852
fíor	-9.67944
frith	-9.68019
riachtana	-9.68177
caoi	-9.68285
cu	-9.68702
óga	-9.68719
suíomh	-9.6876
cógais	-9.68761
dlúth	-9.68761
chlúda	-9.68761
gcóna	-9.68767
idirmheánach	-9.68776
stiú	-9.68784
soláthair	-9.68787
fhreagairt	-9.6882
toba	-9.68859
tarchuir	-9.69322
oc	-9.70014
cúna	-9.70064
ligean	-9.70462
roghna	-9.70937
thógá	-9.71016
hio	-9.71025
domhan	-9.71342
ollscoil	-9.7153
▁¦31	-9.71651
earra	-9.71665
cineál	-9.71768
chineál	-9.71884
giorra	-9.71885
shóis	-9.71893
teorainn	-9.71898
shocr	-9.71907
leanúnach	-9.71992
fianaise	-9.72073
uachtarán	-9.72179
tinnea	-9.72565
uiscint	-9.72657
fóin	-9.72711
iarrai	-9.72732
rc	-9.72748
éad	-9.72895
ísle	-9.73192
comhair	-9.73276
43¦	-9.73336
éigh	-9.73442
réamh	-9.73644
faisnéis	-9.737
iarr	-9.7378
fá	-9.73907
bhfaigh	-9.74431
all	-9.74749
ialta	-9.74764
gcomh	-9.74916
theaghla	-9.7511
éigeantach	-9.75111
faigh	-9.75119
seachain	-9.7512
neamhriachtanach	-9.75143
éigin	-9.75165
fhio	-9.75196
nochta	-9.75208
to	-9.75243
dlí	-9.75257
india	-9.75268
aer	-9.75283
oibrí	-9.75423
beo	-9.75767
mhaol	-9.7589
dáta	-9.76022
ól	-9.76076
iméad	-9.76121
bun	-9.7645
dhearbha	-9.7767
cead	-9.78108
saotharla	-9.78255
dheirea	-9.78367
▁¦29	-9.78374
cill	-9.78438
géanóm	-9.78444
eamhshiomptómach	-9.78444
speisialta	-9.78456
ciall	-9.78502
gceist	-9.7851
íochta	-9.78583
coinne	-9.78603
▁¦9	-9.78617
ghlana	-9.78643
hiomlán	-9.7867
inneach	-9.7893
osta	-9.78953
molta	-9.79354
siúl	-9.79534
ladh	-9.79594
tacaíocht	-9.80004
iún	-9.81102
aonad	-9.81178
iseach	-9.81218
earfach	-9.81512
úint	-9.81741
díobh	-9.81816
rialta	-9.81842
229	-9.81894
forleathan	-9.81895
réims	-9.81896
rthóir	-9.81914
phoibl	-9.81954
chóireá	-9.82306
ghrúpa	-9.82591
gine	-9.82674
tóg	-9.82916
chumas	-9.83493
seas	-9.839
ce	-9.84476
95¦	-9.84687
plean	-9.84812
gartheagmhá	-9.8488
seacht	-9.84943
stop	-9.85202
acmhainn	-9.85396
rsc	-9.85403
institiúid	-9.85463
straitéis	-9.85463
folláin	-9.85463
aclaíocht	-9.85464
figiú	-9.85464
chorp	-9.85474
dhéanta	-9.85493
croí	-9.85574
be	-9.85798
trom	-9.8614
bpob	-9.86229
rogha	-9.86249
rialacha	-9.86263
hír	-9.86325
dhearbh	-9.86366
ith	-9.86415
hionfhabht	-9.86443
uath	-9.86583
ríocht	-9.8671
gp	-9.87144
dianchúra	-9.87268
aidh	-9.87495
ainm	-9.87553
x	-9.87586
gná	-9.87605
▁¦60	-9.88189
sláinteacha	-9.88214
áise	-9.88261
ine	-9.88328
fach	-9.88586
cht	-9.88686
shonra	-9.88742
ur	-9.88833
scrúd	-9.89152
chóras	-9.89167
meiriceá	-9.89216
díol	-9.89217
pcr	-9.89263
ist	-9.89394
héir	-9.89407
buail	-9.89457
freagair	-9.89702
oibr	-9.89726
éasca	-9.89794
nasc	-9.89952
siar	-9.89972
eorai	-9.90345
cód	-9.90544
óca	-9.90719
oll	-9.90849
ithint	-9.91069
theach	-9.91177
48	-9.91856
cuirfi	-9.92513
déanfai	-9.92547
treoirlín	-9.92654
sheirbhís	-9.93013
bhailiú	-9.93014
toirch	-9.93014
fachtóir	-9.93023
nuashonr	-9.93034
mhilliú	-9.9304
leath	-9.93079
dhún	-9.93079
▁."	-9.93167
mich	-9.93231
z	-9.93271
slán	-9.93388
sain	-9.93632
bhlia	-9.93675
ge	-9.94037
báis	-9.94078
amu	-9.94103
bill	-9.94189
eoir	-9.9457
leatha	-9.94783
héann	-9.95136
rainc	-9.95837
ainmn	-9.95947
caithfi	-9.95968
íche	-9.96204
▁¦25¦	-9.96256
eisío	-9.9643
oidh	-9.96578
70¦	-9.96783
aill	-9.96927
q	-9.97013
tirim	-9.97019
meastachá	-9.97023
zónóiseach	-9.9703
amh	-9.97049
brath	-9.97087
mall	-9.97173
scorna	-9.97259
féadfai	-9.97484
con	-9.97605
chtaí	-9.97799
ntana	-9.98425
aireacht	-9.98659
cair	-9.98661
ndéanfa	-9.98768
luan	-9.99364
reacha	-9.99483
freagra	-9.99607
féideartha	-9.99641
rochtain	-9.99765
páist	-9.99785
sp	-9.99898
bunús	-10.001
teoran	-10.0066
63	-10.0082
díot	-10.0112
johns	-10.0118
taifead	-10.0118
$	-10.0118
pfizer	-10.0118
seicheamh	-10.0118
gallúnach	-10.0118
athbhreithni	-10.0118
scaipthe	-10.012
chleachta	-10.012
sealadach	-10.0121
cathrach	-10.0125
méadaithe	-10.013
gceanta	-10.0131
agóid	-10.0147
pe	-10.0153
cá	-10.0158
easp	-10.0161
éirí	-10.0162
oir	-10.022
us	-10.022
maol	-10.0236
éann	-10.0236
fillea	-10.0246
tor	-10.0282
caithea	-10.0282
ghartheagmhála	-10.0284
haoine	-10.0292
ja	-10.0323
aisce	-10.0358
oifigiú	-10.0361
éiri	-10.0378
fhógra	-10.0388
it	-10.0428
láir	-10.0462
dhúna	-10.0483
nas	-10.0486
ton	-10.0497
meast	-10.0499
éifeachta	-10.0505
impl	-10.0533
rith	-10.0535
moill	-10.0545
contae	-10.0547
[	-10.0553
athlastach	-10.0553
taiscuma	-10.0553
phríomh	-10.0554
póirt	-10.0554
láimhseáil	-10.0555
seomra	-10.0556
imscrúd	-10.0556
torrach	-10.0563
eachta	-10.0573
braoinín	-10.0576
huaire	-10.059
lán	-10.0652
frithdhú	-10.0662
eagla	-10.0665
▁¦19	-10.0685
cóireála	-10.0686
▁¦21	-10.0696
ceanta	-10.0703
ineacht	-10.0727
áis	-10.0729
tugt	-10.0736
céad	-10.0741
sheol	-10.0835
ché	-10.0838
deimhnío	-10.0839
bhfoir	-10.0847
braithea	-10.0864
char	-10.0869
eál	-10.0882
diai	-10.0907
gluaiseachta	-10.0912
far	-10.0912
ste	-10.0928
li	-10.0944
tithe	-10.0955
6	-10.0968
bhun	-10.0984
taispeán	-10.1001
íomhá	-10.1007
seapáin	-10.1007
téacs	-10.1007
▁”.	-10.1007
hku	-10.1007
swab	-10.1007
thaobh	-10.1007
spáinn	-10.1007
teachtaireacht	-10.1011
scotha	-10.1015
bhrolla	-10.1017
gníomhaíochta	-10.1025
mblian	-10.1026
fág	-10.1035
▁".	-10.1036
ump	-10.1107
raitheann	-10.111
thú	-10.1115
st	-10.1125
lacht	-10.1131
bua	-10.1133
íoc	-10.1147
neart	-10.1148
scaip	-10.1148
gnó	-10.1152
iv	-10.1156
úine	-10.119
cóna	-10.1223
ionas	-10.1252
áir	-10.127
mná	-10.1271
lann	-10.1307
▁¦8¦	-10.135
fhéadf	-10.1373
bí	-10.1375
tin	-10.1383
cam	-10.1384
áiste	-10.1396
bhf	-10.1423
cún	-10.1433
so	-10.1436
éigeandá	-10.1479
oiriún	-10.1482
&	-10.1484
astráil	-10.1484
coinníoll	-10.1484
gheo	-10.1486
rán	-10.1486
criticiú	-10.1491
▁]	-10.1491
chliniciú	-10.1491
bheag	-10.1492
0	-10.1496
shrian	-10.1499
coimeád	-10.1504
thuai	-10.1508
cathai	-10.1513
aoire	-10.1515
nithe	-10.1539
po	-10.1544
bhia	-10.1547
fa	-10.1549
tacú	-10.1569
éire	-10.1582
dtosa	-10.1604
domhna	-10.1626
23¦	-10.163
bola	-10.1676
chúrsa	-10.1691
sciathá	-10.1714
shin	-10.1715
laghdaithe	-10.1755
mhar	-10.1782
ilse	-10.1783
pas	-10.1811
tic	-10.1843
▁.,	-10.1844
ghníomhaíocht	-10.1847
fi	-10.1872
othú	-10.1883
mola	-10.1889
37	-10.19
ainne	-10.1901
aimsío	-10.1909
ace	-10.1911
tabharfa	-10.1919
▁¦80	-10.1924
seach	-10.1933
▁¦40	-10.1934
measún	-10.1982
rasaíl	-10.1983
plód	-10.1983
california	-10.1983
fhreagra	-10.1984
sóchá	-10.1984
leigheas	-10.1984
ndéan	-10.199
rialachá	-10.1991
rath	-10.1997
modh	-10.2
bhuna	-10.2004
ghearr	-10.2005
seans	-10.2007
saotharlann	-10.2012
tuismitheoir	-10.2012
ip	-10.2015
óid	-10.2022
ocht	-10.2025
scamhóg	-10.2028
sia	-10.2029
gníomhach	-10.2035
cúige	-10.2072
eol	-10.2107
ré	-10.2116
réit	-10.2141
thru	-10.2169
eachtrach	-10.217
▁¦38	-10.2188
gar	-10.2194
nolla	-10.2215
húsáid	-10.2222
idí	-10.2226
cm	-10.2231
cp	-10.2339
chúram	-10.2348
chruth	-10.2353
oin	-10.2362
dír	-10.2365
leithlis	-10.2373
óir	-10.2376
dam	-10.2397
gcaithf	-10.2402
aithnío	-10.2404
ve	-10.2408
aid	-10.2451
imeacht	-10.2455
cor	-10.2461
víreolaíoch	-10.2497
biontech	-10.251
phróitéin	-10.251
thaispeáin	-10.251
▁%.	-10.251
bheatha	-10.251
téarna	-10.2511
cuairteoir	-10.2512
earmáin	-10.2514
saorána	-10.2514
cónaitheoir	-10.2525
marga	-10.2528
ite	-10.2531
dtagann	-10.2535
thit	-10.2536
foils	-10.2539
géarchéim	-10.2545
tair	-10.2549
scaoilea	-10.2568
féach	-10.2568
mhic	-10.257
rang	-10.2578
lit	-10.2585
ontráil	-10.2593
nl	-10.2604
uaire	-10.2623
meánscoile	-10.2644
meas	-10.2651
rú	-10.2663
anál	-10.2679
ct	-10.2704
sár	-10.2713
lin	-10.2723
iarrfa	-10.2727
par	-10.2728
sheola	-10.274
oth	-10.2781
léi	-10.2796
theagmhá	-10.2797
óil	-10.2799
sonrach	-10.2815
páirt	-10.2818
ití	-10.2827
deac	-10.2896
gníomh	-10.2935
glac	-10.2939
ria	-10.2954
chill	-10.2957
ghlac	-10.2997
tarl	-10.3002
réigiú	-10.3006
soiléir	-10.3028
fheic	-10.3045
ábhair	-10.3046
ceist	-10.3057
dhíon	-10.3063
limisté	-10.3065
éabhlóid	-10.3065
chórais	-10.3065
▁”,	-10.3065
ainsealach	-10.3065
difríocht	-10.3065
núíosach	-10.3065
aicéit	-10.3065
modern	-10.3066
riarachá	-10.3066
tábla	-10.3066
spíc	-10.3066
chógais	-10.3067
chuga	-10.3071
gné	-10.3086
theorann	-10.3088
rabha	-10.3088
aerála	-10.3089
dtiocfa	-10.3095
gcéim	-10.3105
seiceáil	-10.3111
mrna	-10.3112
coite	-10.3123
osca	-10.3133
35	-10.3139
clainn	-10.314
mé	-10.3154
com	-10.3165
throm	-10.3173
tug	-10.3189
eipidéimeolaíoch	-10.3218
teicneolaíocht	-10.325
ca	-10.3253
4	-10.3269
13	-10.3282
nais	-10.3284
beir	-10.3304
vi	-10.3342
phlean	-10.3399
fón	-10.3413
fen	-10.342
lachtaí	-10.346
éard	-10.3464
freaga	-10.3506
18¦	-10.3534
cúrs	-10.3554
bail	-10.3556
fhu	-10.3567
antai	-10.3573
tuarascá	-10.3579
núiclé	-10.3592
braisl	-10.3608
21¦	-10.3609
soláthra	-10.3611
treoir	-10.3621
té	-10.3633
raon	-10.364
thu	-10.3647
bialann	-10.3647
pháirtí	-10.3647
réigiún	-10.365
pangolin	-10.3654
bronchi	-10.3654
saoráid	-10.3654
iarmhairt	-10.3654
dochtúr	-10.3654
aslonn	-10.3654
ullmhacht	-10.3654
coicís	-10.3656
phataigineach	-10.3658
chiall	-10.3659
leochaileach	-10.3659
smaoin	-10.3663
ael	-10.3669
cloí	-10.3669
fhoils	-10.3673
ngartheagmhá	-10.3677
bhrú	-10.3684
meácha	-10.3685
gcoróin	-10.37
chlár	-10.3702
gearr	-10.3714
ghlaca	-10.3718
eamó	-10.3727
ndéant	-10.3728
fhó	-10.3736
leathn	-10.377
bo	-10.3773
tao	-10.3782
gcuirf	-10.3782
scaoil	-10.379
icu	-10.3791
meá	-10.3806
aoi	-10.3821
lig	-10.3831
orm	-10.3842
bhearta	-10.385
lte	-10.3851
plé	-10.3868
un	-10.3888
leacht	-10.3891
olog	-10.3958
feabh	-10.3978
65	-10.3999
agtha	-10.402
▁..	-10.4021
chaith	-10.4022
breith	-10.4036
eachtaí	-10.406
ry	-10.4108
eo	-10.4112
ionsaí	-10.4119
thair	-10.4124
scrío	-10.4128
uala	-10.4142
fógraí	-10.4143
tuairisc	-10.4144
scaga	-10.4162
aipe	-10.4163
chinnea	-10.4206
scriosa	-10.421
eagr	-10.4226
córa	-10.4231
scamhóga	-10.4248
eiceáil	-10.4248
mbeal	-10.4248
44	-10.4257
úsáideoir	-10.4275
órt	-10.4278
naíoná	-10.4279
aigéad	-10.4279
sraith	-10.4279
leithead	-10.4279
scála	-10.4279
aistriú	-10.428
shuí	-10.428
paisinéir	-10.428
maireachtá	-10.4281
cheist	-10.4281
fadtéarmach	-10.4281
eisiúin	-10.4282
gcoda	-10.4282
saineola	-10.4283
coláist	-10.4302
cho	-10.4307
cealla	-10.4309
hom	-10.4312
marfach	-10.4317
oici	-10.432
stopa	-10.4325
cabhróid	-10.4328
foirm	-10.4338
áinliacht	-10.4352
gcuirfea	-10.4357
cáine	-10.4361
teiripe	-10.4363
oifige	-10.4366
land	-10.4377
gabha	-10.4384
aeráil	-10.4391
struchtúr	-10.4394
leanann	-10.4395
ngrúpa	-10.4398
nuacht	-10.441
cáis	-10.4424
leithr	-10.4444
eolaíoch	-10.4468
sat	-10.4478
ly	-10.4482
ga	-10.4491
laethú	-10.454
dteast	-10.4562
cheal	-10.4626
ase	-10.463
gov	-10.4637
tacaíochta	-10.4637
pá	-10.4639
mhaithe	-10.4663
éifeachtúlacht	-10.4672
sca	-10.4709
.30	-10.4711
tuairiscí	-10.4732
dearbhaío	-10.4746
tis	-10.4755
bhfor	-10.4777
47	-10.4787
féadf	-10.4878
agairt	-10.49
ius	-10.4916
aims	-10.4918
ról	-10.4925
tria	-10.4928
chlé	-10.4935
béil	-10.4939
choraintín	-10.4945
ciarsú	-10.4945
iontaofa	-10.4945
prótaca	-10.4945
civet	-10.4945
randamach	-10.4945
fheidhmeannach	-10.4945
dhéanf	-10.4946
fíochá	-10.4946
breoiteacht	-10.4946
fadhb	-10.4946
mheánoirth	-10.4947
cógas	-10.4948
he	-10.4948
macasamhl	-10.4948
múinteoir	-10.495
ceathr	-10.495
dhaonra	-10.495
tuairisciú	-10.4951
post	-10.4956
sco	-10.4961
earná	-10.4961
alfa	-10.4963
bhfón	-10.4984
osclaío	-10.5016
ng	-10.5025
ollscoile	-10.503
uile	-10.5089
gurb	-10.5089
atos	-10.511
om	-10.5116
airí	-10.5124
oireann	-10.5137
trácht	-10.5162
dearbh	-10.5213
39	-10.5215
gast	-10.5233
ghabh	-10.5236
bainea	-10.5257
5	-10.5259
scan	-10.5265
caithfe	-10.5269
spreaga	-10.5275
tháirgea	-10.5305
su	-10.5313
thaisteal	-10.5327
cuims	-10.5335
dhír	-10.5338
socr	-10.5349
clúd	-10.5379
caill	-10.5395
orf	-10.5434
eacht	-10.5453
.5	-10.5471
orda	-10.5497
rúis	-10.5509
bean	-10.552
che	-10.5533
naidhme	-10.5545
78	-10.5549
deir	-10.5551
oileá	-10.5558
páipé	-10.5563
tion	-10.5564
namh	-10.5567
52	-10.557
matá	-10.5597
lag	-10.5601
pla	-10.5616
cheada	-10.5623
lo	-10.5628
shú	-10.5637
oimisiún	-10.564
chon	-10.5642
séasúr	-10.5643
ck	-10.5649
tuarascála	-10.5653
fhaisnéis	-10.5656
foghlaim	-10.5659
dteistiméireacht	-10.566
enteri	-10.566
géiniteach	-10.566
fhiabhra	-10.566
fhostóir	-10.566
sceideal	-10.566
eiseama	-10.566
bhuail	-10.566
ceanada	-10.566
fhaireacha	-10.566
atreor	-10.5661
leithreas	-10.5662
bailiú	-10.5666
blu	-10.5668
deich	-10.567
luaite	-10.5677
gcontae	-10.5679
caint	-10.5681
36	-10.5681
glasá	-10.5684
athmhol	-10.5685
cheanta	-10.5705
cuimhn	-10.5708
cumas	-10.5708
ionann	-10.5712
eán	-10.5718
thuas	-10.5725
leac	-10.574
úrscé	-10.5749
páipéar	-10.5758
eto	-10.5768
foinse	-10.5788
tus	-10.5814
thógálach	-10.5823
líonra	-10.5831
méar	-10.5836
cl	-10.5841
tai	-10.5852
phian	-10.5867
gl	-10.5903
táirg	-10.5908
ndochtúir	-10.5919
ball	-10.592
ách	-10.5923
tais	-10.5939
lín	-10.5965
éifeachtúlachta	-10.5973
teas	-10.5985
faisnéise	-10.5986
coróinvír	-10.5996
eolaíochta	-10.6001
lach	-10.6005
3	-10.6013
ghabhálach	-10.6054
héifeacht	-10.6073
bhainist	-10.6076
ros	-10.608
long	-10.6085
oiliú	-10.6089
laeth	-10.6096
gu	-10.6114
tóga	-10.6123
inte	-10.6143
ghlas	-10.6151
réi	-10.6154
leathna	-10.6174
30	-10.6188
aisc	-10.6195
une	-10.6216
racha	-10.6217
nce	-10.6223
iscint	-10.6223
shín	-10.6254
glaca	-10.6268
polai	-10.6271
▁¦90	-10.6273
99	-10.629
aidhm	-10.6304
frithvíreas	-10.6329
ríomh	-10.6333
tru	-10.6337
bío	-10.635
57	-10.6353
eorpa	-10.6378
ianaise	-10.6382
cuirfe	-10.6389
iomarca	-10.639
oil	-10.6408
eachtain	-10.6426
antashubstaint	-10.6429
pangóil	-10.6429
thiocfa	-10.6429
fliuch	-10.6429
gréasá	-10.6429
ocsaigin	-10.6429
ullmhú	-10.6429
ábalta	-10.6429
€	-10.6429
eitleá	-10.6429
lorg	-10.6429
difriú	-10.6429
phost	-10.6429
smacht	-10.6429
réasún	-10.6429
guaise	-10.643
sinsear	-10.643
alcól	-10.6433
spás	-10.6433
bunscoile	-10.6434
nasctha	-10.6437
príomhoifig	-10.6438
oibríochta	-10.6446
pataigineach	-10.6447
haipe	-10.645
dtreo	-10.6453
lucht	-10.6456
mian	-10.6457
rat	-10.6469
creid	-10.6472
mbain	-10.6479
tosaíocht	-10.6486
scéim	-10.6488
oiriúnach	-10.6488
nnel	-10.6496
buidé	-10.651
éill	-10.6527
achas	-10.6536
iste	-10.6539
óna	-10.6545
lí	-10.6546
lu	-10.6562
dian	-10.6563
roinnte	-10.6575
sholáthra	-10.659
nochtadh	-10.6606
treocht	-10.6606
hong	-10.6608
cel	-10.6637
tras	-10.6638
94	-10.6668
taí	-10.6706
eartha	-10.6722
ofen	-10.6776
síneach	-10.6784
úlacht	-10.6795
haon	-10.6808
ola	-10.6835
roghn	-10.6837
bog	-10.6855
300	-10.6878
gasc	-10.6895
cos	-10.69
thaca	-10.6908
teasta	-10.6909
thaga	-10.6967
10	-10.698
ke	-10.7017
stoc	-10.7022
theacht	-10.7072
ainaithnío	-10.7076
tro	-10.7079
maid	-10.7097
príomha	-10.71
ndeac	-10.7139
fhan	-10.7145
haigh	-10.7155
pháirt	-10.7155
▁¦42	-10.7161
ser	-10.7188
inis	-10.7189
aird	-10.7209
ineach	-10.7211
ceo	-10.7213
62	-10.723
chuims	-10.7234
ex	-10.7236
chlinic	-10.7249
imdhíon	-10.725
tógála	-10.7251
eiriceá	-10.7251
ibé	-10.7255
olainn	-10.7257
orainn	-10.7257
fhoghlaim	-10.7261
miondíol	-10.7262
cruthaío	-10.7262
innéacs	-10.7262
leabharlann	-10.7262
coisctheach	-10.7262
oghluaiste	-10.7262
phylogenetic	-10.7262
céatadá	-10.7262
titim	-10.7262
luimn	-10.7262
tiomána	-10.7262
toirmeasc	-10.7262
iolrach	-10.7262
fheabhs	-10.727
díhiodráitiú	-10.7271
thuras	-10.7274
cumann	-10.7276
seachadta	-10.7278
léan	-10.7285
ontae	-10.7286
antaigin	-10.7295
laethúil	-10.7305
brusca	-10.7306
iarrthóir	-10.7312
aireachta	-10.7318
dhíol	-10.7319
50	-10.735
abair	-10.7375
53	-10.7378
bhfuar	-10.738
tura	-10.739
tac	-10.739
eabhrac	-10.7392
héifeachtach	-10.7418
bhall	-10.7441
ghnó	-10.7444
críoch	-10.7459
iompa	-10.7462
ifr	-10.7463
próitéine	-10.7485
díghalr	-10.75
mio	-10.7517
leanfai	-10.7531
tráth	-10.7535
lamh	-10.7592
bhreith	-10.761
chean	-10.763
ro	-10.7634
coraintíní	-10.7654
xi	-10.7656
cal	-10.7683
cú	-10.7718
úla	-10.7736
éagsúlacht	-10.775
uathú	-10.7762
bó	-10.7773
pro	-10.7797
uillea	-10.7798
tógfai	-10.7798
feá	-10.78
holo	-10.7803
aerlín	-10.7811
fl	-10.7813
séireolaíoch	-10.7818
éim	-10.7825
mhoill	-10.7832
gcoi	-10.7841
ithne	-10.7851
glaonn	-10.787
teicneolaíochta	-10.7871
ibe	-10.7875
díghalrá	-10.7888
9	-10.7894
cóid	-10.7894
éin	-10.7903
saol	-10.793
staid	-10.7954
mhuin	-10.7973
rthe	-10.7982
oibriú	-10.7984
96¦	-10.8016
iúnta	-10.8017
ngal	-10.8017
feidhmeanna	-10.8028
fhéi	-10.8033
míchuma	-10.8052
áine	-10.8058
shá	-10.806
foins	-10.8069
uaidh	-10.8074
éadaí	-10.8074
of	-10.809
gcuir	-10.8094
cuma	-10.8102
nacht	-10.8108
náisiú	-10.8118
fhoins	-10.8135
hse	-10.8141
fisic	-10.8156
2012	-10.817
cytokine	-10.8171
cáithnín	-10.8171
cumarsáid	-10.8171
gaillimh	-10.8171
ndúnfa	-10.8171
shroich	-10.8171
iontrála	-10.8171
droch	-10.8171
dóchú	-10.8171
glantach	-10.8172
camel	-10.8172
sainmhín	-10.8172
foghlaimeoir	-10.8172
físe	-10.8172
bhreis	-10.8172
reiligiúnach	-10.8172
codlata	-10.8173
aisghabhá	-10.8174
smaois	-10.8175
cluich	-10.8175
sheiceáil	-10.8176
láithreá	-10.8176
rbd	-10.8181
vir	-10.8184
spéis	-10.8185
fisiciú	-10.8187
gnéas	-10.8187
foirmiú	-10.8188
thairg	-10.8189
dalta	-10.8194
tagra	-10.8197
oirse	-10.8197
dheal	-10.8198
gró	-10.8199
salach	-10.8201
ghlao	-10.8203
chód	-10.8204
óimheas	-10.8209
memb	-10.8213
laid	-10.8216
iom	-10.8216
fosta	-10.8217
lárnach	-10.8219
gcúis	-10.8228
féad	-10.823
thinn	-10.8237
41	-10.8239
rté	-10.8242
suí	-10.8264
margaí	-10.8275
choir	-10.8279
comhpháirt	-10.8298
feidhmiú	-10.8299
frithvíreasach	-10.8323
amhlai	-10.8334
gclúd	-10.8335
ghá	-10.8339
sreabhá	-10.8354
víreolaíocht	-10.8358
fho	-10.8387
clis	-10.8387
chónaí	-10.8396
ibu	-10.8398
las	-10.8404
údar	-10.8424
áilte	-10.8432
mor	-10.8438
ire	-10.8462
app	-10.8472
forbraío	-10.8481
▁¦33	-10.8481
uí	-10.8487
oidea	-10.8512
sl	-10.8515
bótha	-10.852
ghlasá	-10.8525
raid	-10.8557
thuairiscí	-10.857
chinn	-10.8584
mhala	-10.8591
rt	-10.8605
kin	-10.8606
cúl	-10.8606
thaisteala	-10.8618
ásta	-10.8621
leithli	-10.8646
tháirg	-10.8648
pór	-10.8652
dhiagnóisi	-10.8654
ation	-10.8668
rem	-10.8698
hoifigi	-10.8729
▁¦45	-10.874
freagraí	-10.8742
cothaith	-10.875
mála	-10.8751
▁¦55	-10.8751
únaí	-10.8763
dy	-10.8769
faí	-10.8778
slabhra	-10.8846
chreid	-10.8863
▁¦2.	-10.8893
ardaithe	-10.8903
91	-10.8913
)	-10.8918
idirghabhá	-10.894
dhaonn	-10.8972
mhaith	-10.8975
ted	-10.8987
sach	-10.9003
79	-10.9018
▁¦43	-10.9034
chair	-10.9057
bord	-10.9071
soláth	-10.9082
chosa	-10.9102
leas	-10.9103
comhartha	-10.9106
mill	-10.9122
tionsca	-10.914
fhon	-10.914
príobháideacha	-10.9151
glas	-10.9153
pea	-10.916
breathnaío	-10.9161
+	-10.9171
déileáil	-10.9171
eografach	-10.9171
foghlam	-10.9171
óifein	-10.9171
teoiric	-10.9171
mheastachá	-10.9171
prognóis	-10.9171
sochraid	-10.9171
shaorána	-10.9171
fhachtóir	-10.9171
brand	-10.9171
plasma	-10.9171
uirlis	-10.9171
ghloin	-10.9172
thioncha	-10.9172
brasaíle	-10.9172
muc	-10.9172
gloin	-10.9172
práinne	-10.9173
cheadú	-10.9173
iniúch	-10.9173
muint	-10.9174
réamhchúraim	-10.9174
amharclann	-10.9175
dlúthpháirtíocht	-10.9175
mheasún	-10.9176
treorach	-10.9177
seolfa	-10.9178
ngall	-10.9179
póilín	-10.9181
phlé	-10.9181
oilliú	-10.9181
aeriompa	-10.9182
mheabhair	-10.9183
uachtarach	-10.9183
ráid	-10.9186
thábhachtach	-10.9186
triú	-10.9192
tréith	-10.9193
éilliú	-10.9193
neamhspleách	-10.9194
inni	-10.9194
pailin	-10.9198
bpáist	-10.9199
singe	-10.9199
athraitheach	-10.9201
léitheoir	-10.9202
tasc	-10.9203
cultúr	-10.921
fhorb	-10.9211
roim	-10.9213
háise	-10.9214
araib	-10.922
príobháideachas	-10.9225
shaol	-10.9226
mama	-10.9227
bhunús	-10.9231
ghéanóm	-10.9233
shl	-10.9245
fhear	-10.9249
teagla	-10.9263
iii	-10.9267
comhch	-10.9271
itheoir	-10.9279
fút	-10.9283
seachtainiú	-10.9283
shonrach	-10.9286
airgeada	-10.9289
ham	-10.9298
teorann	-10.9303
uel	-10.9309
caigh	-10.9311
aisgha	-10.9311
▁¦4,5	-10.9323
tuirse	-10.9327
feidhmeannach	-10.9336
thóg	-10.9343
oird	-10.935
tinne	-10.935
mair	-10.9352
1,1	-10.9372
choi	-10.9399
aithne	-10.9404
46	-10.9412
romla	-10.9437
61	-10.9442
bainistíocht	-10.9451
scagthástá	-10.9452
mheabhra	-10.9494
20	-10.9511
iompai	-10.9528
ema	-10.9543
idirlí	-10.9556
réige	-10.9558
isté	-10.9571
séireolaíocht	-10.9578
hoile	-10.9585
luain	-10.9601
páirc	-10.9602
nia	-10.9604
we	-10.9606
leathan	-10.9611
thuairisci	-10.9627
bhféadf	-10.9633
páirtea	-10.9652
déar	-10.9668
íreach	-10.9714
ions	-10.9722
ireacht	-10.9741
thain	-10.9746
moil	-10.9746
gi	-10.9771
75	-10.9777
92¦	-10.9778
fhill	-10.9786
gcion	-10.9801
phríobháideach	-10.982
tra	-10.9828
oscail	-10.9829
col	-10.9833
ghl	-10.9836
66	-10.9904
téarmaí	-10.9914
ainmnío	-10.9919
céa	-10.9921
ruthú	-10.9921
leab	-10.9977
scagthástála	-10.9978
atáirg	-10.999
dháile	-11.0015
déanach	-11.0016
;	-11.0033
feidhm	-11.0037
87	-11.0043
sha	-11.0045
bhail	-11.0048
hathr	-11.0053
82	-11.0074
gair	-11.0078
74	-11.0083
lon	-11.01
éasc	-11.0101
▁¦1,0	-11.013
uil	-11.0138
eras	-11.0164
08	-11.0167
gabh	-11.0169
luí	-11.0175
corp	-11.0186
loch	-11.019
ko	-11.0191
thi	-11.0199
ghéanó	-11.0214
tiocfa	-11.0221
gníomhaireachta	-11.0232
gníomhaíocht	-11.0238
ras	-11.0239
leanúnacha	-11.0247
caighdeá	-11.0276
aoise	-11.0277
ithíoch	-11.0281
huimh	-11.0281
breoite	-11.0281
caite	-11.0282
iobúpr	-11.0282
dhromchla	-11.0282
stéarói	-11.0282
taispeáin	-11.0282
ghéiniteach	-11.0282
sheomra	-11.0282
≥	-11.0282
ghníomhaireacht	-11.0282
alpaca	-11.0282
ócáid	-11.0282
ealaíon	-11.0282
dtarló	-11.0283
fóill	-11.0283
ríthábhachtach	-11.0283
strus	-11.0283
gabhdóir	-11.0283
ghabhdóir	-11.0283
gastro	-11.0283
shábháilteacht	-11.0283
wash	-11.0284
brid	-11.0284
buaic	-11.0285
iarrata	-11.0286
bhunú	-11.0291
seineafó	-11.0292
tóireacht	-11.0293
patrú	-11.0294
rolla	-11.0296
oltar	-11.0297
itheann	-11.03
cló	-11.0301
ghiniú	-11.0301
imdhíonta	-11.0302
príobháideacht	-11.0303
▁¦4.	-11.0307
géine	-11.0314
costa	-11.0316
sput	-11.032
news	-11.0323
14	-11.0325
iúsca	-11.0328
deireanach	-11.0334
sráid	-11.034
alcó	-11.0341
j	-11.0344
séasúrach	-11.0347
throi	-11.0358
chomhlíona	-11.0379
huisc	-11.038
costas	-11.0384
cinnt	-11.0398
athró	-11.0401
88	-11.0404
réigiúnach	-11.0413
gnótha	-11.0432
tosó	-11.0439
siltí	-11.0443
aeir	-11.0448
léirithe	-11.0497
iocht	-11.0501
chaill	-11.0504
ionn	-11.0523
ionca	-11.0532
abhair	-11.054
bliantú	-11.0549
gcaithea	-11.0553
siv	-11.056
álaí	-11.0562
rogh	-11.057
coinní	-11.058
tom	-11.0595
míonn	-11.0597
siomptóm	-11.0604
nell	-11.0638
álacha	-11.0638
aiste	-11.0648
mel	-11.0655
sint	-11.0663
iomp	-11.0684
íoch	-11.0701
déanf	-11.0711
sen	-11.08
ghéar	-11.0828
phleanáil	-11.0837
oiliúna	-11.0855
dtástáil	-11.0859
dhiúlta	-11.0875
isce	-11.0913
thro	-11.0951
ning	-11.0957
sean	-11.0966
boga	-11.098
ophar	-11.0994
roid	-11.101
aoil	-11.1018
léar	-11.1026
lasta	-11.1049
scaoilte	-11.1103
has	-11.111
ipt	-11.1129
braislí	-11.1138
láriona	-11.1164
deacra	-11.1176
fheidhm	-11.1237
eisia	-11.1239
27	-11.1247
mhaí	-11.1284
fhreastala	-11.1322
sláint	-11.1342
cean	-11.135
64	-11.1393
scéal	-11.1396
71	-11.1409
ocra	-11.1424
háite	-11.1431
cep	-11.1456
uismitheoir	-11.147
fáilt	-11.1476
ríochta	-11.148
ior	-11.1486
saíocht	-11.1494
pataigin	-11.1502
éalainn	-11.1503
mhéadaithe	-11.1509
seachad	-11.1514
cas	-11.152
luas	-11.1523
leata	-11.1525
eagraithe	-11.1528
athraithe	-11.1531
ullmha	-11.1531
cheap	-11.1532
scáileá	-11.1532
staitisti	-11.1532
thaifead	-11.1532
comhsheasmhach	-11.1532
fadthéarmach	-11.1532
digiteach	-11.1532
http	-11.1532
músae	-11.1532
oilithr	-11.1532
threor	-11.1532
thromchúiseach	-11.1532
google	-11.1532
neamhghnácha	-11.1532
sprioc	-11.1532
pragh	-11.1532
polaitiú	-11.1532
corónach	-11.1532
tuirc	-11.1532
dífhostaíocht	-11.1533
fiafr	-11.1533
beatha	-11.1533
chuairteoir	-11.1533
delta	-11.1533
gas	-11.1533
cianfhoghla	-11.1534
contúirt	-11.1534
cathaoir	-11.1535
bolg	-11.1535
tharraing	-11.1535
ghníomhach	-11.1536
cothrom	-11.1537
vót	-11.1538
dtuai	-11.1538
tuáill	-11.1541
fanfa	-11.1541
réamhscoile	-11.1543
asacht	-11.1543
foriomlán	-11.1544
fhail	-11.1544
jo	-11.1545
thaist	-11.1545
frí	-11.1547
hipir	-11.1552
maoini	-11.1553
eilge	-11.1557
bhfanfa	-11.1558
ngeal	-11.1559
wo	-11.1559
bholg	-11.156
omharc	-11.1564
ardoideacha	-11.1567
teip	-11.1568
lop	-11.1568
pain	-11.157
reim	-11.157
éara	-11.1571
cuideachta	-11.1575
cuarda	-11.1577
beta	-11.1579
bailío	-11.158
feidhmchlá	-11.1583
iobr	-11.1584
ipín	-11.1585
chónaitheoir	-11.1586
cónaitheach	-11.159
staidr	-11.1591
mit	-11.1592
tiomáint	-11.1594
díobhálach	-11.16
98	-11.1619
luch	-11.1619
orgán	-11.1622
gcleachta	-11.1631
dhear	-11.1632
cheanga	-11.1635
chúramóir	-11.1636
oid	-11.164
ísl	-11.1643
eaglais	-11.1647
chrutha	-11.166
point	-11.1665
díghalrú	-11.1667
gairm	-11.167
áileog	-11.1671
49	-11.1678
eachtra	-11.1703
imoibri	-11.1703
sci	-11.1706
cont	-11.171
ceacht	-11.1747
lio	-11.1749
luach	-11.1767
aera	-11.1784
lúb	-11.1797
comhla	-11.1804
bc	-11.1809
card	-11.1816
mbeart	-11.1817
choinn	-11.1839
ndia	-11.1855
agu	-11.187
faighte	-11.1877
bunaío	-11.1881
fuinn	-11.189
éireo	-11.19
éifeacht	-11.1909
dtabharfa	-11.196
draig	-11.1976
slabhr	-11.2001
rochta	-11.2008
dúshlán	-11.2036
iúltach	-11.2039
éidearthacht	-11.2047
mbraisl	-11.2049
rúise	-11.2052
ofa	-11.2057
carna	-11.2074
ghinea	-11.2082
60	-11.2086
01	-11.2121
táirgea	-11.2165
meabhra	-11.2171
▁¦4,9	-11.2171
theagmhála	-11.2186
ciníocha	-11.2199
dirghníomhaíocht	-11.2211
mear	-11.223
gen	-11.2271
her	-11.2276
use	-11.23
irseach	-11.2315
ley	-11.2349
conair	-11.235
amp	-11.2368
▁¦59	-11.2389
ráite	-11.2437
34¦	-11.2449
sam	-11.2467
68	-11.2479
wi	-11.2497
86	-11.2497
zho	-11.2545
ens	-11.2545
claon	-11.2548
ince	-11.2552
ndéanf	-11.2593
próise	-11.2612
críocha	-11.2626
laois	-11.2647
25¦	-11.2656
rac	-11.2657
pp	-11.2658
ron	-11.266
▁¦4,8	-11.2692
sheacha	-11.2694
iomad	-11.2698
nocht	-11.271
tonn	-11.2713
scaipf	-11.272
phróise	-11.2737
banc	-11.2742
pob	-11.2745
itéir	-11.2788
67	-11.2794
féacha	-11.2815
cógaslanna	-11.282
ríofa	-11.2825
mbun	-11.2834
íghalrú	-11.2856
bagairt	-11.2857
orgá	-11.2859
socró	-11.2862
chúl	-11.2871
leictreon	-11.2878
bru	-11.2886
chóna	-11.2899
tánaiste	-11.2901
taith	-11.291
samplá	-11.2919
abhróid	-11.2923
ianta	-11.2936
oiriúnaithe	-11.2937
crua	-11.2939
rraing	-11.2948
oiriú	-11.2948
caillte	-11.2952
ceadú	-11.2956
óthach	-11.2957
samhalt	-11.2959
substaint	-11.2959
oxford	-11.2961
chothabhá	-11.2961
gheilleaga	-11.2961
innealtóireacht	-11.2961
taidhleoireacht	-11.2961
dhigiteach	-11.2961
teicníc	-11.2961
07.	-11.2961
compord	-11.2961
mhiondíol	-11.2961
shoiléir	-11.2961
solúbthacht	-11.2961
veicteoir	-11.2961
polapróitéin	-11.2961
fráma	-11.2961
pictiúrlann	-11.2961
íbhuntáist	-11.2961
stoirm	-11.2961
dhifriú	-11.2961
thrasn	-11.2961
iobúproif	-11.2961
ollmharga	-11.2961
urlabhra	-11.2961
▁¦4.30	-11.2961
▁¦4,4	-11.2962
cáilíocht	-11.2962
íocaíocht	-11.2962
choláist	-11.2962
duán	-11.2962
einsím	-11.2962
samhra	-11.2962
ceolchoirme	-11.2964
fiche	-11.2964
nigéir	-11.2964
euro	-11.2964
riticiú	-11.2964
comhlachtaí	-11.2964
asho	-11.2964
comhdhúil	-11.2965
iosr	-11.2965
fhoirmiú	-11.2966
cothromaíocht	-11.2966
braite	-11.2966
caifé	-11.2966
tubaiste	-11.2966
uillinn	-11.2966
rannpháirteach	-11.2967
son	-11.2968
brisea	-11.2968
fuinneog	-11.2969
gharda	-11.2969
toirmisc	-11.297
leantach	-11.297
ionrach	-11.2972
thoil	-11.2974
súg	-11.2976
clóirí	-11.2978
chúige	-11.2979
shiúl	-11.298
stoi	-11.2981
liom	-11.2982
veicteorach	-11.2986
medi	-11.299
feithic	-11.299
mbialann	-11.2991
ráit	-11.2994
gly	-11.2995
moo	-11.2996
prote	-11.2998
mothú	-11.2998
sualainn	-11.2999
coga	-11.3001
riara	-11.3002
chomhord	-11.3002
bharnó	-11.3002
éagsú	-11.3003
téalainn	-11.3008
dhíola	-11.3009
tionscada	-11.3011
aerbheala	-11.3014
face	-11.3015
ghaol	-11.3017
taom	-11.3022
▁¦1,000	-11.3023
stóráil	-11.3025
féar	-11.3026
phlá	-11.3028
ovirus	-11.3029
phacáist	-11.3032
zhan	-11.3038
chúna	-11.3039
mbunscoil	-11.3048
scoir	-11.3052
bán	-11.3054
chomhair	-11.3055
gníomhaireacht	-11.3058
reasach	-11.3061
uaslódála	-11.3065
inse	-11.3081
norm	-11.3095
▁¦25	-11.3115
uibh	-11.3126
mach	-11.3137
2-	-11.314
ifn	-11.3159
tagann	-11.3166
line	-11.3192
bhéil	-11.3192
eart	-11.3199
chrai	-11.3203
gceann	-11.3212
dtreoirlín	-11.3218
bainis	-11.322
abc	-11.322
foirgn	-11.3226
iomadú	-11.3234
táirge	-11.328
▁¦2019-	-11.329
▁¦196	-11.3306
breatain	-11.3319
cirt	-11.332
uinchill	-11.3321
aingea	-11.3327
chéime	-11.3333
0,000	-11.3334
arman	-11.3336
hard	-11.3348
cumhachta	-11.3366
dae	-11.3379
tine	-11.338
soláthr	-11.3384
áracha	-11.3387
nio	-11.3413
aimín	-11.3415
dteann	-11.3417
cúisí	-11.344
cárta	-11.3446
1.7	-11.3447
méadrach	-11.3455
téarma	-11.3458
dtréimhs	-11.3459
éig	-11.3469
órsa	-11.3491
56	-11.3527
tap	-11.3538
mhant	-11.3539
put	-11.3539
aidri	-11.3569
carr	-11.3576
breithe	-11.3588
eicniú	-11.3627
16	-11.3641
pleanáil	-11.3666
chaí	-11.3669
bhfaighfe	-11.3687
fhil	-11.3688
▁¦5.	-11.3732
liún	-11.3733
bhío	-11.3785
cúramóir	-11.379
éarchéim	-11.3799
ow	-11.3806
iarth	-11.3847
fuil	-11.3856
ceannach	-11.386
▁¦34	-11.388
reacht	-11.3889
lúna	-11.3909
6,5	-11.391
chógaslanna	-11.3913
eora	-11.3922
ell	-11.3937
-1	-11.3992
cionta	-11.4012
fheidhmiú	-11.4021
théa	-11.4022
untas	-11.4028
chúraim	-11.4059
beart	-11.4067
balla	-11.4087
bheart	-11.4092
eabhair	-11.4101
idirghabhála	-11.411
staim	-11.4122
lainn	-11.4125
chealla	-11.4134
▁¦9.	-11.4168
choinní	-11.4177
45	-11.427
éinte	-11.4329
bhfaighea	-11.4335
33	-11.4336
heagr	-11.4337
sub	-11.438
hiond	-11.4394
nur	-11.4395
aimse	-11.4406
halla	-11.4426
airgead	-11.4428
ghlant	-11.4435
▁¦73	-11.4441
rathú	-11.4488
uaslódá	-11.4506
chaomhn	-11.4525
eipidéimeola	-11.4532
féa	-11.4535
ji	-11.4536
theoran	-11.4557
theiripe	-11.4562
labhra	-11.4576
osclófa	-11.4605
ok	-11.4612
hop	-11.4616
asma	-11.4617
piri	-11.4617
84¦	-11.4618
úinteoir	-11.4619
iníocha	-11.4619
braithf	-11.4625
éiginnte	-11.4626
ferret	-11.4628
geilleaga	-11.4628
shruth	-11.4628
thaispeán	-11.4628
tionscna	-11.4628
insteall	-11.4628
máithreacha	-11.4628
bainisteoir	-11.4628
gaolmhar	-11.4628
stróc	-11.4628
suíochá	-11.4628
thoirch	-11.4628
tholg	-11.4628
bhraite	-11.4628
fionnachta	-11.4628
dtuig	-11.4628
eardchuma	-11.4628
ymp	-11.4628
▁¦2019-20	-11.4628
chríochn	-11.4628
bacainn	-11.4628
déantúsaíocht	-11.4628
fhabht	-11.4628
guang	-11.4628
trádá	-11.4628
7,1	-11.4628
scíth	-11.4628
iompróir	-11.4628
coronaviri	-11.4628
oidhreacht	-11.4628
frithghiniú	-11.4629
suite	-11.4629
triom	-11.4629
serop	-11.4629
fecal	-11.4629
ungáir	-11.4629
▁¦1.4	-11.463
deonach	-11.463
ghairm	-11.463
giniú	-11.4631
dhlúth	-11.4631
paul	-11.4633
chúpl	-11.4633
cupá	-11.4634
sainord	-11.4634
gclinic	-11.4635
dtaca	-11.4635
ollmhór	-11.4636
chúins	-11.4637
chathrach	-11.4637
feirme	-11.4637
bhronn	-11.4639
fhosta	-11.4641
cóip	-11.4641
allmhair	-11.4643
róimh	-11.4644
cast	-11.4645
lomba	-11.4649
dhéag	-11.465
mise	-11.4655
81	-11.4655
chabhair	-11.4656
ionsaithe	-11.4658
beagá	-11.4659
vac	-11.4662
nhs	-11.4664
▁¦2002	-11.4667
oiriúnaitheach	-11.4673
consalacht	-11.4674
adóir	-11.4688
gcineál	-11.4697
tánaisteach	-11.4705
ilíoch	-11.4714
iomarcach	-11.4715
cheadaí	-11.4719
inné	-11.4726
leictreonach	-11.4727
gaire	-11.4732
stail	-11.4733
teilea	-11.4736
fhá	-11.4745
uineachá	-11.4745
aisleá	-11.4755
866	-11.4761
phac	-11.4765
ghnóth	-11.4768
stin	-11.477
ongó	-11.4773
gcóireá	-11.4776
tiom	-11.4783
oliti	-11.4789
ceadúna	-11.4789
hainmh	-11.4794
gcor	-11.4799
▁¦2,3	-11.4804
naoi	-11.4807
teiripeach	-11.4811
maill	-11.4822
stra	-11.4829
att	-11.4835
res	-11.484
▁¦51	-11.4842
abhrach	-11.4844
bprói	-11.4845
thús	-11.4846
treo	-11.4851
iata	-11.4854
himeacht	-11.4865
dtuarascá	-11.4871
thap	-11.4888
alún	-11.4897
▁¦3.	-11.4903
igg	-11.4911
iam	-11.4912
oirth	-11.4916
bre	-11.4952
ballstá	-11.4953
.7	-11.4998
chlo	-11.4999
gluaiseacht	-11.5023
feist	-11.5033
cabhrach	-11.5035
bruitín	-11.5043
hospidé	-11.5054
ngnáth	-11.506
laghdói	-11.5073
leanfa	-11.5083
ndaonra	-11.5103
buí	-11.5104
scr	-11.5115
ome	-11.5121
dúr	-11.5126
cv	-11.5147
eisiata	-11.5165
cuar	-11.517
forle	-11.517
dán	-11.5186
dtria	-11.5215
hen	-11.5221
imint	-11.5245
vo	-11.5256
cíoch	-11.5259
alára	-11.5298
chuairt	-11.53
ty	-11.5306
uartha	-11.5323
áras	-11.5327
cro	-11.5336
gear	-11.5361
dtógfa	-11.5395
ostair	-11.5405
anom	-11.541
tearc	-11.5427
hath	-11.5473
22	-11.5499
dath	-11.5509
cuimsi	-11.5517
thástála	-11.5534
sola	-11.5571
athraío	-11.5629
sciath	-11.5663
bio	-11.5671
mhui	-11.5683
leic	-11.5721
spr	-11.5744
spleách	-11.5758
arad	-11.5776
bhreithe	-11.5797
itis	-11.5798
déanaim	-11.58
chois	-11.5808
ionc	-11.5819
námha	-11.5823
ghin	-11.5824
ond	-11.5833
íochtar	-11.5851
ionchóda	-11.5852
éigean	-11.5856
chuairte	-11.5869
▁¦4,90	-11.5893
gel	-11.5893
mharga	-11.5897
ceap	-11.5899
▁¦2,5	-11.5906
oibreo	-11.5908
caillea	-11.5919
comhord	-11.5961
tráchtá	-11.5975
▁¦4,0	-11.6016
4,3	-11.6018
láidr	-11.6019
séala	-11.6086
threoir	-11.6123
imsithe	-11.613
meánscoil	-11.6138
reatain	-11.614
▁¦4,6	-11.6141
▁¦6.	-11.616
ionsa	-11.6162
tip	-11.6162
54	-11.6162
áthair	-11.6177
vei	-11.6213
sreabh	-11.6215
dtabharf	-11.6222
8.	-11.6244
oireachta	-11.6277
cop	-11.6281
ceadaío	-11.6281
bhailí	-11.6287
ileog	-11.6307
ealaí	-11.6324
aimsí	-11.6327
threa	-11.6343
▁¦0.	-11.6356
soláthraí	-11.6365
phla	-11.6385
diam	-11.6388
ocha	-11.6404
insí	-11.6437
aistrí	-11.6446
alraí	-11.6494
uirb	-11.6497
time	-11.6498
iarrthó	-11.6506
iomáint	-11.6525
reva	-11.6534
stór	-11.6537
oimeád	-11.654
ceangla	-11.6552
chorói	-11.6555
íobhálach	-11.6565
.4	-11.6566
luc	-11.6572
próis	-11.6574
éasúr	-11.6576
gcos	-11.6578
ualainn	-11.6579
fhreagair	-11.6584
easc	-11.6592
veicteora	-11.6592
aidrea	-11.6611
aipín	-11.6611
iomláin	-11.6614
fhreasta	-11.6615
pacáist	-11.6617
new	-11.6618
irmheánach	-11.6627
chruinnithe	-11.6627
lóistí	-11.6627
lymphocyt	-11.6628
shaotharlann	-11.6628
fiaclóir	-11.6628
gruagair	-11.6628
iargúlta	-11.6628
peptid	-11.6628
suaimhn	-11.6628
toghchá	-11.6628
▁¦3,1	-11.6628
#	-11.6628
anglaidéis	-11.6628
bolsonaro	-11.6628
ceimiceach	-11.6628
gearrthéarmach	-11.6628
néareolaíoch	-11.6628
paiteolaíoch	-11.6628
phríosú	-11.6628
pionós	-11.6628
reáchtáil	-11.6628
ribonucle	-11.6628
rouhani	-11.6628
theicneolaíocht	-11.6628
éiceolaíoch	-11.6628
íoslódá	-11.6628
múnla	-11.6628
plaicint	-11.6628
socrúchá	-11.6628
áireofa	-11.6628
mhothúchá	-11.6628
síochán	-11.6628
clo	-11.6628
ocsaineacht	-11.6628
antaigín	-11.6628
pholaitiú	-11.6628
prince	-11.6628
mionsonra	-11.6628
cúlchist	-11.6628
lrti	-11.6628
cumhda	-11.6628
riospróir	-11.6628
cispheil	-11.6628
tharló	-11.6628
seasmhach	-11.6628
toitín	-11.6628
chógas	-11.6628
reachtaíocht	-11.6628
logáil	-11.6628
mhinic	-11.6628
thionsca	-11.6628
ionchas	-11.6628
way	-11.6628
gcorróg	-11.6628
seilf	-11.6628
amino	-11.6628
phearsan	-11.6628
bhearna	-11.6628
choinníoll	-11.6628
▁¦8.30	-11.6629
malart	-11.6629
míchompord	-11.6629
fheist	-11.6629
bhainisteoir	-11.6629
impist	-11.6629
impí	-11.6629
shábháilte	-11.6629
sochaí	-11.6629
aeráid	-11.663
chianfhoghla	-11.663
nsaid	-11.663
spórt	-11.663
mhodhn	-11.663
bhreathn	-11.663
loing	-11.6631
imoibríoch	-11.6631
comhionann	-11.6631
blúir	-11.6631
rúnda	-11.6631
céadfach	-11.6631
fairsing	-11.6631
ionanál	-11.6631
tionól	-11.6631
deoch	-11.6632
dífhost	-11.6632
▁¦1,2	-11.6633
intern	-11.6633
comhlán	-11.6633
syn	-11.6634
thráth	-11.6634
parlaimint	-11.6634
ordaío	-11.6635
bhuaic	-11.6637
modheolaíocht	-11.6637
aici	-11.6637
ww	-11.6638
chomhpháirt	-11.6638
gcamá	-11.6638
mífhaisnéis	-11.6638
páirce	-11.6639
liúchá	-11.6639
scagth	-11.664
croith	-11.664
mont	-11.664
eirse	-11.6641
fulaing	-11.6641
thrí	-11.6643
eachtranna	-11.6643
aoisghrúpa	-11.6645
caighdeánach	-11.6645
ector	-11.6646
aicm	-11.6646
reast	-11.6647
shuío	-11.6648
conclúid	-11.6649
barda	-11.665
gcinn	-11.665
gaothair	-11.6651
caillteana	-11.6651
heaglais	-11.6654
cairte	-11.6654
dtitf	-11.6656
ghorta	-11.6657
leithdháil	-11.6658
iac	-11.6658
lou	-11.6659
cónaithe	-11.6662
bhrisea	-11.6663
gníomhaire	-11.6668
▁¦2018	-11.6674
homalógach	-11.6676
infheidhm	-11.6677
nsom	-11.6679
polar	-11.6682
saille	-11.6683
húsáideoir	-11.6684
dheireanach	-11.6684
choimisiún	-11.6686
idirghníomhaío	-11.6691
bhfill	-11.6693
slándá	-11.6699
lance	-11.67
ligf	-11.6703
advi	-11.6704
290	-11.6706
stáisiú	-11.6709
fhoirm	-11.671
ity	-11.6717
gceanglaí	-11.6718
acadú	-11.6719
ionadaíoch	-11.672
leamhna	-11.6724
zhe	-11.6728
tharchuir	-11.6732
lic	-11.6735
comhdhá	-11.6739
ceangailte	-11.6753
siom	-11.6758
haer	-11.6762
per	-11.6769
soiléire	-11.6772
napro	-11.6775
thán	-11.6781
cheo	-11.6792
cheil	-11.6793
urg	-11.6804
réamhchúra	-11.6804
obla	-11.6807
bhfíor	-11.6823
chairt	-11.6833
fhillea	-11.6834
gcógaslann	-11.6835
íceolaíoch	-11.6838
bor	-11.6858
iontach	-11.6868
▁¦400	-11.6878
aigéin	-11.6885
my	-11.6899
asc	-11.6908
aithin	-11.6918
stat	-11.6942
dife	-11.6942
geall	-11.6959
hiondú	-11.6971
ive	-11.7003
lón	-11.7013
chen	-11.7019
isear	-11.7024
cinntí	-11.7028
chuma	-11.7036
réada	-11.7053
dhiúlt	-11.7059
cheath	-11.706
teo	-11.706
cúrsaí	-11.7082
dtóg	-11.7083
iseoir	-11.7088
scagair	-11.7106
coir	-11.7115
slua	-11.7127
crích	-11.7129
rit	-11.7139
íogaire	-11.7171
ott	-11.7175
radagrafaíochta	-11.718
tábhacht	-11.7188
bro	-11.7208
iall	-11.7239
bus	-11.7261
dteach	-11.7277
láidre	-11.7277
chreidte	-11.7325
cosúlachta	-11.7368
bhlain	-11.7376
chod	-11.7385
76¦	-11.7385
gcéi	-11.7406
nder	-11.7408
80	-11.7409
thuaisc	-11.7412
ceapt	-11.7416
mhais	-11.7419
docht	-11.7425
head	-11.7433
uter	-11.746
90	-11.7489
oibríoch	-11.7506
modhn	-11.7516
spleácha	-11.7527
6,8	-11.7536
réamhth	-11.7538
40	-11.755
chógaslann	-11.7576
,54	-11.759
shen	-11.7609
athnaío	-11.7643
▁¦2,0	-11.7659
▁¦4,92	-11.7666
ghabhá	-11.7675
longfo	-11.7683
4.5	-11.7689
romha	-11.7704
bhfreastalaí	-11.7709
aldi	-11.7724
pre	-11.7728
kat	-11.7756
lian	-11.7762
mífheidhm	-11.7781
diclo	-11.7827
ciníoch	-11.7854
oga	-11.7907
uachtar	-11.791
éimeagrafach	-11.7935
eip	-11.7972
shao	-11.7989
chabhra	-11.7989
bhfreagra	-11.8001
cleacht	-11.8018
ream	-11.809
sainaith	-11.8169
aitheoir	-11.8202
▁¦250	-11.821
fill	-11.8248
deimhni	-11.8264
treacha	-11.8272
húlra	-11.8275
tráthú	-11.8284
onra	-11.8292
chor	-11.8353
tábhachta	-11.8394
pail	-11.8415
beanna	-11.8439
deise	-11.8452
20,000	-11.8457
teirip	-11.8492
gceall	-11.8499
chait	-11.8528
iúlacht	-11.8529
402	-11.8555
ghrúp	-11.8561
coróivír	-11.8601
bliant	-11.8607
▁¦1,3	-11.8615
chomhbhr	-11.8662
scrí	-11.8702
geal	-11.8706
osúla	-11.8721
mur	-11.8757
"	-11.8771
▁¦2,4	-11.8805
eata	-11.8843
idéal	-11.8865
mhíni	-11.8892
tairg	-11.8897
lond	-11.8902
▁¦2,2	-11.8914
ríoch	-11.8914
179	-11.8943
stad	-11.8948
réad	-11.8959
bhfeic	-11.8969
uaig	-11.8992
caiteacha	-11.8996
5,000¦	-11.9021
ment	-11.9035
téama	-11.904
athl	-11.9056
eatramh	-11.9061
reid	-11.9062
thábhacht	-11.9086
12	-11.9088
22,6	-11.9093
clinic	-11.9095
paráid	-11.9097
patr	-11.9101
feic	-11.9104
ainéa	-11.9111
breathn	-11.9115
acasamhl	-11.9116
rannpháirt	-11.9117
luich	-11.9118
réagach	-11.9118
arlaimint	-11.9119
oicís	-11.9119
ulaing	-11.9121
eánscoil	-11.9122
shábháil	-11.9122
shlándá	-11.9126
▁¦3,9	-11.9126
▁¦3,5	-11.9127
sraoth	-11.9127
bonneaga	-11.9128
fóirdheon	-11.9128
heipitít	-11.9128
monocl	-11.9128
mídhleathach	-11.9128
phrótaca	-11.9128
chomparáid	-11.9128
fhíorú	-11.9128
gheimhr	-11.9128
grianghraf	-11.9128
gruaige	-11.9128
turgnamhach	-11.9128
bhreoiteacht	-11.9128
bricfe	-11.9128
cairdiach	-11.9128
chumarsáid	-11.9128
cnáimhseacha	-11.9128
conspóid	-11.9128
corticosteroid	-11.9128
dioplóma	-11.9128
forlíontach	-11.9128
infheistíocht	-11.9128
interferon	-11.9128
leordhóthanach	-11.9128
meaisín	-11.9128
murtall	-11.9128
neamhshiméadrach	-11.9128
príosúnach	-11.9128
píolótach	-11.9128
tomagrafaíocht	-11.9128
trédhearcach	-11.9128
turasóireacht	-11.9128
×	-11.9128
▁¦2,1	-11.9128
eiceálacha	-11.9128
fíric	-11.9128
ioslam	-11.9128
mhonaróir	-11.9128
chríosta	-11.9128
chumhacht	-11.9128
léarscáil	-11.9128
shuiteá	-11.9128
wiki	-11.9128
dhúshlá	-11.9128
déthaobhach	-11.9128
coibhneas	-11.9128
urlac	-11.9128
fhisic	-11.9128
oilimpeach	-11.9128
tuaslag	-11.9128
imirce	-11.9128
folc	-11.9128
chroí	-11.9128
aclaí	-11.9128
críosta	-11.9128
▁¦1.8	-11.9128
dtimpeallacht	-11.9128
thabharfa	-11.9128
zoo	-11.9128
-200	-11.9128
claontacht	-11.9128
you	-11.9128
fhéach	-11.9128
pub	-11.9128
sceid	-11.9129
thomha	-11.9129
▁¦1890	-11.9129
creat	-11.9129
eitril	-11.9129
ceannasach	-11.9129
earráid	-11.9129
shuíochá	-11.9129
lochtach	-11.9129
raidió	-11.9129
▁¦1.1	-11.9129
pholaiteoir	-11.9129
ribo	-11.9129
ghné	-11.913
▁¦8,	-11.913
mothúchá	-11.913
dánlann	-11.9131
thriú	-11.9131
rúpa	-11.9131
▁¦3.8	-11.9131
riarthóir	-11.9131
politic	-11.9131
batcov	-11.9131
comhráite	-11.9131
ogra	-11.9132
nideo	-11.9132
sraiththástála	-11.9132
▁¦3,3	-11.9132
muinín	-11.9132
theorainn	-11.9132
bailiúchá	-11.9132
bhialann	-11.9133
jiang	-11.9133
bhuana	-11.9133
shocha	-11.9133
gnóthacha	-11.9134
buíoch	-11.9134
fororda	-11.9135
madra	-11.9135
lúbtha	-11.9135
7.4	-11.9136
critic	-11.9136
scanrú	-11.9138
díhiodráiti	-11.9138
míneo	-11.9138
bhailiúchá	-11.914
cnap	-11.914
astaío	-11.9141
franc	-11.9141
choimpléasc	-11.9142
múch	-11.9142
féilir	-11.9143
olaiteoir	-11.9143
▁¦97,0	-11.9144
forbrói	-11.9148
exo	-11.9148
rhino	-11.9149
úcrá	-11.915
bpoint	-11.915
baictéarach	-11.915
cúirte	-11.9152
sicín	-11.9153
ers	-11.9155
tuairimí	-11.9155
fostóir	-11.9158
frithghníomh	-11.9158
epi	-11.9159
tochas	-11.9159
brón	-11.916
cruthú	-11.916
gairdín	-11.9161
dhruga	-11.9161
icít	-11.9161
teilifíse	-11.9163
imeallach	-11.9164
scríbhinn	-11.9164
caps	-11.9165
eascair	-11.9168
cruach	-11.9169
drui	-11.9169
uimi	-11.9171
gcúl	-11.9172
chónaithe	-11.9172
tarraingt	-11.9173
gníomhaí	-11.9175
eilg	-11.9181
acmhainneacht	-11.9182
mairf	-11.9184
borr	-11.9186
núicléas	-11.9186
nochtú	-11.9187
choim	-11.9188
gáma	-11.9189
thuiscint	-11.9191
gy	-11.9195
conra	-11.9195
admha	-11.9195
trans	-11.9202
cata	-11.9202
feithi	-11.9206
sheasa	-11.9207
uasdát	-11.9209
buntáist	-11.9216
lbou	-11.9218
sell	-11.9221
nji	-11.9221
aisinéir	-11.9225
iasc	-11.9225
chuimsithe	-11.9226
déantús	-11.9227
shása	-11.9228
rdia	-11.9229
barr	-11.9233
paid	-11.9234
oirte	-11.9234
tómach	-11.9242
▁¦0.3	-11.9244
chli	-11.9246
rdr	-11.9247
catar	-11.9251
▁¦10,000	-11.9255
óip	-11.9259
bpríomh	-11.9265
scríb	-11.9272
úsáidfi	-11.9275
forfheidhmi	-11.9287
taistealaí	-11.9297
iceo	-11.9297
gcóir	-11.9298
haitheanta	-11.93
▁¦4.8	-11.9302
taif	-11.9307
siam	-11.931
oirf	-11.9311
fhéin	-11.9311
rrt	-11.9312
0.1	-11.9313
▁¦2015	-11.9314
mhéadaitheach	-11.9315
feicfi	-11.9318
fhoinsí	-11.932
diúlt	-11.932
bhfoirm	-11.9325
béile	-11.9332
imer	-11.9332
gceadó	-11.9333
huath	-11.9341
204	-11.9342
gníomhair	-11.9344
1,8	-11.935
núicléach	-11.9366
onavir	-11.9374
remi	-11.9395
shraith	-11.9402
ney	-11.9413
seir	-11.9414
eadófa	-11.9426
dearca	-11.943
orb	-11.9431
▁¦201	-11.9437
scrios	-11.9446
lom	-11.9459
raideolaíoch	-11.9465
yw	-11.9483
áirithint	-11.95
nsp	-11.9507
thrá	-11.9525
rcaí	-11.9534
deartha	-11.9546
▁¦2,6	-11.955
form	-11.9602
live	-11.9602
fhreastal	-11.9609
corói	-11.9633
coinneoi	-11.9637
▁¦4,83	-11.9645
ento	-11.9647
fíorú	-11.9648
sanit	-11.9692
seáil	-11.9699
▁¦0.2	-11.97
téachtá	-11.9722
42	-11.9738
úlra	-11.9753
cloch	-11.9761
cac	-11.9777
feasach	-11.98
jin	-11.9812
28	-11.9831
chomhaont	-11.9953
freagracht	-11.9968
aerfo	-12.0004
15	-12.0058
ndála	-12.0108
himpl	-12.0126
▁¦2.2	-12.0161
iarmhar	-12.017
uachtará	-12.0183
rub	-12.0189
roghnach	-12.0192
neodra	-12.0203
cca	-12.0206
▁¦4,71	-12.0206
chaighdeán	-12.0207
pholai	-12.0356
▁¦4,7	-12.0362
cothaithe	-12.0363
phríobháideacha	-12.0376
shain	-12.0427
bheirt	-12.0439
meicn	-12.0447
ainiú	-12.0473
teagmhálach	-12.0537
05	-12.0581
▁¦140	-12.0582
dicl	-12.065
ríomhaire	-12.066
colainn	-12.0783
gorta	-12.0794
spi	-12.0839
ceannachá	-12.0905
ghai	-12.0944
socraío	-12.0959
sce	-12.102
laghdaío	-12.1031
ghartheagmhá	-12.1037
utó	-12.1054
7,6	-12.1073
dúshlá	-12.1099
drom	-12.1106
forá	-12.1107
béa	-12.111
chaighdeá	-12.1129
wel	-12.113
neodr	-12.1133
shíni	-12.1181
ochtain	-12.1197
ick	-12.1253
1,6	-12.1347
méadaío	-12.1391
iomptómach	-12.1487
▁¦4,1	-12.1506
▁¦3,6	-12.1647
téacht	-12.1696
cait	-12.1705
58	-12.1762
nuachtá	-12.1774
▁¦1201	-12.179
3,40	-12.1841
.1.	-12.1849
aistr	-12.1894
▁¦76	-12.1908
4,58	-12.1911
3,8	-12.1925
cheall	-12.1936
thosca	-12.1944
liacht	-12.2039
crit	-12.2121
comhábha	-12.2139
aimsi	-12.2144
▁¦1,7	-12.215
06	-12.2168
bhforb	-12.2186
rianaío	-12.2187
agrach	-12.2224
).	-12.2232
feno	-12.2243
mao	-12.2283
bunscoil	-12.2291
chónaitheo	-12.2314
tóm	-12.2317
cultú	-12.2319
▁¦269,	-12.2356
nova	-12.2379
maoin	-12.2393
ope	-12.2395
215	-12.2412
teilifís	-12.2412
chúig	-12.2418
rithghníomha	-12.2418
siomptó	-12.242
airdín	-12.242
clúidí	-12.2423
thura	-12.2431
séasú	-12.2432
phataigin	-12.2433
mhaoin	-12.2434
ilíneachta	-12.2435
bhfost	-12.2437
suntasa	-12.2438
mmer	-12.2439
tromchúis	-12.2439
fuinneo	-12.2441
ógart	-12.2441
oimpléasc	-12.2441
móilín	-12.2442
comhshao	-12.2442
zónóis	-12.2445
09	-12.2446
criosann	-12.2446
speisial	-12.2447
díhiodr	-12.2447
,72	-12.2451
itíop	-12.2452
cheangla	-12.2452
hiodráiti	-12.2457
othromaíocht	-12.2457
adtéarmach	-12.2458
mhúnla	-12.2459
angio	-12.246
coronav	-12.246
impeach	-12.2461
líomhna	-12.2461
ocyto	-12.2461
associat	-12.2461
colaistéaró	-12.2461
praiticiú	-12.2461
anatamaíocht	-12.2461
athbheochan	-12.2461
capita	-12.2461
cóngarach	-12.2461
genómach	-12.2461
giomnáis	-12.2461
hypox	-12.2461
inflamma	-12.2461
iompraíochta	-12.2461
mhóilíneach	-12.2461
sábhál	-12.2461
▁¦3,7	-12.2461
▁¦6,1	-12.2461
@	-12.2461
athchúrsá	-12.2461
cliceáil	-12.2461
coigeart	-12.2461
círéib	-12.2461
doorknob	-12.2461
dualga	-12.2461
eitibileach	-12.2461
ionsclaíoch	-12.2461
omhthreomha	-12.2461
ortaingéil	-12.2461
péidiatraice	-12.2461
shuaimhnea	-12.2461
thoitín	-12.2461
thréimhs	-12.2461
trioblóid	-12.2461
vaicsaín	-12.2461
α	-12.2461
β	-12.2461
▁¦2,8	-12.2461
▁¦242,	-12.2461
▁¦254,	-12.2461
cileav	-12.2461
infhéitheach	-12.2461
oréigneach	-12.2461
threocht	-12.2461
torthúlacht	-12.2461
mheabhrú	-12.2461
service	-12.2461
▁¦235,	-12.2461
thshlán	-12.2461
aeltacht	-12.2461
ambasáid	-12.2461
broncho	-12.2461
cheimice	-12.2461
ocsaíd	-12.2461
phragh	-12.2461
sreang	-12.2461
▁¦1,4	-12.2461
-7.2	-12.2461
health	-12.2461
cryo	-12.2461
fhigiú	-12.2461
club	-12.2461
inaistrithe	-12.2461
sheich	-12.2461
atlanta	-12.2461
bloc	-12.2461
thaiscuma	-12.2461
▁¦247,	-12.2461
aitsilé	-12.2461
scuain	-12.2461
ionscópacht	-12.2461
▁¦37.6	-12.2461
choigeart	-12.2461
shaoráid	-12.2461
iarsma	-12.2461
ríoga	-12.2461
▁¦251,	-12.2461
naíolann	-12.2461
díréireach	-12.2461
fhíochá	-12.2461
shamhla	-12.2461
fauc	-12.2462
medical	-12.2462
mheácha	-12.2462
pleura	-12.2462
staidiam	-12.2462
daingn	-12.2462
cliniceoir	-12.2462
lóistíocht	-12.2462
▁¦4,78	-12.2462
neamhchinntithe	-12.2462
áipéis	-12.2462
fhadhb	-12.2462
aonchineálach	-12.2462
▁¦6.30	-12.2462
coincheap	-12.2462
foilseachá	-12.2462
oirdheisc	-12.2462
bplá	-12.2463
shíomptó	-12.2463
faeca	-12.2463
2,94	-12.2463
wipe	-12.2463
ribí	-12.2463
fáisc	-12.2463
athmhúnl	-12.2463
alóg	-12.2463
dóchúlacht	-12.2464
caif	-12.2464
shaineola	-12.2464
luaise	-12.2464
ghnách	-12.2464
neamhshlándá	-12.2465
sícea	-12.2465
éiginnteacht	-12.2465
mhicreascóp	-12.2466
mhaíochta	-12.2466
súl	-12.2466
neamhchinnte	-12.2466
mbraithfe	-12.2466
siúcra	-12.2466
hidr	-12.2466
priontá	-12.2467
▁¦1960	-12.2467
ubai	-12.2467
breathnóireacht	-12.2468
ástacht	-12.2468
oibriúchá	-12.2468
▁¦6.0	-12.2468
tithíocht	-12.2468
comórta	-12.2469
▁¦1918	-12.2469
aitíopú	-12.247
thaighde	-12.247
dhiagnóiseach	-12.2471
heiscea	-12.2471
raoin	-12.2471
measúnacht	-12.2472
intín	-12.2472
craice	-12.2473
spot	-12.2473
meall	-12.2473
sólá	-12.2474
chónaidhm	-12.2474
corv	-12.2474
mcen	-12.2476
teirmeach	-12.2476
bréagach	-12.2476
9,8	-12.2477
misinéir	-12.2477
dídean	-12.2478
comhrá	-12.2479
lanc	-12.248
dúlaga	-12.248
víosa	-12.248
bpacáist	-12.248
ambas	-12.2481
sprae	-12.2482
onnmhair	-12.2482
flam	-12.2482
chothaith	-12.2482
heagraíochta	-12.2483
luasghéa	-12.2483
geallta	-12.2485
athlas	-12.2485
chobhsaí	-12.2485
móilíneach	-12.2486
sholáthró	-12.2489
raenach	-12.2489
vel	-12.249
plaisteach	-12.2492
▁¦72	-12.2493
dóchúla	-12.2494
cuimil	-12.2494
bhrost	-12.2494
amnes	-12.2496
thacú	-12.2496
hearnála	-12.2497
coinneálach	-12.2499
fabhrach	-12.25
fhac	-12.25
prop	-12.25
rothaí	-12.2501
ailléirgeach	-12.2501
abb	-12.2502
adóireacht	-12.2503
glio	-12.2504
aiseola	-12.2506
eirfiúr	-12.2507
yes	-12.2508
athoscló	-12.2511
gcait	-12.2513
dtaispeánta	-12.2515
haem	-12.2516
massa	-12.2518
ghlactha	-12.252
▁¦3.0	-12.252
póil	-12.2525
leochail	-12.2525
choga	-12.2529
chluas	-12.2533
▁¦4,31	-12.2533
mosc	-12.2534
péire	-12.2536
child	-12.2537
fhágfa	-12.2538
ultra	-12.2539
9,33	-12.2541
athúsáidte	-12.2544
eatramhach	-12.2554
mbreathn	-12.2555
▁¦2004	-12.2557
comharthaíocht	-12.2561
píosa	-12.2562
blin	-12.2564
mboga	-12.2566
samplála	-12.2569
9,32	-12.257
orróg	-12.2579
aitéis	-12.258
thóir	-12.2581
▁¦99.	-12.2583
phre	-12.2603
theiripeach	-12.2606
cosnaí	-12.2622
1.61	-12.2629
▁¦114	-12.2633
plu	-12.2636
natur	-12.2641
riz	-12.2646
margaíocht	-12.2648
ybe	-12.2669
▁¦10-1	-12.2679
▁¦4,87	-12.2702
doirtea	-12.2719
fontan	-12.2746
fhionn	-12.2758
ócaireacht	-12.2764
chonaic	-12.2777
marthan	-12.2795
▁¦1,38	-12.2862
urra	-12.2874
stua	-12.2935
chuarda	-12.2945
ltaí	-12.3002
mothaí	-12.3005
próiseáil	-12.3016
chop	-12.3037
mórimeacht	-12.3046
mheicn	-12.3048
phróiseáil	-12.306
omhdhúil	-12.3072
paill	-12.3085
comhthéacs	-12.3104
ather	-12.3191
4,65	-12.3219
coireacht	-12.3324
977	-12.3419
ju	-12.3475
3,56	-12.3508
▁¦4,13	-12.3516
laise	-12.3537
ainistíocht	-12.3672
▁¦198	-12.3716
108	-12.3728
▁¦8,0	-12.3737
▁¦520	-12.3801
théacs	-12.3802
6.2	-12.3834
idhmeanna	-12.3958
2,30	-12.3959
fer	-12.396
▁¦195	-12.3962
iticiú	-12.4004
fhillte	-12.4008
teampa	-12.401
pol	-12.4013
ionchód	-12.4016
viv	-12.4092
▁¦5.7	-12.4163
olk	-12.4166
,40	-12.4315
▁¦4,91	-12.4339
athnua	-12.4497
sruth	-12.4652
navir	-12.4879
▁¦238,	-12.4946
▁¦186	-12.5021
hot	-12.5053
páirceá	-12.5128
gortaío	-12.5166
leanúna	-12.5308
eitic	-12.5323
5-1	-12.5591
▁¦320	-12.5594
rathúla	-12.5672
sceit	-12.5834
cumhacht	-12.5915
éadracht	-12.5925
idirghníomh	-12.5941
radagrafaíocht	-12.6004
breac	-12.6019
athchui	-12.6033
íogair	-12.6038
ruitín	-12.6106
hráma	-12.6353
údaraío	-12.6483
5,3	-12.6491
93	-12.6505
léirío	-12.654
2,69	-12.6635
ews	-12.6646
díri	-12.6779
osclaí	-12.6823
,76	-12.6858
earcaí	-12.6862
iarái	-12.6978
arbói	-12.7016
▁¦3,0	-12.7076
肺	-12.7461
|	-12.7461
£	-12.7461
°	-12.7461
ã	-12.7461
ç	-12.7461
γ	-12.7461
—	-12.7461
武	-12.7461
]	-13.7225
'	-13.723
=	-13.7461
_	-13.7461
­	-13.7461
à	-13.7461
å	-13.7461
′	-13.7461
汉	-13.7461
漢	-13.7461
炎	-13.7461
~	-13.9039
‘	-13.904
?	-13.9041
–	-13.9042
”	-13.9043
/	-13.9044
%	-13.9045
:	-13.9046
(	-13.9047
’	-13.9048
