<pad>	0
</s>	0
<unk>	0
▁ᐃ	-0
▁ᑳ	-1
▁ᐅ	-2
▁ᐁ	-3
▁ᐊ	-4
▁ᑭ	-5
ᑕᔥ	-6
▁ᑲ	-7
▁ᒋ	-8
▁ᑮ	-9
▁ᒦ	-10
ᐙᒡ	-11
▁ᑕᔥ	-12
▁ᑲᔦ	-13
ᐃᔑ	-14
▁ᐃᐃ	-15
▁ᑫ	-16
ᐐᓐ	-17
ᓂᒡ	-18
▁ᐋ	-19
ᓐ᙮	-20
▁ᓂ	-21
ᓂᓂ	-22
▁ᐁᑮ	-23
▁ᑳᑮ	-24
▁ᐅᑮ	-25
ᓂᑑ	-26
ᒪᓂᑑ	-27
ᔐᒪᓂᑑ	-28
▁ᑭᔐᒪᓂᑑ	-29
ᐎᓐ	-30
▁ᑳᐐᓐ	-31
ᒋᑫ	-32
ᒃ᙮	-33
ᑎᓯ	-34
ᐅᒋ	-35
ᑯᓯ	-36
▁ᐃᑕᔥ	-37
▁ᒦᑕᔥ	-38
▁ᓴ	-39
ᑭᑐ	-40
▁ᑕ	-41
▁ᐯ	-42
▁ᐱ	-43
▁ᐃᓂ	-44
▁ᒋᓴ	-45
▁ᐋᓃ	-46
▁ᐐ	-47
▁ᐃᐃᒫ	-48
ᐗᒃ	-49
▁ᑳᐃᔑ	-50
ᐎᓂ	-51
ᐎᔭ	-52
ᓇᐙ	-53
▁ᐊᐊ	-54
ᑌᐺ	-55
▁ᐅᐅ	-56
▁ᒥ	-57
▁ᓃ	-58
ᑕᒧ	-59
▁ᐊᐎᔭ	-60
ᐊᔮ	-61
▁ᐃᔑ	-62
▁ᐌ	-63
ᑭᓇ	-64
ᐃᓈ	-65
ᒡ᙮	-66
▁ᑲᑭᓇ	-67
ᒫᑎᓯ	-68
▁ᐊᐲ	-69
ᕽ᙮	-70
▁ᑭᒋ	-71
ᑎᐯ	-72
▁ᒋᓴᔅ	-73
▁ᐁᔑ	-74
ᔦᒃ	-75
ᐌᓂ	-76
ᑕᒪ	-77
▁ᐃᑭ	-78
▁ᒫ	-79
ᐙᐸ	-80
▁ᐐᓐ	-81
ᐃᑭᑐ	-82
ᓇᓐ	-83
▁ᐸ	-84
▁ᒪ	-85
ᓂᒃ	-86
ᑳᑌ	-87
▁ᑫᑰ	-88
ᐙᓐ	-89
ᑕᒫ	-90
ᓇᒥ	-91
ᔥᑭ	-92
ᓂᒥ	-93
▁ᐋᓃᔥ	-94
ᑭᒋ	-95
ᑖᑯᓯ	-96
ᑲᓂ	-97
ᑭᑭ	-98
▁ᐯᔑ	-99
ᑖᐱ	-100
▁ᑯ	-101
ᐗᐞ	-102
ᑭᒫ	-103
ᓂᒡ᙮	-104
ᑯᒡ	-105
ᒥᓐ	-106
ᐗᓐ	-107
ᑭᑫ	-108
▁ᓇ	-109
ᑲᓇ	-110
▁ᐲ	-111
ᓄᐊ	-112
ᐙᒡ᙮	-113
▁ᑭᔐᒪᓂᑑᓐ	-114
▁ᐃᓂᓂ	-115
▁ᐃᓇ	-116
▁ᑭᑲ	-117
ᓂᓂᒃ	-118
ᔥᐱ	-119
ᒋᐃ	-120
ᔮᓐ	-121
ᓬᐊ	-122
▁ᐁᑕ	-123
ᑲᒥ	-124
▁ᐁᐐ	-125
▁ᓂᑮ	-126
ᐞ᙮	-127
▁ᐅᑮᐃᓈ	-128
▁ᐋᓃᓐ	-129
▁ᐊᐌ	-130
▁ᐅᑕ	-131
▁ᑳᑎᐯ	-132
ᔥᑲ	-133
ᐊᓂ	-134
ᐸᓐ	-135
ᑾᓐ	-136
▁ᑫᑰᓐ	-137
ᔥᐱᓐ	-138
▁ᑮᔥᐱᓐ	-139
ᐱᒫᑎᓯ	-140
▁ᐅᑎ	-141
ᓄᑮ	-142
ᒪᑲ	-143
ᓂᒫ	-144
▁ᐃᑯ	-145
▁X	-146
ᑭᑎ	-147
▁ᑎ	-148
ᓇᒥᐁ	-149
ᓈᓐ	-150
ᑕᕽ	-151
▁ᐊᑮ	-152
ᒋᑑ	-153
ᓂᔕ	-154
▁ᒦᔥ	-155
ᔭᓐ	-156
ᑭᓐ	-157
ᓀᓐ	-158
▁ᑮᐃᑭᑐ	-159
ᑯᓂ	-160
ᐎᓂᓂ	-161
▁ᐅᑲ	-162
▁ᑳᑮᐃᔑ	-163
▁ᑌᐺ	-164
ᔥᑳ	-165
▁ᒣ	-166
ᐎᓂᕽ	-167
ᐗᒡ	-168
▁ᑳᐃ	-169
ᔥᑰ	-170
ᑕᒨ	-171
▁ᑳᐅ	-172
▁ᒎ	-173
ᑭᑭᓄᐊ	-174
▁ᑖᐱ	-175
▁ᑭᑎ	-176
▁ᑖᐱᔥᑰ	-177
▁ᑮᓇᐙ	-178
▁ᓅ	-179
▁ᐅᒋ	-180
ᑲᓐ	-181
▁ᐗ	-182
▁ᓃᓐ	-183
▁ᐃᓀ	-184
ᐎᓐ᙮	-185
ᒪᐙ	-186
ᓯᐌ	-187
▁ᑳᐐ	-188
ᑯᕽ	-189
ᑾᔭ	-190
ᑮᔑ	-191
▁ᐋᔕ	-192
▁ᐊᔮ	-193
▁ᐄ	-194
ᓂᔑ	-195
ᓂᓯ	-196
▁ᓵ	-197
▁ᐯᔑᒃ	-198
▁ᑭᑮ	-199
▁ᒋᓴᓲ	-200
ᑕᔑ	-201
▁ᑳᑎᐯᒋᑫ	-202
▁ᔑ	-203
▁ᒦᓇᐙ	-204
ᓈᒡ	-205
▁ᐌᑎ	-206
ᓴᓐ	-207
▁ᐙ	-208
ᐃᑰ	-209
ᓈᑾ	-210
▁ᑭᑭ	-211
▁ᐃᐌ	-212
ᑭᓯ	-213
▁ᐊᑮᕽ	-214
ᑕᐙ	-215
▁ᐹ	-216
ᐆᑌ	-217
ᒣᒃ	-218
ᓇᒥᐁᐎ	-219
ᑕᒥ	-220
ᓈᐙ	-221
ᕒᐊ	-222
ᐎᓯ	-223
ᑕᒧᐙᒡ	-224
▁ᐋᐱ	-225
ᒋᑳᑌ	-226
▁ᑳᐅᒋ	-227
ᐐᒌ	-228
ᓇᑰ	-229
▁ᐆᑌ	-230
▁ᐯᒫᑎᓯ	-231
ᑕᒻ	-232
▁ᑳᔑ	-233
ᑲᓅ	-234
▁ᐃᒫ	-235
ᐱᒫ	-236
ᔥᒀ	-237
▁ᒨ	-238
ᑎᓱ	-239
ᑖᑾ	-240
▁ᐃᐃᐌ	-241
ᑕᐌ	-242
▁ᑫᑯ	-243
ᒥᓄ	-244
▁ᓈ	-245
ᑲᑴ	-246
ᐃᔑᒋᑫ	-247
ᐗᒃ᙮	-248
▁ᐅᔕ	-249
▁ᐁᑳ	-250
ᑭᐃ	-251
ᑯᒻ	-252
ᓇᔓ	-253
ᓂᑯ	-254
ᑕᐎ	-255
ᒋᒧ	-256
ᓈᕽ	-257
ᑐᒃ	-258
ᐲᐃ	-259
ᑕᒃ	-260
ᑳᓱ	-261
ᔦᒃ᙮	-262
ᓈᑯᓯ	-263
ᐎᓇᓐ	-264
▁ᑳᐊᔮ	-265
ᒋᐊ	-266
▁ᓅᑯᒻ	-267
▁ᓂᑲ	-268
ᔕᒃ	-269
▁ᐯᔑᑾᓐ	-270
ᓇᔓᐌ	-271
▁ᐄᑐᒃ	-272
▁ᐅᑯᓯ	-273
ᓰᓐ	-274
ᓀᒃ	-275
▁ᒋᓴᓲᓐ	-276
ᒥᓐᒡ	-277
▁ᐃᑴ	-278
▁ᑮᓐ	-279
▁ᑯᑕᒃ	-280
ᑌᑌ	-281
ᕒᐃ	-282
ᑌᐺᑕᒨ	-283
▁ᑮᐃᔑ	-284
ᒫᑫ	-285
▁ᔑᑾ	-286
ᑎᑫ	-287
▁ᐋᐱᒋ	-288
ᔑᑲ	-289
▁ᑌ	-290
ᒫᒡ	-291
ᓇᐃ	-292
ᑯᔑ	-293
ᑯᐙ	-294
ᑕᒪᐎ	-295
ᒪᐙᑲᓇ	-296
▁ᐅᑭᑭᓄᐊ	-297
ᔥᑫ	-298
ᑕᒣᒃ	-299
ᓂᑰ	-300
ᓯᒃ	-301
ᕒᐆ	-302
ᑲᔥᑭ	-303
ᑭᐸᓐ	-304
ᔮᕽ	-305
ᓇᑰᒃ	-306
▁ᑭᒋᐊ	-307
ᐅᔑ	-308
ᐃᔖ	-309
ᓇᕽ	-310
ᓐᒡ	-311
ᐎᓂᐙ	-312
▁ᑾᔭ	-313
ᓈᓂ	-314
▁ᐅᐌ	-315
▁ᐁᐃᔑ	-316
ᓇᐌ	-317
ᐃᓀ	-318
▁ᐅᐅᒫ	-319
▁ᔔ	-320
▁ᑳᐊ	-321
▁᙮	-322
ᔥᑲᐎ	-323
ᐱᓯ	-324
ᔭᕽ	-325
ᑕᒪᐙ	-326
ᓇᒥᐋ	-327
ᒪᐎ	-328
ᐃᓈᒡ	-329
▁ᐃᑭᑐ	-330
ᒥᑰ	-331
ᑳᓐ	-332
ᓂᑖ	-333
▁ᑫᑮ	-334
ᒥᕽ	-335
ᐗᕽ	-336
ᑖᓐ	-337
ᐎᓐᑦ	-338
▁ᐱᑯ	-339
▁ᑲᑴ	-340
▁ᑳᑎᐯᒋᑫᒡ	-341
▁ᐐᑳ	-342
▁ᐐᑫ	-343
▁ᒥᓯᐌ	-344
ᐅᑭᒫ	-345
▁ᐅᑮᐃᑰ	-346
ᓇᐎᓐᑦ	-347
▁ᐅᑕᒑ	-348
ᐐᒋ	-349
ᒪᓐ	-350
▁ᒋᐅᒋ	-351
ᐱᒥ	-352
ᑎᓰ	-353
▁ᐁᑮᐃᔑ	-354
▁ᐁᐊ	-355
ᓃᑳ	-356
▁ᐋᓂ	-357
▁ᐌᑯ	-358
▁ᒫᐗᒡ	-359
ᒀᑕ	-360
▁ᒋᐃᔑ	-361
ᒻ᙮	-362
ᓈᑯ	-363
ᑭᑑ	-364
▁ᐊᐊᐌ	-365
ᔮᐱ	-366
▁ᐅᑖ	-367
▁ᐱᒫᑎᓯ	-368
ᓂᐳ	-369
▁ᐅᓄ	-370
▁ᑭᑫ	-371
▁ᑳᑮᐅᒋ	-372
ᑲᓂᐎ	-373
ᑕᒥᓂᒡ	-374
ᓅᓐ	-375
▁ᐃᔑᒋᑫ	-376
ᑮᐌ	-377
ᐸᑭᑎ	-378
ᑯᓂᑫ	-379
▁ᑫᐅᒋ	-380
▁ᑕᑲ	-381
▁ᐅᑑ	-382
▁ᐅᐅᐌ	-383
ᓃᕽ	-384
ᑕᒫᑫ	-385
▁ᓂᑎ	-386
▁ᐅᓇᔓᐌ	-387
▁ᑭᒋᐊᓇᒥᐁᐎ	-388
ᑕᓐ	-389
ᔭᐄ	-390
▁ᐋᓇ	-391
▁ᐙᐸ	-392
▁ᐊᐌᓀᓐ	-393
▁ᒋᐊ	-394
ᒋᒥ	-395
▁ᐃᓈ	-396
▁ᑲᔦ᙮	-397
▁ᒉ	-398
▁ᑾᔭᒃ	-399
▁ᓇᐗᒡ	-400
ᑕᓰ	-401
ᑭᐌ	-402
ᓬᐃ	-403
▁ᐸᑭᑎ	-404
▁ᑫᔮᐱ	-405
ᑭᑌ	-406
ᒫᓐ	-407
▁ᒣᒀ	-408
ᓯᒀ	-409
▁ᑆ	-410
ᔮᓐ᙮	-411
▁ᐌᒋ	-412
▁ᑭᔐᒪᓂᑑᓐ᙮	-413
▁ᑮᐃᑭᑐ᙮	-414
ᐋᐸ	-415
ᐱᐗᐞ	-416
▁ᑖ	-417
▁ᐅᑌᐺᑕᒨ	-418
ᔭᐋ	-419
▁ᒞ	-420
ᐸᐎ	-421
ᐗᔑ	-422
ᓂᒃ᙮	-423
▁ᐅᑮᐃᓈᐞ᙮	-424
ᐋᒡ	-425
▁ᐁᐅ	-426
▁ᐗᐊ	-427
▁ᑲᓅ	-428
▁ᒨᔕᒃ	-429
▁ᑭᑭᓄᐊ	-430
▁ᑫᔑ	-431
ᐲᒋ	-432
ᒥᑯ	-433
ᓄᐎ	-434
ᐗᓈ	-435
ᐸᐃ	-436
ᐲᐃᑳᑌ	-437
▁ᐅᑭᑭᓄᐊᒪᐙᑲᓇ	-438
ᔑᓐ	-439
ᑕᒧᐎᓐ	-440
▁ᐁᑮᐊ	-441
▁ᑮᐊᓂ	-442
▁ᐃᓇᔥᑫ	-443
ᐃᓇ	-444
ᒫᒌ	-445
▁ᒪᒋᐊ	-446
▁ᓃᐱᐗᐞ	-447
▁ᑭᒋᑮᔑ	-448
ᑲᐊ	-449
▁ᐌᑯᓀᓐ	-450
▁ᒌ	-451
ᐗᔑᒣ	-452
▁ᑭᐐ	-453
▁ᔖ	-454
ᑕᒫᓐ	-455
ᑎᐹ	-456
ᓈᓯ	-457
ᓭᒃ	-458
ᒪᒋᑑ	-459
▁ᒦᐃ	-460
ᐙᐱ	-461
ᑳᐃ	-462
▁ᐆᑌᓈᕽ	-463
▁ᐊᐗᔑᒣ	-464
ᐯᔑ	-465
▁ᐅᐐ	-466
▁ᐅᑯ	-467
ᒥᓂ	-468
ᑌᐺᔦ	-469
ᓂᑎᓱ	-470
ᓂᔕᐙ	-471
▁ᐁᐸ	-472
▁ᐊᐎᔭᒃ	-473
▁ᒋᐅ	-474
ᓂᑳᓱ	-475
▁ᐲᑕ	-476
ᐐᒌᐎ	-477
ᓂᔕᐅ	-478
▁ᐃᓀᑖᑯᓯ	-479
▁ᐅᑮᐃᓈᓐ᙮	-480
▁ᑳᑮᐅ	-481
ᒫᑲᓂ	-482
▁ᐁᒐ	-483
▁ᔔᓂ	-484
▁ᐋᓂᑕ	-485
ᑲᓇᓐ	-486
▁ᓂᑖ	-487
ᒫᒃ	-488
▁ᒋᐐ	-489
▁ᑳᑕᔑ	-490
ᑎᕽ	-491
ᑏᓄ	-492
ᓄᑮᐋ	-493
ᓂᓂᒃ᙮	-494
ᐃᑯ	-495
ᑰᓐ	-496
ᑑᒡ	-497
ᓂᑳᑌ	-498
▁ᐱᓵ	-499
▁ᑮᐅ	-500
▁ᒪᔮ	-501
ᒥᑲ	-502
▁ᓭ	-503
ᑎᐱ	-504
ᐙᐞ	-505
▁ᑭᑭᑫ	-506
ᐃᑭᑐᒡ	-507
ᑳᓀ	-508
ᓂᔥ	-509
ᐌᓂᐗᒃ	-510
▁ᐅᑭᑭᓄᐊᒪᐙᑲᓇᐞ	-511
ᒪᒋ	-512
ᓴᓬᐊ	-513
▁ᑮᐅᒋ	-514
▁ᑭᑖ	-515
ᑲᒥᑯᕽ	-516
▁ᐅᑮᐃᔑ	-517
▁ᐁᐱ	-518
▁ᑭᑑ	-519
▁ᐊᐎᔭᓐ	-520
ᓯᓄ	-521
ᓇᓐ᙮	-522
ᓯᓇᐃ	-523
ᑫᒃ	-524
ᓵᑭᐃ	-525
ᐗᓐ᙮	-526
ᓂᑫ	-527
▁ᑫᐃᔑ	-528
ᒥᓍ	-529
▁ᐅᒫ	-530
▁ᑳᐱ	-531
ᐌᒃ	-532
ᓯᓂ	-533
▁ᐁᐊᓂ	-534
ᓈᐸ	-535
▁ᐊᐎᔭᐞ	-536
▁ᐅᑯᓯᓴᓐ	-537
▁ᐯᒫᑎᓯᐙᒡ	-538
ᓂᒧ	-539
ᐱᒫᒋᐃ	-540
ᑭᓐ᙮	-541
▁ᐅᑎᔑ	-542
▁ᑭᒋᐅᑭᒫ	-543
ᑖᑯ	-544
ᒋᑯ	-545
ᓯᐌᒃ	-546
▁ᑮᐊᔮ	-547
▁ᑲᔥᑭ	-548
▁ᒉᕒᐆ	-549
▁ᒉᕒᐆᓴᓬᐊ	-550
ᒦᓂ	-551
ᓯᐙ	-552
ᔑᒃ	-553
▁ᒫᒑ	-554
ᔥᑲᐎᓰ	-555
ᓇᑲ	-556
ᑲᓂᕽ	-557
▁ᑆᓬ	-558
▁ᒋᑮ	-559
▁ᐅᑭᒋ	-560
▁ᑳᑮᐊ	-561
▁ᐯᒫᑎᓯᓂᒡ	-562
ᓈᑲ	-563
ᔥᑯ	-564
▁ᐊᒦ	-565
ᕒᐃᔭ	-566
▁ᑮᐊ	-567
ᐹᒋᒧ	-568
▁ᑳᐃᓈᒡ	-569
▁ᐊᐱ	-570
▁ᑭᒋᑮᔑᑯᕽ	-571
ᓭᓂᒃ	-572
▁ᓂᓯ	-573
▁ᐲᓂᔥ	-574
▁ᑫᑰᓂᓂ	-575
▁ᒥᑖ	-576
ᐸᐊ	-577
▁ᒥᓍ	-578
ᐌᑖᑯᓯ	-579
ᑎᐯᒋᑫ	-580
ᒪᑲᒃ	-581
▁ᐃᓴ	-582
▁ᐃᔖ	-583
▁ᒋᓴᓲᓐ᙮	-584
ᓯᔅ	-585
ᓈᑾᒃ	-586
▁ᐃᓇᑫ	-587
ᒫᐗ	-588
ᓵᑭ	-589
▁ᐃᔥᒀ	-590
▁ᐸᑳᓐ	-591
▁ᒎᐗᒃ	-592
▁ᒥᓂᒃ	-593
ᑯᕽ᙮	-594
▁ᑎᓄ	-595
ᑎᐯᓂᒥ	-596
ᒋᐋ	-597
ᐌᓂᒥ	-598
ᑯᐙᒡ	-599
▁ᐸᑴ	-600
ᑕᒪᐙᒡ	-601
▁ᐃᓂᐌᓂ	-602
▁ᑫᑰᓇᓐ	-603
ᔭᐎ	-604
▁ᓰ	-605
ᐸᓐ᙮	-606
ᑕᑯᔑ	-607
▁ᐋᑎ	-608
▁ᑭᑕ	-609
▁ᑮᐌ	-610
ᐌᐱ	-611
ᐲᐊ	-612
ᓂᔑᔑ	-613
▁ᐲᑕᕒ	-614
▁ᓂᑕᒻ	-615
▁ᐃᐃᐌᓂ	-616
ᑎᓄᐎ	-617
ᑲᒥᒃ	-618
▁ᔑᒫᑲᓂ	-619
ᓀᒀ	-620
ᐙᐸᒫ	-621
▁ᐊᐲᒡ	-622
▁ᐃᑭᐌᓂᐗᒃ	-623
▁ᐁᓈ	-624
ᒎᐎ	-625
ᐅᑖᐱ	-626
ᓯᓅᓐ	-627
▁ᐃᔅ	-628
▁ᑕᔑ	-629
▁ᑮᐱ	-630
ᑲᔥᑭᑑ	-631
ᑭᑭᓄᐊᒫᑫ	-632
▁ᔐ	-633
ᓈᐙᓐ	-634
▁ᒪᒋᐊᒑ	-635
ᔫᓯ	-636
▁ᐊᓂ	-637
ᓂᔑᐗᓈ	-638
ᑳᓂ	-639
▁ᐁᔮ	-640
ᑾᒃ	-641
▁ᐴ	-642
▁ᑳᑮᐱ	-643
ᐙᑎᓯ	-644
▁ᐐᒌ	-645
▁ᓵᐃ	-646
ᓂᓂᑭᓐ	-647
ᓰ᙮	-648
ᑲᒀᑕ	-649
ᒋᐃᑎ	-650
▁ᐱᒫ	-651
ᓇᒧ	-652
ᐃᔥᒀ	-653
▁ᓂᐳ	-654
ᐎᓂᕽ᙮	-655
ᒥᒋ	-656
ᒀᑎᓯ	-657
▁ᑯᒫ	-658
▁ᒥᓄ	-659
▁ᐌᐌᓂ	-660
▁ᔐᒫᒃ	-661
▁ᒥᓍᒋᒧ	-662
ᐱᒫᑎᓰ	-663
▁ᐁᐊᔮ	-664
▁ᑳᒎᐎ	-665
ᑲᑮ	-666
ᐹᑏᓄ	-667
ᑖᓈᐙ	-668
▁ᒎᐗᐞ	-669
▁ᐅᑕᒑᑾᓐ	-670
ᒥᓈ	-671
ᓅᒌ	-672
▁ᐹᓂᒫ	-673
ᑯᐸ	-674
ᑴᓐ	-675
ᒥᓉ	-676
ᓇᒪ	-677
▁ᑑ	-678
ᒥᑯᒡ	-679
▁ᑭᑎᔑ	-680
ᐎᑭ	-681
ᓃᓐ	-682
ᒦᓂᑰ	-683
▁ᒞᓐ	-684
ᓇᑭ	-685
ᓬᐄ	-686
ᑖᑾᒃ	-687
▁ᐅᔑ	-688
▁ᒦᓴ	-689
ᑕᑯ	-690
▁ᐱᑾ	-691
▁ᑮᔑᑲ	-692
▁ᒪᒋᑑ	-693
▁ᐃᓂᓂᐗᓐ	-694
▁ᒉᕒᐆᓴᓬᐊᒥᕽ	-695
▁ᑭᒋᐊᓇᒥᐁᐎᑭᒫ	-696
ᐃᓂ	-697
ᒪᒃ	-698
ᑲᓇᐞ	-699
▁ᑳᑎᐯᒋᑫᓂᒡ	-700
ᑖᐌ	-701
ᓇᒃ	-702
ᓇᒑ	-703
▁ᑫᐐᓐ	-704
ᓈᐞ	-705
ᔭᓐ᙮	-706
▁ᐐᓇᐙ	-707
ᑎᐯᑖᑯᓯ	-708
ᐸᐹ	-709
ᑑᓐ	-710
ᓰᒻ	-711
ᓈᐙᒡ	-712
▁ᐁᓀ	-713
ᐎᓂᐙᓐ	-714
ᒋᑲᓂᐎ	-715
ᒋᒋᑫ	-716
▁ᑳᐃᔑᒋᑫ	-717
ᑎᒃ	-718
▁ᐊᓯ	-719
ᐙᑳᐃ	-720
▁ᐅᓵ	-721
▁ᐯᐸ	-722
▁ᑫᒋ	-723
ᐎᓂᓂᒻ	-724
ᒫᒪ	-725
ᓴᐌ	-726
ᑕᐙᒡ	-727
ᔥᑳᑯ	-728
▁ᐱᔑ	-729
▁ᓂᑑ	-730
▁ᑕᑯᔑ	-731
▁ᐁᑮᐅᒋ	-732
▁ᑫᑮᓇᐙ	-733
▁ᐅᓇᔓᐌᐎᓐ	-734
ᑌᐱ	-735
ᔕᔒ	-736
ᑕᒧᒃ	-737
▁ᑌᐯ	-738
▁ᑎᐱ	-739
▁ᐯᕒᐊ	-740
▁ᔔᓂᔮ	-741
▁ᐅᑌᐺᑕᒨᒃ	-742
ᐲᑎᑫ	-743
▁ᐊᑭ	-744
▁ᐱᓯ	-745
▁ᒋᐱ	-746
▁ᔖᑰ	-747
ᒪᓯᓇᐃ	-748
▁ᐁᐅᒋ	-749
▁ᐃᓈᑯᓂᑫ	-750
ᑖᑫ	-751
ᓇᐎ	-752
ᑰᔦᒃ	-753
ᓂᓂᒻ	-754
ᓇᐙᐸ	-755
▁ᐅᔥᑭ	-756
▁ᑳᑎᐯᓂᒥ	-757
▁ᐅᑮᐃᑰᓐ᙮	-758
ᓰᒃ	-759
▁ᑳᑕ	-760
▁ᐁᒐᓬᐊ	-761
ᐙᒃ	-762
ᑖᒻ	-763
ᓇᒫ	-764
ᔥᑮ	-765
ᕒᐊᐋ	-766
▁ᐅᑌ	-767
▁ᐱᒥ	-768
ᒋᑳᑌᒃ	-769
▁ᐁᐸᕒᐊᐋ	-770
▁ᐅᑮᐃᓈᐞ	-771
▁ᐅᑮᐃᓈᓐ	-772
▁ᑭᔐᒪᓂᑑ᙮	-773
ᑮᔗ	-774
▁ᓂᐐ	-775
▁ᓇᑴ	-776
▁ᐅᑮᐊ	-777
ᓯᕽ	-778
▁ᒫᒪ	-779
▁ᓂᑕ	-780
▁ᑳᑭᒋ	-781
ᒪᔥᑲᐎᓰ	-782
▁ᓃᓇᐎᓐᑦ	-783
ᑕᒪᓐ	-784
ᑲᓇᐌ	-785
ᐌᒡ	-786
ᐸᑭ	-787
ᓀᐱ	-788
ᓈᓯᑲ	-789
▁ᐐᒋ	-790
▁ᑌᐱ	-791
▁ᓃᔑᓐ	-792
▁ᐁᑮᐊᓂ	-793
ᒥᑕ	-794
ᒥᔅ	-795
▁ᑫᐐ	-796
▁ᓂᑯ	-797
ᐎᓂᓂ᙮	-798
▁ᐊᐱᓅᒌ	-799
ᒫᐙᒡ	-800
ᔥᑭᓀ	-801
▁ᐁᑕᓱ	-802
▁ᐃᔅᕒᐃᔭ	-803
ᐎᒡ	-804
ᑯᓭ	-805
ᒀᒥ	-806
ᑕᒨᒃ	-807
ᑳᐸᐎ	-808
ᓰᐗᒃ	-809
▁ᒋᑑ	-810
▁ᒪᒋ	-811
ᑌᐺᑕᒧ	-812
ᑭᑫᓂᒫ	-813
ᑲᓂᓂᒃ	-814
▁ᑮᑭᒋ	-815
▁ᑳᓃᑳ	-816
▁ᓂᑌᑌ	-817
▁ᐅᑎᑭᑐ	-818
▁ᑮᓇᐎᓐᑦ	-819
ᒫᐞ	-820
ᕒᐄ	-821
ᑯᒡ᙮	-822
▁ᓃᒋ	-823
▁ᓃᔣ	-824
ᓈᑾᓂᓂᒃ	-825
ᑰᐞ	-826
ᓂᕽ	-827
ᐎᓐᒡ	-828
▁ᒋᒥᓄ	-829
▁ᐋᓇᐐᓐ	-830
▁ᐃᓂᓂᐗᒃ	-831
ᓃᒑ	-832
▁ᐅᑭ	-833
▁ᑌᐯᒋᑫ	-834
▁ᐊᓇᒥᐁᐎ	-835
▁ᑳᒎᐎᐎᓯ	-836
ᑳᕽ	-837
ᐃᑯᒡ	-838
ᑖᒥᓐ	-839
▁ᒋᑆ	-840
▁ᑲᒀᑕ	-841
▁ᑳᐅᒌ	-842
ᑫᓐ	-843
ᓇᑴ	-844
ᓈᐱ	-845
ᐙᐸᒥ	-846
ᓈᓐ᙮	-847
▁ᐁᓂ	-848
▁ᐅᒌ	-849
▁ᑳᑑ	-850
▁ᐁᑮᐱ	-851
▁ᐊᑮᕽ᙮	-852
▁ᑳᐃᑭᑐ	-853
▁ᐁᑮᐃᓈᒡ	-854
ᐎᔕ	-855
ᒫᒑ	-856
ᐙᓐ᙮	-857
ᓂᒫᒡ	-858
▁ᐁᑕᔑ	-859
ᐅᒌ	-860
ᒪᐞ	-861
ᐎᑭᒫ	-862
ᑌᓂᒃ	-863
ᓈᓂᒃ	-864
ᓯᓂᒃ	-865
ᐌᐱᓯ	-866
▁ᒪᔑ	-867
ᐋᐸᒋᑑ	-868
ᑯᐸᓀᓐ	-869
▁ᐸᑴᔑ	-870
▁ᐅᑎᐯᒋᑫ	-871
▁ᐅᑕᒑᑯᓂ	-872
ᐙᐸᑕ	-873
▁ᑮᔑ	-874
▁ᑳᓂᑖ	-875
▁ᐯᐸᑳᓐ	-876
ᒧᓭ	-877
ᐊᔮᒡ	-878
▁ᒨᓯᔅ	-879
ᐌᐸ	-880
ᐗᐞ᙮	-881
ᐗᓂᓂᒃ	-882
▁ᐊᐌᓀ	-883
ᐌᓅ	-884
ᒦᒋ	-885
ᒥᓍᐸ	-886
ᒥᓐ᙮	-887
▁ᐅᓈ	-888
▁ᑎᐹ	-889
▁ᑳᒪ	-890
▁ᐁᐐᒌ	-891
▁ᐁᑭᒋ	-892
▁ᐆᑌᓇ	-893
ᓅᑌ	-894
▁ᑰ	-895
ᑕᕽ᙮	-896
ᓴᓐ᙮	-897
▁ᑭᑌ	-898
▁ᒦᐗ	-899
▁ᒫᒌ	-900
▁ᒋᑭᑫ	-901
▁ᐅᑯᓯᓯ	-902
ᑮᐌᐱᒫᑎᓯ	-903
▁ᑳᐊᔮᐙᒡ	-904
ᒦᓈ	-905
▁ᐊᒑ	-906
▁ᐯᔓ	-907
ᐎᓂᐙᕽ	-908
▁ᐅᑎᐹᒋᒧ	-909
▁ᐱᒫᑎᓯᐎᓐ	-910
▁ᑌᐯᒋᑫᔭᓐ	-911
ᐲᐎ	-912
ᑕᒣ	-913
ᑕᔅ	-914
ᑖᓱ	-915
ᓈᒻ	-916
ᔑᓃ	-917
ᔒᑫ	-918
ᐙᐙᒡ	-919
ᑕᐌᓂ	-920
ᒋᐃᑰ	-921
ᒪᑲᓐ	-922
ᓂᑭᓐ	-923
ᓇᑰᒃ᙮	-924
▁ᑲᑴᒋ	-925
ᐅᑌᐺᑕᒨ	-926
ᒫᐗᒋᐃᑎ	-927
▁ᒥᓍᒋᒧᐎᓐ	-928
ᐃᑫ	-929
ᑌᒃ	-930
ᑕᐱ	-931
ᑾᑎ	-932
ᑕᐙᐙᒡ	-933
ᒥᓐᒡ᙮	-934
ᔓᑕᒫᑫ	-935
▁ᑕᐃᔑ	-936
▁ᒫᓇᒑ	-937
▁ᔖᑰᒡ	-938
▁ᑳᐃᔥᒀ	-939
▁ᑭᒋᒪᓯᓇᐃ	-940
ᓬᐋ	-941
ᓂᔥᑳ	-942
▁ᐃᔑᓂᔕᐙ	-943
▁ᐃᓂᐌᓂᐗᐞ	-944
ᐴᓂ	-945
ᑭᒡ	-946
ᑕᒫᓱ	-947
ᓂᓯᑐ	-948
▁ᑲᓇ	-949
▁ᒦᒋ	-950
ᓬᐊᓬᐄ	-951
▁ᐁᐙᐸ	-952
▁ᐲᑎᑫ	-953
ᒪᐙᑲᓇᒃ	-954
ᓂᑭ	-955
ᓯᓅ	-956
ᐎᓂᓃ	-957
ᑕᒪᕽ	-958
ᑖᑯᓯᒡ	-959
ᑭᑭᓇᐙ	-960
ᔐᐙᑎᓯ	-961
▁ᑌᐺᔦ	-962
▁ᑮᐃᔖ	-963
ᒪᒋᑑᑕᒧ	-964
▁ᑫᐐᓇᐙ	-965
ᐴᔔ	-966
ᑖᑯᒡ	-967
ᑭᒫᐎ	-968
ᒥᑲᐎ	-969
▁ᓵᑭᐃ	-970
▁ᐅᐙᑳᐃ	-971
▁ᐅᑮᐅᒋ	-972
▁ᑳᓬᐊᓬᐄ	-973
▁ᒋᐃᔑᒋᑫ	-974
ᐹᐱ	-975
ᓯᓄᒃ	-976
ᔥᑯᑌ	-977
▁ᐙᓴ	-978
▁ᐁᓈᓴ	-979
▁ᐊᓄᑮᐋ	-980
▁ᑮᐅᑌᑌ	-981
ᐅᑎ	-982
ᑲᒃ	-983
ᒫᒋ	-984
ᐃᑎᓱ	-985
ᐊᓄᑮ	-986
ᑯᓯᓯ	-987
ᑲᑴᒋ	-988
ᑲᓂᓂ	-989
ᓃᑳᓂ	-990
ᔮᕽ᙮	-991
▁ᐙᑳᐃ	-992
ᐸᐅ	-993
ᑌᔮ	-994
ᑣ᙮	-995
ᑴᒋ	-996
▁ᐸᑮ	-997
▁ᐹᐃ	-998
▁ᒋᒪ	-999
▁ᒥᓂ	-1000
▁ᑭᑎᑫ	-1001
▁ᐅᑮᐃᑰᐞ᙮	-1002
ᑯᓰ	-1003
ᑲᐃ	-1004
ᐙᐸᓐ	-1005
ᓐᒡ᙮	-1006
ᓯᓂᓂ	-1007
ᐎᓂᓃᕽ	-1008
▁ᐁᒐᓬ	-1009
▁ᐄᓴᓐ	-1010
▁ᐅᑖᐱ	-1011
▁ᐱᓵᓐ	-1012
▁ᑫᓃᓐ	-1013
▁ᑳᐃᓇ	-1014
ᑕᒪᐎᓂᓂᒻ	-1015
▁ᐁᑮᐃᑭᑐ	-1016
ᓈᓱ	-1017
▁3	-1018
ᓇᕽ᙮	-1019
▁ᒋᓂ	-1020
ᒨᔥᑭᓀ	-1021
▁ᐊᓇᒥᐋ	-1022
▁ᐊᔮᓂᒡ	-1023
ᐙᕽ	-1024
▁2	-1025
ᐐᒋᐃ	-1026
ᐯᔑᑯ	-1027
ᒦᑭᐌ	-1028
ᓀᑕᒧ	-1029
▁ᐁᓅ	-1030
ᐎᓇᓐ᙮	-1031
▁ᐹᐃᓬᐊ	-1032
ᑯᐌ	-1033
ᔖᑰ	-1034
ᐃᑯᐙ	-1035
ᐲᐃᑫ	-1036
ᑎᐸᐊ	-1037
▁ᑲᑮ	-1038
ᐊᔮᓂᒡ	-1039
▁ᑳᐱᒫᑎᓯ	-1040
ᐲᔖ	-1041
ᓃᑭ	-1042
ᓈᑫ	-1043
ᑮᔑᒃ	-1044
ᒫᒪᐎ	-1045
ᓃᐸᐎ	-1046
ᓈᕽ᙮	-1047
▁ᑫᑳ	-1048
▁ᒥᒋ	-1049
▁ᓂᔑ	-1050
▁ᓇᑫ	-1051
▁ᐁᑌᐺ	-1052
▁ᐅᑌᑌ	-1053
▁ᒦᐗᓐ	-1054
ᑲᒥᑯᕽ᙮	-1055
▁ᐅᐱᒫᑎᓯ	-1056
▁ᐅᑭᑭᓄᐊᒫᑫ	-1057
ᐴᓀ	-1058
ᐴᓐ	-1059
ᑰᒃ	-1060
ᓂᑎ	-1061
ᓴᐞ	-1062
ᐯᓂᒧ	-1063
ᑖᑾᓐ	-1064
▁ᑕᓱ	-1065
▁ᒫᓄ	-1066
ᓈᑲᑕᐌ	-1067
▁ᐃᔥᐱ	-1068
▁ᓰᑲᐊ	-1069
ᑖᑾᓂᓂᒃ	-1070
ᑮᕽ	-1071
ᓐᑦ	-1072
ᔂᒃ	-1073
▁ᔕ	-1074
ᒧᐙᒡ	-1075
ᑳᒋᒋᑫ	-1076
▁ᐁᕒᐊ	-1077
▁ᐌᔫᓯ	-1078
ᒪᑲᓂᓂᒃ	-1079
▁ᐃᔥᑯᑌ	-1080
▁ᐅᑖᓈᕽ	-1081
▁ᒋᓴᔅ᙮	-1082
▁ᐃᔑᐲᐃᑳᑌ	-1083
▁ᐃᓈᑯᓂᑫᐎᓐ	-1084
▁ᑮᐃᑭᑐᐗᒃ᙮	-1085
▁ᑭᒋᒪᓯᓇᐃᑲᓐ	-1086
▁ᑭᒋᐊᓇᒥᐁᐎᑲᒥᑯᕽ	-1087
ᐊᑕ	-1088
ᐙᓭ	-1089
ᒋᓭ	-1090
ᓂᒻ	-1091
ᔭᔮ	-1092
ᐎᓂᒡ	-1093
ᑕᑳᓀ	-1094
ᑯᓈᓐ	-1095
ᑲᓇᒃ	-1096
ᓇᓈᑯ	-1097
ᓬᐊᓐ	-1098
▁ᐌᒌ	-1099
▁ᒋᐸ	-1100
▁ᒥᓴ	-1101
ᓂᑖᐎᑭ	-1102
▁ᐁᑭᑐ	-1103
▁ᐊᓄᑮ	-1104
▁ᑳᐃᓀ	-1105
▁ᒋᐱᒫᒋᐃ	-1106
ᐙᓇ	-1107
ᒀ᙮	-1108
ᓯᑸ	-1109
ᔮᐹ	-1110
ᐸᒋᑑ	-1111
ᓉᐲᐎ	-1112
ᓰᒥᓐ	-1113
ᔭᕽ᙮	-1114
▁ᑭᐱ	-1115
ᑭᓯᐙᒡ	-1116
▁ᐅᐐᓱ	-1117
▁ᑮᐃᓀ	-1118
▁ᐁᔑᒋᑫ	-1119
▁ᐅᑕᓄᑮᐋ	-1120
▁ᑫᐃᔑᒋᑫ	-1121
ᓂ᙮	-1122
ᔑᒡ	-1123
ᑑᐙᒡ	-1124
ᑾᔭᑯ	-1125
ᓂᓂᒡ	-1126
▁ᑕᑯ	-1127
▁ᑳᓅ	-1128
▁ᐅᑮᐱ	-1129
▁ᑳᐐᒋ	-1130
▁ᔔᒥᓈ	-1131
ᑕᒧᐙᒡ᙮	-1132
▁ᐊᓇᒥᐁ	-1133
▁ᑳᐃᑭᑐᒡ	-1134
▁ᒪᒋᐊᒑᑾ	-1135
▁ᑭᑭᓄᐊᒪᐙᑲᓇᒃ	-1136
ᑏᐎ	-1137
ᑕᐗ	-1138
ᔑᕽ	-1139
ᔥᑾ	-1140
ᔭᔅ	-1141
ᐸᐃᑫ	-1142
ᑌᔮᑎ	-1143
ᑕᐙᓐ	-1144
▁ᐁᐋ	-1145
▁ᓈᓯ	-1146
ᑭᑫᓂᒥ	-1147
ᔑᑌᔮᑎ	-1148
▁ᐅᒋ᙮	-1149
ᑕᒥᓂᒡ᙮	-1150
▁ᐁᓈᓴᒦ	-1151
▁ᑫᒋᓈᒡ	-1152
▁ᐅᐱᒫᑎᓰ	-1153
▁ᑳᑭᑭᓄᐊᒫᑫ	-1154
ᓂᒌ	-1155
ᓄᕽ	-1156
ᓈᒥ	-1157
ᔮᒃ	-1158
▁ᑴ	-1159
ᐃᔖᒡ	-1160
ᓯᐙᓐ	-1161
ᔕᔒᐯ	-1162
▁ᐊᐸ	-1163
▁ᐙᐱ	-1164
▁ᐁᑮᐅ	-1165
▁ᑭᑎᑳ	-1166
ᑕᒪᐙᐙᒡ	-1167
▁ᑲᔥᑭᑑ	-1168
ᑕᒪᐎᓇᑰᒃ	-1169
▁ᐁᔑᓈᑾᒃ	-1170
▁ᒪᒋᐊᔭᐋ	-1171
▁ᐅᑌᐺᑕᒨᐞ	-1172
ᑯᓀ	-1173
ᑲᐎ	-1174
ᒦᕽ	-1175
▁1	-1176
ᑳᑎᓯ	-1177
ᒥᓴᐌ	-1178
ᓀᒃ᙮	-1179
▁ᑕᐅᒋ	-1180
▁ᑳᐃᓈ	-1181
▁ᑳᑌᐺ	-1182
▁ᒥᓴᐙ	-1183
▁ᓂᑎᔑ	-1184
ᑖᑯᓯᓂᒡ	-1185
▁ᑳᐃᑯᒡ	-1186
▁ᐃᔅᕒᐃᔭᓬᐊ	-1187
ᑭᓱ	-1188
ᑲᓀ	-1189
ᒥᒡ	-1190
ᓂᒪ	-1191
ᔭᐤ	-1192
ᑕᒫᕽ	-1193
ᒦᓈᒡ	-1194
ᑕᑳᓀᓯ	-1195
ᑕᒣᒃ᙮	-1196
ᐲᐃᑳᑌᒃ	-1197
▁ᑎᐱᓇᐌ	-1198
▁ᓵᐃᒪᓐ	-1199
▁ᐁᔑᓈᑯᓯ	-1200
▁ᑭᑭᓄᐊᒫᑫ	-1201
▁ᑳᑮᐃᔑᒋᑫ	-1202
ᑯᑖ	-1203
ᒫᔑ	-1204
ᓴᑲ	-1205
ᔕᑫ	-1206
ᒦᓂᑯ	-1207
▁ᐁᑲ	-1208
▁ᐲᔖ	-1209
▁ᑫᑌ	-1210
▁ᑳᐋ	-1211
ᑕᓇᒥᐋ	-1212
ᑭᐸᓐ᙮	-1213
ᑭᑭᔥᑲ	-1214
▁ᑳᐊᓂ	-1215
▁ᒞᓇᓐ	-1216
▁ᒦᐗᒃ	-1217
▁ᒦᒋᒻ	-1218
▁ᐅᓄᐌᓂ	-1219
▁ᐋᓂᓐᑦ	-1220
▁ᒥᑖᔂᒃ	-1221
▁ᐃᓂᓂᐗᐞ	-1222
ᐱᓱ	-1223
ᓰᐞ	-1224
ᐗᕽ᙮	-1225
ᓂᔕᐊ	-1226
ᓈᓂᒡ	-1227
▁ᐅᐱ	-1228
ᓃᒑᓂᓯ	-1229
ᔦᑭᐸᓐ	-1230
▁ᐁᐲᒋ	-1231
▁ᑲᓇᐌ	-1232
▁ᑳᐃᓂ	-1233
▁ᐁᑮᐃᓈ	-1234
▁ᐅᑎᔑᒋᑫ	-1235
ᑰᒻ	-1236
ᓂᑳ	-1237
ᐁᐎᓯ	-1238
ᑎᐙᒡ	-1239
ᑕᐙᐞ	-1240
ᑕᓰᓐ	-1241
ᑲᓐ᙮	-1242
ᔥᑲᐌ	-1243
▁ᐐᐸ	-1244
ᒪᑲᓂᓂ	-1245
ᓈᑾᓂᓂ	-1246
ᓯᓂᓂᒃ	-1247
▁ᐃᔥᐱᒥᕽ	-1248
▁ᐁᐸᕒᐊᐋᒻ	-1249
▁ᐃᓂᐌᓂᐗᓐ	-1250
▁ᐅᑭᔐᐙᑎᓯ	-1251
ᒥᒃ	-1252
ᓃᐎ	-1253
ᔦᔑ	-1254
ᑎᐎᓐ	-1255
ᑕᓯᒀ	-1256
ᒥᓂᑴ	-1257
ᓰᓈᐙ	-1258
▁ᐁᑑ	-1259
▁ᐌᐱ	-1260
▁ᒎᑏ	-1261
ᑕᒫᑯᒡ	-1262
▁ᐐᒌᐎ	-1263
▁ᒣᐎᔕ	-1264
▁ᒫᐐᓐ	-1265
▁ᐃᑴᐗᓐ	-1266
▁ᐅᐅᐌᓂ	-1267
▁ᐅᑮᓇᑴ	-1268
▁ᑭᑎᑳᓀ	-1269
▁ᑳᓵᑭᐃ	-1270
▁ᐅᑮᐃᑰᓐ	-1271
▁ᑳᑮᐃᑭᑐ	-1272
ᓂᔐ	-1273
ᔥᑴ	-1274
ᐎᔭᓐ	-1275
ᐐᓯᓂ	-1276
ᒋᑲᓐ	-1277
ᒥᑕᓇ	-1278
ᓄᐃᑫ	-1279
ᓄᐙᒡ	-1280
ᔭᐋᒥ	-1281
▁ᐁᑭ	-1282
▁ᐸᐹ	-1283
ᓇᒪᑕᐱ	-1284
▁ᐁᐱᒥ	-1285
▁ᐐᔭᐎ	-1286
▁ᑮᔑᒃ	-1287
▁ᑳᐱᒥ	-1288
ᐎᓂᐙᓐ᙮	-1289
ᑕᒧᐎᓂᕽ	-1290
ᒋᑳᑌᓂᒃ	-1291
▁ᐁᐃᑭᑐ	-1292
▁ᐃᔥᒀᒡ	-1293
▁ᑳᐅᓂᔑᔑ	-1294
ᐗᒀ	-1295
ᒫᓀ	-1296
ᐌᐎᓐ	-1297
ᒫᐙᓐ	-1298
ᓈᓯᑳ	-1299
▁ᐁᒪ	-1300
▁ᐙᓭ	-1301
▁ᑭᓇ	-1302
▁ᒎᓴ	-1303
▁ᐁᑮᔑᑲ	-1304
▁ᐊᐱᓅᒌᔕ	-1305
▁ᐋᔑᑌᔮᑎ	-1306
ᑎᔅ	-1307
▁ᓯ	-1308
▁ᔂ	-1309
ᐅᑎᓯ	-1310
ᐋᐙᒡ	-1311
ᐌᓂᒡ	-1312
ᑕᔕᑫ	-1313
ᓈᑾᓐ	-1314
▁ᑳᒥ	-1315
▁ᓂᑭᑫ	-1316
ᑖᑯᓯᐙᒡ	-1317
▁ᔔᓂᔮᓐ	-1318
▁ᐯᕒᐊᓰᒃ	-1319
▁ᔑᒫᑲᓂᔒ	-1320
ᒨᒋ	-1321
ᓇᐊ	-1322
ᔅᑲ	-1323
ᔥᐯ	-1324
▁ᓀ	-1325
ᔥᑮᔑ	-1326
▁ᓂᐱ	-1327
▁ᓂᓱ	-1328
ᑎᓯᐎᓐ	-1329
ᓂᒥᓐᒡ	-1330
▁ᐅᑎᓈ	-1331
▁ᐊᐙᒡ	-1332
▁ᐹᑏᓄ	-1333
▁ᑭᑑᒋ	-1334
▁ᑭᒋᑲ	-1335
ᐊᓇᒥᐁᐎ	-1336
ᑕᒧᐎᓐ᙮	-1337
▁ᐃᔥᒀᑌ	-1338
▁ᐋᐱᑎᕽ	-1339
▁ᐱᓵᓂᑯ	-1340
▁ᑳᑮᐅᔑ	-1341
▁ᒋᐸᑭᑎ	-1342
▁ᐆᑌᓈᕽ᙮	-1343
▁ᐹᐃᓬᐊᑦ	-1344
ᑖᐙ	-1345
ᑭᔖ	-1346
ᐸᑯᓭ	-1347
ᓰᑲᐊ	-1348
▁ᐋᐃ	-1349
▁ᒋᑕᔑ	-1350
▁ᐅᑕᓄᑮ	-1351
▁ᑌᐺᐎᓐ	-1352
▁ᑳᑕᔑᔦᒃ	-1353
▁ᑭᐐᑕᒪᐎᓂᓂᒻ	-1354
ᐸᑕ	-1355
ᑭᐱ	-1356
ᐐᒌᐙ	-1357
ᓇᒪᐙ	-1358
ᓰᒻ᙮	-1359
ᕒᐆᓐ	-1360
▁ᐲᒋ	-1361
▁ᑮᒋ	-1362
ᐌᓅᑎᓯ	-1363
ᐎᓂᓈᓂ	-1364
▁ᑳᑮᐐ	-1365
▁ᓃᔣᓱ	-1366
▁ᐅᑮᐙᐸ	-1367
▁ᑎᐹᒋᒧ	-1368
▁ᐅᑑᓇᔓᐌ	-1369
▁ᑮᔑᑲᓂᓂᒃ	-1370
00	-1371
ᓂᓐ	-1372
▁7	-1373
ᒐᓬᐃ	-1374
ᒫᓂᒡ	-1375
ᔓᑕᒫ	-1376
▁ᑫᓂ	-1377
▁ᒫᐗ	-1378
▁ᐌᑯᓀ	-1379
▁ᒋᐊᔮ	-1380
▁ᒣᕒᐃ	-1381
▁ᒫᑭᔖ	-1382
▁ᐃᑴᐗᒃ	-1383
▁ᑳᐅᔫᓯ	-1384
▁ᐃᔑᓂᔕᐅ	-1385
▁ᒪᔥᑲᐎᓰ	-1386
▁ᐁᑮᐃᑭᑐᒡ	-1387
ᐲᑌ	-1388
ᐸᔅ	-1389
ᑎᓄ	-1390
ᑳᓇ	-1391
ᒌᑫ	-1392
ᓲᓐ	-1393
ᑕᓯᒃ	-1394
ᒐᔭᐄ	-1395
▁ᐁᓇ	-1396
▁ᐊᑕ	-1397
▁ᐱᒌ	-1398
▁ᐁᑮᐐ	-1399
▁ᐐᓯᓂ	-1400
▁ᐅᑑᑭᒫ	-1401
▁ᑭᑮᐃᔑ	-1402
▁ᑳᐃᔑᐊ	-1403
▁ᑳᐊᐲᒋ	-1404
▁ᑳᑮᔑᑲ	-1405
▁ᑳᒎᐎᐎᓯᒀ	-1406
▁ᐯᒫᑎᓯᓂᒡ᙮	-1407
ᐗᓂ	-1408
ᑲᓈ	-1409
ᒌᑾ	-1410
ᒥᔑ	-1411
ᒥᓀᒃ	-1412
ᒦᑴᒋ	-1413
ᔑᐲᐊ	-1414
ᔕᔒᐱ	-1415
▁ᑫᒫ	-1416
▁ᑭᑫᑌ	-1417
▁ᑳᑲᓅ	-1418
▁ᑳᓵᑭ	-1419
▁ᐃᔑᓭᒃ	-1420
▁ᐊᔮᒀᒥ	-1421
▁ᐐᒋᑭᐌ	-1422
▁ᐱᔑᔑᒃ	-1423
▁ᒪᓯᓇᐃ	-1424
▁ᐁᔑᓂᑳᓱ	-1425
ᐎᓭ	-1426
ᑾᔮ	-1427
ᒦᑳ	-1428
ᓂᓵ	-1429
ᒥᓈᓐ	-1430
▁ᐹᕒ	-1431
▁ᒥᑎ	-1432
▁ᓇᐃ	-1433
ᓈᓂᐗᕽ	-1434
▁ᑎᐸᐊ	-1435
▁ᑲᓇᑫ	-1436
▁ᒋᑎᐹ	-1437
ᑲᒀᑕᑭᑑ	-1438
▁ᐁᑮᐊᐎ	-1439
▁ᐅᓄᐌᓂᐗᓐ	-1440
▁ᒫᒪᑳᒋᒋᑫ	-1441
▁ᔑᒫᑲᓂᔒᐎᑭᒫ	-1442
ᐃᒃ	-1443
ᐐᑫ	-1444
ᑫᒡ	-1445
ᒋᓇ	-1446
ᓃᓵ	-1447
ᑕᓄᑮ	-1448
ᓇᒪᐎ	-1449
ᓵᑭᒋ	-1450
ᔥᑳᑌ	-1451
▁ᐅᓇ	-1452
▁ᐊᑲ	-1453
▁ᑫᑑ	-1454
▁ᑭᓉ	-1455
▁ᒌᒫ	-1456
▁ᒥᑕ	-1457
ᒋᐊᔭᐋ	-1458
ᓰᐗᒃ᙮	-1459
▁ᐯᔑᑯ	-1460
▁ᒋᐐᒋ	-1461
▁ᒋᑎᐯ	-1462
▁ᒪᓂᑑ	-1463
ᑾᔭᒀᑎᓯ	-1464
▁ᐃᑭᑐᒡ	-1465
▁ᐅᓃᑳᓂ	-1466
▁ᐱᒌᓇᒃ	-1467
▁ᑆᓬᐊᓐ	-1468
▁ᐅᐙᑳᐃᑲᓂ	-1469
ᐋᐞ	-1470
ᐹᓯ	-1471
ᓂᔭ	-1472
ᓱᒡ	-1473
ᐸᑭᑌ	-1474
ᑕᓐ᙮	-1475
ᒋᐋᒡ	-1476
ᔑᓈᒻ	-1477
▁ᑮᐐ	-1478
▁ᑮᐗ	-1479
ᐃᔥᒀᓭ	-1480
ᒋᑫᐎᓐ	-1481
ᓂᑳᑌᒃ	-1482
ᓇᒧᐙᒡ	-1483
▁ᐃᔑᓭ	-1484
▁ᐅᑭᑫ	-1485
▁ᐅᑭᑭ	-1486
▁ᐅᑮᐐ	-1487
▁ᐅᓵᒻ	-1488
▁ᒋᐃᔖ	-1489
▁ᒦᐃᐌ	-1490
ᓀᑕᒧᐎᓐ	-1491
ᓯᓂᓂᒃ᙮	-1492
▁ᐐᑕᒪᐎ	-1493
▁ᑲᑴᒋᒥ	-1494
▁ᐅᑌᒐᓬᐃ	-1495
▁ᑳᑮᐅᓈᐸ	-1496
▁ᒫᓇᒑᓂᔐ	-1497
▁ᑭᔐᒪᓂᑑᕽ	-1498
▁ᑮᐃᑭᑐᐗᒃ	-1499
ᐃᐌ	-1500
ᐋᓐ	-1501
ᐸᓭ	-1502
ᑐᓀ	-1503
ᒀᓂ	-1504
ᔅ᙮	-1505
ᑮᑭᑐ	-1506
ᑯᓴᑲ	-1507
ᒥᔅᑸ	-1508
▁ᐊᓅ	-1509
▁ᑕᐱ	-1510
▁ᑮᔖ	-1511
▁ᒋᐲ	-1512
▁ᒣᑴ	-1513
ᒥᓄᐊᔮ	-1514
ᒫᒪᑳᑌ	-1515
ᔥᑮᑎᐱ	-1516
▁ᐁᑭᑫ	-1517
▁ᐅᕒᐆ	-1518
▁ᐊᐸᓀ	-1519
▁ᐗᐐᑫ	-1520
▁ᑳᐙᐸ	-1521
▁ᒋᑲᑴ	-1522
▁ᐁᐃᔑᒋᑫ	-1523
▁ᐅᑕᓇᒥᐋ	-1524
▁ᐅᔥᑭᓃᑭ	-1525
▁ᐱᒫᒋᐃᑰ	-1526
▁ᐸᑭᑎᓈᓱ	-1527
▁ᑳᓃᑳᓂᓯ	-1528
▁ᒋᑎᐯᓂᒥ	-1529
▁ᔑᒫᑲᓂᔕᒃ	-1530
ᐃᑎ	-1531
ᒪᕽ	-1532
ᒬᒡ	-1533
ᔨᔑ	-1534
ᐴᔥᑫ	-1535
ᒋᓭᒃ	-1536
ᓂᑯᒡ	-1537
▁ᑫᐊ	-1538
▁ᑳᓂ	-1539
ᓂᓂᓂᒻ	-1540
ᓂᔕᐙᒡ	-1541
▁ᐁᑲᑴ	-1542
▁ᐐᑾᑎ	-1543
▁ᑭᑭᒋ	-1544
▁ᒣᒬᒡ	-1545
▁ᓂᑯᑣ	-1546
▁ᓵᑭᒋ	-1547
▁ᐁᕒᐊᑦ	-1548
▁ᐸᑴᔑᑲ	-1549
▁ᑳᐹᑏᓄ	-1550
▁ᑳᑮᐅᒌ	-1551
▁ᓂᑮᐃᔑ	-1552
▁ᓂᔑᐗᓈ	-1553
▁ᐅᒪᒋᑑᑕᒧ	-1554
▁ᐱᑾᒋᐊᔭᐋ	-1555
ᑯᐲ	-1556
ᒋᓈ	-1557
ᒥᑣ	-1558
ᒥᓇ	-1559
ᓃᔣ	-1560
ᐌᐸᒃ	-1561
ᑭᑎᒫ	-1562
ᑯᓂᒡ	-1563
ᓅᑌᓭ	-1564
ᔕᐌᓂ	-1565
ᔥᑲᐙ	-1566
ᒥᑰᔦᒃ	-1567
ᒫᒥᑲᐎ	-1568
▁ᐁᑎᐱ	-1569
▁ᐊᒋᓇ	-1570
▁ᒋᑭᒋ	-1571
▁ᒎᑕᔅ	-1572
▁ᒎᓴᑉ	-1573
▁ᓅᒋᑯ	-1574
▁ᓭᑭᓯ	-1575
ᑌᐺᔦᓂᒥ	-1576
▁ᐁᑎᓄᐎ	-1577
▁ᐊᔮᐙᒡ	-1578
▁ᑳᐐᐃᔑ	-1579
▁ᔔᒥᓈᐳ	-1580
▁ᐃᔑᐌᐱᓯ	-1581
▁ᑳᐃᔑᐊᔮ	-1582
▁ᐊᓄᑮᐋᑲᓐ	-1583
▁ᒪᒋᐊᒑᑾᐞ	-1584
▁ᒪᒋᑑᑕᒧᐎᓐ	-1585
ᐅᓇ	-1586
ᐸᑫ	-1587
ᑎᑲ	-1588
ᒀᓀ	-1589
▁ᒑ	-1590
ᑕᐌᒃ	-1591
ᑕᓰᒻ	-1592
ᑭᐃᑰ	-1593
ᓀᓂᒥ	-1594
ᔮᐹᓐ	-1595
▁ᐸᑭ	-1596
▁ᑖᑮ	-1597
▁ᒥᔅ	-1598
ᑲᓇᓐ᙮	-1599
▁ᐁᑲᓅ	-1600
▁ᐃᑯᒋ	-1601
▁ᐱᑾᑕ	-1602
▁ᑮᐃᓈ	-1603
▁ᑳᓂᐳ	-1604
▁ᒋᐊᓂ	-1605
▁ᓂᑑᒋ	-1606
▁ᓵᑲᐃ	-1607
ᒦᓂᑰᐎᓯ	-1608
▁ᐁᐐᒌᐎ	-1609
▁ᐅᑌᑌᓐ	-1610
▁ᐅᒫᒫᓐ	-1611
▁ᑭᑭᓇᐙ	-1612
▁ᐅᑎᓈᑯᓂᑫ	-1613
▁ᐅᒪᔥᑲᐎᓰ	-1614
▁ᑭᒋᐊᓇᒥᐁᐎᑭᒫᒃ	-1615
ᐃᕽ	-1616
ᐱᔑ	-1617
ᑳᒃ	-1618
ᒣᒀ	-1619
ᓈᒃ	-1620
ᓯᓃ	-1621
ᐙᐱᓯ	-1622
ᑕᑫᒃ	-1623
ᒀᑎᓰ	-1624
ᓯᐗᓐ	-1625
ᔥᑾᒡ	-1626
▁ᐁᐲ	-1627
▁ᓇᑲ	-1628
ᑕᒫᓐ᙮	-1629
ᑲᓇᐌᓂ	-1630
ᓯᓅᓐ᙮	-1631
▁ᑭᓉᔥ	-1632
▁ᒋᐙᐸ	-1633
▁ᓂᑖᐎᑭ	-1634
▁ᐁᑮᐃᑯᒡ	-1635
▁ᐅᑮᐅᑖᐱ	-1636
▁ᑭᐱᒫᑎᓯ	-1637
▁ᔕᐌᑖᑯᓯ	-1638
▁ᐌᔫᓯᒥᓐᒡ	-1639
ᐹᑌ	-1640
ᑯᓇ	-1641
ᓂᔮ	-1642
ᓯᑑ	-1643
ᐃᓐᒡ	-1644
ᐗᔦᔑ	-1645
ᓬᐋᐃ	-1646
ᓰᓐ᙮	-1647
▁ᒥᓉ	-1648
ᐯᓂᒧᓄ	-1649
ᑕᐙᐙᓐ	-1650
ᑕᒪᐙᐞ	-1651
ᑕᓰᓈᐙ	-1652
ᑯᐙᒡ᙮	-1653
▁ᐊᑕᐌ	-1654
▁ᑳᐅᔑ	-1655
▁ᒋᐱᒥ	-1656
▁ᒎᑏᔭ	-1657
▁ᒥᓂᑴ	-1658
▁ᒦᓂᑰ	-1659
ᑕᒪᐙᓂᒡ	-1660
ᒋᑲᓂᐎᒡ	-1661
▁ᐃᔑᐊᔮ	-1662
▁ᒣᔥᑾᒡ	-1663
ᐱᒫᑎᓯᐙᒡ	-1664
▁ᐁᒐᓬᐊᒃ	-1665
▁ᑲᒀᑕᑭᑑ	-1666
▁ᐅᑎᑭᑐᐎᓐ	-1667
▁ᒪᒋᐊᒑᑾᓐ	-1668
▁ᐅᑎᐹᒋᒧᐎᓂᓃ	-1669
ᒋᐸ	-1670
ᓴᑫ	-1671
ᕒᐋ	-1672
ᐐᑕᒫ	-1673
ᑎᐸᓐ	-1674
ᑯᓯᔅ	-1675
ᒥᐙᓐ	-1676
ᓃᒑᓂ	-1677
ᓄᓂᒡ	-1678
ᓈᓈᑲ	-1679
ᓯᒃ᙮	-1680
ᓶᐙᓇ	-1681
▁ᐊᑾ	-1682
▁ᑳᐸ	-1683
ᑲᒥᑭᓯ	-1684
ᒥᑯᒡ᙮	-1685
ᓯᓄᒃ᙮	-1686
▁ᐁᔑᐊ	-1687
▁ᐅᐐᒋ	-1688
▁ᐅᓈᐯ	-1689
▁ᐋᒋᑯ	-1690
▁ᐱᓬᐊ	-1691
▁ᐸᓯᑸ	-1692
▁ᑮᑕᔑ	-1693
▁ᑮᒫᒌ	-1694
▁ᑳᑮᓅ	-1695
▁ᑳᒥᓄ	-1696
▁ᓇᐃᓂ	-1697
ᑭᔐᒪᓂᑑ	-1698
▁ᐃᑕᔥ᙮	-1699
▁ᐃᓀᑖᑾ	-1700
▁ᑮᐃᔥᒀ	-1701
▁ᑳᑮᐊᔮ	-1702
▁ᒋᐅᑖᐱ	-1703
▁ᒥᑖᔑᓃ	-1704
ᐅᑌᐺᑕᒨᒃ	-1705
▁ᐲᑕᕒᐆᓐ	-1706
▁ᐸᑴᔑᑲᓐ	-1707
▁ᒋᓂᔑᐗᓈ	-1708
ᑭᑭᓇᐙᑕᔕᑫ	-1709
▁ᑭᑎᑳᓀᓴᓐ	-1710
▁ᐁᑮᔑᑲᓂᓂᒃ	-1711
▁ᐁᔑᓈᑾᓂᓂᒃ	-1712
▁ᐅᐱᒫᑎᓯᐎᓐ	-1713
ᐱᓀ	-1714
ᐲᑭ	-1715
ᑭᑕ	-1716
ᑭᓭ	-1717
ᑲᒧ	-1718
ᒫᑰ	-1719
ᒫᒫ	-1720
ᔕᐞ	-1721
ᐯᔑᒃ	-1722
ᑑᔦᒃ	-1723
ᑖᓇᓐ	-1724
ᒥᑰᐞ	-1725
▁ᐊᑳ	-1726
▁ᑮᐙ	-1727
▁ᑮᓅ	-1728
▁ᒋᐋ	-1729
▁ᒋᔑ	-1730
▁ᒌᑫ	-1731
ᑎᓯᐙᒡ	-1732
ᑲᓂᐎᒡ	-1733
ᑲᓇᐞ᙮	-1734
ᒥᒥᓐᒡ	-1735
ᓯᐌᒃ᙮	-1736
ᓯᐙᐙᓐ	-1737
▁ᐁᐃᓈ	-1738
▁ᐁᐅᒌ	-1739
▁ᐁᑮᓅ	-1740
▁ᐅᑕᔮ	-1741
▁ᐊᓈᒥ	-1742
ᐗᓂᓂᒃ᙮	-1743
▁ᐁᑮᐙᐸ	-1744
▁ᐊᐴᔥᑫ	-1745
▁ᑭᑲᐅᒋ	-1746
▁ᑲᓇᐙᐸ	-1747
▁ᐁᐃᑭᑐᒡ	-1748
▁ᑎᐯᑖᑯᓯ	-1749
▁ᐸᑴᔑᑲᓇᓐ	-1750
ᐃᑣ	-1751
ᐱᒡ	-1752
ᑭᔅ	-1753
ᒥᐙ	-1754
ᒧᔐ	-1755
ᓈᑕ	-1756
ᔕᔐ	-1757
ᑫᒃ᙮	-1758
ᓂᑭᕽ	-1759
ᓃᔣᒋ	-1760
ᓃᕽ᙮	-1761
ᓇᑲᓂ	-1762
ᓯᐗᒃ	-1763
▁ᐊᐤ	-1764
▁ᐊᑐ	-1765
▁ᐴᓀ	-1766
▁ᑳᐯ	-1767
▁ᒎᐎ	-1768
▁ᒫᔑ	-1769
ᒪᑲᒃ᙮	-1770
ᓂᑭᓐ᙮	-1771
ᔒᑫᓂᒥ	-1772
▁ᐁᐃᓀ	-1773
▁ᐅᑮᓅ	-1774
▁ᐅᓂᒌ	-1775
▁ᐅᓵᐎ	-1776
▁ᐊᔭᐋ	-1777
▁ᐐᐗᓐ	-1778
▁ᐱᓇᒫ	-1779
▁ᐹᕒᓇ	-1780
▁ᑌᐱᑦ	-1781
▁ᑳᐐᒌ	-1782
▁ᑳᑮᐃ	-1783
▁ᑳᑲᑮ	-1784
ᓂᑳᑌᓂᒃ	-1785
▁ᐁᑮᒫᒌ	-1786
▁ᑭᑲᐃᔑ	-1787
▁ᑳᐊᔮᒡ	-1788
▁ᓂᐳᐎᓐ	-1789
▁ᑭᑭᑫᓂᒥ	-1790
▁ᑳᐊᔮᓂᒡ	-1791
▁ᑲᔥᑭᐁᐎᓯ	-1792
▁ᑳᓬᐊᓬᐄᕽ	-1793
▁ᑳᑎᐯᓂᒥᓇᕽ	-1794
▁ᑳᑭᑭᓄᐊᒫᑫᐙᒡ	-1795
ᐎᓈ	-1796
ᑖᑰ	-1797
ᒌᕽ	-1798
ᒫᓂ	-1799
ᓴᒃ	-1800
▁ᑸ	-1801
ᑑᓂᒡ	-1802
ᑭᑐᒡ	-1803
ᑲᒥᑯ	-1804
ᑳᑌᒃ	-1805
ᒀᓂᒃ	-1806
ᒫᒡ᙮	-1807
▁ᐁᐃ	-1808
▁ᐅᒑ	-1809
▁ᓂᐲ	-1810
ᐅᔑᐲᐊ	-1811
ᐎᓂᐙ᙮	-1812
ᒋᑫᐙᒡ	-1813
ᓈᑯᓯᒡ	-1814
▁ᐋᓬᐃ	-1815
▁ᑎᐸᐃ	-1816
▁ᓂᑎᓀ	-1817
ᑲᒀᑕᑭᐃ	-1818
▁ᑭᐐᔭᐎ	-1819
▁ᑮᔑᑲᒃ	-1820
▁ᑭᑑᔑᐲᐊ	-1821
▁ᐅᑯᐌᓂᐗᒃ	-1822
▁ᐅᑮᐃᓈᐙᓐ᙮	-1823
▁ᐊᓇᒥᐁᐎᑭᒫ	-1824
▁ᑳᒎᐎᐎᓯᓂᒃ	-1825
▁ᓃᒋᐅᑌᐺᑕᒨᒃ	-1826
ᐹᐗ	-1827
ᑭᑖ	-1828
ᑲᐙ	-1829
ᒦᔑ	-1830
ᒪᒀ	-1831
▁4	-1832
ᐌᐙᒡ	-1833
ᐐᑎᑫ	-1834
ᑎᐹᒋ	-1835
ᑕᒻ᙮	-1836
ᒥᓂᒡ	-1837
ᓯᓲᓐ	-1838
ᓴᕒᐃ	-1839
▁ᐁᒥ	-1840
▁ᐅᓯ	-1841
▁ᒋᑲ	-1842
▁ᓅᑌ	-1843
▁ᓵᑭ	-1844
ᑕᓯᐌᒃ	-1845
ᑭᓯᓂᒡ	-1846
ᑮᔑᑲᒃ	-1847
ᑲᒥᒃ᙮	-1848
ᒪᑲᑭᓐ	-1849
ᓯᓂᒃ᙮	-1850
▁ᐁᑲᑮ	-1851
▁ᐃᑭᑑ	-1852
▁ᑕᑭᒋ	-1853
▁ᑭᐐᒋ	-1854
▁ᑲᑲᓅ	-1855
▁ᒋᓂᓯ	-1856
▁ᓂᓯᑐ	-1857
ᐐᒌᐎᑯᒡ	-1858
ᐱᒫᑎᓯᒡ	-1859
ᑲᔥᑭᑑᒡ	-1860
▁ᐁᑮᓂᐳ	-1861
▁ᐅᑮᑲᓅ	-1862
▁ᐅᑲᔥᑭ	-1863
▁ᐅᒥᔅᑸ	-1864
▁ᑮᐹᑏᓄ	-1865
▁ᑳᑮᐃᓈ	-1866
▁ᒋᐐᒋᐃ	-1867
▁ᐅᑮᐙᐸᒫ	-1868
▁ᑭᑌᐺᑕᒧ	-1869
▁ᑳᑎᐯᑕᕽ	-1870
▁ᓂᐳᐎᓂᕽ	-1871
▁ᓇᐃᓂᑏᐎ	-1872
▁ᐅᑭᑭᓄᐊᒪᐙᑲᓇᐞ᙮	-1873
ᑎᑯ	-1874
ᑕᑶ	-1875
ᒪᒡ	-1876
ᓂᐴ	-1877
ᓃᒃ	-1878
ᓇᒀ	-1879
ᑎᐸᐃ	-1880
ᑭᑌᐁ	-1881
▁ᐁᒣ	-1882
▁ᐁᔖ	-1883
▁ᐌᓅ	-1884
▁ᑕᓂ	-1885
▁ᑫᓅ	-1886
ᐃᓇᓄᑮ	-1887
ᐅᑭᒫᑲ	-1888
ᐎᓂᓈᓐ	-1889
ᐎᓐᒡ᙮	-1890
ᒋᑲᓇᓐ	-1891
ᓂᒫᐙᒡ	-1892
▁ᐁᑮᒪ	-1893
▁ᐃᐌᓂ	-1894
▁ᐊᑮᓂ	-1895
▁ᑭᐸᐅ	-1896
▁ᑭᑌᐃ	-1897
▁ᑭᑌᑌ	-1898
▁ᑭᑭᑭ	-1899
▁ᑭᒋᐅ	-1900
▁ᑸᐎᓭ	-1901
▁ᒋᐃᓈ	-1902
▁ᒋᐸᐹ	-1903
▁ᒥᓴᐌ	-1904
▁ᓂᑮᓅ	-1905
ᐎᓂᓂᐗᒃ	-1906
ᐱᒫᒋᐃᑰ	-1907
▁ᑭᒋᐊᐱ	-1908
▁ᑲᓅᓈᐞ	-1909
▁ᑲᓅᓈᒡ	-1910
▁ᑳᑮᐙᐸ	-1911
▁ᐅᑌᐺᑕᒧ	-1912
▁ᐅᑎᓀᑕᒧ	-1913
▁ᐅᑭᑭᔥᑭ	-1914
▁ᑫᑮᓇᐎᓐᑦ	-1915
▁ᑭᒪᒋᑑᑕᒧ	-1916
▁ᑳᑎᐯᒋᑫᒡ᙮	-1917
▁ᐃᔅᕒᐃᔭᓬᐊᒃ	-1918
ᐙ᙮	-1919
ᒪᑎ	-1920
ᒻᐺ	-1921
ᓯᒡ	-1922
ᓯᓐ	-1923
ᔮᐸ	-1924
ᕒᑕ	-1925
,00	-1926
ᐙᐞ᙮	-1927
ᑕᐎᒃ	-1928
ᑯᐸᓐ	-1929
ᑯᑖᓀ	-1930
ᑯᓂᑰ	-1931
ᑾᓐ᙮	-1932
ᒥᓇᕽ	-1933
ᒪᐙᒡ	-1934
ᓀᐱᒋ	-1935
ᓂᒫᐞ	-1936
ᓂᓐᒡ	-1937
ᓭᑭᓯ	-1938
ᓯᒀ᙮	-1939
ᓵᑲᐊ	-1940
▁ᑮᐸ	-1941
▁ᒥᑯ	-1942
,000	-1943
ᑕᐌᓂᒥ	-1944
ᑕᐎᓐᒡ	-1945
ᓇᐌᐎᓯ	-1946
ᔕᐌᓂᒥ	-1947
▁ᐅᒋᑕ	-1948
▁ᐊᓂᔖ	-1949
▁ᐊᓯᓐ	-1950
▁ᑲᕒᐄ	-1951
▁ᑳᑭᑫ	-1952
▁ᒋᑮᐌ	-1953
ᐸᑯᓭᓂᒥ	-1954
ᑭᑭᓄᐊᒫ	-1955
▁ᐃᓬᐋᐃ	-1956
▁ᐆᑌᓇᐌ	-1957
▁ᐊᑾᒌᕽ	-1958
▁ᐐᔭᐎᒫ	-1959
▁ᐙᓴᑯᓀ	-1960
▁ᑫᑮᐃᔑ	-1961
▁ᑮᔑᑯᕽ	-1962
ᐲᐃᑳᑌᓂᒃ	-1963
▁ᑭᑭᑫᑖᒻ	-1964
▁ᑭᒋᑲᒦᕽ	-1965
▁ᒋᑲᔥᑭᑑ	-1966
▁ᐃᔑᐱᒫᑎᓯ	-1967
▁ᑭᑫᑌᔭᐋᒥ	-1968
▁ᑭᑭᓄᐊᒪᐙ	-1969
▁ᑳᐃᔑᓂᑳᓱ	-1970
▁ᐋᔑᑌᔮᑎᑯᕽ	-1971
ᑕᓇ	-1972
ᑳᒋ	-1973
ᒪᔅ	-1974
ᓇᑯ	-1975
▁ᒀ	-1976
ᐗᑭᒡ	-1977
ᐙᐱᓀ	-1978
ᑕᒧᐙ	-1979
ᑯᐙᓐ	-1980
ᒥᑰᓐ	-1981
ᓂᑰᓐ	-1982
ᓂᒥᓯ	-1983
▁ᑕᐊ	-1984
▁ᑮᒪ	-1985
▁ᒉᑲ	-1986
ᐅᓂᔑᔑ	-1987
ᑕᑯᔑᓐ	-1988
ᑕᑯᔑᕽ	-1989
ᓇᒑᓂᔑ	-1990
▁ᐅᑎᒀ	-1991
▁ᐊᒑᒃ	-1992
▁ᐊᔮᒡ	-1993
▁ᑫᐴᓂ	-1994
▁ᑭᐴᔔ	-1995
▁ᑳᑲᑴ	-1996
▁ᒋᐅᑎ	-1997
▁ᓂᓯᓐ	-1998
▁ᐁᑮᑭᒋ	-1999
▁ᐁᔑᐊᔮ	-2000
▁ᒣᑴᔭᐄ	-2001
▁ᒫᒥᑲᐎ	-2002
▁ᓂᑎᑭᑐ	-2003
▁ᓂᑮᐅᒋ	-2004
▁ᓈᓴᕒᐃ	-2005
ᓈᓂᐗᓂᓂᒃ	-2006
▁ᐃᓬᐋᐃᒐ	-2007
▁ᑮᐃᔑᒋᑫ	-2008
▁ᓰᑲᐊᑖᑫ	-2009
ᒫᐗᒋᐃᑎᐙᒡ	-2010
▁ᐃᓀᑖᑯᓯᒡ	-2011
▁ᐅᑯᓯᓴᓐ᙮	-2012
▁ᐅᑭᔐᐙᑎᓯᐎᓐ	-2013
▁ᑳᑎᐯᒋᑫᓂᒡ᙮	-2014
ᐹᒋ	-2015
ᑎᑾ	-2016
ᒦᒀ	-2017
ᓃᔑ	-2018
ᓯᐎ	-2019
ᓴᑳ	-2020
ᐸᔕᔐ	-2021
ᑕᒫᑰ	-2022
ᑖᓂᒡ	-2023
ᓯᐗᕽ	-2024
ᕒᐄᔭ	-2025
▁ᐋᐸ	-2026
▁ᐐᓀ	-2027
▁ᑫᐱ	-2028
▁ᑫᓃ	-2029
▁ᒋᓇ	-2030
▁ᓂᑌ	-2031
▁ᓂᓇ	-2032
ᐙᐸᑖᓐ	-2033
ᐱᒫᑎᔅ	-2034
ᑕᒧᐌᒃ	-2035
ᒋᓭᓂᒃ	-2036
ᒦᓂᓀᒃ	-2037
ᒪᑲᓐ᙮	-2038
ᓲᑭᑌᐁ	-2039
▁ᐲᑎᒃ	-2040
▁ᐸᑭᓯ	-2041
▁ᑳᒫᐗ	-2042
▁ᒋᐃᓀ	-2043
▁ᓂᑕᔮ	-2044
ᑭᑭᓄᐃᑫ	-2045
ᓂᑎᓱᐙᒡ	-2046
ᓈᑯᓯᐙᒡ	-2047
▁ᐅᑮᐊᓂ	-2048
▁ᐋᓃᓂᑯ	-2049
▁ᑫᑰᓐ᙮	-2050
▁ᑭᒋᐆᑌ	-2051
▁ᑳᑮᐃᓀ	-2052
▁ᒦᓇᐙᔥ	-2053
▁ᐁᑮᐃᔖᒡ	-2054
▁ᐁᒐᓬᐊᓐ	-2055
▁ᐃᑭᑐᐎᓐ	-2056
▁ᐃᓀᑖᑾᒃ	-2057
▁ᐅᑯᓯᓯᒫ	-2058
▁ᒫᐗᒋᐃᑎ	-2059
▁ᐁᑮᐃᑭᑐᐙᒡ	-2060
▁ᐅᑎᐯᒋᑫᐎᓐ	-2061
▁ᑮᐃᑭᑐᐗᐞ᙮	-2062
▁ᑳᓵᑭᐃᓇᑰᒃ	-2063
▁ᑲᔥᑭᐁᐎᓯᐎᓐ	-2064
ᐐᑑ	-2065
ᐸᑴ	-2066
ᑏᓇ	-2067
ᑯᐱ	-2068
ᒋᑴ	-2069
ᓉᐱ	-2070
ᔕᓐ	-2071
▁ᔒ	-2072
ᐙᐱᑯ	-2073
ᐹᐱᑯ	-2074
ᑎᓯᒡ	-2075
ᑭᑎᑫ	-2076
ᑭᓯᒡ	-2077
ᑳᕽ᙮	-2078
ᒪᓐ᙮	-2079
ᓈᓈᐙ	-2080
ᓬᐊᔅ	-2081
ᔭᐎᓂ	-2082
▁12	-2083
▁ᐅᑳ	-2084
▁ᐅᒦ	-2085
▁ᐊᐎ	-2086
▁ᐌᔩ	-2087
▁ᐱᓀ	-2088
▁ᐸᑫ	-2089
▁ᑮᑭ	-2090
▁ᒎᑕ	-2091
ᐐᒌᐙᒡ	-2092
ᐗᑭᐸᓐ	-2093
ᑕᓰᒥᓐ	-2094
ᑖᑯᓯᓰ	-2095
ᒥᑯᐙᒡ	-2096
ᒦᓂᑯᒡ	-2097
ᓂᑎᓱᒡ	-2098
ᔥᑳᑯᒡ	-2099
▁ᐁᑮᓇ	-2100
▁ᐄᒋᐸ	-2101
▁ᐅᑾᔭ	-2102
▁ᐸᑯᓭ	-2103
▁ᑮᐲᔖ	-2104
▁ᒋᐊᐎ	-2105
▁ᒋᑕᑯ	-2106
▁ᒦᐃᒫ	-2107
▁ᓂᑭᒋ	-2108
▁ᔖᑯᐌ	-2109
ᐅᔑᐲᐃᑫ	-2110
ᐙᐸᒫᐙᒡ	-2111
ᒦᑴᒋᐌᓂ	-2112
ᔕᐌᑖᑯᓯ	-2113
▁ᐁᑮᐃᔖ	-2114
▁ᐅᑭᒫᐎ	-2115
▁ᐅᑮᐊᑐ	-2116
▁ᐅᑮᒫᒌ	-2117
▁ᐱᓈᓯᑳ	-2118
▁ᑕᑯᔑᕽ	-2119
▁ᑳᑮᓂᐳ	-2120
▁ᒋᐃᑭᑐ	-2121
▁ᐅᕒᐆᒥᕽ	-2122
▁ᐊᐌᓀᓇᓐ	-2123
▁ᑭᑭᔐᒪᓂᑑ	-2124
▁ᒪᔥᑲᐎᓰᐎᓐ	-2125
▁ᐅᑕᓄᑮᐋᑲᓇᐞ	-2126
ᐙᓀ	-2127
ᐸᕒ	-2128
ᑎᒨ	-2129
ᑖᒋ	-2130
ᑯᓐ	-2131
ᑳᓯ	-2132
ᓈᐯ	-2133
ᔭᒃ	-2134
ᐌᒡ᙮	-2135
ᐎᒡ᙮	-2136
ᐸᓀᓐ	-2137
ᑎᔦᒃ	-2138
ᑭᐸᐅ	-2139
ᒥᑲᐙ	-2140
ᒪᐞ᙮	-2141
ᒫᒋᑾ	-2142
ᓀᒀ᙮	-2143
ᓂᐸᓐ	-2144
ᓅᓐ᙮	-2145
ᓴᐞ᙮	-2146
ᕒᐊᔅ	-2147
▁ᐅᐲ	-2148
▁ᐅᒪ	-2149
▁ᐹᐱ	-2150
▁ᒦᑲ	-2151
▁ᓬᐋ	-2152
▁ᓵᒥ	-2153
▁ᔂᓬ	-2154
ᐊᓇᒥᐁ	-2155
ᐐᒌᐎᑯ	-2156
ᑕᒫᑫᒡ	-2157
ᑖᑾᓂᓂ	-2158
ᒥᓄᒋᑫ	-2159
ᒦᓂᓐᒡ	-2160
▁ᐁᓂᑯ	-2161
▁ᐅᑭᒫ	-2162
▁ᐅᑮᐅ	-2163
▁ᐊᑲᐌ	-2164
▁ᐋᐱᑕ	-2165
▁ᐙᐸᑕ	-2166
▁ᑫᑕᔑ	-2167
▁ᑮᐅᒌ	-2168
▁ᑮᓯᔅ	-2169
▁ᑲᔦᔥ	-2170
▁ᑳᒫᒪ	-2171
▁ᓵᑲᐊ	-2172
ᑌᐺᔦᑕᒧ	-2173
▁ᐁᔮᓂᒡ	-2174
▁ᐊᒦᑕᔥ	-2175
▁ᐊᓅᒋᑯ	-2176
▁ᐊᔓᑕᒫ	-2177
▁ᐌᑯᓀᔥ	-2178
▁ᑳᑮᐃᓂ	-2179
▁ᑳᑲᓇᐌ	-2180
▁ᒦᐗᓂᓂ	-2181
▁ᒨᓯᓲᓐ	-2182
▁ᐁᐊᓉᐲᐎ	-2183
▁ᐁᐙᐸᒫᒡ	-2184
▁ᑎᐹᑯᓂᑫ	-2185
▁ᑾᔭᒀᑎᓯ	-2186
▁ᒪᒋᑑᑕᒧ	-2187
▁ᒫᓇᒑᓂᔕ	-2188
▁ᓂᑭᑫᓂᒫ	-2189
▁ᐊᔮᒀᒥᓯᒃ	-2190
▁ᐙᑳᐃᑲᓂᕽ	-2191
▁ᑫᓃᓇᐎᓐᑦ	-2192
▁ᐃᓀᑖᑯᓯᐎᓐ	-2193
▁ᐅᓇᔓᐌᐎᓐ᙮	-2194
▁ᐱᒫᑎᓯᐎᓐ᙮	-2195
▁ᑭᒋᑮᔑᑯᕽ᙮	-2196
▁ᒥᓍᒋᒧᐎᓐ᙮	-2197
▁ᐊᓇᒥᐁᐎᑲᒥᑯᕽ	-2198
▁ᒫᒪᑳᒋᒋᑫᐎᓇᓐ	-2199
ᐗᑫ	-2200
ᓇᐁ	-2201
ᓭᔭ	-2202
ᔮᔑ	-2203
ᐃᐌᒡ	-2204
ᐋᐸᑕ	-2205
ᐗᑮᕽ	-2206
ᐗᓂᔑ	-2207
ᑎᐗᒃ	-2208
ᒋᑫᒡ	-2209
ᒥᓄᓭ	-2210
ᒪᑭᒡ	-2211
ᓀᓐ᙮	-2212
ᓇᐌᓂ	-2213
ᔖᑰᒋ	-2214
▁ᐊᐯ	-2215
▁ᑭᓅ	-2216
▁ᑮᐋ	-2217
▁ᑮᓂ	-2218
▁ᓭᓴ	-2219
ᐃᑯᐙᒡ	-2220
ᐃᑯᒡ᙮	-2221
ᐙᐸᓐ᙮	-2222
ᑕᐌᓂᒫ	-2223
ᑕᒨᒃ᙮	-2224
▁ᐅᑎᓯ	-2225
▁ᐅᒥᓍ	-2226
▁ᐌᔩᑉ	-2227
▁ᑭᑕᔮ	-2228
▁ᑮᐅᔑ	-2229
▁ᑮᓂᐳ	-2230
▁ᑳᒪᒋ	-2231
▁ᒥᓂᒀ	-2232
▁ᓭᑕᓐ	-2233
ᐎᓂᐙᕽ᙮	-2234
ᑭᑑᒪᑲᒃ	-2235
ᒋᑳᑌᑭᓐ	-2236
ᒋᑳᑌᒃ᙮	-2237
ᓂᒥᓐᒡ᙮	-2238
▁ᐁᑮᐊᔮ	-2239
▁ᐱᓬᐊᑉ	-2240
▁ᐱᓵᓂᓯ	-2241
▁ᑫᐃᑭᑐ	-2242
▁ᑭᑭᔥᑭ	-2243
▁ᑳᐅᑭᒫ	-2244
▁ᑳᑮᐊᑐ	-2245
▁ᒋᐲᑎᑫ	-2246
▁ᓂᑯᓯᔅ	-2247
ᐱᒫᑎᓯᒡ᙮	-2248
ᔥᑲᐌᑖᑯᓯ	-2249
▁ᐅᓃᑳᓂᓰ	-2250
▁ᑭᑎᔑᒋᑫ	-2251
▁ᑮᐊᔮᐗᒃ	-2252
▁ᑳᐊᔮᔦᒃ	-2253
▁ᐁᓈᓴᒦᓂᒡ	-2254
▁ᐅᑎᔑᓂᔕᐙ	-2255
▁ᑭᑑᔑᐲᐊᒪ	-2256
▁ᑳᐊᔮᓂᒡ᙮	-2257
▁ᑳᐹᑏᓄᓂᒡ	-2258
▁ᐁᐸᕒᐊᐋᒪᓐ	-2259
▁ᑳᐃᔑᒋᑫᐙᒡ	-2260
▁ᐃᔑᓂᔕᐙᑲᓇᒃ	-2261
▁ᐅᐙᑳᐃᑲᓂᓃᕽ	-2262
ᑎᓐ	-2263
ᒋᐱ	-2264
ᒥᓯ	-2265
ᒧᒡ	-2266
ᓃᐞ	-2267
ᓬᐁ	-2268
ᓬᐆ	-2269
ᔒᐌ	-2270
ᐙᓭᔮ	-2271
ᑯᐙᒃ	-2272
ᑯᓯᒃ	-2273
ᒌᑾᓇ	-2274
ᓇᒧᒃ	-2275
ᓇᔓᐙ	-2276
▁ᐁᐯ	-2277
▁ᐁᑎ	-2278
▁ᐁᑯ	-2279
▁ᐊᔕ	-2280
▁ᑕᐸ	-2281
▁ᑫᐅ	-2282
▁ᑫᑫ	-2283
▁ᑮᐃ	-2284
▁ᑳᑲ	-2285
▁ᒋᑕ	-2286
▁ᒪᐎ	-2287
ᑎᓯᔦᒃ	-2288
ᑕᐙᓂᒡ	-2289
ᓰᒥᓐ᙮	-2290
▁ᐁᐸᐹ	-2291
▁ᐗᓇᑯ	-2292
▁ᑎᒪᑎ	-2293
▁ᑲᑴᑗ	-2294
▁ᒋᑌᐱ	-2295
▁ᒫᓯᑑ	-2296
▁ᓂᑮᐱ	-2297
ᓈᑯᓯᓂᒡ	-2298
ᓈᓈᑲᑕᐌ	-2299
▁ᐁᐊᓄᑮ	-2300
▁ᐃᓀᓂᒫ	-2301
▁ᐅᐐᔭᐎ	-2302
▁ᐅᑕᔭᐄ	-2303
▁ᐅᔥᑮᔑ	-2304
▁ᐋᐃᓭᔭ	-2305
▁ᐸᑭᑎᓈ	-2306
▁ᑮᐲᑎᑫ	-2307
▁ᑮᑎᓄᐎ	-2308
▁ᑲᓇᐌᓂ	-2309
▁ᑳᑎᓄᐎ	-2310
▁ᑳᑾᔭᑯ	-2311
▁ᒪᔥᑲᐎ	-2312
▁ᓂᑯᑎᕽ	-2313
▁ᓃᒋᑭᐌ	-2314
▁ᓵᑲᐃᑲ	-2315
ᓀᑖᑯᓯᓂᒡ	-2316
▁ᐁᒐᓬᐊᐞ	-2317
▁ᐃᔑᒋᑫᒡ	-2318
▁ᐊᔓᑕᒫᑫ	-2319
▁ᐙᑳᐃᑲᓐ	-2320
▁ᐸᑭᑎᓂᑫ	-2321
▁ᐹᕒᓇᐸᔅ	-2322
▁ᑭᐸᐅᑏᐎ	-2323
▁ᑳᑕᓶᐙᓇ	-2324
▁ᑳᑮᔑᑲᒃ	-2325
▁ᒥᑯᔥᑳᑌ	-2326
▁ᓂᑮᐙᐸᒫ	-2327
▁ᐁᑮᐃᔑᒋᑫ	-2328
▁ᑳᐃᔑᒋᑫᒡ	-2329
▁ᑳᐅᑕᑳᓀᓯ	-2330
▁ᒫᓇᒑᓂᔐᔅ	-2331
▁ᐁᑎᐱᑲᓂᓂᒃ	-2332
▁ᐁᑮᐃᑭᑐᓂᒡ	-2333
▁ᐅᐱᒫᑎᓰᒪᐞ	-2334
▁ᐅᑭᑭᓄᐊᒪᐙ	-2335
▁ᑭᒋᐊᓇᒥᐁᐎᑭᒫᐞ	-2336
ᐁᒀ	-2337
ᐊᑐ	-2338
ᐎᔥ	-2339
ᐗᓯ	-2340
ᐹᓐ	-2341
ᑾᑭ	-2342
ᒨᑎ	-2343
ᓅᑮ	-2344
▁:	-2345
ᐱᐙᒡ	-2346
ᑫᒋᓈ	-2347
ᑫᓐ᙮	-2348
ᑭᑎᑳ	-2349
ᒥᓄᑑ	-2350
ᒥᕽ᙮	-2351
ᒦᔑᒡ	-2352
ᓂᐗᓐ	-2353
ᓂᒣᒃ	-2354
ᓂᒪᒃ	-2355
▁ᐯᑕ	-2356
▁ᒧᔐ	-2357
ᐊᓇᒥᐋ	-2358
ᑕᑯᔑᓅ	-2359
ᑕᒧᐗᒃ	-2360
ᑕᒪᓐ᙮	-2361
ᑯᓴᑲᐅ	-2362
ᑲᓂᕽ᙮	-2363
ᓂᓂᒻ᙮	-2364
ᓂᔑᔑᓐ	-2365
ᓈᓂᒃ᙮	-2366
ᓯᓄᑭᓐ	-2367
▁ᐁᐃᓇ	-2368
▁ᐅᑲᓇ	-2369
▁ᐱᒧᓭ	-2370
▁ᑎᓄᐎ	-2371
▁ᑫᑮᓐ	-2372
▁ᑭᑎᓀ	-2373
▁ᒋᐴᓀ	-2374
▁ᒋᑲᓅ	-2375
▁ᒌᒥᔅ	-2376
▁ᒫᒑᒡ	-2377
▁ᓂᑲᐱ	-2378
▁ᓃᐸᐎ	-2379
ᒪᐎᓇᑰᒃ	-2380
▁ᐅᐐᔭᐤ	-2381
▁ᐅᑮᑲᑴ	-2382
▁ᐌᓂᔑᔑ	-2383
▁ᑌᐱᑎᕽ	-2384
▁ᑳᐅᒌᒡ	-2385
▁ᑳᒎᐎᐎ	-2386
▁ᑳᓅᑕᕽ	-2387
▁ᓃᒥᑕᓇ	-2388
▁ᐁᐊᓇᒥᐋ	-2389
▁ᐃᔑᓈᑾᓐ	-2390
▁ᐱᒥᓂᔕᐅ	-2391
▁ᐱᔑᒀᑎᓯ	-2392
▁ᐸᑴᔑᑲᓂ	-2393
▁ᑫᐃᔥᒀᓭ	-2394
▁ᑮᐃᔖᐗᒃ	-2395
▁ᓂᑭᑫᑖᓐ	-2396
▁ᐁᔑᓈᑯᓯᒡ	-2397
▁ᐅᑕᒑᑾᓐ᙮	-2398
▁ᑭᐴᔔᐃᑯᐙ	-2399
▁ᑭᑎᓂᓂᓂᒻ	-2400
▁ᒥᑖᔑᓃᔑᓐ	-2401
▁ᐅᑮᓇᑴᑕᐙᐞ	-2402
▁ᑳᐐᒋᐅᑌᐺᑕᒨ	-2403
ᑖᐎ	-2404
ᑫᑌ	-2405
ᑯᒫ	-2406
ᑲᒋ	-2407
ᓂᐅ	-2408
ᓰᑲ	-2409
ᓴᔅ	-2410
ᐊᐲᑌ	-2411
ᐎᓈᒡ	-2412
ᐹᐱᓄ	-2413
ᑕᐗᒃ	-2414
ᑖᑰᐞ	-2415
ᑖᔑᓃ	-2416
ᑯᐙᐞ	-2417
ᑯᓇᔦ	-2418
ᑲᓅᓂ	-2419
ᒋᐃᐌ	-2420
ᒦᑖᑫ	-2421
ᓇᒣᒃ	-2422
ᓈᐙᐞ	-2423
ᓱᐎᓐ	-2424
ᓵᑭᐋ	-2425
ᔔᓂᔮ	-2426
ᔥᑮᑮ	-2427
▁ᐃᓉ	-2428
▁ᐃᔥ	-2429
▁ᐊᓈ	-2430
▁ᑕᐃ	-2431
▁ᑮᑕ	-2432
▁ᓈᑫ	-2433
▁ᓴᒣ	-2434
ᐸᐃᑫᐎ	-2435
ᑫᒀᓂᒃ	-2436
ᒋᑫᓂᒡ	-2437
ᓵᑭᐃᐌ	-2438
ᔑᓂᓂᒡ	-2439
ᔥᑲᐙᒡ	-2440
▁ᐁᐐᒋ	-2441
▁ᐃᓂᓃ	-2442
▁ᐃᓇᑭ	-2443
▁ᐅᔕᐌ	-2444
▁ᐊᑭ᙮	-2445
▁ᑕᒦᓈ	-2446
▁ᑭᑌᐺ	-2447
▁ᑳᑕᓱ	-2448
▁ᑳᓇᑲ	-2449
▁ᒋᓂᐳ	-2450
▁ᒋᓇᐃ	-2451
▁ᒥᔅᑸ	-2452
▁ᓈᓇᓐ	-2453
▁ᔕᔒᐯ	-2454
ᑕᒫᑰᔦᒃ	-2455
ᑲᓂᓂᒃ᙮	-2456
ᔥᑳᑯᐙᒡ	-2457
▁ᐁᐊᔮᒡ	-2458
▁ᐃᓂᓃᐎ	-2459
▁ᐃᔑᑮᔗ	-2460
▁ᐅᔑᐲᐃ	-2461
▁ᐊᐎᔭ᙮	-2462
▁ᐋᐸᒋᑑ	-2463
▁ᐗᓂᔥᑳ	-2464
▁ᐯᕒᐊᓰ	-2465
▁ᐱᒫᒋᐃ	-2466
▁ᐱᓯᑕᐎ	-2467
▁ᑎᐯᒋᑫ	-2468
▁ᑮᒋᑭᐌ	-2469
▁ᑳᑮᑕᔑ	-2470
▁ᒌᒫᓂᕽ	-2471
▁ᑌᐺᐎᓐ᙮	-2472
▁ᑮᑕᓇᒥᐋ	-2473
▁ᐃᑭᑐᐎᓇᓐ	-2474
▁ᐃᓂᓂᐗᓐ᙮	-2475
▁ᐅᑑᑭᒫᒪᓐ	-2476
▁ᐅᑾᔭᒀᑎᓰ	-2477
▁ᐅᔥᑭᓃᑭᑴ	-2478
▁ᑎᐹᒋᒧᐎᓐ	-2479
▁ᑭᑭᑫᑖᒥᓐ	-2480
▁ᑮᐹᑏᓄᐗᐞ	-2481
▁ᑳᐃᓇᑌᓂᒃ	-2482
▁ᑳᓬᐊᓬᐄᐎ	-2483
▁ᐅᓇᔓᐌᐎᓂᓂ	-2484
▁ᑭᒋᐅᔑᐲᐃᑫ	-2485
▁ᑳᐱᒫᑎᓯᐙᒡ	-2486
▁ᐃᔅᕒᐃᔭᓬᐊᐞ	-2487
▁ᐅᑕᓄᑮᐋᑲᓇᓐ	-2488
ᐎᔑ	-2489
ᐗᐱ	-2490
ᐲᕽ	-2491
ᐸᑳ	-2492
ᑌᐁ	-2493
ᑭᐋ	-2494
ᑭᑦ	-2495
ᒫᔒ	-2496
ᓃᔥ	-2497
ᐌᒃ᙮	-2498
ᐴᔔᐋ	-2499
ᑎᐹᑐ	-2500
ᑎᐹᑯ	-2501
ᑎᑫᒫ	-2502
ᑎᑲᓂ	-2503
ᑕᑫᓐ	-2504
ᑫᐙᒡ	-2505
ᑭᑌᒃ	-2506
ᑭᓀᐱ	-2507
ᑭᓯᑌ	-2508
ᑲᓀᔮ	-2509
ᒋᑲᓂ	-2510
ᒣᒃ᙮	-2511
ᒥᐙᐞ	-2512
ᔭᐸᓐ	-2513
▁ᐁᐙ	-2514
▁ᐁᑌ	-2515
▁ᐙᑳ	-2516
▁ᐴᔔ	-2517
▁ᑕᔭ	-2518
▁ᒋᑭ	-2519
▁ᓈᐱ	-2520
▁ᓬᐄ	-2521
ᐊᔮᔦᒃ	-2522
ᑎᐸᐃᑫ	-2523
ᑎᐹᒋᒥ	-2524
ᑎᔦᒃ᙮	-2525
ᑲᓂᓂ᙮	-2526
ᒥᓂᓂᒻ	-2527
ᒪᒋᒋᑫ	-2528
ᓈᑾᑭᓐ	-2529
▁ᐁᒥᒋ	-2530
▁ᐃᔖᒡ	-2531
▁ᐅᑌᐃ	-2532
▁ᐅᑲᑮ	-2533
▁ᐊᐲᔥ	-2534
▁ᐙᓭᔮ	-2535
▁ᑖᑭᔅ	-2536
▁ᑭᑮᐱ	-2537
▁ᒫᒪᐤ	-2538
▁ᓂᑯᒋ	-2539
▁ᓃᑳᓇ	-2540
▁ᓃᑳᓐ	-2541
▁ᓃᔮᒃ	-2542
ᐎᓂᓈᓂᕽ	-2543
ᑎᐸᐊᒪᐙ	-2544
ᑕᒪᐎᓐᒡ	-2545
▁ᐁᐐᐅᒋ	-2546
▁ᐁᐸᑭᑎ	-2547
▁ᐁᑕᑕᐌ	-2548
▁ᐅᒪᒋᑑ	-2549
▁ᐊᓉᐲᐎ	-2550
▁ᐊᔮᐗᒃ	-2551
▁ᑳᐊᓄᑮ	-2552
▁ᑳᐙᐱᓯ	-2553
▁ᑳᐸᑭᑎ	-2554
▁ᒋᓈᓯᑲ	-2555
▁ᒥᓄᐊᔮ	-2556
▁ᒫᒪᑳᑌ	-2557
▁ᓵᑭᐃᐌ	-2558
ᑎᐱᓇᐌᐎᓯ	-2559
ᑲᔥᑭᑑᓰᓐ	-2560
ᑲᔥᑭᑕᒫᓱ	-2561
ᒋᑳᑌᓂᒃ᙮	-2562
▁ᐁᑎᐯᓂᒥ	-2563
▁ᐁᑭᑭᔥᑲ	-2564
▁ᐅᒑᓂᒥᓯ	-2565
▁ᐊᐎᔭᐞ᙮	-2566
▁ᑭᑭᓄᐃᑫ	-2567
▁ᑮᐃᓀᑕᒻ	-2568
▁ᑲᔥᑮᑎᐱ	-2569
▁ᓂᐱᒫᑎᓯ	-2570
▁ᓃᑕᓇᒥᐋ	-2571
▁ᐅᑕᓇᒥᐁᐎ	-2572
▁ᐱᓵᓂᓯᐎᓐ	-2573
▁ᑭᓇᑕᐌᓂᒥ	-2574
▁ᐅᒪᔥᑲᐎᓰᐎᓐ	-2575
▁ᐱᑾᒋᐊᔭᐋᐎᔕ	-2576
▁ᓰᑲᐊᑖᑫᐎᓂᓂ	-2577
▁ᔑᒫᑲᓂᔒᐎᑭᒫᓐ	-2578
ᐌᒀ	-2579
ᐌᓰ	-2580
ᐎᓰ	-2581
ᐎᕽ	-2582
ᐗᑭ	-2583
ᐗᓱ	-2584
ᑎᓈ	-2585
ᑎᔭ	-2586
ᑕᐊ	-2587
ᑰᒋ	-2588
ᑾᐞ	-2589
ᓂᔅ	-2590
ᓯᐸ	-2591
ᓯᑌ	-2592
ᔕᑳ	-2593
ᐃᓇᑭ	-2594
ᐗᓂᑑ	-2595
ᐗᓂᓂ	-2596
ᐙᓂᒡ	-2597
ᐙᕽ᙮	-2598
ᐱᒧᓭ	-2599
ᐱᓅᒌ	-2600
ᑎᓂᒡ	-2601
ᑖᑯᔅ	-2602
ᑯᐙ᙮	-2603
ᑯᔦᒃ	-2604
ᑳᓱᒡ	-2605
ᒌᑾᓃ	-2606
ᒥᐙᒡ	-2607
ᒥᓴᓐ	-2608
ᒫᐙᐞ	-2609
ᓂᑖᐎ	-2610
ᓭᒃ᙮	-2611
ᔖᑯᐌ	-2612
▁ᐊᔓ	-2613
▁ᐋᐌ	-2614
▁ᐸᑲ	-2615
▁ᑭᐸ	-2616
▁ᑭᓰ	-2617
▁ᑳᐲ	-2618
▁ᒣᓬ	-2619
▁ᓃᔓ	-2620
▁ᓬᐃ	-2621
ᐎᓂᒡ᙮	-2622
ᑎᐯᓂᒫ	-2623
ᑕᒧᐗᕽ	-2624
ᑕᓂᓂᒃ	-2625
ᑲᓅᓈᒡ	-2626
ᑳᓱᐙᒡ	-2627
ᒥᑰᔭᓐ	-2628
ᒦᑭᐌᒡ	-2629
ᒪᔥᑲᐌ	-2630
ᓂᑯᐙᒡ	-2631
ᓇᐌᓂᒥ	-2632
▁ᐁᑮᐋ	-2633
▁ᐁᓵᑭ	-2634
▁ᐅᑮᐋ	-2635
▁ᐊᑮᐎ	-2636
▁ᐋᓇᑮ	-2637
▁ᐗᑭᒋ	-2638
▁ᑳᐊᑳ	-2639
▁ᑳᑮᐋ	-2640
▁ᑳᑮᒪ	-2641
▁ᒋᒫᒌ	-2642
▁ᒦᑭᐌ	-2643
▁ᓃᐎᓐ	-2644
▁ᓈᓈᑫ	-2645
▁ᓈᓯᑳ	-2646
▁ᔖᑰᓱ	-2647
ᐎᑲᒥᑯᕽ	-2648
ᑕᒪᐎᓀᒃ	-2649
ᑯᐸᓀᓐ᙮	-2650
ᒥᑯᔥᑳᑌ	-2651
ᒫᓇᒑᓂᔑ	-2652
▁ᐁᐐᐃᔑ	-2653
▁ᐁᓂᑯᒃ	-2654
▁ᐁᓃᐸᐎ	-2655
▁ᐃᓀᓂᒥ	-2656
▁ᐃᓂᓂ᙮	-2657
▁ᐅᓃᒑᓂ	-2658
▁ᐯᐯᔑᒃ	-2659
▁ᐱᒫᑎᓰ	-2660
▁ᐱᓈᓯᑲ	-2661
▁ᑎᐹᑯᓂ	-2662
▁ᑮᐸᓯᑸ	-2663
▁ᑳᑭᑎᒫ	-2664
▁ᒋᑎᓄᐎ	-2665
▁ᒎᐗᐞ᙮	-2666
▁ᓇᑴᑕᒻ	-2667
ᐱᒫᑎᓯᓂᒡ	-2668
▁ᐁᑲᓇᐙᐸ	-2669
▁ᐃᓂᓃᓈᕽ	-2670
▁ᐃᔑᓈᑯᓯ	-2671
▁ᐄᒋᐸᑮᕽ	-2672
▁ᐅᑭᒋᓂᑭ	-2673
▁ᐅᑮᐃᑰᐞ	-2674
▁ᑭᑭᑫᓂᒫ	-2675
▁ᑲᒀᑕᑭᐃ	-2676
▁ᒫᒥᑲᐎᒃ	-2677
▁ᓃᑳᓇᔭᐄ	-2678
▁ᐃᐃᐌᓂᐗᐞ	-2679
▁ᐅᑕᔓᑕᒫᑫ	-2680
▁ᐊᐱᓅᒌᔕᓐ	-2681
▁ᐱᑾᑕᑲᒥᒃ	-2682
▁ᐱᒫᒋᐃᑰᐎ	-2683
▁ᑭᒋᐅᑭᒫᓐ	-2684
▁ᑳᐃᑭᑐᐙᒡ	-2685
▁ᐃᔅᕒᐃᔭᓬᐃ	-2686
▁ᐅᑎᓀᑕᒧᐎᓐ	-2687
▁ᐅᑭᒋᐊᓇᒥᐁᐎ	-2688
▁ᐋᔑᑌᔮᑎᑯᕽ᙮	-2689
▁ᑭᑫᑌᔭᐋᒥᓈᐸ	-2690
▁ᒪᒋᑑᑕᒧᐎᓐ᙮	-2691
▁ᑳᐐᒋᐅᑌᐺᑕᒨᒥᑰᔦᒃ	-2692
ᑌᓴ	-2693
ᑕᑐ	-2694
ᑴᑭ	-2695
ᑾᐊ	-2696
ᓄᐤ	-2697
ᓄᓄ	-2698
ᓵᒡ	-2699
ᔒᑖ	-2700
ᔖᐾ	-2701
ᔦᔥ	-2702
ᐃᒃ᙮	-2703
ᐎᓯᒃ	-2704
ᐐᓯᓃ	-2705
ᐙᐙᓐ	-2706
ᐯᔑᑴ	-2707
ᑑᑕᐎ	-2708
ᑭᑑᒡ	-2709
ᑭᓂᑫ	-2710
ᑰᔭᓐ	-2711
ᑲᓂᒥ	-2712
ᒥᓂ᙮	-2713
ᒪᒃ᙮	-2714
ᓀᐱᒡ	-2715
ᓈᓂᕽ	-2716
ᓭᑭᓐ	-2717
ᓵᐙᒡ	-2718
ᔅᑲᑌ	-2719
ᔔᒥᓈ	-2720
▁ᐐᓯ	-2721
▁ᐴᓯ	-2722
▁ᐸᕒ	-2723
▁ᑰᑰ	-2724
▁ᑳᒋ	-2725
▁ᑳᓇ	-2726
▁ᑾᔮ	-2727
▁ᒋᓅ	-2728
ᐃᑯᓈᓐ	-2729
ᐃᓈᑎᓯ	-2730
ᑕᒪᐎᑣ	-2731
ᑕᓯᓂᒃ	-2732
ᑖᓈᐙᓐ	-2733
ᑖᔑᓃᔑ	-2734
ᒥᑰᐎᓐ	-2735
ᒥᓉᑕᒻ	-2736
ᒪᔥᑲᐎ	-2737
ᓂᔕᐙᓐ	-2738
ᓇᐎᔥᑭ	-2739
ᔑᒀᑎᓯ	-2740
▁ᐁᑮᐗ	-2741
▁ᐃᔑᐊ	-2742
▁ᐅᐌᓂ	-2743
▁ᐅᐱᒣ	-2744
▁ᐊᒦᔥ	-2745
▁ᐐᑎᑫ	-2746
▁ᐐᒋᐃ	-2747
▁ᐱᓀᔒ	-2748
▁ᐲᐙᐱ	-2749
▁ᐸᔦᔥ	-2750
▁ᑑᑕᐎ	-2751
▁ᑫᐊᔮ	-2752
▁ᑮᑮᐌ	-2753
▁ᑮᒦᓈ	-2754
▁ᑮᒨᒋ	-2755
▁ᑳᒦᒋ	-2756
▁ᒉᑲᑉ	-2757
▁ᒋᐊᑕ	-2758
▁ᒥᑖᓱ	-2759
▁ᓀᐱᒡ	-2760
▁ᓂᑌᐺ	-2761
▁ᓬᐋᓴ	-2762
▁ᔑᑾᔥ	-2763
ᓂᔥᑳᑎᓯ	-2764
▁ᐁᑎᔮᒃ	-2765
▁ᐁᑮᐃᓀ	-2766
▁ᐙᐱᔥᑮ	-2767
▁ᐙᐹᐱᑯ	-2768
▁ᑫᐴᓂᓭ	-2769
▁ᑭᑫᓂᒥ	-2770
▁ᑭᔥᑮᔑ	-2771
▁ᑲᑮᑖᐌ	-2772
▁ᑳᐃᔑᐐ	-2773
▁ᒌᒥᓴᓐ	-2774
▁ᒫᔑᒥᑕ	-2775
▁ᓂᑑᑭᒫ	-2776
ᑭᑭᓄᐊᒪᐙ	-2777
▁ᐁᓈᓴᒦᒡ	-2778
▁ᐆᑌᓇᐗᓐ	-2779
▁ᐊᐱᓅᒌᔥ	-2780
▁ᐙᐸᓂᓂᒃ	-2781
▁ᑭᑌᐃᐙᕽ	-2782
▁ᑮᒫᒪᑳᑌ	-2783
▁ᑳᐌᓅᑎᓯ	-2784
▁ᒋᑎᐹᑯᓂ	-2785
▁ᐁᐃᔑᓂᑳᓱ	-2786
▁ᐁᐐᐃᔑᒋᑫ	-2787
▁ᐅᑮᐃᓈᐙᓐ	-2788
▁ᐊᐱᓅᒌᔕᒃ	-2789
▁ᓈᓴᕒᐃᑎᕽ	-2790
▁ᐅᑎᐹᒋᒧᐎᓐ	-2791
▁ᑌᐺᔦᑕᒧᐎᓐ	-2792
▁ᑳᓃᑳᓂᓯᐙᒡ	-2793
▁ᒋᐱᒫᒋᐃᐌᓂᒡ	-2794
ᐅᐌ	-2795
ᐅᓈ	-2796
ᐗᑳ	-2797
ᐙᐐ	-2798
ᐸᐐ	-2799
ᑕᐐ	-2800
ᑕᓄ	-2801
ᑭᐸ	-2802
ᑴᒡ	-2803
ᒀᓐ	-2804
ᒥᐌ	-2805
ᒧᒃ	-2806
ᓂᑣ	-2807
ᓂᑲ	-2808
ᓇᐞ	-2809
ᔅᑕ	-2810
ᔛᓐ	-2811
ᔭᐞ	-2812
ᔭᑌ	-2813
ᐅᑎᑎ	-2814
ᐎᐙᒡ	-2815
ᐗᔭᐄ	-2816
ᐱᐴᓐ	-2817
ᐱᓈᒡ	-2818
ᐸᐃᐌ	-2819
ᑕᒨᐞ	-2820
ᑖᐎᓯ	-2821
ᑖᑯᓰ	-2822
ᑖᒻ᙮	-2823
ᑮᓯᔅ	-2824
ᑰᐞ᙮	-2825
ᑾᒋᐱ	-2826
ᒋᑫᑰ	-2827
ᒋᑯᓇ	-2828
ᒥᑰᒻ	-2829
ᒥᓂᒀ	-2830
ᒥᔭᓐ	-2831
ᒦᓂᒃ	-2832
ᓀᓂᒫ	-2833
ᓈᒡ᙮	-2834
ᔥᑳᒃ	-2835
▁ᐅᒥ	-2836
▁ᑕᑶ	-2837
▁ᑫᐃ	-2838
▁ᑭᔒ	-2839
▁ᑯᑖ	-2840
▁ᑳᒫ	-2841
▁ᒋᐯ	-2842
▁ᒋᒫ	-2843
ᐸᔕᔐᐅ	-2844
ᐸᕒᓂᔭ	-2845
ᑎᐹᒋᒧ	-2846
ᑕᒪᕽ᙮	-2847
ᑖᑾᑭᓐ	-2848
ᑲᑴᒋᒥ	-2849
ᒥᑯᓂᒡ	-2850
ᒦᓂᓇᕽ	-2851
ᒫᑲᓇᐞ	-2852
ᓂᓯᑕᐎ	-2853
ᓂᓯᓐᒡ	-2854
ᓃᑭᐃᑰ	-2855
ᓇᒪᐙᒡ	-2856
ᓯᒥᑕᓇ	-2857
ᓯᓂᓂ᙮	-2858
▁ᐁᑎᓄ	-2859
▁ᐅᑮᒪ	-2860
▁ᐊᐊᔥ	-2861
▁ᐊᑖᐌ	-2862
▁ᐗᑎᑾ	-2863
▁ᐱᐴᓐ	-2864
▁ᐱᑮᐌ	-2865
▁ᑮᐃᓇ	-2866
▁ᑰᐹᓯ	-2867
▁ᑳᑭᑌ	-2868
▁ᑾᔭᑯ	-2869
▁ᒋᑌᐺ	-2870
▁ᒥᑎᒃ	-2871
▁ᒦᐗᐞ	-2872
▁ᓇᔥᑫ	-2873
▁ᓈᓯᑲ	-2874
ᑭᑫᒋᑳᑌ	-2875
ᑭᑭᓄᐊᒪ	-2876
ᓂᑯᐸᓀᓐ	-2877
ᓂᔕᐙᐙᒡ	-2878
ᔑᐸᐃᑫᐎ	-2879
▁ᐁᑮᑕᔑ	-2880
▁ᐃᑯᑎᕽ	-2881
▁ᐃᔑᐌᐸ	-2882
▁ᐃᔑᐎᓂ	-2883
▁ᐆᑌᓇ᙮	-2884
▁ᐊᒑᑾᓐ	-2885
▁ᐊᓯᓃᓐ	-2886
▁ᐋᓬᐃᑉ	-2887
▁ᐐᔭᐎᓂ	-2888
▁ᑲᓅᓈᓐ	-2889
▁ᑳᑑᑕᕽ	-2890
▁ᑳᒪᒋᑑ	-2891
▁ᒋᐐᓯᓂ	-2892
▁ᒋᓵᑭᒋ	-2893
▁ᒨᔥᑭᓀ	-2894
▁ᓂᐴᔔᐋ	-2895
▁ᓂᑯᑣᒃ	-2896
ᑌᐺᑕᒧᐎᓂ	-2897
ᑖᑾᓂᓂᑭᓐ	-2898
ᑮᔑᑲᓂᓂᒃ	-2899
▁ᐁᐊᓇᒥᐁ	-2900
▁ᐁᑮᓇᓈᑯ	-2901
▁ᐅᓵᐙᐱᑯ	-2902
▁ᐊᐎᔭᒃ᙮	-2903
▁ᐊᓄᑮᐎᓐ	-2904
▁ᐹᑏᓄᓂᒡ	-2905
▁ᑌᐺᒪᑲᓐ	-2906
▁ᑲᐸᕒᓂᔭ	-2907
▁ᑳᑮᐃᔑᐊ	-2908
▁ᑳᔒᑫᓂᒥ	-2909
▁ᒋᐐᑕᒫᑫ	-2910
▁ᓭᓴᕒᐄᔭ	-2911
▁ᔔᓂᔮᓴᐞ	-2912
ᒨᔥᑭᓀᔥᑳᑯ	-2913
▁ᐁᑮᐃᓈᐙᒡ	-2914
▁ᐁᓅᑕᒧᐙᒡ	-2915
▁ᐅᑎᔑᓂᑳᓱ	-2916
▁ᐅᑮᐙᐸᒫᓐ	-2917
▁ᐅᓃᒑᓂᓴᐞ	-2918
▁ᐆᑌᓇᐌᓯᕽ	-2919
▁ᑭᒋᐅᑭᒫᒃ	-2920
▁ᑳᐃᑭᑐᓂᒡ	-2921
▁ᑳᐃᓂᓇᑰᒃ	-2922
▁ᒋᑭᑫᑕᒣᒃ	-2923
▁ᒪᒋᐊᔭᐋᓐ	-2924
▁ᓵᑭᐃᐌᐎᓐ	-2925
▁ᐅᓇᔓᐌᐎᓂᕽ	-2926
▁ᑳᑮᐊᔓᑕᒫᑫ	-2927
▁ᑳᑭᑭᓄᐊᒫᑫᓂᒡ	-2928
ᐊᐌ	-2929
ᐎᑖ	-2930
ᐙᑳ	-2931
ᐲᑖ	-2932
ᐹᐃ	-2933
ᑎᒻ	-2934
ᑲᑌ	-2935
ᓇᑮ	-2936
ᓈᐎ	-2937
ᓵᐸ	-2938
ᔣᓱ	-2939
ᔩᒋ	-2940
▁ᐆ	-2941
▁ᒐ	-2942
▁–	-2943
ᐗᓀᓐ	-2944
ᐸᑭᒌ	-2945
ᐹᑎᓯ	-2946
ᑏᓇᑎ	-2947
ᑑᑕᕽ	-2948
ᑑᓈᐙ	-2949
ᑑᔮᓐ	-2950
ᑕᐌᒀ	-2951
ᑕᒥᐃ	-2952
ᑕᒥᓂ	-2953
ᑫᓂᒡ	-2954
ᑰᔮᓐ	-2955
ᑴᓐ᙮	-2956
ᒪᒦᒀ	-2957
ᒪᓇᓐ	-2958
ᓂᒥᒃ	-2959
ᓯᓇᐊ	-2960
ᔥᑲᕽ	-2961
ᕒᐄᓐ	-2962
▁ᐅᓀ	-2963
▁ᐯᑭ	-2964
▁ᑲᐯ	-2965
▁ᒦᑳ	-2966
ᐙᐙᒡ᙮	-2967
ᐱᒫᒋᐋ	-2968
ᑎᓯᒡ᙮	-2969
ᑕᑭᐸᓐ	-2970
ᑕᒪᐎᓐ	-2971
ᑯᓯᓂᒡ	-2972
ᑴᑳᑎᓯ	-2973
ᒦᓂᑯᐙ	-2974
ᓇᒥᓂᒡ	-2975
ᓈᑯᑑᒡ	-2976
ᓭᓂᒃ᙮	-2977
ᓯᑭᐸᓐ	-2978
ᔭᒥᓐᒡ	-2979
▁ᐁᐊᐞ	-2980
▁ᐅᑮᒦ	-2981
▁ᐊᐲᑌ	-2982
▁ᑕᑯᓂ	-2983
▁ᑫᐃᓈ	-2984
▁ᑫᒦᒋ	-2985
▁ᑭᑕᒑ	-2986
▁ᑭᑖᑮ	-2987
▁ᑭᑲᐱ	-2988
▁ᑭᓀᐱ	-2989
▁ᑳᐐᐱ	-2990
▁ᑳᐱᓯ	-2991
▁ᑳᐸᐹ	-2992
▁ᑳᒥᒋ	-2993
▁ᒋᑭᑭ	-2994
▁ᒋᓇᑲ	-2995
▁ᒥᓂᓯ	-2996
▁ᒦᑴᒋ	-2997
▁ᒪᔥᑯ	-2998
ᐎᓂᓂᐗᐞ	-2999
ᐎᓂᓃᕽ᙮	-3000
ᐱᒫᒋᐃᐌ	-3001
ᑭᑭᓇᐙᒋ	-3002
ᓂᑳᑌᒃ᙮	-3003
ᓇᒪᑕᐱᒡ	-3004
ᓈᓂᐗᕽ᙮	-3005
ᓰᑲᐊᑖᑫ	-3006
▁ᐁᐃᓈᒡ	-3007
▁ᐁᑮᐊᑕ	-3008
▁ᐁᒣᓐ᙮	-3009
▁ᐃᔑᓂᑳ	-3010
▁ᐅᑮᐊᔮ	-3011
▁ᐅᑮᒨᒋ	-3012
▁ᐋᓃᔛᓐ	-3013
▁ᐐᑕᒫᑫ	-3014
▁ᐲᑎᑫᒡ	-3015
▁ᐸᐸᑭᑌ	-3016
▁ᑭᑎᑳᓈ	-3017
▁ᑮᓃᐸᐎ	-3018
▁ᑳᑌᐺᔦ	-3019
▁ᑳᑲᔥᑭ	-3020
▁ᑳᓃᔣᒋ	-3021
▁ᒋᐊᓄᑮ	-3022
▁ᒋᐐᒌᐎ	-3023
▁ᒋᑲᔥᑭ	-3024
▁ᒣᕒᐄᓐ	-3025
▁ᒦᐗᑭᑭ	-3026
▁ᓂᐐᔭᐎ	-3027
▁ᓂᑮᐃᒃ	-3028
ᑭᑭᓄᐊᒪᐎ	-3029
ᒪᑲᓂᓂᑭᓐ	-3030
ᒪᑲᓂᓂᒃ᙮	-3031
▁ᐅᓃᑭᐃᑰ	-3032
▁ᐱᓯᑕᒧᒃ	-3033
▁ᐲᒋᓂᔕᐅ	-3034
▁ᑭᑲᐐᒌᐎ	-3035
▁ᒋᐱᒫᑎᓯ	-3036
▁ᓈᓈᑲᑕᐌ	-3037
▁ᔔᓂᔮᓐ᙮	-3038
ᓈᓂᐗᓂᓂᒃ᙮	-3039
▁ᐁᐃᔑᓭᓂᒃ	-3040
▁ᐅᑕᒑᑯᓂ᙮	-3041
▁ᐅᑯᓯᓯᒫᓐ	-3042
▁ᐹᐃᓬᐊᑑᓐ	-3043
▁ᑮᐃᔑᓂᑳᓱ	-3044
▁ᑳᐃᔑᐊᑕᐌ	-3045
▁ᓵᑲᐃᑲᓃᕽ	-3046
▁ᔑᒫᑲᓂᔕᐞ	-3047
▁ᐁᔑᐲᐃᑳᑌᒃ	-3048
▁ᐅᐙᑳᐃᑲᓂᕽ	-3049
▁ᐅᑌᐺᑕᒨᐞ᙮	-3050
▁ᐅᑎᑭᑐᐎᓂᓂ	-3051
▁ᐅᑭᒋᓂᑭᓃᕽ	-3052
▁ᐅᑮᓇᑴᑕᐙᓐ	-3053
▁ᑭᒋᐊᐱᐎᓂᕽ	-3054
▁ᑳᓃᑳᓂᓯᓂᒡ	-3055
▁ᐊᓇᒥᐁᐎᑭᒫᒃ	-3056
▁ᐱᑾᒋᐊᔭᐋᐎᔥ	-3057
▁ᑳᐃᔑᐲᐃᑳᑌᒃ	-3058
▁ᐅᑎᐹᒋᒧᐎᓂᓃᒪᓐ	-3059
▁ᑭᒋᐊᓇᒥᐁᐎᑲᒥᑯᕽ᙮	-3060
ᐅᓐ	-3061
ᐊᒀ	-3062
ᐎᒥ	-3063
ᐙᑌ	-3064
ᐙᓴ	-3065
ᐲᒃ	-3066
ᑎᒫ	-3067
ᑑᒃ	-3068
ᑖᒡ	-3069
ᓭᒡ	-3070
ᓭᓂ	-3071
ᓰᑭ	-3072
ᓴᐲ	-3073
ᓵᐞ	-3074
ᓵᒥ	-3075
ᔪᒃ	-3076
ᔭᑭ	-3077
ᔮᐲ	-3078
ᐃᓈᓐ	-3079
ᐱᓂᒡ	-3080
ᐴᓂᑑ	-3081
ᐸᑲᒥ	-3082
ᑎᑯᕽ	-3083
ᑖᐗᒃ	-3084
ᑭᑭᓐ	-3085
ᑯᐙᕽ	-3086
ᑯᓯᒡ	-3087
ᑰᐹᓯ	-3088
ᑲᑴᑗ	-3089
ᑳᓂᕽ	-3090
ᒫᓈᓐ	-3091
ᒫᓐ᙮	-3092
ᓂᑰᐞ	-3093
ᓬᐃᔭ	-3094
ᕒᐋᔭ	-3095
▁ᐅᐸ	-3096
▁ᐋᑲ	-3097
▁ᑮᐹ	-3098
▁ᑮᑌ	-3099
▁ᑯᑕ	-3100
▁ᑴᑭ	-3101
▁ᒋᒥ	-3102
▁ᓭᑲ	-3103
▁ᓵᒐ	-3104
ᐎᓈᐙᒡ	-3105
ᐐᒋᑭᐌ	-3106
ᐙᐱᔥᑭ	-3107
ᐯᔑᑯᒡ	-3108
ᑎᐹᑯᓂ	-3109
ᑲᒥᑯᓂ	-3110
ᒋᑑᐙᒡ	-3111
ᒥᓇᑰᒃ	-3112
ᓯᐙᓈᓐ	-3113
ᔖᑰᒋᑣ	-3114
ᔭᑭᐸᓐ	-3115
▁ᐁᑭᑭ	-3116
▁ᐃᓈᒡ	-3117
▁ᐌᑭᒫ	-3118
▁ᐙᐃᔑ	-3119
▁ᐲᑎᑲ	-3120
▁ᑕᐃᓀ	-3121
▁ᑭᑲᓂ	-3122
▁ᑳᑭᑭ	-3123
▁ᒋᑮᔑ	-3124
▁ᒋᒥᒋ	-3125
▁ᒋᒦᒋ	-3126
▁ᒥᓈᑾ	-3127
▁ᒦᐊᐌ	-3128
▁ᒫᒑᓐ	-3129
▁ᒫᕒᑕ	-3130
ᑖᑯᓯᔦᒃ	-3131
ᓂᔑᐗᓈᑕ	-3132
▁ᐁᐱᒧᓭ	-3133
▁ᐁᑌᐺᔦ	-3134
▁ᐁᑮᐅᒌ	-3135
▁ᐁᑮᑲᑴ	-3136
▁ᐁᔮᐙᒡ	-3137
▁ᐃᐃᐌᔥ	-3138
▁ᐃᑯᑕᓄ	-3139
▁ᐃᑴᐗᐞ	-3140
▁ᐃᓂᓃᕽ	-3141
▁ᐅᑎᓇᐌ	-3142
▁ᐅᔑᐲᐊ	-3143
▁ᐊᐊᐌᔥ	-3144
▁ᐐᑕᒪᐙ	-3145
▁ᐱᑕᑯᔑ	-3146
▁ᐸᓯᑸᓐ	-3147
▁ᑎᐸᐃᑫ	-3148
▁ᑕᑯᔑᓅ	-3149
▁ᑭᑮᐅᒋ	-3150
▁ᑳᐅᑖᐱ	-3151
▁ᑳᐐᐅᒋ	-3152
▁ᑳᑮᐃᓇ	-3153
▁ᑳᑮᒦᔑ	-3154
▁ᑳᒥᓍᐸ	-3155
▁ᑳᒫᐗᑑ	-3156
▁ᑳᒫᒪᐌ	-3157
▁ᑳᒫᒪᐎ	-3158
▁ᒋᐙᐸᑕ	-3159
▁ᒦᐗᓄᓄ	-3160
▁ᓂᑮᐃᓈ	-3161
ᑯᓯᓯᒥᑯᒡ	-3162
ᑲᒥᑲᓂᓂᒃ	-3163
ᓈᑾᓂᓂᑭᓐ	-3164
▁ᐁᑭᑫᓂᒥ	-3165
▁ᐁᑮᐅᑖᐱ	-3166
▁ᐃᔑᓭᓂᒃ	-3167
▁ᐃᔥᑯᑌᕽ	-3168
▁ᐅᐐᑎᑫᒫ	-3169
▁ᐅᑮᓈᓯᑲ	-3170
▁ᐊᔮᐎᓂᕽ	-3171
▁ᑭᒋᐆᑌᓇ	-3172
▁ᑭᒋᑮᔑᒃ	-3173
▁ᑲᓇᐌᒋᑫ	-3174
▁ᑳᑭᑭᔥᑲ	-3175
▁ᒋᒥᓄᐊᔮ	-3176
▁ᒋᒫᒥᑲᐎ	-3177
▁ᒦᓂᑰᐎᓯ	-3178
ᐱᒫᑎᓯᐙᒡ᙮	-3179
▁ᐃᑭᑑᒪᑲᓐ	-3180
▁ᐃᔅᕒᐃᔭᓬ	-3181
▁ᐃᔑᓈᑾᓂᓂ	-3182
▁ᐅᒑᓂᒥᓯᒻ	-3183
▁ᐊᐱᓅᒌᔕᐞ	-3184
▁ᑭᑭᑫᑕᓰᒻ	-3185
▁ᑲᔥᑭᑑᓰᓐ	-3186
▁ᑳᐱᒫᑎᓯᒡ	-3187
▁ᑳᑮᐊᔮᓂᒡ	-3188
▁ᐁᔑᓂᑳᓱᓂᒡ	-3189
▁ᑮᑮᐌᐱᒫᑎᓯ	-3190
▁ᑳᑲᓅᑕᒪᐙᒡ	-3191
▁ᒉᕒᐆᓴᓬᐊᒻ	-3192
▁ᒋᑮᐌᐱᒫᑎᓯ	-3193
▁ᓂᑎᑭᑐᐎᓇᓐ	-3194
▁ᐃᔑᓂᔕᐙᑲᓇᐞ	-3195
▁ᑳᐐᑕᒪᐎᓇᑰᒃ	-3196
▁ᐅᑎᐹᒋᒧᐎᓂᓃᒪᐞ	-3197
▁ᑭᒋᐊᓇᒥᐁᐎᑭᒫᓐ	-3198
▁ᑭᒋᐊᓇᒥᐁᐎᑲᒥᒃ	-3199
ᐅᐱ	-3200
ᐗᓀ	-3201
ᐹᑲ	-3202
ᐹᒡ	-3203
ᑭᓰ	-3204
ᑭᔑ	-3205
ᑲᑕ	-3206
ᑲᔅ	-3207
ᑾᐃ	-3208
ᒪᐗ	-3209
ᒫᕽ	-3210
ᓃᑫ	-3211
ᓄᑳ	-3212
ᓈᑐ	-3213
ᐋᒡ᙮	-3214
ᐐᑕᒪ	-3215
ᑆᓇᐎ	-3216
ᑎᓰᔑ	-3217
ᑎᓱᒡ	-3218
ᑕᑶᔑ	-3219
ᑖᓐ᙮	-3220
ᑯᓈᐙ	-3221
ᑰᓐ᙮	-3222
ᑳᓂᒃ	-3223
ᑾᔭᑴ	-3224
ᒋᑑᒡ	-3225
ᒫᔅᑲ	-3226
ᓃᑳᓀ	-3227
ᓇᑭᒡ	-3228
ᓈᓂᓐ	-3229
ᓯᑑᒡ	-3230
ᓰᑭᓇ	-3231
ᕒᐊᓐ	-3232
▁ᐄᐸ	-3233
▁ᐐᑾ	-3234
▁ᐗᑭ	-3235
▁ᑖᐅ	-3236
▁ᑫᑲ	-3237
▁ᑭᒥ	-3238
▁ᒋᒦ	-3239
▁ᒌᑭ	-3240
▁ᒦᔑ	-3241
▁ᓂᐹ	-3242
▁ᓅᔅ	-3243
▁ᓈᑯ	-3244
ᐊᔮᐙᒡ	-3245
ᐋᐙᒡ᙮	-3246
ᐋᐸᒋᐋ	-3247
ᑎᐎᓂᕽ	-3248
ᑎᐙᒡ᙮	-3249
ᑕᒪᐎᒃ	-3250
ᑕᓯᐙᓐ	-3251
ᑯᓯᐗᕽ	-3252
ᑳᑌᑭᓐ	-3253
ᒋᐃᑯᒡ	-3254
ᒋᑯᓇᔦ	-3255
ᒋᑳᑌᓂ	-3256
ᒪᑲᓅᓐ	-3257
ᓂᑲᓂᐎ	-3258
ᓂᓂᒡ᙮	-3259
ᓂᔕᐙᐞ	-3260
▁ᐁᑮᒫ	-3261
▁ᐁᒥᓄ	-3262
▁ᐃᑕᐙ	-3263
▁ᐃᑴᓭ	-3264
▁ᐃᓇᔥ	-3265
▁ᐃᔥᐯ	-3266
▁ᐃᔥᐸ	-3267
▁ᐐᓯᓃ	-3268
▁ᐸᐹᒣ	-3269
▁ᑕᐊᔮ	-3270
▁ᑫᑫᑦ	-3271
▁ᑭᓅᔐ	-3272
▁ᒋᐴᓂ	-3273
▁ᒋᔖᑰ	-3274
▁ᒦᑲᓇ	-3275
▁ᒫᒑᒃ	-3276
▁ᒫᒪᐎ	-3277
▁ᓂᑮᐊ	-3278
▁ᓂᓯᕽ	-3279
ᐎᓂᓂᒻ᙮	-3280
ᐎᓂᓈᓂᓐ	-3281
ᑕᒫᑯᓈᓐ	-3282
ᑖᑯᓯᐎᓐ	-3283
ᑖᑾᓯᓅᓐ	-3284
ᒪᑲᓯᓅᓐ	-3285
ᓈᑾᓯᓅᓐ	-3286
ᔕᐌᓂᒫᒡ	-3287
▁ᐁᐹᑏᓄ	-3288
▁ᐃᓀᑕᕽ	-3289
▁ᐅᑕᔮᓐ	-3290
▁ᐅᑮᐃᓇ	-3291
▁ᐅᑮᐅᔑ	-3292
▁ᐅᑮᒥᑲ	-3293
▁ᐅᒋᒋᓭ	-3294
▁ᐅᒪᓂᑑ	-3295
▁ᐅᓂᔑᔑ	-3296
▁ᐊᑳᒥᕽ	-3297
▁ᑎᒫᔅᑲ	-3298
▁ᑕᐃᔑᓭ	-3299
▁ᑭᑌᑌᐙ	-3300
▁ᑮᐱᐅᒋ	-3301
▁ᑮᐸᑭᑎ	-3302
▁ᑳᐃᔑᑲ	-3303
▁ᑳᐅᓈᐸ	-3304
▁ᑳᑮᑭᑐ	-3305
▁ᑳᓂᑖᐎ	-3306
▁ᒋᐃᔖᒡ	-3307
▁ᒋᐙᐸᒥ	-3308
▁ᒋᑎᐸᐊ	-3309
▁ᒥᓂᓯᕽ	-3310
▁ᒦᑲᓈᕽ	-3311
▁ᒪᒋᒋᑫ	-3312
▁ᒪᓂᑑᑳ	-3313
▁ᒪᔥᑲᐌ	-3314
▁ᒫᒑᒡ᙮	-3315
▁ᓂᑌᑌᓐ	-3316
▁ᓂᑮᐙᐸ	-3317
▁ᓂᑮᑭᒋ	-3318
▁ᓂᑯᑣᓱ	-3319
▁ᓲᑭᑌᐁ	-3320
ᒋᑳᑌᓂᑭᓐ	-3321
▁ᐃᓀᑖᑾᓐ	-3322
▁ᐃᔑᒋᑫᒃ	-3323
▁ᐅᐐᓱᐎᓐ	-3324
▁ᐅᑮᐃᑯᐙ	-3325
▁ᐅᑮᐃᔑᐎ	-3326
▁ᐌᑯᓀᓂᓂ	-3327
▁ᐯᕒᐊᓰᐞ	-3328
▁ᐱᓀᔒᔕᒃ	-3329
▁ᑎᐸᐃᑲᓐ	-3330
▁ᑭᑭᑭᓄᐊ	-3331
▁ᑮᐅᒋᐅᔑ	-3332
▁ᑲᑴᒋᒫᒡ	-3333
▁ᒥᓂᒀᑲᓐ	-3334
▁ᒫᓯᑑᓂᔮ	-3335
▁ᓂᑮᓅᑕᐙ	-3336
▁ᓂᓱᑮᔑᒃ	-3337
▁ᓭᑲᕒᐋᔭ	-3338
ᐐᑕᒪᐎᓂᓂᒻ	-3339
ᑕᒪᐎᓇᑰᒃ᙮	-3340
ᓂᔥᑳᑎᓯᐎᓐ	-3341
▁ᐁᐃᑭᑐᐙᒡ	-3342
▁ᐁᑕᓱᑮᔑᒃ	-3343
▁ᐃᔑᒋᑫᔦᒃ	-3344
▁ᐅᐐᓱᐎᓂᓂ	-3345
▁ᐅᑭᒋᐅᑭᒫ	-3346
▁ᐅᑮᐊᑐᒫᐞ	-3347
▁ᐅᑮᐙᐸᒫᐞ	-3348
▁ᐅᔑᐲᐃᑲᓐ	-3349
▁ᐐᒋᑭᐌᔭᓐ	-3350
▁ᐱᒫᑎᓯᒡ᙮	-3351
▁ᑕᑯᔑᓂᓂᒡ	-3352
▁ᑮᐌᐱᒫᑎᓯ	-3353
▁ᑲᑴᒋᒥᑯᒡ	-3354
▁ᑳᐃᒋᑳᑌᒃ	-3355
▁ᑳᐹᑏᓄᐙᒡ	-3356
▁ᓂᑭᔐᒪᓂᑑ	-3357
▁ᐁᐸᕒᐊᐋᒥᕽ	-3358
▁ᐐᑕᒪᐎᓇᑰᒃ	-3359
▁ᐯᒫᑎᓯᐙᒡ᙮	-3360
▁ᑳᐃᔑᓂᑳᓱᒡ	-3361
▁ᐁᑮᑮᐌᐱᒫᑎᓯ	-3362
▁ᐅᐱᒫᑎᓰᒪᐞ᙮	-3363
▁ᐅᑎᑭᑐᐎᓂᓂ᙮	-3364
▁ᑭᑭᓄᐊᒪᐙᑲᓐ	-3365
▁ᑳᐅᒋᑎᐯᑖᑯᓯ	-3366
▁ᑳᑎᐯᓂᒥᑯᐙᒡ	-3367
▁ᒉᕒᐆᓴᓬᐊᒥᕽ᙮	-3368
▁ᑭᑑᔑᐲᐊᒪᐎᓂᓂᒻ	-3369
ᐃᒡ	-3370
ᐗᐊ	-3371
ᐗᑮ	-3372
ᐸᒥ	-3373
ᑕᑖ	-3374
ᑯᑯ	-3375
ᑴᓄ	-3376
ᒋᕽ	-3377
ᒥᑴ	-3378
ᒦᓄ	-3379
ᒧᐙ	-3380
ᒪᐤ	-3381
ᓂᒣ	-3382
ᓇᓂ	-3383
ᔑᐌ	-3384
▁5	-3385
▁ᑣ	-3386
ᐃᑰᓐ	-3387
ᐊᔮᒃ	-3388
ᐎᓯᓅ	-3389
ᐎᔮᓐ	-3390
ᐗᓂᒧ	-3391
ᐱᓯᔅ	-3392
ᐲᑭᓂ	-3393
ᐸᒀᓀ	-3394
ᑎᒃ᙮	-3395
ᑑᒡ᙮	-3396
ᑑᓰᓐ	-3397
ᑕᐱᒫ	-3398
ᑳᐸᐐ	-3399
ᒥᑾᒃ	-3400
ᒦᓂᑣ	-3401
ᒪᑲᑌ	-3402
ᓂᓀᒃ	-3403
ᓂᓂ᙮	-3404
ᓂᔑᑫ	-3405
ᓇᒥᑑ	-3406
ᓇᒪᓐ	-3407
ᓇᒫᓱ	-3408
ᓈᑐᓀ	-3409
ᓯᐙᐙ	-3410
ᓱᓂᒡ	-3411
ᔥᑴᑭ	-3412
▁ᐁᐹ	-3413
▁ᐋᕒ	-3414
▁ᐐᐱ	-3415
▁ᐗᑸ	-3416
▁ᑭᐲ	-3417
▁ᑯᓵ	-3418
▁ᑳᐹ	-3419
▁ᒋᐃ	-3420
▁ᒌᑲ	-3421
▁ᒥᑲ	-3422
▁ᒥᓋ	-3423
ᐐᑑᑳᓱ	-3424
ᐐᒋᐊᔮ	-3425
ᐱᓅᒌᔑ	-3426
ᑎᓯᓂᒡ	-3427
ᑑᓈᐙᓐ	-3428
ᑕᐎᑾᒃ	-3429
ᑭᑫᑕᒨ	-3430
ᑭᑫᑖᓐ	-3431
ᑯᓈᓂᒃ	-3432
ᑰᔦᒃ᙮	-3433
ᑲᓅᓂᑎ	-3434
ᒥᑯᓈᓐ	-3435
ᒥᑳᐸᐎ	-3436
ᒦᓂᑰᓐ	-3437
ᒫᑲᓂᔒ	-3438
ᒫᒪᑳᓯ	-3439
ᓀᓂᒫᒡ	-3440
ᓂᒥᑯᒡ	-3441
ᓂᒫᐙᓐ	-3442
ᔥᑳᓂᒃ	-3443
▁ᐁᐅᓵ	-3444
▁ᐁᐐᐱ	-3445
▁ᐁᒪᑗ	-3446
▁ᐃᔖᓐ	-3447
▁ᐅᑑᒋ	-3448
▁ᐆᑌᓈ	-3449
▁ᐊᓉᐱ	-3450
▁ᐋᑯᓯ	-3451
▁ᐐᓀᑕ	-3452
▁ᐐᔭᐤ	-3453
▁ᐗᔦᔑ	-3454
▁ᐲᔖᓐ	-3455
▁ᑫᑎᒫ	-3456
▁ᒋᐱᓯ	-3457
▁ᒋᒥᓉ	-3458
▁ᒌᒫᓐ	-3459
▁ᒥᑖᔑ	-3460
▁ᓂᑲᒧ	-3461
▁ᓇᓈᑯ	-3462
▁ᓈᓂᕽ	-3463
▁ᔂᓬᐊ	-3464
ᐐᒌᐙᐙᒡ	-3465
ᐙᑯᐸᓀᓐ	-3466
ᑕᒣᑭᐸᓐ	-3467
ᑯᔑᓂᓂᒃ	-3468
ᒥᑯᐙᒡ᙮	-3469
ᒦᓂᑯᓈᓐ	-3470
ᓂᐗᓂᓂᒃ	-3471
ᓰᑲᐊᑖᓱ	-3472
▁ᐁᐅᑖᐱ	-3473
▁ᐁᑮᑌᐺ	-3474
▁ᐁᑲᓇᐌ	-3475
▁ᐁᓅᑕᕽ	-3476
▁ᐃᐃᐌᑎ	-3477
▁ᐃᓇᑭᒫ	-3478
▁ᐅᑎᐹᒋ	-3479
▁ᐅᑲᓇᐎ	-3480
▁ᐅᑳᐎᒥ	-3481
▁ᐊᓯᓃᐎ	-3482
▁ᑫᑮᐅᒋ	-3483
▁ᑭᑎᑭᑐ	-3484
▁ᑮᐃᔑᓭ	-3485
▁ᑮᐙᒋᑴ	-3486
▁ᑳᐃᔑᐅ	-3487
▁ᑳᐃᔑᒫ	-3488
▁ᑳᑮᒫᒌ	-3489
▁ᑳᑮᓂᑖ	-3490
▁ᑳᓃᑳᓂ	-3491
▁ᒋᑲᓇᐌ	-3492
▁ᒋᒥᓄᓭ	-3493
▁ᒋᒥᓍᐸ	-3494
▁ᒥᒋᓃᔥ	-3495
▁ᒥᓂᒃ᙮	-3496
▁ᓂᓃᒑᓂ	-3497
ᒋᑲᓂᐎᓂᒡ	-3498
ᒫᒪᑳᒋᒋᑫ	-3499
ᓇᒪᑕᐱᓂᒡ	-3500
▁ᐁᑮᔑᑲᒃ	-3501
▁ᐃᑴᐗᓐ᙮	-3502
▁ᐅᑖᐎᓂᕽ	-3503
▁ᐊᐌᓀᓇᒃ	-3504
▁ᑕᐱᒫᑎᓯ	-3505
▁ᑭᑭᓇᐙᒋ	-3506
▁ᑮᐃᓀᑕᓰ	-3507
▁ᑳᑭᑫᓂᒫ	-3508
▁ᑳᑮᐅᒌᒡ	-3509
▁ᒋᐃᓇᓄᑮ	-3510
▁ᒋᐊᓇᒥᐁ	-3511
▁ᒋᒪᔥᑲᐌ	-3512
▁ᒪᒋᐊᒑᒃ	-3513
▁ᓰᑲᐊᑖᓱ	-3514
▁ᐁᑾᔭᒀᑎᓯ	-3515
▁ᐅᑮᑭᑫᓂᒫ	-3516
▁ᐱᓯᑕᐎᔑᒃ	-3517
▁ᐸᔑᐸᐃᑫᐎ	-3518
▁ᑎᐹᑯᓂᑫᐎ	-3519
▁ᑖᐅᓂᔑᔑᓐ	-3520
▁ᑭᐸᑯᓭᓂᒥ	-3521
▁ᑭᑌᐺᔦᑕᒧ	-3522
▁ᑭᑭᑫᑖᓈᐙ	-3523
▁ᑳᑎᐯᓂᒫᒡ	-3524
▁ᑳᒥᑖᔑᓃᔑ	-3525
▁ᒋᐃᔑᓭᓂᒃ	-3526
▁ᒪᓯᓇᐃᑲᓐ	-3527
▁ᓃᑕᓇᒥᐋᒃ	-3528
ᑭᑭᓇᐙᑕᔕᑫᔓ	-3529
▁ᐅᑮᐅᑖᐱᓈᓐ	-3530
▁ᐅᑮᐐᑕᒪᐙᐞ	-3531
▁ᐐᑕᒪᐎᔑᓈᒻ	-3532
▁ᑌᐺᑕᒧᐎᓂᕽ	-3533
▁ᑭᑭᓇᐙᑕᔕᑫ	-3534
▁ᑮᔑᑲᓂᓂᒃ᙮	-3535
▁ᑳᐅᔫᓯᒥᓐᒡ	-3536
▁ᑳᑮᐃᔑᒋᑫᒡ	-3537
▁ᑳᑮᐅᓈᐸᒫᒡ	-3538
▁ᔕᐌᑖᑯᓯᐗᒃ	-3539
▁ᐃᓀᑖᑯᓯᐎᓐ᙮	-3540
▁ᐅᑎᐯᒋᑫᐎᓐ᙮	-3541
▁ᑭᑭᓄᐊᒪᐙᑲᓇ	-3542
▁ᐱᑾᒋᐊᔭᐋᐎᔕᓐ	-3543
▁ᑭᓇᑕᐌᓂᒥᓂᓂᒻ	-3544
ᐁᒃ	-3545
ᐃᓐ	-3546
ᐊᒃ	-3547
ᐌᔑ	-3548
ᐱᐴ	-3549
ᐱᔭ	-3550
ᐴᑖ	-3551
ᐴᓯ	-3552
ᑑᑖ	-3553
ᑖᒃ	-3554
ᑭᑣ	-3555
ᒑᑭ	-3556
ᒥᑮ	-3557
ᒨᔕ	-3558
ᒫᑖ	-3559
ᒸᒡ	-3560
ᓭᑳ	-3561
ᓰᑴ	-3562
ᔕᑮ	-3563
ᔖᐳ	-3564
ᔫᓐ	-3565
ᕒᐁ	-3566
ᕒᓃ	-3567
▁!	-3568
ᐃᔑᓐ	-3569
ᐊᔭᐄ	-3570
ᐋᓂᒡ	-3571
ᐗᑭᓐ	-3572
ᐲᐎᑌ	-3573
ᐸᑭᔑ	-3574
ᑎᔭᕽ	-3575
ᑫᒡ᙮	-3576
ᑯᒫᓐ	-3577
ᑰᒃ᙮	-3578
ᑳᓂᓯ	-3579
ᒥᓂᒃ	-3580
ᒨᒋᑫ	-3581
ᒪᒥᔑ	-3582
ᓂᐳᒡ	-3583
ᓂᑲᒧ	-3584
ᓃᓇᒥ	-3585
ᓇᐌᓯ	-3586
ᓉᐙᓇ	-3587
ᓭᓂᒡ	-3588
ᓯᐙᕽ	-3589
ᔕᒃ᙮	-3590
ᔥᑴᐲ	-3591
ᔦᒀᒥ	-3592
▁ᐁᐗ	-3593
▁ᐗᓂ	-3594
▁ᑎᐯ	-3595
▁ᑎᑎ	-3596
▁ᑕᓅ	-3597
▁ᑮᑰ	-3598
▁ᑮᑲ	-3599
▁ᑮᒥ	-3600
▁ᑳᒦ	-3601
▁ᑳᔮ	-3602
▁ᒋᐗ	-3603
▁ᒑᐸ	-3604
▁ᒦᑭ	-3605
▁ᒦᓇ	-3606
▁ᓇᑭ	-3607
▁ᓈᑲ	-3608
▁ᔖᐳ	-3609
ᐃᑎᓱᒡ	-3610
ᐐᑕᒫᑫ	-3611
ᑌᓂᒃ᙮	-3612
ᑏᑭᓀᐱ	-3613
ᑕᐌᑖᓐ	-3614
ᑕᐎᔭᓐ	-3615
ᑭᑐᓂᒡ	-3616
ᑳᓂᑮᔗ	-3617
ᒋᐋᐙᒡ	-3618
ᒋᑫᒡ᙮	-3619
ᒋᒥᓴᐌ	-3620
ᒌᑾᓇᐲ	-3621
ᒥᑯᔥᑳ	-3622
ᒫᒋᑾᐱ	-3623
ᓂᓂᐗᓐ	-3624
ᓂᔕᐅᔑ	-3625
ᓇᓈᑯᒫ	-3626
ᓰᓈᐙ᙮	-3627
ᔥᑳᑰᓐ	-3628
▁ᐁᐱᓯ	-3629
▁ᐁᑕᑯ	-3630
▁ᐁᒫᒌ	-3631
▁ᐁᓂᑖ	-3632
▁ᐁᔑᔭ	-3633
▁ᐃᑭᔥ	-3634
▁ᐃᑴ᙮	-3635
▁ᐃᔖᒃ	-3636
▁ᐅᐱᓯ	-3637
▁ᐅᑎᐯ	-3638
▁ᐅᑕᑮ	-3639
▁ᐅᑲᓂ	-3640
▁ᐅᑲᓅ	-3641
▁ᐋᓃᑎ	-3642
▁ᐐᒋᐋ	-3643
▁ᐗᑭᑕ	-3644
▁ᐗᓂᑑ	-3645
▁ᐙᐸᕽ	-3646
▁ᐯᔑᒀ	-3647
▁ᑕᓯᕽ	-3648
▁ᑭᑮᐅ	-3649
▁ᑭᑮᐊ	-3650
▁ᑭᑮᓅ	-3651
▁ᑭᑲᔑ	-3652
▁ᑮᐃᑎ	-3653
▁ᑮᑮᔑ	-3654
▁ᑰᐹᑌ	-3655
▁ᑳᐅᑎ	-3656
▁ᑳᑭᑎ	-3657
▁ᒋᐲᔖ	-3658
▁ᒋᐸᒥ	-3659
▁ᒫᑲᑕ	-3660
▁ᓂᐲᓂ	-3661
▁ᓂᑮᐅ	-3662
▁ᓰᐲᕽ	-3663
▁ᔔᒥᓇ	-3664
ᐋᐸᒋᑑᒡ	-3665
ᐲᒋᓂᔕᐅ	-3666
ᐸᑭᑎᓇᕽ	-3667
ᑎᐸᐃᑲᓐ	-3668
ᑖᑯᓯᒡ᙮	-3669
ᒋᑳᑌᐗᓐ	-3670
ᒋᒥᒥᓐᒡ	-3671
ᒪᒋᑑᑕᕽ	-3672
ᓂᓂᑭᓐ᙮	-3673
ᓇᑰᑭᐸᓐ	-3674
ᔦᑭᐸᓐ᙮	-3675
▁ᐁᐱᓴᔅ	-3676
▁ᐁᐸᑯᓭ	-3677
▁ᐁᑮᒥᒋ	-3678
▁ᐁᑮᓇᑲ	-3679
▁ᐃᔑᐌᐱ	-3680
▁ᐄᐸᕒᐆ	-3681
▁ᐅᑌᐺᔦ	-3682
▁ᐅᑮᐊᐎ	-3683
▁ᐊᐌᓀᓂ	-3684
▁ᐊᐯᓂᒧ	-3685
▁ᐊᓯᓃᐞ	-3686
▁ᐊᔕᐙᐱ	-3687
▁ᐐᒌᐙᒡ	-3688
▁ᐙᐸᒫᒡ	-3689
▁ᐱᓯᑲᒧ	-3690
▁ᑕᑯᔑᓐ	-3691
▁ᑫᐊᐲᒋ	-3692
▁ᑭᒋᐅᑳ	-3693
▁ᑮᐊᓅᑮ	-3694
▁ᑳᐊᔮᒃ	-3695
▁ᑳᐱᐅᒋ	-3696
▁ᑳᑮᐊᔓ	-3697
▁ᑴᑳᑎᓯ	-3698
▁ᒋᓂᓯᑐ	-3699
▁ᒋᓈᓈᑲ	-3700
▁ᓂᑮᐃᓀ	-3701
ᓂᑳᑌᓂᒃ᙮	-3702
▁ᐁᐊᔮᓂᒡ	-3703
▁ᐁᑭᑫᓂᒫ	-3704
▁ᐁᑮᒦᓈᒡ	-3705
▁ᐁᕒᐊᑕᓐ	-3706
▁ᐃᓀᓂᑎᓱ	-3707
▁ᐅᑮᑲᑴᒋ	-3708
▁ᐅᑯᓯᓴᐞ	-3709
▁ᐅᑲᔥᑮᑮ	-3710
▁ᐅᓃᒑᓂᓯ	-3711
▁ᐅᓇᔓᐌᐎ	-3712
▁ᐙᐃᔑᒋᑫ	-3713
▁ᑭᑫᓂᒫᐞ	-3714
▁ᑭᔐᐙᑎᓯ	-3715
▁ᑲᓅᓂᑰᓐ	-3716
▁ᑳᐃᓇᑌᒃ	-3717
▁ᑳᐃᔑᑌᐺ	-3718
▁ᑳᐅᑭᒫᑲ	-3719
▁ᑳᐅᒌᐙᒡ	-3720
▁ᑳᐊᔮᑭᓐ	-3721
▁ᑳᑮᐃᔥᒀ	-3722
▁ᑳᒦᓂᓀᒃ	-3723
▁ᒋᐅᑭᒫᑲ	-3724
▁ᒋᑭᑫᓂᒥ	-3725
▁ᓂᑮᐃᒃ᙮	-3726
▁ᓇᑴᑕᐙᒡ	-3727
▁ᓴᒣᕒᐃᔭ	-3728
ᐊᓇᒥᐁᐎᑭᒫ	-3729
ᑭᑭᓄᐊᒫᑫᒡ	-3730
▁ᐁᔑᓂᑳᓱᒡ	-3731
▁ᐊᔓᑕᒫᑫᒡ	-3732
▁ᐐᒋᑭᐌᔭᐞ	-3733
▁ᐱᓈᓯᑳᑰᐞ	-3734
▁ᑭᑎᑫᐎᓂᓂ	-3735
▁ᑳᐊᔮᐙᒡ᙮	-3736
▁ᑳᐱᒥᓂᔕᐅ	-3737
▁ᑳᑌᐺᔦᓂᒥ	-3738
▁ᑳᑮᐊᔮᐙᒡ	-3739
▁ᒥᓯᐌᑲᒥᒃ	-3740
▁ᒪᒋᐊᒑᑾᒃ	-3741
▁ᒫᔑᒥᑕᑎᒨ	-3742
ᐊᓇᒥᐁᐎᑭᒫᐎ	-3743
ᒫᐗᒋᐃᑎᓂᒡ᙮	-3744
▁ᐃᓀᑖᑯᓯᓂᒡ	-3745
▁ᐃᔑᐲᐃᑳᑌ᙮	-3746
▁ᐊᓄᑮᐋᑲᓇᓐ	-3747
▁ᐱᓵᓀᑕᒧᐎᓐ	-3748
▁ᑳᐃᔑᓂᑳᑌᒃ	-3749
▁ᒋᐃᔑᐱᒫᑎᓯ	-3750
▁ᒋᑲᔥᑭᑑᔦᒃ	-3751
▁ᒪᒋᐊᒑᑾᐞ᙮	-3752
▁ᒪᓯᓇᐃᑲᓂᕽ	-3753
▁ᐅᑎᐯᒋᑫᐎᓂᓂ	-3754
▁ᐅᑎᓈᑯᓂᑫᐎᓐ	-3755
▁ᑳᐅᓂᔑᔑᓂᓂᒃ	-3756
▁ᑳᑮᑮᐌᐱᒫᑎᓯ	-3757
▁ᑭᑭᔐᒪᓂᑑᒥᓈᓐ	-3758
▁ᑭᒋᐅᔑᐲᐃᑫᐎᓐ	-3759
▁ᑳᓃᑳᓀᑖᑯᓯᓂᒡ	-3760
▁ᓇᐃᓂᑏᐎᑲᒥᑯᕽ	-3761
ᐊᐱ	-3762
ᐊᑯ	-3763
ᐋᔩ	-3764
ᐎᑑ	-3765
ᐎᔅ	-3766
ᐗᒋ	-3767
ᐱᓐ	-3768
ᐲᐅ	-3769
ᐲᒶ	-3770
ᐸᑑ	-3771
ᑭᓵ	-3772
ᑮᔖ	-3773
ᑴᑮ	-3774
ᑾᒡ	-3775
ᓄᑲ	-3776
ᓍᐸ	-3777
ᔑᒻ	-3778
▁8	-3779
ᐋᓇᐌ	-3780
ᐌᐱᓈ	-3781
ᐗᒡ᙮	-3782
ᐲᑎᑲ	-3783
ᐸᑴᔑ	-3784
ᐸᓂᐅ	-3785
ᑌᒃ᙮	-3786
ᑑᓇᓐ	-3787
ᑕᐎᔭ	-3788
ᑕᐗᑳ	-3789
ᑮᔑᑾ	-3790
ᑰᐎᓐ	-3791
ᑲᑭᓇ	-3792
ᑲᓄᕽ	-3793
ᒋᐃᑯ	-3794
ᒋᑲᓈ	-3795
ᒥᐙᒃ	-3796
ᒥᑣ᙮	-3797
ᒪᒋᐅ	-3798
ᒫᐎᒡ	-3799
ᒫᒑᒡ	-3800
ᓂᔑᐌ	-3801
ᓇᒫᓐ	-3802
ᓈᐱᒃ	-3803
ᓬᐃᐁ	-3804
ᓭᐙᒡ	-3805
ᓯᑰᓐ	-3806
ᓰᐗᐞ	-3807
ᔅᑕᔅ	-3808
ᔐᐹᐗ	-3809
ᔖᑰᓱ	-3810
ᔥᑯᓯ	-3811
ᕒᐃᐸ	-3812
ᕒᐃᔅ	-3813
▁ᐊᑫ	-3814
▁ᐊᑯ	-3815
▁ᐊᒀ	-3816
▁ᑫᔭ	-3817
▁ᑮᓇ	-3818
▁ᑳᓴ	-3819
▁ᑳᔭ	-3820
▁ᓭᑕ	-3821
▁ᔒᑫ	-3822
ᐃᑯᐙᓐ	-3823
ᐃᑰᔦᒃ	-3824
ᐅᒋᒋᓭ	-3825
ᐐᒋᐃᐌ	-3826
ᐙᓴᑯᓀ	-3827
ᐱᓯᔅᑫ	-3828
ᐸᑭᓈᑫ	-3829
ᐸᓭᓂᒧ	-3830
ᑕᒪᐙᓐ	-3831
ᑕᒫᕽ᙮	-3832
ᑖᑯᒡ᙮	-3833
ᑖᑾᒃ᙮	-3834
ᑭᒋᑳᑌ	-3835
ᑲᓅᓂᑰ	-3836
ᑳᐸᐎᒡ	-3837
ᒀᓂᓴᑫ	-3838
ᒣᑖᑯᓯ	-3839
ᒥᑰᐞ᙮	-3840
ᒫᑲᓇᒃ	-3841
ᓂᓇᑰᒃ	-3842
ᓂᓵᐙᒡ	-3843
ᓇᐁᑕᒥ	-3844
ᓈᑕᐙᐸ	-3845
ᓬᐃᓯᐸ	-3846
ᓬᐊᓴᓐ	-3847
ᓯᓅᓇᓐ	-3848
▁	-3849
ᓂ	-3850
ᐃ	-3851
ᓐ	-3852
ᑭ	-3853
ᑕ	-3854
ᒋ	-3855
ᑮ	-3856
ᑳ	-3857
ᐅ	-3858
ᐊ	-3859
ᑲ	-3860
ᒡ	-3861
ᒃ	-3862
ᔥ	-3863
ᔑ	-3864
ᐙ	-3865
᙮	-3866
ᓇ	-3867
ᐎ	-3868
,	-3869
ᐁ	-3870
ᒫ	-3871
ᑯ	-3872
ᑫ	-3873
ᓯ	-3874
ᒥ	-3875
ᑎ	-3876
ᐱ	-3877
ᐌ	-3878
ᒪ	-3879
ᐐ	-3880
ᓈ	-3881
ᕽ	-3882
ᐗ	-3883
ᒦ	-3884
ᐸ	-3885
ᔦ	-3886
ᐋ	-3887
ᑑ	-3888
ᑌ	-3889
ᑖ	-3890
ᓴ	-3891
ᓃ	-3892
ᔮ	-3893
ᔭ	-3894
ᑰ	-3895
ᐯ	-3896
ᓀ	-3897
ᐲ	-3898
ᐞ	-3899
ᓄ	-3900
ᑾ	-3901
ᔐ	-3902
ᓰ	-3903
ᑐ	-3904
ᔅ	-3905
ᓅ	-3906
ᔕ	-3907
ᒧ	-3908
ᒻ	-3909
ᒀ	-3910
:	-3911
ᑴ	-3912
ᒌ	-3913
ᐹ	-3914
ᓱ	-3915
ᓭ	-3916
ᒣ	-3917
ᓵ	-3918
ᓬ	-3919
ᕒ	-3920
ᐺ	-3921
ᒨ	-3922
ᒑ	-3923
ᔖ	-3924
ᐄ	-3925
?	-3926
ᐆ	-3927
ᔓ	-3928
!	-3929
ᒎ	-3930
ᐴ	-3931
X	-3932
ᑦ	-3933
ᓲ	-3934
ᑣ	-3935
ᐳ	-3936
ᔒ	-3937
ᔔ	-3938
ᓉ	-3939
ᑏ	-3940
ᓍ	-3941
ᒐ	-3942
ᑆ	-3943
ᐤ	-3944
ᒉ	-3945
ᑸ	-3946
ᒞ	-3947
ᔫ	-3948
ᔣ	-3949
ᑉ	-3950
ᔨ	-3951
0	-3952
ᔂ	-3953
ᔗ	-3954
;	-3955
ᑗ	-3956
ᔩ	-3957
2	-3958
ᑶ	-3959
3	-3960
ᓶ	-3961
1	-3962
ᔪ	-3963
4	-3964
7	-3965
ᒬ	-3966
ᒸ	-3967
ᓋ	-3968
ᐾ	-3969
ᔛ	-3970
ᒶ	-3971
5	-3972
ᒍ	-3973
–	-3974
8	-3975
ᔀ	-3976
ᔾ	-3977
6	-3978
9	-3979
ᔡ	-3980
(	-3981
)	-3982
.	-3983
x	-3984
"	-3985
/	-3986
Z	-3987
[	-3988
]	-3989
a	-3990
u	-3991
~	-3992
ᐧ	-3993
ᐼ	-3994
ᑡ	-3995
ᒒ	-3996
