<pad>	0
</s>	0
<unk>	0
▁¦	-0
er	-1
no	-2
▁d	-3
re	-4
▁s	-5
▁c	-6
to	-7
an	-8
el	-9
la	-10
▁p	-11
li	-12
▁i	-13
▁𐋇	-14
ti	-15
on	-16
▁a	-17
te	-18
ra	-19
ri	-20
ro	-21
▁e	-22
▁di	-23
di	-24
ta	-25
en	-26
le	-27
lo	-28
▁m	-29
ch	-30
gli	-31
es	-32
ia	-33
io	-34
▁,	-35
▁f	-36
qu	-37
tu	-38
co	-39
al	-40
un	-41
in	-42
▁v	-43
se	-44
si	-45
▁il	-46
ar	-47
po	-48
do	-49
uo	-50
sa	-51
va	-52
▁la	-53
▁ch	-54
gno	-55
▁del	-56
▁in	-57
da	-58
ca	-59
▁S	-60
▁per	-61
ci	-62
me	-63
mo	-64
de	-65
▁co	-66
so	-67
non	-68
▁g	-69
▁n	-70
gnore	-71
▁tu	-72
▁che	-73
il	-74
▁al	-75
▁qu	-76
tto	-77
▁con	-78
vi	-79
ma	-80
per	-81
che	-82
mi	-83
ce	-84
st	-85
▁o	-86
za	-87
vo	-88
▁Si	-89
▁«	-90
con	-91
era	-92
▁le	-93
ve	-94
▁lo	-95
▁un	-96
▁l	-97
▁I	-98
▁po	-99
tti	-100
▁non	-101
gi	-102
ere	-103
igli	-104
ché	-105
pa	-106
▁D	-107
▁si	-108
▁Signore	-109
▁su	-110
del	-111
pi	-112
▁ri	-113
▁G	-114
anno	-115
na	-116
tro	-117
▁so	-118
▁se	-119
ter	-120
su	-121
▁A	-122
one	-123
▁pa	-124
▁de	-125
zi	-126
▁'	-127
ne	-128
tà	-129
▁da	-130
▁re	-131
▁h	-132
ui	-133
ni	-134
▁ca	-135
sse	-136
▁ma	-137
▁b	-138
ero	-139
▁vi	-140
▁vo	-141
▁E	-142
▁nel	-143
▁è	-144
rono	-145
tra	-146
▁loro	-147
▁te	-148
or	-149
bb	-150
▁:	-151
▁an	-152
ac	-153
tte	-154
ando	-155
sto	-156
▁suo	-157
▁M	-158
bi	-159
▁figli	-160
▁gli	-161
chi	-162
▁ci	-163
▁C	-164
▁Dio	-165
sc	-166
ele	-167
▁mi	-168
pre	-169
min	-170
fa	-171
fi	-172
gg	-173
▁pre	-174
sra	-175
▁P	-176
men	-177
signore	-178
▁fa	-179
tta	-180
iu	-181
▁ha	-182
anti	-183
tre	-184
▁no	-185
vano	-186
eri	-187
▁dal	-188
ior	-189
ss	-190
▁me	-191
ani	-192
▁della	-193
sti	-194
ven	-195
▁pi	-196
erà	-197
▁perché	-198
cco	-199
▁ques	-200
▁come	-201
▁pro	-202
sta	-203
ssi	-204
nel	-205
▁dei	-206
go	-207
ba	-208
loro	-209
▁tuo	-210
elli	-211
▁u	-212
pe	-213
▁;	-214
rà	-215
ese	-216
sso	-217
zione	-218
oni	-219
anto	-220
sraele	-221
gu	-222
du	-223
arà	-224
que	-225
ver	-226
tri	-227
▁una	-228
cia	-229
▁sono	-230
ga	-231
polo	-232
zo	-233
ru	-234
▁li	-235
ran	-236
ene	-237
enza	-238
▁era	-239
ssa	-240
▁N	-241
cca	-242
▁do	-243
▁ne	-244
sco	-245
figli	-246
man	-247
mp	-248
dio	-249
lla	-250
lora	-251
▁ave	-252
▁sa	-253
sì	-254
▁.	-255
zia	-256
erò	-257
▁L	-258
gni	-259
zza	-260
▁mo	-261
▁ti	-262
ff	-263
suo	-264
sci	-265
▁io	-266
eli	-267
terra	-268
ha	-269
dre	-270
uomo	-271
▁disse	-272
▁sta	-273
▁alla	-274
fe	-275
▁sua	-276
esti	-277
cen	-278
▁mio	-279
ggi	-280
tor	-281
dei	-282
▁tutti	-283
una	-284
Qu	-285
▁figlio	-286
ttà	-287
ria	-288
iorno	-289
elo	-290
ten	-291
rai	-292
▁Il	-293
pp	-294
▁»	-295
▁fu	-296
ello	-297
usa	-298
▁par	-299
▁ven	-300
▁B	-301
▁voi	-302
perché	-303
mini	-304
spo	-305
dal	-306
rta	-307
chia	-308
giu	-309
vanti	-310
▁Qu	-311
▁suoi	-312
zzo	-313
lta	-314
pro	-315
vide	-316
ron	-317
come	-318
▁T	-319
della	-320
gna	-321
▁sac	-322
▁av	-323
▁Ma	-324
ente	-325
oi	-326
stro	-327
▁popolo	-328
▁lui	-329
rò	-330
▁man	-331
bo	-332
stri	-333
▁ai	-334
▁giu	-335
mme	-336
ques	-337
enti	-338
fu	-339
ini	-340
stra	-341
mpo	-342
▁nella	-343
cu	-344
ser	-345
iamo	-346
ed	-347
pri	-348
condo	-349
bbe	-350
uomini	-351
rat	-352
▁questo	-353
▁Al	-354
▁F	-355
cchi	-356
ste	-357
par	-358
cor	-359
esù	-360
qua	-361
unque	-362
▁chi	-363
erai	-364
▁tra	-365
sono	-366
▁Giu	-367
uto	-368
▁più	-369
ave	-370
▁terra	-371
▁fe	-372
gia	-373
ei	-374
anza	-375
lui	-376
ai	-377
dò	-378
gge	-379
gh	-380
▁Da	-381
erdo	-382
ab	-383
▁sarà	-384
rito	-385
▁dell	-386
egli	-387
▁contro	-388
».	-389
eranno	-390
▁com	-391
▁ser	-392
cri	-393
ranno	-394
▁Israele	-395
▁aveva	-396
▁ver	-397
▁egli	-398
▁paese	-399
▁tua	-400
▁ra	-401
▁fi	-402
lto	-403
▁Sa	-404
ato	-405
▁città	-406
▁ho	-407
▁sul	-408
lemme	-409
▁R	-410
▁quel	-411
uni	-412
sè	-413
▁tutto	-414
▁for	-415
▁casa	-416
sero	-417
▁-	-418
▁pri	-419
dere	-420
▁qua	-421
mento	-422
mpio	-423
▁O	-424
mon	-425
esso	-426
▁mia	-427
▁giorno	-428
rio	-429
cio	-430
ciò	-431
▁paro	-432
erusa	-433
erusalemme	-434
disse	-435
ul	-436
ad	-437
anta	-438
alla	-439
▁ad	-440
▁anche	-441
figlio	-442
tt	-443
endo	-444
fatti	-445
mpa	-446
▁degli	-447
sce	-448
eliti	-449
▁poi	-450
tua	-451
▁du	-452
uore	-453
▁pe	-454
sraeliti	-455
▁tro	-456
glie	-457
▁Per	-458
▁Mo	-459
▁davanti	-460
spose	-461
dia	-462
▁quando	-463
tutti	-464
sua	-465
tare	-466
glia	-467
alle	-468
▁delle	-469
▁Davide	-470
zioni	-471
▁Io	-472
▁Non	-473
▁all	-474
▁abb	-475
▁gran	-476
mio	-477
tuo	-478
uno	-479
ge	-480
▁Co	-481
lti	-482
ze	-483
voi	-484
▁dalla	-485
▁mon	-486
mia	-487
cin	-488
av	-489
sp	-490
▁Allora	-491
▁?	-492
cci	-493
▁hai	-494
mpi	-495
▁uomini	-496
▁col	-497
▁ogni	-498
▁mor	-499
poi	-500
ssero	-501
gen	-502
gio	-503
iorni	-504
▁Gesù	-505
▁fatto	-506
▁des	-507
zio	-508
▁Se	-509
▁ba	-510
▁ac	-511
cora	-512
▁tuoi	-513
▁pie	-514
mb	-515
dato	-516
for	-517
don	-518
▁così	-519
▁noi	-520
ine	-521
▁gu	-522
aranno	-523
▁Ch	-524
▁sacerdo	-525
essi	-526
▁mezzo	-527
▁frat	-528
mpre	-529
▁né	-530
ho	-531
gui	-532
gitto	-533
contro	-534
▁nu	-535
quando	-536
israele	-537
▁secondo	-538
rete	-539
essa	-540
!»	-541
gn	-542
pra	-543
suoi	-544
▁bene	-545
qui	-546
▁ed	-547
▁due	-548
▁gio	-549
▁dice	-550
▁erano	-551
poli	-552
questo	-553
rifi	-554
anche	-555
arò	-556
▁sal	-557
sac	-558
▁ar	-559
nella	-560
tan	-561
mente	-562
▁Giuda	-563
sie	-564
popolo	-565
▁V	-566
▁Di	-567
▁Mosè	-568
▁tutte	-569
▁Poi	-570
▁chia	-571
erto	-572
scolta	-573
▁gra	-574
rato	-575
▁porta	-576
▁alle	-577
glio	-578
▁Gerusalemme	-579
erete	-580
▁mano	-581
▁por	-582
▁pu	-583
▁abi	-584
scia	-585
▁hanno	-586
▁La	-587
▁ste	-588
sia	-589
▁In	-590
rdi	-591
pirito	-592
▁fo	-593
pie	-594
essu	-595
esta	-596
tò	-597
▁na	-598
tura	-599
▁cor	-600
ess	-601
stru	-602
ina	-603
▁mani	-604
▁sulla	-605
essuno	-606
gue	-607
▁fino	-608
▁sia	-609
allora	-610
ccato	-611
▁padre	-612
sul	-613
guar	-614
▁fuo	-615
▁essi	-616
giorno	-617
▁ta	-618
▁Israeliti	-619
aveva	-620
tutto	-621
mor	-622
dice	-623
▁servi	-624
▁sue	-625
menti	-626
ena	-627
▁tre	-628
abb	-629
così	-630
▁vita	-631
mina	-632
▁san	-633
ggio	-634
più	-635
stre	-636
all	-637
▁Tu	-638
tter	-639
▁ciò	-640
▁tor	-641
▁nome	-642
▁cuore	-643
dri	-644
sarà	-645
anni	-646
str	-647
car	-648
trib	-649
ora	-650
stizia	-651
be	-652
ane	-653
sca	-654
cento	-655
dell	-656
vol	-657
▁occhi	-658
uogo	-659
nu	-660
paro	-661
▁questa	-662
▁ve	-663
ggia	-664
▁cui	-665
▁	-666
¦	-667
e	-668
i	-669
a	-670
o	-671
r	-672
n	-673
l	-674
t	-675
s	-676
c	-677
d	-678
u	-679
p	-680
m	-681
g	-682
v	-683
,	-684
h	-685
f	-686
𐋇	-687
b	-688
z	-689
q	-690
à	-691
'	-692
ò	-693
:	-694
S	-695
è	-696
é	-697
I	-698
.	-699
;	-700
»	-701
«	-702
D	-703
A	-704
G	-705
E	-706
ì	-707
C	-708
ù	-709
M	-710
P	-711
?	-712
N	-713
L	-714
!	-715
B	-716
Q	-717
T	-718
-	-719
F	-720
R	-721
O	-722
k	-723
V	-724
U	-725
Z	-726
H	-727
K	-728
"	-729
1	-730
6	-731
(	-732
2	-733
)	-734
3	-735
4	-736
5	-737
7	-738
8	-739
0	-740
9	-741
’	-742
J	-743
j	-744
]	-745
}	-746
