<pad>	0
</s>	0
<unk>	0
¦	-1.424
▁¦	-1.43753
ᓐ	-3.19548
ᒡ	-3.54761
ᒃ	-3.66868
▁᙮	-3.78583
▁,	-3.88776
ᑕᔥ	-4.29014
ᕽ	-4.40722
ᓂ	-4.81824
ᑲᔦ	-4.88846
ᒦ	-4.93893
ᐞ	-5.10293
ᐙ	-5.22585
ᑳ	-5.33991
ᐃ	-5.36397
ᑭᔐᒪᓂᑑ	-5.44188
ᑳᐐ	-5.53375
▁:	-5.54327
ᔥ	-5.55889
ᑮ	-5.59895
ᐃᐃ	-5.60154
ᔅ	-5.67092
ᒻ	-5.68491
ᓴ	-5.69348
ᐁ	-5.78889
ᒋ	-5.80494
ᒋᓴ	-5.88577
ᐋᓃ	-5.88901
ᐃᐃᒫ	-5.90302
ᓇ	-5.94021
ᐃᓂ	-5.99332
ᐊᐎᔭ	-6.03159
ᐁᑮ	-6.04559
ᑭ	-6.04619
ᐐᓐ	-6.07757
ᑫ	-6.08762
ᑲᑭᓇ	-6.13407
ᐊᐊ	-6.16854
ᐊᐲ	-6.17651
ᐗ	-6.1878
ᑯ	-6.20607
ᐅᐅ	-6.25316
ᔦ	-6.28396
ᐃᑭ	-6.28632
ᑳᑮ	-6.29581
ᑕ	-6.3127
ᑳᐃᔑ	-6.36172
ᐅᑮ	-6.40603
ᐅ	-6.42971
ᒫ	-6.4637
ᓃ	-6.49271
ᑖ	-6.49914
▁?	-6.51859
ᔭ	-6.56275
ᑫᑰ	-6.57874
▁	-6.60902
ᐃᑯ	-6.73104
▁!	-6.74846
ᐁᔑ	-6.77304
ᔮ	-6.77972
ᒥᓐ	-6.80184
ᔥᐱ	-6.83352
ᑮᓇᐙ	-6.87387
ᐅᑮᐃᓈ	-6.88433
x	-6.89677
𐋇	-6.89843
ᑦ	-6.92892
ᓰ	-6.95139
ᐊᑮ	-6.9636
ᓅ	-7.02107
ᑭᑲ	-7.02944
ᐱᔥᑰ	-7.04552
ᓲ	-7.05456
ᐸ	-7.08475
ᐎᓐ	-7.11426
ᐌᑎ	-7.14272
ᐯᔑ	-7.1468
ᐁᑕ	-7.16054
ᐋᔕ	-7.16625
ᐐ	-7.16678
ᐃᐌ	-7.1787
ᑳᑎᐯᒋᑫ	-7.20915
ᒦᓇᐙ	-7.21817
ᒥ	-7.22941
ᒥᓂ	-7.23493
ᓯ	-7.25471
ᐅᒋ	-7.25759
ᐌ	-7.25848
ᐃᓂᓂ	-7.26632
ᐃᒫ	-7.28977
ᐃᔑ	-7.29292
ᑐ	-7.30589
ᑭᒋ	-7.33107
ᑮᐃᑭᑐ	-7.33329
ᓈᓐ	-7.33343
ᒣ	-7.37324
ᐅᑲ	-7.37855
ᑫᑯ	-7.42023
ᐄ	-7.43072
ᐃᓇ	-7.43569
ᐁᐐ	-7.43975
ᐃᐃᐌ	-7.44208
ᓂᓂ	-7.44555
ᐊᐌ	-7.4598
ᑭᐸ	-7.46591
ᐯᔑᑾ	-7.48492
ᑳᑮᐃᔑ	-7.48691
ᐁᑳ	-7.50114
ᐅᔕ	-7.50941
ᑳᔑ	-7.51144
ᑯᑕ	-7.51611
ᐊ	-7.52748
ᑣ	-7.53944
ᑳᐅᒋ	-7.54005
ᐃᓂᓂᐗ	-7.56582
ᒀ	-7.57682
ᑌᐺ	-7.58671
ᔑᑾ	-7.6024
ᐋᐱᒋ	-7.60646
ᓂᓂᒻ	-7.60932
ᑎ	-7.6258
ᐅᐌ	-7.63383
ᓈ	-7.66547
ᐱᑯ	-7.68896
ᒎᐗ	-7.69809
ᓀ	-7.6996
ᒪ	-7.72133
ᒥᓯᐌ	-7.72485
ᒫᐗ	-7.72801
ᐆᑌᓈ	-7.73272
ᐐᑫ	-7.74159
ᓂᑲ	-7.75531
ᐅᑮᐃᑰ	-7.75547
ᐤ	-7.80353
ᐊᐌᓀ	-7.80555
ᐌᑯᓀ	-7.816
ᓄ	-7.81612
ᐋ	-7.81661
ᒣᒀ	-7.83147
ᓂᑮ	-7.83171
ᐊᐊᐌ	-7.83599
ᐋᓂ	-7.83791
ᑕᑲ	-7.85998
ᐅᐅᐌ	-7.86907
ᑭᑮ	-7.87435
ᑾᔭ	-7.8774
ᓇᐗ	-7.8897
ᐅᑌᐺᑕᒨ	-7.90765
ᐎ	-7.91567
ᑫᔮᐱ	-7.92624
ᐱ	-7.93585
ᑰ	-7.94213
ᐅᑭᑭᓄᐊᒪᐙᑲᓇ	-7.95054
ᒨᔕ	-7.95681
ᑫᐅᒋ	-7.96392
ᐅᑯᓯᓴ	-7.96909
ᓃᐱᐗ	-7.96916
ᐗᐊ	-7.98397
ᑳᑮᐅᒋ	-8.00112
ᓈᐙ	-8.00238
ᐅᑯ	-8.01178
ᐯᒫᑎᓯᓂ	-8.01428
ᐃᓇᔥᑫ	-8.01956
ᑲ	-8.02404
ᑫᔑ	-8.04259
ᐌᒋ	-8.04576
ᐐᓇᐙ	-8.05095
ᒞ	-8.05542
ᐊᐗᔑᒣ	-8.06073
ᑮᐃᔑ	-8.06346
ᐌᓂᐗ	-8.07401
ᐲᑕᕒ	-8.08824
ᓂᑕ	-8.09309
ᒦᐗ	-8.0932
ᑮᐊᓂ	-8.09337
ᑉ	-8.10435
ᔑ	-8.10566
ᐅᓄ	-8.11179
ᑴ	-8.12112
ᒪᔮ	-8.123
ᒪᓐ	-8.13257
ᓯᒀ	-8.1335
ᑭᒋᑮᔑᑯ	-8.13869
ᒋᐅᒋ	-8.15103
ᐯᒫᑎᓯᐙ	-8.1561
ᐊᔮ	-8.16265
ᑮᐃᑭᑐᐗ	-8.16743
ᐲᓂ	-8.18054
ᑳᐃᓈ	-8.19659
ᑾ	-8.20883
ᓯᐌ	-8.21735
ᐁᑮᐃᔑ	-8.2254
ᐸᑳ	-8.24119
ᐅᓇᔓᐌᐎ	-8.24396
ᓇᑰ	-8.2537
ᔐ	-8.25874
ᒫᒑ	-8.26713
ᐃᑴ	-8.27661
ᒉᕒᐆᓴᓬᐊ	-8.28057
ᑆᓬ	-8.28669
ᐃᑭᑐ	-8.2911
ᑫᑰᓂᓂ	-8.3065
ᐅᑕᒑᑾ	-8.31438
ᐁᐊᓂ	-8.31937
ᐃᓇᑫ	-8.36794
ᐋᑎ	-8.37514
ᑎᓄ	-8.38417
ᐃᓀᑖᑯᓯ	-8.38446
ᑳᑕᔑ	-8.38661
ᐃᑴᐗ	-8.38787
ᐃᓂᐌᓂᐗ	-8.38904
ᑭᒋᐅᑭᒫ	-8.39953
ᑯᐸᓀ	-8.40553
ᐁᑮᐃᓈ	-8.40745
ᐃᓴ	-8.41856
ᐁᐃᔑ	-8.41869
ᔔᓂᔮ	-8.42437
ᐊᔮᓂ	-8.4517
ᑯᒫ	-8.45282
ᐌᐌᓂ	-8.45442
ᒪᒋ	-8.45532
ᓃᔑ	-8.4572
ᐊᒦ	-8.45812
ᐙᐸ	-8.45956
ᐲ	-8.4626
ᐃᔖ	-8.4647
ᑲᓅᓈ	-8.46582
ᑮᔑᑲᓂᓂ	-8.50017
ᑌ	-8.50933
▁;	-8.51121
ᐹᓂᒫ	-8.51122
ᐊᑭ	-8.51896
ᑭᒋᐊᓇᒥᐁᐎᑭᒫ	-8.51928
ᑮᐅᒋ	-8.52368
ᑲᑴ	-8.52421
ᐱᒫᑎᓯᐎ	-8.53249
ᐃᐃᐌᓂ	-8.53555
ᒨᓯ	-8.53566
ᓯᓅ	-8.54962
ᐹ	-8.5516
ᒪᒋᐊᒑᑾ	-8.55405
ᑮᔑ	-8.56366
ᐃᔑᒋᑫ	-8.56751
ᑭᑖ	-8.56963
ᒧᐙ	-8.57448
ᒥᓍᒋᒧᐎ	-8.58044
ᓯᓂ	-8.58514
ᓀᒀ	-8.58541
ᓃᓇ	-8.59296
ᑳᑮᐱ	-8.61444
ᐋᓇ	-8.62698
ᓈᓂ	-8.62831
ᑳᐱ	-8.63491
ᓂᑖ	-8.63494
ᐅᑮᐃᔑ	-8.63654
ᐃᓈᑯᓂᑫᐎ	-8.63795
ᐁᒐᓬᐊ	-8.64572
ᓰᐗ	-8.64765
ᐊᓂ	-8.6545
ᑮᐊᔮ	-8.66137
ᑮᐌ	-8.67437
ᑲᓇ	-8.69214
ᓭ	-8.69657
ᑑ	-8.69672
ᐅᑖ	-8.70205
ᑳᐊᔮᐙ	-8.70355
ᑳᒎᐎᐎᓯ	-8.71051
ᒦᐃ	-8.71584
ᑳᐊᔮ	-8.7246
ᒦᓴ	-8.73399
ᑭᑭᓄᐊᒪᐙᑲᓇ	-8.73441
ᐯᐸᑳ	-8.73534
ᓂᑌᑌ	-8.7354
ᑮᓇᐎ	-8.73579
ᐁᑮᐊᓂ	-8.73956
ᑰᔦ	-8.76133
ᑌᐯᒋᑫ	-8.76733
ᔭᐄ	-8.77627
ᑳᐃᑭᑐ	-8.77643
ᐅᒫ	-8.78403
ᐋᓇᐐ	-8.78582
ᒋᑆ	-8.80029
ᒪᔑ	-8.80118
ᓱ	-8.80438
ᑫᓃ	-8.80438
ᑭᒋᐊᓇᒥᐁᐎᑲᒥᑯ	-8.81106
ᐅᑕᒑᑯᓂ	-8.81281
ᐯ	-8.81993
ᐎᓂ	-8.83255
ᐁᐸᕒᐊᐋ	-8.83363
ᓯᐗ	-8.83552
ᔖᑰ	-8.83602
ᑮᔑᑲ	-8.8376
ᐆ	-8.84107
ᐯᕒᐊᓰ	-8.84603
ᓯᐙ	-8.8467
ᐃᔑᓭ	-8.85782
ᑮᐱ	-8.86437
ᐊᔮᔦ	-8.86556
ᒋᑮ	-8.87112
ᔂ	-8.87392
ᒌ	-8.87519
ᒦᒋ	-8.88396
ᓇᑫ	-8.88399
ᑕᑯᔑ	-8.88428
ᒋᐃᔑ	-8.88743
ᐱᓵ	-8.89665
ᐎᓇ	-8.90205
ᓯᓂᓂ	-8.91272
ᐊᔮᐙ	-8.91514
ᓯᓄ	-8.91747
ᐁᐃᑭᑐ	-8.92312
ᐱᒫᑎᓯ	-8.92545
ᑫᒋᓈ	-8.92715
ᐃᓈ	-8.93993
ᐲᑎᑫ	-8.9409
ᑳᐊᔮᓂ	-8.94178
ᒨ	-8.94637
ᑳᑭᒋ	-8.95088
ᒪᒋᑑᑕᒧᐎ	-8.95513
ᐊᓇᒥᐋ	-8.95887
ᐃᔥᒀ	-8.96302
ᑫᐃᔑ	-8.96599
ᑮᐅᑌᑌ	-8.97186
ᐁᐱ	-8.97223
ᐁᑮᐅᒋ	-8.97609
ᑳᐃᔑᒋᑫ	-8.97774
ᔑᒫᑲᓂᔕ	-8.98372
ᓵᐃᒪ	-8.98467
ᐁᒐᓬ	-8.99579
ᒥᓄ	-8.99966
ᑳᐃᔥᒀ	-9.00871
ᐄᓴ	-9.0136
ᑎᐸ	-9.01594
ᓂᑯ	-9.01656
ᐁᑮᐱ	-9.02126
ᐯᔓ	-9.02478
ᐊᐱᓅᒌᔕ	-9.02485
ᐸᑮ	-9.02918
ᑫᓂ	-9.03379
ᐱᒫᑎᓯᐙ	-9.03657
ᐃᔑᐲᐃᑳᑌ	-9.04677
ᐐᒌᐙ	-9.05132
ᐹᐃᓬᐊ	-9.0532
ᑭᒋᒪᓯᓇᐃᑲ	-9.05941
ᒥᑖ	-9.06317
ᐅᔥᑭ	-9.06407
ᐲᐎ	-9.06567
ᒎᑕ	-9.06902
ᑭᑭᑫᑖ	-9.07175
ᒋᐱ	-9.07242
ᐁᐅᒋ	-9.07365
ᑌᐺᐎ	-9.07504
ᑳᐃᑯ	-9.07961
ᐐᑕᒪᐎᓇᑰ	-9.08178
ᓅᒋᑯ	-9.08273
ᐁᕒᐊ	-9.08302
ᑕᔑ	-9.09018
ᐅᑭᒋ	-9.09238
ᑕᑯ	-9.09443
ᑌᐱ	-9.10086
ᐃᓀᑖᑾ	-9.10178
▁¦3	-9.10471
ᐅᒫᒫ	-9.11512
ᒫᒌ	-9.12418
ᐅᑯᓯᓯ	-9.12501
ᒧ	-9.12883
ᐅᐙᑳᐃᑲᓂ	-9.1311
▁¦2	-9.15015
ᐌᔫᓯᒥ	-9.15935
ᐲᔖ	-9.16465
ᓈᑯᓯ	-9.16887
ᐃᔥᑯᑌ	-9.17195
ᐋᐸᒋᑑ	-9.17306
ᐁᓈᓴᒦ	-9.17549
ᐁᔑᓈᑾ	-9.1762
ᐆᑌᓇ	-9.18039
ᑫᑳ	-9.18055
ᑮᑭᒋ	-9.18093
ᑳᑭᑭᓄᐊᒫᑫ	-9.18287
ᐁᑕᔑ	-9.18582
ᒥᓴᐙ	-9.19201
ᒪᑲ	-9.194
ᑭᑎᔑ	-9.20833
ᒪᒋᐊᔭᐋ	-9.20835
ᐃᔅᕒᐃᔭᓬᐊ	-9.2087
ᑲᑴᒋᒫ	-9.21311
ᑳᐅᒌ	-9.21387
ᐋᐱ	-9.2221
ᑫᐐ	-9.22409
ᐅᑕᓄᑮᐋᑲᓇ	-9.22549
ᐃᔑᓂᔕᐙᑲᓇ	-9.22599
ᑭᐐᑕᒪᐎ	-9.22789
ᑳᓂᑖ	-9.22933
ᐅᑭᑭᓄᐊᒫᑫ	-9.23291
ᑭᑭᓄᐊᒫᑫ	-9.23399
ᐐᑕᒪᐎ	-9.23441
ᐁᑭᒋ	-9.23445
ᐅᑮᐅᒋ	-9.23882
ᐅᓄᐌᓂᐗ	-9.24371
ᑭᑎᑳᓀ	-9.24585
ᑯᐙ	-9.25556
ᐃᔥᐱ	-9.25557
ᓂᓯ	-9.25815
ᒣᐎᔕ	-9.26028
ᐸᑴᔑᑲᓇ	-9.26225
ᐯᔑᑯ	-9.26792
ᑲᔥᑭᑑ	-9.27333
ᐅᓵ	-9.27434
ᐁᔑᒋᑫ	-9.27848
ᑆᓬᐊ	-9.27961
ᑳᐊᓂ	-9.28001
ᑑᑕ	-9.28731
ᐙᓭᔮ	-9.28766
ᐊᐌᓀᓇ	-9.2898
ᐁᑮᐃᑭᑐ	-9.29101
ᐱᓵᓂ	-9.29272
ᐊᓯᓃ	-9.29373
ᐐᐸ	-9.2939
ᓅᑕᒧᐙ	-9.29671
ᐙᑳᐃᑲᓂ	-9.30468
ᐁᑕᓱ	-9.3116
ᑎᐱᓇᐌ	-9.31483
ᐁᐲᒋ	-9.31632
ᑳᑎᐯᑕ	-9.31687
ᓃᔣᓱ	-9.31856
ᐁᐊᔮ	-9.32077
ᐴ	-9.32544
ᑳᓬᐊᓬᐄ	-9.32714
ᒎᓴ	-9.33482
ᐅᑮᐱ	-9.33785
ᐙᐸᑕᒧᐙ	-9.33883
ᐅᑮᐃᓈᐙ	-9.33993
ᑫᑮ	-9.34127
ᐅᑎᑭᑐᐎ	-9.34508
ᐊᐙ	-9.348
ᓂᑖᐎᑭ	-9.35015
ᐱᔑᔑ	-9.35288
ᐅᑯᓯᓯᒫ	-9.35486
ᐅᐅᐌᓂ	-9.36207
ᐗᑭ	-9.36474
ᒥᓂᑴ	-9.36811
ᐃᔑᓈᑾ	-9.36893
ᐁᑮᐃᑯ	-9.37152
ᐸᑭᑎᓈ	-9.3797
ᐊᔮᐗ	-9.37997
ᐹᑏᓄ	-9.38126
ᐃᑯᐙ	-9.38328
ᔕ	-9.38507
ᐁᑭᑐ	-9.38534
ᑭᒋᑲ	-9.38951
ᑮᐃᔖ	-9.39051
ᒦᓈ	-9.39442
ᐋᔑᑌᔮᑎ	-9.39486
ᐎᓂᐙ	-9.3968
ᓂᐱ	-9.401
ᐁᔮᓂ	-9.40142
ᑕᓱ	-9.40475
ᓂᐳᐎ	-9.41437
ᑭᐐ	-9.41673
ᐅᑌᑌ	-9.42507
ᒣᕒᐃ	-9.43383
ᔑᒫᑲᓂᔒᐎᑭᒫ	-9.43383
ᒫᑭᔖ	-9.43393
ᑭᓉ	-9.4345
ᐁᑮᐃᔖ	-9.43728
▁¦7	-9.43746
ᐗᓂᓂ	-9.44102
ᑕᒪᐙ	-9.44484
ᓂᐳᐎᓂ	-9.44566
ᐅᐐᓱᐎᓂ	-9.44687
ᑕᐌ	-9.45014
ᐃᔑᓭᓂ	-9.46754
ᓭᑕ	-9.46958
ᐙᐸᒫ	-9.47005
ᓂᓯᓐ	-9.47357
ᐊᓄᑮᐋᑲ	-9.4741
ᑫᒫ	-9.47459
ᐊᓇᒥᐁᐎᑲᒥᑯ	-9.47586
ᒬ	-9.47678
ᑳᐊᐲᒋ	-9.4772
ᑖᓈ	-9.47721
ᓵᑭ	-9.47858
ᐁᔑᓈᑯᓯ	-9.47912
ᐁᔑᓂᑳᓱ	-9.48095
ᑮᐊᔮᐗ	-9.48566
ᐁᑮᐊᐎ	-9.48602
ᐃᔑᓂᔕᐅ	-9.488
ᔔᒥᓈᐳ	-9.49441
ᓇᑴᑕᐙ	-9.49633
ᐐᒌᐎ	-9.49753
ᐱᒌᓇ	-9.49902
ᓂᓂᑭ	-9.50448
ᔕᐌᑖᑯᓯ	-9.5192
ᓯᔅ	-9.5201
ᐅᑮᓇᑴᑕᐙ	-9.52555
ᑕᐅᒋ	-9.52822
ᐋᐙ	-9.52956
ᐃᓂᓃ	-9.53117
ᒥᒋ	-9.53421
ᐊᑕ	-9.5433
ᒋᐱᒫᒋᐃᐌ	-9.54583
ᑳᓵᑭᐃ	-9.54654
ᒣᑴ	-9.54889
ᑯᓯ	-9.55403
ᐸᑴᔑᑲ	-9.55721
ᐅᑎᐯᒋᑫᐎ	-9.56029
ᓯᐙᐙ	-9.56371
ᐊᐱ	-9.56485
ᒦᐃᐌ	-9.56788
ᒣᔥᑾ	-9.56882
ᐊᐸᓀ	-9.56906
ᑳᓃᑳᓂᓯ	-9.57276
ᑭᑑ	-9.57323
ᐙᐸᒫᐙ	-9.57379
ᑳᑎᐯᓂᒥᓇ	-9.57427
ᓂᐳ	-9.57546
ᑲᒀᑕᑭᑑ	-9.57592
ᐐᒋ	-9.57838
ᓰᒥ	-9.58027
ᐐᑕᒪᐙ	-9.58109
ᐊᒋ	-9.58125
ᒥᑯ	-9.58134
ᐅᑎ	-9.58135
ᐗᐐᑫ	-9.58185
ᐃᑭᑑᒪᑲ	-9.58788
ᐸᓯᑸ	-9.58894
ᑳᐹᑏᓄ	-9.59918
ᑳᑮᐃᑭᑐ	-9.6004
ᐁᓂ	-9.60087
ᓇᑴᑕ	-9.60143
ᐅᐱᒫᑎᓯᐎ	-9.60605
ᐃᑎᓱ	-9.60901
ᑲᑴᒋᒥ	-9.60962
ᑭᑑᒋ	-9.61526
ᑭᑫᑕᒣ	-9.61883
ᓃᒋ	-9.6235
ᐙᑳᐃᑲ	-9.62624
ᐃᔑᒋᑫᐙ	-9.62721
ᐐᐗ	-9.63134
ᒪᔥᑲᐎᓰᐎ	-9.63577
ᒫᒪᑳᒋᒋᑫᐎ	-9.63668
ᐅᓵᐎ	-9.64105
ᐙᓴ	-9.64173
ᐊᔮᒀᒥᓯ	-9.64412
ᐌᒌ	-9.64491
ᐐᓯᓂ	-9.64774
ᑲᑴᑗ	-9.64818
ᒪᐎ	-9.64828
ᐙᐸᑕᒣ	-9.65312
ᑲᒥ	-9.65353
ᐱᒫᑎᓰᒪ	-9.6555
ᓈᓂᐗ	-9.65835
ᐃᓀᑖᑯᓯᐎ	-9.65992
ᑑᐙ	-9.6612
ᓇᐎ	-9.66323
ᑕᒧᐙ	-9.66488
ᓃᐎ	-9.66489
ᒋᑳᑌ	-9.66644
ᐐᒌᐙᐙ	-9.6677
ᑭᑭ	-9.66898
ᑳᑑᑕ	-9.67105
ᐅᒋᒋᓭ	-9.67224
ᐌᒀ	-9.67267
ᒫᐙ	-9.67482
ᐁᔑᓈᑾᓂᓂ	-9.67615
ᐊᓯᓐ	-9.6842
ᐊᐎ	-9.68745
ᐅᑎᓯ	-9.68916
ᓈᑫ	-9.69149
ᒋᑕᔑ	-9.69501
ᒎᑏᔭ	-9.69719
ᐅᑎᑭᑐᐎᓂ	-9.70298
ᐃᑰ	-9.7048
ᑭᑕ	-9.70549
ᐁᔮ	-9.70953
ᐃᔑᐌᐸ	-9.71286
ᐱᒫᒋᐃᑰᐎ	-9.71415
ᔑᓈ	-9.71685
ᓂᑭ	-9.71921
ᓇᑲᓈ	-9.72048
ᐅᑭᔐᐙᑎᓯᐎ	-9.72241
ᐃᔑᒋᑫᔦ	-9.72387
ᐱᓬᐊ	-9.72492
ᐋᒋᑯ	-9.72501
ᐅᑎᐹᒋᒧᐎᓂᓃᒪ	-9.72504
ᑕᓯ	-9.72605
ᑎᐹᒋᒧᐎ	-9.72638
ᑑᑕᐎ	-9.72808
ᑭᑮᐃᔑ	-9.73791
ᐅᑮᐙᐸᒫ	-9.73979
ᐅᔑᑑ	-9.74136
ᑕᒫ	-9.74435
ᒎᐎ	-9.74817
ᐅᑖᐱᓈ	-9.74886
ᐸᐹ	-9.75229
ᐱᓇᒫ	-9.7532
ᐃᔥᒀᑌ	-9.75321
ᒐᔭᐄ	-9.75357
ᐊᐴᔥᑫ	-9.75375
ᐗᒀ	-9.75446
ᐊᑾ	-9.75511
ᓂᑭᑫᑖ	-9.75546
ᒋᐊᓂ	-9.7574
ᔒ	-9.75955
ᒋᑳᑌᓂ	-9.76151
ᔔᓂᔮᓴ	-9.76651
ᐱᒧᓭ	-9.76775
ᒋᔑ	-9.76858
ᑰᔭ	-9.77194
ᑳᓅᑕ	-9.77214
ᐁᑎᓄᐎ	-9.77348
ᐃᓀᑕ	-9.77418
ᐊᓄᑮᐎ	-9.77466
ᒫᒥᑲᐎ	-9.7777
ᐅᑕ	-9.77849
ᒫᓇᒑᓂᔐ	-9.77942
ᐲᑎ	-9.78168
ᐐᒋᐃ	-9.78276
ᐱᑾᑕᑲᒥ	-9.78295
ᐹᕒᓇᐸ	-9.78295
ᐊᓂᔖ	-9.78305
ᑳᐅᓂᔑᔑ	-9.78439
ᑲᔥᑭᐁᐎᓯᐎ	-9.78505
ᐴᓯ	-9.78951
ᑮᔑᑯ	-9.78988
ᐁᐙᐸᒫ	-9.79037
ᐃᔑᐊᔮ	-9.79244
ᐃᓂᓇᑰ	-9.79488
ᐃᑭᑐᐎᓐ	-9.79635
ᑫᒋ	-9.79673
ᑮᒨᒋ	-9.7969
ᓅᑌᓭ	-9.80012
ᐐᔭᐎᒫ	-9.80057
ᐃᐌᓂ	-9.80126
ᑑᑕᒧᐙ	-9.80131
ᐱᒫᑎᓯᓂ	-9.80242
ᐊᓇᒥᐁᐎᑭᒫ	-9.80274
ᐊᑲ	-9.80371
ᐅᑕᓇᒥᐋ	-9.80698
ᒪᔥᑲᐎᓰ	-9.8089
ᐊᒑᑾ	-9.81328
ᑫᑌ	-9.81364
ᑭᑭᓄᐊᒪᐙ	-9.81905
ᐅᑖᐎᓂ	-9.82367
ᑳᐅᔫᓯᒥ	-9.82437
ᒥᑰ	-9.82783
ᓵᑲᐊ	-9.82804
ᑳᓂ	-9.82953
ᒋᓂ	-9.83037
ᓂᑮᐃᔑ	-9.8323
ᓃᔣ	-9.83235
ᒥᓉᑕ	-9.8331
ᔮᐹ	-9.83505
ᓈᑯᑑ	-9.83564
ᐐᓯᓂᐙ	-9.83891
ᒋᐃᔖ	-9.83983
ᒦᑲᓈ	-9.84463
ᑎᒪ	-9.84505
ᐐᒋᑭᐌᔭ	-9.84508
ᑮᐹᑏᓄᐗ	-9.846
ᑕᒣ	-9.84611
ᐊᓄᑮᐋᑲᓇ	-9.84839
ᓈᐱ	-9.84945
ᓂᑮᐙᐸᒫ	-9.85078
ᑫᑮᓇᐎ	-9.85173
ᐃᓀᑕᒧᐙ	-9.85224
ᑳᑮᔑᑲ	-9.85298
ᐱᒥ	-9.85307
ᐁᑮᐃᑭᑐᐙ	-9.85542
ᓂᑮᐃ	-9.8565
ᐅᓃᑳᓂᓰ	-9.85766
ᑲᑴᒋᒥᑯ	-9.85775
ᒫᐗᒋᐃᑎ	-9.85796
ᒌᒫᓂ	-9.8583
ᑭᑎᑫ	-9.86031
ᒌᒫ	-9.86122
ᑲᔥᑭᑑᓰ	-9.8637
ᑌᐺᑕᐙ	-9.86547
ᐊᔮᔮ	-9.87315
ᒋᑲᑴ	-9.8743
ᒥᔅᑸ	-9.87516
ᐐᒌᐎᑯ	-9.8756
ᓂᓵᐙ	-9.87651
ᓭᓂ	-9.87655
ᐅᑭᒋᓂᑭ	-9.87765
ᐱᐴ	-9.87903
ᐅᑌᐃ	-9.88394
ᑲᑴᒋᒫᐙ	-9.8856
ᓃᐸᐎ	-9.89514
ᐅᑎᓀᑕᒧᐎ	-9.89734
ᒦᓂᑰ	-9.89861
ᓂᐐ	-9.90218
ᐊᒀ	-9.90222
ᐃᔖᐙ	-9.9024
ᒪᔥᑲᐎ	-9.90305
ᐅᑖᐱᓇ	-9.90801
ᓂᑑᒋ	-9.90832
,000	-9.91009
ᐆᑌᓇᐌ	-9.91157
ᐃᔑᐱᒫᑎᓯ	-9.91572
ᑳᐃᔑᓂᑳᓱ	-9.91853
ᔥᑲ	-9.92362
ᑭᑲᐅᒋ	-9.92532
ᓂᑯᓯ	-9.92565
ᐊᓇᒥᐁ	-9.92752
ᑲᓅᓂᑰ	-9.92777
ᐅᔥᑭᓃᑭᑴ	-9.93084
ᑲᓂᐎ	-9.93347
ᐅᒋᑕ	-9.93448
ᑎᐱ	-9.93487
ᐁᑮᓂᐳ	-9.93543
ᑭᑫᓂᒫ	-9.93723
ᑖᓈᐙ	-9.93796
ᐃᓀᓂᒫ	-9.93849
ᐱᒫᑎᓯᐎᓂ	-9.94016
ᐊᒑ	-9.94221
ᑕᐃᔑ	-9.94237
ᐅᓂᒌ	-9.94291
ᒥᑯᔥᑳᑌᑕ	-9.94438
ᐊᓉ	-9.9444
ᐃᓬᐋᐃᒐ	-9.94458
ᐁᔑᐲᐃᑳᑌ	-9.94474
ᓈᓴᕒᐃ	-9.94483
ᐅᑑᑭᒫᒪ	-9.94499
ᐅᕒᐆᒥ	-9.94598
ᑳᑮᐃᔑᒋᑫ	-9.94598
ᒥᑎ	-9.94961
ᐸᑭᑎᓂ	-9.94981
ᒋᑭᒋ	-9.95127
ᐋᐱᑕ	-9.95415
ᑲᒀᑕᑭᐃ	-9.96226
ᑭᑫᑖ	-9.96739
ᑳᐱᒫᑎᓯ	-9.96854
ᐙᐸᒥ	-9.97034
ᑭᓇᑕᐌᓂᒥ	-9.97521
ᒥᑖᔑᓃᔑ	-9.97545
ᑎᐸᐊᒪᐙ	-9.97591
ᐐᒋᐋ	-9.979
ᑶ	-9.98029
ᐙᐹᐱᑯ	-9.98031
ᒋᐅᑌᐺᑕᒨ	-9.98054
ᓵᑲᐃᑲᓃ	-9.98088
ᐅᑎᓯᑯ	-9.98099
ᐯᑭ	-9.9811
ᐌᔩ	-9.9817
ᑭᑌᐃᐙ	-9.98171
ᒥᑣ	-9.9821
ᐁᐃᓈ	-9.98326
ᒋᐊᐎ	-9.98457
ᐃᑭᑐᔭ	-9.98545
ᑳᐃᓂ	-9.98756
ᒥᓇ	-9.98925
ᑌᐺᒪᑲ	-9.98985
ᓂᑎᔑ	-9.99208
ᒥᓀ	-9.99646
ᒋᐃᔑᓭ	-9.99814
ᑕᑭᒋ	-9.99957
ᓈᓇ	-9.99971
ᕒᐄ	-10.0015
ᓃᑳ	-10.0042
ᑲᑲᓅᓈ	-10.007
ᐃᔑᓈᑯᓯ	-10.009
ᑖᑯᓯ	-10.0091
ᑮᑭᑐ	-10.0095
ᑳᑮᐊᔮ	-10.01
ᐗᑎᑾ	-10.0173
ᐄᒋᐸᑮ	-10.0173
▁¦12	-10.0173
ᒋᑮᐌ	-10.0193
ᐁᐊᓉ	-10.0207
ᒧᔐ	-10.0207
ᑳᐃᓇᑌᓂ	-10.0221
ᐃᓂᓃᐎ	-10.0236
ᑮᐃᔖᐗ	-10.0239
ᒫᒪᐎ	-10.0263
ᓂᑯᒋ	-10.0268
ᐊᔓᑕᒫᑫ	-10.0278
ᐊᑖᐌ	-10.0337
ᐃᓀᑖᑾᓂᓂ	-10.0342
ᑳᐃᔑᓂᑳᑌ	-10.0361
ᑎᐹᒋᒥ	-10.0367
ᑮᐃᔥᒀ	-10.0382
ᑎᐯᓂᒥᑯᐙ	-10.0384
ᐅᑎᓈᑯᓂᑫᐎ	-10.0397
ᓂᐹ	-10.0399
ᓂᐲ	-10.0433
ᑲᓅᓂ	-10.0441
ᐊᓄᑮ	-10.0464
ᐸᑭᑎᓂᑫ	-10.0474
ᑳᑲᓅᑕᒪᐙ	-10.0476
ᓂᓯᒥᓐ	-10.0489
ᐃᑣ	-10.0491
ᑮᔑᑑ	-10.0492
ᐅᑮᐊᓂ	-10.05
ᑮᒫᒌ	-10.0505
ᑎᐙ	-10.0546
ᔂᓬ	-10.0552
ᐅᒋᒋᓭᓂ	-10.0557
ᒫᓇᒑᓂᔕ	-10.0558
ᑖᑾ	-10.0559
ᐙᓴᑯᓀᒋᑲ	-10.0561
ᐃᓀᓂᑎᓱ	-10.0564
ᑌᐱᑎ	-10.0571
ᑭᑲᐃᔑ	-10.0571
ᐱᓵᓂᓯᐎ	-10.0573
ᑳᐙᐱᓯ	-10.0576
ᑲᑭᑐ	-10.0577
ᓂᓱ	-10.0608
ᑳᐐᐃᔑ	-10.0616
ᔕᐌᓂᒫ	-10.0624
ᐱᓈᓯᑳᑰ	-10.0633
ᐅᑎᐹᒋᒧᐎ	-10.0639
ᑮᐃᓀᑕ	-10.0654
ᐌᓅᑎᓯ	-10.0665
ᑌᐺᔦᑕ	-10.0688
ᐁᑮᐃᑭᑐᓂ	-10.0751
ᑳᑮᐊᔮᓂ	-10.0753
ᐃᑭᑐᔮ	-10.0755
ᐅᓂᔑᔑ	-10.0777
ᒪᓯᓇᐃᑲ	-10.0799
ᐸᑭᑎᓈᓱᐎ	-10.0801
ᒦᓂᓀ	-10.0824
ᒨᔥᑭᓀ	-10.0832
ᐸᑭᓯ	-10.0836
ᔖᑯᐌ	-10.084
ᓭᑭᓯ	-10.0885
ᒋᑲᓂᐎ	-10.0895
ᐴᔔ	-10.0904
ᑯᑎ	-10.0918
ᐆᑌᓇᐗ	-10.0928
ᑭᑫᑕᒧ	-10.0935
ᑭᑭᔥᑭᑲ	-10.0941
ᐐᑕᒫᑫ	-10.0942
ᒑ	-10.0942
ᑭᑑᔑᐲᐊᒪᐎ	-10.0958
ᓇᐃᓂᑏᐎᑲᒥᑯ	-10.0963
ᐅᐐᔭ	-10.0965
ᑭᐱ	-10.0969
ᒋᐃᔑᒋᑫ	-10.097
ᐊᐯ	-10.0978
ᐁᒣ	-10.0984
ᔫ	-10.0994
ᐁᑎᐱᑲᓂ	-10.1003
ᑎᓄᐎ	-10.1008
ᐙᐱ	-10.1009
ᑎᔦ	-10.1021
ᓀᐱᒋ	-10.1025
ᐅᑎᔑ	-10.1047
ᑑᑕᐙ	-10.1066
ᐅᐱᒫᑎᓰ	-10.1073
ᐅᒪᔥᑲᐎᓰᐎ	-10.1081
ᑮᒦᓈ	-10.1084
ᑾᔭᒀᑎᓯᐎ	-10.1096
ᑎᐯᓂᒫ	-10.1109
ᑭᑫᑕᒧᐙ	-10.1125
ᒦᓂᑯ	-10.113
ᓈᑯ	-10.1132
ᑎᐯᒋᑫ	-10.1135
ᓂᑮᐅᒋ	-10.1169
ᐅᑎᓈ	-10.1231
ᒋᑫ	-10.1232
ᓂᓇᑰ	-10.1277
ᓀᐱ	-10.1278
ᐅᒌᒪᑲ	-10.1283
ᐃᔑᓈᑾᓂᓂ	-10.1296
ᐯᐯᔑ	-10.1313
ᐁᐊ	-10.1322
ᔪ	-10.1324
ᐗᓂᔥᑳ	-10.1333
ᐅᒌ	-10.134
ᑲᔥᑭᑕᒫᓱ	-10.1351
ᐅᑎᔑᓂᔕᐙᑲᓇ	-10.1375
ᐋᐃᓭᔭ	-10.1375
ᓲᑭᑌᐁ	-10.1375
ᐐᓀᑕ	-10.1375
ᓰᑲᐊᑖᓱ	-10.1376
ᒫᔑ	-10.1378
ᓰᑲᐊᑖᑫᐎᓂᓂ	-10.1388
ᑳᑮᐅᓈᐸᒫ	-10.1389
ᑭᑭᑫᑕᓰ	-10.139
ᑳᐅᑕᑳᓀᓯ	-10.1393
ᒫᒪ	-10.1398
ᓭᑭᓯᑫ	-10.1399
ᑫᑕᔑ	-10.1401
ᐃᓀᓂᒥ	-10.1404
ᑭᑎᓂ	-10.1413
ᑎᐱᑲ	-10.1419
ᐅᑎᑕ	-10.1437
ᓈᓂᐗᓂᓂ	-10.1454
ᑳᐃᔑᓈᑯᓯ	-10.1462
ᐅᑮᐊᑐᒫ	-10.1469
ᓵᑭᐋ	-10.148
ᒧᐗ	-10.1489
ᒌᒥ	-10.1499
ᑫᑮᐃᔑ	-10.15
ᑮᐌᐱᒫᑎᓯ	-10.1501
ᒥᑖᓱ	-10.1531
ᒦᓂᑰᐎᓯ	-10.155
ᓇᒪᑕᐱ	-10.1552
ᐅᑖᐱᓂ	-10.1562
ᑳᒎᐎᐎ	-10.1566
ᑎᐯᑖᑯᓯ	-10.1567
ᑳᐅᓂᔑᔑᓂᓂ	-10.1577
ᑳᑌ	-10.1591
ᐸᓂᓂ	-10.1612
ᒋᑲ	-10.1616
ᐊᔓᑕᒫᑎᐎ	-10.1619
ᑳᐃᑭᑐᐙ	-10.1623
ᐎᑲᒥᑯ	-10.1632
ᑫᐃᔑᒋᑫᔮ	-10.1644
ᑲᓇᐌᑕ	-10.1651
ᑌᐺᑕᒣ	-10.1661
ᑳᐃᒋᑳᑌ	-10.1663
ᐁᑮᑭᒋ	-10.1682
ᑯᓰ	-10.1695
ᑮᑕᔑ	-10.1699
ᑎᐯᑖᑯᓯᐙ	-10.1709
ᑭᑌ	-10.1717
ᐃᑭᑐᐎ	-10.172
ᐁᑲᑴ	-10.1738
ᐁᑑᑕ	-10.1743
ᐸᑭᔑ	-10.1767
ᐅᑌᐺᑕᒧᐎᓂ	-10.177
ᑎᐹᑯᓂ	-10.1777
ᑕᓂ	-10.1783
ᓂᔑᐌ	-10.1785
ᓂᑲᒧ	-10.1794
ᓍ	-10.1803
ᒥᓄᒋᑫ	-10.1804
ᑲᐯ	-10.1808
ᐗᓇᑯᔕ	-10.1809
ᑭᐴᔔᐃᑯᐙ	-10.181
ᐁᓀᑖᑯᓯ	-10.181
ᐋᐃᓯ	-10.181
ᒥᑕᑲᒥ	-10.181
ᐱᑾᒋᐊᔭᐋᐎᔕ	-10.181
ᐅᑌᒐᓬᐃᒪ	-10.181
ᑭᒋᐅᔑᐲᐃᑫᐎ	-10.1811
ᐅᓵᐙᐱᑯ	-10.1813
ᑲᕒᐄ	-10.1838
ᐅᒪᒋᑑᑕᒧᐎᓂᐙ	-10.1839
ᓰᐲ	-10.184
ᒫᒑᐙ	-10.1843
ᑭᒨᑎ	-10.1846
ᑖᑭ	-10.186
ᑳᑎᐯᓂᒫ	-10.1862
ᑕᐱ	-10.1886
ᐊᑐᒥ	-10.1887
ᒀᓂ	-10.1888
ᐱᓯᑕᒧ	-10.1893
ᑳᓇᑲ	-10.19
ᒋᐐᒋ	-10.1934
ᐃᔑᐌᐱᓯ	-10.1935
ᓵ	-10.194
ᑌᓂ	-10.1946
ᐅᑑᓇᔓᐌᐎᓂ	-10.1952
ᒦᑭᐌ	-10.1962
ᑳᓬᐊᓬᐄᐎ	-10.1964
ᐅᑕᔮ	-10.1966
ᐊᔮᒪᑲ	-10.1987
ᐁᐊᔮᓂ	-10.2021
ᓯᐎ	-10.2025
ᐅᒑᓂᒥᓯ	-10.204
ᓈᓈ	-10.2045
ᒥᐙ	-10.2049
ᑮᑎᓄᐎ	-10.2059
ᓅᑖᑯᓯ	-10.2091
ᐊᐸ	-10.2092
ᐃᔑᒋᑫᐗ	-10.2109
ᓰᓈᐙ	-10.2139
ᐁᓅᑕ	-10.2151
ᑎᐸᐃᑲ	-10.2155
ᑭᑭᑫᓂᒥ	-10.2175
ᑭᑫᓂᒥ	-10.2207
ᑌᐺᔦᓂᒫ	-10.2208
ᐱᒫᒋᐋ	-10.2216
ᐅᓇ	-10.2218
ᓂᓯᑐᑕ	-10.222
ᑭᒋᐊᓇᒥᐁᐎᑲᒥ	-10.2227
ᓵᑭᐃᐌᐎ	-10.2231
ᐋᐸ	-10.2254
ᐅᔑᐲᐃᑲ	-10.2255
ᐋᓬᐃ	-10.2262
ᑳᐐᒋᐅᑌᐺᑕᒨᒥ	-10.2264
ᑭᐱᒫᑎᓯᐎᓂᐙ	-10.2264
ᑮᐲᑎᑫ	-10.2267
ᐁᐃᔑᒋᑫ	-10.2283
ᓃᔮ	-10.2284
ᑭᒋᐊᐱᐎᓂ	-10.2287
ᐅᐱᒣ	-10.2288
ᐃᓀ	-10.229
ᐅᑎᔑᒋᑫᐎᓂᐙ	-10.2296
ᐅᑑ	-10.2299
ᐅᔥᑮᔑᑯ	-10.2301
ᓵᑭᐃ	-10.2309
ᐃᔑᓂᔕᐙ	-10.2314
ᑭᑭᓄᐃᑫ	-10.2317
ᑳᑎᓄᐎ	-10.233
ᐌᓂ	-10.2344
ᐅᑎᐯᒋᑫᐎᓂ	-10.2346
ᐐᒌᐎᑰ	-10.2346
ᐅᑎᐯᒋᑫᐎᓂᓂ	-10.2359
ᑕᑶᔑ	-10.2361
ᒪᓯᓇᐃᑲᓂ	-10.2362
ᓈᓯᑲᐙ	-10.2367
ᑎᐹᒋᒧ	-10.2397
ᐁᓂᑯ	-10.2423
ᐌᐱᓇ	-10.2438
ᕒᐃᔭ	-10.2464
ᐊᔨ	-10.2487
ᐅᓂᔑᔑᓂᓂ	-10.2495
ᓂᔑᐗᓈᑎᓯ	-10.2529
ᐊᓇᒥᐋᐎ	-10.2544
ᐅᑭᒫ	-10.2553
ᒋᑎᐯᑕ	-10.256
ᒥᑲ	-10.257
ᐊᔮᔭ	-10.2589
ᒋᐐᒋᐃ	-10.2628
ᒥᓄᐊᔮ	-10.2631
ᒋᐲᑎᑫ	-10.2632
ᑳᑮᐃᓂ	-10.2649
ᑕᐎ	-10.265
ᑎᐹᒋᒫ	-10.2683
ᐐᒌᑎ	-10.2691
ᑕᒪᐎ	-10.2705
ᑳᐃᔑᐊᔮ	-10.2707
ᑭᑫᑖᓈᐙ	-10.271
ᑭᑭᓄᐊᒪᐙᑲ	-10.2718
ᑲᓇᐙᐸᒫ	-10.2732
ᐅᒥᔅᑸ	-10.2737
ᐅᓇᔓᐌᐎᓂ	-10.274
ᓵᐃᓬᐊ	-10.274
ᐁᑎᔮ	-10.2741
ᑭᐸᐅᑏᐎᑲᒥ	-10.2742
ᑭᑭᒋ	-10.2746
ᐊᑖᐙᑫ	-10.2763
ᑕᓄ	-10.2769
ᐙᐸᑕᐃᐌ	-10.277
ᑳᑮᐅᔑᑑ	-10.2773
ᓂᔑ	-10.2773
ᐸᓃ	-10.2775
ᑳᓃᑳᓀᑖᑯᓯ	-10.2777
ᐊᔓᑕᒪᐙ	-10.2792
ᐐᒋᐃᑯ	-10.2842
ᐁᔮᐙ	-10.2843
ᑑᑕᒣ	-10.2859
ᐁᔑᐊᔮᓂ	-10.2864
ᒪᓈ	-10.2865
ᐅᑮᑲᓅᓈ	-10.2872
ᓃᑳᓂ	-10.2874
ᐱᒥᓂᔕᐅᑯ	-10.288
ᓂᑳᑌ	-10.2889
ᓈᑾ	-10.2894
ᓱᑮᔑ	-10.2907
ᓅᑕ	-10.2916
ᐁᓀᑕ	-10.2933
ᐗᑭᐸ	-10.2936
ᒋᑕᑯ	-10.2945
ᑎᓱ	-10.295
ᐃᔖᔮ	-10.2956
ᒋᐱᒫᑎᓯ	-10.2983
ᑭᑌᓂᒥ	-10.2989
ᐲᑑ	-10.2992
ᐃᓇᑭᒫ	-10.2994
ᑳᑮᐅᒌ	-10.3007
ᓀᑕᒣ	-10.3027
ᐅᑎᔑᒋᑫᐎ	-10.3049
ᐲᑎᑫᐙ	-10.3061
ᒋᑑᑕ	-10.3066
ᑳᒪᒋ	-10.3075
ᑑᑖ	-10.3085
ᐁᒥᒋ	-10.3091
ᒋᑫᐙ	-10.3103
ᐅᑮᑲᑴ	-10.3104
ᒥᓴᐌᑕ	-10.3106
ᐅᑑᓇᔓᐌᐎ	-10.3106
ᑌᐺᔦᑕᒧᐎ	-10.3116
ᑕᒪ	-10.3136
ᔖ	-10.3142
ᐊᔮᓰ	-10.3146
ᒋᐐᒌᐎᑯ	-10.3161
ᐐᑕᒫᑰᔦ	-10.3162
ᓂᑯᑣ	-10.3164
ᑳᐃᑭᑐᓂ	-10.3193
ᐁᑮᒫᒌ	-10.3197
ᓂᐴᒪᑲ	-10.3211
ᐊᓇᒥᐁᑕᐙ	-10.3222
ᐊᐯᓂᒧ	-10.3226
ᑕᑯᔑᓅ	-10.3232
ᐊᐱᓅᒌ	-10.3236
ᓃᑳᓇᔭᐄ	-10.324
ᑭᑌᐺᑕᒧᐎᓂᐙ	-10.324
ᒪᓂᑑᑳᓇ	-10.324
ᐊᔭᐋᐎᔕ	-10.3241
ᒥᑎᑰ	-10.3247
ᑲᒀᑕᑭᐋ	-10.3251
ᓵᑭᒋ	-10.3253
ᐁᐐᒌᐗ	-10.3261
ᑳᑮᒦᔑ	-10.3265
ᐊᓇᒥᐁᑕᐎ	-10.3268
ᒋᑲᔥᑭᑑ	-10.3278
ᐴᓂ	-10.3283
ᐁᓃᐸᐎ	-10.3288
ᑭᑫᑖᑾ	-10.3293
ᐅᑭᔐᐙᑎᓯᐎᓂ	-10.3296
ᒋᒦᓂ	-10.331
ᐱᒫᑎᓯᔮ	-10.3315
ᑳᒥᓄ	-10.332
ᑳᑮᑕᔑ	-10.3334
ᑭᑮᐱ	-10.3347
ᓵᑭᐃᐌᐎᓂ	-10.3381
ᐋᑯᓯ	-10.341
ᑯᐸ	-10.3414
ᐃᑎᐗ	-10.3426
ᒦᓂᓇ	-10.3438
ᑳᐃᔑᐊᔮᓂ	-10.3447
ᒥᑎᑯ	-10.3472
ᐃᔑᐎᓂ	-10.3477
ᐱᑕᑯᔑ	-10.3506
ᒥᓂᒀᑲ	-10.3508
ᓂᑎ	-10.3555
ᐸᑭᑎᓂᑎᓱ	-10.3559
ᐱᒫᑎᓯᐗ	-10.356
ᒋᐅ	-10.356
ᐗᓀ	-10.3577
ᑫᐊᔮ	-10.3601
ᐃᑕᐙ	-10.3602
ᓈᐸ	-10.3618
ᐃᑭᑐᐗ	-10.3629
ᒑᑭ	-10.366
ᐃᔥᒀᓭ	-10.3677
ᐃᔑᒋᑫᔮ	-10.3694
ᑮᐱᐅᒋ	-10.3709
ᓬ	-10.3721
ᐅᑮᐃᔑᓂᔕᐙ	-10.3725
ᓇᑭ	-10.3728
ᓂᑑ	-10.3733
ᐱᑾᑎᓈ	-10.3734
ᐅᑮᐅᑖᐱᓈ	-10.3736
ᑭᑎᑳᓇ	-10.3737
ᐸᔦ	-10.3742
ᓂᐳᓂ	-10.3749
ᐃᓈᑎᓯ	-10.3751
ᐐᑕᒪᐎᔑ	-10.3761
ᓬᐋᓴᕒᐊ	-10.3766
ᐱᒥᓂᔕᐅ	-10.3766
ᐲᑎᑲᓈ	-10.3766
ᒉᑲ	-10.3767
ᑭᑫᑌᔭᐋᒥᓈᐸᓃ	-10.3768
ᐱᓯᑕᐎᔑ	-10.3769
ᐊᔮᐎᓂ	-10.3777
ᓰᑲᐊᑖᑫ	-10.3783
ᑳᑭᑎᒫᑭᓯ	-10.3786
ᐁᑕᓱᐯᔑᑯ	-10.3787
ᔥᑳᑯ	-10.3795
ᑭᑫᑕᒪ	-10.3798
ᐃᔑᒋᑫᐎ	-10.3799
ᓈᑯᓯᓂ	-10.3807
ᒌᒥᓴ	-10.381
ᑖᑯ	-10.3811
ᐅᑮᐃᑯᐙ	-10.3815
ᑭᑭᓄᐊᒫᑫᐎ	-10.3817
ᑳᐌᓅᑎᓯ	-10.3833
ᑳᐃᔑᐲᐃᑳᑌ	-10.3833
ᐌᐱᓈ	-10.3846
ᐃᔖᐗ	-10.3858
ᑲᓅᑕᒪᐙᐙ	-10.3862
ᓂᑎᑭᑐᐎ	-10.3865
ᐗᑮ	-10.3883
ᐱᒥᓂᔕᐙᐙ	-10.3893
ᐁᐐᐅᒋ	-10.39
ᒦᓂᓐ	-10.3909
ᒪᑲᓂᓂ	-10.392
ᓅᑌ	-10.3923
ᐱᓵᓀᑕᒧᐎ	-10.3927
ᒋᐊᔮ	-10.3927
ᐌᓅᒋ	-10.393
ᐌᒌᓂ	-10.3941
ᑌᐺᑕᒥᓂ	-10.3954
▁¦4	-10.3959
ᐅᑮᒫᒌ	-10.3973
ᐐᒋᐃᐌ	-10.3994
ᐅᓃᒑᓂ	-10.4017
ᑫᐱ	-10.4034
ᐊᓈᒥ	-10.4041
ᐱᐊᑕ	-10.4067
ᒥᑲᐙ	-10.4079
ᑴᑳᑎᓯ	-10.4089
ᓈᓯᑳᑯ	-10.409
ᑰᔮ	-10.4093
ᑭᓯ	-10.4103
ᓂᓵ	-10.4115
ᑫᐃᔑᒋᑫ	-10.4116
ᑲᔥᑭᑑᔦ	-10.4116
ᐅᓈᐯ	-10.4121
ᒥᓉᑕᒧ	-10.4126
ᑭᒋᑮᔑ	-10.415
ᐲᒋ	-10.416
ᐱᒫᑎᓯᔦ	-10.4162
ᐁᐱᒫᑎᓯ	-10.4164
ᐊᒦᐗ	-10.4185
ᐃᔑᒋᑫᔭ	-10.4194
ᒫᒪᑳᒋᒋᑫ	-10.4201
ᑭᑫᑕ	-10.4201
ᒪᓂᑑ	-10.4204
ᓇᒀ	-10.4206
ᓂᓯᑐᑕᓰ	-10.4214
ᑕᒦᓈ	-10.4225
ᐹᑏᓇᑎ	-10.4264
ᑭᑫᑕᒫ	-10.4275
ᓇᔥᑫ	-10.4283
ᑎᔅ	-10.4283
ᔛ	-10.4289
ᑲᑴᒋᒥᑰ	-10.431
ᒪᒫᔒ	-10.4315
ᐊᓇᒥᑑ	-10.4318
ᓈᑾᓂᓂ	-10.4318
ᐱᑾᒋᐊᔭᐋᐎ	-10.4321
ᒎᑏᔮ	-10.4322
ᐱᓀᔒᔕ	-10.4322
ᓭᓴᕒᐄᔭ	-10.4322
ᓇᓈᑯᒧ	-10.4322
ᐲᒋᓂᔕᐙ	-10.4322
ᐊᑳᒥ	-10.4323
ᐱᒥᔑᓂᓂ	-10.4325
ᐁᐃᔑᓭ	-10.4326
ᒫᒋᓭ	-10.433
ᐅᑕᓄᑮᐎᓂᐙ	-10.4343
ᑭᑭᔐᒪᓂᑑᒥᓈ	-10.4346
ᑳᑮᐊᔓᑕᒫᑫ	-10.4351
ᒪᒀ	-10.4354
ᑭᑫᑕᒥᓂ	-10.4369
ᓂᐴᔔᐋ	-10.4372
ᓈᓈᑲᑕᐌᑕ	-10.4375
ᐐᔭᐎᓂ	-10.4381
ᐸᑴᔑᑲᓂ	-10.4406
ᑎᐯᑕᒥᓂ	-10.4426
ᑌᐺᔦᓂᒥ	-10.445
ᑕᑯᔑᓄᐙ	-10.4458
ᐅᓇᔓᐌᐎᓂᓂ	-10.4459
ᒎ	-10.4463
ᓂᑭᑫᓂᒫ	-10.4477
ᒥᓍᐸᑕ	-10.4486
ᐊᑕᐌᓂᒫ	-10.4487
ᐁᑮᒦᓈ	-10.4493
ᐃᔑᑮᔗᐎ	-10.4507
ᐃᑰᔦ	-10.4517
ᑮᑮᐌ	-10.4558
ᓂᓯᑰ	-10.4576
ᐐᑾᑎ	-10.4589
ᑕᔑᒫ	-10.4605
ᓯᐎᓐ	-10.461
ᐁᐙᐸᑕ	-10.4625
ᑭᑫᓂᒫᓰ	-10.4627
ᐸᑭᑎᓈᓱ	-10.4644
ᐸᑭᑎᓇ	-10.4668
ᑫᒋᓈᐅ	-10.4672
ᒋᐐ	-10.4691
ᐅᑭᒫᐎᐎ	-10.4702
ᐎᓂᓂ	-10.4713
ᐱᓈ	-10.4717
ᒥᔅ	-10.4719
ᑎᔭ	-10.4731
ᐐᔭ	-10.4735
ᐗᑭᒋ	-10.4749
ᓬᐃ	-10.4762
ᐱᓯᑕ	-10.4767
ᑲᔥᑭᐋ	-10.4784
ᔕᐌᓂᒥ	-10.4791
ᐐᓱᐎ	-10.4795
ᐊᑐᒫ	-10.4798
ᑎᓄᐎᔮ	-10.4798
ᒪᑗ	-10.4803
ᐱᒫᒋᐃ	-10.4811
ᓂᓱᑮᔑ	-10.4814
ᑳᑎᐯᓂᒥᑯ	-10.4821
ᑎᐱᓇᐌᐎᓯ	-10.4824
ᓭᓯ	-10.4825
ᑲᓂᓂ	-10.4831
ᒋᐃᑭᑐ	-10.4834
ᐃᔅᕒᐃᔭᓬ	-10.485
ᑎᐹᑯᓈ	-10.4851
ᑳᐸᐎ	-10.4853
ᓉ	-10.4867
ᑸᐎᓭ	-10.4875
ᔩ	-10.4886
ᓃᒥᑕᓇ	-10.4907
ᐅᓃᑭᐃᑰ	-10.491
ᐅᓯᑎ	-10.491
ᔔᒥᓇ	-10.491
▁–	-10.4911
ᑲᓇᐌᓂᒫ	-10.4911
ᐁᑭᑑᒪᑲ	-10.4913
ᑯᑖᒋ	-10.4915
ᐙᐸᒥᑯ	-10.4923
ᑭᑌᓂᒫ	-10.4925
ᑕᐃᑕ	-10.4931
ᐊᑑ	-10.4932
ᑭᐐᔭᐎᐙ	-10.4942
ᑲᑮᑖᐌᑕᒧᐎ	-10.4942
ᐃᔅᕒᐃᔭᓬᐃ	-10.4959
ᐅᑌᑌᒫ	-10.4961
ᒪᒋᒋᑫ	-10.4966
ᒪᒋᐊᒑ	-10.4967
ᑳᐋᑯᓯ	-10.4967
ᐁᐃᔑᓂᑳᑌᓂ	-10.497
ᑮᐃᓀᑕᒨ	-10.4972
ᒦᑴᒋᐌᓂᒫ	-10.4972
ᑳᒦᑭᐌ	-10.4976
ᓂᑮᐱ	-10.4978
ᒌᑭ	-10.4998
ᐊᑕᐌᑕᒥᓂ	-10.4999
ᒋᐃᔑᓈᑯᓯ	-10.5
ᑌᐺᑕᒧᐎᓂ	-10.5001
ᑳᐃᑕ	-10.5036
ᐁᑮᔑᑲ	-10.5039
ᑳᐃᓀᑕ	-10.5045
ᑫᒦᒋ	-10.5046
ᐸᑭᑎᓇᒪᐙ	-10.5068
ᑌᐺᑕᒧᐙ	-10.5072
ᐸᐹᒥ	-10.5086
ᐅᑑᓂ	-10.509
ᑭᑭᔥᑳᑯ	-10.5115
ᑕᔑᑕᒧᐙ	-10.5119
ᐅᐌᓂ	-10.515
ᐅᐐᓱᐎ	-10.5162
ᑯᓵ	-10.518
ᐱᒥᐊᔮ	-10.5188
ᐱᑮᐌ	-10.5206
ᐅᑖᐱᓇᒪᐙ	-10.5213
ᑾᔭᒀᑎᓯ	-10.5218
ᐁᒀ	-10.5232
▁¦1	-10.5253
ᑕᒫᑯ	-10.5258
ᒋᐲ	-10.5259
ᐐᔭᐎ	-10.5259
ᐱᔑᒀᑎᓯ	-10.5274
ᐳ	-10.5285
ᓇᑲᓂᑯ	-10.5292
ᐐᑎᑫ	-10.5308
ᐌᓂᔑᔑ	-10.5309
ᑲᓅᑕᒪᐙ	-10.5353
ᒋᑑᑕᒫ	-10.5355
ᓅᑕᒥᓂ	-10.5365
ᓂᔑᐗᓈᒋᐃ	-10.5366
ᑮᐐ	-10.5388
ᔨ	-10.5389
ᑳᔑᐊᔮ	-10.5413
ᑕᑾ	-10.5419
ᐅᑭᑭᔥᑭᑲ	-10.5431
ᒌᑫᑕ	-10.5444
ᐁᐅᒌ	-10.5449
ᑌᐺᑕᒧᐎ	-10.5452
ᒪᑭ	-10.546
ᑭᑭᓄᐊᒪᐎ	-10.5469
ᒦᔑ	-10.547
ᐁᐱᒥ	-10.5472
ᐅᑕᓇᒥᐁᐎᑲᒥᑯ	-10.5475
ᕒ	-10.5494
ᐅᓈᐸᒫ	-10.5496
ᑮᔖ	-10.55
ᑲᔥᑮᑎᐱᑲ	-10.5507
ᐐᑕᒫᑰ	-10.5509
ᒦᓂᑯᐙ	-10.5522
ᐅᑮᐐᑕᒪᐙ	-10.5525
ᓂᑑᑭᒫ	-10.5525
ᑲᑲᓅᓂᑎ	-10.5529
ᑰᑰᔕ	-10.5535
ᒣᓬᑭᓯᑌ	-10.5535
ᐅᑎᔑᓂᑳᓱᐎᓂ	-10.5535
ᒥᓈᑾᐅ	-10.5535
ᓇᑭᒋᑳᓱ	-10.5535
ᐊᔕᐙᐱ	-10.5535
ᑭᑎᑰ	-10.5539
ᐅᑾᔭᒀᑎᓰᒪ	-10.554
ᑭᓅᔐ	-10.5541
ᑳᒫᒪᐌᓄ	-10.5543
ᒫᕒᑕ	-10.5545
ᑕᔑᑕᒥᓂ	-10.5547
ᒋᐙᐸᒥ	-10.5551
ᓇᑴᑖᑯ	-10.5557
ᑭᑫᓂᒥᑰ	-10.5559
ᑮᓂᐳ	-10.557
ᐗᑸ	-10.557
ᑸᐎᓭᓴ	-10.5572
ᑭᑫᑖᓱ	-10.5576
ᐁᐸᕒᐊᐋᒥ	-10.5577
ᑭᑌᑌᐙ	-10.5584
ᓃᑳᓀᑖᑯᓯ	-10.5589
ᑳᑮᓂᐳᓂ	-10.5603
ᒥᑖᔑ	-10.5604
ᓂᑕᔮ	-10.5605
ᑳᒫᒪᐎ	-10.5619
ᐅᐐᒋ	-10.5622
ᒥᓄᓭ	-10.5634
ᑭᑯᓯ	-10.5637
ᐅᔑ	-10.5639
ᐊᑮᐎ	-10.5671
ᐁᐊᓇᒥᐋ	-10.568
ᑳᑮᐅᒌᓂ	-10.5681
ᒋᓂᓯ	-10.5681
ᐁᐃᔑᓈᑯᓯ	-10.5682
ᐃᔑᔭ	-10.5691
ᐱᓯ	-10.5697
ᔑᔮ	-10.5715
ᓄᐙ	-10.5718
ᓅᑕᐙ	-10.5726
ᐅᑭᒫᐎ	-10.5733
ᑖᐅᓂᔑᔑ	-10.5745
ᒋᐊᑕ	-10.5752
ᐐᑾᑎᐎᓐ	-10.5754
ᐁᑮᓅᑕ	-10.5765
ᓂᑯᑣᓱ	-10.577
ᑳᑮᐃᑭᑐᓂ	-10.5781
ᒪᔥᑲᐌᑕ	-10.5784
ᑎᐯᓂᒥᓀ	-10.5794
ᑳᑮᐐᒌᐎᑯ	-10.5802
ᑑᓂ	-10.5811
ᓈᑾᑭ	-10.5812
ᒦᓂᑰᔦ	-10.5813
ᐃᓈᐙ	-10.5833
ᐱᓯᑕᐎ	-10.5846
ᔥᑳᑯᐙ	-10.5852
ᑲᐎ	-10.586
ᒥᓯᐌᑲᒥ	-10.5869
ᐁᐸᐹ	-10.5881
ᑌᐺᑕᐙᐙ	-10.5885
ᑳᐅᒌᓂ	-10.5904
ᑕᔑᑕ	-10.591
ᐅᑕᔭᐄᒥ	-10.5913
ᓬᐊ	-10.5915
ᐃᔑᒋᑫᓂ	-10.5916
ᒋᒥᓄ	-10.5924
ᑕᐙ	-10.5926
ᑖᐙ	-10.5932
ᐎᑭᒫ	-10.5941
ᓃᑕᓇᒥᐋ	-10.5988
ᑭᒋᐆᑌᓇ	-10.5998
ᑮᐌᐙ	-10.6013
ᑭᑎ	-10.6013
ᑲᒀᑕᑭᑑᐎ	-10.6027
ᑕᒧ	-10.6029
ᒦᑲᓇ	-10.6045
ᐊᑌᓂ	-10.6049
ᐁᓂᑖ	-10.6059
ᒌᑫᑕᒧ	-10.608
ᔕᔒᐯᑕ	-10.6093
ᐊᓄᑮᒪᑲᓂᓂ	-10.6101
ᑭᔒᐌ	-10.611
ᐃᓀᑕᒫ	-10.6111
ᑾᔭᑯ	-10.6112
ᒦᐗᑭ	-10.6121
ᓂᓯᑯ	-10.6125
ᑫᑕ	-10.613
ᑭᑕᔮ	-10.6153
ᒀᐸ	-10.6154
ᒥᓈ	-10.6165
ᐊᓉᐱ	-10.6166
ᓅᑎ	-10.6189
ᑯᓰᐙ	-10.6194
ᓭᑲᕒᐋᔭ	-10.6202
ᑎᒫᔅᑲ	-10.6202
ᑫᐃᔥᒀᓭᓯᓄ	-10.6202
ᑭᓀᐱᑰ	-10.6202
ᒞᕒᑕ	-10.6202
ᐴᓂᓭᓯᓂᓂ	-10.6202
ᓬᐄᐹ	-10.6203
ᐃᓉᐎ	-10.6203
ᑫᓅᑕᒪᐙ	-10.6203
ᐌᓅᑕᓂᓂ	-10.6203
ᐐᒋᐊᔮᒫ	-10.6205
ᒪᓂᔑᑫ	-10.6206
ᓂᑮᓅᑖ	-10.6206
ᓂᑮᐙᐸᑖ	-10.6206
ᐐᑾᑫ	-10.6206
ᓂᑮᓅᑕᐙ	-10.6207
ᑭᐸᐅᑰᔮ	-10.6208
ᒫᓯᑑᓂᔮ	-10.6209
ᒥᒋᓇᐌᓯ	-10.6212
ᑭᑎᑫᐎᓂᓂᐗ	-10.6215
ᑮᐲᔖᐗ	-10.6219
ᐃᑴᓭ	-10.622
ᑫᐊᐲᒋ	-10.6223
ᐁᐐᐃᔑᒋᑫ	-10.6223
ᒋᓂᔑᐗᓈᑎᓯ	-10.6228
ᑳᑌᐺᑕ	-10.6239
ᐁᐱᒧᓭ	-10.6248
ᒥᒋᓃ	-10.625
ᐁᓇᒪᑕᐱ	-10.6252
ᐅᑮᓈᓯᑲᐙ	-10.6267
ᐙᐸᑕᐋ	-10.6269
ᔭᐸ	-10.6271
ᐁᐅᒋᒋᓭ	-10.6272
ᐃᓂᑖᑯᓯ	-10.6275
ᒫᒋ	-10.6278
ᑳᓇᒪᑕᐱ	-10.628
ᒫᒌᔮᔑ	-10.6293
ᑳᐲ	-10.6295
ᐃᑳᑌ	-10.6303
ᐅᑎᒀᓂ	-10.6312
ᑲᓅᑕᒫᑯ	-10.6332
ᑭᑫᑕᓰ	-10.6335
ᐁᐐᐃᔑ	-10.6352
ᐃᑭᑐᐙ	-10.6361
ᐱᑕᑶᔑ	-10.637
ᒥᒥᓐ	-10.6373
ᓅᑕᒨ	-10.6386
ᑫᔭ	-10.6392
ᑳᑮᐃᔑᒋᑫᓂ	-10.6393
ᐁᔑᓭ	-10.6425
ᑳᐃᔑᓭᓂ	-10.6434
ᑫᒀ	-10.6453
ᑕᑯᔑᓂ	-10.646
ᐁᑮᑕᔑ	-10.6472
ᑣᐸ	-10.6478
ᒋᐙᐱ	-10.6482
ᓃᔓ	-10.6496
ᑳᓵᑭᐊ	-10.6498
ᑎᐸᐊᒪᐎ	-10.6505
ᐌᐱᓂ	-10.6511
ᐐᑕᒫᑫᐙ	-10.6514
ᑫᐙ	-10.6529
ᑕᑯᔑᓈ	-10.6532
ᒫᒌᑑ	-10.6544
ᓂᑮᐃᓈ	-10.6545
ᐋᐎ	-10.6572
ᓵᒥᓈ	-10.6583
ᓇᒧᐙ	-10.6585
ᑭᐱᒌ	-10.6598
ᑑᑖᑰ	-10.6635
ᒋᐴᓂ	-10.6641
ᐱᒫᑎᓯᔭ	-10.6648
ᔕᔒᐱᑕ	-10.665
ᐅᔕᐌᒋᑫᐎ	-10.6652
ᐅᐱᒫᑎᓯᐎᓂ	-10.6661
ᑲᓅᓂᑯ	-10.6664
ᓈᑲ	-10.6699
ᐊᓈᒥᒥ	-10.6723
ᒥᑕᑎ	-10.6728
ᑳᑮᔑᑲᓂᓂ	-10.673
ᐋᑕ	-10.6733
ᐅᒪᔥᑲᐎᓰᐎᓂ	-10.6743
ᐲᒋᓂᔕᐅ	-10.6743
ᐅᑎᒀ	-10.6753
ᒋᒥᓄᐊᔮ	-10.6756
ᐱᒥᓂᔕᐙ	-10.6781
ᑲᓅᓈᐙ	-10.6786
ᐁᓵᑭᐃ	-10.6792
ᓂᐗᓂᓂ	-10.6793
ᐊᒸ	-10.681
ᒋᐋ	-10.6817
ᐸᑭᑎᓂᑰ	-10.6824
ᐅᒌᓂ	-10.6842
ᐋᔩᒋ	-10.6843
ᑌᐺᔦᑖᑯᓯ	-10.6852
ᑳᐃᓇᑌ	-10.6854
ᑖᑮ	-10.6855
ᒫᒑᐗ	-10.6859
ᐙᐸᑖᓈᐙ	-10.6861
ᑭᑌᑌ	-10.6864
ᐐᑎᑫᒫ	-10.6866
ᐁᐋᐎ	-10.6866
ᐊᔭᔮ	-10.6877
ᒪᒋᑫᑰ	-10.6887
ᕒᐊ	-10.6909
ᐴᔥᑫ	-10.6911
ᐄᐸᕒᐆ	-10.6916
ᐅᒪᒋᑑᑕᒨ	-10.6916
ᑫᑎᒫᑭᓯ	-10.6916
ᐸᑭᓈᑫ	-10.6917
ᒪᔥᑲᐎᑳᐸᐎ	-10.6917
ᐅᑕᐌᒫ	-10.6917
ᐯᕒᐊᓰᐎᓂᓂᐗ	-10.6917
ᐴᓀᑕᒪᐙ	-10.692
ᐃᔑᒋᑫᓰ	-10.6928
ᐸᕒᐊ	-10.6929
ᐊᓯᓃᐎ	-10.6931
ᔕᐌᓂᒥᓇ	-10.6933
ᑮᒫᒪᑳᑌᑕᒨ	-10.6938
ᑳᑮᑭᑐ	-10.6951
ᒪᔭᑭ	-10.6953
ᐁᑾᔭᒀᑎᓯ	-10.6954
ᒪᒥᔑᒥ	-10.6957
ᑭᒋᐅᑭᒫᐎ	-10.6962
ᐁᔑᑖᓂ	-10.6966
ᐅᒪᒋ	-10.6967
ᑭᑭᑫᑖᓈᐙ	-10.6971
ᐋᐌᒋᑲ	-10.6972
ᐊᒧ	-10.6974
ᑳᒥᓍᐸᑕ	-10.698
ᐊᔮᓯ	-10.6992
ᓀᑖ	-10.6992
ᒫᔑᒥᑕᑎᒨ	-10.6995
ᑲᑮᓇᐎᔥᑭ	-10.6998
ᑭᒋᐊᓇᒥᐁᐎᑭᒫᐎ	-10.7003
ᑮᐸᓯᑸ	-10.701
ᑕᐙᐙ	-10.7014
ᑯᓂ	-10.7015
ᐁᐹᑏᓄ	-10.7017
ᑳᒥᑖᔑᓃᔑ	-10.7018
ᑭᒋᓂᑭ	-10.7029
ᐅᑕᔓᑕᒫᑫᐎ	-10.7039
ᑳᑾᔭᑯᓈᑾ	-10.704
ᐅᐱ	-10.7054
ᑖᓂ	-10.7064
ᐁᑮᐙᐸᑕ	-10.708
ᐁᐃᔑᐲᐃᑳᑌ	-10.7081
ᑳᑮᓂᑖ	-10.7105
ᐙᐸᑕᒫ	-10.7106
ᐐᒌᐗ	-10.7112
ᓯᓅᓇ	-10.7115
ᐅᓈᐯᒥ	-10.7117
ᑳᑲᔥᑭᑑ	-10.7121
ᐴᓀᑕᒪᐎ	-10.7121
ᑳᓂᐳᐙ	-10.7122
ᐅᐐᔭᐎ	-10.7133
ᐁᑮᐐ	-10.7133
ᐯᑕ	-10.715
ᑮᔖᒋ	-10.715
ᑳᑮᒦᓂ	-10.7152
ᐱᓈᓯᑳᑯ	-10.7154
ᓀᑕᒥᓂ	-10.716
ᒦᓂᑣ	-10.7181
ᒋᒥᓄᓭ	-10.7186
ᐅᓇᐱ	-10.7193
ᑕᒫᑯᓈ	-10.7199
ᒋᐊ	-10.7199
ᒋᑮᐌᐱᒫᑎᓯ	-10.7199
ᑳᑮᒫᒌ	-10.7207
ᐊᓵ	-10.721
ᐃᓇᔥ	-10.7214
ᑕᐃᔑᓭ	-10.7218
ᑌᐱᓈ	-10.7232
ᑭᑮᐅᒋ	-10.7234
ᑳᓂᑖᐎᑭ	-10.7245
ᐙᐸᑖ	-10.7251
ᒋᑭᑫᓂᒥ	-10.7259
ᑲᔥᑭᒋᑫ	-10.7293
ᐗᔭᐄ	-10.7296
ᐁᑌ	-10.7304
ᐁᒪᒋ	-10.7322
ᐊᑲᒋ	-10.7331
ᐹᐱ	-10.7336
ᑳᑌᐺᑕᓯ	-10.7339
ᑲᐌ	-10.7377
ᒪᔥᑲᐌᑖᑯᓯ	-10.7398
ᑫᐃᔑᓭ	-10.7406
ᒋᑎᐹᑯᓂ	-10.7424
ᑳᐅᒋᑎᐯᑖᑯᓯ	-10.7443
ᑮᐃᓈ	-10.7448
ᐸᔑᐸᐃᑫᐎᑯᒫ	-10.7454
ᓈᓯᑲᐎ	-10.7467
ᐊᔑ	-10.7485
ᑴᑕ	-10.7485
ᐃᓇᓄᑮ	-10.7489
ᐃᔑᐌᐱᓯᐙ	-10.749
ᐁᑮᐅᒌ	-10.7494
ᑲᑴᒋ	-10.7496
ᑮᐃᔑᓂᑳᓱ	-10.7503
ᒥᓄᐊᔮᐃ	-10.7511
ᐅᑕᒑᑯ	-10.7536
ᐃᔑᓂᔕᐅᑯ	-10.7555
ᑳᐊ	-10.7562
ᑕᔅ	-10.7577
ᒨᔥᑭᓀᔥᑳᑯ	-10.7588
ᒋᐲᔖ	-10.7589
ᓅᔅ	-10.759
ᑲᓂ	-10.7591
ᐃᔑᐌᐸᓂᓂ	-10.7601
ᒥᒋᐯᔑᑯ	-10.7625
ᓈᓯᑲᐙᐙ	-10.7642
ᑭᑲᐐᒌᐎᑯ	-10.7655
ᑳᔒᑫᓂᒥ	-10.7662
ᒋᐙᐸᑕ	-10.7663
ᐙᐱᔥᑮᑭ	-10.7665
ᑌᐺᑕᒨ	-10.7678
ᐅᓈᑯᔑᓂᓂ	-10.768
ᑲᐋᒀ	-10.7683
ᓃᓵᑕᐌ	-10.7685
ᓴᒣᕒᐃᔭ	-10.7686
ᔮᐸᒋᑑ	-10.7687
ᐸᑾᒋᐱᑑ	-10.7687
ᐅᑖᑯᓰ	-10.7689
ᐹᐱᓬᐊ	-10.7691
ᑳᐃᔑᒫᒫᐗᒋᐃᑎ	-10.7692
ᓂᑎᓀᑕᓰ	-10.7695
ᔂᓬᐊᒪ	-10.7698
ᑕᐸᓰ	-10.7699
ᐃᔑᓂᑳᓈ	-10.7701
ᒑᐸ	-10.7703
ᒪᑲᑭ	-10.7707
ᓴᓭᑳ	-10.7709
ᓯᓄᑭ	-10.7709
ᐁᓀᑕᒫ	-10.7712
ᐹᑏᓄᐗ	-10.7712
ᑭᑫᑕᒨᓈ	-10.7716
ᐅᓇᔓᐌᐎᓂᓂᐗ	-10.7717
ᓂᐗ	-10.772
ᐱᓀ	-10.7728
ᑳᑕᓶᐙᓇᑭᓯᐙ	-10.7728
ᑳᐃᔑᒫᐗᒋᐃᑎ	-10.773
ᑭᒪᒋᑑᑕᒧᐎᓂᐙ	-10.7733
ᐐᓂᑯ	-10.7738
ᑳᓵᑭ	-10.7744
ᐁᐙᐸᒥᑯ	-10.7745
ᑭᔒ	-10.775
ᐁᑮᑭᑐ	-10.7755
ᑫᑫ	-10.7772
ᐲᑎᑫᔥᑳ	-10.7791
ᑲᓅᒋᑫᑕᒪᐙ	-10.7794
ᓈᑾᓯᓅ	-10.7797
ᑣᒪ	-10.7802
ᑮᐊᓅᑮ	-10.7805
ᐁᒋᑳᑌ	-10.7815
ᑭᑭᔥᑲ	-10.7819
ᑲᓇᐌᑕᒧᐙ	-10.7821
ᒋᓇ	-10.7833
ᐱᓈᓯᑲᐙ	-10.7841
ᓀᑖᑾᓂᓂ	-10.7842
ᐱᑕᑯᔑᓂ	-10.7845
ᑳᒫᐗᑑᓈ	-10.7853
ᐐᑕᓇᒥᐋ	-10.7872
ᐌᑕ	-10.7874
ᑭᑭᓄᐃᑫᐎ	-10.7876
ᐋᓇᑮ	-10.7878
ᓯᐙᓈ	-10.7886
ᐯᔑᒀ	-10.7887
ᑎᐯᓂᒥᑯ	-10.7887
ᑮᒫᒪᐎ	-10.7889
ᐁᐱᓴ	-10.7893
ᑳᒥᒋ	-10.7898
ᐅᑭᑫᑖ	-10.7899
ᐱᑑ	-10.7902
ᓂᑯᐙ	-10.7905
ᐅᓂᔥᑳᑎᓯᐎ	-10.7918
ᐁᔑᐊᔮ	-10.7922
ᑲᐎᓭ	-10.7933
ᐅᑎᔑᒋᑫᐎᓂ	-10.7935
ᑳᑎᐯᓂᒥ	-10.794
ᑫᑮᐅᒋ	-10.7944
ᐅᑮᐃᔑᐎᓈ	-10.7947
ᒋᒥᒋ	-10.7997
ᐐᑾᑎᓈᓂᐗ	-10.8003
ᑭᐐᒋ	-10.8006
ᑭᑎᔑᒋᑫ	-10.8007
ᑳᐱᒫᑎᓯᓂ	-10.8013
ᐃᔑᓭᓯᓅ	-10.8013
ᐙᐸᑕ	-10.8018
ᐅᒪᒋᑑᑕᒧᐎᓂ	-10.802
ᐅᑎᓈᑯᓂᑫᐎᓂ	-10.8021
ᒋᑎᐯᓂᒥᓀ	-10.8023
ᐙᐸᑕᒪ	-10.8025
ᓬᐆ	-10.8028
ᐅᐱᑭ	-10.8034
ᑳᓃᔣᒋ	-10.8035
ᑮᐃᓀᑕᓰ	-10.8049
ᒋᑎᓄᐎ	-10.805
ᐱᐅᒋ	-10.8062
ᒥᓴᐌᑕᒫ	-10.8078
ᓇᑲᑕ	-10.8082
ᑳᒦᒋ	-10.8089
ᑫᐃᔑᓈᑾ	-10.8096
ᐌᓅᑎᓯᐎ	-10.8098
ᑭᑫᓂᒫᐙ	-10.8119
ᑭᑲᒦᓂᑯ	-10.8126
ᑯᑯ	-10.8128
ᐳᐗ	-10.8135
ᓂᔑᑫ	-10.8143
ᐃᓀᑖᑯᓯᓰ	-10.8162
ᑕᒫᑫ	-10.8162
ᑑᔦ	-10.8163
ᑳᐱᒥ	-10.8166
ᑳᑮᐃᑯ	-10.8183
ᑳᐃᑭᑑᒪᑲ	-10.8192
ᓂᐲᓂ	-10.8194
ᐐᑕᒪᐙᐙ	-10.8199
ᐐᒌᐎᑯᐙ	-10.82
ᐸᑫ	-10.8201
ᑕᔑᑕᒫ	-10.8203
ᑳᐅᔫᓯ	-10.8203
ᑳᐃᓀᑖᑯᓯ	-10.8239
ᐲᔖᔮ	-10.8242
ᐁᐐᒌᐎᑯ	-10.8254
ᐲᑯᓇ	-10.8283
ᒥᓂᑴᔦ	-10.8287
ᒫᐗᒋ	-10.8332
ᑭᒋᐆᑌᓈ	-10.8333
ᓅᑕᐎ	-10.8345
ᓅᑕᒫ	-10.8345
ᑌᐺᑕ	-10.8348
ᐎᓰ	-10.8352
ᑕᓰᓈᐙ	-10.8362
ᐅᒌᐗ	-10.8366
ᑮᑮᐌᐱᒫᑎᓯ	-10.8367
ᑭᒪᒋ	-10.837
ᐋᐸᑕ	-10.8381
ᓵᑭᑑ	-10.8383
ᑎᐸᐃᑫ	-10.8385
ᑾᔭᑯᒋᑫ	-10.8396
ᑑᑕᒫ	-10.8401
ᒋᑑᑕᒣ	-10.8402
ᔖᑲ	-10.8422
ᓇᐃᑕ	-10.8423
ᓇᓈᑯᒫ	-10.8425
ᐃᔑᓂᑳᓱ	-10.8431
ᑕᐱᒫᑎᓯ	-10.8431
ᐁᑮᐊᑕ	-10.8433
ᓂᐸ	-10.8438
ᒪᒋᑑᑕᒧᐎᓂ	-10.8441
ᐅᑌᒐᓬᐃᒥ	-10.8461
ᔒᑫᓂᒫ	-10.8463
ᐊᑯᓴᑲᐅ	-10.8463
ᐁᐃᑯ	-10.8465
ᐃᔥᐯᑖᑯᓯ	-10.8467
ᑲᑮᒀ	-10.8473
ᐁᒪᑗ	-10.8477
ᑳᓂᐳ	-10.8486
ᓂᑲᐱ	-10.8489
ᐙᐱᔥᑭ	-10.8495
ᑮᐙᒋᑴ	-10.8496
ᓂᔑᐗᓈᒋᑑ	-10.8507
ᐗᓂᑑ	-10.851
ᑲᑮᑖᐎ	-10.8511
ᐊᔭᐋᐎ	-10.8517
ᐋᑲᕒᐃᐸ	-10.8519
ᐁᑕᕒᐆ	-10.8519
ᐃᓬᐃᓯᐸ	-10.8519
ᐋᓇᓈᔭ	-10.8519
ᓂᔑᐗᓈᒋᒋᑳᑌ	-10.8519
ᐯᑳᓂᓯ	-10.8519
ᐱᑾᒐᔭᐄ	-10.8519
ᐸᕒᐋᐸ	-10.8519
ᑭᒋᐅᑳᑏᑭᓀᐱ	-10.8519
ᐅᓈᑯᓂᑫ	-10.8519
ᐯᔅᑕ	-10.852
ᐊᑕᐌᑖᑯᓯ	-10.8521
ᓇᓈᑯᒥ	-10.8521
ᔖᐳᔥᑳ	-10.8521
ᑕᔭᕒ	-10.8522
ᐅᔑᐋ	-10.8523
ᐃᔑᐱᒧᓭ	-10.8524
ᐋᕒ	-10.8524
ᐅᔑᓯᑑ	-10.8527
ᐅᑭᒋᐅᑭᒫᒥᐙ	-10.8527
ᑫᐃᑭᑐᔦ	-10.8527
ᑳᑌᐺᔦᓂᒥ	-10.8529
ᐸᑭᑎᓂᑳᑌ	-10.8531
ᐁᔑᔭ	-10.8533
ᑮᐲᔖ	-10.8535
ᑮᓂᐳᐗ	-10.8535
ᐋᐸᑎᓯ	-10.8535
ᑳᑮᐃᔑᐲᐃᑫ	-10.8536
ᒌᑲ	-10.8537
ᐅᑲᑲᔥᑭᑑᓰ	-10.8537
ᑳᐐᐅᒋ	-10.8541
ᑰᐎ	-10.8544
ᑳᑮᐃᔖ	-10.8547
ᓂᓃᒑᓂᓴ	-10.855
ᑮᐊᓂᐅᒋ	-10.8551
ᔥᑲᐎ	-10.8552
ᑲᐸᕒᓂᔭᒦ	-10.8555
ᑌᐺᐎᓂ	-10.8558
ᐴᓂᑑ	-10.8566
ᐗᑭᑕ	-10.8573
ᓵᒥᓇ	-10.8574
ᐱᒥᑌ	-10.8579
ᐲᐙᐱ	-10.8581
ᑳᑮᓅᑕ	-10.8582
ᑭᒋᐅᑭᒫᐎᓂ	-10.8589
ᑭᑎᑫᐎ	-10.8592
ᐅᐐᔭᐎᐙ	-10.8593
ᑎᐱᓭ	-10.8597
ᑯᓵᐙ	-10.8598
ᐁᐐᑲᑴ	-10.86
ᐁᑮᐃᔑᓂᑳᓱ	-10.8603
ᑭᑫᓂᒫᓯᐙᐙ	-10.8607
ᐐᑕᒫᑯ	-10.8611
ᐅᑮᐋᐸᒋᑑ	-10.8612
ᒋᒫᒥᑲᐎ	-10.8614
ᓂᑭᑫᑕᓰ	-10.8624
ᑌᐺᔦᓂᒫᐙ	-10.8624
ᑮᑰᔭ	-10.8634
ᓂᑰ	-10.8635
ᐅᑮᒦᓈ	-10.8638
ᓂᐐᔭᐎ	-10.8638
ᓇᐃᑕᐎ	-10.8641
ᐃᔑᒫᒑ	-10.8641
ᐁᒫᒌ	-10.8644
ᒋᐃᔑᒋᑫᔭ	-10.8651
ᐁᓀᑖᑾ	-10.8655
ᑕᒫᓱ	-10.8666
ᑳᑎᐯᓂᒥᒥ	-10.867
ᔥᑲᐙ	-10.8674
ᓂᐐᔭ	-10.8681
ᐱᔑᒀᑎᓯᐎ	-10.8685
ᐅᑖᐱᓇᒧᐙ	-10.8694
ᓵᐃ	-10.8697
ᑲᑮᐹᑎᓯ	-10.8697
ᐅᑮᑮᐌ	-10.8699
ᐲᓈ	-10.8709
4	-10.8738
ᒥᑕᑎᒨ	-10.8744
ᑳᑮᒦᓈ	-10.8749
ᐅᑮᐙᐸᒫᐙ	-10.8754
ᓈᑾᓂᓂᑭ	-10.8802
ᐁᓈ	-10.8806
ᓀᓂᒫ	-10.8811
ᐐᐎ	-10.8811
ᐃᓀᑖᑯᓯᐎᓂ	-10.882
ᑲᔥᑮᑎᐱᑲᓂᓂ	-10.8839
ᓰᑲᐊᑖᑰ	-10.8846
ᑌᐺᐎᓂᐗ	-10.8865
ᐊᓇᒥᐋᔮ	-10.8866
ᐌᐱᓈᐙ	-10.888
00	-10.8894
ᐁᐃᓀᑕ	-10.8897
ᒪᑲᓂᓂᑭ	-10.8914
ᑎᐯᓂᒥ	-10.8932
ᐱᒫᒋᐃᑰᐎᓯ	-10.8935
ᑭᑎᑳᑕ	-10.894
ᑫᐃᔑᐌᐸ	-10.8944
ᓂᔕᐙ	-10.895
ᑕᒪᐗ	-10.8963
ᐐᒌᐎᓇᑰ	-10.8969
ᑳᓵᑭᐋ	-10.8977
ᑳᒪᒋᑑᑕ	-10.8984
ᐊᑣ	-10.8985
ᐃᓀᓂᒫᐙ	-10.8998
ᐱᓈᓯᑲᐎ	-10.8999
ᓱᓂ	-10.9004
ᒋᑑ	-10.9017
ᐅᑕᔮᓰ	-10.9019
ᐅᓇᑭᒥ	-10.9036
ᒋᒥᓄᐐᒌᐎᑯ	-10.9041
ᑭᐸᑯᓭᓂᒥ	-10.9051
ᑮᐱᑕᑯᔑ	-10.9054
ᑮᐅᒌ	-10.906
ᓵᑭᐃᑎ	-10.9066
ᑫᓇ	-10.9069
ᒋᑲᔥᑭ	-10.9081
ᓇᓈ	-10.9093
ᐁᑭᑭᓄᐊᒫᑫ	-10.9107
ᑭᑭᔥᑲᐙ	-10.9117
ᐅᒪᒋᑑᑕᒧᐎ	-10.9118
ᑮᐃᔑᓭ	-10.9119
ᑫᔮ	-10.9135
ᐅᐱᔥᑳ	-10.9152
ᐅᐐ	-10.9195
ᐱᒫᒋᐃᑣ	-10.9198
ᑭᑖᑮ	-10.9218
ᐌᐱᓂᑳᑌ	-10.9219
ᐐᒋᑣ	-10.9229
ᑮᐗᓂᒧ	-10.9237
ᑳᔭ	-10.9242
ᓵᑭᐃᐌ	-10.9244
ᑳᐐᐱ	-10.9253
ᐁᔖ	-10.9255
ᐊᑕᐌᓂᒥ	-10.9262
ᑲᓅᓂᓇᑰ	-10.9273
ᐃᔑᐱᒫᑎᓯᐗ	-10.9282
ᑭᑫᒋᑳᑌ	-10.9284
ᒪᒫᔑ	-10.9287
ᑎᐯᑕ	-10.9288
ᑰᓰ	-10.9309
ᓰᑭᓇ	-10.9311
ᓯᑌ	-10.9311
ᑌᐱᓇ	-10.9313
ᐅᐱᒫᒋᐃᐌ	-10.9321
ᑮᐃᔑᓈᑾᓂᓂ	-10.9321
ᐸᑯᓭᓂᒫ	-10.9335
ᐋᐲ	-10.9339
ᓈᑯᓂ	-10.9344
ᐊᒑᑯ	-10.9345
ᒋᑎᐯᓂᒥᑯ	-10.9345
ᐊᔕ	-10.9348
ᐴᔔᐋ	-10.9354
ᐌᔮ	-10.9358
ᐱᓯᑲᒧ	-10.9367
ᐋᓉᑕ	-10.9368
ᓂᔑᐗᓈ	-10.9379
ᑲᑮᑴ	-10.938
ᐅᕒᐆ	-10.9381
ᔓ	-10.9384
ᔒᑫᓂᒥ	-10.9387
ᑭᒋᐊᐱᐎ	-10.9393
ᑫᐎᓐ	-10.9393
ᐐᑕᒫ	-10.9394
ᐃᑭᑐᓰ	-10.9397
ᑳᑲᑴ	-10.9397
ᐊᓇᒥᐁᐎᑲᒥ	-10.9399
ᒋᐗ	-10.9404
ᑭᔥᑮᔑ	-10.9406
ᓵᑲᐃᑲ	-10.9412
ᓂᑎᓀᑕ	-10.9416
ᐱᓯᑖᑯ	-10.9417
ᑭᑎᓂᓐ	-10.9421
ᒪᔥᑯᓰ	-10.9426
ᐅᑮᑭᑫᓂᒫ	-10.9426
ᑲᓇᐌᓂᒥ	-10.9427
ᑕᐸᓭᓂᒧ	-10.9428
ᓂᓯᒥᑕᓇ	-10.9428
ᐃᔅᑏᐱ	-10.9428
ᓭᐸᑏ	-10.9428
ᔾ	-10.9428
ᐲᓬᐃᑭ	-10.9428
ᑫᑌᐃᓈᑎᓯᐎ	-10.9428
ᒣᒥᑕᑫ	-10.9428
ᒥᓄᑑᑖᑫ	-10.9428
ᐅᓈᑯᓈ	-10.9428
ᐲᑯᐱᑑ	-10.9428
ᑲᓇᐌᒋᑫᐎ	-10.9428
ᒀᕒᓃᓬᐃᔭ	-10.9429
ᐸᐸᑭᑌᐙᐙ	-10.9429
ᐃᔥᒀᓭᓯᓂᓂ	-10.943
ᑑᐳᐎᓈᑯ	-10.9431
ᒑᑭᓱ	-10.9431
ᑲᓇᐌᓂᑎᓱ	-10.9431
ᐸᑭᑎᓈᓱᐎᓈᐱ	-10.9431
ᑮᐗᔥᑴᐲ	-10.9433
ᑲᐯᔑ	-10.9436
ᐁᔑᓂᑳᑌᓂ	-10.9437
ᐃᓇᓵ	-10.9439
ᒪᐗᑎᓯ	-10.944
ᐗᓃᑫ	-10.9441
ᒫᒑᔮ	-10.9442
ᓂᓯᑐᑖ	-10.9443
ᑭᒋᐐᑎᑫ	-10.9444
ᐅᑮᐙᐸᒥᑰ	-10.9444
ᒋᐱᒥᓂᔕᐅ	-10.9444
ᑳᑎᐸᐃᑫᐃᐌ	-10.9445
ᐅᒌᒫᑲᓇ	-10.9445
ᑭᒪᒋᑑᑕᒧᐎᓂ	-10.9452
ᒋᐃᓇᓄᑮ	-10.9452
ᑭᑲᐙᐸᒥ	-10.9452
ᐅᑭᑫᑕᓰ	-10.9453
ᑲᔥᑭᒫ	-10.9454
ᑭᒫᒫ	-10.9458
ᐁᐐᒌᐌ	-10.9458
ᒥᓍᐸ	-10.9462
ᓵᐃᑕ	-10.9468
ᑮᑕᔑᐗ	-10.9475
ᓂᓯᑐᑕᒧᐙ	-10.9476
ᐊᔭᐄ	-10.9477
ᐁᒥᓄ	-10.9477
ᐅᑭᔐᒪᓂᑑᒥᐙ	-10.9478
ᐅᑎᓀᑕᒧᐎᓂᐙ	-10.9478
ᐐᓈᑎᓯ	-10.9483
ᑳᑭᑫᓂᒫᓯ	-10.9486
ᐅᑮᐅᔑᑑ	-10.9486
ᐊᐌᒋᑫᐎ	-10.9486
ᐃᓈᐱ	-10.9488
ᐁᐐᐊᓂ	-10.949
ᑳᐸᐹ	-10.9498
ᐯᑳᑎᓯ	-10.9504
ᐅᐱᒫᑎᓯᐎᓂᐙ	-10.9504
ᑳᑮᐙᐸᑕ	-10.9509
ᐁᒫᐗᒋᐃᑎ	-10.9523
ᒌᑫ	-10.9526
ᒥᓴᐌᑕᒧᐙ	-10.954
ᒫᓇᒑᓂᔐᓴ	-10.9541
ᐊᓇᒥᐁᑕᐙᐙ	-10.9542
ᓂᑎᓄ	-10.9547
ᑳᑲᓇᐌᑕ	-10.955
ᓃᒌ	-10.9554
ᐅᒋᑕᑯ	-10.9563
ᐹᒫ	-10.9564
ᐁᒪ	-10.9569
ᐃᓀᑕᒧᐎ	-10.9571
ᑑᑖᑯ	-10.9572
ᒋᐃᓈ	-10.9572
ᑲᓅ	-10.9574
ᑕᓱᐱᐴ	-10.9576
ᑭᔐᐙᑎᓯᐎ	-10.9579
ᐅᐐᔭᐎᓂ	-10.9579
ᒋᐃᔑᒋᑫᔦ	-10.9581
ᑳᑑᑕᐎ	-10.9583
ᐁᑮᒥᒋ	-10.9583
▁¦8	-10.9588
ᐁᑮᑲᑴ	-10.9619
ᐃᔑᐎᓂᑰ	-10.9621
ᐅᒥᓍᒋᒧᐎ	-10.9644
ᑕᑯᓂ	-10.9652
ᐅᑑᑭᒫᐎᐎ	-10.9654
ᐃᔥᐯᓂᑎᓱ	-10.9654
ᑳᐃᓈᑎᓯ	-10.9658
▁¦5	-10.9668
ᑎᐹᑯᓂᐌ	-10.9682
ᒫᒫ	-10.9688
ᑮᐌᐗ	-10.969
ᓇᐹ	-10.9693
ᓇᑲᓂ	-10.9702
ᑎᐱᑲᓂᓂ	-10.9706
ᑳᒪᔥᑲᐎᓰ	-10.9713
ᒦᑴ	-10.9728
ᐁᓅᑖᑯ	-10.9738
ᒋᒦᒋ	-10.9741
ᐸᑯᓭᓂᒥᑰ	-10.9752
ᑭᐸᐊ	-10.9785
ᑕᑯᓇ	-10.9787
ᓅᑖᑯᑑ	-10.9812
▁¦40	-10.9813
ᓈᑲᑕᐌᑕ	-10.9815
ᒥᔕᑳ	-10.9817
ᐲᔖᓰ	-10.9822
ᑮᒋᐱᒫᑎ	-10.9848
ᑲᔥᑭᑑᔮ	-10.9851
ᐁᑮᐃᔑᐎᓈ	-10.9873
ᑭᑮᒦᓂᑯ	-10.9876
ᑕᔑᑌᓂ	-10.9879
ᒋᐅᑖᐱᓇ	-10.988
ᑳᐃᓇ	-10.9881
ᑮᐌᐱᒫᑎᓯᐋ	-10.9887
ᐁᑾ	-10.991
ᑭᑫᑕᓯ	-10.9923
ᐎᓂᓂᐗ	-10.9924
ᓂᑌᐺ	-10.9924
ᐅᒪᓂᑑ	-10.9933
ᐁᑲᑭᑐ	-10.9934
ᒎᓇ	-10.9938
ᒋᑫᓂ	-10.9945
ᐎᓇᑰ	-10.9953
ᐐᓂᓯ	-10.9965
ᐐᑑᑳᓱ	-10.9977
ᐅᑎᓯᓀ	-10.9983
0	-10.9985
ᑮᐃᔑᒋᑫ	-10.999
ᑲᓇᐌᑕᒥᓂ	-10.9999
ᐙᐸᒪ	-11.0011
ᐃᔑᑮᔗ	-11.0012
ᑭᒋᒪᓯᓇᐃᑲᓂ	-11.0016
ᐅᓀᑕ	-11.0029
ᒫᑕ	-11.0029
ᐃᒋᑲᓂᐎ	-11.0035
ᒋᑲᓂᐎᓂ	-11.0052
ᐊᓂᒫᒑ	-11.0076
ᒪᒋᑭᑎᑳ	-11.0084
ᑳᐃᔑᐌᐱᓯ	-11.011
ᐐᒌᐌ	-11.0146
ᑳᐅ	-11.0147
ᐅᔑᒋᑳᑌ	-11.0162
ᐙᐸᑕᐃ	-11.0167
ᐅᓇᔓᐌ	-11.0174
ᐃᔥᒀᑌᒥᐗ	-11.0179
ᒋᐃᔖᓂ	-11.0182
ᐅᑮᐊᐎ	-11.0183
ᐌᑖᑯᓯ	-11.0188
ᐊᓇᒥᐁᐙᑎᓯ	-11.0198
ᒋᑲᑭᑐ	-11.0202
ᒋᑭᐌᔭ	-11.0216
ᐃᓈᑯᓂᑫ	-11.0235
ᒥᓍᒋᒧᐎᓂ	-11.0239
ᑮᐃᔑᓈᑯᓯ	-11.0244
ᔖᑯᐌᐗ	-11.0245
ᑭᔐᐙᑎᓯ	-11.0246
ᐎᔭ	-11.0261
ᐱᒫᑎᓰ	-11.0264
ᐅᑭᔐᒪᓂᑑᒥ	-11.0268
ᐅᓈᑲᓂ	-11.0278
ᒦᓂᑰᔮ	-11.0282
ᐯᒫᑎᓯ	-11.0288
ᑌᐺᑖᑯ	-11.0305
ᒦᑭᐌᐎ	-11.0307
ᔕᔒᐯᑕᒧ	-11.0308
ᑎᐹᑯᓂᑫᐎ	-11.0316
ᐃᔑᓂᔕᐙᑲ	-11.0316
ᐙᐸᒥᑰ	-11.0319
ᐅᑕᓄᑮ	-11.032
ᑭᑫᓂᑎᓱ	-11.0327
ᐅᑎᐹᒋᒧᐎᓂ	-11.0341
ᑸ	-11.0347
ᐁᑮᐃᔑᒋᑫ	-11.0359
ᐊᑕᐌᑕ	-11.036
ᑖᐗ	-11.0361
ᐃᓍᓂᑎᓱ	-11.0363
ᑭᐐᓱᐎ	-11.0369
ᐅᐙᑳᐃᑲ	-11.037
ᓈᑲᒋᑑ	-11.0373
ᑲᓅᓂᑯᐙ	-11.0374
ᐁᐃᔑᓂᑳᓱ	-11.0381
ᑳᐱᐅᒋ	-11.0382
ᓅᑌᔅᑲᑌ	-11.0387
ᑎᐸᐃᑲᓀᔮᓂ	-11.0389
ᑲᓅᔑ	-11.0397
ᑳᑕᓶᐙᓇᑭᓯ	-11.0399
ᐃᓀᑕᒨ	-11.0402
ᓵᒐᓰ	-11.0403
ᑭᑎᑳᓂ	-11.0408
ᒪᐎᓀ	-11.0409
ᑭᑭᓇᐙᑕᔕᑫᔣ	-11.0416
ᐅᓈᑯᔑ	-11.0421
ᑑᑕᐙᐙ	-11.0423
ᐯᔓᓈᑾ	-11.0424
6	-11.0428
ᐯᑕᓬᐃᐁ	-11.0428
ᐲᐙᐱᑴᔮᐲ	-11.0428
ᐱᔑᒀᒋᑴ	-11.0428
ᐃᔅᑫᕒᐃᔭ	-11.0428
ᐅᔅᑲᑎᑯ	-11.0428
ᐅᑑᑌᓈᒥ	-11.0428
ᔒᐎᑖᑲ	-11.0428
ᔖᐗᓄ	-11.0428
ᑭᑎᑳᓈᑎᑯᑳ	-11.0428
ᑲᒀᓂᓴᑫᑖᑾ	-11.0428
ᐱᑕᐊᓈ	-11.0428
ᑭᑌᐺᔦᑕᒧᐎᓂᐙ	-11.0428
ᒥᓋ	-11.0429
ᐅᑮᒨᒋᔥᑲ	-11.0429
ᒉᑲᐴ	-11.043
ᐅᑌᔥᑲ	-11.043
ᑭᑌᓂᒧ	-11.043
ᒋᐴᓀᑕᒪᐎ	-11.043
ᐱᓀᓯᐗ	-11.043
ᐅᑲᔥᑭᐁᐎᓯᐎᓂ	-11.043
ᐃᔥᐸᑎᓈ	-11.0431
ᐁᐅᒌᒪᑲ	-11.0434
ᑳᐅᔥᑳᑎᓯ	-11.0436
ᑲᑴᒋᒪ	-11.0439
ᑭᐱᔥᑭᐗᓯᑲ	-11.044
ᐁᓈᒋᒥ	-11.0441
ᑕᓂᐳᓰ	-11.0441
ᑳᐯᐸᑳᓉᐙᓇᑭᓯ	-11.0441
ᑲᑕᐎ	-11.0442
ᑭᑫᓂᒣ	-11.0444
ᐅᒦᑭᐌᐎ	-11.0446
ᔑᒫᑲᓂᔒ	-11.0446
ᑌᐺᑕᒪ	-11.0447
ᒪᔥᑲᐌᑕᒧ	-11.0447
ᑳᑌᓴᐱ	-11.0448
ᐃᓇᒀ	-11.0449
ᑮᒫᐗᒋᐃᑎᐗ	-11.045
ᑳᐸᒦᑖᑫ	-11.0451
ᒋᑲᓇ	-11.0451
ᑕᐹᑏᓄᐗ	-11.0453
ᐁᐊᓄᑮᑕᐗ	-11.0453
ᐯᑌ	-11.0453
ᑲᒀᑕᑭᑑᔮ	-11.0454
ᑕᐴᓀᑕᒪᐙ	-11.0455
ᑭᒥᐗ	-11.0456
ᐁᑮᓇᓈᑯᒫ	-11.0458
ᔕᔒᐯᓂᒥ	-11.0459
ᓂᑖᓇᑮ	-11.0459
ᒋᐐᑕᒫᑫᔮ	-11.0461
ᒋᐐᒌᐙ	-11.0461
ᐊᑯᓴᑲᐙᐙ	-11.0462
ᑭᑌᑖᑯᓯᐎ	-11.0462
ᑳᑮᐊᑐᒫ	-11.0462
ᓈᓈᐙ	-11.0462
ᑳᐋᓇᐌᓂᒥ	-11.0462
ᑫᔭᐸ	-11.0463
ᑭᒋᐊᓄᑮ	-11.0467
ᐱᒫᒋᐃᓇ	-11.0469
ᑮᐃᓈᐱ	-11.0476
ᐅᑮᑲᓅᓂᑰ	-11.0481
ᒋᑎᐱᓇᐌᐎᓯ	-11.0483
ᑌᐺᔦᓂᒥᑰ	-11.0484
ᔑᒫᑲᓂ	-11.0485
ᑳᐃᔑᑖᓂ	-11.0486
ᐊᔨᑎ	-11.0487
ᓇᐃᑖ	-11.0489
ᐃᑭᑐᓂ	-11.0499
ᐅᒌᒪᑲᓯᓅ	-11.0507
ᓰᓇ	-11.0507
ᐐᑕᒫᑯᐙ	-11.0508
ᐁᑮᐙᐸᒫ	-11.0513
ᐃᔑᓂᔕᐊᒪᐎ	-11.0522
ᒥᑲᒧᐙ	-11.0527
ᐁᓂᐹ	-11.0528
ᐅᑎᓵ	-11.0533
ᑳᑮᐃᓀᑕ	-11.0541
ᐁᑑᑕᒧᐙ	-11.0543
ᐅᑕᓄᑮᐎ	-11.0544
ᐁᑌᐺ	-11.0545
ᒥᓇᐋ	-11.0564
ᐃᓀᑕᓰ	-11.0567
ᐲᓈᓂ	-11.0572
ᓅᑖᑾ	-11.0579
ᓵᑭᒋᓂᔕᐊᒪᐙ	-11.0584
ᑕᔑᑖ	-11.0589
ᐸᕒ	-11.0591
ᔂᑕ	-11.0595
ᐅᑮᐙᐸᑖ	-11.0599
ᒪᑲᒥ	-11.0601
ᐱᓯᑲ	-11.0601
ᐃᓈᐸᑕ	-11.0647
ᑮᔑᓈᑾᓂᓂ	-11.0648
ᑎᐯᒋᑫᐎ	-11.0673
ᓇᒪᐙ	-11.0727
ᐱᐅᒌ	-11.0728
ᑌᐺᔦᑕᒧᐎᓂ	-11.073
ᐁᑮᒫ	-11.0733
ᐱᐊᔮ	-11.0738
ᐗᓂᔑ	-11.074
ᒋᒪᔥᑲᐎᓰ	-11.0751
ᑎᓄᐗ	-11.0755
ᓂᑾ	-11.0765
ᐅᑎᓀᑕᒧᐎᓂ	-11.0776
ᒪᑲᒫ	-11.0804
ᐐᒋᐋᐙ	-11.0808
ᒋᓵᑭᐋ	-11.0812
ᐱᓱ	-11.0814
ᐁᑭᑭᔥᑲ	-11.0814
ᑳᓂᐎ	-11.0819
ᒋᒥᓄᐐᒌᐙ	-11.083
ᑕᕒ	-11.0832
ᑭᑫᑕᓯᒀ	-11.0839
ᐊᓯᓃᑳ	-11.084
ᑲᑲᓅᓂ	-11.0849
ᓂᔥᑳᑎᓯ	-11.0864
ᑳᑮᐐᑕᒪᐙ	-11.0866
ᑑᓰ	-11.088
ᐐᐃᔖ	-11.0895
ᐸᐸᔕᔐᐅ	-11.0899
ᑮᐊᓇᒥᐋ	-11.0901
ᑎᐹ	-11.0904
ᑭᑫᑕᒨ	-11.091
ᑭᑭᔥᑳᑯᓂ	-11.0911
ᑲᐲ	-11.0918
ᓵᒥᓂ	-11.0925
ᓃᔑᓂ	-11.0949
ᑳᓇ	-11.0956
ᓂᔣᓱ	-11.0965
ᐹᑌ	-11.0965
ᑳᑕᔑᑕᒫ	-11.0965
ᑰᓯᐙ	-11.0973
ᐌᑖᑾᓂᓂ	-11.0982
ᐐᒌᐎᓀ	-11.0994
ᒦᔑᔑ	-11.0995
ᐃᑲ	-11.1001
ᒋᐃᔑᒋᑫᔮ	-11.1001
ᐯᒥ	-11.1002
ᐅᑑᒋ	-11.1018
ᑯᓀ	-11.1021
ᐊᐱᓂ	-11.1022
ᑌᐱᓇᒧᐙ	-11.1024
ᐅᑭᑭᓄᐊᒪᐙᑲᓂ	-11.1029
ᑭᑎᑫᐎᓂ	-11.1031
ᐱᒫᒋᐃᑯ	-11.1032
ᐁᐊᔮᐙ	-11.1034
ᑌᐺᑕᐎ	-11.1044
ᓯᑑ	-11.1052
ᐐᑕ	-11.1053
ᐊᐸᓂ	-11.1066
ᐁᑮᑌᐺᑕ	-11.1082
ᑳᑮᐃᔑᐊᔮ	-11.1086
ᐎᔮ	-11.1087
ᐐᑎᑫᑎ	-11.1093
ᑮᐅᓇᐱ	-11.1097
ᑕᐱᔑᒧ	-11.1099
ᐊᐲᒋ	-11.1104
ᓈᐯ	-11.1108
ᐁᐸ	-11.1114
ᑳᐅᔑᒋᑳᑌ	-11.1122
ᒪᐙᐙ	-11.1153
ᒫᔑᓭ	-11.1164
ᓂᐙᐸᑖ	-11.1167
ᐎᓈ	-11.1176
ᓂᑮᑭᒋ	-11.1185
ᓯᓬ	-11.1197
ᒋᓇᐃᑕ	-11.1199
ᑳᐱᒥᓂᔕᐅ	-11.1203
ᐅᒻᐺᑲᒥᑭᓯ	-11.1206
ᐁᐐᒋ	-11.1249
ᐊᓄᑮᒪᑲ	-11.1254
ᐅᑮᑭᒋ	-11.1255
ᑎᓄᐎᓰ	-11.1258
ᑮᓃᐸᐎ	-11.1271
ᑲᒀᑕᑭ	-11.1278
ᐁᐲ	-11.1279
ᑯᑖᓀᓂᒫ	-11.1281
ᒥᓄᑑᑕ	-11.1286
ᓀᓴ	-11.1298
ᐊᑕᐌᑕᒧ	-11.1302
ᐅᑕᑳᓀᓯ	-11.1323
ᑳᑮᐃᓈ	-11.133
ᒥᑲᐙᐙ	-11.134
ᓅᑕᐙᐙ	-11.1361
ᐙᐸᑕᓰ	-11.1362
ᓅᑕᒫᑯ	-11.1367
ᑾᔮᒌ	-11.1368
ᐅᑖᐱᓇᒧ	-11.1369
ᐁᓇᓄᑮ	-11.1415
ᐅᓇᑑ	-11.1418
ᑳᐃᔑᒋᑫᔮ	-11.1422
ᑏᒪ	-11.1425
ᑖᐎᓂ	-11.1436
ᐁᐃᔑᓂᑳᑌ	-11.1453
ᐅᑕᐗᑳ	-11.146
ᑑᑕᒪ	-11.146
ᐊᓄᑮᑕᐙ	-11.1462
ᑫᑭᒋ	-11.1467
ᒋᑎᐱᓭ	-11.1477
ᒥᓉᑖ	-11.148
ᐐᑕᐱᒫ	-11.148
ᐃᑕᒧᐙ	-11.1502
ᐅᑮᑭᑫᑖ	-11.1504
ᑎᐹᑐᑕ	-11.152
ᑎᐹᑯᓂᑫ	-11.152
ᒋᑴᑳᑎᓯ	-11.1527
ᒫᓯᑑᓂ	-11.1527
ᐁᑕᑯ	-11.1531
ᑾᔭᑾ	-11.1532
ᒐ	-11.1537
ᒪᒫᒋᑾᐱᓱ	-11.1539
ᐱᔑᑮᓴ	-11.1539
ᓴᑭᓂᑫᓈ	-11.1539
ᐅᑲᓅᑕᒫᑫ	-11.1539
ᑭᒋᒨᑯᒫ	-11.1539
ᐅᒑᓂᒣᑕ	-11.1539
ᐅᑴᓄ	-11.1539
ᑎᐱᑭᑮᓯ	-11.1539
ᓯᒥᔭ	-11.1539
ᑸᓇᐎ	-11.154
ᑌᐸᑫᑖᑯᓯ	-11.154
ᓃᔣᒋ	-11.154
ᓇᑲᔑ	-11.154
ᑭᐐᔭᐎᓈᓂ	-11.154
ᐅᑌᐺᔦᑕᒧᐎᓂ	-11.154
ᒀᕒᐃ	-11.1541
ᐅᑎᐹᒋᒨ	-11.1542
ᐃᔑᐲᐊ	-11.1542
ᐊᔕᒫ	-11.1543
ᑳᑮᐊᓂ	-11.1544
ᐅᑮᓇᑴᑖᑰ	-11.1544
ᐅᑲᓇᐎᒫᓇᒑᓂᔑᐌ	-11.1544
ᑲᓅᑕᒪᐎ	-11.1545
ᐸᑲᒥᔥᑳᑯ	-11.1546
ᑲᑮᑖᐎᓯᐎ	-11.1548
ᐁᐱᓴᓯ	-11.155
ᐁᓈᑎᓯ	-11.155
ᐅᑕᓄᑮᐋᑲᓂ	-11.1552
ᓂᓇᑕᐌᑖ	-11.1552
ᓂᓯᑐᑕᒨ	-11.1553
ᑭᑎᑫᐗᑲᒥᑯ	-11.1555
ᑮᓭᑭᓯᐗ	-11.1555
ᐁᓇᑌ	-11.1555
ᐊᑰᒋ	-11.1556
ᑌᐺᔦᑕᒣ	-11.1559
ᐅᑮᐃᓇᓵ	-11.1561
ᑕᓇᓈᑯᒫ	-11.1565
ᒋᐊᑕᐎ	-11.1566
ᓂᑕᔮᓰ	-11.1568
ᐐᐱ	-11.1569
ᐊᓈᒪ	-11.1569
ᐁᐃᔑᑮᔗ	-11.1576
ᒥᓄᓈᑾ	-11.1577
ᐐᒋᐐᓯᓃᒫ	-11.1581
ᑳᐅᑌᐺᑕᒧᐎᓂᓯ	-11.1582
ᑳᑮᐅᓈᐸᒥᑯ	-11.1583
ᔔᓂᔮᐎ	-11.1586
ᑳᐅᔑᐲᐊᒪᐎ	-11.1586
ᐁᐃᓈᐱ	-11.1586
ᑖᑰ	-11.1592
ᐱᓂᔅᑴ	-11.1593
ᐅᑌᐺᔦᑕᒧᐎᓂᐙ	-11.1596
ᑳᐃᔑᑮᔗ	-11.1598
ᓴᓇᑲᓂᓂ	-11.1598
ᐁᔑᓈᑯᓯᔮ	-11.1603
ᑌᐱᓭ	-11.1605
ᑮᑕᓇᒥᐋᓈᓂ	-11.1605
ᐊᓄᑮᑕᐌ	-11.161
ᑳᒫᐗᒋ	-11.1612
ᑮᐅᒋᐅᔑᒋᑳᑌ	-11.1614
ᑭᑎᑫᐎᓂᓂ	-11.1619
ᑯᓈᓂ	-11.1623
ᐁᑭᑫᓂᒥ	-11.1632
ᑎᐸᐊᒫᑰ	-11.1633
ᐁᐃᔑᓂᑳᓱᓂ	-11.1636
ᐃᑴᐎ	-11.1637
ᑕᔕᐌᑖᑯᓯ	-11.1638
ᐋᓈᐙ	-11.1639
ᐁᔑᐸᑯᓭᓂᒥ	-11.1642
ᐊᓇᒥᐁᐎᑭᒫᐎ	-11.1651
ᑫᐃᔑᓈᑯᓯ	-11.1664
ᐱᒥᓂᔕᐊ	-11.1664
ᑮᐃᔑᒋᑫᐗ	-11.1667
ᔖᑰᒋᑣ	-11.167
ᑳᐊᑐᒥ	-11.1673
ᑎᐸᐊᒫᑰᐎ	-11.1674
ᐅᑲᔑ	-11.1679
ᐐᑕᒪᐙᑫ	-11.1679
ᓃᒥ	-11.1688
ᑳᐅᒌᒪᑲ	-11.1689
ᑎᐯᓂᒥᑯᓰ	-11.1692
ᑲᓅᑕᒪᐙᓂ	-11.1697
ᑲᒥᑲᓂᓂ	-11.1701
ᔒᔥ	-11.1703
ᐁᐊᔮᔭ	-11.1714
ᐅᑭᑭᔥᑭᑲᓂ	-11.1722
ᐗᔦᔑ	-11.1725
ᐅᑲᐃᔑ	-11.1726
ᐁᑮᐸᐹ	-11.1741
ᓃᒋᑭᐌ	-11.1742
ᐎᓀ	-11.1743
ᑳᑮᐃᔑᓭᓂ	-11.1745
ᐁᑯ	-11.1752
ᑳᐃᔑᐊᑕᐌᑕ	-11.1754
ᐃᔑᐌᐱᓯᐎ	-11.1773
ᑳᑮᐐᒋ	-11.1774
ᒥᓉᑕᒧᐎ	-11.1781
ᐲᑌ	-11.1785
ᐙᐸᑕᒧᐗ	-11.1788
ᑳᑕᓱ	-11.183
ᑴᑭ	-11.1833
ᐲᑎᑲᓂᑯ	-11.1835
ᒫᑰ	-11.1856
ᒋᐃᔑᒋᑫᐙ	-11.1858
ᐁᑭᑐᐙ	-11.1879
ᐁᑲᓅᓈ	-11.188
ᐁᑲᔥᑭᑑ	-11.1887
ᑮᒋᑭᐌᓯ	-11.1897
ᒫᑫ	-11.1919
ᐲᓈᐙ	-11.1928
ᒋᐐᑎᑫ	-11.193
ᑳᑮᒥᓄ	-11.1932
ᒪᒋᒋᑫᐎ	-11.1934
ᑭᑲᔑ	-11.1947
ᓃᔭ	-11.1948
ᑭᑭᓄᐊᒫ	-11.195
ᑳᓱᐙ	-11.1953
ᑭᒋᐎᓇ	-11.1957
ᑕᓰ	-11.1958
ᐅᐐᑎᑫᒫᑲ	-11.1961
ᐊᓉᐱᐎ	-11.1963
ᐌᓂᔑᔑᓂᓂ	-11.1964
ᑭᒥᓄ	-11.1971
ᒋᑭᑫᒋᑳᑌ	-11.199
ᑳᑮᓂᓯ	-11.1995
ᐯᐹ	-11.2003
ᐱᒧᓭᐙ	-11.2005
ᒋᐃᔑᐱᒫᑎᓯ	-11.2014
ᐁᒥᓉᑕ	-11.2032
ᒥᓄᑑᑕᐎ	-11.2041
ᐁᐐᒌᐙ	-11.2046
ᐗᑣ	-11.2054
ᐅᑕᔭᐄ	-11.2058
ᒋᑲᔥᑭᑑᔮ	-11.2058
ᓃᒋᑭᐌᓯ	-11.2061
ᑮᐱᐅᒌ	-11.2079
ᐊᓄ	-11.2079
ᒪᑏ	-11.209
ᐃᓀᓂᒥᑰ	-11.2108
ᑮᑮᐌᐱᒫᑎᓯᐋ	-11.211
ᐅᑑᑭᒫᒥᐙ	-11.211
ᑳᑭᑭᔥᑳᑯ	-11.2117
ᐁᑮᐅᒋᒋᓭ	-11.2125
ᑳᐐᓀᑖᑾ	-11.2136
ᒫᕒ	-11.2137
ᓂᑎᓱ	-11.2153
ᒦᑳᑎ	-11.2157
ᑑᑕᒧ	-11.2158
ᓂᐳᐙ	-11.2168
ᑭᑮᓅᑖ	-11.217
ᐃᓂᐌ	-11.217
ᓂᑳᑌᓂ	-11.2178
ᐃᔑᑭᑭᓄᐊᒫᑫ	-11.2191
ᐌᑴ	-11.2192
ᒪᒦᒀᓂᑎᓱ	-11.2233
ᕒᐋ	-11.2236
ᓈᑾᓯᓂᓂ	-11.2238
ᑭᓱ	-11.2247
ᐅᑌᐺᑕᒧᐎᓂᐙ	-11.2261
ᐊᓇᒥᐁᑕᒪᐎ	-11.2264
ᑕᒫᑯᐙ	-11.2267
ᓂᑮᐊᓂ	-11.2275
ᐯᐸ	-11.2285
ᒫᓀᑕᒧ	-11.2285
ᐅᔒᑖ	-11.229
ᑰᒥᓐ	-11.2297
ᒋᐅᒌ	-11.2304
ᐅᑖᑮ	-11.2305
ᒋᒨᔥᑭᓀ	-11.2319
ᐁᔑᓯᓂᓂ	-11.2326
ᐸᑭᑎᓈᐙ	-11.2331
ᐅᐐᑎᑫᒫᑲᓂ	-11.2333
ᐅᑮᓅᑖ	-11.2345
ᐊᑐᒥᑰ	-11.2353
ᑕᐃᑭᑐ	-11.2357
ᐗᓂᑑᑕ	-11.2359
ᑲᐙ	-11.2365
ᑌᐁ	-11.2369
ᑕᑯᓈ	-11.2394
ᐃᑰᔮ	-11.2396
ᒥᓄᐐᒌᑎ	-11.2405
ᓂᑮᐃᔑᒋᑫ	-11.2406
ᐅᔑᐲᐊ	-11.2413
ᒋᑭᑭᓄᐊᒫᑫ	-11.2417
ᐅᔑᑕᒪᐎ	-11.2417
ᑭᑭᓇᐙᑕᔕᑫᔓ	-11.2419
ᑳᐐᒌᐎᑯ	-11.2426
ᐅᑭᒫᐗᐱ	-11.2433
ᐁᑮᐃᔥᒀ	-11.2444
ᑕᔑᒫᐙ	-11.2457
ᐃᓂᓀᒀ	-11.2466
ᑫᑑᑕᐎ	-11.247
ᐃᔑᓂᑳᓱᐗ	-11.2483
ᐸᑭᑎᓂᑫᐎ	-11.2486
ᔔᒥᓈᑎ	-11.249
ᐐᑕᒫᑫᔮ	-11.2497
ᑭᑭᓄᐊᒪ	-11.2501
ᔥᑳᑰ	-11.2503
ᐁᐅᑖᐱᓇ	-11.2503
ᒋᑕᔑᑕ	-11.2508
ᐅᔑᐲᐊᒪ	-11.252
ᐁᔑᐱᒫᑎᓯ	-11.2521
ᓬᐋ	-11.2521
ᑭᐐᒌᐎ	-11.2528
ᐸᑑ	-11.253
ᓃᐸᐎᐗ	-11.2545
ᐃᔑᐊᔮᔮ	-11.2547
ᑑᑕᐎᓀ	-11.2561
ᑎᐸᐊᒫ	-11.2571
ᓅᑳᑎᓯ	-11.2578
ᑲᑮᑖᐌᑕ	-11.2581
ᑎᐹᑯᓂᑫᐎᑮᔑᑲ	-11.2588
ᓯᓃ	-11.2596
ᒋᐸᑭᑎᓂ	-11.2596
ᐴᓀᑕᒫ	-11.2602
ᒋᐸᐹ	-11.2608
ᐃᔑᐎᓈ	-11.2612
ᐃᓀᑖᑯ	-11.2613
ᑮᒥᒋ	-11.2617
ᒪᒋᑑᑕᒥ	-11.2621
ᒋᒪᓈ	-11.2621
ᑎᐸᐊᒪ	-11.2636
ᒋᑫᐎ	-11.2636
ᐃᔑᒋᑫᒪᑲ	-11.2638
ᑎᓯᐙ	-11.264
ᒪᓂᑑᑫ	-11.2646
ᒥᓍᒋᐋ	-11.2648
ᓵᑭᐋᐙ	-11.265
ᒋᑲᓇᐌᓂᒥ	-11.2669
ᓵᑲᐊᒧ	-11.2669
ᒥᓴᐌᑕᒪ	-11.2675
ᐁᑭᑫᑕᓯ	-11.268
ᑲᓇᐙᐸᒥ	-11.2683
ᐸᑭᑎᓇᒪᐎ	-11.2691
ᓀᓈᐎ	-11.2693
ᒦᓂᑰᐎ	-11.2703
ᐱᒥᐎᑑ	-11.2704
ᓂᐱᒫᑎᓯᐎ	-11.2716
ᐅᑮᐸᑭᑎᓈ	-11.2716
ᐐᑾᑎᐎ	-11.2727
ᑭᑎᒫᑭᓯ	-11.2734
ᐁᑕᔑᒫ	-11.2737
ᐊᓄᑮᑕᐗ	-11.2741
ᐹᑏ	-11.2744
ᒫᒪᑳᑌᑕᒨ	-11.275
ᑯᓇᔦ	-11.2755
ᒦᒋᓈᑳᑌ	-11.2755
ᐯᔑᑴᑖᑯᓯ	-11.2756
ᑮᐋᐸᒋᐋ	-11.2757
ᐁᑮᐃᓀᑕ	-11.2758
ᑳᒋᑎᓂ	-11.2761
ᑲᔥᑮᑮᐎ	-11.2772
ᒨᒪᑲ	-11.2773
ᐊᔓᑕᒫᑯ	-11.2773
ᑮᓂᑖ	-11.2775
ᓯᑌᑳᐸᐎ	-11.2776
ᔔ	-11.2779
ᐙᓴᑯᓀ	-11.278
ᐸᑴᐱᓈ	-11.278
ᑮᐗᔥᑴ	-11.2781
ᑰᐹᑌᓂᒥ	-11.2782
ᒥᓍᑎᓯ	-11.2788
ᐐᑕᓄᑮᒥ	-11.2788
ᑎᑎᐯᔩᑭ	-11.2789
9	-11.2789
ᐌᑕᑳᓀᓯ	-11.2789
ᑳᑎᐯᓂᒪ	-11.2789
ᒫᑲᑕᓬᐊᐎᑴ	-11.2789
ᓃᔥᑕᓇᔑᓃᐎ	-11.2789
ᓈᓂᒥᑕᓇ	-11.2789
ᓰᑲᐊᑕᐙ	-11.2789
ᐸᑲᒫᔑ	-11.2789
ᐸᓯᑴᐱᓱ	-11.2789
ᒥᔑᐱᔑ	-11.2789
ᐃᔑᓇᒧᐎ	-11.2789
ᐊᑳᓰᓄ	-11.2789
ᑭᑑᔑᐲᐊᒫᑰ	-11.2789
ᑭᑫᑌᔭᐋᒥᐙ	-11.2789
ᑭᐐᒋᐅᑌᐺᑕᒨᒥ	-11.2789
ᒪᐎᓀᔥᑲᐙ	-11.2789
ᐅᓂᐴ	-11.279
ᑭᑭᔥᑲᐙᐗᓱ	-11.279
ᑳᑕᓱᐯᔑᑯ	-11.279
ᐅᑭᒋᐊᓇᒥᐁᐎᑲᒥ	-11.2791
ᓈᑯᐃᑎᓱ	-11.2791
ᐯᔑᑯᑎᐸᐃᑲ	-11.2792
ᑰᓯᓈ	-11.2792
ᑭᑎᔑᑲᓅᓂ	-11.2793
ᓈᐗᑴ	-11.2793
ᐃᔥᑾ	-11.2793
ᔖᑯᐙᓈ	-11.2793
ᑭᐱᑎᓈ	-11.2794
ᐱᒫᑎᓰᐋ	-11.2794
ᑭᑭᓇᐙᒋᒋᑲ	-11.2795
ᐅᑖᑲᔥᑭᑑᓰ	-11.2796
ᑲᔥᑭᒋᑳᑌ	-11.2796
ᑮᒦᑭᐌ	-11.2797
ᐅᑎᓇᐌᒫᑲᓇ	-11.2797
ᑭᑫᓂᒪ	-11.2798
ᑲᕒᐄᑲ	-11.2799
ᑭᒋᐊᓇᒥᐁᐸᒀᓀᑲᒥᑯ	-11.28
ᑳᔖᓂ	-11.28
ᐁᑕᓶᐙᓇᑭᓯ	-11.2801
ᐯᔓᓈᑾᓂᓂ	-11.2801
ᑳᑮᐊᔓᑕᒪᐎ	-11.2801
ᓇᓇᐁᑕᒥᐋ	-11.2801
ᑭᑭᔐ	-11.2803
ᑳᑲᔥᑭᐁᐎᓯ	-11.2804
ᑕᒪᐎᓇᑰ	-11.2805
ᐅᐴᑖᒋᑲ	-11.2805
ᒫᔑᒋᑫ	-11.2806
ᑳᐅᑭᒫᐌᑖᑯᓯ	-11.2806
ᐸᒀᓀᑲᒥᑯ	-11.2806
ᑯᑖᑎ	-11.2806
ᑳᐱᒥᓭ	-11.2807
ᐅᑮᒥᑲᓰ	-11.2807
ᐃᓈᐸᒋᑑ	-11.2807
ᓵᑭᒋᐌᐱᓈ	-11.2808
ᑳᑮᐅᓀᓂᒫ	-11.2808
ᐐᒋᐃᑯᐙ	-11.281
ᔔᒥᓈᑎᑯ	-11.2811
ᐊᐲᑌᑖᑯᓯᓰ	-11.2812
ᐅᓇᑕᐌᓂᒫ	-11.2813
ᐊᓄᑳᑕ	-11.2814
ᑳᐅᑖᐱᓇ	-11.2816
ᑲᔥᑮ	-11.2816
ᐅᓈᐯᒥᒫ	-11.2818
ᒣᓂᑲᓈ	-11.2819
ᐃᓇᑭᒥᑯ	-11.282
ᐅᑲᐅᒋ	-11.2822
ᐹᑏᓄᓈᓂᐗᓂᓂ	-11.2822
ᒋᐃᓀᑕ	-11.2822
ᑮᐃᔑᐎᒋᑲᓂᐎ	-11.2824
ᐁᑮᒦᓂᑯ	-11.2825
ᒋᐱᓯᑕ	-11.2826
ᐁᑎᐯᓂᒥᓇ	-11.2831
ᑮᑭᔒᐌ	-11.2831
ᐁᐅᑯᓯᓯᒥᑯ	-11.2832
ᑭᑖᓂ	-11.2834
ᐁᐋᐸᒋᑑ	-11.2834
ᑭᑫᑖᑯᓯ	-11.2834
ᐁᑮᐋᐸᒋᐋ	-11.2836
ᐅᑭᒋᐊᐱᐎᓂ	-11.2839
ᐁᓇᓈᑯᒫ	-11.2839
ᑕᐃᓇᑭᒫ	-11.284
ᐙᐱᑾ	-11.2842
ᑫᐸᑭᑎᓇ	-11.2844
ᒦᔑᔭ	-11.2845
ᓅᑖᓈᐙ	-11.2848
ᒋᑭᑫᑕᒧᐙ	-11.2848
ᐁᑭᔒᐌ	-11.2853
ᓂᑎᔑᓂᑳᓱᐎ	-11.2853
ᔕᐌᑖᑯᓯᐎ	-11.2854
ᐅᑮᐅᑎᓯᑯ	-11.2855
ᑮᓃᐸᐎᐗ	-11.2855
ᒥᓂᑴᓰ	-11.2858
ᒋᒥᓉᑕ	-11.2859
ᑮᐃᔥᒀᓭ	-11.2865
ᒋᒪᒋ	-11.2865
ᑳᑲᑮᐹᑎᓯ	-11.2865
ᓂᓯᑕᐎᓇᓰ	-11.2876
ᑲᒀᑕᑭᐃᑰᐎ	-11.2878
ᐅᑌᒐᓬᐃᒥᐙ	-11.2878
ᑕᐃᔑᐌᐸ	-11.2882
ᐗᔦᔑᑫ	-11.2882
ᑮᐌᐱᒫᑎ	-11.2889
ᐱᓀᓂ	-11.2891
ᒋᑎᐯᓂᒫ	-11.2891
ᐁᐋᑯᓯ	-11.2893
ᐁᐲᑯᓇ	-11.2897
ᑳᑾᔭᒀᑎᓯ	-11.2898
ᓂᔥᑳᑎᓯᐎ	-11.2902
ᐲᒋᓂᔕᐅᑯ	-11.2903
ᐁᑮᐅᑖᐱᓈ	-11.2907
ᐅᓀᓂᒫ	-11.2911
ᑮᑕᑯᔑ	-11.2913
ᑫᑌᒪᓯᓇᐃᑲ	-11.2919
ᐁᒪᔥᑲᐎᓰ	-11.293
ᒪᐎᓇᑰ	-11.2932
ᑮᑳᑎᐎ	-11.2941
ᑕᓯᑭ	-11.2946
ᐁᐋᐎᓂ	-11.2947
ᑎᐹᒋᒫᐙ	-11.2947
ᑎᐸᐃᑫᐎ	-11.2953
ᐊᔮᓂᑭ	-11.2955
ᓈᓈᑲᒋᐃ	-11.2957
ᐅᒦᓂᑰ	-11.296
ᑮᐴᓯ	-11.2968
ᑳᑮᐊᑐᒥ	-11.297
ᑭᑎᑭᑐᐎ	-11.2972
ᐃᔑᒫᒌ	-11.2973
ᓂᐐᓱᐎ	-11.2982
ᓂᑲᐃᔑ	-11.2983
ᒋᓂᐳ	-11.2994
ᓅᐗ	-11.2995
ᐅᑲᑴ	-11.2995
ᒋᐸᑭᑎᓇ	-11.2996
ᑭᑭᓄᐊᒫᑎ	-11.3002
ᑳᑮᑭᒋ	-11.3004
ᑎᐹᒋᒥᑯ	-11.3009
ᐋᔕᐗᐊ	-11.3015
ᐸᒥᐃᑯ	-11.3015
ᒋᑑᑕᒧ	-11.3017
ᐸᐲ	-11.3019
ᐯᑭᓯ	-11.3019
ᑮᒪᒋᑑᑕ	-11.3019
ᐊᑕᐌᑕᒪ	-11.3024
ᒋᒪᔥᑲᐌᑕ	-11.3029
ᐃᔑᑭᑭᓄᐃᑫ	-11.3043
ᐁᑮᐃᔑᓈᑯᓯ	-11.3049
ᐅᑭᒋᐊᓇᒥᐁᐎᑲᒥᑯ	-11.3051
ᒦᑳᑎᐎ	-11.3055
ᒋᑭᐌᓯᐗ	-11.3056
ᓂᑲᐅᒋ	-11.306
ᑳᐃᔑᓂᑖ	-11.3067
ᑕᔑᑕᒪᐙ	-11.3068
ᐅᑎᑭᑐᐎᓂᐙ	-11.3073
ᐅᒻᐺ	-11.3077
ᓇᑴᑕᒨ	-11.3082
ᑭᑌᐺ	-11.3083
ᑳᐃᔑᐲᐃᑳᑌᓂ	-11.3084
ᐅᑲᔥᑮᑮᐎᓂ	-11.3086
ᑏ	-11.3088
ᓈᓯᑳ	-11.3089
ᐲᑑᓂ	-11.309
ᑳᑲᑮᑖᐌᑕ	-11.309
ᒋᑲᒀᑕᑭᐃ	-11.3107
ᓈᐗ	-11.311
ᑕᑯᓈᐙ	-11.3115
ᑮᒫᒑ	-11.3117
ᐁᑎᐯᓂᒥᑯ	-11.3131
ᑳᐊᔮᔭ	-11.3132
ᑫᐊᓂ	-11.3133
ᒪᒋᑑᑕ	-11.3146
ᑮᑌ	-11.3146
ᔑᓄᐙ	-11.3155
ᒋᐐᒋᐋ	-11.3156
ᐐᑌ	-11.316
ᐸᑭᓯᓂᓂ	-11.316
ᐃᔥᒀᑌᒥ	-11.3161
ᐅᒋᑎᐯᑖᑯᓯ	-11.3164
ᑳᐙᓭᔮ	-11.3168
ᑳᐃᔑᑯᑖᓀᑖᑾ	-11.3173
ᑮᓃᑳᓂ	-11.3181
ᐃᔑᐎᓈᐙ	-11.3189
ᐱᓯᑕᐙ	-11.3194
ᐅᑮᒥᑲᐙ	-11.3198
ᒫᑰᔦ	-11.3202
ᑌᐺᔦᑕᒧ	-11.3207
ᑫᒦᓂ	-11.3212
ᒌᑫᑕᒧᐎ	-11.3213
ᐁᐃᓇ	-11.3213
ᑾᐃᑲ	-11.3219
ᒋᐃᓇ	-11.3219
ᒋᑑᑕᐎ	-11.3239
ᐙᐸᒣ	-11.3252
ᒪᒋᑑᑕᐎ	-11.3253
ᑳᐃᒋᑳᑌᓂ	-11.3259
ᐐᒋᐐᓯᓃᒥ	-11.3262
ᐅᔑᐲᐊᒪᐎ	-11.3266
ᒋᐃᔑᐊᔮ	-11.3272
ᑲᒀᑕᑭᐃᑯ	-11.3281
ᐅᔕᐌᒋᑫᐎᓂ	-11.3285
ᐁᑭᑭᔥᑳᑯ	-11.33
ᑳᑮᑭᑫᒋᑳᑌᓯ	-11.33
ᑳᐙᐸᑕ	-11.3303
ᑲᓬ	-11.3325
ᑕᔂ	-11.3326
ᑮᐃᔑᒋᑫᓰ	-11.3328
ᐃᔑᐊᓄᑮ	-11.3328
ᐸᑭᒌ	-11.3329
ᔥᑭᓀ	-11.3341
ᐅᓇᔓᐌᐎᑭᒫ	-11.3358
ᑭᑕᓇᒥ	-11.3367
ᑳᐊᑌ	-11.3369
ᒋᓈᑾᓂᓂ	-11.3369
ᐱᒥᔑ	-11.3372
ᔑᑑ	-11.3378
ᐸᑭᑎᓈᓰ	-11.3381
ᑮᐸᐹ	-11.3385
ᑭᑭᓄᐊᒫᑯᐙ	-11.3386
ᐊᓅᓈ	-11.3398
ᐅᑕᓇᒥᐋᐎᓂ	-11.3398
ᒣᔮ	-11.34
ᐱᒫᑎᓯᓰ	-11.3409
ᑾᓂᓂ	-11.3433
ᒋᐸᑭᑎᓈ	-11.3434
ᐊᔮᓰᐗ	-11.3437
ᐃᓇᑭᒥ	-11.3438
ᒥᓂᒀᑲᓂ	-11.3439
ᐅᑖᐱᓂᑳᑌ	-11.3444
ᐐᑕᒪᐎᑣ	-11.3449
ᑭᒋᑫᑰ	-11.3456
ᒋᐐᓯᓂ	-11.3472
ᐲᐅ	-11.3475
ᐃᔑᐐᒋᐃ	-11.3478
ᑭᒫᐎ	-11.3497
ᑫᑑᑕ	-11.3529
ᒋᑳᑌᑭ	-11.3534
ᐃᔑᐋ	-11.3548
ᐁᓂᐳ	-11.3557
ᓰᑲᐊᑖ	-11.3565
ᑖᑾᑭ	-11.357
ᐁᑮᐊᔮ	-11.359
ᑳᑮᑑᑕ	-11.3591
ᓇᑲᓈᐙ	-11.3595
ᐋᓂᑫ	-11.3597
ᐸᑭᑎᓂᑯ	-11.3603
ᐸᑭᑎᓇᒫ	-11.3603
ᑕᔭ	-11.3618
ᐐᑕᒧᐙ	-11.3637
ᐃᑭᑑᒪᑲᓂᓂ	-11.3641
ᐙᐸᒫᓰ	-11.3652
ᓂᐳᔮ	-11.3653
ᑎᓄᐎᒥ	-11.3653
ᒦᒋᒥ	-11.3657
ᐲᑎᑲᓂ	-11.3664
ᐊᓂᑮᐌ	-11.3672
ᑭᑌᐃ	-11.3685
ᐱᒥᓂᔕᐃᑫ	-11.3689
ᓬᐄ	-11.3709
ᑲᓂᓂᑭ	-11.3719
ᑳᐊᐲᑌᑖᑯᓯ	-11.3725
ᑳᐱᒧᓭ	-11.3738
ᐃᔑᒦᓈ	-11.3747
ᐃᓇᑌ	-11.375
ᒨᔥᑭᓀᔥᑳᑯᐙ	-11.3759
ᒋᑫᒪᑲᓂᓂ	-11.3765
ᓵᔭ	-11.3767
ᒋᐊᓄᑮ	-11.3772
ᒋᑌ	-11.3775
ᐅᑎᑖ	-11.3781
ᒨᒋᑫᑕ	-11.379
ᒉ	-11.3791
ᐅᑌ	-11.3804
ᑯᑖᓀᑖᑾᓂᓂ	-11.3812
ᐃᓈᐗ	-11.3822
ᒋᑕᑯᔑ	-11.3828
ᐙᐸᑕᐃᔑ	-11.3832
ᐃᓈᐸᒋ	-11.3837
ᒋᑎᐯᓂᒥᑯᓯ	-11.3841
ᐁᑲ	-11.3842
ᒪᑲᓯᓅ	-11.3844
ᐃᓀᑖ	-11.3846
ᓀᓂᒥ	-11.3856
ᑳᑮᐃᔑᒋᑫᐙ	-11.3861
ᐊᓅᑮ	-11.3862
ᐋᐸᑕᓂᓂ	-11.3882
ᐁᐐᐱ	-11.3883
ᑑᒋᑳᑌ	-11.3899
ᑮᒋᑭᐌ	-11.39
ᐊᕒ	-11.3906
ᑕᑮᐌ	-11.3907
ᒪᔥᑲᐙ	-11.3915
ᑮᑕᑯ	-11.3919
ᐐᒋᐃᑯᓰ	-11.3922
ᐋᓇᐌᑕ	-11.3926
ᓅᑖᑯ	-11.3927
ᐅᔑᐲᐃᑫ	-11.3934
ᓂᑮᐐ	-11.3945
ᐅᑲᐱ	-11.3955
ᑮᑲᑴᑗ	-11.3971
ᐐᓴᑫᑕ	-11.3982
ᒪᒥᔑ	-11.3983
ᒥᓍᐸᒥ	-11.3996
ᐙᐃᔑ	-11.4005
ᑕᑕᔑ	-11.4015
ᑭᑎᓄ	-11.4019
ᑭᑭᓇᐙᒋᐃ	-11.403
ᐱᒫᒋᐃᐌ	-11.4034
ᑮᒥᑯᔥᑳᑌᑕ	-11.4035
ᓵᐸ	-11.4038
ᑳᑑᑕᐙ	-11.4048
ᐁᑲᓇᐌᑕ	-11.4049
ᐅᑌᐺᑕᒧ	-11.4052
ᐅᓵᑭᐃᐌᐎ	-11.4061
ᓂᔥᑭ	-11.4061
ᒫᒋᓂᔕᐙ	-11.4064
ᒋᒦᓈ	-11.4079
ᐃᓀᑖᑾᑭ	-11.408
ᐃᑰᔭ	-11.4085
ᑭᐱᑎᓂ	-11.4088
ᑌᐐᓯᓂ	-11.4091
ᐙᓭᓈᑯᓯ	-11.4093
ᐅᓈᐸᒥ	-11.4098
ᑮᐃᑭᑐᑯᐸ	-11.4109
ᐃᓂᓀ	-11.4113
ᓂᑎᓈ	-11.4115
ᑲᒀᑕᑫᑕ	-11.4123
ᑮᑲᑴ	-11.4126
ᐅᑲᔥᑭᑑ	-11.4138
ᐋᓇᐌᓂᒥ	-11.4144
ᐁᐙᐸᒥ	-11.415
ᒥᓇᑰ	-11.4151
ᑳᒋᑎᓈ	-11.4158
ᒥᓉᑕᒨ	-11.416
ᐲᐎᑌ	-11.4161
ᐐᓯᓃᒫ	-11.4163
ᔑᔑᓈ	-11.4163
ᐅᑳᐎᒥᓇᑲᔒ	-11.4163
ᑰᐹᓯᓈ	-11.4168
ᐅᓈᑲ	-11.4173
ᑌᐺᑕᓯ	-11.4176
ᑳᑮᐐ	-11.4177
ᒋᔕᔒᐯᑕ	-11.4177
ᒥᓉᑕᒥᐃ	-11.4181
ᕒᐄᔭ	-11.4183
ᒫᒥᑲᐎᓄᑕᐎ	-11.4184
ᑳᐊᓄᑮ	-11.4187
ᑮᐃᓈᑯᓂᑫ	-11.4188
ᐗᐌᔑ	-11.4189
ᔒᐹ	-11.4191
ᑭᔥᑮᔑᑯ	-11.4191
ᐅᔥᑭᓃᑭ	-11.4193
ᐅᑌᑌᓂ	-11.4194
ᑯᑖᓀᑖᑾ	-11.4196
ᑳᐙᐸᒥ	-11.42
ᑭᑮᐐᒋ	-11.4211
ᐁᐱᒫᒋᐃᑰᐎ	-11.4211
ᐊᑖᐙ	-11.4211
ᐐᓯᓂᐗ	-11.4212
ᓂᓯᑕᐎᓈ	-11.4214
ᐁᑮᐊᓇᒥᐋ	-11.4216
ᑭᐸᐅᑰ	-11.4216
ᑭᑎᓀᑖ	-11.4217
ᐱᐁᓬᓯᐳᓬ	-11.4217
ᐱᓬᐃᐹ	-11.4217
ᓂᑯᑣᓯᒥᑕᓇ	-11.4217
ᐅᑎᓇᐌᒫᑲᓂ	-11.4217
ᐊᑶᓬᐊ	-11.4217
ᐌᑭᒫᐌᑖᑯᓯ	-11.4217
ᐸᐹᒣᓂᒥ	-11.4217
ᐸᕒᐃᓯᓬᐊ	-11.4217
ᒋᐸᐹᒣᑕᓯ	-11.4217
ᒦᑴᒋᐌᓂᒥ	-11.4217
ᒪᔥᑲᐎᑮᔗ	-11.4217
ᓰᑲᐊᑕᐎ	-11.4217
ᐅᐱᓯᑲᓀ	-11.4217
ᐅᒥᓴᑖ	-11.4217
ᑲᒀᑕᑫᑖ	-11.4217
ᑳᐅᓅᑕᒫᐎᓂ	-11.4217
ᒥᓍᑐᑌ	-11.4217
ᓂᑕᓄᑮᐋᑲ	-11.4217
ᐁᔑᐌᐱᓯ	-11.4218
ᑎᑎᐲᑭᓂᑲᓂ	-11.4218
ᐅᑎᑎᓂᑯ	-11.4218
ᓂᒫᓇᒑᓂᔑᒪ	-11.4218
ᐅᑳᑭᑲᓂ	-11.4218
ᐋᓇᐌᒋᑫ	-11.4218
ᐅᓃᑭᐃᑯ	-11.4218
ᐸᑕᑭᑌ	-11.4218
ᑯᔥᑯᓭ	-11.4218
ᐴᓂᓭᓯᓄ	-11.4218
ᐃᓇᑭᑎᓱ	-11.4218
ᓃᒥᓂᑫᓂ	-11.4218
ᑳᐅᓃᒑᓂᓯᒥᑯ	-11.4218
ᓯᔮᑭᐃ	-11.4218
ᑲᓇᐌᒋᑳᑌ	-11.4218
ᓇᓇᐊᓵ	-11.4218
ᑭᔑᓱᐙᐱᓀ	-11.4218
ᐸᐲᑾᑎᓈ	-11.4218
ᓂᔑᐗᓈᒋᐋ	-11.4218
ᑭᔑᑌ	-11.4219
ᑳᐅᑌᑌᒫᐎ	-11.4219
ᒋᐅᑎᓯ	-11.4219
ᑭᑌᐺᑕᒧᐎᓂᓈ	-11.4219
ᐅᒥᓍᑎᓰᔑᑑ	-11.4219
ᓃᓀᑕ	-11.4219
ᐗᓯᑖᐎᓭ	-11.4219
ᑭᑎᔑᒋᑫᐎᓂᐙ	-11.4219
ᑭᑎᑫᐗᑮ	-11.4219
ᑳᐃᓇᒧ	-11.422
ᑭᑌᐃᓈᓂ	-11.422
ᐱᓬᐃᔭ	-11.422
ᐯᑭᐃᑎᓱ	-11.4221
ᐅᑰᐹᓯᓈᑫᐎ	-11.4222
ᑳᒥᓍᑎᓰᔑᑑ	-11.4222
ᐅᑖᓂᓴ	-11.4222
ᑕᓇᓄᑮ	-11.4222
ᑭᐐᔭᐎ	-11.4223
ᒥᓈᓯᑲ	-11.4223
ᑰᓂᑫ	-11.4224
ᑯᐹᑌᓂ	-11.4225
ᑭᒋᐅᓇᔓᐌᐎᑭᒫ	-11.4225
ᑮᐱᒫᑎᓯ	-11.4225
ᑳᑮᐃᔑᓂᑳᑌᓂ	-11.4225
ᐊᔮᒀᒥᒫ	-11.4225
ᑮᓀᑕ	-11.4226
ᒌᑫᑕᒨ	-11.4226
ᓬᐄᐸ	-11.4227
ᑳᐃᔑᐐᐸᑲᒥᑳ	-11.4228
ᐸᑫᒋᑲ	-11.4228
ᐅᑮᐅᑖᐱᓈᓈᐙ	-11.4228
ᒌᑲᑲᒥᑭᓯ	-11.4229
ᐅᐸᒦᑖᑫ	-11.4229
ᑳᑭᑌᑖᑯᓯ	-11.423
ᑲᑴᔖᑰᓱᑎ	-11.423
ᔖᔖᑯᐌ	-11.4231
ᐱᔑᑭᐗ	-11.4233
ᐐᒌᐙᓂ	-11.4234
ᒪᓯᓇᐊᒪᐙ	-11.4235
ᐅᓯᑯ	-11.4236
ᐸᒥᐃ	-11.4237
ᑌᐺᐎᓂᐎ	-11.4238
ᑮᑮᔑᒋᑳᑌ	-11.4238
ᐸᐸᑴᐱᓈ	-11.4239
ᓂᐯᐎᓂ	-11.4239
ᐅᔥᑭᓃᑭᐗ	-11.424
ᐅᔑᒫᑲᓂᔒ	-11.424
ᑭᑕᒑᑯᐙ	-11.424
ᐊᒑᑯᐎ	-11.424
ᐅᒋᒌᑾᓇᐲᑖ	-11.424
ᐃᓀᓂ	-11.4241
ᐊᓂᑲᑮᔑᑲ	-11.4243
ᐱᒫᒋᐃᑎᓱ	-11.4243
ᑫᐃᔑᒋᑫᐙ	-11.4244
ᓈᓈᑲᑕᐌᑕᒧ	-11.4247
ᑳᑮᐙᐸᒪ	-11.4248
ᐅᒌᒪᑲᓂᓂ	-11.425
ᔨᔥ	-11.4252
ᑕᓀᑖᑯᓯ	-11.4253
ᓂᑲᒦᓈ	-11.4254
ᑮᒋᐱᒫᑎᓰ	-11.4255
ᑌᐊᐲᑌᑖᑯᓯᓰ	-11.4255
ᔖᔖᑯᐌᐗ	-11.4256
ᑳᐅᑯᓯᓯᒥᑯ	-11.4258
ᑲᑳᓱᒫ	-11.4258
ᐁᐅᒋᑎᐯᑖᑯᓯ	-11.4258
ᐁᑲᓇᐙᐸᒥᑯ	-11.4265
ᒋᓂᐳᔮ	-11.4266
ᔕᐌᓂᒥᑯᐙ	-11.4269
ᓂᓯᑐᑕᒧᐎ	-11.4271
ᑴᑭᑳᐸᐎ	-11.4272
ᐅᓃᒑᓂᓯᐙ	-11.4273
ᑲᒥᑳ	-11.4277
ᑮᐊᓂᒫᒑ	-11.4277
ᐃᓇᑭᓱ	-11.4278
ᓱᐎ	-11.428
ᐸᑫᓯᐎ	-11.4283
ᑮᑕᓇᒥᐋᓈ	-11.4284
ᒋᐊᒸ	-11.4285
ᐁᑮᑮᐌᐱᒫᑎᓯᐃ	-11.4285
ᒥᑳᑯ	-11.4286
ᐁᔮᐎᓂ	-11.4287
ᐙᐸᑕᒧ	-11.4287
ᑮᐊᐸᑑ	-11.4288
ᓇᐃᓭ	-11.4291
ᑭᑭᑫᓂᒥᑰ	-11.4291
ᐅᑭᑭᔥᑭᑲᓂᐙ	-11.4293
ᓂᑎᑭ	-11.4293
ᐱᒫᒋᐃᐌᐎ	-11.4294
ᐅᓀᑖ	-11.4295
ᒋᑾᔭᒀᑎᓯ	-11.4298
ᐃᓇᑭᒥᑰ	-11.4298
ᒦᑳᓱᐎ	-11.4298
ᐊᑮᐗᓂᓂ	-11.43
ᐎᐙ	-11.43
ᑳᑮᐙᐱ	-11.4301
ᒋᐃᔑᓈᑾ	-11.4302
ᐁᐊᓇᒥᐋᔮ	-11.4303
ᒦᑭᐙ	-11.4305
ᑳᐃᔥᐯᑖᑯᓯ	-11.4309
ᑳᐗᓂᔑ	-11.431
ᒋᐙᐸᒋᑳᑌᓂ	-11.4311
ᒋᐱᒫᒋᐋ	-11.4311
ᑭᒋᐴᑖᒋᑲ	-11.4312
ᑮᔐᑕ	-11.4312
ᑳᑮᐱᐅᒌ	-11.4317
ᐙᐱᑲᓂ	-11.4318
ᐊᔪ	-11.4319
ᐐᔭᐎᐙ	-11.4319
ᑮᐅᑕᑳᓀᓯ	-11.432
ᔒᑫᓂᒫᐙ	-11.4321
ᑳᑌᐺᔦᑖᑯᓯ	-11.4325
ᑮᐅᒌᐗ	-11.4327
ᐅᒦᒦ	-11.4327
ᐁᒦᑭᐌ	-11.433
ᐁᑮᐃᔑᐎᓂ	-11.4336
ᑳᑭᑭᓄᐊᒪᐎ	-11.4342
ᐃᓀᑕᑫ	-11.4343
ᑳᓂᐗ	-11.4346
ᒋᐅᑎᑕ	-11.4346
ᓂᑕᔮᐙ	-11.4346
ᐅᑭᒫᐎᓂ	-11.4347
ᒋᐴᓂᑑ	-11.4352
ᑭᑫᑌ	-11.4353
ᐅᑎᓯᑰ	-11.4355
ᑳᐙᐸᑕᒪ	-11.4355
ᒪᓂᑑᐎ	-11.4355
ᔔᓂᔮᐗ	-11.4357
ᓵᑭᐃᑎᐎᓂ	-11.4358
ᐋᐱᑖ	-11.4365
ᐁᐐᐊᑕ	-11.4367
ᑕᐊᔮᐗ	-11.437
ᑕᐊ	-11.4371
ᑭᑭᔥᑳ	-11.4373
ᐁᐊᑕ	-11.4376
ᑲᑖ	-11.4382
ᑳᓂᔑᐌ	-11.4383
ᑯᓂᑫ	-11.4384
ᓂᐐᒋ	-11.4386
ᐅᔑᐃ	-11.4387
ᑮᐌᓂᔕᐙ	-11.4401
ᐁᒥᔅ	-11.4403
ᐃᓀᓂᒥᑯ	-11.4407
ᑳᑮᒦᓂᓇ	-11.4414
ᐅᑕᔮᐙ	-11.4417
ᐊᑐᒪᒀ	-11.4418
ᑳᑮᐃᔥᒀᐱᒫᑎᓯ	-11.442
ᐊᑮᐗ	-11.4421
ᑭᑭᔥᑳᑯᓰ	-11.4423
ᐅᑮᑕᑯ	-11.4423
ᑌᑭ	-11.4425
ᑫᑲᔥᑭᑑ	-11.4428
ᐸᑭᑌ	-11.4432
ᐴᓀᑕᒫᑰ	-11.4436
ᑭᒪᒋᑑᑕᒧᐎ	-11.4437
ᐱᓈᓯᑲᐙᐙ	-11.4441
ᒥᑯᔥᑳᑌᑕᒧ	-11.4443
ᑎᐹᒋᒧᐗ	-11.4455
ᔥᑳᓂ	-11.446
ᐅᑕᓄᑮᐎᓂ	-11.446
ᑲᐹ	-11.4471
ᑮᒫᒥᑲᐎ	-11.4479
ᐃᔑᒋᑫᐋ	-11.4485
ᒋᐊᔮᐗ	-11.4499
ᐗᒌ	-11.4505
ᑌᓂᑭ	-11.4509
ᑳᑕᔑᓂ	-11.4519
ᑭᑑᒋᑎᐯᑖᑯᓯ	-11.4519
ᒋᐋᐸᒋᑑ	-11.4525
ᐁᑭᑫᓂᒫ	-11.4532
ᒦᑳᓈ	-11.4548
ᐃᔑᓂᑳᒋᑲᓂᐎ	-11.4552
ᓰᐱ	-11.4558
ᐱᒥᓂᔕᐅᑰ	-11.4558
ᑳᑮᒪᒋᑑᑕ	-11.4564
ᑳᒪᒋᓈᑾ	-11.4575
ᒋᐊᐲᒋ	-11.4583
ᑮᑭᒋᐅᑭᒫᐎ	-11.4583
ᒦᓴᑯ	-11.4592
ᓇᓈᑕ	-11.4593
ᑲᓅᑕ	-11.4598
ᐐᑲᑴ	-11.461
ᒥᑖᒋ	-11.4613
ᐅᑖᐱᓂᑯ	-11.4618
ᐅᑣ	-11.4623
ᑮᓅᑕ	-11.4632
ᑳᑑᑕᒪ	-11.4639
ᑳᐃᔑᐎᓂ	-11.4639
ᒥᑯᔥᑳᒋᐃ	-11.4644
ᐃᔑᒋᑫᑫ	-11.4651
ᑳᐃᔑᓈᑾᓂᓂ	-11.4661
ᐅᑮᓅᑕᐙ	-11.4667
ᓈᑕᒫᑯ	-11.4668
ᐸᒥ	-11.4674
ᓯᓂᓂᑭ	-11.4675
ᓈᓃᐸᐎ	-11.4677
ᑌᓯᓅ	-11.4686
ᐊᐱᐎ	-11.4698
ᑳᐃᓀᑖᑾ	-11.47
ᒥᑲᓰ	-11.4701
ᐅᓵᑭᐋ	-11.4702
ᐁᑮᓂᑖ	-11.4705
ᑮᐋᐸᑕᓂᓂ	-11.4707
ᒋᒫᒌ	-11.471
ᐃᓇᑭᒥᓐ	-11.4712
ᓇᐃᑖᑯ	-11.4716
ᓅᒋᑑ	-11.4723
ᑭᑖᓇ	-11.473
ᑕᔑᑯ	-11.4731
ᑳᐐᑕᒪ	-11.4738
ᐃᓀᑕᓯ	-11.4741
ᐁᐐᒌᐎ	-11.4749
ᒧᐎ	-11.4749
ᐸᑭᑎᓇᒧ	-11.4753
ᐅᔑᐲᐃᑳᑌᓂ	-11.4762
ᔑᒫ	-11.4768
ᑮᒨ	-11.4776
ᐱᒫᒋᐃᑰᔭ	-11.4777
ᐁᑮᐐᑕᒪᐙ	-11.4796
ᐊᑕᐙᐸ	-11.4802
ᒋᐱᒧᓭ	-11.4808
ᐅᒋᐋ	-11.4814
ᑭᑲᐱ	-11.4845
ᑳᑮᐅᔑᒋᑳᑌ	-11.4852
ᓈᑕ	-11.4854
ᐃᔑᒋᑫᓯ	-11.4868
ᓂᔑᐗᓈᑎᓯᐎ	-11.4879
ᐅᑮᐐᒌᐙ	-11.4894
ᑎᐸᐊᒪᐎᓐ	-11.4896
ᐁᒨᔥᑭᓀᔥᑳᑯ	-11.4897
ᐊᓇᒥᐁᑕᒪᐎᔑ	-11.4898
ᑳᐃᓈᓂ	-11.4905
ᐊᓄᑮᔮ	-11.4906
ᑕᔑᒋᑳᑌ	-11.4918
ᑭᓵᑭ	-11.4947
ᑮᐃᔑᐲᐃᑳᑌ	-11.4959
ᑳᑮᐃᓇᓄᑮ	-11.4979
ᒦᓂᓇᑰ	-11.4988
ᑭᑭᔥᑲᒣ	-11.4993
ᑖᑯᓯᐙ	-11.4996
ᑭᑎᓈ	-11.5014
ᑑᑖᑯᐙ	-11.5018
ᑳᑾᔭᑯ	-11.5021
ᐲᑎᑫᐗ	-11.5026
ᑳᓃᑳᓂ	-11.5049
ᒋᐊᔮᐙ	-11.5057
ᑳᑮᐃᓈᑯᓂ	-11.5057
ᐱᒫᔑ	-11.5058
ᑭᑫᑕᒧᐎ	-11.506
ᒫᒌᓈ	-11.5063
ᐁᑲᓅᓂᑯ	-11.5065
ᐅᑑᑭᒫᒥ	-11.5065
ᔑᑯ	-11.5068
ᒋᐅᒋᒋᓭ	-11.5071
ᑕᐃᓈ	-11.5072
ᑲᓅᓈᓂ	-11.5077
ᐹᐱᓄᑕᐙᐙ	-11.5116
ᒋᐐᑕᒫᑫ	-11.5117
ᔑᔭ	-11.5119
ᑎᓱᔦ	-11.5122
ᑫᑮᐃᔑᒋᑫ	-11.5123
ᓭᔮ	-11.5129
2	-11.5144
ᓇᐃᑕᒧ	-11.5145
ᑮᓂᔥᑳᑎᓯ	-11.5147
ᑲᓅᑕᒫᓱ	-11.5147
ᐐᓴᑫᑕᒧᐎ	-11.5153
ᐗᔦᔑᐋ	-11.5165
ᓈᑾᓯᓄᑭ	-11.5167
ᐐᑕᒪᐎᓀ	-11.5178
ᒦᓂᑰᐎᓯᐎ	-11.5178
ᐁᑮᐊᑐᒫ	-11.5179
ᓀᑕᒧᐙ	-11.5191
ᑎᐯᓂᒥᐌ	-11.5197
ᒥᓄᒋᑫᐎ	-11.5202
ᒋᒪᔥᑲᐌᑕᒥ	-11.5205
ᐙᐸᒫᓯᐙᐙ	-11.5207
ᐐᑕᒪ	-11.5219
ᑭᐙᐸᒫ	-11.5221
ᒋᒦᓂᓀ	-11.5239
ᑭᑫᑕᒧᐗ	-11.5245
ᑳᐃᔑᓯ	-11.5255
ᑯᓯᔦ	-11.5264
ᑖᐃᑭᑐᓰ	-11.5285
ᑳᐊᐱ	-11.531
ᐁᒪᐎ	-11.5313
ᑮᐅᑯᓯᓯ	-11.5314
ᑭᑫᒋᑳᑌᓯᓄ	-11.5323
ᓯᐗᒀ	-11.5337
ᑲᓇᐙᐸᑕ	-11.5346
ᐅᓈᐸᒥᑯ	-11.5352
ᐱᓯᑕᓯ	-11.5352
ᑕᓂᑖ	-11.5355
ᐃᔑᐊᔮᐗ	-11.5358
ᓂᔑᐗᓈᑕᓂᓂ	-11.5363
ᑲᓇᐌᓂ	-11.5364
ᐅᑖᓇ	-11.5368
ᐁᑲᑮᐹ	-11.5379
ᐯᐸᑳᓂᑮᔗ	-11.5397
ᐁᑮᓂᓯ	-11.5406
ᐅᑮᓰᑭ	-11.5407
ᑲᓅᓇ	-11.5424
ᐁᐐᒌᐎᓇ	-11.5425
ᐸᐃᑎ	-11.5427
ᐎᓂᓃᐎ	-11.543
ᑕᓂᔑᐗᓈᑕ	-11.5434
ᐅᓃᒑᓂᓯ	-11.5464
ᒋᐊᔮᔭ	-11.547
ᑌᓄᐎ	-11.5473
ᒋᓂᑖᐎᑭ	-11.5475
ᒋᐐᒌᐎ	-11.548
ᐃᔑᒦᓂᑰᐎᓯ	-11.5483
ᑳᑾᔭᑾ	-11.5495
ᑲᓂᐎᓂ	-11.5498
ᑮᐲ	-11.5525
ᑕᒥᓉᑕ	-11.553
ᐃᔑᓈ	-11.5538
ᐃᑰᐎᓯ	-11.5542
ᒥᓴᐌᒋᑫ	-11.5548
ᓰᑭᓈ	-11.5551
ᑮᐊᔮᔮ	-11.5564
ᔒᑫᓂᒥᑯᐙ	-11.5574
ᓱᓰ	-11.5581
ᐅᑕᔓᑕᒫᑫᐎᓂ	-11.559
ᐃᐲ	-11.5592
ᐃᓀᑕᒧ	-11.5593
ᑭᑖᐅᒋ	-11.5611
ᐙᐸᒋᑳᑌ	-11.5615
ᓇᔓᐌ	-11.5622
ᐃᔑᐊᔮᐎ	-11.5627
ᐊᔓᑕᒫᑎ	-11.5628
ᑮᔖᑯᐌ	-11.5629
ᑭᑭᔥᑲᐙᓂ	-11.5636
ᐴᓀᑕᒪ	-11.5643
ᑳᓱᐗ	-11.5646
ᑭᑎᑭᑐ	-11.5647
ᐁᑮᓇᑲᑕ	-11.5666
ᑳᑮᐅᔑᐲᐊ	-11.5673
ᐅᒋᒫᒑ	-11.568
ᓭᐗ	-11.5692
ᒫᔑᒥᑕᑎ	-11.5696
ᐸᐃᐌᐗ	-11.5698
ᓱᐙ	-11.57
ᑌᓂᒫ	-11.5702
ᑯᑖᓀᓂᒥ	-11.5704
ᑮᑕᓇᒥᐋ	-11.5719
ᐅᑎᐹᒋᒧ	-11.5722
ᔖᐳ	-11.5729
ᓂᔑᐗᓈᑕ	-11.5734
ᓂᑎᓀᑕᒧᐎᓂ	-11.5739
ᐴᑖᒋᑲ	-11.5752
ᒥᓴᐌᓂ	-11.5763
ᒥᓍᒋᐃ	-11.577
ᑖᓱ	-11.5774
ᐱᑾ	-11.5777
ᑭᑕᑭᒫ	-11.5782
ᐅᒋᒌᑾᓃᑕ	-11.5791
ᑕᐙᓯᐙᐙ	-11.5793
ᑭᑭᓇᐙᑕᔕᑫᔑᑲᓂᐎ	-11.5795
ᑎᔑᓂᑳᓱᐎ	-11.5798
ᓂᑳᑌᑭ	-11.5799
ᑎᐸᐃᑲᓀᔮ	-11.5804
ᐅᔑᐲᐃᑳᑌ	-11.5808
ᑳᑮᓇᑲᑕ	-11.5808
ᓈᓯᑳᑰ	-11.5809
ᑲᐸᕒᓂᔭ	-11.5809
ᑫᐃᔑᒋᑫᐃ	-11.581
ᓂᓯᑎ	-11.581
ᐁᑎᐯᑕ	-11.5817
ᑭᑲᑴᒋᒥ	-11.5819
ᒣᓇ	-11.5819
ᑮᔖᐯᐎ	-11.583
ᐋᓬᐃᑭᓵᑕᕒ	-11.5831
ᓂᐴᒥ	-11.5835
ᓭᓴᑰ	-11.5838
ᑳᓃᑳᓂᔥᑲ	-11.5839
ᓂᑖᐎᑭᓂ	-11.5839
ᒸ	-11.5843
ᑭᐙᐸᑖ	-11.5847
ᐋᐌᒋᑫ	-11.5849
ᑆ	-11.585
ᓵᑭᒋᓂᔕᐙ	-11.585
ᒋᒥᓍᐸᒥ	-11.5851
ᑭᔐᐹᐗᑲ	-11.5851
ᐅᓀᓂᒥᑯ	-11.5852
ᐃᔑᓂᑳᑌ	-11.5852
ᐊᐱᓅᒌᔑ	-11.586
ᑲᓇᐌᒋᑫ	-11.5863
ᓇᐃᓂᑏᐎᑲᒥ	-11.5864
ᑮᐅᔑᒋᑳᑌ	-11.5864
ᒋᔖᐾ	-11.5865
ᐁᐅᑯᓯᓯᒥ	-11.5868
ᐅᒥᔅᑸᒥ	-11.5871
ᒫᓇᒑᓂᔑ	-11.5877
ᑰᐹᑌ	-11.5877
ᑭᑎᓀᑕᒧᐎ	-11.5879
ᒋᐅᑭᒫᑲᑕ	-11.588
ᐊᑯᓈ	-11.5881
ᓈᑲᒋᐋ	-11.5881
ᑮᐅᒌᒪᑲᓂᓂ	-11.5881
ᒪᑲᑗ	-11.5883
ᑯᔥᒀᐙ	-11.5884
ᒪᑕᐐᐃᑎᓱ	-11.5884
ᐋᐃᑰᓂᔭ	-11.5884
ᐐᑯᐲᒪᑲ	-11.5884
ᐙᓴᑯᓀᒋᑲᓈᑎᑯ	-11.5884
ᑭᑭᓇᐙᒋᒋᑫ	-11.5884
ᑭᓰᔩᑴ	-11.5884
ᑰᐹᓯᓇᐙ	-11.5884
ᒐᕒᐆᐗ	-11.5884
ᒑᑭᓯᑳᑌ	-11.5884
ᓬᐃᔅᑕᕒᐊ	-11.5884
ᐌᑯᓯᓯᒥ	-11.5884
ᐐᓯᓂᐎᓈᑎ	-11.5884
ᐱᒀᐎᑲᓀ	-11.5884
ᐲᑕᒪᐎᔑ	-11.5884
ᐌᑭᒫᐙᑎᓯ	-11.5884
ᐅᒫᓇᒑᓂᔑᒪ	-11.5884
ᐐᒋᑳᐸᐎᑖᑯ	-11.5884
ᑎᐹᑐᑌ	-11.5884
ᒥᓴᐌᑖ	-11.5884
ᐊᑐᑕᒫᑫ	-11.5884
ᐸᑕᑭᓱ	-11.5884
ᐅᑎᐯᑖ	-11.5884
ᐅᑮᔑᑳᒥ	-11.5884
ᐲᑎᑲᔑ	-11.5884
ᐊᓄᑲᐗ	-11.5884
ᒥᔕᐗ	-11.5884
ᐗᑫᑕᒧ	-11.5884
ᑲᒀᓂᓴ	-11.5884
ᑕᐸᓭᓂᑎᓱ	-11.5884
ᓵᒥᓇᒪᐙ	-11.5884
ᐅᑎᓇᓰ	-11.5884
ᓂᒥᑲᒧᐙᓰ	-11.5884
ᐐᒋᔭᔮᒥ	-11.5884
ᓈᐱᔥᑭᑲ	-11.5884
ᑲᓬᐁᔑᔭ	-11.5884
ᑕᐃᔥᒀᓭᓯᓅ	-11.5884
ᒫᒪᑳᓯᓈᑾ	-11.5884
▁¦14	-11.5885
ᑫᐅᑎᓇ	-11.5885
ᐋᔕᐎᔥᑳ	-11.5885
ᑳᒫᑭᓯ	-11.5885
ᓴᑲᐊ	-11.5885
ᐋᔩᒋᑳᐸᐎ	-11.5885
ᒋᐃᔑᐊᓈᒣᑖᑯᓯᓯ	-11.5885
ᒨᔕᑭᓂᑫ	-11.5885
ᐸᑴᔑᑲᓂᑳᓇ	-11.5885
ᐲᑎᑲᐙ	-11.5885
ᓵᐃᕒᐄ	-11.5885
ᐅᑕᔮᐎᓂᓂ	-11.5885
ᓂᐱᒫᑎᓯᐎᓂᓈᓂ	-11.5886
ᐅᑾᔭᒀᑎᓰ	-11.5886
ᓂᑌᐃᓈᓂ	-11.5886
ᑮᑭᒋᒫᒪᑳᑌᑕᒨ	-11.5886
ᓵᑳᑌ	-11.5887
ᐅᓯᑕ	-11.5887
ᑮᓯᓲ	-11.5887
ᐊᓈᒥᒫᐙ	-11.5887
ᑳᑮᐙᐱᓯᓂ	-11.5887
ᐱᑾᑕᑮ	-11.5887
ᑫᑌᑖᑯᓯ	-11.5887
ᑭᑕᑭᒥ	-11.5887
ᐅᑲᑮᑖᐌᑕᒧᐎᓂ	-11.5887
ᑭᐴᔔᐃ	-11.5887
ᑎᐹᑐᑕᒧᐙ	-11.5887
ᑭᑎᑯᐙ	-11.5887
ᑕᑯᓂᑲᓇ	-11.5888
ᑭᑭᔥᑭᑫ	-11.5888
ᓭᕒᐊ	-11.5889
ᐊᐗᓱ	-11.5889
ᑭᒋᐗᒋ	-11.5889
ᐃᕒᐆᑎᔭ	-11.5889
ᑳᐊᑳᓭᑖᑯᓯ	-11.5889
ᑕᑌᐱᓇᒫᓱ	-11.589
ᒋᑾᔭᑾᑭᒥ	-11.589
ᐅᓈᑯᓇ	-11.589
ᐊᓂᒥᑯᑖ	-11.589
ᐱᒥᐎᓈ	-11.589
ᒋᐅᒋᔥᑲᐎ	-11.5891
ᐅᑌᑎ	-11.5891
ᐁᑮᐊᐲᒋ	-11.5891
ᐐᒌᐎᔭᒥ	-11.5891
ᓂᑌᐃ	-11.5892
ᐅᔑᐲᐃᑳᓱ	-11.5892
ᒥᓄᐊᓄᑮᐎ	-11.5892
ᐹᑭᑌᓇᒫ	-11.5893
ᑭᑎᑳᑌ	-11.5894
ᓂᑎᑭᑐᓰ	-11.5894
ᑾᔮᒋᑑ	-11.5895
ᓇᑲᑕᒧᐙ	-11.5895
ᐁᐐᐐᑑᑳᓱ	-11.5896
ᐊᑯᓈᑾ	-11.5896
ᑕᐲᑎᑫᓰ	-11.5896
ᑰᐹᑌᓂᒫ	-11.5897
ᓈᑕᒪᐎ	-11.5897
ᑲᒀᑕᑭᐃᑰᔮ	-11.5898
ᑯᐲ	-11.5899
ᐃᔑᑣᐎ	-11.5899
ᐁᒥᑴᓂᒥ	-11.5899
ᐅᑮᐊᑕᐌᑖ	-11.5899
ᓵᑭᐃᑎᓱᔭ	-11.59
ᔔᒥᓂᑭᑎᑫᐎ	-11.5901
ᑳᐅᒋᓈᓈᑲᑕᐌᑕ	-11.5903
ᑮᒥᓄᐊᔮᐗ	-11.5905
ᐁᑮᒥᓄᐊᔮᐋ	-11.5906
ᑲᓇᐌᑕᒫᑯ	-11.5906
ᓂᓂᑭᔥᑳ	-11.5906
ᑎᔪ	-11.5906
ᔕᐌᓂᒥᑯ	-11.5908
ᒪᒫᑳᔥᑳᓂ	-11.5909
ᐸᑴᔑᑲᓂᐎ	-11.5909
ᑮᐱᑕᑯᔑᓅ	-11.5909
ᐃᑯᔮ	-11.5909
ᐅᑖᓂᓯ	-11.5909
ᒋᐃᔑᓂᔕᐗ	-11.5911
ᑳᑮᐋᓂᑫ	-11.5912
ᑌᑕᒧ	-11.5913
ᐯᑭᐋ	-11.5913
ᑳᐅᑭᒫᑲᑖᑫ	-11.5913
ᓃᑳᓂᓂᔕᐙ	-11.5913
ᓇᐃᑕᐙᐙ	-11.5914
ᒌᑫᑖ	-11.5916
ᑯᓈᐙ	-11.5917
ᒋᓇᑲᑕᒧᐙ	-11.5917
ᐁᑭᔐᐹᐗᑲ	-11.5918
ᑳᓂᐳᐙᐱᓀ	-11.5919
ᐁᔖᐳ	-11.5919
ᒥᓋᑭᒥᑰ	-11.5919
ᐋᐸᒋᑖᐗ	-11.592
ᐅᑮᐊᑕ	-11.5923
ᐃᔑᐌᐱᓯᐎᓂᐙ	-11.5924
ᐸᑭᒌᓰ	-11.5925
ᐅᐲᐌᓰᒥᓂ	-11.5925
ᒋᑑᑕᒥ	-11.5925
ᑳᐱᓯᓂ	-11.5926
ᑌᓴᓬᐊᓇᐃᑳ	-11.5927
ᑭᑖᐸ	-11.5927
ᐅᑌᑌᐙ	-11.5929
ᑭᑮᐐᑕᒪᐎ	-11.5929
ᒉᓴ	-11.5929
ᒋᐱᒥᐎᑑ	-11.5929
ᑖᕒ	-11.593
ᐁᑭᑎᒫᑭᓯ	-11.593
ᐁᑲᑮᑖᐌᑕ	-11.593
ᑴᑭᐱᒫᑎᓯ	-11.5931
ᐃᓉᒪᑲ	-11.5931
ᐙᐱᔥᑮᑭᓅ	-11.5932
ᑮᐌᓄᑕᐙ	-11.5935
ᑐᓀ	-11.5936
ᒋᐃᔑᐌᐸ	-11.5936
ᐁᓃᔣᒋ	-11.5936
ᑮᐸᓯᑸᐗ	-11.5939
ᒋᐸᐸᔕᔐᐅ	-11.5939
ᑕᐎᓇᒪᐎ	-11.594
ᒋᐅᒋᑎᐯᑖᑯᓯ	-11.594
ᒥᓄᑯᓇᔦ	-11.594
ᑭᐱᒫᑎᓯᐎᓂᓈᓂ	-11.5941
ᑮᐋᓉᑕ	-11.5942
ᑮᑭᑑᑕᒪᐙ	-11.5943
ᐊᑳᓯ	-11.5945
ᐸᐹᐱᓯᔅᑫᑕᓰ	-11.5947
ᑭᑎᑭ	-11.595
ᑳᐃᓈᒋᒥ	-11.595
ᐁᑌᐺᒪᑲᓂᓂ	-11.595
ᒫᒌᐸᐃᐌ	-11.595
ᔖᑰᒋᐋ	-11.5952
ᒦᑭᓴ	-11.5952
ᓴᓇᑲ	-11.5954
ᒋᐃᑭᑐᔮ	-11.5954
ᐃᓀᒋᑲᓂᐎ	-11.5955
ᐁᑮᓇᐃᑕ	-11.5955
ᑳᐸᑭᑎᓇᒪᐎ	-11.5956
ᓂᑎᐹᒋᒧᐎᓂ	-11.5957
ᐁᑎᓄᐗ	-11.5958
ᒥᓴᐌᑕᒧ	-11.5959
ᐁᑾᔭᑯ	-11.5959
ᑕᒪᐙᐙ	-11.596
ᓈᓈᑲᑕᐌᑕᒧᐙ	-11.596
ᐱᓯᑕᐙᐙ	-11.5961
ᐅᑎᐯᓂᒫ	-11.5961
ᑕᐱᒫᒋᐋ	-11.5962
ᐅᐐᒋᐃᐌ	-11.5962
ᒋᑫᔦ	-11.5964
ᐃᓈᐸᑕᓯ	-11.5965
ᑳᐅᑭᒫᑲᑕ	-11.5966
ᑭᑫᑕᒫᐎ	-11.5968
ᒫᐗᒋᐃᑎᐗ	-11.5972
ᑕᓱᐱᐴᓉ	-11.5973
ᐅᓂᒌᒫ	-11.5974
ᐃᔥᐱᔥᑳ	-11.5975
ᑳᐃᓍᓂᑎᓱ	-11.5975
ᐃᔑᐌᐱᓯᐗ	-11.5975
ᐁᑌᐺᑕᐎ	-11.5976
ᐁᑎᓄᐎᔭ	-11.5978
ᑕᐱᓇ	-11.5979
ᑮᔖᑯᐌᐗ	-11.5979
ᓭᒀ	-11.5985
ᑮᑕᑯᔑᓅ	-11.5986
ᑑᑕᐙᓰ	-11.5987
ᐊᔛ	-11.5988
ᑳᑭᑎᑳᑕ	-11.5988
ᑭᑭᑫᓂᒫᐙ	-11.5991
ᐲᑑᓇ	-11.5991
ᑴᑲᓂ	-11.5994
ᐊᓅᓂ	-11.5997
ᐁᐱᑾᑎᓈ	-11.5997
ᑳᐃᔑᓅᑌᓭ	-11.5997
ᐴᓂᓭᓂ	-11.5997
ᒥᓂᑴᔮ	-11.5999
ᐗᔦᔑᒫ	-11.6
ᒋᐸᑭᑎᓂᑎᓱ	-11.6
ᑭᑭᔥᑲᐙᐙ	-11.6001
ᐅᒥᔅᑸᒥᓂ	-11.6003
ᒋᒫᒪᐎ	-11.6004
ᑳᒪᔥᑲᐌᑖᑯᓯ	-11.6005
ᒋᑎᐹᑯᓂᑯ	-11.6009
ᐊᔮᓈᐙ	-11.6009
ᐃᕒᐊ	-11.601
ᐅᒫᒪᑳᒋᒋᑫᐎ	-11.6012
ᐐᒌᐎᑯᓈᐙ	-11.6014
ᐁᐃᔖ	-11.6015
ᐙᐱᔥᑳᓂ	-11.6016
ᑳᑮᐃᓂᓇᑰ	-11.6019
ᐃᔥᐯᓂ	-11.602
ᑳᐃᓇᓄᑮ	-11.602
ᐅᑕᒑᑯᐙ	-11.602
ᐱᒥᐗᓀ	-11.6024
ᐁᑭᑐᔭ	-11.6024
ᑳᐱᔑᒀᑎᓯ	-11.6034
ᐅᔥᑭᐱᒫᑎᓯᐎ	-11.6039
ᑭᐐᓱᐎᓂ	-11.6039
ᐅᑎᒀᓂᐙ	-11.6039
ᑑᑖᑰᔮ	-11.604
ᑭᑲᐐᒌᐎᑯᐙ	-11.604
ᑭᑕᔮᐙ	-11.6041
ᑳᒦᔑ	-11.6042
ᓇᐃᓈᐙ	-11.6045
ᐁᑮᐱᐅᒌ	-11.6048
ᔖᑰᓱᒫ	-11.6056
ᑲᓇᐌᓂᒫᐙ	-11.6061
ᒋᒪᒋᑑᑕ	-11.6062
ᐁᑮᐃᔑᓂᑖᐎᑭ	-11.6062
ᑳᐃᔑᓵᑭᐃ	-11.6066
ᐅᑲᐱᓯᑕᐙ	-11.6067
ᒦᓂᑯᓰ	-11.6072
ᒋᓈᑯᑑ	-11.6074
ᐁᐊᑌᓂ	-11.6081
ᐃᓇᒪᒋᐅ	-11.6082
ᓯᐙᓈᓂ	-11.6083
ᑳᑮᐅᓈᐸᒥ	-11.6084
ᐅᑮᐅᑖᐱᓈᐙ	-11.6084
ᑭᒥᓄᒋᑫ	-11.6086
ᒋᐃᔑᐎ	-11.6089
ᑐᑴ	-11.609
ᓂᑮᑲᑴ	-11.609
ᑕᑯᔑᓅᒪᑲ	-11.6093
ᑭᑭᓇᐙᑕᔕᑫᔓᑰᐎ	-11.6096
ᑳᑮᒫᒪᐎ	-11.6099
ᑳᓃᔑ	-11.6105
ᐸᑭᑎᓈᑫ	-11.6111
ᑭᒋᐎᓈ	-11.6112
ᐃᔫ	-11.6112
ᒋᐅᒋᑭᒋ	-11.6114
ᐁᓇᐃ	-11.6115
ᐲᐌᓰᒪ	-11.6119
ᐁᐅᓵᐎ	-11.612
ᑮᐗᓂᒧᐎ	-11.6125
ᒫᒪᑳ	-11.6128
ᐅᑕᒋᑫ	-11.6131
ᐁᑮᐃᑭᑐᔮ	-11.6131
ᑲᔥᑭᑑᔭ	-11.6132
ᑑᑕᑫ	-11.6133
ᒫᓀᑕᒧᐎ	-11.614
ᑑᔭ	-11.614
ᑳᑮᐅᑌᑌ	-11.6141
ᑳᐃᓂᓃᐎ	-11.6144
ᒋᑎᐹᒋᒥ	-11.6164
ᐐᒋᐊᔮᒪ	-11.6164
ᒋᐐᑕᒪᐙ	-11.6165
ᑳᓃᐸᐎ	-11.617
ᐅᑎᓈᐙ	-11.617
ᓃᑳᓀᑖᑾ	-11.6179
ᑳᒫᐗᒋᐃᑎ	-11.6182
ᑎᐸᐊᒪᐙᐙ	-11.6182
ᐁᑾᔭᑴ	-11.6184
ᐁᐃᔑᒋᑫᔦ	-11.6185
ᑳᑮᐃᔥᒀ	-11.6193
ᐊᑌ	-11.6197
ᑕᒥᓄ	-11.6197
ᐅᑌᐺᐎ	-11.6199
ᐅᓵᑭᐃᐌᐎᓂ	-11.6205
ᑮᐃᔑᓭᓂ	-11.6207
ᐃᔖᔭ	-11.621
ᐅᓇᔓᐌᐎᑲᒥ	-11.6211
ᒋᐯᔑᑯ	-11.6218
ᐐᒌᐎᔑ	-11.6229
ᑮᓅᑕᐙᐙ	-11.623
ᒫᑾ	-11.6234
ᑲᓇᐌᑕᒪ	-11.6237
ᐎᐗ	-11.6246
ᐊᓇᒥᐁᑕᐌ	-11.6257
ᑳᐃᓇᑲᒥᑲ	-11.6257
ᑆᓇᐎᒋᑫ	-11.6258
ᔖᑰᒋᐃᑯ	-11.6264
ᐹᑏᓇᑎᓂᓂ	-11.6268
ᐙᐸᑕᐃᑰ	-11.627
ᔔᒥᓈᑎᑰ	-11.6274
ᑎᐱᑑᑕ	-11.6282
ᐌᒋᓭ	-11.6287
ᑳᐃᑎᓱ	-11.6288
ᑲᓇᐙᐸᒫᐙ	-11.6303
ᑳᑮᐱᐅᒋ	-11.6308
ᐱᒫᒋᐃᐌᒥ	-11.6312
ᒋᑭᒋᐊᓇᒥᐁᐎᑭᒫᐎ	-11.6314
ᐅᑲᑭᒋ	-11.6317
ᑕᑯᓂᑰ	-11.6319
ᐁᐃᔥᒀ	-11.6322
ᑳᐊᑕ	-11.6328
ᑳᒦᓂ	-11.6336
ᓇᑾ	-11.6341
ᐅᑎᐹᑯᓂᑫ	-11.6387
ᐐᓯᓂᓯᒀ	-11.6405
ᓂᒥᓉᑕ	-11.6406
ᐃᓀᑖᑯᓯᐗ	-11.6407
ᐃᓈᑯᓈ	-11.6419
ᐅᔑᐲᐃᑳᑌᑭ	-11.6431
ᐊᑕᐎ	-11.6436
ᒋᐃᓀᑖᑯᓯ	-11.644
ᐐᒋᐃᑰ	-11.6441
ᑮᔑᑭ	-11.6455
ᑭᑑᒌ	-11.6455
ᑕᔑᒥᓐ	-11.6468
ᓃᑕᓇᒥᐋᓈ	-11.6474
ᓂᐙᐸᒫ	-11.6475
ᐃᔑᑲᑴ	-11.6475
ᐅᓃᒑᓂᓯᒥ	-11.6482
ᓇᑴᑕᐎ	-11.6485
ᐁᐙᐱᓯ	-11.6491
ᐅᔑᒋᑳᑌᓂ	-11.6496
ᐸᐸᑭᑌ	-11.65
ᑮᑌᐱ	-11.6504
ᑎᐯᒋᑫᐎᓂ	-11.6505
ᑮᒥᓄᐊᔮ	-11.6507
ᐁᓵᒥᓈ	-11.6508
ᑳᑮᐅᓀᓂᒥᑯ	-11.6512
ᓂᐱᒫᑎᓰᒪ	-11.6516
ᐊᑐᒫᐙ	-11.6518
ᑳᐃᔥᒀᓭ	-11.6536
ᐃᔑᐌᐱᓂ	-11.6537
ᐴᓀᒋᑳᑌ	-11.654
ᑳᐃᓀ	-11.6551
ᑑᑕᓰ	-11.6552
ᐃᔑᒋᑫᓯᒀ	-11.6553
ᑳᐅᔥᑭ	-11.6553
ᐁᑌᐺᑕᓯ	-11.6557
ᓇᓇᐊ	-11.6558
ᑮᐅᔒᑖ	-11.6568
ᑮᐊᔮᓂ	-11.6571
ᐁᔑᓵᑭᐃ	-11.6574
ᓈᓅᑕ	-11.6588
ᑎᓈᓂ	-11.6598
ᓂᐳᓰ	-11.6605
ᒋᑌᐱᓇᒧ	-11.661
ᐊᑕᐙᐸᒫᐙ	-11.6617
ᒥᑰᔭ	-11.6626
ᑎᐹᑯᓂᑎ	-11.6634
ᑭᑑᓂ	-11.6645
ᐸᑕᓯᓅ	-11.6649
ᐴᓀᒋᑳᑌᑭ	-11.668
ᒋᓈᓯᑲ	-11.6683
ᐊᔦᒀᒥ	-11.669
ᐁᑮᐊᑕᐌᑕ	-11.6696
ᑮᐊᓄᑮ	-11.6706
ᑳᓵᑭᐃᑯ	-11.6717
ᐁᑮᐊᔮᐙ	-11.6719
ᑕᔑᒥᑰ	-11.673
ᑲᓇᐌᓂᒥᑯᐙ	-11.6745
ᐱᒫᑎ	-11.6781
ᐊᐗᑳ	-11.679
ᐁᔑᑭᒋ	-11.6793
ᐊᔮᒀᒥ	-11.6806
ᐃᔑᓭᔮ	-11.6809
ᐅᔑᑕᒪᐙ	-11.6834
ᑮᐊᓉ	-11.6844
ᐋᑯᓯᐎ	-11.6848
ᐲᑎᑫᓂ	-11.6852
ᐊᐲᑌᑖᑯᓯᓯ	-11.6854
ᐸᓂᐅ	-11.6872
ᕒᑲ	-11.6875
ᐊᔓᑕᒫᑫᐎ	-11.6878
ᒨᔕᑭ	-11.6888
ᑳᐅᒋᑲᔥᑭᑑ	-11.6889
ᑭᑫᑕᒨᓂ	-11.6891
ᓂᑖᐎᑭᐙ	-11.6891
ᒋᐱᒫᒋᐃᑰᐎᓯ	-11.6914
ᑭᑌᓂᒥᑰ	-11.6918
ᓈᑯᒋᑳᑌ	-11.6928
ᒋᓂᐳᓯ	-11.6929
ᑮᒨᔥᑭᓀ	-11.6936
ᒋᑭᑭ	-11.6937
ᑳᑭᑭᓄᐊᒫᑯ	-11.695
ᑳᐃᔑᓭ	-11.6968
ᐅᑭᒫᑲᑕᐙ	-11.6987
ᐱᓇ	-11.6988
ᐐᒋᑭᐌ	-11.7001
ᐐᑾᑎᐗᑲᒥᑭᓯᓈᓂᐗ	-11.7004
ᑯᓰᓈ	-11.7005
ᐅᑭᑭᓄᐊᒫᑫᐎᓂ	-11.7005
ᐊᑯᓴᑲᐙ	-11.7019
ᑳᐊᑕᐌᑕ	-11.7022
ᐅᓃᑳᓂᓰᒥ	-11.7026
ᐎᓂᓃ	-11.7037
ᑕᒥᒋ	-11.7047
ᐁᐃᔑᒋᑫᓯ	-11.7049
ᐅᓀᑕᒧ	-11.7056
ᐐᒌᐎᑯᓂ	-11.7077
ᑮᐃᔑᓂᑖᐎᑭ	-11.7077
ᒋᓂᔑᐗᓈᑕ	-11.7084
ᑮᐊᒸᐙ	-11.7098
ᒋᑌᐺᑕ	-11.7115
ᒋᑮᐃᔑ	-11.7136
ᒪᑲᓯᓄ	-11.7144
ᐊᓄᑮᑕᐙᐙ	-11.7151
ᑫᑑᑕᒪ	-11.7162
ᑲᓅᑖ	-11.7163
ᐐᒋᐊᔮᒥ	-11.7165
ᐱᒥᓂᔕ	-11.7167
ᓂᑮᑲᓅᓂ	-11.717
ᐸᑭᑎ	-11.7173
ᓄᑴ	-11.7174
ᒪᐎᐙ	-11.7182
ᐅᑮᓇᑲᓈ	-11.7184
ᐃᓈᔑ	-11.7196
ᐊᐯᓂᒧᓄᑕᐎ	-11.7203
ᐸᑭᑌᐅ	-11.7207
ᒦᑴᒋᐌᓂᒫᐙ	-11.7209
ᑭᐸᐅᒥ	-11.7211
ᐱᓯᑕᐙᓯ	-11.722
ᐁᑎᐱᑲ	-11.7222
ᑕᔑᑌ	-11.724
ᒥᑯᔥᑳ	-11.7243
ᑑᓈᐙ	-11.7248
ᔅᑲ	-11.7262
ᑮᒥᓉᑕ	-11.7262
ᓂᐐᒌᐙ	-11.7272
ᐸᑭᑕᐙ	-11.728
ᓂᑮᐙᐸᑕᐃ	-11.7293
ᑳᑮᓂᐳ	-11.7294
ᐅᓂᔥᑳᑎᓯᐎᓂ	-11.7294
ᐁᑮᐊ	-11.7305
ᐃᔥᒀᐱᒫᑎᓯ	-11.733
ᐅᑮᐐ	-11.7334
ᑮᐅᔑᐲᐃᑳᑌᓂ	-11.7334
ᑰᒋ	-11.7344
ᑳᐃᔑᑖ	-11.7344
ᓂᓂᐗ	-11.7348
ᒥᓄᐃᔑᐌᐱᓯ	-11.7352
ᑮᒫᓀᑕ	-11.7369
ᑭᒦᓂᑰ	-11.737
ᓂᑕᒑᑯ	-11.7377
ᑮᐊᑐᒥᑯ	-11.7394
ᐙᐸᑕᐃᑯ	-11.74
ᑰᓴ	-11.7407
ᒋᐐᑕᒫ	-11.7412
ᐗᓯᓅ	-11.7413
ᐹᑎ	-11.7419
ᑕᐃᔑᒋᑫ	-11.7429
ᐅᔑᐲᐊᒫ	-11.7433
ᑭᑭᓇᐙᐸᒥ	-11.7436
ᑮᐐᒋ	-11.7437
ᐅᑲᔥᑮᑮᐎ	-11.7437
ᑎᐯᓂᒥᑯᔦ	-11.7439
ᐊᔮᒪᑲᓯᓄ	-11.7439
ᑕᑾᑭᒥ	-11.7445
ᓬᐋᐃ	-11.7452
ᑳᓵᑭᐃᐌ	-11.7452
ᔥᑳᒪᑲ	-11.7464
ᑫᐃᑭᑐ	-11.7466
ᐎᔦ	-11.7468
ᐁᑮᐊᔮᐙᓯ	-11.7475
ᐯᑭᑑ	-11.7485
ᐸᑲᒥ	-11.7496
ᐃᓀᑕᒪ	-11.7498
ᓈᐹ	-11.7504
ᒋᓵᑭᒋ	-11.7512
8	-11.7522
ᑕᑕᑯᔑ	-11.7526
ᒋᓵᑭᐃᑎ	-11.753
ᑕᒪᐎᑣ	-11.7552
ᑑᓇ	-11.7556
ᐊᓇᒥᐁᑕ	-11.7567
ᐅᐸᑴᔑᑲᓂᒪ	-11.757
ᑮᐗᓂᔥᑳ	-11.7592
ᑖᐸᒋᑑᓰ	-11.7592
ᐌᐱᓂᑲᓂᐎ	-11.7597
ᑌᐊᐲᑌᑖᑯᓯ	-11.7613
ᑭᓰᐲᑭᓯᑌ	-11.7614
ᒦᑴᒋᐌᑕ	-11.7615
ᒪᒋᑑᑕᒧ	-11.7618
ᐸᑯᓭᓂᒥ	-11.7621
ᑲᓇᐌᑕᐃᓐ	-11.7623
ᐌᑖᑾ	-11.7627
ᐅᓇᔓᐙ	-11.7637
ᐸᑭᑎᓂᑫᐎᓂ	-11.7642
ᑭᑭᑫᓂᒫ	-11.7644
ᓈᓯᑲ	-11.7652
ᐐᑎᑫᒫᓂ	-11.7663
ᑮᐸᑭᑎᓈᓱ	-11.7664
ᐁᐅᓂᔑᔑ	-11.7667
ᑭᑭᓄᐊᒫᑫᔭ	-11.7671
ᒋᒧ	-11.7687
ᐲᑕᒪᐙᐙ	-11.7689
ᒋᐱᒫᒋᐃ	-11.7698
ᓂᑮᒦᓂ	-11.7707
ᓂᑮᐃᓀᑕ	-11.771
ᐅᔥᑮᔑ	-11.7711
ᑮᐱᐊᔮ	-11.7715
ᑌᐺᑕᒧ	-11.7728
ᐁᐱᒥᓂᔕᐅ	-11.773
ᑯᒋᐃᑰᐎ	-11.7736
ᓴᑲᐅ	-11.7736
ᐊᒫᑯ	-11.7739
ᑳᐃᔑᒋᑫᓯ	-11.7743
ᔥᑲᒧᐙ	-11.7745
ᐃᔑᐐᒋᐃᐌ	-11.7754
ᐊᐱᒧ	-11.7761
ᑎᑎᐱ	-11.7762
ᐐᓯᓂᔮ	-11.7763
ᒋᒥᓍᐸᒥᑯ	-11.7766
ᐱᐴᓉ	-11.7779
ᓈᓯᑲᐗ	-11.778
ᑌᑕᒨ	-11.7783
ᒋᓵᑲᐊ	-11.7784
ᐋᓯ	-11.7785
ᐅᐱᒫᑎᓰᒥ	-11.7786
ᒋᓂᐴᑕᒪᐙ	-11.7788
ᑳᑮᐃᔑᓅᑕ	-11.779
ᓇᑲᒋ	-11.7792
ᐐᑕᓄᑮᒫᑲ	-11.7799
ᓂᓯᑕᐎᓇ	-11.7801
ᓇᐁᑕᒥ	-11.7803
ᐲᓯ	-11.7809
ᓈᔕ	-11.7812
ᐊᐹ	-11.7819
ᐃᔥᑯ	-11.7823
ᐐᒋᑭᐌᔨ	-11.7826
ᐁᑕᓱᐯᔑ	-11.7826
ᐙᑳᐃᑫ	-11.783
ᑌᓴᓬᐊᓇᐃ	-11.7832
ᐸᑭᒌᑫ	-11.7837
ᐊᐌᓀᓂᐎ	-11.7838
ᐸᑯᓭᓂᒧ	-11.7838
ᓂᓇᑕᐌᓂᒫ	-11.7838
ᒥᔅᑯ	-11.7839
ᑲᑖᑯᐙ	-11.7843
ᒪᒑᑎᓯ	-11.7844
ᒥᓋᑭᒥ	-11.7844
ᒦᓇᒀ	-11.7845
ᓂᑖᒪᒋᑑᑕ	-11.7846
ᑎᐯᓂᒥᑰ	-11.7848
ᐐᓴᑳᐱᓀ	-11.7849
ᐸᔥᑴᑭᓄ	-11.7849
ᒌᐯᑲᒥ	-11.7853
ᑭᑕᓄᑮᐋᑲ	-11.7854
ᒪᒫᒋᑾᐱᓂ	-11.7855
ᐸᒀᓀᑲᒥ	-11.7855
ᑕᐸᓭᑖᑯᓯ	-11.7855
ᑮᐃᑭᑑ	-11.7857
ᐗᓂᒋᑫ	-11.7857
ᑭᑎᑳᓇᑲᒥ	-11.7858
ᐃᔑᓂᔕᐗ	-11.7858
30	-11.7862
ᐱᔑᑭ	-11.7862
ᑭᑎᑳᓱ	-11.7863
ᐊᓴᐲ	-11.7864
ᔔᒥᓈᐴ	-11.7865
ᓇᒪᑎᓂᑭ	-11.7866
ᐅᒋᒫᒌᑭ	-11.7866
ᐅᑖᐱᓇᒪᐎ	-11.7868
ᑭᑎᓀᑕ	-11.7868
ᐃᓈᑯᓂᑰ	-11.7869
ᑲᓇᐌᑖ	-11.787
ᑳᑕᔑᑌ	-11.7871
ᑲᓂᐎᓰ	-11.7872
ᐊᑑᐹᓇ	-11.7873
ᑲᓈᑎ	-11.7876
ᑭᒋᐅᑭᒫᒥᐙ	-11.7878
ᑳᐅᔑᐲᐃᑳᑌ	-11.7879
ᐅᔒ	-11.788
ᒪᓂᑑᑳᓂ	-11.788
ᐅᔥᑲᔭᐄ	-11.7882
ᐊᔨᔑᒋᑫ	-11.7882
ᐊᑳᓭᑖᑾ	-11.7883
ᐱᔑᒀ	-11.7883
ᒀᐱᑭᓯ	-11.7883
ᑭᐹᑾ	-11.7884
ᐸᔕᔐᐙ	-11.7884
ᑑᔮ	-11.7884
ᒍ	-11.7884
ᑎᑎᐲᑭ	-11.7884
ᐊᔨᔑᑮᔗ	-11.7884
ᐙᓭᒋᑲᓈᐱ	-11.7884
ᐸᑭᑕᓈᒧ	-11.7884
ᑖᔥᑮᑭᓭ	-11.7884
ᔕᔒᐯᓂᒫ	-11.7884
ᐃᔥᐯᑖᑾᓂᓂ	-11.7884
ᐅᑎᑎᓂᑰ	-11.7884
ᐋᐹᐱᑲᐃᑲ	-11.7884
ᐋᔮᓂᑫ	-11.7884
ᐲᑴᑕᒧᐎ	-11.7884
ᐸᐲᒶᓯᓇᐋᐙ	-11.7884
ᐹᐱᓄᑖᑫ	-11.7884
ᑕᐸᓭᓂᒫ	-11.7884
ᑭᑕᔮᒀᒥᒥ	-11.7884
ᑭᑫᑕᒨᔑᐌ	-11.7884
ᑭᑭᓄᐎᓈ	-11.7884
ᑭᒋᐙᒥᑲᐃᑲ	-11.7884
ᑭᓃᒑᓂᓯᐙ	-11.7884
ᑮᒋᑯᔥᑲ	-11.7884
ᑲᒀᑕᑲᓄᑮ	-11.7884
ᑳᑲᑴᓇᑳᔥᑲᐙ	-11.7884
ᒨᒀᐱᓀ	-11.7884
ᒪᒫᒋᑾᐱᓈ	-11.7884
ᒪᓂᒎᔕ	-11.7884
ᓵᑲᐃᑲᓂᑳᓀ	-11.7884
ᔖᑰᓱᑖᑯᓯ	-11.7884
ᔖᑴᓂᒧᓰ	-11.7884
ᐁᓈᓴᒥᑳᐸᐎ	-11.7884
ᐁᓈᓴᒪᐱ	-11.7884
ᐊᔫᑾᐱ	-11.7884
ᐸᑯᓀᔮ	-11.7884
ᐸᑴᔑᑲᓂᑳᓀᓴ	-11.7884
ᐸᓰᑴᑲᓈᒥ	-11.7884
ᑭᐲᑭᓂᑲ	-11.7884
ᑰᐹᓯᓇᐎᔑ	-11.7884
ᑲᑴᒋᑲᔑᐌ	-11.7884
ᑲᔥᑭᐁᐎᓰᒪᑲ	-11.7884
ᒑᔓᐙ	-11.7884
ᒥᔅᑯᒥᓂᑫᓯ	-11.7884
ᒦᑭᓱᒫᐙ	-11.7884
ᒪᒋᑭᓀᐱᑯ	-11.7884
ᓇᑖᓂᔭᓬ	-11.7884
ᐁᕒᐃᔅᑖᕒᑲ	-11.7884
ᐊᓂᒥᑯᐸᓂᐅ	-11.7884
ᐋᔑᑌ	-11.7884
ᐯᑫᑖᑯᓯ	-11.7884
ᑯᑖᐎᑭ	-11.7884
ᓇᑕᐌᑕᓰ	-11.7884
ᐅᓈᑲᑕᐌᑕᒧᐎᓂᐙ	-11.7884
ᑲᔥᑭᐃᑯᓰ	-11.7884
ᓃᔥᑕᓇ	-11.7884
ᑎᐹᒋᑎᓱ	-11.7884
ᓂᔑᐗᓈᒋᑕᒪᐙ	-11.7884
ᐊᓇᒥᒋᑳᑌ	-11.7884
ᒋᔖᑰᒋᐊ	-11.7884
ᓀᐗᒋᑮᔑ	-11.7884
ᑫᐃᓈᒋᒥ	-11.7884
ᐅᑕᐃᐹ	-11.7884
ᓲᑭᑳᐸᐎ	-11.7884
ᐅᑮᓇᑲᑖ	-11.7884
ᓰᑭᓂᑳᑌ	-11.7884
ᒪᓂᐱᑑ	-11.7884
ᐴᔔᐃᑎ	-11.7884
ᒉᐃᕒᐊ	-11.7884
ᐲᑎᑲᑑ	-11.7884
ᒎᒎᔖ	-11.7884
ᐅᓈᑯᓂᐌ	-11.7884
ᓵᑮᔭ	-11.7884
ᐙᓄᒀ	-11.7884
ᑮᓇᒪᑕᐱᐗ	-11.7885
ᒋᐅᓇᔓᐙᓂ	-11.7885
ᒥᓈᑯᐅ	-11.7885
ᐴᑖᒋᑫ	-11.7885
ᐊᔕᐙᐸᑖ	-11.7885
ᐊᐌᑴᓇ	-11.7885
ᐅᑮᐅᒻᐺᐋ	-11.7885
ᐅᐐᔮᓯ	-11.7885
ᑎᓄᐙᑎ	-11.7885
ᒥᑖᔑᓃᔓ	-11.7885
ᑮᑭᒋᓭᑭᓯᐗ	-11.7885
ᑭᑎᓀᑖᑯᓯ	-11.7885
ᑳᑕᓶᐙᓇᑭᓈᑯᓯ	-11.7885
ᓵᑭᒋᐎᓈ	-11.7885
ᐁᓈᑯᓂᑫ	-11.7885
ᑮᐲᑕᒪᐙ	-11.7885
ᓵᑲᑮ	-11.7885
ᐯᕒᐊᓯᐗ	-11.7886
ᑫᓂᔑᐗᓈᒋᐃᑯ	-11.7886
ᑭᐱᒫᒋᐃᑰᐎᓂ	-11.7886
ᓰᑲᐊᑖᑯᐙ	-11.7886
ᒥᑖᔑᓃᐎ	-11.7886
ᓂᑕᐌᒫ	-11.7886
ᓇᑲᔥ	-11.7886
ᐐᒋᑖᒫᑲ	-11.7886
ᐊᒀᐸᑌ	-11.7886
ᓀᑳᒥ	-11.7886
ᒫᐗᒋᒋᑫ	-11.7886
ᑭᒪᒋᒋᑫᐎᓂ	-11.7887
ᒪᔥᑯᓰᒪᑲ	-11.7887
ᐅᑖᐱᓂᑲᓂᐎ	-11.7887
ᑲᒀᑕᑭᐃᐌᐎ	-11.7887
ᒨᑯᓀ	-11.7887
▁¦200	-11.7887
ᑲᓇᐌᒋᑫᐎᔑᒫᑲᓂᔕ	-11.7887
ᑭᑕᐯᓂᒧᐎᓂ	-11.7887
ᐅᑑᓈᐸᒫᑲᓇ	-11.7888
ᐱᒥᓂᔕᐊᒧᐙ	-11.7888
ᐲᑖᐸᓂᓂ	-11.7888
ᓬᐁᔮᑎᓰᔮ	-11.7888
ᓂᔑᐗᓈᑕᑲᒥᑭᓯ	-11.7889
ᑳᑮᐃᔑᓂᑳᓱᓂ	-11.7889
ᓂᐐᔭᐎᓈᓂ	-11.7889
ᐃᔑᒋᑳᓂᐗ	-11.7889
ᐯᓬᐊ	-11.789
ᐱᓱᑫᔑ	-11.789
ᒥᓍᐸᒫᓰ	-11.789
ᔕᐌᓂᒥᑰᐎ	-11.7891
ᐅᓇᑭᒫ	-11.7891
ᐸᔥᑴ	-11.7891
ᐊᑕᐗᓄᑮ	-11.7891
ᐃᔑᐌᐱᓰ	-11.7891
ᓴᑳᐹ	-11.7891
ᒪᔥᑭᑮᐎᓂᓂᐗ	-11.7892
ᒋᑕᑯᓂᒥ	-11.7892
ᓰᑭᓭ	-11.7893
ᒫᒦᑳᑎᓈᓂᐗ	-11.7893
ᐁᓂᑖᑯᓯ	-11.7893
ᐊᐲᑌᑖᑾᓯᓂᓂ	-11.7893
ᐅᒋᒌᑾᓇᐱᑖ	-11.7893
ᒫᓇᒑᓂᔑᐌ	-11.7894
ᐅᑕᓴᐲ	-11.7894
ᐗᓂᐎᓂ	-11.7894
ᐃᓀᓂᒪ	-11.7895
ᑲᓇᐙᐸᒥᑰ	-11.7895
ᑳᑮᐅᑫᑌᔭᐋᒥ	-11.7896
ᓇᓃᓵᓂᓯ	-11.7896
ᐁᓵᑭᐁ	-11.7896
ᐹᑭᓇ	-11.7896
ᓇᓇᐊᓯ	-11.7896
ᑮᐊᐸᐃᐌ	-11.7897
ᐐᑑᑳ	-11.7897
ᑮᐸᑭᑌᐙ	-11.7898
ᐅᑎᓈᑎᓯᐎ	-11.7898
ᑯᔥᑯᓯ	-11.7898
ᓇᓃᓵᓂᓯᔮ	-11.7898
ᐌᐱᓈᓈᐙ	-11.7899
ᓃᑳᓃᑕᒫᑫ	-11.79
ᐅᐱᔑᒀᑎᓯᐎᓂ	-11.79
ᑭᑎᓀᑕᓰ	-11.79
ᒋᓵᑭᐃᑎᔭ	-11.79
ᐊᐲᑌᑖᑾᓯᓅ	-11.7901
ᑳᑕᔑᒫᐗᒋᐃᑎ	-11.7902
ᐗᔦᔑᑎᓱ	-11.7902
ᑳᑮᑑᑕᐎ	-11.7902
ᐅᓇᒪᑎᓂᑭ	-11.7902
ᒉᕒᐊᑯ	-11.7902
ᑳᓴᓰᑭᓯ	-11.7902
ᑳᐐᓴᑳᐸᓱᐌ	-11.7902
ᑳᒥᔕᑮᔮᓯ	-11.7902
ᑳᒫᒪᐐᓄ	-11.7902
ᒋᐱᒫᒋᐊ	-11.7903
ᐙᓭᔥᑲ	-11.7906
ᒫᒪᑳᑌᑕᑫ	-11.7906
ᐅᑲᓇᐌᒋᑫ	-11.7906
ᒫᒥᑲᐎᓰ	-11.7906
ᐅᓃᒑᓂᓯᒫ	-11.7906
ᑲᑴᒋᑎᐗ	-11.7906
ᑭᑫᒋᑫ	-11.7906
ᒫᓱ	-11.7906
ᐸᑕᑯᔥᑳᑯ	-11.7908
ᐊᑕᐌᑖᑾ	-11.7908
ᑲᕒᐃ	-11.7908
ᓂᑮᐃᔑᓂᔕᐙ	-11.7908
ᐅᑖᐱᓂᑰ	-11.7908
ᒋᒫᒑᔮ	-11.7908
ᑭᐐᐎᐙ	-11.7908
ᐅᑮᐙᑎᓰᑴ	-11.7909
ᐎᓂᓈᓂ	-11.7909
ᐃᔅᑌ	-11.791
ᐅᑎᔑᓈᑯᓯᐎ	-11.791
ᐁᑌᐺᔦᓂᒪ	-11.7911
ᐅᑮᐊᔮᒀᒥᒫ	-11.7911
ᒪᓯᓇᐃᑲᓀ	-11.7912
ᑲᑮᑭᒫ	-11.7912
ᑮᔒᑖ	-11.7912
ᑳᑮᐃᔑᐊᔓᑕᒪᐙ	-11.7912
ᑭᑎᑳᓇᑲᒥᑯ	-11.7913
ᐙᐱᓰᐗ	-11.7913
ᑎᔫ	-11.7913
ᑳᐗᓂᑭᑭᓄᐃᑫ	-11.7914
ᑳᓂᔥᑫᓂᒥ	-11.7914
ᑳᐱᒫᑎᓰᔥᑳᑫᒪᑲ	-11.7914
ᑭᓇᑕᐌᑖ	-11.7914
ᐐᒋᑴ	-11.7915
ᐁᐸᓬ	-11.7915
ᒪᓈᒋᐋ	-11.7916
ᑭᔒᑲᓅᓈ	-11.7917
ᔒᑫᓂᑎ	-11.7918
ᐋᑲᐗ	-11.7918
ᒋᐅᑭᒫᑲᑖᑯ	-11.7918
ᐅᒥᓉᑖ	-11.7918
ᑎᐹᑐᑕᒫ	-11.7918
ᒨᔥᑭᓇᑑ	-11.7919
ᐅᕒᐋ	-11.792
ᑆᓇᐎᑑ	-11.792
ᒫᒪᑳᒋ	-11.792
ᑳᑮᐃᔑᐊᔓᑕᒫᑫ	-11.792
ᒋᓈᓈᑲᒋᑑ	-11.7922
ᐹᔑ	-11.7922
ᐐᓯᓂᓰᐗ	-11.7923
ᑮᔑᓈᑯᓯ	-11.7923
ᑳᑮᐃᓇᑲᒥᑲ	-11.7924
ᐅᓂᑖᐎᑭᑑᓰ	-11.7924
ᐱᑭᔑ	-11.7926
ᒋᑎᓄᐎᔭ	-11.7927
ᒋᐅᔑᐲᐊᒪᐎ	-11.7927
ᐐᐎᒫ	-11.7928
ᔒᑫᑕ	-11.7929
ᓈᒋᐐᑯᐱ	-11.793
ᐅᔑᒋᑲ	-11.793
ᐅᑎᓇᑭ	-11.7931
ᒋᒫᒥᑲᐎᓄᑕᐎ	-11.7932
ᑳᑮᐊᐎᐃ	-11.7932
ᑮᓂᔑᐗᓈᑕ	-11.7933
ᐁᑮᐊᔮᓂ	-11.7934
ᑫᔖᑰᒋᑣ	-11.7935
ᐃᔑᑮᐌ	-11.7935
ᑮᐐᒋᑭᐌᑎ	-11.7935
ᑎᐹᑯᓂᑲᓂᐎ	-11.7936
ᓵᑭᒋᐌᐱᓂ	-11.7936
ᒑᑭᑌ	-11.7936
ᐅᒫᐗᒋ	-11.7937
ᐁᐊᓇᒥᐁᑮᔑᑲ	-11.7938
ᓂᑖᐎᑭᓯ	-11.7938
ᒋᒦᒋᓈᑳᑌ	-11.7939
ᓃᑳᓂᓰ	-11.794
ᒋᐯᔑᑴᑖᑯᓯ	-11.7941
ᐱᐗ	-11.7941
ᑮᐙᒋᑴᐗ	-11.7942
ᐅᑲᓇᐎ	-11.7943
ᐁᑌᐺᔮ	-11.7944
ᑳᑮᐲᒋᓂᔕᐅ	-11.7947
ᐅᑮᓂᓯᑯ	-11.7947
ᐸᑭᒌᓯ	-11.7948
ᑎᐹᑯᓂᑰᔮ	-11.7949
ᑳᑭᑭᓇᐙᑕᔕᑫᔑᑲᓂᐎ	-11.7949
ᐐᓯᓂᓰ	-11.7951
ᐅᕒᐁ	-11.7952
ᐊᔕᒥᑰ	-11.7952
ᑫᐴᓂ	-11.7954
ᓈᓄᑮ	-11.7954
ᒨᐎ	-11.7955
ᑳᒪᔥᑲᐙ	-11.7956
ᐁᑲᓅᔑ	-11.7956
ᔔᒥᓂᐎ	-11.7956
ᐊᒀᓰ	-11.7957
ᒋᓈᓯᑲᐙᐙ	-11.7959
ᑕᓬᐃ	-11.7959
ᑭᑲᑲᔥᑭᑑᓰ	-11.796
ᑮᓂᒋᑲᓂᐎ	-11.796
ᐐᒋᑭᐌᔨᑎ	-11.7961
ᑮᑮᐌᐱᒫᑎᓯᐃ	-11.7962
ᐁᑲᑮᑴ	-11.7963
ᑭᑎᒥ	-11.7963
ᑳᑮᐃᔑᒪᒋᑑᑕ	-11.7964
ᒥᓉᑖᑾ	-11.7965
ᒥᓍᒋᒥ	-11.7968
ᐅᒪᓂᑑᑫ	-11.797
ᑮᓅᑌᔅᑲᑌ	-11.7971
ᐅᑮᐐᒌᐎᑰ	-11.7972
ᓃᔪ	-11.7972
ᒋᒥᓄᐐᒌᐗ	-11.7973
ᐅᑕᐱᓅᒌᔑᒥ	-11.7974
ᐱᓂᑎᓱ	-11.7975
ᓂᐐᑕᓄᑮᒫᑲ	-11.7975
ᐁᑭᔐᒪᓂᑑᐎ	-11.7976
ᑕᒀᑭ	-11.7976
ᐊᑕᐙᐸᒫ	-11.7977
ᐅᑮᒫᒪᑳᓯᑖ	-11.7979
ᑳᐃᔑᐊᑐᒥ	-11.7979
ᐃᔑᐎᑕᐙ	-11.798
ᐁᑮᐙᐸᒥᑯ	-11.798
ᒥᓄᓈᑾᓂᓂ	-11.7981
ᑭᔖ	-11.7983
ᐁᑮᐅᑕᑳᓀᓯ	-11.7983
ᓈᑯᓯᓰ	-11.7983
ᐌᓅᑎᓯᐎᓂᐙ	-11.7984
ᐅᒌᒥ	-11.7994
ᑳᐊᔨᑎ	-11.7997
ᒋᑌᐺᑕᒨ	-11.7998
ᐐᑕᐱᒫᐙ	-11.7998
ᐸᑭᑌᑕ	-11.8
ᒋᑲᓂᐎᐗ	-11.8001
ᐅᑌᐺᑕᒧᐎ	-11.8001
ᐁᑮᐱᑕᑶᔑ	-11.8002
ᒫᒫᐗᒋᐃᑎ	-11.8004
ᐁᑮᑮᐌᐱᒫᑎᓯᐋ	-11.8006
ᐐᒋᐱᒫᑎᓰ	-11.8008
ᑮᐊᔭᔮ	-11.8008
ᑳᓅᓂ	-11.8008
ᐊᓅ	-11.801
ᑭᑭᓄᐊᒫᑰ	-11.8014
ᒋᓈᓯᑳᑯ	-11.8017
ᓂᓂᒌ	-11.8018
ᑕᒫᑰᔦ	-11.8018
ᓯᑲ	-11.8019
ᒥᑖᒋᓂ	-11.802
ᒥᓄᐊᔮᐋ	-11.802
ᐅᑲᐃᓈ	-11.8021
ᓂᓴᑭ	-11.8022
ᓈᑲᒋᐃ	-11.8023
ᐁᔮᐎ	-11.803
ᑭᑲᑕᔑ	-11.8031
ᐁᑮᑌᐺᔦᑕ	-11.8032
ᑳᒥᒋᐯᔑᑯ	-11.8034
ᒫᒋᑖ	-11.8034
ᑕᒪᐙᓰ	-11.8035
ᑳᓂᑖᐎᑭᑑ	-11.8035
ᑫᑫᑕ	-11.8038
ᐁᔑᒋᑫᔮ	-11.8041
ᐅᑮᒫᒪᐎ	-11.8041
ᓇᐃᓈᑾ	-11.8041
ᒋᒫᔑ	-11.8042
ᑭᓂᐹ	-11.8043
ᑳᑮᐅᑖᐱᓈ	-11.8044
ᑳᒪᒥᔑᒥ	-11.8044
ᐊᔓᑕᒪᐎ	-11.8046
ᑭᑭᓇᐙᑕᔕᑫᔓᑰ	-11.8046
ᐃᔑᓂᔕᐅᔭ	-11.8048
ᒪᔥᑲᐎᒋᑫ	-11.805
ᑳᐃᓀᓂᒥᓇ	-11.8051
ᒋᐃᓈᑎᓯ	-11.8053
ᐃᔑᓂᔕᐅᐌ	-11.8055
ᑫᐃᑭᑐᔭ	-11.8055
ᑫᐃᔑᓭᐙ	-11.8059
ᑮᓇᑴᑕ	-11.806
ᐃᓇᐊᒧ	-11.806
ᑳᐱᓯᑕᐎ	-11.8062
ᓃᑳᓀᓂᑎᓱ	-11.8064
ᓇᑭᔥᑲᐙᐙ	-11.8066
ᑕᔑᑕᒫᑎ	-11.8066
ᐅᑮᑲᑴᒋᒫ	-11.8067
ᐅᑮᑲᑴᒋᒫᐙ	-11.8069
ᐅᒋᒌᑾᓇᐲᑕᐙ	-11.8071
ᐁᔖᑯᐌ	-11.8072
ᐁᒦᑳ	-11.8073
ᐅᓈᐯᒥᐙ	-11.8074
ᐁᐐᑕᒫᑫ	-11.8075
ᑳᒪᑗ	-11.8075
ᐸᒦᑖᑫ	-11.8075
ᐅᓇᔓᐙᓈ	-11.8076
ᒫᒋᑑ	-11.8078
ᔕᔒᐯᑕᒧᐎᓂ	-11.808
ᐁᒫᒪᐎ	-11.8082
ᑮᒫᒪᑳᑌᑕ	-11.809
ᑎᐹᒋᒧᑕ	-11.8091
ᐁᐅᑎᓯᑯ	-11.8092
ᒋᐊᓉ	-11.8092
ᐅᑕᓇᒥᐁᐎᑲᒥᑯᐙ	-11.8093
ᐁᑌᐺᑕᐗ	-11.8093
ᒋᑭᑭᓇᐙᑕᔕᑫᔓ	-11.8096
ᐁᐊᔮᒪᑲ	-11.8099
ᐸᑭᑎᓇᒪᐙᐙ	-11.8099
ᓂᒥᓈᐌ	-11.8099
ᒥᓂᑴᐗ	-11.81
ᒋᐯᑭ	-11.81
ᒥᓄᑕᔑᒥᑰ	-11.81
ᑭᑌᐺᑕᓰ	-11.8102
ᑳᐐᒋᑖ	-11.8103
ᐹᓱ	-11.8105
ᓂᑮᐃᔖ	-11.8107
ᒋᑑᑕᒪ	-11.8108
ᐃᔑᑎᐯᑖᑯᓯ	-11.8114
ᐃᓀᑖᑯᓯᔭ	-11.8118
ᓈᑯᓰ	-11.8126
ᐁᓈᑯᑑ	-11.8127
ᒋᐅᑎᓯᑯ	-11.8127
ᐅᑭᑭᓄᐊᒫᑫᐎ	-11.8129
ᐃᔑᒥᓴᐌᑕ	-11.813
ᐁᑮᒫᒪᐎ	-11.8134
ᐐᓯᓂᔦ	-11.8135
ᒪᒋᓭ	-11.8135
ᐁᐊᓂᐅᒋ	-11.814
ᐅᑮᐐᑕᒪᐙᐙ	-11.8142
ᐅᓂᐳᐎᓂ	-11.8144
ᓂᑮᒥᑲᐙ	-11.8145
ᑳᐱᒫᑎᓯᔭ	-11.8146
ᐅᑲᒦᓈ	-11.8147
ᐗᐙᓀᑕᒥ	-11.8149
ᐁᐅᔑᑑ	-11.8149
ᐁᑮᐐᒌᐙ	-11.8153
ᐐᒋᐋᑫ	-11.8154
ᑭᑭᔥᑲᒧᐙ	-11.8157
ᑳᑮᐃᓈᑯᓂᑫ	-11.8176
ᑭᑭᑯᓇᔦᓯ	-11.8176
ᐁᐲᐋ	-11.818
ᒋᐸᑭᑎᓂᑫ	-11.8183
ᑕᑯᐱᓱ	-11.8184
ᑭᒋᐊᓄᑮᔮ	-11.8185
ᑲᑴᒋᑎ	-11.8187
ᑑᑕᐎᔭ	-11.8187
ᐅᑕᑮ	-11.8193
ᑭᓂᒌ	-11.8193
ᐸᒥᐋ	-11.8195
ᑾᔭᑯᒋᑫᐎ	-11.8204
ᐁᐱᑮᐌ	-11.8206
ᑳᐅᔑᐲᐃᑳᑌᓂ	-11.8212
ᐌᐱᓇᒧ	-11.8214
ᐁᑮᐗᐙᓀᑕ	-11.8215
ᒎᐎᐎ	-11.822
ᐐᒋᐃᔑ	-11.8224
ᑭᑕᔑ	-11.8228
ᒋᐊᔮᓂ	-11.8228
ᑮᐊᐸᑭ	-11.8234
ᐸᑯᓭᓂᒥᑯ	-11.8241
ᐱᓈᐙ	-11.8241
ᓅᑳᑎᓯᐎ	-11.8249
ᑮᐅᒋᑮᑭᑐ	-11.8252
ᐯᑭᒋᑳᑌ	-11.8254
ᐊᓂᐊᔮ	-11.8255
ᒋᐅᓀᑕ	-11.8262
ᐁᐋᐸᑕ	-11.8262
ᑭᒋᓅᑎ	-11.8265
ᓂᑖᐎᑭᒋᑫᒪᑲ	-11.8275
ᑳᓅᑌᓭ	-11.8275
ᓇᑴᑕᐙᐙ	-11.8276
ᑎᓄᐎᐗ	-11.8278
ᑎᐹᒋᒥᑰ	-11.828
ᑕᕒᐊ	-11.8287
ᓂᑭᑭᓄᐊᒫᑫᐎ	-11.829
ᐁᐯᔑᑯ	-11.8298
ᐅᔑᐲᐃᑫᐎ	-11.8301
ᐁᐃᑭᑐᔮ	-11.8302
ᑲᓇᐌᓂᒥᑰ	-11.8302
ᐹᑖ	-11.831
ᒋᐃᑰ	-11.8315
ᑮᔑᓈᑾ	-11.832
ᑯᑕᒧᐙ	-11.8322
ᐎᓂᓃᒪ	-11.8324
ᐊᑲᒋᐌᑖᑾ	-11.8329
ᑕᔑᑕᒪᐎ	-11.8333
ᑳᑭᑫᑕᓯ	-11.8336
ᐅᑲᔥᑭᑑᓰ	-11.8339
ᒋᐃᔑᐎᓂ	-11.8344
ᑲᑲᓅᓇ	-11.8347
ᔔᒥᓈᐳᐗ	-11.8349
ᒦᑳᓱᔮ	-11.835
ᐃᔥᐸ	-11.8353
ᑮᐊᔨᑭᑐ	-11.8355
ᓃᔑᔭ	-11.8357
ᓵᑭᐃᑎᐎ	-11.8361
ᐸᑯᐲ	-11.8362
ᑕᑯᓂᑯ	-11.8368
ᐅᑮᒫᒌᓈ	-11.8372
ᒪᒋᑕᔑᒥ	-11.8373
ᓂᑭᑫᓂᒥ	-11.8373
ᒋᐱᑕᑯᔑ	-11.8375
ᐌᐱᓂᑰ	-11.8375
ᑲᒥᓂᓂ	-11.8377
ᑭᑎᔑᐱᒫᑎᓯ	-11.8377
ᐸᐹᐃᔖ	-11.8393
ᐅᑮᑲᔥᑭᑑᓰ	-11.8394
ᐗᓂᔥᑳᓂ	-11.8395
ᐃᔥᑯᑌᐎ	-11.8399
ᒋᐴᓀᒋᑳᑌᓂ	-11.8404
ᒋᑎᐸᐊᒪᐎ	-11.8411
ᑕᐎᔑ	-11.8416
ᑕᒪᐎᓀ	-11.8427
ᑎᔖ	-11.8439
ᑭᑖᑯᓯ	-11.8443
ᑲᓇᐌᑕᒫ	-11.8445
ᒫᓀᑕᒣ	-11.8449
ᐁᐲᒋᓵᑭᐃ	-11.8451
ᒋᐃᔖᔭ	-11.8452
ᑮᐃᔑᓂᑫ	-11.8456
ᐃᔑᒋᑫᓈᓂᐗ	-11.8459
ᑮᑌᐺᑕ	-11.8459
ᑫᒋᓈᐅᐌᑖᑾ	-11.846
ᓯᓱ	-11.846
ᐅᕒ	-11.846
ᑳᑮᐃᔑᓭ	-11.8461
ᑭᓂᑲᐎ	-11.8473
ᑳᑮᑲᑴ	-11.8518
ᐅᑖᐱᓇᒣ	-11.8521
ᐁᐐᐐᒋ	-11.8526
ᑳᐃᔑᓈᑾ	-11.8529
ᓂᑎᐹᒋᒧᐎ	-11.8533
ᑎᑭᑲ	-11.8533
ᓂᑎᐹᑐᑖ	-11.8534
ᒪᐎᔦ	-11.8534
ᐱᓯᑕᒣ	-11.8536
ᑳᐊᔮᔮ	-11.8538
ᑳᔕᔒᐱᑕ	-11.854
ᒋᐐᑕ	-11.8552
ᐸᔑᐸᐃᑫᐎᑯᒫᓂ	-11.8553
ᐃᔑᑌᐺᑕ	-11.8554
ᐃᔖᓰ	-11.8567
ᒋᑮᐊᔮ	-11.8587
ᓂᔑᐗᓈᒋᐃᑰ	-11.8592
ᐅᑲᑑᑖ	-11.86
ᐁᒪᒋᑑᑕ	-11.8601
ᐊᑕᐌᓂᒥᓀ	-11.8602
ᑳᒦᓂᒥ	-11.8604
ᐁᐸᑭᑎᓂ	-11.8604
ᐊᔮᒪᑲᓂᓂ	-11.861
ᐐᒌᐎᒪ	-11.8611
ᑳᐅᓈᐸᒥ	-11.8623
ᒦᑳᓂᑯ	-11.8627
ᐲᒋᑯ	-11.8637
ᐁᒦᓈ	-11.8645
ᐴᔔᐃᑯ	-11.8645
ᓂᐱᒫᑎᓯᐎᓂ	-11.8646
ᑳᑭᐸᐅ	-11.8657
ᑳᐐᑕᒪᐎ	-11.8658
ᑳᐅᒌᒪᑲᓂᓂ	-11.8663
ᐁᑮᐅᔑᐲᐊ	-11.8663
ᐙᐸᒥᓇᑰ	-11.8663
ᑮᐃᔑᐌᐱᓈ	-11.8669
ᐁᐐᓂᓵ	-11.8677
ᑾᓀ	-11.8682
ᓃᐱ	-11.8682
ᒥᓍᐸᒥᑯᐙ	-11.8689
ᐐᒋᐊᔮᒥᑰ	-11.8691
ᑭᑭᑭᔥᑳᑯ	-11.8693
ᑌᐺᔮ	-11.8702
ᐊᓇᒥᐁᑕᒫ	-11.8722
ᑖᑮᐅᓂᔑᔑ	-11.8726
ᓇᑭᔥᑲᐙ	-11.8758
ᐃᑭᑐᑫ	-11.876
ᐁᒥᓄᐊᔮ	-11.8768
ᑌᐯᑕ	-11.8781
ᒋᓈᓯᑲᐗ	-11.8783
ᐅᑖᐱᓇᒥᓂ	-11.8784
ᐗᐙᓀᑕ	-11.8786
ᐃᔑᑮᑭᑐ	-11.8796
ᑳᑭᑕᑭᑌ	-11.8803
ᓀᐳ	-11.8809
ᒫᒌᔮ	-11.881
ᒥᒋᒥ	-11.8814
ᑭᑫᓂᒥᑯᐙ	-11.8814
ᒋᒫᓀᑕ	-11.8835
ᑳᑮᐊᐱ	-11.8847
ᑾᔭᑯᒋᑫᓯ	-11.8851
ᐱᒫᑎᓰᐃᑰ	-11.8855
ᒋᑑᓰ	-11.8857
ᒋᑭᑫᑕᒧᐗ	-11.8859
ᑕᑶᔑᓈ	-11.8866
ᐁᐅᓃᒑᓂᓯᒥᓇ	-11.8873
ᑳᓃᐎ	-11.8882
ᐁᐊᓄᑮᑕᐙ	-11.8887
ᑮᓂᓱᑮᔑᑾᑳ	-11.8923
ᐅᑭᑭᓄᐊᒪᐙᑲᓂᒥ	-11.8927
ᐁᑮᒦᓂ	-11.8936
ᑮᐐᑕᒪᐙ	-11.895
ᐋᐸᒋᑑᔭ	-11.8963
ᑭᐱᒌᓰ	-11.8977
ᓂᑖᐸᒋᑑ	-11.8977
ᑭᑎᑳᑕᓯ	-11.8982
ᒋᑮᐅᒋ	-11.8983
ᐁᒦᑴᒋᐌᓂ	-11.9005
ᓂᑲᒧᓂ	-11.9006
ᐙᐱᓯ	-11.9014
ᒥᑭᓯ	-11.9027
ᓂᑑᑕᓰ	-11.9028
ᐁᑲᓅᑕᒪᐙ	-11.903
ᑮᐅᔑᐲᐃᑳᑌ	-11.9037
ᐁᑲᓇᐙᐸᒫ	-11.9038
ᑳᑮᐅᒋᐅᔑ	-11.9043
ᐌᐱᓇᒪᐙ	-11.9051
ᒫᒌᓈᐙ	-11.9055
ᑲᔥᑭᒋᑫᔮ	-11.9063
ᐁᐯᑭ	-11.9064
ᓂᔣᓱᑮᔑ	-11.9064
ᒋᑎᓄᐎᐙ	-11.9067
ᓵᑭᐃᐌᓯ	-11.9068
ᔒᑯᔥ	-11.9072
ᑭᑖᐱ	-11.91
ᐃᓇᑲᒥᑲ	-11.9108
ᐅᑕᑯ	-11.9117
ᑭᑫᓂᒫᓯ	-11.9121
ᑳᑭᑫᑕ	-11.9123
ᒋᐐᒋᐃᑯ	-11.9123
ᐅᒋᒪᒋᑑᑕ	-11.9124
ᐁᑌᐺᑕ	-11.9126
ᔕᔒᐱᑕᒧ	-11.9144
ᐁᑕᐌᑕ	-11.915
ᑳᐃᔑᒥᓴᐌᑕ	-11.9157
ᓃᑳᓂᓯ	-11.9159
ᑭᓰᓂᒌ	-11.9164
ᒋᑳᑌᓂᑭ	-11.919
ᐐᑕᒫᑫᐗ	-11.9191
ᓂᓱᑮᔑᑾᑳ	-11.9192
ᐅᑕᒥᓄ	-11.9193
ᐁᐐᐙᐸᒥ	-11.9205
ᐊᔨᓈᐱ	-11.9208
ᓂᔕᐅᑯ	-11.9211
ᐐᓈ	-11.9214
ᐊᓄᑮᑕᐎ	-11.9233
ᒋᐙᐸᒥᑯ	-11.9242
ᒋᒥᓄᐐᒌ	-11.9256
ᐅᔔᓂᔮᒥ	-11.9266
ᐊᓈᒥᒥᑰ	-11.9268
ᐲᕒᐃ	-11.9273
ᒪᒍᑌ	-11.9277
ᐋᑕᐌ	-11.9279
ᐙᑯᐸ	-11.9284
ᐃᔑᓂᔕᐙᑲᓂ	-11.9289
ᓃᔓᐅ	-11.9289
ᐁᐅᓃᒑᓂᓯᒥ	-11.9291
ᑮᐊᓅᓈ	-11.9293
ᒪᐙᓂ	-11.9307
ᑲᑴᒋᐋ	-11.9315
ᒪᒍᑌᐌᐱᓂ	-11.9318
ᑮᐐᐎ	-11.9324
ᐁᐅᑌᐺᑕᒧᐎᓂ	-11.9327
ᑳᓃᔣᒋᓂ	-11.9343
ᓈᓯᑫ	-11.9354
ᐐᑕᒪᐎᒥ	-11.9373
ᓃᓇᒥᓯ	-11.9375
ᐊᓂᒨ	-11.9379
ᒋᐐᒌᐗ	-11.9394
ᑭᒋᒥᑎ	-11.9401
ᒫᒪᑳᑌᑕ	-11.9402
ᐃᔑᐐᑕᒪ	-11.9415
ᑕᒪᐎᓇ	-11.9421
ᑲᑴᒋᐃᑰ	-11.9425
ᐱᓵᑲᐊ	-11.9441
ᒪᒋᒥᓴᐌᒋᑫ	-11.9446
ᑮᑭᑐᐗ	-11.946
ᐅᒋᑎᐯᑖᑾ	-11.9487
ᑮᑎᓄᐎᐗ	-11.949
ᑲᔥᑭᐋᐙ	-11.9495
ᑭᑖᐃᑭᑐ	-11.9502
ᒋᒦᓂᑰᐎᓯ	-11.9513
ᑳᐃᔑᑲᔥᑮᑎᐱᑲ	-11.9527
ᐃᔭᒥ	-11.9544
ᐐᓯᓂᓯ	-11.9547
ᐃᔑᐊᐱ	-11.9563
ᐅᑌᓂᑎ	-11.9565
ᐃᔑᓵᑭᐃᑎ	-11.9574
ᔑᑖᐗ	-11.9574
ᐹᐹ	-11.959
ᑌᓴᐱ	-11.9592
ᐅᑖᔑᑌᔮᑎᑯ	-11.9595
ᑭᑭᓄᐊᒫᑫᐗ	-11.9595
ᐅᔑᑕᒫ	-11.9601
ᐁᐃᓀᓂᒫ	-11.9601
ᑳᑭᒋᐅᑭᒫᐎ	-11.9602
ᐐᐎᐙ	-11.9605
ᑳᒦᑳᓂ	-11.9631
ᑕᔒ	-11.9632
ᐃᔑᑖᐙ	-11.9637
ᑕᐸᓯ	-11.9648
ᐱᒫᑎᓯᓈᓂᐗ	-11.9654
ᑫᓂᒥᑯ	-11.9658
ᐌᐱᓂᑯ	-11.966
ᓂᒫᓰ	-11.966
ᑮᑳᑎ	-11.9661
ᑎᓈ	-11.9667
ᐯᕒᐊ	-11.9668
ᑭᒋᑲᓂᐎ	-11.9695
ᒋᐃᓀ	-11.9702
ᑕᐎᓇᒫᑰ	-11.9714
ᑆᓇᐎ	-11.9716
ᐁᐙᐱ	-11.9718
ᐅᒋᑭᑫᒋᑳᑌ	-11.9729
ᒥᓂᒀᑕ	-11.973
ᒥᓄᐐᒌᐎ	-11.9734
ᑮᐅᒋᐅᔑᐋ	-11.9758
ᓯᓄᐌ	-11.9758
ᑫᔫ	-11.976
ᕒᐃ	-11.9765
ᑭᑮᓂᐳ	-11.9771
ᑫᐋᐸᒋᑑ	-11.9775
ᐁᓂᔑ	-11.9776
ᐁᐱᐊᑕ	-11.9782
ᒋᒦᓂᑯ	-11.9792
ᓵᒥᓈᐙ	-11.9814
ᑕᔑᒥᐌ	-11.9818
ᔔᒥᓂ	-11.9828
ᒋᐅᒋᓂᓯ	-11.9832
ᐗᐱᐎᓂ	-11.9873
ᒋᐸᒥᐃ	-11.9874
ᐃᑕᒥᓂ	-11.9876
ᑕᑲᑴ	-11.9877
ᑲᓅᑕᒪᐗ	-11.9877
ᑎᓇᐌᒫᑲᓇ	-11.9878
ᓂᑎᑭᑐ	-11.988
ᑭᑮᐃᔑᒋᑫ	-11.9895
ᐊᐲᑌᑖᑾ	-11.9907
ᐐᓯᓂᐎ	-11.9913
ᒋᔕᐌᓂᒫ	-11.9921
ᐅᑖᐱ	-11.993
ᑮᐅᔑᒋᑳᑌᓂ	-11.9944
ᒪᕒ	-11.9953
ᓈᐱᑭᓯ	-11.9953
ᑑᒋᑎᐯᑖᑯᓯᓰ	-11.9954
ᐲᑎᑫᔭ	-11.9963
ᐁᐊᐲᒋ	-11.997
ᒋᐃᔑᓂᑳ	-11.9985
ᒋᓈᑾ	-11.9989
ᒋᑫᐗ	-11.9991
ᐁᐱᐅᒋ	-12.0005
ᒋᐅᑎᓇ	-12.0007
ᒋᐊᔮᒪᑲ	-12.0015
ᔕᔒᐱ	-12.0027
ᑮᑲᔥᑭ	-12.0028
ᒋᒦᑭᐌ	-12.003
ᐅᑮᐐᒋ	-12.0034
ᒋᑲᓅᑕᒪ	-12.0047
ᒥᑭᑳᑌᓯ	-12.0047
ᐁᔑᐊᑕᐌᑕ	-12.0055
ᐁᑮᑎᓄᐎ	-12.0056
ᐸᑫᐎᓂᑎ	-12.0063
ᔕᐌᑖᑯ	-12.0065
ᐐᒋᐃᓯ	-12.0067
ᐁᐊᔓ	-12.0088
ᐊᐯᓂᒧᓄᑖ	-12.0094
ᓈᑯᓯᐗ	-12.0096
ᒉᕒᐊ	-12.0099
ᐅᑯᓯᓯᒥᑯ	-12.01
ᐗᓃᑫᓄᑕ	-12.0101
ᑯᔑᓄᐙ	-12.013
ᐙᓯᑌᓂ	-12.0132
ᑮᒦᑳᓱ	-12.0135
ᐅᑎᔑᐊᔮᐎ	-12.0143
ᐋᒋᒋᑳᑌ	-12.0145
ᐹᑏᓇ	-12.015
ᒋᑭᒨᑎ	-12.0151
ᐊᑐᓀᐊ	-12.0151
ᓅᑖᑎᓯ	-12.0152
ᒪᐎᓯᓅ	-12.0155
ᐊᔮᒀᒥᓰᑲᑕ	-12.0155
ᑳᔕᐌᓂᒥ	-12.0172
ᐱᒥᐗᓈ	-12.0178
ᐅᑮᐅᒋᒌᑾᓃᑕᐙ	-12.0185
ᑳᕒ	-12.0189
50	-12.0196
ᐅᑮᑲᔥᑭᑑ	-12.0208
ᒋᑴᑮ	-12.0208
ᑳᔭᔮ	-12.0209
ᑭᒋᐊᓇᒥᐁᐎᑭᒫᐎᓂ	-12.0212
ᑌᐺᔦᓂᒥᑯ	-12.0215
ᒥᔑᔭ	-12.0217
ᐁᐸᑯᓭᓂᒥ	-12.0226
ᐸᑯᓭ	-12.0244
ᔖᑰᓱᒥᑯ	-12.025
ᐁᑭᑫᓂᒫᓯ	-12.0253
ᒌᑫᑕᒫ	-12.0256
ᑳᑮᓅᑖᑯ	-12.0259
ᑭᑌᑖᑾ	-12.0259
ᐅᑕᑖᐌ	-12.0261
ᑭᓰᓯᐸ	-12.0262
ᑫᐃᓀ	-12.0264
ᐅᐸᐹᒥᓯᐎ	-12.0272
ᐊᑕᐌᓂᒥᑰ	-12.0273
ᑭᑫᓂᒥᑯ	-12.0274
ᐅᑕᔕ	-12.0278
ᐸᔭᑌ	-12.0279
ᑮᐌᐱᒫᑎᓯᐃ	-12.0282
ᐸᑕᑭᑑ	-12.0285
ᐙᐸᒪᑭ	-12.0289
ᒋᑭᑫᓂᒪ	-12.0292
ᐊᔨᔑᓭ	-12.0293
ᐐᓴᑲ	-12.0298
ᑭᐱᒫᑎᓯᐎᓂᓈ	-12.0299
ᑕᐎᓇᒪᐙ	-12.0307
ᑭᑲᐐᒌᐎ	-12.031
ᒋᑮᐗᓂᒧ	-12.0318
ᐅᑾᔭᒀᑎ	-12.0322
ᐙᑌᓭ	-12.0326
ᑲᑳᓱ	-12.0327
ᐹᐹᐗᐃᑫ	-12.0327
ᐊᔨᔑᑖ	-12.0327
ᐱᔅᑲᓀ	-12.0328
ᒋᓈᓈᑲᒋᐃ	-12.0329
ᑕᐯᓂᒧᓄᑕᐙ	-12.033
ᐅᐱᓯᑲᓂᐎᓯ	-12.033
ᐅᐌᓅᑎᓯᐎ	-12.0331
ᑕᓈᑾ	-12.0332
ᐅᓂᑖᐎᑭᑑ	-12.0334
ᐅᔫᓯᒫ	-12.0335
ᒪᑲᑌ	-12.0338
ᔥᑯᑌ	-12.034
ᐅᑎᑎᓈ	-12.034
ᐅᑮᐅᑎᑎᓈ	-12.0342
ᑳᑮᐃᔑᐌᐸ	-12.0342
ᒋᐊᔕᒥ	-12.0343
ᓂᑖᐎᑭᓈᐗᓱ	-12.0349
ᑳᐊᐯᓂᒧᓄᑕ	-12.035
ᑌᐺᔦᓂᒪ	-12.035
ᑭᑐᒋ	-12.0357
ᓇᒥᐋᓂ	-12.0357
ᒋᓂᔕᐅ	-12.0359
ᐲᓯᐴᒋ	-12.0362
ᒋᑾᔭᑯ	-12.0362
ᐁᒨᔥᑭᓀ	-12.0364
ᑮᔥᑭᔑᑲ	-12.0365
ᓇᑭᔥᑳᑰ	-12.0365
ᔣ	-12.0367
ᑏᐎᑲᒥᑯ	-12.0369
ᑎᓱᔭ	-12.0369
ᑌᑖᑾᓂᓂ	-12.037
ᓈᓯᐲ	-12.037
ᐅᓵᐙᐱ	-12.0371
ᐳᑾ	-12.0374
ᒫᐗᑑᓈᐙ	-12.0375
ᑭᑫᑖᑾᓯᓅ	-12.0375
ᔭᒀᑎᓯ	-12.0376
ᓂᑖᐸᒋ	-12.0377
ᓂᒪᓂᓂ	-12.0378
ᓂᔥᑫᑕ	-12.0378
ᓵᑭᐊ	-12.0378
ᐸᐸᑭᓀ	-12.038
ᑭᑮᐃᓀᑖ	-12.038
ᐁᐃᓍ	-12.038
ᐃᔒᑭ	-12.0381
ᐅᔖᐗᔥ	-12.0381
ᐅᑮᒨᒋᔥ	-12.0381
ᐐᐸᑲᒥᑳ	-12.0382
ᓂᑕᓄᑮᐎ	-12.0382
ᐹᑮᑭ	-12.0382
ᐗᓂᑮᔗ	-12.0383
ᐲᓯᑲᐙᑲ	-12.0383
ᓂᔥᑫᓂ	-12.0384
ᑭᑎᑳᓈᑎ	-12.0384
ᐊᔨᔑᐌᐸ	-12.0384
ᓬᐱᔭ	-12.0384
ᐃᔑᐐᔮᓯᐎ	-12.0384
ᐅᒨᑕᔮᐱ	-12.0384
ᐙᐹᑲᒣᑕ	-12.0384
ᐱᒫᔕᑳᒣ	-12.0384
ᐱᒶᓯᓇᐃ	-12.0384
ᑕᐸᓭᑖᑾ	-12.0384
ᒫᒦᓄᒥ	-12.0384
ᐅᑳᐎᒥᓇᑭᔒ	-12.0384
ᐱᔪᓬᐊ	-12.0384
ᐴᓃᓴᑖᑯ	-12.0384
ᐸᑲᒫᓂᒪ	-12.0384
ᐹᑭᑌᓇᒪᐙ	-12.0384
ᑭᑫᑌᐃᓈᑎᓯᐎᓂᐙ	-12.0384
ᑭᑭᓅᓄᐎ	-12.0384
ᑭᑭᓇᐙᒋᐲᐅ	-12.0384
ᑭᑳᓄᒀᓀ	-12.0384
ᑭᓃᑭᐃᑯᐙ	-12.0384
ᑳᐃᔑᐎᔑᐌᒪᑲ	-12.0384
ᑳᑾᔭᑴᑖᑯᓯ	-12.0384
ᒥᑖᔀᔑᓃᔑ	-12.0384
ᒥᒋᒪᐱᓂᑯ	-12.0384
ᒥᓯᑌᔥᑳᒪᑲ	-12.0384
ᓂᑲᐅᔑᐲᐊᒧᐙ	-12.0384
ᓃᔗᐙᓇᑭᓯ	-12.0384
ᓯᕒᐊᐸᐸᓬ	-12.0384
ᓰᓯᐹᑾ	-12.0384
ᓴᓰᒀᓈᐙ	-12.0384
ᔑᔮᓬᑏᔭᓬ	-12.0384
ᐁᑮᐅᑕᐗᑳᓂᒥᑯ	-12.0384
ᐁᓇᒥᐁᑕ	-12.0384
ᐃᓬᐋᔭᑭ	-12.0384
ᐅᑑᑖᐱᓈ	-12.0384
ᐅᑑᔑᐲᐃᑲᓂ	-12.0384
ᐅᑮᒥᓍᐸᒥᑰ	-12.0384
ᐅᑮᒪᓈᒋᐋᓰ	-12.0384
ᐅᑮᓇᑲᓂᑰ	-12.0384
ᐅᑲᒨᓇᐋ	-12.0384
ᐅᒥᑮᐎ	-12.0384
ᐅᓂᑸᑲᓂ	-12.0384
ᐙᓴᑯᓀᒋᑲᓈᑎᑰ	-12.0384
ᐯᕒᐆ	-12.0384
ᐱᒣᑕᑫ	-12.0384
ᐹᐹᐎᓯᑌᔑᒨᓄ	-12.0384
ᐹᕒᑖᓬᐊᒥ	-12.0384
ᑖᐱᑕᐎ	-12.0384
ᑭᐲᑲᐃᑲ	-12.0384
ᑭᑑᑭᒫᐎᐎ	-12.0384
ᑭᒦᑭᐌᐎᓂᐙ	-12.0384
ᑳᐋᑾᑭᓱ	-12.0384
ᑳᐯᐸᑳᓇᑎ	-12.0384
ᑳᑎᐯᓂᑎᓱ	-12.0384
ᑳᑮᒫᑕᓄᑮ	-12.0384
ᑳᒋᒋᐋᐙ	-12.0384
ᒋᑎᐯᓂᑎᓱ	-12.0384
ᒥᑌᓇᓂ	-12.0384
ᓀᐗᑕᑎ	-12.0384
ᓇᓇᐃᓯᑑ	-12.0384
ᓇᓈᑐᓂᑫ	-12.0384
ᓴᑲᑲᑭ	-12.0384
ᓵᓬᒪ	-12.0384
ᓂᑮᓇᑲᑖ	-12.0384
ᓂᒦᑴᒋᐎᐋ	-12.0384
ᐯᑫᑖᑾ	-12.0384
ᐲᑕᒫᑰ	-12.0384
ᐸᑲᒫᑲ	-12.0384
ᑭᑮᐋᐸᐅᑯ	-12.0384
ᑳᐹᔥᑭᓀ	-12.0384
ᑾᔮᑕᑌ	-12.0384
ᑳᐐᑕᓄᑮᒪ	-12.0384
ᐅᐐᑕᓄᑮᒫᑲᓇ	-12.0384
ᓂᓯᑖᐌᑕᓰ	-12.0384
▁¦15	-12.0384
ᐊᒥᓇᑖ	-12.0384
ᒫᑕᑖᔭ	-12.0384
ᐅᑎᔑᑮᔗᐎᓂ	-12.0384
ᐊᑯᓴᑲᐅᑰᒫ	-12.0384
ᐃᔥᐹᓂ	-12.0384
ᑎᔦᐺᔦᓂ	-12.0384
ᑮᓂᓯᓯᐙ	-12.0384
ᑲᑮᑖᐌᑖ	-12.0384
ᐐᒋᒥᓉᑕᒨᒥ	-12.0384
ᑭᐱᑎᓇ	-12.0384
ᒋᐊᓄᑳᑕᒫ	-12.0384
ᓂᑎᐯᑖ	-12.0384
ᐁᐹᑭᓯ	-12.0384
ᓂᐸᑯᓭᑖ	-12.0384
ᐅᒦᒋᒥᒥ	-12.0384
ᐅᑮᔑᑲᓄ	-12.0384
ᓅᑌᐐᒥᓂᑴ	-12.0384
ᓴᒣᕒᐃᔮᐎᓂᓂᐗ	-12.0384
ᑮᓃᔣᒋᐗ	-12.0384
ᐋᒀᑎᓯ	-12.0384
ᐁᐋᐗᓂᓂ	-12.0384
ᒫᐗᑑᓂᑫ	-12.0384
ᐅᑎᒀᓂᑫᑲ	-12.0384
ᑲᑮᑴᓄᑕ	-12.0384
ᒪᓀᓯ	-12.0384
ᐁᓂᓱᑎᐸᐃᑲᓀᔮ	-12.0384
ᑮᒋᑯᓇᔦᐱ	-12.0384
▁¦144	-12.0384
ᐲᐎᑌᐌᑖᑯᓯ	-12.0384
ᐌᑌᑌ	-12.0385
ᐋᒋᓭ	-12.0385
ᓴᒣᕒᐃᔮ	-12.0385
ᐃᓈᐸᑕᒧᐎ	-12.0385
ᐃᔑᓂᑳᓂᑰ	-12.0385
ᐋᔩᑌᑕ	-12.0385
ᑮᑌᐐᓯᓂᐗ	-12.0385
ᒥᓋᑭᓱ	-12.0385
ᑳᓇᐁᑕᒥᐃ	-12.0385
ᑭᑎᒫᑭᓈᑫ	-12.0385
ᐅᒪᒋᒋᑫᐎᓂᐙ	-12.0385
ᑮᐴᑯᓂᑳᑌ	-12.0385
ᐁᓍᑌ	-12.0385
ᑭᑎᓀᓂᒥ	-12.0385
ᐲᓇᐊ	-12.0385
ᑮᓰᑲᐊᑖᓱᐗ	-12.0385
ᓭᓭᑲ	-12.0385
ᑳᑮᐅᑎᓇ	-12.0385
ᑭᒨᑎᔥᑭ	-12.0385
ᓂᑑᔑᐲᐃᑲᓂᓈ	-12.0385
ᐁᑭᑭᓯ	-12.0385
ᓇᑲᓀ	-12.0385
ᐊᔫᑯ	-12.0385
ᑭᑎᓀᑕᒧᐎᓂᐙ	-12.0385
ᑲᑳᓱᒥᑯ	-12.0385
ᓂᑎᓀᑖ	-12.0385
ᐅᒌᒫᓂᐙ	-12.0385
ᓇᑳᔥᑲᐎ	-12.0385
ᐱᓯᑖᑰ	-12.0385
ᑎᒀᓀ	-12.0385
ᑳᐋᐸᒋᑑᔮ	-12.0385
ᐗᓂᔑᒥᐌ	-12.0385
ᐸᐸᑭᑌᐅᑰ	-12.0385
ᒫᓇᑎᑾ	-12.0385
ᑮᒫᒌᐊᓇᒥᐁᐙᑎᓯ	-12.0386
ᐋᐌᒋᑳ	-12.0386
ᔮᐸᒋᐋ	-12.0386
ᑌᐊᐲᒌ	-12.0386
ᑳᒦᒋᓈᑳᑌᓂ	-12.0386
ᑳᒦᓂᑰᔭ	-12.0386
ᐊᑖᓱᐎᑲᒥ	-12.0386
ᐊᑮᐎᐅᑭᒫ	-12.0386
ᐱᒪᒧ	-12.0386
ᐋᐸᒋᐃ	-12.0386
ᐊᒧᒥᓀ	-12.0386
ᑭᑭᓄᐊᒫᑎᐎᓂᐙ	-12.0386
ᑮᒫᓀᑕᒨ	-12.0386
ᑮᒋᐅᑌᐺᑕᒨᒥ	-12.0386
ᑳᑲᑮᑖᐎᓯ	-12.0386
ᑮᑌᐺᑕᓰᐗ	-12.0387
ᐁᓂᓯᑐᑕᓯ	-12.0387
ᒧᔐᓈᑾᓂᓂ	-12.0387
ᐁᓀᑕᒧᐗ	-12.0387
ᐴᓀᑕᒫᑯᐙ	-12.0387
ᑳᐃᔑᓂᑳᓂ	-12.0387
ᑭᑌᐺᔦᑕᒧᐎᓂᓈ	-12.0387
ᒪᓯᓇᐊᒪᐎ	-12.0387
ᐅᑮᓈᑯᓰᑕᐙ	-12.0387
ᐊᔪᒌ	-12.0387
ᑮᒫᒋᓭᓂ	-12.0387
ᑳᑭᑭᔥᑲᐎ	-12.0387
ᓇᓈᑯᒪ	-12.0387
ᐅᒪᑲᑗᔥ	-12.0388
ᓲᑫᑖᑯᓯ	-12.0388
ᐱᒫᒋᒋᑳᑌ	-12.0388
ᑭᑎᑳᓈᑎᑰ	-12.0388
ᑲᑳᒋ	-12.0388
ᑳᐃᔑᐐᓱ	-12.0389
ᑲᑳᒋᐋ	-12.0389
ᒋᐅᑖᐱᓂᒥ	-12.0389
ᑲᔥᑮᑎᐱᑭᓯᐎ	-12.0389
ᐁᐐᐙᐸᒫᐗᓱ	-12.0389
ᑳᑭᑖᑎᓯ	-12.0389
ᐱᑮᐌᓄᑕᐎ	-12.0389
ᐯᒋᒪ	-12.0389
ᐹᑮᑭᓂᑳᑌ	-12.0389
ᑎᓅᐎ	-12.0389
ᑮᑎᐸᐊᒪᐙ	-12.0389
ᑎᐸᐊᒧ	-12.039
ᓈᑯᑕᒪᐙ	-12.039
ᐁᑕᓱᒥᑖᒋ	-12.039
ᐊᑯᓴᑲᐃᑲᓂᐎ	-12.039
ᐱᑭᑭᓯ	-12.0391
ᐁᐙᓭᔮᓂ	-12.0392
ᑳᔑᓇᐃᓂ	-12.0392
ᐸᑭᔑᒧ	-12.0392
ᐅᐙᓭᓯᐎ	-12.0392
ᐅᒪᒑᑎ	-12.0392
ᐱᒪᑎᓯ	-12.0392
ᓈᓈᑲᒋᐋ	-12.0392
ᒋᑕᑯᓂᑰ	-12.0393
ᑳᐃᔑᒨᑭᒋᐗ	-12.0393
ᑳᐊᑳᔒᔑ	-12.0393
ᐗᓂᑑᑕᒧᐙ	-12.0393
ᓂᑮᐅᑎᑖ	-12.0394
ᐅᑮᑎᐹᑐᑖ	-12.0394
ᐙᓭᓈᑾ	-12.0394
ᑭᑑᑌᓈᒥᐙ	-12.0394
ᑭᑕᓄᑮᐎᓂᐙ	-12.0394
ᐃᓈᓴᒥᑳᐸᐐᑕᐙ	-12.0394
ᑭᑫᒋᑲᓂᐎ	-12.0394
ᑭᑑᑎᓯ	-12.0394
ᐁᑭᑭᔥᑲᐎ	-12.0395
ᐁᐐᐙᐸᒥᓇᑰ	-12.0395
ᑭᑑᓇᔓᐌᐎᓂᓈ	-12.0396
ᐁᑮᐅᒋᑲᐙᐱ	-12.0396
ᐱᒋᑲᓂᐎᓂ	-12.0396
ᑮᐃᔥᑯᓭᓂ	-12.0396
ᐅᑖᐱᓀ	-12.0396
ᔖᑰᒋᑑ	-12.0396
ᓂᑮᒦᓂᑯᓈ	-12.0397
ᒪᑕᐐ	-12.0397
ᐐᒋᐱᒫᑎᓰᒥ	-12.0397
ᑎᐯᓂᒥᓇ	-12.0397
ᐅᓃᑳᓂᔥᑲᐙ	-12.0397
ᑌᐺᔦᓂᒥᑯᓰ	-12.0397
ᑳᐙᐸᒫᓯ	-12.0398
ᒪᔥᑯᓯᐗ	-12.0398
ᑭᐸᐙᑲᓇ	-12.0398
ᑭᑎᓂᓯᓅ	-12.0399
ᐯᑭᐃᑰᔭ	-12.0399
ᒫᒦᒀᓂᑎ	-12.0399
ᐊᒶ	-12.04
ᑭᐐᐐᑕᒪᐎ	-12.04
ᐴᓂᓭᐗ	-12.04
ᐌᑭᒫᐎ	-12.04
ᐗᓇᑯ	-12.0401
ᐲᑾᑲᒥᑭ	-12.0401
ᑰᐹᑌᓂᒥᐌ	-12.0401
ᐃᓇᓯᑰ	-12.0401
ᑖᐸᒋᐋ	-12.0402
ᐅᑌᐺᔦᑕᒧᐎ	-12.0402
ᒪᒋᑑᑕᒧᐃᑯ	-12.0402
ᐁᑮᐊᐸᑭᓱ	-12.0404
ᓂᑕᔮᐙᓰ	-12.0404
ᑫᐅᒋᑭᑫᑕᒪ	-12.0405
ᑮᓵᑲᐊ	-12.0406
ᑳᐃᔑᓃᓇᒥᓯ	-12.0406
ᑭᑮᐊᓇᒥᑑ	-12.0406
ᐐᒋᐱᒫᑎᓰᒫ	-12.0406
ᒪᔥᑲᐙᑎᓯ	-12.0406
ᑭᑭᓄᐊᒫᑰᔭ	-12.0406
ᔕᔒᐱᑕᐙᐙ	-12.0407
ᑫᐃᔑᑲᔥᑭᑑ	-12.0407
ᓵᑭᓯᐃ	-12.0408
ᑮᐊᔦᒀᒥᒫ	-12.0408
ᓂᑎᔑᒋᑫᓰ	-12.0408
ᐅᑮᒥᓄᐊᔮᐋ	-12.0408
ᒋᐊᓈᒥᒥᓀ	-12.0408
ᐅᑾᔭᑯᒋᑫᐎ	-12.0409
ᓂᑎᔑᐊᔮ	-12.0409
ᒥᒑᐱᑭᓯ	-12.0409
ᐊᑖᒥ	-12.0409
ᐗᓂᐋ	-12.041
ᑌᐱᓇᒪ	-12.041
ᓃᒥᑕᓇᔑᓃᐎ	-12.041
ᐊᔮᒀᒥᒥᑰ	-12.0411
ᐃᓈᒋᒫ	-12.0411
ᓂᑖᐎᑭᐋ	-12.0411
ᐸᐹᒣᓂᒫᑫ	-12.0411
ᑳᑮᑭᑎᑳᓱ	-12.0411
ᑭᑲᐐᑕᒫᑯᐙ	-12.0411
ᐅᓀᓂᒥ	-12.0412
ᐅᐲᐌᓰᒪ	-12.0412
ᐙᐱᓰ	-12.0412
ᑭᑎᔑᒋᑫᐎᓂᓈ	-12.0413
ᑕᐅᒌᒪᑲ	-12.0413
ᑳᐃᔑᐲᐃᑫ	-12.0413
ᑸᓄ	-12.0413
ᒋᒥᓂᑴᔭ	-12.0414
ᓇᒫᑯ	-12.0414
ᐸᔥᑴᑭᓄᐗ	-12.0414
ᑰᐹᓯᓈᑯᓯ	-12.0415
ᑳᐃᔥᑯᑌᐗ	-12.0415
ᓃᔣᓯᒥᑕᓇᔑ	-12.0416
ᑭᑖᐎᓂᐙ	-12.0416
ᑯᔥᑴᑕᒨ	-12.0417
ᐁᐊᑕᐌᑕᒫ	-12.0417
ᐊᓇᒥᐁᐎ	-12.0417
ᑖᑎᓰ	-12.0418
ᒫᓈᑕ	-12.0418
ᔥᑭᑫ	-12.0418
ᐁᐲᐎᑌᐎ	-12.0419
ᐊᔭᐋᐎᔑ	-12.042
ᐅᑮᒫᒋᓂᔕᐙ	-12.042
ᐊᓂᒧ	-12.0421
ᐅᒥᓂᒀᑲᓂ	-12.0422
ᐁᑮᐊᐱᒧ	-12.0422
ᓬᐃᓯ	-12.0422
ᐗᓈᑕ	-12.0422
ᑭᑕᓄᑮᐋᑲᓇ	-12.0423
ᒣᓬᑳ	-12.0423
ᑭᑌᐺᑖ	-12.0423
ᑳᓃᑳᓇᑭᓱ	-12.0423
ᑳᑌᐺᔦᑖᑾ	-12.0423
ᐅᑑᔥᑭ	-12.0423
ᓵᑭᐃᑎᓱ	-12.0423
ᒥᒋᒥᓇᒧ	-12.0424
ᐅᑮᐅᓀᓂᒫ	-12.0424
ᒌᐯᑲᒥᑯ	-12.0424
ᐌᓅᑕ	-12.0424
ᑮᐃᓂᑖᑾ	-12.0425
ᑕᐙᐸᒋᑳᑌ	-12.0426
ᐁᑮᓇᓇ	-12.0426
ᒋᐸᑯᐲ	-12.0426
ᓂᔑᐗᓈᒋᑑᔮ	-12.0427
ᐁᐸᑯᐲ	-12.0427
ᑾᔮᒋᑕᒪᐎ	-12.0427
ᑎᐸᐃᑫᐃᐌ	-12.0427
ᒋᐅᐱᓂ	-12.0428
ᔥᑳᐗ	-12.0428
ᒋᐃᔑᐱᒫᑎᓯᔭ	-12.0428
ᑌᐺᐗᓂᓂ	-12.0429
ᐅᑕᑮᒥᐙ	-12.0429
ᐁᐊᐱᒧ	-12.0429
ᑭᒋᐅᑭᒫᐌᑖᑯᓯ	-12.0429
ᑳᑮᐊᔓᑕᒫᑯ	-12.043
ᒪᒥᔑᒫᐙ	-12.043
ᑳᑮᐸᑭᑎᓇᒪᐎ	-12.043
ᐅᒪᒋᒋᑫᐎ	-12.043
ᐃᔑᐎᔑ	-12.0431
ᒋᑮᒦᒋ	-12.0431
ᐁᐸᑭᑕᐙ	-12.0432
ᓃᑳᓃᑕᒪᐎ	-12.0432
ᒫᒫᑕᐆ	-12.0434
ᐅᑭᑎᑳᓂ	-12.0434
ᐅᑮᐅᑎᓵ	-12.0434
ᓂᓯᑐᑕᒣ	-12.0435
ᐅᒋᑲᒀᑕᑭᑑ	-12.0436
ᐊᐯᓂᒧᓄᑕᐙᐙ	-12.0436
ᑎᐹᑯᓈᓰ	-12.0436
ᑳᑮᐃᔑᐙᐸᒥ	-12.0436
ᐸᐃᑲᓂᐎ	-12.0437
ᑕᔒᑫ	-12.0438
ᒋᓵᑭᒋᓂᔕᐙ	-12.0438
ᐅᑎᐹᑯᓂᐌ	-12.0438
ᐙᐸᒥᑯᓰ	-12.0438
ᑮᒥᓂᑴᐗ	-12.0438
ᐁᑐᓀ	-12.0439
ᐱᑾᒋ	-12.044
ᐊᐱᓅᒌᔑᐎ	-12.044
ᐌᐱᓈᓰ	-12.0441
ᑖᐌᑕ	-12.0442
ᒋᐃᔑᐱᒫᑎᓯᔦ	-12.0442
ᐅᑮᐊᓅᓈ	-12.0443
ᐙᑳᔥᑳᑯ	-12.0443
ᒋᑲᓇᐙᐸᑕ	-12.0443
ᑳᑮᐃᒋᑳᑌ	-12.0445
ᓂᑌᐺᑖ	-12.0445
ᒋᑳᒋᑎᓂ	-12.0445
ᐙᐙᑌᓭ	-12.0446
ᐅᑮᐅᑎᑎᓈᐙ	-12.0446
ᐙᐐᒋᐃᑎ	-12.0448
ᑳᑮᑌᐱᓇ	-12.0449
ᐅᓵᐱ	-12.0449
ᓇᐃᓂᑳᑌ	-12.045
ᑾᔭᑯᐱᒫᑎᓯ	-12.045
ᐅᑮᓵᑭᑑ	-12.045
ᑮᐃᓀᑖᑯᓯᐗ	-12.045
ᐁᓀᓂᒥ	-12.0451
ᐱᒥᑌᓴᐱ	-12.0451
ᒋᐐᓯᓂᔭ	-12.0452
ᑭᑭᑫᓂᒥᓰ	-12.0452
ᑭᑲᐅᒌ	-12.0453
ᑭᒋᒌᒫᓂ	-12.0453
ᑳᔒᑫᑕ	-12.0454
ᑳᑕᐸᓭᑖᑯᓯ	-12.0454
ᑳᐙᑳᐃᑫ	-12.0454
ᐅᑲᐅᑖᐱᓈ	-12.0455
ᑳᒪᒑᑎᓯ	-12.0455
ᐁᓇᓈᑕᐙᐸ	-12.0455
ᒥᒋᐯᔑᑾ	-12.0457
ᐊᒑᑯᒫ	-12.0458
ᑳᐃᔑᐅᓇᐱ	-12.0458
ᐁᑭᑫᓂᒪ	-12.0458
ᓂᐯᐎᓈ	-12.046
ᐅᔒᒣᔑᒫᐎ	-12.046
ᐙᐸᒥᓀ	-12.0461
ᐱᔭᔮ	-12.0462
ᐁᐱᒥᐊᔮᓂ	-12.0462
ᑲᔦᔑᒥ	-12.0463
ᑮᐌᑎᓄ	-12.0463
ᑮᒥᓉᑕᒨ	-12.0464
ᒋᑌᐱᓭ	-12.0466
ᑮᐊᓅᑮᐗ	-12.0467
ᑳᑮᑭᑐᔦ	-12.0467
ᒋᐊᔕᒫ	-12.0467
ᒪᑲᑌᐙ	-12.0467
ᑳᐃᔑᒪᒋᑑᑕ	-12.0467
ᑮᐃᔥᒀᓂᐳ	-12.0468
ᐋᓬᐃᑭᓵᑕᕒᐃ	-12.0468
ᐅᑮᓇᑲᓂᑯ	-12.0469
ᑳᑮᔖᐯᐎ	-12.047
ᑳᓂᑖᒪᒋᑑᑕ	-12.047
ᓴᑳᑲᒥ	-12.047
ᒥᓉᑕᒥᐃᑎᓱ	-12.0471
ᐁᐅᑕᑳᓀᓯ	-12.0471
ᐊᔓᑕᒫᑰ	-12.0472
ᐙᐸᑕᐃᑯᐙ	-12.0473
ᑳᑭᑭᔥᑲᐙᓂ	-12.0474
ᐐᑕᒫᑫᔭ	-12.0474
ᑫᑑᑕᐙᐙ	-12.0475
ᐁᐐᑕᒫᑫᔮ	-12.0475
ᐸᕒᐁ	-12.0477
ᐊᔨᔑᓭᓂ	-12.0477
ᑳᐊᑯ	-12.0478
ᑮᐃᓀᑕᓰᐗ	-12.0479
ᐅᒥᔅ	-12.048
ᑳᐊᑳᓯ	-12.0481
ᒋᐐᑑᑳᓱ	-12.0481
ᑳᑮᓇᑲᓂᑯ	-12.0481
ᒋᒥᓉᑕᒪ	-12.0482
ᑭᑮᐅᓈᐸᒥ	-12.0483
ᐁᐙᐸᒪ	-12.0483
ᒋᐌᐱᓈ	-12.0484
ᒋᑴᑭ	-12.0485
ᒋᐯᑳᑎᓯ	-12.0485
ᐅᑳᐎᒥᓇᑲᔒᑳ	-12.0485
ᒨᔥᑭᓀᒪᑲ	-12.0486
ᑕᐴᓂ	-12.0486
ᓇᐹᒋ	-12.0487
ᓇᓰᓈᐙ	-12.0487
ᐱᓯᑕᐎᔭ	-12.0487
ᔅᑕᕒ	-12.0487
ᑳᑑᒋᑳᑌ	-12.049
ᔑᓭᐙ	-12.049
ᐁᑮᐗᓂᒧ	-12.049
ᐁᐐᒌᐎᒪ	-12.0491
ᑲᑮᐹᓯ	-12.0492
ᑲᒀᑕᑫᑕᒧ	-12.0492
ᐸᑭᑎᓂᑳᓱ	-12.0493
ᑭᑐᒋᑫ	-12.0493
ᓅᑖᑾᓂᓂ	-12.0496
ᒋᓅᑕᐎ	-12.0496
ᐲᐎᑌᐎ	-12.0497
ᒦᓂᑰᐎᓯᔭ	-12.0498
ᐸᐹᒥᓯᐎᓂ	-12.0498
ᑳᒋᑎᓈᐙ	-12.0499
ᐅᒪᓯᓇᐃᑲᓂ	-12.0499
ᐁᔑᒫᐗᒋᐃᑎ	-12.05
ᐲᑑᔮ	-12.05
ᑳᐃᓈᐸᒋᑑ	-12.0501
ᑳᐱᒥᐎᑑ	-12.0502
ᑭᔥᑮᔑᑯᐙ	-12.0502
ᐁᓵᑭᑑ	-12.0503
ᒋᐊᑯᓴᑲᐅ	-12.0503
ᑫᑑᑕᒫ	-12.0503
ᐁᔑᓈᑯᑑ	-12.0503
ᐊᓇᒥᐁᑳᓱ	-12.0504
ᒋᐊᓉᐱ	-12.0504
ᐊᐌᓀᓂᐎᓂ	-12.0504
ᑕᐱᐅᒋ	-12.0506
ᓰᒋᔥᑳ	-12.0506
ᑭᓰᓯᐸᑑ	-12.0508
ᒎᐎᐎᓯ	-12.0508
ᓭᑭᓯᐗ	-12.0508
ᒋᒥᒋᐯᔑᑯ	-12.0509
ᐅᒋᐱᒫᒋᐃᑰ	-12.0511
ᒋᓅᑌᓭᓯ	-12.0511
ᓈᐯᒥᐙ	-12.0512
ᐁᑮᒪᑗ	-12.0512
ᐁᑮᒦᔑ	-12.0513
ᑳᓀᑖᑾ	-12.0514
ᐁᒥᒋᐯᔑᑯ	-12.0514
ᐁᑮᐸᑭᑎᓇ	-12.0515
ᐁᑲᑮᓇᐎᔥᑭ	-12.0517
ᒦᑳᓈᐙ	-12.0517
ᑳᓃᑳᓂᔥᑲᐙ	-12.0521
ᑳᑮᐃᓀᑕᒫ	-12.0521
ᒋᓈᑲᒋᑑ	-12.0522
ᐁᑲᓅᓂ	-12.0522
ᑮᐋᐸᑎᓯ	-12.0523
ᑳᑮᑮᐌᐱᒫᑎᓯᐃ	-12.0524
ᐐᓴᑭ	-12.0524
ᐐᓯᓂᔭ	-12.0526
ᐲᑑᔭ	-12.0526
ᐁᑮᐃᓈᑯᓂᑫ	-12.0528
ᐁᑮᐃᔑᒋᑫᓯ	-12.0529
ᓇᓈᑕᐙᐸᒥ	-12.0529
ᔖᑰᓱᒫᓂ	-12.0529
ᑲᓇᐙᐸᒥᑯ	-12.053
ᒋᐌᓅᑎᓯ	-12.053
ᐅᑮᐊᔮᓰ	-12.053
ᑮᐃᓇᐊ	-12.053
ᓇᒥᐁᐗᓄᑮ	-12.0532
ᐁᐊᓂᐱᒥ	-12.0532
ᐁᑮᐋᑯᓯ	-12.0533
ᑳᑮᐃᔑᓂᔕᐙ	-12.0534
ᒋᑲᓇᐌᓂᒫ	-12.0534
ᐯᑭᐃᑰᐎᓯ	-12.0535
ᓰᐲᐗ	-12.0535
ᑴᑭᑖ	-12.0536
ᑭᑌᐺᔦᑕᒧᐎ	-12.0536
ᒋᑭᑭᓄᐊᒪᐎ	-12.0538
ᑭᐱᐅᒋ	-12.0538
ᐋᑌ	-12.0538
ᑳᑕᔑᒪ	-12.0538
ᒦᓂᑰᐎᓯᐗ	-12.0539
ᐁᑲᑲᓅᓂᑎ	-12.0539
ᐊᑎ	-12.0542
ᒋᓈᓯᑲᐎ	-12.0543
ᐸᐲᒶᓯᓇᐃᑯ	-12.0543
ᐱᑑᓈᐙ	-12.0545
ᑭᑲᒦᓂᑰ	-12.0545
ᒋᑳᐸᐎ	-12.0547
ᐲᒋᓇ	-12.0548
ᑫᒦᑭᐌ	-12.0548
ᐁᒨᔥᑭᓀᓂ	-12.0549
ᐅᑮᓂᓵᐙ	-12.055
ᒋᑎᐯᒋᑫ	-12.055
ᑳᑮᐗᓂᒧ	-12.0551
ᐅᑮᐊᑲ	-12.0552
ᑳᐐᓈᑎᓯ	-12.0552
ᓯᑑᓈᐙ	-12.0552
ᐅᓂᐳᐎ	-12.0553
ᐅᓈᑯᑑ	-12.0553
ᑲᑭᑐᐗ	-12.0554
ᒌᐸ	-12.0555
ᐅᑎᐹᒋᒧᐎᓂᐙ	-12.0557
ᑯᒋᐋ	-12.0557
ᐁᑭᑫᑕᒫ	-12.0559
ᔖᐳᔥᑲ	-12.0561
ᑳᑮᐊᑐᒥᑣ	-12.0561
ᐁᔑᐊᓇᒥᐁᑕ	-12.0562
ᐁᑮᑲᓇᐌᑕ	-12.0562
ᒥᓄᐊᔮᐃᑯ	-12.0562
ᐊᑕᐙᐸᒥ	-12.0564
ᐐᒌᐙᑲᓇ	-12.0566
ᐐᐱᑎ	-12.0567
ᒋᐃᔥᒀᓭ	-12.0568
ᓀᑕᒨ	-12.0572
ᐁᑮᑭᔒᐌ	-12.0572
ᑳᑮᒫᐗᒋᐃᑎ	-12.0573
ᒥᓴᐌᓂᒫ	-12.0573
ᑳᑲᓅᒋᑫᑕᒪᐙ	-12.0575
ᐱᓯᑲᒧᐙ	-12.0576
ᐊᓈᒣᑖᑯᓯ	-12.0579
ᒋᐐᒌᑎ	-12.058
ᑳᐌᑕ	-12.0588
ᑌᐸᑫ	-12.059
ᑳᐴᓀᑕᒪᐎ	-12.0591
ᑕᔑᒥᑯᐙ	-12.0591
ᑳᐅᒋᐅᔑᐲᐊ	-12.0594
ᐅᑮᒦᓈᐙ	-12.0594
ᐁᔑᓈᑯᓯᔭ	-12.0594
ᐊᑕᐌᓂᒥᑯ	-12.0599
ᑮᐊᑐᒥᑯᐙ	-12.0601
ᐱᐊᑕᐙᐸᒥ	-12.0602
ᑮᐃᔑᒦᓈ	-12.0603
ᐃᓈᑯᓂᑰᔭ	-12.0604
ᑳᑮᐃᔑᒋᑫᔮ	-12.0604
ᑳᐃᔑᑲᒀᑕᑭᑑ	-12.0605
ᒋᐸᒥᐃᑯ	-12.0608
ᐅᑕᐗᑳᓂ	-12.0609
ᐸᑭᑎᓂᑰᐎ	-12.0611
ᐱᓱᓂ	-12.0613
ᑮᑮᐌᐃᔖ	-12.0614
ᐁᑲᔥᑭᐋ	-12.0618
ᑳᑮᐊᓅᑮ	-12.0618
ᑳᔭᔮᓂ	-12.0618
ᑲᓇᐙᐸᒪ	-12.0619
ᐁᑲᔥᑭᑕᒫᓱ	-12.062
ᑳᐐᒌᐗ	-12.062
ᐁᑎᐯᒋᑫ	-12.0621
ᓂᑮᒥᑲᐙᓈ	-12.0626
ᑕᓱᑎᐸᐃᑲᓀᔮ	-12.0627
ᑲᑴᒋᐃᑯ	-12.0627
ᐁᓭᑭᓯ	-12.063
ᑳᑎᓄᐗ	-12.0634
ᐊᒨ	-12.0636
ᓂᑲᔑ	-12.0637
ᐅᒋᒌᑾᓃᑕᐙᐙ	-12.0638
ᑭᓅᑌᓭ	-12.0639
ᐅᑮᐃᔑᐋ	-12.0641
ᑳᑮᐃᑭᑐᔦ	-12.0642
ᒋᑲᑴᒋᒥ	-12.0642
ᓂᓯᑐ	-12.0642
ᑳᑎᐱᓇᐌᐎᓯ	-12.0644
ᐁᐙᓯᑌ	-12.0647
ᓴᑭᑌ	-12.0652
ᔕᐌᑖᑯᓯᔦ	-12.0652
ᐋᔩᒋᐊᔓᑕᒫ	-12.0654
ᒉᕒ	-12.0655
ᐁᑮᐅᔑᑑ	-12.0657
ᑭᑭᑫᓂᒫᓈ	-12.0661
ᐐᑕᒪᐗ	-12.0664
ᑳᒥᓉᑕᒧ	-12.0665
ᐁᑌᐺᒪᑲ	-12.0669
ᓂᐸᑯᓭᓂᒫ	-12.0674
ᑳᓬ	-12.0674
ᐊᓅᓂᑯ	-12.0678
ᑎᐹᑯᓂᑫᐎᓂᓂ	-12.0678
ᑕᐗᑳ	-12.0679
ᐃᓀᑖᑯᐋ	-12.0681
ᑎᐯᑖᑯᓯᐗ	-12.0682
ᓰᑭᓇᒪᐎ	-12.0684
ᒦᒋᓰ	-12.0686
ᑳᓅᑕᐎ	-12.0688
ᑳᓂᐴᒪᑲ	-12.0689
ᑲᑮᑭᒥ	-12.0689
ᐊᑕᐙᐸᒥᓇᑰ	-12.069
ᔥᑭᑳᑌ	-12.0692
ᐁᑕᔑᒥ	-12.0694
ᐋᓇᐌᓂᒥᑯ	-12.0695
ᓱᐱᐴ	-12.0696
ᑳᒪᒋᑑᑕᐎ	-12.07
ᒋᒥᓄᒋᑫ	-12.0704
ᑳᑮᓃᐸᐎ	-12.0704
ᐁᑲᓇᐙᐸᑕ	-12.0705
ᐁᑭᑭᓄᐊᒪᐙ	-12.0709
ᑳᓂᓯᑐᑕ	-12.071
ᓂᑯᓯᓴ	-12.0711
ᒪᑭᓯ	-12.0711
ᐁᓅᑌᓭ	-12.0712
ᑖᐃᓀᑖᑾ	-12.0713
ᐁᑮᐃᔖᔮ	-12.0714
ᐅᑮᐃᔑᓂᔕᐙᐙ	-12.0714
ᐸᑫᐎᓂᑎᐎ	-12.0715
ᐊᑾᒋ	-12.0724
ᐅᒫᒫᒫ	-12.0727
ᑭᒥᒋ	-12.0732
ᒥᑭᑳᑌ	-12.0733
ᒋᐃᑭᑐᔭ	-12.0734
ᑳᐃᔑᐅᔑᐲ	-12.0738
ᒪᓯᓇᐃᑫ	-12.0738
ᑭᑖᓈᐙ	-12.074
ᑭᓰᐲᑭᓯᑌᓂ	-12.0742
ᐅᒦᒦᓯ	-12.0747
ᑮᔥᑲ	-12.0749
ᐅᒋᐊᑲᒋ	-12.0753
ᐁᔖᐗ	-12.0758
ᑫᐃᔑᒋᑫᔦ	-12.0765
ᐅᑮᐱᐅᒋ	-12.0767
ᑭᑫᑕᒧᐃᑯ	-12.0767
ᐃᓉᑑ	-12.0769
ᐱᔑᒀᑎᓯᐎᓂ	-12.0772
ᑳᐃᓇᑭᒥ	-12.0776
ᐊᒀᐸ	-12.0779
ᐊᐎᐋ	-12.0783
ᐁᐊᐎ	-12.0786
ᑳᑮᐌᐱᒫᑎᓯ	-12.0788
ᑮᐃᔥᒀᓭᓂ	-12.0788
ᐁᐅᒌᒪᑲᓂᓂ	-12.0792
ᐅᑭᑫᑕᒫ	-12.0794
ᑮᐅᓶ	-12.0796
ᓂᐳᐗ	-12.0797
ᑭᓇᑕᐌᓂᒥᑰ	-12.08
ᓈᑐᓀ	-12.0801
ᒋᒥᓍᒋ	-12.0802
ᑮᑭᑐᓰ	-12.0803
ᑕᔑᑖᓈᐙ	-12.0804
ᑮᐌᐱᒫᑎᓯᐃᑣ	-12.0809
ᓈᑯᒋᑳᑌᓂ	-12.0812
ᓅᔐ	-12.0815
ᐅᑮᐅᓇᑑ	-12.082
ᑑᑖᑎ	-12.0821
ᐸᑌ	-12.0822
ᑎᓯᔦ	-12.0834
ᐁᑮᒪᒋᑑᑕ	-12.0839
ᐊᑕᐌᑕᒫ	-12.0839
ᓂᔑᐗᓈᑕᓯᓂᓂ	-12.0845
ᑳᐅᒋᓂᑖᐎᑭ	-12.0849
ᑮᒫᒌᑭᑭᓄᐊᒫᑫ	-12.0853
ᐄᓄ	-12.0856
ᒪᒫᔑᓂ	-12.0865
ᐁᔑᒪᒋ	-12.0866
ᐊᓈᒥᒥᑯ	-12.0877
ᐗᓂᔥᑴᐃᑯ	-12.0881
ᒋᒥᓂᒀ	-12.0888
ᑳᐐᐃᔖᔮ	-12.0894
ᐁᐐᐙᐸᒫ	-12.0895
ᑳᐊᓇᒥᐋᓯ	-12.0902
ᑭᑭᔅ	-12.0907
ᒋᑕᑯᑳ	-12.0911
ᑏᐎ	-12.0911
1	-12.0917
ᐸᒥᐃᐌ	-12.0922
ᐁᑮᔕᔒᐱᑕ	-12.0923
ᒪᒦᒀᓂᑎᓱᓰ	-12.093
ᐊᓂᐅᒋᒋᓭᓂ	-12.0931
ᑳᔑᓵᑭᐃ	-12.0935
ᐁᐊᓄᑮ	-12.0958
ᑭᑭᓇᐙᐸᒋ	-12.0959
ᐐᒋᐃᑎ	-12.0965
ᑭᒋᐅᓈᑲ	-12.0973
ᔔᓂᔮᑫ	-12.0975
ᒪᑲᓯᓂᓂ	-12.0976
ᐋᓇᐌᑕᒧ	-12.0987
ᐋᑕᐌᓯ	-12.0989
ᒋᐸᑭᑎᓇᒪᐎ	-12.0999
ᑑᑖᓈᐙ	-12.0999
ᐅᒌᓯᓅ	-12.1001
ᓇᑳᓂ	-12.101
ᑳᐃᔑᐊᓄᑮᒪᑲ	-12.1012
ᐙᐱᑲ	-12.1014
ᐌᒌᒪᑲᓂᓂ	-12.1019
ᑫᐃᔑᐊᔮ	-12.1035
ᐁᐊᔮᓯᓂ	-12.1043
ᐁᑭᑫᓂᒥᓯ	-12.105
ᐃᔑᐌᐱᓯᐎᓂ	-12.1063
ᑮᐊᑖᐌ	-12.1064
ᑌᓄᐎᐗ	-12.1065
ᑲᐯᔑᐎ	-12.1069
ᑏᒪᑲ	-12.1082
ᒫᓀᑕᒥᐃ	-12.1088
ᐙᓭᔮᓯ	-12.1102
ᑮᐅᒋᓅᑖᑾ	-12.1118
ᑌᐱᓇᓰ	-12.1119
ᐅᑮᐐᑎᑫᒫ	-12.1119
ᒉᓯ	-12.113
ᑎᐯᑕᒫ	-12.1136
ᑳᔒᑫᓂᒥᑯ	-12.1138
ᑳᑮᓃᔣᒋ	-12.114
ᒋᐊᑲᒋ	-12.1145
ᑕᐃᔑᒋᑫᓰ	-12.1151
ᑯᒋᐃ	-12.1153
ᓂᔕᐅᑣ	-12.1165
ᐐᐱᑕᑯᔑ	-12.1168
ᑳᑳᒋᑳᑌ	-12.1183
ᒪᑲᑌᒥᔅᑴ	-12.1197
ᑕᒫᓱᓰ	-12.1201
ᑮᐃᔑᐲᐃᑫ	-12.1237
ᑖᐙᑫ	-12.1239
ᐅᑖᔑᑌᔮᑎᑯᒥ	-12.1241
ᑕᒦᓈᓰ	-12.1242
ᐁᑮᐊᐸᑭ	-12.1267
ᑲᐎᐌᐱ	-12.127
ᑑᐹ	-12.1287
ᑳᐐᑎᑫ	-12.1287
ᐐᒋᐁᒀ	-12.1294
ᒋᑮᑭᑐ	-12.13
ᒦᑴᒋᐌᓂᒪ	-12.1302
ᒋᐃᔑᑖ	-12.1318
ᐊᑲᐙᑌᐃ	-12.1343
ᑳᑮᓂᐳᐙ	-12.1354
ᐲᑎᑲᓂᑰ	-12.1371
ᒋᑫᒪᑲ	-12.1377
ᐅᓲᐎ	-12.1381
ᐁᔕᔒᐱᑕ	-12.1384
ᒋᑌᐱᓇᒧᐗ	-12.1421
ᑮᐃᓈᑯᓂᑯ	-12.1429
ᒥᓄᓭᔭ	-12.1438
ᒋᓵᒥᓈ	-12.1446
ᓅᑖᑰ	-12.145
ᐃᔑᐸᑭᑎᓂᑎᓱ	-12.1453
ᑮᔑᒋᑳᑌ	-12.1458
ᓵᒥ	-12.147
ᓃᒑᓂᓴ	-12.1476
ᐅᑭᒫᑲᑖᑫ	-12.1482
ᐐᓴᑫᑕᒧ	-12.1493
ᑲᓇᐌᑖᓈᐙ	-12.1511
ᑮᑲᓅᓂᑯ	-12.1517
ᒋᐅᒋᒥᓂᑴ	-12.1536
ᐁᔮᐌ	-12.1541
ᑭᔥᑲ	-12.155
ᐁᑮᑲᒀᑕᑭ	-12.1557
ᐲᐃᑫᔮ	-12.1573
ᐐᒌᐎᒥ	-12.1575
ᐊᒋᑳᑌᓂ	-12.1575
ᑮᐃᓈᓴᒥᑳᐸᐎ	-12.1575
ᔥᑳᑯᓰ	-12.1577
ᑲᓅᓇᑭ	-12.1584
ᒫᓀᑕᒥᓂ	-12.1586
ᐃᔑᓇᒪᑕᐱ	-12.159
ᑮᐃᓈᒋᒧ	-12.1594
ᑳᑮᐃᓀᑕᒧ	-12.1626
ᒦᓂᑰᓰ	-12.1634
ᒦᓂᑯᓈ	-12.1646
ᑕᓄᑮᐊᑲ	-12.1646
ᑮᐃᔑᐲᐃᑳᑌᓂ	-12.1675
ᓂᓃᒥᐙ	-12.1684
ᔔᓂᔮᒥᐙ	-12.1694
ᐃᔑᒋᑫᓈᓂᐗᓂᓂ	-12.1739
ᑭᑲᐃᓈ	-12.1739
ᑲᑴᐗᓈ	-12.1748
ᑭᓰᓂᒌᓯ	-12.1773
ᑕᐱᓯᑕ	-12.18
ᓈᑯᓯᐎᓂ	-12.1819
ᓴᓰᓶ	-12.1825
ᑖᐎᓰ	-12.183
ᐱᒋᑯᓇᔦᐃ	-12.1861
ᒋᑌᐺᑕᐎ	-12.1863
ᐅᑮᑌᐱ	-12.1883
ᐁᑮᐊᒸ	-12.1891
ᑖᒥᓄ	-12.1896
ᑳᐊᔮᒪᑲ	-12.1903
ᐅᒑᓂᒥᓯᐎ	-12.1915
ᐄᓬᐋ	-12.1916
ᐁᑭᑭᔥᑲᐙ	-12.1919
ᐃᓀᓂᒥᔑ	-12.1932
ᔑᓯᑑ	-12.198
ᔖᑲᓯᒥᑕᓇᔑ	-12.1985
ᒋᑮᐃᔑᒋᑫ	-12.1993
ᒋᐅᑖᐱᓂᑳᑌ	-12.2011
ᒋᓇᐃᑕᐌ	-12.2015
ᓂᓵᐹᐌ	-12.2016
ᒋᐸᑭᔑᒫ	-12.2019
ᒥᓴᐌᒋᑫᐎ	-12.2019
ᐃᓈᐸᑎᓯ	-12.2029
ᐃᔑᐌᐱ	-12.2029
ᐅᒋᒥᓉᑕ	-12.2032
ᒋᐱᒫᑎ	-12.2046
ᐁᐹᐱᓄᑕᐙ	-12.2074
ᓄᑕᒧ	-12.2099
ᐋᑲᓂᐎ	-12.21
ᑭᒋᐅᑭᒫᐎᐗ	-12.2114
ᐊᔦᒀᒥᒥ	-12.2129
ᑳᐐᒦᓇ	-12.213
ᐋᓇᐃᑭᑐ	-12.2152
ᑲᒥᑳᓂ	-12.2158
ᐊᑰᑌᓂ	-12.2159
ᑖᐃᓀᑕ	-12.2175
ᐐᑑᑲ	-12.2185
ᐃᔑᒋᑫᓯᐗ	-12.22
ᒋᐃᔑᓂᔕᐙ	-12.222
ᓈᓯᑲᐌ	-12.2221
ᑲᑭᑐᔮ	-12.2223
ᐌᒌᒪᑲ	-12.2224
ᐁᑯᑖᓀᓂ	-12.2229
ᑮᐅᒋᐸᑭᔑ	-12.2272
ᐹᑭᓭᓂ	-12.2312
ᒪᒋᑑᑕᒪ	-12.2313
ᒨᒋᑫ	-12.2328
ᐊᔓᑕᒫᑎᐎᓂ	-12.233
ᐁᐅᐱ	-12.2335
ᐸᑲᑭ	-12.2339
ᐱᐅᒋᒋᓭ	-12.2343
ᒋᑎᐯᓂᒥᑯᐙ	-12.2349
ᑲᑴᔖᑰᓱ	-12.2357
ᓯᓇᐊᒪᐗ	-12.2359
ᒫᓀᓂᒫ	-12.2361
ᓱᒥᑰ	-12.2361
ᑌᐯ	-12.237
ᑳᔑᐊᑕᐌᓂᒥ	-12.2405
ᐱᑮᐌᔮ	-12.2406
ᐸᑭᑎᓇᒪᐙᓰ	-12.2412
ᓅᑕᓰ	-12.2434
ᑮᐌᐱᒫᑎᓰᐃ	-12.2443
ᑮᐃᔑᒦᓂᑰᐎᓯ	-12.2456
ᐋᐸᒋᒋ	-12.2472
ᐗᔦᔑᒥᑯ	-12.2476
ᐐᓯᓃᒥᑯ	-12.2494
ᐱᒥᐐᒌᐎ	-12.2513
ᑫᓂᔑᐗᓈᑕ	-12.2556
ᐁᐸᑯᓭᓂᒧ	-12.2558
ᑮᐅᓀᓂᒥᑯᐙ	-12.2561
ᐁᐅᑕᒥ	-12.2565
ᒋᐐᑕᒪ	-12.2567
ᑌᑾ	-12.2571
ᒫᐗᑑᓇ	-12.2583
ᐱᓵᓀᑕᒧ	-12.2617
ᑳᓵᑭᐃᓀ	-12.2649
ᐯᔑᑴᐙᓇᑭᓯ	-12.2667
ᓂᓯᑕᐎᓇᐙᐙ	-12.2677
ᑭᑲᑳᓱᒥ	-12.2688
ᓇᓈᑕᐙᐸ	-12.271
ᑲᔥᑭᐊ	-12.2723
ᑳᑯᑖᓀᓂ	-12.2725
ᒥᓄᑑᑖᑯ	-12.2785
ᐊᐸᑭᑑ	-12.2786
ᒋᒦᓇ	-12.2792
ᐴᓀᑕᒪᐎᔑ	-12.2794
ᐁᐊᐯᓂᒧᓄᑕ	-12.2803
ᑮᐃᔑᑕᑯ	-12.2853
ᐁᑲᒀᑕᑭ	-12.2868
ᑳᐱᒫᑕ	-12.2875
ᒪᒋᑑᑖ	-12.2881
ᑫᔖᑰᒋ	-12.2884
ᑯᓯᑴ	-12.2897
ᐃᔑᓯᑑ	-12.2912
ᓂᑮᒦᓂᑰ	-12.2915
ᑮᐗᐙᓀᑕ	-12.2924
ᐊᔨᑭᑐ	-12.2929
ᒋᐲᑎᑲᓂ	-12.2931
ᒋᐅᔑᑕᒪ	-12.2943
ᐁᐯᑲ	-12.2952
ᒋᐱᓈᓯᑲ	-12.2952
ᑕᐃᔑᓈᑾᓯ	-12.2955
ᒋᓵᑭᐁ	-12.2957
ᐊᓄᑮᓯ	-12.2968
ᐅᑭᑎᑫᐎ	-12.3008
ᐅᑲᒦᓂᑯ	-12.3012
ᑕᐌᑕᒣ	-12.3023
ᒋᑲᔥᑭᐋ	-12.3025
ᑲᒀᑕᑭᓭ	-12.3027
ᐁᑭᑫᓂᒥᑰ	-12.3028
ᑌᐱᓇᒧᐗ	-12.3035
ᐃᔥᐸᑭ	-12.3043
ᑭᑭᓇᐙᒋᑑ	-12.3064
ᒦᓂᑰᐎᓯᓰ	-12.3071
ᒫᔑᑑᑕᐎ	-12.3092
ᑳᐗᓂᔥᑴ	-12.3103
ᑐᓀᐊᒧᐙ	-12.3109
ᐐᓃᑳᓀᑖᑯᓯ	-12.311
ᑾᔭᑴᓂ	-12.313
ᑲᑮᑖᐌᑕᒧ	-12.3168
ᒪᔥᑲᐌᑖᑾᓂᓂ	-12.3172
ᓃᑳᓂᓂᔕ	-12.3177
ᒫᒪᑳᑌᑕᒧ	-12.3181
ᑎᓯᓯᒀ	-12.3183
ᓂᑎᔑᒋᑫ	-12.3204
ᑲᑮᑭ	-12.3206
ᒪᔥᑲᐎᓰᒪᑲᓂᓂ	-12.3209
ᑭᑭᑯᓇᔦ	-12.3218
ᐁᑮᔖᑰᒋ	-12.3219
ᐃᔑᐃᑎᓱ	-12.3245
ᑳᑮᐊᐎᐋ	-12.3245
ᑎᐯᑖᑯᓯᓰ	-12.3245
ᐐᑕᓰ	-12.3247
ᔖᑰᒋᐃᐌ	-12.3253
ᓂᑕᓇᒥᐁ	-12.3256
ᐅᑮᑕᔑᑖ	-12.3257
ᐙᐱᔥᑳ	-12.3271
ᔑᓂᑳᓂ	-12.3277
ᑮᐃᔑᓇᑴᑕ	-12.3279
ᑲᑳᓱᒥᑰ	-12.328
ᔕᐌᒋᑫ	-12.3283
ᒥᓄᐐᒌᐎᑯᐙ	-12.3283
ᑳᐯᑳ	-12.3289
ᐁᑮᓅᑖᑯ	-12.3297
ᐐᒌᐎᑯᓈᓂ	-12.3303
ᐱᒫᒋᐃᔑ	-12.3309
ᒋᔖᑰᒋᐋ	-12.3314
ᐊᔕᐙᐸᑕ	-12.3318
ᑮᐅᓇᑑᓂ	-12.332
ᐃᓇᒋᑳᑌ	-12.3322
ᑎᓯᐎᓂ	-12.3329
ᑕᓇᑖ	-12.3331
ᑕᐋᐸᑕ	-12.3335
ᐅᒥᑮᐙᐱᓀᓂ	-12.3336
ᑳᑮᐅᒋᑌᐱᓇ	-12.3344
ᑳᐃᔑᑕᔑᑌ	-12.3352
ᐃᓈᓯᐙᐙ	-12.3374
ᓈᓈᑲᑕᐌᓂᑎ	-12.3379
ᑭᒋᓂᔥᑳᑎᓯ	-12.34
ᑭᑮᐐᒌᐎ	-12.3402
ᑖᑾᓂᓂᑭ	-12.341
ᑭᑖᓱᐎ	-12.3415
ᒋᐸᒥ	-12.3424
ᐋᐌᒋᑲᓂ	-12.3439
ᐲᑕᒪᐎᓐ	-12.3447
ᐊᓈᒣᑖᑯᓯᓯ	-12.3451
ᐅᑑᓇᔓᐌ	-12.3459
ᐃᔭᓬ	-12.3468
ᑎᔑᓂᔕᐙᑲᓂᒥ	-12.3477
ᓅᑖᑳᓂᐗ	-12.348
ᐱᒫᑎᓰᐃᑯ	-12.3492
ᒥᓄᑑᑖᑎ	-12.3514
ᐃᔑᓂᔕᐊᒪ	-12.3517
ᑰᐹᓯᓈᑫ	-12.3517
ᑫᐃᓂᓀ	-12.3528
ᑳᓃᑳᓃ	-12.3533
ᓇᒪᐎᑣ	-12.3536
ᒋᐅᒋᒥᓄᓭ	-12.3538
ᑎᐯᓂᒥᑯᓯᐙ	-12.3542
ᒋᑲᓅᑕᒫ	-12.3552
ᑭᑲᓇᓈᑐ	-12.3554
ᑳᐅᑎᓇ	-12.3557
ᓂᑮᐐᒌᐎ	-12.356
ᑭᓈᐯ	-12.3562
ᑭᑲᒦᓂ	-12.3565
ᐅᑌᓇᓂ	-12.3584
ᒥᑳᓈᐙ	-12.3588
ᓀᓂᑎᓱᓰ	-12.3609
ᓇᑴᑖ	-12.3613
ᐅᑭᒫᐌᑖᑯᓯ	-12.3616
ᐅᔒᒣᔑᒫ	-12.3624
ᔥᑳᒪ	-12.3628
ᐹᐱᓄᑕᐙ	-12.3629
ᐅᐲᐌᓰᒥ	-12.363
ᐋᓇᐌᓂᒫ	-12.3633
ᑭᑎᒫᑭ	-12.3634
ᐅᑮᒫᒋ	-12.3634
ᑫᐃᓈᑯᓂ	-12.3646
ᐸᒥᓇᒧᐃ	-12.3646
ᑕᓶᐙᓇᑭᓯ	-12.365
ᓄᑮᔮ	-12.365
ᑭᑲᑭᑫᑖ	-12.3655
ᒋᑳᑌᑭᐸ	-12.3659
ᓃᑳᓇᑭᓱ	-12.3663
ᑌᐺᔦᑖᑾ	-12.3664
ᐱᒫᑎᓰᔥᑳᑫᒪᑲ	-12.3665
ᑮᐃᓉ	-12.3666
ᒫᒪᐌᓄ	-12.3669
ᓅᒋᐃᑯ	-12.3669
ᐋᓍ	-12.367
ᑭᑕᒑᑯ	-12.3671
ᐅᑕᑮᒥ	-12.3672
ᑌᐯᓂᒥ	-12.3672
ᑭᑌᐺᔦᑖ	-12.3673
ᒋᑌᐺᔦᑕᒧ	-12.3674
ᑗ	-12.3674
ᒪᒐᑭ	-12.3676
ᒋᐸᑕᑯᔥᑳᑯ	-12.3676
ᓇᑭᔥᑳᑯ	-12.3677
ᓂᔥᑫᓂᒥ	-12.3677
ᐸᐹᒣᓂᒫ	-12.368
ᓂᓃᒑᓂ	-12.3683
ᓇᑭᑑ	-12.3683
ᒥᑴᓂᒥ	-12.3684
ᑭᒋᐊᓇᒥᐁᐸᒀᓀᑲᒥ	-12.3685
ᓃᑳᓂᔥᑲᐙ	-12.3686
ᐅᑑᓃᒑᓂᓯᒥ	-12.3687
ᐗᓂᑭᑭᓄᐃᑫ	-12.3687
ᐸᐸᑴᐱ	-12.3688
ᓇᓃᓵᓀᑕ	-12.3689
ᑕᐌᑖᓈᐙ	-12.3693
ᐊᔭᐱ	-12.3694
ᑮᐃᔑᒋᑫᓈᓂᐗ	-12.3695
ᑾᔭᒀᑎᓰ	-12.3696
ᑭᑎᒫᑫᓂ	-12.3699
ᑮᐊᑕᐌᑖ	-12.37
ᑲᒥᑭᓯᐙ	-12.37
ᓈᑯᔑᓂᓂ	-12.3701
ᐅᒋᒌᑾᓇᐱ	-12.3701
ᐱᒫᒋᐊ	-12.3702
ᑕᒑᑾ	-12.3703
ᓇᑴᑖᑰ	-12.3704
ᐅᑫᑌᔭᐋᒥ	-12.3704
ᒪᒥᔑᒫ	-12.3705
ᐊᔭᐋᒥᓈᐸ	-12.3706
ᑎᓲᒪᑲ	-12.3707
ᓶ	-12.3708
ᒋᓂᓯᑐᑕᒣ	-12.3708
ᓴᑲᐅᓈ	-12.3708
ᓋ	-12.371
ᐙᐸᒫᐗᓱ	-12.3711
ᑲᔥᑮᑎᐱᑭ	-12.3711
ᐲᑖᐸ	-12.3713
ᐸᐹᐱᓯᔅ	-12.3713
ᐊᑕᐌᓂᒣ	-12.3713
ᐯᐸᑳᓉᐙᓇᑭᓯ	-12.3714
ᐁᑮᓇᓃᓵᓂ	-12.3715
ᒫᒪᑳᑌᑖ	-12.3715
ᒪᔥᑲᐎᑌᐁ	-12.3715
ᑾᔮᒋᑕᒫ	-12.3716
ᐅᑸᓄ	-12.3716
ᐃᓇᓯᑯ	-12.3716
ᑭᑎᑳᓈ	-12.3716
ᐅᔥᑲᐱᓅᒌ	-12.3716
ᑭᐸᐅᑏᐎ	-12.3717
ᒫᒦᓄᐸᔕᔐ	-12.3717
ᐅᒥᓍᑎᓰ	-12.3717
ᑮᔫᑕᒥᑰ	-12.3717
ᐃᓇᑲᒥᑭᓯ	-12.3717
ᐋᒀᑎᓰᑲᑕ	-12.3717
ᐊᔨᔑᓂᑫ	-12.3717
ᐗᓇᔥᑴ	-12.3717
ᐗᓯᔀᓂ	-12.3717
ᐲᑲᒧ	-12.3717
ᑳᐅᒌᓱᐌᐎᓂ	-12.3717
ᑳᔮᓇᐌᑖᑯᓯ	-12.3717
ᒋᐱᒥᐎᑕᒪᐙ	-12.3717
ᒥᑕᔅᑭᑎᒀᓀ	-12.3717
ᒥᑖᔀᔑᓃᔓ	-12.3717
ᓃᑳᓈᒋᒧ	-12.3717
ᓴᒣᕒᐃᔮᐎᑴ	-12.3717
(	-12.3717
)	-12.3717
ᐁᑲᐗᔅᑲᑌ	-12.3717
ᐁᓇᒥᐁᐙᑎᓯ	-12.3717
ᐁᔥᐯᑖᑯᓯ	-12.3717
ᐁᕒᐃᔮᐸᑲ	-12.3717
ᐃᔥᐹᐸᑌ	-12.3717
ᐅᐐᐋᐸᒋᐋ	-12.3717
ᐅᐸᑫᐎᓯᐎ	-12.3717
ᐅᑮᐐᐴᓂᑑᓰᓈᐙ	-12.3717
ᐅᑮᓈᑯᓰᑲᑕᐙ	-12.3717
ᐅᔥᑭᐅᔑᒋᑲᓂᐎ	-12.3717
ᐅᔾᐆᓯ	-12.3717
ᐋᓇᐌᓂᑎᓱ	-12.3717
ᐌᔫᓯᒪ	-12.3717
ᐐᒋᑳᐸᐐᑕᐙ	-12.3717
ᐗᓂᐎᔑᐌ	-12.3717
ᐯᑎᒀᔅ	-12.3717
ᐴᑯᑳᑌ	-12.3717
ᐸᐹᒣᑕᓰ	-12.3717
ᐸᓯᑶᒋᓭ	-12.3717
ᐸᕒᐃᒋᔭ	-12.3717
ᐹᑭᑌᓇᒪᐎ	-12.3717
ᑫᓀᓴᕒᐃ	-12.3717
ᑫᕒᐊᓵ	-12.3717
ᑭᑎᒫᑭᓈᑰ	-12.3717
ᑭᑑᓇᔓᐌᐎᓂᐙ	-12.3717
ᑭᑖᐸᑫᐎᓂᑯ	-12.3717
ᑭᑭᓇᐙᒋᐋ	-12.3717
ᑭᔕᑾᓀᓂ	-12.3717
ᑮᑫᔩᑲ	-12.3717
ᑮᒪᑌᑳᐸᐎ	-12.3717
ᑯᑖᓀᑖᑯᓯ	-12.3717
ᑳᐃᓍᑌ	-12.3717
ᑳᐅᐐᒋᑭᐌᑎ	-12.3717
ᑳᔕᐌᓂᒪ	-12.3717
ᒉᑭᐲᓈ	-12.3717
ᒣᔥᑲᐌᑖᑯᓯ	-12.3717
ᒥᓴᐎᓈᑫ	-12.3717
ᒫᒥᑲᐙᓱ	-12.3717
ᓂᑑᑕᑳᓀ	-12.3717
ᓵᓰᑲᐅᑯ	-12.3717
ᔕᔒᐯᑖ	-12.3717
ᐁᔑᒥᓴᐌᑕᒨᒪᑲ	-12.3717
ᐃᔅᑲᐃᐹ	-12.3717
ᐃᔥᐱᒦᑲᑌ	-12.3717
ᐅᓀᓯᒪ	-12.3717
ᐊᓀᓯᑆᕒᐊ	-12.3717
ᐊᓃᐲᔑᐎ	-12.3717
ᐋᔮᔐᓂᑎ	-12.3717
ᐐᑑᐸᒫ	-12.3717
ᐐᒋᐅᑕᑳᓀᓰ	-12.3717
ᐗᑫᐎᑭᑖᓱ	-12.3717
ᐯᕒᓇᐃᓯ	-12.3717
ᐱᐅᒋᓈᔑᔥᑳ	-12.3717
ᐲᑖᓂᑳᓀᓭ	-12.3717
ᐸᐸᑭᐗᔮ	-12.3717
ᐸᐹᒣᑕᑫ	-12.3717
ᐹᐱᓄᑖᑰ	-12.3717
ᑕᐊᐲᒋᐅᓂᔑᔑᐌᒋᑲᓂᐎ	-12.3717
ᑭᐙᐎᔐᓂᒥ	-12.3717
ᑭᑑᑭᒫᒥᐙ	-12.3717
ᑭᑫᑌᔭᐋᒥᓈᓂ	-12.3717
ᑮᒨᒋᔥᑮᐎᓂ	-12.3717
ᑮᓀᓈᐎᓇᒫᑎ	-12.3717
ᑯᔥᑾᑲᒥᑭᓭ	-12.3717
ᑲᑮᐹᒋᑮᔗ	-12.3717
ᑲᑳᓍᐲᑲᐊᔐ	-12.3717
ᒋᐋᐸᐊᒧᐗ	-12.3717
ᒎᓬᐃᔭ	-12.3717
ᒐᕒᐆᐱᒪ	-12.3717
ᒣᓉᑕᒥ	-12.3717
ᒥᓄᒫᓯᑲ	-12.3717
ᒥᓯᑌᔥᑳᓂ	-12.3717
ᒦᑴᒋᐌᑖᑯᓯ	-12.3717
ᒦᓂᔖᑎ	-12.3717
ᒪᒉᑖᑯᓯ	-12.3717
ᒪᔥᑲᐗᓄᑮ	-12.3717
ᒫᐃᓬᐄᑕ	-12.3717
ᓃᓵᒪᒋᐌ	-12.3717
ᔖᐾᓰ	-12.3717
ᐁᒪᑲᑌᒥᔅᒀ	-12.3717
ᐊᐹᐃᒐ	-12.3717
ᐊᑳᓴᑌᔮ	-12.3717
ᐊᔮᔐᓂᑎ	-12.3717
ᐗᓂᐎᓈᐙ	-12.3717
ᐱᒨᑲᐊ	-12.3717
ᐲᒋᓂᔕᐗ	-12.3717
ᐸᑭᑖᐲᑭ	-12.3717
ᑭᔑᐗᔥᑲᑌ	-12.3717
ᑮᓯᓶ	-12.3717
ᑮᔖᑴᓂᒧ	-12.3717
ᒋᒧᔐᔮᐸᒋᑳᑌ	-12.3717
ᓂᑑᔑᐲᐊᒪᐙ	-12.3717
ᓵᑲᐊᒨᒪᑲᓂᓂ	-12.3717
ᓵᑳᓯᑫ	-12.3717
ᔕᔒᐯᓂᑎ	-12.3717
ᐅᑮᒫᒪᑳᓯᑕ	-12.3717
ᐋᑰᐱᓱ	-12.3717
ᐐᓴᑳᐱᓇᓂ	-12.3717
ᐸᑭᑎᓈᔂᓂᐎ	-12.3717
ᑭᑑᓃᒑᓂᓯᒥᑯ	-12.3717
ᑭᑫᑌᐃᓈᑎᓯᐎᓂᓈ	-12.3717
ᑭᑭᓇᐙᓯᓈᑾ	-12.3717
ᑭᑮᐊᔕᒥ	-12.3717
ᑮᒥᓄᔭᔮ	-12.3717
ᑮᔥᑳᔭᐙ	-12.3717
ᑳᐃᔑᑲᒀᑕᑭᓭᔮ	-12.3717
ᑳᒪᔥᑲᐎᑌᐺᑕᓯ	-12.3717
ᒋᑎᐯᓂᒪ	-12.3717
ᒋᒣᓂᔐᑕ	-12.3717
ᒪᐄᑲᓂ	-12.3717
ᐅᑕᔮᒀᒣ	-12.3717
ᐅᒋᔥᑲᐗᐊᒫ	-12.3717
ᐅᓱᓵ	-12.3717
ᐊᑾᓇᐃᑳᑌ	-12.3717
ᐊᔓᐎ	-12.3717
ᐊᔫᓵᒥᓯ	-12.3717
ᐗᔦᔑᒥᐌᐎ	-12.3717
ᑫᐴᓂᐊᔮᓯᓂᓂ	-12.3717
ᑮᐊᐲᑖᔭᐙ	-12.3717
ᑲᓬᐋᑎᔭ	-12.3717
ᑳᐊᒑᑴᑖ	-12.3717
ᒋᐸᐹᑾᒋᐱᑑ	-12.3717
ᒋᑎᐹᒋᒪ	-12.3717
ᒫᒦᑳᑏᒪᑲ	-12.3717
ᓃᓴᒋᐌ	-12.3717
ᓴᑭᓂᑫᓂ	-12.3717
ᓵᔨᒪ	-12.3717
ᓵᕒᑎ	-12.3717
ᐅᑭᔐᒪᓂᑑᐙᑎᓯᐎ	-12.3718
ᐐᒋᔭᔮᒫ	-12.3718
ᐹᐃᓬᐄ	-12.3718
ᑎᐹᐹᐗ	-12.3718
ᒋᑯᓇᔮ	-12.3718
ᔔᓂᔮᐗᔑᐙ	-12.3718
ᐅᑖᓇᐌᓂᒫ	-12.3718
ᐅᒥᓍᐸᒥᑰ	-12.3718
ᐅᑮᐊᑖᐙᑫᓈᐙ	-12.3718
ᐊᑐᑕᒪᐎ	-12.3718
ᑎᐸᐃᑳᑫ	-12.3718
ᒪᒌᐗᑮ	-12.3718
ᐁᒫᒥᑴᓂᒥ	-12.3718
ᐱᒪᓄᑮ	-12.3718
ᐸᑭᑎᓂᑎᓱᑲᑕᐙ	-12.3718
ᓂᑕᔮᒀᒥ	-12.3718
ᓂᑲᑮᑴᐎᓂ	-12.3718
ᓅᓯᓈᐸ	-12.3718
ᒋᒪᐎᔂ	-12.3718
ᐅᑑᑭᒫᐗᐱᐎᓂ	-12.3718
ᑭᑕᐲᑌᑖᑯᓯ	-12.3718
ᓯᓬᐆᐗ	-12.3718
ᐲᒋᓂᔕᐊᒪᐎ	-12.3718
ᐹᕒᑎ	-12.3718
ᒪᔥᑲᐗ	-12.3718
ᐸᐸᔕᔐᐙᐙ	-12.3718
ᑮᓂᓵᐹᐌᐗ	-12.3718
ᑮᔫᑌ	-12.3718
ᑰᑰᔑ	-12.3718
ᑳᐊᒑᑴᑖᑯᓯᓂ	-12.3718
ᒋᒥᓄᔭᔮ	-12.3718
ᓂᑮᐙᐸᒥᒫ	-12.3718
ᐃᓈᑲᒥᓭ	-12.3718
ᐅᒌᑳᑯᐙ	-12.3718
ᐲᓇᐃᑲ	-12.3718
ᑫᑮᐹᑎᓯ	-12.3718
ᑳᑮᐅᒋᒥᓉᑕᒫ	-12.3718
ᐃᓈᑯᓂᑲᓂᐎ	-12.3718
ᑕᐸᓴᑲᒥᑳ	-12.3718
ᑮᑭᐸᐃᑳᑌ	-12.3718
ᒪᔥᑲᐎᑭᐋ	-12.3718
ᓂᔑᔑᐌᑖᑯᓯᐎᓂ	-12.3718
ᐅᔑᑰᒋᑲ	-12.3718
ᑭᐱᔑᑮ	-12.3718
ᔕᐌᓂᑎ	-12.3718
ᒥᑌᐎ	-12.3718
ᐁᑲᑮᐹᑌᑖᑾᓂᓂ	-12.3718
ᐅᑎᓉᐎ	-12.3718
ᐋᐱᔅᑯᓂ	-12.3718
ᑳᐅᑎᓂᑳᑌ	-12.3718
ᒋᐸᐹᒥᑕᓯ	-12.3718
ᑭᓃᑳᓂᓰᒥ	-12.3718
ᓰᑲᐊᑖᑰᐎᓯ	-12.3718
ᑳᐅᒋᒥᒋᒥᔥᑳ	-12.3718
ᐁᒥᔖ	-12.3718
ᐅᑭᒋᒪᔥᑲᐎᓰᐎᓂ	-12.3718
ᐋᓇᒥᓯᐎ	-12.3718
ᔖᐴᔥᑲ	-12.3718
ᐁᔑᑌᐺᔦᑕᒫ	-12.3718
ᐋᑌᑕᓰ	-12.3718
ᐸᑲᑫᑕ	-12.3718
ᑎᐱᓴᑣ	-12.3718
ᑎᓄᐙᑲᒥ	-12.3718
ᑕᑾᑭᒫ	-12.3718
ᓃᑲᑌ	-12.3718
ᑯᔥᑯᐌᐱ	-12.3718
ᑳᑮᐅᓇᑭᒥᑯ	-12.3718
ᒋᒣᒀᔥᑲ	-12.3718
ᒥᑴᑕᒧ	-12.3718
ᓃᔓᑮᔑᑾᑳ	-12.3718
ᑳᑮᐃᓈᒋᒥᑰ	-12.3718
ᑎᐸᐊᓰ	-12.3718
ᐅᔑᐲᐊᒫᑰᓰ	-12.3718
ᐅᑑᔑᒋ	-12.3718
ᐅᒥᑮᐙᐱᓀᐙ	-12.3718
ᑖᔥᑭᓭ	-12.3718
ᑲᐋᐸᒋᐋ	-12.3718
ᒋᑭᐱᔥᑲ	-12.3718
ᑫᑭᔥᑳᑯ	-12.3718
ᑭᑎᐹᒋᒥᑯᐙ	-12.3718
ᑳᑮᐊᔨᑑᑕ	-12.3718
ᑴᑮᓄᑕᐙᓂ	-12.3718
ᐱᑯᑯᐹ	-12.3718
ᐱᒫᐅᑯ	-12.3718
ᑭᑭᓄᐊᒪᐗᑣ	-12.3718
ᑳᑖᓄᑕ	-12.3718
ᐊᐹᓬᐊ	-12.3718
ᐃᓈᓴᒪᐲᑕ	-12.3718
ᑭᑭᔥᑲᒨᓂ	-12.3718
ᑮᔥᑭᔕ	-12.3718
ᐙᐸᑕᐃᑰᐎᓯ	-12.3718
ᐲᑯᔥᑳ	-12.3718
ᓬᐆᔑᔭ	-12.3718
ᑭᒋᐊᔭᐋᒥᐙᐸᓃ	-12.3718
ᒋᑎᐹᑐᑕᒪ	-12.3718
ᓵᒥᔫ	-12.3718
ᐊᔫᒌ	-12.3718
ᐋᓂᑫᐎᑭᒫ	-12.3718
ᑳᐊᒑᑯᐗ	-12.3718
ᓂᑖᐎᑮ	-12.3718
ᓃᑳᓂᓰᑲᑕᐙ	-12.3718
ᑳᓬᐃᐅ	-12.3718
ᒋᑮᔑᑑᔦ	-12.3718
ᑕᒫᒌᒋᑲᓂᐎ	-12.3718
ᑖᐲᐸ	-12.3718
ᓵᒐᓰᐎᓂᓂᐗ	-12.3718
ᕒᐋᔅᑕ	-12.3718
ᓵᑭᓯᐋ	-12.3718
ᒋᐴᓀᑕᒫᑫ	-12.3718
ᓯᒫᐎ	-12.3718
ᐃᓍᓱ	-12.3718
ᐁᐗᓂᒫ	-12.3718
ᑭᒋᓅᒋᐃ	-12.3718
ᒥᑯᔥᑳᒋᐋ	-12.3718
ᓅᑌᐃᔥᒀᐱᒫᑎᓯ	-12.3718
ᔖᑆ	-12.3718
ᐌᐱᔥᑲ	-12.3718
ᑮᔑᑲᓄᑫ	-12.3718
ᒫᒨᔕᑭᓈ	-12.3718
ᑳᐅᒋᑎᐯᑖᑾᑭ	-12.3718
ᑳᐸᐹᒥᓭ	-12.3718
ᐎᑰᒋᑲ	-12.3718
ᓵᓵᑭᒋᓂᔕᐙ	-12.3718
ᐸᑫᐎᓈ	-12.3718
ᐸᑲᑲᒥᑳ	-12.3718
ᐅᔥᑲᐱᓅᒌᔕ	-12.3718
ᒪᒪᔦ	-12.3718
ᐊᑲᑌᑕ	-12.3719
ᐯᔭᑕ	-12.3719
ᐙᓭᔥᑳᑯᐙ	-12.3719
ᑴᑭᑳᐸᐎᑕᐙ	-12.3719
ᑭᑎᐯᒋᑫᒥ	-12.3719
ᒋᐙᑲᐎ	-12.3719
ᒣᓬ	-12.3719
ᑭᑆᐸ	-12.3719
ᓈᓈᑲᒋᐃᑎᓱ	-12.3719
ᑭᒋᓅᒋᐋ	-12.3719
ᐯᑌᓈᑾᓂᓂ	-12.3719
ᑮᐙᐱᐗ	-12.3719
ᑳᓵᑭᐐᒌᐗ	-12.3719
ᐎᔮᐱᓯ	-12.3719
ᐅᒫᓇᒑᓂᔑᒥ	-12.3719
ᐁᐙᐱᔥᑭᓯ	-12.3719
ᐐᒋᓂᐴᒫ	-12.3719
ᐹᑭᓂᑳᑌ	-12.3719
ᑮᐊᐱᐗ	-12.3719
ᐅᔑᐲᐋ	-12.3719
ᐅᑮᒥᓄᑕᐙ	-12.3719
ᐅᑑᐱᓯᑲ	-12.3719
ᑳᑮᒪᓯ	-12.3719
ᑫᑮᑖᐌᑕ	-12.3719
ᒨᔥᑭᓀᔥᑳᑰ	-12.3719
ᓂᓯᑖᐎᓈ	-12.3719
ᐁᑮᒫᓈᐸ	-12.3719
ᒦᑭᐙᓂᐎ	-12.3719
ᐸᒦᑕᐙ	-12.3719
ᑾᔮᒋᑕᒫᓱ	-12.3719
ᓵᑭᒋᐌᐱᓂᑲᓂᐎ	-12.3719
ᐁᐐᑎᑫᐋ	-12.3719
ᑮᐌᐱᒫᑎᓯᐋᓯᐎ	-12.3719
ᑳᑕᓱᐃᔑᓈᑯᓯ	-12.3719
ᒪᐗᑎᔑᐌ	-12.3719
ᐅᐗᑌ	-12.3719
ᐙᓵᑯᓇᐌ	-12.3719
ᐌᒥᑮᐙᐱᓀ	-12.3719
ᑮᐃᔑᓈᑾᓅ	-12.3719
ᒋᐅᒋᑲᔥᑭ	-12.3719
ᓂᓯᑐᑖᑯᓰ	-12.3719
ᐱᒥᐸᑑ	-12.3719
ᓇᓃᓵᓀᑖᑾ	-12.3719
ᐙᑳᑳᐸᐎ	-12.3719
ᑳᑭᑎᑳᑌᓂ	-12.3719
ᑮᓅᑖᑎᓰᐗ	-12.372
ᑳᐸᐎᑕᐎ	-12.372
ᑭᐱᔥᑳ	-12.372
ᒥᓉᑕᒥᐋ	-12.372
ᒌᑭᑳᐸᐎ	-12.372
ᑭᑭᑭᔥᑭᑲᓂ	-12.372
ᓃᓴᔭᐄ	-12.372
ᔑᑕᑯᐐᒌᐙ	-12.372
ᑯᑌᓂᒫᓰ	-12.372
ᑭᐱᔥᑲᐎ	-12.372
ᑳᑮᐅᔑᐃᑯ	-12.372
ᐱᒥᔑᒫᐙ	-12.372
ᑳᐅᓈᐯᒥᓯ	-12.372
ᓂᔑᐗᓈᒋᐃᑎᓱ	-12.372
ᑯᑌᓂᒥ	-12.372
ᑭᓵᑭᐃᑯᐙ	-12.372
ᒋᐅᓇᔓᐙᓇ	-12.372
ᒨᔥᑭᓀᐸᑑ	-12.372
ᐅᓰᑲᐊᑖᑫᐎ	-12.372
ᐐᒋᑲᑭᑑ	-12.372
ᓂᑎᓉ	-12.372
ᓈᐱᔥᑲᐎ	-12.372
ᑕᓇᒥᐋᐎᓂᓈ	-12.372
ᐋᐸᐙᐙ	-12.372
ᑳᑮᐃᔑᐲᐊᒪᐎ	-12.372
ᓇᓈᑕᐙᐸᒫᐙ	-12.372
ᑭᑕᑭᓱ	-12.372
ᐅᑖᐱᓇᒫᑫ	-12.3721
ᑳᑑᒋᑲᓂᐎ	-12.3721
ᐁᑮᒥᑲᐎ	-12.3721
ᒫᒪᑳᑌᑖᑾ	-12.3721
ᑕᐅᒋᑭᑫᓂᑎᓱ	-12.3721
ᑎᐹᒋᒧᐎᓂᓂᐗ	-12.3721
ᒋᐐᑕᒪᐎᒪ	-12.3721
ᐯᔑᑴᐙ	-12.3721
ᐁᑮᐃᓇᓅ	-12.3721
ᑯᓯᑾᓂᓂ	-12.3721
ᐊᑕᐌᓂᒪ	-12.3721
ᐗᓂᔑᒥᑯ	-12.3721
ᑳᑮᐃᔑᓂᑳᓂ	-12.3721
ᐐᑕᓄᑮᒥᑯᐙ	-12.3721
ᑕᐗᑌ	-12.3721
ᑎᐸᐊᒫᑯᐙ	-12.3721
ᑭᐐᐙᐸᑕᐃ	-12.3721
ᓵᑭᓯᑑ	-12.3721
ᐁᐐᑎᑫᓯ	-12.3721
ᓂᐐᑕᔑᑕᒧᐙ	-12.3722
ᐅᓇᓵ	-12.3722
ᑎᐸᐃᑫᑕᒪᐙ	-12.3722
ᑾᔭᑾᒧ	-12.3722
ᐃᓀᑕᒧᐎᓂᐙ	-12.3722
ᔔᓂᔮᐗᓯ	-12.3722
ᑕᑕᑯᑳ	-12.3722
ᑲᓇᐌᑖᑯᓯ	-12.3722
ᒫᒪᐎᐃᑎ	-12.3722
ᐅᒋᐱᓂᑯ	-12.3722
ᐗᓂᑭᑭᓄᐊᒫᑫ	-12.3722
ᑮᑭᒋᐱᓱ	-12.3722
ᒦᑭᐙᓂᐗ	-12.3722
ᐅᑲᒀᑕᑭᑑᐎᓂ	-12.3722
ᐅᒋᑭᑫᑖᑾᓂᓂ	-12.3722
ᐁᑮᐃᔑᐊᓄᑮ	-12.3722
ᑳᐃᔑᐲᐊᒪᐎ	-12.3722
ᒪᔥᑲᐎᑌᐁᐋ	-12.3722
ᐗᓯᑖᐌ	-12.3722
ᐸᐯᒌ	-12.3722
ᐹᑭᓇᒪᐎ	-12.3722
ᑭᒌᑫᑕᒧᐎᓂ	-12.3722
ᐅᐸᑴᔑᑲᓂᒥ	-12.3722
ᐅᑭᑭᓄᐃᑫᐎᓂ	-12.3722
ᑭᑕᔨ	-12.3722
ᒨᔑᑑ	-12.3722
ᒥᑖᐗᑳ	-12.3722
ᓈᐱᒋᑫᐙ	-12.3722
ᓈᑕᒫᓱᔮ	-12.3723
ᓈᑯᑖᐗ	-12.3723
ᒋᐅᑎᓂ	-12.3723
ᑎᓈᒋᒧᐎ	-12.3723
ᒋᑎᐸᐊᒪᐗ	-12.3723
ᑭᒪᔥᑲᐎᓰᐎᓂ	-12.3723
ᑭᔑᐹᔥᑳ	-12.3723
ᑲᔥᑭᐋᓯᐙᐙ	-12.3723
ᑮᐯᑳᐹᐗᒋᑳ	-12.3723
ᒥᓍᐸᒥᑯᓰ	-12.3723
ᓂᔥᑮᔑᑯ	-12.3723
ᐊᓇᒥᐁᓂᑲᒧ	-12.3723
ᐙᑌᓇᒫ	-12.3723
ᑮᓂᑭᐲ	-12.3723
ᑫᒪᓂᔑᑳᑌ	-12.3723
ᑎᐹᑯᓂᑰᔭ	-12.3724
ᑭᒥᐗᓯᓂᓂ	-12.3724
ᐁᑮᐊᔮᓯᐙ	-12.3724
ᑭᑕᒑᑯᓈᓂ	-12.3724
ᒦᑴᒋᐌᑕᒧ	-12.3724
ᐃᔒᑭᓄ	-12.3724
ᐯᔭᑌᓈ	-12.3724
ᐁᑭᒋᑭᔒᐌ	-12.3724
ᓇᓈᐱᓇᐙᑫ	-12.3724
ᓂᑮᐅᓀᓂᒥ	-12.3724
ᐎᑎᐸᐊ	-12.3725
ᐲᑎᑫᔥᑲᐙ	-12.3725
ᐁᐅᑕᓄᑮᐋᑲᓂᒥ	-12.3725
ᐐᔖᒥ	-12.3725
ᑫᐅᒋᐱᓱᑫᔑ	-12.3725
ᐁᑑᑕᒧᐗ	-12.3725
ᑳᐱᐅᑕᑳᓀᓯ	-12.3725
ᓄᑮᑕᐙ	-12.3725
ᑾᐃᑫ	-12.3726
ᑳᐃᔑᔭᔮ	-12.3726
ᑭᑮᑲᓇᐌᑖ	-12.3726
ᒋᐅᑕᓄᑮᐋᑲᓂᒥ	-12.3726
ᐸᐸᑭᑌᐅᑯ	-12.3726
ᑮᐃᓇᑭᑌ	-12.3726
ᐅᑖᑯᓯᐎ	-12.3726
ᑭᓅᑖ	-12.3726
ᓇᑲᓂᓯᓅ	-12.3727
ᑕᒀᑲᒥᓂᑳᑌ	-12.3727
ᑕᑯᐱᓈ	-12.3727
ᑲᑮᑖᐗ	-12.3727
ᐊᑭᐌᓯ	-12.3728
ᐁᐐᐋᐸᒋᐃ	-12.3728
ᒋᐅᒋᐅᑖᐱᓂᑳᑌ	-12.3728
ᐅᑲᔥᑭᑑᓈᐙ	-12.3728
ᑮᑭᑐᐎᓂᐙ	-12.3728
ᑲᔕᐌᓂᒥᑰ	-12.3728
ᐗᐌᔑᐅᐙᑫ	-12.3728
ᑭᒋᐸᐸᑭᓀ	-12.3728
ᒥᑴᑖ	-12.3729
ᑮᐋᓇᐌᑖᑯᓯ	-12.3729
ᐱᓂᔅᑴᐊᔮ	-12.3729
ᐊᒀᑕᐌ	-12.3729
ᐱᔑᔑᒀᓂ	-12.3729
ᐅᐱᔑᒀᑎᓰ	-12.3729
ᑮᐅᑯᓯᓯᒫᐎ	-12.3729
ᑕᑖᑯᑳ	-12.3729
ᑳᑮᐃᔑᐊᔓᑕᒪᐎ	-12.3729
ᑮᑭᒋᒫᒪᑳᑌᑕ	-12.3729
ᑮᐅᒋᐸᑫ	-12.373
ᐁᔖᐙᑎᓯ	-12.373
ᑲᓇᐌᓂᒪ	-12.373
ᐁᓇᑭᒥ	-12.373
ᔮᓇᐌᓂᒫᐙ	-12.373
ᒣᒀᔥᑲᐙᐙ	-12.373
ᓴᓇᑭᓯ	-12.373
ᓃᔓᑮᔑ	-12.373
ᔂᓬᐊ	-12.373
ᐌᔮᔑ	-12.373
ᑕᒨᑴᑕ	-12.3731
ᑕᓅᑕᔮᐹᑴ	-12.3731
ᑕᐱᓇᐎ	-12.3731
ᒥᒋᐯᔑᑾᓂᓂ	-12.3731
ᐊᐗᔑᒣᐌᑖᑾᓂᓂ	-12.3731
ᐁᔑᑌᐺᔦᑕᒪ	-12.3731
ᐅᑎᓀᑖ	-12.3731
ᓇᐃᓂᑫᐎ	-12.3731
ᑕᐸᓴ	-12.3732
ᔖᐳᓂᑲ	-12.3732
ᐸᑾᐊ	-12.3732
ᐅᒋᒪᔥᑲᐌᑕᒫ	-12.3732
ᑭᑮᒪᒋᑑᑕᐎ	-12.3733
ᐅᑎᓇᒫᓱ	-12.3733
ᐅᑌᓈ	-12.3733
ᐃᔑᐲᐊᒪ	-12.3733
ᐸᔭᑌᓈᑾᓂᓂ	-12.3733
ᑲᔥᑭᒋᑫᒪᑲᓂᓂ	-12.3734
ᐃᓇᓯᓇ	-12.3734
ᐁᐐᓈᑕᒪᐎ	-12.3734
ᓂᑰᒋᑲᓂ	-12.3734
ᐁᔥᒀ	-12.3734
ᑎᑯᐎ	-12.3735
ᓂᑮᐃᓀᑖ	-12.3735
ᐗᐗᓃ	-12.3735
ᒋᐅᒋᑾᔭᑾᑭᒥ	-12.3736
ᒫᓀᓂᑎᓱ	-12.3736
ᔔᓂᔮᐗᓯᓃ	-12.3736
ᒫᒥᑴᑖ	-12.3736
ᑭᑎᒫᑫᓂᒫ	-12.3736
ᓂᐐᒋᐅᑌᐺᑕᒨ	-12.3737
ᐱᐅᔑᓯᑑ	-12.3737
ᐅᓴᑲᐅᓈ	-12.3737
ᐋᐱᑕᑮᔑᑲ	-12.3737
ᑾᔭᑴᓂᒫ	-12.3737
ᔥᑫᑕᒧᐎ	-12.3737
ᒨᔥᑭᓀᔥᑳᑯᓈᐙ	-12.3738
ᐸᔥᑴᑭᓄᐊᑑᐹ	-12.3738
ᓂᑎᓱᓯ	-12.3738
ᐅᑑᑌ	-12.3738
ᓂᓇᑕᐌᓂᒫᓰ	-12.3738
ᓂᑮᑭᒋᐊᓄᑮ	-12.3738
ᑕᑆᑕᐐ	-12.3739
ᐋᔩᒋᒥᒋ	-12.3739
ᓂᑫᑌᔭᐋᒥᓈᐸ	-12.3739
ᒋᐲᑾᐊ	-12.3739
ᓂᔀ	-12.3739
ᐲᑎᑳᑯ	-12.3739
ᐁᐅᓵᒦᓄ	-12.3739
ᐁᐙᓰᑴ	-12.3739
ᐁᐸᐹᒧᓭ	-12.374
ᐁᓅᑕᔮᐹᑴ	-12.374
ᐁᐅᔫᓯ	-12.374
ᒋᑌᐱᓂᑯ	-12.374
ᑳᑮᐃᓈᐱᓀ	-12.374
ᑳᓃᑳᓂᓰᑲ	-12.374
ᐅᑭᑫᑕᒫᐎᓂ	-12.3741
ᐁᑲᓇᐌᑕᒧᐗ	-12.3741
ᑲᓅᒋᑫᑕᒫᑯ	-12.3741
ᑲᑮᓇᐎᔥᑳᒋ	-12.3741
ᑮᐸᔑᐸᐙ	-12.3741
ᒋᐐᒋᐃᑯᔮ	-12.3741
ᐱᐴᓂᔑ	-12.3741
ᑫᑌᔭᐄ	-12.3741
ᑳᐅᒋᑲᒀᑕᑭᑑᔮ	-12.3742
ᐅᑎᔑᑲᓅᓈ	-12.3742
ᑮᓇᓈᑐ	-12.3742
ᑭᑫᑖᑾᓯᓂᓂ	-12.3742
ᒥᑲᐎᓄᑖ	-12.3742
ᓈᑐᑌ	-12.3743
ᑭᑮᑮᔖᒋ	-12.3743
ᓵᒥᔥᑳᑯ	-12.3743
ᓀᐱᒋᐊᔮᓂ	-12.3743
ᓇᑲᒌ	-12.3743
ᐅᒪᑭᓯ	-12.3744
ᑫᔑᒥᓍᐸᑕ	-12.3744
ᐅᐐᒌᐙᑲᓇ	-12.3744
ᐅᑮᔥᑭᔑᑲ	-12.3744
ᑭᐸᑭᑎᓇᒫᑰ	-12.3744
ᓈᑕᒫᑫ	-12.3744
ᐅᒥᓴᐌᑕᒧᐎ	-12.3745
ᓂᑭᒋᐊᔭᐋᒥᓈ	-12.3745
ᐸᑭᑎᓇᒫᑰᔦ	-12.3745
ᐅᑮᓇᑭᔥᑳᑰ	-12.3745
ᐁᑮᓇᓃᓵᓀᑕ	-12.3746
ᑭᑖᑲᔥᑭᑑᓰ	-12.3746
ᐁᑮᐅᑸᓄ	-12.3746
ᑕᑯᓂᑲᓂᐎ	-12.3746
ᑭᑮᐐᑕᒫᑰ	-12.3746
ᐅᑎᓇᒧ	-12.3746
ᑮᐋᓇᐌᓂᒫᐙ	-12.3746
ᒋᐐᑕᐱᒥ	-12.3747
ᑾᔮᒋᑑᔮ	-12.3747
ᑭᑲᑭᑭᓄᐊᒫᑯᐙ	-12.3747
ᐙᐸᑕᐃᓇᑰ	-12.3747
ᐐᓴᑫᑖᑾ	-12.3748
ᑭᓇᑕᐌᓂᒫᓯᐙᓈ	-12.3748
ᑕᑭᑫᑖᑾᓯᓅ	-12.3748
ᐆᑌᓈᐎᑭᒫ	-12.3748
ᒋᐃᔑᐐᑑᑳᓱ	-12.3749
ᑮᐊᔨᓈᐙ	-12.3749
ᑳᑮᐅᑯᓯᓯᒥᑯ	-12.3749
ᐁᑌᐺᑕᒫ	-12.375
ᐐᒋᐙᑲᓇ	-12.375
ᑳᐃᔑᓇᐃᓂ	-12.375
ᐗᔦᔑᐃᐌ	-12.375
ᓇᑕᐌᓂᒫᓯᐙᓈ	-12.3751
ᐁᑲᓇᐙᐸᒥ	-12.3751
ᐐᒋᑭᐌᔨᒫ	-12.3751
ᒋᑳᑌᓯᓂᓂ	-12.3751
ᓈᕒ	-12.3751
ᓇᐁᑖ	-12.3751
ᒥᓄᐳᑾ	-12.3751
ᐅᔔᒥᓈᐴ	-12.3752
ᐅᑆᓇᐎᑑ	-12.3752
ᓀᒋᑳᑌ	-12.3752
ᑳᐃᔥᑯᓭ	-12.3752
ᑌᐱᓇᐌ	-12.3753
ᑮᔥᑭᑲ	-12.3753
ᓰᕒᐋ	-12.3754
ᐃᓇᔓᑕᒪᐎ	-12.3754
ᐯᔑᑯᑮᔑ	-12.3754
ᐊᐸᐱ	-12.3754
ᐸᐹᑭᑭᓄᐊᒫᑫ	-12.3754
ᒑᑳᑭᓱ	-12.3755
ᐊᓇᒥᐁᑕᒪᐙ	-12.3755
ᒪᓯᓂᔑ	-12.3755
ᑳᑮᓂᑖᐎᑭᐋ	-12.3756
ᑲᑴᑲᔥᑭᒥ	-12.3756
ᐊᓯᑰ	-12.3757
ᐸᔥᑯ	-12.3757
ᐁᑮᐅᑎᑎᓈ	-12.3757
ᑭᐙᐱᓰ	-12.3757
ᑳᒫᐗᒋᐊᓇᒥᐋ	-12.3757
ᐁᐗᑫ	-12.3757
ᑳᔑᑭᑭᓄᐊᒪᐎ	-12.3758
ᑭᓯᓀ	-12.3758
ᑯᔥᑯᐎᓂᑯ	-12.3758
ᐁᔑᓯᑌᑳᐸᐎ	-12.3758
ᒋᐸᑭᔑᓯ	-12.3758
ᒋᐐᑑᑲ	-12.3759
ᑕᑯᑮᐎ	-12.3759
ᐅᑑᓇᔓᐌᐎᓂᓃᒥ	-12.3759
ᐃᔅᕒᐃᔭᓬᐃᓂᓂᐗ	-12.3759
ᐅᕒᐆᐸ	-12.3759
ᒋᐃᓈᐸᑎᓯ	-12.3759
ᑭᑭᓄᐊᒪᐙᓯᐎ	-12.3759
ᒪᒐᑭᒫ	-12.376
ᑳᐅᒋᑫᒋᓈᐅ	-12.376
ᓬᐃᐱᔭ	-12.376
ᑆᑕᐐ	-12.3761
ᑾᔭᑴᑖ	-12.3761
ᒋᑭᑌᑖᑯ	-12.3762
ᒥᓴᐎᓇᒫᑫ	-12.3762
ᐁᔑᐊᑕᐌᑕᒫ	-12.3762
ᔮᑐᑌ	-12.3763
ᑳᐐᐱᑕᑯᔑᓅᒪᑲ	-12.3763
ᐅᑎᔑᐋ	-12.3763
ᑫᓃᑳᓂᓯ	-12.3763
ᐁᑮᒪᒫᒋᑯ	-12.3763
ᔥᑯᓯᐗ	-12.3764
ᑐᑫᓇ	-12.3764
ᑮᐗᓂᔥᑳᐗ	-12.3764
ᑳᑮᐃᔑᒪᒫᔒ	-12.3764
ᑌᐯᓂᒥᑯ	-12.3764
ᐐᒋᐊᔮᒥᑯ	-12.3764
ᐱᓯᑖᑯᓰ	-12.3765
ᑭᑖᐸᑕ	-12.3765
ᑳᐃᓈᒋᒧ	-12.3765
ᒌᑫᑕᒣ	-12.3766
ᐃᓇᑭᑌᓯ	-12.3766
ᐅᒋᐊᓄᑮᒪᑲᓂᓂ	-12.3767
ᐊᔦᑯᓯ	-12.3767
ᒋᓂᑖᐎᑭᓈᐗᓱ	-12.3767
ᒋᒫᒫᑕᐆ	-12.3767
ᒋᓅᑖᑎᓯ	-12.3768
ᐁᑮᒪᒫᒋᑾᐱᓂ	-12.3768
ᐁᑮᐗᓂᒋᑫ	-12.3768
ᐅᑮᐅᓀᑖ	-12.3768
ᐅᔑᒥ	-12.3768
ᑭᑭᔐᒪᓂᑑᒥ	-12.3769
ᐁᑮᐃᔑᓂᐳ	-12.377
ᐅᒥᓄᒋᑫᐎ	-12.377
ᑭᑮᐙᐸᒥ	-12.377
ᑲᒀᑕᑭᐃᑰᔭ	-12.3771
ᒥᒋᒦᓈ	-12.3771
ᐁᓈᑎᓯᔮ	-12.3771
ᑲᒀᑕᑭᐃᑰ	-12.3772
ᒋᐋᐸᒋᐃ	-12.3772
ᒫᒌᔥᑳᒪᑲᓂᓂ	-12.3772
ᐁᑌᐺᐗᓂᓂ	-12.3773
ᑭᑲᐙᐸᑖ	-12.3773
ᑳᔑᑭᑫᓂᒥ	-12.3773
ᐁᑮᓇᓈᑐᓀ	-12.3773
ᑭᑮᓂᓵᐙ	-12.3773
ᑖᐃᓈᐸᑕᓯ	-12.3774
ᑭᑲᐃᔑᒋᑫᓰ	-12.3774
ᒋᐃᓇᓄᑮᔮ	-12.3774
ᑳᔔᒥᓂᐗ	-12.3774
ᑕᒪᒥᔑ	-12.3774
ᑳᐋᓇᐌᓂᒫ	-12.3775
ᑳᑮᐃᔑᓵᑭᐃ	-12.3775
ᑳᑕᓇᑖ	-12.3776
ᐸᒦᑕᐎ	-12.3776
ᐁᓵᑭᐊ	-12.3776
ᑕᔑᑕᒧ	-12.3776
ᑫᐱᒥᐎᓈ	-12.3777
ᑳᔑᑎᐯᑖᑯᓯ	-12.3777
ᑮᔑᑾᑳ	-12.3777
ᑌᒧ	-12.3778
ᒋᒪᒦᒀᓂᑎᓱ	-12.3778
ᐸᑭᑎᓂᑲᓂᐎ	-12.3779
ᐁᐐᒦᑭᐌ	-12.3779
ᐁᑮᒫᒌᐸᐃᐌ	-12.3779
ᐱᓯᑌᐱ	-12.3781
ᑮᒪᒋᑑᑕᓰ	-12.3781
ᒋᐐᓴᑳᐱᓀ	-12.3781
ᑎᐸᐃᑲᓈ	-12.3782
ᐁᑮᑆᓇᐎᒋᑫ	-12.3782
ᒥᓍᐸᒫ	-12.3783
ᐁᔑᒥᓴᐌᑕᒫ	-12.3783
ᑲᓅᓂᑎᐗ	-12.3783
ᐙᐸᒧ	-12.3783
ᐁᐲᑖ	-12.3783
ᐁᒪᒑᑎᓯ	-12.3783
ᒋᐸᑕ	-12.3784
ᑭᒋᐅᔑᐲᐃᑲ	-12.3785
ᐲᐃᑲ	-12.3785
ᑳᐅᒋᑮᑭᑐ	-12.3785
ᒋᐐᒋᐊᔮᒥ	-12.3785
ᒋᐅᑖᐱᓇᒪᐎ	-12.3787
ᑎᔑᐃᑰᐎ	-12.3787
ᐁᑭᒋᓅᑎ	-12.3787
ᐌᒋᑑᑕᒫ	-12.3787
ᑭᑎᒫᑭᓈᑯᓯ	-12.3788
ᐅᑲᑎᐯᓂᒫ	-12.3789
ᑳᑮᑭᑐᔮ	-12.379
ᒋᐅᒋᑭᑫᓂᒥ	-12.3791
ᓇᐄᑭ	-12.3791
ᐸᐹᑲᑮᑴ	-12.3792
ᑭᑮᐃᔑᐱᒫᑎᓯ	-12.3793
ᒋᐅᑎᓵᐸᑕ	-12.3793
ᐊᔕᑎᓱ	-12.3793
ᒋᐅᒋᐐᓯᓂ	-12.3794
ᐐᑭᑑᐎ	-12.3794
ᐸᓯᑸᐋ	-12.3794
ᒋᐸᐹᐐᑕᒫᑫ	-12.3794
ᒋᑑᑕᒧᐗ	-12.3795
ᒋᑭᑭᓇᐙᑕᔕᑫᔑᑲᓂᐎ	-12.3796
ᓵᑭᐃᐌᔭ	-12.3797
ᑳᐊᔨᔑᑖ	-12.3797
ᑳᐱᔅᑲᓀ	-12.3797
ᑳᐹᐹᐗᐃᑫ	-12.3797
ᑳᐅᐱᓯᑲᓂᐎᓯ	-12.3797
ᐁᐋᐌᒋᑫ	-12.3797
ᑕᓅᑖᑾ	-12.3798
ᒋᓵᑭᒋᐌᐱᓈ	-12.3798
ᓈᓈᑲᒋᑑ	-12.3798
ᑳᔑᒫᐗᒋᐃᑎ	-12.3798
ᐅᑎᔑᐌ	-12.3798
ᐅᒋᒋᐗ	-12.3798
ᐋᔑᑌᔮᑎᑰ	-12.3801
ᑳᑮᐃᓍᓂᑎᓱ	-12.3802
ᐌᒋᐙᐱ	-12.3803
ᑳᐊᒑᑯᐌᑖ	-12.3805
ᐃᓇᑭᒥᑯᓰ	-12.3805
ᐊᑖᐌᐎᑲᒥᑯᑫ	-12.3806
ᑳᑮᐅᒋᑲᔥᑭᑑ	-12.3806
ᑭᑎᒀ	-12.3807
ᒋᐅᑖᐱᓇᒣ	-12.3807
ᐁᐐᓈᑯᑑ	-12.3807
ᐁᑭᑭᔥᑲᐗ	-12.3807
ᒋᑾᔭᒀ	-12.3807
ᒋᐐᑕᒫᑫᔭ	-12.3808
ᒋᑎᐹᑯᓂᑲᓂᐎ	-12.3808
ᐅᑮᓇᓈᑯᒫ	-12.3808
ᒥᑎᑐ	-12.3808
ᒋᓂᔑᐗᓈᑕᓯᓄ	-12.3808
ᒪᐎᒥ	-12.3809
ᑎᐯᑕᓰ	-12.3809
ᐃᓀᑖᑯᑑ	-12.3809
ᑳᑕᓯᓂᓂ	-12.3809
ᐅᑕᔕᒫ	-12.3809
ᓵᒐᓰᐗ	-12.381
ᑳᐃᔑᑖᓂᐗ	-12.3811
ᑮᔑᓭ	-12.3811
ᐱᒥᐊᔮᔮ	-12.3811
ᑳᑮᐗᓂᔑ	-12.3812
ᐋᔅᑯ	-12.3812
ᐁᑲᒀᑕᑫᑕ	-12.3812
ᑭᑎᐯᓂᒥᑯᓰ	-12.3812
ᐁᑌᐺᐎᓂᐎ	-12.3813
ᒋᐸᑭᒌᓯ	-12.3814
ᑳᐃᔑᑲᒀᑕᑭᑑᔮ	-12.3814
ᑭᓰᔮᐹᐗᓱ	-12.3815
ᐅᑮᐃᔑᓂᑳᓈ	-12.3816
ᑳᑮᒫᒋᓂᔕᐅ	-12.3817
ᑲᑮᐹᑎᓯᔦ	-12.3817
ᑭᑎᓄᐎᓰ	-12.3818
ᓭᓴᑰᒋ	-12.3819
ᒋᐅᓇᔓᐙᓱ	-12.382
ᐁᑑᒋᑳᑌ	-12.3821
ᐁᑮᐗᓂᔑ	-12.3821
ᑕᑯᔑᓄ	-12.3821
ᑭᑕᐯᓂᒧᓄ	-12.3822
ᒋᐅᒋᑲᒀᑕᑭᑑ	-12.3822
ᐆᑌᓇᐎ	-12.3822
ᑕᓅᑌ	-12.3823
ᐁᔑᐊᐯᓂᒧ	-12.3823
ᒋᑑᑕᐎᔭ	-12.3825
ᒋᐊᓄᑮᑕᐗ	-12.3826
ᑳᑮᐃᓂᓀ	-12.3826
ᑳᐐᒌᐎᓯ	-12.3827
ᐹᐱᓄᑕᐎ	-12.3827
ᑲᓇᐌᑖᑾ	-12.3828
ᑳᑮᒨᔥᑭᓀᔥᑳᑯ	-12.3828
ᑯᓀᐎ	-12.3828
ᔕᔒᐱᑖ	-12.3831
ᑳᑮᐊᑯᓴᑲᐅ	-12.3831
ᐅᔑᐲᐃᑳᑌᓯᓂᓂ	-12.3832
ᐐᑕᒫᑰᔭ	-12.3832
ᑳᑮᐊᐲᒋ	-12.3832
ᓇᑲᒋᑲᓂᐎ	-12.3832
ᐁᑮᔑᑭ	-12.3833
ᐁᔑᑭᑫᓂᒥ	-12.3835
ᐁᐊᓇᒥᐁᑕᒪᐎ	-12.3835
ᐊᓄᑮᒪᑲᓯᓂᓂ	-12.3837
ᑌᐺᔦᑖᑯᓯᔦ	-12.3838
ᓇᓈᑐᓀᐅ	-12.3839
ᑭᑭᓇᐙᐸᑕ	-12.3839
ᓈᐱᓈᑯ	-12.384
ᐅᑮᐅᓈᐸᒫ	-12.384
ᑭᑕᔮᓰ	-12.384
ᐅᑮᑭᑫᑕᓰ	-12.3841
ᑎᐯᑖᑯᓯᔮ	-12.3841
ᐅᑮᐋᓉᑕ	-12.3842
ᐁᒦᑳᑎ	-12.3843
ᐁᔑᐱᒫᑎᓯᔭ	-12.3844
ᑭᑮᐐᒌᐙ	-12.3845
ᑳᐃᔑᓈᑯᓯᔮ	-12.3845
ᐲᒋᑲᓂᐎ	-12.3846
ᑴᑖᑯ	-12.3848
ᑭᑎᔑᑎᐯᑖᑯᓯ	-12.3849
ᑳᐃᔑᐸᑭᑎᓈᓱ	-12.3851
ᑎᔑᐱᒫᑎ	-12.3853
ᐸᑭᑎᓂᓰ	-12.3856
ᐁᑮᐐᑕ	-12.3856
ᒪᒋᒥᓴᐌᑕᒧᐎ	-12.3857
ᐁᑮᐙᐸᒪ	-12.3858
ᔑᑲᓅᓂᑎᐙ	-12.3859
ᐅᑮᓅᑌ	-12.3861
ᑯᑌᐁ	-12.3861
ᑲᑴᓈᐱ	-12.3861
ᐱᔑᒀᒋᒋᑫᐎ	-12.3862
ᓅᑖᒥ	-12.3863
ᑭᑭᓄᐊᒫᑰᐎ	-12.3866
ᐊᔨᑖ	-12.3866
ᑕᐱᓅᒌᔑᒪ	-12.387
ᐁᐃᓈᐱᓀ	-12.3873
ᑭᑕᒫᑯᐙ	-12.3874
ᑭᑲᑭᑭ	-12.3874
ᐁᑮᓈᓈᑲ	-12.3875
ᓀᓂᑎᓱ	-12.3876
ᐁᑮᐋᐸᑕᓂᓂ	-12.3885
ᑳᐅᔫᓯᒫ	-12.3886
ᓂᑭᔐᒪᓂᑑᒥ	-12.3887
ᑮᒨᒋᒋᑫ	-12.3891
ᓂᐴᑕᒪᐙ	-12.3891
ᑮᓇᐗᑭ	-12.3892
ᑯᒋᑑ	-12.3894
ᐴᓂᒥ	-12.3896
ᐅᑖᐸᒋᑑ	-12.3899
ᑮᓂᔥᑭᐃᑯ	-12.3903
ᐋᑲᓇ	-12.3905
ᐃᓀᓂᒧ	-12.3915
ᑳᐅᑎᓇᒧ	-12.3918
ᐁᑮᑲᔥᑭᑑᓯ	-12.3921
ᐅᒋᒌᑾᓃᑕᐎ	-12.3922
ᒥᒋᐊᓄᑮ	-12.3923
ᓂᐳᓯ	-12.3929
ᒋᑭᑭᓄᐎ	-12.3934
ᓱᐎᑲᒥᑯ	-12.3935
ᑖᑑᑕᓰ	-12.3935
ᑭᑎᐸᐊᒫᑰᐎ	-12.3936
ᔕᔒᐱᑕᒧᐎᓂ	-12.3937
ᑑᑭᒫᒥᓈ	-12.3938
ᐴᓂᐱᒫᑎᓯ	-12.3939
ᒪᒫᑕᐎᒋᑫᐎ	-12.3941
ᓂᑮᐃᑯᓈ	-12.3942
ᐊᔕᒪ	-12.3945
ᑳᑮᐃᔑᐅᓇ	-12.3946
ᐁᐃᓇᑌ	-12.3946
ᓵᑭᐃᑰ	-12.3949
ᐗᓂᑑᑕᐎ	-12.395
ᑮᓅᑖᑳᓂ	-12.3961
ᐁᑮᓅᑕᒫ	-12.3962
ᐸᐹᐐᑕᒫᑫ	-12.3982
ᑲᔥᑭᐃᑯᓈ	-12.3984
ᓵᑭᒋᓂᔕᐊᒪ	-12.3988
ᑯᒋᐃᑰᐎᓯ	-12.399
ᐁᐗᐙᓀᑕ	-12.399
ᐱᒫᒋᑑ	-12.3992
ᐸᑯᓭᑕᒫ	-12.3992
ᑳᑮᐃᔑᑖᓂ	-12.3995
ᒋᐱᒫᒋᐃᑰ	-12.4002
ᑎᑎᐱᓈ	-12.4003
ᑭᑌᑖᑾᓂᓂ	-12.4003
ᑭᑖᐸᑎᓯ	-12.4006
ᒋᐲᑕᒪᐎ	-12.4007
ᑭᑖᓱ	-12.4009
ᒥᓍᒋᒥᑯ	-12.401
ᑲᐃᔑᐎᓂᑯ	-12.4011
ᐲᒋᐌᐱᓈ	-12.4011
ᑮᓅᑖᑎ	-12.4016
ᓈᐱᓈᑯᓯ	-12.4019
ᑕᑶᔑᓄ	-12.402
ᓇᐁᑕᒥᐋ	-12.402
ᑳᑕᓀᑖᑾ	-12.4021
ᓵᑭᒋᓂᔕᐅ	-12.4024
ᐗᑭᒋᐙᑳᐃᑲ	-12.4025
ᐃᓀᒋᑳᑌ	-12.4029
ᐐᒌᐎᑯᓰᓈ	-12.4032
ᐊᔓᑕᒪᐗ	-12.4039
ᒪᑗᔮᐲᑭᐱᒋᑲ	-12.4042
ᒋᓇᐃᑕᒧ	-12.4045
ᐐᑖᓈᐙ	-12.4047
ᓂᑖᐃᓈ	-12.4054
ᒫᒌᓂᔕ	-12.4055
ᑮᐸᑭ	-12.4057
ᑭᒋᐅᑭᒫᐗᐱᐎ	-12.4063
ᐁᐅᑎᓇ	-12.4066
ᓂᓯᑰᔮ	-12.4068
ᑮᐌᓄᑕ	-12.4069
ᒫᒌᑭᑭ	-12.4073
ᑲᑴᒋᐃᑰᐎ	-12.4073
ᒋᒥᓄᐊᔮᐃᐌ	-12.4075
ᐁᑭᒋᒪᐎ	-12.4076
ᔣᔂ	-12.4083
ᓂᐴᑕᒫ	-12.4083
ᑎᔑᐊᔮᐎᓂᐙ	-12.4093
ᐅᑖᐱᓇᒫᑯ	-12.4101
ᐅᓇᓯᑰ	-12.4106
ᒫᒑᒪᑲ	-12.4107
ᐁᐊᔕᐙᐸ	-12.4115
ᓂᑎᑰ	-12.4116
ᓂᑳᓱᓂ	-12.4123
ᐗᓃᑫᓄᑕᒧ	-12.4126
ᑳᔑᐐᒌᐎ	-12.4142
ᐋᒪᒋᐌ	-12.4151
ᑳᑮᐅᒋᓂᑖᐎᑭ	-12.4153
ᒋᐊᑕᐙᐸᒥ	-12.4165
ᑲᑴᒥᓄᒋᑫ	-12.4166
ᓅᑕᐎᔭ	-12.4167
ᑭᐐᐅᑖᐱ	-12.4168
ᓂᑮᐐᒌᐎᑯᓈ	-12.417
ᐸᑭᑎᓂᑯᓰ	-12.4171
ᐱᑕᑯᔑᓅᒪᑲ	-12.4175
ᒋᐃᓀᑖᑯᓯᔭ	-12.4185
ᒋᐊᓂᒥᓄ	-12.4186
ᒑᑭᓈ	-12.42
ᑕᑯᔑᓅᒫ	-12.4214
ᓈᑲᑕᐌᑕᒧ	-12.4221
ᓂᑎᔑᒋᑫᐎ	-12.4232
ᓂᓯᑐᑕᒪ	-12.4234
ᓇᔓᐌᐎ	-12.4235
ᐃᑭᑐᓈᓂᐗ	-12.4238
ᐲᓱ	-12.424
ᐸᑭᑎᓇᒫᑰ	-12.4241
ᑯᓈᓯ	-12.4243
ᐁᒫᒪᑳᑌᑕ	-12.4249
ᑴᑮᓄᑕ	-12.4265
ᒋᐐᑕᒪᐗ	-12.4275
ᒋᐅᑎᓇᒧ	-12.4291
ᐸᑭᑎᓂᑰᔭ	-12.4293
ᑫᑮᐃᔑᐱᒫᑎᓯ	-12.4312
ᑾᔮᒌᑕᒪ	-12.4314
ᐲᒋᓂᔕᐅᒥ	-12.4318
ᒋᑲᒀᑕᑭᐃᑯ	-12.4324
ᐁᑯᑲᔥᑭᑑ	-12.4332
ᑌᐺᔦᑕᒪ	-12.4334
ᑳᒪᔥᑲᐌᑖᑾ	-12.4335
ᐸᐹᔒ	-12.4344
ᔔᒥᓂᐗ	-12.4351
ᐃᔖᒪᑲᓂᓂ	-12.4352
ᐅᒋᒫᓀᑕᒣ	-12.4353
ᐯᔣᐸᑖ	-12.4354
ᐊᔮᐗᑭ	-12.4358
ᒥᓇᒀ	-12.4363
ᑳᑕᔑᓂᑖᐎᑭ	-12.4366
ᐐᓀᑖᑯᓯ	-12.4377
ᓃᐸᐎᐋ	-12.4387
ᓂᑎᓈᓈ	-12.4391
ᐅᒋᒥᓄᓭ	-12.4392
ᓂᒥᑰᓰ	-12.4394
ᐁᐋᐸᒋᑑᓯ	-12.4395
ᐁᑑᑕᒪ	-12.4416
ᐐᒋᑎᐯᒋᑫ	-12.4418
ᐸᒋᑑᓰᓈᐙ	-12.442
ᒋᑾᔭᑯᓇ	-12.443
ᑳᑮᐃᔑᒦᓂ	-12.4433
ᑭᑎᓇᐌᒫᑲ	-12.4439
ᑳᑮᓅᑕᐗ	-12.4451
ᒪᓈᐃᔑᒋᑫ	-12.4456
ᐃᔑᒦᓈᓰ	-12.4467
ᐅᓈᑲᑕᐌᒋᑲᓂ	-12.4488
ᒪᓂᑑᑫᐎ	-12.4494
ᒫᑕᑲᒥᑲ	-12.4505
ᑳᐱᐅᒋᐊᔮ	-12.4505
ᒋᑳᑌᓯᓄᑭ	-12.4514
ᔕᐌᓂᒥᐌ	-12.4536
ᐊᐌᒋᑫ	-12.4551
ᐯᑲᓂᓂ	-12.4559
ᑭᑭᓇᐙᐸᒥᔑ	-12.4571
ᑯᑭᑖᓱ	-12.4577
ᑮᔕᑭ	-12.4578
ᑭᑲᓇᐌᑕᐃ	-12.458
ᔕᔒᐯᑕᒧᐎ	-12.4591
ᑭᑖᐃᓈ	-12.4608
ᒥᑲᐙᓰ	-12.4614
ᓇᓄᑮᒪᑲ	-12.4625
ᑕᓱᑎᐸᐃᑲ	-12.4632
ᑴᑭᓈ	-12.4651
ᑖᐎᓂᓈᓂ	-12.4655
ᐐᒪᒦᒀᓂᑎᓱ	-12.4656
ᑭᒋᐊᓯ	-12.4658
ᐁᑮᐃᔑᓂᑳᑌ	-12.4664
ᐃᔑᓇᑲᑕᒧ	-12.469
ᐊᓇᒥᐁᐙᑎᓯᐎ	-12.4719
ᐅᒋᔥᑲᐗ	-12.4733
ᑳᑮᑭᑐᓯ	-12.4764
ᒋᒥᓄᐊᔮᐋ	-12.4773
ᑲᔥᑭᐁᐎᓯ	-12.4781
ᑕᒥᓉᑕᒨ	-12.4784
ᐎᑣᐸ	-12.4785
▁¦10	-12.4799
ᕒᐊᓬ	-12.48
ᑌᐱᓭᓰ	-12.48
ᒋᐐᒋᑳᑌ	-12.4804
ᑳᑮᐅᒋᓂᐳ	-12.4813
ᒫᒪᑳᑌᑕᒥ	-12.4827
ᐃᔑᓭᓯᓄ	-12.485
ᑭᑐᐎᓂᓂ	-12.486
ᐯᐸᑳᓂᑮᔗᐎ	-12.487
ᐐᒋᐃᑰᐎ	-12.4873
ᐋᑕᐌᐊ	-12.4878
ᐅᑮᓂᓯᑕᐎᓇᐙ	-12.4878
ᑮᐃᔑᐊᓄᑮᒪᑲ	-12.4884
ᓂᑮᐐᒋᐃᑯ	-12.4891
ᑭᑮᑎᐸᐅᑯ	-12.491
ᐐᒥᒋ	-12.4913
ᐃᔑᒥᔕᑳ	-12.4913
ᒪᒋᓈᑾᓂᓂ	-12.4918
ᑾᔭᑾᓂᓂ	-12.4925
ᐊᑰᓯ	-12.4939
ᐊᔨᓀᑕ	-12.4948
ᐃᔑᐅᑖᐱᓂ	-12.4955
ᑭᒋᒪᔥᑲᐌᑖᑯᓯ	-12.4969
ᒋᐱᒫᑎᓯᓯ	-12.4976
ᐁᑮᐊᑕᐙᐸ	-12.4978
ᐅᑲᓵᑭᐋ	-12.4981
ᐃᔑᐅᐱᔥᑳ	-12.4982
ᐅᑮᐅᒋᐋ	-12.4985
ᑎᔑᐃᑯᓰ	-12.5001
ᐱᒥᔕᑳ	-12.504
ᑕᒫᓱᔮ	-12.5047
ᐋᑾᑭᑌᓂ	-12.5089
ᒥᓉᑕᒧᓈᓂᐗ	-12.5105
ᑎᐯᑖᑾᓂᓂ	-12.5114
ᓵᒥᓯ	-12.5115
ᐸᑯᓭᓂᒧᔮ	-12.5121
ᑕᓇᒥᐋ	-12.513
ᐊᑕᐌᑕᓰ	-12.5139
ᐱᓂᐸ	-12.5163
ᒋᐐᓯᓂᓈᓂᐗ	-12.5164
ᐁᔑᐯᐯᔑᑯ	-12.5173
ᒥᑯᓰᐙ	-12.5195
ᒋᐃᑰᔦ	-12.5201
ᑳᓂᑖᐃᔑᒋᑫ	-12.5223
ᐱᒥᓭ	-12.5244
ᑌᓯᓂᓂ	-12.5251
ᒦᑳᑎᓈᓂᐗ	-12.5257
ᑲᒥᔥᑳ	-12.5264
ᓈᐸᑕᓯᓄ	-12.5287
ᐅᑕᓄᑮᑕᐙ	-12.5287
ᑭᒋᐊᓄᑮᐎ	-12.5301
ᑮᐹᑭᓭ	-12.535
ᐱᔑᒧᓂ	-12.5353
ᑫᒋᓈᐅᐎ	-12.5372
ᑳᑎᓄᐎᓯ	-12.5393
ᐅᔥᑭᓃᑭᑴᐎ	-12.5408
ᐱᒫᒋᐃᑰᐎᓯᐎ	-12.5428
ᐁᑮᒫᓀᓂ	-12.5431
ᐅᒌᐱᑯ	-12.545
ᔑᐐᑑᑳᓱᔦ	-12.5455
ᓇᑭᓱᓰ	-12.5457
ᐊᓂᒪᒋᑑᑕ	-12.5474
ᑮᐃᑭᑐᓂᑯᐸ	-12.5528
ᓰᑲᑖ	-12.5532
ᑴᑳᑎᓯᐎ	-12.5549
ᒫᒪᑳᒋᒋᑫᓰ	-12.5572
ᐅᒌᒥᑯ	-12.5583
ᑳᑮᐃᔑᑭᑭᓄᐊ	-12.5585
ᑭᐸᑭᑎᓂᑫᐎ	-12.5612
ᐅᒦᑴᒋᐌᓂᒫ	-12.5612
ᒋᐃᔖᓯ	-12.5613
ᑮᐊᔨᓈᐱ	-12.5627
ᒥᓇᐃᔑ	-12.5632
ᒪᑲᓄᑴ	-12.5719
ᒋᐅᑑᑭᒫᒥ	-12.573
ᐃᓈᐸᑎᓯᓯ	-12.5736
ᓂᑭᑭᓄᐃᑫ	-12.5751
ᒋᐊᓄᑮᑕᐎ	-12.576
ᑳᑮᐅᑭᒫᑲᑕ	-12.5763
ᒋᓂᓵᐹ	-12.5765
ᑮᐅᒋᐌᓅᑎᓯ	-12.5774
ᒋᐗᑲᐎ	-12.5784
ᒋᐊᔮᒀᒥᒥ	-12.5793
ᐃᓇᑭᒫᓰ	-12.5793
ᔑᓈᑲᑕᐌᑕ	-12.58
ᑭᑮᑎᐯᓂᒥᑯ	-12.5815
ᑭᑖᐸᒋᑑ	-12.5825
ᒥᒋᒣ	-12.5859
ᐁᔮᓯ	-12.5887
ᑮᓈᑯᒋᑳᑌ	-12.5894
ᒋᐃᔑᒋᑫᑕᒪ	-12.5924
ᐃᔑᒨᒋᑫᑕ	-12.5928
ᑫᔑᓈᑾ	-12.5938
ᐹᐱᑲᐃᑳᑌ	-12.5957
ᑲᑴᐐᒋᐃ	-12.5968
ᐱᒋᑯᓇᔦ	-12.5971
ᒋᑲᓂᐎᓰ	-12.5974
ᐅᒋᐸᑭᒌ	-12.5997
ᐐᑕᐱᒥ	-12.6
3	-12.6014
ᐅᒋᒦᓂᑰᔮ	-12.6023
ᓂᑎᔑᓈ	-12.6027
ᓵᑭᐋᓈ	-12.6109
ᓂᐐᐃᔑᒋᑫ	-12.6115
ᐙᓭᔥᑳ	-12.6131
ᑮᑭᒋᔖᑯᐌ	-12.6153
ᑫᑑᑕᐗ	-12.6159
ᑭᒋᐌᓅᑎᓯ	-12.6167
ᑳᐋᑾᑭᑌ	-12.617
ᑭᒋᐅᑑᑭᒫᒥᐙ	-12.6219
ᐗᓈᐃᑯ	-12.6225
ᐅᑭᒫᐎᑲᒥ	-12.6226
ᐅᒋᑎᐯᑖᑯᓯᓰ	-12.6236
ᒋᐸᑣ	-12.626
ᓂᑮᒥᑳ	-12.6287
ᓂᒌᔭ	-12.6321
ᒥᑳᑰ	-12.6323
ᑭᑮᒥᓇᐃ	-12.6324
ᒥᓄᑑᑕᒧ	-12.6344
ᓂᑎᓇᑭ	-12.6349
ᑮᓇᑭᔥᑲ	-12.6365
ᐃᓈᓴᒥᑳᐸᐎ	-12.6391
ᑭᑎᔑᒋᑫᐎ	-12.6397
ᐁᑲᓇᐌᓂᒥᑯ	-12.6401
ᒥᓄᐐᒋᐃ	-12.6417
ᑭᑕᑭᑌᓂ	-12.6433
ᒥᔭᒥ	-12.6435
ᐃᔑᐸᒦᑖᑫ	-12.6447
ᑲᐎᔥᑳ	-12.6504
ᑕᐌᑖᑾ	-12.6529
ᐁᔑᐲᐃᑫ	-12.6537
ᓇᐌᑖᓈᐙ	-12.658
ᔖᑰᓱᒥ	-12.6596
ᑭᒋᑮᔑᑰ	-12.6701
ᐯᐯᔑᑯᔦ	-12.6715
ᐃᔑᐲᐃᑫ	-12.6744
ᐊᑲᐙᑌ	-12.6796
ᐊᓄᑮᑕᒫᓱ	-12.6803
ᑮᐃᔥᒀᐊᔮ	-12.6807
ᐃᓈᒋᒧ	-12.683
ᒋᑲᒀᑕᑭᐃᑰ	-12.6924
ᑌᐺᔦᓂᒥᒥ	-12.7004
ᑎᐹᑐᑖ	-12.7013
ᓈᑲᑕᐌᒋᑲᓂᐙ	-12.7017
ᑲᑴᒥᓄᑑ	-12.7115
ᐅᑲᔥᑭᐁᐎ	-12.716
ᒋᓈᑲᒋ	-12.7174
ᑮᐊᑕᐎᐃᑯ	-12.7213
ᐸᑯᐲᐸ	-12.7233
ᐃᔑᒋᑫᐃᑰ	-12.7293
ᐅᑕᓇᒥᐋᐎ	-12.7298
ᐁᐐᐃᔥᐯᓂ	-12.7324
ᐅᑕᒥᓭ	-12.733
ᑮᓃᔣᒋᓂ	-12.7344
ᑲᓇᐙᐸᑕᒧ	-12.7408
ᓂᑳᒋᑲᓂᐎ	-12.7426
ᐊᑕᐙᐸᒥᑰ	-12.7436
ᐁᐴᔔᐃ	-12.7438
ᑭᐌᓰ	-12.7445
ᓇᑴᔖᑯ	-12.7452
ᒋᔖᑰᒋᐃ	-12.7491
ᐸᑾᒋ	-12.7495
ᐃᔑᓂᔕᐊᒫᑯ	-12.7529
ᒪᒍᑌᐌᐱ	-12.7552
ᑳᑮᐅᓈᐸ	-12.7555
ᐊᐸᑭᓈ	-12.7574
ᐅᓂᔑᔑᓯᓄ	-12.7598
ᐗᓂᑎᐱ	-12.7598
ᔑᐊᑌ	-12.7622
ᑕᑾᑭᓱ	-12.7624
ᐁᑲᓅᒋᑫᑕᒪ	-12.7634
ᑳᔑᐐᑾᑎᐗᑲᒥ	-12.7643
ᒋᒪᒥ	-12.7709
ᐅᑲᑮᓇᐎᔥ	-12.7717
ᓈᑲᒋᑕᒫ	-12.7727
ᒥᓍᒋᒧ	-12.7748
ᓇᒥᐁᑖᑰ	-12.776
ᐅᑑᑭᒫᐎ	-12.7791
ᑳᓂᔑᐗᓈᒋᐃᐌᒪᑲ	-12.7838
ᒥᔕᑮ	-12.7858
ᑳᐃᓉ	-12.7898
ᐁᔑᓈᓈᑲᑕᐌ	-12.7909
ᐁᐋᑾᑭ	-12.7915
ᒋᐊᑐᒪ	-12.7917
ᐸᐊᒪᐙ	-12.7927
ᐊᔓᑕᒪ	-12.7929
ᐋᓍᐸᒫ	-12.793
ᐅᒋᒌᑾᓃᑖ	-12.7933
ᔒᐱ	-12.7938
ᒪᓯᓇᐃᑫᐎ	-12.7955
ᐅᑑᑭᒫ	-12.7963
ᑮᐃᓈᑯᐸ	-12.7995
ᓈᑎᓯᓰ	-12.802
ᐁᑲᔥᑭ	-12.8057
ᑖᑯᐃᑎᓱ	-12.807
ᒥᓄᑕᔑᒥ	-12.8133
ᒋᐅᒋᑭᑫᑕᒧ	-12.8148
ᑮᐋᓇᐌᓂᒥᑯ	-12.8163
ᒦᑴᒋᐎ	-12.8171
ᑲᒥᑭᐱ	-12.8171
ᑌᐊᐲᑌ	-12.8173
ᒪᑗᔮᐲᑭᐱᒋ	-12.8209
ᓂᓯᑐᑕᒧ	-12.823
ᐲᑕᒪ	-12.8241
ᒪᒫᑖᐎᒋᑫ	-12.8246
ᐗᐙᓀᑕᒧ	-12.8249
ᓂᔕᐊᒪᐙᐙ	-12.8258
ᑳᑕᓀ	-12.826
ᑲᑴᑲᔥᑭ	-12.8262
ᑕᐌᓂᒫᓰ	-12.8291
ᒪᒋᑮᔣ	-12.8299
ᐃᔑᑲᔥᑭᐃᑯ	-12.8304
ᓃᓯᐌᐱᓈ	-12.8321
ᑑᒋᑳᑌᓂᑭ	-12.833
ᐊᐲᑌᑖᑯᓯ	-12.8332
ᐅᑭᒫᑲᑕᒥ	-12.8332
ᑳᔖᑯ	-12.8335
ᑕᓇᑲ	-12.8338
ᐁᔑᐊᑕᐌᓂ	-12.8339
ᓂᑲᐱᓈᓯᑳ	-12.8339
ᒪᒫᑕᐎᒋᑫ	-12.8363
ᔓᑕᒪᐎᓐ	-12.8364
ᐸᐲᒶᓯᓇᐃ	-12.8365
ᐁᑮᒫᒌᔮ	-12.8367
ᑭᑭᓄᐎᓂ	-12.8373
ᓈᓈᑲᑕᐌᓂᒪ	-12.8379
ᒋᓈᓈᑲᒋ	-12.838
ᐗᓄᑮ	-12.8382
ᐅᒦᑳᓱ	-12.8384
ᑌᐸᑫᓂᒧ	-12.8401
ᒋᒫᒥᑰ	-12.8401
ᐊᔓᑕᒫ	-12.8412
ᑲᑴᓃᑳᓀ	-12.8413
ᐊᑕᓇᑭᔥᑲᐙ	-12.8418
ᐸᑎᓯᓰ	-12.8432
ᐯᑭᐃᑰᐎ	-12.8434
ᓈᑲᑕᐌᑕᒧᐎᓂ	-12.8437
ᐃᑎᐎᓐ	-12.8439
ᑮᐋᒪᒋ	-12.845
ᒋᒫᒌᔥᑳ	-12.8455
ᑭᒋᑲᒀᑕᑭᑑ	-12.8455
ᑎᓰᑲᑕ	-12.8463
ᓂᒥᑯᓯ	-12.8465
ᑭᑌᑖᑯᓯ	-12.8468
ᓂᑕᐱᓅᒌᔑ	-12.8474
ᑲᑮᐹᓯᓈᑯ	-12.8477
ᐱᔑᒀᒋᒋᑫ	-12.8486
ᓇᑲᑕᒧ	-12.8495
ᐸᐹᐱᓯᔅᑫᑕ	-12.8496
ᓂᑑᓇᔓᐌᐎ	-12.8504
ᐁᑮᐋᐸᒋ	-12.8514
ᐁᒥᓍ	-12.8521
ᓂᐯᐎ	-12.8524
ᒫᑕᐆᓈ	-12.8526
ᑳᑭᑫᑖᑯ	-12.8527
ᑭᑲᐱᐅᑎᓯ	-12.8539
ᒪᒑᑎ	-12.8552
ᒋᓂᐴᒪ	-12.8553
ᑮᑭᓰᔮᐹᐗ	-12.8563
ᑮᐅᐱᒣᐌᐱᓇ	-12.8563
ᒋᓂᔕᐅᑯᐙ	-12.8566
ᑲᐎᔥᑲᐎ	-12.857
ᑌᑎᐸᐊ	-12.858
ᐅᒑᓂᒥ	-12.858
ᐊᑖᐌᐎᑲᒥᑯ	-12.8583
ᒋᐐᑯᐱᓂ	-12.8587
ᐋᐸᒋᑖ	-12.8592
ᔨᑎᐎ	-12.8593
ᑭᑎᒫᑭᓈᑯ	-12.8606
ᐐᓯᓃᒥ	-12.8607
ᐋᐸᐅᑰ	-12.8611
ᒋᐃᔑᑲᔥᑭ	-12.8611
ᓃᑳᓂᔥᑲ	-12.8612
ᑎᐯᑖᑯ	-12.8614
ᐅᔫᓯ	-12.8614
ᒨᔥᑭᓇ	-12.8616
ᐯᔣᐸᑕ	-12.8617
ᐁᐅᐐᒋᑭᐌ	-12.8619
ᐐᓯᓃᒪ	-12.8622
ᔑᐲᐃᑳᑌ	-12.8623
ᒥᒋᓇᐌ	-12.8623
ᒪᒫᑳᔥᑳ	-12.863
ᐁᐋᑯ	-12.8631
ᑭᑎᑫᐗᑲᒥ	-12.8632
ᒫᐗᑑᓈ	-12.8635
ᓂᑖᑮᐃᑭ	-12.8636
ᑭᑭᓄᐃ	-12.8641
ᓈᐱᓈᑾ	-12.8644
ᒋᐋᐸᐅ	-12.8645
ᐗᓂᔥᑴ	-12.8648
ᑮᐅᓇᑭ	-12.8649
ᓈᓅᑖ	-12.8651
ᓃᔣᓯᒥᑕᓇ	-12.8653
ᒪᔥᑲᐌᑖᑾ	-12.8654
ᐁᐹᐱᓄᑕ	-12.8656
ᑳᑮᐊᑯᓴᑲ	-12.8658
ᑫᐅᒌᒪ	-12.8658
ᓅᑕᔮᐹᑴ	-12.866
ᑳᑭᑭᓇᐙᒋ	-12.8662
ᓇᐌᑕᒥᓂ	-12.8663
ᐋᔮᔐᑕᒧ	-12.8665
ᓇᐌᓂᒥᑯ	-12.8665
ᐐᓴᑳᐸᓱᐌ	-12.8665
ᒫᒪᐐᓄ	-12.8665
ᓴᓰᑭᓯ	-12.8666
ᐲᒋᐌᐱ	-12.8667
ᔥᒀᑌᒥ	-12.8667
ᐅᔥᑳᑎᓯ	-12.8668
ᒥᔕᑮᔮᓯ	-12.867
ᓍᓂᑎᓱ	-12.8671
ᐴᓂᑌᐺᑕ	-12.8672
ᐊᐎᑲᓅ	-12.8672
ᑳᐅᑯᓯᓯᒥ	-12.8673
ᒫᐗᒋᐊᓇᒥᐋ	-12.8675
ᒋᑯᑖᓀ	-12.8677
ᐎᐌᐸ	-12.8678
ᑲᔥᑭᒥᓀ	-12.8681
ᐸᐹᒧᓭ	-12.8682
ᐲᑾᐊ	-12.8683
ᐸᔑᐸ	-12.8683
ᑲᓅᒋᑫᑕᒫ	-12.8684
ᐅᔫᓯᒥᑰ	-12.8684
ᓃᒥᑕᓇᔑᓃ	-12.8688
ᑲᓇᐎᒫᓇᒑᓂᔑᐌ	-12.8688
ᐙᓰᑴ	-12.8689
ᑲᓇᐌᑕᒧᐗ	-12.8689
ᑾᔭᑾᑭᒥᑰ	-12.8689
ᐁᓃᑳᓃ	-12.869
ᑭᓄᐊᒪ	-12.8692
ᐊᔭᐋ	-12.8693
ᑭᐸᐙᑲ	-12.8693
ᐸᔭᑌᓈᑾ	-12.8693
ᐊᐸᑭᓱ	-12.8693
ᐅᒋᑲᐙᐱ	-12.8693
ᔑᐲᐊᒪᐎ	-12.8694
ᓇᑕᐌᓂᒥ	-12.8694
ᒪᔥᑭᑮᐎᓂᓂ	-12.8695
ᒪᔥᑯᓯ	-12.8695
ᑑᐳᐎᓈ	-12.8697
ᐱᔑᒀᑎᓰ	-12.8698
ᐅᓵᒦᓄ	-12.8699
ᑌᐱᓇᒫᓱ	-12.8699
ᓂᑖᐎᑭᑑᓯ	-12.8699
ᐅᔒᒣᔑ	-12.8699
ᐱᑎᓂ	-12.8699
ᑮᐹᑭᑌ	-12.87
ᐁᑮᓃᒫᑾᐊ	-12.87
ᑫᐊᑯ	-12.87
ᓂᒫᒥᑲ	-12.8701
ᐐᑕᓄᑮᒫ	-12.8701
ᓂᐸᑯᓭᓂ	-12.8702
ᑭᑫᑌᔭᐋᒥᓈᐸ	-12.8702
ᑎᐹᒋᒧᐎᓂᓃᒪ	-12.8703
ᒥᑲᐎᓰ	-12.8704
ᓂᓱᑎᐸᐃᑲ	-12.8705
ᓬᐁᔮᑎᓰ	-12.8705
ᑮᒣᒀᔥᑲᐙ	-12.8706
ᑭᑕᒑ	-12.8706
ᐙᑳᔮᐱᑭ	-12.8706
ᔓᑕᒫᑫ	-12.8708
ᐯᑳᐹᐗ	-12.8708
ᓃᑳᓂᐐᑕ	-12.8709
ᑭᔑᐹ	-12.8709
ᑲᑮᐹᒋᒋᑫ	-12.871
ᒥᐋᑫ	-12.871
ᒨᑴᑕ	-12.8711
ᒫᑲᑕᓬ	-12.8711
ᒫᓇᒑᓂ	-12.8711
ᑮᓇᑭᔥ	-12.8711
ᐅᑕᓉ	-12.8711
ᐱᒪᑎ	-12.8712
ᒥᔅᑴᑭ	-12.8712
ᓂᒫᓀᑕ	-12.8712
ᕒᓃᓬᐃᔭ	-12.8712
ᓇᒥᐁᐎᑲᒥ	-12.8713
ᒨᑭᒋᐗ	-12.8714
ᓇᓃᓵᓀᑖ	-12.8714
ᑎᐹᒋᒨ	-12.8715
ᒋᒋᑫᓯ	-12.8715
ᓰᔮᐹᐗ	-12.8715
ᐸᑳᓂᑮᔗᐎ	-12.8716
ᒋᓇᑭᔥᑲ	-12.8716
ᐸᔕᔐᐃᑲ	-12.8716
ᑲᑲᒥᑭᓯ	-12.8717
ᑎᔑᑮᔗ	-12.8717
ᑭᒋᐊᔭᐋᒥᐙ	-12.8717
ᐐᒪᒦᒀ	-12.8717
ᓰᔅᑯᐲᑭᔥᑲ	-12.8717
ᓵᑳᐲᑭ	-12.8717
ᔖᐾᑲᑕ	-12.8717
ᐅᒋᒌᑾᓂᐸᓂᐅ	-12.8717
ᐊᓇᒥᑕᒫᑫ	-12.8717
ᑎᐯᑖᑯᓰᒣᒀ	-12.8717
ᑕᓈᓃᓯ	-12.8717
ᑯᔥᑯᐎᔑ	-12.8717
ᑲᑎᑾᓇᑭᓯ	-12.8717
ᒋᔑᓇᐎᐌᐱᓂᑫ	-12.8717
ᒐᕒᐅ	-12.8717
ᒪᔕᔥᑯ	-12.8717
ᒶᓯᓇᐋ	-12.8717
ᓈᑕᑳᒣᔮ	-12.8717
ᓈᔦᑕᒥᐃᑯ	-12.8717
ᐁᐐᑾᑏᐗᑲᒥᑭᓯ	-12.8717
ᐁᑎᓄᐙᑎᑯᐎ	-12.8717
ᐁᑮᐅᒑᓂᒪᐅᑯ	-12.8717
ᐁᓈᓴᒥᐊᔮ	-12.8717
ᐊᔐᐳᔦ	-12.8717
ᐊᔫᑴᓄ	-12.8717
ᐌᑭᒫᑲᑖᑫ	-12.8717
ᐐᑕᓄᑮᑎ	-12.8717
ᐐᓀᑖᑯᑑ	-12.8717
ᐱᔮᑏᓄ	-12.8717
ᐲᒋᓂᔕᐊᒫ	-12.8717
ᐴᒀᐱᑭ	-12.8717
ᑫᑭᓄᐊᒫᑫ	-12.8717
ᑲᐐᑾᔑ	-12.8717
ᑲᓇᐎᔥᒀᑕᐌ	-12.8717
ᑳᐃᒋᑳᓱ	-12.8717
ᑳᑰᐹᑎᓯ	-12.8717
ᑳᓬᐊᓬᐃᐎ	-12.8717
ᒉᑭᔥᑳ	-12.8717
ᐁᐐᑲᑮᒀᑕᒫ	-12.8717
ᐁᑮᐊᑐᓀᐙ	-12.8717
ᐁᓬᒪᑖ	-12.8717
ᐃᔑᐅᓇᔓᐙᔑᐌ	-12.8717
ᐃᔑᐋᔩᑕᐱ	-12.8717
ᐅᐲᐗᔨ	-12.8717
ᐅᐲᑯᓈᓈᐙ	-12.8717
ᐅᑎᔑᐌᐱᓯᐎᓂᐙ	-12.8717
ᐅᑎᔑᒋᑫᐋ	-12.8717
ᐅᑑᑎᓇᓰᓈᐙ	-12.8717
ᐅᑑᑎᓈᓈᐙ	-12.8717
ᐅᑑᑖᐹᓈᑯ	-12.8717
ᐅᑑᓵᒣᑖ	-12.8717
ᐅᑕᒀᑲᒥᓂᑲ	-12.8717
ᐅᑖᔩᒋᐊᔓᑕᒫᑫᐎ	-12.8717
ᐅᑮᒪᒪᒋᑮᔣ	-12.8717
ᐅᒋᐱᓂᑯᐙᐱᓀ	-12.8717
ᐅᒋᑲᔥᑭᐅᐙ	-12.8717
ᐅᒌᔑᐱᑑᓂ	-12.8717
ᐅᒑᓂᒫ	-12.8717
ᐅᒪᓯᓂᑰᒋᑲ	-12.8717
ᐅᓂᔥᑫᑕᒧᐎᓂ	-12.8717
ᐅᓇᑕᒫᑰᔭ	-12.8717
ᐅᓵᒣᑕᓰᓈᐙ	-12.8717
ᐅᓵᒫᑭᓱ	-12.8717
ᐅᔑᒋᑳᓱ	-12.8717
ᐅᕒᐄᔭᐴᐗ	-12.8717
ᐊᑲᑌᓂᒥ	-12.8717
ᐊᔨᔥᐱᒀᔥᑾᓂ	-12.8717
ᐋᓍᐸᒥᑯ	-12.8717
ᐋᕒᐹᑭᓵ	-12.8717
ᐌᐱᓂᐌᐎᒪᓯᓇᐃᑲ	-12.8717
ᐌᓅᑎᓰᓄ	-12.8717
ᐐᒋᐊᓄᑮᒫᑲ	-12.8717
ᐐᒋᑎᐯᑖᑯᓰᒥᑯ	-12.8717
ᐐᒋᑳᐸᐐᑖ	-12.8717
ᐐᒌᑏᒪᑲ	-12.8717
ᐙᑳᔮᐱᑭᓯᒋᑲ	-12.8717
ᐙᓴᑯᓀᒋᑳᑫ	-12.8717
ᐱᑾᑑᔖᓂ	-12.8717
ᐱᒋᐗᓀᐋᐙ	-12.8717
ᐱᓯᔅᑳᐸᑕ	-12.8717
ᐸᐸᑭᑌᔮᑯᑎᒀᓀᐙᐙ	-12.8717
ᐸᐸᓰᑴᑲᓈᒫᐙ	-12.8717
ᐸᑭᓈᑎ	-12.8717
ᐸᓯᑯᒋᓭ	-12.8717
ᑌᐱᐱᑕᒫᓱ	-12.8717
ᑌᐹᑐᑕ	-12.8717
ᑎᐯᓂᑎᓱᓰ	-12.8717
ᑕᐱᓇᐎᔑᒨᓄᐎ	-12.8717
ᑭᑎᔑᒪᒦᒀᓂ	-12.8717
ᑭᑕᓇᒥᐁᐎᑲᒥᑯᐙ	-12.8717
ᑭᑭᒋᐊᔭᐋᒥᓈᐸᓃ	-12.8717
ᑭᑭᓇᐙᒋᓈᑯᑑ	-12.8717
ᑭᑭᓇᐙᓯᑖᑯ	-12.8717
ᑭᑲᑭᑭᓄᐎᓂᑯᐙ	-12.8717
ᑭᑳᓄᒀᓈᑕ	-12.8717
ᑭᓍᐲᑲᐊᔐ	-12.8717
ᑮᐊᒋᒋᐸᓂᐅ	-12.8717
ᑮᐊᔮᔐᓂᒫᐙ	-12.8717
ᑮᐗᔥᑴᔮᑎᓯ	-12.8717
ᑮᐙᑳᔮᐸᒫ	-12.8717
ᑮᑳᔮᐸᑕ	-12.8717
ᑮᒋᑯᔥᑳ	-12.8717
ᑮᒪᓯᐱᑕ	-12.8717
ᑮᔥᑭᑴᑕᐅ	-12.8717
ᑯᐹᓯᓈᑯᓯ	-12.8717
ᑳᐃᔑᓴᓇᑭᓭᔮ	-12.8717
ᑳᐋᔂᑾᐃᑳᑳᓂᐗ	-12.8717
ᑳᑭᐱᓀᐌ	-12.8717
ᑳᑮᑎᐹᒋᒪ	-12.8717
ᒋᐐᒋᔭᔮᒪ	-12.8717
ᒋᑮᒪᒫᔑᑲᑕ	-12.8717
ᒌᔥᑰᓱ	-12.8717
ᒣᓍᑎᓯ	-12.8717
ᒣᓱᐳᑌᒥᔭ	-12.8717
ᒣᔥᑯᑑ	-12.8717
ᒥᓄᑲᑴᒋᑲᓂᑎᐎ	-12.8717
ᒥᓍᒋᒫ	-12.8717
ᒪᐗᑎᓵ	-12.8717
ᒪᑲᑌᐎᓯ	-12.8717
ᒪᒉᓂᒥ	-12.8717
ᒪᒑᒋᒥ	-12.8717
ᒪᒥᓄᑮᔗ	-12.8717
ᒪᓂᔕᒧ	-12.8717
ᓂᑑᒋᑎᐯᑖᑯ	-12.8717
ᓂᔑᐙᓈᒋ	-12.8717
ᓇᓇᐃᓯᑕᒪᐙ	-12.8717
ᓇᓇᒫᔦᓂᒥ	-12.8717
ᔮᓉᑕᓰ	-12.8717
ᒋᒥᒋᒥᔥᑳ	-12.8717
ᔒᑫᒋᑫᐎ	-12.8717
ᐁᑎᐯᓂᒪ	-12.8717
ᐁᑮᐅᒋᒑᑮᐃᑎᓱ	-12.8717
ᐁᑮᐋᑲᐗᑰᑌ	-12.8717
ᐁᓬᐃᐁᓴᕒ	-12.8717
ᐁᓬᐃᐄᓴᕒ	-12.8717
ᐃᓀᑖᑯᓰᒥᓯᓄᐌ	-12.8717
ᐄᒋᐱᔑᐎᓂᓂ	-12.8717
ᐅᑎᔑᑲᑮᑴᓄᑕᐙ	-12.8717
ᐅᑑᒋᑲᐙᐱᐎ	-12.8717
ᐅᑑᔑᐲᐃᑫᐎ	-12.8717
ᐅᑭᑕᐱᐎᓂ	-12.8717
ᐅᑮᒫᒨᔕᑭᓈᓈᐙ	-12.8717
ᐅᑮᓂᔥᑭᒥᑯ	-12.8717
ᐅᑮᓃᓵᐲᑭ	-12.8717
ᐅᑲᓂᓯᑕᐌ	-12.8717
ᐅᑳᑭᑲᓀᐱᓱ	-12.8717
ᐅᒋᑾᔭᑾᑭᒫ	-12.8717
ᐅᒌᒫᑲᓂᓈ	-12.8717
ᐅᒪᑭᓯᓀᔮ	-12.8717
ᐅᓂᔑᔐᑕ	-12.8717
ᐊᒀᒀᐱᑭᔑ	-12.8717
ᐊᔨᔑᓅᐌ	-12.8717
ᐋᓶᔮᐸ	-12.8717
ᐋᔩᑕᑑ	-12.8717
ᐌᐸᑲᓈ	-12.8717
ᐐᒥᒋᐅᑖᒋᐃ	-12.8717
ᐙᑳᑳᐸᐐᑖ	-12.8717
ᐯᐸᑳᓂᐃᑎᓲᒪᑲ	-12.8717
ᐱᑴᑮᓄᑕᐎ	-12.8717
ᐱᒫᔒᐌᑭ	-12.8717
ᐲᑌᐎᑑᓀ	-12.8717
ᐸᑭᔖᓈᐙ	-12.8717
ᐹᔑᒋᔥᑳ	-12.8717
ᐹᕒᓴᐸ	-12.8717
ᑌᐱᓇᐌᐎᓯ	-12.8717
ᑕᕒᑕᓬᐊ	-12.8717
ᑖᔥᑭᐱᑑ	-12.8717
ᑫᐅᒋᒪᒦᒀᓱ	-12.8717
ᑫᐅᓈᑯᓂᑯ	-12.8717
ᑭᐱᑑᓀᐱ	-12.8717
ᑭᐲᑭᓂᑳᑌᓂ	-12.8717
ᑭᑎᑫᐗᓄᑮᐋᑲ	-12.8717
ᑭᑎᓈᐸᒋᐃᓯᓅ	-12.8717
ᑭᑑᑯᓯᓯᒥ	-12.8717
ᑭᑭᓇᐙᑌᓂᒥ	-12.8717
ᑭᑮᓰᑭᓇᒫᑯ	-12.8717
ᑭᒫᓀᑕᒧᐎᓂᐙ	-12.8717
ᑮᒫᒌᐸᐃᑎᐗ	-12.8717
ᑮᔑᔔᔮᐱᓂ	-12.8717
ᑲᐎᑾᔑ	-12.8717
ᑲᔥᑭᒥᑯ	-12.8717
ᑲᔥᑮᑎᐱᑫᑖᑾᓂᓂ	-12.8717
ᑳᐗᑫᓂᐴᒪᑲ	-12.8717
ᑳᐙᐱᔥᑭᐲᐃᑳᑌ	-12.8717
ᑳᑮᐅᓀᓂᒪ	-12.8717
ᑳᑾᔭᒀᑎᓰᐌᑖᑯᓯ	-12.8717
ᑳᓂᔑᐙᓈᒋᐃᐌᒪᑲ	-12.8717
ᒉᐆᔕᐹ	-12.8717
ᒋᐃᓇᓄᑲᐗ	-12.8717
ᒋᐅᓈᑯᓀᒀ	-12.8717
ᒋᐯᔭᑌᔮᐸᑕ	-12.8717
ᒌᒫᓃᐎᑭᒫ	-12.8717
ᒦᑑᓴᓬᐊ	-12.8717
ᒪᐁᓬᐊᓬᐄᔭᓬ	-12.8717
ᒪᒋᑕᔑᑎᐎ	-12.8717
ᒪᒫᔑᑲᑕᐙ	-12.8717
ᒪᓈᐱᑌᐌᐸᑲᓈ	-12.8717
ᒪᔥᑭᒧ	-12.8717
ᒪᔥᑲᐌᓂᒧ	-12.8717
ᓂᑑᑯᓯᓯᒥ	-12.8717
ᓂᑑᒋᒦᑴᒋᐎᐋ	-12.8717
ᓂᑮᑭᑎᑳᑖ	-12.8717
ᓂᑮᓇᑲᓂᑰ	-12.8717
ᓂᑮᔖᐾᐃ	-12.8717
ᓂᑲᓬᐁᔭᑕᓇ	-12.8717
ᓂᑲᔖᐾᐃ	-12.8717
ᓅᓂᐋᐗᓱ	-12.8717
ᓈᓈᑲᑕᐌᓂᒥ	-12.8717
ᓲᑭᑌᐁᔥᑯᑖᑎ	-12.8717
ᓵᑳᓱᑯ	-12.8717
ᓵᔅᑎᓃ	-12.8717
ᔒᐱᓂᑫᑕ	-12.8717
ᔔᔥᒀᐱᑲ	-12.8717
ᔔᔥᒀᐱᑳ	-12.8717
ᔮᑭᑲᓀᐅᑎᓱ	-12.8717
ᐁᐹᑭᔥᑳ	-12.8717
ᐁᓈᐸᒋᑑ	-12.8717
ᐁᓵᑭᒋᓂᔕ	-12.8717
ᐃᒀᐲᑭ	-12.8717
ᐃᓉᐌᒧᒋᑫ	-12.8717
ᐃᓬᐋᔪ	-12.8717
ᐃᔑᓂᒌᓂ	-12.8717
ᐅᑎᐱᓇᐌᐎᓯᐎᓂᐙ	-12.8717
ᐅᑎᔥᐯᑖᑯᓯᐎᓂ	-12.8717
ᐅᑫᑌᐃᓈᑎᓯᐎᓂᐙ	-12.8717
ᐅᑮᒫᒪᑳᑌᓂ	-12.8717
ᐅᒋᒦᓂᑯᐎᓯ	-12.8717
ᐅᒥᓍᒋᒨ	-12.8717
ᐅᓇᑳᔥᑲᐙ	-12.8717
ᐊᓇᒥᐁᐗᓄᑮᐋᑲ	-12.8717
ᐊᓈᒣᓂ	-12.8717
ᐊᓍᓅᐌ	-12.8717
ᐊᔫᑸᓄ	-12.8717
ᐌᓅᑕᒫᐎᓂ	-12.8717
ᐐᑕᓄᑮᒪᑭ	-12.8717
ᐗᔑᔖ	-12.8717
ᐯᒥᓂᔕᐊ	-12.8717
ᐱᑕᑭᓯᓀ	-12.8717
ᐱᓇᐗᐳᓯ	-12.8717
ᑎᑎᐱᑖᐹ	-12.8717
ᑑᑭᐸᓂᐅ	-12.8717
ᑕᐲᑎᑲᒋᑳᑌ	-12.8717
ᑫᑲᔥᑭᐃ	-12.8717
ᑭᐐᒋᐅᑌᐺᑕᒨᒫᑲᓂ	-12.8717
ᑭᑭᓇᐙᒋᑕᒫ	-12.8717
ᑭᒪᔥᑲᐌᑖ	-12.8717
ᑭᓀᐱᑯᐎ	-12.8717
ᑭᓈᓈᑲᑕᐌᑕᒧᐎᓂᐙ	-12.8717
ᑮᐃᓇᑖᐙᑳᓂᐗ	-12.8717
ᑲᑮᑖᐐ	-12.8717
ᑲᑳᓯᐊᒪᐙ	-12.8717
ᑳᐊᔕᐙᐸᒥ	-12.8717
ᑳᐋᔫᒋᑎᐯᑖᑯᓯ	-12.8717
ᑳᐱᒣᓂᒫ	-12.8717
ᑳᑭᑭᓇᐙᑕᔕᑫᔣᓱᐎ	-12.8717
ᑳᑮᐃᔑᐅᓈᑯᓯᒋᑫ	-12.8717
ᑳᑮᓈᐱᔥᑲ	-12.8717
ᑳᒥᑖᔑᓃᔗᐙᓇᑭᓯ	-12.8717
ᑳᔮᐸᒋᑖ	-12.8717
ᑳᔮᑾᑭᑌ	-12.8717
ᒋᐊᐸᑭᓂᑰᔭ	-12.8717
ᒋᐸᓯᑑᓀᑲᓈᒥ	-12.8717
ᒋᐸᔭᑌᓈᑯᓯ	-12.8717
ᒋᒪᓂᒎᔑ	-12.8717
ᒋᓇᓈᑸ	-12.8717
ᒫᒦᒀᑕ	-12.8717
ᒫᒫᒋᑾᐱᓱ	-12.8717
ᒫᓈᓯᓇ	-12.8717
ᓃᓰᑭᒀ	-12.8717
ᓴᑲᐱᑌ	-12.8717
ᔥᑳᑎᓰ	-12.8717
ᐁᒥᒋᒪᐱᓱ	-12.8717
ᐁᓀᓂᒪ	-12.8717
ᐁᔨᔑᑖᓂ	-12.8717
ᐃᔑᓇᓇᒫ	-12.8717
ᐅᑑᓈᑲᓂ	-12.8717
ᐊᑲᑲᔐ	-12.8717
ᐋᓇᐌᓂᒪ	-12.8717
ᐋᔩᑎ	-12.8717
ᐌᐸᐃᑫ	-12.8717
ᐌᓵᓂᐋ	-12.8717
ᐲᐙᑲᒥᐌᐱ	-12.8717
ᐸᕒᑲᒪ	-12.8717
ᑎᐸᐆᐹ	-12.8717
ᑑᔫᓯᒫ	-12.8717
ᑲᑮᐹᑎᓰ	-12.8717
ᑲᑳᓍᓂᑴ	-12.8717
ᑲᑳᓱᒥᐌ	-12.8717
ᑳᐗᑫᐎ	-12.8717
ᒋᐱᒥᐎᑕᒫ	-12.8717
ᒋᐸᒦᑕᐌ	-12.8717
ᒐᕒᐋᐃ	-12.8717
ᓇᑲᒋᐸᐋ	-12.8717
ᓴᑭᒌᓱᐌ	-12.8717
ᔒᐎᑖᑲᓂᐳᑾ	-12.8717
ᑎᔦᐺ	-12.8718
ᐅᐱᒥᓂᔕᐙᑲᓇ	-12.8718
ᐅᑑᓈᐸᒋᑲ	-12.8718
ᐊᑐᓀᐅᑯ	-12.8718
ᐊᑕᒦᑳᓱ	-12.8718
ᐋᑰᔥᑳᑯ	-12.8718
ᑎᓇᒪᒋᐅ	-12.8718
ᑮᐃᓇᑌᑴ	-12.8718
ᑯᔥᑰᓱ	-12.8718
ᑳᑮᐃᔑᓂᑖᐎᑭᐃᑰ	-12.8718
ᒉᑭᐲᓂ	-12.8718
ᒋᐅᑕᒣᑕ	-12.8718
ᒋᐅᓈᐸᒪ	-12.8718
ᒋᐌᐱᓇᒪᐎ	-12.8718
ᒋᐙᓭᔥᑲᒪ	-12.8718
ᒫᒪᑳᓯᓇ	-12.8718
ᓈᓈᐱᓇᐎ	-12.8718
ᐁᐲᐙᐱᑯᐗ	-12.8718
ᐄᓯᕒᐊ	-12.8718
ᐅᑎᔑᓇᒧᐎ	-12.8718
ᐅᒥᓍᒋᒥᑰ	-12.8718
ᐊᓍᑎ	-12.8718
ᐊᔑᑕᑭᒥ	-12.8718
ᐗᓈᑑᓈᐙ	-12.8718
ᐱᒧᓵᑕ	-12.8718
ᑭᑕᑮᒥᓈ	-12.8718
ᑭᒋᑲᔥᑫᑕ	-12.8718
ᒋᑭᑕᑭᒥᑯᐙ	-12.8718
ᒋᑭᑭᓯᔭ	-12.8718
ᓈᒋᐸᐋ	-12.8718
ᐅᒋᐱᒫᑕ	-12.8718
ᐹᑾᒋᐱᑑ	-12.8718
ᑕᐱᓱᔑ	-12.8718
ᑭᑲᐃᔑᒋᑫᐃᑯᐙ	-12.8718
ᑭᒥᐗᓄᑫ	-12.8718
ᑲᑰᑌ	-12.8718
ᑳᒫᑭᔥᑳ	-12.8718
ᒋᓂᐅᒋᒥᓄ	-12.8718
ᒣᓬᐄᔭ	-12.8718
ᒣᔥᑯᒋ	-12.8718
ᒥᒋᒥᓇᒪ	-12.8718
ᓇᓈᐱᓇᐎ	-12.8718
ᓯᒥᕒ	-12.8718
ᓴᑳᑾᐱᓱ	-12.8718
ᐁᐅᒌᐱᑳᐗ	-12.8718
ᐃᓇᓯᑎᓱ	-12.8718
ᐅᑮᒪᒪᒋᑕᔑ	-12.8718
ᑮᐅᒋᒌᑾᓇᐱᐸᓂᐅ	-12.8718
ᑲᔥᑮᑭᓈ	-12.8718
ᓂᑕᐸᓭᓂ	-12.8718
ᓇᑭᓂᑳᓈ	-12.8718
ᐁᐅᓶ	-12.8718
ᐅᑮᐋᔩ	-12.8718
ᐋᑲᐙᑌᓯ	-12.8718
ᐎᔮᐸᒫ	-12.8718
ᐸᑯᔑᐃᐌ	-12.8718
ᑖᔮᐹᑴ	-12.8718
ᑲᐯᔒᐎᑲᒥ	-12.8718
ᑳᒋᑎᓇᒫ	-12.8718
ᒉᑲᓈᔭ	-12.8718
ᒥᓄᓴᐃᑎᓱ	-12.8718
ᐲᓬᐁ	-12.8718
ᐸᑯᐲᒀᔥᑾᓂ	-12.8718
ᐸᑲᒥᓅᐌ	-12.8718
ᑎᐸᐃᑫᐋᐗ	-12.8718
ᑫᑎᑳᑕ	-12.8718
ᑫᒋᓈᐁᑖᑯᓯ	-12.8718
ᑮᒑᑭᓭ	-12.8718
ᒀᔥᑴᐱ	-12.8718
ᒫᒫᑯᔥᑭᑲᓂᐎ	-12.8718
ᐃᔑᓂᑳᓂᑎᓱ	-12.8718
ᐅᑲᐋᐸᒋᑑᓈᐙ	-12.8718
ᒋᑕᑕᑯᑳᑕ	-12.8718
ᒨᓇᐃᑫ	-12.8718
ᐅᑮᐃᓍᑖ	-12.8718
ᐅᑮᓇᓈᑐᓀ	-12.8718
ᐸᑭᑎᓂᑳᑳᓂᐗ	-12.8718
ᑮᑭᒋᓂᓂᑭᓭ	-12.8718
ᑳᑮᐅᒋᑭᑭᓇᐙᒋᐲᐃ	-12.8718
ᐁᑮᒥᓄᓈᑯᓯ	-12.8718
ᐊᑐᑕᒪᐙ	-12.8718
ᐱᓬᐊᑌᓬᐱ	-12.8718
ᐸᑭᑎᓇᒪᐗ	-12.8718
ᑰᐹᒋᓭᐗ	-12.8718
ᒪᔮᔥᑲᐙᐙ	-12.8718
ᓂᓯᑐᑖᑾᓂᓂᑭ	-12.8718
ᓃᐸᐐᒪᑲ	-12.8718
ᐁᐱᒥᓂᔕᐊᒣ	-12.8718
ᑳᐃᔑᑕᔑᓱ	-12.8718
ᐅᑑᑖᐱᓇᓰᓈᐙ	-12.8718
ᐅᒋᓲᑭᑌᐁᔥᑳᑰ	-12.8718
ᐱᐅᒋᓈᔕᑮ	-12.8718
ᑑᑭᒫᑲᑕᐙ	-12.8718
ᐁᑮᓂᑾᐊ	-12.8718
ᐋᒋᐳ	-12.8718
ᑴᑴᑭᓂ	-12.8718
ᒪᓈᓱᒫ	-12.8718
ᓂᑮᐅᔑᐲᐊᒪᐙ	-12.8718
ᐅᑭᒫᑲᑖᑎ	-12.8718
ᐋᑯᒋᑫ	-12.8718
ᑭᐸᐃᑳᑳᓂ	-12.8718
ᑳᑮᐙᐸᒥᒪ	-12.8718
ᒋᐅᔑᐆᒪᑲ	-12.8718
ᓈᑾᐊᒪᐙ	-12.8718
ᐅᓂᔑᔑᐌᒋᑲᓂᐎ	-12.8718
ᐋᓍᐸᑎ	-12.8718
ᑲᐐᒋᑖᒫ	-12.8718
ᒋᑭᐸᐃᑳᑌ	-12.8718
ᐅᑕᔓᑕ	-12.8718
ᐱᓯᑳᓈᐙ	-12.8718
ᐅᐲᑭᓯ	-12.8718
ᐅᑲᑮᑖᐎᓰ	-12.8718
ᑭᑮᐅᑖᐱᓇᓰ	-12.8718
ᑭᑮᑎᐯᓂᒥᑯᓰᐙ	-12.8718
ᑯᑕᑮᐃᑫ	-12.8718
ᐅᒦᑳᓲ	-12.8718
ᐊᔪᓶ	-12.8718
ᑭᑲᑲᓇᐌᑕᒫᑯᐙ	-12.8718
ᒥᔮᒪᐎ	-12.8718
ᐅᒋᓇᐁᑕᒧ	-12.8718
ᑮᐋᑲᐎᔥᑳᑯ	-12.8718
ᒦᑖᑴᔥᑳ	-12.8718
ᑐᓀᐙᓰ	-12.8718
ᑭᐱᒫᑎᓰᒥ	-12.8718
ᓂᔑᐗᓈᒋᒋᑲᓂᐎ	-12.8718
ᐅᑮᐅᓇᑭᑑ	-12.8718
ᑮᐐᓴᑳᑲᒥᓭ	-12.8718
ᒋᐲᑯᓂᑳᑌ	-12.8718
ᔖᐾᐋ	-12.8718
ᐁᓯᑳᔭ	-12.8718
ᓂᓯᑐᓯᓯ	-12.8718
ᐁᑯᑌᐱᓈᑾ	-12.8718
ᒉᑭᔥᑲ	-12.8718
ᒥᑯᔥᑳᓱᒥ	-12.8718
ᓂᑌᐺᔦᑖ	-12.8718
ᐅᓈᑯᓯᑑ	-12.8718
ᑕᔓᑳᐸᐎ	-12.8718
ᒋᐗᑲᐎᐌᐱᓂᑳᑌ	-12.8718
ᒋᒫᒪᐎᐐᒋᐃᑎ	-12.8718
ᓂᔑᐗᓈᒋᑖᐙ	-12.8718
ᓈᒋᐱᓈ	-12.8718
ᑳᑮᐅᒋᓇᐃᑕᐙ	-12.8718
ᒋᐗᓂᐎᓂᓯᓄᐎ	-12.8718
ᒋᐱᒣᑕᓯ	-12.8718
ᒥᓉᓂᒫ	-12.8718
ᐱᓯᑰᓱ	-12.8718
ᑭᑖᑕᐲ	-12.8718
ᑭᔒᑫᑖ	-12.8718
ᑲᐱᒣᑕᓰ	-12.8718
ᑲᑴᑾᔭᑯᓈ	-12.8718
ᑳᑮᐋᓂᑫᐎᑭᒫᐎ	-12.8718
ᑭᑕᑯᐴᔔᐃ	-12.8718
ᐃᓍᓈ	-12.8718
ᑫᐅᒋᒫᒥᑲᐎᓄ	-12.8718
ᑲᓇᐙᐸᑎᓱ	-12.8718
ᐅᒦᒋᓈᐙ	-12.8718
ᑌᐸᑫᓂᑎᓱ	-12.8718
ᑎᐱᑭᓈᑯᓯ	-12.8718
ᒥᑐᓭ	-12.8718
ᒪᒋᐹᐱᓀ	-12.8718
ᓇᑲᑌ	-12.8718
ᐁᓂᑯᑴᑖ	-12.8718
ᐊᔮᓂᑲᐎᑲ	-12.8718
ᑕᓂᔭᔮ	-12.8718
ᒍᓵᔭ	-12.8718
ᓂᑎᓇᓅ	-12.8718
ᔖᔖᑯᐙᓂ	-12.8718
ᒦᑭᓱᒥᑰ	-12.8718
ᑎᐱᑭᓯᐎ	-12.8718
ᐁᒥᒑ	-12.8718
ᐃᑯᑣᓱ	-12.8718
ᐲᐹᑭ	-12.8718
ᑳᒣᒀᔥᑲ	-12.8718
ᒋᓈᓈᑲᓵᐸᒪ	-12.8718
ᒦᓂᔑᐎ	-12.8718
ᐁᔑᓯᑌᐱ	-12.8718
ᐅᓶᔮᒧ	-12.8718
ᐐᒋᐱᔑᒀᑎᓰᒫ	-12.8718
ᑳᔥᑲᒧ	-12.8718
ᐅᒌᐱᑳ	-12.8718
ᑮᐊᑕᑭᑫᓂᒫ	-12.8718
ᒋᑮᔥᑲᑕ	-12.8718
ᑳᐅᓶ	-12.8718
ᐐᓈᐸᑫᑕ	-12.8718
ᑮᐸᑫᐎᓂᑰ	-12.8718
ᑳᐅᓵᒥᓯ	-12.8718
ᒋᒥᓄᑑᑖᑫᔦ	-12.8718
ᒑᓂᒣ	-12.8718
ᒪᐎᓀᔥᑯᑖᑎ	-12.8718
ᒋᑲᑮᑭᒥᒪ	-12.8718
ᓇᓃᓵᓂᐃᑎᓱ	-12.8718
ᐁᑌᐊᐲᑖᑎᓯᓯ	-12.8718
ᐱᐐᑑᑲᐎ	-12.8718
ᑳᑮᐃᓀᓂᒥᑯᐙ	-12.8718
ᒋᐊᐯᓂᒧᔮ	-12.8718
ᐃᔑᑮᐌᐱᒫᑎᓯᐃᑰᔭ	-12.8718
ᐅᓈᐱᑭᓯᒋᑳᑌ	-12.8718
ᐱᒥᐎᑖᐗ	-12.8718
ᐱᓈᓯᑲᒥᓂ	-12.8718
ᒋᑌᐱᐱ	-12.8718
ᐋᓂᒥᓯᐎ	-12.8718
ᐋᔮᓅᑎ	-12.8718
ᐌᐱᓂᑎᐎ	-12.8718
ᑭᓃᓇᒥᓯᐎᓂ	-12.8718
ᐸᑯᓀᐱ	-12.8718
ᑭᑎᔑᑮᔗᐎᓂ	-12.8718
ᑭᒋᐎᓇᒫᓱ	-12.8718
ᑳᐃᔑᐸᑯᓭᓂᒥᓇ	-12.8718
ᒫᑎᓰᔥᑳᑫ	-12.8718
ᐅᒋᐱᒫᑎᓰᒪᑲᓂᓂ	-12.8718
ᑳᐐᒋᑭᐸᐅᑰ	-12.8718
ᑭᑑᑖᐱᓈ	-12.8718
ᑮᐗᔦᔑᒫᑲᓂᐎ	-12.8718
ᓇᓈᑯᒥᐌᐎ	-12.8718
ᒪᒉᑖᑾ	-12.8718
ᐅᒑᓂᒪᑲᒥᑭᓯ	-12.8718
ᐹᑖᔮᑯ	-12.8718
ᑳᐱᒫᑎᓰᔥᑲ	-12.8718
ᒋᓂᑆᑳᐱᒫᑎᓯ	-12.8718
ᐁᐹᑾ	-12.8718
ᑭᒥᓂᒀᑲᓂᐙ	-12.8718
ᐁᓂᑯᑯᑌᐁ	-12.8718
ᑭᑌᓂᒣᒀ	-12.8718
ᐐᓅᑌᐙᐸᒥ	-12.8718
ᐅᓇᓇᒫ	-12.8718
ᐊᓃᐲ	-12.8718
ᑲᒀᓂᓴᑭᒋᑫ	-12.8718
ᒥᑖᔑᓈᓄ	-12.8718
ᒫᓇᒑᓂᔐᓯᒪ	-12.8718
ᑮᐊᓂᐊᑯᓈᑾᓂᓂ	-12.8718
ᑲᑴᐋᒋᑑ	-12.8718
ᓈᒋᐃᑯᓰ	-12.8718
ᐃᓇᑭᒋᑳᑌ	-12.8718
ᒥᓈᓴᒪ	-12.8718
ᓃᑳᓃᑕᐙ	-12.8718
ᑭᑎᓇᐌᒫᑲᓂᐙ	-12.8718
ᓭᒥᔭ	-12.8718
ᑰᐹᒋ	-12.8718
ᐁᐅᓵᒣ	-12.8718
ᐅᑎᔥᒀᑌᒥ	-12.8718
ᓂᑳᓂᒥᓯ	-12.8718
ᔖᐗᓂᓅᑎ	-12.8718
ᐅᒥᓴᐌᒋᑫᐎᓂ	-12.8718
ᑭᑎᔑᓂᑳᓂ	-12.8718
ᓂᔑᐗᓈᒋᐃᐌᐎ	-12.8718
ᓈᑕᒫᑰ	-12.8718
ᑳᒥᓄᒫᑾᓂᓂ	-12.8718
ᓂᑖᐸᒋᑖᐙ	-12.8718
ᑭᒥᓄᐊᓄᑮᐎᓂ	-12.8718
ᑭᑕᒑᑯᐱᒫᑎᓯᐎᓂ	-12.8719
ᑲᐎᐸᓂᐅ	-12.8719
ᐁᔑᐊᔮᒀᒥᒥ	-12.8719
ᐅᑲᒀᑕᑭᐃᑰᐎᓂ	-12.8719
ᑳᑕᓇᑖᐙᑫ	-12.8719
ᑮᐙᑳᒣᓂᑲᓂᑲ	-12.8719
ᑳᒋᒋᐃᑯ	-12.8719
ᐅᒪᐎᔂ	-12.8719
ᑎᐸᐃᑫᐃᑰᔭ	-12.8719
ᓱᒫᓰ	-12.8719
ᒋᐊᑐᓀ	-12.8719
ᐗᐙᑲᐎᓭ	-12.8719
ᓂᑮᐋᐸᒋᑑᓰ	-12.8719
ᐃᓉᑕᒪᐙ	-12.8719
ᑌᐱᓭᐗᑫᑕ	-12.8719
ᑆᕒ	-12.8719
ᒎᐁᓇ	-12.8719
ᐙᐱᔥᑭᑯᓇᔦ	-12.8719
ᐁᔅᕒᐊ	-12.8719
ᑯᓯᑸᐃᑰ	-12.8719
ᒋᓇᑲᑕᒪ	-12.8719
ᐁᓇᑭᑌᓂ	-12.8719
ᓈᑯᓰᑖᑯ	-12.8719
ᑭᑎᔑᐊᓄᑲᐙ	-12.8719
ᐸᐹᒥᐌᐹ	-12.8719
ᒋᒨᔥᑭᓀᔥᑲᐎ	-12.8719
ᐅᓵᒥᒋᑫ	-12.8719
ᓂᒥᓯᔮ	-12.8719
ᓂᑎᔑᐸᑯᓭ	-12.8719
ᓈᑯᑕᒪᐎᓇ	-12.8719
ᓈᑯᓰᑕᐎ	-12.8719
ᑭᑎᐯᑖ	-12.8719
ᐲᒋᑭᑎᑳᑌ	-12.8719
ᐃᔥᑸ	-12.8719
ᐱᒪᐊᑑ	-12.8719
ᐸᑯᓭᓂᒪ	-12.8719
ᑭᐱᑖᓂᒪ	-12.8719
ᒫᒦᓄᐸᔕᔐᐅᑰ	-12.8719
ᑯᔥᒀᐙᒋᐊᔮ	-12.8719
ᑭᒑᐱᐌᐸᑲ	-12.8719
ᑭᑑᒋᐱᒫᒋᐃᑰ	-12.8719
ᐊᐹᔪ	-12.8719
ᒋᐐᑎᑫᑎᓈᓂᐗ	-12.8719
ᑭᐱᓈᓯᑲ	-12.8719
ᑫᑌᐲᓯᑲᐙᑲ	-12.8719
ᒋᓵᐱᑭᑫᑕ	-12.8719
ᒫᒌᔮᐳᑯ	-12.8719
ᐅᑖᑎᓯ	-12.8719
ᐅᐐᒌᐙᑲᓂ	-12.8719
ᓃᓵᐲᑭᓂᑰ	-12.8719
ᓅᑌᐋᓇᐌᒋᑫ	-12.8719
ᒌᑫᑕᒧᔥᑳᑰ	-12.8719
ᑭᑑᐲᑭ	-12.8719
ᑳᑮᐅᐱᓂ	-12.8719
ᑫᓂᐊᑯᓈᑾᓯ	-12.8719
ᐅᐙᓭᔮᓯᐎ	-12.8719
ᒋᐅᑕᐱᓇ	-12.8719
ᑮᒥᑖᔑᓃᔑᐗ	-12.8719
ᑴᑭᓇᒧᐙ	-12.8719
ᓂᔑᑫᐊᔭᐄ	-12.8719
ᐗᓂᑮᔗᐃᑰ	-12.8719
ᒋᒪᔥᑲᐎᑌᐺᑕᒧ	-12.8719
ᐐᒥᓇᐋᐙ	-12.8719
ᐸᑫᓄᑕ	-12.8719
ᐊᒀᒀᐱᑭᓯ	-12.8719
ᒣᑴᔦᓄ	-12.8719
ᑲᑳᓍ	-12.8719
ᒥᑖᔑᓃᐎᐱᐴ	-12.8719
ᓅᑌᑯᓇᔦ	-12.8719
ᓂᑾᐅᑰ	-12.8719
ᒋᓈᑕᒪᐎᒥ	-12.8719
ᒋᓈᐱᒋᑫ	-12.872
ᓈᐱᑳᑲ	-12.872
ᒪᒪᑗᔮᐱᑌᓭ	-12.872
ᓂᑎᓀᑖᑯᓯ	-12.872
ᐅᓈᑯᓂᑣ	-12.872
ᐅᔖᑰᒋᑣᐎ	-12.872
ᐃᔑᓈᓈᑲᑕᐌᑕᒣ	-12.872
ᒋᒪᒥᔑᐃ	-12.872
ᑳᒋᔥᑳᑯ	-12.872
ᐊᑕᑭᑫᓂᒥᑯ	-12.872
ᐊᓇᒥᐁᒪᑕᐐᐃᑎᓱ	-12.872
ᔔᒥᓈᐳᑳᑳᓂ	-12.872
ᔑᒨᓄ	-12.872
ᓈᑯᓂᑯᓰᐙ	-12.872
ᒋᐲᓂᒪ	-12.872
ᐅᑲᑲᔦᓂᓯ	-12.872
ᒋᒪᒫᒋᑾᐱᓂᑯ	-12.872
ᑆᓇᐎᐋᐙ	-12.872
ᑳᐸᐎᑖᑰ	-12.872
ᑮᒫᒌᐸᐃᐌᐗ	-12.872
ᑳᒋᒋᑑ	-12.872
ᑮᐅᓇᒋᑳᑌ	-12.872
ᐃᔑᑲᑮᑖᐎᓯ	-12.872
ᓇᐁᑕᒥᐃᑎᓱ	-12.872
ᐃᔑᐊᐯᓂᒧᓄᑕ	-12.872
ᑮᒥᓍᐸᒥᑯ	-12.872
ᔖᑰᒋᔥᑳ	-12.872
ᐊᓄᑲᐙ	-12.872
ᑮᐊᔐ	-12.872
ᑮᓃᐎᐗ	-12.872
ᑮᓇᐐᑖ	-12.872
ᑭᓇᑕᐌᑖᑯᓯ	-12.872
ᑮᐗᔥᑴᐲᔥᑳᑯ	-12.872
ᐅᓇᔓᐙᓂᑰ	-12.872
ᔒᑯᐲ	-12.872
5	-13.6056
7	-13.6166
ᔀ	-13.8628
ᒶ	-13.8629
–	-13.8705
ᐺ	-13.8712
ᐼ	-13.8717
ᒒ	-13.8717
"	-13.8717
/	-13.8717
[	-13.8717
]	-13.8717
a	-13.8717
u	-13.8717
z	-13.8717
~	-13.8717
ᐧ	-13.8717
ᑡ	-13.8717
.	-14.6809
ᔡ	-14.681
ᐾ	-14.6811
;	-14.6812
ᔗ	-14.6813
!	-14.6814
?	-14.6815
:	-14.6816
,	-14.6817
᙮	-14.6818
