<pad>	0
</s>	0
<unk>	0
▁s	-0
▁p	-1
▁j	-2
▁v	-3
▁n	-4
▁a	-5
st	-6
▁t	-7
▁k	-8
ch	-9
li	-10
▁m	-11
▁z	-12
ho	-13
▁je	-14
▁b	-15
ov	-16
▁d	-17
od	-18
ou	-19
te	-20
en	-21
ra	-22
ro	-23
ak	-24
em	-25
▁o	-26
in	-27
▁ne	-28
▁se	-29
▁po	-30
ře	-31
▁na	-32
al	-33
ti	-34
▁A	-35
le	-36
▁sv	-37
še	-38
ní	-39
il	-40
ud	-41
▁by	-42
la	-43
ce	-44
ři	-45
▁u	-46
rá	-47
ří	-48
to	-49
že	-50
▁J	-51
os	-52
▁H	-53
▁kte	-54
ého	-55
▁js	-56
▁I	-57
▁do	-58
▁to	-59
sk	-60
pod	-61
▁Hos	-62
podin	-63
▁Hospodin	-64
by	-65
▁B	-66
mu	-67
▁i	-68
ně	-69
▁P	-70
ni	-71
ne	-72
▁za	-73
no	-74
dy	-75
ko	-76
▁vy	-77
ých	-78
ví	-79
▁pro	-80
bo	-81
▁od	-82
▁bud	-83
▁jest	-84
lo	-85
▁při	-86
▁jeho	-87
na	-88
jí	-89
lu	-90
▁N	-91
▁S	-92
ám	-93
▁h	-94
ru	-95
▁kter	-96
▁č	-97
▁st	-98
ím	-99
el	-100
▁pak	-101
yn	-102
▁T	-103
▁vše	-104
ji	-105
dě	-106
▁tv	-107
▁aby	-108
ým	-109
bě	-110
ka	-111
va	-112
ci	-113
▁pře	-114
ení	-115
▁ře	-116
▁že	-117
▁tak	-118
lov	-119
ží	-120
sta	-121
▁K	-122
ed	-123
im	-124
▁syn	-125
▁bude	-126
▁řek	-127
▁jsem	-128
▁M	-129
▁krá	-130
do	-131
▁jak	-132
ky	-133
vi	-134
at	-135
je	-136
▁Ne	-137
▁zem	-138
▁ž	-139
▁ho	-140
ku	-141
ova	-142
sti	-143
▁Je	-144
▁své	-145
an	-146
tí	-147
▁ně	-148
ze	-149
▁Iz	-150
de	-151
oh	-152
da	-153
▁ve	-154
cí	-155
▁li	-156
▁tě	-157
dyž	-158
roz	-159
▁mě	-160
am	-161
vo	-162
lé	-163
▁vě	-164
ové	-165
▁D	-166
▁řekl	-167
▁Izra	-168
áš	-169
ovi	-170
▁lid	-171
▁byl	-172
ýž	-173
▁před	-174
vě	-175
▁V	-176
tě	-177
▁jako	-178
ší	-179
áz	-180
▁všec	-181
▁E	-182
ši	-183
▁ch	-184
▁pra	-185
▁když	-186
jich	-187
▁jejich	-188
ar	-189
▁Z	-190
ly	-191
▁ná	-192
říž	-193
▁Izrael	-194
ez	-195
▁ob	-196
▁O	-197
▁jed	-198
ili	-199
▁roz	-200
ůj	-201
▁te	-202
▁mu	-203
né	-204
ům	-205
čin	-206
▁nebo	-207
▁kterýž	-208
éž	-209
▁ji	-210
▁kteříž	-211
lí	-212
▁sp	-213
ste	-214
rd	-215
vá	-216
▁ko	-217
▁nep	-218
ta	-219
ná	-220
▁neb	-221
▁c	-222
▁pod	-223
▁jsou	-224
mě	-225
ej	-226
lá	-227
lou	-228
▁mne	-229
▁Nebo	-230
oj	-231
ské	-232
▁svého	-233
ství	-234
▁Pro	-235
ad	-236
rod	-237
ved	-238
as	-239
▁toho	-240
nu	-241
ož	-242
▁ale	-243
▁pos	-244
kr	-245
▁ani	-246
me	-247
šel	-248
děl	-249
▁ru	-250
▁Jo	-251
če	-252
▁ten	-253
lik	-254
▁obě	-255
▁Boh	-256
stu	-257
▁slu	-258
▁jim	-259
nou	-260
▁zá	-261
ný	-262
▁vz	-263
či	-264
ůh	-265
▁jsi	-266
žíš	-267
▁Bůh	-268
▁proti	-269
▁ni	-270
▁kteréž	-271
es	-272
▁země	-273
vil	-274
ma	-275
▁já	-276
mi	-277
▁Te	-278
▁učin	-279
▁mo	-280
▁vám	-281
▁jemu	-282
žd	-283
▁ř	-284
ově	-285
▁zemi	-286
▁ty	-287
▁ú	-288
▁mlu	-289
alo	-290
tož	-291
▁až	-292
▁pr	-293
▁také	-294
▁r	-295
ád	-296
▁C	-297
ob	-298
▁pří	-299
et	-300
▁dí	-301
▁kdo	-302
tá	-303
▁tobě	-304
▁mí	-305
▁budou	-306
ník	-307
▁vá	-308
ště	-309
di	-310
sí	-311
▁ti	-312
cha	-313
▁Da	-314
▁nad	-315
▁Po	-316
▁praví	-317
▁ot	-318
▁ví	-319
▁jej	-320
uje	-321
ští	-322
▁Izraelsk	-323
▁Tedy	-324
án	-325
be	-326
▁byli	-327
▁bra	-328
▁ka	-329
▁tvé	-330
ži	-331
▁mi	-332
▁dě	-333
▁so	-334
po	-335
vy	-336
▁Ale	-337
žeb	-338
▁Bo	-339
ání	-340
▁va	-341
▁král	-342
oval	-343
▁Davi	-344
kou	-345
pu	-346
▁vš	-347
▁mé	-348
▁svou	-349
▁čin	-350
mé	-351
▁slov	-352
▁domu	-353
mo	-354
▁ži	-355
▁služeb	-356
▁le	-357
▁vi	-358
▁každ	-359
av	-360
▁což	-361
▁dne	-362
▁poko	-363
ými	-364
▁ce	-365
▁svých	-366
▁hla	-367
ali	-368
oud	-369
▁nem	-370
vu	-371
ův	-372
eni	-373
▁má	-374
ny	-375
▁L	-376
▁mno	-377
káz	-378
▁vás	-379
▁mil	-380
▁sm	-381
▁G	-382
br	-383
▁jmé	-384
▁obět	-385
▁tvá	-386
iáš	-387
ného	-388
▁David	-389
stí	-390
▁všech	-391
ele	-392
▁du	-393
ět	-394
šli	-395
lově	-396
▁sobě	-397
sto	-398
ráž	-399
tr	-400
dí	-401
zal	-402
cho	-403
▁	-404
o	-405
e	-406
a	-407
i	-408
n	-409
t	-410
s	-411
l	-412
v	-413
d	-414
m	-415
k	-416
u	-417
,	-418
p	-419
r	-420
h	-421
j	-422
í	-423
b	-424
c	-425
y	-426
á	-427
z	-428
ž	-429
ě	-430
ř	-431
é	-432
š	-433
.	-434
ý	-435
č	-436
ů	-437
A	-438
:	-439
J	-440
H	-441
I	-442
B	-443
P	-444
ť	-445
;	-446
N	-447
S	-448
T	-449
K	-450
M	-451
?	-452
D	-453
V	-454
E	-455
Z	-456
f	-457
O	-458
g	-459
ň	-460
ú	-461
ď	-462
C	-463
-	-464
L	-465
G	-466
R	-467
F	-468
Ž	-469
U	-470
(	-471
)	-472
Š	-473
ó	-474
Ř	-475
Č	-476
Ó	-477
!	-478
[	-479
]	-480
1	-481
x	-482
3	-483
2	-484
4	-485
5	-486
Ú	-487
8	-488
0	-489
9	-490
6	-491
7	-492
Ď	-493
#	-494
Í	-495
Ý	-496
