<pad>	0
</s>	0
<unk>	0
▁¦	-0
ܝܢ	-1
ܘܢ	-2
ܠܐ	-3
ܗܘ	-4
ܬܐ	-5
ܢܐ	-6
ܠܗ	-7
ܕܐ	-8
ܡܢ	-9
ܡܪ	-10
ܝܬ	-11
ܝܐ	-12
ܘܐ	-13
ܗܝ	-14
ܐܢ	-15
ܕܡ	-16
ܕܝܢ	-17
ܠܡ	-18
ܪܐ	-19
ܗܘܐ	-20
ܫܐ	-21
ܠܝ	-22
ܟܘܢ	-23
ܠܘ	-24
ܐܝ	-25
ܒܪ	-26
ܫܘ	-27
ܘܡ	-28
ܒܐ	-29
ܚܐ	-30
ܠܝܢ	-31
ܝܪ	-32
ܕܥ	-33
ܕܝ	-34
ܫܡ	-35
ܐܢܬ	-36
ܕܢ	-37
ܐܢܐ	-38
ܘܬܐ	-39
ܒܝ	-40
ܘܗܝ	-41
ܡܐ	-42
ܠܗܐ	-43
ܐܡܪ	-44
ܗܘܢ	-45
ܥܠ	-46
ܟܕ	-47
ܠܗܘܢ	-48
ܠܟ	-49
ܘܒ	-50
ܘܪ	-51
ܫܘܥ	-52
ܓܝܪ	-53
ܘܬ	-54
ܐܝܟ	-55
ܡܫ	-56
ܬܪ	-57
ܒܢ	-58
ܘܤ	-59
ܥܡ	-60
ܟܠ	-61
ܐܦ	-62
ܘܐܡܪ	-63
ܘܠܐ	-64
ܛܠ	-65
ܥܒ	-66
ܚܕ	-67
ܪܝ	-68
ܝܫܘܥ	-69
ܕܠܐ	-70
ܗܘܘ	-71
ܥܐ	-72
ܘܚ	-73
ܒܗ	-74
ܘܠ	-75
ܐܠܐ	-76
ܬܝ	-77
ܐܢܬܘܢ	-78
ܠܟܘܢ	-79
ܚܝ	-80
ܐܬ	-81
ܡܠ	-82
ܘܩ	-83
ܚܙ	-84
ܕܒ	-85
ܗܢܐ	-86
ܡܛܠ	-87
ܢܦ	-88
ܕܪ	-89
ܟܝ	-90
ܬܗ	-91
ܐܝܬ	-92
ܫܒ	-93
ܫܡܥ	-94
ܠܡܐ	-95
ܘܕ	-96
ܕܐܠܗܐ	-97
ܝܚܐ	-98
ܟܐ	-99
ܕܩ	-100
ܪܒ	-101
ܝܡ	-102
ܕܬ	-103
ܘܫ	-104
ܚܪ	-105
ܡܬ	-106
ܗܝܡܢ	-107
ܥܒܕ	-108
ܗܠܝܢ	-109
ܗܢ	-110
ܫܬ	-111
ܐܠܗܐ	-112
ܥܝܢ	-113
ܒܠ	-114
ܠܦ	-115
ܢܝ	-116
ܤܓ	-117
ܠܘܬ	-118
ܐܢܘܢ	-119
ܛܝ	-120
ܝܕܥ	-121
ܕܚ	-122
ܡܫܝܚܐ	-123
ܩܕܡ	-124
ܠܢ	-125
ܢܢ	-126
ܒܪܐ	-127
ܟܚ	-128
ܘܟܕ	-129
ܝܗ	-130
ܡܕܡ	-131
ܕܐܝܬ	-132
ܪܘ	-133
ܢܫܐ	-134
ܘܟ	-135
ܦܩ	-136
ܗܢܘܢ	-137
ܕܟ	-138
ܒܝܢ	-139
ܢܬ	-140
ܗܕܐ	-141
ܒܝܬ	-142
ܟܢܐ	-143
ܗܐ	-144
ܝܢܐ	-145
ܕܡܐ	-146
ܟܝܠ	-147
ܡܢܐ	-148
ܐܡ	-149
ܐܢܫ	-150
ܦܪ	-151
ܘܡܢ	-152
ܤܓܝܐ	-153
ܟܠܗ	-154
ܝܬܐ	-155
ܐܘ	-156
ܗܘܝܬ	-157
ܐܝܠܝܢ	-158
ܠܬ	-159
ܤܝ	-160
ܡܪܢ	-161
ܠܥ	-162
ܒܪܗ	-163
ܒܥ	-164
ܢܫ	-165
ܠܚ	-166
ܕܡܢ	-167
ܫܡܝܐ	-168
ܘܡܐ	-169
ܕܫ	-170
ܢܦܫ	-171
ܘܪܐ	-172
ܓܒܪܐ	-173
ܠܡܝ	-174
ܦܐ	-175
ܘܗ	-176
ܪܥܐ	-177
ܘܐܬ	-178
ܤܪ	-179
ܥܠܝ	-180
ܙܠ	-181
ܫܠܡ	-182
ܗܘܬ	-183
ܕܗ	-184
ܩܪ	-185
ܐܬܐ	-186
ܕܢܐ	-187
ܡܠܐ	-188
ܩܐ	-189
ܝܠܝܢ	-190
ܘܬܗ	-191
ܠܘܗܝ	-192
ܤܓܝܐܐ	-193
ܐܝܟܢܐ	-194
ܦܝ	-195
ܘܝ	-196
ܝܢܢ	-197
ܬܘܢ	-198
ܕܝܐ	-199
ܡܠܟ	-200
ܛܪ	-201
ܗܟܝܠ	-202
ܐܚܪ	-203
ܡܪܝܐ	-204
ܤܐ	-205
ܚܙܐ	-206
ܟܬ	-207
ܡܘܤ	-208
ܟܠܗܘܢ	-209
ܒܘ	-210
ܠܛ	-211
ܒܬܪ	-212
ܟܪ	-213
ܫܝ	-214
ܓܪ	-215
ܚܡ	-216
ܕܦ	-217
ܘܥ	-218
ܒܝܐ	-219
ܗܟܢܐ	-220
ܬܚ	-221
ܠܩ	-222
ܘܦ	-223
ܫܬܐ	-224
ܝܗܘܢ	-225
ܪܘܚܐ	-226
ܒܚ	-227
ܘܐܢ	-228
ܠܝܬ	-229
ܠܬܐ	-230
ܚܢܢ	-231
ܒܬ	-232
ܒܢܝܢ	-233
ܤܒܪ	-234
ܕܘܗܝ	-235
ܡܠܬܐ	-236
ܡܘܤܐ	-237
ܘܠܘ	-238
ܗܘܕܝܐ	-239
ܡܘ	-240
ܤܗ	-241
ܡܠܠ	-242
ܢܗܘܐ	-243
ܒܩ	-244
ܝܟ	-245
ܚܕܐ	-246
ܕܐܡܪ	-247
ܥܕܡܐ	-248
ܘܐܡܪܝܢ	-249
ܕܝܢܬܐ	-250
ܒܡ	-251
ܩܪܐ	-252
ܗܘܘܢ	-253
ܬܠܡܝ	-254
ܫܡܥܘܢ	-255
ܝܪܐ	-256
ܡܢܗ	-257
ܘܢܐ	-258
ܫܪ	-259
ܫܟܚ	-260
ܠܐܠܗܐ	-261
ܒܢܐ	-262
ܒܘܬܐ	-263
ܥܒܕܐ	-264
ܩܝܡ	-265
ܠܝܐ	-266
ܓܠܝ	-267
ܕܐܬ	-268
ܒܟ	-269
ܬܡܢ	-270
ܐܡܪܝܢ	-271
ܗܝܡܢܘܬܐ	-272
ܘܠܘܤ	-273
ܡܫܟܚ	-274
ܥܪ	-275
ܢܤ	-276
ܒܢܝ	-277
ܐܤ	-278
ܩܪܒ	-279
ܚܘ	-280
ܨܒܐ	-281
ܕܬܐ	-282
ܨܒܝܢ	-283
ܢܚ	-284
ܕܤ	-285
ܗܘܝܬܘܢ	-286
ܐܦܐ	-287
ܝܘܡ	-288
ܕܐܦ	-289
ܝܗܝ	-290
ܐܚܝ	-291
ܘܐܝܬ	-292
ܒܤ	-293
ܛܐ	-294
ܒܕ	-295
ܘܚܢܢ	-296
ܒܬܐ	-297
ܩܕܝ	-298
ܬܘܒ	-299
ܐܡܝܢ	-300
ܥܠܘܗܝ	-301
ܡܗ	-302
ܩܒܠ	-303
ܐܚ	-304
ܕܡܬ	-305
ܡܪܐ	-306
ܐܢܫܐ	-307
ܘܚܐ	-308
ܠܓ	-309
ܐܪ	-310
ܫܡܗ	-311
ܘܥܠ	-312
ܢܦܩ	-313
ܘܪܫܠܡ	-314
ܫܥ	-315
ܗܘܝ	-316
ܤܗܕ	-317
ܕܙ	-318
ܥܡܗ	-319
ܗܪ	-320
ܗܘܝܢ	-321
ܚܠܦ	-322
ܗܝܕܝܢ	-323
ܫܠܝ	-324
ܙܒܢ	-325
ܠܐܝܠܝܢ	-326
ܚܛ	-327
ܫܒܩ	-328
ܒܢܝܢܫܐ	-329
ܓܙ	-330
ܗܒ	-331
ܡܪܝ	-332
ܢܝܢ	-333
ܥܢܐ	-334
ܬܬ	-335
ܗܫܐ	-336
ܡܝܐ	-337
ܡܢܗܘܢ	-338
ܟܠܐ	-339
ܡܫܬ	-340
ܝܕܥܝܢ	-341
ܫܩ	-342
ܓܠܐ	-343
ܠܘܬܗ	-344
ܝܗܒ	-345
ܫܝܚܐ	-346
ܐܫܬ	-347
ܠܒܪ	-348
ܠܥܠܡ	-349
ܕܝܫܘܥ	-350
ܝܗܘܕܝܐ	-351
ܡܚ	-352
ܦܪܐ	-353
ܝܬܘܢ	-354
ܟܢ	-355
ܕܒܪ	-356
ܐܙ	-357
ܒܥܐ	-358
ܒܝܬܐ	-359
ܒܟܘܢ	-360
ܐܚܪܢܐ	-361
ܚܝܐ	-362
ܡܢܘ	-363
ܢܦܫܗ	-364
ܒܐܝ	-365
ܘܚܙ	-366
ܚܘܕ	-367
ܢܝܐ	-368
ܪܒܐ	-369
ܕܐܬܐ	-370
ܕܠ	-371
ܒܟܠ	-372
ܘܐܦ	-373
ܡܢܟܘܢ	-374
ܢܡܘܤܐ	-375
ܒܫ	-376
ܦܢܐ	-377
ܡܝܬܐ	-378
ܦܘܠܘܤ	-379
ܟܘ	-380
ܡܝ	-381
ܩܝ	-382
ܬܟ	-383
ܥܡܐ	-384
ܡܝܬ	-385
ܕܝܢܐ	-386
ܬܪܝܢ	-387
ܓܪܐ	-388
ܙܒܢܐ	-389
ܟܗܢܐ	-390
ܟܢܫܐ	-391
ܠܘܬܟܘܢ	-392
ܐܪܥܐ	-393
ܬܠܡܝܕܘܗܝ	-394
ܘܟܠ	-395
ܝܟܘܢ	-396
ܕܘ	-397
ܕܘܢ	-398
ܪܝܢ	-399
ܘܫܬܐ	-400
ܡܤ	-401
ܥܩ	-402
ܕܢܬ	-403
ܦܘܩ	-404
ܐܝܢܐ	-405
ܨܐ	-406
ܤܝܡ	-407
ܪܝܫܐ	-408
ܒܠܚܘܕ	-409
ܪܓ	-410
ܫܪܝ	-411
ܟܐܦܐ	-412
ܥܡܡܐ	-413
ܕܡܫܝܚܐ	-414
ܢܩ	-415
ܠܘܢ	-416
ܤܪܝ	-417
ܐܢܬܬܐ	-418
ܩܒ	-419
ܒܝܕ	-420
ܕܐܢ	-421
ܕܝܬ	-422
ܕܡܪܢ	-423
ܪܥ	-424
ܥܬܝ	-425
ܬܗܘܢ	-426
ܟܠܗܝܢ	-427
ܐܒ	-428
ܘܓ	-429
ܐܙܠ	-430
ܕܡܪ	-431
ܥܡܗܘܢ	-432
ܡܕܝܢܬܐ	-433
ܬܪܥ	-434
ܫܡܥܘ	-435
ܕܟܠ	-436
ܫܡܫ	-437
ܢܒܝܐ	-438
ܪܒܬܐ	-439
ܦܫ	-440
ܒܗܘܢ	-441
ܘܕܫܐ	-442
ܐܝܬܘܗܝ	-443
ܡܟ	-444
ܡܨ	-445
ܘܠܡ	-446
ܫܕܪ	-447
ܘܐܬܐ	-448
ܡܠܐܟܐ	-449
ܛܝܒܘܬܐ	-450
ܐܒܐ	-451
ܟܪܙ	-452
ܡܬܐ	-453
ܤܛ	-454
ܬܝܒ	-455
ܬܝܢ	-456
ܕܐܢܫܐ	-457
ܘܢܦܩ	-458
ܫܒܘܚ	-459
ܕܐܝܬܘܗܝ	-460
ܕܗܘ	-461
ܢܘܢ	-462
ܕܐܢܐ	-463
ܕܥܒܕ	-464
ܓܢ	-465
ܘܒܪ	-466
ܟܝܢ	-467
ܤܪܐ	-468
ܪܘܚ	-469
ܚܝܠܐ	-470
ܘܬܟܘܢ	-471
ܡܥ	-472
ܘܫܐ	-473
ܥܒܪ	-474
ܝܬܝܪܐ	-475
ܘܠܝ	-476
ܒܝܫܐ	-477
ܕܠܡܐ	-478
ܘܕܝ	-479
ܦܝܢ	-480
ܕܩܘܕܫܐ	-481
ܦܝܪ	-482
ܠܡܕܡ	-483
ܬܢ	-484
ܕܚܙ	-485
ܤܝܐ	-486
ܡܠܟܐ	-487
ܤܝܒܪ	-488
ܕܡܪܝܐ	-489
ܗܝܟܠܐ	-490
ܘܗܘ	-491
ܛܝܬܐ	-492
ܪܫ	-493
ܪܒܝ	-494
ܐܝܕܐ	-495
ܠܘܬܐ	-496
ܦܠ	-497
ܩܘ	-498
ܠܚܕ	-499
ܝܡܝܢ	-500
ܡܗܝܡܢ	-501
ܛܒܐ	-502
ܢܛܪ	-503
ܦܩܕ	-504
ܐܫܟܚ	-505
ܒܝܬܗ	-506
ܥܠܡܐ	-507
ܥܠܝܗܘܢ	-508
ܩܠܐ	-509
ܒܢܝܐ	-510
ܘܪܚܐ	-511
ܕܒܗ	-512
ܫܘܠܛ	-513
ܬܪܥܐ	-514
ܕܛ	-515
ܗܝܢ	-516
ܛܝܒ	-517
ܬܗܘܐ	-518
ܠܝܫܘܥ	-519
ܚܬ	-520
ܢܗ	-521
ܤܒ	-522
ܩܡ	-523
ܐܘܠ	-524
ܘܕܐ	-525
ܤܓܝ	-526
ܟܬܒܐ	-527
ܕܓ	-528
ܘܙ	-529
ܚܤ	-530
ܒܥܝܢ	-531
ܚܪܢܐ	-532
ܒܝܫܬܐ	-533
ܝܘܡܬܐ	-534
ܥܒܕܝܢ	-535
ܒܨ	-536
ܘܛ	-537
ܥܕ	-538
ܕܥܠ	-539
ܐܝܟܐ	-540
ܘܗܘܐ	-541
ܡܡܠܠ	-542
ܐܟ	-543
ܐܒܝ	-544
ܩܘܡ	-545
ܬܟܘܢ	-546
ܕܥܠܡܐ	-547
ܒܗܝܡܢܘܬܐ	-548
ܦܤ	-549
ܫܝܫܐ	-550
ܝܬܝܪܐܝܬ	-551
ܐܠܦ	-552
ܘܒܐ	-553
ܝܬܗ	-554
ܟܡܐ	-555
ܠܗܘ	-556
ܠܡܢ	-557
ܝܬܝܪ	-558
ܒܦ	-559
ܡܝܢ	-560
ܠܚܡܐ	-561
ܕܒܝ	-562
ܕܝܩ	-563
ܚܬܐ	-564
ܪܝܐ	-565
ܕܫܡܥ	-566
ܤܪܝܠ	-567
ܥܝ	-568
ܠܝܠ	-569
ܢܫܬ	-570
ܩܪܝ	-571
ܒܪܗܡ	-572
ܥܩܘܒ	-573
ܘܢܝܗܝ	-574
ܫܘܠܛܢܐ	-575
ܠܕ	-576
ܗܢܘ	-577
ܘܕܥ	-578
ܐܢܝܢ	-579
ܕܝܠܝ	-580
ܕܡܘܬܐ	-581
ܩܕܝܫܐ	-582
ܡܠܟܘܬܐ	-583
ܕܚܕ	-584
ܢܤܒ	-585
ܫܘܒ	-586
ܐܦܠܐ	-587
ܕܐܢܬ	-588
ܫܒܬܐ	-589
ܩܕܡܝܐ	-590
ܬܠܡܝܕܐ	-591
ܕܚܝ	-592
ܘܒܗ	-593
ܦܐܪܐ	-594
ܕܠܥܠܡ	-595
ܠܒ	-596
ܥܢ	-597
ܙܠܘ	-598
ܚܒܝ	-599
ܫܝܢ	-600
ܫܪܐ	-601
ܫܥܬܐ	-602
ܒܪܢܫܐ	-603
ܙܥ	-604
ܘܐܝ	-605
ܘܤܦ	-606
ܪܫܐ	-607
ܥܝܢܐ	-608
ܥܡܟܘܢ	-609
ܥܠܝܟܘܢ	-610
ܫܒܘܚܬܐ	-611
ܡܛ	-612
ܐܚܐ	-613
ܕܐܝ	-614
ܘܗܐ	-615
ܚܙܝ	-616
ܩܘܪ	-617
ܪܡܐ	-618
ܬܝܗܒ	-619
ܓܠܝܠܐ	-620
ܗܝܡܢܐ	-621
ܩܛ	-622
ܩܦ	-623
ܪܗ	-624
ܐܬܬ	-625
ܟܪܝ	-626
ܫܢܐ	-627
ܕܝܕܥ	-628
ܤܝܪܐ	-629
ܫܒܥܐ	-630
ܝܘܚܢܢ	-631
ܘܒܝ	-632
ܡܠܝ	-633
ܦܬܚ	-634
ܛܠܝܐ	-635
ܒܫܡܝܐ	-636
ܒܤܪ	-637
ܘܝܕ	-638
ܚܙܘ	-639
ܚܝܢ	-640
ܟܘܪ	-641
ܤܝܢ	-642
ܕܥܬܝ	-643
ܘܐܢܬ	-644
ܛܒܬܐ	-645
ܝܘܡܐ	-646
ܠܡܢܐ	-647
ܥܒܕܝ	-648
ܕܢܗܘܐ	-649
ܢܗܘܘܢ	-650
ܫܘܒܚܐ	-651
ܫܠܝܚܐ	-652
ܠܡܝܕܘܗܝ	-653
ܠܛܘܤ	-654
ܬܪܥܤܪ	-655
ܠܐܘܪܫܠܡ	-656
ܤܬ	-657
ܘܡܗ	-658
ܕܗܘܐ	-659
ܘܐܬܘ	-660
ܕܫܡܝܐ	-661
ܘܬܗܘܢ	-662
ܕܝܗܘܕܝܐ	-663
ܙܕܩ	-664
ܪܚܡ	-665
ܘܐܫܬ	-666
ܒܪܘܚܐ	-667
ܦܪܝܫܐ	-668
ܘܐܝܠܝܢ	-669
ܤܓܝܐܬܐ	-670
ܢܨ	-671
ܕܟܕ	-672
ܥܡܝ	-673
ܪܬܐ	-674
ܫܦܝܪ	-675
ܫܪܪܐ	-676
ܦܝܠܛܘܤ	-677
ܤܡ	-678
ܐܬܪ	-679
ܚܡܐ	-680
ܦܘܤ	-681
ܐܝܕܗ	-682
ܒܬܪܗ	-683
ܕܘܝܕ	-684
ܘܐܙܠ	-685
ܢܝܬܐ	-686
ܐܤܝܪܐ	-687
ܘܗܢܘܢ	-688
ܠܓܒܪܐ	-689
ܡܫܟܚܝܢ	-690
ܓܡ	-691
ܟܤ	-692
ܥܘ	-693
ܕܥܡ	-694
ܝܡܐ	-695
ܦܘܪ	-696
ܒܢܦܫ	-697
ܘܪܬܐ	-698
ܘܫܕܪ	-699
ܚܕܬܐ	-700
ܡܘܫܐ	-701
ܡܘܬܐ	-702
ܢܘܬܐ	-703
ܤܦܪܐ	-704
ܪܐܝܬ	-705
ܕܪܘܚܐ	-706
ܘܐܡܪܘ	-707
ܠܘܩܕܡ	-708
ܠܟܠܗܘܢ	-709
ܦܘܩܕܢܐ	-710
ܚܒ	-711
ܝܬܒ	-712
ܕܫܡܗ	-713
ܘܗܪܐ	-714
ܘܪܒܐ	-715
ܘܫܪܝ	-716
ܠܒܝܬ	-717
ܙܒܢܝܢ	-718
ܝܠ	-719
ܐܪܒ	-720
ܘܡܬ	-721
ܩܛܠ	-722
ܐܡܪܬ	-723
ܕܠܝܬ	-724
ܘܐܢܐ	-725
ܠܗܝܢ	-726
ܠܗܢܐ	-727
ܩܠܝܠ	-728
ܫܠܡܐ	-729
ܕܐܪܥܐ	-730
ܚܛܝܬܐ	-731
ܨܒܝܢܗ	-732
ܪܬ	-733
ܕܒܐ	-734
ܚܝܒ	-735
ܠܡܬ	-736
ܦܠܓ	-737
ܩܝܢ	-738
ܕܡܝܐ	-739
ܘܩܪܒ	-740
ܚܙܘܢ	-741
ܟܠܢܫ	-742
ܡܪܝܡ	-743
ܐܢܘܬܐ	-744
ܬܪܬܝܢ	-745
ܡܗܝܡܢܐ	-746
ܨܝ	-747
ܩܢ	-748
ܕܥܒ	-749
ܘܤܓ	-750
ܚܙܝܢ	-751
ܡܟܝܠ	-752
ܥܕܬܐ	-753
ܐܝܬܝܗ	-754
ܕܟܬܝܒ	-755
ܩܠ	-756
ܐܓܪ	-757
ܐܟܠ	-758
ܒܥܠ	-759
ܒܪܝ	-760
ܘܚܕ	-761
ܟܘܠ	-762
ܥܘܠ	-763
ܦܓܪ	-764
ܐܡܪܘ	-765
ܕܚܝܐ	-766
ܕܡܠܟ	-767
ܗܘܕܐ	-768
ܘܡܛܠ	-769
ܘܡܬܐ	-770
ܠܘܬܝ	-771
ܢܐܡܪ	-772
ܫܠܝܛ	-773
ܫܢܝܢ	-774
ܬܚܝܬ	-775
ܕܚܠܬܐ	-776
ܝܘܡܝܢ	-777
ܟܠܡܕܡ	-778
ܐܝܬܝܗܘܢ	-779
ܡܓ	-780
ܡܩ	-781
ܦܢ	-782
ܦܬ	-783
ܟܠܝ	-784
ܤܠܩ	-785
ܫܐܠ	-786
ܒܡܪܢ	-787
ܘܝܗܒ	-788
ܝܘܗܝ	-789
ܝܪܝܢ	-790
ܗܝܡܢܘ	-791
ܠܥܠܡܐ	-792
ܡܠܠܝܢ	-793
ܕܨ	-794
ܙܝ	-795
ܠܤ	-796
ܘܕܤ	-797
ܠܐܝ	-798
ܘܫܡܥ	-799
ܚܘܒܐ	-800
ܕܡܗܝܡܢ	-801
ܙܕ	-802
ܚܫ	-803
ܦܟ	-804
ܐܬܘ	-805
ܐܬܝ	-806
ܒܗܪ	-807
ܢܦܠ	-808
ܒܟܠܗ	-809
ܥܒܕܘ	-810
ܫܒܘܩ	-811
ܫܘܟܐ	-812
ܥܒܕܘܗܝ	-813
ܛܒ	-814
ܠܨ	-815
ܕܫܘ	-816
ܪܟܐ	-817
ܕܒܚܐ	-818
ܕܝܠܗ	-819
ܘܬܘܒ	-820
ܡܗܠܟ	-821
ܩܕܝܡ	-822
ܬܠܬܐ	-823
ܘܠܦܢܐ	-824
ܓܐ	-825
ܘܨ	-826
ܐܝܡ	-827
ܗܘܕ	-828
ܘܐܪ	-829
ܘܬܝ	-830
ܡܥܡ	-831
ܗܘܝܘ	-832
ܝܡܬܐ	-833
ܦܓܪܐ	-834
ܒܝܘܡܐ	-835
ܕܝܗܘܢ	-836
ܛܝܒܘܬܗ	-837
ܝܕܥܝܢܢ	-838
ܐܝܢ	-839
ܕܬܬ	-840
ܝܐܐ	-841
ܪܝܫ	-842
ܫܒܥ	-843
ܢܦܫܟ	-844
ܠܬܠܡܝܕܘܗܝ	-845
ܤܟ	-846
ܥܬ	-847
ܐܠܘ	-848
ܘܥܡ	-849
ܛܢܦ	-850
ܟܘܬ	-851
ܠܥܠ	-852
ܡܪܗ	-853
ܡܬܚ	-854
ܫܡܐ	-855
ܐܘܠܕ	-856
ܐܬܝܬ	-857
ܒܘܗܝ	-858
ܒܪܘܚ	-859
ܕܒܝܬ	-860
ܘܒܬܪ	-861
ܝܪܬܐ	-862
ܠܝܬܐ	-863
ܡܬܠܐ	-864
ܒܐܪܥܐ	-865
ܕܗܠܝܢ	-866
ܚܝܘܬܐ	-867
ܬܗܘܘܢ	-868
ܕܢܗܘܘܢ	-869
ܠܘܬܗܘܢ	-870
ܓܠ	-871
ܕܚܠ	-872
ܙܪܥ	-873
ܨܢܐ	-874
ܩܐܡ	-875
ܕܝܫܐ	-876
ܕܨܒܐ	-877
ܕܫܕܪ	-878
ܚܘܗܝ	-879
ܢܦܫܝ	-880
ܥܒܕܘܢ	-881
ܐܝܤܪܝܠ	-882
ܒܟܠܙܒܢ	-883
ܕܒܫܡܝܐ	-884
ܕܡܬܩܪܐ	-885
ܒܓ	-886
ܝܩ	-887
ܘܩܡ	-888
ܟܬܒ	-889
ܦܠܚ	-890
ܕܐܫܬ	-891
ܕܢܦܩ	-892
ܕܥܘܢ	-893
ܟܡܬܐ	-894
ܟܬܝܒ	-895
ܠܐܟܐ	-896
ܫܐܕܐ	-897
ܒܐܝܕܗ	-898
ܒܝܫܘܥ	-899
ܟܠܟܘܢ	-900
ܠܗܢܘܢ	-901
ܠܘܩܒܠ	-902
ܠܡܐܡܪ	-903
ܩܫܝܫܐ	-904
ܒܡܫܝܚܐ	-905
ܕܐܝܠܝܢ	-906
ܘܐܚܪܢܐ	-907
ܒܙ	-908
ܒܛ	-909
ܕܝܗ	-910
ܟܤܐ	-911
ܦܝܤ	-912
ܫܡܝ	-913
ܐܡܬܝ	-914
ܐܬܪܐ	-915
ܒܫܡܗ	-916
ܕܐܝܟ	-917
ܕܗܒܐ	-918
ܕܝܗܒ	-919
ܘܩܪܐ	-920
ܠܡܝܢ	-921
ܥܤܪܐ	-922
ܪܝܬܐ	-923
ܘܕܝܬܐ	-924
ܠܝܦܘܤ	-925
ܠܟܢܫܐ	-926
ܒܗܝܟܠܐ	-927
ܒܢܡܘܤܐ	-928
ܠܦܘܠܘܤ	-929
ܒܗܘ	-930
ܕܟܝ	-931
ܘܛܐ	-932
ܢܚܬ	-933
ܥܬܐ	-934
ܗܪܟܐ	-935
ܘܐܝܟ	-936
ܘܟܬܐ	-937
ܡܫܡܫ	-938
ܫܐܠܝܢ	-939
ܫܪܒܬܐ	-940
ܐܘܪܫܠܡ	-941
ܠܡܕܝܢܬܐ	-942
ܢܓ	-943
ܢܛ	-944
ܦܨ	-945
ܫܢ	-946
ܒܘܪ	-947
ܬܪܐ	-948
ܐܚܝܢ	-949
ܐܡܪܐ	-950
ܕܝܩܐ	-951
ܘܕܠܐ	-952
ܘܚܙܐ	-953
ܥܒܕܗ	-954
ܥܠܝܢ	-955
ܤܗܕܘܬܐ	-956
ܤܩ	-957
ܥܗ	-958
ܒܚܕ	-959
ܒܪܡ	-960
ܘܟܐ	-961
ܘܫܘ	-962
ܠܟܠ	-963
ܠܦܐ	-964
ܦܪܨ	-965
ܒܐܦܐ	-966
ܕܒܪܐ	-967
ܕܡܝܬ	-968
ܕܢܫܬ	-969
ܘܡܢܐ	-970
ܩܪܝܐ	-971
ܪܓܠܝ	-972
ܫܡܫܐ	-973
ܒܫܠܡܐ	-974
ܘܗܒܬܐ	-975
ܠܡܥܒܕ	-976
ܢܘܫܬܐ	-977
ܫܡܫܬܐ	-978
ܒܐܘܪܚܐ	-979
ܕܐܝܬܝܗ	-980
ܘܟܠܗܘܢ	-981
ܡܠܟܘܬܗ	-982
ܬܫܒܘܚܬܐ	-983
ܒܗܝ	-984
ܒܛܠ	-985
ܒܫܘ	-986
ܕܗܐ	-987
ܕܡܗ	-988
ܕܢܚ	-989
ܡܦܩ	-990
ܢܒܐ	-991
ܥܝܪ	-992
ܪܫܗ	-993
ܬܠܬ	-994
ܒܗܝܢ	-995
ܕܝܢܢ	-996
ܠܐܢܫ	-997
ܠܟܢܐ	-998
ܥܬܝܕ	-999
ܩܪܒܘ	-1000
ܫܐܠܘ	-1001
ܫܥܬܗ	-1002
ܐܚܘܗܝ	-1003
ܐܠܦܝܢ	-1004
ܕܥܬܝܕ	-1005
ܩܝܡܝܢ	-1006
ܕܝܠܟܘܢ	-1007
ܕܢܡܘܤܐ	-1008
ܘܗܝܕܝܢ	-1009
ܐܫ	-1010
ܝܓ	-1011
ܢܟ	-1012
ܐܠܗ	-1013
ܕܫܪ	-1014
ܡܠܦ	-1015
ܡܬܝ	-1016
ܥܘܪ	-1017
ܒܗܕܐ	-1018
ܕܝܠܢ	-1019
ܕܡܕܡ	-1020
ܘܐܙܠܘ	-1021
ܡܠܦܢܐ	-1022
ܦܝܢܬܐ	-1023
ܕܐܢܬܘܢ	-1024
ܕܝܩܘܬܐ	-1025
ܕܒܢܝܢܫܐ	-1026
ܙܐ	-1027
ܕܥܐ	-1028
ܘܕܚ	-1029
ܘܚܪ	-1030
ܟܢܫ	-1031
ܡܘܬ	-1032
ܢܬܠ	-1033
ܥܘܢ	-1034
ܒܝܡܐ	-1035
ܒܩܠܐ	-1036
ܕܐܢܫ	-1037
ܕܒܪܗ	-1038
ܕܓܠܐ	-1039
ܘܗܫܐ	-1040
ܠܚܝܐ	-1041
ܤܒܪܐ	-1042
ܤܛܢܐ	-1043
ܥܒܕܬ	-1044
ܒܡܠܬܐ	-1045
ܕܗܟܢܐ	-1046
ܕܗܢܘܢ	-1047
ܘܡܚܕܐ	-1048
ܠܡܘܬܐ	-1049
ܡܡܠܠܝܢ	-1050
ܪܓܠܘܗܝ	-1051
ܚܨ	-1052
ܦܗ	-1053
ܒܗܬ	-1054
ܘܢܬ	-1055
ܛܘܤ	-1056
ܛܢܐ	-1057
ܠܟܝ	-1058
ܡܐܬ	-1059
ܡܢܝ	-1060
ܡܬܪ	-1061
ܢܚܐ	-1062
ܫܒܚ	-1063
ܬܪܝ	-1064
ܒܪܝܢ	-1065
ܒܬܪܝ	-1066
ܕܩܕܡ	-1067
ܚܛܗܐ	-1068
ܟܢܫܘ	-1069
ܠܒܪܗ	-1070
ܦܝܪܐ	-1071
ܐܘܪܚܐ	-1072
ܕܢܒܝܐ	-1073
ܘܐܫܟܚ	-1074
ܠܝܘܡܐ	-1075
ܢܘܗܪܐ	-1076
ܤܒܪܝܢ	-1077
ܕܝܘܚܢܢ	-1078
ܨܦ	-1079
ܒܥܘ	-1080
ܘܚܝ	-1081
ܡܬܗ	-1082
ܐܝܬܝ	-1083
ܐܩܝܡ	-1084
ܒܤܪܐ	-1085
ܘܐܬܬ	-1086
ܘܠܝܬ	-1087
ܘܡܠܦ	-1088
ܘܪܝܐ	-1089
ܚܡܪܐ	-1090
ܟܠܘܢ	-1091
ܠܡܠܟ	-1092
ܡܩܒܠ	-1093
ܢܘܪܐ	-1094
ܪܘܚܗ	-1095
ܫܪܟܐ	-1096
ܐܒܘܗܝ	-1097
ܐܚܪܝܐ	-1098
ܓܠܝܘܢ	-1099
ܕܕܘܝܕ	-1100
ܕܢܐܙܠ	-1101
ܘܒܥܝܢ	-1102
ܘܠܝܘܡܐ	-1103
ܘܦܪܝܫܐ	-1104
ܩܕܡܘܗܝ	-1105
ܦܝܠܝܦܘܤ	-1106
ܬܘ	-1107
ܕܠܗ	-1108
ܘܢܗ	-1109
ܘܦܐ	-1110
ܘܦܪ	-1111
ܘܬܢ	-1112
ܡܫܟ	-1113
ܕܐܬܝ	-1114
ܕܪܚܡ	-1115
ܘܟܠܗ	-1116
ܘܡܕܡ	-1117
ܘܤܠܩ	-1118
ܘܦܩܕ	-1119
ܘܫܝܐ	-1120
ܚܪܬܐ	-1121
ܐܒܪܗܡ	-1122
ܐܬܘܬܐ	-1123
ܒܥܠܡܐ	-1124
ܕܗܝܡܢ	-1125
ܟܘܡܪܐ	-1126
ܡܤܝܒܪ	-1127
ܥܠܡܝܢ	-1128
ܩܒܘܪܐ	-1129
ܫܦܝܪܐ	-1130
ܗܝܡܢܘܢ	-1131
ܟܘܪܤܝܐ	-1132
ܢܦܫܗܘܢ	-1133
ܘܠܐܝܠܝܢ	-1134
ܘܢܓܠܝܘܢ	-1135
ܡܗܝܡܢܝܢ	-1136
ܐܦܝ	-1137
ܒܕܪ	-1138
ܕܡܠ	-1139
ܘܓܐ	-1140
ܘܝܗ	-1141
ܘܬܟ	-1142
ܠܡܤ	-1143
ܡܘܢ	-1144
ܡܝܘ	-1145
ܡܢܢ	-1146
ܡܬܬ	-1147
ܥܝܐ	-1148
ܥܡܕ	-1149
ܪܢܐ	-1150
ܐܬܝܢ	-1151
ܕܝܬܒ	-1152
ܘܐܚܕ	-1153
ܡܬܘܡ	-1154
ܕܢܐܬܐ	-1155
ܗܪܘܕܤ	-1156
ܘܚܙܝܬ	-1157
ܙܥܘܪܐ	-1158
ܡܫܟܚܐ	-1159
ܥܕܟܝܠ	-1160
ܓܙܘܪܬܐ	-1161
ܒܐܘܪܫܠܡ	-1162
ܘܗܘܝܬܘܢ	-1163
ܫܪܝܪܐܝܬ	-1164
ܡܙ	-1165
ܐܡܗ	-1166
ܓܙܐ	-1167
ܓܪܝ	-1168
ܕܪܒ	-1169
ܘܐܤ	-1170
ܛܝܐ	-1171
ܠܓܘ	-1172
ܡܢܟ	-1173
ܢܢܐ	-1174
ܐܙܕܗ	-1175
ܕܫܠܝ	-1176
ܛܘܒܝ	-1177
ܠܟܠܢ	-1178
ܡܠܬܗ	-1179
ܢܐܬܐ	-1180
ܥܠܝܗ	-1181
ܪܥܝܢ	-1182
ܒܥܠܕܒ	-1183
ܕܘܢܝܐ	-1184
ܕܥܡܡܐ	-1185
ܘܤܦܪܐ	-1186
ܕܩܝܡܝܢ	-1187
ܡܘܗܒܬܐ	-1188
ܢܦܫܟܘܢ	-1189
ܕܐܝܬܝܗܘܢ	-1190
ܚܩ	-1191
ܛܘ	-1192
ܝܕ	-1193
ܠܙ	-1194
ܐܚܕ	-1195
ܐܝܠ	-1196
ܐܦܩ	-1197
ܒܪܟ	-1198
ܕܟܪ	-1199
ܕܠܝ	-1200
ܠܗܝ	-1201
ܠܡܪ	-1202
ܢܝܚ	-1203
ܦܢܝ	-1204
ܩܬܐ	-1205
ܒܝܢܢ	-1206
ܕܝܘܐ	-1207
ܕܝܡܐ	-1208
ܕܡܫܬ	-1209
ܕܢܤܒ	-1210
ܚܙܝܬ	-1211
ܚܡܫܐ	-1212
ܛܝܪܐ	-1213
ܟܘܗܝ	-1214
ܟܝܡܐ	-1215
ܠܝܢܢ	-1216
ܠܡܪܢ	-1217
ܡܚܕܐ	-1218
ܡܪܘܢ	-1219
ܢܥܒܕ	-1220
ܩܪܨܐ	-1221
ܬܟܪܐ	-1222
ܐܚܪܬܐ	-1223
ܕܝܬܩܐ	-1224
ܝܗܘܕܐ	-1225
ܠܛܘܪܐ	-1226
ܠܟܠܢܫ	-1227
ܪܥܝܢܐ	-1228
ܫܡܥܝܢ	-1229
ܕܐܡܪܝܢ	-1230
ܕܫܕܪܢܝ	-1231
ܘܐܢܬܘܢ	-1232
ܠܒܢܝܢܫܐ	-1233
ܚܗ	-1234
ܐܦܢ	-1235
ܒܘܢ	-1236
ܘܢܝ	-1237
ܡܐܐ	-1238
ܫܘܐ	-1239
ܫܢܝ	-1240
ܐܙܠܘ	-1241
ܕܚܙܐ	-1242
ܘܒܠܐ	-1243
ܘܥܢܐ	-1244
ܙܕܕܩ	-1245
ܙܥܘܪ	-1246
ܚܛܝܐ	-1247
ܡܐܢܐ	-1248
ܡܠܠܘ	-1249
ܤܡܝܐ	-1250
ܥܠܝܟ	-1251
ܩܪܒܐ	-1252
ܫܘܬܐ	-1253
ܐܝܡܟܐ	-1254
ܐܬܚܙܝ	-1255
ܒܘܟܘܢ	-1256
ܒܠܠܝܐ	-1257
ܠܒܝܬܗ	-1258
ܦܘܩܕܢ	-1259
ܨܒܝܢܐ	-1260
ܥܝܢܝܗܘܢ	-1261
ܤܦ	-1262
ܐܤܛ	-1263
ܕܪܐ	-1264
ܘܡܪ	-1265
ܘܤܡ	-1266
ܘܪܗ	-1267
ܝܬܪ	-1268
ܠܒܐ	-1269
ܡܐܢ	-1270
ܡܚܒ	-1271
ܡܛܝ	-1272
ܥܡܢ	-1273
ܥܪܐ	-1274
ܦܩܚ	-1275
ܫܘܬ	-1276
ܐܒܘܢ	-1277
ܕܩܐܡ	-1278
ܕܩܒܠ	-1279
ܘܫܒܩ	-1280
ܟܬܒܬ	-1281
ܠܥܡܐ	-1282
ܡܤܒܪ	-1283
ܥܒܪܐ	-1284
ܥܠܬܐ	-1285
ܦܘܡܗ	-1286
ܪܚܡܐ	-1287
ܒܪܝܬܐ	-1288
ܕܡܡܠܠ	-1289
ܕܫܡܥܘ	-1290
ܕܫܪܪܐ	-1291
ܕܬܗܘܐ	-1292
ܘܐܝܢܐ	-1293
ܘܗܟܢܐ	-1294
ܘܢܦܩܘ	-1295
ܚܒܝܒܐ	-1296
ܚܒܝܒܝ	-1297
ܚܕܘܬܐ	-1298
ܠܝܘܗܝ	-1299
ܠܫܡܝܐ	-1300
ܢܗܘܝܢ	-1301
ܫܪܝܪܐ	-1302
ܘܤܓܝܐܐ	-1303
ܘܩܫܝܫܐ	-1304
ܠܐܚܘܗܝ	-1305
ܠܫܡܥܘܢ	-1306
ܡܘܠܟܢܐ	-1307
ܒܚܗ	-1308
ܒܝܫ	-1309
ܓܡܐ	-1310
ܕܟܐ	-1311
ܕܡܨ	-1312
ܗܒܬ	-1313
ܘܒܕ	-1314
ܙܢܝ	-1315
ܙܩܝ	-1316
ܡܬܛ	-1317
ܥܡܟ	-1318
ܦܫܝ	-1319
ܕܤܒܪ	-1320
ܕܥܕܐ	-1321
ܘܒܟܠ	-1322
ܘܠܬܐ	-1323
ܘܥܒܕ	-1324
ܙܪܥܐ	-1325
ܝܕܥܘ	-1326
ܟܬܘܒ	-1327
ܡܟܤܐ	-1328
ܢܩܘܡ	-1329
ܤܗܕܐ	-1330
ܫܥܝܢ	-1331
ܒܢܘܗܝ	-1332
ܕܚܙܝܢ	-1333
ܕܢܘܪܐ	-1334
ܘܐܡܪܐ	-1335
ܘܐܩܝܡ	-1336
ܘܢܗܘܐ	-1337
ܘܫܠܡܐ	-1338
ܘܫܡܥܬ	-1339
ܠܡܐܟܠ	-1340
ܦܪܨܘܦ	-1341
ܐܘܠܨܢܐ	-1342
ܐܙܕܗܪܘ	-1343
ܕܟܠܗܘܢ	-1344
ܢܛܪܘܢܐ	-1345
ܩܕܡܝܬܐ	-1346
ܫܒܘܚܬܗ	-1347
ܗܦ	-1348
ܟܫ	-1349
ܤܢ	-1350
ܪܛ	-1351
ܐܒܗ	-1352
ܒܩܢ	-1353
ܗܠܟ	-1354
ܘܡܨ	-1355
ܛܝܢ	-1356
ܠܟܐ	-1357
ܠܡܨ	-1358
ܡܦܤ	-1359
ܥܕܪ	-1360
ܥܠܐ	-1361
ܦܘܡ	-1362
ܦܬܐ	-1363
ܩܘܐ	-1364
ܩܢܐ	-1365
ܪܚܝ	-1366
ܫܩܠ	-1367
ܒܒܤܪ	-1368
ܒܗܢܐ	-1369
ܕܒܢܝ	-1370
ܕܗܢܐ	-1371
ܕܘܠܐ	-1372
ܕܚܢܢ	-1373
ܕܡܛܠ	-1374
ܕܥܡܐ	-1375
ܘܒܥܐ	-1376
ܘܢܦܠ	-1377
ܛܘܪܐ	-1378
ܝܘܤܦ	-1379
ܠܐܢܬ	-1380
ܠܘܬܢ	-1381
ܡܪܝܢ	-1382
ܢܦܩܘ	-1383
ܥܘܠܐ	-1384
ܥܠܘܢ	-1385
ܦܓܪܗ	-1386
ܦܘܬܐ	-1387
ܐܚܪܝܢ	-1388
ܐܢܫܝܢ	-1389
ܐܢܬܬܗ	-1390
ܐܫܟܚܘ	-1391
ܒܟܬܒܐ	-1392
ܕܓܒܪܐ	-1393
ܝܥܩܘܒ	-1394
ܠܐܪܥܐ	-1395
ܕܬܗܘܘܢ	-1396
ܘܐܝܟܢܐ	-1397
ܟܐܢܘܬܐ	-1398
ܟܢܘܫܬܐ	-1399
ܒܝܢܬܗܘܢ	-1400
ܙܒ	-1401
ܒܚܪ	-1402
ܕܐܚ	-1403
ܕܟܬ	-1404
ܘܟܪ	-1405
ܘܡܠ	-1406
ܘܢܦ	-1407
ܘܥܐ	-1408
ܟܠܢ	-1409
ܡܫܐ	-1410
ܤܡܐ	-1411
ܥܤܪ	-1412
ܦܪܫ	-1413
ܩܠܘ	-1414
ܩܥܐ	-1415
ܪܕܦ	-1416
ܬܫܬ	-1417
ܒܠܚܘ	-1418
ܕܒܝܫ	-1419
ܕܚܠܬ	-1420
ܕܝܠܟ	-1421
ܕܢܚܐ	-1422
ܘܢܢܝ	-1423
ܟܚܕܐ	-1424
ܠܗܫܐ	-1425
ܠܘܬܟ	-1426
ܠܝܡܐ	-1427
ܡܤܗܕ	-1428
ܢܦܫܢ	-1429
ܫܥܝܐ	-1430
ܒܐܝܕܝ	-1431
ܕܐܡܪܐ	-1432
ܕܕܗܒܐ	-1433
ܕܙܒܢܐ	-1434
ܕܚܠܝܢ	-1435
ܘܩܪܒܘ	-1436
ܠܡܝܕܐ	-1437
ܡܬܚܙܐ	-1438
ܤܗܕܝܢ	-1439
ܥܬܝܪܐ	-1440
ܦܬܓܡܐ	-1441
ܩܪܒܝܢ	-1442
ܕܐܒܪܗܡ	-1443
ܕܐܬܐܡܪ	-1444
ܕܩܕܝܫܐ	-1445
ܝܡܬܐܘܤ	-1446
ܠܐܚܪܢܐ	-1447
ܡܗܠܟܝܢ	-1448
ܬܝܒܘܬܐ	-1449
ܒܡܕܝܢܬܐ	-1450
ܕܗܝܡܢܘܬܐ	-1451
ܐܓ	-1452
ܓܝ	-1453
ܐܘܪ	-1454
ܐܠܝ	-1455
ܐܤܬ	-1456
ܒܠܘ	-1457
ܕܐܤ	-1458
ܕܐܪ	-1459
ܕܚܪ	-1460
ܘܢܤ	-1461
ܝܕܝ	-1462
ܝܘܢ	-1463
ܟܦܪ	-1464
ܩܘܢ	-1465
ܫܥܐ	-1466
ܬܬܐ	-1467
ܐܤܛܪ	-1468
ܐܥܒܕ	-1469
ܕܐܒܐ	-1470
ܕܟܝܐ	-1471
ܕܟܝܢ	-1472
ܕܢܦܫ	-1473
ܘܐܦܩ	-1474
ܘܡܫܬ	-1475
ܘܫܩܠ	-1476
ܘܬܪܐ	-1477
ܚܪܝܢ	-1478
ܝܟܠܐ	-1479
ܠܝܢܐ	-1480
ܠܠܝܐ	-1481
ܡܕܝܢ	-1482
ܡܠܝܢ	-1483
ܡܫܒܚ	-1484
ܢܫܡܥ	-1485
ܦܨܚܐ	-1486
ܫܐܘܠ	-1487
ܐܟܚܕܐ	-1488
ܒܐܠܗܐ	-1489
ܕܡܫܟܚ	-1490
ܚܟܡܬܐ	-1491
ܛܢܦܬܐ	-1492
ܝܘܡܢܐ	-1493
ܟܘܠܬܐ	-1494
ܠܒܝܬܐ	-1495
ܠܟܐܦܐ	-1496
ܕܝܠܗܘܢ	-1497
ܠܗܝܟܠܐ	-1498
ܡܫܡܫܢܐ	-1499
ܒܝܢܬܟܘܢ	-1500
ܟܗ	-1501
ܒܠܐ	-1502
ܕܗܪ	-1503
ܘܠܦ	-1504
ܚܘܝ	-1505
ܚܘܪ	-1506
ܚܡܫ	-1507
ܝܢܝ	-1508
ܟܢܝ	-1509
ܟܬܐ	-1510
ܠܥܤ	-1511
ܠܦܘ	-1512
ܠܫܘ	-1513
ܡܟܝ	-1514
ܢܒܝ	-1515
ܢܘܟ	-1516
ܤܚܩ	-1517
ܤܥܪ	-1518
ܤܬܐ	-1519
ܥܡܪ	-1520
ܩܠܗ	-1521
ܪܝܗ	-1522
ܫܡܟ	-1523
ܐܕܢܐ	-1524
ܐܝܕܝ	-1525
ܒܦܓܪ	-1526
ܒܫܠܡ	-1527
ܕܥܡܗ	-1528
ܘܓܐܐ	-1529
ܘܝܕܥ	-1530
ܘܟܒܐ	-1531
ܘܩܝܐ	-1532
ܟܪܝܐ	-1533
ܠܗܕܐ	-1534
ܡܩܘܐ	-1535
ܢܐܙܠ	-1536
ܢܡܠܠ	-1537
ܥܪܒܐ	-1538
ܦܠܚܐ	-1539
ܐܝܠܢܐ	-1540
ܒܗܠܝܢ	-1541
ܒܚܘܒܐ	-1542
ܒܚܝܠܐ	-1543
ܒܫܒܬܐ	-1544
ܒܫܥܬܐ	-1545
ܓܡܘܢܐ	-1546
ܕܐܩܝܡ	-1547
ܕܒܤܪܐ	-1548
ܗܝܗܘܢ	-1549
ܘܐܬܝܢ	-1550
ܟܪܝܗܐ	-1551
ܠܐܬܪܐ	-1552
ܠܥܕܬܐ	-1553
ܢܐܬܘܢ	-1554
ܩܒܠܘܢ	-1555
ܩܪܝܬܐ	-1556
ܕܓܠܝܠܐ	-1557
ܕܫܡܥܝܢ	-1558
ܕܬܕܥܘܢ	-1559
ܕܬܪܬܝܢ	-1560
ܥܝܢܘܗܝ	-1561
ܕܡܕܝܢܬܐ	-1562
ܒܠܚܘܕܘܗܝ	-1563
ܓܘ	-1564
ܙܪ	-1565
ܛܦ	-1566
ܢܘ	-1567
ܩܫ	-1568
ܕܒܢ	-1569
ܕܗܝ	-1570
ܕܠܘ	-1571
ܕܡܚ	-1572
ܕܡܟ	-1573
ܕܢܢ	-1574
ܕܢܫ	-1575
ܕܥܘ	-1576
ܕܦܪ	-1577
ܘܡܤ	-1578
ܘܬܪ	-1579
ܚܝܬ	-1580
ܚܫܒ	-1581
ܟܕܘ	-1582
ܠܝܘ	-1583
ܠܡܗ	-1584
ܡܝܗ	-1585
ܢܝܩ	-1586
ܢܦܐ	-1587
ܤܘܤ	-1588
ܥܠܘ	-1589
ܪܝܡ	-1590
ܬܢܝ	-1591
ܐܠܦܐ	-1592
ܒܓܠܐ	-1593
ܒܥܓܠ	-1594
ܒܥܠܗ	-1595
ܕܐܚܝ	-1596
ܕܒܟܠ	-1597
ܕܡܠܐ	-1598
ܕܢܬܠ	-1599
ܕܩܪܝ	-1600
ܗܢܝܢ	-1601
ܘܐܪܒ	-1602
ܘܐܬܪ	-1603
ܘܗܕܐ	-1604
ܘܗܘܬ	-1605
ܘܡܝܬ	-1606
ܘܩܠܐ	-1607
ܚܙܘܐ	-1608
ܛܝܒܘ	-1609
ܝܓܬܐ	-1610
ܟܠܝܢ	-1611
ܡܟܪܙ	-1612
ܡܨܠܐ	-1613
ܪܘܗܝ	-1614
ܫܒܛܐ	-1615
ܫܘܗܝ	-1616
ܬܘܬܐ	-1617
ܕܗܘܝܘ	-1618
ܘܗܠܝܢ	-1619
ܘܥܕܡܐ	-1620
ܙܕܝܩܐ	-1621
ܛܝܘܛܐ	-1622
ܠܗܠܝܢ	-1623
ܠܡܪܝܐ	-1624
ܠܥܡܡܐ	-1625
ܢܨܪܝܐ	-1626
ܦܝܤܝܢ	-1627
ܐܪܒܥܝܢ	-1628
ܒܕܡܘܬܐ	-1629
ܕܐܝܟܢܐ	-1630
ܕܝܕܥܝܢ	-1631
ܘܐܬܝܗܒ	-1632
ܝܘܠܦܢܐ	-1633
ܠܡܫܝܚܐ	-1634
ܬܪܝܗܘܢ	-1635
ܒܟܢܘܫܬܐ	-1636
ܕܡܬܩܪܝܐ	-1637
ܙܕܝܩܘܬܐ	-1638
ܡܐܟܘܠܬܐ	-1639
ܗܝܡܢܘܬܟܘܢ	-1640
ܡܦ	-1641
ܕܐܙ	-1642
ܕܪܘ	-1643
ܘܕܡ	-1644
ܘܕܢ	-1645
ܘܥܪ	-1646
ܚܘܢ	-1647
ܚܝܠ	-1648
ܚܠܐ	-1649
ܛܠܝ	-1650
ܡܚܐ	-1651
ܩܘܤ	-1652
ܪܒܢ	-1653
ܪܫܝ	-1654
ܬܕܚ	-1655
ܐܪܙܐ	-1656
ܒܡܝܐ	-1657
ܒܪܝܐ	-1658
ܕܢܛܪ	-1659
ܕܥܬܐ	-1660
ܕܦܝܢ	-1661
ܘܐܢܫ	-1662
ܘܒܢܝ	-1663
ܘܕܒܪ	-1664
ܘܝܬܒ	-1665
ܘܢܤܒ	-1666
ܚܝܠܗ	-1667
ܝܐܝܬ	-1668
ܝܗܒܬ	-1669
ܟܐܢܐ	-1670
ܟܤܦܐ	-1671
ܠܒܢܝ	-1672
ܠܩܤܪ	-1673
ܢܥܒܪ	-1674
ܢܦܫܐ	-1675
ܤܛܘܤ	-1676
ܩܢܝܢ	-1677
ܪܒܬܗ	-1678
ܫܒܝܢ	-1679
ܫܩܘܠ	-1680
ܬܪܝܡ	-1681
ܐܙܠܝܢ	-1682
ܐܫܬܡܥ	-1683
ܒܢܘܪܐ	-1684
ܒܥܒܕܐ	-1685
ܕܚܙܝܬ	-1686
ܕܡܘܫܐ	-1687
ܕܦܓܪܐ	-1688
ܕܫܦܝܪ	-1689
ܕܬܠܬܐ	-1690
ܘܐܪܥܐ	-1691
ܘܒܟܘܢ	-1692
ܘܢܐܡܪ	-1693
ܚܟܝܡܐ	-1694
ܚܫܘܟܐ	-1695
ܠܡܠܬܐ	-1696
ܡܢܘܬܐ	-1697
ܐܒܘܟܘܢ	-1698
ܕܚܛܝܬܐ	-1699
ܠܓܠܝܠܐ	-1700
ܦܪܨܘܦܗ	-1701
ܩܪܝܬܘܢ	-1702
ܒܢܦܫܗܘܢ	-1703
ܐܨ	-1704
ܝܘ	-1705
ܨܒ	-1706
ܫܕ	-1707
ܐܬܛ	-1708
ܒܘܟ	-1709
ܒܛܝ	-1710
ܓܢܒ	-1711
ܕܛܒ	-1712
ܕܢܦ	-1713
ܘܟܝ	-1714
ܘܪܓ	-1715
ܘܬܦ	-1716
ܛܠܐ	-1717
ܛܡܐ	-1718
ܟܠܘ	-1719
ܠܒܫ	-1720
ܠܗܢ	-1721
ܤܢܐ	-1722
ܥܒܝ	-1723
ܪܗܘ	-1724
ܐܓܪܐ	-1725
ܐܫܠܡ	-1726
ܒܚܕܐ	-1727
ܒܫܡܝ	-1728
ܕܐܒܝ	-1729
ܕܡܝܢ	-1730
ܕܥܠܝ	-1731
ܕܬܠܬ	-1732
ܗܕܡܐ	-1733
ܘܕܝܐ	-1734
ܘܕܦܐ	-1735
ܘܩܕܡ	-1736
ܘܫܠܝ	-1737
ܠܟܠܗ	-1738
ܠܡܦܩ	-1739
ܡܘܕܐ	-1740
ܡܠܠܬ	-1741
ܡܫܕܪ	-1742
ܢܚܘܡ	-1743
ܢܤܒܝ	-1744
ܢܫܟܚ	-1745
ܤܢܝܐ	-1746
ܥܢܢܐ	-1747
ܩܪܝܢ	-1748
ܫܡܥܬ	-1749
ܬܝܕܥ	-1750
ܐܝܡܡܐ	-1751
ܐܫܬܟܚ	-1752
ܐܬܡܠܝ	-1753
ܒܒܝܬܐ	-1754
ܒܢܦܫܗ	-1755
ܕܢܐܡܪ	-1756
ܕܫܒܬܐ	-1757
ܘܠܨܢܐ	-1758
ܝܪܘܬܐ	-1759
ܤܒܪܬܐ	-1760
ܤܝܘܢܐ	-1761
ܦܬܟܪܐ	-1762
ܪܘܪܒܐ	-1763
ܐܬܟܢܫܘ	-1764
ܕܤܓܝܐܐ	-1765
ܕܫܡܥܘܢ	-1766
ܘܐܬܚܙܝ	-1767
ܠܡܤܟܢܐ	-1768
ܩܘܪܒܢܐ	-1769
ܫܡܥܬܘܢ	-1770
ܠܒܘܬܟܘܢ	-1771
ܠܝܗܘܕܝܐ	-1772
ܕܡܗܝܡܢܝܢ	-1773
ܦܛ	-1774
ܒܐܤ	-1775
ܒܪܫ	-1776
ܕܚܛ	-1777
ܘܗܒ	-1778
ܚܘܐ	-1779
ܝܪܝ	-1780
ܟܪܟ	-1781
ܠܚܐ	-1782
ܡܪܚ	-1783
ܤܐܡ	-1784
ܤܘܢ	-1785
ܤܛܪ	-1786
ܩܝܐ	-1787
ܩܡܬ	-1788
ܩܫܝ	-1789
ܬܢܐ	-1790
ܬܪܗ	-1791
ܬܪܢ	-1792
ܐܚܝܕ	-1793
ܐܫܬܐ	-1794
ܒܒܝܬ	-1795
ܓܠܝܐ	-1796
ܓܢܒܐ	-1797
ܕܟܬܝ	-1798
ܕܡܢܘ	-1799
ܕܩܤܪ	-1800
ܕܪܝܫ	-1801
ܘܒܪܟ	-1802
ܘܚܕܐ	-1803
ܘܚܝܐ	-1804
ܘܟܐܐ	-1805
ܘܡܢܘ	-1806
ܘܬܡܢ	-1807
ܚܒܠܐ	-1808
ܝܪܚܐ	-1809
ܟܘܬܐ	-1810
ܠܟܝܢ	-1811
ܠܡܕܥ	-1812
ܥܠܕܒ	-1813
ܨܦܪܐ	-1814
ܪܫܝܢ	-1815
ܐܝܕܝܐ	-1816
ܒܐܝܢܐ	-1817
ܒܪܢܒܐ	-1818
ܕܘܟܬܐ	-1819
ܕܡܘܬܗ	-1820
ܕܢܥܒܕ	-1821
ܕܥܒܕܐ	-1822
ܗܝܟܘܢ	-1823
ܘܐܡܪܬ	-1824
ܘܠܦܢܗ	-1825
ܘܢܒܝܐ	-1826
ܘܪܘܚܐ	-1827
ܚܛܗܝܢ	-1828
ܝܡܝܢܐ	-1829
ܠܡܫܡܥ	-1830
ܤܒܪܬܗ	-1831
ܩܒܠܝܢ	-1832
ܩܘܪܝܐ	-1833
ܫܐܠܘܢ	-1834
ܫܪܒܬܗ	-1835
ܐܪܡܠܬܐ	-1836
ܒܟܠܡܕܡ	-1837
ܕܥܡܪܝܢ	-1838
ܘܝܘܚܢܢ	-1839
ܡܐܬܝܬܗ	-1840
ܢܐܡܪܘܢ	-1841
ܦܘܪܩܢܐ	-1842
ܩܕܘܢܝܐ	-1843
ܩܕܝܫܬܐ	-1844
ܐܚܪܢܝܬܐ	-1845
ܐܝܕܝܗܘܢ	-1846
ܕܐܝܤܪܝܠ	-1847
ܕܐܬܝܗܒܬ	-1848
ܩܢܛܪܘܢܐ	-1849
ܐܬܓ	-1850
ܒܚܛ	-1851
ܕܢܤ	-1852
ܕܪܟ	-1853
ܗܒܘ	-1854
ܘܠܥ	-1855
ܘܠܨ	-1856
ܘܡܝ	-1857
ܘܪܝ	-1858
ܚܕܘ	-1859
ܛܘܦ	-1860
ܝܠܦ	-1861
ܟܘܤ	-1862
ܟܝܐ	-1863
ܢܬܐ	-1864
ܤܝܒ	-1865
ܥܢܘ	-1866
ܦܪܝ	-1867
ܦܪܩ	-1868
ܐܟܪܙ	-1869
ܐܠܝܐ	-1870
ܕܐܙܠ	-1871
ܕܐܟܠ	-1872
ܕܐܬܘ	-1873
ܕܐܬܬ	-1874
ܕܕܠܐ	-1875
ܕܢܦܠ	-1876
ܕܤܠܩ	-1877
ܕܩܪܐ	-1878
ܕܬܘܒ	-1879
ܘܠܝܐ	-1880
ܘܠܡܢ	-1881
ܘܡܪܢ	-1882
ܘܩܥܐ	-1883
ܙܪܥܗ	-1884
ܚܘܬܐ	-1885
ܝܗܘܕ	-1886
ܠܐܒܝ	-1887
ܠܐܬܐ	-1888
ܠܬܡܢ	-1889
ܡܝܢܐ	-1890
ܡܠܠܐ	-1891
ܡܤܘܩ	-1892
ܥܒܕܢ	-1893
ܥܝܢܟ	-1894
ܥܢܝܐ	-1895
ܩܕܡܝ	-1896
ܩܝܡܐ	-1897
ܫܠܬܐ	-1898
ܐܓܪܬܐ	-1899
ܐܦܘܗܝ	-1900
ܐܫܥܝܐ	-1901
ܒܒܝܬܗ	-1902
ܒܠܫܢܐ	-1903
ܕܝܬܝܪ	-1904
ܕܡܝܬܐ	-1905
ܕܡܪܝܢ	-1906
ܕܢܦܫܗ	-1907
ܘܚܝܠܐ	-1908
ܘܡܟܪܙ	-1909
ܘܡܫܡܫ	-1910
ܘܪܕܢܢ	-1911
ܘܬܗܘܐ	-1912
ܚܙܝܗܝ	-1913
ܚܝܘܗܝ	-1914
ܝܪܐܝܬ	-1915
ܠܡܗܘܐ	-1916
ܤܝܡܬܐ	-1917
ܪܘܚܩܐ	-1918
ܒܝܘܡܬܐ	-1919
ܒܟܠܗܘܢ	-1920
ܘܐܝܩܪܐ	-1921
ܙܢܝܘܬܐ	-1922
ܚܙܐܘܗܝ	-1923
ܟܠܝܪܟܐ	-1924
ܠܐܒܘܗܝ	-1925
ܠܚܝܘܬܐ	-1926
ܡܥܡܕܢܐ	-1927
ܬܕܚܠܘܢ	-1928
ܬܘܢܝܗܝ	-1929
ܐܟܠܩܪܨܐ	-1930
ܒܫܠܡܟܘܢ	-1931
ܕܟܐܢܘܬܐ	-1932
ܘܐܝܬܘܗܝ	-1933
ܛܘܒܝܗܘܢ	-1934
ܠܥܒܕܘܗܝ	-1935
ܬܗܝܡܢܘܢ	-1936
ܡܬܛܦܝܤܝܢ	-1937
ܐܤܛܪܛܝܘܛܐ	-1938
ܚܢ	-1939
ܬܒ	-1940
ܐܬܠ	-1941
ܒܡܨ	-1942
ܒܪܘ	-1943
ܓܘܪ	-1944
ܓܝܢ	-1945
ܕܒܠ	-1946
ܕܘܡ	-1947
ܕܡܛ	-1948
ܕܡܫ	-1949
ܕܫܐ	-1950
ܘܐܙ	-1951
ܘܐܫ	-1952
ܘܕܪ	-1953
ܘܠܗ	-1954
ܘܡܫ	-1955
ܘܤܗ	-1956
ܚܛܐ	-1957
ܠܕܪ	-1958
ܠܦܝ	-1959
ܡܨܝ	-1960
ܢܛܝ	-1961
ܤܦܩ	-1962
ܥܓܠ	-1963
ܦܤܩ	-1964
ܩܕܫ	-1965
ܩܠܝ	-1966
ܩܡܘ	-1967
ܩܤܪ	-1968
ܪܗܛ	-1969
ܫܒܝ	-1970
ܫܠܐ	-1971
ܫܦܪ	-1972
ܬܒܘ	-1973
ܬܟܝ	-1974
ܬܪܬ	-1975
ܐܤܝܪ	-1976
ܒܙܒܢ	-1977
ܒܢܝܗ	-1978
ܒܩܢܐ	-1979
ܕܗܘܘ	-1980
ܕܘܟܐ	-1981
ܕܚܙܘ	-1982
ܕܝܢܗ	-1983
ܕܡܢܐ	-1984
ܕܪܘܚ	-1985
ܕܫܪܝ	-1986
ܗܘܗܝ	-1987
ܗܟܘܬ	-1988
ܘܗܘܘ	-1989
ܘܗܢܐ	-1990
ܘܗܪܗ	-1991
ܘܚܙܘ	-1992
ܘܢܛܪ	-1993
ܘܩܡܘ	-1994
ܚܕܘܢ	-1995
ܚܘܒܗ	-1996
ܝܟܝܢ	-1997
ܟܪܡܐ	-1998
ܠܐܒܐ	-1999
ܠܘܕܐ	-2000
ܠܡܤܒ	-2001
ܠܩܘܒ	-2002
ܡܢܝܢ	-2003
ܢܡܘܬ	-2004
ܢܦܠܘ	-2005
ܢܦܠܬ	-2006
ܢܦܩܬ	-2007
ܢܫܠܡ	-2008
ܦܓܪܝ	-2009
ܦܪܘܩ	-2010
ܨܝܕܐ	-2011
ܩܐܝܬ	-2012
ܩܒܠܘ	-2013
ܩܝܦܐ	-2014
ܪܕܝܢ	-2015
ܪܟܘܢ	-2016
ܪܡܫܐ	-2017
ܫܘܥܐ	-2018
ܐܟܠܝܢ	-2019
ܐܬܝܕܥ	-2020
ܐܬܦܬܚ	-2021
ܐܬܪܚܡ	-2022
ܒܗܢܘܢ	-2023
ܒܢܝܢܐ	-2024
ܒܪܥܝܢ	-2025
ܕܐܫܟܚ	-2026
ܕܕܝܢܐ	-2027
ܕܚܝܠܐ	-2028
ܕܝܗܒܬ	-2029
ܕܝܘܡܐ	-2030
ܕܝܢܝܢ	-2031
ܕܟܝܬܐ	-2032
ܕܡܠܟܐ	-2033
ܕܢܚܙܐ	-2034
ܕܢܥܘܠ	-2035
ܕܤܛܢܐ	-2036
ܕܥܕܬܐ	-2037
ܕܫܠܡܐ	-2038
ܘܐܫܠܡ	-2039
ܘܢܟܘܢ	-2040
ܟܠܝܘܡ	-2041
ܠܐܝܟܐ	-2042
ܠܐܝܢܐ	-2043
ܠܚܡܝܢ	-2044
ܡܡܬܘܡ	-2045
ܡܫܪܝܐ	-2046
ܢܚܙܘܢ	-2047
ܩܕܡܝܟ	-2048
ܪܝܗܘܢ	-2049
ܒܡܕܒܪܐ	-2050
ܒܨܠܘܬܐ	-2051
ܕܒܝܫܘܥ	-2052
ܕܕܝܬܩܐ	-2053
ܕܝܥܩܘܒ	-2054
ܕܡܠܐܟܐ	-2055
ܕܥܐܠܝܢ	-2056
ܕܦܪܝܫܐ	-2057
ܕܫܠܝܚܐ	-2058
ܠܐܒܪܗܡ	-2059
ܠܒܪܢܫܐ	-2060
ܠܡܡܠܠܘ	-2061
ܠܩܪܝܬܐ	-2062
ܦܪܢܚܘܡ	-2063
ܕܚܙܝܬܘܢ	-2064
ܠܡܠܟܘܬܐ	-2065
ܡܛܠܬܟܘܢ	-2066
ܦܘܩܕܢܘܗܝ	-2067
ܐܢܝ	-2068
ܒܝܠ	-2069
ܓܒܝ	-2070
ܓܪܬ	-2071
ܕܝܟ	-2072
ܕܡܝ	-2073
ܕܡܤ	-2074
ܕܩܡ	-2075
ܕܬܗ	-2076
ܘܒܬ	-2077
ܘܗܦ	-2078
ܙܝܥ	-2079
ܙܟܐ	-2080
ܙܢܐ	-2081
ܙܩܦ	-2082
ܛܘܗ	-2083
ܠܚܡ	-2084
ܢܕܥ	-2085
ܢܗܪ	-2086
ܢܫܘ	-2087
ܢܬܬ	-2088
ܤܝܘ	-2089
ܦܝܛ	-2090
ܨܒܘ	-2091
ܨܠܘ	-2092
ܬܢܢ	-2093
ܐܢܬܝ	-2094
ܒܕܡܐ	-2095
ܒܗܬܢ	-2096
ܒܡܕܡ	-2097
ܒܥܬܐ	-2098
ܓܝܪܐ	-2099
ܕܗܕܐ	-2100
ܕܗܘܬ	-2101
ܕܙܪܥ	-2102
ܕܚܕܐ	-2103
ܕܟܠܗ	-2104
ܕܡܛܝ	-2105
ܕܢܚܬ	-2106
ܕܥܡܝ	-2107
ܕܬܘܢ	-2108
ܕܬܡܢ	-2109
ܘܢܚܬ	-2110
ܘܦܝܐ	-2111
ܘܩܪܝ	-2112
ܙܕܩܦ	-2113
ܚܐܪܐ	-2114
ܚܝܠܬ	-2115
ܚܠܦܐ	-2116
ܠܡܥܠ	-2117
ܠܡܬܠ	-2118
ܠܥܙܪ	-2119
ܡܚܝܒ	-2120
ܡܪܬܐ	-2121
ܢܘܢܐ	-2122
ܤܝܦܐ	-2123
ܤܢܝܩ	-2124
ܥܝܪܘ	-2125
ܥܩܪܐ	-2126
ܦܘܡܐ	-2127
ܦܤܘܤ	-2128
ܨܘܗܝ	-2129
ܩܒܪܐ	-2130
ܩܛܘܠ	-2131
ܩܪܘܢ	-2132
ܪܥܝܐ	-2133
ܫܘܝܢ	-2134
ܫܠܝܐ	-2135
ܬܟܠܘ	-2136
ܐܫܟܚܬ	-2137
ܓܒܪܝܢ	-2138
ܓܘܫܝܐ	-2139
ܓܙܪܬܐ	-2140
ܕܐܡܪܬ	-2141
ܕܟܠܢܫ	-2142
ܕܨܒܝܢ	-2143
ܕܪܐܘܤ	-2144
ܕܪܥܝܢ	-2145
ܕܬܪܝܢ	-2146
ܘܐܠܗܐ	-2147
ܘܐܦܠܐ	-2148
ܘܓܒܪܐ	-2149
ܘܠܐܡܗ	-2150
ܘܫܕܪܘ	-2151
ܘܫܡܥܘ	-2152
ܘܫܪܝܘ	-2153
ܚܠܦܝܢ	-2154
ܟܠܝܠܐ	-2155
ܠܐܠܦܐ	-2156
ܠܡܚܙܐ	-2157
ܠܥܒܪܐ	-2158
ܠܪܘܚܐ	-2159
ܢܬܩܪܐ	-2160
ܤܝܡܘܢ	-2161
ܫܒܘܩܘ	-2162
ܫܡܝܬܐ	-2163
ܐܦܝܟܘܢ	-2164
ܒܕܚܠܬܐ	-2165
ܕܝܬܒܝܢ	-2166
ܕܢܬܡܠܐ	-2167
ܕܦܘܠܘܤ	-2168
ܗܓܡܘܢܐ	-2169
ܘܐܩܝܡܗ	-2170
ܘܐܪܡܝܘ	-2171
ܘܐܬܦܢܝ	-2172
ܘܫܬܗܘܢ	-2173
ܠܝܘܚܢܢ	-2174
ܢܘܟܪܝܐ	-2175
ܥܒܝܕܝܢ	-2176
ܬܪܢܓܠܐ	-2177
ܘܠܝܘܚܢܢ	-2178
ܘܫܐܠܘܗܝ	-2179
ܠܟܢܘܫܬܐ	-2180
ܥܡܘܕܝܬܐ	-2181
ܡܤܝܒܪܢܘܬܐ	-2182
ܫܛ	-2183
ܒܪܬ	-2184
ܕܡܘ	-2185
ܕܤܡ	-2186
ܗܦܟ	-2187
ܘܪܒ	-2188
ܘܪܩ	-2189
ܘܫܒ	-2190
ܘܫܛ	-2191
ܘܫܪ	-2192
ܚܐܪ	-2193
ܚܠܝ	-2194
ܚܢܐ	-2195
ܟܦܢ	-2196
ܡܓܕ	-2197
ܡܛܐ	-2198
ܡܟܐ	-2199
ܡܤܬ	-2200
ܤܓܕ	-2201
ܤܝܗ	-2202
ܤܪܗ	-2203
ܦܪܘ	-2204
ܨܝܢ	-2205
ܩܒܪ	-2206
ܪܘܙ	-2207
ܪܘܢ	-2208
ܪܤܐ	-2209
ܫܝܓ	-2210
ܐܬܝܐ	-2211
ܒܕܢܐ	-2212
ܒܟܝܐ	-2213
ܒܠܒܗ	-2214
ܒܤܝܡ	-2215
ܒܥܘܢ	-2216
ܕܟܘܪ	-2217
ܕܠܘܬ	-2218
ܕܡܠܠ	-2219
ܕܡܢܗ	-2220
ܕܡܪܘ	-2221
ܗܝܪܐ	-2222
ܘܐܚܝ	-2223
ܘܒܝܬ	-2224
ܘܕܡܐ	-2225
ܘܠܬܗ	-2226
ܘܨܒܐ	-2227
ܚܘܪܐ	-2228
ܚܤܡܐ	-2229
ܛܥܘܢ	-2230
ܟܘܒܐ	-2231
ܟܘܢܐ	-2232
ܠܐܝܬ	-2233
ܠܐܡܗ	-2234
ܠܒܪܐ	-2235
ܠܡܩܡ	-2236
ܠܬܚܬ	-2237
ܡܝܬܗ	-2238
ܡܠܠܢ	-2239
ܢܦܫܬ	-2240
ܤܒܪܘ	-2241
ܤܟܪܝ	-2242
ܤܠܘܢ	-2243
ܨܒܝܬ	-2244
ܨܝܕܢ	-2245
ܪܚܝܩ	-2246
ܫܡܥܐ	-2247
ܬܐܡܪ	-2248
ܬܘܪܐ	-2249
ܬܪܝܨ	-2250
ܐܬܝܠܕ	-2251
ܒܥܕܬܐ	-2252
ܒܫܪܪܐ	-2253
ܕܐܝܬܝ	-2254
ܕܐܫܠܡ	-2255
ܕܐܬܝܢ	-2256
ܕܒܗܘܢ	-2257
ܕܒܝܫܐ	-2258
ܕܝܢܘܤ	-2259
ܕܡܟܝܢ	-2260
ܕܡܪܬܐ	-2261
ܕܢܫܡܥ	-2262
ܕܬܚܝܬ	-2263
ܘܒܘܗܝ	-2264
ܘܟܢܫܐ	-2265
ܘܬܪܝܢ	-2266
ܠܒܗܘܢ	-2267
ܠܕܝܢܐ	-2268
ܠܥܒܕܐ	-2269
ܡܫܬܠܡ	-2270
ܢܫܬܒܩ	-2271
ܥܘܬܪܐ	-2272
ܥܠܝܡܐ	-2273
ܨܒܘܬܐ	-2274
ܨܠܘܬܐ	-2275
ܪܘܓܙܐ	-2276
ܪܫܝܬܐ	-2277
ܬܚܙܘܢ	-2278
ܬܢܝܢܐ	-2279
ܒܫܘܒܚܐ	-2280
ܕܗܪܘܕܤ	-2281
ܕܚܝܘܬܐ	-2282
ܕܝܘܡܢܐ	-2283
ܕܝܡܝܢܐ	-2284
ܘܢܗܘܘܢ	-2285
ܠܢܡܘܤܐ	-2286
ܠܬܪܥܤܪ	-2287
ܤܗܕܘܬܗ	-2288
ܤܝܒܪܬܐ	-2289
ܪܓܝܓܬܐ	-2290
ܬܥܒܕܘܢ	-2291
ܒܛܝܒܘܬܐ	-2292
ܒܤܦܝܢܬܐ	-2293
ܕܡܠܟܘܬܐ	-2294
ܕܫܡܥܬܘܢ	-2295
ܗܝܡܢܘܬܗ	-2296
ܠܬܝܒܘܬܐ	-2297
ܡܓܕܠܝܬܐ	-2298
ܡܠܐܟܘܗܝ	-2299
ܡܩܕܘܢܝܐ	-2300
ܤܟܪܝܘܛܐ	-2301
ܬܪܬܥܤܪܐ	-2302
ܘܐܝܬܝܘܗܝ	-2303
ܡܥܡܘܕܝܬܐ	-2304
ܩܛܠܘܢܝܗܝ	-2305
ܕܐܘܢܓܠܝܘܢ	-2306
ܘܬܠܡܝܕܘܗܝ	-2307
ܚܟ	-2308
ܦܓ	-2309
ܩܕ	-2310
ܪܟ	-2311
ܐܠܨ	-2312
ܐܦܤ	-2313
ܐܨܛ	-2314
ܒܝܡ	-2315
ܒܟܝ	-2316
ܒܫܐ	-2317
ܓܒܐ	-2318
ܓܕܦ	-2319
ܓܙܗ	-2320
ܓܡܪ	-2321
ܕܠܚ	-2322
ܕܠܡ	-2323
ܕܢܗ	-2324
ܕܦܩ	-2325
ܘܒܠ	-2326
ܘܡܚ	-2327
ܘܩܛ	-2328
ܘܬܬ	-2329
ܚܡܬ	-2330
ܛܥܝ	-2331
ܝܨܦ	-2332
ܟܬܝ	-2333
ܡܚܝ	-2334
ܥܕܢ	-2335
ܦܪܥ	-2336
ܦܬܝ	-2337
ܪܘܪ	-2338
ܫܛܝ	-2339
ܐܤܝܐ	-2340
ܒܗܪܐ	-2341
ܒܘܫܐ	-2342
ܒܫܒܐ	-2343
ܓܒܝܐ	-2344
ܓܘܢܐ	-2345
ܓܪܒܐ	-2346
ܕܘܬܐ	-2347
ܕܡܬܚ	-2348
ܕܢܒܝ	-2349
ܕܤܢܐ	-2350
ܕܦܘܩ	-2351
ܕܦܩܕ	-2352
ܕܩܪܒ	-2353
ܕܬܫܬ	-2354
ܘܐܒܝ	-2355
ܘܐܚܪ	-2356
ܘܐܠܐ	-2357
ܘܐܬܠ	-2358
ܘܕܥܘ	-2359
ܘܡܠܐ	-2360
ܘܡܬܚ	-2361
ܘܥܠܘ	-2362
ܘܩܨܐ	-2363
ܘܪܝܢ	-2364
ܘܫܐܠ	-2365
ܙܒܕܝ	-2366
ܙܒܘܪ	-2367
ܚܘܝܐ	-2368
ܚܪܒܐ	-2369
ܛܢܦܐ	-2370
ܝܢܝܢ	-2371
ܟܪܝܗ	-2372
ܠܡܡܬ	-2373
ܠܡܪܗ	-2374
ܠܡܪܝ	-2375
ܠܡܫܬ	-2376
ܡܘܪܐ	-2377
ܡܛܪܐ	-2378
ܡܝܬܬ	-2379
ܡܥܡܕ	-2380
ܡܫܠܡ	-2381
ܡܫܬܡ	-2382
ܢܘܗܝ	-2383
ܢܚܙܐ	-2384
ܢܚܬܐ	-2385
ܢܤܒܘ	-2386
ܤܝܡܐ	-2387
ܤܠܩܘ	-2388
ܥܪܘܩ	-2389
ܩܛܠܘ	-2390
ܩܥܝܢ	-2391
ܩܪܒܬ	-2392
ܩܪܝܬ	-2393
ܪܡܝܐ	-2394
ܬܕܚܠ	-2395
ܐܝܩܪܐ	-2396
ܐܝܬܝܢ	-2397
ܐܫܬܠܡ	-2398
ܐܬܩܪܝ	-2399
ܒܙܒܢܐ	-2400
ܒܚܙܘܐ	-2401
ܒܡܪܝܐ	-2402
ܒܥܡܡܐ	-2403
ܒܫܘܩܐ	-2404
ܒܬܪܟܢ	-2405
ܕܐܬܝܬ	-2406
ܕܒܥܝܢ	-2407
ܕܝܗܘܕ	-2408
ܕܝܢܬܗ	-2409
ܕܡܤܒܪ	-2410
ܕܢܫܪܐ	-2411
ܕܥܘܠܐ	-2412
ܕܩܪܝܢ	-2413
ܕܫܒܥܐ	-2414
ܘܐܡܝܢ	-2415
ܘܕܚܠܘ	-2416
ܘܡܪܝܡ	-2417
ܘܥܒܕܘ	-2418
ܘܨܒܝܢ	-2419
ܘܫܐܠܗ	-2420
ܘܫܩܠܘ	-2421
ܘܫܬܝܢ	-2422
ܙܩܝܦܗ	-2423
ܚܪܝܢܐ	-2424
ܝܕܝܥܐ	-2425
ܝܕܥܬܐ	-2426
ܠܐܢܛܝ	-2427
ܠܚܪܬܐ	-2428
ܠܡܐܬܐ	-2429
ܠܢܦܫܗ	-2430
ܡܕܒܚܐ	-2431
ܡܘܕܝܢ	-2432
ܡܙܕܕܩ	-2433
ܡܚܘܬܐ	-2434
ܡܢܗܝܢ	-2435
ܡܢܝܢܐ	-2436
ܡܬܒܥܐ	-2437
ܤܓܕܘܢ	-2438
ܥܒܕܝܟ	-2439
ܦܪܚܬܐ	-2440
ܦܬܘܪܐ	-2441
ܫܒܚܝܢ	-2442
ܬܐܪܬܐ	-2443
ܐܚܝܕܝܢ	-2444
ܐܚܪܢܝܢ	-2445
ܒܐܝܠܝܢ	-2446
ܒܕܘܟܬܐ	-2447
ܒܚܫܘܟܐ	-2448
ܒܠܒܗܘܢ	-2449
ܕܗܝܟܠܐ	-2450
ܕܢܐܬܘܢ	-2451
ܕܢܚܙܘܢ	-2452
ܕܥܒܕܝܢ	-2453
ܘܝܥܩܘܒ	-2454
ܘܫܡܥܘܢ	-2455
ܠܐܢܬܬܐ	-2456
ܠܕܘܟܬܐ	-2457
ܠܚܛܝܬܐ	-2458
ܠܡܝܘܗܝ	-2459
ܡܫܠܡܢܐ	-2460
ܒܐܝܕܘܗܝ	-2461
ܒܢܦܫܟܘܢ	-2462
ܕܢܐܙܠܘܢ	-2463
ܚܠܦܝܟܘܢ	-2464
ܝܬܘܢܝܗܝ	-2465
ܠܬܠܡܝܕܐ	-2466
ܡܬܚܫܒܝܢ	-2467
ܥܘܪܠܘܬܐ	-2468
ܪܓܠܝܗܘܢ	-2469
ܘܬܫܒܘܚܬܐ	-2470
ܠܡܩܕܘܢܝܐ	-2471
ܢܪ	-2472
ܫܗ	-2473
ܒܐܫ	-2474
ܒܩܐ	-2475
ܕܡܙ	-2476
ܕܡܥ	-2477
ܕܢܨ	-2478
ܘܕܒ	-2479
ܘܝܘ	-2480
ܘܝܬ	-2481
ܘܠܟ	-2482
ܘܡܛ	-2483
ܘܥܕ	-2484
ܘܫܝ	-2485
ܚܝܘ	-2486
ܚܪܝ	-2487
ܛܪܘ	-2488
ܝܠܝ	-2489
ܝܪܢ	-2490
ܟܒܪ	-2491
ܠܒܤ	-2492
ܠܘܚ	-2493
ܠܛܐ	-2494
ܠܝܗ	-2495
ܡܚܪ	-2496
ܡܫܡ	-2497
ܡܬܢ	-2498
ܢܚܫ	-2499
ܤܒܐ	-2500
ܤܡܬ	-2501
ܥܝܘ	-2502
ܦܘܠ	-2503
ܦܟܝ	-2504
ܨܝܐ	-2505
ܪܓܐ	-2506
ܪܘܥ	-2507
ܬܐܪ	-2508
ܐܙܠܐ	-2509
ܐܝܕܟ	-2510
ܐܝܟܘ	-2511
ܐܪܒܥ	-2512
ܒܝܘܡ	-2513
ܒܝܢܝ	-2514
ܒܟܝܢ	-2515
ܒܡܠܐ	-2516
ܒܪܢܫ	-2517
ܒܪܬܗ	-2518
ܕܐܬܪ	-2519
ܕܒܝܕ	-2520
ܕܒܤܪ	-2521
ܕܚܠܘ	-2522
ܕܟܡܐ	-2523
ܕܟܪܝ	-2524
ܕܥܒܪ	-2525
ܕܦܓܪ	-2526
ܕܫܒܩ	-2527
ܕܫܪܐ	-2528
ܗܘܝܐ	-2529
ܗܠܟܘ	-2530
ܘܐܤܝ	-2531
ܘܒܪܗ	-2532
ܘܡܬܟ	-2533
ܚܝܝܢ	-2534
ܚܡܬܐ	-2535
ܚܪܫܐ	-2536
ܝܗܝܒ	-2537
ܝܘܢܐ	-2538
ܝܠܕܐ	-2539
ܟܐܝܐ	-2540
ܟܦܢܐ	-2541
ܟܪܙܘ	-2542
ܠܐܘܪ	-2543
ܠܐܚܐ	-2544
ܠܐܬܪ	-2545
ܠܘܩܒ	-2546
ܠܝܘܤ	-2547
ܠܩܪܝ	-2548
ܠܬܘܢ	-2549
ܡܒܪܟ	-2550
ܡܢܬܐ	-2551
ܡܤܬܟ	-2552
ܢܝܗܝ	-2553
ܢܩܒܠ	-2554
ܤܡܟܐ	-2555
ܥܕܠܐ	-2556
ܥܝܠܐ	-2557
ܦܘܗܝ	-2558
ܦܟܝܢ	-2559
ܦܢܘܢ	-2560
ܨܒܘܬ	-2561
ܩܘܡܘ	-2562
ܩܝܤܐ	-2563
ܩܪܝܒ	-2564
ܩܪܩܦ	-2565
ܫܕܪܬ	-2566
ܫܝܠܐ	-2567
ܬܝܬܐ	-2568
ܬܥܒܕ	-2569
ܐܡܪܢܐ	-2570
ܐܪܒܥܐ	-2571
ܐܬܝܗܒ	-2572
ܒܐܬܪܐ	-2573
ܒܪܫܝܬ	-2574
ܕܐܤܗܕ	-2575
ܕܐܥܒܕ	-2576
ܕܒܤܡܐ	-2577
ܕܗܘܝܢ	-2578
ܕܚܛܗܐ	-2579
ܕܝܘܢܐ	-2580
ܕܝܢܪܐ	-2581
ܕܟܬܒܐ	-2582
ܕܠܠܝܐ	-2583
ܕܡܝܬܪ	-2584
ܕܢܡܠܠ	-2585
ܕܩܠܝܠ	-2586
ܘܐܪܡܝ	-2587
ܘܚܘܒܐ	-2588
ܘܡܠܟܐ	-2589
ܘܡܡܠܠ	-2590
ܘܢܩܝܡ	-2591
ܘܥܠܡܐ	-2592
ܘܩܠܬܐ	-2593
ܙܕܩܬܐ	-2594
ܚܘܪܒܐ	-2595
ܚܝܒܝܢ	-2596
ܚܡܝܪܐ	-2597
ܚܢܢܝܐ	-2598
ܛܠܝܬܐ	-2599
ܟܘܟܒܐ	-2600
ܠܒܟܘܢ	-2601
ܠܛܠܝܐ	-2602
ܠܢܒܝܐ	-2603
ܠܥܒܕܗ	-2604
ܡܛܠܬܗ	-2605
ܡܛܠܬܝ	-2606
ܡܝܗܝܢ	-2607
ܡܝܬܝܢ	-2608
ܡܠܘܗܝ	-2609
ܡܬܚܒܠ	-2610
ܢܛܪܝܢ	-2611
ܦܠܚܝܢ	-2612
ܦܪܥܘܢ	-2613
ܨܝܡܝܢ	-2614
ܩܘܡܘܢ	-2615
ܩܘܫܬܐ	-2616
ܩܝܡܬܐ	-2617
ܪܫܝܥܐ	-2618
ܫܘܚܬܐ	-2619
ܫܘܬܦܐ	-2620
ܫܡܪܝܐ	-2621
ܒܚܕܘܬܐ	-2622
ܒܡܨܥܬܐ	-2623
ܒܢܝܗܘܢ	-2624
ܒܨܒܝܢܗ	-2625
ܒܩܘܫܬܐ	-2626
ܓܠܝܠܝܐ	-2627
ܕܐܒܘܗܝ	-2628
ܕܐܟܠܝܢ	-2629
ܕܐܬܩܪܝ	-2630
ܕܒܪܢܫܐ	-2631
ܕܕܚܠܝܢ	-2632
ܕܗܝܡܢܘ	-2633
ܕܝܗܘܕܐ	-2634
ܕܟܬܝܒܢ	-2635
ܕܫܘܒܚܗ	-2636
ܘܐܢܬܬܐ	-2637
ܘܐܬܡܠܝ	-2638
ܘܬܗܘܘܢ	-2639
ܚܝܒܝܢܢ	-2640
ܟܢܝܫܝܢ	-2641
ܠܝܥܩܘܒ	-2642
ܠܩܤܪܝܐ	-2643
ܠܫܠܝܚܐ	-2644
ܡܓܕܦܝܢ	-2645
ܡܚܫܒܬܐ	-2646
ܡܠܐܟܝܢ	-2647
ܡܬܪܥܝܢ	-2648
ܢܡܠܠܘܢ	-2649
ܥܒܕܘܬܐ	-2650
ܥܒܪܐܝܬ	-2651
ܪܗܘܡܝܐ	-2652
ܫܬܐܤܬܐ	-2653
ܬܐܡܪܘܢ	-2654
ܒܝܘܠܦܢܗ	-2655
ܕܛܝܒܘܬܗ	-2656
ܕܠܘܬܟܘܢ	-2657
ܕܩܒܠܬܘܢ	-2658
ܕܬܫܡܫܬܐ	-2659
ܠܤܦܝܢܬܐ	-2660
ܥܒܕܝܟܘܢ	-2661
ܩܕܡܝܗܘܢ	-2662
ܒܐܝܕܝܗܘܢ	-2663
ܒܩܢܕܝܢܘܤ	-2664
ܕܬܫܒܘܚܬܗ	-2665
ܠܟܦܪܢܚܘܡ	-2666
ܗܝܡܢܘܬܗܘܢ	-2667
ܛܥ	-2668
ܟܒ	-2669
ܪܩ	-2670
ܫܠ	-2671
ܒܡܪ	-2672
ܒܩܪ	-2673
ܓܐܪ	-2674
ܕܓܠ	-2675
ܕܝܘ	-2676
ܕܪܥ	-2677
ܗܕܡ	-2678
ܘܐܚ	-2679
ܘܕܘ	-2680
ܘܙܠ	-2681
ܘܦܩ	-2682
ܘܫܗ	-2683
ܘܬܡ	-2684
ܙܥܩ	-2685
ܚܫܘ	-2686
ܛܘܢ	-2687
ܝܩܐ	-2688
ܟܐܦ	-2689
ܟܫܠ	-2690
ܠܐܚ	-2691
ܠܒܝ	-2692
ܠܒܥ	-2693
ܠܕܬ	-2694
ܠܟܤ	-2695
ܠܠܘ	-2696
ܡܡܐ	-2697
ܡܩܘ	-2698
ܡܫܪ	-2699
ܢܬܪ	-2700
ܤܒܘ	-2701
ܤܝܪ	-2702
ܥܗܕ	-2703
ܥܪܩ	-2704
ܨܠܝ	-2705
ܪܕܐ	-2706
ܫܪܘ	-2707
ܬܒܐ	-2708
ܬܘܬ	-2709
ܐܗܘܐ	-2710
ܐܘܠܨ	-2711
ܐܠܗܗ	-2712
ܐܫܝܓ	-2713
ܐܬܕܟ	-2714
ܐܬܟܪ	-2715
ܐܬܠܒ	-2716
ܒܛܝܠ	-2717
ܒܟܘܪ	-2718
ܒܤܡܐ	-2719
ܒܥܝܐ	-2720
ܒܫܡܐ	-2721
ܓܝܤܐ	-2722
ܕܐܚܐ	-2723
ܕܐܠܘ	-2724
ܕܐܤܬ	-2725
ܕܕܐܢ	-2726
ܕܕܡܐ	-2727
ܕܗܫܐ	-2728
ܕܟܤܐ	-2729
ܕܟܪܐ	-2730
ܕܠܥܠ	-2731
ܕܡܬܬ	-2732
ܕܤܓܝ	-2733
ܕܤܥܪ	-2734
ܕܪܬܐ	-2735
ܗܘܡܐ	-2736
ܗܪܘܢ	-2737
ܘܐܟܠ	-2738
ܘܐܤܬ	-2739
ܘܒܥܘ	-2740
ܘܗܠܟ	-2741
ܘܙܒܢ	-2742
ܘܝܬܐ	-2743
ܘܟܠܝ	-2744
ܘܤܡܘ	-2745
ܘܥܒܪ	-2746
ܙܕܒܢ	-2747
ܚܕܕܐ	-2748
ܚܛܗܝ	-2749
ܚܦܝܛ	-2750
ܝܕܥܐ	-2751
ܝܘܬܐ	-2752
ܝܙܕܩ	-2753
ܟܝܟܐ	-2754
ܠܐܚܝ	-2755
ܠܒܝܫ	-2756
ܠܟܤܢ	-2757
ܠܡܩܛ	-2758
ܡܕܒܪ	-2759
ܡܘܕܥ	-2760
ܡܘܡܐ	-2761
ܡܚܘܐ	-2762
ܡܚܫܒ	-2763
ܡܠܚܐ	-2764
ܡܠܬܝ	-2765
ܡܡܪܚ	-2766
ܡܤܝܒ	-2767
ܡܦܝܤ	-2768
ܡܫܐܠ	-2769
ܡܫܚܐ	-2770
ܢܐܒܕ	-2771
ܢܗܠܟ	-2772
ܢܛܪܬ	-2773
ܢܟܘܢ	-2774
ܢܟܠܐ	-2775
ܢܡܘܤ	-2776
ܢܥܘܠ	-2777
ܢܦܩܢ	-2778
ܢܨܪܬ	-2779
ܤܓܘܕ	-2780
ܤܛܝܐ	-2781
ܥܝܕܐ	-2782
ܥܪܤܟ	-2783
ܦܟܘܢ	-2784
ܦܥܠܐ	-2785
ܨܦܘܢ	-2786
ܩܘܪܢ	-2787
ܩܢܝܐ	-2788
ܪܒܥܐ	-2789
ܪܘܚܝ	-2790
ܪܚܡܝ	-2791
ܪܝܡܘ	-2792
ܪܡܝܢ	-2793
ܫܒܩܘ	-2794
ܫܝܘܠ	-2795
ܫܪܓܐ	-2796
ܫܬܘܢ	-2797
ܫܬܝܢ	-2798
ܬܐܬܐ	-2799
ܬܪܘܢ	-2800
ܐܢܘܬܗ	-2801
ܐܢܬܝܢ	-2802
ܐܫܟܚܢ	-2803
ܒܕܝܢܐ	-2804
ܒܘܝܐܐ	-2805
ܒܟܐܦܐ	-2806
ܕܐܚܝܕ	-2807
ܕܐܠܗܢ	-2808
ܕܒܒܤܪ	-2809
ܕܒܚܬܐ	-2810
ܕܒܢܝܐ	-2811
ܕܟܐܦܐ	-2812
ܕܠܐܢܫ	-2813
ܕܢܚܬܐ	-2814
ܕܤܥܪܐ	-2815
ܕܫܡܥܬ	-2816
ܘܐܝܟܐ	-2817
ܘܐܪܝܡ	-2818
ܘܒܗܕܐ	-2819
ܘܗܘܝܘ	-2820
ܘܗܦܟܘ	-2821
ܘܟܠܢܐ	-2822
ܘܡܫܐܠ	-2823
ܘܥܒܕܐ	-2824
ܘܩܥܝܢ	-2825
ܘܪܕܝܢ	-2826
ܚܙܝܪܐ	-2827
ܝܠܘܕܐ	-2828
ܝܡܝܢܝ	-2829
ܠܚܛܝܐ	-2830
ܠܡܐܙܠ	-2831
ܠܡܐܚܕ	-2832
ܠܡܩܛܠ	-2833
ܠܬܪܝܢ	-2834
ܡܟܫܠܐ	-2835
ܡܠܐܟܗ	-2836
ܡܢܤܝܢ	-2837
ܡܤܟܢܐ	-2838
ܡܫܟܢܐ	-2839
ܡܫܠܡܢ	-2840
ܢܘܗܪܗ	-2841
ܢܝܟܘܢ	-2842
ܢܤܒܝܢ	-2843
ܢܬܒܛܠ	-2844
ܤܘܓܐܐ	-2845
ܥܤܪܝܢ	-2846
ܥܬܝܩܐ	-2847
ܦܪܫܝܢ	-2848
ܨܒܝܢܝ	-2849
ܩܘܕܫܐ	-2850
ܩܪܒܘܢ	-2851
ܪܓܠܝܟ	-2852
ܪܝܘܗܝ	-2853
ܫܒܩܘܢ	-2854
ܫܘܒܚܗ	-2855
ܫܟܚܘܢ	-2856
ܫܡܫܬܗ	-2857
ܬܝܗܘܢ	-2858
ܬܝܡܢܐ	-2859
ܐܓܪܦܘܤ	-2860
ܐܝܕܘܗܝ	-2861
ܐܟܤܢܝܐ	-2862
ܐܬܛܦܝܤ	-2863
ܐܬܡܠܝܘ	-2864
ܒܚܘܪܒܐ	-2865
ܒܝܕܥܬܐ	-2866
ܒܡܘܡܬܐ	-2867
ܒܬܘܠܬܐ	-2868
ܓܠܝܐܝܬ	-2869
ܕܐܙܠܝܢ	-2870
ܕܚܫܘܟܐ	-2871
ܕܩܘܫܬܐ	-2872
ܘܐܚܪܝܢ	-2873
ܘܐܝܬܝܗ	-2874
ܘܐܪܒܥܐ	-2875
ܙܕܘܩܝܐ	-2876
ܛܢܦܘܬܐ	-2877
ܝܪܬܘܬܐ	-2878
ܠܐܢܬܬܗ	-2879
ܠܡܨܠܝܘ	-2880
ܡܤܗܕܝܢ	-2881
ܢܦܩܬܘܢ	-2882
ܢܫܬܒܗܪ	-2883
ܤܓܝܐܝܢ	-2884
ܤܦܝܢܬܐ	-2885
ܥܒܕܬܘܢ	-2886
ܥܬܝܕܝܢ	-2887
ܦܗܤܛܘܤ	-2888
ܦܠܓܘܬܐ	-2889
ܫܦܝܪܬܐ	-2890
ܬܐܨܦܘܢ	-2891
ܐܡܝܢܐܝܬ	-2892
ܐܬܬܥܝܪܘ	-2893
ܒܡܠܟܘܬܐ	-2894
ܒܡܠܟܘܬܗ	-2895
ܒܥܠܕܒܒܐ	-2896
ܒܥܠܕܒܒܝ	-2897
ܕܒܡܫܝܚܐ	-2898
ܕܒܢܡܘܤܐ	-2899
ܕܡܡܠܠܝܢ	-2900
ܕܬܠܡܝܕܐ	-2901
ܕܬܥܒܕܘܢ	-2902
ܘܠܟܠܗܘܢ	-2903
ܘܠܡܠܐܟܐ	-2904
ܘܡܫܒܚܝܢ	-2905
ܠܐܝܤܪܝܠ	-2906
ܠܡܠܟܘܬܗ	-2907
ܡܡܠܠܝܢܢ	-2908
ܡܬܕܡܪܝܢ	-2909
ܥܒܕܝܗܘܢ	-2910
ܫܘܬܦܘܬܐ	-2911
ܕܐܝܬܝܗܝܢ	-2912
ܕܒܐܘܪܫܠܡ	-2913
ܕܙܕܝܩܘܬܐ	-2914
ܘܛܝܡܬܐܘܤ	-2915
ܘܝܬܝܪܐܝܬ	-2916
ܤܝܒܪܢܘܬܐ	-2917
ܒܐܘܢܓܠܝܘܢ	-2918
ܕܢܫܠܡܝܘܗܝ	-2919
ܕܗܝܡܢܘܬܟܘܢ	-2920
ܐܕܡ	-2921
ܐܕܪ	-2922
ܐܘܩ	-2923
ܐܪܥ	-2924
ܐܬܚ	-2925
ܒܟܢ	-2926
ܒܪܓ	-2927
ܕܐܫ	-2928
ܕܒܚ	-2929
ܕܒܡ	-2930
ܕܪܫ	-2931
ܕܫܡ	-2932
ܕܫܩ	-2933
ܘܢܓ	-2934
ܘܤܐ	-2935
ܘܥܝ	-2936
ܘܪܘ	-2937
ܙܟܝ	-2938
ܚܕܬ	-2939
ܚܘܤ	-2940
ܚܟܝ	-2941
ܚܫܝ	-2942
ܚܬܝ	-2943
ܛܬܐ	-2944
ܝܩܪ	-2945
ܝܪܬ	-2946
ܝܬܟ	-2947
ܟܟܪ	-2948
ܠܓܗ	-2949
ܠܘܤ	-2950
ܠܡܦ	-2951
ܠܫܢ	-2952
ܠܬܢ	-2953
ܡܓܢ	-2954
ܡܠܘ	-2955
ܡܪܓ	-2956
ܡܪܬ	-2957
ܢܤܬ	-2958
ܢܩܘ	-2959
ܤܓܐ	-2960
ܥܐܠ	-2961
ܥܠܬ	-2962
ܦܪܗ	-2963
ܪܒܥ	-2964
ܪܝܤ	-2965
ܫܠܚ	-2966
ܫܢܗ	-2967
ܬܥܡ	-2968
ܬܫܥ	-2969
ܐܘܕܥ	-2970
ܐܚܘܟ	-2971
ܐܠܗܟ	-2972
ܐܡܠܠ	-2973
ܐܦܝܢ	-2974
ܐܫܬܝ	-2975
ܒܘܝܐ	-2976
ܒܥܡܐ	-2977
ܒܪܝܟ	-2978
ܒܬܪܟ	-2979
ܕܗܢܘ	-2980
ܕܙܕܩ	-2981
ܕܚܠܦ	-2982
ܕܚܫܐ	-2983
ܕܝܗܝ	-2984
ܕܝܘܢ	-2985
ܕܡܚܒ	-2986
ܕܡܤܬ	-2987
ܕܢܚܫ	-2988
ܕܦܠܚ	-2989
ܕܫܘܐ	-2990
ܗܦܟܘ	-2991
ܘܐܠܘ	-2992
ܘܒܢܐ	-2993
ܘܕܝܢ	-2994
ܘܗܦܟ	-2995
ܘܝܡܐ	-2996
ܘܟܘܪ	-2997
ܘܠܐܝ	-2998
ܘܠܘܬ	-2999
ܘܡܛܝ	-3000
ܘܡܠܟ	-3001
ܘܡܠܠ	-3002
ܘܡܩܐ	-3003
ܘܤܒܪ	-3004
ܘܦܬܚ	-3005
ܘܩܒܠ	-3006
ܘܩܥܘ	-3007
ܘܪܒܝ	-3008
ܘܪܚܡ	-3009
ܘܪܝܗ	-3010
ܘܫܠܡ	-3011
ܘܫܪܐ	-3012
ܙܘܥܐ	-3013
ܙܝܬܐ	-3014
ܙܠܘܢ	-3015
ܚܐܝܢ	-3016
ܚܕܝܢ	-3017
ܚܙܝܐ	-3018
ܚܝܘܢ	-3019
ܚܠܦܝ	-3020
ܚܤܝܪ	-3021
ܚܬܢܐ	-3022
ܛܛܘܤ	-3023
ܛܪܘܢ	-3024
ܟܕܢܐ	-3025
ܟܠܬܐ	-3026
ܠܥܡܗ	-3027
ܠܦܘܢ	-3028
ܡܟܘܢ	-3029
ܡܠܝܐ	-3030
ܡܥܕܪ	-3031
ܡܦܩܕ	-3032
ܡܨܥܬ	-3033
ܢܒܗܬ	-3034
ܢܗܪܐ	-3035
ܢܚܘܢ	-3036
ܢܤܒܬ	-3037
ܢܫܡܫ	-3038
ܢܬܘܤ	-3039
ܤܐܡܐ	-3040
ܤܓܕܘ	-3041
ܤܘܟܐ	-3042
ܤܘܬܐ	-3043
ܤܟܠܐ	-3044
ܥܝܬܐ	-3045
ܨܒܝܐ	-3046
ܩܕܝܫ	-3047
ܩܘܘܢ	-3048
ܩܪܢܐ	-3049
ܪܒܝܐ	-3050
ܪܬܘܢ	-3051
ܫܘܠܐ	-3052
ܫܠܡܘ	-3053
ܫܪܝܘ	-3054
ܫܪܝܢ	-3055
ܫܪܝܪ	-3056
ܬܟܝܠ	-3057
ܬܢܢܐ	-3058
ܬܪܚܡ	-3059
ܐܒܗܬܢ	-3060
ܐܝܤܚܩ	-3061
ܐܪܡܝܐ	-3062
ܐܪܡܝܘ	-3063
ܐܬܐܡܪ	-3064
ܐܬܓܠܝ	-3065
ܒܐܝܕܐ	-3066
ܒܐܠܦܐ	-3067
ܒܒܤܪܐ	-3068
ܒܡܬܠܐ	-3069
ܒܦܓܪܗ	-3070
ܒܪܘܬܐ	-3071
ܓܘܕܦܐ	-3072
ܓܡܝܪܐ	-3073
ܕܐܝܢܐ	-3074
ܕܐܠܝܐ	-3075
ܕܐܤܝܡ	-3076
ܕܐܫܪܐ	-3077
ܕܙܝܬܐ	-3078
ܕܝܠܝܕ	-3079
ܕܟܢܫܐ	-3080
ܕܟܪܝܗ	-3081
ܕܡܫܡܫ	-3082
ܕܢܘܗܝ	-3083
ܕܢܩܝܡ	-3084
ܕܢܩܪܐ	-3085
ܕܥܒܕܘ	-3086
ܕܦܐܪܐ	-3087
ܕܫܐܕܐ	-3088
ܘܐܘܕܝ	-3089
ܘܐܘܚܕ	-3090
ܘܐܚܕܗ	-3091
ܘܕܝܢܐ	-3092
ܘܗܒܬܗ	-3093
ܘܗܝܡܢ	-3094
ܘܚܙܝܢ	-3095
ܘܠܠܝܐ	-3096
ܘܡܠܬܗ	-3097
ܘܢܦܠܘ	-3098
ܘܢܦܩܬ	-3099
ܘܥܪܢܐ	-3100
ܘܪܒܢܐ	-3101
ܘܪܚܡܐ	-3102
ܘܬܠܬܐ	-3103
ܘܬܪܢܐ	-3104
ܙܟܪܝܐ	-3105
ܚܠܝܡܐ	-3106
ܝܬܟܘܢ	-3107
ܟܢܫܝܢ	-3108
ܠܐܒܘܟ	-3109
ܠܐܢܫܐ	-3110
ܠܗܪܟܐ	-3111
ܠܝܘܤܦ	-3112
ܠܟܗܢܐ	-3113
ܠܡܚܝܘ	-3114
ܠܥܤܝܢ	-3115
ܡܨܝܕܬ	-3116
ܡܫܬܡܥ	-3117
ܡܬܕܒܪ	-3118
ܡܬܪܥܐ	-3119
ܢܘܢܝܢ	-3120
ܢܝܗܘܢ	-3121
ܢܥܠܘܢ	-3122
ܢܦܩܝܢ	-3123
ܢܫܒܘܩ	-3124
ܤܓܕܝܢ	-3125
ܤܓܝܐܢ	-3126
ܤܦܤܪܐ	-3127
ܥܗܕܝܢ	-3128
ܩܢܝܢܗ	-3129
ܫܒܩܝܢ	-3130
ܫܪܝܬܐ	-3131
ܬܕܥܘܢ	-3132
ܬܛܥܘܢ	-3133
ܬܝܗܝܢ	-3134
ܬܥܠܘܢ	-3135
ܐܒܗܘܗܝ	-3136
ܐܠܝܫܒܥ	-3137
ܒܓܠܝܢܐ	-3138
ܒܘܪܟܬܐ	-3139
ܒܟܠܗܝܢ	-3140
ܒܠܚܘܕܝ	-3141
ܒܥܕܥܕܐ	-3142
ܒܦܠܐܬܐ	-3143
ܕܒܐܝܕܗ	-3144
ܕܒܐܠܗܐ	-3145
ܕܙܒܢܝܢ	-3146
ܕܟܠܗܝܢ	-3147
ܕܢܦܩܘܢ	-3148
ܕܢܬܠܘܢ	-3149
ܕܫܡܪܝܐ	-3150
ܘܐܝܬܝܘ	-3151
ܘܐܫܟܚܘ	-3152
ܘܐܬܪܚܡ	-3153
ܘܒܐܪܥܐ	-3154
ܘܒܚܘܒܐ	-3155
ܘܒܠܘܗܝ	-3156
ܘܒܪܢܒܐ	-3157
ܘܗܝܡܢܘ	-3158
ܘܟܠܡܕܡ	-3159
ܘܡܠܐܟܐ	-3160
ܘܩܕܝܫܐ	-3161
ܘܪܠܘܬܐ	-3162
ܚܘܒܟܘܢ	-3163
ܚܝܠܬܢܐ	-3164
ܛܘܒܘܗܝ	-3165
ܝܩܝܪܬܐ	-3166
ܠܚܘܪܒܐ	-3167
ܠܝܘܡܢܐ	-3168
ܠܟܤܢܕܪ	-3169
ܠܥܕܥܕܐ	-3170
ܠܩܕܝܫܐ	-3171
ܠܩܘܒܠܗ	-3172
ܠܩܪܝܒܟ	-3173
ܡܝܬܝܢܢ	-3174
ܡܬܚܙܝܢ	-3175
ܡܬܛܦܝܤ	-3176
ܢܒܝܘܬܐ	-3177
ܢܩܘܡܘܢ	-3178
ܢܫܡܥܘܢ	-3179
ܤܪܝܩܬܐ	-3180
ܥܠܝܗܝܢ	-3181
ܩܪܨܘܗܝ	-3182
ܫܘܘܕܝܐ	-3183
ܫܪܝܪܬܐ	-3184
ܬܪܡܝܬܗ	-3185
ܬܫܡܫܬܐ	-3186
ܒܡܐܬܝܬܗ	-3187
ܒܬܫܡܫܬܐ	-3188
ܕܝܘܪܕܢܢ	-3189
ܕܡܘܠܟܢܐ	-3190
ܕܢܒܝܘܬܐ	-3191
ܕܥܬܝܕܝܢ	-3192
ܘܐܬܟܢܫܘ	-3193
ܘܠܝܥܩܘܒ	-3194
ܘܡܫܐܠܝܢ	-3195
ܘܢܐܡܪܘܢ	-3196
ܘܫܘܠܛܢܐ	-3197
ܠܕܪܡܤܘܩ	-3198
ܠܤܗܕܘܬܐ	-3199
ܡܤܝܒܪܝܢ	-3200
ܡܫܟܚܝܢܢ	-3201
ܡܬܗܦܟܝܢ	-3202
ܢܦܫܬܟܘܢ	-3203
ܬܫܒܘܚܬܗ	-3204
ܘܠܡܕܝܢܬܐ	-3205
ܠܦܝܠܝܦܘܤ	-3206
ܡܚܫܒܬܗܘܢ	-3207
ܤܗܕܘܬܗܘܢ	-3208
ܒܠܚܘܕܝܗܘܢ	-3209
ܚܦ	-3210
ܥܙ	-3211
ܦܥ	-3212
ܩܗ	-3213
ܬܫ	-3214
ܐܚܙ	-3215
ܐܢܘ	-3216
ܐܫܕ	-3217
ܒܓܢ	-3218
ܒܟܐ	-3219
ܒܠܒ	-3220
ܒܠܥ	-3221
ܒܩܘ	-3222
ܓܘܢ	-3223
ܕܐܡ	-3224
ܕܒܟ	-3225
ܕܒܨ	-3226
ܕܓܢ	-3227
ܕܕܩ	-3228
ܕܘܟ	-3229
ܕܢܝ	-3230
ܕܫܝ	-3231
ܕܬܟ	-3232
ܘܚܬ	-3233
ܘܝܩ	-3234
ܘܢܪ	-3235
ܙܠܝ	-3236
ܚܘܒ	-3237
ܚܤܢ	-3238
ܚܫܐ	-3239
ܛܒܥ	-3240
ܛܠܡ	-3241
ܛܥܡ	-3242
ܛܪܐ	-3243
ܝܤܐ	-3244
ܟܤܝ	-3245
ܠܒܗ	-3246
ܠܗܗ	-3247
ܠܘܝ	-3248
ܠܚܝ	-3249
ܡܤܟ	-3250
ܡܩܒ	-3251
ܡܫܝ	-3252
ܢܘܒ	-3253
ܢܩܝ	-3254
ܢܫܩ	-3255
ܢܬܗ	-3256
ܤܘܪ	-3257
ܤܝܬ	-3258
ܤܡܘ	-3259
ܤܡܝ	-3260
ܥܛܦ	-3261
ܥܩܪ	-3262
ܦܤܐ	-3263
ܦܨܐ	-3264
ܦܪܬ	-3265
ܨܚܐ	-3266
ܩܘܘ	-3267
ܩܘܦ	-3268
ܩܛܪ	-3269
ܪܕܘ	-3270
ܫܘܚ	-3271
ܫܝܐ	-3272
ܫܬܝ	-3273
ܬܚܦ	-3274
ܬܤܬ	-3275
ܬܦܠ	-3276
ܬܪܘ	-3277
ܬܬܚ	-3278
ܐܒܗܐ	-3279
ܐܓܪܗ	-3280
ܐܚܒܘ	-3281
ܐܚܕܗ	-3282
ܐܬܪܥ	-3283
ܒܕܠܐ	-3284
ܒܕܪܘ	-3285
ܒܗܪܢ	-3286
ܒܠܘܢ	-3287
ܒܡܕܥ	-3288
ܒܤܪܝ	-3289
ܒܥܝܬ	-3290
ܒܩܪܐ	-3291
ܓܪܬܐ	-3292
ܕܐܬܚ	-3293
ܕܕܚܠ	-3294
ܕܙܢܝ	-3295
ܕܚܝܒ	-3296
ܕܝܐܐ	-3297
ܕܝܬܐ	-3298
ܕܡܚܐ	-3299
ܕܡܟܘ	-3300
ܕܡܠܦ	-3301
ܕܡܥܐ	-3302
ܕܢܕܥ	-3303
ܕܢܤܩ	-3304
ܕܢܫܐ	-3305
ܕܥܐܠ	-3306
ܕܥܝܢ	-3307
ܕܥܤܪ	-3308
ܕܫܬܐ	-3309
ܗܘܬܐ	-3310
ܗܝܘܢ	-3311
ܘܐܤܪ	-3312
ܘܒܫܐ	-3313
ܘܚܠܦ	-3314
ܘܡܚܪ	-3315
ܘܡܢܗ	-3316
ܘܡܬܝ	-3317
ܘܡܬܬ	-3318
ܘܢܤܬ	-3319
ܘܢܫܐ	-3320
ܘܤܓܝ	-3321
ܘܥܝܝ	-3322
ܘܥܤܪ	-3323
ܘܥܬܝ	-3324
ܘܦܘܩ	-3325
ܘܦܫܛ	-3326
ܘܩܛܠ	-3327
ܘܪܕܐ	-3328
ܘܪܗܛ	-3329
ܘܪܫܐ	-3330
ܘܬܒܥ	-3331
ܙܒܘܒ	-3332
ܙܢܝܐ	-3333
ܚܒܪܗ	-3334
ܚܘܡܐ	-3335
ܚܟܝܢ	-3336
ܚܢܦܐ	-3337
ܚܨܕܐ	-3338
ܚܫܒܬ	-3339
ܛܢܢܐ	-3340
ܛܪܬܐ	-3341
ܝܗܒܘ	-3342
ܝܡܡܐ	-3343
ܟܐܝܢ	-3344
ܟܬܢܐ	-3345
ܠܛܝܐ	-3346
ܠܝܢܗ	-3347
ܠܡܠܐ	-3348
ܠܥܝܢ	-3349
ܠܪܒܝ	-3350
ܡܛܝܒ	-3351
ܡܠܟܘ	-3352
ܡܢܗܪ	-3353
ܡܨܥܪ	-3354
ܡܩܝܡ	-3355
ܢܗܘܢ	-3356
ܢܚܘܬ	-3357
ܢܚܬܘ	-3358
ܢܛܥܡ	-3359
ܢܝܩܐ	-3360
ܢܩܘܐ	-3361
ܤܛܪܐ	-3362
ܥܕܢܐ	-3363
ܥܝܢܝ	-3364
ܥܡܪܐ	-3365
ܦܓܪܟ	-3366
ܦܘܪܐ	-3367
ܦܠܚܝ	-3368
ܩܢܘܢ	-3369
ܩܫܝܐ	-3370
ܪܓܠܐ	-3371
ܪܓܬܐ	-3372
ܪܚܡܬ	-3373
ܪܝܘܤ	-3374
ܫܐܠܗ	-3375
ܫܘܩܐ	-3376
ܫܝܢܐ	-3377
ܫܡܗܐ	-3378
ܫܢܬܐ	-3379
ܫܪܘܢ	-3380
ܫܪܝܐ	-3381
ܬܘܢܐ	-3382
ܬܥܒܪ	-3383
ܐܒܕܢܐ	-3384
ܐܒܗܝܢ	-3385
ܐܘܪܚܗ	-3386
ܐܚܪܝܬ	-3387
ܐܟܘܬܝ	-3388
ܐܬܕܟܪ	-3389
ܐܬܕܡܪ	-3390
ܐܬܦܠܓ	-3391
ܒܓܗܢܐ	-3392
ܒܗܪܝܢ	-3393
ܒܙܒܢܗ	-3394
ܒܙܚܝܢ	-3395
ܒܚܪܬܐ	-3396
ܒܛܘܪܐ	-3397
ܒܝܡܬܐ	-3398
ܒܢܒܝܐ	-3399
ܒܥܝܢܢ	-3400
ܒܥܠܬܐ	-3401
ܒܪܘܚܗ	-3402
ܒܬܪܥܐ	-3403
ܓܠܝܢܐ	-3404
ܕܐܒܗܝ	-3405
ܕܐܗܘܐ	-3406
ܕܐܟܠܘ	-3407
ܕܐܦܠܐ	-3408
ܕܕܝܘܐ	-3409
ܕܘܦܝܐ	-3410
ܕܝܟܘܢ	-3411
ܕܝܢܘܢ	-3412
ܕܝܩܝܐ	-3413
ܕܠܘܬܝ	-3414
ܕܠܟܘܢ	-3415
ܕܠܡܪܢ	-3416
ܕܡܠܬܐ	-3417
ܕܡܪܘܢ	-3418
ܕܢܫܠܡ	-3419
ܕܤܡܝܐ	-3420
ܕܥܒܕܬ	-3421
ܕܩܒܠܬ	-3422
ܕܫܡܥܢ	-3423
ܗܝܪܝܢ	-3424
ܘܐܙܠܬ	-3425
ܘܐܝܬܝ	-3426
ܘܕܝܬܗ	-3427
ܘܚܘܪܩ	-3428
ܘܚܛܝܐ	-3429
ܘܝܬܝܪ	-3430
ܘܟܢܫܘ	-3431
ܘܠܐܢܫ	-3432
ܘܠܚܡܐ	-3433
ܘܢܫܠܡ	-3434
ܘܤܠܩܘ	-3435
ܙܒܘܪܗ	-3436
ܙܝܙܢܐ	-3437
ܙܝܥܝܢ	-3438
ܚܛܗܝܟ	-3439
ܚܝܕܝܐ	-3440
ܚܟܡܬܗ	-3441
ܝܘܢܝܐ	-3442
ܝܡܝܢܗ	-3443
ܟܟܪܝܢ	-3444
ܠܐܠܗܢ	-3445
ܠܐܡܬܝ	-3446
ܠܒܥܠܝ	-3447
ܠܡܟܬܒ	-3448
ܠܡܠܦܘ	-3449
ܠܡܦܠܚ	-3450
ܠܡܪܝܡ	-3451
ܠܡܫܬܐ	-3452
ܠܤܛܢܐ	-3453
ܠܬܠܬܐ	-3454
ܡܚܝܢܢ	-3455
ܡܢܪܬܐ	-3456
ܡܨܪܝܢ	-3457
ܡܬܐܫܕ	-3458
ܡܬܕܝܢ	-3459
ܢܐܟܘܠ	-3460
ܢܓܕܘܢ	-3461
ܢܦܩܘܢ	-3462
ܢܫܬܟܚ	-3463
ܢܫܬܩܠ	-3464
ܢܬܓܠܐ	-3465
ܤܘܤܝܐ	-3466
ܤܝܘܬܐ	-3467
ܤܝܡܝܢ	-3468
ܤܪܐܝܠ	-3469
ܤܪܝܩܐ	-3470
ܥܝܪܝܢ	-3471
ܦܝܠܟܤ	-3472
ܨܒܝܢܟ	-3473
ܩܕܡܝܢ	-3474
ܩܠܗܘܢ	-3475
ܪܒܘܬܐ	-3476
ܪܒܝܬܐ	-3477
ܪܘܓܙܗ	-3478
ܪܘܚܢܐ	-3479
ܪܚܡܝܢ	-3480
ܫܘܪܝܐ	-3481
ܐܤܬܟܠܘ	-3482
ܐܪܟܘܢܐ	-3483
ܐܫܬܒܗܪ	-3484
ܐܫܬܡܥܬ	-3485
ܐܬܝܕܥܬ	-3486
ܒܐܝܡܡܐ	-3487
ܒܐܦܤܘܤ	-3488
ܒܓܠܝܠܐ	-3489
ܒܕܡܘܬܗ	-3490
ܒܝܘܡܬܗ	-3491
ܒܢܘܗܪܐ	-3492
ܒܬܪܗܘܢ	-3493
ܕܐܬܝܠܕ	-3494
ܕܒܐܪܥܐ	-3495
ܕܒܝܗܘܕ	-3496
ܕܒܪܘܚܐ	-3497
ܕܙܕܝܩܐ	-3498
ܕܡܛܠܬܗ	-3499
ܕܡܨܪܝܢ	-3500
ܕܢܘܗܪܐ	-3501
ܕܢܫܬܒܚ	-3502
ܕܥܬܝܕܐ	-3503
ܕܥܬܝܕܢ	-3504
ܕܦܛܝܪܐ	-3505
ܕܩܝܡܬܐ	-3506
ܕܪܒܘܬܐ	-3507
ܕܪܚܡܝܢ	-3508
ܕܫܐܠܝܢ	-3509
ܘܐܢܫܝܢ	-3510
ܘܐܫܬܡܥ	-3511
ܘܐܬܦܬܚ	-3512
ܘܒܚܝܠܐ	-3513
ܘܚܟܡܬܐ	-3514
ܘܡܠܦܝܢ	-3515
ܘܡܢܗܘܢ	-3516
ܘܡܨܠܝܢ	-3517
ܘܢܗܘܝܢ	-3518
ܘܢܛܪܝܢ	-3519
ܘܫܪܝܪܐ	-3520
ܚܪܝܦܬܐ	-3521
ܠܒܥܠܕܒ	-3522
ܠܡܨܪܝܢ	-3523
ܠܡܩܛܠܗ	-3524
ܠܤܓܝܐܐ	-3525
ܡܐܢܘܗܝ	-3526
ܡܩܒܠܝܢ	-3527
ܡܫܚܠܦܐ	-3528
ܡܬܒܥܝܢ	-3529
ܢܚܬܘܗܝ	-3530
ܢܥܒܕܘܢ	-3531
ܢܫܟܚܘܢ	-3532
ܤܟܠܘܬܐ	-3533
ܤܩܘܒܠܐ	-3534
ܥܡܘܪܝܗ	-3535
ܦܘܡܗܘܢ	-3536
ܦܪܨܘܦܐ	-3537
ܪܘܚܟܘܢ	-3538
ܪܘܪܒܬܐ	-3539
ܪܚܡܘܗܝ	-3540
ܫܐܠܘܗܝ	-3541
ܫܓܘܫܝܐ	-3542
ܫܘܒܗܪܐ	-3543
ܫܠܝܡܘܢ	-3544
ܬܪܥܝܬܐ	-3545
ܐܒܗܝܟܘܢ	-3546
ܐܝܬܝܗܝܢ	-3547
ܒܐܘܠܨܢܐ	-3548
ܒܛܝܒܘܬܗ	-3549
ܒܟܐܢܘܬܐ	-3550
ܒܥܠܙܒܘܒ	-3551
ܕܗܘܝܬܘܢ	-3552
ܕܛܝܒܘܬܐ	-3553
ܗܝܡܢܘܬܟ	-3554
ܘܐܦܩܘܗܝ	-3555
ܘܒܐܝܡܡܐ	-3556
ܘܛܝܒܘܬܐ	-3557
ܘܡܫܡܫܢܐ	-3558
ܚܙܘܢܝܗܝ	-3559
ܚܛܗܝܗܘܢ	-3560
ܛܘܒܝܟܘܢ	-3561
ܛܝܡܬܐܘܤ	-3562
ܠܢܤܝܘܢܐ	-3563
ܠܢܦܫܗܘܢ	-3564
ܡܤܬܟܠܝܢ	-3565
ܤܠܘܢܝܩܐ	-3566
ܤܪܝܩܐܝܬ	-3567
ܬܪܝܨܐܝܬ	-3568
ܕܡܠܟܝܙܕܩ	-3569
ܘܐܢܕܪܐܘܤ	-3570
ܘܦܝܠܝܦܘܤ	-3571
ܡܫܬܥܒܕܝܢ	-3572
ܩܘܪܢܠܝܘܤ	-3573
ܒܟܢܘܫܬܗܘܢ	-3574
ܕܒܗܝܡܢܘܬܐ	-3575
ܘܢܩܛܠܘܢܝܗܝ	-3576
ܗܕ	-3577
ܟܟ	-3578
ܢܒ	-3579
ܤܤ	-3580
ܨܘ	-3581
ܬܦ	-3582
ܐܘܫ	-3583
ܐܡܝ	-3584
ܐܫܐ	-3585
ܐܫܩ	-3586
ܒܝܗ	-3587
ܒܟܪ	-3588
ܒܡܢ	-3589
ܒܦܪ	-3590
ܒܫܡ	-3591
ܒܫܬ	-3592
ܓܘܓ	-3593
ܕܚܨ	-3594
ܕܚܫ	-3595
ܕܝܫ	-3596
ܕܥܪ	-3597
ܕܦܝ	-3598
ܕܩܐ	-3599
ܕܪܓ	-3600
ܘܚܨ	-3601
ܘܝܐ	-3602
ܘܠܬ	-3603
ܘܢܨ	-3604
ܘܦܝ	-3605
ܙܝܢ	-3606
ܙܠܐ	-3607
ܙܪܘ	-3608
ܚܕܝ	-3609
ܚܨܕ	-3610
ܚܪܐ	-3611
ܚܬܗ	-3612
ܛܥܐ	-3613
ܝܦܐ	-3614
ܟܪܘ	-3615
ܟܪܤ	-3616
ܟܬܫ	-3617
ܠܐܤ	-3618
ܠܐܪ	-3619
ܠܒܟ	-3620
ܠܕܘ	-3621
ܠܚܨ	-3622
ܠܡܕ	-3623
ܠܦܪ	-3624
ܡܘܡ	-3625
ܡܚܘ	-3626
ܡܝܤ	-3627
ܡܟܟ	-3628
ܢܘܚ	-3629
ܢܛܥ	-3630
ܢܟܝ	-3631
ܤܦܐ	-3632
ܤܩܐ	-3633
ܦܓܥ	-3634
ܦܛܪ	-3635
ܦܫܛ	-3636
ܦܫܩ	-3637
ܨܒܥ	-3638
ܩܢܢ	-3639
ܩܥܘ	-3640
ܪܒܘ	-3641
ܪܓܙ	-3642
ܐܘܤܦ	-3643
ܐܚܘܝ	-3644
ܐܝܢܘ	-3645
ܐܡܬܐ	-3646
ܐܢܛܝ	-3647
ܐܢܬܬ	-3648
ܐܦܠܘ	-3649
ܐܫܕܪ	-3650
ܐܫܬܪ	-3651
ܐܬܚܫ	-3652
ܒܒܪܗ	-3653
ܒܕܡܗ	-3654
ܒܙܩܐ	-3655
ܒܝܐܘ	-3656
ܒܝܗܝ	-3657
ܒܡܢܐ	-3658
ܒܢܘܫ	-3659
ܒܥܠܐ	-3660
ܒܦܘܡ	-3661
ܒܪܚܡ	-3662
ܒܪܬܝ	-3663
ܒܫܡܟ	-3664
ܓܢܘܒ	-3665
ܕܒܢܐ	-3666
ܕܕܒܝ	-3667
ܕܘܢܘ	-3668
ܕܚܠܐ	-3669
ܕܡܐܬ	-3670
ܕܡܥܕ	-3671
ܕܡܪܗ	-3672
ܕܡܪܝ	-3673
ܕܢܘܒ	-3674
ܕܢܦܪ	-3675
ܕܢܬܬ	-3676
ܕܤܝܡ	-3677
ܕܦܩܚ	-3678
ܕܪܒܐ	-3679
ܕܪܡܐ	-3680
ܕܬܚܒ	-3681
ܕܬܬܠ	-3682
ܘܐܒܐ	-3683
ܘܐܝܠ	-3684
ܘܐܤܩ	-3685
ܘܒܘܪ	-3686
ܘܒܝܕ	-3687
ܘܒܬܐ	-3688
ܘܓܒܐ	-3689
ܘܕܘܢ	-3690
ܘܕܡܢ	-3691
ܘܚܙܝ	-3692
ܘܝܐܐ	-3693
ܘܟܒܪ	-3694
ܘܟܡܐ	-3695
ܘܠܡܐ	-3696
ܘܡܘܢ	-3697
ܘܡܚܐ	-3698
ܘܡܠܝ	-3699
ܘܡܦܩ	-3700
ܘܢܫܩ	-3701
ܘܢܫܬ	-3702
ܘܤܪܝ	-3703
ܘܩܡܬ	-3704
ܘܫܢܝ	-3705
ܘܬܟܝ	-3706
ܘܬܪܥ	-3707
ܙܕܝܩ	-3708
ܙܩܝܦ	-3709
ܚܘܝܘ	-3710
ܚܝܬܐ	-3711
ܚܠܝܡ	-3712
ܚܪܬܗ	-3713
ܛܒܥܐ	-3714
ܟܪܝܬ	-3715
ܠܕܘܟ	-3716
ܠܡܘܢ	-3717
ܠܢܝܚ	-3718
ܠܫܢܐ	-3719
ܡܓܪܬ	-3720
ܡܘܢܐ	-3721
ܡܘܫܛ	-3722
ܡܛܝܢ	-3723
ܡܝܩܪ	-3724
ܡܝܬܘ	-3725
ܡܠܘܢ	-3726
ܡܠܬܟ	-3727
ܡܫܝܓ	-3728
ܡܫܬܪ	-3729
ܡܬܟܪ	-3730
ܢܘܒܕ	-3731
ܢܘܬܗ	-3732
ܢܙܒܢ	-3733
ܢܤܒܪ	-3734
ܢܤܝܡ	-3735
ܢܩܝܢ	-3736
ܢܪܚܡ	-3737
ܢܫܬܐ	-3738
ܤܡܝܟ	-3739
ܥܕܬܗ	-3740
ܥܡܝܢ	-3741
ܥܡܠܐ	-3742
ܥܤܒܐ	-3743
ܦܐܝܬ	-3744
ܦܘܩܘ	-3745
ܦܢܘܤ	-3746
ܦܤܘܩ	-3747
ܨܦܬܐ	-3748
ܨܪܬܐ	-3749
ܩܘܗܝ	-3750
ܩܝܠܝ	-3751
ܩܠܘܤ	-3752
ܩܥܬܐ	-3753
ܪܓܝܓ	-3754
ܪܝܗܐ	-3755
ܪܝܚܐ	-3756
ܫܒܝܐ	-3757
ܫܒܩܗ	-3758
ܫܘܝܬ	-3759
ܫܡܫܬ	-3760
ܫܩܝܠ	-3761
ܫܪܪܗ	-3762
ܬܓܘܪ	-3763
ܬܝܗܝ	-3764
ܬܡܐܢ	-3765
ܐܝܬܝܘ	-3766
ܐܢܚܢܢ	-3767
ܐܤܬܟܠ	-3768
ܐܩܝܡܗ	-3769
ܐܫܬܐܠ	-3770
ܐܫܬܕܪ	-3771
ܐܬܕܒܪ	-3772
ܐܬܢܒܝ	-3773
ܐܬܦܢܝ	-3774
ܐܬܩܪܒ	-3775
ܒܘܟܪܐ	-3776
ܒܝܘܡܗ	-3777
ܒܡܘܬܐ	-3778
ܒܥܘܬܐ	-3779
ܒܥܢܢܐ	-3780
ܒܥܪܤܐ	-3781
ܒܦܓܪܐ	-3782
ܒܨܦܪܐ	-3783
ܒܩܒܪܐ	-3784
ܒܪܘܚܝ	-3785
ܓܠܝܘܬ	-3786
ܕܐܝܟܐ	-3787
ܕܐܠܦܐ	-3788
ܕܐܬܝܐ	-3789
ܕܒܚܕܐ	-3790
ܕܒܝܬܐ	-3791
ܕܒܟܝܢ	-3792
ܕܕܠܡܐ	-3793
ܕܘܢܘܢ	-3794
ܕܚܬܢܐ	-3795
ܕܛܠܝܢ	-3796
ܕܟܐܢܐ	-3797
ܕܠܘܬܢ	-3798
ܕܠܚܡܐ	-3799
ܕܡܟܪܙ	-3800
ܕܡܫܠܡ	-3801
ܕܢܕܘܢ	-3802
ܕܢܚܘܐ	-3803
ܕܢܥܒܪ	-3804
ܕܢܩܘܐ	-3805
ܕܢܩܛܠ	-3806
ܕܥܡܪܐ	-3807
ܕܦܓܪܗ	-3808
ܕܩܒܠܘ	-3809
ܕܪܟܫܐ	-3810
ܕܪܫܝܢ	-3811
ܕܬܐܬܐ	-3812
ܕܬܥܘܠ	-3813
ܗܝܡܢܬ	-3814
ܘܐܚܕܘ	-3815
ܘܐܡܬܝ	-3816
ܘܒܢܝܐ	-3817
ܘܕܒܚܐ	-3818
ܘܗܘܝܬ	-3819
ܘܗܟܘܬ	-3820
ܘܙܕܝܩ	-3821
ܘܝܗܒܘ	-3822
ܘܝܫܘܥ	-3823
ܘܟܐܦܐ	-3824
ܘܠܐܡܟ	-3825
ܘܠܟܘܢ	-3826
ܘܠܫܢܐ	-3827
ܘܡܤܒܪ	-3828
ܘܡܫܟܚ	-3829
ܘܢܐܬܐ	-3830
ܘܢܫܟܚ	-3831
ܘܤܒܥܘ	-3832
ܘܦܛܘܤ	-3833
ܘܦܪܘܩ	-3834
ܘܫܩܠܗ	-3835
ܙܟܘܬܐ	-3836
ܙܩܝܦܐ	-3837
ܚܘܪܬܐ	-3838
ܝܬܗܘܢ	-3839
ܝܬܪܘܢ	-3840
ܟܘܒܫܐ	-3841
ܟܘܬܝܢ	-3842
ܟܤܢܝܐ	-3843
ܠܐܚܘܟ	-3844
ܠܐܝܕܐ	-3845
ܠܒܘܫܐ	-3846
ܠܒܝܬܟ	-3847
ܠܓܒܝܐ	-3848
ܠܚܘܗܝ	-3849
ܠܝܗܘܢ	-3850
ܠܟܐܢܘ	-3851
ܠܟܬܒܐ	-3852
ܠܡܘܫܐ	-3853
ܠܢܦܫܝ	-3854
ܠܦܠܚܐ	-3855
ܠܩܪܒܐ	-3856
ܠܫܐܘܠ	-3857
ܡܘܬܒܐ	-3858
ܡܚܒܝܢ	-3859
ܡܛܝܒܐ	-3860
ܡܤܟܝܢ	-3861
ܡܦܩܝܢ	-3862
ܡܫܬܒܩ	-3863
ܢܙܕܕܩ	-3864
ܢܝܐܝܠ	-3865
ܢܝܩܝܢ	-3866
ܢܦܠܝܢ	-3867
ܢܦܫܬܐ	-3868
ܢܬܝܗܒ	-3869
ܤܒܪܬܝ	-3870
ܤܝܪܘܬ	-3871
ܤܡܝܟܐ	-3872
ܥܒܕܝܗ	-3873
ܥܕܥܕܐ	-3874
ܥܪܩܘܢ	-3875
ܩܛܝܪܐ	-3876
ܩܝܡܬܗ	-3877
ܩܠܝܕܐ	-3878
ܪܘܫܡܐ	-3879
ܪܚܝܩܐ	-3880
ܪܝܘܬܐ	-3881
ܪܥܘܬܐ	-3882
ܫܘܠܡܐ	-3883
ܫܝܗܘܢ	-3884
ܫܪܝܢܐ	-3885
ܬܘܒܘܢ	-3886
ܬܘܢܢܝ	-3887
ܬܘܬܒܐ	-3888
ܬܟܦܘܪ	-3889
ܬܩܛܘܠ	-3890
ܬܪܡܠܐ	-3891
ܐܘܫܥܢܐ	-3892
ܐܡܪܝܢܢ	-3893
ܐܫܬܡܥܘ	-3894
ܐܬܕܟܪܘ	-3895
ܒܐܤܟܡܐ	-3896
ܒܐܦܘܗܝ	-3897
ܒܚܟܡܬܐ	-3898
ܒܝܢܘܗܝ	-3899
ܒܝܫܐܝܬ	-3900
ܒܝܬܟܘܢ	-3901
ܒܢܝܟܘܢ	-3902
ܒܩܛܝܪܐ	-3903
ܒܪܝܗܘܢ	-3904
ܓܒܝܠܬܐ	-3905
ܕܐܙܕܩܦ	-3906
ܕܐܢܬܬܐ	-3907
ܕܐܩܝܡܗ	-3908
ܕܓܠܘܬܐ	-3909
ܕܕܒܝܚܐ	-3910
ܕܚܟܡܬܐ	-3911
ܕܝܕܥܬܐ	-3912
ܕܝܫܘܬܐ	-3913
ܕܟܠܟܘܢ	-3914
ܕܟܠܡܕܡ	-3915
ܕܟܬܝܒܐ	-3916
ܕܡܢܗܘܢ	-3917
ܕܢܫܩܘܠ	-3918
ܕܤܒܪܬܐ	-3919
ܕܦܬܟܪܐ	-3920
ܕܩܪܟܘܢ	-3921
ܕܪܘܓܙܐ	-3922
ܕܫܘܒܚܐ	-3923
ܘܐܚܘܗܝ	-3924
ܘܐܚܪܝܐ	-3925
ܘܐܩܝܡܘ	-3926
ܘܐܫܬܟܚ	-3927
ܘܐܬܕܟܪ	-3928
ܘܝܕܥܝܢ	-3929
ܘܝܗܘܕܐ	-3930
ܘܠܗܢܘܢ	-3931
ܘܡܤܟܢܐ	-3932
ܘܤܘܓܐܐ	-3933
ܘܤܝܡܝܢ	-3934
ܘܪܢܬܘܤ	-3935
ܘܫܠܝܚܐ	-3936
ܘܬܐܘܡܐ	-3937
ܘܬܚܙܘܢ	-3938
ܚܕܝܐܝܬ	-3939
ܚܘܪܝܬܐ	-3940
ܝܘܬܪܢܐ	-3941
ܟܐܢܘܬܗ	-3942
ܠܐܒܗܬܢ	-3943
ܠܐܘܪܚܐ	-3944
ܠܐܦܤܘܤ	-3945
ܠܟܠܟܘܢ	-3946
ܠܡܠܐܟܐ	-3947
ܡܛܠܗܢܐ	-3948
ܡܟܪܙܝܢ	-3949
ܡܠܝܗܘܢ	-3950
ܡܤܒܪܝܢ	-3951
ܡܤܟܝܢܢ	-3952
ܡܫܒܚܝܢ	-3953
ܡܫܡܠܝܐ	-3954
ܡܫܬܘܕܥ	-3955
ܡܫܬܘܬܐ	-3956
ܢܐܟܠܘܢ	-3957
ܢܤܒܬܘܢ	-3958
ܢܥܒܪܘܢ	-3959
ܢܩܒܠܘܢ	-3960
ܥܒܕܝܢܢ	-3961
ܦܐܪܘܗܝ	-3962
ܦܪܗܤܝܐ	-3963
ܪܕܘܦܝܐ	-3964
ܪܝܤܩܠܐ	-3965
ܫܢܝܗܘܢ	-3966
ܫܩܠܬܘܢ	-3967
ܬܥܡܕܘܢ	-3968
ܬܫܒܩܘܢ	-3969
ܬܫܡܥܘܢ	-3970
ܐܝܬܝܟܘܢ	-3971
ܒܝܘܠܦܢܐ	-3972
ܒܟܘܪܗܢܐ	-3973
ܒܡܕܝܢܬܗ	-3974
ܒܡܫܘܚܬܐ	-3975
ܒܢܘܫܩܬܐ	-3976
ܕܐܫܬܕܪܘ	-3977
ܕܒܝܫܐܝܬ	-3978
ܕܒܟܠܙܒܢ	-3979
ܕܟܘܪܤܝܐ	-3980
ܕܡܠܟܘܬܗ	-3981
ܕܡܫܟܚܝܢ	-3982
ܕܢܐܡܪܘܢ	-3983
ܕܢܫܐܠܘܢ	-3984
ܕܤܡܝܟܝܢ	-3985
ܕܥܠܝܗܘܢ	-3986
ܕܦܘܩܕܢܐ	-3987
ܗܝܡܢܬܘܢ	-3988
ܘܐܚܕܘܗܝ	-3989
ܘܐܫܬܥܝܘ	-3990
ܘܐܬܕܡܪܘ	-3991
ܘܠܐܚܪܢܐ	-3992
ܘܡܗܝܡܢܐ	-3993
ܘܡܡܠܠܝܢ	-3994
ܘܪܓܠܘܗܝ	-3995
ܘܬܡܝܗܝܢ	-3996
ܚܕܘܢܝܗܝ	-3997
ܠܒܘܬܗܘܢ	-3998
ܠܝܘܠܦܢܐ	-3999
ܠܡܫܪܝܬܐ	-4000
ܡܐܢܝܗܘܢ	-4001
ܡܙܕܪܥܝܢ	-4002
ܡܫܬܡܥܝܢ	-4003
ܩܕܝܫܘܬܐ	-4004
ܩܕܡܝܟܘܢ	-4005
ܩܘܦܝܢܝܢ	-4006
ܬܚܙܘܢܢܝ	-4007
ܐܘܢܓܠܝܘܢ	-4008
ܒܚܛܗܝܟܘܢ	-4009
ܒܬܫܒܘܚܬܐ	-4010
ܕܢܗܝܡܢܘܢ	-4011
ܘܐܘܒܠܘܗܝ	-4012
ܘܗܝܡܢܘܬܐ	-4013
ܘܡܬܕܡܪܝܢ	-4014
ܠܐܢܛܝܘܟܝ	-4015
ܠܗܝܡܢܘܬܐ	-4016
ܠܛܝܡܬܐܘܤ	-4017
ܠܩܢܛܪܘܢܐ	-4018
ܠܬܫܒܘܚܬܐ	-4019
ܡܨܝܕܬܗܘܢ	-4020
ܡܫܠܡܢܘܬܐ	-4021
ܓܫ	-4022
ܝܨ	-4023
ܟܦ	-4024
ܢܕ	-4025
ܢܥ	-4026
ܤܕ	-4027
ܤܘ	-4028
ܨܛ	-4029
ܪܢ	-4030
ܫܟ	-4031
ܫܦ	-4032
ܬܤ	-4033
ܬܥ	-4034
ܐܒܕ	-4035
ܐܝܙ	-4036
ܐܡܐ	-4037
ܐܢܢ	-4038
ܐܥܡ	-4039
ܒܕܐ	-4040
ܒܕܩ	-4041
ܒܚܐ	-4042
ܒܢܟ	-4043
ܒܤܡ	-4044
ܒܨܪ	-4045
ܒܫܗ	-4046
ܒܬܢ	-4047
ܓܕܐ	-4048
ܓܫܘ	-4049
ܕܓܡ	-4050
ܕܕܒ	-4051
ܕܚܤ	-4052
ܕܟܘ	-4053
ܕܠܒ	-4054
ܕܠܢ	-4055
ܕܠܩ	-4056
ܕܢܟ	-4057
ܕܥܬ	-4058
ܕܦܐ	-4059
ܕܦܬ	-4060
ܕܪܗ	-4061
ܗܒܐ	-4062
ܘܒܓ	-4063
ܘܒܙ	-4064
ܘܒܫ	-4065
ܘܚܘ	-4066
ܘܟܤ	-4067
ܘܢܚ	-4068
ܘܢܡ	-4069
ܘܤܝ	-4070
ܘܫܡ	-4071
ܘܫܬ	-4072
ܚܛܘ	-4073
ܚܝܗ	-4074
ܚܪܘ	-4075
ܛܓܐ	-4076
ܛܥܘ	-4077
ܛܥܢ	-4078
ܝܘܪ	-4079
ܝܩܕ	-4080
ܟܐܐ	-4081
ܟܘܟ	-4082
ܟܤܦ	-4083
ܠܒܢ	-4084
ܠܗܠ	-4085
ܠܛܪ	-4086
ܠܟܪ	-4087
ܡܛܬ	-4088
ܡܟܘ	-4089
ܡܠܚ	-4090
ܡܤܒ	-4091
ܡܥܪ	-4092
ܡܬܟ	-4093
ܢܗܝ	-4094
ܢܚܒ	-4095
ܢܫܒ	-4096
ܢܬܒ	-4097
ܢܬܟ	-4098
ܦܘܟ	-4099
ܨܗܐ	-4100
ܨܘܪ	-4101
ܨܝܕ	-4102
ܩܢܬ	-4103
ܩܦܘ	-4104
ܪܚܒ	-4105
ܪܝܩ	-4106
ܫܒܐ	-4107
ܫܘܘ	-4108
ܬܠܘ	-4109
ܐܕܢܗ	-4110
ܐܙܠܬ	-4111
ܐܚܒܢ	-4112
ܐܚܒܬ	-4113
ܐܝܘܤ	-4114
ܐܝܬܐ	-4115
ܐܝܬܘ	-4116
ܐܡܝܪ	-4117
ܐܤܬܪ	-4118
ܐܦܝܗ	-4119
ܐܬܚܪ	-4120
ܐܬܟܬ	-4121
ܒܐܒܝ	-4122
ܒܐܘܪ	-4123
ܒܐܢܫ	-4124
ܒܐܦܝ	-4125
ܒܒܝܠ	-4126
ܒܒܪܐ	-4127
ܒܗܬܐ	-4128
ܒܘܨܐ	-4129
ܒܚܝܐ	-4130
ܒܛܢܐ	-4131
ܒܠܒܐ	-4132
ܒܠܝܐ	-4133
ܒܡܟܝ	-4134
ܓܪܓܘ	-4135
ܕܐܦܢ	-4136
ܕܐܦܩ	-4137
ܕܐܬܠ	-4138
ܕܒܥܐ	-4139
ܕܒܪܟ	-4140
ܕܗܘܝ	-4141
ܕܙܒܢ	-4142
ܕܙܟܐ	-4143
ܕܝܠܦ	-4144
ܕܝܢܪ	-4145
ܕܟܝܘ	-4146
ܕܟܢܝ	-4147
ܕܠܒܐ	-4148
ܕܠܒܪ	-4149
ܕܠܓܘ	-4150
ܕܡܘܢ	-4151
ܕܡܛܐ	-4152
ܕܡܟܐ	-4153
ܕܡܟܝ	-4154
ܕܡܦܩ	-4155
ܕܢܗܦ	-4156
ܕܢܩܪ	-4157
ܕܢܫܩ	-4158
ܕܥܟܐ	-4159
ܕܦܬܚ	-4160
ܕܦܬܝ	-4161
ܕܪܗܘ	-4162
ܕܫܒܝ	-4163
ܕܫܠܡ	-4164
ܕܫܦܪ	-4165
ܕܫܩܠ	-4166
ܕܬܪܥ	-4167
ܘܐܠܦ	-4168
ܘܐܡܗ	-4169
ܘܐܦܤ	-4170
ܘܒܗܘ	-4171
ܘܓܠܐ	-4172
ܘܕܚܠ	-4173
ܘܝܪܐ	-4174
ܘܟܠܐ	-4175
ܘܠܐܪ	-4176
ܘܠܫܐ	-4177
ܘܡܥܩ	-4178
ܘܢܝܐ	-4179
ܘܢܦܫ	-4180
ܘܤܗܕ	-4181
ܘܤܡܗ	-4182
ܘܥܪܩ	-4183
ܘܦܠܓ	-4184
ܘܦܪܫ	-4185
ܘܨܠܘ	-4186
ܘܩܪܘ	-4187
ܘܪܘܙ	-4188
ܘܪܡܐ	-4189
ܘܫܡܐ	-4190
ܙܝܢܐ	-4191
ܙܢܝܘ	-4192
ܙܪܥܬ	-4193
ܚܘܘܢ	-4194
ܚܘܪܘ	-4195
ܚܘܫܒ	-4196
ܚܝܗܝ	-4197
ܚܡܬܗ	-4198
ܛܠܝܢ	-4199
ܛܥܝܢ	-4200
ܝܕܥܬ	-4201
ܝܬܪܐ	-4202
ܟܐܒܐ	-4203
ܟܒܬܐ	-4204
ܟܘܡܪ	-4205
ܟܠܡܢ	-4206
ܠܡܚܐ	-4207
ܠܡܢܝ	-4208
ܠܦܪܛ	-4209
ܡܐܤܐ	-4210
ܡܘܗܝ	-4211
ܡܚܒܠ	-4212
ܡܚܘܢ	-4213
ܡܛܥܐ	-4214
ܡܟܝܟ	-4215
ܡܠܝܬ	-4216
ܡܢܘܢ	-4217
ܡܢܢܐ	-4218
ܡܤܟܢ	-4219
ܡܥܘܢ	-4220
ܡܦܢܐ	-4221
ܡܦܫܩ	-4222
ܡܩܕܫ	-4223
ܢܚܘܐ	-4224
ܢܚܤܪ	-4225
ܢܚܫܐ	-4226
ܢܝܚܐ	-4227
ܢܝܚܘ	-4228
ܢܦܩܐ	-4229
ܢܫܦܪ	-4230
ܤܗܪܐ	-4231
ܤܝܡܢ	-4232
ܤܝܡܬ	-4233
ܤܡܠܗ	-4234
ܤܪܝܩ	-4235
ܥܒܝܕ	-4236
ܥܒܪܘ	-4237
ܥܡܕܘ	-4238
ܥܪܘܢ	-4239
ܥܪܛܠ	-4240
ܥܪܩܐ	-4241
ܥܪܩܘ	-4242
ܦܪܘܤ	-4243
ܦܫܝܛ	-4244
ܩܒܠܬ	-4245
ܩܒܬܐ	-4246
ܩܝܦܗ	-4247
ܩܠܝܢ	-4248
ܩܨܝܐ	-4249
ܩܪܛܐ	-4250
ܩܪܢܢ	-4251
ܪܒܝܢ	-4252
ܪܘܡܐ	-4253
ܪܡܬܐ	-4254
ܫܒܠܐ	-4255
ܫܒܩܢ	-4256
ܫܕܪܘ	-4257
ܫܝܢܢ	-4258
ܫܟܢܐ	-4259
ܫܠܝܢ	-4260
ܫܠܡܗ	-4261
ܫܡܥܢ	-4262
ܫܩܠܘ	-4263
ܬܘܒܘ	-4264
ܬܤܗܕ	-4265
ܬܩܘܐ	-4266
ܬܩܘܡ	-4267
ܬܪܝܘ	-4268
ܬܫܒܚ	-4269
ܬܫܟܚ	-4270
ܐܓܪܦܐ	-4271
ܐܚܘܕܘ	-4272
ܐܟܪܙܬ	-4273
ܐܟܬܘܒ	-4274
ܐܤܛܠܐ	-4275
ܐܤܦܝܪ	-4276
ܐܤܬܡܟ	-4277
ܐܥܡܕܬ	-4278
ܐܩܝܡܟ	-4279
ܐܫܬܒܚ	-4280
ܐܬܐܠܨ	-4281
ܐܬܒܛܠ	-4282
ܐܬܬܙܝ	-4283
ܒܕܗܒܐ	-4284
ܒܗܬܬܐ	-4285
ܒܘܪܟܝ	-4286
ܒܚܠܡܐ	-4287
ܒܝܗܘܕ	-4288
ܒܝܘܗܝ	-4289
ܒܝܘܡܝ	-4290
ܒܟܤܝܐ	-4291
ܒܡܐܢܐ	-4292
ܒܢܡܘܤ	-4293
ܒܤܝܡܐ	-4294
ܒܤܝܦܐ	-4295
ܒܥܒܪܐ	-4296
ܒܦܘܡܐ	-4297
ܒܫܝܘܠ	-4298
ܓܒܝܬܐ	-4299
ܓܘܪܬܐ	-4300
ܓܙܪܝܢ	-4301
ܓܝܪܘܬ	-4302
ܓܝܪܬܐ	-4303
ܓܪܟܘܢ	-4304
ܕܐܟܪܙ	-4305
ܕܐܡܬܝ	-4306
ܕܒܗܝܢ	-4307
ܕܒܟܘܢ	-4308
ܕܒܟܠܗ	-4309
ܕܒܡܪܢ	-4310
ܕܒܬܪܗ	-4311
ܕܒܬܪܝ	-4312
ܕܕܝܠܗ	-4313
ܕܕܪܬܐ	-4314
ܕܘܩܝܐ	-4315
ܕܚܕܪܝ	-4316
ܕܚܘܒܐ	-4317
ܕܚܙܘܐ	-4318
ܕܚܝܠܗ	-4319
ܕܝܘܗܝ	-4320
ܕܝܘܢܢ	-4321
ܕܟܬܒܬ	-4322
ܕܡܛܝܐ	-4323
ܕܡܟܤܐ	-4324
ܕܡܠܠܘ	-4325
ܕܡܠܬܗ	-4326
ܕܡܩܒܠ	-4327
ܕܡܩܘܐ	-4328
ܕܡܪܝܡ	-4329
ܕܢܒܗܬ	-4330
ܕܢܕܒܪ	-4331
ܕܢܘܒܕ	-4332
ܕܢܘܢܐ	-4333
ܕܢܤܝܡ	-4334
ܕܢܦܘܩ	-4335
ܕܢܩܒܠ	-4336
ܕܢܩܪܒ	-4337
ܕܢܫܕܪ	-4338
ܕܢܫܟܚ	-4339
ܕܦܨܚܐ	-4340
ܕܩܨܝܐ	-4341
ܕܫܒܩܬ	-4342
ܕܫܕܪܬ	-4343
ܕܫܪܝܢ	-4344
ܕܬܪܚܡ	-4345
ܗܘܦܟܝ	-4346
ܘܐܘܕܥ	-4347
ܘܐܟܠܘ	-4348
ܘܐܡܪܢ	-4349
ܘܐܪܒܥ	-4350
ܘܒܟܠܗ	-4351
ܘܒܤܝܡ	-4352
ܘܕܐܝܬ	-4353
ܘܕܝܬܒ	-4354
ܘܕܥܡܗ	-4355
ܘܗܘܝܐ	-4356
ܘܗܘܝܢ	-4357
ܘܙܒܢܐ	-4358
ܘܚܡܬܐ	-4359
ܘܚܪܫܐ	-4360
ܘܛܘܬܐ	-4361
ܘܝܗܒܗ	-4362
ܘܝܘܬܐ	-4363
ܘܝܬܒܘ	-4364
ܘܟܪܝܬ	-4365
ܘܠܗܘܢ	-4366
ܘܡܗܠܟ	-4367
ܘܡܘܬܐ	-4368
ܘܡܚܝܢ	-4369
ܘܡܝܬܐ	-4370
ܘܡܤܗܕ	-4371
ܘܢܚܙܐ	-4372
ܘܢܝܩܐ	-4373
ܘܢܤܒܘ	-4374
ܘܢܦܠܬ	-4375
ܘܢܫܪܐ	-4376
ܘܤܓܕܘ	-4377
ܘܤܗܪܐ	-4378
ܘܤܡܝܐ	-4379
ܘܥܡܡܐ	-4380
ܘܪܩܢܐ	-4381
ܘܫܒܚܘ	-4382
ܘܫܡܫܐ	-4383
ܘܬܦܘܢ	-4384
ܘܬܦܝܢ	-4385
ܙܝܥܘܢ	-4386
ܙܥܘܪܝ	-4387
ܚܐܪܬܐ	-4388
ܚܕܬܬܐ	-4389
ܚܙܝܢܢ	-4390
ܚܝܪܝܢ	-4391
ܚܡܫܝܢ	-4392
ܚܤܝܪܝ	-4393
ܛܘܗܡܗ	-4394
ܛܘܦܤܐ	-4395
ܝܬܒܝܢ	-4396
ܟܪܟܝܢ	-4397
ܟܫܠܘܢ	-4398
ܠܐܒܗܝ	-4399
ܠܐܠܗܝ	-4400
ܠܒܝܫܐ	-4401
ܠܒܢܝܐ	-4402
ܠܒܥܠܗ	-4403
ܠܒܫܘܢ	-4404
ܠܕܘܟܪ	-4405
ܠܘܛܬܐ	-4406
ܠܙܒܢܐ	-4407
ܠܚܕܕܐ	-4408
ܠܛܒܬܐ	-4409
ܠܝܗܘܕ	-4410
ܠܝܘܦܐ	-4411
ܠܡܝܬܐ	-4412
ܠܡܠܟܐ	-4413
ܠܡܤܓܕ	-4414
ܠܫܘܩܐ	-4415
ܡܕܝܢܐ	-4416
ܡܕܢܚܐ	-4417
ܡܘܒܠܐ	-4418
ܡܘܠܝܐ	-4419
ܡܛܪܬܐ	-4420
ܡܡܠܠܐ	-4421
ܡܥܝܢܐ	-4422
ܡܥܤܪܐ	-4423
ܡܨܥܝܐ	-4424
ܡܩܒܠܐ	-4425
ܡܩܕܫܐ	-4426
ܡܪܝܡܐ	-4427
ܡܬܓܠܐ	-4428
ܡܬܝܗܒ	-4429
ܢܗܝܡܢ	-4430
ܢܝܐܝܬ	-4431
ܢܝܩܕܡ	-4432
ܢܟܦܘܪ	-4433
ܢܬܕܒܪ	-4434
ܢܬܚܙܐ	-4435
ܢܬܡܠܠ	-4436
ܤܝܒܪܘ	-4437
ܤܠܩܝܢ	-4438
ܥܒܪܝܢ	-4439
ܥܝܢܝܟ	-4440
ܥܡܝܪܐ	-4441
ܥܬܝܕܐ	-4442
ܦܝܢܟܐ	-4443
ܦܠܐܬܐ	-4444
ܨܒܝܢܢ	-4445
ܩܪܝܒܐ	-4446
ܩܫܝܘܬ	-4447
ܪܓܘܢܐ	-4448
ܪܗܛܝܢ	-4449
ܪܛܢܝܢ	-4450
ܪܥܝܢܗ	-4451
ܪܥܝܢܟ	-4452
ܫܒܥܝܢ	-4453
ܬܚܘܡܐ	-4454
ܬܟܠܘܢ	-4455
ܬܠܬܝܢ	-4456
ܬܡܢܝܐ	-4457
ܬܦܘܬܐ	-4458
ܬܪܘܬܐ	-4459
ܬܬܝܕܥ	-4460
ܐܚܝܟܘܢ	-4461
ܐܚܪܝܬܐ	-4462
ܐܡܝܢܝܢ	-4463
ܐܦܝܗܘܢ	-4464
ܐܨܛܒܝܬ	-4465
ܐܫܬܘܬܦ	-4466
ܐܬܝܗܒܬ	-4467
ܐܬܠܒܒܘ	-4468
ܒܐܤܘܪܐ	-4469
ܒܗܪܝܢܢ	-4470
ܒܝܫܘܬܐ	-4471
ܒܠܒܟܘܢ	-4472
ܒܡܪܘܡܐ	-4473
ܒܩܘܪܝܐ	-4474
ܒܩܝܡܬܐ	-4475
ܒܩܢܘܡܗ	-4476
ܓܘܓܝܬܐ	-4477
ܕܐܒܗܬܢ	-4478
ܕܐܟܐܝܐ	-4479
ܕܐܫܟܚܬ	-4480
ܕܐܬܐܤܝ	-4481
ܕܐܬܝܗܒ	-4482
ܕܐܬܟܢܝ	-4483
ܕܒܥܕܬܐ	-4484
ܕܒܥܠܕܒ	-4485
ܕܒܥܠܡܐ	-4486
ܕܓܘܕܦܐ	-4487
ܕܗܝܡܢܬ	-4488
ܕܚܪܕܠܐ	-4489
ܕܝܘܡܬܐ	-4490
ܕܝܢܪܝܢ	-4491
ܕܟܘܟܒܐ	-4492
ܕܟܝܘܬܐ	-4493
ܕܠܒܗܘܢ	-4494
ܕܡܚܒܝܢ	-4495
ܕܡܛܝܒܐ	-4496
ܕܡܝܬܝܢ	-4497
ܕܡܬܚܒܠ	-4498
ܕܢܗܘܝܢ	-4499
ܕܢܝܗܘܢ	-4500
ܕܢܤܒܘܢ	-4501
ܕܢܥܠܘܢ	-4502
ܕܢܦܩܝܢ	-4503
ܕܢܫܬܠܡ	-4504
ܕܦܪܙܠܐ	-4505
ܘܐܡܘܬܐ	-4506
ܘܐܪܡܝܐ	-4507
ܘܒܢܘܪܐ	-4508
ܘܕܐܠܗܐ	-4509
ܘܙܕܝܩܐ	-4510
ܘܚܝܘܬܐ	-4511
ܘܚܪܝܢܐ	-4512
ܘܝܗܒܝܢ	-4513
ܘܠܫܝܠܐ	-4514
ܘܠܫܪܟܐ	-4515
ܘܠܬܠܬܐ	-4516
ܘܡܗܝܡܢ	-4517
ܘܦܘܠܘܤ	-4518
ܘܦܪܘܩܢ	-4519
ܘܫܘܒܚܐ	-4520
ܘܫܡܥܝܢ	-4521
ܘܫܪܝܗܝ	-4522
ܘܬܪܬܝܢ	-4523
ܙܥܘܪܝܢ	-4524
ܙܩܦܘܗܝ	-4525
ܚܐܪܘܬܐ	-4526
ܚܘܫܒܢܐ	-4527
ܚܫܡܝܬܐ	-4528
ܛܥܝܘܬܐ	-4529
ܝܕܝܥܝܢ	-4530
ܟܘܪܗܢܐ	-4531
ܟܘܪܤܝܗ	-4532
ܠܐܒܕܢܐ	-4533
ܠܐܘܪܥܗ	-4534
ܠܐܚܪܝܢ	-4535
ܠܒܤܬܪܗ	-4536
ܠܒܫܘܗܝ	-4537
ܠܗܒܝܬܐ	-4538
ܠܘܤܛܪܐ	-4539
ܠܙܕܝܩܐ	-4540
ܠܚܫܘܟܐ	-4541
ܠܝܘܡܬܐ	-4542
ܠܡܐܚܕܗ	-4543
ܠܡܕܒܚܐ	-4544
ܠܡܝܕܝܟ	-4545
ܠܡܤܒܪܘ	-4546
ܠܥܠܝܡܐ	-4547
ܠܩܘܒܠܢ	-4548
ܠܩܘܪܝܐ	-4549
ܠܬܚܘܡܐ	-4550
ܡܘܕܝܢܢ	-4551
ܡܛܥܝܢܐ	-4552
ܡܝܬܪܝܢ	-4553
ܡܟܫܘܠܐ	-4554
ܡܥܨܪܬܐ	-4555
ܡܦܘܠܝܐ	-4556
ܡܪܕܘܬܐ	-4557
ܢܘܒܕܝܗ	-4558
ܢܤܝܘܢܐ	-4559
ܢܫܝܟܘܢ	-4560
ܤܗܕܘܗܝ	-4561
ܤܛܪܟܘܤ	-4562
ܤܡܝܟܝܢ	-4563
ܥܠܝܡܬܐ	-4564
ܥܬܝܗܘܢ	-4565
ܦܘܠܚܢܐ	-4566
ܦܘܩܕܢܗ	-4567
ܦܪܩܠܛܐ	-4568
ܨܒܝܬܘܢ	-4569
ܩܒܠܘܗܝ	-4570
ܩܪܩܦܬܐ	-4571
ܩܫܝܫܝܢ	-4572
ܫܕܪܬܢܝ	-4573
ܫܘܒܩܢܐ	-4574
ܫܘܚܠܦܐ	-4575
ܫܘܥܝܬܐ	-4576
ܫܛܝܘܬܐ	-4577
ܫܝܦܘܪܐ	-4578
ܫܩܝܠܝܢ	-4579
ܬܐܟܠܘܢ	-4580
ܬܘܕܝܬܐ	-4581
ܬܘܟܠܢܐ	-4582
ܬܚܦܝܬܐ	-4583
ܬܠܡܝܕܝ	-4584
ܬܩܒܠܘܢ	-4585
ܐܝܬܝܘܗܝ	-4586
ܐܤܛܕܘܬܐ	-4587
ܐܪܒܥܤܪܐ	-4588
ܐܫܐܠܟܘܢ	-4589
ܐܬܛܦܝܤܘ	-4590
ܒܕܪܡܤܘܩ	-4591
ܒܘܪܟܘܗܝ	-4592
ܒܤܝܡܘܬܐ	-4593
ܒܦܘܩܕܢܐ	-4594
ܒܦܪܨܘܦܗ	-4595
ܒܫܘܠܛܢܐ	-4596
ܕܐܒܘܟܘܢ	-4597
ܕܐܚܝܕܝܢ	-4598
ܕܐܪܡܠܬܐ	-4599
ܕܡܙܒܢܝܢ	-4600
ܕܡܛܝܒܝܢ	-4601
ܕܡܩܪܒܝܢ	-4602
ܕܢܡܠܠܘܢ	-4603
ܕܢܤܝܡܘܢ	-4604
ܕܥܠܝܟܘܢ	-4605
ܕܪܗܘܡܝܐ	-4606
ܕܫܠܝܡܘܢ	-4607
ܕܬܘܩܠܬܐ	-4608
ܕܬܫܐܠܘܢ	-4609
ܘܐܪܒܥܝܢ	-4610
ܘܐܫܬܘܕܥ	-4611
ܘܒܝܕܥܬܐ	-4612
ܘܒܟܠܙܒܢ	-4613
ܘܓܒܪܘܬܐ	-4614
ܘܚܙܐܘܗܝ	-4615
ܘܝܕܥܝܢܢ	-4616
ܘܟܒܪܝܬܐ	-4617
ܘܠܐܪܡܝܐ	-4618
ܘܠܒܪܢܒܐ	-4619
ܘܡܕܝܢܬܐ	-4620
ܘܢܤܓܕܘܢ	-4621
ܘܬܕܡܪܬܐ	-4622
ܙܥܘܪܝܬܐ	-4623
ܠܟܐܢܘܬܐ	-4624
ܠܡܩܛܠܢܝ	-4625
ܠܥܒܕܘܬܐ	-4626
ܠܬܫܡܫܬܐ	-4627
ܡܗܠܟܝܢܢ	-4628
ܡܤܒܪܝܢܢ	-4629
ܡܪܓܢܝܬܐ	-4630
ܡܬܕܒܪܝܢ	-4631
ܡܬܩܪܒܝܢ	-4632
ܢܚܬܝܗܘܢ	-4633
ܢܛܥܝܟܘܢ	-4634
ܢܝܩܕܡܘܤ	-4635
ܨܐܕܝܟܘܢ	-4636
ܨܒܝܢܗܘܢ	-4637
ܩܝܠܝܩܝܐ	-4638
ܪܓܠܝܟܘܢ	-4639
ܪܥܝܢܗܘܢ	-4640
ܬܐܪܬܗܘܢ	-4641
ܬܟܝܠܝܢܢ	-4642
ܬܠܡܝܕܝܟ	-4643
ܬܪܬܝܗܝܢ	-4644
ܐܢܬܘܦܛܘܤ	-4645
ܐܬܩܪܝܬܘܢ	-4646
ܒܥܠܕܒܒܝܟ	-4647
ܕܗܝܡܢܘܬܗ	-4648
ܕܗܝܡܢܬܘܢ	-4649
ܕܝܬܝܪܐܝܬ	-4650
ܕܡܤܬܒܪܝܢ	-4651
ܕܫܪܝܪܐܝܬ	-4652
ܕܬܫܒܘܚܬܐ	-4653
ܗܝܡܢܘܬܟܝ	-4654
ܘܡܠܐܟܘܗܝ	-4655
ܟܢܘܫܬܗܘܢ	-4656
ܠܦܪܛܘܪܝܢ	-4657
ܠܬܪܥܤܪܬܗ	-4658
ܡܥܡܘܕܝܬܗ	-4659
ܡܫܬܒܗܪܝܢ	-4660
ܤܟܠܘܬܟܘܢ	-4661
ܒܡܥܡܘܕܝܬܐ	-4662
ܒܥܠܕܒܒܘܬܐ	-4663
ܕܢܫܐܠܝܘܗܝ	-4664
ܘܒܗܝܡܢܘܬܐ	-4665
ܠܤܗܕܘܬܗܘܢ	-4666
ܡܬܚܒܠܢܘܬܐ	-4667
ܕܢܐܚܕܘܢܝܗܝ	-4668
ܕܢܩܛܠܘܢܝܗܝ	-4669
ܐܥ	-4670
ܓܕ	-4671
ܙܗ	-4672
ܝܫ	-4673
ܡܕ	-4674
ܦܘ	-4675
ܨܚ	-4676
ܨܢ	-4677
ܩܤ	-4678
ܫܚ	-4679
ܬܡ	-4680
ܐܘܒ	-4681
ܐܘܢ	-4682
ܐܚܒ	-4683
ܐܡܟ	-4684
ܐܥܠ	-4685
ܐܩܒ	-4686
ܐܬܗ	-4687
ܒܕܢ	-4688
ܒܘܗ	-4689
ܒܚܝ	-4690
ܒܝܘ	-4691
ܒܡܐ	-4692
ܒܥܝ	-4693
ܒܥܪ	-4694
ܓܙܪ	-4695
ܓܬܐ	-4696
ܕܒܛ	-4697
ܕܒܥ	-4698
ܕܙܠ	-4699
ܒܘܠ	-4700
ܒܙܚ	-4701
ܕܛܝ	-4702
ܕܠܟ	-4703
ܕܢܘ	-4704
ܕܦܘ	-4705
ܕܩܦ	-4706
ܘܒܤ	-4707
ܘܒܥ	-4708
ܘܓܪ	-4709
ܘܚܤ	-4710
ܘܛܒ	-4711
ܘܝܢ	-4712
ܘܡܓ	-4713
ܘܩܪ	-4714
ܘܬܒ	-4715
ܙܘܓ	-4716
ܙܘܙ	-4717
ܙܩܘ	-4718
ܚܒܫ	-4719
ܚܘܬ	-4720
ܚܙܗ	-4721
ܚܝܟ	-4722
ܚܡܢ	-4723
ܚܡܤ	-4724
ܚܡܥ	-4725
ܚܤܪ	-4726
ܛܒܗ	-4727
ܛܛܪ	-4728
ܛܝܡ	-4729
ܛܪܦ	-4730
ܛܫܐ	-4731
ܝܒܫ	-4732
ܝܘܠ	-4733
ܝܬܝ	-4734
ܟܐܒ	-4735
ܠܘܡ	-4736
ܠܚܘ	-4737
ܠܠܐ	-4738
ܠܢܐ	-4739
ܠܢܨ	-4740
ܠܩܐ	-4741
ܠܫܩ	-4742
ܡܒܪ	-4743
ܡܟܤ	-4744
ܡܟܬ	-4745
ܡܡܠ	-4746
ܡܥܠ	-4747
ܡܥܩ	-4748
ܡܨܐ	-4749
ܢܓܢ	-4750
ܢܠܦ	-4751
ܢܦܪ	-4752
ܢܫܟ	-4753
ܢܬܢ	-4754
ܤܝܟ	-4755
ܤܡܟ	-4756
ܤܦܝ	-4757
ܤܩܘ	-4758
ܥܘܗ	-4759
ܥܘܩ	-4760
ܥܠܡ	-4761
ܦܟܗ	-4762
ܦܨܝ	-4763
ܦܫܘ	-4764
ܦܫܚ	-4765
ܨܘܕ	-4766
ܩܨܐ	-4767
ܩܪܗ	-4768
ܩܪܘ	-4769
ܩܪܢ	-4770
ܪܒܗ	-4771
ܪܒܬ	-4772
ܪܥܝ	-4773
ܬܕܥ	-4774
ܬܘܐ	-4775
ܬܚܐ	-4776
ܬܦܩ	-4777
ܬܦܪ	-4778
ܐܘܡܢ	-4779
ܐܚܘܢ	-4780
ܐܚܝܬ	-4781
ܐܝܟܢ	-4782
ܐܝܩܐ	-4783
ܐܟܠܢ	-4784
ܐܠܗܢ	-4785
ܐܠܝܨ	-4786
ܐܡܠܟ	-4787
ܐܡܪܚ	-4788
ܐܡܪܢ	-4789
ܐܢܝܚ	-4790
ܐܤܒܪ	-4791
ܐܤܗܕ	-4792
ܐܤܟܠ	-4793
ܐܥܡܕ	-4794
ܐܪܥܗ	-4795
ܐܫܪܐ	-4796
ܒܐܤܛ	-4797
ܒܕܘܟ	-4798
ܒܕܘܢ	-4799
ܙܕܘ	-4800
ܐܠܗܝ	-4801
ܒܐܒܐ	-4802
ܒܛܠܐ	-4803
ܒܝܢܬ	-4804
ܒܝܫܘ	-4805
ܒܝܬܟ	-4806
ܒܠܥܕ	-4807
ܒܥܒܕ	-4808
ܒܩܤܪ	-4809
ܒܪܟܘ	-4810
ܒܪܩܐ	-4811
ܒܪܫܐ	-4812
ܒܬܠܬ	-4813
ܓܘܪܐ	-4814
ܓܙܘܪ	-4815
ܓܠܘܢ	-4816
ܓܠܝܢ	-4817
ܓܡܘܪ	-4818
ܕܐܠܐ	-4819
ܕܐܠܝ	-4820
ܕܐܠܦ	-4821
ܕܐܡܗ	-4822
ܕܐܤܛ	-4823
ܕܒܒܠ	-4824
ܕܒܛܠ	-4825
ܕܒܬܪ	-4826
ܕܓܕܪ	-4827
ܕܓܘܐ	-4828
ܕܕܡܗ	-4829
ܕܙܪܝ	-4830
ܕܚܛܐ	-4831
ܕܚܛܘ	-4832
ܕܛܠܡ	-4833
ܕܛܡܐ	-4834
ܕܝܢܝ	-4835
ܕܝܢܟ	-4836
ܕܟܤܦ	-4837
ܕܟܦܪ	-4838
ܕܟܬܒ	-4839
ܕܡܐܐ	-4840
ܕܡܝܗ	-4841
ܕܡܠܝ	-4842
ܕܡܤܢ	-4843
ܕܡܬܪ	-4844
ܕܢܗܪ	-4845
ܕܢܡܟ	-4846
ܕܢܨܒ	-4847
ܕܢܩܦ	-4848
ܕܢܫܪ	-4849
ܕܢܬܪ	-4850
ܕܥܒܝ	-4851
ܕܦܠܓ	-4852
ܕܨܘܪ	-4853
ܕܩܛܠ	-4854
ܕܩܠܐ	-4855
ܕܪܥܐ	-4856
ܕܫܐܠ	-4857
ܕܫܩܝ	-4858
ܕܬܬܪ	-4859
ܗܠܠܘ	-4860
ܗܦܘܟ	-4861
ܗܪܛܘ	-4862
ܗܪܝܢ	-4863
ܘܐܘܪ	-4864
ܘܐܚܐ	-4865
ܘܒܕܘ	-4866
ܘܒܠܥ	-4867
ܘܒܥܝ	-4868
ܘܒܪܐ	-4869
ܘܕܐܢ	-4870
ܘܕܝܘ	-4871
ܘܗܒܘ	-4872
ܘܚܐܪ	-4873
ܘܚܒܝ	-4874
ܘܚܕܪ	-4875
ܘܚܡܐ	-4876
ܘܚܡܫ	-4877
ܘܚܢܩ	-4878
ܘܚܪܬ	-4879
ܘܛܒܐ	-4880
ܘܛܥܡ	-4881
ܘܝܒܐ	-4882
ܘܝܕܝ	-4883
ܘܟܝܗ	-4884
ܘܟܢܫ	-4885
ܘܟܤܐ	-4886
ܘܠܒܝ	-4887
ܘܠܝܤ	-4888
ܘܡܟܝ	-4889
ܘܡܢܝ	-4890
ܘܡܦܤ	-4891
ܘܡܫܡ	-4892
ܘܡܬܪ	-4893
ܘܢܚܐ	-4894
ܘܢܩܦ	-4895
ܘܢܪܐ	-4896
ܘܢܬܠ	-4897
ܘܤܝܡ	-4898
ܘܤܥܪ	-4899
ܘܥܐܠ	-4900
ܘܥܠܬ	-4901
ܘܥܡܐ	-4902
ܘܨܠܝ	-4903
ܘܩܘܡ	-4904
ܘܩܪܗ	-4905
ܘܪܕܘ	-4906
ܘܪܘܢ	-4907
ܘܪܝܫ	-4908
ܘܫܒܐ	-4909
ܘܫܒܥ	-4910
ܘܫܘܪ	-4911
ܘܫܡܗ	-4912
ܘܫܢܐ	-4913
ܘܬܚܐ	-4914
ܘܬܪܢ	-4915
ܙܕܗܪ	-4916
ܙܛܡܐ	-4917
ܙܠܝܢ	-4918
ܙܡܪܐ	-4919
ܙܪܥܟ	-4920
ܚܕܝܬ	-4921
ܚܙܬܗ	-4922
ܚܛܝܬ	-4923
ܚܟܡܐ	-4924
ܚܠܒܐ	-4925
ܚܢܢܗ	-4926
ܚܨܝܟ	-4927
ܛܝܢܐ	-4928
ܛܢܝܢ	-4929
ܛܥܝܐ	-4930
ܛܦܝܤ	-4931
ܝܒܫܐ	-4932
ܝܒܫܬ	-4933
ܝܕܥܗ	-4934
ܝܗܒܗ	-4935
ܝܘܢܢ	-4936
ܝܠܝܕ	-4937
ܝܠܦܬ	-4938
ܝܡܬܗ	-4939
ܟܝܤܐ	-4940
ܟܝܬܐ	-4941
ܟܠܒܐ	-4942
ܟܠܢܐ	-4943
ܟܤܬܐ	-4944
ܟܪܘܙ	-4945
ܠܐܠܝ	-4946
ܠܐܤܛ	-4947
ܠܒܫܗ	-4948
ܠܘܚܐ	-4949
ܠܚܢܝ	-4950
ܠܝܘܡ	-4951
ܠܡܕܢ	-4952
ܠܡܚܙ	-4953
ܠܡܝܐ	-4954
ܠܡܨܝ	-4955
ܠܡܬܢ	-4956
ܠܪܗܘ	-4957
ܠܫܒܥ	-4958
ܠܫܢܗ	-4959
ܠܬܚܘ	-4960
ܡܓܕܦ	-4961
ܡܓܥܠ	-4962
ܡܕܟܐ	-4963
ܡܚܝܢ	-4964
ܡܝܪܐ	-4965
ܡܝܬܪ	-4966
ܡܟܤܝ	-4967
ܡܠܟܗ	-4968
ܡܢܟܝ	-4969
ܡܢܤܐ	-4970
ܡܤܪܗ	-4971
ܡܥܗܕ	-4972
ܡܩܪܒ	-4973
ܡܫܡܥ	-4974
ܡܬܚܫ	-4975
ܢܘܕܐ	-4976
ܢܚܛܐ	-4977
ܢܛܝܪ	-4978
ܢܝܢܢ	-4979
ܢܝܩܪ	-4980
ܢܟܤܐ	-4981
ܢܤܒܢ	-4982
ܢܤܓܐ	-4983
ܢܦܘܩ	-4984
ܢܦܪܫ	-4985
ܢܦܬܚ	-4986
ܢܨܒܐ	-4987
ܢܩܛܠ	-4988
ܢܩܝܡ	-4989
ܢܩܪܐ	-4990
ܢܫܒܚ	-4991
ܢܫܕܪ	-4992
ܢܫܪܐ	-4993
ܤܒܘܢ	-4994
ܤܒܪܢ	-4995
ܤܓܝܘ	-4996
ܤܕܘܡ	-4997
ܤܝܓܐ	-4998
ܤܝܢܐ	-4999
ܤܢܝܢ	-5000
ܤܬܘܐ	-5001
ܥܐܕܐ	-5002
ܥܒܘܕ	-5003
ܥܘܪܐ	-5004
ܥܘܪܘ	-5005
ܥܪܒܝ	-5006
ܥܪܝܢ	-5007
ܥܪܤܐ	-5008
ܥܪܤܗ	-5009
ܦܘܡܝ	-5010
ܦܝܗܝ	-5011
ܦܝܤܐ	-5012
ܦܠܓܘ	-5013
ܦܩܕܘ	-5014
ܦܪܝܫ	-5015
ܦܪܩܢ	-5016
ܦܪܫܘ	-5017
ܦܫܝܩ	-5018
ܨܠܡܐ	-5019
ܩܕܡܬ	-5020
ܩܘܝܘ	-5021
ܩܝܡܢ	-5022
ܪܒܘܢ	-5023
ܪܒܥܬ	-5024
ܪܓܠܟ	-5025
ܪܕܦܘ	-5026
ܪܘܒܐ	-5027
ܪܘܕܤ	-5028
ܪܚܝܐ	-5029
ܪܥܡܐ	-5030
ܫܒܩܬ	-5031
ܫܕܪܗ	-5032
ܫܘܝܐ	-5033
ܫܥܒܕ	-5034
ܫܦܝܐ	-5035
ܫܬܝܩ	-5036
ܬܐܡܐ	-5037
ܬܚܘܡ	-5038
ܬܝܠܕ	-5039
ܬܡܢܐ	-5040
ܬܤܒܪ	-5041
ܬܥܤܪ	-5042
ܬܦܘܩ	-5043
ܬܪܓܡ	-5044
ܬܪܥܗ	-5045
ܐܒܗܬܐ	-5046
ܐܓܝܪܐ	-5047
ܐܙܕܒܢ	-5048
ܐܙܕܕܩ	-5049
ܐܙܕܗܪ	-5050
ܐܙܕܩܦ	-5051
ܐܙܕܪܥ	-5052
ܐܚܘܬܐ	-5053
ܐܝܕܝܢ	-5054
ܐܢܘܗܝ	-5055
ܐܢܝܚܘ	-5056
ܐܢܢܩܐ	-5057
ܐܤܦܪܝ	-5058
ܐܩܝܡܘ	-5059
ܐܪܝܡܘ	-5060
ܐܪܟܘܤ	-5061
ܐܪܡܝܬ	-5062
ܐܬܒܩܘ	-5063
ܐܬܒܪܝ	-5064
ܐܬܕܟܐ	-5065
ܐܬܚܫܒ	-5066
ܐܬܝܬܗ	-5067
ܐܬܟܪܟ	-5068
ܐܬܪܥܘ	-5069
ܒܐܢܛܝ	-5070
ܒܐܤܝܐ	-5071
ܒܗܬܘܢ	-5072
ܒܘܗܘܢ	-5073
ܒܚܛܗܐ	-5074
ܒܚܦܝܛ	-5075
ܒܛܒܬܐ	-5076
ܒܝܗܘܢ	-5077
ܒܝܟܘܢ	-5078
ܒܟܢܫܐ	-5079
ܒܢܝܟܝ	-5080
ܒܤܬܪܗ	-5081
ܒܥܕܢܐ	-5082
ܒܥܘܠܐ	-5083
ܒܦܠܓܗ	-5084
ܒܨܘܡܐ	-5085
ܒܨܝܪܐ	-5086
ܒܩܢܝܐ	-5087
ܒܪܝܘܤ	-5088
ܒܪܡܫܐ	-5089
ܒܫܒܛܐ	-5090
ܓܠܘܬܐ	-5091
ܕܐܒܝܕ	-5092
ܕܐܚܒܢ	-5093
ܕܐܚܘܟ	-5094
ܕܐܡܝܪ	-5095
ܕܐܡܠܠ	-5096
ܕܐܤܝܪ	-5097
ܕܐܦܠܘ	-5098
ܕܐܩܪܐ	-5099
ܕܐܪܙܐ	-5100
ܕܐܪܡܐ	-5101
ܕܐܬܪܐ	-5102
ܕܒܡܕܡ	-5103
ܕܒܥܓܠ	-5104
ܕܒܪܘܚ	-5105
ܕܓܢܒܐ	-5106
ܕܚܐܝܢ	-5107
ܕܚܒܠܐ	-5108
ܕܚܡܪܐ	-5109
ܕܚܡܬܗ	-5110
ܕܛܒܬܐ	-5111
ܕܛܘܪܐ	-5112
ܕܛܠܝܐ	-5113
ܕܝܗܝܒ	-5114
ܕܝܗܝܢ	-5115
ܕܝܘܛܐ	-5116
ܕܝܘܤܦ	-5117
ܕܝܘܬܐ	-5118
ܕܝܠܕܬ	-5119
ܕܝܬܒܐ	-5120
ܕܠܐܝܢ	-5121
ܕܠܫܢܐ	-5122
ܕܡܒܝܐ	-5123
ܕܡܗܠܟ	-5124
ܕܡܚܒܠ	-5125
ܕܡܠܝܢ	-5126
ܕܡܠܠܬ	-5127
ܕܡܩܪܒ	-5128
ܕܢܚܘܢ	-5129
ܕܢܟܪܙ	-5130
ܕܢܠܒܫ	-5131
ܕܢܤܗܕ	-5132
ܕܢܦܩܘ	-5133
ܕܢܦܩܬ	-5134
ܕܢܩܘܡ	-5135
ܕܢܫܡܫ	-5136
ܕܤܕܘܡ	-5137
ܕܤܠܩܘ	-5138
ܕܤܡܝܟ	-5139
ܕܤܢܝܩ	-5140
ܕܥܒܕܗ	-5141
ܕܥܒܕܢ	-5142
ܕܥܒܝܕ	-5143
ܕܥܕܡܐ	-5144
ܕܨܒܝܐ	-5145
ܕܩܪܝܒ	-5146
ܕܪܘܚܗ	-5147
ܕܪܚܡܐ	-5148
ܕܪܡܝܢ	-5149
ܕܫܘܝܢ	-5150
ܕܫܠܝܛ	-5151
ܕܫܡܫܐ	-5152
ܕܫܥܬܐ	-5153
ܕܫܬܝܢ	-5154
ܕܬܐܠܕ	-5155
ܕܬܐܡܪ	-5156
ܗܝܟܠܗ	-5157
ܗܝܡܢܢ	-5158
ܗܤܛܘܤ	-5159
ܘܐܗܘܐ	-5160
ܘܐܝܬܐ	-5161
ܘܐܠܗܗ	-5162
ܘܐܠܦܘ	-5163
ܘܐܤܗܕ	-5164
ܘܐܤܝܗ	-5165
ܘܐܤܝܪ	-5166
ܘܐܤܪܗ	-5167
ܘܐܬܝܐ	-5168
ܘܐܬܦܢ	-5169
ܘܐܬܪܥ	-5170
ܘܒܚܕܐ	-5171
ܘܒܝܬܗ	-5172
ܘܒܤܪܐ	-5173
ܘܒܥܝܐ	-5174
ܘܒܪܘܚ	-5175
ܘܒܬܪܗ	-5176
ܘܕܒܪܗ	-5177
ܘܕܙܟܐ	-5178
ܘܕܚܫܐ	-5179
ܘܕܠܝܬ	-5180
ܘܗܦܟܬ	-5181
ܘܙܢܝܐ	-5182
ܘܚܕܝܘ	-5183
ܘܚܙܬܗ	-5184
ܘܚܝܬܐ	-5185
ܘܚܡܪܐ	-5186
ܘܛܝܪܐ	-5187
ܘܝܕܥܢ	-5188
ܘܝܗܒܢ	-5189
ܘܟܠܬܐ	-5190
ܘܠܚܢܐ	-5191
ܘܠܝܗܝ	-5192
ܘܠܡܢܐ	-5193
ܘܡܐܟܠ	-5194
ܘܡܐܢܐ	-5195
ܘܡܐܤܐ	-5196
ܘܡܝܬܘ	-5197
ܘܡܟܝܠ	-5198
ܘܡܠܠܘ	-5199
ܘܡܤܟܐ	-5200
ܘܡܥܕܪ	-5201
ܘܡܦܝܤ	-5202
ܘܡܨܠܐ	-5203
ܘܡܫܒܚ	-5204
ܘܡܫܠܡ	-5205
ܘܢܘܕܐ	-5206
ܘܢܚܝܒ	-5207
ܘܢܚܬܘ	-5208
ܘܢܤܒܬ	-5209
ܘܢܥܒܕ	-5210
ܘܢܫܒܚ	-5211
ܘܢܫܩܗ	-5212
ܘܤܓܝܐ	-5213
ܘܦܓܪܐ	-5214
ܘܦܠܚܐ	-5215
ܘܦܩܕܘ	-5216
ܘܩܪܒܬ	-5217
ܘܩܪܝܒ	-5218
ܘܪܗܘܢ	-5219
ܘܪܗܛܘ	-5220
ܘܪܟܝܢ	-5221
ܘܪܟܬܐ	-5222
ܘܫܕܪܗ	-5223
ܘܫܡܝܐ	-5224
ܘܫܪܟܐ	-5225
ܘܬܡܗܘ	-5226
ܘܬܥܒܕ	-5227
ܘܬܫܥܐ	-5228
ܙܢܝܬܐ	-5229
ܙܪܘܥܐ	-5230
ܚܒܝܒܢ	-5231
ܚܓܝܪܐ	-5232
ܚܕܝܢܢ	-5233
ܚܘܘܬܐ	-5234
ܚܘܤܝܐ	-5235
ܚܙܝܢܟ	-5236
ܚܛܘܦܐ	-5237
ܚܬܗܘܢ	-5238
ܛܘܠܫܐ	-5239
ܛܘܦܢܐ	-5240
ܛܘܪܝܢ	-5241
ܛܝܠܝܢ	-5242
ܝܘܩܪܐ	-5243
ܝܨܦܝܢ	-5244
ܝܩܝܪܐ	-5245
ܝܪܝܚܘ	-5246
ܟܘܪܗܢ	-5247
ܟܝܘܬܐ	-5248
ܟܝܠܬܐ	-5249
ܟܢܫܘܢ	-5250
ܟܦܪܝܢ	-5251
ܠܒܘܫܗ	-5252
ܠܒܘܬܢ	-5253
ܠܒܤܪܐ	-5254
ܠܓܝܘܢ	-5255
ܠܕܘܝܕ	-5256
ܠܚܡܪܐ	-5257
ܠܝܪܟܐ	-5258
ܠܠܥܙܪ	-5259
ܠܡܕܒܪ	-5260
ܠܡܚܤܢ	-5261
ܠܡܠܥܤ	-5262
ܠܡܡܚܐ	-5263
ܠܡܥܪܩ	-5264
ܠܡܦܩܘ	-5265
ܠܡܦܬܚ	-5266
ܠܡܫܒܩ	-5267
ܠܢܦܫܟ	-5268
ܠܢܨܪܬ	-5269
ܠܤܒܪܐ	-5270
ܠܤܛܝܐ	-5271
ܠܥܕܬܗ	-5272
ܠܦܓܪܐ	-5273
ܠܫܪܪܐ	-5274
ܠܬܗܘܢ	-5275
ܠܬܪܥܐ	-5276
ܡܐܬܝܢ	-5277
ܡܓܕܠܐ	-5278
ܡܘܡܬܐ	-5279
ܡܘܬܘܢ	-5280
ܡܚܘܝܐ	-5281
ܡܚܘܝܢ	-5282
ܡܚܘܬܗ	-5283
ܡܛܥܝܢ	-5284
ܡܝܩܝܢ	-5285
ܡܝܬܪܐ	-5286
ܡܠܟܝܗ	-5287
ܡܠܟܬܐ	-5288
ܡܠܠܘܢ	-5289
ܡܤܬܟܠ	-5290
ܡܥܪܒܐ	-5291
ܡܥܪܬܐ	-5292
ܡܦܤܝܢ	-5293
ܡܨܠܝܢ	-5294
ܡܪܟܘܢ	-5295
ܡܫܚܠܦ	-5296
ܡܫܥܒܕ	-5297
ܡܫܬܒܚ	-5298
ܡܫܬܝܐ	-5299
ܡܫܬܟܚ	-5300
ܡܫܬܢܩ	-5301
ܡܬܕܡܪ	-5302
ܡܬܗܦܟ	-5303
ܡܬܚܫܒ	-5304
ܡܬܝܕܥ	-5305
ܡܬܟܪܟ	-5306
ܡܬܢܛܪ	-5307
ܡܬܢܤܐ	-5308
ܡܬܦܠܓ	-5309
ܡܬܬܢܚ	-5310
ܢܐܚܘܕ	-5311
ܢܗܝܪܐ	-5312
ܢܛܪܘܢ	-5313
ܢܤܒܘܗ	-5314
ܢܦܘܬܐ	-5315
ܢܦܪܘܥ	-5316
ܢܨܝܚܐ	-5317
ܢܩܘܘܢ	-5318
ܢܬܗܦܟ	-5319
ܢܬܚܠܦ	-5320
ܢܬܝܕܥ	-5321
ܤܝܒܪܢ	-5322
ܤܡܟܝܢ	-5323
ܤܥܪܝܢ	-5324
ܥܐܠܝܢ	-5325
ܥܒܪܝܐ	-5326
ܥܘܡܩܐ	-5327
ܥܠܘܒܐ	-5328
ܥܡܕܝܢ	-5329
ܥܡܘܕܐ	-5330
ܥܡܘܪܐ	-5331
ܥܪܘܩܘ	-5332
ܥܪܦܢܐ	-5333
ܦܓܪܢܐ	-5334
ܦܛܪܘܤ	-5335
ܦܟܘܗܝ	-5336
ܦܠܚܘܢ	-5337
ܦܪܕܬܐ	-5338
ܦܪܘܩܐ	-5339
ܦܫܝܛܐ	-5340
ܦܬܝܚܐ	-5341
ܩܕܡܝܗ	-5342
ܩܘܒܠܐ	-5343
ܩܛܘܠܐ	-5344
ܩܢܝܢܐ	-5345
ܩܪܢܬܐ	-5346
ܪܒܝܬܗ	-5347
ܪܘܚܝܢ	-5348
ܫܒܩܬܗ	-5349
ܫܒܫܬܐ	-5350
ܫܕܪܢܝ	-5351
ܫܘܪܝܗ	-5352
ܫܡܘܢܐ	-5353
ܫܡܫܢܐ	-5354
ܫܢܝܩܐ	-5355
ܬܐܘܡܐ	-5356
ܬܒܥܬܐ	-5357
ܬܓܢܘܒ	-5358
ܬܘܠܡܝ	-5359
ܬܘܠܬܐ	-5360
ܬܚܕܘܢ	-5361
ܬܢܒܘܢ	-5362
ܬܤܓܘܕ	-5363
ܬܩܘܘܢ	-5364
ܬܪܥܘܢ	-5365
ܬܫܒܘܚ	-5366
ܬܫܥܝܢ	-5367
ܬܫܬܘܢ	-5368
ܬܬܠܘܢ	-5369
ܬܬܡܠܚ	-5370
ܐܓܪܗܘܢ	-5371
ܐܚܝܬܟܝ	-5372
ܐܦܩܘܗܝ	-5373
ܐܪܓܘܢܐ	-5374
ܐܫܬܕܪܬ	-5375
ܐܫܬܘܕܥ	-5376
ܐܫܬܪܪܬ	-5377
ܐܬܓܠܝܬ	-5378
ܐܬܕܡܪܘ	-5379
ܒܐܓܪܬܐ	-5380
ܒܐܝܕܝܐ	-5381
ܒܐܝܕܝܢ	-5382
ܒܐܬܘܬܐ	-5383
ܒܓܠܝܢܗ	-5384
ܒܗܪܟܘܢ	-5385
ܒܚܨܘܗܝ	-5386
ܒܛܘܫܝܐ	-5387
ܒܝܬܗܘܢ	-5388
ܒܡܢܝܢܐ	-5389
ܒܨܠܘܬܝ	-5390
ܒܩܪܝܢܐ	-5391
ܒܩܪܝܬܐ	-5392
ܒܪܒܪܝܐ	-5393
ܒܪܥܝܢܗ	-5394
ܒܫܫܠܬܐ	-5395
ܒܬܘܠܬܗ	-5396
ܓܡܝܪܝܢ	-5397
ܕܐܗܪܘܢ	-5398
ܕܐܚܪܢܐ	-5399
ܕܐܟܕܢܐ	-5400
ܕܐܪܒܥܐ	-5401
ܕܐܫܠܡܬ	-5402
ܕܐܫܥܝܐ	-5403
ܕܐܫܬܠܡ	-5404
ܕܐܬܡܠܠ	-5405
ܕܒܙܒܢܐ	-5406
ܕܓܕܪܝܐ	-5407
ܕܕܚܠܬܐ	-5408
ܕܘܢܝܗܝ	-5409
ܕܚܙܝܪܐ	-5410
ܕܚܝܠܬܢ	-5411
ܕܚܟܝܡܐ	-5412
ܕܛܠܝܬܐ	-5413
ܕܝܒܝܫܐ	-5414
ܕܝܕܥܬܗ	-5415
ܕܠܘܩܒܠ	-5416
ܕܡܝܬܪܐ	-5417
ܕܡܬܐܡܪ	-5418
ܕܡܬܪܥܐ	-5419
ܕܢܗܝܡܢ	-5420
ܕܢܙܕܩܦ	-5421
ܕܢܛܪܝܢ	-5422
ܕܢܝܟܘܢ	-5423
ܕܢܟܦܘܪ	-5424
ܕܢܤܝܒܪ	-5425
ܕܢܩܘܘܢ	-5426
ܕܢܩܛܘܠ	-5427
ܕܢܫܒܘܩ	-5428
ܕܢܬܝܗܒ	-5429
ܕܤܒܪܝܢ	-5430
ܕܤܓܕܝܢ	-5431
ܕܥܘܬܪܐ	-5432
ܕܥܠܘܗܝ	-5433
ܕܥܡܗܘܢ	-5434
ܕܨܒܝܢܗ	-5435
ܕܩܪܝܒܢ	-5436
ܕܩܫܝܫܐ	-5437
ܕܫܪܒܬܐ	-5438
ܕܫܪܝܪܐ	-5439
ܕܬܚܒܘܢ	-5440
ܕܬܝܡܢܐ	-5441
ܕܬܠܬܝܢ	-5442
ܕܬܬܡܠܐ	-5443
ܗܠܠܘܝܐ	-5444
ܗܪܘܕܝܐ	-5445
ܘܐܘܪܚܐ	-5446
ܘܐܙܕܕܩ	-5447
ܘܐܟܠܝܢ	-5448
ܘܐܟܠܬܗ	-5449
ܘܐܟܪܙܘ	-5450
ܘܐܪܝܡܘ	-5451
ܘܐܫܬܥܝ	-5452
ܘܒܗܠܝܢ	-5453
ܘܒܥܠܕܒ	-5454
ܘܒܫܪܪܐ	-5455
ܘܒܬܪܟܢ	-5456
ܘܓܘܕܦܐ	-5457
ܘܕܨܝܕܢ	-5458
ܘܕܬܪܝܢ	-5459
ܘܚܙܝܗܝ	-5460
ܘܟܘܟܒܐ	-5461
ܘܟܠܗܝܢ	-5462
ܘܠܐܝܟܐ	-5463
ܘܠܐܝܢܐ	-5464
ܘܠܐܠܗܐ	-5465
ܘܠܐܡܪܐ	-5466
ܘܠܝܫܘܥ	-5467
ܘܠܡܫܪܐ	-5468
ܘܡܬܟܪܟ	-5469
ܘܡܬܩܪܐ	-5470
ܘܢܐܚܘܕ	-5471
ܘܢܘܗܪܐ	-5472
ܘܢܡܘܤܐ	-5473
ܘܢܫܩܘܠ	-5474
ܘܢܬܝܗܒ	-5475
ܘܥܠܘܗܝ	-5476
ܘܩܝܡܝܢ	-5477
ܘܩܪܝܒܐ	-5478
ܘܪܚܡܝܢ	-5479
ܘܫܐܠܝܢ	-5480
ܙܒܘܪܝܢ	-5481
ܚܒܘܫܝܐ	-5482
ܚܕܘܢܢܝ	-5483
ܚܕܪܘܗܝ	-5484
ܚܘܝܟܘܢ	-5485
ܚܘܤܪܢܐ	-5486
ܚܙܝܬܘܢ	-5487
ܚܟܝܡܝܢ	-5488
ܛܒܥܘܗܝ	-5489
ܛܛܪܪܟܐ	-5490
ܛܠܝܘܬܝ	-5491
ܛܠܢܝܬܐ	-5492
ܝܗܒܝܢܢ	-5493
ܝܘܠܦܢܗ	-5494
ܝܪܬܘܬܗ	-5495
ܝܬܘܢܢܝ	-5496
ܝܬܝܪܝܢ	-5497
ܝܬܝܪܬܐ	-5498
ܟܕܒܘܬܐ	-5499
ܟܘܟܒܝܢ	-5500
ܟܢܫܗܘܢ	-5501
ܟܪܝܘܬܐ	-5502
ܠܐܝܤܚܩ	-5503
ܠܐܝܩܪܐ	-5504
ܠܐܤܘܪܐ	-5505
ܠܒܝܫܝܢ	-5506
ܠܒܝܫܬܐ	-5507
ܠܒܢܝܢܐ	-5508
ܠܝܗܘܕܐ	-5509
ܠܡܐܤܝܘ	-5510
ܠܡܚܘܝܘ	-5511
ܠܤܒܪܬܗ	-5512
ܠܩܕܡܝܐ	-5513
ܠܫܘܒܚܐ	-5514
ܠܫܪܒܬܐ	-5515
ܡܚܒܠܝܢ	-5516
ܡܛܝܒܝܢ	-5517
ܡܟܝܟܬܐ	-5518
ܡܠܟܘܬܟ	-5519
ܡܤܟܢܬܐ	-5520
ܡܤܪܗܒܐ	-5521
ܡܨܝܕܬܐ	-5522
ܡܩܪܒܝܢ	-5523
ܡܪܚܡܢܐ	-5524
ܡܫܪܝܬܐ	-5525
ܡܫܪܪܝܢ	-5526
ܡܬܬܙܝܥ	-5527
ܢܐܙܠܘܢ	-5528
ܢܗܦܟܘܢ	-5529
ܢܛܥܡܘܢ	-5530
ܢܤܓܕܘܢ	-5531
ܢܥܪܩܘܢ	-5532
ܢܩܝܦܝܢ	-5533
ܢܫܩܠܘܢ	-5534
ܢܬܬܪܝܡ	-5535
ܤܘܥܪܢܐ	-5536
ܤܛܘܢܪܐ	-5537
ܤܢܝܐܝܢ	-5538
ܤܢܝܩܝܢ	-5539
ܥܗܕܟܘܢ	-5540
ܦܘܩܕܢܝ	-5541
ܦܘܪܥܢܐ	-5542
ܦܘܪܫܢܐ	-5543
ܦܤܘܩܝܗ	-5544
ܦܪܨܘܦܟ	-5545
ܩܒܠܬܘܢ	-5546
ܩܘܦܪܘܤ	-5547
ܪܫܝܗܘܢ	-5548
ܫܒܝܩܝܢ	-5549
ܫܒܩܬܢܝ	-5550
ܫܕܪܬܘܢ	-5551
ܫܛܝܦܬܐ	-5552
ܫܠܝܛܝܢ	-5553
ܫܠܝܛܢܐ	-5554
ܫܠܡܟܘܢ	-5555
ܬܐܙܠܘܢ	-5556
ܬܘܩܠܬܐ	-5557
ܬܚܘܝܬܐ	-5558
ܬܡܝܗܝܢ	-5559
ܬܤܒܪܘܢ	-5560
ܬܩܘܡܘܢ	-5561
ܬܫܐܠܘܢ	-5562
ܐܘܪܩܥܬܐ	-5563
ܐܚܙܝܟܘܢ	-5564
ܐܠܟܤܢܕܪ	-5565
ܐܫܟܚܘܗܝ	-5566
ܐܫܬܘܕܥܘ	-5567
ܐܫܬܥܒܕܘ	-5568
ܒܐܬܪܘܬܐ	-5569
ܒܓܙܘܪܬܐ	-5570
ܒܚܤܝܪܘܬ	-5571
ܒܡܘܠܟܢܐ	-5572
ܒܤܓܝܐܬܐ	-5573
ܒܪܚܡܘܗܝ	-5574
ܒܬܘܕܝܬܐ	-5575
ܓܡܝܪܐܝܬ	-5576
ܕܐܟܤܢܝܐ	-5577
ܕܐܤܝܘܬܐ	-5578
ܕܐܪܝܘܬܐ	-5579
ܕܐܫܬܘܕܝ	-5580
ܕܒܟܠܗܝܢ	-5581
ܕܒܢܝܡܝܢ	-5582
ܕܕܡܫܝܚܐ	-5583
ܕܙܢܝܘܬܗ	-5584
ܕܚܪܬܗܘܢ	-5585
ܕܝܕܥܝܢܢ	-5586
ܕܝܘܠܦܢܐ	-5587
ܕܝܚܝܕܝܐ	-5588
ܕܝܠܦܬܘܢ	-5589
ܕܝܢܬܗܘܢ	-5590
ܕܠܐܝܠܝܢ	-5591
ܕܡܗܠܟܝܢ	-5592
ܕܡܤܢܘܗܝ	-5593
ܕܡܬܩܪܝܢ	-5594
ܕܢܐܟܠܘܢ	-5595
ܕܢܗܦܟܘܢ	-5596
ܕܢܥܒܕܘܢ	-5597
ܕܢܫܡܥܘܢ	-5598
ܕܢܬܚܙܘܢ	-5599
ܕܤܗܕܘܬܐ	-5600
ܕܫܐܠܝܢܢ	-5601
ܕܫܒܝܩܝܢ	-5602
ܕܬܐܡܪܘܢ	-5603
ܕܬܗܠܟܘܢ	-5604
ܕܬܝܒܘܬܐ	-5605
ܕܬܫܟܚܘܢ	-5606
ܗܕܡܝܟܘܢ	-5607
ܗܝܡܢܘܬܝ	-5608
ܘܐܘܚܕܢܐ	-5609
ܘܐܬܚܙܝܘ	-5610
ܘܐܬܡܠܝܘ	-5611
ܘܒܐܟܐܝܐ	-5612
ܘܒܨܠܘܬܐ	-5613
ܘܒܩܘܪܝܐ	-5614
ܘܒܪܬܝܬܐ	-5615
ܘܚܝܠܘܬܐ	-5616
ܘܠܐܚܘܗܝ	-5617
ܘܠܤܓܝܐܐ	-5618
ܘܡܙܒܢܝܢ	-5619
ܘܡܤܒܪܝܢ	-5620
ܘܡܩܒܠܝܢ	-5621
ܘܢܐܙܠܘܢ	-5622
ܘܢܫܡܥܘܢ	-5623
ܘܢܬܦܢܘܢ	-5624
ܘܫܕܪܘܗܝ	-5625
ܘܬܪܝܗܘܢ	-5626
ܘܬܫܡܫܬܐ	-5627
ܙܩܘܦܝܗܝ	-5628
ܚܦܝܛܘܬܐ	-5629
ܟܘܪܤܘܬܐ	-5630
ܟܘܬܝܢܝܢ	-5631
ܠܡܕܝܢܬܗ	-5632
ܠܡܨܝܕܬܐ	-5633
ܠܡܫܬܘܬܐ	-5634
ܠܥܢܝܗܘܢ	-5635
ܠܪܓܝܓܬܐ	-5636
ܠܫܘܒܩܢܐ	-5637
ܠܬܚܘܝܬܐ	-5638
ܡܗܝܡܢܬܐ	-5639
ܡܟܝܟܘܬܐ	-5640
ܡܟܪܙܝܢܢ	-5641
ܡܫܬܥܒܕܐ	-5642
ܤܝܒܪܬܘܢ	-5643
ܥܒܕܢܘܬܐ	-5644
ܥܝܢܝܟܘܢ	-5645
ܥܬܝܪܐܝܬ	-5646
ܨܠܘܒܝܗܝ	-5647
ܫܠܗܒܝܬܐ	-5648
ܫܩܘܠܝܗܝ	-5649
ܬܐܓܘܪܬܐ	-5650
ܬܬܕܡܪܘܢ	-5651
ܐܤܦܪܝܕܝܢ	-5652
ܐܩܝܡܝܘܗܝ	-5653
ܒܒܥܠܙܒܘܒ	-5654
ܒܘܪܟܝܗܘܢ	-5655
ܒܚܦܝܛܘܬܐ	-5656
ܒܟܦܪܢܚܘܡ	-5657
ܒܠܒܘܬܟܘܢ	-5658
ܒܡܕܥܝܗܘܢ	-5659
ܒܥܝܢܝܗܘܢ	-5660
ܒܩܕܝܫܘܬܐ	-5661
ܒܩܘܪܢܬܘܤ	-5662
ܕܐܝܤܪܐܝܠ	-5663
ܕܐܝܬܝܟܘܢ	-5664
ܕܙܓܘܓܝܬܐ	-5665
ܕܙܚܘܪܝܬܐ	-5666
ܕܚܕܪܝܗܘܢ	-5667
ܕܠܒܢܝܢܫܐ	-5668
ܕܡܬܟܢܫܝܢ	-5669
ܕܬܗܝܡܢܘܢ	-5670
ܘܐܝܬܝܗܘܢ	-5671
ܘܐܠܒܫܘܗܝ	-5672
ܘܒܝܘܠܦܢܐ	-5673
ܙܩܦܘܢܝܗܝ	-5674
ܛܝܒܘܬܟܘܢ	-5675
ܠܐܢܛܝܟܝܐ	-5676
ܠܒܥܠܝܗܝܢ	-5677
ܠܘܩܒܠܗܘܢ	-5678
ܠܚܒܪܝܗܘܢ	-5679
ܠܡܦܕܝܗܝܢ	-5680
ܠܬܫܒܘܚܬܗ	-5681
ܫܒܥܬܝܗܘܢ	-5682
ܬܚܙܘܢܝܗܝ	-5683
ܕܢܩܝܡܝܘܗܝ	-5684
ܘܡܥܡܘܕܝܬܐ	-5685
ܗܝܡܢܬܘܢܝܗܝ	-5686
ܘܡܤܝܒܪܢܘܬܐ	-5687
ܡܬܛܦܝܤܢܘܬܐ	-5688
ܐܠ	-5689
ܓܗ	-5690
ܛܢ	-5691
ܨܬ	-5692
ܐܚܘ	-5693
ܐܤܪ	-5694
ܒܘܙ	-5695
ܒܚܒ	-5696
ܒܚܙ	-5697
ܒܚܟ	-5698
ܒܛܪ	-5699
ܒܡܙ	-5700
ܒܢܬ	-5701
ܒܤܦ	-5702
ܒܪܒ	-5703
ܓܝܐ	-5704
ܓܪܓ	-5705
ܓܫܐ	-5706
ܕܐܒ	-5707
ܕܕܢ	-5708
ܕܘܕ	-5709
ܕܝܤ	-5710
ܕܡܓ	-5711
ܕܢܡ	-5712
ܕܢܪ	-5713
ܘܒܟ	-5714
ܘܒܦ	-5715
ܘܚܫ	-5716
ܘܛܥ	-5717
ܘܛܫ	-5718
ܘܠܒ	-5719
ܘܠܢ	-5720
ܘܥܗ	-5721
ܘܩܕ	-5722
ܙܗܝ	-5723
ܚܒܠ	-5724
ܚܒܢ	-5725
ܚܦܛ	-5726
ܚܪܡ	-5727
ܛܫܝ	-5728
ܝܗܘ	-5729
ܝܝܢ	-5730
ܝܢܤ	-5731
ܝܨܝ	-5732
ܝܪܗ	-5733
ܟܐܝ	-5734
ܟܝܡ	-5735
ܟܤܗ	-5736
ܟܬܗ	-5737
ܠܕܐ	-5738
ܠܚܙ	-5739
ܠܡܚ	-5740
ܠܡܟ	-5741
ܠܢܝ	-5742
ܠܬܗ	-5743
ܠܬܟ	-5744
ܡܕܥ	-5745
ܡܡܬ	-5746
ܡܦܪ	-5747
ܡܪܘ	-5748
ܡܫܚ	-5749
ܢܝܗ	-5750
ܢܝܬ	-5751
ܢܢܗ	-5752
ܢܤܐ	-5753
ܢܤܝ	-5754
ܢܥܠ	-5755
ܢܨܒ	-5756
ܤܝܤ	-5757
ܤܦܪ	-5758
ܥܙܙ	-5759
ܥܙܪ	-5760
ܥܠܢ	-5761
ܥܡܠ	-5762
ܥܢܝ	-5763
ܥܦܪ	-5764
ܥܩܐ	-5765
ܦܓܐ	-5766
ܦܘܫ	-5767
ܦܝܡ	-5768
ܦܟܐ	-5769
ܦܠܝ	-5770
ܦܤܘ	-5771
ܨܠܐ	-5772
ܨܦܪ	-5773
ܨܬܐ	-5774
ܩܘܠ	-5775
ܪܕܝ	-5776
ܬܘܪ	-5777
ܬܝܐ	-5778
ܬܝܘ	-5779
ܬܩܫ	-5780
ܐܒܪܗ	-5781
ܐܚܕܘ	-5782
ܐܚܘܗ	-5783
ܐܚܙܐ	-5784
ܐܟܚܕ	-5785
ܐܠܨܐ	-5786
ܐܡܘܬ	-5787
ܐܡܪܗ	-5788
ܐܥܦܐ	-5789
ܐܦܩܗ	-5790
ܐܪܝܐ	-5791
ܐܪܝܡ	-5792
ܐܬܕܡ	-5793
ܐܬܢܐ	-5794
ܒܚܫܐ	-5795
ܒܠܒܟ	-5796
ܒܠܘܕ	-5797
ܒܠܫܢ	-5798
ܒܡܐܐ	-5799
ܗܬ	-5800
ܙܘ	-5801
ܥܛ	-5802
ܪܤ	-5803
ܪܦ	-5804
ܕܩܘ	-5805
ܕܩܝ	-5806
ܕܬܫ	-5807
ܘܒܢ	-5808
ܘܚܛ	-5809
ܘܬܘ	-5810
ܚܙܬ	-5811
ܚܦܝ	-5812
ܛܘܪ	-5813
ܠܟܢ	-5814
ܤܒܥ	-5815
ܨܡܐ	-5816
ܩܫܐ	-5817
ܪܝܟ	-5818
ܬܝܕ	-5819
ܬܪܩ	-5820
ܐܕܫܐ	-5821
ܐܦܢܐ	-5822
ܒܗܠܘ	-5823
ܒܗܪܝ	-5824
ܒܢܬܐ	-5825
ܒܥܘܗ	-5826
ܒܩܘܢ	-5827
ܒܪܫܗ	-5828
ܒܪܬܐ	-5829
ܓܠܠܐ	-5830
ܓܡܝܪ	-5831
ܓܢܤܐ	-5832
ܓܪܒܗ	-5833
ܓܪܘܢ	-5834
ܕܐܘܪ	-5835
ܕܐܚܕ	-5836
ܕܒܕܪ	-5837
ܕܒܗܘ	-5838
ܕܒܗܝ	-5839
ܕܒܚܝ	-5840
ܕܒܚܪ	-5841
ܕܓܒܐ	-5842
ܕܕܒܪ	-5843
ܕܚܠܝ	-5844
ܕܝܤܐ	-5845
ܕܟܘܢ	-5846
ܕܟܠܢ	-5847
ܕܠܚܘ	-5848
ܕܡܥܠ	-5849
ܕܡܨܐ	-5850
ܕܢܐܩ	-5851
ܕܢܤܡ	-5852
ܕܢܤܬ	-5853
ܕܥܛܝ	-5854
ܕܥܠܘ	-5855
ܕܥܡܛ	-5856
ܕܥܡܢ	-5857
ܕܥܢܐ	-5858
ܕܦܢܛ	-5859
ܕܦܪܚ	-5860
ܕܩܢܐ	-5861
ܕܪܗܛ	-5862
ܕܪܚܝ	-5863
ܕܬܐܒ	-5864
ܕܬܕܥ	-5865
ܕܬܬܚ	-5866
ܗܘܬܢ	-5867
ܘܐܘܬ	-5868
ܘܐܠܝ	-5869
ܘܐܨܛ	-5870
ܘܐܩܦ	-5871
ܘܐܫܕ	-5872
ܘܒܚܕ	-5873
ܘܒܛܠ	-5874
ܘܒܩܛ	-5875
ܘܕܝܬ	-5876
ܘܕܪܐ	-5877
ܘܙܩܐ	-5878
ܘܚܙܬ	-5879
ܘܚܛܐ	-5880
ܘܚܦܪ	-5881
ܘܚܨܕ	-5882
ܘܛܒܥ	-5883
ܘܝܠܦ	-5884
ܘܟܪܐ	-5885
ܘܟܪܝ	-5886
ܘܟܬܒ	-5887
ܘܟܬܝ	-5888
ܘܠܗܘ	-5889
ܘܠܡܪ	-5890
ܘܠܥܠ	-5891
ܘܠܦܪ	-5892
ܘܡܒܪ	-5893
ܘܡܝܐ	-5894
ܘܡܠܘ	-5895
ܘܡܪܐ	-5896
ܘܢܠܦ	-5897
ܘܢܬܐ	-5898
ܘܢܬܬ	-5899
ܙܩ	-5900
ܢܡ	-5901
ܐܤܦ	-5902
ܐܤܩ	-5903
ܓܘܗ	-5904
ܘܒܨ	-5905
ܘܙܒ	-5906
ܡܝܟ	-5907
ܥܪܢ	-5908
ܥܬܪ	-5909
ܩܦܚ	-5910
ܫܝܛ	-5911
ܐܘܒܕ	-5912
ܐܬܒܤ	-5913
ܒܝܐܢ	-5914
ܒܡܘܟ	-5915
ܓܪܡܐ	-5916
ܕܢܚܝ	-5917
ܕܨܐܡ	-5918
ܘܐܒܕ	-5919
ܘܒܚܘ	-5920
ܘܕܢܬ	-5921
ܘܢܩܐ	-5922
ܘܤܢܐ	-5923
ܘܤܦܘ	-5924
ܘܤܦܢ	-5925
ܘܥܝܢ	-5926
ܘܥܡܗ	-5927
ܘܥܢܘ	-5928
ܘܦܝܗ	-5929
ܘܩܕܝ	-5930
ܘܩܘܝ	-5931
ܘܩܤܐ	-5932
ܘܪܓܙ	-5933
ܘܪܘܚ	-5934
ܘܪܡܙ	-5935
ܘܪܦܐ	-5936
ܘܫܕܐ	-5937
ܘܫܘܢ	-5938
ܘܫܚܢ	-5939
ܘܫܪܘ	-5940
ܘܬܬܚ	-5941
ܙܒܢܝ	-5942
ܚܕܝܗ	-5943
ܚܕܝܘ	-5944
ܚܕܪܝ	-5945
ܚܘܬܗ	-5946
ܚܛܘܦ	-5947
ܚܝܒܐ	-5948
ܚܝܠܘ	-5949
ܚܝܠܟ	-5950
ܚܠܝܐ	-5951
ܚܡܤܢ	-5952
ܚܢܘܟ	-5953
ܚܩܘܢ	-5954
ܛܘܒܐ	-5955
ܛܘܟܝ	-5956
ܛܠܘܤ	-5957
ܛܠܝܝ	-5958
ܛܪܦܐ	-5959
ܝܕܥܢ	-5960
ܝܗܒܐ	-5961
ܝܠܕܗ	-5962
ܝܠܦܘ	-5963
ܝܠܦܢ	-5964
ܝܢܝܐ	-5965
ܝܩܕܐ	-5966
ܝܩܪܬ	-5967
ܝܫܦܗ	-5968
ܝܬܒܬ	-5969
ܝܬܡܐ	-5970
ܟܟܪܐ	-5971
ܟܢܦܐ	-5972
ܟܪܘܢ	-5973
ܟܪܤܗ	-5974
ܟܪܤܛ	-5975
ܟܬܒܢ	-5976
ܠܐܘܨ	-5977
ܠܐܝܢ	-5978
ܠܙܕܝ	-5979
ܠܚܕܐ	-5980
ܠܝܗܝ	-5981
ܠܝܘܢ	-5982
ܠܟܬܒ	-5983
ܠܡܝܤ	-5984
ܠܡܫܐ	-5985
ܠܡܬܒ	-5986
ܠܢܫܐ	-5987
ܠܩܕܝ	-5988
ܠܫܡܐ	-5989
ܡܘܠܟ	-5990
ܡܘܬܗ	-5991
ܡܘܬܪ	-5992
ܡܛܝܘ	-5993
ܡܠܟܬ	-5994
ܡܠܦܐ	-5995
ܡܢܝܟ	-5996
ܡܤܢܐ	-5997
ܡܥܝܢ	-5998
ܡܩܛܪ	-5999
ܐܙܝ	-6000
ܓܒܗ	-6001
ܓܡܗ	-6002
ܗܟܢ	-6003
ܛܘܛ	-6004
ܝܘܤ	-6005
ܠܓܐ	-6006
ܠܓܙ	-6007
ܠܩܪ	-6008
ܪܗܒ	-6009
ܐܒܕܢ	-6010
ܐܚܕܢ	-6011
ܐܤܪܐ	-6012
ܐܥܝܪ	-6013
ܐܪܡܐ	-6014
ܐܪܡܝ	-6015
ܒܗܬܬ	-6016
ܒܨܝܢ	-6017
ܓܡܪܐ	-6018
ܕܒܪܝ	-6019
ܕܡܪܐ	-6020
ܘܐܬܝ	-6021
ܘܒܪܓ	-6022
ܘܕܝܗ	-6023
ܘܡܩܦ	-6024
ܘܥܠܢ	-6025
ܙܒܢܬ	-6026
ܚܛܝܢ	-6027
ܟܢܫܬ	-6028
ܠܡܒܥ	-6029
ܠܫܡܗ	-6030
ܡܗܘܢ	-6031
ܡܗܝܢ	-6032
ܡܛܝܐ	-6033
ܡܟܟܘ	-6034
ܡܫܓܢ	-6035
ܡܫܘܚ	-6036
ܡܫܚܬ	-6037
ܡܫܬܚ	-6038
ܡܬܘܢ	-6039
ܡܬܟܫ	-6040
ܢܒܘܙ	-6041
ܢܒܝܢ	-6042
ܢܒܠܥ	-6043
ܢܒܤܐ	-6044
ܢܓܕܦ	-6045
ܢܕܒܪ	-6046
ܢܕܘܢ	-6047
ܢܕܚܠ	-6048
ܢܕܟܐ	-6049
ܢܕܡܟ	-6050
ܢܕܪܟ	-6051
ܢܘܕܥ	-6052
ܢܚܬܬ	-6053
ܢܛܥܐ	-6054
ܢܟܦܢ	-6055
ܢܠܥܤ	-6056
ܢܢܛܪ	-6057
ܢܤܗܕ	-6058
ܢܤܘܢ	-6059
ܢܤܦܩ	-6060
ܢܥܡܪ	-6061
ܢܦܢܐ	-6062
ܢܦܪܥ	-6063
ܢܨܗܐ	-6064
ܢܩܥܐ	-6065
ܢܫܒܬ	-6066
ܢܬܒܪ	-6067
ܤܗܕܬ	-6068
ܤܝܡܘ	-6069
ܤܠܩܬ	-6070
ܤܥܪܐ	-6071
ܤܥܪܗ	-6072
ܤܪܗܒ	-6073
ܥܒܕܟ	-6074
ܥܕܠܝ	-6075
ܥܗܕܘ	-6076
ܥܘܠܢ	-6077
ܥܠܟܝ	-6078
ܥܦܪܐ	-6079
ܥܪܩܬ	-6080
ܥܫܝܢ	-6081
ܦܓܘܤ	-6082
ܦܘܡܟ	-6083
ܦܟܝܗ	-6084
ܦܠܘܚ	-6085
ܦܢܝܢ	-6086
ܦܨܝܘ	-6087
ܦܩܕܢ	-6088
ܦܩܕܬ	-6089
ܦܪܩܘ	-6090
ܦܫܘܛ	-6091
ܦܫܩܐ	-6092
ܦܬܠܝ	-6093
ܨܒܘܢ	-6094
ܩܒܠܢ	-6095
ܩܕܡܗ	-6096
ܩܘܡܝ	-6097
ܩܛܪܓ	-6098
ܩܝܢܢ	-6099
ܟܪܐ	-6100
ܡܨܥ	-6101
ܢܩܦ	-6102
ܤܒܠ	-6103
ܩܢܘ	-6104
ܪܝܘ	-6105
ܬܟܤ	-6106
ܐܒܘܟ	-6107
ܐܙܠܓ	-6108
ܐܟܠܘ	-6109
ܒܫܪܒ	-6110
ܓܦܬܐ	-6111
ܕܐܕܥ	-6112
ܕܐܪܥ	-6113
ܕܠܒܫ	-6114
ܕܨܒܥ	-6115
ܘܒܝܐ	-6116
ܘܕܡܪ	-6117
ܘܚܙܩ	-6118
ܘܢܫܒ	-6119
ܚܫܘܟ	-6120
ܛܪܝܢ	-6121
ܠܡܩܒ	-6122
ܡܝܢܗ	-6123
ܤܘܟܠ	-6124
ܤܡܠܟ	-6125
ܩܛܓܪ	-6126
ܩܤܛܐ	-6127
ܩܪܒܢ	-6128
ܪܓܙܘ	-6129
ܪܗܛܐ	-6130
ܪܘܝܢ	-6131
ܪܛܠܝ	-6132
ܪܛܢܘ	-6133
ܪܝܚܘ	-6134
ܪܥܘܢ	-6135
ܪܫܝܐ	-6136
ܫܒܗܪ	-6137
ܫܒܚܘ	-6138
ܫܕܝܢ	-6139
ܫܕܪܢ	-6140
ܫܘܪܐ	-6141
ܫܘܪܥ	-6142
ܫܘܬܦ	-6143
ܫܝܛܐ	-6144
ܫܠܝܬ	-6145
ܫܢܝܐ	-6146
ܫܩܠܗ	-6147
ܫܪܒܢ	-6148
ܫܪܝܗ	-6149
ܫܪܪܘ	-6150
ܫܬܐܠ	-6151
ܫܬܐܤ	-6152
ܫܬܩܘ	-6153
ܬܐܙܠ	-6154
ܬܐܢܐ	-6155
ܬܘܝܐ	-6156
ܬܝܪܐ	-6157
ܬܠܓܐ	-6158
ܬܠܝܐ	-6159
ܬܡܗܐ	-6160
ܬܢܘܤ	-6161
ܬܦܟܗ	-6162
ܬܩܒܠ	-6163
ܬܩܪܐ	-6164
ܬܫܠܡ	-6165
ܐܕܡܝܗ	-6166
ܐܗܦܘܟ	-6167
ܐܘܕܥܘ	-6168
ܐܚܝܢܝ	-6169
ܐܚܝܬܟ	-6170
ܐܝܬܝܟ	-6171
ܐܟܘܬܗ	-6172
ܐܟܘܬܢ	-6173
ܐܟܠܘܤ	-6174
ܐܟܪܝܬ	-6175
ܐܠܝܨܐ	-6176
ܐܤܬܒܪ	-6177
ܐܦܦܪܐ	-6178
ܐܨܛܪܝ	-6179
ܐܩܠܘܤ	-6180
ܐܪܡܝܗ	-6181
ܐܫܟܚܗ	-6182
ܐܫܬܘܦ	-6183
ܐܬܚܝܠ	-6184
ܐܬܟܤܝ	-6185
ܐܬܢܒܐ	-6186
ܐܬܦܫܛ	-6187
ܐܬܬܓܪ	-6188
ܒܐܘܠܨ	-6189
ܒܐܘܡܢ	-6190
ܒܐܦܝܢ	-6191
ܒܐܪܒܥ	-6192
ܒܐܫܬܐ	-6193
ܒܒܤܪܝ	-6194
ܒܓܒܪܐ	-6195
ܒܓܠܝܐ	-6196
ܒܕܒܚܐ	-6197
ܒܕܚܠܬ	-6198
ܒܕܡܥܐ	-6199
ܘܐܐ	-6200
ܚܛܦ	-6201
ܢܩܛ	-6202
ܒܡܤܒ	-6203
ܒܤܓܝ	-6204
ܒܪܝܫ	-6205
ܓܙܪܗ	-6206
ܓܠܝܬ	-6207
ܕܕܠܚ	-6208
ܕܛܝܒ	-6209
ܕܛܥܐ	-6210
ܕܪܒܝ	-6211
ܘܐܚܬ	-6212
ܘܕܐܝ	-6213
ܘܚܛܦ	-6214
ܘܛܪܐ	-6215
ܘܠܓܐ	-6216
ܘܡܤܒ	-6217
ܘܡܤܟ	-6218
ܘܡܬܢ	-6219
ܚܬܡܐ	-6220
ܡܢܬܗ	-6221
ܢܫܐܠ	-6222
ܢܫܘܛ	-6223
ܥܢܢܝ	-6224
ܦܠܥܐ	-6225
ܩܝܛܐ	-6226
ܩܡܨܐ	-6227
ܬܐܠܨ	-6228
ܬܪܐܐ	-6229
ܐܡܘܬܐ	-6230
ܐܫܝܓܬ	-6231
ܐܫܬܥܝ	-6232
ܐܬܛܥܡ	-6233
ܒܕܪܘܢ	-6234
ܒܗܬܝܢ	-6235
ܒܘܝܐܢ	-6236
ܒܘܠܘܢ	-6237
ܒܘܩܝܐ	-6238
ܒܙܚܘܢ	-6239
ܒܚܒܠܐ	-6240
ܒܚܪܒܐ	-6241
ܒܛܝܠܐ	-6242
ܒܝܐܘܢ	-6243
ܒܝܒܫܐ	-6244
ܒܝܘܦܐ	-6245
ܒܠܝܬܐ	-6246
ܒܡܕܥܝ	-6247
ܒܢܟܠܐ	-6248
ܒܤܒܪܐ	-6249
ܒܤܡܝܢ	-6250
ܒܤܢܝܐ	-6251
ܒܤܦܪܐ	-6252
ܒܥܕܬܗ	-6253
ܒܥܝܕܐ	-6254
ܒܥܡܠܐ	-6255
ܒܦܓܪܝ	-6256
ܒܨܘܪܗ	-6257
ܒܨܥܪܐ	-6258
ܒܪܓܬܐ	-6259
ܒܪܘܗܝ	-6260
ܒܪܚܡܐ	-6261
ܒܫܠܡܟ	-6262
ܒܫܢܬܐ	-6263
ܒܫܦܪܐ	-6264
ܓܝܘܪܐ	-6265
ܓܡܘܗܝ	-6266
ܓܡܪܘܢ	-6267
ܓܪܓܝܢ	-6268
ܓܪܝܨܢ	-6269
ܕܐܘܠܨ	-6270
ܕܐܚܒܬ	-6271
ܕܐܚܙܐ	-6272
ܕܐܚܫܡ	-6273
ܕܐܡܪܘ	-6274
ܕܐܥܡܕ	-6275
ܕܐܫܕܪ	-6276
ܕܐܬܟܪ	-6277
ܕܒܠܒܗ	-6278
ܕܒܠܥܡ	-6279
ܕܒܤܝܡ	-6280
ܕܒܨܝܪ	-6281
ܕܒܫܡܗ	-6282
ܕܓܠܝܢ	-6283
ܕܓܠܬܐ	-6284
ܕܓܢܤܪ	-6285
ܕܓܦܬܐ	-6286
ܕܕܟܝܢ	-6287
ܕܕܡܟܘ	-6288
ܕܗܒܝܠ	-6289
ܕܗܘܝܬ	-6290
ܕܘܡܝܐ	-6291
ܕܙܪܥܗ	-6292
ܕܚܘܒܗ	-6293
ܕܚܛܝܐ	-6294
ܕܚܝܝܢ	-6295
ܕܚܠܬܗ	-6296
ܕܚܡܫܐ	-6297
ܕܚܢܦܐ	-6298
ܕܛܛܘܤ	-6299
ܕܕ	-6300
ܐܝܘ	-6301
ܘܨܗ	-6302
ܚܫܟ	-6303
ܥܒܐ	-6304
ܦܨܘ	-6305
ܕܐܩܦ	-6306
ܘܡܓܪ	-6307
ܘܬܩܢ	-6308
ܚܒܪܝ	-6309
ܚܫܚܘ	-6310
ܝܘܡܗ	-6311
ܠܕܡܗ	-6312
ܠܤܘܚ	-6313
ܠܪܫܐ	-6314
ܢܐܪܬ	-6315
ܦܬܚܢ	-6316
ܩܕܫܘ	-6317
ܩܘܝܐ	-6318
ܩܛܠܐ	-6319
ܪܚܡܗ	-6320
ܬܥܘܠ	-6321
ܐܟܘܠܘ	-6322
ܐܟܦܘܪ	-6323
ܐܤܥܘܪ	-6324
ܒܟܤܦܐ	-6325
ܒܢܝܢܗ	-6326
ܒܢܦܫܟ	-6327
ܒܢܦܫܢ	-6328
ܓܘܠܬܐ	-6329
ܓܢܝܬܐ	-6330
ܕܐܚܝܢ	-6331
ܕܐܟܘܠ	-6332
ܕܒܝܡܐ	-6333
ܕܛܢܢܐ	-6334
ܕܛܥܝܢ	-6335
ܕܝܩܕܐ	-6336
ܕܟܤܦܐ	-6337
ܕܟܪܡܐ	-6338
ܕܠܗܕܐ	-6339
ܕܠܡܢܐ	-6340
ܕܡܘܕܐ	-6341
ܕܡܙܕܩ	-6342
ܕܡܚܛܐ	-6343
ܕܡܚܝܠ	-6344
ܕܡܚܝܢ	-6345
ܕܡܛܫܝ	-6346
ܕܡܝܩܪ	-6347
ܕܡܢܗܪ	-6348
ܕܡܤܗܕ	-6349
ܕܡܤܟܠ	-6350
ܕܡܦܩܕ	-6351
ܕܡܨܠܐ	-6352
ܕܡܫܩܐ	-6353
ܕܡܬܟܬ	-6354
ܕܢܐܒܕ	-6355
ܕܢܓܠܐ	-6356
ܕܢܟܫܠ	-6357
ܕܢܠܥܤ	-6358
ܕܢܡܠܐ	-6359
ܕܢܤܒܘ	-6360
ܕܢܤܒܬ	-6361
ܕܢܦܫܬ	-6362
ܕܢܪܕܐ	-6363
ܕܢܪܝܡ	-6364
ܕܢܪܡܐ	-6365
ܕܢܬܩܢ	-6366
ܕܤܒܪܐ	-6367
ܕܤܠܩܐ	-6368
ܕܤܢܝܢ	-6369
ܕܤܦܪܐ	-6370
ܕܤܪܝܩ	-6371
ܕܥܝܢܐ	-6372
ܕܥܠܝܐ	-6373
ܕܥܤܪܐ	-6374
ܕܦܚܪܐ	-6375
ܕܦܛܡܐ	-6376
ܕܦܩܕܬ	-6377
ܕܦܩܝܕ	-6378
ܕܩܝܠܝ	-6379
ܕܩܝܡܐ	-6380
ܕܩܝܡܢ	-6381
ܕܩܪܒܬ	-6382
ܕܪܥܝܐ	-6383
ܕܪܥܡܐ	-6384
ܕܫܕܪܗ	-6385
ܕܫܝܘܠ	-6386
ܕܫܡܥܐ	-6387
ܕܫܢܝܗ	-6388
ܕܫܪܟܐ	-6389
ܕܬܘܠܥ	-6390
ܕܬܟܝܠ	-6391
ܕܬܥܒܕ	-6392
ܕܬܩܝܡ	-6393
ܗܘܝܗܝ	-6394
ܗܘܝܬܝ	-6395
ܗܪܘܡܐ	-6396
ܘܐܒܘܟ	-6397
ܘܐܒܠܐ	-6398
ܘܐܒܢܐ	-6399
ܒܘܤ	-6400
ܘܟܢ	-6401
ܛܪܗ	-6402
ܪܐܓ	-6403
ܕܢܚܒ	-6404
ܕܨܒܘ	-6405
ܘܒܢܟ	-6406
ܘܛܡܐ	-6407
ܘܫܒܚ	-6408
ܚܨܝܗ	-6409
ܠܪܝܫ	-6410
ܢܕܢܚ	-6411
ܢܗܝܪ	-6412
ܢܟܤܝ	-6413
ܢܩܘܢ	-6414
ܤܐܬܐ	-6415
ܤܥܝܪ	-6416
ܥܛܠܐ	-6417
ܐܓܘܢܐ	-6418
ܐܬܝܬܪ	-6419
ܐܬܟܬܒ	-6420
ܒܕܘܟܐ	-6421
ܓܙܪܘܢ	-6422
ܕܒܝܬܝ	-6423
ܕܢܚܬܬ	-6424
ܕܢܫܬܐ	-6425
ܕܬܫܡܥ	-6426
ܘܐܕܢܐ	-6427
ܘܐܚܝܕ	-6428
ܘܐܚܝܟ	-6429
ܘܐܝܕܐ	-6430
ܘܐܠܗܝ	-6431
ܘܐܠܝܐ	-6432
ܘܐܠܝܢ	-6433
ܘܐܦܩܬ	-6434
ܘܐܫܦܥ	-6435
ܘܐܫܬܓ	-6436
ܘܒܗܢܐ	-6437
ܘܒܝܡܐ	-6438
ܘܒܟܝܢ	-6439
ܘܒܡܕܡ	-6440
ܘܒܡܠܐ	-6441
ܘܒܡܪܢ	-6442
ܘܒܩܠܐ	-6443
ܘܒܪܟܘ	-6444
ܘܒܬܫܥ	-6445
ܘܓܕܦܘ	-6446
ܘܓܠܝܬ	-6447
ܘܓܪܒܐ	-6448
ܘܕܚܠܬ	-6449
ܘܕܝܘܐ	-6450
ܘܗܪܟܐ	-6451
ܘܙܒܢܗ	-6452
ܘܙܘܥܐ	-6453
ܘܚܤܡܐ	-6454
ܘܛܝܒܘ	-6455
ܘܛܠܝܐ	-6456
ܘܛܢܢܐ	-6457
ܘܝܠܕܬ	-6458
ܘܝܪܚܐ	-6459
ܘܝܬܘܢ	-6460
ܘܟܠܝܢ	-6461
ܘܟܠܢܫ	-6462
ܘܟܪܟܗ	-6463
ܘܟܬܒܐ	-6464
ܘܠܒܝܬ	-6465
ܘܠܒܫܘ	-6466
ܘܠܗܕܐ	-6467
ܘܠܘܬܗ	-6468
ܘܠܝܡܐ	-6469
ܘܡܗܘܢ	-6470
ܘܡܙܝܥ	-6471
ܘܡܝܬܬ	-6472
ܘܡܟܘܢ	-6473
ܘܡܠܝܐ	-6474
ܘܡܠܝܢ	-6475
ܘܡܥܡܕ	-6476
ܘܡܦܠܓ	-6477
ܘܡܨܒܬ	-6478
ܘܡܩܒܠ	-6479
ܘܡܩܘܐ	-6480
ܘܡܩܝܡ	-6481
ܘܡܪܥܬ	-6482
ܘܡܪܬܐ	-6483
ܘܡܫܚܐ	-6484
ܘܢܓܕܗ	-6485
ܘܢܘܢܐ	-6486
ܘܢܙܒܢ	-6487
ܘܢܚܬܬ	-6488
ܘܢܤܒܗ	-6489
ܘܢܤܝܡ	-6490
ܘܢܥܘܠ	-6491
ܘܢܦܩܢ	-6492
ܘܢܦܫܗ	-6493
ܘܢܫܕܪ	-6494
ܘܤܒܪܐ	-6495
ܘܤܒܪܘ	-6496
ܘܤܗܕܐ	-6497
ܘܤܝܒܪ	-6498
ܘܤܠܩܢ	-6499
ܘܤܦܘܢ	-6500
ܘܥܕܢܐ	-6501
ܘܥܘܗܝ	-6502
ܘܥܘܠܐ	-6503
ܘܥܝܢܐ	-6504
ܘܦܐܪܐ	-6505
ܘܦܘܡܐ	-6506
ܘܦܥܠܐ	-6507
ܘܦܩܕܬ	-6508
ܘܦܪܘܤ	-6509
ܘܨܠܝܘ	-6510
ܘܩܛܠܐ	-6511
ܘܩܛܠܘ	-6512
ܘܩܠܝܠ	-6513
ܘܩܪܝܢ	-6514
ܘܪܒܒܠ	-6515
ܘܪܓܠܝ	-6516
ܘܪܓܬܐ	-6517
ܘܪܚܫܐ	-6518
ܘܪܛܢܐ	-6519
ܘܫܐܘܠ	-6520
ܘܫܐܠܘ	-6521
ܘܫܒܘܩ	-6522
ܘܫܒܥܐ	-6523
ܘܫܒܩܘ	-6524
ܘܫܒܬܐ	-6525
ܘܫܕܝܗ	-6526
ܘܫܝܘܠ	-6527
ܘܫܝܢܐ	-6528
ܘܫܠܝܛ	-6529
ܘܫܡܥܐ	-6530
ܘܫܦܝܪ	-6531
ܘܫܦܪܬ	-6532
ܘܫܪܝܬ	-6533
ܘܫܪܪܐ	-6534
ܘܬܗܪܘ	-6535
ܘܬܩܢܬ	-6536
ܚܕܥܤܪ	-6537
ܚܙܝܬܐ	-6538
ܚܙܝܬܗ	-6539
ܚܛܝܬܗ	-6540
ܚܝܝܢܢ	-6541
ܚܡܝܡܐ	-6542
ܚܡܤܢܢ	-6543
ܚܤܕܝܢ	-6544
ܚܤܝܢܐ	-6545
ܚܪܫܬܐ	-6546
ܚܫܘܗܝ	-6547
ܚܫܚܬܐ	-6548
ܛܒܝܬܐ	-6549
ܛܘܒܢܐ	-6550
ܛܘܗܡܐ	-6551
ܝܕܥܬܗ	-6552
ܝܕܥܬܝ	-6553
ܝܗܒܝܢ	-6554
ܝܠܕܬܟ	-6555
ܝܡܝܢܟ	-6556
ܝܩܝܪܢ	-6557
ܝܪܚܝܢ	-6558
ܝܪܬܝܢ	-6559
ܝܬܪܝܢ	-6560
ܟܘܠܬܗ	-6561
ܟܢܘܬܗ	-6562
ܟܤܝܬܐ	-6563
ܟܤܝܬܗ	-6564
ܟܪܘܙܐ	-6565
ܟܬܝܒܐ	-6566
ܟܬܝܒܢ	-6567
ܠܐܒܘܗ	-6568
ܠܐܓܪܐ	-6569
ܠܐܚܘܢ	-6570
ܠܐܠܝܐ	-6571
ܠܒܪܝܐ	-6572
ܠܓܡܠܐ	-6573
ܠܕܝܠܗ	-6574
ܠܕܝܢܗ	-6575
ܠܕܝܬܒ	-6576
ܠܘܕܝܐ	-6577
ܠܛܛܘܤ	-6578
ܠܝܠܘܢ	-6579
ܠܝܬܘܢ	-6580
ܠܝܬܝܗ	-6581
ܠܟܠܒܐ	-6582
ܠܟܢܦܐ	-6583
ܠܟܪܡܗ	-6584
ܠܟܪܤܐ	-6585
ܠܡܐܢܐ	-6586
ܠܡܐܤܝ	-6587
ܠܡܕܟܝ	-6588
ܠܡܘܒܕ	-6589
ܠܡܙܥܩ	-6590
ܠܡܛܒܥ	-6591
ܠܡܤܥܪ	-6592
ܠܡܥܡܕ	-6593
ܠܡܦܪܥ	-6594
ܠܡܨܒܐ	-6595
ܠܡܩܡܘ	-6596
ܠܡܪܓܙ	-6597
ܠܡܪܥܐ	-6598
ܠܡܫܐܠ	-6599
ܠܢܘܪܐ	-6600
ܠܤܡܝܐ	-6601
ܠܥܘܕܪ	-6602
ܠܥܘܠܐ	-6603
ܠܨܝܢܢ	-6604
ܠܨܠܡܗ	-6605
ܠܩܒܪܐ	-6606
ܠܪܥܝܐ	-6607
ܠܫܐܕܐ	-6608
ܠܫܒܥܐ	-6609
ܠܫܪܟܐ	-6610
ܠܬܥܠܐ	-6611
ܡܒܪܟܐ	-6612
ܡܓܘܫܐ	-6613
ܡܓܠܬܐ	-6614
ܡܚܒܠܐ	-6615
ܡܚܝܗܝ	-6616
ܡܚܪܪܐ	-6617
ܡܛܠܝܢ	-6618
ܡܝܬܝܐ	-6619
ܡܟܝܟܐ	-6620
ܡܠܐܟܝ	-6621
ܡܠܦܝܢ	-6622
ܡܨܠܝܐ	-6623
ܡܨܥܬܐ	-6624
ܡܩܘܝܐ	-6625
ܡܩܘܝܢ	-6626
ܡܪܒܥܐ	-6627
ܡܪܩܘܤ	-6628
ܡܫܒܚܐ	-6629
ܡܫܘܝܢ	-6630
ܡܫܝܚܗ	-6631
ܡܫܟܚܢ	-6632
ܡܫܬܕܐ	-6633
ܡܬܓܕܦ	-6634
ܡܬܕܟܪ	-6635
ܡܬܚܦܛ	-6636
ܡܬܝܠܕ	-6637
ܡܬܟܘܢ	-6638
ܡܬܟܪܙ	-6639
ܡܬܟܬܫ	-6640
ܡܬܦܤܩ	-6641
ܡܬܩܪܐ	-6642
ܡܬܩܪܒ	-6643
ܡܬܪܕܦ	-6644
ܡܬܪܟܒ	-6645
ܡܬܪܤܐ	-6646
ܢܐܤܘܪ	-6647
ܢܓܘܕܐ	-6648
ܢܗܦܘܟ	-6649
ܢܚܕܘܢ	-6650
ܢܚܨܘܕ	-6651
ܢܚܬܝܢ	-6652
ܢܝܚܘܢ	-6653
ܢܤܝܒܪ	-6654
ܢܤܬܟܠ	-6655
ܢܥܒܪܢ	-6656
ܢܦܠܘܚ	-6657
ܢܦܠܘܢ	-6658
ܢܦܩܬܐ	-6659
ܢܦܪܥܟ	-6660
ܢܪܡܘܢ	-6661
ܢܫܗܘܢ	-6662
ܢܫܠܡܟ	-6663
ܢܫܬܘܢ	-6664
ܢܫܬܡܥ	-6665
ܢܫܬܪܐ	-6666
ܢܬܕܡܐ	-6667
ܢܬܟܫܠ	-6668
ܢܬܡܟܟ	-6669
ܢܬܦܠܓ	-6670
ܢܬܦܢܐ	-6671
ܢܬܩܕܫ	-6672
ܢܬܩܪܒ	-6673
ܢܬܪܝܡ	-6674
ܤܕܘܢܐ	-6675
ܤܝܟܘܢ	-6676
ܤܟܠܬܐ	-6677
ܤܡܘܗܝ	-6678
ܤܦܝܢܐ	-6679
ܤܪܕܘܢ	-6680
ܤܪܘܢܗ	-6681
ܥܒܘܕܗ	-6682
ܥܗܕܘܢ	-6683
ܥܘܦܝܐ	-6684
ܥܝܢܝܢ	-6685
ܥܠܝܬܐ	-6686
ܥܠܥܠܐ	-6687
ܥܡܛܢܐ	-6688
ܥܢܘܬܐ	-6689
ܥܦܪܢܐ	-6690
ܥܩܪܬܐ	-6691
ܥܪܛܠܝ	-6692
ܦܘܠܓܐ	-6693
ܦܘܩܕܐ	-6694
ܦܘܪܘܤ	-6695
ܦܝܗܘܢ	-6696
ܦܪܘܩܘ	-6697
ܦܪܫܘܢ	-6698
ܨܗܝܘܢ	-6699
ܨܝܟܘܢ	-6700
ܨܠܘܬܟ	-6701
ܨܠܝܒܐ	-6702
ܩܒܠܬܗ	-6703
ܩܕܡܝܬ	-6704
ܩܘܡܬܗ	-6705
ܩܘܤܛܐ	-6706
ܩܛܠܘܢ	-6707
ܩܝܘܗܝ	-6708
ܩܢܘܡܝ	-6709
ܩܪܝܪܐ	-6710
ܩܪܢܬܗ	-6711
ܪܒܟܘܢ	-6712
ܪܓܠܝܢ	-6713
ܪܕܦܘܢ	-6714
ܪܛܡܝܤ	-6715
ܪܥܡܝܢ	-6716
ܪܬܘܬܐ	-6717
ܫܒܝܠܐ	-6718
ܫܕܪܬܗ	-6719
ܫܗܪܝܢ	-6720
ܫܘܒܩܢ	-6721
ܫܘܠܛܢ	-6722
ܫܘܠܡܗ	-6723
ܫܘܥܒܕ	-6724
ܫܘܩܪܐ	-6725
ܫܝܐܝܬ	-6726
ܫܡܝܢܐ	-6727
ܫܦܪܝܢ	-6728
ܫܩܘܠܘ	-6729
ܫܩܠܝܢ	-6730
ܫܬܐܤܐ	-6731
ܬܒܥܝܢ	-6732
ܬܕܚܠܢ	-6733
ܬܘܠܬܗ	-6734
ܬܘܬܪܐ	-6735
ܬܚܛܘܢ	-6736
ܬܩܫܘܢ	-6737
ܬܫܒܚܢ	-6738
ܬܫܬܒܩ	-6739
ܬܫܬܟܚ	-6740
ܬܬܚܝܒ	-6741
ܬܬܝܗܒ	-6742
ܬܬܝܬܪ	-6743
ܬܬܩܪܐ	-6744
ܐܘܝܘܬܐ	-6745
ܐܘܠܨܢܗ	-6746
ܐܘܩܝܢܤ	-6747
ܐܙܠܝܢܢ	-6748
ܐܝܙܓܕܐ	-6749
ܐܝܩܢܘܢ	-6750
ܐܤܛܘܟܤ	-6751
ܐܤܝܪܝܢ	-6752
ܐܤܦܘܓܐ	-6753
ܐܪܒܥܬܝ	-6754
ܐܪܡܝܬܗ	-6755
ܐܪܥܘܗܝ	-6756
ܐܫܬܟܚܬ	-6757
ܐܫܬܪܝܘ	-6758
ܐܬܝܠܕܘ	-6759
ܐܬܟܪܟܘ	-6760
ܐܬܟܪܟܢ	-6761
ܐܬܟܬܒܘ	-6762
ܐܬܡܟܟܘ	-6763
ܐܬܦܬܚܘ	-6764
ܐܬܩܛܠܘ	-6765
ܐܬܩܪܝܬ	-6766
ܐܬܬܤܝܡ	-6767
ܐܬܬܪܝܡ	-6768
ܒܐܓܘܢܐ	-6769
ܒܐܘܪܝܐ	-6770
ܒܐܝܩܪܐ	-6771
ܒܐܫܥܝܐ	-6772
ܒܐܬܘܢܐ	-6773
ܒܒܪܢܫܐ	-6774
ܒܓܙܪܬܐ	-6775
ܒܘܪܤܝܐ	-6776
ܒܙܩܝܦܗ	-6777
ܒܚܙܝܪܐ	-6778
ܒܚܡܝܪܐ	-6779
ܒܚܪܘܪܐ	-6780
ܒܝܬܘܬܐ	-6781
ܒܡܕܒܚܐ	-6782
ܒܡܨܪܝܢ	-6783
ܒܢܡܘܤܗ	-6784
ܒܤܒܪܬܐ	-6785
ܒܤܒܪܬܗ	-6786
ܒܥܝܢܝܢ	-6787
ܒܦܝܢܟܐ	-6788
ܒܨܒܘܬܐ	-6789
ܒܨܒܝܢܐ	-6790
ܒܩܤܪܝܐ	-6791
ܒܪܥܝܢܝ	-6792
ܒܫܘܘܕܥ	-6793
ܒܫܘܠܡܗ	-6794
ܒܬܐܪܬܐ	-6795
ܕܐܒܕܝܢ	-6796
ܕܐܒܕܢܐ	-6797
ܕܐܝܠܢܐ	-6798
ܕܐܝܤܚܩ	-6799
ܕܐܝܬܝܟ	-6800
ܕܐܝܬܝܢ	-6801
ܕܐܤܠܝܘ	-6802
ܕܐܦܤܝܐ	-6803
ܕܐܫܬܩܠ	-6804
ܕܐܬܓܠܝ	-6805
ܕܐܬܚܙܝ	-6806
ܕܐܬܟܪܙ	-6807
ܕܐܬܦܪܫ	-6808
ܕܐܬܩܛܠ	-6809
ܕܒܐܓܪܐ	-6810
ܕܒܐܤܝܐ	-6811
ܕܒܒܝܬܗ	-6812
ܕܒܗܠܝܢ	-6813
ܕܒܘܝܐܐ	-6814
ܕܒܚܝܠܐ	-6815
ܕܒܚܩܠܐ	-6816
ܕܒܟܤܝܐ	-6817
ܕܒܢܘܗܝ	-6818
ܕܒܥܝܢܟ	-6819
ܕܒܩܠܝܠ	-6820
ܕܓܢܘܢܐ	-6821
ܕܕܡܘܬܐ	-6822
ܕܕܡܟܝܢ	-6823
ܕܙܘܝܬܐ	-6824
ܕܙܟܪܝܐ	-6825
ܕܙܢܝܬܐ	-6826
ܕܙܩܝܦܐ	-6827
ܕܚܕܘܬܐ	-6828
ܕܚܝܝܢܢ	-6829
ܕܚܝܠܝܢ	-6830
ܕܚܪܝܢܐ	-6831
ܕܝܗܒܝܢ	-6832
ܕܟܝܐܝܬ	-6833
ܕܟܠܝܘܡ	-6834
ܕܠܐܠܗܐ	-6835
ܕܠܐܪܥܐ	-6836
ܕܠܒܘܫܗ	-6837
ܕܠܒܢܝܐ	-6838
ܕܠܗܠܝܢ	-6839
ܕܠܝܫܘܥ	-6840
ܕܠܢܦܫܗ	-6841
ܕܠܤܛܝܐ	-6842
ܕܡܘܒܠܐ	-6843
ܕܡܝܢܩܢ	-6844
ܕܡܡܬܘܡ	-6845
ܕܡܢܟܘܢ	-6846
ܕܡܨܠܝܢ	-6847
ܕܡܪܘܬܐ	-6848
ܕܡܬܚܙܐ	-6849
ܕܡܬܢܒܐ	-6850
ܕܡܬܦܠܓ	-6851
ܕܢܐܟܘܠ	-6852
ܕܢܐܤܘܪ	-6853
ܕܢܐܬܝܢ	-6854
ܕܢܒܥܘܢ	-6855
ܕܢܚܘܘܢ	-6856
ܕܢܛܪܘܢ	-6857
ܕܢܝܬܘܢ	-6858
ܕܢܤܩܘܢ	-6859
ܕܢܩܪܘܒ	-6860
ܕܢܫܬܪܐ	-6861
ܕܢܬܢܛܪ	-6862
ܕܤܝܡܝܢ	-6863
ܕܥܒܝܕܐ	-6864
ܕܥܡܛܢܐ	-6865
ܕܦܬܘܪܗ	-6866
ܕܩܪܝܒܐ	-6867
ܕܩܪܝܗܝ	-6868
ܕܪܘܓܙܗ	-6869
ܕܪܝܘܗܝ	-6870
ܕܪܥܘܗܝ	-6871
ܕܫܘܩܪܐ	-6872
ܕܫܠܚܢܝ	-6873
ܕܬܗܘܡܐ	-6874
ܕܬܡܢܝܐ	-6875
ܕܬܪܥܤܪ	-6876
ܕܬܬܝܕܥ	-6877
ܕܬܬܟܪܙ	-6878
ܘܐܘܚܕܗ	-6879
ܘܐܢܕܝܢ	-6880
ܘܐܢܬܬܗ	-6881
ܘܐܤܬܡܟ	-6882
ܘܐܪܡܝܗ	-6883
ܘܐܫܟܚܬ	-6884
ܘܐܫܠܡܗ	-6885
ܘܐܫܬܥܐ	-6886
ܘܐܬܐܡܪ	-6887
ܘܐܬܓܠܝ	-6888
ܘܐܬܕܟܝ	-6889
ܘܐܬܘܬܐ	-6890
ܘܐܬܚܝܠ	-6891
ܘܐܬܝܕܥ	-6892
ܘܐܬܩܪܒ	-6893
ܘܐܬܪܥܝ	-6894
ܘܒܒܝܬܐ	-6895
ܘܒܘܪܟܢ	-6896
ܘܒܙܒܢܐ	-6897
ܘܒܝܘܡܐ	-6898
ܘܒܠܠܝܐ	-6899
ܘܒܠܫܢܐ	-6900
ܘܒܡܠܬܐ	-6901
ܘܒܢܒܝܐ	-6902
ܘܒܥܒܕܐ	-6903
ܘܒܨܦܪܐ	-6904
ܘܒܫܥܬܐ	-6905
ܘܓܚܟܝܢ	-6906
ܘܓܝܪܬܐ	-6907
ܘܕܐܪܒܥ	-6908
ܘܕܐܪܥܐ	-6909
ܘܕܚܠܬܐ	-6910
ܘܕܝܘܤܐ	-6911
ܘܕܡܘܬܐ	-6912
ܘܕܡܝܬܐ	-6913
ܘܕܥܬܝܕ	-6914
ܘܕܪܘܚܐ	-6915
ܘܕܬܠܬܐ	-6916
ܘܙܒܢܝܢ	-6917
ܘܚܒܝܒܐ	-6918
ܘܚܓܝܪܐ	-6919
ܘܚܟܝܡܐ	-6920
ܘܚܫܘܟܐ	-6921
ܘܝܕܥܬܐ	-6922
ܘܟܠܝܘܡ	-6923
ܘܟܠܝܠܐ	-6924
ܘܠܐܠܝܐ	-6925
ܘܠܐܤܛܪ	-6926
ܘܠܕܝܢܐ	-6927
ܘܠܕܝܬܒ	-6928
ܘܠܙܪܥܗ	-6929
ܘܠܝܬܝܗ	-6930
ܘܠܡܚܤܢ	-6931
ܘܠܡܫܡܥ	-6932
ܘܠܡܫܬܐ	-6933
ܘܠܤܦܪܐ	-6934
ܘܠܨܠܡܗ	-6935
ܘܡܐܬܝܢ	-6936
ܘܡܘܕܝܢ	-6937
ܘܡܚܝܗܝ	-6938
ܘܡܛܠܬܗ	-6939
ܘܡܠܦܢܐ	-6940
ܘܡܪܘܬܐ	-6941
ܘܡܪܩܘܤ	-6942
ܘܡܫܝܚܐ	-6943
ܘܡܫܡܫܐ	-6944
ܘܡܫܬܡܥ	-6945
ܘܡܬܕܟܪ	-6946
ܘܡܬܕܡܪ	-6947
ܘܢܗܝܡܢ	-6948
ܘܢܚܙܘܢ	-6949
ܘܢܪܡܘܢ	-6950
ܘܢܬܝܬܪ	-6951
ܘܢܬܠܘܢ	-6952
ܘܤܒܪܝܢ	-6953
ܘܥܒܕܝܢ	-6954
ܘܥܡܕܝܢ	-6955
ܘܥܤܪܝܢ	-6956
ܘܥܬܝܪܐ	-6957
ܘܨܠܘܬܐ	-6958
ܘܪܘܓܙܐ	-6959
ܘܬܘܠܬܐ	-6960
ܘܬܢܝܢܐ	-6961
ܘܬܪܥܤܪ	-6962
ܘܬܫܬܘܢ	-6963
ܙܕܗܪܘܢ	-6964
ܙܕܝܩܝܢ	-6965
ܙܗܝܪܝܢ	-6966
ܙܪܥܘܢܐ	-6967
ܚܘܐܘܢܝ	-6968
ܚܛܗܘܗܝ	-6969
ܚܛܘܦܝܐ	-6970
ܚܝܠܗܘܢ	-6971
ܚܠܝܡܬܐ	-6972
ܚܠܦܘܗܝ	-6973
ܚܫܝܒܝܢ	-6974
ܛܡܐܘܬܐ	-6975
ܝܕܝܥܬܐ	-6976
ܝܘܠܦܢܝ	-6977
ܝܘܢܐܝܬ	-6978
ܝܘܪܕܢܢ	-6979
ܝܚܝܕܝܐ	-6980
ܟܘܠܬܢܐ	-6981
ܟܘܬܝܢܗ	-6982
ܟܬܝܒܝܢ	-6983
ܠܐܟܘܗܝ	-6984
ܠܐܪܒܥܐ	-6985
ܠܒܪܢܒܐ	-6986
ܠܓܠܝܢܗ	-6987
ܠܕܘܟܬܗ	-6988
ܠܕܡܘܬܐ	-6989
ܠܗܪܘܕܤ	-6990
ܠܘܩܒܠܝ	-6991
ܠܙܕܝܩܘ	-6992
ܠܙܢܝܬܐ	-6993
ܠܙܥܘܪܐ	-6994
ܠܚܕܥܤܪ	-6995
ܠܛܠܝܬܐ	-6996
ܠܛܪܘܐܤ	-6997
ܠܝܕܥܬܐ	-6998
ܠܝܠܘܕܐ	-6999
ܠܝܬܘܗܝ	-7000
ܠܟܠܗܝܢ	-7001
ܠܡܕܒܪܐ	-7002
ܠܡܗܠܟܘ	-7003
ܠܡܘܒܕܘ	-7004
ܠܡܘܕܝܘ	-7005
ܠܡܟܪܙܘ	-7006
ܠܡܩܒܠܘ	-7007
ܠܡܫܟܢܐ	-7008
ܠܡܫܠܡܘ	-7009
ܠܡܫܪܝܐ	-7010
ܠܢܝܚܬܝ	-7011
ܠܢܦܫܬܐ	-7012
ܠܤܘܓܐܐ	-7013
ܠܤܘܪܝܐ	-7014
ܠܩܝܡܬܐ	-7015
ܠܩܫܝܫܐ	-7016
ܠܫܘܒܚܗ	-7017
ܠܫܩܝܦܐ	-7018
ܡܒܙܚܝܢ	-7019
ܡܕܝܢܬܗ	-7020
ܡܘܗܒܬܗ	-7021
ܡܚܐܘܗܝ	-7022
ܡܝܬܬܘܢ	-7023
ܡܠܝܐܝܬ	-7024
ܡܠܝܘܬܗ	-7025
ܡܠܝܟܘܢ	-7026
ܡܠܟܘܬܝ	-7027
ܡܠܬܗܘܢ	-7028
ܡܡܝܩܝܢ	-7029
ܡܤܟܠܝܢ	-7030
ܡܥܕܪܢܐ	-7031
ܡܩܘܝܢܢ	-7032
ܡܪܝܗܘܢ	-7033
ܡܪܥܝܬܐ	-7034
ܡܫܘܚܬܐ	-7035
ܡܫܘܚܬܢ	-7036
ܡܫܝܓܝܢ	-7037
ܡܫܠܡܝܢ	-7038
ܡܫܡܫܢܗ	-7039
ܡܫܬܚܠܦ	-7040
ܡܫܬܥܝܢ	-7041
ܡܫܬܪܝܢ	-7042
ܡܬܒܥܝܐ	-7043
ܡܬܕܒܪܐ	-7044
ܡܬܕܟܝܢ	-7045
ܡܬܕܡܝܢ	-7046
ܡܬܝܗܒܐ	-7047
ܡܬܡܠܠܐ	-7048
ܡܬܡܠܠܢ	-7049
ܡܬܩܪܝܐ	-7050
ܡܬܬܟܝܠ	-7051
ܢܐܚܕܘܢ	-7052
ܢܒܗܬܘܢ	-7053
ܢܗܪܘܬܐ	-7054
ܢܘܬܟܘܢ	-7055
ܢܠܦܟܘܢ	-7056
ܢܦܫܢܝܐ	-7057
ܢܨܘܡܘܢ	-7058
ܢܩܪܒܘܢ	-7059
ܢܫܠܡܢܝ	-7060
ܢܫܡܫܘܢ	-7061
ܢܬܬܤܝܡ	-7062
ܤܗܕܝܢܢ	-7063
ܤܝܒܪܘܢ	-7064
ܤܟܠܘܬܗ	-7065
ܥܘܠܗܘܢ	-7066
ܥܘܬܗܘܢ	-7067
ܥܡܕܬܘܢ	-7068
ܥܡܝܢܕܒ	-7069
ܥܫܝܢܬܐ	-7070
ܦܠܚܝܢܢ	-7071
ܦܪܝܩܝܢ	-7072
ܦܪܨܘܦܝ	-7073
ܦܪܬܘܬܐ	-7074
ܨܘܚܝܬܐ	-7075
ܨܚܢܘܬܐ	-7076
ܩܕܝܫܝܢ	-7077
ܩܘܪܒܢܟ	-7078
ܩܝܡܝܢܢ	-7079
ܩܪܩܦܬܗ	-7080
ܪܒܝܥܝܐ	-7081
ܪܗܒܘܢܐ	-7082
ܪܘܚܢܝܐ	-7083
ܪܚܝܩܝܢ	-7084
ܪܝܫܝܬܐ	-7085
ܫܒܝܩܬܐ	-7086
ܫܒܩܘܗܝ	-7087
ܫܘܒܗܪܢ	-7088
ܫܘܠܛܢܗ	-7089
ܫܠܬܐܝܠ	-7090
ܫܡܘܐܝܠ	-7091
ܫܡܥܘܗܝ	-7092
ܫܪܝܪܝܢ	-7093
ܬܕܡܪܬܐ	-7094
ܬܗܝܪܝܢ	-7095
ܬܡܠܠܘܢ	-7096
ܬܪܒܝܬܐ	-7097
ܬܪܝܨܬܐ	-7098
ܬܫܡܫܬܗ	-7099
ܬܫܥܝܬܐ	-7100
ܬܬܕܡܘܢ	-7101
ܬܬܦܢܘܢ	-7102
ܐܘܡܢܘܬܗ	-7103
ܐܚܒܬܟܘܢ	-7104
ܐܚܘܝܟܘܢ	-7105
ܐܝܬܐܘܗܝ	-7106
ܐܟܘܬܟܘܢ	-7107
ܐܤܛܦܢܘܤ	-7108
ܐܤܛܪܛܓܐ	-7109
ܐܫܬܝܘܗܝ	-7110
ܐܬܬܙܝܥܬ	-7111
ܒܕܟܝܘܬܐ	-7112
ܒܚܫܡܝܬܐ	-7113
ܒܛܝܠܐܝܬ	-7114
ܒܝܘܪܕܢܢ	-7115
ܒܝܢܝܗܘܢ	-7116
ܒܡܘܗܒܬܐ	-7117
ܒܡܙܡܘܪܐ	-7118
ܒܢܤܝܘܢܐ	-7119
ܒܤܘܥܪܢܐ	-7120
ܒܥܘܗܕܢܐ	-7121
ܒܦܪܨܘܦܐ	-7122
ܒܪܓܝܓܬܐ	-7123
ܒܬܘܟܠܢܐ	-7124
ܓܒܝܬܟܘܢ	-7125
ܕܐܘܪܫܠܡ	-7126
ܕܐܤܛܦܢܐ	-7127
ܕܐܤܝܪܝܢ	-7128
ܕܒܕܚܠܬܐ	-7129
ܕܒܘܪܟܬܐ	-7130
ܕܒܟܠܡܕܡ	-7131
ܕܓܙܘܪܬܐ	-7132
ܕܕܐܝܠܝܢ	-7133
ܕܕܝܠܗܘܢ	-7134
ܕܙܒܘܠܘܢ	-7135
ܕܚܘܒܟܘܢ	-7136
ܕܚܝܝܟܘܢ	-7137
ܕܝܕܥܬܘܢ	-7138
ܕܟܢܘܫܬܐ	-7139
ܕܟܢܝܫܝܢ	-7140
ܕܟܪܝܗܝܢ	-7141
ܕܠܤܓܝܐܐ	-7142
ܕܠܩܘܒܠܢ	-7143
ܕܡܗܝܡܢܐ	-7144
ܕܡܘܗܒܬܐ	-7145
ܕܡܘܪܟܝܢ	-7146
ܕܡܟܝܠܝܢ	-7147
ܕܡܩܒܠܝܢ	-7148
ܕܡܫܬܒܗܪ	-7149
ܕܡܬܚܙܝܢ	-7150
ܕܡܬܬܪܓܡ	-7151
ܕܢܦܫܗܘܢ	-7152
ܕܢܩܒܠܘܢ	-7153
ܕܢܩܪܒܘܢ	-7154
ܕܢܬܦܬܚܢ	-7155
ܕܤܦܝܢܬܐ	-7156
ܕܥܒܕܘܬܐ	-7157
ܕܥܒܕܬܘܢ	-7158
ܕܦܘܪܩܢܐ	-7159
ܕܫܐܕܘܗܝ	-7160
ܕܫܘܠܛܢܐ	-7161
ܕܬܐܟܠܘܢ	-7162
ܕܬܩܒܠܘܢ	-7163
ܘܐܘܠܨܢܐ	-7164
ܘܐܤܬܟܠܘ	-7165
ܘܐܬܒܝܐܘ	-7166
ܘܐܬܚܫܒܬ	-7167
ܘܐܬܪܡܝܘ	-7168
ܘܒܒܥܘܬܐ	-7169
ܘܒܚܕܘܬܐ	-7170
ܘܒܚܘܛܪܐ	-7171
ܘܒܝܘܡܬܐ	-7172
ܘܒܪܒܪܝܐ	-7173
ܘܒܪܢܝܩܐ	-7174
ܘܒܫܫܠܬܐ	-7175
ܘܕܐܝܠܝܢ	-7176
ܘܕܒܪܘܗܝ	-7177
ܘܕܟܠܗܘܢ	-7178
ܘܕܡܫܝܚܐ	-7179
ܘܕܢܗܘܘܢ	-7180
ܘܕܩܫܝܫܐ	-7181
ܘܗܓܡܘܢܐ	-7182
ܘܙܕܘܩܝܐ	-7183
ܘܚܘܒܟܘܢ	-7184
ܘܚܢܩܘܗܝ	-7185
ܘܛܘܒܘܗܝ	-7186
ܘܠܡܟܝܟܐ	-7187
ܘܠܡܟܪܙܘ	-7188
ܘܠܦܘܠܘܤ	-7189
ܘܠܩܫܝܫܐ	-7190
ܘܡܓܕܦܝܢ	-7191
ܘܡܗܠܟܝܢ	-7192
ܘܡܟܪܙܝܢ	-7193
ܘܡܩܦܚܝܢ	-7194
ܘܡܫܟܚܝܢ	-7195
ܘܡܫܡܫܝܢ	-7196
ܘܢܒܙܚܘܢ	-7197
ܘܢܘܪܗܘܢ	-7198
ܘܢܡܝܬܘܢ	-7199
ܘܢܢܓܕܘܢ	-7200
ܘܢܥܒܕܘܢ	-7201
ܘܢܩܘܡܘܢ	-7202
ܘܢܫܒܚܘܢ	-7203
ܘܤܓܝܐܬܐ	-7204
ܘܩܛܠܘܗܝ	-7205
ܘܫܒܩܘܗܝ	-7206
ܘܫܓܘܫܝܐ	-7207
ܘܫܠܝܛܢܐ	-7208
ܙܗܝܪܐܝܬ	-7209
ܚܒܝܒܘܗܝ	-7210
ܚܤܝܪܘܬܐ	-7211
ܛܘܒܝܗܝܢ	-7212
ܛܘܟܝܩܘܤ	-7213
ܝܕܥܝܬܘܢ	-7214
ܟܘܡܪܘܬܐ	-7215
ܟܢܘܬܗܘܢ	-7216
ܟܪܤܛܝܢܐ	-7217
ܟܬܒܝܘܗܝ	-7218
ܠܐܚܝܟܘܢ	-7219
ܠܐܚܪܝܬܐ	-7220
ܠܐܝܛܠܝܐ	-7221
ܠܐܝܪܝܚܘ	-7222
ܠܐܬܪܘܬܐ	-7223
ܠܕܘܟܪܢܝ	-7224
ܠܟܠܝܪܟܐ	-7225
ܠܟܬܒܘܢܐ	-7226
ܠܡܐܬܝܬܗ	-7227
ܠܡܗܝܡܢܐ	-7228
ܠܡܪܝܟܘܢ	-7229
ܠܡܫܡܫܢܐ	-7230
ܠܡܬܢܒܝܘ	-7231
ܠܢܦܫܟܘܢ	-7232
ܠܥܡܘܪܝܗ	-7233
ܠܦܝܠܛܘܤ	-7234
ܠܫܘܥܝܬܐ	-7235
ܠܬܐܛܪܘܢ	-7236
ܡܠܠܝܘܗܝ	-7237
ܡܦܝܤܝܢܢ	-7238
ܡܫܚܠܦܬܐ	-7239
ܡܫܝܚܘܬܐ	-7240
ܡܬܕܝܢܝܢ	-7241
ܡܬܙܝܥܝܢ	-7242
ܡܬܟܢܫܝܢ	-7243
ܡܬܢܛܪܝܢ	-7244
ܡܬܬܘܤܦܢ	-7245
ܢܘܟܪܝܬܐ	-7246
ܢܦܫܬܗܘܢ	-7247
ܢܫܬܒܩܘܢ	-7248
ܢܬܢܝܐܝܠ	-7249
ܤܒܪܬܟܘܢ	-7250
ܤܝܒܪܟܘܢ	-7251
ܥܒܕܝܘܗܝ	-7252
ܥܬܝܕܝܢܢ	-7253
ܦܫܝܛܘܬܐ	-7254
ܦܫܝܩܐܝܬ	-7255
ܨܐܕܝܗܘܢ	-7256
ܩܘܪܝܢܝܐ	-7257
ܩܤܛܘܢܪܐ	-7258
ܩܪܝܬܟܘܢ	-7259
ܪܒܟܘܡܪܐ	-7260
ܪܘܚܢܝܬܐ	-7261
ܪܘܪܒܐܝܬ	-7262
ܪܥܝܢܟܘܢ	-7263
ܫܒܘܩܝܢܝ	-7264
ܫܡܥܢܝܗܝ	-7265
ܫܡܫܬܗܘܢ	-7266
ܬܐܘܛܝܪܐ	-7267
ܬܠܘܘܢܢܝ	-7268
ܬܬܕܝܢܘܢ	-7269
ܬܬܟܫܠܘܢ	-7270
ܐܚܪܢܝܐܝܬ	-7271
ܐܤܬܟܠܬܘܢ	-7272
ܒܐܝܕܝܟܘܢ	-7273
ܒܐܢܛܝܘܟܝ	-7274
ܒܐܤܘܛܘܬܐ	-7275
ܒܙܕܝܩܘܬܐ	-7276
ܒܡܟܝܟܘܬܐ	-7277
ܒܥܘܪܠܘܬܐ	-7278
ܕܐܒܗܝܟܘܢ	-7279
ܕܒܐܘܠܨܢܐ	-7280
ܕܒܠܕܝܩܝܐ	-7281
ܕܒܥܠܕܒܒܐ	-7282
ܕܡܩܕܘܢܝܐ	-7283
ܕܡܬܟܬܒܝܢ	-7284
ܕܢܤܬܡܟܘܢ	-7285
ܕܢܩܛܠܘܢܗ	-7286
ܕܥܘܪܠܘܬܐ	-7287
ܕܦܝܠܝܦܘܤ	-7288
ܕܩܝܠܝܩܝܐ	-7289
ܕܫܘܬܦܘܬܐ	-7290
ܕܬܘܠܥܗܘܢ	-7291
ܕܬܬܝܬܪܘܢ	-7292
ܗܘܦܟܝܟܘܢ	-7293
ܘܐܚܪܢܝܬܐ	-7294
ܘܐܠܟܤܢܕܪ	-7295
ܘܐܫܠܡܘܗܝ	-7296
ܘܐܫܬܘܕܥܘ	-7297
ܘܐܬܬܢܝܚܘ	-7298
ܘܐܬܬܥܝܪܘ	-7299
ܘܒܛܝܒܘܬܐ	-7300
ܘܒܢܟܦܘܬܐ	-7301
ܘܒܬܕܡܪܬܐ	-7302
ܘܕܙܕܘܩܝܐ	-7303
ܘܡܬܚܫܒܝܢ	-7304
ܘܢܤܬܟܠܘܢ	-7305
ܘܤܪܝܩܐܝܬ	-7306
ܘܥܝܢܝܗܘܢ	-7307
ܘܥܠܘܒܘܬܐ	-7308
ܘܦܪܝܤܩܠܐ	-7309
ܘܬܒܥܘܢܢܝ	-7310
ܘܬܚܙܘܢܢܝ	-7311
ܠܐܒܗܝܗܘܢ	-7312
ܠܐܤܛܦܢܘܤ	-7313
ܠܒܥܠܝܟܝܢ	-7314
ܠܘܩܒܠܟܘܢ	-7315
ܠܡܕܟܝܘܬܝ	-7316
ܠܡܩܒܠܘܬܗ	-7317
ܠܡܫܐܠܘܬܗ	-7318
ܠܨܒܝܢܗܘܢ	-7319
ܡܕܒܪܢܘܬܐ	-7320
ܡܗܝܡܢܝܢܢ	-7321
ܡܤܬܟܠܝܢܢ	-7322
ܡܥܒܕܢܘܬܐ	-7323
ܡܫܬܘܕܥܝܢ	-7324
ܡܫܬܘܬܦܝܢ	-7325
ܡܬܐܠܨܝܢܢ	-7326
ܡܬܬܢܚܝܢܢ	-7327
ܢܚܙܘܢܝܗܝ	-7328
ܢܩܛܠܝܘܗܝ	-7329
ܢܫܐܠܝܘܗܝ	-7330
ܤܟܠܘܬܗܘܢ	-7331
ܫܘܠܛܢܗܘܢ	-7332
ܬܤܠܘܢܝܩܐ	-7333
ܐܤܛܘܟܤܘܗܝ	-7334
ܐܪܒܥܬܝܗܝܢ	-7335
ܒܪܥܝܢܝܟܘܢ	-7336
ܕܐܬܩܪܝܬܘܢ	-7337
ܕܬܐܚܕܘܢܢܝ	-7338
ܕܬܠܡܝܕܘܗܝ	-7339
ܠܬܤܠܘܢܝܩܐ	-7340
ܡܫܬܒܗܪܝܢܢ	-7341
ܡܫܬܡܥܢܘܬܗ	-7342
ܢܩܒܠܘܢܟܘܢ	-7343
ܢܫܠܡܘܢܟܘܢ	-7344
ܥܒܕܬܘܢܝܗܝ	-7345
ܬܗܝܡܢܘܢܢܝ	-7346
ܒܡܤܝܒܪܢܘܬܐ	-7347
ܕܢܙܩܦܘܢܝܗܝ	-7348
ܕܢܡܝܬܘܢܝܗܝ	-7349
ܕܢܫܐܠܘܢܝܗܝ	-7350
ܘܢܢܓܕܘܢܝܗܝ	-7351
ܘܢܫܠܡܘܢܝܗܝ	-7352
ܘܒܡܤܝܒܪܢܘܬܐ	-7353
ܘܠܐܤܛܪܛܝܘܛܐ	-7354
ܠܒܥܠܕܒܒܝܟܘܢ	-7355
ܚܦܘ	-7356
ܫܟܒ	-7357
ܐܓܪܘ	-7358
ܐܕܪܟ	-7359
ܐܗܦܟ	-7360
ܐܘܩܕ	-7361
ܐܘܫܛ	-7362
ܐܘܬܪ	-7363
ܐܦܩܬ	-7364
ܐܨܠܐ	-7365
ܐܬܗܦ	-7366
ܓܡܪܘ	-7367
ܓܫܘܢ	-7368
ܕܚܨܕ	-7369
ܕܝܪܬ	-7370
ܕܠܘܛ	-7371
ܕܠܝܛ	-7372
ܕܡܛܬ	-7373
ܕܡܥܛ	-7374
ܕܢܩܫ	-7375
ܕܦܐܫ	-7376
ܗܠܟܢ	-7377
ܗܦܟܐ	-7378
ܗܦܟܬ	-7379
ܘܕܙܒ	-7380
ܘܕܪܫ	-7381
ܘܗܪܛ	-7382
ܘܢܩܫ	-7383
ܘܪܟܒ	-7384
ܘܫܡܛ	-7385
ܙܝܢܗ	-7386
ܚܒܪܟ	-7387
ܚܢܩܘ	-7388
ܛܝܡܝ	-7389
ܛܡܝܤ	-7390
ܛܡܪܬ	-7391
ܟܝܚܢ	-7392
ܠܐܤܦ	-7393
ܠܩܪܩ	-7394
ܠܫܥܐ	-7395
ܡܐܢܝ	-7396
ܡܕܓܠ	-7397
ܡܘܪܒ	-7398
ܡܙܗܪ	-7399
ܓܪܗ	-7400
ܘܘܢ	-7401
ܘܦܠ	-7402
ܠܛܬ	-7403
ܤܘܦ	-7404
ܒܕܪܬ	-7405
ܕܢܟܐ	-7406
ܕܦܠܘ	-7407
ܕܪܫܝ	-7408
ܗܒܝܢ	-7409
ܘܥܡܕ	-7410
ܘܥܦܩ	-7411
ܘܦܘܢ	-7412
ܘܦܪܩ	-7413
ܘܬܪܘ	-7414
ܙܘܓܐ	-7415
ܚܡܘܠ	-7416
ܝܘܪܩ	-7417
ܠܘܤܝ	-7418
ܡܒܕܪ	-7419
ܡܙܥܩ	-7420
ܡܚܝܬ	-7421
ܡܠܐܐ	-7422
ܡܡܛܐ	-7423
ܡܡܬܘ	-7424
ܡܢܪܢ	-7425
ܡܦܚܡ	-7426
ܡܦܤܩ	-7427
ܡܫܪܪ	-7428
ܢܓܗܬ	-7429
ܢܚܝܗ	-7430
ܢܚܫܟ	-7431
ܢܪܓܐ	-7432
ܤܒܥܘ	-7433
ܤܕܩܐ	-7434
ܤܟܡܐ	-7435
ܤܦܩܐ	-7436
ܥܕܪܘ	-7437
ܥܙܠܢ	-7438
ܥܡܨܘ	-7439
ܦܚܪܐ	-7440
ܦܤܩܗ	-7441
ܦܤܩܬ	-7442
ܦܪܘܓ	-7443
ܦܬܝܗ	-7444
ܨܠܝܘ	-7445
ܩܕܘܫ	-7446
ܪܕܝܦ	-7447
ܪܗܛܬ	-7448
ܫܛܝܐ	-7449
ܫܝܫܝ	-7450
ܫܠܕܗ	-7451
ܫܠܘܐ	-7452
ܫܢܝܩ	-7453
ܬܘܪܗ	-7454
ܬܚܠܘ	-7455
ܬܚܪܒ	-7456
ܬܤܝܒ	-7457
ܬܥܠܢ	-7458
ܬܥܡܠ	-7459
ܬܫܢܩ	-7460
ܐܓܒܘܤ	-7461
ܐܚܘܝܟ	-7462
ܐܝܕܝܟ	-7463
ܐܝܤܘܢ	-7464
ܐܟܙܢܐ	-7465
ܐܡܪܬܝ	-7466
ܐܤܒܝܗ	-7467
ܐܤܘܪܝ	-7468
ܐܤܬܠܩ	-7469
ܐܩܒܘܪ	-7470
ܐܫܠܡܗ	-7471
ܐܫܬܝܘ	-7472
ܐܬܒܕܩ	-7473
ܐܬܓܗܢ	-7474
ܐܬܚܒܠ	-7475
ܐܬܚܠܡ	-7476
ܐܬܚܦܛ	-7477
ܐܬܚܫܚ	-7478
ܐܬܛܪܝ	-7479
ܐܬܛܫܝ	-7480
ܐܬܠܒܒ	-7481
ܐܬܥܒܝ	-7482
ܐܬܦܪܫ	-7483
ܐܬܦܫܚ	-7484
ܐܬܩܒܪ	-7485
ܐܬܩܕܫ	-7486
ܐܬܪܥܝ	-7487
ܒܒܝܬܝ	-7488
ܒܓܢܬܐ	-7489
ܒܘܝܐܗ	-7490
ܒܚܘܪܐ	-7491
ܒܚܝܨܐ	-7492
ܒܛܟܤܗ	-7493
ܒܛܢܢܐ	-7494
ܒܝܫܬܗ	-7495
ܒܟܪܘܙ	-7496
ܒܟܪܤܐ	-7497
ܒܟܪܤܗ	-7498
ܒܠܓܬܐ	-7499
ܐܕܥ	-7500
ܓܕܗ	-7501
ܕܫܒ	-7502
ܘܛܪ	-7503
ܦܝܦ	-7504
ܬܛܪ	-7505
ܐܒܕܐ	-7506
ܐܒܝܐ	-7507
ܐܟܘܠ	-7508
ܐܪܚܡ	-7509
ܒܒܢܝ	-7510
ܒܝܬܢ	-7511
ܒܠܒܢ	-7512
ܕܐܚܙ	-7513
ܕܗܒܢ	-7514
ܕܛܠܝ	-7515
ܕܡܟܬ	-7516
ܕܫܛܝ	-7517
ܘܝܘܚ	-7518
ܘܥܛܝ	-7519
ܘܩܦܐ	-7520
ܚܙܘܗ	-7521
ܛܝܢܢ	-7522
ܛܪܝܐ	-7523
ܝܘܬܗ	-7524
ܠܒܪܬ	-7525
ܠܝܘܪ	-7526
ܠܦܢܐ	-7527
ܡܒܗܬ	-7528
ܡܡܠܐ	-7529
ܡܫܪܐ	-7530
ܢܐܝܬ	-7531
ܢܛܪܘ	-7532
ܢܝܪܐ	-7533
ܦܝܠܝ	-7534
ܦܪܤܐ	-7535
ܩܪܬܐ	-7536
ܬܐܠܕ	-7537
ܬܪܦܐ	-7538
ܐܟܪܙܘ	-7539
ܐܬܐܤܝ	-7540
ܐܬܚܢܢ	-7541
ܒܚܪܬܗ	-7542
ܒܟܬܒܬ	-7543
ܒܠܫܢܗ	-7544
ܒܡܘܬܗ	-7545
ܒܡܠܬܗ	-7546
ܒܡܫܚܐ	-7547
ܒܢܦܫܝ	-7548
ܒܤܬܘܐ	-7549
ܒܥܙܪܘ	-7550
ܒܦܘܡܟ	-7551
ܒܦܫܝܛ	-7552
ܒܩܪܛܐ	-7553
ܒܪܘܐܐ	-7554
ܒܪܘܓܙ	-7555
ܒܪܝܫܗ	-7556
ܒܫܗܪܐ	-7557
ܒܫܠܡܗ	-7558
ܓܘܫܡܗ	-7559
ܓܪܒܝܐ	-7560
ܓܪܓܘܢ	-7561
ܕܐܒܘܢ	-7562
ܕܐܙܕܪ	-7563
ܕܐܙܠܐ	-7564
ܕܐܛܥܝ	-7565
ܕܐܡܚܐ	-7566
ܕܐܤܓܝ	-7567
ܕܐܪܝܡ	-7568
ܕܐܫܝܪ	-7569
ܕܐܫܡܥ	-7570
ܕܐܫܬܪ	-7571
ܕܓܗܢܐ	-7572
ܕܕܚܠܬ	-7573
ܕܕܡܝܢ	-7574
ܕܘܟܝܐ	-7575
ܕܚܟܝܡ	-7576
ܕܟܝܬܟ	-7577
ܕܟܤܝܬ	-7578
ܕܟܪܡܗ	-7579
ܕܟܬܢܐ	-7580
ܕܠܒܫܢ	-7581
ܕܠܬܚܬ	-7582
ܕܡܓܕܦ	-7583
ܕܡܠܝܟ	-7584
ܕܡܠܬܝ	-7585
ܕܡܢܝܢ	-7586
ܕܡܤܝܒ	-7587
ܕܡܥܕܪ	-7588
ܕܡܫܟܐ	-7589
ܕܢܒܐܫ	-7590
ܕܢܓܕܦ	-7591
ܕܢܗܠܟ	-7592
ܕܢܤܒܥ	-7593
ܕܢܩܕܫ	-7594
ܕܢܫܒܐ	-7595
ܕܢܫܦܪ	-7596
ܕܢܬܦܠ	-7597
ܕܤܗܪܐ	-7598
ܕܤܝܡܢ	-7599
ܐܘܟ	-7600
ܚܒܬ	-7601
ܛܠܬ	-7602
ܠܥܝ	-7603
ܡܘܗ	-7604
ܦܝܗ	-7605
ܩܠܢ	-7606
ܬܒܥ	-7607
ܐܘܕܐ	-7608
ܒܠܘܡ	-7609
ܒܢܤܝ	-7610
ܒܤܘܢ	-7611
ܒܤܪܗ	-7612
ܒܪܘܟ	-7613
ܓܦܝܗ	-7614
ܕܤܪܐ	-7615
ܕܬܒܥ	-7616
ܘܛܫܝ	-7617
ܘܡܘܒ	-7618
ܘܤܐܡ	-7619
ܚܝܠܢ	-7620
ܝܬܒܐ	-7621
ܠܚܘܫ	-7622
ܠܬܠܬ	-7623
ܢܢܥܐ	-7624
ܢܦܠܐ	-7625
ܢܫܕܐ	-7626
ܢܬܝܐ	-7627
ܢܬܬܗ	-7628
ܤܗܘܢ	-7629
ܤܝܒܢ	-7630
ܪܘܥܐ	-7631
ܫܐܠܢ	-7632
ܫܐܠܬ	-7633
ܐܬܬܘܝ	-7634
ܒܝܢܝܢ	-7635
ܒܡܥܕܪ	-7636
ܕܐܡܪܢ	-7637
ܕܚܕܕܐ	-7638
ܕܟܗܢܐ	-7639
ܕܟܝܢܐ	-7640
ܕܡܨܚܐ	-7641
ܕܢܚܫܐ	-7642
ܕܢܝܬܐ	-7643
ܕܤܝܢܝ	-7644
ܕܤܝܦܐ	-7645
ܕܥܝܢܟ	-7646
ܕܥܬܝܪ	-7647
ܕܦܓܪܝ	-7648
ܕܦܝܤܝ	-7649
ܕܩܒܠܢ	-7650
ܕܩܕܩܐ	-7651
ܕܩܝܤܐ	-7652
ܕܪܝܚܐ	-7653
ܕܪܫܝܡ	-7654
ܕܫܝܢܐ	-7655
ܕܫܠܡܘ	-7656
ܕܫܥܒܕ	-7657
ܕܫܪܓܐ	-7658
ܘܐܘܒܕ	-7659
ܘܐܘܠܨ	-7660
ܘܐܘܫܛ	-7661
ܘܐܙܝܥ	-7662
ܘܐܚܬܗ	-7663
ܘܐܢܬܝ	-7664
ܘܐܤܘܪ	-7665
ܘܐܦܩܗ	-7666
ܘܐܦܩܘ	-7667
ܘܐܩܦܘ	-7668
ܘܐܫܘܘ	-7669
ܘܒܗܘܢ	-7670
ܘܒܟܝܐ	-7671
ܘܒܢܝܗ	-7672
ܘܒܪܟܗ	-7673
ܘܒܫܡܟ	-7674
ܘܒܬܫܒ	-7675
ܘܓܕܠܘ	-7676
ܘܕܒܪܘ	-7677
ܘܕܢܤܬ	-7678
ܘܕܢܬܠ	-7679
ܘܕܩܝܐ	-7680
ܘܗܢܝܢ	-7681
ܘܙܒܢܘ	-7682
ܘܚܒܫܗ	-7683
ܘܚܘܝܗ	-7684
ܘܚܛܦܘ	-7685
ܘܚܝܢܢ	-7686
ܘܚܠܦܘ	-7687
ܘܚܡܬܗ	-7688
ܘܛܥܡܘ	-7689
ܘܝܗܒܬ	-7690
ܘܝܘܚܢ	-7691
ܘܝܡܡܐ	-7692
ܘܟܐܒܐ	-7693
ܘܟܬܒܘ	-7694
ܘܠܒܘܢ	-7695
ܘܠܒܪܗ	-7696
ܘܠܥܙܪ	-7697
ܘܠܥܤܘ	-7698
ܘܡܒܪܟ	-7699
ܒܚܤ	-7700
ܒܚܬ	-7701
ܓܢܝ	-7702
ܕܕܚ	-7703
ܕܤܓ	-7704
ܕܬܓ	-7705
ܗܓܪ	-7706
ܙܚܐ	-7707
ܡܗܢ	-7708
ܡܝܡ	-7709
ܢܝܟ	-7710
ܤܤܐ	-7711
ܥܗܢ	-7712
ܩܢܝ	-7713
ܬܝܗ	-7714
ܒܕܡܝ	-7715
ܒܘܒܐ	-7716
ܒܥܤܪ	-7717
ܕܐܚܪ	-7718
ܕܚܬܝ	-7719
ܕܡܚܪ	-7720
ܕܥܗܢ	-7721
ܕܬܟܝ	-7722
ܕܬܫܘ	-7723
ܘܐܓܪ	-7724
ܘܐܚܒ	-7725
ܘܐܪܘ	-7726
ܘܒܠܢ	-7727
ܘܙܝܐ	-7728
ܘܚܬܝ	-7729
ܘܝܬܪ	-7730
ܘܠܢܝ	-7731
ܘܥܪܒ	-7732
ܘܦܘܪ	-7733
ܘܪܟܝ	-7734
ܘܫܒܝ	-7735
ܘܫܘܐ	-7736
ܙܕܩܘ	-7737
ܛܝܘܤ	-7738
ܠܕܠܦ	-7739
ܠܦܘܬ	-7740
ܡܫܟܢ	-7741
ܥܛܦܘ	-7742
ܥܝܢܗ	-7743
ܥܩܬܐ	-7744
ܦܨܚܘ	-7745
ܫܝܚܗ	-7746
ܬܚܙܐ	-7747
ܬܝܒܪ	-7748
ܬܫܬܐ	-7749
ܒܚܤܕܐ	-7750
ܒܝܬܘܢ	-7751
ܕܐܚܕܬ	-7752
ܕܙܥܘܪ	-7753
ܕܚܒܪܗ	-7754
ܕܡܕܒܪ	-7755
ܕܢܫܢܐ	-7756
ܕܤܘܥܪ	-7757
ܕܩܥܝܢ	-7758
ܗܢܘܬܐ	-7759
ܘܐܘܤܦ	-7760
ܘܐܚܘܝ	-7761
ܘܐܥܒܕ	-7762
ܘܐܩܪܒ	-7763
ܘܐܬܕܟ	-7764
ܘܡܕܟܐ	-7765
ܘܡܚܒܠ	-7766
ܘܡܚܪܩ	-7767
ܘܡܛܒܥ	-7768
ܘܡܛܝܢ	-7769
ܘܡܟܝܟ	-7770
ܘܡܠܦܢ	-7771
ܘܡܠܬܐ	-7772
ܘܡܠܬܝ	-7773
ܘܡܢܟܦ	-7774
ܘܡܥܛܦ	-7775
ܘܡܦܫܩ	-7776
ܘܡܩܕܫ	-7777
ܘܡܪܝܐ	-7778
ܘܡܬܟܫ	-7779
ܘܢܓܕܘ	-7780
ܘܢܘܒܕ	-7781
ܘܢܚܘܐ	-7782
ܘܢܚܘܢ	-7783
ܘܢܛܪܘ	-7784
ܘܢܢܗܪ	-7785
ܘܢܤܓܐ	-7786
ܘܢܨܝܢ	-7787
ܘܢܩܢܢ	-7788
ܘܤܒܪܢ	-7789
ܘܤܬܘܐ	-7790
ܘܥܐܠܢ	-7791
ܘܥܒܕܗ	-7792
ܘܥܛܝܦ	-7793
ܘܥܪܘܩ	-7794
ܘܦܠܓܗ	-7795
ܘܦܠܚܝ	-7796
ܘܦܬܚܬ	-7797
ܘܨܗܝܬ	-7798
ܘܩܒܠܘ	-7799
ܓܠܙ	-7800
ܕܐܓ	-7801
ܕܢܩ	-7802
ܕܩܪ	-7803
ܚܐܤ	-7804
ܛܘܝ	-7805
ܝܘܟ	-7806
ܠܪܒ	-7807
ܡܟܕ	-7808
ܥܘܬ	-7809
ܐܥܒܪ	-7810
ܒܘܥܐ	-7811
ܒܤܩܐ	-7812
ܓܕܝܐ	-7813
ܕܝܢܘ	-7814
ܕܠܒܝ	-7815
ܕܠܝܢ	-7816
ܕܢܓܪ	-7817
ܕܥܝܪ	-7818
ܕܪܝܢ	-7819
ܗܘܬܗ	-7820
ܘܕܒܗ	-7821
ܘܕܒܝ	-7822
ܘܕܚܝ	-7823
ܘܚܘܝ	-7824
ܘܚܫܒ	-7825
ܘܠܫܒ	-7826
ܘܦܤܩ	-7827
ܘܩܝܡ	-7828
ܘܪܢܐ	-7829
ܘܪܫܗ	-7830
ܘܫܘܬ	-7831
ܝܪܬܗ	-7832
ܟܝܢܐ	-7833
ܠܬܢܐ	-7834
ܡܘܚܪ	-7835
ܡܟܕܒ	-7836
ܡܨܒܬ	-7837
ܡܪܚܐ	-7838
ܡܬܟܬ	-7839
ܥܘܬܗ	-7840
ܥܝܢܢ	-7841
ܪܤܬܐ	-7842
ܫܡܥܟ	-7843
ܬܫܡܥ	-7844
ܐܟܪܙܢ	-7845
ܒܠܚܡܐ	-7846
ܕܒܡܠܐ	-7847
ܕܕܝܠܟ	-7848
ܕܢܩܝܪ	-7849
ܕܤܐܡܐ	-7850
ܕܪܟܘܢ	-7851
ܘܐܡܘܢ	-7852
ܘܐܫܒܩ	-7853
ܘܐܫܬܪ	-7854
ܘܒܡܠܝ	-7855
ܘܕܟܠܗ	-7856
ܘܚܪܢܐ	-7857
ܘܩܘܒܠ	-7858
ܘܩܘܝܢ	-7859
ܘܩܘܝܬ	-7860
ܘܩܘܡܘ	-7861
ܘܩܥܝܐ	-7862
ܘܩܦܤܘ	-7863
ܘܩܫܬܐ	-7864
ܘܪܒܝܐ	-7865
ܘܪܓܡܬ	-7866
ܘܪܓܬܗ	-7867
ܘܪܘܝܘ	-7868
ܘܫܒܩܗ	-7869
ܘܫܓܫܘ	-7870
ܘܫܝܠܐ	-7871
ܘܫܠܘܡ	-7872
ܘܫܠܝܬ	-7873
ܘܫܠܡܗ	-7874
ܘܫܬܩܘ	-7875
ܘܬܙܟܐ	-7876
ܘܬܡܗܐ	-7877
ܙܘܙܝܢ	-7878
ܙܘܝܬܗ	-7879
ܙܡܪܝܢ	-7880
ܚܐܝܢܢ	-7881
ܚܒܠܘܢ	-7882
ܚܓܝܤܐ	-7883
ܚܕܘܬܝ	-7884
ܚܕܪܝܗ	-7885
ܚܕܬܘܢ	-7886
ܚܘܒܝܢ	-7887
ܚܘܝܢܝ	-7888
ܚܙܝܬܟ	-7889
ܚܝܠܬܢ	-7890
ܚܡܨܬܐ	-7891
ܚܨܪܘܢ	-7892
ܚܪܝܢܢ	-7893
ܚܫܝܒܐ	-7894
ܚܬܝܪܐ	-7895
ܛܒܘܬܐ	-7896
ܛܘܗܡܢ	-7897
ܛܘܝܒܗ	-7898
ܛܘܥܝܝ	-7899
ܓܬ	-7900
ܐܪܝ	-7901
ܐܫܘ	-7902
ܒܛܢ	-7903
ܛܠܒ	-7904
ܝܘܐ	-7905
ܠܐܢ	-7906
ܠܡܙ	-7907
ܢܕܚ	-7908
ܢܚܪ	-7909
ܥܠܗ	-7910
ܬܠܐ	-7911
ܐܙܝܥ	-7912
ܐܢܝܦ	-7913
ܐܫܘܕ	-7914
ܒܝܕܥ	-7915
ܒܪܫܘ	-7916
ܓܥܘܪ	-7917
ܕܒܠܐ	-7918
ܕܚܩܗ	-7919
ܕܪܫܐ	-7920
ܘܕܗܪ	-7921
ܘܚܪܘ	-7922
ܘܟܘܢ	-7923
ܘܟܦܝ	-7924
ܘܡܚܬ	-7925
ܘܡܬܛ	-7926
ܘܦܫܝ	-7927
ܘܫܒܢ	-7928
ܚܝܢܝ	-7929
ܚܢܢܐ	-7930
ܛܢܬܐ	-7931
ܟܘܬܗ	-7932
ܟܬܫܘ	-7933
ܠܘܤܩ	-7934
ܠܘܩܐ	-7935
ܠܛܘܪ	-7936
ܠܝܗܘ	-7937
ܢܝܪܝ	-7938
ܢܩܝܦ	-7939
ܢܫܘܐ	-7940
ܪܘܕܐ	-7941
ܫܐܠܐ	-7942
ܫܒܘܢ	-7943
ܬܚܝܢ	-7944
ܐܫܬܒܩ	-7945
ܒܗܕܡܝ	-7946
ܕܐܠܦܘ	-7947
ܕܟܪܝܬ	-7948
ܕܬܚܘܢ	-7949
ܘܐܕܝܩ	-7950
ܘܐܥܠܗ	-7951
ܘܒܗܝܢ	-7952
ܘܕܒܥܐ	-7953
ܘܚܬܡܐ	-7954
ܘܝܘܡܐ	-7955
ܘܥܠܝܢ	-7956
ܘܪܗܛܬ	-7957
ܘܪܘܙܘ	-7958
ܘܪܟܝܒ	-7959
ܛܠܝܠܐ	-7960
ܛܡܐܬܐ	-7961
ܛܥܡܘܢ	-7962
ܛܪܤܘܤ	-7963
ܛܪܦܝܗ	-7964
¦	-7965
▁	-7966
ܐ	-7967
ܘ	-7968
ܢ	-7969
ܝ	-7970
ܠ	-7971
ܕ	-7972
ܡ	-7973
ܗ	-7974
ܬ	-7975
ܪ	-7976
ܒ	-7977
ܟ	-7978
ܫ	-7979
ܥ	-7980
ܚ	-7981
ܩ	-7982
ܦ	-7983
ܤ	-7984
ܓ	-7985
ܛ	-7986
ܙ	-7987
ܨ	-7988
v	-7989
𐋇	-7990
1	-7991
)	-7992
4	-7993
5	-7994
9	-7995
:	-7996
