<pad>	0
</s>	0
<unk>	0
▁Ꭰ	-0
▁Ꭴ	-1
▁Ꮎ	-2
ᏍᎩ	-3
ᏍᏗ	-4
▁Ꭲ	-5
▁ᎠᎴ	-6
▁ᎾᏍᎩ	-7
▁Ꭸ	-8
▁Ꮒ	-9
▁ᎨᏒ	-10
▁Ꮵ	-11
▁Ꭶ	-12
▁Ꮧ	-13
▁Ꭿ	-14
▁ᎯᎠ	-15
ᎵᏍ	-16
▁Ꮷ	-17
ᏅᎯ	-18
▁Ꮔ	-19
▁Ꭼ	-20
▁ᎢᏳ	-21
▁Ᏹ	-22
▁Ꭱ	-23
ᏗᏱ	-24
▁ᎤᏁ	-25
▁Ꮪ	-26
▁Ꭵ	-27
ᏓᏁ	-28
▁ᎠᏂ	-29
ᏓᏅ	-30
▁ᎤᏂ	-31
ᏍᎬ	-32
▁Ꮕ	-33
ᏍᎦ	-34
ᎯᏳ	-35
▁Ꭳ	-36
▁ᎥᏝ	-37
▁ᎨᏒᎢ	-38
ᏰᏃ	-39
ᏪᏎ	-40
ᎳᏅᎯ	-41
▁ᎤᎾ	-42
▁Ꮥ	-43
▁Ꮣ	-44
ᏍᏛ	-45
▁Ꭺ	-46
▁ᎤᏁᎳᏅᎯ	-47
ᏙᏗ	-48
▁ᏂᎦ	-49
ᏍᏗᏱ	-50
ᏤᎵ	-51
ᎬᏫ	-52
▁Ꭹ	-53
ᏍᎨ	-54
ᎬᏫᏳ	-55
ᎨᏒ	-56
ᏍᎩᏂ	-57
▁Ꮳ	-58
ᏓᎴ	-59
ᏎᏍᏗ	-60
▁ᎬᏩ	-61
ᎸᎩ	-62
ᏍᎪ	-63
▁ᏥᏌ	-64
ᏴᏫ	-65
ᎬᏩ	-66
ᏍᏓ	-67
▁ᎩᎶ	-68
▁ᎠᏎ	-69
▁ᎢᎦ	-70
ᎬᏫᏳᎯ	-71
ᏍᏉ	-72
ᏛᏁ	-73
ᏙᎯ	-74
▁ᎾᏍᏉ	-75
ᎸᎯ	-76
ᏔᏅ	-77
▁ᏴᏫ	-78
ᎴᎢ	-79
▁ᎬᏂ	-80
ᎦᏔ	-81
▁ᎾᏍᎩᏯ	-82
▁ᎠᏴ	-83
ᏍᏓᏁ	-84
▁ᎤᏪ	-85
ᏩᏛ	-86
▁Ꮻ	-87
ᎸᏉ	-88
▁Ꮏ	-89
ᏃᎮ	-90
▁ᎢᏥ	-91
ᏒᎩ	-92
ᎶᎯ	-93
▁ᎿᏉ	-94
▁ᎨᏎᏍᏗ	-95
▁ᎢᏣ	-96
ᏗᏳ	-97
▁ᎠᏥ	-98
ᏎᎢ	-99
ᏍᎨᏍᏗ	-100
ᎨᏒᎾ	-101
▁ᏥᎩ	-102
▁ᏂᎨᏒᎾ	-103
▁ᎤᎬᏫᏳᎯ	-104
▁ᏂᎯ	-105
ᏩᏗ	-106
ᏙᏗᏱ	-107
ᎲᎢ	-108
▁ᎠᏎᏃ	-109
▁ᎢᏳᏍᏗ	-110
ᎸᎢ	-111
ᎦᎵᏍ	-112
▁Ꭷ	-113
ᏣᏘ	-114
ᎶᏁ	-115
ᎧᎿ	-116
ᏁᎢ	-117
ᎸᏫ	-118
ᎮᏍᏗ	-119
▁ᎾᎿ	-120
ᎶᏁᏛ	-121
▁ᏄᏪᏎ	-122
ᎸᏫᏍᏓᏁ	-123
ᎳᏗ	-124
ᏍᏕ	-125
ᏄᎪ	-126
ᎯᏍᏗ	-127
ᏍᏆ	-128
▁ᎦᎶᏁᏛ	-129
▁ᎤᏲ	-130
▁ᎠᎩ	-131
ᏙᏓ	-132
ᏰᎸ	-133
▁ᏱᎩ	-134
▁Ꮤ	-135
▁ᏧᎾ	-136
▁ᏂᏚ	-137
ᏅᏛ	-138
ᏔᏅᎯ	-139
ᎱᏍᏗ	-140
▁ᎤᏤᎵ	-141
▁ᎠᎾ	-142
▁ᎪᎱᏍᏗ	-143
ᏰᎵ	-144
ᏍᎬᎢ	-145
ᎵᏍᏗ	-146
▁ᎠᏁ	-147
▁ᏅᏓ	-148
▁ᏂᎦᏛ	-149
▁ᎢᏨ	-150
▁Ꮽ	-151
ᏓᏙ	-152
▁ᎣᏍᏛ	-153
▁Ꮜ	-154
ᏓᏅᏙ	-155
▁ᎾᏍᎩᏃ	-156
▁ᎤᏩ	-157
▁ᎠᏆ	-158
▁ᎢᏳᏃ	-159
▁ᎢᏯ	-160
▁ᎦᏙ	-161
▁ᎤᎵ	-162
▁Ꮶ	-163
▁ᏗᎦ	-164
ᏓᎵ	-165
▁Ꮮ	-166
ᏂᎪ	-167
▁ᎠᏍᎦ	-168
▁ᏧᏂ	-169
ᏩᏗᏙᎯ	-170
ᎦᎵᏍᏙᏗ	-171
▁ᎿᏉᏃ	-172
▁ᎢᎬ	-173
ᎨᏳ	-174
ᏓᎴᏅᏛ	-175
ᏅᎩ	-176
▁ᎤᏙ	-177
▁ᏗᎧᎿ	-178
▁ᏗᏂ	-179
▁ᎦᎸ	-180
ᎦᏘ	-181
▁ᎤᏪᏥ	-182
▁ᎾᏂ	-183
ᏴᏛ	-184
▁ᏞᏍᏗ	-185
▁ᎡᎶᎯ	-186
▁ᎦᎸᏉ	-187
ᏅᏏ	-188
▁ᎤᏣᏘ	-189
ᏛᎦ	-190
▁ᎠᏏ	-191
▁ᎤᏩᏒ	-192
ᎴᎰ	-193
ᎶᏗ	-194
ᏒᎯ	-195
▁ᏂᎦᎥ	-196
▁ᎧᏃᎮ	-197
ᏗᎦᎵᏍᏙᏗ	-198
▁Ᏻ	-199
▁ᏚᏂ	-200
ᎷᏤ	-201
ᎲᎩ	-202
ᏒᎢ	-203
▁ᏄᏂ	-204
▁Ꮿ	-205
▁ᏂᏚᏪᏎ	-206
ᏅᎢ	-207
ᎪᎯ	-208
ᏓᏂ	-209
ᎵᏍᏓ	-210
▁ᎨᏥ	-211
▁ᏔᎵ	-212
ᏙᎥ	-213
▁ᎬᏂᎨᏒ	-214
ᎳᏫ	-215
ᏁᎸ	-216
▁ᎤᏙᎯᏳ	-217
▁ᎠᎦ	-218
▁ᎯᎠᏃ	-219
▁ᏅᏩ	-220
ᏳᎪ	-221
▁ᎢᏳᎵᏍ	-222
▁ᎠᏓᏅᏙ	-223
ᏴᎵ	-224
ᏍᏆᏂᎪ	-225
▁ᏄᏍᏛ	-226
▁ᎧᏃᎮᏛ	-227
▁ᎣᏏ	-228
▁ᎠᏥᎸ	-229
ᏨᎯ	-230
ᏙᎴᎰ	-231
▁ᎠᏓ	-232
▁ᎦᎸᏉᏗᏳ	-233
▁ᎤᏟ	-234
ᏗᏢ	-235
ᎬᎢ	-236
ᏲᎱ	-237
▁ᏰᎵ	-238
▁Ꮴ	-239
▁ᎾᎯᏳ	-240
▁ᏅᏗᎦᎵᏍᏙᏗ	-241
ᏓᏅᏖ	-242
ᏛᎢ	-243
▁ᎣᏏᏳ	-244
▁ᏗᎧᎿᏩᏛ	-245
ᏔᏂ	-246
ᏄᎪᏫ	-247
▁ᎪᎯ	-248
ᎵᏍᏓᏴ	-249
▁ᎢᏴᏛ	-250
▁ᎢᎬᏱ	-251
ᏍᏙᏗ	-252
▁ᎦᎸᎳᏗ	-253
ᎵᏍᏓᏁ	-254
ᎲᎾ	-255
ᎲᏍᎩ	-256
▁Ꮩ	-257
▁ᎤᏕ	-258
ᏩᏂ	-259
▁ᎢᎩ	-260
ᎨᏥ	-261
ᏔᏅᎩ	-262
ᎨᏍᏗ	-263
ᏪᏒᎩ	-264
▁ᎤᏅ	-265
▁ᎦᏚ	-266
▁ᎤᏙᎯᏳᎯ	-267
▁ᎾᏂᎥ	-268
▁ᏗᎧᎿᏩᏛᏍᏗ	-269
ᏐᎢ	-270
▁ᏚᎾ	-271
▁ᎠᏍᎦᏯ	-272
▁ᏌᏉ	-273
ᏂᎩ	-274
ᎦᏔᎭ	-275
ᎷᏨ	-276
ᏔᏁ	-277
ᏤᎵᎦ	-278
▁ᏱᎨ	-279
ᏍᎦᏅ	-280
▁ᎡᎯ	-281
▁ᎢᏤ	-282
▁ᎤᏬ	-283
▁ᏄᏪᏎᎢ	-284
ᎢᏍᏗᏱ	-285
▁ᎤᏤᎵᎦ	-286
ᏏᎵ	-287
▁Ꭽ	-288
▁Ꮘ	-289
ᏍᎨᎢ	-290
▁ᎤᏚ	-291
ᏍᎪᎢ	-292
▁ᏅᏓᏳ	-293
ᏍᏓᏩᏗᏙᎯ	-294
ᏍᎬᎩ	-295
▁ᏕᏥ	-296
ᏗᏍᎩ	-297
▁ᏂᎬ	-298
▁ᏄᎵᏍ	-299
ᏓᏙᎵᏍᏗ	-300
▁ᎢᏧ	-301
ᎮᎢ	-302
ᏍᏚ	-303
ᏕᎸ	-304
ᏳᏉ	-305
ᏛᎩ	-306
ᎯᏍᏗᏱ	-307
▁ᎡᏥ	-308
▁ᏍᎩ	-309
ᏳᎪᏛ	-310
▁ᎬᏂᏳᏉ	-311
ᏓᏍᏗ	-312
ᎢᏳ	-313
ᏁᎸᎯ	-314
▁ᏥᏌᏃ	-315
ᏅᏟ	-316
▁ᏕᏣ	-317
ᎨᏴ	-318
ᏕᎩ	-319
ᏧᏏ	-320
ᎪᎸ	-321
▁ᎢᏳᎵᏍᏙᏗᏱ	-322
ᏲᎵ	-323
ᏔᏁᎢ	-324
ᏪᎵ	-325
ᏴᎵᎨ	-326
▁Ꮭ	-327
▁ᏗᏥ	-328
ᏁᏗᏱ	-329
ᏲᎯ	-330
▁[	-331
ᏬᏂ	-332
▁ᏗᏣ	-333
▁ᎤᏂᏣᏘ	-334
▁ᎤᎵᏍ	-335
▁ᎤᏓ	-336
ᏁᏤ	-337
ᏕᏲ	-338
▁ᏕᎦ	-339
▁ᎨᏎᎢ	-340
ᏗᎦ	-341
▁ᎤᎬᏩ	-342
ᎾᏛ	-343
ᏟᎶ	-344
▁ᏥᏂ	-345
ᎵᏏ	-346
ᏗᎭ	-347
ᏲᏎ	-348
▁ᎪᎯᏳ	-349
▁ᎤᏃ	-350
▁ᎠᏁᎯ	-351
▁ᏂᏥ	-352
ᎵᏰ	-353
▁ᏚᏳᎪᏛ	-354
ᏓᏡ	-355
▁Ꮹ	-356
ᏉᎳ	-357
▁ᎦᎵ	-358
▁ᎠᏂᏧᏏ	-359
ᏪᎳ	-360
▁ᏂᏣ	-361
▁ᏥᎪ	-362
▁ᏧᏓᎴᏅᏛ	-363
ᎰᎢ	-364
▁ᎤᏛ	-365
▁ᏔᎵᏁ	-366
ᎬᏫᏳᏒ	-367
▁ᎬᏩᏍᏓᏩᏗᏙᎯ	-368
▁ᎢᏧᎳ	-369
ᎸᏗ	-370
▁ᏥᎨ	-371
ᎪᎲ	-372
▁ᏓᏂ	-373
▁ᏣᏂ	-374
▁ᎤᎬᏩᎵ	-375
ᏁᏗ	-376
▁ᏧᏪ	-377
ᏓᏗ	-378
ᏙᎵ	-379
▁Ꮸ	-380
▁ᎣᎩ	-381
▁ᏂᏨ	-382
▁ᎤᏓᏅ	-383
▁ᏉᎳ	-384
▁ᎢᏳᎾ	-385
▁ᎨᏒᎩ	-386
ᏛᏃ	-387
ᏍᎬᎾ	-388
ᏯᏅ	-389
ᎳᏫᎢᏍᏗᏱ	-390
▁ᎦᎪ	-391
▁ᏈᏓ	-392
ᏁᎶᏗ	-393
▁ᎤᎵᏂᎩ	-394
ᎧᎵ	-395
ᎵᏥ	-396
▁ᏂᎪᎯ	-397
ᏌᏛ	-398
ᏍᎪᎯ	-399
ᎵᏲ	-400
ᎾᏫ	-401
▁Ꮫ	-402
ᎮᎵ	-403
▁ᏂᏚᏪᏎᎴᎢ	-404
ᏁᎭ	-405
ᏙᎴᎰᏍᎩ	-406
ᏅᏏᏛ	-407
▁ᏄᎾ	-408
▁ᏄᏪᏒᎩ	-409
▁ᎠᎹ	-410
▁ᎬᏗ	-411
▁ᎦᏙᏃ	-412
ᏅᏏᏓᏍᏗ	-413
▁ᎤᏙᎯᏳᎯᏯ	-414
ᎢᏍᏗ	-415
▁ᎢᎨ	-416
▁ᎤᏁᏨ	-417
ᏄᏬ	-418
ᏍᏙᏗᏱ	-419
▁ᏄᏪᏎᎴᎢ	-420
▁Ᏼ	-421
▁ᎤᏰᎸ	-422
▁ᎤᎩ	-423
▁ᏝᏍᎪ	-424
ᏁᎵ	-425
▁ᏥᎷ	-426
ᏒᏃ	-427
▁Ꮡ	-428
▁ᏱᏥ	-429
▁ᎤᏲᎱ	-430
ᎦᏘᏯ	-431
▁ᎠᏂᏍᎦ	-432
ᎪᎢ	-433
ᏏᎵᎻ	-434
ᎴᏅ	-435
ᎥᎢ	-436
ᏍᏙ	-437
ᏯᏛ	-438
ᎬᎩ	-439
ᏂᏴ	-440
▁ᏦᎢ	-441
▁ᎢᏧᎳᎭ	-442
▁ᏥᎷᏏᎵᎻ	-443
ᏉᏃ	-444
▁ᎩᎳ	-445
▁ᏗᎬᏩ	-446
ᎦᎸ	-447
▁ᎢᏳᏩᏂ	-448
▁ᎪᎯᏳᏗ	-449
ᎫᏴ	-450
ᎵᏍᎪᎸ	-451
▁Ꮖ	-452
▁ᎡᏍᎦ	-453
▁ᏣᎬᏫᏳᎯ	-454
▁ᎡᏣ	-455
▁ᎣᎦ	-456
ᏂᎬ	-457
▁ᎠᎨᏴ	-458
▁ᏂᏚᏪᏎᎸᎩ	-459
▁ᏙᏓ	-460
▁ᎤᏅᏒ	-461
▁ᎬᏂᏛ	-462
ᏗᏔ	-463
ᏪᏎᎸᎩ	-464
▁ᎠᏰᎵ	-465
▁ᏅᏩᏓᎴ	-466
▁ᎢᏯᏂ	-467
▁ᎾᏍᎩᏰᏃ	-468
ᎲᏍᎦ	-469
▁ᏄᏪᏎᎸᎩ	-470
ᎬᎾ	-471
ᏩᏘ	-472
ᏍᎩᎾ	-473
▁ᏗᏓ	-474
▁ᎠᎦᏔ	-475
▁ᎤᏣ	-476
ᏃᎯᏳ	-477
▁ᎠᎦᏴᎵᎨ	-478
ᏦᎯᏳ	-479
ᏍᏔᏅᎯ	-480
ᏪᏎᎭ	-481
▁ᏕᎤ	-482
▁ᏂᎦᏗᏳ	-483
▁ᎤᏓᏙᎵᏍᏗ	-484
▁ᏗᎨ	-485
▁ᏥᏄ	-486
ᎳᎩ	-487
▁ᎠᏫ	-488
▁ᏥᏚ	-489
▁ᎠᏕᎸ	-490
▁ᎤᏍᏗ	-491
▁ᏧᏪᏥ	-492
▁ᏅᏗᎦᎵᏍᏙᏗᎭ	-493
ᏓᏂᎸ	-494
▁ᏓᎾ	-495
▁ᎤᎾᏓᏅ	-496
▁ᎢᎸ	-497
ᏍᏕᏍᏗ	-498
▁ᏂᎦᏪ	-499
▁ᏧᎾᏓᎴᏅᏛ	-500
ᏍᏔᏅ	-501
▁ᎾᏍᎩᏯᎢ	-502
ᎵᏥᏙ	-503
▁ᎦᏰ	-504
ᎾᏄᎪᏫ	-505
▁ᏂᎪᎯᎸ	-506
ᎪᎩ	-507
ᎰᏩ	-508
ᏁᎯ	-509
▁ᎣᏂ	-510
▁ᏅᎩ	-511
▁ᎢᏯᏂᏛ	-512
ᎸᏫᏍᏓᏁᏗ	-513
ᏓᏁᏗ	-514
ᏓᏅᏟ	-515
ᏪᏎᎢ	-516
▁ᎤᏇ	-517
▁ᏱᏗ	-518
ᏟᏴ	-519
ᎪᎵᏰ	-520
ᏚᎵᏍ	-521
ᏙᎢ	-522
ᏛᎾ	-523
ᏛᏁᏗ	-524
▁ᎾᎥ	-525
▁ᏗᎾ	-526
▁ᎤᏍᏆᏂᎪ	-527
ᏃᎯ	-528
ᏨᎩ	-529
ᎪᏩᏛ	-530
▁ᏗᎩ	-531
▁ᏱᎦ	-532
▁ᏱᏂ	-533
ᏗᏍᎨᏍᏗ	-534
ᏐᏅ	-535
ᏒᎾ	-536
▁Ꮓ	-537
▁Ꮟ	-538
ᏛᎦᏅ	-539
ᏓᎸ	-540
ᏁᎸᎩ	-541
▁ᎤᎶ	-542
▁ᎦᏓ	-543
ᏍᎦᏅᏨ	-544
▁ᎢᏓᎵ	-545
ᏃᏅ	-546
▁ᎥᏝᏰᏃ	-547
ᎵᏛ	-548
▁ᏫᏚ	-549
▁ᎠᏏᏴᏫ	-550
ᎲᎦ	-551
ᏉᏍᎩᏂ	-552
ᎸᏉᏗ	-553
▁ᎢᎦᎢ	-554
▁ᎪᏪᎵ	-555
ᏁᎴᎢ	-556
ᏓᎴᏅᎯ	-557
▁ᎬᏩᎦᏘᏯ	-558
ᏠᏱ	-559
▁Ꮑ	-560
▁ᎧᏁ	-561
▁ᏥᏳ	-562
ᎨᎢ	-563
ᏤᎢ	-564
ᏥᏯ	-565
ᎵᎮᎵ	-566
ᏍᏛᎾ	-567
ᏔᏲᏎ	-568
ᏖᎸ	-569
▁ᎡᏆ	-570
ᏁᎴ	-571
ᎵᏅᏟ	-572
ᎶᎯᏍᏗᏱ	-573
▁ᏧᎾᏁᎶᏗ	-574
ᎾᏰ	-575
ᏲᎯᏎ	-576
▁ᏭᏂ	-577
▁ᎩᎶᏃ	-578
ᏐᏢ	-579
▁ᎠᏓᏁ	-580
▁ᎠᏲᎱ	-581
ᏍᎩᏂᏃᏅ	-582
ᎫᎪ	-583
▁ᎨᏣ	-584
▁ᎠᏂᎦᏔ	-585
▁ᏄᎬᏫᏳᏒ	-586
▁ᎢᏗ	-587
ᎬᏩᎶᏗ	-588
ᏁᎳᏅᎯ	-589
▁ᏂᏨᏪᏎᎭ	-590
▁ᎢᏳᏩᏂᏌᏛ	-591
▁ᎣᏥ	-592
▁ᎤᏇᏓᎵ	-593
▁ᏗᎧᎿᏩᏗᏙᎯ	-594
ᎾᏝ	-595
ᏍᏕᎸ	-596
▁ᎠᏰ	-597
▁ᎠᏍᏓ	-598
▁ᎡᏍᎦᏉ	-599
ᏑᏰ	-600
ᎪᏩᏘ	-601
ᏗᏍᏗ	-602
ᏛᏅᎢ	-603
ᏓᏅᏛᎢ	-604
ᏛᏁᏗᏱ	-605
▁ᎢᏓᎵᏅᏟ	-606
▁ᏱᏣ	-607
ᏓᏙᎵᏍᏓᏁ	-608
▁Ꮉ	-609
▁ᎠᏰᎸ	-610
▁ᎤᏂᏣ	-611
▁ᏅᏩᏙᎯ	-612
ᏌᏯ	-613
▁Ꮠ	-614
ᏕᏍᏗ	-615
ᏙᎢᏛ	-616
▁ᎤᎦ	-617
▁ᏥᏕ	-618
▁ᎤᎾᏓ	-619
ᏉᎩ	-620
ᏁᎶᎯ	-621
▁ᎤᎵᏂᎩᏛ	-622
ᎵᏙ	-623
ᏰᏂ	-624
▁ᏅᏯ	-625
▁ᎠᏍᎪᎯ	-626
▁ᏱᎨᏎᏍᏗ	-627
ᎳᏏ	-628
ᏅᏎ	-629
ᏯᏫ	-630
▁ᎢᎬᏩ	-631
▁ᎤᏚᎩ	-632
▁ᎦᎵᏉᎩ	-633
ᎸᏫᏍᏓᏁᎯ	-634
▁ᏗᎦᎸᏫᏍᏓᏁᏗ	-635
ᎵᎪ	-636
▁ᎦᏁ	-637
▁ᎦᏚᎲ	-638
ᎷᎩ	-639
ᎺᎵ	-640
ᏚᎵ	-641
ᏆᎵᏏ	-642
▁ᎠᏂᏔ	-643
▁ᎡᏙᏓ	-644
ᏗᏍᎬ	-645
▁ᏔᎳ	-646
▁ᏱᏚ	-647
▁ᎠᎵᏍ	-648
▁ᎤᏕᎵᏛ	-649
ᎴᎯ	-650
ᏁᏨ	-651
ᏅᏃ	-652
ᏓᏕ	-653
ᎩᎵᏲ	-654
▁ᎨᎵ	-655
▁ᏗᎪ	-656
▁ᎢᏗᏢ	-657
ᎵᏍᏓᏁᏗ	-658
▁ᎤᎵᏍᏆ	-659
▁ᏧᏙᎢᏛ	-660
▁ᎠᏂᏍᎦᏯ	-661
▁ᏧᎬᏩᎶᏗ	-662
▁ᏅᏩᏙᎯᏯᏛ	-663
ᎨᏳᏗ	-664
ᏩᏗᏒ	-665
▁ᎢᎨᏎᏍᏗ	-666
▁ᏄᏂᏪᏒᎩ	-667
ᎸᎭ	-668
▁ᏂᏗ	-669
▁ᎤᏁᎳᎩ	-670
▁ᏄᏂᏪᏎᎢ	-671
ᎾᏛᏁ	-672
ᏓᏅᏛ	-673
▁ᏓᎦ	-674
ᏍᏔᏅᎩ	-675
▁ᎠᏏᏉ	-676
▁ᎤᎷᏨ	-677
▁ᎢᎬᏱᏱ	-678
▁ᎤᎾᏓᏅᏘ	-679
▁ᎠᎾᏙᎴᎰᏍᎩ	-680
ᏩᏕ	-681
ᏂᏙᎯ	-682
▁ᎠᏇ	-683
▁ᏰᎵᏉ	-684
ᏂᏙ	-685
▁ᎠᏗ	-686
ᎠᏁᎶᎯ	-687
▁ᎦᎸᎶ	-688
▁ᏔᎳᏚ	-689
ᎵᏍᏙᏗᏱ	-690
▁ᎢᏳᏰᏃ	-691
▁ᎯᎠᏰᏃ	-692
ᏕᎾ	-693
▁ᎠᏋ	-694
▁ᎨᏎ	-695
ᎦᏴᎵᎨ	-696
ᏓᏍᏗᏱ	-697
▁ᎢᎸᎯᏳ	-698
▁ᏗᏂᎧᎿ	-699
▁ᏚᎸᏫᏍᏓᏁ	-700
ᏪᏎᎴᎢ	-701
▁ᏗᎦᎳᏫᎢᏍᏗᏱ	-702
ᏂᏆ	-703
ᏠᎾ	-704
ᏪᏒ	-705
▁Ᏺ	-706
▁ᎠᏂᏔᎵ	-707
ᎡᎵ	-708
ᎥᎩ	-709
ᎦᏛ	-710
ᎭᎻ	-711
ᏁᎶ	-712
ᏎᎵ	-713
ᏧᏈ	-714
ᏎᎸᎯ	-715
▁ᎢᎦᏛ	-716
▁ᏌᏩᏂ	-717
▁ᎤᎾᏓᏡ	-718
▁ᏄᎵᏍᏔᏅ	-719
ᎷᏥ	-720
ᏚᎢ	-721
▁Ꮌ	-722
▁ᏓᏓ	-723
▁ᏥᎦ	-724
▁ᏱᏅ	-725
ᏕᎸᏙᏗ	-726
▁ᎡᎳᏗ	-727
▁ᎢᏏᎵ	-728
▁ᏄᏂᎬᏫᏳᏒ	-729
ᎾᏄᎪ	-730
▁ᏱᎰᏩ	-731
▁ᎡᏆᎭᎻ	-732
▁ᏅᏓᏳᏓᎴᏅᎯ	-733
ᎴᏗ	-734
ᎳᏗᏙ	-735
ᎴᏍᏗ	-736
▁ᎦᏓᎭ	-737
▁ᎨᎵᎵ	-738
▁ᏥᎨᏒ	-739
▁ᎠᏍᎦᏂ	-740
▁ᎤᏍᏆᏂᎪᏗ	-741
ᎨᎶᎯ	-742
ᏍᏔᏂ	-743
ᏛᏁᎸ	-744
▁ᎤᏥ	-745
ᎬᏫᏳᏌ	-746
ᎸᏉᏗᏳ	-747
ᏲᎱᏒᎯ	-748
▁ᏚᏙᎥ	-749
▁ᎢᎦᏤᎵ	-750
▁ᎤᎾᏤᎵ	-751
▁ᎠᏂᏆᎵᏏ	-752
▁ᎤᎾᏤᎵᎦ	-753
ᏌᏗ	-754
ᏙᏓᏆ	-755
▁ᎥᎩ	-756
▁ᎼᏏ	-757
▁ᏧᏓ	-758
ᏍᏓᏩᏛ	-759
▁ᎥᏝᏃ	-760
▁ᏂᎬᏩ	-761
▁ᏱᎨᏎᎢ	-762
▁ᏗᏂᎧᎿᏩᏗᏙᎯ	-763
ᏛᏅ	-764
ᏪᎭ	-765
ᎲᏍᎬ	-766
ᏍᎦᎢ	-767
▁ᎠᎪ	-768
▁ᎣᏣ	-769
ᎸᏃ	-770
▁Ꭾ	-771
ᎾᏓᎴ	-772
▁ᎪᏪ	-773
▁ᎢᏯᎦ	-774
▁ᎤᏂᏲ	-775
ᏓᏅᏖᏍᎬ	-776
▁ᎠᏙᎴᎰᏍᎩ	-777
ᎴᏃ	-778
▁Ꮨ	-779
ᏍᏛᎢ	-780
▁ᏕᎨ	-781
▁ᏫᏥ	-782
▁ᏗᎨᏥ	-783
ᏕᏲᎲᏍᎩ	-784
ᏗᎦᎳᏫᎢᏍᏗᏱ	-785
ᏁᏃ	-786
ᏫᏂ	-787
ᎵᏍᏙ	-788
ᏍᏔᏁ	-789
▁ᎨᎦ	-790
▁ᎬᎩ	-791
▁ᎠᏎᏉ	-792
▁ᎦᏙᎯ	-793
▁ᎢᏦᎯᏳ	-794
▁ᏂᎯᏍᎩᏂ	-795
ᏕᏘ	-796
ᎨᏳᎢ	-797
ᏍᎩᏃ	-798
ᏍᏆᎸ	-799
▁ᎠᏛ	-800
▁ᎾᎩ	-801
▁ᎤᎾᎵ	-802
▁ᎠᏲᎱᎯᏍᏗ	-803
ᎵᎩ	-804
ᎾᎦ	-805
ᎳᏍᏗ	-806
ᏲᏪᎳ	-807
ᏢᏔᏅᎯ	-808
▁ᎦᏬᏂ	-809
ᎵᏍᏓᏴᏗ	-810
▁ᏂᎦᏛᏃ	-811
▁ᏅᏓᎬᏩ	-812
ᎬᏫᏳᏌᏕᎩ	-813
ᎵᏍᏓᏴᏗᏱ	-814
ᎶᏂ	-815
▁Ꮗ	-816
ᎦᏔᎲ	-817
ᎾᏝᎢ	-818
ᏅᏒᎩ	-819
ᏓᎴᏒ	-820
ᏓᎵᎢ	-821
▁ᎠᏤ	-822
▁ᎡᏙ	-823
▁ᎤᏗ	-824
▁ᏗᏆ	-825
▁ᏱᏄ	-826
▁ᎢᏨᏒ	-827
▁ᎭᏫᏂ	-828
▁ᎾᎿᏃ	-829
▁ᎾᏂᏪ	-830
▁ᎢᏯᎦᏴᎵ	-831
ᎥᎾ	-832
ᎵᏱ	-833
ᏳᎳ	-834
▁Ꮀ	-835
▁ᎢᎾ	-836
▁ᏥᏥ	-837
▁ᏧᏁ	-838
ᎦᎵᏍᏓ	-839
▁ᏂᎬᏅ	-840
▁ᏄᏍᏗ	-841
▁ᎠᏍᎩᎾ	-842
▁ᎩᎳᏉᏃ	-843
ᏔᎳ	-844
ᎦᏙᎥ	-845
▁ᎺᎵ	-846
▁ᏂᏕ	-847
▁ᏓᏳ	-848
ᏁᎢᏍᏗ	-849
▁ᎤᏁᏤ	-850
▁ᎦᏳᎳ	-851
▁ᎾᏍᎩᏍᎩᏂ	-852
ᏁᎲ	-853
ᏌᎳ	-854
▁ᏕᏫ	-855
▁ᏱᏙ	-856
ᎵᏍᏔᏅ	-857
ᏍᏔᏁᎢ	-858
ᏓᏅᏓᏗ	-859
ᏗᏍᎬᎢ	-860
ᏩᏗᏒᎢ	-861
▁ᎤᏚᎵᏍ	-862
▁ᎠᏓᎨᏳᏗ	-863
▁ᎠᎦᏴᎵᎨᎢ	-864
▁ᎤᎵᏂᎩᏗᏳ	-865
ᎾᎢ	-866
ᏃᎩ	-867
ᏎᎭ	-868
▁ᏧᏬ	-869
▁ᎠᏃᎯᏳ	-870
▁ᎠᏍᏓᏯ	-871
ᏓᏛ	-872
ᏠᏯ	-873
ᏴᎯ	-874
▁ᎦᏥ	-875
▁ᏗᏃ	-876
▁ᏥᏯ	-877
ᏗᏔᏍᏗ	-878
▁ᎤᎵᏏ	-879
▁ᎤᎷᏤ	-880
▁ᎤᏙᏓ	-881
ᎲᏍᎨᏍᏗ	-882
▁ᎠᎾᎵᏅᏟ	-883
▁ᎤᏂᏍᏆᏂᎪ	-884
ᎦᎨ	-885
ᎰᎵ	-886
ᏂᏏ	-887
ᏐᏗ	-888
ᏏᏴᏫ	-889
▁ᏓᏥ	-890
▁ᎤᏠᏱ	-891
▁ᎤᏃᎯᏳ	-892
▁ᎠᏂᏍᎩᎾ	-893
ᏎᏗ	-894
ᏯᎢ	-895
ᏴᎩ	-896
ᏅᎯᏛ	-897
ᏔᎳᏬ	-898
▁ᎠᎺ	-899
▁ᎤᏴ	-900
▁ᎦᏃ	-901
▁ᎾᏆ	-902
▁ᏓᏆ	-903
ᎦᏔᎲᎾ	-904
ᏏᏴᏫᎭ	-905
ᏘᏂᏙᎯ	-906
▁ᎠᏁᎲ	-907
▁ᎨᏐᎢ	-908
ᏛᏁᎮᏍᏗ	-909
ᎦᎵ	-910
ᎶᏄ	-911
▁Ᏸ	-912
ᏍᎦᏯ	-913
▁ᎢᎳ	-914
▁ᏓᎩ	-915
▁ᏗᏤ	-916
▁ᏱᏓ	-917
ᎵᏍᏙᏗ	-918
ᏪᎵᏍᎩ	-919
▁ᎠᎦᏘ	-920
▁ᎢᏳᏩ	-921
▁ᎦᏍᎩ	-922
▁ᏧᏤᎵ	-923
▁ᎢᎦᏛᏃ	-924
▁ᎦᎶᎯᏍᏗᏱ	-925
ᎶᏛ	-926
ᎿᎢ	-927
ᏌᏂ	-928
ᏰᎯ	-929
ᏁᎸᎢ	-930
ᏁᏟᏴ	-931
ᏐᏗᏱ	-932
▁ᎤᎷ	-933
▁ᏗᎫᎪ	-934
▁ᏥᏳᎯ	-935
▁ᏅᏩᎾᏓᎴ	-936
▁ᏧᏂᏲᎱᏒᎯ	-937
▁ᎠᏃᎯᏳᎲᏍᎩ	-938
ᎨᏫ	-939
ᏍᏕᎵ	-940
ᏢᏅᎯ	-941
▁ᎠᏲ	-942
▁ᎢᏓ	-943
▁ᏐᎢ	-944
ᏍᏕᎸᏗ	-945
▁ᎤᎧᎵ	-946
▁ᏆᎴᏗ	-947
▁ᎠᏂᎨᏴ	-948
▁ᎤᏂᎷᏤ	-949
▁ᎦᏰᎪᎩ	-950
▁ᏥᎨᏒᎩ	-951
▁ᏂᎦᎵᏍᏗ	-952
ᎸᏫᏍᏓᏁᏗᏱ	-953
ᎡᏗ	-954
ᏁᏉ	-955
▁Ꮼ	-956
ᎦᏌᏯ	-957
ᏍᏚᎢ	-958
ᏒᏃᏱ	-959
▁ᎡᎳ	-960
▁ᏑᎾ	-961
▁ᏒᏃᏱ	-962
▁ᎤᏓᏅᏘ	-963
▁ᎦᎸᎶᎢ	-964
▁ᎬᏩᎷᏤ	-965
▁ᎢᎬᏱᏗᏢ	-966
▁ᏄᎵᏍᏔᏁᎢ	-967
ᏉᎯ	-968
ᏍᎫ	-969
▁Ꮰ	-970
ᏟᎶᏛ	-971
▁ᎠᎬ	-972
▁ᏗᎧ	-973
▁ᏧᏃ	-974
▁ᏭᎶ	-975
ᎲᏍᎬᎢ	-976
ᏍᏗᏍᎩ	-977
▁ᎬᏩᏂ	-978
▁ᎢᏳᏍᎩᏂ	-979
▁ᎤᎾᏛᎦᏅ	-980
▁ᎤᏁᎳᏅᎯᏰᏃ	-981
ᎴᏂ	-982
ᏅᏒ	-983
ᏛᎯ	-984
ᏛᏂ	-985
▁"	-986
ᏑᏰᏛ	-987
ᏛᏁᎢ	-988
▁ᎥᎥ	-989
▁ᏗᎬ	-990
▁ᎤᏄᎪ	-991
▁ᏕᎬᏩ	-992
▁ᎤᏙᎴᎰ	-993
▁ᏥᎨᏎᎢ	-994
ᎸᏫᏍᏓᏁᎲ	-995
▁ᎤᎾᏓᏡᎬ	-996
▁ᎤᎾᏙᏓᏆ	-997
▁ᎤᏤᎵᎪᎯ	-998
ᎡᎢ	-999
ᏕᏂ	-1000
ᎵᏍᎦ	-1001
ᎶᏒᎯ	-1002
ᎷᏨᎭ	-1003
ᏚᏓᎴ	-1004
ᏁᎮᏍᏗ	-1005
ᏅᏍᏗᏱ	-1006
ᏍᎦᏅᎾ	-1007
▁ᎠᏋᏒ	-1008
▁ᎤᏂᎩ	-1009
▁ᏕᎨᏥ	-1010
ᎦᎵᏍᏙᏓ	-1011
ᎪᏩᏛᏗᏱ	-1012
▁ᎠᎺᏉᎯ	-1013
▁ᎤᏓᎵᎢ	-1014
▁ᎤᏓᏅᏖ	-1015
▁ᎤᏲᎢᏳ	-1016
▁ᏄᏓᎴᏒ	-1017
▁ᎢᏳᎾᏍᏗ	-1018
▁ᎤᏂᎬᏫᏳᎯ	-1019
ᎴᏛ	-1020
ᎵᏯ	-1021
ᎾᏓ	-1022
ᏎᎸ	-1023
ᏙᏂ	-1024
ᏯᏔ	-1025
ᏯᏙ	-1026
▁Ꮞ	-1027
ᎤᏍᏕ	-1028
ᎥᏍᎩ	-1029
ᎧᎵᎢ	-1030
ᎪᏓᏁ	-1031
ᎿᏕᎩ	-1032
ᏉᎯᏳ	-1033
ᏬᎯᏳ	-1034
ᏰᎸᎭ	-1035
ᏰᎸᎯ	-1036
▁ᎠᏃ	-1037
▁ᎡᎩ	-1038
▁ᎡᎺ	-1039
▁ᎤᎪ	-1040
▁ᎤᏢ	-1041
▁ᎩᎬ	-1042
▁ᏂᏓ	-1043
▁ᏚᏃ	-1044
▁ᏫᎾ	-1045
ᏠᎾᏍᏗ	-1046
▁ᎯᏍᎩ	-1047
ᏍᏕᎸᏗᏱ	-1048
▁ᏔᏕᏲᎲᏍᎩ	-1049
ᏰᎢ	-1050
▁(	-1051
ᏍᎦᎩ	-1052
ᏩᏛᎲ	-1053
▁ᎠᎵ	-1054
▁ᏨᏒ	-1055
ᏕᏘᏴᏛ	-1056
▁ᎠᏲᎵ	-1057
▁ᎡᎺᏅ	-1058
▁ᎢᎪᎯ	-1059
▁ᎤᎪᎲ	-1060
▁ᎤᎴᏅ	-1061
▁ᎩᎦᎨ	-1062
ᏙᎥᎯᏍᏗ	-1063
▁ᎠᏓᏁᎸ	-1064
▁ᎤᏂᏃᎮ	-1065
▁ᏂᎬᎾᏛ	-1066
▁ᎨᏥᏅᏏᏛ	-1067
ᎲᏏ	-1068
▁Ꭻ	-1069
ᏍᏗᏰ	-1070
ᏩᎾᎦ	-1071
ᏯᏅᎲ	-1072
▁ᎠᏯ	-1073
▁ᏚᏅ	-1074
ᎨᏳᎯᏳ	-1075
ᎯᏍᏙᏗ	-1076
▁ᎠᎩᎾ	-1077
▁ᎠᏗᎾ	-1078
▁ᎦᎵᏦ	-1079
▁ᏗᎨᏒ	-1080
▁ᎢᎪᎯᏛ	-1081
▁ᎤᎾᏄᎪᏫ	-1082
ᎦᎵᏍᏙᏗᏍᎬᎩ	-1083
ᎿᏩ	-1084
ᏓᏓ	-1085
ᏲᏏ	-1086
ᎸᎯᏢ	-1087
▁ᎦᏅ	-1088
▁ᏫᎦ	-1089
▁ᏫᏂ	-1090
▁ᏯᎩ	-1091
ᎳᏏᏕᏂ	-1092
▁ᎤᏛᏅ	-1093
▁ᏥᏂᎬ	-1094
▁ᏧᏗᏱ	-1095
ᏍᎦᏅᏨᎢ	-1096
▁ᎠᏂᏯᏫ	-1097
▁ᎢᎸᎯᏢ	-1098
▁ᎤᏲᎱᏒ	-1099
▁ᎢᏳᎵᏍᏙᏗ	-1100
ᏁᎬ	-1101
ᎨᏳᎯ	-1102
ᏔᏂᏙ	-1103
ᏛᏁᎯ	-1104
ᏲᏎᎭ	-1105
▁ᏗᏨ	-1106
▁ᎤᎩᏨ	-1107
▁ᎤᏂᏴ	-1108
▁ᏄᏪᏒ	-1109
▁ᏗᎨᎦ	-1110
▁ᏗᏓᎴ	-1111
▁ᏥᏂᎦ	-1112
▁ᎠᏂᏐᎢ	-1113
▁ᏅᏓᎬᏩᏓᎴᏅᏛ	-1114
▁ᏅᏗᎦᎵᏍᏙᏗᏍᎨᏍᏗ	-1115
ᎨᏏ	-1116
ᏈᏗ	-1117
ᏌᏅ	-1118
ᏏᏱ	-1119
ᏒᎭ	-1120
ᎳᏍᏓ	-1121
ᏛᏁᎵ	-1122
▁ᏅᏙ	-1123
▁ᏓᏁ	-1124
▁ᏙᏗ	-1125
ᏎᎮᏍᏗ	-1126
▁ᎤᏐᏅ	-1127
▁ᏧᏤᎵᎦ	-1128
ᎵᏍᎪᎸᏔᏅᎯ	-1129
▁ᏗᏃᏪᎵᏍᎩ	-1130
ᏚᎲ	-1131
ᎪᏗᏱ	-1132
ᎶᏄᎮ	-1133
ᏚᎵᎭ	-1134
▁ᏣᎦ	-1135
▁ᏱᏨ	-1136
ᎮᎵᏍᏗ	-1137
ᏓᏁᎸᎯ	-1138
▁ᎢᎾᎨ	-1139
▁ᎩᎳᏉ	-1140
▁ᏚᏁᏤ	-1141
▁ᎠᏁᎲᎢ	-1142
ᎵᏍᏕᎸᏙᏗ	-1143
▁ᎢᏳᏟᎶᏛ	-1144
▁ᎤᎾᏙᏓᏆᏍᎬ	-1145
ᏛᏛ	-1146
ᏬᏁ	-1147
▁Ꮱ	-1148
ᎡᏗᏱ	-1149
ᏅᏌᏗ	-1150
ᏒᏍᏗ	-1151
ᏯᏅᏛ	-1152
ᏯᏙᏗ	-1153
▁ᎠᏅ	-1154
▁ᎡᏗ	-1155
▁ᏚᏪ	-1156
▁ᏥᏓ	-1157
▁ᏫᏨ	-1158
ᏍᏚᏗᏱ	-1159
▁ᎡᎶᏛ	-1160
▁ᎤᏓᏙ	-1161
▁ᏫᎬᏩ	-1162
▁ᎤᏂᏰᎸ	-1163
▁ᎦᏚᎲᎢ	-1164
▁ᎠᏍᎪᎯᏧᏈ	-1165
▁ᎾᏍᏉᏍᎩᏂ	-1166
▁ᎠᎦᏙᎥᎯᏍᏗ	-1167
▁ᏧᏂᎸᏫᏍᏓᏁᎯ	-1168
ᎡᎸ	-1169
ᏒᏂ	-1170
ᎴᎲᎦ	-1171
ᎾᏫᏱ	-1172
ᏁᏍᏗ	-1173
ᏃᎮᎭ	-1174
ᏳᎪᏗ	-1175
▁ᎡᎭ	-1176
▁ᎾᏥ	-1177
▁ᏕᎯ	-1178
▁ᏤᏥ	-1179
ᎴᎯᏐᏗ	-1180
ᏃᎮᏍᎩ	-1181
ᏗᏍᏗᏱ	-1182
▁ᏂᏥᎥ	-1183
▁ᏈᎵᎩ	-1184
▁ᏈᏓᏃ	-1185
ᏬᏂᎯᏍᏗ	-1186
▁ᎤᏓᏅᏙ	-1187
▁ᎤᏛᎦᏅ	-1188
▁ᏄᏪᏎᎴ	-1189
▁ᎠᎦᏔᎲᎢ	-1190
▁ᎤᎵᏍᏆᎸᏗ	-1191
▁ᎢᏣᎵᏍᏓᏁᏗ	-1192
▁ᎤᏁᎳᏅᎯᏍᎩᏂ	-1193
▁ᏅᏓᎦᎵᏍᏙᏗᏍᎬᎩ	-1194
ᏓᎳ	-1195
ᏕᎵ	-1196
ᏣᏓ	-1197
ᏣᏗ	-1198
ᏥᎪ	-1199
ᏫᏛ	-1200
ᎷᏨᎩ	-1201
ᏎᏗᏱ	-1202
▁ᎨᏐ	-1203
▁ᏓᏰ	-1204
▁ᏥᎻ	-1205
▁ᏥᏁ	-1206
▁ᏦᎩ	-1207
ᏛᎦᏅᎩ	-1208
▁ᎠᏇᏥ	-1209
▁ᎤᏂᏃ	-1210
▁ᎤᏍᏆ	-1211
▁ᎤᏪᎷ	-1212
▁ᎧᏁᎬ	-1213
▁ᎤᏂᏣᏖ	-1214
▁ᎾᎾᏛᏁ	-1215
▁ᏗᏓᏍᏚᏗᏱ	-1216
ᏁᎫ	-1217
ᏏᏛ	-1218
ᏚᎸ	-1219
ᏤᎸ	-1220
ᏍᏓᏩ	-1221
ᏎᎪᎩ	-1222
ᏓᎴᎩ	-1223
▁ᏏᏌ	-1224
▁ᏤᎦ	-1225
▁ᏥᏅ	-1226
▁ᏱᎬ	-1227
ᎶᎯᏍᏗ	-1228
ᎷᏤᏗᏱ	-1229
▁ᏌᏉᏉ	-1230
ᎠᏗᏔᏍᏗ	-1231
▁ᎦᎸᏉᏗ	-1232
▁ᏗᏂᏲᎵ	-1233
▁ᎤᎾᏙᎴᎰ	-1234
▁ᎩᎶᏍᎩᏂ	-1235
▁ᏫᎾᏍᏛᎾ	-1236
▁ᏱᏥᎦᏔᎭ	-1237
."	-1238
ᎩᏏ	-1239
ᏃᏛ	-1240
ᏄᏩ	-1241
ᏅᎾ	-1242
ᏙᎾ	-1243
ᏥᏴ	-1244
ᎦᏙᎵ	-1245
ᎲᏍᎨ	-1246
ᎵᏰᎢ	-1247
ᎾᏍᎩ	-1248
ᏛᏁᎭ	-1249
▁ᏭᏴ	-1250
ᏅᎢᏍᏗ	-1251
ᏍᏓᏩᏕ	-1252
ᏍᏕᎸᎯ	-1253
ᏙᎮᏍᏗ	-1254
▁ᏄᏛᏁ	-1255
▁ᎾᏍᎩᏉ	-1256
▁ᏥᎦᏔᎭ	-1257
▁ᎠᏥᎸᏉᏗᏳ	-1258
▁ᎬᏩᏍᏓᏩᏗᏙᎯᏃ	-1259
ᎧᏂ	-1260
ᎶᏆ	-1261
ᎾᎵ	-1262
ᏁᎰ	-1263
ᏈᎵ	-1264
ᏕᎰ	-1265
ᏥᏛ	-1266
ᏫᏒ	-1267
ᏎᎴᎢ	-1268
ᏓᎸᎢ	-1269
ᏓᏁᎸ	-1270
▁ᎰᏩ	-1271
▁ᏅᏧ	-1272
▁ᏖᎸ	-1273
ᎪᏩᏛᏗ	-1274
ᏆᏗᏍᎩ	-1275
▁ᎠᎾᏓ	-1276
▁ᏥᎨᏐ	-1277
▁ᏱᎨᏎ	-1278
▁ᎠᏎᏉᏉ	-1279
▁ᎤᏰᎸᏗ	-1280
▁ᎩᎶᏰᏃ	-1281
▁ᎬᏔᏅᎯ	-1282
▁ᏔᎵᏁᏃ	-1283
▁ᏖᎸᎳᏗ	-1284
▁ᏥᎨᏐᎢ	-1285
▁ᎤᏂᏣᏘᏃ	-1286
▁ᎬᏂᏳᏉᏃ	-1287
▁ᏄᎵᏍᏔᏅᎩ	-1288
▁ᏚᏂᎸᏫᏍᏓᏁ	-1289
ᎩᏳ	-1290
ᎬᎦ	-1291
ᎭᎷ	-1292
ᎿᏕ	-1293
ᏑᎶ	-1294
ᏔᏲ	-1295
ᏥᏙ	-1296
ᏯᏂ	-1297
ᎡᏍᏗ	-1298
ᎳᏫᎩ	-1299
ᎶᏂᎨ	-1300
ᏍᎪᎵ	-1301
▁ᎢᎪ	-1302
▁ᎭᏢ	-1303
▁ᏄᏩ	-1304
▁ᏙᏱ	-1305
▁ᏣᏓ	-1306
▁ᏫᏗ	-1307
ᎲᏍᎬᎾ	-1308
ᏓᏂᎸᎢ	-1309
ᏛᎦᏅᎯ	-1310
ᏩᎾᎦᎳ	-1311
ᏳᎪᏛᎾ	-1312
▁ᎾᎿᏂ	-1313
▁ᏂᎯᏃ	-1314
▁ᏠᎨᏏ	-1315
ᏃᎮᏍᎬᎢ	-1316
ᏍᏕᎵᏍᎩ	-1317
▁ᎠᎦᏘᏏ	-1318
▁ᎤᏃᏕᎾ	-1319
▁ᏥᎪᏪᎳ	-1320
ᏔᎳᏬᎯᏍᏗ	-1321
▁ᎠᏴᏍᎩᏂ	-1322
▁ᎤᏕᏁᎴᎢ	-1323
▁ᎭᏫᏂᏗᏢ	-1324
▁ᏗᎾᏓᏅᏟ	-1325
▁ᏅᏗᎦᎵᏍᏙᏗᏍᎬ	-1326
ᎨᎳ	-1327
ᏂᏗ	-1328
ᏠᎯ	-1329
▁Ꮾ	-1330
ᏍᏗᎭ	-1331
ᏔᏅᎢ	-1332
ᏕᎶᏆ	-1333
▁ᎤᎴ	-1334
▁ᏂᎨ	-1335
▁ᏣᏥ	-1336
▁ᏦᏩ	-1337
▁ᏫᏄ	-1338
ᎧᎿᏩᏗ	-1339
▁ᎠᏁᏙ	-1340
▁ᎢᎾᏛ	-1341
▁ᏍᎩᏯ	-1342
▁ᏕᏣᏓ	-1343
▁ᎠᏤᎵᏍ	-1344
▁ᎤᏰᎸᏛ	-1345
▁ᎬᏗᏍᎬ	-1346
▁ᏗᎬᏩᏂ	-1347
▁ᎤᏣᏔᏅᎯ	-1348
▁ᎤᏲᎱᏒᎯ	-1349
▁ᎠᏂᏯᏫᏍᎩ	-1350
▁ᎾᏂᏪᏍᎨᎢ	-1351
▁ᏂᏚᏳᎪᏛᎾ	-1352
ᎦᏓ	-1353
ᎧᏅ	-1354
ᎩᏨ	-1355
ᏍᎪᏂ	-1356
ᏎᎸᎩ	-1357
ᏜᏏᏛ	-1358
ᏟᏂᎬ	-1359
▁ᎤᎸ	-1360
▁ᎤᎿ	-1361
ᏚᎵᏍᎬ	-1362
▁ᎤᎦᏔ	-1363
▁ᏎᏓᏂ	-1364
▁ᏓᏕᏲ	-1365
ᎨᏳᏎᏍᏗ	-1366
▁ᎠᏴᏰᏃ	-1367
▁ᎤᏣᏘᏂ	-1368
▁ᎤᏬᎯᏳ	-1369
▁ᏥᏂᎬᏅ	-1370
ᎸᏫᏍᏓᏁᎭ	-1371
▁ᎠᎵᏍᏓᏴᏗ	-1372
ᎥᏂ	-1373
ᏕᎢ	-1374
ᏚᎦ	-1375
ᏢᏈ	-1376
ᎵᎡᎵ	-1377
ᎵᏂᎩ	-1378
ᏂᏆᏘ	-1379
ᏂᏗᏳ	-1380
ᏖᎵᏙ	-1381
▁ᎦᏛ	-1382
▁ᏣᎾ	-1383
▁ᏥᎾ	-1384
▁ᏥᏣ	-1385
▁ᏥᏫ	-1386
▁ᏬᎩ	-1387
ᏅᏏᏙᎯ	-1388
ᏍᏓᏩᏗ	-1389
▁ᎤᎾᏛ	-1390
▁ᎤᏁᎷ	-1391
▁ᏦᎢᏁ	-1392
▁ᏱᏗᏥ	-1393
▁ᏴᏫᏉ	-1394
▁ᎠᏰᎸᎢ	-1395
▁ᎢᎸᏍᎩ	-1396
▁ᎤᎾᏄᎪ	-1397
ᏓᏅᏖᏍᎬᎢ	-1398
▁ᎢᏥᏍᎦᏯ	-1399
▁ᏄᏍᏕᏍᏗ	-1400
ᏗᎦᎵᏍᏙᏗᎭ	-1401
ᎦᏯ	-1402
ᎧᏁ	-1403
ᎩᎯ	-1404
ᏏᏔ	-1405
ᏛᏗ	-1406
ᏢᎩ	-1407
ᏱᎵ	-1408
ᎵᏃᎮ	-1409
ᏁᎲᎢ	-1410
ᏩᏛᎮ	-1411
▁ᏄᏅ	-1412
▁ᎠᎰᎵ	-1413
▁ᎠᏄᏬ	-1414
▁ᎢᎳᏯ	-1415
▁ᎢᏳᏅ	-1416
▁ᎤᎾᏁ	-1417
▁ᎦᏁᎸ	-1418
▁ᎬᏃᏛ	-1419
▁ᏅᎬᏩ	-1420
▁ᏣᏁᎭ	-1421
▁ᏧᏓᏏ	-1422
ᏗᎦᏅᏌᏗ	-1423
▁ᎠᏆᏤᎵ	-1424
▁ᎢᏣᏓᏅ	-1425
▁ᎤᏂᎪᎲ	-1426
▁ᎤᏩᏒᏉ	-1427
▁ᎤᎧᎵᏨᎯ	-1428
▁ᏅᏩᏓᎴᏃ	-1429
▁ᎤᎬᏫᏳᎯᏃ	-1430
▁ᏧᏅᏏᏓᏍᏗ	-1431
,]	-1432
ᎨᏛ	-1433
ᎯᎯ	-1434
ᏚᎩ	-1435
ᏟᏌ	-1436
ᏯᎠ	-1437
ᏰᎩ	-1438
ᎪᎲᎩ	-1439
ᎵᏂᎪ	-1440
ᏉᏰᏃ	-1441
ᏍᏓᏱ	-1442
ᏍᏛᏗ	-1443
ᏙᎵᎩ	-1444
▁ᎠᎢ	-1445
▁ᎤᎬ	-1446
▁ᎾᏃ	-1447
▁ᏚᏓ	-1448
▁ᏤᎭ	-1449
▁ᏳᏂ	-1450
ᏰᎳᏗᏙ	-1451
ᏲᏪᎳᏏ	-1452
▁ᎠᏴᏃ	-1453
▁ᎢᏣᏓ	-1454
▁ᎢᏤᎲ	-1455
▁ᎢᏨᏯ	-1456
▁ᎤᏛᎾ	-1457
ᎦᏴᎵᎨᎢ	-1458
ᏍᎦᏅᏨᎯ	-1459
▁ᎠᏍᏓᏱ	-1460
▁ᎤᎴᏅᎮ	-1461
▁ᎤᎷᏨᎩ	-1462
▁ᎦᏁᎸᎢ	-1463
▁ᏂᎦᏪᎭ	-1464
▁ᏚᎾᏓᏡ	-1465
▁ᏥᏄᏍᏗ	-1466
▁ᎢᏥᎦᏔᎭ	-1467
▁ᎤᏙᎴᎰᏒ	-1468
▁ᏂᎪᎯᎸᎢ	-1469
▁ᎢᏣᏛᏁᏗᏱ	-1470
▁ᎢᏣᏓᏙᎵᏍᏗ	-1471
▁ᏂᎬᏩᏪᏎᎴᎢ	-1472
▁ᏅᎬᏩᏪᏎᎸᎩ	-1473
▁ᏗᎵᏍᏓᏴᏗᏱ	-1474
▁ᏅᏗᎦᎵᏍᏙᏗᏍᎨ	-1475
ᎡᎯ	-1476
ᎬᏂ	-1477
ᏈᏏ	-1478
ᏏᏗ	-1479
ᏘᏃ	-1480
ᏢᏅ	-1481
ᎵᎥᏂ	-1482
ᏁᏍᎨ	-1483
ᏅᏗᏱ	-1484
ᏛᏁᎲ	-1485
ᏢᏔᏅ	-1486
ᏤᎵᏛ	-1487
ᏰᎸᎢ	-1488
▁ᎥᏆ	-1489
▁ᏄᏪ	-1490
▁ᏅᏛ	-1491
▁ᏙᎯ	-1492
▁ᏧᏩ	-1493
▁ᏴᎦ	-1494
ᏓᏁᏗᏱ	-1495
▁ᎡᎳᏪ	-1496
▁ᎤᏁᏉ	-1497
▁ᎤᏪᎵ	-1498
▁ᎦᏥᏯ	-1499
▁ᎾᏎᎵ	-1500
ᎵᏍᎦᏍᏙ	-1501
▁ᎢᏥᎦᏔ	-1502
▁ᎤᏟᎯᏳ	-1503
▁ᎾᎯᏳᏃ	-1504
▁ᏔᎴᎲᎦ	-1505
ᎤᏍᏕᏎᎸᎯ	-1506
ᏟᎶᏍᏔᏅᎯ	-1507
▁ᎠᏰᎳᏍᏗ	-1508
▁ᎤᎵᏍᎪᎸ	-1509
▁ᏗᏂᎳᏫᎩ	-1510
▁ᎠᏂᏏᏴᏫᎭ	-1511
▁ᏄᎵᏍᏔᏂᏙ	-1512
▁ᏱᎦᎵᏍᏙᏓ	-1513
▁ᎤᏔᎳᏬᎯᏍᏗ	-1514
ᎥᎯ	-1515
ᏈᏱ	-1516
ᏍᏘ	-1517
ᏎᏃ	-1518
ᏗᏂ	-1519
ᏘᏅ	-1520
ᏤᎭ	-1521
ᏪᏏ	-1522
ᏪᏛ	-1523
ᎶᏎᎢ	-1524
ᏃᎮᎮ	-1525
ᏃᎲᏏ	-1526
ᏅᏃᏛ	-1527
ᏍᎫᏕ	-1528
ᏲᎢᏳ	-1529
▁ᎢᎤ	-1530
▁ᎤᏄ	-1531
▁ᎬᏅ	-1532
▁ᏓᎬ	-1533
▁ᏕᎪ	-1534
▁ᏡᎬ	-1535
▁ᏤᏣ	-1536
▁ᏧᎦ	-1537
▁ᏧᏭ	-1538
▁ᏯᏆ	-1539
ᎲᏍᎨᎢ	-1540
ᏓᏁᏟᏴ	-1541
ᏡᏗᏍᎩ	-1542
▁ᎠᎫᏴ	-1543
▁ᎠᎹᏟ	-1544
▁ᎠᏣᏗ	-1545
▁ᎧᏃᎯ	-1546
▁ᎬᏩᎾ	-1547
ᏯᏔᎮᏍᏗ	-1548
▁ᎠᏓᏁᎯ	-1549
▁ᎦᎷᏨᎭ	-1550
▁ᏕᎤᏙᎥ	-1551
ᏍᏗᏍᎨᏍᏗ	-1552
▁ᎦᎸᏉᏙᏗ	-1553
▁ᎨᏥᎸᏉᏗ	-1554
▁ᎠᏓᏅᏖᏍᎬ	-1555
▁ᎢᏳᏓᎴᏅᏛ	-1556
▁ᏂᎦᎵᏍᏗᎭ	-1557
▁ᏕᏣᏓᏅᏛᎢ	-1558
--	-1559
ᏅᏗ	-1560
ᏑᏯ	-1561
ᏑᏴ	-1562
▁Ꮢ	-1563
ᎵᏏᎾ	-1564
ᏍᎪᎸ	-1565
ᏐᏅᎯ	-1566
ᏓᏛᎩ	-1567
ᏗᏓᎴ	-1568
ᏟᏍᏗ	-1569
ᏣᎴᏛ	-1570
ᏰᎸᎾ	-1571
▁ᎡᏈ	-1572
▁ᏕᏨ	-1573
▁ᏗᏦ	-1574
ᎬᏁᎸᎯ	-1575
ᎲᏍᎪᎢ	-1576
ᏍᏕᎵᏍ	-1577
ᏔᏲᏎᎭ	-1578
ᏗᏍᎪᎢ	-1579
▁ᎣᏂᏃ	-1580
▁ᎤᎩᎬ	-1581
▁ᎤᎾᏕ	-1582
▁ᎤᏪᏙ	-1583
▁ᎦᏛᎦ	-1584
▁ᏃᏈᏏ	-1585
▁ᏅᏛᎩ	-1586
▁ᏆᏂᏆ	-1587
▁ᏱᏍᎩ	-1588
▁ᎠᎩᎵᏲ	-1589
▁ᎢᏤᎲᎢ	-1590
▁ᏄᏃᎯᏳ	-1591
▁ᏓᏓᎿᏩ	-1592
▁ᏗᏅᏃᏛ	-1593
▁ᏗᏓᏅᏙ	-1594
▁ᏙᏱᏗᏢ	-1595
▁ᎠᏂᏍᎦᎾ	-1596
▁ᎢᎬᏁᎸᎯ	-1597
▁ᎢᏓᏓᏅᏟ	-1598
▁ᎤᎦᎵᏍᏗ	-1599
▁ᎾᏍᎦᏅᎾ	-1600
▁ᏂᎦᏪᏍᎬ	-1601
▁ᏂᏚᏪᏎᎴ	-1602
▁ᎠᏂᎦᏔᎲᎢ	-1603
▁ᎬᏩᏍᏓᏩᏛ	-1604
▁ᏅᏓᏳᎶᏒᎯ	-1605
ᎯᎠ	-1606
ᎵᏒ	-1607
ᏑᎴ	-1608
ᏛᏓ	-1609
ᏨᏃ	-1610
ᏪᏐ	-1611
ᏱᏃ	-1612
▁Ꮺ	-1613
ᎶᏒᎩ	-1614
ᏁᎸᎭ	-1615
ᏘᏃᎮ	-1616
▁ᎢᏅ	-1617
▁ᎤᎧ	-1618
▁ᎮᎾ	-1619
▁ᏕᎩ	-1620
▁ᏙᏧ	-1621
▁ᏩᎦ	-1622
▁ᏭᎾ	-1623
▁ᏯᏂ	-1624
ᎧᎿᏩᏛ	-1625
ᎪᏩᏘᎭ	-1626
ᎸᏉᏙᏗ	-1627
ᏢᏔᏅᏛ	-1628
ᏬᏂᏍᎬ	-1629
▁ᎠᏓᏰ	-1630
▁ᎢᏯᏆ	-1631
▁ᎥᏓᎵ	-1632
▁ᏉᎳᏃ	-1633
▁ᏐᏈᎵ	-1634
▁ᏗᏓᏬ	-1635
▁ᏭᎷᏤ	-1636
▁ᎢᎩᏙᏓ	-1637
▁ᎤᎵᎮᎵ	-1638
▁ᎪᏪᎵᎯ	-1639
▁ᎬᏬᎯᏳ	-1640
▁ᎾᏎᎵᏗ	-1641
▁ᏓᏆᏙᎥ	-1642
▁ᏧᏂᏢᎩ	-1643
▁ᎠᏆᏤᎵᎦ	-1644
▁ᎢᏨᎨᏳᎢ	-1645
▁ᎢᏨᏲᏎᎭ	-1646
▁ᎤᎵᏍᏈᏗ	-1647
▁ᎾᎩᏪᏎᎸᎩ	-1648
▁ᏅᏓᏳᎵᏍᏙ	-1649
▁ᏗᎨᎦᏁᎶᏗ	-1650
▁ᎢᏳᎾᎵᏍᏓᏁᏗ	-1651
ᎥᏏ	-1652
ᎨᏂ	-1653
ᎪᎮ	-1654
ᎶᎻ	-1655
ᏂᏒ	-1656
ᏨᎢ	-1657
ᎥᏍᎬ	-1658
ᏂᏍᎬ	-1659
ᏔᏲᎯ	-1660
ᏕᏲᏗ	-1661
ᏞᏍᏗ	-1662
▁ᎣᎬ	-1663
▁ᎪᏢ	-1664
▁ᎯᏯ	-1665
▁ᏅᎦ	-1666
▁ᏐᎳ	-1667
▁ᏓᏲ	-1668
▁ᏗᎹ	-1669
▁ᏥᏨ	-1670
▁ᏫᎬ	-1671
ᎦᏅᎯᏛ	-1672
ᎨᏳᎢᏳ	-1673
ᎾᏝᎥᎾ	-1674
ᏌᎳᏓᏅ	-1675
ᏑᎶᏨᎯ	-1676
ᏛᏁᎲᎢ	-1677
ᏩᏛᏗᏱ	-1678
▁ᎠᏂᏃ	-1679
▁ᎠᏗᎭ	-1680
▁ᎤᏍᎦ	-1681
▁ᏅᏲᎯ	-1682
▁ᏕᎨᎦ	-1683
▁ᏤᎦᏈ	-1684
▁ᏥᎨᏎ	-1685
▁ᏧᏓᎴ	-1686
▁ᏱᏂᎦ	-1687
ᎾᏛᎿᏕᎩ	-1688
ᏟᎶᏍᏓᏁ	-1689
▁ᎠᏂᎪᎢ	-1690
▁ᎠᏂᏙᎾ	-1691
▁ᎡᎯᏍᏗ	-1692
▁ᎢᏥᏈᏱ	-1693
▁ᎢᏥᏙᏓ	-1694
▁ᎤᎵᏏᎬ	-1695
▁ᎤᏠᏱᏉ	-1696
▁ᏂᎦᎥᏉ	-1697
▁ᎠᏆᏓᏅᏙ	-1698
▁ᎢᏯᏛᏁᎯ	-1699
▁ᎤᏕᏯᏙᏗ	-1700
▁ᏄᎵᏍᏔᏁ	-1701
▁ᎢᏳᎾᏛᏁᏗ	-1702
▁ᎠᏥᏅᏏᏓᏍᏗ	-1703
▁ᎢᏳᏩᏂᏐᏗᏱ	-1704
▁ᏧᎸᏫᏍᏓᏁᎯ	-1705
ᎦᎶ	-1706
ᎸᎾ	-1707
ᏚᎪ	-1708
ᎨᏳᎭ	-1709
ᏁᎰᎢ	-1710
ᏅᏓᏗ	-1711
ᏍᏗᏉ	-1712
ᏩᏒᎩ	-1713
▁ᎨᎳ	-1714
▁ᏄᏓ	-1715
▁ᏕᎭ	-1716
▁ᏙᎩ	-1717
▁ᏚᎴ	-1718
▁ᏚᏬ	-1719
▁ᏛᏂ	-1720
▁ᏥᎬ	-1721
▁ᏦᏥ	-1722
▁ᏴᎬ	-1723
ᎳᏍᏓᎸ	-1724
ᏍᏆᎸᎲ	-1725
ᏍᏗᏍᎬ	-1726
▁ᎠᏍᏚ	-1727
▁ᎠᏲᎩ	-1728
▁ᎦᎬᏩ	-1729
▁ᏂᏙᏓ	-1730
▁ᏐᎢᏃ	-1731
▁ᏗᎨᏫ	-1732
▁ᏚᎴᏅ	-1733
▁ᎠᎦᏔᎲ	-1734
▁ᎠᎵᏥᏙ	-1735
▁ᎠᏍᎦᎾ	-1736
▁ᎠᏙᎴᎰ	-1737
▁ᎤᏬᏰᏂ	-1738
▁ᎦᏍᎩᎸ	-1739
ᎩᎵᏲᎢᏍᏗ	-1740
ᏓᏂᎸᎢᏍᏗ	-1741
▁ᎢᏣᎵᎮᎵ	-1742
▁ᎧᏃᎯᏰᎩ	-1743
▁ᎾᏍᎩᏯᏉ	-1744
▁ᏚᎾᏓᏅᏛ	-1745
ᏓᏙᎵᏍᏓᏁᎯ	-1746
▁ᎠᏆᏛᎦᏅᎩ	-1747
▁ᎤᏅᏏᏓᏍᏗ	-1748
▁ᎤᎵᏍᏆᏗᏍᏗ	-1749
ᎨᏣ	-1750
ᎩᎸ	-1751
ᎳᏅ	-1752
ᏆᏗ	-1753
ᏠᎠ	-1754
ᎦᎸᏛ	-1755
ᏅᏎᎢ	-1756
ᏌᏅᎯ	-1757
ᏍᏓᏏ	-1758
ᏍᏓᏕ	-1759
ᏏᏙᏂ	-1760
ᏗᏍᎪ	-1761
ᏩᏛᎯ	-1762
ᏩᏛᏗ	-1763
▁ᎢᏕ	-1764
▁ᎢᏲ	-1765
▁ᎾᎬ	-1766
▁ᏗᏗ	-1767
▁ᏙᏛ	-1768
▁ᏫᎤ	-1769
▁ᏱᏕ	-1770
ᎫᏴᎡᏗ	-1771
ᏃᎮᏍᎬ	-1772
▁ᎠᏂᏁ	-1773
▁ᎠᏚᎢ	-1774
▁ᎬᏙᏗ	-1775
▁ᎬᏩᏚ	-1776
▁ᏂᏚᏂ	-1777
▁ᏚᏳᎪ	-1778
▁ᏩᏍᏛ	-1779
ᏍᏓᏁᎸᎯ	-1780
▁ᎠᎾᏛᎩ	-1781
▁ᎤᎬᏫᏳ	-1782
▁ᎪᏪᎸᎢ	-1783
▁ᏧᏂᎾᏫ	-1784
▁ᎢᏦᎯᏳᏒ	-1785
▁ᎢᏯᏛᏁᏗ	-1786
▁ᎯᎠᏍᎩᏂ	-1787
ᎸᏫᏍᏓᏁᎲᎢ	-1788
▁ᏄᏃᎯᏳᏒᎾ	-1789
▁ᏅᏛᎩᏅᏏᏛ	-1790
▁ᏗᎫᎪᏙᏗᏱ	-1791
▁ᎠᎵᏍᏆᏗᏍᎩ	-1792
▁ᎢᏳᎾᏛᎿᏕᎩ	-1793
▁ᏗᎧᎿᏩᏛᏍᏗᏱ	-1794
▁ᏅᏓᏳᎵᏍᏙᏔᏅᎩ	-1795
ᎵᎢ	-1796
ᎶᏒ	-1797
ᏏᎾ	-1798
ᏚᎶ	-1799
ᏥᏌ	-1800
▁Ꮂ	-1801
ᎴᏂᏙ	-1802
ᏁᎲᎾ	-1803
ᏍᏙᎢ	-1804
ᏬᏁᏗ	-1805
▁ᎠᎲ	-1806
▁ᎾᎦ	-1807
▁ᏕᎬ	-1808
▁ᏫᏓ	-1809
▁ᏱᎾ	-1810
ᎲᏍᎬᎩ	-1811
ᏍᎩᏍᎩ	-1812
ᏪᏍᏗᏱ	-1813
▁ᎤᎾᏫ	-1814
▁ᎤᏃᎴ	-1815
▁ᏄᎾᏛ	-1816
▁ᏕᎦᏚ	-1817
▁ᏗᎹᏗ	-1818
▁ᏗᏍᎩ	-1819
▁ᏚᎧᎿ	-1820
▁ᏥᏂᏣ	-1821
▁ᏦᎯᏳ	-1822
ᎦᏘᏗᏍᏗ	-1823
ᎯᏍᏗᏍᎩ	-1824
▁ᎤᏁᏨᎩ	-1825
▁ᎤᏓᏁᏗ	-1826
▁ᎬᏂᏗᏳ	-1827
▁ᎹᏏᏙᏂ	-1828
▁ᎾᏂᎥᏉ	-1829
▁ᏂᎯᏰᏃ	-1830
▁ᏅᏓᏳᎾ	-1831
▁ᏗᏕᏲᏗ	-1832
ᏍᎦᎢᎮᏍᏗ	-1833
ᏓᏂᎸᎨᏍᏗ	-1834
ᏓᏅᏓᏗᏍᏗ	-1835
ᏗᏓᎴᎲᏍᎦ	-1836
▁ᎤᏚᎵᏍᎬ	-1837
▁ᎤᏣᎴᏍᏗ	-1838
▁ᏅᎦᏍᎪᎯ	-1839
▁ᎠᎦᏘᏏᏗᏢ	-1840
▁ᎠᎾᎵᏍᏓᏴ	-1841
▁ᏓᏓᎿᏩᏍᏛ	-1842
▁ᎢᏤᏯᏔᎮᏍᏗ	-1843
▁ᎢᏳᎵᏍᏓᏁᏗ	-1844
▁ᎤᎾᏄᎪᏫᏒᎯ	-1845
▁ᎨᏥᏅᏏᏓᏍᏗ	-1846
▁ᎤᏂᏍᏆᏂᎪᏎᎢ	-1847
,)	-1848
ᎥᎦ	-1849
ᎧᎾ	-1850
ᎪᏗ	-1851
ᎲᏃ	-1852
ᎸᏌ	-1853
ᎾᏉ	-1854
ᏓᏲ	-1855
ᏔᎴ	-1856
ᏙᎭ	-1857
ᏧᎪ	-1858
ᏲᎢ	-1859
▁Ꮅ	-1860
ᎵᏂᎬ	-1861
ᏓᏅᏔ	-1862
ᏓᏡᎬ	-1863
ᏛᎿᏕ	-1864
ᏦᎢᏳ	-1865
ᏪᏐᎸ	-1866
▁ᎡᎮ	-1867
▁ᎡᎲ	-1868
▁ᎡᏏ	-1869
▁ᎤᏤ	-1870
▁ᎤᏮ	-1871
▁ᎧᎳ	-1872
▁ᎬᏬ	-1873
▁ᏞᎦ	-1874
▁ᏣᏃ	-1875
▁ᏧᏙ	-1876
ᏓᏂᎸᏨ	-1877
ᏟᎶᏍᏗ	-1878
ᏲᎲᏍᎩ	-1879
ᏲᎵᎸᎭ	-1880
▁ᎤᏄᏬ	-1881
▁ᎤᏕᎰ	-1882
▁ᎦᏰᏥ	-1883
▁ᏣᏤᎵ	-1884
▁ᏫᏚᏂ	-1885
▁ᏭᏂᏴ	-1886
ᎤᏁᎳᏅᎯ	-1887
ᎨᎳᏍᏗᏱ	-1888
ᏍᎦᎢᎲᎾ	-1889
▁ᎠᎧᎵᎢ	-1890
▁ᎠᏍᎦᏅ	-1891
▁ᎠᏏᏉᏃ	-1892
▁ᎠᏥᎸᏱ	-1893
▁ᎢᎦᎦᏛ	-1894
▁ᎢᏣᏤᎵ	-1895
▁ᎤᏂᏁᏨ	-1896
▁ᎬᏗᏍᎩ	-1897
▁ᏂᏚᎩᏨ	-1898
▁ᏄᎾᏍᏛ	-1899
▁ᏓᎶᏂᎨ	-1900
▁ᏗᎧᏃᎩ	-1901
▁ᎠᏤᎵᏍᏛ	-1902
▁ᎤᏙᎯᏳᏒ	-1903
▁ᏅᏓᎦᎵᏍ	-1904
▁ᏅᏧᎵᏍᏙ	-1905
▁ᏗᏘᏂᏙᎯ	-1906
▁ᎤᎾᏤᎵᎪᎯ	-1907
▁ᏚᎾᏓᏅᏛᎢ	-1908
▁ᎤᏂᏬᏂᎯᏍᏗ	-1909
ᎦᏖ	-1910
ᎨᏗ	-1911
ᎩᎾ	-1912
ᎩᏯ	-1913
ᎯᏯ	-1914
ᎵᏂ	-1915
ᎶᎢ	-1916
ᏂᏳ	-1917
ᏄᎦ	-1918
ᏎᎴ	-1919
ᏕᏒ	-1920
ᏙᎲ	-1921
ᏢᎾ	-1922
ᏢᏆ	-1923
ᎡᎸᎩ	-1924
ᎪᎾᏛ	-1925
ᎾᏫᏛ	-1926
ᏅᏎᏃ	-1927
ᏐᏢᎢ	-1928
ᏓᏡᎩ	-1929
ᏪᏎᎴ	-1930
ᏪᏎᎸ	-1931
ᏲᎱᎯ	-1932
ᏲᎵᎦ	-1933
▁ᎠᏉ	-1934
▁ᎤᏘ	-1935
▁ᎨᏆ	-1936
▁ᏣᎩ	-1937
▁ᏣᏁ	-1938
▁ᏧᎴ	-1939
▁ᏲᏥ	-1940
ᎢᏳᏍᏗ	-1941
ᎯᏍᏗᏳ	-1942
ᎵᏍᏗᎭ	-1943
ᎷᎨᏍᏗ	-1944
ᏔᏲᏎᎴ	-1945
ᏤᎮᏍᏗ	-1946
ᏥᎪᎥᎩ	-1947
▁ᎠᎴᏬ	-1948
▁ᎡᏈᏌ	-1949
▁ᎢᏌᏯ	-1950
▁ᎢᏳᎢ	-1951
▁ᎤᎶᏒ	-1952
▁ᎤᏁᎬ	-1953
▁ᎤᏃᎮ	-1954
▁ᎰᏩᏃ	-1955
▁ᏑᏓᎵ	-1956
▁ᏓᏠᎯ	-1957
▁ᏚᏓᏘ	-1958
▁ᏥᏍᏆ	-1959
▁ᏱᏂᏣ	-1960
ᎷᎯᏍᏗᏱ	-1961
ᏍᏓᏓᏅᏟ	-1962
ᏐᏢᎢᏍᏗ	-1963
▁ᎠᏂᎩᏏ	-1964
▁ᎠᏖᎵᏙ	-1965
▁ᎤᎩᎵᏲ	-1966
▁ᎤᎾᎴᏅ	-1967
▁ᏂᏥᏪᎭ	-1968
▁ᏄᏛᏁᎸ	-1969
▁ᏓᎦᎷᏥ	-1970
▁ᏕᎨᏌᏗ	-1971
▁ᏕᏣᏙᎥ	-1972
▁ᏗᏥᎾᏫ	-1973
▁ᏗᏰᎸᎯ	-1974
▁ᏨᏍᎩᏃ	-1975
▁ᎠᏏᏴᏫᏃ	-1976
▁ᎢᏗᎦᏔᎭ	-1977
▁ᎢᏳᏓᎴᎩ	-1978
▁ᎣᏣᎵᏅᏟ	-1979
▁ᎤᎾᏓᏅᏖ	-1980
▁ᏗᎴᎯᏐᏗ	-1981
ᎦᏙᎥᎯᏍᏗᏱ	-1982
▁ᎤᎵᎮᎵᏍᏗ	-1983
▁ᏂᎦᏪᏍᎨᎢ	-1984
▁ᎠᏍᎦᏅᎢᏍᏗ	-1985
▁ᏄᎬᏫᏳᏌᏕᎩ	-1986
▁ᎢᏳᎾᎵᏍᏙᏗᏱ	-1987
▁ᏚᎸᏫᏍᏓᏁᎲᎢ	-1988
ᎮᏃ	-1989
ᎳᎨ	-1990
ᎵᎦ	-1991
ᎷᎦ	-1992
ᎷᎯ	-1993
ᏁᎳ	-1994
ᏅᏙ	-1995
ᏲᎭ	-1996
ᎷᏤᎸ	-1997
ᎸᏌᏛ	-1998
ᎿᎢᏳ	-1999
ᏂᎬᏎ	-2000
ᏅᎦᎸ	-2001
ᏢᏗᏱ	-2002
▁ᎢᏰ	-2003
▁ᎬᏆ	-2004
▁ᏓᏣ	-2005
▁ᏚᎳ	-2006
ᎯᏍᏗᎭ	-2007
ᎵᏍᏗᏱ	-2008
ᏍᏔᏅᎢ	-2009
ᏓᏅᏖᏗ	-2010
ᏛᏐᏅᎯ	-2011
▁ᎤᏁᎫ	-2012
▁ᎤᏂᏁ	-2013
▁ᎤᏂᏅ	-2014
▁ᎤᏚᎢ	-2015
▁ᎤᏪᏘ	-2016
▁ᎤᏰᎯ	-2017
▁ᎪᏪᎸ	-2018
▁ᎬᏩᏃ	-2019
▁ᏂᏗᎥ	-2020
▁ᏌᎺᎵ	-2021
▁ᏧᏁᏤ	-2022
ᎦᎵᏍᎪᎸ	-2023
ᎸᏉᏙᏗᏱ	-2024
ᏍᏓᏁᏗᏱ	-2025
ᏍᏓᏩᏕᎩ	-2026
▁ᎠᎵᎮᎵ	-2027
▁ᎠᏉᎯᏳ	-2028
▁ᎠᏍᎪᎵ	-2029
▁ᎤᏁᏨᏃ	-2030
▁ᏄᎾᏛᏁ	-2031
▁ᏗᎦᏙᎵ	-2032
▁ᏗᎨᏒᎢ	-2033
▁ᏧᎾᏍᏗ	-2034
▁ᏭᎶᏎᎢ	-2035
▁ᎠᏂᎦᏔᎲ	-2036
▁ᎤᏩᏒᎯᏳ	-2037
▁ᎬᏩᏚᏫᏛ	-2038
▁ᏑᎾᏓᏡᎩ	-2039
▁ᎠᏓᏙᎵᏍᏗ	-2040
▁ᎤᎷᎯᏍᏗᏱ	-2041
▁ᎤᎾᏓᏡᎬᎢ	-2042
▁ᎤᏂᏍᎦᏅᏨ	-2043
▁ᎦᏬᏂᎯᏍᏗ	-2044
▁ᏗᏓᎴᏂᏍᎬ	-2045
▁ᎠᎵᏍᏕᎸᏙᏗ	-2046
▁ᏨᏗᏓᎴᎲᏍᎦ	-2047
▁ᏄᏂᎬᏫᏳᏌᏕᎩ	-2048
ᎠᎴ	-2049
ᎲᎯ	-2050
ᎵᏅ	-2051
ᎵᏌ	-2052
ᏁᎩ	-2053
ᏂᏌ	-2054
ᏃᏴ	-2055
ᏅᎵ	-2056
ᏅᏩ	-2057
ᏒᎸ	-2058
ᏓᏱ	-2059
ᏟᏏ	-2060
ᏤᏗ	-2061
ᎪᏙᏗ	-2062
ᎷᏤᎵ	-2063
ᎸᏉᏓ	-2064
ᏁᏤᎭ	-2065
ᏓᎵᏓ	-2066
ᏔᏅᎾ	-2067
ᏕᏗᏱ	-2068
ᏙᎸᎯ	-2069
ᏛᎩᎭ	-2070
ᏛᏅᎩ	-2071
ᏤᏗᏱ	-2072
▁ᎠᎱ	-2073
▁ᎠᏟ	-2074
▁ᎠᏠ	-2075
▁ᎣᎵ	-2076
▁ᏍᏆ	-2077
▁ᏏᏆ	-2078
▁ᏗᎤ	-2079
▁ᏚᎵ	-2080
▁ᏫᏣ	-2081
ᎴᎯᏌᏅ	-2082
ᎵᏂᎩᏛ	-2083
ᏓᏁᎸᎩ	-2084
ᏙᎵᏍᏗ	-2085
ᏛᏁᎸᎯ	-2086
ᏯᏅᏓᏗ	-2087
▁ᎠᏏᎾ	-2088
▁ᎠᏓᏙ	-2089
▁ᎡᏏᎩ	-2090
▁ᎡᏏᏱ	-2091
▁ᎣᏓᎸ	-2092
▁ᎤᎾᏣ	-2093
▁ᎤᏁᎢ	-2094
▁ᎦᏙᎨ	-2095
▁ᎦᏚᎢ	-2096
▁ᏓᎬᏩ	-2097
▁ᏓᏰᏥ	-2098
▁ᏥᏓᏂ	-2099
▁ᏱᎬᏩ	-2100
▁ᏱᏂᎬ	-2101
ᎳᏗᏍᏗᏱ	-2102
ᎵᏍᏔᏁᎢ	-2103
▁ᎤᏂᏁᎫ	-2104
▁ᎤᏣᏘᏃ	-2105
▁ᎦᎵᏦᏕ	-2106
▁ᎧᏁᎬᎢ	-2107
▁ᎪᎯᏗᏳ	-2108
ᎳᏗᏙᎮᏍᏗ	-2109
ᏚᏓᎴᏍᏙᏗ	-2110
▁ᎠᎾᎵᎮᎵ	-2111
▁ᎠᏂᏍᎦᎢ	-2112
▁ᎢᎦᏤᎵᎦ	-2113
▁ᎤᎾᏁᎳᎩ	-2114
▁ᎤᏂᏣᏛᎩ	-2115
▁ᎤᏍᎦᏅᏨ	-2116
▁ᎪᎯᏍᎩᏂ	-2117
▁ᏚᏳᎪᏛᎢ	-2118
▁ᏣᏁᎳᏅᎯ	-2119
▁ᎢᏥᏏᏴᏫᎭ	-2120
▁ᎢᏨᏰᎳᏗᏙ	-2121
▁ᎤᏂᎯᏍᏗᏱ	-2122
▁ᎪᎯᏳᎲᏍᎩ	-2123
▁ᏄᎵᏍᏔᏅᎢ	-2124
▁ᏓᏁᏩᏗᏒᎢ	-2125
▁ᏗᎩᎦᏴᎵᎨ	-2126
▁ᏗᎪᏢᏔᏅᎯ	-2127
▁ᎠᏓᏅᏓᏗᏍᏗ	-2128
▁ᎢᏣᎵᏍᏙᏗᏱ	-2129
▁ᎢᏨᏗᏍᎨᏍᏗ	-2130
▁ᏄᎵᏍᏔᏂᏙᎸ	-2131
▁ᏅᏗᎦᎵᏍᏙᏗᏍᎪ	-2132
▁ᏧᏂᎸᏫᏍᏓᏁᏗᏱ	-2133
▁ᏱᏅᏗᎦᎵᏍᏙᏗᎭ	-2134
ᎦᎾ	-2135
ᎧᎭ	-2136
ᎴᎣ	-2137
ᎴᎩ	-2138
ᏃᎵ	-2139
ᏏᏃ	-2140
ᏓᏥ	-2141
ᏗᏫ	-2142
ᏚᏏ	-2143
ᏬᎯ	-2144
ᎡᎴᎢ	-2145
ᎦᏔᎮ	-2146
ᎦᏪᏎ	-2147
ᎪᎯᏳ	-2148
ᎬᎭᎷ	-2149
ᎳᏫᏎ	-2150
ᎾᏍᏗ	-2151
ᏑᎵᎪ	-2152
ᏒᎯᏛ	-2153
ᏓᏅᏘ	-2154
ᏙᎲᎩ	-2155
ᏩᏕᎩ	-2156
ᏪᎵᎩ	-2157
ᏫᏒᎢ	-2158
ᏯᏔᏁ	-2159
ᏰᎸᏅ	-2160
▁ᎠᏨ	-2161
▁ᎡᎵ	-2162
▁ᎡᏓ	-2163
▁ᎢᎠ	-2164
▁ᎾᏅ	-2165
▁ᏅᏗ	-2166
▁ᏓᏅ	-2167
▁ᏓᏨ	-2168
▁ᏳᎾ	-2169
ᎳᎨᏯᏛ	-2170
ᎾᏄᎪᏥ	-2171
▁ᎠᏂᏂ	-2172
▁ᎠᏂᏫ	-2173
▁ᎢᏣᏛ	-2174
▁ᎣᎵᏩ	-2175
▁ᎤᏂᎬ	-2176
▁ᎤᏪᎧ	-2177
▁ᎦᎾᏰ	-2178
▁ᏂᏥᏪ	-2179
▁ᏗᏣᏓ	-2180
▁ᏙᏓᎦ	-2181
ᎾᏰᏍᎬᎾ	-2182
ᏍᏆᏂᎪᏗ	-2183
ᏔᏲᏎᎸᎩ	-2184
ᏠᎾᏍᏛᎾ	-2185
ᏲᎱᎯᏍᏗ	-2186
▁ᎠᎩᎵᏯ	-2187
▁ᎢᎦᎦᏘ	-2188
▁ᎢᏯᏍᏗ	-2189
▁ᎤᏂᏄᎪ	-2190
▁ᎤᏚᎸᏗ	-2191
▁ᏂᏚᎾᏓ	-2192
▁ᏄᏜᏏᏛ	-2193
▁ᏆᎴᏗᏃ	-2194
▁ᏌᎺᎵᏱ	-2195
▁ᏗᏆᏤᎵ	-2196
▁ᏧᏒᎯᏛ	-2197
▁ᏱᎨᏐᎢ	-2198
▁ᏱᏄᏍᏗ	-2199
ᏯᏫᏍᎨᏍᏗ	-2200
▁ᎠᎾᏓᏅᏟ	-2201
▁ᎠᏍᏓᏱᏳ	-2202
▁ᎢᏣᎵᏅᏟ	-2203
▁ᎤᎷᎯᏍᏗ	-2204
▁ᎤᏂᏃᏕᎾ	-2205
▁ᎦᎾᏄᎪᏫ	-2206
▁ᎬᏩᏟᏍᏗ	-2207
▁ᏗᏣᏓᏅᏙ	-2208
▁ᏧᎳᏏᏕᏂ	-2209
▁ᏧᎾᏄᎪᏫ	-2210
ᎪᏩᏘᏍᎨᏍᏗ	-2211
ᏍᏆᏂᎪᏙᏗᏱ	-2212
▁ᎠᏂᎳᏍᏓᎸ	-2213
▁ᎢᏳᏩᏁᏗᏱ	-2214
▁ᎤᎾᎵᏍᏓᏴ	-2215
▁ᎤᎾᏓᏤᎵᏛ	-2216
▁ᏗᏓᏘᏂᏙᎯ	-2217
▁ᏚᏟᎶᏍᏓᏁ	-2218
▁ᎠᏥᎦᏘᏗᏍᏗ	-2219
▁ᎤᏚᎵᏍᎨᏍᏗ	-2220
▁ᏂᎬᏩᏪᏎᎸᎩ	-2221
▁ᏗᏟᎶᏍᏔᏅᎯ	-2222
.]	-2223
ᎣᎩ	-2224
ᏁᎦ	-2225
ᏁᏥ	-2226
ᏗᏏ	-2227
ᏙᎦ	-2228
ᎡᎸᎯ	-2229
ᎢᏒᎢ	-2230
ᎦᏯᎷ	-2231
ᎨᏳᏒ	-2232
ᎫᏓᎴ	-2233
ᎬᏁᏗ	-2234
ᎵᏍᎬ	-2235
ᏁᎸᎾ	-2236
ᏖᏍᏗ	-2237
ᏗᎦᎴ	-2238
ᏩᏁᎸ	-2239
ᏲᏍᏗ	-2240
ᏲᏍᏙ	-2241
▁ᎢᎡ	-2242
▁ᎢᏦ	-2243
▁ᎦᎫ	-2244
▁ᎦᎾ	-2245
▁ᏚᏙ	-2246
▁ᏣᏔ	-2247
▁ᏩᎩ	-2248
▁ᏩᏂ	-2249
ᎡᎮᏍᏗ	-2250
ᎷᎩᏍᎩ	-2251
ᎾᏛᏁᎯ	-2252
ᏁᏤᎸᎯ	-2253
ᏂᎶᏒᎯ	-2254
ᏍᎦᏅᏤ	-2255
ᏍᏆᎸᎯ	-2256
ᏍᏓᏁᎸ	-2257
ᏍᏓᏁᏗ	-2258
ᏓᎵᏁᎯ	-2259
ᏕᎨᏍᏗ	-2260
ᏗᏍᎨᎢ	-2261
ᏛᏁᎰᎢ	-2262
ᏪᎳᏅᎯ	-2263
▁ᎠᏂᏅ	-2264
▁ᎡᎲᎢ	-2265
▁ᎢᏣᏅ	-2266
▁ᎢᏨᏃ	-2267
▁ᎤᎾᏰ	-2268
▁ᎤᏬᎯ	-2269
▁ᎦᎸᎳ	-2270
▁ᎪᏪᎳ	-2271
▁ᏍᎩᏂ	-2272
▁ᏓᎿᏩ	-2273
▁ᏕᎤᎴ	-2274
▁ᏗᎾᏓ	-2275
▁ᏗᏄᏬ	-2276
▁ᏙᎴᏛ	-2277
▁ᏙᏛᎾ	-2278
▁ᏣᏂᏃ	-2279
▁ᏥᎪᎨ	-2280
▁ᏧᏁᏥ	-2281
▁ᏫᎨᏥ	-2282
ᎥᏍᎨᏍᏗ	-2283
ᎪᎵᏰᏗᏱ	-2284
ᏲᎯᏎᎸᎩ	-2285
▁ᎠᏠᏁᏗ	-2286
▁ᎢᎦᏪᏛ	-2287
▁ᎢᎾᎨᎢ	-2288
▁ᎤᎵᏰᎢ	-2289
▁ᎤᎾᏫᏱ	-2290
▁ᎤᏁᏨᎯ	-2291
▁ᎤᏅᏒᏉ	-2292
▁ᎥᏞᏍᏗ	-2293
▁ᎦᏩᏒᎩ	-2294
▁ᏑᏓᎴᎩ	-2295
▁ᏓᏂᎳᏫ	-2296
▁ᏗᏂᎨᏫ	-2297
▁ᏚᏂᎳᏫ	-2298
▁ᏣᏤᎵᎦ	-2299
ᎸᏫᏍᏓᏁᎸ	-2300
ᏓᎵᏓᏍᏛᎾ	-2301
▁ᎠᎫᏴᏙᏗ	-2302
▁ᎢᏣᏤᎵᎦ	-2303
▁ᎤᎩᏨᏛᏃ	-2304
▁ᎤᏣᏘᏰᏃ	-2305
▁ᎧᎳᏩᏗᏒ	-2306
▁ᏗᏂᎦᏙᎵ	-2307
▁ᏥᏄᏪᏎᎢ	-2308
▁ᎤᏁᏢᏔᏅᏛ	-2309
;]	-2310
ᎶᏏ	-2311
ᎶᏐ	-2312
ᏁᎮ	-2313
ᏅᏬ	-2314
ᏉᏗ	-2315
ᏌᎯ	-2316
ᏐᏴ	-2317
ᏓᏆ	-2318
ᏓᏏ	-2319
ᏣᏅ	-2320
ᏤᏃ	-2321
ᏯᏃ	-2322
ᏱᎳ	-2323
ᏲᎩ	-2324
ᎦᏘᏏ	-2325
ᎬᏁᎵ	-2326
ᎵᏙᎯ	-2327
ᎹᏍᎦ	-2328
ᏍᎦᎳ	-2329
ᏍᏕᎢ	-2330
ᏏᏍᎩ	-2331
ᏓᏁᎭ	-2332
ᏓᏂᏱ	-2333
ᏜᏅᏛ	-2334
ᏰᎸᏗ	-2335
ᏳᎶᏗ	-2336
▁ᎥᏘ	-2337
▁ᎥᏣ	-2338
▁ᎨᎪ	-2339
▁ᏏᎵ	-2340
▁ᏕᏡ	-2341
▁ᏙᏥ	-2342
▁ᏫᏙ	-2343
▁ᏴᎨ	-2344
ᎧᎿᏩᏕ	-2345
ᎬᏍᎪᎸ	-2346
ᎵᏍᎬᎢ	-2347
ᎵᏍᏓᏏ	-2348
ᎵᏍᏔᏂ	-2349
ᏂᏴᏗᏱ	-2350
ᏍᏗᏕᎩ	-2351
▁ᎠᎪᏄ	-2352
▁ᎠᏂᏌ	-2353
▁ᎠᏧᏏ	-2354
▁ᎢᎬᏒ	-2355
▁ᎢᎳᎪ	-2356
▁ᎢᏳᏪ	-2357
▁ᎤᎾᏝ	-2358
▁ᎤᏂᏇ	-2359
▁ᎦᏛᎬ	-2360
▁ᎨᏆᏂ	-2361
▁ᎬᏩᏛ	-2362
▁ᏂᏚᎾ	-2363
▁ᏓᏯᎢ	-2364
▁ᏕᎪᏢ	-2365
▁ᏚᏰᎵ	-2366
▁ᏱᏗᏣ	-2367
ᎪᎵᏰᏍᎩ	-2368
ᏍᏗᏰᏗᎭ	-2369
ᏚᎵᏍᎬᎾ	-2370
ᏛᏅᎢᏍᏗ	-2371
ᏲᎯᏎᏗᏱ	-2372
▁ᎤᎩᏨᏛ	-2373
▁ᎤᎵᏁᏨ	-2374
▁ᎤᎵᏏᎩ	-2375
▁ᎤᎾᏛᎦ	-2376
▁ᎤᏂᎩᎬ	-2377
▁ᎤᏍᏚᎢ	-2378
▁ᎤᏓᏙᎵ	-2379
▁ᏂᏥᎥᎢ	-2380
▁ᏏᏌᎵᏱ	-2381
▁ᏗᎦᏚᎲ	-2382
▁ᏗᏂᏏᏗ	-2383
ᎳᎨᏯᏛᏤᎢ	-2384
ᎵᏍᎪᎸᏙᏗ	-2385
▁ᎠᎵᏍᏓᏴ	-2386
▁ᎤᏍᏆᎸᎯ	-2387
▁ᎤᏍᏆᎸᎲ	-2388
▁ᎤᏓᏅᏘᏳ	-2389
▁ᎪᏢᏔᏅᎯ	-2390
▁ᏧᏕᏘᏴᏛ	-2391
▁ᎠᎱᏍᏕᏍᏗ	-2392
▁ᎢᏯᎾᏛᏁᎯ	-2393
▁ᎢᏳᏅᏁᏗᏱ	-2394
▁ᎤᎾᏙᎴᎰᏒ	-2395
▁ᎤᎾᏠᎾᏍᏗ	-2396
▁ᎤᏁᎳᏅᎯᏱ	-2397
▁ᎤᏂᏴᏍᏗᏱ	-2398
▁ᎤᏕᎰᎯᏍᏗ	-2399
▁ᎾᏛᏁᎮᏍᏗ	-2400
▁ᏧᎾᏛᏐᏅᎯ	-2401
ᎧᎿᏩᏗᏙᎮᏍᏗ	-2402
ᎵᏍᎪᎸᏓᏁᎸᎯ	-2403
▁ᎠᎾᏓᏙᎵᏍᏗ	-2404
▁ᏄᏓᎵᏓᏍᏛᎾ	-2405
▁ᎬᏩᏍᏓᏩᏛᏎᎢ	-2406
▁ᏕᏥᎸᏫᏍᏓᏁᎲ	-2407
▁ᎢᏣᏓᏙᎵᏍᏗᏍᎨᏍᏗ	-2408
ᎢᏒ	-2409
ᎵᎹ	-2410
ᎶᎸ	-2411
ᎶᏎ	-2412
ᎷᎶ	-2413
ᏅᏅ	-2414
ᏇᎵ	-2415
ᏍᏋ	-2416
ᏩᏒ	-2417
ᏪᎸ	-2418
ᏴᎭ	-2419
▁Ꮦ	-2420
ᎳᏏᎳ	-2421
ᎷᏤᎢ	-2422
ᎷᏥᎸ	-2423
ᎾᎥᎢ	-2424
ᏁᎲᎩ	-2425
ᏄᎪᎢ	-2426
ᏍᎦᏂ	-2427
ᏍᎩᎸ	-2428
ᏍᏛᎩ	-2429
ᏎᎰᎢ	-2430
ᏓᏁᎵ	-2431
ᏗᏍᎨ	-2432
ᏫᏍᏗ	-2433
ᏯᎥᎢ	-2434
▁ᎠᏙ	-2435
▁ᎡᎦ	-2436
▁ᎡᏂ	-2437
▁ᎡᏘ	-2438
▁ᎣᎨ	-2439
▁ᎣᏤ	-2440
▁ᎪᎩ	-2441
▁ᎫᎫ	-2442
▁ᎹᏗ	-2443
▁ᎾᎾ	-2444
▁ᏗᏑ	-2445
▁ᏤᎵ	-2446
▁ᏩᏛ	-2447
▁ᏮᏓ	-2448
▁ᏰᎭ	-2449
ᎧᎵᏨᎯ	-2450
ᎵᏍᏆᏗ	-2451
ᎵᏍᏔᏁ	-2452
ᎷᎯᏍᏗ	-2453
ᎸᏉᏗᎭ	-2454
ᏩᏛᎲᎩ	-2455
ᏪᏍᎬᎩ	-2456
▁ᎠᎩᏏ	-2457
▁ᎠᏁᎭ	-2458
▁ᎠᏍᏆ	-2459
▁ᎢᏤᎯ	-2460
▁ᎤᏬᏂ	-2461
▁ᎤᏬᏚ	-2462
▁ᎦᎨᏥ	-2463
▁ᎦᏁᎳ	-2464
▁ᎳᏏᎳ	-2465
▁ᏅᏃᎯ	-2466
▁ᏅᏓᎦ	-2467
▁ᏌᏱᎳ	-2468
▁ᏓᏟᎶ	-2469
▁ᏗᏤᏥ	-2470
▁ᏥᏂᏥ	-2471
▁ᏥᏕᏣ	-2472
▁ᏦᏓᏂ	-2473
▁ᏱᏙᎦ	-2474
ᎵᏍᎨᏍᏗ	-2475
ᎵᏍᏔᏅᎩ	-2476
ᎸᏉᏕᏍᏗ	-2477
ᎸᏫᏍᏓᏏ	-2478
ᏍᏓᏩᏚᎦ	-2479
ᏓᎵᏓᏍᏗ	-2480
ᏓᏁᎮᏍᏗ	-2481
ᏲᎯᏍᏗᏱ	-2482
ᏲᎯᏎᎸᎯ	-2483
▁ᎠᏁᏙᎯ	-2484
▁ᎡᏉᎯᏳ	-2485
▁ᎢᏯᏅᏙ	-2486
▁ᎤᎦᏔᎲ	-2487
▁ᎤᎾᎵᎪ	-2488
▁ᎤᏁᏨᎢ	-2489
▁ᎤᏂᏍᎦ	-2490
▁ᎤᏟᏰᏃ	-2491
▁ᎾᏍᏉᏃ	-2492
▁ᏂᎦᏥᏴ	-2493
▁ᏄᏍᏛᎢ	-2494
▁ᏌᏩᏂᏃ	-2495
▁ᏕᎹᏍᎦ	-2496
▁ᏗᏥᏲᎵ	-2497
▁ᏚᎳᏍᎬ	-2498
▁ᏚᏳᎪᏗ	-2499
▁ᏥᎨᏳᎢ	-2500
▁ᏥᏁᎬᎢ	-2501
▁ᏦᎢᏁᏃ	-2502
▁ᏩᏛᎬᎦ	-2503
ᎧᎿᏩᏛᏍᏗ	-2504
▁ᎠᎵᏍᏚᎶ	-2505
▁ᎠᎾᎵᏥᏙ	-2506
▁ᎤᏁᎫᏥᏛ	-2507
▁ᎤᏓᏅᏒᎩ	-2508
▁ᎤᏲᎱᏒᎢ	-2509
▁ᎦᎸᎳᏗᏳ	-2510
▁ᎦᏍᎩᎸᎢ	-2511
▁ᎬᏗᏍᎬᎢ	-2512
▁ᏂᏣᏛᏁᎸ	-2513
▁ᏄᎵᏍᏓᏁ	-2514
▁ᏍᎩᏃᎲᏏ	-2515
▁ᏗᎫᎪᏙᏗ	-2516
▁ᎠᏂᎩᏏᏙᎯ	-2517
▁ᎤᏁᎳᏅᎯᏃ	-2518
▁ᎤᏙᎯᏳᏗᏱ	-2519
▁ᎤᏪᎵᎯᏍᏗ	-2520
▁ᎬᏩᎷᏤᎸᎩ	-2521
▁ᎾᏂᏪᏍᎬᎩ	-2522
▁ᏄᎾᎵᏍᏓᏁ	-2523
▁ᏄᏜᏏᏛᏒᎾ	-2524
▁ᏓᎾᎵᏍᏓᏴ	-2525
▁ᎠᎩᎵᏲᎢᏍᏗ	-2526
▁ᎠᏥᎸᎠᏁᎶᎯ	-2527
▁ᎢᎩᏍᏕᎵᏍᎩ	-2528
▁ᎢᎬᏩᎵᏍᏙᏗ	-2529
▁ᎤᏂᏍᎦᏅᏨᎯ	-2530
▁ᎤᏍᏆᏂᎪᏗᏳ	-2531
▁ᏅᏧᎵᏍᏙᏔᏅ	-2532
▁ᎠᎵᏍᎪᎸᏔᏅᎯ	-2533
▁ᏗᎧᎿᏩᏗᏙᎯᏃ	-2534
▁ᏗᎨᏥᎤᏍᏕᏎᎸᎯ	-2535
ᎡᎭ	-2536
ᎫᏗ	-2537
ᎯᏃ	-2538
ᎵᏓ	-2539
ᎸᏛ	-2540
ᎾᏌ	-2541
ᏂᏱ	-2542
ᏅᎦ	-2543
ᏎᎮ	-2544
ᏨᏯ	-2545
ᏩᎯ	-2546
ᎪᎲᎯ	-2547
ᎳᏅᏛ	-2548
ᎸᎩᏃ	-2549
ᎿᏍᏕ	-2550
ᏂᎬᎬ	-2551
ᏅᏍᏗ	-2552
ᏍᎦᎾ	-2553
ᏐᏅᎢ	-2554
ᏓᎴᏅ	-2555
ᏓᏁᎯ	-2556
ᏕᏘᏴ	-2557
ᏙᎴᎢ	-2558
ᏚᏓᏕ	-2559
ᏱᎵᏙ	-2560
ᏲᎵᎭ	-2561
▁ᎠᏚ	-2562
▁ᎦᏂ	-2563
▁ᎾᏓ	-2564
▁ᏚᏁ	-2565
▁ᏚᏲ	-2566
▁ᏛᎾ	-2567
▁ᏦᎦ	-2568
▁ᏦᎾ	-2569
▁ᏧᎵ	-2570
▁ᏨᏓ	-2571
▁ᏱᏫ	-2572
▁ᏲᎩ	-2573
ᎵᏂᎪᎯ	-2574
ᎵᏍᎬᎾ	-2575
ᎸᏉᏔᏁ	-2576
ᏅᏍᏓᏕ	-2577
ᏓᎪᎾᏛ	-2578
ᏓᎶᏂᎨ	-2579
ᏕᏯᏙᏗ	-2580
ᏣᏪᏐᎸ	-2581
ᏯᏅᎲᎩ	-2582
ᏴᏍᏗᏱ	-2583
▁ᎠᏓᏅ	-2584
▁ᎠᏓᏲ	-2585
▁ᎠᏔᎴ	-2586
▁ᎢᏍᎩ	-2587
▁ᎢᏣᎵ	-2588
▁ᎢᏧᏩ	-2589
▁ᎢᏳᏂ	-2590
▁ᎤᎦᎾ	-2591
▁ᎤᎾᏅ	-2592
▁ᎤᏌᎯ	-2593
▁ᎤᏛᎦ	-2594
▁ᎤᏬᎵ	-2595
▁ᎦᎨᏛ	-2596
▁ᎧᏁᏉ	-2597
▁ᎬᏅᎢ	-2598
▁ᎭᏓᏅ	-2599
▁ᏂᎨᏥ	-2600
▁ᏓᏂᏴ	-2601
▁ᏕᎫᎪ	-2602
▁ᏗᎦᏓ	-2603
▁ᏙᎯᏱ	-2604
▁ᏙᏓᏥ	-2605
▁ᏞᎩᏳ	-2606
▁ᏣᏔᎦ	-2607
▁ᏱᏚᏂ	-2608
ᎦᎵᏍᏓᏗ	-2609
ᏓᏂᎸᏨᎯ	-2610
ᏓᏂᏱᏍᎩ	-2611
ᏕᏍᏗᏍᎩ	-2612
▁ᎠᎩᏁᏨ	-2613
▁ᎠᏋᏒᏉ	-2614
▁ᎠᏓᏁᏗ	-2615
▁ᎡᏦᎢᏳ	-2616
▁ᎢᎬᏁᎯ	-2617
▁ᎢᎬᏁᏗ	-2618
▁ᎤᎾᏓᏙ	-2619
▁ᎤᏂᎷᏨ	-2620
▁ᎤᏂᏣᏔ	-2621
▁ᎤᏇᏓᎸ	-2622
▁ᎤᏛᏁᎢ	-2623
▁ᎤᏛᏛᏁ	-2624
▁ᎾᏂᎥᎢ	-2625
▁ᎾᏂᎥᏃ	-2626
▁ᏧᎾᏤᎵ	-2627
▁ᏧᏃᏰᏂ	-2628
▁ᏭᎶᏒᎩ	-2629
ᎵᏍᎦᏍᏙᏗ	-2630
▁ᎠᏂᎪᏩᏘ	-2631
▁ᎠᏂᏌᏚᏏ	-2632
▁ᎠᏅᏗᏍᎬ	-2633
▁ᎠᏆᏚᎵᎭ	-2634
▁ᎠᏥᎸᏉᏗ	-2635
▁ᎠᏨᏍᏙᏗ	-2636
▁ᎢᏣᏓᏅᏖ	-2637
▁ᎣᏥᎦᏔᎭ	-2638
▁ᎤᎾᎳᏅᎯ	-2639
▁ᎤᎾᏚᎵᏍ	-2640
▁ᎤᎾᏛᏁᎢ	-2641
▁ᎤᏁᎷᏅᎩ	-2642
▁ᎤᏂᎷᏨᎩ	-2643
▁ᎤᏄᎪᏨᎩ	-2644
▁ᎤᏅᏏᏙᎯ	-2645
▁ᎤᏬᏢᏅᎯ	-2646
▁ᎦᏬᏂᏍᎬ	-2647
▁ᏗᏓᏬᏍᎩ	-2648
▁ᏥᏂᏣᏛᏅ	-2649
ᎸᏫᏍᏓᏁᎸᎯ	-2650
▁ᎠᏆᏁᎳᏅᎯ	-2651
▁ᎢᏨᏔᏲᏎᎭ	-2652
▁ᎤᎾᏛᎦᏅᎯ	-2653
▁ᎦᎾᏰᎯᏍᏗ	-2654
▁ᎾᏆᎵᏍᏓᏁ	-2655
▁ᏂᎦᏪᏍᎬᎢ	-2656
▁ᏂᏚᎩᏨᏂᏒ	-2657
▁ᏗᏍᏓᏓᏅᏟ	-2658
▁ᎠᏓᏅᏙᏍᎩᏂ	-2659
▁ᎤᏲᎱᎯᏍᏗᏱ	-2660
▁ᎥᏝᏍᎩᏂᏃᏅ	-2661
▁ᏅᏓᏳᏂᎶᏒᎯ	-2662
▁ᏚᎸᏫᏍᏓᏁᎲ	-2663
▁ᎢᏤᎳᏗᏙᎮᏍᏗ	-2664
▁ᎢᏥᏯᏫᏍᎨᏍᏗ	-2665
▁ᏚᎾᏓᏡᏩᏗᏒᎢ	-2666
▁ᏚᏂᎸᏫᏍᏓᏁᎲ	-2667
▁ᏅᏓᏳᎾᎵᏍᎪᎸᏔᏅᎯ	-2668
ᎥᏃ	-2669
ᎦᏙ	-2670
ᎧᏛ	-2671
ᎨᎦ	-2672
ᎲᎭ	-2673
ᎳᎻ	-2674
ᎾᎩ	-2675
ᎾᏗ	-2676
ᏃᏣ	-2677
ᏄᏙ	-2678
ᏒᎦ	-2679
ᏕᎬ	-2680
ᏗᏯ	-2681
ᏚᏫ	-2682
ᏧᏣ	-2683
ᏬᎢ	-2684
ᏰᏣ	-2685
ᏲᎦ	-2686
▁Ꮋ	-2687
ᎥᏍᎦ	-2688
ᎦᏛᎢ	-2689
ᎧᏁᎢ	-2690
ᎧᏅᎢ	-2691
ᎨᏳᏣ	-2692
ᎲᏍᎪ	-2693
ᎵᏒᎩ	-2694
ᎶᏐᏅ	-2695
ᎾᏛᎢ	-2696
ᎿᎥᎢ	-2697
ᎿᏩᏛ	-2698
ᏁᏤᎸ	-2699
ᏂᎪᎯ	-2700
ᏄᏩᎢ	-2701
ᏍᎩᏯ	-2702
ᏍᏕᎾ	-2703
ᏚᎲᎢ	-2704
ᏤᎵᎯ	-2705
ᏩᏍᏗ	-2706
ᏬᏂᎭ	-2707
ᏯᏙᎮ	-2708
ᏲᎯᏏ	-2709
ᏳᎨᏗ	-2710
▁ᎠᎨ	-2711
▁ᎧᏃ	-2712
▁ᎨᎩ	-2713
▁ᎬᏯ	-2714
▁ᎵᏏ	-2715
▁ᏁᏨ	-2716
▁ᏃᎦ	-2717
▁ᏔᎷ	-2718
▁ᏕᏤ	-2719
▁ᏚᏭ	-2720
▁ᏦᎠ	-2721
▁ᏧᏅ	-2722
▁ᏯᏥ	-2723
▁ᏴᏓ	-2724
▁ᏴᏛ	-2725
ᎨᎳᏍᏗ	-2726
ᎸᏉᏛᎾ	-2727
ᏍᎩᎸᎢ	-2728
ᏗᏍᎬᎩ	-2729
ᏚᎪᏓᏁ	-2730
ᏬᏂᏍᎩ	-2731
ᏲᎯᏍᏗ	-2732
▁ᎠᏂᎪ	-2733
▁ᎠᏛᎩ	-2734
▁ᎡᏂᏗ	-2735
▁ᎢᎨᏣ	-2736
▁ᎢᏤᎾ	-2737
▁ᎢᏥᎩ	-2738
▁ᎤᎧᏛ	-2739
▁ᎦᏙᎬ	-2740
▁ᎨᏥᏛ	-2741
▁ᎬᏗᎭ	-2742
▁ᎯᎠᏉ	-2743
▁ᎰᏍᏛ	-2744
▁ᎾᎦᎥ	-2745
▁ᏇᏍᏓ	-2746
▁ᏚᏂᏢ	-2747
▁ᏥᎨᏥ	-2748
▁ᏥᏂᎨ	-2749
▁ᏥᏕᎦ	-2750
▁ᏧᏄᎪ	-2751
▁ᏭᎷᏨ	-2752
▁ᏱᎦᎩ	-2753
ᎵᏍᏔᏅᎯ	-2754
ᎾᏄᎪᏫᏏ	-2755
ᏂᏴᏎᏍᏗ	-2756
ᏍᏛᏗᏍᏗ	-2757
ᏲᏪᎳᏁᎭ	-2758
▁ᎠᎨᏴᏃ	-2759
▁ᎠᎪᏙᏗ	-2760
▁ᎤᎨᏳᎯ	-2761
▁ᎤᎵᏠᏯ	-2762
▁ᎤᎶᏐᏅ	-2763
▁ᎤᎾᏝᎢ	-2764
▁ᎤᏜᏅᏛ	-2765
▁ᎤᏩᎨᏫ	-2766
▁ᎤᏪᎿᎢ	-2767
▁ᎬᏩᏛᏛ	-2768
▁ᎯᏍᎦᏯ	-2769
▁ᎾᎥᏂᏳ	-2770
▁ᏕᎦᎳᏫ	-2771
▁ᏗᎬᏩᎾ	-2772
▁ᏗᏂᎰᎵ	-2773
▁ᏗᏣᏤᎵ	-2774
▁ᏫᏄᏒᎸ	-2775
▁ᏴᏫᏰᏃ	-2776
ᎵᏍᎦᏍᏙᏛ	-2777
ᎵᏍᏆᏗᏍᎩ	-2778
ᏘᏅᏍᏔᏅᎩ	-2779
▁ᎠᎩᏰᎸᎭ	-2780
▁ᎠᏂᎦᏔᎯ	-2781
▁ᎠᏓᏁᎸᎢ	-2782
▁ᎠᏓᏪᎵᎩ	-2783
▁ᎠᏓᏰᏍᎩ	-2784
▁ᎠᏗᏒᏍᏗ	-2785
▁ᎠᏥᎾᏝᎢ	-2786
▁ᎠᏩᎾᎦᎳ	-2787
▁ᎢᏣᏙᎴᎰ	-2788
▁ᎤᏂᎩᏒᎩ	-2789
▁ᎤᏪᎷᏅᎩ	-2790
▁ᎤᏰᎸᏛᎢ	-2791
▁ᎧᏃᎮᏍᎩ	-2792
▁ᎾᎾᏛᏁᎲ	-2793
▁ᎾᏍᏉᏰᏃ	-2794
▁ᏂᎬᎾᏛᎢ	-2795
▁ᏂᏣᏛᎿᏕ	-2796
▁ᏓᏁᏩᏗᏒ	-2797
▁ᏕᎨᏥᏰᎸ	-2798
▁ᏗᎦᎸᏉᏗ	-2799
▁ᏗᎪᏣᎴᏛ	-2800
▁ᏛᏍᏆᎸᎯ	-2801
▁ᏥᏂᎦᏪᎭ	-2802
▁ᏧᏓᎿᏩᏛ	-2803
▁ᏫᏚᏯᏅᎲ	-2804
▁ᏭᏂᎶᏎᎢ	-2805
▁ᎠᎵᎮᎵᏍᏗ	-2806
▁ᎠᏂᏬᏂᏍᎬ	-2807
▁ᎠᏤᎵᏍᏛᎢ	-2808
▁ᎢᏳᏕᏘᏴᏛ	-2809
▁ᎤᏂᏁᎫᏥᏛ	-2810
▁ᎤᏍᏆᎸᎯᏗ	-2811
▁ᎦᎶᏁᏛᏰᏃ	-2812
▁ᎦᏃᏍᎩᏍᎩ	-2813
▁ᎬᏂᎨᏒᎢᏳ	-2814
▁ᏂᎦᏪᏍᎬᎩ	-2815
▁ᏂᎪᎯᎸᎾᏉ	-2816
▁ᏗᎦᎵᏍᏙᏗ	-2817
▁ᏧᎾᎴᎯᏐᏗ	-2818
▁ᏧᏃᏑᎶᏨᎯ	-2819
ᏁᎢᏍᏗᏍᎨᏍᏗ	-2820
▁ᏅᏓᎦᎵᏍᏔᏂ	-2821
▁ᏚᎾᏓᏡᏩᏗᏒ	-2822
▁ᏧᏂᎳᏫᎢᏍᏗᏱ	-2823
▁ᏚᏂᎸᏫᏍᏓᏁᎸᎢ	-2824
;)	-2825
ᎠᏂ	-2826
ᎤᏅ	-2827
ᎧᎲ	-2828
ᎩᎳ	-2829
ᎪᏂ	-2830
ᎳᏆ	-2831
ᎵᏦ	-2832
ᏂᎦ	-2833
ᏂᎸ	-2834
ᏎᎯ	-2835
ᏐᎠ	-2836
ᏒᏛ	-2837
ᏓᎻ	-2838
ᏕᏅ	-2839
ᏚᏓ	-2840
ᏢᏗ	-2841
ᏢᏛ	-2842
ᏪᎠ	-2843
ᏯᏁ	-2844
ᏰᎭ	-2845
ᏲᏥ	-2846
ᏳᎯ	-2847
ᏴᎸ	-2848
ᏴᏗ	-2849
ᎦᏓᎭ	-2850
ᎦᏔᎯ	-2851
ᎨᏒᎢ	-2852
ᎩᏕᎵ	-2853
ᎪᏪᎳ	-2854
ᎫᏔᏅ	-2855
ᎵᎬᎾ	-2856
ᎸᎢᏛ	-2857
ᏂᏙᎸ	-2858
ᏃᎩᏳ	-2859
ᏃᏗᏱ	-2860
ᏅᏏᏴ	-2861
ᏅᏒᎯ	-2862
ᏇᏓᎸ	-2863
ᏍᏓᏯ	-2864
ᏑᎲᎢ	-2865
ᏓᏁᎴ	-2866
ᏓᏆᎶ	-2867
ᏛᏁᎰ	-2868
ᏨᏁᎵ	-2869
ᏲᎱᏒ	-2870
ᏲᏅᎯ	-2871
ᏴᏍᏗ	-2872
ᏴᏗᏱ	-2873
▁ᎠᎯ	-2874
▁ᎠᏄ	-2875
▁ᎠᏜ	-2876
▁ᎡᏉ	-2877
▁ᎤᏏ	-2878
▁ᎥᏓ	-2879
▁ᎦᏌ	-2880
▁ᎧᏂ	-2881
▁ᎾᎪ	-2882
▁ᎾᏋ	-2883
▁ᏂᏙ	-2884
▁ᏐᎣ	-2885
▁ᏕᏅ	-2886
▁ᏕᏦ	-2887
▁ᏗᏇ	-2888
▁ᏥᏙ	-2889
▁ᏯᏃ	-2890
ᎢᏍᏙᏗ	-2891
ᎥᎯᏍᏗ	-2892
ᎨᏳᏒᎢ	-2893
ᎪᎵᏰᏗ	-2894
ᎵᏙᎲᎢ	-2895
ᎶᏄᎮᏛ	-2896
ᏍᏓᏁᎯ	-2897
ᏓᏙᎴᎰ	-2898
ᏛᎿᏕᎩ	-2899
ᏯᎡᏍᏗ	-2900
▁ᎠᎩᎭ	-2901
▁ᎠᎹᏱ	-2902
▁ᎠᎾᎵ	-2903
▁ᎠᏁᎳ	-2904
▁ᎠᏂᎦ	-2905
▁ᎠᏂᏙ	-2906
▁ᎠᏕᏒ	-2907
▁ᎠᏗᏔ	-2908
▁ᎡᎩᎵ	-2909
▁ᎡᏙᎭ	-2910
▁ᎢᎦᏘ	-2911
▁ᎢᏍᏓ	-2912
▁ᎢᏍᏗ	-2913
▁ᎢᏍᏛ	-2914
▁ᎢᏕᎯ	-2915
▁ᎢᏗᎦ	-2916
▁ᎢᏤᎵ	-2917
▁ᎢᏯᏥ	-2918
▁ᎢᏰᏨ	-2919
▁ᎣᏂᏱ	-2920
▁ᎤᎩᎸ	-2921
▁ᎤᎲᎢ	-2922
▁ᎤᎾᏘ	-2923
▁ᎤᏁᎳ	-2924
▁ᎤᏂᎪ	-2925
▁ᎤᏒᏃ	-2926
▁ᎤᏗᏩ	-2927
▁ᎤᏯᏅ	-2928
▁ᎤᏲᎢ	-2929
▁ᎦᏃᎸ	-2930
▁ᏆᎳᏆ	-2931
▁ᏇᏗᏂ	-2932
▁ᏌᏙᏂ	-2933
▁ᏓᏓᏁ	-2934
▁ᏓᏓᏏ	-2935
▁ᏙᏓᏳ	-2936
▁ᏙᏧᎾ	-2937
▁ᏚᎵᏍ	-2938
▁ᏚᏅᏩ	-2939
▁ᏣᏙᏓ	-2940
▁ᏤᎲᎩ	-2941
▁ᏥᎬᏩ	-2942
▁ᏧᎾᏓ	-2943
▁ᏧᏓᏕ	-2944
▁ᏴᏫᏃ	-2945
ᎵᎡᎵᏤᎭ	-2946
ᎵᏂᎩᏗᏳ	-2947
ᏁᎢᏍᏗᏱ	-2948
ᏁᏤᎮᏍᏗ	-2949
ᏄᎪᏫᏍᎦ	-2950
ᏓᏅᏔᏩᏕ	-2951
ᏚᏓᎴᏍᏗ	-2952
▁ᎠᎵᏍᎦ	-2953
▁ᎠᎵᏏᎾ	-2954
▁ᎠᏁᎵᏍ	-2955
▁ᎠᏆᎵᏏ	-2956
▁ᎠᏛᏅᎢ	-2957
▁ᎡᏙᎲᎢ	-2958
▁ᎢᏣᏛᎩ	-2959
▁ᎢᏥᎷᏤ	-2960
▁ᎢᏥᏰᎸ	-2961
▁ᎤᎪᎲᎯ	-2962
▁ᎤᎾᏂᎩ	-2963
▁ᎤᏂᎾᏰ	-2964
▁ᎤᏴᏍᏗ	-2965
▁ᎦᎵᎡᎵ	-2966
▁ᎪᏢᏅᎯ	-2967
▁ᎬᏩᏂᏴ	-2968
▁ᎯᎦᏔᎭ	-2969
▁ᎾᎿᏰᏃ	-2970
▁ᏂᏗᎨᏥ	-2971
▁ᏂᏙᏓᏳ	-2972
▁ᏗᏂᏰᎸ	-2973
▁ᏚᎾᏙᎥ	-2974
▁ᏦᎯᏳᏒ	-2975
▁ᏧᏬᏰᏂ	-2976
▁ᏯᏃᎩᏳ	-2977
ᏁᏟᏴᏍᏗᏱ	-2978
▁ᎠᎩᎪᎲᎩ	-2979
▁ᎠᏂᏐᎢᏃ	-2980
▁ᎠᏍᏆᏂᎪ	-2981
▁ᎠᏛᏳᎨᏗ	-2982
▁ᎢᏣᏓᏅᏘ	-2983
▁ᎢᏳᏩᎫᏗ	-2984
▁ᎣᏏᏳᏰᏃ	-2985
▁ᎤᎾᎴᏅᎮ	-2986
▁ᎤᏓᏅᏛᎢ	-2987
▁ᎥᎩᏅᏏᏛ	-2988
▁ᎦᎫᏍᏛᏗ	-2989
▁ᎦᎶᏄᎮᏛ	-2990
▁ᎨᎦᏑᏰᏛ	-2991
▁ᎾᎯᏳᏉᏃ	-2992
▁ᎾᎯᏳᏰᏃ	-2993
▁ᎾᏂᎥᏰᏃ	-2994
▁ᏂᏕᎦᏪᏎ	-2995
▁ᏗᏆᏤᎵᎦ	-2996
▁ᏧᏂᎾᏫᏱ	-2997
ᏓᏅᏖᏍᎨᏍᏗ	-2998
▁ᎠᏂᎦᏔᎿᎢ	-2999
▁ᎠᏥᎸᎨᎶᎯ	-3000
▁ᎢᎬᏩᏛᏁᏗ	-3001
▁ᎢᏣᏅᏖᏍᏗ	-3002
▁ᎢᏣᏛᎦᏅᎯ	-3003
▁ᎢᏣᏠᎾᏍᏗ	-3004
▁ᎢᏳᏛᏁᎸᎯ	-3005
▁ᎤᏂᏃᎮᎸᎯ	-3006
▁ᎤᏪᏅᏍᏗᏱ	-3007
▁ᏂᏥᎦᏔᎲᎾ	-3008
▁ᏱᏂᎦᎵᏍᏓ	-3009
▁ᎢᏳᎾᏛᏁᏗᏱ	-3010
▁ᎢᏳᏍᎩᏂᏃᏅ	-3011
▁ᎤᎬᏫᏳᏌᏕᎩ	-3012
▁ᎤᎶᏒᏍᏔᏅᎯ	-3013
▁ᎤᎾᎵᏍᏓᏴᏗ	-3014
▁ᎬᎵᏍᏆᏗᏍᎩ	-3015
▁ᏂᏣᏛᏁᎮᏍᏗ	-3016
▁ᏓᏕᏲᎲᏍᎬᎢ	-3017
▁ᏚᎸᏫᏍᏓᏁᎸ	-3018
▁ᎠᏥᎤᏍᏕᏎᎸᎯ	-3019
▁ᎤᎵᏰᎢᎶᎯᏍᏗ	-3020
▁ᎤᎾᎵᏍᏕᎸᏙᏗ	-3021
▁ᎤᎾᏓᏙᎵᏍᏓᏁ	-3022
▁ᏗᎧᎿᏩᏛᏍᏗᏰᏃ	-3023
ᎣᎢ	-3024
ᎨᏅ	-3025
ᎪᏪ	-3026
ᎬᏓ	-3027
ᎮᎾ	-3028
ᎳᏁ	-3029
ᎵᎠ	-3030
ᎵᎭ	-3031
ᎷᎬ	-3032
ᎾᏏ	-3033
ᏂᏃ	-3034
ᏂᏯ	-3035
ᏃᎱ	-3036
ᏄᎸ	-3037
ᏅᎭ	-3038
ᏌᏘ	-3039
ᏎᎰ	-3040
ᏓᏄ	-3041
ᏔᏃ	-3042
ᏕᎦ	-3043
ᏕᎯ	-3044
ᏕᏗ	-3045
ᏙᎳ	-3046
ᏛᎮ	-3047
ᏢᎯ	-3048
ᏢᏫ	-3049
ᏤᎴ	-3050
ᏯᏪ	-3051
ᏰᎬ	-3052
ᏰᏗ	-3053
ᏰᏥ	-3054
ᏳᎩ	-3055
ᎡᎲᎢ	-3056
ᎲᎾᏃ	-3057
ᎴᏅᏛ	-3058
ᎿᏫᏛ	-3059
ᏂᏆᏅ	-3060
ᏅᎯᏳ	-3061
ᏍᎦᎸ	-3062
ᏍᏛᏱ	-3063
ᏎᎸᎾ	-3064
ᏑᏰᏒ	-3065
ᏓᎴᏛ	-3066
ᏓᏁᎲ	-3067
ᏓᏱᎵ	-3068
ᏕᎬᎢ	-3069
ᏕᏯᏙ	-3070
ᏙᎮᎢ	-3071
ᏙᎯᏳ	-3072
ᏛᏅᎯ	-3073
ᏟᏴᏛ	-3074
ᏪᏍᎩ	-3075
ᏫᏎᎢ	-3076
ᏯᏅᏗ	-3077
ᏯᏍᏗ	-3078
ᏴᏍᏕ	-3079
▁ᎡᎶ	-3080
▁ᎢᏛ	-3081
▁ᎤᏫ	-3082
▁ᎤᏰ	-3083
▁ᏁᏥ	-3084
▁ᏂᎤ	-3085
▁ᏂᏫ	-3086
▁ᏍᏗ	-3087
▁ᏓᎻ	-3088
▁ᏓᏘ	-3089
▁ᏚᏘ	-3090
▁ᏦᏈ	-3091
▁ᏫᏕ	-3092
▁ᏰᏥ	-3093
ᎵᏍᏕᎸ	-3094
ᎵᏰᎢᎶ	-3095
ᏁᎶᏙᏗ	-3096
ᏁᏟᏴᎾ	-3097
ᏃᏁᎸᎩ	-3098
ᏍᏉᎵᏱ	-3099
ᏍᏓᏁᎴ	-3100
ᏍᏕᎵᎭ	-3101
ᏏᏏᏍᎩ	-3102
ᏚᎵᏍᎪ	-3103
ᏠᏯᏍᏗ	-3104
ᏲᎯᏎᎴ	-3105
ᏲᎯᏎᎸ	-3106
▁ᎠᎲᎢ	-3107
▁ᎠᏁᎩ	-3108
▁ᎠᏆᎵ	-3109
▁ᎠᏉᎳ	-3110
▁ᎡᏂᎾ	-3111
▁ᎢᎬᏪ	-3112
▁ᎢᏯᏋ	-3113
▁ᎢᏳᏓ	-3114
▁ᎤᎶᎩ	-3115
▁ᎤᎾᏠ	-3116
▁ᎤᏅᏟ	-3117
▁ᎤᏍᏛ	-3118
▁ᎤᏔᏲ	-3119
▁ᎤᏕᏅ	-3120
▁ᎤᏗᎴ	-3121
▁ᎤᏣᏔ	-3122
▁ᎤᏣᏖ	-3123
▁ᎤᏲᏃ	-3124
▁ᎥᏳᎩ	-3125
▁ᎩᎶᎢ	-3126
▁ᎬᏩᎪ	-3127
▁ᎯᎨᏴ	-3128
▁ᏂᏕᎬ	-3129
▁ᏂᏨᏴ	-3130
▁ᏒᎦᏔ	-3131
▁ᏓᎬᎾ	-3132
▁ᏔᎷᏣ	-3133
▁ᏗᎦᏘ	-3134
▁ᏗᏓᏙ	-3135
▁ᏗᏤᎲ	-3136
▁ᏚᎾᏓ	-3137
▁ᏝᏰᏃ	-3138
▁ᏡᎬᎢ	-3139
▁ᏤᎮᎢ	-3140
▁ᏤᏈᏗ	-3141
▁ᏱᏓᎾ	-3142
ᎢᏳᎾᏍᏗ	-3143
ᎫᎪᏓᏁᏗ	-3144
ᏍᏓᏩᏛᏛ	-3145
ᏍᏔᏁᏍᏗ	-3146
ᏓᎸᎥᏍᎩ	-3147
ᏕᏲᎲᏍᎬ	-3148
ᏙᎵᏍᏗᏱ	-3149
ᏛᎦᏁᎸᎯ	-3150
ᏟᎶᏍᏙᏗ	-3151
▁ᎠᎢᏒᎢ	-3152
▁ᎠᎦᏔᎭ	-3153
▁ᎠᎨᏳᏣ	-3154
▁ᎠᎩᏰᎸ	-3155
▁ᎠᎪᏩᏘ	-3156
▁ᎠᏂᏁᎬ	-3157
▁ᎠᏂᏫᏅ	-3158
▁ᎠᏤᎷᎩ	-3159
▁ᎠᏫᏍᎩ	-3160
▁ᎠᏰᎸᏗ	-3161
▁ᎡᎩᎵᏈ	-3162
▁ᎡᏣᎫᏴ	-3163
▁ᎡᏥᎾᏰ	-3164
▁ᎤᎵᏍᏗ	-3165
▁ᎤᎵᏖᎸ	-3166
▁ᎤᎶᎩᎸ	-3167
▁ᎤᏛᏅᎩ	-3168
▁ᎤᏪᏗᏱ	-3169
▁ᎥᏘᎣᎩ	-3170
▁ᎦᏁᏟᏴ	-3171
▁ᎨᎦᎫᏴ	-3172
▁ᎬᏩᏂᎪ	-3173
▁ᎹᎩᏕᎵ	-3174
▁ᏂᏣᏛᏁ	-3175
▁ᏕᎨᎦᏨ	-3176
▁ᏕᎬᏩᏂ	-3177
▁ᏗᏖᎵᏙ	-3178
▁ᏚᏁᏤᎴ	-3179
▁ᏚᏄᎪᏫ	-3180
▁ᏧᎾᏄᏬ	-3181
▁ᏧᏳᎪᏗ	-3182
▁ᏫᏚᏯᏅ	-3183
▁ᏭᎷᏤᎢ	-3184
▁ᏭᏴᎴᎢ	-3185
ᏚᎵᏍᎨᏍᏗ	-3186
ᏦᎯᏳᏎᏍᏗ	-3187
▁ᎠᎩᏅᏏᏛ	-3188
▁ᎠᏁᏙᎲᎢ	-3189
▁ᎠᏂᎩᎵᏲ	-3190
▁ᎠᏂᏙᎾᎢ	-3191
▁ᎠᏆᏓᏅᏖ	-3192
▁ᎠᏏᎾᏌᏂ	-3193
▁ᎢᎩᏁᎸᎯ	-3194
▁ᎢᏳᏪᏨᎯ	-3195
▁ᎤᎬᏫᏳᎭ	-3196
▁ᎤᎾᎵᎮᎵ	-3197
▁ᎤᎾᏛᏅᎩ	-3198
▁ᎤᏂᎦᏙᎥ	-3199
▁ᎤᏛᎪᏗᏱ	-3200
▁ᎤᏠᎾᏍᏗ	-3201
▁ᎤᏪᎿᎢᏳ	-3202
▁ᎦᎬᏩᏐᏢ	-3203
▁ᎬᏩᎷᏤᎸ	-3204
▁ᏂᎬᏪᏎᎭ	-3205
▁ᏄᏛᏁᎸᎢ	-3206
▁ᏏᏓᏁᎸᎯ	-3207
▁ᏓᏠᎯᏍᏛ	-3208
▁ᏔᎷᎩᏍᎩ	-3209
▁ᏕᏣᏓᏅᏛ	-3210
▁ᏗᏨᏂᏗᏳ	-3211
▁ᏥᏥᎦᏔᎭ	-3212
▁ᏦᎠᏍᎪᎯ	-3213
▁ᏧᎾᏓᏅᏙ	-3214
▁ᏧᏩᎫᏔᏅ	-3215
▁ᏭᏓᎪᎾᏛ	-3216
ᎸᏫᏍᏓᏁᎸᎢ	-3217
ᏓᏂᎸᎢᏍᏗᏱ	-3218
ᏚᎢᏍᏓᏁᎸᎯ	-3219
▁ᎠᎩᎬᏫᏳᎯ	-3220
▁ᎠᎬᏗᏍᎬᎢ	-3221
▁ᎠᏁᏢᏔᏅᎯ	-3222
▁ᎠᏂᏆᎵᏏᏃ	-3223
▁ᎠᏕᏒᎲᏍᎩ	-3224
▁ᎢᏥᏍᏆᏂᎪ	-3225
▁ᎢᏦᎯᏳᏒᎢ	-3226
▁ᎢᏧᏩᏁᏗᏱ	-3227
▁ᎢᏳᏛᏁᏗᏱ	-3228
▁ᎤᏂᏇᏓᎸᎢ	-3229
▁ᎤᏬᏑᎶᏨᎯ	-3230
▁ᎦᏓᏅᏖᏍᎬ	-3231
▁ᎦᏓᏙᎵᏍᏗ	-3232
▁ᎪᎯᏳᏗᏍᎩ	-3233
▁ᎬᏩᏍᏓᏩᏗ	-3234
▁ᎾᏂᎦᏔᎲᎾ	-3235
▁ᏂᎦᏗᏳᏰᏃ	-3236
▁ᏄᎬᏫᏳᏒᏃ	-3237
▁ᏄᏠᎾᏍᏛᎾ	-3238
▁ᏕᎨᏌᏗᏒᎢ	-3239
▁ᏥᏅᏏᏓᏍᏗ	-3240
▁ᏫᏨᎷᏤᏗᏱ	-3241
▁ᏱᏅᎦᎵᏍᏓ	-3242
▁ᎠᏚᏓᎴᏍᏙᏗ	-3243
▁ᎠᏥᏃᎮᏍᎬᎢ	-3244
▁ᎢᏥᎦᏔᎮᏍᏗ	-3245
▁ᎢᏥᏍᎦᏅᏨᎢ	-3246
▁ᎢᏳᎵᏍᏔᏅᎯ	-3247
▁ᎢᏳᏩᏂᏌᏅᎯ	-3248
▁ᎤᎬᏫᏳᎯᏰᏃ	-3249
▁ᎤᎬᏫᏳᏎᏍᏗ	-3250
▁ᎤᎳᎨᏯᏛᏤᎢ	-3251
▁ᎤᏂᏍᎦᏅᏨᎢ	-3252
▁ᎾᏍᎩᏯᏍᎩᏂ	-3253
▁ᏗᎾᏓᏂᏱᏍᎩ	-3254
▁ᎠᏓᏍᏓᏩᏗᏙᎯ	-3255
▁ᎨᏣᏍᏓᏩᏗᏙᎯ	-3256
▁ᎬᏩᏍᏓᏩᏛᏒᎩ	-3257
▁ᏕᎨᏥᏰᎸᏔᏅᎩ	-3258
▁ᏚᎸᏫᏍᏓᏁᎸᎢ	-3259
▁ᏣᎦᏟᎶᏍᏔᏅᎯ	-3260
▁ᏧᎸᏫᏍᏓᏁᏗᏱ	-3261
▁ᎢᏥᎦᏙᎥᎯᏍᏗᏱ	-3262
▁ᏥᏅᏗᎦᎵᏍᏙᏗᎭ	-3263
▁ᏅᏗᎦᎵᏍᏙᏗᏍᎬᎢ	-3264
ᎤᎵ	-3265
ᎤᎾ	-3266
ᎦᏌ	-3267
ᎨᎯ	-3268
ᎨᏃ	-3269
ᎩᏒ	-3270
ᎳᎭ	-3271
ᎵᎡ	-3272
ᎵᏳ	-3273
ᎸᏒ	-3274
ᎾᏃ	-3275
ᏁᏅ	-3276
ᏆᏘ	-3277
ᏍᏢ	-3278
ᏎᎦ	-3279
ᏑᎸ	-3280
ᏗᏩ	-3281
ᏙᎮ	-3282
ᏙᎴ	-3283
ᏙᎸ	-3284
ᏙᏱ	-3285
ᏛᏉ	-3286
ᏣᏔ	-3287
ᏤᎲ	-3288
ᏥᎸ	-3289
ᏨᎭ	-3290
ᏱᏗ	-3291
ᏲᏒ	-3292
▁Ꮄ	-3293
▁Ꮙ	-3294
▁Ꮯ	-3295
ᎠᎩᎾ	-3296
ᎩᏍᎩ	-3297
ᎪᎸᎾ	-3298
ᎪᏔᏅ	-3299
ᎭᎸᏛ	-3300
ᎮᏰᏃ	-3301
ᎴᏔᏂ	-3302
ᎵᏌᎵ	-3303
ᎵᏍᏕ	-3304
ᎶᏗᏱ	-3305
ᏍᏛᏉ	-3306
ᏏᏔᏛ	-3307
ᏑᏴᎾ	-3308
ᏓᏂᎵ	-3309
ᏓᏅᏏ	-3310
ᏓᏅᏬ	-3311
ᏓᏕᎢ	-3312
ᏔᏕᎩ	-3313
ᏙᎲᎢ	-3314
ᏙᏔᏂ	-3315
ᏙᏔᏅ	-3316
ᏚᏓᎳ	-3317
ᏣᎦᎸ	-3318
ᏲᎱᏏ	-3319
ᏴᏁᎵ	-3320
▁ᎠᎫ	-3321
▁ᎡᏤ	-3322
▁ᎢᎭ	-3323
▁ᎤᏒ	-3324
▁ᎤᏦ	-3325
▁ᎤᏱ	-3326
▁ᎥᎦ	-3327
▁ᎪᎵ	-3328
▁ᏁᏣ	-3329
▁ᏍᎦ	-3330
▁ᏕᎧ	-3331
▁ᏣᎪ	-3332
▁ᏣᏆ	-3333
▁ᏤᎮ	-3334
▁ᏥᎧ	-3335
▁ᏧᎩ	-3336
▁ᏩᎾ	-3337
▁ᏫᏱ	-3338
▁ᏯᎾ	-3339
▁ᏳᏲ	-3340
ᎢᏎᎸᎯ	-3341
ᎢᏎᏍᏗ	-3342
ᎥᏍᎨᎢ	-3343
ᎦᎶᏁᏛ	-3344
ᎧᏁᎸᎯ	-3345
ᎪᏓᏁᎯ	-3346
ᎬᏁᏗᏱ	-3347
ᎲᏍᏗᏱ	-3348
ᏁᎶᏛᎾ	-3349
ᏃᎮᎸᎩ	-3350
ᏄᎪᏨᎩ	-3351
ᏍᎦᎳᏗ	-3352
ᏍᎪᏂᎯ	-3353
ᏍᏓᏱᏳ	-3354
ᏓᏂᎸᎩ	-3355
ᏓᏅᎦᎸ	-3356
ᏕᏲᏅᎯ	-3357
ᏗᎦᎴᏲ	-3358
ᏨᏍᏗᏱ	-3359
ᏩᏛᎲᏃ	-3360
ᏬᏍᏗᏱ	-3361
ᏰᎵᏎᎭ	-3362
▁ᎠᎾᏛ	-3363
▁ᎠᏂᎧ	-3364
▁ᎠᏂᏯ	-3365
▁ᎠᏋᎭ	-3366
▁ᎠᏧᏣ	-3367
▁ᎠᏯᏫ	-3368
▁ᎢᏳᏉ	-3369
▁ᎣᎬᏒ	-3370
▁ᎤᎾᎴ	-3371
▁ᎤᏚᎸ	-3372
▁ᎤᏢᎩ	-3373
▁ᎤᏪᏅ	-3374
▁ᎤᏯᎢ	-3375
▁ᎥᎬᏩ	-3376
▁ᎪᏍᏚ	-3377
▁ᎯᎾᎩ	-3378
▁ᏂᏗᏥ	-3379
▁ᏄᏛᏅ	-3380
▁ᏌᏉᏃ	-3381
▁ᏐᎵᎹ	-3382
▁ᏚᎪᎲ	-3383
▁ᏚᎾᎴ	-3384
▁ᏚᏃᎸ	-3385
▁ᏚᏬᏁ	-3386
▁ᏤᎦᎳ	-3387
▁ᏥᎪᏃ	-3388
▁ᏥᎮᎾ	-3389
▁ᏥᏁᎦ	-3390
▁ᏥᏓᎩ	-3391
▁ᏥᏚᏂ	-3392
▁ᏧᎬᏩ	-3393
▁ᏧᎴᎯ	-3394
▁ᏧᏁᏨ	-3395
▁ᏫᏚᎾ	-3396
▁ᏭᏕᎵ	-3397
▁ᏱᏂᏨ	-3398
▁ᏱᏓᎩ	-3399
▁ᏱᏓᏂ	-3400
▁ᏱᏗᎦ	-3401
ᎵᏍᏔᏂᏙ	-3402
ᎵᏍᏔᏅᎭ	-3403
ᎸᏉᏗᏍᎩ	-3404
ᏃᎯᎵᏙᎯ	-3405
ᏍᎪᏂᏗᏢ	-3406
ᏓᏂᎸᏤᎢ	-3407
ᏛᏓᏍᏓᏁ	-3408
ᏪᎵᏍᎩᏃ	-3409
▁ᎠᏂᏏᎾ	-3410
▁ᎠᏃᏍᏛ	-3411
▁ᎠᏲᎱᏒ	-3412
▁ᎡᎮᏍᏗ	-3413
▁ᎡᎳᏪᏱ	-3414
▁ᎢᎬᏱᏢ	-3415
▁ᎢᏅᎯᏳ	-3416
▁ᎢᏣᏗᏔ	-3417
▁ᎢᏥᏔᏲ	-3418
▁ᎢᏯᏍᏘ	-3419
▁ᎢᏲᏍᏛ	-3420
▁ᎣᏂᏗᏢ	-3421
▁ᎤᎪᎲᎩ	-3422
▁ᎤᎾᎵᎢ	-3423
▁ᎤᎾᏁᎶ	-3424
▁ᎤᎾᏚᎸ	-3425
▁ᎤᏁᏤᎴ	-3426
▁ᎤᏂᏙᏓ	-3427
▁ᎤᏃᏍᏛ	-3428
▁ᎤᏕᎵᏒ	-3429
▁ᎤᏰᎸᏅ	-3430
▁ᎦᎾᏄᎪ	-3431
▁ᎦᏙᎬᎩ	-3432
▁ᎧᏂᎵᏯ	-3433
▁ᎧᏃᎮᏗ	-3434
▁ᎪᎯᏰᏃ	-3435
▁ᎾᏁᎲᎾ	-3436
▁ᎾᏂᎥᎩ	-3437
▁ᎾᏃᎯᏳ	-3438
▁ᏂᎬᏁᎭ	-3439
▁ᏂᎯᏍᎪ	-3440
▁ᏂᏦᎯᏳ	-3441
▁ᏄᏍᏛᎾ	-3442
▁ᏄᏛᏁᎴ	-3443
▁ᏄᏬᎯᏳ	-3444
▁ᏅᎵᏌᎵ	-3445
▁ᏔᎵᏧᏈ	-3446
▁ᏕᎦᏚᎲ	-3447
▁ᏗᏑᏢᏛ	-3448
▁ᏗᏥᏰᎸ	-3449
▁ᏭᏂᎷᏨ	-3450
ᎤᏍᏕᏎᎸᎾ	-3451
ᎵᏍᏓᏁᏗᏱ	-3452
ᎵᏏᎾᎯᏍᏗ	-3453
ᎾᏄᎪᏫᏎᎵ	-3454
ᏄᎪᏫᏍᏗᏱ	-3455
ᏍᏕᎵᏍᎬᎢ	-3456
ᏯᏙᏤᎮᏍᏗ	-3457
▁ᎠᎩᏍᏗᏱ	-3458
▁ᎠᏂᎦᏓᎭ	-3459
▁ᎠᏂᏧᏏᏃ	-3460
▁ᎠᏍᎪᎯᏁ	-3461
▁ᎠᏓᏅᏖᏗ	-3462
▁ᎠᏚᎢᏍᏛ	-3463
▁ᎠᏟᎶᏍᏗ	-3464
▁ᎠᏥᏰᎸᎾ	-3465
▁ᎢᎬᏱᏱᏃ	-3466
▁ᎢᏍᎦᎳᏗ	-3467
▁ᎢᏓᏙᎴᎰ	-3468
▁ᎢᏣᏓᏡᎬ	-3469
▁ᎢᏥᎩᎵᏲ	-3470
▁ᎢᏥᏁᏍᏗ	-3471
▁ᎢᏥᏆᎵᏏ	-3472
▁ᎤᎵᏂᎬᎬ	-3473
▁ᎤᎾᎵᎪᎯ	-3474
▁ᎤᏍᏓᏩᏛ	-3475
▁ᎤᏍᏚᎢᏒ	-3476
▁ᎤᏬᏚᎯᏳ	-3477
▁ᎥᏥᎪᎥᎩ	-3478
▁ᎦᎵᏦᏛᎢ	-3479
▁ᎨᏅᎢᏍᏗ	-3480
▁ᎨᏥᏁᎸᎯ	-3481
▁ᎾᎦᏔᎲᎾ	-3482
▁ᎾᎵᏍᏆᏗ	-3483
▁ᏂᎦᏛᏰᏃ	-3484
▁ᏄᎾᏓᎴᏒ	-3485
▁ᏄᎾᏛᏅᎢ	-3486
▁ᏕᎨᏌᏗᏒ	-3487
▁ᏗᏁᎶᏙᏗ	-3488
▁ᏗᏓᏬᏍᏗ	-3489
▁ᏗᏥᎾᏫᏱ	-3490
▁ᏚᏁᏤᎸᎩ	-3491
▁ᏬᎩᎷᏨᎩ	-3492
▁ᏱᏥᎪᎵᏰ	-3493
▁ᏲᏥᎦᏔᎭ	-3494
ᎦᏌᏯᏍᏕᏍᏗ	-3495
ᎪᎵᏰᏍᎨᏍᏗ	-3496
ᎸᏫᏍᏓᏁᎰᎢ	-3497
ᏍᏓᏩᏕᎨᏍᏗ	-3498
ᏓᏅᏓᏗᏍᏗᏱ	-3499
▁ᎠᎬᎥᎯᏍᏗ	-3500
▁ᎢᎦᏁᎳᏅᎯ	-3501
▁ᎢᏯᎬᏁᎸᎯ	-3502
▁ᎢᏳᏛᎿᏕᎩ	-3503
▁ᎤᏂᏰᎸᏒᎩ	-3504
▁ᎤᏃᎯᏳᏅᎯ	-3505
▁ᎤᏓᏅᏖᎸᎯ	-3506
▁ᎦᏬᏂᏍᎬᎢ	-3507
▁ᎲᏗᏍᎨᏍᏗ	-3508
▁ᎾᏥᎾᏝᎥᎾ	-3509
▁ᏓᏠᎯᏍᏛᎢ	-3510
▁ᏕᎦᏚᏩᏗᏒ	-3511
▁ᏕᏥᏲᎵᎸᎭ	-3512
▁ᏗᎧᏃᎩᏍᏗ	-3513
▁ᏗᎬᏩᎸᏌᏛ	-3514
▁ᏗᏂᏩᎾᎦᎳ	-3515
▁ᏥᎷᏏᎵᎻᏃ	-3516
▁ᏧᎾᎵᏂᎩᏛ	-3517
▁ᏫᏂᎦᎵᏍᏓ	-3518
▁ᏫᏨᏲᏪᎳᏏ	-3519
▁ᏭᎶᎯᏍᏗᏱ	-3520
ᎸᏫᏍᏓᏁᎮᏍᏗ	-3521
▁ᎠᎾᏓᏅᏖᏍᎬ	-3522
▁ᎠᏎᏍᎩᏂᏃᏅ	-3523
▁ᎠᏓᏅᏖᏍᎬᎢ	-3524
▁ᎢᏯᏆᏛᏁᏗᏱ	-3525
▁ᎤᎵᏍᏕᎸᏙᏗ	-3526
▁ᎤᏓᏙᎵᏍᏓᏁ	-3527
▁ᎬᏩᏲᎱᎯᏍᏗ	-3528
▁ᏓᏓᏂᎸᎨᏍᏗ	-3529
▁ᏕᏦᎯᏳᏎᏍᏗ	-3530
▁ᏗᎦᎵᏍᏙᏗᎭ	-3531
▁ᏧᎸᏫᏍᏓᏁᏗ	-3532
▁ᎢᏣᎵᏍᏕᎸᏙᏗ	-3533
▁ᎤᏂᏍᏆᏂᎪᏒᎩ	-3534
▁ᎤᏙᎴᎰᎯᏍᏗᏱ	-3535
▁ᎾᎵᏍᏆᏗᏍᎬᎾ	-3536
▁ᏂᏚᎾᏓᏪᏎᎴᎢ	-3537
▁ᏅᏓᏳᎵᏍᏙᏗᏱ	-3538
▁ᏕᎨᎦᏨᏍᏗᏍᎬ	-3539
▁ᏱᏥᏍᎦᎢᎮᏍᏗ	-3540
▁ᏚᏂᎸᏫᏍᏓᏁᎲᎢ	-3541
ᎠᎩ	-3542
ᎡᎴ	-3543
ᎧᏃ	-3544
ᎩᎬ	-3545
ᎴᏴ	-3546
ᎵᎾ	-3547
ᎵᏤ	-3548
ᎷᎪ	-3549
ᎸᎬ	-3550
ᎿᎸ	-3551
ᏃᎦ	-3552
ᏃᏱ	-3553
ᏏᏌ	-3554
ᏐᏂ	-3555
ᏖᏆ	-3556
ᏗᏒ	-3557
ᏜᏅ	-3558
ᏟᏯ	-3559
ᏠᎢ	-3560
ᏣᏛ	-3561
ᏥᏃ	-3562
ᏦᎢ	-3563
ᏯᎸ	-3564
▁Ꮲ	-3565
ᎦᎴᏅ	-3566
ᎦᎸᎢ	-3567
ᎦᏓᎢ	-3568
ᎦᏔᎾ	-3569
ᎦᏔᏅ	-3570
ᎦᏘᎴ	-3571
ᎧᎯᏯ	-3572
ᎪᎲᎭ	-3573
ᎱᏍᏕ	-3574
ᎲᏍᏗ	-3575
ᎶᏂᎦ	-3576
ᎸᏍᏗ	-3577
ᏁᎮᎢ	-3578
ᏃᎮᎸ	-3579
ᏃᏁᎴ	-3580
ᏃᏁᎸ	-3581
ᏄᎪᏩ	-3582
ᏄᏩᎥ	-3583
ᏍᎩᏅ	-3584
ᏒᏰᏃ	-3585
ᏓᏅᏒ	-3586
ᏓᏑᏯ	-3587
ᏓᏓᎴ	-3588
ᏙᎸᎩ	-3589
ᏛᏗᏱ	-3590
ᏢᏁᎢ	-3591
ᏣᏅᎩ	-3592
ᏤᎸᎯ	-3593
ᏬᏨᎯ	-3594
ᏲᏒᎩ	-3595
▁ᎢᎧ	-3596
▁ᎢᎯ	-3597
▁ᎩᎵ	-3598
▁ᎪᎢ	-3599
▁ᎬᏭ	-3600
▁ᎭᏓ	-3601
▁ᎹᎦ	-3602
▁ᏂᏑ	-3603
▁ᏃᎩ	-3604
▁ᏓᏤ	-3605
▁ᏗᏅ	-3606
▁ᏙᎤ	-3607
▁ᏙᏣ	-3608
▁ᏚᏛ	-3609
▁ᏛᏥ	-3610
▁ᏣᏤ	-3611
▁ᏧᎳ	-3612
▁ᏫᏯ	-3613
ᎧᎵᏬᎯ	-3614
ᎧᎾᏅᎩ	-3615
ᎧᏁᏨᎯ	-3616
ᎳᏏᏗᏱ	-3617
ᎶᏔᏅᎯ	-3618
ᎸᏉᏔᏂ	-3619
ᎸᏍᏗᏱ	-3620
ᎿᏍᏕᏢ	-3621
ᏁᏤᎸᎢ	-3622
ᏃᎮᎮᎸ	-3623
ᏌᎳᏓᏁ	-3624
ᏍᏔᏁᏃ	-3625
ᏓᏅᏛᎵ	-3626
ᏔᏁᏍᏗ	-3627
ᏛᎦᏁᎸ	-3628
ᏛᏗᏍᎩ	-3629
ᏧᏈᏍᏗ	-3630
ᏪᎳᏅᎩ	-3631
ᏪᏎᎸᎭ	-3632
ᏲᎮᏍᏗ	-3633
ᏲᎯᏎᎵ	-3634
▁ᎠᎵᏱ	-3635
▁ᎠᏓᏫ	-3636
▁ᎠᏰᎲ	-3637
▁ᎠᏴᎩ	-3638
▁ᎠᏴᏉ	-3639
▁ᎡᎲᎩ	-3640
▁ᎡᎵᎩ	-3641
▁ᎢᏕᎾ	-3642
▁ᎤᎵᏰ	-3643
▁ᎤᎿᎷ	-3644
▁ᎤᏃᏴ	-3645
▁ᎤᏍᎪ	-3646
▁ᎤᏒᎯ	-3647
▁ᎤᏒᏂ	-3648
▁ᎤᏔᏅ	-3649
▁ᎤᏬᎸ	-3650
▁ᎤᏲᎯ	-3651
▁ᎥᏓᎸ	-3652
▁ᎦᎪᏃ	-3653
▁ᎦᏰᎯ	-3654
▁ᎦᏲᎵ	-3655
▁ᎬᏩᏁ	-3656
▁ᎬᏩᏓ	-3657
▁ᎬᏩᏘ	-3658
▁ᎾᎥᏃ	-3659
▁ᏁᎲᎾ	-3660
▁ᏂᎨᎬ	-3661
▁ᏂᏍᎩ	-3662
▁ᏂᏕᏥ	-3663
▁ᏂᏗᏣ	-3664
▁ᏂᏚᏅ	-3665
▁ᏅᏓᎬ	-3666
▁ᏈᎵᏏ	-3667
▁ᏐᏓᎻ	-3668
▁ᏓᎾᏓ	-3669
▁ᏓᏥᏯ	-3670
▁ᏗᎨᏣ	-3671
▁ᏙᏗᏣ	-3672
▁ᏚᎪᎮ	-3673
▁ᏚᏅᏎ	-3674
▁ᏚᏕᏲ	-3675
▁ᏚᏩᏂ	-3676
▁ᏚᏪᏲ	-3677
▁ᏢᏓᏥ	-3678
▁ᏣᏗᎭ	-3679
▁ᏥᏓᎾ	-3680
▁ᏥᏰᎸ	-3681
▁ᏧᏁᎬ	-3682
▁ᏫᏂᏚ	-3683
▁ᏭᎶᏒ	-3684
▁ᏴᎨᏥ	-3685
ᎨᎳᏍᏙᏗ	-3686
ᎬᎭᎷᏴᎯ	-3687
ᎯᏍᏗᏍᎬ	-3688
ᎯᏳᎲᏍᎦ	-3689
ᎾᏌᎲᏍᎩ	-3690
ᏁᏍᎨᏍᎩ	-3691
ᏍᎦᎢᏍᏓ	-3692
ᏍᎫᏕᏍᏗ	-3693
ᏓᏂᎸᏨᎩ	-3694
ᏙᏓᏆᏍᏗ	-3695
ᏡᏗᏍᎬᎢ	-3696
ᏪᏎᎮᏍᏗ	-3697
▁ᎠᎦᏘᏯ	-3698
▁ᎠᎯᏗᏳ	-3699
▁ᎠᎹᏰᎵ	-3700
▁ᎠᏂᏃᎮ	-3701
▁ᎠᏂᏬᏂ	-3702
▁ᎠᏓᎯᎯ	-3703
▁ᎠᏓᏅᏖ	-3704
▁ᎠᏚᎸᏗ	-3705
▁ᎡᏙᎮᎢ	-3706
▁ᎢᎪᏪᎳ	-3707
▁ᎢᏳᏪᏛ	-3708
▁ᎣᏓᎸᎢ	-3709
▁ᎣᏓᏅᏛ	-3710
▁ᎤᎷᏤᎢ	-3711
▁ᎤᏁᏍᎨ	-3712
▁ᎤᏂᏣᏛ	-3713
▁ᎤᏌᎯᎸ	-3714
▁ᎤᏓᏅᏛ	-3715
▁ᎤᏓᏑᏯ	-3716
▁ᎤᏩᏒᏃ	-3717
▁ᎥᏝᏍᏗ	-3718
▁ᎦᏍᎩᎶ	-3719
▁ᎪᏣᎴᏛ	-3720
▁ᎬᏩᎪᎲ	-3721
▁ᎯᏍᎩᏃ	-3722
▁ᏂᏣᏛᏅ	-3723
▁ᏄᎾᏛᏅ	-3724
▁ᏄᏂᎲᎾ	-3725
▁ᏄᏂᏪᏒ	-3726
▁ᏄᏩᏁᎸ	-3727
▁ᏄᏪᏒᎢ	-3728
▁ᏐᎣᏁᎳ	-3729
▁ᏐᎵᎹᏅ	-3730
▁ᏓᎵᏍᏗ	-3731
▁ᏕᎦᎶᏗ	-3732
▁ᏗᎦᏓᎭ	-3733
▁ᏗᎧᎸᎬ	-3734
▁ᏚᎧᎿᏅ	-3735
▁ᏚᎴᏁᎢ	-3736
▁ᏚᎴᏅᏃ	-3737
▁ᏚᏂᏂᏴ	-3738
▁ᏧᏁᎿᎢ	-3739
▁ᏧᏓᏏᏃ	-3740
▁ᏧᏙᏢᏅ	-3741
▁ᏧᏪᏅᏒ	-3742
▁ᏭᎷᏨᎩ	-3743
▁ᏯᎦᏔᎭ	-3744
▁ᏱᏂᎬᏩ	-3745
▁ᏱᏥᏩᏘ	-3746
▁ᏱᏦᎯᏳ	-3747
ᎳᏗᏓᏍᏗᏱ	-3748
ᎴᏂᏓᏍᏗᏱ	-3749
ᎾᏄᎪᎢᏍᏗ	-3750
ᎾᏄᎪᏫᏎᎸ	-3751
ᎾᏄᎪᏫᏒᎯ	-3752
ᏁᎢᏍᏗᏍᎬ	-3753
ᏂᏆᏘᎮᏍᏗ	-3754
ᏔᏲᎯᎮᏍᏗ	-3755
ᏛᏅᎢᏍᏓᏁ	-3756
ᏲᎱᎯᏍᏗᏱ	-3757
▁ᎠᎦᏔᎯᏳ	-3758
▁ᎠᎩᎷᏥᎸ	-3759
▁ᎠᎾᏙᎴᎰ	-3760
▁ᎠᏍᎩᎾᏃ	-3761
▁ᎢᎧᏁᏨᎯ	-3762
▁ᎢᎬᏩᏁᏗ	-3763
▁ᎢᎬᏪᏅᏛ	-3764
▁ᎢᏣᏟᏂᎬ	-3765
▁ᎢᏦᎯᏳᎯ	-3766
▁ᎢᏯᎧᎵᎢ	-3767
▁ᎤᎨᏳᎯᏳ	-3768
▁ᎤᎴᏅᎲᎩ	-3769
▁ᎤᎵᏍᏓᏴ	-3770
▁ᎤᎵᏍᏚᎢ	-3771
▁ᎤᎶᏒᏍᏗ	-3772
▁ᎤᎾᏕᏅᎯ	-3773
▁ᎤᏂᎷᏤᎢ	-3774
▁ᎤᏂᎷᏤᏗ	-3775
▁ᎤᏍᏗᎧᏂ	-3776
▁ᎤᏓᏔᏅᎯ	-3777
▁ᎤᏯᏅᏒᎯ	-3778
▁ᎧᏁᎢᏍᏗ	-3779
▁ᏂᎦᏗᏳᏃ	-3780
▁ᏂᏣᏛᏁᎲ	-3781
▁ᏍᎩᎾᏝᎢ	-3782
▁ᏍᎩᏙᎵᎩ	-3783
▁ᏓᏟᎶᏍᏛ	-3784
▁ᏕᎦᏬᏁᏗ	-3785
▁ᏗᏨᏍᏙᏗ	-3786
▁ᏣᏃᏎᎰᎢ	-3787
▁ᏧᎦᏴᎵᎨ	-3788
▁ᏧᎴᏔᏅᎯ	-3789
▁ᏧᎾᏤᎵᎦ	-3790
▁ᏧᏓᏅᏛᎢ	-3791
▁ᏧᏓᏕᏒᏛ	-3792
ᎦᎵᏍᏓᏗᏍᎩ	-3793
ᎧᎿᏩᏛᏍᏗᏱ	-3794
ᏍᏆᏂᎪᏗᏍᎩ	-3795
ᏓᏙᎵᏍᏓᏁᎭ	-3796
ᏕᏍᏗᏍᎨᏍᏗ	-3797
ᏤᎵᎯᏍᎨᏍᏗ	-3798
▁ᎠᎾᏛᎩᏍᎩ	-3799
▁ᎠᏂᏃᎮᏍᎩ	-3800
▁ᎠᏆᏚᎵᏍᎬ	-3801
▁ᎠᏐᏢᎢᏍᏗ	-3802
▁ᎠᏥᏍᏕᎸᏗ	-3803
▁ᎢᎨᎬᏁᎸᎯ	-3804
▁ᎢᎩᎨᏳᎯᏳ	-3805
▁ᎢᏥᏪᏍᏗᏱ	-3806
▁ᎢᏳᏩᏁᎸᎯ	-3807
▁ᎤᎾᏚᎵᏍᎬ	-3808
▁ᎤᎾᏛᎦᏅᎩ	-3809
▁ᎤᏃᎯᏳᏗᏱ	-3810
▁ᎤᏓᎵᏓᏍᏗ	-3811
▁ᎤᏓᏅᏖᎸᎢ	-3812
▁ᎤᏩᏒᏍᎩᏂ	-3813
▁ᎦᏃᎸᎥᏍᎬ	-3814
▁ᎬᏍᎦᎢᏍᏓ	-3815
▁ᎾᎾᏛᏁᎲᎢ	-3816
▁ᏂᎦᎵᏍᏙᏗ	-3817
▁ᏂᏣᎵᏍᏓᏁ	-3818
▁ᏗᏂᏬᏂᏍᎩ	-3819
▁ᏥᏄᎵᏍᏔᏅ	-3820
▁ᏧᎴᎯᏌᏅᎯ	-3821
▁ᏧᎾᎬᏩᎶᏗ	-3822
▁ᎠᎵᏥᏙᎲᏍᎨ	-3823
▁ᎠᏂᏃᏍᎩᏍᎩ	-3824
▁ᎢᎩᏍᎦᏅᏨᎢ	-3825
▁ᎢᏨᏍᏗᏰᏗᎭ	-3826
▁ᎤᎵᎬᎭᎷᏴᎯ	-3827
▁ᎤᎸᏓᎸᎥᏍᎩ	-3828
▁ᎤᎾᏰᎯᏍᏗᏳ	-3829
▁ᎤᏂᎪᏩᏛᏗᏱ	-3830
▁ᎤᏂᎷᎯᏍᏗᏱ	-3831
▁ᏂᎦᎵᏍᏔᏂᏙ	-3832
▁ᏂᎦᎵᏍᏔᏅᎭ	-3833
▁ᏂᏣᏛᎿᏕᎬᎢ	-3834
▁ᏄᏂᎬᏫᏳᏒᏃ	-3835
▁ᏍᎩᏍᏓᏩᏚᎦ	-3836
▁ᏑᎾᏙᏓᏆᏍᏗ	-3837
▁ᏗᎩᎦᏴᎵᎨᎢ	-3838
▁ᏭᏂᎶᎯᏍᏗᏱ	-3839
▁ᎠᎦᏴᎵᎨᏍᏛᏱ	-3840
▁ᎠᎵᏏᎾᎯᏍᏙᏗ	-3841
▁ᎠᏙᎴᎰᎯᏍᏙᏗ	-3842
▁ᎢᏣᎵᎮᎵᎨᏍᏗ	-3843
▁ᎾᏃᎯᏳᎲᏍᎬᎾ	-3844
▁ᎠᎾᏓᏍᏓᏩᏗᏙᎯ	-3845
▁ᎠᎾᏓᏙᎵᏍᏓᏁᎯ	-3846
▁ᏗᏥᎸᏫᏍᏓᏁᏗᏱ	-3847
ᎥᏝ	-3848
ᎪᎥ	-3849
ᎪᎳ	-3850
ᎭᏄ	-3851
ᎱᎦ	-3852
ᎳᏂ	-3853
ᎸᏓ	-3854
ᎾᏮ	-3855
ᏂᎯ	-3856
ᏃᎢ	-3857
ᏃᎸ	-3858
ᏄᎮ	-3859
ᏄᎯ	-3860
ᏈᎷ	-3861
ᏌᏕ	-3862
ᏍᏈ	-3863
ᏑᏱ	-3864
ᏓᎢ	-3865
ᏕᎨ	-3866
ᏙᎠ	-3867
ᏙᎬ	-3868
ᏚᎭ	-3869
ᏚᎯ	-3870
ᏛᎭ	-3871
ᏱᎩ	-3872
ᏲᎮ	-3873
ᏴᎢ	-3874
▁-	-3875
▁Ꮇ	-3876
ᎠᏕᎸ	-3877
ᎦᏐᎠ	-3878
ᎦᏔᎰ	-3879
ᎦᏘᏅ	-3880
ᎧᏅᎦ	-3881
ᎩᎸᏗ	-3882
ᎪᎥᎩ	-3883
ᎪᏂᎨ	-3884
ᎪᏩᏗ	-3885
ᎳᏁᎢ	-3886
ᎷᎶᏗ	-3887
ᎸᏃᏘ	-3888
ᎸᏓᎩ	-3889
ᎿᎥᎾ	-3890
ᏁᎴᏃ	-3891
ᏅᏁᏗ	-3892
ᏓᎸᏛ	-3893
ᏓᏛᎢ	-3894
ᏙᎸᎢ	-3895
ᏙᏓᏈ	-3896
ᏛᏁᎴ	-3897
ᏞᏫᏒ	-3898
ᏡᏔᏂ	-3899
ᏤᎲᎾ	-3900
ᏥᏃᎯ	-3901
ᏪᏎᎵ	-3902
ᏫᏍᎩ	-3903
ᏰᎲᎾ	-3904
▁ᎠᏢ	-3905
▁ᎣᏨ	-3906
▁ᎤᎲ	-3907
▁ᎦᎬ	-3908
▁ᎧᏱ	-3909
▁ᎨᏤ	-3910
▁ᎬᏉ	-3911
▁ᎵᏫ	-3912
▁ᎶᎻ	-3913
▁ᏃᏯ	-3914
▁ᏌᏈ	-3915
▁ᏑᏓ	-3916
▁ᏓᏇ	-3917
▁ᏕᏏ	-3918
▁ᏙᎦ	-3919
▁ᏚᎦ	-3920
▁ᏛᎦ	-3921
▁ᏛᎩ	-3922
▁ᏥᏗ	-3923
▁ᏥᏤ	-3924
▁ᏦᏏ	-3925
▁ᏧᏲ	-3926
▁ᏩᏥ	-3927
▁ᏱᏘ	-3928
▁ᏳᏬ	-3929
ᎥᏍᎬᎢ	-3930
ᎦᏔᎮᎢ	-3931
ᎦᏔᎲᎢ	-3932
ᎳᏅᏍᏗ	-3933
ᎳᏗᏍᏗ	-3934
ᎳᏗᏙᎭ	-3935
ᎶᏒᏍᏗ	-3936
ᎷᏤᎸᎩ	-3937
ᎾᏓᎴᎩ	-3938
ᎾᏰᏍᎦ	-3939
ᏂᏐᏗᏱ	-3940
ᏄᏙᎬᎢ	-3941
ᏅᏬᏗᏱ	-3942
ᏍᎦᏨᎯ	-3943
ᏍᏓᏓᎳ	-3944
ᏍᏔᏅᎭ	-3945
ᏓᏂᎸᎦ	-3946
ᏕᏯᏔᏁ	-3947
ᏗᎦᏘᏯ	-3948
ᏘᏃᎸᎩ	-3949
ᏙᎵᏨᎯ	-3950
ᏛᏁᎴᎢ	-3951
ᏜᏏᏛᎡ	-3952
ᏟᏌᏅᎩ	-3953
ᏡᏗᏍᎬ	-3954
ᏥᏴᏁᎵ	-3955
ᏨᎷᏤᎵ	-3956
ᏯᏅᏗᏱ	-3957
ᏲᎱᏒᎩ	-3958
ᏴᏁᏗᏱ	-3959
▁ᎠᎦᏬ	-3960
▁ᎠᎾᏁ	-3961
▁ᎠᏂᏰ	-3962
▁ᎠᏆᏓ	-3963
▁ᎠᏍᎩ	-3964
▁ᎠᏎᎵ	-3965
▁ᎠᏓᎵ	-3966
▁ᎠᏫᏅ	-3967
▁ᎡᎮᎢ	-3968
▁ᎡᎳᏂ	-3969
▁ᎡᏃᏱ	-3970
▁ᎡᏉᏂ	-3971
▁ᎢᏥᎦ	-3972
▁ᎢᏥᎭ	-3973
▁ᎤᎪᎮ	-3974
▁ᎤᎾᏗ	-3975
▁ᎤᏎᎵ	-3976
▁ᎤᏓᎴ	-3977
▁ᎤᏓᏠ	-3978
▁ᎤᏓᏱ	-3979
▁ᎤᏪᎭ	-3980
▁ᎤᏬᎴ	-3981
▁ᎥᏣᏱ	-3982
▁ᎦᏚᏱ	-3983
▁ᎬᏍᎦ	-3984
▁ᎬᏩᏕ	-3985
▁ᎺᎵᏃ	-3986
▁ᎾᎦᏛ	-3987
▁ᏂᎦᏥ	-3988
▁ᏂᏕᏨ	-3989
▁ᏂᏚᏩ	-3990
▁ᏂᏣᏓ	-3991
▁ᏄᎾᏓ	-3992
▁ᏅᏛᏆ	-3993
▁ᏌᎵᏂ	-3994
▁ᏓᎨᏥ	-3995
▁ᏓᏍᏚ	-3996
▁ᏓᏓᏬ	-3997
▁ᏓᏤᎸ	-3998
▁ᏓᏫᏒ	-3999
▁ᏓᏳᏂ	-4000
▁ᏕᎦᎵ	-4001
▁ᏕᏡᎬ	-4002
▁ᏕᏥᏅ	-4003
▁ᏗᏁᎯ	-4004
▁ᏗᏂᏲ	-4005
▁ᏗᏇᏥ	-4006
▁ᏗᏧᎪ	-4007
▁ᏚᏃᏣ	-4008
▁ᏤᎵᎪ	-4009
▁ᏥᏂᏨ	-4010
▁ᏥᏄᎾ	-4011
▁ᏥᏍᎪ	-4012
▁ᏥᏥᏯ	-4013
▁ᏦᏰᏂ	-4014
▁ᏧᏄᏬ	-4015
▁ᏧᏬᎸ	-4016
▁ᏯᎩᎭ	-4017
▁ᏱᎨᏥ	-4018
▁ᏳᏃᎵ	-4019
ᎦᏔᎾᎥᎾ	-4020
ᎵᎠᏅᎯᏛ	-4021
ᎵᏥᏙᏗᏱ	-4022
ᎸᏉᏔᏅᎯ	-4023
ᏁᏉᏤᏗᏱ	-4024
ᏂᎬᏎᎲᎢ	-4025
ᏄᎪᏫᏒᎩ	-4026
ᏅᎢᏍᏗᏱ	-4027
ᏌᎳᏓᏅᎩ	-4028
ᏍᏓᏩᏕᏅ	-4029
ᏙᎴᎰᏍᎦ	-4030
ᏚᎵᏍᎬᎢ	-4031
ᏪᎳᎩᏍᎩ	-4032
▁ᎠᎩᏍᏆ	-4033
▁ᎠᏁᎮᎢ	-4034
▁ᎠᏁᏙᎮ	-4035
▁ᎠᏂᏦᎢ	-4036
▁ᎠᏂᏴᎯ	-4037
▁ᎠᏆᏓᏅ	-4038
▁ᎠᏍᎫᏕ	-4039
▁ᎠᏥᏁᏗ	-4040
▁ᎠᏥᏅᏩ	-4041
▁ᎠᏰᎸᎯ	-4042
▁ᎡᎶᏛᏃ	-4043
▁ᎢᎦᏛᎯ	-4044
▁ᎢᎪᎯᏳ	-4045
▁ᎢᏍᏕᎾ	-4046
▁ᎢᏣᏚᎵ	-4047
▁ᎢᏯᏂᎢ	-4048
▁ᎣᏂᏱᏃ	-4049
▁ᎤᎦᏛᎾ	-4050
▁ᎤᎪᎲᏃ	-4051
▁ᎤᎬᎭᎷ	-4052
▁ᎤᎿᎥᎢ	-4053
▁ᎤᏂᎧᎵ	-4054
▁ᎤᏂᎪᎮ	-4055
▁ᎤᏂᎵᏅ	-4056
▁ᎤᏂᏍᏆ	-4057
▁ᎤᏄᎪᏤ	-4058
▁ᎤᏅᏏᏴ	-4059
▁ᎤᏍᏆᎸ	-4060
▁ᎤᏍᏆᏛ	-4061
▁ᎤᏍᏗᎩ	-4062
▁ᎤᏛᎦᏁ	-4063
▁ᎤᏣᏛᎩ	-4064
▁ᎦᎵᏥᏙ	-4065
▁ᎦᎵᏦᏛ	-4066
▁ᎦᏙᎴᎣ	-4067
▁ᎦᏛᎬᎢ	-4068
▁ᎨᏥᏁᏗ	-4069
▁ᎪᏪᎸᎩ	-4070
▁ᎬᏁᏍᏗ	-4071
▁ᎯᎦᏙᎵ	-4072
▁ᎾᎯᏳᏉ	-4073
▁ᎿᏉᏰᏃ	-4074
▁ᏂᏨᏁᎸ	-4075
▁ᏄᏩᏁᎴ	-4076
▁ᏇᏗᏂᏱ	-4077
▁ᏌᎪᏂᎨ	-4078
▁ᏍᎦᏚᎩ	-4079
▁ᏑᎾᎴᎢ	-4080
▁ᏓᏓᏁᎸ	-4081
▁ᏗᎩᎾᏫ	-4082
▁ᏗᏁᎲᎢ	-4083
▁ᏚᏍᏆᎸ	-4084
▁ᏚᏙᎥᎢ	-4085
▁ᏣᏂᏰᏃ	-4086
▁ᏣᏓᏅᏙ	-4087
▁ᏣᏤᏍᏙ	-4088
▁ᏤᎦᎳᏯ	-4089
▁ᏥᎦᏘᏏ	-4090
▁ᏥᎩᎵᏲ	-4091
▁ᏥᏂᎦᏪ	-4092
▁ᏥᏚᏙᎥ	-4093
▁ᏥᏰᎸᎢ	-4094
▁ᏧᏁᏗᏱ	-4095
▁ᏫᎦᎷᎩ	-4096
ᎦᏘᏗᏍᏗᏱ	-4097
ᎦᏙᎥᎯᏍᏗ	-4098
ᎯᏍᏗᏍᎬᎢ	-4099
ᎵᏂᎪᎯᏍᏗ	-4100
ᎵᏥᏙᏁᎸᎯ	-4101
ᏐᏢᎢᏍᏙᏗ	-4102
ᏓᎴᎲᏍᎬᎩ	-4103
ᏔᎳᏬᏍᎬᎢ	-4104
ᏙᎴᎰᎯᏍᏗ	-4105
ᏣᏛᏁᎮᏍᏗ	-4106
ᏬᏂᎯᏍᏗᏱ	-4107
▁ᎠᎦᏔᎿᎢ	-4108
▁ᎠᎬᎭᎸᏛ	-4109
▁ᎠᏂᎪᏗᏳ	-4110
▁ᎠᏂᏙᎾᎥ	-4111
▁ᎠᏍᎦᎾᎢ	-4112
▁ᎠᏍᎪᎯᏃ	-4113
▁ᎠᏍᏆᎸᎲ	-4114
▁ᎠᏓᏎᎪᎩ	-4115
▁ᎠᏟᏍᏛᎢ	-4116
▁ᎠᏥᏅᏏᏛ	-4117
▁ᎠᏲᎱᏍᎩ	-4118
▁ᎡᏥᏯᏅᏛ	-4119
▁ᎢᎸᎯᏢᏃ	-4120
▁ᎢᏣᎴᏂᏙ	-4121
▁ᎢᏣᏛᏅᎢ	-4122
▁ᎣᎩᏅᏏᏛ	-4123
▁ᎤᎾᎦᏌᏯ	-4124
▁ᎤᎾᎵᏖᎸ	-4125
▁ᎤᎾᎵᏥᏙ	-4126
▁ᎤᏂᏃᎮᎴ	-4127
▁ᎤᏂᏰᎸᏗ	-4128
▁ᎤᏓᏅᏖᏛ	-4129
▁ᎤᏕᏔᏅᎯ	-4130
▁ᎤᏡᏗᏍᎩ	-4131
▁ᎤᏪᎷᏁᎢ	-4132
▁ᎤᏪᏅᏎᎢ	-4133
▁ᎤᏪᏙᎸᎩ	-4134
▁ᎥᏝᏍᎩᏂ	-4135
▁ᎦᎵᎡᎵᎦ	-4136
▁ᎦᎶᎯᏍᏗ	-4137
▁ᎦᎸᎳᏗᏢ	-4138
▁ᎦᏚᎢᏗᏢ	-4139
▁ᎬᏩᎷᏤᎴ	-4140
▁ᎬᏩᏔᏲᏎ	-4141
▁ᏂᏚᎩᏨᏂ	-4142
▁ᏑᎾᏓᎴᎩ	-4143
▁ᏕᎤᎴᏔᏅ	-4144
▁ᏕᎦᎳᏫᎥ	-4145
▁ᏕᏏᎶᏂᎦ	-4146
▁ᏗᏣᏤᎵᎦ	-4147
▁ᏚᎴᎯᏌᏅ	-4148
▁ᏚᏁᏤᎴᏃ	-4149
▁ᏥᏚᏳᎪᏗ	-4150
▁ᏥᏣᏛᎩᎭ	-4151
▁ᏧᎦᏒᏍᏗ	-4152
▁ᏧᎾᏄᏩᎢ	-4153
▁ᏧᏭᎪᏙᏗ	-4154
▁ᏨᏍᎩᏃᎢ	-4155
▁ᏭᏂᎶᏒᎩ	-4156
▁ᏭᏂᎷᏤᎢ	-4157
▁ᎠᎦᎵᏍᎪᎸ	-4158
▁ᎠᎩᎾᏄᎪᏫ	-4159
▁ᎠᎪᏎᎮᏍᏗ	-4160
▁ᎠᏙᎴᎰᏒᎯ	-4161
▁ᎡᏥᏲᎵᎸᎭ	-4162
▁ᎢᏗᏍᏓᏓᎳ	-4163
▁ᎢᏣᎵᏍᏓᏴ	-4164
▁ᎢᏦᎯᏳᏗᏱ	-4165
▁ᎢᏧᏕᏘᏴᏛ	-4166
▁ᎢᏨᏯᏅᏓᏗ	-4167
▁ᎢᏯᏥᎸᏉᏗ	-4168
▁ᎤᎪᏩᏛᏗᏱ	-4169
▁ᎤᏂᎬᎥᏍᎩ	-4170
▁ᎤᏂᎸᏉᏔᏁ	-4171
▁ᎤᏂᏣᏖᏍᏗ	-4172
▁ᎤᏍᎦᏅᏨᎢ	-4173
▁ᎤᏍᎦᏅᏨᎯ	-4174
▁ᎤᏪᏍᎩᎸᎢ	-4175
▁ᎨᎦᎵᏍᎪᎸ	-4176
▁ᎨᏥᏍᏕᎸᏗ	-4177
▁ᎬᏩᎪᏩᏛᏗ	-4178
▁ᎾᏍᎦᎢᎲᎾ	-4179
▁ᏄᏂᏪᏎᎸᎩ	-4180
▁ᏄᏬᎯᏳᏒᎾ	-4181
▁ᏓᏂᏴᎨᏍᏗ	-4182
▁ᏗᏓᎴᎲᏍᎦ	-4183
▁ᏗᏦᏪᎵᏍᎩ	-4184
▁ᏚᏓᏘᎾᎥᎢ	-4185
▁ᏧᏩᎫᏔᏅᏒ	-4186
▁ᏫᎨᏥᏲᎵᎭ	-4187
▁ᎠᎦᏴᎵᎨᏰᏃ	-4188
▁ᎠᎵᏍᎪᎸᏙᏗ	-4189
▁ᎠᏂᏃᎯᎵᏙᎯ	-4190
▁ᎠᏓᏪᎳᎩᏍᎩ	-4191
▁ᎢᎦᎵᏍᏙᏗᏱ	-4192
▁ᎢᏥᎦᏔᎭᏰᏃ	-4193
▁ᎤᎵᏍᏆᎸᏗᏃ	-4194
▁ᎤᎾᏄᎪᎢᏍᏗ	-4195
▁ᎤᏗᎦᎵᏍᏙᏗ	-4196
▁ᎦᎶᏁᏛᏍᎩᏂ	-4197
▁ᎬᏍᎦᎢᏍᏓᎩ	-4198
▁ᎬᏩᏓᏍᏕᎸᏗ	-4199
▁ᏅᏓᎦᎵᏍᏙᏓ	-4200
▁ᏗᎾᏕᏲᎲᏍᎩ	-4201
▁ᏗᏃᏪᎵᏍᎩᏃ	-4202
▁ᏙᏗᏣᏓᏅᏛᎢ	-4203
ᏓᏙᎵᏍᏓᏁᎮᏍᏗ	-4204
▁ᎤᎾᎵᏍᏓᏴᏗᏱ	-4205
▁ᎤᏂᎩᎵᏲᎢᏍᏗ	-4206
▁ᎦᎶᎯᏍᏗᏳᎶᏗ	-4207
▁ᏅᏓᎦᎵᏍᏙᏔᏂ	-4208
▁ᏓᏆᏓᏂᎸᎨᏍᏗ	-4209
▁ᏥᏅᏗᎦᎵᏍᏙᏗ	-4210
▁ᏦᎩᎸᏫᏍᏓᏁᎯ	-4211
▁ᏧᏂᏁᏟᏴᏍᏗᏱ	-4212
▁ᏱᏅᏗᎦᎵᏍᏙᏗ	-4213
▁ᏱᏤᎵᎯᏍᎨᏍᏗ	-4214
▁ᎠᏓᏎᎪᎩᏍᎨᏍᏗ	-4215
▁ᏕᏣᎸᏫᏍᏓᏁᎲᎢ	-4216
▁ᏗᎬᏩᏓᏂᎸᎢᏍᏗ	-4217
▁ᏗᎵᏍᎪᎸᏓᏁᎸᎯ	-4218
▁ᎤᏙᎯᏳᎯᏍᎩᏂᏃᏅ	-4219
▁ᏕᏥᎧᎿᏩᏗᏙᎮᏍᏗ	-4220
ᎠᏏ	-4221
ᎠᏥ	-4222
ᎦᎴ	-4223
ᎦᎿ	-4224
ᎩᎶ	-4225
ᎩᏃ	-4226
ᎪᏄ	-4227
ᎭᏉ	-4228
ᎮᎸ	-4229
ᎵᏴ	-4230
ᎾᎥ	-4231
ᎿᎠ	-4232
ᏁᏛ	-4233
ᏌᎾ	-4234
ᏍᏇ	-4235
ᏐᎯ	-4236
ᏔᏗ	-4237
ᏕᎭ	-4238
ᏗᏃ	-4239
ᏙᏢ	-4240
ᏥᏍ	-4241
ᏦᏁ	-4242
ᏧᏂ	-4243
ᏫᏯ	-4244
ᏬᏅ	-4245
ᏯᎷ	-4246
ᏳᏃ	-4247
ᏴᎳ	-4248
ᏴᏓ	-4249
ᎢᏒᏃ	-4250
ᎦᏘᏴ	-4251
ᎩᎳᎾ	-4252
ᎩᏨᏗ	-4253
ᎪᎵᏯ	-4254
ᎲᎾᏉ	-4255
ᎳᏅᎩ	-4256
ᎴᏅᎯ	-4257
ᎴᏏᏱ	-4258
ᎵᏙᎸ	-4259
ᎵᏥᏆ	-4260
ᎷᎪᎢ	-4261
ᎷᏤᏗ	-4262
ᎸᏉᏙ	-4263
ᎸᏌᏓ	-4264
ᏁᎵᏛ	-4265
ᏁᏤᎢ	-4266
ᏁᏤᎴ	-4267
ᏁᏨᎯ	-4268
ᏂᏙᎭ	-4269
ᏃᎮᎴ	-4270
ᏃᎮᏗ	-4271
ᏃᎸᎩ	-4272
ᏄᎪᏨ	-4273
ᏄᎸᏗ	-4274
ᏉᏍᎪ	-4275
ᏍᏆᎶ	-4276
ᏍᏗᏗ	-4277
ᏏᏕᎾ	-4278
ᏒᏍᏛ	-4279
ᏒᏗᏱ	-4280
ᏔᏅᎭ	-4281
ᏕᎰᎯ	-4282
ᏕᎸᎩ	-4283
ᏛᏁᏃ	-4284
ᏤᎴᎢ	-4285
ᏤᎸᎩ	-4286
ᏨᏎᎢ	-4287
ᏪᎸᎦ	-4288
ᏪᏒᎢ	-4289
ᏯᏁᏒ	-4290
ᏯᏅᎯ	-4291
ᏯᏔᎯ	-4292
ᏴᏒᎩ	-4293
▁ᎠᏕ	-4294
▁ᎢᏔ	-4295
▁ᎣᏒ	-4296
▁ᎤᎭ	-4297
▁ᎤᎯ	-4298
▁ᎤᏯ	-4299
▁ᎦᎳ	-4300
▁ᎦᏲ	-4301
▁ᎧᏅ	-4302
▁ᎨᎬ	-4303
▁ᎨᎾ	-4304
▁ᎪᏙ	-4305
▁ᎯᏲ	-4306
▁ᎴᎣ	-4307
▁ᏂᎩ	-4308
▁ᏂᏦ	-4309
▁ᏄᏬ	-4310
▁ᏓᏈ	-4311
▁ᏔᏯ	-4312
▁ᏕᎠ	-4313
▁ᏗᎴ	-4314
▁ᏚᏫ	-4315
▁ᏤᎩ	-4316
▁ᏥᏰ	-4317
▁ᏦᏣ	-4318
▁ᏦᏨ	-4319
▁ᏧᏘ	-4320
▁ᏨᏗ	-4321
▁ᏫᎨ	-4322
▁ᏮᏛ	-4323
▁ᏰᏣ	-4324
▁ᏱᏏ	-4325
▁ᏴᏗ	-4326
ᎦᎵᏍᎩ	-4327
ᎦᎸᎲᎩ	-4328
ᎦᏔᎲᎩ	-4329
ᎨᏎᏍᏗ	-4330
ᎪᎵᏰᎥ	-4331
ᎪᏙᏗᏱ	-4332
ᎭᏄᎸᎯ	-4333
ᎲᏍᎬᏃ	-4334
ᎵᎪᏁᎯ	-4335
ᎵᏂᎬᎬ	-4336
ᎵᏂᏗᏱ	-4337
ᎵᏍᎨᎢ	-4338
ᎵᏓᏍᏗ	-4339
ᎵᏙᎸᎢ	-4340
ᎵᏥᏙᏗ	-4341
ᎸᏌᏓᏕ	-4342
ᎾᏰᏍᎩ	-4343
ᏁᏤᎸᎩ	-4344
ᏂᎬᏎᎲ	-4345
ᏂᏆᏘᎭ	-4346
ᏂᏆᏘᎯ	-4347
ᏃᎮᏗᏱ	-4348
ᏄᎦᎸᎯ	-4349
ᏄᎳᏍᏗ	-4350
ᏍᎬᏰᏃ	-4351
ᏍᏔᏅᎾ	-4352
ᏑᏰᏍᏗ	-4353
ᏓᏁᎰᎢ	-4354
ᏓᏄᏴᏛ	-4355
ᏓᏅᏛᎾ	-4356
ᏕᏲᏗᏱ	-4357
ᏙᎴᎰᎯ	-4358
ᏙᏓᏆᏛ	-4359
ᏛᏛᏅᎩ	-4360
ᏟᏐᏗᏱ	-4361
ᏧᎪᏓᏁ	-4362
ᏧᎵᏍᏙ	-4363
ᏬᏍᏔᏂ	-4364
ᏰᎸᏁᎢ	-4365
ᏲᎯᏎᏗ	-4366
ᏲᎲᏍᎦ	-4367
ᏲᏁᎸᎩ	-4368
▁ᎠᎩᎪ	-4369
▁ᎠᎩᏲ	-4370
▁ᎠᎲᏛ	-4371
▁ᎠᎴᏉ	-4372
▁ᎠᏍᏛ	-4373
▁ᎠᏥᏅ	-4374
▁ᎠᏩᏘ	-4375
▁ᎠᏩᏛ	-4376
▁ᎡᎮᎾ	-4377
▁ᎡᎶᏗ	-4378
▁ᎢᎨᏨ	-4379
▁ᎢᏨᏰ	-4380
▁ᎣᎩᎾ	-4381
▁ᎤᎩᎵ	-4382
▁ᎤᎶᏗ	-4383
▁ᎤᎾᏂ	-4384
▁ᎤᎾᏞ	-4385
▁ᎤᏁᎵ	-4386
▁ᎤᏂᏩ	-4387
▁ᎤᏅᏎ	-4388
▁ᎤᏍᏚ	-4389
▁ᎤᏖᎸ	-4390
▁ᎤᏙᏢ	-4391
▁ᎤᏛᏗ	-4392
▁ᎤᏟᏉ	-4393
▁ᎤᏣᏅ	-4394
▁ᎤᏩᏂ	-4395
▁ᎤᏲᏉ	-4396
▁ᎦᏁᏥ	-4397
▁ᎦᏅᏅ	-4398
▁ᎧᏁᎢ	-4399
▁ᎩᎳᏃ	-4400
▁ᎪᎢᏳ	-4401
▁ᎪᎯᏃ	-4402
▁ᎬᏩᏲ	-4403
▁ᎯᏯᏛ	-4404
▁ᏂᏍᏋ	-4405
▁ᏂᏓᏕ	-4406
▁ᏂᏗᎦ	-4407
▁ᏂᏨᎦ	-4408
▁ᏄᏍᏕ	-4409
▁ᏅᏓᏣ	-4410
▁ᏌᏯᏂ	-4411
▁ᏏᎵᏱ	-4412
▁ᏑᎾᎴ	-4413
▁ᏓᏂᏙ	-4414
▁ᏓᏰᏣ	-4415
▁ᏓᏲᏣ	-4416
▁ᏕᎦᏅ	-4417
▁ᏗᏄᎪ	-4418
▁ᏗᏓᏂ	-4419
▁ᏙᏓᎬ	-4420
▁ᏚᏂᎪ	-4421
▁ᏚᏂᏅ	-4422
▁ᏚᏂᏲ	-4423
▁ᏚᏅᏂ	-4424
▁ᏚᏓᏅ	-4425
▁ᏣᎾᏫ	-4426
▁ᏥᎨᎦ	-4427
▁ᏥᎾᏂ	-4428
▁ᏥᏕᏥ	-4429
▁ᏦᎢᏃ	-4430
▁ᏧᎵᏍ	-4431
▁ᏧᏁᎵ	-4432
▁ᏧᏍᏗ	-4433
▁ᏧᏚᎪ	-4434
▁ᏫᎶᎯ	-4435
▁ᏱᏙᎨ	-4436
▁ᏱᏙᎩ	-4437
ᎾᎵᏍᏓᏴ	-4438
ᎾᏫᏛᎲᎩ	-4439
ᏂᏏᎲᏍᎩ	-4440
ᏅᏍᏔᏅᎩ	-4441
ᏓᎴᏍᏗᏱ	-4442
ᏓᎵᏁᎯᏕ	-4443
ᏓᏂᎸᎬᎾ	-4444
ᏓᏅᎦᎸᏛ	-4445
ᏔᏂᏓᏍᏗ	-4446
ᏕᏲᎲᏍᎦ	-4447
ᏘᏃᎮᎸᎩ	-4448
▁ᎠᎩᎩᎬ	-4449
▁ᎠᎩᏍᏛ	-4450
▁ᎠᎵᏍᏆ	-4451
▁ᎠᏁᏙᎭ	-4452
▁ᎠᏂᏅᎢ	-4453
▁ᎠᏆᏢᏈ	-4454
▁ᎠᏉᏰᏂ	-4455
▁ᎠᏍᏚᎢ	-4456
▁ᎠᏍᏚᎲ	-4457
▁ᎠᏎᎸᎯ	-4458
▁ᎠᏔᎴᏒ	-4459
▁ᎠᏤᏍᏙ	-4460
▁ᎠᏥᏰᎯ	-4461
▁ᎠᏰᏙᎳ	-4462
▁ᎡᎳᏂᎬ	-4463
▁ᎡᏂᎾᏯ	-4464
▁ᎡᏙᏙᏱ	-4465
▁ᎢᎦᏠᏯ	-4466
▁ᎢᎩᏅᏟ	-4467
▁ᎢᏣᏄᏬ	-4468
▁ᎢᏥᎨᏴ	-4469
▁ᎢᏨᏬᏁ	-4470
▁ᎣᎦᏤᎵ	-4471
▁ᎣᎩᏙᏓ	-4472
▁ᎤᎦᏌᏯ	-4473
▁ᎤᎦᏙᎥ	-4474
▁ᎤᎪᎲᎢ	-4475
▁ᎤᎬᏩᎳ	-4476
▁ᎤᎴᏅᎩ	-4477
▁ᎤᎵᏍᎦ	-4478
▁ᎤᏁᏅᏎ	-4479
▁ᎤᏁᏤᎢ	-4480
▁ᎤᏅᏎᎢ	-4481
▁ᎤᏍᏗᏰ	-4482
▁ᎤᏓᏩᏗ	-4483
▁ᎤᏗᏗᏢ	-4484
▁ᎤᏢᏉᏗ	-4485
▁ᎤᏤᎷᎯ	-4486
▁ᎤᏩᏛᏗ	-4487
▁ᎤᏪᏅᎩ	-4488
▁ᎤᏪᏐᏅ	-4489
▁ᎤᏬᎸᎢ	-4490
▁ᎤᏰᎸᎭ	-4491
▁ᎤᏲᏰᏃ	-4492
▁ᎤᏴᎸᎩ	-4493
▁ᎦᎪᏰᏃ	-4494
▁ᎦᏁᎲᎩ	-4495
▁ᎦᏅᎯᏛ	-4496
▁ᎦᏌᎾᎵ	-4497
▁ᎦᏙᏰᏃ	-4498
▁ᎧᏁᎬᏃ	-4499
▁ᎧᏁᏍᎦ	-4500
▁ᎨᎴᏏᏱ	-4501
▁ᎨᏥᏅᏏ	-4502
▁ᎴᎣᏗᏏ	-4503
▁ᎾᎬᏁᎸ	-4504
▁ᎾᎯᏳᎢ	-4505
▁ᏂᎦᏛᏉ	-4506
▁ᏂᎨᏎᎢ	-4507
▁ᏂᎪᎯᏳ	-4508
▁ᏄᎾᏍᏗ	-4509
▁ᏄᏪᎲᎾ	-4510
▁ᏇᎵᏥᏆ	-4511
▁ᏈᎵᎩᏃ	-4512
▁ᏌᏉᎤᏅ	-4513
▁ᏏᎵᏏᏱ	-4514
▁ᏑᎾᎴᏃ	-4515
▁ᏑᏟᎶᏛ	-4516
▁ᏓᎾᏠᏱ	-4517
▁ᏓᏓᎶᏂ	-4518
▁ᏓᏓᏛᏂ	-4519
▁ᏔᎳᏚᏃ	-4520
▁ᏕᎨᎦᏬ	-4521
▁ᏕᎬᏩᏠ	-4522
▁ᏕᏅᏙᎥ	-4523
▁ᏕᏡᎬᎢ	-4524
▁ᏕᏫᏰᏃ	-4525
▁ᏗᏕᎶᏆ	-4526
▁ᏙᏓᎨᏥ	-4527
▁ᏚᎵᏥᏙ	-4528
▁ᏚᎸᏌᏛ	-4529
▁ᏚᎾᏓᏅ	-4530
▁ᏚᏂᏅᏎ	-4531
▁ᏚᏩᏛᎮ	-4532
▁ᏣᏁᎮᎢ	-4533
▁ᏥᏂᎨᎬ	-4534
▁ᏥᏍᎪᏴ	-4535
▁ᏥᏳᎯᏃ	-4536
▁ᏧᎦᎾᏮ	-4537
▁ᏧᏁᏤᎢ	-4538
▁ᏧᏓᎴᏅ	-4539
▁ᏫᏂᏪᏏ	-4540
▁ᏭᏂᎷᏤ	-4541
▁ᏭᏯᏅᎲ	-4542
▁ᏭᏴᎸᎩ	-4543
ᎵᏍᏓᏴᎲᎦ	-4544
ᏓᏅᎡᎮᏍᏗ	-4545
ᏓᏙᎵᏍᏓᏏ	-4546
ᏗᎦᎴᏲᏨᎯ	-4547
ᏘᏅᏍᏔᏁᎢ	-4548
ᏟᏏᏍᎨᏍᏗ	-4549
ᏯᏂᏍᎨᏍᏗ	-4550
ᏰᎵᏎᎮᏍᏗ	-4551
ᏲᏪᎳᏁᎸᎩ	-4552
▁ᎠᎦᏍᎦᏂ	-4553
▁ᎠᎩᏁᏨᎢ	-4554
▁ᎠᎵᏥᏙᏗ	-4555
▁ᎠᎵᏰᎢᎶ	-4556
▁ᎠᏂᎦᏲᎵ	-4557
▁ᎠᏂᎸᏉᏗ	-4558
▁ᎠᏂᏃᎮᎭ	-4559
▁ᎠᏂᏔᏲᎯ	-4560
▁ᎠᏄᎦᎸᎯ	-4561
▁ᎠᏆᏓᏅᏛ	-4562
▁ᎠᏆᏙᎴᎰ	-4563
▁ᎠᏍᎦᏅᏨ	-4564
▁ᎠᏣᏪᏐᎸ	-4565
▁ᎠᏯᏫᏍᎩ	-4566
▁ᎡᏣᏙᎵᎩ	-4567
▁ᎡᏥᏁᎸᎯ	-4568
▁ᎢᎦᎸᏉᏗ	-4569
▁ᎢᎨᎬᏁᏗ	-4570
▁ᎢᎸᏍᎩᏃ	-4571
▁ᎢᏥᏰᎸᎯ	-4572
▁ᎢᏨᏁᏗᏱ	-4573
▁ᎢᏳᏓᎨᏛ	-4574
▁ᎣᎦᎵᏍᏓ	-4575
▁ᎣᎦᏚᎵᎭ	-4576
▁ᎤᎦᎾᏍᏛ	-4577
▁ᎤᎦᏔᎲᏒ	-4578
▁ᎤᎵᎮᎵᏨ	-4579
▁ᎤᏁᏅᏎᏃ	-4580
▁ᎤᏁᏅᏒᎩ	-4581
▁ᎤᏂᎪᎲᎯ	-4582
▁ᎤᏂᏩᏛᎮ	-4583
▁ᎤᏇᏓᎵᏉ	-4584
▁ᎤᏓᎨᏳᏗ	-4585
▁ᎤᏓᏁᏟᏴ	-4586
▁ᎤᏔᏲᏎᎴ	-4587
▁ᎤᏕᏯᏔᏁ	-4588
▁ᎤᏪᏅᏒᎩ	-4589
▁ᎤᏰᎸᏁᎢ	-4590
▁ᎤᏲᎱᏎᏗ	-4591
▁ᎤᏲᏍᏛᏉ	-4592
▁ᎥᏓᎷᎶᏗ	-4593
▁ᎦᎸᎳᏗᏃ	-4594
▁ᎦᎾᏄᎪᏥ	-4595
▁ᎦᏃᏙᏗᏱ	-4596
▁ᎦᏰᏥᏐᏢ	-4597
▁ᎦᏳᎳᏰᏃ	-4598
▁ᎨᏥᏅᏒᎯ	-4599
▁ᎨᏥᏍᎦᎩ	-4600
▁ᎪᎵᏂᏗᏱ	-4601
▁ᎾᎩᏪᏒᎩ	-4602
▁ᏂᎦᎥᏰᏃ	-4603
▁ᏂᎦᎵᏍᏓ	-4604
▁ᏂᎪᎯᎸᏉ	-4605
▁ᏂᏦᎵᎬᎾ	-4606
▁ᏄᎾᏛᏁᎸ	-4607
▁ᏄᏛᏁᎴᎢ	-4608
▁ᏑᏕᏘᏴᏛ	-4609
▁ᏓᎦᏛᏁᎵ	-4610
▁ᏓᏂᎸᏓᎩ	-4611
▁ᏓᏂᏁᎸᎢ	-4612
▁ᏓᏓᏁᎳᏗ	-4613
▁ᏗᏣᏁᎶᏗ	-4614
▁ᏙᏛᎾᎴᏂ	-4615
▁ᏚᎾᏄᎪᏫ	-4616
▁ᏚᎿᏍᏕᏢ	-4617
▁ᏚᏅᏍᏓᏕ	-4618
▁ᏣᎦᏑᎲᎢ	-4619
▁ᏣᏍᎦᏅᏨ	-4620
▁ᏫᏥᎦᏛᎢ	-4621
▁ᏫᏥᎷᏨᎭ	-4622
▁ᏫᏥᏲᎵᎦ	-4623
▁ᏫᏲᏪᎳᏏ	-4624
▁ᏱᏂᎬᏁᎭ	-4625
▁ᏱᏅᏩᏍᏗ	-4626
ᎦᏌᏯᏍᏗᏕᎩ	-4627
ᏁᎢᏍᏗᏍᎬᎢ	-4628
ᏍᏓᏩᏛᏍᏗᏱ	-4629
ᏓᏙᎵᏍᏓᏁᏗ	-4630
▁ᎠᎩᏅᏏᏙᎯ	-4631
▁ᎠᏁᎵᏍᎬᎩ	-4632
▁ᎠᏂᎦᏔᎾᎢ	-4633
▁ᎠᏍᎫᏕᏍᏗ	-4634
▁ᎠᏏᎾᏌᏂᏳ	-4635
▁ᎠᏓᏰᎨᏍᏗ	-4636
▁ᎠᏚᎢᏍᏛᎢ	-4637
▁ᎡᏣᎸᏉᏗᏳ	-4638
▁ᎢᏥᏯᎡᏍᏗ	-4639
▁ᎢᏨᎨᏳᎢᏳ	-4640
▁ᎢᏨᏲᏪᎳᏏ	-4641
▁ᎣᏏᏳᏍᎩᏂ	-4642
▁ᎤᎦᏔᏔᏅᎯ	-4643
▁ᎤᎵᏍᏚᎢᏛ	-4644
▁ᎤᎾᏄᎪᏥᎸ	-4645
▁ᎤᎾᏓᏑᏰᏛ	-4646
▁ᎤᎾᏛᎦᏁᎢ	-4647
▁ᎤᎾᏛᎦᏅᏃ	-4648
▁ᎤᎾᏛᎪᏗᏱ	-4649
▁ᎤᎾᏰᎯᏍᏗ	-4650
▁ᎤᏃᎯᏳᏅᎩ	-4651
▁ᎤᏓᏅᏍᏗᏱ	-4652
▁ᎤᏓᏙᎵᏣᏘ	-4653
▁ᎦᎵᎷᎨᏍᏗ	-4654
▁ᎦᏁᏟᏴᏍᏗ	-4655
▁ᎬᏩᎷᏤᎴᎢ	-4656
▁ᎬᏩᏔᏲᏎᎴ	-4657
▁ᎬᏬᎯᏳᏅᎩ	-4658
▁ᎭᏓᏅᏖᏍᎬ	-4659
▁ᎾᏂᏍᎦᏅᎾ	-4660
▁ᎾᏂᏪᏍᎬᎢ	-4661
▁ᏂᎦᎥᏍᎩᏂ	-4662
▁ᏂᏕᎦᏪᏎᎲ	-4663
▁ᏂᏥᏪᏍᎪᎢ	-4664
▁ᏄᎾᏓᎡᏍᏗ	-4665
▁ᏄᎾᏛᏁᎸᎢ	-4666
▁ᏅᏓᏳᏅᏏᏛ	-4667
▁ᏍᎩᎨᏳᎢᏳ	-4668
▁ᏍᎩᏯᏅᏓᏗ	-4669
▁ᏓᏂᎳᏫᎥᎢ	-4670
▁ᏓᏂᏄᏙᎬᎢ	-4671
▁ᏓᏕᏲᎲᏍᎬ	-4672
▁ᏗᎨᏥᎾᏝᎢ	-4673
▁ᏗᎬᎪᏩᏛᏗ	-4674
▁ᏗᏂᎭᏄᎸᎯ	-4675
▁ᏗᏄᎪᏗᏍᎩ	-4676
▁ᏗᏆᎳᏏᏕᏂ	-4677
▁ᏗᏓᏂᏐᏗᏱ	-4678
▁ᏗᏕᏲᎲᏍᎩ	-4679
▁ᏗᏣᎳᏏᏕᏂ	-4680
▁ᏣᏓᏲᏁᎸᎩ	-4681
▁ᏥᏨᏰᎳᏗᏙ	-4682
▁ᏧᎾᎳᏏᏕᏂ	-4683
▁ᏧᏁᏢᏔᏅᏛ	-4684
▁ᏱᏥᎪᎵᏰᎣ	-4685
▁ᎠᏓᏲᏁᎮᏍᏗ	-4686
▁ᎢᏨᏲᏪᎳᏁᎭ	-4687
▁ᎤᏂᏍᏆᏂᎪᏎ	-4688
▁ᎤᏄᏬᏍᏕᏍᏗ	-4689
▁ᎤᏓᏙᎵᏍᏔᏅ	-4690
▁ᎤᏙᎯᏳᎯᏰᏃ	-4691
▁ᎦᎸᎳᏗᏍᎩᏂ	-4692
▁ᎪᎯᏳᏗᏍᎩᏂ	-4693
▁ᏂᏚᎾᏁᎶᏛᎾ	-4694
▁ᏅᏛᏆᏓᎴᏅᎯ	-4695
▁ᏓᎾᏕᏲᎲᏍᎬ	-4696
▁ᏕᎦᎵᎷᎨᏍᏗ	-4697
▁ᏕᏥᎨᏳᏎᏍᏗ	-4698
▁ᏕᏥᏂᏴᏎᏍᏗ	-4699
▁ᏗᎦᏬᏂᎯᏍᏗ	-4700
▁ᏗᎧᏃᎩᏍᏙᏗ	-4701
▁ᏗᎾᏂᏏᎲᏍᎩ	-4702
▁ᏧᎾᏄᎪᏫᏒᎯ	-4703
▁ᏧᏂᏬᏂᎯᏍᏗ	-4704
▁ᎢᏣᏚᎵᏍᎨᏍᏗ	-4705
▁ᎤᎵᏠᏯᏍᏕᏍᏗ	-4706
▁ᎤᎾᏙᏓᏆᏍᎬᎢ	-4707
▁ᎤᎾᏙᏓᏆᏍᎬᏃ	-4708
▁ᏂᏚᎾᏓᏪᏎᎸᎩ	-4709
▁ᏄᎵᏍᏔᏂᏙᎸᎢ	-4710
▁ᏓᎩᎸᏫᏍᏓᏁᎲ	-4711
▁ᏚᏟᎶᏍᏓᏁᎴᎢ	-4712
▁ᏧᎾᏄᎪᏫᏎᏗᏱ	-4713
▁ᎢᏣᏓᏙᎵᏍᏗᏍᎬ	-4714
▁ᏂᎦᎵᏍᏗᏍᎨᏍᏗ	-4715
▁ᏓᏂᎸᏓᎩᏍᎨᏍᏗ	-4716
▁ᏗᎩᎸᏫᏍᏓᏁᏗᏱ	-4717
▁ᎢᎧᏁᎢᏍᏗᏍᎨᏍᏗ	-4718
ᎠᏴ	-4719
ᎡᎲ	-4720
ᎡᏥ	-4721
ᎢᎦ	-4722
ᎦᏚ	-4723
ᎬᏃ	-4724
ᎭᏛ	-4725
ᎵᏬ	-4726
ᎹᏂ	-4727
ᎻᎵ	-4728
ᎻᏂ	-4729
ᎾᎨ	-4730
ᎾᎸ	-4731
ᏁᏌ	-4732
ᏂᎭ	-4733
ᏂᎵ	-4734
ᏂᏛ	-4735
ᏃᎭ	-4736
ᏄᏣ	-4737
ᏄᏫ	-4738
ᏆᎴ	-4739
ᏏᎳ	-4740
ᏏᏂ	-4741
ᏏᏙ	-4742
ᏏᏳ	-4743
ᏑᎵ	-4744
ᏒᏉ	-4745
ᏓᏌ	-4746
ᏓᏝ	-4747
ᏓᏬ	-4748
ᏕᎪ	-4749
ᏕᏨ	-4750
ᏖᎳ	-4751
ᏗᎹ	-4752
ᏗᏗ	-4753
ᏘᏁ	-4754
ᏛᎴ	-4755
ᏜᎢ	-4756
ᏝᏗ	-4757
ᏢᎢ	-4758
ᏣᏄ	-4759
ᏤᎯ	-4760
ᏪᏅ	-4761
ᏯᎥ	-4762
ᏰᎦ	-4763
▁Ꮊ	-4764
ᎥᏔᏂ	-4765
ᎧᏃᎮ	-4766
ᎧᏃᏗ	-4767
ᎨᏎᎢ	-4768
ᎩᎡᏗ	-4769
ᎫᏍᏓ	-4770
ᎫᏴᎯ	-4771
ᎫᏴᏛ	-4772
ᎬᏩᏂ	-4773
ᎯᏍᏛ	-4774
ᎳᏁᎬ	-4775
ᎴᎯᏌ	-4776
ᎵᏍᎩ	-4777
ᎵᏍᎪ	-4778
ᎵᏍᏛ	-4779
ᎵᏏᎲ	-4780
ᎶᎯᎭ	-4781
ᎶᎸᎭ	-4782
ᎶᏐᏂ	-4783
ᎷᎬᎩ	-4784
ᎷᏆᏗ	-4785
ᎷᏥᏏ	-4786
ᎸᏒᎩ	-4787
ᎾᎵᎢ	-4788
ᎾᏕᎩ	-4789
ᏁᎳᎩ	-4790
ᏁᏤᎲ	-4791
ᏂᎩᏛ	-4792
ᏂᏌᏁ	-4793
ᏂᏙᎲ	-4794
ᏂᏴᎯ	-4795
ᏃᎵᏳ	-4796
ᏃᏁᎵ	-4797
ᏃᏍᏛ	-4798
ᏄᎪᎬ	-4799
ᏅᎥᏏ	-4800
ᏅᏒᎢ	-4801
ᏅᏬᏗ	-4802
ᏍᎦᎦ	-4803
ᏍᎪᎾ	-4804
ᏍᎪᏃ	-4805
ᏍᎬᏃ	-4806
ᏍᏗᏳ	-4807
ᏎᎲᎢ	-4808
ᏎᎲᎩ	-4809
ᏎᎲᎾ	-4810
ᏎᎸᎢ	-4811
ᏎᎸᎭ	-4812
ᏑᏴᎩ	-4813
ᏒᏂᎦ	-4814
ᏓᎸᎾ	-4815
ᏓᏁᎳ	-4816
ᏓᏂᏌ	-4817
ᏓᏡᏫ	-4818
ᏔᏂᎸ	-4819
ᏖᎸᏗ	-4820
ᏗᏔᎯ	-4821
ᏗᏗᏱ	-4822
ᏙᎯᏃ	-4823
ᏝᏅᎯ	-4824
ᏟᎶᎥ	-4825
ᏟᏌᏅ	-4826
ᏠᎠᎯ	-4827
ᏡᏗᎭ	-4828
ᏢᏉᏗ	-4829
ᏣᏴᎸ	-4830
ᏪᏍᏗ	-4831
ᏯᎷᏗ	-4832
ᏯᏅᎮ	-4833
ᏰᎸᏁ	-4834
ᏴᎵᎸ	-4835
▁ᎠᏳ	-4836
▁ᎡᏧ	-4837
▁ᎤᏔ	-4838
▁ᎤᏞ	-4839
▁ᎤᏭ	-4840
▁ᎦᎯ	-4841
▁ᎦᎶ	-4842
▁ᎨᏂ	-4843
▁ᎫᎴ	-4844
▁ᎮᎯ	-4845
▁ᎮᏓ	-4846
▁ᎹᎾ	-4847
▁ᎾᎠ	-4848
▁ᎾᎤ	-4849
▁ᎾᏁ	-4850
▁ᎾᏧ	-4851
▁ᏂᎪ	-4852
▁ᏂᏪ	-4853
▁ᏃᏥ	-4854
▁ᏄᎵ	-4855
▁ᏅᏋ	-4856
▁ᏅᏔ	-4857
▁ᏅᏥ	-4858
▁ᏇᏣ	-4859
▁ᏌᏚ	-4860
▁ᏏᎦ	-4861
▁ᏙᏦ	-4862
▁ᏣᏅ	-4863
▁ᏤᎯ	-4864
▁ᏤᎲ	-4865
▁ᏧᏣ	-4866
▁ᏧᏮ	-4867
▁ᏪᏣ	-4868
▁ᏫᎩ	-4869
▁ᏫᏴ	-4870
▁ᏱᏦ	-4871
▁ᏱᏩ	-4872
▁ᏲᏨ	-4873
▁ᏴᎩ	-4874
ᎢᏍᏛᎾ	-4875
ᎦᎵᏍᏙ	-4876
ᎦᏯᎷᏗ	-4877
ᎩᎵᏲᎢ	-4878
ᎩᏏᏕᎩ	-4879
ᎫᏴᎡᎵ	-4880
ᎬᏓᎨᏂ	-4881
ᎵᎡᎵᏤ	-4882
ᎸᏉᏔᏅ	-4883
ᎿᏕᎬᎢ	-4884
ᏁᎶᏛᎢ	-4885
ᏂᎬᎬᎢ	-4886
ᏂᏍᏗᏱ	-4887
ᏂᏴᎲᎩ	-4888
ᏃᎮᎴᎢ	-4889
ᏃᎯᏴᎯ	-4890
ᏃᎱᎶᏗ	-4891
ᏄᎪᏨᎯ	-4892
ᏄᎪᏫᏏ	-4893
ᏍᎩᏒᎩ	-4894
ᏍᎪᏰᏃ	-4895
ᏍᎬᎾᏃ	-4896
ᏍᏆᏃᏴ	-4897
ᏍᏕᎸᏛ	-4898
ᏍᏙᏍᎩ	-4899
ᏍᏚᏅᎩ	-4900
ᏎᎪᎩᏒ	-4901
ᏎᏍᏗᏉ	-4902
ᏒᏂᎸᎯ	-4903
ᏓᎴᏅᎢ	-4904
ᏓᏂᎸᎪ	-4905
ᏓᏕᏗᏱ	-4906
ᏓᏗᏍᏗ	-4907
ᏓᏡᏔᏂ	-4908
ᏓᏲᏁᎯ	-4909
ᏔᏲᏎᎸ	-4910
ᏕᎯᎰᎢ	-4911
ᏙᎨᏍᏗ	-4912
ᏙᎵᏨᎩ	-4913
ᏚᎵᏍᎨ	-4914
ᏛᏁᎸᎩ	-4915
ᏛᏓᏍᏓ	-4916
ᏞᎨᏍᏗ	-4917
ᏠᎾᏍᏛ	-4918
ᏠᏍᎬᎾ	-4919
ᏠᏱᎸᎩ	-4920
ᏥᏙᎸᎢ	-4921
ᏥᏯᏠᎢ	-4922
ᏦᏯᏍᏗ	-4923
ᏪᏎᎲᎩ	-4924
ᏪᏎᎸᎢ	-4925
ᏬᏍᏙᏗ	-4926
ᏯᏂᏍᎪ	-4927
ᏰᎳᏍᏗ	-4928
ᏱᎵᏙᎯ	-4929
▁ᎠᎪᎢ	-4930
▁ᎠᎪᎲ	-4931
▁ᎠᏁᎷ	-4932
▁ᎠᏂᎶ	-4933
▁ᎠᏐᏴ	-4934
▁ᎠᏚᎸ	-4935
▁ᎠᏢᏈ	-4936
▁ᎡᏈᎳ	-4937
▁ᎡᏍᏗ	-4938
▁ᎡᏙᎮ	-4939
▁ᎢᎦᏃ	-4940
▁ᎢᎳᎩ	-4941
▁ᎢᏥᎲ	-4942
▁ᎣᎩᏂ	-4943
▁ᎣᏌᏂ	-4944
▁ᎣᏍᏗ	-4945
▁ᎤᎴᏂ	-4946
▁ᎤᎵᏱ	-4947
▁ᎤᎶᏐ	-4948
▁ᎤᏁᎸ	-4949
▁ᎤᏂᎯ	-4950
▁ᎤᏂᎸ	-4951
▁ᎤᏂᏥ	-4952
▁ᎤᏅᏩ	-4953
▁ᎤᏍᏘ	-4954
▁ᎤᏓᏳ	-4955
▁ᎤᏣᏛ	-4956
▁ᎤᏤᏘ	-4957
▁ᎤᏩᏅ	-4958
▁ᎤᏪᏲ	-4959
▁ᎦᎵᏆ	-4960
▁ᎦᎷᎶ	-4961
▁ᎦᏰᏣ	-4962
▁ᎧᏱᏆ	-4963
▁ᎨᎻᎵ	-4964
▁ᎬᏬᎵ	-4965
▁ᎯᎷᎦ	-4966
▁ᎯᏍᎦ	-4967
▁ᎯᏰᎸ	-4968
▁ᎰᏌᎾ	-4969
▁ᎵᏍᏗ	-4970
▁ᎾᎥᎢ	-4971
▁ᎾᎿᏉ	-4972
▁ᏂᏓᏂ	-4973
▁ᏅᏓᏥ	-4974
▁ᏅᏗᎦ	-4975
▁ᏍᏗᏫ	-4976
▁ᏏᏆᏏ	-4977
▁ᏏᏐᎢ	-4978
▁ᏐᎳᏃ	-4979
▁ᏓᏂᎵ	-4980
▁ᏓᏍᎫ	-4981
▁ᏓᏲᏥ	-4982
▁ᏔᎵᏃ	-4983
▁ᏕᏣᏘ	-4984
▁ᏗᎦᏃ	-4985
▁ᏗᎪᏢ	-4986
▁ᏗᎪᏪ	-4987
▁ᏗᏁᎲ	-4988
▁ᏗᏐᏴ	-4989
▁ᏗᏣᏘ	-4990
▁ᏙᏓᏣ	-4991
▁ᏙᏛᎠ	-4992
▁ᏚᏁᎴ	-4993
▁ᏚᏄᎪ	-4994
▁ᏚᏑᏰ	-4995
▁ᏚᏪᎧ	-4996
▁ᏣᏁᏨ	-4997
▁ᏥᏁᏣ	-4998
▁ᏥᏂᏚ	-4999
▁ᏥᏅᎵ	-5000
▁ᏥᏍᎦ	-5001
▁ᏥᏚᎾ	-5002
▁ᏥᏤᎭ	-5003
▁ᏥᏲᏏ	-5004
▁ᏥᏴᎩ	-5005
▁ᏦᏓᎸ	-5006
▁ᏨᏗᎦ	-5007
▁ᏫᎤᏂ	-5008
▁ᏫᏓᏗ	-5009
▁ᏭᎶᏎ	-5010
▁ᏭᏴᎴ	-5011
▁ᏯᏗᎭ	-5012
▁ᏯᏛᏅ	-5013
▁ᏱᎦᏓ	-5014
▁ᏱᎦᏥ	-5015
▁ᏱᎨᏐ	-5016
▁ᏱᎨᏣ	-5017
▁ᏱᏍᏛ	-5018
▁ᏳᏂᎪ	-5019
▁ᏳᏪᎭ	-5020
▁ᏴᎦᎦ	-5021
ᎧᏂᏍᎬᎢ	-5022
ᎪᏩᏘᏍᎪ	-5023
ᏁᎢᏍᏗᎭ	-5024
ᏁᎶᏙᏗᏱ	-5025
ᏁᏟᏴᏍᏗ	-5026
ᏂᏗᏍᏙᏗ	-5027
ᏍᎦᏅᎪᎢ	-5028
ᏍᏓᏩᏗᏒ	-5029
ᏍᏕᎵᏌᏕ	-5030
ᏍᏗᏍᎨᎢ	-5031
ᏑᎵᎪᎬᎾ	-5032
ᏓᏂᎸᎪᎢ	-5033
ᏓᏂᎸᏨᎭ	-5034
ᏓᏅᏖᏍᏗ	-5035
ᏓᏅᏖᏗᏱ	-5036
ᏓᏅᏬᏗᏱ	-5037
ᏓᏆᎶᏍᎩ	-5038
ᏗᎦᏅᎯᏛ	-5039
ᏗᏔᏍᎨᎢ	-5040
ᏗᏔᏍᏗᏱ	-5041
ᏘᏃᎮᎴᎢ	-5042
ᏚᎪᏓᏁᏗ	-5043
ᏚᏓᏕᏫᏒ	-5044
ᏛᎦᏁᏗᏱ	-5045
ᏟᎶᏍᏔᏂ	-5046
ᏰᎸᏎᏍᏗ	-5047
ᏲᏍᎨᏍᏗ	-5048
ᏴᎯᎮᏍᏗ	-5049
▁ᎠᎦᏅᎩ	-5050
▁ᎠᎨᏳᏗ	-5051
▁ᎠᎩᎾᏫ	-5052
▁ᎠᎫᏴᏗ	-5053
▁ᎠᎾᏓᏛ	-5054
▁ᎠᏁᎲᎩ	-5055
▁ᎠᏂᎶᎻ	-5056
▁ᎠᏂᏈᎷ	-5057
▁ᎠᏂᏯᎢ	-5058
▁ᎠᏎᏰᏃ	-5059
▁ᎠᏫᏒᎯ	-5060
▁ᎠᏯᎥᎢ	-5061
▁ᎡᎶᎯᏃ	-5062
▁ᎡᎶᏗᏏ	-5063
▁ᎡᏗᏂᏱ	-5064
▁ᎢᎦᎵᎢ	-5065
▁ᎢᎬᏩᎾ	-5066
▁ᎢᏏᎵᏱ	-5067
▁ᎢᏤᎵᎭ	-5068
▁ᎢᏥᏁᎫ	-5069
▁ᎢᏥᏁᏗ	-5070
▁ᎤᎦᏛᎴ	-5071
▁ᎤᎩᏒᎩ	-5072
▁ᎤᎩᏨᏅ	-5073
▁ᎤᎮᏍᏗ	-5074
▁ᎤᎵᏂᎪ	-5075
▁ᎤᎷᏤᎴ	-5076
▁ᎤᎾᏚᎵ	-5077
▁ᎤᏂᎩᏒ	-5078
▁ᎤᏂᏁᎢ	-5079
▁ᎤᏂᏁᏉ	-5080
▁ᎤᏂᏐᏅ	-5081
▁ᎤᏄᎪᏨ	-5082
▁ᎤᏅᏒᏃ	-5083
▁ᎤᏍᏓᏱ	-5084
▁ᎤᏏᏙᎵ	-5085
▁ᎤᏓᏅᏒ	-5086
▁ᎤᏓᏑᏱ	-5087
▁ᎤᏕᏗᏱ	-5088
▁ᎤᏗᏛᎮ	-5089
▁ᎤᏘᏴᎯ	-5090
▁ᎤᏩᏔᏁ	-5091
▁ᎤᏩᏛᎲ	-5092
▁ᎤᏪᏁᎢ	-5093
▁ᎤᏪᏅᏎ	-5094
▁ᎤᏪᏙᎸ	-5095
▁ᎤᏮᏔᏅ	-5096
▁ᎤᏰᎸᏎ	-5097
▁ᎦᎾᏍᏓ	-5098
▁ᎦᏅᎬᎢ	-5099
▁ᎦᏅᏅᎢ	-5100
▁ᎨᏦᎯᏳ	-5101
▁ᎪᏢᏒᎢ	-5102
▁ᎬᎨᏳᎢ	-5103
▁ᎬᏲᏎᎭ	-5104
▁ᎭᎵᎮᎵ	-5105
▁ᎭᏟᏂᎬ	-5106
▁ᎯᎦᏘᏏ	-5107
▁ᎯᏄᎪᎢ	-5108
▁ᎰᏪᎸᎦ	-5109
▁ᎲᏂᏗᏳ	-5110
▁ᏂᎦᎥᎢ	-5111
▁ᏂᎦᎥᏃ	-5112
▁ᏂᏓᏕᏘ	-5113
▁ᏅᎩᏁᏃ	-5114
▁ᏓᏥᎷᏥ	-5115
▁ᏓᏥᏁᎵ	-5116
▁ᏓᏫᏒᎢ	-5117
▁ᏕᎦᏃᏣ	-5118
▁ᏕᎭᏕᏲ	-5119
▁ᏕᏥᎧᎿ	-5120
▁ᏕᏥᏃᎩ	-5121
▁ᏗᏥᎨᏫ	-5122
▁ᏚᏁᏤᎸ	-5123
▁ᏚᏍᏚᎢ	-5124
▁ᏚᏰᎵᎯ	-5125
▁ᏞᏍᏗᏉ	-5126
▁ᏣᏓᎸᎩ	-5127
▁ᏧᎾᏂᏏ	-5128
▁ᏩᎵᏰᎢ	-5129
▁ᏫᏚᎧᎿ	-5130
▁ᏳᏓᏑᏯ	-5131
ᎳᏗᏍᎨᏍᏗ	-5132
ᎵᏥᏙᎲᏍᎦ	-5133
ᎾᏄᎪᏫᏍᎪ	-5134
ᏅᏍᏓᏕᎸᎩ	-5135
ᏍᎦᏅᎨᏍᏗ	-5136
ᏍᏆᏂᎪᏔᏅ	-5137
ᏎᎪᎩᏍᏗᏱ	-5138
ᏛᏁᎵᏓᏍᏗ	-5139
ᏦᎯᏳᎲᏍᎦ	-5140
ᏩᏛᎲᏍᏗᏱ	-5141
▁ᎠᎧᎵᏬᎯ	-5142
▁ᎠᎩᏇᏓᎸ	-5143
▁ᎠᎫᎢᏍᏗ	-5144
▁ᎠᎹᏳᎶᏗ	-5145
▁ᎠᎾᎢᏒᎢ	-5146
▁ᎠᎾᏛᎬᎦ	-5147
▁ᎠᏁᎮᏍᏗ	-5148
▁ᎠᏂᎪᎲᎭ	-5149
▁ᎠᏂᏁᎬᎢ	-5150
▁ᎠᏂᏯᏙᎯ	-5151
▁ᎠᏋᏔᏅᎯ	-5152
▁ᎠᏗᏔᏍᏗ	-5153
▁ᎠᏥᎪᎵᏰ	-5154
▁ᎠᏰᎸᏒᎩ	-5155
▁ᎡᏍᎦᏂᏳ	-5156
▁ᎢᎦᏚᏓᎴ	-5157
▁ᎢᎬᏛᏁᏗ	-5158
▁ᎢᏓᎵᎮᎵ	-5159
▁ᎢᏗᎦᏛᎯ	-5160
▁ᎢᏛᏗᏍᎬ	-5161
▁ᎢᏣᎦᏔᏅ	-5162
▁ᎢᏣᏓᏅᏟ	-5163
▁ᎢᏣᏛᎬᎦ	-5164
▁ᎢᏥᏯᏅᏛ	-5165
▁ᎢᏨᏗᏍᎬ	-5166
▁ᎢᏨᏙᏗᏱ	-5167
▁ᎢᏯᎬᏁᏗ	-5168
▁ᎢᏳᏛᏁᏗ	-5169
▁ᎢᏳᏩᏁᎯ	-5170
▁ᎤᎬᎥᏍᎩ	-5171
▁ᎤᎵᏬᏨᎯ	-5172
▁ᎤᎶᎩᎸᎢ	-5173
▁ᎤᎸᏉᏔᏁ	-5174
▁ᎤᎾᏅᏗᏱ	-5175
▁ᎤᎾᏓᏟᏌ	-5176
▁ᎤᎾᏢᏉᏗ	-5177
▁ᎤᏁᎳᏫᏎ	-5178
▁ᎤᏁᎷᏁᎢ	-5179
▁ᎤᏁᏉᏨᎯ	-5180
▁ᎤᏂᏁᏨᏃ	-5181
▁ᎤᏂᏰᎸᎭ	-5182
▁ᎤᏂᏰᎸᏅ	-5183
▁ᎤᏅᏙᏗᏱ	-5184
▁ᎤᏍᏗᎩᏛ	-5185
▁ᎤᏍᏗᎩᏳ	-5186
▁ᎤᏕᏁᎸᎯ	-5187
▁ᎤᏗᏔᏍᏗ	-5188
▁ᎤᏚᎵᏍᎨ	-5189
▁ᎤᏢᏓᎸᏛ	-5190
▁ᎤᏬᎯᏳᏒ	-5191
▁ᎥᏆᎸᎢᏛ	-5192
▁ᎦᎪᎵᏍᏗ	-5193
▁ᎨᏣᏍᎦᎩ	-5194
▁ᎪᏪᎳᏅᎯ	-5195
▁ᎬᏔᏲᏎᎭ	-5196
▁ᎬᏩᎵᏃᎮ	-5197
▁ᎯᏯᏛᎥᎦ	-5198
▁ᎴᎣᏗᏏᏯ	-5199
▁ᎾᎪᏔᏅᎾ	-5200
▁ᏂᎦᏛᏍᎪ	-5201
▁ᏂᏚᏩᏁᎸ	-5202
▁ᏂᏣᏛᏁᎭ	-5203
▁ᏂᏥᎪᎸᎾ	-5204
▁ᏄᏓᏑᏴᎾ	-5205
▁ᏄᏛᏁᎸᎩ	-5206
▁ᏄᏩᏁᎸᎩ	-5207
▁ᏅᏃᎱᎶᏗ	-5208
▁ᏅᏓᏨᏁᎵ	-5209
▁ᏓᏂᏍᎦᎢ	-5210
▁ᏓᏟᎶᏍᏗ	-5211
▁ᏕᎦᎳᏅᏛ	-5212
▁ᏗᎧᏃᏗᏱ	-5213
▁ᏗᎪᏢᏅᎯ	-5214
▁ᏗᏂᏅᏌᏗ	-5215
▁ᏗᏂᏲᎤᎵ	-5216
▁ᏗᏅᏂᏗᏳ	-5217
▁ᏗᏍᏓᏱᏳ	-5218
▁ᏗᏣᎧᏅᎦ	-5219
▁ᏚᎵᏂᏆᏅ	-5220
▁ᏚᎵᏍᏚᎢ	-5221
▁ᏣᎢᏎᏍᏗ	-5222
▁ᏣᏓᏅᏛᎢ	-5223
▁ᏣᏚᎵᏍᎪ	-5224
▁ᏣᏥᏁᎸᎯ	-5225
▁ᏥᏌᏍᎩᏂ	-5226
▁ᏧᎾᏓᎵᎢ	-5227
▁ᏧᏂᏴᏍᏕ	-5228
▁ᏧᏓᏅᏓᏗ	-5229
▁ᏫᎦᎾᏄᎪ	-5230
▁ᏭᏂᏴᎴᎢ	-5231
▁ᏱᎾᎾᏛᏁ	-5232
ᏐᏅᎢᏍᏔᏅᎯ	-5233
ᏐᏢᎢᏍᏙᏗᏱ	-5234
ᏓᏙᎵᏍᏗᏍᎬ	-5235
ᏗᎦᎵᎠᏅᎯᏛ	-5236
▁ᎠᎦᎫᏴᎡᏗ	-5237
▁ᎠᏂᎦᏴᎵᎨ	-5238
▁ᎠᏂᏍᎦᎾᎢ	-5239
▁ᎠᏆᏓᏅᏖᏛ	-5240
▁ᎠᏍᏆᎸᎲᎭ	-5241
▁ᎠᏍᏕᎵᏍᎩ	-5242
▁ᎠᏓᏅᏙᏰᏃ	-5243
▁ᎠᏙᎳᏅᏍᏗ	-5244
▁ᎠᏚᏓᎴᏍᏗ	-5245
▁ᎡᏣᎫᏴᎡᏗ	-5246
▁ᎢᏗᏏᏴᏫᎭ	-5247
▁ᎢᏣᏚᎵᏍᎬ	-5248
▁ᎢᏣᏛᏓᏍᏓ	-5249
▁ᎢᏥᎧᎵᏨᎯ	-5250
▁ᎢᏥᎪᏩᏘᎭ	-5251
▁ᎢᏥᎷᏤᏗᏱ	-5252
▁ᎢᏨᏯᎵᏥᏙ	-5253
▁ᎢᏯᏓᏅᏖᏗ	-5254
▁ᎢᏰᏨᏁᎸᎯ	-5255
▁ᎢᏳᏍᎩᏂᏃ	-5256
▁ᎢᏳᏩᎿᏕᎩ	-5257
▁ᎣᎦᏁᎳᏅᎯ	-5258
▁ᎤᎦᎵᏍᏗᏉ	-5259
▁ᎤᎵᎮᎵᏨᎯ	-5260
▁ᎤᎶᎯᏍᏗᏱ	-5261
▁ᎤᏂᎵᏅᏨᎯ	-5262
▁ᎤᏂᏃᏁᏗᏱ	-5263
▁ᎤᏃᎯᏳᏒᎢ	-5264
▁ᎤᏍᏆᏂᎪᏛ	-5265
▁ᎤᏍᏕᎸᏗᏱ	-5266
▁ᎤᏓᏅᎦᎸᏛ	-5267
▁ᎤᏓᏙᎵᏣᏛ	-5268
▁ᎤᏚᎵᏍᎬᎩ	-5269
▁ᎤᏤᎷᎯᏒᎩ	-5270
▁ᎤᏪᏐᏅᏴᎩ	-5271
▁ᎤᏲᎱᎯᏍᏗ	-5272
▁ᎥᎦᏥᎪᎥᎩ	-5273
▁ᎧᏃᎮᏍᎬᎩ	-5274
▁ᎨᏥᏅᏏᏛᏃ	-5275
▁ᎪᎢᏳᎲᏍᎦ	-5276
▁ᎬᏂᏳᏉᏰᏃ	-5277
▁ᎬᏩᏃᎮᏍᎩ	-5278
▁ᎬᏩᏛᏛᏁᎢ	-5279
▁ᎾᎯᏳᏍᎩᏂ	-5280
▁ᏂᎨᏳᏎᏍᏗ	-5281
▁ᏂᎬᏠᏍᎬᎾ	-5282
▁ᏂᏑᏪᏎᎴᎢ	-5283
▁ᏂᏚᏪᏎᎸᎢ	-5284
▁ᏂᏣᏛᏁᎲᎢ	-5285
▁ᏂᏥᏍᎦᏅᎾ	-5286
▁ᏄᏚᎵᏍᎬᎾ	-5287
▁ᏓᏟᎶᏍᏛᎢ	-5288
▁ᏕᎪᏢᏩᏗᏒ	-5289
▁ᏗᎧᎿᏩᏕᎩ	-5290
▁ᏗᎩᏲᎱᏒᎯ	-5291
▁ᏗᎫᎪᏗᏍᎩ	-5292
▁ᏗᎬᏩᏂᏰᎯ	-5293
▁ᏗᏂᎬᏓᎨᏂ	-5294
▁ᏗᏣᏓᎴᏅᏛ	-5295
▁ᏗᏥᏲᎱᏒᎯ	-5296
▁ᏚᏬᏁᏔᏅᎩ	-5297
▁ᏚᏳᎪᏗᏍᎪ	-5298
▁ᏥᎦᏔᎭᏰᏃ	-5299
▁ᏦᏍᏓᏓᏅᏟ	-5300
▁ᏧᎾᏘᏂᏙᎯ	-5301
▁ᏧᏂᏦᏯᏍᏗ	-5302
▁ᏱᏄᎵᏍᏔᏅ	-5303
ᎩᎵᏲᎢᏍᏙᏗᏱ	-5304
▁ᎠᏂᏐᎢᏍᎩᏂ	-5305
▁ᎠᏓᏙᎵᏍᏙᏗ	-5306
▁ᎠᏓᏪᎵᎩᏍᎩ	-5307
▁ᎡᏣᏅᏏᏓᏍᏗ	-5308
▁ᎡᏥᏅᏏᏓᏍᏗ	-5309
▁ᎤᎾᏙᎴᎰᏒᎩ	-5310
▁ᎤᏂᎦᏙᎥᏒᎯ	-5311
▁ᎤᏍᏓᏩᏗᏙᎯ	-5312
▁ᎤᏲᎱᏎᎮᏍᏗ	-5313
▁ᎬᏩᏔᏲᏎᎸᎩ	-5314
▁ᎬᏬᎯᏳᎲᏍᎩ	-5315
▁ᎾᏂᏍᎦᎢᎲᎾ	-5316
▁ᏂᎦᎵᏍᏙᏗᎭ	-5317
▁ᏂᏗᎾᏰᏍᎬᎾ	-5318
▁ᏂᏥᏍᎦᎢᎲᎾ	-5319
▁ᏓᎵᏍᏗᎳᏁᎬ	-5320
▁ᏙᏛᎾᏓᏡᏔᏂ	-5321
▁ᏙᏧᎾᏓᏅᏛᎢ	-5322
▁ᏚᏳᎪᏛᏍᎩᏂ	-5323
▁ᏛᏓᎴᎲᏍᎬᎩ	-5324
▁ᏥᏂᎦᎵᏍᏗᎭ	-5325
▁ᏧᏂᏲᎯᏍᏗᏱ	-5326
▁ᏧᏓᏂᎸᎢᏍᏗ	-5327
▁ᎠᎾᏓᏅᏖᏍᎬᎢ	-5328
▁ᎠᏛᏅᎢᏍᏙᏗᏱ	-5329
▁ᎡᏥᎾᏰᏍᎨᏍᏗ	-5330
▁ᎢᏯᏆᎵᏍᏙᏗᏱ	-5331
▁ᎤᎬᏫᏳᎯᏍᎩᏂ	-5332
▁ᎤᎵᏍᎪᎸᏔᏅᎯ	-5333
▁ᎤᎾᎵᏏᎾᎯᏍᏗ	-5334
▁ᎤᏓᏙᎵᏍᏔᏁᎢ	-5335
▁ᎤᏙᎯᏳᎯᏯᏰᏃ	-5336
▁ᎦᎾᏄᎪᏫᏍᎪᎢ	-5337
▁ᎪᎯᏳᎲᏍᎨᏍᏗ	-5338
▁ᏂᎪᎯᏳᎲᏍᎬᎾ	-5339
▁ᏂᏕᏣᏛᏁᎮᏍᏗ	-5340
▁ᏕᏤᏯᏙᏤᎮᏍᏗ	-5341
▁ᏚᏂᎸᏫᏍᏓᏁᎸ	-5342
▁ᏚᏟᎶᏍᏓᏁᎸᎩ	-5343
▁ᏥᏚᎸᏫᏍᏓᏁᎭ	-5344
▁ᏧᎸᏫᏍᏓᏁᎸᎯ	-5345
▁ᎠᏣᏪᏐᎸᏍᏙᏗᏱ	-5346
▁ᎢᏣᏙᎴᎰᎯᏍᏗᏱ	-5347
▁ᎢᏥᎪᏩᏘᏍᎨᏍᏗ	-5348
▁ᎢᏳᎾᎵᏍᏓᏁᏗᏱ	-5349
▁ᎤᎾᏙᎴᎰᎯᏍᏙᏗ	-5350
▁ᏅᏓᎬᏩᏍᏓᏩᏛᏛ	-5351
▁ᏗᎦᎸᏫᏍᏓᏁᏗᏱ	-5352
▁ᏗᏥᎧᎿᏩᏛᏍᏗᏱ	-5353
▁ᏥᏓᎩᎸᏫᏍᏓᏁᎭ	-5354
▁ᎤᎾᏓᏙᎵᏍᏓᏁᎸᎩ	-5355
▁ᎤᏛᏅᏗᎦᎳᏫᎢᏍᏗᏱ	-5356
,"	-5357
.)	-5358
ᎡᎰ	-5359
ᎢᏅ	-5360
ᎢᏎ	-5361
ᎢᏧ	-5362
ᎣᎵ	-5363
ᎦᎳ	-5364
ᎧᎯ	-5365
ᎧᎳ	-5366
ᎧᏙ	-5367
ᎧᏯ	-5368
ᎪᎡ	-5369
ᎬᏬ	-5370
ᎭᏁ	-5371
ᎯᏛ	-5372
ᎳᏉ	-5373
ᎳᏕ	-5374
ᎵᎯ	-5375
ᎻᏃ	-5376
ᎻᏈ	-5377
ᎿᎥ	-5378
ᎿᎨ	-5379
ᏂᏫ	-5380
ᏄᏪ	-5381
ᏅᏔ	-5382
ᏆᎵ	-5383
ᏏᏯ	-5384
ᏓᎠ	-5385
ᏓᎡ	-5386
ᏔᎵ	-5387
ᏕᎣ	-5388
ᏕᎳ	-5389
ᏕᏣ	-5390
ᏗᎨ	-5391
ᏗᎴ	-5392
ᏗᏉ	-5393
ᏗᏛ	-5394
ᏙᎩ	-5395
ᏙᏅ	-5396
ᏚᎾ	-5397
ᏢᏔ	-5398
ᏣᎢ	-5399
ᏣᏁ	-5400
ᏤᎮ	-5401
ᏤᎳ	-5402
ᏤᏬ	-5403
ᏥᎾ	-5404
ᏨᎦ	-5405
ᏫᏅ	-5406
ᏬᏔ	-5407
ᏯᎣ	-5408
ᏲᏅ	-5409
▁Ꮛ	-5410
▁Ꮝ	-5411
ᎡᎰᎢ	-5412
ᎡᎸᏃ	-5413
ᎦᎨᎢ	-5414
ᎦᎵᏴ	-5415
ᎦᏗᏯ	-5416
ᎦᏚᎲ	-5417
ᎦᏛᏅ	-5418
ᎧᏅᎩ	-5419
ᎧᏅᎯ	-5420
ᎨᏅᏴ	-5421
ᎨᏒᎩ	-5422
ᎨᏗᏱ	-5423
ᎨᏗᏳ	-5424
ᎩᏒᎩ	-5425
ᎩᏰᏃ	-5426
ᎪᎮᎢ	-5427
ᎭᏰᏃ	-5428
ᎯᏳᏗ	-5429
ᎵᏙᎲ	-5430
ᎶᏛᎾ	-5431
ᎷᏯᏛ	-5432
ᎾᎦᎳ	-5433
ᎾᏛᏓ	-5434
ᏁᏅᏒ	-5435
ᏁᏤᏗ	-5436
ᏁᏨᎩ	-5437
ᏂᎪᎢ	-5438
ᏂᏌᏛ	-5439
ᏂᏒᎩ	-5440
ᏂᏗᏢ	-5441
ᏂᏴᏒ	-5442
ᏂᏴᏛ	-5443
ᏃᎯᏯ	-5444
ᏄᎪᏤ	-5445
ᏄᎶᏗ	-5446
ᏅᏁᎯ	-5447
ᏅᏅᎢ	-5448
ᏅᏛᎯ	-5449
ᏌᏛᎢ	-5450
ᏍᎩᏴ	-5451
ᏍᎬᏉ	-5452
ᏍᏓᎢ	-5453
ᏍᏓᏴ	-5454
ᏍᏔᏃ	-5455
ᏍᏕᏅ	-5456
ᏍᏗᏂ	-5457
ᏍᏚᎩ	-5458
ᏍᏚᎶ	-5459
ᏍᏢᏂ	-5460
ᏎᎮᎢ	-5461
ᏎᎮᎵ	-5462
ᏏᏗᏱ	-5463
ᏐᏢᏗ	-5464
ᏑᎴᏗ	-5465
ᏓᎴᏂ	-5466
ᏓᏑᏴ	-5467
ᏓᏙᎵ	-5468
ᏕᎪᎢ	-5469
ᏕᏅᎯ	-5470
ᏗᎶᏂ	-5471
ᏗᏒᎯ	-5472
ᏗᏔᎲ	-5473
ᏘᏄᎦ	-5474
ᏙᎩᏯ	-5475
ᏙᎲᎾ	-5476
ᏙᏍᏛ	-5477
ᏚᎵᏏ	-5478
ᏚᎸᎩ	-5479
ᏛᏂᏏ	-5480
ᏛᏙᏗ	-5481
ᏛᏛᎾ	-5482
ᏢᎯᏏ	-5483
ᏢᏅᎩ	-5484
ᏣᏛᎾ	-5485
ᏥᎶᏏ	-5486
ᏦᏅᎯ	-5487
ᏦᏎᎭ	-5488
ᏩᏕᎦ	-5489
ᏪᏎᎲ	-5490
ᏰᎲᎩ	-5491
ᏲᏅᎢ	-5492
ᏲᏗᏱ	-5493
ᏳᏰᏃ	-5494
ᏴᎸᎩ	-5495
ᏴᎸᎯ	-5496
ᏴᏁᎭ	-5497
ᏴᏁᎸ	-5498
▁ᎢᏏ	-5499
▁ᎢᏒ	-5500
▁ᎢᏝ	-5501
▁ᎢᏢ	-5502
▁ᎤᎳ	-5503
▁ᎥᎤ	-5504
▁ᎦᎧ	-5505
▁ᎦᏘ	-5506
▁ᎦᏪ	-5507
▁ᎧᎵ	-5508
▁ᎨᎢ	-5509
▁ᎨᏨ	-5510
▁ᎬᏒ	-5511
▁ᎯᎳ	-5512
▁ᎯᎸ	-5513
▁ᎯᏰ	-5514
▁ᎹᏚ	-5515
▁ᏁᎳ	-5516
▁ᏂᏤ	-5517
▁ᏃᏣ	-5518
▁ᏎᎵ	-5519
▁ᏏᎻ	-5520
▁ᏓᎵ	-5521
▁ᏓᏉ	-5522
▁ᏓᏌ	-5523
▁ᏓᏱ	-5524
▁ᏗᎵ	-5525
▁ᏗᏁ	-5526
▁ᏗᏉ	-5527
▁ᏗᏔ	-5528
▁ᏗᏘ	-5529
▁ᏗᏩ	-5530
▁ᏘᏯ	-5531
▁ᏙᏘ	-5532
▁ᏚᏳ	-5533
▁ᏝᎨ	-5534
▁ᏣᏢ	-5535
▁ᏥᏃ	-5536
▁ᏥᏩ	-5537
▁ᏥᏭ	-5538
▁ᏦᏒ	-5539
▁ᏧᏌ	-5540
▁ᏧᏴ	-5541
▁ᏨᎩ	-5542
▁ᏩᏆ	-5543
▁ᏪᎯ	-5544
▁ᏫᏘ	-5545
▁ᏭᏁ	-5546
▁ᏭᏅ	-5547
▁ᏭᏪ	-5548
▁ᏯᏇ	-5549
▁ᏰᏃ	-5550
▁ᏱᎠ	-5551
▁ᏱᎪ	-5552
▁ᏲᎦ	-5553
▁ᏳᏘ	-5554
ᎥᏍᎪᎢ	-5555
ᎦᎶᏐᏂ	-5556
ᎦᏌᏬᎢ	-5557
ᎦᏔᎰᎢ	-5558
ᎦᏘᎴᎩ	-5559
ᎦᏪᏎᎵ	-5560
ᎨᏳᏅᎾ	-5561
ᎨᏳᏒᎾ	-5562
ᎨᏳᏗᏱ	-5563
ᎩᎵᏲᎦ	-5564
ᎪᏗᏍᎩ	-5565
ᎬᏫᏳᎭ	-5566
ᎯᏍᏔᏂ	-5567
ᎯᏍᏛᎾ	-5568
ᎳᏫᏎᏗ	-5569
ᎴᏂᏙᎸ	-5570
ᎵᎥᏂᎵ	-5571
ᎵᏍᏚᎶ	-5572
ᎵᏛᏔᏂ	-5573
ᎵᏰᎢᎸ	-5574
ᎶᎨᏒᎢ	-5575
ᎶᎮᏍᏗ	-5576
ᎶᏁᏔᏁ	-5577
ᎷᏤᎴᎢ	-5578
ᎸᏃᏘᎭ	-5579
ᎸᏉᏙᎢ	-5580
ᎾᏁᏗᏱ	-5581
ᎾᏍᏗᏱ	-5582
ᎾᏰᏍᎬ	-5583
ᏂᏍᎬᎢ	-5584
ᏂᏙᎲᎢ	-5585
ᏃᎯᏳᏗ	-5586
ᏅᏁᏗᏱ	-5587
ᏅᏗᏍᎩ	-5588
ᏆᏛᏁᏗ	-5589
ᏌᎳᏙᏗ	-5590
ᏍᎦᎩᏳ	-5591
ᏍᎦᎸᎩ	-5592
ᏍᏓᏁᎭ	-5593
ᏍᏗᏍᎪ	-5594
ᏍᏙᏗᎭ	-5595
ᏐᏢᏗᎭ	-5596
ᏒᎦᎸᎩ	-5597
ᏓᎴᏍᎩ	-5598
ᏓᏁᎴᎢ	-5599
ᏓᏁᎸᎢ	-5600
ᏓᏕᏫᏒ	-5601
ᏓᏛᏙᏗ	-5602
ᏕᎣᏍᎦ	-5603
ᏕᏘᏴᎲ	-5604
ᏗᏅᏒᎩ	-5605
ᏘᏃᎴᎢ	-5606
ᏙᎴᎰᏏ	-5607
ᏙᎵᏤᎢ	-5608
ᏙᎵᏨᎢ	-5609
ᏙᏂᏍᎩ	-5610
ᏛᎦᏁᎵ	-5611
ᏛᎦᏅᎢ	-5612
ᏛᏁᎸᎢ	-5613
ᏛᏁᏍᏗ	-5614
ᏛᏙᏗᏱ	-5615
ᏛᏛᏔᏂ	-5616
ᏠᎠᏒᎩ	-5617
ᏥᎯᏍᏗ	-5618
ᏩᎾᎦᎶ	-5619
ᏩᏛᎮᎢ	-5620
ᏩᏛᏙᏗ	-5621
ᏪᏎᎸᎯ	-5622
ᏫᏍᏔᏅ	-5623
ᏬᏍᎬᎩ	-5624
ᏯᎵᏥᏙ	-5625
ᏯᏅᎮᎢ	-5626
ᏯᏅᎯᏛ	-5627
ᏯᏅᎲᏃ	-5628
ᏲᏍᏔᏂ	-5629
ᏴᎩᏅᎯ	-5630
ᏴᏔᏁᎢ	-5631
▁ᎠᎢᏒ	-5632
▁ᎠᎴᏂ	-5633
▁ᎠᎴᏅ	-5634
▁ᎠᏁᎮ	-5635
▁ᎠᏍᎪ	-5636
▁ᎠᏏᏃ	-5637
▁ᎠᏒᎭ	-5638
▁ᎠᏓᏱ	-5639
▁ᎡᎦᏔ	-5640
▁ᎡᎵᏈ	-5641
▁ᎢᎨᏥ	-5642
▁ᎢᏍᏙ	-5643
▁ᎢᏨᏴ	-5644
▁ᎢᏲᎦ	-5645
▁ᎣᎦᎵ	-5646
▁ᎣᏍᏕ	-5647
▁ᎣᏩᏒ	-5648
▁ᎤᎩᏒ	-5649
▁ᎤᎫᏴ	-5650
▁ᎤᎴᏁ	-5651
▁ᎤᎷᏥ	-5652
▁ᎤᎸᎢ	-5653
▁ᎤᎾᎸ	-5654
▁ᎤᏂᎷ	-5655
▁ᎤᏅᏁ	-5656
▁ᎤᏅᏅ	-5657
▁ᎤᏅᏗ	-5658
▁ᎤᏍᏓ	-5659
▁ᎤᏒᎢ	-5660
▁ᎤᏓᏁ	-5661
▁ᎤᏕᏒ	-5662
▁ᎤᏗᏌ	-5663
▁ᎤᏟᎶ	-5664
▁ᎤᏥᏃ	-5665
▁ᎤᏩᏛ	-5666
▁ᎤᏪᎯ	-5667
▁ᎤᏲᎴ	-5668
▁ᎤᏲᏏ	-5669
▁ᎦᎢᏒ	-5670
▁ᎦᎶᏐ	-5671
▁ᎦᏗᎭ	-5672
▁ᎦᏚᏉ	-5673
▁ᎨᎸᎩ	-5674
▁ᎪᎯᏉ	-5675
▁ᎪᎯᏛ	-5676
▁ᎪᏢᏒ	-5677
▁ᎬᎿᎨ	-5678
▁ᎬᏩᎵ	-5679
▁ᎬᏩᏗ	-5680
▁ᎯᏁᎩ	-5681
▁ᎯᏍᏆ	-5682
▁ᎾᏉᏃ	-5683
▁ᎾᏍᏆ	-5684
▁ᏁᏍᏗ	-5685
▁ᏂᎦᏔ	-5686
▁ᏂᎦᏚ	-5687
▁ᏂᎬᎩ	-5688
▁ᏂᎯᏉ	-5689
▁ᏂᏓᎾ	-5690
▁ᏄᎲᎾ	-5691
▁ᏄᏂᎪ	-5692
▁ᏄᏩᏂ	-5693
▁ᏅᏙᏃ	-5694
▁ᏅᏛᏅ	-5695
▁ᏇᎳᎻ	-5696
▁ᏈᏏᎳ	-5697
▁ᏑᏓᎳ	-5698
▁ᏓᎧᏁ	-5699
▁ᏓᎬᏯ	-5700
▁ᏓᏅᏩ	-5701
▁ᏓᏠᏱ	-5702
▁ᏓᏰᏂ	-5703
▁ᏕᎧᏅ	-5704
▁ᏕᏍᎩ	-5705
▁ᏕᏧᎪ	-5706
▁ᏕᏨᏯ	-5707
▁ᏗᎦᎦ	-5708
▁ᏗᎦᏥ	-5709
▁ᏗᎨᎪ	-5710
▁ᏗᎬᎩ	-5711
▁ᏗᏂᏃ	-5712
▁ᏗᏍᏇ	-5713
▁ᏗᏍᏚ	-5714
▁ᏗᏐᎢ	-5715
▁ᏗᏦᎸ	-5716
▁ᏙᏓᏦ	-5717
▁ᏙᏛᏂ	-5718
▁ᏚᎸᏌ	-5719
▁ᏚᎾᎵ	-5720
▁ᏚᏂᎬ	-5721
▁ᏚᏂᏏ	-5722
▁ᏚᏄᏩ	-5723
▁ᏚᏏᏔ	-5724
▁ᏚᏚᎪ	-5725
▁ᏚᏟᎶ	-5726
▁ᏠᎠᏏ	-5727
▁ᏣᎦᏨ	-5728
▁ᏣᏍᏆ	-5729
▁ᏤᏌᏂ	-5730
▁ᏤᏙᎲ	-5731
▁ᏥᎦᎷ	-5732
▁ᏥᎦᏥ	-5733
▁ᏥᎬᎩ	-5734
▁ᏥᏁᎬ	-5735
▁ᏥᏍᎩ	-5736
▁ᏥᏓᎵ	-5737
▁ᏥᏕᎤ	-5738
▁ᏥᏕᎭ	-5739
▁ᏥᏙᎦ	-5740
▁ᏦᏩᏃ	-5741
▁ᏧᎩᏎ	-5742
▁ᏧᎫᏴ	-5743
▁ᏧᎵᎢ	-5744
▁ᏧᎵᏏ	-5745
▁ᏧᏂᎪ	-5746
▁ᏧᏂᏲ	-5747
▁ᏧᏃᎸ	-5748
▁ᏧᏅᏎ	-5749
▁ᏧᏅᏒ	-5750
▁ᏧᏛᎾ	-5751
▁ᏧᏬᎳ	-5752
▁ᏩᎦᏘ	-5753
▁ᏫᏍᏗ	-5754
▁ᏫᏓᏂ	-5755
▁ᏭᏴᎸ	-5756
▁ᏰᎵᎦ	-5757
▁ᏱᎬᎩ	-5758
▁ᏱᏂᎨ	-5759
▁ᏱᏂᏥ	-5760
▁ᏱᏄᎾ	-5761
▁ᏱᏅᎦ	-5762
▁ᏱᏅᏩ	-5763
▁ᏱᏍᏆ	-5764
▁ᏱᏚᎾ	-5765
▁ᏱᏣᏓ	-5766
ᎦᎵᏍᎪᎢ	-5767
ᎦᏌᏯᏍᏓ	-5768
ᎦᏔᎮᏍᏗ	-5769
ᎦᏔᎿᎥᎾ	-5770
ᎧᎯᏯᏍᏗ	-5771
ᎩᎵᏲᎬᎢ	-5772
ᎬᏍᎪᎸᏁ	-5773
ᎵᎡᎵᏤᎰ	-5774
ᎵᏍᏓᏁᎭ	-5775
ᎶᏄᎮᏗᏱ	-5776
ᎶᏍᎨᏍᏗ	-5777
ᏃᎮᎮᎸᎩ	-5778
ᏍᎦᏅᏨᎾ	-5779
ᏍᏆᏓᏱᎵ	-5780
ᏍᏕᎵᏍᎬ	-5781
ᏐᏢᏙᏗᏱ	-5782
ᏓᎴᏅᎲᎾ	-5783
ᏓᏄᏴᏛᎾ	-5784
ᏓᏅᎦᎸᎾ	-5785
ᏓᏗᏍᏗᏱ	-5786
ᏓᏱᎮᏍᏗ	-5787
ᏕᎰᎯᏍᏗ	-5788
ᏕᏯᏙᏗᎭ	-5789
ᏚᎵᏍᎬᎩ	-5790
ᏛᎩᏍᎪᎢ	-5791
ᏛᏅᎢᏍᏓ	-5792
ᏢᏅᎥᏍᎩ	-5793
ᏩᏛᎡᎲᎢ	-5794
ᏪᏍᎨᏍᏗ	-5795
ᏫᎢᏍᏗᏱ	-5796
ᏬᏂᏍᎬᎢ	-5797
ᏲᎯᏎᎴᎢ	-5798
ᏲᎱᏎᎸᎯ	-5799
▁ᎠᎢᏒᏃ	-5800
▁ᎠᎦᎫᏴ	-5801
▁ᎠᎦᏔᎯ	-5802
▁ᎠᎦᏙᎥ	-5803
▁ᎠᎩᎷᏤ	-5804
▁ᎠᎪᎵᏰ	-5805
▁ᎠᎱᏍᏗ	-5806
▁ᎠᎵᏍᏕ	-5807
▁ᎠᏁᏙᎲ	-5808
▁ᎠᏂᏁᏉ	-5809
▁ᎠᏂᏴᎩ	-5810
▁ᎠᏆᏚᎵ	-5811
▁ᎠᏆᏚᎸ	-5812
▁ᎠᏟᎶᎥ	-5813
▁ᎠᏳᎾᎦ	-5814
▁ᎡᎭᎦᏔ	-5815
▁ᎡᎵᏍᏓ	-5816
▁ᎡᏙᎲᎩ	-5817
▁ᎡᏥᏁᏗ	-5818
▁ᎢᎩᏁᎸ	-5819
▁ᎢᎩᏰᎸ	-5820
▁ᎢᎪᏂᏯ	-5821
▁ᎢᎬᏱᏃ	-5822
▁ᎢᎳᎩᏳ	-5823
▁ᎢᎾᏛᏃ	-5824
▁ᎢᏣᏠᏯ	-5825
▁ᎢᏥᎧᎵ	-5826
▁ᎢᏥᎲᎢ	-5827
▁ᎢᏨᏒᏉ	-5828
▁ᎣᎩᏰᎸ	-5829
▁ᎣᎪᎯᏳ	-5830
▁ᎣᎵᏩᏲ	-5831
▁ᎤᎩᏎᎢ	-5832
▁ᎤᎶᏄᎮ	-5833
▁ᎤᎷᏨᎯ	-5834
▁ᎤᎷᏨᏃ	-5835
▁ᎤᎾᏕᎰ	-5836
▁ᎤᎾᏛᏂ	-5837
▁ᎤᏂᎲᎢ	-5838
▁ᎤᏂᎾᏫ	-5839
▁ᎤᏂᏍᏛ	-5840
▁ᎤᏂᏔᏲ	-5841
▁ᎤᏂᏲᎭ	-5842
▁ᎤᏂᏲᎴ	-5843
▁ᎤᏄᏩᎥ	-5844
▁ᎤᏅᏏᏛ	-5845
▁ᎤᏍᎦᏅ	-5846
▁ᎤᏍᎪᎵ	-5847
▁ᎤᏍᏕᎸ	-5848
▁ᎤᏕᏅᎯ	-5849
▁ᎤᏗᎴᎩ	-5850
▁ᎤᏛᏅᎢ	-5851
▁ᎤᏪᏯᎸ	-5852
▁ᎤᏪᏰᏂ	-5853
▁ᎤᏬᏚᎯ	-5854
▁ᎤᏬᏢᏅ	-5855
▁ᎤᏰᎸᎯ	-5856
▁ᎤᏰᎸᏁ	-5857
▁ᎦᎪᏗᏱ	-5858
▁ᎦᎸᏉᎩ	-5859
▁ᎦᏙᎨᏃ	-5860
▁ᎦᏚᎲᏃ	-5861
▁ᎦᏰᏥᏙ	-5862
▁ᎧᏅᏑᎸ	-5863
▁ᎨᏥᏛᎦ	-5864
▁ᎩᎾᎵᎢ	-5865
▁ᎪᏍᏓᏯ	-5866
▁ᎬᏁᏤᎭ	-5867
▁ᎬᏩᎦᏘ	-5868
▁ᎬᏩᎵᎪ	-5869
▁ᎬᏩᏍᏚ	-5870
▁ᎬᏩᏛᏗ	-5871
▁ᎭᎴᎲᎦ	-5872
▁ᎼᏏᏰᏃ	-5873
▁ᎾᏅᏁᎲ	-5874
▁ᎾᏆᏍᏛ	-5875
▁ᏁᏓᏂᎵ	-5876
▁ᏂᎦᎷᎶ	-5877
▁ᏂᎦᏗᎹ	-5878
▁ᏂᎬᏁᎸ	-5879
▁ᏂᏨᏁᎲ	-5880
▁ᏃᎦᎵᏍ	-5881
▁ᏄᏂᏪᏎ	-5882
▁ᏄᏛᏛᎾ	-5883
▁ᏄᏪᏎᎸ	-5884
▁ᏅᎩᎦᎵ	-5885
▁ᏅᏓᏍᎩ	-5886
▁ᏇᏣᏱᏗ	-5887
▁ᏈᎵᎩᏱ	-5888
▁ᏌᏉᎯᏳ	-5889
▁ᏑᏓᎵᏃ	-5890
▁ᏓᎬᏔᏂ	-5891
▁ᏓᏓᏂᏌ	-5892
▁ᏓᏗᎶᏂ	-5893
▁ᏔᎵᏁᎢ	-5894
▁ᏕᏥᎦᎿ	-5895
▁ᏕᏥᎦᏘ	-5896
▁ᏕᏥᏁᎸ	-5897
▁ᏗᎨᏳᏗ	-5898
▁ᏗᎩᏙᏓ	-5899
▁ᏗᏂᏃᎩ	-5900
▁ᏗᏍᎩᏯ	-5901
▁ᏗᏗᏰᎸ	-5902
▁ᏗᏟᏍᏗ	-5903
▁ᏗᏣᏄᏬ	-5904
▁ᏗᏦᏰᏂ	-5905
▁ᏚᎴᏅᎩ	-5906
▁ᏚᎾᎵᎪ	-5907
▁ᏚᏁᎴᎢ	-5908
▁ᏚᏂᎧᎵ	-5909
▁ᏚᏂᏃᎩ	-5910
▁ᏚᏂᏖᎸ	-5911
▁ᏚᏂᏢᎬ	-5912
▁ᏚᏃᏣᎶ	-5913
▁ᏚᏅᏎᎢ	-5914
▁ᏚᏏᏔᏛ	-5915
▁ᏣᎾᏫᏱ	-5916
▁ᏤᎦᏈᏃ	-5917
▁ᏤᎮᏍᏗ	-5918
▁ᏥᎪᏩᏛ	-5919
▁ᏥᏄᏍᏕ	-5920
▁ᏥᏌᏰᏃ	-5921
▁ᏥᏩᎾᎦ	-5922
▁ᏥᏲᎢᏳ	-5923
▁ᏧᏁᎶᏗ	-5924
▁ᏧᏄᏩᎢ	-5925
▁ᏧᏅᎨᏫ	-5926
▁ᏧᏑᏰᏛ	-5927
▁ᏧᏓᏅᏛ	-5928
▁ᏧᏬᏚᎯ	-5929
▁ᏩᎦᏛᎢ	-5930
▁ᏩᎾᎦᎳ	-5931
▁ᏩᏚᎵᏏ	-5932
▁ᏫᏗᎶᎯ	-5933
▁ᏫᏥᎦᏘ	-5934
▁ᏫᏥᎦᏛ	-5935
▁ᏫᏴᎨᏥ	-5936
▁ᏭᏂᎶᏎ	-5937
▁ᏯᎦᏔᎮ	-5938
▁ᏰᎵᎦᏯ	-5939
▁ᏱᏂᎪᎢ	-5940
▁ᏱᏗᏣᏓ	-5941
▁ᏱᏗᏥᏯ	-5942
▁ᏳᎨᏳᎭ	-5943
▁ᏳᏃᎵᏤ	-5944
ᎦᏓᎢᏅᏒᎩ	-5945
ᎦᏔᎲᏍᏔᏅ	-5946
ᎦᏔᎲᏍᏗᏱ	-5947
ᎦᏯᎷᎥᏍᎩ	-5948
ᎧᎲᏍᎨᏍᏗ	-5949
ᎾᏄᎪᏫᏍᎦ	-5950
ᏃᎮᏍᎨᏍᏗ	-5951
ᏍᏓᏁᎮᏍᏗ	-5952
ᏍᏓᏩᏕᎬᎾ	-5953
ᏍᏓᏩᏕᏒᎭ	-5954
ᏍᏓᏩᏛᏒᎩ	-5955
ᏍᏕᎸᎯᏙᎯ	-5956
ᏕᎰᏍᎨᏍᏗ	-5957
ᏘᏃᎯᏍᏗᏱ	-5958
ᏚᎢᏍᏓᏁᎴ	-5959
ᏚᎢᏍᏓᏁᎸ	-5960
ᏜᏏᏛᎡᎲᎾ	-5961
ᏱᎵᏓᏍᏗᏱ	-5962
ᏲᏪᎳᏁᏗᏱ	-5963
▁ᎠᎦᏔᎾᎢ	-5964
▁ᎠᎦᏛᏅᎯ	-5965
▁ᎠᎦᏯᎷᏗ	-5966
▁ᎠᎵᏍᎪᎸ	-5967
▁ᎠᎾᏁᎷᎩ	-5968
▁ᎠᏁᏯᏔᎯ	-5969
▁ᎠᏂᎦᏔᎭ	-5970
▁ᎠᏂᎦᏘᏯ	-5971
▁ᎠᏂᏙᎾᎡ	-5972
▁ᎠᏂᏫᏅᏃ	-5973
▁ᎠᏂᏰᎪᎩ	-5974
▁ᎠᏆᎵᎮᎵ	-5975
▁ᎠᏇᏅᏒᎩ	-5976
▁ᎠᏍᏙᏍᎩ	-5977
▁ᎠᏏᏉᏰᏃ	-5978
▁ᎠᏓᏁᎸᏃ	-5979
▁ᎠᏔᎴᏒᎢ	-5980
▁ᎠᏚᎸᏅᏗ	-5981
▁ᎠᏥᏯᏅᏗ	-5982
▁ᎠᏫᏂᏗᏢ	-5983
▁ᎠᏰᏙᎳᏛ	-5984
▁ᎡᎳᏂᎬᎢ	-5985
▁ᎡᏗᎸᏉᏓ	-5986
▁ᎡᏣᎵᎡᎵ	-5987
▁ᎡᏥᎦᏙᎥ	-5988
▁ᎢᏣᏛᎦᏅ	-5989
▁ᎢᏨᏃᏁᎭ	-5990
▁ᎢᏨᏒᏰᏃ	-5991
▁ᎢᏯᏅᏁᎯ	-5992
▁ᎢᏳᎾᏓᎳ	-5993
▁ᎣᎦᏛᎦᏅ	-5994
▁ᎤᎵᏂᎩᏗ	-5995
▁ᎤᎵᏍᏆᏕ	-5996
▁ᎤᎷᏤᎸᎩ	-5997
▁ᎤᎾᎳᏍᏓ	-5998
▁ᎤᎾᏓᏅᏎ	-5999
▁ᎤᏁᎢᎸᏗ	-6000
▁ᎤᏁᎳᏗᏙ	-6001
▁ᎤᏁᎷᎬᎩ	-6002
▁ᎤᏁᏤᎸᎩ	-6003
▁ᎤᏂᎷᏤᎸ	-6004
▁ᎤᏂᏁᏨᎩ	-6005
▁ᎤᏂᏁᏨᎯ	-6006
▁ᎤᏂᏃᎮᎸ	-6007
▁ᎤᏂᏄᎪᏨ	-6008
▁ᎤᏂᏚᎲᎢ	-6009
▁ᎤᏃᎮᎸᎯ	-6010
▁ᎤᏃᎯᏳᏒ	-6011
▁ᎤᏄᎪᏤᎢ	-6012
▁ᎤᏌᎯᎸᎢ	-6013
▁ᎤᏍᏉᎵᏱ	-6014
▁ᎤᏍᏓᏩᏗ	-6015
▁ᎤᏓᏅᏁᎢ	-6016
▁ᎤᏓᏅᏎᎢ	-6017
▁ᎤᏓᏑᏰᏛ	-6018
▁ᎤᏓᏴᏍᏗ	-6019
▁ᎤᏙᎯᏳᏁ	-6020
▁ᎤᏚᏓᎴᏛ	-6021
▁ᎤᏛᏛᏅᎩ	-6022
▁ᎤᏪᏍᎩᎸ	-6023
▁ᎤᏬᏯᏁᏒ	-6024
▁ᎤᏮᏙᏗᏱ	-6025
▁ᎤᏰᎸᏅᎩ	-6026
▁ᎤᏲᎢᏍᏗ	-6027
▁ᎤᏲᎱᏎᎢ	-6028
▁ᎦᎵᏉᎩᏁ	-6029
▁ᎦᎵᏉᎩᏃ	-6030
▁ᎦᎶᏁᏛᏃ	-6031
▁ᎨᎳᏍᏗᏱ	-6032
▁ᎨᏥᏯᏅᏛ	-6033
▁ᎪᎱᏍᏗᏉ	-6034
▁ᎫᏓᎴᏅᏛ	-6035
▁ᎬᏗᏍᎬᎩ	-6036
▁ᎬᏩᎦᏗᏯ	-6037
▁ᎬᏩᎪᎮᎢ	-6038
▁ᎬᏩᎪᎵᏰ	-6039
▁ᎬᏩᏍᎦᎩ	-6040
▁ᎬᏩᏓᏡᏫ	-6041
▁ᎬᏩᏴᎸᎯ	-6042
▁ᎭᏓᏅᏓᏓ	-6043
▁ᎭᏰᎳᏍᏗ	-6044
▁ᎯᏬᏂᏍᎬ	-6045
▁ᎾᎵᏍᏓᏴ	-6046
▁ᎾᏛᏁᎲᎢ	-6047
▁ᏂᏚᏪᏎᎸ	-6048
▁ᏂᏣᏛᏅᎢ	-6049
▁ᏂᏨᏴᏁᎭ	-6050
▁ᏂᏪᏍᎬᎢ	-6051
▁ᏄᏂᏪᏎᎴ	-6052
▁ᏄᏓᎴᏒᏉ	-6053
▁ᏄᏓᏓᎸᎾ	-6054
▁ᏄᏪᏎᎸᎢ	-6055
▁ᏅᎵᏌᎵᏉ	-6056
▁ᏅᏓᎬᏁᎵ	-6057
▁ᏅᏛᏛᏁᎵ	-6058
▁ᏅᏩᏍᏗᏉ	-6059
▁ᏍᎩᏁᎸᎯ	-6060
▁ᏍᎩᏍᏕᎸ	-6061
▁ᏓᏂᎶᏄᎮ	-6062
▁ᏓᏇᎪᏔᏅ	-6063
▁ᏓᏓᏁᎸᎢ	-6064
▁ᏓᏰᏥᏁᎵ	-6065
▁ᏕᎬᏗᏍᎬ	-6066
▁ᏕᏣᏙᎥᎢ	-6067
▁ᏗᎦᏘᎴᎩ	-6068
▁ᏗᎬᏔᏅᎯ	-6069
▁ᏗᏂᏢᏗᏱ	-6070
▁ᏗᏣᎴᎲᎦ	-6071
▁ᏗᏥᎦᏙᎵ	-6072
▁ᏗᏥᏰᎸᎢ	-6073
▁ᏙᏧᏁᏅᏒ	-6074
▁ᏚᎦᏒᏍᏛ	-6075
▁ᏚᎧᎿᏅᏃ	-6076
▁ᏚᏁᏤᎴᎢ	-6077
▁ᏚᏂᎧᏁᎢ	-6078
▁ᏚᏍᏕᎸᎯ	-6079
▁ᏚᏓᏘᎾᎥ	-6080
▁ᏣᎦᏁᎶᏗ	-6081
▁ᏥᏂᎬᏁᎭ	-6082
▁ᏥᏂᏥᏪᎭ	-6083
▁ᏧᎴᎯᏐᏗ	-6084
▁ᏧᎾᎩᎸᏗ	-6085
▁ᏧᏓᎴᏁᎢ	-6086
▁ᏧᏕᏲᏅᎯ	-6087
▁ᏬᎩᎶᏒᎩ	-6088
▁ᏭᏴᏍᏗᏱ	-6089
▁ᏯᎩᏰᎸᎭ	-6090
▁ᏴᏫᏍᎩᏂ	-6091
ᎵᏍᏓᏴᎲᏍᎦ	-6092
ᎵᏏᎾᎯᏍᏛᎾ	-6093
ᎸᏉᏗᏍᎨᏍᏗ	-6094
ᎸᏫᏍᏓᏁᎮᎢ	-6095
ᏍᏆᏂᎪᏕᏍᏗ	-6096
ᏛᏅᎢᏍᏓᏁᎸ	-6097
ᏲᎯᏍᏗᏍᎬᎾ	-6098
▁ᎠᎨᏴᏍᎩᏂ	-6099
▁ᎠᎩᏍᎨᏍᏗ	-6100
▁ᎠᎵᎮᎵᏤᏗ	-6101
▁ᎠᎵᏍᎦᏁᏛ	-6102
▁ᎠᎾᎦᎵᏍᎩ	-6103
▁ᎠᎾᎵᎮᎵᎨ	-6104
▁ᎠᎾᏛᎩᏍᎬ	-6105
▁ᎠᏂᏃᎮᏍᎬ	-6106
▁ᎠᏂᏙᎾᎥᎩ	-6107
▁ᎠᏍᎦᏅᏨᎢ	-6108
▁ᎠᏎᎵᏔᏅᎯ	-6109
▁ᎠᏓᏛᏗᏍᎩ	-6110
▁ᎠᏤᏍᏙᎩᎯ	-6111
▁ᎠᏥᏃᎮᏍᎬ	-6112
▁ᎠᏥᏅᏩᏅᎯ	-6113
▁ᎢᎦᏛᏍᎩᏂ	-6114
▁ᎢᎨᏣᏛᏁᏗ	-6115
▁ᎢᎩᏍᎦᏅᏨ	-6116
▁ᎢᎬᏆᏛᏁᏗ	-6117
▁ᎢᏣᎵᎮᎵᎩ	-6118
▁ᎢᏣᏛᎪᏗᏱ	-6119
▁ᎢᏥᎬᏫᏳᎯ	-6120
▁ᎢᏥᏍᎦᏅᏨ	-6121
▁ᎢᏥᏩᏛᏗᏱ	-6122
▁ᎢᏨᏃᎮᎮᎸ	-6123
▁ᎢᏯᏂᏪᏍᎩ	-6124
▁ᎢᏯᏆᏛᏁᏗ	-6125
▁ᎤᎵᎮᎵᏤᎢ	-6126
▁ᎤᎵᏂᎩᏛᏃ	-6127
▁ᎤᎵᏂᎩᏛᏯ	-6128
▁ᎤᎵᏍᏓᏴᏗ	-6129
▁ᎤᎵᏍᏙᏔᏅ	-6130
▁ᎤᎾᏁᎳᏅᎯ	-6131
▁ᎤᎾᏄᎪᏫᏒ	-6132
▁ᎤᎾᏚᎵᏍᎩ	-6133
▁ᎤᏂᎧᎵᏨᎯ	-6134
▁ᎤᏂᎬᎥᏍᎬ	-6135
▁ᎤᏂᎾᏰᏎᎢ	-6136
▁ᎤᏂᏂᏴᏗᏱ	-6137
▁ᎤᏂᏃᎮᏗᏱ	-6138
▁ᎤᏂᏣᏔᏰᏃ	-6139
▁ᎤᏂᏣᏖᏰᏃ	-6140
▁ᎤᏍᏆᏂᎪᏎ	-6141
▁ᎤᏓᏅᏓᏛᎩ	-6142
▁ᎤᏚᎢᏍᏔᏅ	-6143
▁ᎤᏣᏔᏅᎯᏃ	-6144
▁ᎤᏩᎢᏎᎸᎯ	-6145
▁ᎤᏬᎯᏳᏅᎩ	-6146
▁ᎤᏬᏪᎳᏅᎩ	-6147
▁ᎤᏬᏪᎳᏅᎯ	-6148
▁ᎦᎵᏆᏍᎪᎯ	-6149
▁ᎦᏬᏂᏍᎬᎩ	-6150
▁ᎧᏃᎮᏍᎬᎢ	-6151
▁ᎨᎦᏁᎳᏅᎯ	-6152
▁ᎪᎱᏍᏗᏰᏃ	-6153
▁ᎯᎨᏳᏎᏍᏗ	-6154
▁ᎯᏍᎦᏍᎪᎯ	-6155
▁ᎯᏍᎩᏍᎪᎯ	-6156
▁ᎯᏲᏍᏗᏍᎩ	-6157
▁ᎺᎵᎩᏏᏕᎩ	-6158
▁ᎾᏍᎩᏯᏰᏃ	-6159
▁ᏂᎦᎵᏍᏔᏂ	-6160
▁ᏂᏓᏕᏘᏴᎯ	-6161
▁ᏂᏚᏩᏁᎸᎩ	-6162
▁ᏂᏦᎯᏳᏒᎾ	-6163
▁ᏂᏨᏁᎮᏍᏗ	-6164
▁ᏅᎦᏍᎪᎯᏃ	-6165
▁ᏅᏩᎾᏓᎴᎢ	-6166
▁ᏅᏩᏙᎯᏍᏛ	-6167
▁ᏍᎩᏯᏕᎶᏆ	-6168
▁ᏍᎩᏲᎮᏍᏗ	-6169
▁ᏑᏓᎳᏍᎪᎯ	-6170
▁ᏓᏲᏣᏛᏁᎵ	-6171
▁ᏕᎦᎳᏫᎥᎢ	-6172
▁ᏕᏥᏙᎨᏍᏗ	-6173
▁ᏗᎪᏏᏏᏍᎩ	-6174
▁ᏗᎬᏩᎩᏨᏗ	-6175
▁ᏗᎾᏓᏲᏁᎯ	-6176
▁ᏗᏣᎳᏏᏗᏱ	-6177
▁ᏗᏣᏘᏂᏙᎯ	-6178
▁ᏗᏥᏁᏟᏴᎾ	-6179
▁ᏣᏁᏢᏔᏅᎯ	-6180
▁ᏣᏃᏍᎩᏒᎩ	-6181
▁ᏥᏕᏣᎪᎲᎩ	-6182
▁ᏧᏂᎯᏍᏗᏱ	-6183
▁ᏧᏚᎪᏔᏅᎯ	-6184
▁ᏫᎨᏥᏯᏅᏛ	-6185
▁ᏫᏚᏯᏅᎮᎢ	-6186
▁ᏭᏓᎪᎾᏛᏛ	-6187
▁ᏱᏂᎦᏛᏁᎭ	-6188
▁ᏱᏍᎩᏲᎢᏳ	-6189
▁ᏱᏣᏞᎨᏍᏗ	-6190
ᎵᏍᎪᎸᏓᏁᏗᏱ	-6191
▁ᎠᎩᏍᎦᏅᏨᎯ	-6192
▁ᎠᎵᏍᏓᏴᏗᏱ	-6193
▁ᎠᎵᏥᏙᎲᏍᎬ	-6194
▁ᎠᎾᎵᏍᏓᏴᏗ	-6195
▁ᎠᏂᎸᏉᏗᏍᎨ	-6196
▁ᎠᏂᏍᏓᏩᏕᎩ	-6197
▁ᎠᏂᏐᏢᎢᏍᏗ	-6198
▁ᎠᏂᏯᏫᏍᎩᏃ	-6199
▁ᎠᏅᏗᏍᎨᏍᏗ	-6200
▁ᎠᏆᎵᏥᏙᏗᏱ	-6201
▁ᎠᏆᏛᎦᏅᎩᏃ	-6202
▁ᎠᏓᎪᎵᏰᏍᎩ	-6203
▁ᎠᏓᏪᎵᎩᏍᎬ	-6204
▁ᎠᏔᎳᏬᎯᏍᏗ	-6205
▁ᎠᏕᎸᏓᎶᏂᎨ	-6206
▁ᎠᏗᏔᏍᎨᏍᏗ	-6207
▁ᎠᏚᎢᏍᏔᏅᎯ	-6208
▁ᎠᏛᎩᏍᎨᏍᏗ	-6209
▁ᎠᏛᏂᏗᏍᏙᏗ	-6210
▁ᎠᏥᎧᎯᏯᏍᏗ	-6211
▁ᎠᏩᎾᎦᎳᎯᏳ	-6212
▁ᎡᏥᏍᏕᎸᏗᏱ	-6213
▁ᎢᏣᏓᏅᏖᏍᎬ	-6214
▁ᎢᏨᎪᏩᏛᏗᏱ	-6215
▁ᎢᏨᏰᎳᏗᏙᎭ	-6216
▁ᎣᎦᏓᏅᏔᏩᏕ	-6217
▁ᎤᎩᎵᏲᎢᏍᏗ	-6218
▁ᎤᏁᏉᎢᏍᏗᏱ	-6219
▁ᎤᏂᏲᎢᏎᎸᎯ	-6220
▁ᎤᏓᏙᎵᏣᏘᏳ	-6221
▁ᎤᏕᎰᎯᏍᏗᏳ	-6222
▁ᎦᏓᏅᏖᏍᎬᎢ	-6223
▁ᎨᎦᎫᏴᏓᏁᏗ	-6224
▁ᎨᏥᎦᏘᏗᏍᏗ	-6225
▁ᎨᏥᏍᏕᎸᏗᏱ	-6226
▁ᎬᎩᏁᏉᏤᏗᏱ	-6227
▁ᎬᏩᏂᎪᏩᏛᏗ	-6228
▁ᎬᏩᏓᏙᎵᏍᏗ	-6229
▁ᎭᏟᏂᎬᏁᎸᎭ	-6230
▁ᎯᎠᏍᎩᏂᏃᏅ	-6231
▁ᎾᏍᏆᎵᏍᎬᎾ	-6232
▁ᏂᎦᏥᏴᏁᎸᎭ	-6233
▁ᏂᎬᏩᎦᏔᎲᎾ	-6234
▁ᏂᏕᏥᎾᏝᎥᎾ	-6235
▁ᏂᏚᎩᏨᏂᏒᎢ	-6236
▁ᏄᎵᏍᏓᏁᎸᎢ	-6237
▁ᏄᎾᏛᏁᎵᏙᎸ	-6238
▁ᏅᏓᎦᏥᏴᏁᎵ	-6239
▁ᏅᏓᏍᏆᏓᏱᎵ	-6240
▁ᏅᏓᏣᏓᎴᏅᎯ	-6241
▁ᏅᏓᏳᏄᎪᏨᎯ	-6242
▁ᏅᏓᏳᏓᎴᏅᏛ	-6243
▁ᏅᏧᏓᎴᏅᎲᎾ	-6244
▁ᏓᏓᎿᏩᏍᏛᎢ	-6245
▁ᏕᏥᎸᏉᏕᏍᏗ	-6246
▁ᏕᏥᏁᏤᎮᏍᏗ	-6247
▁ᏗᎨᎫᎪᏓᏁᏗ	-6248
▁ᏗᏂᎧᎿᏩᏕᎩ	-6249
▁ᏗᏍᎩᎧᏁᎸᎯ	-6250
▁ᏗᏓᎴᏅᏗᏍᎩ	-6251
▁ᏗᏣᎵᏂᎩᏗᏳ	-6252
▁ᏗᏣᏓᎨᏳᎯᏳ	-6253
▁ᏗᏥᎦᏴᎵᎨᎢ	-6254
▁ᏗᏥᏲᎯᏍᏗᏱ	-6255
▁ᏗᏨᏲᎯᏎᏗᏱ	-6256
▁ᏚᎵᏍᏚᎢᏎᎢ	-6257
▁ᏥᎦᎷᎯᏍᏗᎭ	-6258
▁ᏥᏯᎵᎡᎵᏤᎭ	-6259
▁ᏧᏂᏲᎱᏒᎯᏃ	-6260
▁ᏧᏂᏴᏍᏕᏍᎩ	-6261
▁ᏩᎵᏰᎢᎶᎯᎭ	-6262
▁ᏫᏂᎦᎵᏍᏙᏓ	-6263
▁ᏫᏂᏚᏪᏎᎸᎩ	-6264
▁ᏬᎩᏅᏍᏔᏅᎩ	-6265
▁ᏱᏍᎦᎢᎮᏍᏗ	-6266
ᎬᏍᎪᎸᎥᏍᎨᏍᏗ	-6267
▁ᎠᎾᎵᏍᎦᏍᏙᏗ	-6268
▁ᎠᏓᏙᎵᏍᏓᏁᎯ	-6269
▁ᎠᏓᏙᎵᏍᏗᏍᎬ	-6270
▁ᎠᏓᏙᎵᏍᏙᏗᏱ	-6271
▁ᎠᏥᎸᎨᎳᏍᏗᏱ	-6272
▁ᎢᏣᎵᏍᏓᏴᏗᏱ	-6273
▁ᎢᏣᏛᎩᏍᎨᏍᏗ	-6274
▁ᎢᏣᏛᏅᎢᏍᏙᎢ	-6275
▁ᎢᏯᏛᏁᎵᏓᏍᏗ	-6276
▁ᎢᏳᎾᎵᏍᏔᏅᎯ	-6277
▁ᎤᎦᏌᏯᏍᏗᏕᎩ	-6278
▁ᎤᎾᏓᏙᎵᏍᏔᏅ	-6279
▁ᎤᎾᏗᎦᎴᏲᏨᎯ	-6280
▁ᎤᏓᏚᏓᎴᏍᏙᏗ	-6281
▁ᎾᏆᎵᏍᏓᏁᎸᎩ	-6282
▁ᏂᏗᎨᏥᎾᏝᎥᎾ	-6283
▁ᏓᏥᎾᏄᎪᏫᏎᎵ	-6284
▁ᏕᎦᏬᏁᏗᏍᎬᎩ	-6285
▁ᏕᎭᏓᏅᎡᎮᏍᏗ	-6286
▁ᏕᏥᏃᎩᏍᎨᏍᏗ	-6287
▁ᏗᎾᏓᎾᏌᎲᏍᎩ	-6288
▁ᏥᏨᏰᎳᏗᏙᎲᎩ	-6289
▁ᎠᎩᏍᏓᏩᏕᎨᏍᏗ	-6290
▁ᎠᏉᎯᏳᎲᏍᎨᏍᏗ	-6291
▁ᎠᏓᎦᎵᏍᏓᏗᏍᎩ	-6292
▁ᎠᏰᎳᏍᏗᎦᏅᎯᏛ	-6293
▁ᎢᏓᏙᎴᎰᎯᏍᏗᎭ	-6294
▁ᎤᎾᏙᎴᎰᎯᏍᏗᏱ	-6295
▁ᎤᏓᏙᎵᏍᏓᏁᎴᎢ	-6296
▁ᎦᏓᏙᎵᏍᏗᏍᎬᎢ	-6297
▁ᎾᎵᏍᏓᏴᎲᏍᎬᎾ	-6298
▁ᏕᏥᎸᏫᏍᏓᏁᎲᎢ	-6299
▁ᏕᏦᏕᏍᏗᏍᎨᏍᏗ	-6300
▁ᏗᎦᎳᏫᎢᏍᏗᏱᏃ	-6301
▁ᏚᎸᏫᏍᏓᏁᎮᏍᏗ	-6302
▁ᎨᎦᎵᏍᎪᎸᏓᏁᎸᎯ	-6303
▁ᏂᏗᎨᏥᎤᏍᏕᏎᎸᎾ	-6304
▁ᏓᎾᎵᏍᏓᏴᎲᏍᎬᎢ	-6305
▁ᏗᎧᎿᏩᏛᏍᏗᏍᎩᏂ	-6306
..	-6307
;"	-6308
ᎠᎹ	-6309
ᎠᎾ	-6310
ᎡᏃ	-6311
ᎡᏆ	-6312
ᎢᏯ	-6313
ᎣᏈ	-6314
ᎤᎦ	-6315
ᎤᏟ	-6316
ᎪᎵ	-6317
ᎪᏃ	-6318
ᎪᏅ	-6319
ᎫᏱ	-6320
ᎬᏉ	-6321
ᎬᏯ	-6322
ᎭᏫ	-6323
ᎮᎯ	-6324
ᎯᎭ	-6325
ᎳᎾ	-6326
ᎴᎷ	-6327
ᎴᎾ	-6328
ᎵᎬ	-6329
ᎶᎦ	-6330
ᎶᎴ	-6331
ᎶᎾ	-6332
ᎷᎳ	-6333
ᎸᏅ	-6334
ᎹᎵ	-6335
ᎻᎦ	-6336
ᎿᎷ	-6337
ᏁᏏ	-6338
ᏂᎢ	-6339
ᏂᎴ	-6340
ᏃᎲ	-6341
ᏃᏟ	-6342
ᏄᎳ	-6343
ᏄᏓ	-6344
ᏅᏓ	-6345
ᏅᏯ	-6346
ᏆᏏ	-6347
ᏌᎢ	-6348
ᏍᏜ	-6349
ᏏᎸ	-6350
ᏐᎾ	-6351
ᏐᏈ	-6352
ᏔᏪ	-6353
ᏕᏋ	-6354
ᏖᏉ	-6355
ᏗᏥ	-6356
ᏘᏂ	-6357
ᏘᏴ	-6358
ᏙᎰ	-6359
ᏚᎬ	-6360
ᏚᏣ	-6361
ᏡᏗ	-6362
ᏤᏅ	-6363
ᏤᏉ	-6364
ᏧᎾ	-6365
ᏨᏩ	-6366
ᏩᎭ	-6367
ᏫᏏ	-6368
ᏰᏅ	-6369
ᏲᎥ	-6370
ᏲᏪ	-6371
ᏴᏏ	-6372
▁Ꮆ	-6373
ᎠᎩᏏ	-6374
ᎡᎪᎢ	-6375
ᎦᎶᏏ	-6376
ᎦᏘᏗ	-6377
ᎧᎲᎦ	-6378
ᎧᏛᎢ	-6379
ᎩᎡᎯ	-6380
ᎩᏯᏪ	-6381
ᎩᏴᎩ	-6382
ᎪᎸᏛ	-6383
ᎫᏛᎢ	-6384
ᎫᏴᏏ	-6385
ᎫᏴᏗ	-6386
ᎬᏁᎸ	-6387
ᎱᎶᏗ	-6388
ᎳᏏᏕ	-6389
ᎳᏑᎶ	-6390
ᎳᏗᏢ	-6391
ᎳᏫᏦ	-6392
ᎴᏅᎲ	-6393
ᎴᏔᏅ	-6394
ᎵᏍᎨ	-6395
ᎵᏍᏚ	-6396
ᎵᏒᎢ	-6397
ᎵᏕᎬ	-6398
ᎵᏱᎵ	-6399
ᎵᏱᏳ	-6400
ᎷᎬᎢ	-6401
ᎷᏤᎭ	-6402
ᎹᏗᏱ	-6403
ᎻᏟᏯ	-6404
ᎾᎸᎯ	-6405
ᎾᏓᎳ	-6406
ᎾᏝᎠ	-6407
ᏁᎩᏴ	-6408
ᏁᎪᎢ	-6409
ᏁᎶᏛ	-6410
ᏁᏒᎩ	-6411
ᏂᏍᏛ	-6412
ᏂᏴᎭ	-6413
ᏂᏴᏗ	-6414
ᏃᎯᎮ	-6415
ᏃᎯᏏ	-6416
ᏄᎵᏳ	-6417
ᏄᏪᏎ	-6418
ᏄᏴᏗ	-6419
ᏅᏁᎵ	-6420
ᏅᏓᏓ	-6421
ᏅᏛᎩ	-6422
ᏅᏨᎩ	-6423
ᏉᏙᏗ	-6424
ᏌᎳᏓ	-6425
ᏍᎨᏃ	-6426
ᏍᏍᎩ	-6427
ᏍᏙᏓ	-6428
ᏍᏛᎦ	-6429
ᏍᏛᎯ	-6430
ᏎᎵᏛ	-6431
ᏏᎾᎯ	-6432
ᏏᏅᎯ	-6433
ᏐᎭᏛ	-6434
ᏒᎦᎶ	-6435
ᏒᎦᎸ	-6436
ᏒᎩᏃ	-6437
ᏓᏁᎰ	-6438
ᏓᏁᏣ	-6439
ᏓᏕᎵ	-6440
ᏓᏗᏔ	-6441
ᏓᏛᏛ	-6442
ᏔᎲᎢ	-6443
ᏔᎴᏒ	-6444
ᏔᏅᏃ	-6445
ᏔᏲᏏ	-6446
ᏕᎨᎢ	-6447
ᏕᎪᏗ	-6448
ᏕᎯᎯ	-6449
ᏕᏁᎢ	-6450
ᏕᏨᎯ	-6451
ᏖᎣᎩ	-6452
ᏖᎸᏂ	-6453
ᏘᏎᎢ	-6454
ᏙᎰᎢ	-6455
ᏙᎵᎦ	-6456
ᏙᎵᏨ	-6457
ᏙᎾᎠ	-6458
ᏚᎩᏱ	-6459
ᏚᎯᏳ	-6460
ᏚᎸᎾ	-6461
ᏛᏃᏛ	-6462
ᏟᏌᏂ	-6463
ᏟᏐᏗ	-6464
ᏠᏍᏗ	-6465
ᏠᏱᎭ	-6466
ᏠᏱᎯ	-6467
ᏢᏙᏗ	-6468
ᏤᎰᎢ	-6469
ᏤᎲᎢ	-6470
ᏤᎵᏏ	-6471
ᏤᏪᎸ	-6472
ᏥᎪᎥ	-6473
ᏩᏒᎢ	-6474
ᏩᏛᎡ	-6475
ᏪᎸᎢ	-6476
ᏫᏒᎾ	-6477
ᏬᎥᎯ	-6478
ᏯᏛᏓ	-6479
ᏰᎪᎢ	-6480
ᏰᎵᎯ	-6481
ᏰᎸᏎ	-6482
ᏰᏍᏗ	-6483
ᏲᎵᎸ	-6484
ᏲᏍᏓ	-6485
ᏲᏎᏗ	-6486
ᏴᎯᎭ	-6487
ᏴᏓᏗ	-6488
▁ᎠᎭ	-6489
▁ᎠᏌ	-6490
▁ᎠᏐ	-6491
▁ᎠᏔ	-6492
▁ᎠᏘ	-6493
▁ᎠᏞ	-6494
▁ᎠᏡ	-6495
▁ᎠᏦ	-6496
▁ᎠᏬ	-6497
▁ᎠᏱ	-6498
▁ᎡᏐ	-6499
▁ᎡᏦ	-6500
▁ᎢᎫ	-6501
▁ᎢᏐ	-6502
▁ᎢᏴ	-6503
▁ᎣᏓ	-6504
▁ᎤᏠ	-6505
▁ᎤᏨ	-6506
▁ᎥᏃ	-6507
▁ᎦᏯ	-6508
▁ᎪᎦ	-6509
▁ᎪᎳ	-6510
▁ᎬᏓ	-6511
▁ᎭᏙ	-6512
▁ᎯᏁ	-6513
▁ᎵᏓ	-6514
▁ᎹᎵ	-6515
▁ᎾᎯ	-6516
▁ᎾᏯ	-6517
▁ᎾᏲ	-6518
▁ᏃᏨ	-6519
▁ᏇᏂ	-6520
▁ᏌᎳ	-6521
▁ᏌᎻ	-6522
▁ᏍᏓ	-6523
▁ᏓᎭ	-6524
▁ᏓᏃ	-6525
▁ᏓᏯ	-6526
▁ᏕᏓ	-6527
▁ᏕᏗ	-6528
▁ᏗᏯ	-6529
▁ᏘᏂ	-6530
▁ᏙᏨ	-6531
▁ᏟᏗ	-6532
▁ᏣᏲ	-6533
▁ᏥᎯ	-6534
▁ᏥᎳ	-6535
▁ᏦᎬ	-6536
▁ᏧᎨ	-6537
▁ᏧᏄ	-6538
▁ᏧᏈ	-6539
▁ᏧᏛ	-6540
▁ᏧᏥ	-6541
▁ᏨᏆ	-6542
▁ᏪᏥ	-6543
▁ᏭᏃ	-6544
▁ᏭᏩ	-6545
▁ᏯᎭ	-6546
▁ᏱᎡ	-6547
▁ᏱᏃ	-6548
▁ᏱᏭ	-6549
▁ᏲᏣ	-6550
ᎠᏍᎦᏯ	-6551
ᎢᏧᎳᎭ	-6552
ᎦᎶᎨᏒ	-6553
ᎦᎸᏗᏱ	-6554
ᎦᏔᎯᏳ	-6555
ᎦᏖᏃᎮ	-6556
ᎦᏖᏙᎢ	-6557
ᎦᏘᎴᎦ	-6558
ᎦᏛᏅᎯ	-6559
ᎧᎿᏅᎩ	-6560
ᎧᏃᎮᏛ	-6561
ᎨᏫᏒᎯ	-6562
ᎪᎱᏍᏗ	-6563
ᎪᏓᏁᎭ	-6564
ᎪᏩᏗᎭ	-6565
ᎭᏁᎦᎸ	-6566
ᎯᎮᏍᏗ	-6567
ᎳᏅᏓᏕ	-6568
ᎳᏍᏓᎳ	-6569
ᎴᎯᏌᏂ	-6570
ᎴᏅᏙᏗ	-6571
ᎵᎥᏂᎸ	-6572
ᎵᎮᎵᎦ	-6573
ᎵᏍᏓᏱ	-6574
ᎵᏍᏛᎾ	-6575
ᎶᎲᏍᎦ	-6576
ᎶᏄᎡᎸ	-6577
ᎶᏐᏅᎭ	-6578
ᎸᎢᏍᏗ	-6579
ᎻᏈᎵᏱ	-6580
ᎾᎯᏍᏗ	-6581
ᎾᏗᏅᏎ	-6582
ᎾᏫᏛᎮ	-6583
ᎿᏍᏆᎶ	-6584
ᏁᎫᏥᏛ	-6585
ᏁᏟᏴᏎ	-6586
ᏁᏟᏴᏛ	-6587
ᏂᎩᏒᎩ	-6588
ᏂᎪᏩᏘ	-6589
ᏄᎪᎬᎢ	-6590
ᏄᎪᏤᎢ	-6591
ᏄᎪᏫᏒ	-6592
ᏄᏬᎡᎢ	-6593
ᏄᏬᏍᏗ	-6594
ᏅᎥᏍᎬ	-6595
ᏅᏁᎸᎯ	-6596
ᏇᏓᎸᎢ	-6597
ᏍᎩᎥᏏ	-6598
ᏍᏓᏁᎮ	-6599
ᏍᏚᎢᏏ	-6600
ᏎᎦᏨᎯ	-6601
ᏎᏍᏗᏱ	-6602
ᏑᎴᎲᎾ	-6603
ᏓᎴᏍᏗ	-6604
ᏓᏁᎲᎢ	-6605
ᏓᏁᎲᎾ	-6606
ᏓᏂᎸᏤ	-6607
ᏓᏅᎡᎸ	-6608
ᏓᏅᏓᏓ	-6609
ᏓᏅᏖᎭ	-6610
ᏓᏅᏖᎴ	-6611
ᏓᏅᏘᏳ	-6612
ᏓᏍᎬᎢ	-6613
ᏓᏝᎲᎢ	-6614
ᏓᏡᏗᎭ	-6615
ᏔᏩᏕᎩ	-6616
ᏔᏲᎯᎰ	-6617
ᏔᏲᎯᎲ	-6618
ᏔᏲᏍᏗ	-6619
ᏖᎸᎲᎦ	-6620
ᏗᎦᎴᏯ	-6621
ᏗᏍᏙᏗ	-6622
ᏗᏒᎯᎮ	-6623
ᏗᏫᏍᏓ	-6624
ᏘᏃᎮᎴ	-6625
ᏘᏴᏌᏗ	-6626
ᏙᎥᏍᏗ	-6627
ᏙᎵᎬᎾ	-6628
ᏙᏔᏅᎯ	-6629
ᏚᏓᏕᏫ	-6630
ᏛᏁᎲᎩ	-6631
ᏛᏍᎪᎢ	-6632
ᏛᏛᎲᎦ	-6633
ᏟᏏᏍᎪ	-6634
ᏠᏱᎴᎢ	-6635
ᏢᏈᏍᎦ	-6636
ᏢᏙᏗᏱ	-6637
ᏤᎵᎦᏯ	-6638
ᏥᏍᎪᎸ	-6639
ᏥᏴᏔᏂ	-6640
ᏩᏛᎡᎭ	-6641
ᏩᏛᎱᎦ	-6642
ᏫᏎᎴᎢ	-6643
ᏬᏁᏙᏗ	-6644
ᏬᏎᎴᎢ	-6645
ᏭᎪᏓᏁ	-6646
ᏯᏛᏂᏏ	-6647
ᏯᏛᏛᏂ	-6648
ᏰᎬᏍᏓ	-6649
ᏱᎵᏙᎭ	-6650
ᏲᎱᏍᎩ	-6651
ᏲᎱᏎᎢ	-6652
ᏲᎱᏎᎸ	-6653
ᏲᏍᏙᏗ	-6654
ᏲᏎᏰᏃ	-6655
▁ᎠᎩᎲ	-6656
▁ᎠᎶᎻ	-6657
▁ᎠᏂᎨ	-6658
▁ᎠᏂᎵ	-6659
▁ᎠᏂᏉ	-6660
▁ᎠᏂᏛ	-6661
▁ᎠᏂᏲ	-6662
▁ᎠᏂᏴ	-6663
▁ᎠᏅᏳ	-6664
▁ᎠᏐᏢ	-6665
▁ᎠᏢᏆ	-6666
▁ᎠᏫᏃ	-6667
▁ᎡᎦᏯ	-6668
▁ᎡᎧᏯ	-6669
▁ᎡᎪᎢ	-6670
▁ᎡᎵᏆ	-6671
▁ᎡᏈᎵ	-6672
▁ᎡᏙᎲ	-6673
▁ᎡᏤᎾ	-6674
▁ᎢᎡᏥ	-6675
▁ᎢᎯᏯ	-6676
▁ᎢᏍᏉ	-6677
▁ᎢᏓᎴ	-6678
▁ᎢᏖᎳ	-6679
▁ᎢᏧᏖ	-6680
▁ᎢᏯᏓ	-6681
▁ᎣᎻᎦ	-6682
▁ᎣᏤᎯ	-6683
▁ᎣᏤᎵ	-6684
▁ᎣᏥᏯ	-6685
▁ᎤᎧᏲ	-6686
▁ᎤᎵᏦ	-6687
▁ᎤᎶᏏ	-6688
▁ᎤᎷᎯ	-6689
▁ᎤᎾᏦ	-6690
▁ᎤᎾᏨ	-6691
▁ᎤᏁᏅ	-6692
▁ᎤᏂᎭ	-6693
▁ᎤᏂᎲ	-6694
▁ᎤᏂᏨ	-6695
▁ᎤᏄᏖ	-6696
▁ᎤᏄᏪ	-6697
▁ᎤᏕᏗ	-6698
▁ᎤᏗᏢ	-6699
▁ᎤᏛᏃ	-6700
▁ᎤᏛᏓ	-6701
▁ᎤᏢᏈ	-6702
▁ᎤᏣᏗ	-6703
▁ᎤᏫᏒ	-6704
▁ᎤᏬᎳ	-6705
▁ᎤᏯᎠ	-6706
▁ᎤᏰᎵ	-6707
▁ᎤᏴᎵ	-6708
▁ᎤᏴᎸ	-6709
▁ᎥᎩᏙ	-6710
▁ᎥᎬᏬ	-6711
▁ᎥᏇᎵ	-6712
▁ᎥᏓᏗ	-6713
▁ᎦᎨᏣ	-6714
▁ᎦᎪᎨ	-6715
▁ᎦᎵᎭ	-6716
▁ᎦᏂᎳ	-6717
▁ᎦᏅᎨ	-6718
▁ᎦᏅᎬ	-6719
▁ᎦᏓᏉ	-6720
▁ᎦᏙᎦ	-6721
▁ᎦᏛᎢ	-6722
▁ᎦᏥᏴ	-6723
▁ᎦᏲᎩ	-6724
▁ᎨᎥᎢ	-6725
▁ᎨᏥᏅ	-6726
▁ᎩᎳᎢ	-6727
▁ᎪᎯᎩ	-6728
▁ᎪᎹᎵ	-6729
▁ᎿᏛᎦ	-6730
▁ᏂᎨᏒ	-6731
▁ᏂᏓᏅ	-6732
▁ᏂᏙᏣ	-6733
▁ᏄᏅᏅ	-6734
▁ᏄᏓᎴ	-6735
▁ᏅᏓᏨ	-6736
▁ᏅᏓᏰ	-6737
▁ᏅᏛᏂ	-6738
▁ᏇᎵᏲ	-6739
▁ᏈᏂᏏ	-6740
▁ᏌᎶᎻ	-6741
▁ᏍᎩᏳ	-6742
▁ᏍᏇᎵ	-6743
▁ᏐᎢᏱ	-6744
▁ᏓᎬᎩ	-6745
▁ᏓᏂᏅ	-6746
▁ᏓᏅᏅ	-6747
▁ᏓᏍᎩ	-6748
▁ᏓᏥᏂ	-6749
▁ᏓᏳᎾ	-6750
▁ᏕᎤᏂ	-6751
▁ᏕᎨᏲ	-6752
▁ᏕᎯᏯ	-6753
▁ᏕᏫᏃ	-6754
▁ᏗᎦᏅ	-6755
▁ᏗᎧᎾ	-6756
▁ᏗᎨᎩ	-6757
▁ᏗᎩᎦ	-6758
▁ᏗᎩᎾ	-6759
▁ᏗᎩᏂ	-6760
▁ᏗᎬᏪ	-6761
▁ᏗᏍᏛ	-6762
▁ᏗᏠᎯ	-6763
▁ᏙᏣᏓ	-6764
▁ᏚᎴᏁ	-6765
▁ᏚᏁᎸ	-6766
▁ᏚᏂᎧ	-6767
▁ᏛᎾᎵ	-6768
▁ᏝᏬᏔ	-6769
▁ᏣᎧᏛ	-6770
▁ᏣᏍᏓ	-6771
▁ᏣᏓᏡ	-6772
▁ᏣᏚᎵ	-6773
▁ᏣᏰᎯ	-6774
▁ᏤᎿᎠ	-6775
▁ᏥᎣᎵ	-6776
▁ᏥᎻᏃ	-6777
▁ᏥᎾᏆ	-6778
▁ᏥᏄᏂ	-6779
▁ᏥᏅᏩ	-6780
▁ᏥᏍᏓ	-6781
▁ᏥᏓᏓ	-6782
▁ᏥᏚᎴ	-6783
▁ᏥᏧᏏ	-6784
▁ᏥᏩᏂ	-6785
▁ᏥᏫᎦ	-6786
▁ᏥᏫᏨ	-6787
▁ᏥᏳᏃ	-6788
▁ᏦᎩᏂ	-6789
▁ᏦᏍᏓ	-6790
▁ᏧᎾᏁ	-6791
▁ᏧᏁᎳ	-6792
▁ᏧᏂᎬ	-6793
▁ᏧᏪᏘ	-6794
▁ᏧᏪᏲ	-6795
▁ᏫᎤᎾ	-6796
▁ᏫᎨᏣ	-6797
▁ᏫᏓᏆ	-6798
▁ᏫᏗᏣ	-6799
▁ᏫᏗᏥ	-6800
▁ᏫᏙᏓ	-6801
▁ᏫᏙᏥ	-6802
▁ᏫᏯᏅ	-6803
▁ᏭᎪᎮ	-6804
▁ᏭᎾᎵ	-6805
▁ᏭᏍᏗ	-6806
▁ᏯᏃᏉ	-6807
▁ᏱᎾᎦ	-6808
▁ᏱᏁᏥ	-6809
▁ᏱᏂᏚ	-6810
▁ᏱᏄᏩ	-6811
▁ᏱᏅᏓ	-6812
▁ᏱᏍᏗ	-6813
▁ᏱᏓᎴ	-6814
▁ᏱᏕᎪ	-6815
▁ᏱᏗᏗ	-6816
▁ᏱᏙᏥ	-6817
▁ᏳᎷᏨ	-6818
▁ᏳᏁᎭ	-6819
▁ᏴᎦᏥ	-6820
▁ᏴᎨᏣ	-6821
▁ᏴᏗᎤ	-6822
ᎠᎩᏏᏙᎯ	-6823
ᎠᏡᏗᏍᎩ	-6824
ᎦᎵᏍᎨᎢ	-6825
ᎦᎵᏍᏓᏴ	-6826
ᎦᎸᏉᏗᏳ	-6827
ᎪᏓᏁᏗᏱ	-6828
ᎫᎢᏍᏛᎾ	-6829
ᎳᏫᏎᎸᎩ	-6830
ᎴᎯᏌᏅᎢ	-6831
ᎵᎮᎵᏍᏗ	-6832
ᎵᏂᎬᎬᎢ	-6833
ᎵᏰᎢᎵᏒ	-6834
ᎶᏄᎮᏍᎩ	-6835
ᎾᎯᏍᏙᏗ	-6836
ᎾᏄᎪᏨᎩ	-6837
ᎾᏄᎪᏫᏎ	-6838
ᎾᏄᎪᏫᏒ	-6839
ᎾᏏᏂᏙᎯ	-6840
ᎾᏫᏛᎮᎢ	-6841
ᎾᏰᏍᎬᎢ	-6842
ᎿᏫᏛᎲᎩ	-6843
ᏁᎢᏍᏔᏁ	-6844
ᏁᎢᏍᏔᏂ	-6845
ᏁᏅᏍᏗᏱ	-6846
ᏁᏍᎨᎲᎯ	-6847
ᏁᏟᏴᏍᎩ	-6848
ᏁᏟᏴᏒᎾ	-6849
ᏂᏙᎮᏍᏗ	-6850
ᏂᏪᏎᎴᎢ	-6851
ᏃᎯᎮᏍᏗ	-6852
ᏇᎯᏍᏗᎭ	-6853
ᏌᎳᏙᏗᏱ	-6854
ᏍᎦᎨᏍᏗ	-6855
ᏍᎦᎾᎯᏳ	-6856
ᏍᎩᏍᏗᏱ	-6857
ᏍᎫᏕᏒᎯ	-6858
ᏍᎬᏍᎩᏂ	-6859
ᏍᏆᏃᏴᎪ	-6860
ᏍᏆᏗᏍᏗ	-6861
ᏍᏓᏁᎲᎢ	-6862
ᏍᏓᏁᎴᎢ	-6863
ᏍᏓᏁᎸᎢ	-6864
ᏍᏕᏙᎲᎩ	-6865
ᏍᏗᏍᎬᎩ	-6866
ᏍᏗᏍᎬᎾ	-6867
ᏍᏗᏰᏔᏁ	-6868
ᏍᏙᏗᏍᎩ	-6869
ᏓᎴᎲᏍᎩ	-6870
ᏓᏁᏟᏴᏒ	-6871
ᏓᏗᏍᎪᎢ	-6872
ᏔᎷᎩᏍᎩ	-6873
ᏔᏲᏎᏗᏱ	-6874
ᏙᎵᎨᏍᏗ	-6875
ᏙᎵᏍᏗᏉ	-6876
ᏛᎦᏁᎰᎢ	-6877
ᏟᏏᏍᎪᎢ	-6878
ᏠᏯᏍᏗᎭ	-6879
ᏢᎾᏁᎸᎯ	-6880
ᏢᏗᏍᎪᎢ	-6881
ᏢᏫᏍᏙᏗ	-6882
ᏥᎪᎥᏍᎦ	-6883
ᏥᎾᏍᏛᎯ	-6884
ᏥᏃᎯᏍᏓ	-6885
ᏦᎢᏳᏁᎢ	-6886
ᏫᏍᎨᏍᏗ	-6887
ᏰᏲᎲᏍᎩ	-6888
ᏲᎢᏳᎲᎦ	-6889
ᏲᎵᏍᏗᏱ	-6890
ᏲᏎᎮᏍᏗ	-6891
ᏴᏍᏕᏍᏗ	-6892
▁ᎠᎢᏒᎩ	-6893
▁ᎠᎦᏔᎮ	-6894
▁ᎠᎩᎪᎲ	-6895
▁ᎠᎩᏁᎫ	-6896
▁ᎠᎩᏫᏯ	-6897
▁ᎠᎵᏃᎮ	-6898
▁ᎠᎾᎢᏒ	-6899
▁ᎠᏁᎶᎯ	-6900
▁ᎠᏂᎧᎸ	-6901
▁ᎠᏂᎩᎾ	-6902
▁ᎠᏂᎵᎾ	-6903
▁ᎠᏇᎵᏒ	-6904
▁ᎠᏍᎦᎩ	-6905
▁ᎠᏓᎨᏗ	-6906
▁ᎠᏓᏛᏂ	-6907
▁ᎠᏟᏍᏛ	-6908
▁ᎠᏯᏙᎵ	-6909
▁ᎠᏰᎵᏃ	-6910
▁ᎡᎳᏗᏃ	-6911
▁ᎡᎶᎯᏉ	-6912
▁ᎡᏙᎢᏳ	-6913
▁ᎡᏙᏓᏃ	-6914
▁ᎡᏥᏁᎸ	-6915
▁ᎡᏦᎯᏳ	-6916
▁ᎢᎦᏚᎩ	-6917
▁ᎢᎫᏓᎴ	-6918
▁ᎢᎬᏩᏛ	-6919
▁ᎢᏕᎲᎢ	-6920
▁ᎢᏥᎷᎩ	-6921
▁ᎢᏥᏁᏉ	-6922
▁ᎢᏥᏍᎦ	-6923
▁ᎢᏦᎵᎩ	-6924
▁ᎢᏳᏏᏗ	-6925
▁ᎣᎾᏫᏱ	-6926
▁ᎣᏍᏛᏃ	-6927
▁ᎤᎧᏛᎢ	-6928
▁ᎤᎪᎮᎢ	-6929
▁ᎤᎪᎵᏰ	-6930
▁ᎤᎵᏍᏕ	-6931
▁ᎤᎵᏏᎲ	-6932
▁ᎤᎷᏤᎸ	-6933
▁ᎤᎸᏁᎢ	-6934
▁ᎤᎾᎦᏙ	-6935
▁ᎤᎾᎵᏍ	-6936
▁ᎤᎾᏛᏓ	-6937
▁ᎤᎾᏞᏒ	-6938
▁ᎤᎾᏣᎢ	-6939
▁ᎤᎿᎸᎯ	-6940
▁ᎤᏁᎳᏗ	-6941
▁ᎤᏁᏉᏨ	-6942
▁ᎤᏁᏒᎩ	-6943
▁ᎤᏂᎴᎢ	-6944
▁ᎤᏂᎸᏉ	-6945
▁ᎤᏂᎿᎸ	-6946
▁ᎤᏂᏂᏴ	-6947
▁ᎤᏂᏄᎸ	-6948
▁ᎤᏂᏅᏅ	-6949
▁ᎤᏂᏆᏘ	-6950
▁ᎤᏂᏍᏕ	-6951
▁ᎤᏂᏍᏚ	-6952
▁ᎤᏂᏬᏂ	-6953
▁ᎤᏃᎱᎦ	-6954
▁ᎤᏅᏁᎢ	-6955
▁ᎤᏅᏟᏃ	-6956
▁ᎤᏍᎦᏤ	-6957
▁ᎤᏍᏗᏉ	-6958
▁ᎤᏍᏢᏂ	-6959
▁ᎤᏓᏂᎵ	-6960
▁ᎤᏓᏅᏁ	-6961
▁ᎤᏓᏅᏎ	-6962
▁ᎤᏔᏕᎩ	-6963
▁ᎤᏔᏲᎴ	-6964
▁ᎤᏙᏢᏒ	-6965
▁ᎤᏚᎸᎲ	-6966
▁ᎤᏚᏫᏛ	-6967
▁ᎤᏢᎬᎩ	-6968
▁ᎤᏣᎢᏒ	-6969
▁ᎤᏩᏒᎯ	-6970
▁ᎤᏩᏔᏅ	-6971
▁ᎤᏪᎲᎢ	-6972
▁ᎤᏪᎷᎦ	-6973
▁ᎤᏪᎷᏁ	-6974
▁ᎤᏪᎷᏅ	-6975
▁ᎤᏪᏙᎴ	-6976
▁ᎤᏰᎶᎢ	-6977
▁ᎤᏲᏏᏌ	-6978
▁ᎤᏴᏍᏕ	-6979
▁ᎥᎩᏅᏟ	-6980
▁ᎥᏖᎣᎩ	-6981
▁ᎦᎳᏅᏛ	-6982
▁ᎦᎴᏂᏙ	-6983
▁ᎦᎷᎪᎢ	-6984
▁ᎦᎷᎶᎩ	-6985
▁ᎦᏁᎵᏛ	-6986
▁ᎦᏁᏥᎢ	-6987
▁ᎦᏄᎪᎬ	-6988
▁ᎦᏪᏢᏗ	-6989
▁ᎦᏲᎦᏛ	-6990
▁ᎧᎵᏬᎯ	-6991
▁ᎧᏁᎨᎢ	-6992
▁ᎧᏁᏉᎨ	-6993
▁ᎧᏃᎨᏂ	-6994
▁ᎧᏃᎮᎭ	-6995
▁ᎧᏃᏍᎦ	-6996
▁ᎨᏥᏯᏅ	-6997
▁ᎪᎶᏁᏛ	-6998
▁ᎪᏞᏍᏗ	-6999
▁ᎪᏪᎵᏃ	-7000
▁ᎬᏍᎦᎵ	-7001
▁ᎬᏙᏗᏱ	-7002
▁ᎬᏩᎾᏓ	-7003
▁ᎬᏩᎾᏛ	-7004
▁ᎬᏩᏛᏓ	-7005
▁ᎬᏩᏯᏫ	-7006
▁ᎭᏓᏅᎾ	-7007
▁ᎾᎬᏁᎴ	-7008
▁ᎾᏅᏁᎭ	-7009
▁ᎾᏉᎯᏳ	-7010
▁ᎾᏋᏁᎸ	-7011
▁ᎾᏍᎩᏂ	-7012
▁ᎾᏑᏴᎾ	-7013
▁ᎾᏕᏘᏴ	-7014
▁ᏁᏨᏁᎸ	-7015
▁ᏁᏪᏎᎢ	-7016
▁ᏂᎬᏁᎲ	-7017
▁ᏂᎬᏂᏏ	-7018
▁ᏂᏣᏪᏒ	-7019
▁ᏂᏥᏪᎠ	-7020
▁ᏂᏥᏪᏒ	-7021
▁ᏃᎦᏍᏛ	-7022
▁ᏄᏅᏁᎸ	-7023
▁ᏄᏛᏅᎢ	-7024
▁ᏄᏩᏁᎰ	-7025
▁ᏅᎩᏦᏁ	-7026
▁ᏅᎩᏧᏈ	-7027
▁ᏅᏓᎨᏥ	-7028
▁ᏏᎻᏯᏂ	-7029
▁ᏏᏓᏁᎸ	-7030
▁ᏓᎦᏘᎴ	-7031
▁ᏓᎬᏩᎵ	-7032
▁ᏓᎾᏕᏲ	-7033
▁ᏓᏍᏗᏰ	-7034
▁ᏓᏱᏓᎵ	-7035
▁ᏕᎤᎴᏅ	-7036
▁ᏕᎦᏅᏅ	-7037
▁ᏕᎧᏁᏤ	-7038
▁ᏕᏣᏓᏠ	-7039
▁ᏗᎤᎷᏨ	-7040
▁ᏗᎦᎴᏴ	-7041
▁ᏗᎦᏁᎸ	-7042
▁ᏗᎦᏄᎪ	-7043
▁ᏗᎦᏘᏯ	-7044
▁ᏗᎩᏅᏒ	-7045
▁ᏗᎴᏙᏗ	-7046
▁ᏗᏂᎯᎯ	-7047
▁ᏗᏂᎴᏂ	-7048
▁ᏗᏂᏁᎯ	-7049
▁ᏗᏂᏙᎬ	-7050
▁ᏗᏉᏰᏂ	-7051
▁ᏗᏓᏙᏪ	-7052
▁ᏗᏛᏃᏛ	-7053
▁ᏗᏤᏅᏒ	-7054
▁ᏗᏥᏙᏓ	-7055
▁ᏘᎦᏙᎵ	-7056
▁ᏙᏓᎸᎢ	-7057
▁ᏙᏓᏥᏯ	-7058
▁ᏚᎬᎭᎷ	-7059
▁ᏚᎵᏏᎲ	-7060
▁ᏚᎾᏗᏩ	-7061
▁ᏚᎾᏚᏫ	-7062
▁ᏚᏂᏲᏎ	-7063
▁ᏚᏃᎡᎢ	-7064
▁ᏚᏅᎵᏰ	-7065
▁ᏚᏕᏲᏁ	-7066
▁ᏚᏘᏅᏎ	-7067
▁ᏚᏪᏲᏁ	-7068
▁ᏚᏬᎡᎢ	-7069
▁ᏚᏬᏑᎴ	-7070
▁ᏚᏰᎵᏏ	-7071
▁ᏛᏂᎪᎯ	-7072
▁ᏞᏍᏗᏃ	-7073
▁ᏣᎩᏯᎠ	-7074
▁ᏣᎾᏗᎭ	-7075
▁ᏣᏂᎧᎳ	-7076
▁ᏣᏫᏎᎢ	-7077
▁ᏥᎪᎥᎩ	-7078
▁ᏥᏂᏕᎬ	-7079
▁ᏥᏍᏆᏃ	-7080
▁ᏥᏍᏆᏯ	-7081
▁ᏥᏥᏯᎠ	-7082
▁ᏥᏦᎯᏳ	-7083
▁ᏥᏯᎥᎢ	-7084
▁ᏦᎢᏉᏃ	-7085
▁ᏦᎴᏍᏗ	-7086
▁ᏧᎳᏑᎶ	-7087
▁ᏧᎾᏓᏡ	-7088
▁ᏧᎾᏛᎾ	-7089
▁ᏧᏁᏍᎨ	-7090
▁ᏧᏁᏤᎴ	-7091
▁ᏧᏂᏗᏱ	-7092
▁ᏧᏛᏅᎢ	-7093
▁ᏧᏬᎯᏳ	-7094
▁ᏨᏓᏯᎢ	-7095
▁ᏫᎤᎷᏨ	-7096
▁ᏫᏂᏨᎦ	-7097
▁ᏫᏗᎦᏘ	-7098
▁ᏫᏙᏛᎾ	-7099
▁ᏬᎩᎷᏨ	-7100
▁ᏭᎵᏰᎢ	-7101
▁ᏱᎦᏥᏯ	-7102
▁ᏱᎾᏛᏁ	-7103
▁ᏱᏂᎦᎩ	-7104
▁ᏱᏄᏓᎠ	-7105
▁ᏱᏗᎨᏥ	-7106
▁ᏱᏙᎬᏩ	-7107
▁ᏱᏚᏓᏌ	-7108
▁ᏱᏦᎵᎦ	-7109
▁ᏲᎦᏛᏅ	-7110
▁ᏳᏰᎸᏅ	-7111
▁ᏳᏲᎱᏒ	-7112
▁ᏴᎨᏍᎩ	-7113
ᎧᎵᎢᏍᏗᏱ	-7114
ᎧᎿᏩᏕᎬᎾ	-7115
ᎧᎿᏩᏗᏙᎯ	-7116
ᎪᏩᏘᏍᎪᎢ	-7117
ᎪᏩᏘᏍᎬᎾ	-7118
ᎳᏏᏕᏄᎶᏗ	-7119
ᎵᏍᎪᎸᏓᏏ	-7120
ᎵᏍᏕᎵᏍᎬ	-7121
ᎵᏥᏙᏁᎲᎢ	-7122
ᎵᏥᏙᏁᏗᏱ	-7123
ᎸᏉᏗᏍᎬᎾ	-7124
ᎸᏫᏍᏓᏁᎵ	-7125
ᏁᎢᏍᏗᏍᎩ	-7126
ᏂᎪᏩᏛᏙᏗ	-7127
ᏍᎦᏅᏤᎸᎯ	-7128
ᏍᏆᏂᎪᏔᏂ	-7129
ᏍᏙᏍᎨᏍᏗ	-7130
ᏍᏛᏗᏍᎬᎢ	-7131
ᏍᏛᏗᏍᏙᏗ	-7132
ᏐᏢᎢᏍᏗᎭ	-7133
ᏓᎴᏍᎨᏍᏗ	-7134
ᏕᏒᎲᏍᎪᎢ	-7135
ᏕᏯᏙᏔᏅᎩ	-7136
ᏗᎨᎳᏍᏙᏗ	-7137
ᏗᏂᏍᎪᏂᎯ	-7138
ᏚᏓᎳᎡᏗᏱ	-7139
ᏛᏁᎵᏙᎸᎢ	-7140
ᏜᏅᏓᏕᏗᏱ	-7141
ᏟᏍᏗᏍᎪᎢ	-7142
ᏧᎵᏍᏙᏔᏅ	-7143
ᏨᏩᏍᏙᏗᏱ	-7144
ᏨᏯᏍᏗᏍᎩ	-7145
ᏩᎾᎦᎳᎯᏳ	-7146
▁ᎠᎦᏔᎲᎩ	-7147
▁ᎠᎦᏛᏗᏱ	-7148
▁ᎠᎨᏲᏅᎯ	-7149
▁ᎠᎩᎨᏳᎯ	-7150
▁ᎠᎩᎾᏫᏱ	-7151
▁ᎠᎩᏔᏕᎩ	-7152
▁ᎠᎪᎵᏰᏗ	-7153
▁ᎠᎪᏩᏛᏗ	-7154
▁ᎠᎬᏗᏍᎬ	-7155
▁ᎠᎵᎹᏗᏱ	-7156
▁ᎠᏁᎳᏅᎯ	-7157
▁ᎠᏆᎵᏃᎮ	-7158
▁ᎠᏆᏐᎭᏛ	-7159
▁ᎠᏆᏒᏂᎦ	-7160
▁ᎠᏆᏛᎦᏅ	-7161
▁ᎠᏇᎵᏒᎩ	-7162
▁ᎠᏉᎯᏳᎭ	-7163
▁ᎠᏏᎾᏌᏅ	-7164
▁ᎠᏏᏴᏫᏉ	-7165
▁ᎠᏔᏲᏍᏗ	-7166
▁ᎠᏛᎩᏍᎩ	-7167
▁ᎠᏛᏗᏍᎩ	-7168
▁ᎠᏥᏁᎸᎩ	-7169
▁ᎠᏫᏒᏗᏱ	-7170
▁ᎠᏰᎸᏰᏃ	-7171
▁ᎡᎵᏍᎨᎢ	-7172
▁ᎡᎵᏍᎬᎢ	-7173
▁ᎡᎵᏍᏓᎦ	-7174
▁ᎡᎶᎯᏰᏃ	-7175
▁ᎡᎶᏛᏰᏃ	-7176
▁ᎡᏂᎾᏯᏃ	-7177
▁ᎡᏓᏍᏗᏱ	-7178
▁ᎡᏣᎫᏴᏏ	-7179
▁ᎡᏣᏑᏰᏛ	-7180
▁ᎡᏥᏁᏗᏱ	-7181
▁ᎡᏦᎢᏳᏒ	-7182
▁ᎢᎦᎦᏛᎢ	-7183
▁ᎢᎨᏨᏁᏗ	-7184
▁ᎢᎩᏯᏅᏛ	-7185
▁ᎢᎩᏲᎱᎯ	-7186
▁ᎢᏣᏕᎶᏆ	-7187
▁ᎢᏣᏕᏗᏱ	-7188
▁ᎢᏥᎦᏔᎲ	-7189
▁ᎢᏥᎧᎵᎢ	-7190
▁ᎢᏥᏔᏲᎭ	-7191
▁ᎢᏥᏰᎸᎭ	-7192
▁ᎢᏧᎳᎭᏃ	-7193
▁ᎢᏧᎳᏗᏢ	-7194
▁ᎢᏨᏁᏤᎭ	-7195
▁ᎢᏨᏂᏗᏳ	-7196
▁ᎢᏨᏲᎢᏳ	-7197
▁ᎢᏯᏋᏁᎯ	-7198
▁ᎢᏳᏅᏁᏗ	-7199
▁ᎣᎦᏣᏅᎩ	-7200
▁ᎣᏣᎵᏥᏙ	-7201
▁ᎣᏥᎨᏳᎢ	-7202
▁ᎤᎦᏑᎲᎢ	-7203
▁ᎤᎩᎵᏲᏨ	-7204
▁ᎤᎬᏍᎪᎸ	-7205
▁ᎤᎵᏁᏨᎯ	-7206
▁ᎤᎶᎨᏒᎢ	-7207
▁ᎤᎶᎩᎸᏃ	-7208
▁ᎤᎷᏤᎴᎢ	-7209
▁ᎤᎾᎵᎪᏒ	-7210
▁ᎤᎾᎵᏎᎢ	-7211
▁ᎤᎾᏕᎶᏆ	-7212
▁ᎤᎾᏛᏅᎢ	-7213
▁ᎤᏁᎢᏍᏗ	-7214
▁ᎤᏁᎳᎩᏉ	-7215
▁ᎤᏁᏙᎸᎯ	-7216
▁ᎤᏂᎧᎵᏤ	-7217
▁ᎤᏂᎨᏳᎯ	-7218
▁ᎤᏂᎪᎲᎢ	-7219
▁ᎤᏂᎷᏨᎯ	-7220
▁ᎤᏂᎾᏄᎪ	-7221
▁ᎤᏂᎾᏝᎢ	-7222
▁ᎤᏂᏃᎮᏗ	-7223
▁ᎤᏂᏐᏢᎢ	-7224
▁ᎤᏂᏔᎳᏬ	-7225
▁ᎤᏂᏔᏲᎴ	-7226
▁ᎤᏂᏣᏖᏃ	-7227
▁ᎤᏂᏰᎸᎯ	-7228
▁ᎤᏂᏲᏠᎯ	-7229
▁ᎤᏂᏴᎲᎩ	-7230
▁ᎤᏂᏴᏔᏂ	-7231
▁ᎤᏃᎮᎸᎩ	-7232
▁ᎤᏃᏴᎬᎢ	-7233
▁ᎤᏄᎪᏤᏃ	-7234
▁ᎤᏍᎦᏎᏗ	-7235
▁ᎤᏍᏗᎤᏅ	-7236
▁ᎤᏎᎦᏨᎯ	-7237
▁ᎤᏒᏂᎴᎢ	-7238
▁ᎤᏓᎴᏅᎯ	-7239
▁ᎤᏓᏱᎴᎢ	-7240
▁ᎤᏗᏩᏎᎢ	-7241
▁ᎤᏗᏩᏒᎩ	-7242
▁ᎤᏗᏩᏒᎯ	-7243
▁ᎤᏙᏯᏅᎯ	-7244
▁ᎤᏛᎦᏅᏃ	-7245
▁ᎤᏜᏅᏛᎢ	-7246
▁ᎤᏩᎾᏓᎴ	-7247
▁ᎤᏩᏒᏰᏃ	-7248
▁ᎤᏩᏔᏅᎩ	-7249
▁ᎤᏩᏔᏅᎯ	-7250
▁ᎤᏪᏅᏎᏃ	-7251
▁ᎤᏪᏙᎴᎢ	-7252
▁ᎤᏬᎯᏨᏃ	-7253
▁ᎤᏬᏂᏒᎩ	-7254
▁ᎤᏬᏎᎴᎢ	-7255
▁ᎤᏰᎸᏅᎢ	-7256
▁ᎤᏲᎱᏒᎩ	-7257
▁ᎤᏲᏍᎩᏂ	-7258
▁ᎦᎪᎯᏳᏗ	-7259
▁ᎦᎵᏦᏕᏃ	-7260
▁ᎦᏍᎩᎸᏃ	-7261
▁ᎦᏓᎷᏯᏛ	-7262
▁ᎦᏬᏂᏍᎩ	-7263
▁ᎨᏥᏛᏙᏗ	-7264
▁ᎨᏥᏰᎸᎯ	-7265
▁ᎪᎱᏍᏗᏃ	-7266
▁ᎪᎵᏍᏗᏱ	-7267
▁ᎪᎵᏍᏙᏗ	-7268
▁ᎬᎨᏳᎢᏳ	-7269
▁ᎬᎪᏩᏛᏗ	-7270
▁ᎬᏂᎨᏒᎢ	-7271
▁ᎬᏩᏛᏛᏁ	-7272
▁ᎯᏁᏟᏴᎾ	-7273
▁ᎯᏍᎩᏁᏃ	-7274
▁ᎾᏍᎩᏍᎪ	-7275
▁ᎾᏍᎩᏯᏃ	-7276
▁ᎾᏥᏪᏎᎸ	-7277
▁ᎾᏥᏰᎲᎾ	-7278
▁ᏁᎵᏍᎬᎾ	-7279
▁ᏁᏪᏎᎴᎢ	-7280
▁ᏂᎦᏗᎹᏏ	-7281
▁ᏂᎪᎯᎸᎾ	-7282
▁ᏂᏍᎦᏅᎾ	-7283
▁ᏂᏓᏙᏓᏈ	-7284
▁ᏂᏥᎥᏰᏃ	-7285
▁ᏂᏨᏴᏁᎸ	-7286
▁ᏄᎾᏍᏛᎢ	-7287
▁ᏄᎾᏓᏛᎩ	-7288
▁ᏄᎾᏓᏡᎬ	-7289
▁ᏄᏂᎪᎸᎾ	-7290
▁ᏄᏅᏁᎴᎢ	-7291
▁ᏄᏍᏛᏰᏃ	-7292
▁ᏅᏩᏓᎴᎢ	-7293
▁ᏆᎻᏈᎵᏱ	-7294
▁ᏍᎪᏂᏗᏢ	-7295
▁ᏑᎾᎴᎢᏳ	-7296
▁ᏑᏓᎵᏁᏃ	-7297
▁ᏓᏂᎧᏅᎢ	-7298
▁ᏓᏂᎳᏫᎥ	-7299
▁ᏓᏂᎵᎷᎬ	-7300
▁ᏓᏂᏴᎬᎢ	-7301
▁ᏓᏆᏙᎥᎢ	-7302
▁ᏓᏓᏂᏌᎲ	-7303
▁ᏓᏗᎶᏂᏃ	-7304
▁ᏓᏤᎵᏍᏛ	-7305
▁ᏓᏥᏩᏛᎯ	-7306
▁ᏓᏰᏥᎪᎢ	-7307
▁ᏕᎤᏙᎥᎢ	-7308
▁ᏕᎤᏙᏍᏛ	-7309
▁ᏕᎦᏄᎪᏫ	-7310
▁ᏕᎦᏍᎩᎸ	-7311
▁ᏕᏥᎳᏫᎩ	-7312
▁ᏗᎨᏥᏍᏚ	-7313
▁ᏗᎪᏍᏓᏯ	-7314
▁ᏗᎫᎪᏗᏱ	-7315
▁ᏗᎬᏩᎾᏛ	-7316
▁ᏗᏂᎾᏕᎩ	-7317
▁ᏗᏘᏲᏍᏗ	-7318
▁ᏗᏣᏓᎵᎢ	-7319
▁ᏗᏥᎾᏝᎢ	-7320
▁ᏙᏓᏳᏲᏏ	-7321
▁ᏙᏗᎦᏚᎲ	-7322
▁ᏚᎾᎴᏅᎩ	-7323
▁ᏚᏂᎳᏫᏦ	-7324
▁ᏚᏂᏂᏴᎮ	-7325
▁ᏚᏂᏃᏁᎴ	-7326
▁ᏚᏂᏢᎬᎢ	-7327
▁ᏚᏂᏲᎱᏒ	-7328
▁ᏚᏅᏩᏅᎩ	-7329
▁ᏚᏓᏘᎿᎥ	-7330
▁ᏚᏩᏂᎦᎸ	-7331
▁ᏚᏪᏲᏁᎢ	-7332
▁ᏚᏲᎯᏎᎴ	-7333
▁ᏣᏃᎮᎸᎩ	-7334
▁ᏣᏍᎦᎸᎩ	-7335
▁ᏣᏗᏫᏍᏓ	-7336
▁ᏣᏠᎾᏍᏗ	-7337
▁ᏣᏤᎵᎪᎯ	-7338
▁ᏥᏂᏥᏪᎠ	-7339
▁ᏥᏃᎮᏍᎬ	-7340
▁ᏥᏄᏁᎩᏴ	-7341
▁ᏥᏄᏩᏁᎸ	-7342
▁ᏧᎨᏳᎯᏳ	-7343
▁ᏧᏂᎦᏐᎠ	-7344
▁ᏧᏂᏁᏗᏱ	-7345
▁ᏧᏓᎴᎿᎢ	-7346
▁ᏧᏓᎴᏅᎢ	-7347
▁ᏧᏙᏍᏙᏗ	-7348
▁ᏧᏙᏓᏆᏛ	-7349
▁ᏧᏣᏲᏍᏗ	-7350
▁ᏧᏬᏢᏅᎯ	-7351
▁ᏧᏲᎯᏎᏗ	-7352
▁ᏫᏚᏯᏅᎮ	-7353
▁ᏭᎾᎦᏔᎲ	-7354
▁ᏭᏂᏩᏛᎮ	-7355
▁ᏭᏂᏴᎸᎩ	-7356
▁ᏯᏂᎦᏔᎮ	-7357
▁ᏱᎦᏬᏂᎭ	-7358
▁ᏱᏚᏳᎪᏗ	-7359
▁ᏱᏣᏰᎸᏅ	-7360
▁ᏱᏥᏩᏘᎭ	-7361
▁ᏱᏫᏣᏴᎸ	-7362
▁ᏲᏨᏗᏍᎨ	-7363
▁ᏳᏚᎵᏍᎨ	-7364
ᎦᎵᏍᏙᏗᏍᎬ	-7365
ᎦᏔᏫᎢᏍᏗᏱ	-7366
ᎯᏍᏗᏍᎨᏍᏗ	-7367
ᎵᏍᎦᏍᏙᏛᎢ	-7368
ᎵᏍᎪᎸᏓᏁᎴ	-7369
ᎵᏍᎪᎸᏓᏁᎸ	-7370
ᎵᏍᎪᎸᏙᏗᏱ	-7371
ᎵᏍᏗᏍᎨᏍᏗ	-7372
ᎸᏫᏍᏓᏁᎲᎾ	-7373
ᎾᏄᎪᏫᏍᏗᏱ	-7374
ᏅᏓᏗᏍᎨᏍᏗ	-7375
ᏍᏆᏂᎪᏔᏅᎯ	-7376
ᏍᏓᏩᏗᏎᏍᏗ	-7377
ᏍᏕᎵᏍᎨᏍᏗ	-7378
ᏓᏅᏓᏗᏍᏔᏅ	-7379
ᏪᏐᎸᏍᏙᏗᏱ	-7380
▁ᎠᎩᏃᎮᏍᎩ	-7381
▁ᎠᎩᏍᏆᏂᎪ	-7382
▁ᎠᎪᏩᏘᏍᎩ	-7383
▁ᎠᎵᏍᏆᏛᎭ	-7384
▁ᎠᎵᏰᎢᎵᏒ	-7385
▁ᎠᎵᏱᎶᎸᎭ	-7386
▁ᎠᎾᏗᏍᎬᎢ	-7387
▁ᎠᏁᎵᏍᎨᎢ	-7388
▁ᎠᏂᎦᏔᎯᏳ	-7389
▁ᎠᏂᎦᏔᎲᎩ	-7390
▁ᎠᏂᎦᏲᎵᏳ	-7391
▁ᎠᏂᎩᎵᏲᎬ	-7392
▁ᎠᏂᏃᎮᏍᎨ	-7393
▁ᎠᏂᏍᎦᎢᎮ	-7394
▁ᎠᏂᏍᎦᏯᏃ	-7395
▁ᎠᏂᏍᏆᏂᎪ	-7396
▁ᎠᏂᏏᎾᏌᏂ	-7397
▁ᎠᏂᏏᎾᏌᏅ	-7398
▁ᎠᏂᏙᎾᎥᎢ	-7399
▁ᎠᏆᏓᏅᏙᎩ	-7400
▁ᎠᏆᏗᏔᏍᏗ	-7401
▁ᎠᏍᎦᏂᏰᏃ	-7402
▁ᎠᏍᏓᏱᏛᎯ	-7403
▁ᎠᏍᏚᎢᏍᏗ	-7404
▁ᎠᏏᏴᏫᏰᏃ	-7405
▁ᎠᏓᏅᏖᏍᎪ	-7406
▁ᎠᏓᏅᏙᎩᎯ	-7407
▁ᎠᏖᎵᏙᎩᎯ	-7408
▁ᎠᏥᏍᎦᏨᎯ	-7409
▁ᎠᏲᏓᏝᎲᎢ	-7410
▁ᎡᎩᏍᏕᎸᏗ	-7411
▁ᎡᎭᎦᏔᏄᎦ	-7412
▁ᎡᏙᏓᏍᎩᏂ	-7413
▁ᎡᏦᎢᏳᏗᏱ	-7414
▁ᎢᎩᏩᏛᏗᏱ	-7415
▁ᎢᎬᏩᏍᏗᎭ	-7416
▁ᎢᎬᏱᏗᏢᏃ	-7417
▁ᎢᎬᏱᏱᏰᏃ	-7418
▁ᎢᏍᎪᏂᏗᏢ	-7419
▁ᎢᏓᎵᎮᎵᎩ	-7420
▁ᎢᏗᎬᏁᎸᎯ	-7421
▁ᎢᏣᎴᏂᏙᎲ	-7422
▁ᎢᏣᎵᎮᎵᎬ	-7423
▁ᎢᏣᏓᏅᏓᏓ	-7424
▁ᎢᏥᎦᏔᎲᎢ	-7425
▁ᎢᏥᏴᏍᏗᏱ	-7426
▁ᎢᏨᏃᏁᎸᎯ	-7427
▁ᎢᏯᏋᏁᏗᏱ	-7428
▁ᎢᏰᏨᏁᏗᏱ	-7429
▁ᎣᎦᏛᎦᏅᎯ	-7430
▁ᎣᏍᏛᏍᎩᏂ	-7431
▁ᎣᏥᏃᎮᏍᎩ	-7432
▁ᎤᎦᎵᏍᏗᏳ	-7433
▁ᎤᎦᏛᎾᏨᎯ	-7434
▁ᎤᎨᏳᏎᏍᏗ	-7435
▁ᎤᎬᎭᎷᏰᎢ	-7436
▁ᎤᎬᏫᏳᎯᏱ	-7437
▁ᎤᎴᏫᏍᏔᏅ	-7438
▁ᎤᎵᏖᎸᏁᎢ	-7439
▁ᎤᎵᏖᎸᏅᎩ	-7440
▁ᎤᎾᏓᏅᏒᎩ	-7441
▁ᎤᎾᏓᏅᏖᎴ	-7442
▁ᎤᎾᏓᏑᏴᎩ	-7443
▁ᎤᎾᏓᏛᏅᎯ	-7444
▁ᎤᎾᏤᎵᎦᏯ	-7445
▁ᎤᏁᎢᏍᏗᏱ	-7446
▁ᎤᏁᏅᏍᏗᏱ	-7447
▁ᎤᏂᎩᏍᏗᏱ	-7448
▁ᎤᏂᏄᎪᏨᏃ	-7449
▁ᎤᏂᏍᎦᎴᎢ	-7450
▁ᎤᏂᏣᏔᏅᎯ	-7451
▁ᎤᏂᏣᏘᏰᏃ	-7452
▁ᎤᏂᏣᏛᎩᏃ	-7453
▁ᎤᏂᏩᏛᏗᏱ	-7454
▁ᎤᏅᏂᏍᏗᏱ	-7455
▁ᎤᏅᏒᏍᎩᏂ	-7456
▁ᎤᏍᏚᎢᏒᎩ	-7457
▁ᎤᏓᏅᏙᎩᎯ	-7458
▁ᎤᏓᏩᏗᏍᏙ	-7459
▁ᎤᏕᏒᏂᎸᎯ	-7460
▁ᎤᏕᏘᏴᏌᏗ	-7461
▁ᎤᏗᏢᏍᏙᏗ	-7462
▁ᎤᏙᎴᎰᏒᎩ	-7463
▁ᎤᏚᎵᏍᎬᎢ	-7464
▁ᎤᏪᏓᏍᏗᏱ	-7465
▁ᎤᏪᏙᎵᏤᎢ	-7466
▁ᎤᏬᎯᏳᏒᎢ	-7467
▁ᎥᎬᏬᏎᎸᎩ	-7468
▁ᎥᏆᏬᏍᏙᏗ	-7469
▁ᎦᎨᏥᏁᏗᏱ	-7470
▁ᎦᎵᏉᎩᏁᏃ	-7471
▁ᎦᎸᏉᏗᏍᎨ	-7472
▁ᎦᏙᎴᎣᏍᎦ	-7473
▁ᎧᎳᏩᏗᏒᎢ	-7474
▁ᎨᏥᏃᎮᏍᎩ	-7475
▁ᎬᎩᏁᏤᎸᎯ	-7476
▁ᎬᏗᏍᎨᏍᏗ	-7477
▁ᎬᏩᏂᏴᎲᎩ	-7478
▁ᎬᏩᏂᏴᏗᏱ	-7479
▁ᎬᏩᏍᏕᎸᎯ	-7480
▁ᎬᏩᏕᏁᎴᎢ	-7481
▁ᎬᏩᏛᏛᏅᎩ	-7482
▁ᎬᏩᏛᏛᏗᏱ	-7483
▁ᎬᏩᏠᏯᏍᏗ	-7484
▁ᎬᏬᎯᏳᏅᎯ	-7485
▁ᎮᎾᏉᏍᎩᏂ	-7486
▁ᎮᏯᏔᎮᏍᏗ	-7487
▁ᎯᎸᏉᏕᏍᏗ	-7488
▁ᎰᎯᏳᎲᏍᎦ	-7489
▁ᎾᎾᏛᏁᎲᎾ	-7490
▁ᎾᏥᎸᏉᏛᎾ	-7491
▁ᏂᎦᎷᎶᎬᎾ	-7492
▁ᏂᎦᏪᏍᎪᎢ	-7493
▁ᏂᏣᎵᏍᏔᏅ	-7494
▁ᏂᏣᏓᎨᏳᏒ	-7495
▁ᏂᏣᏛᏁᎲᎾ	-7496
▁ᏂᏣᏛᏁᎸᎾ	-7497
▁ᏄᎾᎵᏍᏔᏅ	-7498
▁ᏄᎾᏛᏁᎴᎢ	-7499
▁ᏄᏃᎯᏳᏅᎾ	-7500
▁ᏅᏥᏪᏎᎸᎩ	-7501
▁ᏍᎩᎨᏳᎯᏳ	-7502
▁ᏓᎦᎾᏄᎪᏥ	-7503
▁ᏓᎾᎴᎯᏌᏅ	-7504
▁ᏓᎾᏠᏱᎲᎢ	-7505
▁ᏓᏆᎧᎾᏅᎩ	-7506
▁ᏓᏕᏲᎲᏍᎨ	-7507
▁ᏓᏳᏄᎪᏨᎩ	-7508
▁ᏓᏳᏠᎠᏒᎩ	-7509
▁ᏕᎤᎴᎯᏌᏅ	-7510
▁ᏕᎦᏍᎩᎸᎢ	-7511
▁ᏕᎬᏩᏠᏎᎢ	-7512
▁ᏕᏣᏁᎶᏛᎢ	-7513
▁ᏗᎦᏃᏙᏗᏱ	-7514
▁ᏗᎨᎦᏛᏅᎯ	-7515
▁ᏗᎬᏩᎸᏌᏓ	-7516
▁ᏗᎬᏩᏂᏯᎢ	-7517
▁ᏗᏂᎦᏘᎴᎩ	-7518
▁ᏗᏃᏏᏏᏍᎩ	-7519
▁ᏗᏕᎶᏆᏍᏗ	-7520
▁ᏗᏣᎵᏂᎪᎯ	-7521
▁ᏗᏥᎦᏴᎵᎨ	-7522
▁ᏙᏓᏥᏲᎱᏏ	-7523
▁ᏙᏗᎦᎶᎨᏒ	-7524
▁ᏙᏧᎾᏓᏅᏛ	-7525
▁ᏚᎴᎯᏌᏅᎢ	-7526
▁ᏚᏂᏏᏂᏙᎸ	-7527
▁ᏚᏓᏘᎿᎥᎢ	-7528
▁ᏚᏩᏂᎦᎸᎢ	-7529
▁ᏛᏂᎾᏄᎪᏥ	-7530
▁ᏣᎫᎪᏓᏁᏗ	-7531
▁ᏥᏥᎪᏩᏘᎭ	-7532
▁ᏥᏩᎾᎦᎵᏳ	-7533
▁ᏧᎦᏴᎵᎨᎢ	-7534
▁ᏧᎦᏴᎵᎨᏃ	-7535
▁ᏧᎬᏩᎳᏅᎯ	-7536
▁ᏧᎾᏁᎶᏗᏃ	-7537
▁ᏧᎾᏂᏏᏗᏱ	-7538
▁ᏧᎾᏚᎪᏓᏁ	-7539
▁ᏧᏂᎦᏴᎵᎨ	-7540
▁ᏩᏥᏯᏅᏗᏱ	-7541
▁ᏫᎬᏲᏪᎳᏏ	-7542
▁ᏫᏄᏕᏘᏴᎲ	-7543
▁ᏫᏓᏯᏂᏍᎪ	-7544
▁ᏫᏚᏯᏅᎲᏃ	-7545
▁ᏫᏴᎨᏥᎷᎩ	-7546
▁ᏯᏙᎴᎰᏍᎦ	-7547
▁ᏱᏓᎴᏂᏙᎭ	-7548
▁ᏱᏦᎯᏳᎲᎦ	-7549
▁ᏱᏨᏰᎵᏎᎭ	-7550
ᎳᏍᏓᎳᏩᏗᏒᎢ	-7551
ᎿᎸᏍᏗᏍᎨᏍᏗ	-7552
ᏍᏕᎸᎯᏓᏍᏗᏱ	-7553
ᏓᏅᏓᏗᏍᏗᏍᎩ	-7554
ᏛᏓᏍᏓᏁᎮᏍᏗ	-7555
▁ᎠᎵᏰᎢᎶᎸᎭ	-7556
▁ᎠᏂᎦᏴᎵᎨᎢ	-7557
▁ᎠᏂᏍᎦᎢᎮᎢ	-7558
▁ᎠᏆᏓᏅᏔᏩᏕ	-7559
▁ᎠᏆᏛᏅᎢᏍᏗ	-7560
▁ᎠᏆᏢᏈᏍᏗᏱ	-7561
▁ᎠᏍᎦᏂᏍᎩᏂ	-7562
▁ᎠᏍᎪᎯᏧᏈᏃ	-7563
▁ᎠᏍᏓᏱᏗᏍᎩ	-7564
▁ᎠᏐᏢᎢᏍᏙᏗ	-7565
▁ᎠᏓᏅᏖᏍᎬᏉ	-7566
▁ᎠᏔᏲᎯᎮᏍᏗ	-7567
▁ᎠᏙᎴᎰᎯᏍᏗ	-7568
▁ᎠᏥᎸᎨᎳᏍᏗ	-7569
▁ᎠᏥᎸᏉᏙᏗᏱ	-7570
▁ᎠᏥᏍᏕᎸᏗᏱ	-7571
▁ᎠᏲᎱᏍᎨᏍᏗ	-7572
▁ᎠᏴᏓᏆᎶᏍᎩ	-7573
▁ᎡᏣᏁᏍᎨᎲᎯ	-7574
▁ᎢᎬᏩᎾᏛᏁᏗ	-7575
▁ᎢᏗᎦᏔᎭᏰᏃ	-7576
▁ᎢᏣᎦᏔᏅᏎᎢ	-7577
▁ᎢᏣᏓᏅᏖᏍᏗ	-7578
▁ᎢᏣᏛᎩᏍᎬᎢ	-7579
▁ᎢᏥᎦᏴᎵᎨᎢ	-7580
▁ᎢᏳᏂᏪᏍᏗᏱ	-7581
▁ᎣᎩᏅᏏᏓᏍᏗ	-7582
▁ᎣᏦᎯᏳᎲᏍᎦ	-7583
▁ᎤᎧᎵᎢᏍᏗᏱ	-7584
▁ᎤᎵᏂᎩᏛᏰᏃ	-7585
▁ᎤᎵᏍᏆᏕᎴᎢ	-7586
▁ᎤᎵᏱᎶᎯᏍᏗ	-7587
▁ᎤᎾᎵᏃᎯᏴᎯ	-7588
▁ᎤᎾᏓᏅᏍᏗᏱ	-7589
▁ᎤᎾᏓᏅᏖᎸᎩ	-7590
▁ᎤᎾᏓᏙᎵᏍᏗ	-7591
▁ᎤᏁᎳᏗᏍᏗᏱ	-7592
▁ᎤᏂᏁᎢᏍᏗᏱ	-7593
▁ᎤᏍᏆᏗᏍᏗᏱ	-7594
▁ᎤᏍᏓᏩᏛᏎᎢ	-7595
▁ᎤᏓᎴᎾᏍᏗᏱ	-7596
▁ᎤᏓᏥᎾᏍᏛᎯ	-7597
▁ᎤᏚᎢᏍᏔᏅᎢ	-7598
▁ᎤᏚᎢᏍᏔᏅᎯ	-7599
▁ᎦᎬᏩᏐᏢᏕᎢ	-7600
▁ᎦᎾᏄᎪᏥᎸᎭ	-7601
▁ᎦᏰᏥᏙᎵᏍᏗ	-7602
▁ᎧᏁᎢᏍᏓᏁᏗ	-7603
▁ᎬᏩᎦᏘᏯᏰᏃ	-7604
▁ᎬᏩᏍᏛᏗᏍᏗ	-7605
▁ᎬᏯᎵᎡᎵᏤᎭ	-7606
▁ᎾᎾᏛᏁᎮᏍᏗ	-7607
▁ᎾᏂᎦᏔᎾᎥᎾ	-7608
▁ᎾᏂᏪᏍᎨᏍᏗ	-7609
▁ᎾᏆᏚᎵᏍᎬᎾ	-7610
▁ᏁᏍᏗᏪᏎᎸᎭ	-7611
▁ᏂᎦᎵᏍᏗᏍᎪ	-7612
▁ᏂᎦᎾᏰᏍᎬᎾ	-7613
▁ᏂᎦᏗᏳᏍᎩᏂ	-7614
▁ᏂᏙᏓᎦᏪᏎᎵ	-7615
▁ᏂᏚᏂᏪᏎᎸᎩ	-7616
▁ᏄᎾᎵᏍᏓᏁᎸ	-7617
▁ᏅᏓᎦᏪᏍᎬᎩ	-7618
▁ᏅᏓᏍᎩᏅᏏᏛ	-7619
▁ᏅᏧᎵᏍᏙᏔᏁ	-7620
▁ᏓᎩᎸᏫᏍᏓᏁ	-7621
▁ᏓᎵᏂᎪᎯᏍᏗ	-7622
▁ᏓᏓᏁᎳᏗᏒᎢ	-7623
▁ᏓᏕᏲᎲᏍᎬᎩ	-7624
▁ᏕᎦᏚᏩᏗᏒᎢ	-7625
▁ᏕᎯᏁᏤᎮᏍᏗ	-7626
▁ᏕᏨᏗᏍᎨᏍᏗ	-7627
▁ᏗᏂᏩᎾᎦᎳᎢ	-7628
▁ᏗᏍᏇᏲᎲᏍᎩ	-7629
▁ᏗᏓᎴᏂᏍᎬᎢ	-7630
▁ᏙᏗᎾᎵᏍᏓᏴ	-7631
▁ᏣᎦᏨᏍᏙᏗᏱ	-7632
▁ᏣᎬᏫᏳᏌᏕᎩ	-7633
▁ᏣᎵᏍᎦᏍᏙᏗ	-7634
▁ᏥᎨᏥᏫᏎᎴᎢ	-7635
▁ᏥᏂᏨᏪᏎᎸᎩ	-7636
▁ᏥᏄᎾᎵᏍᏓᏁ	-7637
▁ᏧᎳᎨᏯᏛᏤᎢ	-7638
▁ᏧᎾᏓᏅᏬᏗᏱ	-7639
▁ᏧᏂᎦᏴᎵᎨᎢ	-7640
▁ᏧᏭᏓᎴᏍᏗᏱ	-7641
▁ᏫᏓᏆᎧᎾᏅᎩ	-7642
▁ᏱᏂᎬᏩᏍᏗᏉ	-7643
▁ᏱᏗᏣᏰᎸᏁᎢ	-7644
▁ᎠᎦᏙᎥᎯᏍᏙᏗ	-7645
▁ᎠᎾᎵᏥᏙᎲᏍᎨ	-7646
▁ᎠᎾᏓᎾᏏᏂᏙᎯ	-7647
▁ᎠᎾᏓᏙᎵᏍᏓᏁ	-7648
▁ᎠᏂᏁᎢᏍᏗᏍᎩ	-7649
▁ᎠᏃᎯᏳᎲᏍᎩᏃ	-7650
▁ᎠᏆᎵᏍᎦᏍᏙᏛ	-7651
▁ᎠᏆᎵᏍᏕᎸᏙᏗ	-7652
▁ᎢᎦᎵᏍᏕᎸᏙᏗ	-7653
▁ᎢᏣᏄᏬᏍᏕᏍᏗ	-7654
▁ᎢᏣᏗᏔᏍᎨᏍᏗ	-7655
▁ᎤᎩᎵᏲᎢᏍᏗᏱ	-7656
▁ᎤᎾᎵᏍᏓᏴᏃᏅ	-7657
▁ᎤᎾᎵᏍᏓᏴᏅᎯ	-7658
▁ᎤᎾᏁᎳᏗᏍᏗᏱ	-7659
▁ᎤᎾᏄᎪᎢᏍᏗᏱ	-7660
▁ᎤᎾᏄᎪᏫᏍᏗᏱ	-7661
▁ᎤᏂᎬᏫᏳᏌᏕᎩ	-7662
▁ᎤᏂᎾᏰᎯᏍᏗᏳ	-7663
▁ᎤᏂᏍᏆᏂᎪᏎᏃ	-7664
▁ᎤᏂᏔᎳᏬᏍᎬᎢ	-7665
▁ᎤᏩᏒᏍᎩᏂᏃᏅ	-7666
▁ᎦᎸᏉᏗᏳᏍᎩᏂ	-7667
▁ᎨᏣᎵᏍᏕᎸᏙᏗ	-7668
▁ᎯᏍᏆᎵᏍᎨᏍᏗ	-7669
▁ᏂᎦᎵᏍᏔᏂᏙᎲ	-7670
▁ᏂᎦᎵᏍᏗᏍᎪᎢ	-7671
▁ᏂᏦᎯᏳᎲᏍᎬᎾ	-7672
▁ᏅᏓᏳᎶᎯᏍᏗᏱ	-7673
▁ᏅᏓᏳᎾᏓᎴᏅᎯ	-7674
▁ᏍᎩᏯᏛᎦᏁᎸᎯ	-7675
▁ᏕᎤᎸᏫᏍᏓᏁᎲ	-7676
▁ᏕᎦᎸᏫᏍᏓᏁᎸ	-7677
▁ᏕᏣᎸᏫᏍᏓᏁᎲ	-7678
▁ᏕᏣᏓᎨᏳᏎᏍᏗ	-7679
▁ᏗᎨᏥᏲᎯᏎᎸᎯ	-7680
▁ᏗᎬᏩᏁᎶᏙᏗᏱ	-7681
▁ᏗᎵᏍᎪᎸᏔᏅᎯ	-7682
▁ᏗᏓᏙᏕᏍᏗᏍᎩ	-7683
▁ᏚᏂᎸᏫᏍᏓᏁᎮ	-7684
▁ᏣᎦᏙᎥᎯᏍᏗᏱ	-7685
▁ᏧᎾᎵᏍᏓᏴᏗᏱ	-7686
▁ᏧᎾᏓᎴᏅᏛᏰᏃ	-7687
▁ᏧᏓᏂᎸᎢᏍᏗᏳ	-7688
▁ᎠᎵᏍᏓᏴᎲᏍᎬᎢ	-7689
▁ᎠᎾᏓᏙᎵᏍᏗᏍᎬ	-7690
▁ᎠᏂᏍᏆᏂᎪᏗᏍᎩ	-7691
▁ᎡᏣᎵᎡᎵᏤᎮᏍᏗ	-7692
▁ᎢᏣᏟᏂᎬᏁᎮᏍᏗ	-7693
▁ᎢᏨᏁᎢᏍᏗᏍᎬᎢ	-7694
▁ᎢᏳᎵᏍᏔᏂᏓᏍᏗ	-7695
▁ᎤᎵᏂᎩᏗᏳᏍᎩᏂ	-7696
▁ᎤᎵᏍᎪᎸᏓᏁᎸᎩ	-7697
▁ᎤᎵᏍᎪᎸᏓᏁᎸᎯ	-7698
▁ᎤᏂᏍᏆᏂᎪᏍᎨᎢ	-7699
▁ᎬᏩᏂᏍᏓᏩᏗᏙᎯ	-7700
▁ᎬᏩᏛᏓᏍᏓᏁᏗᏱ	-7701
▁ᏅᏓᎦᎵᏍᏙᏗᏍᎬ	-7702
▁ᏕᎤᎸᏫᏍᏓᏁᎲᎢ	-7703
▁ᏗᎬᏩᏂᎪᏩᏛᏙᏗ	-7704
▁ᏗᎾᏓᏙᎵᏍᏓᏁᎯ	-7705
▁ᏥᏕᏣᎸᏫᏍᏓᏁᎭ	-7706
▁ᏧᎾᏓᏂᎸᎢᏍᏗᏱ	-7707
▁ᏧᏓᏅᏓᏗᏍᏙᏗᏱ	-7708
▁ᎠᎦᎵᏍᎪᎸᏓᏁᎸᎩ	-7709
▁ᎢᏥᏔᏲᏍᏗᏍᎨᏍᏗ	-7710
▁ᎨᏥᎩᎵᏲᎢᏍᏙᏗᏱ	-7711
▁ᏅᏓᏳᎵᏍᎪᎸᏔᏅᎯ	-7712
▁ᏍᎩᏯᏅᏓᏗᏍᎨᏍᏗ	-7713
▁ᏕᏣᎧᎿᏩᏗᏙᎮᏍᏗ	-7714
▁ᏱᏅᏗᎦᎵᏍᏙᏗᏍᎨᏍᏗ	-7715
?"	-7716
ᎠᏎ	-7717
ᎠᏓ	-7718
ᎡᎾ	-7719
ᎢᏣ	-7720
ᎢᏤ	-7721
ᎢᏥ	-7722
ᎤᏂ	-7723
ᎦᏁ	-7724
ᎦᏃ	-7725
ᎦᏉ	-7726
ᎦᏗ	-7727
ᎧᎸ	-7728
ᎨᎩ	-7729
ᎨᎭ	-7730
ᎨᎵ	-7731
ᎨᏎ	-7732
ᎩᎵ	-7733
ᎪᎠ	-7734
ᎪᎦ	-7735
ᎪᏉ	-7736
ᎫᏘ	-7737
ᎫᏫ	-7738
ᎬᏅ	-7739
ᎭᎢ	-7740
ᎮᏛ	-7741
ᎱᏩ	-7742
ᎲᏒ	-7743
ᎳᏓ	-7744
ᎴᎱ	-7745
ᎷᎸ	-7746
ᎸᎥ	-7747
ᎸᏏ	-7748
ᎹᏯ	-7749
ᎿᏗ	-7750
ᏁᎪ	-7751
ᏁᎾ	-7752
ᏁᏒ	-7753
ᏁᏓ	-7754
ᏂᎨ	-7755
ᏂᏟ	-7756
ᏂᏪ	-7757
ᏆᎹ	-7758
ᏆᏕ	-7759
ᏇᎾ	-7760
ᏇᏅ	-7761
ᏇᏓ	-7762
ᏇᏗ	-7763
ᏈᏃ	-7764
ᏋᏅ	-7765
ᏌᏁ	-7766
ᏍᏔ	-7767
ᏑᏩ	-7768
ᏓᏠ	-7769
ᏓᏯ	-7770
ᏕᏃ	-7771
ᏖᎢ	-7772
ᏖᏃ	-7773
ᏘᏱ	-7774
ᏙᏰ	-7775
ᏝᏅ	-7776
ᏠᏎ	-7777
ᏠᏒ	-7778
ᏡᎩ	-7779
ᏡᏓ	-7780
ᏢᎭ	-7781
ᏢᏂ	-7782
ᏢᏃ	-7783
ᏥᎵ	-7784
ᏥᏂ	-7785
ᏧᏢ	-7786
ᏨᏒ	-7787
ᏨᏛ	-7788
ᏨᏴ	-7789
ᏩᏅ	-7790
ᏩᏏ	-7791
ᏩᏖ	-7792
ᏪᏲ	-7793
ᏬᎡ	-7794
ᏭᎪ	-7795
ᏮᎦ	-7796
ᏱᎦ	-7797
ᏱᎶ	-7798
ᏲᎰ	-7799
ᏬᏣ	-7800
ᏲᏂ	-7801
ᏲᏣ	-7802
▁,	-7803
▁~	-7804
▁Ꮃ	-7805
▁Ꮬ	-7806
;--	-7807
ᎡᎮᎢ	-7808
ᎡᎸᎢ	-7809
ᎣᏈᎦ	-7810
ᎣᏍᏛ	-7811
ᎤᎦᏔ	-7812
ᎤᏁᎢ	-7813
ᎦᎸᏃ	-7814
ᎦᎾᏕ	-7815
ᎦᏅᎦ	-7816
ᎦᏖᎢ	-7817
ᎦᏘᏲ	-7818
ᎦᏙᎯ	-7819
ᎧᎲᎩ	-7820
ᎧᎿᏅ	-7821
ᎧᏁᎦ	-7822
ᎧᏁᏴ	-7823
ᎨᎦᏬ	-7824
ᎨᏳᏐ	-7825
ᎩᏍᎬ	-7826
ᎩᏎᎢ	-7827
ᎪᎥᎯ	-7828
ᎪᎩᏂ	-7829
ᎪᎲᏏ	-7830
ᎪᎳᏗ	-7831
ᎪᏁᎶ	-7832
ᎪᏰᏂ	-7833
ᎬᏚᎶ	-7834
ᎬᏩᎶ	-7835
ᎮᎬᎢ	-7836
ᎮᎵᏥ	-7837
ᎮᎶᎯ	-7838
ᎯᏰᏃ	-7839
ᎳᎻᏃ	-7840
ᎵᎡᏌ	-7841
ᎵᎩᏏ	-7842
ᎵᎪᎭ	-7843
ᎵᏌᏕ	-7844
ᎵᏍᏔ	-7845
ᎵᏙᎭ	-7846
ᎵᏙᎴ	-7847
ᎵᏱᎶ	-7848
ᎶᎨᏒ	-7849
ᎶᏍᎪ	-7850
ᎶᏒᎭ	-7851
ᎶᏛᎢ	-7852
ᎷᎬᎾ	-7853
ᎷᏤᎴ	-7854
ᎸᏗᏱ	-7855
ᎾᏁᎭ	-7856
ᎾᏄᏫ	-7857
ᎾᏍᏉ	-7858
ᎿᏁᎢ	-7859
ᎿᏕᎦ	-7860
ᏁᎲᏏ	-7861
ᏁᎾᏛ	-7862
ᏁᏉᏥ	-7863
ᏂᎩᏒ	-7864
ᏂᏌᏅ	-7865
ᏃᎮᏎ	-7866
ᏃᎯᏴ	-7867
ᏃᏁᎭ	-7868
ᏃᏍᎩ	-7869
ᏃᏛᎩ	-7870
ᏃᏣᎵ	-7871
ᏄᎪᏥ	-7872
ᏄᏬᏣ	-7873
ᏅᎯᏒ	-7874
ᏅᏁᎢ	-7875
ᏅᏍᏕ	-7876
ᏅᏎᎦ	-7877
ᏅᏨᎯ	-7878
ᏌᎳᏗ	-7879
ᏌᏅᎩ	-7880
ᏌᏆᎴ	-7881
ᏍᎨᏂ	-7882
ᏍᏈᏅ	-7883
ᏍᏈᏛ	-7884
ᏍᏓᎥ	-7885
ᏍᏓᎳ	-7886
ᏍᏓᏅ	-7887
ᏍᏓᏲ	-7888
ᏍᏕᏢ	-7889
ᏍᏙᎯ	-7890
ᏍᏙᏙ	-7891
ᏎᎦᎩ	-7892
ᏎᎴᏉ	-7893
ᏎᏕᎩ	-7894
ᏑᎦᎸ	-7895
ᏒᎾᏉ	-7896
ᏒᏁᎰ	-7897
ᏒᏛᏃ	-7898
ᏓᎡᏏ	-7899
ᎾᏱ	-7900
ᎡᎴᏃ	-7901
ᎥᎩᏃ	-7902
ᎦᎵᎰ	-7903
ᏂᏌᏂ	-7904
ᏅᎯᎸ	-7905
ᏓᎳᎩ	-7906
ᏓᎴᏃ	-7907
ᏓᎴᏉ	-7908
ᏓᎴᏏ	-7909
ᏓᎸᏉ	-7910
ᏓᏛᎿ	-7911
ᏓᏛᏃ	-7912
ᏓᏟᏌ	-7913
ᏓᏲᏎ	-7914
ᏔᏁᏃ	-7915
ᏔᏍᏗ	-7916
ᏔᏩᏕ	-7917
ᏕᎬᎩ	-7918
ᏕᎲᎢ	-7919
ᏕᏅᎩ	-7920
ᏕᏅᎾ	-7921
ᏖᏃᎭ	-7922
ᏗᏂᏱ	-7923
ᏗᏅᏗ	-7924
ᏗᏒᎩ	-7925
ᏘᏂᎸ	-7926
ᏘᏍᎩ	-7927
ᏙᎯᏉ	-7928
ᏚᎬᎢ	-7929
ᏚᎸᏗ	-7930
ᏚᏓᎸ	-7931
ᏚᏓᏔ	-7932
ᏛᎦᏂ	-7933
ᏛᎦᏃ	-7934
ᏛᎬᎦ	-7935
ᏛᏒᎯ	-7936
ᏛᏨᎩ	-7937
ᏜᏍᏗ	-7938
ᏝᏁᎢ	-7939
ᏠᏨᎩ	-7940
ᏠᏨᏃ	-7941
ᏠᏱᎦ	-7942
ᏡᏰᎢ	-7943
ᏢᎬᎾ	-7944
ᏢᏅᎢ	-7945
ᏣᏘᏂ	-7946
ᏤᎷᎯ	-7947
ᏤᏍᏗ	-7948
ᏤᏙᎭ	-7949
ᏤᏬᎩ	-7950
ᏥᏌᏃ	-7951
ᏥᏍᏟ	-7952
ᏥᏙᎲ	-7953
ᏦᎯᏯ	-7954
ᏨᏁᎸ	-7955
ᏩᏁᎵ	-7956
ᏩᏘᎭ	-7957
ᏪᎸᎩ	-7958
ᏪᏎᏗ	-7959
ᏫᏒᎯ	-7960
ᏫᏛᏃ	-7961
ᏬᎥᎢ	-7962
ᏬᏍᏗ	-7963
ᏯᏍᏚ	-7964
ᏯᏔᏅ	-7965
ᏯᏪᏐ	-7966
ᏰᎶᎢ	-7967
ᏰᏍᏛ	-7968
ᏱᎩᎵ	-7969
ᏱᏢᏗ	-7970
ᏲᎸᎾ	-7971
ᏲᏌᏘ	-7972
ᏲᏍᎦ	-7973
ᏲᏎᎢ	-7974
ᏴᎬᎾ	-7975
ᏴᏎᎢ	-7976
▁ᎠᎠ	-7977
▁ᎠᎡ	-7978
▁ᎠᎼ	-7979
▁ᎠᏍ	-7980
▁ᎠᏣ	-7981
▁ᎡᎾ	-7982
▁ᎢᎶ	-7983
▁ᎢᏂ	-7984
▁ᎤᎨ	-7985
▁ᎤᏎ	-7986
▁ᎥᏗ	-7987
▁ᎥᏞ	-7988
▁ᎥᏥ	-7989
▁ᎦᏗ	-7990
▁ᎦᏣ	-7991
▁ᎧᎸ	-7992
▁ᎨᎡ	-7993
▁ᎨᏗ	-7994
▁ᎨᏦ	-7995
▁ᎩᎾ	-7996
▁ᎩᏂ	-7997
▁ᎪᎱ	-7998
▁ᎫᏂ	-7999
ᎶᏒᎢ	-8000
ᎻᏂᏓ	-8001
ᏄᏛᏗ	-8002
ᏍᎩᏓ	-8003
ᏗᏩᏏ	-8004
ᏥᎪᏗ	-8005
ᏥᏙᎸ	-8006
ᏰᎵᏏ	-8007
ᏰᏣᏓ	-8008
ᏲᏒᎯ	-8009
▁ᎬᎾ	-8010
▁ᎬᏃ	-8011
▁ᎬᏴ	-8012
▁ᎮᎳ	-8013
▁ᎯᎦ	-8014
▁ᎯᎩ	-8015
▁ᎯᏃ	-8016
▁ᎯᏳ	-8017
▁ᎯᏴ	-8018
▁ᎲᎾ	-8019
▁ᎲᏓ	-8020
▁ᎶᏛ	-8021
▁ᎷᎦ	-8022
▁ᎹᏓ	-8023
▁ᎻᎳ	-8024
▁ᎾᏍ	-8025
▁ᎾᏞ	-8026
▁ᎾᏱ	-8027
▁ᏂᎧ	-8028
▁ᏃᎬ	-8029
▁ᏃᏳ	-8030
▁ᏄᎪ	-8031
▁ᏄᏚ	-8032
▁ᏅᎤ	-8033
▁ᏅᎾ	-8034
▁ᏆᎩ	-8035
▁ᏆᏏ	-8036
▁ᏈᎵ	-8037
▁ᏈᏥ	-8038
▁ᏌᏆ	-8039
▁ᏓᎴ	-8040
▁ᏕᎮ	-8041
▁ᏕᎰ	-8042
▁ᏕᎾ	-8043
▁ᏗᎫ	-8044
▁ᏗᏙ	-8045
▁ᏗᏟ	-8046
▁ᏙᎬ	-8047
▁ᏚᎸ	-8048
▁ᏚᏄ	-8049
▁ᏚᏒ	-8050
▁ᏚᏴ	-8051
▁ᏛᏆ	-8052
▁ᏛᏇ	-8053
▁ᏛᏨ	-8054
▁ᏣᏛ	-8055
▁ᏤᎪ	-8056
▁ᏤᎳ	-8057
▁ᏤᏆ	-8058
▁ᏤᏈ	-8059
▁ᏤᏏ	-8060
▁ᏥᎠ	-8061
▁ᏥᎥ	-8062
▁ᏥᏛ	-8063
▁ᏧᏏ	-8064
▁ᏧᏢ	-8065
▁ᏧᏳ	-8066
▁ᏩᏗ	-8067
▁ᏩᏯ	-8068
▁ᏫᎣ	-8069
▁ᏫᏅ	-8070
▁ᏮᎠ	-8071
▁ᏯᎵ	-8072
▁ᏯᏕ	-8073
▁ᏱᎯ	-8074
▁ᏱᏤ	-8075
▁ᏱᏪ	-8076
▁ᏳᎭ	-8077
▁ᏳᎵ	-8078
▁ᏳᎸ	-8079
▁ᏳᏁ	-8080
▁ᏳᏓ	-8081
▁ᏳᏪ	-8082
▁ᏴᎵ	-8083
ᎠᏂᏪᎭ	-8084
ᎠᏓᏅᏙ	-8085
ᎢᏅᏗᏱ	-8086
ᎤᎶᏒᎩ	-8087
ᎥᏍᎬᎩ	-8088
ᎦᎸᎳᏗ	-8089
ᎦᎸᏍᏗ	-8090
ᎦᏐᎠᏎ	-8091
ᎦᏘᎴᏅ	-8092
ᎦᏙᎥᏎ	-8093
ᎦᏙᎥᏒ	-8094
ᎧᎲᏍᎩ	-8095
ᎧᏁᏗᏱ	-8096
ᎧᏁᏤᎵ	-8097
ᎧᏂᏍᎬ	-8098
ᎨᎬᏁᎵ	-8099
ᎨᏨᏁᎵ	-8100
ᎨᏳᎭᏧ	-8101
ᎪᎲᏍᎬ	-8102
ᎪᎾᏛᏗ	-8103
ᎪᏄᎶᏏ	-8104
ᎪᏪᎸᎾ	-8105
ᎬᎭᎷᏯ	-8106
ᎬᏂᎨᏒ	-8107
ᎬᏂᏍᏓ	-8108
ᎬᏩᏓᎴ	-8109
ᎯᏎᎸᎯ	-8110
ᎳᏍᏔᏁ	-8111
ᎳᏍᏗᏱ	-8112
ᎳᏗᏙᎮ	-8113
ᎳᏫᏎᎸ	-8114
ᎴᏅᏁᎢ	-8115
ᎵᎨᏍᏗ	-8116
ᎵᎪᎲᏏ	-8117
ᎵᎪᏁᎭ	-8118
ᎵᎯᎮᎢ	-8119
ᎵᏂᎬᎦ	-8120
ᎵᏂᏆᏅ	-8121
ᎵᏍᎪᎯ	-8122
ᎵᏍᏕᎵ	-8123
ᎵᏍᏗᏰ	-8124
ᎵᏦᏛᎦ	-8125
ᎵᏬᎬᎾ	-8126
ᎵᏰᏗᎭ	-8127
ᎶᎥᏔᏂ	-8128
ᎶᎲᏍᎩ	-8129
ᎶᏂᎨᎢ	-8130
ᎶᏄᎮᎵ	-8131
ᎶᏐᏅᏃ	-8132
ᎷᏏᎵᎻ	-8133
ᎷᏤᎰᎢ	-8134
ᎸᏍᎨᎢ	-8135
ᎸᏍᎪᎢ	-8136
ᎸᏫᏍᏓ	-8137
ᎾᏄᎪᎦ	-8138
ᎾᏄᎪᏩ	-8139
ᎾᏍᎩᏯ	-8140
ᎾᏛᏁᎰ	-8141
ᎾᏛᏁᎴ	-8142
ᎾᏨᏎᎢ	-8143
ᎿᏩᏗᏒ	-8144
ᏁᏅᏒᎩ	-8145
ᏁᏉᎡᏗ	-8146
ᏁᏍᎨᎯ	-8147
ᏁᏔᏅᎯ	-8148
ᏁᏟᏴᏒ	-8149
ᏂᎧᏁᎢ	-8150
ᏂᎩᎵᏲ	-8151
ᏂᎩᏍᏗ	-8152
ᏂᎪᎵᏰ	-8153
ᏂᎮᏍᏗ	-8154
ᏂᎶᏐᏂ	-8155
ᏂᏌᏁᎢ	-8156
ᏂᏏᎳᏗ	-8157
ᏂᏗᏍᎩ	-8158
ᏂᏗᏍᏗ	-8159
ᏂᏙᎲᎩ	-8160
ᏂᏙᎸᎢ	-8161
ᏂᏙᎸᎯ	-8162
ᏂᏢᏗᏱ	-8163
ᏂᏴᎳᏏ	-8164
ᏂᏴᏍᏗ	-8165
ᏃᎮᎮᎭ	-8166
ᏃᎮᎮᎴ	-8167
ᏃᏁᎴᎢ	-8168
ᏃᏁᏗᏱ	-8169
ᏄᎪᎬᎩ	-8170
ᏄᎪᏫᏎ	-8171
ᏄᏩᎥᎩ	-8172
ᏄᏩᎥᎾ	-8173
ᏅᎦᎸᎯ	-8174
ᏅᏩᏁᎢ	-8175
ᏌᎳᏓᏂ	-8176
ᏌᏕᏍᏗ	-8177
ᏍᎦᎢᎮ	-8178
ᏍᎦᏅᎦ	-8179
ᏍᎪᏂᎵ	-8180
ᏍᎫᏓᏛ	-8181
ᏍᏓᏁᎰ	-8182
ᏍᏓᏁᎲ	-8183
ᏍᏓᏁᎵ	-8184
ᏍᏔᏅᏃ	-8185
ᏍᏕᏅᏨ	-8186
ᏍᏗᎧᏂ	-8187
ᏍᏗᏰᎬ	-8188
ᏍᏚᎢᏒ	-8189
ᏍᏚᎮᎢ	-8190
ᏍᏚᎲᎢ	-8191
ᏍᏚᎲᎩ	-8192
ᏍᏛᏅᎯ	-8193
ᏎᎪᎩᏏ	-8194
ᏎᎮᎵᏃ	-8195
ᏎᎸᎩᏃ	-8196
ᏏᎲᏍᎩ	-8197
ᏏᎾᏌᏅ	-8198
ᏏᏔᏕᎢ	-8199
ᏐᎴᏍᏗ	-8200
ᏐᏅᏰᎵ	-8201
ᏐᏢᏔᏂ	-8202
ᏒᎥᏍᎩ	-8203
ᏒᏂᎸᎩ	-8204
ᏒᏍᏗᏱ	-8205
ᏓᎴᏅᎩ	-8206
ᏓᎵᏂᎪ	-8207
ᏓᏁᎶᏗ	-8208
ᏓᏅᎵᏰ	-8209
ᏓᏅᏒᎩ	-8210
ᏓᏅᏘᏐ	-8211
ᏓᏅᏬᏗ	-8212
ᏓᏍᏓᏁ	-8213
ᏓᏔᏅᎯ	-8214
ᏓᏗᏍᎪ	-8215
ᏓᏗᏍᎬ	-8216
ᏔᎳᏬᎯ	-8217
ᏔᏲᎯᎭ	-8218
ᏔᏲᎴᎢ	-8219
ᏔᏲᏎᏗ	-8220
ᏕᏍᏗᎭ	-8221
ᏖᎸᏅᎯ	-8222
ᏖᎸᏗᏱ	-8223
ᏖᏆᎶᎯ	-8224
ᏖᏆᎶᏒ	-8225
ᏗᏍᎩᏯ	-8226
ᏘᏁᏒᎭ	-8227
ᏘᏃᎯᏏ	-8228
ᏙᎯᏯᏛ	-8229
ᏙᏔᏅᎩ	-8230
ᏙᏗᏱᏉ	-8231
ᏚᎩᏒᎩ	-8232
ᏛᎩᏍᎪ	-8233
ᏛᎿᏕᎦ	-8234
ᏛᎿᏕᎬ	-8235
ᏛᏂᏗᏳ	-8236
ᏛᏍᎬᎢ	-8237
ᏝᎮᏍᏗ	-8238
ᏞᎯᏍᏗ	-8239
ᏞᏫᏒᎢ	-8240
ᏟᎶᎡᎸ	-8241
ᏠᎠᏎᎢ	-8242
ᏢᏈᏍᎬ	-8243
ᏢᏉᏙᏗ	-8244
ᏢᏔᏁᎢ	-8245
ᏣᏓᏑᏯ	-8246
ᏣᏗᏒᏂ	-8247
ᏤᎨᏍᏗ	-8248
ᏤᎸᏍᎦ	-8249
ᏥᏅᏬᏗ	-8250
ᏧᎪᏓᏏ	-8251
ᏧᏈᏍᏛ	-8252
ᏨᏃᏁᎵ	-8253
ᏩᏁᎴᎢ	-8254
ᏩᏗᏍᎬ	-8255
ᏩᏗᏎᎢ	-8256
ᏪᎵᏎᎢ	-8257
ᏪᎵᏎᎴ	-8258
ᏪᏎᎮᎢ	-8259
ᏪᏎᎲᎢ	-8260
ᏪᏎᏗᏱ	-8261
ᏫᏍᎪᎢ	-8262
ᏬᎯᎵᏴ	-8263
ᏬᏁᏔᏁ	-8264
ᏬᏍᎬᎢ	-8265
ᏯᏅᎡᎵ	-8266
ᏯᏅᎮᏃ	-8267
ᏯᏅᎲᎢ	-8268
ᏯᏍᏗᏱ	-8269
ᏯᏔᏁᎸ	-8270
ᏯᏪᏐᎸ	-8271
ᏰᎵᏎᏗ	-8272
ᏰᎸᏅᎯ	-8273
ᏰᎸᏒᎾ	-8274
ᏰᎸᏙᏗ	-8275
ᏰᏅᎡᎵ	-8276
ᏱᎵᏙᎵ	-8277
ᏲᎢᏍᏗ	-8278
ᏲᎱᏍᎦ	-8279
ᏲᎵᎸᏃ	-8280
ᏲᏎᎸᎩ	-8281
ᏲᏏᏍᎩ	-8282
ᏴᏙᏗᏱ	-8283
▁ᎠᎪᏪ	-8284
▁ᎠᎲᎦ	-8285
▁ᎠᎵᏛ	-8286
▁ᎠᏅᎯ	-8287
▁ᎠᏆᏁ	-8288
▁ᎠᏆᏘ	-8289
▁ᎠᏓᎴ	-8290
▁ᎠᏓᏂ	-8291
▁ᎠᏛᏃ	-8292
▁ᎠᏥᎩ	-8293
▁ᎠᏫᏒ	-8294
▁ᎠᏯᎠ	-8295
▁ᎠᏯᎥ	-8296
▁ᎠᏯᏠ	-8297
▁ᎡᎩᏩ	-8298
▁ᎡᎾᎢ	-8299
▁ᎡᏍᏓ	-8300
▁ᎡᏗᏔ	-8301
▁ᎡᏣᎵ	-8302
▁ᎡᏤᎵ	-8303
▁ᎢᎡᏣ	-8304
▁ᎢᎤᏪ	-8305
▁ᎢᎨᎦ	-8306
▁ᎢᎩᏛ	-8307
▁ᎢᎬᏴ	-8308
▁ᎢᏍᏕ	-8309
▁ᎢᏗᎬ	-8310
▁ᎢᏣᏕ	-8311
▁ᎢᏥᎪ	-8312
▁ᎢᏥᏁ	-8313
▁ᎢᏥᏴ	-8314
▁ᎢᏯᎩ	-8315
▁ᎣᎦᏅ	-8316
▁ᎣᎾᏫ	-8317
▁ᎣᏓᎵ	-8318
▁ᎤᎦᏘ	-8319
▁ᎤᎬᏫ	-8320
▁ᎤᎵᏛ	-8321
▁ᎤᎵᏥ	-8322
▁ᎤᎶᏎ	-8323
▁ᎤᎶᏘ	-8324
▁ᎤᎿᎥ	-8325
▁ᎤᏁᎯ	-8326
▁ᎤᏂᎾ	-8327
▁ᎤᏂᏰ	-8328
▁ᎤᏅᏨ	-8329
▁ᎤᏍᎩ	-8330
▁ᎤᏏᏳ	-8331
▁ᎤᏗᏒ	-8332
▁ᎤᏠᏯ	-8333
▁ᎤᏢᎬ	-8334
▁ᎤᏤᎸ	-8335
▁ᎤᏩᏴ	-8336
▁ᎤᏪᎲ	-8337
▁ᎤᏪᏁ	-8338
▁ᎤᏪᏴ	-8339
▁ᎤᏫᏢ	-8340
▁ᎤᏰᎢ	-8341
▁ᎤᏲᎵ	-8342
▁ᎤᏲᎸ	-8343
▁ᎤᏲᏞ	-8344
▁ᎤᏴᎳ	-8345
▁ᎥᎰᎵ	-8346
▁ᎥᏃᏥ	-8347
▁ᎥᏍᎩ	-8348
▁ᎥᏓᏘ	-8349
▁ᎥᏥᏯ	-8350
▁ᎦᎴᏂ	-8351
▁ᎦᎷᎩ	-8352
▁ᎦᎷᏥ	-8353
▁ᎦᎷᏨ	-8354
▁ᎦᏁᎯ	-8355
▁ᎦᏃᎦ	-8356
▁ᎦᏃᎴ	-8357
▁ᎦᏅᎢ	-8358
▁ᎦᏌᏛ	-8359
▁ᎦᏙᎥ	-8360
▁ᎦᏙᎩ	-8361
▁ᎦᏚᏏ	-8362
▁ᎦᏰᏗ	-8363
▁ᎦᏰᏧ	-8364
▁ᎧᎸᎢ	-8365
▁ᎧᏁᎩ	-8366
▁ᎨᎵᏲ	-8367
▁ᎨᎾᏂ	-8368
▁ᎨᏍᎩ	-8369
▁ᎨᏙᎲ	-8370
▁ᎪᏙᏃ	-8371
▁ᎪᏚᎢ	-8372
▁ᎪᏪᎴ	-8373
▁ᎬᏅᎯ	-8374
▁ᎬᏒᎢ	-8375
▁ᎬᏩᏜ	-8376
▁ᎬᏩᏰ	-8377
▁ᎯᎲᎦ	-8378
▁ᎯᎳᎪ	-8379
▁ᎯᏁᎬ	-8380
▁ᎴᎭᏫ	-8381
▁ᎾᏂᎡ	-8382
▁ᎾᏅᎩ	-8383
▁ᎾᏆᏓ	-8384
▁ᏂᎦᎡ	-8385
▁ᏂᎨᏎ	-8386
▁ᏂᎨᏨ	-8387
▁ᏂᎪᎲ	-8388
▁ᏂᏂᏫ	-8389
▁ᏂᏍᏓ	-8390
▁ᏂᏓᎩ	-8391
▁ᏂᏕᎤ	-8392
▁ᏂᏕᎦ	-8393
▁ᏂᏙᏗ	-8394
▁ᏂᏥᏯ	-8395
▁ᏂᏨᏯ	-8396
▁ᏃᏒᎾ	-8397
▁ᏄᎵᏌ	-8398
▁ᏄᏅᏁ	-8399
▁ᏅᎩᏁ	-8400
▁ᏅᎩᏃ	-8401
▁ᏅᏯᏉ	-8402
▁ᏆᏂᏏ	-8403
▁ᏇᎵᏏ	-8404
▁ᏋᏗᏱ	-8405
▁ᏌᎩᏯ	-8406
▁ᏌᎵᎹ	-8407
▁ᏌᎾᏱ	-8408
▁ᏌᏉᎭ	-8409
▁ᏍᎪᎾ	-8410
▁ᏍᏆᏕ	-8411
▁ᏒᏍᎦ	-8412
▁ᏓᎦᏥ	-8413
▁ᏓᎨᏏ	-8414
▁ᏓᏂᏂ	-8415
▁ᏓᏍᏓ	-8416
▁ᏓᏐᏴ	-8417
▁ᏓᏛᎯ	-8418
▁ᏓᏰᎵ	-8419
▁ᏓᏰᏏ	-8420
▁ᏓᏲᏤ	-8421
▁ᏕᎦᏘ	-8422
▁ᏕᎨᏒ	-8423
▁ᏕᎨᏣ	-8424
▁ᏕᎪᎦ	-8425
▁ᏕᎬᎩ	-8426
▁ᏕᏓᏓ	-8427
▁ᏕᏣᏗ	-8428
▁ᏕᏣᏬ	-8429
▁ᏕᏥᎵ	-8430
▁ᏕᏨᏰ	-8431
▁ᏗᎦᎶ	-8432
▁ᏗᎦᏰ	-8433
▁ᏗᎧᏃ	-8434
▁ᏗᎪᎦ	-8435
▁ᏗᎪᏱ	-8436
▁ᏗᎬᏗ	-8437
▁ᏗᏂᏅ	-8438
▁ᏗᏋᏅ	-8439
▁ᏗᏍᏆ	-8440
▁ᏗᏍᏓ	-8441
▁ᏗᏓᎵ	-8442
▁ᏗᏓᏅ	-8443
▁ᏗᏗᎹ	-8444
▁ᏙᎯᏳ	-8445
▁ᏙᏓᎸ	-8446
▁ᏙᏓᏓ	-8447
▁ᏚᎾᏘ	-8448
▁ᏚᏁᏒ	-8449
▁ᏚᏂᎸ	-8450
▁ᏚᏂᏐ	-8451
▁ᏚᏅᏅ	-8452
▁ᏚᏪᏐ	-8453
▁ᏚᏪᏴ	-8454
▁ᏚᏭᎪ	-8455
▁ᏚᏰᎸ	-8456
▁ᏚᏲᏎ	-8457
▁ᏛᎨᏥ	-8458
▁ᏛᏄᏬ	-8459
▁ᏞᎦᏉ	-8460
▁ᏠᏆᎹ	-8461
▁ᏠᏗᏯ	-8462
▁ᏣᎦᎴ	-8463
▁ᏣᏂᎩ	-8464
▁ᏤᎪᎢ	-8465
▁ᏥᎦᎳ	-8466
▁ᏥᎷᎩ	-8467
▁ᏥᎾᏋ	-8468
▁ᏥᏁᎸ	-8469
▁ᏥᏂᎩ	-8470
▁ᏥᏂᏕ	-8471
▁ᏥᏌᎤ	-8472
▁ᏥᏍᏚ	-8473
▁ᏥᏕᎯ	-8474
▁ᏥᏤᎾ	-8475
▁ᏥᏧᏣ	-8476
▁ᏦᎢᎭ	-8477
▁ᏧᎪᎳ	-8478
▁ᏧᎵᎪ	-8479
▁ᏧᎵᏰ	-8480
▁ᏧᎶᏎ	-8481
▁ᏧᎾᏤ	-8482
▁ᏧᏂᏥ	-8483
▁ᏧᏏᏔ	-8484
▁ᏧᏓᏅ	-8485
▁ᏧᏩᎿ	-8486
▁ᏧᏩᏂ	-8487
▁ᏧᏭᎪ	-8488
▁ᏧᏲᏏ	-8489
▁ᏨᏓᏣ	-8490
▁ᏨᏓᏥ	-8491
▁ᏩᎾᎢ	-8492
▁ᏩᏍᏗ	-8493
▁ᏩᏐᎾ	-8494
▁ᏫᎷᎩ	-8495
▁ᏫᏂᏣ	-8496
▁ᏫᏍᏓ	-8497
▁ᏫᏕᏣ	-8498
▁ᏫᏗᎩ	-8499
▁ᏫᏱᏣ	-8500
▁ᏭᏘᏅ	-8501
▁ᏯᏥᏯ	-8502
▁ᏯᏬᏅ	-8503
▁ᏰᎵᏃ	-8504
▁ᏱᎬᏆ	-8505
▁ᏱᎾᎩ	-8506
▁ᏱᎾᏥ	-8507
▁ᏱᏂᏙ	-8508
▁ᏱᏕᏣ	-8509
▁ᏱᏕᏥ	-8510
▁ᏱᏗᏓ	-8511
▁ᏱᏙᎬ	-8512
▁ᏱᏚᏬ	-8513
▁ᏱᏨᏯ	-8514
▁ᏲᎩᎭ	-8515
▁ᏳᏂᎭ	-8516
▁ᏳᏃᏴ	-8517
▁ᏴᎨᏨ	-8518
▁ᏴᎬᏓ	-8519
▁ᏴᎬᏩ	-8520
▁ᏴᏛᎦ	-8521
ᎢᏍᏔᏅᎩ	-8522
ᎢᏍᏗᏍᎬ	-8523
ᎤᎬᏫᏳᎭ	-8524
ᎤᏍᏕᏎᏗ	-8525
ᎦᎵᏍᎬᎢ	-8526
ᎦᎵᏍᏓᏕ	-8527
ᎦᏌᏬᎢᎯ	-8528
ᎦᏌᏯᏍᏗ	-8529
ᎦᏔᎲᏍᎬ	-8530
ᎦᏔᎲᏍᏓ	-8531
ᎧᎿᏩᏕᎦ	-8532
ᎨᏥᏪᏎᎴ	-8533
ᎪᎲᏍᏔᏂ	-8534
ᎪᎵᏰᎥᎩ	-8535
ᎪᎵᏰᎥᎭ	-8536
ᎪᎵᏰᎥᎯ	-8537
ᎫᎢᏍᏙᏗ	-8538
ᎫᏴᎡᏗᏱ	-8539
ᎯᏍᏙᏗᏱ	-8540
ᎯᏳᎲᏍᎩ	-8541
ᎳᏗᏍᏗᎭ	-8542
ᎳᏫᏍᏗᏱ	-8543
ᎳᏫᏎᎲᎢ	-8544
ᎳᏫᏎᎲᎾ	-8545
ᎴᏂᏙᎸᎢ	-8546
ᎵᎡᎵᏤᏗ	-8547
ᎵᎥᏂᎴᎢ	-8548
ᎵᎪᏁᎲᎾ	-8549
ᎵᏍᏓᏴᏂ	-8550
ᎵᏍᏗᏍᎨ	-8551
ᎵᏍᏗᏍᎩ	-8552
ᎵᏓᏍᏗᎭ	-8553
ᎶᎢᏍᏗᏱ	-8554
ᎶᏄᎮᎸᎩ	-8555
ᎶᏒᏍᏗᎭ	-8556
ᎸᏉᏍᎩᏂ	-8557
ᎸᏉᏗᏍᎪ	-8558
ᎾᏄᏫᏎᎭ	-8559
ᎾᏰᎯᏍᏗ	-8560
ᏁᎶᏕᏍᏗ	-8561
ᏁᎾᏛᏗᏱ	-8562
ᏂᎬᏎᎲᎾ	-8563
ᏂᏗᏍᏗᏱ	-8564
ᏃᎮᎮᎸᎯ	-8565
ᏃᎮᎵᏙᎯ	-8566
ᏄᎪᏫᏍᏗ	-8567
ᏄᎪᏫᏎᎢ	-8568
ᏅᎦᎸᏗᏱ	-8569
ᏅᏍᏙᏗᏱ	-8570
ᏅᏓᏗᏍᏗ	-8571
ᏌᎳᏓᏅᎭ	-8572
ᏍᎦᎳᏅᎩ	-8573
ᏍᎩᏅᏛᎯ	-8574
ᏍᎫᏕᏒᎩ	-8575
ᏍᏆᎸᎡᎸ	-8576
ᏍᏆᏂᎪᏙ	-8577
ᏍᏓᏩᏕᎦ	-8578
ᏍᏓᏩᏕᏏ	-8579
ᏍᏕᎵᏍᎪ	-8580
ᏍᏕᎸᎮᎢ	-8581
ᏍᏕᎸᎲᎩ	-8582
ᏍᏕᎸᏙᏗ	-8583
ᏍᏗᏍᎬᎢ	-8584
ᏍᏗᏩᏛᎯ	-8585
ᏍᏚᎢᏒᎩ	-8586
ᏎᎪᎩᏍᏗ	-8587
ᏎᎰᎲᏍᏗ	-8588
ᏐᎯᏍᏗᏱ	-8589
ᏐᏢᏗᏍᎩ	-8590
ᏑᎵᎪᏨᎩ	-8591
ᏓᏁᎴᏍᏗ	-8592
ᏓᏅᏖᏍᎨ	-8593
ᏓᏆᎶᎥᎩ	-8594
ᏓᏚᎪᏓᏁ	-8595
ᏓᏛᏍᎬᎾ	-8596
ᏔᏗᏅᏎᎢ	-8597
ᏔᏲᎯᎲᎢ	-8598
ᏕᏋᎯᏍᏗ	-8599
ᏖᎸᎲᏍᎦ	-8600
ᏗᎨᎦᏘᏅ	-8601
ᏗᏂᎦᏘᏯ	-8602
ᏗᏍᎪᏂᎯ	-8603
ᏗᏍᏗᏍᎩ	-8604
ᏗᏫᏎᎸᎯ	-8605
ᏘᏃᎮᎴᏃ	-8606
ᏘᏃᎮᏗᏱ	-8607
ᏘᏍᏓᏁᎯ	-8608
ᏙᎥᏗᏍᎩ	-8609
ᏚᎵᏍᎪᎢ	-8610
ᏛᎦᏁᎸᎢ	-8611
ᏛᏛᎲᏍᎦ	-8612
ᏟᏂᎬᏁᎲ	-8613
ᏠᏯᏍᏛᎾ	-8614
ᏡᏗᏍᎪᎢ	-8615
ᏢᎾᏁᎴᎢ	-8616
ᏢᏆᏍᏙᏗ	-8617
ᏦᎯᏳᎲᎦ	-8618
ᏧᎪᏓᏁᎯ	-8619
ᏩᏛᏔᏁᎢ	-8620
ᏫᏍᏗᏕᎨ	-8621
ᏬᎯᏳᏁᎢ	-8622
ᏬᏁᏗᏍᎬ	-8623
ᏬᏁᏙᏗᏱ	-8624
ᏯᏅᏔᏅᎯ	-8625
ᏯᏍᏓᏁᏗ	-8626
ᏯᏙᏔᏅᎩ	-8627
ᏯᏪᎢᏍᏗ	-8628
ᏰᎯᏍᏛᎾ	-8629
ᏰᎳᏗᏙᎭ	-8630
ᏰᎸᏍᎬᎾ	-8631
ᏱᎵᏕᎲᎢ	-8632
ᏲᎦᏛᏁᏗ	-8633
ᏲᎯᏎᎸᎢ	-8634
ᏲᎵᎮᏍᏗ	-8635
ᏲᏏᏍᎬᎩ	-8636
ᏳᎪᏓᏁᎵ	-8637
▁ᎠᎦᏔᎰ	-8638
▁ᎠᎦᏘᏰ	-8639
▁ᎠᎦᏙᏗ	-8640
▁ᎠᎦᏛᎾ	-8641
▁ᎠᎦᏛᏅ	-8642
▁ᎠᎦᏠᏯ	-8643
▁ᎠᎩᏁᏉ	-8644
▁ᎠᎩᏁᏤ	-8645
▁ᎠᎩᏍᎩ	-8646
▁ᎠᎩᏗᏱ	-8647
▁ᎠᎪᎲᎯ	-8648
▁ᎠᎰᎵᏃ	-8649
▁ᎠᎴᏍᎪ	-8650
▁ᎠᎵᏍᏗ	-8651
▁ᎠᎾᎢᏎ	-8652
▁ᎠᎾᎵᏅ	-8653
▁ᎠᎾᏓᏱ	-8654
▁ᎠᏁᏍᎨ	-8655
▁ᎠᏂᎾᎵ	-8656
▁ᎠᏂᏅᏜ	-8657
▁ᎠᏂᏰᏃ	-8658
▁ᎠᏆᎧᏛ	-8659
▁ᎠᏍᎩᏂ	-8660
▁ᎠᏍᏆᎸ	-8661
▁ᎠᏍᏈᏅ	-8662
▁ᎠᏎᎪᎩ	-8663
▁ᎠᏏᏰᏃ	-8664
▁ᎠᏓᏅᏬ	-8665
▁ᎠᏓᏱᎯ	-8666
▁ᎠᏙᏅᏗ	-8667
▁ᎠᏛᏁᎯ	-8668
▁ᎠᏟᏂᎬ	-8669
▁ᎠᏥᎸᎢ	-8670
▁ᎠᏥᎸᎯ	-8671
▁ᎠᏥᎸᏉ	-8672
▁ᎠᏥᏁᎸ	-8673
▁ᎠᏥᏐᏅ	-8674
▁ᎠᏫᏄᏣ	-8675
▁ᎠᏯᎣᎢ	-8676
▁ᎠᏯᎦᏯ	-8677
▁ᎠᏯᏙᎯ	-8678
▁ᎠᏰᎲᎩ	-8679
▁ᎠᏲᎤᎵ	-8680
▁ᎠᏲᎵᏃ	-8681
▁ᎡᎩᏁᎸ	-8682
▁ᎡᎳᏪᏉ	-8683
▁ᎡᎵᎩᏱ	-8684
▁ᎡᎻᏂᏓ	-8685
▁ᎡᏍᎦᏂ	-8686
▁ᎡᏗᎷᎦ	-8687
▁ᎡᏣᏅᏟ	-8688
▁ᎡᏥᏲᎭ	-8689
▁ᎢᎤᏁᏅ	-8690
▁ᎢᎦᏛᏉ	-8691
▁ᎢᎨᏎᎢ	-8692
▁ᎢᎭᏗᎭ	-8693
▁ᎢᎳᏍᏓ	-8694
▁ᎢᎵᎡᏌ	-8695
▁ᎢᎾᎨᏉ	-8696
▁ᎢᏓᏗᏔ	-8697
▁ᎢᏗᏧᏏ	-8698
▁ᎢᏙᎯᏳ	-8699
▁ᎢᏣᎫᏱ	-8700
▁ᎢᏣᏓᏙ	-8701
▁ᎢᏤᏰᏃ	-8702
▁ᎢᏥᎶᏁ	-8703
▁ᎢᏥᎾᏫ	-8704
▁ᎢᏥᏁᏨ	-8705
▁ᎢᏥᏄᎪ	-8706
▁ᎢᏥᏍᏆ	-8707
▁ᎢᏥᏟᏌ	-8708
▁ᎢᏥᏫᏅ	-8709
▁ᎢᏥᏲᎦ	-8710
▁ᎢᏧᎳᏉ	-8711
▁ᎢᏨᎥᏏ	-8712
▁ᎢᏨᎪᎡ	-8713
▁ᎢᏨᏁᎯ	-8714
▁ᎢᏨᏁᎵ	-8715
▁ᎢᏨᏅᎵ	-8716
▁ᎢᏴᏛᏃ	-8717
▁ᎣᎦᏍᏓ	-8718
▁ᎣᎦᏣᏅ	-8719
▁ᎣᎩᎪᎲ	-8720
▁ᎣᏏᏳᏃ	-8721
▁ᎣᏏᏳᏉ	-8722
▁ᎣᏥᏁᎦ	-8723
▁ᎣᏥᏁᎸ	-8724
▁ᎤᎧᎵᎸ	-8725
▁ᎤᎧᎵᏨ	-8726
▁ᎤᎧᏛᏃ	-8727
▁ᎤᎪᏗᏗ	-8728
▁ᎤᎴᏅᎲ	-8729
▁ᎤᎴᏅᏛ	-8730
▁ᎤᎵᏁᏌ	-8731
▁ᎤᎵᏍᏚ	-8732
▁ᎤᎶᎨᏒ	-8733
▁ᎤᎶᏗᏢ	-8734
▁ᎤᎶᏥᏛ	-8735
▁ᎤᎷᏨᎢ	-8736
▁ᎤᎾᏠᎾ	-8737
▁ᎤᏁᏄᎳ	-8738
▁ᎤᏁᏟᏴ	-8739
▁ᎤᏁᏤᏃ	-8740
▁ᎤᏂᎦᎾ	-8741
▁ᎤᏂᎩᏎ	-8742
▁ᎤᏂᏁᎬ	-8743
▁ᎤᏂᏁᏤ	-8744
▁ᎤᏂᏌᏛ	-8745
▁ᎤᏂᏚᎲ	-8746
▁ᎤᏂᏩᏒ	-8747
▁ᎤᏂᏲᎢ	-8748
▁ᎤᏂᏲᎮ	-8749
▁ᎤᏂᏲᏃ	-8750
▁ᎤᏂᏴᎸ	-8751
▁ᎤᏃᎮᎸ	-8752
▁ᎤᏃᏴᎬ	-8753
▁ᎤᏅᏓᏕ	-8754
▁ᎤᏅᏓᏛ	-8755
▁ᎤᏅᏗᏱ	-8756
▁ᎤᏍᏆᎳ	-8757
▁ᎤᏍᏘᏰ	-8758
▁ᎤᏐᏅᎢ	-8759
▁ᎤᏒᎯᏰ	-8760
▁ᎤᏓᎨᏳ	-8761
▁ᎤᏓᏑᏴ	-8762
▁ᎤᏓᏴᏛ	-8763
▁ᎤᏕᏁᎢ	-8764
▁ᎤᏕᏅᎢ	-8765
▁ᎤᏘᏅᏎ	-8766
▁ᎤᏙᎴᎱ	-8767
▁ᎤᏙᏓᏃ	-8768
▁ᎤᏚᎵᎭ	-8769
▁ᎤᏚᏓᎳ	-8770
▁ᎤᏚᏓᎸ	-8771
▁ᎤᏚᏓᏕ	-8772
▁ᎤᏛᏂᏗ	-8773
▁ᎤᏛᏃᎯ	-8774
▁ᎤᏛᏅᏃ	-8775
▁ᎤᏛᏒᎯ	-8776
▁ᎤᏛᏗᏱ	-8777
▁ᎤᏢᎬᎢ	-8778
▁ᎤᏤᎵᏃ	-8779
▁ᎤᏤᏍᏙ	-8780
▁ᎤᏥᎸᏒ	-8781
▁ᎤᏦᏍᏗ	-8782
▁ᎤᏩᏛᎮ	-8783
▁ᎤᏪᎧᎯ	-8784
▁ᎤᏪᎷᎩ	-8785
▁ᎤᏪᏅᏃ	-8786
▁ᎤᏪᏣᏄ	-8787
▁ᎤᏪᏴᎢ	-8788
▁ᎤᏬᎯᏨ	-8789
▁ᎤᏰᎸᏒ	-8790
▁ᎤᏱᎶᎴ	-8791
▁ᎤᏲᏨᎩ	-8792
▁ᎥᏓᎸᎢ	-8793
▁ᎥᏘᏍᎩ	-8794
▁ᎦᎬᏩᏂ	-8795
▁ᎦᎳᎨᏴ	-8796
▁ᎦᏁᏌᎢ	-8797
▁ᎦᏁᏡᎩ	-8798
▁ᎦᏃᏙᏗ	-8799
▁ᎦᏌᎴᎾ	-8800
▁ᎦᏴᏓᏗ	-8801
▁ᎧᏁᎪᎢ	-8802
▁ᎧᏁᎬᎩ	-8803
▁ᎧᏁᏨᎯ	-8804
▁ᎨᎫᏓᎴ	-8805
▁ᎨᏆᏂᏃ	-8806
▁ᎨᏙᎲᎢ	-8807
▁ᎩᎦᎨᎢ	-8808
▁ᎩᎦᎨᏃ	-8809
▁ᎪᎵᎦᏓ	-8810
▁ᎪᎵᏍᏗ	-8811
▁ᎪᏢᏍᎩ	-8812
▁ᎪᏢᏒᎩ	-8813
▁ᎬᎩᏁᏉ	-8814
▁ᎬᏉᏎᎰ	-8815
▁ᎬᏩᏄᎯ	-8816
▁ᎬᏩᏍᏓ	-8817
▁ᎬᏩᏓᏅ	-8818
▁ᎬᏩᏕᎰ	-8819
▁ᎬᏩᏘᏃ	-8820
▁ᎬᏩᏯᎢ	-8821
▁ᎬᏰᎸᏗ	-8822
▁ᎭᎵᏥᏙ	-8823
▁ᎭᏅᏓᏓ	-8824
▁ᎯᎸᏉᏓ	-8825
▁ᎯᏍᎩᎭ	-8826
▁ᎯᏍᎩᏉ	-8827
▁ᎾᎥᏂᎨ	-8828
▁ᎾᏂᎡᎢ	-8829
▁ᎾᏆᏍᏗ	-8830
▁ᎾᏍᎩᎾ	-8831
▁ᎾᏓᎴᏂ	-8832
▁ᎾᏛᏁᎰ	-8833
▁ᎾᏛᏁᎲ	-8834
▁ᎿᏛᏁᎲ	-8835
▁ᏁᎨᏒᎾ	-8836
▁ᏂᎤᏍᏗ	-8837
▁ᏂᎨᏐᎢ	-8838
▁ᏂᎬᏅᎢ	-8839
▁ᏂᎯᎾᏃ	-8840
▁ᏂᏓᎾᏓ	-8841
▁ᏂᏕᏨᏅ	-8842
▁ᏂᏚᎾᎵ	-8843
▁ᏂᏚᏪᎭ	-8844
▁ᏂᏤᎲᎾ	-8845
▁ᏂᏥᎥᏉ	-8846
▁ᏂᏨᏁᎭ	-8847
▁ᏄᎪᎸᎾ	-8848
▁ᏄᎾᏓᎴ	-8849
▁ᏄᏍᏛᎩ	-8850
▁ᏄᏍᏛᏉ	-8851
▁ᏅᏓᎬᏂ	-8852
▁ᏅᏛᏍᏘ	-8853
▁ᏆᏂᏆᏃ	-8854
▁ᏍᏗᏇᎾ	-8855
▁ᏐᎣᏁᎵ	-8856
▁ᏑᏓᎨᏛ	-8857
▁ᏑᏓᎵᏁ	-8858
▁ᏒᎦᏙᎯ	-8859
▁ᏓᎦᏥᏯ	-8860
▁ᏓᎩᎧᎭ	-8861
▁ᏓᎩᎪᎲ	-8862
▁ᏓᎭᏬᎢ	-8863
▁ᏓᎵᏖᎸ	-8864
▁ᏓᎾᏓᏅ	-8865
▁ᏓᏂᏁᎸ	-8866
▁ᏓᏂᏙᎦ	-8867
▁ᏓᏂᏙᎨ	-8868
▁ᏓᏆᎴᎷ	-8869
▁ᏓᏈᎵᏯ	-8870
▁ᏓᏉᏙᎥ	-8871
▁ᏓᏍᎩᏯ	-8872
▁ᏓᏯᏙᎮ	-8873
▁ᏔᎵᏁᏉ	-8874
▁ᏕᎤᏲᏎ	-8875
▁ᏕᎦᎧᎲ	-8876
▁ᏕᎧᏅᏫ	-8877
▁ᏕᎪᏢᏒ	-8878
▁ᏕᏣᏠᏱ	-8879
▁ᏕᏥᏰᎭ	-8880
▁ᏕᏨᏯᏬ	-8881
▁ᏗᎦᎴᏂ	-8882
▁ᏗᎦᎵᏦ	-8883
▁ᏗᎦᏥᏯ	-8884
▁ᏗᎦᏲᏥ	-8885
▁ᏗᎧᎵᎢ	-8886
▁ᏗᎧᏁᎬ	-8887
▁ᏗᎨᏫᏃ	-8888
▁ᏗᎬᏙᏗ	-8889
▁ᏗᎳᏑᎶ	-8890
▁ᏗᎻᏟᏯ	-8891
▁ᏗᎾᏓᏙ	-8892
▁ᏗᏁᏙᎲ	-8893
▁ᏗᏆᏄᏬ	-8894
▁ᏗᏓᏁᎸ	-8895
▁ᏗᏤᎵᏏ	-8896
▁ᏗᏨᏃᏛ	-8897
▁ᏙᏓᏰᏣ	-8898
▁ᏙᏛᎴᏂ	-8899
▁ᏚᎪᎲᎩ	-8900
▁ᏚᎷᏆᏗ	-8901
▁ᏚᎾᎧᏛ	-8902
▁ᏚᎾᎴᏁ	-8903
▁ᏚᎾᎴᏅ	-8904
▁ᏚᎾᏂᏏ	-8905
▁ᏚᏁᎸᎩ	-8906
▁ᏚᏂᎵᏬ	-8907
▁ᏚᏂᏍᏚ	-8908
▁ᏚᏂᏚᎲ	-8909
▁ᏚᏂᏯᏙ	-8910
▁ᏚᏃᎯᏳ	-8911
▁ᏚᏄᏩᎥ	-8912
▁ᏚᏅᏎᏃ	-8913
▁ᏚᏑᏰᏒ	-8914
▁ᏚᏙᏍᏛ	-8915
▁ᏚᏫᏎᎢ	-8916
▁ᏚᏯᏙᎮ	-8917
▁ᏚᏰᎵᏎ	-8918
▁ᏚᏰᎵᏒ	-8919
▁ᏛᏂᎷᏥ	-8920
▁ᏝᏍᎩᏂ	-8921
▁ᏝᏍᎪᏃ	-8922
▁ᏡᎬᏰᏃ	-8923
▁ᏣᎦᏌᏯ	-8924
▁ᏣᏁᏨᎢ	-8925
▁ᏣᏂᏅᎩ	-8926
▁ᏣᏍᏕᎸ	-8927
▁ᏣᏓᏁᏗ	-8928
▁ᏣᏙᏓᏃ	-8929
▁ᏣᏰᎸᎭ	-8930
▁ᏤᎵᎹᏯ	-8931
▁ᏤᏣᏟᏴ	-8932
▁ᏥᎦᏚᎭ	-8933
▁ᏥᎦᏛᎦ	-8934
▁ᏥᎩᏁᎸ	-8935
▁ᏥᎩᏯᎠ	-8936
▁ᏥᎪᎥᎯ	-8937
▁ᏥᎬᏗᎭ	-8938
▁ᏥᎳᏇᎵ	-8939
▁ᏥᏁᎸᎢ	-8940
▁ᏥᏄᏍᏙ	-8941
▁ᏥᏄᏍᏛ	-8942
▁ᏥᏍᎦᎾ	-8943
▁ᏥᏕᏙᎭ	-8944
▁ᏥᏚᏃᎱ	-8945
▁ᏥᏫᏗᎦ	-8946
▁ᏦᎩᎾᏫ	-8947
▁ᏦᎪᏰᏂ	-8948
▁ᏧᎨᏳᎯ	-8949
▁ᏧᎵᏏᎬ	-8950
▁ᏧᎾᏓᎴ	-8951
▁ᏧᏁᎩᏳ	-8952
▁ᏧᏁᎵᏁ	-8953
▁ᏧᏁᏨᏃ	-8954
▁ᏧᏂᎳᏫ	-8955
▁ᏧᏂᎵᎡ	-8956
▁ᏧᏂᏙᏓ	-8957
▁ᏧᏂᏣᏔ	-8958
▁ᏧᏂᏰᎸ	-8959
▁ᏧᏃᎯᏳ	-8960
▁ᏧᏅᏏᏛ	-8961
▁ᏧᏓᏅᏖ	-8962
▁ᏧᏥᏍᏟ	-8963
▁ᏧᏩᏔᏁ	-8964
▁ᏧᏪᏲᏔ	-8965
▁ᏧᏫᏎᎢ	-8966
▁ᏨᏓᎸᎢ	-8967
▁ᏩᎦᏖᎢ	-8968
▁ᏩᎦᏘᏅ	-8969
▁ᏫᎾᏴᎯ	-8970
▁ᏫᏚᏂᏴ	-8971
▁ᏫᏥᎶᎯ	-8972
▁ᏫᏰᏣᏓ	-8973
▁ᏭᏂᏴᎴ	-8974
▁ᏭᏕᎵᎬ	-8975
▁ᏭᏣᏅᎩ	-8976
▁ᏯᎦᏔᎰ	-8977
▁ᏯᏃᎯᏳ	-8978
▁ᏯᏆᏚᎵ	-8979
▁ᏯᏎᎦᎩ	-8980
▁ᏯᏤᏬᎩ	-8981
▁ᏰᎮᏍᏗ	-8982
▁ᏱᎦᏗᎭ	-8983
▁ᏱᎪᎵᎦ	-8984
▁ᏱᎬᏗᎭ	-8985
▁ᏱᎬᏩᏂ	-8986
▁ᏱᎰᏩᏃ	-8987
▁ᏱᏂᎦᎥ	-8988
▁ᏱᏄᏍᏕ	-8989
▁ᏱᏅᎨᏣ	-8990
▁ᏱᏅᏎᎦ	-8991
▁ᏱᏓᏗᎭ	-8992
▁ᏱᏓᏲᎩ	-8993
▁ᏱᏗᏓᏓ	-8994
▁ᏱᏗᏧᎪ	-8995
▁ᏱᏙᎨᏥ	-8996
▁ᏱᏚᎵᏍ	-8997
▁ᏱᏣᏁᎢ	-8998
▁ᏱᏥᏁᎦ	-8999
▁ᏱᏥᏯᎠ	-9000
▁ᏳᏁᏉᏥ	-9001
▁ᏳᏂᏣᏔ	-9002
▁ᏳᏃᎯᏳ	-9003
▁ᏳᏓᏅᏒ	-9004
▁ᏳᏬᎵᏤ	-9005
▁ᏳᏰᎸᎭ	-9006
▁ᏴᏫᏉᎨ	-9007
ᎦᏌᏯᏍᏛᎾ	-9008
ᎦᏖᏃᎮᏍᏗ	-9009
ᎪᎯᏳᎲᏍᎦ	-9010
ᎪᎵᏰᏍᎬᎩ	-9011
ᎫᎪᏓᏁᏗᏱ	-9012
ᎯᏍᏗᏍᎨᎢ	-9013
ᎵᎥᏂᏍᏗᏱ	-9014
ᎵᏍᎪᎸᏔᏁ	-9015
ᎵᏍᎪᎸᏔᏅ	-9016
ᎵᏍᏓᏁᎸᎩ	-9017
ᎵᏍᏓᏴᏙᏗ	-9018
ᎵᏍᏔᏁᏍᏗ	-9019
ᎵᏍᏗᏍᎪᎢ	-9020
ᎶᏒᏍᏗᏍᎬ	-9021
ᎶᏒᏍᏙᏗᏱ	-9022
ᎸᏫᏍᏓᏁᎴ	-9023
ᎾᏄᎪᏫᏎᎭ	-9024
ᎾᏄᎪᏫᏎᏗ	-9025
ᎾᏰᏍᎨᏍᏗ	-9026
ᏁᎢᏍᏓᏁᎭ	-9027
ᏁᎢᏍᏓᏁᏗ	-9028
ᏁᎢᏍᏗᏍᎪ	-9029
ᏂᏏᏍᎨᏍᏗ	-9030
ᏅᎢᏍᏔᏅᎯ	-9031
ᏅᏓᏗᏍᏗᏱ	-9032
ᏍᎦᏅᏤᎲᎢ	-9033
ᏍᏆᏂᎪᏗᏳ	-9034
ᏍᏓᏩᏕᎪᎢ	-9035
ᏍᏓᏩᏗᏒᎩ	-9036
ᏍᏓᏩᏗᏙᎵ	-9037
ᏍᏓᏩᏛᏎᎢ	-9038
ᏍᏕᎵᏍᎬᎩ	-9039
ᏍᏗᏰᏔᏅᎩ	-9040
ᏓᏁᏟᏴᏍᏗ	-9041
ᏓᏁᏟᏴᏎᎢ	-9042
ᏓᏓᎴᏔᏅᎯ	-9043
ᏓᏙᎵᏍᏔᏂ	-9044
ᏓᏙᎵᏍᏗᎭ	-9045
ᏔᏂᏓᏍᏗᏱ	-9046
ᏔᏲᏎᎮᏍᏗ	-9047
ᏕᏯᏙᏗᏍᎩ	-9048
ᏖᎸᎲᏍᎬᎢ	-9049
ᏚᏫᏍᏔᏁᎢ	-9050
ᏟᎶᏍᏓᏁᎭ	-9051
ᏟᎶᏍᏗᏍᎬ	-9052
ᏣᏪᏐᎸᏍᏓ	-9053
ᏩᏘᏍᎨᏍᏗ	-9054
ᏬᎯᏳᎲᏍᎦ	-9055
ᏬᏁᏗᏍᎬᎢ	-9056
ᏰᎢᎵᏙᎲᎢ	-9057
ᏰᎸᏍᎨᏍᏗ	-9058
ᏲᎱᎯᏎᎸᎯ	-9059
ᏳᎪᏓᏁᏗᏱ	-9060
▁ᎠᎦᏬᎡᎢ	-9061
▁ᎠᎧᎵᎢᎯ	-9062
▁ᎠᎩᎪᏁᎸ	-9063
▁ᎠᎩᎵᏲᎬ	-9064
▁ᎠᎩᎾᏝᎢ	-9065
▁ᎠᎩᏁᎸᎯ	-9066
▁ᎠᎩᏄᏛᏗ	-9067
▁ᎠᎩᏏᏙᎯ	-9068
▁ᎠᎩᏯᎥᎢ	-9069
▁ᎠᎬᏂᏗᏳ	-9070
▁ᎠᎴᎲᏍᎩ	-9071
▁ᎠᎴᏂᏍᎬ	-9072
▁ᎠᎴᏅᎲᎭ	-9073
▁ᎠᎵᎬᏚᎶ	-9074
▁ᎠᎺᏉᎯᏃ	-9075
▁ᎠᎾᎢᏒᏃ	-9076
▁ᎠᎾᎵᏒᎭ	-9077
▁ᎠᎾᏍᎩᏓ	-9078
▁ᎠᎾᏛᏁᎯ	-9079
▁ᎠᏁᏙᎮᎢ	-9080
▁ᎠᏂᎷᏨᎭ	-9081
▁ᎠᏂᏃᏔᏅ	-9082
▁ᎠᏂᏧᏏᏉ	-9083
▁ᎠᏂᏴᎯᎯ	-9084
▁ᎠᏄᎦᎸᏃ	-9085
▁ᎠᏅᏍᎬᎢ	-9086
▁ᎠᏆᏟᏂᎬ	-9087
▁ᎠᏍᎦᏯᏃ	-9088
▁ᎠᏍᎦᏲᎯ	-9089
▁ᎠᏍᏆᎨᏂ	-9090
▁ᎠᏍᏚᎢᏛ	-9091
▁ᎠᏏᎾᏍᏛ	-9092
▁ᎠᏓᎨᏗᏱ	-9093
▁ᎠᏓᏅᏙᎩ	-9094
▁ᎠᏓᏅᏙᏃ	-9095
▁ᎠᏗᏍᎨᎢ	-9096
▁ᎠᏗᏔᏍᎩ	-9097
▁ᎠᏙᏂᏍᎩ	-9098
▁ᎠᏛᏍᎨᎢ	-9099
▁ᎠᏢᏈᏍᏗ	-9100
▁ᎠᏥᎢᏍᏗ	-9101
▁ᎠᏥᎨᏳᎢ	-9102
▁ᎠᏥᏁᎸᎯ	-9103
▁ᎠᏥᏁᏗᏱ	-9104
▁ᎠᏥᏯᏅᎲ	-9105
▁ᎠᏰᎸᏎᎢ	-9106
▁ᎠᏳᎾᎦᏃ	-9107
▁ᎡᎩᏁᏗᏱ	-9108
▁ᎡᎭᏠᎠᎯ	-9109
▁ᎡᎯᏄᎪᎢ	-9110
▁ᎡᎵᎣᏈᎦ	-9111
▁ᎡᏓᏤᎵᎦ	-9112
▁ᎡᏣᏁᎸᎯ	-9113
▁ᎡᏤᏲᏅᎢ	-9114
▁ᎡᏥᎸᏉᏓ	-9115
▁ᎢᎦᏛᏰᏃ	-9116
▁ᎢᎦᏪᏍᎩ	-9117
▁ᎢᎨᏥᏛᎯ	-9118
▁ᎢᎸᎯᏳᏃ	-9119
▁ᎢᏍᏉᏎᎭ	-9120
▁ᎢᏗᎬᏁᏗ	-9121
▁ᎢᏣᎵᎪᎯ	-9122
▁ᎢᏣᎵᏂᎬ	-9123
▁ᎢᏣᎵᏥᏙ	-9124
▁ᎢᏣᏅᏓᏓ	-9125
▁ᎢᏣᏓᏅᏛ	-9126
▁ᎢᏣᏓᏑᏴ	-9127
▁ᎢᏣᏓᏤᎵ	-9128
▁ᎢᏣᏚᎵᎭ	-9129
▁ᎢᏣᏛᎪᏗ	-9130
▁ᎢᏤᏍᎩᏂ	-9131
▁ᎢᏥᎦᏔᎯ	-9132
▁ᎢᏥᎦᏔᎰ	-9133
▁ᎢᏥᎨᏳᎯ	-9134
▁ᎢᏥᎪᏩᏘ	-9135
▁ᎢᏥᎶᏄᎮ	-9136
▁ᎢᏥᎷᏨᎭ	-9137
▁ᎢᏥᏁᏗᏱ	-9138
▁ᎢᏥᏇᏓᎸ	-9139
▁ᎢᏥᏍᎦᎾ	-9140
▁ᎢᏥᏍᎪᎵ	-9141
▁ᎢᏥᏯᎥᎢ	-9142
▁ᎢᏦᎯᏳᏅ	-9143
▁ᎢᏨᏲᎵᎦ	-9144
▁ᎢᏨᏲᏪᎳ	-9145
▁ᎢᏳᏂᏨᎯ	-9146
▁ᎢᏳᏍᏗᎭ	-9147
▁ᎢᏳᏍᏗᏉ	-9148
▁ᎢᏳᏪᏍᏗ	-9149
▁ᎣᎦᏙᎴᎰ	-9150
▁ᎣᎦᏛᏅᎢ	-9151
▁ᎣᎦᏤᎵᎦ	-9152
▁ᎣᎨᏙᎸᎩ	-9153
▁ᎣᎩᎪᎲᎯ	-9154
▁ᎣᎵᏩᏲᎯ	-9155
▁ᎣᏂᏍᎩᏂ	-9156
▁ᎣᏍᏛᏰᏃ	-9157
▁ᎣᏓᏅᏛᎢ	-9158
▁ᎣᏣᏓᏅᏟ	-9159
▁ᎣᏥᎩᎵᏲ	-9160
▁ᎣᏥᏃᎮᎭ	-9161
▁ᎤᎦᏴᎵᎨ	-9162
▁ᎤᎧᏲᏛᎯ	-9163
▁ᎤᎩᎴᏍᏗ	-9164
▁ᎤᎪᏩᏛᏗ	-9165
▁ᎤᎬᎭᎷᏴ	-9166
▁ᎤᎬᏩᎸᎩ	-9167
▁ᎤᎯᏍᏗᏱ	-9168
▁ᎤᎴᏅᎮᏃ	-9169
▁ᎤᎵᏁᏨᎢ	-9170
▁ᎤᎵᏍᎫᏫ	-9171
▁ᎤᎵᏍᏗᏳ	-9172
▁ᎤᎵᏏᎬᎩ	-9173
▁ᎤᎵᏏᎬᏉ	-9174
▁ᎤᎶᏏᎶᏛ	-9175
▁ᎤᎶᏐᏅᎯ	-9176
▁ᎤᎷᏤᎸᎯ	-9177
▁ᎤᎸᏉᏗᏳ	-9178
▁ᎤᎾᏁᎷᎩ	-9179
▁ᎤᎾᏄᎪᏥ	-9180
▁ᎤᎾᏄᎪᏨ	-9181
▁ᎤᎾᏅᏅᎩ	-9182
▁ᎤᎾᏕᏗᏱ	-9183
▁ᎤᎾᏗᏒᎸ	-9184
▁ᎤᎾᏛᎪᏗ	-9185
▁ᎤᎾᏛᏗᏱ	-9186
▁ᎤᎾᏣᏅᎩ	-9187
▁ᎤᎾᏤᎸᎯ	-9188
▁ᎤᏁᎳᏅᎩ	-9189
▁ᎤᏁᎵᏎᎢ	-9190
▁ᎤᏁᎵᏒᎩ	-9191
▁ᎤᏁᏉᏤᎢ	-9192
▁ᎤᏁᏓᏍᏗ	-9193
▁ᎤᏁᏤᎸᎯ	-9194
▁ᎤᏂᎪᎲᏃ	-9195
▁ᎤᏂᎷᏤᎭ	-9196
▁ᎤᏂᎷᏤᏃ	-9197
▁ᎤᏂᏁᏟᏴ	-9198
▁ᎤᏂᏃᎮᏛ	-9199
▁ᎤᏂᏅᏁᎢ	-9200
▁ᎤᏂᏇᏓᎸ	-9201
▁ᎤᏂᏍᏓᏱ	-9202
▁ᎤᏂᏩᏛᏗ	-9203
▁ᎤᏂᏰᎸᏎ	-9204
▁ᎤᏂᏲᎰᎢ	-9205
▁ᎤᏂᏲᎴᎢ	-9206
▁ᎤᏃᎮᎸᎢ	-9207
▁ᎤᏃᎮᏗᏱ	-9208
▁ᎤᏃᎯᏳᎯ	-9209
▁ᎤᏃᎯᏳᏁ	-9210
▁ᎤᏃᎯᏳᏅ	-9211
▁ᎤᏄᎪᏨᎯ	-9212
▁ᎤᏄᎪᏨᏃ	-9213
▁ᎤᏄᏬᏍᏗ	-9214
▁ᎤᏅᏁᏗᏱ	-9215
▁ᎤᏌᎳᏓᏅ	-9216
▁ᎤᏍᎦᏤᎢ	-9217
▁ᎤᏍᏓᎦᎸ	-9218
▁ᎤᏍᏕᏍᏗ	-9219
▁ᎤᏍᏘᏰᎬ	-9220
▁ᎤᏒᎦᎸᎩ	-9221
▁ᎤᏓᎵᎢᏃ	-9222
▁ᎤᏓᏅᏎᏃ	-9223
▁ᎤᏓᏅᏖᎸ	-9224
▁ᎤᏓᏅᏖᏗ	-9225
▁ᎤᏓᏙᎵᏣ	-9226
▁ᎤᏓᏦᎯᏯ	-9227
▁ᎤᏓᏯᏅᏗ	-9228
▁ᎤᏓᏴᏒᎩ	-9229
▁ᎤᏔᏕᎪᏗ	-9230
▁ᎤᏘᏃᎴᎢ	-9231
▁ᎤᏘᏃᎸᎩ	-9232
▁ᎤᏙᎯᏳᎭ	-9233
▁ᎤᏙᎴᎰᏎ	-9234
▁ᎤᏚᎩᏰᏃ	-9235
▁ᎤᏚᎵᏍᎩ	-9236
▁ᎤᏛᎦᏅᎩ	-9237
▁ᎤᏛᏛᏁᎢ	-9238
▁ᎤᏟᏍᎩᏂ	-9239
▁ᎤᏣᏘᏂᏉ	-9240
▁ᎤᏤᎵᎦᏯ	-9241
▁ᎤᏩᏛᎲᎩ	-9242
▁ᎤᏩᏛᎲᏃ	-9243
▁ᎤᏩᏛᏗᏱ	-9244
▁ᎤᏪᎧᏁᎢ	-9245
▁ᎤᏪᎧᏅᎩ	-9246
▁ᎤᏪᎪᏗᏱ	-9247
▁ᎤᏪᎵᏎᎢ	-9248
▁ᎤᏪᎷᎬᎩ	-9249
▁ᎤᏬᏂᏎᎢ	-9250
▁ᎤᏬᏢᏗᏱ	-9251
▁ᎤᏮᏔᏅᎩ	-9252
▁ᎤᏰᎸᏅᎯ	-9253
▁ᎤᏰᎸᏎᎢ	-9254
▁ᎤᏱᎸᏒᎩ	-9255
▁ᎤᏲᎮᏍᏗ	-9256
▁ᎥᎩᏁᎸᎢ	-9257
▁ᎥᏆᏒᎦᎶ	-9258
▁ᎦᎵᏍᏙᏗ	-9259
▁ᎦᎵᏦᏙᏗ	-9260
▁ᎦᎶᏁᏛᏱ	-9261
▁ᎦᎶᏐᏅᎭ	-9262
▁ᎦᏙᎯᏰᏃ	-9263
▁ᎦᏥᏃᏍᏛ	-9264
▁ᎧᏁᏉᎨᎢ	-9265
▁ᎧᏃᎮᏛᏃ	-9266
▁ᎨᎪᏢᏅᎯ	-9267
▁ᎨᎪᏣᎴᏛ	-9268
▁ᎨᎬᏍᎦᎳ	-9269
▁ᎨᎬᏓᏁᏗ	-9270
▁ᎨᏂᏏᎳᏗ	-9271
▁ᎨᏣᏓᏑᏴ	-9272
▁ᎨᏥᏍᎩᏅ	-9273
▁ᎨᏥᏰᎸᎢ	-9274
▁ᎨᏦᎯᏳᏗ	-9275
▁ᎪᎯᏳᏗᏱ	-9276
▁ᎬᏩᎦᏌᏯ	-9277
▁ᎬᏩᎨᏳᎯ	-9278
▁ᎬᏩᎾᏝᎢ	-9279
▁ᎬᏩᏃᎯᏳ	-9280
▁ᎬᏩᏓᏁᏗ	-9281
▁ᎭᎵᏍᏓᏴ	-9282
▁ᎭᎵᏍᏕᎸ	-9283
▁ᎯᎦᏍᎦᏂ	-9284
▁ᎯᎪᏩᏘᎭ	-9285
▁ᎯᏍᎩᎦᏚ	-9286
▁ᎯᏍᎩᏰᏃ	-9287
▁ᎯᏍᏓᏱᏳ	-9288
▁ᎺᎵᏍᎩᏂ	-9289
▁ᎾᎬᏁᎸᎢ	-9290
▁ᎾᎬᏁᎸᎭ	-9291
▁ᎾᏂᏴᎬᎾ	-9292
▁ᎾᏆᏛᏁᎸ	-9293
▁ᎾᏛᏁᎰᎢ	-9294
▁ᏂᎠᏂᏪᎭ	-9295
▁ᏂᎦᏛᏁᎲ	-9296
▁ᏂᎦᏛᏅᎢ	-9297
▁ᏂᎪᎵᎬᎾ	-9298
▁ᏂᏍᏋᏁᎭ	-9299
▁ᏂᏓᏛᏁᎲ	-9300
▁ᏂᏚᏛᏁᎸ	-9301
▁ᏂᏥᏪᏒᎭ	-9302
▁ᏂᏨᏪᏎᎲ	-9303
▁ᏄᎵᏂᎬᎬ	-9304
▁ᏄᎾᏁᎸᎾ	-9305
▁ᏄᎾᏙᏓᏈ	-9306
▁ᏄᏂᏪᏒᎢ	-9307
▁ᏄᏅᏂᏌᏁ	-9308
▁ᏄᏛᏁᎸᎾ	-9309
▁ᏄᏲᎱᏒᎩ	-9310
▁ᏅᏁᎮᏍᏗ	-9311
▁ᏅᏓᏳᏓᎴ	-9312
▁ᏅᏛᏅᏁᎵ	-9313
▁ᏅᏩᏍᏗᏗ	-9314
▁ᏌᎳᏓᏱᎵ	-9315
▁ᏍᎩᏁᎲᏏ	-9316
▁ᏍᎩᏂᏃᏅ	-9317
▁ᏍᎩᏯᏅᏛ	-9318
▁ᏐᎢᏍᎩᏂ	-9319
▁ᏑᏓᎵᎦᎵ	-9320
▁ᏓᎦᎫᏴᎯ	-9321
▁ᏓᎧᎿᏩᏕ	-9322
▁ᏓᎧᎿᏩᏗ	-9323
▁ᏓᎩᎪᎲᎩ	-9324
▁ᏓᎪᏄᎶᏏ	-9325
▁ᏓᎬᎷᏤᎵ	-9326
▁ᏓᏁᏙᎲᎩ	-9327
▁ᏓᏂᏙᎬᎩ	-9328
▁ᏔᎳᏍᎪᎯ	-9329
▁ᏕᎦᎫᏍᏓ	-9330
▁ᏕᎦᏚᎲᎢ	-9331
▁ᏕᏣᏂᏴᏒ	-9332
▁ᏕᏥᏁᏤᎭ	-9333
▁ᏕᏥᏄᎪᏫ	-9334
▁ᏕᏥᏅᎪᎥ	-9335
▁ᏕᏦᏢᎯᏏ	-9336
▁ᏗᎦᎨᏗᏳ	-9337
▁ᏗᎦᎪᏙᏗ	-9338
▁ᏗᎦᏚᎲᎢ	-9339
▁ᏗᎦᏩᏒᎩ	-9340
▁ᏗᎨᏥᏰᎯ	-9341
▁ᏗᎪᏢᏍᎩ	-9342
▁ᏗᎪᏪᎶᏗ	-9343
▁ᏗᎴᏅᏙᏗ	-9344
▁ᏗᎵᏒᏍᏗ	-9345
▁ᏗᏂᎦᏘᏯ	-9346
▁ᏗᏂᏁᎵᏛ	-9347
▁ᏗᏂᏂᏙᎯ	-9348
▁ᏗᏂᏍᎦᎩ	-9349
▁ᏗᏂᏍᎪᎵ	-9350
▁ᏗᏂᏲᎵᏃ	-9351
▁ᏗᏍᏆᏂᎪ	-9352
▁ᏗᏑᏫᏍᎩ	-9353
▁ᏗᏕᏲᏅᎯ	-9354
▁ᏗᏛᏂᏗᏳ	-9355
▁ᏗᏟᏍᏙᏗ	-9356
▁ᏗᏣᎵᏂᎪ	-9357
▁ᏗᏨᏙᏗᏱ	-9358
▁ᏗᏩᎾᎦᎳ	-9359
▁ᏙᏓᎦᏅᏏ	-9360
▁ᏙᏗᎧᏅᎢ	-9361
▁ᏙᏛᎠᎴᏂ	-9362
▁ᏙᏛᏛᏔᏂ	-9363
▁ᏚᎧᎿᏁᎢ	-9364
▁ᏚᎧᎿᏩᏗ	-9365
▁ᏚᎪᏓᏁᎯ	-9366
▁ᏚᎳᏍᎬᎢ	-9367
▁ᏚᎾᏙᎥᎢ	-9368
▁ᏚᏂᎩᏒᎩ	-9369
▁ᏚᏂᎪᎲᏃ	-9370
▁ᏚᏂᎬᏤᎢ	-9371
▁ᏚᏂᏍᏆᎸ	-9372
▁ᏚᏃᎸᏎᎢ	-9373
▁ᏚᏃᏣᎳᏁ	-9374
▁ᏚᏃᏪᎸᎢ	-9375
▁ᏚᏄᏩᎥᎢ	-9376
▁ᏚᏅᏩᏁᎢ	-9377
▁ᏚᏌᎳᏓᏁ	-9378
▁ᏚᏌᎳᏓᏅ	-9379
▁ᏚᏓᏂᎸᏨ	-9380
▁ᏚᏘᏅᏒᎩ	-9381
▁ᏚᏛᏛᏁᏃ	-9382
▁ᏚᏫᏞᏫᏒ	-9383
▁ᏚᏭᎪᏓᏁ	-9384
▁ᏚᏳᎪᏛᏃ	-9385
▁ᏛᎵᏛᏔᏂ	-9386
▁ᏛᎾᏛᎦᏂ	-9387
▁ᏛᏆᏡᏔᏂ	-9388
▁ᏣᎪᏎᎰᎢ	-9389
▁ᏣᎫᏴᎡᏗ	-9390
▁ᏣᎳᏏᏕᏂ	-9391
▁ᏣᎵᏂᎩᏛ	-9392
▁ᏣᏂᏃᎮᎭ	-9393
▁ᏣᏓᏪᎵᎩ	-9394
▁ᏣᏚᎵᏍᎬ	-9395
▁ᏣᏱᎵᏙᎯ	-9396
▁ᏤᎦᏬᎥᎯ	-9397
▁ᏤᎩᎾᏝᎢ	-9398
▁ᏤᏣᏛᏅᎩ	-9399
▁ᏥᎧᏃᎮᎭ	-9400
▁ᏥᎨᏦᏎᎭ	-9401
▁ᏥᎩᎵᏲᎬ	-9402
▁ᏥᎾᏰᏍᎦ	-9403
▁ᏥᏂᏴᏁᎭ	-9404
▁ᏥᏍᎦᏅᎩ	-9405
▁ᏥᏚᏁᏤᎴ	-9406
▁ᏥᏚᏓᏲᏎ	-9407
▁ᏦᎩᎾᏫᏱ	-9408
▁ᏦᎯᏳᏒᎢ	-9409
▁ᏦᏥᎦᏔᎭ	-9410
▁ᏦᏥᏰᎸᎢ	-9411
▁ᏧᎾᏍᏗᎦ	-9412
▁ᏧᎾᏙᎢᏛ	-9413
▁ᏧᏁᎵᏁᏃ	-9414
▁ᏧᏂᎷᏤᎸ	-9415
▁ᏧᏂᏍᏓᎢ	-9416
▁ᏧᏓᎴᏅᎲ	-9417
▁ᏧᏬᏚᎯᏳ	-9418
▁ᏧᏮᏔᏅᎯ	-9419
▁ᏨᏗᎦᏚᎭ	-9420
▁ᏩᎩᎶᏒᎩ	-9421
▁ᏩᏂᎶᏒᎭ	-9422
▁ᏫᎬᏩᏘᏅ	-9423
▁ᏫᏄᏪᏎᎢ	-9424
▁ᏫᏓᏗᏅᏗ	-9425
▁ᏫᏣᎮᏍᏗ	-9426
▁ᏫᏨᎷᏤᏗ	-9427
▁ᏫᏨᏲᎵᎦ	-9428
▁ᏬᎩᏃᎸᎩ	-9429
▁ᏭᎷᏤᎴᎢ	-9430
▁ᏭᏂᎷᏨᎩ	-9431
▁ᏭᏃᏁᎸᎩ	-9432
▁ᏭᏯᏅᎲᎩ	-9433
▁ᏮᏓᎦᎶᏏ	-9434
▁ᏮᏛᏥᎶᏏ	-9435
▁ᏯᎩᏩᏛᎲ	-9436
▁ᏯᏓᏡᏗᎭ	-9437
▁ᏰᎵᏉᏰᏃ	-9438
▁ᏱᎬᏍᎦᎳ	-9439
▁ᏱᎾᎦᏪᎠ	-9440
▁ᏱᏂᏣᏛᎦ	-9441
▁ᏱᏄᏩᏁᎰ	-9442
▁ᏱᏥᏰᎸᎾ	-9443
▁ᏳᏂᎪᎮᎢ	-9444
▁ᏳᏍᎦᏅᏨ	-9445
▁ᏳᏔᏲᏎᎭ	-9446
▁ᏳᏥᏍᎪᎸ	-9447
▁ᏳᏩᏛᎮᎢ	-9448
▁ᏳᏲᎱᏎᎸ	-9449
▁ᏴᎦᎦᏗᏔ	-9450
ᎦᏔᎲᏍᏙᏗᏱ	-9451
ᎦᏨᏩᏍᏙᏗᏱ	-9452
ᎩᎵᏲᎢᏍᏙᏗ	-9453
ᎳᏍᏗᏍᎨᏍᏗ	-9454
ᎳᏗᏍᏗᏍᎬᎢ	-9455
ᎵᏍᎦᏍᏙᏙᏗ	-9456
ᎾᏄᎪᎢᏍᏗᏱ	-9457
ᎾᏄᎪᏫᏎᏗᏱ	-9458
ᏍᏕᎵᏌᏕᏒᎭ	-9459
ᏍᏛᏗᏍᎨᏍᏗ	-9460
ᏎᎵᏛᏍᎨᏍᏗ	-9461
ᏓᎵᏁᎯᏕᏗᏱ	-9462
ᏓᏅᏓᏗᏍᏙᏗ	-9463
ᏓᏙᎵᏍᏓᏁᎵ	-9464
ᏕᎰᎯᏍᏙᏗᏱ	-9465
ᏕᏯᏔᏁᎮᏍᏗ	-9466
ᏛᏅᎢᏍᏓᏁᎵ	-9467
ᏛᏛᎲᏍᎨᏍᏗ	-9468
ᏣᏓᏛᏁᎮᏍᏗ	-9469
ᏣᏪᏐᎸᏍᏙᏗ	-9470
ᏧᎪᏓᏁᎮᏍᏗ	-9471
ᏬᏁᏗᏍᎨᏍᏗ	-9472
▁ᎠᎦᏁᎳᏅᎯ	-9473
▁ᎠᎦᏔᎮᏰᏃ	-9474
▁ᎠᎦᏔᎿᎢᏳ	-9475
▁ᎠᎩᎨᏳᎯᏳ	-9476
▁ᎠᎩᎵᏲᎬᎢ	-9477
▁ᎠᎩᏂᎬᏎᎲ	-9478
▁ᎠᎩᏰᎸᏒᎩ	-9479
▁ᎠᎫᏴᎡᏗᏱ	-9480
▁ᎠᎵᏰᎢᎶᎦ	-9481
▁ᎠᎵᏱᎵᏒᎢ	-9482
▁ᎠᎾᎵᎮᎵᎬ	-9483
▁ᎠᎾᎵᏅᏟᏃ	-9484
▁ᎠᎾᏓᎩᎡᎯ	-9485
▁ᎠᎾᏗᏒᎯᎮ	-9486
▁ᎠᎾᏛᎩᏍᎪ	-9487
▁ᎠᎾᏡᏗᏍᎬ	-9488
▁ᎠᏁᎷᎲᏍᎨ	-9489
▁ᎠᏁᏙᎮᏍᏗ	-9490
▁ᎠᏂᎩᎵᏲᎩ	-9491
▁ᎠᏂᎵᎾᎡᎢ	-9492
▁ᎠᏂᎷᎯᏍᏗ	-9493
▁ᎠᏂᎾᏄᎪᏫ	-9494
▁ᎠᏂᎾᏰᏍᎩ	-9495
▁ᎠᏂᏍᎦᎢᎲ	-9496
▁ᎠᏂᏬᏂᏍᎩ	-9497
▁ᎠᏂᏯᏙᎯᎯ	-9498
▁ᎠᏆᏛᎦᏅᎯ	-9499
▁ᎠᏆᏡᏗᏍᎩ	-9500
▁ᎠᏍᎦᏅᏨᎯ	-9501
▁ᎠᏍᎦᏯᏰᏃ	-9502
▁ᎠᏍᏚᎢᏍᎩ	-9503
▁ᎠᏓᏬᏍᏗᏱ	-9504
▁ᎠᏓᏰᎮᏍᏗ	-9505
▁ᎠᏥᎢᏍᏗᏱ	-9506
▁ᎠᏥᎸᏉᏙᏗ	-9507
▁ᎠᏥᏅᏩᏅᎢ	-9508
▁ᎠᏥᏌᎳᏙᏗ	-9509
▁ᎠᏱᏍᎨᏍᏗ	-9510
▁ᎡᏣᏓᏅᏛᎵ	-9511
▁ᎡᏥᎨᏳᎢᏳ	-9512
▁ᎡᏥᏁᏉᎡᏗ	-9513
▁ᎡᏥᏍᎦᏅᏤ	-9514
▁ᎡᏥᏍᏕᎸᏗ	-9515
▁ᎡᏥᏙᎵᏨᎯ	-9516
▁ᎡᏥᏯᎡᏍᏗ	-9517
▁ᎢᎨᎬᏁᏗᏱ	-9518
▁ᎢᎨᏓᏍᏗᏱ	-9519
▁ᎢᎩᏍᏕᎵᎭ	-9520
▁ᎢᎬᏩᏁᏗᏱ	-9521
▁ᎢᎬᏩᏅᏁᏗ	-9522
▁ᎢᎬᏩᏛᏛᏁ	-9523
▁ᎢᎸᎯᏢᏰᏃ	-9524
▁ᎢᎸᎯᏳᏰᏃ	-9525
▁ᎢᏍᏙᏎᎸᎭ	-9526
▁ᎢᏓᏙᎴᎰᎯ	-9527
▁ᎢᏗᎦᎸᏉᏗ	-9528
▁ᎢᏣᏁᎳᏅᎯ	-9529
▁ᎢᏣᏓᏅᏖᎭ	-9530
▁ᎢᏣᏓᏅᏘᏳ	-9531
▁ᎢᏣᏓᏅᏛᎢ	-9532
▁ᎢᏣᏓᏤᎵᏛ	-9533
▁ᎢᏣᏙᎴᎰᎯ	-9534
▁ᎢᏤᎳᏗᏙᎭ	-9535
▁ᎢᏤᏅᏍᏗᏱ	-9536
▁ᎢᏤᏓᏍᏗᏱ	-9537
▁ᎢᏤᏙᎮᏍᏗ	-9538
▁ᎢᏥᎦᏔᎯᏳ	-9539
▁ᎢᏥᎦᏔᎾᎢ	-9540
▁ᎢᏥᎷᎨᏍᏗ	-9541
▁ᎢᏥᏃᎮᏍᎩ	-9542
▁ᎢᏥᏲᎮᏍᏗ	-9543
▁ᎢᏦᎵᏍᏗᏱ	-9544
▁ᎢᏨᏁᏤᎸᎢ	-9545
▁ᎢᏨᏒᏍᎩᏂ	-9546
▁ᎢᏨᏬᏁᏔᏅ	-9547
▁ᎢᏨᏲᏎᏰᏃ	-9548
▁ᎢᏯᎬᏁᏗᏱ	-9549
▁ᎢᏯᏓᏛᏁᎯ	-9550
▁ᎢᏯᏛᏁᏗᏱ	-9551
▁ᎢᏰᎬᏁᎸᎯ	-9552
▁ᎢᏳᎵᏂᎩᏛ	-9553
▁ᎢᏳᏅᏁᎸᎯ	-9554
▁ᎢᏳᏅᏂᏌᏛ	-9555
▁ᎢᏳᏍᏗᏓᏂ	-9556
▁ᎢᏳᏩᏂᏐᏗ	-9557
▁ᎢᏳᏪᏎᎸᎯ	-9558
▁ᎣᎦᏂᎩᏒᎩ	-9559
▁ᎣᏥᏬᏂᏍᎬ	-9560
▁ᎤᎦᏔᏔᏁᎢ	-9561
▁ᎤᎩᎵᏲᏨᎯ	-9562
▁ᎤᎪᎵᏰᏗᏱ	-9563
▁ᎤᎵᏂᎬᎬᎢ	-9564
▁ᎤᎵᏍᏗᏳᏃ	-9565
▁ᎤᎵᏰᎢᎶᎸ	-9566
▁ᎤᎶᏄᎮᏗᏱ	-9567
▁ᎤᎾᎴᎾᎸᎯ	-9568
▁ᎤᎾᎴᏅᎮᏃ	-9569
▁ᎤᎾᎴᏅᎲᎩ	-9570
▁ᎤᎾᎵᏃᎮᎴ	-9571
▁ᎤᎾᏂᎩᏒᎩ	-9572
▁ᎤᎾᏂᎩᏒᏃ	-9573
▁ᎤᎾᏂᏢᏗᏱ	-9574
▁ᎤᎾᏄᎪᏨᎯ	-9575
▁ᎤᎾᏅᏓᏛᎩ	-9576
▁ᎤᎾᏓᏄᏴᏗ	-9577
▁ᎤᎾᏓᏅᏖᎸ	-9578
▁ᎤᎾᏓᏟᏌᏅ	-9579
▁ᎤᎾᏕᏯᏔᏁ	-9580
▁ᎤᎾᏚᎵᏍᎨ	-9581
▁ᎤᎾᏠᎾᏍᏛ	-9582
▁ᎤᏁᎳᏅᎯᏉ	-9583
▁ᎤᏁᎳᏗᏙᎲ	-9584
▁ᎤᏁᏓᏍᏗᏱ	-9585
▁ᎤᏂᎪᏁᎶᎯ	-9586
▁ᎤᏂᎷᏤᏗᏱ	-9587
▁ᎤᏂᏁᎢᏍᏗ	-9588
▁ᎤᏂᏂᎬᏎᎲ	-9589
▁ᎤᏂᏃᎮᎸᎩ	-9590
▁ᎤᏂᏄᎪᏤᏃ	-9591
▁ᎤᏂᏄᎪᏨᎩ	-9592
▁ᎤᏂᏆᏘᏍᏗ	-9593
▁ᎤᏂᏍᎦᏎᏗ	-9594
▁ᎤᏂᏍᏆᏛᏃ	-9595
▁ᎤᏂᏍᏛᏛᎯ	-9596
▁ᎤᏂᏛᏗᏍᎩ	-9597
▁ᎤᏂᏧᏈᏍᏗ	-9598
▁ᎤᏂᏰᎸᏁᎢ	-9599
▁ᎤᏂᏰᎸᏅᎩ	-9600
▁ᎤᏃᎯᏳᏁᎢ	-9601
▁ᎤᏄᎪᎢᏍᏗ	-9602
▁ᎤᏇᏓᎵᏰᏃ	-9603
▁ᎤᏍᎦᏃᎵᏳ	-9604
▁ᎤᏍᏓᏩᏛᏎ	-9605
▁ᎤᏓᎸᏉᏙᏗ	-9606
▁ᎤᏓᏅᎡᎴᎢ	-9607
▁ᎤᏓᏅᏓᏕᎢ	-9608
▁ᎤᏓᏑᏰᏍᏗ	-9609
▁ᎤᏓᏰᎸᏙᏗ	-9610
▁ᎤᏕᏯᏔᏁᎸ	-9611
▁ᎤᏢᏈᏍᏗᏱ	-9612
▁ᎤᏩᏙᎯᏯᏛ	-9613
▁ᎤᏪᏙᎵᏍᏗ	-9614
▁ᎤᏪᏥᎨᏎᎢ	-9615
▁ᎤᏪᏯᎸᏤᎢ	-9616
▁ᎤᏰᎯᏍᎩᏂ	-9617
▁ᎤᏲᎱᏏᏕᎾ	-9618
▁ᎤᏲᏏᏌᏁᎢ	-9619
▁ᎥᎩᏁᏤᎸᎯ	-9620
▁ᎥᎩᏂᏐᏗᏱ	-9621
▁ᎦᎸᎳᏗᏰᏃ	-9622
▁ᎦᎸᏉᏔᏅᎯ	-9623
▁ᎦᎸᏉᏗᏳᏃ	-9624
▁ᎦᎾᏄᎪᏥᎸ	-9625
▁ᎧᏃᎮᏛᏰᏃ	-9626
▁ᎨᎦᎫᏴᎡᎸ	-9627
▁ᎨᎦᏎᏍᏗᏱ	-9628
▁ᎨᎵᏌᏕᏍᏗ	-9629
▁ᎨᏣᎷᏤᏗᏱ	-9630
▁ᎨᏤᎳᏗᏙᎭ	-9631
▁ᎨᏥᏛᏙᏗᏱ	-9632
▁ᎪᎱᏍᏗᏍᎪ	-9633
▁ᎬᎩᎷᏤᏗᏱ	-9634
▁ᎬᎩᎸᏉᏗᎭ	-9635
▁ᎬᎩᏩᏛᎲᎩ	-9636
▁ᎬᏂᎨᏒᏰᏃ	-9637
▁ᎬᏍᎦᎳᏅᎯ	-9638
▁ᎬᏍᏗᏰᏗᎭ	-9639
▁ᎬᏩᎪᏁᎶᎯ	-9640
▁ᎬᏩᎸᏉᏗᏳ	-9641
▁ᎬᏩᏂᏴᎮᎢ	-9642
▁ᎬᏩᏅᏏᏙᎯ	-9643
▁ᎬᏩᏚᏫᏛᏃ	-9644
▁ᎬᏩᏛᏛᏁᏃ	-9645
▁ᎬᏬᏍᏔᏅᎯ	-9646
▁ᎭᏓᎦᏖᏙᎢ	-9647
▁ᎯᎠᏉᏍᎩᏂ	-9648
▁ᎯᎩᎵᏲᎬᎢ	-9649
▁ᎾᎫᎢᏍᏛᎾ	-9650
▁ᎾᎾᎵᏍᏗᎭ	-9651
▁ᎾᏂᎥᏉᏰᏃ	-9652
▁ᎾᏂᎥᏍᎩᏂ	-9653
▁ᎾᏂᎳᏍᏓᎸ	-9654
▁ᎾᏆᎵᏍᏔᏅ	-9655
▁ᎾᏑᎵᎪᎬᎾ	-9656
▁ᎾᏓᏛᏁᎲᎢ	-9657
▁ᎾᏥᏪᏎᎴᎢ	-9658
▁ᎿᏛᏁᎮᏍᏗ	-9659
▁ᏁᏥᎦᏔᎲᎾ	-9660
▁ᏂᎦᎵᏬᎬᎾ	-9661
▁ᏂᎦᏛᏁᎰᎢ	-9662
▁ᏂᎦᏥᏪᏎᎭ	-9663
▁ᏂᎦᏥᏴᏁᎲ	-9664
▁ᏂᎦᏥᏴᏁᎸ	-9665
▁ᏂᎧᏪᏍᎬᎩ	-9666
▁ᏂᎪᎯᎴᏍᏗ	-9667
▁ᏂᎪᎲᏔᏅᎾ	-9668
▁ᏂᏗᏍᎦᏅᎾ	-9669
▁ᏂᏙᏓᎬᏁᎵ	-9670
▁ᏂᏚᏂᏢᎬᎾ	-9671
▁ᏂᏚᏂᏪᏎᎴ	-9672
▁ᏂᏣᏓᏅᏛᎾ	-9673
▁ᏂᏣᏛᏁᎰᎢ	-9674
▁ᏂᏣᏛᏁᎸᎢ	-9675
▁ᏂᏤᎵᏍᎬᎾ	-9676
▁ᏂᏥᏪᏍᎬᎢ	-9677
▁ᏃᎦᎵᏍᏔᏅ	-9678
▁ᏄᎵᏌᎶᏛᎾ	-9679
▁ᏄᎵᏍᏓᏁᎸ	-9680
▁ᏄᎵᏍᏙᏔᏅ	-9681
▁ᏄᎵᏍᏚᎸᎾ	-9682
▁ᏄᎾᏓᏅᏛᎾ	-9683
▁ᏄᎾᏛᏁᎸᎩ	-9684
▁ᏄᏍᎦᏅᏨᎾ	-9685
▁ᏄᏍᏗᏕᎬᎢ	-9686
▁ᏄᏩᏂᏌᏅᎩ	-9687
▁ᏅᏓᎬᏴᏁᎵ	-9688
▁ᏅᏓᏳᏩᏁᎵ	-9689
▁ᏅᏗᎦᎵᏍᏙ	-9690
▁ᏅᏩᏛᏁᏍᏗ	-9691
▁ᏌᏉᏉᏍᎩᏂ	-9692
▁ᏍᎩᎢᏍᏗᏱ	-9693
▁ᏍᎩᎨᏳᎭᏧ	-9694
▁ᏍᎩᏂᏙᎵᎩ	-9695
▁ᏍᏇᎵᏎᏗᏱ	-9696
▁ᏐᎣᏁᎳᎦᎵ	-9697
▁ᏑᏓᎵᏍᎪᎯ	-9698
▁ᏓᎦᏟᎶᏍᏗ	-9699
▁ᏓᎩᏲᎯᏎᎸ	-9700
▁ᏓᎾᏤᎨᏍᏗ	-9701
▁ᏓᏆᎧᎿᏅᎩ	-9702
▁ᏓᏍᎫᏓᏛᎩ	-9703
▁ᏓᏓᏁᎳᏗᏒ	-9704
▁ᏓᏨᏯᏛᏛᏂ	-9705
▁ᏓᏳᏓᎴᏅᎩ	-9706
▁ᏕᎤᎴᏔᏁᎢ	-9707
▁ᏕᎤᎴᏔᏅᎢ	-9708
▁ᏕᎦᎳᏅᏛᎢ	-9709
▁ᏕᎦᏃᏣᎸᏃ	-9710
▁ᏕᎦᏥᏯᏠᎢ	-9711
▁ᏕᎬᏕᎨᏍᏗ	-9712
▁ᏕᎬᏩᏂᎮᎢ	-9713
▁ᏕᏣᏓᏂᎸᏨ	-9714
▁ᏕᏥᎧᎿᏩᏗ	-9715
▁ᏗᎦᎪᏙᏗᏱ	-9716
▁ᏗᎦᏓᎨᏳᎯ	-9717
▁ᏗᎦᏓᏛᏙᏗ	-9718
▁ᏗᎨᎦᎸᎢᏛ	-9719
▁ᏗᎩᎧᏁᎸᎯ	-9720
▁ᏗᎩᏂᏴᏗᏱ	-9721
▁ᏗᎪᏪᎳᏅᎯ	-9722
▁ᏗᎪᏪᎵᏍᎩ	-9723
▁ᏗᎪᏪᎶᏗᏱ	-9724
▁ᏗᎫᎪᏓᏁᎯ	-9725
▁ᏗᎬᏩᏁᎶᏗ	-9726
▁ᏗᏂᏏᎲᏍᎩ	-9727
▁ᏗᏆᏓᎴᏅᎢ	-9728
▁ᏗᏆᏓᏅᏛᎢ	-9729
▁ᏗᏓᎪᏗᏍᎩ	-9730
▁ᏗᏓᏂᎸᏨᎯ	-9731
▁ᏗᏓᏂᏱᏍᎩ	-9732
▁ᏗᏕᎶᏆᏍᎩ	-9733
▁ᏗᏣᏠᏱᎸᎩ	-9734
▁ᏗᏤᏲᎲᏍᎩ	-9735
▁ᏘᏅᏏᏓᏍᏗ	-9736
▁ᏙᏓᎧᏁᏤᎵ	-9737
▁ᏙᏛᏂᏴᎳᏏ	-9738
▁ᏙᏥᏩᏛᎲᎩ	-9739
▁ᏚᎧᎿᏂᏙᎸ	-9740
▁ᏚᎵᏍᏚᎸᎩ	-9741
▁ᏚᏂᎭᏁᎦᎸ	-9742
▁ᏚᏂᎳᏫᏨᎩ	-9743
▁ᏚᏂᏔᏲᏎᎴ	-9744
▁ᏚᏂᏬᏁᏔᏁ	-9745
▁ᏚᏂᏲᎱᏒᎩ	-9746
▁ᏚᏅᏍᏓᏕᎴ	-9747
▁ᏚᏍᏆᎸᏔᏁ	-9748
▁ᏚᏙᎳᏍᏔᏁ	-9749
▁ᏚᏬᏕᎯᎰᎢ	-9750
▁ᏚᏲᏍᎨᏍᏗ	-9751
▁ᏛᎾᎵᏖᎸᏂ	-9752
▁ᏛᏂᎸᏉᏔᏂ	-9753
▁ᏣᎪᏩᏘᏍᎪ	-9754
▁ᏣᎶᎯᏍᏗᏱ	-9755
▁ᏣᎷᎯᏍᏗᏱ	-9756
▁ᏣᎾᏗᏍᎪᎢ	-9757
▁ᏣᏍᎦᏅᎪᎢ	-9758
▁ᏣᏍᏆᏂᎪᏗ	-9759
▁ᏣᏓᏅᎦᎸᏛ	-9760
▁ᏣᏓᏅᏖᏗᏱ	-9761
▁ᏣᏓᏡᏗᏍᎪ	-9762
▁ᏣᏚᎵᏍᎪᏃ	-9763
▁ᏥᎦᏘᏏᏗᏢ	-9764
▁ᏥᎨᏣᏓᏑᏯ	-9765
▁ᏥᎾᎾᏛᏁᎰ	-9766
▁ᏥᎾᏓᏗᏍᎪ	-9767
▁ᏥᏁᏣᏛᏁᎰ	-9768
▁ᏥᏂᎦᏛᏁᎭ	-9769
▁ᏥᏂᏚᏩᏁᎸ	-9770
▁ᏥᏄᏪᏎᎴᎢ	-9771
▁ᏥᏨᏯᎵᏥᏙ	-9772
▁ᏥᏯᎵᎪᏁᎯ	-9773
▁ᏦᏥᏩᎾᎦᎳ	-9774
▁ᏧᎳᏏᏕᏂᏃ	-9775
▁ᏧᎵᏂᎩᏗᏳ	-9776
▁ᏧᏁᏍᎨᎮᎢ	-9777
▁ᏧᏂᎦᏯᎷᏗ	-9778
▁ᏧᏄᎪᏙᏗᏱ	-9779
▁ᏧᏍᏕᎸᏗᏱ	-9780
▁ᏧᏓᏕᏒᏛᏃ	-9781
▁ᏧᏪᏟᏐᏗᏱ	-9782
▁ᏧᏪᏲᎲᏍᎩ	-9783
▁ᏧᏲᎯᏎᏗᏱ	-9784
▁ᏫᎤᏂᎶᏎᎢ	-9785
▁ᏫᎬᎷᏤᏗᏱ	-9786
▁ᏫᎬᏩᏴᏍᏗ	-9787
▁ᏫᏚᎧᎿᏁᎢ	-9788
▁ᏫᏚᏯᏅᎲᎩ	-9789
▁ᏫᏥᎷᏤᏗᏱ	-9790
▁ᏭᏂᏴᏍᏗᏱ	-9791
▁ᏭᏓᎪᎾᏛᏗ	-9792
▁ᏮᏓᏨᎷᏤᎵ	-9793
▁ᏱᎦᎨᏎᏍᏗ	-9794
▁ᏱᎦᏂᏆᏘᎭ	-9795
▁ᏱᎦᏕᎣᏍᎦ	-9796
▁ᏱᎾᎾᏛᏁᎭ	-9797
▁ᏱᏂᏣᏛᏁᎭ	-9798
▁ᏱᏂᏨᏁᏍᏗ	-9799
▁ᏱᏅᏧᎵᏍᏙ	-9800
▁ᏱᏍᎩᏅᎦᎸ	-9801
▁ᏱᏗᏥᏍᏓᏲ	-9802
▁ᏴᏓᎦᎶᏐᏂ	-9803
▁ᏴᏛᏂᎶᏐᏂ	-9804
ᎦᎵᏍᏓᏗᏍᏗᏱ	-9805
ᎧᎿᏩᏗᏓᏍᏗᏱ	-9806
ᎬᏫᏳᏌᏕᎨᏍᏗ	-9807
ᎵᏍᎪᎸᏗᏍᎬᎢ	-9808
ᎵᏍᏓᏴᎲᏍᎬᎢ	-9809
ᎶᎾᏍᏗᏍᎨᏍᏗ	-9810
ᏓᏙᎵᏍᏓᏁᏗᏱ	-9811
ᏧᏂᎸᏫᏍᏓᏁᎯ	-9812
▁ᎠᎦᏘᏅᏍᏗᏱ	-9813
▁ᎠᎩᎪᏩᏛᏗᏱ	-9814
▁ᎠᎩᎷᏤᎮᏍᏗ	-9815
▁ᎠᎩᏁᎢᏍᏗᏱ	-9816
▁ᎠᎩᏃᎮᏍᎬᎢ	-9817
▁ᎠᎩᏍᏕᎵᏍᎩ	-9818
▁ᎠᎩᏍᏛᏗᏍᎬ	-9819
▁ᎠᎵᏍᏕᎵᏍᎬ	-9820
▁ᎠᎵᏥᏙᎲᏍᎩ	-9821
▁ᎠᎾᏗᏍᎨᏍᏗ	-9822
▁ᎠᏂᎦᏔᎮᏍᏗ	-9823
▁ᎠᏂᎦᏔᎮᏰᏃ	-9824
▁ᎠᏂᎪᏩᏘᏍᎬ	-9825
▁ᎠᏂᏁᏄᎳᏍᏗ	-9826
▁ᎠᏂᏃᎮᏍᎬᎢ	-9827
▁ᎠᏂᏍᎦᎾᏰᏃ	-9828
▁ᎠᏂᏬᏂᏍᎬᎢ	-9829
▁ᎠᏄᎯᏍᏗᏍᎬ	-9830
▁ᎠᏆᎵᎮᎵᏍᏗ	-9831
▁ᎠᏆᎵᎮᎵᏨᎩ	-9832
▁ᎠᏆᏚᎵᏍᎬᎢ	-9833
▁ᎠᏉᎯᏳᎲᏍᎩ	-9834
▁ᎠᏍᎩᏓᏍᎬᎢ	-9835
▁ᎠᏍᎫᏕᏍᏗᏱ	-9836
▁ᎠᏓᎾᏌᎲᏍᎩ	-9837
▁ᎠᏓᏓᏱᎮᏍᏗ	-9838
▁ᎠᏛᏅᎢᏍᏔᏃ	-9839
▁ᎡᎩᏍᏕᎸᏗᏱ	-9840
▁ᎡᎾᎢᏓᏍᏗᏱ	-9841
▁ᎡᏣᎫᏴᏔᏅᎯ	-9842
▁ᎡᏥᏍᏓᏩᏕᎩ	-9843
▁ᎡᏦᎯᏳᎲᏍᎩ	-9844
▁ᎢᎡᏍᏕᎵᏌᏕ	-9845
▁ᎢᎦᎵᏍᏓᏁᏗ	-9846
▁ᎢᎦᏲᎦᏛᏁᏗ	-9847
▁ᎢᎫᏓᎴᏍᏗᏱ	-9848
▁ᎢᏣᎵᎮᎵᎬᎢ	-9849
▁ᎢᏣᏓᏁᎮᏍᏗ	-9850
▁ᎢᏣᏗᏔᏍᏗᏱ	-9851
▁ᎢᏥᎩᎵᏲᎬᎢ	-9852
▁ᎢᏥᎪᎵᏰᎥᎭ	-9853
▁ᎢᏥᎪᏩᏛᏗᏱ	-9854
▁ᎢᏥᏁᎢᏍᏗᏱ	-9855
▁ᎢᏥᏂᎬᏎᎲᎢ	-9856
▁ᎢᏥᏍᏕᎸᏗᏱ	-9857
▁ᎢᏥᏰᎸᏎᏍᏗ	-9858
▁ᎢᏥᏴᎯᎮᏍᏗ	-9859
▁ᎢᏨᏍᏓᏩᏕᏅ	-9860
▁ᎢᏨᏯᏛᏁᏗᏱ	-9861
▁ᎢᏨᏰᎳᏗᏙᎲ	-9862
▁ᎢᏯᎩᏪᏍᏗᏱ	-9863
▁ᎢᏲᎦᏛᏁᏗᏱ	-9864
▁ᎢᏳᏂᏧᏈᏍᏗ	-9865
▁ᎣᎦᏛᏅᎢᏍᏗ	-9866
▁ᎣᎩᎪᏩᏛᏗᏱ	-9867
▁ᎣᏣᏓᏙᎵᏍᏗ	-9868
▁ᎤᎬᏍᎪᎸᏁᎢ	-9869
▁ᎤᎵᎮᎵᏍᏗᏳ	-9870
▁ᎤᎵᏍᎦᏍᏙᏗ	-9871
▁ᎤᎵᏍᎪᎸᏙᏗ	-9872
▁ᎤᎵᏍᏓᏴᏗᏱ	-9873
▁ᎤᎵᏏᎾᎯᏍᏗ	-9874
▁ᎤᎾᎳᏍᏓᎡᏗ	-9875
▁ᎤᎾᎵᎮᎵᏤᎢ	-9876
▁ᎤᎾᏁᎶᏔᏅᎩ	-9877
▁ᎤᎾᏄᎪᏫᏍᏗ	-9878
▁ᎤᎾᏄᎪᏫᏎᎢ	-9879
▁ᎤᎾᏓᏁᏟᏴᏒ	-9880
▁ᎤᎾᏓᏅᎦᎸᏛ	-9881
▁ᎤᎾᏓᏅᏓᏕᎢ	-9882
▁ᎤᎾᏚᎵᏍᎬᎩ	-9883
▁ᎤᎾᏛᏅᎢᏍᏗ	-9884
▁ᎤᏂᎪᎵᏰᏗᏱ	-9885
▁ᎤᏂᎸᏉᏔᏅᎩ	-9886
▁ᎤᏂᏲᏍᏙᏗᏱ	-9887
▁ᎤᏃᎯᏳᎯᏍᏛ	-9888
▁ᎤᏍᏓᏩᏛᏒᎩ	-9889
▁ᎤᏓᎪᎵᏰᏗᏱ	-9890
▁ᎤᏓᏁᏟᏴᏍᏗ	-9891
▁ᎤᏓᏙᎵᏍᏔᏁ	-9892
▁ᎤᏓᏠᏍᏔᏅᎩ	-9893
▁ᎤᏓᏩᏗᏍᏙᏛ	-9894
▁ᎤᏓᏳᏓᎴᏅᎯ	-9895
▁ᎤᏔᎳᏬᏍᎬᎢ	-9896
▁ᎤᏕᏘᏴᏌᏗᏒ	-9897
▁ᎤᏗᎴᎲᏍᎨᎢ	-9898
▁ᎤᏟᎯᏳᏍᎩᏂ	-9899
▁ᎤᏬᎯᏳᎯᏍᏛ	-9900
▁ᎤᏬᏂᎯᏍᏗᏱ	-9901
▁ᎥᎩᏍᏕᎸᏗᏱ	-9902
▁ᎦᎨᏥᏍᏕᎸᏗ	-9903
▁ᎦᎪᏗᏱᏍᎩᏂ	-9904
▁ᎦᎵᎭᏉᏍᎩᏂ	-9905
▁ᎦᎵᏍᏕᎵᏍᎬ	-9906
▁ᎦᎸᏉᏗᏳᏰᏃ	-9907
▁ᎦᎾᏄᎪᏫᏍᎪ	-9908
▁ᎦᏟᏏᏍᎨᏍᏗ	-9909
▁ᎦᏰᏧᎢᏍᏙᏗ	-9910
▁ᎨᏥᏲᎵᏍᏗᏱ	-9911
▁ᎩᎶᏍᎩᏂᏃᏅ	-9912
▁ᎬᏂᎨᏒᏍᎩᏂ	-9913
▁ᎬᏩᏍᏚᎢᏍᏗ	-9914
▁ᎬᏩᏡᏗᏍᎬᎢ	-9915
▁ᎬᏭᎯᏍᏗᏍᎩ	-9916
▁ᎭᎵᏍᏓᏴᎲᎦ	-9917
▁ᎯᏍᏓᏩᏗᏙᎯ	-9918
▁ᎾᏂᎦᏔᎿᎥᎾ	-9919
▁ᎾᏍᎩᏉᏍᎩᏂ	-9920
▁ᎾᏓᎴᏂᏍᎬᎾ	-9921
▁ᏂᎦᎥᏉᏍᎩᏂ	-9922
▁ᏂᎦᎵᏍᏗᏍᎬ	-9923
▁ᏂᎦᏪᏎᎮᏍᏗ	-9924
▁ᏂᏓᏓᏂᎸᎬᎾ	-9925
▁ᏂᏓᏕᏘᏴᎯᏒ	-9926
▁ᏂᏗᏥᎾᏝᎥᎾ	-9927
▁ᏂᏚᎩᏨᏂᏒᏃ	-9928
▁ᏂᏚᎸᏫᏍᏓᏁ	-9929
▁ᏂᏚᎾᏑᎴᎲᎾ	-9930
▁ᏂᏚᏂᏪᏎᎴᎢ	-9931
▁ᏂᏣᎵᏍᏔᏅᎩ	-9932
▁ᏂᏣᏠᎾᏍᏛᎾ	-9933
▁ᏂᏥᎦᏔᎲᎾᏉ	-9934
▁ᏂᏥᎾᏰᏍᎬᎾ	-9935
▁ᏄᎾᏰᎯᏍᏛᎾ	-9936
▁ᏅᎩᏗᎦᏅᏌᏗ	-9937
▁ᏅᏓᎨᏥᏅᏏᏛ	-9938
▁ᏅᏓᎬᏓᎴᏅᏛ	-9939
▁ᏅᏩᏙᎯᏯᏛᏉ	-9940
▁ᏍᎩᏍᏓᏩᏕᎩ	-9941
▁ᏍᎩᏲᎢᏳᎲᎦ	-9942
▁ᏐᎣᏁᎳᏍᎪᎯ	-9943
▁ᏑᏟᎶᏛᏉᏰᏃ	-9944
▁ᏓᎦᎾᏄᎪᏫᏏ	-9945
▁ᏓᎾᎴᎯᏌᏅᎭ	-9946
▁ᏓᎾᏓᏅᏖᏍᎬ	-9947
▁ᏓᎾᏗᏔᏍᎨᎢ	-9948
▁ᏓᏍᏕᎵᏍᎬᎩ	-9949
▁ᏓᏕᏲᎲᏍᎨᎢ	-9950
▁ᏓᏰᏍᏗᏩᏛᎯ	-9951
▁ᏓᏳᏂᏄᎪᏨᎩ	-9952
▁ᏕᎦᏄᎪᏫᏍᎦ	-9953
▁ᏕᎦᏅᎿᏩᏗᏒ	-9954
▁ᏕᎦᏚᏓᏕᏫᏒ	-9955
▁ᏕᎪᏢᏩᏗᏒᎢ	-9956
▁ᏕᏣᏂᏴᏎᏍᏗ	-9957
▁ᏕᏣᏓᏅᏖᏍᏗ	-9958
▁ᏗᎦᎦᏥᏅᏬᏗ	-9959
▁ᏗᎦᎴᏴᏍᏙᏗ	-9960
▁ᏗᎦᎾᎯᏍᏙᏗ	-9961
▁ᏗᎧᏃᎩᏍᏗᏱ	-9962
▁ᏗᎨᎦᏬᏍᏗᏱ	-9963
▁ᏗᎬᏩᏂᎾᏝᎢ	-9964
▁ᏗᎬᏩᏍᏕᎸᏗ	-9965
▁ᏗᎵᏍᎪᎸᏙᏗ	-9966
▁ᏗᎾᏁᏍᎨᏍᎩ	-9967
▁ᏗᎾᏓᏘᏂᏙᎯ	-9968
▁ᏗᏂᏁᏟᏴᏍᎩ	-9969
▁ᏗᏔᎳᏗᏍᏗᏱ	-9970
▁ᏗᏣᏓᏂᎸᏨᎯ	-9971
▁ᏗᏥᏥᏃᎯᏍᏓ	-9972
▁ᏙᏓᏥᏯᎴᏔᏂ	-9973
▁ᏙᏛᎠᎴᎯᏌᏂ	-9974
▁ᏚᎵᏥᏙᏁᎴᎢ	-9975
▁ᏚᎸᏫᏍᏓᏁᎮ	-9976
▁ᏚᏰᎵᏏᏙᎴᎢ	-9977
▁ᏥᏂᎦᏪᏍᎬᎩ	-9978
▁ᏥᏂᎨᏥᏪᏎᎴ	-9979
▁ᏥᏄᎵᏍᏔᏁᎢ	-9980
▁ᏥᏅᏏᏓᏍᏗᏃ	-9981
▁ᏥᏍᏚᏂᎩᏍᏗ	-9982
▁ᏥᏓᏓᏂᎸᎪᎢ	-9983
▁ᏥᏚᎸᏫᏍᏓᏁ	-9984
▁ᏥᏚᏍᏆᏃᏴᎪ	-9985
▁ᏥᏫᏗᎨᎦᏘᏅ	-9986
▁ᏥᏯᎵᎡᎵᏤᎰ	-9987
▁ᏧᎾᏓᎴᏅᏛᏃ	-9988
▁ᏧᏂᏢᎩᏍᎩᏂ	-9989
▁ᏧᏂᏲᎱᎯᏍᏗ	-9990
▁ᏧᏃᏕᏍᏗᏍᎩ	-9991
▁ᏧᏓᎴᏅᏔᏅᎯ	-9992
▁ᏧᏭᎪᏓᏁᏗᏱ	-9993
▁ᏭᎦᏔᎲᏍᏔᏅ	-9994
▁ᏭᏍᏗᏥᎯᏍᏗ	-9995
▁ᏭᏘᏅᏍᏔᏁᎢ	-9996
▁ᏱᎡᏦᎢᏳᏁᎢ	-9997
▁ᏱᎦᏥᎪᎥᏍᎦ	-9998
▁ᏱᏂᎦᎵᏍᏗᎭ	-9999
▁ᏱᏂᏣᏍᏕᏍᏗ	-10000
▁ᏱᏗᏥᏯᏅᎯᎸ	-10001
▁ᏱᏥᏩᏘᏍᎪᎢ	-10002
▁ᏱᏨᏰᎳᏗᏙᎭ	-10003
▁ᏱᏨᏲᏪᎳᏁᎭ	-10004
▁ᏴᎨᏦᎯᏳᎲᎦ	-10005
▁ᏴᏗᏓᎴᎲᏍᎦ	-10006
ᎩᎵᏲᎢᏍᏗᏍᎬᎢ	-10007
ᎩᎵᏲᎢᏍᏗᏍᎬᎩ	-10008
ᎵᏍᎪᎸᏗᏍᎨᏍᏗ	-10009
▁ᎠᎦᏔᏙᎥᏗᏍᎩ	-10010
▁ᎠᎦᏠᏯᏍᏔᏅᎩ	-10011
▁ᎠᎩᏍᏆᏗᏍᏗᏱ	-10012
▁ᎠᎩᏍᏓᏩᏗᏙᎯ	-10013
▁ᎠᎩᏍᏛᏗᏍᎬᎢ	-10014
▁ᎠᎩᏬᏂᎯᏍᏗᏱ	-10015
▁ᎠᎩᏲᎱᎯᏍᏗᏱ	-10016
▁ᎠᎪᎵᏰᏍᎨᏍᏗ	-10017
▁ᎠᎫᎢᏍᏗᏍᎬᎢ	-10018
▁ᎠᎵᏍᎪᎸᏓᏁᏗ	-10019
▁ᎠᎵᏍᏓᏴᎲᏍᎩ	-10020
▁ᎠᎾᎵᏍᏓᏴᏂᏙ	-10021
▁ᎠᎾᎵᏥᏙᎲᏍᎦ	-10022
▁ᎠᎾᎵᏥᏙᎲᏍᎩ	-10023
▁ᎠᏂᏆᎵᏏᏍᎩᏂ	-10024
▁ᎠᏂᏍᎦᎾᏍᎩᏂ	-10025
▁ᎠᏂᏔᏲᎯᎮᏍᏗ	-10026
▁ᎠᏄᎯᏍᏗᏍᎬᎢ	-10027
▁ᎠᏆᎴᏂᏓᏍᏗᏱ	-10028
▁ᎠᏆᏓᏅᏔᏩᏕᎬ	-10029
▁ᎠᏍᏆᏂᎪᏗᏍᎩ	-10030
▁ᎠᏓᏅᏓᏗᏍᏗᏱ	-10031
▁ᎠᏛᏅᎢᏍᏔᏅᎯ	-10032
▁ᎠᏥᎦᏘᏗᏍᏗᏱ	-10033
▁ᎡᏓᎵᏍᎦᏍᏙᏛ	-10034
▁ᎡᏥᎦᏙᎥᏒᏰᏃ	-10035
▁ᎢᎬᏬᎯᏳᎲᏍᎦ	-10036
▁ᎢᏣᎴᏂᏓᏍᏗᏱ	-10037
▁ᎢᏣᎵᏏᎾᎯᏍᏗ	-10038
▁ᎢᏣᏅᏓᏗᏍᏗᏱ	-10039
▁ᎢᏣᏟᏂᎬᏁᏗᏱ	-10040
▁ᎢᏥᏂᏆᏘᎮᏍᏗ	-10041
▁ᎢᏥᏔᏲᎯᎮᏍᏗ	-10042
▁ᎢᏨᏁᎢᏍᏗᏍᎬ	-10043
▁ᎢᏨᏰᎵᏎᎮᏍᏗ	-10044
▁ᎢᏯᏆᎵᏍᏓᏁᏗ	-10045
▁ᎢᏳᎵᏍᏓᏁᏗᏱ	-10046
▁ᎣᎦᎵᏍᏓᏴᏗᏱ	-10047
▁ᎤᎦᏛᎴᎯᏍᏗᏱ	-10048
▁ᎤᎵᏂᎩᏗᏳᏰᏃ	-10049
▁ᎤᎵᏍᎪᎸᏙᏗᏱ	-10050
▁ᎤᎵᏍᏆᏗᏍᏗᏱ	-10051
▁ᎤᎾᎳᏅᎯᏍᎩᏂ	-10052
▁ᎤᎾᎵᏍᏓᏴᏅᎩ	-10053
▁ᎤᎾᏓᏅᏔᏩᏕᎩ	-10054
▁ᎤᎾᏓᏅᏘᏍᎩᏂ	-10055
▁ᎤᎾᏕᎶᏆᏍᏗᏱ	-10056
▁ᎤᎾᏚᎸᏅᎥᏍᎬ	-10057
▁ᎤᏁᏄᎳᏍᏔᏁᎢ	-10058
▁ᎤᏂᏬᏂᎯᏍᏗᏱ	-10059
▁ᎤᏍᏆᎸᎯᏗᏒᎩ	-10060
▁ᎤᏍᏆᏂᎪᏔᏁᎢ	-10061
▁ᎤᏓᏙᎵᏍᏔᏅᎩ	-10062
▁ᎤᏛᏂᏗᏍᏕᏍᏗ	-10063
▁ᎤᏰᎶᎢᏍᏔᏁᏃ	-10064
▁ᎦᏓᏅᏖᏍᎬᏰᏃ	-10065
▁ᎦᏓᏙᎵᏍᏗᏍᎬ	-10066
▁ᎦᏰᏣᎵᎡᎵᏤᏗ	-10067
▁ᎨᏤᎳᏗᏙᎮᏍᏗ	-10068
▁ᎩᎦᎨᎠᏗᏔᏍᏗ	-10069
▁ᎬᏩᎦᏘᏯᏍᎩᏂ	-10070
▁ᎬᏩᏓᏁᏟᏴᏍᏗ	-10071
▁ᎾᏍᎩᏯᏉᏍᎩᏂ	-10072
▁ᎾᏥᎤᏍᏕᏎᎸᎾ	-10073
▁ᏂᎬᏩᏂᏪᏎᎴᎢ	-10074
▁ᏂᏗᏣᏓᏂᎸᎬᎾ	-10075
▁ᏂᏣᏛᎿᏕᎨᏍᏗ	-10076
▁ᏄᎾᏓᏁᏟᏴᏎᎢ	-10077
▁ᏍᎩᏍᏓᏩᏕᏒᎭ	-10078
▁ᏍᎩᏍᏓᏩᏗᏙᎯ	-10079
▁ᏓᎩᎸᏫᏍᏓᏁᎸ	-10080
▁ᏓᎬᏍᏓᏩᏗᏙᎵ	-10081
▁ᏓᎾᏓᏅᏖᏍᎬᎢ	-10082
▁ᏓᏓᏬᏍᏗᏍᎬᎩ	-10083
▁ᏓᏕᏲᎲᏍᎨᏍᏗ	-10084
▁ᏓᏟᎶᏍᏗᏍᎬᎢ	-10085
▁ᏕᎩᎸᏫᏍᏓᏁᎲ	-10086
▁ᏕᎬᏩᏘᏃᎮᎴᎢ	-10087
▁ᏕᎭᏕᏲᎲᏍᎬᎢ	-10088
▁ᏕᏥᎧᎿᏩᏗᏒᎢ	-10089
▁ᏕᏥᏅᏫᏍᎨᏍᏗ	-10090
▁ᏗᎩᎸᏫᏍᏓᏁᎯ	-10091
▁ᏗᎬᏩᎾᏛᎪᏙᏗ	-10092
▁ᏗᏓᏙᎵᏍᏓᏁᏗ	-10093
▁ᏗᏓᏙᏪᏙᎥᏍᏗ	-10094
▁ᏗᏥᎸᏫᏍᏓᏁᎯ	-10095
▁ᏙᎩᎸᏫᏍᏓᏁᎲ	-10096
▁ᏙᏓᎨᏥᏲᎯᏎᎵ	-10097
▁ᏙᏓᏰᏣᏬᏍᏔᏂ	-10098
▁ᏚᎸᏫᏍᏓᏁᎰᎢ	-10099
▁ᏚᎸᏫᏍᏓᏁᎲᎩ	-10100
▁ᏚᏟᎶᏍᏓᏁᎴᏃ	-10101
▁ᏥᏓᎾᏕᏲᎲᏍᎦ	-10102
▁ᏧᎾᎳᏏᏕᏄᎶᏗ	-10103
▁ᏧᎾᏚᎪᏓᏁᏗᏱ	-10104
▁ᏧᏂᎧᎿᏩᏛᏍᏗ	-10105
▁ᏧᏂᎸᏫᏍᏓᏁᏗ	-10106
▁ᏧᏂᏄᎪᏫᏍᏗᏱ	-10107
▁ᏧᏂᏲᎱᎯᏍᏗᏱ	-10108
▁ᏫᏚᎾᏘᏃᎮᎸᎩ	-10109
▁ᏫᏨᏲᏪᎳᏁᏗᏱ	-10110
▁ᏱᏅᏓᎦᎵᏍᏙᏓ	-10111
▁ᏱᏍᎩᏲᎢᏳᏁᎢ	-10112
▁ᏱᏚᏓᏌᏝᎮᏍᏗ	-10113
▁ᎠᎾᎵᏍᏓᏴᎲᏍᎩ	-10114
▁ᎠᎾᎵᏍᏓᏴᎲᏍᎬ	-10115
▁ᎠᎾᏙᎴᎰᏍᎨᏍᏗ	-10116
▁ᎠᏂᏐᏢᎢᏍᏗᏍᎩ	-10117
▁ᎠᏆᏙᎴᎰᎯᏍᏗᏱ	-10118
▁ᎠᏐᏢᎢᏍᏗᏍᎬᎢ	-10119
▁ᎠᏓᏅᏬᎯᏍᏗᏍᎩ	-10120
▁ᎡᏥᎸᏉᏗᏍᎨᏍᏗ	-10121
▁ᎢᎦᏚᏓᎴᏍᏙᏗᏱ	-10122
▁ᎢᏣᎦᏌᏯᏍᏕᏍᏗ	-10123
▁ᎢᏣᏓᏅᏓᏗᏍᏗᏱ	-10124
▁ᎢᏥᎩᎵᏲᎢᏍᏗᏱ	-10125
▁ᎢᏥᏍᏆᏂᎪᏙᏗᏱ	-10126
▁ᎢᏦᎯᏳᎲᏍᎨᏍᏗ	-10127
▁ᎢᏨᏰᎳᏗᏙᎮᏍᏗ	-10128
▁ᎤᎾᏓᏙᎵᏍᏙᏗᏱ	-10129
▁ᎤᏁᎳᏅᎯᏉᏍᎩᏂ	-10130
▁ᎤᏂᏍᏆᏂᎪᏙᏗᏱ	-10131
▁ᎤᏂᏐᏢᎢᏍᏔᏅᎩ	-10132
▁ᎤᏂᏴᏔᏂᎯᏍᏗᏱ	-10133
▁ᎤᏓᏙᎵᏍᏔᏅᏎᎢ	-10134
▁ᎧᏁᎢᏍᏗᏍᎨᏍᏗ	-10135
▁ᎨᏣᎦᏌᏯᏍᏗᏕᎩ	-10136
▁ᎨᏥᏚᎢᏍᏓᏁᎸᎯ	-10137
▁ᎬᏩᎾᏙᎴᎰᎯᏍᏗ	-10138
▁ᏂᏓᏂᎧᎿᏩᏕᎬᎾ	-10139
▁ᏂᏥᏲᎯᏍᏗᏍᎬᎾ	-10140
▁ᏅᏛᎩᏅᏏᏛᏍᎩᏂ	-10141
▁ᏅᏩᏍᏗᏗᏎᏍᏗᏉ	-10142
▁ᏍᎩᏯᏅᏓᏗᏍᎬᎢ	-10143
▁ᏓᎩᎸᏫᏍᏓᏁᎲᎢ	-10144
▁ᏓᎪᏄᎶᏏᏙᎮᏍᏗ	-10145
▁ᏓᎵᏖᎸᏂᏙᎮᏍᏗ	-10146
▁ᏓᏂᎶᏄᎮᏍᎨᏍᏗ	-10147
▁ᏓᏛᎯᏍᏓᏁᎮᏍᏗ	-10148
▁ᏓᏣᏛᏅᎢᏍᏓᏁᎵ	-10149
▁ᏕᎦᎸᏫᏍᏓᏁᎸᎢ	-10150
▁ᏗᎬᏩᎸᏫᏍᏓᏁᏗ	-10151
▁ᏗᎾᏓᏙᏕᏍᏗᏍᎩ	-10152
▁ᏙᏓᏳᎸᏫᏍᏓᏁᎵ	-10153
▁ᏧᏂᎧᎿᏩᏛᏍᏗᏱ	-10154
▁ᏱᏍᎩᏰᎵᏎᎮᏍᏗ	-10155
▁ᏱᏓᎾᏕᏒᎲᏍᎪᎢ	-10156
▁ᏱᏗᏥᏍᎦᎢᎮᏍᏗ	-10157
▁ᏱᏙᎦᎸᏫᏍᏓᏁᎴ	-10158
▁ᏱᏙᎬᏩᎸᏫᏍᏓᏏ	-10159
▁ᏱᏣᏁᎢᏍᏔᏁᏍᏗ	-10160
▁ᎠᎾᎵᏍᏓᏴᎲᏍᎬᎢ	-10161
▁ᎠᎾᎵᏍᏓᏴᎲᏍᎬᏃ	-10162
▁ᎠᏂᎷᎯᏍᏗᏍᎨᏍᏗ	-10163
▁ᎠᏍᏆᏂᎪᏗᏍᎨᏍᏗ	-10164
▁ᎢᏍᎩᎪᏩᏘᏍᎨᏍᏗ	-10165
▁ᎤᎾᏣᏪᏐᎸᏍᏙᏗᏱ	-10166
▁ᎤᏓᎦᎵᏍᏙᏗᏍᎬᎩ	-10167
▁ᎭᏓᎦᏖᏙᎢᏍᎨᏍᏗ	-10168
▁ᏂᎦᎵᏍᏔᏂᏙᎮᏍᏗ	-10169
▁ᏂᏓᎩᎸᏫᏍᏓᏁᎲᎾ	-10170
▁ᏅᏗᎦᎵᏍᏙᏗᏍᎨᎢ	-10171
▁ᏅᏗᎦᎵᏍᏙᏗᏍᎪᎢ	-10172
▁ᏓᎾᎵᏍᏓᏴᎲᏍᎨᎢ	-10173
▁ᏓᏂᎳᏍᏓᎳᏩᏗᏒᎢ	-10174
▁ᏕᏣᎸᏫᏍᏓᏁᎮᏍᏗ	-10175
▁ᏕᏥᏅᎪᎥᏗᏍᎨᏍᏗ	-10176
▁ᏗᎬᏩᎾᏓᏂᎸᎢᏍᏗ	-10177
▁ᏗᏣᎵᏂᎪᎯᏍᏙᏗᏱ	-10178
▁ᏙᏗᎾᎵᏍᏓᏴᎲᏍᎬ	-10179
▁ᏚᏂᎸᏫᏍᏓᏁᎲᏰᏃ	-10180
▁ᏱᏍᎩᎪᏩᏘᏍᎨᏍᏗ	-10181
▁ᎠᎾᏓᏙᎵᏍᏗᏍᎨᏍᏗ	-10182
▁ᎢᏣᎵᏍᏓᏴᏗᏍᎨᏍᏗ	-10183
▁ᎢᏨᏯᏅᏓᏗᏍᏗᏍᎬᎢ	-10184
▁ᎤᏗᎦᎵᏍᏙᏗᏍᎨᏍᏗ	-10185
▁ᎤᏛᎾᏗᎦᎳᏫᎢᏍᏗᏱ	-10186
▁ᎯᏯᏓᏙᎵᏍᏓᏁᎮᏍᏗ	-10187
▁ᏗᏂᎧᎿᏩᏗᏙᎯᏍᎩᏂ	-10188
,-	-10189
ᎬᏴ	-10190
ᏌᏏ	-10191
ᏔᏚ	-10192
,--	-10193
ᎤᏅᏃ	-10194
ᎦᎶᎢ	-10195
ᎦᎾᎯ	-10196
ᎦᏖᏃ	-10197
ᎦᏙᏃ	-10198
ᎧᎲᏏ	-10199
ᎨᏦ	-10200
ᏍᏖ	-10201
ᏮᎩ	-10202
ᏲᎠ	-10203
ᎦᏔᏛ	-10204
ᎧᎲᏒ	-10205
ᎧᎵᎵ	-10206
ᎧᏁᏉ	-10207
ᎨᏂᏃ	-10208
ᎩᎡᎭ	-10209
ᎩᎳᏩ	-10210
ᎩᎳᏫ	-10211
ᎩᎻᏃ	-10212
ᎩᏒᏗ	-10213
ᎲᏲᎵ	-10214
ᎳᎾᎶ	-10215
ᎳᏁᎸ	-10216
ᎳᏅᎭ	-10217
ᎳᏍᏢ	-10218
ᎳᏫᏤ	-10219
ᎷᎶᏤ	-10220
ᎷᏅᏗ	-10221
ᎻᏂᏯ	-10222
ᎾᎢᏳ	-10223
ᎿᎷᏒ	-10224
ᏁᏛᏉ	-10225
ᏁᏥᏱ	-10226
ᏂᎦᎥ	-10227
ᏂᎨᏂ	-10228
ᏂᎬᎦ	-10229
ᏂᏌᎲ	-10230
ᏂᏱᎭ	-10231
ᏃᎱᎩ	-10232
ᏃᎲᎵ	-10233
ᏃᏈᏏ	-10234
ᏄᎡᎵ	-10235
ᏄᎮᏛ	-10236
ᏄᏙᎬ	-10237
ᏅᏗᏉ	-10238
ᏅᏩᏅ	-10239
ᏆᏘᎸ	-10240
ᏍᏓᏝ	-10241
ᏍᏗᎸ	-10242
ᏎᎮᎴ	-10243
ᏏᏗᏒ	-10244
ᏐᎥᎦ	-10245
ᏐᎮᎯ	-10246
ᏐᏫᏏ	-10247
ᏑᎴᎭ	-10248
ᏑᎵᎭ	-10249
ᏑᎸᎦ	-10250
ᏑᏲᎢ	-10251
ᏒᎯᏃ	-10252
ᏓᏆᏛ	-10253
ᏓᏕᎸ	-10254
ᏓᏱᎦ	-10255
ᏓᏲᏒ	-10256
ᏗᏅᏎ	-10257
ᏙᎳᎻ	-10258
ᏙᏑᎴ	-10259
ᏙᏑᎵ	-10260
ᏙᏙᏱ	-10261
ᏙᏢᎾ	-10262
ᏙᏣᏁ	-10263
ᏛᎿᏗ	-10264
ᏛᏅᎾ	-10265
ᏛᏔᏂ	-10266
ᏟᏌᏁ	-10267
ᏠᎠᏏ	-10268
ᏢᎬᎩ	-10269
ᏤᎯᏃ	-10270
ᏥᏁᎦ	-10271
ᏥᏍᏝ	-10272
ᏩᏒᎬ	-10273
ᏩᏔᎵ	-10274
ᏪᎵᎯ	-10275
ᏯᎲᏃ	-10276
ᏯᏍᏜ	-10277
ᏱᏁᎳ	-10278
ᏲᎥᎭ	-10279
ᏲᎮᎢ	-10280
ᏲᏪᎶ	-10281
ᏴᎵᏎ	-10282
ᏴᏂᎵ	-10283
ᏴᏓᏘ	-10284
ᏴᏢᎾ	-10285
▁ᎤᏑ	-10286
▁ᎦᎷ	-10287
▁ᎨᏓ	-10288
▁ᎳᎹ	-10289
▁ᎵᎨ	-10290
▁ᎶᏉ	-10291
▁ᎻᎾ	-10292
▁ᏃᏒ	-10293
▁ᏒᏟ	-10294
▁ᏙᎨ	-10295
▁ᏟᎣ	-10296
▁ᏨᏧ	-10297
▁ᏯᏁ	-10298
▁ᏯᏅ	-10299
ᏥᎩ	-10300
ᎢᏐᎢ	-10301
ᎨᏳᎠ	-10302
ᏄᏬᎭ	-10303
ᏍᏚᏉ	-10304
ᏏᏙᎰ	-10305
ᏐᏅᎩ	-10306
ᏙᏔᏁ	-10307
ᏪᎶᏗ	-10308
ᏴᏛᎢ	-10309
▁ᎯᏚ	-10310
▁ᏐᎵ	-10311
▁ᏝᏉ	-10312
▁ᏯᏋ	-10313
▁ᏯᏓ	-10314
▁ᏯᏛ	-10315
▁ᏰᏦ	-10316
▁ᏳᏃ	-10317
▁ᏳᏅ	-10318
▁ᏳᏕ	-10319
▁ᏳᏴ	-10320
ᎡᏆᎭᎻ	-10321
ᎢᏅᏎᎢ	-10322
ᎦᎴᏓᏂ	-10323
ᎦᎵᏴᏒ	-10324
ᎦᎶᏍᎬ	-10325
ᎦᏃᏗᏱ	-10326
ᎦᏔᏅᏎ	-10327
ᎦᏖᏃᎯ	-10328
ᎦᏖᏃᎲ	-10329
ᎦᏙᎬᎩ	-10330
ᎦᏛᎥᎦ	-10331
ᎧᎯᏴᎩ	-10332
ᎧᎵᏨᎭ	-10333
ᎧᏃᎮᎵ	-10334
ᎧᏃᏗᏱ	-10335
ᎧᏙᏴᎩ	-10336
ᎨᏳᎭᏃ	-10337
ᎩᎳᎾᎳ	-10338
ᎩᎸᏔᏁ	-10339
ᎩᏯᏪᎦ	-10340
ᎩᏴᏍᏕ	-10341
ᎪᏅᏍᏓ	-10342
ᎪᏔᏅᎩ	-10343
ᎪᏪᎵᎯ	-10344
ᎪᏪᎸᎢ	-10345
ᎪᏪᎸᎩ	-10346
ᎫᏘᎶᏛ	-10347
ᎫᏴᎡᎯ	-10348
ᎬᏂᏳᏉ	-10349
ᎬᏲᎯᏏ	-10350
ᎭᏠᏱᎭ	-10351
ᎮᏙᎮᎢ	-10352
ᎯᏃᏁᎵ	-10353
ᎯᏍᎬᏉ	-10354
ᎯᏞᏫᏒ	-10355
ᎱᎩᏍᎬ	-10356
ᎳᏍᏙᏗ	-10357
ᎳᏐᏫᏏ	-10358
ᎳᏕᏗᏱ	-10359
ᎳᏛᏅᎾ	-10360
ᎵᏍᏔᏃ	-10361
ᎵᏏᏂᏒ	-10362
ᎵᏥᏍᏇ	-10363
ᎵᏥᏍᏈ	-10364
ᎶᏁᏗᏱ	-10365
ᎷᏤᎸᎭ	-10366
ᎾᏄᎪᏨ	-10367
ᎾᏅᏗᏱ	-10368
ᎾᏓᏛᎦ	-10369
ᎾᏗᏅᏛ	-10370
ᎾᏛᏁᎢ	-10371
ᏁᎩᏎᎢ	-10372
ᏁᏉᏤᎴ	-10373
ᏁᏏᏉᎳ	-10374
ᏁᏔᏅᎩ	-10375
ᏁᏤᎲᎢ	-10376
ᏂᏌᏅᎢ	-10377
ᏂᏌᏅᎯ	-10378
ᏅᏓᏗᏏ	-10379
ᏅᏩᏅᎯ	-10380
ᏆᏗᏅᏛ	-10381
ᏌᏆᎴᎸ	-10382
ᏍᎦᎳᏁ	-10383
ᏍᎦᏅᎬ	-10384
ᏍᏓᏗᏏ	-10385
ᏍᏓᏱᏗ	-10386
ᏍᏗᏟᏏ	-10387
ᏍᏘᏰᎦ	-10388
ᏍᏚᏁᎰ	-10389
ᏏᎾᏌᏂ	-10390
ᏏᏗᏎᎢ	-10391
ᏏᏗᏒᏃ	-10392
ᏐᎠᏒᎩ	-10393
ᏑᎴᎥᎾ	-10394
ᏑᎴᏗᏱ	-10395
ᏒᎦᎸᎢ	-10396
ᏓᏁᎲᎩ	-10397
ᏓᏄᏴᏗ	-10398
ᏓᏑᏴᎢ	-10399
ᏭᏂ	-10400
ᏴᏉ	-10401
ᎦᏅᎩ	-10402
ᎧᎸᏨ	-10403
ᎨᏣᏘ	-10404
ᏆᏂᎪ	-10405
ᏚᏒᎢ	-10406
ᏫᏂᏴ	-10407
ᏬᏔᏂ	-10408
ᏳᎯᏛ	-10409
▁ᎺᏌ	-10410
▁ᏌᎨ	-10411
▁ᏌᎴ	-10412
▁ᏔᏈ	-10413
▁ᏭᎩ	-10414
▁ᏭᏗ	-10415
ᎦᎸᎥᎦ	-10416
ᎮᏍᎬᎢ	-10417
ᎵᎮᏍᏗ	-10418
ᎶᏁᏔᏅ	-10419
ᎷᏤᎸᎯ	-10420
ᎿᏛᏁᎭ	-10421
ᏃᎯᏰᎯ	-10422
ᏓᏓᏟᏌ	-10423
ᏓᏓᏱᎦ	-10424
ᏓᏲᏎᎢ	-10425
ᏔᎴᏒᎢ	-10426
ᏔᏂᎸᎯ	-10427
ᏕᏗᏴᏛ	-10428
ᏖᎸᏅᎩ	-10429
ᏗᎦᎶᏏ	-10430
ᏗᏑᎴᏗ	-10431
ᏗᏔᎲᎭ	-10432
ᏗᏔᎲᎯ	-10433
ᏘᎿᏫᏛ	-10434
ᏘᏍᎪᎢ	-10435
ᏙᎠᏗᏒ	-10436
ᏙᎯᏳᎭ	-10437
ᏙᎳᏍᏗ	-10438
ᏙᎴᎰᏒ	-10439
ᏙᏅᎸᎢ	-10440
ᏚᏏᏁᏃ	-10441
ᏛᏁᎲᎾ	-10442
ᏛᏔᏂᎸ	-10443
ᏛᏛᎮᎸ	-10444
ᏢᎯᏐᏗ	-10445
ᏣᎦᎸᎮ	-10446
ᏣᏃᏛᎩ	-10447
ᏣᏅᏛᎩ	-10448
ᏣᏓᎢᏅ	-10449
ᏣᏓᎤᎦ	-10450
ᏧᎪᏙᏗ	-10451
ᏨᏏᏗᏒ	-10452
ᏨᏯᏍᏗ	-10453
ᏩᏂᎦᎳ	-10454
ᏩᏘᏍᎩ	-10455
ᏩᏛᎡᎮ	-10456
ᏩᏛᎡᎯ	-10457
ᏩᏛᎯᏃ	-10458
ᏩᏛᎲᎾ	-10459
ᏪᎡᎸᎩ	-10460
ᏫᏍᎬᎢ	-10461
ᏯᏁᏎᎢ	-10462
ᏯᏁᏒᏃ	-10463
ᏯᏙᎮᎯ	-10464
ᏯᏪᏐᎵ	-10465
ᏰᎸᏎᎢ	-10466
ᏰᏥᏲᏏ	-10467
ᏲᎠᏍᎦ	-10468
ᏲᎮᎸᎩ	-10469
ᏲᎮᏎᏗ	-10470
ᏴᎳᏒᎾ	-10471
▁ᎠᎨᎾ	-10472
▁ᎠᎾᏅ	-10473
▁ᎠᎾᏙ	-10474
▁ᎠᏆᎴ	-10475
▁ᎠᏆᏅ	-10476
▁ᎠᏆᏗ	-10477
▁ᎠᏉᎸ	-10478
▁ᎠᏔᎸ	-10479
▁ᎠᏜᏩ	-10480
▁ᎠᏬᎭ	-10481
▁ᎡᎦᏆ	-10482
▁ᎡᎯᏯ	-10483
▁ᎡᎵᎻ	-10484
▁ᎡᏅᎦ	-10485
▁ᎡᏓᏠ	-10486
▁ᎡᏟᏯ	-10487
▁ᎡᏥᎸ	-10488
▁ᎡᏩᏒ	-10489
▁ᎢᎠᏥ	-10490
▁ᎢᎡᎭ	-10491
▁ᎢᎤᏂ	-10492
▁ᎢᎩᏙ	-10493
▁ᎢᏁᎾ	-10494
▁ᎢᏕᎲ	-10495
▁ᎢᏤᎭ	-10496
▁ᎢᏥᏈ	-10497
▁ᎢᏯᏉ	-10498
▁ᎢᏯᏕ	-10499
ᎣᎮ	-10500
ᏳᏒ	-10501
ᎠᏰᎸ	-10502
ᎢᏍᏓ	-10503
ᎬᏂᎰ	-10504
ᏁᎵᏒ	-10505
ᏂᎳᏗ	-10506
ᏍᏆᎵ	-10507
ᏍᏕᏉ	-10508
ᏐᎢᏛ	-10509
ᏙᎢᏳ	-10510
ᏙᏁᎢ	-10511
ᏙᏓᏉ	-10512
ᏬᏂᏒ	-10513
ᏰᏍᎩ	-10514
▁ᎡᎻ	-10515
▁ᎢᎣ	-10516
▁ᎢᏫ	-10517
▁ᎧᎾ	-10518
▁ᎧᏳ	-10519
▁ᏣᏚ	-10520
ᎳᏗᏍᎩ	-10521
ᎷᏤᎸᎢ	-10522
ᏁᏍᎨᎰ	-10523
ᏅᎢᎦᏘ	-10524
ᏋᏁᎸᎯ	-10525
ᏍᎫᏕᏎ	-10526
ᏯᏔᏅᎯ	-10527
ᏲᏏᏌᏏ	-10528
▁ᎠᎬᏓ	-10529
▁ᎠᏂᎡ	-10530
▁ᎡᎻᎳ	-10531
▁ᎢᎾᎩ	-10532
▁ᎢᏗᏔ	-10533
▁ᎢᏲᎩ	-10534
▁ᎢᏲᏨ	-10535
▁ᎣᎦᏘ	-10536
▁ᎣᏤᎲ	-10537
▁ᎤᎪᏗ	-10538
▁ᎤᎵᏨ	-10539
▁ᎤᏄᎸ	-10540
▁ᎤᏄᏘ	-10541
▁ᎤᏕᎵ	-10542
▁ᎤᏚᏣ	-10543
▁ᎤᏞᎩ	-10544
▁ᎤᏟᏃ	-10545
▁ᎤᏬᎭ	-10546
▁ᎤᏬᏥ	-10547
▁ᎤᏭᏖ	-10548
▁ᎤᏰᏨ	-10549
▁ᎤᏲᏨ	-10550
▁ᎥᎤᎾ	-10551
▁ᎥᏆᎨ	-10552
▁ᎥᏆᎸ	-10553
▁ᎦᎶᏗ	-10554
▁ᎦᎸᎢ	-10555
▁ᎦᏄᎪ	-10556
▁ᎦᏄᎸ	-10557
▁ᎦᏓᏁ	-10558
▁ᎦᏙᎢ	-10559
▁ᎧᏅᏑ	-10560
▁ᎨᎳᏗ	-10561
▁ᎨᏈᎵ	-10562
▁ᎩᎵᏃ	-10563
▁ᎬᎸᏏ	-10564
▁ᎯᏁᎸ	-10565
▁ᎯᏧᏏ	-10566
▁ᎯᏫᏂ	-10567
▁ᎯᏫᏅ	-10568
▁ᎯᏴᎭ	-10569
▁ᎵᎨᎣ	-10570
▁ᎵᏏᏯ	-10571
▁ᎶᏉᎹ	-10572
▁ᎹᎹᏂ	-10573
▁ᎹᏓᏓ	-10574
▁ᎺᏌᏯ	-10575
▁ᎻᎾᏂ	-10576
▁ᎾᎡᏆ	-10577
▁ᎾᎲᎾ	-10578
▁ᎾᏐᏂ	-10579
▁ᏁᎳᏚ	-10580
▁ᏁᏍᏛ	-10581
▁ᏂᎬᏴ	-10582
▁ᏂᏙᏨ	-10583
▁ᏂᏚᏪ	-10584
▁ᏂᏚᏬ	-10585
▁ᏃᏳᎯ	-10586
▁ᏄᎳᏉ	-10587
▁ᏄᏁᎩ	-10588
▁ᏄᏁᏤ	-10589
▁ᏄᏚᏯ	-10590
▁ᏄᏬᎯ	-10591
▁ᏆᏏᏆ	-10592
▁ᏆᏟᏯ	-10593
▁ᏈᏥᏱ	-10594
▁ᏌᏗᏏ	-10595
▁ᏐᎵᎼ	-10596
▁ᏒᎦᎳ	-10597
▁ᏓᎦᏘ	-10598
▁ᏓᎾᏕ	-10599
ᎲᏉ	-10600
ᏘᏳ	-10601
ᏛᎲ	-10602
ᎦᏛᏃ	-10603
ᎶᎯᏏ	-10604
ᏎᏗᏳ	-10605
ᏙᎬᎢ	-10606
ᏠᏎᎢ	-10607
ᏠᏒᎩ	-10608
ᏩᏚᎦ	-10609
▁ᏂᏯ	-10610
▁ᏕᎱ	-10611
▁ᏭᎵ	-10612
ᏍᎩᏒᎢ	-10613
ᏑᎴᎥᎯ	-10614
ᏗᏏᏗᏢ	-10615
ᏚᏓᎸᎢ	-10616
ᏥᎪᏁᎸ	-10617
ᏩᏛᏍᏗ	-10618
▁ᎠᎦᏯ	-10619
▁ᎢᏣᏑ	-10620
▁ᎢᏣᏘ	-10621
▁ᎤᎵᎢ	-10622
▁ᎤᏂᏤ	-10623
▁ᎤᏙᎳ	-10624
▁ᎤᏪᎸ	-10625
▁ᎭᏫᏯ	-10626
▁ᏅᏗᏥ	-10627
▁ᏓᏂᎪ	-10628
▁ᏓᏂᏃ	-10629
▁ᏓᏗᏯ	-10630
▁ᏓᏨᏯ	-10631
▁ᏓᏲᎦ	-10632
▁ᏔᎵᎭ	-10633
▁ᏔᏓᎳ	-10634
▁ᏕᎨᏴ	-10635
▁ᏕᎪᏪ	-10636
▁ᏕᎬᏆ	-10637
▁ᏕᏛᏅ	-10638
▁ᏕᏥᏯ	-10639
▁ᏖᏒᎭ	-10640
▁ᏗᎦᎬ	-10641
▁ᏗᎦᎴ	-10642
▁ᏗᎫᎯ	-10643
▁ᏗᎯᎯ	-10644
▁ᏗᎵᏒ	-10645
▁ᏗᏏᎾ	-10646
▁ᏗᏗᏐ	-10647
▁ᏗᏩᎵ	-10648
▁ᏗᏯᏂ	-10649
▁ᏗᏯᏖ	-10650
▁ᏘᎯᎯ	-10651
▁ᏘᏂᏣ	-10652
▁ᏙᎩᏲ	-10653
▁ᏙᎯᏉ	-10654
▁ᏙᏧᏂ	-10655
▁ᏚᎦᎮ	-10656
▁ᏚᎧᎾ	-10657
▁ᏚᎩᎸ	-10658
▁ᏚᎩᏒ	-10659
▁ᏚᎪᏄ	-10660
▁ᏚᎿᎷ	-10661
▁ᏚᏁᎢ	-10662
▁ᏚᏂᎩ	-10663
▁ᏚᏂᏣ	-10664
▁ᏚᏌᎯ	-10665
▁ᏚᏍᏚ	-10666
▁ᏚᏕᎳ	-10667
▁ᏚᏙᏢ	-10668
▁ᏚᏠᏎ	-10669
▁ᏚᏩᏛ	-10670
▁ᏛᎠᏥ	-10671
▁ᏛᎩᏏ	-10672
▁ᏛᎵᏏ	-10673
▁ᏝᏍᏗ	-10674
▁ᏟᎣᏆ	-10675
▁ᏟᏍᏆ	-10676
▁ᏣᎵᎬ	-10677
▁ᏤᎳᏗ	-10678
▁ᏤᏏᏂ	-10679
▁ᏤᏣᏓ	-10680
▁ᏥᎥᏏ	-10681
▁ᏥᎦᎧ	-10682
▁ᏥᎬᏆ	-10683
▁ᏥᏂᏫ	-10684
▁ᏥᏙᏓ	-10685
▁ᏥᏙᏤ	-10686
▁ᏦᏏᏆ	-10687
▁ᏦᏓᎻ	-10688
▁ᏦᏤᎭ	-10689
▁ᏧᎦᏌ	-10690
▁ᏧᎩᏥ	-10691
▁ᏧᏂᏔ	-10692
▁ᏧᏂᏯ	-10693
▁ᏧᏃᏣ	-10694
▁ᏧᏈᏓ	-10695
▁ᏧᏈᏯ	-10696
▁ᏧᏩᏒ	-10697
▁ᏧᏲᎰ	-10698
▁ᏧᏴᎴ	-10699
ᎢᏗ	-10700
ᎾᏪ	-10701
ᏂᎥ	-10702
ᏕᏏ	-10703
ᏘᏛ	-10704
ᏫᏤ	-10705
ᎦᏔᏂ	-10706
ᎩᎡᎵ	-10707
ᎮᎸᎯ	-10708
ᎵᏤᎢ	-10709
ᎶᏔᏅ	-10710
ᎶᏕᎢ	-10711
ᏅᎥᎦ	-10712
ᏏᏒᎢ	-10713
ᏑᎴᎵ	-10714
ᏒᎮᎢ	-10715
ᏔᏫᏤ	-10716
ᏘᏍᏛ	-10717
ᏯᏙᎯ	-10718
ᏰᎮᎢ	-10719
▁ᏍᏉ	-10720
▁ᏚᏩ	-10721
ᎩᎡᏗᏉ	-10722
ᎫᎪᏓᏏ	-10723
ᏐᏢᏛᎢ	-10724
ᏗᎦᎶᏗ	-10725
ᏣᏛᏂᏏ	-10726
ᏩᏗᏒᎩ	-10727
ᏴᏔᏅᎯ	-10728
▁ᎠᎸᎯ	-10729
▁ᎠᏇᎭ	-10730
▁ᎡᏆᏃ	-10731
▁ᎢᎦᏓ	-10732
▁ᎤᏂᏆ	-10733
▁ᎤᏫᏎ	-10734
▁ᎦᏙᎠ	-10735
▁ᎦᏛᎩ	-10736
▁ᎪᏙᎯ	-10737
▁ᎻᏏᏱ	-10738
▁ᎾᏙᏢ	-10739
▁ᏕᏂᎵ	-10740
▁ᏚᎦᏔ	-10741
▁ᏚᏂᏄ	-10742
▁ᏚᏚᎢ	-10743
▁ᏣᏁᎫ	-10744
▁ᏨᏓᎦ	-10745
▁ᏩᏯᎥ	-10746
▁ᏩᏴᎭ	-10747
▁ᏩᏴᎯ	-10748
▁ᏫᎬᏪ	-10749
▁ᏫᏕᎨ	-10750
▁ᏭᎵᏍ	-10751
▁ᏭᎾᏗ	-10752
▁ᏭᏣᏅ	-10753
▁ᏭᏩᏂ	-10754
▁ᏮᏓᏥ	-10755
▁ᏮᏓᏳ	-10756
▁ᏯᏆᏘ	-10757
▁ᏯᏇᎵ	-10758
▁ᏰᎵᎭ	-10759
▁ᏱᎪᎯ	-10760
▁ᏱᏃᏣ	-10761
▁ᏱᏥᎭ	-10762
▁ᏱᏫᏨ	-10763
▁ᏲᎩᎪ	-10764
▁ᏳᎬᏩ	-10765
▁ᏳᏜᏅ	-10766
▁ᏳᏩᎭ	-10767
▁ᏳᏰᎸ	-10768
▁ᏳᏲᎰ	-10769
▁ᏴᎬᏛ	-10770
▁ᏴᏛᎾ	-10771
ᎡᏗᏍᎩᏂ	-10772
ᎤᏂᎶᏒᎩ	-10773
ᎦᎨᏍᏛᏱ	-10774
ᎦᎴᏅᎲᎢ	-10775
ᎦᎸᎡᎸᎯ	-10776
ᎦᎾᏩᏍᏗ	-10777
ᎦᏔᎮᏰᏃ	-10778
ᎦᏖᏃᎲᎾ	-10779
ᎦᏘᏏᏗᏢ	-10780
ᎦᏯᎷᎥᎦ	-10781
ᎧᎲᏍᎪᎢ	-10782
ᎧᎲᏍᏗᏱ	-10783
ᎧᎿᏩᏕᎪ	-10784
ᎧᎿᏩᏚᎦ	-10785
ᎨᎦᎴᏔᏂ	-10786
ᎨᎯᏙᎴᎢ	-10787
ᎩᏯᏍᏗᏱ	-10788
ᎩᏳᏍᏈᏛ	-10789
ᎪᎯᏙᎸᎯ	-10790
ᎪᎸᏍᏗᏱ	-10791
ᎪᏩᏘᏍᎨ	-10792
ᎫᎪᏓᏁᎵ	-10793
ᎫᎯᏍᏔᏂ	-10794
ᎬᏂᏐᏗᏱ	-10795
ᎬᏩᎳᏁᎢ	-10796
ᎬᏯᏓᏱᎦ	-10797
ᎯᏍᏓᏁᎸ	-10798
ᎯᏍᏗᏍᎪ	-10799
,.	-10800
ᎥᏛ	-10801
ᎨᏩ	-10802
ᎪᎣ	-10803
ᏈᎩ	-10804
ᏉᏘ	-10805
ᏌᎧ	-10806
ᏮᎢ	-10807
ᏴᏅ	-10808
ᎢᏏᎵ	-10809
ᎦᏁᎢ	-10810
ᎸᎯᏃ	-10811
ᎸᏅᎩ	-10812
ᏐᏁᎢ	-10813
ᏕᎸᏙ	-10814
ᏙᎵᏥ	-10815
ᏨᏍᏛ	-10816
▁ᏗᏜ	-10817
▁ᏱᏬ	-10818
▁ᏳᏛ	-10819
ᎪᎵᏰᎭ	-10820
ᏑᏰᏐᎢ	-10821
▁ᎢᏣᏖ	-10822
▁ᎢᏥᎶ	-10823
▁ᎣᎱᏩ	-10824
▁ᎤᎵᏓ	-10825
▁ᎤᎿᎸ	-10826
▁ᎤᏟᎯ	-10827
▁ᎥᎠᎩ	-10828
▁ᎨᏣᏁ	-10829
▁ᎬᏗᏏ	-10830
▁ᏕᎬᏯ	-10831
▁ᏕᏍᏓ	-10832
▁ᏚᎾᏁ	-10833
▁ᏚᏂᏴ	-10834
▁ᏤᎪᎾ	-10835
▁ᏦᏌᏯ	-10836
▁ᏧᏚᎩ	-10837
▁ᏱᏗᎬ	-10838
ᎢᏍᏗᏍᎪ	-10839
ᎯᏍᏗᏱᎨ	-10840
ᎯᏳᎪᏓᏁ	-10841
ᎳᏗᏍᎨᎢ	-10842
ᎳᏗᏍᎪᎢ	-10843
ᎴᏍᎨᏍᏗ	-10844
ᎵᎥᏂᎸᎩ	-10845
ᎵᎪᏁᎸᎾ	-10846
ᎵᎶᎲᏍᎦ	-10847
ᎵᏅᏫᏍᏗ	-10848
ᎵᏍᏆᏗᎯ	-10849
ᎵᏍᏓᏁᎯ	-10850
ᎵᏍᏓᏱᏗ	-10851
ᎵᏍᏗᏍᎬ	-10852
ᎵᏥᏍᏇᎢ	-10853
ᎵᏥᏙᏁᎭ	-10854
ᎶᏐᎲᏍᎩ	-10855
ᎷᎶᏤᎲᎾ	-10856
ᎷᎸᎥᏍᎩ	-10857
ᎷᏤᎵᏒᎢ	-10858
ᎸᎢᎮᏍᏗ	-10859
ᎸᏌᏓᏕᏗ	-10860
ᎾᏄᎪᎪᎢ	-10861
ᎾᏄᎪᎬᎾ	-10862
ᎾᏄᎪᏨᎯ	-10863
ᎾᏍᏗᏍᎩ	-10864
ᎾᏫᏛᎲᏃ	-10865
ᎿᏍᏕᏢᎾ	-10866
ᏁᎵᏙᎸᎢ	-10867
ᏁᏍᎨᎰᏂ	-10868
ᏂᎪᎵᏰᎠ	-10869
ᏂᏍᎨᏍᏗ	-10870
ᏂᏪᏎᏗᏱ	-10871
ᏃᎮᏍᎪᎢ	-10872
ᏃᏴᎵᏍᏛ	-10873
ᏄᎪᏤᎸᎯ	-10874
ᏄᎪᏫᏎᎵ	-10875
ᏄᎪᏫᏒᎯ	-10876
ᏅᎥᏍᎬᎢ	-10877
ᏅᏍᏓᏕᎴ	-10878
ᏅᏓᏗᏍᎪ	-10879
ᏅᏛᏅᏁᎵ	-10880
ᏋᏂᏍᏗᏱ	-10881
ᏌᎳᏓᏅᎯ	-10882
ᏌᏛᎥᏍᎦ	-10883
ᏍᎦᎦᏰᏃ	-10884
ᏍᎦᏃᎵᏳ	-10885
ᏍᎩᎥᏏᏉ	-10886
ᏍᎫᏓᏛᎢ	-10887
ᏍᏆᏂᎪᏛ	-10888
ᏍᏆᏍᎨᎢ	-10889
ᏍᏉᏑᎴᎵ	-10890
ᏍᏓᎦᎸᎢ	-10891
ᏍᏓᏁᎸᎩ	-10892
ᏍᏓᏝᎰᎢ	-10893
ᏍᏓᏩᏛᏎ	-10894
ᏍᏗᏗᏒᎩ	-10895
ᏍᏙᏗᏍᎬ	-10896
ᏍᏚᎩᎡᎸ	-10897
ᏍᏛᏴᏁᎵ	-10898
ᏍᏜᏗᏍᎩ	-10899
ᎢᎯ	-10900
ᎫᏛ	-10901
ᎲᏖ	-10902
ᎷᎨ	-10903
ᎻᎾ	-10904
ᎾᏨ	-10905
ᏓᏔ	-10906
ᏗᏅ	-10907
ᏩᏎ	-10908
ᏬᎥ	-10909
ᏰᏛ	-10910
ᎦᎵᏒ	-10911
ᎪᏍᏗ	-10912
ᎳᏗᏓ	-10913
ᏃᎯᎰ	-10914
ᏍᏆᏗ	-10915
ᏔᎳᏗ	-10916
ᏙᎬᎩ	-10917
ᏙᏗᎭ	-10918
ᏡᏔᏅ	-10919
ᏢᏍᎩ	-10920
ᏢᏛᏃ	-10921
ᏬᎥᎩ	-10922
ᏰᎵᎸ	-10923
▁ᎢᏃ	-10924
▁ᎦᏩ	-10925
▁ᎯᏆ	-10926
▁ᏂᏘ	-10927
▁ᏚᎨ	-10928
▁ᏳᏇ	-10929
ᎦᏔᎲᏛ	-10930
ᎬᎾᏛᎦ	-10931
ᎬᏂᏍᏗ	-10932
ᏃᎮᏍᎪ	-10933
ᏃᏁᎸᎯ	-10934
ᏅᏁᎸᎩ	-10935
ᏍᏓᎸᎢ	-10936
ᏓᏅᏖᎸ	-10937
ᏗᏫᏎᏗ	-10938
ᏩᏗᏒᏂ	-10939
ᏲᎵᎸᎩ	-10940
▁ᎤᏬᏁ	-10941
▁ᎤᏲᎨ	-10942
▁ᏇᎵᎩ	-10943
▁ᏭᏓᏙ	-10944
▁ᏯᎩᎪ	-10945
ᎲᏖᏍᏗᏱ	-10946
ᏃᎮᏔᏅᎢ	-10947
ᏃᎯᏴᎾᏉ	-10948
ᏅᎦᎸᎲᎾ	-10949
ᏌᎳᏓᏁᎢ	-10950
ᏓᎸᏍᏛᎢ	-10951
ᏓᏁᎭᏰᏃ	-10952
ᏓᏁᎳᏁᏗ	-10953
ᏓᏁᎶᏛᎢ	-10954
ᏓᏁᎶᏛᎾ	-10955
ᏓᏁᏟᏴᏛ	-10956
ᏓᏁᏣᏍᏚ	-10957
ᏓᏂᎸᏨᎢ	-10958
ᏓᏂᎸᏨᎾ	-10959
ᏓᏅᎦᎸᎲ	-10960
ᏓᏅᏏᏙᎯ	-10961
ᏓᏅᏓᏛᎩ	-10962
ᏓᏅᏖᎸᎢ	-10963
ᏕᎩᏍᎨᎢ	-10964
ᏕᎯᎮᏍᏗ	-10965
ᏕᏯᏔᏁᎭ	-10966
ᏕᏲᎲᏍᎪ	-10967
ᏗᏥᎦᏘᏯ	-10968
ᏗᏫᏎᎸᎩ	-10969
ᏘᏃᎮᎸᎭ	-10970
ᏙᎯᏍᏗᏱ	-10971
ᏚᎦᏓᏁᎭ	-10972
ᏚᎩᏍᏗᏱ	-10973
ᏚᎵᏍᎨᎢ	-10974
ᏚᏣᎳᏅᎭ	-10975
ᏛᎦᏁᎲᎢ	-10976
ᏛᎩᏍᎬᎢ	-10977
ᏛᎩᏍᎬᎾ	-10978
ᏛᎿᏕᎬᎢ	-10979
ᏜᏏᏛᎡᎮ	-10980
ᏜᏏᏛᎡᎯ	-10981
ᏝᎲᏍᎪᎢ	-10982
ᏝᏗᏍᏔᏂ	-10983
ᏢᏫᏎᎲᎾ	-10984
ᏤᎳᏍᏔᏂ	-10985
ᏥᏍᏠᏨᎩ	-10986
ᏩᎯᏍᏔᏁ	-10987
ᏩᏒᎢᏍᏗ	-10988
ᏪᎵᏍᎬᎢ	-10989
ᏬᏁᏗᏍᎪ	-10990
ᏮᏗᎦᎶᏏ	-10991
ᏰᎵᎯᏍᏓ	-10992
ᏰᎵᏎᏍᏗ	-10993
ᏱᎵᏙᎲᎢ	-10994
ᏲᎢᏎᎸᎩ	-10995
ᏲᏏᏍᎨᎢ	-10996
ᏲᏪᎶᏔᏂ	-10997
ᏳᎪᏓᏁᎭ	-10998
ᏳᎪᏓᏁᎯ	-10999
ᎧᏲ	-11000
ᎪᏏ	-11001
ᎳᏛ	-11002
ᏒᏏ	-11003
ᏞᏒ	-11004
ᏥᏏ	-11005
ᏨᎾ	-11006
ᏪᎴ	-11007
ᏬᏗ	-11008
ᏴᎬ	-11009
ᎦᏘᏓ	-11010
ᎷᎲᎦ	-11011
ᏁᏙᎯ	-11012
ᏒᏂᎸ	-11013
ᏔᏃᏅ	-11014
ᏟᏍᎩ	-11015
ᏯᏛᏃ	-11016
▁ᎤᏖ	-11017
▁ᎨᏧ	-11018
▁ᎬᏇ	-11019
▁ᎾᏏ	-11020
▁ᏖᎵ	-11021
▁ᏣᏌ	-11022
ᎢᏳᏁᎢ	-11023
ᏂᏪᏒᎩ	-11024
ᏎᎵᏙᏗ	-11025
ᏏᏌᏁᎴ	-11026
ᏗᏎᏍᏗ	-11027
ᏛᎦᏁᏗ	-11028
ᏣᏘᏃᎦ	-11029
ᏫᏞᏫᏒ	-11030
▁ᎠᏁᏢ	-11031
▁ᎡᎦᏃ	-11032
▁ᎡᏙᎢ	-11033
▁ᎢᎠᏓ	-11034
▁ᎤᎵᏂ	-11035
▁ᎤᎾᏌ	-11036
▁ᎤᏁᏒ	-11037
▁ᎦᎳᏍ	-11038
▁ᎧᏁᎦ	-11039
▁ᎨᎺᎵ	-11040
▁ᎾᎦᏚ	-11041
▁ᏂᏛᏁ	-11042
▁ᏄᎬᏫ	-11043
▁ᏥᎦᏔ	-11044
▁ᏧᏑᏴ	-11045
▁ᏧᏓᏘ	-11046
▁ᏱᏙᏓ	-11047
▁ᏴᎬᏂ	-11048
ᎦᏘᎸᏒᎩ	-11049
ᎸᏍᎨᏍᏗ	-11050
ᎾᏛᎪᏗᏱ	-11051
ᏃᎮᏍᎬᎩ	-11052
ᏐᏢᏗᏍᎬ	-11053
▁ᎠᎢᏎᎢ	-11054
▁ᎠᎦᎴᏗ	-11055
▁ᎠᎦᏅᏙ	-11056
▁ᎠᎦᏓᎢ	-11057
▁ᎠᎦᏙᎮ	-11058
▁ᎠᎦᏴᎵ	-11059
▁ᎠᎩᎵᏴ	-11060
▁ᎠᎩᏅᎩ	-11061
▁ᎠᎩᏍᎪ	-11062
▁ᎠᎩᏍᏚ	-11063
▁ᎠᎩᏯᎠ	-11064
▁ᎠᎩᏯᎣ	-11065
▁ᎠᎪᏢᏅ	-11066
▁ᎠᎯᏍᏗ	-11067
▁ᎠᎴᏈᏱ	-11068
▁ᎠᎾᏙᎴ	-11069
▁ᎠᎾᏤᎸ	-11070
▁ᎠᏂᎦᏘ	-11071
▁ᎠᏂᎯᎯ	-11072
▁ᎠᏂᎰᎵ	-11073
▁ᎠᏂᏁᎪ	-11074
▁ᎠᏂᏍᏓ	-11075
▁ᎠᏂᏗᏢ	-11076
▁ᎠᏂᏰᎸ	-11077
▁ᎠᏆᏓᏲ	-11078
▁ᎠᏉᎸᎢ	-11079
▁ᎠᏍᎡᏃ	-11080
▁ᎠᏐᏢᎯ	-11081
▁ᎠᏐᏴᏃ	-11082
▁ᎠᏓᏂᏆ	-11083
▁ᎠᏛᏄᏣ	-11084
▁ᎠᏢᏨᎭ	-11085
▁ᎠᏤᎷᎯ	-11086
▁ᎠᏥᏚᎬ	-11087
▁ᎠᏨᏅᎯ	-11088
▁ᎠᏬᎭᎵ	-11089
▁ᎠᏬᏎᎵ	-11090
▁ᎠᏲᏅᎵ	-11091
▁ᎡᎫᏓᎴ	-11092
▁ᎡᏂᏗᏃ	-11093
▁ᎡᏅᏍᏗ	-11094
▁ᎡᏈᏌᏃ	-11095
▁ᎡᏉᏂᏃ	-11096
▁ᎡᏏᏱᏃ	-11097
▁ᎡᏣᏄᏬ	-11098
▁ᎡᏥᏩᎯ	-11099
ᎠᏃ	-11100
ᎠᏆ	-11101
ᎭᏢ	-11102
ᎻᏱ	-11103
ᏓᎦ	-11104
ᏓᏴ	-11105
ᏔᎭ	-11106
ᏙᏏ	-11107
ᏚᏂ	-11108
ᏫᏎ	-11109
ᏯᎪ	-11110
ᏴᎰ	-11111
ᎨᎦᏨ	-11112
ᎯᏳᎭ	-11113
ᎴᏗᏱ	-11114
ᎸᏒᎢ	-11115
ᏁᏒᎭ	-11116
ᏅᏛᎢ	-11117
ᏓᏅᎵ	-11118
ᏙᏓᏋ	-11119
ᏰᎸᏂ	-11120
▁ᎬᏋ	-11121
▁ᏗᎣ	-11122
▁ᏗᏳ	-11123
▁ᏚᎶ	-11124
ᏍᏙᏓᏏ	-11125
ᏚᎸᏌᏛ	-11126
ᏥᏙᎲᎢ	-11127
▁ᎠᏂᎮ	-11128
▁ᎠᏂᎯ	-11129
▁ᎡᏣᏘ	-11130
▁ᎢᏥᎵ	-11131
▁ᎤᏪᏆ	-11132
▁ᎾᎿᎤ	-11133
▁ᎾᏍᎦ	-11134
▁ᏕᎪᎩ	-11135
▁ᏗᏥᎧ	-11136
▁ᏥᏁᎢ	-11137
▁ᏧᏩᏛ	-11138
▁ᏱᎦᎯ	-11139
ᎦᏄᎪᎬᎢ	-11140
ᎦᏙᎥᏒᎾ	-11141
ᎬᏩᎳᏅᎯ	-11142
ᎳᏗᏙᎸᎢ	-11143
ᏍᎦᎶᏗᏱ	-11144
ᏍᏚᎢᎡᎸ	-11145
ᏣᎦᎸᎮᎢ	-11146
ᏯᏔᎲᏍᎩ	-11147
ᏲᎯᎮᏍᏗ	-11148
▁ᎠᎲᏍᎩ	-11149
▁ᎠᏍᎦᎢ	-11150
▁ᎢᎠᏓᏌ	-11151
▁ᎢᎤᏁᏨ	-11152
▁ᎢᎤᏪᏅ	-11153
▁ᎢᎦᎡᎯ	-11154
▁ᎢᎩᏁᎯ	-11155
▁ᎢᎬᏙᏗ	-11156
▁ᎢᏍᎩᏴ	-11157
▁ᎢᏍᎪᎾ	-11158
▁ᎢᏍᏛᏯ	-11159
▁ᎢᏗᎦᏲ	-11160
▁ᎢᏣᏍᏗ	-11161
▁ᎢᏣᏗᏒ	-11162
▁ᎢᏣᏢᏆ	-11163
▁ᎢᏤᎲᎩ	-11164
▁ᎢᏤᎳᏗ	-11165
▁ᎢᏥᎩᎬ	-11166
▁ᎢᏥᏠᏱ	-11167
▁ᎢᏥᏰᏣ	-11168
▁ᎢᏥᏲᎢ	-11169
▁ᎢᏥᏴᎭ	-11170
▁ᎢᏧᏓᎢ	-11171
▁ᎢᏨᏂᎦ	-11172
▁ᎢᏨᏰᏯ	-11173
▁ᎢᏳᏒᎯ	-11174
▁ᎣᎦᏅᏔ	-11175
▁ᎣᎦᏣᎢ	-11176
▁ᎣᎨᎲᎢ	-11177
▁ᎣᎨᏙᎸ	-11178
▁ᎣᎩᏃᎸ	-11179
▁ᎣᎬᏔᏅ	-11180
▁ᎣᎬᏙᏗ	-11181
▁ᎣᏥᏯᎥ	-11182
▁ᎣᏨᏗᎭ	-11183
▁ᎤᎩᎡᎰ	-11184
▁ᎤᎱᏍᏕ	-11185
▁ᎤᎳᏍᏚ	-11186
▁ᎤᎴᏂᎴ	-11187
▁ᎤᎵᎥᏂ	-11188
▁ᎤᎵᏍᏓ	-11189
▁ᎤᎶᎨᏛ	-11190
▁ᎤᎾᏁᎳ	-11191
▁ᎤᎾᏓᏁ	-11192
▁ᎤᎾᏙᎴ	-11193
▁ᎤᎾᏞᏛ	-11194
▁ᎤᎾᏟᎶ	-11195
▁ᎤᎾᏠᏤ	-11196
▁ᎤᏁᎳᏅ	-11197
▁ᎤᏁᎴᎢ	-11198
▁ᎤᏁᎵᏨ	-11199
ᎣᏒ	-11200
ᎪᏛ	-11201
ᎯᏏ	-11202
ᎳᏲ	-11203
ᎶᎥ	-11204
ᎻᏯ	-11205
ᏁᏲ	-11206
ᏉᎢ	-11207
ᏉᏉ	-11208
ᏢᏁ	-11209
ᏣᎸ	-11210
ᏦᏅ	-11211
ᎮᎵᎭ	-11212
ᎵᏏᏏ	-11213
ᎵᏛᎯ	-11214
ᎶᎥᏓ	-11215
ᎶᏙᏗ	-11216
ᎸᎾᏉ	-11217
ᏁᏲᏗ	-11218
ᏅᏁᎴ	-11219
ᏍᏍᏗ	-11220
ᏗᎪᎢ	-11221
ᏚᏓᏙ	-11222
ᏤᎸᎢ	-11223
▁ᏇᎵ	-11224
▁ᏚᏜ	-11225
▁ᏫᏳ	-11226
ᎦᏓᎢᏅ	-11227
ᎷᏤᎲᎢ	-11228
ᎾᎵᏛᎯ	-11229
ᏗᎴᎬᎾ	-11230
ᏲᎱᏍᎪ	-11231
▁ᎠᎩᎯ	-11232
▁ᎠᏰᎭ	-11233
▁ᎢᏔᏯ	-11234
▁ᎤᎾᏖ	-11235
▁ᎤᏓᎸ	-11236
▁ᎬᏩᏅ	-11237
▁ᎬᏬᏱ	-11238
▁ᎮᎵᎭ	-11239
▁ᏂᎯᎧ	-11240
▁ᏄᏒᎭ	-11241
▁ᏗᎤᏪ	-11242
▁ᏥᏯᎠ	-11243
▁ᏧᎷᏤ	-11244
▁ᏯᎵᎦ	-11245
▁ᏱᏅᏗ	-11246
ᎨᏣᏛᏂᏏ	-11247
ᎬᏩᏳᎪᏗ	-11248
ᏁᎢᏍᏙᏗ	-11249
ᏓᎦᏔᎰᎢ	-11250
ᏔᎳᏬᏎᎢ	-11251
▁ᎠᏥᎸᏃ	-11252
▁ᎡᎳᏗᏉ	-11253
▁ᎢᏥᏗᏱ	-11254
▁ᎤᏁᎩᏳ	-11255
▁ᎤᏁᎸᎯ	-11256
▁ᎤᏁᏅᎢ	-11257
▁ᎤᏁᏅᎭ	-11258
▁ᎤᏁᏉᏥ	-11259
▁ᎤᏁᏎᎢ	-11260
▁ᎤᏁᏙᎸ	-11261
▁ᎤᏂᎶᏎ	-11262
▁ᎤᏂᎶᏒ	-11263
▁ᎤᏂᎸᏐ	-11264
▁ᎤᏂᏁᏒ	-11265
▁ᎤᏂᏄᎯ	-11266
▁ᎤᏂᏗᏱ	-11267
▁ᎤᏂᏝᏗ	-11268
▁ᎤᏂᏣᏄ	-11269
▁ᎤᏂᏨᏅ	-11270
▁ᎤᏂᏯᏙ	-11271
▁ᎤᏂᏴᏫ	-11272
▁ᎤᏃᏔᏅ	-11273
▁ᎤᏃᏕᏅ	-11274
▁ᎤᏄᎪᎩ	-11275
▁ᎤᏅᏅᎩ	-11276
▁ᎤᏅᏘᏛ	-11277
▁ᎤᏍᎦᎴ	-11278
▁ᎤᏍᎩᏅ	-11279
▁ᎤᏍᎪᏎ	-11280
▁ᎤᏑᎵᎪ	-11281
▁ᎤᏒᎦᎸ	-11282
▁ᎤᏒᎯᏴ	-11283
▁ᎤᏒᏅᎯ	-11284
▁ᎤᏗᎴᎬ	-11285
▁ᎤᏘᏰᏗ	-11286
▁ᎤᏙᏢᏁ	-11287
▁ᎤᏚᎩᏒ	-11288
▁ᎤᏟᎠᏥ	-11289
▁ᎤᏟᏍᎪ	-11290
▁ᎤᏢᏨᎯ	-11291
▁ᎤᏩᏂᎦ	-11292
▁ᎤᏩᏛᏛ	-11293
▁ᎤᏪᎧᎲ	-11294
▁ᎤᏪᎧᏅ	-11295
▁ᎤᏪᎳᏗ	-11296
▁ᎤᏪᏒᏛ	-11297
▁ᎤᏪᏓᎵ	-11298
▁ᎤᏪᏢᏅ	-11299
ᎦᏱ	-11300
ᎬᏒ	-11301
ᎴᎭ	-11302
ᎶᏃ	-11303
ᎸᎦ	-11304
ᏓᏫ	-11305
ᏙᎣ	-11306
ᏠᎦ	-11307
ᏲᎲ	-11308
ᎦᎨᏅ	-11309
ᎦᏴᎵ	-11310
ᏍᏆᏛ	-11311
ᏍᏗᏃ	-11312
ᏑᏴᏛ	-11313
ᏕᎭᎷ	-11314
ᏟᏍᏕ	-11315
ᏠᎨᏏ	-11316
ᏢᏆᏏ	-11317
ᏢᏗᎭ	-11318
ᏫᏍᎪ	-11319
ᏴᎸᎭ	-11320
▁ᎩᏯ	-11321
▁ᎭᎹ	-11322
▁ᏕᎲ	-11323
ᎦᎸᏅᎯ	-11324
ᏍᎬᏤᏉ	-11325
ᏥᏪᏎᎵ	-11326
▁ᎢᏅᏃ	-11327
▁ᎤᎪᎯ	-11328
▁ᎤᏩᏝ	-11329
▁ᎨᏛᎢ	-11330
▁ᏫᏗᏨ	-11331
▁ᏱᎨᎪ	-11332
▁ᏱᏓᏆ	-11333
▁ᏴᏓᎦ	-11334
ᎪᎸᏔᏅᎯ	-11335
ᎵᎪᏁᎸᎩ	-11336
ᎾᏍᎩᏰᏃ	-11337
ᏂᏍᏙᏗᏱ	-11338
ᏓᏬᏍᏗᎭ	-11339
ᏤᎷᎯᏍᎩ	-11340
▁ᎢᎬᏂᏛ	-11341
▁ᎢᏣᏓᏁ	-11342
▁ᎣᏍᏛᏉ	-11343
▁ᎤᏬᎴᎢ	-11344
▁ᎤᏬᎸᎩ	-11345
▁ᎤᏬᏂᏒ	-11346
▁ᎤᏭᏖᏛ	-11347
▁ᎤᏮᏗᏱ	-11348
▁ᎤᏯᎣᎢ	-11349
▁ᎤᏯᏅᏛ	-11350
▁ᎤᏲᎸᎩ	-11351
▁ᎤᏴᎴᏃ	-11352
▁ᎤᏴᎵᎸ	-11353
▁ᎥᏍᎩᏯ	-11354
▁ᎥᏞᏰᏃ	-11355
▁ᎥᏣᏂᎩ	-11356
▁ᎦᎧᎮᎢ	-11357
▁ᎦᎨᏗᏳ	-11358
▁ᎦᏁᎲᎢ	-11359
▁ᎦᏁᏥᏱ	-11360
▁ᎦᏄᎪᏫ	-11361
▁ᎦᏅᎬᎩ	-11362
▁ᎦᏙᎨᎢ	-11363
▁ᎦᏙᎩᏯ	-11364
▁ᎦᏙᎴᎰ	-11365
▁ᎦᏩᏒᎬ	-11366
▁ᎦᏲᎵᏉ	-11367
▁ᎦᏴᏓᏘ	-11368
▁ᎧᏁᎮᏛ	-11369
▁ᎧᏁᏉᎬ	-11370
▁ᎧᏁᏉᏥ	-11371
▁ᎨᎪᏎᎯ	-11372
▁ᎨᎵᏍᎬ	-11373
▁ᎨᏆᏙᏏ	-11374
▁ᎨᏙᎲᎩ	-11375
▁ᎪᎵᎬᎩ	-11376
▁ᎪᏢᏗᏱ	-11377
▁ᎪᏢᏛᎩ	-11378
▁ᎬᎦᏔᎭ	-11379
▁ᎬᏁᎳᎩ	-11380
▁ᎬᏃᏌᏛ	-11381
▁ᎬᏔᏲᏎ	-11382
▁ᎬᏩᎪᎮ	-11383
▁ᎬᏩᎾᏎ	-11384
▁ᎬᏩᏛᏅ	-11385
▁ᎬᏰᎸᎢ	-11386
▁ᎬᏰᎸᎾ	-11387
▁ᎭᎻᏂᏯ	-11388
▁ᎮᏙᎲᎢ	-11389
▁ᎯᎦᏓᎭ	-11390
▁ᎯᎨᏳᏣ	-11391
▁ᎯᎪᎥᎯ	-11392
▁ᎯᏰᎸᎢ	-11393
▁ᎹᏓᏯᏃ	-11394
▁ᎹᏗᏓᏯ	-11395
▁ᎹᏱᎩᎵ	-11396
▁ᎺᎵᎦᏱ	-11397
▁ᎺᏌᏆᏕ	-11398
▁ᎾᎦᏔᏛ	-11399
ᎭᎸ	-11400
ᎰᎱ	-11401
ᏎᏛ	-11402
ᏏᎹ	-11403
ᏕᏥ	-11404
ᏝᎢ	-11405
ᎥᏍᎪ	-11406
ᎬᏍᎪ	-11407
ᎴᏏᏂ	-11408
ᏄᎮᎵ	-11409
ᏖᎸᎾ	-11410
ᏙᎨᎢ	-11411
ᏦᏅᎩ	-11412
ᏰᎢᎵ	-11413
ᏲᎱᏎ	-11414
ᏲᎵᏳ	-11415
ᏴᏙᏗ	-11416
▁ᎢᏆ	-11417
▁ᎤᏐ	-11418
▁ᏂᏌ	-11419
▁ᏄᎳ	-11420
▁ᏗᏞ	-11421
▁ᏥᎤ	-11422
ᎷᏥᎸᏃ	-11423
ᏍᎪᏎᎢ	-11424
ᏔᎴᏐᎢ	-11425
ᏥᏯᏅᏛ	-11426
ᏰᎯᏍᏗ	-11427
▁ᎠᎩᏆ	-11428
▁ᎠᎰᎱ	-11429
▁ᎼᎰᏩ	-11430
▁ᎼᏏᏃ	-11431
▁ᏁᏪᏒ	-11432
▁ᏘᎨᏫ	-11433
▁ᏣᏓᏁ	-11434
▁ᏥᎨᎩ	-11435
▁ᏭᏗᏢ	-11436
▁ᏳᏍᏗ	-11437
▁ᏴᏫᎯ	-11438
ᎪᏅᏍᏓᎵ	-11439
ᎾᏓᏛᏁᎭ	-11440
ᏍᏗᎦᏔᎭ	-11441
ᏓᏁᎶᏗᏉ	-11442
▁ᎠᏂᎵᏫ	-11443
▁ᎠᏂᏅᎩ	-11444
▁ᎣᏂᏏᎹ	-11445
▁ᎤᏁᎸᎩ	-11446
▁ᎤᏓᏌᎧ	-11447
▁ᎤᏩᏎᎢ	-11448
▁ᎪᎴᏏᏂ	-11449
▁ᎾᎬᏁᎲ	-11450
▁ᎾᏅᏁᎰ	-11451
▁ᎾᏋᏁᎭ	-11452
▁ᎾᏍᏓᏯ	-11453
▁ᎾᏎᎵᏘ	-11454
▁ᎾᏞᎬᏉ	-11455
▁ᎾᏯᎥᎾ	-11456
▁ᏂᎦᏛᎢ	-11457
▁ᏂᎦᏡᏗ	-11458
▁ᏂᎦᏪᎠ	-11459
▁ᏂᎬᏁᎢ	-11460
▁ᏂᎬᏁᎮ	-11461
▁ᏂᎬᏂᏌ	-11462
▁ᏂᏚᏓᎴ	-11463
▁ᏂᏴᏁᎸ	-11464
▁ᏄᎪᏒᎾ	-11465
▁ᏄᎵᏁᏨ	-11466
▁ᏄᏁᎲᎾ	-11467
▁ᏄᏅᏁᎲ	-11468
▁ᏄᏅᏁᎴ	-11469
▁ᏄᏕᏅᎾ	-11470
▁ᏄᏙᎯᏳ	-11471
▁ᏄᏛᏅᏉ	-11472
▁ᏄᏪᎡᎢ	-11473
▁ᏄᏬᎯᏨ	-11474
▁ᏅᏁᎸᎭ	-11475
▁ᏅᏋᏁᎸ	-11476
▁ᏅᏓᎪᎯ	-11477
▁ᏅᏓᏰᏥ	-11478
▁ᏅᏓᏳᎶ	-11479
▁ᏅᏗᎠᏥ	-11480
▁ᏅᏗᎬᏩ	-11481
▁ᏅᏩᏍᏗ	-11482
▁ᏆᎴᏗᏱ	-11483
▁ᏆᏏᏗᏱ	-11484
▁ᏆᏙᎳᎻ	-11485
▁ᏈᎵᏏᏃ	-11486
▁ᏈᎵᏕᎵ	-11487
▁ᏈᏗᏂᏱ	-11488
▁ᏌᎨᎢᏳ	-11489
▁ᏌᏆᏓᏂ	-11490
▁ᏌᏉᎢᏳ	-11491
▁ᏌᏉᏰᏃ	-11492
▁ᏍᎩᏩᎯ	-11493
▁ᏍᏆᏂᏱ	-11494
▁ᏐᎢᏱᏃ	-11495
▁ᏐᎵᎼᏅ	-11496
▁ᏐᏍᏗᏂ	-11497
▁ᏐᏱᏁᎳ	-11498
▁ᏒᏍᎦᏉ	-11499
,,	-11500
ᎶᏈ	-11501
ᎻᏆ	-11502
ᎼᏏ	-11503
ᏉᎴ	-11504
ᏕᏤ	-11505
ᏕᏱ	-11506
ᏦᏛ	-11507
ᏯᏗ	-11508
ᎡᎲᎾ	-11509
ᏅᎯᏉ	-11510
ᏑᏰᎭ	-11511
ᏛᎦᏏ	-11512
▁ᎨᎶ	-11513
▁ᏤᏂ	-11514
▁ᏯᎬ	-11515
▁ᏱᏁ	-11516
▁ᏳᎩ	-11517
ᎲᏍᎩᏂ	-11518
ᎳᏗᏍᎬ	-11519
ᏅᎦᎸᏛ	-11520
ᏓᏁᏤᎸ	-11521
ᏓᏙᎯᏳ	-11522
ᏲᏎᎰᎢ	-11523
▁ᎢᏨᏓ	-11524
▁ᎤᎲᎩ	-11525
▁ᎤᏂᎵ	-11526
▁ᎤᏂᏱ	-11527
▁ᎤᏓᎵ	-11528
▁ᎤᏛᎢ	-11529
▁ᎤᏫᏯ	-11530
▁ᎦᎵᎲ	-11531
▁ᏃᎯᏳ	-11532
▁ᏅᏗᎤ	-11533
▁ᏚᎾᏡ	-11534
▁ᏞᏰᏃ	-11535
▁ᏥᏍᏗ	-11536
▁ᏦᎠᎾ	-11537
▁ᏦᏑᏩ	-11538
▁ᏨᏓᎸ	-11539
ᎦᎵᏍᏓᏛ	-11540
ᎨᏳᏔᏅᎩ	-11541
ᎵᏍᏓᏁᎵ	-11542
ᏁᏍᎨᎮᎢ	-11543
ᏘᏅᏍᏗᏱ	-11544
▁ᎠᏂᏩᏛ	-11545
▁ᎠᏌᏍᏛ	-11546
▁ᎡᎳᏗᏢ	-11547
▁ᎢᏏᎳᎻ	-11548
▁ᎤᎾᏎᎵ	-11549
▁ᎤᏂᏍᏗ	-11550
▁ᏄᏁᎸᎾ	-11551
▁ᏓᎦᏔᎭ	-11552
▁ᏓᎧᏅᎢ	-11553
▁ᏓᎬᏁᎵ	-11554
▁ᏓᎬᏅᏏ	-11555
▁ᏓᎾᏏᏔ	-11556
▁ᏓᎾᏓᏱ	-11557
▁ᏓᎾᏣᏅ	-11558
▁ᏓᏆᏚᏫ	-11559
▁ᏓᏍᏆᎸ	-11560
▁ᏓᏐᏴᎢ	-11561
▁ᏓᏤᎵᏍ	-11562
▁ᏓᏤᏲᏂ	-11563
▁ᏓᏨᏁᎵ	-11564
▁ᏓᏩᏛᎯ	-11565
▁ᏓᏲᏤᏏ	-11566
▁ᏔᏘᏄᎦ	-11567
▁ᏕᎤᎷᎬ	-11568
▁ᏕᎦᎾᏰ	-11569
▁ᏕᏍᎩᏯ	-11570
▁ᏕᏨᏃᎩ	-11571
▁ᏕᏨᏅᎢ	-11572
▁ᏗᎡᎪᎢ	-11573
▁ᏗᎦᎷᏥ	-11574
▁ᏗᎦᏤᎵ	-11575
▁ᏗᎨᎪᏪ	-11576
▁ᏗᎬᏪᏘ	-11577
▁ᏗᎹᏗᏃ	-11578
▁ᏗᏂᏅᎢ	-11579
▁ᏗᏍᏛᎬ	-11580
▁ᏗᏔᎴᏒ	-11581
▁ᏗᏔᎸᎢ	-11582
▁ᏗᏕᎭᎷ	-11583
▁ᏗᏗᏲᎵ	-11584
▁ᏗᏙᎵᎩ	-11585
▁ᏗᏣᏯᏂ	-11586
▁ᏗᏤᎲᎢ	-11587
▁ᏗᏤᎵᏛ	-11588
▁ᏗᏥᏌᎳ	-11589
▁ᏗᏥᏲᎯ	-11590
▁ᏗᏥᏴᎳ	-11591
▁ᏗᏧᎪᏓ	-11592
▁ᏗᏩᎾᎨ	-11593
▁ᏙᎩᏯᏪ	-11594
▁ᏙᏓᎦᏥ	-11595
▁ᏙᏓᏨᏯ	-11596
▁ᏙᏓᏳᎦ	-11597
▁ᏙᏦᏓᎸ	-11598
▁ᏙᏧᏁᏅ	-11599
.,	-11600
ᎪᎰ	-11601
ᏈᏂ	-11602
ᏠᎥ	-11603
ᏨᏱ	-11604
ᏬᎩ	-11605
ᏴᎪ	-11606
ᎢᏎᎢ	-11607
ᎴᏒᎩ	-11608
ᏁᏁᎴ	-11609
ᏆᎵᎢ	-11610
ᏌᏅᏃ	-11611
ᏍᎦᏤ	-11612
ᏍᎨᏯ	-11613
ᏍᎩᏉ	-11614
ᏕᏨᎩ	-11615
ᏬᎸᎯ	-11616
ᏰᎵᏒ	-11617
ᏰᎸᎠ	-11618
ᏴᏫᏃ	-11619
▁ᎠᏊ	-11620
▁ᎶᏗ	-11621
▁ᏱᏯ	-11622
ᎩᏏᏐᏗ	-11623
ᎬᎾᏳᎯ	-11624
ᎵᏍᎬᎩ	-11625
ᏒᏂᏍᏗ	-11626
ᏓᎴᏎᎢ	-11627
ᏓᏗᎧᏃ	-11628
ᏱᎵᏙᎲ	-11629
▁ᎠᏯᎡ	-11630
▁ᎡᏍᎩ	-11631
▁ᎢᏗᎵ	-11632
▁ᎤᎾᏎ	-11633
▁ᎤᏬᏢ	-11634
▁ᎦᎸᎩ	-11635
▁ᏂᎬᏃ	-11636
▁ᏂᏍᏛ	-11637
▁ᏕᎬᏂ	-11638
▁ᏣᎦᏛ	-11639
▁ᏫᏍᎩ	-11640
▁ᏴᏗᎭ	-11641
ᎧᏁᏴᏗᏱ	-11642
ᎵᎥᏂᎸᎢ	-11643
ᎵᎩᏏᏕᎩ	-11644
ᎵᏍᏗᏙᏗ	-11645
ᏕᏯᏙᏔᏅ	-11646
▁ᎢᏣᏚᎸ	-11647
▁ᎢᏨᏗᏱ	-11648
▁ᎤᎴᏁᎢ	-11649
▁ᎤᏖᎸᏅ	-11650
▁ᎾᎩᏪᏒ	-11651
▁ᏃᎩᎲᎾ	-11652
▁ᏗᎦᎶᏗ	-11653
▁ᏗᎴᏁᎯ	-11654
▁ᏙᏧᏅᏎ	-11655
▁ᏚᎩᏒᎩ	-11656
▁ᏚᎪᎲᏃ	-11657
▁ᏚᎴᏁᏃ	-11658
▁ᏚᎵᏃᎮ	-11659
▁ᏚᎷᎬᎩ	-11660
▁ᏚᎾᏓᏠ	-11661
▁ᏚᎾᏕᏲ	-11662
▁ᏚᎾᏗᏫ	-11663
▁ᏚᎾᏘᏃ	-11664
▁ᏚᎾᏠᎯ	-11665
▁ᏚᏂᎪᎲ	-11666
▁ᏚᏂᏅᏅ	-11667
▁ᏚᏂᏅᏨ	-11668
▁ᏚᏂᏐᏨ	-11669
▁ᏚᏃᎸᎢ	-11670
▁ᏚᏅᏩᏁ	-11671
▁ᏚᏎᎮᎴ	-11672
▁ᏚᏑᏰᏎ	-11673
▁ᏚᏛᏛᏁ	-11674
▁ᏚᏫᏒᎢ	-11675
▁ᏚᏲᎵᎸ	-11676
▁ᏚᏲᏍᏙ	-11677
▁ᏚᏲᏨᎩ	-11678
▁ᏚᏳᎯᏛ	-11679
▁ᏛᎦᏛᎩ	-11680
▁ᏛᏂᏁᏥ	-11681
▁ᏛᏥᎵᏦ	-11682
▁ᏝᏉᏍᎪ	-11683
▁ᏠᎨᏏᏃ	-11684
▁ᏣᎢᏒᎢ	-11685
▁ᏣᎦᎵᎰ	-11686
▁ᏣᎩᎶᏁ	-11687
▁ᏣᎩᏲᎱ	-11688
▁ᏣᎾᏝᎢ	-11689
▁ᏣᏂᏃᎢ	-11690
▁ᏣᏍᎦᎩ	-11691
▁ᏣᏓᎵᎢ	-11692
▁ᏣᏓᏰᎭ	-11693
▁ᏣᏢᎨᎢ	-11694
▁ᏣᏯᎥᎢ	-11695
▁ᏤᎪᎾᏯ	-11696
▁ᏤᎵᎪᏃ	-11697
▁ᏤᏆᎳᏂ	-11698
▁ᏤᏙᎰᎢ	-11699
ᎩᎻ	-11700
ᎶᎭ	-11701
ᏂᏅ	-11702
ᏠᏥ	-11703
ᏴᏜ	-11704
ᎦᎸᎾ	-11705
ᎩᏍᏗ	-11706
ᎸᎸᎩ	-11707
ᏅᎩᎶ	-11708
ᏚᏗᏱ	-11709
ᏲᎲᎢ	-11710
▁ᎦᏱ	-11711
▁ᎨᎥ	-11712
▁ᎨᎯ	-11713
▁ᎨᏌ	-11714
▁ᎨᏍ	-11715
▁ᎨᏛ	-11716
▁ᎨᏩ	-11717
▁ᎬᏪ	-11718
▁ᏂᎭ	-11719
▁ᏗᏬ	-11720
▁ᏣᏕ	-11721
▁ᏥᏡ	-11722
▁ᏥᏦ	-11723
▁ᏥᏴ	-11724
ᎳᏏᏅᎩ	-11725
ᏑᏰᏎᎢ	-11726
ᏓᏅᏖᏛ	-11727
ᏜᏏᏛᎭ	-11728
ᏢᏅᏅᎯ	-11729
ᏱᎶᎴᎢ	-11730
▁ᎠᎩᎶ	-11731
▁ᎡᏓᎵ	-11732
▁ᎢᎶᎢ	-11733
▁ᎢᏥᏛ	-11734
▁ᎤᏓᏲ	-11735
▁ᎥᎴᏃ	-11736
▁ᎨᏒᎯ	-11737
▁ᎪᏢᎭ	-11738
▁ᎷᏏᏯ	-11739
▁ᏅᏗᏂ	-11740
▁ᏣᏂᏏ	-11741
▁ᏥᏡᎦ	-11742
▁ᏧᏛᏂ	-11743
▁ᏭᎪᎯ	-11744
▁ᏭᏂᏃ	-11745
ᎵᏍᎪᎸᏓ	-11746
ᎷᎯᏍᏔᏅ	-11747
ᎾᏛᏔᏅᎯ	-11748
ᏍᎦᏅᏤᎸ	-11749
ᏠᎯᏍᏗᏱ	-11750
▁ᎢᏨᏒᏃ	-11751
▁ᎤᏴᎸᎯ	-11752
▁ᏕᏥᎳᏫ	-11753
▁ᏣᏓᎦᏌ	-11754
▁ᏥᎦᎧᎭ	-11755
▁ᏥᎦᎷᎪ	-11756
▁ᏥᎦᏃᎢ	-11757
▁ᏥᎦᏔᎯ	-11758
▁ᏥᎦᏔᎲ	-11759
▁ᏥᎦᏙᎦ	-11760
▁ᏥᎦᏰᏥ	-11761
▁ᏥᎧᏁᎦ	-11762
▁ᏥᎪᏎᎭ	-11763
▁ᏥᎪᏪᎴ	-11764
▁ᏥᎯᎳᏓ	-11765
▁ᏥᎷᏨᎭ	-11766
▁ᏥᎾᏋᎦ	-11767
▁ᏥᏂᏕᏣ	-11768
▁ᏥᏂᏣᏓ	-11769
▁ᏥᏌᎯᎠ	-11770
▁ᏥᏍᎫᏕ	-11771
▁ᏥᏍᏓᏱ	-11772
▁ᏥᏍᏕᎾ	-11773
▁ᏥᏓᎦᎴ	-11774
▁ᏥᏚᏙᎠ	-11775
▁ᏥᏚᏲᏎ	-11776
▁ᏥᏣᏯᎠ	-11777
▁ᏥᏨᏂᎦ	-11778
▁ᏥᏰᎸᏅ	-11779
▁ᏦᎢᎭᏃ	-11780
▁ᏦᎩᏁᎸ	-11781
▁ᏦᎯᏳᎭ	-11782
▁ᏦᎾᏰᏃ	-11783
▁ᏦᏤᏙᎭ	-11784
▁ᏦᏥᏚᎩ	-11785
▁ᏦᏨᏃᏛ	-11786
▁ᏧᎦᏄᏓ	-11787
▁ᏧᎧᎸᏨ	-11788
▁ᏧᎬᏩᎴ	-11789
▁ᏧᎴᏅᎯ	-11790
▁ᏧᎵᏰᏁ	-11791
▁ᏧᎶᏎᎢ	-11792
▁ᏧᎸᏌᏛ	-11793
▁ᏧᎾᏓᎵ	-11794
▁ᏧᏂᎶᏒ	-11795
▁ᏧᏂᎸᎩ	-11796
▁ᏧᏂᎸᎯ	-11797
▁ᏧᏍᏚᎢ	-11798
▁ᏧᏏᏕᎾ	-11799
ᎡᎩ	-11800
ᏖᏂ	-11801
ᏰᎳ	-11802
ᏱᎴ	-11803
ᏇᏅᎯ	-11804
ᏎᎮᏗ	-11805
ᏐᏅᏂ	-11806
ᏲᏒᎢ	-11807
ᏳᏤᏗ	-11808
ᏴᏔᏁ	-11809
▁ᎥᎯ	-11810
▁ᎥᎴ	-11811
▁ᎥᏇ	-11812
▁ᎬᏛ	-11813
▁ᎾᏄ	-11814
▁ᏚᎯ	-11815
▁ᏧᎯ	-11816
▁ᏧᏚ	-11817
▁ᏱᎫ	-11818
▁ᏱᏮ	-11819
ᎡᎨᏍᏗ	-11820
ᏐᏫᏍᏗ	-11821
ᏙᏍᏛᎢ	-11822
ᏛᏳᏤᏗ	-11823
ᏴᎵᎸᏃ	-11824
▁ᎠᎨᎳ	-11825
▁ᎡᎩᏂ	-11826
▁ᎢᎨᏐ	-11827
▁ᎤᏁᏗ	-11828
▁ᎤᏗᏱ	-11829
▁ᎤᏢᎨ	-11830
▁ᎰᏩᏉ	-11831
▁ᎾᎾᏛ	-11832
▁ᏂᏓᏁ	-11833
▁ᏟᏗᏱ	-11834
▁ᏥᎰᎵ	-11835
▁ᏥᏕᎨ	-11836
▁ᏧᏴᏫ	-11837
▁ᏱᏚᏪ	-11838
ᏂᏪᏍᎨᎢ	-11839
ᏍᏛᏗᏍᎨ	-11840
ᏥᏯᏛᏁᎵ	-11841
ᏬᏁᏗᏍᎩ	-11842
▁ᎠᏆᏎᎮ	-11843
▁ᎠᏎᏉᏃ	-11844
▁ᎠᏐᏴᎢ	-11845
▁ᎠᏯᏖᏂ	-11846
▁ᎢᏣᎫᏴ	-11847
▁ᎢᏥᏧᏏ	-11848
▁ᎤᎵᏌᎳ	-11849
▁ᎤᎸᎲᎩ	-11850
▁ᎤᏂᏲᎵ	-11851
▁ᎤᏪᏥᏃ	-11852
▁ᎤᏬᏪᎳ	-11853
▁ᏂᎬᏅᎩ	-11854
▁ᏂᏓᏁᏢ	-11855
▁ᏍᎩᎲᏏ	-11856
▁ᏔᎳᏚᏉ	-11857
▁ᏗᎵᏍᏗ	-11858
▁ᏥᏙᎬᎢ	-11859
▁ᏧᏐᎢᏛ	-11860
▁ᏧᏑᏴᏁ	-11861
▁ᏧᏓᎴᏁ	-11862
▁ᏧᏕᏁᎢ	-11863
▁ᏧᏕᏘᏴ	-11864
▁ᏧᏛᏎᎢ	-11865
▁ᏧᏝᏁᎢ	-11866
▁ᏧᏢᏫᏛ	-11867
▁ᏧᏥᎸᎯ	-11868
▁ᏧᏪᏰᏂ	-11869
▁ᏧᏰᎸᏎ	-11870
▁ᏧᏲᎱᏒ	-11871
▁ᏧᏲᏍᎩ	-11872
▁ᏨᎩᏅᏒ	-11873
▁ᏩᎩᏴᏏ	-11874
▁ᏩᏂᎶᎯ	-11875
▁ᏩᏂᏴᎯ	-11876
▁ᏪᏣᏚᎦ	-11877
▁ᏫᎣᎨᏅ	-11878
▁ᏫᎦᏅᏅ	-11879
▁ᏫᎦᏲᎩ	-11880
▁ᏫᎨᏙᎲ	-11881
▁ᏫᏗᏍᏗ	-11882
▁ᏫᏘᏯᏅ	-11883
▁ᏫᏙᏓᎨ	-11884
▁ᏫᏙᏛᏂ	-11885
▁ᏫᏨᎶᎢ	-11886
▁ᏭᎾᎵᏱ	-11887
▁ᏭᏂᎫᏛ	-11888
▁ᏭᏕᏁᎢ	-11889
▁ᏮᏓᏥᏯ	-11890
▁ᏯᎩᏲᎭ	-11891
▁ᏯᏂᎷᎩ	-11892
▁ᏯᏂᏍᏙ	-11893
▁ᏯᏅᏗᎭ	-11894
▁ᏯᏆᏗᏫ	-11895
▁ᏯᏆᏘᏝ	-11896
▁ᏯᏇᎵᏒ	-11897
▁ᏯᏍᎦᎦ	-11898
▁ᏯᏕᎲᎦ	-11899
ᏅᏉ	-11900
ᏣᎵ	-11901
ᏴᎲ	-11902
ᎩᏰᎢ	-11903
ᎳᏰᏃ	-11904
ᎸᏎᎢ	-11905
ᏄᏍᏛ	-11906
ᏒᎸᎩ	-11907
ᏣᏒᎩ	-11908
ᏪᏨᎯ	-11909
▁ᎡᎹ	-11910
▁ᎣᏍ	-11911
▁ᎣᏎ	-11912
▁ᏓᏋ	-11913
▁ᏓᏦ	-11914
▁ᏳᏣ	-11915
ᎦᏘᏰᎢ	-11916
ᏍᎦᎶᏗ	-11917
ᏚᏳᎪᏛ	-11918
▁ᎠᎩᏫ	-11919
▁ᎠᎵᏫ	-11920
▁ᎢᎦᎤ	-11921
▁ᎢᏍᏆ	-11922
▁ᎣᏍᏓ	-11923
▁ᎤᎸᏕ	-11924
▁ᎤᎾᏤ	-11925
▁ᎤᏪᏇ	-11926
▁ᎯᎠᎨ	-11927
▁ᏅᏓᏩ	-11928
▁ᏈᎵᏯ	-11929
▁ᏙᎨᏥ	-11930
▁ᏙᏛᎦ	-11931
▁ᏚᏂᏘ	-11932
▁ᏚᏅᏏ	-11933
▁ᏥᏓᏥ	-11934
ᎾᏫᏍᎨᎢ	-11935
ᏓᎦᎸᎥᎦ	-11936
ᏲᎱᏏᏕᎾ	-11937
▁ᎠᏇᏓᎵ	-11938
▁ᎡᎦᎫᏴ	-11939
▁ᏗᎣᏈᎵ	-11940
▁ᏗᎫᎯᎶ	-11941
▁ᏗᏣᎵᎢ	-11942
▁ᏚᏂᏘᎴ	-11943
▁ᏥᏂᏥᏫ	-11944
▁ᏧᏙᎴᎰ	-11945
▁ᏭᏂᎶᏒ	-11946
▁ᏭᏯᏅᎮ	-11947
▁ᏯᏓᏅᏖ	-11948
▁ᏯᏙᏢᎾ	-11949
▁ᏰᎵᏍᎪ	-11950
▁ᏱᎦᎵᎭ	-11951
▁ᏱᎦᏓᏅ	-11952
▁ᏱᎦᏔᎭ	-11953
▁ᏱᎦᏛᏅ	-11954
▁ᏱᎧᏁᏉ	-11955
▁ᏱᎨᎨᎭ	-11956
▁ᏱᎪᏪᎳ	-11957
▁ᏱᏂᎬᎦ	-11958
▁ᏱᏂᏨᎦ	-11959
▁ᏱᏂᏪᏏ	-11960
▁ᏱᏅᎦᏫ	-11961
▁ᏱᏍᎩᏂ	-11962
▁ᏱᏓᎾᏕ	-11963
▁ᏱᏕᎬᏓ	-11964
▁ᏱᏕᏙᎭ	-11965
▁ᏱᏕᏣᏓ	-11966
▁ᏱᏗᎬᏩ	-11967
▁ᏱᏗᏍᎩ	-11968
▁ᏱᏗᏣᏘ	-11969
▁ᏱᏙᎦᏰ	-11970
▁ᏱᏙᎬᏂ	-11971
▁ᏱᏚᎴᏅ	-11972
▁ᏱᏚᏚᎪ	-11973
▁ᏱᏣᏅᏔ	-11974
▁ᏱᏣᏲᎱ	-11975
▁ᏱᏥᎵᏓ	-11976
▁ᏱᏥᏩᏛ	-11977
▁ᏳᎪᎮᎢ	-11978
▁ᏳᎾᏚᎵ	-11979
▁ᏳᎾᏛᎦ	-11980
▁ᏳᏃᏴᎦ	-11981
▁ᏳᏓᏑᏰ	-11982
▁ᏳᏗᏔᎲ	-11983
▁ᏳᏜᏅᏕ	-11984
▁ᏳᏰᎸᏁ	-11985
▁ᏳᏲᏤᎢ	-11986
▁ᏳᏴᎵᎸ	-11987
▁ᏴᎦᏲᏣ	-11988
▁ᏴᎬᏴᎭ	-11989
▁ᏴᏗᎤᏨ	-11990
▁ᏴᏗᏓᎴ	-11991
▁ᏴᏛᎦᎯ	-11992
ᎤᎾᏛᎪᏗᏱ	-11993
ᎤᏁᎢᏍᏔᏅ	-11994
ᎤᏍᏕᏎᏗᏱ	-11995
ᎦᎵᏍᎨᏍᏗ	-11996
ᎦᎵᏍᏙᏔᏂ	-11997
ᎦᎸᏍᏙᏗᏱ	-11998
ᎧᎯᏯᏍᏗᏱ	-11999
ᎮᎩ	-12000
ᏇᏥ	-12001
ᏍᏱ	-12002
ᏐᎸ	-12003
ᎨᏌᏂ	-12004
ᎳᏫᎡ	-12005
ᎵᎨᏂ	-12006
ᎵᎸᎩ	-12007
ᎸᏙᏗ	-12008
ᏂᎦᏛ	-12009
ᏛᎩᎠ	-12010
ᏨᏁᎭ	-12011
▁ᎫᏩ	-12012
▁ᏣᏘ	-12013
ᎷᎩᏍᏗ	-12014
ᎸᏍᎩᏂ	-12015
ᏁᏤᎴᏃ	-12016
ᏍᏆᎸᏓ	-12017
ᏍᏗᏍᎨ	-12018
ᏑᏰᏒᎢ	-12019
ᏨᏁᏗᏱ	-12020
ᏪᏎᎰᎢ	-12021
ᏯᏔᎯᏳ	-12022
ᏲᎯᎲᎢ	-12023
▁ᎠᏂᎩ	-12024
▁ᎠᏍᏕ	-12025
▁ᎤᏪᎴ	-12026
▁ᎤᏲᏥ	-12027
▁ᎬᏩᏝ	-12028
▁ᏚᎳᏫ	-12029
▁ᏥᎨᎭ	-12030
ᎨᏥᏁᏗᏱ	-12031
ᏁᏍᎨᏍᎬ	-12032
ᏁᏟᏴᏍᏓ	-12033
ᏂᎦᏛᏰᏃ	-12034
ᏐᏢᏔᏁᎢ	-12035
ᏓᏛᏍᎪᎢ	-12036
ᏙᎾᎡᏍᏗ	-12037
ᏩᏍᏗᏕᎩ	-12038
ᏯᏂᏍᎬᎢ	-12039
▁ᎠᏂᎲᎦ	-12040
▁ᎠᏯᏂᎭ	-12041
▁ᎡᏏᎩᏃ	-12042
▁ᎢᏥᏅᎯ	-12043
▁ᎤᏍᏗᏱ	-12044
▁ᎤᏫᏒᏃ	-12045
▁ᎤᏲᎰᎢ	-12046
▁ᎬᏂᏛᏃ	-12047
▁ᎯᎠᏍᎪ	-12048
▁ᏕᎨᎦᎸ	-12049
▁ᏗᎦᏃᎦ	-12050
▁ᏗᏗᏐᎩ	-12051
▁ᏥᎦᏪᎳ	-12052
▁ᏥᏕᏥᏴ	-12053
▁ᏥᏚᏁᎴ	-12054
▁ᏧᏪᏅᏎ	-12055
▁ᏳᏚᏓᎴ	-12056
ᎧᎿᏩᏕᎪᎢ	-12057
ᎨᎠᏗᏔᏍᏗ	-12058
ᎨᎦᏨᏍᏔᏂ	-12059
ᎨᎦᏬᏍᎪᎢ	-12060
ᎨᎫᎢᏍᏙᏗ	-12061
ᎨᎳᏍᏗᏰᏃ	-12062
ᎩᎦᎨᏍᏛᏱ	-12063
ᎩᎵᏲᏤᎴᎢ	-12064
ᎪᎲᏍᏙᏗᏱ	-12065
ᎫᎪᏓᏁᎸᎩ	-12066
ᎫᏓᎴᏍᏗᎭ	-12067
ᎬᏍᎪᎸᏁᎢ	-12068
ᎬᏍᎪᎸᏗᏱ	-12069
ᎬᏩᎶᏓᏁᎸ	-12070
ᎬᏩᏓᎴᏅᏛ	-12071
ᎬᏫᏳᏎᏕᎩ	-12072
ᎱᏍᏕᏎᎸᎯ	-12073
ᎲᏍᎦᎳᏁᎸ	-12074
ᎳᏅᏓᏕᎸᎩ	-12075
ᎴᎲᏍᎨᏍᏗ	-12076
ᎵᎡᎵᏤᏗᏱ	-12077
ᎵᎥᏂᎮᏍᏗ	-12078
ᎵᎮᎵᏍᏗᏱ	-12079
ᎵᎮᎵᏣᏛᎾ	-12080
ᎵᏃᎮᏙᏗᏱ	-12081
ᎵᏍᏓᏁᎸᎯ	-12082
ᎵᏓᏍᏔᏅᎩ	-12083
ᎵᏯᏍᏚᏅᎩ	-12084
ᎸᏉᏗᏍᎪᎢ	-12085
ᎸᏍᏗᏍᎬᎢ	-12086
ᎾᎸᏍᏔᏅᎩ	-12087
ᎾᏄᎪᎨᏍᏗ	-12088
ᎾᏄᎪᏥᎸᎩ	-12089
ᎾᏍᏗᏍᎨᎢ	-12090
ᎾᏰᎯᏍᏗᏱ	-12091
ᏂᎩᏍᎨᏍᏗ	-12092
ᏄᏬᎯᏍᏔᏂ	-12093
ᏅᎢᏍᏙᏗᏱ	-12094
ᏅᎦᎸᏙᏗᏱ	-12095
ᏅᏍᏕᏎᎸᎯ	-12096
ᏅᏓᏗᏍᏔᏂ	-12097
ᏉᎯᏳᎲᏍᎦ	-12098
ᏌᏯᏍᏙᏗᏱ	-12099
ᏠᏏ	-12100
ᎧᏁᏤ	-12101
ᎸᏍᎩ	-12102
ᎾᏛᏅ	-12103
ᏁᏤᎰ	-12104
ᏟᎶᏒ	-12105
ᏪᎳᏅ	-12106
ᏬᏂᎯ	-12107
▁ᎧᏯ	-12108
▁ᎬᏱ	-12109
▁ᏛᎡ	-12110
▁ᏲᎯ	-12111
ᎦᎸᎮᎢ	-12112
ᎵᏛᏍᎬ	-12113
ᏁᏤᎲᎾ	-12114
ᏁᏤᎴᎢ	-12115
ᏍᏓᏕᎸ	-12116
ᏪᎳᏁᎸ	-12117
▁ᎨᏍᏉ	-12118
▁ᏕᎦᏓ	-12119
▁ᏗᏣᎵ	-12120
▁ᏚᎾᏗ	-12121
▁ᏥᏗᎦ	-12122
▁ᏧᎵᏯ	-12123
▁ᏩᏲᎯ	-12124
ᏃᎯᏍᏗᏱ	-12125
ᏍᎪᏂᎴᎢ	-12126
▁ᎠᎩᎷᎳ	-12127
▁ᎠᎾᏗᎭ	-12128
▁ᎠᏓᏯᏅ	-12129
▁ᎤᎬᏩᎴ	-12130
▁ᎤᏃᏴᎵ	-12131
▁ᎤᏐᏅᎭ	-12132
▁ᎤᏓᎸᎢ	-12133
▁ᎤᏓᎸᎯ	-12134
▁ᎦᎸᏍᏗ	-12135
▁ᎦᏅᎨᎢ	-12136
▁ᎦᏙᎯᏃ	-12137
▁ᎪᎯᏗᎭ	-12138
▁ᏂᏥᏪᏎ	-12139
▁ᏂᏨᏒᎾ	-12140
▁ᏕᎦᏕᏲ	-12141
▁ᏕᏣᏕᏲ	-12142
▁ᏗᏣᏍᏗ	-12143
▁ᏚᏂᏬᏂ	-12144
▁ᏚᏓᎴᏅ	-12145
▁ᏥᏣᏚᎵ	-12146
▁ᏥᏯᏚᎸ	-12147
ᎵᏍᏔᏂᎸᎯ	-12148
ᎵᏥᏙᏁᎸᎩ	-12149
ᏍᎦᎳᏁᎸᎯ	-12150
ᏍᎦᏅᏤᎲᎾ	-12151
ᏍᎩᏅᏗᏍᏗ	-12152
ᏍᎫᏕᏍᏗᏱ	-12153
ᏍᏆᏂᎪᏗᎭ	-12154
ᏍᏆᏂᎪᏙᏗ	-12155
ᏍᏓᏩᏗᏙᎭ	-12156
ᏍᏕᎸᎯᏙᎸ	-12157
ᏍᏗᏰᏔᏁᎢ	-12158
ᏍᏗᏰᏙᏗᏱ	-12159
ᏍᏚᎲᏍᎪᎢ	-12160
ᏐᎯᏍᏔᏅᎩ	-12161
ᏓᎵᏓᏍᏗᎭ	-12162
ᏓᏁᎳᏁᎸᎯ	-12163
ᏓᏁᏟᏴᎡᏗ	-12164
ᏓᏁᏟᏴᏍᏓ	-12165
ᏓᏁᏣᏍᏚᎶ	-12166
ᏓᏂᏱᏍᎩᏃ	-12167
ᏓᏅᏖᏍᎨᎢ	-12168
ᏓᏅᏖᏍᎬᎩ	-12169
ᏓᏕᎵᏎᎲᎾ	-12170
ᏓᏚᎪᏓᏁᎭ	-12171
ᏓᏛᏓᏍᏓᏁ	-12172
ᏓᏟᏌᏁᎴᎢ	-12173
ᏔᏩᏕᎨᏍᏗ	-12174
ᏕᎶᏆᎡᎸᎯ	-12175
ᏕᏍᏗᏍᎬᎾ	-12176
ᏕᏒᎲᏍᎨᎢ	-12177
ᏚᎢᏍᏗᏍᎪ	-12178
ᏚᏓᎴᏍᏗᏱ	-12179
ᏚᏓᏕᏫᏒᎢ	-12180
ᏛᏅᎢᏍᏓᏏ	-12181
ᏢᏉᏙᏗᏍᎩ	-12182
ᏤᎵᎯᏍᎪᎢ	-12183
ᏧᎪᏓᏁᏗᏱ	-12184
ᏩᏗᏍᎨᏍᏗ	-12185
ᏯᏛᏓᏍᏓᏏ	-12186
ᏰᎸᎾᏁᎴᎢ	-12187
ᏲᎢᏎᎮᏍᏗ	-12188
ᏲᎱᎯᏎᎴᎢ	-12189
ᏲᏍᏙᏓᏁᎵ	-12190
ᏲᏍᏙᏓᏁᏗ	-12191
▁ᎠᎦᎸᎢᏛ	-12192
▁ᎠᎦᏅᏓᏗ	-12193
▁ᎠᎦᏎᏍᏗ	-12194
▁ᎠᎦᏘᏏᏃ	-12195
▁ᎠᎦᏬᎥᏃ	-12196
▁ᎠᎨᏴᏍᎪ	-12197
▁ᎠᎩᎵᎨᏂ	-12198
▁ᎠᎩᏁᏨᎩ	-12199
ᏅᏂ	-12200
ᎠᏥᎸ	-12201
ᎦᎸᏗ	-12202
ᎪᏎᏗ	-12203
ᎶᎰᎢ	-12204
ᏓᏗᏫ	-12205
ᏨᏁᏗ	-12206
▁ᏛᏃ	-12207
▁ᏨᏛ	-12208
ᏄᎸᏅᏃ	-12209
ᏍᎫᏛᎦ	-12210
ᏍᎬᎾᏉ	-12211
ᏓᏅᏛᏃ	-12212
ᏗᏍᎬᎾ	-12213
ᏬᏁᏗᎭ	-12214
▁ᎠᏯᏥ	-12215
▁ᎦᏴᎩ	-12216
▁ᎾᎯᎥ	-12217
▁ᎾᏯᏛ	-12218
▁ᏛᏅᏂ	-12219
▁ᏣᎷᎳ	-12220
▁ᏣᏂᎾ	-12221
▁ᏥᎡᏥ	-12222
▁ᏧᏁᏗ	-12223
▁ᏧᏪᎯ	-12224
▁ᏧᏪᏰ	-12225
ᎪᎲᏍᏙᏗ	-12226
ᎵᎥᏂᏍᏗ	-12227
ᎸᏗᏍᎪᎢ	-12228
ᎿᏍᏕᏠᎢ	-12229
▁ᎠᎬᎭᎷ	-12230
▁ᎠᏁᎰᎢ	-12231
▁ᎠᏂᏄᎪ	-12232
▁ᎢᏥᎪᎲ	-12233
▁ᎣᎩᏍᏛ	-12234
▁ᏓᏂᏬᏂ	-12235
▁ᏕᎤᏁᎶ	-12236
▁ᏕᏣᎧᏛ	-12237
▁ᏗᏤᎿᎢ	-12238
▁ᏙᏛᏁᎵ	-12239
▁ᏛᏃᎵᏥ	-12240
▁ᏥᎪᎯᏳ	-12241
▁ᏥᎪᎵᏰ	-12242
▁ᏥᏍᎪᎵ	-12243
▁ᏥᏕᏥᏙ	-12244
▁ᏧᏌᎴᏅ	-12245
▁ᏩᏙᏑᎵ	-12246
▁ᏫᏗᎨᏥ	-12247
▁ᏭᎷᏤᎸ	-12248
ᏍᏚᎢᎡᎰᎢ	-12249
ᏙᎴᎰᏍᎬᎾ	-12250
▁ᎠᎩᎪᏩᏘ	-12251
▁ᎠᎩᏅᏨᎩ	-12252
▁ᎠᎩᏍᎩᎸ	-12253
▁ᎠᎩᏍᏆᏛ	-12254
▁ᎠᎩᏍᏛᏗ	-12255
▁ᎠᎩᏢᎬᎩ	-12256
▁ᎠᎩᏩᏛᎲ	-12257
▁ᎠᎩᏬᏂᏒ	-12258
▁ᎠᎩᏲᎸᎩ	-12259
▁ᎠᎪᏄᏰᏃ	-12260
▁ᎠᎪᏎᎲᎩ	-12261
▁ᎠᎪᏎᏗᏱ	-12262
▁ᎠᎫᏴᏗᏱ	-12263
▁ᎠᎴᏂᏙᎲ	-12264
▁ᎠᎴᏅᏙᏗ	-12265
▁ᎠᎵᎮᎵᎪ	-12266
▁ᎠᎵᎮᎵᎬ	-12267
▁ᎠᎵᏃᎯᏯ	-12268
▁ᎠᎵᏍᏆᏓ	-12269
▁ᎠᎾᎵᏃᎮ	-12270
▁ᎠᎾᎵᏍᏓ	-12271
▁ᎠᎾᏗᏍᎩ	-12272
▁ᎠᎾᏙᎩᏯ	-12273
▁ᎠᎾᏛᏁᎵ	-12274
▁ᎠᏁᏙᎯᏉ	-12275
▁ᎠᏂᎦᏯᎷ	-12276
▁ᎠᏂᎨᏕᎳ	-12277
▁ᎠᏂᎪᎢᏃ	-12278
▁ᎠᏂᎶᏍᎩ	-12279
▁ᎠᏂᎾᏕᎩ	-12280
▁ᎠᏂᏂᏎᎢ	-12281
▁ᎠᏂᏉᎵᏏ	-12282
▁ᎠᏂᏌᎺᎵ	-12283
▁ᎠᏂᏍᎫᏕ	-12284
▁ᎠᏂᏑᎵᎪ	-12285
▁ᎠᏂᏙᎾᎠ	-12286
▁ᎠᏂᏴᎯᎭ	-12287
▁ᎠᏄᏬᎩᎯ	-12288
▁ᎠᏄᏬᏍᏗ	-12289
▁ᎠᏅᏗᏍᎩ	-12290
▁ᎠᏅᏳᏤᎲ	-12291
▁ᎠᏆᎦᏔᎲ	-12292
▁ᎠᏆᎫᏴᏗ	-12293
▁ᎠᏆᎵᏏᏃ	-12294
▁ᎠᏆᎵᏥᏙ	-12295
▁ᎠᏆᏕᏅᎩ	-12296
▁ᎠᏆᏙᏗᏱ	-12297
▁ᎠᏆᏛᏅᎢ	-12298
▁ᎠᏉᎯᏳᏒ	-12299
ᏰᎾ	-12300
ᎢᏁᎭ	-12301
ᎤᏅᏒ	-12302
ᎦᏣᏅ	-12303
ᎬᏁᎭ	-12304
ᎵᏲᎬ	-12305
ᏟᏴᏗ	-12306
▁ᎵᏲ	-12307
▁ᏄᎯ	-12308
▁ᏛᎠ	-12309
▁ᏛᏣ	-12310
▁ᏴᏧ	-12311
ᎢᏍᏗᎭ	-12312
ᎦᏘᎾᏫ	-12313
ᎵᏍᎪᎢ	-12314
ᎶᏄᎮᎭ	-12315
ᏯᏫᏎᎢ	-12316
ᏰᎸᏅᎾ	-12317
▁ᎠᎹᏉ	-12318
▁ᎢᎨᎭ	-12319
▁ᎤᎩᏥ	-12320
▁ᎤᏁᎴ	-12321
▁ᎤᏌᏛ	-12322
▁ᎤᏪᏂ	-12323
▁ᏄᏃᎯ	-12324
▁ᏕᏣᎵ	-12325
▁ᏚᏪᎵ	-12326
▁ᏣᏄᏬ	-12327
▁ᏥᏥᎭ	-12328
▁ᏧᏬᏱ	-12329
▁ᏨᏙᏗ	-12330
▁ᏱᏚᏃ	-12331
▁ᏱᏥᎩ	-12332
▁ᏴᏓᏗ	-12333
ᎬᏪᏎᎸᎩ	-12334
ᎸᏍᏙᏗᏱ	-12335
ᏃᎮᏍᎨᎢ	-12336
ᏍᏙᏔᏅᎯ	-12337
ᏗᎦᎴᏲᏥ	-12338
ᏫᏍᏙᏗᏱ	-12339
ᏲᎱᎯᏎᎭ	-12340
▁ᎣᏥᏧᏏ	-12341
▁ᎤᏂᏩᏛ	-12342
▁ᎤᏴᎴᎢ	-12343
▁ᎨᏣᎴᏗ	-12344
▁ᎪᏪᎵᏉ	-12345
▁ᎯᏲᎢᏳ	-12346
▁ᏄᏍᏆᎸ	-12347
▁ᏕᎦᎵᏦ	-12348
▁ᏗᎦᎴᏅ	-12349
▁ᏗᎦᏲᎩ	-12350
▁ᏥᏥᎷᎩ	-12351
▁ᏧᏁᎸᎯ	-12352
▁ᏭᎪᎲᎩ	-12353
▁ᏱᏄᏪᏒ	-12354
▁ᏱᏥᏍᎦ	-12355
ᏁᎢᏍᏙᏗᏱ	-12356
ᏄᏬᏍᎨᏍᏗ	-12357
ᏲᎯᏍᏙᏗᏱ	-12358
▁ᎠᏍᎪᎵᏃ	-12359
▁ᎠᏍᎪᎸᎩ	-12360
▁ᎠᏍᎪᏒᎢ	-12361
▁ᎠᏎᎵᏙᏗ	-12362
▁ᎠᏓᎩᎡᏗ	-12363
▁ᎠᏓᎯᎯᏉ	-12364
▁ᎠᏓᎵᏁᎯ	-12365
▁ᎠᏓᎵᏂᎪ	-12366
▁ᎠᏓᎵᏅᏟ	-12367
▁ᎠᏓᏁᏤᎯ	-12368
▁ᎠᏓᏫᏰᏃ	-12369
▁ᎠᏓᏲᏁᎯ	-12370
▁ᎠᏓᏲᏁᎲ	-12371
▁ᎠᏓᏲᏁᏗ	-12372
▁ᎠᏗᏅᏗᏉ	-12373
▁ᎠᏗᏍᎬᎩ	-12374
▁ᎠᏗᏔᏍᎦ	-12375
▁ᎠᏛᎩᏍᎬ	-12376
▁ᎠᏛᎪᏗᏱ	-12377
▁ᎠᏛᎪᏙᏗ	-12378
▁ᎠᏛᏍᎪᎢ	-12379
▁ᎠᏛᏍᎬᎢ	-12380
▁ᎠᏛᏲᎱᏏ	-12381
▁ᎠᏞᎢᏍᏗ	-12382
▁ᎠᏠᏄᎮᏛ	-12383
▁ᎠᏡᏗᏍᎩ	-12384
▁ᎠᏢᏔᏅᎯ	-12385
▁ᎠᏥᎦᏘᏗ	-12386
▁ᎠᏥᎧᏅᎯ	-12387
▁ᎠᏥᎩᏒᏗ	-12388
▁ᎠᏥᎸᏉᏓ	-12389
▁ᎠᏥᏂᏌᏅ	-12390
▁ᎠᏥᏃᎮᏎ	-12391
▁ᎠᏥᏍᏛᏗ	-12392
▁ᎠᏥᏐᏅᏅ	-12393
▁ᎠᏥᏕᎸᎩ	-12394
▁ᎠᏥᏛᏙᏗ	-12395
▁ᎠᏥᏩᏛᎮ	-12396
▁ᎠᏩᏂᎦᎳ	-12397
▁ᎠᏩᏘᏍᎩ	-12398
▁ᎠᏩᏘᏍᎪ	-12399
ᎾᏩ	-12400
ᎡᎬᎩ	-12401
ᎩᎷᏨ	-12402
ᎫᎪᏓ	-12403
ᎬᎾᏉ	-12404
ᏂᏴᎩ	-12405
ᏐᏅᏃ	-12406
ᏑᏍᏙ	-12407
ᏒᎲᎩ	-12408
ᏬᎡᎢ	-12409
ᏯᏛᎥ	-12410
ᏲᏏᎭ	-12411
ᎧᎵᎸᎯ	-12412
ᎵᏕᎬᎢ	-12413
ᏂᏴᎮᎢ	-12414
ᏓᏂᏯᏛ	-12415
ᏗᏔᎲᎢ	-12416
ᏳᎨᏗᏱ	-12417
▁ᎣᎦᏒ	-12418
▁ᎣᎦᏓ	-12419
▁ᎤᏢᎦ	-12420
▁ᎧᏱᏅ	-12421
▁ᏂᎨᏐ	-12422
▁ᏍᎩᎾ	-12423
▁ᏓᎦᎸ	-12424
▁ᏙᏓᏰ	-12425
▁ᏚᎾᏚ	-12426
▁ᏦᏈᏃ	-12427
▁ᏧᏛᎯ	-12428
ᎾᎵᏍᏓᏏ	-12429
ᏁᎵᏓᏍᏗ	-12430
ᏩᏘᏍᎬᎩ	-12431
▁ᎠᎴᎧᏂ	-12432
▁ᎠᏂᏁᎸ	-12433
▁ᎠᏟᏍᏕ	-12434
▁ᎠᏰᎵᏉ	-12435
▁ᎢᎦᎫᏴ	-12436
▁ᎢᎨᎬᎾ	-12437
▁ᎢᏥᏁᎬ	-12438
▁ᎢᏥᏯᎠ	-12439
▁ᎤᏯᏅᎲ	-12440
▁ᎤᏲᏍᏙ	-12441
▁ᎦᏥᏅᎵ	-12442
▁ᎩᎳᎯᏳ	-12443
▁ᎬᏅᏰᏃ	-12444
▁ᎬᏩᏕᏤ	-12445
▁ᏂᏣᏛᎦ	-12446
▁ᏃᏥᏪᎭ	-12447
▁ᏐᏈᎵᎯ	-12448
▁ᏓᏓᎾᏩ	-12449
▁ᏓᏛᎩᎭ	-12450
▁ᏕᏍᎩᎾ	-12451
▁ᏗᏂᏙᎩ	-12452
▁ᏗᏍᎩᎾ	-12453
▁ᏙᏓᏲᎩ	-12454
▁ᏫᎤᏪᏅ	-12455
ᎸᎩᏍᎨᏍᏗ	-12456
ᏍᎦᏅᏤᏍᏗ	-12457
ᏍᏓᏩᏙᎸᎯ	-12458
ᏗᏔᏍᎨᏍᏗ	-12459
▁ᎠᎩᎵᏲᎦ	-12460
▁ᎠᏂᏂᏜᎢ	-12461
▁ᎠᏏᏉᏍᎪ	-12462
▁ᎠᏫᏍᎬᎢ	-12463
▁ᎠᏯᏄᎵᏳ	-12464
▁ᎠᏯᏙᎯᎯ	-12465
▁ᎠᏰᎮᏍᏗ	-12466
▁ᎠᏲᎱᏍᏗ	-12467
▁ᎡᎦᎫᏴᏛ	-12468
▁ᎡᎳᏪᏱᏃ	-12469
▁ᎡᏓᎵᎡᎵ	-12470
▁ᎡᏓᏠᏨᎯ	-12471
▁ᎡᏗᎨᏳᎢ	-12472
▁ᎡᏗᏔᏲᏏ	-12473
▁ᎡᏗᏯᎥᎢ	-12474
▁ᎡᏣᏚᎬᎢ	-12475
▁ᎡᏥᎦᏔᎭ	-12476
▁ᎡᏥᏍᏕᎸ	-12477
▁ᎡᏥᏝᏅᎯ	-12478
▁ᎢᎤᏂᎷᏨ	-12479
▁ᎢᎦᎵᏃᎮ	-12480
▁ᎢᎦᎵᏍᏓ	-12481
▁ᎢᎦᏕᏅᎯ	-12482
▁ᎢᎦᏘᏰᏗ	-12483
▁ᎢᎦᏪᏍᏗ	-12484
▁ᎢᎨᏙᎸᎯ	-12485
▁ᎢᎩᏇᏓᎸ	-12486
▁ᎢᎪᎷᏅᏗ	-12487
▁ᎢᎬᏒᏰᏃ	-12488
▁ᎢᎬᏙᏗᏱ	-12489
▁ᎢᎬᏱᏱᏉ	-12490
▁ᎢᎭᏛᏁᎯ	-12491
▁ᎢᎯᎦᏔᎭ	-12492
▁ᎢᏅᎢᎦᏘ	-12493
▁ᎢᏗᎦᏘᏴ	-12494
▁ᎢᏗᎬᏁᎯ	-12495
▁ᎢᏗᏯᏙᎯ	-12496
▁ᎢᏣᎢᏒᎢ	-12497
▁ᎢᏣᎴᏅᎲ	-12498
▁ᎢᏣᎵᏍᏕ	-12499
],	-12500
ᎦᏂᎭ	-12501
ᏁᏉᏏ	-12502
ᏛᎪᏗ	-12503
ᏱᎰᏩ	-12504
▁ᏣᏉ	-12505
ᏍᎪᏂᎦ	-12506
ᏓᏂᎸᏥ	-12507
ᏛᏂᎸᎩ	-12508
▁ᎠᏫᏉ	-12509
▁ᎢᏂᏯ	-12510
▁ᎤᎦᏃ	-12511
▁ᎤᏣᏁ	-12512
▁ᎤᏣᏙ	-12513
▁ᎨᎵᎭ	-12514
▁ᎩᎬᏃ	-12515
▁ᎭᏗᎭ	-12516
▁ᎯᎦᎵ	-12517
▁ᏅᎩᎭ	-12518
▁ᏗᎨᏨ	-12519
▁ᏚᏁᎯ	-12520
▁ᏥᏚᏩ	-12521
▁ᏱᏗᎩ	-12522
▁ᏳᏘᏝ	-12523
ᎪᎵᏰᏍᏗ	-12524
ᏁᏍᎨᏍᏗ	-12525
ᏓᏗᏍᏙᏗ	-12526
ᏢᏈᏍᏗᏱ	-12527
ᏲᏍᏗᏍᎪ	-12528
▁ᎠᏕᎸᏓ	-12529
▁ᎤᎴᏗᏱ	-12530
▁ᎤᏁᏒᏃ	-12531
▁ᎤᏂᏁᎸ	-12532
▁ᎤᏂᏲᎰ	-12533
▁ᎤᏣᏁᎢ	-12534
▁ᎤᏬᎯᏤ	-12535
▁ᎦᏰᏌᏛ	-12536
▁ᎦᏰᏤᎵ	-12537
▁ᎨᎵᏲᏃ	-12538
▁ᎯᎦᎵᏯ	-12539
▁ᏂᎦᎥᎩ	-12540
▁ᏓᎾᎵᏍ	-12541
▁ᏕᎨᏥᏰ	-12542
▁ᏗᏆᎵᎢ	-12543
▁ᏗᏇᏅᏒ	-12544
▁ᏗᏥᏁᎯ	-12545
▁ᏗᏦᎯᏳ	-12546
▁ᏚᎵᏉᎩ	-12547
▁ᏚᏓᏂᎸ	-12548
▁ᏥᎾᏛᎦ	-12549
▁ᏱᏚᏬᏁ	-12550
ᎪᎵᏰᏍᎪᎢ	-12551
ᎪᎵᏰᏍᎬᎢ	-12552
ᎵᏰᎢᎸᏍᏓ	-12553
ᏁᎢᏍᏔᏅᎯ	-12554
ᏍᏕᎵᏍᎪᎢ	-12555
▁ᎠᎧᎵᎢᎭ	-12556
▁ᎠᏆᏓᏁᏗ	-12557
▁ᎠᏢᏆᏍᏗ	-12558
▁ᎠᏨᏍᏛᎦ	-12559
▁ᎠᏫᏍᎪᎢ	-12560
▁ᎢᎩᏯᎥᎢ	-12561
▁ᎢᏣᏍᎦᏅ	-12562
▁ᎢᏣᏓᏁᎸ	-12563
▁ᎢᏣᏓᏅᏔ	-12564
▁ᎢᏣᏓᏑᏯ	-12565
▁ᎢᏣᏓᏙᎵ	-12566
▁ᎢᏣᏓᏟᏌ	-12567
▁ᎢᏣᏕᏅᎯ	-12568
▁ᎢᏣᏙᎩᏯ	-12569
▁ᎢᏣᏛᏁᎲ	-12570
▁ᎢᏣᏛᏁᏗ	-12571
▁ᎢᏤᎮᏍᏗ	-12572
▁ᎢᏤᏯᏔᏅ	-12573
▁ᎢᏤᏲᏗᏱ	-12574
▁ᎢᏥᎦᎳᎭ	-12575
▁ᎢᏥᎧᎵᏣ	-12576
▁ᎢᏥᎪᎲᎭ	-12577
▁ᎢᏥᎮᏍᏗ	-12578
▁ᎢᏥᎷᏤᎸ	-12579
▁ᎢᏥᎷᏤᏗ	-12580
▁ᎢᏥᏙᎾᎠ	-12581
▁ᎢᏥᏙᏙᏱ	-12582
▁ᎢᏥᏪᏍᎩ	-12583
▁ᎢᏥᏰᎸᏒ	-12584
▁ᎢᏧᎳᎭᏉ	-12585
▁ᎢᏧᎾᏓᎳ	-12586
▁ᎢᏧᏖᏎᎢ	-12587
▁ᎢᏧᏖᏒᎢ	-12588
▁ᎢᏨᏁᎸᎯ	-12589
▁ᎢᏨᏁᏤᎲ	-12590
▁ᎢᏨᏂᏌᏛ	-12591
▁ᎢᏨᏃᎲᏏ	-12592
▁ᎢᏨᏃᏁᎸ	-12593
▁ᎢᏨᏔᏅᎭ	-12594
▁ᎢᏨᏗᏍᎪ	-12595
▁ᎢᏯᏕᏴᎵ	-12596
▁ᎢᏰᏛᏁᏗ	-12597
▁ᎢᏳᏩᏓᏗ	-12598
▁ᎢᏳᏪᏒᎯ	-12599
ᎸᎪ	-12600
ᎸᏂ	-12601
ᎵᎪᎯ	-12602
ᎾᏚᎦ	-12603
ᏐᏅᏤ	-12604
ᏛᎾᎯ	-12605
ᏛᎾᏯ	-12606
ᏠᏱᎵ	-12607
ᏨᏨᎩ	-12608
ᏲᎲᎦ	-12609
▁ᎠᎸ	-12610
▁ᏁᎰ	-12611
▁ᏁᎴ	-12612
ᎪᏩᏛᎲ	-12613
ᎪᏪᎳᏂ	-12614
ᎯᏳᎲᎦ	-12615
ᏁᎸᎩᏃ	-12616
ᏂᏙᎸᎩ	-12617
ᏋᏁᎸᎩ	-12618
ᏍᎨᏰᏃ	-12619
ᏐᏅᏰᎸ	-12620
ᏓᏛᏁᏗ	-12621
ᏛᎾᏨᎯ	-12622
▁ᎠᎯᎯ	-12623
▁ᎤᏏᏔ	-12624
▁ᎤᏚᎵ	-12625
▁ᎧᏁᎨ	-12626
▁ᎾᎥᏉ	-12627
▁ᎾᎥᏝ	-12628
▁ᏁᏓᏂ	-12629
▁ᏅᏛᎾ	-12630
▁ᏏᏉᏃ	-12631
▁ᏘᎲᏏ	-12632
▁ᏘᏅᎵ	-12633
▁ᏚᏬᎵ	-12634
▁ᏥᎾᎬ	-12635
▁ᏥᏫᏚ	-12636
▁ᏧᏅᎾ	-12637
▁ᏫᎲᎦ	-12638
▁ᏯᎲᎦ	-12639
▁ᏱᎬᎭ	-12640
ᎵᏥᏙᎲᎦ	-12641
ᎸᏉᏗᏍᎬ	-12642
ᏍᎪᏂᎮᎢ	-12643
ᏛᎦᏁᎸᎩ	-12644
▁ᎡᏥᎥᏏ	-12645
▁ᎢᎾᏛᏉ	-12646
▁ᎤᎶᏎᎢ	-12647
▁ᎤᎶᏒᎢ	-12648
▁ᎤᎾᎵᏛ	-12649
▁ᎤᏬᏓᎸ	-12650
▁ᏂᎬᏒᎾ	-12651
▁ᏕᏥᎾᏫ	-12652
▁ᏛᏥᎷᏥ	-12653
▁ᏧᏪᏥᏃ	-12654
▁ᏱᎦᏁᎸ	-12655
ᎸᏉᏗᏍᎬᎢ	-12656
ᏍᎦᏅᎢᏍᏗ	-12657
ᏛᏗᏍᎨᏍᏗ	-12658
ᏲᏍᏙᏓᏁᎴ	-12659
▁ᎡᏥᏅᏏᏛ	-12660
▁ᎢᎬᏁᏗᏱ	-12661
▁ᎢᏥᎪᏩᏛ	-12662
▁ᎢᏨᎩᎵᏲ	-12663
▁ᎢᏴᏛᎭᏉ	-12664
▁ᎢᏴᏛᏰᏃ	-12665
▁ᎣᎦᏁᎳᎩ	-12666
▁ᎣᎦᏅᏗᏱ	-12667
▁ᎣᎦᏚᏓᎳ	-12668
▁ᎣᎩᏁᎸᎯ	-12669
▁ᎣᎩᏩᏛᎲ	-12670
▁ᎣᎩᏲᏍᏙ	-12671
▁ᎣᎵᏩᏲᏃ	-12672
▁ᎣᏁᏏᏉᎳ	-12673
▁ᎣᏍᏗᏴᎩ	-12674
▁ᎣᏤᏙᎲᎢ	-12675
▁ᎤᎦᏘᏕᎯ	-12676
▁ᎤᎦᏙᎥᏐ	-12677
▁ᎤᎧᎵᏍᏗ	-12678
▁ᎤᎩᏍᏗᏱ	-12679
▁ᎤᎩᏨᏅᎢ	-12680
▁ᎤᎬᎥᏍᎬ	-12681
▁ᎤᎬᏩᎴᎢ	-12682
▁ᎤᎬᏩᎸᎢ	-12683
▁ᎤᎯᎳᏅᎯ	-12684
▁ᎤᎳᏏᏅᎩ	-12685
▁ᎤᎴᏴᏎᎢ	-12686
▁ᎤᎵᏁᏌᎸ	-12687
▁ᎤᎵᏍᎨᏛ	-12688
▁ᎤᎵᏍᏙᏰ	-12689
▁ᎤᎵᏏᎩᏳ	-12690
▁ᎤᎵᏏᎲᏎ	-12691
▁ᎤᎵᏥᏍᏋ	-12692
▁ᎤᎵᏯᏍᏚ	-12693
▁ᎤᎶᏐᏂᏗ	-12694
▁ᎤᎶᏐᏅᎩ	-12695
▁ᎤᎷᏦᏅᎯ	-12696
▁ᎤᎸᏃᏘᎭ	-12697
▁ᎤᎾᎪᎸᏛ	-12698
▁ᎤᎾᎴᎾᏫ	-12699
▁Ꮈ	-12700
ᎤᏁᎫ	-12701
ᎧᎸᎩ	-12702
ᎴᎯᏐ	-12703
ᏃᎴᎢ	-12704
ᏐᏢᏛ	-12705
▁ᎡᏨ	-12706
ᏁᎶᏙᎢ	-12707
ᏁᏟᏴᏏ	-12708
ᏍᏕᎸᎲ	-12709
ᏔᏲᏎᎮ	-12710
ᏔᏲᏎᎯ	-12711
ᏜᏗᏍᏗ	-12712
ᏰᎸᏒᎩ	-12713
▁ᎡᏆᏯ	-12714
▁ᎣᎩᎭ	-12715
▁ᎣᏍᏙ	-12716
▁ᎣᏥᏂ	-12717
▁ᎹᏓᏂ	-12718
▁ᎹᏓᏗ	-12719
▁ᏓᎧᏅ	-12720
▁ᏥᎨᏣ	-12721
▁ᏧᏁᎴ	-12722
▁ᏧᏂᏙ	-12723
ᎢᎦᏚᎩᏱ	-12724
ᎵᏥᏙᏁᎴ	-12725
ᏓᎪᎾᏛᏗ	-12726
ᏔᏲᏎᎴᎢ	-12727
ᏖᎸᎲᏍᎬ	-12728
ᏙᎵᏥᏰᏃ	-12729
ᏧᎬᏩᎶᏗ	-12730
▁ᎠᎾᏗᏔ	-12731
▁ᎠᏥᏁᎴ	-12732
▁ᎠᏲᎪᎢ	-12733
▁ᎢᏣᎵᎪ	-12734
▁ᎤᏃᏁᎴ	-12735
▁ᎤᏅᏤᎢ	-12736
▁ᎯᏍᎫᏕ	-12737
▁ᎾᏂᏪᎭ	-12738
▁ᏁᏩᏔᎵ	-12739
▁ᏓᎾᏤᎸ	-12740
▁ᏕᎦᏥᏯ	-12741
▁ᏕᏥᎧᏅ	-12742
▁ᏗᏎᎸᎯ	-12743
▁ᏗᏥᎰᎵ	-12744
▁ᏚᏂᏁᎴ	-12745
▁ᏧᏓᎴᏛ	-12746
▁ᏱᏂᎨᏣ	-12747
▁ᏱᏗᎫᎪ	-12748
▁ᏱᏥᏁᎴ	-12749
ᎧᎿᏩᏗᏒᎢ	-12750
ᏂᎶᎯᏍᏗᏱ	-12751
ᏓᏅᏓᏗᏍᏓ	-12752
ᏱᎶᎯᏍᏗᏱ	-12753
▁ᎠᎨᎾᏂᏗ	-12754
▁ᎠᏰᎸᏍᎬ	-12755
▁ᎠᏰᎸᏒᎢ	-12756
▁ᎢᎬᏩᏙᏢ	-12757
▁ᎣᏨᏗᏍᎪ	-12758
▁ᎤᎵᏰᏁᎢ	-12759
▁ᎤᎾᎵᎪᏎ	-12760
▁ᎤᎾᎵᏒᎩ	-12761
▁ᎤᎾᏂᎩᏒ	-12762
▁ᎤᎾᏅᏁᎢ	-12763
▁ᎤᎾᏅᏅᎯ	-12764
▁ᎤᎾᏓᏑᏴ	-12765
▁ᎤᎾᏓᏓᎴ	-12766
▁ᎤᎾᏗᏓᏁ	-12767
▁ᎤᎾᏚᎵᎭ	-12768
▁ᎤᎾᏛᎦᏁ	-12769
▁ᎤᎾᏛᏁᎸ	-12770
▁ᎤᎾᏠᏤᏉ	-12771
▁ᎤᎾᏣᎥᎢ	-12772
▁ᎤᎾᏦᏗᏱ	-12773
▁ᎤᎾᏨᏒᎩ	-12774
▁ᎤᎿᎷᏎᎢ	-12775
▁ᎤᎿᎷᏒᎩ	-12776
▁ᎤᎿᏍᏕᏢ	-12777
▁ᎤᏁᎳᎥᎯ	-12778
▁ᎤᏁᎷᎬᎢ	-12779
▁ᎤᏁᎿᎢᏳ	-12780
▁ᎤᏁᏍᎨᎮ	-12781
▁ᎤᏁᏍᏓᎳ	-12782
▁ᎤᏁᏙᎴᎢ	-12783
▁ᎤᏁᏙᎸᎩ	-12784
▁ᎤᏁᏟᏴᏎ	-12785
▁ᎤᏁᏤᎴᏃ	-12786
▁ᎤᏁᏨᎯᎠ	-12787
▁ᎤᏂᎦᏯᎷ	-12788
▁ᎤᏂᎩᏍᏗ	-12789
▁ᎤᏂᎪᎲᎩ	-12790
▁ᎤᏂᎪᏁᎢ	-12791
▁ᎤᏂᎪᏁᎶ	-12792
▁ᎤᏂᎳᏅᎯ	-12793
▁ᎤᏂᎶᏎᎢ	-12794
▁ᎤᏂᎷᏨᏃ	-12795
▁ᎤᏂᏁᏗᏱ	-12796
▁ᎤᏂᏁᏨᎢ	-12797
▁ᎤᏂᏂᏆᏘ	-12798
▁ᎤᏂᏂᏴᎮ	-12799
ᎵᏙᎮ	-12800
ᏕᎵᏛ	-12801
ᏚᎸᎮ	-12802
▁ᏴᎾ	-12803
ᎳᏁᎬᎢ	-12804
ᎵᎪᏁᎴ	-12805
ᏂᏙᎸᎭ	-12806
ᏕᎵᏎᏗ	-12807
ᏣᏘᏁᎪ	-12808
ᏧᏙᎢᏛ	-12809
ᏩᏛᎲᎭ	-12810
ᏯᏫᏍᎬ	-12811
ᏯᏫᏍᏗ	-12812
▁ᎠᎬᏅ	-12813
▁ᎣᏌᏯ	-12814
▁ᎦᏁᎦ	-12815
▁ᏓᎦᎴ	-12816
▁ᏓᎦᏂ	-12817
▁ᏓᎦᏅ	-12818
▁ᏕᎯᎬ	-12819
▁ᏣᏁᎮ	-12820
▁ᏦᎩᎭ	-12821
▁ᏱᏚᏁ	-12822
ᎵᎪᏁᏗᏱ	-12823
ᎵᎪᏔᏅᎯ	-12824
ᏃᎵᏍᏙᏗ	-12825
▁ᎠᏍᏛᎬ	-12826
▁ᎣᎦᏢᏆ	-12827
▁ᎤᏂᎭᎷ	-12828
▁ᎤᏂᎶᏐ	-12829
▁ᎤᏂᏃᎴ	-12830
▁ᎤᏂᏯᎸ	-12831
▁ᎤᏔᏲᎸ	-12832
▁ᎬᏩᏄᏬ	-12833
▁ᏓᎦᏛᏂ	-12834
▁ᏓᎧᏁᏥ	-12835
▁ᏥᏆᎵᏏ	-12836
▁ᏧᎩᎵᏲ	-12837
▁ᏱᎦᎷᎩ	-12838
▁ᏱᏂᎨᏨ	-12839
ᎦᏌᏬᎢᎲᎢ	-12840
ᏄᎪᏫᏎᏗᏱ	-12841
ᏲᎲᏍᎨᏍᏗ	-12842
▁ᎠᏂᏂᏙᎯ	-12843
▁ᎠᏂᏔᎵᎭ	-12844
▁ᎠᏇᏓᏍᏗ	-12845
▁ᎠᏍᎦᏂᏃ	-12846
▁ᎠᏓᏠᏍᏗ	-12847
▁ᎠᏥᎸᏱᏃ	-12848
▁ᎢᎬᏩᏂᎩ	-12849
▁ᎢᎸᏍᎩᏉ	-12850
▁ᎢᏍᏓᏚᎵ	-12851
▁ᎤᎧᎵᏨᎩ	-12852
▁ᎤᎵᏍᏆᏛ	-12853
▁ᎤᎾᏓᏤᎵ	-12854
▁ᎤᏁᎳᎩᏃ	-12855
▁ᎤᏂᏂᏴᏛ	-12856
▁ᎤᏂᏃᏁᎴ	-12857
▁ᎤᏂᏃᏕᏅ	-12858
▁ᎤᏂᏄᎪᏤ	-12859
▁ᎤᏂᏩᏍᎩ	-12860
▁ᎤᏂᏱᎵᏙ	-12861
▁ᎤᏂᏴᎲᏃ	-12862
▁ᎤᏂᏴᎸᏃ	-12863
▁ᎤᏃᎱᎶᏗ	-12864
▁ᎤᏃᏣᎴᏛ	-12865
▁ᎤᏄᎪᏨᎢ	-12866
▁ᎤᏄᏖᏎᏃ	-12867
▁ᎤᏅᎦᎸᏛ	-12868
▁ᎤᏅᏒᏰᏃ	-12869
▁ᎤᏅᏩᏁᎢ	-12870
▁ᎤᏇᏓᎸᏉ	-12871
▁ᎤᏍᎦᎸᎩ	-12872
▁ᎤᏍᏆᎷᎪ	-12873
▁ᎤᏍᏆᎸᎮ	-12874
▁ᎤᏍᏆᏃᏴ	-12875
▁ᎤᏍᏓᏱᏛ	-12876
▁ᎤᏍᏕᎵᎭ	-12877
▁ᎤᏍᏕᎸᎲ	-12878
▁ᎤᏍᏕᎸᏗ	-12879
▁ᎤᏎᎵᏔᏅ	-12880
▁ᎤᏓᎴᏅᏛ	-12881
▁ᎤᏓᏂᎵᎨ	-12882
▁ᎤᏓᏅᏅᎩ	-12883
▁ᎤᏓᏅᏍᏗ	-12884
▁ᎤᏓᏅᏖᏳ	-12885
▁ᎤᏓᏅᏙᎩ	-12886
▁ᎤᏓᏅᏙᏃ	-12887
▁ᎤᏓᏅᏬᏗ	-12888
▁ᎤᏓᏑᏴᎩ	-12889
▁ᎤᏓᏥᏃᎯ	-12890
▁ᎤᏓᏰᎵᎸ	-12891
▁ᎤᏓᏱᎸᎩ	-12892
▁ᎤᏔᏲᎴᏃ	-12893
▁ᎤᏔᏲᏎᎸ	-12894
▁ᎤᏕᎵᏛᏉ	-12895
▁ᎤᏕᏒᏅᎩ	-12896
▁ᎤᏗᏌᏓᏛ	-12897
▁ᎤᏙᎯᏳᏗ	-12898
▁ᎤᏙᏓᏆᏛ	-12899
ᏤᏪ	-12900
ᏁᎥᏏ	-12901
ᏁᎶᎢ	-12902
ᏒᏎᎵ	-12903
ᏕᏍᎩ	-12904
ᏛᏛᏅ	-12905
ᏥᎦᏛ	-12906
ᏬᏗᏱ	-12907
ᏲᎲᎾ	-12908
▁ᎮᎦ	-12909
▁ᎮᎸ	-12910
▁ᎮᏏ	-12911
ᎳᏗᏙᎴ	-12912
ᎳᏫᏎᎵ	-12913
ᏍᎦᎢᎭ	-12914
ᏎᎵᏔᏅ	-12915
ᏗᏔᏍᎬ	-12916
ᏚᎾᏙᎥ	-12917
ᏲᎱᏎᎵ	-12918
ᏲᎲᏍᎬ	-12919
▁ᏄᏪᎭ	-12920
▁ᏓᏓᎯ	-12921
▁ᏚᏪᎭ	-12922
▁ᏱᏧᏢ	-12923
ᎶᎯᏎᏗᏱ	-12924
ᎾᏰᏍᏛᎾ	-12925
ᏍᎦᎢᎲᎢ	-12926
ᏍᎪᎯᏧᏈ	-12927
ᏙᏓᏆᏍᎬ	-12928
ᏲᎱᏒᎯᏉ	-12929
ᏳᎪᏓᏁᎸ	-12930
▁ᎢᎦᏚᎸ	-12931
▁ᎤᎦᏔᎯ	-12932
▁ᎤᎸᏓᎸ	-12933
▁ᎤᎾᎵᏎ	-12934
▁ᎥᎩᎸᏉ	-12935
▁ᎨᏥᏚᎢ	-12936
▁ᎪᏪᎸᏃ	-12937
▁ᎬᏩᎴᏗ	-12938
▁ᎮᎨᏍᏗ	-12939
▁ᎮᏏᎦᏯ	-12940
▁ᏅᏧᏪᏎ	-12941
▁ᏗᏦᎸᎢ	-12942
▁ᏥᎦᏙᎥ	-12943
▁ᏥᏂᏪᎭ	-12944
▁ᏦᎢᏧᏈ	-12945
▁ᏫᎬᏙᏓ	-12946
▁ᏫᏗᎬᏩ	-12947
ᏍᏆᏂᎪᏔᏁ	-12948
ᏍᏗᏰᏗᏍᎬ	-12949
ᏓᏂᎸᏤᎸᎯ	-12950
▁ᎠᎦᏑᏰᏛ	-12951
▁ᎠᏂᏁᎸᎢ	-12952
▁ᎠᏥᏃᎮᎸ	-12953
▁ᎡᏣᎾᏝᎢ	-12954
▁ᎤᎾᏚᎸᏛ	-12955
▁ᎤᏂᏲᎸᎩ	-12956
▁ᎤᏚᏓᎸᏙ	-12957
▁ᎤᏛᎦᏂᎴ	-12958
▁ᎤᏛᎦᏅᎯ	-12959
▁ᎤᏛᏕᏍᏗ	-12960
▁ᎤᏛᏛᏁᏃ	-12961
▁ᎤᏟᎶᎥᎩ	-12962
▁ᎤᏟᎶᏍᏗ	-12963
▁ᎤᏣᏘᏂᏃ	-12964
▁ᎤᏩᏂᎴᎢ	-12965
▁ᎤᏩᏂᎸᎩ	-12966
▁ᎤᏩᏓᎴᏃ	-12967
▁ᎤᏩᏴᏒᎯ	-12968
▁ᎤᏪᎧᏅᎯ	-12969
▁ᎤᏪᏅᎡᎲ	-12970
▁ᎤᏪᏅᏍᏗ	-12971
▁ᎤᏪᏛᏨᎩ	-12972
▁ᎤᏪᏲᏓᏛ	-12973
▁ᎤᏫᏒᏎᎢ	-12974
▁ᎤᏬᎭᏒᎩ	-12975
▁ᎤᏬᎯᏨᎯ	-12976
▁ᎤᏬᎴᏍᏗ	-12977
▁ᎤᏬᏂᏒᎢ	-12978
▁ᎤᏬᏢᏅᏅ	-12979
▁ᎤᏰᎵᏒᎩ	-12980
▁ᎤᏰᎸᏐᎢ	-12981
▁ᎤᏰᎸᏒᎩ	-12982
▁ᎤᏰᎿᎥᎢ	-12983
▁ᎤᏲᏞᏒᎢ	-12984
▁ᎤᏴᎳᏎᎢ	-12985
▁ᎤᏴᏍᏗᏱ	-12986
▁ᎥᎩᏁᎸᎯ	-12987
▁ᎥᏆᎸᎥᎢ	-12988
▁ᎥᏇᎵᏎᎸ	-12989
▁ᎥᏝᏍᏗᏃ	-12990
▁ᎥᏞᏍᏗᏃ	-12991
▁ᎥᏳᎩᎯᏳ	-12992
▁ᎦᎫᏍᏓᎥ	-12993
▁ᎦᎳᎨᏴᎢ	-12994
▁ᎦᎴᏂᏙᎭ	-12995
▁ᎦᎷᏥᎸᎭ	-12996
▁ᎦᎷᏯᏍᏗ	-12997
▁ᎦᎸᎩᏍᏗ	-12998
▁ᎦᎸᎶᏰᏃ	-12999
ᎩᏉ	-13000
ᏎᎴᏃ	-13001
ᏏᏁᏃ	-13002
ᏴᎳᏏ	-13003
▁ᏘᎩ	-13004
▁ᏩᏲ	-13005
ᎦᏔᎥᎾ	-13006
ᎦᏙᎥᏏ	-13007
ᎴᏃᏅᎯ	-13008
ᎵᎡᎵᎦ	-13009
ᏟᏍᏔᏁ	-13010
▁ᎠᏑᏱ	-13011
▁ᎣᎦᏣ	-13012
▁ᎤᏁᏟ	-13013
▁ᎤᏔᎳ	-13014
▁ᎭᏗᏛ	-13015
▁ᎵᏏᏱ	-13016
▁ᏂᎪᎩ	-13017
▁ᏓᏳᎦ	-13018
▁ᏓᏳᏁ	-13019
▁ᏘᏂᏴ	-13020
▁ᏱᏃᎦ	-13021
▁ᏴᏓᏲ	-13022
ᎦᏙᎥᏒᎯ	-13023
ᎳᏍᏗᏍᎬ	-13024
ᎵᏍᏙᏔᏁ	-13025
ᏃᎯᎵᏒᎩ	-13026
ᏄᏬᏍᎨᎢ	-13027
ᏢᎯᏏᏍᎨ	-13028
ᏲᏪᎳᏁᎸ	-13029
▁ᎢᏍᎩᏃ	-13030
▁ᎣᎩᎾᎵ	-13031
▁ᎤᎾᏓᏈ	-13032
▁ᎤᏂᎢᏳ	-13033
▁ᎤᏂᏁᏎ	-13034
▁ᎤᏂᏔᎳ	-13035
▁ᎤᏃᎴᏃ	-13036
▁ᎤᏎᎪᎩ	-13037
▁ᎤᏲᎴᏃ	-13038
▁ᎦᎾᏝᎢ	-13039
▁ᎦᏬᏂᎭ	-13040
▁ᎨᎳᏍᏗ	-13041
▁ᎯᎦᏔᎲ	-13042
▁ᎯᎨᏳᎢ	-13043
▁ᎰᎱᏍᏗ	-13044
▁ᏚᏅᏒᎩ	-13045
▁ᏥᏂᎨᏎ	-13046
▁ᏳᏍᏆᎸ	-13047
ᏍᏛᏗᏍᎨᎢ	-13048
▁ᎠᎩᏍᏆᎸ	-13049
▁ᎠᎾᏕᎶᏆ	-13050
▁ᎠᏂᏍᎦᎩ	-13051
▁ᎠᏆᏓᏅᏘ	-13052
▁ᎠᏇᏓᎴᏒ	-13053
▁ᎢᎩᏁᎸᎢ	-13054
▁ᎢᏣᏛᏁᎯ	-13055
▁ᎤᎴᏃᏅᎯ	-13056
▁ᎤᎾᏣᎡᎢ	-13057
▁ᎤᏂᎩᏎᎢ	-13058
▁ᎤᏒᎯᏰᏱ	-13059
▁ᎤᏙᎵᏍᏙ	-13060
▁ᎤᏬᏰᏂᏃ	-13061
▁ᎦᎸᎶᎢᏃ	-13062
▁ᎦᎾᏄᎪᎩ	-13063
▁ᎦᎾᏄᎪᎬ	-13064
▁ᎦᎾᏰᏍᎩ	-13065
▁ᎦᏁᏟᏴᏛ	-13066
▁ᎦᏃᎴᏍᎬ	-13067
▁ᎦᏌᏛᏍᏗ	-13068
▁ᎦᏓᏅᏛᎵ	-13069
▁ᎦᏙᎨᏍᏗ	-13070
▁ᎦᏛᎩᏍᎬ	-13071
▁ᎦᏥᎦᏔᎭ	-13072
▁ᎦᏥᏲᎢᏳ	-13073
▁ᎦᏬᏂᏍᎨ	-13074
▁ᎦᏬᏂᏒᎯ	-13075
▁ᎦᏰᎪᏎᏗ	-13076
▁ᎧᏂᎵᏯᏃ	-13077
▁ᎧᏃᎮᏍᎬ	-13078
▁ᎧᏃᎮᏛᏱ	-13079
▁ᎧᏃᎯᏰᏃ	-13080
▁ᎧᏅᏑᎸᎢ	-13081
▁ᎨᎦᎨᏅᏴ	-13082
▁ᎨᎦᎫᏴᏛ	-13083
▁ᎨᎦᏛᏅᎢ	-13084
▁ᎨᎩᏍᎦᎩ	-13085
▁ᎨᏍᏉᏎᏗ	-13086
▁ᎨᏣᏛᎪᏗ	-13087
▁ᎨᏥᎨᏳᎢ	-13088
▁ᎨᏥᎨᏳᎭ	-13089
▁ᎨᏥᎨᏳᎯ	-13090
▁ᎨᏥᏁᎸᎩ	-13091
▁ᎨᏥᏁᏤᎸ	-13092
▁ᎨᏥᏍᎦᏂ	-13093
▁ᎨᏥᏛᎬᎢ	-13094
▁ᎨᏥᏛᏔᏅ	-13095
▁ᎨᏥᏱᏢᏗ	-13096
▁ᎩᏲᎵᎸᎭ	-13097
▁ᎪᎯᏍᏙᏗ	-13098
▁ᎪᎯᏳᏍᎩ	-13099
ᏄᏉ	-13100
ᎧᏙᏴ	-13101
ᎮᎵᎦ	-13102
ᎶᏄᎡ	-13103
ᏄᏬᎢ	-13104
ᏅᏒᏉ	-13105
▁ᏖᏒ	-13106
ᎦᏖᏃᎭ	-13107
ᎫᏴᏓᏏ	-13108
ᎵᎥᏂᎰ	-13109
ᎾᏛᏂᏏ	-13110
ᏂᎬᏎᎭ	-13111
ᏂᏏᏍᎩ	-13112
ᏛᎦᏁᎴ	-13113
▁ᎠᏂᏱ	-13114
▁ᎦᏃᎪ	-13115
▁ᏙᎦᎵ	-13116
▁ᏧᏠᎠ	-13117
▁ᏫᏓᏛ	-13118
▁ᏴᎦᎨ	-13119
ᎤᏚᎵᏍᎬ	-13120
ᎮᎵᏍᏙᏗ	-13121
ᎵᏍᏔᏅᎢ	-13122
ᎷᎩᏍᎨᎢ	-13123
ᏃᎩᏍᏔᏂ	-13124
ᏥᎦᏔᎲᎾ	-13125
ᏳᎵᏍᏙᏗ	-13126
▁ᎠᎩᏰᎯ	-13127
▁ᎠᎪᏎᎭ	-13128
▁ᎠᏥᎪᏗ	-13129
▁ᎢᏣᏛᏗ	-13130
▁ᎢᏥᏯᎢ	-13131
▁ᎤᎷᏤᏃ	-13132
▁ᎤᎿᎷᏎ	-13133
▁ᎤᏠᏱᎭ	-13134
▁ᎦᏃᎪᎢ	-13135
▁ᎦᏃᏍᎩ	-13136
▁ᏔᎵᎦᎵ	-13137
▁ᏕᏣᏓᏛ	-13138
▁ᏗᎬᏍᎦ	-13139
▁ᏗᏤᎷᎩ	-13140
▁ᏗᏤᏍᏙ	-13141
▁ᏚᎾᏓᏛ	-13142
▁ᏚᏃᎸᎩ	-13143
▁ᏣᏰᎸᏅ	-13144
▁ᏥᏕᎫᎪ	-13145
▁ᏥᏯᏤᎵ	-13146
▁ᏱᏙᎬᎩ	-13147
▁ᏳᏁᏤᎢ	-13148
ᎬᏩᎶᏔᏅᎯ	-13149
ᏓᏙᎵᏍᏔᏅ	-13150
▁ᎠᏖᎸᏅᎯ	-13151
▁ᎢᎦᏕᏗᏱ	-13152
▁ᎢᏣᏓᏅᏙ	-13153
▁ᎤᏂᏁᏉᏤ	-13154
▁ᎤᏂᏅᏅᎢ	-13155
▁ᎤᏚᎵᏍᎪ	-13156
▁ᎦᏃᏗᏍᎩ	-13157
▁ᎦᏥᎨᏳᎢ	-13158
▁ᎦᏥᏅᏏᏛ	-13159
▁ᎧᏃᎮᏍᎨ	-13160
▁ᎪᎯᏳᏙᏗ	-13161
▁ᎪᎵᎨᏍᏗ	-13162
▁ᎫᏓᎴᏍᎩ	-13163
▁ᎬᎩᏰᎸᏗ	-13164
▁ᎬᎪᎵᏰᏗ	-13165
▁ᎬᏂᎨᏒᏃ	-13166
▁ᎬᏂᏳᏰᏃ	-13167
▁ᎬᏃᏌᏛᎯ	-13168
▁ᎬᏆᏚᎸᏗ	-13169
▁ᎬᏩᎩᏨᏗ	-13170
▁ᎬᏩᎪᎲᎢ	-13171
▁ᎬᏩᎪᎲᎯ	-13172
▁ᎬᏩᎷᏤᎮ	-13173
▁ᎬᏩᎸᏉᏗ	-13174
▁ᎬᏩᎾᏕᏗ	-13175
▁ᎬᏩᏁᏤᎴ	-13176
▁ᎬᏩᏃᎮᎭ	-13177
▁ᎬᏩᏃᎴᎢ	-13178
▁ᎬᏩᏃᏁᎴ	-13179
▁ᎬᏩᏄᎸᏗ	-13180
▁ᎬᏩᏍᏓᏩ	-13181
▁ᎬᏩᏓᏅᏘ	-13182
▁ᎬᏩᏖᎸᏗ	-13183
▁ᎬᏩᏘᏃᎸ	-13184
▁ᎬᏩᏛᏁᎢ	-13185
▁ᎬᏩᏛᏅᎢ	-13186
▁ᎬᏩᏥᎪᏗ	-13187
▁ᎬᏩᏲᎸᎩ	-13188
▁ᎬᏬᎵᏤᎢ	-13189
▁ᎬᏭᎯᏍᏗ	-13190
▁ᎬᏯᏅᏓᏗ	-13191
▁ᎭᎵᎮᎵᎩ	-13192
▁ᎭᏓᎶᎥᏓ	-13193
▁ᎭᏙᎴᎰᎯ	-13194
▁ᎯᎦᏔᎯᏳ	-13195
▁ᎯᎦᏔᎲᎢ	-13196
▁ᎯᎦᏔᎲᎩ	-13197
▁ᎯᎸᎡᏗᏱ	-13198
▁ᎯᏁᎨᏍᏗ	-13199
ᎤᏁᎬ	-13200
ᏘᏌᏂ	-13201
▁ᎵᏗ	-13202
▁ᏎᎳ	-13203
ᎤᏍᏕᏎ	-13204
ᎧᎵᎢᎭ	-13205
ᎪᏁᎶᎯ	-13206
ᎾᏫᏛᎯ	-13207
ᏁᏤᎰᎢ	-13208
ᏛᏛᏁᎢ	-13209
ᏡᏗᏍᎨ	-13210
ᏡᏗᏍᎪ	-13211
▁ᎠᏕᏄ	-13212
▁ᎠᏙᏂ	-13213
▁ᎤᎷᏰ	-13214
▁ᏂᏗᏗ	-13215
▁ᏎᎳᎩ	-13216
▁ᏕᎭᏕ	-13217
▁ᏗᎬᏬ	-13218
▁ᏥᏅᏒ	-13219
▁ᏧᏩᏅ	-13220
▁ᏫᏗᎨ	-13221
▁ᏰᏤᎵ	-13222
▁ᏱᏁᎦ	-13223
ᎴᎳᏛᏅᎾ	-13224
ᏍᏚᎢᎡᎵ	-13225
ᏚᏓᎴᏍᏓ	-13226
ᏛᎯᏎᎸᎯ	-13227
▁ᎢᎩᏣᏘ	-13228
▁ᎣᎩᏅᏒ	-13229
▁ᎤᎪᏏᏛ	-13230
▁ᎤᏂᏁᎯ	-13231
▁ᎤᏂᏯᏫ	-13232
▁ᎤᏑᏰᏛ	-13233
▁ᎤᏦᎯᏃ	-13234
▁ᎦᎪᎨᏃ	-13235
▁ᎦᏃᏥᏃ	-13236
▁ᎦᏛᎬᎩ	-13237
▁ᎬᏉᎯᏳ	-13238
▁ᎬᏩᏂᏲ	-13239
▁ᎾᎩᎲᎾ	-13240
▁ᏕᎨᏥᏂ	-13241
▁ᏗᏍᏚᏗ	-13242
▁ᏚᎦᏔᎲ	-13243
▁ᏚᏃᏁᎴ	-13244
▁ᏣᎵᏂᎩ	-13245
▁ᏤᏉᎯᏳ	-13246
▁ᏳᏂᎷᏤ	-13247
ᎦᎵᏍᏓᏛᎩ	-13248
ᎦᏌᏯᏍᏔᏅ	-13249
ᎧᎵᎢᏍᏔᏅ	-13250
ᏃᎯᏯᏍᎪᏃ	-13251
▁ᎠᎩᏍᎦᎩ	-13252
▁ᎠᏂᎦᏘᏴ	-13253
▁ᎠᏂᎨᏴᏃ	-13254
▁ᎠᏇᏅᏍᏗ	-13255
▁ᎡᎩᏁᎸᎯ	-13256
▁ᎡᎳᏪᏱᏉ	-13257
▁ᎡᏗᏍᎦᎩ	-13258
▁ᎡᏥᎧᎵᎢ	-13259
▁ᎤᎾᎵᏍᎦ	-13260
▁ᎤᎾᏗᏔᎲ	-13261
▁ᎤᏂᏛᏙᏗ	-13262
▁ᎤᏅᏩᏅᎩ	-13263
▁ᎤᏓᏅᏖᎴ	-13264
▁ᎯᏃᎮᏍᎬ	-13265
▁ᎯᏍᎩᏧᏈ	-13266
▁ᎯᏍᎫᏛᎦ	-13267
▁ᎵᎨᎣᏂᏯ	-13268
▁ᎵᏍᏙᏗᏱ	-13269
▁ᎺᏌᏆᏕᎻ	-13270
▁ᎾᎢᏧᎳᎭ	-13271
▁ᎾᎦᎶᏁᏛ	-13272
▁ᎾᎩᎲᎾᏃ	-13273
▁ᎾᎩᏪᏒᎢ	-13274
▁ᎾᎩᏲᎲᎾ	-13275
▁ᎾᎬᏁᎴᎢ	-13276
▁ᎾᎾᎵᎮᎵ	-13277
▁ᎾᎾᏛᏁᎭ	-13278
▁ᎾᏅᏍᎬᎾ	-13279
▁ᎾᏆᏍᏛᎾ	-13280
▁ᎾᏋᏁᎸᎩ	-13281
▁ᎾᏍᏉᏍᎪ	-13282
▁ᎾᏎᎵᏗᏃ	-13283
▁ᎾᏱᏍᎬᎾ	-13284
▁ᎿᏛᏁᎲᎢ	-13285
▁ᏁᎳᏍᎪᎯ	-13286
▁ᏁᏨᏁᎸᎢ	-13287
▁ᏂᎤᏟᏍᏕ	-13288
▁ᏂᎤᏪᏎᎢ	-13289
▁ᏂᎦᎷᎬᎾ	-13290
▁ᏂᎦᏅᎯᏒ	-13291
▁ᏂᎦᏛᎬᎾ	-13292
▁ᏂᎨᎬᏁᎸ	-13293
▁ᏂᎬᏁᎲᎢ	-13294
▁ᏂᎬᏁᎲᎩ	-13295
▁ᏂᎬᏂᏏᎭ	-13296
▁ᏂᎬᏩᏁᎸ	-13297
▁ᏂᏓᏅᏁᎰ	-13298
▁ᏂᏕᎬᏁᎰ	-13299
ᎴᏲ	-13300
ᎠᏁᎯ	-13301
ᏧᏁᎬ	-13302
ᏬᏁᏓ	-13303
▁ᎿᏃ	-13304
ᎢᎮᏍᏗ	-13305
ᎦᎵᏍᎪ	-13306
ᎾᏍᎩᏃ	-13307
ᏄᎸᏗᏉ	-13308
ᏒᏂᎴᎢ	-13309
ᏕᏍᏗᏱ	-13310
ᏬᏁᏔᏂ	-13311
ᏯᏅᎲᎭ	-13312
▁ᏓᏈᏗ	-13313
▁ᏚᏅᏫ	-13314
▁ᏚᏪᏯ	-13315
▁ᏫᎦᏥ	-13316
▁ᏯᎲᏏ	-13317
▁ᏴᎬᎩ	-13318
ᏒᏂᏍᏗᏱ	-13319
ᏩᏛᎲᏒᎩ	-13320
▁ᎠᎩᎾᎥ	-13321
▁ᎢᏣᏓᎳ	-13322
▁ᎣᎦᏓᏙ	-13323
▁ᎾᏠᎨᏏ	-13324
▁ᏂᏥᎥᏃ	-13325
▁ᏓᏁᎰᎢ	-13326
▁ᏚᏅᎦᎸ	-13327
▁ᏚᏓᏓᎴ	-13328
▁ᏣᏚᎵᎭ	-13329
▁ᏥᎨᏒᎢ	-13330
▁ᏧᎶᏄᎮ	-13331
▁ᏨᏒᎯᏳ	-13332
▁ᏭᏯᏅᏛ	-13333
ᎳᏫᏎᎮᏍᏗ	-13334
ᏍᏚᎢᎡᏗᏱ	-13335
ᏔᎳᏬᎯᏎᎴ	-13336
▁ᎠᎩᎾᎥᎢ	-13337
▁ᎠᎩᏁᏨᎯ	-13338
▁ᎠᏐᏢᏙᏗ	-13339
▁ᎠᏠᎾᏍᏗ	-13340
▁ᎠᏥᏃᎮᎭ	-13341
▁ᎠᏫᎡᏗᏱ	-13342
▁ᎡᏥᏍᎦᎩ	-13343
▁ᎡᏥᏯᏅᎲ	-13344
▁ᎢᏤᏲᏅᎯ	-13345
▁ᎢᏨᏯᏛᏓ	-13346
▁ᎣᎦᏅᏅᎩ	-13347
▁ᎤᎩᏨᏅᏃ	-13348
▁ᎤᎾᏝᎢᏃ	-13349
▁ᎤᏂᎪᏗᏱ	-13350
▁ᎤᏂᏩᏛᎲ	-13351
▁ᎤᏂᏰᎸᏁ	-13352
▁ᎤᏂᏴᎸᎯ	-13353
▁ᎤᏄᏩᎥᎩ	-13354
▁ᎨᎵᎵᏰᏃ	-13355
▁ᎩᎦᎨᎢᏳ	-13356
▁ᎬᏩᎪᎲᏃ	-13357
▁ᎯᏃᎮᏍᎩ	-13358
▁ᏂᏕᎬᏁᎲ	-13359
▁ᏂᏙᏓᎬᏩ	-13360
▁ᏂᏙᏨᏁᎰ	-13361
▁ᏂᏚᏃᎯᏳ	-13362
▁ᏂᏚᏅᏏᏴ	-13363
▁ᏂᏚᏛᏁᎴ	-13364
▁ᏂᏚᏪᏎᎵ	-13365
▁ᏂᏣᏫᏒᎾ	-13366
▁ᏂᏣᏴᏢᎾ	-13367
▁ᏂᏨᏁᎲᎢ	-13368
▁ᏂᏨᏁᏍᏗ	-13369
▁ᏂᏨᏃᏁᎸ	-13370
▁ᏂᏨᏪᏎᎸ	-13371
▁ᏃᎦᏛᏁᎸ	-13372
▁ᏃᏍᏗᏟᏏ	-13373
▁ᏄᎦᏔᎲᎾ	-13374
▁ᏄᎨᏳᏅᎾ	-13375
▁ᏄᎵᏂᎬᎦ	-13376
▁ᏄᎵᏍᏛᏉ	-13377
▁ᏄᎸᏉᏛᎾ	-13378
▁ᏄᏂᎬᏫᏳ	-13379
▁ᏄᏅᏁᎸᎩ	-13380
▁ᏄᏓᎴᏒᎢ	-13381
▁ᏄᏕᏅᎾᏉ	-13382
▁ᏄᏛᎿᏕᎬ	-13383
▁ᏄᏧᏈᏍᏛ	-13384
▁ᏄᏩᏂᏌᏅ	-13385
▁ᏄᏪᎡᎴᎢ	-13386
▁ᏄᏪᏎᎶᎢ	-13387
▁ᏄᏴᎳᏒᎾ	-13388
▁ᏅᏓᎪᎯᏥ	-13389
▁ᏅᏓᎬᏩᏂ	-13390
▁ᏅᏓᏥᏪᏏ	-13391
▁ᏅᏧᏛᎿᏗ	-13392
▁ᏅᏩᏍᏕᎢ	-13393
▁ᏅᏩᏍᏙᎢ	-13394
▁ᏅᏩᏓᎴᏉ	-13395
▁ᏅᏲᎯᏰᏃ	-13396
▁ᏈᏓᏍᎩᏂ	-13397
▁ᏌᏉᏉᏰᏃ	-13398
▁ᏍᎩᎦᏘᏓ	-13399
ᎴᏏ	-13400
ᎪᏫᏒ	-13401
ᏂᏗᎩ	-13402
ᏃᎯᏰ	-13403
▁ᏛᎭ	-13404
ᏂᎨᏒᎾ	-13405
ᏕᎰᏍᎦ	-13406
ᏕᎵᏎᎭ	-13407
ᏢᏔᏍᏗ	-13408
ᏣᏛᏁᎭ	-13409
▁ᎭᏢᏃ	-13410
▁ᏂᎨᏣ	-13411
▁ᏄᏩᏅ	-13412
▁ᏆᏂᏗ	-13413
▁ᏙᏥᏴ	-13414
▁ᏥᎾᎩ	-13415
▁ᏧᏂᏁ	-13416
▁ᏯᎾᎵ	-13417
▁ᏱᎬᏗ	-13418
▁ᏳᏂᎬ	-13419
ᎶᎯᏎᎴᎢ	-13420
ᎾᏛᏁᎴᎢ	-13421
ᏍᏕᎸᎯᏓ	-13422
ᏎᎪᎩᏎᎢ	-13423
ᏕᎶᏆᏍᏗ	-13424
ᏠᎯᏍᏛᎢ	-13425
ᏲᏥᏓᏍᏗ	-13426
▁ᎠᎩᎲᎩ	-13427
▁ᎢᏥᏙᎾ	-13428
▁ᎤᎵᎩᏳ	-13429
▁ᎥᎨᏒᎩ	-13430
▁ᎪᎯᏱᏃ	-13431
▁ᎿᏛᏁᎭ	-13432
▁ᏂᎨᎥᎾ	-13433
▁ᏕᏣᎧᏂ	-13434
▁ᏗᎵᏰᎢ	-13435
▁ᏚᎾᏄᏩ	-13436
▁ᏚᏂᎾᏫ	-13437
▁ᏚᏯᏍᏜ	-13438
▁ᏥᏁᏁᏗ	-13439
ᎵᏍᏓᏴᏅᎾ	-13440
ᏕᎰᎯᏍᏗᏱ	-13441
▁ᎠᏯᎡᏍᏗ	-13442
▁ᎢᎪᏢᏅᎯ	-13443
▁ᎤᏂᎦᏘᏯ	-13444
▁ᎤᏇᏓᎸᎢ	-13445
▁ᎤᏍᏆᎸᏗ	-13446
▁ᎤᏛᏐᏅᎯ	-13447
▁ᎨᏙᎮᏍᏗ	-13448
▁ᎬᏩᏂᏯᎢ	-13449
▁ᎾᎾᏛᏁᎮ	-13450
▁ᏄᏩᏁᎴᎢ	-13451
▁ᏍᎩᎲᏏᏉ	-13452
▁ᏍᎩᏅᏏᏛ	-13453
▁ᏍᎩᏔᏲᏏ	-13454
▁ᏍᎩᏯᎥᎢ	-13455
▁ᏍᎩᏯᎵᎡ	-13456
▁ᏍᎩᏲᏎᎭ	-13457
▁ᏍᏆᏕᎲᏏ	-13458
▁ᏐᎣᏁᎵᏁ	-13459
▁ᏓᎦᎶᏐᏂ	-13460
▁ᏓᎦᏘᎴᎪ	-13461
▁ᏓᎦᏟᏌᏂ	-13462
▁ᏓᎦᏢᏆᏏ	-13463
▁ᏓᎧᏁᏌᏛ	-13464
▁ᏓᎬᏁᎵᏃ	-13465
▁ᏓᎶᏂᎨᎢ	-13466
▁ᏓᎾᎵᏃᎮ	-13467
▁ᏓᎾᏓᏛᏛ	-13468
▁ᏓᏂᎦᏔᎲ	-13469
▁ᏓᏂᎳᏫᎡ	-13470
▁ᏓᏂᏁᎲᎩ	-13471
▁ᏓᏂᏂᏓᏛ	-13472
▁ᏓᏂᏄᎪᏫ	-13473
▁ᏓᏂᏰᎲᎩ	-13474
▁ᏓᏅᏗᏍᎬ	-13475
▁ᏓᏍᏚᎲᎢ	-13476
▁ᏓᏍᏚᎲᎩ	-13477
▁ᏓᏓᏪᎵᎩ	-13478
▁ᏓᏘᏁᎲᎩ	-13479
▁ᏓᏛᏍᎬᎢ	-13480
▁ᏓᏠᏱᎲᎩ	-13481
▁ᏓᏣᏃᏁᎵ	-13482
▁ᏓᏥᏴᏂᎵ	-13483
▁ᏓᏨᏃᏁᎵ	-13484
▁ᏓᏳᎦᏛᎩ	-13485
▁ᏓᏳᏐᏅᏂ	-13486
▁ᏓᏳᏗᏩᏏ	-13487
▁ᏓᏳᏨᏨᎩ	-13488
▁ᏕᎤᎧᎿᏅ	-13489
▁ᏕᎤᏲᏒᎩ	-13490
▁ᏕᎦᏃᏣᎸ	-13491
▁ᏕᎦᏄᎪᎬ	-13492
▁ᏕᎧᏁᏤᎭ	-13493
▁ᏕᎧᏁᏤᎲ	-13494
▁ᏕᎨᎦᏛᏁ	-13495
▁ᏕᎩᏂᏴᏒ	-13496
▁ᏕᎪᏢᏒᎩ	-13497
▁ᏕᎬᏩᎵᏥ	-13498
▁ᏕᎬᏩᏚᏫ	-13499
ᏲᎴ	-13500
ᏱᎵᏓ	-13501
▁ᎢᏛᏗ	-13502
▁ᏚᏁᏲ	-13503
▁ᏚᏂᎰ	-13504
ᎵᏍᏓᏁᎰ	-13505
ᏔᏂᏙᎲᎢ	-13506
ᏜᏏᏛᎡᏗ	-13507
ᏟᏂᎬᏁᎰ	-13508
▁ᏣᎾᎥᎢ	-13509
▁ᏥᏕᎦᏓ	-13510
▁ᏫᎾᏚᎦ	-13511
▁ᎤᎾᏟᏂᎬ	-13512
▁ᎤᏬᎯᏳᎯ	-13513
▁ᎤᏬᎯᏳᏅ	-13514
▁ᎥᏓᏘᏁᏗ	-13515
▁ᎾᏃᎵᎬᎾ	-13516
▁ᏕᎬᏩᏏᏔ	-13517
▁ᏕᎬᏲᎯᏏ	-13518
▁ᏕᎭᏅᏓᏗ	-13519
▁ᏕᎯᎦᏔᎭ	-13520
▁ᏕᎯᏲᎥᎭ	-13521
▁ᏕᎲᏗᏍᎬ	-13522
▁ᏕᏣᎴᏔᏅ	-13523
▁ᏕᏣᎵᏂᎪ	-13524
▁ᏕᏣᏁᎶᏛ	-13525
▁ᏕᏥᎦᏅᎩ	-13526
▁ᏕᏥᎦᏔᎭ	-13527
▁ᏕᏥᎨᏳᏒ	-13528
▁ᏕᏨᏁᏍᏗ	-13529
▁ᏖᏲᎲᏍᎩ	-13530
▁ᏗᎤᎷᏨᏃ	-13531
▁ᏗᎤᏨᏎᎢ	-13532
▁ᏗᎦᎳᏫᎩ	-13533
▁ᏗᎦᏁᎸᎢ	-13534
▁ᏗᎦᏃᎸᏗ	-13535
▁ᏗᎦᏄᎪᎪ	-13536
▁ᏗᎦᏅᎯᏛ	-13537
▁ᏗᎦᏅᏌᏗ	-13538
▁ᏗᎦᏓᏅᏙ	-13539
▁ᏗᎦᏙᎵᏃ	-13540
▁ᏗᎦᏚᏗᏱ	-13541
▁ᏗᎧᏃᎨᏂ	-13542
▁ᏗᎧᏃᎩᏛ	-13543
▁ᏗᎨᏥᎸᎯ	-13544
▁ᏗᎨᏥᏰᎸ	-13545
▁ᏗᎩᎡᏗᏱ	-13546
▁ᏗᎩᎾᏫᏱ	-13547
▁ᏗᎩᏄᎪᏨ	-13548
▁ᏗᎯᏍᏗᏱ	-13549
▁ᏗᎵᏍᏚᎶ	-13550
▁ᏗᎾᏓᎯᎯ	-13551
▁ᏗᎾᏓᏛᎿ	-13552
▁ᏗᎾᏠᏱᎯ	-13553
▁ᏗᏂᎧᏅᎢ	-13554
▁ᏗᏂᎰᎵᏃ	-13555
▁ᏗᏂᏁᏥᏱ	-13556
▁ᏗᏂᏃᏣᎵ	-13557
▁ᏗᏂᏰᎸᎢ	-13558
▁ᏗᏂᏲᎵᏉ	-13559
▁ᏗᏂᏲᏅᎵ	-13560
▁ᏗᏆᎴᏅᎯ	-13561
▁ᏗᏆᏓᎴᏅ	-13562
▁ᏗᏆᏓᏅᏛ	-13563
▁ᏗᏍᎨᏍᏗ	-13564
▁ᏗᏑᏢᏛᏃ	-13565
▁ᏗᏓᎢᏒᎢ	-13566
▁ᏗᏓᎯᏍᏗ	-13567
▁ᏗᏓᏂᎸᎩ	-13568
▁ᏗᏓᏓᏅᏟ	-13569
▁ᏗᏓᏤᎵᏛ	-13570
▁ᏗᏛᏙᏗᏱ	-13571
▁ᏗᏣᏠᏱᎦ	-13572
▁ᏗᏣᏯᏂᎭ	-13573
▁ᏗᏤᎳᏍᏓ	-13574
▁ᏗᏥᏁᏗᏱ	-13575
▁ᏗᏥᏍᎪᎵ	-13576
▁ᏗᏦᎸᏒᎯ	-13577
▁ᏗᏦᏢᏅᎯ	-13578
▁ᏗᏨᏍᏗᏱ	-13579
▁ᏗᏯᏂᏍᎩ	-13580
▁ᏙᎩᏲᏐᏅ	-13581
▁ᏙᎭᏠᏱᎭ	-13582
▁ᏙᏓᎦᏥᏯ	-13583
▁ᏙᏓᎬᏁᎵ	-13584
▁ᏙᏓᏦᏕᎵ	-13585
▁ᏙᏗᏫᏒᎢ	-13586
▁ᏙᏨᏁᏍᏗ	-13587
▁ᏚᎪᏗᏍᎩ	-13588
▁ᏚᎴᏅᏰᏃ	-13589
▁ᏚᎴᏔᏁᎢ	-13590
▁ᏚᎸᏌᏛᎢ	-13591
▁ᏚᎾᎧᏛᎢ	-13592
▁ᏚᎾᎴᏁᏃ	-13593
▁ᏚᎾᏓᏡᎬ	-13594
▁ᏚᎾᏓᏲᏒ	-13595
▁ᏚᎾᏚᏓᏛ	-13596
▁ᏚᏁᏤᎸᏃ	-13597
▁ᏚᏂᎦᎾᏕ	-13598
▁ᏚᏂᎧᎵᏤ	-13599
▁ᏚᏂᎳᏫᏤ	-13600
▁ᏚᏂᎳᏫᏨ	-13601
▁ᏚᏂᏅᏒᎩ	-13602
▁ᏚᏂᏍᎩᎸ	-13603
▁ᏚᏂᏖᎸᏁ	-13604
▁ᏚᏂᏩᏛᎮ	-13605
▁ᏚᏂᏩᏛᎲ	-13606
▁ᏚᏂᏰᏍᏛ	-13607
▁ᏚᏂᏴᏍᏕ	-13608
▁ᏚᏃᎮᎮᎴ	-13609
▁ᏚᏃᎸᏒᎩ	-13610
▁ᏚᏃᏁᎸᎩ	-13611
▁ᏚᏃᏣᎶᏤ	-13612
▁ᏚᏄᎪᏔᏁ	-13613
▁ᏚᏄᎪᏔᏅ	-13614
▁ᏚᏄᎪᏫᏎ	-13615
▁ᏚᏄᎪᏫᏒ	-13616
▁ᏚᏏᏔᏛᏃ	-13617
▁ᏚᏑᏰᏎᎢ	-13618
▁ᏚᏔᏲᏎᎴ	-13619
▁ᏚᏗᎦᎴᏯ	-13620
▁ᏚᏘᏅᏎᏃ	-13621
▁ᏚᏙᎡᏍᏗ	-13622
▁ᏚᏙᏍᏛᎢ	-13623
▁ᏚᏚᎪᏔᏅ	-13624
▁ᏚᏛᏛᏁᎢ	-13625
▁ᏚᏛᏛᏅᎩ	-13626
▁ᏚᏠᏱᎴᎢ	-13627
▁ᏚᏪᎧᏁᎴ	-13628
▁ᏚᏪᏐᏨᎩ	-13629
▁ᏚᏪᏟᏌᏅ	-13630
▁ᏚᏬᏢᏁᎢ	-13631
▁ᏚᏭᎪᏔᏅ	-13632
▁ᏚᏯᏅᎮᎢ	-13633
▁ᏚᏲᎯᏎᎸ	-13634
▁ᏚᏳᎪᏛᎩ	-13635
▁ᏛᎵᏍᏆᏗ	-13636
▁ᏛᎵᏏᎲᏏ	-13637
▁ᏛᏇᏓᎴᏏ	-13638
▁ᏛᏨᎷᏤᎵ	-13639
▁ᏣᎧᎵᎢᎭ	-13640
▁ᏣᎪᏩᏘᎭ	-13641
▁ᏣᎯᏍᏗᏱ	-13642
▁ᏣᎾᏍᏆᎶ	-13643
▁ᏣᏁᎫᏥᏛ	-13644
▁ᏣᏁᏤᎸᎯ	-13645
▁ᏣᏂᎦᏔᎭ	-13646
▁ᏣᏂᎩᏍᎪ	-13647
▁ᏣᏂᏙᎾᎠ	-13648
▁ᏣᏍᏆᏂᎪ	-13649
▁ᏣᏍᏕᏅᏨ	-13650
▁ᏣᏓᎨᏳᏒ	-13651
▁ᏣᏓᏅᏙᎩ	-13652
▁ᏣᏕᎨᏍᏗ	-13653
▁ᏣᏕᎲᏍᎪ	-13654
▁ᏣᏛᎦᏅᎢ	-13655
▁ᏣᏛᎩᏍᎪ	-13656
▁ᏣᏡᏗᏍᎩ	-13657
▁ᏣᏰᎸᏅᎯ	-13658
▁ᏣᏴᏍᏗᏱ	-13659
▁ᏤᎦᎳᏯᏃ	-13660
▁ᏤᏅᏍᏗᏱ	-13661
▁ᏤᏣᎦᏅᎦ	-13662
▁ᏤᏣᏌᎳᏓ	-13663
▁ᏤᏣᏟᏴᏏ	-13664
▁ᏥᎦᎷᎪᎢ	-13665
▁ᏥᎦᏍᎦᏂ	-13666
▁ᏥᎦᏔᎲᎩ	-13667
▁ᏥᎨᏥᏁᎸ	-13668
▁ᏥᎨᏳᎢᏳ	-13669
▁ᏥᎩᎵᏲᎦ	-13670
▁ᏥᎩᎷᏤᎸ	-13671
▁ᏥᎩᏁᎸᎩ	-13672
▁ᏥᎬᏩᏂᏛ	-13673
▁ᏥᎯᏃᏁᎵ	-13674
▁ᏥᎸᏉᏙᏗ	-13675
▁ᏥᎾᏂᎥᎩ	-13676
▁ᏥᏂᎦᏪᎠ	-13677
▁ᏥᏂᎨᏎᎢ	-13678
▁ᏥᏄᎦᎾᎯ	-13679
▁ᏥᏄᎾᏍᏗ	-13680
▁ᏥᏄᏛᏁᎴ	-13681
▁ᏥᏄᏪᏒᎩ	-13682
▁ᏥᏅᏍᏗᏱ	-13683
▁ᏥᏅᏩᏍᏗ	-13684
▁ᏥᏍᎦᎾᎢ	-13685
▁ᏥᏓᎩᏂᏴ	-13686
▁ᏥᏔᏲᏎᎭ	-13687
▁ᏥᏕᎤᏙᎥ	-13688
▁ᏥᏕᎪᏪᎳ	-13689
▁ᏥᏕᏥᏙᎦ	-13690
▁ᏥᏗᎦᏔᎭ	-13691
▁ᏥᏚᏂᏂᏴ	-13692
▁ᏥᏣᏓᏡᎬ	-13693
▁ᏥᏦᎯᏳᏂ	-13694
▁ᏥᏫᎦᎶᎯ	-13695
▁ᏥᏫᎬᏂᎰ	-13696
▁ᏥᏫᏍᎪᎢ	-13697
▁ᏥᏬᏂᏍᎬ	-13698
▁ᏥᏯᎵᎡᎵ	-13699
▁ᏥᏯᏑᏰᏛ	-13700
▁ᏥᏯᏙᎵᎩ	-13701
▁ᏥᏰᎮᏍᏗ	-13702
▁ᏦᎦᏓᏅᏙ	-13703
▁ᏦᎬᏔᏅᎯ	-13704
▁ᏦᏪᎳᏅᎩ	-13705
▁ᏧᎦᎿᏁᎢ	-13706
▁ᏧᎧᎵᏨᎯ	-13707
▁ᏧᎬᏩᎴᎢ	-13708
▁ᏧᎳᏏᏗᏱ	-13709
▁ᏧᎴᏙᏗᏱ	-13710
▁ᏧᎵᏍᏈᏗ	-13711
▁ᏧᎾᏄᎪᏤ	-13712
▁ᏧᎾᏄᎪᏨ	-13713
▁ᏧᎾᏓᎴᏛ	-13714
▁ᏧᎾᏓᏅᏘ	-13715
▁ᏧᎾᏚᎵᎭ	-13716
▁ᏧᎾᏛᏒᎯ	-13717
▁ᏧᎾᏤᏌᏘ	-13718
▁ᏧᏂᎨᏳᎯ	-13719
▁ᏧᏂᏅᏗᏱ	-13720
▁ᏧᏂᏏᏅᎯ	-13721
▁ᏧᏂᏣᏔᏉ	-13722
▁ᏧᏂᏰᎸᎭ	-13723
▁ᏧᏂᏲᎱᎯ	-13724
▁ᏧᏃᎯᏳᏗ	-13725
▁ᏧᏃᎸᏁᎢ	-13726
▁ᏧᏃᏕᎯᎯ	-13727
▁ᏧᏅᏍᏗᏱ	-13728
▁ᏧᏅᏔᏅᎯ	-13729
▁ᏧᏌᎴᏅᏛ	-13730
▁ᏧᏍᎪᏎᎢ	-13731
▁ᏧᏍᏕᎸᏛ	-13732
▁ᏧᏕᏲᏗᏱ	-13733
▁ᏧᏘᏲᏌᏘ	-13734
▁ᏧᏘᏲᏍᏗ	-13735
▁ᏧᏨᏍᏗᏱ	-13736
▁ᏧᏩᏔᏅᎯ	-13737
▁ᏧᏪᏅᏒᎢ	-13738
▁ᏧᏪᏲᏅᎯ	-13739
▁ᏧᏲᏏᏍᎨ	-13740
▁ᏨᏛᏛᏔᏂ	-13741
▁ᏩᎦᏛᎥᎦ	-13742
▁ᏩᎾᏅᎥᎦ	-13743
▁ᏩᏂᎦᏖᎢ	-13744
▁ᏩᏐᎾᏍᎪ	-13745
▁ᏩᏴᎯᎲᎢ	-13746
▁ᏪᏣᏓᎤᎦ	-13747
▁ᏫᎤᎶᏎᎢ	-13748
▁ᏫᎩᏅᎥᏏ	-13749
▁ᏫᏓᎮᏍᏗ	-13750
▁ᏫᏗᏍᎩᏯ	-13751
▁ᏫᏚᎧᎿᏅ	-13752
▁ᏫᏚᏯᎲᏃ	-13753
▁ᏫᏥᎧᏅᎯ	-13754
▁ᏫᏥᎪᎥᎩ	-13755
▁ᏫᏥᎶᏒᎩ	-13756
▁ᏫᏱᏣᏴᎸ	-13757
▁ᏭᎶᎯᏍᏗ	-13758
▁ᏭᎷᏤᎸᎩ	-13759
▁ᏭᏁᎳᏗᏓ	-13760
▁ᏭᏂᎷᏨᏃ	-13761
▁ᏭᏅᎫᏛᎢ	-13762
▁ᏭᏕᎵᎬᏃ	-13763
▁ᏭᏗᏅᏒᎩ	-13764
▁ᏭᏯᏅᎮᏃ	-13765
▁ᏯᎾᏓᏛᎦ	-13766
▁ᏯᏂᎦᏔᎭ	-13767
▁ᏯᏂᎸᏉᏓ	-13768
▁ᏯᏆᏚᎵᎭ	-13769
▁ᏯᏆᏛᏁᎸ	-13770
▁ᏯᏓᏅᏖᎭ	-13771
▁ᏯᏥᏍᏕᎸ	-13772
▁ᏯᏥᏯᏝᏅ	-13773
▁ᏰᎵᏉᏍᎪ	-13774
▁ᏰᏥᎦᏔᎭ	-13775
▁ᏱᎦᎲᏍᎪ	-13776
▁ᏱᎦᎳᏍᏢ	-13777
▁ᏱᎦᏄᏬᎭ	-13778
▁ᏱᎦᏅᎥᏏ	-13779
▁ᏱᎬᏲᏎᎭ	-13780
▁ᏱᎮᏙᎮᎢ	-13781
▁ᏱᎯᎦᏔᎮ	-13782
▁ᏱᎰᏩᏰᏃ	-13783
▁ᏱᏂᎦᏪᎭ	-13784
▁ᏱᏂᏥᏪᏏ	-13785
▁ᏱᏂᏨᏁᎸ	-13786
▁ᏱᏃᏨᏁᎸ	-13787
▁ᏱᏄᏍᏕᎢ	-13788
▁ᏱᏄᏛᏁᎸ	-13789
▁ᏱᏄᏩᏁᎸ	-13790
▁ᏱᏅᏎᎦᎩ	-13791
▁ᏱᏕᎪᏢᎾ	-13792
▁ᏱᏗᎦᏔᎭ	-13793
▁ᏱᏚᎾᏓᎴ	-13794
▁ᏱᏚᎾᏝᎠ	-13795
▁ᏱᏚᏩᏛᎲ	-13796
▁ᏱᏚᏲᎱᎯ	-13797
▁ᏱᏣᎵᏍᎩ	-13798
▁ᏱᏣᏙᎴᎰ	-13799
▁ᏱᏣᏚᎵᎭ	-13800
▁ᏱᏥᎪᏁᎶ	-13801
▁ᏱᏥᏁᎪᎢ	-13802
▁ᏱᏥᏏᎾᎯ	-13803
▁ᏱᏦᎯᏳᎭ	-13804
▁ᏱᏨᏲᏎᎭ	-13805
▁ᏱᏫᏙᏣᏁ	-13806
▁ᏲᏎᎮᏍᏗ	-13807
▁ᏳᎬᏫᏳᎭ	-13808
▁ᏳᎾᏚᎵᎭ	-13809
▁ᏳᏁᏤᎴᎢ	-13810
▁ᏳᏂᏰᎸᏁ	-13811
▁ᏳᏃᎵᏤᎢ	-13812
▁ᏳᏍᏘᏰᎦ	-13813
▁ᏳᏓᏅᏖᎴ	-13814
▁ᏳᏜᏏᏛᎭ	-13815
▁ᏳᏬᏎᎴᎢ	-13816
▁ᏳᏯᏫᏎᎢ	-13817
▁ᏴᎦᏣᎦᎸ	-13818
▁ᏴᎨᏥᏴᎭ	-13819
▁ᏴᎬᏓᏛᎦ	-13820
▁ᏴᎬᏲᎱᎯ	-13821
ᎢᏍᏗᏍᎨᏍᏗ	-13822
ᎦᎵᏍᏓᏗᏍᏗ	-13823
ᎦᎵᏍᏕᎸᏙᏗ	-13824
ᎦᏌᏯᏍᏙᏗᏱ	-13825
ᎩᏴᏍᏕᏍᎬᎾ	-13826
ᎬᏩᎶᏓᏁᎸᎾ	-13827
ᎯᏳᎲᏍᎦᏍᎪ	-13828
ᎵᏂᎪᎯᏍᏔᏂ	-13829
ᎵᏂᎪᎯᏍᏗᎭ	-13830
ᎵᏅᏫᏍᏗᏕᎬ	-13831
ᎵᏍᎦᏍᏙᏔᏂ	-13832
ᎵᏍᎦᏍᏙᏗᎭ	-13833
ᎵᏍᎦᏍᏙᏗᏱ	-13834
ᎵᏍᎪᎸᏓᏁᎭ	-13835
ᎵᏍᎪᎸᏓᏁᎵ	-13836
ᎵᏍᎪᎸᏗᏍᎩ	-13837
ᎵᏍᎪᎸᏗᏍᎬ	-13838
ᎵᏍᏓᏱᏗᏍᏗ	-13839
ᎵᏍᏓᏴᎲᏍᎩ	-13840
ᎵᏍᏓᏴᎲᏍᎬ	-13841
ᎵᏍᏓᏴᏍᎬᎾ	-13842
ᎵᏍᏔᏂᏓᏍᏗ	-13843
ᎵᏍᏗᏰᏓᏁᎭ	-13844
ᎶᎯᏍᏗᏍᎬᏉ	-13845
ᎷᎯᏍᏓᏁᎴᎢ	-13846
ᎸᏌᏓᏗᏍᎪᎢ	-13847
ᎾᏄᎪᏫᏍᎬᎢ	-13848
ᎾᏄᎪᏫᏍᎬᎾ	-13849
ᎾᏄᎪᏫᏎᎸᎯ	-13850
ᏁᎢᏍᏓᏁᎸᎯ	-13851
ᏂᎪᎯᏍᏙᏗᏱ	-13852
ᏂᎪᏩᏘᏍᎨᎢ	-13853
ᏅᏍᏓᏕᎸᎩᏃ	-13854
ᏅᏗᎦᎵᏍᏙᏗ	-13855
ᏍᏆᏂᎪᏔᏅᎩ	-13856
ᏍᏓᏱᏗᏍᏗᏱ	-13857
ᏍᏕᎸᎯᏓᏍᏗ	-13858
ᏍᏙᏗᏍᎨᏍᏗ	-13859
ᏓᏁᏣᏍᏚᎸᎩ	-13860
ᏓᏙᎵᏍᏓᏁᎲ	-13861
ᏓᏙᎵᏍᏓᏁᎸ	-13862
ᏕᎰᎯᏍᏗᏍᎪ	-13863
ᏗᎧᎿᏩᏗᏙᎯ	-13864
ᏗᎧᎿᏩᏛᏍᏗ	-13865
ᏙᎴᎰᎯᏍᏗᏱ	-13866
ᏛᏁᎰᎲᏍᏗᏱ	-13867
ᏛᏁᎵᏓᏍᏗᏱ	-13868
ᏛᏅᎢᏍᏗᏍᎨ	-13869
ᏲᎢᏳᎲᏍᎬᎾ	-13870
ᏲᏍᏙᏓᏁᏗᏱ	-13871
ᏲᏕᏍᏗᏍᎬᎾ	-13872
ᏴᏍᏕᏍᏗᏍᎩ	-13873
▁ᎠᎦᏔᎾᎥᎢ	-13874
▁ᎠᎦᏗᏏᏗᏢ	-13875
▁ᎠᎦᏴᎵᎨᏃ	-13876
▁ᎠᎨᎳᏍᏗᏱ	-13877
▁ᎠᎩᎪᎲᎩᏃ	-13878
▁ᎠᎩᎪᏁᎸᎢ	-13879
▁ᎠᎩᎷᏤᎸᎩ	-13880
▁ᎠᎩᏁᏤᏍᏗ	-13881
▁ᎠᎩᏇᏓᎸᎢ	-13882
▁ᎠᎩᏍᏆᏛᎯ	-13883
▁ᎠᎩᏍᏕᎸᏛ	-13884
▁ᎠᎩᏩᏛᎲᎩ	-13885
▁ᎠᎩᏩᏛᏗᏱ	-13886
▁ᎠᎩᏰᎸᏅᎯ	-13887
▁ᎠᎪᎲᏍᎬᎢ	-13888
▁ᎠᎪᎲᏍᏙᏗ	-13889
▁ᎠᎪᏢᏔᏅᎯ	-13890
▁ᎠᎪᏩᏘᏍᎬ	-13891
▁ᎠᎴᏂᏓᏍᏗ	-13892
▁ᎠᎵᎮᎵᎪᎢ	-13893
▁ᎠᎵᏘᏍᎪᎢ	-13894
▁ᎠᎾᎵᎮᎵᎩ	-13895
▁ᎠᎾᎵᏍᏕᎵ	-13896
▁ᎠᎾᏗᏍᎨᎢ	-13897
▁ᎠᎾᏗᏍᎬᎩ	-13898
▁ᎠᎾᏠᎾᏍᏗ	-13899
▁ᎠᏁᎵᏍᎬᎢ	-13900
▁ᎠᏂᎦᏓᎭᎢ	-13901
▁ᎠᏂᎦᏘᏯᏃ	-13902
▁ᎠᏂᎦᏲᎵᏉ	-13903
▁ᎠᏂᎬᎭᎷᏯ	-13904
▁ᎠᏂᎾᏰᏍᎬ	-13905
▁ᎠᏂᏂᏆᏘᎯ	-13906
▁ᎠᏂᏃᎲᏍᎨ	-13907
▁ᎠᏂᏃᏗᏍᎩ	-13908
▁ᎠᏂᏅᏜᎡᎢ	-13909
▁ᎠᏂᏆᎵᏏᏱ	-13910
▁ᎠᏂᏍᎦᏅᎩ	-13911
▁ᎠᏂᏍᎦᏯᏉ	-13912
▁ᎠᏂᏙᎾᎡᎢ	-13913
▁ᎠᏂᏧᏏᏰᏃ	-13914
▁ᎠᏂᏬᏂᏍᎨ	-13915
▁ᎠᏂᏯᏫᏍᎬ	-13916
▁ᎠᏅᏗᏍᎬᎢ	-13917
▁ᎠᏆᎴᏂᏙᎸ	-13918
▁ᎠᏆᎵᏍᏓᏴ	-13919
▁ᎠᏆᏍᏗᎧᏂ	-13920
▁ᎠᏆᏓᏅᏅᎩ	-13921
▁ᎠᏆᏓᏅᏒᎩ	-13922
▁ᎠᏆᏓᏅᏛᎩ	-13923
▁ᎠᏆᏛᏁᏗᏱ	-13924
▁ᎠᏆᏛᏐᏅᎯ	-13925
▁ᎠᏇᏅᏍᏗᏱ	-13926
▁ᎠᏉᏪᎳᏅᎯ	-13927
▁ᎠᏍᎦᎨᏍᏗ	-13928
▁ᎠᏍᎦᏅᎪᎢ	-13929
▁ᎠᏍᎦᏯᏍᎪ	-13930
▁ᎠᏍᎪᏂᏗᏢ	-13931
▁ᎠᏍᎫᏕᏍᎩ	-13932
▁ᎠᏍᏆᎵᏍᎬ	-13933
▁ᎠᏍᏆᏂᎪᏛ	-13934
▁ᎠᏍᏕᎸᏗᏱ	-13935
▁ᎠᏍᏚᎲᏍᎩ	-13936
▁ᎠᏍᏚᏟᏍᎩ	-13937
▁ᎠᏍᏛᏗᏍᏗ	-13938
▁ᎠᏎᎪᎩᏍᎩ	-13939
▁ᎠᏎᎵᏛᏍᎬ	-13940
▁ᎠᏓᎡᎨᏍᏗ	-13941
▁ᎠᏓᎨᏳᏗᏃ	-13942
▁ᎠᏓᎴᏂᏍᎬ	-13943
▁ᎠᏓᎿᏍᏆᎶ	-13944
▁ᎠᏓᏅᏖᏍᎨ	-13945
▁ᎠᏓᏛᏍᎪᎢ	-13946
▁ᎠᏓᏯᏅᏙᏗ	-13947
▁ᎠᏗᏔᏍᏗᏱ	-13948
▁ᎠᏛᏅᎢᏍᏗ	-13949
▁ᎠᏛᏒᎥᏍᎩ	-13950
▁ᎠᏟᏂᎬᏁᎯ	-13951
▁ᎠᏟᏍᏕᏍᏗ	-13952
▁ᎠᏤᎷᎯᏍᏗ	-13953
▁ᎠᏥᎩᎡᏗᏉ	-13954
▁ᎠᏥᎶᏄᎡᎸ	-13955
▁ᎠᏥᎸᏍᎩᏂ	-13956
▁ᎠᏥᏂᏌᏅᎢ	-13957
▁ᎠᏥᏃᎮᏍᎩ	-13958
▁ᎠᏥᏌᎳᏓᏅ	-13959
▁ᎠᏥᏍᏚᎲᎢ	-13960
▁ᎠᏥᏙᎵᏍᏗ	-13961
▁ᎠᏥᏛᏙᏗᏱ	-13962
▁ᎠᏥᏴᏔᏅᎯ	-13963
▁ᎠᏩᏘᏍᎪᎢ	-13964
▁ᎠᏫᏍᎨᏍᏗ	-13965
▁ᎠᏯᏫᏍᏗᏱ	-13966
▁ᎠᏰᎳᏍᏗᏃ	-13967
▁ᎠᏰᎸᏍᎩᏂ	-13968
▁ᎠᏰᏙᎳᏛᏗ	-13969
▁ᎠᏲᎱᏍᎨᎢ	-13970
▁ᎠᏲᎱᏍᎬᎢ	-13971
▁ᎠᏲᏍᏗᏍᎪ	-13972
▁ᎠᏴᏍᏗᏍᎩ	-13973
▁ᎡᎳᏪᏱᏉᏃ	-13974
▁ᎡᎵᏍᎨᏍᏗ	-13975
▁ᎡᎶᏛᏍᎩᏂ	-13976
▁ᎡᏗᎦᏔᎲᎢ	-13977
▁ᎡᏙᎢᏳᏒᎢ	-13978
▁ᎡᏣᎵᎡᏗᏱ	-13979
▁ᎡᏣᏍᏚᎮᎢ	-13980
▁ᎡᏣᏛᎦᏁᎸ	-13981
▁ᎡᏣᏛᎦᏁᏗ	-13982
▁ᎡᏣᏛᏛᎲᎦ	-13983
▁ᎡᏥᎧᏁᏗᏱ	-13984
▁ᎡᏥᎾᏰᏍᎩ	-13985
▁ᎡᏥᏙᎵᏍᏗ	-13986
▁ᎡᏧᏓᎴᏍᏗ	-13987
▁ᎢᎤᎾᏨᏎᎢ	-13988
▁ᎢᎦᎵᎪᏁᎯ	-13989
▁ᎢᎦᏓᏄᏴᏛ	-13990
▁ᎢᎨᎬᎾᏕᎩ	-13991
▁ᎢᎩᎨᏳᏒᎢ	-13992
▁ᎢᎩᎬᏫᏳᎯ	-13993
▁ᎢᎩᏰᎸᏗᏱ	-13994
▁ᎢᎪᎯᏳᏅᎯ	-13995
▁ᎢᎪᎯᏳᏒᎢ	-13996
▁ᎢᎪᏎᎮᏍᏗ	-13997
▁ᎢᎬᏩᏰᎸᎭ	-13998
▁ᎢᎬᏪᏅᏛᏃ	-13999
▁ᎢᎬᏬᏎᎴᎢ	-14000
▁ᎢᎬᏱᏍᎩᏂ	-14001
▁ᎢᏍᏓᎢᏒᎢ	-14002
▁ᎢᏍᏓᎵᏅᏟ	-14003
▁ᎢᏍᏛᎨᏳᎢ	-14004
▁ᎢᏏᎵᏍᎩᏂ	-14005
▁ᎢᏓᎢᏎᏍᏗ	-14006
▁ᎢᏓᎴᏂᏙᎯ	-14007
▁ᎢᏓᏓᏅᏓᏓ	-14008
▁ᎢᏛᏗᏍᎪᎢ	-14009
▁ᎢᏛᏗᏍᎬᎢ	-14010
▁ᎢᏣᎦᏔᎲᏛ	-14011
▁ᎢᏣᎦᏔᏅᏎ	-14012
▁ᎢᏣᎫᏱᏍᎪ	-14013
▁ᎢᏣᎵᏍᏗᏱ	-14014
▁ᎢᏣᏓᎴᏅᎯ	-14015
▁ᎢᏣᏓᏁᏗᏱ	-14016
▁ᎢᏣᏓᏅᎦᎸ	-14017
▁ᎢᏣᏓᏅᏖᎯ	-14018
▁ᎢᏣᏚᎵᏍᎪ	-14019
▁ᎢᏣᏚᎸᏗᏱ	-14020
▁ᎢᏣᏛᎿᏕᎩ	-14021
▁ᎢᏣᏛᏁᎸᎯ	-14022
▁ᎢᏤᎵᏎᏍᏗ	-14023
▁ᎢᏥᎦᎵᏱᏳ	-14024
▁ᎢᏥᎩᏍᏗᏱ	-14025
▁ᎢᏥᎯᎮᏍᏗ	-14026
▁ᎢᏥᎷᏤᎸᎢ	-14027
▁ᎢᏥᎷᏤᎸᎩ	-14028
▁ᎢᏥᎾᏄᎪᏩ	-14029
▁ᎢᏥᎾᏰᏍᎩ	-14030
▁ᎢᏥᏅᏏᏙᎯ	-14031
▁ᎢᏥᏍᏗᏰᎬ	-14032
▁ᎢᏥᏙᏓᏰᏃ	-14033
▁ᎢᏦᎯᏳᎲᎦ	-14034
▁ᎢᏦᎵᏍᏙᏗ	-14035
▁ᎢᏧᏅᏁᎸᎯ	-14036
▁ᎢᏧᏅᏁᏗᏱ	-14037
▁ᎢᏧᏩᏁᎸᎯ	-14038
▁ᎢᏨᎨᏳᏒᎢ	-14039
▁ᎢᏨᏁᏤᎸᎩ	-14040
▁ᎢᏨᏂᎮᏍᏗ	-14041
▁ᎢᏨᏃᎮᎮᎭ	-14042
▁ᎢᏨᏃᏁᎸᎢ	-14043
▁ᎢᏨᏗᏍᎬᎢ	-14044
▁ᎢᏨᏬᏁᏗᎭ	-14045
▁ᎢᏨᏯᏑᏰᏛ	-14046
▁ᎢᏨᏰᎵᏎᎭ	-14047
▁ᎢᏨᏲᎢᏳᎭ	-14048
▁ᎢᏨᏴᏁᏗᏱ	-14049
▁ᎢᏯᎬᏂᏍᏗ	-14050
▁ᎢᏯᏓᏗᏍᏗ	-14051
▁ᎢᏲᎦᏛᏁᏗ	-14052
▁ᎢᏳᏅᎿᏕᎩ	-14053
▁ᎢᏳᏆᏗᏅᏛ	-14054
▁ᎢᏳᏪᏍᏗᏱ	-14055
▁ᎣᎦᎵᏍᏓᏴ	-14056
▁ᎣᎦᏓᏅᏘᏳ	-14057
▁ᎣᎦᏚᎵᏍᎬ	-14058
▁ᎣᎦᏛᎦᏅᎩ	-14059
▁ᎣᎩᎵᏰᏗᎭ	-14060
▁ᎣᎩᎾᎵᎪᎭ	-14061
▁ᎣᎩᎾᎵᎪᎯ	-14062
▁ᎣᎩᏃᎮᏗᏱ	-14063
▁ᎣᎩᏰᎸᏒᎩ	-14064
▁ᎣᏍᎦᏅᏨᎢ	-14065
▁ᎣᏣᏓᏁᏟᏴ	-14066
▁ᎣᏥᎩᎵᏲᎬ	-14067
▁ᎣᏥᏃᎮᏍᎬ	-14068
▁ᎣᏥᏔᏲᎯᎲ	-14069
▁ᎣᏨᏗᏍᎬᎢ	-14070
▁ᎤᎦᎾᏏᏍᎩ	-14071
▁ᎤᎦᏔᎲᏎᎢ	-14072
▁ᎤᎦᏔᎲᏒᎩ	-14073
▁ᎤᎦᏔᎲᏒᏃ	-14074
▁ᎤᎦᏙᎥᏒᎯ	-14075
▁ᎤᎧᎵᏦᏅᎯ	-14076
▁ᎤᎩᎵᏲᏤᎢ	-14077
▁ᎤᎩᎸᏔᏁᎢ	-14078
▁ᎤᎩᎸᏔᏅᎯ	-14079
▁ᎤᎪᎵᏰᏍᎩ	-14080
▁ᎤᎬᎥᎯᏍᏗ	-14081
▁ᎤᎬᏛᎾᏨᎯ	-14082
▁ᎤᎴᏂᏓᏍᏗ	-14083
▁ᎤᎵᎮᎵᏨᎩ	-14084
▁ᎤᎵᎮᎵᏨᏃ	-14085
▁ᎤᎵᎶᎲᏍᎩ	-14086
▁ᎤᎵᏍᎦᏍᏙ	-14087
▁ᎤᎵᏍᏆᏂᎪ	-14088
▁ᎤᎵᏍᏔᏁᎢ	-14089
▁ᎤᎵᏍᏕᎸᏙ	-14090
▁ᎤᎵᏍᏚᎸᎩ	-14091
▁ᎤᎵᏏᎬᏰᏃ	-14092
▁ᎤᎵᏠᏯᏍᏛ	-14093
▁ᎤᎵᏨᏓᏆᏛ	-14094
▁ᎤᎵᏰᏔᏁᎢ	-14095
▁ᎤᎸᏉᏔᏅᎯ	-14096
▁ᎤᎸᏉᏙᏗᏱ	-14097
▁ᎤᎾᎦᏔᏅᏎ	-14098
▁ᎤᎾᎵᎪᏒᎢ	-14099
▁ᎤᎾᎵᏖᎸᏅ	-14100
▁ᎤᎾᎵᏥᏙᏅ	-14101
▁ᎤᎾᏁᎳᏛᎯ	-14102
▁ᎤᎾᏁᎶᏔᏁ	-14103
▁ᎤᎾᏂᎩᏎᎢ	-14104
▁ᎤᎾᏂᏢᏅᎩ	-14105
▁ᎤᎾᏓᎩᎸᏗ	-14106
▁ᎤᎾᏓᏅᏎᎢ	-14107
▁ᎤᎾᏓᏅᏖᏛ	-14108
▁ᎤᎾᏓᏡᎨᎢ	-14109
▁ᎤᎾᏕᏔᏅᎯ	-14110
▁ᎤᎾᏕᏯᏙᏗ	-14111
▁ᎤᎾᏘᏰᎸᎯ	-14112
▁ᎤᎾᏚᎵᏍᎪ	-14113
▁ᎤᎾᏚᎸᎲᎩ	-14114
▁ᎤᎾᏚᎸᏅᏗ	-14115
▁ᎤᎾᏛᎦᏁᎸ	-14116
▁ᎤᎾᏡᏗᏍᎩ	-14117
▁ᎤᎾᏤᎵᏰᏃ	-14118
▁ᎤᏁᎳᏫᏎᎲ	-14119
▁ᎤᏁᎳᏫᏎᎸ	-14120
▁ᎤᏁᏉᏤᎴᎢ	-14121
▁ᎤᏁᏍᎨᎲᎢ	-14122
▁ᎤᏁᏍᎨᎲᎯ	-14123
▁ᎤᏁᏐᎠᏒᎩ	-14124
▁ᎤᏁᏢᏔᏅᎯ	-14125
▁ᎤᏂᎦᏙᎥᏒ	-14126
▁ᎤᏂᎪᏩᏛᏗ	-14127
▁ᎤᏂᎶᏐᏅᏃ	-14128
▁ᎤᏂᎸᏉᏗᏳ	-14129
▁ᎤᏂᎾᏗᏅᏎ	-14130
▁ᎤᏂᎾᏰᏒᎩ	-14131
▁ᎤᏂᏁᏉᏨᎯ	-14132
▁ᎤᏂᏃᎮᎴᏃ	-14133
▁ᎤᏂᏄᎪᏫᏒ	-14134
▁ᎤᏂᏅᏏᏙᎯ	-14135
▁ᎤᏂᏌᎳᏓᏁ	-14136
▁ᎤᏂᏌᏛᏗᏱ	-14137
▁ᎤᏂᏍᎦᎴᏃ	-14138
▁ᎤᏂᏍᏆᏛᎯ	-14139
▁ᎤᏂᏍᏉᎵᏱ	-14140
▁ᎤᏂᏍᏕᏲᏅ	-14141
▁ᎤᏂᏔᏲᏎᎴ	-14142
▁ᎤᏂᏯᏅᎲᎩ	-14143
▁ᎤᏃᎱᎦᏂᎸ	-14144
▁ᎤᏃᎱᎦᏅᏃ	-14145
▁ᎤᏃᏕᎾᏰᏃ	-14146
▁ᎤᏄᏓᎴᏍᎩ	-14147
▁ᎤᏄᏢᏔᏁᎢ	-14148
▁ᎤᏄᏬᏍᏛᎩ	-14149
▁ᎤᏅᎨᏫᏒᎯ	-14150
▁ᎤᏌᎳᏓᏅᎩ	-14151
▁ᎤᏍᎦᎢᏍᏗ	-14152
▁ᎤᏍᎦᏅᏤᎢ	-14153
▁ᎤᏍᎦᏎᏗᏳ	-14154
▁ᎤᏍᎫᏓᏛᎢ	-14155
▁ᎤᏍᏆᎳᎯᏳ	-14156
▁ᎤᏍᏗᎩᏛᏃ	-14157
▁ᎤᏍᏗᏰᏔᏁ	-14158
▁ᎤᏍᏘᏰᏅᎯ	-14159
▁ᎤᏎᎵᏔᏅᎢ	-14160
▁ᎤᏓᎢᏅᏗᏱ	-14161
▁ᎤᏓᎨᏳᏐᎢ	-14162
▁ᎤᏓᎫᏴᎡᏗ	-14163
▁ᎤᏓᏁᏟᏴᏎ	-14164
▁ᎤᏓᏁᏟᏴᏛ	-14165
▁ᎤᏓᏂᎵᎨᏃ	-14166
▁ᎤᏓᏅᏁᎴᎢ	-14167
▁ᎤᏓᏅᏓᏛᎢ	-14168
▁ᎤᏓᏅᏖᎸᎩ	-14169
▁ᎤᏓᏅᏖᏍᏗ	-14170
▁ᎤᏓᏕᏲᏗᏱ	-14171
▁ᎤᏓᏠᏍᏕᎢ	-14172
▁ᎤᏔᎳᏬᏎᎢ	-14173
▁ᎤᏔᏕᎩᏍᎩ	-14174
▁ᎤᏔᏲᏎᎸᎩ	-14175
▁ᎤᏕᏯᏔᏁᎴ	-14176
▁ᎤᏕᏯᏙᏗᏳ	-14177
▁ᎤᏗᎦᎵᏍᏙ	-14178
▁ᎤᏗᏌᏓᏛᎩ	-14179
▁ᎤᏙᎯᏳᏁᎢ	-14180
▁ᎤᏙᏯᏅᎯᏛ	-14181
▁ᎤᏚᎩᏍᎩᏂ	-14182
▁ᎤᏚᏓᏕᏫᏒ	-14183
▁ᎤᏛᎯᏍᏗᏱ	-14184
▁ᎤᏛᏅᎢᏍᏗ	-14185
▁ᎤᏛᏗᏕᎨᎢ	-14186
▁ᎤᏡᏗᏍᎩᏃ	-14187
▁ᎤᏣᏘᏍᎩᏂ	-14188
▁ᎤᏩᎫᏘᎶᏛ	-14189
▁ᎤᏪᎵᏎᎴᎢ	-14190
▁ᎤᏪᎵᏎᏗᏱ	-14191
▁ᎤᏪᏯᎸᏅᎩ	-14192
▁ᎤᏪᏲᏓᏛᎢ	-14193
▁ᎤᏬᎯᏳᎯᏳ	-14194
▁ᎤᏬᎯᏳᏁᎢ	-14195
▁ᎤᏬᏁᏔᏅᎢ	-14196
▁ᎤᏬᏢᎯᏐᏗ	-14197
▁ᎤᏬᏢᏅᏅᎯ	-14198
▁ᎤᏬᏯᏁᏒᏃ	-14199
▁ᎤᏲᎱᏒᎯᏃ	-14200
▁ᎤᏲᎱᏒᎯᏉ	-14201
▁ᎤᏲᏉᏍᎩᏂ	-14202
▁ᎤᏲᏍᏔᏅᎯ	-14203
▁ᎤᏴᏍᏕᏍᎩ	-14204
▁ᎥᎩᎸᏉᏗᏳ	-14205
▁ᎥᎩᏍᏚᎲᎩ	-14206
▁ᎥᎩᏙᎵᏨᎩ	-14207
▁ᎥᎩᏴᎩᏅᎯ	-14208
▁ᎥᏆᎸᏍᏗᏱ	-14209
▁ᎥᏇᎵᏎᎸᎯ	-14210
▁ᎦᎫᎯᏍᏙᏗ	-14211
▁ᎦᎬᏩᏂᏐᏢ	-14212
▁ᎦᎯᏍᏕᎸᏗ	-14213
▁ᎦᎯᏰᎵᏎᏗ	-14214
▁ᎦᎵᎡᎵᎬᎢ	-14215
▁ᎦᎵᏦᏔᏅᎯ	-14216
▁ᎦᎶᏁᏛᏍᎪ	-14217
▁ᎦᎶᏐᎲᏍᎦ	-14218
▁ᎦᎸᎳᏗᏍᎪ	-14219
▁ᎦᎸᏉᏗᏍᎬ	-14220
▁ᎦᏃᎯᎵᏒᎩ	-14221
▁ᎦᏃᎱᎩᏍᎬ	-14222
▁ᎦᏅᏁᎮᏍᏗ	-14223
▁ᎦᏓᎷᏯᏛᏉ	-14224
▁ᎦᏙᎠᏍᎪᎢ	-14225
▁ᎦᏙᎴᎣᏍᎩ	-14226
▁ᎦᏥᏯᏙᎵᎦ	-14227
▁ᎦᏰᎦᎸᏍᏗ	-14228
▁ᎦᏰᏗᎷᏤᏗ	-14229
▁ᎦᏰᏤᎵᏎᏗ	-14230
▁ᎦᏰᏥᏖᎸᏗ	-14231
▁ᎧᎾᎸᎢᏍᏗ	-14232
▁ᎧᏁᎢᏍᏗᏱ	-14233
▁ᎧᏃᎯᏰᎩᏃ	-14234
▁ᎨᎦᎫᏴᎡᎯ	-14235
▁ᎨᎦᎫᏴᎡᏗ	-14236
▁ᎨᎪᏎᎮᏍᏗ	-14237
▁ᎨᎵᏍᎨᏍᏗ	-14238
▁ᎨᏣᎪᏩᏛᏗ	-14239
▁ᎨᏣᏁᎢᏍᏗ	-14240
▁ᎨᏣᏗᏔᏍᏗ	-14241
▁ᎨᏣᏡᏗᏍᎬ	-14242
▁ᎨᏥᏁᏤᎸᎯ	-14243
▁ᎨᏥᏂᏆᏘᎯ	-14244
▁ᎨᏥᏅᏏᏙᎯ	-14245
▁ᎨᏥᏍᎦᏅᏤ	-14246
▁ᎨᏥᏍᎦᏨᎯ	-14247
▁ᎨᏥᏙᎵᏍᏗ	-14248
▁ᎪᎯᏳᎲᏍᎬ	-14249
▁ᎪᎯᏳᏗᏍᎪ	-14250
▁ᎪᎯᏳᏗᏰᏃ	-14251
▁ᎪᏢᏅᎥᏍᎩ	-14252
▁ᎬᎩᎯᏍᏗᏱ	-14253
▁ᎬᎩᏁᏉᏤᎸ	-14254
▁ᎬᎪᏩᏛᏗᏱ	-14255
▁ᎬᏂᎵᎯᎮᎢ	-14256
▁ᎬᏂᏛᏍᎩᏂ	-14257
▁ᎬᏔᏂᏓᏍᏗ	-14258
▁ᎬᏜᏏᏛᎡᏗ	-14259
▁ᎬᏩᎯᏍᏗᏱ	-14260
▁ᎬᏩᎵᎡᎸᎩ	-14261
▁ᎬᏩᎵᎪᏁᎯ	-14262
▁ᎬᏩᎷᏤᎮᎢ	-14263
▁ᎬᏩᎷᏤᎴᏃ	-14264
▁ᎬᏩᎷᏤᏗᏱ	-14265
▁ᎬᏩᎸᏉᏙᏗ	-14266
▁ᎬᏩᎾᏛᎪᏗ	-14267
▁ᎬᏩᏁᏉᏤᎴ	-14268
▁ᎬᏩᏁᏓᏍᏗ	-14269
▁ᎬᏩᏂᏃᎮᏗ	-14270
▁ᎬᏩᏂᏍᎦᎩ	-14271
▁ᎬᏩᏂᏐᏢᏗ	-14272
▁ᎬᏩᏂᏩᏛᏗ	-14273
▁ᎬᏩᏃᎯᏳᏗ	-14274
▁ᎬᏩᏃᎵᏍᏗ	-14275
▁ᎬᏩᏃᏁᎴᎢ	-14276
▁ᎬᏩᏃᏁᎴᏃ	-14277
▁ᎬᏩᏃᏁᎸᎩ	-14278
▁ᎬᏩᏔᏲᏎᎯ	-14279
▁ᎬᏩᏛᎦᏁᎸ	-14280
▁ᎬᏯᏛᏁᏗᏱ	-14281
▁ᎭᎦᏌᏯᏍᏓ	-14282
▁ᎭᏁᏍᎨᏍᎩ	-14283
▁ᎭᏓᏁᎮᏍᏗ	-14284
▁ᎭᏓᏙᎵᏍᏗ	-14285
▁ᎭᏙᏯᏅᎯᏛ	-14286
▁ᎯᎦᏔᎭᏰᏃ	-14287
▁ᎯᎪᎵᏰᎥᎩ	-14288
▁ᎯᏅᏏᏓᏍᏗ	-14289
▁ᎯᏯᎵᏍᎪᎸ	-14290
▁ᎰᎤᎬᏫᏳᎭ	-14291
▁ᎹᎵᎩᏏᏕᎩ	-14292
▁ᎹᏏᏙᏂᏰᏃ	-14293
▁ᎾᎦᏔᎾᎥᎾ	-14294
▁ᎾᎩᎬᏫᏳᏒ	-14295
▁ᎾᎩᏴᏍᏗᏱ	-14296
▁ᎾᎾᏓᏁᏟᏴ	-14297
▁ᎾᎾᏛᏁᎰᎢ	-14298
▁ᎾᏅᏁᎮᏍᏗ	-14299
▁ᎾᏉᎯᏳᏅᎾ	-14300
▁ᎾᏉᎯᏳᏒᎾ	-14301
▁ᎾᏋᏁᎮᏍᏗ	-14302
▁ᎾᏙᏢᏍᎬᎾ	-14303
▁ᎾᏚᏓᎴᏍᏗ	-14304
▁ᏁᎵᏍᎬᎾᏃ	-14305
▁ᏁᏣᎦᏔᎲᎾ	-14306
▁ᏂᎦᏍᏕᏍᏗ	-14307
▁ᏂᎦᏔᎲᎾᏃ	-14308
▁ᏂᎦᏔᎲᎾᏉ	-14309
▁ᏂᎦᏛᏁᎲᎢ	-14310
▁ᏂᎦᏥᏴᏁᎭ	-14311
▁ᏂᎨᎬᏁᎸᎢ	-14312
▁ᏂᎨᏥᏪᏎᎸ	-14313
▁ᏂᎪᎯᎸᏰᏃ	-14314
▁ᏂᎬᎩᏲᎸᎾ	-14315
▁ᏂᎬᏅᎪᏪᎳ	-14316
▁ᏂᏍᎩᏴᏁᎸ	-14317
▁ᏂᏑᏪᏎᎸᎩ	-14318
▁ᏂᏓᎵᏍᏗᎭ	-14319
▁ᏂᏓᎾᏤᎲᎾ	-14320
▁ᏂᏓᏁᏢᏛᎾ	-14321
▁ᏂᏓᏙᏓᏈᏒ	-14322
▁ᏂᏕᎦᎵᏍᏓ	-14323
▁ᏂᏕᎦᏪᏎᎭ	-14324
▁ᏂᏗᎪᏪᎸᎾ	-14325
▁ᏂᏗᎬᏩᏓᎴ	-14326
▁ᏂᏗᏥᏁᎲᎾ	-14327
▁ᏂᏚᎨᏳᏅᎾ	-14328
▁ᏂᏚᎵᏏᏂᏒ	-14329
▁ᏂᏚᏁᎶᏛᎾ	-14330
▁ᏂᏚᏅᏁᎸᎩ	-14331
▁ᏂᏚᏩᏁᎴᎢ	-14332
▁ᏂᏣᎵᏍᏗᎭ	-14333
▁ᏂᏣᏗᎴᎬᎾ	-14334
▁ᏂᏥᏪᏎᎸᎢ	-14335
▁ᏂᏥᏯᏛᏁᎭ	-14336
▁ᏃᎩᏪᏎᎸᎩ	-14337
▁ᏃᏣᎵᏍᏗᎭ	-14338
▁ᏄᎨᏳᏎᏍᏗ	-14339
▁ᏄᎵᏍᏔᏅᎾ	-14340
▁ᏄᎾᏍᏕᏍᏗ	-14341
▁ᏄᏂᎬᏫᏳᏌ	-14342
▁ᏄᏂᎸᏉᏛᎾ	-14343
▁ᏄᏂᏰᎸᏒᎾ	-14344
▁ᏄᏍᏛᏍᎩᏂ	-14345
▁ᏄᏓᎴᏒᏰᏃ	-14346
▁ᏄᏓᎵᏍᏛᎾ	-14347
▁ᏄᏓᏅᎦᎸᎾ	-14348
▁ᏄᏓᏛᏁᎴᎢ	-14349
▁ᏄᏚᏯᏍᏛᎾ	-14350
▁ᏄᏪᎵᏍᏛᎾ	-14351
▁ᏄᏬᎯᏳᏅᎾ	-14352
▁ᏅᎤᏪᏎᎸᎩ	-14353
▁ᏅᎩᎦᏔᎲᎾ	-14354
▁ᏅᏓᎨᏨᏁᎵ	-14355
▁ᏅᏓᎬᏂᏌᏂ	-14356
▁ᏅᏓᎬᏩᏁᎵ	-14357
▁ᏅᏓᎬᏩᏓᎴ	-14358
▁ᏅᏓᏥᏅᏍᏗ	-14359
▁ᏅᏓᏥᏴᏁᎵ	-14360
▁ᏅᏓᏨᏴᏁᎵ	-14361
▁ᏅᏓᏰᎬᏁᎵ	-14362
▁ᏅᏓᏳᏪᏒᎩ	-14363
▁ᏅᏛᏅᏂᏌᏂ	-14364
▁ᏅᏧᏪᏎᎴᎢ	-14365
▁ᏅᏩᎾᏓᎴᏃ	-14366
▁ᏅᏩᏍᏕᏍᏗ	-14367
▁ᏌᏉᎯᏳᏰᏃ	-14368
▁ᏍᎩᎷᏤᏗᏱ	-14369
▁ᏍᎩᏁᎮᏍᏗ	-14370
▁ᏍᎩᏯᎡᏍᏗ	-14371
▁ᏍᎩᏯᏐᎥᎦ	-14372
▁ᏍᎩᏯᏓᏅᏏ	-14373
▁ᏍᎩᏰᎵᏎᎭ	-14374
▁ᏑᎾᏓᏡᎩᏃ	-14375
▁ᏓᎦᎳᏐᏫᏏ	-14376
▁ᏓᎦᎴᏔᏅᎢ	-14377
▁ᏓᎦᏥᏴᏔᏂ	-14378
▁ᏓᎭᏬᎢᎰᎢ	-14379
▁ᏓᎾᎵᏂᏆᏅ	-14380
▁ᏓᏂᎧᎿᏩᏗ	-14381
▁ᏓᏂᏍᎦᎢᎲ	-14382
▁ᏓᏂᏬᏂᏍᎬ	-14383
▁ᏓᏍᎩᏯᏠᏥ	-14384
▁ᏓᏍᏆᏂᎪᏗ	-14385
▁ᏓᏘᏁᎮᏍᏗ	-14386
▁ᏓᏡᏗᏍᎪᎢ	-14387
▁ᏓᏣᏙᎴᎰᏏ	-14388
▁ᏓᏳᎸᏉᏔᏂ	-14389
▁ᏓᏳᎾᏡᏔᏂ	-14390
▁ᏓᏳᏍᏕᎸᎯ	-14391
▁ᏕᎨᎦᏬᏍᎨ	-14392
▁ᏕᎨᏥᏰᎨᎢ	-14393
▁ᏕᎨᏥᏲᎯᏏ	-14394
▁ᏕᎨᏲᎲᏍᎨ	-14395
▁ᏕᎫᎪᏗᏍᎬ	-14396
▁ᏕᎬᏗᏍᎬᎢ	-14397
▁ᏕᎬᏩᏄᏪᏎ	-14398
▁ᏕᎬᏩᏠᏒᎩ	-14399
▁ᏕᎮᎶᎮᏍᏗ	-14400
▁ᏕᏓᏁᎶᏛᎢ	-14401
▁ᏕᏣᏓᏙᎯᏳ	-14402
▁ᏕᏥᎵᎷᎬᎢ	-14403
▁ᏕᏥᏁᏟᏴᏒ	-14404
▁ᏕᏨᏃᎩᎡᎸ	-14405
▁ᏗᎦᎶᎩᏍᎩ	-14406
▁ᏗᎦᎸᏉᏙᏗ	-14407
▁ᏗᎦᏅᏍᎨᏂ	-14408
▁ᏗᎨᎳᏍᏗᏱ	-14409
▁ᏗᎨᏧᎪᏙᏗ	-14410
▁ᏗᎪᎵᏍᏙᏗ	-14411
▁ᏗᎫᎯᎶᎥᎢ	-14412
▁ᏗᎬᏂᏗᏍᎩ	-14413
▁ᏗᎬᏩᎧᏃᏗ	-14414
▁ᏗᎬᏩᏁᏲᏗ	-14415
▁ᏗᎬᏩᏕᏲᏗ	-14416
▁ᏗᎬᏩᏜᏍᏗ	-14417
▁ᏗᎬᏪᏘᎸᎯ	-14418
▁ᏗᎵᏒᏍᏗᏱ	-14419
▁ᏗᎾᏓᏍᎦᎩ	-14420
▁ᏗᎾᏘᏂᏙᎯ	-14421
▁ᏗᎾᏙᏂᏍᎩ	-14422
▁ᏗᏁᏍᎨᏍᎩ	-14423
▁ᏗᏂᎦᏘᏯᏃ	-14424
▁ᏗᏂᎦᏙᎵᏃ	-14425
▁ᏗᏂᎧᎿᏩᏗ	-14426
▁ᏗᏂᏃᎩᏍᎩ	-14427
▁ᏗᏂᏍᎪᎵᏃ	-14428
▁ᏗᏂᏲᎱᏍᎩ	-14429
▁ᏗᏂᏲᎵᏰᏃ	-14430
▁ᏗᏍᎩᏲᎯᏏ	-14431
▁ᏗᏍᏕᎵᏍᎩ	-14432
▁ᏗᏍᏚᎢᏍᏗ	-14433
▁ᏗᏓᎸᏉᏙᏗ	-14434
▁ᏗᏓᏅᏫᏍᎩ	-14435
▁ᏗᏓᏕᎵᏎᏗ	-14436
▁ᏗᏓᏙᏕᎯᎯ	-14437
▁ᏗᏓᏛᏳᏤᏗ	-14438
▁ᏗᏓᏬᏍᏙᏗ	-14439
▁ᏗᏙᎳᏅᏍᏗ	-14440
▁ᏗᏟᎶᏍᏙᏗ	-14441
▁ᏗᏣᎬᏩᎶᏗ	-14442
▁ᏗᏣᏓᎴᏅᎢ	-14443
▁ᏗᏣᏓᏅᏙᎩ	-14444
▁ᏗᏣᏓᏅᏛᎵ	-14445
▁ᏗᏣᏨᏍᏗᏱ	-14446
▁ᏗᏥᎨᏳᎯᏳ	-14447
▁ᏗᏥᏌᎳᏛᎦ	-14448
▁ᏗᏦᏏᏏᏍᎩ	-14449
▁ᏗᏧᎪᏗᏍᎩ	-14450
▁ᏘᎦᎵᏍᏙᏓ	-14451
▁ᏘᎪᎸᏍᏗᏱ	-14452
▁ᏘᏍᏓᏩᏚᎦ	-14453
▁ᏘᏰᎵᎯᏍᏓ	-14454
▁ᏙᏓᎦᎶᏐᏂ	-14455
▁ᏙᏓᎪᏪᎳᏂ	-14456
▁ᏙᏓᏰᏥᏲᏏ	-14457
▁ᏙᏓᏳᎦᎵᏏ	-14458
▁ᏙᏗᎧᏂᏍᎬ	-14459
▁ᏙᏗᏂᎧᏁᎢ	-14460
▁ᏙᏛᎾᏠᏱᎵ	-14461
▁ᏙᏛᏍᏕᎸᎯ	-14462
▁ᏚᎬᏍᎪᎸᏁ	-14463
▁ᏚᎵᏍᏡᏰᎢ	-14464
▁ᏚᎵᏏᎲᏒᎩ	-14465
▁ᏚᎵᏥᏙᏁᎴ	-14466
▁ᏚᎾᎦᎸᎲᎩ	-14467
▁ᏚᎾᎵᏂᎬᎬ	-14468
▁ᏚᎾᎵᏘᏎᎢ	-14469
▁ᏚᎾᏏᏔᏕᎢ	-14470
▁ᏚᎾᏓᏂᎸᏨ	-14471
▁ᏚᎾᏓᏅᏅᎩ	-14472
▁ᏚᎾᏠᎯᏍᏛ	-14473
▁ᏚᎾᏡᏕᏍᏗ	-14474
▁ᏚᏂᎧᎮᏍᏗ	-14475
▁ᏚᏂᎳᏫᏤᎢ	-14476
▁ᏚᏂᎵᏬᏨᎩ	-14477
▁ᏚᏂᏂᏴᎮᎢ	-14478
▁ᏚᏂᏃᎩᏒᎩ	-14479
▁ᏚᏂᏃᎩᏒᏃ	-14480
▁ᏚᏂᏔᎴᏐᎢ	-14481
▁ᏚᏂᏖᎸᏅᎩ	-14482
▁ᏚᏂᏪᏎᎸᎩ	-14483
▁ᏚᏂᏯᏙᎸᎩ	-14484
▁ᏚᏄᎪᏔᏅᎢ	-14485
▁ᏚᏄᎪᏫᏒᎩ	-14486
▁ᏚᏄᎪᏫᏒᏃ	-14487
▁ᏚᏅᎵᏰᎥᎩ	-14488
▁ᏚᏌᎳᏓᏅᎩ	-14489
▁ᏚᏍᏆᎸᏔᏅ	-14490
▁ᏚᏍᏓᎦᎸᎢ	-14491
▁ᏚᏍᏕᎸᎯᎸ	-14492
▁ᏚᏍᏚᎢᎡᎸ	-14493
▁ᏚᏓᏂᎸᏤᎢ	-14494
▁ᏚᏓᏅᎡᎸᎩ	-14495
▁ᏚᏓᏅᎡᎸᏃ	-14496
▁ᏚᏚᎪᏔᏅᎢ	-14497
▁ᏚᏟᎶᏍᏔᏁ	-14498
▁ᏚᏥᏍᏠᏨᎩ	-14499
▁ᏚᏪᎧᎮᏍᏗ	-14500
▁ᏚᏪᏙᎵᏨᎩ	-14501
▁ᏚᏪᏟᏌᏅᎩ	-14502
▁ᏚᏫᏞᏫᏒᎢ	-14503
▁ᏚᏬᏏᏌᏁᎴ	-14504
▁ᏚᏲᎯᏎᎸᎩ	-14505
▁ᏚᏳᎪᏕᏍᏗ	-14506
▁ᏛᎪᎲᏍᏔᏂ	-14507
▁ᏛᎾᎵᏛᏔᏂ	-14508
▁ᏛᏂᏍᏗᏍᎩ	-14509
▁ᏛᏄᏬᏍᏔᏂ	-14510
▁ᏣᎦᎴᏔᏅᎯ	-14511
▁ᏣᎪᏩᏛᏗᏱ	-14512
▁ᏣᎵᎬᎭᎸᏛ	-14513
▁ᏣᎵᏂᎩᏗᏳ	-14514
▁ᏣᎵᏂᎬᎬᎢ	-14515
▁ᏣᏓᏅᎦᎸᎲ	-14516
▁ᏣᏲᏏᏍᎨᎢ	-14517
▁ᏥᎦᎵᎡᎵᎦ	-14518
▁ᏥᎦᏔᎮᏍᏗ	-14519
▁ᏥᎨᎦᏤᏪᎸ	-14520
▁ᏥᎨᎳᏗᏙᎮ	-14521
▁ᏥᎩᎵᏲᎬᎢ	-14522
▁ᏥᎾᏄᎪᏫᏏ	-14523
▁ᏥᏁᎢᏍᏗᎭ	-14524
▁ᏥᏂᎨᎬᏁᎭ	-14525
▁ᏥᏂᎨᎬᏁᎴ	-14526
▁ᏥᏃᎮᏍᎬᎢ	-14527
▁ᏥᏄᎵᏍᏔᏁ	-14528
▁ᏥᏅᏩᏍᏙᎢ	-14529
▁ᏥᏍᎦᏅᏤᎸ	-14530
▁ᏥᏍᎫᏕᏍᎬ	-14531
▁ᏥᏍᏕᏙᎲᎩ	-14532
▁ᏥᏍᏗᏰᏗᎭ	-14533
▁ᏥᏓᎦᏘᎴᎦ	-14534
▁ᏥᏓᏂᏒᏁᎰ	-14535
▁ᏥᏓᏂᏰᎲᎩ	-14536
▁ᏥᏕᏥᏲᏒᎩ	-14537
▁ᏥᏚᎴᏔᏁᎢ	-14538
▁ᏥᏚᎾᏚᏓᏙ	-14539
▁ᏥᏚᏓᏂᎸᏤ	-14540
▁ᏥᏚᏣᏃᏛᎩ	-14541
▁ᏥᏚᏱᎶᎴᎢ	-14542
▁ᏥᏛᏓᏗᎧᏃ	-14543
▁ᏥᏥᎩᎵᏲᎦ	-14544
▁ᏥᏥᎶᏄᎮᎵ	-14545
▁ᏥᏥᏂᏆᏘᎭ	-14546
▁ᏧᎦᏌᏬᎸᎯ	-14547
▁ᏧᎪᎵᏰᏗᏱ	-14548
▁ᏧᎵᏠᏯᏍᏗ	-14549
▁ᏧᎶᏄᎮᏗᏱ	-14550
▁ᏧᎾᎴᏅᏁᎢ	-14551
▁ᏧᎾᎵᏍᏗᏱ	-14552
▁ᏧᎾᏂᏢᏗᏱ	-14553
▁ᏧᎾᏄᎪᏫᏎ	-14554
▁ᏧᎾᏓᎨᏳᏗ	-14555
▁ᏧᎾᏓᎴᏁᎢ	-14556
▁ᏧᎾᏓᏡᏅᏛ	-14557
▁ᏧᎾᏕᏲᏗᏱ	-14558
▁ᏧᎾᏗᎦᎴᏲ	-14559
▁ᏧᎾᏨᏍᏗᏱ	-14560
▁ᏧᏂᎦᏐᎠᏒ	-14561
▁ᏧᏂᎾᏫᏍᎩ	-14562
▁ᏧᏂᏄᎪᏤᎢ	-14563
▁ᏧᏂᏅᏬᏗᏱ	-14564
▁ᏧᏂᏒᏍᏗᏱ	-14565
▁ᏧᏃᎸᏔᏂᏙ	-14566
▁ᏧᏃᏪᎳᏅᎯ	-14567
▁ᏧᏄᎪᏔᏅᎯ	-14568
▁ᏧᏓᎴᏅᏛᏉ	-14569
▁ᏧᏓᏂᎸᏨᎯ	-14570
▁ᏧᏓᏅᎦᎸᏛ	-14571
▁ᏧᏓᏬᏍᏙᏗ	-14572
▁ᏧᏬᎯᏳᏁᎢ	-14573
▁ᏧᏭᎪᏓᏁᎯ	-14574
▁ᏧᏭᎪᏙᏗᏱ	-14575
▁ᏧᏭᏓᏔᏅᎯ	-14576
▁ᏧᏲᎯᏍᏗᏱ	-14577
▁ᏧᏲᎯᏎᎸᎯ	-14578
▁ᏩᎦᏘᏃᎸᎩ	-14579
▁ᏩᎵᏍᏆᏗᎯ	-14580
▁ᏩᎾᎦᎳᎯᏳ	-14581
▁ᏩᏥᏯᏅᎲᎩ	-14582
▁ᏫᎦᎾᏄᎪᎢ	-14583
▁ᏫᎨᏣᏲᎵᎦ	-14584
▁ᏫᎨᏣᏲᎵᎭ	-14585
▁ᏫᎨᏥᏲᎵᎦ	-14586
▁ᏫᎬᏩᎷᏤᎴ	-14587
▁ᏫᎬᏩᏛᏅᎩ	-14588
▁ᏫᎬᏩᏴᏔᏁ	-14589
▁ᏫᎾᏴᎯᎲᎾ	-14590
▁ᏫᏄᏪᏎᎸᎩ	-14591
▁ᏫᏍᏗᎷᏨᎭ	-14592
▁ᏫᏓᏗᏁᏗᏱ	-14593
▁ᏫᏗᏥᏃᎲᏏ	-14594
▁ᏫᏚᎷᏤᎴᎢ	-14595
▁ᏫᏚᏂᏁᎸᎩ	-14596
▁ᏫᏚᏂᏯᏅᎲ	-14597
▁ᏫᏚᏯᏅᎮᏃ	-14598
▁ᏫᏣᏕᎨᏍᏗ	-14599
▁ᏫᏥᏴᏍᏗᏱ	-14600
▁ᏫᏱᏣᎧᎲᎦ	-14601
▁ᏭᎵᏍᏘᏂᎸ	-14602
▁ᏭᎵᏰᎢᎶᎸ	-14603
▁ᏭᏂᎦᏐᎠᏎ	-14604
▁ᏮᏓᏳᏎᎮᎵ	-14605
▁ᏯᎦᎵᏍᎨᎢ	-14606
▁ᏯᎩᏂᎬᏎᎭ	-14607
▁ᏯᏂᏍᏙᎰᎢ	-14608
▁ᏯᏂᏫᏍᎪᎢ	-14609
▁ᏯᏃᎩᏳᏰᏃ	-14610
▁ᏯᏆᎴᏂᏙᎸ	-14611
▁ᏯᏍᎦᏅᎪᎢ	-14612
▁ᏯᏓᏛᏍᎪᎢ	-14613
▁ᏯᏗᏔᏍᎨᎢ	-14614
▁ᏰᏦᏎᎮᏍᏗ	-14615
▁ᏱᎦᎾᏄᎪᎦ	-14616
▁ᏱᎦᏓᏃᎮᎭ	-14617
▁ᏱᎬᏩᏁᎮᎢ	-14618
▁ᏱᎬᏪᎵᏎᎢ	-14619
▁ᏱᎾᎾᏛᏁᎰ	-14620
▁ᏱᏁᏥᏪᏎᎸ	-14621
▁ᏱᏂᎬᏁᎰᎢ	-14622
▁ᏱᏂᏚᏩᏁᎸ	-14623
▁ᏱᏄᎵᏍᏓᏁ	-14624
▁ᏱᏅᎨᏣᏛᎦ	-14625
▁ᏱᏅᎬᎾᏛᎦ	-14626
▁ᏱᏅᏛᏅᏁᎵ	-14627
▁ᏱᏅᏩᏍᏗᏉ	-14628
▁ᏱᏍᏗᎦᏔᎭ	-14629
▁ᏱᏓᏂᏬᏂᎭ	-14630
▁ᏱᏕᎬᏲᎯᏏ	-14631
▁ᏱᏗᏥᎨᏳᎭ	-14632
▁ᏱᏗᏥᏬᏂᎭ	-14633
▁ᏱᏗᏧᎪᏗᎭ	-14634
▁ᏱᏙᎦᏣᎦᎸ	-14635
▁ᏱᏙᎩᏯᏪᎦ	-14636
▁ᏱᏙᎬᏛᏂᏏ	-14637
▁ᏱᏣᏲᎱᏎᎭ	-14638
▁ᏱᏥᎦᏔᎮᎢ	-14639
▁ᏱᏥᎪᏩᏘᎭ	-14640
▁ᏱᏦᎵᎨᏍᏗ	-14641
▁ᏱᏨᎸᏉᏗᎭ	-14642
▁ᏱᏨᏃᏁᎴᎢ	-14643
▁ᏱᏪᏣᏓᎢᏅ	-14644
▁ᏲᏍᏗᎦᏔᎭ	-14645
▁ᏳᎵᏌᎳᏓᏅ	-14646
▁ᏳᏂᎾᏗᏅᏎ	-14647
▁ᏳᏃᎯᏳᏁᎢ	-14648
▁ᏳᏍᏆᏂᎪᏗ	-14649
▁ᏳᏬᎯᏳᏁᎢ	-14650
▁ᏴᎬᎵᏍᏕᎸ	-14651
ᎦᎵᏍᏓᏗᏍᎬᎩ	-14652
ᎦᏯᎷᎥᏍᎩᏰᏃ	-14653
ᎩᎵᏲᎢᏍᏗᏍᎩ	-14654
ᎵᏂᎪᎯᏍᏔᏁᎢ	-14655
ᎵᏍᎦᏍᏙᏔᏅᎯ	-14656
ᎵᏍᎪᎸᏓᏁᎴᎢ	-14657
ᎵᏍᎪᎸᏗᏍᎨᎢ	-14658
ᎵᏍᏓᏴᎲᏍᎨᎢ	-14659
ᎵᏍᏓᏴᎲᏍᎪᎢ	-14660
ᎵᏍᏓᏴᏗᏍᎬᎢ	-14661
ᎵᏰᎢᎶᎯᏍᏗᏱ	-14662
ᎶᏒᏍᏗᏍᎨᏍᏗ	-14663
ᎾᏛᏅᎢᏍᏙᏗᏱ	-14664
ᏓᎵᏁᎯᏕᎮᏍᏗ	-14665
ᏓᎵᏂᎪᎯᏍᏙᏗ	-14666
ᏓᏅᏓᏗᏍᏔᏅᎩ	-14667
ᏓᏙᎵᏍᏓᏁᎲᎢ	-14668
ᏓᏙᎵᏍᏗᏍᎪᎢ	-14669
ᏗᎦᏔᏫᎢᏍᏗᏱ	-14670
ᏗᏍᎨᏍᏗᏍᎩᏂ	-14671
ᏥᏯᏠᎢᏍᏓᏁᎵ	-14672
ᏬᎯᎵᏴᏍᏓᏁᏗ	-14673
ᏲᎵᏍᏗᏍᎨᏍᏗ	-14674
▁ᎠᎦᎫᏴᏓᏁᏗ	-14675
▁ᎠᎦᏘᏏᏗᏢᏃ	-14676
▁ᎠᎦᏘᏗᏍᏙᏗ	-14677
▁ᎠᎦᏙᎮᎯᏍᏗ	-14678
▁ᎠᎩᎳᏫᏍᏗᏱ	-14679
▁ᎠᎩᎵᏲᎨᏍᏗ	-14680
▁ᎠᎩᏅᏏᏓᏍᏗ	-14681
▁ᎠᎩᏲᏏᏍᎬᎩ	-14682
▁ᎠᎪᎲᏍᏙᏗᏱ	-14683
▁ᎠᎪᏢᎾᏁᎸᎯ	-14684
▁ᎠᎪᏩᏘᏍᎪᎢ	-14685
▁ᎠᎪᏪᎶᏔᏅᎯ	-14686
▁ᎠᎫᎢᏍᏗᏍᎩ	-14687
▁ᎠᎴᏂᏓᏍᏗᏱ	-14688
▁ᎠᎵᎮᎵᏤᎰᎢ	-14689
▁ᎠᎵᏍᎦᏁᏛᏉ	-14690
▁ᎠᎵᏍᎦᏍᏙᏙ	-14691
▁ᎠᎵᏍᏓᏴᏗᏉ	-14692
▁ᎠᎵᏏᎾᎯᏍᏗ	-14693
▁ᎠᎾᎵᎮᎵᎨᎢ	-14694
▁ᎠᎾᎵᎮᎵᎬᎢ	-14695
▁ᎠᎾᎵᎮᎵᏤᎮ	-14696
▁ᎠᎾᏁᏍᎨᏍᎬ	-14697
▁ᎠᎾᏓᏛᏍᎬᎢ	-14698
▁ᎠᎾᏙᎴᎰᏍᏗ	-14699
▁ᎠᎾᏙᎴᎰᏒᎭ	-14700
▁ᎠᎾᏛᎩᏍᎬᎢ	-14701
▁ᎠᏂᎪᏩᏗᏍᎬ	-14702
▁ᎠᏂᎪᏩᏘᏍᎩ	-14703
▁ᎠᏂᏂᎦᎴᏓᏂ	-14704
▁ᎠᏂᏃᎮᎵᏙᎲ	-14705
▁ᎠᏂᏍᎦᎢᎮᏃ	-14706
▁ᎠᏂᏍᎦᎢᎲᎩ	-14707
▁ᎠᏂᏍᎦᎢᎲᏃ	-14708
▁ᎠᏂᏍᎦᎾᎯᏳ	-14709
▁ᎠᏂᏫᏅᎨᏌᏂ	-14710
▁ᎠᏂᏬᏂᏍᎪᎢ	-14711
▁ᎠᏂᏯᏙᎯᎲᎢ	-14712
▁ᎠᏂᏲᏍᏗᏍᎩ	-14713
▁ᎠᏃᎯᏳᎲᏍᎦ	-14714
▁ᎠᏃᏢᏅᎥᏍᎩ	-14715
▁ᎠᏆᎴᏂᏙᎸᎢ	-14716
▁ᎠᏆᎵᏂᎩᏗᏳ	-14717
▁ᎠᏆᎵᏍᏓᏴᏗ	-14718
▁ᎠᏆᏅᏓᏗᏍᏗ	-14719
▁ᎠᏆᏓᏅᏖᎸᎩ	-14720
▁ᎠᏆᏓᏅᏖᏍᎬ	-14721
▁ᎠᏆᏓᏅᏙᎩᎯ	-14722
▁ᎠᏆᏓᏙᎵᏍᏗ	-14723
▁ᎠᏆᏓᏤᎵᎦᏯ	-14724
▁ᎠᏆᏓᏲᎵᏍᏗ	-14725
▁ᎠᏆᏘᏂᏙᎲᎩ	-14726
▁ᎠᏆᏙᎴᎰᏒᏃ	-14727
▁ᎠᏆᏚᎵᏍᎬᎩ	-14728
▁ᎠᏆᏛᎯᏎᎸᎯ	-14729
▁ᎠᏆᏟᏂᎬᏁᎸ	-14730
▁ᎠᏉᎯᏳᏓᏁᎯ	-14731
▁ᎠᏍᎦᏰᎬᏍᏓ	-14732
▁ᎠᏍᎪᎯᏁᏰᏃ	-14733
▁ᎠᏍᎫᏕᏍᎪᎢ	-14734
▁ᎠᏍᏆᏂᎪᏍᎨ	-14735
▁ᎠᏍᏓᏩᏗᏙᎯ	-14736
▁ᎠᏍᏓᏱᏗᏍᏗ	-14737
▁ᎠᏏᏴᏫᏉᏰᏃ	-14738
▁ᎠᏏᏴᏫᏍᎩᏂ	-14739
▁ᎠᏓᎨᏳᏗᏰᏃ	-14740
▁ᎠᏓᏂᏆᏗᏍᏗ	-14741
▁ᎠᏓᏅᎡᎮᏍᏗ	-14742
▁ᎠᏓᏍᏕᎵᏍᎩ	-14743
▁ᎠᏓᏛᏂᏗᏍᎩ	-14744
▁ᎠᏚᎳᏗᏍᎨᎢ	-14745
▁ᎠᏡᏗᏍᎨᏍᏗ	-14746
▁ᎠᏢᏈᏍᎨᏍᏗ	-14747
▁ᎠᏥᏍᎩᏅᏛᎯ	-14748
▁ᎠᏥᏰᎸᎾᏁᎴ	-14749
▁ᎠᏯᏍᏜᏗᏍᎩ	-14750
▁ᎠᏲᎱᎯᏍᏗᏃ	-14751
▁ᎠᏲᎱᎯᏍᏗᏱ	-14752
▁ᎠᏲᏍᏙᏗᏍᎩ	-14753
▁ᎡᎶᎯᏉᏍᎩᏂ	-14754
▁ᎡᏥᎸᏉᏔᏅᎯ	-14755
▁ᎡᏥᏙᎵᏍᏗᏱ	-14756
▁ᎡᏦᎢᏳᎲᏍᎩ	-14757
▁ᎢᎠᏥᏩᏛᎲᏃ	-14758
▁ᎢᎡᎵᏍᎨᏍᏗ	-14759
▁ᎢᎦᎵᏃᎮᏗᏱ	-14760
▁ᎢᎦᏠᏯᏍᏙᏗ	-14761
▁ᎢᎨᏣᏛᏁᏗᏱ	-14762
▁ᎢᎬᏩᏓᏛᏁᏗ	-14763
▁ᎢᎯᎪᏩᏘᏍᎪ	-14764
▁ᎢᏍᎪᏂᏗᏢᏃ	-14765
▁ᎢᏓᎵᎪᎲᏍᎬ	-14766
▁ᎢᏗᏍᎦᎾᎯᏳ	-14767
▁ᎢᏗᏍᏓᏩᏕᎩ	-14768
▁ᎢᏙᎯᏳᎲᏍᎦ	-14769
▁ᎢᏛᏗᏍᎨᏍᏗ	-14770
▁ᎢᏣᎦᏌᏯᏍᏓ	-14771
▁ᎢᏣᎴᏂᏙᎲᎢ	-14772
▁ᎢᏣᎵᏂᎬᏁᎲ	-14773
▁ᎢᏣᏓᏅᎦᎸᏛ	-14774
▁ᎢᏣᏓᏙᎵᏍᏓ	-14775
▁ᎢᏣᏚᎵᏍᎬᎢ	-14776
▁ᎢᏣᏚᏓᏕᏫᏒ	-14777
▁ᎢᏥᎦᏯᎷᎥᎦ	-14778
▁ᎢᏥᎩᏍᎨᏍᏗ	-14779
▁ᎢᏥᎵᏓᏍᏗᎭ	-14780
▁ᎢᏥᎶᏁᏔᏅᎯ	-14781
▁ᎢᏥᏁᏉᏤᏗᏱ	-14782
▁ᎢᏦᎯᏳᏒᏰᏃ	-14783
▁ᎢᏧᎵᏍᏔᏅᎯ	-14784
▁ᎢᏨᎾᏄᎪᏫᏎ	-14785
▁ᎢᏨᎾᏄᏫᏎᎭ	-14786
▁ᎢᏨᏰᎳᏗᏙᎸ	-14787
▁ᎢᏨᏰᏯᏔᏅᎢ	-14788
▁ᎢᏯᎩᏳᏍᏈᏛ	-14789
▁ᎢᏯᏍᎦᏅᏨᎯ	-14790
▁ᎢᏲᏨᏴᏁᏗᏱ	-14791
▁ᎢᏳᏂᏁᎫᏥᏛ	-14792
▁ᎢᏳᏅᏂᏐᏗᏱ	-14793
▁ᎣᎦᎵᏍᏓᏴᏗ	-14794
▁ᎣᎦᎵᏥᏙᏗᏱ	-14795
▁ᎣᎦᏚᎵᏍᎬᎩ	-14796
▁ᎣᎩᎦᎵᏍᏓᏗ	-14797
▁ᎣᎩᏂᎬᏎᎲᎢ	-14798
▁ᎣᎩᏃᎮᎮᎸᎯ	-14799
▁ᎣᎩᏃᎮᏍᎬᎢ	-14800
▁ᎣᏣᎵᎡᎵᏤᎭ	-14801
▁ᎣᏥᎦᏔᎭᏰᏃ	-14802
▁ᎣᏥᎩᎵᏲᎬᎢ	-14803
▁ᎣᏥᏃᎮᏍᎪᎢ	-14804
▁ᎣᏥᏃᎮᏍᎬᎢ	-14805
▁ᎣᏥᏍᏕᎵᏍᎩ	-14806
▁ᎤᎦᎾᏬᏍᎬᎩ	-14807
▁ᎤᎦᏘᏗᏍᏗᏱ	-14808
▁ᎤᎦᏛᎾᏤᎸᎢ	-14809
▁ᎤᎵᎮᎵᏤᎸᎩ	-14810
▁ᎤᎵᏂᎩᏗᏳᏃ	-14811
▁ᎤᎵᏃᎮᏔᏅᎢ	-14812
▁ᎤᎵᏍᎦᏂᏍᏛ	-14813
▁ᎤᎵᏍᎪᎸᏔᏅ	-14814
▁ᎤᎵᏍᏚᎢᏎᎢ	-14815
▁ᎤᎵᏱᎵᏕᎲᎢ	-14816
▁ᎤᎶᏒᏍᏕᏍᏗ	-14817
▁ᎤᎾᎵᎪᏎᏍᏗ	-14818
▁ᎤᎾᎵᎮᎵᏨᎯ	-14819
▁ᎤᎾᎵᏃᎮᎴᎢ	-14820
▁ᎤᎾᎵᏖᎸᏅᎢ	-14821
▁ᎤᎾᎵᏖᎸᏅᎩ	-14822
▁ᎤᎾᏁᎶᏔᏅᎯ	-14823
▁ᎤᎾᏄᎪᏥᎴᎢ	-14824
▁ᎤᎾᏄᎪᏫᏒᎩ	-14825
▁ᎤᎾᏌᏍᏔᏅᎩ	-14826
▁ᎤᎾᏓᎵᏓᏍᏗ	-14827
▁ᎤᎾᏓᏅᏓᏛᎩ	-14828
▁ᎤᎾᏓᏑᏰᏛᏉ	-14829
▁ᎤᎾᏓᏟᏌᏅᎩ	-14830
▁ᎤᎾᏗᏓᏁᏎᎢ	-14831
▁ᎤᎾᏗᏔᏍᏗᏱ	-14832
▁ᎤᎾᏘᏃᎮᎴᎢ	-14833
▁ᎤᎾᏘᏅᏍᏗᏱ	-14834
▁ᎤᎾᏙᎴᎰᏒᏃ	-14835
▁ᎤᎾᏚᎵᏍᎨᎢ	-14836
▁ᎤᎾᏚᎵᏍᎪᎢ	-14837
▁ᎤᎾᏛᎦᏁᎸᎯ	-14838
▁ᎤᎾᏛᏁᎸᏗᏱ	-14839
▁ᎤᎾᏠᏯᏍᏗᎭ	-14840
▁ᎤᏁᎢᏍᏔᏁᎢ	-14841
▁ᎤᏁᎢᏍᏔᏅᎢ	-14842
▁ᎤᏁᎢᏍᏔᏅᎩ	-14843
▁ᎤᏁᎢᏍᏔᏅᎯ	-14844
▁ᎤᏁᎳᏫᏎᎸᎢ	-14845
▁ᎤᏁᏉᏨᏍᏗᏱ	-14846
▁ᎤᏂᎦᎾᏏᏍᎩ	-14847
▁ᎤᏂᎦᏯᎷᏅᎩ	-14848
▁ᎤᏂᎨᎯᏙᎴᎢ	-14849
▁ᎤᏂᎪᎯᏙᎸᎯ	-14850
▁ᎤᏂᎸᏉᏙᏗᏱ	-14851
▁ᎤᏂᎾᏄᎪᏤᎸ	-14852
▁ᎤᏂᎾᏫᏛᎲᏃ	-14853
▁ᎤᏂᏁᎢᏍᏔᏅ	-14854
▁ᎤᏂᏂᎬᏎᎲᎢ	-14855
▁ᎤᏂᏍᎦᎢᏍᏗ	-14856
▁ᎤᏂᏍᎫᏕᏒᎯ	-14857
▁ᎤᏂᏍᏓᏩᏕᏅ	-14858
▁ᎤᏂᏍᏓᏩᏛᏛ	-14859
▁ᎤᏂᏐᏅᏤᎴᎢ	-14860
▁ᎤᏂᏔᎳᏬᏒᎩ	-14861
▁ᎤᏂᏣᏘᏍᎩᏂ	-14862
▁ᎤᏂᏩᏒᎥᏍᎩ	-14863
▁ᎤᏂᏲᎱᏎᎸᎯ	-14864
▁ᎤᏂᏲᏠᎯᏎᎸ	-14865
▁ᎤᏇᏓᎸᏍᎩᏂ	-14866
▁ᎤᏍᏆᎸᎯᏕᎾ	-14867
▁ᎤᏍᏆᏂᎪᏎᎢ	-14868
▁ᎤᏍᏆᏂᎪᏛᎢ	-14869
▁ᎤᏍᏗᏰᏔᏁᎢ	-14870
▁ᎤᏓᏍᏛᏗᏍᏗ	-14871
▁ᎤᏓᏙᎵᏍᏗᏳ	-14872
▁ᎤᏓᏙᎵᏣᏛᎢ	-14873
▁ᎤᏓᏴᏍᏕᏍᏗ	-14874
▁ᎤᏕᏯᏔᏁᎴᎢ	-14875
▁ᎤᏖᎸᎮᏍᎬᎢ	-14876
▁ᎤᏗᎴᎲᏍᎬᎢ	-14877
▁ᎤᏗᎴᎲᏍᎬᏃ	-14878
▁ᎤᏘᏯᏍᏓᏁᏗ	-14879
▁ᎤᏚᎢᏍᏓᏁᎴ	-14880
▁ᎤᏚᏓᎴᏍᏗᏱ	-14881
▁ᎤᏚᏓᏕᏫᏒᎢ	-14882
▁ᎤᏛᏅᎢᏍᏔᏁ	-14883
▁ᎤᏠᏯᏍᏙᏗᏱ	-14884
▁ᎤᏧᎵᏍᏙᏔᏅ	-14885
▁ᎤᏩᏒᏉᏍᎩᏂ	-14886
▁ᎤᏪᎳᏗᏍᏙᏗ	-14887
▁ᎤᏪᎵᎯᏍᎬᏉ	-14888
▁ᎤᏪᎾᏫᏍᎨᎢ	-14889
▁ᎤᏪᏩᏒᎢᏍᏗ	-14890
▁ᎤᏲᎯᏍᏔᏁᎢ	-14891
▁ᎤᏲᎱᎯᏎᎸᎯ	-14892
▁ᎤᏲᏏᏍᎨᏍᏗ	-14893
▁ᎥᎬᏩᎷᏤᎸᎩ	-14894
▁ᎥᎬᏩᏛᏛᏅᎩ	-14895
▁ᎦᎨᎫᎢᏍᏙᏗ	-14896
▁ᎦᎵᏥᏙᎲᏍᎩ	-14897
▁ᎦᎵᏥᏙᎲᏍᎬ	-14898
▁ᎦᎶᎯᏍᏗᏱᏉ	-14899
▁ᎦᎾᏄᎪᎨᏍᏗ	-14900
▁ᎦᎾᏄᎪᏫᏍᎦ	-14901
▁ᎦᏃᎸᎥᏍᎬᎢ	-14902
▁ᎦᏃᎸᎥᏍᎬᏃ	-14903
▁ᎦᏌᏁᎾᏛᏗᏱ	-14904
▁ᎦᏥᏍᏕᎸᏗᏱ	-14905
▁ᎦᏥᏯᏁᎳᏅᎯ	-14906
▁ᎦᏥᏯᏟᏐᏗᏱ	-14907
▁ᎦᏬᏂᎯᏍᏗᏉ	-14908
▁ᎦᏬᏂᎯᏍᏗᏱ	-14909
▁ᎦᏬᏂᏍᎨᏍᏗ	-14910
▁ᎦᏰᏥᏍᏕᎸᏗ	-14911
▁ᎦᏰᏥᏐᏢᏔᏅ	-14912
▁ᎦᏴᏓᏘᏁᏗᏱ	-14913
▁ᎧᏁᎢᏍᏗᏍᎪ	-14914
▁ᎧᏃᎮᏛᏍᎩᏂ	-14915
▁ᎨᏣᎵᎮᎵᏍᏗ	-14916
▁ᎨᏣᏁᏄᎳᏍᏗ	-14917
▁ᎨᏣᏡᏗᏍᎬᎢ	-14918
▁ᎨᏥᏃᎮᏍᎬᎢ	-14919
▁ᎨᏧᎯᏍᏗᏍᎩ	-14920
▁ᎪᎩᎸᏉᏙᏗᏱ	-14921
▁ᎪᎱᏍᏗᏍᎩᏂ	-14922
▁ᎬᏂᏗᏳᏍᎩᏂ	-14923
▁ᎬᏉᎯᏳᎲᏍᎩ	-14924
▁ᎬᏩᎦᏘᏗᏍᎩ	-14925
▁ᎬᏩᎵᎥᏂᎴᎢ	-14926
▁ᎬᏩᎵᏃᎮᏔᏁ	-14927
▁ᎬᏩᎵᏠᏯᏍᏗ	-14928
▁ᎬᏩᎸᏉᏙᏗᏱ	-14929
▁ᎬᏩᎾᏎᎯᏍᏗ	-14930
▁ᎬᏩᏁᏄᎳᏍᏗ	-14931
▁ᎬᏩᏂᎷᏤᎸᎩ	-14932
▁ᎬᏩᏃᎵᏍᏙᏗ	-14933
▁ᎬᏩᏄᎪᏤᎸᎯ	-14934
▁ᎬᏩᏍᏆᏗᏍᏗ	-14935
▁ᎬᏩᏍᏕᎵᏍᎩ	-14936
▁ᎬᏩᏔᏲᏎᎴᏃ	-14937
▁ᎬᏩᏕᎰᎯᏍᏗ	-14938
▁ᎬᏩᏕᎰᏔᏁᎢ	-14939
▁ᎬᏩᏘᏃᎮᎸᎩ	-14940
▁ᎬᏩᏛᎦᏁᎸᎯ	-14941
▁ᎬᏩᏛᏛᏅᎩᏃ	-14942
▁ᎬᏩᏯᏫᏍᎨᎢ	-14943
▁ᎬᏩᏰᏍᏔᏁᎢ	-14944
▁ᎭᎵᎮᎵᎨᏍᏗ	-14945
▁ᎭᏓᏅᏖᏍᎬᎢ	-14946
▁ᎯᏁᎩᏉᏍᎩᏂ	-14947
▁ᎯᏃᎮᏍᎨᏍᏗ	-14948
▁ᎯᏍᎦᏍᎪᎯᏁ	-14949
▁ᎯᏯᏙᎵᎨᏍᏗ	-14950
▁ᎾᎠᏙᎴᎰᏍᎩ	-14951
▁ᎾᎩᎨᏳᏎᏍᏗ	-14952
▁ᎾᎾᏓᏛᏍᎬᎾ	-14953
▁ᎾᏂᎥᏉᏍᎩᏂ	-14954
▁ᎾᏂᎦᏔᎲᎾᏉ	-14955
▁ᎾᏂᎾᏰᏍᎬᎾ	-14956
▁ᎾᏆᎵᎪᏁᎲᎾ	-14957
▁ᎾᏆᎵᏍᏓᏁᎸ	-14958
▁ᎾᏆᎵᏍᏔᏅᎩ	-14959
▁ᎾᏆᏓᏄᏴᏛᎾ	-14960
▁ᎾᏍᎩᏯᏉᏰᏃ	-14961
▁ᎾᏓᎦᏖᏃᎲᎾ	-14962
▁ᎾᏓᏛᏁᎮᏍᏗ	-14963
▁ᎾᏧᏁᏍᎨᎮᎢ	-14964
▁ᏁᏥᎳᏫᏎᎲᎾ	-14965
▁ᏂᎦᎵᏍᏔᏂᎦ	-14966
▁ᏂᎦᎵᏍᏗᏍᎨ	-14967
▁ᏂᎦᏅᎦᎸᎲᎾ	-14968
▁ᏂᎦᏡᏗᏍᎬᎾ	-14969
▁ᏂᎦᏪᏍᎨᏍᏗ	-14970
▁ᏂᎬᏩᎾᏛᏁᎴ	-14971
▁ᏂᏓᏙᏓᏈᏒᎢ	-14972
▁ᏂᏓᏛᏓᏍᏓᏁ	-14973
▁ᏂᏓᏟᎶᏍᏓᏁ	-14974
▁ᏂᏕᎦᏪᏎᎲᎩ	-14975
▁ᏂᏙᏓᏳᏅᏏᏛ	-14976
▁ᏂᏙᏗᎦᎶᏍᎬ	-14977
▁ᏂᏚᎵᏍᏔᏅᎩ	-14978
▁ᏂᏚᎿᏍᏕᏢᎾ	-14979
▁ᏂᏚᏂᎨᏳᏒᎾ	-14980
▁ᏂᏣᎵᏍᏓᏁᎭ	-14981
▁ᏂᏣᏓᎨᏳᏒᎢ	-14982
▁ᏂᏣᏚᎵᏍᎬᎾ	-14983
▁ᏂᏣᏛᏓᏍᏓᏁ	-14984
▁ᏂᏥᎦᏔᎲᎾᏃ	-14985
▁ᏂᏥᎦᏔᎾᎥᎾ	-14986
▁ᏂᏥᎦᏔᎿᎥᎾ	-14987
▁ᏂᏥᏂᎬᏎᎲᎾ	-14988
▁ᏂᏥᏃᎯᏴᎾᏉ	-14989
▁ᏂᏥᏑᎵᎪᎬᎾ	-14990
▁ᏂᏥᏪᏍᎨᏍᏗ	-14991
▁ᏂᏥᏪᏎᎮᏍᏗ	-14992
▁ᏂᏥᏰᎸᏍᎬᎾ	-14993
▁ᏃᎦᏚᎵᏍᎬᎾ	-14994
▁ᏃᎦᏠᎾᏍᏛᎾ	-14995
▁ᏄᎵᏍᏓᏁᎲᎾ	-14996
▁ᏄᎵᏍᏔᏁᏍᏗ	-14997
▁ᏄᎵᏍᏔᏂᏙᎴ	-14998
▁ᏄᎾᎵᏍᏔᏁᎢ	-14999
▁ᏄᎾᏓᏄᏴᏛᎾ	-15000
▁ᏄᎾᏚᎵᏍᎬᎾ	-15001
▁ᏄᎾᏛᎿᏕᎬᎢ	-15002
▁ᏄᎾᏠᎾᏍᏛᎾ	-15003
▁ᏄᏂᎦᏙᎥᏒᎾ	-15004
▁ᏄᏂᎷᎶᏤᎲᎾ	-15005
▁ᏄᏂᏍᎦᏅᏨᎾ	-15006
▁ᏄᏓᎴᏒᏍᎩᏂ	-15007
▁ᏄᏜᏏᏛᎡᎲᎾ	-15008
▁ᏅᏋᏁᎵᏙᎸᎢ	-15009
▁ᏅᏓᎦᏓᎴᏅᎯ	-15010
▁ᏅᏓᎦᏥᏪᏎᎵ	-15011
▁ᏅᏓᎬᏩᎴᏅᏛ	-15012
▁ᏅᏓᎬᏩᏪᏎᎵ	-15013
▁ᏅᏓᏍᏛᏴᏁᎵ	-15014
▁ᏅᏓᏥᏯᏛᏁᎵ	-15015
▁ᏅᏓᏳᏪᏎᎸᎩ	-15016
▁ᏅᏛᎩᏪᏎᎲᎩ	-15017
▁ᏅᏛᎾᎵᏍᏔᏂ	-15018
▁ᏅᏛᏓᎴᎲᏍᎩ	-15019
▁ᏅᏩᏓᎴᏍᎩᏂ	-15020
▁ᏅᏩᏙᎯᏯᏛᏃ	-15021
▁ᏍᎩᎪᏩᏛᏗᏱ	-15022
▁ᏍᎩᎾᏄᎪᏫᏏ	-15023
▁ᏍᏆᏛᎦᏁᎸᎯ	-15024
▁ᏓᎦᏘᎴᎨᏍᏗ	-15025
▁ᏓᎨᏥᏯᏅᎡᎵ	-15026
▁ᏓᎬᏩᎵᎥᏂᎵ	-15027
▁ᏓᎬᏩᏍᎪᏂᎵ	-15028
▁ᏓᎬᏯᎫᏴᎡᎵ	-15029
▁ᏓᎾᏤᎨᏍᏗᏉ	-15030
▁ᏓᏂᎳᏫᎥᏰᏃ	-15031
▁ᏓᏂᎶᏄᎮᏍᎪ	-15032
▁ᏓᏃᏢᎯᏏᏍᎨ	-15033
▁ᏓᏍᏆᎸᎮᎬᎢ	-15034
▁ᏓᏍᏓᏎᎮᎵᏃ	-15035
▁ᏓᏍᏗᏰᏗᏍᎬ	-15036
▁ᏓᏥᏁᎢᏍᏔᏂ	-15037
▁ᏓᏥᏲᏪᎶᏔᏂ	-15038
▁ᏓᏯᏙᎮᎮᏍᏗ	-15039
▁ᏓᏰᏥᏄᎪᏫᏏ	-15040
▁ᏓᏳᎾᏄᎪᏨᎩ	-15041
▁ᏕᎤᎸᏫᏍᏓᏏ	-15042
▁ᏕᎦᎫᏍᏓᎥᏃ	-15043
▁ᏕᎦᏓᏬᏍᏗᎭ	-15044
▁ᏕᎦᏕᏲᎲᏍᎬ	-15045
▁ᏕᎦᏬᏁᏗᏍᎬ	-15046
▁ᏕᎨᏥᏅᏩᏁᎢ	-15047
▁ᏕᎩᏂᏴᏎᏍᏗ	-15048
▁ᏕᎬᏆᏁᎶᏙᎢ	-15049
▁ᏕᎬᏩᏘᏃᎮᎴ	-15050
▁ᏕᎯᎸᏉᏕᏍᏗ	-15051
▁ᏕᏓᎧᏂᏍᎬᎢ	-15052
▁ᏕᏣᏓᎨᏳᏒᎢ	-15053
▁ᏕᏣᏓᏁᎮᏍᏗ	-15054
▁ᏕᏣᏓᏂᎸᏨᎭ	-15055
▁ᏕᏣᏠᏱᎮᏍᏗ	-15056
▁ᏕᏣᏬᏍᏔᏁᎢ	-15057
▁ᏕᏥᎧᎿᏩᏗᏒ	-15058
▁ᏕᏥᏍᏆᏂᎪᏙ	-15059
▁ᏕᏥᏲᏍᎨᏍᏗ	-15060
▁ᏕᏨᏯᏬᏍᏗᎭ	-15061
▁ᏗᎦᎵᎠᏅᎯᏛ	-15062
▁ᏗᎦᎶᎯᏍᏗᏱ	-15063
▁ᏗᎦᎶᏐᎲᏍᎩ	-15064
▁ᏗᎦᎸᏉᏔᏅᎯ	-15065
▁ᏗᎦᏓᎨᏳᎯᏳ	-15066
▁ᏗᎧᎾᏩᏛᏍᏗ	-15067
▁ᏗᎨᎪᏍᏔᏅᎯ	-15068
▁ᏗᎨᏥᎢᏍᏗᏱ	-15069
▁ᏗᎨᏥᏅᏬᏗᏱ	-15070
▁ᏗᎨᏥᏴᎩᏅᎯ	-15071
▁ᏗᎨᏧᎪᏓᏁᎯ	-15072
▁ᏗᎩᎦᏴᎵᎨᏃ	-15073
▁ᏗᎩᎧᏁᏴᏗᏱ	-15074
▁ᏗᎩᎾᏓᏛᏙᏗ	-15075
▁ᏗᎪᏪᎵᏍᎩᏃ	-15076
▁ᏗᎬᎦᏌᏬᎢᎯ	-15077
▁ᏗᎬᏩᏂᏍᏙᏗ	-15078
▁ᏗᎬᏩᏲᎯᏍᏗ	-15079
▁ᏗᏂᎦᏙᎵᏰᏃ	-15080
▁ᏗᏂᎶᏍᎨᏍᏗ	-15081
▁ᏗᏂᏙᎾᎡᏍᏗ	-15082
▁ᏗᏂᏤᎷᎯᏍᎩ	-15083
▁ᏗᏄᎪᏗᏍᎩᏱ	-15084
▁ᏗᏅᏃᏛᏍᎩᏂ	-15085
▁ᏗᏆᏓᏁᎶᏗᏉ	-15086
▁ᏗᏍᎩᏲᏏᏌᏏ	-15087
▁ᏗᏓᎪᏗᏍᎩᏱ	-15088
▁ᏗᏓᎴᎲᏍᎪᎢ	-15089
▁ᏗᏓᏂᏱᏍᎩᏱ	-15090
▁ᏗᏓᏍᏚᏗᏱᏃ	-15091
▁ᏗᏠᎯᏍᏔᏅᎯ	-15092
▁ᏗᏣᎲᏖᏍᏗᏱ	-15093
▁ᏗᏣᎸᏫᏍᏓᏏ	-15094
▁ᏗᏣᏄᏬᏍᏗᏱ	-15095
▁ᏗᏣᏓᎨᏳᏗᏱ	-15096
▁ᏗᏣᏓᏅᏏᏙᎯ	-15097
▁ᏗᏣᏓᏘᏂᏙᎯ	-15098
▁ᏗᏣᏚᎪᏓᏁᏗ	-15099
▁ᏗᏣᏢᏫᏍᏙᏗ	-15100
▁ᏗᏥᎸᏫᏍᏓᏏ	-15101
▁ᏗᏥᏍᏓᏩᏕᎩ	-15102
▁ᏙᎤᏁᏅᏍᏗᏱ	-15103
▁ᏙᎩᎸᏫᏍᏓᏁ	-15104
▁ᏙᏓᎦᏅᎦᎸᎯ	-15105
▁ᏙᏓᎨᎦᎴᏔᏂ	-15106
▁ᏙᏓᏣᏬᏍᏔᏂ	-15107
▁ᏙᏓᏥᏩᏛᎯᏃ	-15108
▁ᏙᏓᏦᎵᏍᏔᏂ	-15109
▁ᏙᏗᎧᏂᏍᎬᎢ	-15110
▁ᏙᏛᏂᏲᎯᏎᎵ	-15111
▁ᏙᏧᎾᏓᏅᏛᏃ	-15112
▁ᏚᎷᏆᏗᏅᏒᎩ	-15113
▁ᏚᎸᏫᏍᏓᏁᎭ	-15114
▁ᏚᎾᏄᎪᏫᏎᎢ	-15115
▁ᏚᎾᏄᎪᏫᏎᎴ	-15116
▁ᏚᎾᏄᎪᏫᏎᎸ	-15117
▁ᏚᎾᏗᏩᏍᎨᎢ	-15118
▁ᏚᏁᎢᏍᏓᏁᎴ	-15119
▁ᏚᏂᎳᏫᏦᎴᎢ	-15120
▁ᏚᏂᏍᏆᎸᏔᏁ	-15121
▁ᏚᏂᏲᎯᏎᎸᎩ	-15122
▁ᏚᏅᏂᎦᎸᎲᎩ	-15123
▁ᏚᏅᏂᏍᏔᏁᎢ	-15124
▁ᏚᏅᏍᏓᏕᎸᎩ	-15125
▁ᏚᏍᏆᎸᏔᏁᎢ	-15126
▁ᏚᏍᏓᏩᏛᏎᎢ	-15127
▁ᏚᏟᎶᏍᏓᏁᎴ	-15128
▁ᏚᏪᏣᎦᎸᎮᎢ	-15129
▁ᏚᏰᎵᎯᏍᏔᏅ	-15130
▁ᏛᎵᏰᎢᎸᏍᏓ	-15131
▁ᏛᎾᏗᎦᎴᏲᏥ	-15132
▁ᏛᏍᏆᎸᎯᏰᏃ	-15133
▁ᏛᏥᎵᏦᏘᏌᏂ	-15134
▁ᏣᎧᎵᎢᏍᏗᏱ	-15135
▁ᏣᎩᏲᎱᏎᎲᎩ	-15136
▁ᏣᎵᏂᎪᎯᏍᏗ	-15137
▁ᏣᎵᏍᏓᏴᏗᏱ	-15138
▁ᏣᎵᏍᏕᎸᏙᏗ	-15139
▁ᏣᏓᏪᎵᎩᏍᎪ	-15140
▁ᏣᏔᏕᎩᏍᎨᎢ	-15141
▁ᏣᏚᎵᏍᎨᏍᏗ	-15142
▁ᏤᏥᏲᎯᏎᎸᎩ	-15143
▁ᏥᎦᎶᏒᏍᏗᎭ	-15144
▁ᏥᎪᏩᏘᏍᎬᎩ	-15145
▁ᏥᎬᏇᎯᏍᏗᎭ	-15146
▁ᏥᏁᎢᏍᏗᏍᎬ	-15147
▁ᏥᏂᏓᎦᏔᎰᎢ	-15148
▁ᏥᏂᏣᎵᏍᏔᏅ	-15149
▁ᏥᏂᏥᏪᏍᎬᎩ	-15150
▁ᏥᏍᎦᏅᏤᎸᎯ	-15151
▁ᏥᏓᏓᏬᏍᎬᎩ	-15152
▁ᏥᏕᏣᏓᏂᎸᏨ	-15153
▁ᏥᏚᏃᎱᎦᏁᎢ	-15154
▁ᏥᏚᏍᏆᏂᎪᏗ	-15155
▁ᏥᏨᏲᏪᎳᏁᎭ	-15156
▁ᏥᏯᏚᏣᎳᏅᎭ	-15157
▁ᏥᏯᏛᎦᏁᎸᎢ	-15158
▁ᏦᎯᏳᏎᏍᏗᏉ	-15159
▁ᏧᎦᏄᏓᏅᎯᏛ	-15160
▁ᏧᎾᎪᏅᏍᏓᎵ	-15161
▁ᏧᎾᏄᎪᏫᏎᏗ	-15162
▁ᏧᎾᏓᏁᎳᏁᏗ	-15163
▁ᏧᎾᏟᎶᏍᏙᏗ	-15164
▁ᏧᎾᏢᏫᏍᏙᏗ	-15165
▁ᏧᏂᎵᎶᎲᏍᎦ	-15166
▁ᏧᏂᏁᏟᏴᏍᏗ	-15167
▁ᏧᏂᏅᎢᏍᏗᏱ	-15168
▁ᏧᏂᏲᎯᏎᏗᏱ	-15169
▁ᏧᏂᏲᎱᏎᎸᎯ	-15170
▁ᏧᏍᏚᎢᎡᎸᎯ	-15171
▁ᏧᏎᎪᎩᏍᏗᏱ	-15172
▁ᏧᏏᏔᏗᏍᏗᏱ	-15173
▁ᏧᏩᎫᏔᏅᏒᎢ	-15174
▁ᏩᎦᏓᎢᏅᏒᎩ	-15175
▁ᏩᏓᏁᏟᏴᏍᏓ	-15176
▁ᏫᎦᎾᏄᎪᎬᎢ	-15177
▁ᏫᎬᏩᏂᏴᏍᏗ	-15178
▁ᏫᎬᏩᏴᏔᏁᎢ	-15179
▁ᏫᏂᏣᎵᏍᏓᏏ	-15180
▁ᏫᏄᎾᎵᏍᏓᏏ	-15181
▁ᏫᏗᏍᏗᏃᎲᏏ	-15182
▁ᏫᏙᏛᎾᎴᏔᏂ	-15183
▁ᏫᏙᏛᎾᏓᎡᏏ	-15184
▁ᏫᏙᏥᎵᏦᏛᎦ	-15185
▁ᏫᏚᏂᏯᏅᎮᎢ	-15186
▁ᏫᏚᏂᏯᏅᎲᏃ	-15187
▁ᏫᏯᏴᎯᎮᏍᏗ	-15188
▁ᏫᏰᏣᏓᎢᏁᎭ	-15189
▁ᏭᏂᎷᎯᏍᏗᏱ	-15190
▁ᏭᏘᏅᏍᏔᏅᎩ	-15191
▁ᏮᎠᎦᏔᎲᏍᏓ	-15192
▁ᏯᎩᏍᏆᎸᎡᎸ	-15193
▁ᏯᏃᎯᏳᎲᏍᎨ	-15194
▁ᏯᏍᏆᏂᎪᏗᎭ	-15195
▁ᏯᏓᏙᎵᏍᏗᎭ	-15196
▁ᏯᏕᎰᏍᎨᏍᏗ	-15197
▁ᏱᎠᏍᎦᎦᏰᏃ	-15198
▁ᏱᎦᎧᎲᏍᎪᎢ	-15199
▁ᏱᎦᏁᏟᏴᏍᏓ	-15200
▁ᏱᎦᏂᏆᏘᎭᏃ	-15201
▁ᏱᎦᏥᏲᎠᏍᎦ	-15202
▁ᏱᎪᎯᏳᎲᏍᎦ	-15203
▁ᏱᎫᏢᏗᏍᎪᎢ	-15204
▁ᏱᎾᏥᎸᏉᏙᎢ	-15205
▁ᏱᏂᎦᏛᏁᎰᎢ	-15206
▁ᏱᏂᏣᎵᏍᏓᏁ	-15207
▁ᏱᏂᏣᏛᏁᎴᎢ	-15208
▁ᏱᏅᏩᏍᏗᏗᏉ	-15209
▁ᏱᏍᎩᎦᏔᎮᎢ	-15210
▁ᏱᏓᎧᎿᏩᏕᎦ	-15211
▁ᏱᏕᎪᎬᏂᏍᏓ	-15212
▁ᏱᏗᎨᏥᏰᎪᎢ	-15213
▁ᏱᏗᏓᏓᏂᎸᎦ	-15214
▁ᏱᏗᏗᏲᎱᏍᎦ	-15215
▁ᏱᏚᏬᏁᏔᏁᎢ	-15216
▁ᏱᏣᏚᎵᏍᎨᎢ	-15217
▁ᏱᏣᏰᎸᏎᏍᏗ	-15218
▁ᏱᏥᎪᎵᏰᎣᎢ	-15219
▁ᏱᏦᎯᏳᎲᏍᎦ	-15220
▁ᏱᏨᏗᏍᎨᏍᏗ	-15221
▁ᏴᎦᎬᏯᏓᏱᎦ	-15222
▁ᏴᎨᏍᎩᎪᏩᏛ	-15223
▁ᏴᎬᏚᏓᎴᏍᏓ	-15224
▁ᏴᏗᎤᏨᏎᏍᏗ	-15225
▁ᏴᏛᎦᎯᏄᎪᎢ	-15226
▁ᏴᏛᎾᏙᎴᎰᏏ	-15227
ᎦᎵᏍᏓᏗᏍᎨᏍᏗ	-15228
▁ᎠᎦᏅᏓᏗᏍᏙᏗ	-15229
▁ᎠᎦᏘᎾᏫᏛᎲᎩ	-15230
▁ᎠᎦᏴᎵᎨᏍᎩᏂ	-15231
▁ᎠᎩᎵᏲᎢᏍᏗᏱ	-15232
▁ᎠᎩᏂᏆᏘᎮᏍᏗ	-15233
▁ᎠᎩᏍᏕᎸᎯᏙᎸ	-15234
▁ᎠᎩᏔᏕᎩᏍᎬᎩ	-15235
▁ᎠᎬᏍᎦᎳᏁᎸᎯ	-15236
▁ᎠᎵᏍᎦᎾᏩᏍᏗ	-15237
▁ᎠᎵᏍᏓᏴᎲᏍᎦ	-15238
▁ᎠᎵᏍᏓᏴᎲᏍᎬ	-15239
▁ᎠᎵᏍᏕᎵᏍᎬᎢ	-15240
▁ᎠᎵᏥᏙᎲᏍᎨᎢ	-15241
▁ᎠᎵᏥᏙᎲᏍᎬᎩ	-15242
▁ᎠᎾᎵᏅᏟᏍᎩᏂ	-15243
▁ᎠᎾᎵᏥᏙᎲᏍᎬ	-15244
▁ᎠᎾᏁᎳᏗᏍᎪᎢ	-15245
▁ᎠᎾᏅᎥᏍᎨᏍᏗ	-15246
▁ᎠᎾᏓᎸᏉᏗᏍᎩ	-15247
▁ᎠᎾᏓᏃᎮᎵᏙᎯ	-15248
▁ᎠᎾᏓᏟᏏᏍᎪᎢ	-15249
▁ᎠᎾᏙᎴᎰᏍᎩᏱ	-15250
▁ᎠᎾᏛᎩᏍᎨᏍᏗ	-15251
▁ᎠᎾᏢᏉᏙᏗᏍᎩ	-15252
▁ᎠᏂᎪᏩᏘᏍᎬᎩ	-15253
▁ᎠᏂᏁᎢᏍᏗᏍᎬ	-15254
▁ᎠᏂᏍᎦᏰᎬᏍᏓ	-15255
▁ᎠᏂᏍᏆᏂᎪᏍᎨ	-15256
▁ᎠᏂᏍᏙᏍᎨᏍᏗ	-15257
▁ᎠᏂᏬᏂᏍᎨᏍᏗ	-15258
▁ᎠᏂᏴᏓᏆᎶᏍᎩ	-15259
▁ᎠᏆᎵᏃᎮᏔᏅᎩ	-15260
▁ᎠᏆᎵᏌᎳᏙᏗᏱ	-15261
▁ᎠᏆᎵᏍᏓᏴᏗᏱ	-15262
▁ᎠᏆᏕᎰᏍᎨᏍᏗ	-15263
▁ᎠᏍᎦᏅᏤᎮᏍᏗ	-15264
▁ᎠᏍᏆᏗᏍᏗᏍᎩ	-15265
▁ᎠᏐᏢᎢᏍᏗᏍᎬ	-15266
▁ᎠᏓᎨᏳᏗᏍᎩᏂ	-15267
▁ᎠᏓᏍᏕᎵᏍᎪᎢ	-15268
▁ᎠᏓᏍᏕᎸᎯᏙᎯ	-15269
▁ᎠᏓᏙᎵᏍᏓᏁᏗ	-15270
▁ᎠᏓᏙᏕᏍᏗᏍᎩ	-15271
▁ᎠᏓᏪᎵᎩᏍᎬᎢ	-15272
▁ᎠᏕᎰᎯᏍᏗᏍᎪ	-15273
▁ᎠᏙᎴᎰᏍᎩᏍᎪ	-15274
▁ᎠᏥᎸᎨᎳᏍᏙᏗ	-15275
▁ᎠᏥᏍᏚᎢᎡᎰᎢ	-15276
▁ᎠᏥᏯᏂᏍᎨᏍᏗ	-15277
▁ᎠᏥᏰᎸᎾᏁᎰᎢ	-15278
▁ᎠᏥᏰᎸᎾᏁᎴᎢ	-15279
▁ᎠᏥᏰᎸᎾᏁᎸᎩ	-15280
▁ᎡᎩᏂᏅᏏᏓᏍᏗ	-15281
▁ᎡᏍᏕᎵᏌᏕᏒᎭ	-15282
▁ᎡᏙᎢᏍᏓᏁᎸᎯ	-15283
▁ᎡᏣᎫᏴᎡᎮᏍᏗ	-15284
▁ᎡᏣᎱᏍᏕᏎᎸᎯ	-15285
▁ᎡᏣᏓᏙᎵᏍᏓᏏ	-15286
▁ᎡᏣᏛᏅᎢᏍᏓᏏ	-15287
▁ᎡᏥᏅᏍᏓᏕᎸᎩ	-15288
▁ᎡᏥᏍᎦᏅᏤᎸᎢ	-15289
▁ᎡᏥᏔᏲᏎᎮᏍᏗ	-15290
▁ᎡᏥᏩᎯᏍᏔᏅᎯ	-15291
▁ᎢᎦᎧᎲᏍᎨᏍᏗ	-15292
▁ᎢᎨᏣᎵᏍᏓᏁᏗ	-15293
▁ᎢᎩᎩᎵᏲᎢᏍᏗ	-15294
▁ᎢᎩᏍᏕᎵᏍᎬᎢ	-15295
▁ᎢᎬᏩᎵᏍᏓᏁᏗ	-15296
▁ᎢᎬᏩᎵᏍᏔᏅᎯ	-15297
▁ᎢᏍᎩᏌᏛᎥᏍᎦ	-15298
▁ᎢᏍᏛᏯᏛᏁᏗᏱ	-15299
▁ᎢᏗᏯᏫᏍᎨᏍᏗ	-15300
▁ᎢᏣᎵᎮᎵᏍᏗᏱ	-15301
▁ᎢᏣᎵᏍᏓᏁᏗᏱ	-15302
▁ᎢᏣᏂᎩᏍᎨᏍᏗ	-15303
▁ᎢᏣᏓᏅᏖᏍᎬᎢ	-15304
▁ᎢᏣᏗᎦᎴᏲᏨᎯ	-15305
▁ᎢᏣᏠᏯᏍᏗᏍᎩ	-15306
▁ᎢᏣᏠᏯᏍᏙᏗᏱ	-15307
▁ᎢᏣᏣᏪᏐᎸᏍᏓ	-15308
▁ᎢᏤᎳᏗᏓᏍᏗᏱ	-15309
▁ᎢᏤᏅᎢᏍᏔᏅᎯ	-15310
▁ᎢᏤᏯᏙᏤᎮᏍᏗ	-15311
▁ᎢᏥᎧᎵᎢᎮᏍᏗ	-15312
▁ᎢᏥᎩᎵᏲᎢᏍᏗ	-15313
▁ᎢᏥᎩᎵᏲᎨᏍᏗ	-15314
▁ᎢᏥᏍᏆᏂᎪᏍᎦ	-15315
▁ᎢᏨᏁᎵᏓᏍᏗᏱ	-15316
▁ᎢᏨᏯᎵᏥᏙᏁᎸ	-15317
▁ᎢᏨᏰᎳᏗᏙᎲᎢ	-15318
▁ᎢᏨᏰᎳᏗᏙᎲᎩ	-15319
▁ᎣᎩᏍᏕᎵᏍᎬᎢ	-15320
▁ᎣᎩᏍᏛᏗᏍᏗᏱ	-15321
▁ᎣᏓᎦᏙᎥᎯᏍᏗ	-15322
▁ᎣᏣᎵᎡᎵᏤᏗᏱ	-15323
▁ᎣᏣᎵᏥᏙᎲᏍᎦ	-15324
▁ᎣᏣᎵᏥᏙᎲᏍᎬ	-15325
▁ᎣᏥᎦᏖᏃᎮᏍᏗ	-15326
▁ᎤᎵᏍᎪᎸᏓᏁᎴ	-15327
▁ᎤᎵᏍᎪᎸᏔᏁᎢ	-15328
▁ᎤᎵᏍᏓᏴᏙᏗᏱ	-15329
▁ᎤᎵᏍᏕᏍᏔᏅᎩ	-15330
▁ᎤᎵᏠᏯᏍᏙᏗᏱ	-15331
▁ᎤᎾᎦᏌᏯᏍᏙᎢ	-15332
▁ᎤᎾᎪᎲᏍᏙᏗᏱ	-15333
▁ᎤᎾᎵᏃᎯᏴᎯᏃ	-15334
▁ᎤᎾᎵᏍᏓᏴᏁᏃ	-15335
▁ᎤᎾᏄᎪᏫᏏᏕᎾ	-15336
▁ᎤᎾᏓᏃᏴᎵᏍᏛ	-15337
▁ᎤᎾᏓᏅᎦᎸᏗᏱ	-15338
▁ᎤᎾᏓᏅᏖᏔᏁᎢ	-15339
▁ᎤᎾᏓᏙᎵᏍᏔᏁ	-15340
▁ᎤᎾᏕᏯᏔᏁᎴᎢ	-15341
▁ᎤᎾᏘᎿᏫᏛᎲᎩ	-15342
▁ᎤᎾᏛᏓᏍᏙᏗᏱ	-15343
▁ᎤᎾᏜᏅᏓᏕᏗᏱ	-15344
▁ᎤᏁᏅᎢᏍᏗᏍᎩ	-15345
▁ᎤᏂᎧᎵᎢᏍᏗᏱ	-15346
▁ᎤᏂᎪᏁᎶᎯᏌᏘ	-15347
▁ᎤᏂᎾᏄᎪᎢᏍᏗ	-15348
▁ᎤᏂᏁᎢᏍᏔᏅᎯ	-15349
▁ᎤᏂᏁᏟᏴᏍᏔᏁ	-15350
▁ᎤᏂᏃᏍᎩᏍᏗᏱ	-15351
▁ᎤᏂᏄᎪᏫᏍᏗᏱ	-15352
▁ᎤᏂᏍᏓᏩᏛᏒᎩ	-15353
▁ᎤᏂᏐᏢᎢᏍᏙᏗ	-15354
▁ᎤᏂᏣᏖᏍᏗᏰᏃ	-15355
▁ᎤᏂᏲᏠᎯᏎᎸᎩ	-15356
▁ᎤᏄᏬᏍᏔᏁᏍᏗ	-15357
▁ᎤᏍᎦᏅᏥᏙᎸᎢ	-15358
▁ᎤᏍᏆᎸᎯᏗᏎᎢ	-15359
▁ᎤᏍᏆᎸᎯᏗᏰᏃ	-15360
▁ᎤᏍᏢᏂᏍᏗᏍᎩ	-15361
▁ᎤᏔᏕᎩᏍᎨᏍᏗ	-15362
▁ᎤᏗᎦᎵᏍᏙᏗᎭ	-15363
▁ᎤᏚᎢᏍᏓᏁᎸᎯ	-15364
▁ᎤᏚᎸᏅᎥᏍᎬᎢ	-15365
▁ᎤᏟᎠᏥᎸᏉᏗᏳ	-15366
▁ᎥᎠᎩᎪᏩᏛᏗᏱ	-15367
▁ᎥᏥᏯᏛᎦᏁᎸᎩ	-15368
▁ᎦᏃᎸᎥᏍᎬᏰᏃ	-15369
▁ᎦᏥᏍᎦᏅᏤᎸᎯ	-15370
▁ᎦᏰᏥᎵᎥᏂᏍᏗ	-15371
▁ᎦᏲᎦᏛᏂᏗᏍᏗ	-15372
▁ᎦᏴᏓᏗᏍᏕᎸᏗ	-15373
▁ᎨᎦᎵᏥᏙᏁᎸᎯ	-15374
▁ᎨᎦᏑᏰᏛᏍᎩᏂ	-15375
▁ᎨᎬᏍᎦᎳᏁᎴᎢ	-15376
▁ᎨᏣᎦᏙᎥᎯᏍᏗ	-15377
▁ᎨᏣᏕᏯᏙᏗᏍᎩ	-15378
▁ᎨᏣᏙᎴᎰᎯᏍᏗ	-15379
▁ᎨᏥᏃᎮᏍᎨᏍᏗ	-15380
▁ᎨᏥᏍᎩᏅᏗᏍᎩ	-15381
▁ᎨᏥᏚᎢᏍᏓᏁᎸ	-15382
▁ᎬᎩᏍᏓᏩᏗᏙᎯ	-15383
▁ᎬᏩᎪᎵᏰᏍᎨᎢ	-15384
▁ᎬᏩᏂᎪᏩᏛᏗᏱ	-15385
▁ᎬᏩᏍᏓᏩᏗᏐᎯ	-15386
▁ᎬᏩᏍᏗᏰᏔᏅᎩ	-15387
▁ᎬᏩᏓᏙᎵᏍᏓᏁ	-15388
▁ᎬᏩᏝᏫᏍᏗᏕᎨ	-15389
▁ᎭᏓᏙᎵᏍᏗᏍᎬ	-15390
▁ᎯᏍᏓᏩᏕᎨᏍᏗ	-15391
▁ᎯᏯᏓᏙᎵᏍᏓᏏ	-15392
▁ᎾᎩᏍᏓᏩᏕᎬᎾ	-15393
▁ᎾᏆᏓᎾᏰᏍᏛᎾ	-15394
▁ᎾᏆᏛᏁᎵᏙᎸᎢ	-15395
▁ᏂᎦᎸᏉᏗᏍᎬᎾ	-15396
▁ᏂᎦᏛᏁᎵᏙᎸᎢ	-15397
▁ᏂᎨᏥᏪᏎᎮᏍᏗ	-15398
▁ᏂᎩᏍᏓᏩᏕᎬᎾ	-15399
▁ᏂᏓᎾᏓᏪᏎᎮᎢ	-15400
▁ᏂᏓᏕᏘᏴᎯᏒᎢ	-15401
▁ᏂᏗᏣᏢᏫᏎᎲᎾ	-15402
▁ᏂᏗᏥᏁᏟᏴᏒᎾ	-15403
▁ᏂᏙᏓᏳᏂᎶᏒᎯ	-15404
▁ᏂᏙᏣᎵᏍᏓᏁᎭ	-15405
▁ᏂᏚᎾᏓᏁᎶᏛᎾ	-15406
▁ᏂᏚᎾᏓᏂᎸᏨᎾ	-15407
▁ᏂᏣᎬᏫᏳᏌᏕᎩ	-15408
▁ᏂᏣᎵᏍᏓᏁᎲᎢ	-15409
▁ᏂᏣᏙᎴᎰᏍᎬᎾ	-15410
▁ᏃᏍᏗᏟᏏᏍᎬᎾ	-15411
▁ᏄᎵᏍᏔᏂᏙᎸᎩ	-15412
▁ᏄᎾᎵᎮᎵᏣᏛᎾ	-15413
▁ᏄᎾᎵᏍᏓᏁᎸᎢ	-15414
▁ᏄᎾᏜᏏᏛᎡᎲᎾ	-15415
▁ᏅᏓᏳᏍᏗᏗᏒᎩ	-15416
▁ᏅᏗᎦᎵᏍᏗᏙᏗ	-15417
▁ᏅᏧᎵᏍᏙᏔᏁᎢ	-15418
▁ᏍᎩᏂᏍᏓᏩᏚᎦ	-15419
▁ᏍᎩᏯᏕᎶᏆᎡᎯ	-15420
▁ᏍᎩᏯᏘᏅᏍᏗᏱ	-15421
▁ᏍᎩᏯᏛᏓᏍᏓᏏ	-15422
▁ᏓᎧᎿᏩᏕᎨᏍᏗ	-15423
▁ᏓᎬᎾᏄᎪᏫᏎᎵ	-15424
▁ᏓᎬᏩᎸᏍᎨᏍᏗ	-15425
▁ᏓᎾᏕᏒᎲᏍᎨᎢ	-15426
▁ᏓᎾᏕᏲᎲᏍᎬᎢ	-15427
▁ᏓᏂᏂᏏᏍᎨᏍᏗ	-15428
▁ᏓᏂᏍᎦᎢᎮᏰᏃ	-15429
▁ᏓᏆᏚᏫᏍᏔᏅᎩ	-15430
▁ᏓᏍᏗᏰᏗᏍᎬᎩ	-15431
▁ᏓᏣᏅᏓᏗᏍᏔᏂ	-15432
▁ᏓᏨᎾᏄᎪᏫᏎᎵ	-15433
▁ᏓᏰᎵᎯᏍᏗᏍᎬ	-15434
▁ᏓᏰᏥᏍᏚᎢᎡᎵ	-15435
▁ᏕᎤᎸᏫᏍᏓᏁᎭ	-15436
▁ᏕᎤᎸᏫᏍᏓᏁᎸ	-15437
▁ᏕᎦᏄᎪᏫᏍᎬᎩ	-15438
▁ᏕᎦᏕᏲᎲᏍᎬᎩ	-15439
▁ᏕᎨᏥᏰᎸᎳᏅᎩ	-15440
▁ᏕᎩᎸᏫᏍᏓᏁᎸ	-15441
▁ᏕᎪᎦᏓᏂᎸᏨᎩ	-15442
▁ᏕᎬᏩᏓᏂᎸᏨᎩ	-15443
▁ᏕᎯᏯᏁᎶᏕᏍᏗ	-15444
▁ᏕᎯᏯᏓᏂᎸᏨᎭ	-15445
▁ᏕᏍᎩᏲᎯᏎᎸᎩ	-15446
▁ᏕᏣᎸᏫᏍᏓᏁᎸ	-15447
▁ᏕᏣᏓᏂᎸᎨᏍᏗ	-15448
▁ᏕᏣᏓᏲᎵᎮᏍᏗ	-15449
▁ᏕᏣᏘᏃᎯᎮᏍᏗ	-15450
▁ᏕᏥᎦᎿᏩᏗᏒᎢ	-15451
▁ᏕᏥᏍᏕᎵᏍᎬᎢ	-15452
▁ᏕᏧᎪᏓᏁᎮᏍᏗ	-15453
▁ᏕᏧᎪᏗᏍᎨᏍᏗ	-15454
▁ᏗᎦᏔᏫᎢᏍᏗᏱ	-15455
▁ᏗᎦᏥᏰᏲᎲᏍᎩ	-15456
▁ᏗᎧᎿᏩᏛᏍᏗᏃ	-15457
▁ᏗᎨᎫᎪᏓᏁᏗᏱ	-15458
▁ᏗᎩᎧᎿᏩᏛᏍᏗ	-15459
▁ᏗᎩᎸᏫᏍᏓᏁᏗ	-15460
▁ᏗᎬᏩᏂᏁᏟᏴᏛ	-15461
▁ᏗᎬᏩᏔᎷᎩᏍᎩ	-15462
▁ᏗᎬᏩᏲᎯᏎᎸᎯ	-15463
▁ᏗᏂᏃᎩᏍᏗᏍᎩ	-15464
▁ᏗᏍᎩᏯᏓᏂᎸᎩ	-15465
▁ᏗᏍᏆᏂᎪᏗᏍᎩ	-15466
▁ᏗᏍᏆᏂᎪᏙᏗᏱ	-15467
▁ᏗᏍᏓᏛᏅᎢᏍᏓ	-15468
▁ᏗᏓᎴᎲᏍᎨᏍᏗ	-15469
▁ᏗᏓᏚᏓᎳᎡᏗᏱ	-15470
▁ᏗᏓᏱᎵᏓᏍᏗᏱ	-15471
▁ᏗᏗᏩᎾᎦᎳᎯᏳ	-15472
▁ᏗᏣᎸᏫᏍᏓᏁᏗ	-15473
▁ᏗᏥᎧᎿᏩᏛᏍᏗ	-15474
▁ᏗᏥᏅᏍᏓᏕᎸᎩ	-15475
▁ᏙᏓᎦᏟᎶᏍᏔᏂ	-15476
▁ᏙᏓᏨᏯᏓᏂᎸᏥ	-15477
▁ᏙᏗᎨᎦᏨᏍᏔᏂ	-15478
▁ᏚᎧᎿᏩᏗᏙᎮᎢ	-15479
▁ᏚᎵᏂᏆᏅᏁᎸᎩ	-15480
▁ᏚᎸᏫᏍᏓᏁᎸᎩ	-15481
▁ᏚᎾᎵᏯᏍᏚᏅᎩ	-15482
▁ᏚᎾᏁᏍᏓᏝᎰᎢ	-15483
▁ᏚᎾᏓᏩᏛᏔᏁᎢ	-15484
▁ᏚᏂᎸᏫᏍᏓᏁᎭ	-15485
▁ᏚᏍᏕᎸᎯᏙᎴᎢ	-15486
▁ᏚᏗᎦᎴᏯᏍᏔᏅ	-15487
▁ᏚᏛᏅᎢᏍᏓᏁᎸ	-15488
▁ᏣᎦᏌᏯᏍᏗᏕᎩ	-15489
▁ᏣᏍᏆᏂᎪᏕᏍᏗ	-15490
▁ᏣᏍᏕᎵᏍᎨᏍᏗ	-15491
▁ᏣᏥᏰᎸᎾᏁᎴᎢ	-15492
▁ᏤᏥᎤᏍᏕᏎᎸᎯ	-15493
▁ᏤᏥᎤᏍᏕᏎᏗᏱ	-15494
▁ᏥᎷᏏᎵᎻᏍᎩᏂ	-15495
▁ᏥᏁᏣᏛᎩᏍᎪᎢ	-15496
▁ᏥᏄᎾᎵᏍᏓᏁᎴ	-15497
▁ᏥᏕᎦᏄᎪᏫᏍᎦ	-15498
▁ᏥᏕᎫᏓᎴᏍᏗᎭ	-15499
▁ᏥᏕᎲᏍᎦᎳᏁᎸ	-15500
▁ᏥᏚᎾᏚᎦᏓᏁᎭ	-15501
▁ᏦᎩᏲᎱᎯᏍᏗᏱ	-15502
▁ᏦᏣᎵᏥᏙᏁᏗᏱ	-15503
▁ᏧᎾᏁᎳᏗᏍᏗᏱ	-15504
▁ᏧᏂᎪᎾᏛᏔᏅᎯ	-15505
▁ᏧᏂᏲᎱᏒᎯᏰᏃ	-15506
▁ᏧᏃᏣᎶᎢᏍᏗᏱ	-15507
▁ᏧᏍᏆᏂᎪᏙᏗᏱ	-15508
▁ᏧᏕᎰᎯᏍᏙᏗᏱ	-15509
▁ᏧᏚᎢᏍᏓᏁᎸᎯ	-15510
▁ᏧᏪᎳᏗᏓᏍᏗᏱ	-15511
▁ᏩᎦᏘᏅᏍᏙᏗᏱ	-15512
▁ᏩᏆᏘᏅᏍᏔᏅᎩ	-15513
▁ᏫᎬᏩᏲᏥᏓᏍᏗ	-15514
▁ᏫᏙᏛᏂᏲᎯᏎᎵ	-15515
▁ᏫᏚᏂᏲᎯᏎᎴᎢ	-15516
▁ᏫᏥᏟᏏᏍᎨᏍᏗ	-15517
▁ᏫᏨᏲᏪᎳᏁᎸᎩ	-15518
▁ᏭᎵᏰᎢᎶᎯᏍᏗ	-15519
▁ᏭᎾᎵᏔᏗᏅᏎᎢ	-15520
▁ᏭᎾᏘᏅᏍᏔᏁᎢ	-15521
▁ᏭᎾᏘᏅᏍᏔᏅᎩ	-15522
▁ᏭᏓᏙᎵᏍᏔᏁᎢ	-15523
▁ᏱᎦᎧᎲᏍᎨᏍᏗ	-15524
▁ᏱᎦᎵᏥᏙᎲᏍᎦ	-15525
▁ᏱᎦᎾᏄᎪᏫᏍᎪ	-15526
▁ᏱᏂᏙᎬᏩᏳᎪᏗ	-15527
▁ᏱᏂᏣᎵᏍᏓᏁᎭ	-15528
▁ᏱᏂᏣᏛᏁᎮᏍᏗ	-15529
▁ᏱᏄᎵᏍᏔᏁᏍᏗ	-15530
▁ᏱᏄᎾᎵᏍᏓᏁᎰ	-15531
▁ᏱᏓᏟᏍᏗᏍᎪᎢ	-15532
▁ᏱᏗᏓᏓᏚᎪᏓᏁ	-15533
▁ᏱᏗᏥᏄᎪᏫᏍᎦ	-15534
▁ᏱᏙᎸᏫᏍᏓᏁᎭ	-15535
▁ᏱᏚᎸᏫᏍᏓᏁᎭ	-15536
▁ᏱᏚᏂᎿᏍᏕᏠᎢ	-15537
▁ᏱᏣᏍᎦᏅᏤᏍᏗ	-15538
▁ᏱᏥᏍᎦᏅᎨᏍᏗ	-15539
▁ᏱᏥᏰᎸᏍᎨᏍᏗ	-15540
▁ᏳᎵᏍᎪᎸᏓᏁᎴ	-15541
ᎩᎵᏲᎢᏍᏗᏍᎨᏍᏗ	-15542
ᏓᎴᏍᎨᏍᏗᏉᏍᎩᏂ	-15543
▁ᎠᎦᎫᏴᏓᏁᎮᏍᏗ	-15544
▁ᎠᎦᏙᎥᎯᏍᏗᎨᏒ	-15545
▁ᎠᎦᏴᎵᎨᎢᏍᎩᏂ	-15546
▁ᎠᎩᎾᏄᎪᏫᏎᎸᎩ	-15547
▁ᎠᎩᏍᏓᏩᏛᏍᏗᏱ	-15548
▁ᎠᎾᎵᏍᎪᎸᏗᏍᎩ	-15549
▁ᎠᎾᎵᏖᎸᎲᏍᎬᎢ	-15550
▁ᎠᎾᏓᏙᎵᏍᏗᏍᎩ	-15551
▁ᎠᏂᎦᏯᎷᎥᏍᎨᎢ	-15552
▁ᎠᏂᎦᏴᎵᎨᏍᎩᏂ	-15553
▁ᎠᏂᏁᏄᎳᏍᏗᏍᎪ	-15554
▁ᎠᏆᎦᏌᏯᏍᏗᏕᎩ	-15555
▁ᎠᏓᏙᎵᏍᏗᏍᎨᎢ	-15556
▁ᎠᏛᏅᎢᏍᏔᏃᏅᎯ	-15557
▁ᎠᏜᏩᏍᏗᏍᎨᏍᏗ	-15558
▁ᎠᏥᏚᎢᏍᏓᏁᎸᎯ	-15559
▁ᎡᎩᏚᎢᏍᏓᏁᎸᎯ	-15560
▁ᎡᏍᏗᏍᏓᏩᏕᏒᎭ	-15561
▁ᎡᏓᏓᏙᎵᏍᏓᏁᎯ	-15562
▁ᎡᏣᎵᏍᎦᏍᏙᏛᎢ	-15563
▁ᎡᏥᏍᏆᏂᎪᏔᏅᎯ	-15564
▁ᎢᎠᏎᎵᏛᏍᎨᏍᏗ	-15565
▁ᎢᎦᏚᏓᎴᏍᏔᏅᎯ	-15566
▁ᎢᎬᏩᎾᎵᏍᏓᏁᏗ	-15567
▁ᎢᏣᏛᏅᎢᏍᏕᏍᏗ	-15568
▁ᎢᏥᎦᎵᏍᏓᏗᏍᏗ	-15569
▁ᎢᏥᎪᎵᏰᏍᎨᏍᏗ	-15570
▁ᎢᏥᏍᏆᏂᎪᏕᏍᏗ	-15571
▁ᎢᏥᏍᏓᏩᏕᎨᏍᏗ	-15572
▁ᎢᏥᏍᏛᏗᏍᎨᏍᏗ	-15573
▁ᎢᏨᏯᎵᏥᏙᏁᎸᎯ	-15574
▁ᎢᏨᏰᎳᏗᏓᏍᏗᏱ	-15575
▁ᎢᏳᎵᏍᎪᎸᏔᏅᎯ	-15576
▁ᎣᎦᏓᏅᏔᏩᏕᎪᎢ	-15577
▁ᎣᎦᏓᏅᏔᏩᏕᎬᎢ	-15578
▁ᎣᎩᏐᏅᎢᏍᏔᏅᎯ	-15579
▁ᎣᏣᏓᏙᎵᏍᏗᏍᎪ	-15580
▁ᎣᏣᏓᏙᎵᏍᏗᏍᎬ	-15581
▁ᎣᏥᏅᏍᏓᏕᎸᎩᏃ	-15582
▁ᎤᎵᏍᏓᏴᎾᏁᏗᏱ	-15583
▁ᎤᎾᎵᏍᏓᏴᏅᎯᏃ	-15584
▁ᎤᎾᏓᏁᏟᏴᏒᏒᎢ	-15585
▁ᎤᎾᏕᎰᎯᏍᏗᏍᎩ	-15586
▁ᎤᎾᏗᎦᎴᏲᏨᎯᏃ	-15587
▁ᎤᎾᏛᏅᎢᏍᏔᏁᏃ	-15588
▁ᎤᏂᎦᏙᎥᎯᏍᏗᏱ	-15589
▁ᎤᏍᏓᏩᏗᏓᏍᏗᏱ	-15590
▁ᎤᏓᏙᎵᏍᏓᏁᎸᎩ	-15591
▁ᎤᏕᎰᎯᏍᏗᏳᏰᏃ	-15592
▁ᎤᏗᎦᎵᏍᏙᏗᏍᎨ	-15593
▁ᎤᏲᎢᏳᎾᏛᎿᏕᎩ	-15594
▁ᎦᎶᏁᏛᎠᏡᏗᏍᎩ	-15595
▁ᎦᏰᏥᏐᏢᏗᏍᎬᎢ	-15596
▁ᎨᏥᏐᏅᎢᏍᏔᏅᎯ	-15597
▁ᎨᏥᏯᏅᏗᏍᎨᏍᏗ	-15598
▁ᎬᏩᎵᏃᎮᏗᏍᎨᎢ	-15599
▁ᎬᏩᏂᎾᏄᎪᏫᏒᎯ	-15600
▁ᎬᏩᏍᏕᎸᎯᏙᎮᎢ	-15601
▁ᎬᏩᏓᏡᏫᏍᏔᏁᎢ	-15602
▁ᎬᏩᏓᏡᏫᏍᏔᏅᎩ	-15603
▁ᎾᏆᎵᏍᏓᏁᎵᏕᎬ	-15604
▁ᎾᏑᎵᎪᎬᎾᏍᎩᏂ	-15605
▁ᎾᏚᏓᎴᏍᏗᏍᎬᎾ	-15606
▁ᏂᎦᎵᏍᏔᏂᏙᎲᎢ	-15607
▁ᏂᏕᏣᏓᏛᏁᎮᏍᏗ	-15608
▁ᏂᏕᏥᎤᏍᏕᏎᎸᎾ	-15609
▁ᏂᏗᎩᏴᏍᏕᏍᎬᎾ	-15610
▁ᏂᏗᏣᏓᏕᎵᏎᎲᎾ	-15611
▁ᏄᎾᎵᏏᎾᎯᏍᏛᎾ	-15612
▁ᏅᏓᏳᎾᎵᏍᏓᏁᎵ	-15613
▁ᏍᎩᏍᏓᏩᏛᏍᏗᏱ	-15614
▁ᏓᎧᎿᏩᏗᏙᎮᏍᏗ	-15615
▁ᏓᎾᎵᏍᏓᏴᎲᏍᎬ	-15616
▁ᏓᎾᏓᏟᎶᏍᏗᏍᎬ	-15617
▁ᏕᎦᏚᏓᏕᏫᏒᏰᏃ	-15618
▁ᏕᎩᎸᏫᏍᏓᏁᎸᎢ	-15619
▁ᏕᎬᏩᎾᏍᏗᏍᎨᎢ	-15620
▁ᏕᎭᏕᏲᎲᏍᎨᏍᏗ	-15621
▁ᏕᎯᏍᏓᏩᏗᏎᏍᏗ	-15622
▁ᏕᏣᎸᏫᏍᏓᏁᎸᎢ	-15623
▁ᏕᏣᏅᏓᏗᏍᎨᏍᏗ	-15624
▁ᏕᏣᏓᏍᎦᏅᏤᎲᎢ	-15625
▁ᏕᏥᎧᎿᏩᏗᏎᏍᏗ	-15626
▁ᏕᏥᎸᏫᏍᏓᏁᎰᎢ	-15627
▁ᏕᏦᏢᎯᏏᏍᎪᏰᏃ	-15628
▁ᏗᎦᎸᏫᏍᏓᏁᎸᎯ	-15629
▁ᏗᎨᏥᎸᏫᏍᏓᏁᏗ	-15630
▁ᏗᎨᏥᏅᏍᏕᏎᎸᎯ	-15631
▁ᏗᎬᏩᎾᏚᎪᏓᏁᏗ	-15632
▁ᏗᎬᏩᏂᏐᏢᏙᏗᏱ	-15633
▁ᏗᎬᏩᏂᏲᎱᎯᏍᏗ	-15634
▁ᏗᎾᏓᎾᏌᎲᏍᎩᏃ	-15635
▁ᏗᏂᏍᏆᏂᎪᏗᏍᎩ	-15636
▁ᏗᏓᎴᏂᏍᎬᏍᎩᏂ	-15637
▁ᏗᏣᎵᏂᎪᎯᏍᏙᏗ	-15638
▁ᏗᏣᏓᏂᎸᎢᏍᏗᏱ	-15639
▁ᏙᏦᏕᏍᏗᏍᎨᏍᏗ	-15640
▁ᏣᎾᎵᏍᏓᏴᎲᏍᎦ	-15641
▁ᏣᎾᏍᏆᎶᏍᏙᏗᏱ	-15642
▁ᏥᎦᎳᏍᏚᎲᏍᎪᎢ	-15643
▁ᏥᎬᎩᎾᎸᏍᏔᏅᎩ	-15644
▁ᏥᏕᎯᎾᏄᎪᏫᏎᎸ	-15645
▁ᏥᏨᏯᎵᏥᏙᏁᎸᎩ	-15646
▁ᏥᏫᏨᏲᏪᎳᏁᎸᎩ	-15647
▁ᏦᎦᏓᏂᎸᎢᏍᏗᏱ	-15648
▁ᏦᎩᎸᏫᏍᏓᏁᎸᎯ	-15649
▁ᏦᎩᏂᎸᏫᏍᏓᏁᎯ	-15650
▁ᏧᎧᎿᏩᏗᏓᏍᏗᏱ	-15651
▁ᏧᎸᏫᏍᏓᏁᎯᏰᏃ	-15652
▁ᏧᏂᎦᏐᎠᏏᏗᏒᏃ	-15653
▁ᏧᏂᎳᏫᎢᏍᏗᏱᏃ	-15654
▁ᏧᏂᎸᏫᏍᏓᏁᎸᎯ	-15655
▁ᏧᏓᎾᏄᎪᏫᏍᏗᏱ	-15656
▁ᏧᏓᏅᏓᏗᏍᏔᏅᎯ	-15657
▁ᏫᎦᎶᎯᏍᏗᏍᎬᏉ	-15658
▁ᏫᎬᏩᏘᏅᏍᏔᏅᎩ	-15659
▁ᏫᏚᎦᏔᎲᏍᏙᏗᏱ	-15660
▁ᏫᏚᏂᏐᎯᏍᏔᏅᎩ	-15661
▁ᏫᏥᎾᏄᎪᎢᏍᏗᏱ	-15662
▁ᏭᎾᎦᏔᎲᏍᏔᏁᎢ	-15663
▁ᏱᏅᏧᎵᏍᏙᏔᏁᎢ	-15664
▁ᏱᏍᎩᏲᎢᏳᎲᏍᎦ	-15665
▁ᏱᏗᎬᏩᏓᏂᎸᏤᎢ	-15666
▁ᏱᏗᏥᎸᏫᏍᏓᏁᎭ	-15667
▁ᏱᏙᎩᎸᏫᏍᏓᏁᎭ	-15668
▁ᏱᏚᎸᏫᏍᏓᏁᎮᎢ	-15669
▁ᏱᏚᎸᏫᏍᏓᏁᎰᎢ	-15670
▁ᏱᏣᏕᏯᏔᏁᎮᏍᏗ	-15671
▁ᏱᏣᏙᎴᎰᏍᎨᏍᏗ	-15672
▁ᏱᏣᏛᏛᎲᏍᎨᏍᏗ	-15673
▁ᏱᏥᎪᏁᎶᏍᎨᏍᏗ	-15674
▁ᏱᏥᎵᏓᏍᏔᏁᏍᏗ	-15675
▁ᎠᎵᏍᏓᏴᎲᏍᎨᏍᏗ	-15676
▁ᎠᎾᎵᏍᎦᏍᏙᏗᏍᎩ	-15677
▁ᎠᎾᎵᏍᏓᏴᎲᏍᎪᎢ	-15678
▁ᎠᎾᎵᏍᏓᏴᏂᏙᎮᎢ	-15679
▁ᎠᎾᎵᏍᏓᏴᏗᏍᎬᎩ	-15680
▁ᎠᎾᏓᏙᎵᏍᏗᏍᎨᎢ	-15681
▁ᎠᎾᏓᏙᎵᏍᏗᏍᎬᎢ	-15682
▁ᎠᏂᎾᏄᎪᏫᏍᎨᏍᏗ	-15683
▁ᎠᏐᏢᎢᏍᏗᏍᎨᏍᏗ	-15684
▁ᎠᏓᎿᏍᏆᎶᏍᏗᏍᎩ	-15685
▁ᎠᏓᏓᏅᏓᏗᏍᏗᏍᎩ	-15686
▁ᎠᏓᏙᎵᏍᏗᏍᎨᏍᏗ	-15687
▁ᎢᎠᏓᏌᎳᏗᏍᎨᏍᏗ	-15688
▁ᎢᎦᏠᏯᏍᏗᏍᎨᏍᏗ	-15689
▁ᎢᏓᎵᏍᏓᏴᏗᏍᎬᎢ	-15690
▁ᎢᏣᎵᏍᏓᏴᎲᏍᎬᎢ	-15691
▁ᎢᏣᎵᏥᏙᎲᏍᎨᏍᏗ	-15692
▁ᎢᏣᏓᎦᏌᏯᏍᏕᏍᏗ	-15693
▁ᎢᏣᏓᏙᎵᏍᏗᏍᎬᎢ	-15694
▁ᎢᏣᏛᏓᏍᏓᏁᎮᏍᏗ	-15695
▁ᎢᏨᏯᏅᏓᏗᏍᏙᏗᏱ	-15696
▁ᎢᏨᏯᏛᏓᏍᏓᏁᏗᏱ	-15697
▁ᎤᎬᏫᏳᏎᏍᏗᏍᎩᏂ	-15698
▁ᎤᎾᏓᏙᎵᏍᏗᏍᎩᏂ	-15699
▁ᎦᏓᏙᎵᏍᏗᏍᎨᏍᏗ	-15700
▁ᎦᏥᏯᏓᏙᎵᏍᏓᏁᎭ	-15701
▁ᎨᏥᎶᎾᏍᏗᏍᎨᏍᏗ	-15702
▁ᎬᏩᎾᏣᏪᏐᎸᏍᏙᏗ	-15703
▁ᎬᏩᏍᏓᏩᏗᏙᎯᏰᏃ	-15704
▁ᎾᏆᎵᏍᏓᏁᎵᏙᎲᎢ	-15705
▁ᏂᏍᎩᏲᎢᏳᎲᏍᎬᎾ	-15706
▁ᏅᏗᎦᎵᏍᏙᏗᏍᎩᏂ	-15707
▁ᏓᎵᏂᎪᎯᏍᏗᏍᎬᎩ	-15708
▁ᏕᎩᎸᏫᏍᏓᏁᎮᏍᏗ	-15709
▁ᏕᎬᏩᎵᏥᏍᏆᏍᎨᎢ	-15710
▁ᏕᎭᏕᎳᏍᏗᏍᎨᏍᏗ	-15711
▁ᏕᏣᏓᏬᏁᏗᏍᎨᏍᏗ	-15712
▁ᏕᏥᎸᏫᏍᏓᏁᎮᏍᏗ	-15713
▁ᏗᎬᏩᎾᏓᏁᏟᏴᎡᏗ	-15714
▁ᏗᎬᏩᏂᎸᏫᏍᏓᏁᏗ	-15715
▁ᏗᎬᏩᏂᏲᎱᎯᏎᎸᎯ	-15716
▁ᏙᏓᎦᏥᏯᏟᎶᏍᏔᏂ	-15717
▁ᏚᏂᎧᎿᏩᏗᏙᎮᏍᏗ	-15718
▁ᏣᎾᏓᏙᎵᏍᏗᏍᎪᎢ	-15719
▁ᏥᎨᎦᏛᏅᎢᏍᏓᏁᎸ	-15720
▁ᏥᏅᏗᎦᎵᏍᏙᏗᏍᎨ	-15721
▁ᏥᏫᏗᎨᎦᏘᏅᏍᏔᏁ	-15722
▁ᏧᎾᏓᏙᎵᏍᏓᏁᏗᏱ	-15723
▁ᏧᏂᏍᏕᎸᎯᏓᏍᏗᏱ	-15724
▁ᏧᏂᏏᏅᎯᏍᎩᏂᏃᏅ	-15725
▁ᏱᏅᏗᎦᎵᏍᏙᏗᏍᎨ	-15726
▁ᏱᏍᏆᏓᏙᎵᏍᏓᏁᎸ	-15727
▁ᏱᏚᏂᎸᏫᏍᏓᏁᎰᎢ	-15728
▁ᎢᏓᎵᏍᎪᎸᏗᏍᎨᏍᏗ	-15729
▁ᎢᏣᎵᎮᎵᎨᏍᏗᏍᎩᏂ	-15730
▁ᎯᏯᎵᏍᎪᎸᏓᏁᎮᏍᏗ	-15731
▁ᏕᎦᏥᏯᏠᎢᏍᏓᏁᎸᎢ	-15732
▁ᏕᎭᏅᏓᏗᏍᏗᏍᎨᏍᏗ	-15733
▁ᏕᎯᎬᏍᎪᎸᎥᏍᎨᏍᏗ	-15734
▁ᏙᏓᎦᏥᏯᏠᎢᏍᏓᏁᎵ	-15735
▁ᏥᏫᏗᎦᎸᏌᏓᏗᏍᎪᎢ	-15736
▁ᏫᏗᏍᎩᏯᏘᏅᏍᏔᏅᎩ	-15737
▁ᏱᏗᏥᎿᎸᏍᏗᏍᎨᏍᏗ	-15738
▁ᏱᏗᏥᏍᏓᏲᏗᏍᎨᏍᏗ	-15739
▁ᎠᎾᎵᏍᎦᏍᏙᏗᏍᎨᏍᏗ	-15740
▁ᏍᎩᏳᏓᎴᏍᎨᏍᏗᏉᏍᎩᏂ	-15741
ᎠᏇᏥ	-15742
ᎨᏩᏥ	-15743
ᎩᏙᎣ	-15744
ᎪᎬᏒ	-15745
ᎫᎴᏏ	-15746
ᎵᎲᏉ	-15747
ᎸᎪᏤ	-15748
ᎸᏂᎲ	-15749
ᎿᏐᎸ	-15750
ᏂᏰᏛ	-15751
ᏄᏮᎩ	-15752
ᏔᏐᎸ	-15753
ᏕᏏᏐ	-15754
ᏕᏦᏅ	-15755
ᏗᏇᏥ	-15756
ᏙᎻᏱ	-15757
ᏝᎣᎮ	-15758
ᏝᏴᏉ	-15759
ᏥᏏᏴ	-15760
ᏩᏎᎩ	-15761
ᏮᏕᏤ	-15762
ᎠᏍᏗᏃ	-15763
ᎣᎮᎴᎢ	-15764
ᎣᏥᏁᎦ	-15765
ᎦᎵᏦᏛ	-15766
ᎦᏌᎢᎯ	-15767
ᎦᏏᏁᏃ	-15768
ᎦᏲᎵᏳ	-15769
ᎦᏴᎵᎢ	-15770
ᎧᏁᎶᎢ	-15771
ᎧᏁᏤᎮ	-15772
ᎧᏲᏙᏓ	-15773
ᎩᎳᏫᏒ	-15774
ᎩᏙᎣᎸ	-15775
ᎪᎣᏒᎩ	-15776
ᎪᎣᏒᎯ	-15777
ᎪᏄᎶᎭ	-15778
ᎪᏆᎵᎢ	-15779
ᎬᏴᏕᎩ	-15780
ᎭᎸᏛᏃ	-15781
ᎲᏒᎯᏃ	-15782
ᎳᏲᏍᎨ	-15783
ᎴᏲᎡᎸ	-15784
ᎴᏲᎥᎾ	-15785
ᎵᏃᎯᏰ	-15786
ᎶᎯᏏᏉ	-15787
ᎶᏈᏂᏏ	-15788
ᎷᎯᏍᏱ	-15789
ᎷᏏᏙᎰ	-15790
ᎹᏄᎡᎵ	-15791
ᎺᎩᏰᎢ	-15792
ᎾᏨᏒᏃ	-15793
ᏃᏅᎯᏉ	-15794
ᏄᏉᏗᏳ	-15795
ᏄᏉᏤᎮ	-15796
ᏍᏆᎵᏎ	-15797
ᏍᏕᏲᎲ	-15798
ᏍᏗᎬᏒ	-15799
ᏎᎪᎬᏒ	-15800
ᏐᏈᎸᎦ	-15801
ᏓᏕᎸᎭ	-15802
ᏓᏫᏍᎦ	-15803
ᏓᏫᏙᏗ	-15804
ᏓᏴᎡᎵ	-15805
ᏕᎢᏴᎲ	-15806
ᏖᏆᎶᎭ	-15807
ᏗᎩᏰᎢ	-15808
ᏙᏓᏋᎩ	-15809
ᏙᏣᏒᎩ	-15810
ᏛᎩᏯᎪ	-15811
ᏛᎲᏕᎩ	-15812
ᏛᏔᏂᏄ	-15813
ᏞᏒᎯᏃ	-15814
ᏠᎠᏏᎦ	-15815
ᏠᏏᎸᎩ	-15816
ᏢᏒᎮᎢ	-15817
ᏤᏲᎲᎦ	-15818
ᏥᎩᎧᎭ	-15819
ᏥᏍᏝᏫ	-15820
ᏥᏰᏍᎩ	-15821
ᏨᏴᏕᏥ	-15822
ᏪᏙᎬᎢ	-15823
ᏪᏙᏁᎢ	-15824
ᏫᏥᎦᏛ	-15825
ᏬᎵᏤᎢ	-15826
ᏰᏲᎲᎦ	-15827
ᏱᎴᎪᎢ	-15828
ᏱᏥᏁᎦ	-15829
ᏲᏑᎴᎭ	-15830
ᏴᎸᎾᏉ	-15831
▁ᎡᎼᏏ	-15832
▁ᎢᏃᏂ	-15833
▁ᎣᏍᏳ	-15834
▁ᎤᏑᎡ	-15835
▁ᎤᏖᎵ	-15836
▁ᎦᏔᎭ	-15837
▁ᎦᏱᏆ	-15838
▁ᎦᏴᏉ	-15839
▁ᎪᎪᏏ	-15840
▁ᎬᏇᏙ	-15841
▁ᎭᎹᏏ	-15842
▁ᎷᏈᏂ	-15843
▁ᏁᏔᏚ	-15844
▁ᏂᎻᏆ	-15845
▁ᏆᎻᎾ	-15846
▁ᏋᏂᎥ	-15847
▁ᏌᎩᎻ	-15848
▁ᏎᎼᏏ	-15849
▁ᏔᏔᏚ	-15850
▁ᏚᎧᏲ	-15851
▁ᏚᏜᏌ	-15852
▁ᏛᎠᎦ	-15853
▁ᏛᎡᏣ	-15854
▁ᏛᏴᏜ	-15855
▁ᏞᎩᏉ	-15856
▁ᏞᎻᎾ	-15857
▁ᏣᏴᎪ	-15858
▁ᏧᏫᏎ	-15859
▁ᏨᏂᏅ	-15860
▁ᏭᏗᏠ	-15861
▁ᏯᏛᎶ	-15862
▁ᏰᏨᏱ	-15863
▁ᏱᎶᏃ	-15864
▁ᏲᎪᏏ	-15865
▁ᏳᏛᏒ	-15866
ᎠᏆᏚᎵᎭ	-15867
ᎠᏰᎸᏍᎨ	-15868
ᎡᏣᏘᏃᎦ	-15869
ᎣᎩᎧᏙᏴ	-15870
ᎤᎬᎾᏳᎯ	-15871
ᎦᎵᏂᎬᎦ	-15872
ᎦᏓᏬᏔᏂ	-15873
ᎦᏔᎥᎾᏉ	-15874
ᎦᏔᏂᎴᏃ	-15875
ᎦᏘᎸᏎᎢ	-15876
ᎧᎵᎵᏰᏃ	-15877
ᎨᎩᎩᎡᎵ	-15878
ᎨᏣᏘᏃᎵ	-15879
ᎨᏦᏎᎰᎢ	-15880
ᎩᎳᏫᏎᎢ	-15881
ᎪᏕᏍᏗᎭ	-15882
ᎲᏲᎵᎵᎦ	-15883
ᎲᏲᎵᎸᎯ	-15884
ᎳᏅᏓᏕᎸ	-15885
ᎳᏏᏅᎯᏉ	-15886
ᎳᏲᎯᎲᎢ	-15887
ᎳᏲᏍᏔᏃ	-15888
ᎵᏍᏙᏴᎰ	-15889
ᎷᎶᏤᎲᎩ	-15890
ᎾᏓᏐᏢᏛ	-15891
ᎿᏍᎬᏤᏉ	-15892
ᏁᎶᎸᎯᏃ	-15893
ᏁᏌᎴᏒᎩ	-15894
ᏂᏗᎩᏗᏳ	-15895
ᏂᏰᏛᏰᏃ	-15896
ᏃᎱᎩᏍᎪ	-15897
ᏄᎮᎵᎬᎢ	-15898
ᏄᏂᏪᏒᎩ	-15899
ᎤᏂᏴᏍᏗ	-15900
ᎦᏁᏍᎨᎯ	-15901
ᎨᏂᎩᎵᏲ	-15902
ᎴᏍᏓᏁᎰ	-15903
ᏂᏍᎦᎢᎮ	-15904
ᏄᏙᎯᏳᎭ	-15905
ᏄᏴᏙᏗᏱ	-15906
ᏅᎾᏏᏒᎢ	-15907
ᏅᏫᏍᎬᎢ	-15908
ᏆᏂᎪᏗᏳ	-15909
ᏉᎴᏔᏅᎩ	-15910
ᏍᎩᏴᏕᏥ	-15911
ᏍᏚᏁᎰᏉ	-15912
ᏏᎾᏌᏂᏳ	-15913
ᏏᏲᎢᏍᏗ	-15914
ᏑᎵᏍᎬᎩ	-15915
ᏑᏰᏍᏍᏗ	-15916
ᏓᏎᎪᎩᏏ	-15917
ᏓᏫᏍᎦᎨ	-15918
ᏔᎳᏗᏨᎩ	-15919
ᏔᏐᎸᏔᏂ	-15920
ᏔᏪᏙᏁᎢ	-15921
ᏕᏣᏛᏂᏏ	-15922
ᏖᎸᎾᏗᏱ	-15923
ᏗᏣᏛᏁᎭ	-15924
ᏗᏣᏛᏂᏏ	-15925
ᏙᎢᏳᏅᎾ	-15926
ᏙᏑᎴᎥᎩ	-15927
ᏛᎦᎸᏙᏗ	-15928
ᏛᏔᏂᏄᎴ	-15929
ᏜᏅᏓᏗᏏ	-15930
ᏝᎣᎮᎸᏃ	-15931
ᏠᎥᏔᏅᎩ	-15932
ᏢᏥᏰᏍᎩ	-15933
ᏣᏓᎬᏍᎪ	-15934
ᏣᏗᏒᏂᏉ	-15935
ᏥᎷᏤᎸᎯ	-15936
ᏥᏏᏴᎲᎭ	-15937
ᏥᏴᏕᏨᎩ	-15938
ᏧᎢᏍᏗᎭ	-15939
ᏧᎾᏄᎪᏨ	-15940
ᏧᎾᏕᏏᏐ	-15941
ᏨᏱᏢᏅᎯ	-15942
ᏩᎩᏙᎣᎸ	-15943
ᏩᏍᎦᎳᏁ	-15944
ᏭᏂᎯᏍᏗ	-15945
ᏯᏥᎪᏁᎸ	-15946
ᏯᏪᏐᎵᎰ	-15947
ᏯᏪᏐᎸᎦ	-15948
ᏲᏑᎴᎥᎾ	-15949
ᏲᏞᎯᏍᏗ	-15950
ᏴᏔᏂᎸᎯ	-15951
▁ᎠᎨᎳᏕ	-15952
▁ᎠᎯᏘᏳ	-15953
▁ᎠᏂᎩᎷ	-15954
▁ᎠᏃᎭᏢ	-15955
▁ᎠᏆᏗᏌ	-15956
▁ᎠᏆᏦᏛ	-15957
▁ᎠᏆᏯᏗ	-15958
▁ᎠᏊᏅᎯ	-15959
▁ᎠᏑᏰᎭ	-15960
▁ᎠᏯᏛᎥ	-15961
▁ᎡᏅᏒᏉ	-15962
▁ᎡᏍᏚᏉ	-15963
▁ᎡᏕᎵᏛ	-15964
▁ᎡᏦᏳᏒ	-15965
▁ᎡᏨᎾᎦ	-15966
▁ᎢᎤᎾᏨ	-15967
▁ᎢᏧᎴᎭ	-15968
▁ᎣᏥᏂᏝ	-15969
▁ᎤᎬᏫᏩ	-15970
▁ᎤᎾᏬᎥ	-15971
▁ᎤᏂᏤᏖ	-15972
▁ᎤᏏᏔᏕ	-15973
▁ᎤᏐᏱᎴ	-15974
▁ᎤᏔᎳᏭ	-15975
▁ᎤᏖᏰᏗ	-15976
▁ᎤᏠᎣᏒ	-15977
▁ᎤᏡᏔᏅ	-15978
▁ᎤᏪᏣᎸ	-15979
▁ᎤᏲᎵᎴ	-15980
▁ᎥᏇᏲᏅ	-15981
▁ᎦᎦᎶᎢ	-15982
▁ᎦᎦᏛᏃ	-15983
▁ᎦᎷᏥᎯ	-15984
▁ᎦᏃᏴᎬ	-15985
▁ᎦᏍᏗᎸ	-15986
▁ᎦᏱᎪᎩ	-15987
▁ᎧᏃᎥᏛ	-15988
▁ᎧᏯᏉᎢ	-15989
▁ᎧᏳᎦᏉ	-15990
▁ᎨᏍᎥᎢ	-15991
▁ᎬᏅᎩᎶ	-15992
▁ᎬᏛᎪᎢ	-15993
▁ᎬᏩᏒᏏ	-15994
▁ᎮᎷᎲᎦ	-15995
▁ᎯᎶᏄᎡ	-15996
▁ᎯᎾᏚᎦ	-15997
▁ᎯᏫᏂᏳ	-15998
▁ᎶᏉᎹᏃ	-15999
▁ᏤᏈᏘ	-16000
▁ᏯᎵᏗ	-16001
▁ᏳᏪᎯ	-16002
ᎦᏘᎴᏅᏃ	-16003
ᎬᎥᏍᎬᎩ	-16004
ᎬᏩᏓᎴᎤ	-16005
ᏥᎷᏏᎵᎻ	-16006
▁ᎻᏏᏱᏃ	-16007
▁ᎾᎾᏛᏛ	-16008
▁ᏁᎴᏁᎯ	-16009
▁ᏂᎬᏴᎦ	-16010
▁ᏂᏛᏁᏓ	-16011
▁ᏂᏥᏯᏬ	-16012
▁ᏃᎯᏳᏒ	-16013
▁ᏄᎬᏫᏴ	-16014
▁ᏄᏁᏤᎶ	-16015
▁ᏄᏒᎸᎩ	-16016
▁ᏄᏪᎡᎩ	-16017
▁ᏄᏪᎭᎴ	-16018
▁ᏄᏬᏨᎾ	-16019
▁ᏅᏁᏙᎯ	-16020
▁ᏅᏕᎵᏛ	-16021
▁ᏅᏗᏂᎶ	-16022
▁ᏅᏗᏂᏁ	-16023
[...]
