<pad>	0
</s>	0
<unk>	0
▁the	-2.88617
,	-3.23352
.	-3.47457
▁of	-3.57989
▁to	-3.67685
s	-3.76377
▁and	-3.78865
▁in	-4.02885
▁a	-4.26286
▁that	-4.35661
▁is	-4.39065
ing	-4.60269
▁for	-4.67561
▁I	-4.71585
▁	-4.80698
▁on	-4.8604
▁this	-4.99417
▁be	-5.01754
▁we	-5.02203
▁are	-5.17103
ed	-5.21453
▁European	-5.23987
▁it	-5.2564
▁with	-5.26647
▁have	-5.27266
▁not	-5.31905
▁The	-5.38149
▁as	-5.39798
ly	-5.42208
▁will	-5.53217
-	-5.54157
▁which	-5.54924
▁by	-5.56516
'	-5.58897
d	-5.60034
▁-	-5.68759
▁has	-5.73206
▁also	-5.8938
e	-5.89552
▁an	-5.92834
▁would	-5.95
m	-5.95423
▁(	-5.98941
▁all	-5.99558
)	-6.00698
▁at	-6.03189
▁Mr	-6.04981
▁Commission	-6.05938
▁from	-6.07923
▁our	-6.08889
▁President	-6.09151
▁should	-6.09396
y	-6.09668
▁We	-6.09886
ir	-6.10409
▁EU	-6.11785
al	-6.14339
▁Member	-6.16854
▁must	-6.18922
▁but	-6.19232
▁Union	-6.21099
a	-6.26936
▁you	-6.28383
▁States	-6.30555
n	-6.30755
▁been	-6.3076
▁report	-6.33448
▁more	-6.33867
▁Parliament	-6.34687
t	-6.36238
c	-6.36431
▁like	-6.36737
▁It	-6.39109
▁can	-6.40033
▁Europe	-6.40404
▁was	-6.42691
er	-6.43358
▁or	-6.44977
in	-6.45205
▁very	-6.47402
▁This	-6.4863
▁its	-6.49084
▁do	-6.50546
▁these	-6.50586
▁In	-6.52246
r	-6.53588
▁need	-6.53938
p	-6.55835
▁countries	-6.55888
o	-6.57294
▁who	-6.57782
▁us	-6.59708
l	-6.59998
▁one	-6.6161
▁important	-6.63237
:	-6.63714
▁there	-6.65023
▁people	-6.65981
▁so	-6.6837
▁support	-6.69258
▁other	-6.69429
▁new	-6.70672
▁time	-6.70685
▁Council	-6.71858
▁about	-6.73958
▁policy	-6.74846
▁they	-6.75396
i	-6.79113
▁because	-6.80914
▁my	-6.81769
en	-6.82167
▁only	-6.82692
▁work	-6.86388
▁S	-6.86894
▁out	-6.88042
▁what	-6.88616
es	-6.89246
▁am	-6.89869
▁economic	-6.89872
▁make	-6.91507
▁take	-6.91749
re	-6.92735
▁no	-6.95788
u	-6.96175
▁A	-6.96547
▁particular	-6.97138
▁up	-6.97224
▁between	-6.97361
▁rights	-6.9915
ose	-7.00902
▁th	-7.0102
▁now	-7.01534
g	-7.01573
▁into	-7.022
▁such	-7.04302
b	-7.04623
ies	-7.0612
▁market	-7.06425
▁some	-7.07735
▁if	-7.07937
▁therefore	-7.08958
ation	-7.09113
?	-7.09209
▁think	-7.11248
▁when	-7.13318
▁financial	-7.14107
▁citizens	-7.14333
▁energy	-7.16243
▁M	-7.16759
▁political	-7.16804
ic	-7.17605
▁'	-7.18853
ion	-7.18879
or	-7.19264
▁against	-7.19847
▁believe	-7.20095
▁many	-7.21237
▁country	-7.23548
▁un	-7.23813
▁were	-7.24078
▁social	-7.24356
▁than	-7.25591
▁order	-7.26486
▁development	-7.26773
▁way	-7.27765
▁However	-7.27972
it	-7.28549
▁made	-7.28892
▁say	-7.29105
▁fact	-7.29349
▁situation	-7.29414
▁well	-7.29704
▁see	-7.29927
▁crisis	-7.30118
on	-7.30256
▁being	-7.30305
;	-7.30429
ar	-7.30941
▁Commissioner	-7.31036
▁first	-7.3155
▁want	-7.31771
▁any	-7.31949
▁debate	-7.3196
k	-7.31988
▁human	-7.32313
▁today	-7.32691
▁re	-7.33528
an	-7.33573
▁good	-7.34574
▁proposal	-7.35234
▁national	-7.3528
▁most	-7.35375
▁right	-7.35797
▁vote	-7.3588
▁issue	-7.35889
st	-7.35889
h	-7.36059
se	-7.36092
▁them	-7.37948
▁just	-7.39882
▁under	-7.40206
▁measures	-7.40286
▁use	-7.40588
▁budget	-7.41259
ent	-7.41822
▁That	-7.42304
▁even	-7.42872
▁P	-7.43477
▁agreement	-7.4397
▁cannot	-7.44071
▁through	-7.44418
▁world	-7.44428
▁clear	-7.44957
able	-7.45138
▁Mada	-7.45517
▁future	-7.4587
▁years	-7.46064
▁part	-7.464
▁already	-7.46598
▁ensure	-7.46598
▁public	-7.46601
te	-7.46917
▁cooperation	-7.47334
▁international	-7.47335
f	-7.48302
▁where	-7.48452
▁point	-7.48485
▁here	-7.48567
▁G	-7.48943
▁area	-7.4905
▁over	-7.50069
▁common	-7.51085
▁two	-7.51471
ted	-7.51487
▁C	-7.51533
▁same	-7.51853
▁regard	-7.52004
▁E	-7.52222
ur	-7.52559
▁B	-7.53045
▁level	-7.5394
▁change	-7.55121
th	-7.55142
▁question	-7.55512
▁As	-7.56005
▁both	-7.56184
▁me	-7.56256
ers	-7.56442
▁year	-7.58409
▁know	-7.58448
▁law	-7.5867
▁does	-7.58952
▁view	-7.5927
▁resolution	-7.59273
▁respect	-7.59459
▁had	-7.59512
▁system	-7.60113
▁how	-7.60291
▁much	-7.60722
▁de	-7.60786
▁protection	-7.61165
ch	-7.61413
▁Committee	-7.61557
▁possible	-7.61557
ity	-7.61898
▁could	-7.62841
ro	-7.62933
▁put	-7.62977
▁Treaty	-7.63703
▁own	-7.63705
ment	-7.64093
▁place	-7.64215
▁call	-7.64714
▁case	-7.64955
et	-7.65112
▁sector	-7.65847
▁last	-7.65909
at	-7.66365
ary	-7.66397
▁help	-7.66666
▁why	-7.67686
▁said	-7.68139
le	-7.68178
▁still	-7.68594
▁example	-7.6905
▁course	-7.6905
▁number	-7.69052
▁favour	-7.69449
▁end	-7.69977
▁women	-7.70432
▁hope	-7.70433
▁result	-7.7048
▁writing	-7.70557
ive	-7.71276
▁f	-7.71384
▁voted	-7.71419
il	-7.71447
▁your	-7.71544
ri	-7.71709
▁security	-7.71837
▁m	-7.7215
▁trade	-7.72786
▁F	-7.7328
0	-7.73894
z	-7.74212
▁Group	-7.74215
▁able	-7.75334
el	-7.76094
▁information	-7.76176
▁thank	-7.7646
▁Lisbon	-7.76655
▁problem	-7.76857
ce	-7.77557
▁role	-7.77648
▁climate	-7.78149
P	-7.78833
▁too	-7.79488
ra	-7.79534
▁including	-7.79662
▁rapporteur	-7.79944
▁agree	-7.80268
▁necessary	-7.80696
▁areas	-7.80771
▁issues	-7.81159
▁directive	-7.81218
▁give	-7.81278
▁continue	-7.81869
▁process	-7.82128
▁problems	-7.82555
▁gentlemen	-7.8329
▁global	-7.83799
▁he	-7.84771
ous	-7.84837
is	-7.85249
▁better	-7.85424
▁b	-7.85736
%	-7.85937
▁action	-7.86455
▁his	-7.86531
▁There	-7.87082
▁means	-7.88211
▁For	-7.88803
▁p	-7.89178
▁concern	-7.89249
▁million	-7.8927
▁legal	-7.89381
▁since	-7.89741
ist	-7.89995
▁needs	-7.90162
v	-7.90915
▁progress	-7.90965
▁welcome	-7.91164
▁come	-7.91328
▁taken	-7.91445
▁next	-7.91536
▁may	-7.91537
▁long	-7.91593
▁co	-7.91917
li	-7.92075
▁behalf	-7.92111
▁set	-7.92687
▁Presidency	-7.9327
▁look	-7.93326
▁e	-7.93663
▁again	-7.94377
▁matter	-7.94528
▁without	-7.9519
▁provide	-7.95393
2	-7.95588
▁large	-7.9563
▁rules	-7.9578
▁increase	-7.95861
ol	-7.95943
▁strategy	-7.96229
▁find	-7.96833
▁however	-7.96847
▁regulation	-7.97595
▁adopted	-7.97693
▁If	-7.97695
est	-7.97723
un	-7.98022
▁account	-7.98047
▁opinion	-7.98047
▁products	-7.98099
▁services	-7.98258
▁terms	-7.98435
▁approach	-7.99278
▁economy	-7.99278
▁whether	-7.99279
▁legislation	-7.99287
▁current	-7.99455
▁Mrs	-7.99458
▁decision	-7.99481
▁State	-7.99496
▁further	-7.99899
w	-8.00048
▁negotiations	-8.00242
as	-8.00732
▁position	-8.0076
▁great	-8.00958
▁allow	-8.01418
▁institutions	-8.01575
▁before	-8.01791
▁lad	-8.01871
▁On	-8.02067
▁main	-8.02417
us	-8.03013
▁every	-8.03107
▁far	-8.03152
▁high	-8.03763
▁c	-8.03845
▁funds	-8.03864
▁Members	-8.04027
S	-8.04034
▁health	-8.04129
▁food	-8.04368
▁EUR	-8.04797
▁then	-8.05103
ul	-8.05279
▁after	-8.05318
▁T	-8.05709
▁framework	-8.06332
▁dur	-8.06416
ance	-8.06706
▁environmental	-8.06877
▁hand	-8.07683
ou	-8.07941
▁What	-8.08346
▁bring	-8.08648
tion	-8.08749
▁conditions	-8.08829
▁real	-8.08914
ate	-8.08936
▁control	-8.09026
▁working	-8.09027
▁present	-8.09201
▁Uni	-8.09769
▁essential	-8.104
▁resources	-8.10603
ter	-8.10801
▁second	-8.12498
▁small	-8.12501
▁different	-8.12504
▁transport	-8.12505
▁step	-8.13077
▁d	-8.13205
▁importance	-8.13214
▁forward	-8.13554
▁towards	-8.13944
▁aim	-8.1404
▁freedom	-8.14523
▁specific	-8.14619
▁authorities	-8.14645
▁go	-8.14875
▁given	-8.14925
▁used	-8.15092
▁individual	-8.15366
▁opportunity	-8.15366
▁play	-8.15366
▁policies	-8.15366
▁dis	-8.15408
▁impact	-8.16096
▁third	-8.16099
▁state	-8.16357
▁effective	-8.16432
▁prevent	-8.17496
▁proposals	-8.17541
um	-8.17688
▁done	-8.17729
▁certain	-8.17861
▁force	-8.18078
DE	-8.18337
▁workers	-8.1853
▁con	-8.18891
▁access	-8.18994
▁Community	-8.1907
▁research	-8.1907
▁become	-8.19072
ia	-8.19215
▁based	-8.19315
am	-8.19924
▁deal	-8.1996
▁aid	-8.20221
▁especially	-8.20591
▁attention	-8.20591
▁children	-8.20591
▁strengthen	-8.206
▁euro	-8.21361
▁g	-8.21763
5	-8.22004
▁fundamental	-8.22144
▁back	-8.22243
▁society	-8.22917
▁implementation	-8.22978
▁quality	-8.22998
▁going	-8.23232
▁consider	-8.23669
ne	-8.24183
A	-8.24479
▁subject	-8.245
▁safety	-8.24502
▁did	-8.24526
▁making	-8.24718
▁interests	-8.24881
▁region	-8.25208
▁basis	-8.25298
▁internal	-8.25299
▁each	-8.25309
▁whole	-8.25539
▁improve	-8.25685
E	-8.25717
ting	-8.25742
▁together	-8.26104
▁fight	-8.26105
1	-8.26857
▁addition	-8.26917
▁guarantee	-8.27083
ig	-8.27815
▁democratic	-8.28563
▁strong	-8.2895
▁serious	-8.28951
▁At	-8.29384
▁positive	-8.29397
▁House	-8.29397
▁r	-8.29417
▁free	-8.29481
▁power	-8.29611
▁less	-8.29849
I	-8.29999
▁democracy	-8.30237
▁responsibility	-8.30255
T	-8.30627
▁create	-8.30715
ad	-8.30819
ow	-8.30983
▁industry	-8.31085
▁three	-8.31085
▁reason	-8.31305
▁proposed	-8.31337
▁really	-8.31702
▁full	-8.31715
▁W	-8.31801
▁Therefore	-8.31939
▁few	-8.31939
▁combat	-8.3194
▁ask	-8.32528
▁greater	-8.33019
ise	-8.33587
ge	-8.33643
▁itself	-8.33671
C	-8.33912
ial	-8.34291
▁while	-8.34548
▁clearly	-8.34754
▁agreements	-8.34882
ck	-8.34941
if	-8.34959
▁money	-8.35433
▁down	-8.35489
▁life	-8.35489
▁understand	-8.35684
▁t	-8.35713
ability	-8.35841
▁always	-8.36326
▁growth	-8.36339
▁H	-8.37111
▁difficult	-8.3714
▁2009	-8.37296
▁efforts	-8.37349
ant	-8.37361
ill	-8.37368
ence	-8.37654
▁general	-8.37685
▁objectives	-8.38028
▁interest	-8.38082
▁major	-8.38087
▁something	-8.38138
▁vari	-8.38147
ctually	-8.38431
ry	-8.38704
▁standards	-8.3879
id	-8.38877
▁Fund	-8.39053
▁single	-8.39058
vi	-8.39076
▁key	-8.39104
▁pay	-8.39123
▁best	-8.39205
▁another	-8.39298
▁w	-8.39428
▁programme	-8.39546
▁principle	-8.39548
ite	-8.39841
▁wish	-8.39881
▁dialogue	-8.39979
▁among	-8.3998
ern	-8.40153
▁risk	-8.40492
▁group	-8.40503
▁act	-8.40531
▁lead	-8.40788
ness	-8.40832
▁package	-8.40914
▁transparency	-8.40914
▁Court	-8.40914
▁focus	-8.40914
▁draft	-8.41506
▁let	-8.41884
▁get	-8.41918
▁words	-8.41975
▁recent	-8.42364
▁achieve	-8.42535
▁open	-8.42727
▁agricultural	-8.4281
6	-8.42898
▁environment	-8.42985
▁establish	-8.43171
▁idea	-8.43517
▁rather	-8.43778
▁employment	-8.43779
ally	-8.44385
▁D	-8.44739
▁companies	-8.44742
▁context	-8.44742
▁close	-8.4494
▁qui	-8.45027
▁significant	-8.45273
▁once	-8.45315
▁period	-8.45722
▁data	-8.45722
4	-8.45843
▁fully	-8.45985
▁K	-8.46252
▁regions	-8.46555
▁R	-8.4663
▁Directive	-8.46712
▁plan	-8.46729
ations	-8.47387
▁commitment	-8.47433
▁concerned	-8.47686
▁text	-8.47712
▁Government	-8.47713
▁compromise	-8.47713
▁potential	-8.47713
▁taking	-8.47717
▁meeting	-8.48553
▁exist	-8.48725
▁challenges	-8.48781
▁due	-8.488
▁regional	-8.48997
▁protect	-8.4911
▁groups	-8.49171
▁hav	-8.49187
▁1	-8.49202
▁h	-8.4942
▁represent	-8.49538
▁poverty	-8.49743
▁promote	-8.49743
▁least	-8.49743
▁share	-8.49756
M	-8.4995
▁relations	-8.50256
ian	-8.50481
▁amendment	-8.5057
▁population	-8.50774
▁answer	-8.50774
▁apply	-8.50779
▁management	-8.50796
▁concerns	-8.50839
▁air	-8.50912
▁often	-8.51233
▁principles	-8.51256
ag	-8.5135
▁start	-8.51369
▁developing	-8.51428
▁activities	-8.51816
▁encourage	-8.51816
▁lack	-8.51825
▁markets	-8.52063
im	-8.52296
▁To	-8.52461
▁show	-8.52525
ot	-8.52627
D	-8.5304
▁amendments	-8.53089
ors	-8.53443
▁consumers	-8.53682
▁demand	-8.5381
▁labour	-8.53932
▁found	-8.53966
ve	-8.54142
▁implement	-8.54372
▁require	-8.54589
▁extreme	-8.55007
▁innovation	-8.55007
▁2020	-8.55018
▁mean	-8.55261
▁form	-8.55294
▁decisions	-8.55736
ism	-8.55741
▁results	-8.55983
▁solution	-8.55991
▁civil	-8.56081
▁document	-8.56118
ll	-8.56209
isation	-8.56308
▁They	-8.5711
fellow	-8.57194
▁available	-8.57199
▁contribution	-8.57209
FR	-8.57233
▁states	-8.57307
▁costs	-8.57526
om	-8.57755
▁draw	-8.5782
▁provided	-8.57873
▁non	-8.58013
▁application	-8.58305
▁competition	-8.58306
▁solidarity	-8.58309
▁majority	-8.58365
▁day	-8.58676
op	-8.58969
▁success	-8.5941
▁Minister	-8.59428
▁Finally	-8.59428
▁With	-8.59428
▁sustainable	-8.59434
▁indeed	-8.59437
▁legislative	-8.59437
▁production	-8.59468
▁J	-8.59581
▁V	-8.596
▁cases	-8.59627
▁parties	-8.59696
▁involved	-8.59778
ud	-8.6003
▁tax	-8.60366
▁Russia	-8.60426
▁violence	-8.60564
▁initiative	-8.60714
▁jobs	-8.61229
▁following	-8.61235
ten	-8.61313
▁needed	-8.61438
▁enough	-8.61714
▁project	-8.61741
▁contribute	-8.61871
clear	-8.62056
▁pre	-8.62141
▁pro	-8.62221
▁express	-8.62248
ful	-8.62354
▁nu	-8.62724
ised	-8.62751
▁L	-8.62767
up	-8.6278
▁3	-8.62857
▁reduction	-8.62895
age	-8.63432
▁regarding	-8.63589
▁per	-8.63756
▁v	-8.63856
▁education	-8.64061
▁shall	-8.64062
▁remain	-8.64131
▁Let	-8.64203
▁relat	-8.64307
8	-8.64376
▁consequences	-8.64456
pp	-8.65031
▁De	-8.65044
til	-8.65073
▁request	-8.65243
▁responsible	-8.65243
▁simply	-8.65243
▁yet	-8.65248
▁systems	-8.65756
▁stress	-8.65892
igh	-8.66105
sion	-8.66206
▁move	-8.66407
▁local	-8.66448
▁response	-8.66448
▁keep	-8.66448
▁reform	-8.66587
▁objective	-8.66601
▁cultural	-8.66624
▁government	-8.66663
▁meet	-8.66795
▁values	-8.67353
▁projects	-8.67638
▁Rights	-8.67668
▁assistance	-8.67675
▁things	-8.68272
▁enable	-8.68488
os	-8.68489
▁achieved	-8.68513
me	-8.68834
ating	-8.68854
▁aware	-8.6888
▁Affairs	-8.68902
▁road	-8.68903
7	-8.69274
▁months	-8.69531
▁limit	-8.69601
▁10	-8.69672
▁currently	-8.69794
term	-8.70018
▁Second	-8.70152
▁cross	-8.70152
3	-8.70558
▁certainly	-8.70903
▁sever	-8.71145
▁include	-8.71305
▁business	-8.71308
▁Development	-8.71418
▁criteria	-8.71418
▁committee	-8.71418
▁external	-8.71426
▁sure	-8.71434
▁joint	-8.71561
▁her	-8.71772
▁speak	-8.71877
▁fl	-8.72575
▁living	-8.727
ha	-8.72762
ta	-8.72824
▁consumer	-8.73003
▁gas	-8.73261
▁So	-8.73344
▁line	-8.73431
▁reasons	-8.73572
▁adopt	-8.73657
he	-8.73674
de	-8.74098
▁young	-8.74162
▁2008	-8.74177
▁value	-8.74335
▁emissions	-8.74353
F	-8.74418
▁mentioned	-8.74422
j	-8.74485
▁address	-8.74761
▁increasing	-8.74868
▁face	-8.74944
▁com	-8.75003
ied	-8.75132
ese	-8.75154
▁experience	-8.75315
▁billion	-8.75328
▁item	-8.75341
▁O	-8.75514
led	-8.75713
▁direct	-8.76195
▁al	-8.76545
▁Minutes	-8.76648
▁Thank	-8.76648
▁true	-8.76648
▁feel	-8.76648
▁kind	-8.76649
▁priorities	-8.7665
▁points	-8.76771
▁talk	-8.76989
ble	-8.77436
▁equal	-8.775
▁One	-8.77601
▁reduce	-8.77948
▁Turkey	-8.77999
▁priority	-8.78009
▁pleased	-8.78107
▁soon	-8.78566
▁4	-8.7863
▁trans	-8.78753
▁regulations	-8.79013
▁Re	-8.79254
▁special	-8.79277
▁members	-8.79321
ov	-8.79332
▁fair	-8.7937
▁carrie	-8.79435
and	-8.79448
▁benefit	-8.79851
▁funding	-8.80124
▁discuss	-8.80513
▁matters	-8.80558
▁agenda	-8.80758
▁appropriate	-8.80758
▁field	-8.80758
▁little	-8.80758
▁absolute	-8.80758
ling	-8.81008
9	-8.81279
ated	-8.81452
▁questions	-8.81709
tor	-8.81715
ut	-8.81752
▁term	-8.81878
line	-8.82028
ide	-8.82146
▁Agreement	-8.82167
▁illegal	-8.82167
▁operation	-8.82167
▁opportunities	-8.82167
ound	-8.82219
▁But	-8.82222
rs	-8.82251
▁All	-8.82389
▁instruments	-8.8276
▁20	-8.82861
▁requirements	-8.83055
ES	-8.83318
▁crucial	-8.83595
▁reflect	-8.83595
▁medium	-8.83595
▁above	-8.83595
▁hard	-8.83621
▁2	-8.83662
▁longer	-8.83996
na	-8.84162
▁job	-8.84202
▁congratulate	-8.84306
▁accept	-8.84427
▁seen	-8.84432
▁ban	-8.84515
▁relevant	-8.85044
▁might	-8.85044
▁creation	-8.85045
▁hold	-8.85145
ish	-8.85463
x	-8.8557
▁procedure	-8.85718
▁discussion	-8.85767
▁pass	-8.86044
ts	-8.86205
ural	-8.86263
ard	-8.86333
▁offer	-8.86333
ond	-8.86343
▁cohesion	-8.86515
▁previous	-8.86515
▁respond	-8.86515
▁themselves	-8.86515
▁held	-8.86517
ng	-8.8652
▁US	-8.86534
PL	-8.86545
▁vital	-8.86581
▁2010	-8.86755
▁cut	-8.86796
▁live	-8.87211
▁week	-8.8722
▁war	-8.8785
▁task	-8.88008
▁Ireland	-8.88008
▁Romania	-8.88011
▁governance	-8.88021
▁motion	-8.88026
▁actions	-8.88279
▁stand	-8.88717
nt	-8.88827
▁relation	-8.88846
▁expect	-8.88946
less	-8.88993
▁elections	-8.8909
ual	-8.8941
▁financing	-8.89523
▁finance	-8.89523
▁water	-8.89523
▁enterprises	-8.89525
▁perhaps	-8.89531
▁sh	-8.89571
▁amount	-8.8963
▁ex	-8.89711
20	-8.89933
▁borders	-8.90056
▁investment	-8.9033
▁aspects	-8.90453
▁increased	-8.90465
▁waste	-8.90496
▁final	-8.90616
▁join	-8.90888
▁provisions	-8.90948
▁ensuring	-8.91061
▁review	-8.91061
▁basic	-8.91063
ff	-8.91077
▁fall	-8.91102
▁movement	-8.91123
our	-8.91124
IT	-8.91641
for	-8.91807
▁changes	-8.92084
▁car	-8.92161
▁ambitious	-8.92624
▁supply	-8.92624
▁foreign	-8.92624
▁extend	-8.92624
▁000	-8.92624
▁maintain	-8.92638
▁sp	-8.92669
▁four	-8.92694
nternational	-8.92731
va	-8.92807
▁seek	-8.9296
ure	-8.93128
G	-8.93379
most	-8.9339
▁procedures	-8.93517
port	-8.93624
▁agreed	-8.93761
man	-8.9387
ical	-8.9415
▁short	-8.94193
▁develop	-8.94206
▁Republic	-8.94211
▁avoid	-8.94211
▁farmers	-8.94211
▁defend	-8.94211
▁stop	-8.94212
▁firm	-8.94213
▁culture	-8.94218
▁assessment	-8.94308
▁efficient	-8.94311
R	-8.94313
U	-8.94887
▁programmes	-8.9496
▁conclusion	-8.95143
▁instrument	-8.95148
▁ago	-8.95186
▁benefits	-8.95258
▁sea	-8.9531
Christian	-8.95824
humanitarian	-8.95824
▁Strategy	-8.95824
▁coordination	-8.95824
▁efficiency	-8.95824
▁purpose	-8.95824
▁When	-8.95824
▁credit	-8.95824
▁moment	-8.95824
▁leave	-8.95824
▁voting	-8.95824
▁poor	-8.95843
bo	-8.95871
be	-8.95964
▁Democrats	-8.9615
▁Ch	-8.96721
▁asked	-8.96883
▁highlight	-8.96906
▁natural	-8.9701
▁thing	-8.97277
▁peace	-8.97445
▁suggest	-8.97463
▁Hungarian	-8.97463
▁technical	-8.97463
Office	-8.97463
▁death	-8.97464
▁tell	-8.97464
▁six	-8.97472
▁outside	-8.9755
▁adoption	-8.9756
▁reality	-8.97584
▁solutions	-8.97619
▁No	-8.97656
▁origin	-8.97726
ber	-8.97984
▁5	-8.97992
ine	-8.98027
▁fishing	-8.98061
▁add	-8.98733
ti	-8.98752
▁organisations	-8.98772
to	-8.99023
▁return	-8.9913
▁broad	-8.9913
▁doubt	-8.99131
▁sitting	-8.9914
▁enter	-8.99141
▁businesses	-8.99276
▁heard	-8.99426
▁reached	-8.996
▁monitoring	-8.99792
ex	-9.00121
▁effectively	-9.00151
▁service	-9.00239
▁mention	-9.00305
▁Africa	-9.00693
▁off	-9.00729
▁Convention	-9.00825
▁immigration	-9.00825
▁model	-9.00825
▁ourselves	-9.00825
▁private	-9.00825
▁providing	-9.00825
▁stability	-9.0083
▁discrimination	-9.00837
▁pressure	-9.00837
▁everyone	-9.00859
▁China	-9.00897
▁border	-9.01019
▁others	-9.01163
▁victims	-9.01329
▁Do	-9.01453
▁correct	-9.01455
mission	-9.01677
call	-9.01688
▁seems	-9.01819
▁An	-9.01961
▁practice	-9.0198
rea	-9.02209
one	-9.02248
▁Article	-9.02549
▁agriculture	-9.02549
▁travel	-9.02549
▁Centr	-9.02569
▁South	-9.02576
▁East	-9.02604
▁50	-9.02623
▁comes	-9.02665
▁follow	-9.02732
▁required	-9.03146
ast	-9.03348
H	-9.03469
land	-9.03737
▁partners	-9.03793
▁cost	-9.03987
▁speaker	-9.04024
▁total	-9.04195
▁list	-9.04197
▁Co	-9.04239
▁French	-9.04303
▁across	-9.04303
▁excellent	-9.04303
▁message	-9.04303
▁summit	-9.04303
▁turn	-9.04304
▁mind	-9.04306
▁media	-9.04306
▁6	-9.04309
▁UN	-9.04311
▁carry	-9.0433
O	-9.04368
coming	-9.04452
▁Rule	-9.04621
▁namely	-9.04656
all	-9.04737
▁read	-9.04991
border	-9.0526
B	-9.05268
▁Greece	-9.06089
▁asylum	-9.06089
▁capacity	-9.06089
▁tomorrow	-9.06089
▁times	-9.06114
▁Man	-9.06121
▁pa	-9.06433
▁Roma	-9.06445
▁care	-9.06658
▁And	-9.06698
▁building	-9.06819
▁achiev	-9.07084
▁along	-9.0727
▁proper	-9.0746
▁rule	-9.07464
▁12	-9.07587
▁low	-9.07749
ave	-9.07789
▁Internet	-9.07907
▁huge	-9.07907
▁integration	-9.07907
▁send	-9.07908
▁strategic	-9.0791
▁around	-9.07911
▁nothing	-9.0794
N	-9.07959
▁past	-9.08017
▁prices	-9.08204
▁calls	-9.0826
▁fund	-9.08303
▁effects	-9.08334
▁ca	-9.0848
▁sc	-9.08489
ty	-9.08624
▁inter	-9.0878
▁sign	-9.08983
ever	-9.09174
tic	-9.0918
gen	-9.09215
▁powers	-9.09242
▁effect	-9.09281
▁talking	-9.09286
▁balance	-9.09434
▁depend	-9.09698
▁exchange	-9.09759
▁animal	-9.0976
▁community	-9.09767
▁throughout	-9.09815
▁took	-9.1013
▁saying	-9.10294
▁men	-9.10818
no	-9.10986
▁recognise	-9.11286
▁though	-9.11418
▁Furthermore	-9.11646
▁administrative	-9.11646
▁possibility	-9.11646
▁rise	-9.11714
▁press	-9.1172
▁colleagues	-9.11731
▁payment	-9.11747
▁propose	-9.11908
▁raised	-9.12079
▁reduc	-9.12531
ph	-9.12539
▁implemented	-9.12625
▁7	-9.12819
ory	-9.12856
ec	-9.12857
com	-9.12926
ward	-9.12992
▁affect	-9.13016
▁measure	-9.13221
nd	-9.1326
▁MEPs	-9.13569
▁company	-9.13569
▁technologies	-9.13569
▁Bank	-9.13569
▁improvement	-9.13686
ie	-9.13761
▁accession	-9.13822
▁doing	-9.13886
▁ten	-9.14073
hip	-9.14258
▁closed	-9.14304
▁par	-9.14431
▁according	-9.14435
ru	-9.14542
▁target	-9.1464
▁thanks	-9.14773
co	-9.149
▁reach	-9.15029
▁levels	-9.15054
▁price	-9.15212
ily	-9.15402
cu	-9.15405
▁age	-9.15452
▁2011	-9.1553
▁communication	-9.1553
▁infrastructure	-9.1553
▁capital	-9.1553
▁June	-9.1553
▁home	-9.1553
▁partnership	-9.15542
▁Sea	-9.15549
▁emphasise	-9.15551
▁stage	-9.15554
▁him	-9.15571
▁bear	-9.15744
▁Firstly	-9.15862
▁completely	-9.15866
uch	-9.15954
▁parliament	-9.15966
▁supported	-9.16015
ner	-9.16416
out	-9.16529
▁Le	-9.16908
ification	-9.16962
▁parliamentar	-9.1702
▁produce	-9.172
▁effort	-9.17258
▁word	-9.17279
▁reforms	-9.173
▁statement	-9.17379
▁Human	-9.1753
▁Ukraine	-9.1753
▁conduct	-9.1753
▁knowledge	-9.1753
▁official	-9.1753
▁remind	-9.1753
▁self	-9.1753
▁never	-9.17531
NL	-9.17541
▁competitiveness	-9.17548
▁export	-9.17549
▁treatment	-9.17553
▁11	-9.17581
▁thus	-9.17842
▁active	-9.17911
▁vi	-9.17916
ub	-9.17919
▁prepared	-9.18064
ought	-9.1876
▁sources	-9.19182
▁supporting	-9.19501
▁19	-9.19551
▁Serbia	-9.19571
▁applied	-9.19571
▁family	-9.19571
▁left	-9.19571
▁regime	-9.19571
▁fisheries	-9.19571
▁nature	-9.19571
▁quickly	-9.19571
sized	-9.19576
▁initiatives	-9.19577
▁five	-9.19768
▁happen	-9.19831
▁targets	-9.19919
▁received	-9.19924
over	-9.1999
▁wide	-9.2004
ities	-9.20113
day	-9.20565
▁land	-9.20566
L	-9.20703
▁presented	-9.21261
side	-9.21345
▁product	-9.21363
▁conclude	-9.21377
▁Bulgaria	-9.21654
▁agencies	-9.21654
▁behind	-9.21654
▁convince	-9.21654
▁honour	-9.21654
▁minimum	-9.21654
▁sufficient	-9.21654
▁Vice	-9.21654
▁lot	-9.21656
▁oil	-9.21659
▁deep	-9.2166
▁committed	-9.21671
▁post	-9.21734
▁direction	-9.21774
▁May	-9.21833
▁conclusions	-9.22542
▁recently	-9.22642
▁representatives	-9.22825
▁9	-9.22893
▁sta	-9.23231
▁cover	-9.23294
▁decide	-9.23412
▁governments	-9.23535
▁rest	-9.23622
▁invest	-9.23717
long	-9.23727
▁damage	-9.23781
▁trust	-9.23781
▁Justice	-9.23782
▁defence	-9.23782
▁instead	-9.23782
▁serve	-9.23782
▁type	-9.23782
▁unacceptable	-9.23791
▁reference	-9.23799
▁Party	-9.23833
▁she	-9.24126
▁coming	-9.2425
▁consideration	-9.24376
▁included	-9.24405
▁La	-9.2465
▁recommendations	-9.2494
▁challenge	-9.24941
▁urgent	-9.25517
▁mechanisms	-9.25696
▁language	-9.25841
▁visa	-9.25846
▁colleague	-9.25857
lthough	-9.2586
▁mis	-9.25906
▁safe	-9.25943
▁pursu	-9.25955
▁recovery	-9.25955
▁mutual	-9.25955
▁pension	-9.25955
▁voice	-9.25955
▁fuel	-9.25956
▁ground	-9.25956
▁half	-9.25956
▁terrorism	-9.25958
ious	-9.25966
▁participation	-9.25973
▁introduction	-9.25973
▁27	-9.25981
▁leading	-9.26118
▁desp	-9.26291
▁anti	-9.26362
▁Now	-9.26369
▁expressed	-9.27002
▁cap	-9.27061
▁away	-9.27186
V	-9.27354
The	-9.27399
ake	-9.2773
▁name	-9.27733
▁po	-9.27914
00	-9.28074
▁author	-9.28097
▁Belarus	-9.28178
▁burden	-9.28178
▁neighbour	-9.28178
▁creating	-9.28178
▁France	-9.28178
▁industrial	-9.28178
▁structural	-9.28185
▁alone	-9.28205
bilateral	-9.28284
▁session	-9.28413
ative	-9.28435
▁goes	-9.28525
▁CO	-9.28546
▁decided	-9.28566
▁8	-9.2887
RO	-9.29264
▁15	-9.2936
▁accord	-9.29434
fin	-9.29502
▁highly	-9.29734
▁plant	-9.29751
▁goals	-9.30074
▁allowed	-9.30149
str	-9.30216
▁200	-9.30371
rought	-9.30383
▁Czech	-9.3045
▁Regulation	-9.3045
▁Trade	-9.3045
▁criminal	-9.3045
▁fulfil	-9.3045
▁improving	-9.3045
▁light	-9.3045
▁method	-9.3045
▁military	-9.3045
▁renewable	-9.3045
▁extent	-9.30451
▁justice	-9.30452
▁minorities	-9.30455
▁gender	-9.30466
▁dangerous	-9.30468
▁North	-9.30481
▁Some	-9.30482
ga	-9.30536
▁2006	-9.30654
▁training	-9.30789
▁tabled	-9.30796
▁caused	-9.31011
▁Nations	-9.31131
▁developed	-9.31245
spect	-9.31305
▁closely	-9.31503
▁Ou	-9.31627
▁giv	-9.31649
▁discussions	-9.31749
rant	-9.31753
▁party	-9.31898
President	-9.31956
▁fail	-9.32211
▁includes	-9.32306
old	-9.32328
▁cause	-9.32561
▁remains	-9.32621
▁goods	-9.32669
▁raise	-9.32709
▁Barroso	-9.32776
▁December	-9.32776
▁dimension	-9.32776
▁perspective	-9.32776
▁referendum	-9.32776
▁technology	-9.32776
▁sense	-9.32776
▁visit	-9.32778
▁member	-9.3284
▁Mediterranean	-9.32903
▁difficulties	-9.33003
etary	-9.33025
▁gra	-9.33189
▁bad	-9.33247
▁patients	-9.33472
▁upon	-9.33491
▁ever	-9.33622
▁involve	-9.33651
▁transfer	-9.33783
ade	-9.3409
▁established	-9.34135
EC	-9.34184
▁bank	-9.34275
▁events	-9.34365
har	-9.34508
▁demonstrate	-9.34578
▁entire	-9.34706
▁successful	-9.34744
▁Croatia	-9.35157
▁Economic	-9.35157
▁Foreign	-9.35157
▁Israel	-9.35157
▁Partnership	-9.35157
▁Schengen	-9.35157
▁activity	-9.35157
▁central	-9.35157
▁facing	-9.35157
▁independent	-9.35157
▁practical	-9.35157
▁remember	-9.35157
▁school	-9.35157
promoting	-9.35157
▁confirm	-9.35157
▁thousand	-9.35157
▁Euro	-9.35157
▁integrated	-9.35158
▁intention	-9.35158
▁relationship	-9.35183
▁conflict	-9.35254
▁head	-9.35275
▁2007	-9.35284
▁br	-9.3541
ver	-9.35524
▁He	-9.35767
▁growing	-9.35775
▁union	-9.35793
▁affected	-9.35847
erous	-9.35926
log	-9.36385
▁suffer	-9.36583
European	-9.36789
▁Mo	-9.36836
▁Mon	-9.36943
▁table	-9.37391
▁person	-9.37518
▁Copenhagen	-9.37596
▁January	-9.37596
▁Nevertheless	-9.37596
▁People	-9.37596
▁adapt	-9.37596
▁attempt	-9.37596
▁bodies	-9.37596
▁negative	-9.37596
▁obtain	-9.37596
▁unemployment	-9.37596
▁green	-9.37596
▁history	-9.37596
▁easy	-9.37596
▁ahead	-9.37597
▁content	-9.37597
▁entry	-9.37597
▁trading	-9.37598
▁explain	-9.37598
▁early	-9.37601
▁everything	-9.37604
▁Today	-9.37619
▁competitive	-9.37625
▁13	-9.37637
lar	-9.37641
here	-9.37642
▁office	-9.37648
▁unfortunately	-9.37657
▁threat	-9.3776
▁met	-9.37781
▁big	-9.37783
▁provision	-9.37785
▁statements	-9.37945
▁topic	-9.38037
▁25	-9.38134
▁properly	-9.38201
▁hear	-9.38221
▁realise	-9.38222
▁Ro	-9.38307
▁practices	-9.38409
▁concept	-9.38595
▁k	-9.38612
▁differences	-9.38738
▁function	-9.39079
▁discussing	-9.39404
▁link	-9.39545
hol	-9.39646
oreover	-9.39774
que	-9.40096
▁choice	-9.40096
▁comprehensive	-9.40096
▁economies	-9.40096
▁fraud	-9.40096
▁regulator	-9.40096
▁religious	-9.40096
▁wrong	-9.40096
▁genuine	-9.40096
▁rapid	-9.40096
▁compar	-9.40096
▁spend	-9.40097
▁solve	-9.40097
▁Swed	-9.40099
▁initial	-9.401
▁desire	-9.40113
▁introduce	-9.4012
▁Italy	-9.40131
▁endorse	-9.40155
ple	-9.40195
▁days	-9.40238
▁Germany	-9.40295
▁signal	-9.40396
▁shows	-9.40529
▁ba	-9.40554
way	-9.40569
▁balanced	-9.40664
ev	-9.40666
ang	-9.40725
▁Pa	-9.40746
▁increasingly	-9.40956
ick	-9.40999
▁react	-9.41017
▁U	-9.41278
go	-9.41326
istic	-9.41612
▁monitor	-9.41645
▁Al	-9.41675
▁tri	-9.41843
▁resolve	-9.42118
rror	-9.42212
▁old	-9.424
▁multi	-9.42536
▁child	-9.4266
Applause	-9.4266
▁Amendment	-9.4266
▁Auditors	-9.4266
▁concrete	-9.4266
▁mobility	-9.4266
▁probably	-9.4266
▁scientific	-9.4266
▁mandate	-9.4266
▁scope	-9.4266
▁Green	-9.42661
▁beginning	-9.42661
▁abuse	-9.42662
▁forget	-9.4267
▁consistent	-9.42673
▁option	-9.42707
▁consultation	-9.42837
▁mechanism	-9.42967
der	-9.42996
▁intended	-9.43086
▁shown	-9.43102
▁steps	-9.43142
▁weak	-9.43239
fi	-9.43302
▁Iran	-9.43372
▁rightly	-9.43579
▁rate	-9.43626
▁complete	-9.43771
▁reports	-9.439
▁strongly	-9.4406
▁Of	-9.44105
rime	-9.44529
▁grant	-9.44781
riv	-9.44816
▁First	-9.44847
▁Kosovo	-9.45292
▁Libya	-9.45292
▁Summit	-9.45292
▁contact	-9.45292
▁police	-9.45292
▁similar	-9.45292
▁study	-9.45292
▁Alliance	-9.45292
▁binding	-9.45292
▁precise	-9.45292
▁debt	-9.45294
▁Even	-9.45294
▁duty	-9.45301
▁Socialist	-9.45309
▁specifically	-9.45376
▁setting	-9.45422
▁citizen	-9.45685
▁prov	-9.45717
▁aims	-9.45861
▁finally	-9.46066
▁discussed	-9.46351
▁bio	-9.46592
▁weeks	-9.4672
▁lives	-9.46728
▁reading	-9.46817
▁30	-9.46981
ach	-9.47473
▁comments	-9.47485
▁receive	-9.47718
▁emerg	-9.47749
▁personal	-9.47783
▁secure	-9.47981
▁Unfortunately	-9.47994
▁conference	-9.47994
▁connection	-9.47994
▁consensus	-9.47994
▁deliver	-9.47994
▁launch	-9.47994
▁quota	-9.47994
▁record	-9.47994
▁sensitive	-9.47994
▁strict	-9.47994
▁succeed	-9.47994
▁vulnerable	-9.47994
▁centre	-9.47995
▁observe	-9.47995
aritime	-9.47996
▁supervision	-9.47997
▁safeguard	-9.47998
▁delegation	-9.48012
▁ship	-9.4804
▁How	-9.48057
▁equality	-9.48107
▁Portugal	-9.4813
▁expression	-9.48174
▁crime	-9.48471
▁Ma	-9.48559
▁linked	-9.48595
▁failed	-9.4864
▁higher	-9.48672
▁cl	-9.48887
▁added	-9.48903
ear	-9.49063
▁la	-9.49161
▁improved	-9.49258
▁goal	-9.49294
▁try	-9.49823
▁nor	-9.49838
▁fish	-9.4985
▁considered	-9.49917
qui	-9.49952
ug	-9.50164
▁inform	-9.50269
put	-9.5033
▁speech	-9.50659
▁causes	-9.50764
▁Spanish	-9.50772
▁appeal	-9.50772
▁candidate	-9.50772
▁check	-9.50772
▁definition	-9.50772
▁domestic	-9.50772
▁guidelines	-9.50772
▁modern	-9.50772
▁plenary	-9.50772
▁spirit	-9.50772
▁gain	-9.50775
▁consumption	-9.50784
▁competence	-9.50794
▁producers	-9.50799
▁sport	-9.50806
▁Action	-9.50808
▁greatest	-9.50933
▁substantial	-9.50941
▁sectors	-9.51085
per	-9.51115
▁SMEs	-9.51206
▁network	-9.51295
▁disaster	-9.51295
▁source	-9.51306
▁comment	-9.51403
▁test	-9.5142
▁Lad	-9.51508
ip	-9.51586
▁Con	-9.5163
gue	-9.51825
ince	-9.51857
▁St	-9.51867
▁banks	-9.51943
▁created	-9.52006
▁tackle	-9.52028
rain	-9.52338
▁side	-9.52483
▁learn	-9.52605
part	-9.52807
▁wanted	-9.52877
▁manage	-9.52939
▁German	-9.53402
▁nation	-9.53472
▁imp	-9.53519
▁organ	-9.53593
▁regret	-9.53629
▁2013	-9.53629
▁Brussels	-9.53629
▁Market	-9.53629
▁claim	-9.53629
▁clause	-9.53629
▁proportion	-9.53629
▁chance	-9.53631
▁manner	-9.53636
▁constructive	-9.53638
▁failure	-9.53647
▁eye	-9.53654
▁income	-9.53658
▁overall	-9.53718
▁Although	-9.53756
▁later	-9.53781
▁prevention	-9.53928
▁obviously	-9.53962
▁freedoms	-9.54107
▁refer	-9.54163
▁represents	-9.54185
▁recognised	-9.54199
▁detail	-9.54226
▁contain	-9.5426
▁organisation	-9.54269
▁faced	-9.54446
▁directly	-9.54604
▁dealing	-9.54619
▁firstly	-9.54845
▁addressed	-9.54852
▁limited	-9.54911
▁led	-9.55542
▁Can	-9.55978
▁urge	-9.56565
▁condemn	-9.5657
▁Greek	-9.5657
▁Securit	-9.5657
▁Turkish	-9.5657
▁advance	-9.5657
▁advantage	-9.5657
▁brief	-9.5657
▁complex	-9.5657
▁continuing	-9.5657
▁discharge	-9.5657
▁mistake	-9.5657
▁opposition	-9.5657
▁regular	-9.5657
▁determine	-9.56571
▁milk	-9.56571
▁zone	-9.56571
▁wait	-9.56572
▁instance	-9.56576
▁influence	-9.56577
▁199	-9.56592
▁dai	-9.56613
▁fast	-9.56661
▁establishment	-9.56723
▁listen	-9.56759
▁mon	-9.56966
▁Com	-9.5715
▁parts	-9.57162
▁except	-9.57431
▁forms	-9.57798
▁obligations	-9.57813
▁mission	-9.58035
▁exercise	-9.58254
fter	-9.58425
▁elements	-9.586
making	-9.58919
▁provides	-9.58963
▁Constitution	-9.59601
▁Hungary	-9.59601
▁adequate	-9.59601
▁block	-9.59601
▁circumstances	-9.59601
▁commercial	-9.59601
▁declaration	-9.59601
▁families	-9.59601
▁independence	-9.59601
▁annual	-9.59602
▁migration	-9.59611
▁18	-9.59655
ritt	-9.59932
▁forces	-9.59976
▁mark	-9.60079
▁Ra	-9.60086
▁warm	-9.60142
▁happened	-9.60424
▁materials	-9.60442
▁commitments	-9.60484
▁plans	-9.60487
▁followed	-9.60582
ba	-9.60711
▁views	-9.6099
▁reduced	-9.61338
▁Ca	-9.61372
▁contains	-9.62065
ton	-9.62113
▁win	-9.62344
▁Bo	-9.62397
▁base	-9.62501
ood	-9.62659
▁Agency	-9.62726
▁Agriculture	-9.62726
▁Balkan	-9.62726
▁Pakistan	-9.62726
▁alternative	-9.62726
▁applies	-9.62726
▁diversity	-9.62726
▁enjoy	-9.62726
▁intervention	-9.62726
▁professional	-9.62726
▁Budget	-9.62726
▁Poland	-9.62726
▁status	-9.62726
▁transition	-9.62726
▁floor	-9.62726
▁restrictions	-9.62727
shadow	-9.62727
▁anything	-9.62731
▁UK	-9.62731
▁planning	-9.62731
▁flexibility	-9.62732
▁excessive	-9.62738
▁compliance	-9.62746
▁collective	-9.62758
▁associated	-9.62779
▁fear	-9.6278
house	-9.6279
▁globalisation	-9.62842
▁path	-9.62846
▁opening	-9.62925
▁came	-9.63012
▁ready	-9.63131
▁institutional	-9.63369
▁election	-9.63632
▁condition	-9.63648
▁standard	-9.63669
▁partner	-9.63726
▁heart	-9.63743
▁expected	-9.63885
▁charge	-9.63938
▁bi	-9.64221
▁note	-9.64235
▁prepar	-9.64412
employed	-9.6443
▁interested	-9.64646
▁EC	-9.64684
▁build	-9.64927
▁worked	-9.65087
▁speaking	-9.65293
▁networks	-9.65346
▁disasters	-9.65346
▁sides	-9.65349
▁crimes	-9.65423
eight	-9.65463
▁spoke	-9.65769
▁assess	-9.6591
▁engage	-9.65951
▁Ombudsman	-9.65952
▁Protection	-9.65952
▁September	-9.65952
▁Service	-9.65952
▁campaign	-9.65952
▁confidence	-9.65952
▁custom	-9.65952
▁either	-9.65952
▁passengers	-9.65952
▁register	-9.65952
▁scheme	-9.65952
▁substance	-9.65952
▁Why	-9.65952
▁gap	-9.65954
▁communities	-9.65954
▁electronic	-9.65954
▁combin	-9.65955
▁promise	-9.65969
▁contract	-9.65975
▁medicines	-9.66018
▁rating	-9.66025
▁American	-9.66085
▁underline	-9.66092
▁achievement	-9.6612
▁considerable	-9.66195
▁useful	-9.66238
ture	-9.66261
▁produced	-9.6656
the	-9.66604
CS	-9.66613
▁date	-9.66685
▁Whil	-9.66727
▁helping	-9.66846
▁suffering	-9.67313
▁rapporteurs	-9.6743
pt	-9.67614
▁port	-9.67671
▁stated	-9.67699
▁worth	-9.68089
ef	-9.68091
▁intend	-9.68753
▁traffic	-9.69284
▁Japan	-9.69285
▁Strasbourg	-9.69285
▁World	-9.69285
▁argument	-9.69285
▁delighted	-9.69285
▁fiscal	-9.69285
▁happy	-9.69285
▁innovative	-9.69285
▁penalty	-9.69285
▁religion	-9.69285
▁PPE	-9.69285
▁negotiating	-9.69285
▁pillar	-9.69285
▁court	-9.69287
▁primar	-9.69287
▁normal	-9.6929
▁recognition	-9.69291
▁sub	-9.69316
EL	-9.69328
olish	-9.69363
▁insist	-9.69542
djustment	-9.69741
▁managed	-9.69976
ran	-9.70034
▁covered	-9.70167
▁institution	-9.70197
▁ha	-9.70254
▁element	-9.70399
▁trying	-9.70531
▁functioning	-9.70663
▁Mar	-9.70778
▁fo	-9.70791
▁acts	-9.70826
▁facilitate	-9.71353
▁friend	-9.72125
▁reject	-9.72178
▁immediate	-9.72282
▁persons	-9.72506
▁starting	-9.72652
▁govern	-9.72653
▁Egypt	-9.72733
▁Programme	-9.72733
▁analysis	-9.72733
▁distribution	-9.72733
▁exclusion	-9.72733
▁hundred	-9.72733
▁transparent	-9.72733
tlantic	-9.72733
▁Western	-9.72734
▁trafficking	-9.72734
▁July	-9.72735
▁thorough	-9.72735
▁comply	-9.72735
▁Indeed	-9.72736
▁elected	-9.72736
▁Irish	-9.72736
▁else	-9.72738
▁dispute	-9.7274
▁negotiate	-9.72744
▁construction	-9.72745
▁begin	-9.72747
▁liberalisation	-9.72749
▁staff	-9.72755
▁referred	-9.72771
▁sum	-9.72824
▁spent	-9.72868
▁restor	-9.72898
ua	-9.73081
▁Georgia	-9.73339
▁urgently	-9.73454
▁Ver	-9.73493
▁num	-9.73515
▁signed	-9.73787
▁involv	-9.73788
▁violations	-9.73863
▁attack	-9.73958
▁structure	-9.73966
▁learning	-9.73987
▁via	-9.74214
tain	-9.74301
▁risks	-9.74324
▁investments	-9.74489
ix	-9.74629
▁seriously	-9.74637
▁positions	-9.7495
▁imports	-9.7496
▁structures	-9.75043
▁red	-9.75271
W	-9.75481
range	-9.76048
▁pr	-9.76141
▁recommend	-9.76198
▁late	-9.76216
▁harmonis	-9.76221
▁exp	-9.76235
responsibilities	-9.76305
▁According	-9.76305
▁November	-9.76305
▁Procedure	-9.76305
▁Representative	-9.76305
▁acknowledg	-9.76305
▁deserve	-9.76305
▁enormous	-9.76305
▁separate	-9.76305
▁sexual	-9.76305
▁simple	-9.76305
▁consolidat	-9.76305
▁fruit	-9.76305
▁drug	-9.76305
▁Italian	-9.76306
▁leadership	-9.76314
▁minority	-9.76342
▁17	-9.76366
▁wage	-9.76387
class	-9.76436
▁profit	-9.76473
▁treaty	-9.765
▁India	-9.76536
▁reasonable	-9.76555
▁critical	-9.7657
▁designed	-9.7664
▁debates	-9.76733
▁i	-9.76862
▁Russian	-9.76882
▁former	-9.76923
▁Bar	-9.77052
related	-9.77255
▁vehicles	-9.77302
▁situations	-9.77323
▁import	-9.77615
▁appear	-9.77664
▁requirement	-9.77857
▁resolutions	-9.77927
▁significantly	-9.7798
TA	-9.78073
fer	-9.78855
wa	-9.78921
▁continued	-9.78927
▁writ	-9.79134
▁tests	-9.79319
▁du	-9.79485
▁event	-9.79533
▁Ashton	-9.80008
▁Chamber	-9.80008
▁Policy	-9.80008
▁Spain	-9.80008
▁delay	-9.80008
▁earlier	-9.80008
▁execut	-9.80008
▁generation	-9.80008
▁inclusion	-9.80008
▁industries	-9.80008
▁minister	-9.80008
▁operator	-9.80008
▁promotion	-9.80008
▁territory	-9.80008
▁terrorist	-9.80008
▁Black	-9.80008
▁operate	-9.80008
▁employees	-9.80009
▁space	-9.80009
▁spread	-9.80009
▁overcome	-9.80009
▁permit	-9.80009
▁near	-9.80013
▁sustainability	-9.80017
▁labelling	-9.80018
▁Korea	-9.8002
ological	-9.80026
▁evaluation	-9.80029
▁explanation	-9.80029
▁organised	-9.80033
▁stable	-9.80042
▁revision	-9.80053
▁paid	-9.80058
▁submitted	-9.80059
▁March	-9.80064
▁14	-9.80073
▁exactly	-9.80102
▁run	-9.80182
▁approved	-9.80199
▁attract	-9.80241
drawn	-9.80258
▁told	-9.80278
▁prove	-9.80325
▁fine	-9.80333
▁lower	-9.8034
▁sanctions	-9.80413
▁Or	-9.80434
ingle	-9.80437
▁carbon	-9.805
▁barriers	-9.80503
▁statistics	-9.80503
▁vision	-9.80601
▁informed	-9.80749
▁body	-9.80786
bi	-9.80799
▁processes	-9.80818
▁transactions	-9.80863
rate	-9.81624
▁relate	-9.81647
▁100	-9.81666
▁happening	-9.8188
ink	-9.81969
ka	-9.82089
spit	-9.82267
use	-9.82296
▁introduc	-9.82655
ather	-9.82815
▁guarantees	-9.83064
▁cr	-9.83065
▁obvious	-9.83406
▁loss	-9.83741
raw	-9.83799
▁rail	-9.83849
▁super	-9.83851
▁2012	-9.83854
▁Energy	-9.83854
▁Environment	-9.83854
▁flexible	-9.83854
▁impossible	-9.83854
▁incentive	-9.83854
▁mobilis	-9.83854
▁ordinary	-9.83854
▁ratification	-9.83854
▁strategies	-9.83854
▁identify	-9.83854
▁prison	-9.83854
▁truly	-9.83855
▁Baltic	-9.83855
▁crises	-9.83855
▁aspect	-9.83855
▁mother	-9.83858
▁speed	-9.83858
▁planned	-9.83859
▁tele	-9.8386
▁seven	-9.83869
operating	-9.83873
▁constitute	-9.83874
▁remark	-9.83909
▁21	-9.83926
▁assure	-9.83936
iddle	-9.8394
▁attitude	-9.83976
▁effectiveness	-9.83976
▁languages	-9.84059
▁visas	-9.84061
▁prepare	-9.84229
▁preparation	-9.84302
▁happens	-9.8431
▁taxpayers	-9.84463
▁rejected	-9.84479
▁thought	-9.84508
▁imposed	-9.84513
▁scale	-9.84528
▁skills	-9.84528
▁lai	-9.84589
▁asking	-9.8465
standing	-9.84818
▁introduced	-9.84999
▁equally	-9.85163
▁diseases	-9.85403
▁Nor	-9.85522
stone	-9.86456
▁Sta	-9.86558
of	-9.86796
body	-9.86988
we	-9.86994
▁Asia	-9.86996
point	-9.87032
economic	-9.87034
based	-9.87054
time	-9.87091
wide	-9.87137
▁rates	-9.87406
▁count	-9.87669
▁exploit	-9.87768
▁Framework	-9.87854
▁Gaza	-9.87854
▁NATO	-9.87854
▁Organisation	-9.87854
▁Third	-9.87854
▁administration	-9.87854
▁continent	-9.87854
▁encouraging	-9.87854
▁evidence	-9.87854
▁myself	-9.87854
▁occasion	-9.87854
▁politics	-9.87854
▁truth	-9.87854
▁Charter	-9.87854
▁exclusive	-9.87854
▁push	-9.87855
▁intell	-9.87859
▁audit	-9.87866
▁feed	-9.87868
▁lies	-9.8788
▁property	-9.87882
▁judge	-9.87913
▁sort	-9.87919
▁awareness	-9.87929
▁harmonisation	-9.8795
▁counter	-9.88021
▁gone	-9.88079
▁leaders	-9.88094
▁ke	-9.8812
▁impose	-9.88173
tract	-9.882
▁tools	-9.8827
▁African	-9.88288
▁demands	-9.88337
▁dem	-9.88441
▁Giv	-9.88562
ium	-9.88853
ncy	-9.88912
▁seem	-9.88965
ender	-9.89169
▁40	-9.89336
▁negotiation	-9.89709
▁representative	-9.89733
▁known	-9.8992
▁protected	-9.90103
eful	-9.90181
▁appears	-9.90454
▁reinforce	-9.90768
▁treat	-9.9119
▁participate	-9.91256
▁repeat	-9.91459
▁threats	-9.91747
tally	-9.91796
▁submit	-9.91964
undamental	-9.91979
▁opt	-9.9201
▁British	-9.92021
▁Women	-9.92021
▁afford	-9.92021
▁coherent	-9.92021
▁contrary	-9.92021
▁convention	-9.92021
▁equipment	-9.92021
▁expenditure	-9.92021
▁observation	-9.92021
▁permanent	-9.92021
▁revenue	-9.92021
▁surprise	-9.92021
▁territorial	-9.92021
▁size	-9.92021
▁Region	-9.92021
▁release	-9.92021
precedent	-9.92021
▁Those	-9.92021
▁break	-9.92022
▁patent	-9.92022
stock	-9.92022
▁sometimes	-9.92023
▁sell	-9.92025
▁aviation	-9.92027
▁paragraph	-9.92027
surance	-9.92029
▁reply	-9.9203
▁worse	-9.92034
▁paper	-9.92042
▁voluntary	-9.92065
▁arise	-9.92081
▁sound	-9.92084
▁16	-9.92115
▁poorest	-9.92116
▁appreciate	-9.92147
▁taxation	-9.92339
▁liberal	-9.92378
▁replace	-9.92428
▁immigrants	-9.92479
wo	-9.9268
▁grat	-9.9282
▁accidents	-9.92886
▁decades	-9.92886
▁mere	-9.93038
▁card	-9.93136
▁passed	-9.93631
▁accepted	-9.93665
▁recommendation	-9.94144
▁factors	-9.94362
▁tra	-9.94791
▁welcomed	-9.94828
▁attacks	-9.94838
▁adopting	-9.95414
▁details	-9.95461
debate	-9.95545
▁Ha	-9.95635
▁amend	-9.95768
▁Portug	-9.96149
▁America	-9.96188
▁conflicts	-9.9619
▁collect	-9.96324
ivil	-9.96339
5%	-9.96352
▁maxim	-9.96369
ographic	-9.96369
▁February	-9.96369
▁Iraq	-9.96369
▁abandon	-9.96369
▁currency	-9.96369
▁judicial	-9.96369
▁CAP	-9.96369
▁Macedonia	-9.96369
▁decisive	-9.96369
▁generate	-9.96369
▁yesterday	-9.96369
▁admit	-9.96369
▁wonder	-9.96369
▁Pact	-9.96369
▁phase	-9.9637
▁hours	-9.9637
▁exceptional	-9.96371
▁drive	-9.96378
▁settle	-9.9638
cut	-9.96392
▁refuse	-9.96401
▁refugees	-9.96416
urban	-9.96417
▁2005	-9.96422
▁pollution	-9.96425
▁flee	-9.965
▁Hom	-9.96502
▁reaction	-9.96503
▁acceptable	-9.9655
▁unless	-9.96586
▁sent	-9.96598
▁lay	-9.96738
▁Chin	-9.96768
▁immediately	-9.96944
▁Slovakia	-9.97003
▁entirely	-9.97207
ior	-9.97496
▁actual	-9.98336
▁fat	-9.98382
▁stressed	-9.98442
▁plu	-9.98571
▁generally	-9.98592
▁month	-9.98677
▁j	-9.99199
▁formal	-9.99362
place	-10.0003
Rule	-10.0009
▁original	-10.0018
her	-10.0025
▁Di	-10.0035
▁please	-10.0055
▁allocat	-10.0084
location	-10.0089
▁punish	-10.0091
▁April	-10.0091
▁Assembly	-10.0091
▁Kingdom	-10.0091
▁October	-10.0091
▁Slovenia	-10.0091
▁association	-10.0091
▁cooperate	-10.0091
▁correspond	-10.0091
▁deficit	-10.0091
▁describe	-10.0091
▁enlargement	-10.0091
▁experts	-10.0091
▁facilities	-10.0091
▁geographical	-10.0091
▁macro	-10.0091
▁margin	-10.0091
▁phenomenon	-10.0091
▁physical	-10.0091
▁unanimous	-10.0091
▁weapon	-10.0091
▁dictat	-10.0091
▁expense	-10.0091
▁undertaking	-10.0091
▁tuna	-10.0091
▁appoint	-10.0092
▁undermine	-10.0092
▁agency	-10.0093
▁flood	-10.0094
▁assume	-10.0094
▁New	-10.0095
reby	-10.0095
▁peaceful	-10.0097
▁Ne	-10.0098
▁existence	-10.0102
▁2000	-10.0104
▁Here	-10.011
▁carefully	-10.0122
▁Lastly	-10.0122
▁opposed	-10.0133
▁stay	-10.014
▁sincere	-10.017
▁successfully	-10.0179
▁tried	-10.019
▁severe	-10.0197
mination	-10.0214
▁targeted	-10.0224
▁lu	-10.0226
▁minutes	-10.0276
▁hearing	-10.0286
▁indicate	-10.0293
ski	-10.0336
▁pose	-10.0391
▁grow	-10.0463
EA	-10.0468
▁legally	-10.0472
K	-10.048
vote	-10.048
mark	-10.0481
grad	-10.0489
▁ref	-10.0497
▁60	-10.0498
▁constitution	-10.0545
pol	-10.0549
▁minor	-10.0563
▁proceed	-10.0565
olidarity	-10.0566
▁harm	-10.0566
▁identifi	-10.0568
▁Afghanistan	-10.0568
▁Liberal	-10.0568
▁arrest	-10.0568
▁beneficial	-10.0568
▁blue	-10.0568
▁complement	-10.0568
▁concentrate	-10.0568
▁degree	-10.0568
▁digital	-10.0568
▁disadvantage	-10.0568
▁ethnic	-10.0568
▁heavy	-10.0568
▁heritage	-10.0568
▁journalist	-10.0568
▁ratified	-10.0568
▁subsidiarity	-10.0568
▁technological	-10.0568
▁vessel	-10.0568
▁courage	-10.0568
▁slow	-10.0568
▁otherwise	-10.0568
▁duties	-10.0568
▁gradual	-10.0568
▁abolish	-10.0568
▁arrive	-10.0568
▁tourism	-10.0568
▁eliminati	-10.0569
iz	-10.0569
▁wealth	-10.0569
▁performance	-10.057
▁speculation	-10.0572
▁198	-10.0572
▁save	-10.0573
▁realistic	-10.0574
▁emergency	-10.0574
▁undertaken	-10.0574
▁24	-10.0575
ectual	-10.0576
▁ultimately	-10.058
▁Na	-10.0583
▁interpretation	-10.0583
▁relative	-10.0586
▁constantly	-10.0598
▁rac	-10.0617
▁approval	-10.0628
▁treated	-10.0632
▁savings	-10.0632
▁anyone	-10.0648
▁obstacles	-10.0655
▁figures	-10.0667
▁factor	-10.0667
▁students	-10.0679
▁sit	-10.0689
▁Not	-10.0707
▁healthy	-10.0741
▁diplomat	-10.0767
▁started	-10.0832
▁difference	-10.0836
▁incorporat	-10.094
scale	-10.0984
2010	-10.0985
▁restrict	-10.1011
▁man	-10.1021
efore	-10.1063
ublic	-10.1064
▁satisf	-10.1068
▁Brazil	-10.1068
▁Conference	-10.1068
▁Investment	-10.1068
▁Moldova	-10.1068
▁Palestinian	-10.1068
▁Tunisia	-10.1068
▁abolition	-10.1068
▁advocate	-10.1068
▁appropriations	-10.1068
▁arrangements	-10.1068
▁complaint	-10.1068
▁destroy	-10.1068
▁divide	-10.1068
▁easier	-10.1068
▁experiencing	-10.1068
▁radio	-10.1068
▁reiterate	-10.1068
▁sensible	-10.1068
▁stimul	-10.1068
▁studies	-10.1068
▁GDP	-10.1068
▁ambition	-10.1068
▁creative	-10.1068
▁definitely	-10.1068
▁trend	-10.1068
▁ACP	-10.1068
▁chain	-10.1068
▁accus	-10.1068
▁chair	-10.1068
determination	-10.1068
▁systematic	-10.1068
▁double	-10.1068
▁referring	-10.1068
▁rising	-10.1068
▁Transport	-10.1068
▁earn	-10.1068
▁proceedings	-10.107
▁sale	-10.107
▁lose	-10.107
SK	-10.1071
▁membership	-10.1072
▁2004	-10.1072
AL	-10.1074
▁mix	-10.1074
driving	-10.1075
▁regulated	-10.1088
▁Inter	-10.1098
▁fel	-10.1123
▁define	-10.1125
even	-10.1128
▁mine	-10.1132
ology	-10.1185
▁wine	-10.1226
▁ignore	-10.1228
▁highlighted	-10.1242
ught	-10.1264
▁facilitat	-10.1273
▁Dan	-10.1279
▁users	-10.1292
▁prefer	-10.1321
▁propos	-10.1341
▁coordinate	-10.1347
▁examine	-10.1397
▁emphasis	-10.143
lco	-10.1443
nother	-10.1452
▁Every	-10.1491
(	-10.1512
▁contribut	-10.1516
▁critic	-10.1553
▁consult	-10.1557
produc	-10.1576
▁interpret	-10.1577
▁legislat	-10.1582
▁danger	-10.159
▁universit	-10.1594
▁Control	-10.1594
▁Frontex	-10.1594
▁Instead	-10.1594
▁Safety	-10.1594
▁component	-10.1594
▁confront	-10.1594
▁credibility	-10.1594
▁eliminate	-10.1594
▁enforcement	-10.1594
▁explicit	-10.1594
▁extensive	-10.1594
▁healthcare	-10.1594
▁legitimate	-10.1594
▁length	-10.1594
▁neither	-10.1594
▁nevertheless	-10.1594
▁prohibit	-10.1594
▁qualifications	-10.1594
▁reserve	-10.1594
▁simplify	-10.1594
▁struggle	-10.1594
▁symbol	-10.1594
▁troops	-10.1594
▁unfair	-10.1594
▁worrying	-10.1594
▁honest	-10.1594
▁morning	-10.1594
▁witness	-10.1594
▁revised	-10.1594
▁Health	-10.1594
▁Sudan	-10.1594
▁System	-10.1594
▁board	-10.1594
▁preserv	-10.1594
▁average	-10.1594
▁clean	-10.1594
▁Arab	-10.1594
▁impress	-10.1594
▁teach	-10.1594
▁traditional	-10.1594
▁Also	-10.1595
▁Europol	-10.1595
▁corruption	-10.1595
▁criticism	-10.1596
▁expand	-10.1596
▁Plan	-10.1597
▁investors	-10.16
▁23	-10.16
▁assist	-10.1602
▁Paris	-10.1602
▁expectations	-10.1602
▁pure	-10.1608
▁20%	-10.1609
▁mid	-10.161
atory	-10.1613
▁striv	-10.1614
▁code	-10.1615
▁spoken	-10.1624
▁More	-10.1625
▁counterfeit	-10.1639
▁General	-10.1647
▁Fro	-10.1663
▁favourable	-10.1664
ai	-10.1686
▁concluded	-10.1708
▁granted	-10.1709
▁Kar	-10.1727
▁naturally	-10.1744
▁medicin	-10.1756
▁tan	-10.1796
▁offered	-10.1801
▁80	-10.1805
▁indicat	-10.186
▁obligation	-10.1916
aking	-10.1986
cultural	-10.2067
vision	-10.2069
▁enhance	-10.2119
▁manufactur	-10.2144
▁Social	-10.2146
xternal	-10.2146
stitute	-10.2147
cycl	-10.2148
elect	-10.2148
▁secret	-10.2149
▁Cohesion	-10.2149
▁Cyprus	-10.2149
▁Globalis	-10.2149
▁Lithuania	-10.2149
▁Research	-10.2149
▁announced	-10.2149
▁choose	-10.2149
▁elsewhere	-10.2149
▁female	-10.2149
▁incident	-10.2149
▁leaving	-10.2149
▁oblige	-10.2149
▁percentage	-10.2149
▁pesticide	-10.2149
▁pipeline	-10.2149
▁presidency	-10.2149
▁radical	-10.2149
▁surveillance	-10.2149
▁Freedom	-10.215
▁acquis	-10.215
▁intensive	-10.215
▁latter	-10.215
▁piece	-10.215
▁Thus	-10.215
▁murder	-10.215
▁predict	-10.215
▁ALDE	-10.215
▁Islam	-10.215
▁worst	-10.215
▁protest	-10.215
▁await	-10.215
▁moving	-10.215
▁outcome	-10.215
▁sharing	-10.215
▁lend	-10.215
▁sovereignty	-10.215
▁host	-10.215
▁Haiti	-10.215
▁perfect	-10.2151
▁electricity	-10.2153
▁Head	-10.2156
▁investigation	-10.2157
▁proud	-10.2159
▁exploitation	-10.2162
▁authority	-10.2162
▁removed	-10.2168
mposition	-10.2175
▁0.	-10.2181
▁hit	-10.2189
ooperation	-10.2189
acy	-10.2195
▁published	-10.22
▁enhanced	-10.2202
▁restricted	-10.2212
▁...	-10.2218
▁amended	-10.2222
▁repeated	-10.2225
LT	-10.2232
▁historical	-10.2242
▁personally	-10.225
AS	-10.2271
aki	-10.2289
▁sole	-10.2308
▁soil	-10.2308
FI	-10.2315
▁emphasised	-10.2319
▁employ	-10.2409
▁disease	-10.2503
active	-10.2518
▁minute	-10.2535
▁ignor	-10.2552
▁pan	-10.2622
institutional	-10.2655
J	-10.2655
lain	-10.2664
▁design	-10.2682
rmed	-10.269
▁pollut	-10.273
▁investigat	-10.273
▁competen	-10.2733
▁object	-10.2733
ollowing	-10.2733
▁Act	-10.2734
tribute	-10.2735
▁mass	-10.2735
tructural	-10.2736
▁label	-10.2736
▁presen	-10.2737
▁qua	-10.2738
▁occur	-10.2738
democrat	-10.2738
illennium	-10.2738
▁Austria	-10.2738
▁Financi	-10.2738
▁Liberties	-10.2738
▁accompan	-10.2738
▁affairs	-10.2738
▁chosen	-10.2738
▁dignity	-10.2738
▁foodstuffs	-10.2738
▁forgotten	-10.2738
▁inequalities	-10.2738
▁lost	-10.2738
▁privacy	-10.2738
▁significance	-10.2738
▁societies	-10.2738
▁unnecessary	-10.2738
▁welfare	-10.2738
valuable	-10.2738
▁anticipat	-10.2738
▁front	-10.2738
▁glad	-10.2738
▁Common	-10.2738
▁reliable	-10.2738
▁Work	-10.2738
▁micro	-10.2738
▁version	-10.2738
▁multilateral	-10.2738
gible	-10.2738
▁Authority	-10.2738
▁persist	-10.2738
▁argue	-10.2738
▁Congo	-10.274
▁farming	-10.274
▁proof	-10.2741
▁everybody	-10.2743
▁authorisation	-10.2743
▁extra	-10.2744
▁yes	-10.2744
saw	-10.2746
▁etc	-10.2746
▁Food	-10.2746
▁26	-10.2747
▁latest	-10.2749
▁retain	-10.2749
▁round	-10.2749
▁powerful	-10.2751
▁sad	-10.2752
▁22	-10.2753
▁constitutional	-10.2766
▁mot	-10.2783
ferred	-10.279
▁wishes	-10.2812
▁defined	-10.2836
▁resolv	-10.2865
▁withdraw	-10.2969
mall	-10.3014
▁defin	-10.3202
▁Li	-10.3221
national	-10.3235
EN	-10.3239
CO	-10.3254
▁historic	-10.326
carbon	-10.3279
initiative	-10.328
2008	-10.328
▁caus	-10.3283
back	-10.3286
▁publish	-10.3307
▁oppose	-10.3356
▁perform	-10.336
rowth	-10.336
matic	-10.3362
▁Progress	-10.3363
▁redundan	-10.3363
▁uncertain	-10.3363
▁Britain	-10.3363
▁Burma	-10.3363
▁Fisheries	-10.3363
▁Thursday	-10.3363
▁Tibet	-10.3363
▁advertising	-10.3363
▁applicable	-10.3363
▁behaviour	-10.3363
▁biodiversity	-10.3363
▁categor	-10.3363
▁cheap	-10.3363
▁clarify	-10.3363
▁detriment	-10.3363
▁disagree	-10.3363
▁dossier	-10.3363
▁dramatic	-10.3363
▁dynamic	-10.3363
▁frequent	-10.3363
▁imbalance	-10.3363
▁neighbourhood	-10.3363
▁possibilities	-10.3363
▁reservation	-10.3363
▁section	-10.3363
▁species	-10.3363
▁storage	-10.3363
▁supplement	-10.3363
▁surviv	-10.3363
▁Bosnia	-10.3363
▁London	-10.3363
▁abstain	-10.3363
▁biggest	-10.3363
▁celebrat	-10.3363
▁Like	-10.3363
▁finish	-10.3363
▁electora	-10.3363
load	-10.3363
▁sorry	-10.3363
▁decent	-10.3363
▁camp	-10.3363
▁route	-10.3363
EGF	-10.3363
▁root	-10.3363
▁Free	-10.3363
▁terri	-10.3363
▁team	-10.3363
▁moral	-10.3363
▁postpon	-10.3364
▁warning	-10.3364
▁rich	-10.3364
▁united	-10.3364
marine	-10.3364
▁infringement	-10.3364
▁geo	-10.3364
▁south	-10.3365
▁ongoing	-10.3365
▁harmful	-10.3365
▁prosperity	-10.3365
▁stocks	-10.3366
▁guid	-10.3366
▁suitable	-10.3366
oto	-10.3367
▁manufacturers	-10.3369
▁involvement	-10.3376
▁east	-10.3377
DA	-10.3379
▁Ni	-10.3391
▁expos	-10.3393
▁Leg	-10.3393
▁Dur	-10.3396
▁outline	-10.341
▁War	-10.3414
rning	-10.3423
▁taxes	-10.3427
fect	-10.3447
▁socialist	-10.3447
friendly	-10.3475
▁seat	-10.352
ception	-10.3565
▁Ko	-10.3617
coordinated	-10.3666
CC	-10.3775
▁consequence	-10.3798
level	-10.3947
work	-10.3947
▁Un	-10.3951
▁careful	-10.3994
▁Last	-10.4013
▁commit	-10.4019
▁prior	-10.4024
limate	-10.4026
sumption	-10.4027
ubject	-10.4028
▁Petitions	-10.4029
▁boost	-10.4029
▁century	-10.4029
▁changing	-10.4029
▁chapter	-10.4029
▁credible	-10.4029
▁disposal	-10.4029
▁ecosystem	-10.4029
▁envisage	-10.4029
▁extension	-10.4029
▁necessity	-10.4029
▁politicians	-10.4029
▁president	-10.4029
▁residence	-10.4029
▁scandal	-10.4029
▁simplification	-10.4029
▁stakeholders	-10.4029
▁supervisor	-10.4029
▁supposed	-10.4029
▁uniform	-10.4029
▁universal	-10.4029
▁vocation	-10.4029
▁volume	-10.4029
▁whilst	-10.4029
▁absurd	-10.4029
▁comparison	-10.4029
▁excuse	-10.4029
▁ownership	-10.4029
▁reciproc	-10.4029
▁science	-10.4029
▁subsequent	-10.4029
▁couple	-10.4029
▁breach	-10.4029
▁valid	-10.4029
▁reveal	-10.403
▁image	-10.403
▁dump	-10.403
▁tonnes	-10.403
▁analyse	-10.403
▁foster	-10.403
▁shift	-10.403
▁inspection	-10.403
▁urgency	-10.4031
▁began	-10.4031
▁Paper	-10.4032
▁select	-10.4032
▁Cuba	-10.4032
▁sentence	-10.4033
▁track	-10.4033
ulture	-10.4034
▁tough	-10.4034
▁Report	-10.4036
▁devote	-10.4037
▁sold	-10.4037
▁civilian	-10.4043
▁cutting	-10.4043
▁north	-10.4043
▁allocation	-10.4044
▁losses	-10.4049
▁dependent	-10.4052
▁declared	-10.4057
▁speeches	-10.4057
abour	-10.4059
outh	-10.4089
▁train	-10.4097
satisfactory	-10.4098
▁foresee	-10.4117
▁debat	-10.4159
▁demonstrat	-10.419
▁Bas	-10.419
older	-10.4207
▁reinforc	-10.4236
▁enabl	-10.4265
▁congratulat	-10.4385
killed	-10.4482
▁violation	-10.4509
▁notice	-10.4515
▁impos	-10.4565
▁medic	-10.4601
formal	-10.4626
▁constant	-10.4698
new	-10.4699
▁approve	-10.4706
erhaps	-10.474
▁commodit	-10.4744
▁prescripti	-10.4744
▁autonom	-10.4744
▁black	-10.4744
▁confident	-10.4744
▁contradict	-10.4744
▁Agenda	-10.4744
▁Australia	-10.4744
▁Belgian	-10.4744
▁Netherlands	-10.4744
▁Protocol	-10.4744
▁WTO	-10.4744
▁approximate	-10.4744
▁blood	-10.4744
▁built	-10.4744
▁commend	-10.4744
▁conservation	-10.4744
▁considerably	-10.4744
▁convergence	-10.4744
▁destruction	-10.4744
▁disappear	-10.4744
▁elderly	-10.4744
▁endeavour	-10.4744
▁fishermen	-10.4744
▁inhabitants	-10.4744
▁intervene	-10.4744
▁mandatory	-10.4744
▁occupation	-10.4744
▁penalise	-10.4744
▁principal	-10.4744
▁qualified	-10.4744
▁restructuring	-10.4744
▁slight	-10.4744
▁spectrum	-10.4744
▁stipulate	-10.4744
▁tragedy	-10.4744
▁Canada	-10.4744
▁Regard	-10.4744
▁neutral	-10.4744
▁notably	-10.4744
▁absence	-10.4744
▁judgment	-10.4744
▁watch	-10.4744
▁hung	-10.4744
▁woman	-10.4744
▁quantit	-10.4744
▁running	-10.4744
▁forecast	-10.4744
▁arising	-10.4744
guard	-10.4744
▁lessons	-10.4745
▁traditions	-10.4745
▁railway	-10.4745
▁adver	-10.4746
▁closing	-10.4746
▁drivers	-10.4747
▁sphere	-10.4748
▁exemption	-10.4748
▁Speci	-10.4748
▁Over	-10.4749
▁exert	-10.4749
phone	-10.475
▁assert	-10.4751
▁40%	-10.4751
▁shortage	-10.4753
▁certainty	-10.4756
▁depart	-10.4757
▁31	-10.4761
▁actors	-10.4761
▁manag	-10.4764
▁bill	-10.4773
ould	-10.4777
▁deriv	-10.4784
▁gro	-10.4788
▁city	-10.48
▁adhere	-10.4854
estimated	-10.4924
▁tempo	-10.5007
▁examin	-10.5023
bling	-10.5155
▁temp	-10.5236
▁patient	-10.528
▁victim	-10.5281
▁resource	-10.5282
▁Nation	-10.5285
▁rais	-10.5357
session	-10.5359
gging	-10.5372
▁eco	-10.5396
quality	-10.5421
what	-10.5431
EU	-10.5444
UE	-10.5484
▁differ	-10.5505
▁initiat	-10.5509
▁separati	-10.5513
netheless	-10.5513
▁Access	-10.5513
▁Albania	-10.5513
▁August	-10.5513
▁Consumer	-10.5513
▁Industry	-10.5513
▁Information	-10.5513
▁Obviously	-10.5513
▁Switzerland	-10.5513
▁VAT	-10.5513
▁bureaucracy	-10.5513
▁chemicals	-10.5513
▁collapse	-10.5513
▁complicated	-10.5513
▁constituent	-10.5513
▁deprived	-10.5513
▁deregulat	-10.5513
▁entrepreneurs	-10.5513
▁hazardous	-10.5513
▁identity	-10.5513
▁inadequate	-10.5513
▁inclusive	-10.5513
▁jurisdiction	-10.5513
▁legitimacy	-10.5513
▁lobby	-10.5513
▁penalties	-10.5513
▁pharmaceutical	-10.5513
▁repression	-10.5513
▁resident	-10.5513
▁supplies	-10.5513
▁trouble	-10.5513
▁vegetables	-10.5513
▁volatility	-10.5513
imbabwe	-10.5513
▁EIB	-10.5513
▁Goals	-10.5513
▁disgrace	-10.5513
▁extraordinar	-10.5513
▁interference	-10.5513
▁mitigat	-10.5513
visible	-10.5513
▁accessible	-10.5513
▁blind	-10.5513
▁discover	-10.5513
▁freight	-10.5513
▁regrettable	-10.5513
▁ecological	-10.5513
▁convey	-10.5513
▁Syria	-10.5513
▁justify	-10.5513
▁occurred	-10.5513
uestion	-10.5513
▁birth	-10.5513
▁textile	-10.5513
▁buy	-10.5513
▁Day	-10.5513
▁map	-10.5513
truck	-10.5513
▁solid	-10.5514
▁translate	-10.5514
▁below	-10.5514
▁foremost	-10.5514
▁drop	-10.5515
▁beneficiaries	-10.5515
▁proactive	-10.5515
▁Equality	-10.5519
NG	-10.5519
▁massive	-10.5519
nternal	-10.5519
▁197	-10.552
upport	-10.552
▁30%	-10.5525
▁cities	-10.5525
titude	-10.5526
logue	-10.5527
productive	-10.5528
respective	-10.5531
▁coast	-10.5531
▁openness	-10.5532
cap	-10.5535
▁deni	-10.555
▁indicator	-10.5583
▁interconnect	-10.5611
tergovernmental	-10.5625
corporate	-10.5715
▁Dat	-10.5718
▁evaluate	-10.5782
tability	-10.5802
lingu	-10.5811
stating	-10.582
▁straight	-10.5826
▁Hav	-10.5842
▁complet	-10.5843
▁character	-10.599
▁vehicle	-10.6112
▁material	-10.6115
▁emission	-10.6133
governmental	-10.6184
connected	-10.6241
look	-10.6258
General	-10.6262
▁accelerate	-10.6264
country	-10.6264
free	-10.6265
law	-10.6306
▁secur	-10.6346
▁deliberate	-10.6346
▁English	-10.6346
▁earthquake	-10.6346
▁equivalen	-10.6346
▁purchas	-10.6346
▁stream	-10.6346
▁virtu	-10.6346
AIDS	-10.6346
compatible	-10.6346
evolution	-10.6346
ugoslav	-10.6346
▁Arctic	-10.6346
▁NGOs	-10.6346
▁Obama	-10.6346
▁Resolution	-10.6346
▁Schulz	-10.6346
▁Stockholm	-10.6346
▁afraid	-10.6346
▁anniversary	-10.6346
▁battle	-10.6346
▁compulsory	-10.6346
▁concentration	-10.6346
▁consistency	-10.6346
▁continuous	-10.6346
▁controvers	-10.6346
▁delicate	-10.6346
▁exacerbate	-10.6346
▁familiar	-10.6346
▁feature	-10.6346
▁frank	-10.6346
▁heavily	-10.6346
▁misleading	-10.6346
▁motivate	-10.6346
▁multiannual	-10.6346
▁prevail	-10.6346
▁procurement	-10.6346
▁rescue	-10.6346
▁satellite	-10.6346
▁solving	-10.6346
▁stabilis	-10.6346
▁strike	-10.6346
▁transposition	-10.6346
▁website	-10.6346
▁whatsoever	-10.6346
▁Estonia	-10.6346
▁Tourism	-10.6346
▁deadline	-10.6346
▁detention	-10.6346
▁dioxi	-10.6346
▁prompt	-10.6346
▁understood	-10.6346
▁PSE	-10.6346
▁confuse	-10.6346
▁hydro	-10.6346
▁variety	-10.6346
▁towns	-10.6346
▁shortcomings	-10.6346
▁Join	-10.6346
▁earth	-10.6346
▁attach	-10.6346
▁threatened	-10.6346
▁Scot	-10.6347
▁room	-10.6347
▁housing	-10.6347
▁stake	-10.6347
▁ruling	-10.6347
▁remit	-10.6347
▁rape	-10.6347
▁stance	-10.6347
▁spring	-10.6347
▁Under	-10.6347
▁resist	-10.6349
▁149	-10.635
▁persecution	-10.6351
▁overlook	-10.6352
▁instability	-10.6352
▁demonstration	-10.6355
▁Pack	-10.6355
▁employers	-10.6355
▁29	-10.6356
▁mater	-10.6356
▁Wall	-10.6359
CR	-10.6574
right	-10.6704
▁draftsm	-10.691
building	-10.695
▁Whi	-10.705
liberal	-10.7172
direct	-10.7173
▁replac	-10.7179
▁declare	-10.7217
▁regulate	-10.7218
▁Part	-10.7233
▁strength	-10.7244
▁speculat	-10.7248
▁electric	-10.725
petition	-10.7252
ompliance	-10.7252
tradition	-10.7253
losing	-10.7253
FP	-10.7254
▁deploy	-10.7255
▁horizontal	-10.7255
▁swift	-10.7255
▁Because	-10.7255
▁Belgium	-10.7255
▁Herzegovina	-10.7255
▁Mercosur	-10.7255
▁Mexico	-10.7255
▁Neighbourhood	-10.7255
▁Otherwise	-10.7255
▁Treaties	-10.7255
▁Venezuela	-10.7255
▁activists	-10.7255
▁article	-10.7255
▁artificial	-10.7255
▁calculat	-10.7255
▁codecision	-10.7255
▁coherence	-10.7255
▁compensate	-10.7255
▁competitors	-10.7255
▁consequently	-10.7255
▁denounc	-10.7255
▁diverse	-10.7255
▁encounter	-10.7255
▁estimates	-10.7255
▁everywhere	-10.7255
▁evident	-10.7255
▁expensive	-10.7255
▁immunity	-10.7255
▁implications	-10.7255
▁modified	-10.7255
▁newspaper	-10.7255
▁overwhelming	-10.7255
▁platform	-10.7255
▁pleasure	-10.7255
▁possibly	-10.7255
▁ratify	-10.7255
▁schedule	-10.7255
▁stringent	-10.7255
▁tape	-10.7255
▁tariff	-10.7255
▁tremendous	-10.7255
▁violent	-10.7255
▁desirable	-10.7255
▁distortion	-10.7255
▁drink	-10.7255
▁eurozone	-10.7255
▁silence	-10.7255
▁suspect	-10.7255
▁volunteer	-10.7255
▁earmark	-10.7255
▁habit	-10.7255
▁pilot	-10.7255
▁reconciliation	-10.7255
▁Dimas	-10.7255
▁SIS	-10.7255
▁tragic	-10.7255
▁broke	-10.7255
▁lift	-10.7255
▁Just	-10.7255
▁Recent	-10.7255
ecretariat	-10.7255
▁Brok	-10.7255
▁Open	-10.7255
▁sheep	-10.7256
▁Iceland	-10.7256
▁stick	-10.7256
▁violate	-10.7256
▁Martin	-10.7256
▁2007-2013	-10.7256
▁inequality	-10.7256
▁dedicat	-10.7256
tolerance	-10.7256
▁advis	-10.7256
▁torture	-10.7257
▁opposite	-10.7257
▁merg	-10.7257
▁cancer	-10.7258
▁lawyer	-10.7262
mail	-10.7263
▁indig	-10.7266
arcel	-10.7332
▁participat	-10.7421
start	-10.7499
worthy	-10.7599
mobile	-10.7671
▁compli	-10.7932
gui	-10.7975
▁student	-10.802
▁transaction	-10.8021
▁stra	-10.8091
▁Slovak	-10.8107
2006	-10.8173
▁necessar	-10.8233
came	-10.8242
▁refuge	-10.8244
▁sustain	-10.8247
▁discriminat	-10.8248
▁educat	-10.8248
▁suit	-10.8249
▁avail	-10.825
▁influ	-10.8253
anagement	-10.8255
onciliation	-10.8255
Cypriot	-10.8255
continuation	-10.8255
▁Asylum	-10.8255
▁Barnier	-10.8255
▁Business	-10.8255
▁Decision	-10.8255
▁Employment	-10.8255
▁Kurdish	-10.8255
▁Lukashenko	-10.8255
▁Luxembourg	-10.8255
▁Nabucco	-10.8255
▁Naturally	-10.8255
▁OLAF	-10.8255
▁PNR	-10.8255
▁Secretary	-10.8255
▁Through	-10.8255
▁Wednesday	-10.8255
▁airspace	-10.8255
▁bureaucratic	-10.8255
▁closure	-10.8255
▁compensation	-10.8255
▁disastrous	-10.8255
▁distinction	-10.8255
▁eligibility	-10.8255
▁engine	-10.8255
▁expansion	-10.8255
▁flights	-10.8255
▁fragment	-10.8255
▁genetic	-10.8255
▁imagine	-10.8255
▁imperialis	-10.8255
▁imprison	-10.8255
▁irregular	-10.8255
▁jeopardise	-10.8255
▁marriage	-10.8255
▁neglect	-10.8255
▁night	-10.8255
▁reaffirm	-10.8255
▁reconstruction	-10.8255
▁registra	-10.8255
▁remote	-10.8255
▁removing	-10.8255
▁scenario	-10.8255
▁subsidies	-10.8255
▁yield	-10.8255
▁yourself	-10.8255
▁afternoon	-10.8255
▁disparit	-10.8255
▁division	-10.8255
▁imperative	-10.8255
▁quarter	-10.8255
▁redress	-10.8255
▁utilise	-10.8255
▁Change	-10.8255
▁renewed	-10.8255
▁blow	-10.8255
▁decline	-10.8255
▁resort	-10.8255
▁internet	-10.8255
▁Clear	-10.8255
▁commissioner	-10.8255
▁prioritise	-10.8255
▁crops	-10.8255
▁summer	-10.8255
▁exceed	-10.8256
▁harsh	-10.8256
▁uphold	-10.8256
▁reverse	-10.8256
▁false	-10.8256
▁cease	-10.8256
fresh	-10.8256
▁formulate	-10.8256
▁roll	-10.8256
▁rational	-10.8256
▁attend	-10.8256
▁insult	-10.8256
▁begun	-10.8256
▁artist	-10.8257
▁consent	-10.8257
▁rare	-10.8257
▁petitions	-10.8258
▁merit	-10.8258
▁cycle	-10.8259
▁Monday	-10.826
▁discipline	-10.826
issile	-10.8263
▁born	-10.8263
▁donor	-10.8264
iversification	-10.8266
spire	-10.8271
▁Nu	-10.8276
throw	-10.828
tress	-10.8302
▁75	-10.8302
▁obs	-10.8314
▁seri	-10.8379
plication	-10.8589
▁characterise	-10.8704
tries	-10.8733
▁tackl	-10.8859
▁figure	-10.9131
▁accident	-10.9131
▁decade	-10.9131
▁Democrat	-10.9134
▁Tak	-10.9135
pproval	-10.9221
nyone	-10.9241
▁satisfact	-10.925
amount	-10.9284
2009	-10.9284
effective	-10.9284
political	-10.9284
▁remove	-10.9329
▁delegat	-10.9359
▁commun	-10.9361
▁consist	-10.9362
▁excess	-10.9362
hether	-10.9364
▁sovereign	-10.9365
▁Memor	-10.9366
▁accurate	-10.9366
▁deteriorati	-10.9366
▁integral	-10.9366
▁mountain	-10.9366
▁reconcil	-10.9366
▁reintegrati	-10.9366
▁smooth	-10.9366
▁surplus	-10.9366
▁typical	-10.9366
commerce	-10.9366
▁Association	-10.9366
▁Bureau	-10.9366
▁College	-10.9366
▁Conservative	-10.9366
▁Criminal	-10.9366
▁Declaration	-10.9366
▁Education	-10.9366
▁Geneva	-10.9366
▁Latvia	-10.9366
▁Meanwhile	-10.9366
▁Tajani	-10.9366
▁Uganda	-10.9366
▁Ukrainian	-10.9366
▁applaud	-10.9366
▁assembly	-10.9366
▁clarifie	-10.9366
▁conviction	-10.9366
▁decrease	-10.9366
▁deforestation	-10.9366
▁diminish	-10.9366
▁facility	-10.9366
▁hospital	-10.9366
▁inhuman	-10.9366
▁innocent	-10.9366
▁intelligent	-10.9366
▁landscape	-10.9366
▁licence	-10.9366
▁lifestyle	-10.9366
▁monopolies	-10.9366
▁orientation	-10.9366
▁precondition	-10.9366
▁pretext	-10.9366
▁protocol	-10.9366
▁removal	-10.9366
▁rigorous	-10.9366
▁statute	-10.9366
▁territories	-10.9366
▁twenty	-10.9366
▁zero	-10.9366
▁Director	-10.9366
▁Dutch	-10.9366
▁Guinea	-10.9366
▁broadband	-10.9366
▁ceiling	-10.9366
▁easily	-10.9366
▁ethical	-10.9366
▁picture	-10.9366
▁profound	-10.9366
▁weaknesses	-10.9366
sceptic	-10.9366
▁alarming	-10.9366
▁hinder	-10.9366
▁logistic	-10.9366
▁stead	-10.9366
▁142)	-10.9366
▁Reform	-10.9366
▁desperate	-10.9366
▁undoubtedly	-10.9366
▁GSP	-10.9366
▁Hamas	-10.9366
▁Tax	-10.9366
▁communicate	-10.9366
▁interfere	-10.9366
▁rush	-10.9366
▁shock	-10.9366
▁unique	-10.9366
▁utmost	-10.9367
▁insight	-10.9367
▁brutal	-10.9367
▁renovat	-10.9367
▁isolated	-10.9367
▁indications	-10.9367
▁girl	-10.9367
▁banana	-10.9367
▁elite	-10.9367
tolerable	-10.9367
▁timetable	-10.9367
▁arms	-10.9367
▁metres	-10.9368
▁deny	-10.9368
▁shame	-10.9369
▁burn	-10.9369
▁unifi	-10.9369
asmus	-10.937
▁river	-10.937
▁spare	-10.9375
▁waiv	-10.9386
▁update	-10.9395
eimer	-10.9421
▁cope	-10.9422
ella	-10.9453
audi	-10.9466
▁infectio	-10.9493
▁rebuild	-10.9648
▁falsifi	-10.9671
ightened	-11.0116
▁charg	-11.0123
▁obstacle	-11.0381
▁adjust	-11.0439
down	-11.0516
Europe	-11.0528
known	-11.0533
efficient	-11.0534
▁appreciat	-11.0577
▁undertake	-11.0598
▁persecut	-11.0609
▁exempt	-11.0609
▁prosper	-11.0612
trategic	-11.0615
▁Trans	-11.0615
▁suspen	-11.0616
▁Particular	-11.0616
▁dismantle	-11.0616
▁manifest	-11.0616
▁resolute	-11.0616
▁unlike	-11.0616
Montenegro	-11.0616
incomprehensible	-11.0616
nnouncement	-11.0616
ortunately	-11.0616
▁Caucasus	-11.0616
▁Children	-11.0616
▁Darfur	-11.0616
▁Eurojust	-11.0616
▁Galileo	-11.0616
▁HIV	-11.0616
▁Mauritania	-11.0616
▁Morocco	-11.0616
▁OECD	-11.0616
▁Olympic	-11.0616
▁Prize	-11.0616
▁Refugee	-11.0616
▁Rompuy	-11.0616
▁Sarkozy	-11.0616
▁Similar	-11.0616
▁Taiwan	-11.0616
▁Taliban	-11.0616
▁abroad	-11.0616
▁advice	-11.0616
▁apologise	-11.0616
▁aquaculture	-11.0616
▁arbitra	-11.0616
▁automatically	-11.0616
▁blame	-11.0616
▁certification	-11.0616
▁collaboration	-11.0616
▁constraints	-11.0616
▁coordinator	-11.0616
▁copyright	-11.0616
▁corridor	-11.0616
▁diagnosis	-11.0616
▁elaborat	-11.0616
▁equipped	-11.0616
▁household	-11.0616
▁inappropriate	-11.0616
▁incomplete	-11.0616
▁incredibl	-11.0616
▁livelihood	-11.0616
▁loophole	-11.0616
▁minimis	-11.0616
▁parallel	-11.0616
▁precaution	-11.0616
▁programming	-11.0616
▁recital	-11.0616
▁regulating	-11.0616
▁scrutiny	-11.0616
▁shipyards	-11.0616
▁simultaneous	-11.0616
▁sudden	-11.0616
▁switch	-11.0616
▁synergies	-11.0616
▁tsunami	-11.0616
▁disregard	-11.0616
▁distinguish	-11.0616
▁enshrin	-11.0616
▁faith	-11.0616
▁guilt	-11.0616
▁marginalised	-11.0616
▁remedy	-11.0616
▁soldiers	-11.0616
Innovation	-11.0616
▁Fourth	-11.0616
▁alleged	-11.0616
▁dependency	-11.0616
▁Certain	-11.0616
▁clarity	-11.0616
▁pledge	-11.0616
▁contamination	-11.0616
▁identification	-11.0616
▁taught	-11.0617
▁escape	-11.0617
nteroperability	-11.0617
▁Guant	-11.0617
▁storm	-11.0617
dominant	-11.0617
▁belief	-11.0617
▁distance	-11.0617
▁seize	-11.0617
▁Who	-11.0617
▁suspended	-11.0617
▁hopefully	-11.0617
▁film	-11.0617
▁Time	-11.0617
▁translation	-11.0617
▁offences	-11.0617
bundl	-11.0617
▁strange	-11.0617
▁adult	-11.0618
▁Great	-11.062
recast	-11.0622
ILO	-11.0622
▁Mich	-11.0625
namo	-11.0628
negotia	-11.0845
▁skill	-11.0875
▁challeng	-11.1172
▁automo	-11.1408
life	-11.145
orrections	-11.1496
▁evaluat	-11.154
▁underestimate	-11.1681
▁interact	-11.1781
▁Georgi	-11.1784
▁taxpayer	-11.181
▁SME	-11.1812
▁receiv	-11.1938
minute	-11.196
Mediterranean	-11.1962
took	-11.1963
▁procedur	-11.2007
▁compos	-11.2035
cific	-11.2037
▁frame	-11.2045
▁recruit	-11.2045
▁unconditional	-11.2045
Bendit	-11.2045
unreasonable	-11.2045
▁Consequently	-11.2045
▁Democracy	-11.2045
▁Federation	-11.2045
▁Instrument	-11.2045
▁Lynne	-11.2045
▁Madagascar	-11.2045
▁McCreevy	-11.2045
▁Measures	-11.2045
▁Network	-11.2045
▁Oettinger	-11.2045
▁Please	-11.2045
▁Prevent	-11.2045
▁Product	-11.2045
▁SOLVIT	-11.2045
▁Society	-11.2045
▁Somalia	-11.2045
▁Verhofstadt	-11.2045
▁accommodat	-11.2045
▁applicant	-11.2045
▁austerity	-11.2045
▁autumn	-11.2045
▁background	-11.2045
▁blatant	-11.2045
▁capacities	-11.2045
▁catastrophe	-11.2045
▁catastrophic	-11.2045
▁childhood	-11.2045
▁concessions	-11.2045
▁condolence	-11.2045
▁contraven	-11.2045
▁coordinating	-11.2045
▁democracies	-11.2045
▁derogation	-11.2045
▁disabilities	-11.2045
▁discourage	-11.2045
▁eligible	-11.2045
▁emotion	-11.2045
▁flexicurity	-11.2045
▁frozen	-11.2045
▁hatred	-11.2045
▁hygiene	-11.2045
▁illustrate	-11.2045
▁immense	-11.2045
▁inconsistent	-11.2045
▁incorrect	-11.2045
▁interview	-11.2045
▁journey	-11.2045
▁liberties	-11.2045
▁literally	-11.2045
▁modest	-11.2045
▁nonsense	-11.2045
▁obligatory	-11.2045
▁occupie	-11.2045
▁overdue	-11.2045
▁oversight	-11.2045
▁perpetrated	-11.2045
▁pragmatic	-11.2045
▁privilege	-11.2045
▁promising	-11.2045
▁recession	-11.2045
▁repair	-11.2045
▁robust	-11.2045
▁sacrifice	-11.2045
▁screening	-11.2045
▁shield	-11.2045
▁smoking	-11.2045
▁summarise	-11.2045
▁surface	-11.2045
▁threshold	-11.2045
▁trialogue	-11.2045
▁unanimity	-11.2045
▁utilisation	-11.2045
▁vaccination	-11.2045
▁widespread	-11.2045
▁worried	-11.2045
metric	-11.2045
▁2050	-11.2045
▁Ossetia	-11.2045
▁borrow	-11.2045
▁clarification	-11.2045
▁decentralis	-11.2045
▁definitive	-11.2045
▁entail	-11.2045
▁proclaim	-11.2045
▁slogan	-11.2045
▁smart	-11.2045
▁socio	-11.2045
▁subsidis	-11.2045
▁sugar	-11.2045
▁unilateral	-11.2045
7-02	-11.2045
▁2014	-11.2045
▁diplomacy	-11.2045
▁piracy	-11.2045
▁premium	-11.2045
Sahara	-11.2045
▁Stream	-11.2045
▁cruel	-11.2045
▁renewal	-11.2045
▁Border	-11.2045
▁shelter	-11.2045
▁Barrot	-11.2045
▁Strip	-11.2045
▁Finland	-11.2045
▁acquir	-11.2045
▁verification	-11.2045
▁devastat	-11.2045
▁regain	-11.2045
▁bomb	-11.2045
▁Life	-11.2045
▁curb	-11.2045
▁dark	-11.2045
▁protein	-11.2045
▁dream	-11.2045
▁stem	-11.2045
oriented	-11.2045
▁spell	-11.2045
▁Other	-11.2045
▁scarce	-11.2045
▁Statu	-11.2046
▁correlat	-11.2046
▁game	-11.2046
▁convert	-11.2046
ddiction	-11.2046
▁disseminat	-11.2049
tivation	-11.2052
▁Berlin	-11.2062
(5)	-11.2068
▁transpos	-11.2069
▁reviv	-11.2075
▁bull	-11.2098
▁accelerat	-11.2192
Casp	-11.2208
verything	-11.2339
▁exercis	-11.2745
raftsman	-11.3251
▁saving	-11.3476
▁barrier	-11.3477
▁statistic	-11.3477
▁oppos	-11.3568
▁conclud	-11.3571
lateral	-11.3626
profit	-11.3628
2007	-11.3629
growing	-11.3629
assessment	-11.3629
people	-11.363
▁ultimate	-11.3667
▁exact	-11.3667
▁unfortunate	-11.3667
ocuments	-11.3673
judg	-11.3687
▁diversif	-11.3693
▁recogni	-11.3697
xplanation	-11.3708
stablish	-11.3708
-2013	-11.3711
errorism	-11.3711
▁Ferrero	-11.3712
q	-12.6545
