<pad>	0
</s>	0
<unk>	0
▁	-2.28908
ကို	-3.83614
၊	-3.862
သော	-4.09167
သည်	-4.15288
မ	-4.64491
၍	-4.71204
▁အ	-4.74544
နှင့်	-4.7703
အ	-4.83151
ရ	-4.86168
၌	-4.90993
ကြ	-5.05139
၏	-5.29748
၍၊	-5.30238
▁ငါ	-5.30295
▁မ	-5.32252
်	-5.34553
တို့ကို	-5.3587
တို့သည်	-5.45114
▁ထို	-5.46881
ကြ၏။	-5.49809
တော်	-5.49934
တ	-5.50989
၏။	-5.52089
လ	-5.57183
း	-5.61865
သား	-5.6262
ရာ	-5.63444
ရှိ	-5.66359
စေ	-5.67444
တော်မူ	-5.67467
ခြင်း	-5.74813
့	-5.76128
သ	-5.77035
သို့	-5.77067
က	-5.7779
ု	-5.79901
မှ	-5.81126
ပါ	-5.89813
ဖြစ်	-5.90153
။	-5.93537
ထ	-5.97014
လေ၏။	-5.97902
ပြု	-5.98194
သောသူ	-6.02204
က်	-6.02408
တို့	-6.02724
ာ	-6.03785
▁ထာဝရဘုရား	-6.04774
ံ	-6.05369
▁ငါ့	-6.09353
▁လူ	-6.10144
ခ	-6.10256
အား	-6.11486
န	-6.1208
များ	-6.13715
ယ	-6.14859
န်	-6.16016
လျှင်၊	-6.17063
▁သင်တို့	-6.17769
ဲ	-6.17961
▁သူတို့	-6.1858
▁တ	-6.19409
င်	-6.19629
▁မိမိ	-6.22645
မြို့	-6.2425
သွား	-6.25802
လည်း	-6.26002
ထား	-6.26484
ို	-6.2693
တော်မူ၏။	-6.2742
ဖ	-6.31812
ဗ	-6.33167
ပေး	-6.33796
ိ	-6.34147
၎င်း၊	-6.35124
နှစ်	-6.35391
င်း	-6.35475
ွ	-6.3602
▁သူ	-6.37199
ုတ်	-6.37265
ဟု	-6.37876
လိမ့်မည်။	-6.38413
လျက်၊	-6.39701
လျက်	-6.40026
ဒ	-6.40536
သူ	-6.40761
ကြီး	-6.41501
နေ	-6.42336
▁ကိုယ်	-6.42341
ရှ	-6.4384
ဆ	-6.4471
▁ဤ	-6.46043
စား	-6.4677
ခြင်းကို	-6.46987
တွင်	-6.48104
ပြည်	-6.48473
နိုင်	-6.48671
မိ	-6.49418
လူ	-6.49426
ပင်	-6.49676
ရမည်။	-6.50835
က၊	-6.51396
ောင်	-6.52318
▁အာ	-6.52393
မှာ	-6.52566
▁ငါသည်	-6.54846
ပ်	-6.55292
လော့။	-6.58356
▁သင်သည်	-6.58951
စွာ	-6.59387
ကဲ့သို့	-6.5959
▁နေ	-6.59711
ခံ	-6.59736
▁ဘုရားသခင်	-6.5991
အားဖြင့်	-6.60141
တ်	-6.60689
စ	-6.61918
ဇ	-6.62763
ေ	-6.63231
မည်။	-6.6362
ကြလော့။	-6.6368
▁ပြု	-6.64525
သာ	-6.64939
▁သင်တို့သည်	-6.65141
▁အကျွန်ုပ်	-6.66621
▁ထိုသို့	-6.66755
ဂ	-6.673
လျှင်	-6.67677
သဖြင့်၊	-6.6796
▁သူတို့သည်	-6.67976
မျှ	-6.6907
ရောက်	-6.69287
နာ	-6.696
လက်	-6.7009
ပ	-6.70781
လာ	-6.71254
န်း	-6.71557
ဆို	-6.71986
ပြော	-6.72134
တော်ကို	-6.72371
ဆောင်	-6.72376
▁သင်	-6.73259
▁သင်၏	-6.73503
▁သူ၏	-6.75149
မြ	-6.75157
မင်း	-6.76113
▁ထာဝရဘုရားသည်	-6.77403
မြင်	-6.7761
မ်း	-6.77656
လိုက်	-6.7783
▁ငါတို့	-6.77926
ောက်	-6.78848
ချ	-6.80559
ရှိ၏။	-6.80716
ဘ	-6.80733
သောအခါ၊	-6.81838
သံ	-6.82036
ရိ	-6.82701
ုန်	-6.8292
▁ဘုရား	-6.8332
မည်ဟု	-6.83904
အမျိုး	-6.8498
ခြင်းငှါ	-6.85062
ဦး	-6.85092
ပြ	-6.85161
များကို	-6.85257
တတ်	-6.85312
သေ	-6.86079
ကြောင့်	-6.8716
သိ	-6.87348
ဖြစ်၏။	-6.87741
▁တဖန်	-6.87823
ဝ	-6.88029
တော်မူသော	-6.88714
ုံ	-6.89017
စကားကို	-6.89569
ကလည်း၊	-6.9023
ခါ	-6.90252
ယူ	-6.90803
ရ။	-6.91722
ငယ်	-6.92646
လှ	-6.93632
စေခြင်းငှါ	-6.93829
အဘို့	-6.94937
ကြလိမ့်မည်။	-6.95016
▁ထာဝရဘုရား၏	-6.95579
မည်	-6.96474
ဟ	-6.96669
ဘဲ	-6.96825
လော	-6.97091
▁ထိုအခါ	-6.97123
▁အပြစ်	-6.97136
ပေါ်မှာ	-6.97422
မရှိ	-6.98128
ကို၎င်း၊	-6.98334
▁ရောက်	-6.99207
▁က	-6.99353
ိမ်	-7.01076
မဟုတ်	-7.01709
ကြား	-7.01778
▁သား	-7.02022
အရပ်	-7.02228
မာ	-7.02569
▁ရှိ	-7.02667
ပါ၏။	-7.0288
တို့အား	-7.03178
လုပ်	-7.03616
▁လက်	-7.04045
▁ရှင်ဘုရင်	-7.04639
ေး	-7.04872
၎င်း	-7.04883
ဝင်	-7.0562
သက်	-7.06658
ရေ	-7.0736
▁မြို့	-7.07646
▁မိန့်တော်မူ၏။	-7.07669
လေ	-7.0772
ပြီ။	-7.08364
တိုင်အောင်	-7.0899
တောင်	-7.09349
▁အကြောင်းမူကား၊	-7.094
▁မိန့်တော်မူ	-7.09649
စဉ်	-7.10092
▁ကိုယ်တော်	-7.10227
ပြင်	-7.10242
ှ	-7.11417
▁ပ	-7.11503
▁သင့်	-7.11592
အမျိုးသား	-7.12096
သောသူသည်	-7.12264
▁ဒါဝိဒ်	-7.12283
ရှိသမျှ	-7.12771
ည်	-7.13129
သည်ကား၊	-7.13457
ဖြင့်	-7.13481
တတ်၏။	-7.13515
ကား၊	-7.13585
▁သူသည်	-7.13903
တင်	-7.14167
▁ငါ့ကို	-7.14593
ပေါ်	-7.1492
▁ဆို	-7.14928
သောကြောင့်၊	-7.15164
ကျ	-7.16004
ခြင်း၊	-7.16243
▁ဣသရေလ	-7.17171
▁ယဇ်ပုရောဟိတ်	-7.17539
▁ဘုရားသခင်၏	-7.17666
တည်း	-7.18236
▁ရေ	-7.18864
▁အို	-7.18889
▁တရား	-7.19394
သနည်း။	-7.19798
ပြန်	-7.20115
သည်လည်း	-7.20438
ရသော	-7.20662
သည်ဟု	-7.21093
ဘုရားသခင်	-7.21183
သုံး	-7.21241
▁သေ	-7.21506
ူး	-7.2153
ူ	-7.21852
ော	-7.21912
▁ငါ၏	-7.22134
မင်းကြီး	-7.22543
ော်	-7.22947
ကိုလည်း	-7.23829
▁အဘယ်	-7.23843
▁ယခု	-7.24286
နည်း	-7.24469
လေး	-7.24676
ငါ	-7.24736
ယ်	-7.24797
ောင်း	-7.25092
နေရာ	-7.251
တည်	-7.25501
ည	-7.25642
နေ့	-7.25738
ထဲက	-7.25816
တိ	-7.25982
ဆုံး	-7.25985
စရာ	-7.26072
ရပ်	-7.26236
ထံသို့	-7.26607
ရက်	-7.26829
လိ	-7.27189
ဘက်	-7.2721
▁ကောင်း	-7.27414
အဘ	-7.27437
တရား	-7.2744
စာ	-7.27643
ကား	-7.27717
▁စိတ်	-7.28524
္	-7.28619
▁အမှု	-7.29264
▁ဖြစ်	-7.29328
လုံး	-7.29697
စကား	-7.30132
သော်၊	-7.30516
ရှေ့မှာ	-7.30519
ဘုရား	-7.3059
လမ်း	-7.30864
ရှိသော	-7.31028
ရန်	-7.31301
▁ထိုသူ	-7.31876
တိုင်	-7.31996
▁ပေး	-7.32031
ဝတ်	-7.32256
ဆက်	-7.33173
ထက်	-7.3329
သတည်း။	-7.33308
ဇာ	-7.33505
▁မြေ	-7.33549
မှစ၍	-7.33557
မှန်	-7.33796
တို့၏	-7.34071
▁အဘယ်သို့	-7.34243
သဖြင့်	-7.34394
သောအခါ	-7.34489
မှတ်	-7.34718
စီရင်	-7.34774
▁ထ	-7.35197
အပေါင်းတို့	-7.3522
တည်း။	-7.35562
တို့၌	-7.35705
▁ဧ	-7.35744
သွား၍	-7.36049
နှ	-7.36264
▁သိ	-7.364
ပျက်	-7.36859
အမှုကို	-7.37049
▁မီး	-7.37072
ကြောင်းကို	-7.37166
တိုင်း	-7.37488
အိမ်	-7.37588
ဟော	-7.37893
▁အလွန်	-7.37919
အချိန်	-7.38233
သမီး	-7.38432
သော်လည်း၊	-7.39072
▁သူတို့ကို	-7.39301
လည်	-7.39334
မူကား၊	-7.39917
ရှာ	-7.4041
▁ယေရုရှလင်မြို့	-7.40671
နှင့်အတူ	-7.4085
နိ	-7.41101
▁ကျွန်	-7.41326
▁ဣသရေလအမျိုးသား	-7.41354
ပြီးမှ၊	-7.41797
ရော	-7.41948
တည်းဟူသော	-7.42491
စစ်	-7.42522
▁သင့်ကို	-7.42577
▁သွား	-7.42625
ဆယ်	-7.42996
ရှေ့	-7.43035
အခွင့်	-7.4331
▁အသက်	-7.4341
▁ထာဝရ	-7.43606
စု	-7.43786
နှင့်တကွ	-7.43963
▁တည်	-7.4399
ပြီးလျှင်၊	-7.4438
▁ကြား	-7.44384
တော်မူပါ။	-7.44566
စီး	-7.44778
ထွက်	-7.44884
ဘို့	-7.44915
မှီ	-7.44979
တယောက်	-7.45036
ကျေးဇူး	-7.45163
ေလ	-7.45532
▁စား	-7.45658
တံ	-7.45751
တံခါး	-7.4608
ဇိ	-7.46347
▁ခံရ	-7.46386
တွေ့	-7.46929
▁လုပ်	-7.47279
ခုနစ်	-7.47541
▁စီရင်	-7.47629
▁လျှောက်	-7.47778
ခြ	-7.48047
သည်ကို	-7.48091
▁မောရှေ	-7.48417
သည်အတိုင်း၊	-7.4882
ထဲသို့	-7.49118
▁ဣသရေလအမျိုး	-7.4913
ျ	-7.49154
အလို	-7.49832
မင်္ဂလာ	-7.50177
သမျှ	-7.50226
တူ	-7.50808
ွေ	-7.50991
▁မြေကြီး	-7.5128
ကျွန်	-7.51369
ထံ	-7.51563
ချစ်	-7.51669
ကိုယ်	-7.5173
ကာလ	-7.51748
သတ်	-7.51976
▁ပြ	-7.52014
ထိ	-7.52171
▁သန့်ရှင်း	-7.52828
ိတ်	-7.52898
အရှင်	-7.53195
အာ	-7.53436
၏သား	-7.5353
အရာ	-7.53666
▁ယေ	-7.54074
▁ငါတို့သည်	-7.5414
▁သခင်	-7.54151
အပြစ်	-7.54486
▁နား	-7.54943
▁အဘယ်သူ	-7.55074
ကြွ	-7.55458
ြ	-7.5551
မျိုး	-7.55938
ရှေ့တော်၌	-7.56087
ဟာ	-7.56252
အတိုင်း	-7.57039
စောင့်	-7.57147
▁သ	-7.57256
မတ်	-7.57337
နောက်	-7.57421
▁ကိုယ်တော်သည်	-7.57786
မြစ်	-7.57861
တတ်သော	-7.57977
လဲ	-7.58099
စုံ	-7.58359
▁န	-7.58637
လူတို့	-7.58892
စိတ်	-7.58974
ကာ	-7.59115
ကောင်း	-7.59201
ချက်	-7.59568
မ္မ	-7.6017
▁ထား	-7.60244
▁သူ့	-7.60249
နှုတ်	-7.60448
ချင်း	-7.60528
မြို့သို့	-7.60656
▁သိုး	-7.60816
တ္တ	-7.61174
အရပ်၌	-7.61717
သလော။	-7.6208
▁လူများ	-7.62449
▁မိန်းမ	-7.62813
ပါ။	-7.63027
ညီ	-7.63143
ျာ	-7.63248
ဟူမူကား၊	-7.63289
နား	-7.6329
သခင်	-7.63301
အပေါင်းတို့သည်	-7.63428
▁မိမိတို့	-7.63803
ခံရ	-7.63815
▁ပရောဖက်	-7.63962
ပြီဟု	-7.64133
သောသူ၊	-7.64208
မြေ	-7.6442
ပယ်	-7.64438
သည်အတိုင်း	-7.64702
အောင်	-7.65002
▁အဲဂုတ္တုပြည်	-7.65341
ရှင်ဘုရင်	-7.65615
ဘေး	-7.65808
လျှောက်	-7.65942
ယူ၍	-7.66038
▁ထိုကြောင့်	-7.66067
လို	-7.66283
လင်	-7.66616
▁နားထောင်	-7.66889
ုပ်	-7.66891
ပေါင်း	-7.66902
▁ရွှေ	-7.66959
န့်	-7.67347
▁ခ	-7.67452
▁စကား	-7.67478
နိုင်ငံ	-7.67479
ရ၏။	-7.67625
မြတ်	-7.67782
သစ်	-7.68164
သောကြောင့်	-7.68316
ဥ	-7.68499
ား	-7.68752
ဘုန်း	-7.68934
မြို့၊	-7.69083
မယား	-7.69375
ွန်	-7.69437
င	-7.69565
တို့တွင်	-7.69594
ပို	-7.69944
တန်ဆာ	-7.70225
▁ကောင်းကင်	-7.70585
လင်း	-7.70644
ဝိညာဉ်	-7.70818
တိုက်	-7.70989
▁မြင်	-7.71191
▁ယုဒ	-7.71203
ဆီ	-7.71541
ါ	-7.71576
ဖြောင့်	-7.7176
ခေါင်း	-7.7176
တို့နှင့်	-7.71892
▁မိ	-7.71929
ရှင်	-7.72169
ီး	-7.72214
ကောင်	-7.7239
ပွဲ	-7.72601
ငါး	-7.72821
တွင်၊	-7.72828
▁နှုတ်	-7.73161
▁အကျွန်ုပ်တို့	-7.73673
▁တောင်	-7.7368
စ်	-7.73732
ထာဝရဘုရား	-7.73839
▁အစဉ်	-7.73965
တပါး	-7.73967
▁ခံ	-7.74101
▁ယော	-7.74303
ပြီး	-7.74381
ခြင်းသို့	-7.744
မြောက်	-7.74433
▁ကျ	-7.74692
▁သတ်	-7.74698
▁အကြောင်း	-7.74969
မည်အကြောင်း၊	-7.75203
သင်	-7.75576
ယော	-7.75872
စေ့	-7.76037
▁လာ	-7.76464
▁ရှေ	-7.76514
ဥစ္စာ	-7.76644
ပါး	-7.76665
မျက်နှာ	-7.77103
▁ကျောက်	-7.77164
▁ကိုယ်တော်ကို	-7.77378
ဣ	-7.77411
▁သို့ဖြစ်၍	-7.77475
ဝေး	-7.77593
▁တော	-7.77679
ရိုး	-7.77694
▁လိုက်	-7.77838
ပစ်	-7.77854
လော့ဟု	-7.77994
အမှု	-7.78105
ခဲ့	-7.78148
ဆင်း	-7.78186
ယာ	-7.78418
မသိ	-7.78435
န္	-7.78505
▁ကိုယ်တော်၏	-7.78581
ပေ	-7.78713
▁မေး	-7.79163
▁ဘုရားသခင်သည်	-7.793
စေခြင်းငှါ၊	-7.79469
ဆို၏။	-7.7962
ကြပြီ။	-7.79677
ဆိုင်	-7.79788
တွင်း	-7.80074
ပိုင်	-7.80347
ရှု	-7.80353
ကြ။	-7.80786
▁အဘ	-7.80823
သည်ဖြစ်၍၊	-7.81102
သောက်	-7.81215
ဗာ	-7.81502
ဂါ	-7.81887
▁သင်တို့ကို	-7.8193
လိမ့်	-7.82031
သဘော	-7.82236
ဘွယ်	-7.82343
▁အသက်ရှင်	-7.82553
လယ်	-7.82613
လွတ်	-7.82727
ကုန်	-7.8332
▁အဘယ်ကြောင့်	-7.8341
▁ပြန်	-7.83437
ချီ	-7.83793
ွန်း	-7.83973
ပတ်လုံး	-7.84012
မြို့၌	-7.84067
▁မိုဃ်း	-7.84132
သောအရာ	-7.84439
▁ဝ	-7.84834
ဆိုး	-7.85167
ကြည့်	-7.85186
▁သို့သော်လည်း	-7.85206
လွန်	-7.85248
တန်ခိုး	-7.85489
တောင်း	-7.85818
သကဲ့သို့	-7.86074
▁ဗေ	-7.86264
မုန့်	-7.86289
မည်အကြောင်း	-7.86665
ဟိ	-7.87014
ဘူး	-7.87016
▁ပြည်	-7.871
အုပ်	-7.87111
သောသူတို့သည်	-7.87372
▁သူ့ကို	-7.87825
သီး	-7.88157
▁ပြော	-7.88231
▁ကယ်တင်	-7.88313
နားမှာ	-7.88536
▁လမ်း	-7.88818
လျက်ရှိ	-7.88864
အပ်	-7.88907
အမွေ	-7.88959
▁ချ	-7.89047
မရှိ။	-7.89232
ဖြစ်၍၊	-7.89286
ကို၎င်း	-7.89337
တော	-7.89681
တော်သည်	-7.89788
နေ့၌	-7.8997
အသီး	-7.9013
လှည့်	-7.90148
ပြု၍	-7.90161
လူတို့သည်	-7.90284
လိမ့်မည်ဟု	-7.90439
တော်မူပြီ။	-7.90524
ပြီးမှ	-7.90622
ပြုသော	-7.91098
၏ဟု	-7.91158
အပေါင်းတို့ကို	-7.91385
▁တယောက်	-7.91387
သနည်းဟု	-7.9149
ဘော်	-7.91522
ဟေ	-7.91915
မျက်စိ	-7.92024
လု	-7.92164
အကြောင်း	-7.92182
▁ဆင်းရဲ	-7.92408
ပေးတော်မူ	-7.92435
အသက်	-7.92446
▁ထာဝရဘုရားကို	-7.92498
▁ယနေ့	-7.92672
နေသော	-7.92982
ပြည်၌	-7.93035
အမိန့်တော်	-7.93111
ခြောက်	-7.93291
▁ခေါ်	-7.93309
▁နှစ်	-7.93337
▁ပူဇော်	-7.93776
ကယ်	-7.94003
သားတို့	-7.94167
▁ငွေ	-7.94197
ကြိုး	-7.94503
▁ဟာ	-7.94536
အရာ၌	-7.94942
▁ဝင်	-7.95174
▁ယာကုပ်	-7.95315
▁ရှောလု	-7.95325
စွန့်	-7.95327
စပ်	-7.95333
▁နောက်တဖန်	-7.95605
▁သစ္စာ	-7.95886
ခွ	-7.95967
သောသူတို့	-7.96095
မပြု	-7.96109
▁ဗိမာန်တော်	-7.96168
နှင့်။	-7.96337
▁ရှာ	-7.96431
ီ	-7.96598
သနား	-7.96623
သင့်	-7.96963
သိမ်း	-7.97145
▁သင်တို့၏	-7.9715
▁ကျွန်တော်	-7.97253
▁သို့ရာတွင်	-7.97305
▁နွား	-7.97378
ညှဉ်းဆဲ	-7.97588
ရမည်	-7.97612
ပါဟု	-7.97774
ကျိုး	-7.97776
ပလ္လင်	-7.97843
▁တပ်	-7.97998
အတွက်	-7.98158
များ၊	-7.98223
▁ဘ	-7.98282
သားတို့သည်	-7.98485
အိပ်	-7.98501
သေး	-7.98572
မက်	-7.98574
အမျက်	-7.98919
▁မျက်နှာ	-7.99162
လျက်နေ	-7.99287
သူတို့	-7.99598
ရွေး	-7.99619
လွှတ်	-7.99961
▁အခြားသော	-8.00088
မြို့သား	-8.00167
ရဲ	-8.00267
လည်း၊	-8.00311
အချို့	-8.00491
ရေး	-8.00702
ယဇ်	-8.01
အဆွေအမျိုး	-8.01256
ဘိ	-8.01348
▁အကျွန်ုပ်သည်	-8.01602
ဏ	-8.01606
ဝန်	-8.01759
ခံရသော	-8.0186
ဲ့	-8.01942
▁စေလွှတ်	-8.02101
▁ခရစ်တော်	-8.02575
▁မူ	-8.02631
ဧ	-8.02968
▁အကျွန်ုပ်ကို	-8.03067
▁ထွက်	-8.03093
ဖြစ်သော	-8.03224
အပေါ်မှာ	-8.03492
တမန်	-8.03528
ပါပြီ။	-8.03891
အသက်ကို	-8.0399
အောက်	-8.03996
ဘွား	-8.04286
▁ဧလ	-8.04664
▁ကြည့်ရှု	-8.04792
ထောက်	-8.0512
တိရစ္ဆာန်	-8.05319
ဖြစ်ကြ၏။	-8.05607
▁မီးရှို့	-8.05628
▁စောင့်	-8.05665
▁ကာလ	-8.05895
ဖြစ်စေ၊	-8.06219
▁တိုက်	-8.06409
ညီအစ်ကို	-8.0646
မခံ	-8.06465
အသွေး	-8.06563
ရလိမ့်မည်။	-8.06684
တော်၌	-8.06822
ဇေ	-8.06908
▁မေ	-8.0701
အကျင့်	-8.0706
မှာထား	-8.07112
မိန်းမ	-8.07524
▁ယဇ်ပလ္လင်	-8.07542
▁ထိုသူသည်	-8.07544
ကန်	-8.07555
ထိုင်	-8.07611
အကြံ	-8.08092
ဒ်	-8.08136
စွဲ	-8.08283
ရကြမည်။	-8.08445
အောက်မေ့	-8.08778
မြင့်	-8.08816
အပေါင်း	-8.08954
▁ဝမ်းမြောက်	-8.0941
ယုံကြည်	-8.09421
ဌာန	-8.09541
▁အာရုန်	-8.09747
ထဲမှာ	-8.09748
ရှိကြ၏။	-8.09753
ခန့်ထား	-8.10068
ချုပ်	-8.10068
▁အရာ	-8.1061
ဝါ	-8.10789
ကာလ၌	-8.11051
မိုက်	-8.11118
ဒေါ	-8.11127
သွင်း	-8.11377
▁ယေရှု	-8.11697
▁ထိုသူတို့သည်	-8.11706
ဘက်၌	-8.11935
နယ်	-8.12007
▁ပြောဆို	-8.12056
ွယ်	-8.12334
▁သန့်ရှင်းသော	-8.12495
နေ့ရက်	-8.1254
တဘက်၌	-8.12867
▁သူတို့၏	-8.1287
▁အိမ်	-8.13302
▁ပြည့်စုံ	-8.13394
▁ဤသူ	-8.13697
ဒုစရိုက်	-8.13758
လာ၍	-8.13879
ခေါ်	-8.14135
ရှောင်	-8.14508
နာမ	-8.14673
လူမျိုး	-8.14677
▁ဆောင်ခဲ့	-8.1512
▁ချီးမွမ်း	-8.15192
မူ	-8.1544
▁ထိုနောက်	-8.15465
ပညတ်	-8.15498
ွား	-8.15508
အမျိုးသားတို့	-8.15805
ပု	-8.16043
နှစ်ယောက်	-8.16081
▁စ	-8.16356
အားကြီး	-8.16629
ကြပါ၏။	-8.16699
▁နောက်	-8.1673
ချမ်းသာ	-8.16771
အရာကို	-8.168
ည်း	-8.17041
စေ။	-8.17081
ခု	-8.17098
ဖြတ်	-8.17117
▁ယဇ်	-8.17161
▁တဲတော်	-8.17233
မော	-8.17314
▁ထင်ရှား	-8.17375
▁????????????	-8.17466
ကျင့်	-8.17748
▁သူတပါး	-8.1776
ဟူ၍	-8.18347
▁အဘယ်သူမျှ	-8.184
▁အမျိုး	-8.18912
?????????	-8.19138
ခြင်းရှိ	-8.19246
▁လူမျိုး	-8.19253
▁ဂိ	-8.1929
တရားကို	-8.20069
သောအမှု	-8.20132
ခြေ	-8.20191
ဆိတ်	-8.20255
အပြစ်ကို	-8.20356
ဏ္	-8.20379
တပ်	-8.20416
▁ဗာဗုလုန်	-8.20656
စမ်း	-8.20756
ခြင်းနှင့်	-8.20811
သော်လည်း	-8.20877
ဒေ	-8.20982
အမျိုးမျိုး	-8.21027
▁စစ်တိုက်	-8.21027
▁ဟောပြော	-8.21044
စင်	-8.21267
▁လေ	-8.21274
▁မင်း	-8.21326
▁ပူဇော်သက္ကာ	-8.21611
တကောင်	-8.21866
ထူး	-8.21868
▁လွှတ်	-8.21983
ဘဲနေ	-8.22021
ပုံ	-8.22163
တန်	-8.22258
ိညာဉ်	-8.2227
စေလွှတ်	-8.22375
▁ဖျက်ဆီး	-8.22582
ပြည်သို့	-8.23095
ပါစေသော။	-8.23212
▁ပြေး	-8.23491
မွေး	-8.23561
▁ခြေ	-8.23575
ထွက်၍	-8.23823
▁ကျင့်	-8.2385
▁တပါးအမျိုးသား	-8.24653
သမျှသော	-8.24663
ေါ	-8.24752
မည်နည်း။	-8.24833
▁ကျေးဇူးတော်	-8.25029
ပေါက်	-8.25232
▁ဆုတောင်း	-8.25455
ပျောက်	-8.25456
သကဲ့သို့၊	-8.26352
လက်မှ	-8.26363
ရှေ	-8.26705
ကြနှင့်။	-8.26761
▁တွေ့	-8.26806
ဖြစ်စေ	-8.26968
ဆောက်	-8.27296
ကြောက်ရွံ့	-8.27363
ညဉ့်	-8.27363
ကိုးကွယ်	-8.2737
ပြည့်စုံ	-8.2737
စပါး	-8.27526
ရှောလမုန်	-8.27749
ပတ်	-8.27828
စည်း	-8.27861
ရွာ	-8.28057
ရှိသမျှတို့ကို	-8.28112
▁ခပ်သိမ်းသော	-8.28137
▁ပြစ်မှား	-8.28294
အတွင်း	-8.2846
ပန်း	-8.28588
ကဲ့ရဲ့	-8.28916
▁အပ်	-8.29079
▁ပညာ	-8.29178
ထင်	-8.29838
မိန့်တော်မူ	-8.30039
နည်းတူ	-8.30257
▁ပြန်ပြော	-8.30311
ကျောက်	-8.30326
ပြား	-8.30491
မြော်လင့်	-8.30494
ပျို	-8.30495
▁အား	-8.30739
ကျင်	-8.30827
ဒဏ်	-8.30892
▁မည်။	-8.30909
နှင့်အညီ	-8.3091
နှလုံး	-8.30949
▁ဘုရားသခင်ကို	-8.31203
▁ယောက်ျား	-8.31324
▁ခမည်းတော်	-8.31369
နက်	-8.31411
▁အိမ်တော်	-8.31477
အဝတ်ကို	-8.31557
လွှဲ	-8.31694
▁နာ	-8.31705
ရကြ၏။	-8.31831
စီ	-8.31941
ဝေ	-8.3195
ဖွဲ့	-8.32098
၌ရှိသော	-8.32463
ဥာဏ်	-8.32502
စေမည်။	-8.32704
▁စိတ်နှလုံး	-8.32877
သိတင်း	-8.32929
မှတပါး	-8.33447
ပြီ	-8.34019
ရှောက်	-8.34044
အံ့	-8.34182
▁ကျွန်ုပ်	-8.34267
နှစ်ဆယ်	-8.34345
သက်သေ	-8.34517
င့်	-8.34607
အခြား	-8.34711
သောသူတို့ကို	-8.34776
ခွက်	-8.34905
တော်မူမည်။	-8.35143
▁ဂေ	-8.35323
စပျစ်ရည်	-8.35384
ိုင်း	-8.35426
▁အရှင်ထာဝရဘုရား	-8.35812
▁ထာဝရဘုရားအား	-8.35874
▁ဆုံးမ	-8.3609
တဆယ်	-8.36106
ရုပ်တု	-8.36222
▁သတိ	-8.3647
ထံတော်သို့	-8.36647
▁ပင်လယ်	-8.36671
ဆေး	-8.36796
ငိုကြွေး	-8.37068
အသရေ	-8.37076
▁ထိုသူတို့	-8.37178
မီး	-8.37214
ကြွင်း	-8.37469
▁လေဝိသား	-8.37493
▁အတိုင်း	-8.37905
▁ယောသပ်	-8.37921
စရာဘို့	-8.3853
တတ်ကြ၏။	-8.38549
ဟုဆို	-8.38642
ချိုး	-8.3879
▁နာမတော်	-8.38831
▁ဗာလ	-8.38838
▁ကောင်းကင်တမန်	-8.3928
မျက်	-8.39476
လောင်	-8.39573
ကျိန်	-8.39677
၌၎င်း၊	-8.39711
ငွေ	-8.39792
ရှက်	-8.4007
ချီးမြှောက်	-8.40085
ဖန်ဆင်း	-8.40314
သည်လည်း၊	-8.40686
ဆင်	-8.40781
ခဲ	-8.40871
ရှိရာသို့	-8.40986
ခြင်းငှါ၊	-8.41284
အစာ	-8.41544
▁ယုဒပြည်	-8.41577
ဖွင့်	-8.41851
လျက်ရှိ၏။	-8.42043
ဖြစ်သတည်း။	-8.42117
ဖြေ	-8.42296
အသီးအသီး	-8.42365
နီး	-8.42494
လောက်	-8.42785
▁ယေရှုသည်	-8.43342
ပါမည်။	-8.43495
▁အဝတ်	-8.44438
ချိန်	-8.44464
တစုံတခု	-8.44561
အံ့သောငှါ	-8.45019
ရိုက်	-8.45039
ချင်	-8.45092
ဆွဲ	-8.45183
▁အကျွန်ုပ်၏	-8.45209
ဗိုလ်	-8.45915
သူရဲ	-8.45933
ကျွေး	-8.45947
တော်မူ၍၊	-8.46106
ရစ်	-8.46154
ချောင်း	-8.46271
ခေါ်၍	-8.464
▁ပရိသတ်	-8.46408
ရွက်	-8.4641
▁ယောရှု	-8.46501
တောင်းပန်	-8.46518
ွဲ	-8.46703
ထမ်း	-8.46826
▁သာ၍	-8.46976
▁သက်သေခံ	-8.4736
ုန်မြို့	-8.47934
▁အနာ	-8.47988
မူကား	-8.48111
သန့်ရှင်း	-8.48248
▁ကိုယ်တိုင်	-8.48353
လာ၍၊	-8.48549
ခုံ	-8.48557
ဒိ	-8.48627
ခတ်	-8.48643
ကွယ်	-8.48879
ထိုက်	-8.49061
▁ထိုမြို့	-8.49107
လက်သို့	-8.49239
အမျိုးအနွယ်	-8.49245
▁တပည့်တော်တို့	-8.49253
▁စုဝေး	-8.49257
▁ဣသရေလအမျိုး၏	-8.50148
▁မူ၏။	-8.50447
▁မတရားသော	-8.50675
▁အာဗြဟံ	-8.50694
ပြည့်	-8.50789
▁??????????	-8.5118
ဖျက်	-8.51183
▁ထွက်သွား	-8.51264
နှင်ထုတ်	-8.51672
▁မိုဃ်းကောင်းကင်	-8.51691
ရာအရပ်	-8.51955
ဖျက်ဆီး	-8.52021
တပည့်	-8.52156
▁နှုတ်ကပတ်တော်	-8.52291
▁သခင်ဘုရား	-8.52364
ပြေး	-8.52467
အော်ဟစ်	-8.5266
ပြန်၍	-8.5298
▁အိုထာဝရဘုရား၊	-8.53161
ရကြလိမ့်မည်။	-8.53268
▁ဟု	-8.53271
တဲ	-8.54014
ဆန့်	-8.54044
ရင်း	-8.54239
ကြလော့ဟု	-8.5452
အုပ်စိုး	-8.54665
ဖုံး	-8.54668
ရိတ်	-8.55056
▁ဝိညာဉ်တော်	-8.5509
ရှေ့၌	-8.55123
ညစ်ညူး	-8.55172
▁အကယ်စင်စစ်	-8.55172
မြည်တမ်း	-8.55173
ရှုံး	-8.55177
▁ငါ့အား	-8.55527
▁ပေါလု	-8.55686
တခု	-8.55694
အရပ်သို့	-8.56032
ချိုင့်	-8.56712
ထဲ၌	-8.56767
▁ထောင်	-8.56832
ခွဲ	-8.57029
ကျိပ်	-8.5723
ကျမ်းစာ	-8.57231
▁နန်းတော်	-8.57236
တော်မမူ	-8.57237
သိုး	-8.57426
ငါ့	-8.57561
နေ၏။	-8.5758
ဗိုလ်ခြေ	-8.57749
ကျန်ကြွင်း	-8.57751
ပါသည်ဟု	-8.57936
▁သင်၏ဘုရားသခင်	-8.58214
ငြင်း	-8.58274
▁သို့မဟုတ်	-8.58424
စိုးရိမ်	-8.588
ပြောင်း	-8.58949
စေနှင့်။	-8.58963
ဥစ္စာကို	-8.59027
လူအပေါင်းတို့သည်	-8.59385
ငှက်	-8.59861
▁အရင်	-8.59867
ရွှင်လန်း	-8.60395
▁အသက်ကြီး	-8.60439
မည်လော။	-8.60502
များပြား	-8.60685
ခင်ပွန်း	-8.60933
တ္တိ	-8.61249
အကြောင်းကို	-8.6163
ပြစ်မှား	-8.61799
လောဟု	-8.62018
▁မောဘ	-8.62038
လုလင်	-8.62117
နည်း။	-8.62476
နှိမ့်ချ	-8.62564
▁ထိုမိန်းမ	-8.62748
နင်း	-8.62985
လေပြီ။	-8.63067
စေဟု	-8.63323
▁ရောက်လာ	-8.63953
ဖြစ်တော်မူ၏။	-8.63974
ဟူသော	-8.64151
▁ဧဖရိမ်	-8.64221
▁စင်ကြယ်	-8.64221
ပယ်ရှင်း	-8.64222
ပညာ	-8.64248
တော်မူလျှင်၊	-8.64438
▁ယုံကြည်ခြင်း	-8.64778
▁ပေတရု	-8.6478
▁ရန်သူတို့	-8.64804
သင်တို့	-8.64835
ထွန်း	-8.65201
▁ငြိမ်ဝပ်	-8.65341
▁မီးရှို့ရာယဇ်	-8.65342
ပဌနာ	-8.65342
အမည်	-8.65421
နွား	-8.65633
ဒါဝိဒ်	-8.65742
ဣသရေလ	-8.65939
ကြလိမ့်မည်ဟု	-8.66139
အိုး	-8.66315
ဖန်	-8.66443
ဆရာ	-8.6692
ပြုစု	-8.66926
ကပ်	-8.66931
ချဉ်းကပ်	-8.67046
မြွက်ဆို	-8.67046
▁ကျိန်ဆို	-8.671
ရကြ။	-8.67484
▁ပြင်ဆင်	-8.67632
အိမ်သို့	-8.67752
မုန်း	-8.67784
အမှုအရာ	-8.67849
တဘက်	-8.68057
ဝိုင်း	-8.68138
ကင်ဗိုလ်ခြေအရှင်	-8.68234
▁သင်တို့အား	-8.6852
ခါး	-8.68607
▁အမျက်တော်	-8.68674
▁သားတော်	-8.68676
စက်	-8.68799
သားကား	-8.69133
▁ဣသ	-8.7002
▁အချင်းချင်း	-8.70546
ပြီးလျှင်	-8.70547
ငြိမ်း	-8.70769
▁များစွာသော	-8.71145
ဆင့်ဆို	-8.71148
▁ကောင်းကြီးပေး	-8.71156
▁ပညတ်တရား	-8.712
အလယ်၌	-8.71233
▁ယုဒရှင်ဘုရင်	-8.71269
ကြွလာ	-8.71469
ပေါ	-8.71516
ခရီး	-8.71653
အစရှိသော	-8.71764
ကျပ်	-8.72278
▁လောကီ	-8.72342
မိန့်တော်မူ၏။	-8.72394
▁ယော်ဒန်မြစ်	-8.72948
တစုံတယောက်	-8.72951
အပေါ်သို့	-8.72982
မှီတိုင်အောင်	-8.73252
ပူဇော်	-8.7327
ခြင်းအမှု	-8.73435
▁စည်းဝေး	-8.73564
▁ဘိုးဘေးတို့	-8.73756
▁မြင်း	-8.73792
မြင်လျှင်၊	-8.74054
ပါစေ။	-8.74064
ကြည့်ရှု	-8.74091
စစ်ကြော	-8.74153
ျဉ်း	-8.74171
အစိုးရ	-8.74171
▁ဝန်ခံ	-8.74203
▁လုယူ	-8.74303
ကူး	-8.74555
ခရိုင်	-8.74693
နှိုးဆော်	-8.74788
ပွင့်	-8.74789
ကင်းလွတ်	-8.74792
ဆောင်ခဲ့	-8.74984
နောက်သို့	-8.75267
မေးမြန်း	-8.75412
စာရင်း	-8.75502
ခိုး	-8.76017
သလောဟု	-8.76446
ရှစ်	-8.76492
▁ယေရှုခရစ်	-8.76663
▁မြည်း	-8.76715
သူအပေါင်းတို့သည်	-8.76938
ထင်ရှား	-8.77459
ဘိုးဘေး	-8.77726
အကျိုးကို	-8.7816
▁မစင်ကြယ်	-8.78574
ခိုင်ခံ့	-8.78574
▁နံနက်	-8.78574
မေတ္တာ	-8.78575
▁ဆောင်ရွက်	-8.78591
▁သိမ်းယူ	-8.78732
ရွံရှာ	-8.79219
▁မောရှေအား	-8.79229
▁ဤအမှု	-8.79281
ဆီသို့	-8.79456
▁မုသာ	-8.79953
အလုံးစုံတို့ကို	-8.80209
အစ်ကို	-8.80252
▁ယုဒအမျိုး	-8.80387
စည်းစိမ်	-8.80605
▁လျ	-8.81031
အလိုငှါ	-8.8118
ဟူ၍၎င်း၊	-8.81508
ယောက်ျား	-8.81791
လျော့	-8.81842
သင်္ချိုင်း	-8.81842
▁သိုးသငယ်	-8.81843
က္က	-8.81931
လိမ့်မည်	-8.82109
မရှိဘဲ	-8.82217
ငှာ	-8.82508
သီချင်း	-8.83169
ခိုလှုံ	-8.8318
စ္စ	-8.83312
▁ပြန်လာ	-8.83773
▁စောင့်ရှောက်	-8.83917
▁ပညာရှိ	-8.84051
စိတ်နှလုံး	-8.84114
▁ဒုစရိုက်ကို	-8.84412
သုံးဆယ်	-8.8484
▁ကြေးဝါ	-8.85221
ဖလား	-8.85229
▁ညီအစ်ကိုတို့	-8.85499
သင်္ဂြိုဟ်	-8.85911
▁သိမ်းသွား	-8.85996
ဆင်ခြင်	-8.86155
အဆွေ	-8.86234
အမည်ရှိသော	-8.86264
ဆင်းရဲ	-8.86421
ဥပုသ်နေ့	-8.86605
စိုက်	-8.86615
▁ရှုရိ	-8.86637
မြို့ရွာ	-8.86852
ရောက်သောအခါ၊	-8.87067
ဗျာဒိတ်	-8.87109
သွန်သင်	-8.87305
▁ရေးထား	-8.87354
တော်မမူ။	-8.87672
သင်္ဘော	-8.88008
လက်နက်	-8.88365
တံခါးဝ	-8.88427
▁ကြီးစွာသော	-8.88721
တောင်ပေါ်မှာ	-8.89097
▁ယုဒလူတို့	-8.89695
▁မှောင်မိုက်	-8.90152
▁ကိုယ်တော်ကျွန်	-8.90497
ကရုဏာ	-8.90732
ထက်သာ၍	-8.90884
မည်နည်းဟု	-8.90984
????????????????	-8.91053
ရွှေ	-8.91061
သမား	-8.91626
▁နိုင်ငံတော်	-8.92188
▁ဖြောင့်မတ်ခြင်း	-8.92342
▁ကောင်းကင်ဘုံ	-8.92342
▁ဧဒုံ	-8.92342
ဝယ်	-8.92359
တထောင်	-8.92368
အပေါ်၌	-8.92827
▁ဖြောင့်မတ်သောသူ	-8.93083
ငါးဆယ်	-8.93311
လျောက်	-8.93462
ယေရှု	-8.9352
▁အထက်က	-8.93666
ရသောအခွင့်	-8.9377
ဒုက္ခ	-8.93828
လက်ထက်	-8.94031
ကျယ်	-8.94224
ဥယျာဉ်	-8.94549
▁ယောဟန်	-8.94581
▁ဣသရေလရှင်ဘုရင်	-8.94866
▁ထမြောက်	-8.95651
ထာဝရ	-8.95712
မှားယွင်း	-8.96101
▁မနာရှေ	-8.96103
ဘာသာ	-8.96108
အကြောင်းအရာ	-8.96178
▁ယေရှုကလည်း၊	-8.96348
▁မကောင်းသော	-8.96464
အလုံးအရင်း	-8.9687
ကွဲပြား	-8.96871
သော်၎င်း၊	-8.97175
▁ဖိလိတ္တိ	-8.9735
လွန်ကျူး	-8.97646
▁ယဇ်ပူဇော်	-8.97686
▁ဖိလိတ္တိလူတို့	-8.97942
ကြံစည်	-8.98427
သေတ္တာ	-8.98914
ကွာ	-8.9896
▁???????	-8.99025
ဆီးတား	-8.99214
▁နက်ဖြန်	-8.99222
ပူဇော်သက္ကာ	-8.99503
နှောင့်ရှက်	-9.00008
ယွာဘ	-9.00008
▁အလျင်အမြန်	-9.00008
နံ့သာ	-9.00008
▁မတရားသောသူ	-9.00357
ဖြူ	-9.00813
▁ထိုမှတပါး၊	-9.00826
မြည်	-9.01226
ချီးမွမ်း	-9.01281
နားထောင်	-9.01283
သတ္တဝါ	-9.01615
ပတ်လည်၌	-9.01619
သတို့သမီး	-9.0162
▁ဘော်ပြ	-9.02616
▁ယေရမိ	-9.03252
▁ထိုအမှု	-9.03979
စိုးစံ	-9.04073
သွန်းလောင်း	-9.04073
ဟေဇကိ	-9.04074
မျက်မှောက်	-9.04074
ရွေးကောက်	-9.04074
အမည်ဖြင့်	-9.04214
ရေတွက်	-9.04907
ဝမ်းမြောက်	-9.04934
▁ဗက်	-9.05279
ကုလားကာ	-9.05747
ထည့်	-9.05759
▁ပညတ်တော်	-9.06251
လွှမ်းမိုး	-9.06595
▁ဘွားမြင်	-9.0668
▁သေတ္တာတော်	-9.06924
လွင်ပြင်	-9.07449
▁ပရိသတ်စည်းဝေးရာ	-9.07449
▁သီချင်းဆို	-9.07465
တုန်လှုပ်	-9.08311
ဩဝါဒ	-9.09181
နန်းစံ	-9.09181
ပြပ်ဝပ်	-9.09181
ရှုတ်ချ	-9.09184
ပကတိ	-9.09189
▁စစ်သူရဲ	-9.09192
▁ဘောဇဉ်	-9.10058
ညည်းတွား	-9.10058
သွေးဆောင်	-9.10058
ပရောဖက်	-9.10675
▁ပဌမ	-9.10944
မှူးမတ်	-9.10944
တကားဟု	-9.11865
နှင့်ဆိုင်သော	-9.11996
မှည့်	-9.12744
▁ဗျာဒိတ်တော်	-9.12989
ပ္ပ	-9.13044
နှုတ်ကပတ်	-9.13415
▁ဒုတိယ	-9.13646
စေခြင်းငှာ	-9.13652
ကိုးစား	-9.13788
▁မှာထားတော်မူ	-9.14361
▁အရေဖျားလှီး	-9.14563
ခိုင်မာ	-9.14563
▁အလိုရှိ	-9.14876
အလုံးစုံ	-9.15021
ဌ	-9.15138
ဆိတ်ညံ	-9.1549
▁ချက်ခြင်း	-9.15647
▁မာန	-9.16348
အိပ်ပျော်	-9.16424
လျင်	-9.16445
သောစိတ်နှင့်	-9.16491
ယုဒ	-9.17329
ဗတ္တိဇံ	-9.17367
ချည်နှောင်	-9.17367
▁အံ့ဩ	-9.17367
ညွတ်	-9.17369
ချွတ်	-9.17374
▁ဗင်္ယာမိန်	-9.17946
▁အချည်းနှီး	-9.1832
တရှောက်လုံး	-9.18321
အသေကောင်	-9.1835
▁ကရုဏာတော်	-9.1851
လျှော	-9.20115
ဧဝံဂေလိတရား	-9.20252
▁ရှမွေလ	-9.20252
▁သမ္မာ	-9.20253
▁ခရီးသွား	-9.20407
ခမည်းတော်	-9.21046
▁တိတ်ဆိတ်စွာ	-9.21232
▁မိန့်တော်	-9.21672
ငြိမ်	-9.22843
မည်သည်ကား	-9.22956
▁အဘိုး	-9.23226
ရိုသေ	-9.23242
အကျွန်ုပ်	-9.23248
ညှိ	-9.23503
▁အသေခံ	-9.23603
▁အကြင်သူသည်	-9.24233
▁ဒဏ်ခတ်	-9.24238
ကောင်းကင်	-9.24344
ဘုရင်	-9.25194
ထုံးဖွဲ့	-9.25253
ခိုက်	-9.25266
ဂုဏ်အသရေ	-9.25374
သည်တကား။	-9.26284
▁ကယ်နှုတ်	-9.27345
▁နန်းထိုင်	-9.28379
ဆက်ဆံ	-9.28381
▁တပြည်လုံး	-9.28381
ဖျား	-9.28382
အပြစ်ဖြေရာ	-9.28385
▁ငှါ	-9.29297
ဘမ်းဆီး	-9.29442
လျှာ	-9.29443
▁ထာဝရဘုရားမိန့်	-9.29605
▁အစဉ်မပြတ်	-9.30517
▁ဖာရိရှဲ	-9.31604
သားမြေး	-9.31667
▁ဂိလဒ်ပြည်	-9.32703
ကျိန်းဝပ်	-9.34938
▁အကုန်အစင်	-9.34938
▁မြေမှုန့်	-9.34938
▁နတ်ဆိုး	-9.34938
မေ့လျော့	-9.34939
အရိပ်	-9.35024
▁အချင်းလူသား၊	-9.36074
အိမ်နီးချင်း	-9.36075
အပ်နှံ	-9.36078
အဘယ်သို့	-9.3638
နိမိတ်လက္ခဏာ	-9.37224
ပြည်သူပြည်သား	-9.37224
သုံးယောက်	-9.37227
ထမ်းဘိုး	-9.38387
ပျက်စီးခြင်းသို့	-9.38387
စပျစ်ဥယျာဉ်	-9.38435
ဗ္ဗ	-9.38483
▁ဖာရောဘုရင်	-9.39563
▁ယေရောဗောင်	-9.39563
▁ဧည့်သည်	-9.39563
▁ရှက်ကြောက်	-9.39563
▁အာဟပ်	-9.39565
စို့	-9.39575
တဝက်	-9.39599
လွှင့်	-9.40753
▁ယောနသန်	-9.40753
ကျွမ်း	-9.40758
လည်ပင်း	-9.40759
ရွေ့	-9.40767
နိုး	-9.40807
စပျစ်သီး	-9.409
အရပ်ရပ်တို့	-9.41027
▁ရဲရင့်	-9.41958
တဘက်တချက်	-9.41959
▁အာမောရိ	-9.41959
▁သို့ပြုလျှင်	-9.41996
ကြကုန်အံ့။	-9.43178
ခေါ်ဝေါ်	-9.43178
တံဆိပ်	-9.43178
▁ဆင့်ဆိုရမည်မှာ၊	-9.43178
▁ငြိမ်သက်ခြင်း	-9.43178
ရူပါရုံ	-9.44412
အစွမ်းသတ္တိ	-9.44412
▁ရုဗင်	-9.44412
တော်မမူပါနှင့်။	-9.44413
▁အခြားတပါးသော	-9.44413
▁နို့	-9.44419
ဒ္ဒ	-9.4457
▁ဧလိရှဲ	-9.45662
အလိုအလျောက်	-9.45663
▁ထို့ကြောင့်	-9.4568
မှီဝဲ	-9.4693
ဖြန့်	-9.48197
ဒံယေလ	-9.4821
ယောရှဖတ်	-9.4821
▁ကျိန်ဆဲ	-9.4821
▁မထီမဲ့မြင်ပြု	-9.4821
▁သတ္တမ	-9.48215
ထုံးစံ	-9.49509
▁နက်နဲ	-9.49509
အစဉ်အဆက်	-9.49516
ဆံပင်	-9.49517
ဤ	-9.49696
ပျော်မွေ့	-9.50825
ိဖုရား	-9.52158
မြဲမြံ	-9.52158
သခင်ယေရှုခရစ်	-9.52158
လှံတံ	-9.5216
▁အမှီပြု၍	-9.52162
▁အလျှင်းမ	-9.5223
စိမ်း	-9.53357
အကြီးအကဲ	-9.53509
▁ရှေ့ဦးစွာ	-9.53509
လက်ဝါးကပ်တိုင်	-9.5351
ဩ	-11.0284
ဃ	-11.0285
ဦ	-11.0286
ဉ	-11.0287
၎	-11.0288
?	-11.0289
