<pad>	0
</s>	0
<unk>	0
,	-3.00164
᙮	-3.43511
▁	-3.73041
▁ᑕᔥ	-3.98947
▁ᑲᔦ	-4.00284
▁ᒦ	-4.19402
ᓐ	-4.50643
ᒡ	-4.5701
:	-4.65723
▁ᐁ	-4.67778
▁ᑳᐐᓐ	-4.69017
▁ᐃᐃ	-4.71807
▁ᑳ	-4.74856
▁ᒋ	-4.79553
ᑕᔥ	-4.89923
▁ᐃᑕᔥ	-4.92291
▁ᓴ	-4.99848
▁ᐃᐃᒫ	-5.01572
▁ᐁᑮ	-5.04449
ᒃ	-5.08642
▁ᑭᔐᒪᓂᑑ	-5.09961
▁ᐃᓂ	-5.13244
▁ᑳᑮ	-5.24943
▁ᑲᑭᓇ	-5.25753
▁ᐊᐊ	-5.28435
ᐙᒡ	-5.29508
▁ᐊᐲ	-5.31142
▁ᒋᓴᔅ	-5.32296
▁ᑳᐃᔑ	-5.36924
ᓂ	-5.37246
▁ᐃᑭ	-5.39918
▁ᐐᓐ	-5.39994
▁ᐅᑮ	-5.43515
▁ᑮ	-5.46473
ᓂᒡ	-5.56997
▁ᐋᓃᔥ	-5.5782
▁ᐅᐅ	-5.61306
▁ᐊᐎᔭ	-5.6147
?	-5.63238
▁ᐅ	-5.64179
▁ᐁᔑ	-5.76649
▁ᑭᔐᒪᓂᑑᓐ	-5.77754
ᔥ	-5.78212
ᑳ	-5.83914
!	-5.86217
ᑯ	-5.90193
▁ᑫᑰᓐ	-5.90544
▁ᐋᓃᓐ	-5.91929
ᐗᒃ	-5.9242
▁ᑮᔥ	-5.9411
ᐱᓐ	-5.94244
▁ᑭ	-5.95901
ᕽ	-5.96667
▁ᑫ	-5.99296
▁X	-6.01375
ᐎ	-6.04649
ᑭ	-6.04853
▁ᐃ	-6.04953
▁ᑭᑲ	-6.07353
▁ᐃᑯ	-6.07546
▁ᒦᔥ	-6.08723
▁ᑕ	-6.13509
ᑲ	-6.14341
▁ᑖᐱᔥᑰ	-6.16686
▁ᑮᓇᐙ	-6.18058
▁ᓃᓐ	-6.18982
ᐞ	-6.19468
▁ᓂ	-6.21563
ᒻ	-6.22383
ᔦᒃ	-6.2481
▁ᐋᔕ	-6.28001
ᐙ	-6.29252
▁ᐯᔑᒃ	-6.29366
▁ᐁᑕ	-6.29763
ᓈ	-6.30305
ᓯ	-6.31613
▁ᒦᓇᐙ	-6.33155
▁ᐊᑮᕽ	-6.33838
▁ᐌᑎ	-6.33866
ᐃ	-6.3522
▁ᐃᓂᓂ	-6.36661
ᒥ	-6.36946
▁ᐃᔑ	-6.37072
▁ᐅᑲ	-6.39031
▁ᐃᐌ	-6.39311
▁ᐐ	-6.39745
ᑎ	-6.43071
ᑕ	-6.43514
ᔑ	-6.44451
▁ᑳᑮᐃᔑ	-6.44571
ᓰ	-6.44812
ᑖ	-6.44822
ᒫ	-6.4572
ᐱ	-6.4588
▁ᐃᒫ	-6.4919
▁ᐁᐐ	-6.52945
▁ᑫᑯ	-6.53055
ᒋ	-6.54754
ᓇ	-6.54871
▁ᐃᐃᐌ	-6.55744
▁ᑳᐅᒋ	-6.56987
ᐸ	-6.5747
▁ᐅᒋ	-6.58683
▁ᐁᑳ	-6.59598
▁ᑳᔑ	-6.61482
▁ᐅᔕ	-6.61811
▁ᑭᒋ	-6.62049
ᔭᓐ	-6.63345
▁ᐊᐌ	-6.63554
▁ᓂᑮ	-6.65053
▁ᐃᓇ	-6.65318
▁ᒋᓴᓲᓐ	-6.65614
▁ᓅᑯᒻ	-6.6664
▁ᐄᑐᒃ	-6.6664
▁ᐯᔑᑾᓐ	-6.67657
▁ᑯᑕᒃ	-6.69274
ᒡ᙮	-6.70799
ᔅ	-6.70956
▁ᔑᑾ	-6.71573
▁ᑌᐺ	-6.71842
▁ᐋᐱᒋ	-6.71908
ᐗᓐ	-6.72283
▁ᑮᓐ	-6.72729
▁ᑯ	-6.7344
▁ᐊ	-6.73722
ᐎᓐ	-6.79281
▁ᐅᐌ	-6.8097
▁ᐅᐅᒫ	-6.81242
▁ᑳᑎᐯᒋᑫᒡ	-6.81572
ᔮᓐ	-6.82182
ᑌ	-6.84577
ᒪ	-6.85362
▁ᑭᑮ	-6.85589
▁ᐱᑯ	-6.85829
▁ᐐᑫ	-6.86193
ᓄ	-6.86341
▁ᐊᐌᓀ	-6.87017
ᓂᒡ᙮	-6.8824
ᐌ	-6.90726
▁ᒫᐗᒡ	-6.90851
ᐙᒡ᙮	-6.91405
▁ᒥᓯᐌ	-6.92262
ᐅ	-6.93765
▁ᐊᐊᐌ	-6.93842
ᐙᓐ	-6.95495
▁ᓂᑲ	-6.95824
ᓀ	-6.96833
▁ᐅᐅᐌ	-6.98265
ᐸᓐ	-6.98521
ᑫ	-7.00157
ᐊ	-7.00238
▁ᑕᑲ	-7.01041
▁ᑳᑮᐅᒋ	-7.01594
▁ᑾᔭᒃ	-7.02525
ᐲ	-7.03318
▁ᑫᔮᐱ	-7.03913
▁ᓇᐗ	-7.03917
▁ᑫᐅᒋ	-7.05557
ᒥᓐ	-7.05974
▁ᐌᒋ	-7.06308
▁ᑮᐃᔑ	-7.07018
▁ᑳᐐ	-7.07078
▁ᒨᔕᒃ	-7.07226
▁ᒣᒀ	-7.07594
ᓈᓐ	-7.09447
▁ᑮᐃᑭᑐ᙮	-7.10057
▁ᐁᑮᐃᔑ	-7.11145
▁ᐅᑮᐃᓈᐞ᙮	-7.11377
▁ᐗᐊ	-7.1168
▁ᒋᐅᒋ	-7.12496
▁ᐃᓇᔥᑫ	-7.13182
▁ᑫᔑ	-7.13545
▁ᐆᑌᓈᕽ	-7.14053
ᐋ	-7.1408
ᒀ	-7.14171
▁ᓃᐱᐗᐞ	-7.14281
▁ᐌᑯᓀᓐ	-7.1552
ᔮᕽ	-7.16936
▁ᐊᐎᔭᒃ	-7.18014
▁ᐊᐗᔑᒣ	-7.18442
ᐊᔮ	-7.19258
▁ᑭᔐᒪᓂᑑᓐ᙮	-7.19862
ᓇᓐ	-7.20857
ᓯᒃ	-7.21389
ᐗ	-7.22147
▁ᑮᐃᑭᑐ	-7.22184
▁ᐅᑮᐃᓈᓐ᙮	-7.23076
▁ᐅᓄ	-7.23325
▁ᐋᓂᑕ	-7.23387
ᑮ	-7.23635
ᔭᕽ	-7.2401
▁ᑮᐊᓂ	-7.24018
ᔮ	-7.24458
▁ᒪᔮ	-7.26276
▁ᐅᑭᑭᓄᐊᒪᐙᑲᓇᐞ	-7.26494
ᑑ	-7.27665
ᑾ	-7.31251
ᓭ	-7.3197
▁ᐊᐎᔭᓐ	-7.31983
▁ᐅᑯᓯᓴᓐ	-7.33357
▁ᐯᒫᑎᓯᐙᒡ	-7.33358
▁ᐊᐎᔭᐞ	-7.34504
ᑭᓐ	-7.35659
ᒃ᙮	-7.3622
▁ᐯᒫᑎᓯᓂᒡ	-7.37354
▁ᓇ	-7.37541
▁ᐃᑴ	-7.37644
▁ᐁᐃᔑ	-7.39475
▁ᐁᐊᓂ	-7.39706
▁ᐲᓂ	-7.39745
▁ᑆᓬ	-7.40005
▁ᑭᒋᑮᔑᑯᕽ	-7.40038
▁ᑳᐃᓈᒡ	-7.4005
▁ᐅᑯ	-7.40701
ᓴ	-7.41604
▁ᐱ	-7.41732
▁ᐊᒦ	-7.43477
▁ᐸᑳ	-7.43534
ᒦ	-7.43816
ᐯ	-7.43979
▁ᒎᐗᒃ	-7.44052
▁ᑫᑰᓂᓂ	-7.44055
ᓂᒃ	-7.44106
▁ᒥᓂᒃ	-7.44298
ᔦᒃ᙮	-7.45077
▁ᑫᑰᓇᓐ	-7.45459
▁ᐃᓴ	-7.4641
▁ᐃᓇᑫ	-7.47101
ᐎᓂᕽ	-7.47132
▁ᐊᔮ	-7.48419
ᒫᒃ	-7.48929
▁ᐋᑎ	-7.49151
▁ᐲᑕᕒ	-7.50507
▁ᓂᑕᒻ	-7.50672
▁ᑎᓄ	-7.50745
ᑴ	-7.51374
ᐹ	-7.51676
ᐐ	-7.51903
ᐌᓂᐗᒃ	-7.51952
ᔭ	-7.52041
▁ᑮᐅᒋ	-7.53218
▁ᒋᓴᓲᓐ᙮	-7.53695
ᑣ	-7.54818
▁ᔐ	-7.54833
▁ᒫ	-7.55091
▁ᑫᐐ	-7.5574
ᐌᐌᓂ	-7.56647
▁ᒋᐃᔑ	-7.58055
▁ᐅᑕᒑᑾᓐ	-7.58157
ᓃ	-7.58276
ᐙᐞ	-7.5871
ᓯᒀ	-7.59711
ᓱ	-7.60121
▁ᑯᒫ	-7.60229
▁ᒞᓐ	-7.60663
▁ᐅᑮᐃᔑ	-7.60843
ᒥᓐᒡ	-7.61058
ᑕᓐ	-7.61117
ᐗᐞ	-7.61754
;	-7.62319
▁ᐹᓂᒫ	-7.62319
▁ᒉᕒᐆᓴᓬᐊᒥᕽ	-7.62359
▁ᐃᓂᓂᐗᓐ	-7.62985
▁ᐃᐃᐌᓂ	-7.63064
▁ᑳᑎᐯᒋᑫᓂᒡ	-7.63264
ᑐ	-7.63481
▁ᒦᐃ	-7.63987
▁ᑭᑖ	-7.65224
ᐗᒃ᙮	-7.65442
▁ᐃᑭᑐ	-7.666
▁ᒦᓴ	-7.66739
ᒣᒃ	-7.66854
ᔥᑭ	-7.67009
▁ᐅᑌᐺᑕᒨᒃ	-7.67566
ᐱᒫᑎᓯ	-7.68251
▁ᐐᓇᐙ	-7.68343
ᓵ	-7.69149
▁ᐅᓇᔓᐌᐎᓐ	-7.69652
▁ᑳᐱ	-7.70277
▁ᑳᑮᐱ	-7.70978
ᓅ	-7.71741
▁ᑫᑮᓇᐙ	-7.72878
ᑫᒃ	-7.73329
ᔕ	-7.73432
▁ᐊᓂ	-7.73835
ᓀᒃ	-7.74091
▁ᐅᑮᐃᓈᐞ	-7.74365
▁ᐅᑮᐃᓈᓐ	-7.74504
ᓰᓐ	-7.75691
ᓯᐌᒃ	-7.76166
▁ᒎᐗᐞ	-7.76258
▁ᐃᓂᓂᐗᒃ	-7.76494
▁ᐅᑮᐃᑰᓐ᙮	-7.77471
ᓂᓂᒃ	-7.78112
ᐌᒃ	-7.78635
ᐗᕽ	-7.79211
▁ᑮᐊᔮ	-7.7922
▁ᓃᓇᐎᓐᑦ	-7.79595
▁ᐁᑮᐃᓈᒡ	-7.79596
ᑰᓐ	-7.79628
ᒋᑫ	-7.8061
ᑭᐸᓐ	-7.80614
ᑰ	-7.81215
ᓐ᙮	-7.82437
ᑦ	-7.83515
▁ᐋᓇᐐ	-7.83671
▁ᑫᐃᔑ	-7.84245
▁ᑮᓇᐎᓐᑦ	-7.84686
▁ᒋᑮ	-7.85235
▁ᑲᑴ	-7.85592
▁ᐁᑮᐊᓂ	-7.86089
▁ᐋᓇ	-7.8612
▁ᐯᐸᑳ	-7.86456
ᒧ	-7.87028
▁ᐅᑭᒋ	-7.88524
ᐋᒡ	-7.88536
ᑭᒋ	-7.89525
▁ᒪᒋ	-7.89979
▁ᓂᑖ	-7.90789
▁ᒋᑆ	-7.91358
▁ᑳᑕᔑ	-7.91529
ᑕᐎ	-7.92485
▁ᑳᑭᒋ	-7.92731
ᓯᓂᒃ	-7.92983
ᐎᓂᓂ	-7.93128
ᐎᓇᓐ	-7.93213
▁ᑮᐱ	-7.94306
ᒪᔑ	-7.94591
▁ᐁᐱ	-7.94782
ᒨ	-7.94883
▁ᐋ	-7.94929
ᔮᓐ᙮	-7.95433
ᒌ	-7.95496
▁ᑭᑎᔑ	-7.95693
▁ᒨᓯᔅ	-7.95716
ᑾᒃ	-7.95776
▁ᑖ	-7.95793
▁ᐊᑭ	-7.95879
▁ᑳᐊᔮᐙᒡ	-7.96363
ᓃᔑᓐ	-7.97195
▁ᐱᒫᑎᓯᐎᓐ	-7.97248
ᔒ	-7.97352
▁ᒥᓍᒋᒧᐎᓐ	-7.98398
▁ᔖᑰ	-7.98544
▁ᐅᑖ	-7.99006
▁ᑌᐯᒋᑫᔭᓐ	-7.99277
ᐐᒋ	-8.01259
ᑮᐅᑌᑌ	-8.01284
▁ᓂᑌᑌ	-8.01763
ᕒ	-8.02258
ᑌᐺ	-8.02456
▁ᒋᐱ	-8.03189
ᑴᓐ	-8.03333
ᓰᒻ	-8.03589
ᑕᒧᐙᒡ	-8.03632
ᓂᕽ	-8.03898
ᓰ᙮	-8.0392
ᑕᑯ	-8.04019
▁ᑭᒋᐅᑭᒫ	-8.04128
▁ᐃᓂᐌᓂᐗᐞ	-8.04356
ᓂᑯ	-8.04749
▁ᐁᑮᐅᒋ	-8.0518
ᓈᐙ	-8.05314
▁ᐊᔮᓂᒡ	-8.06691
▁ᑫᐐᓇᐙ	-8.06805
▁ᐊᑮᕽ᙮	-8.06857
▁ᑮᐃᔖ	-8.07011
ᔖ	-8.07205
ᑯᒡ	-8.07301
ᓂᓂ	-8.07426
▁ᐃᔑᒋᑫ	-8.08151
▁ᓈ	-8.08166
ᒧᐙᒡ	-8.08205
▁ᐁᑮᐱ	-8.08334
ᓇᕽ	-8.08607
ᒥᓂᒡ	-8.09198
ᔥᑲ	-8.09552
▁ᑮᐌ	-8.09752
▁ᐅᑕᒑᑯᓂ	-8.10195
ᑲᑴ	-8.10286
ᓰᐗᒃ	-8.10524
▁ᐁᒐᓬ	-8.1078
▁ᑫᓃᓐ	-8.10796
▁ᐄᓴᓐ	-8.108
▁ᐁᐅᒋ	-8.11386
▁ᐸᑮ	-8.1222
▁ᑳᐃᔥᒀ	-8.12724
ᒪᓐ	-8.1291
▁ᐅᑮᐃᑰᐞ᙮	-8.13073
ᒪᒋ	-8.13278
ᑕᕽ	-8.13421
▁ᐱᓵᓐ	-8.13542
ᑖᓐ	-8.14007
ᐎᓂ	-8.14725
▁3	-8.15039
▁ᑮᑭᒋ	-8.15278
▁ᐅᒫ	-8.1532
▁ᑕᔑ	-8.1541
ᐙᒃ	-8.15458
ᐲᐎ	-8.15998
ᑎᓄᐎ	-8.16209
▁ᑳᐃᑭᑐᒡ	-8.16648
▁ᐯᔓ	-8.16722
ᒫᓐ	-8.17024
▁ᑭᒋᒪᓯᓇᐃᑲᓐ	-8.17823
▁ᐅᑖᓈᕽ	-8.1783
ᐤ	-8.17977
ᐳ	-8.18114
ᓇᐃ	-8.18394
ᐅᒋ	-8.18498
▁ᐅᑎ	-8.18633
▁ᐃᓈᑯᓂᑫᐎᓐ	-8.18901
▁ᑭᒋᐊᓇᒥᐁᐎᑲᒥᑯᕽ	-8.18928
ᓅᒋᑯ	-8.19384
▁ᑭᑭᓄᐊᒪᐙᑲᓇᒃ	-8.19412
ᑕᒪ	-8.19503
▁ᐅᑭᑭᓄᐊᒫᑫ	-8.19536
▁ᓇᑫ	-8.19978
▁ᐙ	-8.20093
▁ᑳᐃ	-8.20474
▁ᐃᓀᑖᑯᓯ	-8.20601
ᓈᑯᓯ	-8.20888
▁ᒣ	-8.20933
ᓅᑕ	-8.21107
ᑕᔑ	-8.21542
ᕽ᙮	-8.21557
▁ᑫᑳ	-8.21939
ᓀᒀ	-8.22221
▁ᒞᓇᓐ	-8.22274
▁ᒦᒋᒻ	-8.22296
▁ᐁᑭᒋ	-8.22435
ᑯᐸᓀᓐ	-8.23504
▁2	-8.2398
ᐎᓐ᙮	-8.23997
▁ᐅᑮᐅᒋ	-8.24369
▁ᑮᐃᑭᑐᐗᒃ᙮	-8.24614
ᒪᕽ	-8.25331
▁ᐃᓂᓂᐗᐞ	-8.25916
ᔭᓐ᙮	-8.26501
▁ᐅᑌᐺᑕᒨᐞ	-8.2688
▁ᒫᒌ	-8.26883
▁ᑫᒋᓈᒡ	-8.26956
ᒥᓄ	-8.2739
ᒦᓈᒡ	-8.28515
ᐴ	-8.28965
ᑕᐌ	-8.28989
▁ᐋᓃ	-8.28992
▁ᑲ	-8.29104
ᐗᒡ	-8.29127
▁ᑳᐃᑯᒡ	-8.29232
▁ᑳᑭᑭᓄᐊᒫᑫ	-8.29249
▁ᑕᑯ	-8.29298
▁ᒥᓴᐙ	-8.30183
ᐸᒥ	-8.30259
▁ᐁᔑᓈᑾᒃ	-8.30355
ᐗᓂ	-8.3072
▁ᑳᓂᑖ	-8.30805
▁ᑭᑎ	-8.31365
▁ᑫᑮ	-8.31552
▁ᐁᐲᒋ	-8.32244
▁ᑮᔑᒃ	-8.32884
ᒪᐎ	-8.33408
▁ᐃᔥᐱᒥᕽ	-8.3353
▁ᓵᐃᒪᓐ	-8.33534
ᓂᓂᒻ	-8.33706
ᓭᒃ	-8.34352
▁ᐁᐸᕒᐊᐋᒻ	-8.35247
▁ᐋᓂᓐᑦ	-8.35247
▁ᒥᑖᔂᒃ	-8.35405
ᑕᒥᓂᒡ	-8.35496
▁ᑳᑕᔑᔦᒃ	-8.35922
ᓃᕽ	-8.36352
ᓴᓐ	-8.36483
▁ᐃᓂᐌᓂᐗᓐ	-8.36996
ᑫᓐ	-8.3704
ᒣ	-8.37319
▁ᐅᑮᐃᑰᓐ	-8.37383
ᒪᒃ	-8.37413
▁ᐃᔥᒀᒡ	-8.37452
▁ᐃᓈ	-8.37455
▁ᐃᑴᐗᓐ	-8.37555
ᓈᐙᓐ	-8.3778
ᓈᐱ	-8.37949
▁ᓃ	-8.38052
▁ᐱᒫᑎᓯ	-8.3809
ᐙᐸᒫᒡ	-8.38226
ᑳᓱ	-8.38982
▁ᑳᐊᓂ	-8.39056
ᑑᓐ	-8.3931
▁ᐁᑕᔑ	-8.39328
ᐃᔑ	-8.39527
▁ᐸ	-8.39661
▁ᐅᑮᐱ	-8.39974
ᑑᒡ	-8.40189
ᓯᕽ	-8.40407
▁ᒣᐎᔕ	-8.40582
▁ᒫᐐᓐ	-8.40583
▁ᑭᔐᒪᓂᑑ᙮	-8.40664
▁ᐱᓵᓂ	-8.40937
▁ᐃᔑᐲᐃᑳᑌ	-8.4094
▁ᐅᑕ	-8.41515
ᓯᐙᓐ	-8.41632
▁ᑭᐐ	-8.41881
ᐞ᙮	-8.41972
ᓰᒥᓐ	-8.42274
▁ᐅᓵ	-8.42393
▁ᑎᐱᓇᐌ	-8.42418
▁ᐌ	-8.42933
ᐙᐱ	-8.43222
ᑲᓐ	-8.43253
ᑰᔦᒃ	-8.43266
ᐊᓄᑮ	-8.43503
ᐐᒌᐙ	-8.43693
▁ᔔᓂᔮᓐ	-8.43831
ᑕᒪᐙᒡ	-8.44127
▁ᑳᒎᐎᐎᓯᒀ	-8.4432
ᑲᓂᐎ	-8.44336
▁ᐅᐅᐌᓂ	-8.44497
▁ᐯᕒᐊᓰᒃ	-8.44501
▁ᐁᑮᐃᑭᑐᒡ	-8.44546
ᒻ᙮	-8.45708
▁ᓂᐱ	-8.45788
ᑭᑭ	-8.46485
▁ᐐᐸ	-8.47218
▁ᑌᐺᐎᓐ	-8.4748
▁ᒋᓂ	-8.47527
▁ᐲ	-8.47926
▁ᐋᐱᑎᕽ	-8.48168
▁ᐹᐃᓬᐊᑦ	-8.48168
▁ᐅᒋ᙮	-8.48248
▁ᑭᐐᑕᒪᐎᓂᓂᒻ	-8.48261
ᐐᒌ	-8.48421
ᓂᑭᓐ	-8.4865
▁ᐃᔖ	-8.48735
▁ᑳᐅ	-8.48824
▁ᐃᑴᐗᒃ	-8.49239
▁ᐊᐙᒡ	-8.49429
▁ᒥᓄ	-8.49533
▁ᑮᔑᑲᓂᓂᒃ	-8.49797
ᑯᓈᓐ	-8.49877
ᑭᑭᓄᐊᒫᑫ	-8.50038
▁ᐅᑑ	-8.50061
ᔑᓐ	-8.50069
ᓐᒡ	-8.50132
▁ᐅᓄᐌᓂᐗᓐ	-8.50158
▁ᐱᔑᔑᒃ	-8.50158
ᑑᐙᒡ	-8.50332
ᓇᑰᒃ	-8.50525
ᑰᒻ	-8.50691
▁ᐆᑌᓇ	-8.50763
▁ᐯ	-8.50961
ᓯᓅᓐ	-8.51027
ᓵᑭᐃ	-8.5128
ᓈᓂᒃ	-8.52025
ᑯᐙ	-8.52054
▁ᐅᒫᒫᓐ	-8.52235
▁ᓃᔣᓱ	-8.5246
▁ᑳᐊᐲᒋ	-8.52654
▁ᐃᔑᓭᒃ	-8.52845
ᓂᓐᒡ	-8.5285
ᔦᑭᐸᓐ	-8.52928
ᒫᒡ	-8.53145
▁ᐌᑯᓀ	-8.53148
▁ᐁᓂ	-8.53434
ᓍ	-8.5399
▁ᓂᑎᔑ	-8.54235
ᒬ	-8.54261
▁ᒫᑭᔖ	-8.54262
▁ᒣᕒᐃ	-8.54268
▁7	-8.543
ᒋᑳᑌᒃ	-8.54368
▁ᐁᑮᐃᑯᒡ	-8.54878
▁ᐁᑕᓱ	-8.54894
ᔮᕽ᙮	-8.55009
ᑾᔭᑯ	-8.55218
ᓅᓐ	-8.56193
▁ᑕᐅᒋ	-8.56194
▁ᑭᑑᒋ	-8.56335
ᓂᑖᐎᑭ	-8.56363
▁ᑆᓬᐊᓐ	-8.56398
▁ᐲᑎᑫ	-8.56447
ᐸᑕ	-8.56569
ᑕᒪᐙ	-8.56592
▁ᐁᑮᐊᐎ	-8.56785
▁ᓂᐐ	-8.57356
ᑕᒣᒃ	-8.575
ᓈᑾᓂᓂᒃ	-8.57527
ᑭᓯ	-8.57535
▁ᐹ	-8.57956
▁ᔔᓂᔮ	-8.58084
ᑉ	-8.58537
▁ᐁᐃ	-8.58648
▁ᐅᔑ	-8.58935
ᐃᑯᒡ	-8.5962
ᔦ	-8.59904
ᒥᒡ	-8.60114
▁ᒦᐃᐌ	-8.60134
ᓂᔑ	-8.60159
▁ᐊᐌᓀᓇ	-8.60366
▁ᒪᒋᐊᒑᑾᓐ	-8.6075
▁ᔑᒫᑲᓂᔕᒃ	-8.6075
▁ᐌᔫᓯᒥᓐᒡ	-8.60756
▁ᑲᓇᑫ	-8.60761
▁ᐙᓴ	-8.60852
ᒫᒋ	-8.60994
▁ᑕᓱ	-8.61098
ᐙᐸᓐ	-8.61211
▁ᐆᑌᓈᕽ᙮	-8.61457
ᐅᑎᓯ	-8.61532
▁ᒪ	-8.61631
▁ᑫᒫ	-8.61809
ᐃᑎᓱ	-8.61958
▁ᐃᑭᑐᒡ	-8.61988
ᑲᔥᑭᑑ	-8.62163
▁ᐁᐅ	-8.62792
▁ᐅᑎᑭᑐᐎᓐ	-8.6301
▁ᐱᒌᓇᒃ	-8.6301
▁ᐊᔮᐙᒡ	-8.63039
ᐊᒀ	-8.63039
▁ᑮᐃᑭᑐᐗᒃ	-8.63116
ᑎᐯᓂᒥ	-8.6335
▁ᑫᓂ	-8.63352
ᓂᓯᑐᑕ	-8.63395
▁ᒫᒑ	-8.6364
ᔭᐄ	-8.63799
ᓈᒡ	-8.63814
▁ᐅᔥᑭ	-8.64738
ᒥᒋ	-8.64962
▁ᐅᑌᑌᓐ	-8.65322
ᑳᐸᐎ	-8.65468
ᑯᕽ	-8.65859
ᐗᓐ᙮	-8.65966
▁ᑮᔑᑲᒃ	-8.66
▁ᒥ	-8.66019
ᑎᐯᒋᑫ	-8.66378
▁ᑳᐊᔮᒡ	-8.66683
ᒫᒪᐎ	-8.66932
▁ᐗᐐᑫ	-8.67689
▁ᐸᑴᔑᑲᓇᓐ	-8.67689
▁ᐊᐸᓀ	-8.6769
▁ᓂᐳᐎᓂᕽ	-8.67694
▁ᐯᒫᑎᓯᓂᒡ᙮	-8.67729
▁ᐁᐃᑭᑐᒡ	-8.67868
▁ᒋᑕᔑ	-8.67896
ᓉ	-8.67983
ᓂᐳᒡ	-8.68308
▁ᐅᒌ	-8.68724
▁ᑭᔐᒪᓂᑑᕽ	-8.6898
ᓇᐎ	-8.68993
ᐃᑰ	-8.69039
▁ᒪᒋᐊᒑᑾᐞ	-8.69236
ᑖᓈᐙ	-8.69245
▁ᒪᒋᑑᑕᒧᐎᓐ	-8.69263
ᑮᑭᑐ	-8.69286
ᑎᒃ	-8.69334
ᒫᒥᑲᐎ	-8.69354
ᑕᐙ	-8.69401
ᐅᑖᐱᓈ	-8.69695
ᔭᕽ᙮	-8.69753
ᓂᒥᓐᒡ	-8.69781
ᑎᕽ	-8.69955
▁ᐊᓄᑮᐋᑲᓐ	-8.70114
▁ᐁᕒᐊᑦ	-8.70124
▁ᑳᑎᐯᓂᒥᓇᕽ	-8.70156
ᒫᔑ	-8.70211
ᑭᓐ᙮	-8.7031
ᒦᓈ	-8.70316
▁ᑭᑎᑳᓀᓴᓐ	-8.70338
ᓇᐌ	-8.70479
▁ᐅᑯᓯᓯ	-8.70561
ᐗᓂᓂ	-8.70995
▁ᐙᐸ	-8.70997
ᓯᓄᒃ	-8.7162
ᑕᒧ	-8.71652
ᒧᒃ	-8.71667
▁ᒋᐊ	-8.71881
▁ᐃᔥᑯᑌ	-8.7207
ᑰᔭᓐ	-8.72115
▁ᐸᑴᔑᑲᓐ	-8.72598
▁ᒎᓴᑉ	-8.72598
▁ᐊᒋᓇ	-8.726
▁ᐅᐱᒫᑎᓯᐎᓐ	-8.726
▁ᐁᒐᓬᐊᒃ	-8.72608
▁ᒎᑕᔅ	-8.72637
ᓇᒃ	-8.72638
▁ᑳᐐᐃᔑ	-8.72731
▁ᑳᓂ	-8.72796
ᓱᒡ	-8.73071
▁ᐐᒋ	-8.73399
ᓃᑳᓂ	-8.73432
▁ᑕᐃᔑ	-8.73433
ᐯᔑᑯ	-8.73748
ᓯᓂᓂᒃ	-8.73984
ᐃᐌ	-8.7399
▁ᑭᑑ	-8.74011
ᓈᓂᕽ	-8.74185
ᐃᓇ	-8.74198
▁ᒋᐊᓂ	-8.74243
▁ᐐᐗᓐ	-8.74674
▁ᒋᐅ	-8.74799
▁ᐲᑕᕒᐆᓐ	-8.75159
▁ᓂᑑᒋ	-8.75211
ᐊᔮᔮᓐ	-8.75336
▁ᐅᑮᐙᐸᒫ	-8.75413
▁ᑭᒋᐊᓇᒥᐁᐎᑭᒫᒃ	-8.75611
ᐃᕽ	-8.76174
ᑰᒃ	-8.76271
ᒥᑰ	-8.7688
▁ᐃᑯᒋ	-8.77229
ᓂᓂᑭᓐ	-8.77462
ᒣᔥᑾᒡ	-8.77761
▁ᑭᓉᔥ	-8.77761
▁ᑳᒎᐎᐎᓯᓂᒃ	-8.77786
▁ᒥᒋ	-8.7786
▁ᑳᑎᐯᑕᕽ	-8.78089
▁ᓂᑎ	-8.78219
ᑮᔗ	-8.78226
ᐊᐱ	-8.78612
▁ᑫᒋ	-8.78692
▁ᑮᐃᔥᒀ	-8.78761
ᑮᐌ	-8.79359
ᓭᓂᒃ	-8.79469
ᐃᑯᐙ	-8.7949
▁ᑳᑮᐃ	-8.79561
ᑰᐞ	-8.79884
ᑎᐱ	-8.80106
▁ᐃᔑᐊᔮ	-8.80589
ᐱᓈ	-8.80607
▁ᔔᒥᓈᐳ	-8.80758
ᐎᒡ	-8.80865
ᐎᓂᐙᓐ	-8.80938
▁ᐁᑮᔑᑲᓂᓂᒃ	-8.80965
ᔖᑰᒋ	-8.81058
▁ᑫᐃᔑᒋᑫ	-8.81187
ᐃᔖ	-8.81251
ᑎᐯᓂᒥᑯ	-8.81675
▁ᐃᓀᑖᑯᓯᒡ	-8.81849
▁ᑳᐊ	-8.82182
ᐲᐃ	-8.82286
▁ᑌ	-8.82521
ᑫᓂ	-8.82724
ᑳᑌ	-8.82749
ᒫᐗᒋᐃᑎᐙᒡ	-8.83153
ᑲᐌ	-8.83159
▁ᑭᒋᑲᒦᕽ	-8.83204
▁ᐋᒋᑯ	-8.83208
ᑯᐸᓐ	-8.83238
ᓂᔕᐅ	-8.83296
▁ᓃᒋ	-8.83468
ᓰᒻ᙮	-8.8359
ᓯᐗᕽ	-8.83624
▁ᓃᔑ	-8.83858
▁ᐯᔑᑯ	-8.84211
ᐊᓇᒥᐋ	-8.84259
▁ᐸᑭᑎᓂ	-8.84371
▁ᐐᓯᓂ	-8.84402
▁ᒪᒋᐊᔭᐋ	-8.84552
ᔫ	-8.84579
ᐃᑯ	-8.84771
ᑕᒫᓐ	-8.84832
ᒨᔥᑭᓀ	-8.84926
▁ᓰ	-8.84969
ᒪᑲᒃ	-8.85008
ᐊᑕᐌᑕ	-8.85171
ᓈᐙᒡ	-8.85397
ᐅᓇ	-8.85572
ᑲᔥᑭᑑᒡ	-8.85594
▁ᓂᐳᐎᓐ	-8.85738
ᔓ	-8.85794
▁ᑳᐊᔮᓂᒡ	-8.85827
ᒪᔥᑲᐎᓰ	-8.85973
▁ᐅᑎᔑ	-8.85994
ᐃᑯᐙᒡ	-8.85994
▁ᐊᓇᒥᐁᐎᑲᒥᑯᕽ	-8.86041
▁ᐅᑭᔐᐙᑎᓯᐎᓐ	-8.86041
▁ᐊᐴᔥᑫ	-8.86089
▁ᐊᓯᓐ	-8.86126
▁ᐅᑯᐌᓂᐗᒃ	-8.86281
ᐊᔨ	-8.86542
ᐙᐸᑕᒧᐙᒡ	-8.86631
ᓈᑯᓯᒡ	-8.86689
ᐐᒌᐙᒡ	-8.86733
ᓂ᙮	-8.86917
ᑯᓂᒡ	-8.87111
ᐙᐸᒫᐙᒡ	-8.87241
ᓂᑎᓱ	-8.87415
ᐃᓇᑭ	-8.87493
ᐊᔮᐙᒡ	-8.87515
ᓂᑖ	-8.87612
ᑲᓇᓐ	-8.8777
▁ᒋᑕᑯ	-8.88134
ᐃᑣ	-8.88462
ᐱᒫᑎᓯᐙᒡ	-8.88592
▁ᓇᐃ	-8.88638
▁ᐊᐱ	-8.88683
▁ᐙᑳᐃᑲᓂᕽ	-8.88962
▁ᐱᓇᒫ	-8.88962
▁ᑮᔑᑯᕽ	-8.88973
▁ᐁᒐᓬᐊᓐ	-8.88975
▁ᑌᐱᑦ	-8.88986
ᓈᕽ	-8.89064
▁ᑳᓬᐊᓬᐄᕽ	-8.89106
▁ᑖᑮ	-8.89162
▁ᐊᐤ	-8.89209
▁ᐅᓵᐎ	-8.9011
ᑾᔭᒀᑎᓯ	-8.90228
ᒥᓂᑴ	-8.90397
ᓈᑾᒃ	-8.90494
ᐁ	-8.90501
ᔭᔮ	-8.90571
ᐃᓀᓂᒥ	-8.91277
▁ᒋᐐᒋ	-8.91342
ᒥᒃ	-8.91386
ᐋᐞ	-8.91493
▁ᒋᐃᔑᒋᑫ	-8.91558
ᐗᑭᒡ	-8.91718
ᑸ	-8.91947
▁ᓂᑮᐃᔑ	-8.91966
▁ᓃᒋᐅᑌᐺᑕᒨᒃ	-8.91968
ᑎᐱᓇᐌᐎᓯ	-8.9198
▁ᐁᑮᐃᔖᒡ	-8.9198
ᑲᒥᒃ	-8.92008
▁ᑲᔥᑭᑑ	-8.92189
▁ᓂᑖᐎᑭ	-8.92465
ᐸᓐ᙮	-8.92501
ᐊᓂᔖ	-8.9263
ᒦᓂᑯᒡ	-8.92705
ᑌᐺᑕᐙ	-8.92708
▁ᓃᔣ	-8.92839
ᒥᓄᒋᑫ	-8.93007
ᒪᒋᑑᑕ	-8.93182
▁ᐅᑮᐃᓈᐙᓐ᙮	-8.93923
ᔮᐹᓐ	-8.94008
▁ᑕᐱ	-8.94059
▁ᒥᓂᑴ	-8.94082
ᒪᑗ	-8.94161
ᐊᔮᒡ	-8.94268
ᓈᓂᐗᕽ	-8.94368
▁ᑭᑮᐃᔑ	-8.94504
ᑲᓂᓂ	-8.94563
▁ᐊᔮᒡ	-8.94702
ᒨᔥᑭᓀᔥᑳᑯ	-8.94867
▁ᐊᑮᓂ	-8.94888
ᐱᐅᒌ	-8.9494
▁ᒋᔑ	-8.95047
▁ᒎᑏᔭ	-8.95064
▁ᒎᐎ	-8.95067
▁ᐅᑕᓄᑮᐋᑲᓇᐞ	-8.95069
▁ᐊᑾᒌᕽ	-8.95069
▁ᒫᓇᒑᓂᔐᔅ	-8.95069
▁ᐃᔅᕒᐃᔭᓬᐊᒃ	-8.95073
▁ᑲᔥᑭᐁᐎᓯᐎᓐ	-8.951
▁ᑮᐹᑏᓄᐗ	-8.95114
ᔭᒥᓐᒡ	-8.95119
ᐌᐱᓈ	-8.95376
▁ᑳᑮᔑᑲᒃ	-8.95406
ᒫᒌ	-8.95414
ᑲᒀᑕᑭᐃ	-8.95541
▁ᐃᑭᑐᐎᓐ	-8.95845
▁ᑲᓅᓈᐞ	-8.95913
ᐋᐙᒡ	-8.96061
ᐐᒋᐃᐌ	-8.96135
▁ᒋᑲᑴ	-8.9619
▁ᐊᑕ	-8.9635
ᑎᐎᓐ	-8.9637
ᔑᓈᑾᓂᓂᒃ	-8.96384
ᓵᒥ	-8.96637
ᑫᒡ	-8.96935
ᒋᑳᑌᓂᒃ	-8.97014
ᓯᐙᐙᓐ	-8.97341
ᓅᑌ	-8.97592
ᓇᒀ	-8.9767
ᓰᐗᒃ᙮	-8.98177
ᑭᑫᑕᒧ	-8.98229
▁ᐋᔑᑌᔮᑎᑯᕽ	-8.9824
ᐅᑖᐱᓂ	-8.98247
▁ᑫᑮᐃᔑ	-8.9825
▁ᐅᐙᑳᐃᑲᓂᓃᕽ	-8.9827
▁ᑫᑮᓇᐎᓐᑦ	-8.9827
▁ᑭᑭᑫᑖᒻ	-8.98337
ᓰᐞ	-8.98389
▁ᒋᑭᒋ	-8.9839
ᐐᑕᒪᐎᓇᑰᒃ	-8.9842
ᐊᔮᔭᓐ	-8.98463
ᓬ	-8.98637
ᒥᓐ᙮	-8.9873
ᐅᒋᒋᓭᓂᒃ	-8.9875
▁ᓂᓯᓐ	-8.9876
ᐗᒀ	-8.98864
▁ᐸᑭᑎᓈ	-8.98864
ᐐᑎᑫ	-8.98991
ᑖᒻ	-8.99145
ᒣᒀ	-8.99322
ᓰᓈᐙ	-8.99604
ᕒᐊ	-8.99903
▁ᓂᑮᐙᐸᒫ	-9.00011
ᐌᒀ	-9.0017
ᒋᑫᐙᒡ	-9.00333
ᐎᓂᕽ᙮	-9.0044
ᐊᔮᒃ	-9.00555
ᒋᑲᓂᐎᒡ	-9.00609
▁ᑲᓅᓈᒡ	-9.00615
▁ᒋᐐ	-9.00627
ᑲᐎ	-9.00868
ᓯᓂᒃ᙮	-9.01069
ᔑᓈᒻ	-9.01462
ᑲᒀᑕᑭᑑ	-9.01463
ᑏ	-9.01555
ᑫᒀᓂᒃ	-9.01576
▁ᑲᕒᐄ	-9.0159
▁ᐃᓀᑖᑾᒃ	-9.016
▁ᐲᑎᒃ	-9.01609
ᓂᓇᑰᒃ	-9.01721
ᑕᓐ᙮	-9.01817
ᐎᓂᐙᕽ	-9.01851
▁ᑭᑲᐃᔑ	-9.01853
ᑕᓄ	-9.01877
ᒦᓂᑰᐎᓯ	-9.01899
ᓀᐱᒋ	-9.02196
ᐙᐸᑕᐃ	-9.02286
ᔐ	-9.02437
ᓅᓂ	-9.02568
▁ᑳᐅᒌᒡ	-9.0259
▁ᑳᐃᔑᒋᑫᐙᒡ	-9.02639
ᑕᒫᕽ	-9.02646
ᐃᓀᑖᑯᓯ	-9.02652
▁ᒋᐲ	-9.03071
ᒥᓉ	-9.03094
▁ᐅᒋᑕ	-9.03097
ᓯᒡ	-9.03167
ᐙᐙᒡ	-9.032
▁ᐃᔑᓭ	-9.03542
ᐙᕽ	-9.03623
▁ᑕᑯᔑᕽ	-9.03655
ᒫᐞ	-9.03864
ᐃᓀᒃ	-9.03973
▁ᒋᒥᓄ	-9.04036
▁ᐃᔑᓂᔕᐅ	-9.04182
ᐙᐸᒫ	-9.04253
ᑭᒫ	-9.04419
ᐗᐞ᙮	-9.04481
▁ᑭᒋᐊᓇᒥᐁᐎᑭᒫ	-9.04484
▁ᑭᑲᐅᒋ	-9.04552
▁ᑕᓂ	-9.04575
ᑳᕽ	-9.04596
ᐱᒥᓂᔕᐅ	-9.04627
ᓇᕽ᙮	-9.04648
▁ᐯᑭ	-9.04653
▁ᐊᐎ	-9.04734
▁ᓃᑳ	-9.04746
▁ᑫᐃ	-9.048
▁ᐁᐸᕒᐊᐋᒪᓐ	-9.04995
▁ᐊᒑᒃ	-9.04995
▁ᒨᓯᓲᓐ	-9.04995
▁ᒫᒪᑳᒋᒋᑫᐎᓇᓐ	-9.04995
▁ᐁᒐᓬᐊᐞ	-9.04995
▁ᔂᓬ	-9.04998
▁ᒣᑴᔭᐄ	-9.05002
▁ᐃᔑᓂᔕᐙᑲᓇᒃ	-9.05005
▁ᐁᑮᐃᑭᑐᐙᒡ	-9.05157
▁ᐅᑎᐯᒋᑫᐎᓐ	-9.0518
▁ᒦᐗ	-9.05365
▁ᐸᐹ	-9.05731
▁ᐅᑯᓯᓯᒫ	-9.05777
ᑖᑾᒃ	-9.05945
ᐆ	-9.0604
ᒪᒡ	-9.0662
▁ᑭᑭᓄᐊᒫᑫ	-9.06808
▁ᐃᐌᓂ	-9.06987
ᒥᑯᒡ	-9.07059
▁ᑭᑕ	-9.0706
▁ᑳᐃᔑᒋᑫᒡ	-9.07136
ᑲᓇᐌ	-9.07146
▁ᐐᒌᐎ	-9.07489
▁ᓂᑕᔮ	-9.08048
ᔑᒡ	-9.08332
▁ᐃᔅᕒᐃᔭᓬᐊᐞ	-9.08535
▁ᐅᕒᐆᒥᕽ	-9.08538
▁ᑳᓵᑭᐃᓇᑰᒃ	-9.0855
ᐸᑫ	-9.08563
ᑲᔥᑭᑕᒫᓱ	-9.08578
ᐅᑭᒫᑲᑕ	-9.0858
▁ᒪᔥᑲᐎᓰᐎᓐ	-9.08613
▁ᐅᑎᓀᑕᒧᐎᓐ	-9.0863
ᐐᒌᐙᐙᒡ	-9.08684
▁ᐁᑎᐱᑲᓂᓂᒃ	-9.0873
▁ᑕᑭᒋ	-9.08771
ᒥᓂ	-9.08775
▁ᐙᑳᐃᑲᓐ	-9.08835
ᒪᔥᑲᐎ	-9.08932
▁ᑳᐱᒫᑎᓯᐙᒡ	-9.09462
ᓯᓂᓂ	-9.09551
▁ᒋᐊᐎ	-9.09572
ᒋᑲᓂᐎ	-9.09803
▁ᑮᐃᑭᑐᐗᐞ᙮	-9.09954
ᑯᐙᓐ	-9.09965
ᒥᓍᐸ	-9.10078
ᓄᕽ	-9.1015
▁ᐙᐱ	-9.10268
ᑭᑭᓄᐊᒪᐙ	-9.10515
▁ᑫᑌ	-9.10607
▁ᐁᑲᑴ	-9.10836
ᒦᓂᑰ	-9.1091
ᓇᓐ᙮	-9.11074
ᐊᔮᓂᒃ	-9.11317
ᑎᐸᓐ	-9.11345
ᑲᑴᒋᒫ	-9.11352
▁ᐁᑮᒫᒌ	-9.1164
▁ᑮᒫᒌ	-9.11755
ᐸᑭᑎᓂᑫ	-9.12121
ᑖᒥᓐ	-9.12141
ᔩ	-9.12198
▁ᐅᑑᑭᒫᒪᓐ	-9.12205
▁ᓂᑯᓯᔅ	-9.12205
▁12	-9.12206
▁ᐋᐱᑕ	-9.12209
▁ᓂᑯᒋ	-9.12222
▁ᑎᐹᒋᒧᐎᓐ	-9.12332
ᓇᑲᓈ	-9.12348
▁ᐁᓈᓴᒦᓂᒡ	-9.12434
▁ᓂᑮᐅᒋ	-9.12477
ᓂᐗᓐ	-9.1255
▁ᐁᐊᓉ	-9.12787
ᐃᒫ	-9.12832
▁ᐃᓀᑖᑯᓯᐎᓐ	-9.12945
▁ᐁᔮᓂᒡ	-9.13038
ᐴᓀ	-9.13204
▁ᒋᑮᐌ	-9.13219
▁ᑳᐊᔮᔦᒃ	-9.13259
▁ᑳᒪᒋ	-9.13288
▁ᐁᐊᔮᒡ	-9.13371
ᐃᑰᔦᒃ	-9.13605
ᑫᐙᒡ	-9.13637
ᐊᐲᒋ	-9.13783
▁ᑮᐊᔮᐗᒃ	-9.13897
ᒥᓀᒃ	-9.14131
ᒪᐤ	-9.14318
▁ᐅᑭᑭᓄᐊᒪᐙᑲᓇᐞ᙮	-9.14442
▁ᑳᓵᑭ	-9.1458
ᐃᓐᒡ	-9.1473
▁ᐁᔮ	-9.14737
ᐋᓐ	-9.14761
ᐙᐸᑕᕽ	-9.15528
ᓯᐗᓐ	-9.15644
ᐲᒋ	-9.15677
▁ᐅᑮᐊᓂ	-9.15728
▁ᐅᑭᒫ	-9.1576
ᓈᓐ᙮	-9.15788
ᔂ	-9.15866
▁ᐅᑕᓄᑮᐋᑲᓇᓐ	-9.16015
▁ᑫᓃᓇᐎᓐᑦ	-9.16015
▁ᑳᐃᓇᑌᓂᒃ	-9.16029
▁ᒌᒫᓂᕽ	-9.16086
▁ᐃᑭᑐᐎᓇᓐ	-9.16177
▁ᑭᑫᓂᒫ	-9.16192
▁ᐊᔮᒀᒥᓯᒃ	-9.16223
ᑫᒋᓈᐅ	-9.16267
ᑕᑯᔑᕽ	-9.16353
▁ᓀ	-9.16364
▁ᐃᔑᒋᑫᒡ	-9.16421
▁ᐁᔑᓈᑯᓯᒡ	-9.16443
ᓅᑕᒣᒃ	-9.1646
ᓅᑌᓭ	-9.16513
ᓂᓯᓐᒡ	-9.1653
▁ᑮᓯᔅ	-9.16723
▁ᐊᓇᒥᐁ	-9.16889
ᑭᑫᑕᒧᐙᒡ	-9.16908
ᒧᐌᒃ	-9.16985
ᑭᑑ	-9.17092
ᐊᔮᔦᒃ	-9.17309
ᑎᐯᓂᒫ	-9.17666
ᒪᑲᓂᓂᒃ	-9.18041
▁ᒪᒋᐊᔭᐋᓐ	-9.18105
ᐙᐸᓂᓂᒃ	-9.18144
ᓂᔑᐌ	-9.18212
ᒥᓄᓭ	-9.18214
ᑌᓂᒃ	-9.18271
▁ᐗ	-9.18415
ᐃᑯᓈᓐ	-9.1842
ᐸᑭᑎᓈ	-9.18462
ᐐᑕᒫ	-9.18846
▁ᑭᐱ	-9.19092
ᓯᑑ	-9.19435
▁ᑳᑎᐯᒋᑫᓂᒡ᙮	-9.19475
ᑲᓅᓈ	-9.19759
ᑾᓐ	-9.19912
ᔒᑫ	-9.19924
ᒥᑯᔥᑳᑌᑕ	-9.19962
,000	-9.19969
▁ᐄᒋᐸᑮᕽ	-9.19975
▁ᐌᔩᑉ	-9.19975
▁ᐱᓬᐊᑉ	-9.19975
▁ᐁᔑᓂᑳᓱᓂᒡ	-9.19976
▁ᐅᐙᑳᐃᑲᓂᕽ	-9.19976
▁ᐁᓂᑯ	-9.20003
▁ᓭᑕᓐ	-9.20022
▁ᐁᑮᐃᑭᑐᓂᒡ	-9.2009
▁ᑳᐹᑏᓄᓂᒡ	-9.20189
▁ᐐᑕᒪᐎ	-9.20194
ᒪᑭᒡ	-9.20216
ᔭᔅ	-9.20223
ᑎᓈ	-9.20271
ᒥᓉᑕᒻ	-9.20467
ᒦᓂᓇᕽ	-9.20684
ᓈᓂᐗᓂᓂᒃ	-9.20695
▁ᐅᑮᒫᒌ	-9.2072
▁ᐁᓈᓴᒦᒡ	-9.20739
▁ᐅᐱᒫᑎᓰᒪᐞ	-9.20804
▁ᐄ	-9.20922
▁ᐁᒥᒋ	-9.20943
ᑕᒫᑰ	-9.20961
ᓇᓈ	-9.21009
▁ᓂᑑ	-9.21061
ᐗᑭᐸᓐ	-9.21228
ᐅᑭᒫ	-9.2128
ᑎᐹᒋᒧ	-9.21409
ᑮᐌᐱᒫᑎᓯ	-9.21441
ᐋᑯᓯ	-9.21795
ᐲᑎᑫ	-9.22397
ᑑᔦᒃ	-9.224
▁ᑳᓇᑲ	-9.22729
▁ᑮᓂ	-9.22888
ᒪᒀ	-9.22931
▁ᑲᓅᓈ	-9.22947
▁ᐙᓭᔮ	-9.22958
▁ᔑᒫᑲᓂᔒᐎᑭᒫ	-9.22973
▁ᐃᔖᒡ	-9.23307
▁ᐊᓄᑮ	-9.23325
ᒨᒃ	-9.23326
▁ᐅᑕᔮ	-9.23389
ᓂᔥᑳᑎᓯ	-9.24022
▁ᐅᓇᔓᐌᐎᓂᓂ	-9.24046
ᔛ	-9.241
▁ᐋᐃᓭᔭ	-9.241
▁ᐹᕒᓇᐸᔅ	-9.241
▁ᑎᒪᑎ	-9.241
▁ᐃᔑᓈᑾᓐ	-9.241
▁ᓰᑲᐊᑖᑫᐎᓂᓂ	-9.241
▁ᐅᒪᔥᑲᐎᓰᐎᓐ	-9.24101
▁ᓂᑯᑎᕽ	-9.24102
▁ᒥᑖᔑᓃᔑᓐ	-9.24121
ᓇᑴ	-9.24124
▁ᑳᑮᐊᔮᓂᒡ	-9.24158
▁ᐅᑎᐹᒋᒧᐎᓐ	-9.2417
ᓯᑳ	-9.24176
ᔕᔒ	-9.24229
ᑭᑖ	-9.24296
▁ᑭᒋᐊᓇᒥᐁᐎᑭᒫᐞ	-9.24352
▁ᑭᒋᐅᑭᒫᓐ	-9.244
▁ᒋᐱᒫᒋᐃᐌᓂᒡ	-9.2444
ᒪᑲᓐ	-9.24441
▁ᑭᑭ	-9.24629
ᑮᐗᓂᒧ	-9.24735
▁ᑳᐊᔮᓂᒡ᙮	-9.24776
ᐎᓂᐙ	-9.24818
▁ᐃᔥᑯᑌᕽ	-9.24989
ᒫᒪᑳᒋ	-9.25002
ᑑᑕᐙ	-9.25038
▁ᐅᑯᓯᓴᓐ᙮	-9.25056
ᑲᑭᑐ	-9.25129
ᓰᒥᓐ᙮	-9.25204
▁ᑮᑎᓄᐎ	-9.25343
ᑑᓂᒡ	-9.25389
▁ᑲᒀᑕᑭᑑ	-9.25473
▁ᐅᑮᑲᑴ	-9.25479
ᓂᑯᒡ	-9.25583
▁ᑳᒥᓄ	-9.25686
▁ᑭᑮᐱ	-9.2576
ᓀᑕ	-9.25878
ᐲᔖ	-9.25962
▁ᓵᑭ	-9.26067
▁ᑮᐲᑎᑫ	-9.26105
▁ᐁᐋ	-9.26195
▁ᐁᑮᑭᒋ	-9.2641
ᑲᓂᕽ	-9.26411
ᐃᑭᑐᔮᓐ	-9.26518
ᓵᑭᐋ	-9.26719
ᓇᒧᐙᒡ	-9.26819
ᒋᑫᓂᒡ	-9.2695
▁ᒥᓍᒋᒧᐎᓐ᙮	-9.27223
▁ᐁᑮᐐ	-9.27289
ᒪᑲᑭᓐ	-9.27423
▁ᐱᒫᑎᓯᐎᓐ᙮	-9.27439
ᑐᒃ	-9.27466
ᑌᒃ	-9.27489
ᑎᔦᒃ	-9.27714
ᐴᓂ	-9.27734
ᒦᓂᓐᒡ	-9.27804
ᑕᓰᓐ	-9.2818
▁ᑳᓬᐊᓬᐄᐎ	-9.28189
▁ᐃᓀᓂᒫ	-9.28229
ᓈᑯᓯᓂᒡ	-9.2834
▁ᒫᒑᒡ	-9.28354
ᔔ	-9.28398
▁ᑭᑌᐃᐙᕽ	-9.28401
▁ᒌᒥᔅ	-9.28401
▁ᓃᒥᑕᓇ	-9.28401
▁ᓵᑲᐃᑲᓃᕽ	-9.28401
▁ᑭᑎᓂᓂᓂᒻ	-9.28402
▁ᐱᓵᓂᓯᐎᓐ	-9.28414
▁ᑌᐱᑎᕽ	-9.28417
▁ᐋᓬᐃ	-9.2843
ᒦᑭᐌ	-9.28468
▁ᑭᑭᑫᑖᒥᓐ	-9.28533
ᓂᒃ᙮	-9.28542
▁ᓃᔮ	-9.28588
▁ᐅᑮᓇᑴᑕᐙᐞ	-9.28625
▁ᓃᐸᐎ	-9.28741
▁ᓈᓇᓐ	-9.28766
▁ᓂᑭᑫᑖᓐ	-9.28767
▁ᑳᓅᑕᕽ	-9.28828
▁ᑳᐃᑭᑐᐙᒡ	-9.29044
▁ᑳᑑᑕᕽ	-9.29101
▁ᑫᐱ	-9.29271
ᐊᐲ	-9.29271
▁ᑮᑕᔑ	-9.29512
ᓯᒀ᙮	-9.29585
▁ᑭᑭᒋ	-9.29628
▁ᑳᐐᒋ	-9.29652
▁ᑲᑴᑗ	-9.29677
▁ᐅᐱ	-9.29713
ᕒᐃᔭ	-9.29771
ᐐᑾ	-9.29786
▁ᐃᓂᓃᐎ	-9.29821
ᑌᐺᑕᒣᒃ	-9.29945
ᑎᐙᒡ	-9.30031
ᑕᒫᓱ	-9.30238
ᑲᔥᑭᑑᔦᒃ	-9.30274
ᓅᒋ	-9.30434
ᐅᓇᐱ	-9.3089
ᓯᐗᒃ	-9.30904
▁ᓇᑴᑕ	-9.31132
▁ᐅᓇᔓᐌᐎᓐ᙮	-9.31287
▁ᓂᑕ	-9.31309
ᐊᐎ	-9.31437
ᑑᑕᒫᓐ	-9.31702
ᑆ	-9.31733
ᑐᓀ	-9.31781
▁ᑳᑎᐯᒋᑫᒡ᙮	-9.31802
▁ᑭᑭᑫᓂᒥ	-9.3196
ᒫᕽ	-9.32143
ᑲᓇᐌᓂᒥ	-9.32225
▁ᑮᐊ	-9.32677
ᑑᑕᒥᓂᒡ	-9.32755
▁ᐃᓬᐋᐃᒐ	-9.3277
▁ᑮᔑ	-9.32774
ᐱᔑᒀᑎᓯ	-9.32829
ᒥᓴᐌ	-9.32864
▁ᐃᔅᕒᐃᔭᓬ	-9.32891
▁ᐊᐱᓅᒌᔕᐞ	-9.32896
▁ᐊᒑᑾᓐ	-9.32896
▁ᐱᑾᑕᑲᒥᒃ	-9.32896
▁ᑭᒋᐊᓇᒥᐁᐎᑲᒥᒃ	-9.32896
▁ᔔᓂᔮᓴᐞ	-9.32897
▁ᐴᓯ	-9.32925
▁ᑳᐃᓂᓇᑰᒃ	-9.32936
▁ᑳᐃᒋᑳᑌᒃ	-9.32959
ᐃᓇᓄᑮ	-9.32981
▁ᐅᑎᓈ	-9.33019
▁ᒦᑲᓈᕽ	-9.33036
▁ᑖᑭ	-9.33084
ᑕᒪᕽ	-9.33095
▁ᑮᐃᓀᑕᒻ	-9.33148
▁ᑳᑎᐯᓂᒥᑯᐙᒡ	-9.33269
ᓀᒃ᙮	-9.33334
ᐗᑫ	-9.33389
ᐃᒃ	-9.33606
ᓈᒻ	-9.33748
ᓯᑭᐸᓐ	-9.3416
ᐙᐸᑕᐃᐌ	-9.34226
▁ᐯᐯᔑ	-9.34527
ᓂᑲᒧ	-9.34741
▁ᐊᓉ	-9.34767
▁ᐐᒌᐙ	-9.3481
▁ᑳᓵᑭᐃ	-9.34869
▁ᑳᑕ	-9.35116
ᓯᐌᒃ᙮	-9.35265
ᐊᑖᐌ	-9.35284
ᒥᓯᐌ	-9.35305
ᓯᒃ᙮	-9.356
▁ᐱᒫᒋᐃᑰᐎ	-9.35625
ᐅᑯ	-9.35704
▁ᓂᓱ	-9.35771
▁ᐃᔥᒀ	-9.36057
▁ᐁᑮᐅ	-9.36067
ᓈᑾᑭᓐ	-9.36338
▁ᑌᐱ	-9.36533
ᓅᑕᒧᐙᒡ	-9.36574
ᑖᑯᒡ	-9.36699
▁ᐊᔮᐗᒃ	-9.36742
ᑲᓇᐌᑕ	-9.36794
ᐱᒧᓭ	-9.36971
ᑖᐱᓇ	-9.37013
▁ᐃᓀᑖ	-9.37078
▁ᑭᒋᑮᔑᑯᕽ᙮	-9.37099
▁ᐐᔭᐎᒫ	-9.3712
ᑲᓅᑕᒪᐙᒡ	-9.37177
ᓇᑰᒃ᙮	-9.37317
ᑲᑲᓅᓂ	-9.37406
ᑕᒧᐙ	-9.37467
▁ᑮᐅᒌ	-9.37598
▁ᔑᒫᑲᓂᔕᐞ	-9.37603
▁ᑭᒋᐊᐱᐎᓂᕽ	-9.37603
▁ᑳᐐᒋᐅᑌᐺᑕᒨᒥᑰᔦᒃ	-9.37603
ᒪᒫᔒ	-9.37605
▁ᐊᓯᓃᓐ	-9.37613
▁ᒥᑎᒃ	-9.37648
▁ᓵᑭᐃᐌᐎᓐ	-9.37692
▁ᐱᑾᒋᐊᔭᐋᐎᔕᓐ	-9.37735
▁ᓇᑴᑕᒻ	-9.37845
ᑕᐙᐙᒡ	-9.37858
▁ᐊᓄᑮᐎᓐ	-9.37886
▁ᐆᑌᓇᐗᓐ	-9.38017
▁ᓂᑌᐺ	-9.38188
ᑌᐁ	-9.38321
ᑮᔑᑲᓂᓂᒃ	-9.38323
▁ᐙᐹᐱᑯ	-9.38403
▁ᑎ	-9.38492
ᐸᐹ	-9.38533
ᒪᒋᑑᑕᕽ	-9.38575
ᒦᓂᒃ	-9.38792
ᐐᑕᒪᐎ	-9.38865
ᓃᑳᓀᑖᑯᓯᓂᒡ	-9.38889
▁ᔑᒫᑲᓂᔒᐎᑭᒫᓐ	-9.38907
ᑖᑾᓐ	-9.38957
▁ᐹᑏᓄᓂᒡ	-9.39045
▁ᐊᐱᓅᒌᔕᓐ	-9.3916
▁ᐅᑮᐃᑰᐞ	-9.3943
▁ᐁᔖ	-9.39616
ᒫᓂᒡ	-9.39678
▁ᒪᔥᑲᐎ	-9.39968
ᐊᓇᒥᐋᐙᒡ	-9.39977
ᓃᔣᒋ	-9.39988
ᑫᒃ᙮	-9.40163
ᐃᔖᔮᓐ	-9.40291
ᐸᑭᑎᓂᑎᓱ	-9.40378
ᑮᒨᒋ	-9.40384
ᑲᓅᓈᒡ	-9.40468
▁ᑎᐹᑯᓂ	-9.4051
ᒧᐎᓐ	-9.40568
ᐊᑕ	-9.40594
ᒥᓇᑰᒃ	-9.40676
ᑎᐸᐊᒪᐙ	-9.40779
▁ᒋᒥᓄᐊᔮ	-9.40827
▁ᑮᐃᑭᑐᐗᓐ	-9.41047
▁ᑮᒦᓈ	-9.41171
▁ᑌᐺᐎᓐ᙮	-9.41366
ᑭᒋᐊᓇᒥᐁᐎᑭᒫᐎ	-9.41472
ᓃᐎ	-9.41641
▁ᑮᐐ	-9.41712
▁ᐅᓃᑳᓂᓰ	-9.41745
ᒪᒥᔑ	-9.41986
ᓂᑖᐎᑭᒡ	-9.41999
ᑲᔥᑭᒋᑫ	-9.42053
ᐊᑲᒋ	-9.42134
▁ᐊᓈᒥ	-9.42252
ᔭᐸᓐ	-9.42409
ᑌᑭᓐ	-9.42475
▁ᑫᑕᔑ	-9.42493
ᒐ	-9.4254
▁ᐅᓃᒑᓂᓴᐞ	-9.42542
▁ᐊᐱᓅᒌᔕᒃ	-9.42542
▁ᓃᑳᓇᔭᐄ	-9.42542
▁ᐅᑎᓈᑯᓂᑫᐎᓐ	-9.42542
▁ᐆᑌᓇᐌᓯᕽ	-9.42542
▁ᑳᓃᑳᓂᓯᐙᒡ	-9.42542
▁ᓈᓈᑫ	-9.42542
▁ᒌᒫᓐ	-9.42545
▁ᑌᐺᔦᑕᒧᐎᓐ	-9.42545
▁ᐃᓀᑖᑾᓐ	-9.42553
ᐋᔩᒋ	-9.42558
▁ᐅᓇᔓᐌᐎᓂᕽ	-9.4256
▁ᒫᒥᑲᐎᒃ	-9.42572
▁ᐸᔦ	-9.42603
ᐱᒥᐊᔮ	-9.42671
▁ᐅᐐᓱᐎᓂᓂ	-9.4268
ᓈᑾᓂᓂᑭᓐ	-9.42681
▁ᑮᐸᓯᑸ	-9.42713
ᓈᓯᑲ	-9.42809
▁ᑳᐃᑭᑐᓂᒡ	-9.4286
ᐹᑏᓄᐙᒡ	-9.42881
▁ᐅᓵᐙᐱᑯ	-9.42885
▁ᐁᑲ	-9.42906
▁ᑳᐃᔑᓂᑳᑌᒃ	-9.4292
ᓂᓵᐙᒡ	-9.42944
▁ᓂᓯ	-9.43007
▁ᐃᔑᓭᓂᒃ	-9.43047
ᐱᒫᑎᓯᔭᕽ	-9.43144
ᔕᐌᓂᒫᒡ	-9.4317
▁ᐱᐴᓐ	-9.43173
▁ᒋᑭᑫᑕᒣᒃ	-9.43301
▁ᐃᓂᓃ	-9.43375
▁ᑳᐐᑕᒪᐎᓇᑰᒃ	-9.43889
▁ᑑᑕ	-9.44051
▁ᑳᑮᐃᑭᑐᒡ	-9.44307
▁ᐅᑮᐃᓈᐙᓐ	-9.44505
▁ᑭᒋᐊᓇᒥᐁᐎᑭᒫᓐ	-9.44551
▁ᓵᑭᒋ	-9.44722
ᐌᓅᑎᓯ	-9.44881
ᑎᔅ	-9.44979
ᐃᔑᐌᐸᒃ	-9.45074
▁ᐅᐐ	-9.45554
▁ᒋᐐᒋᐃ	-9.45802
▁ᑭᒋᐅᑭᒫᒃ	-9.45838
ᑖᑯᓯᒡ	-9.45998
ᓂᔑᐗᓈᑎᓯ	-9.46201
ᐅᔑᒋᑳᑌᒃ	-9.46214
▁ᐱᓯᑕ	-9.46583
▁ᐌᐱᓈ	-9.46731
ᓂᑳᑌ	-9.46938
▁ᓀᐱ	-9.46942
▁ᐊᑭ᙮	-9.46944
ᐅᔑᑑ	-9.46968
ᒋᑫᐎᓇᓐ	-9.46989
ᐎᓰ	-9.47037
▁ᐅᑕᓄᑮ	-9.4709
▁ᑫᑑᑕ	-9.47287
ᐊᐌ	-9.47302
▁ᐁᓵᑭ	-9.47317
ᐋᒋ	-9.4744
ᓯᑌ	-9.47458
ᓰᑲᐊᑖᑫ	-9.47501
▁ᐸᓯᑸ	-9.47535
ᐊᕽ	-9.47545
▁ᐲᔖ	-9.47563
▁ᐁᐐᐅᒋ	-9.4763
▁ᐌᓂᔑᔑ	-9.47722
▁ᑳᓬᐊᓬᐄ	-9.47735
▁ᐊᐱᓅᒌᔥ	-9.47737
▁ᐹᐃᓬᐊᑑᓐ	-9.47737
▁ᒉᑲᑉ	-9.47737
▁ᒌᒥᓴᓐ	-9.47737
ᒪᔥᑲᐌᑖᑯᓯ	-9.47738
▁ᐁᑎᔮᒃ	-9.47738
▁ᑳᐃᔑᓂᑳᓱᒡ	-9.47738
ᓂᑯᑣᒃ	-9.4774
▁ᐁᑮᐃᓈᐙᒡ	-9.4774
ᓂᑭᓃᕽ	-9.47741
▁ᑳᐅᔫᓯᒥᓐᒡ	-9.47741
▁ᓈᓴᕒᐃᑎᕽ	-9.47745
▁ᐅᑑᓇᔓᐌᐎᓂᓂ	-9.47751
▁ᐋᔑᑌᔮᑎᑯᕽ᙮	-9.47786
▁ᐐᑕᒪᐙ	-9.47868
ᑕᓇᒥᐋ	-9.47881
ᓯᐙᕽ	-9.47954
ᐸᑭᑎᓇᕽ	-9.4797
ᔒᑫᓂᒫ	-9.47988
ᑮᔑᒃ	-9.48035
ᐐᑕᒫᑰᔦᒃ	-9.48057
▁ᐅᑕᒑᑾᓐ᙮	-9.48216
▁1	-9.48226
ᑲᓇᐞ	-9.48229
▁ᐌᐱᓂ	-9.48254
ᑯᓐ	-9.48343
▁ᒥᑖᓱ	-9.48361
▁ᐅᑖᐎᓂᕽ	-9.48452
▁ᓂᑮᐱ	-9.4862
▁ᐊᐯ	-9.48627
ᐸᑭᔑ	-9.48717
▁ᑲᓅ	-9.48866
▁ᑳᑮᑕᔑ	-9.49226
ᐌᓅᑎᓯᒡ	-9.49408
ᑖᑯᓯᐙᒡ	-9.49489
ᐊᓇᒥᐋᔦᒃ	-9.49508
▁ᒪᒋᑑᑕᒧᐎᓐ᙮	-9.49613
ᑑᑕᒣᒃ	-9.49643
▁ᑮᐃᔑᒋᑫ	-9.49702
▁ᐅᑯᓯᓯᒫᓐ	-9.49728
▁ᑳᒥᒋ	-9.49759
ᐗᓂᓂᒃ	-9.49836
ᑾᐞ	-9.49882
▁ᓭᑭᓯ	-9.49934
▁ᐅᓂᒌ	-9.49968
ᓇᑭᒡ	-9.50092
ᓯᓐ	-9.5019
ᓃᐸ	-9.50232
▁ᑳᑮᐃᔑᒋᑫᒡ	-9.50266
▁ᑮᒨᒋ	-9.50323
ᓂᓂᐗᓐ	-9.50443
ᓭᑭᓯ	-9.50554
▁ᒫᒑᓐ	-9.5077
ᐲᑎᑲᓈ	-9.50777
ᑭᒨᑎ	-9.50791
ᐸᑭᒌ	-9.50942
ᐙᐞ᙮	-9.50983
ᑕᒧᒃ	-9.51431
▁ᐅᔥᑭᓃᑭᑴ	-9.51664
ᐙᓐ᙮	-9.51817
▁ᐃᔑᓈᑯᓯ	-9.51896
ᐙᐸᑖᓐ	-9.5191
ᓇᓈᑯᒫ	-9.5204
ᑌᐺᔦᓂᒫ	-9.52159
ᑑᑕᕽ	-9.52164
ᒋᑲᓐ	-9.5224
ᑴᑕ	-9.52289
ᐱᒫᒋᐋ	-9.52541
▁ᐁᑮᐊ	-9.52588
ᑭᑫᑕᒣᒃ	-9.52766
▁ᐹᑏᓄ	-9.52785
▁ᐅᐐᒋ	-9.52799
▁ᒋᑎᐯᓂᒥᑯ	-9.52799
▁ᐐᑾᑎ	-9.52841
ᓂᓃᐎ	-9.52871
ᐌᐙᒡ	-9.52979
ᐊᔭᔮ	-9.52995
▁ᐸᑴᔑᑲᓂ	-9.53015
▁ᒋᐊᑕ	-9.53069
ᓈᓈᑲᑕᐌᑕ	-9.5312
ᑶ	-9.53162
ᐃᓈᑎᓯ	-9.53167
▁ᐲᑎᑫᒡ	-9.53188
▁ᑭᓇᑕᐌᓂᒥ	-9.53194
▁ᐃᓂᓂᐗᓐ᙮	-9.53201
▁ᐅᑎᐹᒋᒧᐎᓂᓃᒪᓐ	-9.53218
▁ᐅᓈᐯᒪᓐ	-9.53218
▁ᐅᔑᐲᐃᑲᓐ	-9.53218
▁ᑳᓃᑳᓂᓯᓂᒡ	-9.53218
▁ᓭᓴᕒᐄᔭ	-9.53218
▁ᐁᔑᐲᐃᑳᑌᒃ	-9.53218
▁ᐁᔑᓂᑳᓱᒡ	-9.53218
▁ᑳᐃᔑᐲᐃᑳᑌᒃ	-9.53218
▁ᐐᔭᐎᓂ	-9.53218
▁ᐅᑎᐹᒋᒧᐎᓂᓃᒪᐞ	-9.53218
▁ᓇᔥᑫ	-9.5322
▁ᑭᐸᐅᑏᐎᑲᒥᑯᕽ	-9.5323
▁ᑳᑮᐅᓈᐸᒫᒡ	-9.53235
▁ᐁᑕᓱᑮᔑᒃ	-9.53239
ᓬᐊ	-9.53283
ᒪᑲᓅᓐ	-9.53308
▁ᓂᐴᔔᐋ	-9.53316
ᐐᑕᒪᐎᓂᓂᒻ	-9.5334
▁ᐁᐃᔑᓭᓂᒃ	-9.53346
ᓂᐹ	-9.53354
ᑲᓅᓂᑯᒡ	-9.53377
▁ᑌᐺᒪᑲᓐ	-9.53382
▁ᑳᐊᔮᑭᓐ	-9.53428
ᐱᒥᐎᑑ	-9.53479
▁ᐁᐊᐞ	-9.53497
ᑮᐌᐱᒫᑎᓯᐋ	-9.53519
▁ᓃᐎ	-9.53563
▁ᐋᓇᑮ	-9.53602
ᒦᑴᒋᐌᓂᒫ	-9.53671
▁ᐁᑭᑭᔥᑲ	-9.53701
▁ᐁᐃᑭᑐᐙᒡ	-9.53727
ᑫᓂᒡ	-9.53779
ᒥᓇ	-9.53882
ᓭᓂ	-9.53895
ᑯᓰᐙ	-9.53911
ᑯᒡ᙮	-9.53948
ᑲᑴᒋᒫᐙᒡ	-9.53999
▁ᐊᔮᐎᓂᕽ	-9.53999
▁ᑳᑎᐯᓂᒫᒡ	-9.54028
ᐋᐸᑎᓯ	-9.54185
▁ᐁᓅᑕᒧᐙᒡ	-9.54336
ᑑᑖᑯ	-9.54352
▁ᑳᑎᐯᓂᒥ	-9.54444
▁ᐅᐌᓂ	-9.54456
ᑰᔮᓐ	-9.54476
▁ᐃᔑᐌᐱᓯ	-9.54554
ᑭᒋᐊᓄᑮ	-9.5467
ᑮᔑᑲ	-9.54686
ᑎᐸᐊᒫᑰ	-9.54729
▁ᐁᐊ	-9.54789
ᑯᓈᓂᒃ	-9.54961
ᒥᓈ	-9.55023
▁ᐁᐅᒌ	-9.55178
ᐸᐹᒥ	-9.55218
ᓯᓄᒃ᙮	-9.55326
▁ᐴᔔ	-9.55655
▁ᐅᑎᑭᑐᐎᓂᓂ	-9.55666
ᐎᓐᒡ	-9.55675
▁ᓂᑮᐃᒃ	-9.55842
ᒪᓂ	-9.55861
▁ᑲᓇᐌᑕ	-9.5624
ᑲᓇ	-9.56242
ᐙᓂᒡ	-9.56351
ᐙᐸᑕᒣᒃ	-9.56355
▁ᑮᐅ	-9.56355
ᓬᐃ	-9.56468
ᐃᓈᑯᓂᑫ	-9.56502
ᒫᐗᒋᐃᑎᓂᒡ	-9.56533
ᓯᑯ	-9.56579
▁ᑳᐃᔑᒋᑫ	-9.56581
ᑎᐹᒋᒫ	-9.56679
ᐗᔭᐄ	-9.56757
▁ᐁᑮᐊᑕ	-9.56797
ᐱᒧᓭᒡ	-9.56869
ᐃᑎᓱᒡ	-9.56909
▁ᑭᑭᓄᐊᒫᑫᒡ	-9.56972
ᐃᓀᑕ	-9.56982
ᐅᓈᑯᓂ	-9.57089
▁ᓂᑲᐱ	-9.57129
ᐐᑕᒫᑫ	-9.57148
ᑕᐙᐙᓐ	-9.57172
ᐱᓯᑕᐙ	-9.57232
▁ᐐᑕᒪᐎᓇᑰᒃ	-9.5738
▁ᐃᓀᑖᑯᓯᓂᒡ	-9.57908
ᐃᔑᑮᔗ	-9.57917
▁ᐁᑮᒫ	-9.57988
ᐲᑎᑫᐙᒡ	-9.58133
ᑌᐺᔦᑖᑯᓯ	-9.58151
ᑰᔭᕽ	-9.58205
▁ᐊᓇᒥᐁᐎᑭᒫ	-9.58353
ᐐᐃᔖ	-9.58454
ᒉ	-9.58587
ᐸᑯᓭᓂᒥ	-9.58633
ᑌᐱᓭ	-9.58646
ᒣᑭᐸᓐ	-9.58671
▁ᓂᑭᑫᓂᒫ	-9.58743
ᓂᓀᒃ	-9.58794
ᐐᒋᐋᒡ	-9.58849
ᓈᑯᑑᒡ	-9.59002
ᓰᒃ	-9.59002
ᑲᑮᑖᐎ	-9.59009
▁ᐅᑮᓇᑴᑕᐙᓐ	-9.59016
▁ᒪᓯᓇᐃᑲᓂᕽ	-9.59016
▁ᓂᑎᑭᑐᐎᓇᓐ	-9.59016
▁ᒣᕒᐄᓐ	-9.59017
▁ᐱᑾᒋᐊᔭᐋᐎᔥ	-9.59017
▁ᐌᔫᓯᒥᒥᓐᒡ	-9.59017
▁ᐅᒑᓂᒥᓯᒻ	-9.59019
▁ᐐᒋᑭᐌᔭᓐ	-9.5902
ᓯᐙᓈᓐ	-9.5902
▁ᑮᑮᐌ	-9.59022
ᑲᓅᒋᑫᑕᒪᐙ	-9.59024
ᓂᐗᓂᓂᒃ	-9.5903
▁ᒥᓂᓯᕽ	-9.59031
▁ᐱᓯᑕᒧᒃ	-9.59035
▁ᒉᕒᐆᓴᓬᐊᒻ	-9.59056
▁ᐁᐃᓈᒡ	-9.59076
▁ᑳᐱᒫᑎᓯᒡ	-9.5909
▁ᐁᐃᔑᒋᑫ	-9.59103
▁–	-9.59128
ᐊᓉ	-9.59195
▁ᒋᐃᔑᓭᓂᒃ	-9.59204
ᑲᑖ	-9.59292
▁ᑎᐸᐃᑲᓐ	-9.59308
▁ᒦᐗᑭ	-9.59336
▁ᒥᓄᐊᔮ	-9.59403
▁ᔖᑯᐌ	-9.5946
▁ᓈᑫ	-9.59499
ᐗᓀᓐ	-9.59553
▁ᐊᓇᒥᐁᐎᑭᒫᒃ	-9.59651
▁ᐅᑮᐃᓈ	-9.59712
▁ᐁᐐᐃᔑ	-9.59726
ᓵᑭᒋ	-9.59736
ᐙᐸᒥᑯᒡ	-9.59778
▁ᐙᑳ	-9.59902
▁ᐃᑕᐙ	-9.59919
▁ᑫᐃᔑᒋᑫᔮᓐ	-9.60067
▁ᑳᓃᔣᒋ	-9.60083
ᓂᑯᐙᒡ	-9.60087
▁ᒋᐃᔖᒡ	-9.60148
▁ᐁᔮᐙᒡ	-9.60158
▁ᐸᓯᑸᓐ	-9.60382
▁ᑮᐃᓈ	-9.604
▁ᐋᐸ	-9.6043
▁ᐲᑑ	-9.60438
ᓯᐎᓐᒡ	-9.60449
▁ᑳᑮᐃᔑᒋᑫ	-9.60672
▁ᑎᐯᑖᑯᓯ	-9.60678
ᐌᒡ	-9.60689
▁ᐁᒣᓐ᙮	-9.6081
▁ᐃᔑᒋᑫᔦᒃ	-9.60873
▁ᐁᑌ	-9.60903
▁ᐃᓀᑕᕽ	-9.60936
▁ᐁᑌᐺᑕ	-9.6096
▁ᓅ	-9.60961
▁ᑲᔥᑭᑑᓰᓐ	-9.60963
ᑮᑭᑐᒡ	-9.60965
▁ᐃᔑᐱᒫᑎᓯ	-9.60976
▁ᑯᑕ	-9.61008
ᓲ	-9.61187
▁ᒫᒑᒃ	-9.61211
▁ᑎᓄᐎ	-9.61308
ᒧᐗᒃ	-9.61315
ᔑᕽ	-9.61423
▁ᐃᓂᓃᕽ	-9.61496
▁ᒎᐗᐞ᙮	-9.6155
ᐃᔑᓈᑾᒃ	-9.61554
ᓂᐸᓐ	-9.61634
▁ᑳᐊᔮᒃ	-9.61719
▁ᐃᔑᓂᔕᐙᑲᓇᐞ	-9.61814
ᓂᓂ᙮	-9.61901
▁ᐃᑭᑑᒪᑲᓐ	-9.62061
▁ᐊᑖᐌ	-9.62131
▁ᐲᒋ	-9.6217
▁ᑳᐃᓇ	-9.62459
▁ᒪᓂᑑ	-9.62615
▁ᐃᔑᒋᑫᒃ	-9.62722
ᓇᒪᑕᐱ	-9.62748
ᐱᒫᑎᓯᐙᒡ᙮	-9.62795
▁ᐆᑌᓇ᙮	-9.62815
ᑲᓅᓈᓐ	-9.6283
▁ᑳᐊᔮ	-9.62997
▁ᐆ	-9.63101
▁ᐱᑮᐌ	-9.63185
ᑕᓰᓈᐙ	-9.63288
▁ᐁᐸᐹ	-9.63387
ᓯᐙᐙ	-9.63646
ᑖᓇᓐ	-9.63647
ᓂᐙᓐ	-9.63777
ᓈᑾᓂᓂ	-9.63791
ᓈᓂᒡ	-9.63901
▁ᓃᔓ	-9.63903
ᒪᑲᓂᓂᑭᓐ	-9.6403
▁ᐃᓈᒡ	-9.64059
ᔕᔒᐱᑕ	-9.64181
▁ᑖᐅᓂᔑᔑ	-9.64209
ᒋᑲᓂᐎᓂᒡ	-9.64258
ᒥᓯ	-9.64258
ᓂᐳᐙᒡ	-9.64328
▁ᐱᒥ	-9.64343
ᒥᑣ	-9.64369
ᓈᑲᑕᐌᑕ	-9.64372
▁ᑳᐅᒌ	-9.64406
▁ᒪᔥᑯᓰ	-9.64522
▁ᐁᐱᒥ	-9.6455
ᒋᑳᑌᓂᑭᓐ	-9.64562
▁ᑳᑲᑴ	-9.64586
▁ᔕᐌᑖᑯᓯ	-9.64609
▁ᒋᑲ	-9.64708
ᑳᓈᐙ	-9.64903
ᔭᒥᑣ	-9.64914
ᐊᐯᓂᒧᓄᑕ	-9.64945
ᑲᒥᑲᓂᓂᒃ	-9.65006
▁ᐯᕒᐊᓰ	-9.65012
ᑫᓐ᙮	-9.65056
ᐸᑳᓂ	-9.65065
ᐐᓯᓂᐙᒡ	-9.65155
▁ᐊᑮᐎ	-9.65164
▁ᐁᐸᕒᐊᐋᒥ	-9.65172
▁ᑭᑑᔑᐲᐊᒪᐎᓂᓂᒻ	-9.65172
▁ᑳᑮᐅᒌᒡ	-9.65172
ᐸᑭᓈᑫ	-9.65172
▁ᐊᑳᒥᕽ	-9.65172
▁ᐃᔥᒀᑌᒻ	-9.65172
▁ᒥᓂᒀᑲᓐ	-9.65172
▁ᐅᑎᐯᒋᑫᐎᓂᕽ	-9.65174
ᒥᑖᒋ	-9.65185
▁ᐅᑮᐅᑖᐱᓈᓐ	-9.65186
▁ᑾᔭᒀᑎᓯᐎᓐ	-9.65187
▁ᑭᒋᐆᑌᓇ	-9.65189
▁ᑭᑭᑫᑕᓰᒻ	-9.65202
ᐊᑐᒥᓀᒃ	-9.65228
▁ᐁᕒᐊᑕᓐ	-9.65258
ᑫᐎᑭᒫ	-9.65267
ᐱᒥᓂᔕᐊ	-9.6527
ᐃᑯᐙᓐ	-9.65296
▁ᐅᑑᓇᔓᐌᐎᓐ	-9.65313
ᓬᐋ	-9.65323
▁ᑭᒋᑮᔑᒃ	-9.65333
▁ᐃᔑᓈᑾᓂᓂ	-9.65349
ᓂᓯᑣ	-9.65368
ᓂᑣ	-9.65404
▁ᐅᑮᐊᑐᒫᐞ	-9.6542
▁ᐅᐐᓱᐎᓐ	-9.6544
▁ᐅᑮᓈᓯᑲᐙ	-9.65444
▁ᒦᐗᓄᓄ	-9.65603
▁ᑭᑌᑌᐙ	-9.65612
▁ᔕᐌᑖᑯᓯᐗᒃ	-9.65629
▁ᑭᑌᐺ	-9.65631
0	-9.65649
▁ᐃᑴᐗᐞ	-9.65654
▁ᑳᑮᐅᔑᑑᒡ	-9.65663
ᐊᑣ	-9.65701
ᐊᔮᐗᒃ	-9.65741
▁ᑳᐅᓂᔑᔑᓂᓂᒃ	-9.65771
▁ᐁᔑᒋᑫᐙᒡ	-9.65809
ᓂᓀᒀ	-9.65843
ᓰᑭᓇ	-9.65885
▁ᐁᑮᔑᑲᒃ	-9.65893
▁ᒧᔐ	-9.65911
▁ᑭᑭᓄᐊᒪᐙᑲᓐ	-9.65938
ᐁᒃ	-9.65986
▁4	-9.66014
▁ᒪᓯᓇᐃᑲᓐ	-9.6606
ᓂᐳᓂᒡ	-9.66074
ᐌᓂᐗᐞ	-9.66183
▁ᐙᐸᕽ	-9.66209
ᒥᑰᐞ	-9.66243
▁ᑳᐹᑏᓄᐙᒡ	-9.66259
▁ᒋᐋ	-9.66285
▁ᑮᓃᐸᐎ	-9.66382
ᑕᑯᔑᓐ	-9.6642
▁ᑳᐅᓂᔑᔑ	-9.66498
ᓇᓈᑕ	-9.6671
▁ᐅᐱᒫᑎᓯᐎᓂ	-9.66783
▁ᐁᑭ	-9.66798
ᑭᐸᓐ᙮	-9.6687
ᔒᑫᓂᒥ	-9.66931
▁ᑲᑴᒋᒥᑯᒡ	-9.67039
▁ᑮᓂᐳ	-9.67053
ᑎᐯᓂᒫᒡ	-9.6707
▁ᐁᑮᑕᔑ	-9.67115
ᓈᑲᒋᑑ	-9.67506
ᓱᓂᒡ	-9.67629
ᐊᑭ	-9.67643
ᔨ	-9.67693
ᑲᔥᑭᑑᓰᓈᐙ	-9.67724
ᑭᑫᑕᕽ	-9.67845
▁ᐊᐎᔭᐞ᙮	-9.67938
ᐎᓂᓃᕽ	-9.67948
ᒥᓈᓐ	-9.67975
ᓂᑳᑌᒃ	-9.68006
ᐅᑖᐱᓈᒡ	-9.68087
ᒥᓄᐊᔮ	-9.68172
▁ᑮᐌᐱᒫᑎᓯ	-9.68313
ᐅᑖᐱᓇᕽ	-9.68326
ᒦᔑᒡ	-9.68568
ᑎᐗᒃ	-9.68571
ᓀᒀ᙮	-9.68597
▁ᐙᐸᑕᐃ	-9.68671
ᒦᓂᑣ	-9.68723
ᐅᒋᒋᓭ	-9.68757
▁ᐃᔑᓂᔕᐅᒡ	-9.68766
ᐱᒫᑎᓯᔮᓐ	-9.68806
ᑭᔒᐌ	-9.68883
ᑖᐙ	-9.68938
ᒣᒃ᙮	-9.68976
▁ᒋᐃᔑᐱᒫᑎᓯ	-9.69059
ᑭᑌᓂᒫ	-9.69251
ᒪᒋᒋᑫ	-9.69254
ᐲᑎᑲᓂ	-9.696
ᐊᑖᐙᑫ	-9.69659
ᑖᑯᓯᓰ	-9.6972
▁ᒋᓈᓯᑲ	-9.6992
ᒥᓍᐸᒥᑯ	-9.69967
ᓂᔑᐗᓈᒋᐃ	-9.70103
▁ᔔᓂᔮᓐ᙮	-9.7025
▁ᒫᒪᑳ	-9.70353
ᑰᐎᓐ	-9.70475
▁ᑳᐐᐱ	-9.70647
ᐯᑖ	-9.71107
ᑎᐹᑯᓂᐌ	-9.71177
ᕒᐋ	-9.71182
▁ᒋᐃᑭᑐ	-9.71209
▁ᑭᑌᑌ	-9.71268
ᑭᑫᑖᓈᐙ	-9.71276
▁ᑳᐱᒥ	-9.7134
▁ᑮᐲᔖ	-9.71511
▁ᓂᑌᑌᓐ	-9.71522
ᒫᐙᒡ	-9.71646
ᐙᐸᒪᒃ	-9.71647
▁ᒥᑖᔑ	-9.71689
▁ᐗᑭᒋ	-9.71694
ᓯᓄᑭᓐ	-9.71715
▁ᒞᕒᑕ	-9.71731
ᓅᑌᔅᑲᑌ	-9.71731
▁ᐅᑎᔑᓂᔕᐙᑲᓇᐞ	-9.71731
▁ᐱᓀᔒᔕᒃ	-9.71731
▁ᐱᓯᑕᐎᔑᒃ	-9.71731
▁ᑭᑭᔥᑭᑲᓇᓐ	-9.71731
▁ᑭᒋᐅᔑᐲᐃᑫᐎᓐ	-9.71731
▁ᑸᐎᓭᔅ	-9.71731
▁ᒪᒋᐊᒑᑾᒃ	-9.71731
▁ᒪᒋᐊᒑᒃ	-9.71731
▁ᓭᑲᕒᐋᔭ	-9.71731
▁ᐅᑎᔑᒋᑫᐎᓐ	-9.71731
▁ᒪᒋᑑᑕᒧᐎᓇᓐ	-9.71731
▁ᑫᑫᑦ	-9.71732
▁ᓂᑯᑣᓱ	-9.71732
▁ᐅᑕᓇᒥᐋᐞ	-9.71732
▁ᐊᓯᓃᐞ	-9.71734
ᒪᓂᔑᑫ	-9.71735
ᐅᓈᑯᔑ	-9.71735
▁ᓂᑮᓅᑕᐙ	-9.71737
ᒥᒋᓇᐌᓯ	-9.71741
▁ᐁᐃᔑᓂᑳᑌᓂᒃ	-9.71764
▁ᓂᑮᓅᑖ	-9.71775
▁ᑲᑴᒋᒫᒡ	-9.71777
▁ᑳᐃᔑᐊᔮᓂᒡ	-9.7179
▁ᐴᓂ	-9.71803
▁ᒥᒋᓃ	-9.71863
ᐊᓇᒥᐁᑕᒪᐎ	-9.71875
▁ᓅᔅ	-9.71889
▁ᑮᐱᐅᒋ	-9.71898
▁ᐊᓇᒥᐋᒡ	-9.71901
▁ᒦᑲᓇ	-9.71916
▁ᒥᓯᐌᑲᒥᒃ	-9.71955
▁ᐯᕒᐊᓰᐞ	-9.7196
▁ᑳᐃᑭᑐᔭᓐ	-9.71973
ᐊᔭᐄ	-9.7199
▁ᑮᐙᒋᑴ	-9.72025
▁ᐁᒥᓄ	-9.72106
▁ᐐᑾᑎᐎᓐ	-9.72147
ᑕᔑᑕᕽ	-9.72171
▁ᑫᐊᐲᒋ	-9.72179
▁ᐅᑌᐺᑕᒨᐞ᙮	-9.72203
ᒋᐃᑯᒡ	-9.7227
▁ᒋᐱᒫᒋᐃᐌᒡ	-9.72466
ᓂᑯᐸᓀᓐ	-9.725
ᒫᐙᓐ	-9.72514
ᒥᑰᔦᒃ	-9.72559
▁ᑎᐸᐊᒪᐎ	-9.72616
ᑲᓇᐌᓂᒫ	-9.72826
▁ᓂᓯᕽ	-9.72864
ᐗᔦᔑ	-9.73001
▁ᑕᑯᔑᓂᓂᒡ	-9.73008
ᐃᓇᕽ	-9.73242
ᐊᔮᒪᑲᒃ	-9.73242
▁ᐲᔖᓐ	-9.73287
▁ᐐᒌᐙᒡ	-9.73327
▁ᑭᒋᐊᓇᒥᐁᐎᑲᒥᑯᕽ᙮	-9.73349
ᑕᒫᑯᐙ	-9.73386
▁ᑳᐅᒌᐙᒡ	-9.73424
ᐗᑭ	-9.73431
▁ᐱᓈᓯᑲᐙ	-9.73456
▁ᓂᓱᑮᔑ	-9.73518
ᐅᑯᓯᓯᒥ	-9.73523
ᒋᑫᒡ	-9.73546
▁ᒪᐎ	-9.73591
ᐸᑭᑎᓇᒫ	-9.73868
ᒥᓄᑑᑕ	-9.74016
ᒦᓂᑰᔦᒃ	-9.74106
ᑴᒡ	-9.74113
▁ᒋᒥᒋ	-9.74164
ᑭᑌᒃ	-9.74205
▁ᐱᒫᑎᓰ	-9.74229
▁ᐱᒫᑎᓯᒡ᙮	-9.74265
ᑴᒋᒥ	-9.74278
ᑕᒫᑯᒡ	-9.74346
ᔑᒻ	-9.74521
▁ᐱᒫᑎᓯᐎᓂᕽ	-9.74533
ᓈᓈᐙ	-9.74743
▁ᐅᑕᒑᑯᓂ᙮	-9.74767
ᑖᓈᐙᓐ	-9.74778
ᐴᓂᓭ	-9.74803
ᐙᐸᑕᐋ	-9.74892
ᔑᐌᐸᓂᓂᒃ	-9.751
ᐊᓇᒥᑑ	-9.75182
▁ᑫᑕ	-9.75266
ᒥᑯᒡ᙮	-9.75311
ᐅᑖᐱᓇᒪᐙ	-9.75464
ᑕᐸᓰ	-9.75468
ᓂᒪᒃ	-9.75633
▁ᐁᑯ	-9.75656
▁ᐅᑎᑭᑐᐎᓂᓂ᙮	-9.75676
ᒫᒑᔮᓐ	-9.75851
ᐱᐊᑕ	-9.75902
▁ᐐᑎᑫ	-9.75952
▁ᒋᑭᑭ	-9.7606
ᓈᑯᓂᑫ	-9.76091
ᐱᓈᓯᑳᑰᐞ	-9.76212
ᐊᔨᑎ	-9.76241
▁ᐃᔑᓂᔕᐙᑲ	-9.764
ᐊᑑ	-9.76516
ᑭᑫᓂᑎᓱ	-9.76584
ᐸᑯᓭᓂᒫ	-9.7676
ᐅᔑᐋ	-9.76774
▁ᑭᒋᐅᑭᒫᐎ	-9.76776
▁ᑑᑕᐎ	-9.76782
ᐅᔥᑭ	-9.76878
ᑲᐎᓭ	-9.7705
ᐙᐸᓐ᙮	-9.77233
▁ᑳᑮᑭᑐ	-9.77269
▁ᐅᐱᒫᑎᓰᒪᐞ᙮	-9.77373
▁ᒫᒑᒡ᙮	-9.77504
ᐃᑯᓐ	-9.77571
▁ᒋᑲᔥᑭ	-9.77664
▁ᑕᐃᔑᓭ	-9.77667
ᐋᓂ	-9.77858
ᓯᐙᒡ	-9.7796
ᒨᓐ	-9.78048
▁ᐊᔮᔦᒃ	-9.78078
▁ᐁᐙᐸ	-9.7812
ᒌᑫ	-9.78148
ᒪᐎᒡ	-9.78164
▁ᑑᑕᐙ	-9.78168
▁ᑭᑌᐺᑕᒧᐎᓂᐙ	-9.78211
ᓇᑫ	-9.78312
ᑭᒋᓂᑭᕽ	-9.7839
ᓰᓐ᙮	-9.78435
▁ᑭᑖᑮ	-9.78467
ᐲᑎᑫᒡ	-9.78563
▁ᒫᒪᐎ	-9.78588
ᐴᔥᑫ	-9.7863
ᕒᐄ	-9.78688
▁ᒥᑲ	-9.78736
▁ᐅᕒᐆ	-9.78745
ᐅᒋᒌᑾᓃ	-9.7875
▁ᐄᐸᕒᐆ	-9.7875
▁ᐅᑭᑭᔥᑭᑲᓇᓐ	-9.7875
▁ᐅᑾᔭᒀᑎᓰᒪᐞ	-9.7875
▁ᐅᓃᑭᐃᑰᐞ	-9.7875
▁ᐅᔕᐌᒋᑫᐎᓐ	-9.7875
▁ᐊᓄᑮᐋᑲᓇᓐ	-9.7875
▁ᐐᒋᑭᐌᔭᐞ	-9.7875
▁ᐱᓵᓀᑕᒧᐎᓐ	-9.7875
▁ᔕᔒᐯᑕᒧ	-9.7875
▁ᑌᐺᑕᒧᐎᓂᕽ	-9.78751
▁ᓃᑕᓇᒥᐋᒃ	-9.78751
▁ᐐᔭᐤ	-9.78751
▁ᑳᒦᓂᓀᒃ	-9.78751
▁ᑮᐃᓀᑕᒨᒃ	-9.78751
▁ᓰᐲᕽ	-9.78751
▁ᐊᓯᓃᐎ	-9.78753
ᐐᑕᐱᒫ	-9.78754
▁ᑭᐱᒫᑎᓯᐎᓂᐙᕽ	-9.78755
ᒥᓂᒀ	-9.78759
▁ᓂᐲᓂ	-9.78766
▁ᐸᑭᑎᓈᓱᐎᓇᓐ	-9.78768
ᒪᔭᑭ	-9.78769
▁ᑮᐃᓀᑕᓰ	-9.78769
▁ᐐᑕᒪᐎᔑᓈᒻ	-9.78772
ᐅᐱᔥᑳ	-9.78774
▁ᑭᓇᑕᐌᓂᒥᓂᓂᒻ	-9.78782
▁ᐁᔑᐊᔮᓂᒡ	-9.78786
ᑯᑖᒋ	-9.78792
ᔕᐌᓂᒥᓇᕽ	-9.78793
▁ᐁᐊᔮᓂᒡ	-9.78827
▁ᑭᐐᒋ	-9.78833
▁ᑫᐃᔥᒀᓭᓯᓄᒃ	-9.78852
▁ᐐᓀᑕ	-9.7887
▁ᓭᑭᓯᑫᒃ	-9.78916
▁ᒋᒫᒌ	-9.78922
▁ᑎᐹᑯᓂᑫᐎ	-9.78924
▁ᑭᑲᒦᓂᑯᐙ	-9.78942
▁ᐅᑮᐐᑕᒪᐙᐞ	-9.78996
ᑭᐸᐅᑰᔮᓐ	-9.78997
▁ᑭᑭᑫᑖᓈᐙ	-9.79041
▁5	-9.79066
▁ᐃᓇᑭᒫ	-9.79067
ᐅᑖᐱᓂᑳᑌ	-9.79071
▁ᑭᐸᑯᓭᓂᒥ	-9.79078
▁ᑭᑭᔐᒪᓂᑑᒥᓈᓐ	-9.79083
ᓇᐁᑕ	-9.79155
▁ᑳᐐᐅᒋ	-9.79176
▁ᐯᔑᑾ	-9.79245
▁ᑭᑮᐅᒋ	-9.79284
▁ᐊᔓᑕᒫᑫᒡ	-9.79317
▁ᒋᐴᓂ	-9.79345
ᐗᑣ	-9.79378
▁ᐁᓅᑕᕽ	-9.79478
ᓯᐎᑣ	-9.79507
ᓂᓯᒥᓐᒡ	-9.79509
ᓇᑲᑕ	-9.79512
▁ᒪᔥᑲᐎᓰ	-9.79532
▁ᓬᐃ	-9.79539
▁ᒋᑎᐯᑕᕽ	-9.79561
ᐎᒡ᙮	-9.79579
ᓀᑕᒨᒃ	-9.7966
▁ᑳᐃᔑᐊᔮᔦᒃ	-9.79684
ᓈᑾᓯᓂᓂ	-9.79775
ᓂᔥᑳ	-9.79796
▁ᑲᑴᒋᒥ	-9.7991
ᔑᔮᕽ	-9.80053
▁ᒋᐃᓇᓄᑮ	-9.80091
▁ᒋᑑᑕᒫᓐ	-9.80097
ᑕᑾᑭ	-9.80118
▁ᑳᑮᐊᔮᐙᒡ	-9.80144
▁ᑳᑮᓂᑖ	-9.80148
▁ᑳᐃᑭᑐᔮᓐ	-9.80289
▁ᓵᑭᐃ	-9.80335
▁ᑭᔐᒪᓂᑑᓈᕽ	-9.80391
▁ᒋᒥᓄᓭ	-9.80447
ᐊᒧ	-9.8046
▁ᐱᒫᑎᓯᓂᒡ	-9.80472
▁ᓲᑭᑌᐁ	-9.80513
▁ᑕᐱᒫᑎᓯ	-9.80575
ᐅᔑᑑᒡ	-9.80587
▁ᑳᑮᒫᒌ	-9.80636
ᑌᐺᑕᕽ	-9.80828
ᑕᒥ	-9.80909
ᑰᓰᒻ	-9.8101
▁ᓅᑌᓭ	-9.8118
▁ᐐᑕᒫᑫ	-9.81219
ᑳᑌᒃ	-9.81259
ᐅᑕᐌᒫ	-9.81259
ᐸᑭᑎᓇ	-9.81284
ᑲᓇᒃ	-9.81366
▁ᑮᔖ	-9.81477
▁ᑕᑯᔑᓐ	-9.81568
ᑎᐹᑯᓈ	-9.8158
ᑕᒫᑯᐙᒡ	-9.81586
▁ᐃᔖᒃ	-9.81609
ᑭᑭᔥᑳ	-9.81679
ᔕᓐ	-9.81747
ᑎᐱᓭ	-9.81755
▁ᐋᐲ	-9.81822
▁ᐁᒪᒋ	-9.81915
▁ᓅᑕ	-9.81948
ᐃᐌᒡ	-9.81951
ᐃᓇᑭᒥ	-9.82121
ᓈᐞ	-9.82375
ᒫᒑᒡ	-9.82403
ᑌᐺᑕᒧᐙᒡ	-9.82425
▁ᐁᐙᐱ	-9.82449
ᐃᓀᑕᕽ	-9.82741
ᑭᐱᒌ	-9.82834
▁ᐃᔑᐌᐸᒃ	-9.82894
▁ᐅᑯᓯᓴᐞ	-9.82909
▁ᐅᑎᐯᒋᑫᐎᓂᓂ	-9.8291
▁ᐃᐃᐌᑎ	-9.82919
▁ᑲᑭᑐ	-9.82919
▁ᓇᐃᓂᑏᐎᑲᒥᑯᕽ	-9.82928
▁ᑭᐸ	-9.82946
▁ᐃᔖᓐ	-9.8299
ᒫᐗᒋ	-9.83059
ᒀ᙮	-9.8307
▁ᑫᑮᐅᒋ	-9.83091
▁ᐋᑯᓯ	-9.83127
▁ᓰᑲᐊᑖᓱ	-9.83159
ᐐᒌᐎᑯᐙᒡ	-9.83221
▁ᒋᐃᔑᓈᑯᓯ	-9.83243
ᒪᐎᓀᒃ	-9.83278
ᐅᑎᑕᕽ	-9.83288
ᐙᐸᑖᓈᐙ	-9.8336
ᒫᓀᑕᒧ	-9.83459
ᑭᑭᔥᑲᐙ	-9.83542
ᑯᓵ	-9.83613
ᓬᐆ	-9.83737
▁ᐙᐸᒫ	-9.83759
▁ᒋᓇᐃᑕ	-9.83772
▁ᒋᑲᓇᐌ	-9.83907
▁ᓂᐹ	-9.83959
ᐸᑭᑎᓇᒪᐙ	-9.8408
ᓭᓯᒃ	-9.84086
▁ᐸᑭᑎᓇ	-9.8414
ᐅᒋᒋᓭᒃ	-9.84179
ᑎᐯᑕᕽ	-9.84583
▁ᒦᓂᑰᐎᓯ	-9.84585
ᑲᔥᑭᑑᓰᓐ	-9.84683
▁ᑕᑯᔑᓅ	-9.84694
▁ᐃᓇᔥ	-9.84724
ᑭᑫᑕᓰᓐ	-9.84804
▁ᐁᓂᑖ	-9.84864
ᐅᑖᐱᓇᒫ	-9.84875
ᐅᐌ	-9.84988
ᐗᐙᓀᑕ	-9.85096
▁ᐙᐃᔑ	-9.85124
ᐅᓃᒑᓂᓯ	-9.85171
ᒥᕽ	-9.85288
▁ᐅᑌᐺᑕᒨ	-9.85327
ᑯᐸᓀᓐ᙮	-9.85355
▁ᐐᒋᐋ	-9.85386
▁ᐃᓀᑖᑯᓯᐎᓐ᙮	-9.85498
ᓄᐙᒡ	-9.85507
▁ᒋᐃᔖ	-9.85512
▁ᒋᐙᐸᒥ	-9.85523
ᐐᒌᐌᒃ	-9.85531
ᑲᑮᑖᐌ	-9.85568
▁ᐁᑕᓱᐯᔑᑯ	-9.85692
▁ᐁᐐᒋ	-9.85708
ᑯᑯ	-9.85718
▁ᒫᔑ	-9.85866
▁ᐅᑎᐯᒋᑫᐎᓐ᙮	-9.85885
▁ᐅᑮᑭᑫᓂᒫ	-9.85916
ᐃᓀᑕᒻ	-9.86092
▁ᒥᓴᐌ	-9.86102
▁ᒎᑕ	-9.8614
ᑑᓰᓐ	-9.86162
ᐐᓴᑫᑕ	-9.86174
▁ᒋᑎᐹᑯᓂ	-9.86262
ᓃᔑ	-9.86263
ᒫᓇᒑᓂᔑ	-9.86292
ᐸᑾᒋᐱᑑ	-9.863
▁ᐐᔭᐎᕽ	-9.863
▁ᐸᑴᔑᑲᓇᐞ	-9.863
▁ᑭᑯᓯᔅ	-9.863
▁ᑳᑮᐊᔓᑕᒫᑫᒡ	-9.863
▁ᒎᓴᐴᓐ	-9.863
▁ᒫᓇᒑᓂᔕᐞ	-9.863
▁ᓂᑑᑭᒫᒻ	-9.863
ᐌᓅᑕᓂᓂᒃ	-9.863
▁ᑲᓅᓂᑰᓐ	-9.863
▁ᑭᓀᐱᑰ	-9.86301
▁ᓴᒣᕒᐃᔭ	-9.86301
▁ᐁᑭᑐᔦᒃ	-9.86301
▁ᐯᔑᒀ	-9.86301
ᓃᓵᑕᐌ	-9.86301
▁ᐅᑌᐃᕽ	-9.86301
▁ᐌᒌᒃ	-9.86302
▁ᐁᑭᑐᒡ	-9.86302
ᑮᐅᑎᑎᓈ	-9.86302
ᐗᔥᑴ	-9.86302
▁ᓂᑎᓀᑕᓰ	-9.86303
▁ᐊᔓᑕᒫᑎᐎᓐ	-9.86303
ᐊᐯᓂᒧ	-9.86304
ᑭᔐᐙᑎᓯ	-9.86304
ᐗᓃᑫ	-9.86305
▁ᐌᓅᑎᓯᐎᓐ	-9.86307
ᐃᔥᒀᓭᑭᓐ	-9.86308
▁ᓂᐲᕽ	-9.86314
▁ᐁᑮᐃᔖᐙᒡ	-9.86319
▁ᐁᐱᓴᔅ	-9.86322
▁ᑳᐃᓇᑌᒃ	-9.86328
▁ᐁᑎᓄᐎᔮᓐ	-9.86335
▁ᑳᒎᐎᐎᓯᐌᒃ	-9.86357
▁ᒪᒫᔑ	-9.86368
ᒥᓋ	-9.86374
ᐃᔑᐲᐃᑫ	-9.86398
ᓅᑳᑎᓯ	-9.86403
▁ᑳᐃᓂᓐᒡ	-9.8641
▁ᑳᑕᓶᐙᓇᑭᓯᐙ	-9.86418
▁ᑲᓇᐙᐸᒥ	-9.86442
ᑲᓅᑕᒫᑯᒡ	-9.86469
▁ᐅᑮᐃᔑᐎᓈ	-9.86481
▁ᐲᓈ	-9.86481
▁ᑳᒫᒪᐌᓄᓂᒡ	-9.86494
▁ᓇᑴᑕᐙᓐ	-9.865
▁ᐅᐐᓱᐎᓂᕽ	-9.86501
ᐊᓐ	-9.86503
▁ᐅᑌᐺᑕᒧᐎᓂᕽ	-9.86532
ᐃᔑᐎᓈᒡ	-9.86545
▁ᑳᐱᐅᒋ	-9.86551
ᐯᔑᑯᒡ	-9.86576
ᒫᒋᓭᒃ	-9.86596
ᐸᑯᐲ	-9.86708
ᑖᑾᓂᓂᒃ	-9.86726
▁ᑳᑮᐐᒌᐎᑯᒡ	-9.86755
ᐙᐸᑕᒪᕽ	-9.86756
ᑑᑕᒧᐙᒡ	-9.8678
▁ᐗᑎᑾᓇᓐ	-9.86835
▁ᑲᑮᑖᐌᑕᒧᐎᓐ	-9.86835
ᒋᑳᑌᓂᒃ᙮	-9.8687
ᑳᓱᐙᒡ	-9.86905
ᑭᑫᑕᒨᓈ	-9.87092
ᒥᓄᑑᑖᑫ	-9.87093
▁ᓭ	-9.87107
ᐐᓱᐎᓐ	-9.87116
ᑖᑾᓂᓂᑭᓐ	-9.87132
▁ᐅᑌᑌᒫ	-9.87161
▁ᓇᑴᑕᐙᒡ	-9.87172
▁ᑌᐺᑕᒧᐎᓐ	-9.87181
ᑭᑫᑕᒥᓂᒡ	-9.87219
ᓵᑭᐃᑎᔦᒃ	-9.87283
▁ᑲᔥᑭᐋ	-9.87335
▁ᑳᓂᐳᓂᒡ	-9.87399
▁ᑳᓂᐳᐙᒡ	-9.87414
ᐸᑑ	-9.87418
▁ᒋᐙᐱ	-9.87436
ᑲᒀᑕᑭᐃᑣ	-9.87442
▁ᐅᓃᑳᓂᓰᒃ	-9.87515
ᒥᓉᑕᕽ	-9.87544
ᔮᐸᒋᑑ	-9.87594
ᓂᑴᓐ	-9.87627
ᑭᑫᑕᒫᓐ	-9.87715
▁ᑳᑮᔑᑲᓂᓂᒃ	-9.87736
▁ᐃᓀᑕᒧ	-9.87763
ᐌᐎᓐ	-9.87772
▁ᑴᑳᑎᓯ	-9.87813
ᓯᓂᓂᑭᓐ	-9.87835
▁ᑮᐊᓅᑮ	-9.88008
▁ᑖᐃ	-9.88104
ᑑᑕᐎᓐᒡ	-9.88209
▁ᑳᑲᓇᐌ	-9.88266
▁ᑳᑮᐃᔑᒋᑫᓂᒡ	-9.88267
▁ᑮᐊᔮᐗᓐ	-9.88274
▁ᑳᐊᔮᓂᒃ	-9.8843
ᒋᑫᔦᒃ	-9.88456
▁ᒫᐗᒋ	-9.88623
▁ᐁᒫᒌ	-9.88635
ᐱᒥᓂᔕᐙᐙᒡ	-9.88638
▁ᐁᓂᓇᑰᒃ	-9.88667
▁ᐁᒪᑗ	-9.88679
ᐎᓂᓈᓐ	-9.88698
ᐲᔖᓂᒡ	-9.88708
ᔥᑳᑯᐙᒡ	-9.88727
▁ᒋᑮᐌᐱᒫᑎᓯ	-9.88745
ᒪᒋᑑᑕᒧ	-9.88866
ᓂᓂᒻ᙮	-9.88884
▁ᐁᑮᑲᑴ	-9.889
ᑭᑎᒫᑭᓯ	-9.88959
ᓂᓯᑐᑖ	-9.89032
ᑎᐸᐊᒪ	-9.89127
ᒦᕽ	-9.89241
▁ᒦᑭᐌ	-9.89324
▁ᐐᓂᑯ	-9.89357
▁ᐙᐃᔑᒋᑫ	-9.89362
ᐅᑕᑳᓀᓯᒡ	-9.89474
▁ᑳᑾᔭᑯ	-9.89549
▁ᐁᔑᔭ	-9.89605
ᑑᒋᑳᑌ	-9.89811
▁ᑳᐲ	-9.89851
▁ᑎᐹᒋᒧ	-9.89976
ᐊᓂ	-9.90025
▁ᓈᓯᑲᐙ	-9.902
▁ᑭᒪᒋ	-9.90426
ᓂᐙᕽ	-9.9043
ᐃᑰᓐ	-9.90447
▁ᐃᔑᒋᑫᐗᒃ	-9.90465
ᐙᑯᐸᓀᓐ	-9.90486
ᑌᐺᑕᐙᐙᒡ	-9.90491
ᓇᑲᒋ	-9.90555
ᑫᒡ᙮	-9.90619
ᑮᔑᑲᒃ	-9.90803
ᐅᓂᔑᔑᓂᓂ	-9.90886
▁ᓂᑮᐃᒃ᙮	-9.90897
▁ᑳᑮᐐᒋ	-9.9097
ᑑᓈᐙᓐ	-9.9101
ᐅᓂᔑᔑᕽ	-9.91072
▁ᐅᐐᔭᐤ	-9.91095
ᐸᐲ	-9.91121
ᐐᓯᓂᓂᒡ	-9.91235
ᑕᒨᒃ	-9.91252
ᑮᕽ	-9.91354
ᐱᑮᐌ	-9.91367
▁ᑮᑕ	-9.91494
ᓭᒡ	-9.91511
ᐸᑴ	-9.91514
ᒫᒑᐙᒡ	-9.91542
▁ᓵᒥᓈ	-9.91547
ᑭᒋᐅᑭᒫᐎ	-9.9156
▁ᑮᔑᑲᓂᓂᒃ᙮	-9.9167
ᑭᑫᑕᒫ	-9.91898
ᐱᒫᑎᓯᓂᒡ	-9.91979
ᔖᔖᑯᐌ	-9.92055
ᔑᑑᐙᒡ	-9.92191
ᐃᓀᑕᒣᒃ	-9.92196
ᐊᓉᐱ	-9.92234
ᑲᑭᓇ	-9.92256
▁ᑳᑮᐃᓇ	-9.92375
ᐃᓂᑣ	-9.92432
ᐙᑲ	-9.9246
▁ᑭᑕᔮ	-9.92483
ᐌᑖᑾᓂᓂᒃ	-9.92528
▁ᑭᓵᑭ	-9.9262
ᔭᑭᐸᓐ	-9.92824
▁ᑭᐱᒫᑎᓯᐎ	-9.92836
ᑕᒫᑯᓈᓐ	-9.92848
ᐌᓂᒡ	-9.92922
ᒪᔥᑲᐎᓰᓂᒡ	-9.92938
▁ᐊᔮᓂᒃ	-9.92944
▁ᑮᐙ	-9.92994
▁ᓵᑭᐃᑎ	-9.92999
ᒦᓂᑯᐙ	-9.93045
ᐐᑕᒫᑫᒡ	-9.932
▁ᑳᔭ	-9.93313
▁ᐃᔑᒋᑫᐙᒡ	-9.93333
▁ᐯᒫᑎᓯ	-9.93377
▁ᐊᑕᐌᓂ	-9.93448
▁ᑳᑌᐺᔦᓂᒥ	-9.93537
ᐃᓈᐸᒋᑑ	-9.93583
▁ᐃᑴᐗᓐ᙮	-9.93589
ᑭᑫᑕᒨ	-9.93605
ᐅᔑᐲᐊᒪᐎᓇᑰᒃ	-9.93649
ᑲᑴᒋᒥᑯᒡ	-9.93688
00	-9.93781
▁ᑲᔥᑮᑎᐱᑲ	-9.93808
ᐎᓇᑰᒃ	-9.93861
ᐸᔅ	-9.93914
▁ᐹᑏᓇᑎ	-9.93993
▁ᐁᑭᑫᓂᒫ	-9.94018
ᐋᐸᒋᑑᒡ	-9.9408
ᓃᒥ	-9.94271
ᐋᐙᓐ	-9.94361
▁ᑳᑮᐃᑭᑐ	-9.94375
▁ᒋᑲᔥᑭᑑ	-9.94412
ᐅᓇᔓᐌ	-9.94416
ᐱᒫᑎᔅ	-9.9444
ᐊᒸᒡ	-9.94467
▁ᐁᐃᔑᐲᐃᑳᑌᒃ	-9.94467
▁ᐅᑕᓇᒥᐁᐎᑲᒥᑯᓃᕽ	-9.94467
▁ᐅᑕᔭᐄᒥᓂ	-9.94467
▁ᐋᑲᕒᐃᐸ	-9.94467
▁ᐗᑭᒐᔭᐄ	-9.94467
▁ᐱᑾᒐᔭᐄ	-9.94467
▁ᐲᒐᔭᐄ	-9.94467
▁ᑭᑎᑳᓀᔅ	-9.94467
▁ᑭᒋᐆᑌᓈ	-9.94467
▁ᑳᑮᐅᒌᓂᒡ	-9.94467
▁ᒫᓇᒑᓂᔕᒃ	-9.94467
▁ᓂᐐᔭᐎᕽ	-9.94467
▁ᔔᒥᓇᐞ	-9.94467
ᑭᑭᓇᐙᑕᔕᑫᔣ	-9.94467
▁ᐃᔅᕒᐃᔭᓬᐃᑳᕽ	-9.94467
▁ᓂᐐᔭᐤ	-9.94467
▁ᓂᑎᓄᐤ	-9.94467
ᐱᓂᔅᑴ	-9.94467
ᓇᑭᔥᑲᐙ	-9.94467
▁ᑕᐃᑕᔅ	-9.94467
▁ᐋᐃᓯᒃ	-9.94468
ᑾᔮᒌ	-9.94468
▁ᐅᑭᑭᓄᐊᒪᐙᑲᓇᓐ	-9.94468
▁ᐅᓂᔥᑳᑎᓯᐎᓐ	-9.94468
▁ᐃᓈᑯᓂᑫᐎᓇᓐ	-9.94468
▁ᑕᔭᕒ	-9.94468
▁ᐃᓉᐎᓐ	-9.94468
▁ᐁᑕᕒᐆ	-9.94469
▁ᐃᓈᑯᓂᑫᐎᓂᕽ	-9.94469
▁ᐁᓀᑕᒫᓐ	-9.9447
▁ᐅᑕᓇᒥᐋᒃ	-9.94471
▁ᑳᐙᐱᓯᓂᒃ	-9.94472
▁ᐙᓴᑯᓀᒋᑲᓐ	-9.94475
▁ᑲᑴᒋᒫᐞ	-9.94478
ᒪᑲᑌ	-9.94483
▁ᑭᒋᑲᒻ	-9.94485
▁ᐅᑮᐃᑯᐙᓐ᙮	-9.94487
ᑲᑮᒀ	-9.94488
▁ᑳᐋᑯᓯᓂᒡ	-9.94488
▁ᒎᑕᓴᓐ	-9.94494
▁ᑳᑮᐃᑭᑐᑯᐸᓀᓐ	-9.94495
▁ᑭᑎᓂᓐ	-9.94498
ᐃᓍᓂᑎᓱᐙᒡ	-9.94499
▁ᑕᑯᔑᓄᐙᒡ	-9.94503
▁ᓵᑭᐃᐌᐎᓂᕽ	-9.94505
▁ᐙᐸᓄᕽ	-9.94506
ᐐᑕᒫᑫᐙᒡ	-9.9451
ᑎᐸᐃᑲᓀᔮᓂᒃ	-9.94549
▁ᐅᓇᔓᐌᐎᓇᓐ	-9.94559
▁ᐁᔑᑖᓂᒡ	-9.94562
▁ᑳᑮᒦᔑᔭᓐ	-9.94594
ᒨᒋᑫᑕ	-9.94614
ᓇᒪᐙ	-9.94623
ᓯᐎᓐ	-9.94635
▁ᑮᐃᔑᓭ	-9.94659
▁ᐃᔑᐎ	-9.94691
▁ᑭᑭᑫᑖᓐ	-9.94718
▁ᑭᑭᓄᐊᒫᑫᐎᓐ	-9.94755
▁ᐅᑌᒐᓬᐃᒪᐞ	-9.94761
▁ᒣᑴ	-9.94767
ᓅᑖᑯᓯᒡ	-9.94775
ᓇᒪᑕᐱᓂᒡ	-9.94788
ᐃᔑᐎᓈᐙᒡ	-9.94805
▁ᑳᓅ	-9.94809
ᐱᒫᒋᐃᑣ	-9.94839
ᒥᑯᐙ	-9.94884
▁ᐅᑭᒋᓂᑭᕽ	-9.94892
▁ᐃᔑᒋᑫᐎᓇᓐ	-9.94968
▁ᑳᑮᐃᔑᐲᐃᑫ	-9.9506
▁ᐅᑑᒋ	-9.95078
▁ᐁᑮᐋᐸᒋᑑᒡ	-9.95128
ᐸᐸᑭᑌ	-9.95129
▁ᑮᓭᑭᓯ	-9.95139
▁ᑳᑮᓂᐳᓂᒡ	-9.95185
▁ᑫᐊᔮᒡ	-9.95208
▁8	-9.95241
▁ᐙᓭᔮᕽ	-9.95282
▁ᑳᒦᑭᐌᒡ	-9.95282
ᑰᒥᓐ	-9.95343
ᐱᒥᓂᔕᐅᑯᒡ	-9.95361
ᑑᓇᓐ	-9.95366
▁ᑲᑴᒋᒥᒃ	-9.95376
▁ᔔᓂᔮᐎ	-9.95411
▁ᑳᒫᐗᒋ	-9.95417
ᓇᒪᑕᐱᒡ	-9.95422
▁ᐅᑮᑮᐌ	-9.95444
▁ᐅᒋᒋᓭ	-9.95445
▁ᑳᐱᒫᑎᓯᓂᒡ	-9.95468
▁ᐁᔮᐎ	-9.95498
▁ᐁᐅᒋᒋᓭᒃ	-9.95526
ᒫᒋᓂᔕᐙ	-9.95527
▁ᓂᑭᒋ	-9.95539
▁ᐗᓂᔥᑳᓐ	-9.95595
▁ᑮᐲᔖᐗ	-9.9562
ᓈᓂᓐ	-9.95712
ᓂᑖᐎᑭᑑ	-9.95747
▁ᒋᑑᑕᕽ	-9.95769
▁ᑳᐙᐸᑕᒣᒃ	-9.95772
ᑲᓇᐙᐸᒫ	-9.95829
▁ᐁᐙᐸᒥᑯᒡ	-9.95847
▁ᑳᑮᐊᔮᒡ	-9.95938
ᑳᕽ᙮	-9.96042
ᒥᑭᓯ	-9.96135
▁ᐃᓀᑖᑾᓂᓂᒃ	-9.96196
▁ᒌᑫᑕ	-9.96206
ᑑᑕᐎᑣ	-9.96214
ᐴᓀᑕᒪᐙ	-9.96331
▁ᓇᑲᓈᒡ	-9.96357
ᒪᐎᓐᒡ	-9.96363
▁ᐁᐐᒌᐎ	-9.96384
ᑕᔅ	-9.9643
ᓇᓇᐃ	-9.96455
▁ᐃᓀᓂᑎᓱ	-9.96533
▁ᐁᐊᔮᔦᒃ	-9.96555
ᓯᓅᓐ᙮	-9.96624
ᑲᓇᐌᑕᕽ	-9.96664
ᑌᐺᑕᓰ	-9.96721
▁ᐁᑮᓂᐳᒡ	-9.96768
ᒥᓴᐌᑕᒫᓐ	-9.96856
ᐅᑎᓯᓇᑰᒃ	-9.96887
ᓂᔑᐗᓈᑎᓯᐙᒡ	-9.96929
▁ᐁᔑᒋᑫᒡ	-9.97114
ᐅᓈᐸᒫ	-9.97158
ᓀᓂᒫᒡ	-9.97172
▁ᐸᑭᑎᓇᒪᐙ	-9.97195
▁ᒋᑭᑫᓂᒥ	-9.97298
▁ᐅᒪᒋ	-9.9752
▁ᒪᒋᐊᒑᑾᐞ᙮	-9.97571
ᓰᐗᐞ	-9.97632
ᑳᒻ	-9.97632
ᐱᒧᓭᐙᒡ	-9.97719
▁ᑭᑫᑕ	-9.97856
ᔫᓐ	-9.9786
ᑲᓇᐌᑕᒧᐙᒡ	-9.98001
ᓇᑴᑕᐙᐞ	-9.9804
ᑯᓯᒃ	-9.98127
▁ᐅᒋᒋᓭᒃ	-9.98204
ᑭᑫᑖᓐ	-9.98509
ᑭᑫᑖᒥᓐ	-9.9856
▁ᐁᐃᑯᒡ	-9.98607
▁ᑑᑕᕽ	-9.98674
ᑭᑫᑕᒪᕽ	-9.98726
▁ᑳᒎᐎᐎ	-9.98964
ᒥᓇᐋ	-9.99038
▁ᐅᑮᐋ	-9.99092
ᑎᔭ	-9.99094
▁ᐃᔑᓂᔕᐙᑲᓇᐞ᙮	-9.99163
▁ᐃᑭᑑᒪᑲᓐ᙮	-9.99178
ᐐᑕᒪᐙᐙᒡ	-9.9925
ᐃᑭᑐᓰ	-9.99391
▁ᐸᑭᑎᓂᑎᓱ	-9.99453
ᑖᑯᓰ	-9.99668
ᑖᑯᔅ	-9.99711
▁ᒫᒑᐙᒡ	-9.99775
ᔑᓄᐙᒡ	-9.99909
ᐹᑏᓄ	-10
ᐐᒋᑭᐌ	-10.0003
ᓂᒥᓀᒃ	-10.0009
ᑭᒫᐎᒡ	-10.0014
▁ᐃᐌᑎ	-10.0024
ᐋᓂᒡ	-10.0024
▁ᐁᐐᐃᔑᒋᑫ	-10.0036
▁ᐅᑮᐃᔑᓂᔕᐙ	-10.0042
ᐅᒌᐙᒡ	-10.0043
ᑕᔑᑕᒫᓐ	-10.0044
ᐐᒋᑣ	-10.0045
ᑲᑴᐃᔑ	-10.005
ᐊᔮᒪᑲᓐ	-10.0053
ᓯᓅᓂᓂᒻ	-10.0065
▁ᑮᐃᑭᑐᐗᐞ	-10.0084
ᐅᓵᐎ	-10.0104
ᐊᓇᒥᐁᑕᐙ	-10.0111
▁ᓂᓯᑐ	-10.0125
ᑕᓯᕽ	-10.0126
▁ᒋᐲᑎᑫ	-10.0129
ᐃᔑᐌᐱᓯᐙᒡ	-10.0139
ᑕᑫᓐ	-10.015
▁ᐃᔑᐲᐃᑳᑌ᙮	-10.0156
▁ᑳᑮᒦᓂ	-10.0157
▁ᑮᐱᑕᑯᔑ	-10.0158
ᒋᑳᑌᐗᓐ	-10.0171
ᐊᑯᓴᑲᐅ	-10.018
▁ᑮᒫᒑ	-10.0183
ᓂᒫᐙᒡ	-10.0183
▁ᓈᓯᑲᐎ	-10.0195
ᐳᐗᐞ	-10.0196
▁ᐊᐎᔭᒃ᙮	-10.0216
ᐸᑭᑌ	-10.0222
ᑯᐲ	-10.0228
ᐐᒌᐎᑯᒡ	-10.0233
ᐅᑕᒥ	-10.0236
ᑭᓱᒡ	-10.0238
ᐱᒧᓭᓂᒡ	-10.0246
ᒪᑲᓯᓅᓐ	-10.0246
ᓂᓯᑰ	-10.0248
▁ᒋᐸᐹ	-10.026
ᓈᓯᑲᐙᐙᒡ	-10.0268
ᓈᓂᐗᕽ᙮	-10.0271
▁ᓇᐹ	-10.0279
▁ᒉᕒᐆᓴᓬᐊᒥᕽ᙮	-10.0292
ᐊᓂᐅᒋ	-10.03
ᑲᒀᑕᑫ	-10.03
▁ᒫᕒᑕ	-10.0301
▁ᐅᑌᒐᓬᐃᒪ	-10.0304
ᑕᒪᐙᓂᒡ	-10.0307
ᕒᐁ	-10.0309
ᒫᑫᓐ	-10.0313
ᐊᓵ	-10.0316
▁ᒋᐃᓈ	-10.0318
ᓃᐸᐎᐙᒡ	-10.0318
ᓯᔮᓐ	-10.032
▁ᒫᒋ	-10.0321
ᓶ	-10.0325
ᑖᑾᑭᓐ	-10.0331
ᓃᐸᐎᒡ	-10.0332
▁ᓂᓯᒥᑕᓇ	-10.0336
ᐅᑳᐎᒥᓇᑲᔒ	-10.0336
ᒪᐗᑎᓯ	-10.0336
▁ᐁᐃᑭᑐᓂᒡ	-10.0336
▁ᐁᔑᐲᐃᑳᑌᓂᒃ	-10.0336
▁ᐅᑌᒐᓬᐃᒥᓂ	-10.0336
▁ᐅᒥᔅᑸᒥ	-10.0336
▁ᐅᒥᔅᑸᒻ	-10.0336
▁ᐗᓇᑯᔕᒃ	-10.0336
▁ᐲᓬᐃᑭ	-10.0336
▁ᑫᐴᓂᓭᓯᓂᓂᒃ᙮	-10.0336
▁ᑳᐃᑭᑑᒪᑲᒃ	-10.0336
▁ᑳᐅᒋᑎᐯᑖᑯᓯᐙᒡ	-10.0336
▁ᒎᓇ	-10.0336
▁ᒑᐸ	-10.0336
▁ᒣᒥᑕᑫ	-10.0336
▁ᒥᓈᑾᐅᓐ	-10.0336
▁ᒥᔅᑶ	-10.0336
▁ᒥᔅᑸᓂ	-10.0336
▁ᓭᐸᑏ	-10.0336
▁ᓵᐃᓬᐊᓴᓐ	-10.0336
▁ᐃᔥᒀᑌᒪᓐ	-10.0336
▁ᑳᐃᔑᓂᑳᓱᓂᒡ	-10.0336
ᓃᓇᒥᓯ	-10.0336
▁ᐃᔅᑏᐱ	-10.0336
▁ᐋᓇᓈᔭᔅ	-10.0336
▁ᒪᓂᑑᑳᓇᒃ	-10.0336
▁ᐊᓇᒥᐁᐎᑲᒥᒃ	-10.0336
▁ᑌᒥᓂᒃ	-10.0336
ᐐᑕᓄᑮᒥ	-10.0336
▁ᐁᓀᑖᑾᓂᓂᒃ	-10.0336
▁ᓃᒋᑭᐌᔭᒃ	-10.0336
▁ᓭᑕᓇᓐ	-10.0336
ᐲᑯᐱᑑ	-10.0336
▁ᑳᑎᐸᐃᑫᐃᐌ	-10.0336
ᐸᑯᓭᓂᒧ	-10.0336
ᑲᔥᑮᑮᐎᓐ	-10.0336
▁ᓂᓇᑕᐌᓂᒫ	-10.0336
▁ᑲᐸᕒᓂᔭᒦᕽ	-10.0336
▁ᐃᔑᓂᑳᓱ	-10.0336
▁ᑳᒥᓍᐸᑕᕽ	-10.0337
▁ᑲᑴᒋᒫᐙᓐ	-10.0337
▁ᐊᐯᓂᒧᐎᓐ	-10.0337
▁ᐅᑖᐱᓇᓐ	-10.0337
▁ᐊᔕᐙᐱᒃ	-10.0337
▁ᑮᐃᑎᐗᒃ᙮	-10.0337
ᐸᓂᐅ	-10.0337
▁ᑳᑭᑎᒫᑭᓯᐙᒡ	-10.0337
ᔥᑳᒃ	-10.0338
▁ᐱᔑᒀᑎᓯᐎᓐ	-10.0338
▁ᐅᑎᐹᒋᒧᐎᓂᓂ	-10.0338
ᐸᓃᓐ	-10.0338
▁ᑭᒫᒫ	-10.0338
▁ᐋᑕᒻ	-10.0339
ᑭᑭᓄᐊᒫᑯᐙ	-10.034
▁ᓂᓃᒑᓂᓴᒃ	-10.034
ᑕᔑᒫ	-10.034
▁ᑲᓇᐌᒋᑫᐎ	-10.0344
▁ᐸᑭᓯᑭᓐ	-10.0346
▁ᑭᑭᑭᓄᐊᒪᐙᑲᓇᒃ	-10.0346
ᐸᑭᑎᓈᒡ	-10.0347
▁ᐲᐙᐱ	-10.0348
▁ᐅᑎᓀᑕᒧᐎᓂᐙ	-10.0348
ᑳᓂᐎ	-10.035
ᑲᔥᑭᑑᐙᒡ	-10.0352
▁ᒋᐱᒫᑎᓯᒡ	-10.0354
ᐅᓈᑯᓈ	-10.0357
ᓵᑭᐁᒀ	-10.0365
▁ᑭᑭᓄᐊᒪᐙᒡ	-10.0366
▁ᐅᑮᐙᐸᒫᐙᓐ	-10.0373
ᐅᒻᐺᑲᒥᑭᓯ	-10.0375
▁ᑳᐸᐹ	-10.0376
▁ᓃᑳᓂ	-10.0376
▁ᑳᐃᔑᓈᑯᓯᐙᒡ	-10.0381
▁ᑕᓯᓐ	-10.0385
▁ᐅᑲᐃᔑ	-10.0387
ᓵᑲᐊᕽ	-10.0388
▁ᑫᐃᔑᓈᑾᒃ	-10.0388
ᐲᒋᓂᔕᐙᒡ	-10.039
ᒋᑫᒡ᙮	-10.039
▁ᐅᑖᑮ	-10.0393
▁ᐅᓂᒌᕽ	-10.0394
ᑯᓈᐙ	-10.0406
▁ᐹᒫ	-10.0406
▁ᐸᑭᑎᓂᑰ	-10.0408
▁40	-10.041
▁ᑳᑮᒦᔑᒡ	-10.0413
ᐊᑕᐌᓂᒫᒡ	-10.0413
ᑲᔥᑮᑎᐱᑲᓂᓂᒃ	-10.0414
▁ᐁᐐᑲᑴ	-10.0414
▁ᐁᐐᐊᓂ	-10.0416
▁ᑫᐃᑭᑐᔦᒃ	-10.0417
ᑕᒪᐎᒃ	-10.0419
ᐗᓯ	-10.0427
▁ᐐᔭᐎᒫᕽ	-10.043
ᓇᑭᑣ	-10.0433
▁ᒋᐃᔑᓭ	-10.0435
▁ᒋᑑᑕᒧᐙᒡ	-10.0436
▁ᐅᑕᓄᑮᐎᓂᐙᓐ	-10.0439
ᐃᑯᔦᒃ	-10.044
▁ᑳᑑᑕᒧᐙᒡ	-10.0441
▁ᐅᑮᐃᔑᓂᔕᐙᓐ	-10.0446
ᐊᑕᐙᐸᒥ	-10.0455
ᐃᓀᑖᑯᓯᒡ	-10.0458
ᒪᑣ	-10.0464
ᐅᓇᑭᒥ	-10.0465
ᑖᑰᐞ	-10.0472
ᑌᐱᓇᒧ	-10.0474
ᑮᓂᓯᑯ	-10.0475
ᐅᒌᒪᑲᓂᓂ	-10.0479
▁ᑎᐸᐃᑫ	-10.048
▁ᑳᐃᔑᐊᔮᒡ	-10.0484
ᑌᐺᔦᑕᕽ	-10.0485
ᑲᒀᑕᑭᐋ	-10.049
ᐃᑰᐎᓯ	-10.0498
ᐌᑴᓐ	-10.0499
▁ᑭᑎᔑᒋᑫ	-10.0507
ᐐᑲᑴ	-10.0507
▁ᓵᐃᑕ	-10.0508
ᓇᐞ	-10.0508
ᐐᒌᐎᓂᓂᒻ	-10.0509
ᑌᐺᔦᓂᒫᒡ	-10.0513
▁ᐅᒋᑕᑯ	-10.0517
ᐃᓀᓂᑎᓱ	-10.0524
ᓅᑌᓭᔦᒃ	-10.0547
▁ᑲᓇᐙᐸᒫ	-10.0566
ᐙᐸᑕᒥᓂᒡ	-10.0572
▁ᐅᑯᓯᓯᓂ	-10.0574
ᑑᑕᐎᓀᒀ	-10.0575
▁ᑳᑮᐃᑯᒡ	-10.0581
▁ᐁᕒᐊ	-10.0584
▁ᑳᐊᓄᑮ	-10.0596
▁ᐁᑮᒥᒋ	-10.0598
▁ᒋᐊᔮᒡ	-10.06
▁ᐐᑕᒪᐙᒡ	-10.0603
▁ᐅᔥᑭᓃᑭᑴᓐ	-10.0604
▁ᐃᓀᑕᒣᒃ	-10.0605
ᒋᑳᑌᑭᓐ	-10.0607
▁ᑭᒋᐅᑭᒫᐞ	-10.0623
ᒥᓍᐸᑕ	-10.0634
▁ᑳᐃᓈ	-10.0634
▁ᑳᐃᑯᐙᒡ	-10.0636
ᓂᐙ	-10.0641
▁ᐅᒪᒋᑑᑕᒧᐎᓂᐙᓐ᙮	-10.0652
▁ᔔᓂᔮᐗ	-10.0661
ᓈᓯᑲᐙᒡ	-10.0678
ᔖᑯᐌᐗᒃ	-10.0681
▁ᒋᐱᒫᒋ	-10.0682
ᑕᔑᑌᓂᒃ	-10.069
ᒋᑳᑌᓂ	-10.0694
ᒋᑳᑌ	-10.0695
ᐎᓀᒃ	-10.0701
ᓅᑕᕽ	-10.071
ᓵᒥᓈᒡ	-10.071
▁ᐅᐐᔭᐤ᙮	-10.0718
ᑕᑭᐸᓐ	-10.0721
ᓵᑲᐊᒻ	-10.0723
▁ᑳᑮᐐ	-10.0726
ᑎᐹᑐᑖ	-10.0728
ᒦᑭᐌᒡ	-10.074
▁ᓇᐃᓂᑏᐎᑲᒥᑯᕽ᙮	-10.0751
▁ᑭᒨᑎ	-10.0753
ᑎᔭᕽ	-10.0758
ᐊᑌᓂᒃ	-10.0776
ᐐᐃᔑ	-10.0784
ᓇᒥᓂᒡ	-10.0792
ᐃᔥᐯᓂᑎᓱ	-10.0794
ᕒᐃ	-10.08
▁ᑳᐙᐸ	-10.0811
▁ᐃᓀᑖᑯᓯᐙᒡ	-10.0814
▁ᑫᐃᑭᑐ	-10.0817
▁ᒋᓂᐳ	-10.0819
▁ᒫᒑᓂᒡ	-10.0822
▁ᑳᑮᑭᒋ	-10.0825
▁ᐃᔖᐙᒡ	-10.0825
ᐊᒃ	-10.0827
ᐲᔖᔮᓐ	-10.0829
▁ᒨᔥᑭᓀ	-10.084
ᑎᐹᑯᓂ	-10.0865
ᒥᓂᑴᒡ	-10.0865
▁ᑫᐊ	-10.087
ᐃᔥᒀᓭᒃ	-10.0875
ᒦᑳᓈ	-10.089
ᑭᐲ	-10.0896
ᐅᓈ	-10.0909
▁ᐅᑲᐱ	-10.0931
▁ᒋᒪᓈ	-10.0933
ᑮᐌᓄᑕ	-10.0941
ᐊᔮᓯᐌᒃ	-10.0963
ᒥᓇᕽ	-10.0977
▁ᐅᒪᒋᑑᑕᒧᐎᓂᐙᓐ	-10.0979
ᒫᒌᑑ	-10.099
ᓂᓯᑕᐎᓇ	-10.101
▁ᑳᑮᐅᔑ	-10.1012
ᑲᑴᑗ	-10.1022
ᐱᔭ	-10.1037
ᓲᓐ	-10.1044
▁ᑳᓃᑳᓀᑖᑯᓯ	-10.1048
ᒋᒥᒥᓐᒡ	-10.1052
ᐄ	-10.1057
▁ᒥᓂ	-10.1058
▁ᐁᓈᓴᒦ	-10.106
ᑲᑮᓇᐎᔥᑭ	-10.1066
ᓲᑭᑌᐁ	-10.1069
▁ᐸᑭᑎᓈᒡ	-10.107
▁ᒋᒨᔥᑭᓀ	-10.1072
ᐙᐸᒫᓈᓐ	-10.1082
ᔭᒃ	-10.1092
ᑭᑫᑕᓯᒃ	-10.1108
ᒫᒦᓄ	-10.1117
ᑫᐎ	-10.1122
ᓃᔑᓂᒡ	-10.1128
▁ᐅᓇᔓᐌᐎ	-10.114
ᐱᓈᒡ	-10.1152
ᓂᐗᕽ	-10.1153
▁ᓂᓯᑰ	-10.1155
▁ᑳᐊᔮᐙᒡ᙮	-10.1162
▁ᑭᑲᔑ	-10.1165
▁ᐅᑮᐊᐎ	-10.117
ᑎᓯᒡ	-10.1178
▁ᐗᓂᔥᑳ	-10.1182
▁ᐁᐊᑕ	-10.1194
▁ᐌᐱᓇ	-10.1208
ᑖᐗᒃ	-10.1212
▁ᐃᓀᑖᑾᓂᓂ	-10.1215
ᐱᒫᑎᓯᐎᓂᕽ	-10.1233
▁ᑮᐊᓇᒥᐋ	-10.1263
ᐊᔓᑕᒫᑎ	-10.1265
▁ᑭᑎᑫᐎᓂᓂ	-10.1266
ᑎᔦᒃ᙮	-10.1273
ᓰᐗᓐ	-10.1276
ᑭᐸᐅᑰ	-10.1285
ᐅᓂᔑᔑᓂᓂᒃ	-10.13
▁ᐹᑏ	-10.1301
ᔥᑳᒪᑲ	-10.1301
ᒫᐗᒋᐃᑎᔦᒃ	-10.1306
ᓇᓈᑯᒧ	-10.1311
ᒥᑕᑎᒻ	-10.1311
ᐐᑕᓄᑮᒫ	-10.1312
ᐸᐹᐱᓯᔅᑫᑕ	-10.1312
▁ᐁᐃᔑᓂᑳᓱᒡ	-10.1312
▁ᐅᐐᔭᐎᕽ	-10.1312
▁ᐅᑌᐃᐙᕽ	-10.1312
▁ᐅᑭᒋᐅᑭᒫᒥᐙᓐ	-10.1312
▁ᐅᒥᔅᑸᓂ	-10.1312
▁ᐊᓄᑮᐋᑲᓇᒃ	-10.1312
▁ᐯᑕᓬᐃᐁ	-10.1312
▁ᐱᑾᑕᑲᒥᑳᕽ	-10.1312
▁ᐹᕒᓇᐸᓴᓐ	-10.1312
▁ᑭᒪᒋᑑᑕᒧᐎᓂᓈᓂᓐ	-10.1312
▁ᑳᐅᔥᑳᑎᓯ	-10.1312
▁ᑳᐱᒫᒋᐃᓇᕽ	-10.1312
▁ᒌᑲᔭᐄ	-10.1312
▁ᓂᑭᔐᒪᓂᑑᒻ	-10.1312
▁ᓬᐋᓴᕒᐊᔅ	-10.1312
▁ᓵᑲᐃᑲᓐ	-10.1312
▁ᐁᑭᑐᔮᓐ	-10.1312
▁ᐅᒥᓍᑎᓰ	-10.1312
▁ᐗᑸᕽ	-10.1312
▁ᑫᓅᑕᒪᐙᐙᒡ	-10.1312
▁ᑭᑫᑌᔭᐋᒥᓈᐸᓃᒃ	-10.1312
▁ᑭᒪᒋᑑᑕᒧᐎᓂᐙᓐ	-10.1312
▁ᓵᐃᒪᓇᓐ	-10.1312
▁ᔖᐗᓄ	-10.1312
ᐗᐌᔑ	-10.1312
▁ᑮᒋᐱᒫᑎᔅ	-10.1312
▁ᓂᑖᓇᑮ	-10.1312
▁ᐅᓈᑯᔑᓂᓂᒃ	-10.1312
▁ᓵᐃᓬᐊᔅ	-10.1312
▁ᑌᓄᐎ	-10.1312
ᑮᔖᐯᐎ	-10.1312
▁ᐊᐌᒋᑫᐎᓐ	-10.1312
ᐸᔭᑌ	-10.1313
▁ᑭᑌᐺᔦᑕᒧᐎᓂᐙ	-10.1313
▁ᐐᑕᓇᒥᐋᓐ	-10.1313
ᒪᑕᐐ	-10.1313
ᔖᑲᓱ	-10.1313
ᑭᔐᐹᐗᑲᓂᓂᒃ	-10.1313
▁ᐊᓇᒥᐋᐎᓂᕽ	-10.1313
▁ᑳᐅᔫᓯᒥᒥᓐᒡ	-10.1313
ᐋᓍᐸ	-10.1313
ᒪᑲᓯᓂᓂ	-10.1313
▁ᐅᐐᓱᐎᓂᓃᕽ	-10.1313
ᓰᑭᓈᓐ	-10.1314
▁ᐅᑮᒥᑲᐙ	-10.1315
ᑌᐺᐎᓂᐎ	-10.1315
▁ᐊᓇᒥᐋᐎᓐ	-10.1315
▁ᑕᓱᑮᔑᒃ	-10.1316
▁ᐱᑕᑯᔑᓂᓂᒡ	-10.1318
▁ᐃᓂᓃᑳᕽ	-10.1318
▁ᑭᑫᑕᒧᒃ	-10.1319
▁ᑲᑴᒋᒫᓐ	-10.132
▁ᐁᑾᔭᒀᑎᓯᒡ	-10.132
▁ᐁᐃᓈᐙᒡ	-10.1321
▁ᓭᑭᓯᑫᓐ	-10.1321
▁ᐯᑳᓂᓯᐙᒡ	-10.1322
▁ᑕᐹᑏᓄᐗ	-10.1323
▁ᓂᑎᓀᑕᒻ	-10.1323
▁ᑫᔭᐸ	-10.1324
ᕒᐃᔅ	-10.1326
▁ᑳᓵᑭᐋᒡ	-10.1326
▁ᐁᑭᑑᒪᑲᒃ	-10.1328
ᓵᑲᐊᒥᓂᒡ	-10.1329
ᒥᓉᑕᒧᐙᒡ	-10.133
▁ᐙᐅᒋ	-10.1333
▁ᑮᒥᓄᐊᔮ	-10.1333
ᑯᑖᓀᓂᒫ	-10.1334
▁ᓃᒌ	-10.1334
▁ᓂᑮᐊᓂ	-10.1335
▁ᑴᑭ	-10.1335
▁ᑮᐃᔑᓂᑳᓱᐗᓐ	-10.1336
▁ᑕᐃᔑᒋᑫ	-10.1336
▁ᑳᐯᐸᑳᓉᐙᓇᑭᓯ	-10.1338
▁ᐐᓀᑕᐙ	-10.1339
▁ᑳᑎᐯᑕᒥᓂᒡ	-10.1339
▁ᑳᑮᐊᓂ	-10.1341
ᐐᑑᑲ	-10.1341
ᑕᑯᓈ	-10.1344
▁ᐁᔑᓈᑯᓯᐙᒡ	-10.1345
ᐐᑕᒫᑫᔮᓐ	-10.1345
▁ᒥᑎᑯᕽ	-10.1346
ᒪᔥᑲᐙ	-10.1346
ᐸᒦᑕ	-10.1348
▁ᑳᐃᔑᑖᓂᒡ	-10.1348
▁ᑲᐯᔑ	-10.1351
▁ᔂᓬᐊᒪᓐ	-10.1352
▁ᐅᑭᑫᑖᓐ	-10.1353
ᐊᓯᓃᒃ	-10.1357
▁ᐅᒦᑭᐌᐎ	-10.1359
ᑭᑑᒪᑲᓂᓂᒃ	-10.136
ᐱᒥᔑᓂᓂᒡ	-10.136
ᐐᑎᑫᒫᒡ	-10.1361
▁ᑫᐃᔑᐌᐸᒃ	-10.1363
▁ᑮᒋᑭᐌᓯ	-10.1365
▁ᑮᐊᓂᐅᒋ	-10.1365
ᓈᑲᒋᐃ	-10.1368
▁ᑭᑲᐐᒌᐎᑯᒻ	-10.1369
ᑎᔭᔅ	-10.1369
▁ᐅᐱᒫᑎᓰᒃ	-10.137
ᒥᓴᐌᑕᕽ	-10.1372
ᐐᒋᐃᒃ	-10.1375
▁ᓂᑮᐙᐸᑖᓐ	-10.1376
ᐸᑭᔑᕽ	-10.1379
▁ᒋᐃᔑᒋᑫᔦᒃ	-10.1384
ᑭᑫᑕᓯᒀ	-10.1386
▁ᒋᐊᓄᑮ	-10.1387
▁ᑌᐺᔦᓂᒥ	-10.1387
▁ᑌᐺᑕᒥᓂᒡ	-10.1387
ᐸᑭᑕᐙ	-10.1388
▁ᐅᑮᑲᓅᓈᓐ	-10.1389
ᑲᓅᑕᒪᐙᐙᒡ	-10.139
▁ᒋᐅᑎᓯ	-10.1391
▁ᑭᐐᔭᐎᐙᓐ	-10.1392
ᐊᓄᑮᑕᐙᒡ	-10.1399
▁ᒋᑌᐱᓇᒧ	-10.1402
▁ᓂᔣᓱ	-10.1408
▁ᑳᑲᓇᐌᑕᕽ	-10.1423
ᐊᓇᒥᐁᑕᐙᐙᒡ	-10.1427
ᐸᓂᑯ	-10.1429
ᒪᑲᒫ	-10.143
▁ᐅᑲᐅᒋ	-10.1431
ᐱᓀᓯᐗ	-10.1434
ᓅᑕᒥᓂᒡ	-10.1436
▁ᐁᐐᒌᐌᒃ	-10.1437
▁ᐁᑮᑲᓅᓈᒡ	-10.1446
▁ᑫᑰ	-10.1446
▁ᒦᓂᓐ	-10.1448
ᑎᓯᐎᓂ	-10.145
ᐐᒋᐋᐙᒡ	-10.1453
ᑲᓇᐙᐸᒫᒡ	-10.1466
ᐌᓅᑎᓯᐙᒡ	-10.1472
▁ᒋᑑᑕᒣᒃ	-10.1474
▁ᑳᐱᒥᓂᔕᐅ	-10.1477
▁ᓂᐳᐎᓐ᙮	-10.1478
▁ᑳᑮᐃᑭᑐᓂᒡ	-10.1479
ᒥᓍᑎᓯ	-10.148
▁ᑕᒦᓈ	-10.1481
ᑕᒪᐎᓇᕽ	-10.1487
▁ᒋᐃᔖᓂᒡ	-10.1489
▁ᑳᐃᔑᓭᓂᒃ	-10.1492
ᔮᑭᐸᓐ	-10.1492
▁ᑮᒫᒪᐎ	-10.1494
▁ᒋᐃᔖᐙᒡ	-10.15
▁ᑮᒥᒋ	-10.1503
▁ᐁᓂᐹ	-10.1519
▁ᐃᔖᐗᒃ	-10.1531
ᓯᓅᓇᓐ᙮	-10.1539
ᑌᐺᑕᐌᒃ	-10.1544
ᑳᒋᑎᓈ	-10.1545
ᑕᑯᓇᕽ	-10.1553
▁ᑫᑭᒋ	-10.1553
▁ᐅᑎᔑᒋᑫᐎᓂᐙᓐ᙮	-10.1555
▁ᑮᑮᐌᐱᒫᑎᓯ	-10.1562
▁ᐅᑮᑭᒋ	-10.1563
▁ᒋᐙᐸ	-10.1568
▁ᐁᐙᐸᑕᕽ	-10.1569
▁ᐃᓈᑯᓂᑫᐎᓐ᙮	-10.1578
▁ᑭᑫᑖᓐ	-10.1587
ᐊᔮᐗᕽ	-10.1596
ᑯᓂᒡ᙮	-10.1599
▁ᒋᐐᒌᐎᑯᒡ	-10.1603
▁ᐊᓉᐱ	-10.161
ᑑᓈᐙ	-10.1615
▁ᐯᒫᑎᓯᐙᒡ᙮	-10.162
ᑲᓅᑕᒪᐙ	-10.1627
▁ᐁᑭᑫᓂ	-10.1641
ᑕᒫᑯ	-10.1644
ᑲᑮᑖᐌᑕᕽ	-10.1647
ᐙᐸᒋᑳᑌ	-10.166
▁ᓯᓬ	-10.1663
ᒪᐙᐙ	-10.1663
ᐸᑭᑎᓂᑰ	-10.1673
▁ᑳᒫᒪᐎ	-10.1687
ᓈᑯᓂ	-10.1688
ᒥᓴᐌᒋᑫ	-10.1691
▁ᑭᔒᐌ	-10.1692
▁ᑑᑖ	-10.1695
ᓭᑕ	-10.1741
▁ᐙᐸᑕᒣᒃ	-10.1745
▁ᒫᐗᒋᐃᑎᓂᒡ	-10.1748
▁ᒋᑎᐯ	-10.1764
ᐯᔑᑾ	-10.1765
▁ᐃᔑᒫᒑ	-10.1766
▁ᐁᒋᑳᑌᒃ	-10.1778
▁ᐱᐊᑕ	-10.1786
▁ᐊᓅ	-10.1787
ᑲᓅᓂᓇᑰᒃ	-10.1787
ᑭᑌᓂᒧ	-10.1799
ᒥᓴᐌᑕᒧᐙᒡ	-10.1821
ᐱᓯᑖᑯ	-10.1836
▁ᑳᑮᐃᓂ	-10.1836
▁ᑲᓅᑕᒪᐙᒡ	-10.1849
▁ᑎᐸᐊᒪᐙ	-10.1856
▁ᑕᑾ	-10.187
ᓈᑯᓯᐙᒡ	-10.1882
ᓭᐗᓐ	-10.1904
▁ᒋᐐᑕᒫᑫ	-10.1919
ᑲᒀᑕᑭᑑᒡ	-10.1941
▁ᐲᒋᓂᔕᐅ	-10.1956
▁ᑕᐃᑭᑐ	-10.1964
ᐃᓈᐸᑎᓯ	-10.1967
ᐌᐱᓇᕽ	-10.1972
ᒌᑫᑕᒧ	-10.1973
▁ᑲᒀᑕᑭᐃ	-10.1982
ᐸᑭᑎᓂᑳᑌ	-10.1991
ᑌᐺᔦᑕᒧ	-10.1999
▁ᑳᐃᑭᑐ	-10.2014
▁ᑭᑭᓄᐃᑫ	-10.2031
▁ᐊᐱᓅᒌᔕᓐ᙮	-10.2034
ᒋᑳᓱ	-10.2037
▁ᑭᑮᒦᓂᑯ	-10.2055
▁ᒥᑕᑲᒥᒃ	-10.2055
▁ᑭᑎᑳᓇᓐ	-10.2055
ᑭᑌᓂᒥ	-10.206
ᑎᐹᑯᓂᑫ	-10.206
▁ᐁᒣᓐ	-10.2066
ᑑᑕᐎᓀᒃ	-10.2072
▁ᐃᑭᑐᓂᒡ	-10.2078
▁ᐐᓯᓂᐙᒡ	-10.21
▁ᓂᑲᐃᔑ	-10.212
▁ᒥᓂᒃ᙮	-10.2123
▁ᑳᑮᐃᓈᑯᓂ	-10.2146
ᑲᓅᓂᓀᒃ	-10.2146
ᑕᔑᒥᑰ	-10.2147
ᑮᐊᓅᑮ	-10.2151
4	-10.2152
ᑎᓯᐎᓐ	-10.2153
ᐃᓀᑕᒥᓂᒡ	-10.2155
ᐊᔮᓯᒀ	-10.2161
ᑲᓅᓈᐞ	-10.2165
ᐅᑭᒫᐌᑖᑯᓯ	-10.2171
ᓱᐗᒃ	-10.2181
ᑰᐹᑌᓂ	-10.2183
ᑎᐸᐊ	-10.2188
ᒥᑯᔥᑳᒋᐃ	-10.2216
ᐐᒌᐙᐞ	-10.2219
▁ᐙᐸᒫᐙ	-10.2226
▁ᓂᑮᑭᒋ	-10.2228
▁ᑮᐌᐙᒡ	-10.2237
ᒪᑲᒃ᙮	-10.2279
▁ᐃᑭᑐᐗᒃ	-10.2297
▁ᐁᔮᓂᒡ᙮	-10.2298
▁ᑭᑭᑫᓂᒫ	-10.2299
ᑕᐙᓯᐙᐙ	-10.2309
▁ᒋᐅᑖᐱᓇ	-10.2313
ᐐᒌᐎᑯᐙ	-10.2314
▁ᐆᑌᓈ	-10.2335
ᓅᑖᑯᒡ	-10.2356
ᒣᒀᔥᑲ	-10.2362
ᓈᑕᒪᐎ	-10.2374
ᒥᑮᐙᐱᓀ	-10.2375
ᑯᓇᔦ	-10.2382
ᐸᓭᓂᒧ	-10.2384
ᐙᐸᒫᐙ	-10.2386
ᑎᓯᐙᒡ	-10.2386
▁ᒫᓯᑑᓂ	-10.2387
ᓇᑰᑭᐸᓐ	-10.2389
ᐗᑮᕽ	-10.239
ᐃᑰᐞ	-10.239
ᐃᔥᐯᑖᑯᓯ	-10.2392
▁ᑎᒫᔅᑲ	-10.2392
ᐅᑭᔐᒪᓂᑑᒥ	-10.2393
ᐐᒋᐐᓯᓃᒫ	-10.2394
ᒪᒫᒋᑾᐱᓱ	-10.2394
ᓇᒪᑎᓂᑭᕽ	-10.2394
ᔕᔒᐯᑕᒣᒃ	-10.2394
▁ᐃᔅᑫᕒᐃᔭᑦ	-10.2394
▁ᐅᐱᒫᒋᐃᐌ	-10.2394
▁ᐅᑌᔥᑲᓇᐞ	-10.2394
▁ᐅᑎᓈᑯᓂᑫᐎᓂᓂ	-10.2394
▁ᐅᑎᔑᓂᑳᓱᐎᓂᓃᕽ	-10.2394
▁ᐅᑎᔑᓂᔕᐙᑲᓇᓐ	-10.2394
▁ᐅᑕᒑᑯᕽ	-10.2394
▁ᐅᑭᑭᔥᑭᑲᓂᓂ	-10.2394
▁ᐅᒥᓍᒋᒧᐎᓐ	-10.2394
▁ᐋᐃᓯᑰᓐ	-10.2394
▁ᐋᐌᒋᑲᓇᓐ	-10.2394
▁ᐙᐱᔥᑮᑭᓐ	-10.2394
▁ᐱᓬᐊᐴᓐ	-10.2394
▁ᐸᑭᑎᓈᓱᐎᓈᐱᑯᕽ	-10.2394
▁ᑕᔕᐌᑖᑯᓯ	-10.2394
▁ᑫᑎᒫᑭᓯᐙᒡ	-10.2394
▁ᑭᑑᔑᐲᐊᒪᐎᓐ	-10.2394
▁ᑭᑕᓄᑮᐋᑲ	-10.2394
▁ᑰᑰᔕᐞ	-10.2394
▁ᑳᐅᑕᑳᓀᓯᔭᓐ	-10.2394
▁ᑳᑌᐺᑕᓯᒀ	-10.2394
▁ᒉᑲᐴᓐ	-10.2394
▁ᒥᓍᒋᒧᐎᓂᓂ	-10.2394
▁ᒥᔅᑸᕽ	-10.2394
▁ᓬᐋᓴᕒᐊᓴᓐ	-10.2394
▁ᓴᑭᓂᑫᓈ	-10.2394
▁ᓵᑭᒐᔭᐄ	-10.2394
ᔖᐾᐃ	-10.2394
▁ᑫᑌᐃᓈᑎᓯᐎᓐ	-10.2394
▁ᒌᐯᑲᒥ	-10.2394
▁ᔖᐳᔥᑳ	-10.2394
ᐋᐸᒋᑑᓇᓐ	-10.2394
▁ᑫᓅᑕᒫᑯᒡ	-10.2394
▁ᐃᑴᓭᓴᓐ	-10.2394
▁ᐅᑭᔐᐙᑎᓯᐎᓂᕽ	-10.2394
ᐊᔮᒀᒥᒥ	-10.2394
▁ᐅᓂᔑᔑᓐ	-10.2394
ᐙᑳᐃᑫ	-10.2394
▁ᑭᑎᑳᓈᑎᑯᑳᕽ	-10.2394
▁ᑭᑭᓄᐊᒪᐙᑲᓇᐞ	-10.2394
▁ᒥᓋᑭᒥ	-10.2394
▁ᓇᑴᑖᑯᒡ	-10.2394
▁ᑳᐃᓀᑕᒧᐙᒡ	-10.2394
▁ᑾᔭᑾ	-10.2394
ᑆᓇᐎᒋᑫ	-10.2394
▁ᐅᑕᐗᑳ	-10.2394
ᐊᑮᐗᕽ	-10.2394
▁ᐅᑭᒫᐎᐎᓐ	-10.2394
▁ᒀᕒᐃ	-10.2394
▁ᑳᒥᑖᔑᓃᔑᓂᒡ	-10.2394
▁ᐅᑲᓅᑕᒫᑫ	-10.2394
▁ᑌᐺᔦᑕᒧᐎᓂᕽ	-10.2394
▁ᐁᓀᑖᑾᒃ	-10.2394
▁ᑳᓂᑖᐎᑭᑭᓐ	-10.2394
▁ᐅᐐᔭᐎᓂ	-10.2394
ᑲᓅᓂᑰᐞ	-10.2394
ᑕᐸᓭᑖᑯᓯ	-10.2395
ᐊᔕᒫᒡ	-10.2395
▁ᑳᑕᓶᐙᓇᑭᓯᓂᒡ	-10.2395
▁ᓂᐱᒫᑎᓯᐎᓐ	-10.2395
▁ᐁᓀᑕᒣᒃ	-10.2395
▁ᐯᕒᐊᓰᐎᓂᓂᐗᒃ	-10.2395
▁ᑑᐳᐎᓈᑯᕽ	-10.2395
ᑌᐸᑫᑖᑯᓯ	-10.2395
ᐋᓇᐌᒋᑫ	-10.2395
ᑲᓅᓂᓂᓂᒻ	-10.2395
▁ᑳᑎᐯᓂᒥᒥᓇᕽ	-10.2395
ᓬᐄ	-10.2395
ᒥᓍᒋᐋ	-10.2395
ᑲᐊᑖ	-10.2395
▁ᒋᑎᐯᓂᒥᓀᒃ	-10.2395
ᓇᑳᔥᑲ	-10.2395
▁ᓂᒫᒫ	-10.2395
▁ᐁᓀᑕᕽ	-10.2396
▁ᑲᔥᑭᒫ	-10.2396
ᔥᑳᓂᒃ	-10.2396
▁ᒣᓬᑭᓯᑌᑰᓐ	-10.2397
ᓍᓂᑎᓱ	-10.2398
▁ᐆᑌᓈᑳᕽ	-10.2399
▁ᑭᒋᒪᓯᓇᐃᑲᓂᕽ	-10.2399
▁ᒋᑮᔑ	-10.24
ᔕᔒᐱᑕᒧᐙᒡ	-10.24
▁ᑸᐎᓭᓴᓐ᙮	-10.24
ᒥᓉᑕᒣᒃ	-10.24
▁ᑰᓯᐙ	-10.24
ᑸᓇᐎ	-10.2401
ᐃᔑᒋᑫᔦᑭᐸᓐ	-10.2401
ᐋᒃ	-10.2402
▁ᐃᔥᒀᑌᒥᐗ	-10.2402
▁ᐊᓇᒥᐋᒃ	-10.2402
ᔒᑫᓂᒥᓀᒀ	-10.2403
▁ᐲᑕᕒᐊᓐ	-10.2404
▁ᓃᒋᑭᐌᓯ	-10.2405
▁ᑳᑕᓱ	-10.2405
ᑭᑫᑖᑾᒃ	-10.2405
▁ᑭᑎᑰᒃ	-10.2405
▁ᐁᐃᔑᓂᑳᑌᒃ	-10.2406
▁ᑕᓱᐱᐴᓐ	-10.2407
ᐊᓄᑳᑕ	-10.2408
ᐐᑕᒫᑰᒻ	-10.241
▁ᓅᐗ	-10.241
▁ᐸᑭᓯ	-10.241
ᓵᑭᒋᐌᐱᓈ	-10.2415
▁ᒋᑮᐃᔑ	-10.2416
▁ᑮᓅᑕᒨᒃ	-10.2418
ᐊᓄᑮᑕᐗ	-10.2418
▁ᑳᐯᑭ	-10.2421
ᐙᐸᑕᒧᐙ	-10.2421
▁ᑫᐃᔑᓭᒃ	-10.2422
▁ᑳᑮᓇᑲ	-10.2428
ᐙᐸᒥᔦᒃ	-10.2428
▁ᐁᓀᑖᑯᓯᐙᒡ	-10.2428
▁ᑭᐐᓱᐎᓐ	-10.2431
▁ᒥᑎᑰᓐ	-10.2431
ᒋᑳᑌᓯᓅᓐ	-10.2432
▁ᐃᔑᐌᐱᓯᐎᓐ	-10.2434
▁ᑳᔑᐊᔮᔦᒃ	-10.2436
ᐋᐌᒋᑫ	-10.2437
▁ᐁᐃᔑᓭᒃ	-10.2438
▁ᐅᑮᑲᓅᓈᐞ	-10.244
▁ᑕᓇᓈᑯᒫ	-10.244
ᔨᕽ	-10.244
▁ᐅᑮᐃᓇᓵ	-10.2441
▁ᐁᔑᒋᑫᔦᒃ	-10.2445
▁ᓂᑭᑫᓂᒫᓰ	-10.2447
ᐊᓄᑮᒪᑲᒃ	-10.2451
▁ᓅᑎᓐ	-10.2455
ᐴᓂᑑ	-10.2456
▁ᐁᔑᐸᑯᓭᓂᒥ	-10.2458
▁ᑮᐃᔑᓈᑯᓯ	-10.246
▁ᐊᑮᓂ᙮	-10.2461
▁ᑕᔑᑕᒥᓂᒡ	-10.2462
ᐊᓄᑮᒪᑲᓂᓂᒃ	-10.2462
▁ᒋᐊᑕᐎ	-10.2462
ᐐᒌᐎᑰᐞ	-10.2464
▁ᐙᐐ	-10.2465
ᐃᔑᐎᓂᓐᒡ	-10.2466
ᐙᐸᒥᒃ	-10.2468
▁ᑳᑮᐅᓈᐸᒥᑯ	-10.2468
▁ᐁᒦᑳ	-10.2471
▁ᑳᑮᐃᓂᑣ	-10.2474
▁ᓃᐎᕽ	-10.2475
▁ᑲᒀᑕᑭᑑᐎᓐ	-10.2476
▁ᓂᑎᔑᒋᑫ	-10.2477
▁ᐁᐅᒌᒪᑲᒃ	-10.2477
ᓬᐁ	-10.248
▁ᐁᔑᒋᑫᓂᒡ	-10.2484
ᐃᓇᓵ	-10.2485
ᑲᓇᐌᑖ	-10.249
▁ᐁᓅᑖᑯᒡ	-10.249
▁ᐁᓅᑕᒥᓂᒡ	-10.25
ᑌᓯᓅᓐ	-10.2501
▁ᐯᒥ	-10.2506
ᐁᒀ	-10.2516
ᑲᓅᔑᒡ	-10.2516
▁ᑳᓇᒪᑕᐱᒡ	-10.2517
ᐊᑕᐌᑕᕽ	-10.2517
▁ᐁᐐᒌᐎᑯᒡ	-10.252
▁ᓈᓯᑳᑯᒡ	-10.2522
▁ᐅᑮᐸᑭᑎᓈ	-10.2523
ᑑᑕᒻ	-10.2526
ᐙᐸᑕᒫᓐ	-10.2529
▁ᑳᐃᓀᑕᕽ	-10.2531
ᐊᑯᓴᑲᐙᐙᒡ	-10.2531
▁ᐁᑑᑕᒧᐙᒡ	-10.2532
ᑲᓂᓂᑭᓐ	-10.2535
ᑕᒪᓐ᙮	-10.2537
ᐅᑣ	-10.2541
ᐅᒑᓂᒥᓯ	-10.2546
▁ᐁᐱᒫᑎᓯᓂᒡ	-10.2547
ᐃᑯᔮᓐ	-10.2549
▁ᐁᑮᐸᐹ	-10.255
▁ᐃᔑᐱᒫᑎᓯᒃ	-10.2552
ᑌᐺᑕᓯᓂᒃ	-10.2558
▁ᐃᔑᒋᑫᐎᓐ	-10.2564
▁ᑮᐙᐱ	-10.2571
▁ᐁᔮᔦᒃ	-10.2582
▁ᑮᔖᒋ	-10.2583
ᒫᓀᑕᒥ	-10.2587
▁ᑕᔑᑕᒧᐙᒡ	-10.2589
▁ᐁᐱᒧᓭ	-10.2603
▁ᑮᓂᑖ	-10.262
ᓇᑲᓂᑯᒡ	-10.262
ᐱᑕᑶᔑᕽ	-10.2628
ᓇᑲᓈᒡ	-10.2644
▁ᒦᔑᔑ	-10.2646
ᑕᒪᐙᐙᒡ	-10.265
ᐅᒌᒪᑲᓂᓂᒃ	-10.2653
▁ᑳᐅᒌᓂᒡ	-10.2658
ᑰᒋ	-10.2659
ᑲᔥᑭᐃᑯ	-10.2659
▁ᑎᐯᑖᑯᓯᓂᒡ	-10.2663
▁ᓂᑮᒥᑲᐙ	-10.2663
▁ᒋᓂᓯᒥᓐᒡ᙮	-10.2666
ᒋᐸᑭᑎᓂ	-10.2671
▁ᑳᑮᒥᓄ	-10.2683
ᐹᑏᓇᑎ	-10.2691
ᒋᑭᐌᔨ	-10.2692
ᑲᐲ	-10.2697
▁ᑭᐴᔔᐃᑯᐙ᙮	-10.2704
▁ᐌᒌᓂᒡ᙮	-10.2704
ᐃᔑᒋᑫᔮᓐ	-10.2705
ᐅᓃᒑᓂᓯᒥ	-10.2713
▁ᑳᑮᐅᓈᐸ	-10.2714
▁ᐐᒌᐎᑯᒡ	-10.2719
ᐎᔮᓐ	-10.2725
▁ᑌᐺᐎᓂᕽ	-10.2728
ᒥᓄᑑᑖ	-10.2729
ᓱᓰ	-10.273
ᐃᑾᒃ	-10.2733
ᐯᑲ	-10.2733
ᓇᑲᔑ	-10.2736
▁ᒥᑕᑲᒥᒃ᙮	-10.2745
▁ᑭᑎᑳᓇᓐ᙮	-10.2745
▁ᐱᒫᒋᐃᑰᐎᓐ	-10.2745
ᓈᑾᓯᓅᓐ	-10.2745
ᐎᓂᓂᐗᒃ	-10.2745
▁ᒋᓵᑭᐋ	-10.2747
ᒌᑫᑕᒻ	-10.2751
▁ᑯᓵ	-10.2751
ᐃᔑᔭ	-10.2754
▁ᐃᔑᐌᐸ	-10.2762
ᑎᓱᔦᒃ	-10.2776
ᓯᐗ	-10.2779
▁ᐁᐙᐸᑕᒧᐙᒡ	-10.278
▁ᐁᐊᔮᐙᒡ	-10.2789
ᑭᐸᐊ	-10.2791
▁ᐱᒫᑎᓯᒡ	-10.2792
ᑕᒫᑫᒡ	-10.2794
▁ᐁᐃᔑᒋᑫᒡ	-10.2798
ᐆᓐ	-10.2803
▁ᐱᓈᓯᑳᑰ	-10.2806
▁ᑎᐯᑖᑯᓯᐙᒡ	-10.2808
▁ᐱᒥᓂᔕᐙ	-10.2808
▁ᑳᐃᓀᓂ	-10.2809
▁ᐊᑖᐙᑫ	-10.2825
▁ᐃᔑᒋᑫᔮᓐ	-10.2838
ᐐᒌᐎᓀᒃ	-10.284
ᒋᑫᒪᑲᓂᓂ	-10.2847
▁ᑭᑎᑫ	-10.2849
ᑑᑕᒪᕽ	-10.2857
ᐅᑭᒫᐗᐱ	-10.2859
ᒪᔥᑲᐎᓰᒡ	-10.2874
▁ᒋᑭᑭᓄᐊᒫᑫ	-10.2879
▁ᐃᓂᐌ	-10.2887
▁ᐃᔑᓂᔕᐙ	-10.2887
ᒀᑕ	-10.2888
ᒥᑎᐸᓐ	-10.2888
▁ᒋᐃᓂ	-10.2892
ᒥᓉᑖ	-10.29
ᐋᐸᒋᑑᐙᒡ	-10.2902
▁ᐅᑎᐯᒋᑫᐎᓂᓂ᙮	-10.291
▁ᐅᑯᓯᓴᐞ᙮	-10.291
ᑌᓂᑭᓐ	-10.2914
▁ᒋᐃᓇ	-10.2916
ᐴᔔᐋ	-10.2925
ᑎᐯᓂᒥᑯᐙᒡ	-10.2952
ᐗᑭᓐ	-10.2958
ᒥᓄᐐᒌᐎ	-10.2958
ᐃᔑᓈᑯᓯᔮᕽ	-10.2969
ᑕᒻ	-10.2971
ᐅᓂᔑᔑᓯᓅᓐ	-10.2988
ᒥᓄᓈᑯᓯ	-10.299
ᓅᑖᓈᐙ	-10.3002
▁ᐊᐌᑎ	-10.3006
▁ᒋᓂᔑᐗᓈᑕ	-10.3046
▁ᑮᐌᒡ	-10.3078
▁ᐁᓇᓄᑮ	-10.3078
▁ᒋᒪᒋ	-10.3092
▁ᑳᑮᑮᐌᐱᒫᑎᓯ	-10.3092
ᔥᑲᒃ	-10.3109
ᓇᑣ	-10.3116
ᐃᑎᐙᒡ	-10.3118
ᑕᒪᐙᐞ	-10.3122
▁ᓂᑮᐃᔑᒋᑫ	-10.3124
ᓂᓯᑕᐎᓈ	-10.3126
▁ᒫᑕ	-10.3166
ᒀᐸᓐ	-10.3168
ᐐᒋᐃᑰ	-10.3174
▁ᒋᒥᓍᐸᒥ	-10.3194
ᐅᔑᒋᑳᑌᓂᒃ	-10.3196
▁ᐃᔑᐌᐱ	-10.3203
ᐃᑎᐗᒃ	-10.3203
ᐐᒌᐗᒀ	-10.3213
ᓂᓵᒡ	-10.3217
ᐃᔥᒀᓭᓂᒃ	-10.3226
ᑕᓰᒥᓐ	-10.3229
ᒋᔥᑳ	-10.3262
▁ᐌᒌᓂᒡ	-10.3268
▁ᑭᐴᔔᐃᑯᐙ	-10.3281
▁ᑭᐱᑎ	-10.329
ᑭᒋᐅᑭᒫᐎᓂᒡ	-10.3322
▁ᑭᑮᓅᑖ	-10.3323
ᐸᓯᑸ	-10.3324
▁ᐱᒫᒋᐃᑰᐎᓯ	-10.333
ᐸᐃᑎ	-10.3344
ᑯᐙᒃ	-10.335
ᓈᓯᑲᐙ	-10.3353
ᐃᓈᓂᒡ	-10.3355
▁ᒫᒌᔮᔑ	-10.3355
▁ᒋᒦᒋ	-10.3356
ᑎᐸᐃᑫ	-10.336
ᑴᑳᑎᓯ	-10.3362
ᐸᐸᔕᔐᐅ	-10.3366
▁ᐅᑭᑫᓂᒫ	-10.3373
ᑾᓅᓐ	-10.3378
ᐱᓵᓂ	-10.3378
▁ᐱᒫᒋᐃ	-10.3384
ᑕᑯᔑᓂᓂᒡ	-10.3385
▁ᐁᐐᐱ	-10.3392
▁ᐅᑎᔑᒋᑫᐎᓂ	-10.3402
▁ᑳᑭᑭᔥᑳᑯ	-10.3419
ᑯᔥᑯ	-10.3436
▁ᑾᔭᑯᒋᑫ	-10.3453
ᐱᒥᓂᔕ	-10.3462
ᐅᓇᔓᐙ	-10.3462
▁ᑭᑕᓇᒥ	-10.3468
▁ᑳᐅᑯᓯᓯ	-10.347
ᒥᒥᓐᒡ	-10.3478
ᓇᓇᐊ	-10.3493
▁ᑎᐸᐊ	-10.3501
ᐸᒋᑑᓰᓐ	-10.3531
▁ᔔᒥᓂ	-10.3539
▁ᑫᓂᔑᐗᓈᒋ	-10.3549
ᑕᔑᒫᒡ	-10.3557
ᑑᑫᒃ	-10.3557
ᒥᑰᒻ	-10.3558
ᑕᒪᐙᒃ	-10.3563
ᓂᓯᑐᑕᓰ	-10.3564
ᐲᑎᑫᔥᑳ	-10.3564
▁ᒥᑎᑯ	-10.3565
ᓂᔕᐅᑯᐙ	-10.3568
ᓂᑳᑌᓂᒃ	-10.3574
ᐋᓂᑫ	-10.3576
ᔐᒪᓂᑑ	-10.358
ᑭᑫᑖᒻ	-10.3582
▁ᐅᒪᔥᑲᐎᓰᐎᓂ	-10.3588
ᐙᓴᑯᓀ	-10.3592
ᓂᑰᒃ	-10.3595
ᑎᐸᐃᑲᓀᔮ	-10.3597
▁ᒋᐯᑭ	-10.3597
▁ᑳᒫᐗᑑᓈ	-10.3597
ᑾᓇ	-10.3605
▁ᓈᓴᕒᐃ	-10.3606
▁ᑭᑎᑳᓈ	-10.3607
ᓂᐴᒪᑲᒃ	-10.3607
9	-10.3607
ᐐᓴᑳᐱᓀ	-10.3607
ᐙᓭᔮᓂᒃ	-10.3607
ᐱᒫᑎᓰᔥᑳᑫᒪᑲ	-10.3607
ᑕᐱᔑᒧᓐ	-10.3607
ᒪᔥᑲᐌᑕᒣᒃ	-10.3607
ᓅᑕᔮᐹᑴ	-10.3607
ᓈᓂᒥᑕᓇ	-10.3607
▁ᐅᐐᔭᐎᐙᓐ	-10.3607
▁ᐅᑌᒐᓬᐃᒥᐙ	-10.3607
▁ᐅᑎᑭᑐᐎᓂᐙ	-10.3607
▁ᐅᑑᑭᒫᐎᐎᓐ	-10.3607
▁ᐅᑕᔭᐄᒪᓐ	-10.3607
▁ᐅᑭᒋᐊᓇᒥᐁᐎᑲᒥᒃ	-10.3607
▁ᐅᑲᓇᐎᒫᓇᒑᓂᔑᐌ	-10.3607
▁ᐅᒋᑎᐯᑖᑯᓯ	-10.3607
▁ᐊᑆᓬᐊᔅ	-10.3607
▁ᐊᔭᐋᐎᔕᒃ	-10.3607
▁ᐗᓇᑯᔕᐞ	-10.3607
▁ᐸᕒᐋᐸᔅ	-10.3607
▁ᐹᐱᓬᐊᓐ	-10.3607
▁ᑭᑫᑌᔭᐋᒥᓈᐸᓃᐞ	-10.3607
▁ᑭᑭᔐᑉ	-10.3607
▁ᑭᔥᑮᔑᑰᓐ	-10.3607
▁ᑮᐅᑯᓯᓯ	-10.3607
▁ᑮᐊᓂᒫᒑ	-10.3607
▁ᑳᐅᑕᑳᓀᓯᐙᒡ	-10.3607
▁ᑳᐸᒦᑖᑫᒡ	-10.3607
▁ᑳᑲᑮᐹᑎᓯ	-10.3607
▁ᒋᓴᓱᕽ	-10.3607
▁ᒪᐎᓀᔥᑲᐙ	-10.3607
▁ᒪᒋᑫᑰᓇᓐ	-10.3607
▁ᒪᒋᑭᑎᑳᓇᓐ	-10.3607
▁ᒫᑲᑕᓬᐊᐎᑴ	-10.3607
▁ᓈᐯᐹᑲᐋᒀᓐ	-10.3607
▁ᔑᒫᑲᓂᔕᓐ	-10.3607
▁ᔔᒥᓈᑎᒃ	-10.3607
ᐸᓯᑴᐱᓱ	-10.3607
ᔑᐲᐊᒪᐤ	-10.3607
▁ᐁᐃᔑᓂᑳᓱᓂᒡ	-10.3607
▁ᐁᑮᐃᔑᓂᑳᓱᒡ	-10.3607
▁ᐁᓃᐸᐎᓂᒡ	-10.3607
▁ᐅᐐᑎᑫᒫᑲᓂᓂ	-10.3607
▁ᐌᑕᑳᓀᓯ	-10.3607
▁ᑣᒪᔅ	-10.3607
▁ᑮᐅᒋᐅᔑᒋᑳᑌ	-10.3607
▁ᐁᐱᓴᓯᕽ	-10.3607
▁ᐅᐐᑎᑫᒫᑲᓇᓐ	-10.3607
▁ᐅᑌᐺᔦᑕᒧᐎᓂᕽ	-10.3607
ᐅᔑᐲᐃᑳᑌᒃ	-10.3607
▁ᐯᑕᓃᕽ	-10.3607
ᐊᑳᓰᓄ	-10.3607
ᓃᔥᑕᓇᔑᓃᐎ	-10.3607
▁ᐸᐸᑭᑌᐙᐙᒡ	-10.3607
ᑭᓰᓂᒌ	-10.3607
ᒦᒋᓈᑳᑌᒃ	-10.3607
▁ᑮᐗᓂᔥᑳ	-10.3607
ᑭᑭᔥᑲᐙᐗᓱ	-10.3607
▁ᐁᑭᑐᐙᒡ	-10.3607
▁ᐊᐲᑌᑖᑯᓯᓰ	-10.3607
▁ᓵᐃᐸᕒᐊᔅ	-10.3607
ᐱᒥᓂᔕᐃᑫ	-10.3607
▁ᐯᔑᑯᑎᐸᐃᑲ	-10.3607
▁ᑭᒋᐊᐱᐎᓐ	-10.3607
▁ᑕᐃᓇᑭᒫ	-10.3607
▁ᐅᓇᑕᐌᓂᒫ	-10.3608
▁ᒪᒋᑑᑕᒧᐎᓂᕽ	-10.3608
▁ᑎᐱᑭᑮᓯᔅ	-10.3608
▁ᑮᐃᑭᑑ	-10.3608
▁ᐁᐐᒌᐗᕽ	-10.3608
▁ᒫᓯᑑᓂᔮᐗᑮᕽ	-10.3608
▁ᑕᑯᔑᓈᓐ	-10.3608
▁ᑭᔐᐙᑎᓯᐎᓐ	-10.3608
▁ᐁᓀᑕᒥᓂᒡ	-10.3608
▁ᑭᐐᑕᒪᐎᓐ	-10.3608
▁ᒥᑯᔥᑳᑌᑕᑫᒃ	-10.3608
▁ᐅᑎᒀᓐ	-10.3608
ᑭᔐᒪᓂᑑᐎ	-10.3608
▁ᔖᑰᓱᒫ	-10.3608
ᐲᐎᑌᐎ	-10.3609
▁ᐅᓂᐴ	-10.3609
▁ᐅᑮᐅᔑᑑᓐ	-10.3609
▁ᐅᐱᒣᔭᐄ	-10.3609
▁ᑳᐅᓈᐸᒫᒡ	-10.3609
▁ᒪᒋᒋᑫᐎᓐ	-10.3609
▁ᐁᑮᓇᓈᑯᒧᒡ	-10.3609
▁ᓂᑮᐃᓈᑉ	-10.3609
▁ᑮᑕᓇᒥᐋᓈᓂᒃ	-10.3609
▁ᒋᒥᓄᐐᒌᐎᑯᒡ	-10.3609
▁ᑳᓵᑭᐊᒃ	-10.3609
▁ᐅᒦᒦ	-10.3609
▁ᓂᔑᑫ	-10.361
ᒋᒫᒥᑲᐎᔦᒃ	-10.361
ᐊᓄᑮᑕᐌᒃ	-10.361
▁ᑮᐴᓯ	-10.361
▁ᐸᑭᓯᓅᓐ	-10.361
▁ᑳᑮᐃᔖᒡ	-10.361
▁ᐁᑲᑭᑐᒡ	-10.361
▁ᐃᔑᓇᒧᐎ	-10.361
▁ᑳᐅᓂᔑᔑᓂᓂᑭᓐ	-10.3611
▁ᑳᑮᐐᑕᒪᐙᒡ	-10.3611
▁ᐅᑮᒦᓈᓐ	-10.3611
▁ᑳᐊᔮᓂᑭᓐ	-10.3612
ᐋᐸᑕᒃ	-10.3613
ᓂᔥᑫᓂ	-10.3614
▁ᐁᐅᑯᓯᓯᒥᑯ	-10.3614
▁ᑎᐯᒋᑫᐎᓐ	-10.3614
▁ᒥᒋᐯᔑᑯ	-10.3616
ᐯᔑᒃ	-10.3616
▁ᐁᑭᑭᓄᐊᒫᑫᒡ	-10.3616
ᕒᐄᔭ	-10.3617
ᓈᑯᐃᑎᓱ	-10.3617
ᓯᓄᐎ	-10.3618
ᒪᒉ	-10.3618
▁ᑳᑎᐯᓂᒥᓀᒃ	-10.3619
ᐅᓀᑕᕽ	-10.3619
▁ᐱᒥᓂᔕᐅᑯᒡ᙮	-10.3619
▁ᐊᓄᑮᐎᓇᓐ	-10.362
ᑭᑕᑭᒥ	-10.362
▁ᐅᑮᐅᑎᓯᑯ	-10.3621
▁ᑳᐅᓂᔑᔑᑭᓐ	-10.3621
▁ᑮᔑᑲᓐ	-10.3621
ᐋᓈᓐ	-10.3623
▁ᓬᐄᐹᐃ	-10.3623
▁ᑳᐃᓂᒥᓐᒡ	-10.3623
ᐙᐸᑕᒧᐗᕽ	-10.3623
▁ᐅᓄᐌᓂᐗᐞ	-10.3623
▁ᐅᐙᑳᐃᑲᓐ	-10.3624
▁ᐁᑎᓄᐎᒡ	-10.3624
ᓂᐴᑕᒪᐙ	-10.3624
▁ᐸᑭᑎᓈᓱᐎᓂᕽ	-10.3625
ᓂᓱᑮᔑᑾᑳᒃ	-10.3625
▁ᐅᑖᑯᓰᐞ	-10.3628
▁ᐱᑕᑯᔑᕽ	-10.3629
ᐊᑕᐌᑕᒣᒃ	-10.3629
▁ᐅᑕᔮᓰᓐ	-10.363
ᐃᔑᒋᑫᓯᒃ	-10.3631
ᑭᑕᑭᒫ	-10.3632
ᒫᓈᓐ	-10.3633
▁ᐲᐙᐱᑴᔮᐲᓐ	-10.3633
▁ᒌᑭ	-10.3634
▁ᑳᐃᑕᕽ	-10.3634
▁ᒦᒋᒥ	-10.3635
ᐐᒋᐃᑯᓰ	-10.3635
ᐋᓈᐙ	-10.3637
ᑕᒫᐹᓐ	-10.3638
ᒥᑳᓐ	-10.3639
▁ᒥᑎᑰᒃ	-10.364
▁ᐁᔑᓂᑳᑌᓂᒃ	-10.364
▁ᐁᐱᒫᑎᓯᒡ	-10.364
▁ᑮᐃᓈᐱ	-10.3641
▁ᒋᑎᐯᑕᒥᓂᒡ	-10.3641
▁ᑭᑎᑫᐎᓐ	-10.3642
▁ᓇᐃᑕᐎ	-10.3645
ᐅᔑᐲᐃᑳᑌᓂᒃ	-10.3646
ᑭᑫᒋᑳᑌᒃ	-10.3648
ᐅᑎᓇᕽ	-10.3648
ᐊᐲᑌᑖᑾ	-10.3652
ᓇᒥᐁᐎᑲᒥ	-10.3652
ᑌᐱᓇᕽ	-10.3652
ᐐᒌᐎᓇᑰᒃ	-10.3654
▁ᐁᑕᓶᐙᓇᑭᓯ	-10.3654
▁ᐁᐐᐊᑕ	-10.3655
▁ᐃᔑᐱᒧᓭ	-10.3656
▁ᐅᑮᓅᑕᐙ	-10.3656
▁ᑳᑮᐊᑐᒫᒡ	-10.3657
▁ᓂᐙᐸᑖᓐ	-10.3657
ᑮᑮᐌᐱᒫᑎᓯᐃᓐᒡ	-10.3658
▁ᐃᔑᒋᑫᓰ	-10.366
ᒪᒥᔑᒥᑯᒡ	-10.3663
▁ᐱᐅᒋ	-10.3664
▁ᐱᔑᒀᒋᑴ	-10.3666
▁ᑮᒫᐗᒋᐃᑎᐗᒃ	-10.3666
ᑎᓱᔭᓐ	-10.3668
ᑑᑕᐌᒀ	-10.3673
▁ᓵᑭᐃᐌ	-10.3676
▁ᑳᑮᐅᓀᓂᒫ	-10.3679
▁ᑳᑮᐃᔑᓭᓂᒃ	-10.3685
▁ᒋᐱᓯᑕ	-10.3688
▁ᑳᒦᒋᒡ	-10.3688
ᒦᓂᑰᔮᓐ	-10.3688
ᐅᑎᓯᑯᒡ	-10.3692
▁ᑮᑭᔒᐌ	-10.3692
▁ᐁᐐᒌᐗᒃ	-10.3692
ᑲᒀᑕᑭᐋᐗᒃ	-10.3694
▁ᓂᑖᑮ	-10.3694
ᑌᐺᔦᑕᒣᒃ	-10.3698
ᐅᓇᓯ	-10.37
▁ᐃᔑᒦᓈ	-10.3702
ᐋᔕᐗᐊ	-10.3705
ᒦᓂᑰᔭᕽ	-10.3708
▁ᑕᒦᓈᐗᒃ	-10.3711
ᐌᓅᑎᓯᔦᒃ	-10.3711
▁ᑫᐊᓂ	-10.3714
ᓅᑕᒫᓐ	-10.3717
▁ᐃᑭᑐᔭᕽ	-10.3718
▁ᑳᑲᓅᑕᒪᐙᐙᒡ	-10.372
ᑭᒋᓅᑎ	-10.3729
▁ᑳᐊᑌᓂᒃ	-10.3733
▁ᐅᒦᓂᑰ	-10.3733
▁ᑳᐐᒌᐎᑯᒡ	-10.3737
▁ᐁᑮᓇᑲᑕ	-10.3737
▁ᐁᐃᔑᒋᑫᐙᒡ	-10.374
ᐗᓯᓅᓐ	-10.374
▁ᑳᐅᔑᐲᐊᒪᐎᓇᑰᒃ	-10.3746
▁ᐊᔮᒀᒥᓯ	-10.3746
▁ᐁᓇᒪᑕᐱᓂᒡ	-10.3752
▁ᐊᓈᒥᒥ	-10.3754
▁ᒣᓇ	-10.3755
▁ᒋᐐᑕᒫᑫᔮᓐ	-10.3762
▁ᓴᓭᑳ	-10.3766
▁ᑕᑶᔑᕽ	-10.3768
ᐗᔦᔑᑫ	-10.3776
▁ᐅᑕᔓᑕᒫᑫᐎᓐ᙮	-10.3776
▁ᐊᔓᑕᒪᐙ	-10.3777
ᑕᓯᑭᓐ	-10.3777
ᓂᑖᐎᑭᓅᓐ	-10.3796
ᐙᐸᑕᒪᓐ	-10.3798
ᑎᐹᑯᓂᑲᓂᐎ	-10.3803
ᐊᐱᓂᒡ	-10.3806
ᑯᓵᐙᐞ	-10.3807
ᑌᐺᑕᓯᒃ	-10.3808
▁ᒋᐃᔑᒋᑫᔮᓐ	-10.3809
▁ᐅᑑᓂ	-10.3821
▁ᐃᓀᑕᒫᓐ	-10.3827
▁ᐁᓇᓈᑯᒫ	-10.3828
▁ᐁᑑᑕᕽ	-10.3831
▁ᑳᐃᔑᓂᑖ	-10.3832
▁ᓇᑲᓂ	-10.3835
▁ᒋᓇᑲ	-10.3836
▁ᓀᑖ	-10.3847
▁ᐊᑐᒥ	-10.3849
▁ᐅᒌᐗᒃ	-10.3849
ᓴᓇᑭ	-10.3851
▁ᒋᑑᑕᒥᓂᒡ	-10.3852
ᐅᑖᐱᓇᒧᐙᒡ	-10.3857
ᑭᑫᓂᒥᑰᒃ	-10.3863
ᑲᒀᑕᑭᑑᔦᒃ	-10.3866
▁ᒋᑲᑭᑐ	-10.3868
▁ᑭᒋᒨᑯᒫ	-10.3868
ᐗᓂᒋᑫ	-10.3869
ᑎᐹᑯᓈᒡ	-10.3869
ᑕᑯᔑᓅᒪᑲ	-10.3882
▁ᑳᐃᔑᒋᑫᔦᒃ	-10.3885
▁ᐅᑕᔓᑕᒫ	-10.3893
▁ᐃᓀᑕᒥᓂᒡ	-10.3894
ᒫᓰᓐ	-10.3904
ᔥᑳᑯᒡ	-10.3905
ᔒᔥ	-10.3907
ᐃᑳᑌᒃ	-10.3914
ᐐᑕᒪᐎᑣ	-10.3921
▁ᑲᑮᓇᐎᔥᑭ	-10.3927
▁ᐅᓈᐯᒥᒫ	-10.3932
▁ᑫᐃᔑᓈᑯᓯ	-10.3937
ᑎᐹᒋᒫᒡ	-10.3945
▁ᐊᑯᓴᑲᐅ	-10.3949
ᑰᐹᑌᓂᒥ	-10.3957
▁ᐃᔑᓂᔕᐙᒡ	-10.3971
ᓵᑭᑑᒡ	-10.3979
▁ᐃᓀᓂᒫᐙᒡ	-10.3982
▁ᐱᓯᑲᒧ	-10.3988
▁ᒋᐃᔑᒋᑫᐙᒡ	-10.3988
ᐃᑭᑐᒡ	-10.3994
ᑳᔖᓂ	-10.3999
▁ᐁᔮᒡ	-10.4
ᐴᓀᑕᒪᐎᓐ	-10.4002
ᑭᑭᓇᐙᑕᔕᑫᔓᑰ	-10.4003
▁ᐅᑲᑴ	-10.4008
ᒥᓄᐊᔮᓂᒡ	-10.4046
ᔥᑳᑯᓈᐙ	-10.4058
▁ᒋᐲᑎᑫᒡ	-10.406
▁ᐊᔮᐗᓐ	-10.4064
▁ᐃᑭᑐᔭᓐ	-10.4092
ᑮᒥᑲ	-10.4093
ᒪᐎᔦᒃ	-10.4129
ᑕᔑᑌᒃ	-10.4136
ᒪᓈᒋ	-10.414
ᑮᓯᔅ	-10.4151
ᐊᑌᒃ	-10.4163
▁ᑮᔖᑯᐌ	-10.4193
ᐐᑕᒪᐙᐞ	-10.4197
▁ᐲᔖᒡ	-10.4199
▁ᑳᐃᔑᒋᑫᓂᒡ	-10.4202
ᐙᐸᒥᑯ	-10.4203
ᑌᐺᑕᒨᒃ	-10.4228
▁ᐁᑕᔑᐙᒡ	-10.4237
ᐃᔑᒋᑫᓰᒥᓐ	-10.4241
ᒫᔑᒋᑫ	-10.4251
▁ᒋᐃᔑᒋᑫᒡ	-10.4257
ᑲᔥᑭᑑᔮᓐ	-10.4258
ᓴᔅ	-10.4267
▁ᐯᐸ	-10.4274
ᓂᐳᓰ	-10.429
ᑕᑯᔑᓄ	-10.4294
ᑑᑕᐙᐙᒡ	-10.4314
ᐊᑐᒫᒡ	-10.4314
ᐙᐸᑖᒥᓐ	-10.4329
ᐙᐸᒥᓇᑰᒃ	-10.4334
ᐱᒫᒋᐃᑰᐎ	-10.4364
▁ᐅᑑᓇᔓᐌ	-10.4366
ᐊᐸᐃᐌ	-10.4394
ᓇᑌᓂᒃ	-10.4411
▁ᐃᓀᓂ	-10.4434
▁ᐅᑌᐺᑕᒧᐎᓂ	-10.4439
ᐅᒋᒥᓄᓭ	-10.4452
ᓈᑯᒋᑳᑌ	-10.4458
▁ᐐᓯᓂᒡ	-10.4461
▁ᓇᐃᑖ	-10.4465
ᒋᑫᐗᒃ	-10.4471
▁ᐅᑮᓅᑖ	-10.4475
▁ᒋᐐᒌᐎᑯ	-10.4476
ᓃᑳᓂᔥᑲᐙ	-10.4476
▁ᑭᑌᓂ	-10.4481
ᓈᑎᓯᔦᒃ	-10.4484
ᐃᔑᓭᓯᓅᓐ	-10.4505
ᓇᒪᐎᑣ	-10.4509
▁ᑳᑎᐯᓂ	-10.4551
▁ᐅᔥᑭᓃᑭ	-10.4555
ᒫᑾ	-10.4564
▁ᑌᐱᓈ	-10.4588
ᑭᑭᔥᑳᑯᒡ	-10.4603
ᒋᑳᑌᓯᓂᓂ	-10.4627
ᐗᓂᔥᑴ	-10.4627
ᓯᓅᓇᓐ	-10.465
▁ᑳᐊᐲᑌᑖᑯᓯ	-10.4654
ᔓᑕᒫᑫ	-10.4686
ᒦᓂᑯᓈ	-10.4687
ᐊᓇᒥᐁᐎ	-10.4692
▁ᒋᐅᑖᐱᓇᒪ	-10.4697
▁ᐅᑑᑭᒫᒥ	-10.47
ᐃᔑᓈᑯ	-10.4713
▁ᓵᐃ	-10.4726
ᒥᓂᑴᓰ	-10.4737
▁ᐅᑎᔑᒋᑫᐎᓂᐙᓐ	-10.474
ᐅᓈᐯᒥᒡ	-10.4741
ᒦᒋᒡ	-10.4745
ᐙᐹᐱᑯ	-10.4746
ᐃᓀᑕᒫᓐ	-10.4751
ᒥᑯᐙᒡ᙮	-10.4752
▁ᑕᐅᒌ	-10.4808
▁ᒋᓂᓯᒥᓐᒡ	-10.4813
ᐊᑯᓴᑲᐙ	-10.4834
ᓇᑭᒥᓐᒡ	-10.4845
ᐅᓀᓂᒥ	-10.4855
▁ᑳᐃᓀᑖᑾ	-10.4867
ᐙᓭᔮᒃ	-10.4867
▁ᑭᐐᔭᐎᐙ	-10.4874
ᒪᔥᑲᐎᑳᐸᐎᔦᒃ	-10.4896
ᑾᔭᒀᑎᓰ	-10.4899
ᐙᓀᓐ	-10.4904
▁ᐅᐱᒫᑎᓰ	-10.4904
ᐐᒌᑎᔭᕽ	-10.4919
ᑑᓂᐙᕽ	-10.492
ᐊᓯᓃ	-10.4928
ᑰᐹᓯᓈ	-10.4936
ᑮᔑᑭ	-10.4936
ᐲᑌ	-10.4938
ᒋᐱᒫᑎᓰ	-10.494
▁ᐗᓂᑑᑕ	-10.4945
ᑎᑳᑕᕽ	-10.4946
▁ᒋᐅᒌ	-10.4947
▁ᑮᐃᔑᓂᑳᓱ	-10.4955
ᑮᐊᓇᒥᐁ	-10.4957
ᑮᔑᓈᑯ	-10.4961
ᐗᓀ	-10.4968
▁ᓬᐄᐹ	-10.4971
▁ᑳᐅᑌᐺᑕᒧᐎᓂ	-10.4971
ᑭᑫᑕᓰᓈᐙ	-10.4975
ᑖᑯᓯᔦᒃ	-10.4977
▁ᑸᐎᓭᓴ	-10.4981
▁ᐃᓬᐃᓯᐸ	-10.4983
▁ᒣᓬᑭᓯᑌ	-10.4984
▁ᐅᑲᔥᑭᐁᐎᓯ	-10.4984
ᐊᓈᒣᑖᑯᓯ	-10.4985
ᔣ	-10.4985
ᐯᐸᑳᓂᑮᔗ	-10.4986
▁ᑲᐸᕒᓂᔭ	-10.4988
ᒪᔥᑲᐌᑕᒧ	-10.4988
▁ᐋᓬᐃᑭᓵᑕᕒ	-10.4988
▁ᐗᓯᑖᐎᓭ	-10.4988
▁ᓯᔮᑭᐃ	-10.4988
ᐹᐹᐗᐃᑫ	-10.4988
ᑌᐺᔦᓂᒥᑰᐞ	-10.4988
ᑭᔑᓱᐙᐱᓀ	-10.4988
ᑲᔥᑮᑎᐱᑲᒃ	-10.4988
ᒦᑴᒋᐌᓂᒥ	-10.4988
ᒪᓯᓇᐊᒪᐙ	-10.4988
ᓃᑳᓇᑭᓱ	-10.4988
▁ᐁᐃᑭᑑᒪᑲᒃ	-10.4988
▁ᐃᔥᑾᒋᑲᓇᓐ	-10.4988
▁ᐅᐸᒦᑖᑫ	-10.4988
▁ᐊᑶᓬᐊ	-10.4988
▁ᐊᒑᑯᕽ	-10.4988
▁ᐊᒑᑾᒃ	-10.4988
▁ᐊᓄᑮᐋᑲᓇᐞ	-10.4988
▁ᐊᓇᒥᐁᐎᑲᒥᑯᑳᕽ	-10.4988
▁ᐊᔭᐋᐎᔕᐞ	-10.4988
▁ᐌᑭᒫᐌᑖᑯᓯ	-10.4988
▁ᐐᓂᓯᓴᓐ	-10.4988
▁ᐱᓬᐃᐹ	-10.4988
▁ᐸᕒᐃᓯᓬᐊ	-10.4988
▁ᑎᑎᐲᑭᓂᑲᓂ	-10.4988
▁ᑭᐱᔥᑭᐗᓯᑲᓐ	-10.4988
▁ᑭᑑᔑᐲᐊᒫᑰᒻ	-10.4988
▁ᑭᒋᐅᓇᔓᐌᐎᑭᒫ	-10.4988
▁ᑭᓅᔐᐞ	-10.4988
▁ᑭᔥᑮᔑᑯᕽ	-10.4988
▁ᑮᒫᒪᑳᑌᑕᒨᐞ	-10.4988
▁ᑮᒫᒪᑳᑌᑕᒨᒃ	-10.4988
▁ᑰᑰᔕᒃ	-10.4988
▁ᑰᓂᑫ	-10.4988
▁ᑳᐃᔑᐲᐃᑳᑌᓂᒃ	-10.4988
▁ᑳᐅᑴᓄᓂᒡ	-10.4988
▁ᑳᐅᓅᑕᒫᐎᓂ	-10.4988
▁ᑳᑌᓴᐱᒡ	-10.4988
▁ᒋᐸᐹᒣᑕᓯ	-10.4988
▁ᒣᓂᑲᓈᐱᒃ	-10.4988
▁ᒥᑕᑎᒨᒃ	-10.4988
▁ᒫᒪᑳᒋᒋᑫᐎᓐ	-10.4988
▁ᓂᑯᑣᓯᒥᑕᓇ	-10.4988
ᒪᑲᑗ	-10.4988
ᓰᑲᐊᑕᐎ	-10.4988
▁ᐅᑌᐺᔦᑕᒧᐎᓂᐙᕽ	-10.4988
▁ᐅᑌᑌᓂ	-10.4988
▁ᐅᒌᒫᑲᓇᒃ	-10.4988
▁ᐅᓵᑭᐃᐌᐎᓐ	-10.4988
▁ᑰᓯᓈᓐ	-10.4988
▁ᑲᐯᑮᔑᒃ	-10.4988
ᒥᓍᑐᑌ	-10.4988
▁ᐅᒪᒋᑑᑕᒨᒃ	-10.4988
▁ᐯᔓᓈᑾᓐ	-10.4988
▁ᑭᑎᓀᑕᒧᐎᓂ	-10.4988
▁ᑭᒪᒋᑑᑕᒧᐎᓇᓐ	-10.4988
▁ᐅᑎᒀᓂᕽ	-10.4988
▁ᐅᑭᔐᐙᑎᓯᐎᓂᓂ	-10.4988
▁ᑭᑎᓄᐤ	-10.4988
▁ᑳᐃᓇᑭᒋᑳᓱᒡ	-10.4988
▁ᔂᑕᒻ	-10.4988
▁ᐐᒋᑭᐌᓯᐗᓐ	-10.4988
▁ᓯᒥᔭᓐ	-10.4988
▁ᓂᑎᑭᑦ	-10.4988
ᐋᐸᒋᑑᔦᒃ	-10.4988
ᒥᓍᑎᓰᔑᑑᔦᒃ	-10.4988
▁ᐃᓀᑖᑾᑭᓐ	-10.4988
▁ᐆᑌᓇᐌᔅ	-10.4988
▁ᑭᑎᑳᓂᕽ	-10.4988
ᑾᔮᒋᑕᒪ	-10.4988
▁ᐁᓀᑕᒪᓐ	-10.4988
▁ᑮᐗᔥᑴᐲ	-10.4988
▁ᓯᑌᑳᐸᐎ	-10.4988
ᐙᓭᔥᑲ	-10.4988
ᑕᔑᑕᒪᐎᓇᑰᒃ	-10.4988
ᑭᒋᐅᓈᑲᓂᕽ	-10.4988
▁ᐃᔥᒀᑌᕽ	-10.4988
▁ᑫᐃᔥᒀᓭᓯᓂᓂᒃ	-10.4989
▁ᐁᑮᐅᒌᒡ	-10.4989
▁ᑮᐃᔑᐲᐃᑳᑌ	-10.4989
▁ᔔᓂᔮᓴᒃ	-10.4989
▁ᐃᔑᑮᔗᐎᓇᓐ	-10.4989
▁ᐁᑭᑐᓂᒡ	-10.4989
▁ᐅᑕᑮᒥ	-10.4989
ᐊᑐᒪᒀ	-10.4989
▁ᐅᑭᑭᓄᐊᒪᐙᑲᓂᓂ	-10.4989
▁ᐅᓯᑎᕽ	-10.4989
ᒌᑲᑲᒥᑭᓯ	-10.4989
▁ᒫᕒᒃ	-10.4989
ᐊᔨᔑᒋᑫ	-10.4989
ᑮᐊᔓᑕᒫᑯ	-10.4989
▁ᐁᔑᓈᑯᓯᔦᒃ	-10.4989
▁ᑯᒋᐃᑰᐎ	-10.4989
▁ᐌᒌᒡ	-10.4989
▁ᑳᑮᐃᔑᓂᑳᓱ	-10.4989
▁ᐱᓯᑕᐎᒃ	-10.4989
▁ᒥᓉᑕᒧᐎᓐ	-10.4989
ᐱᔅᑲᓀ	-10.4989
▁ᐗᑭᑕ	-10.4989
▁ᐃᔑᑮᔗᐎᓐ	-10.4989
▁ᐅᒫᒫᓂ	-10.4989
▁ᐊᑕᐌᑖᑯᓯ	-10.4989
▁ᐅᔥᑭᔔᒥᓈᐳ	-10.499
▁ᐁᐋᐎᓂᒡ	-10.499
▁ᑭᐱᒫᑎᓯᐎᓂᐙᓐ	-10.499
▁ᐁᑮᐋᐸᒋᐋᒡ	-10.499
ᑾᐃᑲᓐ	-10.499
ᐅᓵᒦ	-10.499
ᒥᓂᒀᑲᓂᕽ	-10.499
▁ᐅᑮᐅᑖᐱᓈᓈᐙ	-10.4991
▁ᐅᑲᔥᑭᑑᓐ	-10.4991
▁ᐁᑮᓇᓈᑯᒫᒡ	-10.4991
▁ᑲᑴᒋᒥᑰᐞ	-10.4991
ᐐᑕᒪᐤ	-10.4992
ᐗᓂᔑᓄᐙᒡ	-10.4992
▁ᐅᓇᔓᐌᐎᑭᒫ	-10.4992
ᐴᓀᑕᒫᑰ	-10.4992
▁ᑲᑲᓅᓈᐞ	-10.4993
▁ᐌᒌᒪᑲ	-10.4993
ᐴᑯᓂᑳᑌ	-10.4994
ᓇᓇᐊᓵ	-10.4994
▁ᑮᐌᐱᒫᑎᔅ	-10.4994
▁ᐅᑖᑲᔥᑭᑑᓰᓐ	-10.4995
▁ᐁᑎᓄᐎᔦᒃ	-10.4995
ᐅᓀᑖᓐ	-10.4995
▁ᐁᑮᐊᓇᒥᐋᒡ	-10.4995
▁ᐸᑲᒥ	-10.4996
ᑲᑳᓱᒫ	-10.4997
▁ᐁᔮᓂᑭᓐ	-10.4997
▁ᓃᓀᑕ	-10.4997
ᐃᓀᑕᒪᓐ	-10.4997
▁ᒫᓯᑑᓂᔮ	-10.4997
ᐃᔑᓂᑳᒋᑲᓂᐎ	-10.4998
▁ᑳᐃᔑᒫᒫᐗᒋᐃᑎᓂᒡ᙮	-10.4998
▁ᑮᑮᔑᒋᑳᑌ	-10.4998
▁ᐅᑕᓄᑮᐎᓂᐙ	-10.4999
▁ᐅᑖᓂᓴ	-10.4999
▁ᒋᒥᑲ	-10.5
ᐊᔨᓈᐱ	-10.5001
▁ᐃᔑᐎᓂᒃ	-10.5002
▁ᑮᑕᓇᒥᐋᓈᓐ	-10.5002
▁ᑭᑎᑫᐎᓂᕽ	-10.5002
▁ᑳᐃᑕᒫᓐ	-10.5004
ᓵᑲᐊᒧᐙᒡ	-10.5005
ᐊᑕᐌᑕᒫᓐ	-10.5005
ᑯᑖᓀᓂᒥ	-10.5005
ᔕᐌᓂᒥᑯᐙ	-10.5005
▁ᑭᑮᐐᒋ	-10.5009
ᒋᑲᓂᐎᐗᒃ	-10.5009
▁ᑮᑕᑯᔑᓅ	-10.5009
▁ᑭᒋᐎᓇ	-10.501
▁ᐊᓈᒥᒥᓐᒡ	-10.501
ᐐᒋᑳᐸᐎᑖ	-10.5011
ᐅᑎᑎᓂᑯ	-10.5013
▁ᐅᑮᐙᐸᒥᑰᐞ	-10.5015
ᓂᔑᐗᓈᒋᐋ	-10.5016
▁ᐱᑾᑎᓈᕽ	-10.5017
▁ᓂᑕᔮᓰᓐ	-10.5018
▁ᐐᑾᑎᐎᓂᕽ	-10.5018
▁ᑭᑎᑫᐎᓂᓂᐗᐞ	-10.5019
▁ᑳᐅᒌᓂᒃ	-10.5024
▁ᐸᑯᓭᓂᒥᑰ	-10.5025
▁ᑳᑮᐊᔓᑕᒪ	-10.5026
▁ᐅᐱᒫᑎᓯᐎᓂᐙᓐ	-10.5027
▁ᑳᑮᑭᑫᒋᑳᑌᓯᓂᓂᒃ	-10.5027
▁ᓂᑭᑫᑕᓰᓐ	-10.5028
▁ᐃᓬᐋᐃᒐᐗᓐ	-10.5029
▁ᑲᒀᑕᑭ	-10.5029
▁ᑮᐃᑭᑐᑯᐸᓐ	-10.503
▁ᑮᒋᐱᒫᑎᓰ	-10.5032
▁ᐅᒪᔥᑲᐎᓰᐎᓂᕽ	-10.5032
ᔐᑕ	-10.5035
▁ᑭᑎᔑᒋᑫᒻ	-10.5036
ᒥᓉᑕᒥᓂᒡ	-10.5036
ᑌᐺᔦᑕᒥᓂᒡ	-10.5036
ᐅᑭᑭᓄᐊᒪᐙᑲ	-10.5039
▁ᑳᐃᔑᓂᑳᑌᓂᒃ	-10.5044
ᑾᔭᒀᑎᓯᐎᓂᕽ	-10.5044
ᐱᑾᑎᓈᓂᒃ	-10.5048
ᐐᐊᓂ	-10.5048
▁ᑳᐙᐱᓯᒀ	-10.5048
▁ᓂᑲᒦᓈ	-10.5049
▁ᐯᑌ	-10.5053
▁ᐃᓇᑭᒥᑯ	-10.5055
▁ᐅᑭᑫᑖᓈᐙ	-10.5069
ᑮᓇᑲᓂᑯᓂ	-10.5069
ᑲᒥᑲ	-10.507
▁ᐁᑮᐃᓈᓂᒡ	-10.5073
▁ᐁᒦᑴᒋᐌᓂ	-10.5073
▁ᐁᐹᑏᓄᓂᒡ	-10.5074
ᓂᓯᑎᐸᓐ	-10.5074
ᑲᓅᑕᒫᓱ	-10.5076
▁ᑫᒦᓂᓐᒡ	-10.5076
▁ᑳᐙᓭᔮᒃ	-10.5079
▁ᑳᐃᔑᒋᑫᔭᓐ	-10.5082
▁ᓂᑮᐐᒌᐎ	-10.5082
▁ᔖᑯᐌᓂᒡ	-10.5084
▁ᑳᐃᓈᐙᒡ	-10.5085
▁ᐃᓀᑕᒧᐙᒡ	-10.5085
▁ᑮᑕᑯᔑᓐ	-10.5088
▁ᑳᐅᒌᒪᑲᒃ	-10.5089
▁ᐁᐱᒫᒋᐃᑰᐎ	-10.509
▁ᑮᑕᓇᒥᐋ	-10.5093
▁ᐁᑮᓅᑕᕽ	-10.5094
ᑌᓂᒫ	-10.5095
ᑑᑕᒧᒃ	-10.5096
▁ᑳᑮᐃᓀᑕᕽ	-10.5096
▁ᑭᑎᔑᒋᑫᐎᓂᐙ	-10.5099
▁ᑮᐃᓈᑯᓂᑫ	-10.5099
▁ᒋᐃᑭᑐᐙᒡ	-10.51
▁ᒋᑲᔥᑭᑑᔮᓐ	-10.5104
▁ᐙᐱᑲᓂ	-10.5105
ᐐᑕᒪᐎᓯᓅᓂᓂᒻ	-10.5109
ᑮᐊᐸᑑ	-10.5114
▁ᐅᓵᑭᐋ	-10.5118
▁ᐁᔑᐊᔮᓂᒃ	-10.5119
▁ᐅᑕᓄᑮᐎᓐ	-10.512
ᐱᒫᒋᐃᑰᐎᓯᔦᒃ	-10.5122
▁ᐁᐱᒥᔑᓂᓂᒡ	-10.5122
▁ᐁᑕᔑᒫᒡ	-10.5123
ᐸᑫᓯᐎ	-10.5125
▁ᐁᓀᑖᑯᓯᒡ	-10.5126
ᐅᑎᓇᒧᐙᒡ	-10.5126
ᐐᒌᐗᒃ	-10.513
▁ᑮᐃᔑᒋᑫᐗᒃ	-10.5131
ᐯᑭᐃᑎᓱ	-10.5132
ᑭᑫᓂᒪᒃ	-10.5132
▁ᑕᒥᒋ	-10.5133
ᐱᒫᒋᐃᒥᓐᒡ	-10.5143
ᑎᓄᐎᓰ	-10.5143
▁ᐁᑮᓂᐳᓂᒡ	-10.5145
ᐃᔑᓂᔕᐗᒃ	-10.5155
▁ᑳᑮᓅᑕᒧᐙᒡ	-10.516
▁ᐃᔖᐎᓐ	-10.5164
ᑌᐺᑕᒻ	-10.5168
ᐅᒌᒪᑲᒃ	-10.5174
ᐃᑎᐸᓐ	-10.5177
▁ᐁᔑᓯᓂᓂᒃ	-10.5179
▁ᐙᐱᑾ	-10.5179
▁ᑳᐅᔑᑑᒡ	-10.5179
ᑫᑌᔭᐋᒥ	-10.5181
▁ᐁᑮᓂᓵᐙᒡ	-10.5182
ᒥᓉᑕᒥᐃ	-10.5184
▁ᑳᑕᔑᔭᕽ	-10.5185
▁ᐸᑭᑎᓈᓱ	-10.5188
▁ᒋᐐᓯᓂᐙᒡ	-10.519
ᐐᒌᐎᑯᓂᒡ	-10.5192
▁ᑳᐅᑖᐱᓇᕽ	-10.5193
ᐃᔑᑖᐙᒡ	-10.5193
▁ᑳᑭᑫ	-10.5195
ᐗᐱᐎᓂᕽ	-10.5195
▁ᑳᑮᓅᑕᒣᒃ	-10.5197
ᒪᒋᑑᑕᒣᒃ	-10.5197
ᑌᐺᑖᑯᒡ	-10.5198
▁ᐁᑮᓅᑕᒧᐙᒡ	-10.5199
▁ᑮᑭᐸ	-10.5213
ᐌᑖᑯᓯᒡ	-10.5213
▁ᑳᑌᐺᔦᑖᑯᓯ	-10.5214
ᓯᐙᐙᐞ	-10.5216
▁ᑳᐃᔑᓈᑯᓯᓂᒡ	-10.5216
▁ᓂᑮᐃᓈ	-10.5219
▁ᑮᑕᔑᐗᒃ	-10.5224
▁ᑮᓂᐳᐗᒃ	-10.523
▁ᑭᐐᒌᐎ	-10.5232
ᔨᔑᓭ	-10.5241
▁ᐃᔑᒋᑫᔭᓐ	-10.5255
▁ᑳᐅᓂᔑᔑᒃ	-10.5256
▁ᑮᑭᒋᐅᑭᒫᐎ	-10.5257
▁ᓵᔭ	-10.5259
ᑭᑭᓄᐃᑫᐙᒡ	-10.5262
▁ᐁᑲᓅᓈᒡ	-10.5266
▁ᐅᑌᐺᑕᒧ	-10.5266
▁ᑕᑯᔑᓅᒃ	-10.5268
ᑲᓇᐌᓂᒫᓂᒡ	-10.527
▁ᐊᑐᒫ	-10.5305
▁ᐊᔮᒃ	-10.5307
▁ᑳᓃᑳᓂᔥᑲ	-10.5307
ᐗᑮ	-10.5308
ᐙᓭᔮᓯ	-10.5314
▁ᒋᐊᐲᒋ	-10.5318
ᐃᔑᓈᑾᓯᓅᓐ	-10.5322
▁ᑮᒦᑭᐌ	-10.5323
ᓂᔑᐗᓈᒋᐃᐌ	-10.533
▁ᐲᓈᓂᒡ	-10.5335
ᑎᐸᐊᒪᐙᐗᒃ	-10.5336
ᑾᔭᑴᓂ	-10.5344
ᑎᐱᒃ	-10.5351
ᓂᒥᓂᓂᒻ	-10.5367
ᑌᐊᐲᑌᑖᑯᓯᓰ	-10.5379
▁ᑭᑭᑫᓂᒥᑰ	-10.5381
ᑲᑴᑗᔦᒃ	-10.5392
ᑯᓰᐙᒃ	-10.5395
ᑭᒥᑣ	-10.5399
ᑲᑴᒋᒥᓂᓂᒻ	-10.5405
ᑰᔮᕽ	-10.5407
ᑌᐺᔭᓐ	-10.5408
▁ᐊᔮᒀᒥ	-10.5408
▁ᐃᔑᓂᑳᓈ	-10.5413
▁ᐃᓈᐞ	-10.5464
ᐐᒋᐃᑯᐙᒡ	-10.5475
▁ᑳᑮᐃᔑᒋᑫᐙᒡ	-10.5486
▁ᑭᒦᓂ	-10.5488
ᓂᓯᑕᐎᓇᓰ	-10.5495
ᐙᐸᑖᒻ	-10.5496
▁ᑳᐃᓇᒧ	-10.5497
▁ᑕᐴᓂ	-10.5509
ᓂᒫᒡ	-10.5514
ᐋᐸᑕᓂᓂ	-10.5527
ᑭᐱᑎᓈ	-10.5529
ᐅᑖᐱᓇᒣᒃ	-10.5538
▁ᒋᐱᒫᒋᐋ	-10.5557
▁ᑳᐊᑕ	-10.5586
▁ᒋᐴᓂᑑ	-10.5591
ᐱᒥᑌ	-10.5602
ᔕᐌᓂᒫ	-10.5608
▁ᐅᑲᑲᔥᑭᑑᓰ	-10.5639
ᓂᔑᐗᓈᑕᒃ	-10.564
ᐲᑯᓇᕽ	-10.5655
ᓇᑌᒃ	-10.5662
ᐎᓂᑯᒡ	-10.5693
ᐐᓴᑲ	-10.572
ᓇᓃᓵᓂᓯ	-10.5728
ᒥᓈᓯ	-10.5732
▁ᐲᒋᓂᔕᐅᑯ	-10.5752
ᑭᒋᐱᓱ	-10.5768
ᑮᐐᑕᒫᑰ	-10.5769
ᒪᒋᒥᓴᐌ	-10.5772
▁ᑳᐅᔑ	-10.5779
▁ᐁᑮᓇᓃᓵᓂ	-10.5787
▁ᑳᑭᑫᓂᒫ	-10.5792
ᒥᓂᑴᐗᒃ	-10.5794
ᑭᔑᑌ	-10.5817
▁ᑳᑭᑫᓂᒫᓯ	-10.5834
ᐃᔑᓂᔕᐙᒡ	-10.5858
▁ᐁᐲᑯᓇ	-10.5862
ᓀᓂᒥᑯᒡ	-10.5937
▁ᐊᑕᐙᐸ	-10.5937
▁ᐅᑲᐊ	-10.596
▁ᐱᒥᔑ	-10.5966
▁ᑮᐅᔑᐲᐃᑳᑌ	-10.5979
ᓅᑖᑯᑑ	-10.5982
ᑳᑌᓯᓂᓂ	-10.5994
▁ᐁᑭᑭᔥᑳᑯ	-10.5995
ᐅᑕᓄᑮᐋᑲᓂᒥ	-10.6035
ᐊᔮᒀᒥᒫ	-10.605
▁ᑮᐸᐹ	-10.6058
ᐙᐸᒫᓰ	-10.6073
▁ᒥᓉᑕ	-10.6081
ᐃᔑᐌᐱᓯᓂᒡ	-10.6084
ᐸᑕᑭᑌ	-10.6102
▁ᐋᐎ	-10.6107
ᑕᒪᐗᒀ	-10.6108
▁ᐸᑯᓭ	-10.6109
ᐊᑖᐙ	-10.6129
▁ᒋᑑᑕᐎ	-10.6131
ᑕᔑᑯ	-10.6137
▁ᓈᑯᑑ	-10.6139
ᓅᑕᒪᐙᓂᒡ	-10.6148
ᐊᑐᒥᒃ	-10.6149
ᓃᐸᐎᐗᒃ	-10.615
▁ᑮᑲᑴᑗ	-10.6163
ᓅᑖᑾᓐ	-10.6184
▁ᐅᑮᐊᑐᒫ	-10.6187
▁ᑳᑲᑮᑖᐌᑕ	-10.6202
ᐃᔑᓂᑳᑌ	-10.6206
▁ᒋᑳᒋᑎ	-10.623
ᐹᑏᓄᓂᒡ	-10.6233
ᐃᓈᓰᓐ	-10.6242
▁ᐅᑕᔮᐙ	-10.626
ᐗᔦᔑᐋ	-10.6261
ᑌᐺᐗᓂᓂ	-10.6273
ᑎᓂᑳᑌ	-10.6278
▁ᐊᔓᑕᒫᑫ	-10.6298
ᒧᔐ	-10.6305
ᐐᓈᑎᓯ	-10.6311
▁ᐅᑭᑎᑫ	-10.6314
▁ᐊᑯᓈ	-10.6315
ᐗᓂᐎᓂ	-10.6318
ᑮᔖᒋ	-10.6328
▁ᐃᔑᒋᑫᓂᒡ	-10.6328
ᒪᓯᓇᐃᑲᓐ	-10.6338
ᑎᓱᐙᒡ	-10.6345
ᓃᐱᐗᐞ	-10.6352
ᓂᔕᐅᑣ	-10.6354
▁ᐐᓯᓃ	-10.6354
▁ᐱᒫᑎᓯᐎᓂ	-10.6367
ᑭᑭᔥᑲᕽ	-10.6375
▁ᒋᐐᒌᐎ	-10.6378
▁ᓂᑖᐸᒋ	-10.6381
▁ᑲᑳᓱᒥ	-10.6384
▁ᓅᑖ	-10.6385
▁ᓭᓴᑰ	-10.6392
ᐃᔑᓂᔕᐅᓐ	-10.6402
▁ᐯᕒᐊ	-10.6406
▁ᒋᐅᑎᑕ	-10.6409
ᐃᔥᑯᓭ	-10.6419
ᓂᑕᒻ	-10.6426
▁ᓂᓵᑭ	-10.643
ᓀᑖᑯᓯᓂᒡ	-10.6431
ᑲᑴᔖᑰᓱᑎ	-10.6437
ᑭᑣ	-10.6454
ᐐᓯᓂᐗᒃ	-10.6463
▁ᑳᑑᑕᐎ	-10.6472
▁ᑕᑮᐌ	-10.6484
▁ᑮᒋᑭᐌ	-10.6485
▁ᑳᑾᔭᑾ	-10.649
▁ᐅᑮᓅᑖᑯ	-10.6491
ᓬᐊᔅ	-10.6499
ᑮᐃᔑᐌᐱᓯ	-10.6502
ᓇᐁᑕᒥᐋ	-10.6504
ᐊᑐᓀᐊ	-10.6504
ᒦᓂᑰᐎᓯᔦᒃ	-10.6505
ᑕᔑᑕᒧᐙᒡ	-10.6506
ᐃᔑᒋᑫᔮᐹᓐ	-10.6509
ᑎᐱᑲᓂᓂᒃ	-10.6509
▁ᑎᐹᑐ	-10.6515
▁ᑳᑭᑭᓄᐊᒪᐎ	-10.652
ᑯᓰᐞ᙮	-10.6532
▁ᐊᓇᒥᐁᑕ	-10.6537
▁ᐅᔑᐲᐃᑫ	-10.6537
▁ᒋᓈᓈᑲᒋ	-10.6538
ᐃᓈᓴᒥᑳᐸᐎ	-10.6541
▁ᐅᑎᐹᒋᒧ	-10.6549
ᐸᓀᓐ	-10.6555
▁ᓇᐃᑕ	-10.656
▁ᑭᐴᔔᐃ	-10.6562
▁ᒎᑏᔮ	-10.6562
▁ᑳᑮᐃᔥᒀ	-10.6563
ᐃᓈᐸᑕᓯᓅᓐ	-10.6568
▁ᓃᐱᐗ	-10.657
▁ᑲᔥᑮ	-10.6572
ᑕᒧᐗᕽ	-10.6574
ᑫᑰᓐ	-10.6575
▁ᓂᐐᒌᐎ	-10.6578
▁ᐱᔑᑭ	-10.6579
ᒫᐗᒋᐃᑎᐗᒃ	-10.6579
▁ᐅᑮᐙᐸᑖ	-10.6583
ᑲᓅᒋᑫᑕ	-10.6585
▁ᑌᓴᓬᐊᓇᐃ	-10.659
ᐅᑑᑌᓈᒥ	-10.659
ᐅᒑᓂᒣᑕ	-10.659
ᒑᑭᓯᑳᑌ	-10.6591
▁ᐊᔦᒀᒥ	-10.6591
▁ᑳᐅᑭᒫᑲᑖᑫ	-10.6591
▁ᓂᑑᔑᐲᐃᑲ	-10.6591
ᐅᑕᑳᓀᓯᓂᒡ	-10.6591
ᐊᑐᑕᒫᑫ	-10.6591
ᐊᒸᓂᒡ	-10.6591
ᐐᓯᓂᐎᓈᑎ	-10.6591
ᑌᓇᓂᐤ	-10.6591
ᑎᐹᒋᒥᒃ	-10.6591
ᑕᐸᓭᓂᑎᓱ	-10.6591
ᑕᑶᔑᓂᓂᒡ	-10.6591
ᑭᒋᐅᔑᐲᐃᑫᐎᓂᕽ	-10.6591
ᑯᑖᓀᓂᒣᒃ	-10.6591
ᒪᒋᑮᔣ	-10.6591
ᒫᒪᐐᓄᓂᒡ	-10.6591
ᓂᓂᑭᔥᑳ	-10.6591
ᓇᓃᓵᓀᑕ	-10.6591
ᔔᒥᓈᑎᑰ	-10.6591
▁ᐅᐴᑖᒋᑲᓐ	-10.6591
▁ᐅᑭᑭᔥᑭᑲᓂᐙᓐ	-10.6591
▁ᐅᑮᑲᓅᓂᑰᓐ	-10.6591
▁ᐅᑮᓇᑴᑖᑰᐞ	-10.6591
▁ᐅᒪᓂᑑᒪᓐ	-10.6591
▁ᐅᓯᑎᓃᕽ	-10.6591
▁ᐅᔕᐌᒋᑫᐎᓂᕽ	-10.6591
▁ᐅᔥᑲᐱᓅᒌ	-10.6591
▁ᐊᐯᔪᒃ	-10.6591
▁ᐊᑫᔮᐗᑮᕽ	-10.6591
▁ᐊᒑᑯᐎ	-10.6591
▁ᐋᐃᑰᓂᔭ	-10.6591
▁ᐋᕒᑎᒪᔅ	-10.6591
▁ᐌᑯᓯᓯᒥ	-10.6591
▁ᐙᐱᔥᑮᑭᓅ	-10.6591
▁ᐯᔅᑕᓴᓐ	-10.6591
▁ᐲᑕᒪᐎᔑ	-10.6591
▁ᐸᐸᑴᐱᓈᒡ	-10.6591
▁ᐸᔑᐸᐃᑫᐎᑯᒫᓐ	-10.6591
▁ᑌᐯᒋᑫᒡ	-10.6591
▁ᑫᒦᒋᐙᒡ᙮	-10.6591
▁ᑭᐐᔭᐎᓈᓂᕽ	-10.6591
▁ᑭᐲᐌᓰᒪᒃ	-10.6591
▁ᑭᑭᔐᒪᓂᑑᒻ	-10.6591
▁ᑮᐋᓉᑕᒻ	-10.6591
▁ᑰᐹᓯᓇᐙ	-10.6591
▁ᑲᐯᑎᐱᒃ	-10.6591
▁ᑲᓬᐁᔑᔭ	-10.6591
▁ᒀᕒᓃᓬᐃᔭᔅ	-10.6591
▁ᒋᒪᔥᑲᐌᑕᒥᓂᒡ	-10.6591
▁ᒐᕒᐆᐗ	-10.6591
▁ᒥᓍᒋᒧᐎᓂᕽ	-10.6591
▁ᒪᓯᓇᐃᑲᓇᓐ	-10.6591
▁ᓂᑎᑭᑐᓰ	-10.6591
▁ᓂᑎᔑᓂᑳᓱᐎᓂᕽ	-10.6591
▁ᓂᑕᒑᑯ	-10.6591
▁ᓂᑕᓄᑮᐋᑲᓐ	-10.6591
▁ᓬᐃᔅᑕᕒᐊ	-10.6591
▁ᓵᐃᒪᓅᓐ	-10.6591
▁ᔑᒫᑲᓂᔒᐎᑲᒥᑯᕽ	-10.6591
▁ᔑᒫᑲᓂᔥ	-10.6591
▁ᔔᒥᓈᑎᑯᕽ	-10.6591
▁ᐁᐃᓇᑭᒋᑳᓱᒡ	-10.6591
▁ᐁᓈᒋᒥᓐᒡ	-10.6591
▁ᐗᑎᑾᓐ	-10.6591
▁ᐱᓈᓯᑳᑯ	-10.6591
▁ᐴᑖᒋᑲ	-10.6591
▁ᑭᐸᐅᑏᐎ	-10.6591
▁ᑭᑎᓀᑖᒻ	-10.6591
▁ᑭᑭᔥᑭᑲᓐ	-10.6591
▁ᑭᔕᐌᑖᑯᓯᒻ	-10.6591
▁ᓂᒫᓇᒑᓂᔑᒪᒃ	-10.6591
ᓰᑲᐊᑖᑰᔦᒃ	-10.6591
▁ᐅᑎᐯᒋᑫᐎᓂᓃᕽ	-10.6591
▁ᑖᔥᑮᑭ	-10.6591
▁ᑭᑌᑖᑯᓯᐎᓐ	-10.6591
▁ᑌᐯᓂᒥ	-10.6591
▁ᒥᔕᐗ	-10.6591
ᐃᔥᐱᔥᑳ	-10.6591
ᐅᑲᑮᑖᐌᑕᒧᐎᓂ	-10.6591
▁ᐅᑭᒫᐎᐎᓇᓐ	-10.6591
▁ᑳᐐᓀᑖᑾᒃ	-10.6591
▁ᑳᐱᒥᓭᑭᓐ	-10.6591
ᑮᔥᑭᔑᑲᓐ	-10.6591
ᒋᐅᑌᐺᑕᒧ	-10.6591
▁ᐅᓵᑭᐃᐌᐎᓂ	-10.6591
▁ᑫᐴᓂᓭᓯᓄᒃ	-10.6591
▁ᐁᑮᐃᓀᑕᒧᐙᒡ	-10.6591
ᑮᐊᑐᒥᑯᒡ	-10.6591
ᐊᑮᐗᓂᓂᒃ	-10.6591
▁ᐁᐯᑭ	-10.6591
▁ᐅᑰᐹᓯᓈᑫᐎᓐ	-10.6591
ᑭᐸᐅᒥᓐᒡ	-10.6591
ᓇᒥᐁᐗᓄᑮ	-10.6591
▁ᑭᑎᑭᑦ	-10.6591
ᐗᑎᑾᓂ	-10.6591
▁ᐅᒪᒋᑑᑕᒧᐎᓐ	-10.6591
▁ᑕᐃᔑᐌᐸᓐ	-10.6591
▁ᒌᑭᐲᒃ	-10.6591
▁ᓈᐱᔥᑭᑲ	-10.6591
▁ᐅᑎᒀᓇᓐ	-10.6591
▁ᑭᑌᓂᒥᑾᒃ	-10.6591
▁ᒋᒦᓂᓀᒃ	-10.6591
ᐙᐸᑕᓰᓐ	-10.6591
▁ᑲᓇᐌᓂᑎᓱ	-10.6591
▁ᐌᒌᐙᒡ	-10.6591
▁ᐃᑴᓭᔅ	-10.6591
▁ᐗᑭᑕᑎᓐ	-10.6591
▁ᐙᓴᑯᓀᒋᑲᓈ	-10.6591
▁ᑳᐃᔑᑯᑖᓀᑖᑾᓂᓂᒃ	-10.6591
ᒫᓀᑕᒻ	-10.6591
ᒪᒐᑭ	-10.6591
▁ᐃᓀᑕᑫᒃ	-10.6591
▁ᑕᐴᓀᑕᒪᐙᓰ	-10.6591
ᒨᔕᑭᓂᑫ	-10.6591
▁ᐋᐱᑖ	-10.6591
ᑲᑮᑭᒥ	-10.6591
▁ᐅᒫᓇᒑᓂᔑᒪ	-10.6591
▁ᐊᑕᐌᑕᒪᓐ	-10.6591
ᑕᑯᔑᓈᕽ	-10.6591
▁ᐅᑭᔐᒪᓂᑑᒥᐙᓐ	-10.6591
ᑭᑎᒫᑫᓂ	-10.6592
▁ᐊᓈᒪᑲᒥᒃ	-10.6592
▁ᐙᑳᐃᑲᓂᓂ	-10.6592
▁ᐅᑮᐊᔕ	-10.6592
▁ᐱᒫᒋᐃᐌᐎᓐ	-10.6592
▁ᑲᑴᒋᐃᑰ	-10.6592
▁ᓂᑲᒧᓇᓐ	-10.6592
ᐊᓂᒥᑯᑖ	-10.6592
▁14	-10.6592
▁ᓂᔑᐌᑫᓐ	-10.6592
▁ᒦᔭᐤ	-10.6592
▁ᐁᑎᐯᓂᒥᓇᑰᒃ	-10.6592
▁ᓂᑎᓀᑕᒧᐎᓂᕽ	-10.6592
▁ᐅᑎᓀᑕᒧᐎᓂᓂ	-10.6592
▁ᐅᓃᒑᓂᓯᐙᐞ	-10.6592
▁ᒥᑯᔥᑳᑌᑕᒣᒃ	-10.6592
▁ᒦᑴᒋᐌᓂᒫᑖ	-10.6592
▁ᑳᒫᑭᓯ	-10.6592
ᐸᑕᑭᓱ	-10.6592
▁ᑎᐹᑯᓂᑫᐎᑮᔑᑲᒃ	-10.6592
▁ᒎᑏᔮᑳᕽ	-10.6592
ᐃᓇᑲᒥᑲᒃ	-10.6592
▁ᓂᒥᑲᒧᐙᓰ	-10.6592
▁ᓂᓇᑕᐌᑖᓐ	-10.6592
▁ᐅᑎᔑᓂᑳᓱᐎᓂᕽ	-10.6593
ᐲᑎᑲᐙ	-10.6593
▁ᑳᐅᑯᓯᓯᒥᑯᒡ	-10.6593
▁ᐅᐱᒫᑎᓰᒥᓂ	-10.6593
▁ᓂᔑᐗᓈᑎᓯᐎᓂᕽ	-10.6593
ᐅᑸᓄ	-10.6593
▁ᒋᑎᐱᓭᒃ	-10.6593
▁ᑳᓃᔑᐙᒡ	-10.6593
▁ᒋᐅᒋᔥᑲᐎ	-10.6593
▁ᓵᒥᓇᒪᐙ	-10.6593
▁ᒫᓇᑎ	-10.6593
▁ᒌᑫᑕᒧᐎᓐ	-10.6593
▁ᑳᐃᔥᐯᑖᑯᓯᒡ	-10.6593
▁ᐐᓯᓃᒫᒡ	-10.6593
▁ᐁᐊᓄᑮᑕᐗᒃ	-10.6593
ᑆᑕᐐ	-10.6594
▁ᐁᐊᓇᒥᐋᔮᓐ	-10.6594
ᐱᒥᐗᓈ	-10.6594
▁ᐸᑭᑎᓂᑫᕽ	-10.6594
▁ᑳᑾᔭᑯᓈᑾᒃ	-10.6594
▁ᐹᑏᓄᓈᓂᐗᓂᓂᒃ	-10.6594
▁ᑎᒫᔅᑲᓯᕽ	-10.6594
ᑭᑭᔥᑭᑫ	-10.6595
▁ᑲᑴᒋᑎ	-10.6595
▁ᓭᕒᐊ	-10.6595
▁ᒋᐃᔑᐊᓈᒣᑖᑯᓯᓯ	-10.6595
▁ᐗᑶ	-10.6595
ᑭᑌᑖᑯ	-10.6595
▁ᑳᑾᔭᑯᓈᑾᓂᓂᒃ	-10.6595
▁ᐃᓀᒋᑲᓂᐎ	-10.6595
▁ᑳᒪᒋᑑᑕᒧᐙᒡ	-10.6596
▁ᐅᔑᒫᑲᓂᔒᒪᐞ	-10.6596
ᑮᐅᔒᑖ	-10.6596
▁ᐌᓂᔑᔑᓂᓂᑭᓐ	-10.6596
▁ᑕᐲᑎᑫᓰ	-10.6596
▁ᒉᓴ	-10.6596
ᐸᐸᔕᔐᐅᓐᒡ	-10.6596
▁ᑎᐱᑭ	-10.6597
ᐎᓂᓈᓂᓐ	-10.6597
▁ᑳᑑᑕᐙᒡ	-10.6597
▁ᒫᓇᒑᓂᔐᓴᓐ᙮	-10.6597
▁ᑕᑌᐱᓇᒫᓱ	-10.6598
▁ᒌᑫᑕᒧᒃ	-10.6598
▁ᑳᑮᐃᓀᑕᒧ	-10.6598
▁ᐃᔥᐸᑎᓈᓂᒃ	-10.6598
▁ᒋᒥᓄᐐᒌᐙᒡ	-10.6599
▁ᒋᓂᔑᐗᓈᑎᓯᒡ	-10.6599
▁ᐅᐱᒣ	-10.6599
▁ᒦᑭᐌᐎᓇᓐ	-10.6599
ᒦᑭᐙ	-10.66
▁ᑮᐱᑕᑯᔑᓅ	-10.66
▁ᐊᓇᒥᐁᑕᐎᓐᒡ	-10.66
▁ᐅᑖᐎᓂᓃᕽ	-10.66
▁ᑳᐸᑭᑎᓇᒪᐎ	-10.6601
▁ᑕᑯᓂᑲᓇ	-10.6601
▁ᐁᒥᑴᓂᒥ	-10.6601
▁ᐸᐹᒣᓂᒫ	-10.6601
ᐊᒧᓐᒡ	-10.6602
▁ᐅᑎᓵ	-10.6602
ᐐᑕᐱᒥ	-10.6603
▁ᒥᑖᐗ	-10.6603
▁ᑭᐴᔔᐃᑯᐙᒃ᙮	-10.6603
▁ᑳᑮᐃᔥᒀᐱᒫᑎᓯᐙᒡ	-10.6603
▁ᐁᐊᓇᒥᐋᒡ	-10.6603
▁ᐅᑖᐱᓂᒃ	-10.6604
ᑎᐱᑲᓐ	-10.6604
▁ᑳᑭᐱ	-10.6604
▁ᑭᒋᐅᑳᑏᑭᓀᐱᒃ	-10.6604
ᐐᒌᐗᑭᒡ	-10.6605
▁ᐁᒥᑲ	-10.6605
▁ᓵᑭᒋᓂᔕᐙ	-10.6605
▁ᑳᑮᐃᓈᒡ	-10.6606
▁ᑳᐃᒋᑲᓂᐎᒡ	-10.6607
▁ᑳᑎᓄᐎᐙᒡ	-10.6607
ᑭᑭᓇᐙᐸᒥ	-10.6607
▁ᐁᔮᑴᓐ	-10.6608
▁ᐅᑕᔮᐎᓂᓂ	-10.6608
▁ᐁᑮᐃᔑᑮᔑᑲᒃ	-10.6609
▁ᒋᐃᔑᓭᒃ᙮	-10.6609
ᑎᐯᓂᑎᓱᐙᒡ	-10.6609
ᐸᐃᑲᓐ	-10.661
▁ᑌᐱᑕᓐ	-10.6611
ᔥᑲᒧᐙᒡ	-10.6611
▁ᔔᓂᔮᓴᓐ	-10.6611
▁ᒋᐸᑭᑎᓇᒪ	-10.6612
▁ᑳᑮᐃᓂᒥᓐᒡ	-10.6612
▁ᑳᑮᐅᓀᓂᒥᑯ	-10.6612
ᐊᑕᐌᑕᒧᐙᒡ	-10.6612
▁ᐁᐋᐎᒡ	-10.6613
▁ᑳᑮᐃᔑᓂᑳᑌᓂᒃ	-10.6613
▁ᐊᐱᒧ	-10.6615
ᑯᓰᓈᓐ	-10.6615
▁ᑳᑮᐃᑭᑐᓂᑯᐸᓀᓐ	-10.6616
▁ᐁᑮᐊᔮᐙᓯ	-10.6616
▁ᑭᑑᒌ	-10.6616
▁ᑳᑲᔥᑭᐁᐎᓯᓂᒡ	-10.6617
ᐗᓂᑑᒡ	-10.6617
▁ᒎᑏᔮᕽ	-10.6618
▁ᐃᓂᑖᑯᓯᐎᓐ	-10.6621
▁ᔕᐌᑖᑯᓯᐎᓐ	-10.6623
▁ᐐᓴᑫᑕᒧ	-10.6625
ᐅᒋᒫᒌᑭ	-10.6626
▁ᑎᐯᒋᑫᓂᒡ	-10.6626
▁ᐅᑮᐋᐸᒋᑑᓐ	-10.6628
▁ᑳᑎᐯᓂᒥᑯᒡ	-10.6629
ᐃᓀᑕᓯᒃ	-10.6629
▁ᑭᑕᔮᐙ	-10.663
▁ᑳᐃᔑᑯᑖᓀᑖᑾᒃ	-10.6631
ᑮᐅᓀᓂᒫ	-10.6631
▁ᐅᒪᒋᑑᑕᒧᐎᓂᓂ	-10.6632
▁ᑲᒀᑕᑭᐃᑰᐎᓐ	-10.6632
▁ᐊᔮᓯᓄᒃ	-10.6633
ᒥᓉᑕᒧᒃ	-10.6633
▁ᐁᐐᒌᐎᓇᕽ	-10.6634
ᐙᐸᒥᑰᔭᓐ	-10.6635
▁ᐁᑮᐃᔑᒋᑫᐙᒡ	-10.6636
▁ᐅᑭᑫᑕᓰᓈᐙ	-10.6636
▁ᑭᑎᑫᐎᓂᓂᐗᒃ	-10.6639
▁ᑮᐋᐸᑕᓂᓂ	-10.664
ᑫᓂᒥᑯᒡ	-10.664
▁ᐅᑲᐱᓯᑕᐙ	-10.6643
ᔑᒫᐙᒡ	-10.6646
▁ᑳᑮᐱᐅᒋ	-10.6647
ᐌᐸᐃ	-10.6647
▁ᑳᐃᔑᒫᒫᐗᒋᐃᑎ	-10.6647
▁ᑕᐅᒋᒋᓭ	-10.6651
ᑕᓱᐱᐴᓉ	-10.6652
ᑰᐹᓯᓈᑫ	-10.6653
▁ᐅᑮᐅᑖᐱᓈᐙ	-10.6653
▁ᑭᑭᓄᐃᑫᐎᓐ	-10.6656
ᐊᐯᓂᒧᓄᑕᐎ	-10.6658
▁ᐊᓉᐱᐎᓐ	-10.6659
▁ᐅᕒᐁ	-10.666
▁ᑭᑭᔥᑲᐙᓂ	-10.666
▁ᐃᔑᐊᐲ	-10.666
▁ᑲᒀᑕᑫᑕ	-10.6661
▁ᑳᒫᐗᑑᓈᐙᒡ	-10.6662
▁ᑳᑮᐋᓂᑫ	-10.6665
▁ᑳᐃᔑᐊᑕᐌᑕᕽ	-10.6666
▁ᑫᑌᑖᑯᓯ	-10.6667
▁ᑳᑭᑎᑳᑕ	-10.667
▁ᑳᐃᒋᑳᑌᓂᒃ	-10.6672
ᒥᑲᓰᓐ	-10.6674
▁ᑕᓂᔑᐗᓈᑕ	-10.6679
▁ᓂᑮᐃᔖ	-10.6679
ᒪᐎᓂᓂᒻ	-10.668
▁ᑳᐱᓯᓂ	-10.6682
ᑌᐺᔦᑕᒻ	-10.6688
ᐃᑎᓱᐙᒡ᙮	-10.6688
ᑌᐺᔦᑕᒧᐙᒡ	-10.6689
▁ᐅᓇᔓᐌᐎᓂᓂᐗᐞ	-10.6689
ᒫᓀᑕᒣᒃ	-10.669
ᒥᓴᐌᑕᒣᒃ	-10.669
ᑎᐯᓂᒪᒀ	-10.6691
ᐙᐸᑕᒫᕽ	-10.6692
▁ᐁᐲᑑ	-10.6696
ᑯᔥᑯᓭ	-10.6698
▁ᑳᓃᑳᓃ	-10.6699
▁ᐅᑮᐊᑕ	-10.6699
▁ᓵᒥᓇ	-10.67
ᐱᒫᒋᐃᓐᒡ	-10.6701
▁ᑮᐌᓂᔕᐙ	-10.6704
ᒧᑭᓐ	-10.6705
▁ᑎᐹᒋᒧᐙᒡ	-10.6708
ᑮᑭᑑᑕᒪᐙ	-10.6717
▁ᑭᑌᐺᑕᒧᐎᓂᐙᕽ	-10.6721
ᓃᑳᓀᑖᑯ	-10.6723
▁ᒋᐅᒋᑭᒋ	-10.6724
ᐐᒌᐎᑰᓐ	-10.6728
▁ᑭᑎᑯᐙ	-10.6734
▁ᐅᑌᐺᐎ	-10.6735
ᒥᓄᐊᔮᐃᓐᒡ	-10.6736
▁ᐃᔖᑖ	-10.6736
ᐐᑕᒪᐎᓀᒃ	-10.6737
ᑭᑫᑖᑾᓯᓅᓐ	-10.674
ᑲᔥᑭᒋᑳᑌ	-10.6741
ᐐᒋᔭᔮᒥ	-10.6742
▁ᐃᔫ	-10.6745
ᐙᓯᒀ	-10.6754
ᐊᓄᑮᑕᐙᐙᒡ	-10.6754
ᐊᑕᐙᐸᒫ	-10.6754
ᑎᐯᑕᒫᓐ	-10.6755
▁ᑭᑭᑫᓂᒫᐙ	-10.6755
ᐱᓯᑕᓯᒃ	-10.6756
▁ᓈᓄ	-10.6761
ᒥᑴᑖ	-10.6762
▁ᓇᓴ	-10.6765
ᑑᑕᒣᑭᐸᓐ	-10.6768
▁ᑮᓂᔥᑳᑎᓯ	-10.6771
▁ᒋᒦᓇ	-10.6774
▁ᐊᔮᓯᒃ	-10.6781
▁ᐁᔑᐊᔮᒡ	-10.6787
▁ᓴᓇᑲᓂᓂ	-10.6789
ᐎᓐᑦ	-10.6792
ᐊᔓᑕᒫᑫᐎᓐ	-10.6792
ᑌᐺᑕᐗᕽ	-10.6796
ᓈᓈᑲᑕᐌᑕᕽ	-10.6798
▁ᐁᔑᓈᑯᓯᔮ	-10.6805
ᐲᒋᓂᔕᐙ	-10.6811
ᒦᓂᑰᔭᓐ	-10.6812
▁ᐃᓀᓂᒥᑰ	-10.6813
▁ᑕᓂᑖ	-10.682
▁ᓃᔣᓯᒥᑕᓇ	-10.682
▁ᐁᐊᔓ	-10.6822
▁ᑮᐊᔮᐗᐞ	-10.6823
ᒋᔥᑲᐎ	-10.6825
ᐙᐸᒥᑯᐙᒡ	-10.6844
ᐊᓇᒥᑑᓂᒡ	-10.6852
▁ᐃᓀᑖᑯᓯᓰᐗᒃ	-10.6856
ᐯᑭᐋ	-10.6858
ᑲᐹ	-10.6862
▁ᓂᔑᐗᓈᒋᑑ	-10.6864
ᑲᓅᑖ	-10.6865
ᓵᑳᑌ	-10.6875
▁ᒦᑲᓈ	-10.6892
ᒦᓂᑰᐎᓯᐎᓐ	-10.6899
▁ᑳᔕᐌᓂ	-10.6902
ᐸᐹᐃᔖ	-10.6917
ᒪᑲᓂᓂᐗᓐ	-10.693
ᔥᑳᑯᐙ	-10.6933
▁ᒋᓇᑲᑕᒧᐙ	-10.6939
ᐅᑑᑭᒫᒥᐙᓐ	-10.694
ᑮᓇᓈᑐ	-10.6947
▁ᒋᓵᑭ	-10.6958
ᔔᓂᔮᒪᓐ	-10.696
ᑲᓅᑕᕽ	-10.6967
ᑕᒪᐎᓀᒀ	-10.6983
▁ᐊᐱᓅᒌᔑ	-10.6991
▁ᐁᐐᐃᔑᒋᑫᐙᒡ	-10.6994
▁ᑮᔑᑑ	-10.6996
ᑮᐃᓇᑭᒫ	-10.6999
▁ᓃᔭ	-10.7002
ᑕᔑᒥᒥᓐᒡ	-10.7003
ᑲᓅᔑ	-10.7018
ᔕᐌᓂᒥᒃ	-10.7046
ᐊᑐᒫᐞ	-10.7058
ᐊᑐᒫᐙᐞ	-10.7076
▁ᑳᐃᓈᒋᒥ	-10.708
▁ᐊᐸᑭ	-10.7081
ᑭᑭᔥᑲᒣᒃ	-10.7086
▁ᐲᔖᓰ	-10.7087
ᑲᓅᓂᑰᔦᒃ	-10.7098
ᑲᒀᑕᑭᑑᔮᕽ	-10.712
ᓃᑳᓂᓂᔕᐙ	-10.7133
ᐙᓭᔥᑳ	-10.714
▁ᐅᔥᑭᓃᑭᐗ	-10.7146
▁ᐁᐹᐱᓄᑕ	-10.7147
▁ᒋᐙᐸᒋᑳᑌᓂ	-10.7197
ᒪᒋᒋᑫᐙᒡ	-10.7227
ᒋᑫᒪᑲᒃ	-10.723
ᑮᑭᑐᔮᓐ	-10.7242
▁ᐁᓀᑖᑯᓯ	-10.7248
▁ᑭᑫᓂᒥ	-10.7258
ᓅᑌᓭᔮᓐ	-10.7259
ᑭᑭᓇᐙᑕᔕᑫᔑᑲᓂᐎᒡ	-10.7271
ᐃᑭᑐᐙᑯᐸᓀᓐ	-10.7279
ᑕᒫᑫᓂᒡ	-10.7286
ᐃᑭᑐᔮᐹᓐ	-10.7286
ᑑᑖᓇᓐ	-10.7305
ᔖᑯᐌᒡ	-10.7313
▁ᑭᑭᓄᐊᒪ	-10.7314
ᒥᑲᒧᐙ	-10.7331
ᓱᑮᓯᔅ	-10.7331
ᐐᒌᐎᓈᓐ	-10.7336
▁ᐁᑕᓱᐯᔑ	-10.7348
ᒫᒋᑖ	-10.7353
ᐐᒌᐎᑯᓈᐙ	-10.7369
ᐸᔥᑴᑭᓄ	-10.7376
▁ᓂᑭᑫᑖ	-10.7385
▁ᓂᑎᓀᑖ	-10.7397
▁ᒫᒑᔦᒃ	-10.7405
ᑑᔮᓐ	-10.7422
ᓂᐳᒻ	-10.7443
ᐃᔑᒋᑫᐙᐸᓐ	-10.7466
▁ᐁᑮᐃᑭᑐ	-10.7468
ᑕᐎᓇᒪᐎ	-10.7474
ᐊᔓᑕᒪᐙ	-10.7474
▁ᐅᓈᐯᒥ	-10.7491
ᓈᑎᓯᐙᒡ	-10.7536
ᑕᒪᐎᓈᓐ	-10.7542
▁ᑳᐋᓇᐌᓂᒥ	-10.7567
ᐹᐹ	-10.7597
▁ᑕᒥᓄ	-10.7622
ᐱᐴᓐ	-10.7672
ᐐᑕᒫᑯᒡ	-10.769
▁ᐴᓀᑕᒪ	-10.7697
ᒪᑭᑣ	-10.7706
ᔑᓈᑯᑑ	-10.773
ᐃᔑᒋᑫᐃᓐᒡ	-10.7754
ᑯᓰ᙮	-10.7787
▁ᐱᑾᑎᓈ	-10.781
▁ᑭᑎᒫᑭ	-10.7811
▁ᐋᓴ	-10.7813
ᓂᔑᐗᓈᑕᓐ	-10.7815
▁ᑭᑭᔥᑳᑯᓂ	-10.7815
ᑕᑶᔑᕽ	-10.7837
ᐹᐱᓄᑕᐙ	-10.7863
ᐋᒋᒋᑳᑌ	-10.7895
ᐹᑭᑌᓇᒫ	-10.7916
ᐐᓯᓂᓯᒀ	-10.7926
ᐃᔑᓈᑯᓯᔦᒃ	-10.7936
ᐃᔑᓂᑳᓈᒡ	-10.7947
ᐐᑑᑳᓱᔦᒃ	-10.7964
ᑕᒫᓱᓰ	-10.7976
ᐐᑕᒫᑫᔮᕽ	-10.7983
▁ᒋᐃᔑᓂᔕ	-10.7996
ᐎᑣᐸᓐ	-10.8008
▁ᓂᑭᑫᓂᒥ	-10.8106
▁ᑳᔕᐌ	-10.8109
▁ᐁᐸᑭᑎ	-10.8118
ᐐᒋᐊᔮᒪ	-10.8137
ᑭᑭᓇᐙᒋᐃ	-10.8139
ᑭᒋᐎᓈ	-10.8154
ᔅᑕᔅ	-10.8169
ᑰᔦᑭᐸᓐ	-10.8189
ᒋᑳᑌᑭᐸᓐ	-10.8207
▁ᑭᑭᓄᐊᒫ	-10.8214
▁ᐹᑌ	-10.8217
ᑕᓲ	-10.8233
ᐊᔮᒀᒥᓯ	-10.8254
ᓴᓭᑳ	-10.8254
ᒥᑖᓱ	-10.8258
2	-10.8259
ᔔᒥᓈᐳ	-10.826
ᓃᔣᓱ	-10.8261
ᑕᔑᐐᓯᓂ	-10.8264
▁ᓈᓯᑳᑯ	-10.8269
▁ᐁᑮᐊᑐᒫ	-10.8273
▁ᓵᑭᒋᓂᔕᐊᒪᐙ	-10.8282
ᐊᔮᓰᐗᒃ᙮	-10.8312
ᐐᒋᐐᓯᓃᒥ	-10.8321
▁ᓴᓇᑲ	-10.8337
ᒌᑫᑕᒫᓐ	-10.8337
ᒫᒪᑳᑌᑕᒻ	-10.8346
▁ᑲᓅᑕᒪᐙᐙ	-10.835
▁ᐅᒻᐺ	-10.8355
ᔖᑯᐌᐗᐞ	-10.8378
▁ᐅᐐᓱᐎᓂ	-10.8411
ᑭᑫᑕᒥᓂ	-10.8412
▁ᐲᑯᓇ	-10.8414
▁ᑮᑌᐱ	-10.8416
▁ᐁᑮᐃᔥᒀ	-10.8421
ᒋᐊᔭᐋᐎ	-10.8422
ᑮᐋᐸᒋᐋ	-10.8423
ᐱᐴᓉ	-10.8427
ᐱᒫᒋᐃᐌᓂᒡ	-10.8432
ᓂᔕᐗᒀ	-10.8434
ᐸᒀᓀᑲᒥᑯᕽ	-10.8443
ᑭᑫᒋᑳᑌᓯᓂᓂᒃ	-10.8445
ᑯᑖᓀᑖᑾᒃ	-10.8451
▁ᐋᓉᑕ	-10.8457
▁ᒌᒫᓂ	-10.8462
▁ᐁᐃᔥᒀ	-10.8465
▁ᐊᔭᐋ	-10.847
▁ᐁᑮᓇᐃᑕ	-10.8474
ᐸᔕᔐᐙ	-10.8477
ᓇᑲᔥ	-10.8478
ᑖᑯᓯᐗᒃ	-10.8483
▁ᐃᔒᑭ	-10.8484
▁ᒋᐱᓈᓯᑲ	-10.8485
ᔥᑭᓃᑭ	-10.8487
▁ᐃᔑᓂᔕᐊᒪ	-10.8487
ᐸᑲᒥᔥᑳᑯ	-10.849
ᑎᓀᑕᒻ	-10.849
ᐐᑾᑎᐗᑲᒥᑭᓯ	-10.8491
▁ᒥᑖᔑᓃᐎ	-10.8492
▁ᒫᓇᒑᓂᔐᓴ	-10.8492
▁ᐌᔫᓯ	-10.8495
▁ᑮᐃᔑᓈᑾᓂᓂ	-10.8495
ᔒᐎᑖᑲ	-10.8496
ᐱᔑᒀᑎᓰ	-10.8497
ᑭᓰᐲᑭᓯᑌ	-10.8498
▁ᑭᐱᒫᑎᓰ	-10.8498
ᐊᔕᐙᐱ	-10.8499
6	-10.8499
▁ᑳᒥᑖᔑ	-10.8499
ᓂᐴᒪᑲᑭᓐ	-10.85
ᐸᑫᐎᓂᑎ	-10.85
▁ᓃᔥᑕᓇ	-10.85
ᒶᓯᓇᐋ	-10.85
▁ᑭᑕᔮᒀᒥᒥ	-10.85
▁ᒎᒎᔖ	-10.85
▁ᓀᐗᒋᑮᔑ	-10.85
ᐅᒋᒌᑾᓇᐲᑖᑯᒡ	-10.85
ᐅᔑᐲᐃᑳᑌᑭᓐ	-10.85
ᐊᔫᑾᐱ	-10.85
ᐋᑾᑭᓱᓂᒡ	-10.85
ᐸᐲᑾᑎᓈᓂᒃ	-10.85
ᐸᑭᑕᓈᒧ	-10.85
ᑌᐺᐗᑫᑕᒧᐎᓐ	-10.85
ᑎᐹᒋᑎᓱ	-10.85
ᑕᐸᓭᓂᒫ	-10.85
ᑕᒑᑯᐙᐞ	-10.85
ᑭᑎᑳᓇᑲᒥᒃ	-10.85
ᑲᔥᑭᐁᐎᓰᒪᑲ	-10.85
ᒨᒀᐱᓀ	-10.85
ᒪᑗᔮᐲᑭᐱᒋ	-10.85
ᒪᒦᒀᓂᑎᓱᔮᓐ	-10.85
ᒪᒫᒋᑾᐱᓈ	-10.85
ᒪᓯᓇᐃᑲᓀᔅ	-10.85
ᓂᔑᐗᓈᑕᑲᒥᑭᓯ	-10.85
ᓇᑭᔥᑳᑰᓐ	-10.85
ᔖᑴᓂᒧᓰ	-10.85
▁ᐁᐃᑭᑐᔦᒃ	-10.85
▁ᐁᐱᓈᓯᑳᑯᒡ	-10.85
▁ᐃᔥᒀᑌᒥᕽ	-10.85
▁ᐅᐱᓯᑲᓀᔅ	-10.85
▁ᐅᐸᑴᔑᑲᓂᒪᓐ	-10.85
▁ᐅᑌᐃᓃᕽ	-10.85
▁ᐅᑌᑌᐙᓐ	-10.85
▁ᐅᑎᑭᑐᐎᓂᕽ	-10.85
▁ᐅᑎᑭᑐᐎᓇᓐ	-10.85
▁ᐅᑎᓇᐌᒫᑲᓇᐞ	-10.85
▁ᐅᑎᓈᑯᓂᑫᐎᓇᓐ	-10.85
▁ᐅᑮᐅᒻᐺᐋ	-10.85
▁ᐅᑮᒨᒋᔥᑲᓐ	-10.85
▁ᐅᒪᒋᑑᑕᒨᐞ	-10.85
▁ᐅᓇᔓᐌᐎᑲᒥᑯᕽ	-10.85
▁ᐅᔑᐲᐊᓐ	-10.85
▁ᐅᔥᑮᔑᑯᓃᕽ	-10.85
▁ᐅᔥᑮᔑᑯᕽ	-10.85
▁ᐅᔥᑮᔑᑰᓐ	-10.85
▁ᐊᔭᐋᐎᔕᓐ	-10.85
▁ᐋᐹᐱᑲᐃᑲ	-10.85
▁ᐋᔮᓂᑫ	-10.85
▁ᐌᑭᒫᐙᑎᓯᓂᒡ	-10.85
▁ᐙᓴᑯᓀᒋᑲᓈᑎᑯᕽ	-10.85
▁ᐱᑾᑕᑮᕽ	-10.85
▁ᐸᔑᐸᐃᑫᐎᑯᒫᓇᓐ	-10.85
▁ᐹᐱᓬᐊᓄᕽ	-10.85
▁ᑎᒪᑏᓐ	-10.85
▁ᑣᒪᓲᓐ	-10.85
▁ᑫᑌᒪᓯᓇᐃᑲᓂᕽ	-10.85
▁ᑫᑎᒫᑭᓯᓂᒡ	-10.85
▁ᑫᒦᒋᔦᒃ	-10.85
▁ᑭᐐᒋᐅᑌᐺᑕᒨᒥᐙᒃ	-10.85
▁ᑭᐐᔭᐎᕽ	-10.85
▁ᑭᐲᑭᓂᑲ	-10.85
▁ᑭᑕᒑᑯᐙᕽ	-10.85
▁ᑭᑭᒋᐅᑭᒫᒥᐙ	-10.85
▁ᑭᑲᐙᐸᒥᓰᒻ	-10.85
▁ᑭᒋᑫᑰᓇᓐ	-10.85
▁ᑭᓵᑭᐃᐌᐎᓂᐙ	-10.85
▁ᑮᑌᐺᑕᒨᐞ	-10.85
▁ᑮᑰᔭᐞ	-10.85
▁ᑲᒀᓂᓴᑫᑖᑾᓐ	-10.85
▁ᑲᓇᐌᒋᑫᐎᔑᒫᑲᓂᔕ	-10.85
▁ᑳᐅᔫᓯᒡ	-10.85
▁ᑳᐐᓴᑳᐸᓱᐌ	-10.85
▁ᒀᕒᓃᓬᐃᔭᓴᓐ	-10.85
▁ᒉᐃᕒᐊ	-10.85
▁ᒋᐯᔑᑴᑖᑯᓯ	-10.85
▁ᒑᔓᐙ	-10.85
▁ᒥᓄᑲᒥᑳᒃ	-10.85
▁ᒥᓈᑯᐅ	-10.85
▁ᒥᔅᑯᒥᓂᑫᓯ	-10.85
▁ᒫᑎᔪ	-10.85
▁ᒫᒪᑳᑌᑕᒨᒃ	-10.85
▁ᒫᔑᒥᑕᑎᒨᓴᓐ᙮	-10.85
▁ᓂᐱᒫᑎᓯᐎᓂᓈᓂᕽ	-10.85
▁ᓂᑲᑏᒪᔅ	-10.85
▁ᓵᒐᓰᒃ	-10.85
ᐊᓂᒥᑯᐸᓂᐅ	-10.85
ᐸᑫᒋᑲᓂᕽ	-10.85
ᐹᐱᓄᑖᑫ	-10.85
ᑲᑴᒋᑲᔑᐌ	-10.85
ᑲᒀᑕᑲᓄᑮ	-10.85
ᒨᔥᑭᓇᑑ	-10.85
ᔕᔒᐯᑕᕽ	-10.85
▁ᐁᑎᐱᑲᒃ	-10.85
▁ᐅᐱᒣᓇᐤ	-10.85
▁ᐅᑑᓃᒑᓂᓯᒥ	-10.85
▁ᐅᑭᔐᐙᑎᓯᐎᓂᓃᕽ	-10.85
▁ᐅᑮᒥᑲᓰᓈᐙ	-10.85
▁ᐅᓈᑲᑕᐌᑕᒧᐎᓂᐙ	-10.85
▁ᐅᔥᑭᐊᔓᑕᒫᑎᐎᓐ	-10.85
▁ᐊᓯᓃᑳᒃ	-10.85
▁ᐱᒥᓂᔕᐅᔑᓐ᙮	-10.85
▁ᑭᑌᐃᐙᓐ	-10.85
▁ᑰᐹᓯᓇᐎᔑ	-10.85
▁ᑳᑎᐱᑲᒃ	-10.85
▁ᒉᕒᐊᑯ	-10.85
▁ᒪᓂᑑᑳᓇᐞ	-10.85
▁ᓈᑫᔨᔥ	-10.85
ᐃᔑᓈᑾᑭᐸᓐ	-10.85
ᐊᔨᔑᑮᔗ	-10.85
ᑮᓰᑲᐊᑕᐙ	-10.85
ᒥᔕᑮᔮᓯᓄᒃ	-10.85
ᓃᑳᓃᑕᒫᑫ	-10.85
ᓯᐙᐹᓐ	-10.85
▁ᐅᑕᓇᒥᐋᐎᓂᐙᕽ	-10.85
▁ᑭᑎᑭᑐᐎᓂ	-10.85
▁ᑳᑑᑕᒪᓐ	-10.85
▁ᑳᑕᓱᐯᔑᑯᔦᒃ	-10.85
▁ᑳᑕᓶᐙᓇᑭᓈᑯᓯ	-10.85
▁ᒋᓈᓯᑳᑯ	-10.85
▁ᒦᑴᒋᐌᑕ	-10.85
▁ᓂᑎᐹᒋᒧᐎᓂᓈᓐ	-10.85
ᑎᐹᒋᒥᒥᓐᒡ	-10.85
ᑭᑭᓄᐎᓈ	-10.85
ᑯᑖᐎᑭ	-10.85
▁ᐅᑖᐱᓇᒧᒃ	-10.85
▁ᐅᒪᒋᑑᑕᒧᐎᓇᓐ	-10.85
▁ᐸᑴᐱᓈᒡ	-10.85
ᑲᓂᔒᒥ	-10.85
ᒪᒫᑳᔥᑳ	-10.85
▁ᑎᐹᑯᓂᑎᐎᓂᕽ	-10.85
▁ᑫᐃᓈᒋᒥ	-10.85
ᐅᔑᐲᐃᑳᓱᐙᒡ	-10.85
ᐋᐸᒋᑑᓈᐙ	-10.85
ᑴᑮᓄᑕᐙ	-10.85
▁ᑎᐱᑲᒃ	-10.85
▁ᑳᐅᒋᑎᐯᑖᑾ	-10.85
▁ᐁᑭᑐᕽ	-10.85
ᒥᑖᔑᓃᔓ	-10.85
▁ᑳᑮᐅᑫᑌᔭᐋᒥ	-10.85
▁ᐁᑮᒥᓄᐊᔮᐋᒡ	-10.85
▁ᐁᑭᑐᔭᓐ	-10.85
▁ᐅᔥᑲᔭᐄ	-10.85
▁ᑫᔖᑰᒋᑣ	-10.85
ᒪᒫᑕᐎᒋᑫ	-10.85
▁ᐁᐯᔓᓈᑾ	-10.85
▁ᑳᒦᑳᓂ	-10.85
▁ᐅᔥᑭᐱᒫᑎᓯᐎᓐ	-10.85
▁ᑕᐃᓀᑕᓰ	-10.85
▁ᐁᐃᓀᑕᒧᐙᒡ	-10.85
▁ᐅᑎᐹᒋᒨᒃ	-10.85
▁ᑮᒋᑯᓇᔦ	-10.85
▁ᐁᑌᐺᒪᑲᓂᓂᒃ	-10.85
▁ᐅᑲᓇᐌᒋᑫ	-10.85
▁ᐐᓱᐎᓇᓐ	-10.85
▁ᑮᓯᓲᓐ	-10.85
▁ᑳᐊᑳᓭᑖᑯᓯᐙᒡ	-10.85
ᐅᓈᐱᑭᓯ	-10.85
ᑲᑲᔦᓂ	-10.85
ᒥᑖᔑᓃᔑᐙᒡ	-10.85
▁ᓂᑌᐃᕽ	-10.85
▁ᓂᓯᑐᑕᒧᐎᓐ	-10.85
ᐋᔮᔐᑕ	-10.85
ᐙᑳᐃᑲᓇᓐ	-10.85
▁ᐸᐹᒣᓂᒥ	-10.85
▁ᐅᑮᑌᐺᔦᓂᒫᐙᓐ	-10.85
▁ᓂᑎᐹᒋᒧᐎᓐ	-10.85
ᐸᑭᓀᒃ	-10.85
ᓇᓃᓵᓀᑖ	-10.85
▁ᑎᑭᑲ	-10.85
ᐲᑎᑲᑑ	-10.85
ᐸᑭᔑᓅᒃ	-10.85
▁ᐊᓂᑮᐌᓐ	-10.85
ᒨᑯᓀ	-10.85
ᑭᑫᑕᒨᔑᐌ	-10.85
▁ᑭᑭᑯᓇᔦᓯ	-10.85
▁ᑳᑭᑕᑭᑌ	-10.85
▁ᑳᑲᑴᓇᑳᔥᑲᐙ	-10.85
ᑲᑮᑭᒫ	-10.85
▁ᐸᑭᑎᓂᑫᐎᓇᓐ	-10.85
▁ᑮᒋᑭᐌᔭᒃ	-10.85
▁ᐅᑖᑯᓰᒃ	-10.8501
▁ᐱᓈᓯᑲᐎ	-10.8501
ᐙᓴᑯᓀᒋᑲᓂᐙᓐ	-10.8501
ᑎᒀᓀ	-10.8501
▁ᑳᐅᑭᒫᐌᑖᑯᓯᓂᒡ	-10.8501
▁ᓈᓯᑳᑰ	-10.8501
60	-10.8501
ᐐᒋᐊᔮᒫᒡ	-10.8501
▁ᑭᒋᐅᑳᑏᑭᓀᐱᑰᓐ	-10.8501
▁ᒋᐱᒥᓂᔕᐅᒡ᙮	-10.8501
ᐅᑎᓇᓰᓐ	-10.8501
▁ᓂᑮᐙᐸᑕᐃᒃ	-10.8501
▁ᔖᑰᓱᑖᑯᓯ	-10.8501
ᒪᓂᐱᑑ	-10.8501
ᐊᓇᒥᐁᑕᐎᒥᓐᒡ	-10.8501
▁ᐁᒦᑭᐌᔦᒃ	-10.8501
▁ᑮᑳᑎᐎᓐ	-10.8501
ᐃᓈᓴᒪ	-10.8501
ᐊᒀᐸᑌ	-10.8501
ᐊᓄᑮᑕᐗᑭᒡ	-10.8501
ᐅᑎᑎᓂᑰ	-10.8501
ᐅᑎᓯᑯᒻ	-10.8501
▁ᐅᔒᑖ	-10.8501
▁ᐅᑮᓇᑲᑖ	-10.8501
ᓈᐯᒻ	-10.8501
▁ᑕᓂᐳᓰ᙮	-10.8501
ᐴᓀᑕᒪᐎᑣ	-10.8501
▁ᐅᐲᐌᓰᒥᓂ	-10.8501
▁ᒫᔑᒥᑕᑎᒻ	-10.8501
▁ᑭᑭᑫᓂᒫᓯᐙᐙ	-10.8501
ᐗᔦᔑᒥᐌ	-10.8501
▁ᑳᓂᑖᐃᔑᒋᑫ	-10.8501
▁ᐅᑭᒋᐊᓇᒥᐁᐎᑲᒥᑯᓃᕽ	-10.8501
▁ᓂᐯᐎᓂᕽ	-10.8501
▁ᑌᓴᓬᐊᓇᐃᑳᕽ	-10.8502
▁ᐁᓀᑕᒧᐙᒡ	-10.8502
▁ᐃᔅᑌ	-10.8502
ᐴᑖᒋᑫ	-10.8502
▁ᐱᒥᑌᓂ	-10.8502
▁ᐅᓯᑕᓐ	-10.8502
▁ᐁᑎᓄᐎᔭᓐ	-10.8502
ᐙᐸᒥᑰᒃ	-10.8502
▁ᑳᑎᐯᑕᒪᓐ	-10.8502
ᒫᒥᑴᓂᒥ	-10.8502
▁ᐅᒪᒋᑑᑕᒧᐎᓂᓃᕽ	-10.8502
▁ᑮᓇᑴᑕ	-10.8502
▁ᑳᒋᑎᓂ	-10.8502
▁ᑳᐱᔑᒀᑎᓯᐙᒡ	-10.8502
▁ᐅᓂᑖᐎᑭᑑᓰ	-10.8502
▁ᐯᔅᑕᔅ	-10.8502
▁ᔒᐹ	-10.8502
▁ᒋᑴᑳᑎᓯᓂᒡ	-10.8502
▁ᐱᓯᑲᒧᐋᐙᒡ	-10.8502
ᓂᐳᔦᒃ	-10.8502
▁ᐁᐋᐎᔮᓐ	-10.8502
▁ᓂᐙᑳᐃᑲᓂᕽ	-10.8502
ᐴᓀᒋᑳᑌᑭᓐ	-10.8502
ᐯᑫᑖᑯᓯ	-10.8503
▁ᑕᐱᒫᒋᐋ᙮	-10.8503
ᒥᓍᐸᒫᓰ	-10.8503
ᑌᐹᐸ	-10.8503
ᐊᔭᐋᐎᔥ	-10.8503
▁ᓂᑕᐌᒫ	-10.8503
ᐃᔑᐎᓂᑰᒻ	-10.8503
▁ᐱᒫᒋᐋᐞ	-10.8503
▁ᐁᑭᔒᐌᒡ	-10.8503
▁ᐁᑮᑭᑐᓂᒡ	-10.8503
▁ᑮᐗᓂᒧᐎᓐ	-10.8503
▁4,000	-10.8504
▁ᒎᑏᔭᑮᕽ	-10.8504
ᑭᑎᑳᓱᓂᒡ	-10.8504
ᐅᑎᓯᑯᔦᒃ	-10.8504
▁ᑳᐃᔖᐙᒡ	-10.8504
▁ᐅᑎᓯᓀᒃ	-10.8504
▁ᐊᓈᒥᒫᐙᒡ	-10.8504
▁ᔒᐎᑖᑲᓐ	-10.8504
ᒌᑫᑖᒻ	-10.8504
▁ᐅᒌᒪᑲᓯᓅᓐ	-10.8504
▁ᒋᐲᔖᔦᒃ	-10.8504
▁ᑭᑎᓀᑕᓰ	-10.8504
▁ᐅᑎᔑᒋᑫᐎᓂᓃᕽ	-10.8504
▁ᑭᔒᑲᓅᓈ	-10.8504
▁ᑳᑭᑎᒫᑭᓯᒡ	-10.8504
▁ᐅᐐᔮᓯ	-10.8504
ᐊᐯᓂᒧᓄᑖ	-10.8504
ᐲᐊᒫ	-10.8505
▁ᒪᒋᑫᑰᓐ	-10.8505
ᑲᓇᐌᓂᒥᑯᐙᒡ	-10.8505
ᑮᑎᐸᐅ	-10.8505
▁ᐅᑲᔥᑭᐁᐎᓯᐎᓂᓂ	-10.8505
▁ᐅᓃᑭᐃᑯᐙᐞ	-10.8506
▁ᑮᑌᐐᓯᓂ	-10.8506
▁ᐃᔑᐌᐱᓯᐎᓂᐙᓐ	-10.8506
▁ᐅᑎᔑᒋᑫᐎᓇᓐ	-10.8506
▁ᐊᓇᒥᐋᔮᓐ	-10.8506
ᐃᔑᒋᑳᓂᐗ	-10.8506
▁ᒧᔐᔭᐄ	-10.8506
▁ᑳᐃᓀᑖᑯᓯᐙᒡ	-10.8506
ᑎᐸᐊᒫᑯ	-10.8507
▁ᒋᑎᓄᐎᔮᓐ	-10.8507
▁ᑳᓵᑭᐃᐌᒡ	-10.8507
▁ᑳᐃᔑᑎᐯᑖᑯᓯᐙᒡ᙮	-10.8507
▁200	-10.8507
▁ᓂᐳᐎ	-10.8507
ᐊᑕᐌᑕᒫᕽ	-10.8508
▁ᐃᓬᐃᓯᐸᑕᓐ	-10.8508
▁ᐅᒌᒪᑲᓐ᙮	-10.8508
▁ᑳᒪᒋᓈᑾᒃ	-10.8508
▁ᒪᔥᑯᓯ	-10.8508
▁ᑳᔒᑫᓂᒥᑯ	-10.8508
ᒥᔑᒃ	-10.8508
▁ᑲᓇᐌᓂᒫᐙᒡ	-10.8508
▁ᑭᑭᓄᐊᒪᐙᐞ	-10.8509
▁ᓂᑮᐃᔑᓂᔕᐙ	-10.8509
▁ᐁᑮᐃᔖᓂᒡ	-10.8509
▁ᒥᒋᒥᓇ	-10.8509
▁ᑳᔑᐊᔮᓂᒡ	-10.8509
▁ᑭᑫᑕᒧᐎᓐ	-10.8509
▁ᑫᐃᓈᑯ	-10.8509
ᐅᒋᒌᑾᓇᐱᑖ	-10.8509
▁ᑴᑭᐱᒫᑎᓯ	-10.851
ᓵᑭᐃᓇᑰᒃ᙮	-10.851
ᐊᔕᒥᑰ	-10.851
▁ᑲᓅᑕᒪᐙᓂᒡ	-10.8511
▁ᑳᐃᓈᑎᓯᒡ	-10.8511
ᔕᔒᐱᑕᒥᓂᒡ	-10.8512
▁ᐅᑎᐯᑖ	-10.8512
ᑭᑎᑫᐗᑲᒥᑯᕽ	-10.8512
ᓈᓈᑲᑕᐌᑕᒧᐙᒡ	-10.8512
▁ᐁᑲᓇᐙᐸᒥᑯᒡ	-10.8512
ᑮᐲᑕᒪᐙ	-10.8513
▁ᓂᑭᑫᑕᓰᒥᓐ	-10.8513
ᐐᒌᑎᐙᒡ	-10.8513
▁ᐁᐃᔑᓈᑯᓯᐙᒡ	-10.8513
▁ᒋᐅᓇᔓᐙᓂ	-10.8514
▁ᒥᓄᐊᓄᑮᐎ	-10.8514
ᑭᒋᐐᑎᑫᓂᒡ	-10.8514
▁ᓂᐐᓱᐎᓂᕽ	-10.8514
▁ᐁᑎᓄᐎᓂᒡ	-10.8514
ᐅᑖᐱᓂᑲᓂᐎ	-10.8514
▁ᐊᓅᑮ	-10.8515
▁ᐱᔑᑭᐗᐞ	-10.8515
ᐸᐹᒧᓭ	-10.8516
ᑭᑭᓇᐙᒋᒋᑲᓐ	-10.8516
ᓂᓯᑖᐎ	-10.8517
ᑭᓰᐲ	-10.8518
ᐐᓴᑭ	-10.8518
▁ᒋᑮᐅᒋ	-10.8518
ᐅᓇᑭᒫ	-10.8518
▁ᑳᑮᐃᔑᐊᔓᑕᒪᐙ	-10.8519
▁ᑳᒎᐎᐎᔮᕽ	-10.8519
▁ᒪᒋᑑᑕᒥᓂᒡ	-10.8519
ᓯᓄᑭᐸᓐ	-10.8519
ᐅᑌᓂᑎ	-10.852
▁ᐃᓀᑖᑯᓯᐎᓂᕽ᙮	-10.8521
▁ᓂᑭᑭᓄᐃᑫᐎᓇᓐ	-10.8522
ᐋᐸᒋᐋᓐ	-10.8522
ᓅᑕᒨᒃ	-10.8522
▁ᐊᐌᑴᓇ	-10.8523
▁ᒋᑎᐹᑯᓂᑯᒡ	-10.8523
▁ᐅᑕᓄᑮᐎᓂᕽ	-10.8523
▁ᑭᑕᔮᒥᓐ	-10.8523
ᑕᒪᐎᑣ	-10.8523
▁ᑳᐅᑌᐺᑕᒧᐎᓂᓯᒀ	-10.8524
▁ᐁᔑᐱᒫᑎᓯᒡ	-10.8525
▁ᐅᐱᔑᒀᑎᓯᐎᓂ	-10.8525
▁ᑮᐱᒫᑎᓯᒡ	-10.8526
▁ᑳᑮᐃᓂᓇᑰᒃ	-10.8526
ᐊᓄᑮᐋᑲᓂ	-10.8527
▁ᑕᔑᒫᐙ	-10.8528
▁ᑭᒋᒥᑎ	-10.8528
▁ᑕᐃᓈᐸᑕᓯᓅᓐ	-10.8528
▁ᑌᐐᓯᓂ	-10.8528
▁ᑭᑮᐃᔑᒋᑫ	-10.8528
▁ᐁᑮᐃᔑᒋᑫᒡ	-10.8529
ᐊᑕᐌᑖᑾ	-10.8529
ᔑᒥᓍᐸᑕᕽ᙮	-10.853
ᑭᔑᐹ	-10.8531
ᐗᔦᔑᑎᓱ	-10.8531
▁ᐃᓀᑕᒧᐎᓐ	-10.8531
ᐸᑴᔑᑲᓂᐎ	-10.8531
ᔖᑰᒋᐋᒡ	-10.8532
ᐐᑎᑫᑎᐙᒡ	-10.8534
▁ᓵᑭᐃᑎᐎᓐ	-10.8534
ᑮᔑᑑᔮᓐ	-10.8535
▁ᑮᐃᔑᓈᑾᓂᓂᐗᓐ	-10.8535
ᐊᓅᓈᒡ	-10.8535
▁ᓂᑮᐃᓀᑕᒻ	-10.8537
ᐃᑯᔭᕽ	-10.8538
ᐋᐸᑕᓂᓂᑭᓐ	-10.8538
▁ᐁᔮᓂᒃ	-10.8539
▁ᑮᓇᒪᑕᐱᐗ	-10.854
▁ᐲᐎᑌ	-10.854
▁ᓂᑭᑭᓄᐊᒫᑫᐎ	-10.854
▁ᑭᑮᐐᑕᒪᐎᓂᓂᒻ	-10.8541
▁ᐸᒥᐃᑯ	-10.8543
ᐗᐙᓀᑕᒥ	-10.8546
▁ᑭᒋᐊᓇᒥᐁᐸᒀᓀᑲᒥᑯᕽ	-10.8547
▁ᑫᐃᔑᓈᑾᓂᓂᒃ	-10.8547
ᓀᑳᒥ	-10.855
ᐃᓈᐱᐙᒡ	-10.855
ᓈᑯᓯᓯᓂᒃ	-10.8552
▁ᐃᓀᓂᑎᓱᑫᒃ	-10.8553
▁ᐁᑕᓱᐯᔑᑯᔦᒃ	-10.8554
▁ᑭᑭᓇᐙ	-10.8555
▁ᐁᐸᓬ	-10.8555
ᑾᓂᓂᒃ	-10.8556
ᑭᑭᓄᐊᒫᑰᔦᒃ	-10.8556
▁ᐃᓀᑕᓰ	-10.8557
▁ᑳᑮᐊᐎᐃ	-10.8559
ᑕᓬᐃ	-10.8559
▁ᑭᑖᐃᔑ	-10.8559
▁ᑾᔮᒋᑑ	-10.8562
ᔕᐌᓂᒥᑯᓈᓐ	-10.8563
ᑲᓇᐙᐸᑕᕽ	-10.8563
▁ᒋᔖᑰᒋᐊ	-10.8566
ᑎᓰᒃ	-10.8566
ᑎᐹᒋᒥᓐᒡ	-10.8567
▁ᒋᐃᔑᒋᑫᓯᐌᒃ	-10.8567
ᑲᓅᑕᒪᐌᒃ	-10.8568
ᒪᒦᒀᓂᑎᓱᐙᒡ	-10.8569
▁ᐁᐲᐋ	-10.857
▁ᐸᑭᒌᑫ	-10.857
ᑎᐱᑑᑕ	-10.8575
▁ᒫᕒᑕᐗᓐ	-10.8579
▁ᑭᑲᐃᓈ	-10.8579
▁ᓵᑭᐋᐙ	-10.858
▁ᐃᔑᓂᔕᐅᑯᒡ	-10.8581
▁ᐅᑎᔑᐊᔮᐎ	-10.8581
ᐐᐎᐙᐞ	-10.8583
ᑑᓰᒻ	-10.8586
ᓂᓯᑐᑕᓯᐌᒃ	-10.8586
▁ᑭᑑᑭᒫᐎ	-10.8592
ᓂᓯᑐᑕᓯᒀ	-10.8596
▁ᑫᐃᔑᓭᐙ	-10.8599
ᑭᑭᓄᐊᒫᑰ	-10.86
▁ᒋᐴᓀᑕᒫ	-10.86
ᑭᓂᑲᐎ	-10.8606
▁ᒥᓄᐐᒌᑎ	-10.8606
ᐋᓇᐌᓂᒥᑯᒡ	-10.8609
ᑌᐱᓇᒣᒃ	-10.8609
▁ᑭᐐᒋᐅᑌᐺᑕᒨ	-10.8612
▁ᐊᓇᒥ	-10.8613
▁ᐅᔔᓂᔮᒥ	-10.8616
ᑌᐺᑕᒧᐎᓐ	-10.8621
ᐊᑰᑌᓂ	-10.8624
ᑭᑫᑕᒪᓐ	-10.8625
ᑎᐯᑕᒧᐙᒡ	-10.8637
ᐋᐸᒋᑑᓐ	-10.8641
▁ᒋᓈᓈᑲᒋᑑ	-10.8656
ᐸᒥᐃᐌ	-10.866
▁ᐐᐎᒫ	-10.866
▁ᑳᑮᓅᑕᐙ	-10.8661
ᑑᓇᔓᐌᐎᓂᐙ	-10.8664
ᓈᑕᒫᑯᒡ	-10.8665
ᑭᑭᓄᐃᑫᐎᓇᓐ	-10.8665
▁ᒋᓂᐳᔮᓐ	-10.8667
ᑲᓇᐌᑕᒫᑯᒡ	-10.8671
ᐅᓈᑲᓇᓐ	-10.868
▁ᒋᐅᑎᓇ	-10.8681
▁ᑮᓂᔑᐗᓈ	-10.8686
ᓰᑭᓭ	-10.8688
ᑮᐐᒋᑭᐌᑎ	-10.87
ᐃᓍᑌ	-10.8702
▁ᑮᑮᔑ	-10.8704
ᐅᓇᔓᐙᓈ	-10.8705
▁ᐅᑎᔑᒋᑫᐎᓂᐙ	-10.8707
ᑎᓇᐌᒫᑲᓇᒃ	-10.8712
ᐃᔑᐌᐸᑭᓐ	-10.8712
ᓂᐯᐎ	-10.8713
ᒪᐎᓇᕽ	-10.8715
▁ᓂᑮᐊᑕᐌ	-10.8716
▁ᑳᐐᒦᓂ	-10.8717
▁ᓬᐁᔮᑎᓰᔮ	-10.8726
ᐱᓯᑕᒧᐙᒡ	-10.873
▁ᐅᑎᔑᓈᑯᓯᐎ	-10.8733
▁ᐁᑮᓅᑕᐙ	-10.8748
ᔥᑳᑯᓯᒃ	-10.8751
ᓈᒋᒫ	-10.8751
ᑭᑫᑕᓯᐌᒃ	-10.8752
ᒨᒪᑲ	-10.8779
ᐊᑕᐌᑖᓈᐙ	-10.879
ᐅᔑᑕᒪᐎ	-10.879
ᔑᓅᒃ	-10.8791
ᓯᐙᓈᓂᒃ	-10.8791
ᓃᑳᓂᔥᑲᒥᓂᒡ	-10.8811
ᑭᑭᔥᑳᑯᓂᒡ	-10.8813
ᑾᔭᑯᒋᑫᐎᓐ	-10.8819
ᑖᓂᑫ	-10.8822
▁ᑮᐅᑕᑳᓀᓯ	-10.8822
ᑕᐱᓇᐎ	-10.8822
▁ᐅᑮᑭᑫᑖ	-10.8829
▁ᒋᐐᑕᒪᐙ	-10.8831
ᑑᑕᒧᐙ	-10.8835
ᐅᔑᒋᑳᑌᑭᓐ	-10.8842
ᓀᑕᒧᒃ	-10.8853
ᐊᑰᒋ	-10.888
▁ᐁᓂᑖᑯᓯ	-10.8885
ᒦᓂᓂᓂᒻ	-10.8895
▁ᓅᑎ	-10.8897
ᑑᑕᒫᕽ	-10.8901
ᓇᓇᐊᓯ	-10.8905
ᐅᒌᒪᑲᓐ	-10.8908
ᐋᐸᒋᑑᔮᓐ	-10.8927
▁ᐁᑲᓇᐙᐸᒥ	-10.8928
ᑑᑕᐎᒃ	-10.8932
ᐐᑕᒫᑯᓈᓐ	-10.8933
ᑌᐺᑕᒪᕽ	-10.8934
▁ᑳᑮᐙᐸᒪ	-10.8948
ᑭᑫᑖᑾᓐ	-10.8969
ᐸᑭᒌᓰ	-10.8984
▁ᑫᓂᔑᐗᓈᑕ	-10.8989
▁ᐅᑮᒫᒪᑳᓯᑖ	-10.8991
ᓈᒋᐐᑯᐱ	-10.9002
▁ᐁᐐᓂᓵ	-10.904
ᑕᓀᑖᑯᓯ	-10.9042
▁ᐃᔑᐌᐱᓰ	-10.9047
ᑭᑫᓂᒫᓯᐙᐙᓐ	-10.9068
ᐸᐃᐌᐗᒃ	-10.908
ᐙᐸᒥᑰᔦᒃ	-10.9103
ᐃᔑᒥᓴᐌ	-10.9105
ᐅᒌᑳᑰ	-10.9107
ᓱᐱᐴᓐ	-10.9112
ᐱᓱᑫ	-10.9117
ᑲᔥᑭᑑᓯᐌᒃ	-10.915
ᐸᑭᑎᓂᑣ	-10.9152
ᐅᑌᑌᒫ	-10.9166
ᐃᑰᔮᕽ	-10.9173
ᓂᑳᑌᑭᓐ	-10.9181
ᐊᐱᐎᓇᓐ	-10.9201
ᑎᐸᐙ	-10.9228
ᐊᐲᑌᑖᑯᓯᓯᒃ	-10.9256
ᑭᑫᓂᒥᔦᒃ	-10.9264
ᐐᒋᐃᑯᓈᓐ	-10.9291
ᒪᒋᒥᓴᐌᒋᑫ	-10.931
ᐱᔑᒀᒋᒋᑫ	-10.9312
▁ᑫᐋᐸᒋᑑ	-10.9328
ᐃᔑᒋᑫᓯᒀ	-10.9337
▁ᐸᑭᑎᓇᒧ	-10.9359
ᐙᐱᓯᒀ	-10.9366
ᓵᑭᐃᑎᐙᒡ	-10.9368
ᑮᔑᑑᓐ	-10.9387
ᐋᑲᐗ	-10.9413
▁ᐁᐊᓇᒥᐁᑮᔑᑲ	-10.9432
ᐅᒋᑾᔭᑾᑭᒥ	-10.9454
▁ᒪᔥᑭᑮᐎᓂᓂᐗ	-10.9505
ᐐᑑᑳᓱᐙᒡ	-10.9523
ᐱᒋᑲᓂᐎᓂ	-10.957
ᒫᑯᒡ	-10.9586
▁ᒋᐱᒫᒋᐊ	-10.9593
▁ᐙᑑᑕ	-10.9595
ᔑᐌᐱᓯᔦᒃ᙮	-10.9611
▁ᐋᐸᒋᑖ	-10.9615
ᐸᐹᒥᓯᐎᓂ	-10.9628
ᑯᓂᑲᓂᐎᒡ	-10.9646
ᑭᐱᒌᓰ	-10.9675
▁ᑭᑮᓂᐳ	-10.9685
ᐃᔑᓈᑯᓯᓂᒡ	-10.97
▁ᐅᓂᒌᒫ	-10.9705
▁ᐁᑲᓇᐙᐸ	-10.9714
▁ᑲᒀᑕᑭᐃᑰ	-10.9777
ᐊᓇᒥᐁᑕᐙᓂ	-10.98
▁ᑲᑮᑴ	-10.9804
ᐊᓄᑮᑕᐙ	-10.9809
ᐃᓂᓈᓐ	-10.9827
ᐐᒋᐃᑣ	-10.9835
ᓂᔕᐙᐞ	-10.986
▁ᐅᑮᐙᐸᑕ	-10.9884
▁ᐁᐅᑌᐺᑕᒧᐎᓂ	-10.9885
ᑕᔑᒋᑳᑌ	-10.9902
▁ᑲᓅᓂᑯᐙ	-10.993
ᐸᐊᒫ	-10.9932
▁ᐯᔓᓈᑾᓂᓂ	-10.9952
▁ᐁᒥᓍ	-10.9956
ᓈᑎᓯᓂᒡ	-10.9981
ᐐᑕᒪᐎᓈᓐ	-10.9985
ᓂᑖᐎᑭᒋᑫᒪᑲ	-10.9995
▁ᓂᔑᐗᓈᒋ	-11.0022
ᑭᑫᓂᒥᑯᐙ	-11.0041
▁ᑳᐐᒌᐎ	-11.0062
ᓀᓂᑎᓱᓰ	-11.0095
▁ᒥᓉᑕᒨ	-11.0103
ᐱᓱᑫᔑ	-11.012
▁ᐐᒋᑴ	-11.012
▁ᒦᑳᓱᐎ	-11.0143
▁ᐸᑭᑎᓈᑫ	-11.0148
ᑕᓰᓇᓐ	-11.015
ᑭᑌᓂᒥᑰ	-11.0158
▁ᑳᐱᓯᑕᐎ	-11.0185
ᐐᐐᑑᑳᓱ	-11.0195
ᑌᐺᔦᓂᒪᒃ	-11.0223
ᐊᑕᐗᓄᑮ	-11.0225
ᑕᐎᓇᒫᑰ	-11.0228
▁ᐃᔥᐸ	-11.024
▁ᑲᑴᔖᑰᓱ	-11.0242
▁ᐁᐊᓇᒥ	-11.0253
▁ᐁᑾᔭᑴ	-11.0255
ᐃᔑᐱᒫᑎᓯᔦᒃ	-11.0258
ᑕᒀᑭ	-11.0264
▁ᒋᑎᐹᒋᒥ	-11.0268
▁ᑳᐋᐸᒋᑑ	-11.0269
ᑮᐃᓇᒃ	-11.0313
▁ᐁᓈᑯᑑ	-11.0314
▁ᒫᐗᑑ	-11.0355
▁ᓂᔑᐗᓈᒋᒋᑳᑌ	-11.0362
ᐃᓈᐱᓀᓂᒡ	-11.0385
ᐃᑭᑐᔦᑭᐸᓐ	-11.0385
▁ᑎᐸᐊᒫ	-11.0387
ᑳᑌᓂᒃ	-11.0388
ᒫᒪᑳᑌᑕᒧ	-11.0388
ᓂᐳᐗᒃ	-11.0405
▁ᓂᑖᐸᒋᑑ	-11.0414
▁ᒋᑲᑴᒋᒥ	-11.0416
ᒫᔑᒥᑕᑎᒨ	-11.0417
▁ᑳᐃᔑᑭᑭᓄᐊ	-11.0442
ᑭᑫᓂᒫᐙ	-11.0449
▁ᔖᑰᓱᒥ	-11.046
▁ᑕᒦᓈᓰ	-11.0471
ᐊᓄᑮᔮᕽ	-11.0479
▁ᒋᐱᒫᒋᐃᐌ	-11.0479
ᔑᓂᓂᒡ᙮	-11.0484
ᑕᕒᐊ	-11.0492
ᒥᓄᐃᔑᐌᐱᓯ	-11.0493
ᐙᐸᒥᑰᐞ	-11.0493
▁ᑭᑐᒋ	-11.0509
ᐃᑭᑐᔮᕽ	-11.0512
ᐅᒑᓂᒥ	-11.0515
ᐃᔑᓭᔮᓐ	-11.0518
▁ᐅᑕᔓᑕᒫᑫᐎᓐ	-11.0521
▁ᑳᐅᑌᑌ	-11.0524
ᓂᐳᓯᒃ	-11.0539
ᐊᔮᐗᐞ	-11.0542
ᓈᓂᐗᑭᐸᓐ	-11.0552
ᓀᓂᒫᓐ	-11.0558
ᐊᓇᒥᐁᐎᑲᒥᑯᓂ	-11.0568
ᔑᑖᓂᐗᓂᓂᒃ	-11.0588
ᐅᑖᐱᓇᒥᓂ	-11.0591
ᒥᔕᑳᐙᒡ	-11.0593
ᑭᑭᓄᐊᒪᐙᑲᓇᒃ	-11.0598
▁ᑭᑎᓇᐌᒫᑲ	-11.0599
ᓂᔣᓱ	-11.0616
1	-11.0618
ᑭᑎᑳᓀᓴᓐ	-11.0621
ᒥᑖᔂᒃ	-11.0621
8	-11.0623
ᓂᑲᓂᐎᓂᒡ	-11.0637
ᑭᔥᑲᕽ	-11.0641
▁ᑮᐅᔑᒋᑳᑌ	-11.065
ᑯᓂᑫ	-11.0662
▁ᑳᒪᓈ	-11.0665
▁ᐱᓯᑲ	-11.0667
▁ᐃᓈᑯᓂᑰ	-11.0669
ᐸᔑᐸᐃᑫᐎᑯᒫᓂ	-11.067
▁ᐁᑮᐊᐸᑭ	-11.0689
▁ᑌᐺᔦᑕ	-11.0693
▁ᓂᑫᒋᓈ	-11.0695
ᐹᑮᑭ	-11.0705
ᑎᐯᑖᑯᓯᒥᓐ	-11.0719
▁ᐁᔑᐊᑕᐌᓂ	-11.0719
ᑕᓶᐙᓇᑭᓯ	-11.0724
▁ᐅᓈᑲ	-11.0733
▁ᑎᐸᐃᑲ	-11.0734
▁ᐁᑮᐅᔑᐲᐊ	-11.0738
▁ᑭᑭᔐᒪᓂᑑᒥᓈ	-11.074
ᑖᑯᓯᒃ᙮	-11.0742
▁ᑲᑳᒋ	-11.0743
▁ᒥᒋᐯᔑᑾ	-11.0758
ᑗ	-11.0789
ᐅᒋᑭᑫᒋᑳᑌ	-11.0791
ᐱᒋᑯᓇᔦ	-11.0814
ᐺ	-11.0821
▁ᐅᒪᒋᑑᑕᒧᐎᓂ	-11.0823
ᐱᒫᑎᓰᒪᐞ	-11.0828
ᓂᒌᕽ	-11.0829
ᒋᑌᐺᑕᒨ	-11.0834
▁ᓃᒋᑭᐌ	-11.0836
ᑲᒥᑳᓂᒃ	-11.0837
ᓂᔑᐗᓈᑕᓂᓂ	-11.0837
ᓀᓂᒫᓰ	-11.0837
ᓂᓵᐹᐌ	-11.0838
▁ᐅᑖᓂᓯ	-11.0844
ᒥᓴᐌᓂᒥ	-11.0846
ᐸᑲᑭ	-11.0847
▁ᑭᓇᑕᐌᑖ	-11.0848
ᓇᒥᐁᑕᐎᓐᒡ	-11.0848
▁ᐃᔥᐸᑎᓈ	-11.0851
ᑕᐎᓇᒪᐙ	-11.0857
▁ᒥᔑᐱᔑ	-11.0858
ᔑᐸᒦᑖᑫ	-11.0859
ᐅᐲᐌᓰᒥ	-11.0859
ᐗᓂᑭᑭᓄᐃᑫ	-11.086
ᐐᐸᑲᒥᑳ	-11.086
ᓰᔮᐹᐗ	-11.0861
▁ᑳᒥᓍᑎᓰ	-11.0861
ᔾ	-11.0861
ᒦᑴᒋᐎ	-11.0861
▁ᑳᐃᔑᐅᔑᐲ	-11.0861
ᐹᐱᓄᑕᐎ	-11.0861
ᐹᑲᐋᒀᓐ	-11.0861
ᑲᑮᐹᒋᒋᑫ	-11.0861
ᒫᓇᒑᓂᔐᓯ	-11.0861
ᓵᑲᐊᒨᒪᑲ	-11.0861
ᔀ	-11.0861
▁ᐅᐲᐌᓰᒪ	-11.0861
▁ᐅᑖᔑᑌᔮᑎᑯᒥ	-11.0861
▁ᐅᑫᑌᐃᓈᑎᓯᐎ	-11.0861
▁ᐅᑮᓇᑲᓂᑰ	-11.0861
▁ᐅᑳᐎᒥᓇᑭᔒ	-11.0861
▁ᐊᒀᒀᐱᑭ	-11.0861
▁ᐊᔮᒀᒥᓰᑲᑕ	-11.0861
▁ᑳᐯᐸᑳᓇᑎ	-11.0861
▁ᑳᒪᓯᓇ	-11.0861
▁ᑳᓇᐁᑕᒥᐃ	-11.0861
▁ᓂᐸᑯᓭᑖ	-11.0861
▁ᓂᒥᔅᑸ	-11.0861
▁ᔔᒥᓈᐴ	-11.0861
ᐃᓈᓴᒥᑳᐸᐐᑕᐙ	-11.0861
ᐊᔪᒌ	-11.0861
ᐊᔮᒪᑲᓯᓄᒃ	-11.0861
ᐋᔕᐎᔥᑳᐙᒡ	-11.0861
ᐐᒋᒥᓉᑕᒨᒥ	-11.0861
ᐗᓇᑯᔕᓐ	-11.0861
ᐙᐱᔥᑳᓂᐗᓐ	-11.0861
ᐙᓰᑴᓱᒡ	-11.0861
ᐴᓀᑕᒪᐎᓀᒃ	-11.0861
ᐴᓃᓴᑖᑯ	-11.0861
ᐴᔔᐁᒀ	-11.0861
ᐸᒀᓀᑲᒥᒃ	-11.0861
ᐹᐹᐎᓯᑌᔑᒨᓄ	-11.0861
ᐹᑭᑌᓇᒪᐙ	-11.0861
ᑎᐹᑐᑕᕽ	-11.0861
ᑎᐹᒋᒥᑯᐙ	-11.0861
ᑎᐹᒋᒥᑰᐎᓐ	-11.0861
ᑭᑎᑳᓇᑲᒥᑯᕽ	-11.0861
ᑭᑫᑖᑯᑑᒡ	-11.0861
ᑭᑭᓄᐊᒪᐎᓂᓂᒻ	-11.0861
ᑭᑳᓄᒀᓀ	-11.0861
ᑭᒋᐴᑖᒋᑲᓐ	-11.0861
ᑮᐊᒸᐙᒡ	-11.0861
ᑾᔮᑕᑌ	-11.0861
ᒑᑭᓱᑣ	-11.0861
ᒥᑖᔀᔑᓃᔑ	-11.0861
ᒥᒋᒪᐱᓂᑯ	-11.0861
ᒥᒑᐱᑭᓯ	-11.0861
ᒥᓈᑾᐅᓂᓂ	-11.0861
ᒦᑳᑎᓈᓂᐗᓂᓂᒃ	-11.0861
ᒪᒫᑖᐎᒋᑫ	-11.0861
ᒪᔥᑲᐌᑕᒪᕽ	-11.0861
ᓀᓈᐎᓇᒫᑎ	-11.0861
ᓂᑖᐎᑭᓈᐗᓱᒡ	-11.0861
ᓇᓈᑐᓇᐎᒻ	-11.0861
ᔕᔒᐯᓂᒫᐞ	-11.0861
▁ᐁᐐᐙᐸᒫᐗᓱ	-11.0861
▁ᐁᑎᓄᐗᕽ	-11.0861
▁ᐁᑭᑫᓂᒥᓯᐗᓐ	-11.0861
▁ᐁᑮᐐᒋᐊᔮᒥᑰᔦᒃ	-11.0861
▁ᐁᑮᓃᒫᑾᐊ	-11.0861
▁ᐁᑲᑮᐹᑕᓂᓂᒃ	-11.0861
▁ᐃᓈᐸᑕᓯᓂᓂ	-11.0861
▁ᐃᓬᐋᔭᑭ	-11.0861
▁ᐃᔑᐐᔮᓯᐎ	-11.0861
▁ᐃᔑᐴᔔᐃᑎᒃ᙮	-11.0861
▁ᐃᔑᑭᑭᓄᐃᑫ	-11.0861
▁ᐅᐙᑳᐃᑲᓂᓂ᙮	-11.0861
▁ᐅᑕᒑᑯᓃᕽ	-11.0861
▁ᐅᑕᔭᐄᒥᐙᓐ	-11.0861
▁ᐅᑖᔑᑌᔮᑎᑯᒪᓐ	-11.0861
▁ᐅᑭᑎᑳᓂ	-11.0861
▁ᐅᑮᐅᑎᓵ	-11.0861
▁ᐅᑮᐐᑕᒪᐙᐙᐞ	-11.0861
▁ᐅᑮᐙᑎᓰᑴ	-11.0861
▁ᐅᑮᒨᒋᔥᒃ	-11.0861
▁ᐅᑮᒪᓈᒋᐋᓰ	-11.0861
▁ᐅᑲᒨᓇᐋ	-11.0861
▁ᐅᑲᔥᑮᑮᐎᓂᐙᓐ	-11.0861
▁ᐅᑲᔥᑮᑮᐎᓂᓂ	-11.0861
▁ᐅᑳᑭᑲᓂᐙᕽ	-11.0861
▁ᐅᑾᔭᒀᑎᔅ	-11.0861
▁ᐅᒥᓴᑖᕽ	-11.0861
▁ᐅᒥᔅᑶ	-11.0861
▁ᐅᒦᒋᒥᒥ	-11.0861
▁ᐅᒪᒑᑎ	-11.0861
▁ᐅᒪᓯᓇᐃᑲᓂ	-11.0861
▁ᐅᓂᐳᐎᓐ	-11.0861
▁ᐊᐗᑳᓇᒃ	-11.0861
▁ᐊᒑᑾᐞ	-11.0861
▁ᐊᓴᐲᓐ	-11.0861
▁ᐋᐸᒋᑑᒃ	-11.0861
▁ᐋᓬᐱᔭᓴᓐ	-11.0861
▁ᐋᔩᒋᑳᐸᐎᒃ	-11.0861
▁ᐐᑾᑫᔮᓐ	-11.0861
▁ᐐᔭᐎᐙᓐ	-11.0861
▁ᐗᓂᔑᓂᓂᒡ	-11.0861
▁ᐙᐱᔥᑮᑭᓄᕽ	-11.0861
▁ᐯᔑᑴᑖᑯᓯ	-11.0861
▁ᐱᒫᒋᐃᑎᓱᓐ	-11.0861
▁ᐱᔑᑮᓴᓐ	-11.0861
▁ᐲᑖᐸᓂᓂᒃ	-11.0861
▁ᐲᑴᑕᒧᐎᓐ	-11.0861
▁ᐲᓯᐴᒋᑲᓇᓯᓃᓐ	-11.0861
▁ᐸᑲᒫᔑᒥᓐ	-11.0861
▁ᐸᑲᒫᔑᔮᕽ	-11.0861
▁ᐸᑴᔑᑲᓂᑳᓀᓴᐞ	-11.0861
▁ᐸᓰᑴᑲᓈᒥᒃ	-11.0861
▁ᐸᕒᐋᐸᓴᓐ	-11.0861
▁ᐹᐱᓬᐃᔭ	-11.0861
▁ᐹᕒᑖᓬᐊᒥ	-11.0861
▁ᑎᐸᐃᑫᐎᔔᓂᔮᓐ	-11.0861
▁ᑎᐹᑯᓂᑫᐎᑲᒥᑯᕽ	-11.0861
▁ᑎᑎᐲᑭ	-11.0861
▁ᑕᔂᐱᒃ	-11.0861
▁ᑕᔭᑕᐃᕒᐊ	-11.0861
▁ᑭᐹᑾᐅᑏᐎᑲᒥᑯᕽ	-11.0861
▁ᑭᑌᐃᓈᓂᕽ	-11.0861
▁ᑭᑌᐺᑕᒧᐎᓂᓈᓂᕽ	-11.0861
▁ᑭᑎᑫᐗᑮᓂ	-11.0861
▁ᑭᑎᑭᑐᒻ	-11.0861
▁ᑭᑎᓀᑕᒧᐎᓐ	-11.0861
▁ᑭᑎᓀᑖᑯᓯᒻ	-11.0861
▁ᑭᑑᐱᒫᒋᐃᐌᒥᓈᓐ	-11.0861
▁ᑭᑑᒋᑎᐯᑖᑯᓯᒻ	-11.0861
▁ᑭᑑᓇᔓᐌᐎᓂᓈ	-11.0861
▁ᑭᑫᑌᐃᓈᑎᓯᐎᓂᐙ	-11.0861
▁ᑭᑫᑌᔭᐋᒥᐙᐸᓃᒃ	-11.0861
▁ᑭᑫᒋᑳᑌᓯᓄ	-11.0861
▁ᑭᑭᓇᐙᒋᒋᑫᐎᓇᓐ	-11.0861
▁ᑭᑮᐋᐸᐅᑯ	-11.0861
▁ᑭᒋᐗᒋᐤ	-11.0861
▁ᑭᒋᐙᒥᑲᐃᑲᓇᓐ	-11.0861
▁ᑭᓈᐯᒥᐙᒃ	-11.0861
▁ᑮᑭᒋᒫᒪᑳᑌᑕᒨᒃ	-11.0861
▁ᑮᑴᑭᑳᐸᐎ	-11.0861
▁ᑮᓰᑲᐊᑖᓱᐗ	-11.0861
▁ᑯᔥᒀᐙᑌᑕᒧᐎᓐ	-11.0861
▁ᑲᒀᓂᓴ	-11.0861
▁ᑳᐃᔑᐎᔑᐌᒪᑲ	-11.0861
▁ᑳᐃᔑᑲᓅᑕᒪᐎᓐᒡ	-11.0861
▁ᑳᐃᔑᓇᑴᑕᐙᒡ	-11.0861
▁ᑳᐃᔥᑯᑌᐗ	-11.0861
▁ᑳᐊᑳᔒᔑ	-11.0861
▁ᑳᐐᑕᓄᑮᒪ	-11.0861
▁ᑳᑎᐯᑖᑯᓯᐙᒡ	-11.0861
▁ᑳᑮᐊᔓᑕᒫᑫᓂᒡ	-11.0861
▁ᑳᑮᓂᐳᓂᐸᓐ	-11.0861
▁ᑳᓂᔥᑫᓂᒥᒀ	-11.0861
▁ᑳᓈᑾᓯᓄᑭᓐ	-11.0861
▁ᑳᓴᓰᑭᓯᒡ	-11.0861
▁ᑴᔭᒀᑎᓯᓂᒡ	-11.0861
▁ᒋᑑᑕᒧᐌᒃ	-11.0861
▁ᒋᓵᑭᐃᑎᔭᑭᐸᓐ	-11.0861
▁ᒌᐸᔾ	-11.0861
▁ᒌᒫᓀᔅ	-11.0861
▁ᒥᑕᑎᒨᐞ	-11.0861
▁ᒥᑕᑲᒥᑯᕽ	-11.0861
▁ᓀᐗᑕᑎ	-11.0861
▁ᓂᐱᒫᑎᓰᒪᒃ	-11.0861
▁ᓂᑮᑲᓅᓂᒃ	-11.0861
▁ᓂᑲᐅᔑᐲᐊᒧᐙ	-11.0861
▁ᓂᔔᓂᔮᒻ	-11.0861
▁ᓇᑖᓂᔭᓬᐊᓐ	-11.0861
▁ᓯᕒᐊᐸᐸᓬ	-11.0861
▁ᓰᓯᐹᑾ	-11.0861
▁ᓵᐃᕒᐄᓂ	-11.0861
▁ᓵᑮᔭᔅ	-11.0861
▁ᓵᒐᓰᐞ	-11.0861
▁ᔑᔮᓬᑏᔭᓬ	-11.0861
▁ᔖᑲᓯᒥᑕᓇᔑ	-11.0861
ᐐᐅᔑᓯᑑ	-11.0861
ᐱᒶᓯᓇᐃ	-11.0861
ᐱᓵᓀᑕᒧᐎᓂ	-11.0861
ᐲᐎᑌᐌᑖᑯᓯ	-11.0861
ᐸᐃᑳᑫ	-11.0861
ᐸᒥᓇᒧᐃ	-11.0861
ᑯᔥᑴᑕᒨ	-11.0861
ᒥᓯᑌᔥᑳᒪᑲ	-11.0861
ᓇᓈᑐᓂᑫ	-11.0861
ᓈᐸᑕᒧᐎᓂᕽ	-11.0861
ᔕᐌᑖᑯᔅ	-11.0861
▁ᐁᑮᒪᒫᒋᑯ	-11.0861
▁ᐁᑮᓂᐳᐸᓐ	-11.0861
▁ᐁᔖᑯᐌᓂᒡ	-11.0861
▁ᐅᐙᓭᓯᐎ	-11.0861
▁ᐅᑎᒀᓂᐙᕽ	-11.0861
▁ᐅᑑᔑᐲᐃᑲᓂ	-11.0861
▁ᐅᑕᓄᑮᐋᑲᓂᓂ	-11.0861
▁ᐅᑭᑭᔥᑳᑯᓰᓐ	-11.0861
▁ᐅᑮᐅᒋᒌᑾᓃᑕᐙᐙᓐ	-11.0861
▁ᐅᔫᓯᒫ	-11.0861
▁ᐊᔓᑕᒫᑯᒡ	-11.0861
▁ᐋᐌᒋᑲᓐ	-11.0861
▁ᐯᕒᐊᓰᐎᓂᓂᐗᐞ	-11.0861
▁ᐱᒫᔕᑳᒣ	-11.0861
▁ᐱᓃᔑᔭ	-11.0861
▁ᑌᐯᒋᑫᓂᒡ	-11.0861
▁ᑭᑕᓄᑮᐎᓂᐙ	-11.0861
▁ᑭᑫᑌᔭᐋᒥᐙᒃ	-11.0861
▁ᑭᓃᒑᓂᓯᐙᒃ	-11.0861
▁ᑮᓯᓱᕽ	-11.0861
▁ᑲᒀᑕᑭᐃᐌᐎᓇᓐ	-11.0861
▁ᒋᐯᑳᑎᓯ	-11.0861
▁ᒋᒥᓄᐐᒌᐗᕽ	-11.0861
▁ᓴᑳᐹᓇᓐ	-11.0861
▁ᓵᓬᒪ	-11.0861
ᐊᔨᔑᐌᐸ	-11.0861
ᐗᓇᑯᔥ	-11.0861
ᐙᓄᒀᓐ	-11.0861
ᐱᒥᑌᓴᐱ	-11.0861
ᑲᓇᐙᐸᒪ	-11.0861
ᒥᑯᔥᑳᓱ	-11.0861
ᓇᓈᑐᓀᐅ	-11.0861
▁ᐅᑎᓈᑯᓂᑫᐎᓂᕽ	-11.0861
▁ᐋᐌᒋᑲᓂ	-11.0861
▁ᑫᑌᐃᓈᑯᓂᑫᐎᓐ	-11.0861
▁ᑭᑕᐯᓂᒧᐎᓂᓈᓐ	-11.0861
▁ᑭᑫᑖᓱ	-11.0861
▁ᑲᒀᑕᑫᑖᑯᓯᔦᒃ	-11.0861
ᑭᑭᔥᑭᑲᓂᕽ	-11.0861
ᒥᔕᑳᐗᒃ	-11.0861
ᓇᓈᑯᒥᒃ	-11.0861
▁ᐁᓈᓴᒪᐱᓂᒡ	-11.0861
▁ᐅᑮᓈᑯᓰᑕᐙ	-11.0861
▁ᑲᑲᓅᓂᑎᓂᒡ	-11.0861
▁ᑲᓇᐌᓂᒻ	-11.0861
▁ᑳᐹᔥᑭᓀ	-11.0861
▁ᓂᐴᒪᑲᓐ	-11.0861
ᑖᓱᐎᑲᒥᑯᕽ᙮	-11.0861
ᒣᓂᔐᑕ	-11.0861
▁ᐅᑮᐃᔑᐎᓂᑰᓐ	-11.0861
▁ᐅᓯᑯᓴᓐ	-11.0861
▁ᑲᓇᐸᒡ	-11.0861
▁ᑳᑮᐃᔑᐲᐃᑳᑌᒃ	-11.0861
ᑭᐲᑲᐃᑲ	-11.0861
ᑲᑳᓱᒥᓂᓂᒻ	-11.0861
▁ᐐᑯᐲᒪᑲᑰᓐ	-11.0861
▁ᑭᐙᑳᐃᑲᓂᕽ	-11.0861
▁ᑮᑰᔭᒃ	-11.0861
▁ᑲᑮᑖᐎᓯᐎᓐ	-11.0861
ᐸᑲᒫᓂᒪ	-11.0861
▁ᐃᔑᐲᐊᓐ	-11.0861
▁ᐌᑭᒫᐎ	-11.0861
ᐋᐸᒋᑑᑫᒃ	-11.0861
ᑌᓇᓂᐎ	-11.0861
ᒦᓂᒥᓇᕽ	-11.0861
▁ᐅᑎᐹᒋᒨᐞ	-11.0861
▁ᐅᑮᐊᓅᓈ	-11.0861
▁ᑭᑌᐺᔦᑕᒧᐎᓐ	-11.0861
▁ᒌᒫᓃᐎ	-11.0861
▁ᒣᓬᑳ	-11.0861
ᐊᑐᒥᓇᕽ	-11.0861
ᔮᐸᒋᐋ	-11.0861
▁ᐁᐅᓃᒑᓂᓯᒥᓇᕽ	-11.0861
▁ᐅᒥᓉᑖᓈᐙ	-11.0861
▁ᓴᑲᑲᑭ	-11.0861
ᐐᑎᑫᐋᓯᒃ	-11.0861
▁ᑎᔦᐺᔦᓂ	-11.0861
ᐃᓀᑖᑾᓯᓅᓐ	-11.0861
ᐅᑌᑎᔮᓐ	-11.0861
ᓅᑌᐐᒥᓂᑴ	-11.0861
▁ᐁᑮᐅᒋᑲᐙᐱ	-11.0861
▁ᐊᒥᓇᑖ	-11.0861
▁ᑭᐐᐎᐙᒃ	-11.0861
▁ᑭᑖᐱᑯᕽ	-11.0861
▁ᑭᒫᒥᑲᐎᓰᒻ	-11.0861
▁ᒫᑲᑕᓬ	-11.0861
▁ᓂᑮᐊᔮᒥᓐ᙮	-11.0861
ᒧᔥᑭᓀ	-11.0861
▁ᐌᒌᔦᒃ	-11.0861
ᐊᔓᑕᒫᑰ	-11.0861
ᐙᐐᒋᐃᑎ	-11.0861
▁ᐯᕒᐆ	-11.0861
▁ᑕᐃᔑᐱᒫᑎᓯᐗᒃ	-11.0861
▁ᑕᑯᐱᓱ	-11.0861
▁ᐅᑮᐊᔮᒀᒥᒫᐞ	-11.0861
▁ᑭᑭᓄᐊᒫᑎᐎᓂᐙ	-11.0861
▁ᐐᑾᑎᓈᓂᐗᓂᓂᒃ᙮	-11.0861
▁ᒋᐊᓈᒥᒥᓀ	-11.0861
ᔕᑳᒣ	-11.0861
▁ᐌᑌᑌ	-11.0861
ᐋᔩᑌᑕ	-11.0861
▁ᐙᓴᑯᓀᒋᑲᓇᓐ	-11.0861
ᐸᑴᔑᑲᓂᑳᓇᐞ	-11.0861
▁ᐊᑲᐙᑌᐃ	-11.0861
▁ᐐᐱᒋᑳᑌᓂᒃ	-11.0861
▁ᐱᑾᒋ	-11.0861
▁ᒋᑮᒦᒋ	-11.0861
ᑭᑎᒫᑭᓈᑫ	-11.0861
▁ᐊᔓᑕᒫᑎᐎᓂᓂ	-11.0861
▁ᑮᐸᑭᑌᐙ	-11.0861
▁ᑮᒫᒌᐊᓇᒥᐁᐙᑎᓯ	-11.0861
▁ᓂᒦᑴᒋᐎᐋ	-11.0861
ᐅᑖᐱᓇᓰᓈᐙ	-11.0861
▁ᒋᓵᑭᒋᓂᔕᐙ	-11.0861
▁ᐊᑯᓴᑲᐅᑰᒫ	-11.0861
ᐊᑰᒋᓂᓂᒡ	-11.0861
▁ᐅᒌᒫᓂᐙ	-11.0861
▁ᐱᐁᓬᓯᐳᓬᐆᓐ	-11.0861
▁ᓈᓯᑳᒃ	-11.0861
▁ᐱᒥᓂᔕᐅᑰᐞ	-11.0861
▁ᒋᐸᑭᑎᓈᓱ	-11.0861
ᓲᑫᑖᑯᓯ	-11.0861
▁ᒋᓂᓯᑐᑕᒧᐙᒡ	-11.0861
▁ᑭᑌᐃᕽ	-11.0861
▁ᐅᑮᓵᑭᑑ	-11.0861
▁ᐅᑮᑲᑴᒋᒫᐙᓐ	-11.0861
▁ᓂᑮᓇᑲᑖ	-11.0861
ᐊᔕᐙᐸᑕᒪᕽ	-11.0861
ᐙᑎᑯᕽ	-11.0861
▁ᑳᐅᓃᒑᓂᓯᒥᑯᒡ	-11.0861
▁15	-11.0861
▁ᓈᓯᐲ	-11.0861
ᐋᐸᐅᑰ	-11.0861
▁ᐁᐊᐱᒧ	-11.0861
ᓂᓴᑭᒡ	-11.0861
▁ᐅᑾᔭᒀᑎᓰᒃ	-11.0861
▁ᐅᑌᐺᔦᑕᒧᐎᓐ	-11.0861
▁ᑭᐱᒫᒋᐃᑰᐎᓂᐙ	-11.0862
▁ᑕᓂᐳᓰᐗᒃ	-11.0862
▁ᒪᔥᑲᐌᑕᒧᐎᓐ	-11.0862
▁ᐅᓃᒑᓂᓯᒫᒃ	-11.0862
ᑰᐹᓯᓈᑯᓯ	-11.0862
▁ᐐᓈᑎᓯᐎᓐ	-11.0862
▁ᑳᐌᓅᒋ	-11.0862
▁ᔕᐌᓂᒥᑰᐎᓐ	-11.0862
▁ᑳᐃᔑᐐᐸᑲᒥᑳᒃ	-11.0862
ᐃᓀᑖᑾᓂᓂᒃ	-11.0862
▁ᐅᑲᑮᑖᐎᓯᐎ	-11.0862
▁144	-11.0862
▁ᐅᔅᑲᑎᑯᐙᕽ	-11.0862
▁ᐊᔑᔥᑭ	-11.0862
▁ᒪᓂᑑᑳᓇᓐ	-11.0862
ᐋᐌᒋᑳ	-11.0862
▁ᓂᑎᓇᑭ	-11.0862
▁ᒦᓂᑰᐎᓇᓐ	-11.0862
▁ᑭᓂᓯᑐᑕᓰᒻ	-11.0862
ᓵᑭᒋᐎᓈᒡ	-11.0862
ᐐᒋᐱᒫᑎᓰᒥ	-11.0862
ᐐᑕᒪᐌᒀ	-11.0862
ᑕᐸᓭᑖᑾ	-11.0862
▁ᑕᕒᐱ	-11.0862
▁ᐊᑾᒋ	-11.0862
▁ᐅᓈᑯᑑ	-11.0862
ᒥᓈᓂᐞ	-11.0862
ᓂᐳᐎᓂᓃᕽ	-11.0862
▁ᑭᑮᐃᑰᒻ	-11.0862
▁ᑮᐃᔑᓇᑴᑕ	-11.0862
ᒥᔅᑾ	-11.0862
▁ᑕᒪᐎᐗᒃ	-11.0862
▁ᐲᑎᑫᔥᑳᔦᒃ	-11.0862
▁ᐁᑲᔥᑭᐋ	-11.0862
▁ᑳᑮᐙᐱᓯᓂᒃ	-11.0862
ᐊᓇᒥᐁᑕᒫᑰᔦᒃ	-11.0862
▁ᑳᐅᑭᔐᒪᓂᑑᒥᐙᒡ	-11.0862
▁ᐅᐙᑳᐃᑲᓂᐙ	-11.0862
ᑮᑮᐌᐱᒫᑎᓯᐃᒥᓐᒡ	-11.0862
ᒥᔕᑮ	-11.0862
ᔖᐳᔥᑲ	-11.0862
▁ᐅᑎᓇᑭ	-11.0862
▁ᑳᔑᓇᐃᓂ	-11.0862
▁ᒪᐄᑲ	-11.0862
▁ᐅᔅᑲᑎᑯᓃᕽ	-11.0862
▁ᑳᐗᓂᑭᑭᓄᐃᑫᐙᒡ	-11.0862
▁ᑭᐸᐙᑲᓇ	-11.0862
▁ᑳᑭᑖᑎᓯ	-11.0862
ᔥᑳᓂᑭᓐ	-11.0862
▁ᑮᓇᑴᑕᒨᒃ	-11.0862
▁ᑳᑭᑭᓄᐊᒫᑯᒡ᙮	-11.0862
ᑌᐺᑕᐎᓯᐌᒃ	-11.0862
ᐅᒌᒥᑾᒃ	-11.0863
▁ᑫᒥᓂᑴᔦᒃ	-11.0863
ᐊᐗᓱᒡ	-11.0863
▁ᐊᓯᓃᕽ	-11.0863
▁ᓂᐳᔮᓐ	-11.0863
▁ᒫᑕᑖᔭ	-11.0863
ᑭᓀᐱᑯ	-11.0863
▁ᔒᑫᓂᒥᑯᐙ	-11.0863
▁ᐯᕒᐊᓯᐗᒃ	-11.0863
ᐸᐸᑭᑌᐅᑰ	-11.0863
ᑎᓄᐗᓅᓐ	-11.0863
▁ᑳᐅᑭᒫᐎ	-11.0863
▁ᑫᓵᑭᐋᒡ	-11.0863
▁ᐅᑑᑌᓈᒥᕽ	-11.0863
▁ᐁᑮᐗᐙᓀᑕᒥᓂᒡ	-11.0863
▁ᐅᑎᓀᑕᒧᐎᓂᕽ	-11.0863
▁ᐁᐹᑭᓯ	-11.0863
▁ᐅᑭᑭᔥᑲᐙᓐ	-11.0863
ᐊᔫᑯ	-11.0863
ᐅᑎᓯᑯᐙᒡ	-11.0863
▁ᒋᐸᒥᐃᑯ	-11.0863
▁ᓅᓯᓈ	-11.0863
ᑖᐱᑕᐎ	-11.0863
ᐅᒥᑮᐎ	-11.0863
▁ᑳᒪᔮ	-11.0863
▁ᑭᑫᓂᒥᑰᐞ	-11.0863
▁ᑫᐃᔥᐯᑖᑯᓯᒡ	-11.0863
▁ᒋᑴᑳᑎᓯᐙᒡ	-11.0863
▁ᒥᓄᒋᑫᐎᓐ	-11.0864
▁ᐁᐱᓯᑖᑯᒡ	-11.0864
▁ᑭᑖᐃᓂ	-11.0864
▁ᑭᑫᑕᒫᐎᓐ	-11.0864
▁ᒫᔑᒥᑕᑎᒨᓐ	-11.0864
ᑭᓰᐲᑭᓯᑌᓈᒡ	-11.0864
▁ᒥᔑᐱᔑᐤ	-11.0864
▁ᓃᑳᓀᑖᑾ	-11.0864
▁ᑳᐃᓇᑲᒥᑲᓂᓂᒃ	-11.0864
▁ᑳᑲᑮᑖᐎᓯ	-11.0864
ᐱᔑᒧᓂ	-11.0864
▁ᐁᓂᓱᑎᐸᐃᑲᓀᔮ	-11.0864
▁ᐁᐊᔮᑭᓐ	-11.0864
▁ᑳᑎᓄᐎᔦᒃ	-11.0864
▁ᐊᐌᓀᓂᐎᓂ	-11.0864
▁ᐁᐊᔮᓯᓄᒃ	-11.0864
▁ᐃᔑᑮᔗᐎᓂᕽ	-11.0864
▁ᐁᓵᑭᐃᓈᓐ	-11.0864
▁ᐁᑭᑎᒫᑭᓯᒡ	-11.0864
ᑮᓈᑯᓰ	-11.0865
▁ᐁᐃᔑᑮᔗᕽ	-11.0865
▁ᐊᓈᒥᒥᑰᔭᓐ	-11.0865
▁ᓂᑎᓈᒃ	-11.0865
▁ᒪᒋᑑᑕᒧᐃᑯ	-11.0865
ᑳᒋᒋᐋᐙ	-11.0865
ᑭᑌᑖᑯᓯᒡ	-11.0865
▁ᑳᑲᓅᑕᒪᐙᓂᒡ	-11.0865
▁ᐐᒋᐃᒡ	-11.0865
▁ᐅᓈᑲᓂᕽ	-11.0865
▁ᑳᑮᐋᑯᓯᓂᒡ	-11.0865
▁ᑳᑮᐅᓈᐸᒫᓂᒡ	-11.0865
▁ᐊᑮᐎᐅᑭᒫ	-11.0865
▁ᐯᒋᒪ	-11.0866
▁ᒎᑕᑳᕽ	-11.0866
▁ᑭᑎᓀᓂᒥ	-11.0866
▁ᐅᑌᐺᑕᒧᐎᓂᐙᕽ	-11.0866
ᔥᑯᓯᐗ	-11.0866
▁ᒪᒋᑑᑕᐎᒃ	-11.0866
ᐃᔑᑲᐯᔑ	-11.0866
▁ᑲᓇᐌᒋᑫ	-11.0866
▁ᐅᑮᐐᑎᑫᒫ	-11.0866
▁ᐅᑮᐊᑲ	-11.0866
▁ᑕᑭᐱ	-11.0866
▁ᐅᑮᑌᐱ	-11.0866
▁ᐅᑮᐋᓉ	-11.0867
▁ᐸᑭᑎᓂᑫᐎᓐ	-11.0867
▁ᑴᑮ	-11.0867
ᑎᓅᐎ	-11.0867
ᐐᒋᐃᓯᒃ	-11.0868
▁ᒋᒥᒋᐯᔑᑯ	-11.0868
▁ᑳᑮᐸᑭᑎᓇᒪᐎ	-11.0868
▁ᐅᓃᑳᓂᓰᒥᓂ	-11.0868
▁ᐴᐙ	-11.0869
▁ᒋᑎᐯᓂᒥᑯᓯᐗᕽ	-11.0869
▁ᑮᐌᑎᓄ	-11.0869
▁ᑖᐃᔑᓭᓯᓅᓐ	-11.0869
▁ᐁᑮᐅᓇᐱᒡ	-11.0869
▁ᒋᑎᓄᐎᐙᒡ	-11.0869
▁ᐙᐸᑕᒧᒃ	-11.0869
ᐗᑳᒃ	-11.0869
ᓈᓈᑲᑕᐌᑕᒧᒃ	-11.087
▁ᐅᑎᓇᐌᒫᑲᓂᐙᐞ	-11.087
▁ᑰᐹᑌᓂᒥᐌ	-11.087
▁ᐲᑑᓇᒃ	-11.087
ᐊᔑᒋ	-11.087
▁ᐅᑎᔑᑮᔗᐎᓂ	-11.087
▁ᑳᐌᑕ	-11.087
ᓈᐹᓐ	-11.087
▁ᒋᒥᓉᑕᒪ	-11.087
ᑕᔑᑕᒧᐗᒃ	-11.0871
ᐊᔭᐱ	-11.0871
ᐙᓭᓈᑾ	-11.0871
▁ᒋᑴᑭ	-11.0871
▁ᑮᒫᒋᓭᓂ	-11.0871
▁ᐗᑭᑖ	-11.0871
▁ᑳᐃᔖᒡ	-11.0871
▁ᓂᑲᐃᔑᒋᑫ	-11.0871
▁ᑳᐃᓇᓄᑮᒡ	-11.0871
ᑯᓯᑴ	-11.0872
▁ᑳᐃᓈᑎᓯᐙᒡ	-11.0872
▁ᑮᑭᑐᓂᒡ	-11.0872
ᑕᑾᑭᒥᑣ	-11.0872
ᐐᑾᑎᐗᑲᒥᑭᓯᓈᓂᐗᕽ	-11.0872
▁ᑮᐐᑕᒪᐙ	-11.0872
▁ᑳᒦᑭᐌᓂᒡ	-11.0872
▁ᑳᑎᓄᐎᔮᓐ	-11.0872
ᑲᑴᐗᓈ	-11.0873
▁ᓴᒣᕒᐃᔮᐎᓂᓂᐗ	-11.0873
ᑌᐺᑕᐎᔦᒃ	-11.0873
ᓯᓄᐎᓇᑰᒃ	-11.0873
▁ᒋᐱᒫᑎᓯᓂᒡ᙮	-11.0873
ᐃᑭᑐᐎᓐᒡ᙮	-11.0874
▁ᐁᐃᔖᐙᒡ	-11.0874
ᐙᐸᒥᓇᑰᑭᐸᓐ	-11.0874
ᑲᑴᒋᒣᒃ	-11.0875
ᑭᑭᓄᐊᒪᐎᓇᑰᒃ	-11.0876
▁ᑮᒫᓀᑕᒨ	-11.0876
▁ᐁᓀᑕᒧᐗ	-11.0876
ᐐᒋᐃᓂᓂᒻ	-11.0876
▁ᐌᓅᒋ	-11.0876
ᐲᓇᐊ	-11.0876
ᐙᑳᐃᑲᓂᑳᕽ	-11.0876
▁ᐅᑮᐙᑳ	-11.0877
▁ᓇᐃᓂᒥᓐᒡ	-11.0877
▁ᐅᑕᑖᐌ	-11.0877
▁ᐅᓈᐯᒥᐙᐞ	-11.0877
▁ᐅᒫᒫᒫ	-11.0878
▁ᐅᑮᐅᓇᑑ	-11.0878
ᐅᒌᐱᑳ	-11.0878
ᔑᓂᑳᓂᓐᒡ	-11.0879
▁ᒦᓂᑰᒻ	-11.088
▁ᐁᐃᔖᒡ	-11.0881
ᓂᓵᐙᐞ	-11.0881
ᑕᑶᔑᓄ	-11.0882
ᐃᔥᒀᓭᓯᓂᓂ	-11.0882
▁ᑳᒪᔥᑲᐎᑌᐺᑕ	-11.0882
▁ᐴᓀᑕᒪᐎᔑ	-11.0882
ᑮᒋᑯᔥ	-11.0883
▁ᒪᒥᔑᒥ	-11.0885
▁ᒦᑭᐙᓂ	-11.0885
ᑯᒋᐋ	-11.0887
ᑭᒥᐗᕽ	-11.0889
ᐃᓈᑲᒥ	-11.089
ᑮᔑᑳᒃ	-11.0891
ᐱᔥᑰ	-11.0891
ᐙᓴᑯᓀᒋᑲ	-11.0893
ᐱᒫᒋᐃᑰᔭᕽ	-11.0893
▁ᑕᑕᑯᔑᓅ	-11.0893
ᑌᐺᔦᑕᒪᓐ	-11.0898
ᑭᑫᓂᒪᒡ	-11.09
▁ᑳᔑᐊᑕᐌᓂᒥ	-11.0901
ᐃᓈᐗᒃ᙮	-11.0902
ᐊᐗᑳᓂ	-11.0904
▁ᐊᐲᑌᑖᑾᓯᓅ	-11.0905
ᐅᒋᑫᒋᓈᐅᔭᕽ	-11.0907
▁ᑎᐸᐃᑫᐃᐌ	-11.0907
ᑭᑎᑳᑌᓂᑭᓐ	-11.0907
▁ᐱᒋᑯᓇᔦᐃ	-11.091
ᐊᔮᓂᑫ	-11.0912
▁ᒉᓯ	-11.0912
ᑭᑫᓂᒫᓯᐎᓐᒡ	-11.0914
ᓀᐊᒧᐙᒡ	-11.0917
▁ᐁᓍᑌ	-11.0921
ᑮᔑᑲᓂᓂᑭᓐ	-11.0927
▁ᐅᓇᑑ	-11.0927
▁ᐅᑮᑕᔑᑖ	-11.0928
ᒌᑫᑕᒨᒃ	-11.0931
ᑲᓅᓇᒀ	-11.0931
▁ᐃᓇᑭᒥᑰ	-11.0932
ᐃᔑᓂᑫᓂ	-11.0932
ᓇᑲᓀ	-11.0935
ᓂᓱᑮᔑᑲᒃ	-11.0936
▁ᐃᓇᓯᑰ	-11.0936
ᒪᔥᑲᐙᑎᓯ	-11.0937
ᐊᓇᒥᐁᑕᐌᒃ	-11.0938
▁ᐅᓲᐎ	-11.0938
▁ᑎᐯᓂᒥᑯᓰ	-11.0938
▁ᓴᑲᐅ	-11.0939
ᐊᔫᓵ	-11.094
ᔑᒥᐌᐙᒡ	-11.094
ᐎᓂᓃᒪᐞ	-11.0944
ᒦᓂᑯᓰᓐ	-11.0946
ᐯᑭᐃᑰᐎᓯ	-11.0946
ᑕᑮᒻ	-11.0949
▁ᐲᑎᑲᓂᑰ	-11.0949
ᑮᐃᔥᒀᐱᒫᑎᓯᓂᒡ	-11.0949
▁ᐅᑮᒦᓈᐙ	-11.0954
▁ᑮᓃᔣᒋᐗ	-11.0954
ᑲᑮᐹᓯ	-11.0956
▁ᑳᑭᑭᔥᑲᐙᓂ	-11.0956
ᐸᑭᑎᓈᔂ	-11.0959
ᐱᒫᑎᓰᐋᓐ	-11.0959
▁ᐸᑭᑌᐙ	-11.0968
ᐌᐱᓂᑳᑌᒃ	-11.0968
▁ᐙᓭᒋᑲᓈᐱ	-11.097
▁ᒋᐅᔑᑕᒪ	-11.0978
▁ᒋᐅᑎᓵᐸ	-11.098
ᑭᑎᒥ	-11.098
▁ᑮᐃᓀᑖᑯᓯᐗ	-11.0985
▁ᐅᒪᒋᒋᑫᐎᓂᐙ	-11.0987
ᑎᐹᑯᓂᑰᔮᓐ	-11.0989
ᐃᓈᐱᔦᒃ	-11.0994
▁ᐲᑕᒪᐙᐙ	-11.1002
▁ᐃᑭᑑᒪᑲ	-11.1004
ᓇᑳᓂ	-11.101
ᐹᑮᑭᓂᑳᑌ	-11.102
ᑮᑮᐌᐃᔖ	-11.1021
ᐊᑐᒥᓐᒡ	-11.1021
ᑲᒀᑕᑭᐃᑰᔮᓐ	-11.1024
ᐃᓈᔑᔮᕽ	-11.1024
ᑲᑳᒋᐋ	-11.1032
▁ᒨᔕᑭ	-11.1033
ᑭᑫᒋᑲᓂᐎ	-11.1034
▁ᐁᑮᐊᐸᑭᓱ	-11.1037
ᒧᔐᓈᑾᓂᓂ	-11.1042
ᒋᑳᑌᑯᐸᓀ	-11.1043
ᑮᐃᔑᓇᒻ	-11.1056
ᓇᐃᑕᒧᐌᒃ	-11.1087
▁ᐊᑳᓯ	-11.1088
ᑑᑕᐌᒃ	-11.1089
▁ᑳᐐᒋᐐᓯᓃ	-11.1092
▁ᑲᓅᓂᓐ	-11.1095
ᐙᑳᔥᑳᑯ	-11.1098
▁ᐅᑎᐹᒋᒧᐎᓂᐙ	-11.1104
ᐯᑳᐹᐗ	-11.112
▁ᐅᑮᐊᔮᓰ	-11.1125
▁ᒥᓂᒀᑕ	-11.1131
ᐐᐱᑕᑯᔑᕽ	-11.1132
▁ᐅᓇᑐ	-11.1136
ᒫᐗᑑᓈ	-11.1136
ᐙᐸᒥᓀᒀ	-11.1137
▁ᒫᒌᐸᐃᐌ	-11.1142
ᓵᑭᒋᓂᔕᐊᒪᐙᒡ	-11.1148
▁ᐁᐊᓂᐱᒥ	-11.1149
▁ᑳᑮᐅᔑᑑᓂ	-11.1149
▁ᐅᑲᒦᓂᑯ	-11.1156
ᑮᔑᓈᑾᒃ	-11.1156
ᑌᐺᔦᓂᒥᑯᒡ	-11.1158
ᑮᔥᑲᑕ	-11.1163
ᑲᑴᒋᒥᓈᓐ	-11.1176
▁ᑳᑌᐺᒪᑲ	-11.1178
ᑑᑕᐎᔮᕽ	-11.1194
ᓈᑯᑕᒪᐙ	-11.1205
▁ᑭᑭᑭᔥᑳᑯ	-11.1211
ᐐᒋᐁᒀ	-11.1215
ᑭᑫᓂᒪᕽ	-11.1216
▁ᐅᑮᓂᓯᑐ	-11.1218
▁ᐁᓂᓯᑐᑕᓯ	-11.123
ᑮᐌᐱᒫᑎᓯᐃᑣ	-11.1232
ᒥᓄᐊᔮᐃᑯ	-11.1232
▁ᑎᐹᒋᒫᐙ	-11.1237
ᑭᑐᒋᑫ	-11.1239
▁ᐁᑭᑫᓂᒥᑰ	-11.1245
ᔕᔒᐱᑕᐙᐙ	-11.1272
ᓇᐹᒋ	-11.1274
▁ᑳᑮᐊᔓᑕᒪᐎᓇᕽ	-11.1275
ᑭᑭᔥᑲᒧᐙᒡ	-11.1276
▁ᐁᓅᑕᐙ	-11.1293
ᑎᐸᐊᒪᐎᑣ	-11.1312
ᐃᔑᒋᑫᐗᕽ	-11.1313
ᐅᒋᒦᓈ	-11.1345
ᐙᑳᐃᑲᓐ	-11.1366
▁ᐅᑭᒋᒪᔥᑲᐎᓰᐎ	-11.1367
ᐃᓈᑴᓐ	-11.1373
ᑭᑎᑫᐎᓇᓐ	-11.1375
ᐙᐙᑌᓭ	-11.1379
▁ᑮᑭᑐᐗ	-11.1384
ᐌᑖᑯᓯᒻ	-11.1384
ᑲᔥᑭᑑᒻ	-11.1385
ᑎᐹᑐᑕᒧᐙ	-11.1388
▁ᐅᑮᒦᓂ	-11.1396
ᒫᒦᓄᐸᔕᔐ	-11.1397
ᔖᑯᐙᓈᒡ	-11.1397
ᓀᑖᑾᓅᓐ	-11.1401
▁ᓂᓯᑐᑕᒧᐙ	-11.1405
ᐱᓯᑕᒥᓂᒡ	-11.1424
ᐐᒌᐎᓀᒀ	-11.1427
▁ᒋᑭᑭᓇᐙᑕᔕᑫᔓ	-11.1429
ᑮᒦᔑ	-11.1436
ᓂᓯᑖᐌᑕᓰ	-11.1438
ᐱᒪᒧ	-11.1444
ᒥᓄᓈᑾᑭᓐ	-11.1448
ᔥᑯᓭᓂᒃ	-11.1478
ᐗᔦᔑᒥᑯ	-11.1486
ᐐᒌᐎᔦᒃ	-11.1499
ᒦᒋᓂᒡ᙮	-11.152
ᐋᓇᐌᓂᒥᒥᓐᒡ	-11.1524
ᐊᑲᒋᐌᑖᑾ	-11.1527
ᐲᐊᒪᐎᓈᓐ	-11.1538
▁ᐁᑌᐺᔦᓂᒪ	-11.1542
ᐗᓂᔥᑴᐃᑯ	-11.1545
ᐃᔥᐸᑭ	-11.155
▁ᑮᐸᑭᑎᓈᓱ	-11.1571
ᐯᐯᔑ	-11.1619
ᐱᑾᑎᓈᒃ	-11.1635
ᒧᐙᒥᓐ	-11.1647
ᐱᒥᐐᒌᐎ	-11.165
ᑭᑫᓂᒥᓯᓅᓂᓂᒻ	-11.1657
ᐃᔑᐃᓐ	-11.1756
▁ᑕᔑᑕᒪᐙ	-11.1756
▁ᑭᓇᑕ	-11.1764
ᑑᓇᔓᐌᐎᓇᓐ	-11.1785
ᐯᔑᑴᐙᓇᑭᓯ	-11.1805
▁ᒋᑭᑫᑕᒧᐗ	-11.1821
ᑲᑴᒋᒥᔭᓐ	-11.185
ᐐᓯᓂᔦᒃ	-11.1865
ᒪᓂᑑᑳ	-11.1882
ᐸᑳᓀᓂ	-11.1898
▁ᒋᑭᑫᓂ	-11.1904
▁ᒋᐅᒋᑎᐯᑖᑯᓯ	-11.1933
▁ᒋᓈᑯᑑ	-11.194
ᓂᐳᔮᕽ	-11.1957
ᐹᑭᓭᓂ	-11.1988
▁ᐁᐱᒥᓂᔕᐙ	-11.1993
ᓰᑲᐊᑖᓱᒡ	-11.2008
ᐅᔒᒣᔑᒫᐎ	-11.2018
ᒫᒑᐗᐞ	-11.202
▁ᐁᑮᑌᐱᓇ	-11.2033
ᑲᑮᑴᐙᒡ	-11.2043
ᓇᐃᑕᐌᒃ	-11.2052
▁ᐁᐅᑕᑳᓀᓯ	-11.2061
ᔑᓭᐙᒡ᙮	-11.2073
ᐃᔑᒋᑫᓯᐙᓐ	-11.2093
▁ᓈᑲᒋ	-11.212
ᒎᐎᐎᓯᒃ	-11.2133
ᑎᐹᒋᒥᑯᒡ	-11.2134
▁ᑮᐐᓯᓂ	-11.2157
ᑮᐌᐱᒫᑎᓯᓈᓂᐗᕽ	-11.2158
▁ᑯᐹᑌᓂ	-11.2163
▁ᒋᓅᑌᓭᓯ	-11.2184
▁ᑭᓰᓯᐸ	-11.2199
▁ᓂᑮᐙᐸᑖ	-11.2211
ᔑᓈᑯᓯᔭᕽ	-11.2253
▁ᒋᓵᑭᒋᐌᐱ	-11.2263
ᑑᑕᓯᐙᓐ	-11.2263
▁ᐅᒪᒋᒋᑫᐎ	-11.2265
ᐅᐸᐹᒥᓯᐎ	-11.2278
ᐋᐸᒋᑖᐗ	-11.2285
▁ᑳᑲᓅᑕᒪ	-11.2351
▁ᑕᐃᔑᓈᑾ	-11.2373
ᑲᓅᓂᑯᐙᒡ	-11.2376
ᓅᑖᑾᓂᓂ	-11.2378
ᑭᓰᓯᐸᑑ	-11.2381
▁ᑫᐅᒋᑭᑫᑕᒪ	-11.2406
ᑯᐹᑌᓂᒫ	-11.2418
▁ᒋᐅᒋᐐᓯᓂ	-11.243
▁ᑮᒥᓉᑕᒨ	-11.2439
ᒨᔕᑭᓇ	-11.2519
ᐅᔥᑭᐅᔑ	-11.2528
▁ᐅᔒᒣᔑᒫ	-11.2569
▁ᑳᐃᔑᐐᓱ	-11.2584
ᐱᓱᓂ	-11.2588
ᐱᓯᑕᒣᒃ	-11.2596
▁ᐁᑎᐹᑐ	-11.2621
▁ᐅᑭᑫᑖᓱ	-11.2625
▁ᒋᐃᔖᔭ	-11.2629
▁ᐊᑳᓭᑖᑾ	-11.2664
▁ᑳᑲᒀᑕᑭ	-11.2669
ᒧᐙᒻ	-11.268
ᐱᐊᔮᒡ	-11.2708
ᐃᔑᓭᑭᓐ	-11.2734
ᐃᓀᑖᒥᓐ	-11.2808
ᐊᓇᒥᐁᐎᑭᒫᐎᐙᒡ	-11.2832
▁ᓂᐙᑳᐃᑲ	-11.2912
ᐅᒋᑮᑭᑐᒡ	-11.2919
▁ᒋᐐᑑᑳᓱ	-11.293
▁ᔕᐌᓂᒥ	-11.2933
ᐃᔑᑖᓂᒡ	-11.2999
▁ᑳᐲᑎᑲ	-11.3005
ᔥᑳᑯᓰᓐ	-11.3012
ᒋᐌᐱᓈᒡ	-11.3032
ᐅᔑᐲᐊᒪᐎ	-11.3035
▁ᒪᒍᑌᐌᐱ	-11.3047
ᓂᔕᐙᐙᒡ	-11.3061
ᐸᑭᑎᓈᓱᕽ	-11.3064
ᐃᔑᒋᑫᐋ	-11.3077
ᔥᑳᑯᔦᒃ	-11.3115
ᒦᒋᓰ	-11.3116
ᑮᒪᒋᑑᑕᒥᓂᒡ᙮	-11.3117
▁ᐐᒌᐎᑯᒻ	-11.3125
▁ᐯᑳᑎᓯ	-11.3126
ᑕᑭᑌᓂ	-11.3152
ᐊᐱᓅᒌᔑᐎ	-11.3169
▁ᑳᑾᔭᑴᑖᑯᓯ	-11.3175
ᐱᒥᐎᓈᒡ	-11.3188
ᑕᒧᐎᓂᐙ	-11.3219
ᑖᓇᐐ	-11.3226
▁ᑕᐋᐸᑕ	-11.3229
ᒥᑲᐙᓰ	-11.3254
ᐹᑏᓇᑎᓂᓂ	-11.3255
ᓈᓈᑲᒋᐋ	-11.3256
ᒨᑯᒫᓐ	-11.3258
ᐙᑌᓭᒃ	-11.3294
▁ᑖᐃᔑᓈᑾ	-11.3316
ᔑᓈᑯᓯᔮᕽ	-11.3319
ᐊᓇᒥᐁᐎᑭᒫᐎᓂᒡ	-11.3329
ᒥᑯᓰᐞ	-11.3351
ᓄᑮᑕᐙ	-11.3357
ᒥᓄᔥᑳᑯ	-11.336
ᑎᐹᑐᑌ	-11.3362
ᒫᑫᔮᓐ	-11.339
▁ᑳᑮᐅᑎᓇ	-11.34
ᐅᑕᑳᓀᓯ᙮	-11.3423
▁ᐅᑖᐱᓇᒧᐙ	-11.3445
▁ᐅᑮᐊᑕᐌᑖ	-11.3477
ᒪᒦᒀᓂᑎᓱᓰ	-11.3484
ᓃᒑᓂᓯ	-11.3491
▁ᑳᐊᓇᒥᐁᑕ	-11.3504
ᑭᑭᓄᐊᒪᐙᑲᓐ᙮	-11.3538
ᑕᒨᒪᑲᒃ	-11.355
▁ᑳᑎᐯᑕ	-11.3555
ᑑᑕᐎᒥ	-11.3569
ᑕᐌᓂᒥᑯ	-11.3634
▁ᑮᐅᒋᓅᑖᑾ	-11.365
ᐐᐐᓯᓂ	-11.3653
ᑌᐺᔦᓂᒥᑯᓰ	-11.3696
ᐗᑎᑾᓇᓐ	-11.3713
ᑲᑮᑖᐌᑕᒧᐎᓐ	-11.3713
ᒦᐗᓄᓄ	-11.3714
ᐅᓵᐙᐱᑯ	-11.3714
3	-11.3716
ᔥᑳᑯᓂᒡ	-11.3728
ᐊᓈᒥ	-11.3734
ᑲᔥᑭᐋᐙᒡ	-11.3745
ᓇᒥᐋᓂᒡ	-11.3746
▁ᑭᑲᐅᒌ	-11.375
▁ᒥᑎᑰ	-11.3752
▁ᐃᔥᐯᓂ	-11.3763
ᔔᓂᔮᒥᐙ	-11.3773
▁ᑳᑎᓄᐗ	-11.3776
ᑎᐯᑕᒥᓂᒡ	-11.3781
▁ᐃᔑᑭᑭᓄᐊᒪ	-11.3782
▁ᓂᓇᑕᐌ	-11.3786
▁ᐋᓇᐌᓂ	-11.3794
▁ᑕᔑᑕᒥᓂ	-11.3808
ᐅᒋᑎᐯᑖᑯᓯᔦᒃ	-11.3811
ᑲᒥᑭᓯᐙᒡ	-11.3811
▁ᔂᓬᐊᒪ	-11.3817
ᐋᐸᑕᓐ	-11.3823
ᑭᒫᐎᐎᓂᕽ	-11.3825
ᒪᔥᑲᐌᑖᑾᓂᓂ	-11.3825
ᓂᔥᑭᐃ	-11.383
ᓂᔕᐊᒪᐎᓂᓂᒻ	-11.3834
ᔖᑯᐙᓂᑯᒡ	-11.3836
ᑭᑖᐸᒋᑑ	-11.3841
ᐃᔑᐌᐱᓂᑳᑌ	-11.3853
▁ᒋᑲᓅᑕᒫ	-11.3858
ᑎᐹᒋᒧᐎᓂᓃ	-11.3862
ᐐᐙᐸᒥ	-11.3864
▁ᐁᑮᑲᒀᑕᑭ	-11.3865
ᐯᐸᑳᓉᐙᓇᑭᓯ	-11.3867
ᒫᒪᐌᓄᓂᒡ	-11.3867
▁ᑳᑮᐅᑯᓯᓯ	-11.3875
▁ᑭᒋᐊᓇᒥᐁᐸᒀᓀᑲᒥᑯ	-11.3879
ᑲᐎᐌᐱ	-11.3885
ᓅᑖᑳᓂᐗ	-11.3894
ᑖᑯᓯᐎᓐ	-11.3895
▁ᑳᑭᑎᑳᑌ	-11.3895
ᒦᔑᔭᓐ	-11.3904
▁ᒋᒌᑫᑕ	-11.391
ᑭᑫᓂᒥᒻ	-11.3914
ᐐᓱᐎᓂᕽ	-11.3921
ᓋ	-11.3922
ᐱᑲᓂᓂᒃ	-11.3923
▁ᑭᔕᔒᐯ	-11.3925
▁ᑭᒋᑮᔑᑯ	-11.3928
▁ᓴᒣᕒᐃᔮ	-11.3929
ᐸᔑᐸ	-11.393
ᑌᐃᓀᓂ	-11.3931
ᐙᑳᐃᑲᓂ	-11.3932
▁ᒉᕒᐆᓴᓬᐊ	-11.3932
ᑭᑫᑕᓰᒥᓐ	-11.3935
ᐐᒌᐎᓯᓄ	-11.3935
ᒥᑴᓂ	-11.3936
ᐸᐹᒣᓂ	-11.3938
ᐅᒋᒌᑾᓇᐱ	-11.394
ᔥᒀᑌᒥᐗ	-11.3943
▁ᑳᐃᔑᐊᑕᐌᓂᒥ	-11.3943
▁ᑳᐃᔑᑎᐯᑖᑯᓯ	-11.3944
▁ᐅᑎᓇᐌᒫᑲᓂ	-11.3945
ᐋᔩᒋᐊᔓᑕᒫ	-11.3946
ᐊᑑᐹᓂᕽ	-11.3948
ᑴᒋᐌᑖᑯᓯ	-11.3953
▁ᐅᑎᔑᓂᑳᓱᐎ	-11.3953
ᒞ	-11.3953
▁ᑳᑲᔥᑮ	-11.3954
ᒫᑕᐆᓈ	-11.3954
▁ᑭᑌᐺᔦᑖ	-11.3954
▁ᐁᓀᓂᒥ	-11.3955
ᑌᐊᐲᒌ	-11.3956
▁ᐱᒀᐎᑲᓀ	-11.3956
▁ᐱᐁᓬᓯᐳᓬ	-11.3956
▁ᑳᓂᔑᐗᓈᒋ	-11.3956
ᑯᑖᓀᑖᑾᓂᓂ	-11.3956
ᒣᓂᑲᓂ	-11.3956
ᐸᕒᐊᔅ	-11.3956
ᑖᓱᐎᑲᒥ	-11.3956
ᑫᑌᐊᔭᐋᒥ	-11.3956
ᓃᑳᓈᒋᒧ	-11.3956
ᐅᒑᓂᒪᑲᒥ	-11.3956
ᒶ	-11.3956
ᐅᒋᔥᑲᐗᐊᒫ	-11.3956
ᐅᔾᐆᓯ	-11.3956
ᐋᒀᑎᓰᑲᑕ	-11.3956
ᐐᒋᐅᑕᑳᓀᓰ	-11.3956
ᐱᓵᓀᑕᒧᐃ	-11.3956
ᐸᔕᔐᐃᑲ	-11.3956
ᑎᑎᐯᔩᑭᓂ	-11.3956
ᑭᑭᓇᐙᒋᐋ	-11.3956
ᒥᑖᔀᔑᓃᔓ	-11.3956
ᒪᓯᓇᐃᑫᐎ	-11.3956
ᒪᔥᑲᐗᓄᑮ	-11.3956
▁ᐁᐅᒋᑎᐯᑖᑯᓯᓯ	-11.3956
▁ᐁᑮᓈᓈᑲ	-11.3956
▁ᐁᑲᐗᔅᑲᑌ	-11.3956
▁ᐁᑲᑮᐹᑌᑖᑾᓂᓂ	-11.3956
▁ᐋᔑᑌᔮᑎᑰ	-11.3956
▁ᑫᒪᓂᔑᑳᑌ	-11.3956
▁ᑭᑕᐯᓂᒧᓄ	-11.3956
▁ᑭᑖᐸᑫᐎᓂᑯ	-11.3956
▁ᑭᑫᑌᐃᓈᑎᓯᐎᓂᓈ	-11.3956
▁ᑳᐋᑾᑭᑌ	-11.3956
▁ᑳᑭᑭᓇᐙᒋ	-11.3956
▁ᒋᒪᒫᒋᑾᐱᓂ	-11.3956
▁ᒋᓰᑲᐊᑖᓱ	-11.3956
▁ᓂᑕᓇᒥᐁ	-11.3956
▁ᓂᑭᒋᐊᔭᐋᒥᓈ	-11.3956
▁ᓂᑮᐋᐸᒋ	-11.3956
▁ᓃᓵᐲᑭᓂ	-11.3956
▁ᔖᐳᓂᑲ	-11.3956
)	-11.3956
ᐁᔖᐙᑎᓯ	-11.3956
ᐃᔑᐅᐐᔭᐎ	-11.3956
ᐃᔥᐹᐸᑌ	-11.3956
ᐅᑖᓂᒪᓂᓂᒃ	-11.3956
ᐅᒨᑕᔮᐱᑯᕽ	-11.3956
ᐅᓂᔑᔑᓐ᙮	-11.3956
ᐅᓈᑲᑕᐌᒋᑲᓂ	-11.3956
ᐅᔑᐲᐊᒥᓂᒡ	-11.3956
ᐊᐗᔑᒣᐌᑖᑾᓂᓂ	-11.3956
ᐊᑖᐌᐎᑲᒥᑯᑫ	-11.3956
ᐊᑯᓴᑲᐃᑲᓂᐎᒡ	-11.3956
ᐊᑳᓴᑌᔮ	-11.3956
ᐊᓇᒥᐁᐙᑎᓯᒡ	-11.3956
ᐋᐸᒋᑑᒥᓐ	-11.3956
ᐋᐸᒋᒋᑲᓇᓐ	-11.3956
ᐌᐱᓇᒣᒃ	-11.3956
ᐐᒋᐱᒫᑎᓰᒫᓈᓐ	-11.3956
ᐗᓇᔥᑴ	-11.3956
ᐗᓯᔀᓂ	-11.3956
ᐙᓵᑯᓇᐌ	-11.3956
ᐱᐅᒋᓈᔑᔥᑳ	-11.3956
ᐱᔑᑮᓴᐞ	-11.3956
ᐲᑖᓂᑳᓀᓭ	-11.3956
ᐴᓀᑕᒫᑎᒃ	-11.3956
ᐸᓯᑶᒋᓭ	-11.3956
ᑕᐸᓴᑲᒥᑳ	-11.3956
ᑕᓇᓄᑮᓂᒡ	-11.3956
ᑭᑫᑖᑾᓯᓂᓂ	-11.3956
ᑭᑭᓇᐙᑕᔕᑫᔑᑲᓂᐎᐙᒡ	-11.3956
ᑭᑭᓇᐙᒋᐲᐅᑣ	-11.3956
ᑭᑭᓇᐙᓯᓈᑾ	-11.3956
ᑭᒋᐊᔭᐋᒥᐙᐸᓃ	-11.3956
ᑯᔥᑾᑲᒥᑭᓭ	-11.3956
ᑴᑭᑳᐸᐎᒡ	-11.3956
ᒣᔥᑾᑑᓂᑫᓂᒡ	-11.3956
ᒥᑯᔥᑳᒋᐋ	-11.3956
ᒥᑲᓰᓇᓐ᙮	-11.3956
ᒥᓋᑭᓱᐎᓐ	-11.3956
ᒥᓍᒋᒥᑯ	-11.3956
ᒥᓴᐎᓈᑫ	-11.3956
ᒨᑭᒋᐗᑭᓐ	-11.3956
ᒪᑲᑌᒥᔅᑴᑲᓂᓂᒃ	-11.3956
ᒪᔥᑲᐌᑕᕽ	-11.3956
ᒪᔥᑲᐙᑲᒥᓂᓂᒃ	-11.3956
ᒫᒥᑲᐙᓱ	-11.3956
ᒫᒦᑳᑎᓈᓂᐗᕽ	-11.3956
ᓀᓈᐎᓇᒪ	-11.3956
ᓂᐴᒪᑲᓯᓄᒃ	-11.3956
ᓂᑖᐎᑭᓈᐗᓱᓂᒡ᙮	-11.3956
ᓃᑳᓀᓂᑎᓱᐎᓐ	-11.3956
ᓅᑌᐃᔥᒀᐱᒫᑎᓯ	-11.3956
ᓅᑖᑎᓯᓂᒃ	-11.3956
ᓇᑭᔥᑯᑖᑎᐗᒃ	-11.3956
ᓈᑕᐃᐲᒡ	-11.3956
ᓯᓇᐊᒪᐗᒡ	-11.3956
ᓰᑲᐊᑖᑰᐎᓯ	-11.3956
ᓲᑭᑳᐸᐎᔦᒃ	-11.3956
ᓵᑭᒋᐌᐱᓂᑲᓂᐎ	-11.3956
ᓵᓰᑲᐅᑯ	-11.3956
ᔔᓂᔮᐗᔑᐙ	-11.3956
▁ᐁᐃᑭᑐᔭᓐ	-11.3956
▁ᐁᐃᑭᑐᕽ	-11.3956
▁ᐁᐅᐱᓯᑲᓂᐎᓯᒃ	-11.3956
▁ᐁᐋᐸᒋᑑᓯ	-11.3956
▁ᐁᑎᓄᐙᑎᑯ	-11.3956
▁ᐁᑕᐌᑕᒪᓐ	-11.3956
▁ᐁᑮᐃᔑᐲᐃᑳᑌᓂᒃ	-11.3956
▁ᐁᑮᐅᑕᐗᑳᓂᒥᑯᔦᒃ	-11.3956
▁ᐁᑮᐅᓈᐸᒥᑯᒡ	-11.3956
▁ᐁᑮᐊᐱᒧᒡ	-11.3956
▁ᐁᑲᑮᑴᓂᒡ	-11.3956
▁ᐁᒥᔅᑯᓯᒡ	-11.3956
▁ᐁᒪᑲᑌᒥᔅᒀ	-11.3956
▁ᐁᒪᒑᑎᓯ	-11.3956
▁ᐁᓇᔓᐌᓂᒡ	-11.3956
▁ᐁᔑᑌᐺᔦᑕᒫ	-11.3956
▁ᐁᕒᐃᔮᐸᑲ	-11.3956
▁ᐃᔅᑲᐃᐹ	-11.3956
▁ᐃᔥᐱᒦᑲᑌ	-11.3956
▁ᐅᐐᒋᐅᑌᐺᑕᒨ	-11.3956
▁ᐅᐐᒋᑖᒫᑲᓇᐞ	-11.3956
▁ᐅᑎᐹᑯᓂᑫᐎᑲᒥᑯᕽ	-11.3956
▁ᐅᑎᒀᓂᑫᑲᓂᑳᕽ	-11.3956
▁ᐅᑎᒀᓂᒫ	-11.3956
▁ᐅᑎᓇᐌᒫᑲᓇᓐ	-11.3956
▁ᐅᑑᓇᔓᐌᐎᓂᓃᒥ	-11.3956
▁ᐅᑕᐃᐹᓐ	-11.3956
▁ᐅᑕᑭᑖᓱᐎᓂᓂ	-11.3956
▁ᐅᑕᓄᑮᐊᑲᓇᐞ	-11.3956
▁ᐅᑕᓇᒥᐁᐎᑲᒥᑯᓂ	-11.3956
▁ᐅᑭᑭᓄᐃᑫᐎᓂ	-11.3956
▁ᐅᑭᒋᐊᓇᒥᐁᐎᑭᒫᒥᐙᐞ	-11.3956
▁ᐅᑮᐐᐴᓂᑑᓰᓈᐙ	-11.3956
▁ᐅᑮᒥᓍᐸᒥᑰᓐ	-11.3956
▁ᐅᑮᒨᒋᔥᑲᐞ	-11.3956
▁ᐅᑮᓇᑴᑖᑰᓐ	-11.3956
▁ᐅᑮᓈᑯᓰᑲᑕᐙ	-11.3956
▁ᐅᑮᔑᑲᓄᒻ	-11.3956
▁ᐅᒋᑎᐯᑖᑾ	-11.3956
▁ᐅᒋᒫᒑᓐ	-11.3956
▁ᐅᒦᑲᓈᒻ	-11.3956
▁ᐅᒪᑲᑗᔥᑲᒃ	-11.3956
▁ᐅᒪᓂᑑᑳᓂᑰᒋᑲᓂᓂ	-11.3956
▁ᐅᒫᐗᒋᐋᑲᓇᐞ	-11.3956
▁ᐅᔥᑮᔑᑯᓂ	-11.3956
▁ᐊᓀᓯᑆᕒᐊ	-11.3956
▁ᐊᓯᓃᑳᓂᒃ	-11.3956
▁ᐋᑰᐱᓱ	-11.3956
▁ᐌᓈᑯᔑᓂᓂᒃ	-11.3956
▁ᐐᐱᑎᐙᓐ	-11.3956
▁ᐗᑭᒋᓂᐲᕽ	-11.3956
▁ᐙᐹᑲᒣᑕᒧᒃ	-11.3956
▁ᐯᑎᒀᔅ	-11.3956
▁ᐯᓬᐊᒨᓐ	-11.3956
▁ᐯᕒᓇᐃᓯ	-11.3956
▁ᐱᐅᔑᓯᑑ	-11.3956
▁ᐱᑕᐊᓈᐙᒡ	-11.3956
▁ᐱᑕᑶᔑᓂᓐ	-11.3956
▁ᐱᓀᔒᔕᐞ	-11.3956
▁ᐴᓯᑖᓱᓇᓐ	-11.3956
▁ᐸᑭᑖᐲᑭ	-11.3956
▁ᐸᑲᒫᑲᓇᓐ	-11.3956
▁ᐸᔥᑴᐗᔥ	-11.3956
▁ᑎᐱᑲᓄᕽ	-11.3956
▁ᑏᒪᔅ	-11.3956
▁ᑕᐃᔥᒀᓭᓯᓅᓇᓐ	-11.3956
▁ᑕᐃᔥᒀᓭᓯᓅᓐ	-11.3956
▁ᑕᐊᐲᒋᐅᓂᔑᔑᐌᒋᑲᓂᐎ	-11.3956
▁ᑕᐴᓀᑕᒪᐙᑲᓂᐎ᙮	-11.3956
▁ᑕᑯᓭᒀᓇᓐ	-11.3956
▁ᑕᓇᑖᐌᕽ	-11.3956
▁ᑫᐐᒌᐎᓇᑰᑭᐸᓐ	-11.3956
▁ᑭᐐᔭᐎᓈᓂᓐ	-11.3956
▁ᑭᐱᔥᑭᐗᓯᑲᓇᓐ	-11.3956
▁ᑭᑌᐃᓈᓂᓐ	-11.3956
▁ᑭᑌᐱᓇᓰᒻ	-11.3956
▁ᑭᑌᐺᑕᒧᐎᓂᓈᓐ	-11.3956
▁ᑭᑌᐺᔦᑕᒧᐎᓂᓈᓐ	-11.3956
▁ᑭᑎᑭᑐᐎᓐ᙮	-11.3956
▁ᑭᑑᑭᒫᒥᐙ	-11.3956
▁ᑭᑕᒑᑯᓈᓂ	-11.3956
▁ᑭᑕᒑᑯᕽ	-11.3956
▁ᑭᑫᑌᐱᒫᑎᓯᐎᓂᐙ	-11.3956
▁ᑭᑭᒋᐊᓇᒥᐁᐎᑭᒫᒥᓈᓐ	-11.3956
▁ᑭᑭᓇᐙᐸᒋᑲᓐ	-11.3956
▁ᑭᑭᓇᐙᒋᒋᑲᓇᓐ	-11.3956
▁ᑭᑭᔐᒪᓂᑑᒥᐙ	-11.3956
▁ᑭᑮᐃᓂᓂᓂᒻ᙮	-11.3956
▁ᑭᑮᐊᔕᒥ	-11.3956
▁ᑭᑲᐐᒌᐎᑯᒥᓐ	-11.3956
▁ᑭᒋᐊᓇᒥᐁᐸᒀᓀᑲᒥᒃ	-11.3956
▁ᑭᒋᐴᑖᒋᑲᓂᕽ	-11.3956
▁ᑭᒋᐹᐎᑎᒃ	-11.3956
▁ᑭᒋᑮᔑᑰ	-11.3956
▁ᑭᓅᔐᒃ	-11.3956
▁ᑭᓅᔐᓴᐞ	-11.3956
▁ᑭᓇᑕᐌᓂᒫᓯᐙᓈ	-11.3956
▁ᑭᔔᓂᔮᒻ	-11.3956
▁ᑭᔥᑮᔑᑯᐙᓐ	-11.3956
▁ᑮᐙᓯᑌᓂᐗᓐ	-11.3956
▁ᑮᒋᐅᑌᐺᑕᒨᒥᐙᒃ	-11.3956
▁ᑮᒥᔅᑸ	-11.3956
▁ᑮᓅᑖᑎᓰᐗ	-11.3956
▁ᑮᔑᑾᑳᓂᒃ	-11.3956
▁ᑲᒸᕒᐊ	-11.3956
▁ᑳᐃᔑᐌᐱᓯᒡ	-11.3956
▁ᑳᐅᑌᑌᒫᐎᓂᒡ	-11.3956
▁ᑳᐅᒋᒥᒋᒥᔥᑳ	-11.3956
▁ᑳᐅᓈᐯᒥᓯ	-11.3956
▁ᑳᐅᓈᐸᒥᑯᒡ	-11.3956
▁ᑳᐅᓈᐸᒥᓐᒡ	-11.3956
▁ᑳᐊᒑᑴᑖᑯᓯᓂ	-11.3956
▁ᑳᐊᒑᑴᑖᑾᒃ	-11.3956
▁ᑳᐐᒦᓇᒀᐸᓐ᙮	-11.3956
▁ᑳᐯᑳᑲᒥᒃ	-11.3956
▁ᑳᐱᒥᐗᓀᐸᐃᑯᐙᒡ	-11.3956
▁ᑳᐸᑭᑌᐅᒃ	-11.3956
▁ᑳᑌᐺᔦᑖᑾᒃ	-11.3956
▁ᑳᑌᓴᐱᐙᒡ	-11.3956
▁ᑳᑕᓇᑖᐌᕽ	-11.3956
▁ᑳᑭᑎᑫᒡ	-11.3956
▁ᑳᑮᐅᒌᓂᒃ	-11.3956
▁ᑳᑮᐅᒫᒫᒡ	-11.3956
▁ᑳᑮᐅᔑᐲᐊᕽ	-11.3956
▁ᑳᑮᑭᑫᒋᑳᑌᓯᓄᒃ	-11.3956
▁ᑳᒦᒋᓈᑳᑌᓂᒃ	-11.3956
▁ᑳᒪᓂᑑᑫᐙᒡ	-11.3956
▁ᑳᒫᒪᐌᓄᐙᒡ	-11.3956
▁ᑳᒫᒪᐎᒪᒑᑎᓯᒡ	-11.3956
▁ᑳᒫᓈᑕᒃ᙮	-11.3956
▁ᑳᔑᑎᐯᑖᑯᓯ	-11.3956
▁ᑴᑭᑳᐸᐎᑕᐙ	-11.3956
▁ᒉᕒᐊᒫᔭ	-11.3956
▁ᒋᐅᐱᑭᔦᒃ	-11.3956
▁ᒋᐅᑎᔑᓂᔕᐙᑲᓂᒥᒡ	-11.3956
▁ᒋᐊᔕᒥᑣᐸᓐ	-11.3956
▁ᒋᐋᐸᐊᒧᐗ	-11.3956
▁ᒋᐐᓯᓂᔭᓐ	-11.3956
▁ᒋᐸᑕᑯᔥᑳᑯ	-11.3956
▁ᒋᑎᐹᑐᑕᒪ	-11.3956
▁ᒋᒧᔐᔮᐸᒋᑳᑌ	-11.3956
▁ᒎᓬᐃᔭ	-11.3956
▁ᒐᕒᐆᐱᒪ	-11.3956
▁ᒦᑭᓱᒫᐙᒡ	-11.3956
▁ᒪᔥᑲᐌᑕᓐ	-11.3956
▁ᒫᐃᓬᐄᑕ	-11.3956
▁ᒫᒪᑳᑌᑕᒨᐞ	-11.3956
▁ᓂᐐᑕᓄᑮᒫᑲᓂᓈᓐ	-11.3956
▁ᓂᐐᒋᐅᑌᐺᑕᒨ	-11.3956
▁ᓂᐯᐎᓈᑯᕽ	-11.3956
▁ᓂᑌᐃᓈᓂᓐ	-11.3956
▁ᓂᑌᐃᓈᓂᕽ	-11.3956
▁ᓂᑎᑭᑐᒥᓐ	-11.3956
▁ᓂᑕᒑᑾᓐ	-11.3956
▁ᓂᑕᓄᑮᐎᓐ	-11.3956
▁ᓂᑭᔐᒪᓂᑑᒥ	-11.3956
▁ᓂᒥᔅᑶ	-11.3956
▁ᓂᔥᑮᔑᑯ	-11.3956
▁ᓃᑕᓇᒥᐋᓈᓂᒃ	-11.3956
▁ᓇᐃᓂᑏᐎᑲᒥᑰᓐ	-11.3956
▁ᓇᑴᑕᐎᔑᒃ	-11.3956
▁ᓈᐱᑕᓬᐋᐃ	-11.3956
▁ᓭᐱᔪᓬᐊᓐ	-11.3956
▁ᓰᑲᐊᑕᐙ	-11.3956
▁ᓰᑲᐊᑖᑰᔮᓐ	-11.3956
▁ᓵᑲᐃᑲᓂᑳᓀᔅ	-11.3956
▁ᓵᒐᓰᐎᓂᓂᐗ	-11.3956
▁ᓵᓵᑭᒋᓂᔕᐙ	-11.3956
▁ᔂᑕᒦᕽ	-11.3956
ᐅᔑᐲᐊᒫᑰᓰ	-11.3956
ᐊᑕᐙᐸᒣᒃ	-11.3956
ᐊᓃᐲᔑᐎ	-11.3956
ᐋᓇᐌᓂᒫᒡ	-11.3956
ᐋᔩᑕᐱ	-11.3956
ᐐᒋᐅᒌᒫᑲ	-11.3956
ᐐᓴᑳᐱᓇᓂ	-11.3956
ᐗᑫᐎᑭᑖᓱ	-11.3956
ᑎᐯᑖᓱᐎᓇᓐ᙮	-11.3956
ᑕᒀᑲᒥᓂᑳᑌ	-11.3956
ᑫᒋᓈᐁᓂ	-11.3956
ᑮᐅᒋᒌᑾᓇᐲᑕ	-11.3956
ᑮᔫᑕᒥᑰ	-11.3956
ᑲᑮᓇᐎᔥᑳᒋ	-11.3956
ᑲᑳᓍᐲᑲᐊᔐ	-11.3956
ᑲᑴᑲᔥᑭᒥ	-11.3956
ᒪᐗᑎᔑᐌ	-11.3956
ᒫᑕᓄᑮᔮᓐ	-11.3956
ᓃᓵᒪᒋᐌ	-11.3956
ᓈᑕᑳᒣ	-11.3956
ᓈᓈᑲᒋᐃᑎᓱ	-11.3956
▁ᐁᐙᓯᑌᒃ	-11.3956
▁ᐁᑾᔮᒋ	-11.3956
▁ᐁᓇᒥᐁᐙᑎᓯ	-11.3956
▁ᐃᔑᓂᑳᓂᑰ	-11.3956
▁ᐄᓬᐋᐃ	-11.3956
▁ᐅᑑᐱᓯᑲ	-11.3956
▁ᐅᑭᔐᒪᓂᑑᐙᑎᓯᐎ	-11.3956
▁ᐅᑮᒫᒪᑳᓯᑕ	-11.3956
▁ᐅᓀᓯᒪ	-11.3956
▁ᐅᓈᓈᑲᑕᐌᑕᒧᐎᓂ	-11.3956
▁ᐅᔔᒥᓈᐴ	-11.3956
▁ᐊᐌᓀᓂᐎᔭᓐ	-11.3956
▁ᐊᐹᐃᒐ	-11.3956
▁ᐌᒌᒪᑲᓄᑴᓐ	-11.3956
▁ᐙᐸᑕᐃᑰᐎᓯ	-11.3956
▁ᐱᒣᑕᑫᓐ	-11.3956
▁ᐲᑎᑲᔑ	-11.3956
▁ᐸᑭᑎᓐ	-11.3956
▁ᐸᕒᐃᒋᔭ	-11.3956
▁ᑕᐱᓯᑕᒻ	-11.3956
▁ᑫᐴᓂᐊᔮᓯᓂᓂ	-11.3956
▁ᑫᓀᓴᕒᐃ	-11.3956
▁ᑭᑌᐺᔦᓂᒥ	-11.3956
▁ᑭᑕᐲᑌᑖᑯᓯ	-11.3956
▁ᑭᑮᐃᔑᓰᑲᐊᑖ	-11.3956
▁ᑭᒋᐅᔑᐲᐃᑲ	-11.3956
▁ᑭᓃᑳᓂᓰᒥ	-11.3956
▁ᑳᐃᔑᑲᒀᑕᑭᓭᔮ	-11.3956
▁ᑳᐅᒌᓱᐌᐎᓂ	-11.3956
▁ᑳᐊᒑᑯᐌᑖ	-11.3956
▁ᑳᐊᒑᑯᐗ	-11.3956
▁ᑳᐱᓈᓯᑲᐎᒡ	-11.3956
▁ᑳᑭᑌᑖᑯᓯᐙᒡ	-11.3956
▁ᑳᑲᒀᓂᓴᑫᑖᑾ	-11.3956
▁ᑳᔮᓇᐌᑖᑯᓯ	-11.3956
▁ᒋᑭᐱᔥᑲ	-11.3956
▁ᒌᒫᓇᓐ	-11.3956
▁ᒥᓄᒫᓯᑲ	-11.3956
▁ᒪᓂᒎᔕ	-11.3956
▁ᓂᑕᐱᓅᒌᔑ	-11.3956
▁ᓂᑫᑌᔭᐋᒥᓈᐸ	-11.3956
▁ᓂᑮᐙᐸᒥᒫ	-11.3956
▁ᓃᑕᓇᒥᐋᓈᓐ	-11.3956
▁ᓯᓬᐆᐗ	-11.3956
▁ᓵᑲᑮ	-11.3956
▁ᓵᔨᒪ	-11.3956
▁ᔔᒥᓈᐳᐗᔕᓐ	-11.3956
ᐃᓉᒪᑲᓐ	-11.3956
ᐃᔑᐌᐱᓯᔮᓐ	-11.3956
ᐋᐱᔅᑯᓂ	-11.3956
ᐳᑾᓯᓄᒃ	-11.3956
ᑑᑖᑰᔮᕽ	-11.3956
▁ᐃᔅᕒᐃᔭᓬᐃᓂᓂᐗ	-11.3956
▁ᐄᒋᑉ	-11.3956
▁ᐆᑌᓈᐎᑭᒫ	-11.3956
▁ᐋᓬᐃᑭᓵᑕᕒᐃᔭ	-11.3956
▁ᐹᐃᓬᐄ	-11.3956
▁ᑌᐱᑎᑳᕽ	-11.3956
▁ᑭᐐᑕᓄᑮᒫᑲᓐ	-11.3956
▁ᑭᑑᓃᒑᓂᓯᒥᑯ	-11.3956
▁ᑭᑖᐃᑭᑐᓰᒥᓐ	-11.3956
▁ᑭᒪᒋᑑᑕᒧᐎᓂᐙᕽ	-11.3956
▁ᑭᓇᓈᑯᒥ	-11.3956
▁ᑳᔑᑭᑫᓂᒥ	-11.3956
▁ᒋᐱᒥᐎᑕᒪᐙ	-11.3956
▁ᒋᓰᑲᐊᑖᑯ	-11.3956
▁ᓃᓴᔭᐄ	-11.3956
▁ᓰᑲᐊᑖᑯᐙ	-11.3956
▁ᓴᑭᓂᑫᓂ	-11.3956
ᐱᒪᓄᑮ	-11.3956
ᒋᑯᓇᔮ	-11.3956
ᒥᔅᑴᑭ	-11.3956
ᒪᒌᐗᑮ	-11.3956
ᓴᓰᒀᓈᐙᒡ	-11.3956
▁ᐁᑲᑲᓅᓂᑎᓂᒡ	-11.3956
▁ᐁᓈᐱᓀᓂᒡ	-11.3956
▁ᐅᑮᒥᓄᐊᔮᐋᐞ	-11.3956
▁ᐱᓯᑕᐎᔑᓐ	-11.3956
▁ᐲᒋᓇᐤ	-11.3956
▁ᑭᐌᓅᑎᓯᐎᓂᐙᓐ	-11.3956
▁ᑭᑲᐐᒌᐎᑯᐙᒻ᙮	-11.3956
▁ᑮᒨᒋᔥᑮᐎᓂ	-11.3956
▁ᑲᑴᔕᔒᐯ	-11.3956
▁ᑳᐃᓈᒋᒧ	-11.3956
▁ᑳᓃᑳᓂᓰᑲ	-11.3956
▁ᒋᐊᓄᑳᑕᒫᕽ	-11.3956
▁ᒪᑭᓯᓇᓐ	-11.3956
▁ᓵᒐᓰᐗ	-11.3956
ᐊᓄᑲᐗᒃ	-11.3956
ᐊᔦᑯᓯ	-11.3956
ᐸᐹᑲᑮᑴ	-11.3956
ᑎᐹᑐᑕᒫ	-11.3956
ᑮᑫᔩᑲ	-11.3956
ᑲᑮᐹᒋᑮᔗ	-11.3956
▁ᐁᐐᓂᓯᑯᒡ	-11.3956
▁ᐁᔑᓯᑌᑳᐸᐎ	-11.3956
▁ᐁᔥᐯᑖᑯᓯ	-11.3956
▁ᐅᑕᔮᒀᒣ	-11.3956
▁ᐆᑌᓇᐌᓴᓐ	-11.3956
▁ᐸᐹᒣᑕᑫ	-11.3956
▁ᑭᐱᒫᑎᓯᐎᓂᓈᓂᓐ	-11.3956
▁ᒥᓯᑌᔥᑳᓂ	-11.3956
▁ᓂᑲᑮᑴᐎᓂ	-11.3956
ᑭᑎᑳᓀᓯ	-11.3956
ᑮᒫᓀᑖᒻ	-11.3956
▁ᐁᐐᒦᓂᓀᒃ	-11.3956
▁ᐁᑮᐃᓈᐱᒡ	-11.3956
▁ᐁᔑᓂᑳᑌᓂᑭᓐ	-11.3956
▁ᑭᑎᓂᓯᓅᓂᓂᒻ	-11.3956
▁ᒪᒫᑳᔥᑳᓂᒃ᙮	-11.3956
ᓈᐗᑴᒃ	-11.3956
ᓈᑎᓯᔮᓐ	-11.3956
ᔑᑌᓴᐱᒡ	-11.3956
▁ᒋᑌᐱᓂᑯ	-11.3956
▁ᓂᐐᐃᔑᒋᑫ	-11.3956
▁ᓂᓂᒌᓐ	-11.3956
▁ᑭᑮᓂᓵᐙ	-11.3956
▁ᑮᐊᓅᓈ	-11.3956
ᐅᐸᑫᐎᓯᐎ	-11.3956
ᐗᓯᑖᐌ	-11.3956
▁ᐅᒦᒦᓴᐞ	-11.3956
▁ᐱᒫᐅᑯ	-11.3956
▁ᑮᒪᔥᑲᐎᑮᔗ	-11.3956
▁ᑳᑮᐅᓇᑑᓂᒡ	-11.3956
ᐋᐱᑕᑮᔑᑲ	-11.3956
ᑑᑖᑰᔮᓐ	-11.3956
ᑮᒋᑯᔥᑲᕽ	-11.3956
ᔥᑭᑴᐌᒡ	-11.3956
▁ᐅᑑᑭᒫᐗᐱᐎᓂ	-11.3956
ᑮᔖᑴᓂᒧ	-11.3956
ᒋᑎᐹᒋᒪ	-11.3956
ᒥᓴᐌᑕᒧᐎᓇᓐ	-11.3956
▁ᐁᐊᑌᓂᑭᓐ᙮	-11.3956
▁ᑳᐊᑳᓯᕽ	-11.3956
ᐃᓈᐸᑕᓯᓄᒃ	-11.3956
▁ᐴᓀᒋᑳᑌᐗᓐ	-11.3956
▁ᑳᑮᐃᔑᒪᒋᑑᑕᒥᓂᒡ	-11.3956
ᒉᑭᐲᓈ	-11.3956
▁ᑳᐃᔑᐐᐸᑲᒥᑳᓂᒃ	-11.3956
▁ᑳᒫᒪᐎᒪᔥᑲᐌᑖᑯᓯᒡ	-11.3956
▁ᒋᒪᒋᑑᑕᒥᓂᒡ᙮	-11.3956
▁ᓂᐱᒥᓂᔕᐙ	-11.3956
ᒪᑲᓯᓄᑭᓐ	-11.3956
ᓇᓈᑯᒥᓐᒡ	-11.3956
▁ᐅᑮᐙᐸᒥᑯᓰᓐ	-11.3956
▁ᐅᒥᓴᐌᑕᒧᐎ	-11.3956
▁ᐊᓴᑉ	-11.3956
▁ᑮᐃᓂᑖᑾ	-11.3956
ᐋᓇᐌᓂᑎᓱ	-11.3956
▁ᐅᑭᒋᓂᔥᑳᑎᓯᐎᓐ	-11.3956
▁ᑮᒥᓄᔭᔮ	-11.3956
▁ᑳᐅᐐᒋᑭᐌᑎ	-11.3956
▁ᑭᐙᐎᔐᓂᒥ	-11.3956
▁ᑳᐅᑌᑌᒫᐎᒡ	-11.3956
▁ᑳᒪᓯᓂ	-11.3956
▁ᒣᔥᑲᐌᑖᑯᓯ	-11.3956
ᐸᑴᐱᓈᓐ	-11.3956
ᓇᐄᑭ	-11.3956
▁ᒣᓴᐌ	-11.3956
▁ᒫᒪᑳᒋᒋᑫᒡ	-11.3956
▁ᐊᓇᒥᐁᑕᒪᐎᔑᓈᒻ	-11.3956
▁ᑫᕒᐊᓵ	-11.3956
▁ᓬᐄᐸᔾ	-11.3956
▁ᓵᕒᑎ	-11.3956
ᐋᓇᐌᑕᒧᐙᒡ	-11.3956
▁ᒪᓂᑑᑳᓂᕽ	-11.3956
ᑮᔥᑳᔭᐙ	-11.3956
▁ᐯᔭᑕ	-11.3956
▁ᑖᐃᓀᑖᑾᓯᓅᓐ᙮	-11.3956
▁ᐐᑾᑫᐎᑭᒫ	-11.3956
▁ᒋᒪᐎᔂ	-11.3956
▁ᒫᒌᓈᑫᒃ	-11.3956
ᒫᒪᑳᑌᑖᑾ	-11.3956
▁ᑲᓬᐋᑎᔭ	-11.3956
▁ᒦᓂᔖᑎ	-11.3956
▁ᑳᐅᔑᐲᐃᑳᑌᓂᑭᓐ	-11.3956
▁ᐗᒌᕽ	-11.3956
▁ᑮᑴᑭᑖ	-11.3956
▁ᑳᑭᑫᑖᓱ	-11.3956
▁ᒋᑲᒀᑕᑭᐃᑰᔦᒃ	-11.3956
▁ᒫᒪᑳᒋᒋᑫᓂᒡ	-11.3956
▁ᓂᑖᒪᒋᑑᑕᓰ	-11.3956
ᐌᐱᓂᒥᓐᒡ	-11.3957
ᐐᓃᑳᓀᑖᑯᓯᒡ	-11.3957
▁ᐅᓈᑯᓂᑫᓂᒡ᙮	-11.3957
▁ᒋᑭᑭᓄᐎ	-11.3957
ᐅᑎᔑᐌᒪᑲᓂᓂᑭᓐ	-11.3957
ᑭᑫᒋᑳᑌᓂᒃ	-11.3957
▁ᐁᐙᐱᔥᑭᓯ	-11.3957
▁ᑳᔒᑫᑕᕽ	-11.3957
▁ᑭᑫᑌᔭᐋᒥᓈᐸ	-11.3957
ᒨᔥᑭᓀᔥᑳᑰ	-11.3957
▁ᒪᓂᑑᑫᐎᓐ	-11.3957
ᐃᔑᓂᑳᓂᑯᒡ	-11.3957
ᓃᔓᑮᔑᑾᑳ	-11.3957
▁ᐋᕒᑭ	-11.3957
▁ᑮᓯᓶ	-11.3957
ᑭᓰᔮᐹᐗᓱ	-11.3957
▁ᑫᑮᐹᑎᓯ	-11.3957
ᒦᓂᑰᐎᔅ	-11.3957
▁ᐃᔑᑣᐎᓇᓐ	-11.3957
▁ᐅᑖᓇᐌᓂᒫ	-11.3957
▁ᒋᐅᓈᑯᓂᑫᐙᒡ	-11.3957
▁ᒋᐅᑭᔐᒪᓂᑑᒥᑯᒡ	-11.3957
▁ᐅᑖᓇᑮ	-11.3957
▁ᑕᒥᓉᑕᒨ	-11.3957
▁ᑳᐃᑴᐎ	-11.3957
▁ᑳᐱᒧᓭᓯᒀ	-11.3957
ᐙᐎᔐ	-11.3957
▁ᒋᑎᐯᓂᒥᓀᒀ	-11.3957
▁ᐅᑲᐊᔮᓈᐙ	-11.3957
▁ᐁᑮᐅᑯᓯᓯᒥᑯᒡ	-11.3957
▁ᒋᐅᒋᑭᑫᓂᒥ	-11.3957
ᒪᔥᑲᐎᑌᐁᐋ	-11.3957
ᔭᑌᓈᑾᓐ	-11.3957
▁ᒋᐸᐹᒥᑕᓯ	-11.3957
▁ᐅᓈᑯᓇ	-11.3957
▁ᐱᒀᐎᑲᓀᒥᑕᑎᒻ	-11.3957
▁ᒨᓯᓯ	-11.3957
ᐊᔫᒌ	-11.3957
▁ᐅᒦᑳᓱ	-11.3957
▁ᑳᑑᑕᐗ	-11.3957
ᒥᓉᑕᒥᐋ	-11.3957
▁ᐁᑮᐃᓇᓅ	-11.3957
▁ᒦᑭᐙᓇᓐ	-11.3957
▁ᐊᔓᐎ	-11.3957
▁ᑭᑎᔑᐊᔮᓰᒻ	-11.3957
▁ᐁᐃᓈᐱᒡ	-11.3957
▁ᑎᓄᐎᒥᓇᓐ	-11.3957
▁ᑳᐸᐹᒥᓭ	-11.3957
ᒪᒋᑭᓀᐱᑯᔥ	-11.3957
▁ᐸᑫᐎᓂᑎᐎᓐ	-11.3957
▁ᑯᑖᓀᑕᒧ	-11.3957
▁ᑲᓇᐙᐸᑕᒧ	-11.3957
▁ᐅᒋᑴᑮ	-11.3957
▁ᒋᐅᑖᐱᓂᒥᓐᒡ	-11.3957
▁ᑭᑮᐙᐸᒥ	-11.3957
ᑫᓂᒥᑯᓰᒃ	-11.3957
ᒫᔑᓭᐙᒡ	-11.3957
▁ᐅᑕᔕᒫ	-11.3957
▁ᑳᓬᐃᐅ	-11.3957
ᑮᐅᑎᑖᔑ	-11.3957
▁ᓈᓈᑲᑕᐌᑕᒥᓂᒡ	-11.3957
ᒦᒋᓐ᙮	-11.3957
ᓈᐱᔥᑲᐎ	-11.3957
▁ᑭᔥᑮᔑᒃ	-11.3957
▁ᑮᔫᑌ	-11.3957
▁ᑲᔥᑮᑎᐱᑭᓯᐎᓐ	-11.3957
ᑭᓀᐱᒃ	-11.3957
▁ᐃᓈᐸᑕᓐ	-11.3957
▁ᒋᑮᐊᔮᐸᓐ	-11.3957
▁ᑫᑫᑕᕽ	-11.3957
▁ᐴᓀᑕᒪᐎᒃ	-11.3957
▁ᐅᑎᐯᓂᒫᐞ	-11.3957
▁ᑳᐗᓂᔑᓂᓂᒡ	-11.3957
▁ᐊᓈᒪ	-11.3957
ᑮᐃᔑᐊᔓᑕᒫᑫ	-11.3957
▁ᒋᐅᒋᑲᔥᑭ	-11.3957
▁ᑭᑎᐯᓂᒥᑯᐙ	-11.3957
▁ᑳᐙᐱᓯᐌᒃ	-11.3957
▁ᓂᑲᒧᓂᕽ	-11.3957
ᐲᒋᓂᔕᐗ	-11.3957
▁ᐹᐱᓄᑕᐙᐙᓐ	-11.3957
▁ᐊᔭᐋᐎᔑ	-11.3957
ᐐᒋᑳᐸᐐᑕᐙ	-11.3957
▁ᑳᐙᐱᔥᑭ	-11.3957
▁ᐅᑮᓇᑴᑕᐙᐙ	-11.3957
▁ᒋᐱᒧᓭᔭᓐ	-11.3957
▁ᒋᐸᑭᔑᒫ	-11.3957
ᑭᐱᔥᑲᐎ	-11.3957
▁ᓬᐄᐸ	-11.3957
▁ᐅᑮᑲᑴᒋᒫᐞ	-11.3957
▁ᑕᒫᒌᒋᑲᓂᐎ	-11.3957
▁ᐁᔑᐯᐯᔑᑯ	-11.3957
▁ᑳᑌᐺᑕᐎ	-11.3957
▁ᒋᒫᒌᔮᔑ	-11.3957
ᑾᐃᑫ	-11.3957
ᓇᐃᓂᑫᐎ	-11.3957
▁ᐅᒥᓍᐸᒥᑰ	-11.3957
▁ᓂᑮᓂᑉ	-11.3957
▁ᐅᐌᓅᑎᓯᐎᓐ	-11.3957
▁ᑳᐱᒫᑕ	-11.3957
ᒪᒪᔦ	-11.3957
▁ᓂᒪᔥᑲᐎᓰᐎᓐ	-11.3957
ᐱᑭᑭᓯᒡ	-11.3957
ᒥᔕᑳᒡ	-11.3957
▁ᐅᒑᓂᒣᑕᑫᒃ	-11.3957
ᐸᑫᐎᓈ	-11.3957
▁ᑭᑭᓇᐙᑕᔕᑫᔓᑰᐎᓐ	-11.3957
ᐸᑭᑎᓈᔂᓂᐎ	-11.3958
ᒪᔥᑲᐗ	-11.3958
▁ᐗᐊᐌᑎ	-11.3958
▁ᐲᑎᑫᔥᑲᐙ	-11.3958
▁ᓂᑕᔮᒀᒥ	-11.3958
ᐐᒋᑲᑭᑑ	-11.3958
ᒥᓄᑯᓇᔦᐙᒡ	-11.3958
ᐃᑎᐎᓂᐙ	-11.3958
ᐗᐗᓃ	-11.3958
ᐗᓉᓐ	-11.3958
▁ᐁᔑᒋᑫᔮᓐ	-11.3958
▁ᑭᑮᒥᓇᐃ	-11.3958
▁ᓂᑲᐅᔑ	-11.3958
▁ᑮᓅᑖᑯᓯ	-11.3958
▁ᐲᑕᒪᐎᓐ	-11.3958
▁ᒋᓃᐸᐎ	-11.3958
▁ᐐᔮᔅ	-11.3958
▁ᒥᓄᐃᔑᐌᐱᓯᐎᓐ	-11.3958
ᓵᑭᐃᐌᔦᒃ	-11.3958
ᑭᑲᑴᒋᒥᑰ	-11.3958
▁ᐅᓇᑕᐌ	-11.3958
ᐱᒥᐎᓈᐙᒡ	-11.3958
ᑑᑕᐎᔭᒥᑣ᙮	-11.3958
ᑰᑰᔑ	-11.3958
▁ᐁᔑᑭᑫᓂᒥ	-11.3958
▁ᑫᐱᒫᑎᓯᒡ᙮	-11.3958
▁ᑳᐊᓇᒥᐋᓯᒀ	-11.3958
▁ᐲᑎᑲᓂᑯᐙ	-11.3958
ᐲᑎᑳᑯ	-11.3958
ᐌᐱᔥᑲ	-11.3958
ᐸᑭᑎᓂᑳᑳᓂ	-11.3958
▁ᑳᑎᐯᒋᑫᔭᓐ	-11.3958
ᐊᑾᓇᐃᑳᑌ	-11.3958
▁ᐹᕒᑎ	-11.3958
ᓯᐎᒥᓐᒡ	-11.3958
▁ᒋᐐᑎᑫᐸᓐ	-11.3959
ᑲᑴᒋᒪᒃ	-11.3959
ᐸᐯᒌ	-11.3959
▁ᒋᒫᒫᑕᐆ	-11.3959
▁ᑭᒋᐸᐸᑭᓀ	-11.3959
▁ᑳᑮᐃᔑᐊᔓᑕᒫᑫᓂᒡ	-11.3959
▁ᑳᑮᐅᒋᒥᓉᑕᒫ	-11.3959
▁ᐊᐸᐱ	-11.3959
▁ᐁᑮᐃᔑᐊᓄᑮᓂᒡ	-11.3959
ᑮᐃᓇᔓᐌ	-11.3959
ᒫᑭᒋᑲᓂᐎᒡ	-11.3959
▁ᐃᔑᑭᑭᓄᐊᒫᑫᐗᒃ	-11.3959
▁ᒋᐸᐹᑾᒋᐱᑑ	-11.3959
▁ᐁᑌᐺᒪᑲᒃ	-11.3959
▁ᓂᐯᔑᑯᓰ	-11.3959
▁ᒋᑾᔭᒀᑎᓯᔭᕽ	-11.3959
ᐐᒋᐃᔑᓈᒻ	-11.3959
▁ᑳᐙᐱᓯᒃ	-11.3959
ᒥᑎᑐ	-11.3959
▁ᐅᒫᓇᒑᓂᔑᒥ	-11.3959
ᐌᓅᑕᒃ	-11.3959
▁ᐊᑰᓯ	-11.3959
▁ᐁᑮᐗᓂᔑ	-11.3959
ᔮᒋᒧ	-11.396
ᔮᐸᑎᓯ	-11.396
ᐸᐹᒣᑕᓰ	-11.396
ᓇᐊᒧᐙᒡ	-11.396
▁ᓇᐁᑖ	-11.396
ᒥᑲᐎᓐᒡ	-11.396
ᓈᑯᔅ᙮	-11.396
▁ᑫᓃᑳᓂᓯ	-11.396
ᐱᒫᒋᐃᑰᔭᓐ	-11.396
ᒨᔑᑑ	-11.396
▁ᐃᔑᓇᑲᑕᒧ	-11.396
▁ᑳᑖᓄᑕ	-11.396
ᑲᑳᓱᒥᑰᒻ	-11.396
ᒥᓄᑯᓇᔦᒡ	-11.396
ᐯᑭᐃᑰᔭᓐ	-11.3961
ᐗᓂᔑᒥᑯ	-11.3961
▁ᓵᒥᔫ	-11.3961
▁ᒫᓀᑕᒧᐎᓐ	-11.3961
ᑲᓅᓂᓈᓐ	-11.3961
ᐌᔩᐱ	-11.3961
▁ᐁᔑᐲᐃᑫ	-11.3961
ᑎᓲᒪᑲ	-11.3962
▁ᐅᑲᔥᑭᑑᓈᐙ	-11.3962
▁ᒋᑎᓄᐎᔭᕽ	-11.3962
ᐃᔑᐎᓂᑰᔦᒃ	-11.3962
▁ᒋᐋᐸᒋᐃ	-11.3962
ᐗᓂᐎᓈᐙ	-11.3962
ᒦᒋᓈᐙ	-11.3962
ᑭᑎᑳᓈᑎᒃ᙮	-11.3962
▁ᐁᐸᑭᑎᓈᓱ	-11.3962
▁ᐃᓉᑑ	-11.3962
▁ᑖᐌᑕ	-11.3962
ᓴᓰᓶ	-11.3963
ᔑᑌᐺᑕᒪᓐ	-11.3963
▁ᐸᑯᐲᐸ	-11.3963
ᓯᓄᐌᒃ	-11.3963
▁ᐁᐐᒋᐊᔮᒥ	-11.3963
ᓇᑲᒌ	-11.3964
▁ᐅᑕᐱᓅᒌᔑᒥ	-11.3964
ᑯᔥᑯᐌᐱ	-11.3964
ᒥᑳᑯᒡ	-11.3964
▁ᐋᓇᒥᓯᐎ	-11.3964
ᓃᑲᑌ	-11.3964
ᓇᓇᐁᑕᒥᐋᒡ	-11.3964
▁ᒪᒥᔑᒫᐙ	-11.3964
▁ᒋᒫᒪᑳᒋᒋᑫ	-11.3964
▁ᐊᐹᓬᐊ	-11.3965
▁ᑯᑖᒋᐎᓐ	-11.3965
ᓂᐳᔭᕽ	-11.3965
ᓂᑖᐎᑮ	-11.3965
ᑮᐅᓇᑭᒥᑯᒡ	-11.3965
ᓃᑳᓂᓰᑲᑕᐙ	-11.3966
ᐐᓯᓂᓈᓂᐗᓂᓂᒃ᙮	-11.3966
ᓅᑕᐎᔦᒃ	-11.3966
ᐅᒌᑳᑯᐙ	-11.3966
ᑕᑯᓂᒥᒡ	-11.3967
▁ᑭᐸᑭᑎᓇᒫᑰ	-11.3967
▁ᑎᐯᑖᑾ	-11.3967
▁ᑲᑲᓅᓈᐙ	-11.3967
ᐊᑕᐌᓂᒥᔭᓐ	-11.3968
ᐐᒋᔭᔮᒫ	-11.3968
ᒫᒪᐎᐃᑎ	-11.3968
▁ᑭᓅᑕᐙ	-11.3968
▁ᑳᑕᓱᐃᔑᓈᑯᓯ	-11.3968
▁ᒋᐃᓀᑕᒧ	-11.3968
ᓀᑖᑯᑑᓐ	-11.397
ᐃᔑᓂᔕᐊᒪᐎᓀᒃ	-11.397
ᐱᑭᑭᔅ	-11.397
▁ᒋᐲᑕᒪᐎ	-11.3971
▁ᓂᑮᐃᓀᑕᓰ	-11.3971
ᑮᐃᔑᔕᐌᑖᑯᓯ	-11.3971
▁ᓂᑭᑫᑕᒧᐙ	-11.3972
ᑭᑭᓄᐊᒪᐗᑣ	-11.3972
ᐲᑲᒧ	-11.3973
ᑮᐊᓇᒥᐁᐙᑎᓯ	-11.3973
▁ᐅᑎᓉᐎ	-11.3975
▁ᑭᑫᒋᑫ	-11.3976
ᓂᑖᐎᑭᐊᒡ	-11.3976
ᐸᑾᐊ	-11.3977
▁ᐁᑑᑕᒧᐗ	-11.3977
▁ᑳᑕᓀᑖᑾ	-11.3977
▁ᐅᐐᒌᐙᑲᓇ	-11.3978
ᑲᓅᒋᑫᑕᒫᑯ	-11.3978
▁ᑲᔥᑭᐃᑯᓰ	-11.3978
ᑐᑫᓇ	-11.3979
ᐐᑑᑕᒪᓐ	-11.398
ᐊᔓᑕᒫᑫᔭᓐ	-11.398
ᑕᓇᑮ	-11.398
▁ᑳᔑᐐᒌᐎ	-11.3981
ᓂᓵᐙᐸᓐ	-11.3982
▁ᑲᓇᐌᑖᑯᓯ	-11.3982
ᔥᑳᑯᓰᓈᐙ	-11.3982
ᑯᔥᑯᐎᓂᑯ	-11.3982
ᐅᒋᐱᓱᑫᔑᕽ	-11.3983
ᐅᒋᐱᓂᑯ	-11.3983
ᔮᓇᐌᓂᒫᐙ	-11.3983
ᐅᒋᑭᑫᑖᑾᓂᓂ	-11.3984
▁ᒥᓄᑕᔑᒥ	-11.3984
ᐸᑯᐲᐌᐱ	-11.3984
ᐐᑭᑑᐎ	-11.3986
ᐲᓇᐃᑲ	-11.3986
▁ᑳᓂᔑᐗᓈᒋᐃᐌᒪᑲ	-11.3986
ᐊᔕᑎᓱ	-11.3987
ᑮᐊᔮᐙᐸᓐ	-11.3988
ᐸᑲᑲᒥᑳ	-11.3989
▁ᒋᑑᑕᒧᐗ	-11.3989
ᐸᑭᒋᑳᑌ	-11.3989
▁ᑮᓂᓵᐹᐌᐗ	-11.399
ᑭᒋᓅᒋᐃ	-11.399
ᐅᓶᐌᐱ	-11.3991
ᑭᑭᓄᐊᒪᐗᒀ	-11.3991
ᑕᐸᓭᓂᒧᒡ	-11.3992
▁ᑭᓅᑖ	-11.3992
ᐃᔭᓬ	-11.3993
▁ᑯᒋᑑ	-11.3993
▁ᐅᑖᐱᓂᑰ	-11.3993
ᐆᑌᓈᐗᓂᓂᒃ	-11.3993
ᐸᐸᔕᔐᐙᐙ	-11.3994
▁ᒋᐅᓇᔓᐙᓇ	-11.3995
ᐅᒋᐯᑭᐃ	-11.3995
▁ᐁᔑᒥᓴᐌᑕᒨᒪᑲ	-11.3996
▁ᑯᔥᑯᓯ	-11.3998
ᒥᓄᓈᑾᒃ᙮	-11.4003
ᐊᑐᑕᒪᐎ	-11.4003
▁ᐁᔑᓇᑴᑕ	-11.4004
ᑕᐸᓴ	-11.4005
ᐱᒥᐸᑑ	-11.4005
▁ᑳᐃᔑᑖᓂᐗ	-11.4005
▁ᑭᑖᐃᓈ	-11.4005
▁ᐅᑮᒥᓄᑕᐙ	-11.4006
ᑭᑭᓄᐊᒪᐎᓈ	-11.4006
ᔔᒥᓂᑭᑎᑫᐎᓂᕽ	-11.4007
ᓈᐎᓈᑯᓯ	-11.4008
▁ᐅᒥᓄᒋᑫᐎ	-11.4008
ᒦᑴᒋᐌᑕᒣᒃ	-11.4009
ᑭᐱᔥᑳ	-11.4011
▁ᒋᑎᐸᐊᒪᐗ	-11.4011
ᐯᑌᓈᑾᓂᓂ	-11.4011
▁ᑭᑫᑕᒨᐃ	-11.4012
ᐅᑎᓈᒡ	-11.4014
ᑮᐅᒋᓃᓯ	-11.4014
ᐊᓇᒥᐁᑕᐗᑭᒡ	-11.4015
▁ᐁᐐᓂᔑᐗᓈᒋ	-11.4015
ᐃᓈᔑᒥᓐ	-11.4015
ᐊᓯᑰ	-11.4015
ᑮᐃᔑᓈᑾᓅ	-11.4015
▁ᑭᒪᔥᑲᐎᓰᐎᓂ	-11.4015
ᑭᑭᓇᐙᐸᑕ	-11.4016
ᐅᒥᑮᐙᐱᓀᓂᒡ	-11.4018
ᓵᑭᓯᐋ	-11.4019
▁ᑮᓅᑖᑳᓂ	-11.4019
ᐋᓇᐌᓂᒫᐙᒡ	-11.4019
ᓈᑲᒋᐋᒡ	-11.4019
ᑯᑌᓂᒫᓰ	-11.402
ᐱᒥᐗᓀ	-11.4024
ᓴᒣᕒᐃᔮᐎᑴ	-11.4026
▁ᐁᐗᓂᒫ	-11.4026
ᔕᐌᓂᒥᑰᓐ	-11.4027
ᑕᐗᑌ	-11.4029
ᐐᒌᐎᔑᒃ	-11.403
ᐸᑭᑎᓈᓱᓈᓂᐗᓂᓂᒃ	-11.4031
▁ᐁᑮᐊᔮᓯᐙ	-11.4031
▁ᑳᑮᐊᔨᑑᑕ	-11.4032
ᑭᒋᓅᒋᐋ	-11.4032
▁ᐅᑲᒀᑕᑭᑑᐎᓂ	-11.4033
ᓈᑐᑌ	-11.4033
ᐗᓃᑫᓄᑕᒧ	-11.4033
▁ᐁᑮᒥᑲᐙ	-11.4033
▁ᒦᐁᑕ	-11.4036
ᐋᓉᑕᒪᓐ	-11.4038
ᑮᐅᓀᓂᒥᑯᐙ	-11.404
ᑭᒋᐐᑎᑫᑎ	-11.4041
ᐲᑯᔥᑳ	-11.4048
▁ᑳᑮᐅᑯᓯᓯᒥᑯ	-11.4048
▁ᐅᐐᐋᐸᒋᐋ	-11.4049
ᑑᑕᐎᑎᐸᓐ	-11.405
ᐐᒋᑭᐌᔨᒫ	-11.4052
ᑾᔮᒋᑕᒫᓱ	-11.4054
▁ᑎᐹᒋᒧᐎᓂᓂᐗ	-11.4055
ᐃᔥᒀᐃᔑᓭ	-11.4059
ᑮᑮᔖᒋᐅᓀᓂ	-11.4062
▁ᑫᑌᐊᔓᑕᒫ	-11.4064
▁ᑭᑎᐯᓂᒥᑯᓰ	-11.4064
ᓈᓯᑫ	-11.4065
ᑭᑎᑫᐗᑮᕽ	-11.4068
ᐅᔑᐲᐃᑫᐎᓇᓐ	-11.4069
ᓴᑲᐅᓈᑎᒃ	-11.407
▁ᑕᑯᓂᑰ	-11.4079
▁ᐁᓃᑳᓀ	-11.4081
ᐱᒥᓂᔕᐙᐙ	-11.4082
▁ᑳᓵᒥᓇ	-11.4084
ᐊᑯᓈᑾᒃ	-11.4085
ᑯᑖᓀᑖᑯᓯ	-11.4085
ᒋᐃᒥᓐᒡ᙮	-11.4088
▁ᑳᒪᔥᑲᐌᑖᑾ	-11.4091
ᑮᒪᒋᑑᑕᒧᐙᒡ	-11.4096
▁ᐐᔖᒥ	-11.4097
ᐊᔭᐋᐎᒡ	-11.4099
▁ᔔᒥᓂᑭᑎᑫᐎ	-11.41
ᐗᔦᔑᒫᐙ	-11.4101
ᐃᔑᑯᓇᔦᒡ	-11.4104
ᒪᒉᑖᑯᓯ	-11.4105
ᒥᒋᐯᔑᑾᓂᓂ	-11.411
ᐊᑕᐌᓂᒥᓇᑰᒃ	-11.4113
▁ᐅᓰᑲᐊᑖᑫᐎ	-11.4119
ᑮᐅᔑᐲᐊᒫᓐ	-11.4128
ᐅᔫᓯᒥᑯᒡ	-11.413
ᑮᓂᔥᑭᐃᑯ	-11.4131
ᓇᑕᐌᑖᑯᔅ	-11.4132
▁ᑭᐸᑭᑎᓂᑫᐎ	-11.4133
ᓇᓈᑕᐙᐸᒣᒃ	-11.4134
ᐐᒌᐎᔭᒥᑣ	-11.4134
ᐊᑭᐌᓯ	-11.4135
ᒣᒀᔥᑲᐙᐙ	-11.4136
ᑭᑭᓇᐙᑕᔕᑫᔓᓐᒡ	-11.4137
ᐅᑭᑫᑕᒫᐎᓂ	-11.414
ᑎᓄᐗᓂᓂᒃ	-11.4141
▁ᑳᐊᔨᔑᑖ	-11.4142
▁ᐁᓇᓈᑕᐙᐸ	-11.4144
▁ᐃᓀᒋᑳᑌ	-11.4146
ᐐᒌᐎᔭᒥᓐᒡ	-11.4151
ᓈᑎᓯᓯᒀ	-11.4167
▁ᑭᑎᐸᐊᒫᑰᐎ	-11.4168
ᒪᓈᒋᐋᓯ	-11.417
▁ᐱᒥᔑᒫᐙ	-11.4172
▁ᒥᑲᐙᐙ	-11.4172
ᓵᑭᐊᕽ	-11.4175
▁ᐁᐐᒫᐗᑑ	-11.4177
ᐐᑎᑫᒫᑲ	-11.4178
ᔑᒪᔥᑲᐎᑳᐸᐎᔦᒃ᙮	-11.4186
▁ᑳᒪᒥᔑᒥ	-11.4192
ᑮᐃᓀᓂᒥᑯᒡ	-11.4205
ᔕᐌᓂᒥᓀᒃ	-11.4206
ᒥᔭᔮᐙᒡ	-11.4208
ᑮᐃᔑᐙᐸᒥ	-11.421
ᐅᑌᑌᔭᕽ	-11.4211
▁ᒋᐐᒋᐃᑯᔮ	-11.4215
ᒋᐸᑣ	-11.4221
ᐲᐊᒪᐎᓇᑰᒃ	-11.4226
ᑮᑭᒋᒫᒪᑳᑌᑕᒻ	-11.4227
▁ᐁᐐᑎᑫᓯ	-11.4232
ᑮᐊᒀᓯ	-11.4232
ᒋᒌᒫᓂᕽ	-11.4233
ᑭᒌᑫᑕᒧᐎᓂ	-11.4235
▁ᑳᐅᑕᐗᑳ	-11.4235
▁ᑮᐊᐱᐗ	-11.4236
ᑌᓂᒥᑯᓯᒃ	-11.4238
ᐱᒫᒋᐃᑯᒡ	-11.4242
▁ᐅᑎᓯᑰ	-11.4244
▁ᑭᑭᓄᐊᒫᑰᔭ	-11.4275
ᐅᒌᐱᑯ	-11.4276
▁ᒋᔖᑰᒋᐃ	-11.4299
▁ᑮᑲᒀᑕᑭ	-11.4299
▁ᐅᑆᓇᐎᑑ	-11.4307
▁ᒋᑮᔑᑑᔦ	-11.4332
ᐸᑭᑎᓂᑲᓂᐎ	-11.4336
ᑲᔥᑭᒋᑫᒪᑲᓂᓂ	-11.4341
ᑾᔭᑯᑑᑕ	-11.4343
▁ᓂᑖᐃᓈ	-11.4343
ᐊᑕᐌᓂᒥᓀ	-11.4348
▁ᐁᑲᔥᑭᑑᓯ	-11.4351
ᐃᓀᓂᒪᒃ	-11.4362
▁ᐅᑭᒋᐊᓇᒥᐁᐎᑲᒥᑯ	-11.4367
ᓭᓴᑰᒋ	-11.4384
ᑮᐙᐱᓯᒃ	-11.439
ᑮᐊᑐᒥᑯᐙ	-11.4393
ᑮᔥᑭᑲ	-11.4408
ᐅᑕᓉ	-11.4423
ᐴᔔᐃᑯᒡ	-11.4429
ᑭᑫᓂᒫᓯᐌᒃ	-11.4444
ᒋᐃᐌᐎ	-11.4447
▁ᐐᓯᓃᒥᑯ	-11.4464
ᒦᓂᑎᐸᓐ	-11.448
ᐙᐸᒥᓂᓂᒻ	-11.4502
▁ᒋᐸᑭᒌᓯ	-11.4523
ᐅᒋᑎᐯᑖᑯᓯᓂᒡ᙮	-11.4524
▁ᒨᔥᑭᓀᒪᑲ	-11.4566
▁ᑭᑭᑫᑕᒧᐎ	-11.4567
ᐃᓈᑯᓂᑰᔭᓐ	-11.4587
▁ᐁᑭᑫᑕᓯ	-11.4587
▁ᐁᓂᓯᑐ	-11.46
ᕒᐋᔅᑕ	-11.4608
ᐅᓈᐸᒥᑰ	-11.4614
▁ᑳᐱᐅᑕᑳᓀᓯ	-11.462
▁ᑭᑖᑲᔥᑭᑑᓰ	-11.4624
ᐅᒌᒪᑲᑭᓐ	-11.4637
ᓈᓯᑲᐎᐙᒡ᙮	-11.4638
▁ᐁᒫᒪᑳᑌᑕ	-11.4639
▁ᑳᑮᐃᓈᐱᓀ	-11.4643
ᐌᓂᒫᓐ	-11.4643
ᐐᒌᐎᑯᒻ᙮	-11.4648
▁ᐅᑮᐊᔓᑕᒪ	-11.4649
▁ᑭᑎᔑᑎᐯᑖᑯᓯ	-11.4675
ᐸᑭᑎᓂᓐᒡ	-11.4687
▁ᑳᐊᔮᐙᓯ	-11.4688
ᑲᓅᓂᑎᐗᒃ	-11.4696
ᑎᐹᒋᒥᔭᓐ	-11.4701
ᒫᒌᔮᔑᒥᓐ	-11.4706
▁ᑳᑮᐅᒋᐅᔑ	-11.4707
ᐅᔑᐃᓐᒡ	-11.4743
▁ᓃᔓᑮᔑ	-11.4746
▁ᐅᑭᑫᑕᓰ	-11.4765
▁ᑫᐱᒥᐎᓈ	-11.4789
ᒥᓴᐌᑕᒫ	-11.4794
▁ᒋᐐᑕᒪᐎᒪ	-11.4798
ᐋᓇᐌᓂᒥᑣ	-11.4803
ᑕᔑᑕᒫᑎᓂᒡ	-11.4808
ᓇᑭᒋᑳᓱ	-11.4833
ᑌᐺᑕᓯᐌᒃ	-11.485
ᑭᒋᐊᓇᒥᐁᐎᑭᒫᐤ	-11.4864
ᐯᑳᑎᓯᒃ	-11.4868
▁ᑳᑮᒪᒋᑑᑕᒥᓂᒡ	-11.4874
▁ᐋᔮᔐᓂᑎ	-11.4889
ᐸᔕᔐᐅᑰ	-11.492
ᒪᒍᑌᐌᐱᓂ	-11.4956
ᐱᓯᑕᐎᔦᒃ	-11.4957
▁ᑭᐐᒦᓂ	-11.5006
ᔑᒥᓄᒋᑫᔦᒃ	-11.5006
ᑕᓱᐯᔑᑯᔭᕽ	-11.5015
▁ᒋᐐᑕᒪᐗ	-11.5073
▁ᓂᒫᒥᑲ	-11.5132
ᐐᐎᔭᓐ	-11.514
ᑮᐋᒪᒋ	-11.5148
ᑖᐸᒋᑑᓰᒥᓐ	-11.5214
ᐅᔑᐲᐃᑳᑌᓂ	-11.5243
ᓇᓄᑮᔮᓐ	-11.5269
ᑯᓂᑯᐙ	-11.5269
ᑮᐃᔑᒋᑫᔭᕽ	-11.5287
▁ᐁᑮᒫᒌᐸᐃᐌ	-11.5307
▁ᒋᐃᔑᐐᑑᑳᓱ	-11.5341
▁ᒫᒨᔕᑭ	-11.5363
▁ᒋᑭᑭᓇᐙᒋ	-11.537
▁ᓂᑑᑕᓰ	-11.537
ᑲᐃᔑᐎᓂᑯ	-11.5465
ᐊᓇᒥᒋᑳᑌ	-11.5506
ᑎᓱᓰᒥᓐ	-11.5577
ᐱᒫᒋᐃᑰᐎᓯᐸᓐ	-11.5584
ᓂᔑᐗᓈᒋᑑᔮᓐ	-11.5585
▁ᑳᓵᑭᐐᒌᐗ	-11.559
ᓂᔑᐗᓈᒋᒋᑳᑌᒃ	-11.561
ᓈᐱᒋᑫᐙ	-11.5635
▁ᓂᑑᔑᐲᐊᒪᐙ	-11.5638
ᐊᔕᒪ	-11.5678
▁ᑳᑮᐋᓇᐌ	-11.575
ᐗᐱᓂᒡ᙮	-11.5806
▁ᑮᐌᐱᒫᑎᓰ	-11.5885
ᔖᑰᓱᒥᑯᒡ	-11.5907
ᑫᒋᓇ	-11.5912
ᐃᓈᑯᓂᑲᓂᐎ	-11.593
▁ᓂᐸᑯᓭᓂ	-11.5965
ᓃᑳᓂᐐᑕ	-11.5969
▁ᐁᐐᓈᑯᑑ	-11.6013
ᐃᔑᒋᑫᓯᐗᓐ	-11.6035
▁ᒋᑮᐙᐸ	-11.6074
▁ᐁᑮᐅᐱᒣ	-11.6074
▁ᒪᔥᑭᑮᐎᓂᓂ	-11.6159
ᐐᒌᐎᓯᒃ	-11.616
▁ᑳᑎᐹᒋᒥᑯ	-11.6185
ᑭᑫᓂᒥᔭᓐ	-11.6199
▁ᐸᔥᑴᑭ	-11.624
ᑾᔭᑾᑭᒥᑯ	-11.6259
ᑑᑕᐎᓇᑰᒃ	-11.6278
▁ᐁᐐᐃᔥᐯᓂ	-11.6285
ᓂᑲᒨ	-11.6371
ᒦᒋᔮᓐ	-11.6381
▁ᑮᐹᑭᓭ	-11.6411
ᐊᓇᒥᐁᑮᔑᑲᒃ	-11.6412
▁ᑳᐅᐱᓯᑲᓂᐎᓯ	-11.6417
▁ᓂᑲᐱᓯᑖ	-11.6454
▁ᐁᑮᒪᒫᒋᑾᐱᓂ	-11.6494
▁ᒋᑭᑭᓇᐙᑕᔕᑫᔑᑲᓂᐎ	-11.6522
▁ᐱᔑᒀᒋ	-11.6636
ᒫᒌᐸᐃᐌᒡ	-11.6651
ᐃᓇᓯᓇ	-11.6654
ᐅᔑᒋᑲᓂᐎᒡ	-11.668
ᔑᑲᓇᐙᐸ	-11.6752
ᐊᐸᑭᓈ	-11.6764
▁ᑮᐃᔑᒋᑫᓈᓂᐗ	-11.6846
▁ᓂᑮᐃᓀᑖ	-11.6879
ᓇᓄᑮᐙᒡ᙮	-11.6888
ᓇᑲᓂᓯᓅ	-11.6987
ᑮᐃᑭᑐᐸᓐ	-11.6997
ᐃᔑᒋᑫᓈᓂᐗᕽ	-11.7021
▁ᐃᔥᐯᑖᑾᓂᓂ	-11.7041
ᐸᔕᔐᐅᒥᓐᒡ	-11.7068
ᔮᔐᓂᑎᐎᓐ	-11.715
ᑯᑌᓂᒥ	-11.7199
ᒥᓉᑕᒨᐞ	-11.7208
ᐱᓯᑲᒧᐙ	-11.7213
ᒋᐐᑯᐱᓂ	-11.7215
▁ᑕᔑᑕᒫᑎ	-11.7254
ᑕᑯᔑᓅᒫ	-11.7312
▁ᐸᐲᒶᓯᓇᐃᑯ	-11.7314
ᓂᓯᑖᐌ	-11.7328
▁ᑳᑮᐃᓈᒋᒥᑰ	-11.7346
▁ᔖᑯᐙᓈ	-11.7401
ᐅᑯᓯᓯᒫ᙮	-11.7442
ᐯᔣᐸᑕ	-11.7444
ᑲᔥᑭᐁᐎᓯᒡ	-11.7445
ᓇᑕᐌᑖᑯᓯ	-11.7446
ᐐᒌᐎᑯᓈᓂ	-11.7478
ᐃᑭᑐᐙᒡ᙮	-11.7539
ᒫᓱᔦᒃ	-11.7555
ᔑᒪᔥᑲᐎᓰᒪᑲ	-11.7557
ᑖᑯᓯᔮᓐ᙮	-11.7612
ᒪᓂᑑᑫᒡ	-11.7627
ᑮᐱᐊᔮ	-11.7643
ᑮᑲᓅᓂᑯᐙ	-11.7644
▁ᐅᑮᐊᑐᒥ	-11.7671
▁ᑕᐊᔮᒪᑲ	-11.7798
▁ᓂᑮᑭᑭᓄᐊᒫ	-11.7853
▁ᑳᑮᐊᑯᓴᑲ	-11.7869
▁ᓬᐁᔮᑎᓰ	-11.7871
ᑮᐌᐱᒫᑎᓯᐋᓯᐎ	-11.7887
ᑮᐃᔑᐅᑖᐱ	-11.7899
ᑆᓇᐎᑑᓐ	-11.793
ᑌᑖᑾᓂᓂ	-11.795
ᓇᑲᓂᑯᐙ	-11.795
ᑭᑭᓄᐃᑫᒡ	-11.7953
ᐅᒌᑕᒫ	-11.7954
ᐊᑲᐙᑌ	-11.7962
▁ᓂᑲᐋᐸᒋ	-11.7969
ᑮᐃᔑᓂᔕᐙ	-11.7985
▁ᒋᓵᑲᐊ	-11.7997
▁ᑰᐹᑌ	-11.7997
▁ᑳᑮᐃᔑᐲᐊᒪᐎ	-11.8005
▁ᑳᔑᑭᑭᓄᐊᒪᐎ	-11.8019
ᐊᔓᑕᒪᐎᓇᕽ᙮	-11.8022
ᑕᐗᑳᔦᒃ	-11.8034
ᑭᒋᒌᒫᓂ	-11.8044
▁ᑳᑮᐃᔑᐊᔓᑕᒪᐎ	-11.8044
▁ᑳᐐᑌᐱᓇ	-11.8045
ᓈᓈᑲᑕᐌᓂᒪ	-11.805
ᑕᒪᐎᓯᓅᓂᓂᒻ	-11.8052
ᑮᓅᑕᐙᐙ	-11.8056
ᑲᐃᔑᑲᓅᓈ	-11.8057
ᐅᔫᓯᒥᑰ	-11.8057
ᐋᐸᒋᑑᔭ	-11.8074
ᐐᒋᓂᐴᒫ	-11.8084
ᓃᑳᓃᑕᒪᐎ	-11.811
ᒫᓀᓂᒥ	-11.8135
ᐅᒋᒫᓀᑕᒣ	-11.8144
ᑌᐺᑕᒨᒥᓈᓂᒃ	-11.8164
▁ᑳᔔᒥᓂᐗ	-11.8181
▁ᐁᔑᓈᓈᑲᑕᐌ	-11.8185
ᐯᔣᐸᑖ	-11.8188
▁ᐹᑭᑌᓇ	-11.8202
ᐱᔑᒀᒋᑴ	-11.821
5	-11.8213
ᑮᐙᒋᑴ	-11.8216
ᐊᐗᔑᒣ	-11.8217
▁ᐅᑎᓀᑕᒧᐎ	-11.8228
▁ᐁᑭᑑᒪᑲ	-11.8233
▁ᑲᑮᐹ	-11.8248
▁ᑌᐊᐲᑌᑖᑯᓯ	-11.8254
▁ᒋᑮᐃᑭᑐ	-11.8259
▁ᐅᓴᑲᐅᓈ	-11.8281
ᑾᔮᒋᑑᔮ	-11.8291
▁ᑭᑌᐊᐲᑌᑖᑯ	-11.8295
▁ᑭᔕᐌᓂᒥ	-11.8298
▁ᐱᑾᒋᐊᔭᐋᐎᔕ	-11.8302
▁ᑾᔮᒋᑕᒫ	-11.8305
▁ᐁᐐᔕᐌᓂ	-11.8309
▁ᐅᑭᑭᓇᐙᒋ	-11.8319
▁ᐁᐴᔔᐃ	-11.832
▁ᐗᓃᑫᓄᑕ	-11.834
▁ᐲᐙᐱᑴᔮᐲ	-11.8342
▁ᑮᒫᐗᒋᐃᑎᐗ	-11.8342
ᑎᔑᐊᔮᐎᓂᐙ	-11.8343
ᐐᒌᐎᑯᓰᓈ	-11.8349
ᐅᑎᓵᐸᑕ	-11.8353
ᐅᒋᐙᓭᔮ	-11.8364
ᒋᒦᑳᑎᐙᒡ	-11.8369
▁ᒋᒦᑴᒋᐌ	-11.8373
ᐆᑌᓇᐗ	-11.8384
ᑮᐋᓇᐌᓂᒫ	-11.84
▁ᐯᑳᓂᓯ	-11.8405
▁ᐃᔑᑎᐯᑖᑯᓯ	-11.8413
ᒋᒌᑾᓇᐲᑕᐙᐙ	-11.8415
ᑲᔮᓇᐌᓂ	-11.8415
▁ᑭᑎᑫᐗᑲᒥ	-11.8423
ᐙᑎᓯᓂᒡ	-11.8425
▁ᐁᔑᐊᓇᒥᐁ	-11.8428
ᑮᐱᑕᐊᓈ	-11.8428
ᑭᑫᑕᓰᒻ	-11.8429
▁ᑭᒋᒪᓯᓇᐃᑲᓂ	-11.843
ᑖᑯᓯᓯᒀ	-11.8431
ᐃᔑᓂᔕᐊᒫᑯ	-11.8431
ᑌᐱᓇᒫᓱ	-11.8433
ᓃᒑᓂᓴᒃ	-11.8435
ᑮᐅᑖᐱᓇᒧ	-11.8437
▁ᐅᓃᑭᐃᑯ	-11.8441
ᐊᓇᒥᐁᐙᑎᓯᔭ	-11.8444
ᐅᓈᐸᒥᑯᐙ	-11.8444
▁ᐁᔑᐸᑯᓭ	-11.8445
▁ᓂᓱᑎᐸᐃᑲ	-11.8447
ᓂᔕᐊᒪᐙᒡ	-11.8447
ᑮᐋᔑᑌ	-11.8447
ᐅᐸᑴᔑᑲᓂᒥ	-11.8451
ᑭᔐᐹᐗᑲ	-11.8452
▁ᓇᓈᐱᓇᐙᑫ	-11.8452
ᐹᑾᒋᐱᑑᒡ	-11.8452
▁ᐅᔅᑲᑎᑯ	-11.8452
▁ᑕᓱᑎᐸᐃᑲ	-11.8453
▁ᓂᑎᓀᑕᒧᐎ	-11.8453
▁ᑑᐳᐎᓈ	-11.8454
ᑑᐳᐎᓈᑯ	-11.8455
ᑳᐸᐐᑕ	-11.8455
ᑲᔥᑮᑎᐱᑭᓯ	-11.8455
ᓯᑲᐙᑲᓐ	-11.8455
▁ᑳᐐᒋᐅᑌᐺᑕᒨ	-11.8456
ᐗᓈᑕᓯᓂᓂ	-11.8456
ᑎᐹᒋᒨ	-11.8456
ᔑᐊᓇᒥᐁᑕᐗ	-11.8456
▁ᑎᔦᐺ	-11.8456
▁ᑳᑮᒥᑖᔑ	-11.8456
ᐃᑫᐃᐌᓂᒡ	-11.8456
ᐊᑳᓭᑖᑯᓯ	-11.8456
ᑖᑯᓯᓯᒃ	-11.8456
▁ᐁᓈᓴᒪ	-11.8456
ᑕᐯᓂᒧᐎᓂ	-11.8456
ᒐᓬᐃᒪᐞ	-11.8456
ᒪᒥᓍᒋ	-11.8456
ᐅᒋᒌᑾᓇᐲᑖᑰ	-11.8456
ᐅᔖᐗᔥᑾ	-11.8456
ᐊᓂᐅᒻᐺ	-11.8456
ᐋᔩᑕᑑ	-11.8456
ᒀᐙᑕᐱ	-11.8456
ᒌᔥᑰᓱ	-11.8456
ᓃᓯᐌᐱᓂ	-11.8456
ᓵᑳᐲᑭ	-11.8456
ᓶᐲᑭᐌᐱᓇ	-11.8456
▁ᐁᐅᒻᐺ	-11.8456
▁ᐊᓇᒥᐁᒪᑕᐐᐃᑎᓱ	-11.8456
▁ᑫᑲᒀᓂᓴᑫᑖᑾ	-11.8456
▁ᑮᒋᐅᑌᐺᑕᒨ	-11.8456
▁ᒋᑭᐸᐃᑳᑌ	-11.8456
ᐋᓶᔮᐸ	-11.8456
ᐐᒋᑮᐌᐱᒫᑎᓰ	-11.8456
ᐐᒥᒋᐅᑖᒋᐃ	-11.8456
ᐱᑎᑯᐌᓅᑖᑯᓯ	-11.8456
ᐱᓯᔅᑳᐸᑕ	-11.8456
ᐲᐙᑲᒥᐌᐱ	-11.8456
ᐸᑲᒥᓅᐌ	-11.8456
ᑭᑎᑫᐗᓄᑮᐋᑲ	-11.8456
ᑭᑭᓇᐙᒋᐐ	-11.8456
ᑮᐊᒸᐙᐸ	-11.8456
ᑯᔥᒀᐙᒋᐊᔮ	-11.8456
ᒣᔥᑯᑑ	-11.8456
ᓇᓃᓵᓂᐃᑎᓱ	-11.8456
ᓇᓇᒫᔦᓂᒥ	-11.8456
ᓈᓈᑲᑕᐌᓂᑎᓱ	-11.8456
ᔑᓇᐎᐌᐱᓂᑫ	-11.8456
ᔒᐎᑖᑲᓂᐳᑾ	-11.8456
▁ᐁᐲᐙᐱᑯᐗ	-11.8456
▁ᐁᑲᒀᓂᓴ	-11.8456
▁ᐃᓀᑖᑯᓰᒥᓯᓄᐌ	-11.8456
▁ᐐᑯᔥᑳᐃ	-11.8456
▁ᐱᓇᐗᐳᓯ	-11.8456
▁ᑕᑶᔑᓅᒪᑲ	-11.8456
▁ᑭᐯᔑᑴᑖᑯᓯ	-11.8456
▁ᑭᒥᓂᒀᑲᓂᐙ	-11.8456
▁ᑲᐯᔒᐎᑲᒥ	-11.8456
▁ᑳᐋᔂᑾᐃᑳᑳᓂᐗ	-11.8456
▁ᑳᑭᑭᔥᑲᐎᒥ	-11.8456
▁ᑳᑾᔭᒀᑎᓰᐌᑖᑯᓯ	-11.8456
▁ᑳᓂᔑᐙᓈᒋᐃᐌᒪᑲ	-11.8456
▁ᑳᓬᐊᓬᐃᐎ	-11.8456
▁ᓂᑎᔑᐸᑯᓭ	-11.8456
▁ᓂᑭᑭᓄᐊᒫᑯ	-11.8456
▁ᓃᓴᒋᐌ	-11.8456
.	-11.8456
x	-11.8456
ᐃᑭᑐᒥᓐ᙮	-11.8456
ᐃᓈᐸᒋᐃᓀᒃ	-11.8456
ᐃᓉᐌᒧᒋᑫ	-11.8456
ᐃᔑᒋᑫᒪᑲᓯᓄᒃ	-11.8456
ᐃᔑᓂᔕᐙᑲᓂᐎᔮᓐ	-11.8456
ᐃᔥᒀᐱᒫᑎᓯᓰ	-11.8456
ᐅᑎᓇᒫᑫ	-11.8456
ᐅᑕᐗᑳᓂᒥ	-11.8456
ᐅᑭᒋᐅᑭᒫᒥᐙᒡ	-11.8456
ᐅᒋᐱᓂᑯᐙᐱᓀ	-11.8456
ᐅᒋᑾᔭᑾᑭᒫ	-11.8456
ᐅᒋᒌᑾᓂᐸᓂᐅ	-11.8456
ᐅᒋᒑᑭᓱ	-11.8456
ᐅᒌᔑᐱᑑᓂ	-11.8456
ᐅᓵᒣᑕᓰᓈᐙ	-11.8456
ᐅᔑᐲᐃᑳᑌᑭᐸᓃᓐ	-11.8456
ᐅᔖᐗᔥᒀᐱᑭᓯᒡ	-11.8456
ᐅᔥᑮᔑᑯᐗᒃ	-11.8456
ᐊᐱᓯᑌᐱᒡ	-11.8456
ᐊᑮᐙᑎᓯᐙᒡ	-11.8456
ᐊᑲᑌᓂᒥ	-11.8456
ᐊᔨᑭᑐᔮᓐ	-11.8456
ᐊᔨᔑᓂᑫᓂᒡ	-11.8456
ᐊᔨᔑᓅᐌ	-11.8456
ᐊᔨᔥᐱᒀᔥᑾᓂ	-11.8456
ᐊᔫᑴᓄ	-11.8456
ᐊᔫᑸᓄ	-11.8456
ᐊᔮᒀᒥᓰᑲᑕᒧ	-11.8456
ᐋᑕᐌᐊᓰᓐ	-11.8456
ᐌᐸᐊᒪᐙᒡ	-11.8456
ᐐᑌᐺᑕᐎᓰᒻ	-11.8456
ᐐᑑᑯᑖᑎᔦᒃ	-11.8456
ᐐᑕᓄᑮᑎ	-11.8456
ᐐᒋᐊᔮᒫᓈᓂᒃ᙮	-11.8456
ᐐᒋᑎᐯᑖᑯᓰᒥᑯ	-11.8456
ᐐᒋᓂᐴᒪᕽ	-11.8456
ᐐᓂᓯᑎᓱ	-11.8456
ᐙᑌᓇᒫᑯᔭᓐ᙮	-11.8456
ᐙᑳᔮᐱᑭᓯᒋᑲ	-11.8456
ᐙᓴᑯᓀᒋᑳᑫ	-11.8456
ᐱᐅᒋᓈᔕᑮ	-11.8456
ᐱᐊᔨᔑᓭᔦᒃ	-11.8456
ᐱᓯᑖᑰᓯᐌᒃ	-11.8456
ᐱᓯᔅᑫᓂᒫᓯᐗ	-11.8456
ᐲᑖᒋᒧ	-11.8456
ᐲᒋᑭᑎᑳᑌ	-11.8456
ᐴᒀᐱᑭ	-11.8456
ᐸᐃᑳᑳᓂᐗᕽ	-11.8456
ᐸᐲᒶᓯᓇᐃᓐᒡ	-11.8456
ᐸᐸᓰᑴᑲᓈᒫᐙ	-11.8456
ᐸᑫᓂᒧᓰᐗ	-11.8456
ᐸᑯᔑᐃᐌ	-11.8456
ᐸᒀᓀᑲᒥᑯᓂ	-11.8456
ᑌᐺᔦᑕᒪᕽ	-11.8456
ᑌᐺᔦᑖᑾᓂᓂᒃ	-11.8456
ᑌᐺᔦᓂᒣᒃ	-11.8456
ᑎᐯᑖᑯᓰᒣᒀ	-11.8456
ᑎᐯᓂᑎᓲᒪᑲ	-11.8456
ᑎᐹᐸᑎᓱᐙᒡ᙮	-11.8456
ᑎᐹᒋᒥᓀᒃ	-11.8456
ᑎᓇᒫᓱᔮᓐ	-11.8456
ᑑᑭᒫᑲᑕᐙ	-11.8456
ᑕᒫᓲᒪᑲᓯᓅ	-11.8456
ᑕᔑᐱᐴᓂᔑᔮᓐ	-11.8456
ᑖᐲᐸᐋᐙᒡ	-11.8456
ᑫᒋᓈᐁᑕᒫ	-11.8456
ᑫᒋᓈᐃᓂᓂᒻ	-11.8456
ᑭᐸᑰᑌᓂᒃ	-11.8456
ᑭᑎᑳᑕᓯᐙᓐ	-11.8456
ᑭᑖᐸᒋᐋ	-11.8456
ᑭᑫᓂᒥᑰᔮᕽ	-11.8456
ᑭᑭᓄᐃᑳᑌᓂᑭᓐ	-11.8456
ᑭᑳᓄᒀᓈᑕ	-11.8456
ᑭᒋᐅᓂᔑᔑᐌᑖ	-11.8456
ᑭᒋᐊᓇᒥᐁᐎᑲᒥᑯᐗᕽ	-11.8456
ᑭᒋᐊᔭᐋᒥᐙᐞ	-11.8456
ᑭᒑᐱᐌᐸᑲ	-11.8456
ᑭᒥᐗᓄᑫ	-11.8456
ᑭᓍᐲᑲᐊᔐ	-11.8456
ᑮᐃᓇᑖᐙᑳᓂᐗ	-11.8456
ᑮᐅᔑᐲᐋᓐ	-11.8456
ᑮᐊᐲᒑᓂ	-11.8456
ᑮᐊᑕᑭᑫᓂᒫ	-11.8456
ᑮᐊᓇᒥᐁᐎᑭᒫᐎᓰ	-11.8456
ᑮᐋᐸᒋᒋᑳᑌᑭᓐ	-11.8456
ᑮᐙᑎᓰᑴᐎ	-11.8456
ᑮᑭᑎᒫᑭᓈᑰ	-11.8456
ᑮᑲᑮᐹᑎᓯ	-11.8456
ᑮᑲᑴᓂᔑᐗᓈᒋ	-11.8456
ᑮᔑᔔᔮᐱᓂ	-11.8456
ᑮᔥᑭᑴᑕᐅ	-11.8456
ᑰᐹᒋᓭᐗ	-11.8456
ᑲᐙᑎᓯᓯᒀ	-11.8456
ᑲᑎᑾᓇᑭᓯ	-11.8456
ᑲᑮᑴᓄᑕᐎᓐᒡ	-11.8456
ᑲᑮᑴᔮᓐ	-11.8456
ᑲᑲᓅᓇᒃ	-11.8456
ᑲᑳᓯᐊᒪᐙ	-11.8456
ᑲᒀᑕᑭᓭᔦᒃ	-11.8456
ᑲᒥᑭᐱᒋᑫᒡ	-11.8456
ᑲᓇᐎᔥᒀᑕᐌ	-11.8456
ᑲᔥᑮᑎᐱᑫᑖᑾᓂᓂ	-11.8456
ᑾᔭᒀᓂᒃ	-11.8456
ᒀᔥᑴᐱ	-11.8456
ᒉᑭᔥᑳ	-11.8456
ᒋᐅᑑᑭᒫᒥᔦᒃ	-11.8456
ᒋᒪᓂᒎᔑ	-11.8456
ᒋᔕᐌᓂᑎᔦᒃ	-11.8456
ᒣᔥᑯᒋ	-11.8456
ᒥᑕᑎᒧᕽ	-11.8456
ᒥᑕᔅᑭᑎᒀᓀᔓᓐᒡ	-11.8456
ᒥᓂᒀᑲᓂᓃᕽ	-11.8456
ᒥᓉᑕᒧᐃᑎᓱ	-11.8456
ᒥᓍᒋᐃᑯᓐ	-11.8456
ᒥᓍᒋᒥᑰᐎᓐ	-11.8456
ᒥᓍᒋᒧᐙᒡ	-11.8456
ᒥᓍᒋᒫ	-11.8456
ᒥᔅᒀᐱᑭᓯᒡ	-11.8456
ᒥᔕᑮᔮᓯᓂᓂᒃ᙮	-11.8456
ᒪᐎᓀᔥᑯᑖᑎ	-11.8456
ᒪᒋᐹᐱᓀ	-11.8456
ᒪᒦᒀᓂᑎᓱᐗᒃ	-11.8456
ᒪᒫᒋᑾᐱᓂᒃ	-11.8456
ᒪᓈᐱᑌᐌᐸᑲᓈ	-11.8456
ᒪᔕᔥᑯ	-11.8456
ᒪᔥᑲᐌᑕᒫᓐ	-11.8456
ᒪᔥᑲᐌᑕᒻ	-11.8456
ᒪᔥᑲᐌᑖᒥᓐ	-11.8456
ᒪᔥᑲᐌᓂᒧ	-11.8456
ᒫᐗᒋᐃᑎᓈᓂᐗᕽ	-11.8456
ᒫᑎᓰᔥᑳᑫᒡ	-11.8456
ᒫᑭᔥᑳᓂᒡ	-11.8456
ᒫᒋᒀᐱᓀᓂᒡ	-11.8456
ᒫᒌᐅᑌᑌᒥ	-11.8456
ᒫᒌᐸᐃᐙᑕᒧ	-11.8456
ᒫᒫᒋᑾᐱᓱ	-11.8456
ᓂᐊᑯᓈᑾᓐ	-11.8456
ᓂᑕᒫᐱᑭᔑᕽ	-11.8456
ᓂᔑᐗᓈᒋᑕᒪᐙᐙ	-11.8456
ᓂᔑᐗᓈᓱ	-11.8456
ᓂᔑᐙᓈᒋ	-11.8456
ᓃᒥᓂᑫᓂᓂᒡ	-11.8456
ᓅᑖᑯᓯᓂᒡ	-11.8456
ᓅᓂᐋᐗᓱ	-11.8456
ᓇᑭᔥᑲᒣᒃ	-11.8456
ᓇᑭᔥᑳᑰᐞ	-11.8456
ᓇᑲᓂᓇᒀ	-11.8456
ᓇᑴᑖᑯᓰᓐ᙮	-11.8456
ᓇᒪᒋᐅᔥᑳᑯ	-11.8456
ᓇᓃᓵᓂᑑ	-11.8456
ᓇᓈᑯᒥᐌᐙᒡ	-11.8456
ᓈᑲᑕᐌᓂᒫᓰᐞ	-11.8456
ᓈᑲᒋᑕᒫᑯᒡ	-11.8456
ᓈᑾᐊᒪᐙ	-11.8456
ᓈᓈᑲᑕᐌᓂᑎᔦᒃ	-11.8456
ᓈᓈᑲᑕᐌᓂᒥ	-11.8456
ᓈᔦᑕᒥᐃᑯ	-11.8456
ᓰᔅᑯᐲᑭᔥᑲ	-11.8456
ᓲᑭᑳᐸᐎᒃ	-11.8456
ᓴᑳᑾᐱᓱ	-11.8456
ᓵᑭᒋᐌᐱᓂᑯ	-11.8456
ᓵᑲᑮᐗᓐ	-11.8456
ᔒᐎᒦᒋᒻ᙮	-11.8456
ᔔᒥᓂᐗᕽ	-11.8456
ᔔᒥᓈᑎᑯᐎ	-11.8456
ᔔᔥᒀᐱᑳ	-11.8456
ᔕᔒᐯᑕᒻ	-11.8456
ᔕᔒᐯᓂᒥᓂᓂᒻ	-11.8456
ᔕᔒᐱᑕᒧᐎᓂᐙ	-11.8456
ᔖᐾᑲᑕ	-11.8456
ᔖᑆᑌᓈᑯᓯᒡ	-11.8456
ᔥᑮᔑᑯᐙᕽ	-11.8456
ᔥᑮᔑᑴᔭᓐ	-11.8456
ᕒᐆᑎᔭᓴᓐ	-11.8456
ᕒᓃᓬᐃᔭ	-11.8456
▁ᐁᐃᔑᐲᐃᑳᑌᓂᒃ	-11.8456
▁ᐁᐃᔑᑎᐯᑖᑯᓯ	-11.8456
▁ᐁᐃᔑᓂᔕᐊᒪᐎ	-11.8456
▁ᐁᐃᔥᐯᓂᒫᐙᒡ	-11.8456
▁ᐁᐅᑌᑎᓂᒡ	-11.8456
▁ᐁᐅᓈᑯᓇ	-11.8456
▁ᐁᐅᔑᐲᐊᒫᓐ	-11.8456
▁ᐁᐅᔥᑭᓃᑭᑴᐎᓂᒡ	-11.8456
▁ᐁᐐᐸᐲᒶᓯᓇᐋᐙᒡ	-11.8456
▁ᐁᐐᒋᑭᐌᔨᑎᓂᒡ	-11.8456
▁ᐁᐐᒥᓉᑕᒥᐃᑎᓱᔦᒃ᙮	-11.8456
▁ᐁᐐᓴᑳᐸᓱᐌᒡ᙮	-11.8456
▁ᐁᐱᑌᓴᐱ	-11.8456
▁ᐁᐱᒨᑲᐊᒥᓂᒡ	-11.8456
▁ᐁᐱᓯᑕᐎᔭᓐ	-11.8456
▁ᐁᑕᓉᐌᑑᒡ	-11.8456
▁ᐁᑕᓱᑭᑭᓅᓄᐎᓐ	-11.8456
▁ᐁᑭᑫᑖᓱ	-11.8456
▁ᐁᑭᓉᑲᓂᓂᒃ	-11.8456
▁ᐁᑮᐃᑭᑑᒪᑲᒃ	-11.8456
▁ᐁᑮᐅᒑᓂᒪᐅᑯ	-11.8456
▁ᐁᑮᐅᓵᐱᐙᒡ	-11.8456
▁ᐁᑮᐊᔨᔑᑖᐙᒡ	-11.8456
▁ᐁᑮᐋᑾᑭᑌᓂᒃ	-11.8456
▁ᐁᑮᐐᒌᐎᑰᔦᒃ	-11.8456
▁ᐁᑮᑑᑖᑰᔦᒃ	-11.8456
▁ᐁᑮᑭᒋᐎᑎᐸᐊᕽ	-11.8456
▁ᐁᑮᑮᔒᑖ	-11.8456
▁ᐁᑮᓂᑾᐅᓐᒡ	-11.8456
▁ᐁᑮᓂᓯᑕᐌᑕ	-11.8456
▁ᐁᑲᑮᐹᑎᓯᔮᓐ᙮	-11.8456
▁ᐁᑸᐎᓭᓯᐎᒡ	-11.8456
▁ᐁᒥᒋᒪᐱᓱ	-11.8456
▁ᐁᒥᔅᑴᑲᓂᓂᒃ	-11.8456
▁ᐁᓀᓂᑎᓱᔭᓐ	-11.8456
▁ᐁᓈᓴᒥᐊᔮ	-11.8456
▁ᐁᓬᐃᐁᓴᕒ	-11.8456
▁ᐁᓬᐃᐄᓴᕒ	-11.8456
▁ᐁᓬᐃᒪᓴᓐ	-11.8456
▁ᐁᓴᑲᑭᒋᑳᑌᓂᒃ	-11.8456
▁ᐁᔑᐊᑕᐌᑖᑯᓯ	-11.8456
▁ᐁᔑᐋᓂᑲᐎᓯᓂᓂᒃ	-11.8456
▁ᐁᔑᐌᐱᓯᐙᒡ	-11.8456
▁ᐁᔑᐌᐱᓯᔮᓐ	-11.8456
▁ᐁᔑᐯᔑᑴᑖᑯᓯ	-11.8456
▁ᐃᐹᐸᕒᐊᑕᐃᑕᔅ	-11.8456
▁ᐃᓀᓂᒧᓯᐙᓐ	-11.8456
▁ᐃᓇᑭᑌᓯᓂᓂ	-11.8456
▁ᐃᔑᐅᓇᔓᐙᔑᐌ	-11.8456
▁ᐃᔑᒫᒌᐎᓇᓐ᙮	-11.8456
▁ᐃᔥᑯᑌᐎᓵᑲᐃᑲᓃᕽ	-11.8456
▁ᐃᔥᒀᑌᒥᑳᕽ	-11.8456
▁ᐄᒋᐱᔑᐎᓂᓂ	-11.8456
▁ᐄᒋᐸᑮᓂ	-11.8456
▁ᐅᐐᔭᐎᐙᕽ	-11.8456
▁ᐅᐐᔭᐐᕽ	-11.8456
▁ᐅᐗᑌᑯᕽ	-11.8456
▁ᐅᐗᓂᔑᒥᐌ	-11.8456
▁ᐅᐱᒫᒋᐃᐌᐎᓂᓃᒪᓐ	-11.8456
▁ᐅᑎᐯᑕᒥᓂ᙮	-11.8456
▁ᐅᑎᒀᓂᓃᕽ	-11.8456
▁ᐅᑎᓈᒋᒥᑰᐎᓐ	-11.8456
▁ᐅᑎᔑᐌᐱᓯᐎᓂᐙ	-11.8456
▁ᐅᑎᔑᑲᑮᑴᓄᑕᐙ	-11.8456
▁ᐅᑎᔥᒀᑌᒥ	-11.8456
▁ᐅᑑᑎᓇᓰᓈᐙ	-11.8456
▁ᐅᑑᑖᐱᓇᓰᓈᐙ	-11.8456
▁ᐅᑑᑖᐱᓈᓈᐙ	-11.8456
▁ᐅᑑᑖᐱᓈᓐ	-11.8456
▁ᐅᑑᑭᒫᐎᐎᓂᓃᕽ	-11.8456
▁ᐅᑑᓂᔑᔑᐌᑖᑯᓯᐎᓂᐙ	-11.8456
▁ᐅᑑᓈᐸᒋᑲ	-11.8456
▁ᐅᑑᔑᒋᑲᓂᓂ	-11.8456
▁ᐅᑕᐃᐹᓂᕽ	-11.8456
▁ᐅᑕᐱᓅᒌᔑᒪ	-11.8456
▁ᐅᑕᑑᐹᓐ	-11.8456
▁ᐅᑕᔕᐙᐲᐎᑲᒥᒃ	-11.8456
▁ᐅᑕᔕᑫᐎᓐ	-11.8456
▁ᐅᑖᓂᓭᓴᓐ᙮	-11.8456
▁ᐅᑖᔩᒋᐊᔓᑕᒫᑫᐎ	-11.8456
▁ᐅᑭᑕᐱᐎᓂ	-11.8456
▁ᐅᑭᑫᑕᒫᑰᓐ᙮	-11.8456
▁ᐅᑮᐊᔨᓀᓂᒫᐙᓐ	-11.8456
▁ᐅᑮᒪᒪᒋᑕᔑ	-11.8456
▁ᐅᑮᒫᒨᔕᑭᓈᓈᐙ	-11.8456
▁ᐅᑮᒫᒪᑳᑌᓂ	-11.8456
▁ᐅᑮᓂᓯᑕᐎᓇᐙᓯᐙᐙᓐ	-11.8456
▁ᐅᑮᓂᔥᑭᒥᑯ	-11.8456
▁ᐅᑮᓃᓵᐲᑭ	-11.8456
▁ᐅᑮᔑᑲᓅᒻ	-11.8456
▁ᐅᑲᐐᒋᐊᔮᒫᐞ	-11.8456
▁ᐅᑲᑎᐱᓴᑣᓐ	-11.8456
▁ᐅᑲᑮᓇᐎᔥᒃ	-11.8456
▁ᐅᑲᔥᑭᐁᐎᓰᒥᓂ	-11.8456
▁ᐅᒋᒌᑾᓃᑕᐎᔭᓐ	-11.8456
▁ᐅᒌᒫᑲᓂᓈ	-11.8456
▁ᐅᒥᓍᒋᒧᐎᓂᓂ	-11.8456
▁ᐅᒥᓍᒋᒨ	-11.8456
▁ᐅᒦᑳᓲ	-11.8456
▁ᐅᒪᑭᓯᓀᔮ	-11.8456
▁ᐅᒪᓂᑑᑫᐎᑰᒋᑲᓂᓂ	-11.8456
▁ᐅᓂᔑᔑᐌᒋᑲᓂᐎ	-11.8456
▁ᐅᓂᔥᑫᑕᒧᐎᓂ	-11.8456
▁ᐅᓈᑕᒫᑫ	-11.8456
▁ᐅᓱᓵᒪᑲᒥᒃ	-11.8456
▁ᐅᓵᐙᐱᑰᓴᐞ	-11.8456
▁ᐅᔕᐌᒋᑫᐎᓂᓂ	-11.8456
▁ᐅᔥᑮᔑᑯᒫ	-11.8456
▁ᐅᕒᐄᔭᐴᐗ	-11.8456
▁ᐅᕒᐋᐹᐃ	-11.8456
▁ᐊᓂᒧᔕᒃ	-11.8456
▁ᐊᓂᒨᓴᒃ	-11.8456
▁ᐊᓄᑮᒪᑲᓯᓅᓇᓐ	-11.8456
▁ᐊᓇᒥᐁᐙᑎᓯᐎᓂᕽ	-11.8456
▁ᐊᓍᓅᐌ	-11.8456
▁ᐊᓴᐲᐌᑭ	-11.8456
▁ᐋᑯᑭᑖᓱᐎᓐ	-11.8456
▁ᐋᑲᐎᔥᑲᐎᔑᓈᒻ	-11.8456
▁ᐋᓇᐃᑭᑐᐸᓐ	-11.8456
▁ᐋᔅᑯᓂᓯ	-11.8456
▁ᐌᑭᒫᑲᑖᑫ	-11.8456
▁ᐌᒋᒥᒋᒥᔥᑳᒃ	-11.8456
▁ᐌᓅᑕᒫᐎᓂ	-11.8456
▁ᐎᔮᐸᒫ	-11.8456
▁ᐐᐹᐱᑲᐃᑳᑌᓂᒃ	-11.8456
▁ᐐᒋᐅᑌᐺᑕᒨᓐ	-11.8456
▁ᐐᔭᐎᐙᕽ	-11.8456
▁ᐗᓂᑎᐱᑲᓄᕽ	-11.8456
▁ᐯᐸᑳᓂᐃᑎᓲᒪᑲ	-11.8456
▁ᐯᒥᓂᔕᐊ	-11.8456
▁ᐱᐅᒋᒫᒑᒃ	-11.8456
▁ᐱᐊᑕᒦᒋᒃ	-11.8456
▁ᐱᑕᑭᓯᓀ	-11.8456
▁ᐱᑕᑯᔑᓈᓐ	-11.8456
▁ᐱᑾᑑᔖᓂ	-11.8456
▁ᐱᑾᑕᑲᒥᑯᕽ	-11.8456
▁ᐱᒌᓈᑯ	-11.8456
▁ᐱᒫᔒᐌᑭ	-11.8456
▁ᐱᓬᐊᑌᓬᐱ	-11.8456
▁ᐱᔑᑮᓴᒃ	-11.8456
▁ᐱᔮᑏᓄ	-11.8456
▁ᐲᑌᐎᑑᓀ	-11.8456
▁ᐸᐸᑴᐱᑕᒪᐗᒀ	-11.8456
▁ᐸᑕᑭᑑᓇᓐ	-11.8456
▁ᐸᑭᑎᓈᓱᐎᓈᐱᒃ	-11.8456
▁ᐸᑭᔖᓈᐙ	-11.8456
▁ᐸᔥᑴᑭᓄᐗᔑᕽ᙮	-11.8456
▁ᐸᔥᑴᑭᓄᐗᔕᓐ	-11.8456
▁ᐹᐱᓄᑖᑰᐞ	-11.8456
▁ᐹᑭᓇᒪᐎᔑᓈᒻ	-11.8456
▁ᑌᐸᑫᓂᒧ	-11.8456
▁ᑎᐸᐆᐹ	-11.8456
▁ᑎᑎᐯᔩᑭᓇ	-11.8456
▁ᑑᑭᐸᓂᐅ	-11.8456
▁ᑕᐃᔑᐌᐸᓯᓅᓐ	-11.8456
▁ᑕᐱᓇᐎᔑᒨᓄᐎ	-11.8456
▁ᑕᐲᑎᑲᒋᑳᑌ	-11.8456
▁ᑕᐸᑭᓯᓂᓂ᙮	-11.8456
▁ᑕᑎᐱᑲᓯᓅᓐ᙮	-11.8456
▁ᑕᑯᑖᓀᑖᑾᓐ	-11.8456
▁ᑕᒥᑭᑳᑌᓯᓅᓐ	-11.8456
▁ᑕᒨᑴᑕᒨᒃ	-11.8456
▁ᑕᒫᒦᑳᑏᒪᑲᓅᓐ᙮	-11.8456
▁ᑕᓅᑖᑯᓯᓰᐗᒃ	-11.8456
▁ᑕᓵᑳᓯᑫᓰ	-11.8456
▁ᑖᐃᔑᒋᑫᒪᑲᓯᓅᓐ	-11.8456
▁ᑫᐅᑯᓯᓯᒡ᙮	-11.8456
▁ᑫᐅᒌᒪᒃ	-11.8456
▁ᑫᐱᑭᑫᑖᑯᓯᒡ	-11.8456
▁ᑫᐸᑭᑎᓂ	-11.8456
▁ᑫᐸᕒᐃᔭᓬ	-11.8456
▁ᑫᑌᐅᔑᐲᐃᑲ	-11.8456
▁ᑫᑎᐹᒋᒥ	-11.8456
▁ᑫᑕᔑᐊᓇᒥᐁᑕᐎᓐᒡ	-11.8456
▁ᑫᑭᐱᑎᓇ	-11.8456
▁ᑫᑮᐃᔑᒋᑫᔭᐸᓐ᙮	-11.8456
▁ᑫᑮᑖᐌᑕᕽ	-11.8456
▁ᑫᑮᒥᓉᑕᒥᐃᐙᐸᓐ᙮	-11.8456
▁ᑫᓂᐊᑯᓈᑾᓯ	-11.8456
▁ᑭᐐᒋᐅᑌᐺᑕᒨᒫᑲᓂ	-11.8456
▁ᑭᐐᔭᐎᓈᓐ	-11.8456
▁ᑭᐱᔑᑮᒥᐙ	-11.8456
▁ᑭᐸᐸᑭᐗᔮ	-11.8456
▁ᑭᑆᐸᑌ	-11.8456
▁ᑭᑌᐃᐗᕽ	-11.8456
▁ᑭᑎᓈᐸᒋᐃᓯᓅ	-11.8456
▁ᑭᑎᔑᒪᒦᒀᓂ	-11.8456
▁ᑭᑑᑎᓯᑯᓈᓂᒃ	-11.8456
▁ᑭᑑᑯᓯᓯᒥ	-11.8456
▁ᑭᑑᒋᐱᒫᒋᐃᑰ	-11.8456
▁ᑭᑕᑮᒥᐙ	-11.8456
▁ᑭᑕᒑᑯᐱᒫᑎᓯᐎᓂ	-11.8456
▁ᑭᑕᓇᒥᐁᐎᑲᒥᑯᐙ	-11.8456
▁ᑭᑕᔓᑕᒪᐎᓐ	-11.8456
▁ᑭᑕᔨᐄᒥᐙᓐ	-11.8456
▁ᑭᑖᐃᑭᑐᒥᓐ	-11.8456
▁ᑭᑖᐅᒋᒫᓀᑖᒻ	-11.8456
▁ᑭᑭᑭᔥᑭᑲᓂᐙᓐ᙮	-11.8456
▁ᑭᑭᒋᐊᓇᒥᐁᐎᑲᒥᑯ	-11.8456
▁ᑭᑭᒌᐱᒃ	-11.8456
▁ᑭᑭᓇᐙᑌᓂᒥ	-11.8456
▁ᑭᑮᐋᓇᐌᓂᒥᓰᒻ	-11.8456
▁ᑭᑲᐃᓀᓂᒫᒃ᙮	-11.8456
▁ᑭᑲᐅᒋᐱᒫᒋᐃᑰᒥᓐ	-11.8456
▁ᑭᑲᐗᓂᒥᑯᓰᐙ	-11.8456
▁ᑭᑲᐱᐅᑎᓯᓂᓂᒻ	-11.8456
▁ᑭᑲᐱᑮᐌᓄᑕᐎᓂᓂᒻ	-11.8456
▁ᑭᑲᑎᐹᑐᑕᒫᑯᐙ᙮	-11.8456
▁ᑭᑲᑭᑭᓄᐎᓂᑯᐙ	-11.8456
▁ᑭᑲᑮᐹᑎᓯᒻ	-11.8456
▁ᑭᑲᑮᔑᑖᒻ	-11.8456
▁ᑭᑲᒥᑲᐎᓰᒻ	-11.8456
▁ᑭᑲᔑᑕᑯᐐᒌᐙᓈᓐ	-11.8456
▁ᑭᒋᐗᒌᕽ	-11.8456
▁ᑭᒋᑫᑰᓂᓂ	-11.8456
▁ᑭᒋᑲᔥᑫᑕ	-11.8456
▁ᑭᒋᒥᔅᑯᑲᒦᕽ	-11.8456
▁ᑭᒋᒪᓂᒎᔕ	-11.8456
▁ᑭᒪᓂᑑᐎᒻ	-11.8456
▁ᑭᓅᔐᓐ	-11.8456
▁ᑭᓇᑕᐌᑕᓰᓇᓐ	-11.8456
▁ᑭᓈᑲᑕᐌᑕᒧᐎᓂᕽ᙮	-11.8456
▁ᑭᓈᑲᑕᐌᒋᑲᓂᐙᕽ	-11.8456
▁ᑭᓈᓈᑲᑕᐌᑕᒧᐎᓂᐙ	-11.8456
▁ᑭᔑᐗᔥᑲᑌᔥᑳᑯᓐ	-11.8456
▁ᑮᐃᓇᑌᑴ	-11.8456
▁ᑮᐃᔑᐅᔑᐲᐃᑫ	-11.8456
▁ᑮᐅᒋᐅᔑᐲᐃᑳᑌ	-11.8456
▁ᑮᐗᔦᔑᒫᑲᓂᐎ	-11.8456
▁ᑮᐹᑭᓂᑳᑌᓂ	-11.8456
▁ᑮᑭᒋᒫᒪᑳᑌᑕᒨᐞ	-11.8456
▁ᑮᑰᔦᓴ	-11.8456
▁ᑮᑲᔥᑮᑎᐱᑲᓐ	-11.8456
▁ᑮᒥᑖᔑᓃᔑᐗ	-11.8456
▁ᑮᒪᑌᑳᐸᐎ	-11.8456
▁ᑮᒫᐗᑑᓂᑫᔮᓐ	-11.8456
▁ᑮᒫᒪᑳᒋᒋᑫᓰ	-11.8456
▁ᑮᓇᐗᑭᑳᐸᐎ	-11.8456
▁ᑮᔖᐳᔥᑳ	-11.8456
▁ᑮᔥᑭᑴᑕᐙ	-11.8456
▁ᑲᑮᐹᑎᓯᐗᒃ	-11.8456
▁ᑲᑮᐹᑎᓯᔦᒃ	-11.8456
▁ᑲᓇᐌᑕᐃᔑᔭᐸᓐ	-11.8456
▁ᑲᕒᐃᔅᐸᔅ	-11.8456
▁ᑳᐃᔑᐊᔓᑕᒫᓐ	-11.8456
▁ᑳᐃᔑᐌᐱᓯᔦᒃ	-11.8456
▁ᑳᐃᔑᒥᓄᑕᔑᒥᑰᔦᒃ	-11.8456
▁ᑳᐅᑑᑭᒫᒥᔦᒃ	-11.8456
▁ᑳᐅᑕᑳᓀᓯᔮᕽ	-11.8456
▁ᑳᐅᒋᐅᔑᐲᐊᒫᑰᔦᒃ	-11.8456
▁ᑳᐅᒋᐸᑭᑌᑕᓯᐙᕽ᙮	-11.8456
▁ᑳᐅᒋᑌᐺᔦᓂᒥᒣᒃ	-11.8456
▁ᑳᐅᔫᓯᔭᕽ	-11.8456
▁ᑳᐊᔕᐙᐸᒥ	-11.8456
▁ᑳᐋᔫᒋᑎᐯᑖᑯᓯ	-11.8456
▁ᑳᐗᓂᐎᔑᐌ	-11.8456
▁ᑳᐱᒫᑎᓰᔥᑲ	-11.8456
▁ᑳᐸᒦᑖᑫᓯ	-11.8456
▁ᑳᑎᐹᐹᐗᒋᑫᒡ	-11.8456
▁ᑳᑎᓍᑎᑯᐎᒡ	-11.8456
▁ᑳᑕᔑᐅᐐᔭᐎᐙᒡ	-11.8456
▁ᑳᑕᔑᒫᐗᒋᐊᓇᒥᐋᐙᒡ	-11.8456
▁ᑳᑭᐸᐅᓐᒡ	-11.8456
▁ᑳᑭᑎᑳᓱᒡ	-11.8456
▁ᑳᑭᑭᓇᐙᑕᔕᑫᔑᑲᓂᐎᓯ	-11.8456
▁ᑳᑭᑭᓇᐙᑕᔕᑫᔣᓱᐎ	-11.8456
▁ᑳᑭᑭᔥᑲᒨᓂ	-11.8456
▁ᑳᑮᐃᔑᑭᑎᑫᒡ᙮	-11.8456
▁ᑳᑮᐊᑕᐌᓂᒥ	-11.8456
▁ᑳᑮᐋᓂᑫᐎᑭᒫᐎ	-11.8456
▁ᑳᑮᐸᔑᐸᐙᐙᒡ᙮	-11.8456
▁ᑳᑮᑎᐹᒋᒪ	-11.8456
▁ᑳᑮᑭᑎᑳᓱᓯᒃ	-11.8456
▁ᑳᑮᑲᓅᑕᒪᐎᒀ	-11.8456
▁ᑳᑮᒪᓯᓇᐊᒫᑯᒡ	-11.8456
▁ᑳᑮᓰᑲᐊᑖᓱ	-11.8456
▁ᑳᑯᓯᑾᓂᓂᑭᓐ	-11.8456
▁ᑳᑲᑮᐱᑌᓂᒡ	-11.8456
▁ᑳᑲᒀᓂᓴᑭ	-11.8456
▁ᑳᑲᓇᐎᒫᓇᒑᓂᔑᐌᒡ	-11.8456
▁ᑳᒌᑭᑳᐸᐎᐙᒡ	-11.8456
▁ᑳᒦᒋᓈᑳᑌᓯᓂᓂᒃ᙮	-11.8456
▁ᑳᒫᐗᑑᓂᑫ	-11.8456
▁ᑳᓃᑳᓂᓰᔥᑳᑯᒡ᙮	-11.8456
–	-12.6551
7	-12.6553
ᒒ	-12.679
"	-12.679
/	-12.679
Z	-12.679
[	-12.679
]	-12.679
a	-12.679
u	-12.679
~	-12.679
ᐧ	-12.679
ᐼ	-12.679
ᑡ	-12.679
(	-13.3686
ᔡ	-13.3687
ᒍ	-13.3688
ᐾ	-13.3689
ᒸ	-13.369
ᔪ	-13.3691
ᔗ	-13.3692
X	-13.3693
ᒎ	-13.3694
ᒑ	-13.3695
