<pad>	0
</s>	0
<unk>	0
▁¦	-0
▁𐋇	-1
th	-2
in	-3
the	-4
re	-5
on	-6
an	-7
at	-8
en	-9
▁.	-10
er	-11
or	-12
▁,	-13
is	-14
ed	-15
al	-16
as	-17
es	-18
to	-19
of	-20
ar	-21
ing	-22
it	-23
ou	-24
ion	-25
and	-26
ent	-27
ac	-28
ic	-29
st	-30
il	-31
be	-32
ro	-33
ve	-34
id	-35
co	-36
le	-37
se	-38
ch	-39
for	-40
ad	-41
tr	-42
ct	-43
ation	-44
me	-45
ir	-46
are	-47
lo	-48
▁𐊣	-49
ho	-50
cor	-51
ay	-52
he	-53
ver	-54
no	-55
ly	-56
de	-57
we	-58
un	-59
so	-60
us	-61
fe	-62
ha	-63
con	-64
vac	-65
coron	-66
ter	-67
mp	-68
ill	-69
ur	-70
ment	-71
sp	-72
cin	-73
vaccin	-74
corona	-75
has	-76
di	-77
ate	-78
ce	-79
that	-80
su	-81
▁'	-82
ag	-83
ld	-84
do	-85
ab	-86
ut	-87
wi	-88
pe	-89
um	-90
have	-91
ati	-92
with	-93
pro	-94
ig	-95
oun	-96
ap	-97
est	-98
ak	-99
go	-100
sa	-101
0¦	-102
ers	-103
wh	-104
ne	-105
▁¦1	-106
was	-107
op	-108
dis	-109
vid	-110
this	-111
vir	-112
rom	-113
will	-114
ents	-115
mo	-116
from	-117
am	-118
▁¦2	-119
not	-120
fect	-121
pati	-122
po	-123
im	-124
te	-125
sh	-126
ain	-127
out	-128
by	-129
et	-130
ther	-131
ex	-132
ant	-133
ul	-134
res	-135
min	-136
ort	-137
ies	-138
patients	-139
umb	-140
ity	-141
been	-142
per	-143
wor	-144
vaccine	-145
act	-146
if	-147
gen	-148
▁"	-149
af	-150
med	-151
alth	-152
iv	-153
virus	-154
day	-155
vern	-156
our	-157
cent	-158
govern	-159
all	-160
9¦	-161
du	-162
government	-163
ive	-164
ess	-165
ial	-166
dr	-167
cl	-168
minis	-169
said	-170
there	-171
covid	-172
ople	-173
people	-174
health	-175
qu	-176
har	-177
ould	-178
ions	-179
ol	-180
art	-181
any	-182
also	-183
state	-184
▁(	-185
pr	-186
wn	-187
ding	-188
one	-189
ase	-190
infect	-191
ical	-192
ital	-193
igh	-194
ated	-195
▁)	-196
em	-197
but	-198
ef	-199
str	-200
cre	-201
ict	-202
com	-203
ren	-204
pl	-205
can	-206
tra	-207
numb	-208
test	-209
ma	-210
cont	-211
ck	-212
av	-213
other	-214
were	-215
iz	-216
▁?	-217
coun	-218
od	-219
ts	-220
19¦	-221
ca	-222
number	-223
hosp	-224
sy	-225
li	-226
hospital	-227
ary	-228
indi	-229
red	-230
sit	-231
after	-232
work	-233
-19¦	-234
who	-235
der	-236
minister	-237
ash	-238
ll	-239
ud	-240
pre	-241
ox	-242
ous	-243
imp	-244
had	-245
countr	-246
gh	-247
age	-248
low	-249
ast	-250
ke	-251
should	-252
ime	-253
ath	-254
ear	-255
comp	-256
down	-257
ack	-258
tak	-259
ge	-260
port	-261
mar	-262
ough	-263
▁¦20	-264
5¦	-265
end	-266
you	-267
ound	-268
use	-269
ail	-270
ib	-271
oxy	-272
oxygen	-273
some	-274
comm	-275
lock	-276
ms	-277
ser	-278
able	-279
hand	-280
sed	-281
ans	-282
lic	-283
mahar	-284
fic	-285
2¦	-286
ine	-287
new	-288
ator	-289
ashtra	-290
cond	-291
maharashtra	-292
cr	-293
india	-294
▁:	-295
more	-296
these	-297
ip	-298
incre	-299
ra	-300
than	-301
pres	-302
dise	-303
about	-304
very	-305
many	-306
▁¦3	-307
ctor	-308
distr	-309
lockdown	-310
vaccination	-311
wo	-312
say	-313
ance	-314
read	-315
00¦	-316
ide	-317
4¦	-318
ask	-319
fo	-320
up	-321
ist	-322
fir	-323
may	-324
they	-325
time	-326
ai	-327
ild	-328
ates	-329
ard	-330
ased	-331
reat	-332
their	-333
year	-334
ile	-335
spe	-336
part	-337
ia	-338
disease	-339
ases	-340
ach	-341
cur	-342
clo	-343
form	-344
infection	-345
gr	-346
ub	-347
reg	-348
under	-349
ight	-350
district	-351
vaccines	-352
what	-353
ced	-354
get	-355
ars	-356
how	-357
vel	-358
man	-359
now	-360
report	-361
sion	-362
being	-363
ong	-364
sch	-365
ev	-366
days	-367
cording	-368
ations	-369
high	-370
une	-371
according	-372
resp	-373
ace	-374
country	-375
ich	-376
1¦	-377
bo	-378
ious	-379
br	-380
ep	-381
mpto	-382
ens	-383
ction	-384
ann	-385
mon	-386
rent	-387
ass	-388
which	-389
need	-390
pp	-391
care	-392
vent	-393
ris	-394
cial	-395
8¦	-396
incl	-397
child	-398
while	-399
first	-400
treat	-401
whe	-402
▁¦202	-403
mis	-404
last	-405
ure	-406
ave	-407
ence	-408
cted	-409
aw	-410
iven	-411
bre	-412
ted	-413
two	-414
used	-415
second	-416
ss	-417
lop	-418
effect	-419
ang	-420
over	-421
again	-422
sur	-423
uring	-424
offic	-425
chi	-426
fore	-427
found	-428
world	-429
such	-430
spread	-431
sympto	-432
when	-433
ign	-434
its	-435
pub	-436
velop	-437
ool	-438
like	-439
due	-440
vi	-441
ug	-442
only	-443
develop	-444
sars	-445
strict	-446
march	-447
ministr	-448
7¦	-449
cy	-450
cases	-451
ty	-452
stud	-453
school	-454
pers	-455
ci	-456
ade	-457
uation	-458
chin	-459
symptoms	-460
rel	-461
says	-462
▁%	-463
come	-464
mumb	-465
start	-466
mumbai	-467
ition	-468
log	-469
children	-470
chief	-471
given	-472
ities	-473
death	-474
during	-475
▁-	-476
gan	-477
▁¦5	-478
medical	-479
person	-480
dif	-481
6¦	-482
▁¦4	-483
cess	-484
howe	-485
however	-486
doctor	-487
col	-488
ish	-489
avail	-490
treatment	-491
coronavirus	-492
cro	-493
inclu	-494
atory	-495
produ	-496
inter	-497
apr	-498
▁¦2020¦	-499
april	-500
states	-501
dec	-502
esh	-503
home	-504
tal	-505
situation	-506
mun	-507
stem	-508
hy	-509
mb	-510
fl	-511
every	-512
wave	-513
public	-514
sto	-515
center	-516
3¦	-517
ice	-518
ose	-519
system	-520
ree	-521
even	-522
uary	-523
infected	-524
je	-525
contro	-526
countries	-527
ek	-528
your	-529
bed	-530
ting	-531
bet	-532
posit	-533
available	-534
han	-535
itiz	-536
against	-537
fin	-538
uk	-539
serv	-540
most	-541
om	-542
drug	-543
peri	-544
risk	-545
break	-546
ied	-547
,0	-548
io	-549
ating	-550
ational	-551
mand	-552
fr	-553
cal	-554
mask	-555
those	-556
inform	-557
restrict	-558
hav	-559
announ	-560
cle	-561
take	-562
his	-563
ute	-564
add	-565
eng	-566
provid	-567
week	-568
thr	-569
inst	-570
ident	-571
ited	-572
organ	-573
icip	-574
pune	-575
pur	-576
import	-577
hospitals	-578
sul	-579
current	-580
ivir	-581
through	-582
ses	-583
ures	-584
gu	-585
rs	-586
del	-587
wash	-588
appro	-589
centr	-590
vaccinated	-591
main	-592
taken	-593
respon	-594
hum	-595
lar	-596
▁."	-597
them	-598
arr	-599
colle	-600
where	-601
ual	-602
aren	-603
ning	-604
sing	-605
acker	-606
restrictions	-607
ody	-608
made	-609
requ	-610
information	-611
cause	-612
few	-613
issu	-614
ackeray	-615
thackeray	-616
prote	-617
reported	-618
ok	-619
ved	-620
,000¦	-621
par	-622
kar	-623
emic	-624
cer	-625
les	-626
▁¦1¦	-627
air	-628
lin	-629
central	-630
ire	-631
ult	-632
way	-633
▁¦6	-634
ater	-635
clin	-636
fact	-637
ible	-638
well	-639
var	-640
sure	-641
uc	-642
outbreak	-643
akh	-644
ility	-645
beds	-646
dire	-647
mu	-648
ural	-649
▁;	-650
china	-651
contact	-652
mission	-653
prevent	-654
workers	-655
vis	-656
administr	-657
hi	-658
arch	-659
fol	-660
mber	-661
trans	-662
des	-663
pt	-664
eral	-665
side	-666
ata	-667
att	-668
polic	-669
control	-670
ces	-671
follow	-672
search	-673
national	-674
na	-675
would	-676
doctors	-677
short	-678
patient	-679
ko	-680
set	-681
ific	-682
lakh	-683
sup	-684
then	-685
ative	-686
ob	-687
ps	-688
mak	-689
▁¦7	-690
ices	-691
including	-692
sho	-693
fac	-694
meet	-695
level	-696
important	-697
hel	-698
call	-699
ful	-700
areas	-701
announced	-702
oc	-703
exam	-704
ials	-705
month	-706
testing	-707
la	-708
-2¦	-709
asing	-710
icipal	-711
municipal	-712
raj	-713
remed	-714
did	-715
city	-716
au	-717
redu	-718
men	-719
present	-720
mit	-721
allow	-722
started	-723
ten	-724
ves	-725
educ	-726
travel	-727
citiz	-728
resul	-729
research	-730
increased	-731
died	-732
tests	-733
affect	-734
administration	-735
jan	-736
surve	-737
effective	-738
▁).	-739
emer	-740
diffe	-741
▁¦9	-742
lead	-743
poss	-744
hour	-745
supp	-746
instit	-747
less	-748
same	-749
closed	-750
ue	-751
years	-752
demand	-753
don	-754
ctions	-755
int	-756
body	-757
large	-758
ential	-759
▁¦8	-760
respir	-761
far	-762
amil	-763
going	-764
citizens	-765
organiz	-766
positive	-767
cus	-768
students	-769
udd	-770
data	-771
mill	-772
based	-773
decis	-774
supply	-775
ason	-776
hands	-777
increasing	-778
ble	-779
case	-780
does	-781
pand	-782
rap	-783
ween	-784
before	-785
quest	-786
between	-787
increase	-788
sin	-789
meeting	-790
lim	-791
rate	-792
flu	-793
iver	-794
nag	-795
rul	-796
camp	-797
quar	-798
ying	-799
ments	-800
gro	-801
dies	-802
tech	-803
modi	-804
priv	-805
three	-806
depart	-807
dro	-808
cing	-809
logy	-810
▁¦2¦	-811
around	-812
contin	-813
thing	-814
▁¦10¦	-815
washing	-816
bc	-817
ior	-818
deaths	-819
uddhav	-820
ust	-821
▁),	-822
ared	-823
soci	-824
social	-825
comple	-826
meas	-827
education	-828
app	-829
dra	-830
sol	-831
into	-832
samp	-833
could	-834
ages	-835
crit	-836
dist	-837
crore	-838
respiratory	-839
ank	-840
lit	-841
ized	-842
delhi	-843
thous	-844
thousand	-845
ick	-846
ics	-847
ird	-848
lab	-849
iate	-850
safe	-851
vere	-852
ness	-853
eld	-854
ress	-855
ended	-856
speak	-857
bio	-858
val	-859
help	-860
ering	-861
famil	-862
severe	-863
gest	-864
schools	-865
san	-866
mark	-867
since	-868
period	-869
emergen	-870
private	-871
line	-872
pass	-873
human	-874
inv	-875
dose	-876
rece	-877
bbc	-878
dep	-879
antib	-880
exper	-881
decision	-882
el	-883
local	-884
my	-885
cap	-886
ian	-887
sen	-888
aign	-889
prime	-890
addition	-891
campaign	-892
doses	-893
using	-894
quarant	-895
without	-896
open	-897
january	-898
bal	-899
sub	-900
spec	-901
mat	-902
ventil	-903
million	-904
currently	-905
different	-906
cell	-907
ists	-908
reco	-909
rules	-910
recomm	-911
ik	-912
hal	-913
grou	-914
long	-915
tain	-916
commun	-917
working	-918
war	-919
hours	-920
mal	-921
today	-922
por	-923
cour	-924
plac	-925
ew	-926
tested	-927
ind	-928
ric	-929
speaking	-930
fun	-931
kno	-932
why	-933
make	-934
phas	-935
medic	-936
police	-937
possible	-938
department	-939
emp	-940
oid	-941
allowed	-942
institute	-943
wal	-944
▁¦5¦	-945
percent	-946
ven	-947
appe	-948
lish	-949
stru	-950
united	-951
rapid	-952
she	-953
tur	-954
view	-955
imple	-956
univer	-957
company	-958
clinical	-959
ger	-960
back	-961
came	-962
cons	-963
action	-964
called	-965
general	-966
both	-967
pected	-968
whether	-969
blo	-970
post	-971
ular	-972
because	-973
emergency	-974
pop	-975
face	-976
ators	-977
known	-978
ele	-979
four	-980
▁¦3¦	-981
ulation	-982
aff	-983
ors	-984
febr	-985
sever	-986
mitted	-987
february	-988
ject	-989
reason	-990
grow	-991
lack	-992
mers	-993
reach	-994
regis	-995
impo	-996
ministry	-997
therefore	-998
aj	-999
led	-1000
area	-1001
ality	-1002
study	-1003
union	-1004
discus	-1005
experts	-1006
measures	-1007
let	-1008
show	-1009
blood	-1010
ically	-1011
xt	-1012
sal	-1013
rest	-1014
temp	-1015
organization	-1016
sci	-1017
mediate	-1018
affected	-1019
shortage	-1020
ix	-1021
aim	-1022
ext	-1023
sus	-1024
ield	-1025
among	-1026
ired	-1027
vill	-1028
pandemic	-1029
developed	-1030
ned	-1031
tar	-1032
phase	-1033
rural	-1034
sel	-1035
total	-1036
acro	-1037
▁¦4¦	-1038
chang	-1039
masks	-1040
happ	-1041
lear	-1042
avoid	-1043
market	-1044
glo	-1045
still	-1046
third	-1047
ination	-1048
jo	-1049
ission	-1050
centers	-1051
liv	-1052
held	-1053
rele	-1054
across	-1055
contain	-1056
illance	-1057
commission	-1058
production	-1059
surveillance	-1060
inc	-1061
tim	-1062
isol	-1063
king	-1064
seen	-1065
thor	-1066
ward	-1067
sport	-1068
places	-1069
here	-1070
indu	-1071
stat	-1072
place	-1073
corpor	-1074
another	-1075
transmission	-1076
ite	-1077
ange	-1078
heart	-1079
order	-1080
▁¦15¦	-1081
cov	-1082
sis	-1083
epid	-1084
force	-1085
stand	-1086
taking	-1087
him	-1088
mall	-1089
wide	-1090
itions	-1091
eu	-1092
econ	-1093
much	-1094
experi	-1095
months	-1096
bu	-1097
ene	-1098
fur	-1099
hou	-1100
loy	-1101
done	-1102
keep	-1103
asked	-1104
pract	-1105
coming	-1106
question	-1107
mean	-1108
outh	-1109
condu	-1110
▁¦20¦	-1111
econom	-1112
cris	-1113
sent	-1114
train	-1115
proble	-1116
rajesh	-1117
process	-1118
samples	-1119
fer	-1120
kovid	-1121
provide	-1122
services	-1123
essential	-1124
sim	-1125
ung	-1126
five	-1127
family	-1128
include	-1129
fire	-1130
soap	-1131
serum	-1132
implement	-1133
enz	-1134
old	-1135
crow	-1136
stay	-1137
tran	-1138
ants	-1139
itor	-1140
fever	-1141
house	-1142
▁¦50¦	-1143
formed	-1144
further	-1145
next	-1146
response	-1147
population	-1148
hc	-1149
sat	-1150
ived	-1151
know	-1152
▁¦7¦	-1153
▁¦30¦	-1154
diffic	-1155
nagpur	-1156
corporation	-1157
pm	-1158
bat	-1159
ise	-1160
head	-1161
till	-1162
lying	-1163
water	-1164
confir	-1165
higher	-1166
ese	-1167
imal	-1168
oper	-1169
sign	-1170
likely	-1171
ax	-1172
ga	-1173
ally	-1174
ilar	-1175
group	-1176
▁¦19¦	-1177
related	-1178
serious	-1179
mor	-1180
sity	-1181
▁¦10	-1182
vacin	-1183
▁¦24¦	-1184
associ	-1185
atives	-1186
imposed	-1187
similar	-1188
approved	-1189
polit	-1190
concer	-1191
global	-1192
issued	-1193
conditions	-1194
vs	-1195
tope	-1196
times	-1197
tract	-1198
chinese	-1199
passeng	-1200
support	-1201
gy	-1202
amp	-1203
mut	-1204
pat	-1205
aring	-1206
early	-1207
ability	-1208
several	-1209
complete	-1210
president	-1211
sw	-1212
run	-1213
half	-1214
manu	-1215
sequ	-1216
fight	-1217
labor	-1218
remain	-1219
manufact	-1220
immediate	-1221
development	-1222
big	-1223
son	-1224
good	-1225
init	-1226
class	-1227
crowd	-1228
ified	-1229
small	-1230
women	-1231
crisis	-1232
indian	-1233
become	-1234
university	-1235
jay	-1236
non	-1237
tou	-1238
vari	-1239
direct	-1240
strain	-1241
trials	-1242
although	-1243
tion	-1244
told	-1245
ready	-1246
tered	-1247
coronary	-1248
quarantine	-1249
her	-1250
yet	-1251
prad	-1252
marath	-1253
proper	-1254
various	-1255
infections	-1256
che	-1257
want	-1258
lines	-1259
paren	-1260
staff	-1261
animal	-1262
maj	-1263
land	-1264
▁¦6¦	-1265
secre	-1266
six	-1267
ibut	-1268
inje	-1269
lung	-1270
facil	-1271
night	-1272
rapidly	-1273
admitted	-1274
distance	-1275
gn	-1276
hu	-1277
beg	-1278
ory	-1279
suf	-1280
ders	-1281
each	-1282
least	-1283
touch	-1284
ution	-1285
compan	-1286
industr	-1287
protect	-1288
transport	-1289
rt	-1290
see	-1291
sug	-1292
free	-1293
ised	-1294
continue	-1295
everyone	-1296
leg	-1297
esivir	-1298
scient	-1299
condition	-1300
ot	-1301
hol	-1302
bhar	-1303
media	-1304
sures	-1305
author	-1306
necess	-1307
epidemic	-1308
ins	-1309
nor	-1310
rav	-1311
wad	-1312
cept	-1313
ided	-1314
just	-1315
self	-1316
youn	-1317
iting	-1318
major	-1319
▁¦14¦	-1320
within	-1321
confirmed	-1322
stu	-1323
ends	-1324
fort	-1325
task	-1326
claim	-1327
consid	-1328
safety	-1329
getting	-1330
ls	-1331
wu	-1332
den	-1333
pan	-1334
pcr	-1335
gram	-1336
host	-1337
plic	-1338
wuhan	-1339
office	-1340
reduce	-1341
closures	-1342
dev	-1343
imm	-1344
activ	-1345
board	-1346
community	-1347
nal	-1348
biotech	-1349
parents	-1350
remedesivir	-1351
wr	-1352
chall	-1353
cough	-1354
shops	-1355
weeks	-1356
result	-1357
gi	-1358
bus	-1359
guide	-1360
ought	-1361
plann	-1362
▁!	-1363
neg	-1364
dece	-1365
pain	-1366
▁¦12	-1367
active	-1368
caused	-1369
employ	-1370
immune	-1371
ibility	-1372
pradesh	-1373
passengers	-1374
til	-1375
aily	-1376
cold	-1377
june	-1378
clear	-1379
daily	-1380
instru	-1381
lished	-1382
service	-1383
expected	-1384
evid	-1385
look	-1386
naren	-1387
others	-1388
covacin	-1389
special	-1390
suggest	-1391
village	-1392
narendra	-1393
acity	-1394
chest	-1395
close	-1396
▁¦11¦	-1397
invest	-1398
relatives	-1399
dc	-1400
jp	-1401
ph	-1402
ben	-1403
ome	-1404
own	-1405
put	-1406
ton	-1407
twe	-1408
agno	-1409
▁¦8¦	-1410
estim	-1411
odies	-1412
rence	-1413
retur	-1414
suppl	-1415
diagno	-1416
director	-1417
evidence	-1418
companies	-1419
antibodies	-1420
icu	-1421
ues	-1422
abad	-1423
cost	-1424
decl	-1425
euro	-1426
food	-1427
give	-1428
kill	-1429
path	-1430
issue	-1431
ually	-1432
decided	-1433
effects	-1434
results	-1435
capacity	-1436
diseases	-1437
▁’	-1438
bjp	-1439
rus	-1440
remo	-1441
ured	-1442
▁¦201	-1443
ravati	-1444
highest	-1445
required	-1446
following	-1447
ram	-1448
jour	-1449
ensive	-1450
viruses	-1451
underlying	-1452
fig	-1453
paw	-1454
expo	-1455
influ	-1456
tweet	-1457
viral	-1458
amravati	-1459
received	-1460
ventilators	-1461
adv	-1462
phy	-1463
pne	-1464
mort	-1465
lives	-1466
pneum	-1467
south	-1468
breath	-1469
cannot	-1470
cities	-1471
common	-1472
humans	-1473
conducted	-1474
ety	-1475
nat	-1476
pal	-1477
news	-1478
clean	-1479
december	-1480
distribut	-1481
ink	-1482
aled	-1483
plan	-1484
check	-1485
europe	-1486
letter	-1487
online	-1488
pecial	-1489
secret	-1490
statist	-1491
provided	-1492
meanwhile	-1493
necessary	-1494
pot	-1495
mult	-1496
acute	-1497
decre	-1498
▁¦12¦	-1499
▁¦18¦	-1500
bharat	-1501
expres	-1502
includ	-1503
growing	-1504
individ	-1505
marathi	-1506
persons	-1507
project	-1508
sun	-1509
ford	-1510
ined	-1511
ines	-1512
gress	-1513
iness	-1514
pawar	-1515
respons	-1516
individual	-1517
nav	-1518
ardi	-1519
ling	-1520
uses	-1521
italy	-1522
needs	-1523
officer	-1524
outside	-1525
ri	-1526
ont	-1527
wer	-1528
anti	-1529
carr	-1530
orig	-1531
comes	-1532
▁¦100¦	-1533
program	-1534
especial	-1535
districts	-1536
spreading	-1537
especially	-1538
guidelines	-1539
mer	-1540
dete	-1541
room	-1542
prior	-1543
taluk	-1544
sanitiz	-1545
ds	-1546
ban	-1547
▁,"	-1548
tail	-1549
took	-1550
stock	-1551
declin	-1552
monitor	-1553
problems	-1554
officials	-1555
registered	-1556
immediately	-1557
loc	-1558
away	-1559
immun	-1560
young	-1561
recent	-1562
sector	-1563
survey	-1564
conside	-1565
potential	-1566
considered	-1567
facilities	-1568
ims	-1569
find	-1570
onia	-1571
court	-1572
0,000¦	-1573
arding	-1574
position	-1575
isolation	-1576
mortality	-1577
international	-1578
rna	-1579
sha	-1580
syn	-1581
date	-1582
iday	-1583
izer	-1584
mild	-1585
estab	-1586
front	-1587
gener	-1588
until	-1589
encing	-1590
genome	-1591
needed	-1592
journal	-1593
typ	-1594
alco	-1595
meth	-1596
acter	-1597
benef	-1598
drugs	-1599
vered	-1600
commit	-1601
happen	-1602
review	-1603
bh	-1604
▁“	-1605
tru	-1606
uty	-1607
alcohol	-1608
negative	-1609
difficult	-1610
bor	-1611
ism	-1612
yes	-1613
char	-1614
feel	-1615
seem	-1616
soon	-1617
▁¦1.	-1618
advis	-1619
later	-1620
enough	-1621
having	-1622
investig	-1623
pneumonia	-1624
gp	-1625
pf	-1626
ara	-1627
bro	-1628
mes	-1629
off	-1630
ving	-1631
moder	-1632
pfizer	-1633
illness	-1634
logical	-1635
released	-1636
secretary	-1637
statistics	-1638
equ	-1639
lot	-1640
nur	-1641
ped	-1642
vas	-1643
cies	-1644
hote	-1645
icro	-1646
tern	-1647
chain	-1648
teach	-1649
applic	-1650
change	-1651
senior	-1652
initial	-1653
critical	-1654
regarding	-1655
▁”	-1656
sep	-1657
too	-1658
▁%)	-1659
drop	-1660
enza	-1661
harm	-1662
pped	-1663
ship	-1664
genet	-1665
ights	-1666
utions	-1667
leaders	-1668
business	-1669
influenza	-1670
political	-1671
recommended	-1672
ber	-1673
lor	-1674
pay	-1675
▁¦0	-1676
step	-1677
type	-1678
viro	-1679
iving	-1680
idence	-1681
concern	-1682
asy	-1683
aur	-1684
kin	-1685
suc	-1686
aged	-1687
cells	-1688
great	-1689
regul	-1690
septe	-1691
think	-1692
taluka	-1693
▁¦2021¦	-1694
informed	-1695
declining	-1696
questions	-1697
september	-1698
healthcare	-1699
nes	-1700
net	-1701
phys	-1702
prim	-1703
stop	-1704
went	-1705
▁¦9¦	-1706
occur	-1707
uttar	-1708
impact	-1709
levels	-1710
origin	-1711
employe	-1712
infectious	-1713
wa	-1714
▁/	-1715
abo	-1716
aid	-1717
cdc	-1718
ily	-1719
fill	-1720
ters	-1721
ances	-1722
matic	-1723
means	-1724
recor	-1725
observ	-1726
learning	-1727
medicine	-1728
-2	-1729
ry	-1730
ded	-1731
dia	-1732
erat	-1733
prev	-1734
team	-1735
right	-1736
leader	-1737
oxford	-1738
implemented	-1739
sc	-1740
aly	-1741
bab	-1742
mid	-1743
wed	-1744
▁'.	-1745
ency	-1746
life	-1747
once	-1748
prep	-1749
tank	-1750
finan	-1751
patho	-1752
regard	-1753
economic	-1754
coronaviruses	-1755
ah	-1756
ft	-1757
dou	-1758
occ	-1759
tee	-1760
tre	-1761
deli	-1762
desp	-1763
grap	-1764
slow	-1765
astra	-1766
earli	-1767
examp	-1768
invol	-1769
often	-1770
reser	-1771
trial	-1772
despite	-1773
signific	-1774
financial	-1775
experience	-1776
examination	-1777
individuals	-1778
commissioner	-1779
als	-1780
fici	-1781
prof	-1782
chand	-1783
deter	-1784
partic	-1785
preval	-1786
ishield	-1787
offices	-1788
planning	-1789
dry	-1790
exp	-1791
brit	-1792
full	-1793
iran	-1794
sick	-1795
▁¦19	-1796
above	-1797
began	-1798
begin	-1799
chlor	-1800
dings	-1801
drome	-1802
might	-1803
▁¦16¦	-1804
▁¦2019¦	-1805
demanded	-1806
maintain	-1807
syndrome	-1808
temperat	-1809
published	-1810
da	-1811
kum	-1812
hold	-1813
ides	-1814
reli	-1815
stor	-1816
already	-1817
numbers	-1818
practices	-1819
laboratory	-1820
significant	-1821
win	-1822
ians	-1823
toll	-1824
alleg	-1825
shown	-1826
waste	-1827
▁¦31¦	-1828
▁¦40¦	-1829
critic	-1830
single	-1831
trying	-1832
college	-1833
genetic	-1834
industry	-1835
specific	-1836
completely	-1837
prevention	-1838
instructions	-1839
buil	-1840
fear	-1841
trac	-1842
vict	-1843
zene	-1844
equip	-1845
nagar	-1846
rates	-1847
relig	-1848
curfew	-1849
zeneca	-1850
immunity	-1851
previous	-1852
produced	-1853
worldwide	-1854
inte	-1855
itis	-1856
near	-1857
role	-1858
tric	-1859
ately	-1860
diarr	-1861
ently	-1862
lling	-1863
micro	-1864
separ	-1865
manage	-1866
things	-1867
certain	-1868
changes	-1869
reached	-1870
reduced	-1871
reports	-1872
success	-1873
ana	-1874
cir	-1875
fad	-1876
ore	-1877
awal	-1878
bats	-1879
conf	-1880
gone	-1881
must	-1882
road	-1883
thro	-1884
unch	-1885
const	-1886
navis	-1887
deputy	-1888
nology	-1889
policy	-1890
strate	-1891
though	-1892
example	-1893
protein	-1894
reasons	-1895
fadnavis	-1896
official	-1897
underway	-1898
developing	-1899
eo	-1900
▁".	-1901
comb	-1902
name	-1903
past	-1904
rail	-1905
exams	-1906
proto	-1907
limited	-1908
require	-1909
society	-1910
statement	-1911
suspected	-1912
vaccinate	-1913
ii	-1914
rc	-1915
50¦	-1916
bid	-1917
cts	-1918
ged	-1919
nam	-1920
ajit	-1921
hygi	-1922
agric	-1923
enter	-1924
press	-1925
ending	-1926
figures	-1927
agricult	-1928
protocol	-1929
collector	-1930
discussed	-1931
permission	-1932
containment	-1933
governments	-1934
amb	-1935
hea	-1936
ond	-1937
pap	-1938
tle	-1939
left	-1940
real	-1941
toge	-1942
along	-1943
anger	-1944
aster	-1945
video	-1946
▁¦200	-1947
causes	-1948
variant	-1949
victims	-1950
wearing	-1951
together	-1952
committee	-1953
employees	-1954
mandatory	-1955
bas	-1956
chr	-1957
ges	-1958
rsc	-1959
rcgp	-1960
utes	-1961
kumar	-1962
pregn	-1963
▁¦60¦	-1964
ensure	-1965
earlier	-1966
primary	-1967
produce	-1968
stopped	-1969
antibody	-1970
exposure	-1971
breathing	-1972
incidence	-1973
opposition	-1974
scientists	-1975
association	-1976
considering	-1977
cut	-1978
ppe	-1979
amin	-1980
card	-1981
orde	-1982
novel	-1983
friday	-1984
season	-1985
species	-1986
contract	-1987
directly	-1988
families	-1989
expressed	-1990
covishield	-1991
management	-1992
.5¦	-1993
ago	-1994
got	-1995
phe	-1996
xim	-1997
bank	-1998
cand	-1999
kumb	-2000
russ	-2001
effor	-2002
light	-2003
thane	-2004
candid	-2005
diabet	-2006
ention	-2007
entire	-2008
sunday	-2009
discuss	-2010
efforts	-2011
studies	-2012
talking	-2013
authorities	-2014
bl	-2015
vo	-2016
bur	-2017
fil	-2018
fut	-2019
mela	-2020
fully	-2021
kumbh	-2022
lower	-2023
▁¦25¦	-2024
▁¦28¦	-2025
▁¦45¦	-2026
access	-2027
issues	-2028
mental	-2029
created	-2030
congress	-2031
equipment	-2032
additional	-2033
injections	-2034
hic	-2035
ize	-2036
pri	-2037
aver	-2038
enge	-2039
nose	-2040
play	-2041
shiv	-2042
conne	-2043
onset	-2044
appear	-2045
depend	-2046
events	-2047
former	-2048
method	-2049
prepar	-2050
announce	-2051
followed	-2052
challenge	-2053
associated	-2054
tw	-2055
acy	-2056
aik	-2057
hit	-2058
hun	-2059
ium	-2060
job	-2061
met	-2062
mob	-2063
circ	-2064
fail	-2065
move	-2066
▁¦11	-2067
awala	-2068
confe	-2069
ening	-2070
mater	-2071
occas	-2072
parts	-2073
postp	-2074
types	-2075
verse	-2076
bacter	-2077
consul	-2078
design	-2079
normal	-2080
continu	-2081
iveness	-2082
ordered	-2083
pressure	-2084
effectiveness	-2085
bi	-2086
dy	-2087
ane	-2088
rup	-2089
sud	-2090
cale	-2091
kits	-2092
late	-2093
tour	-2094
afric	-2095
cting	-2096
exact	-2097
seven	-2098
track	-2099
▁¦23¦	-2100
▁¦70¦	-2101
future	-2102
member	-2103
ources	-2104
hygiene	-2105
systems	-2106
compared	-2107
diarrhea	-2108
election	-2109
standard	-2110
medicines	-2111
undergoing	-2112
ventilator	-2113
manufacture	-2114
-1	-2115
mr	-2116
bha	-2117
hib	-2118
ner	-2119
oqu	-2120
pas	-2121
try	-2122
apur	-2123
hind	-2124
hist	-2125
kore	-2126
live	-2127
load	-2128
sonu	-2129
ulty	-2130
analy	-2131
inary	-2132
patil	-2133
satur	-2134
▁¦17¦	-2135
became	-2136
danger	-2137
launch	-2138
matter	-2139
oquine	-2140
raised	-2141
occasion	-2142
chloroquine	-2143
temperature	-2144
,2	-2145
hot	-2146
iat	-2147
bill	-2148
liqu	-2149
nash	-2150
rise	-2151
site	-2152
ways	-2153
writ	-2154
exist	-2155
leave	-2156
limit	-2157
scale	-2158
▁¦21¦	-2159
ession	-2160
groups	-2161
menstr	-2162
nashik	-2163
nurses	-2164
antivir	-2165
asympto	-2166
remedic	-2167
controls	-2168
extended	-2169
particular	-2170
researchers	-2171
asymptomatic	-2172
ja	-2173
ya	-2174
yo	-2175
ale	-2176
dom	-2177
web	-2178
wear	-2179
amoun	-2180
bring	-2181
count	-2182
recept	-2183
saying	-2184
animals	-2185
perform	-2186
diabetes	-2187
european	-2188
particip	-2189
pathogen	-2190
injection	-2191
mutations	-2192
recovered	-2193
religious	-2194
identified	-2195
sequencing	-2196
availability	-2197
ez	-2198
nu	-2199
cab	-2200
ona	-2201
sne	-2202
list	-2203
unit	-2204
alone	-2205
cylin	-2206
impro	-2207
party	-2208
posed	-2209
except	-2210
claimed	-2211
foreign	-2212
largest	-2213
morning	-2214
problem	-2215
tweeted	-2216
declared	-2217
attention	-2218
diagnosed	-2219
ministers	-2220
thousands	-2221
prevalence	-2222
quarantined	-2223
,4	-2224
acc	-2225
ify	-2226
shi	-2227
wel	-2228
adar	-2229
kept	-2230
stre	-2231
ctive	-2232
indic	-2233
pharm	-2234
point	-2235
secur	-2236
store	-2237
super	-2238
usion	-2239
▁¦90¦	-2240
killed	-2241
little	-2242
orders	-2243
factors	-2244
markets	-2245
network	-2246
antiviral	-2247
establish	-2248
remedivir	-2249
recommends	-2250
technology	-2251
,1	-2252
bra	-2253
jar	-2254
law	-2255
ghar	-2256
grad	-2257
ster	-2258
sched	-2259
vehic	-2260
▁¦22¦	-2261
assist	-2262
tracing	-2263
included	-2264
personal	-2265
prepared	-2266
recently	-2267
security	-2268
virology	-2269
ead	-2270
ier	-2271
gave	-2272
ners	-2273
ones	-2274
term	-2275
added	-2276
apart	-2277
contr	-2278
vasai	-2279
proced	-2280
average	-2281
economy	-2282
history	-2283
regular	-2284
appealed	-2285
approach	-2286
cru	-2287
dig	-2288
gre	-2289
ked	-2290
adul	-2291
beng	-2292
clar	-2293
fund	-2294
greg	-2295
ming	-2296
skin	-2297
swab	-2298
west	-2299
cabin	-2300
cover	-2301
seems	-2302
▁¦80¦	-2303
advice	-2304
assess	-2305
awaren	-2306
bengal	-2307
contag	-2308
create	-2309
living	-2310
making	-2311
cancell	-2312
treated	-2313
controll	-2314
mutation	-2315
awareness	-2316
beginning	-2317
suggested	-2318
difficulty	-2319
application	-2320
distribution	-2321
vaccinations	-2322
,3	-2323
,5	-2324
ru	-2325
gym	-2326
kol	-2327
ref	-2328
bird	-2329
havi	-2330
ives	-2331
susp	-2332
paper	-2333
power	-2334
sneez	-2335
steps	-2336
takes	-2337
metric	-2338
stages	-2339
target	-2340
threat	-2341
throat	-2342
changed	-2343
ization	-2344
natural	-2345
challeng	-2346
colleges	-2347
observed	-2348
training	-2349
estimated	-2350
intensive	-2351
possibility	-2352
responsibility	-2353
ani	-2354
cil	-2355
dam	-2356
ech	-2357
erc	-2358
ets	-2359
key	-2360
rah	-2361
zil	-2362
excl	-2363
hary	-2364
hypo	-2365
lost	-2366
suff	-2367
terr	-2368
▁¦18	-2369
cance	-2370
field	-2371
lungs	-2372
stage	-2373
table	-2374
adults	-2375
amount	-2376
ancing	-2377
brazil	-2378
mobile	-2379
recogn	-2380
sample	-2381
status	-2382
▁¦200¦	-2383
flights	-2384
itation	-2385
palghar	-2386
written	-2387
consider	-2388
recommend	-2389
scientific	-2390
remedicivir	-2391
hn	-2392
car	-2393
ica	-2394
ike	-2395
jal	-2396
mla	-2397
nik	-2398
psy	-2399
aris	-2400
chan	-2401
hard	-2402
save	-2403
sche	-2404
shar	-2405
vard	-2406
▁¦14	-2407
austr	-2408
frequ	-2409
mouth	-2410
plain	-2411
purch	-2412
virar	-2413
wards	-2414
▁¦13¦	-2415
detail	-2416
stress	-2417
advised	-2418
britain	-2419
crowded	-2420
recover	-2421
practice	-2422
saturday	-2423
hospitalized	-2424
az	-2425
tt	-2426
aug	-2427
cho	-2428
fat	-2429
hus	-2430
rub	-2431
adap	-2432
agar	-2433
iple	-2434
jumb	-2435
mach	-2436
onic	-2437
scre	-2438
thus	-2439
trad	-2440
vars	-2441
adequ	-2442
aging	-2443
ambul	-2444
compl	-2445
disco	-2446
exerc	-2447
faces	-2448
jumbo	-2449
rtpcr	-2450
singh	-2451
veget	-2452
▁¦26¦	-2453
anyone	-2454
france	-2455
ground	-2456
logist	-2457
modern	-2458
therap	-2459
varsha	-2460
vision	-2461
ficient	-2462
germany	-2463
delivery	-2464
findings	-2465
includes	-2466
priority	-2467
proteins	-2468
protective	-2469
mus	-2470
adhy	-2471
book	-2472
cyto	-2473
door	-2474
dred	-2475
john	-2476
octo	-2477
plat	-2478
tell	-2479
▁¦16	-2480
aries	-2481
cured	-2482
envir	-2483
graph	-2484
happy	-2485
ivity	-2486
joshi	-2487
korea	-2488
relax	-2489
techn	-2490
▁¦27¦	-2491
answer	-2492
arrest	-2493
behind	-2494
passed	-2495
scheme	-2496
atories	-2497
environ	-2498
exactly	-2499
hundred	-2500
minutes	-2501
october	-2502
strateg	-2503
complain	-2504
launched	-2505
location	-2506
recovery	-2507
supplied	-2508
decreased	-2509
initially	-2510
monitoring	-2511
laboratories	-2512
dle	-2513
iot	-2514
lat	-2515
lif	-2516
muk	-2517
ord	-2518
urs	-2519
huge	-2520
iers	-2521
sput	-2522
vacy	-2523
antig	-2524
black	-2525
eight	-2526
ences	-2527
harsh	-2528
preca	-2529
rahul	-2530
urban	-2531
africa	-2532
almost	-2533
facing	-2534
guardi	-2535
middle	-2536
option	-2537
region	-2538
russia	-2539
sities	-2540
stocks	-2541
cabinet	-2542
privacy	-2543
request	-2544
adequate	-2545
touching	-2546
completed	-2547
elections	-2548
distancing	-2549
protection	-2550
universities	-2551
,6	-2552
ti	-2553
ake	-2554
ero	-2555
pho	-2556
pun	-2557
smo	-2558
vol	-2559
bann	-2560
beli	-2561
nove	-2562
pict	-2563
send	-2564
sero	-2565
aceut	-2566
canad	-2567
gujar	-2568
never	-2569
posal	-2570
terms	-2571
thurs	-2572
whole	-2573
attack	-2574
factor	-2575
monday	-2576
satara	-2577
showed	-2578
sudden	-2579
closure	-2580
digital	-2581
running	-2582
setting	-2583
communic	-2584
detected	-2585
determin	-2586
interact	-2587
november	-2588
teachers	-2589
thursday	-2590
aceutical	-2591
criticized	-2592
fa	-2593
ks	-2594
lt	-2595
die	-2596
fri	-2597
ons	-2598
ple	-2599
row	-2600
via	-2601
vin	-2602
▁..	-2603
dead	-2604
ened	-2605
gaik	-2606
ings	-2607
mess	-2608
mone	-2609
▁¦15	-2610
delay	-2611
doing	-2612
homes	-2613
hotel	-2614
ising	-2615
izing	-2616
plans	-2617
bodies	-2618
examin	-2619
gather	-2620
mother	-2621
nation	-2622
nesday	-2623
priate	-2624
sanjay	-2625
account	-2626
explain	-2627
gaikwad	-2628
gujarat	-2629
instead	-2630
organis	-2631
solapur	-2632
approval	-2633
backdrop	-2634
guardian	-2635
projects	-2636
separate	-2637
sanitizer	-2638
suffering	-2639
wednesday	-2640
contagious	-2641
sanitizers	-2642
appropriate	-2643
manufacturing	-2644
transportation	-2645
,8	-2646
pi	-2647
bar	-2648
eve	-2649
gar	-2650
pet	-2651
que	-2652
urg	-2653
vit	-2654
doub	-2655
east	-2656
inqu	-2657
pack	-2658
paid	-2659
poin	-2660
viol	-2661
phone	-2662
trump	-2663
woman	-2664
decide	-2665
growth	-2666
idents	-2667
tempor	-2668
picture	-2669
railway	-2670
release	-2671
storage	-2672
constant	-2673
multiple	-2674
officers	-2675
pregnant	-2676
register	-2677
returned	-2678
severity	-2679
solution	-2680
concerned	-2681
disinfect	-2682
lications	-2683
difference	-2684
responsible	-2685
pharmaceutical	-2686
0-	-2687
ju	-2688
kh	-2689
▁–	-2690
kan	-2691
kit	-2692
nel	-2693
acid	-2694
ande	-2695
band	-2696
cali	-2697
flam	-2698
forn	-2699
mind	-2700
poon	-2701
▁¦2.	-2702
hydro	-2703
initi	-2704
older	-2705
photo	-2706
visit	-2707
better	-2708
notice	-2709
brought	-2710
mention	-2711
tankers	-2712
vardhan	-2713
californ	-2714
changing	-2715
physical	-2716
presence	-2717
journalist	-2718
understand	-2719
agricultural	-2720
announcement	-2721
zo	-2722
ira	-2723
nas	-2724
tax	-2725
upd	-2726
▁%.	-2727
acqu	-2728
amer	-2729
desh	-2730
elec	-2731
enzy	-2732
fall	-2733
guid	-2734
ival	-2735
lets	-2736
loss	-2737
memb	-2738
ring	-2739
walk	-2740
weak	-2741
descr	-2742
effic	-2743
elder	-2744
focus	-2745
hyder	-2746
hypox	-2747
▁¦29¦	-2748
aurang	-2749
export	-2750
grocer	-2751
longer	-2752
obtain	-2753
pediat	-2754
strong	-2755
tonnes	-2756
council	-2757
members	-2758
approxim	-2759
interest	-2760
involved	-2761
isolated	-2762
admission	-2763
hyderabad	-2764
performed	-2765
aurangabad	-2766
conference	-2767
procedures	-2768
ku	-2769
eas	-2770
haz	-2771
lam	-2772
mil	-2773
spo	-2774
fast	-2775
hong	-2776
poly	-2777
rush	-2778
tery	-2779
deven	-2780
entry	-2781
flamm	-2782
money	-2783
purpo	-2784
share	-2785
course	-2786
antigen	-2787
carried	-2788
overall	-2789
postpon	-2790
respond	-2791
someone	-2792
studied	-2793
bacteria	-2794
devendra	-2795
guidance	-2796
properly	-2797
treating	-2798
outbreaks	-2799
pediatric	-2800
resources	-2801
contracted	-2802
departments	-2803
43¦	-2804
buy	-2805
hra	-2806
pil	-2807
pul	-2808
rem	-2809
wat	-2810
chem	-2811
ever	-2812
feet	-2813
fest	-2814
peak	-2815
semb	-2816
shut	-2817
tues	-2818
uded	-2819
cardi	-2820
defin	-2821
doesn	-2822
endra	-2823
ither	-2824
ource	-2825
promo	-2826
speed	-2827
encies	-2828
formul	-2829
adverse	-2830
austral	-2831
capital	-2832
planned	-2833
restaur	-2834
subject	-2835
therapy	-2836
tuesday	-2837
usually	-2838
activity	-2839
existing	-2840
meetings	-2841
millions	-2842
spective	-2843
dangerous	-2844
poonawala	-2845
combination	-2846
discussions	-2847
organizations	-2848
,9	-2849
os	-2850
ugg	-2851
auto	-2852
code	-2853
gaon	-2854
mass	-2855
rodu	-2856
toil	-2857
wali	-2858
zone	-2859
▁...	-2860
▁¦13	-2861
bhond	-2862
cular	-2863
event	-2864
inspe	-2865
iring	-2866
serve	-2867
spike	-2868
vijay	-2869
andeep	-2870
banned	-2871
conver	-2872
diwali	-2873
double	-2874
eating	-2875
giving	-2876
rising	-2877
▁¦500¦	-2878
bhondwe	-2879
classes	-2880
closing	-2881
exposed	-2882
failure	-2883
hypoxia	-2884
inflamm	-2885
introdu	-2886
missing	-2887
ongoing	-2888
registr	-2889
building	-2890
efficacy	-2891
provides	-2892
starting	-2893
variants	-2894
villages	-2895
contacted	-2896
dependent	-2897
secondary	-2898
assistance	-2899
critically	-2900
strategies	-2901
allegations	-2902
established	-2903
examinations	-2904
manufacturers	-2905
ji	-2906
▁&	-2907
▁]	-2908
bei	-2909
etc	-2910
fed	-2911
fre	-2912
jap	-2913
jur	-2914
ush	-2915
won	-2916
coll	-2917
icmr	-2918
item	-2919
kong	-2920
kris	-2921
sore	-2922
tend	-2923
unte	-2924
▁¦22	-2925
▁¦24	-2926
forms	-2927
refer	-2928
tions	-2929
drying	-2930
engine	-2931
liquid	-2932
prelim	-2933
return	-2934
shield	-2935
simple	-2936
chronic	-2937
desivir	-2938
elderly	-2939
sputnik	-2940
agencies	-2941
analysis	-2942
canceled	-2943
cleaning	-2944
happened	-2945
incident	-2946
recorded	-2947
relative	-2948
territor	-2949
decisions	-2950
gregation	-2951
providing	-2952
struction	-2953
candidates	-2954
nationwide	-2955
accordingly	-2956
distributed	-2957
environment	-2958
preliminary	-2959
approximately	-2960
ea	-2961
ka	-2962
xy	-2963
▁[	-2964
adu	-2965
ape	-2966
cop	-2967
fda	-2968
hna	-2969
igr	-2970
sid	-2971
sum	-2972
acce	-2973
ards	-2974
emio	-2975
eyes	-2976
feed	-2977
ires	-2978
migr	-2979
plas	-2980
rain	-2981
sele	-2982
wise	-2983
estic	-2984
golin	-2985
harma	-2986
model	-2987
rapur	-2988
sites	-2989
works	-2990
ancies	-2991
attend	-2992
crowds	-2993
expert	-2994
highly	-2995
mechan	-2996
rather	-2997
stores	-2998
weekly	-2999
actions	-3000
address	-3001
parties	-3002
directed	-3003
epidemio	-3004
function	-3005
pangolin	-3006
generally	-3007
mentioned	-3008
traveling	-3009
chandrapur	-3010
everything	-3011
pathogenic	-3012
territories	-3013
particularly	-3014
cu	-3015
pa	-3016
95¦	-3017
bad	-3018
tic	-3019
amit	-3020
avin	-3021
ceed	-3022
dhar	-3023
ense	-3024
reme	-3025
ucas	-3026
▁¦0.	-3027
▁¦17	-3028
ables	-3029
aches	-3030
agues	-3031
ahmed	-3032
concl	-3033
covin	-3034
erala	-3035
inhib	-3036
itter	-3037
japan	-3038
joint	-3039
malik	-3040
nucle	-3041
plant	-3042
pread	-3043
solid	-3044
wides	-3045
youth	-3046
altern	-3047
august	-3048
coding	-3049
damage	-3050
detect	-3051
disrup	-3052
extent	-3053
flight	-3054
hotels	-3055
kerala	-3056
promis	-3057
▁¦2019	-3058
comfort	-3059
consist	-3060
england	-3061
krishna	-3062
methods	-3063
thought	-3064
unknown	-3065
fighting	-3066
surfaces	-3067
vehicles	-3068
authority	-3069
clarified	-3070
confusion	-3071
controver	-3072
cylinders	-3073
estimates	-3074
organisms	-3075
represent	-3076
industrial	-3077
widespread	-3078
ventilation	-3079
intermediate	-3080
menstruation	-3081
significantly	-3082
,7	-3083
mi	-3084
▁$	-3085
ats	-3086
bol	-3087
gir	-3088
hop	-3089
ina	-3090
jri	-3091
mam	-3092
ols	-3093
ony	-3094
rit	-3095
baba	-3096
feat	-3097
fing	-3098
mukh	-3099
poor	-3100
anand	-3101
anded	-3102
apore	-3103
cture	-3104
istan	-3105
lucas	-3106
price	-3107
rajas	-3108
subst	-3109
assemb	-3110
cutive	-3111
benefit	-3112
extreme	-3113
farmers	-3114
greater	-3115
husband	-3116
organic	-3117
science	-3118
student	-3119
twitter	-3120
visited	-3121
arrested	-3122
coughing	-3123
deshmukh	-3124
disaster	-3125
domestic	-3126
facility	-3127
politics	-3128
receptor	-3129
diagnosis	-3130
gradually	-3131
rajasthan	-3132
singapore	-3133
businesses	-3134
constantly	-3135
discussion	-3136
programmes	-3137
segregation	-3138
▁#	-3139
ari	-3140
aud	-3141
iry	-3142
ler	-3143
oms	-3144
rad	-3145
aero	-3146
apps	-3147
fine	-3148
goes	-3149
jobs	-3150
july	-3151
miss	-3152
nath	-3153
pect	-3154
rect	-3155
shas	-3156
shif	-3157
sood	-3158
spok	-3159
surg	-3160
tees	-3161
enced	-3162
ensin	-3163
essor	-3164
hosts	-3165
kejri	-3166
mayor	-3167
reddy	-3168
space	-3169
▁¦48¦	-3170
agency	-3171
encour	-3172
enzyme	-3173
pharma	-3174
provin	-3175
replic	-3176
aerosol	-3177
careful	-3178
consult	-3179
decline	-3180
funeral	-3181
website	-3182
benefits	-3183
kejriwal	-3184
reaction	-3185
surgical	-3186
continues	-3187
personnel	-3188
professor	-3189
returning	-3190
vacancies	-3191
colleagues	-3192
sufficient	-3193
throughout	-3194
experiencing	-3195
implementation	-3196
cm	-3197
tu	-3198
63¦	-3199
boy	-3200
heb	-3201
ius	-3202
kas	-3203
lia	-3204
lon	-3205
raw	-3206
ray	-3207
tes	-3208
tri	-3209
ably	-3210
answ	-3211
athe	-3212
cert	-3213
crip	-3214
curb	-3215
gand	-3216
ging	-3217
hada	-3218
hang	-3219
poll	-3220
prog	-3221
talk	-3222
tons	-3223
true	-3224
arbha	-3225
chair	-3226
clots	-3227
drive	-3228
final	-3229
hapur	-3230
hubei	-3231
items	-3232
makes	-3233
shock	-3234
tried	-3235
usual	-3236
either	-3237
faster	-3238
fortun	-3239
selves	-3240
source	-3241
specim	-3242
stated	-3243
stored	-3244
unlock	-3245
worker	-3246
facilit	-3247
hydroxy	-3248
leading	-3249
located	-3250
measure	-3251
options	-3252
strains	-3253
surface	-3254
material	-3255
moderate	-3256
vidarbha	-3257
australia	-3258
collected	-3259
continued	-3260
intervent	-3261
postponed	-3262
percentage	-3263
treatments	-3264
communities	-3265
regulations	-3266
restaurants	-3267
manufactured	-3268
registration	-3269
ns	-3270
avi	-3271
fif	-3272
hin	-3273
mbr	-3274
rep	-3275
roy	-3276
saw	-3277
ste	-3278
best	-3279
cele	-3280
cere	-3281
crim	-3282
deal	-3283
devo	-3284
ered	-3285
otic	-3286
pred	-3287
reve	-3288
voir	-3289
arily	-3290
attle	-3291
basis	-3292
clust	-3293
custo	-3294
membr	-3295
minim	-3296
munde	-3297
plied	-3298
sense	-3299
units	-3300
worse	-3301
angiot	-3302
behavi	-3303
celebr	-3304
gandhi	-3305
opport	-3306
record	-3307
relief	-3308
resort	-3309
slowly	-3310
toilet	-3311
describ	-3312
italian	-3313
johnson	-3314
keeping	-3315
learned	-3316
product	-3317
schedul	-3318
session	-3319
sitting	-3320
station	-3321
staying	-3322
concerns	-3323
decrease	-3324
droplets	-3325
kolhapur	-3326
opportun	-3327
outcomes	-3328
products	-3329
serology	-3330
sneezing	-3331
supplies	-3332
campaigns	-3333
candidate	-3334
frontline	-3335
household	-3336
reservoir	-3337
shortness	-3338
challenges	-3339
vegetables	-3340
angiotensin	-3341
educational	-3342
potentially	-3343
precautions	-3344
institutions	-3345
investigation	-3346
participating	-3347
29	-3348
ba	-3349
ey	-3350
lu	-3351
nc	-3352
arv	-3353
boo	-3354
eno	-3355
fal	-3356
gad	-3357
gas	-3358
gue	-3359
hat	-3360
hen	-3361
naw	-3362
ney	-3363
nov	-3364
acad	-3365
bhus	-3366
bing	-3367
blue	-3368
bron	-3369
cock	-3370
cure	-3371
idge	-3372
immu	-3373
inde	-3374
noon	-3375
paul	-3376
rare	-3377
tick	-3378
zoon	-3379
codes	-3380
empty	-3381
explo	-3382
false	-3383
tored	-3384
worth	-3385
attemp	-3386
conven	-3387
karona	-3388
plasma	-3389
ramdev	-3390
shared	-3391
trains	-3392
british	-3393
deliver	-3394
finally	-3395
receive	-3396
relaxed	-3397
showing	-3398
uration	-3399
waiting	-3400
wedding	-3401
chemical	-3402
distress	-3403
excluded	-3404
hundreds	-3405
learners	-3406
platform	-3407
progress	-3408
materials	-3409
otherwise	-3410
presented	-3411
sometimes	-3412
activities	-3413
california	-3414
coronation	-3415
importance	-3416
preventing	-3417
remdesivir	-3418
respective	-3419
agriculture	-3420
journalists	-3421
construction	-3422
ta	-3423
alp	-3424
bes	-3425
bic	-3426
bir	-3427
cam	-3428
fit	-3429
ila	-3430
ili	-3431
itu	-3432
jam	-3433
mol	-3434
sar	-3435
ule	-3436
-229	-3437
ancy	-3438
hank	-3439
hope	-3440
leav	-3441
note	-3442
raid	-3443
seek	-3444
sell	-3445
sena	-3446
spot	-3447
surv	-3448
text	-3449
trou	-3450
wait	-3451
accur	-3452
bihar	-3453
degre	-3454
named	-3455
panch	-3456
quant	-3457
tomor	-3458
wrong	-3459
abroad	-3460
advant	-3461
claims	-3462
counts	-3463
delive	-3464
deploy	-3465
father	-3466
filled	-3467
handle	-3468
minute	-3469
remote	-3470
rights	-3471
tanker	-3472
terday	-3473
timely	-3474
warned	-3475
widely	-3476
besides	-3477
billion	-3478
comment	-3479
degrees	-3480
holiday	-3481
inquiry	-3482
kovacin	-3483
looking	-3484
operate	-3485
portion	-3486
predict	-3487
quality	-3488
sectors	-3489
tension	-3490
ubation	-3491
assembly	-3492
contamin	-3493
designed	-3494
devotees	-3495
division	-3496
exercise	-3497
majority	-3498
proposal	-3499
settings	-3500
shashank	-3501
tomorrow	-3502
tourists	-3503
delivered	-3504
reduction	-3505
screening	-3506
solutions	-3507
suspended	-3508
typically	-3509
yesterday	-3510
▁¦50,000¦	-3511
complaints	-3512
controlled	-3513
initiative	-3514
profession	-3515
themselves	-3516
controversy	-3517
applications	-3518
municipality	-3519
establishments	-3520
20¦	-3521
civ	-3522
hku	-3523
kes	-3524
lig	-3525
mod	-3526
org	-3527
ork	-3528
pak	-3529
airs	-3530
beta	-3531
deep	-3532
docu	-3533
esco	-3534
eved	-3535
evol	-3536
ique	-3537
jess	-3538
pimp	-3539
town	-3540
york	-3541
adhya	-3542
anjal	-3543
below	-3544
biden	-3545
birds	-3546
germs	-3547
nawab	-3548
pping	-3549
promp	-3550
twice	-3551
addres	-3552
arvind	-3553
circul	-3554
figure	-3555
icians	-3556
immuno	-3557
madhya	-3558
nature	-3559
pimpri	-3560
spokes	-3561
strugg	-3562
surger	-3563
unesco	-3564
▁¦300¦	-3565
airport	-3566
avoided	-3567
becomes	-3568
bhushan	-3569
federal	-3570
jessica	-3571
regions	-3572
removed	-3573
attended	-3574
fatality	-3575
handling	-3576
obtained	-3577
sequence	-3578
ambulance	-3579
depending	-3580
factories	-3581
ification	-3582
reporting	-3583
something	-3584
alternative	-3585
engineering	-3586
complications	-3587
hs	-3588
zy	-3589
.8¦	-3590
deb	-3591
fru	-3592
gal	-3593
hur	-3594
ken	-3595
neu	-3596
nit	-3597
num	-3598
sir	-3599
sle	-3600
top	-3601
wan	-3602
▁",	-3603
abil	-3604
anil	-3605
bicy	-3606
cels	-3607
gang	-3608
itya	-3609
mell	-3610
roll	-3611
rout	-3612
shop	-3613
tele	-3614
turn	-3615
worr	-3616
▁¦25	-3617
adapt	-3618
apeut	-3619
banks	-3620
ching	-3621
chwad	-3622
genom	-3623
multi	-3624
ounds	-3625
trace	-3626
accept	-3627
afraid	-3628
camels	-3629
centre	-3630
commer	-3631
friend	-3632
hazard	-3633
impose	-3634
income	-3635
morbid	-3636
organs	-3637
placed	-3638
starts	-3639
suresh	-3640
tissue	-3641
ulated	-3642
accused	-3643
answers	-3644
brother	-3645
causing	-3646
charged	-3647
forward	-3648
healthy	-3649
himself	-3650
sandeep	-3651
spreads	-3652
towards	-3653
trouble	-3654
acquired	-3655
avoiding	-3656
chairman	-3657
cocktail	-3658
deterior	-3659
membrane	-3660
pakistan	-3661
revealed	-3662
schedule	-3663
zoonotic	-3664
chinchwad	-3665
discovery	-3666
extremely	-3667
generated	-3668
menstrual	-3669
preparing	-3670
producing	-3671
requiring	-3672
shortages	-3673
suppliers	-3674
therapeut	-3675
collection	-3676
containing	-3677
everywhere	-3678
facilitate	-3679
instructed	-3680
maintained	-3681
positivity	-3682
transmitted	-3683
successfully	-3684
nl	-3685
og	-3686
sl	-3687
.7¦	-3688
30¦	-3689
bey	-3690
bud	-3691
def	-3692
god	-3693
jav	-3694
kov	-3695
pen	-3696
ran	-3697
ret	-3698
rti	-3699
sco	-3700
alle	-3701
asho	-3702
ceme	-3703
crem	-3704
cult	-3705
else	-3706
eria	-3707
gets	-3708
heav	-3709
homo	-3710
inal	-3711
ises	-3712
lymp	-3713
nine	-3714
raut	-3715
tren	-3716
vant	-3717
▁¦21	-3718
agers	-3719
aware	-3720
birth	-3721
borne	-3722
calls	-3723
coord	-3724
demon	-3725
domin	-3726
harid	-3727
learn	-3728
ledge	-3729
numer	-3730
quick	-3731
reven	-3732
satis	-3733
shows	-3734
signs	-3735
sleep	-3736
spain	-3737
tamil	-3738
▁¦35¦	-3739
▁¦95¦	-3740
akhada	-3741
battle	-3742
border	-3743
bridge	-3744
canada	-3745
chance	-3746
coward	-3747
electr	-3748
emphas	-3749
finger	-3750
preser	-3751
remove	-3752
rences	-3753
sensit	-3754
useful	-3755
wanted	-3756
affects	-3757
alleged	-3758
arrange	-3759
avinash	-3760
biggest	-3761
enforce	-3762
filling	-3763
install	-3764
message	-3765
pointed	-3766
polymer	-3767
remains	-3768
traders	-3769
younger	-3770
anything	-3771
detailed	-3772
estimate	-3773
haridwar	-3774
identity	-3775
overcome	-3776
policies	-3777
punawala	-3778
rajendra	-3779
reducing	-3780
relevant	-3781
studying	-3782
tracking	-3783
determine	-3784
organized	-3785
passenger	-3786
scheduled	-3787
controller	-3788
frequently	-3789
previously	-3790
relatively	-3791
investigated	-3792
01	-3793
▁—	-3794
ami	-3795
bin	-3796
dal	-3797
hem	-3798
hor	-3799
ids	-3800
kam	-3801
lad	-3802
ncp	-3803
tan	-3804
xic	-3805
000¦	-3806
ache	-3807
aler	-3808
atmo	-3809
eval	-3810
fati	-3811
hadi	-3812
igad	-3813
ilip	-3814
jana	-3815
lang	-3816
onym	-3817
reed	-3818
repe	-3819
sale	-3820
traf	-3821
trib	-3822
wife	-3823
▁¦29	-3824
apply	-3825
astic	-3826
chiat	-3827
consu	-3828
extra	-3829
fered	-3830
goods	-3831
helps	-3832
insur	-3833
modif	-3834
nepal	-3835
ously	-3836
range	-3837
rooms	-3838
sharp	-3839
swabs	-3840
tools	-3841
uated	-3842
usive	-3843
whose	-3844
zhang	-3845
aghadi	-3846
atmosp	-3847
charge	-3848
effort	-3849
german	-3850
intend	-3851
jected	-3852
london	-3853
manner	-3854
raigad	-3855
▁¦400¦	-3856
applied	-3857
arrived	-3858
believe	-3859
ceremon	-3860
counter	-3861
discrim	-3862
happens	-3863
haryana	-3864
improve	-3865
leaving	-3866
lockout	-3867
section	-3868
streets	-3869
subsequ	-3870
symptom	-3871
traffic	-3872
updated	-3873
allowing	-3874
becoming	-3875
cylinder	-3876
numerous	-3877
postpone	-3878
psychiat	-3879
requires	-3880
strategy	-3881
unfortun	-3882
affecting	-3883
cancelled	-3884
explained	-3885
insurance	-3886
lockdowns	-3887
operating	-3888
protocols	-3889
remaining	-3890
seriously	-3891
atmosphere	-3892
discovered	-3893
gatherings	-3894
introduced	-3895
recovering	-3896
harshvardhan	-3897
interventions	-3898
administrative	-3899
//	-3900
2-	-3901
ze	-3902
25¦	-3903
aad	-3904
box	-3905
fav	-3906
flo	-3907
hip	-3908
htt	-3909
ita	-3910
rat	-3911
reh	-3912
squ	-3913
zed	-3914
▁.,	-3915
achi	-3916
aims	-3917
alar	-3918
amed	-3919
anka	-3920
atic	-3921
avan	-3922
bath	-3923
dare	-3924
dest	-3925
edia	-3926
ergy	-3927
gent	-3928
goog	-3929
hash	-3930
hous	-3931
ixed	-3932
kind	-3933
milk	-3934
scan	-3935
shah	-3936
vary	-3937
wada	-3938
▁://	-3939
bably	-3940
cosis	-3941
crack	-3942
cytok	-3943
grant	-3944
ilesh	-3945
image	-3946
liver	-3947
recru	-3948
stick	-3949
story	-3950
stren	-3951
upper	-3952
users	-3953
budget	-3954
christ	-3955
compon	-3956
google	-3957
inking	-3958
itself	-3959
mahavi	-3960
median	-3961
monary	-3962
muscle	-3963
object	-3964
occurs	-3965
stream	-3966
benefic	-3967
breathe	-3968
complex	-3969
compreh	-3970
comprom	-3971
concept	-3972
dharavi	-3973
fatigue	-3974
ference	-3975
grocery	-3976
hotspot	-3977
inhibit	-3978
kingdom	-3979
nothing	-3980
prepare	-3981
routine	-3982
seconds	-3983
sources	-3984
volunte	-3985
walking	-3986
certific	-3987
commonly	-3988
concentr	-3989
contains	-3990
demonstr	-3991
duration	-3992
frequent	-3993
headache	-3994
internet	-3995
probably	-3996
reliable	-3997
sampling	-3998
vascular	-3999
described	-4000
extensive	-4001
interview	-4002
knowledge	-4003
mahavikas	-4004
pregnancy	-4005
prevalent	-4006
regularly	-4007
temporary	-4008
polymerase	-4009
preventive	-4010
recognized	-4011
successful	-4012
circulating	-4013
vaccinating	-4014
inflammatory	-4015
preparations	-4016
hospitalization	-4017
recommendations	-4018
9.	-4019
hr	-4020
kg	-4021
.3¦	-4022
35¦	-4023
ald	-4024
anc	-4025
anx	-4026
baj	-4027
bil	-4028
das	-4029
dow	-4030
eea	-4031
emy	-4032
exe	-4033
gam	-4034
geo	-4035
jit	-4036
kap	-4037
mps	-4038
nar	-4039
oud	-4040
acet	-4041
ches	-4042
cive	-4043
club	-4044
dcgi	-4045
didn	-4046
evac	-4047
fare	-4048
idea	-4049
labs	-4050
pose	-4051
puts	-4052
rule	-4053
simp	-4054
umul	-4055
upon	-4056
word	-4057
agent	-4058
ashok	-4059
bound	-4060
cared	-4061
carry	-4062
covax	-4063
filed	-4064
https	-4065
ician	-4066
legis	-4067
mucor	-4068
panic	-4069
soaps	-4070
spend	-4071
vales	-4072
adekar	-4073
adhyay	-4074
adjust	-4075
asking	-4076
beyond	-4077
bioent	-4078
donald	-4079
driver	-4080
forced	-4081
gloves	-4082
intest	-4083
labore	-4084
nearly	-4085
pandit	-4086
phases	-4087
sawant	-4088
streng	-4089
summer	-4090
urgent	-4091
vation	-4092
america	-4093
appears	-4094
coronil	-4095
correct	-4096
devices	-4097
express	-4098
feeling	-4099
indians	-4100
isation	-4101
maratha	-4102
pattern	-4103
revenue	-4104
selling	-4105
steroid	-4106
surgery	-4107
vehicle	-4108
worship	-4109
arriving	-4110
convales	-4111
creating	-4112
deployed	-4113
download	-4114
facebook	-4115
features	-4116
governor	-4117
identify	-4118
occurred	-4119
original	-4120
province	-4121
regional	-4122
teaching	-4123
upadhyay	-4124
▁¦5,000¦	-4125
bioentech	-4126
buildings	-4127
contribut	-4128
customers	-4129
executive	-4130
regulator	-4131
tradition	-4132
transcrip	-4133
foundation	-4134
generating	-4135
operations	-4136
proportion	-4137
interaction	-4138
maintaining	-4139
medications	-4140
contaminated	-4141
convalescent	-4142
difficulties	-4143
yl	-4144
▁‘	-4145
.2¦	-4146
32¦	-4147
60¦	-4148
75¦	-4149
aji	-4150
cad	-4151
era	-4152
inf	-4153
odo	-4154
tai	-4155
vom	-4156
wes	-4157
wik	-4158
yan	-4159
▁',	-4160
bang	-4161
barr	-4162
bial	-4163
cles	-4164
draw	-4165
fees	-4166
fish	-4167
hood	-4168
ibly	-4169
illa	-4170
kins	-4171
kish	-4172
lash	-4173
moni	-4174
mono	-4175
rely	-4176
sach	-4177
velo	-4178
wake	-4179
whom	-4180
wipe	-4181
yoga	-4182
▁%),	-4183
acted	-4184
agree	-4185
astro	-4186
awate	-4187
begun	-4188
build	-4189
civil	-4190
color	-4191
crete	-4192
hyper	-4193
lands	-4194
mitig	-4195
north	-4196
noted	-4197
owner	-4198
paris	-4199
risen	-4200
surge	-4201
swing	-4202
teams	-4203
trade	-4204
trave	-4205
▁¦65¦	-4206
afford	-4207
anjali	-4208
annual	-4209
artery	-4210
begins	-4211
cardio	-4212
integr	-4213
limits	-4214
liquor	-4215
moment	-4216
opened	-4217
prefer	-4218
prohib	-4219
retail	-4220
seeing	-4221
specif	-4222
worked	-4223
affairs	-4224
closely	-4225
conduct	-4226
evening	-4227
involve	-4228
license	-4229
logists	-4230
methodo	-4231
partial	-4232
persist	-4233
reading	-4234
reduces	-4235
reverse	-4236
stomach	-4237
warning	-4238
welfare	-4239
academic	-4240
cemetery	-4241
comparis	-4242
concrete	-4243
contacts	-4244
contrast	-4245
crackers	-4246
definite	-4247
entering	-4248
petition	-4249
purchase	-4250
referred	-4251
reviewed	-4252
severely	-4253
shopping	-4254
transfer	-4255
demanding	-4256
documents	-4257
evolution	-4258
increases	-4259
mechanism	-4260
monitored	-4261
morbidity	-4262
operation	-4263
pollution	-4264
providers	-4265
residents	-4266
villagers	-4267
▁¦10,000¦	-4268
background	-4269
collecting	-4270
conducting	-4271
connection	-4272
employment	-4273
therapeutic	-4274
specifically	-4275
spokesperson	-4276
gl	-4277
62¦	-4278
aka	-4279
cha	-4280
fel	-4281
ghe	-4282
hir	-4283
ief	-4284
ikh	-4285
jud	-4286
lok	-4287
mac	-4288
ola	-4289
rai	-4290
rak	-4291
rib	-4292
rin	-4293
rol	-4294
ros	-4295
scr	-4296
shr	-4297
alve	-4298
army	-4299
assu	-4300
asth	-4301
baby	-4302
blow	-4303
duty	-4304
easy	-4305
elim	-4306
felt	-4307
flow	-4308
game	-4309
gold	-4310
gyne	-4311
khar	-4312
marg	-4313
olar	-4314
opin	-4315
rang	-4316
sang	-4317
shed	-4318
shir	-4319
sold	-4320
spap	-4321
swit	-4322
teen	-4323
thal	-4324
towe	-4325
umst	-4326
aiims	-4327
akash	-4328
akola	-4329
ankar	-4330
arity	-4331
cinem	-4332
cycle	-4333
heard	-4334
mohan	-4335
spoke	-4336
tight	-4337
words	-4338
agreed	-4339
always	-4340
collap	-4341
effici	-4342
elimin	-4343
energy	-4344
gyneco	-4345
harpur	-4346
karnat	-4347
locked	-4348
mamata	-4349
parlia	-4350
plants	-4351
preced	-4352
simply	-4353
sought	-4354
tender	-4355
thorat	-4356
towels	-4357
window	-4358
yojana	-4359
▁¦600¦	-4360
▁¦800¦	-4361
adapted	-4362
attract	-4363
capable	-4364
confirm	-4365
darekar	-4366
dropped	-4367
friends	-4368
halfkin	-4369
migrant	-4370
newspap	-4371
progres	-4372
russian	-4373
weekend	-4374
western	-4375
whereas	-4376
▁¦2009¦	-4377
actually	-4378
alveolar	-4379
canadian	-4380
circumst	-4381
coroners	-4382
cytokine	-4383
festival	-4384
laborers	-4385
movement	-4386
produces	-4387
remained	-4388
remember	-4389
repeated	-4390
reserved	-4391
resulted	-4392
standing	-4393
transmit	-4394
vomiting	-4395
cambridge	-4396
groceries	-4397
javadekar	-4398
karnataka	-4399
pangolins	-4400
platforms	-4401
prioritiz	-4402
promising	-4403
specimens	-4404
vegetable	-4405
ahmednagar	-4406
components	-4407
correspond	-4408
discharged	-4409
generation	-4410
industries	-4411
pandharpur	-4412
parliament	-4413
regulatory	-4414
solidarity	-4415
firecrackers	-4416
interspecies	-4417
communication	-4418
pediatricians	-4419
discrimination	-4420
microorganisms	-4421
.1	-4422
dp	-4423
ie	-4424
km	-4425
-5¦	-4426
0-2	-4427
04¦	-4428
24¦	-4429
53¦	-4430
asa	-4431
aya	-4432
cat	-4433
goa	-4434
hon	-4435
iii	-4436
ima	-4437
inj	-4438
kak	-4439
kha	-4440
kon	-4441
nge	-4442
oul	-4443
plo	-4444
wro	-4445
arab	-4446
aram	-4447
avax	-4448
aves	-4449
avir	-4450
ball	-4451
bhag	-4452
cast	-4453
cate	-4454
cros	-4455
dash	-4456
disp	-4457
fras	-4458
iced	-4459
isra	-4460
jury	-4461
libr	-4462
naik	-4463
nutr	-4464
oral	-4465
prin	-4466
size	-4467
suit	-4468
uate	-4469
uted	-4470
vert	-4471
vive	-4472
abort	-4473
accep	-4474
adhan	-4475
alpha	-4476
amino	-4477
boost	-4478
click	-4479
cross	-4480
cumul	-4481
fewer	-4482
istic	-4483
kamal	-4484
lance	-4485
maxim	-4486
meals	-4487
minds	-4488
nasop	-4489
ngeal	-4490
occup	-4491
radio	-4492
round	-4493
ruled	-4494
sales	-4495
wrote	-4496
▁¦37¦	-4497
acknow	-4498
aditya	-4499
akhand	-4500
allies	-4501
appeal	-4502
arrive	-4503
chavan	-4504
cruise	-4505
doubts	-4506
gastro	-4507
hemant	-4508
imedia	-4509
infras	-4510
inside	-4511
meters	-4512
phones	-4513
really	-4514
resist	-4515
satisf	-4516
tedros	-4517
varies	-4518
winter	-4519
acceler	-4520
appoint	-4521
calling	-4522
celsius	-4523
checked	-4524
collect	-4525
consequ	-4526
crossed	-4527
factory	-4528
funding	-4529
hopkins	-4530
mutated	-4531
purpose	-4532
records	-4533
serving	-4534
writing	-4535
anywhere	-4536
covering	-4537
criteria	-4538
disposal	-4539
geograph	-4540
globally	-4541
manpower	-4542
pression	-4543
proposed	-4544
reaching	-4545
resident	-4546
secretar	-4547
stranded	-4548
targeted	-4549
agitation	-4550
bacterial	-4551
haryngeal	-4552
infrastru	-4553
resulting	-4554
sensitive	-4555
similarly	-4556
cumulative	-4557
incubation	-4558
medication	-4559
experienced	-4560
operational	-4561
performance	-4562
respirators	-4563
traditional	-4564
unfortunate	-4565
uttarakhand	-4566
additionally	-4567
immunization	-4568
preparedness	-4569
temperatures	-4570
circumstances	-4571
comprehensive	-4572
cardiovascular	-4573
nasopharyngeal	-4574
▁•	-4575
70¦	-4576
80¦	-4577
aro	-4578
bag	-4579
cel	-4580
dar	-4581
dna	-4582
dus	-4583
gup	-4584
kil	-4585
mas	-4586
pad	-4587
sam	-4588
tap	-4589
ury	-4590
vig	-4591
xii	-4592
yav	-4593
▁);	-4594
abor	-4595
adic	-4596
asad	-4597
asia	-4598
ayat	-4599
ciro	-4600
erup	-4601
gard	-4602
gene	-4603
hall	-4604
hane	-4605
ison	-4606
kadu	-4607
kari	-4608
leng	-4609
maha	-4610
meal	-4611
meat	-4612
mole	-4613
nadu	-4614
nail	-4615
prem	-4616
roli	-4617
warm	-4618
,500¦	-4619
actor	-4620
adeep	-4621
ahead	-4622
apple	-4623
arise	-4624
audit	-4625
award	-4626
basic	-4627
broad	-4628
cytes	-4629
diver	-4630
drawn	-4631
fifth	-4632
ining	-4633
malls	-4634
moved	-4635
nasal	-4636
otide	-4637
plane	-4638
pleas	-4639
posts	-4640
spent	-4641
stain	-4642
storm	-4643
surat	-4644
vigil	-4645
vivek	-4646
white	-4647
▁¦41¦	-4648
▁¦44¦	-4649
agents	-4650
americ	-4651
bronch	-4652
burden	-4653
caring	-4654
compet	-4655
domain	-4656
extend	-4657
fortis	-4658
injury	-4659
length	-4660
logies	-4661
mainly	-4662
remark	-4663
sealed	-4664
sharad	-4665
shinde	-4666
signed	-4667
struct	-4668
thinks	-4669
ticket	-4670
▁¦1.5¦	-4671
▁¦150¦	-4672
artific	-4673
borders	-4674
cluster	-4675
congest	-4676
details	-4677
entered	-4678
finance	-4679
meaning	-4680
mucormy	-4681
porters	-4682
pradeep	-4683
prakash	-4684
quarter	-4685
rallies	-4686
rubbing	-4687
sharing	-4688
tourism	-4689
updates	-4690
variety	-4691
accurate	-4692
alarming	-4693
collabor	-4694
cowardly	-4695
cultural	-4696
electric	-4697
homology	-4698
interval	-4699
limiting	-4700
mainland	-4701
moreover	-4702
ordinary	-4703
parishad	-4704
removing	-4705
selected	-4706
steroids	-4707
suggests	-4708
▁¦2,000¦	-4709
addressed	-4710
covshield	-4711
dashboard	-4712
disadvant	-4713
emergence	-4714
expensive	-4715
marketing	-4716
physician	-4717
precedent	-4718
pulmonary	-4719
purchased	-4720
receiving	-4721
specialty	-4722
transmiss	-4723
ambulances	-4724
artificial	-4725
congestion	-4726
consistent	-4727
divisional	-4728
interacted	-4729
nucleotide	-4730
persistent	-4731
precaution	-4732
preserving	-4733
regulation	-4734
specialist	-4735
volunteers	-4736
challenging	-4737
compromised	-4738
opportunity	-4739
preparation	-4740
reservation	-4741
secretariat	-4742
virological	-4743
geographical	-4744
implications	-4745
mucormycosis	-4746
investigating	-4747
infrastructure	-4748
pu	-4749
33¦	-4750
37¦	-4751
86¦	-4752
88¦	-4753
abs	-4754
bel	-4755
bot	-4756
chh	-4757
eat	-4758
eye	-4759
gov	-4760
hiv	-4761
ika	-4762
jab	-4763
jee	-4764
kal	-4765
orf	-4766
pra	-4767
pti	-4768
rac	-4769
rou	-4770
sex	-4771
sil	-4772
wit	-4773
zer	-4774
▁%,	-4775
amol	-4776
anxi	-4777
beed	-4778
bott	-4779
datt	-4780
dhan	-4781
drom	-4782
elev	-4783
gain	-4784
herd	-4785
ient	-4786
iger	-4787
ipur	-4788
isep	-4789
male	-4790
mpsc	-4791
seat	-4792
spar	-4793
thes	-4794
tral	-4795
tupe	-4796
warr	-4797
wild	-4798
▁¦31	-4799
▁¦33	-4800
▁¦35	-4801
achal	-4802
antim	-4803
aslam	-4804
atmal	-4805
built	-4806
dance	-4807
dying	-4808
dynam	-4809
fears	-4810
fixed	-4811
funds	-4812
girls	-4813
grand	-4814
itary	-4815
memor	-4816
minus	-4817
names	-4818
needy	-4819
risks	-4820
river	-4821
roads	-4822
royal	-4823
saved	-4824
skill	-4825
steel	-4826
swine	-4827
terti	-4828
thail	-4829
theat	-4830
tooth	-4831
towel	-4832
towns	-4833
toxic	-4834
asthma	-4835
attach	-4836
compli	-4837
easily	-4838
ensity	-4839
exceed	-4840
formal	-4841
handed	-4842
inavir	-4843
inject	-4844
looked	-4845
lympho	-4846
medium	-4847
parcel	-4848
points	-4849
prescr	-4850
punjab	-4851
rakant	-4852
ramesh	-4853
rolled	-4854
ruling	-4855
sangli	-4856
sheikh	-4857
taiwan	-4858
traced	-4859
turned	-4860
▁¦1201	-4861
abdomin	-4862
antisep	-4863
anxiety	-4864
binding	-4865
coordin	-4866
delayed	-4867
denmark	-4868
emerged	-4869
feeding	-4870
finding	-4871
follows	-4872
lessons	-4873
maharaj	-4874
maximum	-4875
novavax	-4876
opening	-4877
popular	-4878
putting	-4879
quickly	-4880
shivaji	-4881
surgeon	-4882
suscept	-4883
suspect	-4884
tending	-4885
travell	-4886
witness	-4887
acterial	-4888
ailments	-4889
airborne	-4890
airlines	-4891
antibiot	-4892
appeared	-4893
believed	-4894
constitu	-4895
employee	-4896
icrobial	-4897
partners	-4898
protease	-4899
sciences	-4900
sections	-4901
shocking	-4902
strictly	-4903
tertiary	-4904
thailand	-4905
yavatmal	-4906
abdominal	-4907
acknowled	-4908
activists	-4909
character	-4910
childcare	-4911
decentral	-4912
detection	-4913
disorders	-4914
functions	-4915
happening	-4916
inspected	-4917
lopinavir	-4918
nutrition	-4919
particles	-4920
reactions	-4921
responses	-4922
submitted	-4923
biological	-4924
bronchitis	-4925
commercial	-4926
converting	-4927
disruption	-4928
institutes	-4929
nationally	-4930
questioned	-4931
responding	-4932
washington	-4933
chandrakant	-4934
limitations	-4935
manufacturer	-4936
occupational	-4937
antibacterial	-4938
antimicrobial	-4939
correspondent	-4940
recombination	-4941
communications	-4942
representatives	-4943
10	-4944
gg	-4945
pv	-4946
rh	-4947
tv	-4948
▁≥	-4949
66¦	-4950
73¦	-4951
92¦	-4952
94¦	-4953
99¦	-4954
abh	-4955
aty	-4956
ava	-4957
ays	-4958
bhu	-4959
bul	-4960
ceo	-4961
enh	-4962
ery	-4963
ght	-4964
gry	-4965
jat	-4966
lay	-4967
lla	-4968
mic	-4969
mur	-4970
oke	-4971
rum	-4972
swi	-4973
ume	-4974
vad	-4975
base	-4976
bhal	-4977
bola	-4978
cepi	-4979
cred	-4980
cycl	-4981
fere	-4982
garh	-4983
ghat	-4984
gore	-4985
hoea	-4986
irao	-4987
luck	-4988
nand	-4989
none	-4990
pace	-4991
rand	-4992
rank	-4993
runs	-4994
sain	-4995
sess	-4996
shaw	-4997
slum	-4998
soil	-4999
stag	-5000
wadi	-5001
▁¦34	-5002
▁¦42	-5003
aired	-5004
anjay	-5005
broke	-5006
buses	-5007
cards	-5008
diplo	-5009
doors	-5010
ebola	-5011
fined	-5012
fresh	-5013
hindu	-5014
inaug	-5015
incip	-5016
johns	-5017
kunte	-5018
nitin	-5019
optim	-5020
osman	-5021
rajiv	-5022
refle	-5023
salun	-5024
shenz	-5025
smell	-5026
smoke	-5027
stuck	-5028
tired	-5029
truck	-5030
valid	-5031
zydus	-5032
▁¦1,2	-5033
▁¦32¦	-5034
▁¦33¦	-5035
▁¦72¦	-5036
▁¦96¦	-5037
arises	-5038
asaheb	-5039
brooke	-5040
device	-5041
envelo	-5042
eshwar	-5043
expect	-5044
forget	-5045
gadchi	-5046
helped	-5047
kishor	-5048
latest	-5049
linked	-5050
lowest	-5051
mammal	-5052
mented	-5053
moving	-5054
nanded	-5055
nether	-5056
onavir	-5057
ovirus	-5058
paying	-5059
prasad	-5060
prompt	-5061
sachin	-5062
series	-5063
slight	-5064
speech	-5065
sports	-5066
thered	-5067
volume	-5068
wardha	-5069
▁¦250¦	-5070
agarwal	-5071
anticip	-5072
arrival	-5073
bajirao	-5074
bhagwat	-5075
cardiac	-5076
clearly	-5077
donated	-5078
enhance	-5079
journey	-5080
nations	-5081
observe	-5082
opinion	-5083
package	-5084
princip	-5085
raising	-5086
rencing	-5087
teacher	-5088
thanked	-5089
trained	-5090
vitamin	-5091
▁¦2012¦	-5092
accident	-5093
activist	-5094
bringing	-5095
combined	-5096
consumer	-5097
develops	-5098
diagnost	-5099
enforced	-5100
entirely	-5101
envelope	-5102
generate	-5103
pleasure	-5104
railways	-5105
rejected	-5106
shenzhen	-5107
spending	-5108
spreader	-5109
substant	-5110
suddenly	-5111
thorough	-5112
weakened	-5113
▁¦2020-2	-5114
afternoon	-5115
agreement	-5116
compounds	-5117
connected	-5118
criticism	-5119
dhananjay	-5120
efficient	-5121
exception	-5122
fortnight	-5123
gathering	-5124
incidents	-5125
informing	-5126
locations	-5127
osmanabad	-5128
patanjali	-5129
pathogens	-5130
ritonavir	-5131
uncertain	-5132
violating	-5133
continuing	-5134
decreasing	-5135
determined	-5136
gadchiroli	-5137
investment	-5138
mitigation	-5139
originally	-5140
structural	-5141
controlling	-5142
emergencies	-5143
interacting	-5144
netherlands	-5145
precedented	-5146
suggestions	-5147
symptomatic	-5148
cancellation	-5149
conferencing	-5150
disinfectant	-5151
biotechnology	-5152
collaboration	-5153
professionals	-5154
transcription	-5155
unprecedented	-5156
dh	-5157
mc	-5158
.4¦	-5159
.9¦	-5160
13¦	-5161
65¦	-5162
91¦	-5163
abc	-5164
ada	-5165
ams	-5166
bia	-5167
bit	-5168
chu	-5169
ida	-5170
iqu	-5171
iri	-5172
ker	-5173
kid	-5174
lod	-5175
mns	-5176
nax	-5177
nhs	-5178
ole	-5179
pvt	-5180
rao	-5181
rew	-5182
rid	-5183
tro	-5184
ups	-5185
▁?"	-5186
ades	-5187
ager	-5188
atio	-5189
bach	-5190
beat	-5191
bhuj	-5192
capt	-5193
diet	-5194
germ	-5195
gown	-5196
igno	-5197
ites	-5198
izum	-5199
jack	-5200
khan	-5201
link	-5202
loan	-5203
lrti	-5204
mode	-5205
osha	-5206
ours	-5207
rick	-5208
rubs	-5209
shel	-5210
situ	-5211
spir	-5212
taxi	-5213
ties	-5214
user	-5215
vers	-5216
weap	-5217
▁¦37	-5218
▁¦41	-5219
▁¦50	-5220
▁¦65	-5221
alert	-5222
anced	-5223
artic	-5224
attis	-5225
bhand	-5226
categ	-5227
dryer	-5228
dwell	-5229
edkar	-5230
enemy	-5231
fatal	-5232
floor	-5233
glass	-5234
imate	-5235
imper	-5236
izers	-5237
latur	-5238
legal	-5239
lined	-5240
loved	-5241
meant	-5242
nails	-5243
nekar	-5244
neuro	-5245
niran	-5246
ories	-5247
rains	-5248
ranks	-5249
ratio	-5250
scrub	-5251
shift	-5252
spots	-5253
sugar	-5254
surpr	-5255
throm	-5256
twent	-5257
ulkar	-5258
visak	-5259
wants	-5260
zilla	-5261
▁¦55¦	-5262
▁¦78¦	-5263
adding	-5264
andhra	-5265
anonym	-5266
blamed	-5267
breast	-5268
crores	-5269
delays	-5270
depriv	-5271
dismis	-5272
eradic	-5273
fertil	-5274
fluids	-5275
fourth	-5276
golden	-5277
graphy	-5278
israel	-5279
izumab	-5280
jayant	-5281
lancet	-5282
legisl	-5283
lifted	-5284
makeup	-5285
neglig	-5286
pandey	-5287
petrol	-5288
pneumo	-5289
prices	-5290
salary	-5291
slowed	-5292
sneeze	-5293
stabil	-5294
suffer	-5295
transp	-5296
twenty	-5297
unders	-5298
unless	-5299
venous	-5300
visits	-5301
adhanom	-5302
adminis	-5303
attempt	-5304
autopsy	-5305
bachchu	-5306
bhujbal	-5307
bicycle	-5308
citizen	-5309
connect	-5310
depends	-5311
extract	-5312
formula	-5313
heavily	-5314
helping	-5315
killing	-5316
machine	-5317
managed	-5318
nursing	-5319
origins	-5320
paracet	-5321
sterile	-5322
talukas	-5323
abortion	-5324
accepted	-5325
carrying	-5326
ceremony	-5327
chhattis	-5328
convened	-5329
dwellers	-5330
emphasis	-5331
improved	-5332
indicate	-5333
interrup	-5334
managing	-5335
messages	-5336
niranjan	-5337
offering	-5338
suppress	-5339
thinking	-5340
visiting	-5341
▁¦1,000¦	-5342
▁¦2019-2	-5343
▁¦3,000¦	-5344
carefully	-5345
indicated	-5346
libraries	-5347
matically	-5348
panchayat	-5349
predicted	-5350
principal	-5351
receptors	-5352
reporters	-5353
requested	-5354
technical	-5355
technique	-5356
undergone	-5357
workplace	-5358
announcing	-5359
beneficial	-5360
comparison	-5361
encouraged	-5362
inadequate	-5363
intestinal	-5364
prioritize	-5365
protecting	-5366
quantities	-5367
restricted	-5368
situations	-5369
struggling	-5370
certificate	-5371
differences	-5372
independent	-5373
institution	-5374
observation	-5375
paracetamol	-5376
recognition	-5377
replication	-5378
serological	-5379
unnecessary	-5380
administered	-5381
arrangements	-5382
californians	-5383
chhattisgarh	-5384
constituency	-5385
consultation	-5386
demonstrated	-5387
epidemiology	-5388
experimental	-5389
hypertension	-5390
inflammation	-5391
requirements	-5392
respectively	-5393
deteriorating	-5394
identification	-5395
misinformation	-5396
.5	-5397
md	-5398
va	-5399
-3¦	-5400
.6¦	-5401
64¦	-5402
78¦	-5403
84¦	-5404
90¦	-5405
cou	-5406
gap	-5407
gly	-5408
gur	-5409
gus	-5410
hil	-5411
ipt	-5412
kem	-5413
mad	-5414
nba	-5415
nce	-5416
nir	-5417
oil	-5418
oja	-5419
orm	-5420
orp	-5421
oth	-5422
sab	-5423
sad	-5424
sau	-5425
tag	-5426
tcm	-5427
wet	-5428
wiv	-5429
yad	-5430
yas	-5431
zen	-5432
▁):	-5433
adds	-5434
adop	-5435
ayan	-5436
bars	-5437
bind	-5438
coal	-5439
dule	-5440
etah	-5441
foot	-5442
goal	-5443
heal	-5444
hing	-5445
idav	-5446
izes	-5447
kale	-5448
mhra	-5449
mini	-5450
mung	-5451
obje	-5452
olic	-5453
opho	-5454
pept	-5455
pron	-5456
stim	-5457
vend	-5458
wand	-5459
▁¦28	-5460
▁¦62	-5461
accom	-5462
allel	-5463
anish	-5464
arest	-5465
bench	-5466
chhat	-5467
coded	-5468
compu	-5469
conse	-5470
dates	-5471
divid	-5472
drink	-5473
exclu	-5474
faced	-5475
feels	-5476
freed	-5477
itude	-5478
karan	-5479
lanka	-5480
mises	-5481
nodal	-5482
pects	-5483
phylo	-5484
pilot	-5485
preme	-5486
route	-5487
saudi	-5488
siram	-5489
soldi	-5490
squad	-5491
sunil	-5492
swell	-5493
value	-5494
worst	-5495
▁¦1,0	-5496
▁¦59¦	-5497
▁¦7,1	-5498
▁¦99.	-5499
actual	-5500
arabia	-5501
bhalke	-5502
boards	-5503
cancer	-5504
crying	-5505
easier	-5506
enable	-5507
enters	-5508
female	-5509
forces	-5510
fruits	-5511
harass	-5512
hebber	-5513
igence	-5514
jaipur	-5515
joined	-5516
konkan	-5517
ladesh	-5518
lethal	-5519
liness	-5520
module	-5521
muslim	-5522
orphan	-5523
philip	-5524
photos	-5525
please	-5526
progno	-5527
psycho	-5528
scared	-5529
screen	-5530
smooth	-5531
spring	-5532
tanmay	-5533
telang	-5534
turkey	-5535
update	-5536
worsen	-5537
▁¦144¦	-5538
affidav	-5539
african	-5540
century	-5541
chandra	-5542
cheetah	-5543
cinemas	-5544
compare	-5545
constit	-5546
context	-5547
covered	-5548
dispute	-5549
genomic	-5550
hearing	-5551
highway	-5552
holders	-5553
infects	-5554
isolate	-5555
jointly	-5556
justice	-5557
largely	-5558
lucknow	-5559
mammals	-5560
nearest	-5561
neutral	-5562
offered	-5563
ounding	-5564
sitaram	-5565
succeed	-5566
supreme	-5567
tickets	-5568
tribals	-5569
undergo	-5570
abnormal	-5571
american	-5572
bicycles	-5573
earliest	-5574
elevated	-5575
entities	-5576
gathered	-5577
graduate	-5578
impacted	-5579
instance	-5580
involves	-5581
military	-5582
munganti	-5583
parallel	-5584
pednekar	-5585
premises	-5586
promoted	-5587
rickshaw	-5588
seasonal	-5589
sessions	-5590
specimen	-5591
stations	-5592
suitable	-5593
swelling	-5594
theaters	-5595
vigilant	-5596
websites	-5597
yourself	-5598
activated	-5599
anonymity	-5600
bluetooth	-5601
converted	-5602
enteritis	-5603
exercises	-5604
illnesses	-5605
influence	-5606
intendent	-5607
permitted	-5608
prevented	-5609
provision	-5610
relations	-5611
religions	-5612
structure	-5613
telangana	-5614
travelers	-5615
adaptation	-5616
affordable	-5617
assessment	-5618
bangladesh	-5619
compliance	-5620
coronaries	-5621
electronic	-5622
indicating	-5623
inhibitors	-5624
kovishield	-5625
leadership	-5626
misconcept	-5627
practition	-5628
regulators	-5629
separation	-5630
subsequent	-5631
travellers	-5632
virologist	-5633
consecutive	-5634
directorate	-5635
displeasure	-5636
electricity	-5637
enforcement	-5638
investigate	-5639
psychiatric	-5640
questioning	-5641
restriction	-5642
transported	-5643
consequences	-5644
insufficient	-5645
pediatrician	-5646
disadvantaged	-5647
superintendent	-5648
epidemiological	-5649
bd	-5650
cn	-5651
ky	-5652
ni	-5653
ny	-5654
ow	-5655
ww	-5656
17¦	-5657
36¦	-5658
45¦	-5659
52¦	-5660
67¦	-5661
77¦	-5662
awa	-5663
bah	-5664
bow	-5665
din	-5666
eds	-5667
foc	-5668
gil	-5669
gon	-5670
ibe	-5671
ico	-5672
ips	-5673
jag	-5674
mel	-5675
oli	-5676
pit	-5677
pse	-5678
quo	-5679
rbd	-5680
rob	-5681
sop	-5682
uda	-5683
usa	-5684
wak	-5685
www	-5686
▁'?	-5687
▁("	-5688
▁.)	-5689
-10¦	-5690
-95¦	-5691
argu	-5692
aria	-5693
bask	-5694
cape	-5695
chha	-5696
chur	-5697
cool	-5698
cyte	-5699
dess	-5700
diff	-5701
dram	-5702
endo	-5703
entr	-5704
fake	-5705
fell	-5706
gyms	-5707
horr	-5708
itus	-5709
laid	-5710
lawy	-5711
mice	-5712
myoc	-5713
onal	-5714
osis	-5715
page	-5716
pees	-5717
ping	-5718
pool	-5719
pork	-5720
pure	-5721
push	-5722
refr	-5723
rhin	-5724
scar	-5725
scop	-5726
slam	-5727
symb	-5728
tehs	-5729
tsun	-5730
tube	-5731
vice	-5732
vine	-5733
vyas	-5734
wood	-5735
▁¦23	-5736
▁¦3.	-5737
▁¦36	-5738
▁¦97	-5739
abide	-5740
admit	-5741
appre	-5742
asian	-5743
aveen	-5744
brain	-5745
chool	-5746
cloth	-5747
ctant	-5748
dilip	-5749
edary	-5750
email	-5751
enhan	-5752
eties	-5753
exemp	-5754
fecal	-5755
filtr	-5756
genic	-5757
heavy	-5758
helpl	-5759
ivals	-5760
lakhs	-5761
lashi	-5762
looks	-5763
metro	-5764
minor	-5765
mploy	-5766
nurse	-5767
oblig	-5768
orona	-5769
oxime	-5770
parin	-5771
popul	-5772
pulse	-5773
remin	-5774
revis	-5775
sagar	-5776
shiva	-5777
tiwar	-5778
ulate	-5779
usted	-5780
vadet	-5781
wered	-5782
worry	-5783
▁¦42¦	-5784
▁¦75¦	-5785
▁¦92¦	-5786
▁¦98¦	-5787
advert	-5788
apping	-5789
ardial	-5790
arisen	-5791
basket	-5792
bought	-5793
breyes	-5794
civets	-5795
corrup	-5796
credit	-5797
dattat	-5798
denied	-5799
devast	-5800
failed	-5801
feluda	-5802
ferers	-5803
guards	-5804
hoteli	-5805
ifying	-5806
imposs	-5807
intell	-5808
keshav	-5809
kidney	-5810
korean	-5811
lesson	-5812
mangal	-5813
metres	-5814
models	-5815
multis	-5816
papers	-5817
quoted	-5818
rapati	-5819
rumors	-5820
rupees	-5821
shaila	-5822
sition	-5823
sudhir	-5824
termin	-5825
trends	-5826
tweets	-5827
unable	-5828
usions	-5829
vector	-5830
voting	-5831
washed	-5832
▁¦3.5¦	-5833
adopted	-5834
altered	-5835
arrives	-5836
attacks	-5837
chances	-5838
cleaned	-5839
clinics	-5840
clothes	-5841
declare	-5842
defined	-5843
diminis	-5844
doubled	-5845
edition	-5846
goddess	-5847
granted	-5848
housing	-5849
imaging	-5850
kishori	-5851
letters	-5852
massive	-5853
moderna	-5854
ophobia	-5855
outcome	-5856
pharmac	-5857
plastic	-5858
praveen	-5859
promote	-5860
readily	-5861
refused	-5862
repurpo	-5863
rushing	-5864
seeking	-5865
sending	-5866
slammed	-5867
slowing	-5868
smoking	-5869
sparked	-5870
switzer	-5871
tehsild	-5872
telling	-5873
thermal	-5874
tsunami	-5875
vendors	-5876
visakha	-5877
warrior	-5878
worried	-5879
▁¦2005¦	-5880
▁¦2019-	-5881
barriers	-5882
checking	-5883
compound	-5884
cremated	-5885
crowding	-5886
deceased	-5887
emerging	-5888
examined	-5889
feedback	-5890
holidays	-5891
hotspots	-5892
interfer	-5893
machines	-5894
mellitus	-5895
mentally	-5896
modified	-5897
oximeter	-5898
possibly	-5899
programs	-5900
purposes	-5901
reflects	-5902
relation	-5903
sarpanch	-5904
soldiers	-5905
struggle	-5906
suffered	-5907
theories	-5908
unemploy	-5909
whenever	-5910
withdraw	-5911
worrying	-5912
▁¦4,000¦	-5913
▁¦7,162¦	-5914
abilities	-5915
advantage	-5916
ahmedabad	-5917
appointed	-5918
attending	-5919
dromedary	-5920
ghebreyes	-5921
improving	-5922
modelling	-5923
molecular	-5924
procedure	-5925
processes	-5926
programme	-5927
publicity	-5928
recording	-5929
reference	-5930
resistant	-5931
sufferers	-5932
antiseptic	-5933
approached	-5934
approaches	-5935
basketball	-5936
cancelling	-5937
classified	-5938
convenient	-5939
definitely	-5940
efficiency	-5941
impossible	-5942
mechanical	-5943
myocardial	-5944
overcoming	-5945
performing	-5946
reportedly	-5947
sanitation	-5948
▁¦2020-21¦	-5949
anticipated	-5950
appointment	-5951
chhatrapati	-5952
contracting	-5953
furthermore	-5954
genetically	-5955
handwashing	-5956
mungantiwar	-5957
preclinical	-5958
statistical	-5959
substantial	-5960
switzerland	-5961
technicians	-5962
temporarily	-5963
formulations	-5964
intelligence	-5965
nonessential	-5966
phylogenetic	-5967
subsequently	-5968
practitioners	-5969
representative	-5970
gastrointestinal	-5971
bs	-5972
jj	-5973
ki	-5974
mt	-5975
nt	-5976
-4¦	-5977
40¦	-5978
42¦	-5979
57¦	-5980
87¦	-5981
89¦	-5982
97¦	-5983
aca	-5984
aja	-5985
aki	-5986
ali	-5987
alo	-5988
dad	-5989
dil	-5990
dol	-5991
erb	-5992
err	-5993
eua	-5994
gst	-5995
gul	-5996
ham	-5997
ift	-5998
iti	-5999
iva	-6000
jun	-6001
len	-6002
map	-6003
nak	-6004
nim	-6005
oak	-6006
opd	-6007
pav	-6008
pes	-6009
tas	-6010
tel	-6011
unt	-6012
vax	-6013
yal	-6014
alli	-6015
aran	-6016
atta	-6017
bans	-6018
bhay	-6019
biop	-6020
boys	-6021
budd	-6022
cers	-6023
cipl	-6024
copd	-6025
dict	-6026
exac	-6027
frag	-6028
hanu	-6029
ibil	-6030
ills	-6031
iums	-6032
kata	-6033
laws	-6034
mary	-6035
nair	-6036
orph	-6037
prop	-6038
rash	-6039
resu	-6040
scam	-6041
sens	-6042
spac	-6043
stan	-6044
surr	-6045
tite	-6046
tood	-6047
tool	-6048
uish	-6049
ules	-6050
umif	-6051
util	-6052
ware	-6053
–20¦	-6054
▁%).	-6055
▁¦0¦	-6056
▁¦26	-6057
▁¦86	-6058
,400¦	-6059
,653¦	-6060
accor	-6061
aming	-6062
angry	-6063
apped	-6064
athan	-6065
bills	-6066
brush	-6067
catch	-6068
chick	-6069
chiol	-6070
comor	-6071
conce	-6072
costs	-6073
dedic	-6074
elbow	-6075
favor	-6076
gives	-6077
grade	-6078
grain	-6079
green	-6080
gross	-6081
hiran	-6082
iding	-6083
ifest	-6084
impot	-6085
innov	-6086
intra	-6087
ivers	-6088
jaish	-6089
jalna	-6090
khand	-6091
latin	-6092
lunch	-6093
megal	-6094
mumps	-6095
negle	-6096
neigh	-6097
newly	-6098
oring	-6099
parab	-6100
proof	-6101
rainy	-6102
reass	-6103
repur	-6104
scope	-6105
seats	-6106
shall	-6107
shing	-6108
ships	-6109
sixth	-6110
skept	-6111
stead	-6112
thern	-6113
tocil	-6114
trust	-6115
urbar	-6116
urged	-6117
veter	-6118
whats	-6119
yadav	-6120
▁¦1,3	-6121
▁¦2,6	-6122
▁¦43¦	-6123
▁¦57¦	-6124
▁¦60-	-6125
▁¦66¦	-6126
▁¦71¦	-6127
▁¦85¦	-6128
aadhar	-6129
advise	-6130
amplif	-6131
andani	-6132
ansing	-6133
ashish	-6134
avirin	-6135
clonal	-6136
county	-6137
courts	-6138
dahanu	-6139
debate	-6140
emerge	-6141
enovir	-6142
ensing	-6143
explan	-6144
feared	-6145
forest	-6146
garden	-6147
grapes	-6148
guaran	-6149
houses	-6150
kakani	-6151
karjat	-6152
kesari	-6153
lahane	-6154
mostly	-6155
nearby	-6156
pillow	-6157
played	-6158
pradip	-6159
runwal	-6160
rushed	-6161
saliva	-6162
saving	-6163
shifts	-6164
sputum	-6165
stands	-6166
subsid	-6167
unique	-6168
vessel	-6169
wasted	-6170
▁¦1.8¦	-6171
▁¦700¦	-6172
absence	-6173
achieve	-6174
adviser	-6175
austria	-6176
bhayand	-6177
blocked	-6178
blowing	-6179
caution	-6180
chhagan	-6181
conspir	-6182
deepika	-6183
demands	-6184
destroy	-6185
diffuse	-6186
divided	-6187
eastern	-6188
envelop	-6189
eration	-6190
exacerb	-6191
filters	-6192
fitness	-6193
genomes	-6194
induced	-6195
infants	-6196
injured	-6197
interim	-6198
jayanti	-6199
kolkata	-6200
manager	-6201
minimal	-6202
minimum	-6203
mistake	-6204
moments	-6205
mothers	-6206
narayan	-6207
noticed	-6208
opposed	-6209
pathway	-6210
periods	-6211
ranging	-6212
reality	-6213
recruit	-6214
salunke	-6215
strange	-6216
subhash	-6217
survive	-6218
textile	-6219
version	-6220
▁¦2015¦	-6221
accounts	-6222
analyzed	-6223
appetite	-6224
attitude	-6225
behavior	-6226
bhandara	-6227
commerce	-6228
comorbid	-6229
confused	-6230
consists	-6231
declined	-6232
deprived	-6233
disposed	-6234
homeless	-6235
humanity	-6236
imposing	-6237
izations	-6238
manifest	-6239
operated	-6240
passport	-6241
promised	-6242
quantity	-6243
republic	-6244
shingane	-6245
supplier	-6246
systemic	-6247
temporal	-6248
unlikely	-6249
visitors	-6250
affidavit	-6251
bronchiol	-6252
chemicals	-6253
childhood	-6254
collapsed	-6255
commented	-6256
consulate	-6257
cytomegal	-6258
decreases	-6259
dedicated	-6260
diarrhoea	-6261
dismissal	-6262
disrupted	-6263
epidemics	-6264
evacuated	-6265
evaluated	-6266
excluding	-6267
extending	-6268
extension	-6269
guideline	-6270
ibilities	-6271
impacting	-6272
initiated	-6273
migration	-6274
nandurbar	-6275
newspaper	-6276
prognosis	-6277
protected	-6278
reception	-6279
ribavirin	-6280
strategic	-6281
tehsildar	-6282
tightened	-6283
violation	-6284
▁¦20,000¦	-6285
▁¦60,000¦	-6286
▁¦80,000¦	-6287
accordance	-6288
addressing	-6289
afterwards	-6290
allegation	-6291
amplifying	-6292
biomedical	-6293
celebrated	-6294
ceremonies	-6295
completing	-6296
confidence	-6297
conspiracy	-6298
contribute	-6299
discomfort	-6300
eventually	-6301
interferon	-6302
intubation	-6303
jaishankar	-6304
monoclonal	-6305
negligence	-6306
presenting	-6307
properties	-6308
reassuring	-6309
repeatedly	-6310
repurposed	-6311
strengthen	-6312
systematic	-6313
umifenovir	-6314
understood	-6315
vadettiwar	-6316
▁¦2019–20¦	-6317
attractions	-6318
comfortable	-6319
criticizing	-6320
effectively	-6321
encouraging	-6322
explanation	-6323
fertilizers	-6324
hiranandani	-6325
legislative	-6326
necessarily	-6327
percentages	-6328
registering	-6329
susceptible	-6330
threatening	-6331
tocilizumab	-6332
distributing	-6333
gynecologist	-6334
postponement	-6335
presentation	-6336
professional	-6337
quarantining	-6338
bronchiolitis	-6339
cytomegalovirus	-6340
20	-6341
48	-6342
9-	-6343
cc	-6344
sm	-6345
tg	-6346
wm	-6347
zz	-6348
▁+	-6349
▁°	-6350
-6¦	-6351
-7¦	-6352
.1¦	-6353
01¦	-6354
10¦	-6355
11¦	-6356
14¦	-6357
18¦	-6358
23¦	-6359
27¦	-6360
48¦	-6361
68¦	-6362
69¦	-6363
82¦	-6364
96¦	-6365
abp	-6366
aft	-6367
ama	-6368
arg	-6369
bak	-6370
baz	-6371
cau	-6372
cmr	-6373
crt	-6374
deg	-6375
dix	-6376
erv	-6377
gdp	-6378
irv	-6379
ivo	-6380
kis	-6381
lal	-6382
lax	-6383
mag	-6384
mhe	-6385
mir	-6386
pac	-6387
pig	-6388
rab	-6389
sah	-6390
sak	-6391
sas	-6392
sav	-6393
swe	-6394
tul	-6395
uls	-6396
uti	-6397
vik	-6398
vul	-6399
xen	-6400
▁%–	-6401
▁?;	-6402
▁],	-6403
▁”,	-6404
▁”.	-6405
:00¦	-6406
alls	-6407
amid	-6408
arao	-6409
asks	-6410
asop	-6411
bams	-6412
bhan	-6413
calc	-6414
cash	-6415
ched	-6416
chen	-6417
chol	-6418
clot	-6419
dair	-6420
debt	-6421
defe	-6422
doll	-6423
ease	-6424
elig	-6425
enic	-6426
enoy	-6427
exha	-6428
fema	-6429
foam	-6430
fren	-6431
gear	-6432
gogg	-6433
haar	-6434
hono	-6435
hule	-6436
hung	-6437
iary	-6438
imag	-6439
inel	-6440
iraq	-6441
irty	-6442
isco	-6443
isms	-6444
jain	-6445
loks	-6446
mala	-6447
mano	-6448
mend	-6449
mira	-6450
mour	-6451
nown	-6452
olds	-6453
pare	-6454
pets	-6455
pick	-6456
prob	-6457
raya	-6458
redi	-6459
saif	-6460
sand	-6461
scen	-6462
sely	-6463
sera	-6464
star	-6465
swim	-6466
taty	-6467
tosh	-6468
trig	-6469
trop	-6470
ucle	-6471
whel	-6472
wish	-6473
zeal	-6474
zero	-6475
achar	-6476
adeno	-6477
aditi	-6478
appen	-6479
arena	-6480
arent	-6481
arter	-6482
ather	-6483
bazar	-6484
boris	-6485
brief	-6486
camps	-6487
chart	-6488
chaud	-6489
circu	-6490
clash	-6491
colds	-6492
dadar	-6493
dokan	-6494
endit	-6495
exped	-6496
falls	-6497
fifty	-6498
franc	-6499
gment	-6500
haven	-6501
havoc	-6502
hence	-6503
indra	-6504
infar	-6505
inhal	-6506
isced	-6507
juris	-6508
kawas	-6509
kiran	-6510
langu	-6511
lists	-6512
meter	-6513
mobil	-6514
moist	-6515
notes	-6516
orter	-6517
overl	-6518
palms	-6519
physi	-6520
pines	-6521
plent	-6522
prove	-6523
pseud	-6524
pursu	-6525
renal	-6526
resol	-6527
sable	-6528
scene	-6529
seeds	-6530
swami	-6531
throw	-6532
trend	-6533
truth	-6534
udurg	-6535
uters	-6536
varun	-6537
verge	-6538
viate	-6539
virul	-6540
vitro	-6541
walse	-6542
waves	-6543
zones	-6544
▁¦01¦	-6545
▁¦122	-6546
▁¦36¦	-6547
▁¦39¦	-6548
▁¦47¦	-6549
▁¦54¦	-6550
▁¦61¦	-6551
▁¦68¦	-6552
▁¦77¦	-6553
▁¦79¦	-6554
▁¦94¦	-6555
▁¦99¦	-6556
3,000¦	-6557
acivir	-6558
ankita	-6559
assign	-6560
bottle	-6561
broken	-6562
buying	-6563
caught	-6564
chains	-6565
clinic	-6566
cooper	-6567
degree	-6568
dermat	-6569
driven	-6570
estate	-6571
excess	-6572
fields	-6573
forgot	-6574
french	-6575
gering	-6576
herjee	-6577
hinted	-6578
inputs	-6579
intens	-6580
losses	-6581
malays	-6582
methyl	-6583
mhetre	-6584
mishra	-6585
motion	-6586
nagiri	-6587
navrat	-6588
newbor	-6589
nowned	-6590
patole	-6591
perman	-6592
player	-6593
portal	-6594
posted	-6595
prison	-6596
proven	-6597
raikar	-6598
risome	-6599
robust	-6600
seemed	-6601
select	-6602
shenoy	-6603
skills	-6604
stable	-6605
suspic	-6606
temple	-6607
thirds	-6608
toward	-6609
vacant	-6610
vulner	-6611
▁¦2.4¦	-6612
▁¦4.5¦	-6613
▁¦5.8¦	-6614
▁¦6.5¦	-6615
aadhaar	-6616
aggress	-6617
article	-6618
asopara	-6619
booster	-6620
capture	-6621
channel	-6622
clarify	-6623
climate	-6624
coaches	-6625
compens	-6626
complic	-6627
compuls	-6628
convent	-6629
cyclone	-6630
decades	-6631
defense	-6632
dokania	-6633
drivers	-6634
dynamic	-6635
enacted	-6636
english	-6637
erupted	-6638
examine	-6639
explore	-6640
exports	-6641
failing	-6642
falling	-6643
fingers	-6644
freight	-6645
goggles	-6646
graphic	-6647
handled	-6648
honored	-6649
infiltr	-6650
ingredi	-6651
keepers	-6652
malaria	-6653
measles	-6654
nucleic	-6655
objects	-6656
orphans	-6657
otherap	-6658
reaches	-6659
revised	-6660
sassoon	-6661
shocked	-6662
sneezes	-6663
spanish	-6664
sustain	-6665
tablets	-6666
targets	-6667
tremend	-6668
welcome	-6669
zealand	-6670
▁¦2003¦	-6671
▁¦2017¦	-6672
▁¦2018¦	-6673
accompan	-6674
accuracy	-6675
advanced	-6676
amandeep	-6677
appendix	-6678
assessed	-6679
attempts	-6680
cellular	-6681
cheetahs	-6682
clusters	-6683
computer	-6684
descript	-6685
devanand	-6686
donation	-6687
electron	-6688
eligible	-6689
emergent	-6690
enditure	-6691
enhanced	-6692
enrolled	-6693
harmless	-6694
hinduism	-6695
hygienic	-6696
imperial	-6697
inactive	-6698
indirect	-6699
kawasaki	-6700
loksatta	-6701
meantime	-6702
mortuary	-6703
networks	-6704
normally	-6705
northern	-6706
onymized	-6707
orphaned	-6708
overwhel	-6709
procured	-6710
prompted	-6711
protects	-6712
renowned	-6713
sentinel	-6714
shailesh	-6715
swimming	-6716
tatyarao	-6717
unwanted	-6718
washroom	-6719
watching	-6720
▁¦8,000¦	-6721
accidents	-6722
alleviate	-6723
ascertain	-6724
behaviour	-6725
chaudhary	-6726
christmas	-6727
cleansing	-6728
cocktails	-6729
consulted	-6730
contagion	-6731
elsewhere	-6732
festivals	-6733
francisco	-6734
hoteliers	-6735
identical	-6736
isolating	-6737
jurisdict	-6738
localised	-6739
mukherjee	-6740
niranjani	-6741
practical	-6742
preschool	-6743
primarily	-6744
promotion	-6745
ratnagiri	-6746
recognize	-6747
residence	-6748
responded	-6749
sanctions	-6750
satisfied	-6751
targeting	-6752
tendulkar	-6753
therapies	-6754
wikimedia	-6755
worrisome	-6756
▁¦40,000¦	-6757
accelerate	-6758
aggressive	-6759
antibiotic	-6760
applicable	-6761
attendance	-6762
authorized	-6763
connecting	-6764
convention	-6765
corruption	-6766
dattatraya	-6767
diagnostic	-6768
disability	-6769
eliminated	-6770
infarction	-6771
inhibition	-6772
integrated	-6773
multimedia	-6774
nalasopara	-6775
newspapers	-6776
oronavirus	-6777
personally	-6778
postponing	-6779
reasonable	-6780
saturation	-6781
separately	-6782
suggesting	-6783
supportive	-6784
workplaces	-6785
xenophobia	-6786
▁¦100,000¦	-6787
▁¦122,653¦	-6788
▁¦2019-20¦	-6789
accompanied	-6790
conclusions	-6791
destination	-6792
expenditure	-6793
fingernails	-6794
interrupted	-6795
methodology	-6796
necessities	-6797
partnership	-6798
philippines	-6799
quarantines	-6800
remedacivir	-6801
repurposing	-6802
seriousness	-6803
shopkeepers	-6804
suppression	-6805
surrounding	-6806
vaccinators	-6807
certificates	-6808
chairmanship	-6809
continuously	-6810
coordinating	-6811
coordination	-6812
disinfecting	-6813
hospitalised	-6814
physiotherap	-6815
recommending	-6816
relationship	-6817
transmitting	-6818
announcements	-6819
automatically	-6820
comorbidities	-6821
decentralized	-6822
institutional	-6823
methodologies	-6824
participation	-6825
precautionary	-6826
pseudonymized	-6827
acknowledgment	-6828
misconceptions	-6829
hospitalizations	-6830
).	-6831
-3	-6832
0.	-6833
cb	-6834
cz	-6835
gs	-6836
jy	-6837
nd	-6838
rd	-6839
02¦	-6840
21¦	-6841
28¦	-6842
31¦	-6843
39¦	-6844
44¦	-6845
47¦	-6846
51¦	-6847
58¦	-6848
72¦	-6849
8,9	-6850
93¦	-6851
afo	-6852
asi	-6853
cip	-6854
dio	-6855
erg	-6856
fam	-6857
fib	-6858
fra	-6859
hab	-6860
hub	-6861
hug	-6862
ifn	-6863
ils	-6864
iso	-6865
ith	-6866
iya	-6867
jha	-6868
kut	-6869
lag	-6870
ltd	-6871
max	-6872
mot	-6873
oni	-6874
pha	-6875
pow	-6876
ras	-6877
ssc	-6878
tom	-6879
uel	-6880
ula	-6881
van	-6882
wag	-6883
waj	-6884
▁?'	-6885
-17¦	-6886
acts	-6887
adam	-6888
ague	-6889
ajay	-6890
ames	-6891
anda	-6892
anes	-6893
ania	-6894
anze	-6895
aper	-6896
aret	-6897
ario	-6898
arms	-6899
athi	-6900
athy	-6901
benz	-6902
blin	-6903
chat	-6904
chip	-6905
chow	-6906
corp	-6907
crew	-6908
cryo	-6909
cyan	-6910
diam	-6911
ecdc	-6912
emes	-6913
esia	-6914
farm	-6915
fate	-6916
fert	-6917
film	-6918
firm	-6919
foun	-6920
gall	-6921
garg	-6922
gile	-6923
giri	-6924
girl	-6925
hamp	-6926
hear	-6927
hide	-6928
illo	-6929
itin	-6930
jeev	-6931
jhar	-6932
jump	-6933
jyot	-6934
kars	-6935
kids	-6936
knew	-6937
lact	-6938
lers	-6939
lial	-6940
lies	-6941
lone	-6942
lots	-6943
loud	-6944
love	-6945
lugg	-6946
mani	-6947
megh	-6948
neck	-6949
olog	-6950
onco	-6951
ouse	-6952
plaz	-6953
pray	-6954
priy	-6955
ptic	-6956
queu	-6957
reha	-6958
rich	-6959
rist	-6960
ryan	-6961
sets	-6962
shal	-6963
shan	-6964
sial	-6965
stip	-6966
symp	-6967
tens	-6968
tree	-6969
unde	-6970
upsc	-6971
urge	-6972
vand	-6973
virt	-6974
vita	-6975
wool	-6976
worn	-6977
zhou	-6978
▁¦46	-6979
▁¦53	-6980
▁¦55	-6981
▁¦57	-6982
▁¦66	-6983
,191¦	-6984
acept	-6985
alaya	-6986
alive	-6987
ambed	-6988
aquar	-6989
arian	-6990
asari	-6991
asive	-6992
assam	-6993
avati	-6994
ayush	-6995
bleed	-6996
careg	-6997
cares	-6998
chimp	-6999
chron	-7000
coach	-7001
coast	-7002
dairy	-7003
deore	-7004
dispo	-7005
dolvi	-7006
erary	-7007
eshot	-7008
ester	-7009
estor	-7010
eving	-7011
favip	-7012
frame	-7013
ganga	-7014
gates	-7015
ghter	-7016
greet	-7017
grief	-7018
gupta	-7019
hopes	-7020
indon	-7021
islam	-7022
khare	-7023
knows	-7024
maybe	-7025
meghe	-7026
narli	-7027
naxal	-7028
norms	-7029
offer	-7030
oform	-7031
overn	-7032
oxide	-7033
pande	-7034
plate	-7035
pover	-7036
proud	-7037
pumps	-7038
punit	-7039
recip	-7040
reply	-7041
reput	-7042
respe	-7043
retro	-7044
rever	-7045
rhino	-7046
sangh	-7047
senti	-7048
sindh	-7049
sules	-7050
taste	-7051
topic	-7052
uddin	-7053
upset	-7054
vital	-7055
voter	-7056
watch	-7057
wheel	-7058
write	-7059
▁¦15-	-7060
▁¦16.	-7061
▁¦34¦	-7062
▁¦38¦	-7063
▁¦52¦	-7064
▁¦56¦	-7065
▁¦69¦	-7066
▁¦73¦	-7067
▁¦88¦	-7068
4,000¦	-7069
acting	-7070
affili	-7071
aggreg	-7072
alized	-7073
allerg	-7074
allows	-7075
argent	-7076
assays	-7077
belong	-7078
boxing	-7079
buried	-7080
calend	-7081
choice	-7082
compar	-7083
contam	-7084
couldn	-7085
desire	-7086
eknath	-7087
fellow	-7088
fungus	-7089
gilead	-7090
hunger	-7091
iation	-7092
iravir	-7093
irvana	-7094
kanjur	-7095
kharif	-7096
letion	-7097
modify	-7098
obstru	-7099
peptid	-7100
permit	-7101
plenty	-7102
prophy	-7103
proxim	-7104
racist	-7105
random	-7106
recomb	-7107
refers	-7108
refuse	-7109
serves	-7110
somani	-7111
spaces	-7112
spillo	-7113
square	-7114
storms	-7115
strike	-7116
submit	-7117
supple	-7118
talked	-7119
techno	-7120
thanol	-7121
tribal	-7122
upload	-7123
urging	-7124
usable	-7125
versus	-7126
weapon	-7127
weight	-7128
wonder	-7129
▁¦1.7¦	-7130
▁¦10-1	-7131
▁¦900¦	-7132
academy	-7133
acharya	-7134
amounts	-7135
appreci	-7136
atorium	-7137
balance	-7138
banning	-7139
bottles	-7140
carrier	-7141
chaired	-7142
circuit	-7143
coroner	-7144
counted	-7145
courses	-7146
cytosis	-7147
damaged	-7148
density	-7149
diamond	-7150
drastic	-7151
festive	-7152
founder	-7153
freedom	-7154
gadkari	-7155
gangakh	-7156
harvard	-7157
hashtag	-7158
holding	-7159
inaugur	-7160
inquire	-7161
intends	-7162
jalgaon	-7163
locking	-7164
luggage	-7165
neither	-7166
notably	-7167
notices	-7168
pacific	-7169
parcels	-7170
passive	-7171
playing	-7172
publish	-7173
rehabil	-7174
remediv	-7175
replace	-7176
reprodu	-7177
resumed	-7178
sahitya	-7179
schemes	-7180
seating	-7181
shekhar	-7182
substit	-7183
surveys	-7184
thelial	-7185
toilets	-7186
varying	-7187
visible	-7188
achalpur	-7189
actively	-7190
ambedkar	-7191
ancestor	-7192
aquarius	-7193
attached	-7194
billions	-7195
bleeding	-7196
brothers	-7197
capsules	-7198
cleaners	-7199
creation	-7200
diabetic	-7201
drinking	-7202
educated	-7203
eshotsav	-7204
examples	-7205
funerals	-7206
helpless	-7207
himachal	-7208
independ	-7209
intended	-7210
internal	-7211
invasive	-7212
jitendra	-7213
malaysia	-7214
manmohan	-7215
measured	-7216
neighbor	-7217
patterns	-7218
prescrib	-7219
prescrip	-7220
priyanka	-7221
probable	-7222
punitive	-7223
ravindra	-7224
realized	-7225
refriger	-7226
releases	-7227
reserves	-7228
resource	-7229
scenario	-7230
somewhat	-7231
sporting	-7232
steadily	-7233
stickers	-7234
strength	-7235
symbolic	-7236
talasari	-7237
terminal	-7238
toxicity	-7239
underest	-7240
virulent	-7241
warnings	-7242
warriors	-7243
weddings	-7244
▁¦1,200¦	-7245
▁¦6,000¦	-7246
▁¦7,000¦	-7247
appearing	-7248
argentina	-7249
assistant	-7250
balasaheb	-7251
basically	-7252
chimpanze	-7253
coalition	-7254
committed	-7255
cooperate	-7256
coronavir	-7257
deshpande	-7258
destroyed	-7259
economist	-7260
eliminate	-7261
exclusive	-7262
explosion	-7263
fertility	-7264
forefront	-7265
forgotten	-7266
indonesia	-7267
infecting	-7268
inspector	-7269
introduce	-7270
involving	-7271
jharkhand	-7272
licensing	-7273
naturally	-7274
naxalites	-7275
operators	-7276
overnight	-7277
pandemics	-7278
preferred	-7279
prescribe	-7280
provinces	-7281
proximity	-7282
readiness	-7283
realizing	-7284
recruited	-7285
replicate	-7286
scientist	-7287
skeptical	-7288
societies	-7289
standards	-7290
stimulate	-7291
supplying	-7292
supported	-7293
universal	-7294
witnessed	-7295
▁¦25,000¦	-7296
commitment	-7297
contracept	-7298
discussing	-7299
evaluation	-7300
expressing	-7301
expression	-7302
foreigners	-7303
installing	-7304
kanjurmarg	-7305
marathwada	-7306
meaningful	-7307
minimizing	-7308
preferably	-7309
prohibited	-7310
purchasing	-7311
ramdesivir	-7312
relaxation	-7313
respirator	-7314
restaurant	-7315
similarity	-7316
sindhudurg	-7317
staggering	-7318
supporting	-7319
thoroughly	-7320
threatened	-7321
undertaken	-7322
unexpected	-7323
conferences	-7324
connections	-7325
devastating	-7326
favipiravir	-7327
ganeshotsav	-7328
importantly	-7329
ingredients	-7330
obstruction	-7331
overlapping	-7332
participate	-7333
populations	-7334
recruitment	-7335
remedicavir	-7336
acoronavirus	-7337
associations	-7338
confirmation	-7339
consistently	-7340
gangakhedkar	-7341
implementing	-7342
intervention	-7343
participants	-7344
pathological	-7345
preventative	-7346
psychiatrist	-7347
reproductive	-7348
technologies	-7349
unemployment	-7350
breastfeeding	-7351
contamination	-7352
establishment	-7353
opportunities	-7354
physiotherapy	-7355
transmissible	-7356
understanding	-7357
manifestations	-7358
rehabilitation	-7359
responsibilities	-7360
transmissibility	-7361
07	-7362
1-	-7363
8.	-7364
dg	-7365
gm	-7366
oh	-7367
rp	-7368
sn	-7369
sr	-7370
▁*	-7371
-12	-7372
.0¦	-7373
22¦	-7374
26¦	-7375
484	-7376
61¦	-7377
79¦	-7378
8,3	-7379
81¦	-7380
agi	-7381
asp	-7382
awh	-7383
bac	-7384
bho	-7385
cry	-7386
cup	-7387
dat	-7388
dau	-7389
eid	-7390
ema	-7391
eti	-7392
exc	-7393
fau	-7394
gel	-7395
hai	-7396
hex	-7397
huo	-7398
iph	-7399
jet	-7400
jin	-7401
jio	-7402
khe	-7403
kom	-7404
lob	-7405
mix	-7406
nai	-7407
nan	-7408
nao	-7409
nea	-7410
oor	-7411
ops	-7412
pie	-7413
rod	-7414
sac	-7415
sno	-7416
som	-7417
tex	-7418
tin	-7419
tip	-7420
tty	-7421
ude	-7422
und	-7423
vec	-7424
yel	-7425
▁!"	-7426
▁-,	-7427
aism	-7428
akur	-7429
amaz	-7430
anna	-7431
anth	-7432
anur	-7433
awad	-7434
bage	-7435
bear	-7436
bend	-7437
boat	-7438
bomb	-7439
bour	-7440
bral	-7441
burn	-7442
cbse	-7443
chak	-7444
coep	-7445
cove	-7446
demo	-7447
dock	-7448
drew	-7449
dust	-7450
dysp	-7451
emol	-7452
epic	-7453
esty	-7454
exud	-7455
fair	-7456
file	-7457
fled	-7458
fold	-7459
gate	-7460
gava	-7461
guru	-7462
hesh	-7463
holy	-7464
hrct	-7465
hurt	-7466
icef	-7467
icin	-7468
ider	-7469
insp	-7470
iron	-7471
itam	-7472
jazz	-7473
jing	-7474
kaly	-7475
keen	-7476
kent	-7477
khri	-7478
kuta	-7479
leak	-7480
legs	-7481
lift	-7482
lips	-7483
maid	-7484
misc	-7485
nana	-7486
navi	-7487
nell	-7488
ocap	-7489
odis	-7490
offl	-7491
okay	-7492
omis	-7493
pads	-7494
plus	-7495
poul	-7496
quot	-7497
ramp	-7498
rase	-7499
refe	-7500
relu	-7501
roid	-7502
seir	-7503
semi	-7504
shin	-7505
slot	-7506
sukh	-7507
swed	-7508
tico	-7509
uris	-7510
usea	-7511
usha	-7512
utri	-7513
vivo	-7514
zind	-7515
zoom	-7516
▁¦44	-7517
▁¦47	-7518
,100¦	-7519
abuse	-7520
afood	-7521
aimed	-7522
anasi	-7523
arogy	-7524
aside	-7525
astur	-7526
atiya	-7527
avian	-7528
awhad	-7529
bajaj	-7530
baram	-7531
bassy	-7532
binds	-7533
blast	-7534
bolly	-7535
bryan	-7536
caped	-7537
cious	-7538
civet	-7539
civic	-7540
coupl	-7541
dirty	-7542
doubt	-7543
drast	-7544
enses	-7545
entre	-7546
exhib	-7547
fires	-7548
forum	-7549
fruit	-7550
gases	-7551
gents	-7552
grown	-7553
hatma	-7554
hexid	-7555
hindi	-7556
ients	-7557
inser	-7558
iques	-7559
irrit	-7560
itive	-7561
jyoti	-7562
kilos	-7563
kinds	-7564
lated	-7565
laxis	-7566
leted	-7567
loans	-7568
lodha	-7569
looms	-7570
match	-7571
melon	-7572
mouse	-7573
noida	-7574
oting	-7575
outer	-7576
plays	-7577
plies	-7578
pooja	-7579
pools	-7580
prash	-7581
raise	-7582
ramad	-7583
rawat	-7584
runny	-7585
sabha	-7586
satav	-7587
sathe	-7588
secut	-7589
seema	-7590
semin	-7591
shout	-7592
slums	-7593
socio	-7594
solub	-7595
spray	-7596
stamp	-7597
tough	-7598
ultim	-7599
umbre	-7600
uncle	-7601
unnao	-7602
urang	-7603
wipes	-7604
yield	-7605
▁¦02¦	-7606
▁¦14-	-7607
▁¦18-	-7608
▁¦53¦	-7609
▁¦62¦	-7610
▁¦64¦	-7611
▁¦82-	-7612
▁¦82¦	-7613
▁¦93¦	-7614
absent	-7615
anyway	-7616
assure	-7617
behalf	-7618
bidden	-7619
bottom	-7620
bovine	-7621
cadila	-7622
campus	-7623
cancel	-7624
cation	-7625
checks	-7626
choose	-7627
cinema	-7628
citing	-7629
combat	-7630
crisil	-7631
define	-7632
dinner	-7633
discre	-7634
distin	-7635
dryers	-7636
eleven	-7637
emolli	-7638
endang	-7639
farmer	-7640
fitted	-7641
fought	-7642
frames	-7643
frustr	-7644
glycer	-7645
halved	-7646
hiraja	-7647
histor	-7648
hourly	-7649
iaries	-7650
ingent	-7651
iously	-7652
kakkar	-7653
kalyan	-7654
kapoor	-7655
larger	-7656
lawyer	-7657
lesser	-7658
listen	-7659
liters	-7660
namely	-7661
nausea	-7662
nilesh	-7663
odisha	-7664
owners	-7665
periph	-7666
planes	-7667
pokhri	-7668
potent	-7669
preeti	-7670
pritam	-7671
proved	-7672
queues	-7673
rarely	-7674
rashmi	-7675
repair	-7676
sation	-7677
satish	-7678
shahid	-7679
shares	-7680
shelar	-7681
sister	-7682
snomed	-7683
street	-7684
synthe	-7685
treats	-7686
tulinj	-7687
uating	-7688
unicef	-7689
unlike	-7690
vikram	-7691
wiring	-7692
worths	-7693
writes	-7694
yellow	-7695
▁¦0.5¦	-7696
▁¦1.4¦	-7697
▁¦120¦	-7698
▁¦130¦	-7699
acquain	-7700
advance	-7701
ainagar	-7702
amation	-7703
android	-7704
aspects	-7705
assured	-7706
bilater	-7707
biology	-7708
burning	-7709
carries	-7710
casting	-7711
clarity	-7712
cleanse	-7713
cleaves	-7714
concess	-7715
cornell	-7716
cortico	-7717
covaxin	-7718
coveted	-7719
curfews	-7720
cutting	-7721
denying	-7722
doorkno	-7723
driving	-7724
dyspnea	-7725
embassy	-7726
equally	-7727
escaped	-7728
ethanol	-7729
farming	-7730
focused	-7731
gardens	-7732
handful	-7733
hardest	-7734
harmful	-7735
healing	-7736
helpful	-7737
hingoli	-7738
homolog	-7739
iranian	-7740
itating	-7741
judaism	-7742
lagging	-7743
mahatma	-7744
mentary	-7745
monsoon	-7746
ocapsid	-7747
offline	-7748
parbhan	-7749
passing	-7750
payment	-7751
placebo	-7752
placing	-7753
polling	-7754
poultry	-7755
poverty	-7756
pranjal	-7757
privile	-7758
proceed	-7759
proning	-7760
removes	-7761
reuters	-7762
sanitis	-7763
seafood	-7764
servers	-7765
shankar	-7766
sharply	-7767
shifted	-7768
shouldn	-7769
suffici	-7770
tenders	-7771
theless	-7772
thrombo	-7773
tissues	-7774
touched	-7775
unclear	-7776
vessels	-7777
virtual	-7778
visions	-7779
windows	-7780
zindagi	-7781
▁¦2002¦	-7782
▁¦2013¦	-7783
accommod	-7784
achieved	-7785
adaptive	-7786
adjusted	-7787
airports	-7788
aneously	-7789
answered	-7790
antigens	-7791
bhargava	-7792
breaking	-7793
carriers	-7794
category	-7795
chickens	-7796
clotting	-7797
coaching	-7798
confined	-7799
daughter	-7800
diagnose	-7801
disorder	-7802
doubling	-7803
dynamics	-7804
enclosed	-7805
expenses	-7806
exported	-7807
exudates	-7808
fourteen	-7809
fraction	-7810
hexidine	-7811
hydrogen	-7812
ignoring	-7813
imported	-7814
injected	-7815
justices	-7816
lineages	-7817
mahamand	-7818
mandated	-7819
margaret	-7820
marketed	-7821
missions	-7822
nagarale	-7823
narlikar	-7824
navratri	-7825
newborns	-7826
parental	-7827
passbook	-7828
payments	-7829
prashant	-7830
princess	-7831
producer	-7832
promptly	-7833
reactive	-7834
remotely	-7835
scarcity	-7836
terrible	-7837
thoughts	-7838
traction	-7839
vacation	-7840
varanasi	-7841
vectored	-7842
verified	-7843
weekends	-7844
worksite	-7845
advertise	-7846
allocated	-7847
announces	-7848
approving	-7849
behaviors	-7850
bharatiya	-7851
bollywood	-7852
brazilian	-7853
canceling	-7854
companion	-7855
comparing	-7856
complaint	-7857
concluded	-7858
confident	-7859
conscious	-7860
contained	-7861
correctly	-7862
covidosis	-7863
cremation	-7864
cyanoform	-7865
economics	-7866
encourage	-7867
enveloped	-7868
excessive	-7869
followers	-7870
forbidden	-7871
guarantee	-7872
impotence	-7873
intensity	-7874
intervals	-7875
irregular	-7876
mahaparin	-7877
microscop	-7878
objective	-7879
observing	-7880
obtaining	-7881
occurring	-7882
¦	-7883
▁	-7884
e	-7885
t	-7886
a	-7887
i	-7888
o	-7889
n	-7890
s	-7891
r	-7892
h	-7893
d	-7894
c	-7895
l	-7896
𐋇	-7897
u	-7898
m	-7899
p	-7900
f	-7901
g	-7902
v	-7903
y	-7904
w	-7905
b	-7906
.	-7907
,	-7908
k	-7909
0	-7910
-	-7911
𐊣	-7912
𐊼	-7913
1	-7914
2	-7915
x	-7916
'	-7917
j	-7918
9	-7919
"	-7920
z	-7921
5	-7922
q	-7923
4	-7924
3	-7925
)	-7926
(	-7927
?	-7928
8	-7929
6	-7930
7	-7931
:	-7932
%	-7933
;	-7934
/	-7935
!	-7936
’	-7937
”	-7938
“	-7939
–	-7940
[	-7941
]	-7942
&	-7943
$	-7944
#	-7945
—	-7946
‘	-7947
•	-7948
≥	-7949
+	-7950
°	-7951
*	-7952
ा	-7953
_	-7954
×	-7955
武	-7956
肺	-7957
~	-7958
á	-7959
í	-7960
α	-7961
β	-7962
स	-7963
े	-7964
्	-7965
=	-7966
ò	-7967
ü	-7968
č	-7969
ş	-7970
γ	-7971
ं	-7972
क	-7973
ब	-7974
र	-7975
汉	-7976
漢	-7977
炎	-7978
£	-7979
å	-7980
é	-7981
ó	-7982
ई	-7983
ओ	-7984
च	-7985
त	-7986
द	-7987
प	-7988
ल	-7989
ळ	-7990
व	-7991
श	-7992
ो	-7993
′	-7994
火	-7995
眼	-7996
