<pad>	0
</s>	0
<unk>	0
¦	-1.26772
▁¦	-1.29889
▁.	-4.0275
▁,	-4.59439
े	-5.05926
आहे	-5.06289
ी	-5.16216
च्या	-5.20202
आणि	-5.23156
ा	-5.5546
त	-5.62486
▁	-5.69366
ची	-5.73643
ही	-5.7707
चा	-5.82727
ं	-5.93114
ला	-5.93397
या	-5.95813
मध्ये	-5.97066
ील	-6.04212
चे	-6.20741
आहेत	-6.23097
कोरोना	-6.25214
च	-6.33425
-	-6.35222
𐊣	-6.39076
𐊼	-6.39076
न	-6.39086
वा	-6.39448
ने	-6.42014
नाही	-6.45227
ल	-6.48351
हे	-6.56103
ते	-6.583
य	-6.59717
्या	-6.59768
क	-6.6036
ून	-6.62397
▁"	-6.68688
▁(	-6.68948
स	-6.69054
लस	-6.69129
ित	-6.70621
𐋇	-6.72952
साठी	-6.73944
किं	-6.75068
ात	-6.7852
▁'	-6.79059
▁)	-6.79383
वर	-6.79711
पण	-6.81104
तर	-6.81761
काही	-6.82907
आरोग्य	-6.85515
यांनी	-6.86997
की	-6.88322
▁?	-6.8966
व	-6.90534
करण्यात	-6.90904
ना	-6.95054
कमी	-6.9755
एक	-6.99147
असं	-7.03084
-19	-7.05222
केली	-7.06233
होत	-7.08324
हा	-7.12509
शी	-7.18441
माहिती	-7.20635
अ	-7.20691
मुळे	-7.21265
त्या	-7.22323
विषाणू	-7.24025
होते	-7.25613
▁:	-7.26334
का	-7.27105
शकत	-7.27852
सर्व	-7.28427
ो	-7.28454
कोव्हिड	-7.29245
करोना	-7.305
चं	-7.30901
सुरू	-7.34148
संसर्ग	-7.35284
डॉ	-7.35635
ज्या	-7.40521
पर्यंत	-7.43325
अनेक	-7.43752
र	-7.43895
काम	-7.44695
इतर	-7.44736
ऑक्सिजन	-7.4533
केले	-7.46931
होती	-7.47625
केला	-7.48369
जास्त	-7.48444
पासून	-7.49003
आली	-7.49291
बंद	-7.49724
रुग्ण	-7.50729
असलेल्या	-7.51406
होता	-7.51756
करण्यासाठी	-7.52128
आले	-7.5417
राज्यात	-7.55901
करत	-7.56532
ली	-7.57626
▁-	-7.58487
झाला	-7.60205
एका	-7.60937
ल्या	-7.62161
लसीकरण	-7.6303
हात	-7.6318
झाली	-7.63455
covid	-7.63683
राज्य	-7.65668
करून	-7.66046
येत	-7.66131
वापर	-7.66504
दोन	-7.66708
ाच्या	-7.66925
असे	-7.68901
अधिक	-7.69345
म्हणून	-7.69621
मृत्यू	-7.70956
केंद्र	-7.71903
ज	-7.72464
लॉकडाऊन	-7.72978
मधील	-7.73029
असेल	-7.73415
चाचणी	-7.7369
पेक्षा	-7.73778
काय	-7.73982
संख्या	-7.74135
ता	-7.74244
आजार	-7.74765
झालेल्या	-7.74935
नंतर	-7.78394
दिली	-7.78886
तयार	-7.78929
आता	-7.78955
तरी	-7.81034
देण्यात	-7.82463
आ	-7.82647
त्यांना	-7.83126
अशा	-7.83621
तो	-7.84906
परिणाम	-7.85201
करण्याच	-7.85326
म्हणजे	-7.8533
म्हटलं	-7.86072
त्यांच्या	-7.86873
आला	-7.87096
आम्ही	-7.87826
म्हणाले	-7.88403
नुसार	-7.88883
त्यामुळे	-7.88998
केलं	-7.89363
व्हायरस	-7.90313
गेल्या	-7.90453
उपलब्ध	-7.90863
टक्के	-7.90924
म	-7.91351
जे	-7.91726
मात्र	-7.91904
करणे	-7.92111
अशी	-7.9264
एप्रिल	-7.93016
त्यांनी	-7.93391
उपचार	-7.9477
मोठ्या	-7.9496
महाराष्ट्रात	-7.95859
सरकार	-7.96304
▁¦2020	-7.96816
असून	-7.96925
िक	-7.97113
भारतात	-7.97872
सध्या	-7.97928
्स	-7.98175
ू	-7.98804
असल्याचं	-7.99542
फ	-7.99557
असा	-7.99742
होतं	-8.00296
कडून	-8.00556
ट	-8.00962
जात	-8.00988
प	-8.01233
लशी	-8.01806
▁."	-8.01842
सांगता	-8.02574
ले	-8.03515
ाने	-8.04188
देशात	-8.0427
सरकारने	-8.04456
परिस्थिती	-8.04535
कोविड	-8.05479
मार्च	-8.0548
ांना	-8.05613
वैद्यकीय	-8.05781
ड	-8.06064
औषध	-8.06689
होऊ	-8.06793
कारण	-8.07161
ाचा	-8.07455
ांनी	-8.07694
ह्या	-8.07807
डोस	-8.0819
निर्णय	-8.09185
आलं	-8.09191
सांगितलं	-8.09804
सह	-8.10005
होतो	-8.10103
श	-8.10356
शाळा	-8.10374
लोकांना	-8.10436
चीन	-8.10627
गंभीर	-8.10743
यांच्या	-8.11553
लक्षण	-8.11604
नवीन	-8.11722
केल्या	-8.12238
प्रमाण	-8.12253
co	-8.1294
गरज	-8.1339
मास्क	-8.13975
v	-8.14162
हजार	-8.1448
नी	-8.15447
होणार	-8.16005
दुसऱ्या	-8.163
.	-8.16456
प्रकार	-8.16658
लोक	-8.17705
समावेश	-8.18008
मी	-8.18476
▁%	-8.18641
रुग्णालयात	-8.18812
करण्या	-8.19679
झाले	-8.19889
जर	-8.20199
करू	-8.20263
दर	-8.20955
ाला	-8.21306
शकते	-8.22821
ती	-8.23118
दिवस	-8.23511
सीओव्ही	-8.23618
व्यक्ती	-8.23804
आपल्या	-8.24149
मुंबई	-8.24723
द्वार	-8.24776
नाहीत	-8.25314
ंना	-8.25355
आपण	-8.26
लक्ष	-8.262
लाख	-8.26848
काळात	-8.27166
दरम्यान	-8.2768
देख	-8.28066
ाची	-8.28939
प्रवास	-8.292
शक्यता	-8.29222
आज	-8.29372
ासाठी	-8.29687
जागतिक	-8.29966
ेल	-8.30369
रुग्णां	-8.30512
आलेल्या	-8.3053
स्थिती	-8.30785
जाहीर	-8.31129
आढळ	-8.31437
ब	-8.31755
असल्याच	-8.31774
पुढे	-8.32038
ावर	-8.3229
येथ	-8.32791
पूर्ण	-8.33369
परवानगी	-8.33496
प्रमाणात	-8.33965
येणार	-8.34717
म्हणतात	-8.34747
निर्माण	-8.35072
असते	-8.35134
केलेल्या	-8.35704
sars	-8.35921
तुम्हाला	-8.35923
ु	-8.36079
महत्त्वाच	-8.36121
जाऊ	-8.37171
लागू	-8.37179
प्रसार	-8.37495
ठाकरे	-8.37818
मदत	-8.38179
चाचण्या	-8.38493
बोलता	-8.39153
आवश्यक	-8.39156
तील	-8.39181
असलेल	-8.39227
निर्बंध	-8.39283
बदल	-8.39649
दिसून	-8.39704
,	-8.39904
दाखल	-8.40096
बाहेर	-8.40385
प्रयत्न	-8.40952
जाई	-8.41688
रोजी	-8.41972
जाते	-8.41973
तीन	-8.42472
प्र	-8.42641
योग्य	-8.4268
झालेल	-8.43141
ठिकाणी	-8.43759
कोणत्या	-8.44046
▁¦10	-8.44079
विचार	-8.44397
राज	-8.44641
देश	-8.45149
मागणी	-8.45801
नं	-8.46192
कडे	-8.4632
भागात	-8.46374
मे	-8.46432
बाबत	-8.46541
▁;	-8.46747
ई	-8.47332
करणाऱ्या	-8.47633
धोका	-8.48091
संबंधित	-8.48124
भारत	-8.48164
कोरोनाची	-8.48247
काळजी	-8.48557
सेवा	-8.48969
याचा	-8.49092
ांच्या	-8.49158
२	-8.49563
यांना	-8.49927
मुख्यमंत्र	-8.50075
असताना	-8.50303
आधार	-8.5042
विकस	-8.50424
पुन्हा	-8.50893
दिले	-8.50904
लं	-8.51146
ह	-8.51361
री	-8.51929
/	-8.52469
पहिल्या	-8.53311
भर	-8.53407
संच	-8.5356
4¦	-8.53701
उद्धव	-8.53788
संपर्क	-8.5381
सोबत	-8.54042
बीबीसी	-8.55262
सार्स	-8.56271
करता	-8.56527
ीन	-8.57745
शकता	-8.57776
कोटी	-8.57999
होण्या	-8.58044
असू	-8.58651
सा	-8.58851
मंत्री	-8.59182
तुम्ही	-8.59314
किती	-8.59331
महाराष्ट्र	-8.59411
वाढ	-8.59804
ग	-8.59968
रुग्णांच	-8.60725
पुरवठा	-8.60868
होई	-8.61117
प्रश्न	-8.61216
संसर्गा	-8.61295
ण	-8.61362
तेव्हा	-8.61385
सार्वजनिक	-8.61402
ांमध्ये	-8.61482
उत्पादन	-8.61555
शहरात	-8.62411
नव्हत	-8.62472
ेईल	-8.63188
परीक्षा	-8.63376
रुग्णांना	-8.63457
द	-8.6368
पंतप्रधान	-8.64204
मधून	-8.64226
डेटा	-8.64295
s	-8.64331
महिन्यात	-8.6446
ेंद्र	-8.64555
प्रत्येक	-8.65137
मला	-8.65343
क्त	-8.65382
-2	-8.6556
करतात	-8.66049
स्पष्ट	-8.66265
राष्ट्रीय	-8.6627
उत्तर	-8.66277
वेळ	-8.66281
लहान	-8.66292
नये	-8.66461
वरील	-8.66525
ऑफ	-8.66833
ेश	-8.67596
प्रमाणे	-8.67763
टेस्ट	-8.68087
▁¦1¦	-8.68428
झाल्या	-8.68818
लक्षणं	-8.69015
येई	-8.691
आल्या	-8.69361
पैकी	-8.69396
दिसत	-8.69582
जी	-8.69695
ाचे	-8.69715
3¦	-8.69761
साथी	-8.69946
संपूर्ण	-8.70598
पॉझिटिव्ह	-8.70802
चर्चा	-8.70836
लसी	-8.70988
ांची	-8.71129
ंनी	-8.71583
याबाबत	-8.71836
लागण	-8.71859
जानेवारी	-8.7191
विविध	-8.71968
झालं	-8.71974
याची	-8.72389
असतात	-8.72394
असतो	-8.73159
गेले	-8.73232
जगभरात	-8.7336
करण्यास	-8.73403
नियंत्रण	-8.7347
गेल	-8.73569
अंदाज	-8.73743
जिल्ह्यात	-8.73804
शोध	-8.74
१	-8.74208
नोंद	-8.74374
दिला	-8.74882
वि	-8.74938
उच्च	-8.74945
शिक्षण	-8.75475
वेळी	-8.75708
कंपनी	-8.75996
कर	-8.76132
डॉक्टर	-8.7626
करणार	-8.76266
सं	-8.76321
करा	-8.76608
रोग	-8.76847
8¦	-8.76852
पूर्वी	-8.77456
केसेस	-8.78014
सामान्य	-8.79151
घेतला	-8.79425
ुद्धा	-8.79695
लोकां	-8.79771
तून	-8.80205
2¦	-8.80432
त्यात	-8.80616
मोदी	-8.80868
मोठ	-8.81119
7¦	-8.81506
रा	-8.81737
फेब्रुवारी	-8.81822
त्यानंतर	-8.8203
भाग	-8.82033
50¦	-8.82217
प्रतिबंध	-8.82395
एकूण	-8.82471
सरकारी	-8.82563
वाढत	-8.8266
तुमच्या	-8.83216
णाऱ्या	-8.83668
समोर	-8.83746
केंद्रीय	-8.83823
सूचना	-8.84176
आजारा	-8.84289
खूप	-8.84445
इ	-8.84791
असल्याने	-8.85184
सारख्या	-8.8534
चार	-8.85676
बेड्स	-8.85808
सु	-8.85955
प्रभावी	-8.86024
आधी	-8.86129
त्याच्या	-8.86209
ण्यासाठी	-8.86396
यासाठी	-8.86699
ताप	-8.8761
त्रास	-8.87826
जेव्हा	-8.87838
आढळले	-8.87995
घरी	-8.88064
पाहिजे	-8.88145
जिल्हा	-8.88487
▁“	-8.88517
ेवळ	-8.88651
बद्दल	-8.8897
शक्य	-8.89173
रुग्णसंख्या	-8.89383
पाच	-8.89835
खासगी	-8.89908
अभ्यास	-8.90039
के	-8.90153
सांगितले	-8.90666
रात्री	-8.90679
जातो	-8.90854
शरीरात	-8.90974
गर्दी	-8.91321
असतील	-8.91344
विशेष	-8.91983
आकडेवारी	-8.92035
▁¦20	-8.92405
येऊ	-8.92582
p	-8.92706
शिवाय	-8.93324
राज्या	-8.93451
व्यक्त	-8.93451
आर्थिक	-8.93479
दोन्ही	-8.93479
सी	-8.93502
▁¦2¦	-8.9388
अंतर	-8.94149
येणाऱ्या	-8.94213
अजून	-8.94259
घेऊन	-8.94293
जाणार	-8.94401
लशीच्या	-8.94852
शिफारस	-8.94945
कर्मचारी	-8.94964
ठेवण्या	-8.95359
प्रमुख	-8.95693
दिल्ली	-8.95843
ांवर	-8.95997
स्थानिक	-8.96443
ांचा	-8.96639
ए	-8.97068
त्याचा	-8.97721
सुरुवात	-8.98108
अधिकारी	-8.98152
सेंटर	-8.98676
करताना	-8.98864
वेगान	-8.99137
नर	-8.99166
9¦	-8.99331
कालावधी	-8.99393
ग्रामीण	-8.99474
क्षेत्रात	-9.00148
्	-9.00166
वर्षा	-9.00321
देत	-9.00366
सेच	-9.00391
क्षमता	-9.00571
घेतली	-9.01067
िंग	-9.01417
ीय	-9.01493
मुंबईत	-9.0173
c	-9.01815
पुणे	-9.01834
नव्या	-9.01898
करावी	-9.02486
▁‘	-9.02631
ातून	-9.02636
जवळ	-9.0285
a	-9.03201
होण्याची	-9.03318
▁’	-9.0342
▁¦14	-9.03576
ायला	-9.03619
काळ	-9.03686
तीव्र	-9.03712
असल	-9.03763
गरजेच	-9.04079
दिलेल	-9.04096
टोपे	-9.04173
ण्यात	-9.0419
राहत	-9.05024
कधी	-9.05031
आपल	-9.05227
पर्याय	-9.05902
गेली	-9.05969
आदेश	-9.06078
अन्य	-9.06689
परंत	-9.06707
हॉस्पिटल	-9.06776
्य	-9.06823
घेण्यात	-9.06833
थ	-9.0722
निर्मिती	-9.07364
ंग	-9.0742
प्रतिसाद	-9.07473
यामुळे	-9.07542
लाट	-9.07568
▁¦12	-9.07574
प्रमाणावर	-9.0758
मते	-9.0791
केलेल	-9.08034
विद्यार्थ्यां	-9.08147
लॉकडाउन	-9.08344
नागपूर	-9.0835
घोषणा	-9.08351
असणाऱ्या	-9.08356
n	-9.0896
हून	-9.0897
ंमध्ये	-9.09006
करणं	-9.09124
प्रवेश	-9.09175
जो	-9.092
एचसीओव्ही	-9.09202
आमच्या	-9.09335
लो	-9.09615
आणखी	-9.09872
पूर्व	-9.10076
शक	-9.10365
जीव	-9.10499
who	-9.10914
तुलने	-9.10914
उपाय	-9.11123
आतापर्यंत	-9.11138
प्रदेश	-9.1115
सहा	-9.11162
ातील	-9.11371
▁¦30	-9.11401
अर्थ	-9.11479
त्यांची	-9.11571
▁¦15	-9.116
ठर	-9.12147
होणाऱ्या	-9.12317
दा	-9.1244
जातं	-9.12595
सुरु	-9.12664
नि	-9.12757
5¦	-9.1306
रुग्णालया	-9.13099
वर्षी	-9.13168
वर्ष	-9.13347
करतो	-9.13391
क्वारंटाईन	-9.13546
देशा	-9.13723
तास	-9.13965
1	-9.14134
पुण्यात	-9.14215
भीती	-9.14445
प्रक्रिया	-9.14445
तात	-9.14486
णे	-9.14626
दुसरी	-9.14714
चाचण्यां	-9.14813
आपल्याला	-9.15094
गोष्टी	-9.15166
नियम	-9.15207
ामुळे	-9.15277
लशीचा	-9.15335
प्राथमिक	-9.1534
त्याची	-9.15348
ीम	-9.15487
ओ	-9.15529
विरोधी	-9.15541
ंच्या	-9.15785
कार्यक्रम	-9.1585
भारता	-9.15946
रेमडेसिवीर	-9.16249
झाल्यानंतर	-9.1632
विषाणूच्या	-9.16576
पा	-9.17119
बेड	-9.17159
इन्स्टिट्यूट	-9.17167
ांसाठी	-9.17329
वाट	-9.17555
णार	-9.17609
उद्रेका	-9.17881
तपासणी	-9.18094
आम्हाला	-9.18101
संशोधन	-9.18462
मुख्य	-9.18668
त्याला	-9.18927
संभाव्य	-9.19027
यांचा	-9.19028
जोख	-9.19032
अत्यं	-9.19157
आमच	-9.19212
कार्य	-9.19289
करते	-9.19712
संदर्भात	-9.19862
वश्यक	-9.19918
पुष्टी	-9.19967
तुटवडा	-9.1997
ंतर्गत	-9.19971
कोणती	-9.19993
सुरक्षित	-9.2035
अत्या	-9.20541
मोठा	-9.20563
स्पर्श	-9.20591
लाटे	-9.20753
को	-9.20794
देण्याच	-9.20847
सामाजिक	-9.20922
ताना	-9.21194
टप्प्यात	-9.21271
द्द	-9.21774
ंड	-9.2182
शेवट	-9.21884
बरे	-9.21951
चालू	-9.21983
एखाद्या	-9.21991
भूत	-9.22035
मग	-9.22126
▁¦5¦	-9.22317
दूर	-9.22343
घर	-9.22427
श्वसन	-9.22831
असल्यास	-9.22906
नियोजन	-9.23037
णं	-9.23153
थेट	-9.23315
ात्मक	-9.23406
यात	-9.23445
यावर	-9.23445
लोकांच्या	-9.23743
गाव	-9.23788
हळू	-9.23835
आव्हान	-9.23836
लोकांनी	-9.23972
परत	-9.23975
घ्या	-9.24
प्रकरणां	-9.24013
सुविधा	-9.24119
करावा	-9.24169
ामध्ये	-9.24295
तः	-9.24349
▁¦24	-9.24428
m	-9.24658
जवळपास	-9.2483
▁!	-9.24831
पालन	-9.24857
संस्था	-9.25078
मर्याद	-9.25537
देता	-9.25686
वुहान	-9.25825
खर्च	-9.25826
सोश	-9.25826
नोंदणी	-9.25837
माग	-9.25852
उ	-9.26092
नाव	-9.26205
त्याच	-9.26819
सरकारच्या	-9.26833
पत्रकार	-9.26837
जसे	-9.26868
▁¦5	-9.27032
पातळीवर	-9.27077
पातळी	-9.27612
सुरक्षा	-9.27683
प्रति	-9.27716
विरोधात	-9.28023
▁¦6¦	-9.28092
सेल	-9.28575
पर	-9.28778
त्यासाठी	-9.28848
अवलंब	-9.28888
भारतीय	-9.29026
तिथे	-9.29035
मराठी	-9.29067
फार	-9.29219
बाधित	-9.29603
इंजेक्शन	-9.29892
डिसेंबर	-9.29928
दिलं	-9.29934
घेत	-9.29966
दिल्या	-9.30036
कोरोनाव्हायरस	-9.30393
वाहतूक	-9.30497
असल्याची	-9.30617
अमेरिके	-9.30773
तयारी	-9.30783
संक्रमण	-9.30917
बस	-9.30932
श्वास	-9.30966
लाटेत	-9.31246
r	-9.31481
विलगीकरण	-9.31498
वरून	-9.3186
बहुतांश	-9.32045
झ	-9.32115
सल्ला	-9.32124
युके	-9.3219
लशीं	-9.32255
करावे	-9.32264
मुलांना	-9.32379
दिव	-9.32979
आरोप	-9.3312
उदाहरण	-9.3312
रेल्वे	-9.3312
७	-9.3314
काढ	-9.33328
मत	-9.33339
फ्लू	-9.33523
बंदी	-9.33607
ीत	-9.33644
होऊन	-9.33852
जून	-9.33858
ace	-9.33899
लागत	-9.33948
नागरिक	-9.3415
o	-9.34162
पोलीस	-9.34207
करावं	-9.34213
प्रशासना	-9.34268
0¦	-9.34326
हॉस्पिटलमध्ये	-9.34545
जा	-9.34741
४	-9.34989
महिन्या	-9.35128
e	-9.35279
लोकसंख्ये	-9.35439
त्यांचे	-9.3563
मान	-9.35745
पत्र	-9.35758
सर्वाधि	-9.35788
लोकांमध्ये	-9.35804
वर्षां	-9.36061
धुण्या	-9.36093
कोव्हॅक्सिन	-9.36145
मध्य	-9.36184
जातात	-9.36358
सौम्य	-9.36414
दररोज	-9.36435
विद्यार्थी	-9.36461
घेण्यासाठी	-9.36485
माझ्या	-9.36582
रित्या	-9.36898
ंची	-9.37137
३	-9.37151
दिवसात	-9.37204
उपस्थित	-9.37286
ानुसार	-9.37375
संपर्कात	-9.37482
सकाळी	-9.37632
तज्ज्ञ	-9.37772
▁¦18	-9.38088
सगळ्या	-9.38218
अहवाल	-9.38479
अध्यक्ष	-9.38676
अद्याप	-9.38677
पवार	-9.38697
▁¦19	-9.38806
ण्याची	-9.38934
नमुने	-9.38996
मानवी	-9.39224
सांगण्या	-9.39272
देशांमध्ये	-9.39539
दुकान	-9.39748
अनुभव	-9.39827
दुसरा	-9.39993
सांगत	-9.40131
मान्यता	-9.40259
कर्मचाऱ्यां	-9.40282
जन	-9.40397
सोड	-9.40488
रि	-9.4055
१९	-9.40647
इटली	-9.40728
जण	-9.40748
परिणामकारक	-9.40891
सरकारला	-9.40945
व्यवस्था	-9.40975
तिसऱ्या	-9.40989
माध्यमातून	-9.40996
साठा	-9.41066
मार्ग	-9.41083
प्रकरण	-9.41324
साथ	-9.41398
▁).	-9.414
यामध्ये	-9.41438
▁¦11	-9.41456
संसर्गाच	-9.41609
व्यक्तीं	-9.41702
एस	-9.41719
टन	-9.41903
आलेल	-9.42095
राजकीय	-9.42166
नका	-9.42294
जनते	-9.42321
रुपय	-9.42584
दार	-9.42674
ार्थ	-9.42915
विषय	-9.42958
लशीचे	-9.42977
विभागा	-9.43301
पुढील	-9.43356
होण	-9.43678
यु	-9.43764
डे	-9.44093
नगर	-9.44313
रुग्णालय	-9.44388
दाय	-9.44544
सुमार	-9.44572
यंत्रणा	-9.44672
केल्यानंतर	-9.44731
उद्रेक	-9.44761
आवश्यकता	-9.44872
सर्वां	-9.45285
नागरिकांना	-9.45518
कडक	-9.45781
प्रभावित	-9.45859
स्ट	-9.46222
करायच	-9.46229
रुग्णांचा	-9.46536
मिळत	-9.46589
ंवर	-9.46632
फत	-9.46835
i	-9.46912
्यात	-9.46945
मिळाली	-9.47015
योजना	-9.47067
मुलां	-9.47149
ख	-9.4718
मन	-9.47255
येते	-9.47287
कि	-9.47394
वापरा	-9.47744
आठवड्यात	-9.48217
दक्षिण	-9.48265
लागली	-9.48266
gp	-9.4827
संरक्षण	-9.48271
कशी	-9.48362
असणार	-9.4842
यांची	-9.48452
लि	-9.48568
मूळ	-9.48837
पूर्णपण	-9.49109
८	-9.49395
व्ह	-9.49456
‍	-9.49531
विशिष्ट	-9.49541
झाल्याचं	-9.49681
साबण	-9.49725
▁¦60	-9.49766
र्	-9.50216
से	-9.50493
कर्मचाऱ्यांना	-9.50556
9	-9.5057
जन्य	-9.50766
प्रणाली	-9.50802
टास्क	-9.50806
निदान	-9.50812
सप्टेंबर	-9.50813
जिथे	-9.50815
आवाहन	-9.50828
लागणार	-9.50828
संसर्गजन्य	-9.50878
मधल्या	-9.50898
बे	-9.5102
ज्यांना	-9.51025
संनिरीक्षण	-9.51103
परिस्थितीत	-9.51156
जाण	-9.51466
1¦	-9.51521
मुक्त	-9.52059
प्राणवायू	-9.52112
त्यांचा	-9.52193
दीप	-9.52194
वय	-9.5224
लावण्या	-9.5268
मो	-9.52803
टी	-9.52848
घट	-9.52929
ळ	-9.5297
केंद्रा	-9.53099
बायोटेक	-9.53254
निश्चित	-9.53351
चिकित्सालय	-9.53428
मार्गदर्शक	-9.53435
महाराष्ट्रा	-9.53467
ंचा	-9.53505
त्याचे	-9.53684
मु	-9.53757
ि	-9.541
म्हणण	-9.54216
िष्ट	-9.54757
दशलक्ष	-9.54761
खरेदी	-9.54761
आढाव	-9.54765
बऱ्याच	-9.54784
अन्न	-9.54792
▁%)	-9.54916
देशभरात	-9.55088
लेल्या	-9.55196
पार	-9.5527
रूग्ण	-9.55339
कुटुंब	-9.55512
ठिकाण	-9.55522
पद्धती	-9.55578
गेला	-9.55806
4	-9.55978
इंडिया	-9.56051
करुन	-9.56154
करणारे	-9.56197
ध	-9.56419
पे	-9.5646
एन	-9.56592
डी	-9.56623
देण	-9.56656
मोहीम	-9.56818
हवा	-9.57115
अगदी	-9.57482
वाढली	-9.57616
वाटतं	-9.57754
जागा	-9.57849
वाटत	-9.58137
साम	-9.58146
ल्यानंतर	-9.58246
आरोग्यमंत्र	-9.58332
बैठक	-9.5839
यावेळी	-9.58437
टे	-9.58696
देशांनी	-9.58723
कार	-9.58795
रिपोर्ट	-9.58836
ऑक्सफर्ड	-9.58871
सिरम	-9.58872
▁¦2021	-9.58873
साधारण	-9.58892
फोन	-9.58917
घरात	-9.5892
पहिला	-9.5902
सुरुवातीला	-9.59057
क्	-9.5923
b	-9.59263
बी	-9.59325
विकास	-9.59774
व्यक्तीला	-9.59905
महत्वाच	-9.60168
धुण	-9.60266
ज्ञात	-9.60279
संक्रमित	-9.60279
जिनोम	-9.6028
ओळख	-9.60281
सीरम	-9.60281
तज्ज्ञां	-9.60335
वेगवेगळ्या	-9.60353
तोंड	-9.60764
आठवड्या	-9.61003
ज्यात	-9.61252
सत	-9.61313
देऊ	-9.61537
व्हेरियंट	-9.61673
अंमलबजावणी	-9.61708
प्रादुर्भाव	-9.61708
ट्वीट	-9.61708
म्युटेशन	-9.61709
प्राप्त	-9.61709
▁¦100	-9.61752
नसलेल्या	-9.61753
होम	-9.61787
दु	-9.61797
देण्यासाठी	-9.61804
कृती	-9.61941
दावा	-9.62015
समस्या	-9.62023
दिवसांत	-9.62263
संबंध	-9.62354
रे	-9.62496
ेस	-9.62782
मागे	-9.62848
भाजप	-9.62888
पूर	-9.62984
▁¦16	-9.63104
र्स	-9.63114
मेडिकल	-9.63157
पेशी	-9.632
नसल्याचं	-9.63251
नेते	-9.63281
भ	-9.63328
पद्धतीने	-9.63334
अर्ज	-9.63568
अमरावती	-9.63672
गृह	-9.63702
▁्	-9.63794
घेऊ	-9.63881
ांचे	-9.63923
आंतर	-9.64076
रुग्णांमध्ये	-9.64211
f	-9.64426
नागरिकां	-9.64427
वून	-9.64471
लवकर	-9.64497
कसं	-9.64543
सचिव	-9.64594
युनायटे	-9.64628
रेमडेसिव्हिर	-9.64628
करायला	-9.64658
ति	-9.64674
स्वतः	-9.64774
सारखी	-9.64948
00	-9.65022
ः	-9.65326
मा	-9.65433
ास	-9.6555
▁¦200	-9.65672
मानवा	-9.6593
संचालक	-9.66119
जगात	-9.6644
झाल्याने	-9.66557
rc	-9.66626
झाल्याचे	-9.66651
बाबतीत	-9.66751
ासह	-9.66835
घटना	-9.67266
▁¦19¦	-9.67298
सूच	-9.675
सॅनिटायझर	-9.67596
कठोर	-9.67637
▁¦31	-9.67657
कोणता	-9.67659
रोखण्यासाठी	-9.67685
रुग्णा	-9.67874
▁¦17	-9.6792
होणं	-9.67991
दिन	-9.68047
डॉक्टरां	-9.68312
५	-9.68341
रुग्णांवर	-9.68514
समाव	-9.69149
ऑनलाईन	-9.69174
उपयोग	-9.69177
केअर	-9.69191
आधीच	-9.69191
दिवसांपासून	-9.69233
सात	-9.69253
व्यक्तींना	-9.69415
बैठकीत	-9.69429
येतील	-9.69434
प्रशासनाने	-9.69444
येतो	-9.69673
बल	-9.69841
रेट	-9.69934
क्षेत्र	-9.7006
कमतरत	-9.70066
बरोबर	-9.70148
फायझर	-9.7016
शासकीय	-9.7057
टीका	-9.70602
क्लिनिक	-9.70664
घेता	-9.70708
भूमिका	-9.70736
रेमडेसिविर	-9.70737
शरीरा	-9.70812
संवाद	-9.70817
वेग	-9.70819
याविषयी	-9.70899
प्रसारा	-9.70916
बोल	-9.71083
व्हायरसच्या	-9.71328
स्व	-9.71405
प्रदा	-9.71706
पुण्या	-9.71749
▁¦2019	-9.71798
वेळा	-9.7187
जरी	-9.7191
सारखे	-9.71915
अधिकाऱ्यांन	-9.71968
आलेला	-9.72033
6¦	-9.72105
स्त	-9.7231
चिंता	-9.72323
म्हटले	-9.72324
कारवाई	-9.72326
चौकशी	-9.72337
डि	-9.72337
देव	-9.72392
विषयी	-9.72484
फडणवीस	-9.72905
कल	-9.72968
शहर	-9.7298
ठेवण	-9.73174
रक्त	-9.7321
तुमच	-9.73312
शा	-9.73338
ंट	-9.73358
फोर्स	-9.73726
प्रथम	-9.73937
अजित	-9.7396
संशयित	-9.73986
देणार	-9.74029
कुठे	-9.7407
जारी	-9.7425
महिन्यां	-9.74377
एकाच	-9.74436
द्या	-9.74626
संकट	-9.74708
हो	-9.74753
कमीत	-9.74853
पाण्या	-9.75109
त्यावर	-9.75145
t	-9.7516
र्ड	-9.75182
ापासून	-9.75209
दिल्लीत	-9.75226
व्या	-9.75292
मानल	-9.75491
एकत्र	-9.75535
पाणी	-9.75584
खोकला	-9.75597
घेतल्यानंतर	-9.75616
दुसरीकड	-9.75763
दहा	-9.75819
दिवसा	-9.7587
महाराष्ट्राला	-9.75999
,000	-9.76141
मार	-9.76162
अमेरिकेत	-9.76344
मूळा	-9.7649
भेट	-9.76617
गा	-9.76817
रोज	-9.76918
रुग्णसंख्ये	-9.7695
▁¦40	-9.77009
टक्क्यां	-9.77237
icu	-9.7724
पार्श्वभूमीवर	-9.77243
आकडा	-9.77249
घ्यावी	-9.77252
▁¦22	-9.7731
काली	-9.77756
कोड	-9.77796
छाती	-9.78032
गाय	-9.78133
टा	-9.78196
प्रशासन	-9.78567
िमान	-9.78605
व्ही	-9.78722
मार्चला	-9.78733
सदस्य	-9.78734
▁¦28	-9.78899
अतिशय	-9.78938
वारंवार	-9.78938
राहणार	-9.78939
स्ट्रेन	-9.78941
पुढच्या	-9.78988
▁”	-9.79069
अडचणी	-9.79074
पहिली	-9.79189
देण्या	-9.79214
अॅप	-9.79799
झा	-9.79993
विमान	-9.80131
घटक	-9.80276
0	-9.80315
निष्कर्ष	-9.80382
धर	-9.80447
al	-9.80495
नाक	-9.80632
शक्ती	-9.8066
rsc	-9.80662
रविवार	-9.80662
धार्मिक	-9.80662
व्यावसायिक	-9.80662
लागला	-9.80665
संघटने	-9.80667
उद्देश	-9.80667
लागले	-9.80683
स्वच्छता	-9.80705
घेण्यास	-9.80775
विभाग	-9.80925
न्स	-9.81094
संख्ये	-9.81192
दुख	-9.81421
जगा	-9.81613
प्रसिद्ध	-9.81664
आठवड्यां	-9.8176
वाढवण्या	-9.81807
महिला	-9.81937
सि	-9.8197
ग्रस्त	-9.82212
संस्थे	-9.82214
एखाद	-9.82221
जैविक	-9.82409
पश्चिम	-9.82416
प्रोटोकॉल	-9.82416
mers	-9.8242
सोनू	-9.82475
प्रकाशित	-9.82496
जर्मनी	-9.82534
लसीकरणासाठी	-9.82647
पडू	-9.82718
कार्यालय	-9.82719
घेण्या	-9.82745
कसा	-9.82894
एकदा	-9.82896
वाढू	-9.83032
सर्	-9.8308
सर	-9.83115
▁...	-9.83335
केस	-9.83465
खालील	-9.8354
येण	-9.83591
h	-9.83648
ानंतर	-9.83682
खाली	-9.83728
दिवसां	-9.8374
मंत्रालयाने	-9.83787
गो	-9.83846
स्वच्छ	-9.84017
वाद	-9.84077
शै	-9.84102
मृत्यु	-9.84169
चित्र	-9.84173
काँग्रेस	-9.84202
महामारी	-9.84202
जाणवत	-9.84207
मिळेल	-9.84246
पोस्ट	-9.8427
डॉक्टर्स	-9.84303
त्यावेळी	-9.84425
ीण	-9.84593
मुलांमध्ये	-9.84597
६	-9.84706
व्हा	-9.84718
२०	-9.84902
ेशन	-9.84982
अधिकाऱ्यां	-9.85027
पुरेस	-9.8516
१०	-9.8535
विद्यार्थ्यांना	-9.85398
कामगार	-9.85398
बा	-9.85507
सोबतच	-9.85641
▁¦80	-9.8567
पाळी	-9.85871
त्र	-9.85945
हॉटेल	-9.85984
जि	-9.86011
कुमार	-9.86025
बातमी	-9.86026
बहु	-9.86037
आत	-9.8604
rna	-9.86081
नसल्याने	-9.86142
गोळ	-9.86335
वापरासाठी	-9.86423
कंपनीने	-9.86515
घेतले	-9.86543
नमुन्यां	-9.86551
संबंधी	-9.86558
पट	-9.86941
नस	-9.86984
मदती	-9.87005
लोकांची	-9.87013
प्रा	-9.87215
▁¦25	-9.87235
मिळव	-9.87346
ांत	-9.8751
साबणा	-9.87588
विरुद्ध	-9.87666
महापालिके	-9.87707
ाधिक	-9.87829
व्हॅक्सिन	-9.87862
िन	-9.87863
हेल्थ	-9.87865
अपेक्षित	-9.87872
इशारा	-9.87872
शुक्रवार	-9.87872
निवडणूक	-9.87873
मर्स	-9.87936
ाचं	-9.88
व्यवस्थापन	-9.88085
जणां	-9.8813
खा	-9.88145
प्राणी	-9.88207
राज्यांना	-9.88264
मानव	-9.8835
स्वत	-9.88415
आग	-9.88529
तासां	-9.88676
पालक	-9.88973
ठ	-9.89064
अभ्यासा	-9.89268
कायम	-9.89379
मुख	-9.89468
पेशीं	-9.89482
आपत्	-9.89721
खात्री	-9.89759
आयसोलेशन	-9.89759
प्रारंभ	-9.89759
उलट	-9.89759
cdc	-9.89765
इथे	-9.89767
महा	-9.89929
आल्यानंतर	-9.89954
मृत्यूदर	-9.90004
सहभागी	-9.90048
तल्या	-9.90498
वितरण	-9.90499
२४	-9.90521
१५	-9.90728
अप	-9.9078
महाविद्यालय	-9.9079
प्रभाव	-9.90879
ष	-9.90937
भो	-9.91259
जातील	-9.91285
वाड	-9.9133
शे	-9.91409
शन	-9.91416
ियन	-9.91465
ट्र	-9.91483
नियमावली	-9.91641
व्यवसाय	-9.91643
प्रवाशां	-9.91667
ज्येष्ठ	-9.91682
असतं	-9.91683
सर्दी	-9.91686
कुठल्या	-9.91694
जाणाऱ्या	-9.91707
मिळणार	-9.9178
असण्याची	-9.91863
थापि	-9.91998
जबाबदारी	-9.92083
लागतील	-9.92113
घेण्याच	-9.92208
डा	-9.92255
असले	-9.92648
पी	-9.92692
स्थाप	-9.92814
माज	-9.92944
पडत	-9.92978
माझ	-9.93055
अस	-9.93056
वार	-9.93294
▁¦90	-9.93413
लागल्या	-9.93473
तिरिक्त	-9.93481
वर्ग	-9.93516
अधिकृत	-9.93658
व्हायरल	-9.93678
जंतू	-9.93683
नाशिक	-9.93694
संघटना	-9.93717
सादर	-9.93753
धोक्या	-9.9376
काल	-9.9426
d	-9.94356
करोनाबाधित	-9.94399
गु	-9.94403
कंपन्या	-9.94603
काळा	-9.94819
मिनिट	-9.94929
याच	-9.94945
वगळ	-9.9495
जिम	-9.95201
आयुक्त	-9.95542
राव	-9.95598
यशस्वी	-9.95642
हर्ष	-9.95643
पाटील	-9.95643
युनिव्हर्सिटी	-9.95643
आठ	-9.95643
प्रोटीन	-9.95648
▁¦21	-9.95649
वी	-9.95671
त्यांचं	-9.95698
आकडे	-9.95819
पाहता	-9.95889
भू	-9.95915
l	-9.95977
याला	-9.96016
cr	-9.96019
यांच्याशी	-9.96059
कोणी	-9.96067
झाल्यास	-9.96095
रक्ता	-9.96171
मनात	-9.9626
उप	-9.96315
वृद्ध	-9.96652
वेगळ	-9.96694
शि	-9.96744
नियंत्रणा	-9.96755
गोष्ट	-9.96769
व्हेंटिलेटर	-9.96781
नाहीये	-9.96799
सुरुवाती	-9.969
स्	-9.96909
ीकरण	-9.97013
▁,"	-9.97202
मुल	-9.9738
खास	-9.97407
बाजू	-9.97511
अल्कोहोल	-9.97683
ऐवजी	-9.97683
सकारात्मक	-9.97683
मानसिक	-9.97683
महापालिका	-9.97686
क्षणिक	-9.97704
कोणते	-9.97784
सामना	-9.9784
सरकारनं	-9.97845
सरकारकडून	-9.97934
अति	-9.9796
▁¦27	-9.98007
नेमक	-9.98128
फुफ्फुसां	-9.9816
लोकल	-9.98643
ढ	-9.98897
लागते	-9.98922
द्रव	-9.9916
आलेले	-9.99307
ंजय	-9.99341
वेळे	-9.99639
निरीक्षण	-9.99751
phe	-9.99767
अनिवार्य	-9.99767
पीसीआर	-9.99767
फ्रान्स	-9.99767
इतकी	-9.99768
रशिया	-9.99768
शनिवार	-9.99771
संयुक्त	-9.99774
मासिक	-9.99777
झपाट्यान	-9.99804
पुरवठ्या	-9.99942
आई	-9.99956
मार्चपर्यंत	-10.0019
यासंदर्भात	-10.0023
मर्यादा	-10.0037
उद्योग	-10.0043
ंचे	-10.0046
येतं	-10.0048
माध्यम	-10.0054
मिळालेल	-10.006
चिन	-10.0069
भरती	-10.0074
ॅ	-10.0089
णी	-10.0096
वे	-10.0099
पु	-10.0101
संख्येत	-10.0109
▁/	-10.0127
बाब	-10.0127
घ	-10.0139
राख	-10.014
हर	-10.0146
ंपैकी	-10.0147
१८	-10.0148
साध	-10.0151
ब्रिटन	-10.0171
मि	-10.0177
स्थान	-10.0179
निवड	-10.0189
सिक्वेंसिंग	-10.0189
इतक्या	-10.0189
पुरावा	-10.0189
लागलं	-10.0189
घ्यायला	-10.019
कॉलेज	-10.0191
अभाव	-10.0195
घेतलेल्या	-10.0202
संक्रमणा	-10.0202
विशेषत	-10.0205
मोहिमे	-10.0205
घेणं	-10.0212
रूग्णांमध्ये	-10.0215
लसीकरणाच	-10.0215
उपचारासाठी	-10.0219
स्प	-10.0223
ठेवण्यासाठी	-10.0225
दुकानं	-10.024
माल	-10.0242
स्थितीत	-10.0258
फे	-10.0261
मिळ	-10.0267
उत्पन्न	-10.0286
मार्	-10.03
प्रच	-10.0311
नल	-10.033
भा	-10.0365
कदाच	-10.0371
पाठ	-10.0396
केंद्रात	-10.0398
नेटवर्क	-10.0407
बंगाल	-10.0407
सर्वेक्षण	-10.0407
वाजेपर्यंत	-10.0407
व्यतिरिक्त	-10.0407
दहावी	-10.0408
हवी	-10.0409
मिळाला	-10.041
देशां	-10.041
अधिकार	-10.0414
उपाययोजना	-10.0414
अँड	-10.0414
ताण	-10.0426
पाठव	-10.0428
रिक्त	-10.0428
बोर्डा	-10.0428
खरं	-10.0429
करित	-10.0457
महिलां	-10.0495
7	-10.0497
प्राण्यां	-10.0535
शिक्षणा	-10.0537
प्रकल्प	-10.0538
्यावर	-10.0544
़्	-10.0553
ऊ	-10.0559
मधल	-10.0577
काढण्या	-10.0582
संप	-10.0586
y	-10.06
असल्या	-10.0601
▁¦13	-10.0606
टँकर	-10.0624
घराबाहेर	-10.063
सोसायटी	-10.0632
मूद	-10.0632
ांशी	-10.0635
असल्यामुळे	-10.0636
जेणे	-10.0641
रुग्णालयांमध्ये	-10.0654
उत्पादक	-10.0671
टाक	-10.0676
याबद्दल	-10.0677
जोड	-10.068
उभ	-10.071
निर्देश	-10.073
बाजार	-10.0732
▁¦45	-10.0745
यश	-10.0752
असता	-10.076
ाय	-10.0765
95	-10.0767
गटा	-10.0777
दाखव	-10.081
टोच	-10.0817
नसत	-10.0828
पि	-10.0839
पोट	-10.0844
कोरोनाबाधित	-10.0853
निधी	-10.0855
खबरदारी	-10.0856
विक्री	-10.0856
ऑक्टोबर	-10.0856
सहाय्य	-10.0857
कोव्हॅक्सीन	-10.0857
पेपर	-10.0858
लग्न	-10.0858
वेगळे	-10.0859
मध्यम	-10.0864
झोन	-10.0866
यूके	-10.0867
जणांना	-10.0873
एकत्रित	-10.0874
थांब	-10.0888
िया	-10.0892
असण	-10.0894
ठेवा	-10.0898
मिळवण्या	-10.092
क्रमांक	-10.0926
सर्वांना	-10.0928
ंसाठी	-10.0937
सहकार्य	-10.0939
तपासण्या	-10.0944
समज	-10.0948
रो	-10.0952
नमुन	-10.0958
लांब	-10.0981
बैठकी	-10.0985
तपास	-10.099
अॅ	-10.101
मूल	-10.1014
हॅ	-10.1028
म्हणाल	-10.1031
संनिरीक्षणा	-10.1038
ौ	-10.1042
याचे	-10.1049
ष्ट	-10.1053
आयोज	-10.1057
यांचे	-10.1061
कारणी	-10.1063
तुलना	-10.1089
निगेटिव्ह	-10.1089
फॉर	-10.1089
ब्राझील	-10.1089
मंजुरी	-10.1089
वैयक्तिक	-10.1089
सक्षम	-10.1089
टाळेबंदी	-10.1089
जनरल	-10.1089
घेणार	-10.109
साधला	-10.1117
िश	-10.1119
वर्धन	-10.1133
तालुक्यात	-10.1133
कठ	-10.1134
क्ष	-10.1136
दिवसांचा	-10.1136
साधन	-10.1137
संकटा	-10.114
ाशी	-10.1158
राहण्या	-10.1159
संख्येन	-10.1167
रूग्णां	-10.117
वाढत्या	-10.1175
यापैकी	-10.1176
०	-10.1192
लेख	-10.1198
वटवाघळ	-10.1201
गावात	-10.121
घेतल्या	-10.1211
समान	-10.1214
राज्याच	-10.1216
जग	-10.1228
क्षेत्रा	-10.1247
ंत	-10.1248
तसं	-10.1249
तातडीन	-10.1258
पुरेश	-10.1281
वयाच	-10.1284
नसल्या	-10.1288
ऑ	-10.1297
मात	-10.1309
▁¦23	-10.1315
यर	-10.1315
मिळाल्या	-10.1322
ट्रेन	-10.1326
अचानक	-10.1327
मॉडर्ना	-10.1327
विनंती	-10.1327
ठाणे	-10.1328
राहु	-10.1328
ेट्रिक	-10.1332
श्वसना	-10.1353
राज्यांमध्ये	-10.1354
▁¦29	-10.1356
आर	-10.1358
संघटनेने	-10.1363
्र	-10.1366
आय	-10.1366
वेळेत	-10.137
जेवण	-10.1377
शिंक	-10.1379
प्रवाशांना	-10.1381
न्	-10.1382
निकाल	-10.1388
प्राधान्य	-10.14
टाळ	-10.1401
पास	-10.1414
शिक्षक	-10.1418
अमेरिक	-10.1423
वस्तू	-10.1434
गेलं	-10.1439
फायद	-10.1441
देशांत	-10.1456
वयोगटात	-10.1467
प्रक्रिये	-10.1482
जाण्या	-10.1502
सेवे	-10.1507
मुख्यमंत्र्यां	-10.1509
ार	-10.1516
ाबद्दल	-10.1534
हवेत	-10.1539
u	-10.1549
जिल्ह्या	-10.1552
चुकीच	-10.1558
प्रॅक्टिस	-10.1568
अन	-10.1569
कोव्हिशिल्ड	-10.1571
सरासरी	-10.1571
नेहमी	-10.1571
न्यूमोनिया	-10.1571
खुल	-10.1573
व्यापक	-10.1575
डिज	-10.1579
घ्यायच	-10.1592
जोशी	-10.1593
कार्ड	-10.16
यादी	-10.162
w	-10.1621
भारतामध्ये	-10.1644
९	-10.1656
पसरत	-10.1657
मुले	-10.1657
उपक्रम	-10.1662
विषाणूं	-10.1676
दी	-10.168
त्यांच्यावर	-10.1682
किंमत	-10.1683
धा	-10.1692
ावी	-10.1697
मागच्या	-10.1708
कोरोनावर	-10.1715
डॉक्टरांना	-10.1739
अडथळ	-10.1754
उद्भव	-10.1763
rt	-10.1783
कार्यालया	-10.1786
बंधन	-10.1793
कोरिया	-10.1798
अँप	-10.1803
मान्य	-10.1814
इंग्लंड	-10.1821
कोव्हिशील्ड	-10.1821
खाजगी	-10.1821
नोव्हेंबर	-10.1821
घालण्या	-10.1821
गर्भ	-10.1821
पुरावे	-10.1821
▁¦26	-10.1821
छोट्या	-10.1822
एकमेकां	-10.1822
यांचं	-10.1829
कोणाला	-10.1835
कंपन्यां	-10.1837
मुलांसाठी	-10.1847
कसे	-10.185
नाथ	-10.1856
सम	-10.1864
स्तरावर	-10.1867
होण्यास	-10.188
साठव	-10.19
मिळू	-10.1921
होण्याच	-10.1936
मोठं	-10.1939
महत्त्व	-10.1951
प्रयोगशाळेत	-10.1952
आपला	-10.1954
वळ	-10.1973
ॅक्ट	-10.2004
वापरले	-10.201
गट	-10.2011
अखेर	-10.2016
एम	-10.2033
औषधं	-10.2048
कारणं	-10.2051
उपकरण	-10.2053
पाहाय	-10.2061
कॅ	-10.2064
आणण्या	-10.2069
अँटीबॉडी	-10.2073
ीकडे	-10.2073
गुजरात	-10.2077
बुधवार	-10.2077
लगेच	-10.2077
संधी	-10.2077
हवं	-10.2077
इराण	-10.2078
कोविन	-10.2078
प्रतिक्रिया	-10.2078
अंश	-10.208
दंड	-10.2082
हु	-10.2086
2	-10.2087
लशींच	-10.2093
नियमित	-10.2105
आढळत	-10.2109
परि	-10.2115
नवी	-10.2117
नर्स	-10.2118
प्रशिक्षण	-10.2126
युरोप	-10.2137
घरीच	-10.2146
वाढते	-10.2148
पक्षी	-10.2152
पसरतो	-10.2156
पाठवल	-10.216
अभ्यासात	-10.2176
कशा	-10.2177
प्रथिन	-10.2178
in	-10.218
संख्य	-10.218
साथरोग	-10.2196
लक्षणां	-10.2199
बाल	-10.2208
वाढला	-10.2212
बाजारात	-10.2219
कोरोनाग्रस्त	-10.2221
बन	-10.2223
जाता	-10.2228
घेणाऱ्या	-10.2229
जाण्याच	-10.2231
जोखमी	-10.2246
70¦	-10.2246
पोहोच	-10.2248
बातम्या	-10.2262
महिन	-10.227
नॅश	-10.2276
ांकडून	-10.2291
घेण	-10.2296
योग	-10.2299
शहरा	-10.2303
य़ा	-10.2318
हजारो	-10.2321
घोष	-10.2339
कॅलिफोर्निया	-10.234
•	-10.234
साखळी	-10.234
सिंड्रोम	-10.2341
रोगजनक	-10.2341
आटोक	-10.2342
सीमा	-10.2345
येण्या	-10.2347
फरक	-10.2349
दिल्यानंतर	-10.2352
नवे	-10.2354
उपचारा	-10.2354
मागो	-10.236
ठरत	-10.2363
किट	-10.2398
टाळा	-10.2406
विरोध	-10.241
मंत्रालया	-10.2416
त्यानुसार	-10.2418
तसे	-10.2419
अमेरिका	-10.2431
वाच	-10.246
बर	-10.2465
टप्प्या	-10.247
धोरण	-10.2474
चेन	-10.2483
राय	-10.2499
ct	-10.2533
वातावरण	-10.2535
सातत्यान	-10.2542
पडल्या	-10.257
लशीला	-10.2586
भास	-10.2586
राहू	-10.2594
प्रकाश	-10.2598
पॉल	-10.2608
वसई	-10.2611
संचारबंदी	-10.2611
म्बो	-10.2611
पालघर	-10.2611
शाळेत	-10.2612
देणाऱ्या	-10.2612
्ड	-10.2613
प्रतिनिधी	-10.2615
व्हेंटिलेटर्स	-10.2615
ाईन	-10.2643
अर्थात	-10.2647
घा	-10.2648
याचं	-10.2649
पुर	-10.2679
रूग्णांच्या	-10.2687
सगळ्यां	-10.2707
राजकारण	-10.2718
उपस्थिती	-10.2723
pe	-10.2729
दुसर	-10.2732
छातीत	-10.2758
िस	-10.2762
मृत्यूंच	-10.2763
वाढल्या	-10.2764
उपमुख्यमंत्र	-10.2772
मधुमेह	-10.2801
मांड	-10.2824
नवा	-10.285
विक	-10.2853
ट्रायल	-10.2858
सभा	-10.2865
ांचं	-10.287
इन	-10.2871
शासना	-10.2876
नैसर्गिक	-10.2888
मूल्यांकन	-10.2888
बहुतेक	-10.2889
इतका	-10.2889
अॅक्टिव्ह	-10.2889
प्रावस्था	-10.2889
राहील	-10.2889
आरटी	-10.2889
विजय	-10.289
मृत्युदर	-10.2893
इंडिय	-10.2902
बळ	-10.2905
तरुण	-10.2947
वेगवेगळ	-10.2949
धन	-10.2962
रूग्णालयात	-10.2966
वर्षांवर	-10.2981
मरण	-10.299
राहिल	-10.299
अहवाला	-10.2996
येण्याच	-10.2997
कक्ष	-10.2998
नको	-10.3
भार	-10.3028
योजने	-10.3031
8	-10.305
ण्याच	-10.3062
याच्या	-10.3063
माध्यमां	-10.3063
बंधनकार	-10.3075
इं	-10.3082
जलद	-10.3088
सोप	-10.31
पो	-10.3107
जबाबदार	-10.3115
तोड	-10.3121
नावाच	-10.3123
ल्ड	-10.3132
नियंत्र	-10.3142
समिती	-10.3158
िका	-10.3163
ंद	-10.3168
न्यू	-10.3169
इतके	-10.3174
कँडीडेट	-10.3174
दैनं	-10.3174
स्वॅब	-10.3174
तुटवड्या	-10.3174
अश्या	-10.3174
पीपी	-10.3175
गाडी	-10.3176
ंडवे	-10.3176
िटल	-10.3182
कोण	-10.3191
क्रम	-10.3194
उपचारांसाठी	-10.3196
त्यापैकी	-10.3212
बरं	-10.3221
नातेवाईक	-10.3235
३०	-10.3283
स्थळ	-10.3285
पडल	-10.3288
बारावी	-10.3296
विभागात	-10.33
पोलिसांन	-10.3318
सायन	-10.3337
कण	-10.3361
वापरण्या	-10.3367
संकल	-10.3429
प्रत्यक्ष	-10.3457
ंचं	-10.3459
सिद्ध	-10.3466
त्व	-10.3467
फटका	-10.3468
पती	-10.3468
इतकं	-10.3468
गुरुवार	-10.3468
तात्पुरत	-10.3468
पूनावाला	-10.3468
फोटो	-10.3468
वैशिष्ट्य	-10.3468
सक्रिय	-10.3468
शारीर	-10.3468
स्टेट्स	-10.347
भाजी	-10.3471
फार्मा	-10.3472
कायद्या	-10.3477
ठेवून	-10.3477
दृष्टीने	-10.3479
रोगप्रतिकारक	-10.3479
लक्षणीय	-10.3481
आणण्यासाठी	-10.3483
श्री	-10.3486
शहरांमध्ये	-10.3492
लोकांचं	-10.3502
आशा	-10.3505
विभागाने	-10.3513
हवे	-10.3513
वेल	-10.3513
याशिवाय	-10.3514
परिसरात	-10.3514
वरुन	-10.3523
धर्म	-10.3527
५०	-10.3542
र्ट	-10.3543
कार्यक्षमत	-10.3556
विकत	-10.356
रोगा	-10.3586
भाव	-10.359
होताना	-10.3604
टि	-10.3609
re	-10.3618
रंग	-10.3634
क्रिया	-10.3635
घड	-10.3638
औषधाच	-10.3647
वेत	-10.3653
रुग्णालयां	-10.3658
कोटीं	-10.366
कम	-10.3661
चेहऱ्या	-10.3668
पद्धत	-10.3675
तोंडा	-10.368
तापमान	-10.3714
विल्	-10.3725
वाढता	-10.3733
कु	-10.3734
प्रजाती	-10.3735
ऑफिस	-10.3746
ांपैकी	-10.3753
इफेक्ट	-10.3768
व्यायाम	-10.3768
प्रतिकारशक्ती	-10.377
आयुष्य	-10.377
सू	-10.3771
आघाडी	-10.3771
आणीबाणी	-10.3771
मोबाईल	-10.3771
न्युमोनिया	-10.3771
कॅनडा	-10.3772
स्वतंत्र	-10.3772
मीटर	-10.3773
मार्गदर्शन	-10.3776
विश्वास	-10.3776
हि	-10.3777
ायिक	-10.3777
करीत	-10.3777
कृत	-10.3778
ायत	-10.3779
प्रचार	-10.378
सिस्टम	-10.3781
युनिट	-10.3786
नियमांचं	-10.3789
म्हणत	-10.3792
बोलत	-10.3793
पोशिंद्या	-10.3794
सूद	-10.3797
वाढव	-10.3799
युरोपिय	-10.3801
देऊन	-10.3808
कोरोनाविषाणू	-10.381
कोरडे	-10.3815
विषाणूरोध	-10.3821
पाठवण्या	-10.3822
टो	-10.3822
शोधण्या	-10.383
झाल्यावर	-10.3833
द्यावी	-10.3838
आल्यास	-10.3843
गोपनीयत	-10.3845
प्रदेशात	-10.3856
बायो	-10.3857
रु	-10.3878
लागतो	-10.3891
▁¦35	-10.39
रुग्णालयांना	-10.3903
सर्वसामान्य	-10.3915
्काळ	-10.3921
विद्यापीठ	-10.3923
असोसिएशन	-10.3928
मिळाले	-10.3961
फुफ्फुसा	-10.3966
नागरिकांन	-10.3979
टिक	-10.3979
सुधार	-10.4005
तंत्रज्ञान	-10.401
ma	-10.4015
आव	-10.4017
आयोगा	-10.4019
वृत्त	-10.4046
करण	-10.4049
मोदींन	-10.4054
वापरता	-10.4056
१३	-10.4068
ाबाबत	-10.4078
गोंधळ	-10.4084
णा	-10.4084
[	-10.4084
प्रस्ताव	-10.4084
मंगळवार	-10.4084
लूकस	-10.4084
आपात्काल	-10.4084
उल्लेख	-10.4084
विरार	-10.4084
कुणी	-10.4084
ओळखपत्र	-10.4086
घसा	-10.4087
आपत्ती	-10.409
मंत्र्यांनी	-10.4095
गेल्यावर्षी	-10.4097
सरकारकडे	-10.4108
लावला	-10.4112
द्याव	-10.4125
डॉक्टरांन	-10.4136
उपलब्धता	-10.4139
पसरला	-10.4139
जाव	-10.4141
लोकांसाठी	-10.4153
आरोग्यसेवा	-10.4157
आकार	-10.4157
वाढले	-10.4159
लशीमुळे	-10.4165
दिवसांपूर्वी	-10.4179
हानी	-10.4191
उड्डाण	-10.4194
राम	-10.4203
यापूर्वी	-10.4209
मीडियावर	-10.4222
िटी	-10.424
यांच्यावर	-10.4248
बाबी	-10.4265
प्	-10.4282
था	-10.4315
तु	-10.4325
सुरूवात	-10.4331
रक्तात	-10.4331
देखरेख	-10.4345
संदर्भ	-10.4351
ालेय	-10.4364
ावं	-10.4368
भागा	-10.4369
सार	-10.4377
वैज्ञानिक	-10.4385
पावले	-10.4401
सन	-10.4404
अंतिम	-10.4406
केरळ	-10.4406
डायरिया	-10.4406
प्लांट	-10.4406
प्लॅटफॉर्म	-10.4406
राहणाऱ्या	-10.4406
लॉकडॉऊन	-10.4406
सगळं	-10.4406
सामग्री	-10.4406
स्थलांतर	-10.4406
इथं	-10.4406
नक्की	-10.4406
रोजगार	-10.4407
वर्णन	-10.4407
अतिदक्षत	-10.4407
जनुकीय	-10.4407
▁]	-10.4407
विज्ञान	-10.4408
निधन	-10.4408
प्रतिजैविक	-10.4408
लिहिलं	-10.4411
अग्र	-10.4413
डोसेस	-10.4414
मुख्यमंत्र्यांनी	-10.4415
▁–	-10.4415
स्वच्छते	-10.4432
प्पी	-10.4435
तक्रारी	-10.4447
ब्	-10.4463
अर	-10.4466
ed	-10.4469
ठेवाव	-10.449
कोडिंग	-10.4491
धुण्याच	-10.4518
ण्यास	-10.452
हाताळ	-10.4521
ऑक्सिजनच्या	-10.4524
win	-10.4534
पाय	-10.4543
िल	-10.4565
दुखत	-10.4568
6	-10.4579
पाहिजेत	-10.4583
यंत्रणे	-10.4588
रूग्णा	-10.4594
नमुन्या	-10.4597
वाहतुकी	-10.46
पाळत	-10.4612
ँ	-10.4613
दिसण्या	-10.4615
प्राण	-10.4654
पड	-10.4662
स्थगित	-10.4679
संसर्गित	-10.4685
्व	-10.4693
क्षमते	-10.4698
पोशिंद	-10.4723
उपाययोजनां	-10.4732
ईन	-10.4732
संबोध	-10.4736
डोळ	-10.4737
औरंगाबाद	-10.474
नुकसान	-10.474
प्रोत्साह	-10.474
रेस्पिरेटर	-10.474
हैदराबाद	-10.474
ऑगस्ट	-10.474
मिळालं	-10.474
विश्वविद्यालय	-10.474
ठोस	-10.474
संकेत	-10.474
शुद्ध	-10.474
दबाव	-10.474
चांगला	-10.474
पैसे	-10.474
अटक	-10.4741
अचूक	-10.4742
किराण	-10.4742
शंका	-10.4743
थे	-10.4746
मेंट	-10.4746
प्रॅक्टिसेस	-10.475
निर	-10.4771
समूह	-10.4774
१६	-10.4798
यानंतर	-10.4798
3	-10.4803
शकणार	-10.4806
शेती	-10.4812
विभागाच	-10.4812
सारखा	-10.4813
वती	-10.4816
अखेरी	-10.482
विश्लेषण	-10.4832
बनव	-10.4841
प्रमाणेच	-10.485
लसीं	-10.4859
जय	-10.4879
रूग्णांना	-10.4901
वापरल्या	-10.4908
करार	-10.492
अल	-10.4929
पणा	-10.4936
ोय	-10.4947
लक्ष्य	-10.4972
तासांत	-10.4972
आठवड	-10.5008
बाळा	-10.5011
णारे	-10.5011
ओळखण्या	-10.5041
पाठवले	-10.5043
मुखवट	-10.505
स्वतःच	-10.5054
लॅब	-10.5058
बो	-10.5058
नियामक	-10.5059
शब्द	-10.5063
नुकत	-10.5069
व्यवस्थे	-10.5072
उघड	-10.508
#	-10.5085
आंदोलन	-10.5085
स्पुटनिक	-10.5085
अॅस्ट्राझेनका	-10.5085
ट्रम्प	-10.5085
अमित	-10.5085
कचरा	-10.5085
विद्यमान	-10.5085
ट्रेसिंग	-10.5085
रोगप्रतिकारशक्ती	-10.5087
राजस्थान	-10.5088
चंद्र	-10.5091
खंड	-10.5098
डॉक्टरांच	-10.5099
तब्येत	-10.5101
बाकी	-10.5104
कुटुंबा	-10.5111
गेलेल्या	-10.5115
११	-10.5118
आयात	-10.512
कालावधीत	-10.5121
झाल्यामुळे	-10.5131
दवाखान्यात	-10.5132
दिलासा	-10.5146
सद्यस्थिती	-10.5147
गत	-10.515
इतिहास	-10.5152
प्रतिबंधक	-10.5159
क्षमतेने	-10.5163
वाज	-10.517
टप्पा	-10.5172
बसला	-10.5173
राहाव	-10.5181
विनाश	-10.5182
सर्वच	-10.5185
द्यावे	-10.5197
ै	-10.521
विकासा	-10.521
असण्या	-10.5211
दि	-10.5221
जणांच	-10.5233
क्षण	-10.5233
प्रयोगशाळा	-10.5236
वापरण	-10.5251
5	-10.5261
याकडे	-10.5263
पोहोचल	-10.5286
मिळते	-10.5295
रत	-10.5298
दिस	-10.5299
प्राण्या	-10.53
यांसारख	-10.5307
२५	-10.5319
डो	-10.5323
मना	-10.5336
१४	-10.5343
रूग्णांच	-10.5344
कॉल	-10.5352
ाईक	-10.5354
राखण	-10.5373
बँक	-10.5374
वाहन	-10.5377
ल्यास	-10.538
नियोज	-10.5386
गल	-10.5399
ठी	-10.542
समाज	-10.5427
संस्थेने	-10.5433
विस्तार	-10.5441
माहीत	-10.5441
तंत्र	-10.5441
शिथिल	-10.5442
जुलै	-10.5442
दुपारी	-10.5442
ऑनलाइन	-10.5442
डिस्टन्सिंग	-10.5442
आमदार	-10.5442
eu	-10.5442
dc	-10.5443
एअर	-10.5443
पहिल्यांदा	-10.5444
बांधकाम	-10.5445
तसा	-10.5448
वाढलं	-10.5456
आपल्याकडे	-10.5463
उद्या	-10.5465
सरकारचा	-10.5467
रस्त्यावर	-10.5477
मृत	-10.5482
आल्याचं	-10.5488
लोकसंख्या	-10.549
▁.'	-10.55
gi	-10.5503
उपचारां	-10.5508
आदी	-10.5519
सेवेत	-10.5528
सिन	-10.5532
वर्षभरात	-10.5537
िओ	-10.5548
आल्याने	-10.5551
दम	-10.5551
यावी	-10.5558
g	-10.5563
अपेक्षा	-10.5567
लेले	-10.5577
वापरण्यात	-10.5579
बालकां	-10.5585
गण	-10.559
गे	-10.5604
टाळण	-10.562
▁¦70	-10.5626
ऑस्ट्रेलिया	-10.5628
म्	-10.563
वर्षांच्या	-10.5637
छ	-10.5645
मीडिया	-10.5651
जिकल	-10.5689
रूप	-10.5694
ंदा	-10.5717
कॉन्ट	-10.5728
त्याचं	-10.573
फुफ्फुस	-10.5731
ोम	-10.5735
िड	-10.5738
संस्थां	-10.5747
केंद्रावर	-10.5753
जमा	-10.5761
;	-10.5767
क्ल	-10.5772
पळ	-10.579
गुण	-10.5798
दिवाळी	-10.5808
म्युकरमायकोसिस	-10.5812
राजधानी	-10.5812
वरिष्ठ	-10.5812
अनलॉक	-10.5812
इच्छा	-10.5812
कोर्टा	-10.5812
मुंडे	-10.5812
चांगली	-10.5812
टक्केवारी	-10.5812
घातक	-10.5812
icmr	-10.5812
नकारात्मक	-10.5813
कोल्ड	-10.5814
बीटा	-10.5814
तणाव	-10.5814
नोंदवले	-10.5814
लढण्यासाठी	-10.5815
उत्परिवर्तन	-10.5815
सुपर	-10.5818
घेतलं	-10.5819
ब्यात	-10.5822
फंड	-10.5827
परदेश	-10.5828
पाहिलं	-10.5828
तापमाना	-10.5835
तब्	-10.5837
पक्ष	-10.5838
गोष्टीं	-10.5846
व्हायच	-10.5847
''	-10.586
दुर्लक्ष	-10.5861
पालकां	-10.5863
er	-10.5864
माझा	-10.5872
नोंदवल	-10.5888
ंमधील	-10.5888
उद्दिष्ट	-10.5901
ीज	-10.5906
तुमचा	-10.5907
कुटुंबात	-10.5911
मंत	-10.5912
ीर	-10.5912
मुलांची	-10.5914
न्याय	-10.5915
ग्र	-10.5918
तातडी	-10.5925
लाटेचा	-10.593
प्रांत	-10.5931
सूचनां	-10.5937
शेख	-10.5958
▁".	-10.5963
त्मक	-10.5975
दुर्	-10.5975
नोंदवण्या	-10.5981
बार	-10.5984
कुंभमेळ्यात	-10.599
मॅ	-10.5996
ांपर्यंत	-10.6
ठेवता	-10.6005
्च	-10.6007
चाचणीसाठी	-10.602
कोरोनाग्रस्तां	-10.6028
ये	-10.6037
पडता	-10.6046
पालकमंत्र	-10.6053
ूर	-10.6056
अमरावतीत	-10.606
वाढती	-10.606
ावे	-10.6092
संशोधकांन	-10.61
यू	-10.6107
णारा	-10.6108
नियमां	-10.6111
्लिक	-10.6112
मध	-10.6127
परिषद	-10.6131
समुदाया	-10.6138
धाव	-10.6154
सहभाग	-10.6169
मर	-10.617
रोगप्रतिकार	-10.6184
राष्ट्र	-10.6193
विना	-10.6193
स्पेन	-10.6195
सूक्ष्म	-10.6196
आरएनए	-10.6196
उल्लंघन	-10.6197
कृष्ण	-10.6197
दुप्पट	-10.6197
पुनावाला	-10.6197
पॅनगोलिन्स	-10.6197
फ्रंटला	-10.6197
मजूर	-10.6197
हुबेई	-10.6197
सिलिंडर	-10.6197
सिलेंडर	-10.6197
अनावश्यक	-10.6197
चांगलं	-10.6197
चांगले	-10.6197
चांगल्या	-10.6197
मलिक	-10.6197
भूषण	-10.6197
शाळे	-10.6197
नव्हे	-10.6197
फूट	-10.6199
आनंद	-10.6199
सगळे	-10.6199
कुठली	-10.6199
मागितल	-10.6201
कच्च	-10.6203
टेस्टिंग	-10.6205
घालणे	-10.6206
खाटा	-10.6208
परवान	-10.6209
प्रश्नांची	-10.6209
उपायां	-10.6211
माणसां	-10.6212
यंदा	-10.6212
हॉस्पिटल्स	-10.6213
ांमधील	-10.6214
जुना	-10.6218
तीव्रता	-10.6219
तिथं	-10.6223
देण्यास	-10.6223
पक	-10.6228
फेस	-10.6229
डोक	-10.6234
६०	-10.6238
ठाकरेंन	-10.6241
जायच	-10.6243
तज्ज्ञांन	-10.6247
आयोजन	-10.6274
इतरांना	-10.6275
विलगीकरणात	-10.6278
जाणं	-10.6284
घडी	-10.6318
अनि	-10.6325
भविष्यात	-10.6327
क्स	-10.6334
हायला	-10.6336
पदार्थ	-10.6336
वास	-10.6337
टीम	-10.6355
बाळग	-10.6357
लशीसाठी	-10.6358
जास्ती	-10.6366
रोखण्या	-10.6369
आळ	-10.6371
मंत्रालय	-10.6379
ल्याचं	-10.6395
ांपासून	-10.6399
सुधारण	-10.6411
डॅ	-10.6452
थांबवण्या	-10.6458
साहित्य	-10.6466
शास्त्र	-10.6475
पहिल	-10.648
मानवां	-10.648
टाळण्यासाठी	-10.6486
व्हाव	-10.6488
ठा	-10.6499
लिंग	-10.6507
त्वचा	-10.6508
ांमुळे	-10.6527
मराठ	-10.6527
स्वरूप	-10.6532
झोप	-10.6538
विधान	-10.6539
िस्ट	-10.656
संशय	-10.6584
एजन्सी	-10.6591
ंकर	-10.6594
वर्तमान	-10.6596
चिकित्सा	-10.6597
अब्ज	-10.6597
कित्येक	-10.6597
दृष्ट्या	-10.6597
संवेदनशील	-10.6597
सविस्तर	-10.6597
सिंगापूर	-10.6597
महिले	-10.6597
शुल्क	-10.6597
जेसिका	-10.6597
व्याधी	-10.6597
निदर्शना	-10.6597
शांक	-10.6597
दूरस्थ	-10.6597
सिंह	-10.6598
२०२०	-10.6598
शोक	-10.6598
जिल्ह्यांमध्ये	-10.66
ट्रायल्स	-10.6602
सांगा	-10.6603
अँटीबॉडीज	-10.6604
पाहून	-10.6615
वाजता	-10.6616
सर्वसाधारण	-10.6617
बनवण्या	-10.662
प्राध्याप	-10.6622
मुद्दा	-10.6623
थकव	-10.6623
वाढवण्यासाठी	-10.6626
कोव्ह	-10.6629
सोमवारी	-10.6637
परदेशात	-10.6638
यातील	-10.6642
दान	-10.6648
मुला	-10.6651
मंजूरी	-10.6652
आलीय	-10.6656
पक्षा	-10.6659
ाहून	-10.6665
us	-10.6669
भाजपा	-10.6672
अर्थव्यवस्थे	-10.6673
सर्वोच	-10.6677
४०	-10.6693
येऊन	-10.6695
िरो	-10.67
सारखं	-10.6704
वाचव	-10.671
िम	-10.6729
निक	-10.6729
विन	-10.6729
युद्ध	-10.673
घटकां	-10.674
महापौर	-10.6746
आजाराचे	-10.6747
कल्पना	-10.6779
मंत्र्यां	-10.678
मालक	-10.6786
78	-10.6786
वर्षात	-10.679
ेअर	-10.6792
दिसतं	-10.6795
करतं	-10.6799
प्रि	-10.6799
सुरक्षितत	-10.6804
नकार	-10.681
ठेवत	-10.6829
.7	-10.6837
▁¦500	-10.6845
आजारां	-10.6847
शहरां	-10.6853
आफ्रिकेत	-10.6858
बि	-10.6858
ज्याचा	-10.6927
क्शन	-10.6944
आढळल्या	-10.6964
पसर	-10.6966
२००	-10.697
परिषदे	-10.6971
मार्गा	-10.6971
दे	-10.6982
महानगरपालिक	-10.6984
गुत	-10.6985
समुदाय	-10.6987
जपान	-10.6988
दिसू	-10.6999
पालिका	-10.7
कोरोनाग्रस्तांच	-10.7012
मॉडेल	-10.7013
आश्रय	-10.7013
आपापल	-10.7013
कर्फ्यू	-10.7013
जिवंत	-10.7013
परीक्षे	-10.7013
रिसर्च	-10.7013
विस्तृत	-10.7013
व्हीडिओ	-10.7013
लावण	-10.7014
सीडीसी	-10.7015
नाईट	-10.7015
णारी	-10.7015
रक्तदाब	-10.7015
स्त्राव	-10.7016
ब्रेक	-10.7018
कंट्रोलर	-10.7019
शकणाऱ्या	-10.7021
मायक्रो	-10.7022
फायदे	-10.7024
कर्मचाऱ्यांनी	-10.7025
प्रतिमा	-10.7025
प्रतिसादा	-10.7032
अर्धा	-10.7034
कारक	-10.7038
▁¦33	-10.7052
तिसरी	-10.7053
पाहिले	-10.7061
नवाब	-10.7074
फेक	-10.7075
शास्त्रज्ञ	-10.708
शहरी	-10.7084
तिला	-10.7088
एक्स	-10.7108
निघ	-10.7109
ल्याने	-10.7121
लागतं	-10.7122
पक्षनेत	-10.7125
▁¦48	-10.7126
कं	-10.7132
वान	-10.7132
धुवा	-10.7143
४३	-10.715
अनु	-10.7153
लागण्याच	-10.7161
शासन	-10.7166
नागरिकांच	-10.7192
प्रतिपिंड	-10.7196
स्वरुपाच	-10.7196
शिक	-10.7198
अद्यतन	-10.7211
नाका	-10.7212
बरा	-10.7225
लोकांवर	-10.7238
तत्	-10.725
सावं	-10.7272
मंडळा	-10.729
स्थापन	-10.7291
करोनाबाधितांच	-10.7315
ड्रग	-10.7344
मनो	-10.7353
ेट	-10.7399
ाकडे	-10.7411
गांधी	-10.7412
”	-10.7413
संसाधन	-10.7421
आयसीयू	-10.7422
दर्शवल	-10.7426
त्वचे	-10.7446
स्थिर	-10.7447
च्छ	-10.7448
विलग	-10.7448
ऍ	-10.7448
केजरीवाल	-10.7448
कोल्हापूर	-10.7448
जनजागृती	-10.7448
तारीख	-10.7448
धक्का	-10.7448
संध्याकाळ	-10.7448
समन्वय	-10.7448
हॉटस्पॉट	-10.7448
घालून	-10.7448
वंचित	-10.7448
आम्ल	-10.7448
आवृत्ती	-10.7448
सिस्टिम	-10.7448
द्यायला	-10.7448
स्कूल	-10.7449
दोष	-10.7449
निर्जंतुकीकरण	-10.7449
अंमल	-10.7449
मध्यस्थ	-10.7449
शेकडो	-10.7449
रामदेव	-10.7449
चंद्रपूर	-10.7449
मतदान	-10.7449
राज्यभरात	-10.7449
रविंद	-10.745
किलो	-10.7452
दीड	-10.7453
हाय	-10.7462
कुठला	-10.7463
सांगू	-10.7467
सिटी	-10.747
द्यायच	-10.7471
नसल्यास	-10.7471
जाण्यासाठी	-10.7475
जॉन्सन	-10.7479
नऊ	-10.7483
राज्यांत	-10.7483
अथ	-10.7488
जावे	-10.7518
जास्तीत	-10.7518
लाखो	-10.7524
पथक	-10.754
वेगळा	-10.7543
इटलीमध्ये	-10.7548
रुग्णालयं	-10.7552
पाला	-10.7555
वाढण्या	-10.7562
ट्स	-10.7566
परिषदेत	-10.7569
टप्प्यां	-10.7572
पीएम	-10.7578
संशोधना	-10.7591
रुपयांच	-10.7608
पृष्ठभाग	-10.7621
सरकारवर	-10.7633
पोहच	-10.7647
बू	-10.7648
प्रकरणा	-10.7663
स्वीकार	-10.7674
विद्यापीठा	-10.7688
पद	-10.7695
रोख	-10.7702
शिल्	-10.7705
se	-10.7718
23¦	-10.7729
गतीन	-10.774
आं	-10.7742
अशाच	-10.7744
१२	-10.775
काढले	-10.7755
tra	-10.7765
43	-10.7773
ंसह	-10.7801
बाय	-10.7805
लाल	-10.7813
पोलिसां	-10.7818
तज्ञ	-10.7822
समूहा	-10.7824
व्यवहार	-10.7827
अव	-10.7831
कचऱ्याच	-10.7832
कोरड	-10.7838
खोल	-10.7843
राहून	-10.7843
वाल	-10.7866
भावना	-10.7868
ट्विट	-10.787
पालिके	-10.7885
गैर	-10.7887
प्रतिकार	-10.7889
हस्तक्षेप	-10.7897
ज्ञान	-10.7901
अल्कोहल	-10.7903
पिंपरी	-10.7903
हाँगकाँग	-10.7903
२२९ई	-10.7903
युनेस्को	-10.7903
राऊत	-10.7903
औ	-10.7903
कल्याण	-10.7903
सर्व्हे	-10.7903
दर्जा	-10.7903
राष्ट्राध्यक्ष	-10.7903
्यू	-10.7903
बिहार	-10.7903
ायटीस	-10.7903
सामोर	-10.7903
अवघड	-10.7903
rtpc	-10.7904
नर्सेस	-10.7904
देखभाल	-10.7904
बचाव	-10.7904
म्हणता	-10.7904
निर्यात	-10.7905
अॅडव्ह	-10.7905
वाईट	-10.7905
मोकळ	-10.7906
स्पष्टीकरण	-10.7907
अर्थव्यवस्था	-10.7907
र्जी	-10.7908
संरक्षक	-10.7917
टक्क्यांपर्यंत	-10.792
बराच	-10.7923
खोलीत	-10.7927
वेगळ्या	-10.7936
प्रवासावर	-10.7937
ुरेश	-10.7939
महापालिकेने	-10.7944
आणल	-10.7949
्ट	-10.7957
पाहणी	-10.7963
थील	-10.7965
कार्यालयं	-10.7976
कामावर	-10.7998
मात्रा	-10.7998
गटात	-10.8011
मांडल	-10.8013
बदलत	-10.8025
ांपेक्षा	-10.8055
तम	-10.809
पॅ	-10.8095
दुखण्या	-10.8097
दिवसभरा	-10.8097
चायन	-10.8111
अनुसर	-10.8123
रन	-10.8128
२१	-10.8141
प्रभावीपणा	-10.8141
ii	-10.8143
भासत	-10.8153
बाबा	-10.8154
सुट	-10.8156
प्रकारचा	-10.8169
वाढतो	-10.8172
दास	-10.8182
सेट	-10.8182
जम	-10.8191
वितरणा	-10.8193
फैलाव	-10.8199
हेच	-10.8218
तिथ	-10.8231
जोर	-10.8236
दिसल	-10.8237
ti	-10.826
वॉर्ड	-10.8267
es	-10.8306
राखण्या	-10.8313
मंजूर	-10.8313
ाखाली	-10.8313
थंड	-10.8314
तक्रार	-10.8319
कागदपत्र	-10.8325
कामगारां	-10.833
स्क	-10.8334
सोय	-10.8337
भागांत	-10.8352
कुणा	-10.8353
धड	-10.8353
पद्धतीं	-10.8353
शिक्ष	-10.8358
पत्रात	-10.8358
विर	-10.8364
पुढच	-10.8365
ग्राहक	-10.8368
खाटांच	-10.8368
हायड्र	-10.8372
कंट्रोल	-10.8373
४५	-10.8373
पेशंट	-10.8375
निर्जंतुक	-10.8378
$	-10.8379
चिंचवड	-10.8379
जिल्ह्य़ात	-10.8379
मेसेज	-10.8379
वॉक	-10.8379
सुरळीत	-10.8379
स्रोत	-10.8379
पावलं	-10.8379
▁¦2019-20	-10.8379
बॅट	-10.8379
घातली	-10.8379
सुट्टी	-10.8379
दौर	-10.8379
विभाज	-10.8379
सलग	-10.8379
लंडन	-10.8379
इंटरनेट	-10.8379
राष्ट्रवादी	-10.8379
युक्त	-10.8379
हॅण्ड	-10.838
ब्रिट	-10.838
वर्कर्स	-10.8381
अंगावर	-10.8381
२२	-10.8387
अर्ध्या	-10.8393
सांगायच	-10.84
घालण्यासाठी	-10.8402
अटी	-10.8407
थोडी	-10.8408
शासनाने	-10.841
300	-10.8411
औषधांचा	-10.8415
अलीकडे	-10.8419
कट	-10.8422
गामी	-10.8422
माणसं	-10.8423
कुटुंबीयां	-10.8429
जिल्हाधिका	-10.8429
कांत	-10.8434
खाल	-10.8435
सोयी	-10.844
दुखणे	-10.844
ig	-10.8441
िव्ह	-10.8449
लसीकरणाला	-10.8451
ीकृत	-10.8474
पडण्या	-10.8485
इन्	-10.8489
टिंग	-10.8491
्ज	-10.8502
टर	-10.8513
वातावरणात	-10.8514
ूज	-10.8516
फेटाळ	-10.8517
्यु	-10.8537
देतो	-10.8538
संरक्ष	-10.8545
da	-10.855
र्ण	-10.8557
पत्रक	-10.856
िय	-10.8563
संदेश	-10.8577
64	-10.8582
जल	-10.8596
सीई	-10.8602
एसी	-10.8616
पाया	-10.862
युकेत	-10.8633
लेल	-10.8655
शिर	-10.8658
प्रयोग	-10.8658
वक्तव्य	-10.8661
रण	-10.8664
पडले	-10.8667
ंच	-10.8679
पुरवठादार	-10.8698
सपोर्ट	-10.87
डाय	-10.87
पसरण्याच	-10.8708
92	-10.8715
मिल	-10.8716
ओळखले	-10.8727
हृदय	-10.8727
ra	-10.8736
राहण्याच	-10.8754
स्ट्र	-10.8759
त्	-10.8759
१००	-10.8759
अधिकाऱ्या	-10.8761
75	-10.8773
बाळ	-10.8783
लढाई	-10.8788
आख	-10.8792
आफ्रिक	-10.8811
पाहत	-10.8818
उतर	-10.8822
स्थित	-10.8825
अतिसार	-10.8825
आगी	-10.8826
२८	-10.8847
िकल	-10.8851
जिल्ह्य	-10.8856
लढा	-10.8857
माणसा	-10.8862
वर्गा	-10.8862
रेड्डी	-10.8873
http	-10.8879
अजिबात	-10.8879
अस्तित्व	-10.8879
कृषी	-10.8879
जंतु	-10.8879
दृष्टिकोन	-10.8879
सोलापूर	-10.8879
निष्क्रिय	-10.8879
अनुकूल	-10.8879
गुन्ह	-10.8879
कागद	-10.8879
बरीच	-10.8879
चिंताजनक	-10.8879
स्कॅन	-10.8879
उपयुक्त	-10.8879
मांस	-10.888
डॉलर	-10.888
घरोघर	-10.888
ट्रॅकिंग	-10.888
अपवाद	-10.888
स्वस्त	-10.8881
नोंदी	-10.8881
रिटी	-10.8881
कुठले	-10.8881
स्टेशन	-10.8882
बोट	-10.8882
आदेशा	-10.8882
अपयश	-10.8883
अँप्स	-10.8886
व्हिड	-10.8886
साडे	-10.8887
समर्थन	-10.889
संस्थांनी	-10.8891
मोहन	-10.8893
बाधितांच	-10.8893
ापर्यंत	-10.8894
अनाथ	-10.8894
बायड	-10.8896
पांडे	-10.8898
कोळ	-10.8903
फळ	-10.8904
त्याचबरोबर	-10.8904
पाळण	-10.8904
नशील	-10.8905
रिकाम	-10.8906
गुंतागुंती	-10.8914
फॅ	-10.8914
कार्यक्रमा	-10.8919
लवकरात	-10.8919
साजर	-10.8922
चर	-10.8926
व्यापारी	-10.8927
प्रवक्त	-10.8934
नातेवाईकांना	-10.8934
स्टिक	-10.8936
अंग	-10.8936
ठरणार	-10.8941
पृष्ठभागावर	-10.8942
ेकर	-10.8952
काढू	-10.8953
हित	-10.8956
विधानसभ	-10.8957
दू	-10.8962
शेतक	-10.8964
कलम	-10.8965
फि	-10.897
▁¦37	-10.8989
साईड	-10.9003
हृदया	-10.9004
व्हि	-10.9018
माती	-10.9019
हाती	-10.904
फारस	-10.9044
ड्राय	-10.9048
ब्ल	-10.9051
नात	-10.9058
▁¦65	-10.9059
नेपाळ	-10.9061
तिच्या	-10.9075
शास्त्रज्ञांन	-10.9077
दूषित	-10.9082
वयोगटा	-10.9099
पोहोचला	-10.9099
कारी	-10.9105
निका	-10.9115
कुल	-10.9117
नाशक	-10.9117
आलेख	-10.9118
आम	-10.9133
सहकार	-10.9138
स्वरूपाच	-10.9147
प्रयोगशाळां	-10.9154
गर	-10.9178
ज्यांच	-10.9191
्यांवर	-10.9228
ड्रायर	-10.9231
पडला	-10.9232
टप्प	-10.9233
ँड	-10.9236
जिल्ह्यत	-10.924
ियो	-10.9244
६३	-10.9245
शास	-10.9253
ाच	-10.9257
िन्स	-10.9261
समारंभ	-10.9262
अद्य	-10.9268
डिसी	-10.9268
as	-10.9268
इंटर	-10.928
गी	-10.9281
टाळाव	-10.9286
शें	-10.9296
गाड्यां	-10.9301
साऊ	-10.9327
एच	-10.9327
शस्त्र	-10.9334
मानक	-10.9334
माहित	-10.9343
मृतांच	-10.9348
बोर्ड	-10.9353
दीर्घ	-10.9358
ठरवल	-10.9376
खेळ	-10.9398
ज्यांचा	-10.9398
ांबाबत	-10.94
व्हॅक्सीन	-10.9404
आखाड्या	-10.9405
उर्वर	-10.9405
खोकताना	-10.9405
तालुका	-10.9405
पशूजन्	-10.9405
बायोएनटेक	-10.9405
रिकव्हरी	-10.9405
हरिद्वार	-10.9405
हाफकिन	-10.9405
स्त्रोत	-10.9405
पॅकेज	-10.9405
सेप्ट	-10.9405
प्रामुख्यान	-10.9405
सल्लागार	-10.9406
ेश्वर	-10.9406
भौ	-10.9407
बद्ध	-10.9407
कारणांमुळे	-10.9409
गरम	-10.941
दल	-10.9411
विकार	-10.9412
आभार	-10.9413
भय	-10.9415
औषधी	-10.9415
जित	-10.9422
ज्	-10.9425
मनपा	-10.9429
न्ट	-10.9431
प्रत्येकाला	-10.9434
मंडळी	-10.9435
ठराव	-10.9436
समितीने	-10.9436
72	-10.9443
वेळेस	-10.9445
वाटप	-10.9447
बोलाव	-10.9449
अँटी	-10.9452
जानेवारीपासून	-10.9458
क्लब	-10.946
चेहर	-10.9464
tc	-10.9467
असावी	-10.947
अॅपवर	-10.9478
स्टेट	-10.948
लावल्या	-10.9481
वावर	-10.9482
अलिकड	-10.9489
शिक्षणमंत्र	-10.95
नाहीय	-10.9506
बरेच	-10.9508
साधू	-10.9509
साली	-10.9513
पाळ	-10.952
तेने	-10.9521
मंत्रालयाच्या	-10.9525
चक्र	-10.9529
करण्यावर	-10.9531
तंत्रज्ञाना	-10.9532
फिरत	-10.9538
भारताने	-10.9542
पुरुषां	-10.9545
्षिक	-10.9547
लक	-10.9549
चल	-10.9552
दुष्परिणाम	-10.9557
आजारासाठी	-10.9563
संकटात	-10.9576
चाचण्यांची	-10.9611
्याने	-10.9612
ांनुसार	-10.9618
▁़	-10.9621
ढकलल	-10.9632
रू	-10.9644
पाड	-10.9647
ेड	-10.965
ोर	-10.9655
राबवण्या	-10.9657
विमानात	-10.9661
मृतदेह	-10.9671
प्रधान	-10.9671
गावा	-10.9693
प्राधिकरणा	-10.9704
९०	-10.9721
हाळ	-10.9726
घटने	-10.9744
बदलू	-10.9753
दिवसभर	-10.9758
बघ	-10.9759
भी	-10.976
घालत	-10.9761
दुखण	-10.978
बिल	-10.9791
k	-10.9795
खे	-10.9802
बळी	-10.9802
चित	-10.9814
चुक	-10.9814
जिल्ह	-10.982
आजारावर	-10.9824
ाऊन	-10.9831
अहवालात	-10.9844
केंद्रे	-10.9861
कुव	-10.9869
दुकानां	-10.9872
महिलांन	-10.9887
क्रिये	-10.9904
डोन	-10.9908
झाक	-10.9924
एल	-10.9928
ग्	-10.9936
तपासल	-10.9945
भाष	-10.9947
विद्यापीठात	-10.9948
मिशन	-10.9948
रुग्णवाढ	-10.9956
सगळी	-10.9959
eea	-10.9961
एरोसोल	-10.9961
कौतुक	-10.9961
गरोदर	-10.9961
तारखे	-10.9961
थायलंड	-10.9961
व्यवस्थित	-10.9961
श्रेणी	-10.9961
सामुदायिक	-10.9961
स्फोट	-10.9961
हायपॉक्सिया	-10.9961
दृश्य	-10.9961
सज्ज	-10.9961
पाऊल	-10.9961
मेडिसिन	-10.9961
कूल	-10.9961
स्वयं	-10.9961
किमती	-10.9961
गरीब	-10.9961
मिश्र	-10.9961
कार्यकर्ते	-10.9961
कार्यवाही	-10.9961
गुप्त	-10.9961
सारणी	-10.9962
ठेवलं	-10.9962
पगार	-10.9963
कामगिरी	-10.9963
गुठळ्या	-10.9966
बाजी	-10.9966
व्हायला	-10.9966
जाणवल	-10.9967
पसरू	-10.9968
ज्यांच्या	-10.9969
युएस	-10.997
ींग	-10.9971
चिन्ह	-10.9971
जाग	-10.9972
वाटलं	-10.9973
सापडले	-10.9974
गोलि	-10.9976
दरवर्षी	-10.9979
व्यक्ति	-10.9981
थोडा	-10.9982
विचारलं	-10.9987
हल्ला	-10.999
वीज	-10.9991
कुणाला	-10.9993
सिंग	-10.9997
साताऱ्यात	-10.9998
विदर्भात	-10.9998
गू	-11.0002
र्थ	-11.0008
त्यांच्याकडे	-11.001
ढा	-11.0011
मंत्रिमंडळाच	-11.0013
निर्	-11.0016
खान	-11.0017
दिवसांसाठी	-11.0018
दाब	-11.0024
समाजा	-11.0027
युरोपात	-11.0031
फोर्सचे	-11.0032
साथीमुळे	-11.0036
पूर्वक	-11.0036
शस्त्रक्रिय	-11.0038
न्न	-11.004
बाबीं	-11.004
लसींचा	-11.0046
▁.)	-11.0047
हातावर	-11.0047
गांभीर्य	-11.0054
दो	-11.0056
ठेवण्यास	-11.006
मोड	-11.0061
सुरक्षे	-11.0062
वेबसाईटवर	-11.0066
gen	-11.007
संघा	-11.0071
दिसते	-11.0073
खाण्या	-11.0089
निवास	-11.0091
समजाव	-11.0092
दूतावास	-11.0098
ड्रग्	-11.0102
शीर	-11.0103
रब	-11.0127
ण्याच्या	-11.0128
परतले	-11.0135
डर	-11.0144
कोरोनासंसर्ग	-11.0145
टेड	-11.0159
53	-11.0162
गती	-11.0166
भेटी	-11.0178
व्यात	-11.0183
एकच	-11.0193
ॅशन	-11.0195
स्नायू	-11.0198
ापेक्षा	-11.0201
वादी	-11.0208
बांध	-11.0209
वाढवण	-11.0216
ह्रदय	-11.0217
हाताळण्या	-11.0224
कळवि	-11.0237
सहज	-11.0238
त्यांच्यासाठी	-11.0241
राण	-11.0242
यावं	-11.0243
कळल	-11.0252
र्म	-11.0263
कोणा	-11.027
रोह	-11.0285
रेड	-11.0294
ठरले	-11.0301
चू	-11.0316
आत्तापर्यं	-11.0316
न्यायालयान	-11.0328
सल्ल्या	-11.0334
३६	-11.0335
ृत	-11.0347
संपत	-11.0355
पार्ट	-11.0367
अवयवां	-11.0367
राहा	-11.0383
विश्लेषणा	-11.0386
स्थापना	-11.0393
निवडणुकी	-11.0408
वटवाघळा	-11.0412
▁¦400	-11.0418
रहा	-11.0431
आण	-11.0434
सद्य	-11.0443
96	-11.0446
किर	-11.0453
डिस्टंसिंग	-11.0458
लढ	-11.0459
संघ	-11.0465
याव	-11.0466
अडचण	-11.047
उभार	-11.0472
तत्त्व	-11.0476
साद	-11.0476
याआधी	-11.0481
लु	-11.0484
93	-11.0486
सोमवार	-11.0489
केलीय	-11.0499
मुळ	-11.0503
र्फे	-11.0507
करु	-11.0507
केंद्राकड	-11.0509
निती	-11.0512
लावल	-11.052
फिर	-11.0521
कडू	-11.0532
स्टोअर	-11.0545
मार्केट	-11.0547
णूक	-11.0549
ग्राम	-11.0549
अंत्यसंस्कार	-11.0549
औपचारिक	-11.0549
कर्नाटक	-11.0549
जावडेकर	-11.0549
टिश्यू	-11.0549
डेन्मार्क	-11.0549
तृतीय	-11.0549
बिंदू	-11.0549
रेस्टॉरंट	-11.0549
स्टोरेज	-11.0549
आसपास	-11.0549
टॅक्सी	-11.0549
प्लाझ्मा	-11.0549
स्वागत	-11.0549
पार्सल	-11.0549
शिवाजी	-11.0549
उच्चांक	-11.0549
तिकीट	-11.0549
ह्यूम	-11.0549
अहमदनगर	-11.0549
ग्लोब	-11.0549
खोट	-11.0549
शिफारशी	-11.0549
मांजर	-11.0549
the	-11.0549
अऩ्	-11.0549
वडील	-11.055
लिव्हर	-11.055
निगड	-11.055
एनएल	-11.055
छत्र	-11.055
सूत्र	-11.055
वाहक	-11.0551
साहेब	-11.0551
न्सी	-11.0551
दीर्घकाळ	-11.0551
इथल्या	-11.0553
fe	-11.0554
nb	-11.0554
पट्ट	-11.0556
पत्रकारां	-11.0556
फोड	-11.0556
सायन्स	-11.0557
झेन	-11.0558
प्रकृती	-11.0558
अँटीजेन	-11.0562
डबल	-11.0562
ममता	-11.0564
आढळणाऱ्या	-11.0571
निकट	-11.0572
सेकंद	-11.0575
िनी	-11.0576
तेथे	-11.0576
शिव	-11.0576
व्हायरसला	-11.0576
लागणाऱ	-11.0579
नसतो	-11.0581
पदं	-11.0584
सगळ्यांना	-11.0585
गुणकार	-11.0589
सेंट	-11.0594
एवढा	-11.0594
िट	-11.0596
महत्व	-11.0597
बालरोग	-11.0603
माला	-11.0604
साय	-11.0607
िर	-11.0617
ब्रिटनमध्ये	-11.0624
खवखवण	-11.0628
सुचवले	-11.0636
चाचणीत	-11.0638
दृष्टीकोन	-11.0638
थंडी	-11.0643
नोव	-11.0646
कुं	-11.0648
▁¦800	-11.0654
वस्तूं	-11.0656
स्थगिती	-11.0658
बाध	-11.066
वाई	-11.066
तासात	-11.0674
लॉकडाऊनमध्ये	-11.0675
राहतो	-11.0681
साल	-11.0689
वाढलेल	-11.0693
वर्	-11.0705
विभागां	-11.0711
बर्	-11.0721
mis	-11.0724
परीक्षां	-11.0731
वाढणार	-11.0733
वर्षं	-11.0742
९९	-11.0745
योज	-11.0746
लाभ	-11.0757
७०	-11.076
०००	-11.0765
.5	-11.0801
अशाप्रकार	-11.0808
जीवन	-11.0813
३१	-11.0816
संसर्गाचं	-11.0818
व्हायरसवर	-11.082
सेरोलॉजी	-11.0823
िज	-11.0827
उपकरणां	-11.0844
मोहीमे	-11.0847
प्रयोगशाळे	-11.0849
पॅक	-11.0852
ili	-11.0855
स्तर	-11.0869
हाच	-11.0881
तड	-11.0885
बरोबरच	-11.09
रोखू	-11.0913
लाटेच्या	-11.0916
उभारण्या	-11.0919
एवढ	-11.0924
ीवर	-11.0928
नसलेल	-11.0936
स्थ	-11.0941
ँग	-11.0941
कांनी	-11.0952
किंमती	-11.0957
ूत	-11.0964
na	-11.0965
me	-11.0971
धोरणा	-11.0979
पाहिल	-11.0984
ळी	-11.0994
पाहण	-11.0994
असावे	-11.0997
भ्र	-11.1001
गन	-11.1002
ओसी	-11.1004
वर्तवल	-11.1012
ाळे	-11.1024
ड्र	-11.1026
ुती	-11.1039
राहता	-11.1042
िकट	-11.1044
मोज	-11.105
▁¦85	-11.1053
योजनां	-11.1055
प्रौढ	-11.1059
समजू	-11.1062
पाल	-11.107
निघाल	-11.1071
नसता	-11.1076
जीनोम	-11.1081
नसताना	-11.1086
समुदायात	-11.109
व्यवस्थापना	-11.1101
कुंभमेळ	-11.1102
चालव	-11.1111
२६	-11.1112
व्यापार	-11.1117
तिसर	-11.112
मुद्द	-11.1134
सोन	-11.1145
तू	-11.1147
कारखान	-11.1148
प्ताह	-11.1165
शु	-11.1167
रहात	-11.1169
कोव्हॅक्स	-11.1172
ge	-11.1173
द्योग	-11.1173
ऩ	-11.1173
सुरवात	-11.1174
रहिवा	-11.1174
विवेक	-11.1174
अलगीकरण	-11.1174
q	-11.1174
अधिवेशन	-11.1174
कॅडिला	-11.1174
क्लोरोक्विन	-11.1174
गुंतवणूक	-11.1174
ध्येय	-11.1174
पत्नी	-11.1174
मुलाखती	-11.1174
रिस्पॉन्स	-11.1174
हॅन्ड	-11.1174
आणिबाणी	-11.1174
निवडणुका	-11.1174
विलंब	-11.1174
समाधान	-11.1174
उत्तराखंड	-11.1174
उत्क्रांती	-11.1174
रायगड	-11.1174
अनुदान	-11.1174
प्रदूषण	-11.1174
जीवाणू	-11.1175
्रिम	-11.1175
गोल्ड	-11.1175
काळाबाजार	-11.1175
जन्म	-11.1175
जयंत	-11.1175
भाविकां	-11.1176
महाविकास	-11.1176
किरण	-11.1178
रॅप	-11.1179
विचारणा	-11.1179
हान	-11.1179
कामकाज	-11.118
डब्लूएचओ	-11.118
राज्यपाल	-11.118
लेव्हल	-11.118
नंबर	-11.118
लवकरच	-11.118
चालना	-11.1181
वर्क	-11.1182
ro	-11.1183
थोड्या	-11.1183
वर्ती	-11.1185
मिळण्यासाठी	-11.1188
ठेवला	-11.1193
़	-11.1193
गैरसमज	-11.1195
असो	-11.1197
घाई	-11.1198
निशा	-11.1204
आयोगाने	-11.1208
करण्याबाबत	-11.121
आशिया	-11.121
हजारांच्या	-11.1216
हातांवर	-11.1218
पुरव	-11.1219
लशीबाबत	-11.1222
गाठी	-11.1223
हेतू	-11.1226
साथरोगाच्या	-11.1227
दीर्घकाल	-11.1228
धडा	-11.1231
आढळलेल्या	-11.1231
नेम	-11.1236
उड	-11.1236
सोप्या	-11.1237
झाल्यापासून	-11.124
औषधांची	-11.124
परा	-11.1244
त्याबद्दल	-11.1245
रियल	-11.1251
वाढी	-11.1254
घसर	-11.1262
तापमानात	-11.1263
आजारात	-11.1267
संकलन	-11.1267
त्तर	-11.1271
कचऱ्या	-11.1273
ठाण्यात	-11.1278
ुन	-11.1285
झो	-11.1288
लढाईत	-11.1292
४४	-11.1307
आवरण	-11.1311
क्षेत्रां	-11.1312
पाळल	-11.1316
साधा	-11.1323
महिन्यांत	-11.1324
इंटरन	-11.1326
सुरूवाती	-11.1328
्यापी	-11.1331
सरकारचं	-11.1334
ानं	-11.1344
रोगाच्या	-11.1344
सातत्य	-11.1345
न्यायालय	-11.1346
लावले	-11.1347
पल्	-11.1353
पू	-11.1353
लढ्या	-11.1366
अवयव	-11.1372
बाहेरून	-11.1382
आमच्याकड	-11.1385
टीव्ही	-11.1386
ठेवावी	-11.1386
दुर्दैव	-11.1387
०१	-11.1395
ॅक	-11.1398
यावरून	-11.1408
वगळण्या	-11.1418
पुरवण्या	-11.1451
स्तरी	-11.146
इज	-11.1462
शरीर	-11.1462
ाध्यक्ष	-11.1481
80	-11.1494
्बर	-11.15
जें	-11.151
दर्शव	-11.151
हाल	-11.1524
जेन	-11.1532
उठव	-11.1534
्त	-11.154
मुलग	-11.1543
वापरत	-11.1549
हातात	-11.1552
मोदीं	-11.1554
३८	-11.1558
ट्रॅक	-11.1573
बघत	-11.1585
दला	-11.1588
-1	-11.1595
कुंभमेळ्या	-11.16
-5	-11.161
पत्त	-11.1615
)	-11.1619
रोधी	-11.1626
लावता	-11.1627
भि	-11.1631
ेझ	-11.1637
कॅन	-11.1641
ायचं	-11.1647
ंगण	-11.1667
यांच्यात	-11.1675
वाचा	-11.1685
ायक	-11.1693
नागरी	-11.1703
अग्नि	-11.1707
पाकिस्तान	-11.1711
वापरण्याच	-11.1719
जाणारी	-11.1723
वर्षभरा	-11.1729
पर्यटन	-11.1736
लेट	-11.1736
कळ	-11.1742
वेबसाईट	-11.1752
सहकाऱ्यां	-11.1766
अभि	-11.1771
जगातल	-11.1774
ar	-11.1775
चर्च	-11.1786
वेळापत्रक	-11.1788
42	-11.179
तथा	-11.1805
दुर्ग	-11.1807
स्वरुपात	-11.1819
शिंदे	-11.1823
पाहू	-11.1824
सामान	-11.1826
कपड	-11.1828
खाद्य	-11.1841
ंस्कृत	-11.1841
फोर्ट	-11.1841
अपघात	-11.1841
एचकेयु	-11.1841
एफडीए	-11.1841
झायडस	-11.1841
डाऊनलोड	-11.1841
द्रुत	-11.1841
पुनर्	-11.1841
मूर्ती	-11.1841
मॉड्यूल	-11.1841
विषारी	-11.1841
स्पेशालिटी	-11.1841
अल्फा	-11.1841
चव्हाण	-11.1841
पांढ	-11.1841
पोषक	-11.1841
ब्रुक	-11.1841
वडिलां	-11.1841
सुनावणी	-11.1841
दखल	-11.1841
नोकरी	-11.1841
समजातीय	-11.1841
गर्भपात	-11.1841
मूल्यमापन	-11.1841
अवस्था	-11.1841
फटाक्यां	-11.1841
आश्वासन	-11.1841
रितीने	-11.1841
न्यूयॉर्क	-11.1841
रहिवाशांन	-11.1841
प्रतीक्ष	-11.1841
अध्यक्षतेखाली	-11.1841
ांत्रिक	-11.1841
किलोमीटर	-11.1841
नाराजी	-11.1842
इम्युनिटी	-11.1842
आंतरप्रजाती	-11.1842
चालली	-11.1842
चित्रपट	-11.1843
महासंचालक	-11.1843
सगळीकडे	-11.1843
पावसाळ	-11.1844
पशु	-11.1844
पात्र	-11.1845
प्रतिकृती	-11.1845
प्रवृत्त	-11.1846
केव्हा	-11.1846
सतर्क	-11.1846
थांबवल	-11.1847
एम्स	-11.1851
आराम	-11.1851
सातार	-11.1851
टाकले	-11.1851
वाढवली	-11.1852
ाणूस	-11.1854
व्हेरियंट्स	-11.1858
न्यु	-11.1858
ह्यांचा	-11.1859
यांच्याकडे	-11.186
गॅस	-11.1861
पाहा	-11.1861
चौथ	-11.1861
सवाल	-11.1863
ह्यांच्या	-11.1868
्यासाठी	-11.1869
समाजात	-11.1871
राहणं	-11.1871
उघडण्या	-11.1872
खेळत	-11.1872
सेंटर्स	-11.1873
महिन्यापासून	-11.1877
करोनामुक्त	-11.1877
काढलेल	-11.1879
रूग्णांसाठी	-11.188
एन्फ्ल्युएन्झ	-11.188
गृहमंत्र	-11.188
पदवी	-11.188
काळी	-11.1884
2000	-11.1889
मुंबईतल्या	-11.1894
ाइक	-11.1906
तिथल	-11.1909
स्वरूपात	-11.1912
नेस	-11.1925
90	-11.1926
लढत	-11.1931
ठेवले	-11.1948
गेल्यानंतर	-11.1957
कंपन्यांन	-11.1965
पायी	-11.1967
शिक्षणात	-11.1967
अभिनेत	-11.1968
पब	-11.1984
एकमे	-11.1984
केल्याचं	-11.1989
्युट	-11.1992
गोष्टींच	-11.1994
कोरोनाबाधितांच	-11.2008
कळवण्या	-11.2015
ाविषयी	-11.2018
कंपन्यांना	-11.2024
५००	-11.2028
मिळतो	-11.2034
दरात	-11.2038
ांसह	-11.2052
दर्शन	-11.2055
टू	-11.2074
घेतात	-11.2085
घालता	-11.2088
मिनिटां	-11.2088
्यांमध्ये	-11.2091
प्रक्रियेत	-11.2096
नाम	-11.21
दावर	-11.2104
न्य	-11.2107
ठरला	-11.2109
आणले	-11.2116
घातल्या	-11.2127
प्रसिद्धी	-11.2135
घरा	-11.2136
प्त	-11.2153
४८	-11.2165
प्रकरणात	-11.2181
अध्ययना	-11.2182
पृष्ठभागा	-11.2185
पसरल	-11.2187
मॅट	-11.2189
यावे	-11.2202
बोलण्या	-11.2207
आरोग्याच्या	-11.2231
क्लो	-11.2234
धू	-11.2246
ळा	-11.2248
स्त्रियां	-11.2256
उशीर	-11.226
रहाव	-11.2277
पसरलेल	-11.2288
ावाटे	-11.2292
प्प	-11.2294
यापुढे	-11.2319
हीच	-11.2331
व्य	-11.2334
पक्षां	-11.2341
अँ	-11.2347
वृत्तसंस्थे	-11.2366
तिच	-11.2368
39	-11.238
सोडण्या	-11.2387
ऐ	-11.2401
ळक	-11.2402
जु	-11.2408
वास्तव	-11.2416
अध	-11.2427
अडक	-11.2439
pp	-11.2442
पथका	-11.2443
शील	-11.2448
वितर	-11.245
सापडलेल	-11.2458
अनुम	-11.2461
शाही	-11.2461
व्हॅक	-11.2479
२९	-11.2487
प्रवासाच	-11.2502
79	-11.2522
पेड	-11.253
66	-11.2535
असती	-11.2551
x	-11.2553
सायकल	-11.2554
चिकित्सक	-11.2555
साळुं	-11.2555
अँजिओटेनसीन	-11.2555
केंब्रिज	-11.2555
नॉल	-11.2555
पंधरा	-11.2555
विधी	-11.2555
वॉशिंग्टन	-11.2555
सफाई	-11.2555
आक्रमक	-11.2555
आदित्य	-11.2555
इच्छित	-11.2555
कन्टेनमेंट	-11.2555
टेक्नॉलॉजी	-11.2555
थेरपी	-11.2555
नेतृत्व	-11.2555
पंजाब	-11.2555
प्रायोगिक	-11.2555
रक्कम	-11.2555
रॉय	-11.2555
लर्निंग	-11.2555
शत्रू	-11.2555
ॅण्टीबॉडी	-11.2555
ॉक्सीक्लोरोक्विन	-11.2555
्रॉम	-11.2555
कौशल्य	-11.2555
ठेऊ	-11.2555
▁¦2012	-11.2555
ऑर्डर	-11.2555
पातळ्या	-11.2555
इमर्ज	-11.2555
इन्स्टिट्युट	-11.2555
व्याप्ती	-11.2555
रणनीती	-11.2555
फायर	-11.2555
तैवान	-11.2555
अर्थसंकल्प	-11.2555
सचिवालया	-11.2555
चालणार	-11.2555
uk	-11.2555
एजंट	-11.2555
स्राव	-11.2557
कपात	-11.2557
उपचाराध	-11.2557
iii	-11.2557
इन्फेक्शन	-11.2558
मुद्द्यावर	-11.2558
धुतल्या	-11.2558
प्रकट	-11.2559
असायला	-11.2561
mh	-11.2561
सादरीकरण	-11.2561
नोंदविण्या	-11.2563
समजले	-11.2566
न्यूज	-11.2567
लसीकरणाबाबत	-11.2567
भु	-11.2567
प्रतिरोधक	-11.257
ुनिक	-11.257
विपर	-11.2571
ऑन	-11.2571
फ्लो	-11.2576
ation	-11.2577
थर्म	-11.2579
माफ	-11.2579
रेख	-11.258
कारणांसाठी	-11.2582
फर	-11.2585
पडणार	-11.2593
प्रव	-11.2594
बच्	-11.2595
ठरवण्या	-11.2596
श्रम	-11.2597
प्रसारण	-11.2598
मार्गाने	-11.2606
at	-11.261
खोली	-11.2616
वस्थ	-11.2616
बीड	-11.2617
खरी	-11.2622
वेळापत्रका	-11.2623
▁,'	-11.2623
कर्ज	-11.2624
ोगी	-11.2629
प्रती	-11.2631
धुण्यासाठी	-11.2633
to	-11.2636
धुण्यास	-11.2636
संयोजन	-11.2639
यासंबंधी	-11.2648
घ्यावे	-11.2649
यासोबतच	-11.2655
पॅन	-11.2668
आदर	-11.2673
महानगरपालिके	-11.2674
तळ	-11.2675
पाहण्या	-11.269
शेत	-11.2701
कराव्या	-11.2712
राहिला	-11.2716
लसीसाठी	-11.2716
ic	-11.2717
ांमधून	-11.2723
राहिल्या	-11.2723
यल	-11.2724
मिळतं	-11.2724
केल्यामुळे	-11.2732
▁¦62	-11.2734
बिग	-11.2747
har	-11.2754
संशोधनात	-11.2768
कार्यक्षम	-11.2771
शास्त्री	-11.2779
सत्रा	-11.2793
pa	-11.2795
करताय	-11.2805
नियमन	-11.2806
चेहऱ्यावर	-11.2808
ठेवावे	-11.2809
जुळ	-11.281
सण	-11.281
सळ	-11.2818
केल्यावर	-11.2823
चाचणीचा	-11.2828
पाळीव	-11.2837
उमेदवार	-11.284
वस्तूंच	-11.2841
जोखमीवर	-11.2845
हव्या	-11.2853
लिह	-11.2854
उशीरा	-11.286
ग्ला	-11.2861
मारण्या	-11.288
चौ	-11.2887
osh	-11.2888
२३	-11.289
कामगारांन	-11.2891
ch	-11.2893
निम	-11.2901
हेब	-11.2919
सिस	-11.2921
हंगाम	-11.2928
निमित्तान	-11.2931
पाळीत	-11.2946
मित्र	-11.2949
vi	-11.2954
ce	-11.2955
जोडण्या	-11.297
रेन	-11.2971
यावा	-11.2979
वीस	-11.2988
पालकांना	-11.299
घेतो	-11.299
कोरोनाशी	-11.2996
बारावीच	-11.2998
गम	-11.3011
app	-11.3016
कमल	-11.3051
ing	-11.3051
रूम	-11.3057
६६	-11.3071
संशोधक	-11.3073
ॅक्स	-11.3078
उत्पाद	-11.3082
धोरणां	-11.3084
नसू	-11.3084
जवळच्या	-11.3096
ंबाबत	-11.3101
साधण्या	-11.3109
केश	-11.3111
खु	-11.3114
पुरुष	-11.3121
िस्त	-11.3123
संपल्या	-11.3127
ूट	-11.3139
रद	-11.3141
सीटी	-11.3158
देशभर	-11.3168
नसल	-11.3173
20	-11.3175
रूग्णालया	-11.3177
िण्यासाठी	-11.3179
sh	-11.3202
लर	-11.3203
राहण	-11.3208
कुठ	-11.3218
तेवढ	-11.3252
ट्विटरवर	-11.3252
ईल	-11.3254
रूग्णालय	-11.3258
वेब	-11.3258
आरंभ	-11.3261
वेदना	-11.3264
भव	-11.3268
मेड	-11.3271
यंत्र	-11.3271
de	-11.3274
(	-11.329
नवजात	-11.3291
रोधक	-11.3295
उचल	-11.3297
तज्ज्ञांच	-11.3313
नेत्यां	-11.3317
2,6	-11.332
्लम	-11.3322
रचना	-11.3324
छान	-11.3324
j	-11.3324
इंडस्ट्री	-11.3324
उस्मानाबाद	-11.3324
एंझाइम	-11.3324
कंटेनमे	-11.3324
काऊंट	-11.3324
किशोर	-11.3324
कोरोनील	-11.3324
क्लोरोक्वीन	-11.3324
टेड्रोस	-11.3324
तरतूद	-11.3324
नोटीस	-11.3324
पॅटर्न	-11.3324
लॉग	-11.3324
सक्रीय	-11.3324
सल्लामसलत	-11.3324
सोलापुरात	-11.3324
स्टॉर्म	-11.3324
स्प्रेडर	-11.3324
हायपोक्सिया	-11.3324
फिल्टर	-11.3324
फेडरल	-11.3324
लोकप्रिय	-11.3324
अंकित	-11.3324
एंटेर	-11.3324
जेनेटिक	-11.3324
तपशील	-11.3324
निरंजन	-11.3324
सवलत	-11.3324
सावधगिरी	-11.3324
ool	-11.3324
गंगा	-11.3324
व्हेंटिलेशन	-11.3324
आयएमए	-11.3324
पर्वा	-11.3324
क्लासेस	-11.3324
दिशेन	-11.3324
अल्प	-11.3324
एन्झा	-11.3325
नाकारता	-11.3325
मजब	-11.3325
शिफ्ट	-11.3325
श्वसनासंबंधी	-11.3326
नियुक्त	-11.3326
समुद्र	-11.3326
व्यवस्थापक	-11.3326
प्रगती	-11.3327
लाखांहून	-11.3328
ट्रेनिंग	-11.3328
सांगली	-11.3329
पै	-11.3329
प्रचारा	-11.333
रमेश	-11.333
वादा	-11.3331
पटींन	-11.3333
परजीव	-11.3333
वाचवण्यासाठी	-11.3335
थर	-11.3336
साठवण्यासाठी	-11.3336
किट्स	-11.3336
्विक	-11.3339
आठवण	-11.3339
खोकल्या	-11.3341
क्रो	-11.3341
ज्यांत	-11.3348
com	-11.3349
पुसू	-11.3351
▁¦55	-11.3352
घरातल्या	-11.3353
अनिश्चित	-11.3354
प्रत्यक्षात	-11.3356
वायू	-11.3361
नाईक	-11.3365
वयो	-11.3368
वापरण्यास	-11.3369
घटनां	-11.337
तपासण्यासाठी	-11.3372
सायं	-11.3374
यांच्यासोबत	-11.3375
घेताना	-11.3376
पोच	-11.3376
यलेट	-11.3378
एकटे	-11.3379
ट्रक	-11.3382
कोम	-11.3386
वर्धा	-11.3387
खरे	-11.3392
नोंदविल	-11.3395
तरच	-11.3399
सेने	-11.3401
आढळलं	-11.3406
बनला	-11.3407
निळ	-11.3414
आठवडा	-11.342
अकरा	-11.3425
रुग्णवाढी	-11.3425
ter	-11.3434
देशव	-11.3436
लसनिर्मिती	-11.3449
नसतं	-11.3455
▁¦34	-11.3461
दिसले	-11.3461
धारावीत	-11.3468
विद्यार्थ्या	-11.3468
नोंदव	-11.3471
ियम	-11.3472
धिकारी	-11.3478
काहींनी	-11.348
इस	-11.3481
nt	-11.3485
गाठ	-11.349
मिळतील	-11.3495
मिळाव	-11.3499
्मा	-11.3502
सेना	-11.3502
पुरे	-11.3508
श्वसनमार्गा	-11.3514
अॅड	-11.352
बनत	-11.3535
अडथळे	-11.3539
जागे	-11.3552
क्रू	-11.3572
नाश	-11.3575
उद्	-11.358
वास्तविक	-11.3582
खर	-11.3593
मास	-11.3593
यंत्रणेवर	-11.3595
धुता	-11.3608
४१	-11.3619
फुफ्फुसांत	-11.3631
देवी	-11.3635
साठ	-11.3652
कार्	-11.366
मुलांवर	-11.3668
साध्य	-11.3671
लाखां	-11.3677
ीक	-11.3682
जिल्हाधिकाऱ्यां	-11.3696
पिल	-11.3703
उद्योगा	-11.371
रुप	-11.3713
स्टे	-11.3717
ॅप	-11.3723
दोघां	-11.3728
नजर	-11.3738
पसरव	-11.3759
ूळ	-11.3763
वाडी	-11.3766
वर्षांखाल	-11.3779
गॅ	-11.38
स्वरुप	-11.3809
स्को	-11.3817
वंश	-11.382
जिवाणू	-11.3825
प्री	-11.3827
"	-11.3827
प्रथिनां	-11.3829
पाळा	-11.3839
ट्ट	-11.3841
स्वयंसेवकां	-11.3844
▁¦2.	-11.385
पडण	-11.3857
भरल्या	-11.3857
टीन	-11.3863
इम	-11.3872
टाकण्या	-11.3916
अपुर	-11.3918
आढळल	-11.3923
37¦	-11.3956
पोहोचत	-11.3969
समस्यां	-11.397
सांगितल	-11.3978
उदा	-11.3983
रस्त	-11.4002
000	-11.4005
कडील	-11.4007
नियमांच	-11.401
प्रवाश	-11.4014
स्टर	-11.4017
कालिक	-11.4022
वेस्ट	-11.4039
मुक	-11.4046
शेजारी	-11.4051
परिस्थितीमध्ये	-11.4064
३५	-11.4085
कन्	-11.4091
अर्ध	-11.4092
उत्पादनाच	-11.4093
नुक्रम	-11.4093
अलीकड	-11.4093
डिस	-11.4096
िक्स	-11.41
व्याप	-11.4105
दाखवत	-11.4107
परवड	-11.4128
आध	-11.4131
संयुग	-11.4132
व्हायर	-11.4134
क्रमा	-11.4141
व्हेल	-11.4143
गुणकारित	-11.4147
द्ध	-11.4148
प्रार्थना	-11.415
णेकर	-11.4152
मिळण्या	-11.4152
व्हेंटीलेटर	-11.4154
ांहून	-11.4156
द्राक्ष	-11.4158
नॉन	-11.4158
यवतमाळ	-11.4158
विश्वसनीय	-11.4158
mpsc	-11.4158
एऩ्फ्ल्युएऩ्झा	-11.4158
काटेकोर	-11.4158
किंग्डम	-11.4158
कोरोनिल	-11.4158
जर्नल	-11.4158
तामिळनाडू	-11.4158
तृतीयांश	-11.4158
निम्न	-11.4158
पतंजली	-11.4158
पुरस्कार	-11.4158
पेट्रोल	-11.4158
प्रोनिंग	-11.4158
भोजनालय	-11.4158
मल्टि	-11.4158
युनियन	-11.4158
रूपांतर	-11.4158
विष्ठे	-11.4158
संघर्ष	-11.4158
अगोदर	-11.4158
रशियन	-11.4158
सर्वोत्	-11.4158
परीक्षण	-11.4158
हक्क	-11.4158
धूम्रपान	-11.4158
उशिरा	-11.4158
स्टाफ	-11.4158
भेदभाव	-11.4158
समायोज	-11.4158
फेसबुक	-11.4158
लातूर	-11.4158
वयस्कर	-11.4158
शौचालय	-11.4158
जाणीव	-11.4158
निर्यातीवर	-11.4158
रेषा	-11.4158
एन्फ्लुएन्झा	-11.4158
nhs	-11.4158
गाईडलाईन्स	-11.4158
देणगी	-11.4159
डिग्र	-11.4159
रिक्षा	-11.4159
भाऊ	-11.4159
यूएस	-11.4159
वर्गीकरण	-11.416
बुक	-11.416
अधीन	-11.416
आशादाय	-11.416
बात	-11.416
ध्र	-11.416
आक्षेप	-11.416
थै	-11.416
मॉल्स	-11.416
एन्टीबॉडीज	-11.4161
घोषणे	-11.4161
अखिल	-11.4161
सुरत	-11.4161
नर्सिंग	-11.4162
सॅनिटा	-11.4162
नीट	-11.4164
▁¦47	-11.4164
याचिका	-11.4166
डोळ्यां	-11.4166
लशीकरण	-11.4167
लाखांपेक्षा	-11.4167
विकृती	-11.4167
विमानसेवा	-11.4168
कुम	-11.4172
बध	-11.4173
पाठवि	-11.4173
▁¦68	-11.4175
प्रपत्र	-11.4175
कापड	-11.4176
मिथ	-11.4177
कमिशन	-11.4179
दाहक	-11.418
सॅन	-11.4182
सुरुवातीपासून	-11.4183
बाह	-11.4183
दारू	-11.4184
प्रवेशासाठी	-11.4185
दुरुस्ती	-11.4187
ग्राहकां	-11.4189
शाळांमध्ये	-11.4192
उचलली	-11.4194
अंतरावर	-11.4194
येण्यास	-11.4197
आलो	-11.4201
नवाल	-11.4202
ers	-11.4202
जाण्यास	-11.4203
एवढ्या	-11.4203
आयसीयूमध्ये	-11.421
गार	-11.421
सरस	-11.4211
सचिन	-11.4212
शब्दा	-11.4212
पेट	-11.4212
ाशिवाय	-11.4212
अँपल	-11.4216
मुद्द्यांवर	-11.4219
उत्तेजन	-11.4223
आकड्यां	-11.4224
▁¦0.	-11.4228
विकेंद्र	-11.4229
कर्त्या	-11.4236
जोडले	-11.4241
राहिलं	-11.4243
सवय	-11.4247
सांगितल्या	-11.4247
आरक्षणा	-11.425
भाल	-11.425
स्वास्थ्य	-11.4251
मुली	-11.4253
तेव्हापासून	-11.4254
उंट	-11.4256
नसल्याच	-11.426
जनक	-11.4263
मजुरांन	-11.4266
इमारतीत	-11.4268
दर्शवत	-11.4271
कार्यस्थळ	-11.4271
साई	-11.4272
भरण्या	-11.4273
रिन	-11.4275
सूक्ष्मजीव	-11.4275
हजारपेक्षा	-11.4278
प्रशिक्ष	-11.4286
प्रदर्श	-11.4289
महिना	-11.4293
सोपा	-11.4302
सुश्रुष	-11.4306
पेशींना	-11.431
जमाव	-11.4325
कोरोनाविरोधात	-11.433
पान	-11.4332
मिळण	-11.4332
सिं	-11.4333
भाड	-11.4335
पंच	-11.4336
३३	-11.4336
ाळ	-11.4345
जीनसंच	-11.4349
ंबो	-11.4351
एन्	-11.4352
कॉन्	-11.4354
यकृत	-11.4354
धु	-11.4358
्यूट	-11.4361
देशांमध	-11.4361
कोट	-11.4362
pd	-11.4369
दाखवाव	-11.4371
िन्ह	-11.4378
रड	-11.438
पंतप्रधानांन	-11.4389
प्राण्यांवर	-11.4402
अर्	-11.4404
असलेल्यांना	-11.4409
रीड	-11.4424
तरूण	-11.4425
cov	-11.443
ेक्स	-11.4434
इतिहासा	-11.4436
नागरिकांचे	-11.4438
त्ता	-11.4439
जहाज	-11.445
्यामुळे	-11.4453
82	-11.446
पर्यटक	-11.4471
लॉजी	-11.4484
स्वीकारल	-11.4489
क्यु	-11.4504
संकल्पन	-11.4525
स्थळे	-11.453
नमुन्यात	-11.4554
१७	-11.4556
नसाव	-11.4562
क्षणी	-11.4562
ठरल	-11.4569
्टर	-11.4576
इमारती	-11.4584
84	-11.4591
साथरोगा	-11.4591
चि	-11.4596
ांकडे	-11.4608
चालक	-11.4618
उपक्रमा	-11.4619
बदललेल	-11.462
अडकले	-11.4621
एकल	-11.4627
बाजारपेठा	-11.4635
abc	-11.464
पसरल्या	-11.4646
सुन	-11.4646
६५	-11.4647
लोड	-11.4657
संशोधकां	-11.4661
राबव	-11.4672
बदलले	-11.4673
क्टिव्ह	-11.4705
हू	-11.4709
पोलिस	-11.4711
टेक	-11.4717
दळ	-11.4719
संत	-11.4731
बनवत	-11.4734
संमेलन	-11.4737
डेट	-11.4749
नेत्यांनी	-11.4757
आयोगाच	-11.4765
बोलल	-11.4771
जागरूकत	-11.4774
वलेल्या	-11.4777
प्राधान्यान	-11.4783
जीत	-11.4789
ानंद	-11.479
टाकण	-11.4808
कार्यक्रमात	-11.4813
प्रीत	-11.4818
घास	-11.4827
बदलण्या	-11.484
मिळवण	-11.4842
नसला	-11.4843
बालका	-11.4845
16	-11.4846
मुद	-11.4846
रहाण	-11.485
वाटण	-11.4852
दाखवल	-11.4853
मंत्र्यांना	-11.4855
्ती	-11.486
अड	-11.4862
दाव	-11.4879
fr	-11.4885
चालवत	-11.4892
सत्य	-11.4904
कूर	-11.491
उण	-11.491
ंद्र	-11.4916
रात्र	-11.4927
ोलॉजी	-11.4935
त्रि	-11.4937
ठेव	-11.4949
दव	-11.495
सांग	-11.4956
उत्त	-11.4957
कारणासाठी	-11.4961
रुग्णालयांत	-11.4963
खड	-11.4969
्यम	-11.497
19¦	-11.4974
रुमाल	-11.4979
मंत्रिमंडळ	-11.498
विमा	-11.4988
गिल	-11.4991
अत्य	-11.4994
च्च	-11.4995
वर्षभर	-11.4997
खात	-11.5001
गुंतागुंत	-11.5002
घाबर	-11.5013
मोनो	-11.5022
98	-11.5023
धारण	-11.5023
र्नि	-11.5035
धाप	-11.5043
समर्थ	-11.5048
पुरवल	-11.5064
डिस्टन्स	-11.5065
आश्चर्य	-11.5066
gov	-11.5067
डब्ल्यू	-11.5067
कंटेन्मेंट	-11.5067
टेंडर	-11.5067
पाठिंब	-11.5067
हरियाणा	-11.5067
अवस्थेत	-11.5067
आखाडा	-11.5067
आजूबाजू	-11.5067
इत्यादी	-11.5067
ऑक्सिमीटर	-11.5067
ऑडिट	-11.5067
केईएम	-11.5067
खेळाडू	-11.5067
गडचिरोली	-11.5067
जागरुक	-11.5067
तन्मय	-11.5067
थ्रू	-11.5067
नांदेड	-11.5067
निम्म्या	-11.5067
निरनिराळ	-11.5067
पारंपरिक	-11.5067
बांधिलकी	-11.5067
यादृच्छिक	-11.5067
रणनीति	-11.5067
रेणू	-11.5067
व्यत्यय	-11.5067
सीताराम	-11.5067
ावस्थेत	-11.5067
व्हिडीओ	-11.5067
समस्ये	-11.5067
डुकराच	-11.5067
मृत्युमुखी	-11.5067
हजेरी	-11.5067
▁¦2020-21	-11.5067
गुणवत्त	-11.5067
फूड	-11.5067
अॅडमिट	-11.5067
ओपन	-11.5067
वार्ता	-11.5067
पंढरपूर	-11.5067
याचिके	-11.5067
सस्तन	-11.5067
ह्युम	-11.5067
अकोला	-11.5067
आहार	-11.5067
घ्यावं	-11.5067
इबोला	-11.5067
रणनिती	-11.5067
ox	-11.5067
टर्मिन	-11.5067
एकट्या	-11.5067
दशकां	-11.5067
पंडीत	-11.5067
अफवा	-11.5068
कॅप्	-11.5068
शतका	-11.5068
तुलनात्मक	-11.5068
ठरविण्या	-11.5068
टूथ	-11.5068
स्त्रीरोगतज्ज्ञ	-11.5068
सभागृह	-11.5069
चॅन	-11.5069
कुठलं	-11.5069
झटक	-11.5069
बीपी	-11.507
घातलेल्या	-11.5071
बर्ग	-11.5071
आग्रह	-11.5071
सायटोकीन	-11.5071
ओढ	-11.5071
भांड	-11.5072
वैश	-11.5072
सौर	-11.5073
देह	-11.5075
फेरी	-11.5076
गेम	-11.5077
no	-11.5078
तुट	-11.5078
ंकन	-11.5083
छोटे	-11.5083
इलेक्ट्रॉनिक	-11.5084
हॉटेल्स	-11.5085
श्च	-11.5087
रांग	-11.5088
फ्रेम	-11.5089
ग्राही	-11.5089
झि	-11.509
विषयावर	-11.5091
दिवसांनंतर	-11.5091
प्रमाणपत्र	-11.5093
lr	-11.5094
प्रतिकारक	-11.5096
संसदे	-11.5099
लशीसंदर्भात	-11.5101
प्रोट	-11.5105
ाबरोबर	-11.5111
ह्याबद्दल	-11.5111
संगत	-11.5113
सौ	-11.5113
राहण्यास	-11.5115
मध्यभाग	-11.5117
पोहोचवण्या	-11.5119
ल्ला	-11.5121
सेर	-11.5121
पक्ष्यां	-11.5124
पूर्वज	-11.5126
खरा	-11.5126
नॅ	-11.5127
शिकवण्या	-11.5128
ऑल	-11.513
टाळत	-11.513
वाढवणार	-11.5131
वर्गाला	-11.5132
चरण	-11.5135
थोडे	-11.5138
वापरावे	-11.5142
ट्रि	-11.5143
पूर्वप	-11.5147
ढकलल्या	-11.5148
नळी	-11.5149
आणाव	-11.5157
असुरक्षित	-11.5159
विचारले	-11.5161
सकाळ	-11.5161
लॉकडाऊनबाबत	-11.5163
उत्तम	-11.5163
राहिलेल	-11.5163
घडव	-11.5166
वाहत	-11.5168
वाढविण्या	-11.5181
रुण	-11.5184
जेट	-11.5204
घन	-11.5215
एवढं	-11.5218
आणल्या	-11.5224
sa	-11.5231
ad	-11.5232
उघडी	-11.5238
झालीय	-11.5239
संपला	-11.5239
लसींच	-11.5241
गाड्या	-11.5253
पडलेल्या	-11.5254
कार्यपद्धती	-11.5267
पसरण्या	-11.5269
ha	-11.5274
ओळखता	-11.5281
जावी	-11.5294
सूर	-11.5298
ठेवल्या	-11.5299
गड	-11.5304
कळत	-11.5324
अभ्यासांत	-11.5337
टर्स	-11.5339
फुल	-11.5346
ंप	-11.537
ॅम	-11.5373
निकष	-11.5375
नातेवाईकां	-11.5378
ca	-11.5381
राहात	-11.5383
गोष्टींवर	-11.5386
मस	-11.5388
यापेक्षा	-11.5395
क्षेत्रांत	-11.5406
10-1	-11.5411
पोर्ट	-11.5412
म्ह	-11.5413
▁¦41	-11.5415
तीव्रतेन	-11.5417
बिघड	-11.5419
अल्	-11.5422
भागावर	-11.5436
आत्ता	-11.5448
असाव	-11.5448
मानता	-11.5449
हृदयविकार	-11.5452
रोगनिदान	-11.5469
गटां	-11.5471
९८	-11.5472
चिंते	-11.5476
fi	-11.5477
एड	-11.5477
इमारतीं	-11.5482
कमतरते	-11.5486
पोहोचले	-11.5489
आगीत	-11.5495
iv	-11.5507
रसायन	-11.5509
oc	-11.5527
नोव्ह	-11.5533
मनुष्यबळ	-11.5538
...	-11.5539
निमित्त	-11.5556
माई	-11.556
योजनेत	-11.5574
वेध	-11.5596
जिन	-11.5614
थोरा	-11.5622
दक्षत	-11.564
चोळ	-11.5647
संभव	-11.5663
ड्स	-11.5675
बैठका	-11.568
साइड	-11.5683
सेन	-11.5698
तीच	-11.5698
वाजल्या	-11.5704
उंटा	-11.5722
प्रभावीपण	-11.5726
बनवल	-11.5729
तशा	-11.5774
प्रकल्पां	-11.5786
बोटां	-11.5803
ल्ल	-11.5803
ृ	-11.5808
सत्र	-11.5813
नावे	-11.5818
pt	-11.582
काढण	-11.5823
बऱ्या	-11.5828
25	-11.583
en	-11.5831
ोले	-11.5837
थोड	-11.5842
पर्यटकां	-11.5845
म्हण	-11.5855
खं	-11.5855
वाढीव	-11.5864
जुन	-11.5882
श्र	-11.5891
ग्ल	-11.59
शास्त्रज्ञां	-11.5901
दवाखान	-11.5901
11	-11.5907
०२	-11.591
४२	-11.592
ालय	-11.5924
िअर	-11.594
िअल	-11.5941
ल्प	-11.5944
घाला	-11.5949
कृ	-11.5966
टक्क	-11.597
सल्ल	-11.5972
प्रो	-11.5976
बालरोगतज्ज्ञ	-11.598
पाठवा	-11.598
ाइल	-11.5983
शिवसेन	-11.5989
प्रतिरोध	-11.5991
धरल	-11.5997
ांतील	-11.5997
वर्ध	-11.6007
घेतल्यावर	-11.6014
हायकोर्टा	-11.6029
चालवण्या	-11.6029
मॉल	-11.6035
ांतून	-11.6043
69¦	-11.6044
शहरांत	-11.6047
मित्रा	-11.6051
निर्मात	-11.6058
ut	-11.6058
श्व	-11.606
हिंद	-11.6062
विमानतळ	-11.6065
ऋ	-11.6066
बुद्धी	-11.6066
गुरू	-11.6067
ब्राँक	-11.6067
मॉनिटर	-11.6067
<	-11.6067
अपेक्षे	-11.6067
अरेबिया	-11.6067
अहमदाबाद	-11.6067
क्रीडा	-11.6067
डिझाइन	-11.6067
डिस्चार्ज	-11.6067
नागपुरात	-11.6067
नोकऱ्या	-11.6067
नोवाव्हॅक्स	-11.6067
फेलुदा	-11.6067
बास्केटबॉल	-11.6067
भाईंदर	-11.6067
महसूल	-11.6067
रिव्हर्स	-11.6067
वडेट्टीवार	-11.6067
वीकेंड	-11.6067
सांख्यिकी	-11.6067
सेल्सिअस	-11.6067
सेल्सियस	-11.6067
≥	-11.6067
▁¦7,162	-11.6067
व्याख्या	-11.6067
टंचाई	-11.6067
फॉलो	-11.6067
मल्टी	-11.6067
म्हटल्या	-11.6067
समांतर	-11.6067
भौतिक	-11.6067
डोमेन	-11.6067
for	-11.6067
फॉर्म्युल	-11.6067
वॉशरूम	-11.6067
ष्टाचार	-11.6067
ज्वल	-11.6067
समाप्त	-11.6067
मेळाव	-11.6067
तितकं	-11.6067
नुषंग	-11.6067
उमट	-11.6067
ग्रुप	-11.6067
स्नान	-11.6067
कोसळल	-11.6067
ग्राफ	-11.6067
घातला	-11.6067
मशीन	-11.6067
ww	-11.6067
पार्टमेंट	-11.6067
भागवत	-11.6067
▁¦2018	-11.6067
पुढा	-11.6068
एरवी	-11.6068
प्रॅक्टिशनर्स	-11.6068
घशात	-11.6068
रिझ	-11.6068
संभ्रम	-11.6068
हाऊस	-11.6068
अन्वेषण	-11.6068
यंत्रमाग	-11.6068
पूजा	-11.6068
ठेवायला	-11.6068
रस्त्यांवर	-11.6068
संरचना	-11.6069
परराष्ट्र	-11.6069
मेडीक	-11.6069
विमानतळावर	-11.607
उंदरा	-11.607
शिकत	-11.607
टाईम्स	-11.607
प्रश्नचिन्ह	-11.607
हिंदू	-11.607
वृत्तपत्र	-11.607
जमिनी	-11.6071
२०१९	-11.6072
संक्रामक	-11.6072
कवच	-11.6072
ब्लु	-11.6072
ठेवली	-11.6073
विक्रम	-11.6073
टप्या	-11.6073
hc	-11.6074
एसीई	-11.6074
मतदार	-11.6075
कायदेशीर	-11.6075
प्रार्थनास्थळ	-11.6076
▁?'	-11.6077
हातमोज	-11.6077
लिंड	-11.6077
व्यायामशाळा	-11.6077
छोटा	-11.6078
रेड्डीज	-11.6078
पोहोचवल	-11.6079
क्कर	-11.6079
ाईव्ह	-11.6079
▁?"	-11.608
िधान	-11.6086
शोधकार्य	-11.6086
गरजूं	-11.6086
संघराज्य	-11.6087
मुळात	-11.6087
निघालेल	-11.6088
नखां	-11.6088
वापरकर्त्यां	-11.6089
केअर्स	-11.6091
मंडळ	-11.6092
टळ	-11.6095
विभागाकडून	-11.6096
आयसी	-11.61
घेतल्याचं	-11.61
मंड	-11.6102
परवडणार	-11.6102
गणित	-11.6103
झोपडपट्टी	-11.6104
कारखान्यां	-11.6108
वै	-11.6109
जंगलात	-11.6109
घटली	-11.6109
पकड	-11.611
हलक	-11.612
मुदत	-11.6121
▁¦3.	-11.6123
पुरवणार	-11.6124
धीर	-11.6126
चालत	-11.6127
ट्विटमध्ये	-11.6128
रेखा	-11.613
शोधले	-11.6133
केंद्रांवर	-11.6139
ांबद्दल	-11.6141
पूर्वीपेक्षा	-11.6145
मागण्या	-11.6149
साठे	-11.6153
नीती	-11.6161
87	-11.6162
परिणामकारकतेच	-11.6165
ट्विटर	-11.6177
▁¦6.	-11.6178
तै	-11.6178
एवढे	-11.618
कडा	-11.6181
शिंग	-11.6183
शिं	-11.6195
लाखांच्या	-11.6199
मनसे	-11.6204
▁¦36	-11.6205
उद्भवणार	-11.621
नळ	-11.621
पाहिल्या	-11.6218
प्रचारसभां	-11.6219
धुवावे	-11.6222
उचलण्या	-11.6237
दाव्या	-11.6242
मुलांचे	-11.625
समा	-11.6253
77¦	-11.6262
बाग	-11.6263
बँके	-11.6265
बनवलेल	-11.6296
रम	-11.6301
बिघडत	-11.6303
63¦	-11.6309
३२	-11.631
निवडणुकीत	-11.6317
मुलीं	-11.6318
जाणवू	-11.6327
कव्हर	-11.6328
प्ले	-11.6333
न्ना	-11.6346
मोजाव	-11.6349
आदिवासीं	-11.6351
त्यासोबत	-11.6366
सेवक	-11.637
लिज	-11.637
गमाव	-11.6373
नातेवाईकांन	-11.6383
il	-11.6384
म्हणण्या	-11.6385
वाडा	-11.6391
आरोग्याची	-11.6394
▁¦11.	-11.6401
हेरी	-11.6401
घासण्या	-11.6407
शकला	-11.6414
ळणी	-11.6418
नेमके	-11.642
▁¦8.	-11.6421
सापडत	-11.6422
बारा	-11.6424
2019-	-11.6424
समजा	-11.6446
रोल	-11.6447
फायझरच्या	-11.6462
ci	-11.6482
पदव	-11.6483
चौक	-11.6484
संसर्गासाठी	-11.6485
जोरा	-11.6489
सक्ती	-11.649
बोलू	-11.6498
यासारख्या	-11.6501
वाहतुकीवर	-11.6514
पुरवत	-11.6516
ज्यु	-11.6522
५४	-11.6522
z	-11.6523
सातव	-11.6551
महाविद्यालयात	-11.6564
स्वयंसेवक	-11.6569
क्यात	-11.6577
इतिहासात	-11.6597
दाखवले	-11.6602
आफ्रिके	-11.6608
हंगामा	-11.6614
फुट	-11.6615
rh	-11.6616
धान्य	-11.6624
ज्य	-11.6634
्टी	-11.665
सहन	-11.6651
जिल्हाधिकाऱ्यांन	-11.6655
बसू	-11.6668
कार्यालयात	-11.6669
निर्देशां	-11.667
पोहचल	-11.6671
नसले	-11.6674
निश	-11.6679
उग	-11.6689
सूचनांच	-11.6691
रचनात्मक	-11.6695
'	-11.6696
रोगाच	-11.6705
रोगनिदाना	-11.6717
दाह	-11.6739
उमेदवारां	-11.6741
ाईज	-11.6744
कार्यक्रमांच	-11.6758
टु	-11.6763
.3	-11.6766
पहा	-11.6777
थेंब	-11.6799
ूपर	-11.6806
ib	-11.6817
हिरा	-11.6837
दिवसांपूर्वीच	-11.6845
सुविधांच	-11.6845
वाढवत	-11.6858
ठरल्याच	-11.6861
वटवाघळां	-11.6893
उद	-11.6901
श्वसनमार्गात	-11.6909
id	-11.6916
dp	-11.6919
असामान्य	-11.6924
हँड	-11.6924
स्क्	-11.6935
आस्थापना	-11.6945
ओक	-11.6949
काढता	-11.6955
मंद	-11.696
वणी	-11.697
धुव	-11.6972
सापडल	-11.6979
le	-11.6984
भाषण	-11.6986
परिसर	-11.7002
८८	-11.7009
लाईन	-11.7025
पूर्त	-11.7031
स्टॅ	-11.7033
डॅशबोर्ड	-11.7046
राबवल	-11.7065
हिवाळ	-11.7065
श्वसनयंत्र	-11.7067
माण	-11.7067
निर्बंधांच	-11.707
सुचवत	-11.7075
९५	-11.7077
कार्यस्थळा	-11.7083
सीए	-11.7092
अभिन	-11.7094
जर्मन	-11.71
निर्मित	-11.7113
निवेदन	-11.7115
ोडल	-11.7118
डिया	-11.7123
शाह	-11.7128
13	-11.7128
प्रकारात	-11.7135
द्राव	-11.7137
ion	-11.7144
मोहिम	-11.7147
रस्त्या	-11.715
ांविषयी	-11.7163
ठेवू	-11.7165
मंत्र	-11.7166
मावेश	-11.7169
कार्यान	-11.717
दिसतो	-11.7172
दिसल्या	-11.7173
घातले	-11.7173
जॉन	-11.7174
टाईम	-11.7174
क्टर	-11.7175
सावध	-11.7176
ard	-11.7176
जनुक	-11.7177
मोनिया	-11.7177
पार्श्वभूम	-11.7177
यॉर्क	-11.7177
श्ले	-11.7178
coronavirus	-11.7178
विशाखा	-11.7178
अॅस्ट्राझेनेका	-11.7178
आदर्श	-11.7178
एसओपी	-11.7178
कसोटी	-11.7178
कॅबिनेट	-11.7178
ग्रामपंचायत	-11.7178
टोनावीर	-11.7178
थोपव	-11.7178
नारळीकर	-11.7178
पर्यावरण	-11.7178
फिटनेस	-11.7178
रुग्णवाहिक	-11.7178
श्वसननलिके	-11.7178
सत्ताधा	-11.7178
>	-11.7178
lock	-11.7178
news	-11.7178
अमिनो	-11.7178
इंटेन्सिव्ह	-11.7178
ऑपरेशन	-11.7178
ओपीडी	-11.7178
कॅन्सर	-11.7178
कॉकेटल	-11.7178
घेब्रेयेस	-11.7178
टॅग	-11.7178
डायरेक्ट	-11.7178
डिलीव्हरी	-11.7178
पुनरावलोकन	-11.7178
फाउंडेशन	-11.7178
बिघाड	-11.7178
भंडार	-11.7178
भुजबळ	-11.7178
व्हेन्टिलेटर	-11.7178
शवविच्छेदन	-11.7178
शिवजयंती	-11.7178
शुभेच्छा	-11.7178
सव्वा	-11.7178
सुविधे	-11.7178
सैनिक	-11.7178
स्क्रीन	-11.7178
स्पर्धा	-11.7178
ॉक्सीक्लोरोक्वीन	-11.7178
दुःख	-11.7178
नपुंसक	-11.7178
बाटली	-11.7178
श्मी	-11.7178
सुलभ	-11.7178
अधिग्रह	-11.7178
स्पेशल	-11.7178
लिक्वि	-11.7178
शल्यचिकित्सक	-11.7178
स्वित्झर्लंड	-11.7178
मेडिसीन	-11.7178
ईमेल	-11.7178
रिसेप्टर	-11.7178
स्वामी	-11.7178
कोंडी	-11.7178
mit	-11.7178
ट्यूब	-11.7178
अडीच	-11.7178
टप्प्याटप्प्यान	-11.7178
प्रोटीज	-11.7178
कॅनेड	-11.7178
मजल्यावर	-11.7178
बुड	-11.7178
अनुप्रयोग	-11.7178
जेवढ	-11.7178
सरपंच	-11.7178
वैध	-11.7179
नववर्षाच	-11.7179
राष्ट्रपती	-11.7179
epi	-11.7179
bat	-11.7179
मापन	-11.7179
इटाल	-11.7179
रायबो	-11.7179
कमिटी	-11.7179
सूर्य	-11.7179
डिस्ट्र	-11.718
लॅट	-11.718
विरूद्ध	-11.718
कुपी	-11.718
प्रतिक्रिये	-11.718
सोमा	-11.718
सिद्धांत	-11.718
घडले	-11.718
अँड्र	-11.718
कारखान्यात	-11.7181
सायकलींच	-11.7181
कोलकात	-11.7181
विसरू	-11.7182
हेल्थकेअर	-11.7182
मायन	-11.7182
med	-11.7182
we	-11.7182
नंदान	-11.7182
रोगकारक	-11.7182
जहाजावर	-11.7183
लावायच	-11.7183
▁¦71	-11.7183
पडणाऱ्या	-11.7183
स्पॅ	-11.7183
सायटोक	-11.7184
0,000	-11.7186
मिळणाऱ्या	-11.7186
डॉलर्स	-11.7186
▁¦44	-11.7186
षण	-11.7187
विचित्र	-11.7189
दुध	-11.7189
कॅम्प	-11.7189
थुंकी	-11.7189
लिहिलेल	-11.7189
ठाम	-11.7189
श्रेय	-11.719
मै	-11.719
वाग	-11.7191
कायदे	-11.7191
प्रसारमाध्यमां	-11.7192
जीवनावश्य	-11.7192
अभ्यासक्रम	-11.7192
शांत	-11.7193
एप	-11.7193
म्प	-11.7194
जाहिर	-11.7194
एक्सप	-11.7197
आरोग्यसेवक	-11.7197
टँकर्स	-11.7197
पावलेल्या	-11.7198
स्मशानभूमीत	-11.7198
चूक	-11.72
नाकारल	-11.7202
तरुणांना	-11.7205
स्टेटस	-11.7209
प्रेश	-11.721
यावह	-11.7211
▁?;	-11.7211
लसीकरणानंतर	-11.7213
रूपात	-11.7215
तत्वां	-11.7217
जखमी	-11.7218
स्तान	-11.7219
लिटर	-11.7219
काणी	-11.7219
सेफ	-11.7224
आयुष्यात	-11.7224
एफ	-11.7224
्वित	-11.7225
दाट	-11.7226
हजारांवर	-11.7226
नुकत्या	-11.7229
भरण्यासाठी	-11.723
मीरा	-11.7232
पाठवण्यासाठी	-11.7233
स्त्री	-11.7234
येण्यासाठी	-11.7235
उत्पादनासाठी	-11.7238
संचार	-11.7238
▁¦38	-11.7242
कळवले	-11.7244
अनेकजण	-11.7245
पडतो	-11.7248
उद्रेकास	-11.7251
अपुरा	-11.7253
वैज्ञानिकांन	-11.7255
सराव	-11.7259
आणून	-11.7259
व्यास	-11.7262
फारशी	-11.7268
लॅबमध्ये	-11.7269
त्वर	-11.7269
म्हणाव	-11.7275
मिनी	-11.7276
उभा	-11.7276
बाजूने	-11.7277
आधीपासून	-11.7281
अधान	-11.7281
lle	-11.7281
उद्भवलेल	-11.7287
वादात	-11.7289
आजारपणा	-11.729
कोरिय	-11.729
ब्रे	-11.7291
लाइन	-11.7296
निर्णयावर	-11.7299
उपक्रमात	-11.7315
रेम	-11.7315
पसरणार	-11.7316
कार्यकर्त्यां	-11.7327
दमा	-11.7328
ृष्ट	-11.7343
स्टेज	-11.7358
ाऊंड	-11.7362
निष्कर्षां	-11.7369
कामाची	-11.7381
चुकीचा	-11.7381
ल्ट	-11.7388
सांगण	-11.7393
उद्योगां	-11.7396
भाषणात	-11.74
देखरेखी	-11.7405
अग्निसुरक्ष	-11.741
प्रांता	-11.7412
स्टील	-11.7414
ऐकल	-11.7416
करण्याशी	-11.7424
५२	-11.7425
▁¦56	-11.7426
आणखीन	-11.7427
▁¦150	-11.744
हँडल	-11.7443
गह	-11.7443
पद्धतीचा	-11.7447
ावरुन	-11.7466
▁¦2015	-11.7473
isc	-11.7473
कोव्हॅक्सिनला	-11.7476
2-	-11.7478
खुला	-11.748
म्युनिटी	-11.7486
महाग	-11.7487
कलर	-11.749
ir	-11.7491
पीक	-11.7497
सशक्त	-11.7498
▁¦32	-11.7512
िक्यु	-11.7512
थांबल	-11.7512
शकले	-11.752
35	-11.7522
जीवघेण	-11.7524
बातम्यां	-11.7531
मिळे	-11.7537
गृहविलगीकरण	-11.7545
यावर्षी	-11.755
स्थितीसाठी	-11.7558
व्यापाऱ्यां	-11.7559
ॅटिक	-11.7562
त्रे	-11.757
ठार	-11.7596
्युल	-11.76
साधनांच	-11.7607
क्व	-11.7608
धडपड	-11.7611
मोल	-11.7627
di	-11.7629
उघड्या	-11.7647
आंतरक्रिय	-11.7655
घालाव	-11.7657
स्त्रिया	-11.7672
टिकव	-11.7684
णि	-11.7698
थोर	-11.7702
-10	-11.7723
रिप	-11.773
-7	-11.7746
असोसिएशनच	-11.7778
मित्रां	-11.7778
वृद्धा	-11.7787
हालचाली	-11.7819
उभारल	-11.783
os	-11.7853
करण्याआधी	-11.7869
बसल्या	-11.7872
मागवल	-11.7875
चिंतेच	-11.7882
वाचू	-11.7962
ग्रह	-11.7972
कक्षात	-11.8
निकषां	-11.8014
व्हर्	-11.8018
क्षेप	-11.8023
मजुरां	-11.8025
उतरले	-11.8027
वाचवण्या	-11.8063
शिक्षकांच	-11.8067
उपायांच	-11.807
ावटी	-11.8071
आदिवासी	-11.8079
45	-11.8085
आणता	-11.8091
बघा	-11.8102
५८	-11.8107
पुराव्या	-11.8108
बड	-11.8119
कर्मचाऱ्या	-11.814
सुरक्षेच	-11.816
विष	-11.817
८०	-11.8171
hs	-11.8192
प्रवर्ध	-11.8199
घडत	-11.8211
▁¦1201	-11.8219
वृ	-11.8225
व्यवस्थेवर	-11.8231
वाढवू	-11.8231
संघटनेन	-11.8232
तुषार	-11.8234
दृष्टीकोना	-11.8234
उत्पादकांन	-11.8237
पोषण	-11.8252
७३	-11.8261
tr	-11.8266
लक्षांत	-11.8283
आरक्षण	-11.8289
ेन्शन	-11.8295
कळवल	-11.8297
पुरवठ्यात	-11.8318
प्रेर	-11.8329
स्त्र	-11.8366
हिमा	-11.8367
संयोज	-11.8367
टप्प्यावर	-11.837
गृही	-11.8372
आणू	-11.8375
ईड	-11.8379
शिकवण	-11.8387
73¦	-11.8389
–	-11.8393
‘	-11.8394
िपल	-11.84
जिल्ह्यांच	-11.8403
मेट	-11.841
वापरकर्त्या	-11.8414
म्हणू	-11.8415
विमानां	-11.8417
उद्ध	-11.842
गिरी	-11.8422
ँटी	-11.8423
एन्टीबॉडी	-11.8424
ट्रान्स	-11.8426
वैद्यक	-11.8426
खळ	-11.8427
ट्रीट	-11.8428
फॉर्म	-11.8428
ग्रंथी	-11.8428
आपोआप	-11.8428
नाट्यगृह	-11.8428
मॅन्युफॅक्चर	-11.8428
शॉप	-11.8428
corona	-11.8428
अस्वस्थ	-11.8428
आशिष	-11.8428
ऑपरेटि	-11.8428
कोंबड्या	-11.8428
त्रिसूत्री	-11.8428
दौऱ्या	-11.8428
नियतकालिका	-11.8428
नोकरदार	-11.8428
शिबिर	-11.8428
सगळा	-11.8428
सांभाळ	-11.8428
ोल्युशन	-11.8428
+	-11.8428
down	-11.8428
vaccin	-11.8428
अनुवांशिक	-11.8428
अभियांत्रिकी	-11.8428
असोशिएशन	-11.8428
अॅसिड	-11.8428
अॅस्ट्राझेनिका	-11.8428
आरबीडी	-11.8428
आरोग्यसेविका	-11.8428
इनहिबिटर	-11.8428
इन्फ़्लुएन्झा	-11.8428
उत्सव	-11.8428
एक्स्प्रेस	-11.8428
काउंसिल	-11.8428
क्रिटिकल	-11.8428
ग्रंथालय	-11.8428
छत्तीसगड	-11.8428
जीएसटी	-11.8428
जीवनसत्व	-11.8428
ञ	-11.8428
टिप्पणी	-11.8428
ड्रोमेड	-11.8428
दुष्काळ	-11.8428
निविदा	-11.8428
निष्पत्ती	-11.8428
पारंपारिक	-11.8428
बदनाम	-11.8428
मलेशिया	-11.8428
मल्टिमिडीय	-11.8428
माणुसकी	-11.8428
मानसोपचार	-11.8428
मोबाइल	-11.8428
रिसॉर्ट	-11.8428
रेकॉर्ड	-11.8428
लायब्ररी	-11.8428
लिमिटेड	-11.8428
लॅन्सेट	-11.8428
वर्णद्वेष	-11.8428
सर्टिफिकेट	-11.8428
स्टॉक	-11.8428
ह्रदयवाहिक	-11.8428
टाईप	-11.8428
पोलाद	-11.8428
पन्नास	-11.8428
रुपांतर	-11.8428
जैन	-11.8428
अग्नी	-11.8428
इराक	-11.8428
निर्वाण	-11.8428
अंत्यविधी	-11.8428
सोर्स	-11.8428
फ्ल्यु	-11.8428
मंदिरा	-11.8428
ओलसर	-11.8428
प्रसंग	-11.8428
व्हिटॅमिन	-11.8428
cmr	-11.8428
संमती	-11.8428
वगैरे	-11.8428
कन्टेन्	-11.8428
फार्मास्युटिकल	-11.8428
अंतः	-11.8428
सॅम्पल	-11.8428
ब्रायन	-11.8428
बॅच	-11.8428
रक्तद्रव्य	-11.8428
सर्व्हिसेस	-11.8428
ड्युटी	-11.8428
पोखर	-11.8428
म्युटे	-11.8428
सुरवातीला	-11.8428
घोळ	-11.8428
फिल्ड	-11.8429
विश्व	-11.8429
आणायच	-11.8429
कोणतं	-11.8429
संरचने	-11.8429
योगदान	-11.8429
चाललं	-11.8429
सुनावल	-11.8429
औषधोपचार	-11.8429
ट्रीक	-11.8429
साईट	-11.8429
ट्रान्सक्रिप्	-11.8429
६००	-11.8429
▁¦2013	-11.8429
अभिमान	-11.8429
राबवि	-11.843
धुतले	-11.843
ठोक	-11.843
लिंक	-11.843
दुर्बल	-11.843
बालपणात	-11.843
विक्रेत्यां	-11.843
प्रशांत	-11.843
घडली	-11.843
यंका	-11.843
प्राधान्यक्रम	-11.8431
टॉवेल्स	-11.8431
ससून	-11.8431
क्युबे	-11.8431
फिरणाऱ्या	-11.8431
तिकिट	-11.8431
आयव्ही	-11.8431
टाइड	-11.8431
कल्पि	-11.8431
hiv	-11.8431
एमडी	-11.8432
ck	-11.8432
अॅम्ब्युलन्स	-11.8432
ima	-11.8432
वंशप्रकार	-11.8432
थोडासा	-11.8432
भाषेत	-11.8433
गमावलेल्या	-11.8433
लपव	-11.8433
पंप	-11.8433
प्रतिक्ष	-11.8433
श्वसनाच	-11.8433
आच्छादित	-11.8434
पसंत	-11.8434
शांतता	-11.8435
िशिष्ट	-11.8436
एचओ	-11.8436
▁¦2,	-11.8436
ऑक्	-11.8436
सिव्हि	-11.8436
▁):	-11.8437
म्हणायच	-11.8437
संवर्धन	-11.8437
ाधार	-11.8437
um	-11.8438
डिस्प	-11.8438
जॅक	-11.8438
निर्धार	-11.8439
घेण्यापूर्वी	-11.8439
काउंट	-11.8439
७७	-11.8439
उपजिल्हा	-11.844
टर्म	-11.8441
फ्युज	-11.8442
मेघ	-11.8442
टास्कफोर्सचे	-11.8442
संबोधले	-11.8443
विषयांवर	-11.8443
इफेक्ट्स	-11.8444
वसंत	-11.8444
विकि	-11.8449
दुखापती	-11.8449
उघडली	-11.8449
पल्ल्या	-11.845
करावया	-11.845
रोगजंतू	-11.8451
प्रसुती	-11.8455
सापडल्या	-11.8456
तोष	-11.8457
सचिवांनी	-11.8458
निवार	-11.8462
बनावटीच	-11.8462
रिपोर्ट्स	-11.8463
बजावल	-11.8463
उपचारपद्धती	-11.8465
मिळाल्याचं	-11.8467
प्रीम	-11.8469
सेवेशी	-11.8472
लिहित	-11.8472
इंजेक्शन्स	-11.8474
लागल्याचं	-11.8475
▁¦2.4	-11.8475
पंड	-11.8477
हायकोर्टात	-11.8477
ियाल	-11.8478
लावावे	-11.8482
ईद	-11.8482
त्यासंबंधी	-11.8485
घटकांना	-11.8487
भागीदारी	-11.849
कर्जत	-11.8497
अडचणीं	-11.8497
संलक्षण	-11.8498
वेगळेपण	-11.8499
ठरवाव	-11.8499
त्यातले	-11.8501
चिड	-11.8502
सांगणार	-11.8507
माळ	-11.8507
कौ	-11.851
खेड	-11.8511
लोकसंख्येचं	-11.8513
शैले	-11.8513
नातेवाईकांच्या	-11.8516
रायन	-11.8517
साठवण्या	-11.8518
नवरा	-11.8521
जणीं	-11.8521
सूचव	-11.8521
प्रौढा	-11.8524
ाणू	-11.8527
तिकड	-11.8527
विण	-11.8528
लेखन	-11.8529
सुश्रुषे	-11.8532
आरंभी	-11.8533
गुंतलेल	-11.8537
औषधनिर्माण	-11.8537
सिनेमात	-11.854
वर्तनात	-11.8546
ऑफिसमध्ये	-11.8546
पीडि	-11.8549
एकमत	-11.8551
ेनिया	-11.8555
ट्रायलमध्ये	-11.8558
व्हेन	-11.8561
न्यायालयात	-11.8568
अतिसारा	-11.857
जनतेसाठी	-11.857
ण्यापूर्वी	-11.8571
सापडला	-11.8571
प्रौढां	-11.8572
ve	-11.8575
कोरोनाविरुद्ध	-11.8576
ly	-11.8584
प्रिव्हे	-11.8591
पाळण्याच	-11.8597
व्हेक्टर्	-11.8599
बायोटेकने	-11.8604
पत्रकात	-11.8606
खेळाच	-11.8612
pti	-11.8618
डोसनंतर	-11.862
प्रवाह	-11.8622
वायु	-11.8627
बॅग	-11.8637
आणत	-11.8639
गोट	-11.8649
स्ट्रो	-11.8653
▁¦10.	-11.8653
कळव	-11.8659
तज्ञां	-11.8663
त्याबाबत	-11.8663
पद्धतींच	-11.8666
थांबवू	-11.8673
मजुरांच	-11.8676
ट्रेस	-11.868
पाकिस्तानात	-11.8682
्टाईन	-11.8686
सागरी	-11.8688
ओळखण	-11.8691
नासा	-11.8698
डाळ	-11.87
६८	-11.8703
दृ	-11.8711
वळण	-11.8711
सिस्ट	-11.8712
her	-11.8718
बोरि	-11.8721
वॉर्डात	-11.874
भया	-11.8755
मह	-11.876
पिट	-11.877
औषधांच	-11.8774
फायद्या	-11.878
रडत	-11.8782
रुम	-11.8787
जाणकार	-11.8788
बनले	-11.8791
प्रेस	-11.8796
व्हॅन्टिलेटर	-11.8798
40	-11.8809
िब	-11.8828
अलक्षण	-11.8836
मधुमेहा	-11.885
ूष	-11.8852
प्रत्यारोप	-11.886
चालवल	-11.8871
hi	-11.8893
घालव	-11.89
अध्ययनां	-11.8921
नियंत्रक	-11.8931
ढकल	-11.894
▁¦58	-11.8942
ाइड	-11.8945
जिवाणूंच	-11.896
म्स	-11.8962
घेऊया	-11.8962
गण्य	-11.8967
खाऊ	-11.8974
▁¦4000	-11.8991
उघडल्या	-11.8993
८२	-11.9007
नदी	-11.9014
वक्तव्या	-11.9017
▁¦3,	-11.904
उठ	-11.9054
60	-11.9068
ab	-11.9074
काढाव	-11.9098
७२	-11.9105
परतल्या	-11.9124
प्रांतात	-11.9124
द्रावणा	-11.9127
टोक	-11.9139
51	-11.9151
फिरता	-11.9153
कळविले	-11.9155
गोर	-11.916
ne	-11.9167
ढकलण्या	-11.9176
ळण्या	-11.9178
an	-11.9182
जंतूनाश	-11.9184
एमआय	-11.9189
सेरोलॉज	-11.9194
गमावल	-11.9197
ह्रदयाच	-11.9199
हृदयविकाराच	-11.9265
वटवाघूळ	-11.9272
महाराजांच	-11.9287
ग्रॅ	-11.932
जगभरा	-11.9323
वापरायच	-11.9337
भविष्या	-11.9362
सोडले	-11.9364
32¦	-11.9396
रोगतज्ज्ञ	-11.9396
▁¦1000	-11.9402
ाधिकार	-11.9408
निसर्ग	-11.9423
sl	-11.9435
इंटे	-11.9455
डाव	-11.9458
आद	-11.9458
द्वि	-11.9483
गाठल	-11.9484
मड	-11.9496
सीट	-11.9512
iti	-11.9512
धर्मात	-11.954
जेवणाच	-11.9548
टाळले	-11.956
ुखी	-11.9563
सागर	-11.9571
युरो	-11.9572
धारावी	-11.9586
ओसर	-11.9601
गांभीर्यान	-11.9609
४००	-11.9619
जगण्या	-11.9647
परतलेल	-11.966
िण	-11.9661
व्हेक्टर	-11.9663
वर्तन	-11.9663
शोधण	-11.9677
गेट	-11.9682
mo	-11.9692
विद्यार्थ	-11.9717
ीटल	-11.9722
घटनेत	-11.9727
मोजण	-11.9728
त्सुनामी	-11.9754
▁¦74	-11.9757
50,000	-11.9757
पुरता	-11.9765
मोह	-11.9769
ps	-11.9818
1.4	-11.9819
झपाट	-11.9829
उन्हाळ	-11.984
पोहोचवण	-11.9841
गार्ड	-11.9844
ल्व्ह	-11.9847
रवी	-11.9848
टँक	-11.985
बॉडी	-11.985
जेनिक	-11.985
टॉवेल	-11.9853
घडलं	-11.9853
मॉड	-11.9854
त्यक्ष	-11.9854
युए	-11.9854
ॅण्ड	-11.9855
india	-11.9855
कुटुंबियां	-11.9855
शौचा	-11.9856
वॉश	-11.9856
ायझेशन	-11.9856
मॉर्बिड	-11.9856
hku	-11.9856
अऩु	-11.9856
इंडोनेशिया	-11.9856
ईशान्य	-11.9856
कॉन्फरन्सिंग	-11.9856
नायजेरिया	-11.9856
सेल्फ	-11.9856
अॅस्ट्राजेनिका	-11.9856
अॅस्ट्राझेन्का	-11.9856
आंबेडकर	-11.9856
इंटरफेरॉन	-11.9856
इस्लाम	-11.9856
उत्पत्ती	-11.9856
उद्घाटन	-11.9856
उपाहारगृह	-11.9856
ऊर्जा	-11.9856
कावासाकी	-11.9856
खंडपीठा	-11.9856
ख्रिसमस	-11.9856
गतिशील	-11.9856
गर्भधारणे	-11.9856
गावकऱ्यां	-11.9856
गॉगल	-11.9856
ठ्ठ	-11.9856
ड्राइव्ह	-11.9856
तेलंगणा	-11.9856
दुरूस्त	-11.9856
निष्पन्न	-11.9856
परिचारिका	-11.9856
पवित्र	-11.9856
पुनर्वसन	-11.9856
पॉझिटीव्ह	-11.9856
प्रतिज्ञापत्र	-11.9856
बंदोबस्त	-11.9856
बिनधास्त	-11.9856
मॅनेजमेंट	-11.9856
रेमडेसिव्हीर	-11.9856
लखनौ	-11.9856
वंशेतिहासिक	-11.9856
विश्रांत	-11.9856
व्हॅल	-11.9856
शेतकऱ्यांन	-11.9856
संचलनालय	-11.9856
साशंक	-11.9856
स्मशाना	-11.9856
स्लॉट	-11.9856
उद्दीष्ट	-11.9856
ओआरएफ	-11.9856
कॉकटेल	-11.9856
कोट्यवधी	-11.9856
क्रॉन	-11.9856
गणेशोत्सव	-11.9856
जबाबदाऱ्या	-11.9856
थिएटर	-11.9856
निषेध	-11.9856
निष्काळजीपणा	-11.9856
प्लास्टिक	-11.9856
ब्रश	-11.9856
भूमिके	-11.9856
युमिफेनोवीर	-11.9856
लिम्फोसाइट	-11.9856
व्हेरिएंट	-11.9856
स्वातंत्र्य	-11.9856
हटवण्या	-11.9856
▁¦2017	-11.9856
आरएटीजी	-11.9856
आव्हाड	-11.9856
चळवळ	-11.9856
फायजर	-11.9856
बाटल्या	-11.9856
बेरोजगारी	-11.9856
भरपाई	-11.9856
रॅली	-11.9856
लष्कर	-11.9856
वूहान	-11.9856
गडकरी	-11.9856
तितक्या	-11.9856
लघु	-11.9856
खरोखर	-11.9856
कोठे	-11.9856
प्रजनन	-11.9856
संगणक	-11.9856
सीमेवर	-11.9856
जिल्हय़ात	-11.9856
▁¦1.2	-11.9856
अँटिजेन	-11.9856
एंटी	-11.9856
बक्षी	-11.9856
ट्रान्सपोर्ट	-11.9856
श्वासोच्छवास	-11.9856
पुस्तक	-11.9856
विळख	-11.9856
अभिप्राय	-11.9857
लोपिनावीर	-11.9857
आत्मविश्वास	-11.9857
परस्परक्रिया	-11.9857
एक्सप्रेस	-11.9857
इलाज	-11.9857
bio	-11.9857
जिंक	-11.9857
भिन्न	-11.9857
छाया	-11.9857
आपात	-11.9857
इंजिन	-11.9857
एक्झ	-11.9857
नामकरण	-11.9857
डिव्हाई	-11.9857
arg	-11.9857
एकटेपणा	-11.9857
व्यक्तिगत	-11.9857
तर्क	-11.9857
बॉक्सिंग	-11.9857
ssc	-11.9857
ज्योत	-11.9858
उष्ण	-11.9858
खेडकर	-11.9858
शिथील	-11.9858
डझन	-11.9858
ex	-11.9858
फटकारल	-11.9859
नक्षलवाद्यां	-11.9859
शेष	-11.9859
डोकान	-11.9859
नेशन्स	-11.9859
भक्तां	-11.9859
आठवत	-11.9859
मार्केटिंग	-11.986
पीआय	-11.986
आयडी	-11.986
hy	-11.986
प्रोफे	-11.986
तुळ	-11.986
कारभार	-11.986
रेमडेसीव	-11.9861
मॉडेलिंग	-11.9861
युवक	-11.9861
तत्पर	-11.9861
पटवण्या	-11.9862
आवडत	-11.9862
दोघांनी	-11.9862
ue	-11.9862
ढेर	-11.9864
2-3	-11.9864
ठरवता	-11.9864
सहायक	-11.9864
मॅक्स	-11.9865
टाकता	-11.9865
घशाच	-11.9866
शाल	-11.9867
अलि	-11.9868
पेशंट्स	-11.9868
अजुन	-11.9868
बेघर	-11.9869
टँकरमधून	-11.9869
कार्यप्रणाली	-11.9869
मंत्रालयाकडे	-11.987
पॉलिस	-11.9871
वर्कर	-11.9872
दिवाळीनंतर	-11.9875
गार्डन	-11.9875
पोहोचवण्यासाठी	-11.9875
हस्तक्षेपां	-11.9876
चालला	-11.9876
प्रसिद्धीपत्रक	-11.9878
कुत्र	-11.9878
रोड	-11.9879
स्प्र	-11.9879
हेल्प	-11.9879
बोटांवर	-11.9879
पक्षांनी	-11.9882
प्रमो	-11.9884
काढलं	-11.9885
ठिक	-11.9886
र्म्य	-11.9887
मजल	-11.9888
नियमावलीनुसार	-11.9888
लँड	-11.989
लादले	-11.9892
तुर्की	-11.9892
दवाखान्या	-11.9893
पूल	-11.9894
फरेट	-11.9896
होम्स	-11.9896
फवार	-11.9896
आकर्षण	-11.9897
ूर्ता	-11.9897
दोनशे	-11.9897
76	-11.9898
करण्यासंदर्भात	-11.99
थोडं	-11.99
हार्ट	-11.9902
पुरते	-11.9903
ाईड	-11.9903
अनियमित	-11.9903
आसाम	-11.9904
होण्यापूर्वी	-11.9904
पालिकेने	-11.9909
दाद	-11.9911
दादर	-11.9914
बंधक	-11.9915
विता	-11.9915
जिल्ह्यांत	-11.9915
परिवर्त	-11.9916
कमाल	-11.9917
उपाध्ये	-11.9918
टीव्ह	-11.992
रोगांचा	-11.9925
उचलावी	-11.9926
स्वरुपातील	-11.9929
ंजली	-11.9935
त्याविषयी	-11.9935
बसवण्या	-11.9935
उडाला	-11.9936
▁¦7.	-11.994
प्रयोगशाळांमध्ये	-11.994
मेटा	-11.9944
सरकारसमोर	-11.9944
वर्षांपर्यंत	-11.9948
ठरलं	-11.9949
परराज्यात	-11.9949
वाढवल्या	-11.995
घाबरण्याच	-11.9955
जपानमध्ये	-11.9956
शाळांच	-11.9957
प्रवाशांसाठी	-11.9957
ओरड	-11.9958
हरक	-11.996
लागल्यास	-11.9961
पहाव	-11.9963
पोलिसांकड	-11.9967
साफ	-11.9968
व्हाई	-11.9971
ऑक्सिजननिर्मिती	-11.9972
त्वचेवर	-11.9972
प्रोटिन	-11.9981
यंत्रणेला	-11.9987
उल्	-11.9995
डॉक्टरांवर	-12
त्यांच्यासोबत	-12.0003
हिवाळ्या	-12.0006
रुमाला	-12.0006
सरकारसोबत	-12.0011
झान	-12.002
धोरणं	-12.0023
तत्काल	-12.0025
अधिष्ठाता	-12.0034
झाड	-12.0039
ॅम्प	-12.004
ैस	-12.0041
शिकण्या	-12.0049
शिवसेनेच	-12.0049
निवेदनात	-12.0056
िकारक	-12.0068
हृदयरोग	-12.007
धार	-12.0081
९१	-12.0085
गंध	-12.0085
पालकांन	-12.0087
डिस्टंसिंगच	-12.009
एज	-12.0091
पर्यटना	-12.0093
गमावले	-12.0094
वाचले	-12.0095
▁¦9.	-12.0095
चुकव	-12.0099
क्वा	-12.0104
व्यवहारात	-12.011
घाबरत	-12.0111
लीकडे	-12.0111
घडल्या	-12.0115
li	-12.0116
गावांत	-12.0118
ॅक्शन	-12.0118
वास्तव्य	-12.0131
तंत्रज्ञां	-12.0143
सीबीए	-12.0146
वाहनां	-12.0153
pm	-12.0156
टाळण्याच	-12.0157
वर्षाखाल	-12.0158
सांगाव	-12.0159
७५	-12.0171
उच	-12.0172
हाताळण	-12.0177
▁¦14.	-12.018
-6	-12.0202
कोलमडल	-12.0204
कोरोनाबाबतच	-12.0214
पथ	-12.0224
ायदेशीर	-12.0229
रवान	-12.0229
िल्ल	-12.0232
ani	-12.0233
रिए	-12.0246
कार्यालयां	-12.0258
भोवत	-12.0265
आणण्यास	-12.0282
पडे	-12.0283
भ्रम	-12.0284
धुवाय	-12.0287
उभ्या	-12.0294
मंदाव	-12.0297
op	-12.0311
ॅप्लिकेशन	-12.0317
डोकं	-12.0328
जमण	-12.0332
आणण	-12.0346
िरवी	-12.0348
बातच	-12.036
and	-12.0369
बोर	-12.0375
कार्यक्षेत्र	-12.0378
कळे	-12.0392
▁¦197	-12.0409
संमेलना	-12.0412
डायम	-12.0413
गणन	-12.0414
राज्यांकड	-12.0455
नियामकांकड	-12.0462
वटवाघूळां	-12.0477
महाराज	-12.048
होणाऱ्यांच	-12.0489
▁¦5000	-12.05
५१	-12.0514
जंतूंच	-12.0514
शोधण्यास	-12.0516
पुट	-12.052
लावत	-12.0526
व्हेंटिलेटरवर	-12.0527
क्युट	-12.0531
प्रयोगशा	-12.0541
जाळ	-12.0564
कुर	-12.0564
बाजारपेठां	-12.0595
1,00	-12.0603
आयोग	-12.0637
सीडी	-12.0639
उपाध्य	-12.0641
हालचालीं	-12.0656
दोघांना	-12.0656
बंध	-12.0662
डीसी	-12.0672
कोल	-12.0681
कांग	-12.0684
हॉस्पिटलमधल	-12.0703
वापरणार	-12.0716
ूपी	-12.0738
उत्पन्नाच	-12.0745
एआर	-12.077
विद्य	-12.0774
वाचवण	-12.0774
प्रतिपिंडांच	-12.0779
३९	-12.0784
ोरो	-12.0792
ब्लि	-12.0801
ढकलण्याच	-12.0802
९७	-12.0806
स्नायूंच	-12.0806
स्विकारल	-12.0811
orth	-12.0816
निरुप	-12.0837
श्य	-12.0854
▁¦130	-12.0874
सर्वसामान्यां	-12.0902
९४	-12.0902
पदार्थांच	-12.0903
ss	-12.0907
ni	-12.0907
ुगे	-12.0915
५९	-12.0919
4.5	-12.092
व्हिस	-12.0925
मिळवता	-12.0939
शेर	-12.0955
दर्शवि	-12.0957
-3	-12.0973
४९	-12.0985
ent	-12.1001
प्लिकेशन	-12.1005
जनत	-12.1008
सुधारल	-12.1013
रक्तवाहिन्या	-12.1016
पक्षाच	-12.1018
लावाव	-12.1064
०५	-12.1086
एनकोड	-12.1089
फ्ल	-12.1096
संभाव	-12.1112
क्रा	-12.1119
ग्न	-12.1124
ty	-12.1135
जीनसंचाच	-12.1135
रकाव	-12.1136
▁¦5-1	-12.1149
चंद	-12.115
th	-12.1157
दुर्घटन	-12.1158
०४	-12.1176
घेतलेल	-12.1196
पटल	-12.12
".	-12.1212
सरण	-12.122
घाबरू	-12.1221
उचलल	-12.1229
1,6	-12.1238
एसई	-12.1243
et	-12.1244
घसरण	-12.1285
डीएस	-12.1306
छाप	-12.1322
आठवडय़ा	-12.1324
मंत्र्या	-12.1327
०३	-12.133
स्वास्थ	-12.1331
24	-12.1332
sf	-12.1332
उन्हाळ्या	-12.1341
अत्याध	-12.1353
रोगामुळे	-12.1357
ल्हा	-12.1363
लिकडे	-12.1372
ru	-12.1396
मुद्द्यां	-12.1399
जॉन्स	-12.1405
द्वा	-12.1411
cc	-12.1421
पलाय	-12.1422
आशियात	-12.1422
सुचव	-12.1423
700	-12.1423
गुंत	-12.1424
पाचव	-12.1425
साईट्स	-12.1431
प्रवाशांन	-12.1437
ाशया	-12.1439
वाढल्याच	-12.1444
आयुष	-12.1458
इमारत	-12.1461
दुरुस्त	-12.1462
जखम	-12.1462
फ्रे	-12.1466
फोनवर	-12.1468
:	-12.1477
पांड	-12.1478
लिहिल	-12.1479
नक्षम	-12.1483
इलेक्ट्रॉन	-12.1489
iat	-12.1491
फुफ्फुसात	-12.1493
इंग	-12.1498
pra	-12.1501
mr	-12.1507
गुठळ	-12.1508
ition	-12.1511
इम्युन	-12.1511
मार्गावर	-12.1515
ँपल	-12.1515
िदान	-12.1518
फ्री	-12.1519
विक्रेत	-12.152
म्युनिस	-12.152
उष्	-12.1521
लंबित	-12.1521
न्फ्लुएन्झा	-12.1522
बॉक्स	-12.1522
रक्षक	-12.1522
प्रत्य	-12.1522
लॉजिस्ट	-12.1523
इम्यून	-12.1523
2014	-12.1523
प्रायव्ह	-12.1523
स्टिट्युट	-12.1523
एपिडेमि	-12.1523
इन्स्टिट्य	-12.1523
ेष्ठ	-12.1523
ोग्राफी	-12.1523
nyu	-12.1523
पॉलीमर	-12.1523
श्वसनशोथ	-12.1523
orf	-12.1523
गौरव	-12.1523
अॅम्बुलन्स	-12.1523
आयसीएमआर	-12.1523
इन्व्हेस	-12.1523
कंडिशन	-12.1523
ड्ब्ल	-12.1523
निरीक्षक	-12.1523
पॅसिफिक	-12.1523
मलेरिया	-12.1523
विकिमिडिया	-12.1523
शोधनिबंध	-12.1523
सिक्वेन्स	-12.1523
सिम्प्ट	-12.1523
*	-12.1523
illa	-12.1523
अन्ननलिके	-12.1523
अॅलर्जी	-12.1523
आकस्मिक	-12.1523
आयसोलेट	-12.1523
इंग्रजी	-12.1523
इक्विपमेंट	-12.1523
उत्तरार्धा	-12.1523
एकंदरीत	-12.1523
ऑर्गनायझेशन	-12.1523
किनाऱ्या	-12.1523
कॉर्नेल	-12.1523
कोविशिल्ड	-12.1523
गर्भनिरोधक	-12.1523
गर्भारपण	-12.1523
चक्रीवादळा	-12.1523
जबरदस्त	-12.1523
झारखंड	-12.1523
ढोबळ	-12.1523
तहसीलदार	-12.1523
दोघं	-12.1523
धैर्य	-12.1523
पध्दती	-12.1523
पारदर्शक	-12.1523
पीटीआय	-12.1523
प्रॉडक्ट	-12.1523
फर्स्ट	-12.1523
फॉर्मुलेशन	-12.1523
फॉल्	-12.1523
फ्रान्सिस्को	-12.1523
बांगलादेश	-12.1523
बॅंके	-12.1523
मजुरी	-12.1523
मनोरंजन	-12.1523
मुनगंटीव	-12.1523
मुस्लिम	-12.1523
युनिसेफ	-12.1523
रत्नागिरी	-12.1523
वसाहती	-12.1523
वाईप्स	-12.1523
विद्राव्य	-12.1523
विशेषज्ञ	-12.1523
वेन्टिलेशन	-12.1523
वॉटर	-12.1523
सारांश	-12.1523
सेरेब्र	-12.1523
सेल्शिय	-12.1523
स्टॉप	-12.1523
स्वीडन	-12.1523
हिंगोली	-12.1523
हैद्राबाद	-12.1523
हॉंगकॉंग	-12.1523
अभिवादन	-12.1523
आर्द्रत	-12.1523
कॉमर्स	-12.1523
डीएनए	-12.1523
तंत्रिकातंतु	-12.1523
यूपीएससी	-12.1523
लक्ष्मी	-12.1523
लोकसत्ता	-12.1523
व्हॉट्सअप	-12.1523
संप्रेषण	-12.1523
सर्व्हेलन्स	-12.1523
साहजिक	-12.1523
हंगेर	-12.1523
हद्दीत	-12.1523
हरयाणा	-12.1523
हल्ल्या	-12.1523
हाईड्र	-12.1523
आऊट	-12.1523
उपायुक्त	-12.1523
गळती	-12.1523
झूम	-12.1523
दोघे	-12.1523
पुर्न	-12.1523
फिजीशि	-12.1523
मेंदू	-12.1523
हलवण्या	-12.1523
उल्लेखनीय	-12.1523
क्रायो	-12.1523
पोर्टलवर	-12.1523
रॅमडेसिवीर	-12.1523
उषा	-12.1523
कोचिंग	-12.1523
चंद्रपुरात	-12.1523
जुलाब	-12.1523
ट्रान्समेम्ब्रेन	-12.1523
पिढी	-12.1523
पॉलिमरे	-12.1523
मुख्यत्वे	-12.1523
खाल्ल्या	-12.1523
टर्की	-12.1523
विकेंड	-12.1523
धमकी	-12.1523
समीक्ष	-12.1523
▁¦1.8	-12.1523
कोकणात	-12.1523
तारखा	-12.1523
घातलं	-12.1523
सेशन्स	-12.1523
कहाणी	-12.1523
ताबडतो	-12.1523
सत्ते	-12.1523
शिकणाऱ्यां	-12.1523
पुरूषां	-12.1523
आस्थापने	-12.1523
कन्व्हर्	-12.1523
मंगल	-12.1523
डिटर्जंट	-12.1523
गव्हर्न	-12.1523
हार्व	-12.1523
कामानिमित्त	-12.1523
जालना	-12.1523
इंस्टीट्युट	-12.1523
विश्वासार्ह	-12.1523
क्वचित	-12.1523
नुसत	-12.1523
चैत	-12.1523
शंभर	-12.1523
ऑस्ट्रिया	-12.1523
,500	-12.1523
गरिब	-12.1523
ator	-12.1523
वॅक्सिन	-12.1523
बहिणी	-12.1523
फ्लॅ	-12.1523
कोरीया	-12.1524
दरवाजा	-12.1524
्हेटरी	-12.1524
सिनेमागृह	-12.1524
भांडवल	-12.1524
सिंधुद	-12.1524
पावला	-12.1524
wiv	-12.1524
प्रतिद्रव्य	-12.1524
जळगाव	-12.1524
बोटीवर	-12.1524
कसरत	-12.1524
क्राळ	-12.1524
जाणवणार	-12.1524
्मिक	-12.1524
कुप्या	-12.1524
मिसळ	-12.1524
आठवडाभरा	-12.1524
पहाटे	-12.1524
रिझर्	-12.1524
ास्पद	-12.1524
सेक्टर	-12.1524
उंद	-12.1524
विपणन	-12.1524
उभारणी	-12.1524
साखरेच	-12.1524
oxi	-12.1525
सेल्युल	-12.1525
पोहोचवता	-12.1525
सार्व	-12.1525
बळकट	-12.1525
रचने	-12.1525
तळव्या	-12.1525
आश्रयस्थान	-12.1525
न्युमो	-12.1525
सुचवलं	-12.1525
समर्प	-12.1525
ऑफलाईन	-12.1526
▁¦0.2	-12.1526
टाइम्स	-12.1526
नेदरलँड्स	-12.1526
ायटिस	-12.1526
जनहित	-12.1526
पडद्या	-12.1526
तिमाहीत	-12.1526
sir	-12.1526
वहन	-12.1526
दर्शविले	-12.1527
बुरशी	-12.1527
बलराम	-12.1527
भाष्य	-12.1527
वर्तमानपत्र	-12.1527
हिंदु	-12.1527
महिनाभर	-12.1527
धुरा	-12.1528
पत्कर	-12.1528
asp	-12.1528
फ्रीज	-12.1528
मॅसे	-12.1528
गर्ग	-12.1528
टेन्शन	-12.1528
टोपणना	-12.1528
डाटा	-12.1528
शिकवत	-12.1529
विस्तारीत	-12.1529
मशिन	-12.1529
क्लीनि	-12.1529
अल्पाकस	-12.1529
तितका	-12.153
अनुरा	-12.153
र्गव	-12.153
धोरणात्मक	-12.1531
तितके	-12.1531
सेटिंग	-12.1531
अवरोधक	-12.1531
rd	-12.1531
▁¦1600	-12.1532
भोवताल	-12.1532
होस्ट	-12.1532
fb	-12.1532
वकील	-12.1533
तितकी	-12.1533
hr	-12.1533
निर्बंधांमुळे	-12.1534
स्टोअर्स	-12.1534
स्टेरॉईड्स	-12.1535
ons	-12.1535
हजारांपेक्षा	-12.1535
तरुणांमध्ये	-12.1536
्भाव	-12.1536
भिती	-12.1537
कंपन्यांसोबत	-12.1538
बहि	-12.1538
काल्प	-12.1538
उरलेल	-12.1539
मुद्र	-12.1539
प्रायम	-12.154
वाटचाल	-12.154
एपि	-12.1541
फेअर	-12.1542
चोळण्या	-12.1543
मेनल	-12.1543
सेरो	-12.1544
काँग	-12.1545
शून्य	-12.1547
लिलाव	-12.1547
तंत्रज्ञन	-12.1547
वाढविल	-12.1548
बसलेल्या	-12.1548
with	-12.1548
दडपण	-12.1549
एजन्सीज	-12.155
हायड्रो	-12.155
वर्षांपूर्वी	-12.155
वन्य	-12.1551
हस्त	-12.1552
▁¦49	-12.1552
ल्यांकन	-12.1553
धुळ	-12.1555
न्युक्लिओ	-12.1555
प्रवाश्या	-12.1556
val	-12.1556
तांद	-12.1557
जिओ	-12.1558
व्यवसायिक	-12.1559
बोव्ह	-12.156
संतुल	-12.1561
लाखोंच	-12.1561
्वेलर	-12.1562
चार्य	-12.1562
पुरवण्यासाठी	-12.1562
थकल	-12.1563
तामिळ	-12.1563
बाबांना	-12.1564
वीप	-12.1564
संपली	-12.1566
सॅनिटायझर्स	-12.1567
प्रेम	-12.157
मनगट	-12.1571
डीट	-12.1572
लायक	-12.1575
बालनिग	-12.1578
्सनल	-12.1578
मंत्रालयाशी	-12.1581
अर्थतज्ज्ञ	-12.1584
घो	-12.1585
▁¦2.2	-12.1586
बुल	-12.1587
▁¦2003	-12.1592
शाळांत	-12.1597
गाफ	-12.1598
चर्चेच	-12.1598
अंतरण	-12.16
मानवापासून	-12.1603
प्रीक्लिन	-12.1607
लगत	-12.161
वासीयां	-12.161
ंगिक	-12.1614
प्रोफा	-12.1614
शेड	-12.1614
अंध	-12.1616
लशीबद्दल	-12.1616
प्रतिरोधन	-12.1621
निर्ण	-12.1626
आयुक्तांन	-12.1628
लांबण	-12.163
स्थळां	-12.1648
वेबसाइट	-12.1654
िहार	-12.1654
आरए	-12.1655
प्रभावाच	-12.1658
दगावल	-12.1658
मोहो	-12.1661
देशांकड	-12.1661
प्रेरण	-12.1661
अरब	-12.167
गेटवर	-12.1683
हुश	-12.1689
तेवढ्या	-12.1696
प्रशासक	-12.1717
अनुयाय	-12.172
पावत	-12.1722
पाहात	-12.1722
४६	-12.1723
आठवडय़ात	-12.1728
उन्हाळ्यात	-12.1729
डॅशबोर्डवर	-12.173
चाललेल	-12.1741
तत्त्वां	-12.1746
शेजार	-12.1755
बोलावल	-12.1756
पोषणात	-12.1768
वर्तव	-12.1772
स्कर	-12.1777
स्वरूपाच्या	-12.1784
असल्यान	-12.1799
निष्	-12.1822
वाढविण	-12.1838
उदय	-12.1845
केप	-12.185
ओसरत	-12.1851
सिल	-12.1852
▁¦202	-12.1853
यपूर	-12.1861
भग	-12.1867
ठाकरेंच	-12.187
617	-12.1881
टोम	-12.1883
ुष्क	-12.1892
बैद	-12.1897
आस्थापनां	-12.1909
पाश्	-12.1913
वायचं	-12.1914
घाट	-12.1915
बिघडल	-12.1948
रिअर	-12.195
diti	-12.1963
बिघडण	-12.1972
06	-12.1973
उद्योगात	-12.199
समारंभात	-12.202
उडव	-12.2023
तोट	-12.2045
रक्तवाहिन्यां	-12.2057
गृहमंत्रालया	-12.2087
शकलेल	-12.2092
▁¦250	-12.2098
जागरूक	-12.2106
नलिक	-12.2111
प्रश्नाच	-12.2118
ैरा	-12.2121
महानगर	-12.2121
पोटात	-12.214
ंशिक	-12.2142
रिस्क	-12.2144
पिण्याच	-12.22
ठरवू	-12.2208
मनोरुग्णां	-12.2211
कायमस्वर	-12.2213
पुरवठादारांन	-12.2222
वृत्तसंस्थेन	-12.2228
रिड	-12.223
पॅर	-12.2231
चोळल	-12.227
सल्ल्यान	-12.2277
्ह	-12.2287
पुनःसंयोजना	-12.2289
स्विकार	-12.23
लांबीच	-12.2311
संरचनात्मक	-12.2318
भाकर	-12.2318
दक्ष	-12.2318
६१	-12.235
छळ	-12.2362
विद्यार्थ्यांन	-12.2384
cha	-12.2439
यातले	-12.2444
मूत्रपिंड	-12.2445
र्ग	-12.2451
ऑस्ट्रेलिय	-12.2456
फुटांच	-12.2459
बळींच	-12.2469
89	-12.2472
बनलेल	-12.2476
परिणामांच	-12.2494
मूल्य	-12.2498
संपवल	-12.2503
५७	-12.2536
सीव्ही	-12.2538
निर्मल	-12.2546
६७	-12.2585
पेंड	-12.2614
दाखविल	-12.2649
पुनःसंयोजन	-12.2661
88¦	-12.2663
एन्जा	-12.2667
६९	-12.2668
रेज	-12.2694
लढाय	-12.2704
न्श	-12.2714
्ल्यू	-12.2716
शास्त्रज्ञांच	-12.2717
पाठवाव	-12.2734
भागीदार	-12.2736
अभियाना	-12.2743
घालवण्या	-12.2785
दाखवण्या	-12.2793
प्रभा	-12.2802
गळे	-12.2818
प्रकल्पाच	-12.2837
व्यापाऱ्यांन	-12.2842
कळू	-12.2847
्रोमाय	-12.2848
अवास्तव	-12.2874
पडलेल	-12.2882
पुरवलेल	-12.2891
ांबरोबर	-12.2894
सायटो	-12.2902
मंदावल	-12.292
फिरू	-12.2932
बनू	-12.294
जाणकारांच	-12.2964
कम्युनि	-12.2967
18	-12.299
विकल	-12.3032
कोलमड	-12.3042
खिल	-12.3063
श्रृंखला	-12.3082
रोखल	-12.3099
बै	-12.31
143	-12.3101
पार्क	-12.3104
ष्क	-12.3105
पल्ल	-12.3106
खाण	-12.3114
कर्ते	-12.3119
यकृताच	-12.3142
नवरच	-12.3145
बंधनां	-12.3155
750	-12.3163
पक्षांच	-12.3179
इस्ट	-12.3191
act	-12.3194
ठाण्या	-12.3215
कर्जाच	-12.3218
खवखव	-12.3239
होण्यामाग	-12.324
पोहोचू	-12.3248
ांनंतर	-12.3256
ुत्तर	-12.3268
पेरि	-12.3278
bi	-12.328
65	-12.3294
शिक्षकांन	-12.3308
फुप्फुस	-12.3316
सिनेमा	-12.334
धोक	-12.3356
७६	-12.3357
विदर्भ	-12.3378
साताऱ्या	-12.3379
सुट्ट्या	-12.3382
नगरपालिका	-12.34
थि	-12.3419
col	-12.3419
सेकंदां	-12.3428
पोहोचवण्याच	-12.343
ांजल	-12.344
दृष्टीन	-12.3443
संसद	-12.3455
कर्मचार	-12.3464
बनावट	-12.3467
tur	-12.3468
81¦	-12.3469
कार्यकर्त्यांना	-12.3469
निगा	-12.3472
स्मशानभूमी	-12.3485
९६	-12.3492
ेलिन	-12.3499
मायक	-12.3501
डब्लूएचओन	-12.3503
पिरी	-12.3505
).	-12.351
इथल	-12.3511
तपासू	-12.3511
न्यूक्लि	-12.3512
टास्कफोर्स	-12.3513
ांसारखी	-12.3515
अँटि	-12.3516
गळ्या	-12.3517
जैव	-12.3518
नेदरलँड	-12.3519
नक्षलवाद	-12.3519
अक्षर	-12.352
टाइम	-12.3521
ुरात	-12.3522
म्ब्युलन्स	-12.3522
मूत्र	-12.3522
ंड्रोम	-12.3522
परस्पर	-12.3523
लोपिनाव	-12.3523
दैवान	-12.3523
पंढरप	-12.3523
अंत्य	-12.3523
ायझर	-12.3523
पुनः	-12.3523
पॉझिटिव	-12.3523
आत्म	-12.3523
syndrom	-12.3523
und	-12.3523
आयसोप्रोप	-12.3523
फॉस्फेट	-12.3523
रेप्लिकेस	-12.3523
सॉफ्ट	-12.3523
ifn	-12.3523
inflam	-12.3523
क्रिसिल	-12.3523
तेंडुलकर	-12.3523
परागज्वर	-12.3523
पोल्ट्री	-12.3523
प्रिमियम	-12.3523
बीजीआय	-12.3523
मुस्लीम	-12.3523
संज्ञा	-12.3523
ॉइड	-12.3523
▁¦99.	-12.3523
ector	-12.3523
facebook	-12.3523
अँजिओटेन्सिन	-12.3523
अर्जेंटिना	-12.3523
आयर्लंड	-12.3523
इम्युनोसप्रे	-12.3523
इस्राईल	-12.3523
इस्रायल	-12.3523
उपेक्षित	-12.3523
ऍसिड	-12.3523
ऐतिहासिक	-12.3523
ओडिशा	-12.3523
कांजुरमार्ग	-12.3523
कॉम्प्लेक्स	-12.3523
क्लाऊड	-12.3523
क्वारंटाइन	-12.3523
गालगुंड	-12.3523
चांदवड	-12.3523
चिंपाझी	-12.3523
चिकित्सेच	-12.3523
छिद्र	-12.3523
जॉर्ज	-12.3523
डेल्टा	-12.3523
ड्रॉपलेट्स	-12.3523
दुग्ध	-12.3523
नंदुरबार	-12.3523
परभणी	-12.3523
पेप्टाइड	-12.3523
पॉईंट	-12.3523
फाऊंडेशन	-12.3523
बायोलॉजिक	-12.3523
बुद्रूक	-12.3523
बॅक्टेरिया	-12.3523
बॅनर्जी	-12.3523
मंगळवेढ	-12.3523
मटेरियल	-12.3523
मळमळ	-12.3523
मुख्यभूमी	-12.3523
मेक्सिको	-12.3523
मॉस्को	-12.3523
यूरोप	-12.3523
रजिस्ट्र	-12.3523
लायसन्स	-12.3523
शिरखुर्मा	-12.3523
साठवणुकी	-12.3523
सान्निध्य	-12.3523
सीओईपी	-12.3523
सेंट्रल	-12.3523
सोल्यूशन	-12.3523
स्टँडर्ड	-12.3523
स्टॅटिस्टिक्स	-12.3523
स्तनपान	-12.3523
स्वारस्य	-12.3523
स्विंगर्स	-12.3523
हलविण्याच	-12.3523
होरपळ	-12.3523
sms	-12.3523
इशाऱ्या	-12.3523
ऑक्सीजन	-12.3523
कंपाऊंड	-12.3523
कर्करोग	-12.3523
कोलंबिया	-12.3523
ग्लायकोप्रोट	-12.3523
घुसखोरी	-12.3523
ड्रायव्हर	-12.3523
तफावत	-12.3523
दाखवल्याप्रमाणे	-12.3523
द्रवरुपात	-12.3523
नोएडा	-12.3523
पैलू	-12.3523
प्रतिरुपण	-12.3523
प्रतिष्ठित	-12.3523
मेहनत	-12.3523
म्युकोरमायकोसिस	-12.3523
रिमोट	-12.3523
व्हायरॉलॉज	-12.3523
संगोपन	-12.3523
समलिंगी	-12.3523
सायटोमॅजिलो	-12.3523
स्वाभाविक	-12.3523
og	-12.3523
चेन्नई	-12.3523
बारामती	-12.3523
वायरिंग	-12.3523
शॉर्ट	-12.3523
सर्व्हर	-12.3523
अग्नितांडवा	-12.3523
पॉलीप्रोटीन	-12.3523
वस्तु	-12.3523
सैफ	-12.3523
आउट	-12.3523
धमन्यां	-12.3523
परंपरा	-12.3523
मतदारसंघात	-12.3523
माघार	-12.3523
स्वप्न	-12.3523
सर्व्हिस	-12.3523
कलाकारांन	-12.3523
रिलीज	-12.3523
गल्ली	-12.3523
विनोद	-12.3523
हलवत	-12.3523
ुंबन	-12.3523
अगेन	-12.3523
इम्युनायझेशन	-12.3523
ट्रेंड	-12.3523
रेडिओग्राफ	-12.3523
साक्षी	-12.3523
कोव्हीड	-12.3523
जितक्या	-12.3523
मोजक्या	-12.3523
ेन्टिन	-12.3523
आजोबा	-12.3523
इंजिनिअर	-12.3523
मेघालय	-12.3523
वसुली	-12.3523
medic	-12.3523
कानपूर	-12.3523
गॅस्ट्रो	-12.3523
चढव	-12.3523
▁¦732¦	-12.3523
संहितेच	-12.3523
फटाके	-12.3523
यूनिट	-12.3523
खाद्यपदार्थांच	-12.3523
लॅन	-12.3523
अकोल्या	-12.3523
हवामानात	-12.3523
गोंधळल्यासारख	-12.3523
लाइफ	-12.3523
प्रायव्हेट	-12.3523
लाँच	-12.3523
स्नेह	-12.3523
ार्ह	-12.3523
व्यक्तिमत्	-12.3523
वित्त	-12.3523
महायुद्धा	-12.3523
कंत्राटदार	-12.3523
कृतज्ञ	-12.3523
ग्राऊंड	-12.3523
ट्रीटमेंट	-12.3523
मूत्राशय	-12.3524
कथित	-12.3524
प्लेक्स	-12.3524
संयम	-12.3524
किचन	-12.3524
वृंद	-12.3524
महामार्गावर	-12.3524
zy	-12.3524
ऐकत	-12.3524
▁¦1918	-12.3524
गैरसोयी	-12.3524
बदक	-12.3524
चोरी	-12.3524
हायड्रोजन	-12.3524
उठलेल्या	-12.3524
डायग्नोस्टिक्स	-12.3524
ऑस्ट्र	-12.3524
बेफिक	-12.3524
one	-12.3524
प्लॅस	-12.3525
प्रोडक्ट	-12.3525
विसर्जन	-12.3525
गॅमा	-12.3525
नित्य	-12.3525
निवासस्थान	-12.3525
भट्ट	-12.3525
उंबर	-12.3525
निराश	-12.3525
जॅन	-12.3525
ताकद	-12.3525
गुरूवार	-12.3525
पीएच	-12.3525
मानवजाती	-12.3525
झगड	-12.3525
तांडव	-12.3525
ech	-12.3526
जाणवण	-12.3526
बजावत	-12.3526
pro	-12.3526
प्रसरण	-12.3526
dg	-12.3526
महासंघा	-12.3526
देयक	-12.3526
▁¦1968	-12.3527
प्रवाश्यांना	-12.3527
प्रिंट	-12.3527
वस्ती	-12.3527
३००	-12.3527
दिशा	-12.3527
वैद	-12.3527
शिंकरल्या	-12.3527
युद्धजन्य	-12.3527
डिस्टं	-12.3527
कुटुंबियांनी	-12.3528
दत्ता	-12.3528
गच्च	-12.3528
अर्थचक्र	-12.3528
घट्ट	-12.3528
इट्स	-12.3529
क्षीण	-12.3529
घरमालक	-12.3529
निर्द	-12.3529
hd	-12.3529
सलून	-12.3529
स्थिराव	-12.353
▁¦61	-12.353
ऑरे	-12.353
गामाल	-12.353
पुष्टीकरण	-12.3531
बघितल	-12.3531
याचबरोबर	-12.3531
बिघडू	-12.3531
चटक	-12.3531
विस्क	-12.3532
चढता	-12.3532
आयबी	-12.3532
गमवाव	-12.3532
अँटिबॉड	-12.3532
सर्जन	-12.3533
व्हेंटीलेटर्स	-12.3533
विषम	-12.3533
▁¦1700	-12.3533
जतन	-12.3533
भेद	-12.3534
टेबल	-12.3534
ब्लास्ट	-12.3534
लढण्यास	-12.3534
दमण	-12.3535
जसजस	-12.3535
कोष	-12.3536
खोकल्यानंतर	-12.3536
एनडी	-12.3536
फेलो	-12.3536
स्लो	-12.3536
एयर	-12.3536
yc	-12.3536
दूरचित्र	-12.3536
न्यूरो	-12.3536
nl	-12.3537
कॉर्ट	-12.3537
लोकमतन	-12.3537
ओठ	-12.3537
स्टेम	-12.3537
संयोग	-12.3538
ड्यु	-12.3538
गुंग	-12.3538
लॉकडाउनसंबंधी	-12.3538
निष्ठ	-12.3539
बाथ	-12.354
कोर्स	-12.354
व्होल	-12.354
अश्व	-12.354
फलक	-12.354
पाचशे	-12.3541
ींज	-12.3541
पूर्वेकड	-12.3542
मॅड	-12.3543
संघटनांनी	-12.3543
उपाययोजने	-12.3544
टाकलं	-12.3544
गढ	-12.3544
केंट	-12.3545
निर्मात्यां	-12.3546
हिरव	-12.3546
महिन्यांपूर्वी	-12.3546
तलाव	-12.3547
क्वीन	-12.3547
एव्ह	-12.3547
नोरि	-12.3547
उपविभाग	-12.355
बॅर	-12.3552
दाखवण्यासाठी	-12.3552
वॅक्स	-12.3553
आतड्यां	-12.3554
आशेच	-12.3556
बिज	-12.3561
मेलेल्या	-12.3561
बग	-12.3563
टिव्ह	-12.3567
19.	-12.3568
डबा	-12.3568
अनिश्चिततेच	-12.3568
नवल	-12.3569
व्हिए	-12.357
फोर	-12.3571
7.1	-12.3573
नोट्	-12.3573
वाचवणार	-12.3578
िलेश	-12.3581
कमालीच	-12.3585
थांबलेल	-12.3587
मंच	-12.3592
त्यामागच	-12.3595
▁¦115	-12.3595
गुणकारितेच	-12.3596
लादण्या	-12.3596
▁¦2002	-12.3601
५५	-12.3602
▁¦2004	-12.3605
कळीच	-12.3605
वर्गीय	-12.3606
नवव	-12.3614
पल्मोन	-12.3628
सिन्	-12.3644
राबवाव	-12.3653
समूहां	-12.3677
संसाधनांच	-12.3681
खांद	-12.3681
सुप	-12.3684
लशींवरच	-12.3688
एरि	-12.3689
हिस्	-12.3691
मंज	-12.3696
▁¦37.	-12.3721
पटीन	-12.3737
दिसणार	-12.3739
162	-12.375
ज्यांच्याकड	-12.3754
पनव	-12.3757
यामागच	-12.3761
सहकाऱ्यांन	-12.3767
पाडाव	-12.3773
सदस्यांच	-12.379
उभाराव	-12.3792
बोध	-12.3796
म्यु	-12.3816
बीए	-12.385
तुषारां	-12.3854
1,38	-12.3873
ile	-12.3892
करण्यासारख	-12.392
वर्तवण्या	-12.3929
tri	-12.3933
धुम	-12.3953
बनविण्या	-12.3958
तीव्रतेच	-12.3994
चौर	-12.3999
परतण्याच	-12.4003
वाखाली	-12.4017
बांधता	-12.402
2.3	-12.4028
ख्	-12.4047
मिट	-12.4049
अँट	-12.4049
बसलेल	-12.4061
रोखण	-12.4061
रोगांच	-12.4063
पोहोचाव	-12.4126
बिड	-12.414
बोलायच	-12.4148
रोखता	-12.4153
महामंड	-12.4163
mer	-12.4169
हजारोंच	-12.4175
राठ	-12.4178
हिराव	-12.4181
निसर्गात	-12.4182
द्रव्य	-12.4183
जोडलेल	-12.4201
फिरण्या	-12.4202
बांधण्या	-12.4244
बदलाव	-12.4254
त्वचारोग	-12.4255
ोसिस	-12.4262
साहित्याच	-12.4267
थेंबां	-12.4278
बदलण्याच	-12.4281
विरोधकां	-12.4315
स्पर्शभावन	-12.4321
07	-12.4335
थांबाव	-12.4338
ass	-12.4348
अभियान	-12.4369
पुरवण	-12.4399
ice	-12.4402
दर्शवण्या	-12.4414
इमर	-12.4422
क्लोर	-12.4468
▁¦0.3	-12.4517
ld	-12.454
साख	-12.4599
वेधता	-12.4602
५६	-12.4633
पंतप्रधानांच	-12.4697
मनुष्यबळाच	-12.4736
ng	-12.4754
रक्तदा	-12.4758
द्रावण	-12.4763
बोटा	-12.4804
चालकां	-12.4809
रोम	-12.4849
राखल	-12.4868
यायच	-12.4884
▁¦196	-12.4897
०९	-12.4933
घातल्यान	-12.4956
सक्तीच	-12.4966
टेर	-12.5031
अडकल	-12.5082
उड्डाणां	-12.5084
ॅगो	-12.5098
ब्रि	-12.5099
बिल्	-12.5115
जहाजां	-12.5125
नियामकां	-12.5181
शालि	-12.5189
क्रमांकाच	-12.5196
ुर्ग	-12.5204
सेवकांन	-12.5206
ims	-12.5236
ीएमसी	-12.5251
दुष्परिणामां	-12.5264
ste	-12.5277
▁¦52	-12.5296
्मल	-12.5308
युरोपातल	-12.5329
उद्दिष्टां	-12.538
पकडण्या	-12.5391
आवरणाच	-12.5443
इकॉनॉम	-12.5443
dis	-12.5488
आदींच	-12.5596
प्रचारसभा	-12.5626
ॅमिनो	-12.5675
iste	-12.569
ध्द	-12.5694
कार्यकर्त्या	-12.5743
फडणवीसांन	-12.5746
उत्तेज	-12.5814
अँटीज	-12.5815
साइट्स	-12.5824
घालण	-12.5832
▁¦198	-12.5837
अक्षम	-12.5838
प्राध्या	-12.5847
्फ्ल्युएन्झा	-12.5864
ठरवण	-12.589
्हीर	-12.5893
बसवण	-12.5895
उडाल	-12.5906
ग्राह	-12.5921
▁¦1.1	-12.5935
पोहोचण	-12.5946
आकर्ष	-12.5949
पदांच	-12.5956
तुर्क	-12.5958
तांब	-12.5958
मार्गदर्श	-12.5967
प्रॅक्टि	-12.5983
’	-12.5989
ोफार्म	-12.5996
आम्हा	-12.5997
आलेखाच	-12.6
संक्राम	-12.6009
ंबंधित	-12.6009
आच्छाद	-12.601
किनार	-12.6011
रेडिओ	-12.6012
ॅम्ब्युलन्स	-12.6016
सिव्हेट	-12.6019
अन्वेष	-12.6019
ोपचार	-12.602
ग्लोव्	-12.6021
श्लेषण	-12.6022
खिडकी	-12.6022
अभियंत	-12.6022
स्त्रीरोग	-12.6022
फिजिशि	-12.6022
ावधी	-12.6022
मनुष्य	-12.6023
ंटिफिक	-12.6023
लिटिको	-12.6023
निष्क्र	-12.6023
इंस्टीट	-12.6023
021	-12.6023
_	-12.6023
टॅब	-12.6023
टुंबि	-12.6023
शल्य	-12.6023
कर्तृत्	-12.6023
लिम्फ	-12.6023
vac	-12.6023
eiu	-12.6023
tmprss	-12.6023
अँजिओटे	-12.6023
एन्डोथेल	-12.6023
एऩ्फ्ल	-12.6023
कॉम्म्युनि	-12.6023
ट्रायक्लो	-12.6023
नॅसोफार	-12.6023
पुष्प	-12.6023
बाजारपेठे	-12.6023
ऱ्हि	-12.6023
शिजवण्या	-12.6023
िष्ण	-12.6023
डिप्लोम	-12.6023
दागिन	-12.6023
पोचपावती	-12.6023
श्वसनिकाशोथ	-12.6023
multi	-12.6023
×	-12.6023
अँटीबायोटीक	-12.6023
अँब्युलन्स	-12.6023
अनपेक्ष	-12.6023
अनौपचारिक	-12.6023
अफेअर्स	-12.6023
अमिरात	-12.6023
अॅग्रिगेटर	-12.6023
आनुवांशिक	-12.6023
इंजिनियरिंग	-12.6023
इन्फ्लूएन्झा	-12.6023
इन्फ्लेमेशन	-12.6023
इन्शुरन्स	-12.6023
इपिडेमिओलॉजी	-12.6023
उत्साह	-12.6023
उत्सुक	-12.6023
उद्योजक	-12.6023
उन्नाव	-12.6023
एअरोसोल	-12.6023
एआयजी	-12.6023
एज्युकेशन	-12.6023
ऑब्झ	-12.6023
कळंबोली	-12.6023
काऊन्सिल	-12.6023
काष्ठ	-12.6023
कॉंग्रेस	-12.6023
कोलोरॅडो	-12.6023
क्रियाकलाप	-12.6023
क्रिस्पर	-12.6023
खिडक्या	-12.6023
ग्लिसरीन	-12.6023
चिंतन	-12.6023
चिघळ	-12.6023
जथ्थे	-12.6023
जिंदगी	-12.6023
जीएसडीपी	-12.6023
जीडीपी	-12.6023
जीवनशैली	-12.6023
झायकॉव	-12.6023
डायनॅमिक	-12.6023
डिस्टंन्सिंग	-12.6023
डेव्हलपमेंट	-12.6023
डोंबिवली	-12.6023
तुरुंग	-12.6023
थेरॅप्युटीक	-12.6023
दिनदर्शिक	-12.6023
नातेवाइकां	-12.6023
पद्म	-12.6023
पुतण्या	-12.6023
पुतळ्या	-12.6023
पुनरुत्पादन	-12.6023
पॅरासिटेमॉल	-12.6023
पेप्टीडे	-12.6023
पॉजीट	-12.6023
पोलिओ	-12.6023
प्रचारसभेत	-12.6023
फायब्र	-12.6023
फिलिपिन्स	-12.6023
फुफ्फसाच	-12.6023
बंगळुरू	-12.6023
बायोइझी	-12.6023
बुद्धिमत्त	-12.6023
बॉलिव	-12.6023
बोकारो	-12.6023
भिवंडी	-12.6023
मिशिगन	-12.6023
मॅकबेथ	-12.6023
मेरीलँड	-12.6023
मैदानावर	-12.6023
युनिर्व्हसिटी	-12.6023
रायबाव्हीरीन	-12.6023
रिबाविरीन	-12.6023
रिसेप्शन	-12.6023
रेमेडीसिव्हीर	-12.6023
रॉबिन	-12.6023
रोमानिया	-12.6023
लटकव	-12.6023
लाभार्थ्यां	-12.6023
लॅबोरेटरी	-12.6023
लॅाकडाऊन	-12.6023
विद्यापिठा	-12.6023
विरघळ	-12.6023
विषाणु	-12.6023
व्यावहारिक	-12.6023
व्यासपीठ	-12.6023
व्हिरोलॉजी	-12.6023
शारिरीक	-12.6023
शॉर्टसर्किट	-12.6023
श्रुंखले	-12.6023
श्वासनलिके	-12.6023
सणासुदीच	-12.6023
सफूरा	-12.6023
सॅनिटायझेशन	-12.6023
स्क्रिनिंग	-12.6023
स्टेरॉइड	-12.6023
हाणामारी	-12.6023
हिवताप	-12.6023
हिशोब	-12.6023
िनोफोबिया	-12.6023
ुएऩ्झा	-12.6023
ॅॅब	-12.6023
ॉम्ब	-12.6023
अर्भका	-12.6023
अॅकेडमी	-12.6023
आगंतुक	-12.6023
आयुर्वेद	-12.6023
एनएसपी	-12.6023
किंगडम	-12.6023
कॉन्सट्रेटर	-12.6023
खोकण	-12.6023
गाइडलाइन्स	-12.6023
जळजळ	-12.6023
टोसिलीझुम	-12.6023
डोलवी	-12.6023
तृण	-12.6023
तृप्त	-12.6023
दाटीवाटी	-12.6023
दूरध्वनी	-12.6023
पुनरावृत्ती	-12.6023
फिजिओथेरपी	-12.6023
मापदंड	-12.6023
लिहिण्या	-12.6023
वर्तुळात	-12.6023
विषाक्तत	-12.6023
शिजवि	-12.6023
श्रीलंका	-12.6023
संपादक	-12.6023
सीरिंज	-12.6023
सेमेलव	-12.6023
▁¦1957	-12.6023
▁¦1999	-12.6023
,83	-12.6023
अवलंबित्व	-12.6023
इथाका	-12.6023
ओढवली	-12.6023
ओलांडल	-12.6023
खेडेगाव	-12.6023
घालणाऱ्या	-12.6023
टूल्स	-12.6023
टेक्नि	-12.6023
दुबई	-12.6023
पिढ्यां	-12.6023
पृथ्वी	-12.6023
योद्धा	-12.6023
रजिस्टर	-12.6023
वर्षपूर्ती	-12.6023
व्हाल्व	-12.6023
शरिरा	-12.6023
शीर्ष	-12.6023
सिंगापुर	-12.6023
स्थूल	-12.6023
गप्पा	-12.6023
राजपूत	-12.6023
ऱ्हायनो	-12.6023
ोनाव्हीर	-12.6023
अल्ट्रा	-12.6023
केबिन	-12.6023
चौपाट	-12.6023
टिचिंग	-12.6023
टोलनाक	-12.6023
पोलंड	-12.6023
विशाखापट्टणम	-12.6023
शाश्वत	-12.6023
अॅडेनोव्हायर	-12.6023
गैरवर्तना	-12.6023
साधेपणान	-12.6023
स्टुड	-12.6023
स्पेसि	-12.6023
needs	-12.6023
डेटाबेस	-12.6023
पंकज	-12.6023
महिन्याभरात	-12.6023
सर्वधर्मीयां	-12.6023
इथून	-12.6023
महसुल	-12.6023
शवगृह	-12.6023
3-4	-12.6023
चॅट	-12.6023
कालमर्यादे	-12.6023
स्वीकृती	-12.6023
उजाड	-12.6023
संगीत	-12.6023
स्ट्रीप	-12.6023
अतुल	-12.6023
शवागृह	-12.6023
ढासळत	-12.6023
रेमेडीस	-12.6023
थांबवायच	-12.6023
फुफुसां	-12.6023
गझू	-12.6023
म्रपान	-12.6023
अनुपस्थिती	-12.6023
स्टोअरेज	-12.6023
ग्राउंड	-12.6023
866	-12.6023
आयटेम	-12.6023
बेन्झ	-12.6023
अभिकारकाच	-12.6023
हॅाट	-12.6023
सममित	-12.6023
सावट	-12.6023
ोक्सा	-12.6023
रोगाणूंव	-12.6023
चाळीस	-12.6023
able	-12.6023
बसवलेल	-12.6023
मायक्रोबायोलॉज	-12.6023
व्हायरोलॉजी	-12.6023
आयुक्तालया	-12.6023
स्थानांतर	-12.6023
शस्त्रक्रियेसाठी	-12.6023
पॅरामि	-12.6023
विवेकबुद्धी	-12.6023
जोडप्यांन	-12.6023
आकलन	-12.6023
ऋतू	-12.6023
कोपरापर्यं	-12.6023
ढकलायच	-12.6023
मारोत	-12.6024
वानखेडकर	-12.6024
इम्यूनिटी	-12.6024
सहानुभूती	-12.6024
नामांक	-12.6024
डिसिज	-12.6024
नोटा	-12.6024
मध्यमवर्गीय	-12.6024
सुचविल	-12.6024
लाईफ	-12.6024
फिजिशियन	-12.6024
परिवहन	-12.6024
पेटन्ट	-12.6024
लसीकरणासंदर्भात	-12.6024
सूत्रीकरणा	-12.6024
कंप्युट	-12.6024
र्मोन	-12.6024
लढवय्य	-12.6024
आश्चर्यकारक	-12.6024
चौघां	-12.6024
झाकण्यास	-12.6024
ोब्रा	-12.6024
्टमेंट	-12.6024
डॉमिन	-12.6024
ऋतु	-12.6024
एअरपोर्ट	-12.6024
स्मरणपत्र	-12.6024
बिछान	-12.6024
कार्बो	-12.6024
भागधारकां	-12.6024
सुरक्षिततेसाठी	-12.6024
रब्ज	-12.6024
कातडी	-12.6024
लावणाऱ्या	-12.6024
मतभेद	-12.6024
जैवसुरक्षा	-12.6024
सुपरमार्केट	-12.6024
खिडकीजवळ	-12.6024
डीजीसी	-12.6024
सुनावण्या	-12.6024
िकरणात	-12.6024
▁¦1.5	-12.6024
थांबविण्या	-12.6024
थाळी	-12.6025
अंगिकार	-12.6025
८००	-12.6025
डब्यां	-12.6025
पॅरामेडिक	-12.6025
वेन्टिलेटर्स	-12.6025
प्लेटफॉर्म्स	-12.6025
खालावलेल	-12.6025
अन्नपदार्थांच	-12.6025
भारतभरात	-12.6025
मिरवण	-12.6025
शेतमालाच	-12.6025
वन्यजीव	-12.6025
tho	-12.6025
चैन	-12.6025
isi	-12.6025
समाकल	-12.6025
enta	-12.6025
ग्लोव्ह	-12.6025
बेकायदेशीर	-12.6025
indian	-12.6025
हस्तांतरण	-12.6026
घरबसल्या	-12.6026
आखणी	-12.6026
खालावत	-12.6026
दुपटी	-12.6026
381¦	-12.6026
एमआरएनए	-12.6026
ट्युब	-12.6026
ल्हाद	-12.6026
गोळ्यांच	-12.6026
दारूबंदी	-12.6026
ट्रेड	-12.6026
इंपिरि	-12.6026
ंकेन	-12.6026
तळोज	-12.6027
ाधिकाऱ्यां	-12.6027
पाजण्या	-12.6027
दीडशे	-12.6027
सोडवाय	-12.6027
सिव्हेट्स	-12.6027
सुशांत	-12.6027
आगदे	-12.6027
स्मरण	-12.6027
अक्षरश	-12.6027
च्युअ	-12.6027
च्युस	-12.6028
सॅनिटायझरमध	-12.6028
सावधान	-12.6028
,51	-12.6028
अवध	-12.6028
पिवळ	-12.6028
मोसमा	-12.6029
यूएन	-12.6029
क्लास	-12.6029
भडक	-12.6029
कुटुंबनियोजनाच	-12.6029
आणणार	-12.6029
जोडणी	-12.6029
सांद्र	-12.603
ाईस	-12.603
▁!”	-12.603
एजें	-12.603
बायको	-12.603
ड्र्	-12.603
यकीय	-12.603
gm	-12.6031
धास्त	-12.6031
प्राणि	-12.6031
आशयाच	-12.6031
कोव्हि	-12.6032
सौम्यकरण	-12.6032
शिकवल	-12.6032
मृत्युसंख्ये	-12.6032
ओतण	-12.6033
मदतकार्या	-12.6034
धीश	-12.6036
,400	-12.6036
बेदम	-12.6036
न्मान	-12.6037
ुरबा	-12.6039
जाझच	-12.6039
्टिव	-12.6039
अर्चन	-12.604
car	-12.6043
stat	-12.6043
ऐकू	-12.6046
राहायच	-12.6047
112	-12.605
ियर्स	-12.6053
मूहि	-12.6054
ायनिंग	-12.6056
फेस्टिव	-12.6056
ुळे	-12.606
ेट्टी	-12.6063
सप्ताहा	-12.6063
ेक्टरी	-12.6067
मज्जा	-12.6069
ग्रासल	-12.607
बगीच	-12.6076
विनवण	-12.6081
पलट	-12.6083
विकायच	-12.6086
स्पिर	-12.6092
कोलेस्ट	-12.6092
पॅरासिटाम	-12.6099
ंजस	-12.6102
.1.	-12.6103
गवत	-12.6123
04	-12.6124
126	-12.6126
सिविकसच	-12.6131
ठेवणार	-12.6151
नायट	-12.6179
दारुच	-12.6187
्रेलि	-12.6189
चालण्या	-12.6191
कनेक्ट	-12.6202
परिपत्रक	-12.6212
त्सुनामीसारख	-12.6216
4,4	-12.623
अधि	-12.6232
प्रोजेक्	-12.6239
गुर्	-12.6256
वटवाघुळां	-12.6261
▁¦83	-12.6273
पसरवण्या	-12.6296
▁¦67	-12.63
मुखवट्याच	-12.6306
ठाकरेंकड	-12.6319
क्लोराई	-12.632
्लेम	-12.6336
छापण्या	-12.6346
ॅलिट	-12.6396
ुंबड	-12.6404
कंटाळ	-12.6417
अध्ययन	-12.6462
▁¦12014	-12.6485
असायच	-12.649
इन्स्	-12.6511
संकल्प	-12.6528
वापरकर्त	-12.655
सुपूर्	-12.6561
नागरीकां	-12.6611
इकॉनॉमि	-12.6638
तिनिधि	-12.6641
टोकाच	-12.6651
पृष्ठावर	-12.6655
जगायच	-12.6659
ity	-12.6671
न्यूझीलंडमध	-12.6677
लढण्या	-12.6725
पुराव्यांन	-12.674
वाढवाव	-12.6757
्युअर	-12.6795
304	-12.6829
28	-12.6877
बोलण	-12.6907
नाईलाज	-12.6926
उरल	-12.6944
भागीदारां	-12.6985
!	-12.9323
α	-12.9356
ॲ	-12.9356
“	-13.4323
ऎ	-13.4356
=	-13.4356
β	-13.4356
—	-13.4356
]	-14.4325
?	-14.4325
%	-14.4354
ऱ	-14.4355
~	-14.4356
ß	-14.4356
å	-14.4356
γ	-14.4356
ॉ	-14.4356
