<pad>	0
</s>	0
<unk>	0
▁¦	-0
ال	-1
▁.	-2
ان	-3
وا	-4
لا	-5
ين	-6
من	-7
في	-8
ون	-9
ما	-10
ار	-11
عل	-12
رب	-13
لك	-14
هم	-15
ها	-16
را	-17
كل	-18
يا	-19
الم	-20
اب	-21
ذا	-22
ول	-23
نا	-24
الى	-25
لي	-26
اس	-27
الرب	-28
بي	-29
ام	-30
قد	-31
مع	-32
له	-33
وت	-34
بن	-35
وال	-36
كم	-37
على	-38
ير	-39
يل	-40
هو	-41
قال	-42
الذ	-43
وم	-44
لان	-45
يع	-46
ور	-47
وس	-48
يد	-49
كان	-50
رج	-51
يم	-52
وب	-53
عن	-54
يس	-55
ائ	-56
تي	-57
الس	-58
لم	-59
وع	-60
عد	-61
وي	-62
الي	-63
اخ	-64
ئيل	-65
ود	-66
اء	-67
الش	-68
الذي	-69
اي	-70
عب	-71
ارض	-72
يق	-73
وج	-74
حد	-75
ولا	-76
الا	-77
ته	-78
رائيل	-79
ذه	-80
ية	-81
تم	-82
اسرائيل	-83
فا	-84
وق	-85
كن	-86
لل	-87
مل	-88
بر	-89
بع	-90
الج	-91
بل	-92
دا	-93
الح	-94
كون	-95
وح	-96
به	-97
الله	-98
با	-99
فر	-100
فت	-101
الك	-102
يت	-103
بيت	-104
انا	-105
شر	-106
فس	-107
هذا	-108
قل	-109
علي	-110
اله	-111
ميع	-112
ضا	-113
وه	-114
يح	-115
لام	-116
اد	-117
صر	-118
اما	-119
فقال	-120
الارض	-121
مس	-122
مر	-123
التي	-124
اع	-125
ملك	-126
الع	-127
كلم	-128
كر	-129
اج	-130
سب	-131
ني	-132
طر	-133
بني	-134
حت	-135
جميع	-136
قائ	-137
اه	-138
ثم	-139
ايضا	-140
ذلك	-141
نة	-142
واحد	-143
سل	-144
بح	-145
وقال	-146
اني	-147
ات	-148
نع	-149
وان	-150
الملك	-151
خل	-152
يب	-153
رأ	-154
اق	-155
هوذا	-156
بال	-157
كث	-158
الذين	-159
وص	-160
تر	-161
عند	-162
وك	-163
وكان	-164
ايا	-165
هر	-166
اف	-167
مت	-168
يف	-169
اح	-170
ابن	-171
الخ	-172
لانه	-173
مة	-174
فل	-175
ليم	-176
جل	-177
دين	-178
امام	-179
طل	-180
ذهب	-181
الن	-182
جد	-183
شي	-184
وخ	-185
ماء	-186
انه	-187
فع	-188
ست	-189
داود	-190
آب	-191
كذا	-192
دي	-193
هي	-194
ضع	-195
خر	-196
لهم	-197
نفس	-198
الق	-199
هنا	-200
الب	-201
المس	-202
كما	-203
لكن	-204
موس	-205
انت	-206
هكذا	-207
اليوم	-208
سان	-209
ومن	-210
دم	-211
يه	-212
ليس	-213
الر	-214
وكل	-215
او	-216
يش	-217
رجل	-218
تع	-219
وش	-220
خذ	-221
الشعب	-222
تق	-223
رف	-224
هذه	-225
اذ	-226
رة	-227
يسوع	-228
بت	-229
اص	-230
نح	-231
تح	-232
بين	-233
الص	-234
بعد	-235
ظر	-236
قائلا	-237
الام	-238
اسم	-239
خرج	-240
حتى	-241
ورش	-242
كت	-243
عين	-244
لكم	-245
تل	-246
اش	-247
آن	-248
قط	-249
علم	-250
بنو	-251
يكون	-252
وفي	-253
دينة	-254
سمع	-255
قر	-256
الف	-257
ورشليم	-258
بيد	-259
تك	-260
شا	-261
حم	-262
يهوذا	-263
واما	-264
وف	-265
يقول	-266
انسان	-267
لت	-268
الث	-269
طي	-270
ماذا	-271
موسى	-272
هناك	-273
اورشليم	-274
عشر	-275
الت	-276
قدس	-277
ولكن	-278
صنع	-279
رق	-280
بك	-281
الغ	-282
مد	-283
حسب	-284
ولم	-285
يين	-286
باب	-287
يمة	-288
تن	-289
جعل	-290
لكي	-291
بها	-292
ورا	-293
مح	-294
لاث	-295
حين	-296
يرة	-297
سر	-298
عظ	-299
حي	-300
عة	-301
ضرب	-302
ئة	-303
عا	-304
أت	-305
عون	-306
يدي	-307
خط	-308
وات	-309
زل	-310
مي	-311
عليه	-312
ساء	-313
فعل	-314
مصر	-315
عمل	-316
جر	-317
فان	-318
شعب	-319
طريق	-320
ذبح	-321
جاء	-322
ثلاث	-323
راس	-324
ايام	-325
اث	-326
بة	-327
ولد	-328
جس	-329
ارج	-330
الشر	-331
يام	-332
النا	-333
وار	-334
اذا	-335
مث	-336
احد	-337
المدينة	-338
حق	-339
عم	-340
وجه	-341
فن	-342
تد	-343
واق	-344
بس	-345
غض	-346
يون	-347
تخ	-348
المسيح	-349
وسط	-350
وضع	-351
ينا	-352
بار	-353
الآن	-354
هد	-355
صعد	-356
لين	-357
وز	-358
صوت	-359
بعة	-360
تها	-361
رؤ	-362
هما	-363
اجل	-364
يوم	-365
عبد	-366
يك	-367
رع	-368
ضة	-369
ياء	-370
للرب	-371
شع	-372
رأة	-373
الاب	-374
وة	-375
فيه	-376
لاء	-377
سم	-378
قدم	-379
فلا	-380
ارسل	-381
كلام	-382
سن	-383
سنة	-384
مئة	-385
الد	-386
بق	-387
فق	-388
وجد	-389
آخر	-390
اعد	-391
حة	-392
هل	-393
مات	-394
وعلى	-395
ولما	-396
بز	-397
طين	-398
از	-399
السماء	-400
أل	-401
طلب	-402
عط	-403
لاني	-404
اهن	-405
ايها	-406
مو	-407
معه	-408
الار	-409
تكلم	-410
غن	-411
والم	-412
يأ	-413
تهم	-414
فظ	-415
دن	-416
صار	-417
البر	-418
الجن	-419
رجال	-420
حل	-421
قوب	-422
بحر	-423
يخ	-424
انب	-425
غير	-426
الامم	-427
ليل	-428
هنة	-429
الانسان	-430
قدام	-431
ارة	-432
تس	-433
يرا	-434
شاول	-435
تكون	-436
وها	-437
وهو	-438
ؤلاء	-439
انتم	-440
جت	-441
دخل	-442
رك	-443
دع	-444
اخذ	-445
بنا	-446
صل	-447
تأ	-448
جع	-449
قول	-450
ئيس	-451
جدا	-452
مثل	-453
واذا	-454
عش	-455
سا	-456
يعقوب	-457
قي	-458
اليه	-459
الكاهن	-460
وث	-461
فرح	-462
البيت	-463
واخ	-464
جاب	-465
كثر	-466
لها	-467
فيها	-468
اض	-469
شيء	-470
اعط	-471
قائلين	-472
هود	-473
كنت	-474
عز	-475
قت	-476
نفسه	-477
رس	-478
لذلك	-479
لاجل	-480
لاوي	-481
وقت	-482
وقد	-483
فلما	-484
روح	-485
الهك	-486
امر	-487
للم	-488
تحت	-489
وراء	-490
الابد	-491
طع	-492
رون	-493
وهم	-494
هؤلاء	-495
ذرا	-496
وما	-497
كانت	-498
وانا	-499
السيد	-500
جن	-501
مخ	-502
ابي	-503
آبائ	-504
رئيس	-505
اك	-506
كلمة	-507
الرجل	-508
الحق	-509
لانهم	-510
مال	-511
سك	-512
الز	-513
فلم	-514
لاك	-515
كثير	-516
دة	-517
تلك	-518
نب	-519
قب	-520
قيا	-521
وني	-522
البحر	-523
الل	-524
كانوا	-525
لنا	-526
نص	-527
عبيد	-528
جه	-529
قبل	-530
يده	-531
قلب	-532
سي	-533
خمس	-534
رجع	-535
بد	-536
نار	-537
فم	-538
ائر	-539
فلس	-540
نحو	-541
ليمان	-542
قة	-543
وط	-544
رائ	-545
ونه	-546
الكهنة	-547
صد	-548
منه	-549
ياه	-550
الناس	-551
جمع	-552
واس	-553
امرأة	-554
بابل	-555
سليمان	-556
السم	-557
لماذا	-558
اط	-559
يكن	-560
ذب	-561
عليك	-562
عبر	-563
فلسطين	-564
غر	-565
عليهم	-566
ورة	-567
عر	-568
وأ	-569
الجنود	-570
يز	-571
فاجاب	-572
ئذ	-573
تش	-574
انك	-575
وته	-576
راه	-577
يسمع	-578
لما	-579
الايام	-580
كثيرة	-581
حن	-582
واب	-583
يهو	-584
فرعون	-585
الاخ	-586
جبل	-587
بيحة	-588
نفسي	-589
بعض	-590
خبز	-591
ويكون	-592
يوس	-593
جي	-594
فد	-595
رؤساء	-596
مق	-597
الفلسطين	-598
يمان	-599
وجميع	-600
عنه	-601
فوق	-602
الهي	-603
حينئذ	-604
رت	-605
حيا	-606
مش	-607
فين	-608
نحن	-609
لامي	-610
واحدة	-611
حز	-612
هب	-613
است	-614
غل	-615
نم	-616
ذكر	-617
السموات	-618
حرق	-619
مكان	-620
اكل	-621
عام	-622
معي	-623
رى	-624
غي	-625
لئ	-626
اولا	-627
بلا	-628
طلق	-629
عيني	-630
السيف	-631
اليهود	-632
زع	-633
عشرة	-634
ده	-635
عاد	-636
لانك	-637
ماع	-638
مجد	-639
اسمه	-640
آله	-641
المن	-642
عليها	-643
زم	-644
راهيم	-645
فضة	-646
تت	-647
وبين	-648
ارا	-649
نس	-650
مرا	-651
وحد	-652
الاول	-653
شب	-654
عي	-655
كة	-656
هان	-657
تاب	-658
تين	-659
قلت	-660
اخرج	-661
انية	-662
ئا	-663
قدر	-664
ابنه	-665
هرون	-666
عه	-667
فك	-668
كام	-669
اة	-670
ظلم	-671
الكلام	-672
رح	-673
خارج	-674
الروح	-675
ذبيحة	-676
لة	-677
منا	-678
سد	-679
فأ	-680
واخذ	-681
بول	-682
ذين	-683
وير	-684
اليك	-685
منهم	-686
مدينة	-687
رم	-688
رام	-689
حول	-690
مدن	-691
اقول	-692
ماعة	-693
ثلاثة	-694
ضي	-695
لس	-696
اسمع	-697
حص	-698
صرخ	-699
كمة	-700
وليس	-701
البرية	-702
سبط	-703
لئلا	-704
هانذا	-705
العظ	-706
انفس	-707
مني	-708
ثيا	-709
القد	-710
بيته	-711
يط	-712
الشع	-713
لن	-714
وية	-715
بارك	-716
نفسك	-717
السنة	-718
صف	-719
لكل	-720
لاص	-721
قلوب	-722
والى	-723
شف	-724
حيث	-725
عني	-726
يدة	-727
وانت	-728
وعشر	-729
يوسف	-730
عو	-731
ايل	-732
ارب	-733
سلط	-734
مكت	-735
المذبح	-736
تب	-737
رد	-738
راء	-739
متى	-740
ابراهيم	-741
فار	-742
الآب	-743
باط	-744
واح	-745
الطريق	-746
الكل	-747
بيوت	-748
واعط	-749
يشوع	-750
يعمل	-751
خز	-752
يو	-753
ابنا	-754
جم	-755
نه	-756
فض	-757
سبع	-758
ظهر	-759
اكثر	-760
ري	-761
يج	-762
بهم	-763
شعبي	-764
الهنا	-765
قطع	-766
عظيم	-767
تار	-768
نجس	-769
الشعوب	-770
تط	-771
هن	-772
باح	-773
وخمس	-774
ضى	-775
ويس	-776
سيدي	-777
اذهب	-778
صح	-779
أمر	-780
سيد	-781
قتل	-782
وقف	-783
اربع	-784
فتح	-785
وين	-786
الفا	-787
سبعة	-788
يعرف	-789
والآن	-790
تكم	-791
جار	-792
باسم	-793
وعمل	-794
بط	-795
صير	-796
رايم	-797
نعمة	-798
الموت	-799
يامين	-800
جهة	-801
خير	-802
قام	-803
الشهر	-804
سلا	-805
الاس	-806
واحدا	-807
انبياء	-808
بكل	-809
رأى	-810
آلهة	-811
شيئا	-812
الحقل	-813
القدس	-814
بش	-815
اين	-816
موا	-817
انهم	-818
ذي	-819
شد	-820
قيم	-821
انيين	-822
امه	-823
كيف	-824
معك	-825
وبن	-826
العالم	-827
الرا	-828
مكتوب	-829
وكانت	-830
اللاوي	-831
فة	-832
نين	-833
يات	-834
جانب	-835
يأتي	-836
يخرج	-837
شق	-838
ؤمن	-839
يدخل	-840
لح	-841
تان	-842
صاح	-843
تقول	-844
يث	-845
ترك	-846
حاب	-847
ضط	-848
قض	-849
مه	-850
اكن	-851
بالا	-852
وكلم	-853
بان	-854
راب	-855
خيمة	-856
وجاء	-857
وصايا	-858
حك	-859
فلي	-860
ويل	-861
ضر	-862
اهل	-863
وجعل	-864
وملك	-865
الاردن	-866
المرأة	-867
دخ	-868
قوم	-869
يعة	-870
ابني	-871
سلام	-872
قا	-873
بوا	-874
عرف	-875
الها	-876
تز	-877
بطر	-878
دون	-879
ربوا	-880
الباب	-881
الهكم	-882
علمون	-883
الجميع	-884
الفلسطينيين	-885
تا	-886
ارت	-887
يدك	-888
وادي	-889
وبعد	-890
الرجال	-891
وقالوا	-892
خد	-893
سبب	-894
عبدك	-895
تقد	-896
يما	-897
اخبر	-898
لد	-899
امة	-900
كنع	-901
منذ	-902
النبي	-903
مك	-904
اوص	-905
يدا	-906
خطية	-907
كله	-908
لبني	-909
اليكم	-910
نج	-911
وغ	-912
آدم	-913
الط	-914
خلص	-915
دوا	-916
ضيق	-917
فهم	-918
لوك	-919
الخط	-920
سكان	-921
قوا	-922
ميا	-923
هور	-924
جارة	-925
فكان	-926
مقدس	-927
موآب	-928
قص	-929
يغ	-930
الجبل	-931
ارك	-932
غضب	-933
تعمل	-934
وضرب	-935
افرايم	-936
بخ	-937
مان	-938
فانه	-939
عليكم	-940
لاف	-941
بطرس	-942
يفعل	-943
دهم	-944
صهي	-945
معا	-946
ايدي	-947
رؤوس	-948
ملوك	-949
صهيون	-950
طرق	-951
وقل	-952
بولس	-953
عج	-954
طرح	-955
لحم	-956
وبنو	-957
اعدائ	-958
رض	-959
عت	-960
قذ	-961
عطي	-962
فوا	-963
شرار	-964
الشمس	-965
الليل	-966
اخط	-967
بنت	-968
قلبه	-969
يتكلم	-970
عص	-971
وى	-972
ابل	-973
يعطي	-974
بون	-975
ويا	-976
ابيه	-977
يموت	-978
لداود	-979
الصد	-980
أس	-981
جتماع	-982
كثيرا	-983
حفظ	-984
انظر	-985
محرق	-986
المياه	-987
اخوت	-988
منها	-989
بنيامين	-990
الاجتماع	-991
ئم	-992
لوا	-993
منس	-994
وذهب	-995
موئيل	-996
تج	-997
عى	-998
فه	-999
كذلك	-1000
اثم	-1001
صاد	-1002
والي	-1003
لأ	-1004
فخرج	-1005
تلامي	-1006
وارسل	-1007
حر	-1008
وآ	-1009
حا	-1010
حما	-1011
بكر	-1012
ثمر	-1013
مين	-1014
واذ	-1015
اشور	-1016
عظيمة	-1017
اغ	-1018
مز	-1019
فمن	-1020
ؤساء	-1021
اثان	-1022
انها	-1023
رجلا	-1024
شيوخ	-1025
معهم	-1026
فقالت	-1027
فخ	-1028
قم	-1029
عشائر	-1030
فارسل	-1031
اول	-1032
شرب	-1033
بهذا	-1034
فاخذ	-1035
يطلب	-1036
يمين	-1037
النار	-1038
جلس	-1039
الاخوة	-1040
الناموس	-1041
أتى	-1042
انة	-1043
عوا	-1044
اعين	-1045
خلاص	-1046
فجاء	-1047
قلبك	-1048
ملكة	-1049
صي	-1050
ابد	-1051
اصعد	-1052
انكم	-1053
صالح	-1054
كلها	-1055
يعلم	-1056
الفضة	-1057
ذن	-1058
ضل	-1059
خبر	-1060
دائ	-1061
ليد	-1062
هار	-1063
بنيه	-1064
ونها	-1065
علينا	-1066
نون	-1067
ارام	-1068
وحنا	-1069
ووضع	-1070
الجسد	-1071
لانكم	-1072
نت	-1073
تنا	-1074
تسمع	-1075
ذراع	-1076
ملاك	-1077
الساب	-1078
الثالث	-1079
ابا	-1080
حرب	-1081
قرب	-1082
وجهه	-1083
تابوت	-1084
الاشرار	-1085
لست	-1086
نان	-1087
صارت	-1088
وخرج	-1089
السام	-1090
ثا	-1091
صب	-1092
اعة	-1093
يحا	-1094
أتوا	-1095
افوا	-1096
رأيت	-1097
الحرب	-1098
الامور	-1099
الواحد	-1100
صموئيل	-1101
جرة	-1102
سار	-1103
وفا	-1104
ليلا	-1105
يأكل	-1106
الجبال	-1107
أتي	-1108
بير	-1109
واي	-1110
افعل	-1111
انما	-1112
قلبي	-1113
ارميا	-1114
وء	-1115
حرقة	-1116
مذبح	-1117
أكل	-1118
ولل	-1119
الحي	-1120
الشرير	-1121
الشمال	-1122
فح	-1123
أما	-1124
دان	-1125
سقط	-1126
سكن	-1127
مائ	-1128
آلاف	-1129
وبنا	-1130
يوآب	-1131
ذر	-1132
كب	-1133
بات	-1134
جيش	-1135
فهو	-1136
جتمع	-1137
جلعاد	-1138
دفع	-1139
غرب	-1140
وبي	-1141
وارب	-1142
يقتل	-1143
الذهب	-1144
حزقيا	-1145
الثاني	-1146
تة	-1147
اخل	-1148
تعب	-1149
خرا	-1150
سفر	-1151
قون	-1152
كلا	-1153
يبة	-1154
الفر	-1155
الهيكل	-1156
خرب	-1157
ومع	-1158
المح	-1159
امرأ	-1160
تعرف	-1161
منكم	-1162
ولدت	-1163
يصنع	-1164
اربعة	-1165
الامر	-1166
الماء	-1167
وهي	-1168
ويع	-1169
البا	-1170
حياة	-1171
لانها	-1172
آبائهم	-1173
الجماعة	-1174
أخذ	-1175
أوا	-1176
فاني	-1177
يوجد	-1178
وثلاث	-1179
السلام	-1180
الموضع	-1181
ثل	-1182
زر	-1183
اضط	-1184
كتب	-1185
زلوا	-1186
عبيده	-1187
لاننا	-1188
وتكون	-1189
ظم	-1190
الآ	-1191
رفع	-1192
فقد	-1193
كرا	-1194
كنا	-1195
موت	-1196
ولي	-1197
الكر	-1198
بالح	-1199
واجعل	-1200
فقالوا	-1201
كي	-1202
سبي	-1203
واش	-1204
وعد	-1205
ولك	-1206
برون	-1207
راسه	-1208
رجلي	-1209
فقام	-1210
كثرة	-1211
فالآن	-1212
طة	-1213
انج	-1214
تعد	-1215
عنا	-1216
يرب	-1217
ادوم	-1218
سنين	-1219
يقدر	-1220
النهر	-1221
الوقت	-1222
ملكوت	-1223
بالسيف	-1224
ثبت	-1225
للا	-1226
ياة	-1227
يلة	-1228
اخرى	-1229
خبزا	-1230
معكم	-1231
ومات	-1232
فيكون	-1233
الساكن	-1234
المكان	-1235
السامرة	-1236
الانبياء	-1237
ثر	-1238
كف	-1239
صور	-1240
الدم	-1241
امور	-1242
سمعت	-1243
اللاويين	-1244
ظل	-1245
ائح	-1246
زوج	-1247
ينة	-1248
الوم	-1249
ملكا	-1250
المدن	-1251
اليها	-1252
ابر	-1253
حها	-1254
قية	-1255
المت	-1256
عمون	-1257
لهما	-1258
واسم	-1259
وجوه	-1260
خطايا	-1261
جب	-1262
اري	-1263
فاط	-1264
مام	-1265
يتم	-1266
يجد	-1267
شعبه	-1268
عيون	-1269
مالك	-1270
نحاس	-1271
الخطية	-1272
ذل	-1273
زن	-1274
اجت	-1275
امس	-1276
ليست	-1277
اليهم	-1278
المساء	-1279
جز	-1280
تفع	-1281
لائ	-1282
وعن	-1283
أليس	-1284
شعبك	-1285
وهذه	-1286
عندما	-1287
خا	-1288
در	-1289
ارس	-1290
امل	-1291
بغض	-1292
جسد	-1293
فون	-1294
تفعل	-1295
عينيك	-1296
مئ	-1297
الة	-1298
باش	-1299
الاح	-1300
واست	-1301
المحل	-1302
تلاميذه	-1303
تكن	-1304
قين	-1305
اجعل	-1306
اعطي	-1307
تقدم	-1308
جالس	-1309
ميرا	-1310
ذبائح	-1311
يوحنا	-1312
العظيم	-1313
والذين	-1314
باس	-1315
بعل	-1316
تني	-1317
كيم	-1318
للك	-1319
نظر	-1320
ينب	-1321
رائض	-1322
وسمع	-1323
للملك	-1324
بالنار	-1325
بغ	-1326
بكم	-1327
تعل	-1328
جاد	-1329
متك	-1330
اجاب	-1331
بسبب	-1332
ساكن	-1333
الدهر	-1334
المصر	-1335
قالوا	-1336
وانتم	-1337
الحياة	-1338
خي	-1339
صن	-1340
امن	-1341
تخم	-1342
رفة	-1343
ضاء	-1344
فقط	-1345
كين	-1346
وله	-1347
يتك	-1348
مياه	-1349
والح	-1350
لانفس	-1351
الايمان	-1352
اكم	-1353
حدث	-1354
عهد	-1355
كسر	-1356
يسة	-1357
العد	-1358
اننا	-1359
نصيب	-1360
امامك	-1361
الجنوب	-1362
انفسهم	-1363
مض	-1364
يص	-1365
طوب	-1366
قوة	-1367
مون	-1368
وخذ	-1369
وصل	-1370
يسو	-1371
بحسب	-1372
معون	-1373
والس	-1374
وبيت	-1375
وصعد	-1376
جماعة	-1377
لنفسك	-1378
المقدس	-1379
كثيرين	-1380
آمن	-1381
افت	-1382
حكم	-1383
شرا	-1384
فاس	-1385
كار	-1386
مرك	-1387
ناح	-1388
ودا	-1389
تأكل	-1390
قداس	-1391
شالوم	-1392
الصباح	-1393
كثيرون	-1394
قيق	-1395
بنات	-1396
خدمة	-1397
ضربة	-1398
والرب	-1399
اسمعوا	-1400
تف	-1401
يؤ	-1402
ورج	-1403
عوضا	-1404
يتهم	-1405
الاثم	-1406
واخبر	-1407
لج	-1408
عال	-1409
مير	-1410
واع	-1411
ورأ	-1412
ابتد	-1413
بيده	-1414
يقوم	-1415
جميعا	-1416
عشرين	-1417
عشيرة	-1418
عظيما	-1419
تى	-1420
غط	-1421
مج	-1422
تعط	-1423
رحم	-1424
صلا	-1425
يبا	-1426
عيسو	-1427
والك	-1428
ودخل	-1429
اعمال	-1430
الاله	-1431
والذي	-1432
بما	-1433
طرد	-1434
منك	-1435
اسحق	-1436
بعون	-1437
تصنع	-1438
هادة	-1439
الغنم	-1440
صاحبه	-1441
كنعان	-1442
السابع	-1443
ئر	-1444
بشر	-1445
بقر	-1446
سيف	-1447
قاد	-1448
لبن	-1449
ويم	-1450
صاعد	-1451
وابن	-1452
ياكل	-1453
اولاد	-1454
تقدمة	-1455
وفيما	-1456
ابشالوم	-1457
جئ	-1458
ارد	-1459
صان	-1460
فيك	-1461
فعلت	-1462
وسجد	-1463
المسكن	-1464
بم	-1465
لو	-1466
الض	-1467
اهر	-1468
غنم	-1469
لاس	-1470
هلك	-1471
اذرع	-1472
المخ	-1473
عنده	-1474
كنتم	-1475
السبت	-1476
عينيه	-1477
واقام	-1478
الخارج	-1479
مرة	-1480
وسى	-1481
ونا	-1482
يعط	-1483
حديد	-1484
خمسة	-1485
وامر	-1486
وهذا	-1487
يصعد	-1488
امامه	-1489
شافاط	-1490
النساء	-1491
قه	-1492
لف	-1493
اضي	-1494
خطئ	-1495
ذاب	-1496
وبة	-1497
بقية	-1498
تخرج	-1499
ربنا	-1500
وصنع	-1501
لنفسه	-1502
ئك	-1503
وض	-1504
امي	-1505
تست	-1506
حاس	-1507
خدم	-1508
زيت	-1509
معل	-1510
نها	-1511
نور	-1512
اسمك	-1513
بنين	-1514
تعلم	-1515
قليل	-1516
يدون	-1517
الظلم	-1518
المست	-1519
امامي	-1520
بالرب	-1521
يهويا	-1522
وعشرين	-1523
يربعام	-1524
المحرقة	-1525
تص	-1526
تغ	-1527
حه	-1528
ويش	-1529
اذكر	-1530
اعلم	-1531
داخل	-1532
داني	-1533
احكام	-1534
تكلمت	-1535
سمعوا	-1536
ويقول	-1537
رأوبين	-1538
يوناثان	-1539
لون	-1540
ابوت	-1541
الآخر	-1542
الغرب	-1543
ايليا	-1544
ثيابه	-1545
ذراعا	-1546
عبيدك	-1547
وهرون	-1548
دد	-1549
انس	-1550
سوا	-1551
فدخل	-1552
نساء	-1553
وصية	-1554
اخوته	-1555
الشرق	-1556
محرقة	-1557
الثلاث	-1558
بث	-1559
وفر	-1560
ونة	-1561
ويد	-1562
يفت	-1563
الكث	-1564
رتفع	-1565
فاذا	-1566
فذهب	-1567
فقلت	-1568
والع	-1569
ودعا	-1570
يسين	-1571
جاءوا	-1572
وعشرون	-1573
حس	-1574
احت	-1575
عاة	-1576
ناك	-1577
ابنة	-1578
ضطجع	-1579
القلب	-1580
لجميع	-1581
مكانه	-1582
ناموس	-1583
يمالك	-1584
اهم	-1585
صرت	-1586
قسم	-1587
نام	-1588
بيتك	-1589
حكمة	-1590
خذوا	-1591
قريب	-1592
مسكن	-1593
يذهب	-1594
الدار	-1595
امرأته	-1596
يقولون	-1597
الاموات	-1598
ائل	-1599
باؤ	-1600
تبر	-1601
ترب	-1602
فوس	-1603
مار	-1604
نبي	-1605
نيا	-1606
ارتح	-1607
تدخل	-1608
شعوب	-1609
وجهك	-1610
ولاد	-1611
ووقف	-1612
اسباط	-1613
صعدوا	-1614
صغ	-1615
احب	-1616
عبي	-1617
عدد	-1618
وحش	-1619
لهذا	-1620
ياهو	-1621
دائما	-1622
الكلمة	-1623
اخي	-1624
دار	-1625
ذان	-1626
زرع	-1627
سين	-1628
شرق	-1629
شون	-1630
عنك	-1631
بصوت	-1632
رجاء	-1633
شريعة	-1634
مبارك	-1635
ينبغي	-1636
والارض	-1637
زي	-1638
كس	-1639
آتي	-1640
اكر	-1641
لاط	-1642
نوح	-1643
اخآب	-1644
بالك	-1645
لبيت	-1646
موضع	-1647
وحده	-1648
ونني	-1649
يديه	-1650
اعطيت	-1651
بالحق	-1652
لموسى	-1653
قلوبهم	-1654
عشائرهم	-1655
آه	-1656
ئه	-1657
حسن	-1658
ضوا	-1659
فير	-1660
يعل	-1661
آباء	-1662
اخطأ	-1663
اسات	-1664
الاث	-1665
برية	-1666
خيرا	-1667
عمله	-1668
فيكم	-1669
كرسي	-1670
معنا	-1671
يحفظ	-1672
اجي	-1673
الظ	-1674
ثان	-1675
ثور	-1676
نزل	-1677
هير	-1678
آمين	-1679
الاش	-1680
الغد	-1681
باطل	-1682
تأتي	-1683
فاعط	-1684
فدعا	-1685
كلهم	-1686
وجهي	-1687
يوما	-1688
اياها	-1689
ايتها	-1690
النهار	-1691
الهاوية	-1692
نق	-1693
تنب	-1694
خرة	-1695
راح	-1696
سلك	-1697
عها	-1698
لية	-1699
ناء	-1700
نصف	-1701
ورح	-1702
غنين	-1703
فليس	-1704
قدمة	-1705
ودين	-1706
يحمل	-1707
فتكون	-1708
وانظر	-1709
وهكذا	-1710
تذ	-1711
شم	-1712
ضد	-1713
طف	-1714
ائب	-1715
جان	-1716
حمل	-1717
صرف	-1718
فرا	-1719
واث	-1720
يرى	-1721
آنية	-1722
اسمي	-1723
القر	-1724
ههنا	-1725
وقتل	-1726
وقالت	-1727
ورؤساء	-1728
واللاوي	-1729
نك	-1730
يض	-1731
اعم	-1732
روا	-1733
صرا	-1734
فما	-1735
قاء	-1736
لاب	-1737
لله	-1738
نوا	-1739
وحي	-1740
يوش	-1741
اعظم	-1742
الجم	-1743
سلاه	-1744
طيور	-1745
فضرب	-1746
والق	-1747
وعند	-1748
يأخذ	-1749
يرجع	-1750
آبائه	-1751
الجمع	-1752
العهد	-1753
واخرج	-1754
وايضا	-1755
اربعين	-1756
ايديهم	-1757
دانيين	-1758
صا	-1759
تيق	-1760
جيء	-1761
حاز	-1762
حجر	-1763
سام	-1764
هلم	-1765
فينة	-1766
لصوت	-1767
ورجع	-1768
قدامه	-1769
لائكة	-1770
معرفة	-1771
الملوك	-1772
حور	-1773
فاء	-1774
فرة	-1775
وعر	-1776
ومر	-1777
يعا	-1778
ائيل	-1779
طوبى	-1780
والج	-1781
يجعل	-1782
كنيسة	-1783
السحاب	-1784
أن	-1785
اشر	-1786
حلف	-1787
عنة	-1788
لدى	-1789
نعم	-1790
واغ	-1791
ابيك	-1792
اصنع	-1793
صباح	-1794
طعام	-1795
عبدي	-1796
والا	-1797
قائلة	-1798
ونزلوا	-1799
يسمعوا	-1800
جث	-1801
اتب	-1802
ارى	-1803
اهد	-1804
بنى	-1805
تفت	-1806
ثال	-1807
ربة	-1808
زوا	-1809
سيح	-1810
شار	-1811
قوت	-1812
لات	-1813
مما	-1814
وكم	-1815
أتون	-1816
اكون	-1817
اليا	-1818
بالع	-1819
بعضا	-1820
بعيد	-1821
يسكن	-1822
اجتمع	-1823
حوالي	-1824
مقابل	-1825
دانيال	-1826
وكانوا	-1827
تض	-1828
خص	-1829
يذ	-1830
ادع	-1831
تهج	-1832
حار	-1833
داع	-1834
طير	-1835
طيع	-1836
ملة	-1837
ارجع	-1838
شجرة	-1839
عهدا	-1840
غريب	-1841
وارض	-1842
واضع	-1843
ودية	-1844
ونحن	-1845
ينظر	-1846
ابواب	-1847
السجن	-1848
بعدما	-1849
بينهم	-1850
سمعان	-1851
مغ	-1852
ألم	-1853
ثوب	-1854
خشب	-1855
خمر	-1856
راج	-1857
شاء	-1858
شبه	-1859
فمه	-1860
نير	-1861
اناس	-1862
عمال	-1863
عندك	-1864
فسمع	-1865
والش	-1866
يسقط	-1867
الأمر	-1868
الزيت	-1869
المجد	-1870
سلطان	-1871
الحكمة	-1872
الصالح	-1873
العظيمة	-1874
اؤ	-1875
ره	-1876
اية	-1877
داء	-1878
فام	-1879
لمن	-1880
ميت	-1881
يلا	-1882
المر	-1883
بنون	-1884
تنظر	-1885
صنعت	-1886
وجدت	-1887
ودون	-1888
الخير	-1889
كونوا	-1890
للشعب	-1891
قلوبكم	-1892
واخوته	-1893
الرؤساء	-1894
عس	-1895
ارح	-1896
خطي	-1897
ردي	-1898
فمي	-1899
كبر	-1900
مست	-1901
مشي	-1902
مطر	-1903
هرب	-1904
وتس	-1905
آباؤ	-1906
اخيه	-1907
العر	-1908
الغر	-1909
تحفظ	-1910
شاقل	-1911
عنها	-1912
غضبه	-1913
فصعد	-1914
فمات	-1915
نجسا	-1916
وحين	-1917
يئيل	-1918
ياتي	-1919
اضطجع	-1920
الريح	-1921
والفر	-1922
وبقية	-1923
ارسلني	-1924
الاولى	-1925
الجليل	-1926
المرتفع	-1927
المغنين	-1928
ائط	-1929
بيب	-1930
كره	-1931
لاخ	-1932
لبس	-1933
ناد	-1934
يلي	-1935
ادخل	-1936
اطلب	-1937
ذهبا	-1938
هائم	-1939
العمل	-1940
حبرون	-1941
فرائض	-1942
للحرب	-1943
خم	-1944
زا	-1945
سور	-1946
غيظ	-1947
يضة	-1948
جعلت	-1949
عنهم	-1950
ففعل	-1951
وابي	-1952
واله	-1953
وعبد	-1954
وقلت	-1955
يقبل	-1956
النفس	-1957
بابرة	-1958
الساعة	-1959
تعلمون	-1960
الكلدانيين	-1961
الفلسطينيون	-1962
حض	-1963
نط	-1964
تخف	-1965
جئت	-1966
دور	-1967
شوا	-1968
فات	-1969
ليت	-1970
وزن	-1971
اعرف	-1972
اقام	-1973
تطيع	-1974
تهما	-1975
زمان	-1976
عبده	-1977
فكلم	-1978
واعد	-1979
واقف	-1980
يثبت	-1981
يهلك	-1982
السبي	-1983
المعد	-1984
الههم	-1985
بكلام	-1986
وتصنع	-1987
الرابع	-1988
الفريس	-1989
قى	-1990
مص	-1991
ترى	-1992
دعا	-1993
شهر	-1994
يبه	-1995
اياه	-1996
بعين	-1997
تموه	-1998
غلام	-1999
قدوس	-2000
نسلك	-2001
وحدث	-2002
ونظر	-2003
يخطئ	-2004
اتكلم	-2005
الخبز	-2006
بلعام	-2007
عندكم	-2008
كلامي	-2009
لبنان	-2010
وتكلم	-2011
ويجعل	-2012
ثلاثين	-2013
القديسين	-2014
مط	-2015
افظ	-2016
امع	-2017
بئر	-2018
بتد	-2019
ذاك	-2020
راف	-2021
ساف	-2022
سها	-2023
طان	-2024
قات	-2025
قها	-2026
مزم	-2027
ناه	-2028
يضع	-2029
ابوا	-2030
ارفع	-2031
تخوم	-2032
علمت	-2033
الفصح	-2034
النور	-2035
حجارة	-2036
رحمته	-2037
طريقه	-2038
عملوا	-2039
فاخبر	-2040
وخمسة	-2041
الآباء	-2042
الخامس	-2043
الكتاب	-2044
ابيمالك	-2045
الثلاثة	-2046
السفينة	-2047
ائن	-2048
برج	-2049
ستة	-2050
شاق	-2051
فرق	-2052
كور	-2053
ممل	-2054
نفت	-2055
وعز	-2056
آحاز	-2057
انته	-2058
تاكل	-2059
تموت	-2060
شعبا	-2061
شكيم	-2062
وبني	-2063
وصار	-2064
يسلم	-2065
اريحا	-2066
بجميع	-2067
حينما	-2068
صاعدا	-2069
ميراث	-2070
مكتوبة	-2071
الاراضي	-2072
الشريعة	-2073
المصريين	-2074
يهوشافاط	-2075
حب	-2076
آسا	-2077
بأس	-2078
تمس	-2079
حقا	-2080
ريا	-2081
قبر	-2082
قيل	-2083
كال	-2084
كرس	-2085
ناص	-2086
نبأ	-2087
يته	-2088
يني	-2089
الهه	-2090
راسي	-2091
سرور	-2092
صنعة	-2093
قضاء	-2094
لامة	-2095
مدين	-2096
وئيل	-2097
وعبر	-2098
ونصف	-2099
ينزل	-2100
اثنين	-2101
الجيش	-2102
القائ	-2103
سريعا	-2104
صدقيا	-2105
طعاما	-2106
فماذا	-2107
قدموا	-2108
للذين	-2109
مزمور	-2110
نبوخذ	-2111
انظروا	-2112
دب	-2113
نى	-2114
اثن	-2115
خوف	-2116
رات	-2117
سلم	-2118
غدا	-2119
فرغ	-2120
مسك	-2121
منة	-2122
نسل	-2123
الاع	-2124
بركة	-2125
بيتا	-2126
تذكر	-2127
ثمان	-2128
خرجت	-2129
دقيق	-2130
عندي	-2131
فرجع	-2132
فيهم	-2133
مدخل	-2134
مستق	-2135
وولد	-2136
يؤمن	-2137
يقال	-2138
ابناء	-2139
الخمر	-2140
الصبي	-2141
الضيق	-2142
العلي	-2143
اليشع	-2144
بينكم	-2145
جمهور	-2146
خارجا	-2147
رائحة	-2148
لاميذ	-2149
التراب	-2150
الملاك	-2151
فلماذا	-2152
البهائم	-2153
نبوخذناص	-2154
دت	-2155
سة	-2156
سه	-2157
ائي	-2158
باك	-2159
حمي	-2160
روف	-2161
شعر	-2162
كرم	-2163
نائ	-2164
وبك	-2165
وتك	-2166
اثنا	-2167
الشي	-2168
حسنا	-2169
دمشق	-2170
رسلا	-2171
كتاب	-2172
لابس	-2173
مرات	-2174
مريم	-2175
منظر	-2176
ورفع	-2177
وسار	-2178
وقام	-2179
وهما	-2180
يرون	-2181
انجيل	-2182
اياما	-2183
وهوذا	-2184
يستطيع	-2185
يكونون	-2186
التلاميذ	-2187
جة	-2188
ضب	-2189
عق	-2190
افة	-2191
تما	-2192
جند	-2193
حوا	-2194
دعي	-2195
شبع	-2196
طال	-2197
عير	-2198
لاج	-2199
مري	-2200
ودة	-2201
يهم	-2202
استق	-2203
ايوب	-2204
بعام	-2205
قرون	-2206
كريا	-2207
لاطس	-2208
مبغض	-2209
نارا	-2210
واتي	-2211
وحوش	-2212
يزرع	-2213
يكلم	-2214
البقر	-2215
الكنع	-2216
باشان	-2217
رجليه	-2218
مرتفع	-2219
وبارك	-2220
المحبة	-2221
تقولون	-2222
المملكة	-2223
شه	-2224
قو	-2225
آكل	-2226
احش	-2227
اها	-2228
شهد	-2229
صيا	-2230
ملت	-2231
وبر	-2232
يصل	-2233
ابصر	-2234
ابنك	-2235
اراد	-2236
افضل	-2237
الرج	-2238
الكم	-2239
انان	-2240
تطلب	-2241
خروج	-2242
زوجة	-2243
عالم	-2244
ملكه	-2245
ميخا	-2246
وبنى	-2247
يتها	-2248
يدين	-2249
يرفع	-2250
المرك	-2251
المعز	-2252
ايمان	-2253
بجانب	-2254
بعضهم	-2255
قليلا	-2256
لامام	-2257
وسطهم	-2258
الخيمة	-2259
الظلمة	-2260
بالروح	-2261
بيلاطس	-2262
ثمانية	-2263
محرقات	-2264
وهؤلاء	-2265
لاسرائيل	-2266
آت	-2267
قس	-2268
اسة	-2269
تاج	-2270
تهز	-2271
جاز	-2272
دمه	-2273
عار	-2274
فاة	-2275
متم	-2276
محل	-2277
مدة	-2278
ويت	-2279
يحب	-2280
يقة	-2281
اطلق	-2282
تذهب	-2283
رأوا	-2284
سيده	-2285
ليكن	-2286
معها	-2287
يدهم	-2288
ابنير	-2289
الجيل	-2290
السور	-2291
غنيمة	-2292
فريضة	-2293
نهارا	-2294
واصعد	-2295
وبنيه	-2296
انفسكم	-2297
اللاويون	-2298
أم	-2299
حط	-2300
كض	-2301
ند	-2302
نز	-2303
جلد	-2304
حاش	-2305
حقل	-2306
طلع	-2307
عظم	-2308
منى	-2309
وست	-2310
بنفس	-2311
حولي	-2312
ديان	-2313
راها	-2314
رحمة	-2315
عرفت	-2316
عنكم	-2317
فانا	-2318
فكيف	-2319
يناد	-2320
ابتدأ	-2321
اختار	-2322
افواه	-2323
الابن	-2324
الرسل	-2325
رجعوا	-2326
فكانت	-2327
للوقت	-2328
وسطها	-2329
يوشيا	-2330
المجمع	-2331
انسانا	-2332
فصاعدا	-2333
بالايمان	-2334
اظ	-2335
صى	-2336
نث	-2337
اضع	-2338
برا	-2339
بعه	-2340
تجد	-2341
تفي	-2342
تيه	-2343
جري	-2344
خيل	-2345
ساؤ	-2346
طول	-2347
عيد	-2348
لاح	-2349
ويه	-2350
يكم	-2351
اختر	-2352
الجز	-2353
العم	-2354
تصير	-2355
حارب	-2356
حوال	-2357
دخاي	-2358
زبول	-2359
قرية	-2360
لكوا	-2361
لملك	-2362
يخبر	-2363
الجوع	-2364
العدو	-2365
بعضكم	-2366
خمسين	-2367
للقائ	-2368
مملكة	-2369
نهاية	-2370
السبعة	-2371
الليلة	-2372
مردخاي	-2373
يسمعون	-2374
ارتحلوا	-2375
الساكنين	-2376
حو	-2377
شل	-2378
ئون	-2379
بلت	-2380
تبة	-2381
ترد	-2382
حام	-2383
رسل	-2384
ريح	-2385
عود	-2386
ليا	-2387
نهر	-2388
وام	-2389
ابوه	-2390
احفظ	-2391
بيتي	-2392
تيقظ	-2393
خمرا	-2394
عملت	-2395
فيما	-2396
كلوا	-2397
كونة	-2398
نفوس	-2399
ودفن	-2400
وزنة	-2401
يران	-2402
يطان	-2403
يفهم	-2404
يقيم	-2405
ارضهم	-2406
البعل	-2407
بكثرة	-2408
الزمان	-2409
الوادي	-2410
اليمنى	-2411
رحبعام	-2412
ويهوذا	-2413
حواليها	-2414
الاموريين	-2415
سط	-2416
شت	-2417
اخز	-2418
اور	-2419
ايق	-2420
بري	-2421
صاب	-2422
غنى	-2423
فخر	-2424
فهي	-2425
كلت	-2426
لعل	-2427
مرض	-2428
ودس	-2429
يحل	-2430
ينج	-2431
ارضك	-2432
الفق	-2433
المع	-2434
بزيت	-2435
جتاز	-2436
هيكل	-2437
وامت	-2438
وسطك	-2439
وشعب	-2440
ابرام	-2441
الداخ	-2442
السفر	-2443
بسلام	-2444
وناثان	-2445
الشهادة	-2446
وثلاثين	-2447
المستقيم	-2448
طن	-2449
ألا	-2450
باء	-2451
خائ	-2452
رفض	-2453
سأل	-2454
عرض	-2455
فرأ	-2456
واد	-2457
ويق	-2458
ألعل	-2459
اباه	-2460
احدا	-2461
ارضه	-2462
الجب	-2463
السر	-2464
امار	-2465
بذهب	-2466
سدوم	-2467
شريع	-2468
وآخر	-2469
ورأى	-2470
وعاش	-2471
ومتى	-2472
يدعى	-2473
يذبح	-2474
انهار	-2475
اولئك	-2476
ثانية	-2477
عشرون	-2478
مائدة	-2479
وراءه	-2480
وجاءوا	-2481
وصاياك	-2482
الكنيسة	-2483
لانفسهم	-2484
جف	-2485
كا	-2486
أله	-2487
اجر	-2488
اخت	-2489
بوق	-2490
حوت	-2491
خور	-2492
خيم	-2493
ساق	-2494
فاه	-2495
هدد	-2496
ودع	-2497
يدع	-2498
يست	-2499
تجعل	-2500
ثورا	-2501
ثياب	-2502
دخول	-2503
صرون	-2504
طرقه	-2505
فأخذ	-2506
قدسه	-2507
لسان	-2508
لمان	-2509
ودفع	-2510
يصير	-2511
التخم	-2512
القفر	-2513
باسمي	-2514
حيوان	-2515
عبيدا	-2516
قدامك	-2517
كلامك	-2518
ليكون	-2519
مملوء	-2520
ومسار	-2521
الثامن	-2522
الجالس	-2523
الشيوخ	-2524
التابوت	-2525
الثانية	-2526
آش	-2527
اتي	-2528
افر	-2529
ترن	-2530
تظر	-2531
حمة	-2532
طهر	-2533
فصل	-2534
مكر	-2535
وعظ	-2536
القت	-2537
تهلك	-2538
جدوا	-2539
ربون	-2540
صحيح	-2541
عرفة	-2542
فوجد	-2543
قرعة	-2544
قيصر	-2545
هادا	-2546
وأتى	-2547
وقطع	-2548
وناد	-2549
ارتفع	-2550
اعداء	-2551
الحجر	-2552
باطلا	-2553
عملها	-2554
لابان	-2555
ماعيل	-2556
اعدائي	-2557
الغلام	-2558
لانسان	-2559
السلامة	-2560
يهوياداع	-2561
اذن	-2562
تهن	-2563
داد	-2564
سخط	-2565
شيش	-2566
صرة	-2567
طرف	-2568
فني	-2569
كاس	-2570
وحا	-2571
وعة	-2572
يسر	-2573
احمد	-2574
اخاه	-2575
اعطى	-2576
المش	-2577
جبعة	-2578
حراس	-2579
طاهر	-2580
فتاة	-2581
قالت	-2582
كلما	-2583
نعلم	-2584
وسكن	-2585
ومسر	-2586
ونزل	-2587
يخدم	-2588
اخبار	-2589
اخوتي	-2590
افكار	-2591
البار	-2592
الثور	-2593
الراس	-2594
العبد	-2595
الينا	-2596
انتظر	-2597
ذهبوا	-2598
رئيسا	-2599
نفسها	-2600
وادخل	-2601
وانات	-2602
يعطيك	-2603
الآلهة	-2604
الضربة	-2605
تسمعوا	-2606
يطلبون	-2607
الشيطان	-2608
ومسرحها	-2609
اليهودية	-2610
ومسارحها	-2611
طم	-2612
غش	-2613
اصل	-2614
جرا	-2615
جلة	-2616
حشب	-2617
حلم	-2618
ذنب	-2619
رفي	-2620
زين	-2621
سوف	-2622
فكر	-2623
مسح	-2624
ملج	-2625
وعم	-2626
يرد	-2627
يقف	-2628
احتم	-2629
احسن	-2630
اخوة	-2631
اسفل	-2632
اصاب	-2633
الوف	-2634
بماء	-2635
خراف	-2636
خربة	-2637
غضبي	-2638
فأتى	-2639
وجلس	-2640
وسقط	-2641
وعرض	-2642
ونهم	-2643
يخلص	-2644
يضرب	-2645
التفت	-2646
الساد	-2647
جدعون	-2648
جديدة	-2649
خرابا	-2650
رائضي	-2651
راحيل	-2652
مساكن	-2653
واعطى	-2654
وتجعل	-2655
ياطين	-2656
آبائكم	-2657
اللذين	-2658
بالحري	-2659
طق	-2660
ائه	-2661
اوم	-2662
جون	-2663
خاد	-2664
ديب	-2665
شمس	-2666
صنا	-2667
غلق	-2668
فمك	-2669
ليش	-2670
محب	-2671
مرب	-2672
وسك	-2673
ومس	-2674
يره	-2675
اشير	-2676
المص	-2677
انقذ	-2678
تأخذ	-2679
تنبأ	-2680
جبال	-2681
جسده	-2682
وجمع	-2683
استير	-2684
الغضب	-2685
بهائم	-2686
سلامة	-2687
واعطي	-2688
يبارك	-2689
الكاتب	-2690
الكبير	-2691
انجوني	-2692
تعملوا	-2693
تكونوا	-2694
فاجتمع	-2695
ئي	-2696
ذو	-2697
غز	-2698
لع	-2699
آية	-2700
امم	-2701
بدم	-2702
ثون	-2703
مسر	-2704
مفت	-2705
ناز	-2706
وتي	-2707
وكر	-2708
ابيع	-2709
اشهر	-2710
الاص	-2711
المج	-2712
بهذه	-2713
بيدك	-2714
تثبت	-2715
دعوا	-2716
كهنة	-2717
مجده	-2718
معيا	-2719
ملوا	-2720
ورام	-2721
وصرخ	-2722
ولوا	-2723
ابدية	-2724
اصحاب	-2725
البشر	-2726
الخيل	-2727
العشر	-2728
الفهم	-2729
الولد	-2730
بالاق	-2731
بماذا	-2732
تتكلم	-2733
مشورة	-2734
القدوس	-2735
القضاء	-2736
النحاس	-2737
امامهم	-2738
انفسنا	-2739
دينونة	-2740
وصاياه	-2741
الاقداس	-2742
الاولاد	-2743
المسكين	-2744
الواحدة	-2745
المسكونة	-2746
صة	-2747
مى	-2748
ابو	-2749
اتل	-2750
اشع	-2751
اصي	-2752
اقب	-2753
بسة	-2754
بسط	-2755
تحل	-2756
جلب	-2757
حدر	-2758
حمو	-2759
رعب	-2760
عصا	-2761
لتم	-2762
وائ	-2763
ورؤ	-2764
وعج	-2765
وقع	-2766
ومة	-2767
اهما	-2768
جدون	-2769
خروف	-2770
سارة	-2771
فارس	-2772
فسقط	-2773
كماء	-2774
لابي	-2775
لاست	-2776
مملك	-2777
يترك	-2778
يجلس	-2779
آخرين	-2780
العبر	-2781
العين	-2782
القبر	-2783
خرجوا	-2784
شمعون	-2785
طلبوا	-2786
لهرون	-2787
هامان	-2788
آبائنا	-2789
اذهبوا	-2790
اشعياء	-2791
حواليه	-2792
كلاهما	-2793
هيرودس	-2794
وقراها	-2795
المرتفعات	-2796
طه	-2797
عك	-2798
قك	-2799
نذ	-2800
ئين	-2801
تعز	-2802
جوع	-2803
دما	-2804
ربا	-2805
فاخ	-2806
مضى	-2807
نات	-2808
وأل	-2809
ونج	-2810
يخل	-2811
آساف	-2812
اباد	-2813
ابغض	-2814
الرؤ	-2815
الرس	-2816
بدون	-2817
بغتة	-2818
بنوه	-2819
تعال	-2820
صراخ	-2821
صلاة	-2822
فصرخ	-2823
فنظر	-2824
كتبت	-2825
مشون	-2826
واوص	-2827
وبيم	-2828
ومعه	-2829
يحسن	-2830
اسماء	-2831
اصنام	-2832
اقداس	-2833
شاقلا	-2834
شهادة	-2835
صباحا	-2836
كرسيه	-2837
لنفسي	-2838
مذبحا	-2839
ملعون	-2840
وأتوا	-2841
واحرق	-2842
وهناك	-2843
نفتالي	-2844
التقدمة	-2845
واورشليم	-2846
زق	-2847
لب	-2848
آخذ	-2849
اجد	-2850
اصم	-2851
بقي	-2852
بكة	-2853
بيس	-2854
تاف	-2855
ترا	-2856
توا	-2857
ثار	-2858
حبي	-2859
صلب	-2860
ضاة	-2861
عدل	-2862
غسل	-2863
ففي	-2864
كاذ	-2865
كرز	-2866
ملأ	-2867
وبا	-2868
وسل	-2869
ولة	-2870
ومش	-2871
اريد	-2872
اسما	-2873
الما	-2874
جاءت	-2875
ذابح	-2876
صاحب	-2877
عابر	-2878
عالي	-2879
عملا	-2880
عينه	-2881
لجال	-2882
للام	-2883
محبة	-2884
وفعل	-2885
ولاة	-2886
يحيا	-2887
يطلق	-2888
ابواق	-2889
البكر	-2890
الخمس	-2891
الدائ	-2892
الردي	-2893
بهيمة	-2894
طردهم	-2895
قربان	-2896
كلامه	-2897
واسحق	-2898
وبنوه	-2899
وبيوت	-2900
وسبعة	-2901
الجاهل	-2902
الجموع	-2903
الرئيس	-2904
الصغير	-2905
النعمة	-2906
بالكذب	-2907
زبولون	-2908
وخمسين	-2909
ويعقوب	-2910
اسماعيل	-2911
الجلجال	-2912
وثلاثون	-2913
المعدودون	-2914
بص	-2915
بض	-2916
ثق	-2917
شك	-2918
فش	-2919
قف	-2920
مؤ	-2921
اتى	-2922
خاف	-2923
سبت	-2924
ضيا	-2925
قرا	-2926
ليع	-2927
مخل	-2928
نطة	-2929
ورب	-2930
وشي	-2931
يمس	-2932
اجمع	-2933
اجنا	-2934
ازار	-2935
بشيء	-2936
بلاد	-2937
بناء	-2938
بهما	-2939
صوته	-2940
عبدا	-2941
فصار	-2942
لرجل	-2943
لستم	-2944
مثله	-2945
وذبح	-2946
ولكل	-2947
يبغض	-2948
يقدم	-2949
ارملة	-2950
اقترب	-2951
الاسد	-2952
بكلمة	-2953
رحمتك	-2954
فتقدم	-2955
لملوك	-2956
المشرق	-2957
جميعكم	-2958
الاشياء	-2959
الغرباء	-2960
ادر	-2961
افس	-2962
برك	-2963
تقر	-2964
تقل	-2965
تمد	-2966
رنم	-2967
شفت	-2968
طيا	-2969
فتم	-2970
فكم	-2971
للت	-2972
لوط	-2973
نقي	-2974
هوة	-2975
اسرع	-2976
اسلم	-2977
اكين	-2978
التق	-2979
الهم	-2980
اليق	-2981
تعطي	-2982
خيام	-2983
ذراء	-2984
صورة	-2985
عهدي	-2986
كالع	-2987
كاهن	-2988
وارج	-2989
والب	-2990
وتهم	-2991
وكما	-2992
ومجد	-2993
يروا	-2994
يموث	-2995
بيسوع	-2996
جبعون	-2997
شمشون	-2998
صادوق	-2999
علموا	-3000
فاخرج	-3001
للقاء	-3002
ملتوت	-3003
وابتد	-3004
والمن	-3005
وسكان	-3006
ارجعوا	-3007
القتال	-3008
امامكم	-3009
وخمسون	-3010
الابواب	-3011
العازار	-3012
المعرفة	-3013
لانفسكم	-3014
واللاويين	-3015
أة	-3016
خض	-3017
زب	-3018
احة	-3019
ادة	-3020
الأ	-3021
بام	-3022
بحد	-3023
برر	-3024
ثام	-3025
ثلث	-3026
دام	-3027
زار	-3028
فائ	-3029
فهل	-3030
لدي	-3031
نزع	-3032
واز	-3033
وبأ	-3034
ومل	-3035
يفة	-3036
اثما	-3037
احدى	-3038
اذني	-3039
افان	-3040
الجه	-3041
العل	-3042
امتل	-3043
اهرة	-3044
بفرح	-3045
حماة	-3046
روحي	-3047
سائر	-3048
ساعة	-3049
فتحت	-3050
فعله	-3051
قادش	-3052
قبلا	-3053
هلاك	-3054
وأمر	-3055
والص	-3056
وسبع	-3057
يغسل	-3058
يفرح	-3059
آبائك	-3060
الجلد	-3061
القتل	-3062
الموج	-3063
مقدسة	-3064
واذهب	-3065
الرامة	-3066
القدير	-3067
جبابرة	-3068
واقفين	-3069
وبينما	-3070
الابدية	-3071
الثالثة	-3072
الحكماء	-3073
الملائكة	-3074
واسرائيل	-3075
الكنعانيين	-3076
خت	-3077
ائد	-3078
ائم	-3079
ايم	-3080
بية	-3081
تسل	-3082
حية	-3083
خجل	-3084
دهر	-3085
زلت	-3086
صدق	-3087
عاب	-3088
عدم	-3089
فها	-3090
محت	-3091
مله	-3092
ناس	-3093
هام	-3094
وسي	-3095
ولو	-3096
يجب	-3097
يعد	-3098
اترك	-3099
اثني	-3100
اجرة	-3101
الجد	-3102
المل	-3103
تريح	-3104
تشدد	-3105
دخلت	-3106
سحاب	-3107
طلبت	-3108
فنزل	-3109
وتحت	-3110
وصوت	-3111
ومضى	-3112
يحسب	-3113
يرسل	-3114
يعود	-3115
يفتح	-3116
اثنان	-3117
ارسلت	-3118
الآتي	-3119
المطر	-3120
امصيا	-3121
ايامه	-3122
تعليم	-3123
حشبون	-3124
حكماء	-3125
زكريا	-3126
علامة	-3127
ممالك	-3128
وتقدم	-3129
وكذلك	-3130
ويشرب	-3131
يأتون	-3132
ابوابك	-3133
اخوتهم	-3134
الكتبة	-3135
تخافوا	-3136
عليهما	-3137
وجوههم	-3138
وسجدوا	-3139
والكهنة	-3140
تؤ	-3141
رز	-3142
رص	-3143
طب	-3144
لص	-3145
برص	-3146
بره	-3147
تضع	-3148
ثرة	-3149
جرى	-3150
ديا	-3151
طاء	-3152
فقل	-3153
كهن	-3154
وآب	-3155
واج	-3156
وجل	-3157
وحل	-3158
وسف	-3159
وعي	-3160
وغش	-3161
يبي	-3162
ابيا	-3163
اكتب	-3164
تنجس	-3165
ذنوب	-3166
رفعت	-3167
فينا	-3168
قبله	-3169
لبعض	-3170
لحما	-3171
ليلة	-3172
ياخذ	-3173
يحكم	-3174
يشرب	-3175
يقين	-3176
يمكن	-3177
ارسله	-3178
التاس	-3179
سمعتم	-3180
كاملا	-3181
كلمات	-3182
مديان	-3183
نصيبا	-3184
والحق	-3185
وسطكم	-3186
ولكنه	-3187
وملوك	-3188
وولدت	-3189
الحصاد	-3190
الرداء	-3191
الغريب	-3192
المؤمن	-3193
فرائضي	-3194
مركبات	-3195
والشعب	-3196
وذبائح	-3197
يزرعيل	-3198
الاحياء	-3199
الحجارة	-3200
المصفاة	-3201
للانسان	-3202
يتكلمون	-3203
لابراهيم	-3204
ضح	-3205
طئ	-3206
اره	-3207
اطف	-3208
اعل	-3209
اوب	-3210
بيح	-3211
بيل	-3212
تقم	-3213
تنع	-3214
جوا	-3215
دمة	-3216
راع	-3217
زعز	-3218
سائ	-3219
سمك	-3220
سيس	-3221
شيل	-3222
عشب	-3223
فاح	-3224
فاذ	-3225
فضل	-3226
كبي	-3227
كير	-3228
ماد	-3229
منع	-3230
هاد	-3231
وتن	-3232
ونك	-3233
يبق	-3234
ارجل	-3235
اقسم	-3236
الاز	-3237
المغ	-3238
امير	-3239
بارا	-3240
تقوم	-3241
شرير	-3242
شمعي	-3243
صانع	-3244
صوتا	-3245
غيرة	-3246
قتلى	-3247
قورح	-3248
كرون	-3249
نجسة	-3250
ويضع	-3251
ابديا	-3252
الصخر	-3253
اللحم	-3254
اوريا	-3255
باسمك	-3256
بعيدة	-3257
جالسا	-3258
حيثما	-3259
صالحة	-3260
عيناك	-3261
فيقول	-3262
للرجل	-3263
وابنا	-3264
واكثر	-3265
وتقول	-3266
وسمعت	-3267
ويأخذ	-3268
يتنبأ	-3269
الحكيم	-3270
الحنطة	-3271
الرؤيا	-3272
رؤوسهم	-3273
لاميذه	-3274
ميراثا	-3275
واضطجع	-3276
يأكلون	-3277
واربعين	-3278
فى	-3279
دهن	-3280
دود	-3281
زنا	-3282
سني	-3283
طار	-3284
عدا	-3285
عيب	-3286
فكل	-3287
كوش	-3288
ومه	-3289
يقت	-3290
يقر	-3291
يوث	-3292
المق	-3293
الون	-3294
تؤمن	-3295
تجار	-3296
ترنم	-3297
حكيم	-3298
رامة	-3299
فدور	-3300
فرحا	-3301
فضلا	-3302
فهذا	-3303
قتلا	-3304
كانه	-3305
لابن	-3306
متهم	-3307
مسيح	-3308
وطرح	-3309
وقفت	-3310
وكسر	-3311
يدان	-3312
يسلك	-3313
يظهر	-3314
يوآش	-3315
اجتاز	-3316
اخزيا	-3317
اخطأت	-3318
اسمها	-3319
الكذب	-3320
المرا	-3321
المكت	-3322
بالله	-3323
تركوا	-3324
تموني	-3325
سيحون	-3326
فرحوا	-3327
كلمني	-3328
استيقظ	-3329
الظلام	-3330
تلاميذ	-3331
فكانوا	-3332
ليعقوب	-3333
مدينته	-3334
والذهب	-3335
والفضة	-3336
يعملون	-3337
اعدائهم	-3338
الباقين	-3339
السابعة	-3340
واربعون	-3341
اسمانجوني	-3342
أر	-3343
خش	-3344
وإ	-3345
وظ	-3346
اصغ	-3347
اقل	-3348
اوة	-3349
بلغ	-3350
بله	-3351
بلي	-3352
بمن	-3353
تعي	-3354
تمل	-3355
تهي	-3356
جاس	-3357
جاع	-3358
حزن	-3359
خاص	-3360
خفي	-3361
رأت	-3362
رار	-3363
رمز	-3364
سبق	-3365
سحق	-3366
سكب	-3367
عما	-3368
قرض	-3369
لاة	-3370
مضط	-3371
واص	-3372
وتر	-3373
اخيك	-3374
ادون	-3375
اقيم	-3376
امتع	-3377
اهلك	-3378
بكاء	-3379
تضرع	-3380
تمرد	-3381
حاشا	-3382
حوله	-3383
رؤيا	-3384
رديء	-3385
سعير	-3386
شفتي	-3387
صخرة	-3388
صغير	-3389
ظلمة	-3390
فانت	-3391
فرفع	-3392
فسأل	-3393
فوضع	-3394
مجدا	-3395
ملكي	-3396
نبوخ	-3397
واري	-3398
وحسب	-3399
وعين	-3400
يبصر	-3401
يذكر	-3402
يقام	-3403
يلبس	-3404
يلون	-3405
يمسك	-3406
ينقذ	-3407
اشجار	-3408
الشحم	-3409
الكرم	-3410
الوحش	-3411
الوسط	-3412
الوعر	-3413
ثامار	-3414
جعلوا	-3415
رجالا	-3416
رجلها	-3417
سمعنا	-3418
سيناء	-3419
عازار	-3420
فعلوا	-3421
فولدت	-3422
فيلبس	-3423
للامم	-3424
للموت	-3425
مراري	-3426
ولاجل	-3427
وليمة	-3428
ويخرج	-3429
يختار	-3430
اخوتكم	-3431
الاثني	-3432
الحائط	-3433
الخلاص	-3434
الفتاة	-3435
الفقير	-3436
الملكة	-3437
عيونهم	-3438
لفرعون	-3439
وثلاثة	-3440
يكونوا	-3441
الخطايا	-3442
الحيوانات	-3443
الفلسطيني	-3444
تظ	-3445
صو	-3446
عض	-3447
ـ¦	-3448
قع	-3449
كذ	-3450
نظ	-3451
وذ	-3452
ألك	-3453
ارز	-3454
امك	-3455
باد	-3456
باع	-3457
تمر	-3458
جثث	-3459
جيل	-3460
خزي	-3461
داخ	-3462
درج	-3463
رآه	-3464
راك	-3465
سيا	-3466
شاة	-3467
شاه	-3468
شور	-3469
فلن	-3470
لاق	-3471
للي	-3472
وعل	-3473
ويز	-3474
آيات	-3475
ائبه	-3476
اريم	-3477
اقصى	-3478
الاق	-3479
البد	-3480
بنيك	-3481
بيني	-3482
تسقط	-3483
ثمرا	-3484
حارس	-3485
صعدت	-3486
فرأى	-3487
قدمي	-3488
كباش	-3489
نعرف	-3490
وترك	-3491
وطلب	-3492
يبني	-3493
يصرخ	-3494
ابليس	-3495
اقوال	-3496
العدل	-3497
النجس	-3498
الواح	-3499
اليهو	-3500
انيون	-3501
تمثال	-3502
ثماني	-3503
حلقيا	-3504
خزائن	-3505
خيمته	-3506
ذراصر	-3507
رأيتم	-3508
شديدة	-3509
صنعوا	-3510
فاعلي	-3511
قدسوا	-3512
مختار	-3513
ناثان	-3514
واقطع	-3515
وامسك	-3516
وبنات	-3517
ولكني	-3518
ويروش	-3519
يدعون	-3520
اعدائك	-3521
القاتل	-3522
الوجوه	-3523
الوراء	-3524
قربانه	-3525
ولماذا	-3526
اجتمعوا	-3527
الكثيرة	-3528
اللواتي	-3529
وانظروا	-3530
ويقولون	-3531
احشويروش	-3532
وبنيامين	-3533
يهوياقيم	-3534
نبوخذراصر	-3535
واللاويون	-3536
بى	-3537
ثى	-3538
رث	-3539
ائك	-3540
اذه	-3541
افي	-3542
اوس	-3543
باص	-3544
تبق	-3545
تحم	-3546
تسع	-3547
حبل	-3548
خان	-3549
خذه	-3550
خلق	-3551
شان	-3552
شرك	-3553
طقة	-3554
عاي	-3555
غلب	-3556
فاع	-3557
قرع	-3558
كني	-3559
وبإ	-3560
وري	-3561
وشر	-3562
وصر	-3563
يبر	-3564
ارية	-3565
اسأل	-3566
اسكن	-3567
اشتر	-3568
اعمل	-3569
اكلم	-3570
الحص	-3571
بقوة	-3572
ترون	-3573
تقدر	-3574
جسدي	-3575
حامل	-3576
ذكرا	-3577
رجعت	-3578
زعزع	-3579
زلزل	-3580
صيان	-3581
فمتى	-3582
فهرب	-3583
كالب	-3584
متها	-3585
والر	-3586
وانه	-3587
ولود	-3588
وملأ	-3589
ويهو	-3590
يتنا	-3591
يريد	-3592
يزيد	-3593
يسأل	-3594
يعبر	-3595
ابينا	-3596
الصبح	-3597
العرش	-3598
الكاس	-3599
بخورا	-3600
جدليا	-3601
دخلوا	-3602
شمعيا	-3603
شيلوه	-3604
عزريا	-3605
فصارت	-3606
قريبه	-3607
كرامة	-3608
وامام	-3609
وانقذ	-3610
وثمان	-3611
وحارب	-3612
ورأيت	-3613
اعمالك	-3614
اعماله	-3615
اعينكم	-3616
الرعاة	-3617
العاشر	-3618
الكثير	-3619
المنظر	-3620
النازل	-3621
رجاسات	-3622
عماليق	-3623
والآخر	-3624
وراءهم	-3625
الاربعة	-3626
الانجيل	-3627
الانهار	-3628
السحابة	-3629
والعشرين	-3630
الفريسيون	-3631
دى	-3632
زى	-3633
غب	-3634
اتم	-3635
احل	-3636
اقي	-3637
انص	-3638
برن	-3639
تاظ	-3640
ثاب	-3641
ثيل	-3642
دية	-3643
راد	-3644
ساب	-3645
سبا	-3646
سكر	-3647
شيخ	-3648
ضرع	-3649
ضيء	-3650
عدو	-3651
عزر	-3652
غرس	-3653
فرس	-3654
فسد	-3655
مخت	-3656
معر	-3657
هاب	-3658
وبخ	-3659
وحر	-3660
ورث	-3661
وعا	-3662
وعش	-3663
وفل	-3664
أمور	-3665
اخوك	-3666
اضرب	-3667
الجل	-3668
الحث	-3669
السل	-3670
امسك	-3671
اناء	-3672
بيدي	-3673
تحمل	-3674
ترفع	-3675
تعود	-3676
جعون	-3677
دايا	-3678
رائي	-3679
رفقة	-3680
شلوم	-3681
صفور	-3682
ظهرت	-3683
عظام	-3684
فدفع	-3685
قاعد	-3686
قتال	-3687
قصور	-3688
لتكن	-3689
مخدع	-3690
وثان	-3691
يادي	-3692
يرحم	-3693
يملك	-3694
ينزع	-3695
احببت	-3696
اسوار	-3697
اقاصي	-3698
البئر	-3699
المتك	-3700
المدي	-3701
حكيما	-3702
سبعون	-3703
صاروا	-3704
صحيحا	-3705
فانهم	-3706
فلذلك	-3707
لتكون	-3708
مدنهم	-3709
مواشي	-3710
واقفا	-3711
ويوقد	-3712
الارام	-3713
الجهال	-3714
القلوب	-3715
الوصية	-3716
ترنيمة	-3717
شريعتك	-3718
وحانان	-3719
وصاياي	-3720
يعرفون	-3721
فتعلمون	-3722
مرتفعات	-3723
حث	-3724
سق	-3725
شى	-3726
ظة	-3727
غة	-3728
أعط	-3729
اكت	-3730
ترس	-3731
تلم	-3732
جيب	-3733
حاج	-3734
حبة	-3735
زلا	-3736
زنى	-3737
صخر	-3738
عور	-3739
غفر	-3740
قمح	-3741
كشف	-3742
كمن	-3743
ليب	-3744
ناي	-3745
وشث	-3746
وكب	-3747
ولن	-3748
يائ	-3749
ياب	-3750
ياس	-3751
ابعد	-3752
ابيض	-3753
اخذت	-3754
افتح	-3755
البح	-3756
الحر	-3757
انزع	-3758
بعده	-3759
بيدر	-3760
تمسك	-3761
توجد	-3762
ثالث	-3763
جبار	-3764
جمال	-3765
حافظ	-3766
دعوت	-3767
شهود	-3768
صوتي	-3769
طالب	-3770
طرقك	-3771
طوله	-3772
عليم	-3773
غضبك	-3774
فانك	-3775
فمضى	-3776
فوقف	-3777
قائد	-3778
وارع	-3779
وامه	-3780
وباب	-3781
وعاد	-3782
وهرب	-3783
ووجد	-3784
يشهد	-3785
ألسنة	-3786
الارز	-3787
الحاد	-3788
السبع	-3789
الشرط	-3790
الصان	-3791
الميت	-3792
تقويم	-3793
حراسة	-3794
حياتي	-3795
خطيته	-3796
خمسون	-3797
شيطان	-3798
ضربات	-3799
طريقك	-3800
فاسمع	-3801
قلبهم	-3802
وابنه	-3803
واسلم	-3804
يمينه	-3805
يونان	-3806
آلهتهم	-3807
الاربع	-3808
القتلى	-3809
ايديكم	-3810
باركوا	-3811
تفعلون	-3812
ورجعوا	-3813
وضربوا	-3814
ويوحنا	-3815
يختاره	-3816
اجيالكم	-3817
استقامة	-3818
الاحباء	-3819
الكلمات	-3820
المركبات	-3821
المساكين	-3822
المصريون	-3823
والانبياء	-3824
آذ	-3825
جح	-3826
زك	-3827
سى	-3828
طا	-3829
كأ	-3830
يظ	-3831
أتت	-3832
أته	-3833
اقت	-3834
حضر	-3835
ركب	-3836
رمم	-3837
ساد	-3838
طاب	-3839
عري	-3840
فنا	-3841
قار	-3842
معص	-3843
مقد	-3844
ناب	-3845
واض	-3846
وتش	-3847
وخر	-3848
وكن	-3849
ولس	-3850
ومئ	-3851
يسا	-3852
اباك	-3853
العب	-3854
الوا	-3855
اليس	-3856
امين	-3857
اهرا	-3858
بعدد	-3859
تحسب	-3860
ترجع	-3861
تقطع	-3862
تمام	-3863
جيوش	-3864
حسنة	-3865
راءى	-3866
ضطهد	-3867
قبال	-3868
قبور	-3869
لبنا	-3870
مثلك	-3871
مستح	-3872
نازل	-3873
نبيا	-3874
وحمل	-3875
وقاس	-3876
يتكم	-3877
يتين	-3878
يشبه	-3879
يمشي	-3880
البائ	-3881
البدء	-3882
الشغل	-3883
الشوك	-3884
الفلك	-3885
القوم	-3886
المثل	-3887
امنون	-3888
بنيهم	-3889
زانية	-3890
سلموا	-3891
شافان	-3892
فاننا	-3893
قوموا	-3894
ليخدم	-3895
مخارج	-3896
مقدسا	-3897
والله	-3898
وامير	-3899
وياخذ	-3900
يمينك	-3901
الحديد	-3902
الختان	-3903
الخروف	-3904
طريقهم	-3905
لذبيحة	-3906
للكهنة	-3907
ورجاله	-3908
الرابعة	-3909
الزيتون	-3910
والفريس	-3911
الفريسيين	-3912
ؤه	-3913
فغ	-3914
لخ	-3915
ألي	-3916
اسد	-3917
اضر	-3918
بدد	-3919
بدل	-3920
بوك	-3921
ترج	-3922
حرا	-3923
حفر	-3924
خاط	-3925
دفن	-3926
ذات	-3927
ذاه	-3928
روم	-3929
سفن	-3930
ضون	-3931
¦	-3932
▁	-3933
ا	-3934
ل	-3935
ي	-3936
و	-3937
م	-3938
ن	-3939
ر	-3940
ب	-3941
ه	-3942
ع	-3943
ت	-3944
ك	-3945
ف	-3946
س	-3947
د	-3948
.	-3949
ق	-3950
ح	-3951
ج	-3952
ة	-3953
ذ	-3954
ش	-3955
خ	-3956
ى	-3957
ص	-3958
ط	-3959
ض	-3960
ئ	-3961
ث	-3962
ّ	-3963
ز	-3964
أ	-3965
ء	-3966
غ	-3967
آ	-3968
ظ	-3969
ؤ	-3970
إ	-3971
*	-3972
ـ	-3973
-	-3974
ً	-3975
i	-3976
(	-3977
)	-3978
:	-3979
𐋇	-3980
1	-3981
2	-3982
[	-3983
]	-3984
h	-3985
o	-3986
t	-3987
5	-3988
6	-3989
j	-3990
m	-3991
n	-3992
y	-3993
ٍ	-3994
𐊣	-3995
𐊼	-3996
