<pad>	0
</s>	0
<unk>	0
▁¦	-0
ܝܢ	-1
ܘܢ	-2
ܠܐ	-3
ܗܘ	-4
ܬܐ	-5
ܢܐ	-6
ܠܗ	-7
ܕܐ	-8
ܡܢ	-9
ܡܪ	-10
ܝܬ	-11
ܝܐ	-12
ܘܐ	-13
ܗܝ	-14
ܐܢ	-15
ܕܡ	-16
ܕܝܢ	-17
ܠܡ	-18
ܪܐ	-19
ܗܘܐ	-20
ܫܐ	-21
ܠܝ	-22
ܟܘܢ	-23
ܠܘ	-24
ܐܝ	-25
ܒܪ	-26
ܫܘ	-27
ܘܡ	-28
ܒܐ	-29
ܚܐ	-30
ܠܝܢ	-31
ܝܪ	-32
ܕܥ	-33
ܕܝ	-34
ܫܡ	-35
ܐܢܬ	-36
ܕܢ	-37
ܐܢܐ	-38
ܘܬܐ	-39
ܒܝ	-40
ܘܗܝ	-41
ܡܐ	-42
ܠܗܐ	-43
ܐܡܪ	-44
ܗܘܢ	-45
ܥܠ	-46
ܟܕ	-47
ܠܗܘܢ	-48
ܠܟ	-49
ܘܒ	-50
ܘܪ	-51
ܫܘܥ	-52
ܓܝܪ	-53
ܘܬ	-54
ܐܝܟ	-55
ܡܫ	-56
ܬܪ	-57
ܒܢ	-58
ܘܤ	-59
ܥܡ	-60
ܟܠ	-61
ܐܦ	-62
ܘܐܡܪ	-63
ܘܠܐ	-64
ܛܠ	-65
ܥܒ	-66
ܚܕ	-67
ܪܝ	-68
ܝܫܘܥ	-69
ܕܠܐ	-70
ܗܘܘ	-71
ܥܐ	-72
ܘܚ	-73
ܒܗ	-74
ܘܠ	-75
ܐܠܐ	-76
ܬܝ	-77
ܐܢܬܘܢ	-78
ܠܟܘܢ	-79
ܚܝ	-80
ܐܬ	-81
ܡܠ	-82
ܘܩ	-83
ܚܙ	-84
ܕܒ	-85
ܗܢܐ	-86
ܡܛܠ	-87
ܢܦ	-88
ܕܪ	-89
ܟܝ	-90
ܬܗ	-91
ܐܝܬ	-92
ܫܒ	-93
ܫܡܥ	-94
ܠܡܐ	-95
ܘܕ	-96
ܕܐܠܗܐ	-97
ܝܚܐ	-98
ܟܐ	-99
ܕܩ	-100
ܪܒ	-101
ܝܡ	-102
ܕܬ	-103
ܘܫ	-104
ܚܪ	-105
ܡܬ	-106
ܗܝܡܢ	-107
ܥܒܕ	-108
ܗܠܝܢ	-109
ܗܢ	-110
ܫܬ	-111
ܐܠܗܐ	-112
ܥܝܢ	-113
ܒܠ	-114
ܠܦ	-115
ܢܝ	-116
ܤܓ	-117
ܠܘܬ	-118
ܐܢܘܢ	-119
ܛܝ	-120
ܝܕܥ	-121
ܕܚ	-122
ܡܫܝܚܐ	-123
ܩܕܡ	-124
ܠܢ	-125
ܢܢ	-126
ܒܪܐ	-127
ܟܚ	-128
ܘܟܕ	-129
ܝܗ	-130
ܡܕܡ	-131
ܕܐܝܬ	-132
ܪܘ	-133
ܢܫܐ	-134
ܘܟ	-135
ܦܩ	-136
ܗܢܘܢ	-137
ܕܟ	-138
ܒܝܢ	-139
ܢܬ	-140
ܗܕܐ	-141
ܒܝܬ	-142
ܟܢܐ	-143
ܗܐ	-144
ܝܢܐ	-145
ܕܡܐ	-146
ܟܝܠ	-147
ܡܢܐ	-148
ܐܡ	-149
ܐܢܫ	-150
ܦܪ	-151
ܘܡܢ	-152
ܤܓܝܐ	-153
ܟܠܗ	-154
ܝܬܐ	-155
ܐܘ	-156
ܗܘܝܬ	-157
ܐܝܠܝܢ	-158
ܠܬ	-159
ܤܝ	-160
ܡܪܢ	-161
ܠܥ	-162
ܒܪܗ	-163
ܒܥ	-164
ܢܫ	-165
ܠܚ	-166
ܕܡܢ	-167
ܫܡܝܐ	-168
ܘܡܐ	-169
ܕܫ	-170
ܢܦܫ	-171
ܘܪܐ	-172
ܓܒܪܐ	-173
ܠܡܝ	-174
ܦܐ	-175
ܘܗ	-176
ܪܥܐ	-177
ܘܐܬ	-178
ܤܪ	-179
ܥܠܝ	-180
ܙܠ	-181
ܫܠܡ	-182
ܗܘܬ	-183
ܕܗ	-184
ܩܪ	-185
ܐܬܐ	-186
ܕܢܐ	-187
ܡܠܐ	-188
ܩܐ	-189
ܝܠܝܢ	-190
ܘܬܗ	-191
ܠܘܗܝ	-192
ܤܓܝܐܐ	-193
ܐܝܟܢܐ	-194
ܦܝ	-195
ܘܝ	-196
ܝܢܢ	-197
ܬܘܢ	-198
ܕܝܐ	-199
ܡܠܟ	-200
ܛܪ	-201
ܗܟܝܠ	-202
ܐܚܪ	-203
ܡܪܝܐ	-204
ܤܐ	-205
ܚܙܐ	-206
ܟܬ	-207
ܡܘܤ	-208
ܟܠܗܘܢ	-209
ܒܘ	-210
ܠܛ	-211
ܒܬܪ	-212
ܟܪ	-213
ܫܝ	-214
ܓܪ	-215
ܚܡ	-216
ܕܦ	-217
ܘܥ	-218
ܒܝܐ	-219
ܗܟܢܐ	-220
ܬܚ	-221
ܠܩ	-222
ܘܦ	-223
ܫܬܐ	-224
ܝܗܘܢ	-225
ܪܘܚܐ	-226
ܒܚ	-227
ܘܐܢ	-228
ܠܝܬ	-229
ܠܬܐ	-230
ܚܢܢ	-231
ܒܬ	-232
ܒܢܝܢ	-233
ܤܒܪ	-234
ܕܘܗܝ	-235
ܡܠܬܐ	-236
ܡܘܤܐ	-237
ܘܠܘ	-238
ܗܘܕܝܐ	-239
ܡܘ	-240
ܤܗ	-241
ܡܠܠ	-242
ܢܗܘܐ	-243
ܒܩ	-244
ܝܟ	-245
ܚܕܐ	-246
ܕܐܡܪ	-247
ܥܕܡܐ	-248
ܘܐܡܪܝܢ	-249
ܕܝܢܬܐ	-250
ܒܡ	-251
ܩܪܐ	-252
ܗܘܘܢ	-253
ܬܠܡܝ	-254
ܫܡܥܘܢ	-255
ܝܪܐ	-256
ܡܢܗ	-257
ܘܢܐ	-258
ܫܪ	-259
ܫܟܚ	-260
ܠܐܠܗܐ	-261
ܒܢܐ	-262
ܒܘܬܐ	-263
ܥܒܕܐ	-264
ܩܝܡ	-265
ܠܝܐ	-266
ܓܠܝ	-267
ܕܐܬ	-268
ܒܟ	-269
ܬܡܢ	-270
ܐܡܪܝܢ	-271
ܗܝܡܢܘܬܐ	-272
ܘܠܘܤ	-273
ܡܫܟܚ	-274
ܥܪ	-275
ܢܤ	-276
ܒܢܝ	-277
ܐܤ	-278
ܩܪܒ	-279
ܚܘ	-280
ܨܒܐ	-281
ܕܬܐ	-282
ܨܒܝܢ	-283
ܢܚ	-284
ܕܤ	-285
ܗܘܝܬܘܢ	-286
ܐܦܐ	-287
ܝܘܡ	-288
ܕܐܦ	-289
ܝܗܝ	-290
ܐܚܝ	-291
ܘܐܝܬ	-292
ܒܤ	-293
ܛܐ	-294
ܒܕ	-295
ܘܚܢܢ	-296
ܒܬܐ	-297
ܩܕܝ	-298
ܬܘܒ	-299
ܐܡܝܢ	-300
ܥܠܘܗܝ	-301
ܡܗ	-302
ܩܒܠ	-303
ܐܚ	-304
ܕܡܬ	-305
ܡܪܐ	-306
ܐܢܫܐ	-307
ܘܚܐ	-308
ܠܓ	-309
ܐܪ	-310
ܫܡܗ	-311
ܘܥܠ	-312
ܢܦܩ	-313
ܘܪܫܠܡ	-314
ܫܥ	-315
ܗܘܝ	-316
ܤܗܕ	-317
ܕܙ	-318
ܥܡܗ	-319
ܗܪ	-320
ܗܘܝܢ	-321
ܚܠܦ	-322
ܗܝܕܝܢ	-323
ܫܠܝ	-324
ܙܒܢ	-325
ܠܐܝܠܝܢ	-326
ܚܛ	-327
ܫܒܩ	-328
ܒܢܝܢܫܐ	-329
ܓܙ	-330
ܗܒ	-331
ܡܪܝ	-332
ܢܝܢ	-333
ܥܢܐ	-334
ܬܬ	-335
ܗܫܐ	-336
ܡܝܐ	-337
ܡܢܗܘܢ	-338
ܟܠܐ	-339
ܡܫܬ	-340
ܝܕܥܝܢ	-341
ܫܩ	-342
ܓܠܐ	-343
ܠܘܬܗ	-344
ܝܗܒ	-345
ܫܝܚܐ	-346
ܐܫܬ	-347
ܠܒܪ	-348
ܠܥܠܡ	-349
ܕܝܫܘܥ	-350
ܝܗܘܕܝܐ	-351
ܡܚ	-352
ܦܪܐ	-353
ܝܬܘܢ	-354
ܟܢ	-355
ܕܒܪ	-356
ܐܙ	-357
ܒܥܐ	-358
ܒܝܬܐ	-359
ܒܟܘܢ	-360
ܐܚܪܢܐ	-361
ܚܝܐ	-362
ܡܢܘ	-363
ܢܦܫܗ	-364
ܒܐܝ	-365
ܘܚܙ	-366
ܚܘܕ	-367
ܢܝܐ	-368
ܪܒܐ	-369
ܕܐܬܐ	-370
ܕܠ	-371
ܒܟܠ	-372
ܘܐܦ	-373
ܡܢܟܘܢ	-374
ܢܡܘܤܐ	-375
ܒܫ	-376
ܦܢܐ	-377
ܡܝܬܐ	-378
ܦܘܠܘܤ	-379
ܟܘ	-380
ܡܝ	-381
ܩܝ	-382
ܬܟ	-383
ܥܡܐ	-384
ܡܝܬ	-385
ܕܝܢܐ	-386
ܬܪܝܢ	-387
ܓܪܐ	-388
ܙܒܢܐ	-389
ܟܗܢܐ	-390
ܟܢܫܐ	-391
ܠܘܬܟܘܢ	-392
ܐܪܥܐ	-393
ܬܠܡܝܕܘܗܝ	-394
ܘܟܠ	-395
ܝܟܘܢ	-396
ܕܘ	-397
ܕܘܢ	-398
ܪܝܢ	-399
ܘܫܬܐ	-400
ܡܤ	-401
ܥܩ	-402
ܕܢܬ	-403
ܦܘܩ	-404
ܐܝܢܐ	-405
ܨܐ	-406
ܤܝܡ	-407
ܪܝܫܐ	-408
ܒܠܚܘܕ	-409
ܪܓ	-410
ܫܪܝ	-411
ܟܐܦܐ	-412
ܥܡܡܐ	-413
ܕܡܫܝܚܐ	-414
ܢܩ	-415
ܠܘܢ	-416
ܤܪܝ	-417
ܐܢܬܬܐ	-418
ܩܒ	-419
ܒܝܕ	-420
ܕܐܢ	-421
ܕܝܬ	-422
ܕܡܪܢ	-423
ܪܥ	-424
ܥܬܝ	-425
ܬܗܘܢ	-426
ܟܠܗܝܢ	-427
ܐܒ	-428
ܘܓ	-429
ܐܙܠ	-430
ܕܡܪ	-431
ܥܡܗܘܢ	-432
ܡܕܝܢܬܐ	-433
ܬܪܥ	-434
ܫܡܥܘ	-435
ܕܟܠ	-436
ܫܡܫ	-437
ܢܒܝܐ	-438
ܪܒܬܐ	-439
ܦܫ	-440
ܒܗܘܢ	-441
ܘܕܫܐ	-442
ܐܝܬܘܗܝ	-443
ܡܟ	-444
ܡܨ	-445
ܘܠܡ	-446
ܫܕܪ	-447
ܘܐܬܐ	-448
ܡܠܐܟܐ	-449
ܛܝܒܘܬܐ	-450
ܐܒܐ	-451
ܟܪܙ	-452
ܡܬܐ	-453
ܤܛ	-454
ܬܝܒ	-455
ܬܝܢ	-456
ܕܐܢܫܐ	-457
ܘܢܦܩ	-458
ܫܒܘܚ	-459
ܕܐܝܬܘܗܝ	-460
ܕܗܘ	-461
ܢܘܢ	-462
ܕܐܢܐ	-463
ܕܥܒܕ	-464
ܓܢ	-465
ܘܒܪ	-466
ܟܝܢ	-467
ܤܪܐ	-468
ܪܘܚ	-469
ܚܝܠܐ	-470
ܘܬܟܘܢ	-471
ܡܥ	-472
ܘܫܐ	-473
ܥܒܪ	-474
ܝܬܝܪܐ	-475
ܘܠܝ	-476
ܒܝܫܐ	-477
ܕܠܡܐ	-478
ܘܕܝ	-479
ܦܝܢ	-480
ܕܩܘܕܫܐ	-481
ܦܝܪ	-482
ܠܡܕܡ	-483
ܬܢ	-484
ܕܚܙ	-485
ܤܝܐ	-486
ܡܠܟܐ	-487
ܤܝܒܪ	-488
ܕܡܪܝܐ	-489
ܗܝܟܠܐ	-490
ܘܗܘ	-491
ܛܝܬܐ	-492
ܪܫ	-493
ܪܒܝ	-494
ܐܝܕܐ	-495
ܠܘܬܐ	-496
ܦܠ	-497
ܩܘ	-498
ܠܚܕ	-499
ܝܡܝܢ	-500
ܡܗܝܡܢ	-501
ܛܒܐ	-502
ܢܛܪ	-503
ܦܩܕ	-504
ܐܫܟܚ	-505
ܒܝܬܗ	-506
ܥܠܡܐ	-507
ܥܠܝܗܘܢ	-508
ܩܠܐ	-509
ܒܢܝܐ	-510
ܘܪܚܐ	-511
ܕܒܗ	-512
ܫܘܠܛ	-513
ܬܪܥܐ	-514
ܕܛ	-515
ܗܝܢ	-516
ܛܝܒ	-517
ܬܗܘܐ	-518
ܠܝܫܘܥ	-519
ܚܬ	-520
ܢܗ	-521
ܤܒ	-522
ܩܡ	-523
ܐܘܠ	-524
ܘܕܐ	-525
ܤܓܝ	-526
ܟܬܒܐ	-527
ܕܓ	-528
ܘܙ	-529
ܚܤ	-530
ܒܥܝܢ	-531
ܚܪܢܐ	-532
ܒܝܫܬܐ	-533
ܝܘܡܬܐ	-534
ܥܒܕܝܢ	-535
ܒܨ	-536
ܘܛ	-537
ܥܕ	-538
ܕܥܠ	-539
ܐܝܟܐ	-540
ܘܗܘܐ	-541
ܡܡܠܠ	-542
ܐܟ	-543
ܐܒܝ	-544
ܩܘܡ	-545
ܬܟܘܢ	-546
ܕܥܠܡܐ	-547
ܒܗܝܡܢܘܬܐ	-548
ܦܤ	-549
ܫܝܫܐ	-550
ܝܬܝܪܐܝܬ	-551
ܐܠܦ	-552
ܘܒܐ	-553
ܝܬܗ	-554
ܟܡܐ	-555
ܠܗܘ	-556
ܠܡܢ	-557
ܝܬܝܪ	-558
ܒܦ	-559
ܡܝܢ	-560
ܠܚܡܐ	-561
ܕܒܝ	-562
ܕܝܩ	-563
ܚܬܐ	-564
ܪܝܐ	-565
ܕܫܡܥ	-566
ܤܪܝܠ	-567
ܥܝ	-568
ܠܝܠ	-569
ܢܫܬ	-570
ܩܪܝ	-571
ܒܪܗܡ	-572
ܥܩܘܒ	-573
ܘܢܝܗܝ	-574
ܫܘܠܛܢܐ	-575
ܠܕ	-576
ܗܢܘ	-577
ܘܕܥ	-578
ܐܢܝܢ	-579
ܕܝܠܝ	-580
ܕܡܘܬܐ	-581
ܩܕܝܫܐ	-582
ܡܠܟܘܬܐ	-583
ܕܚܕ	-584
ܢܤܒ	-585
ܫܘܒ	-586
ܐܦܠܐ	-587
ܕܐܢܬ	-588
ܫܒܬܐ	-589
ܩܕܡܝܐ	-590
ܬܠܡܝܕܐ	-591
ܕܚܝ	-592
ܘܒܗ	-593
ܦܐܪܐ	-594
ܕܠܥܠܡ	-595
ܠܒ	-596
ܥܢ	-597
ܙܠܘ	-598
ܚܒܝ	-599
ܫܝܢ	-600
ܫܪܐ	-601
ܫܥܬܐ	-602
ܒܪܢܫܐ	-603
ܙܥ	-604
ܘܐܝ	-605
ܘܤܦ	-606
ܪܫܐ	-607
ܥܝܢܐ	-608
ܥܡܟܘܢ	-609
ܥܠܝܟܘܢ	-610
ܫܒܘܚܬܐ	-611
ܡܛ	-612
ܐܚܐ	-613
ܕܐܝ	-614
ܘܗܐ	-615
ܚܙܝ	-616
ܩܘܪ	-617
ܪܡܐ	-618
ܬܝܗܒ	-619
ܓܠܝܠܐ	-620
ܗܝܡܢܐ	-621
ܩܛ	-622
ܩܦ	-623
ܪܗ	-624
ܐܬܬ	-625
ܟܪܝ	-626
ܫܢܐ	-627
ܕܝܕܥ	-628
ܤܝܪܐ	-629
ܫܒܥܐ	-630
ܝܘܚܢܢ	-631
ܘܒܝ	-632
ܡܠܝ	-633
ܦܬܚ	-634
ܛܠܝܐ	-635
ܒܫܡܝܐ	-636
ܒܤܪ	-637
ܘܝܕ	-638
ܚܙܘ	-639
ܚܝܢ	-640
ܟܘܪ	-641
ܤܝܢ	-642
ܕܥܬܝ	-643
ܘܐܢܬ	-644
ܛܒܬܐ	-645
ܝܘܡܐ	-646
ܠܡܢܐ	-647
ܥܒܕܝ	-648
ܕܢܗܘܐ	-649
ܢܗܘܘܢ	-650
ܫܘܒܚܐ	-651
ܫܠܝܚܐ	-652
ܠܡܝܕܘܗܝ	-653
ܠܛܘܤ	-654
ܬܪܥܤܪ	-655
ܠܐܘܪܫܠܡ	-656
ܤܬ	-657
ܘܡܗ	-658
ܕܗܘܐ	-659
ܘܐܬܘ	-660
ܕܫܡܝܐ	-661
ܘܬܗܘܢ	-662
ܕܝܗܘܕܝܐ	-663
ܙܕܩ	-664
ܪܚܡ	-665
ܘܐܫܬ	-666
ܒܪܘܚܐ	-667
ܦܪܝܫܐ	-668
ܘܐܝܠܝܢ	-669
ܤܓܝܐܬܐ	-670
ܢܨ	-671
ܕܟܕ	-672
ܥܡܝ	-673
ܪܬܐ	-674
ܫܦܝܪ	-675
ܫܪܪܐ	-676
ܦܝܠܛܘܤ	-677
ܤܡ	-678
ܐܬܪ	-679
ܚܡܐ	-680
ܦܘܤ	-681
ܐܝܕܗ	-682
ܒܬܪܗ	-683
ܕܘܝܕ	-684
ܘܐܙܠ	-685
ܢܝܬܐ	-686
ܐܤܝܪܐ	-687
ܘܗܢܘܢ	-688
ܠܓܒܪܐ	-689
ܡܫܟܚܝܢ	-690
ܓܡ	-691
ܟܤ	-692
ܥܘ	-693
ܕܥܡ	-694
ܝܡܐ	-695
ܦܘܪ	-696
ܒܢܦܫ	-697
ܘܪܬܐ	-698
ܘܫܕܪ	-699
ܚܕܬܐ	-700
ܡܘܫܐ	-701
ܡܘܬܐ	-702
ܢܘܬܐ	-703
ܤܦܪܐ	-704
ܪܐܝܬ	-705
ܕܪܘܚܐ	-706
ܘܐܡܪܘ	-707
ܠܘܩܕܡ	-708
ܠܟܠܗܘܢ	-709
ܦܘܩܕܢܐ	-710
ܚܒ	-711
ܝܬܒ	-712
ܕܫܡܗ	-713
ܘܗܪܐ	-714
ܘܪܒܐ	-715
ܘܫܪܝ	-716
ܠܒܝܬ	-717
ܙܒܢܝܢ	-718
ܝܠ	-719
ܐܪܒ	-720
ܘܡܬ	-721
ܩܛܠ	-722
ܐܡܪܬ	-723
ܕܠܝܬ	-724
ܘܐܢܐ	-725
ܠܗܝܢ	-726
ܠܗܢܐ	-727
ܩܠܝܠ	-728
ܫܠܡܐ	-729
ܕܐܪܥܐ	-730
ܚܛܝܬܐ	-731
ܨܒܝܢܗ	-732
ܪܬ	-733
ܕܒܐ	-734
ܚܝܒ	-735
ܠܡܬ	-736
ܦܠܓ	-737
ܩܝܢ	-738
ܕܡܝܐ	-739
ܘܩܪܒ	-740
ܚܙܘܢ	-741
ܟܠܢܫ	-742
ܡܪܝܡ	-743
ܐܢܘܬܐ	-744
ܬܪܬܝܢ	-745
ܡܗܝܡܢܐ	-746
ܨܝ	-747
ܩܢ	-748
ܕܥܒ	-749
ܘܤܓ	-750
ܚܙܝܢ	-751
ܡܟܝܠ	-752
ܥܕܬܐ	-753
ܐܝܬܝܗ	-754
ܕܟܬܝܒ	-755
ܩܠ	-756
ܐܓܪ	-757
ܐܟܠ	-758
ܒܥܠ	-759
ܒܪܝ	-760
ܘܚܕ	-761
ܟܘܠ	-762
ܥܘܠ	-763
ܦܓܪ	-764
ܐܡܪܘ	-765
ܕܚܝܐ	-766
ܕܡܠܟ	-767
ܗܘܕܐ	-768
ܘܡܛܠ	-769
ܘܡܬܐ	-770
ܠܘܬܝ	-771
ܢܐܡܪ	-772
ܫܠܝܛ	-773
ܫܢܝܢ	-774
ܬܚܝܬ	-775
ܕܚܠܬܐ	-776
ܝܘܡܝܢ	-777
ܟܠܡܕܡ	-778
ܐܝܬܝܗܘܢ	-779
ܡܓ	-780
ܡܩ	-781
ܦܢ	-782
ܦܬ	-783
ܟܠܝ	-784
ܤܠܩ	-785
ܫܐܠ	-786
ܒܡܪܢ	-787
ܘܝܗܒ	-788
ܝܘܗܝ	-789
ܝܪܝܢ	-790
ܗܝܡܢܘ	-791
ܠܥܠܡܐ	-792
ܡܠܠܝܢ	-793
ܕܨ	-794
ܙܝ	-795
ܠܤ	-796
ܘܕܤ	-797
ܠܐܝ	-798
ܘܫܡܥ	-799
ܚܘܒܐ	-800
ܕܡܗܝܡܢ	-801
ܙܕ	-802
ܚܫ	-803
ܦܟ	-804
ܐܬܘ	-805
ܐܬܝ	-806
ܒܗܪ	-807
ܢܦܠ	-808
ܒܟܠܗ	-809
ܥܒܕܘ	-810
ܫܒܘܩ	-811
ܫܘܟܐ	-812
ܥܒܕܘܗܝ	-813
ܛܒ	-814
ܠܨ	-815
ܕܫܘ	-816
ܪܟܐ	-817
ܕܒܚܐ	-818
ܕܝܠܗ	-819
ܘܬܘܒ	-820
ܡܗܠܟ	-821
ܩܕܝܡ	-822
ܬܠܬܐ	-823
ܘܠܦܢܐ	-824
ܓܐ	-825
ܘܨ	-826
ܐܝܡ	-827
ܗܘܕ	-828
ܘܐܪ	-829
ܘܬܝ	-830
ܡܥܡ	-831
ܗܘܝܘ	-832
ܝܡܬܐ	-833
ܦܓܪܐ	-834
ܒܝܘܡܐ	-835
ܕܝܗܘܢ	-836
ܛܝܒܘܬܗ	-837
ܝܕܥܝܢܢ	-838
ܐܝܢ	-839
ܕܬܬ	-840
ܝܐܐ	-841
ܪܝܫ	-842
ܫܒܥ	-843
ܢܦܫܟ	-844
ܠܬܠܡܝܕܘܗܝ	-845
ܤܟ	-846
ܥܬ	-847
ܐܠܘ	-848
ܘܥܡ	-849
ܛܢܦ	-850
ܟܘܬ	-851
ܠܥܠ	-852
ܡܪܗ	-853
ܡܬܚ	-854
ܫܡܐ	-855
ܐܘܠܕ	-856
ܐܬܝܬ	-857
ܒܘܗܝ	-858
ܒܪܘܚ	-859
ܕܒܝܬ	-860
ܘܒܬܪ	-861
ܝܪܬܐ	-862
ܠܝܬܐ	-863
ܡܬܠܐ	-864
ܒܐܪܥܐ	-865
ܕܗܠܝܢ	-866
ܚܝܘܬܐ	-867
ܬܗܘܘܢ	-868
ܕܢܗܘܘܢ	-869
ܠܘܬܗܘܢ	-870
ܓܠ	-871
ܕܚܠ	-872
ܙܪܥ	-873
ܨܢܐ	-874
ܩܐܡ	-875
ܕܝܫܐ	-876
ܕܨܒܐ	-877
ܕܫܕܪ	-878
ܚܘܗܝ	-879
ܢܦܫܝ	-880
ܥܒܕܘܢ	-881
ܐܝܤܪܝܠ	-882
ܒܟܠܙܒܢ	-883
ܕܒܫܡܝܐ	-884
ܕܡܬܩܪܐ	-885
ܒܓ	-886
ܝܩ	-887
ܘܩܡ	-888
ܟܬܒ	-889
ܦܠܚ	-890
ܕܐܫܬ	-891
ܕܢܦܩ	-892
ܕܥܘܢ	-893
ܟܡܬܐ	-894
ܟܬܝܒ	-895
ܠܐܟܐ	-896
ܫܐܕܐ	-897
ܒܐܝܕܗ	-898
ܒܝܫܘܥ	-899
ܟܠܟܘܢ	-900
ܠܗܢܘܢ	-901
ܠܘܩܒܠ	-902
ܠܡܐܡܪ	-903
ܩܫܝܫܐ	-904
ܒܡܫܝܚܐ	-905
ܕܐܝܠܝܢ	-906
ܘܐܚܪܢܐ	-907
ܒܙ	-908
ܒܛ	-909
ܕܝܗ	-910
ܟܤܐ	-911
ܦܝܤ	-912
ܫܡܝ	-913
ܐܡܬܝ	-914
ܐܬܪܐ	-915
ܒܫܡܗ	-916
ܕܐܝܟ	-917
ܕܗܒܐ	-918
ܕܝܗܒ	-919
ܘܩܪܐ	-920
ܠܡܝܢ	-921
ܥܤܪܐ	-922
ܪܝܬܐ	-923
ܘܕܝܬܐ	-924
ܠܝܦܘܤ	-925
ܠܟܢܫܐ	-926
ܒܗܝܟܠܐ	-927
ܒܢܡܘܤܐ	-928
ܠܦܘܠܘܤ	-929
ܒܗܘ	-930
ܕܟܝ	-931
ܘܛܐ	-932
ܢܚܬ	-933
ܥܬܐ	-934
ܗܪܟܐ	-935
ܘܐܝܟ	-936
ܘܟܬܐ	-937
ܡܫܡܫ	-938
ܫܐܠܝܢ	-939
ܫܪܒܬܐ	-940
ܐܘܪܫܠܡ	-941
ܠܡܕܝܢܬܐ	-942
ܢܓ	-943
ܢܛ	-944
ܦܨ	-945
ܫܢ	-946
ܒܘܪ	-947
ܬܪܐ	-948
ܐܚܝܢ	-949
ܐܡܪܐ	-950
ܕܝܩܐ	-951
ܘܕܠܐ	-952
ܘܚܙܐ	-953
ܥܒܕܗ	-954
ܥܠܝܢ	-955
ܤܗܕܘܬܐ	-956
ܤܩ	-957
ܥܗ	-958
ܒܚܕ	-959
ܒܪܡ	-960
ܘܟܐ	-961
ܘܫܘ	-962
ܠܟܠ	-963
ܠܦܐ	-964
ܦܪܨ	-965
ܒܐܦܐ	-966
ܕܒܪܐ	-967
ܕܡܝܬ	-968
ܕܢܫܬ	-969
ܘܡܢܐ	-970
ܩܪܝܐ	-971
ܪܓܠܝ	-972
ܫܡܫܐ	-973
ܒܫܠܡܐ	-974
ܘܗܒܬܐ	-975
ܠܡܥܒܕ	-976
ܢܘܫܬܐ	-977
ܫܡܫܬܐ	-978
ܒܐܘܪܚܐ	-979
ܕܐܝܬܝܗ	-980
ܘܟܠܗܘܢ	-981
ܡܠܟܘܬܗ	-982
ܬܫܒܘܚܬܐ	-983
ܒܗܝ	-984
ܒܛܠ	-985
ܒܫܘ	-986
ܕܗܐ	-987
ܕܡܗ	-988
ܕܢܚ	-989
ܡܦܩ	-990
ܢܒܐ	-991
ܥܝܪ	-992
ܪܫܗ	-993
ܬܠܬ	-994
ܒܗܝܢ	-995
ܕܝܢܢ	-996
ܠܐܢܫ	-997
ܠܟܢܐ	-998
ܥܬܝܕ	-999
ܩܪܒܘ	-1000
ܫܐܠܘ	-1001
ܫܥܬܗ	-1002
ܐܚܘܗܝ	-1003
ܐܠܦܝܢ	-1004
ܕܥܬܝܕ	-1005
ܩܝܡܝܢ	-1006
ܕܝܠܟܘܢ	-1007
ܕܢܡܘܤܐ	-1008
ܘܗܝܕܝܢ	-1009
ܐܫ	-1010
ܝܓ	-1011
ܢܟ	-1012
ܐܠܗ	-1013
ܕܫܪ	-1014
ܡܠܦ	-1015
ܡܬܝ	-1016
ܥܘܪ	-1017
ܒܗܕܐ	-1018
ܕܝܠܢ	-1019
ܕܡܕܡ	-1020
ܘܐܙܠܘ	-1021
ܡܠܦܢܐ	-1022
ܦܝܢܬܐ	-1023
ܕܐܢܬܘܢ	-1024
ܕܝܩܘܬܐ	-1025
ܕܒܢܝܢܫܐ	-1026
ܙܐ	-1027
ܕܥܐ	-1028
ܘܕܚ	-1029
ܘܚܪ	-1030
ܟܢܫ	-1031
ܡܘܬ	-1032
ܢܬܠ	-1033
ܥܘܢ	-1034
ܒܝܡܐ	-1035
ܒܩܠܐ	-1036
ܕܐܢܫ	-1037
ܕܒܪܗ	-1038
ܕܓܠܐ	-1039
ܘܗܫܐ	-1040
ܠܚܝܐ	-1041
ܤܒܪܐ	-1042
ܤܛܢܐ	-1043
ܥܒܕܬ	-1044
ܒܡܠܬܐ	-1045
ܕܗܟܢܐ	-1046
ܕܗܢܘܢ	-1047
ܘܡܚܕܐ	-1048
ܠܡܘܬܐ	-1049
ܡܡܠܠܝܢ	-1050
ܪܓܠܘܗܝ	-1051
ܚܨ	-1052
ܦܗ	-1053
ܒܗܬ	-1054
ܘܢܬ	-1055
ܛܘܤ	-1056
ܛܢܐ	-1057
ܠܟܝ	-1058
ܡܐܬ	-1059
ܡܢܝ	-1060
ܡܬܪ	-1061
ܢܚܐ	-1062
ܫܒܚ	-1063
ܬܪܝ	-1064
ܒܪܝܢ	-1065
ܒܬܪܝ	-1066
ܕܩܕܡ	-1067
ܚܛܗܐ	-1068
ܟܢܫܘ	-1069
ܠܒܪܗ	-1070
ܦܝܪܐ	-1071
ܐܘܪܚܐ	-1072
ܕܢܒܝܐ	-1073
ܘܐܫܟܚ	-1074
ܠܝܘܡܐ	-1075
ܢܘܗܪܐ	-1076
ܤܒܪܝܢ	-1077
ܕܝܘܚܢܢ	-1078
ܨܦ	-1079
ܒܥܘ	-1080
ܘܚܝ	-1081
ܡܬܗ	-1082
ܐܝܬܝ	-1083
ܐܩܝܡ	-1084
ܒܤܪܐ	-1085
ܘܐܬܬ	-1086
ܘܠܝܬ	-1087
ܘܡܠܦ	-1088
ܘܪܝܐ	-1089
ܚܡܪܐ	-1090
ܟܠܘܢ	-1091
ܠܡܠܟ	-1092
ܡܩܒܠ	-1093
ܢܘܪܐ	-1094
ܪܘܚܗ	-1095
ܫܪܟܐ	-1096
ܐܒܘܗܝ	-1097
ܐܚܪܝܐ	-1098
ܓܠܝܘܢ	-1099
ܕܕܘܝܕ	-1100
ܕܢܐܙܠ	-1101
ܘܒܥܝܢ	-1102
ܘܠܝܘܡܐ	-1103
ܘܦܪܝܫܐ	-1104
ܩܕܡܘܗܝ	-1105
ܦܝܠܝܦܘܤ	-1106
ܬܘ	-1107
ܕܠܗ	-1108
ܘܢܗ	-1109
ܘܦܐ	-1110
ܘܦܪ	-1111
ܘܬܢ	-1112
ܡܫܟ	-1113
ܕܐܬܝ	-1114
ܕܪܚܡ	-1115
ܘܟܠܗ	-1116
ܘܡܕܡ	-1117
ܘܤܠܩ	-1118
ܘܦܩܕ	-1119
ܘܫܝܐ	-1120
ܚܪܬܐ	-1121
ܐܒܪܗܡ	-1122
ܐܬܘܬܐ	-1123
ܒܥܠܡܐ	-1124
ܕܗܝܡܢ	-1125
ܟܘܡܪܐ	-1126
ܡܤܝܒܪ	-1127
ܥܠܡܝܢ	-1128
ܩܒܘܪܐ	-1129
ܫܦܝܪܐ	-1130
ܗܝܡܢܘܢ	-1131
ܟܘܪܤܝܐ	-1132
ܢܦܫܗܘܢ	-1133
ܘܠܐܝܠܝܢ	-1134
ܘܢܓܠܝܘܢ	-1135
ܡܗܝܡܢܝܢ	-1136
ܐܦܝ	-1137
ܒܕܪ	-1138
ܕܡܠ	-1139
ܘܓܐ	-1140
ܘܝܗ	-1141
ܘܬܟ	-1142
ܠܡܤ	-1143
ܡܘܢ	-1144
ܡܝܘ	-1145
ܡܢܢ	-1146
ܡܬܬ	-1147
ܥܝܐ	-1148
ܥܡܕ	-1149
ܪܢܐ	-1150
ܐܬܝܢ	-1151
ܕܝܬܒ	-1152
ܘܐܚܕ	-1153
ܡܬܘܡ	-1154
ܕܢܐܬܐ	-1155
ܗܪܘܕܤ	-1156
ܘܚܙܝܬ	-1157
ܙܥܘܪܐ	-1158
ܡܫܟܚܐ	-1159
ܥܕܟܝܠ	-1160
ܓܙܘܪܬܐ	-1161
ܒܐܘܪܫܠܡ	-1162
ܘܗܘܝܬܘܢ	-1163
ܫܪܝܪܐܝܬ	-1164
ܡܙ	-1165
ܐܡܗ	-1166
ܓܙܐ	-1167
ܓܪܝ	-1168
ܕܪܒ	-1169
ܘܐܤ	-1170
ܛܝܐ	-1171
ܠܓܘ	-1172
ܡܢܟ	-1173
ܢܢܐ	-1174
ܐܙܕܗ	-1175
ܕܫܠܝ	-1176
ܛܘܒܝ	-1177
ܠܟܠܢ	-1178
ܡܠܬܗ	-1179
ܢܐܬܐ	-1180
ܥܠܝܗ	-1181
ܪܥܝܢ	-1182
ܒܥܠܕܒ	-1183
ܕܘܢܝܐ	-1184
ܕܥܡܡܐ	-1185
ܘܤܦܪܐ	-1186
ܕܩܝܡܝܢ	-1187
ܡܘܗܒܬܐ	-1188
ܢܦܫܟܘܢ	-1189
ܕܐܝܬܝܗܘܢ	-1190
ܚܩ	-1191
ܛܘ	-1192
ܝܕ	-1193
ܠܙ	-1194
ܐܚܕ	-1195
ܐܝܠ	-1196
ܐܦܩ	-1197
ܒܪܟ	-1198
ܕܟܪ	-1199
ܕܠܝ	-1200
ܠܗܝ	-1201
ܠܡܪ	-1202
ܢܝܚ	-1203
ܦܢܝ	-1204
ܩܬܐ	-1205
ܒܝܢܢ	-1206
ܕܝܘܐ	-1207
ܕܝܡܐ	-1208
ܕܡܫܬ	-1209
ܕܢܤܒ	-1210
ܚܙܝܬ	-1211
ܚܡܫܐ	-1212
ܛܝܪܐ	-1213
ܟܘܗܝ	-1214
ܟܝܡܐ	-1215
ܠܝܢܢ	-1216
ܠܡܪܢ	-1217
ܡܚܕܐ	-1218
ܡܪܘܢ	-1219
ܢܥܒܕ	-1220
ܩܪܨܐ	-1221
ܬܟܪܐ	-1222
ܐܚܪܬܐ	-1223
ܕܝܬܩܐ	-1224
ܝܗܘܕܐ	-1225
ܠܛܘܪܐ	-1226
ܠܟܠܢܫ	-1227
ܪܥܝܢܐ	-1228
ܫܡܥܝܢ	-1229
ܕܐܡܪܝܢ	-1230
ܕܫܕܪܢܝ	-1231
ܘܐܢܬܘܢ	-1232
ܠܒܢܝܢܫܐ	-1233
ܚܗ	-1234
ܐܦܢ	-1235
ܒܘܢ	-1236
ܘܢܝ	-1237
ܡܐܐ	-1238
ܫܘܐ	-1239
ܫܢܝ	-1240
ܐܙܠܘ	-1241
ܕܚܙܐ	-1242
ܘܒܠܐ	-1243
ܘܥܢܐ	-1244
ܙܕܕܩ	-1245
ܙܥܘܪ	-1246
ܚܛܝܐ	-1247
ܡܐܢܐ	-1248
ܡܠܠܘ	-1249
ܤܡܝܐ	-1250
ܥܠܝܟ	-1251
ܩܪܒܐ	-1252
ܫܘܬܐ	-1253
ܐܝܡܟܐ	-1254
ܐܬܚܙܝ	-1255
ܒܘܟܘܢ	-1256
ܒܠܠܝܐ	-1257
ܠܒܝܬܗ	-1258
ܦܘܩܕܢ	-1259
ܨܒܝܢܐ	-1260
ܥܝܢܝܗܘܢ	-1261
ܤܦ	-1262
ܐܤܛ	-1263
ܕܪܐ	-1264
ܘܡܪ	-1265
ܘܤܡ	-1266
ܘܪܗ	-1267
ܝܬܪ	-1268
ܠܒܐ	-1269
ܡܐܢ	-1270
ܡܚܒ	-1271
ܡܛܝ	-1272
ܥܡܢ	-1273
ܥܪܐ	-1274
ܦܩܚ	-1275
ܫܘܬ	-1276
ܐܒܘܢ	-1277
ܕܩܐܡ	-1278
ܕܩܒܠ	-1279
ܘܫܒܩ	-1280
ܟܬܒܬ	-1281
ܠܥܡܐ	-1282
ܡܤܒܪ	-1283
ܥܒܪܐ	-1284
ܥܠܬܐ	-1285
ܦܘܡܗ	-1286
ܪܚܡܐ	-1287
ܒܪܝܬܐ	-1288
ܕܡܡܠܠ	-1289
ܕܫܡܥܘ	-1290
ܕܫܪܪܐ	-1291
ܕܬܗܘܐ	-1292
ܘܐܝܢܐ	-1293
ܘܗܟܢܐ	-1294
ܘܢܦܩܘ	-1295
ܚܒܝܒܐ	-1296
ܚܒܝܒܝ	-1297
ܚܕܘܬܐ	-1298
ܠܝܘܗܝ	-1299
ܠܫܡܝܐ	-1300
ܢܗܘܝܢ	-1301
ܫܪܝܪܐ	-1302
ܘܤܓܝܐܐ	-1303
ܘܩܫܝܫܐ	-1304
ܠܐܚܘܗܝ	-1305
ܠܫܡܥܘܢ	-1306
ܡܘܠܟܢܐ	-1307
ܒܚܗ	-1308
ܒܝܫ	-1309
ܓܡܐ	-1310
ܕܟܐ	-1311
ܕܡܨ	-1312
ܗܒܬ	-1313
ܘܒܕ	-1314
ܙܢܝ	-1315
ܙܩܝ	-1316
ܡܬܛ	-1317
ܥܡܟ	-1318
ܦܫܝ	-1319
ܕܤܒܪ	-1320
ܕܥܕܐ	-1321
ܘܒܟܠ	-1322
ܘܠܬܐ	-1323
ܘܥܒܕ	-1324
ܙܪܥܐ	-1325
ܝܕܥܘ	-1326
ܟܬܘܒ	-1327
ܡܟܤܐ	-1328
ܢܩܘܡ	-1329
ܤܗܕܐ	-1330
ܫܥܝܢ	-1331
ܒܢܘܗܝ	-1332
ܕܚܙܝܢ	-1333
ܕܢܘܪܐ	-1334
ܘܐܡܪܐ	-1335
ܘܐܩܝܡ	-1336
ܘܢܗܘܐ	-1337
ܘܫܠܡܐ	-1338
ܘܫܡܥܬ	-1339
ܠܡܐܟܠ	-1340
ܦܪܨܘܦ	-1341
ܐܘܠܨܢܐ	-1342
ܐܙܕܗܪܘ	-1343
ܕܟܠܗܘܢ	-1344
ܢܛܪܘܢܐ	-1345
ܩܕܡܝܬܐ	-1346
ܫܒܘܚܬܗ	-1347
ܗܦ	-1348
ܟܫ	-1349
ܤܢ	-1350
ܪܛ	-1351
ܐܒܗ	-1352
ܒܩܢ	-1353
ܗܠܟ	-1354
ܘܡܨ	-1355
ܛܝܢ	-1356
ܠܟܐ	-1357
ܠܡܨ	-1358
ܡܦܤ	-1359
ܥܕܪ	-1360
ܥܠܐ	-1361
ܦܘܡ	-1362
ܦܬܐ	-1363
ܩܘܐ	-1364
ܩܢܐ	-1365
ܪܚܝ	-1366
ܫܩܠ	-1367
ܒܒܤܪ	-1368
ܒܗܢܐ	-1369
ܕܒܢܝ	-1370
ܕܗܢܐ	-1371
ܕܘܠܐ	-1372
ܕܚܢܢ	-1373
ܕܡܛܠ	-1374
ܕܥܡܐ	-1375
ܘܒܥܐ	-1376
ܘܢܦܠ	-1377
ܛܘܪܐ	-1378
ܝܘܤܦ	-1379
ܠܐܢܬ	-1380
ܠܘܬܢ	-1381
ܡܪܝܢ	-1382
ܢܦܩܘ	-1383
ܥܘܠܐ	-1384
ܥܠܘܢ	-1385
ܦܓܪܗ	-1386
ܦܘܬܐ	-1387
ܐܚܪܝܢ	-1388
ܐܢܫܝܢ	-1389
ܐܢܬܬܗ	-1390
ܐܫܟܚܘ	-1391
ܒܟܬܒܐ	-1392
ܕܓܒܪܐ	-1393
ܝܥܩܘܒ	-1394
ܠܐܪܥܐ	-1395
ܕܬܗܘܘܢ	-1396
ܘܐܝܟܢܐ	-1397
ܟܐܢܘܬܐ	-1398
ܟܢܘܫܬܐ	-1399
ܒܝܢܬܗܘܢ	-1400
ܙܒ	-1401
ܒܚܪ	-1402
ܕܐܚ	-1403
ܕܟܬ	-1404
ܘܟܪ	-1405
ܘܡܠ	-1406
ܘܢܦ	-1407
ܘܥܐ	-1408
ܟܠܢ	-1409
ܡܫܐ	-1410
ܤܡܐ	-1411
ܥܤܪ	-1412
ܦܪܫ	-1413
ܩܠܘ	-1414
ܩܥܐ	-1415
ܪܕܦ	-1416
ܬܫܬ	-1417
ܒܠܚܘ	-1418
ܕܒܝܫ	-1419
ܕܚܠܬ	-1420
ܕܝܠܟ	-1421
ܕܢܚܐ	-1422
ܘܢܢܝ	-1423
ܟܚܕܐ	-1424
ܠܗܫܐ	-1425
ܠܘܬܟ	-1426
ܠܝܡܐ	-1427
ܡܤܗܕ	-1428
ܢܦܫܢ	-1429
ܫܥܝܐ	-1430
ܒܐܝܕܝ	-1431
ܕܐܡܪܐ	-1432
ܕܕܗܒܐ	-1433
ܕܙܒܢܐ	-1434
ܕܚܠܝܢ	-1435
ܘܩܪܒܘ	-1436
ܠܡܝܕܐ	-1437
ܡܬܚܙܐ	-1438
ܤܗܕܝܢ	-1439
ܥܬܝܪܐ	-1440
ܦܬܓܡܐ	-1441
ܩܪܒܝܢ	-1442
ܕܐܒܪܗܡ	-1443
ܕܐܬܐܡܪ	-1444
ܕܩܕܝܫܐ	-1445
ܝܡܬܐܘܤ	-1446
ܠܐܚܪܢܐ	-1447
ܡܗܠܟܝܢ	-1448
ܬܝܒܘܬܐ	-1449
ܒܡܕܝܢܬܐ	-1450
ܕܗܝܡܢܘܬܐ	-1451
ܐܓ	-1452
ܓܝ	-1453
ܐܘܪ	-1454
ܐܠܝ	-1455
ܐܤܬ	-1456
ܒܠܘ	-1457
ܕܐܤ	-1458
ܕܐܪ	-1459
ܕܚܪ	-1460
ܘܢܤ	-1461
ܝܕܝ	-1462
ܝܘܢ	-1463
ܟܦܪ	-1464
ܩܘܢ	-1465
ܫܥܐ	-1466
ܬܬܐ	-1467
ܐܤܛܪ	-1468
ܐܥܒܕ	-1469
ܕܐܒܐ	-1470
ܕܟܝܐ	-1471
ܕܟܝܢ	-1472
ܕܢܦܫ	-1473
ܘܐܦܩ	-1474
ܘܡܫܬ	-1475
ܘܫܩܠ	-1476
ܘܬܪܐ	-1477
ܚܪܝܢ	-1478
ܝܟܠܐ	-1479
ܠܝܢܐ	-1480
ܠܠܝܐ	-1481
ܡܕܝܢ	-1482
ܡܠܝܢ	-1483
ܡܫܒܚ	-1484
ܢܫܡܥ	-1485
ܦܨܚܐ	-1486
ܫܐܘܠ	-1487
ܐܟܚܕܐ	-1488
ܒܐܠܗܐ	-1489
ܕܡܫܟܚ	-1490
ܚܟܡܬܐ	-1491
ܛܢܦܬܐ	-1492
ܝܘܡܢܐ	-1493
ܟܘܠܬܐ	-1494
ܠܒܝܬܐ	-1495
ܠܟܐܦܐ	-1496
ܕܝܠܗܘܢ	-1497
ܠܗܝܟܠܐ	-1498
ܡܫܡܫܢܐ	-1499
ܒܝܢܬܟܘܢ	-1500
ܟܗ	-1501
ܒܠܐ	-1502
ܕܗܪ	-1503
ܘܠܦ	-1504
ܚܘܝ	-1505
ܚܘܪ	-1506
ܚܡܫ	-1507
ܝܢܝ	-1508
ܟܢܝ	-1509
ܟܬܐ	-1510
ܠܥܤ	-1511
ܠܦܘ	-1512
ܠܫܘ	-1513
ܡܟܝ	-1514
ܢܒܝ	-1515
ܢܘܟ	-1516
ܤܚܩ	-1517
ܤܥܪ	-1518
ܤܬܐ	-1519
ܥܡܪ	-1520
ܩܠܗ	-1521
ܪܝܗ	-1522
ܫܡܟ	-1523
ܐܕܢܐ	-1524
ܐܝܕܝ	-1525
ܒܦܓܪ	-1526
ܒܫܠܡ	-1527
ܕܥܡܗ	-1528
ܘܓܐܐ	-1529
ܘܝܕܥ	-1530
ܘܟܒܐ	-1531
ܘܩܝܐ	-1532
ܟܪܝܐ	-1533
ܠܗܕܐ	-1534
ܡܩܘܐ	-1535
ܢܐܙܠ	-1536
ܢܡܠܠ	-1537
ܥܪܒܐ	-1538
ܦܠܚܐ	-1539
ܐܝܠܢܐ	-1540
ܒܗܠܝܢ	-1541
ܒܚܘܒܐ	-1542
ܒܚܝܠܐ	-1543
ܒܫܒܬܐ	-1544
ܒܫܥܬܐ	-1545
ܓܡܘܢܐ	-1546
ܕܐܩܝܡ	-1547
ܕܒܤܪܐ	-1548
ܗܝܗܘܢ	-1549
ܘܐܬܝܢ	-1550
ܟܪܝܗܐ	-1551
ܠܐܬܪܐ	-1552
ܠܥܕܬܐ	-1553
ܢܐܬܘܢ	-1554
ܩܒܠܘܢ	-1555
ܩܪܝܬܐ	-1556
ܕܓܠܝܠܐ	-1557
ܕܫܡܥܝܢ	-1558
ܕܬܕܥܘܢ	-1559
ܕܬܪܬܝܢ	-1560
ܥܝܢܘܗܝ	-1561
ܕܡܕܝܢܬܐ	-1562
ܒܠܚܘܕܘܗܝ	-1563
ܓܘ	-1564
ܙܪ	-1565
ܛܦ	-1566
ܢܘ	-1567
ܩܫ	-1568
ܕܒܢ	-1569
ܕܗܝ	-1570
ܕܠܘ	-1571
ܕܡܚ	-1572
ܕܡܟ	-1573
ܕܢܢ	-1574
ܕܢܫ	-1575
ܕܥܘ	-1576
ܕܦܪ	-1577
ܘܡܤ	-1578
ܘܬܪ	-1579
ܚܝܬ	-1580
ܚܫܒ	-1581
ܟܕܘ	-1582
ܠܝܘ	-1583
ܠܡܗ	-1584
ܡܝܗ	-1585
ܢܝܩ	-1586
ܢܦܐ	-1587
ܤܘܤ	-1588
ܥܠܘ	-1589
ܪܝܡ	-1590
ܬܢܝ	-1591
ܐܠܦܐ	-1592
ܒܓܠܐ	-1593
ܒܥܓܠ	-1594
ܒܥܠܗ	-1595
ܕܐܚܝ	-1596
ܕܒܟܠ	-1597
ܕܡܠܐ	-1598
ܕܢܬܠ	-1599
ܕܩܪܝ	-1600
ܗܢܝܢ	-1601
ܘܐܪܒ	-1602
ܘܐܬܪ	-1603
ܘܗܕܐ	-1604
ܘܗܘܬ	-1605
ܘܡܝܬ	-1606
ܘܩܠܐ	-1607
ܚܙܘܐ	-1608
ܛܝܒܘ	-1609
ܝܓܬܐ	-1610
ܟܠܝܢ	-1611
ܡܟܪܙ	-1612
ܡܨܠܐ	-1613
ܪܘܗܝ	-1614
ܫܒܛܐ	-1615
ܫܘܗܝ	-1616
ܬܘܬܐ	-1617
ܕܗܘܝܘ	-1618
ܘܗܠܝܢ	-1619
ܘܥܕܡܐ	-1620
ܙܕܝܩܐ	-1621
ܛܝܘܛܐ	-1622
ܠܗܠܝܢ	-1623
ܠܡܪܝܐ	-1624
ܠܥܡܡܐ	-1625
ܢܨܪܝܐ	-1626
ܦܝܤܝܢ	-1627
ܐܪܒܥܝܢ	-1628
ܒܕܡܘܬܐ	-1629
ܕܐܝܟܢܐ	-1630
ܕܝܕܥܝܢ	-1631
ܘܐܬܝܗܒ	-1632
ܝܘܠܦܢܐ	-1633
ܠܡܫܝܚܐ	-1634
ܬܪܝܗܘܢ	-1635
ܒܟܢܘܫܬܐ	-1636
ܕܡܬܩܪܝܐ	-1637
ܙܕܝܩܘܬܐ	-1638
ܡܐܟܘܠܬܐ	-1639
ܗܝܡܢܘܬܟܘܢ	-1640
ܡܦ	-1641
ܕܐܙ	-1642
ܕܪܘ	-1643
ܘܕܡ	-1644
ܘܕܢ	-1645
ܘܥܪ	-1646
ܚܘܢ	-1647
ܚܝܠ	-1648
ܚܠܐ	-1649
ܛܠܝ	-1650
ܡܚܐ	-1651
ܩܘܤ	-1652
ܪܒܢ	-1653
ܪܫܝ	-1654
ܬܕܚ	-1655
ܐܪܙܐ	-1656
ܒܡܝܐ	-1657
ܒܪܝܐ	-1658
ܕܢܛܪ	-1659
ܕܥܬܐ	-1660
ܕܦܝܢ	-1661
ܘܐܢܫ	-1662
ܘܒܢܝ	-1663
ܘܕܒܪ	-1664
ܘܝܬܒ	-1665
ܘܢܤܒ	-1666
ܚܝܠܗ	-1667
ܝܐܝܬ	-1668
ܝܗܒܬ	-1669
ܟܐܢܐ	-1670
ܟܤܦܐ	-1671
ܠܒܢܝ	-1672
ܠܩܤܪ	-1673
ܢܥܒܪ	-1674
ܢܦܫܐ	-1675
ܤܛܘܤ	-1676
ܩܢܝܢ	-1677
ܪܒܬܗ	-1678
ܫܒܝܢ	-1679
ܫܩܘܠ	-1680
ܬܪܝܡ	-1681
ܐܙܠܝܢ	-1682
ܐܫܬܡܥ	-1683
ܒܢܘܪܐ	-1684
ܒܥܒܕܐ	-1685
ܕܚܙܝܬ	-1686
ܕܡܘܫܐ	-1687
ܕܦܓܪܐ	-1688
ܕܫܦܝܪ	-1689
ܕܬܠܬܐ	-1690
ܘܐܪܥܐ	-1691
ܘܒܟܘܢ	-1692
ܘܢܐܡܪ	-1693
ܚܟܝܡܐ	-1694
ܚܫܘܟܐ	-1695
ܠܡܠܬܐ	-1696
ܡܢܘܬܐ	-1697
ܐܒܘܟܘܢ	-1698
ܕܚܛܝܬܐ	-1699
ܠܓܠܝܠܐ	-1700
ܦܪܨܘܦܗ	-1701
ܩܪܝܬܘܢ	-1702
ܒܢܦܫܗܘܢ	-1703
ܐܨ	-1704
ܝܘ	-1705
ܨܒ	-1706
ܫܕ	-1707
ܐܬܛ	-1708
ܒܘܟ	-1709
ܒܛܝ	-1710
ܓܢܒ	-1711
ܕܛܒ	-1712
ܕܢܦ	-1713
ܘܟܝ	-1714
ܘܪܓ	-1715
ܘܬܦ	-1716
ܛܠܐ	-1717
ܛܡܐ	-1718
ܟܠܘ	-1719
ܠܒܫ	-1720
ܠܗܢ	-1721
ܤܢܐ	-1722
ܥܒܝ	-1723
ܪܗܘ	-1724
ܐܓܪܐ	-1725
ܐܫܠܡ	-1726
ܒܚܕܐ	-1727
ܒܫܡܝ	-1728
ܕܐܒܝ	-1729
ܕܡܝܢ	-1730
ܕܥܠܝ	-1731
ܕܬܠܬ	-1732
ܗܕܡܐ	-1733
ܘܕܝܐ	-1734
ܘܕܦܐ	-1735
ܘܩܕܡ	-1736
ܘܫܠܝ	-1737
ܠܟܠܗ	-1738
ܠܡܦܩ	-1739
ܡܘܕܐ	-1740
ܡܠܠܬ	-1741
ܡܫܕܪ	-1742
ܢܚܘܡ	-1743
ܢܤܒܝ	-1744
ܢܫܟܚ	-1745
ܤܢܝܐ	-1746
ܥܢܢܐ	-1747
ܩܪܝܢ	-1748
ܫܡܥܬ	-1749
ܬܝܕܥ	-1750
ܐܝܡܡܐ	-1751
ܐܫܬܟܚ	-1752
ܐܬܡܠܝ	-1753
ܒܒܝܬܐ	-1754
ܒܢܦܫܗ	-1755
ܕܢܐܡܪ	-1756
ܕܫܒܬܐ	-1757
ܘܠܨܢܐ	-1758
ܝܪܘܬܐ	-1759
ܤܒܪܬܐ	-1760
ܤܝܘܢܐ	-1761
ܦܬܟܪܐ	-1762
ܪܘܪܒܐ	-1763
ܐܬܟܢܫܘ	-1764
ܕܤܓܝܐܐ	-1765
ܕܫܡܥܘܢ	-1766
ܘܐܬܚܙܝ	-1767
ܠܡܤܟܢܐ	-1768
ܩܘܪܒܢܐ	-1769
ܫܡܥܬܘܢ	-1770
ܠܒܘܬܟܘܢ	-1771
ܠܝܗܘܕܝܐ	-1772
ܕܡܗܝܡܢܝܢ	-1773
ܦܛ	-1774
ܒܐܤ	-1775
ܒܪܫ	-1776
ܕܚܛ	-1777
ܘܗܒ	-1778
ܚܘܐ	-1779
ܝܪܝ	-1780
ܟܪܟ	-1781
ܠܚܐ	-1782
ܡܪܚ	-1783
ܤܐܡ	-1784
ܤܘܢ	-1785
ܤܛܪ	-1786
ܩܝܐ	-1787
ܩܡܬ	-1788
ܩܫܝ	-1789
ܬܢܐ	-1790
ܬܪܗ	-1791
ܬܪܢ	-1792
ܐܚܝܕ	-1793
ܐܫܬܐ	-1794
ܒܒܝܬ	-1795
ܓܠܝܐ	-1796
ܓܢܒܐ	-1797
ܕܟܬܝ	-1798
ܕܡܢܘ	-1799
ܕܩܤܪ	-1800
ܕܪܝܫ	-1801
ܘܒܪܟ	-1802
ܘܚܕܐ	-1803
ܘܚܝܐ	-1804
ܘܟܐܐ	-1805
ܘܡܢܘ	-1806
ܘܬܡܢ	-1807
ܚܒܠܐ	-1808
ܝܪܚܐ	-1809
ܟܘܬܐ	-1810
ܠܟܝܢ	-1811
ܠܡܕܥ	-1812
ܥܠܕܒ	-1813
ܨܦܪܐ	-1814
ܪܫܝܢ	-1815
ܐܝܕܝܐ	-1816
ܒܐܝܢܐ	-1817
ܒܪܢܒܐ	-1818
ܕܘܟܬܐ	-1819
ܕܡܘܬܗ	-1820
ܕܢܥܒܕ	-1821
ܕܥܒܕܐ	-1822
ܗܝܟܘܢ	-1823
ܘܐܡܪܬ	-1824
ܘܠܦܢܗ	-1825
ܘܢܒܝܐ	-1826
ܘܪܘܚܐ	-1827
ܚܛܗܝܢ	-1828
ܝܡܝܢܐ	-1829
ܠܡܫܡܥ	-1830
ܤܒܪܬܗ	-1831
ܩܒܠܝܢ	-1832
ܩܘܪܝܐ	-1833
ܫܐܠܘܢ	-1834
ܫܪܒܬܗ	-1835
ܐܪܡܠܬܐ	-1836
ܒܟܠܡܕܡ	-1837
ܕܥܡܪܝܢ	-1838
ܘܝܘܚܢܢ	-1839
ܡܐܬܝܬܗ	-1840
ܢܐܡܪܘܢ	-1841
ܦܘܪܩܢܐ	-1842
ܩܕܘܢܝܐ	-1843
ܩܕܝܫܬܐ	-1844
ܐܚܪܢܝܬܐ	-1845
ܐܝܕܝܗܘܢ	-1846
ܕܐܝܤܪܝܠ	-1847
ܕܐܬܝܗܒܬ	-1848
ܩܢܛܪܘܢܐ	-1849
ܐܬܓ	-1850
ܒܚܛ	-1851
ܕܢܤ	-1852
ܕܪܟ	-1853
ܗܒܘ	-1854
ܘܠܥ	-1855
ܘܠܨ	-1856
ܘܡܝ	-1857
ܘܪܝ	-1858
ܚܕܘ	-1859
ܛܘܦ	-1860
ܝܠܦ	-1861
ܟܘܤ	-1862
ܟܝܐ	-1863
ܢܬܐ	-1864
ܤܝܒ	-1865
ܥܢܘ	-1866
ܦܪܝ	-1867
ܦܪܩ	-1868
ܐܟܪܙ	-1869
ܐܠܝܐ	-1870
ܕܐܙܠ	-1871
ܕܐܟܠ	-1872
ܕܐܬܘ	-1873
ܕܐܬܬ	-1874
ܕܕܠܐ	-1875
ܕܢܦܠ	-1876
ܕܤܠܩ	-1877
ܕܩܪܐ	-1878
ܕܬܘܒ	-1879
ܘܠܝܐ	-1880
ܘܠܡܢ	-1881
ܘܡܪܢ	-1882
ܘܩܥܐ	-1883
ܙܪܥܗ	-1884
ܚܘܬܐ	-1885
ܝܗܘܕ	-1886
ܠܐܒܝ	-1887
ܠܐܬܐ	-1888
ܠܬܡܢ	-1889
ܡܝܢܐ	-1890
ܡܠܠܐ	-1891
ܡܤܘܩ	-1892
ܥܒܕܢ	-1893
ܥܝܢܟ	-1894
ܥܢܝܐ	-1895
ܩܕܡܝ	-1896
ܩܝܡܐ	-1897
ܫܠܬܐ	-1898
ܐܓܪܬܐ	-1899
ܐܦܘܗܝ	-1900
ܐܫܥܝܐ	-1901
ܒܒܝܬܗ	-1902
ܒܠܫܢܐ	-1903
ܕܝܬܝܪ	-1904
ܕܡܝܬܐ	-1905
ܕܡܪܝܢ	-1906
ܕܢܦܫܗ	-1907
ܘܚܝܠܐ	-1908
ܘܡܟܪܙ	-1909
ܘܡܫܡܫ	-1910
ܘܪܕܢܢ	-1911
ܘܬܗܘܐ	-1912
ܚܙܝܗܝ	-1913
ܚܝܘܗܝ	-1914
ܝܪܐܝܬ	-1915
ܠܡܗܘܐ	-1916
ܤܝܡܬܐ	-1917
ܪܘܚܩܐ	-1918
ܒܝܘܡܬܐ	-1919
ܒܟܠܗܘܢ	-1920
ܘܐܝܩܪܐ	-1921
ܙܢܝܘܬܐ	-1922
ܚܙܐܘܗܝ	-1923
ܟܠܝܪܟܐ	-1924
ܠܐܒܘܗܝ	-1925
ܠܚܝܘܬܐ	-1926
ܡܥܡܕܢܐ	-1927
ܬܕܚܠܘܢ	-1928
ܬܘܢܝܗܝ	-1929
ܐܟܠܩܪܨܐ	-1930
ܒܫܠܡܟܘܢ	-1931
ܕܟܐܢܘܬܐ	-1932
ܘܐܝܬܘܗܝ	-1933
ܛܘܒܝܗܘܢ	-1934
ܠܥܒܕܘܗܝ	-1935
ܬܗܝܡܢܘܢ	-1936
ܡܬܛܦܝܤܝܢ	-1937
ܐܤܛܪܛܝܘܛܐ	-1938
ܚܢ	-1939
ܬܒ	-1940
ܐܬܠ	-1941
ܒܡܨ	-1942
ܒܪܘ	-1943
ܓܘܪ	-1944
ܓܝܢ	-1945
ܕܒܠ	-1946
ܕܘܡ	-1947
ܕܡܛ	-1948
ܕܡܫ	-1949
ܕܫܐ	-1950
ܘܐܙ	-1951
ܘܐܫ	-1952
ܘܕܪ	-1953
ܘܠܗ	-1954
ܘܡܫ	-1955
ܘܤܗ	-1956
ܚܛܐ	-1957
ܠܕܪ	-1958
ܠܦܝ	-1959
ܡܨܝ	-1960
ܢܛܝ	-1961
ܤܦܩ	-1962
ܥܓܠ	-1963
ܦܤܩ	-1964
ܩܕܫ	-1965
ܩܠܝ	-1966
ܩܡܘ	-1967
ܩܤܪ	-1968
ܪܗܛ	-1969
ܫܒܝ	-1970
ܫܠܐ	-1971
ܫܦܪ	-1972
ܬܒܘ	-1973
ܬܟܝ	-1974
ܬܪܬ	-1975
ܐܤܝܪ	-1976
ܒܙܒܢ	-1977
ܒܢܝܗ	-1978
ܒܩܢܐ	-1979
ܕܗܘܘ	-1980
ܕܘܟܐ	-1981
ܕܚܙܘ	-1982
ܕܝܢܗ	-1983
ܕܡܢܐ	-1984
ܕܪܘܚ	-1985
ܕܫܪܝ	-1986
ܗܘܗܝ	-1987
ܗܟܘܬ	-1988
ܘܗܘܘ	-1989
ܘܗܢܐ	-1990
ܘܗܪܗ	-1991
ܘܚܙܘ	-1992
ܘܢܛܪ	-1993
ܘܩܡܘ	-1994
ܚܕܘܢ	-1995
ܚܘܒܗ	-1996
ܝܟܝܢ	-1997
ܟܪܡܐ	-1998
ܠܐܒܐ	-1999
ܠܘܕܐ	-2000
ܠܡܤܒ	-2001
ܠܩܘܒ	-2002
ܡܢܝܢ	-2003
ܢܡܘܬ	-2004
ܢܦܠܘ	-2005
ܢܦܠܬ	-2006
ܢܦܩܬ	-2007
ܢܫܠܡ	-2008
ܦܓܪܝ	-2009
ܦܪܘܩ	-2010
ܨܝܕܐ	-2011
ܩܐܝܬ	-2012
ܩܒܠܘ	-2013
ܩܝܦܐ	-2014
ܪܕܝܢ	-2015
ܪܟܘܢ	-2016
ܪܡܫܐ	-2017
ܫܘܥܐ	-2018
ܐܟܠܝܢ	-2019
ܐܬܝܕܥ	-2020
ܐܬܦܬܚ	-2021
ܐܬܪܚܡ	-2022
ܒܗܢܘܢ	-2023
ܒܢܝܢܐ	-2024
ܒܪܥܝܢ	-2025
ܕܐܫܟܚ	-2026
ܕܕܝܢܐ	-2027
ܕܚܝܠܐ	-2028
ܕܝܗܒܬ	-2029
ܕܝܘܡܐ	-2030
ܕܝܢܝܢ	-2031
ܕܟܝܬܐ	-2032
ܕܡܠܟܐ	-2033
ܕܢܚܙܐ	-2034
ܕܢܥܘܠ	-2035
ܕܤܛܢܐ	-2036
ܕܥܕܬܐ	-2037
ܕܫܠܡܐ	-2038
ܘܐܫܠܡ	-2039
ܘܢܟܘܢ	-2040
ܟܠܝܘܡ	-2041
ܠܐܝܟܐ	-2042
ܠܐܝܢܐ	-2043
ܠܚܡܝܢ	-2044
ܡܡܬܘܡ	-2045
ܡܫܪܝܐ	-2046
ܢܚܙܘܢ	-2047
ܩܕܡܝܟ	-2048
ܪܝܗܘܢ	-2049
ܒܡܕܒܪܐ	-2050
ܒܨܠܘܬܐ	-2051
ܕܒܝܫܘܥ	-2052
ܕܕܝܬܩܐ	-2053
ܕܝܥܩܘܒ	-2054
ܕܡܠܐܟܐ	-2055
ܕܥܐܠܝܢ	-2056
ܕܦܪܝܫܐ	-2057
ܕܫܠܝܚܐ	-2058
ܠܐܒܪܗܡ	-2059
ܠܒܪܢܫܐ	-2060
ܠܡܡܠܠܘ	-2061
ܠܩܪܝܬܐ	-2062
ܦܪܢܚܘܡ	-2063
ܕܚܙܝܬܘܢ	-2064
ܠܡܠܟܘܬܐ	-2065
ܡܛܠܬܟܘܢ	-2066
ܦܘܩܕܢܘܗܝ	-2067
ܐܢܝ	-2068
ܒܝܠ	-2069
ܓܒܝ	-2070
ܓܪܬ	-2071
ܕܝܟ	-2072
ܕܡܝ	-2073
ܕܡܤ	-2074
ܕܩܡ	-2075
ܕܬܗ	-2076
ܘܒܬ	-2077
ܘܗܦ	-2078
ܙܝܥ	-2079
ܙܟܐ	-2080
ܙܢܐ	-2081
ܙܩܦ	-2082
ܛܘܗ	-2083
ܠܚܡ	-2084
ܢܕܥ	-2085
ܢܗܪ	-2086
ܢܫܘ	-2087
ܢܬܬ	-2088
ܤܝܘ	-2089
ܦܝܛ	-2090
ܨܒܘ	-2091
ܨܠܘ	-2092
ܬܢܢ	-2093
ܐܢܬܝ	-2094
ܒܕܡܐ	-2095
ܒܗܬܢ	-2096
ܒܡܕܡ	-2097
ܒܥܬܐ	-2098
ܓܝܪܐ	-2099
ܕܗܕܐ	-2100
ܕܗܘܬ	-2101
ܕܙܪܥ	-2102
ܕܚܕܐ	-2103
ܕܟܠܗ	-2104
ܕܡܛܝ	-2105
ܕܢܚܬ	-2106
ܕܥܡܝ	-2107
ܕܬܘܢ	-2108
ܕܬܡܢ	-2109
ܘܢܚܬ	-2110
ܘܦܝܐ	-2111
ܘܩܪܝ	-2112
ܙܕܩܦ	-2113
ܚܐܪܐ	-2114
ܚܝܠܬ	-2115
ܚܠܦܐ	-2116
ܠܡܥܠ	-2117
ܠܡܬܠ	-2118
ܠܥܙܪ	-2119
ܡܚܝܒ	-2120
ܡܪܬܐ	-2121
ܢܘܢܐ	-2122
ܤܝܦܐ	-2123
ܤܢܝܩ	-2124
ܥܝܪܘ	-2125
ܥܩܪܐ	-2126
ܦܘܡܐ	-2127
ܦܤܘܤ	-2128
ܨܘܗܝ	-2129
ܩܒܪܐ	-2130
ܩܛܘܠ	-2131
ܩܪܘܢ	-2132
ܪܥܝܐ	-2133
ܫܘܝܢ	-2134
ܫܠܝܐ	-2135
ܬܟܠܘ	-2136
ܐܫܟܚܬ	-2137
ܓܒܪܝܢ	-2138
ܓܘܫܝܐ	-2139
ܓܙܪܬܐ	-2140
ܕܐܡܪܬ	-2141
ܕܟܠܢܫ	-2142
ܕܨܒܝܢ	-2143
ܕܪܐܘܤ	-2144
ܕܪܥܝܢ	-2145
ܕܬܪܝܢ	-2146
ܘܐܠܗܐ	-2147
ܘܐܦܠܐ	-2148
ܘܓܒܪܐ	-2149
ܘܠܐܡܗ	-2150
ܘܫܕܪܘ	-2151
ܘܫܡܥܘ	-2152
ܘܫܪܝܘ	-2153
ܚܠܦܝܢ	-2154
ܟܠܝܠܐ	-2155
ܠܐܠܦܐ	-2156
ܠܡܚܙܐ	-2157
ܠܥܒܪܐ	-2158
ܠܪܘܚܐ	-2159
ܢܬܩܪܐ	-2160
ܤܝܡܘܢ	-2161
ܫܒܘܩܘ	-2162
ܫܡܝܬܐ	-2163
ܐܦܝܟܘܢ	-2164
ܒܕܚܠܬܐ	-2165
ܕܝܬܒܝܢ	-2166
ܕܢܬܡܠܐ	-2167
ܕܦܘܠܘܤ	-2168
ܗܓܡܘܢܐ	-2169
ܘܐܩܝܡܗ	-2170
ܘܐܪܡܝܘ	-2171
ܘܐܬܦܢܝ	-2172
ܘܫܬܗܘܢ	-2173
ܠܝܘܚܢܢ	-2174
ܢܘܟܪܝܐ	-2175
ܥܒܝܕܝܢ	-2176
ܬܪܢܓܠܐ	-2177
ܘܠܝܘܚܢܢ	-2178
ܘܫܐܠܘܗܝ	-2179
ܠܟܢܘܫܬܐ	-2180
ܥܡܘܕܝܬܐ	-2181
ܡܤܝܒܪܢܘܬܐ	-2182
ܫܛ	-2183
ܒܪܬ	-2184
ܕܡܘ	-2185
ܕܤܡ	-2186
ܗܦܟ	-2187
ܘܪܒ	-2188
ܘܪܩ	-2189
ܘܫܒ	-2190
ܘܫܛ	-2191
ܘܫܪ	-2192
ܚܐܪ	-2193
ܚܠܝ	-2194
ܚܢܐ	-2195
ܟܦܢ	-2196
ܡܓܕ	-2197
ܡܛܐ	-2198
ܡܟܐ	-2199
ܡܤܬ	-2200
ܤܓܕ	-2201
ܤܝܗ	-2202
ܤܪܗ	-2203
ܦܪܘ	-2204
ܨܝܢ	-2205
ܩܒܪ	-2206
ܪܘܙ	-2207
ܪܘܢ	-2208
ܪܤܐ	-2209
ܫܝܓ	-2210
ܐܬܝܐ	-2211
ܒܕܢܐ	-2212
ܒܟܝܐ	-2213
ܒܠܒܗ	-2214
ܒܤܝܡ	-2215
ܒܥܘܢ	-2216
ܕܟܘܪ	-2217
ܕܠܘܬ	-2218
ܕܡܠܠ	-2219
ܕܡܢܗ	-2220
ܕܡܪܘ	-2221
ܗܝܪܐ	-2222
ܘܐܚܝ	-2223
ܘܒܝܬ	-2224
ܘܕܡܐ	-2225
ܘܠܬܗ	-2226
ܘܨܒܐ	-2227
ܚܘܪܐ	-2228
ܚܤܡܐ	-2229
ܛܥܘܢ	-2230
ܟܘܒܐ	-2231
ܟܘܢܐ	-2232
ܠܐܝܬ	-2233
ܠܐܡܗ	-2234
ܠܒܪܐ	-2235
ܠܡܩܡ	-2236
ܠܬܚܬ	-2237
ܡܝܬܗ	-2238
ܡܠܠܢ	-2239
ܢܦܫܬ	-2240
ܤܒܪܘ	-2241
ܤܟܪܝ	-2242
ܤܠܘܢ	-2243
ܨܒܝܬ	-2244
ܨܝܕܢ	-2245
ܪܚܝܩ	-2246
ܫܡܥܐ	-2247
ܬܐܡܪ	-2248
ܬܘܪܐ	-2249
ܬܪܝܨ	-2250
ܐܬܝܠܕ	-2251
ܒܥܕܬܐ	-2252
ܒܫܪܪܐ	-2253
ܕܐܝܬܝ	-2254
ܕܐܫܠܡ	-2255
ܕܐܬܝܢ	-2256
ܕܒܗܘܢ	-2257
ܕܒܝܫܐ	-2258
ܕܝܢܘܤ	-2259
ܕܡܟܝܢ	-2260
ܕܡܪܬܐ	-2261
ܕܢܫܡܥ	-2262
ܕܬܚܝܬ	-2263
ܘܒܘܗܝ	-2264
ܘܟܢܫܐ	-2265
ܘܬܪܝܢ	-2266
ܠܒܗܘܢ	-2267
ܠܕܝܢܐ	-2268
ܠܥܒܕܐ	-2269
ܡܫܬܠܡ	-2270
ܢܫܬܒܩ	-2271
ܥܘܬܪܐ	-2272
ܥܠܝܡܐ	-2273
ܨܒܘܬܐ	-2274
ܨܠܘܬܐ	-2275
ܪܘܓܙܐ	-2276
ܪܫܝܬܐ	-2277
ܬܚܙܘܢ	-2278
ܬܢܝܢܐ	-2279
ܒܫܘܒܚܐ	-2280
ܕܗܪܘܕܤ	-2281
ܕܚܝܘܬܐ	-2282
ܕܝܘܡܢܐ	-2283
ܕܝܡܝܢܐ	-2284
ܘܢܗܘܘܢ	-2285
ܠܢܡܘܤܐ	-2286
ܠܬܪܥܤܪ	-2287
ܤܗܕܘܬܗ	-2288
ܤܝܒܪܬܐ	-2289
ܪܓܝܓܬܐ	-2290
ܬܥܒܕܘܢ	-2291
ܒܛܝܒܘܬܐ	-2292
ܒܤܦܝܢܬܐ	-2293
ܕܡܠܟܘܬܐ	-2294
ܕܫܡܥܬܘܢ	-2295
ܗܝܡܢܘܬܗ	-2296
ܠܬܝܒܘܬܐ	-2297
ܡܓܕܠܝܬܐ	-2298
ܡܠܐܟܘܗܝ	-2299
ܡܩܕܘܢܝܐ	-2300
ܤܟܪܝܘܛܐ	-2301
ܬܪܬܥܤܪܐ	-2302
ܘܐܝܬܝܘܗܝ	-2303
ܡܥܡܘܕܝܬܐ	-2304
ܩܛܠܘܢܝܗܝ	-2305
ܕܐܘܢܓܠܝܘܢ	-2306
ܘܬܠܡܝܕܘܗܝ	-2307
ܚܟ	-2308
ܦܓ	-2309
ܩܕ	-2310
ܪܟ	-2311
ܐܠܨ	-2312
ܐܦܤ	-2313
ܐܨܛ	-2314
ܒܝܡ	-2315
ܒܟܝ	-2316
ܒܫܐ	-2317
ܓܒܐ	-2318
ܓܕܦ	-2319
ܓܙܗ	-2320
ܓܡܪ	-2321
ܕܠܚ	-2322
ܕܠܡ	-2323
ܕܢܗ	-2324
ܕܦܩ	-2325
ܘܒܠ	-2326
ܘܡܚ	-2327
ܘܩܛ	-2328
ܘܬܬ	-2329
ܚܡܬ	-2330
ܛܥܝ	-2331
ܝܨܦ	-2332
ܟܬܝ	-2333
ܡܚܝ	-2334
ܥܕܢ	-2335
ܦܪܥ	-2336
ܦܬܝ	-2337
ܪܘܪ	-2338
ܫܛܝ	-2339
ܐܤܝܐ	-2340
ܒܗܪܐ	-2341
ܒܘܫܐ	-2342
ܒܫܒܐ	-2343
ܓܒܝܐ	-2344
ܓܘܢܐ	-2345
ܓܪܒܐ	-2346
ܕܘܬܐ	-2347
ܕܡܬܚ	-2348
ܕܢܒܝ	-2349
ܕܤܢܐ	-2350
ܕܦܘܩ	-2351
ܕܦܩܕ	-2352
ܕܩܪܒ	-2353
ܕܬܫܬ	-2354
ܘܐܒܝ	-2355
ܘܐܚܪ	-2356
ܘܐܠܐ	-2357
ܘܐܬܠ	-2358
ܘܕܥܘ	-2359
ܘܡܠܐ	-2360
ܘܡܬܚ	-2361
ܘܥܠܘ	-2362
ܘܩܨܐ	-2363
ܘܪܝܢ	-2364
ܘܫܐܠ	-2365
ܙܒܕܝ	-2366
ܙܒܘܪ	-2367
ܚܘܝܐ	-2368
ܚܪܒܐ	-2369
ܛܢܦܐ	-2370
ܝܢܝܢ	-2371
ܟܪܝܗ	-2372
ܠܡܡܬ	-2373
ܠܡܪܗ	-2374
ܠܡܪܝ	-2375
ܠܡܫܬ	-2376
ܡܘܪܐ	-2377
ܡܛܪܐ	-2378
ܡܝܬܬ	-2379
ܡܥܡܕ	-2380
ܡܫܠܡ	-2381
ܡܫܬܡ	-2382
ܢܘܗܝ	-2383
ܢܚܙܐ	-2384
ܢܚܬܐ	-2385
ܢܤܒܘ	-2386
ܤܝܡܐ	-2387
ܤܠܩܘ	-2388
ܥܪܘܩ	-2389
ܩܛܠܘ	-2390
ܩܥܝܢ	-2391
ܩܪܒܬ	-2392
ܩܪܝܬ	-2393
ܪܡܝܐ	-2394
ܬܕܚܠ	-2395
ܐܝܩܪܐ	-2396
ܐܝܬܝܢ	-2397
ܐܫܬܠܡ	-2398
ܐܬܩܪܝ	-2399
ܒܙܒܢܐ	-2400
ܒܚܙܘܐ	-2401
ܒܡܪܝܐ	-2402
ܒܥܡܡܐ	-2403
ܒܫܘܩܐ	-2404
ܒܬܪܟܢ	-2405
ܕܐܬܝܬ	-2406
ܕܒܥܝܢ	-2407
ܕܝܗܘܕ	-2408
ܕܝܢܬܗ	-2409
ܕܡܤܒܪ	-2410
ܕܢܫܪܐ	-2411
ܕܥܘܠܐ	-2412
ܕܩܪܝܢ	-2413
ܕܫܒܥܐ	-2414
ܘܐܡܝܢ	-2415
ܘܕܚܠܘ	-2416
ܘܡܪܝܡ	-2417
ܘܥܒܕܘ	-2418
ܘܨܒܝܢ	-2419
ܘܫܐܠܗ	-2420
ܘܫܩܠܘ	-2421
ܘܫܬܝܢ	-2422
ܙܩܝܦܗ	-2423
ܚܪܝܢܐ	-2424
ܝܕܝܥܐ	-2425
ܝܕܥܬܐ	-2426
ܠܐܢܛܝ	-2427
ܠܚܪܬܐ	-2428
ܠܡܐܬܐ	-2429
ܠܢܦܫܗ	-2430
ܡܕܒܚܐ	-2431
ܡܘܕܝܢ	-2432
ܡܙܕܕܩ	-2433
ܡܚܘܬܐ	-2434
ܡܢܗܝܢ	-2435
ܡܢܝܢܐ	-2436
ܡܬܒܥܐ	-2437
ܤܓܕܘܢ	-2438
ܥܒܕܝܟ	-2439
ܦܪܚܬܐ	-2440
ܦܬܘܪܐ	-2441
ܫܒܚܝܢ	-2442
ܬܐܪܬܐ	-2443
ܐܚܝܕܝܢ	-2444
ܐܚܪܢܝܢ	-2445
ܒܐܝܠܝܢ	-2446
ܒܕܘܟܬܐ	-2447
ܒܚܫܘܟܐ	-2448
ܒܠܒܗܘܢ	-2449
ܕܗܝܟܠܐ	-2450
ܕܢܐܬܘܢ	-2451
ܕܢܚܙܘܢ	-2452
ܕܥܒܕܝܢ	-2453
ܘܝܥܩܘܒ	-2454
ܘܫܡܥܘܢ	-2455
ܠܐܢܬܬܐ	-2456
ܠܕܘܟܬܐ	-2457
ܠܚܛܝܬܐ	-2458
ܠܡܝܘܗܝ	-2459
ܡܫܠܡܢܐ	-2460
ܒܐܝܕܘܗܝ	-2461
ܒܢܦܫܟܘܢ	-2462
ܕܢܐܙܠܘܢ	-2463
ܚܠܦܝܟܘܢ	-2464
ܝܬܘܢܝܗܝ	-2465
ܠܬܠܡܝܕܐ	-2466
ܡܬܚܫܒܝܢ	-2467
ܥܘܪܠܘܬܐ	-2468
ܪܓܠܝܗܘܢ	-2469
ܘܬܫܒܘܚܬܐ	-2470
ܠܡܩܕܘܢܝܐ	-2471
ܢܪ	-2472
ܫܗ	-2473
ܒܐܫ	-2474
ܒܩܐ	-2475
ܕܡܙ	-2476
ܕܡܥ	-2477
ܕܢܨ	-2478
ܘܕܒ	-2479
ܘܝܘ	-2480
ܘܝܬ	-2481
ܘܠܟ	-2482
ܘܡܛ	-2483
ܘܥܕ	-2484
ܘܫܝ	-2485
ܚܝܘ	-2486
ܚܪܝ	-2487
ܛܪܘ	-2488
ܝܠܝ	-2489
ܝܪܢ	-2490
ܟܒܪ	-2491
ܠܒܤ	-2492
ܠܘܚ	-2493
ܠܛܐ	-2494
ܠܝܗ	-2495
ܡܚܪ	-2496
ܡܫܡ	-2497
ܡܬܢ	-2498
ܢܚܫ	-2499
ܤܒܐ	-2500
ܤܡܬ	-2501
ܥܝܘ	-2502
ܦܘܠ	-2503
ܦܟܝ	-2504
ܨܝܐ	-2505
ܪܓܐ	-2506
ܪܘܥ	-2507
ܬܐܪ	-2508
ܐܙܠܐ	-2509
ܐܝܕܟ	-2510
ܐܝܟܘ	-2511
ܐܪܒܥ	-2512
ܒܝܘܡ	-2513
ܒܝܢܝ	-2514
ܒܟܝܢ	-2515
ܒܡܠܐ	-2516
ܒܪܢܫ	-2517
ܒܪܬܗ	-2518
ܕܐܬܪ	-2519
ܕܒܝܕ	-2520
ܕܒܤܪ	-2521
ܕܚܠܘ	-2522
ܕܟܡܐ	-2523
ܕܟܪܝ	-2524
ܕܥܒܪ	-2525
ܕܦܓܪ	-2526
ܕܫܒܩ	-2527
ܕܫܪܐ	-2528
ܗܘܝܐ	-2529
ܗܠܟܘ	-2530
ܘܐܤܝ	-2531
ܘܒܪܗ	-2532
ܘܡܬܟ	-2533
ܚܝܝܢ	-2534
ܚܡܬܐ	-2535
ܚܪܫܐ	-2536
ܝܗܝܒ	-2537
ܝܘܢܐ	-2538
ܝܠܕܐ	-2539
ܟܐܝܐ	-2540
ܟܦܢܐ	-2541
ܟܪܙܘ	-2542
ܠܐܘܪ	-2543
ܠܐܚܐ	-2544
ܠܐܬܪ	-2545
ܠܘܩܒ	-2546
ܠܝܘܤ	-2547
ܠܩܪܝ	-2548
ܠܬܘܢ	-2549
ܡܒܪܟ	-2550
ܡܢܬܐ	-2551
ܡܤܬܟ	-2552
ܢܝܗܝ	-2553
ܢܩܒܠ	-2554
ܤܡܟܐ	-2555
ܥܕܠܐ	-2556
ܥܝܠܐ	-2557
ܦܘܗܝ	-2558
ܦܟܝܢ	-2559
ܦܢܘܢ	-2560
ܨܒܘܬ	-2561
ܩܘܡܘ	-2562
ܩܝܤܐ	-2563
ܩܪܝܒ	-2564
ܩܪܩܦ	-2565
ܫܕܪܬ	-2566
ܫܝܠܐ	-2567
ܬܝܬܐ	-2568
ܬܥܒܕ	-2569
ܐܡܪܢܐ	-2570
ܐܪܒܥܐ	-2571
ܐܬܝܗܒ	-2572
ܒܐܬܪܐ	-2573
ܒܪܫܝܬ	-2574
ܕܐܤܗܕ	-2575
ܕܐܥܒܕ	-2576
ܕܒܤܡܐ	-2577
ܕܗܘܝܢ	-2578
ܕܚܛܗܐ	-2579
ܕܝܘܢܐ	-2580
ܕܝܢܪܐ	-2581
ܕܟܬܒܐ	-2582
ܕܠܠܝܐ	-2583
ܕܡܝܬܪ	-2584
ܕܢܡܠܠ	-2585
ܕܩܠܝܠ	-2586
ܘܐܪܡܝ	-2587
ܘܚܘܒܐ	-2588
ܘܡܠܟܐ	-2589
ܘܡܡܠܠ	-2590
ܘܢܩܝܡ	-2591
ܘܥܠܡܐ	-2592
ܘܩܠܬܐ	-2593
ܙܕܩܬܐ	-2594
ܚܘܪܒܐ	-2595
ܚܝܒܝܢ	-2596
ܚܡܝܪܐ	-2597
ܚܢܢܝܐ	-2598
ܛܠܝܬܐ	-2599
ܟܘܟܒܐ	-2600
ܠܒܟܘܢ	-2601
ܠܛܠܝܐ	-2602
ܠܢܒܝܐ	-2603
ܠܥܒܕܗ	-2604
ܡܛܠܬܗ	-2605
ܡܛܠܬܝ	-2606
ܡܝܗܝܢ	-2607
ܡܝܬܝܢ	-2608
ܡܠܘܗܝ	-2609
ܡܬܚܒܠ	-2610
ܢܛܪܝܢ	-2611
ܦܠܚܝܢ	-2612
ܦܪܥܘܢ	-2613
ܨܝܡܝܢ	-2614
ܩܘܡܘܢ	-2615
ܩܘܫܬܐ	-2616
ܩܝܡܬܐ	-2617
ܪܫܝܥܐ	-2618
ܫܘܚܬܐ	-2619
ܫܘܬܦܐ	-2620
ܫܡܪܝܐ	-2621
ܒܚܕܘܬܐ	-2622
ܒܡܨܥܬܐ	-2623
ܒܢܝܗܘܢ	-2624
ܒܨܒܝܢܗ	-2625
ܒܩܘܫܬܐ	-2626
ܓܠܝܠܝܐ	-2627
ܕܐܒܘܗܝ	-2628
ܕܐܟܠܝܢ	-2629
ܕܐܬܩܪܝ	-2630
ܕܒܪܢܫܐ	-2631
ܕܕܚܠܝܢ	-2632
ܕܗܝܡܢܘ	-2633
ܕܝܗܘܕܐ	-2634
ܕܟܬܝܒܢ	-2635
ܕܫܘܒܚܗ	-2636
ܘܐܢܬܬܐ	-2637
ܘܐܬܡܠܝ	-2638
ܘܬܗܘܘܢ	-2639
ܚܝܒܝܢܢ	-2640
ܟܢܝܫܝܢ	-2641
ܠܝܥܩܘܒ	-2642
ܠܩܤܪܝܐ	-2643
ܠܫܠܝܚܐ	-2644
ܡܓܕܦܝܢ	-2645
ܡܚܫܒܬܐ	-2646
ܡܠܐܟܝܢ	-2647
ܡܬܪܥܝܢ	-2648
ܢܡܠܠܘܢ	-2649
ܥܒܕܘܬܐ	-2650
ܥܒܪܐܝܬ	-2651
ܪܗܘܡܝܐ	-2652
ܫܬܐܤܬܐ	-2653
ܬܐܡܪܘܢ	-2654
ܒܝܘܠܦܢܗ	-2655
ܕܛܝܒܘܬܗ	-2656
ܕܠܘܬܟܘܢ	-2657
ܕܩܒܠܬܘܢ	-2658
ܕܬܫܡܫܬܐ	-2659
ܠܤܦܝܢܬܐ	-2660
ܥܒܕܝܟܘܢ	-2661
ܩܕܡܝܗܘܢ	-2662
ܒܐܝܕܝܗܘܢ	-2663
ܒܩܢܕܝܢܘܤ	-2664
ܕܬܫܒܘܚܬܗ	-2665
ܠܟܦܪܢܚܘܡ	-2666
ܗܝܡܢܘܬܗܘܢ	-2667
ܛܥ	-2668
ܟܒ	-2669
ܪܩ	-2670
ܫܠ	-2671
ܒܡܪ	-2672
ܒܩܪ	-2673
ܓܐܪ	-2674
ܕܓܠ	-2675
ܕܝܘ	-2676
ܕܪܥ	-2677
ܗܕܡ	-2678
ܘܐܚ	-2679
ܘܕܘ	-2680
ܘܙܠ	-2681
ܘܦܩ	-2682
ܘܫܗ	-2683
ܘܬܡ	-2684
ܙܥܩ	-2685
ܚܫܘ	-2686
ܛܘܢ	-2687
ܝܩܐ	-2688
ܟܐܦ	-2689
ܟܫܠ	-2690
ܠܐܚ	-2691
ܠܒܝ	-2692
ܠܒܥ	-2693
ܠܕܬ	-2694
ܠܟܤ	-2695
ܠܠܘ	-2696
ܡܡܐ	-2697
ܡܩܘ	-2698
ܡܫܪ	-2699
ܢܬܪ	-2700
ܤܒܘ	-2701
ܤܝܪ	-2702
ܥܗܕ	-2703
ܥܪܩ	-2704
ܨܠܝ	-2705
ܪܕܐ	-2706
ܫܪܘ	-2707
ܬܒܐ	-2708
ܬܘܬ	-2709
ܐܗܘܐ	-2710
ܐܘܠܨ	-2711
ܐܠܗܗ	-2712
ܐܫܝܓ	-2713
ܐܬܕܟ	-2714
ܐܬܟܪ	-2715
ܐܬܠܒ	-2716
ܒܛܝܠ	-2717
ܒܟܘܪ	-2718
ܒܤܡܐ	-2719
ܒܥܝܐ	-2720
ܒܫܡܐ	-2721
ܓܝܤܐ	-2722
ܕܐܚܐ	-2723
ܕܐܠܘ	-2724
ܕܐܤܬ	-2725
ܕܕܐܢ	-2726
ܕܕܡܐ	-2727
ܕܗܫܐ	-2728
ܕܟܤܐ	-2729
ܕܟܪܐ	-2730
ܕܠܥܠ	-2731
ܕܡܬܬ	-2732
ܕܤܓܝ	-2733
ܕܤܥܪ	-2734
ܕܪܬܐ	-2735
ܗܘܡܐ	-2736
ܗܪܘܢ	-2737
ܘܐܟܠ	-2738
ܘܐܤܬ	-2739
ܘܒܥܘ	-2740
ܘܗܠܟ	-2741
ܘܙܒܢ	-2742
ܘܝܬܐ	-2743
ܘܟܠܝ	-2744
ܘܤܡܘ	-2745
ܘܥܒܪ	-2746
ܙܕܒܢ	-2747
ܚܕܕܐ	-2748
ܚܛܗܝ	-2749
ܚܦܝܛ	-2750
ܝܕܥܐ	-2751
ܝܘܬܐ	-2752
ܝܙܕܩ	-2753
ܟܝܟܐ	-2754
ܠܐܚܝ	-2755
ܠܒܝܫ	-2756
ܠܟܤܢ	-2757
ܠܡܩܛ	-2758
ܡܕܒܪ	-2759
ܡܘܕܥ	-2760
ܡܘܡܐ	-2761
ܡܚܘܐ	-2762
ܡܚܫܒ	-2763
ܡܠܚܐ	-2764
ܡܠܬܝ	-2765
ܡܡܪܚ	-2766
ܡܤܝܒ	-2767
ܡܦܝܤ	-2768
ܡܫܐܠ	-2769
ܡܫܚܐ	-2770
ܢܐܒܕ	-2771
ܢܗܠܟ	-2772
ܢܛܪܬ	-2773
ܢܟܘܢ	-2774
ܢܟܠܐ	-2775
ܢܡܘܤ	-2776
ܢܥܘܠ	-2777
ܢܦܩܢ	-2778
ܢܨܪܬ	-2779
ܤܓܘܕ	-2780
ܤܛܝܐ	-2781
ܥܝܕܐ	-2782
ܥܪܤܟ	-2783
ܦܟܘܢ	-2784
ܦܥܠܐ	-2785
ܨܦܘܢ	-2786
ܩܘܪܢ	-2787
ܩܢܝܐ	-2788
ܪܒܥܐ	-2789
ܪܘܚܝ	-2790
ܪܚܡܝ	-2791
ܪܝܡܘ	-2792
ܪܡܝܢ	-2793
ܫܒܩܘ	-2794
ܫܝܘܠ	-2795
ܫܪܓܐ	-2796
ܫܬܘܢ	-2797
ܫܬܝܢ	-2798
ܬܐܬܐ	-2799
ܬܪܘܢ	-2800
ܐܢܘܬܗ	-2801
ܐܢܬܝܢ	-2802
ܐܫܟܚܢ	-2803
ܒܕܝܢܐ	-2804
ܒܘܝܐܐ	-2805
ܒܟܐܦܐ	-2806
ܕܐܚܝܕ	-2807
ܕܐܠܗܢ	-2808
ܕܒܒܤܪ	-2809
ܕܒܚܬܐ	-2810
ܕܒܢܝܐ	-2811
ܕܟܐܦܐ	-2812
ܕܠܐܢܫ	-2813
ܕܢܚܬܐ	-2814
ܕܤܥܪܐ	-2815
ܕܫܡܥܬ	-2816
ܘܐܝܟܐ	-2817
ܘܐܪܝܡ	-2818
ܘܒܗܕܐ	-2819
ܘܗܘܝܘ	-2820
ܘܗܦܟܘ	-2821
ܘܟܠܢܐ	-2822
ܘܡܫܐܠ	-2823
ܘܥܒܕܐ	-2824
ܘܩܥܝܢ	-2825
ܘܪܕܝܢ	-2826
ܚܙܝܪܐ	-2827
ܝܠܘܕܐ	-2828
ܝܡܝܢܝ	-2829
ܠܚܛܝܐ	-2830
ܠܡܐܙܠ	-2831
ܠܡܐܚܕ	-2832
ܠܡܩܛܠ	-2833
ܠܬܪܝܢ	-2834
ܡܟܫܠܐ	-2835
ܡܠܐܟܗ	-2836
ܡܢܤܝܢ	-2837
ܡܤܟܢܐ	-2838
ܡܫܟܢܐ	-2839
ܡܫܠܡܢ	-2840
ܢܘܗܪܗ	-2841
ܢܝܟܘܢ	-2842
ܢܤܒܝܢ	-2843
ܢܬܒܛܠ	-2844
ܤܘܓܐܐ	-2845
ܥܤܪܝܢ	-2846
ܥܬܝܩܐ	-2847
ܦܪܫܝܢ	-2848
ܨܒܝܢܝ	-2849
ܩܘܕܫܐ	-2850
ܩܪܒܘܢ	-2851
ܪܓܠܝܟ	-2852
ܪܝܘܗܝ	-2853
ܫܒܩܘܢ	-2854
ܫܘܒܚܗ	-2855
ܫܟܚܘܢ	-2856
ܫܡܫܬܗ	-2857
ܬܝܗܘܢ	-2858
ܬܝܡܢܐ	-2859
ܐܓܪܦܘܤ	-2860
ܐܝܕܘܗܝ	-2861
ܐܟܤܢܝܐ	-2862
ܐܬܛܦܝܤ	-2863
ܐܬܡܠܝܘ	-2864
ܒܚܘܪܒܐ	-2865
ܒܝܕܥܬܐ	-2866
ܒܡܘܡܬܐ	-2867
ܒܬܘܠܬܐ	-2868
ܓܠܝܐܝܬ	-2869
ܕܐܙܠܝܢ	-2870
ܕܚܫܘܟܐ	-2871
ܕܩܘܫܬܐ	-2872
ܘܐܚܪܝܢ	-2873
ܘܐܝܬܝܗ	-2874
ܘܐܪܒܥܐ	-2875
ܙܕܘܩܝܐ	-2876
ܛܢܦܘܬܐ	-2877
ܝܪܬܘܬܐ	-2878
ܠܐܢܬܬܗ	-2879
ܠܡܨܠܝܘ	-2880
ܡܤܗܕܝܢ	-2881
ܢܦܩܬܘܢ	-2882
ܢܫܬܒܗܪ	-2883
ܤܓܝܐܝܢ	-2884
ܤܦܝܢܬܐ	-2885
ܥܒܕܬܘܢ	-2886
ܥܬܝܕܝܢ	-2887
ܦܗܤܛܘܤ	-2888
ܦܠܓܘܬܐ	-2889
ܫܦܝܪܬܐ	-2890
ܬܐܨܦܘܢ	-2891
ܐܡܝܢܐܝܬ	-2892
ܐܬܬܥܝܪܘ	-2893
ܒܡܠܟܘܬܐ	-2894
ܒܡܠܟܘܬܗ	-2895
ܒܥܠܕܒܒܐ	-2896
ܒܥܠܕܒܒܝ	-2897
ܕܒܡܫܝܚܐ	-2898
ܕܒܢܡܘܤܐ	-2899
ܕܡܡܠܠܝܢ	-2900
ܕܬܠܡܝܕܐ	-2901
ܕܬܥܒܕܘܢ	-2902
ܘܠܟܠܗܘܢ	-2903
ܘܠܡܠܐܟܐ	-2904
ܘܡܫܒܚܝܢ	-2905
ܠܐܝܤܪܝܠ	-2906
ܠܡܠܟܘܬܗ	-2907
ܡܡܠܠܝܢܢ	-2908
ܡܬܕܡܪܝܢ	-2909
ܥܒܕܝܗܘܢ	-2910
ܫܘܬܦܘܬܐ	-2911
ܕܐܝܬܝܗܝܢ	-2912
ܕܒܐܘܪܫܠܡ	-2913
ܕܙܕܝܩܘܬܐ	-2914
ܘܛܝܡܬܐܘܤ	-2915
ܘܝܬܝܪܐܝܬ	-2916
ܤܝܒܪܢܘܬܐ	-2917
ܒܐܘܢܓܠܝܘܢ	-2918
ܕܢܫܠܡܝܘܗܝ	-2919
ܕܗܝܡܢܘܬܟܘܢ	-2920
ܐܕܡ	-2921
ܐܕܪ	-2922
ܐܘܩ	-2923
ܐܪܥ	-2924
ܐܬܚ	-2925
ܒܟܢ	-2926
ܒܪܓ	-2927
ܕܐܫ	-2928
ܕܒܚ	-2929
ܕܒܡ	-2930
ܕܪܫ	-2931
ܕܫܡ	-2932
ܕܫܩ	-2933
ܘܢܓ	-2934
ܘܤܐ	-2935
ܘܥܝ	-2936
ܘܪܘ	-2937
ܙܟܝ	-2938
ܚܕܬ	-2939
ܚܘܤ	-2940
ܚܟܝ	-2941
ܚܫܝ	-2942
ܚܬܝ	-2943
ܛܬܐ	-2944
ܝܩܪ	-2945
ܝܪܬ	-2946
ܝܬܟ	-2947
ܟܟܪ	-2948
ܠܓܗ	-2949
ܠܘܤ	-2950
ܠܡܦ	-2951
ܠܫܢ	-2952
ܠܬܢ	-2953
ܡܓܢ	-2954
ܡܠܘ	-2955
ܡܪܓ	-2956
ܡܪܬ	-2957
ܢܤܬ	-2958
ܢܩܘ	-2959
ܤܓܐ	-2960
ܥܐܠ	-2961
ܥܠܬ	-2962
ܦܪܗ	-2963
ܪܒܥ	-2964
ܪܝܤ	-2965
ܫܠܚ	-2966
ܫܢܗ	-2967
ܬܥܡ	-2968
ܬܫܥ	-2969
ܐܘܕܥ	-2970
ܐܚܘܟ	-2971
ܐܠܗܟ	-2972
ܐܡܠܠ	-2973
ܐܦܝܢ	-2974
ܐܫܬܝ	-2975
ܒܘܝܐ	-2976
ܒܥܡܐ	-2977
ܒܪܝܟ	-2978
ܒܬܪܟ	-2979
ܕܗܢܘ	-2980
ܕܙܕܩ	-2981
ܕܚܠܦ	-2982
ܕܚܫܐ	-2983
ܕܝܗܝ	-2984
ܕܝܘܢ	-2985
ܕܡܚܒ	-2986
ܕܡܤܬ	-2987
ܕܢܚܫ	-2988
ܕܦܠܚ	-2989
ܕܫܘܐ	-2990
ܗܦܟܘ	-2991
ܘܐܠܘ	-2992
ܘܒܢܐ	-2993
ܘܕܝܢ	-2994
ܘܗܦܟ	-2995
ܘܝܡܐ	-2996
ܘܟܘܪ	-2997
ܘܠܐܝ	-2998
ܘܠܘܬ	-2999
ܘܡܛܝ	-3000
ܘܡܠܟ	-3001
ܘܡܠܠ	-3002
ܘܡܩܐ	-3003
ܘܤܒܪ	-3004
ܘܦܬܚ	-3005
ܘܩܒܠ	-3006
ܘܩܥܘ	-3007
ܘܪܒܝ	-3008
ܘܪܚܡ	-3009
ܘܪܝܗ	-3010
ܘܫܠܡ	-3011
ܘܫܪܐ	-3012
ܙܘܥܐ	-3013
ܙܝܬܐ	-3014
ܙܠܘܢ	-3015
ܚܐܝܢ	-3016
ܚܕܝܢ	-3017
ܚܙܝܐ	-3018
ܚܝܘܢ	-3019
ܚܠܦܝ	-3020
ܚܤܝܪ	-3021
ܚܬܢܐ	-3022
ܛܛܘܤ	-3023
ܛܪܘܢ	-3024
ܟܕܢܐ	-3025
ܟܠܬܐ	-3026
ܠܥܡܗ	-3027
ܠܦܘܢ	-3028
ܡܟܘܢ	-3029
ܡܠܝܐ	-3030
ܡܥܕܪ	-3031
ܡܦܩܕ	-3032
ܡܨܥܬ	-3033
ܢܒܗܬ	-3034
ܢܗܪܐ	-3035
ܢܚܘܢ	-3036
ܢܤܒܬ	-3037
ܢܫܡܫ	-3038
ܢܬܘܤ	-3039
ܤܐܡܐ	-3040
ܤܓܕܘ	-3041
ܤܘܟܐ	-3042
ܤܘܬܐ	-3043
ܤܟܠܐ	-3044
ܥܝܬܐ	-3045
ܨܒܝܐ	-3046
ܩܕܝܫ	-3047
ܩܘܘܢ	-3048
ܩܪܢܐ	-3049
ܪܒܝܐ	-3050
ܪܬܘܢ	-3051
ܫܘܠܐ	-3052
ܫܠܡܘ	-3053
ܫܪܝܘ	-3054
ܫܪܝܢ	-3055
ܫܪܝܪ	-3056
ܬܟܝܠ	-3057
ܬܢܢܐ	-3058
ܬܪܚܡ	-3059
ܐܒܗܬܢ	-3060
ܐܝܤܚܩ	-3061
ܐܪܡܝܐ	-3062
ܐܪܡܝܘ	-3063
ܐܬܐܡܪ	-3064
ܐܬܓܠܝ	-3065
ܒܐܝܕܐ	-3066
ܒܐܠܦܐ	-3067
ܒܒܤܪܐ	-3068
ܒܡܬܠܐ	-3069
ܒܦܓܪܗ	-3070
ܒܪܘܬܐ	-3071
ܓܘܕܦܐ	-3072
ܓܡܝܪܐ	-3073
ܕܐܝܢܐ	-3074
ܕܐܠܝܐ	-3075
ܕܐܤܝܡ	-3076
ܕܐܫܪܐ	-3077
ܕܙܝܬܐ	-3078
ܕܝܠܝܕ	-3079
ܕܟܢܫܐ	-3080
ܕܟܪܝܗ	-3081
ܕܡܫܡܫ	-3082
ܕܢܘܗܝ	-3083
ܕܢܩܝܡ	-3084
ܕܢܩܪܐ	-3085
ܕܥܒܕܘ	-3086
ܕܦܐܪܐ	-3087
ܕܫܐܕܐ	-3088
ܘܐܘܕܝ	-3089
ܘܐܘܚܕ	-3090
ܘܐܚܕܗ	-3091
ܘܕܝܢܐ	-3092
ܘܗܒܬܗ	-3093
ܘܗܝܡܢ	-3094
ܘܚܙܝܢ	-3095
ܘܠܠܝܐ	-3096
ܘܡܠܬܗ	-3097
ܘܢܦܠܘ	-3098
ܘܢܦܩܬ	-3099
ܘܥܪܢܐ	-3100
ܘܪܒܢܐ	-3101
ܘܪܚܡܐ	-3102
ܘܬܠܬܐ	-3103
ܘܬܪܢܐ	-3104
ܙܟܪܝܐ	-3105
ܚܠܝܡܐ	-3106
ܝܬܟܘܢ	-3107
ܟܢܫܝܢ	-3108
ܠܐܒܘܟ	-3109
ܠܐܢܫܐ	-3110
ܠܗܪܟܐ	-3111
ܠܝܘܤܦ	-3112
ܠܟܗܢܐ	-3113
ܠܡܚܝܘ	-3114
ܠܥܤܝܢ	-3115
ܡܨܝܕܬ	-3116
ܡܫܬܡܥ	-3117
ܡܬܕܒܪ	-3118
ܡܬܪܥܐ	-3119
ܢܘܢܝܢ	-3120
ܢܝܗܘܢ	-3121
ܢܥܠܘܢ	-3122
ܢܦܩܝܢ	-3123
ܢܫܒܘܩ	-3124
ܤܓܕܝܢ	-3125
ܤܓܝܐܢ	-3126
ܤܦܤܪܐ	-3127
ܥܗܕܝܢ	-3128
ܩܢܝܢܗ	-3129
ܫܒܩܝܢ	-3130
ܫܪܝܬܐ	-3131
ܬܕܥܘܢ	-3132
ܬܛܥܘܢ	-3133
ܬܝܗܝܢ	-3134
ܬܥܠܘܢ	-3135
ܐܒܗܘܗܝ	-3136
ܐܠܝܫܒܥ	-3137
ܒܓܠܝܢܐ	-3138
ܒܘܪܟܬܐ	-3139
ܒܟܠܗܝܢ	-3140
ܒܠܚܘܕܝ	-3141
ܒܥܕܥܕܐ	-3142
ܒܦܠܐܬܐ	-3143
ܕܒܐܝܕܗ	-3144
ܕܒܐܠܗܐ	-3145
ܕܙܒܢܝܢ	-3146
ܕܟܠܗܝܢ	-3147
ܕܢܦܩܘܢ	-3148
ܕܢܬܠܘܢ	-3149
ܕܫܡܪܝܐ	-3150
ܘܐܝܬܝܘ	-3151
ܘܐܫܟܚܘ	-3152
ܘܐܬܪܚܡ	-3153
ܘܒܐܪܥܐ	-3154
ܘܒܚܘܒܐ	-3155
ܘܒܠܘܗܝ	-3156
ܘܒܪܢܒܐ	-3157
ܘܗܝܡܢܘ	-3158
ܘܟܠܡܕܡ	-3159
ܘܡܠܐܟܐ	-3160
ܘܩܕܝܫܐ	-3161
ܘܪܠܘܬܐ	-3162
ܚܘܒܟܘܢ	-3163
ܚܝܠܬܢܐ	-3164
ܛܘܒܘܗܝ	-3165
ܝܩܝܪܬܐ	-3166
ܠܚܘܪܒܐ	-3167
ܠܝܘܡܢܐ	-3168
ܠܟܤܢܕܪ	-3169
ܠܥܕܥܕܐ	-3170
ܠܩܕܝܫܐ	-3171
ܠܩܘܒܠܗ	-3172
ܠܩܪܝܒܟ	-3173
ܡܝܬܝܢܢ	-3174
ܡܬܚܙܝܢ	-3175
ܡܬܛܦܝܤ	-3176
ܢܒܝܘܬܐ	-3177
ܢܩܘܡܘܢ	-3178
ܢܫܡܥܘܢ	-3179
ܤܪܝܩܬܐ	-3180
ܥܠܝܗܝܢ	-3181
ܩܪܨܘܗܝ	-3182
ܫܘܘܕܝܐ	-3183
ܫܪܝܪܬܐ	-3184
ܬܪܡܝܬܗ	-3185
ܬܫܡܫܬܐ	-3186
ܒܡܐܬܝܬܗ	-3187
ܒܬܫܡܫܬܐ	-3188
ܕܝܘܪܕܢܢ	-3189
ܕܡܘܠܟܢܐ	-3190
ܕܢܒܝܘܬܐ	-3191
ܕܥܬܝܕܝܢ	-3192
ܘܐܬܟܢܫܘ	-3193
ܘܠܝܥܩܘܒ	-3194
ܘܡܫܐܠܝܢ	-3195
ܘܢܐܡܪܘܢ	-3196
ܘܫܘܠܛܢܐ	-3197
ܠܕܪܡܤܘܩ	-3198
ܠܤܗܕܘܬܐ	-3199
ܡܤܝܒܪܝܢ	-3200
ܡܫܟܚܝܢܢ	-3201
ܡܬܗܦܟܝܢ	-3202
ܢܦܫܬܟܘܢ	-3203
ܬܫܒܘܚܬܗ	-3204
ܘܠܡܕܝܢܬܐ	-3205
ܠܦܝܠܝܦܘܤ	-3206
ܡܚܫܒܬܗܘܢ	-3207
ܤܗܕܘܬܗܘܢ	-3208
ܒܠܚܘܕܝܗܘܢ	-3209
ܚܦ	-3210
ܥܙ	-3211
ܦܥ	-3212
ܩܗ	-3213
ܬܫ	-3214
ܐܚܙ	-3215
ܐܢܘ	-3216
ܐܫܕ	-3217
ܒܓܢ	-3218
ܒܟܐ	-3219
ܒܠܒ	-3220
ܒܠܥ	-3221
ܒܩܘ	-3222
ܓܘܢ	-3223
ܕܐܡ	-3224
ܕܒܟ	-3225
ܕܒܨ	-3226
ܕܓܢ	-3227
ܕܕܩ	-3228
ܕܘܟ	-3229
ܕܢܝ	-3230
ܕܫܝ	-3231
ܕܬܟ	-3232
ܘܚܬ	-3233
ܘܝܩ	-3234
ܘܢܪ	-3235
ܙܠܝ	-3236
ܚܘܒ	-3237
ܚܤܢ	-3238
ܚܫܐ	-3239
ܛܒܥ	-3240
ܛܠܡ	-3241
ܛܥܡ	-3242
ܛܪܐ	-3243
ܝܤܐ	-3244
ܟܤܝ	-3245
ܠܒܗ	-3246
ܠܗܗ	-3247
ܠܘܝ	-3248
ܠܚܝ	-3249
ܡܤܟ	-3250
ܡܩܒ	-3251
ܡܫܝ	-3252
ܢܘܒ	-3253
ܢܩܝ	-3254
ܢܫܩ	-3255
ܢܬܗ	-3256
ܤܘܪ	-3257
ܤܝܬ	-3258
ܤܡܘ	-3259
ܤܡܝ	-3260
ܥܛܦ	-3261
ܥܩܪ	-3262
ܦܤܐ	-3263
ܦܨܐ	-3264
ܦܪܬ	-3265
ܨܚܐ	-3266
ܩܘܘ	-3267
ܩܘܦ	-3268
ܩܛܪ	-3269
ܪܕܘ	-3270
ܫܘܚ	-3271
ܫܝܐ	-3272
ܫܬܝ	-3273
ܬܚܦ	-3274
ܬܤܬ	-3275
ܬܦܠ	-3276
ܬܪܘ	-3277
ܬܬܚ	-3278
ܐܒܗܐ	-3279
ܐܓܪܗ	-3280
ܐܚܒܘ	-3281
ܐܚܕܗ	-3282
ܐܬܪܥ	-3283
ܒܕܠܐ	-3284
ܒܕܪܘ	-3285
ܒܗܪܢ	-3286
ܒܠܘܢ	-3287
ܒܡܕܥ	-3288
ܒܤܪܝ	-3289
ܒܥܝܬ	-3290
ܒܩܪܐ	-3291
ܓܪܬܐ	-3292
ܕܐܬܚ	-3293
ܕܕܚܠ	-3294
ܕܙܢܝ	-3295
ܕܚܝܒ	-3296
ܕܝܐܐ	-3297
ܕܝܬܐ	-3298
ܕܡܚܐ	-3299
ܕܡܟܘ	-3300
ܕܡܠܦ	-3301
ܕܡܥܐ	-3302
ܕܢܕܥ	-3303
ܕܢܤܩ	-3304
ܕܢܫܐ	-3305
ܕܥܐܠ	-3306
ܕܥܝܢ	-3307
ܕܥܤܪ	-3308
ܕܫܬܐ	-3309
ܗܘܬܐ	-3310
ܗܝܘܢ	-3311
ܘܐܤܪ	-3312
ܘܒܫܐ	-3313
ܘܚܠܦ	-3314
ܘܡܚܪ	-3315
ܘܡܢܗ	-3316
ܘܡܬܝ	-3317
ܘܡܬܬ	-3318
ܘܢܤܬ	-3319
ܘܢܫܐ	-3320
ܘܤܓܝ	-3321
ܘܥܝܝ	-3322
ܘܥܤܪ	-3323
ܘܥܬܝ	-3324
ܘܦܘܩ	-3325
ܘܦܫܛ	-3326
ܘܩܛܠ	-3327
ܘܪܕܐ	-3328
ܘܪܗܛ	-3329
ܘܪܫܐ	-3330
ܘܬܒܥ	-3331
ܙܒܘܒ	-3332
ܙܢܝܐ	-3333
ܚܒܪܗ	-3334
ܚܘܡܐ	-3335
ܚܟܝܢ	-3336
ܚܢܦܐ	-3337
ܚܨܕܐ	-3338
ܚܫܒܬ	-3339
ܛܢܢܐ	-3340
ܛܪܬܐ	-3341
ܝܗܒܘ	-3342
ܝܡܡܐ	-3343
ܟܐܝܢ	-3344
ܟܬܢܐ	-3345
ܠܛܝܐ	-3346
ܠܝܢܗ	-3347
ܠܡܠܐ	-3348
ܠܥܝܢ	-3349
ܠܪܒܝ	-3350
ܡܛܝܒ	-3351
ܡܠܟܘ	-3352
ܡܢܗܪ	-3353
ܡܨܥܪ	-3354
ܡܩܝܡ	-3355
ܢܗܘܢ	-3356
ܢܚܘܬ	-3357
ܢܚܬܘ	-3358
ܢܛܥܡ	-3359
ܢܝܩܐ	-3360
ܢܩܘܐ	-3361
ܤܛܪܐ	-3362
ܥܕܢܐ	-3363
ܥܝܢܝ	-3364
ܥܡܪܐ	-3365
ܦܓܪܟ	-3366
ܦܘܪܐ	-3367
ܦܠܚܝ	-3368
ܩܢܘܢ	-3369
ܩܫܝܐ	-3370
ܪܓܠܐ	-3371
ܪܓܬܐ	-3372
ܪܚܡܬ	-3373
ܪܝܘܤ	-3374
ܫܐܠܗ	-3375
ܫܘܩܐ	-3376
ܫܝܢܐ	-3377
ܫܡܗܐ	-3378
ܫܢܬܐ	-3379
ܫܪܘܢ	-3380
ܫܪܝܐ	-3381
ܬܘܢܐ	-3382
ܬܥܒܪ	-3383
ܐܒܕܢܐ	-3384
ܐܒܗܝܢ	-3385
ܐܘܪܚܗ	-3386
ܐܚܪܝܬ	-3387
ܐܟܘܬܝ	-3388
ܐܬܕܟܪ	-3389
ܐܬܕܡܪ	-3390
ܐܬܦܠܓ	-3391
ܒܓܗܢܐ	-3392
ܒܗܪܝܢ	-3393
ܒܙܒܢܗ	-3394
ܒܙܚܝܢ	-3395
ܒܚܪܬܐ	-3396
ܒܛܘܪܐ	-3397
ܒܝܡܬܐ	-3398
ܒܢܒܝܐ	-3399
ܒܥܝܢܢ	-3400
ܒܥܠܬܐ	-3401
ܒܪܘܚܗ	-3402
ܒܬܪܥܐ	-3403
ܓܠܝܢܐ	-3404
ܕܐܒܗܝ	-3405
ܕܐܗܘܐ	-3406
ܕܐܟܠܘ	-3407
ܕܐܦܠܐ	-3408
ܕܕܝܘܐ	-3409
ܕܘܦܝܐ	-3410
ܕܝܟܘܢ	-3411
ܕܝܢܘܢ	-3412
ܕܝܩܝܐ	-3413
ܕܠܘܬܝ	-3414
ܕܠܟܘܢ	-3415
ܕܠܡܪܢ	-3416
ܕܡܠܬܐ	-3417
ܕܡܪܘܢ	-3418
ܕܢܫܠܡ	-3419
ܕܤܡܝܐ	-3420
ܕܥܒܕܬ	-3421
ܕܩܒܠܬ	-3422
ܕܫܡܥܢ	-3423
ܗܝܪܝܢ	-3424
ܘܐܙܠܬ	-3425
ܘܐܝܬܝ	-3426
ܘܕܝܬܗ	-3427
ܘܚܘܪܩ	-3428
ܘܚܛܝܐ	-3429
ܘܝܬܝܪ	-3430
ܘܟܢܫܘ	-3431
ܘܠܐܢܫ	-3432
ܘܠܚܡܐ	-3433
ܘܢܫܠܡ	-3434
ܘܤܠܩܘ	-3435
ܙܒܘܪܗ	-3436
ܙܝܙܢܐ	-3437
ܙܝܥܝܢ	-3438
ܚܛܗܝܟ	-3439
ܚܝܕܝܐ	-3440
ܚܟܡܬܗ	-3441
ܝܘܢܝܐ	-3442
ܝܡܝܢܗ	-3443
ܟܟܪܝܢ	-3444
ܠܐܠܗܢ	-3445
ܠܐܡܬܝ	-3446
ܠܒܥܠܝ	-3447
ܠܡܟܬܒ	-3448
ܠܡܠܦܘ	-3449
ܠܡܦܠܚ	-3450
ܠܡܪܝܡ	-3451
ܠܡܫܬܐ	-3452
ܠܤܛܢܐ	-3453
ܠܬܠܬܐ	-3454
ܡܚܝܢܢ	-3455
ܡܢܪܬܐ	-3456
ܡܨܪܝܢ	-3457
ܡܬܐܫܕ	-3458
ܡܬܕܝܢ	-3459
ܢܐܟܘܠ	-3460
ܢܓܕܘܢ	-3461
ܢܦܩܘܢ	-3462
ܢܫܬܟܚ	-3463
ܢܫܬܩܠ	-3464
ܢܬܓܠܐ	-3465
ܤܘܤܝܐ	-3466
ܤܝܘܬܐ	-3467
ܤܝܡܝܢ	-3468
ܤܪܐܝܠ	-3469
ܤܪܝܩܐ	-3470
ܥܝܪܝܢ	-3471
ܦܝܠܟܤ	-3472
ܨܒܝܢܟ	-3473
ܩܕܡܝܢ	-3474
ܩܠܗܘܢ	-3475
ܪܒܘܬܐ	-3476
ܪܒܝܬܐ	-3477
ܪܘܓܙܗ	-3478
ܪܘܚܢܐ	-3479
ܪܚܡܝܢ	-3480
ܫܘܪܝܐ	-3481
ܐܤܬܟܠܘ	-3482
ܐܪܟܘܢܐ	-3483
ܐܫܬܒܗܪ	-3484
ܐܫܬܡܥܬ	-3485
ܐܬܝܕܥܬ	-3486
ܒܐܝܡܡܐ	-3487
ܒܐܦܤܘܤ	-3488
ܒܓܠܝܠܐ	-3489
ܒܕܡܘܬܗ	-3490
ܒܝܘܡܬܗ	-3491
ܒܢܘܗܪܐ	-3492
ܒܬܪܗܘܢ	-3493
ܕܐܬܝܠܕ	-3494
ܕܒܐܪܥܐ	-3495
ܕܒܝܗܘܕ	-3496
ܕܒܪܘܚܐ	-3497
ܕܙܕܝܩܐ	-3498
ܕܡܛܠܬܗ	-3499
ܕܡܨܪܝܢ	-3500
ܕܢܘܗܪܐ	-3501
ܕܢܫܬܒܚ	-3502
ܕܥܬܝܕܐ	-3503
ܕܥܬܝܕܢ	-3504
ܕܦܛܝܪܐ	-3505
ܕܩܝܡܬܐ	-3506
ܕܪܒܘܬܐ	-3507
ܕܪܚܡܝܢ	-3508
ܕܫܐܠܝܢ	-3509
ܘܐܢܫܝܢ	-3510
ܘܐܫܬܡܥ	-3511
ܘܐܬܦܬܚ	-3512
ܘܒܚܝܠܐ	-3513
ܘܚܟܡܬܐ	-3514
ܘܡܠܦܝܢ	-3515
ܘܡܢܗܘܢ	-3516
ܘܡܨܠܝܢ	-3517
ܘܢܗܘܝܢ	-3518
ܘܢܛܪܝܢ	-3519
ܘܫܪܝܪܐ	-3520
ܚܪܝܦܬܐ	-3521
ܠܒܥܠܕܒ	-3522
ܠܡܨܪܝܢ	-3523
ܠܡܩܛܠܗ	-3524
ܠܤܓܝܐܐ	-3525
ܡܐܢܘܗܝ	-3526
ܡܩܒܠܝܢ	-3527
ܡܫܚܠܦܐ	-3528
ܡܬܒܥܝܢ	-3529
ܢܚܬܘܗܝ	-3530
ܢܥܒܕܘܢ	-3531
ܢܫܟܚܘܢ	-3532
ܤܟܠܘܬܐ	-3533
ܤܩܘܒܠܐ	-3534
ܥܡܘܪܝܗ	-3535
ܦܘܡܗܘܢ	-3536
ܦܪܨܘܦܐ	-3537
ܪܘܚܟܘܢ	-3538
ܪܘܪܒܬܐ	-3539
ܪܚܡܘܗܝ	-3540
ܫܐܠܘܗܝ	-3541
ܫܓܘܫܝܐ	-3542
ܫܘܒܗܪܐ	-3543
ܫܠܝܡܘܢ	-3544
ܬܪܥܝܬܐ	-3545
ܐܒܗܝܟܘܢ	-3546
ܐܝܬܝܗܝܢ	-3547
ܒܐܘܠܨܢܐ	-3548
ܒܛܝܒܘܬܗ	-3549
ܒܟܐܢܘܬܐ	-3550
ܒܥܠܙܒܘܒ	-3551
ܕܗܘܝܬܘܢ	-3552
ܕܛܝܒܘܬܐ	-3553
ܗܝܡܢܘܬܟ	-3554
ܘܐܦܩܘܗܝ	-3555
ܘܒܐܝܡܡܐ	-3556
ܘܛܝܒܘܬܐ	-3557
ܘܡܫܡܫܢܐ	-3558
ܚܙܘܢܝܗܝ	-3559
ܚܛܗܝܗܘܢ	-3560
ܛܘܒܝܟܘܢ	-3561
ܛܝܡܬܐܘܤ	-3562
ܠܢܤܝܘܢܐ	-3563
ܠܢܦܫܗܘܢ	-3564
ܡܤܬܟܠܝܢ	-3565
ܤܠܘܢܝܩܐ	-3566
ܤܪܝܩܐܝܬ	-3567
ܬܪܝܨܐܝܬ	-3568
ܕܡܠܟܝܙܕܩ	-3569
ܘܐܢܕܪܐܘܤ	-3570
ܘܦܝܠܝܦܘܤ	-3571
ܡܫܬܥܒܕܝܢ	-3572
ܩܘܪܢܠܝܘܤ	-3573
ܒܟܢܘܫܬܗܘܢ	-3574
ܕܒܗܝܡܢܘܬܐ	-3575
ܘܢܩܛܠܘܢܝܗܝ	-3576
ܗܕ	-3577
ܟܟ	-3578
ܢܒ	-3579
ܤܤ	-3580
ܨܘ	-3581
ܬܦ	-3582
ܐܘܫ	-3583
ܐܡܝ	-3584
ܐܫܐ	-3585
ܐܫܩ	-3586
ܒܝܗ	-3587
ܒܟܪ	-3588
ܒܡܢ	-3589
ܒܦܪ	-3590
ܒܫܡ	-3591
ܒܫܬ	-3592
ܓܘܓ	-3593
ܕܚܨ	-3594
ܕܚܫ	-3595
ܕܝܫ	-3596
ܕܥܪ	-3597
ܕܦܝ	-3598
ܕܩܐ	-3599
ܕܪܓ	-3600
ܘܚܨ	-3601
ܘܝܐ	-3602
ܘܠܬ	-3603
ܘܢܨ	-3604
ܘܦܝ	-3605
ܙܝܢ	-3606
ܙܠܐ	-3607
ܙܪܘ	-3608
ܚܕܝ	-3609
ܚܨܕ	-3610
ܚܪܐ	-3611
ܚܬܗ	-3612
ܛܥܐ	-3613
ܝܦܐ	-3614
ܟܪܘ	-3615
ܟܪܤ	-3616
ܟܬܫ	-3617
ܠܐܤ	-3618
ܠܐܪ	-3619
ܠܒܟ	-3620
ܠܕܘ	-3621
ܠܚܨ	-3622
ܠܡܕ	-3623
ܠܦܪ	-3624
ܡܘܡ	-3625
ܡܚܘ	-3626
ܡܝܤ	-3627
ܡܟܟ	-3628
ܢܘܚ	-3629
ܢܛܥ	-3630
ܢܟܝ	-3631
ܤܦܐ	-3632
ܤܩܐ	-3633
ܦܓܥ	-3634
ܦܛܪ	-3635
ܦܫܛ	-3636
ܦܫܩ	-3637
ܨܒܥ	-3638
ܩܢܢ	-3639
ܩܥܘ	-3640
ܪܒܘ	-3641
ܪܓܙ	-3642
ܐܘܤܦ	-3643
ܐܚܘܝ	-3644
ܐܝܢܘ	-3645
ܐܡܬܐ	-3646
ܐܢܛܝ	-3647
ܐܢܬܬ	-3648
ܐܦܠܘ	-3649
ܐܫܕܪ	-3650
ܐܫܬܪ	-3651
ܐܬܚܫ	-3652
ܒܒܪܗ	-3653
ܒܕܡܗ	-3654
ܒܙܩܐ	-3655
ܒܝܐܘ	-3656
ܒܝܗܝ	-3657
ܒܡܢܐ	-3658
ܒܢܘܫ	-3659
ܒܥܠܐ	-3660
ܒܦܘܡ	-3661
ܒܪܚܡ	-3662
ܒܪܬܝ	-3663
ܒܫܡܟ	-3664
ܓܢܘܒ	-3665
ܕܒܢܐ	-3666
ܕܕܒܝ	-3667
ܕܘܢܘ	-3668
ܕܚܠܐ	-3669
ܕܡܐܬ	-3670
ܕܡܥܕ	-3671
ܕܡܪܗ	-3672
ܕܡܪܝ	-3673
ܕܢܘܒ	-3674
ܕܢܦܪ	-3675
ܕܢܬܬ	-3676
ܕܤܝܡ	-3677
ܕܦܩܚ	-3678
ܕܪܒܐ	-3679
ܕܪܡܐ	-3680
ܕܬܚܒ	-3681
ܕܬܬܠ	-3682
ܘܐܒܐ	-3683
ܘܐܝܠ	-3684
ܘܐܤܩ	-3685
ܘܒܘܪ	-3686
ܘܒܝܕ	-3687
ܘܒܬܐ	-3688
ܘܓܒܐ	-3689
ܘܕܘܢ	-3690
ܘܕܡܢ	-3691
ܘܚܙܝ	-3692
ܘܝܐܐ	-3693
ܘܟܒܪ	-3694
ܘܟܡܐ	-3695
ܘܠܡܐ	-3696
ܘܡܘܢ	-3697
ܘܡܚܐ	-3698
ܘܡܠܝ	-3699
ܘܡܦܩ	-3700
ܘܢܫܩ	-3701
ܘܢܫܬ	-3702
ܘܤܪܝ	-3703
ܘܩܡܬ	-3704
ܘܫܢܝ	-3705
ܘܬܟܝ	-3706
ܘܬܪܥ	-3707
ܙܕܝܩ	-3708
ܙܩܝܦ	-3709
ܚܘܝܘ	-3710
ܚܝܬܐ	-3711
ܚܠܝܡ	-3712
ܚܪܬܗ	-3713
ܛܒܥܐ	-3714
ܟܪܝܬ	-3715
ܠܕܘܟ	-3716
ܠܡܘܢ	-3717
ܠܢܝܚ	-3718
ܠܫܢܐ	-3719
ܡܓܪܬ	-3720
ܡܘܢܐ	-3721
ܡܘܫܛ	-3722
ܡܛܝܢ	-3723
ܡܝܩܪ	-3724
ܡܝܬܘ	-3725
ܡܠܘܢ	-3726
ܡܠܬܟ	-3727
ܡܫܝܓ	-3728
ܡܫܬܪ	-3729
ܡܬܟܪ	-3730
ܢܘܒܕ	-3731
ܢܘܬܗ	-3732
ܢܙܒܢ	-3733
ܢܤܒܪ	-3734
ܢܤܝܡ	-3735
ܢܩܝܢ	-3736
ܢܪܚܡ	-3737
ܢܫܬܐ	-3738
ܤܡܝܟ	-3739
ܥܕܬܗ	-3740
ܥܡܝܢ	-3741
ܥܡܠܐ	-3742
ܥܤܒܐ	-3743
ܦܐܝܬ	-3744
ܦܘܩܘ	-3745
ܦܢܘܤ	-3746
ܦܤܘܩ	-3747
ܨܦܬܐ	-3748
ܨܪܬܐ	-3749
ܩܘܗܝ	-3750
ܩܝܠܝ	-3751
ܩܠܘܤ	-3752
ܩܥܬܐ	-3753
ܪܓܝܓ	-3754
ܪܝܗܐ	-3755
ܪܝܚܐ	-3756
ܫܒܝܐ	-3757
ܫܒܩܗ	-3758
ܫܘܝܬ	-3759
ܫܡܫܬ	-3760
ܫܩܝܠ	-3761
ܫܪܪܗ	-3762
ܬܓܘܪ	-3763
ܬܝܗܝ	-3764
ܬܡܐܢ	-3765
ܐܝܬܝܘ	-3766
ܐܢܚܢܢ	-3767
ܐܤܬܟܠ	-3768
ܐܩܝܡܗ	-3769
ܐܫܬܐܠ	-3770
ܐܫܬܕܪ	-3771
ܐܬܕܒܪ	-3772
ܐܬܢܒܝ	-3773
ܐܬܦܢܝ	-3774
ܐܬܩܪܒ	-3775
ܒܘܟܪܐ	-3776
ܒܝܘܡܗ	-3777
ܒܡܘܬܐ	-3778
ܒܥܘܬܐ	-3779
ܒܥܢܢܐ	-3780
ܒܥܪܤܐ	-3781
ܒܦܓܪܐ	-3782
ܒܨܦܪܐ	-3783
ܒܩܒܪܐ	-3784
ܒܪܘܚܝ	-3785
ܓܠܝܘܬ	-3786
ܕܐܝܟܐ	-3787
ܕܐܠܦܐ	-3788
ܕܐܬܝܐ	-3789
ܕܒܚܕܐ	-3790
ܕܒܝܬܐ	-3791
ܕܒܟܝܢ	-3792
ܕܕܠܡܐ	-3793
ܕܘܢܘܢ	-3794
ܕܚܬܢܐ	-3795
ܕܛܠܝܢ	-3796
ܕܟܐܢܐ	-3797
ܕܠܘܬܢ	-3798
ܕܠܚܡܐ	-3799
ܕܡܟܪܙ	-3800
ܕܡܫܠܡ	-3801
ܕܢܕܘܢ	-3802
ܕܢܚܘܐ	-3803
ܕܢܥܒܪ	-3804
ܕܢܩܘܐ	-3805
ܕܢܩܛܠ	-3806
ܕܥܡܪܐ	-3807
ܕܦܓܪܗ	-3808
ܕܩܒܠܘ	-3809
ܕܪܟܫܐ	-3810
ܕܪܫܝܢ	-3811
ܕܬܐܬܐ	-3812
ܕܬܥܘܠ	-3813
ܗܝܡܢܬ	-3814
ܘܐܚܕܘ	-3815
ܘܐܡܬܝ	-3816
ܘܒܢܝܐ	-3817
ܘܕܒܚܐ	-3818
ܘܗܘܝܬ	-3819
ܘܗܟܘܬ	-3820
ܘܙܕܝܩ	-3821
ܘܝܗܒܘ	-3822
ܘܝܫܘܥ	-3823
ܘܟܐܦܐ	-3824
ܘܠܐܡܟ	-3825
ܘܠܟܘܢ	-3826
ܘܠܫܢܐ	-3827
ܘܡܤܒܪ	-3828
ܘܡܫܟܚ	-3829
ܘܢܐܬܐ	-3830
ܘܢܫܟܚ	-3831
ܘܤܒܥܘ	-3832
ܘܦܛܘܤ	-3833
ܘܦܪܘܩ	-3834
ܘܫܩܠܗ	-3835
ܙܟܘܬܐ	-3836
ܙܩܝܦܐ	-3837
ܚܘܪܬܐ	-3838
ܝܬܗܘܢ	-3839
ܝܬܪܘܢ	-3840
ܟܘܒܫܐ	-3841
ܟܘܬܝܢ	-3842
ܟܤܢܝܐ	-3843
ܠܐܚܘܟ	-3844
ܠܐܝܕܐ	-3845
ܠܒܘܫܐ	-3846
ܠܒܝܬܟ	-3847
ܠܓܒܝܐ	-3848
ܠܚܘܗܝ	-3849
ܠܝܗܘܢ	-3850
ܠܟܐܢܘ	-3851
ܠܟܬܒܐ	-3852
ܠܡܘܫܐ	-3853
ܠܢܦܫܝ	-3854
ܠܦܠܚܐ	-3855
ܠܩܪܒܐ	-3856
ܠܫܐܘܠ	-3857
ܡܘܬܒܐ	-3858
ܡܚܒܝܢ	-3859
ܡܛܝܒܐ	-3860
ܡܤܟܝܢ	-3861
ܡܦܩܝܢ	-3862
ܡܫܬܒܩ	-3863
ܢܙܕܕܩ	-3864
ܢܝܐܝܠ	-3865
ܢܝܩܝܢ	-3866
ܢܦܠܝܢ	-3867
ܢܦܫܬܐ	-3868
ܢܬܝܗܒ	-3869
ܤܒܪܬܝ	-3870
ܤܝܪܘܬ	-3871
ܤܡܝܟܐ	-3872
ܥܒܕܝܗ	-3873
ܥܕܥܕܐ	-3874
ܥܪܩܘܢ	-3875
ܩܛܝܪܐ	-3876
ܩܝܡܬܗ	-3877
ܩܠܝܕܐ	-3878
ܪܘܫܡܐ	-3879
ܪܚܝܩܐ	-3880
ܪܝܘܬܐ	-3881
ܪܥܘܬܐ	-3882
ܫܘܠܡܐ	-3883
ܫܝܗܘܢ	-3884
ܫܪܝܢܐ	-3885
ܬܘܒܘܢ	-3886
ܬܘܢܢܝ	-3887
ܬܘܬܒܐ	-3888
ܬܟܦܘܪ	-3889
ܬܩܛܘܠ	-3890
ܬܪܡܠܐ	-3891
ܐܘܫܥܢܐ	-3892
ܐܡܪܝܢܢ	-3893
ܐܫܬܡܥܘ	-3894
ܐܬܕܟܪܘ	-3895
ܒܐܤܟܡܐ	-3896
ܒܐܦܘܗܝ	-3897
ܒܚܟܡܬܐ	-3898
ܒܝܢܘܗܝ	-3899
ܒܝܫܐܝܬ	-3900
ܒܝܬܟܘܢ	-3901
ܒܢܝܟܘܢ	-3902
ܒܩܛܝܪܐ	-3903
ܒܪܝܗܘܢ	-3904
ܓܒܝܠܬܐ	-3905
ܕܐܙܕܩܦ	-3906
ܕܐܢܬܬܐ	-3907
ܕܐܩܝܡܗ	-3908
ܕܓܠܘܬܐ	-3909
ܕܕܒܝܚܐ	-3910
ܕܚܟܡܬܐ	-3911
ܕܝܕܥܬܐ	-3912
ܕܝܫܘܬܐ	-3913
ܕܟܠܟܘܢ	-3914
ܕܟܠܡܕܡ	-3915
ܕܟܬܝܒܐ	-3916
ܕܡܢܗܘܢ	-3917
ܕܢܫܩܘܠ	-3918
ܕܤܒܪܬܐ	-3919
ܕܦܬܟܪܐ	-3920
ܕܩܪܟܘܢ	-3921
ܕܪܘܓܙܐ	-3922
ܕܫܘܒܚܐ	-3923
ܘܐܚܘܗܝ	-3924
ܘܐܚܪܝܐ	-3925
ܘܐܩܝܡܘ	-3926
ܘܐܫܬܟܚ	-3927
ܘܐܬܕܟܪ	-3928
ܘܝܕܥܝܢ	-3929
ܘܝܗܘܕܐ	-3930
ܘܠܗܢܘܢ	-3931
ܘܡܤܟܢܐ	-3932
ܘܤܘܓܐܐ	-3933
ܘܤܝܡܝܢ	-3934
ܘܪܢܬܘܤ	-3935
ܘܫܠܝܚܐ	-3936
ܘܬܐܘܡܐ	-3937
ܘܬܚܙܘܢ	-3938
ܚܕܝܐܝܬ	-3939
ܚܘܪܝܬܐ	-3940
ܝܘܬܪܢܐ	-3941
ܟܐܢܘܬܗ	-3942
ܠܐܒܗܬܢ	-3943
ܠܐܘܪܚܐ	-3944
ܠܐܦܤܘܤ	-3945
ܠܟܠܟܘܢ	-3946
ܠܡܠܐܟܐ	-3947
ܡܛܠܗܢܐ	-3948
ܡܟܪܙܝܢ	-3949
ܡܠܝܗܘܢ	-3950
ܡܤܒܪܝܢ	-3951
ܡܤܟܝܢܢ	-3952
ܡܫܒܚܝܢ	-3953
ܡܫܡܠܝܐ	-3954
ܡܫܬܘܕܥ	-3955
ܡܫܬܘܬܐ	-3956
ܢܐܟܠܘܢ	-3957
ܢܤܒܬܘܢ	-3958
ܢܥܒܪܘܢ	-3959
ܢܩܒܠܘܢ	-3960
ܥܒܕܝܢܢ	-3961
ܦܐܪܘܗܝ	-3962
ܦܪܗܤܝܐ	-3963
ܪܕܘܦܝܐ	-3964
¦	-3965
▁	-3966
ܐ	-3967
ܘ	-3968
ܢ	-3969
ܝ	-3970
ܠ	-3971
ܕ	-3972
ܡ	-3973
ܗ	-3974
ܬ	-3975
ܪ	-3976
ܒ	-3977
ܟ	-3978
ܫ	-3979
ܥ	-3980
ܚ	-3981
ܩ	-3982
ܦ	-3983
ܤ	-3984
ܓ	-3985
ܛ	-3986
ܙ	-3987
ܨ	-3988
v	-3989
𐋇	-3990
1	-3991
)	-3992
4	-3993
5	-3994
9	-3995
:	-3996
