<pad>	0
</s>	0
<unk>	0
¦	-1.18317
▁¦	-1.62897
▁	-2.89217
𐋇	-3.27009
▁,	-3.37259
a	-3.76531
i	-4.21801
▁.	-4.34931
u	-4.82058
v	-5.22397
se	-5.27766
y	-5.39848
s	-5.41406
na	-5.47579
z	-5.64408
▁:	-5.64742
k	-5.68105
e	-5.70503
ho	-5.72291
o	-5.74261
m	-5.80823
ti	-6.02191
ne	-6.06274
ch	-6.08663
jest	-6.09174
hospodin	-6.11301
jeho	-6.13537
▁;	-6.13789
do	-6.2019
to	-6.24264
í	-6.25795
pak	-6.29377
že	-6.30144
ť	-6.33564
za	-6.33976
po	-6.37878
nebo	-6.39241
ě	-6.43307
syn	-6.44307
od	-6.51117
em	-6.5273
jsem	-6.53209
aby	-6.58901
by	-6.61595
▁?	-6.62702
é	-6.67165
řekl	-6.68248
ale	-6.7312
když	-6.74021
ové	-6.77362
bude	-6.7969
je	-6.80724
te	-6.83272
byl	-6.84003
tak	-6.87876
kterýž	-6.88413
lid	-6.91536
mi	-6.91694
jejich	-6.97371
své	-6.97389
kteříž	-6.97884
jako	-7.01271
před	-7.02264
mu	-7.07988
ž	-7.08883
li	-7.09079
tedy	-7.09094
ou	-7.12382
já	-7.13758
jsou	-7.1469
vy	-7.15017
š	-7.17411
mne	-7.18982
král	-7.20445
svého	-7.20885
toho	-7.23294
jí	-7.23875
ty	-7.27318
á	-7.30778
ce	-7.31367
ní	-7.32444
při	-7.33377
kteréž	-7.3579
proti	-7.36226
jsi	-7.36908
pro	-7.37124
ů	-7.37439
bůh	-7.39206
vých	-7.41159
až	-7.41204
země	-7.41639
jim	-7.4166
l	-7.41758
ten	-7.42511
nad	-7.42557
také	-7.43126
protož	-7.44299
měst	-7.44376
tvé	-7.45714
zemi	-7.45799
t	-7.47071
jemu	-7.48582
dom	-7.50168
což	-7.51027
tobě	-7.52906
budou	-7.55058
on	-7.56781
jej	-7.57041
synů	-7.57788
aj	-7.59055
mé	-7.59305
vám	-7.60901
byli	-7.61563
věc	-7.61645
-	-7.62283
tě	-7.67271
obě	-7.69311
ně	-7.69459
kdo	-7.70335
ého	-7.72466
ý	-7.72468
jmén	-7.73751
ani	-7.74008
svým	-7.76886
vás	-7.76984
té	-7.77714
má	-7.78313
ův	-7.79151
ve	-7.7976
boha	-7.83428
obět	-7.83841
bylo	-7.84251
en	-7.84518
ští	-7.84525
všeck	-7.84823
pán	-7.86725
mezi	-7.87357
mluvil	-7.87503
ji	-7.88005
míst	-7.88501
dal	-7.8868
praví	-7.89185
ním	-7.91022
jste	-7.91351
b	-7.91548
svém	-7.93751
den	-7.93971
všecky	-7.94356
svo	-7.94477
boží	-7.9455
dne	-7.95323
těch	-7.95581
ruk	-7.96562
co	-7.96576
můj	-7.96967
všickni	-7.9856
hospodinov	-7.98581
ech	-8.0068
ých	-8.0204
me	-8.02134
všech	-8.02269
david	-8.03212
dí	-8.03464
aniž	-8.03843
kteráž	-8.04152
řk	-8.04521
mně	-8.04794
tu	-8.05164
vod	-8.06338
jeden	-8.06793
ze	-8.06876
ích	-8.08301
kdož	-8.08576
všecko	-8.08827
jsme	-8.10216
skrz	-8.10635
vše	-8.10852
izraelský	-8.10889
ům	-8.11423
krále	-8.11924
jeruzalém	-8.12117
ta	-8.133
srdce	-8.13664
jisté	-8.13889
koli	-8.14101
potom	-8.14838
není	-8.14991
služebník	-8.15219
podl	-8.16707
byla	-8.19623
ježíš	-8.20074
slov	-8.2091
tam	-8.20977
(	-8.21354
učinil	-8.21621
však	-8.21978
jakž	-8.2295
tvůj	-8.23588
cest	-8.24916
ovi	-8.25027
roz	-8.2649
ku	-8.27035
izrael	-8.27219
nás	-8.27415
čas	-8.2777
budu	-8.29029
stalo	-8.29555
tebe	-8.29808
každý	-8.29961
abys	-8.30361
ke	-8.32095
více	-8.32365
kterouž	-8.33204
nyní	-8.33219
již	-8.33265
oči	-8.3329
pod	-8.33312
národ	-8.34277
otce	-8.34561
nich	-8.3472
naše	-8.35697
odpověděl	-8.36607
měl	-8.37838
ó	-8.38231
hlas	-8.3896
žen	-8.38965
něm	-8.39178
ma	-8.39865
život	-8.40079
vou	-8.40769
její	-8.40838
sti	-8.41322
budeš	-8.41732
r	-8.41732
jich	-8.41962
let	-8.42541
nám	-8.43017
něho	-8.43696
proto	-8.44106
ať	-8.44416
jakož	-8.45221
vaše	-8.45457
sedm	-8.45553
pokolení	-8.45647
tomu	-8.45923
cí	-8.46185
jestliže	-8.46244
bohu	-8.47013
aneb	-8.47512
toto	-8.48057
jenž	-8.48675
zákon	-8.49691
moc	-8.4985
ni	-8.50774
ještě	-8.5138
pře	-8.51634
zlé	-8.51653
abych	-8.52009
přišel	-8.52217
hřích	-8.52548
budete	-8.52771
člověk	-8.53059
muži	-8.53245
ek	-8.53582
takto	-8.53843
oni	-8.54057
né	-8.54278
íti	-8.54579
ách	-8.54667
neb	-8.54917
dům	-8.55117
vel	-8.55275
ci	-8.55939
nic	-8.56221
hor	-8.56556
bý	-8.56692
soud	-8.56905
h	-8.57044
tvář	-8.57341
slovo	-8.57937
němu	-8.58485
p	-8.58674
stran	-8.59935
vedl	-8.61156
tebou	-8.62702
poslal	-8.63042
knížat	-8.63346
ob	-8.6356
ný	-8.63696
hospodine	-8.63943
živ	-8.64051
úst	-8.64245
tom	-8.64331
iti	-8.64422
bratří	-8.64425
bez	-8.64831
vůj	-8.64957
mojžíš	-8.6496
duch	-8.65138
my	-8.65609
mnou	-8.65678
hlav	-8.65706
království	-8.65979
pravím	-8.66807
nebude	-8.67264
muž	-8.67365
vší	-8.68005
zdaliž	-8.68494
žádné	-8.68593
ře	-8.68914
prostřed	-8.69022
ova	-8.69509
tvá	-8.69637
bratr	-8.69682
řekli	-8.69992
než	-8.71738
veliké	-8.72139
n	-8.72192
nimi	-8.72687
šel	-8.72822
el	-8.73479
dcer	-8.73654
izraelské	-8.73826
tři	-8.74863
ruc	-8.74947
vaši	-8.75242
lo	-8.75534
každé	-8.76594
ra	-8.77622
otc	-8.78187
zase	-8.78369
an	-8.78409
la	-8.79036
viděl	-8.79508
sláv	-8.80288
sám	-8.80855
věky	-8.81869
člověka	-8.81948
muže	-8.82397
druhé	-8.8283
spravedlnost	-8.83125
dva	-8.832
kněz	-8.8322
noc	-8.83328
vojsk	-8.84286
tento	-8.84529
tím	-8.852
eň	-8.85256
dá	-8.85517
dn	-8.85543
přikázal	-8.86072
duše	-8.8643
davidov	-8.87507
egypt	-8.87663
c	-8.88554
ná	-8.88727
díl	-8.88788
sebe	-8.89787
mojžíšov	-8.90021
jednoho	-8.90532
mužů	-8.91313
d	-8.9132
no	-8.91357
buď	-8.91503
vůkol	-8.9184
otec	-8.92156
mých	-8.92512
poněvadž	-8.92786
ky	-8.93052
smlouv	-8.93103
nou	-8.93214
měsíc	-8.93512
nim	-8.93908
dědictví	-8.94062
přišli	-8.94616
činil	-8.95222
kdež	-8.95443
kněží	-8.95891
nechť	-8.96342
dvě	-8.96648
pročež	-8.96668
tisíc	-8.96993
vzal	-8.97337
zástupů	-8.97587
chom	-8.98093
pa	-8.98176
pět	-8.98576
nepřátel	-8.99181
ode	-8.99722
řkouc	-8.99779
rán	-8.99884
ste	-9.00026
lí	-9.00273
proč	-9.00785
stál	-9.01685
bych	-9.01865
bys	-9.02328
egyptské	-9.02985
še	-9.03191
těm	-9.03261
panovník	-9.03518
oltář	-9.03596
množství	-9.03834
le	-9.0455
noh	-9.04581
něj	-9.05091
ská	-9.0526
tí	-9.05346
anděl	-9.05807
jiné	-9.06772
mohl	-9.06823
milosrdenství	-9.07071
hněv	-9.07129
et	-9.07283
umřel	-9.07403
mou	-9.07599
nebe	-9.07748
hned	-9.08174
jedn	-9.08216
ň	-9.08414
dar	-9.08499
izraele	-9.085
padl	-9.08779
ým	-9.08839
č	-9.09016
vámi	-9.09183
dnů	-9.09418
j	-9.09553
opět	-9.10024
tr	-9.102
první	-9.10477
pane	-9.11071
svá	-9.11625
tiž	-9.11905
žádný	-9.11921
ha	-9.12732
ových	-9.12762
léta	-9.12824
jehož	-9.12909
meč	-9.1293
otců	-9.12958
měli	-9.13084
prv	-9.13141
oh	-9.13978
moře	-9.14273
dobré	-9.14642
zlat	-9.14735
pakli	-9.1493
bydlil	-9.1506
kteréhož	-9.15071
chleb	-9.15872
izraelským	-9.17128
zdali	-9.1723
stříbr	-9.17357
saul	-9.17387
il	-9.17871
jedno	-9.17876
bože	-9.17927
sto	-9.1797
hospodinovo	-9.18025
duš	-9.18113
matk	-9.18526
mnoho	-9.18693
bou	-9.18705
čeled	-9.19284
dám	-9.19802
brán	-9.19816
vá	-9.20063
nežli	-9.20067
šli	-9.20114
srdc	-9.20145
ruko	-9.20654
dnes	-9.20738
toliko	-9.20924
byly	-9.20932
uje	-9.21218
ovati	-9.21261
tvoji	-9.21607
pokoj	-9.21837
kristu	-9.22002
činí	-9.23259
všem	-9.23731
tělo	-9.23732
joz	-9.23815
nu	-9.23847
nebylo	-9.24045
ano	-9.24447
boh	-9.24791
jákob	-9.2504
svatý	-9.25423
bývá	-9.25623
ď	-9.25691
národů	-9.25817
ví	-9.25956
moudrost	-9.2637
obyvatel	-9.26626
ducha	-9.26731
této	-9.26793
spolu	-9.26814
služebníc	-9.26898
zplodil	-9.27047
krv	-9.27803
stánk	-9.28165
shromáždění	-9.28264
přijde	-9.28314
silný	-9.2835
nepravost	-9.28489
ské	-9.28499
liž	-9.2909
postavil	-9.29111
prchlivost	-9.29523
všechněm	-9.29606
ješto	-9.29984
jak	-9.30034
veliký	-9.30196
šest	-9.30398
svědectví	-9.30443
náš	-9.3058
mluvit	-9.31039
nádob	-9.31053
ro	-9.31702
přes	-9.31737
prosím	-9.31914
chrám	-9.32931
tato	-9.32979
pl	-9.33118
ují	-9.3314
jedl	-9.33242
set	-9.33511
kudž	-9.33615
ami	-9.33672
hoře	-9.34229
řeč	-9.34316
dobře	-9.34688
svaté	-9.34717
ení	-9.34881
tvým	-9.35169
obětoval	-9.35532
truhl	-9.35658
smrti	-9.35948
kterak	-9.36145
všeliké	-9.36259
žena	-9.36342
těla	-9.36458
kníže	-9.36516
příčin	-9.3713
ost	-9.37268
kraloval	-9.37623
▁),	-9.37623
ohně	-9.38314
tud	-9.38382
boj	-9.38726
šalomoun	-9.39432
navrátil	-9.39644
svatyn	-9.3967
aron	-9.39855
váš	-9.39978
počal	-9.40141
stane	-9.40961
rci	-9.4108
br	-9.41289
milost	-9.42265
jdi	-9.4279
jiný	-9.42894
mluví	-9.42895
vyšel	-9.42972
žid	-9.4303
řek	-9.43057
js	-9.43122
pravil	-9.43728
sta	-9.43762
mají	-9.43763
oznámil	-9.4395
udělal	-9.44042
lot	-9.44256
třetí	-9.44368
pole	-9.44414
lok	-9.44548
ježíše	-9.44762
f	-9.44996
nichž	-9.45079
přikázaní	-9.45358
vín	-9.45662
g	-9.45729
krev	-9.45899
ím	-9.45933
oval	-9.45935
obětova	-9.46101
naši	-9.46125
hovad	-9.4657
krajin	-9.46762
vz	-9.46872
ský	-9.46954
jordán	-9.46971
poušt	-9.47053
mám	-9.47088
meče	-9.47157
kr	-9.47939
manželk	-9.48097
zástup	-9.48192
mě	-9.48276
judské	-9.48553
vyvedl	-9.48641
levít	-9.48674
ám	-9.48953
jazyk	-9.49184
ustanovení	-9.4943
čtyři	-9.49737
us	-9.4982
amen	-9.50189
mým	-9.50793
dní	-9.50919
val	-9.5103
němž	-9.5113
mluv	-9.51187
skutk	-9.51449
ačkoli	-9.52058
chodil	-9.52211
přední	-9.52331
nej	-9.52366
řkoucí	-9.52985
iž	-9.53356
moj	-9.53503
psáno	-9.53588
položil	-9.53751
al	-9.54243
nebes	-9.54444
slunce	-9.54867
hrob	-9.54919
učiním	-9.55055
krist	-9.56038
slyšel	-9.5605
ny	-9.56058
služebníků	-9.56101
přivedl	-9.56183
nebudeš	-9.56426
přede	-9.56514
vždy	-9.57305
da	-9.57457
judský	-9.57521
tvém	-9.57969
dan	-9.58038
čí	-9.58122
ování	-9.58224
deset	-9.58491
ue	-9.58646
dříví	-9.59172
činit	-9.5939
nemohl	-9.59526
kamení	-9.59647
če	-9.59674
spasení	-9.59841
potok	-9.60456
námi	-9.60593
služb	-9.60679
abraham	-9.60793
pravé	-9.60854
tisíců	-9.60885
hejtman	-9.60997
ohavnost	-9.61011
zabil	-9.61093
spravedlivý	-9.61342
učiněn	-9.61684
starší	-9.61757
▁.)	-9.61768
pr	-9.62137
nebyl	-9.62367
vrch	-9.62706
údolí	-9.62896
učinili	-9.63085
ukázal	-9.63412
chlé	-9.63453
ovoce	-9.63537
večer	-9.63539
chodí	-9.63677
jozef	-9.63806
dali	-9.63808
zápaln	-9.64467
kteří	-9.64746
jistě	-9.6488
necha	-9.65083
pří	-9.65582
tuto	-9.65813
ému	-9.66068
vydal	-9.66101
▁)	-9.66831
lé	-9.67451
st	-9.6753
stád	-9.67532
roucho	-9.67625
všemu	-9.67812
cestou	-9.67824
ště	-9.68026
jde	-9.68256
tito	-9.68553
umře	-9.68807
uzřel	-9.68819
sami	-9.69081
roucha	-9.69081
mém	-9.69176
obrátil	-9.69266
očí	-9.69308
úmluv	-9.69502
vír	-9.69508
bral	-9.69538
pokrm	-9.69822
oltáře	-9.69958
řeči	-9.70011
nejvyšší	-9.7002
izraeli	-9.70179
nepravosti	-9.70371
budi	-9.70414
hu	-9.706
tež	-9.70671
petr	-9.70712
jákobov	-9.70888
všel	-9.71002
faraonov	-9.71033
vol	-9.71037
uvedl	-9.71155
příbytk	-9.71238
ej	-9.71422
éž	-9.71615
voz	-9.71676
odšel	-9.72521
dává	-9.72708
znamení	-9.72972
chvál	-9.73154
páně	-9.73325
dědičn	-9.73681
hlad	-9.73697
ja	-9.73747
efraim	-9.74042
nes	-9.74237
moři	-9.74396
stolic	-9.74443
jud	-9.74459
řekla	-9.74525
ří	-9.74734
ba	-9.74737
aronov	-9.748
čtyřidceti	-9.75114
rž	-9.75327
níž	-9.75332
pí	-9.75486
mnozí	-9.75839
sion	-9.76078
sloup	-9.76322
babylon	-9.76518
psal	-9.76886
tváří	-9.76943
mnohé	-9.77309
dej	-9.77395
pil	-9.77647
vůl	-9.7788
tyto	-9.78218
mrtvý	-9.78343
vyšl	-9.78368
tří	-9.78435
sloužil	-9.78504
prorok	-9.78579
ící	-9.78608
hle	-9.78853
stojí	-9.79118
věk	-9.7923
vaší	-9.79555
kost	-9.79637
činili	-9.79772
chtěl	-9.80164
budeme	-9.80737
bohů	-9.80918
výsost	-9.81065
rozkázal	-9.81084
jedna	-9.81124
dílo	-9.81183
stá	-9.8126
síl	-9.81368
těmi	-9.81751
východ	-9.81991
královské	-9.82032
izraelov	-9.82062
něhož	-9.82201
há	-9.82578
um	-9.8259
pomezí	-9.82609
ků	-9.82631
re	-9.82633
porodil	-9.82636
veliko	-9.82862
poznal	-9.82934
judov	-9.8323
modl	-9.83677
poli	-9.83883
ímě	-9.83901
kterýchž	-9.84177
bratřím	-9.84563
tého	-9.85224
božím	-9.85255
jděte	-9.8561
uši	-9.85646
velikým	-9.85745
ější	-9.85839
stě	-9.85844
radost	-9.85871
krát	-9.85872
vstav	-9.8592
ec	-9.85989
oleje	-9.861
jemuž	-9.8624
skál	-9.8639
saulov	-9.86618
sem	-9.86804
seděl	-9.8686
ovali	-9.86927
mnohý	-9.86969
svět	-9.87179
prostředk	-9.87361
hod	-9.87546
sestr	-9.87816
dveří	-9.87817
zemí	-9.88017
věčné	-9.8803
zápal	-9.8804
hl	-9.88042
všelik	-9.88115
tehdáž	-9.8821
třidcet	-9.8821
ot	-9.88297
ží	-9.88411
knih	-9.88469
silné	-9.88669
samuel	-9.88688
žalm	-9.88864
učedlníc	-9.89036
přísah	-9.89037
nez	-9.89339
utekl	-9.89422
pouš	-9.8962
světlo	-9.89762
dvadcet	-9.8987
hledal	-9.89932
osm	-9.90154
troub	-9.90687
buďte	-9.90783
pověděl	-9.90794
padesát	-9.90906
tolik	-9.91247
ři	-9.91253
pohan	-9.9126
lidí	-9.91305
viděli	-9.91371
nebudou	-9.91478
nikoli	-9.91676
nalezl	-9.91679
maje	-9.9189
ší	-9.92054
neměl	-9.92268
větší	-9.92405
pomst	-9.9247
máš	-9.92512
vzav	-9.92802
počt	-9.9285
galád	-9.93058
druhý	-9.9314
běd	-9.93238
kterémž	-9.93274
ustanovil	-9.93281
eš	-9.933
naplnil	-9.93636
ejte	-9.93774
oblak	-9.93878
spravedlivé	-9.941
bydliti	-9.94144
nebeské	-9.94402
ry	-9.9442
ými	-9.94746
stráž	-9.94773
zlato	-9.94778
shromáždil	-9.94808
nadto	-9.94831
iáš	-9.94891
bezbožný	-9.95125
ona	-9.95149
či	-9.95365
volk	-9.95404
mor	-9.9559
eli	-9.95659
div	-9.95784
vyvolil	-9.95906
studnic	-9.95907
ání	-9.95918
juda	-9.96032
udělá	-9.96048
dl	-9.96102
strach	-9.96164
ru	-9.96268
dni	-9.96471
joáb	-9.968
vidění	-9.9714
vati	-9.97311
sobot	-9.97382
čehož	-9.97656
pravic	-9.9777
prác	-9.97899
vstal	-9.97911
hospodinovým	-9.97988
ly	-9.98016
lu	-9.98312
ství	-9.98399
tehdy	-9.98609
nazval	-9.98617
kde	-9.98824
okol	-9.98942
nešlechetnost	-9.99526
vstoupil	-9.99745
de	-10.0027
tomto	-10.0031
pokoje	-10.005
proroka	-10.0054
nemá	-10.0066
může	-10.0109
tá	-10.0134
podobenství	-10.0139
dvou	-10.0145
prach	-10.0147
romě	-10.0169
vid	-10.0174
vidě	-10.0192
jiní	-10.0195
říká	-10.02
pís	-10.0212
králov	-10.0214
mas	-10.0215
kněze	-10.0218
cky	-10.0225
světa	-10.0229
lodí	-10.023
vedu	-10.0235
ovce	-10.0238
bál	-10.0276
nebudete	-10.0284
hn	-10.0312
slyší	-10.032
modlil	-10.0332
dvanácte	-10.0333
tisíce	-10.0346
di	-10.0371
ač	-10.0382
vytáhl	-10.0386
ad	-10.0388
bojoval	-10.0409
vezmi	-10.0415
filistin	-10.0422
mládenc	-10.0424
ven	-10.0435
slyše	-10.0438
cizí	-10.0452
tý	-10.0464
ezechiáš	-10.0464
požehnání	-10.0466
dcera	-10.0467
navrátí	-10.0481
táhl	-10.05
náramn	-10.0522
jezukrist	-10.0523
beránk	-10.0526
vezme	-10.0553
vzali	-10.0568
pít	-10.0572
slyš	-10.0587
slyšeli	-10.0604
kdyby	-10.0608
izraelském	-10.0612
čil	-10.0612
dáno	-10.0635
rá	-10.0644
takž	-10.0646
mar	-10.0648
dě	-10.0658
▁,)	-10.0685
hledá	-10.0686
modlitb	-10.0686
bet	-10.0699
los	-10.0712
umění	-10.0713
anob	-10.0731
hodin	-10.0737
šalomounov	-10.0757
oko	-10.0769
skutků	-10.0778
vešl	-10.0784
ber	-10.0788
poklad	-10.0801
uslyšel	-10.0803
něco	-10.0808
učiní	-10.0815
evangeli	-10.0819
kázal	-10.0829
přichází	-10.0829
slyšte	-10.0852
střel	-10.0858
íš	-10.086
beniamin	-10.0874
ostříha	-10.0899
člověčí	-10.0922
ezau	-10.0932
ar	-10.0951
slouži	-10.0961
jím	-10.0987
dobrého	-10.1005
povolal	-10.1017
houf	-10.1022
přišla	-10.1024
nalezen	-10.1025
rovn	-10.1083
levítů	-10.1102
samař	-10.1122
přijdou	-10.1137
ř	-10.1161
způsob	-10.118
zdi	-10.1188
rychle	-10.1232
ustavičně	-10.1234
čím	-10.1236
kon	-10.1253
blahoslaven	-10.1255
spravedliv	-10.1265
učedlníků	-10.1276
pomoc	-10.1292
bližní	-10.1321
jednom	-10.1326
nenávist	-10.1334
zabit	-10.1346
zůstane	-10.135
dvé	-10.1364
izák	-10.1373
poledn	-10.1402
ruka	-10.1407
kni	-10.1408
odpovídaj	-10.1412
ován	-10.1412
síla	-10.1458
er	-10.1485
stí	-10.1494
edle	-10.1498
jen	-10.1505
děti	-10.1507
dvanáct	-10.1514
poškvrn	-10.1541
bohy	-10.1553
porazil	-10.1553
víte	-10.1558
svat	-10.1559
miluje	-10.1563
dobrý	-10.1569
býval	-10.1571
vidí	-10.1581
pokoji	-10.1594
některé	-10.1595
vý	-10.1623
vím	-10.1643
dřev	-10.1653
[	-10.1657
přisáhl	-10.1657
polovic	-10.1657
nečistý	-10.167
osti	-10.1671
znám	-10.1684
nechtěl	-10.1691
bráně	-10.17
strom	-10.1716
pe	-10.1739
úrod	-10.1765
lásk	-10.1766
moudrý	-10.1767
marnost	-10.1768
mojžíše	-10.1774
klá	-10.1787
list	-10.1805
plakal	-10.1811
bydlí	-10.1824
snad	-10.1835
ran	-10.1836
nové	-10.1848
peníze	-10.1881
věr	-10.1891
lokt	-10.19
lů	-10.1906
dobytk	-10.1954
trůn	-10.199
konce	-10.2022
miloval	-10.2035
obraz	-10.2067
živi	-10.2069
ostříhal	-10.2094
cherubín	-10.2104
děvk	-10.2105
prut	-10.2109
smrt	-10.2119
dokonal	-10.2123
str	-10.2138
mr	-10.2142
fa	-10.2165
přijí	-10.217
jozefov	-10.2171
sen	-10.2178
sam	-10.2182
máme	-10.2182
filistinský	-10.2196
íce	-10.2216
ssoužení	-10.2241
dítě	-10.2248
rod	-10.2258
radě	-10.2263
lev	-10.2265
rou	-10.2277
přinesl	-10.2286
stín	-10.2288
tuk	-10.2293
děla	-10.2294
pošli	-10.2306
farao	-10.2324
ámen	-10.2335
sstoupil	-10.2335
přistoupil	-10.2336
trápení	-10.2346
vyjde	-10.2349
vají	-10.2355
abrahamov	-10.2373
živé	-10.2388
mající	-10.2437
nabuchodonozor	-10.2453
naplněn	-10.2453
bývají	-10.2453
ozdob	-10.2454
odpověděv	-10.2458
počet	-10.2462
dělá	-10.2471
křídl	-10.248
ným	-10.2481
nemoc	-10.2484
králů	-10.2493
rt	-10.251
půlno	-10.2518
oblíčeje	-10.2535
olej	-10.254
křik	-10.2544
máte	-10.2548
bu	-10.2559
bojí	-10.2559
manassesov	-10.2565
odpočinutí	-10.2572
pravdě	-10.2584
uvěřil	-10.2605
šla	-10.263
kananejské	-10.2631
sucho	-10.2647
zná	-10.2653
pouště	-10.2655
hleda	-10.2663
vola	-10.267
semene	-10.2671
zhřešil	-10.2675
zem	-10.2679
proroků	-10.268
bil	-10.2687
tvrd	-10.2691
kralovati	-10.2692
naději	-10.2692
zvuk	-10.2693
polní	-10.2695
opustil	-10.2704
skou	-10.2705
uj	-10.2722
tel	-10.2736
nepo	-10.2774
eliáš	-10.2789
jdou	-10.281
ostříhá	-10.2814
přestoupení	-10.2814
půlnoční	-10.2814
ramen	-10.2824
chází	-10.2844
poslední	-10.2854
žádost	-10.2911
mim	-10.2913
východní	-10.2932
vyhlazen	-10.2938
vysvobodil	-10.2938
nenávidí	-10.2938
dáš	-10.2951
padne	-10.2987
slib	-10.2994
prvorozené	-10.2994
sil	-10.2999
odešl	-10.3012
soudil	-10.3012
věří	-10.3032
proroc	-10.3051
jan	-10.3062
obrácen	-10.3063
hledají	-10.3068
kozl	-10.3077
vin	-10.3123
dával	-10.3126
pouští	-10.3146
vycházel	-10.3146
babylonské	-10.3178
judstv	-10.3189
hůr	-10.3189
séla	-10.3189
báz	-10.3196
milosti	-10.3199
postav	-10.321
ujte	-10.322
nečisté	-10.3233
nemůže	-10.324
polední	-10.3258
mzd	-10.3278
vně	-10.3291
absolon	-10.3298
pust	-10.3301
přebývá	-10.3323
moáb	-10.3327
učinit	-10.3339
přitáhl	-10.3353
patří	-10.3362
ítr	-10.3368
dobyt	-10.3385
bíd	-10.3392
hebron	-10.3447
béře	-10.3448
kou	-10.3456
volal	-10.3469
kristov	-10.3469
končin	-10.347
podobné	-10.3508
čisté	-10.3518
přišed	-10.3529
vlas	-10.3533
cizím	-10.3547
itsk	-10.356
půjde	-10.3568
kterýmž	-10.3579
posvěcen	-10.358
věděl	-10.3585
vystavěl	-10.3585
pilně	-10.359
čelede	-10.359
bí	-10.3611
kamen	-10.3625
jichž	-10.3627
jimž	-10.3627
hr	-10.3644
pozdvihl	-10.3665
vstaň	-10.3675
obrátí	-10.3678
vysvobodí	-10.3712
otevřel	-10.3714
slavnost	-10.3715
požehnaný	-10.372
prav	-10.3734
les	-10.3739
loupež	-10.3741
vzdělal	-10.3759
nesou	-10.3762
léví	-10.3772
čeledí	-10.3776
podstavk	-10.3776
vali	-10.3795
spole	-10.383
zde	-10.3835
lepší	-10.3846
ratolest	-10.3847
očištěn	-10.3848
přikázání	-10.3849
odvrátil	-10.3853
kání	-10.3862
roh	-10.3876
patř	-10.3904
nohá	-10.3906
jeroboám	-10.392
rad	-10.3922
zůstal	-10.3924
nevy	-10.3928
větr	-10.3985
šedesát	-10.3985
čiňte	-10.4045
těle	-10.4084
nádobí	-10.4091
skopce	-10.4092
chudé	-10.4097
víš	-10.4102
chodi	-10.4104
mat	-10.4118
pohostin	-10.4123
ptactv	-10.4123
nebyli	-10.4145
práv	-10.4169
nejsou	-10.417
kněžím	-10.4173
tou	-10.4186
přestal	-10.4189
meze	-10.419
příbyt	-10.419
pustin	-10.4198
činíš	-10.4209
kamž	-10.4211
uzří	-10.4222
každému	-10.4226
stan	-10.423
zahanben	-10.423
had	-10.4243
myšlení	-10.4264
veselí	-10.4266
pann	-10.4267
mír	-10.4267
učení	-10.4279
připravil	-10.429
všeliký	-10.4291
svatost	-10.4292
ulic	-10.4298
ge	-10.43
pozůstal	-10.4343
osob	-10.4346
které	-10.435
proroky	-10.435
druh	-10.435
eliká	-10.4391
bran	-10.4409
pu	-10.4414
velice	-10.4415
zed	-10.4416
známost	-10.4423
škol	-10.4424
ptá	-10.443
jdu	-10.4439
farize	-10.4454
zá	-10.4456
říkají	-10.4475
zlaté	-10.4483
plod	-10.4485
ovým	-10.4503
bo	-10.4529
ono	-10.4552
svrch	-10.4563
kořen	-10.4572
jaká	-10.4573
přišlo	-10.4577
pobil	-10.4582
svatým	-10.4592
oblíčej	-10.4596
jejím	-10.4609
samé	-10.4629
předním	-10.4649
pás	-10.4665
ovu	-10.4668
učiň	-10.4675
západ	-10.4691
shromáždí	-10.4699
úzkost	-10.4699
oděn	-10.4699
díš	-10.47
vdov	-10.4703
neboj	-10.4758
níci	-10.4758
ježíšov	-10.4761
daniel	-10.4762
jozafat	-10.4775
každ	-10.4779
vypravoval	-10.4784
věčný	-10.4791
zle	-10.4794
děl	-10.4815
čtyř	-10.4831
jaký	-10.4837
udatn	-10.4839
zlý	-10.4847
hvězd	-10.4848
bethel	-10.4848
ú	-10.4854
slíbil	-10.4857
rodin	-10.4868
ros	-10.4873
mrtvé	-10.4885
nadělal	-10.489
mysli	-10.4908
nesl	-10.4917
učedlník	-10.4932
rozum	-10.4955
učil	-10.4959
íně	-10.4977
nejprv	-10.5003
šimon	-10.5019
naděje	-10.5034
musí	-10.5035
světl	-10.5068
nebudu	-10.5069
povstal	-10.507
bal	-10.507
vašim	-10.5077
jitra	-10.5091
čist	-10.5107
jonata	-10.5122
kam	-10.5124
lidi	-10.5124
písm	-10.5125
jaké	-10.5151
zůstává	-10.5153
počátk	-10.5153
maličko	-10.5154
filistinské	-10.5155
složil	-10.5156
víře	-10.5159
poškvrnil	-10.5161
věrný	-10.518
des	-10.5182
klaněl	-10.5182
sečten	-10.5184
du	-10.5187
propustil	-10.5205
hnu	-10.5231
káz	-10.5238
kem	-10.5246
dělal	-10.5252
komu	-10.5261
vinic	-10.5282
dnešní	-10.531
moábské	-10.5311
přivedu	-10.5327
žádal	-10.5344
smrtí	-10.5353
předměstí	-10.5358
jediné	-10.5369
dalek	-10.537
vidouc	-10.5381
takové	-10.5406
právě	-10.5409
ryb	-10.5428
hotov	-10.5429
zboží	-10.5431
hrozn	-10.5432
stol	-10.5433
jeremiášov	-10.5442
ostate	-10.5444
char	-10.5451
gaba	-10.5457
požehnal	-10.5468
roční	-10.5468
abner	-10.5468
pravd	-10.5469
otázal	-10.5474
blázn	-10.5475
vážil	-10.5478
babylonský	-10.5479
pojal	-10.5482
pochoval	-10.5487
podobn	-10.5497
beniaminov	-10.5509
svědk	-10.5513
hříchů	-10.5515
egyptský	-10.5526
pohanů	-10.5529
nost	-10.5541
kdy	-10.5551
dejte	-10.5566
pln	-10.5568
hanb	-10.5586
zbit	-10.5593
jiným	-10.5606
áš	-10.5614
ležel	-10.5621
pohanění	-10.563
pověst	-10.563
fík	-10.5632
stezk	-10.5634
pokojné	-10.5637
židů	-10.5654
stře	-10.5678
ající	-10.5694
ovy	-10.5696
posly	-10.5715
rách	-10.5721
činím	-10.573
jeremiáš	-10.5766
klaně	-10.5769
vůn	-10.5776
bohatství	-10.5794
rozhněval	-10.5794
blízko	-10.5794
oděv	-10.5802
volů	-10.5803
honil	-10.5803
kopí	-10.5814
saule	-10.5818
pastýř	-10.5833
vinice	-10.5833
apoštol	-10.5839
učí	-10.5862
án	-10.5866
všelijak	-10.5877
roze	-10.5881
obil	-10.5918
eleazar	-10.5922
dr	-10.5927
cím	-10.5927
vé	-10.5952
pamět	-10.5958
plat	-10.5959
peněz	-10.596
dítk	-10.5962
bázan	-10.5963
kol	-10.5965
zlost	-10.5965
chceš	-10.5968
padnou	-10.5971
jel	-10.5989
dále	-10.599
čině	-10.5992
vztáhl	-10.5995
pořád	-10.5996
job	-10.5997
oba	-10.5998
zbil	-10.6014
čin	-10.6021
kus	-10.6031
měla	-10.6045
zim	-10.6046
pahrbk	-10.6053
hel	-10.6069
někd	-10.6083
:	-10.6083
vnitř	-10.6089
stavěl	-10.6125
lučiště	-10.613
základ	-10.613
konec	-10.6131
vložil	-10.6131
dvakrát	-10.6133
sedmdesáte	-10.6137
nečistot	-10.6138
bedr	-10.6146
zd	-10.6149
potřeb	-10.6158
skopc	-10.6185
zaje	-10.6185
semen	-10.6191
ující	-10.6217
pravdu	-10.6219
nemají	-10.6222
rouch	-10.6231
vztáhn	-10.6231
přicházel	-10.624
zlatý	-10.625
želez	-10.626
rozumí	-10.6271
běh	-10.6272
kůž	-10.6286
příchozí	-10.6298
malomoc	-10.6301
rok	-10.6301
syrské	-10.6302
nasycen	-10.6302
všemohoucí	-10.6302
jistot	-10.6303
nikdy	-10.6304
spal	-10.632
drží	-10.6328
vyšed	-10.6339
prosil	-10.6357
věz	-10.6359
málo	-10.6369
pěti	-10.6381
čeho	-10.6382
mluvím	-10.6384
uješ	-10.6385
soudí	-10.6389
báli	-10.6398
naší	-10.6399
ohniv	-10.6404
tekl	-10.6408
našim	-10.6423
bezbožní	-10.6459
který	-10.6464
jerich	-10.6478
odpuštěn	-10.6478
posvětil	-10.6478
širokost	-10.6478
hojnost	-10.648
ostatk	-10.6485
jeruzalémské	-10.6489
posl	-10.6499
přijal	-10.6499
suché	-10.6509
outi	-10.6527
dsk	-10.6534
ským	-10.6539
bát	-10.6543
vesel	-10.6564
noé	-10.6566
tře	-10.6567
svatém	-10.6568
dán	-10.6571
chce	-10.6582
postaví	-10.659
vš	-10.6597
díla	-10.661
ženě	-10.663
víra	-10.6656
izmael	-10.6656
skryl	-10.6656
zpuštěn	-10.6656
hůl	-10.6656
uložil	-10.6657
kořist	-10.6657
obličejem	-10.6657
syr	-10.666
joas	-10.6669
leč	-10.6673
bezbožné	-10.668
koho	-10.6687
bit	-10.6694
zjeven	-10.6762
posloucha	-10.6763
nesli	-10.6796
výše	-10.6826
dy	-10.6838
galile	-10.6838
moudré	-10.6838
očistí	-10.6845
dáva	-10.6858
zahrad	-10.6858
stán	-10.6861
jdeš	-10.6862
tráv	-10.6865
bar	-10.6884
zvěř	-10.6921
všelijaké	-10.6934
přijm	-10.6944
rovin	-10.6972
stavě	-10.6974
aman	-10.6976
hrad	-10.6981
jejího	-10.6982
jez	-10.6994
vinu	-10.6995
stanů	-10.6998
shromažď	-10.7
udy	-10.7011
veselil	-10.7013
temnost	-10.7023
břeh	-10.7023
provaz	-10.7024
vrz	-10.7026
sichem	-10.703
líbí	-10.7031
vytrhl	-10.7039
mouk	-10.7056
prvorozený	-10.7057
skryt	-10.7059
chudý	-10.7061
ele	-10.7066
enství	-10.7076
navrať	-10.7082
nepřítel	-10.7086
pec	-10.7111
prorokoval	-10.7112
nější	-10.7123
síňc	-10.7128
znáš	-10.7131
poslav	-10.7133
jte	-10.714
sín	-10.7165
říkajíc	-10.7176
sp	-10.7189
děje	-10.7204
such	-10.7209
betlém	-10.7212
rozumnost	-10.7212
lépe	-10.7213
íci	-10.7215
mořské	-10.7228
kmen	-10.7236
gád	-10.7241
zázrak	-10.7243
vezm	-10.7258
rady	-10.7268
stu	-10.7273
odkudž	-10.7278
takový	-10.7288
předce	-10.7293
boje	-10.7296
bitv	-10.7299
podobný	-10.7307
slove	-10.7316
mnohým	-10.7327
přijímá	-10.7336
jed	-10.7347
druhém	-10.7348
ps	-10.7363
dél	-10.7381
nalezli	-10.7384
jejichž	-10.74
domů	-10.7403
vysoké	-10.7404
šarlat	-10.7404
žoldnéř	-10.7404
jmen	-10.7405
líbilo	-10.7405
hubí	-10.7406
milý	-10.7407
pomazal	-10.7407
libán	-10.741
utíkal	-10.7437
řekne	-10.7439
zšíří	-10.7441
berou	-10.7445
lež	-10.745
posadil	-10.7459
žaláře	-10.746
pá	-10.7461
osla	-10.7469
obyvatelů	-10.7487
manželka	-10.7495
bílé	-10.7502
mělo	-10.7504
neviděl	-10.7507
rot	-10.7517
med	-10.7549
spasen	-10.7572
zlořečen	-10.7575
sedl	-10.7579
jž	-10.7581
vyvýšen	-10.7595
déšť	-10.76
přikazuji	-10.76
tovaryš	-10.76
pyšn	-10.76
zkažen	-10.76
ester	-10.7601
fi	-10.7604
hromad	-10.7604
pozoruj	-10.761
vůdc	-10.7615
zej	-10.7618
vyuč	-10.7619
zavrhl	-10.7625
izaiáš	-10.7634
radil	-10.7671
prorokuj	-10.7689
obrátím	-10.7695
sedmi	-10.771
obou	-10.7715
ga	-10.7715
patrn	-10.7718
každém	-10.7741
ms	-10.775
hledí	-10.7757
uzřev	-10.7784
nejsem	-10.779
prst	-10.7795
osídl	-10.78
stříc	-10.7801
otcovský	-10.7801
mladost	-10.7807
jezdc	-10.7808
žádá	-10.7812
dosti	-10.7812
trub	-10.7815
rytin	-10.7818
assyrský	-10.7822
obrace	-10.7825
dávali	-10.7837
abimelech	-10.7848
mysl	-10.7856
přijali	-10.786
jeruzalémský	-10.7863
miluj	-10.7863
ček	-10.7869
dána	-10.7886
zda	-10.7896
neš	-10.7929
nepřítele	-10.7939
hledej	-10.7952
sedí	-10.7963
pustím	-10.7964
pas	-10.7977
zpíva	-10.7978
vozů	-10.798
zahynul	-10.7984
jezreel	-10.8004
zaslíbení	-10.8004
čtrnáct	-10.8004
pavéz	-10.8004
rozkoš	-10.8006
příjemn	-10.8006
stů	-10.8015
zmordoval	-10.8021
vyhnal	-10.803
manasses	-10.8031
stříbrný	-10.8049
trní	-10.8052
královský	-10.8052
vzavš	-10.8066
assyrské	-10.8075
stup	-10.808
pravo	-10.8082
přišedš	-10.8085
půl	-10.81
pál	-10.8111
slouží	-10.8116
zub	-10.8123
achab	-10.8147
uší	-10.8176
přítel	-10.818
tský	-10.8197
zabije	-10.8198
čtvrté	-10.8206
volali	-10.8208
cedr	-10.821
ammon	-10.8212
prvotin	-10.8213
zítra	-10.8214
způsobil	-10.8218
narodil	-10.8229
divil	-10.8231
udatný	-10.8238
zjevn	-10.8239
popel	-10.8243
cesta	-10.8262
běhl	-10.8301
římě	-10.8323
mrtv	-10.8329
korun	-10.8332
vizte	-10.8332
rám	-10.8346
joiad	-10.8355
pravda	-10.8374
stanu	-10.8399
dokud	-10.841
kal	-10.841
plésa	-10.8425
nazván	-10.8426
dobrovoln	-10.8426
páchal	-10.8426
hrůz	-10.8426
pohlaví	-10.8426
kahat	-10.8426
vězení	-10.8427
dím	-10.8438
podobně	-10.8443
zvědí	-10.8445
cel	-10.8448
daleko	-10.8448
lás	-10.8451
navráti	-10.8452
pustí	-10.8456
lidské	-10.8473
stal	-10.8473
celé	-10.8475
volá	-10.8491
vzat	-10.8501
stala	-10.8502
nebyla	-10.8504
přijd	-10.8507
vchází	-10.8518
.	-10.852
nepři	-10.8529
odjal	-10.8584
zdá	-10.8594
zavolal	-10.8605
elize	-10.8616
bláznovství	-10.8643
usnul	-10.8643
půjdu	-10.8643
ostrov	-10.8643
mnohem	-10.8643
potrav	-10.8643
vlastní	-10.8644
pekl	-10.8645
metal	-10.8645
asser	-10.8645
pochován	-10.8649
vylil	-10.8654
moábský	-10.8657
odpor	-10.8658
zahyne	-10.8658
jímž	-10.8662
masf	-10.868
nevěděl	-10.8682
obrátiv	-10.8689
soudů	-10.8698
uvrhl	-10.8705
pilát	-10.8705
poslali	-10.8712
rubenov	-10.8734
zemřel	-10.8738
leže	-10.874
smilství	-10.874
plné	-10.8742
éh	-10.8748
manžel	-10.8753
achi	-10.8757
táhne	-10.8766
ruben	-10.8773
jejích	-10.8778
drže	-10.8784
pád	-10.8788
raduj	-10.879
něž	-10.882
vstan	-10.8829
žal	-10.883
radu	-10.8841
vrat	-10.8842
věd	-10.8843
šlo	-10.8861
opuštěn	-10.8865
1	-10.8865
mrákot	-10.8865
přisluhování	-10.8865
dotkl	-10.8865
vyhladil	-10.8865
jeskyn	-10.8865
amorejské	-10.8865
mladší	-10.8865
roku	-10.8866
způsobím	-10.8867
šťastně	-10.8869
ráchel	-10.8872
obyčej	-10.8872
ostříhají	-10.8881
ničeho	-10.889
vinný	-10.889
pých	-10.8897
koš	-10.8899
hledění	-10.89
nách	-10.8902
vychází	-10.8905
zachoval	-10.892
knížete	-10.8922
poďte	-10.893
ukáže	-10.8942
měř	-10.899
odšed	-10.9003
abé	-10.9028
chtěj	-10.9029
spí	-10.9031
uslyší	-10.9031
myslí	-10.9033
šelm	-10.9034
připrav	-10.9039
nedal	-10.9043
měj	-10.9055
faraon	-10.9061
žádostiv	-10.9061
hřeš	-10.9065
centnéř	-10.9092
hedbáv	-10.9092
zbroj	-10.9092
poručil	-10.9093
jonat	-10.9095
maria	-10.9101
mužské	-10.9101
musil	-10.9108
rcete	-10.9109
přiblížil	-10.9118
jiná	-10.9121
pit	-10.9121
ujete	-10.9125
vědě	-10.9138
drahé	-10.9139
beránků	-10.9143
vejde	-10.9145
zač	-10.9151
milé	-10.9163
víme	-10.9167
obilí	-10.9167
svícen	-10.9169
učini	-10.9187
tče	-10.9202
choval	-10.9203
zůsta	-10.9207
ohni	-10.9215
mokr	-10.9228
ostříhej	-10.9251
bán	-10.9257
potup	-10.9264
sar	-10.9267
slavi	-10.9271
pát	-10.9275
starším	-10.9276
ucha	-10.9286
slou	-10.9289
prosili	-10.9291
veseli	-10.9301
vyslyšel	-10.9309
ram	-10.9311
váh	-10.9317
zplozen	-10.9325
poražen	-10.9325
vezměte	-10.9325
kalich	-10.9325
poslechn	-10.9326
nátan	-10.9326
propast	-10.9326
pokorn	-10.9328
mardoche	-10.9328
řeknou	-10.9331
lidský	-10.9336
dlouhost	-10.9336
všelikém	-10.9343
stěn	-10.9346
nevěst	-10.9354
bližním	-10.9355
niž	-10.9357
přebýval	-10.9376
rek	-10.9397
achabov	-10.9401
myslil	-10.9402
oznámí	-10.9404
chat	-10.9418
abram	-10.9426
jat	-10.943
satan	-10.9438
dcero	-10.9451
úhl	-10.9455
úd	-10.9455
go	-10.9466
malé	-10.9469
dadí	-10.9475
majíc	-10.9487
mot	-10.9491
bolest	-10.9492
ovšem	-10.9506
roztrh	-10.9511
položí	-10.9512
káže	-10.9514
slituj	-10.9522
vstup	-10.9525
čistý	-10.9545
azi	-10.9551
statk	-10.9551
vedli	-10.9554
sodom	-10.9555
jal	-10.956
třidcíti	-10.9563
harf	-10.9563
uzdraven	-10.9563
nejmenší	-10.9563
zlořečil	-10.9564
mlék	-10.9564
starý	-10.9566
achas	-10.9567
vezmou	-10.9574
seir	-10.9579
řkuc	-10.9582
jimiž	-10.9593
zlořečení	-10.9602
smiluj	-10.9607
ěte	-10.961
roztrhl	-10.9615
čemž	-10.9639
nebojte	-10.9662
volej	-10.9672
nese	-10.9675
ucho	-10.9681
efraimov	-10.9682
sešli	-10.9701
zachariáš	-10.9714
psán	-10.973
damašk	-10.973
mocný	-10.9743
vů	-10.9782
čel	-10.9792
lában	-10.9798
odkud	-10.9798
izai	-10.9798
ben	-10.9804
kralování	-10.9807
koflík	-10.9807
nátisk	-10.9807
vyplénil	-10.9807
vysoký	-10.9807
galgal	-10.9807
líbost	-10.9807
kadidlnic	-10.9809
rozdělil	-10.981
bezbožnost	-10.981
kohož	-10.9822
sedící	-10.9827
nadarmo	-10.9827
poď	-10.9828
viz	-10.9836
rim	-10.9838
potěšení	-10.984
obdržel	-10.9843
spálil	-10.9844
světě	-10.9856
bezbožník	-10.9865
desátk	-10.9874
pobral	-10.9882
běln	-10.9882
vstavš	-10.992
balám	-10.9921
rozkazu	-10.9928
přijdu	-10.9936
milova	-10.9948
zvěděl	-10.995
sádoch	-10.9961
všed	-10.9965
vcháze	-10.9968
žť	-10.9969
judským	-10.997
ony	-10.9974
kona	-11.0007
mistř	-11.0013
hubil	-11.0015
dávám	-11.0026
říkal	-11.004
působí	-11.0047
tázal	-11.0049
3	-11.0057
merari	-11.0057
památk	-11.0057
pominul	-11.0057
přikryl	-11.0057
rozptýlen	-11.0057
modré	-11.0057
osmdesát	-11.0057
pětmecítm	-11.0057
kup	-11.0058
amaziáš	-11.0058
bláz	-11.0061
písař	-11.0065
bezpečně	-11.007
silní	-11.0071
řečí	-11.0074
dají	-11.0079
zkazil	-11.0083
vidím	-11.0085
rozdělen	-11.0101
achiáš	-11.0101
jímal	-11.0118
vede	-11.0137
čte	-11.014
sluší	-11.0144
voj	-11.0154
sadí	-11.0159
aim	-11.0159
jdouc	-11.0175
oliv	-11.0177
vývod	-11.018
vytrhn	-11.0227
výborné	-11.0228
soudi	-11.0239
padesáti	-11.0254
pojď	-11.0259
dál	-11.026
slep	-11.0266
panova	-11.0267
pověz	-11.0269
nechal	-11.0286
bolesti	-11.0287
uposlechl	-11.029
dejž	-11.0309
ranil	-11.031
dopustil	-11.0312
kvílení	-11.0313
protivník	-11.0313
opravoval	-11.0313
úřad	-11.0314
vypléní	-11.0314
setník	-11.0314
potřín	-11.0315
přivodí	-11.0316
poškvrněn	-11.0319
pozdvižen	-11.0319
postaven	-11.0323
silo	-11.0323
nástroj	-11.0326
kolen	-11.0326
západní	-11.0327
půjdeš	-11.0329
věřící	-11.0331
neposlouchal	-11.0332
vši	-11.0339
koz	-11.0364
pronárod	-11.037
jakou	-11.0373
milují	-11.0378
odstup	-11.0383
vodil	-11.0389
tar	-11.0392
povede	-11.0399
povol	-11.043
hrazen	-11.0445
následuj	-11.0456
páli	-11.0475
lože	-11.0479
vydá	-11.0479
rukam	-11.0492
běl	-11.0505
vrátil	-11.0518
smut	-11.0535
nevěstk	-11.0544
pusť	-11.0555
kázán	-11.0558
vcházel	-11.0561
dlouho	-11.0564
emat	-11.0568
kor	-11.0569
cti	-11.057
čet	-11.0573
ezebon	-11.0576
patnáct	-11.0576
plavil	-11.0576
rozmnoží	-11.0576
pomazán	-11.0577
vražedlník	-11.0577
moudř	-11.0577
oznámen	-11.0577
okras	-11.0577
kterémuž	-11.0583
kadidl	-11.0588
sina	-11.0592
nenalezl	-11.0593
ner	-11.0596
gabaon	-11.0597
velbloud	-11.0605
pohledí	-11.0605
vypravuj	-11.0606
hřeší	-11.0607
potkal	-11.0612
zavřel	-11.0619
filistinským	-11.0632
síle	-11.0633
pohrdá	-11.0633
tele	-11.0634
znáte	-11.0642
budoucí	-11.0648
slyšán	-11.0649
koní	-11.0652
svobod	-11.0655
zajaté	-11.0658
červ	-11.0668
jda	-11.0668
volám	-11.0668
zhřešili	-11.067
sobotní	-11.0671
pozná	-11.0675
přinese	-11.0682
vydám	-11.0684
díle	-11.0695
rostl	-11.0695
ženin	-11.0696
filip	-11.0697
pravý	-11.0698
sloul	-11.0702
efi	-11.0719
poč	-11.0721
elí	-11.0723
napsal	-11.0732
izákov	-11.0748
syrský	-11.0755
čten	-11.0763
staven	-11.0773
padn	-11.078
dělají	-11.0788
koni	-11.0792
řad	-11.0798
druhým	-11.0817
jina	-11.0824
hyne	-11.0829
řád	-11.083
dvadcíti	-11.0844
stavil	-11.0847
silnější	-11.0847
devět	-11.0847
rozmnožil	-11.0847
naplň	-11.0847
sirotk	-11.0847
pečet	-11.0847
palm	-11.0848
oslavova	-11.0852
ovcí	-11.0852
zavázal	-11.0855
zamordoval	-11.0859
pevnost	-11.086
městečk	-11.086
přijel	-11.0868
sochor	-11.087
správce	-11.0878
mladé	-11.0885
házel	-11.0892
sílo	-11.0895
leží	-11.0904
měd	-11.0908
říka	-11.0923
krá	-11.0927
nepoznal	-11.093
pokojný	-11.0935
lsti	-11.0942
šíj	-11.0947
ráma	-11.095
modlí	-11.0954
plný	-11.0964
roboám	-11.0965
nečist	-11.0973
přivede	-11.0981
tma	-11.0985
bers	-11.0988
pustil	-11.099
zpurn	-11.0993
hai	-11.0994
rodí	-11.0995
palác	-11.0997
blázni	-11.0997
navštíví	-11.0998
ďábl	-11.1009
ložení	-11.1015
pije	-11.1018
smí	-11.1022
krásn	-11.1044
masa	-11.1073
gádov	-11.1082
požehná	-11.1085
těl	-11.109
bálov	-11.1092
jednostejn	-11.1092
hynou	-11.1106
vydává	-11.1111
4	-11.1125
sstoupí	-11.1125
stvořen	-11.1125
kantor	-11.1125
nuzné	-11.1125
císař	-11.1125
přísloví	-11.1125
kadil	-11.1125
zloděj	-11.1125
vnitřnost	-11.1125
hořkost	-11.1126
pamatuj	-11.1126
ponížen	-11.1127
zemské	-11.1127
důstojnost	-11.1128
staré	-11.1128
plamen	-11.1129
zabulon	-11.113
ložc	-11.1131
zadělan	-11.1132
nějaký	-11.1134
postavce	-11.1139
rada	-11.1143
vejdou	-11.1144
okn	-11.1144
neuposlechl	-11.115
uvodí	-11.1151
bij	-11.1151
jesu	-11.1154
spatřil	-11.1155
zdraví	-11.1156
měděné	-11.116
vysvobození	-11.1162
odstoupil	-11.1174
zahladil	-11.1179
takového	-11.1186
uchýlil	-11.1188
olati	-11.1201
braná	-11.1221
žádnému	-11.1224
věže	-11.1225
sít	-11.1237
změřil	-11.1237
navrátím	-11.1238
fá	-11.1246
paláce	-11.1254
těžk	-11.1257
přišl	-11.1261
otevř	-11.1264
beř	-11.1278
služ	-11.128
mladý	-11.1298
sadil	-11.1305
dad	-11.131
pohleď	-11.1313
chválí	-11.1327
ničem	-11.1332
bok	-11.1337
upřímé	-11.1352
vec	-11.1353
ťal	-11.1354
desát	-11.1358
kraji	-11.1371
hoden	-11.1373
neftalím	-11.1383
bázn	-11.1391
ohléd	-11.1393
svár	-11.1407
2	-11.141
korouh	-11.141
pšenic	-11.141
smilnil	-11.141
vzkříšení	-11.141
zahynutí	-11.141
kádes	-11.141
gát	-11.141
živočich	-11.141
ďábel	-11.141
květ	-11.1411
zpívej	-11.1412
mal	-11.1414
běžel	-11.1414
vyhledáva	-11.1418
vyslyš	-11.142
pojav	-11.1428
hluk	-11.1428
stával	-11.1431
pis	-11.1431
zanechal	-11.1433
učitel	-11.1434
vylit	-11.144
nemluvil	-11.1441
čemuž	-11.1447
osvědč	-11.1447
poslouchejte	-11.1451
naplní	-11.1451
pohnul	-11.1458
ráti	-11.1461
celý	-11.1463
uslyšev	-11.1465
idumejské	-11.1466
nevíte	-11.1483
činíte	-11.1484
semei	-11.1485
mějte	-11.1492
dome	-11.1492
roste	-11.1493
naučení	-11.1498
klín	-11.1509
stává	-11.1509
roviná	-11.1519
dnem	-11.1526
živý	-11.153
oznam	-11.1539
pevn	-11.1545
stavení	-11.1548
vedou	-11.1549
vydali	-11.1562
slyším	-11.1566
nebývá	-11.1569
vad	-11.1571
nečinil	-11.1572
královn	-11.1573
nevím	-11.158
ponese	-11.1594
soudc	-11.1598
věřil	-11.1603
klad	-11.1614
boz	-11.1616
ejší	-11.1626
pláče	-11.1626
sebral	-11.1631
dokonán	-11.1638
nosil	-11.1655
divné	-11.1659
pozdvih	-11.1666
trpí	-11.1693
stvoři	-11.1695
gedeon	-11.1703
užite	-11.1704
vzkřísi	-11.1704
zvířat	-11.1704
zvěstoval	-11.1704
záloh	-11.1704
částk	-11.1704
vladař	-11.1704
služebnic	-11.1704
břich	-11.1704
kaldejské	-11.1705
ďábelství	-11.1705
udeřil	-11.1705
štít	-11.1705
čern	-11.1705
naříkání	-11.1706
útočiště	-11.1706
tučn	-11.1709
drak	-11.1718
odsouzen	-11.1719
nesnadn	-11.172
slz	-11.172
cedrové	-11.1721
troubil	-11.1725
prs	-11.173
koupil	-11.1733
zachováva	-11.1739
potřebí	-11.1739
gar	-11.174
zdrav	-11.1742
vzácn	-11.1742
kupc	-11.1751
posvěcení	-11.1765
vnitřní	-11.1766
povolav	-11.1771
stupoval	-11.1774
kvíli	-11.1788
adam	-11.1792
slepý	-11.1793
zemský	-11.1797
prodal	-11.1805
židovský	-11.1818
jana	-11.184
trvá	-11.1858
prosb	-11.1865
osl	-11.187
bohatý	-11.188
přináše	-11.1886
neučinil	-11.1893
nemám	-11.1901
dým	-11.1901
morduj	-11.1901
čiň	-11.1919
veden	-11.193
díte	-11.1935
odvrátí	-11.1941
jho	-11.1943
vyšedš	-11.1948
svad	-11.1954
utisk	-11.1955
padá	-11.1956
zůstali	-11.1971
pozdvihn	-11.1982
mocen	-11.1989
bezpečn	-11.1991
zkazí	-11.1994
pastv	-11.2005
joábov	-11.2007
osmnáct	-11.2007
tajemství	-11.2007
vstoupí	-11.2007
ptal	-11.2007
jochanan	-11.2007
blesk	-11.2008
rozpomenul	-11.2008
chvalte	-11.2008
jonáš	-11.2008
docela	-11.2008
nešlechetný	-11.2008
huben	-11.2008
uhlí	-11.2009
obzvláštn	-11.201
obloži	-11.2011
vykoupil	-11.2016
přítomnost	-11.2018
pachole	-11.202
propustí	-11.202
přednější	-11.2021
chanan	-11.2024
pohleděl	-11.2026
jeft	-11.2027
soužení	-11.203
vládař	-11.2044
vládnou	-11.2047
veselé	-11.2084
izar	-11.2085
pláč	-11.2089
hrdl	-11.2092
doufání	-11.2105
per	-11.2106
sic	-11.2109
uslyšeli	-11.2114
soba	-11.2118
starc	-11.2159
vyšlo	-11.2162
hříšník	-11.2166
zapsán	-11.2166
žil	-11.2175
povolán	-11.2182
spálen	-11.2201
jakub	-11.221
zachován	-11.2211
herodes	-11.2212
nebeském	-11.2241
příbuzn	-11.225
loupeže	-11.2252
brav	-11.2274
vonný	-11.2276
vládařst	-11.2282
orli	-11.2291
azariáš	-11.2297
souzen	-11.2305
obyčeje	-11.231
levo	-11.2315
děvečk	-11.2318
krupobití	-11.232
náramenník	-11.232
svědomí	-11.232
uzdravil	-11.232
utvrdil	-11.232
výklad	-11.232
poslán	-11.232
ohnivé	-11.2321
for	-11.2321
čest	-11.2323
přiveď	-11.2327
veď	-11.2336
vysokost	-11.2344
neznal	-11.2344
opon	-11.2347
vykonal	-11.235
nepřišel	-11.2357
bloudil	-11.2358
vyplnil	-11.236
egyptským	-11.2367
staví	-11.2381
drob	-11.2382
chová	-11.2387
sváte	-11.2414
vidíš	-11.2415
šesti	-11.2421
konal	-11.2425
skal	-11.2427
vyved	-11.2438
dobro	-11.246
měděný	-11.2473
stem	-11.2476
učit	-11.2477
číš	-11.2485
aba	-11.2492
tví	-11.2502
noham	-11.2523
umř	-11.253
hřešili	-11.2548
azaf	-11.2552
činitel	-11.2561
kraje	-11.2567
uriáš	-11.257
plnil	-11.257
simeon	-11.258
utíka	-11.258
klam	-11.2586
hříš	-11.2596
kraj	-11.2601
ctí	-11.2606
vydán	-11.2623
loži	-11.2627
zpéře	-11.2642
rozhněvání	-11.2642
skrýš	-11.2642
stupňů	-11.2642
vládl	-11.2642
vypléněn	-11.2642
kterýmiž	-11.2642
makovic	-11.2642
koráb	-11.2642
obrací	-11.2642
lamp	-11.2643
asver	-11.2643
joram	-11.2643
upřímnost	-11.2643
pomaže	-11.2643
smrteln	-11.2643
mudrc	-11.2644
snížen	-11.2645
obdrží	-11.2646
prah	-11.2648
horší	-11.265
abel	-11.2652
sedechiáš	-11.2653
judo	-11.2658
zhynul	-11.2662
dět	-11.2663
zžíře	-11.2666
panoval	-11.2669
neví	-11.2672
lživ	-11.2675
čem	-11.2681
pravě	-11.2682
kananejský	-11.2682
vál	-11.2691
absolonov	-11.2692
počten	-11.2695
kain	-11.2696
předešl	-11.2707
strážný	-11.2729
ostříhejte	-11.2747
modlit	-11.2758
smysl	-11.2759
odpoví	-11.2769
královském	-11.2773
hojně	-11.2778
síň	-11.2789
hání	-11.2792
malý	-11.2818
semaiáš	-11.2828
rtů	-11.2829
ezechiášov	-11.2838
samson	-11.2841
svrchk	-11.2844
nalezne	-11.2847
úředník	-11.2857
opustí	-11.2858
navraťte	-11.2882
balák	-11.289
ušel	-11.2902
bydlen	-11.2905
dobrým	-11.2916
mlčel	-11.2916
vycháze	-11.2917
učiněno	-11.2942
sidon	-11.2956
dání	-11.2966
chci	-11.297
škod	-11.2972
hřmot	-11.2976
očišťován	-11.2976
abiatar	-11.2976
horlivost	-11.2976
odpočinul	-11.2976
rozsívá	-11.2976
vzbudil	-11.2976
kobylk	-11.2976
pomocník	-11.2976
řetěz	-11.2976
zeměplaz	-11.2976
třech	-11.2977
zrostl	-11.2978
povstane	-11.2978
dobrořečil	-11.2979
svěde	-11.298
trpělivost	-11.2982
odejm	-11.2983
tajně	-11.2985
sedmkrát	-11.2985
nun	-11.2988
páté	-11.2989
obživ	-11.2991
stříbrné	-11.2992
zmužil	-11.2995
úpě	-11.2999
dávají	-11.3001
čímž	-11.3004
stojící	-11.3012
jedenáct	-11.3014
povědíno	-11.3015
kříž	-11.3016
vyjdou	-11.3021
rodu	-11.3039
děsí	-11.3054
krásné	-11.306
církve	-11.3062
přisluhoval	-11.3069
chlubí	-11.307
hodné	-11.3081
slavil	-11.3086
nečiní	-11.3094
žádosti	-11.3095
ustavičn	-11.3097
odplat	-11.3121
rohů	-11.3129
ložím	-11.3132
korunu	-11.3137
trpěl	-11.3143
pálil	-11.3146
umí	-11.3148
trpě	-11.3149
vloží	-11.3153
milostiv	-11.3155
izachar	-11.3173
zajatý	-11.318
berán	-11.3201
doufá	-11.3214
předměstím	-11.3217
dce	-11.3219
bráti	-11.3231
táhnou	-11.3245
volání	-11.3259
amri	-11.3268
pouštěl	-11.3308
následov	-11.3313
odejde	-11.3319
veleb	-11.3319
barnabáš	-11.3321
ospravedlněn	-11.3321
rozptýlí	-11.3321
obklíčil	-11.3321
vzbudí	-11.3321
banaiáš	-11.3321
mordován	-11.3321
milování	-11.3321
předěšen	-11.3321
otvírá	-11.3321
amalech	-11.3321
taková	-11.3321
nešlechetní	-11.3321
pavlov	-11.3321
klas	-11.3321
pošlapá	-11.3321
takovou	-11.3321
zůstalo	-11.3321
pochyb	-11.3322
amorejský	-11.3323
tých	-11.3327
vyzdvihl	-11.3327
bojovati	-11.3328
staních	-11.3329
některý	-11.333
zevnitřní	-11.333
sur	-11.3331
chananiáš	-11.3333
litoval	-11.3333
zastřen	-11.3334
střev	-11.3339
chcete	-11.3343
mlče	-11.3349
zdělal	-11.3349
uzřevš	-11.335
odejme	-11.3371
znají	-11.3371
plén	-11.3371
vyjdi	-11.3375
celým	-11.3387
vynesl	-11.339
často	-11.339
váží	-11.3391
lidským	-11.3393
spadl	-11.3394
přenesl	-11.3404
odplatu	-11.3405
dějí	-11.3405
razil	-11.3416
opil	-11.343
stoje	-11.3433
hrozný	-11.3439
třásl	-11.344
pošle	-11.3442
přebýva	-11.3447
state	-11.3454
dědic	-11.3461
užitečn	-11.3462
odplatí	-11.3469
ska	-11.3519
zapomenul	-11.3528
andělů	-11.3536
kterého	-11.355
touž	-11.3566
měsíců	-11.3577
uvede	-11.3578
hnul	-11.3586
věž	-11.359
kudy	-11.3598
pastýře	-11.3601
vln	-11.3612
sionsk	-11.3619
čení	-11.362
vysvobozen	-11.363
odjat	-11.3633
odešla	-11.364
ór	-11.3644
přátel	-11.3644
vykoná	-11.3646
pohr	-11.3658
nevejde	-11.3662
stanou	-11.3673
poklon	-11.3675
menší	-11.3677
karmel	-11.3678
posměvač	-11.3678
posměch	-11.3678
rebek	-11.3678
skotů	-11.3678
slitovnic	-11.3678
tábor	-11.3678
zvýší	-11.3678
odpočíva	-11.3678
smilní	-11.3678
protivenství	-11.3678
barvené	-11.3678
dobrá	-11.3678
čtyřmecítm	-11.3678
hat	-11.3678
kazoval	-11.3678
proroctví	-11.3678
svícn	-11.3678
nuzný	-11.3679
poklonil	-11.368
uziáš	-11.3682
jezer	-11.3683
kvas	-11.3684
můžeš	-11.3684
hnal	-11.369
tř	-11.3692
odpustil	-11.3698
létě	-11.3703
ženich	-11.3705
koř	-11.3708
vezl	-11.3721
amnon	-11.3723
judském	-11.3733
obořil	-11.3738
připadl	-11.3743
přestane	-11.3743
vítěz	-11.3747
achis	-11.375
jah	-11.3754
dobrému	-11.3759
povst	-11.3762
nejvyšším	-11.3765
dveř	-11.3765
nezná	-11.3768
shromáždi	-11.377
trápil	-11.3775
beran	-11.378
čemu	-11.3782
naučil	-11.3782
stůj	-11.3784
poslouchal	-11.3787
zhoub	-11.3797
proroku	-11.3803
upřím	-11.3807
křiv	-11.3808
přistupova	-11.3811
nutí	-11.3818
cházející	-11.3826
hleděl	-11.383
nechodil	-11.383
vejdi	-11.3837
zvolal	-11.3841
navštív	-11.3842
jejíž	-11.3846
oblečen	-11.3858
zapomenu	-11.3862
pavla	-11.3866
rozkaz	-11.3867
jeroboámov	-11.3871
kým	-11.3877
vývoda	-11.3879
hrozné	-11.388
smilstv	-11.3883
přinášel	-11.3886
činění	-11.389
promluvil	-11.389
nebeský	-11.391
sprav	-11.3916
krok	-11.3916
konc	-11.3923
krás	-11.3931
jo	-11.3931
bývalo	-11.3942
zachová	-11.3949
přistoupivš	-11.3951
držel	-11.3961
ustal	-11.3966
cizozemc	-11.3968
daleké	-11.3987
rozuměl	-11.3988
prac	-11.3993
ožil	-11.3993
dělej	-11.401
přidá	-11.4012
vlož	-11.4021
poddán	-11.4022
válečn	-11.4035
pozdvihuj	-11.4037
tudy	-11.4038
kterou	-11.4039
zpěv	-11.4041
bloudí	-11.4046
dvadcát	-11.4048
oblékl	-11.4048
trestat	-11.4048
ukáži	-11.4048
adoniáš	-11.4048
sallum	-11.4048
závor	-11.4048
rozmnožen	-11.4048
utvrzen	-11.4048
heber	-11.4048
maaseiáš	-11.4048
halelu	-11.4048
pláště	-11.4048
duchovní	-11.4048
zkušen	-11.4048
timote	-11.4048
půjdou	-11.4048
sára	-11.4049
dělník	-11.4049
otevřín	-11.4049
oklamá	-11.405
uvržen	-11.405
navštívil	-11.405
týru	-11.405
děvečka	-11.4051
vědouc	-11.4051
zisk	-11.4052
mateř	-11.4053
převrácenost	-11.4054
žalost	-11.4055
odsud	-11.4055
začal	-11.4057
červce	-11.4058
půjdeme	-11.4058
obuv	-11.4058
pramen	-11.4058
oddělil	-11.4059
čtvrtý	-11.4062
madianský	-11.4066
zjevil	-11.4066
nižádný	-11.4068
pohrdl	-11.407
odpusť	-11.407
nemohou	-11.4071
blud	-11.4073
hledě	-11.4084
gad	-11.4094
bič	-11.4115
hanbu	-11.4116
zpěvák	-11.4123
joakim	-11.4134
jistý	-11.4136
říc	-11.4142
díme	-11.4147
prázdn	-11.4147
boří	-11.4151
přistoupiv	-11.4154
jeremiáše	-11.4174
mlč	-11.4177
zlým	-11.4181
mast	-11.4187
líbi	-11.4187
panuje	-11.4187
nevidí	-11.4193
zabí	-11.4202
pásl	-11.4203
vězte	-11.4205
janov	-11.4206
ejský	-11.4206
kají	-11.4207
arno	-11.4215
egyptsk	-11.4232
modlitba	-11.4247
pomáhal	-11.4248
znal	-11.426
samo	-11.4275
mohou	-11.4277
slož	-11.4277
odpověd	-11.428
skoná	-11.4296
zámutk	-11.4303
oznámím	-11.4303
ammonitský	-11.4306
posled	-11.4308
přijíma	-11.4309
zhoubc	-11.4311
propusti	-11.4317
humn	-11.4321
žalář	-11.4321
apoštolů	-11.4326
přistup	-11.4328
obětuje	-11.4332
obětován	-11.4333
uslyšavš	-11.4337
hrom	-11.4339
světle	-11.4345
oznamuj	-11.4345
iášov	-11.4349
křičel	-11.435
zár	-11.4365
knězem	-11.4372
panovní	-11.4391
trápen	-11.4395
polám	-11.4399
která	-11.4424
lebn	-11.4429
nechá	-11.4431
dosáhl	-11.4433
kněžský	-11.4433
naklonil	-11.4433
nakloň	-11.4433
pokušení	-11.4433
vysvoboď	-11.4433
benadad	-11.4433
báruch	-11.4433
komorník	-11.4433
kulhav	-11.4433
plésání	-11.4433
porušen	-11.4433
opatrnost	-11.4433
loutn	-11.4433
prozpěvova	-11.4433
řemeslník	-11.4433
zlehč	-11.4433
nasytí	-11.4433
zevnitř	-11.4434
pohleděv	-11.4434
bóz	-11.4434
kněžstv	-11.4434
sarvi	-11.4434
big	-11.4436
koupí	-11.4437
železné	-11.4437
ostatků	-11.4438
doufají	-11.4439
uzříte	-11.4439
plní	-11.4443
změnil	-11.4444
mluven	-11.4445
ukydaným	-11.4447
maach	-11.4448
sežral	-11.4452
stupuje	-11.4455
nemocné	-11.4459
oslaven	-11.4459
neznají	-11.4459
jídal	-11.446
trestání	-11.4465
stydí	-11.4465
enoch	-11.4465
míra	-11.447
nějaké	-11.4471
ječmene	-11.4471
het	-11.4473
vzýval	-11.4475
zmocnil	-11.4476
pozůstali	-11.4477
zadu	-11.4482
okršl	-11.4486
dobytče	-11.449
vytáh	-11.4491
očekával	-11.4502
sedmdesáti	-11.4502
otcov	-11.4508
lat	-11.452
přitáhne	-11.4531
vynáše	-11.4531
zruš	-11.4539
vstupuje	-11.454
roce	-11.4548
správ	-11.4553
elam	-11.4553
slýchali	-11.4553
vyslyší	-11.4553
azar	-11.4581
věř	-11.4585
takových	-11.4587
vypravova	-11.4602
vidíte	-11.4603
shromážděn	-11.4609
královsk	-11.4614
vracel	-11.4619
vojn	-11.4621
sab	-11.4621
plodil	-11.4626
nejedl	-11.463
obrať	-11.4631
rodič	-11.4633
křič	-11.4642
zvěstuj	-11.4645
kladl	-11.4649
nezemře	-11.4656
správc	-11.4659
pytl	-11.4672
rádc	-11.4685
řkou	-11.4691
panuj	-11.4694
neseš	-11.4699
hrdlo	-11.4701
idumejský	-11.4705
lovi	-11.4711
prorokují	-11.4718
nosi	-11.4726
brz	-11.4728
pozdrav	-11.4765
jedin	-11.4771
drželi	-11.4771
časem	-11.4797
pokrytc	-11.4801
pozor	-11.4813
přikryj	-11.4827
přítele	-11.4832
fínes	-11.4833
mesullam	-11.4833
provinění	-11.4833
čtver	-11.4833
ezdráš	-11.4833
obecné	-11.4833
zorobábel	-11.4833
šestnáct	-11.4833
pomazané	-11.4833
vichřic	-11.4833
závist	-11.4833
blát	-11.4833
ponížil	-11.4833
remmon	-11.4833
dokavad	-11.4833
abizai	-11.4833
prozpěvuj	-11.4833
připojen	-11.4833
vyprahl	-11.4833
vzdálen	-11.4833
úklad	-11.4833
dvamecítm	-11.4834
rozkošn	-11.4834
provodí	-11.4835
nejlepší	-11.4835
deště	-11.4836
zkřikl	-11.4836
assur	-11.4837
pokřtěn	-11.4837
šetřil	-11.4838
posel	-11.4839
arab	-11.4841
nemohu	-11.4845
nezůstal	-11.4848
pravá	-11.4853
desetin	-11.486
zahynou	-11.486
vyzná	-11.4866
srozumě	-11.4867
chválil	-11.4869
řečeno	-11.4878
čtyře	-11.4883
bravů	-11.4887
jasn	-11.4889
drž	-11.4889
vyhladím	-11.4895
cizozemců	-11.492
potupu	-11.4961
azafov	-11.4963
choďte	-11.4972
mordova	-11.4979
půs	-11.4982
náleží	-11.4985
pozdravte	-11.4985
samuelov	-11.5006
ýž	-11.5015
známé	-11.5021
způsobu	-11.5021
šedš	-11.5022
upřímý	-11.5042
hojné	-11.5047
polí	-11.5065
nepřijde	-11.5091
chíram	-11.5091
ustanov	-11.5095
slavné	-11.5097
zvlášt	-11.5115
kálef	-11.5121
vedeš	-11.5136
etí	-11.5142
břemen	-11.5158
popouzel	-11.5159
avad	-11.5174
radí	-11.5174
vída	-11.5178
her	-11.5182
pracuj	-11.5192
bylin	-11.5198
zelen	-11.5202
skut	-11.5203
přilož	-11.5206
připraven	-11.5213
átk	-11.5227
velik	-11.5238
pozdravuj	-11.5239
holí	-11.5241
abiáš	-11.5245
žízni	-11.5246
devadesát	-11.5249
holubic	-11.5249
jábes	-11.5249
možné	-11.5249
nejmilejší	-11.5249
slitování	-11.5249
třináct	-11.5249
ukřižován	-11.5249
zvěstovat	-11.5249
náprsník	-11.5249
prudk	-11.5249
užitk	-11.5249
čaloun	-11.5249
zkusil	-11.5249
veřeje	-11.5249
braň	-11.525
příliš	-11.525
očistil	-11.525
výplat	-11.525
večeř	-11.5251
sukni	-11.5251
umyje	-11.5251
užívá	-11.5251
přiveden	-11.5252
soused	-11.5252
jotam	-11.5253
ptej	-11.5253
vykoupen	-11.5254
rozumný	-11.5255
třesení	-11.5255
ochoziáš	-11.5257
azot	-11.526
přebývající	-11.5262
joachaz	-11.5263
raněn	-11.5265
poslouchají	-11.5267
právo	-11.5268
levic	-11.5274
zrodil	-11.5285
zlou	-11.5288
nedopustil	-11.5288
dávejte	-11.5289
vyjděte	-11.5293
oréb	-11.5307
zvěstuje	-11.5318
dobrořeč	-11.5319
vrace	-11.5323
podobni	-11.5328
pozna	-11.5334
věčno	-11.5341
deváté	-11.5346
jezte	-11.5348
dveře	-11.5352
sekal	-11.5363
teprv	-11.5372
měr	-11.5374
přicháze	-11.5391
zámut	-11.5393
zanechá	-11.5399
jdoucí	-11.5408
rouhán	-11.5409
výborný	-11.5412
novo	-11.5415
bolestí	-11.5421
ičk	-11.5422
kudyž	-11.5431
dávej	-11.5431
spokojuj	-11.5434
rád	-11.5439
veselím	-11.5441
vstávaj	-11.5445
pěkn	-11.5453
lněn	-11.5465
lži	-11.5474
láme	-11.5474
balámov	-11.5485
ustanovením	-11.5491
válka	-11.551
odpouště	-11.5523
háje	-11.5526
neumřel	-11.5528
spasitele	-11.553
choď	-11.5535
vrátn	-11.5537
oznámi	-11.5538
přesto	-11.5539
chudým	-11.5558
nedostatk	-11.5559
učiníme	-11.5562
bije	-11.5566
živou	-11.5573
rostlo	-11.5581
rozdíln	-11.5596
ohrad	-11.5596
lítosti	-11.5605
vyhladí	-11.5621
položen	-11.5635
lest	-11.5641
yč	-11.5649
běží	-11.5655
vědí	-11.5657
ochotn	-11.5668
stupní	-11.5669
razí	-11.5672
dostal	-11.5676
házejí	-11.5683
ammonit	-11.5683
mouřenín	-11.5683
ábel	-11.5683
čtyřidc	-11.5684
5	-11.5684
cizoloží	-11.5684
efez	-11.5684
hrnčíř	-11.5684
nařízení	-11.5684
plášť	-11.5684
rozkázaní	-11.5684
rozpomeň	-11.5684
poslouchá	-11.5684
útržk	-11.5684
mládene	-11.5684
mrzkost	-11.5684
přestoupil	-11.5684
vyvrh	-11.5684
odvrácen	-11.5684
hetejské	-11.5684
dávno	-11.5684
azor	-11.5684
příchod	-11.5684
cýr	-11.5684
ostrost	-11.5685
statečn	-11.5685
gáz	-11.5685
melech	-11.5685
příklad	-11.5685
starost	-11.5686
dotkn	-11.5686
svaz	-11.5687
přebývají	-11.5688
dvadcítilet	-11.5688
největší	-11.5688
směle	-11.5688
ssoužen	-11.5688
zrušil	-11.5689
drahý	-11.569
akaron	-11.5691
náhle	-11.5692
rouše	-11.5693
vinař	-11.5694
dobrotivost	-11.5695
provodil	-11.5695
fet	-11.5696
přivodil	-11.5696
vyveď	-11.5696
píši	-11.5697
umírá	-11.5698
varuj	-11.57
betsem	-11.5704
summ	-11.5709
obnov	-11.5709
hodil	-11.5709
babylonském	-11.5727
plev	-11.5736
sečtl	-11.5738
rozkáže	-11.5738
věčnost	-11.5744
učiníte	-11.5757
fat	-11.5758
pracoval	-11.5761
rozdělí	-11.5764
potřel	-11.5769
vrže	-11.5776
vzdělá	-11.5777
potření	-11.5777
nápoj	-11.5778
zdvihl	-11.5778
zdvih	-11.5779
jakého	-11.579
zůstával	-11.5791
věčn	-11.5796
mluvící	-11.5798
šat	-11.5802
kozel	-11.5803
pusté	-11.5809
válk	-11.5816
převrácen	-11.5825
ujal	-11.5847
gerson	-11.5847
mořský	-11.5868
zjevení	-11.5872
chus	-11.5875
rej	-11.5895
melch	-11.5905
mordoval	-11.5906
tent	-11.5912
zavřín	-11.5917
zdržel	-11.5917
cíl	-11.5923
zastav	-11.5923
chusa	-11.5924
kdybys	-11.5949
ležící	-11.5976
farizeů	-11.5986
jízd	-11.6003
líbila	-11.6008
strachuj	-11.6009
helkiáš	-11.6023
královským	-11.6052
polož	-11.6062
ulice	-11.6071
dav	-11.6071
uveden	-11.6076
čtl	-11.6086
lva	-11.6087
desáté	-11.609
protivil	-11.6092
velbloudů	-11.6093
pada	-11.6098
požehnan	-11.6111
kadidlo	-11.6115
dská	-11.6121
vinen	-11.6136
sstupují	-11.6137
bojovní	-11.6138
bojovný	-11.6139
drabant	-11.6139
eufrate	-11.6139
fáres	-11.6139
nebezpečenství	-11.6139
ohlašuj	-11.6139
starodávní	-11.6139
vyhlásí	-11.6139
micheáš	-11.6139
popléněn	-11.6139
výmluvnost	-11.6139
účastní	-11.6139
lačně	-11.6139
chvíle	-11.6139
čerstv	-11.6139
sladk	-11.6139
jitřní	-11.6139
robot	-11.6139
rozpálen	-11.6139
nábot	-11.6139
hádk	-11.6139
těhotn	-11.6139
rybník	-11.6139
rouhal	-11.6139
hnízd	-11.6139
vesnic	-11.6139
posílal	-11.6139
snop	-11.614
uteče	-11.614
hlubo	-11.614
oblehl	-11.614
křtil	-11.6141
sbíral	-11.6141
zahladí	-11.6142
radovati	-11.6143
pokojík	-11.6143
spálí	-11.6144
susan	-11.6144
rechab	-11.6146
učiňte	-11.6149
děsil	-11.6149
padají	-11.6149
hin	-11.6149
jidáš	-11.6154
radoval	-11.6155
vydávají	-11.6161
přešli	-11.6161
utíká	-11.6161
nosí	-11.6162
komuž	-11.6167
jakýž	-11.6167
svolav	-11.6167
uráž	-11.6174
poslušn	-11.618
vstanou	-11.6181
mistr	-11.6182
dobrořečte	-11.6184
přepásaní	-11.6185
ledv	-11.6185
dítěte	-11.6187
háj	-11.6191
přisaha	-11.62
dělán	-11.6211
odín	-11.6211
kamene	-11.6217
bydlící	-11.6229
kment	-11.6233
nechte	-11.6239
zajat	-11.6249
novu	-11.625
svobodn	-11.6253
uslyšav	-11.6254
stavějí	-11.6257
hlédl	-11.6268
nedostat	-11.6273
obydlí	-11.6277
povězte	-11.6286
nenáviděl	-11.63
křiče	-11.6306
nemáme	-11.6306
nimiž	-11.6308
vezmu	-11.6343
nů	-11.6351
ustavěl	-11.6369
učen	-11.6377
posilň	-11.6411
postavím	-11.6414
přátelé	-11.642
toul	-11.6424
neznám	-11.6448
prostřední	-11.6454
modlá	-11.6459
stydě	-11.6459
kaldejský	-11.6463
snáše	-11.6463
dokonalý	-11.6489
zlořeč	-11.6495
sstup	-11.6498
křtí	-11.6499
zvuč	-11.652
končiná	-11.6531
svědčil	-11.6533
drah	-11.6535
nemůž	-11.6558
úh	-11.6567
trestán	-11.6576
piš	-11.6578
mluvte	-11.6581
madian	-11.6591
vydáva	-11.6596
vztažen	-11.6602
lámal	-11.6608
slepé	-11.6611
noční	-11.6615
hřbet	-11.6615
jablk	-11.6615
lehkost	-11.6615
napomína	-11.6615
obcování	-11.6615
panování	-11.6615
sformoval	-11.6615
sváteční	-11.6615
vyslýchej	-11.6615
zachovej	-11.6615
rozpomína	-11.6615
smýšle	-11.6615
výpověd	-11.6615
neduh	-11.6615
kormoutí	-11.6615
kvílí	-11.6615
upevněn	-11.6615
čistern	-11.6615
rkev	-11.6615
hrnc	-11.6615
hlubokost	-11.6616
kruh	-11.6616
madianské	-11.6616
manue	-11.6616
zlořečenství	-11.6616
perské	-11.6616
pres	-11.6617
svátk	-11.6618
sstupující	-11.6618
skládá	-11.6618
říkej	-11.6619
štípen	-11.6619
metl	-11.662
kopyt	-11.662
jsuc	-11.662
příval	-11.6621
hadač	-11.6621
rozumné	-11.6622
klíč	-11.6622
tíží	-11.6622
množ	-11.6623
příchozím	-11.6626
roztáhl	-11.6628
vypustil	-11.6629
joel	-11.6631
odpovída	-11.6633
anatot	-11.6635
pasou	-11.6636
kupec	-11.6637
pokut	-11.6638
mrtvá	-11.6638
mocné	-11.6639
uzříš	-11.6642
chodíval	-11.6644
neučiní	-11.6647
amos	-11.6653
pokryt	-11.6654
nevěřící	-11.666
nalezn	-11.6661
mann	-11.6662
volají	-11.6664
sarai	-11.6666
chud	-11.6666
shromažďuje	-11.6675
vejdu	-11.6677
něko	-11.668
čež	-11.6684
jednostejné	-11.6687
nalez	-11.6687
hák	-11.669
pohubil	-11.6691
oslavujte	-11.6694
slyšení	-11.6694
těžc	-11.6702
riáš	-11.6702
doufa	-11.6703
rut	-11.6707
křivd	-11.671
simeonov	-11.6714
spustil	-11.6716
vejdete	-11.6718
udělej	-11.6724
spojen	-11.673
petrov	-11.6735
církv	-11.6735
vzdělám	-11.6741
vstavil	-11.6746
vycházejí	-11.6749
strašil	-11.6752
vstaňte	-11.6756
starců	-11.6758
zdál	-11.6763
damaš	-11.6768
slyšíte	-11.6769
odejdi	-11.6775
zpěvá	-11.6778
nství	-11.678
odděl	-11.6781
pojedl	-11.6796
ruší	-11.6798
hněviv	-11.6806
pohleďte	-11.6807
bořil	-11.6811
nový	-11.6811
odšedš	-11.6825
zemdl	-11.6828
obnaž	-11.6843
šetří	-11.6854
oron	-11.6856
jozafatov	-11.6856
skute	-11.6861
tvrdím	-11.6867
jdeme	-11.6872
strojil	-11.6875
pošl	-11.6881
nský	-11.6891
lachi	-11.6895
němuž	-11.69
plaka	-11.6913
úřední	-11.6916
vrchní	-11.6919
podobno	-11.6928
šetř	-11.6947
slušn	-11.6973
darů	-11.6985
brad	-11.6989
nápoje	-11.7009
slýchal	-11.7009
shledal	-11.7016
mol	-11.7028
svolal	-11.703
přestá	-11.7043
okršlk	-11.7046
musím	-11.7049
gor	-11.7053
odporn	-11.7054
hur	-11.706
noém	-11.7061
darmo	-11.7074
lůn	-11.7074
vysoko	-11.7076
trva	-11.7078
svědčí	-11.7082
žíře	-11.7089
nalézá	-11.7091
obřízk	-11.7091
vinné	-11.71
bíl	-11.7101
assyr	-11.7106
)	-11.7108
šlechetn	-11.7111
čtvrt	-11.7113
vyšší	-11.7114
grunt	-11.7115
nádab	-11.7115
porušiteln	-11.7115
poslušenství	-11.7115
písničk	-11.7115
tresci	-11.7115
chvacuj	-11.7115
natanael	-11.7115
netaniáš	-11.7115
trestal	-11.7115
zdráv	-11.7115
počáte	-11.7115
svitá	-11.7115
ezron	-11.7115
zatvrdil	-11.7115
abdiáš	-11.7115
založil	-11.7115
zákoníků	-11.7115
elkán	-11.7115
nebatov	-11.7115
ostatní	-11.7115
stromoví	-11.7115
ulekl	-11.7115
saraiáš	-11.7115
utěšen	-11.7115
hospod	-11.7116
vonné	-11.7116
oceliv	-11.7116
jable	-11.7116
odepřel	-11.7116
nejsilnější	-11.7116
novměsíc	-11.7117
pozval	-11.7117
strýc	-11.7117
zpronevěřil	-11.7117
zůstanou	-11.7118
opatrný	-11.7118
maličký	-11.7119
rozpálil	-11.7119
těšit	-11.7119
setření	-11.7119
niniv	-11.712
přikrývá	-11.7122
potěšil	-11.7123
posílám	-11.7125
vzešl	-11.7126
utíkají	-11.7127
navracoval	-11.7127
propusť	-11.7127
skop	-11.713
naleznete	-11.7132
neplodn	-11.7132
ochotně	-11.7134
umyl	-11.7136
prsten	-11.7137
přesnic	-11.7137
potře	-11.7145
pojm	-11.7149
pověděv	-11.7153
zastavil	-11.7155
zradoval	-11.7155
nevěřil	-11.7156
teman	-11.7156
navrátíš	-11.7157
svázal	-11.7157
ukazuje	-11.716
zajal	-11.7163
mluvíval	-11.7164
obětují	-11.7171
osadil	-11.7172
otevřené	-11.7173
vezmete	-11.7173
ukaž	-11.7178
shlédl	-11.7181
neuzří	-11.719
chtít	-11.7193
spravedlivě	-11.7194
zamiloval	-11.7201
přikrytí	-11.7203
slav	-11.7206
znamenit	-11.7208
nevíš	-11.7216
vdově	-11.7218
vězně	-11.7223
sšikoval	-11.7225
činíval	-11.7226
ger	-11.7229
safanov	-11.7229
drobn	-11.723
políbil	-11.7233
hřiv	-11.7243
hlin	-11.7245
gal	-11.7247
syrským	-11.7248
slaven	-11.7249
milostivé	-11.725
oddělen	-11.7261
píše	-11.7266
pů	-11.7269
ammonitským	-11.7284
porodí	-11.729
navra	-11.7294
spasitel	-11.7296
modlte	-11.7315
mdlé	-11.7325
přídržel	-11.7326
neslyšel	-11.7333
fer	-11.7341
užíval	-11.7349
pahrb	-11.735
hloup	-11.7351
pomáha	-11.7363
rámo	-11.7365
církví	-11.7376
hojný	-11.7382
bláznů	-11.7391
amaz	-11.7397
joziáš	-11.7413
užitečné	-11.7428
zrnat	-11.7436
vzdělán	-11.744
loupí	-11.7444
vzděla	-11.7449
obětuj	-11.7461
poškvrňova	-11.7465
ustanoví	-11.7473
zdvihněte	-11.7502
povědě	-11.7506
obřezán	-11.751
hojn	-11.7521
žín	-11.7526
stávají	-11.7532
skryté	-11.754
zkaz	-11.7552
rodil	-11.7553
ptác	-11.7559
uslyševš	-11.7569
přistoup	-11.7572
obýval	-11.7582
časů	-11.7589
svodí	-11.7589
přímé	-11.7605
výborn	-11.7615
kop	-11.7627
přítomn	-11.7628
opi	-11.763
chlubi	-11.7635
doufám	-11.7636
vidín	-11.7636
ohavn	-11.7637
dobrotiv	-11.7638
rozpomen	-11.7641
ukřižova	-11.7641
8	-11.7641
pokropí	-11.7641
porážk	-11.7641
0	-11.7641
cizozeme	-11.7641
doufej	-11.7641
obtížen	-11.7641
hospodář	-11.7641
přihodilo	-11.7641
svítí	-11.7641
opojn	-11.7641
uložené	-11.7641
vyleji	-11.7641
nazývá	-11.7641
koláč	-11.7641
zarmoutil	-11.7641
chvíli	-11.7641
nazýva	-11.7641
hýba	-11.7642
plece	-11.7642
vyzdvihne	-11.7642
efod	-11.7642
vyučující	-11.7642
vzdálí	-11.7642
sále	-11.7642
narození	-11.7642
obležen	-11.7642
náchor	-11.7643
nešlechetné	-11.7643
macedoni	-11.7643
vyvodí	-11.7643
podměstí	-11.7643
páší	-11.7643
přicházejí	-11.7643
libánské	-11.7644
povyš	-11.7644
klesl	-11.7644
musejí	-11.7645
blízký	-11.7646
posvětí	-11.7646
pomíjej	-11.7646
viduc	-11.7647
snáší	-11.7647
neodpustí	-11.7651
zemře	-11.7653
rozbil	-11.7656
potop	-11.7657
ujme	-11.7663
zapálil	-11.7672
psání	-11.7681
oslice	-11.7685
opanoval	-11.7696
miluješ	-11.7697
židovské	-11.7698
nezahynul	-11.7704
osly	-11.7711
oblakové	-11.7714
skláně	-11.7715
stání	-11.7718
oupě	-11.7724
ssužoval	-11.7726
spravoval	-11.7729
rozděl	-11.7737
vystaven	-11.7744
cházení	-11.7755
břemene	-11.7758
popouze	-11.7763
sin	-11.7788
střech	-11.779
vydej	-11.7807
všedš	-11.7807
vynes	-11.7807
běž	-11.7812
poznán	-11.7832
cele	-11.7834
mrtvým	-11.7857
opustivš	-11.7868
očekávám	-11.787
tajné	-11.7875
put	-11.7877
vydával	-11.7885
vnesl	-11.7892
azova	-11.7897
trval	-11.7897
židovsk	-11.7923
pokrmů	-11.7937
užíva	-11.794
činící	-11.7945
takovým	-11.7946
chvátání	-11.7947
vytrh	-11.796
danielov	-11.796
siro	-11.7963
zbořen	-11.7964
ustavično	-11.7971
plnit	-11.7976
rozplyn	-11.7996
joziášov	-11.8005
nesen	-11.8007
převrácený	-11.8012
rozený	-11.8023
povím	-11.8034
tým	-11.8046
amon	-11.8084
sklad	-11.8098
přikryt	-11.8099
řemesln	-11.8112
potěšen	-11.8121
oslic	-11.8153
vázán	-11.8154
ukydan	-11.8176
lstivě	-11.8192
ters	-11.8193
kopal	-11.8194
cizoložn	-11.8196
kaldej	-11.8196
antiochi	-11.8197
bedliv	-11.8197
blýskání	-11.8197
dlouhé	-11.8197
kariatjeharim	-11.8197
pancíř	-11.8197
pohoršení	-11.8197
rozptýlil	-11.8197
svegruš	-11.8197
tresce	-11.8197
třidcát	-11.8197
hlubin	-11.8197
kariat	-11.8197
nesčísln	-11.8197
přikrýval	-11.8197
vymíta	-11.8197
dvojnásobn	-11.8197
kadění	-11.8197
nebývej	-11.8197
svítil	-11.8197
ocas	-11.8197
oplývající	-11.8197
chýlí	-11.8197
tobiáš	-11.8197
lakomství	-11.8197
dobrodin	-11.8197
násilník	-11.8197
přítrž	-11.8197
chloub	-11.8197
posmívá	-11.8197
otevr	-11.8197
sníh	-11.8197
jalovic	-11.8198
koží	-11.8198
hořící	-11.8198
reptal	-11.8198
zapálí	-11.8198
společn	-11.8198
propuštěn	-11.8199
vstoupiv	-11.8199
ryzí	-11.8199
bél	-11.8203
jednomyslně	-11.8203
poruč	-11.8204
prosí	-11.8208
následoval	-11.8209
vystaví	-11.8213
vnuk	-11.8214
vysvoboditel	-11.8214
telat	-11.8221
přicházející	-11.8222
rabb	-11.8223
těžkost	-11.8227
štípil	-11.8228
vůdcové	-11.8231
nerozuměl	-11.8233
seker	-11.8234
měřil	-11.8236
tmě	-11.8238
nechci	-11.8239
okolní	-11.824
zahubil	-11.8241
vykonám	-11.8244
vyplní	-11.8245
neftalímov	-11.825
nesluší	-11.8251
sypal	-11.8253
zprotivil	-11.8256
jehoram	-11.8257
vrací	-11.8258
předpověděl	-11.8259
íkol	-11.8264
žádej	-11.8266
sochot	-11.8277
přítelkyn	-11.8284
zemdlen	-11.8291
pomoz	-11.8305
vsadil	-11.8307
posvěcuj	-11.8309
odcházel	-11.8316
neostříhal	-11.8321
příbuzný	-11.8324
vstupoval	-11.8332
táhni	-11.8332
křt	-11.8352
chor	-11.8356
věřit	-11.8358
rozdíl	-11.8361
vytrhne	-11.8379
desk	-11.8382
počínal	-11.8386
chlub	-11.8398
neobrátil	-11.8398
činěn	-11.8426
postí	-11.8433
nebudeme	-11.8459
pokoušel	-11.8459
zpurný	-11.8469
šíř	-11.849
jitr	-11.8494
říkaj	-11.8501
ejské	-11.8506
klek	-11.8516
vykonáva	-11.852
slavn	-11.8522
sedechiáše	-11.8529
abramov	-11.8531
vyměř	-11.8534
hrst	-11.8542
vyvolen	-11.8556
hleďte	-11.8565
čistým	-11.8566
godoliáš	-11.8619
hořel	-11.8644
zápalů	-11.8645
vzhléd	-11.8651
joziáše	-11.8652
víc	-11.8678
bláznivý	-11.8705
patřil	-11.8705
rozumějí	-11.8716
zlá	-11.8728
kazil	-11.873
gog	-11.8735
chován	-11.8751
par	-11.8761
bírají	-11.8771
mecítm	-11.878
převrácené	-11.8783
lehl	-11.8785
7	-11.8785
galilejské	-11.8785
jebuzejské	-11.8785
kotlík	-11.8785
pospíšil	-11.8785
prospěch	-11.8785
vykupitel	-11.8785
vymítá	-11.8785
odvrať	-11.8785
pomazaný	-11.8785
publikán	-11.8785
tloukl	-11.8785
zkormoucen	-11.8785
navštěv	-11.8785
náušnic	-11.8785
ohyzdn	-11.8785
prokletí	-11.8785
plésej	-11.8785
skrýva	-11.8785
prospěj	-11.8785
farna	-11.8785
rytíř	-11.8785
pospěš	-11.8785
koňů	-11.8785
aroer	-11.8785
kované	-11.8785
veřejí	-11.8785
lhář	-11.8785
svlak	-11.8785
achimelech	-11.8785
ebed	-11.8785
uziel	-11.8785
vojensk	-11.8786
neostojí	-11.8786
sbor	-11.8786
vtipn	-11.8786
vykládá	-11.8786
hustý	-11.8786
předložil	-11.8786
kropil	-11.8786
nevinno	-11.8786
udeř	-11.8787
panství	-11.8787
vylévá	-11.8787
vřed	-11.8787
elisam	-11.8788
hliněn	-11.8788
slitin	-11.8788
kradl	-11.8789
třtin	-11.8789
žízní	-11.8789
mirr	-11.8789
jděme	-11.879
mocnost	-11.8794
nazarejs	-11.8795
atali	-11.8795
reptá	-11.8796
sklo	-11.8797
ošklivost	-11.8797
strážné	-11.8799
odejmeš	-11.88
eliab	-11.88
nemůžeme	-11.8801
dřevěn	-11.8804
plnost	-11.8804
řvá	-11.8805
zsilil	-11.8806
nakláda	-11.8809
popatřil	-11.8812
upřímě	-11.8812
neobřízk	-11.8813
vycházející	-11.8821
rozmnožuje	-11.883
azariáše	-11.8834
svázán	-11.8835
neuzříte	-11.8835
otevřev	-11.8835
očekávání	-11.8836
povstanou	-11.8843
vadl	-11.8844
nezabije	-11.8854
enan	-11.8857
komůrk	-11.8858
proklaté	-11.8864
sáb	-11.8875
loupil	-11.8881
pokojně	-11.8889
chudob	-11.8895
najal	-11.89
přikaž	-11.8903
lituj	-11.8905
kterému	-11.8906
oslů	-11.8909
azael	-11.8917
naprost	-11.8923
eliášov	-11.8923
obcháze	-11.8925
zahanbení	-11.8931
chytil	-11.8934
jist	-11.8936
zkazím	-11.8946
spá	-11.8964
kopá	-11.8965
davidovým	-11.8975
vrátný	-11.899
potřebuje	-11.9024
zdvihn	-11.9026
absa	-11.9034
ďáblů	-11.9038
strojen	-11.9048
zbořil	-11.9058
třel	-11.9093
srn	-11.9099
prsí	-11.9104
vidoucí	-11.9136
nevzal	-11.9137
dub	-11.9137
ustav	-11.9137
strojí	-11.914
pijí	-11.9149
kár	-11.9149
hříšní	-11.9169
přídrže	-11.9174
opouštějí	-11.9179
ctít	-11.9185
hřešil	-11.9185
tajn	-11.9189
proměn	-11.9202
lámán	-11.9222
všelikým	-11.9227
posmíval	-11.9245
bojuje	-11.9256
abimelechov	-11.9258
kříd	-11.9261
berl	-11.9265
žáda	-11.9265
náman	-11.9304
zůstáva	-11.9305
obrát	-11.9315
proklat	-11.9327
velic	-11.9329
odejd	-11.933
bedrá	-11.9348
samém	-11.9352
manasse	-11.9365
dřív	-11.9371
palc	-11.9382
pela	-11.9383
slýchá	-11.9391
věříte	-11.9394
pastýřů	-11.9396
odpír	-11.9396
mardocheov	-11.9402
pohřb	-11.9405
zachvát	-11.9407
9	-11.941
eliasib	-11.941
nájemník	-11.941
obmýšl	-11.941
soukrom	-11.941
starodávna	-11.941
vysvobozuje	-11.941
žádná	-11.941
kancléř	-11.941
nařídil	-11.941
vražd	-11.941
aminadab	-11.941
hermon	-11.941
mládenče	-11.941
odtrhl	-11.941
špehéř	-11.941
laskav	-11.941
potká	-11.941
vzdálil	-11.941
zatmí	-11.941
zřízen	-11.941
astarot	-11.941
barvený	-11.941
navracuje	-11.941
získal	-11.941
hetejský	-11.941
odkryt	-11.941
zabijí	-11.941
jmění	-11.941
slovoutn	-11.9411
takoví	-11.9411
velebnost	-11.9411
vynáší	-11.9411
postižen	-11.9411
neodkryje	-11.9411
amariáš	-11.9411
hřeb	-11.9411
vyhledává	-11.9411
násilí	-11.9411
počíta	-11.9412
čistot	-11.9412
jair	-11.9412
umlk	-11.9412
amram	-11.9412
zachvátil	-11.9413
náklad	-11.9413
tesař	-11.9413
koltr	-11.9414
proměnil	-11.9414
odplatil	-11.9415
machir	-11.9416
popudil	-11.9416
třetin	-11.9417
chutn	-11.9419
vykopal	-11.9419
kamenné	-11.942
umru	-11.942
složí	-11.942
šlapa	-11.9422
kraluje	-11.9422
podnož	-11.9424
ref	-11.9424
jitře	-11.9424
lysin	-11.9431
stvořitel	-11.9431
utec	-11.9432
představen	-11.9432
přepravil	-11.9435
zkormoutil	-11.9437
dokoná	-11.9439
záva	-11.9445
kázání	-11.9454
aree	-11.9456
přešel	-11.9461
napiš	-11.9468
přistoupí	-11.9473
bránil	-11.9478
prázdné	-11.9481
svobodné	-11.9491
zdržuje	-11.9494
věřte	-11.9495
suďte	-11.9496
vyznáva	-11.9499
slouže	-11.9507
vrátí	-11.9513
vázal	-11.9514
kananejsk	-11.9518
oblibuj	-11.9529
zachova	-11.9539
jonatan	-11.9545
oga	-11.9554
pokladů	-11.9563
bezbožníků	-11.9564
železný	-11.9577
posmíva	-11.9579
dluž	-11.9603
otevřen	-11.9604
chopil	-11.9616
kaldejským	-11.9616
hleď	-11.9622
vytrhnou	-11.9623
síb	-11.9634
aronový	-11.9648
nahot	-11.9663
domníval	-11.9666
slavný	-11.9675
itamar	-11.9678
mokrý	-11.9699
oddělí	-11.9722
pavlač	-11.973
hněvá	-11.9734
rodičk	-11.9736
těžké	-11.9736
obleče	-11.9744
roboámov	-11.9747
hroz	-11.9752
bin	-11.976
marné	-11.9775
služební	-11.9803
ctil	-11.9848
očekávají	-11.985
zavře	-11.9858
lejn	-11.988
lvov	-11.9911
vstoupi	-11.9912
pij	-11.9914
síní	-11.9928
oslavuj	-11.9929
hazael	-11.9938
vcházejí	-11.9966
pořádk	-11.9973
spoj	-11.9974
vládn	-11.9988
přináleže	-11.9991
stavěj	-12.0003
slýcha	-12.0017
předcháze	-12.0036
cvičení	-12.0049
zabulonov	-12.0063
naplni	-12.0064
ukně	-12.0066
nesnáz	-12.0073
dělil	-12.0074
trpěliv	-12.0074
pozdvihš	-12.0076
podoben	-12.0076
užasn	-12.0076
6	-12.0077
achimaas	-12.0077
chytrost	-12.0077
jonadab	-12.0077
kvělte	-12.0077
nebuzardan	-12.0077
okrouhl	-12.0077
očkovat	-12.0077
přemyšlování	-12.0077
rozptyl	-12.0077
sicelech	-12.0077
artaxerx	-12.0077
chasabiáš	-12.0077
cymbál	-12.0077
gessur	-12.0077
mifibozet	-12.0077
navrácen	-12.0077
sedmnáct	-12.0077
sidrach	-12.0077
zůstávající	-12.0077
kněžské	-12.0077
náležit	-12.0077
prozpěvování	-12.0077
shlédn	-12.0077
achikamov	-12.0077
kanán	-12.0077
oblíbil	-12.0077
malkiáš	-12.0077
zůstaňte	-12.0077
achitob	-12.0077
úraz	-12.0077
elifaz	-12.0077
škřip	-12.0077
znikl	-12.0077
jechiel	-12.0077
milovní	-12.0077
tchán	-12.0077
jefon	-12.0077
oslátk	-12.0077
kvašené	-12.0077
olivetsk	-12.0077
znamenan	-12.0077
křtitel	-12.0077
obveseluj	-12.0077
gál	-12.0077
zveleben	-12.0077
eliezer	-12.0077
žernov	-12.0077
odměřen	-12.0077
zapřel	-12.0077
gázer	-12.0077
ostrý	-12.0077
přineste	-12.0077
velikonoční	-12.0077
znamená	-12.0077
větří	-12.0078
přestěhoval	-12.0078
odtrhn	-12.0078
zpomen	-12.0078
oráč	-12.0078
pominou	-12.0078
abiu	-12.0078
třimecítm	-12.0079
krmil	-12.0079
cejl	-12.0079
výstřel	-12.008
oblac	-12.0081
placu	-12.0081
vyťat	-12.0081
zavržen	-12.0082
mahan	-12.0082
mizach	-12.0084
žádají	-12.0085
nošen	-12.0086
jordánské	-12.0089
povýšil	-12.0089
téměř	-12.009
podvrátil	-12.0093
oct	-12.0093
lud	-12.0093
vypálil	-12.0094
mladic	-12.0096
povýšen	-12.0099
radují	-12.0101
vyžene	-12.0102
přirození	-12.0102
polámal	-12.0105
zavolav	-12.0107
zvelebil	-12.0108
nevinné	-12.0109
tár	-12.0115
ztratil	-12.0124
dých	-12.0127
jezdí	-12.013
milosrdný	-12.0131
skrývá	-12.0131
vyry	-12.0144
hanbě	-12.0148
stupte	-12.0152
praveno	-12.016
odchází	-12.0161
betan	-12.0171
zpíval	-12.0177
soudců	-12.0196
umělý	-12.0205
počítá	-12.0207
podolk	-12.0214
falešn	-12.0214
zbitým	-12.0215
nedostáv	-12.0226
sešl	-12.0244
rozuměj	-12.0245
příhodn	-12.0247
spomo	-12.0252
zpívání	-12.026
vzdělává	-12.0278
přímo	-12.0297
počne	-12.0311
porod	-12.0312
přejde	-12.0326
sádochov	-12.0343
sedechiášov	-12.0353
izacharov	-12.0375
nebeským	-12.0379
zpěváků	-12.042
hrazené	-12.0425
psané	-12.0447
poct	-12.0448
vztáh	-12.0456
pyt	-12.047
nepřijal	-12.0505
neopouštěj	-12.0514
třás	-12.0545
dobrot	-12.0548
počína	-12.0553
lotr	-12.0571
zanechán	-12.0573
rozepř	-12.0575
straši	-12.0587
trápi	-12.0596
lněný	-12.0605
odcházej	-12.0607
tříd	-12.0623
posadi	-12.0632
dvoje	-12.0633
posvěcené	-12.0636
hled	-12.0646
vítězí	-12.0651
založen	-12.0682
moábov	-12.0683
přikáž	-12.0689
skláněj	-12.0692
věj	-12.0694
vzácný	-12.0697
obracel	-12.07
suď	-12.0707
vysvobodit	-12.0768
marn	-12.077
zdvižen	-12.0774
koupen	-12.0783
vlastním	-12.0788
poskvrn	-12.0789
maced	-12.079
dlouhý	-12.0791
dotýkal	-12.0791
hlubší	-12.0791
jedutunov	-12.0791
klénot	-12.0791
kroužk	-12.0791
ledvink	-12.0791
neobřezanc	-12.0791
paschur	-12.0791
poblouzení	-12.0791
požehnej	-12.0791
přemyšluj	-12.0791
rozmáhal	-12.0791
rozsíval	-12.0791
sstaral	-12.0791
vlnobití	-12.0791
vyplacen	-12.0791
zžírají	-12.0791
řetízk	-12.0791
joppe	-12.0791
kareach	-12.0791
láhvic	-12.0791
rozšiř	-12.0791
selemiáš	-12.0791
zošklivil	-12.0791
bdění	-12.0791
sklonil	-12.0791
umyvadl	-12.0791
oklamal	-12.0791
moholi	-12.0791
vlékl	-12.0791
kadíval	-12.0791
pečuje	-12.0791
různice	-12.0791
zilla	-12.0791
jozabad	-12.0791
jerobál	-12.0791
pekach	-12.0791
zvolil	-12.0791
přioděl	-12.0791
saduce	-12.0791
plačte	-12.0791
olivoví	-12.0791
prvorozenství	-12.0791
barák	-12.0791
srp	-12.0791
medenic	-12.0791
kazatel	-12.0791
efron	-12.0792
odeslal	-12.0792
zmíta	-12.0792
skládal	-12.0792
spatřují	-12.0792
sežrán	-12.0792
zavírá	-12.0792
názon	-12.0792
domácí	-12.0793
nižší	-12.0793
hladovit	-12.0793
vrchnost	-12.0794
strhl	-12.0795
uschl	-12.0795
bratř	-12.0795
předěsil	-12.0795
volající	-12.0797
vzývají	-12.0797
nedvěd	-12.0799
malomocný	-12.0799
pomíj	-12.0799
zbožnost	-12.08
rohob	-12.0801
míchov	-12.0804
gitt	-12.0804
bouří	-12.0804
lazar	-12.0804
mizí	-12.0804
věrné	-12.0805
úrodné	-12.0805
zmocní	-12.0805
způsobný	-12.0805
roztrž	-12.0805
odebral	-12.0805
ulam	-12.0806
zif	-12.0807
nevcházej	-12.0807
hebrejský	-12.0808
samma	-12.081
drobt	-12.0814
postil	-12.0815
vyčten	-12.0815
lábanov	-12.0818
povinen	-12.0819
domlouval	-12.0821
silnic	-12.0822
povědí	-12.0824
prostrann	-12.0824
pevné	-12.0824
nenalézá	-12.0826
kládej	-12.0832
přemohl	-12.0833
zbořenin	-12.0833
nenechá	-12.0837
nesoucí	-12.0838
jakéž	-12.0843
vyhubil	-12.0843
přisahá	-12.0848
držící	-12.0879
posilnil	-12.0881
příhodný	-12.0894
vonným	-12.0896
zapomíná	-12.0898
mag	-12.0903
zpustn	-12.0924
předivn	-12.094
zvláštní	-12.0941
zlořečí	-12.0946
pojďte	-12.0949
eleazarov	-12.0962
poškvrň	-12.0973
obřezání	-12.0975
odpovědí	-12.1009
dávna	-12.1009
mrska	-12.1013
lichv	-12.1015
mlad	-12.1026
ezer	-12.1037
bezbožn	-12.1067
chlubil	-12.1081
vystupuj	-12.1101
posilňte	-12.1109
jh	-12.1127
styděl	-12.1127
rozličným	-12.1135
vyvyšuj	-12.1136
stromů	-12.1143
napsan	-12.1149
chodící	-12.116
obraťte	-12.1167
zubů	-12.1223
zejde	-12.1242
říman	-12.1279
dobrořečí	-12.1282
nenávidě	-12.1294
bojuj	-12.1317
uvrh	-12.1339
přecháze	-12.1346
střelc	-12.1352
lživé	-12.1365
svadb	-12.1385
rudém	-12.1394
přitáh	-12.1403
dáván	-12.1411
slušné	-12.1437
velikost	-12.1446
pout	-12.1446
jobov	-12.1451
mohu	-12.1463
nábal	-12.1466
krav	-12.1467
přepásan	-12.1482
krývá	-12.1487
rode	-12.1494
hasne	-12.1504
vložen	-12.1512
libuje	-12.1521
kazí	-12.1524
velebil	-12.154
sprostn	-12.1542
hebrej	-12.1542
oškliv	-12.1544
cké	-12.1544
šťastn	-12.1544
ochoziášov	-12.1546
zůřiv	-12.1546
daří	-12.1549
trám	-12.1555
napomen	-12.1557
vražedln	-12.156
aškalon	-12.156
dabir	-12.156
hřímání	-12.156
jezevčí	-12.156
mageddo	-12.156
možnost	-12.156
mřežování	-12.156
nejsvětější	-12.156
nejvýbornější	-12.156
nejčistší	-12.156
nestydat	-12.156
rozhojnil	-12.156
salatiel	-12.156
utrpení	-12.156
řeřavé	-12.156
bárk	-12.156
chřípí	-12.156
cizoložstv	-12.156
dražší	-12.156
eglon	-12.156
hadarezer	-12.156
hovádk	-12.156
izbozet	-12.156
jehiel	-12.156
jozadak	-12.156
lvíčat	-12.156
nemluvňátk	-12.156
obtěžoval	-12.156
ondřej	-12.156
přestěhován	-12.156
přimlouva	-12.156
senacherib	-12.156
snažnost	-12.156
trápí	-12.156
vystříhej	-12.156
ztratí	-12.156
abinadab	-12.156
jmín	-12.156
očišťuje	-12.156
pochodně	-12.156
poskvrňuj	-12.156
připojil	-12.156
sefatiáš	-12.156
směsic	-12.156
vztahuj	-12.156
zapečetěn	-12.156
zesnul	-12.156
oblec	-12.156
pobožn	-12.156
sehltil	-12.156
zapomněl	-12.156
povědom	-12.156
přepaš	-12.156
lvíče	-12.156
uložený	-12.156
vysokomysln	-12.156
mlát	-12.156
benaiáš	-12.156
vytržen	-12.156
tesané	-12.156
třesou	-12.156
snědl	-12.156
refaim	-12.156
hrdličk	-12.156
uzdravoval	-12.156
rozhněvav	-12.156
sáru	-12.1561
pohrdají	-12.1561
lékařství	-12.1561
agag	-12.1561
vyleje	-12.1561
obéd	-12.1561
bděte	-12.1561
přibližuje	-12.1561
pečen	-12.1561
slám	-12.1561
jedaiáš	-12.1561
užasnutí	-12.1561
horlení	-12.1561
sytost	-12.1561
vyvržen	-12.1561
úmysl	-12.1561
almužn	-12.1562
rošt	-12.1562
stihají	-12.1562
kolík	-12.1562
zjevuj	-12.1562
nejpřednější	-12.1562
fest	-12.1562
umýva	-12.1562
zpytuj	-12.1563
šedin	-12.1563
zemrou	-12.1563
pokládá	-12.1563
přibližoval	-12.1564
poručení	-12.1564
napomenut	-12.1564
vyvýšil	-12.1565
uzdravuj	-12.1565
vybraný	-12.1565
kohout	-12.1565
bydlejí	-12.1566
péč	-12.1566
gin	-12.1566
rafi	-12.1567
škodliv	-12.1567
iddo	-12.1568
jeter	-12.1568
přísně	-12.1569
pamětné	-12.157
oněch	-12.157
ohar	-12.1571
užívají	-12.1571
suše	-12.1572
nébo	-12.1574
slonov	-12.1575
hledající	-12.1577
nesmysln	-12.1578
tichost	-12.1578
vztažené	-12.1583
berot	-12.1585
skrej	-12.1586
vyvolený	-12.1586
vyschl	-12.1588
vyvýšenost	-12.1588
čekal	-12.1588
hrudí	-12.1591
přitáhn	-12.1592
sbírat	-12.1592
porazí	-12.1592
strd	-12.1594
sime	-12.1594
vytrhuje	-12.1596
samým	-12.16
slané	-12.1603
přitáhnou	-12.1608
štípí	-12.1608
přesný	-12.1608
hral	-12.1609
příští	-12.161
samařský	-12.1613
říkával	-12.1623
jídl	-12.1627
perský	-12.1628
široké	-12.1635
potlačen	-12.1638
seonov	-12.1647
potomků	-12.1666
odpovídal	-12.1686
povrhl	-12.1686
zelený	-12.1689
dokonalost	-12.1692
elizeov	-12.1692
odívá	-12.1705
dýl	-12.1706
rmouti	-12.1706
řezb	-12.1718
oznamte	-12.1719
bojící	-12.176
divný	-12.1788
hrá	-12.1801
kálefov	-12.1807
zboř	-12.1808
šetřte	-12.1824
neprospív	-12.1846
vyvolené	-12.1847
idumej	-12.1865
zachariášov	-12.1867
proměnn	-12.1869
zrnatý	-12.1903
vadil	-12.1904
pravte	-12.1909
lesní	-12.1918
nehřešil	-12.1923
připravte	-12.1924
ibla	-12.1931
hinn	-12.1941
přistupují	-12.1943
zavří	-12.1955
prodával	-12.1987
eret	-12.1991
léha	-12.2004
sud	-12.2005
falešné	-12.202
vyznával	-12.2032
letěl	-12.2047
opustiv	-12.2048
dědi	-12.2081
sirob	-12.2106
honiti	-12.2109
assyrském	-12.211
kvílil	-12.2155
svědků	-12.2158
soužen	-12.2161
rozváza	-12.2184
kažte	-12.2189
devát	-12.2201
valil	-12.2214
sedmdesát	-12.2217
doufal	-12.2229
odpovídá	-12.2229
vejd	-12.2235
lítost	-12.2244
říma	-12.2255
efrat	-12.2256
povrh	-12.2259
šimonov	-12.2287
zdržuj	-12.2287
vzýva	-12.2295
jedenácté	-12.2296
achitofel	-12.2302
uchyl	-12.2306
čuj	-12.2351
kormoutil	-12.2357
jednostejný	-12.2365
ananiáš	-12.237
přívětiv	-12.2384
blíz	-12.2387
hojněj	-12.2388
konává	-12.2388
lékař	-12.2393
oplýv	-12.2393
agripp	-12.2394
bodlák	-12.2394
eliakim	-12.2394
frejíř	-12.2394
magdalén	-12.2394
mataniáš	-12.2394
nazarét	-12.2394
nejposlednější	-12.2394
obkličuj	-12.2394
obřezal	-12.2394
pečliv	-12.2394
postoupil	-12.2394
posvěťte	-12.2394
povinnost	-12.2394
salmon	-12.2394
schovej	-12.2394
slunečn	-12.2394
ssouží	-12.2394
sstoupiv	-12.2394
tvrď	-12.2394
vysvobozoval	-12.2394
vzdychá	-12.2394
vážnost	-12.2394
čtverhran	-12.2394
cizozemk	-12.2394
doufanliv	-12.2394
gomer	-12.2394
hýbe	-12.2394
jazer	-12.2394
obláče	-12.2394
přisáhn	-12.2394
prodléva	-12.2394
vypálen	-12.2394
šafář	-12.2394
prodlil	-12.2394
pravidl	-12.2394
rozpomíná	-12.2394
umínil	-12.2394
pekař	-12.2394
salmun	-12.2394
tělesné	-12.2394
amalechitský	-12.2394
zbohatl	-12.2394
svěřen	-12.2394
dotíra	-12.2394
hrnul	-12.2394
zebah	-12.2394
osvědčuji	-12.2394
cháran	-12.2394
plačíc	-12.2394
ponižuje	-12.2394
dágon	-12.2394
ofir	-12.2394
neposlechl	-12.2394
maličké	-12.2394
blízké	-12.2394
zacpá	-12.2394
pošlapal	-12.2394
ornan	-12.2394
bubn	-12.2394
domlouvání	-12.2394
tyrský	-12.2394
tělesný	-12.2394
chlup	-12.2394
lotřík	-12.2394
zafir	-12.2394
barev	-12.2394
arbe	-12.2394
zaplet	-12.2395
smíšen	-12.2395
prokřikuj	-12.2395
vyplatí	-12.2395
poznej	-12.2395
pytlík	-12.2395
apoll	-12.2395
horlil	-12.2395
mouřenínské	-12.2395
plané	-12.2396
povstávající	-12.2396
popouzejíc	-12.2396
úsil	-12.2396
pochováva	-12.2396
poskvrněn	-12.2396
haněl	-12.2396
štěpuj	-12.2397
obloží	-12.2397
zpustl	-12.2398
yzop	-12.2398
ponižova	-12.2399
vzdejte	-12.2399
mdlý	-12.24
vykonáván	-12.24
hříšný	-12.24
pěší	-12.24
dedan	-12.24
červeno	-12.24
samařské	-12.2402
divok	-12.2402
galádské	-12.2403
agge	-12.2404
povolil	-12.2405
bezpráv	-12.2405
poďme	-12.2406
včer	-12.2407
zůřivost	-12.2409
tažené	-12.2409
chválení	-12.2409
tluče	-12.241
přiblíží	-12.2411
vykláda	-12.2414
pravdomluvný	-12.2415
nahý	-12.2415
vyslýchá	-12.242
stihá	-12.2421
odejdou	-12.2423
válečný	-12.2424
zvýšen	-12.2427
znamenité	-12.2427
zjeví	-12.2431
vyplati	-12.2441
trpící	-12.2442
lišk	-12.2445
addai	-12.2449
nezapomínej	-12.2453
pohrdal	-12.2457
obživuje	-12.2461
okusil	-12.2466
lvů	-12.2474
spasi	-12.2481
nazov	-12.2482
přijav	-12.2482
zvláš	-12.249
patro	-12.2503
nahé	-12.2508
levítský	-12.2518
řemesl	-12.2523
zrn	-12.2526
hefer	-12.2544
osel	-12.2565
beniaminský	-12.2571
předlož	-12.2573
rudé	-12.2579
galádský	-12.2603
nasyti	-12.2631
pár	-12.2634
godoliášov	-12.2637
obededom	-12.2645
svobodný	-12.2693
herodesov	-12.2695
lítostivý	-12.2707
falešný	-12.2744
snášel	-12.2822
raim	-12.2824
baan	-12.2824
očekává	-12.2836
utvrdí	-12.2838
táhně	-12.2843
dutí	-12.2848
podstav	-12.2863
pokouše	-12.2879
satanov	-12.288
bílý	-12.2883
hnut	-12.2901
oboř	-12.2939
mešká	-12.2942
prázdný	-12.2956
domníva	-12.2962
zrozen	-12.2963
střeš	-12.2988
nastroj	-12.3018
vzkláda	-12.302
požehnán	-12.3028
vepř	-12.3054
zpívá	-12.3056
úředníků	-12.3062
připomínán	-12.3089
socho	-12.3091
safan	-12.3094
osvěcuje	-12.3119
faleš	-12.3156
poslouchej	-12.3171
procháze	-12.3185
sbír	-12.3189
tažení	-12.319
hubi	-12.3198
zapomen	-12.3221
hlédal	-12.3226
rozmnožuj	-12.3232
směn	-12.3246
opováž	-12.3251
joach	-12.3259
člověč	-12.3281
pěš	-12.3296
kupova	-12.3299
barabbáš	-12.3303
hořejší	-12.3303
iškariotsk	-12.3303
jebuzejský	-12.3303
konečně	-12.3303
netinejský	-12.3303
nábožn	-12.3303
odpočívá	-12.3303
poctivost	-12.3303
rozrážel	-12.3303
rozšířil	-12.3303
samaritán	-12.3303
spuntoval	-12.3303
tvárnost	-12.3303
utrhač	-12.3303
vystoupil	-12.3303
vzýván	-12.3303
zachvácen	-12.3303
zatracen	-12.3303
zřídil	-12.3303
belzebub	-12.3303
ferezejské	-12.3303
haklík	-12.3303
melchisedech	-12.3303
ošemetn	-12.3303
dibon	-12.3303
holoubát	-12.3303
lačné	-12.3303
navracují	-12.3303
pamatoval	-12.3303
ukrutní	-12.3303
onychin	-12.3303
posvátn	-12.3303
zbaven	-12.3303
potěšuj	-12.3303
vlekou	-12.3303
upevnil	-12.3303
zichr	-12.3303
trefil	-12.3303
hluboké	-12.3303
zabad	-12.3303
moloch	-12.3303
potěší	-12.3303
vyprázdní	-12.3303
zpolehl	-12.3303
vznášel	-12.3303
rezin	-12.3303
tvor	-12.3303
moudřejší	-12.3303
žehrání	-12.3303
skutečn	-12.3303
ukryt	-12.3304
zohav	-12.3304
vypravován	-12.3304
několik	-12.3304
poselství	-12.3304
povstanu	-12.3304
padš	-12.3304
zpořádan	-12.3304
padesátník	-12.3304
zlatník	-12.3304
chanun	-12.3304
neduživ	-12.3304
spatřuje	-12.3304
nahradí	-12.3305
nutil	-12.3305
zachovávej	-12.3305
ammonitské	-12.3305
probodn	-12.3305
médský	-12.3305
spomohl	-12.3305
nepozůstavil	-12.3306
jebuze	-12.3306
pilnost	-12.3306
leniv	-12.3307
procítí	-12.3307
prudc	-12.3307
usvadl	-12.3307
křest	-12.3307
enakov	-12.3308
rozprostřel	-12.3309
snáze	-12.3309
páše	-12.3309
přinutil	-12.3309
pohřben	-12.331
pokoušín	-12.331
věští	-12.3311
žíznivé	-12.3311
rozpustil	-12.3312
rozmlouval	-12.3313
přežív	-12.3313
čelist	-12.3316
stará	-12.3316
machat	-12.3317
škodil	-12.3317
odpíral	-12.3317
joachin	-12.3318
mdlob	-12.3321
odjímá	-12.3326
tínal	-12.3327
acován	-12.3327
vrš	-12.3328
nakládá	-12.333
různ	-12.3332
vyučoval	-12.3337
upřímost	-12.3343
milující	-12.3343
zadk	-12.3346
přísný	-12.3351
sodomský	-12.3364
):	-12.339
osvědčuje	-12.3404
sbírá	-12.3408
procházel	-12.3422
kamenova	-12.343
másl	-12.3431
žaloval	-12.3432
chtíc	-12.3447
kamenný	-12.3459
ívejte	-12.3462
kryje	-12.3462
poseká	-12.3468
spěšně	-12.347
michm	-12.3478
bydle	-12.3506
kananej	-12.3509
rozešl	-12.3516
iknutí	-12.3531
helkiášov	-12.3544
balákov	-12.3548
scházel	-12.3623
umělé	-12.3623
jměte	-12.3666
svárliv	-12.3694
volává	-12.3722
pouh	-12.3723
scháze	-12.3726
semaiášov	-12.3731
vyvyšova	-12.3753
násiln	-12.3777
ložte	-12.3875
dvojí	-12.3877
obětujíc	-12.3882
rlivý	-12.3896
roztáhn	-12.39
vzděláva	-12.3925
mlouvá	-12.3978
tlačí	-12.3986
pracova	-12.4017
kozelc	-12.4032
siln	-12.4043
přirozen	-12.4048
zabít	-12.4053
postavuj	-12.4061
joakimov	-12.4067
uchýli	-12.4068
znamenitý	-12.4075
nevycházej	-12.4076
podol	-12.4115
zahladi	-12.4122
vypůjč	-12.4163
zavrh	-12.4174
posilni	-12.4178
rce	-12.418
koupi	-12.4185
ožené	-12.4189
milosrdn	-12.422
joasov	-12.4233
přátelsk	-12.4251
žral	-12.4255
peníz	-12.4269
těšil	-12.4286
silil	-12.429
důstojn	-12.4291
áčk	-12.4297
povstávají	-12.43
plazí	-12.4302
nedbá	-12.4303
tessaloni	-12.4303
abiezer	-12.4303
dosáhne	-12.4303
dštil	-12.4303
fanuel	-12.4303
jerachmeel	-12.4303
napomínám	-12.4303
nazaretský	-12.4303
nejznamenitější	-12.4303
obláčí	-12.4303
ospravedlňuje	-12.4303
pekelné	-12.4303
posluhoval	-12.4303
požřel	-12.4303
prokřikování	-12.4303
přisluhující	-12.4303
vystoupí	-12.4303
zlostníků	-12.4303
zůstávej	-12.4303
abiron	-12.4303
arfaxad	-12.4303
nakloněn	-12.4303
napomínej	-12.4303
netofatský	-12.4303
odpočine	-12.4303
pohybuj	-12.4303
překážk	-12.4303
rozráží	-12.4303
rychlý	-12.4303
salfad	-12.4303
sanballat	-12.4303
ukrutnost	-12.4303
ukřižuj	-12.4303
vzezře	-12.4303
věšťc	-12.4303
alžbět	-12.4303
beor	-12.4303
hevejské	-12.4303
natahují	-12.4303
odkryl	-12.4303
procítil	-12.4303
sofoniáš	-12.4303
stavitel	-12.4303
zvěstován	-12.4303
berechiáš	-12.4303
sevřín	-12.4303
tekoucí	-12.4303
tlust	-12.4303
vyňal	-12.4303
elifele	-12.4303
potvrzuj	-12.4303
vyčistil	-12.4303
debor	-12.4303
immer	-12.4303
jerocham	-12.4303
strakat	-12.4303
vyplněn	-12.4303
plésající	-12.4303
rozvažuj	-12.4303
slitováv	-12.4303
nepohne	-12.4303
otvíral	-12.4303
užasl	-12.4303
vyložil	-12.4303
amalechitské	-12.4303
odplace	-12.4303
nalézají	-12.4303
michael	-12.4303
obcoval	-12.4303
spikl	-12.4303
peřest	-12.4303
rozeslal	-12.4303
shladil	-12.4303
postihl	-12.4303
rozhlá	-12.4303
vařil	-12.4303
pozvan	-12.4303
úsud	-12.4303
rybář	-12.4303
fíkoví	-12.4303
jedovat	-12.4303
gerar	-12.4304
obloh	-12.4304
libost	-12.4304
afek	-12.4304
híra	-12.4304
povstává	-12.4304
zahnan	-12.4304
vápn	-12.4304
uloženo	-12.4304
zabíjel	-12.4305
usiloval	-12.4305
záplat	-12.4305
úheln	-12.4305
lebk	-12.4305
heve	-12.4305
hlídal	-12.4305
panenství	-12.4305
amiud	-12.4305
polehč	-12.4306
sidonské	-12.4306
vichr	-12.4306
hází	-12.4306
převrací	-12.4306
slité	-12.4307
vyřkl	-12.4307
strčil	-12.4307
ofr	-12.4307
gedeonov	-12.4307
spojil	-12.4307
uzdravován	-12.4308
přenesen	-12.4308
hnát	-12.4309
smýk	-12.431
želel	-12.431
tesal	-12.431
zhrozi	-12.431
dátan	-12.4311
vykonán	-12.4312
eremot	-12.4313
pozdravil	-12.4315
osnov	-12.4315
poběhn	-12.4317
vsát	-12.4318
liter	-12.4324
kladiv	-12.4324
modlář	-12.4336
libé	-12.4344
lekej	-12.4361
přemyšloval	-12.437
krmn	-12.4373
hrud	-12.4381
sidonský	-12.4382
slunc	-12.4391
poškvrňuje	-12.4393
lakom	-12.4405
odpovídajíc	-12.4416
svírá	-12.4417
bojujíc	-12.4421
neuvěří	-12.4423
leká	-12.4469
nechej	-12.4491
marij	-12.4501
spravuje	-12.4531
dvanácter	-12.4591
vytlač	-12.4629
joiadov	-12.4656
strn	-12.4672
jakubov	-12.4679
nobe	-12.4732
líst	-12.4763
uriášov	-12.4778
následujíc	-12.4791
pěkný	-12.4874
pustiná	-12.49
víčk	-12.4989
gersonový	-12.4995
lapá	-12.501
prospíva	-12.5012
pilátov	-12.509
idumejsk	-12.512
otazuj	-12.5122
hřivn	-12.513
prorokova	-12.5151
očekáva	-12.5201
povoluj	-12.5215
izaiášov	-12.5222
odměn	-12.5293
širok	-12.5302
hynul	-12.5325
tratil	-12.5334
troji	-12.5363
sichemsk	-12.5369
vysyp	-12.5377
spravova	-12.5377
ittai	-12.5394
gomor	-12.5406
krývej	-12.5414
prašiv	-12.5414
azmavet	-12.5414
biskup	-12.5414
bodláčí	-12.5414
cizoložil	-12.5414
cypru	-12.5414
dvořan	-12.5414
felix	-12.5414
jerimot	-12.5414
korint	-12.5414
nazaretské	-12.5414
nejdalší	-12.5414
obtížil	-12.5414
peleší	-12.5414
pochovej	-12.5414
potáhnu	-12.5414
prostěradl	-12.5414
přepásal	-12.5414
přilnul	-12.5414
příjmí	-12.5414
rabsace	-12.5414
rozchváta	-12.5414
rozličné	-12.5414
soumrak	-12.5414
stkvěl	-12.5414
usmrcen	-12.5414
ušlechtil	-12.5414
zahlazen	-12.5414
zahlaď	-12.5414
zasnouben	-12.5414
zebadiáš	-12.5414
útočišťn	-12.5414
šupin	-12.5414
židovstv	-12.5414
bathuel	-12.5414
dchnutí	-12.5414
děkuji	-12.5414
galilejský	-12.5414
kaifáš	-12.5414
přispěj	-12.5414
služebnost	-12.5414
vyhlásil	-12.5414
zbouřil	-12.5414
lehčej	-12.5414
odloučil	-12.5414
rozplýv	-12.5414
vzbuzuj	-12.5414
šibenic	-12.5414
modrý	-12.5414
napájel	-12.5414
ohlásil	-12.5414
strašliv	-12.5414
sáron	-12.5414
udávené	-12.5414
ukamenován	-12.5414
zahanbil	-12.5414
zebedeov	-12.5414
kortýn	-12.5414
povinni	-12.5414
snažně	-12.5414
díkčinění	-12.5414
modliteb	-12.5414
podroben	-12.5414
ponukl	-12.5414
vsazen	-12.5414
vyměřený	-12.5414
kvapn	-12.5414
těžší	-12.5414
betsan	-12.5414
pacholátk	-12.5414
odvrátiv	-12.5414
zmařen	-12.5414
kovář	-12.5414
stkvoucí	-12.5414
dokazuj	-12.5414
ségor	-12.5414
mladistv	-12.5414
sesák	-12.5414
udělaný	-12.5414
ovčinc	-12.5414
přepásán	-12.5414
spatřoval	-12.5414
zdržoval	-12.5414
vyléval	-12.5414
jachin	-12.5414
pacholík	-12.5414
posvěcován	-12.5414
vyhnán	-12.5414
procítiv	-12.5414
pelyn	-12.5414
ryšav	-12.5414
mezky	-12.5414
obrub	-12.5414
vláč	-12.5414
rynk	-12.5414
obdařil	-12.5414
hvězdář	-12.5414
jiskr	-12.5415
červené	-12.5415
zapuz	-12.5415
ochran	-12.5415
lůžk	-12.5415
svržen	-12.5415
zakur	-12.5415
proklíná	-12.5415
javan	-12.5416
dlouhoček	-12.5416
čár	-12.5416
závazk	-12.5416
lační	-12.5416
oblek	-12.5416
médské	-12.5416
bojovníků	-12.5416
ukládal	-12.5416
cedul	-12.5416
nejhorší	-12.5417
hádání	-12.5417
vážit	-12.5417
poslaný	-12.5417
rechum	-12.5417
sevřen	-12.5417
ostré	-12.5417
šaf	-12.5418
lopat	-12.5418
povolaný	-12.5421
spustl	-12.5421
míval	-12.5422
povržen	-12.5422
sehltí	-12.5422
aravn	-12.5423
vařen	-12.5423
usilují	-12.5423
gomorský	-12.5424
štěpova	-12.5427
přívětivost	-12.5427
pozdvihoval	-12.5433
neuchyluj	-12.5437
sprostnost	-12.5441
zmordovan	-12.5448
zámk	-12.5451
jemin	-12.5455
srst	-12.5457
nabyt	-12.5475
tekut	-12.548
halž	-12.5484
udic	-12.5491
vyvyš	-12.5509
beránkov	-12.5513
úrok	-12.552
jetro	-12.5526
adamov	-12.5526
prorocký	-12.5532
šťuj	-12.5536
netaj	-12.5559
bálů	-12.5578
točen	-12.558
nábalov	-12.558
rzí	-12.5585
roztažen	-12.5586
koukol	-12.5603
strhn	-12.5622
rozmlouv	-12.5693
nepřistupuj	-12.577
prošed	-12.5819
očekávajíc	-12.582
konej	-12.5841
hémanov	-12.5842
chíramov	-12.5865
křičíc	-12.5872
samsonov	-12.5897
městeč	-12.5934
zrost	-12.595
rmut	-12.5967
sloužíc	-12.5983
rozličný	-12.6073
hlíd	-12.6073
táří	-12.6109
skočil	-12.612
dravý	-12.6149
přejd	-12.6162
rozdvoj	-12.6186
zachovává	-12.6198
héman	-12.62
amonov	-12.6222
obededomov	-12.629
sytil	-12.6311
pochyti	-12.6346
připomína	-12.6361
přisah	-12.6392
závidě	-12.6478
zmocni	-12.6525
uloží	-12.6546
přísluš	-12.6554
rozehna	-12.6559
zjevi	-12.6607
abba	-12.663
půjčova	-12.6643
vybír	-12.6652
slal	-12.6661
nazůveš	-12.6664
skropen	-12.6664
abdon	-12.6664
estaol	-12.6664
hadadezer	-12.6664
hevejský	-12.6664
manahem	-12.6664
napomínání	-12.6664
nehemiáš	-12.6664
nepoškvrňujte	-12.6664
očekávej	-12.6664
přikrývající	-12.6664
pšeničn	-12.6664
serebiáš	-12.6664
stižiteln	-12.6664
svrhl	-12.6664
ukrutné	-12.6664
ukrutný	-12.6664
vinobraní	-12.6664
vrchoviště	-12.6664
vyhlaď	-12.6664
vyhlášen	-12.6664
vysušil	-12.6664
vzteklost	-12.6664
zmínk	-12.6664
čarodějník	-12.6664
šlepějí	-12.6664
špižírn	-12.6664
šňůr	-12.6664
chámos	-12.6664
dráždil	-12.6664
horlivě	-12.6664
kadmiel	-12.6664
nepohnuteln	-12.6664
olibam	-12.6664
ospravedlni	-12.6664
pochytí	-12.6664
podmaněn	-12.6664
potýkal	-12.6664
prozřetelnost	-12.6664
rozsevač	-12.6664
sechaniáš	-12.6664
selomit	-12.6664
středmost	-12.6664
sunamitsk	-12.6664
trvánliv	-12.6664
ublíži	-12.6664
uctivost	-12.6664
vykořeněn	-12.6664
vyvýší	-12.6664
zamítá	-12.6664
políbení	-12.6664
spuštěn	-12.6664
tarsis	-12.6664
utrhají	-12.6664
čarodějníc	-12.6664
akkub	-12.6664
elamitské	-12.6664
průduch	-12.6664
utvrzuj	-12.6664
zběř	-12.6664
bezeleel	-12.6664
mandlov	-12.6664
nalézal	-12.6664
polékl	-12.6664
trůsk	-12.6664
řvoucí	-12.6664
pléše	-12.6664
roznícen	-12.6664
očišťova	-12.6664
podrobil	-12.6664
zabdi	-12.6664
uvázl	-12.6664
korneli	-12.6664
vtrhl	-12.6664
dráč	-12.6664
knížatstv	-12.6664
pobělav	-12.6664
obával	-12.6664
sukní	-12.6664
mošn	-12.6664
protivníci	-12.6664
důvod	-12.6664
gergeze	-12.6664
sňal	-12.6664
spřízn	-12.6664
jabín	-12.6664
hnoje	-12.6664
prociť	-12.6664
edre	-12.6665
zmítá	-12.6665
heg	-12.6665
zpour	-12.6665
zláman	-12.6665
plavc	-12.6665
vyvolí	-12.6665
zahanbí	-12.6665
nepomine	-12.6665
držán	-12.6665
uposlechnou	-12.6666
zpoléh	-12.6666
husté	-12.6668
adaiáš	-12.667
stodol	-12.6671
samotn	-12.6671
pater	-12.6673
mazal	-12.6675
setřín	-12.6676
umírají	-12.6676
zemdlív	-12.6676
tlesk	-12.6676
kouzl	-12.6678
postel	-12.6684
jobab	-12.6685
připodobněn	-12.6688
chamov	-12.6689
zvěše	-12.6695
abib	-12.6709
vytyl	-12.6734
tajil	-12.6734
dlážen	-12.6737
zpytov	-12.6753
nenašl	-12.677
zapřáh	-12.6777
přestan	-12.678
achitofelov	-12.6805
zanítí	-12.6838
odkryj	-12.6864
dásní	-12.6895
hazaelov	-12.6943
okř	-12.6992
shromáždě	-12.7103
stavoval	-12.7126
bořen	-12.7146
plynul	-12.7148
pálenin	-12.7181
měděn	-12.7226
chvátá	-12.7271
slab	-12.7288
rozděluj	-12.7328
filipov	-12.7427
nebud	-12.749
plaví	-12.7597
ustanovuj	-12.7599
obejd	-12.7642
přisluhova	-12.7679
blahoslav	-12.7711
sšikova	-12.777
lovat	-12.7853
potka	-12.7908
potlač	-12.7944
odcháze	-12.7947
énka	-12.7971
odcházejíc	-12.7971
pachol	-12.8031
pravdomluvn	-12.8055
výšil	-12.8056
půjčuj	-12.8062
posílá	-12.8066
zbožn	-12.8073
jednomysln	-12.8077
machirov	-12.8078
amorej	-12.8082
zpronevěř	-12.8085
přibliž	-12.8085
stěhoval	-12.809
2:1	-12.8092
balsazar	-12.8092
baltazar	-12.8092
chřípě	-12.8092
cinejské	-12.8092
drážděn	-12.8092
měšťan	-12.8092
náboženství	-12.8092
průchod	-12.8092
rozprostíra	-12.8092
ssoužil	-12.8092
umývání	-12.8092
vymýšle	-12.8092
vzložil	-12.8092
x	-12.8092
alexand	-12.8092
břitv	-12.8092
ceneret	-12.8092
chvalitebn	-12.8092
dosáhnou	-12.8092
gamaliel	-12.8092
krkavc	-12.8092
mahalaleel	-12.8092
mattitiáš	-12.8092
matuzalém	-12.8092
meraiot	-12.8092
neokusí	-12.8092
plátn	-12.8092
pohrůžk	-12.8092
pospíchal	-12.8092
požívající	-12.8092
prodlévá	-12.8092
předkládám	-12.8092
převyšuje	-12.8092
rozhojňuj	-12.8092
rozprostírá	-12.8092
sebaniáš	-12.8092
sefarvaim	-12.8092
shlazen	-12.8092
simron	-12.8092
snášelivost	-12.8092
střízliv	-12.8092
uchvátil	-12.8092
zapečeť	-12.8092
zavěsil	-12.8092
zstaral	-12.8092
devatenáct	-12.8092
jarmar	-12.8092
klobouk	-12.8092
krmičk	-12.8092
peleg	-12.8092
𐊼	-13.1759
𐊣	-13.1759
#	-13.7592
]	-14.2588
!	-14.2589
?	-14.259
;	-14.2591
,	-14.2592
