<pad>	0
</s>	0
<unk>	0
▁¦	-0
▁်	-1
ို	-2
ော	-3
▁့	-4
ား	-5
ကို	-6
▁့်	-7
တို	-8
သည	-9
သော	-10
ကြ	-11
ရှ	-12
▁၊	-13
တော	-14
ပြ	-15
▁၏	-16
ောင	-17
သူ	-18
နှ	-19
▁၏။	-20
ြင	-21
မျ	-22
မှ	-23
ုရ	-24
မူ	-25
ောက	-26
ဘုရ	-27
သို	-28
ိမ	-29
ငါ	-30
ီး	-31
မည	-32
မြ	-33
နှင	-34
▁်၊	-35
ေး	-36
သင	-37
ိုး	-38
ဘုရား	-39
လျ	-40
ကျ	-41
▁၍	-42
▁။	-43
ရှိ	-44
ခြင	-45
ထို	-46
ုံ	-47
ဖြ	-48
သား	-49
ရာ	-50
ဟု	-51
ပါ	-52
ချ	-53
▁်။	-54
ေါ	-55
စေ	-56
ွန	-57
▁္	-58
▁်၍	-59
▁်၏	-60
ဖြစ	-61
ကား	-62
လည	-63
သူတို	-64
ုပ	-65
ာဝ	-66
နေ	-67
ထာဝ	-68
ထာဝရ	-69
ကြောင	-70
မျိုး	-71
လူ	-72
ိန	-73
လျှ	-74
ထာဝရဘုရား	-75
ွင	-76
ပေါ	-77
??	-78
အား	-79
▁်၌	-80
မြို	-81
ိတ	-82
ခင	-83
ုန	-84
ုံး	-85
အဘ	-86
အခ	-87
အမျိုး	-88
လော	-89
ွား	-90
ရှင	-91
သခင	-92
ိုင	-93
ကိုယ	-94
ပြု	-95
ုတ	-96
▁၌	-97
မှာ	-98
ရေ	-99
ကျွန	-100
လျှင	-101
သက	-102
လိမ	-103
များ	-104
းကို	-105
ပြည	-106
တည	-107
တိုင	-108
လျက	-109
လေ	-110
ဖြင	-111
ခံ	-112
မိန	-113
သောသူ	-114
ကြီး	-115
ဘုရားသခင	-116
▁၍၊	-117
ဆို	-118
ငှ	-119
သွား	-120
မျှ	-121
ကောင	-122
ရှေ	-123
တွင	-124
လက	-125
အခါ	-126
ထား	-127
ွေ	-128
လာ	-129
ငှါ	-130
အမှ	-131
သန	-132
ိုက	-133
▁်၍၊	-134
▁့။	-135
▁့်၊	-136
ပေး	-137
အပေါ	-138
ွှ	-139
အလ	-140
းတို	-141
ပြီ	-142
ွက	-143
အရ	-144
မင	-145
အဘယ	-146
အာ	-147
သရေ	-148
သေ	-149
▁်၏။	-150
အကြောင	-151
တတ	-152
ယေ	-153
အကျွန	-154
????	-155
းငှါ	-156
းသော	-157
တရ	-158
နှစ	-159
အစ	-160
မိမ	-161
ွာ	-162
လင	-163
းမ	-164
▁၎	-165
အမှု	-166
နာ	-167
ဣသရေ	-168
▁့၌	-169
ဣသရေလ	-170
ရောက	-171
မိမိ	-172
မြင	-173
ပြစ	-174
သာ	-175
ပြော	-176
ရမည	-177
တောင	-178
စား	-179
းက	-180
သားတို	-181
အပေါင	-182
အရာ	-183
ူး	-184
ကာ	-185
တရား	-186
ွေး	-187
ပြီး	-188
စကား	-189
ယောက	-190
မူကား	-191
ပျ	-192
မီး	-193
နိုင	-194
ယဇ	-195
ဆင	-196
ဝိ	-197
ငါတို	-198
သတ	-199
နား	-200
စာ	-201
ွဲ	-202
မျက	-203
ဘုရင	-204
အရပ	-205
ဆောင	-206
ရှု	-207
သဖြင	-208
လုံး	-209
ပင	-210
အသက	-211
▁့၏	-212
သမျှ	-213
ဖန	-214
အပြစ	-215
ထဲ	-216
လှ	-217
▁့၊	-218
စွာ	-219
လွှ	-220
သောအခါ	-221
ရင	-222
အသ	-223
အတိုင	-224
ဟူ	-225
သိ	-226
ခြ	-227
စိတ	-228
ရှိသော	-229
မြေ	-230
ပြန	-231
ကဲ	-232
စုံ	-233
ထောင	-234
ယော	-235
အချ	-236
ငါသည	-237
ပါး	-238
ပည	-239
ွယ	-240
မိ	-241
ယူ	-242
▁်္	-243
စေခြင	-244
နောက	-245
ရဲ	-246
တံ	-247
ဘက	-248
ရသော	-249
ကြလော	-250
ခေါ	-251
သူသည	-252
အိမ	-253
အောင	-254
ကြလိမ	-255
တိ	-256
ဣသရေလအမျိုး	-257
လမ	-258
ာန	-259
ကြား	-260
ထံ	-261
မူသော	-262
ခါ	-263
နည	-264
လူတို	-265
ကြည	-266
စီ	-267
လိုက	-268
တဖန	-269
ရု	-270
တူ	-271
ထွက	-272
ရော	-273
မူသည	-274
အားဖြင	-275
ဘဲ	-276
းတော	-277
ဆယ	-278
နှုတ	-279
ရိ	-280
ုဒ	-281
လုပ	-282
ထိုသို	-283
စစ	-284
မော	-285
ထာဝရဘုရားသည	-286
ပြင	-287
တင	-288
းကင	-289
ဝင	-290
ယုဒ	-291
သနည	-292
စီရင	-293
လွှတ	-294
ကျင	-295
တန	-296
များကို	-297
သိမ	-298
ခု	-299
ပူ	-300
လု	-301
ိပ	-302
တပါး	-303
ဒါ	-304
ကလည	-305
ဟုတ	-306
ပတ	-307
ဘော	-308
တု	-309
ဇော	-310
းကြီး	-311
ာဉ	-312
ရကြ	-313
ဝတ	-314
စောင	-315
မာ	-316
ရစ	-317
တယောက	-318
မူပါ	-319
ညီ	-320
ချင	-321
????????	-322
ဦး	-323
ခဲ	-324
ကာလ	-325
ွတ	-326
မရှိ	-327
ရှိသမျှ	-328
ထက	-329
မဟုတ	-330
စကားကို	-331
မေ	-332
သောသူတို	-333
ပူဇော	-334
လျှောက	-335
ကယ	-336
ရှာ	-337
မတ	-338
ယာ	-339
သောကြောင	-340
တိုက	-341
ဆုံး	-342
မြောက	-343
ယေရှု	-344
သတည	-345
ဟိတ	-346
တက	-347
ဖျ	-348
ဝိဒ	-349
ဒါဝိဒ	-350
ပြီးမှ	-351
အဘို	-352
အရှင	-353
ဝေး	-354
တမ	-355
ဗာ	-356
▁့်။	-357
ထိုအခါ	-358
စရာ	-359
သောသူသည	-360
အပ	-361
အို	-362
ပုရ	-363
သုံး	-364
ရက	-365
ညာဉ	-366
ပုရော	-367
ခြေ	-368
ဘေး	-369
အသီး	-370
ကျေး	-371
းမူကား	-372
အန	-373
ရန	-374
ကိုလည	-375
ပုရောဟိတ	-376
အမျိုးသား	-377
ကြံ	-378
ငယ	-379
အမှုကို	-380
းသည	-381
မုန	-382
ကျေးဇ	-383
ရွှ	-384
ဘို	-385
အတူ	-386
ဟော	-387
ဆက	-388
ိလ	-389
းသို	-390
စည	-391
အံ	-392
စင	-393
သစ	-394
နှာ	-395
ဟာ	-396
ခံရ	-397
စု	-398
ယေရု	-399
းနှင	-400
ွမ	-401
▁????????	-402
လေး	-403
းဟူ	-404
တွေ	-405
ကြောက	-406
ရှလင	-407
မောရှေ	-408
းဟု	-409
ထင	-410
ရပ	-411
အစဉ	-412
ဇာ	-413
အဲ	-414
မေး	-415
ဆီး	-416
ဝါ	-417
ပြီးလျှင	-418
နေရာ	-419
မို	-420
မိုဃ	-421
သမီး	-422
ဂုတ	-423
ဖျက	-424
အလို	-425
အဲဂုတ	-426
မက	-427
ကြပါ	-428
ပေးတော	-429
ပယ	-430
စီး	-431
အခွင	-432
မှီ	-433
ပျက	-434
များတို	-435
ငံ	-436
သိုး	-437
တံခါ	-438
ဖြောင	-439
ယေရုရှလင	-440
ထံသို	-441
ထဲက	-442
ရှော	-443
ပလ	-444
နက	-445
အခြ	-446
အမ	-447
သလော	-448
ကျေးဇူး	-449
မှစ	-450
ဖက	-451
အလွန	-452
ကျောက	-453
ဝမ	-454
မြစ	-455
ချီး	-456
ဟေ	-457
သကဲ	-458
အောက	-459
ားသော	-460
ရှိသည	-461
ထိုသူ	-462
စဉ	-463
ချက	-464
မှတ	-465
အုပ	-466
မြေကြီး	-467
ရိုက	-468
စေတော	-469
သံ	-470
တကွ	-471
ဝိညာဉ	-472
တပ	-473
းပ	-474
ဒု	-475
နှလုံး	-476
ပညတ	-477
အချိန	-478
ခန	-479
ယုံ	-480
ခရစ	-481
တာ	-482
ခုန	-483
ပရော	-484
ယခု	-485
ငြ	-486
ဥစ	-487
ရိမ	-488
ုလ	-489
ွံ	-490
ိုလ	-491
အကျ	-492
ရွှေ	-493
ထိုသူတို	-494
အမျိုးသားတို	-495
စေလွှတ	-496
းခြင	-497
ရှို	-498
းဟူသော	-499
နန	-500
ပြား	-501
ပရောဖက	-502
နားထောင	-503
ပေ	-504
ငွေ	-505
▁့်၍	-506
ဝန	-507
ရှား	-508
ထုတ	-509
ခိုး	-510
စိုး	-511
စေသော	-512
ဗိမ	-513
ဗိုလ	-514
လူမျိုး	-515
ညှ	-516
ဂလာ	-517
ခုနစ	-518
လယ	-519
ငါး	-520
အမြ	-521
လိ	-522
ဆိုး	-523
ပေါင	-524
ပညာ	-525
းရှိ	-526
အဝတ	-527
ထဲသို	-528
ကုန	-529
ဏာ	-530
မီးရှို	-531
တွက	-532
ဆီ	-533
တမန	-534
ဆိုင	-535
လွတ	-536
ရည	-537
ချစ	-538
တဘက	-539
ရွံ	-540
ရှိသမျှတို	-541
ဆာ	-542
လောက	-543
နာမ	-544
တံခါး	-545
ကျိန	-546
မိမိတို	-547
အဆ	-548
ဘွယ	-549
ဗေ	-550
မှား	-551
မူပြီ	-552
အမျက	-553
မူမည	-554
နွား	-555
ပါမည	-556
စွာသော	-557
တဲ	-558
ရှက	-559
ျာ	-560
းရဲ	-561
▁့၍	-562
ကြပြီ	-563
▁့၎	-564
ပြုသော	-565
ဘုန	-566
ဆဲ	-567
စွန	-568
မယ	-569
လို	-570
ရှောက	-571
တုပြည	-572
ဗိမာန	-573
ပျစ	-574
ကြွင	-575
ဟုဆို	-576
သမ	-577
းတ	-578
မြည	-579
အာရ	-580
ကြော	-581
စပျစ	-582
ဆိတ	-583
ပွဲ	-584
ရှိကြ	-585
ထိုကြောင	-586
ထားတော	-587
ရေး	-588
ညီအစ	-589
ဇိ	-590
အဆွေ	-591
မွမ	-592
ခေါင	-593
ငြိမ	-594
မှန	-595
ပစ	-596
အမိန	-597
နံ	-598
လွန	-599
ပြေး	-600
ကြယ	-601
ဂါ	-602
အမည	-603
ဆန	-604
ထိုင	-605
အသံ	-606
ခံရသော	-607
ယုံကြည	-608
နေကြ	-609
ဘိုး	-610
သောက	-611
နေသော	-612
ကန	-613
ခရ	-614
ရွေး	-615
ကြွေး	-616
စရိုက	-617
ဗြ	-618
ကြွ	-619
အိပ	-620
အထ	-621
ကုပ	-622
အရာကို	-623
သီး	-624
ထာဝရဘုရားကို	-625
ဒုစရိုက	-626
ပြောဆို	-627
းမြောက	-628
ဘွား	-629
ဝပ	-630
မတရား	-631
ထံတော	-632
စေမည	-633
ကိုမ	-634
လှည	-635
ရွာ	-636
အလျ	-637
အလုံး	-638
ပရိ	-639
ခြောက	-640
မိုက	-641
မယား	-642
▁့်၎	-643
ယာကုပ	-644
ရာတွင	-645
အတွက	-646
အကျိုး	-647
ရလိမ	-648
လောင	-649
ချီးမွမ	-650
တစုံ	-651
ခပ	-652
ဆု	-653
ျား	-654
ကင	-655
တပည	-656
လူအပေါင	-657
မြတ	-658
သွန	-659
းဖြစ	-660
လဲ	-661
အချင	-662
ယနေ	-663
ေလ	-664
ဖွဲ	-665
ဟောပြော	-666
မပြ	-667
ဟူမူကား	-668
သူရဲ	-669
အရာတို	-670
အသေ	-671
နားမှာ	-672
သွားကြ	-673
ချီ	-674
မြှ	-675
ကျမ	-676
ရှောလု	-677
သဘော	-678
အကြံ	-679
လန	-680
တကား	-681
အမွေ	-682
ပါပြီ	-683
ပရိသတ	-684
အရင	-685
မှတပါး	-686
မြော	-687
းဆဲ	-688
အထက	-689
လေဝိ	-690
ကျေးဇူးတော	-691
လျော	-692
းကြ	-693
ရကြမည	-694
ခမည	-695
ပြုတော	-696
ဥပ	-697
းဝေး	-698
းသာ	-699
ဒဏ	-700
သေး	-701
စိ	-702
သပ	-703
အာရုန	-704
ဖြေ	-705
ဗုလ	-706
တခု	-707
ရှိရာ	-708
ချိုင	-709
းအ	-710
ရွက	-711
ကိုင	-712
အချို	-713
အခြား	-714
တရားကို	-715
ရှုရ	-716
ပဋ	-717
ဧလိ	-718
စာကို	-719
ရှိတော	-720
ပိုင	-721
သနား	-722
ဗုလုန	-723
စံ	-724
ကြသည	-725
ထိုသူသည	-726
ဟစ	-727
ပဋိ	-728
ဆုတောင	-729
အဆွေအမျိုး	-730
မသိ	-731
သားကို	-732
းကပ	-733
ဆာန	-734
ရုပ	-735
စပ	-736
ခိုင	-737
ဆုံးမ	-738
ညှဉ	-739
ဒေါ	-740
းရာ	-741
အာဗြ	-742
စမ	-743
ဖိလ	-744
းစေ	-745
ဒန	-746
ဖာ	-747
ကပတ	-748
သောငှါ	-749
ဘိုးဘေး	-750
အခြားသော	-751
ကျန	-752
မပြု	-753
အကျင	-754
အသွေး	-755
နှံ	-756
ထောက	-757
သူမျှ	-758
ြို	-759
တိရစ	-760
မမူ	-761
နားမ	-762
ဇေ	-763
ဓမ	-764
ချမ	-765
တဲတော	-766
ခတ	-767
ဝေ	-768
လူများတို	-769
ကြိုး	-770
သငယ	-771
ထမ	-772
ထဲမှာ	-773
ပန	-774
ပါသည	-775
စိမ	-776
သွင	-777
အမြဲ	-778
လတံ	-779
ကြီးသော	-780
စွဲ	-781
ထားသော	-782
ဌာန	-783
ရာယဇ	-784
နိ	-785
မွေ	-786
ဆိုသည	-787
ညစ	-788
နယ	-789
ဗင	-790
ပြုရ	-791
ရိုး	-792
စက	-793
လမုန	-794
ရှောင	-795
သားတော	-796
ကောက	-797
မခံ	-798
ဗျာ	-799
ထိုနောက	-800
သောသူဖြစ	-801
သီ	-802
ရံ	-803
သူငယ	-804
ဗာဗုလုန	-805
ဟံ	-806
ရှဲ	-807
ဖြတ	-808
အညီ	-809
ခို	-810
အနာ	-811
းလျက	-812
▁်၎	-813
နှောင	-814
မူလျှင	-815
ကြနှင	-816
နာမတော	-817
မဲ	-818
အရေ	-819
သောသူကို	-820
အင	-821
မူခြင	-822
အမျိုးမျိုး	-823
ဖိလိတ	-824
သိတ	-825
ထိုမြို	-826
ရှိမ	-827
းကွယ	-828
းသွား	-829
းမရှိ	-830
အစာ	-831
တကောင	-832
သတိ	-833
မြှောက	-834
ခရီး	-835
ရှုရိ	-836
ထိုအရပ	-837
သမျှသော	-838
းပန	-839
ပါစေ	-840
းကောင	-841
ဒေ	-842
ရကြလိမ	-843
ာဏ	-844
သီချင	-845
ပဋိညာဉ	-846
လှုပ	-847
လေပြီ	-848
ဂု	-849
ပဌ	-850
အကြ	-851
ပျောက	-852
ဖြန	-853
းယူ	-854
အလုံးစုံ	-855
းတူ	-856
ပေါက	-857
ကိုတို	-858
ဒိတ	-859
ဆောက	-860
လူများ	-861
ရှောလမုန	-862
ချဉ	-863
ဂုဏ	-864
တပါ	-865
မြွက	-866
စုဝေး	-867
အကြီး	-868
အထံတော	-869
ကိုးကွယ	-870
ညဉ	-871
ခုတ	-872
မရ	-873
စော	-874
ယောသပ	-875
ကိ	-876
ယေရှုသည	-877
ငို	-878
ဗျာဒိတ	-879
ထာဝရဘုရားအား	-880
သောင	-881
အတွင	-882
ူးသော	-883
ယုဒပြည	-884
ထာဝရဘုရားမိန	-885
ချုပ	-886
သားအပေါင	-887
အသရေ	-888
ဖုံး	-889
လွှဲ	-890
နတ	-891
မု	-892
ဥာဏ	-893
အမှန	-894
သိတင	-895
ပုံ	-896
သေတ	-897
ပေါလု	-898
ယေရှုခရစ	-899
ဟန	-900
ိယ	-901
ရုဏာ	-902
ပြုကြ	-903
ကွဲ	-904
သေခံ	-905
ဗက	-906
မနာ	-907
အကယ	-908
အာဗြဟံ	-909
ဆရာ	-910
တဆယ	-911
လွင	-912
အနွယ	-913
မန	-914
ဆေး	-915
အလယ	-916
ဆိုသော	-917
ကျော	-918
▁????????????	-919
ဧဖ	-920
ငှာ	-921
မှာထား	-922
ထာဝရဘုရားရှေ	-923
ဘဲနေ	-924
ယောရှု	-925
ဘာ	-926
းစွာ	-927
စရာဘို	-928
▁၍၎	-929
ကရုဏာ	-930
ချိုး	-931
ရှိပါ	-932
ခွန	-933
ဆိုကြ	-934
နားမထောင	-935
မနေ	-936
ထိုက	-937
ပေးမည	-938
ချီးမြှောက	-939
သောစိတ	-940
ငိုကြွေး	-941
များနှင	-942
ယျ	-943
မြန	-944
▁့၍၊	-945
ဖွင	-946
အော	-947
အမှုတော	-948
???	-949
ငါနှင	-950
ရှိရာသို	-951
အသီးအသီး	-952
ဘူး	-953
အလင	-954
ဥယျ	-955
ဒုံ	-956
ပို	-957
းတွင	-958
ဥယျာဉ	-959
ခြေအရှင	-960
သူအပေါင	-961
ဆွဲ	-962
လုံ	-963
ချောင	-964
မူသဖြင	-965
ဂေ	-966
မတရားသော	-967
ပြီဟု	-968
ကျွေး	-969
မထ	-970
ချိန	-971
သားသမီး	-972
ဂတိ	-973
နံနက	-974
းချင	-975
ငံတော	-976
ရှိသမျှကို	-977
အိုထာဝရဘုရား	-978
ထပ	-979
တရု	-980
ပိုး	-981
သားကား	-982
ဘမ	-983
ဝံ	-984
ပျော	-985
ရာအရပ	-986
းမှ	-987
အရှေ	-988
မုတ	-989
ပါသော	-990
ပေတရု	-991
အလုံးစုံတို	-992
ထွန	-993
ဘိုးဘေးတို	-994
ရိတ	-995
ဖျား	-996
ဘုရားသည	-997
များစွာသော	-998
းသက	-999
မောဘ	-1000
ပြောင	-1001
ဂိ	-1002
အမိ	-1003
လုယူ	-1004
းအရာ	-1005
ထိုပြည	-1006
ပုန	-1007
အဓမ	-1008
ခံရမည	-1009
နှိမ	-1010
ရောင	-1011
ရွှင	-1012
လာကြ	-1013
လူသည	-1014
းငှာ	-1015
ကိုမျှ	-1016
ဘုံ	-1017
လမြို	-1018
တစုံတခု	-1019
းစာ	-1020
ဗောင	-1021
အစိုး	-1022
ုလား	-1023
မူလိမ	-1024
ရှုံး	-1025
လူသား	-1026
ဆံ	-1027
မွေး	-1028
ခွဲ	-1029
မပြတ	-1030
အမှုတို	-1031
စပါး	-1032
ပေးသော	-1033
ကျိပ	-1034
းစား	-1035
ထူး	-1036
နီး	-1037
ကိုယူ	-1038
မရောက	-1039
ကွယ	-1040
ဂိလ	-1041
ပိတ	-1042
ထုံး	-1043
သောနေ	-1044
အမျိုးအနွယ	-1045
မစင	-1046
သုတ	-1047
စိုးရိမ	-1048
ပွန	-1049
းပေါ	-1050
ထိုနေ	-1051
ဧဖရိမ	-1052
းအားဖြင	-1053
တား	-1054
လာသည	-1055
းရ	-1056
ငှက	-1057
လွှမ	-1058
အိုး	-1059
လုံးကို	-1060
နောင	-1061
မကောင	-1062
ထိုမိန	-1063
သောအရပ	-1064
ပြုလျှင	-1065
မောရှေသည	-1066
ငါမ	-1067
အသင	-1068
းလေ	-1069
တရာ	-1070
လုလင	-1071
ွပ	-1072
မိဿ	-1073
ကြေး	-1074
ခရိုင	-1075
ရေကို	-1076
အတောင	-1077
▁၌၎	-1078
သားဖြစ	-1079
ဗန	-1080
ရာဇ	-1081
ဒုတ	-1082
းပြု	-1083
ထမြောက	-1084
အားကြီး	-1085
နင	-1086
ကော	-1087
တရားတော	-1088
ကြားပြော	-1089
ရသည	-1090
လား	-1091
ယာမိန	-1092
လောဟု	-1093
ဟူသော	-1094
ဍာ	-1095
ဆော	-1096
လာသော	-1097
▁့်၍၊	-1098
ထိုမှတပါး	-1099
ကြီးစွာသော	-1100
းကား	-1101
နှိုး	-1102
လောကီ	-1103
ယုဒရှင	-1104
ဘဏ	-1105
အကြင	-1106
အမှီ	-1107
ကုလား	-1108
ထိုကာလ	-1109
ကြွေးကြော	-1110
ချည	-1111
ဝိုင	-1112
တံပိုး	-1113
ထိန	-1114
ချို	-1115
ဤအရပ	-1116
▁????	-1117
သူတပါး	-1118
သောအရာ	-1119
ွါ	-1120
နိမ	-1121
မြေပေါ	-1122
သူကြီး	-1123
ဘွားမြင	-1124
မှီတိုင	-1125
သိုးသငယ	-1126
မောရှေအား	-1127
ဝဲ	-1128
ဝှ	-1129
ခြား	-1130
အလျင	-1131
စေနှင	-1132
မှောက	-1133
သေခြင	-1134
သမျှတို	-1135
ုသ	-1136
တိတ	-1137
ပါရ	-1138
ထိုမင	-1139
ူးကို	-1140
ဟိ	-1141
ဟာယ	-1142
ပျို	-1143
ဣသရေလအမျိုးသား	-1144
တပါးအမျိုးသားတို	-1145
ကပ	-1146
ကမ	-1147
ဗု	-1148
မှောင	-1149
ထိုသူကို	-1150
အစရှိသော	-1151
တေ	-1152
ယေရ	-1153
လသည	-1154
အုန	-1155
ပါဟု	-1156
းမသည	-1157
းဝေးရာ	-1158
ဒိ	-1159
ခုံ	-1160
သိန	-1161
▁်၌၎	-1162
ဘုရားကို	-1163
မမြင	-1164
သွေး	-1165
းလွတ	-1166
တာတော	-1167
ယောဟန	-1168
မွတ	-1169
မြေး	-1170
ပြတော	-1171
မှာထားတော	-1172
းတည	-1173
သူနှင	-1174
သံကို	-1175
ကြေးဝါ	-1176
ဆုံးသော	-1177
နှိုးဆော	-1178
တစုံတယောက	-1179
ညံ	-1180
ဗတ	-1181
ဘိ	-1182
ကိုခေါ	-1183
ကြိုးစား	-1184
ရှစ	-1185
အချည	-1186
ဥပုသ	-1187
ိုငှ	-1188
ဇိအုန	-1189
မိဿဟာယ	-1190
မေးမြန	-1191
အလိုငှ	-1192
သွားသော	-1193
ကြာ	-1194
ခဏာ	-1195
သနားတော	-1196
အလိုတော	-1197
ဖါ	-1198
ခွက	-1199
ဝှက	-1200
ကြိမ	-1201
ရှေး	-1202
လှုံ	-1203
အနှံ	-1204
ရောဘုရင	-1205
ဣသ	-1206
အဆင	-1207
စာရင	-1208
ဆီသို	-1209
ကြားလျှင	-1210
မြဲ	-1211
အဆက	-1212
ူးမ	-1213
မှူး	-1214
းစိမ	-1215
နှာကို	-1216
များပြား	-1217
အမြန	-1218
ဂလာရှိ	-1219
ရွံရှာ	-1220
သလောဟု	-1221
ရေးထား	-1222
ပြီးသော	-1223
ယုဒလူတို	-1224
ဗော	-1225
ယောန	-1226
ကြွလာ	-1227
ကြွား	-1228
အမှီပြု	-1229
အလိုငှါ	-1230
းကြီးသည	-1231
ထာဝရဘုရားက	-1232
မြေကြီးပေါ	-1233
ခေ	-1234
ငြင	-1235
းကဲ	-1236
မုသာ	-1237
မှုတ	-1238
မပြော	-1239
အလျောက	-1240
ယွင	-1241
လှံ	-1242
ဟေဇ	-1243
အာမ	-1244
ရထား	-1245
ဤသို	-1246
ကာလပတ	-1247
စေသတည	-1248
ပြုခြင	-1249
စကားတော	-1250
ယေရှုကလည	-1251
ဗာလ	-1252
စေဟု	-1253
သူကို	-1254
ခိုလှုံ	-1255
တိမ	-1256
အပိုင	-1257
အသံကို	-1258
ဝါကြွား	-1259
ညူး	-1260
မတွေ	-1261
သုံးဆယ	-1262
အကျိုးကို	-1263
အမင	-1264
ဂြို	-1265
ဖလား	-1266
းဆို	-1267
ဂြိုဟ	-1268
လူကို	-1269
ထည	-1270
လံ	-1271
ကိမ	-1272
လှီး	-1273
သတို	-1274
ရောဗောင	-1275
စိုက	-1276
ရှမာ	-1277
ရှုတ	-1278
ပြုစု	-1279
ယေရမိ	-1280
ပြုပြင	-1281
ဧဒုံ	-1282
းတိမ	-1283
မူပါဟု	-1284
းသောသူ	-1285
ကူး	-1286
းမည	-1287
ဂိလဒ	-1288
ဘူးသော	-1289
ပါစေသော	-1290
မာန	-1291
အလိုက	-1292
ကိုမြင	-1293
စာရေး	-1294
ဆိုလေ	-1295
မူကြောင	-1296
ဟတ	-1297
ရွေ	-1298
အစေ	-1299
အပင	-1300
ခံရကြ	-1301
းနိုင	-1302
ပညာရှိ	-1303
ပြောသော	-1304
ဣသရေလရှင	-1305
ခိ	-1306
နှီး	-1307
သိမြင	-1308
ကြွတော	-1309
ပြုရမည	-1310
လေဝိသားတို	-1311
ချော	-1312
မပေး	-1313
သမား	-1314
သားရဲ	-1315
တိလူတို	-1316
အရေဖျား	-1317
ကျေးဇူးကို	-1318
ဖတ	-1319
းပါ	-1320
မဖြစ	-1321
အလျှင	-1322
းလောင	-1323
တံခါးဝ	-1324
မနာရှေ	-1325
ဝက	-1326
ဝယ	-1327
ရား	-1328
ငါးဆယ	-1329
နေတော	-1330
ဤသူတို	-1331
ဒုက	-1332
မစား	-1333
ကြဲ	-1334
မိဘ	-1335
အဝေး	-1336
မစ	-1337
တဝါ	-1338
ထီး	-1339
းချ	-1340
သူတပါ	-1341
အလုံးအရင	-1342
အမျိုးကို	-1343
ဣသရေလအမျိုးကို	-1344
ဆည	-1345
ရဟု	-1346
အနံ	-1347
ယောရှ	-1348
စီးခြင	-1349
မှားယွင	-1350
ညဦး	-1351
ဣဇာ	-1352
ကိုက	-1353
ပဌနာ	-1354
ကြသော	-1355
အဘိုး	-1356
းမတို	-1357
မေးတော	-1358
သွားလေ	-1359
အမှုအရာ	-1360
ဂေါ	-1361
တုံ	-1362
အခန	-1363
ဦးမည	-1364
ခံတော	-1365
ညှိုး	-1366
ပေးလိုက	-1367
ရှည	-1368
အလုပ	-1369
ကြံစည	-1370
စုံစမ	-1371
တထောင	-1372
ပြုမည	-1373
မမူပါ	-1374
သားသည	-1375
အရိုး	-1376
းနှီး	-1377
းများ	-1378
ရသောအခွင	-1379
ကေ	-1380
ဇဉ	-1381
ကျူး	-1382
ခါနာ	-1383
တပြည	-1384
ရှိလျှင	-1385
အနားမှာ	-1386
အာရှုရိ	-1387
လူမျိုးတို	-1388
သောသူအပေါင	-1389
ထာဝရဘုရားကလည	-1390
ခဏ	-1391
အမှုသည	-1392
ကျယ	-1393
ကွင	-1394
ဘောဇဉ	-1395
းရာဌာန	-1396
းသောသူတို	-1397
နီ	-1398
နဲ	-1399
ကျက	-1400
တုန	-1401
ယွာ	-1402
အာန	-1403
းလင	-1404
ဘာသာ	-1405
တိုးပ	-1406
ငွေကို	-1407
ဒဲ	-1408
းနှစ	-1409
သူဖြစ	-1410
အသေသတ	-1411
ဆီးတား	-1412
ဆုပ	-1413
နေရ	-1414
အထည	-1415
ဧလိယ	-1416
ကာကို	-1417
တကျိပ	-1418
နိမိတ	-1419
မသွား	-1420
ဆိုရမည	-1421
သွားလော	-1422
အမျိုးမျိုးတို	-1423
နော	-1424
ဖြူ	-1425
ရှန	-1426
ဝါဒ	-1427
ဟေဗြ	-1428
ခါနာန	-1429
စိုးစံ	-1430
ရွေးကောက	-1431
ညည	-1432
ဧဝံ	-1433
ရေတွက	-1434
းတွား	-1435
မြေကို	-1436
ရှိသနည	-1437
ဘုရားတို	-1438
အမျိုးသားချင	-1439
အနက	-1440
ကိုသာ	-1441
စုံလင	-1442
နားလည	-1443
ရှမွေ	-1444
းမိုး	-1445
ထိုသခင	-1446
းကြလော	-1447
ပက	-1448
လူဖြစ	-1449
လေးဆယ	-1450
စုတ	-1451
ပြပ	-1452
အာဇ	-1453
အနှစ	-1454
ဣဇာက	-1455
ထားကြ	-1456
ပါးကို	-1457
တနေ	-1458
မေတ	-1459
းလျှင	-1460
သာပေါင	-1461
မေးလျှင	-1462
သောအမှု	-1463
းအကြောင	-1464
အသွေးကို	-1465
းဟူမူကား	-1466
ဂဒ	-1467
ယုတ	-1468
းစံ	-1469
အမြင	-1470
အရှက	-1471
ဩဝါဒ	-1472
းကျင	-1473
ကြားရ	-1474
းတိုင	-1475
မူသောအခါ	-1476
အားကြီးသော	-1477
အရေဖျားလှီး	-1478
တပါးအမျိုးသား	-1479
တုရ	-1480
ငါမြင	-1481
အကောင	-1482
စားပွဲ	-1483
ပြုလျက	-1484
ဆိုလျှင	-1485
သွေးဆောင	-1486
ဇံ	-1487
ဂေလ	-1488
မထီ	-1489
မဝင	-1490
အဦး	-1491
ူးမတ	-1492
းရမည	-1493
ွှေး	-1494
ထိုနည	-1495
မှူးမတ	-1496
ငတ	-1497
တနာ	-1498
အတတ	-1499
ကြကုန	-1500
မလိုက	-1501
ိတရား	-1502
ကရုဏာတော	-1503
တရားစီရင	-1504
းကြီးပေး	-1505
စရာအကြောင	-1506
မေးလျှောက	-1507
ညက	-1508
အဗ	-1509
မှည	-1510
ယွာဘ	-1511
အနောက	-1512
းထိုင	-1513
သုံးရက	-1514
းထဲသို	-1515
သောအားဖြင	-1516
ဣသရေလလူတို	-1517
ထိ	-1518
မှု	-1519
ပကတိ	-1520
မှုန	-1521
အကုန	-1522
းစေခြင	-1523
မရှိသော	-1524
သိပ	-1525
မောင	-1526
မထီမဲ	-1527
မျှလောက	-1528
မမူပါနှင	-1529
ဒနာ	-1530
ရေလ	-1531
းရေ	-1532
အမွေခံ	-1533
ကိုးစား	-1534
လေဝိသား	-1535
ခမ	-1536
ကျပ	-1537
စားစရာ	-1538
အကြီးအ	-1539
သရ	-1540
အစင	-1541
းခံ	-1542
းတတ	-1543
ငါသိ	-1544
တချက	-1545
တိဇံ	-1546
ဒုတိယ	-1547
ရိမြို	-1548
ကွဲပြား	-1549
ဂေလိတရား	-1550
ရတတ	-1551
ကြွယ	-1552
ဖြို	-1553
ပါလော	-1554
ရာကို	-1555
သားဦး	-1556
ကိုကိုယ	-1557
ကြီးမြတ	-1558
မျိုးစေ	-1559
သူရဲတို	-1560
အသေကောင	-1561
ရှောလုသည	-1562
ထာဝရဘုရားဖြစ	-1563
ဒံ	-1564
ပု	-1565
စို	-1566
ဧလာ	-1567
ယောယ	-1568
အဘော	-1569
အမြစ	-1570
မူချက	-1571
ရာသို	-1572
သူပြည	-1573
စကားသည	-1574
ယောနသန	-1575
သောပြည	-1576
နှလုံးကို	-1577
ရပါ	-1578
ချွတ	-1579
နေသည	-1580
ဧသော	-1581
ပြုလေ	-1582
လျှော	-1583
မှာလိုက	-1584
ဧဝံဂေလိတရား	-1585
ဧည	-1586
နို	-1587
ပြာ	-1588
းလဲ	-1589
သိကြ	-1590
အလျား	-1591
ဟပ	-1592
းထ	-1593
ဂါလ	-1594
အဘိ	-1595
ကြို	-1596
အပြည	-1597
တကားဟု	-1598
တရှောက	-1599
စားသောက	-1600
အသီးအနှံ	-1601
ခါလ	-1602
ပြတ	-1603
မြက	-1604
ဟာန	-1605
ရိရှဲ	-1606
ရှိသတည	-1607
းဆဲခြင	-1608
မြေမှုန	-1609
ဗေလ	-1610
မတည	-1611
ရို	-1612
လှန	-1613
အနည	-1614
ဤပြည	-1615
▁့်၌	-1616
ပြုမိ	-1617
းကိုလည	-1618
ဖာရိရှဲ	-1619
မိမိအိမ	-1620
တရားသဖြင	-1621
ဓာ	-1622
ှဉ	-1623
ကွပ	-1624
မေလ	-1625
ပေတည	-1626
အာဏာ	-1627
လူအသက	-1628
အားထုတ	-1629
ထုံးဖွဲ	-1630
မှားသော	-1631
ဗေသ	-1632
းမြ	-1633
းစီး	-1634
မကြောက	-1635
ခိုးတော	-1636
တပါးသော	-1637
ဖြေရာယဇ	-1638
ဖဲ	-1639
ရူ	-1640
ဆိပ	-1641
ဆုတ	-1642
အစု	-1643
သမုတ	-1644
အစွမ	-1645
အာဟပ	-1646
ရမြို	-1647
သောအရာကို	-1648
▁?????????	-1649
ထိပ	-1650
ဖူး	-1651
သနာ	-1652
အနား	-1653
အနီး	-1654
းဆီး	-1655
းဖြင	-1656
ပြုတတ	-1657
ယခုမှာ	-1658
သိုးထိန	-1659
ရွေးနှုတ	-1660
သောအမှုကို	-1661
ချယ	-1662
ထိမ	-1663
လှဲ	-1664
ဧလျ	-1665
းသတ	-1666
စေတတ	-1667
လျှာ	-1668
းဘော	-1669
မူသနည	-1670
သိတော	-1671
အများ	-1672
ငါပြော	-1673
ပွဲကို	-1674
မရှိဘဲ	-1675
များစွာ	-1676
သောသူမူကား	-1677
ခာ	-1678
အစည	-1679
းဝင	-1680
ထံမှ	-1681
နေဗု	-1682
းထား	-1683
အကြွင	-1684
ဦးစွာ	-1685
ခံရလိမ	-1686
ဂတိတော	-1687
စာစောင	-1688
တရားသည	-1689
ထားနှင	-1690
ဧလိရှဲ	-1691
သောမြို	-1692
မောရှေနှင	-1693
ယေရောဗောင	-1694
ခွင	-1695
ဝေါ	-1696
ိလဲ	-1697
းနည	-1698
ရဲရင	-1699
▁့၌၎	-1700
းအမှု	-1701
ရဲတိုက	-1702
သမျှကို	-1703
သားမြေး	-1704
အသီးကို	-1705
ဆုံးရှုံး	-1706
ထိုအကြောင	-1707
မူပါစေသော	-1708
သားသမီးတို	-1709
ဘတ	-1710
ရယ	-1711
ကွာ	-1712
ခရိ	-1713
မသေ	-1714
မပျက	-1715
ခါလဒဲ	-1716
ဤမြို	-1717
ဆိုလျက	-1718
းလူသား	-1719
းစွာသော	-1720
စရပ	-1721
နှိပ	-1722
ပါလျက	-1723
နီးချင	-1724
းရဲခြင	-1725
ဆီဥ	-1726
းဝပ	-1727
ခံယူ	-1728
တပြင	-1729
ဒေါသ	-1730
ဖောက	-1731
အရိပ	-1732
ိမလက	-1733
ရောဂါ	-1734
ဤသူသည	-1735
ဆိုလို	-1736
ကုလားကာ	-1737
ဖာရောဘုရင	-1738
ယုဒအမျိုး	-1739
ဆပ	-1740
ကြမ	-1741
ကွက	-1742
ဇေဒ	-1743
အာသ	-1744
ခြုံ	-1745
ရုဗင	-1746
လွှား	-1747
အာမော	-1748
ကြလျှင	-1749
နာမကို	-1750
ပြုကြလော	-1751
ဤလူမျိုး	-1752
တုတ	-1753
တွန	-1754
ထုန	-1755
မတတ	-1756
အထဲ	-1757
အုတ	-1758
မတို	-1759
းဘိုး	-1760
နှလုံးသည	-1761
သုံးယောက	-1762
ခိုက	-1763
နေဇာ	-1764
အဘသည	-1765
းရှင	-1766
ကိုငါ	-1767
ကျိုး	-1768
ငါပေး	-1769
စုံဘက	-1770
ရှလုံ	-1771
ဝေဒနာ	-1772
ငါအမှန	-1773
စားသော	-1774
ရှိလိမ	-1775
အသံနှင	-1776
းကြောင	-1777
ဆုံးဖြတ	-1778
ကု	-1779
မိက	-1780
လှေ	-1781
အာခ	-1782
ကြမည	-1783
ခွေး	-1784
ထသော	-1785
စေတနာ	-1786
တမျိုး	-1787
ယေရှုက	-1788
ရှိမုန	-1789
မောဘပြည	-1790
အသီးသီး	-1791
အများတို	-1792
ထာဝရဘုရားအဘို	-1793
ခုပ	-1794
တဝက	-1795
တီး	-1796
ပဌမ	-1797
ခံကြ	-1798
လူစု	-1799
လွှင	-1800
အခွက	-1801
ချခြင	-1802
မေထုန	-1803
ရိုသေ	-1804
းအသရေ	-1805
ထားဘေး	-1806
သောသူနှင	-1807
းများကို	-1808
မူသောကြောင	-1809
ဟုန	-1810
းငယ	-1811
ခံသော	-1812
ပါရုံ	-1813
မိမိလက	-1814
မီးဖြင	-1815
ပေါလုသည	-1816
သမီးတို	-1817
ခရီးသွား	-1818
းအမှုကို	-1819
အရေဖျားလှီးခြင	-1820
နူ	-1821
တညီ	-1822
ရုန	-1823
ရုံး	-1824
ဟောင	-1825
အခွန	-1826
းမော	-1827
စွာနေ	-1828
တံဆိပ	-1829
ပြုသည	-1830
းမကို	-1831
အမြဲတည	-1832
လာသောအခါ	-1833
ကျွေးမွေး	-1834
သမျှအတိုင	-1835
အစိုးရသော	-1836
ထိုစကားကို	-1837
မြေကြီးကို	-1838
အခြားတပါးသော	-1839
ခဒ	-1840
သဏ	-1841
မထင	-1842
ရုတ	-1843
ဇာတိ	-1844
ပွား	-1845
မလုပ	-1846
ရာလမ	-1847
ကိုသတ	-1848
မိမိမ	-1849
ဆီးခြင	-1850
ရူပါရုံ	-1851
အဗရှလုံ	-1852
အလိုရှိ	-1853
အာမောရိ	-1854
ပြောဆိုကြ	-1855
????????????	-1856
ပသ	-1857
မယူ	-1858
ဣရှ	-1859
ပသခါ	-1860
ယူခဲ	-1861
အိုင	-1862
▁့၏။	-1863
မွှေး	-1864
အနိုင	-1865
ဂါလိလဲ	-1866
နေဗုခဒ	-1867
ငါပေးမည	-1868
ဘုရားဖြစ	-1869
အလိုအလျောက	-1870
အဟ	-1871
ကျီ	-1872
တခါ	-1873
လုန	-1874
တဆေး	-1875
ဒံယေ	-1876
ရှိန	-1877
သူနည	-1878
ကာတို	-1879
တုတို	-1880
မှီဝဲ	-1881
ရပါမည	-1882
အာဗြံ	-1883
ဂလာကို	-1884
သွားမည	-1885
ကြားမှာ	-1886
မျှမရှိ	-1887
သောအပြစ	-1888
ကြွလာတော	-1889
ရှမာရိမြို	-1890
ဆူ	-1891
မဟာ	-1892
ယေဇ	-1893
လှူ	-1894
အလှ	-1895
းပယ	-1896
းလည	-1897
ကိမင	-1898
ထိုး	-1899
သမုဒ	-1900
ရာဖြစ	-1901
သိမှတ	-1902
စောစော	-1903
ထားလျက	-1904
စုဝေးစေ	-1905
ပါပြီဟု	-1906
ရှိသမျှသည	-1907
▁??????????	-1908
သု	-1909
ပွင	-1910
ဖို	-1911
ဖုရ	-1912
မသည	-1913
ဥပဒ	-1914
ဆံပင	-1915
ယခုတ	-1916
ရေသည	-1917
းထဲက	-1918
ျာလက	-1919
ကြသနည	-1920
မျှော	-1921
ဝါးကပ	-1922
ထုံးစံ	-1923
ယောရှဖတ	-1924
ယေရှုကို	-1925
ရှိသောသူ	-1926
ရွံရှာဘွယ	-1927
ခက	-1928
တယ	-1929
ဒုန	-1930
နှမ	-1931
သဖန	-1932
▁၌၊	-1933
ကြဟု	-1934
ခေရု	-1935
ရှေဘ	-1936
တမြို	-1937
ထံမှာ	-1938
ပါလိမ	-1939
မျှမက	-1940
အဆုံး	-1941
အားလည	-1942
ဤအမှု	-1943
ယူသွား	-1944
ဟေဗြုန	-1945
အစုအဝေး	-1946
ယောရှုသည	-1947
ထိုသူအပေါင	-1948
ဒျ	-1949
မြံ	-1950
အာဗ	-1951
းစည	-1952
တနှစ	-1953
နိုး	-1954
ယေဟု	-1955
တသောင	-1956
တိကျမ	-1957
ဒေါနိ	-1958
ဖုရား	-1959
လှံတံ	-1960
အရှိန	-1961
ငါကြား	-1962
တပါးတည	-1963
ထားရမည	-1964
ပါးတို	-1965
မြဲမြံ	-1966
မူစေသတည	-1967
ဆုံးမဩဝါဒ	-1968
ညာ	-1969
ထူ	-1970
ယံ	-1971
အမဲ	-1972
မထား	-1973
မြွေ	-1974
ဝစွာ	-1975
သောလမ	-1976
စားခြင	-1977
ရှုလော	-1978
ခေရုဗိမ	-1979
မူပြီဟု	-1980
အကြီးအကဲ	-1981
ကြီးသူတို	-1982
သူတပါးတို	-1983
ပေးသနားတော	-1984
ရှိသမျှသော	-1985
ငိုကြွေးမြည	-1986
ွဋ	-1987
ဖြည	-1988
မလာ	-1989
ဟေလ	-1990
ဆွေး	-1991
ပျား	-1992
အထူး	-1993
အထွဋ	-1994
အာရဇ	-1995
းသီး	-1996
ငံကို	-1997
တွေဝေ	-1998
ထူးဆန	-1999
ဟေဇကိ	-2000
အပြား	-2001
မယားကို	-2002
မီးလောင	-2003
လေးထောင	-2004
ထိုအမှုကို	-2005
ပိ	-2006
အသစ	-2007
လူဆိတ	-2008
လျှို	-2009
ဤလောက	-2010
ဧလာဇာ	-2011
းမနှင	-2012
းအဘော	-2013
ကိုပြု	-2014
ထိုအတူ	-2015
နှာတော	-2016
မေးသော	-2017
ဘွားသော	-2018
မိဖုရား	-2019
သဘောကို	-2020
ကြသောအခါ	-2021
သိရကြလိမ	-2022
အမြတ	-2023
ဤရွေ	-2024
မှထွက	-2025
ရာဇပလ	-2026
စုံသော	-2027
အစာကို	-2028
ကြပါပြီ	-2029
လူတယောက	-2030
ဟုဆိုလျှင	-2031
အိုဘုရားသခင	-2032
▁???????????	-2033
ဒရာ	-2034
နနိ	-2035
ယှဉ	-2036
သိက	-2037
အဝင	-2038
ဗာလမ	-2039
မမှန	-2040
ပြိုင	-2041
သေသော	-2042
သံလွင	-2043
ဖြေခြင	-2044
အဘိမလက	-2045
ဆိုးတို	-2046
တုလူတို	-2047
ရိုးကို	-2048
တိုးပွား	-2049
ယခုမူကား	-2050
ဟုဆိုသော	-2051
းသွားခြင	-2052
အာရှုရိရှင	-2053
းကြီးပေးတော	-2054
ထု	-2055
ဖိ	-2056
စွပ	-2057
ဆူး	-2058
ချေး	-2059
အသား	-2060
အာမင	-2061
အာရှ	-2062
ဧလျာ	-2063
▁်၌၊	-2064
ထားလေ	-2065
ဘိသိက	-2066
ရေတွင	-2067
အရောင	-2068
ကိုချစ	-2069
နားမလည	-2070
ပေးရမည	-2071
ဗာမြို	-2072
လူတိုင	-2073
သောအထည	-2074
သေးသော	-2075
ဦးခေါင	-2076
းစေတော	-2077
းသူတို	-2078
ဂလာရှိကြ	-2079
ဟုဆိုလျက	-2080
တံပိုးမှုတ	-2081
မိတ	-2082
းပင	-2083
မိဒျ	-2084
ရာရာ	-2085
အရွယ	-2086
▁့်၏	-2087
စားခန	-2088
တညီတည	-2089
ကြသလော	-2090
နေရာကျ	-2091
ဘေးဥပဒ	-2092
စာရေးတံ	-2093
ညှိုးငယ	-2094
ဖြိုဖျက	-2095
သားများ	-2096
ထိုမျှမက	-2097
အမျိုးသည	-2098
ဤအမှုကို	-2099
ကြပါစေသော	-2100
ဖါရောဘုရင	-2101
ထာဝရဘုရားထံတော	-2102
ပြေ	-2103
သွေ	-2104
ငါအပ	-2105
းခို	-2106
တကျွန	-2107
တုကို	-2108
မပြုရ	-2109
မိဒျန	-2110
လှိုင	-2111
ငါစီရင	-2112
နှမြော	-2113
တရားနှင	-2114
ပေတရုသည	-2115
လူများကို	-2116
လူအစုအဝေး	-2117
သဲ	-2118
ကြက	-2119
ဒမာ	-2120
နွမ	-2121
ကျွမ	-2122
မူရာ	-2123
ယောင	-2124
ယောဘ	-2125
လေဗန	-2126
အမှတ	-2127
းလိမ	-2128
ျာဘက	-2129
မြှား	-2130
ပညာကို	-2131
ပြောကြ	-2132
ရှိရမည	-2133
းကြလိမ	-2134
စပါးကို	-2135
တိဇံကို	-2136
နေကြလော	-2137
သွားတော	-2138
ကုလားအုပ	-2139
တံခါးကို	-2140
မစိုးရိမ	-2141
းမောတွေဝေ	-2142
ဧဝံဂေလိတရားကို	-2143
▁?????????????	-2144
ပဲ	-2145
မလည	-2146
လွဲ	-2147
းမဲ	-2148
တတိယ	-2149
နေလေ	-2150
မတော	-2151
ယေရိ	-2152
ရှုန	-2153
းဘေး	-2154
စွဲလမ	-2155
ဆိုတတ	-2156
ရောမင	-2157
ရှေခင	-2158
လေသော	-2159
ရွာတို	-2160
ကိုဆောင	-2161
ပြားသော	-2162
ရှားသော	-2163
ကြားသောအခါ	-2164
စကားဟူမူကား	-2165
ပမာ	-2166
ပိလ	-2167
လျင	-2168
အခက	-2169
စေကြ	-2170
မယုံ	-2171
ရေကန	-2172
အထဲက	-2173
အမျှ	-2174
အာနု	-2175
ဆာကို	-2176
ပေးကြ	-2177
ဖြေရာ	-2178
မသောက	-2179
ရာတို	-2180
လျောက	-2181
နေရာချ	-2182
ပြုလော	-2183
ပြောတတ	-2184
လေဗနုန	-2185
အစိုးရ	-2186
သုံးနှစ	-2187
အဆွေအမျိုးအလိုက	-2188
လူအမျိုးမျိုးတို	-2189
ဒြ	-2190
ဓေ	-2191
ဗလ	-2192
ဩဇ	-2193
ဒကဲ	-2194
အနန	-2195
အဟိ	-2196
နာသန	-2197
နေစဉ	-2198
ပိုက	-2199
ဖြား	-2200
အကျပ	-2201
းစရာ	-2202
းလော	-2203
ခံခြင	-2204
မရှိရ	-2205
းခရီး	-2206
ထားကို	-2207
သိုးစု	-2208
ငါဆိုသည	-2209
လူသားသည	-2210
သိုးထီး	-2211
အကြံကို	-2212
အကြံအစည	-2213
ခံရကြလိမ	-2214
မိမိကျွန	-2215
အနာရောဂါ	-2216
းသောကြောင	-2217
အသီးအသီးတို	-2218
ယစ	-2219
ခေလ	-2220
တတန	-2221
ပျဉ	-2222
ပြက	-2223
မပါ	-2224
ရှံ	-2225
းမံ	-2226
မခံရ	-2227
ပဋိသန	-2228
မကြား	-2229
▁့်၏။	-2230
ကိုတွေ	-2231
မီးခွက	-2232
အရာရှိ	-2233
ဖုံးအုပ	-2234
သိုးတို	-2235
အမျိုးဖြစ	-2236
ဖာရိရှဲတို	-2237
ဂတ	-2238
ချေ	-2239
ယသည	-2240
ကြစေ	-2241
နူနာ	-2242
ပိလတ	-2243
ဥပမာ	-2244
းမွန	-2245
ငါဆောင	-2246
ဆိုတော	-2247
မြေတွင	-2248
ယခုတွင	-2249
းကိုခံ	-2250
းအခြား	-2251
အသားကို	-2252
အာနုဘော	-2253
းနားမှာ	-2254
ငါစေလွှတ	-2255
သိုးနွား	-2256
ဣသရေလပြည	-2257
ကျေးဇူးပြု	-2258
ဟောပြောသော	-2259
ဟင	-2260
ဂေရ	-2261
တဦး	-2262
နွယ	-2263
သတာ	-2264
အိတ	-2265
ဤသူ	-2266
နှော	-2267
ခုနှစ	-2268
ပါနှင	-2269
ယုဒလူ	-2270
သေဖြစ	-2271
ဆိုခြင	-2272
ထားဖြင	-2273
ခြားနား	-2274
ဆိုးသော	-2275
တရားစရပ	-2276
နေရာအရပ	-2277
မိမိအဝတ	-2278
ယေရိခေါ	-2279
သူတယောက	-2280
သောသဘော	-2281
ကိုစေလွှတ	-2282
ရှိသောကြောင	-2283
ဂျ	-2284
ဒဒ	-2285
ဒပ	-2286
ထရံ	-2287
းတန	-2288
သေကြ	-2289
ပျိုး	-2290
သားရေ	-2291
အလောင	-2292
အားနည	-2293
ကိုကား	-2294
ရှေးကာလ	-2295
အရေအတွက	-2296
အလိုသို	-2297
အသရေကို	-2298
ဧဒုံပြည	-2299
းပြုဆရာ	-2300
းသောအခါ	-2301
ကိုတယောက	-2302
စေတနာစိတ	-2303
ဂါလိလဲပြည	-2304
တရားသူကြီး	-2305
ကူ	-2306
ပွါ	-2307
ပူပန	-2308
မသိမ	-2309
မာရိ	-2310
မိုး	-2311
မူစဉ	-2312
ဧသတာ	-2313
ခဲနှင	-2314
စာဂတိ	-2315
တကိုယ	-2316
တလုံး	-2317
အချုပ	-2318
စားရမည	-2319
ဘောသဖန	-2320
သားနှင	-2321
မူပြီးမှ	-2322
မျိုးကို	-2323
သောသူအား	-2324
မတရားသဖြင	-2325
များကိုလည	-2326
သားမြေးတို	-2327
တူး	-2328
သရဖ	-2329
အထပ	-2330
းတမ	-2331
ွှယ	-2332
▁၏၊	-2333
တုရု	-2334
ထွေး	-2335
ဒိုင	-2336
နောဧ	-2337
ပမာဏ	-2338
မထွက	-2339
မှသည	-2340
းကလည	-2341
ကျိုင	-2342
ဇာခရိ	-2343
တူသော	-2344
ဒမာသက	-2345
ဗာရှန	-2346
မူလျက	-2347
မြေသည	-2348
းခြား	-2349
စေသဖြင	-2350
ဆိုးညစ	-2351
တကာတို	-2352
ပေးခြင	-2353
ပျားရည	-2354
းရှိသည	-2355
ငါပေးသော	-2356
အရိုးတို	-2357
အာဗြဟံသည	-2358
းအလိုငှါ	-2359
သောစကားကို	-2360
သွားသောအခါ	-2361
မငြ	-2362
မသတ	-2363
စတုတ	-2364
တဘို	-2365
မကျင	-2366
ယခုပ	-2367
ခြေရင	-2368
ငါကြည	-2369
စိကို	-2370
အာဗနာ	-2371
းချကြ	-2372
ခံထိုက	-2373
ဆီးတော	-2374
သောဒုံ	-2375
ဦးချို	-2376
းရှိကြ	-2377
အကြံရှိ	-2378
းပြီးမှ	-2379
းအရာကို	-2380
မိဿဟာယယဇ	-2381
သွားကြလော	-2382
ပြုသောကြောင	-2383
ဗိ	-2384
သဘ	-2385
ညွှ	-2386
တရက	-2387
လိပ	-2388
ကလေး	-2389
နွေး	-2390
သရဖူ	-2391
းပွင	-2392
းသား	-2393
ကိုတင	-2394
ငါချစ	-2395
ငါဆို	-2396
စားကြ	-2397
စေရမည	-2398
ုနိုင	-2399
းသဖြင	-2400
ကိုရှာ	-2401
ကြာမြင	-2402
ညူးသော	-2403
မီးခုံ	-2404
မူထသော	-2405
စကားနှင	-2406
ရှိစေခြင	-2407
အစာရှောင	-2408
မိဿဟာယဖွဲ	-2409
သောအရာတို	-2410
ဒင	-2411
နဿ	-2412
ရီ	-2413
ေတ	-2414
မိဇ	-2415
အနတ	-2416
းမိ	-2417
ချကြ	-2418
လာဗန	-2419
းပါး	-2420
ကိုဆန	-2421
ခံရသည	-2422
ချလျက	-2423
စေလော	-2424
ဆူးပင	-2425
မစားရ	-2426
ယောယဒ	-2427
ကိုစွန	-2428
ငါးနှစ	-2429
မပါသော	-2430
အခါမလည	-2431
အဆွေခင	-2432
ကြပြီဟု	-2433
ချိုးဖဲ	-2434
တိုးပွါ	-2435
နေရာသို	-2436
ပါစေနှင	-2437
အနီးသို	-2438
းမရှိဘဲ	-2439
းစီးသူရဲ	-2440
တစုံတခုကို	-2441
းသောအရာတို	-2442
မတရားသောသူတို	-2443
ခြံ	-2444
ဗေရ	-2445
ရိပ	-2446
ဤမည	-2447
ကောရ	-2448
ကြုံ	-2449
စားရ	-2450
ထိမိ	-2451
မကုန	-2452
မကျန	-2453
မှဆင	-2454
ခါးပန	-2455
ဇာဒုတ	-2456
ထားသည	-2457
နေလော	-2458
ပွဲခံ	-2459
ယခုပင	-2460
လျောင	-2461
ုရောက	-2462
စီးသော	-2463
ပြုသကဲ	-2464
းခြောက	-2465
နွားထီး	-2466
ငါမှာထား	-2467
မသာ	-2468
ဟာဇ	-2469
းနေ	-2470
ကိုရ	-2471
တိလူ	-2472
လျှံ	-2473
းချက	-2474
ကိုပင	-2475
စာတော	-2476
စားတတ	-2477
ပါသနည	-2478
ရာဇဝင	-2479
ောမနာ	-2480
ပြေးကြ	-2481
ရွှေစင	-2482
ရှမွေလ	-2483
ရှုတော	-2484
လူပျို	-2485
အားပေး	-2486
းတနိုင	-2487
ကြပါလိမ	-2488
ယုဒမြို	-2489
ရွေးချယ	-2490
လုံးနှင	-2491
တံခါးတို	-2492
ဘုရားရှင	-2493
မိမိလူတို	-2494
ရေးထားလျက	-2495
ယုဒအမျိုးသား	-2496
သွားပြီးလျှင	-2497
ရတ	-2498
ကွန	-2499
ပုပ	-2500
ယား	-2501
ရုဒ	-2502
ရုံ	-2503
စုံမက	-2504
နေရမည	-2505
ဟေရှာ	-2506
းတရား	-2507
ျားသည	-2508
ပြောသည	-2509
ရှာဘွယ	-2510
ဦးကြို	-2511
ချီသွား	-2512
ဖါရောမင	-2513
ရောနှော	-2514
ရှိမောင	-2515
သေခံတော	-2516
သောအကျင	-2517
ဆုံးမတော	-2518
ဖုံးလွှမ	-2519
▁???????	-2520
လိုသောငှါ	-2521
ကြားလျှောက	-2522
အိုဣသရေလအမျိုး	-2523
နမ	-2524
လပ	-2525
အက	-2526
ထိတ	-2527
ထုပ	-2528
ဒေသ	-2529
မသင	-2530
အလက	-2531
ဇေရု	-2532
ဒေါင	-2533
မမှတ	-2534
သာမက	-2535
ုံးအ	-2536
ကြိုင	-2537
ဆာတို	-2538
ညဦးယံ	-2539
မငြိမ	-2540
အစေခံ	-2541
ထိခိုက	-2542
ထိုအိမ	-2543
ခံရကြမည	-2544
ထိုအမှု	-2545
မူသောသူ	-2546
အားလျော	-2547
ထာဝရအရှင	-2548
သွားရာလမ	-2549
းတရားကို	-2550
မှာရှိသော	-2551
မွှေးကြိုင	-2552
ရှိသောသူတို	-2553
▁??????????????	-2554
ဗာန	-2555
မွန	-2556
လုယ	-2557
အကာ	-2558
စာတန	-2559
မဖျက	-2560
ရှံဆ	-2561
းခုံ	-2562
းနား	-2563
ဆီနှင	-2564
ဒံယေလ	-2565
သားစဉ	-2566
ဟေရုဒ	-2567
မြေးဆက	-2568
ရှမြို	-2569
းကြိုး	-2570
းမြောင	-2571
▁?????	-2572
ရှားစွာ	-2573
လိုလျှင	-2574
လူအချို	-2575
သားယောက	-2576
စကားအားဖြင	-2577
အသီးအနှံကို	-2578
လတ	-2579
ဿာ	-2580
ဖေါ	-2581
အငယ	-2582
ခုံး	-2583
ဂျုံ	-2584
တုဆင	-2585
တွား	-2586
မကို	-2587
မနှင	-2588
ယဟော	-2589
လျှပ	-2590
းဖွဲ	-2591
ကာဘို	-2592
ကိုဝတ	-2593
ကိုသိ	-2594
ခံလျက	-2595
ငါဖြစ	-2596
ဇိဒုန	-2597
ဘဲလျက	-2598
လာသတည	-2599
သားငယ	-2600
သူအိမ	-2601
အနွှယ	-2602
အာမလက	-2603
ဦးလော	-2604
ဂိဒေါင	-2605
ရှံဆုန	-2606
သွားလာ	-2607
တညီတညွတ	-2608
ပြောလော	-2609
မယုံကြည	-2610
သေခံချက	-2611
သွားရမည	-2612
းကိုခံရ	-2613
းကြီးမင	-2614
းရာဌာနတော	-2615
နေသောသူတို	-2616
လူများအပေါင	-2617
ကြိုးစားအားထုတ	-2618
ဆွေ	-2619
ညွတ	-2620
ဘီး	-2621
မာရ	-2622
ဟာရ	-2623
အရက	-2624
မချဉ	-2625
မရဏာ	-2626
သေသည	-2627
ဟာမန	-2628
ဟာရှ	-2629
ကျောင	-2630
ထားမည	-2631
မအောက	-2632
သံတမန	-2633
းပေါက	-2634
းထံသို	-2635
ခိုးနှင	-2636
စောစောထ	-2637
ဇာဗုလုန	-2638
ပြောရမည	-2639
ရွှေငွေ	-2640
ကြောစီရင	-2641
ဇာတိပကတိ	-2642
ပြုမူသော	-2643
အလိုမရှိ	-2644
ခရီးဦးကြို	-2645
ယု	-2646
ရိယ	-2647
းလှ	-2648
ကြိတ	-2649
စိကန	-2650
ပါလေ	-2651
ရှာဖ	-2652
ချတော	-2653
ငါးရာ	-2654
ဆီကို	-2655
မမြို	-2656
မူလတံ	-2657
းအခွင	-2658
ကာလကို	-2659
တောသို	-2660
မှီခို	-2661
မှုကို	-2662
သိနိုင	-2663
းအပေါင	-2664
ခိုးကို	-2665
နွားသငယ	-2666
များသော	-2667
သနားခြင	-2668
အလိုလို	-2669
ခိုးကြီး	-2670
ဝေဒနာကို	-2671
အထူးသဖြင	-2672
ယေရိခေါမြို	-2673
ဩဗ	-2674
ခရာ	-2675
ပေရ	-2676
ပျံ	-2677
းမာ	-2678
ညွှတ	-2679
နဿလိ	-2680
အခြင	-2681
းဖျက	-2682
▁့၌၊	-2683
စာနှင	-2684
စာဖြစ	-2685
တာကို	-2686
ပခုံး	-2687
ပြသော	-2688
မာသော	-2689
ရာခေလ	-2690
သာခြင	-2691
သာသနာ	-2692
သေကို	-2693
အနာဂတ	-2694
အရာသည	-2695
အာရှာ	-2696
ခြေတော	-2697
ထားခြင	-2698
များသည	-2699
သီးကို	-2700
သောမိန	-2701
ခိုးရှင	-2702
ဟေဇကိမင	-2703
ဂိဗာမြို	-2704
ဆုံးမခြင	-2705
အမှုရောက	-2706
းကြီးကို	-2707
တံခါးစောင	-2708
မြေကြီးစွန	-2709
စူး	-2710
ဇေရ	-2711
ဌနာ	-2712
နာဇ	-2713
နူး	-2714
မပယ	-2715
ယာယ	-2716
လွယ	-2717
းမက	-2718
ငါပယ	-2719
နေမည	-2720
ပြို	-2721
မဆို	-2722
မလွတ	-2723
သူကဲ	-2724
သူလက	-2725
အလှူ	-2726
ခါနနိ	-2727
ခြေနင	-2728
ငါပြန	-2729
ညူးစေ	-2730
ဖိလိပ	-2731
မစောင	-2732
မလျော	-2733
မလွှတ	-2734
မိဇပါ	-2735
မိသော	-2736
ရလျှင	-2737
လူနှစ	-2738
လေးရာ	-2739
သောယဇ	-2740
ဟေဗြဲ	-2741
ကာလအစဉ	-2742
ခြေကို	-2743
ဌာနတော	-2744
ထောမနာ	-2745
လိုသော	-2746
းရှောင	-2747
စေကြလော	-2748
ထိုသိတင	-2749
မိမိအသက	-2750
မှပြောင	-2751
သောသူမည	-2752
းရှိသော	-2753
ဗေသလမြို	-2754
ရှိကြလိမ	-2755
ယုဒအမျိုးသားတို	-2756
ယို	-2757
ယေဖ	-2758
အရည	-2759
ပြမည	-2760
ဗေနာ	-2761
လတွင	-2762
သာယာ	-2763
ကိုတည	-2764
ခဏခြင	-2765
ပုံသဏ	-2766
မဆောင	-2767
ယူတော	-2768
ယေရှဲ	-2769
အရာရာ	-2770
ကြားသိ	-2771
ပညာနှင	-2772
ပြီးသည	-2773
မီးဖို	-2774
ရှိလော	-2775
သိုထား	-2776
အဒေါနိ	-2777
ကျူးခြင	-2778
ငါပြုမည	-2779
ညဦးတိုင	-2780
မှားခြင	-2781
ယခုတိုင	-2782
သောနောက	-2783
သောအခွင	-2784
▁??????	-2785
ထိုကျောက	-2786
ဤမျှလောက	-2787
းသောသူသည	-2788
စားစရာဘို	-2789
မောရှေကလည	-2790
ရှုရိလူတို	-2791
သောသူတယောက	-2792
မုသာစကားကို	-2793
ဧဇ	-2794
တညဉ	-2795
ငါခန	-2796
နာမည	-2797
ဗာလက	-2798
ဗောဇ	-2799
မေရာ	-2800
အဖြစ	-2801
ကာလနာ	-2802
ဆီးမည	-2803
မိမိတ	-2804
ရှေမာ	-2805
ခြေစွပ	-2806
စုံတော	-2807
စွဲသော	-2808
ညူးခြင	-2809
ယခုမှစ	-2810
ရှာဖွေ	-2811
ရှိသေး	-2812
သီးသော	-2813
ျားမိန	-2814
ကိုကိုင	-2815
ငါးထောင	-2816
တရားတွေ	-2817
ပြုနိုင	-2818
မြေတပြင	-2819
ရှားတော	-2820
ကြိုးနှင	-2821
စကားပြော	-2822
တုရုမြို	-2823
မအမှုကို	-2824
သူကိုမျှ	-2825
?????????	-2826
စကားသံကို	-2827
▁???????????????	-2828
ကညာ	-2829
တသက	-2830
လုတ	-2831
ဩမဲ	-2832
းလာ	-2833
ကိရယ	-2834
ကိုး	-2835
တောက	-2836
သေမင	-2837
အချက	-2838
ဣသခါ	-2839
ဤအိမ	-2840
ဩဘွယ	-2841
းမြတ	-2842
ကောဟတ	-2843
ငါပြု	-2844
စုတစု	-2845
တတောင	-2846
မစီရင	-2847
လူနှင	-2848
ဂိဗောင	-2849
ပရိယာယ	-2850
ဘေးနှင	-2851
ရှမာရိ	-2852
အထဲသို	-2853
ဣရှမေလ	-2854
ကြားတော	-2855
ငါးယောက	-2856
ထာဝရအသက	-2857
ဟုဆိုသည	-2858
ဘုရားအား	-2859
ဘုံဗိမာန	-2860
မရဏာနိုင	-2861
ဣသရေလနိုင	-2862
??????????	-2863
ရှိပါစေသော	-2864
အရာများကို	-2865
ဣသရေလအမျိုးသည	-2866
ထာဝရဘုရားပေးတော	-2867
ကံ	-2868
တစု	-2869
သွယ	-2870
းထက	-2871
းလက	-2872
ကာလက	-2873
ငါတည	-2874
နေရင	-2875
နေရစ	-2876
မျို	-2877
ရပြီ	-2878
ရသနည	-2879
ဝဲဘက	-2880
ဟေရှ	-2881
အကြည	-2882
အရှု	-2883
ချသော	-2884
ဍာတော	-2885
တေအဝတ	-2886
သူအား	-2887
အကြေး	-2888
ဦးကို	-2889
းပဌနာ	-2890
ဘဲနေကြ	-2891
ရှိလျက	-2892
သမီးသည	-2893
အရာနှင	-2894
ခြားသော	-2895
ဂလာဆောင	-2896
ပျိုသော	-2897
ရှိပါသည	-2898
းစာလာသည	-2899
စေပြီးမှ	-2900
ဆွေးနွေး	-2901
မျှကာလပတ	-2902
ရှုရိရှင	-2903
အကြီးတို	-2904
မူပြီးလျှင	-2905
လူမျိုးကို	-2906
လူမျိုးအပေါင	-2907
ခြည	-2908
ဇိမ	-2909
ဒသမ	-2910
ဗုတ	-2911
မကယ	-2912
ပြတင	-2913
ယေဗု	-2914
ရေငတ	-2915
လေသည	-2916
းပြည	-2917
းမေတ	-2918
ဇမြို	-2919
ပေးလေ	-2920
ဘေးဒဏ	-2921
လှောင	-2922
သိုးမ	-2923
အာဇရိ	-2924
ကြီးသူ	-2925
ခြေတို	-2926
စားတော	-2927
သားနှစ	-2928
အနာကို	-2929
ျားကို	-2930
ပြီးစီး	-2931
မီးလျှံ	-2932
ယောယကိမ	-2933
ရေချိုး	-2934
သောသူကဲ	-2935
အစာခေါင	-2936
ညှိုးနွမ	-2937
ထိုသူနှစ	-2938
ဘုရားမိန	-2939
ဘုရားရှေ	-2940
မောရှေကို	-2941
သူတပါးကို	-2942
းသောအရာကို	-2943
စူ	-2944
ဇက	-2945
နု	-2946
ဣန	-2947
ခွါ	-2948
ဂါသ	-2949
ဂေဒ	-2950
စွမ	-2951
တနည	-2952
ဘိတ	-2953
းထန	-2954
လူသတ	-2955
အာခတ	-2956
ဆိုးမ	-2957
ဇေဒကိ	-2958
တာရှည	-2959
နေလျက	-2960
ဘဲမနေ	-2961
မဆိုင	-2962
သေလွန	-2963
မီးကို	-2964
ရောသော	-2965
သတိပေး	-2966
းရေတွင	-2967
ရိုးပေါ	-2968
လုံးတွင	-2969
ဟေရှဘုန	-2970
ကြီးပွား	-2971
သောအချိန	-2972
မြေကြီးသည	-2973
းသောဝိညာဉ	-2974
းကိုခံရသော	-2975
လောကီသားတို	-2976
အဆွေအမျိုးသူကြီး	-2977
ဂဲ	-2978
မီ	-2979
ရဗ	-2980
စသတ	-2981
စိရ	-2982
ညှင	-2983
ဍာန	-2984
ပုလ	-2985
အမူ	-2986
ဧကန	-2987
းစင	-2988
းထဲ	-2989
ကုရှ	-2990
ခံလေ	-2991
ဇိသည	-2992
ရာမှ	-2993
လာမည	-2994
သိနာ	-2995
ဟေလသ	-2996
အပါး	-2997
ကာလသည	-2998
ကိုကယ	-2999
ငြိုး	-3000
ဘာအဆက	-3001
ရှိမိ	-3002
လာလိမ	-3003
ဟုမိန	-3004
အမွေး	-3005
ဥပဒေသ	-3006
ကိုပေး	-3007
ကိုမုန	-3008
တရားလမ	-3009
တဝါတို	-3010
ရှေမာယ	-3011
သုံးရာ	-3012
ချီလွှဲ	-3013
စပါးရိတ	-3014
ပြုသဖြင	-3015
မီးခိုး	-3016
းတံပိုး	-3017
မရှိလျှင	-3018
မိမိနေရာ	-3019
သွားသဖြင	-3020
အသွေးနှင	-3021
းသောအကျင	-3022
မိဇပါမြို	-3023
မှာထားသော	-3024
အလိုရှိသည	-3025
းရဲသားတို	-3026
ယယ	-3027
ိစ	-3028
ကုရ	-3029
ကျူ	-3030
ညို	-3031
တလင	-3032
နုန	-3033
ဖုတ	-3034
ရပင	-3035
ရှလ	-3036
အာဣ	-3037
းဘဲ	-3038
းရင	-3039
တခွန	-3040
ပလွံ	-3041
မပေါ	-3042
ဟာဒဒ	-3043
းတဘက	-3044
းရွာ	-3045
ငါရေး	-3046
နေရကြ	-3047
ရေနှင	-3048
ရှိစဉ	-3049
းစောင	-3050
းပိုင	-3051
နေလျှင	-3052
ဘေးလွတ	-3053
မခံသော	-3054
မရှိပါ	-3055
မေရာရိ	-3056
ယွာဘသည	-3057
ရာမြို	-3058
ရွာသို	-3059
ရှာကြံ	-3060
ရှာသော	-3061
လုံးသည	-3062
လူမိုက	-3063
သွားစဉ	-3064
အားဆို	-3065
းရဲဒုက	-3066
းအရာသည	-3067
နေသောသူ	-3068
မယားနှင	-3069
မိမိကို	-3070
ရွှေနှင	-3071
သားဘွား	-3072
းအရာတို	-3073
လူသားတို	-3074
သုံးဆောင	-3075
သုံးထောင	-3076
ဂလာရှိတော	-3077
ထိုအရာတို	-3078
ရသောအချိန	-3079
တစုံတခုမျှ	-3080
ပြောဆိုသော	-3081
မြေကြီးတပြင	-3082
အမျိုးသားအပေါင	-3083
းဝ	-3084
ဆွတ	-3085
ဒူး	-3086
ပုတ	-3087
ပျင	-3088
ဖိန	-3089
ဘွဲ	-3090
မဆက	-3091
မတင	-3092
အလံ	-3093
ူစူ	-3094
းရိ	-3095
စာသည	-3096
ဓေယူ	-3097
မပြန	-3098
မမှီ	-3099
လောတ	-3100
ဟာမတ	-3101
တနိုင	-3102
ဒေသနာ	-3103
ယောရံ	-3104
းအပြစ	-3105
ငါနှုတ	-3106
စုံခြင	-3107
ဆိုသတည	-3108
တွားတတ	-3109
နားတော	-3110
ယေဗုသိ	-3111
ရွှေလင	-3112
ရှိဟုန	-3113
လာလျှင	-3114
သောသား	-3115
အမွေဥစ	-3116
းထဲမှာ	-3117
ပြားကို	-3118
လာကြလော	-3119
သဘောရှိ	-3120
းလျှောက	-3121
ပြုသောသူ	-3122
သုံးကြိမ	-3123
ဆိုလိုသတည	-3124
မှာရှိသနည	-3125
အမျိုးထဲက	-3126
းပြီးလျှင	-3127
ပသခါပွဲကို	-3128
သောအမှုတို	-3129
အကျိုးအပြစ	-3130
ကျေးဇူးပြုတော	-3131
အမျိုးမျိုးသော	-3132
ဌမ	-3133
ပစပ	-3134
ပြသ	-3135
ရအံ	-3136
သုန	-3137
းမင	-3138
တမနေ	-3139
မကြည	-3140
လသား	-3141
သတိမ	-3142
အကျဉ	-3143
အားရ	-3144
းလွဲ	-3145
ငါခေါ	-3146
ပြုအံ	-3147
မုယော	-3148
လေကို	-3149
သေရမည	-3150
အကျိန	-3151
ကိုဖွင	-3152
ပါစေဟု	-3153
မရှိဟု	-3154
မိလျှင	-3155
သတိနှင	-3156
းစာကို	-3157
လာကြလိမ	-3158
သိစေခြင	-3159
စိုးစံလေ	-3160
ပြုကြပြီ	-3161
မိမိအပြစ	-3162
မူသောပြည	-3163
ရှိကြောင	-3164
းဘိုးကို	-3165
နှလုံးအကြွင	-3166
းရှိသမျှတို	-3167
ပဥ	-3168
ဖေ	-3169
ယဉ	-3170
ဧလ	-3171
ကိလ	-3172
ကျဉ	-3173
စေရ	-3174
လှယ	-3175
အညစ	-3176
စာရာ	-3177
နေတတ	-3178
မစွန	-3179
သေလေ	-3180
အနိစ	-3181
အလှည	-3182
စိနှင	-3183
စူးစမ	-3184
တုရှင	-3185
နေခြင	-3186
နဲသော	-3187
ဘိုးဘ	-3188
ယေဇရေ	-3189
အကာရှ	-3190
ိမြို	-3191
ူးတို	-3192
းမဖြစ	-3193
ငါတောင	-3194
ငွေနှင	-3195
ငွေရတတ	-3196
စားလျက	-3197
တခါမျှ	-3198
ထဲကထွက	-3199
နေရသော	-3200
ရွှေတန	-3201
လူဆိုး	-3202
သူမြို	-3203
သွားတတ	-3204
သွားသည	-3205
အရာဖြစ	-3206
အားမိန	-3207
ဤလူတို	-3208
ဧလိယသည	-3209
းသာပေး	-3210
ငါးကောင	-3211
ငါးတောင	-3212
ပြောတော	-3213
ဘေးရောက	-3214
သမီးကို	-3215
အဘဒါဝိဒ	-3216
ကာလအချိန	-3217
ပြုကြလိမ	-3218
ပြုစေခြင	-3219
ဘဲနေလျှင	-3220
မိမိမယား	-3221
ရှမွေလသည	-3222
သောသူကား	-3223
အကြီးအငယ	-3224
ပြာသောအထည	-3225
မရှိသောသူ	-3226
လူဆိုးတို	-3227
အမဲသားကို	-3228
အမျိုးနှင	-3229
းဆိုကြလော	-3230
ကိုချီးမွမ	-3231
ယူပြီးလျှင	-3232
သောဒုံမြို	-3233
???????????	-3234
ထိုဘုရားသခင	-3235
ဇဒ	-3236
ဗဒ	-3237
ဖေလ	-3238
းဆန	-3239
းသူ	-3240
ချပစ	-3241
ခြိမ	-3242
ငံသည	-3243
ထလော	-3244
ဖေါက	-3245
ရေခပ	-3246
ရှာလ	-3247
လကလည	-3248
လနှင	-3249
လာပါ	-3250
လုယက	-3251
ဟာနန	-3252
အထီး	-3253
အဗျာ	-3254
းအား	-3255
ကိုသင	-3256
ခံတွင	-3257
ခြေသည	-3258
ဂေဒလိ	-3259
စာပျက	-3260
စေပြီ	-3261
တာရှု	-3262
တိပြည	-3263
ထုလုပ	-3264
နေထွက	-3265
ပဌမနေ	-3266
ပါရမီ	-3267
ရာမုတ	-3268
ရံတော	-3269
လေးရက	-3270
ဟာဇေလ	-3271
အပျို	-3272
အမိဝမ	-3273
းပါမည	-3274
ကိုချင	-3275
ငါကျိန	-3276
စရာရှိ	-3277
စုံလျက	-3278
စေခိုင	-3279
ထားလော	-3280
ပြုသနည	-3281
မပြုဘဲ	-3282
မရှိသည	-3283
မိမိအဘ	-3284
ဦးညွှတ	-3285
ပြိုပျက	-3286
ရှားခြင	-3287
ရှိသဖြင	-3288
လုံခြုံ	-3289
အာရှရပင	-3290
းမတယောက	-3291
သားတယောက	-3292
စားစရာကို	-3293
ပညာရှိတို	-3294
မတရားသောသူ	-3295
ယေဇရေလမြို	-3296
မတရားသောသူသည	-3297
မနာရှေအမျိုး	-3298
တစုံတခုကိုမျှ	-3299
ကုတ	-3300
ခဆင	-3301
ဆား	-3302
ဓလေ	-3303
နဂါ	-3304
အကဲ	-3305
းခတ	-3306
းရန	-3307
ခကို	-3308
ခုတင	-3309
တုံး	-3310
ပြုတ	-3311
ဗာနဗ	-3312
မပြစ	-3313
မပြည	-3314
မပြေ	-3315
ဝေဖန	-3316
အစား	-3317
အာမန	-3318
အာသပ	-3319
ဤပညတ	-3320
ကြီးမ	-3321
ငါတွေ	-3322
ငြူစူ	-3323
နာဇရက	-3324
ဗေနာယ	-3325
သံနှင	-3326
အကြိမ	-3327
အသေခံ	-3328
အသံသည	-3329
းမြား	-3330
ကိုမသိ	-3331
ကိုယုံ	-3332
ကြီးလှ	-3333
ကွဲခြင	-3334
ထိုအပင	-3335
မရှောင	-3336
မှာရှိ	-3337
လူကြီး	-3338
သောအဝတ	-3339
အထုံးအ	-3340
းတယောက	-3341
းရဲသော	-3342
ကြပါလော	-3343
ခံကြလော	-3344
ပြုပါမည	-3345
ရှိသလော	-3346
သာမျိုး	-3347
းသောစိတ	-3348
စားကြလိမ	-3349
းများတို	-3350
းသောအမှု	-3351
ခံရသောအခါ	-3352
ထိုသားကို	-3353
မာတရားကို	-3354
ရှားစေခြင	-3355
လေပြီတကား	-3356
အထုံးအဖွဲ	-3357
အဘိုးထိုက	-3358
အမျိုးတွင	-3359
းကြီးတပါး	-3360
များအားဖြင	-3361
ခံရသောသူတို	-3362
တံခါးနားမှာ	-3363
များပြားသော	-3364
အမှုအရာကြွင	-3365
မရှိသောကြောင	-3366
မိမိဘုရားသခင	-3367
အဆွေအမျိုးတို	-3368
ဇု	-3369
ကာမ	-3370
ကြဉ	-3371
ထကြ	-3372
သသည	-3373
ဟိလ	-3374
ဧလံ	-3375
ဩဇိ	-3376
းပြ	-3377
တိမင	-3378
ထူထပ	-3379
နေပါ	-3380
မခေါ	-3381
ရေဗက	-3382
လေအာ	-3383
လောဘ	-3384
သပိတ	-3385
အဘိယ	-3386
းမှာ	-3387
းသကဲ	-3388
ချွေး	-3389
ညံလျက	-3390
တပိုင	-3391
မသနား	-3392
မသိကြ	-3393
ရှိမင	-3394
လာပြီ	-3395
းရသော	-3396
ငါရောက	-3397
တဆေးမဲ	-3398
ပေးစား	-3399
မပျောက	-3400
မသိသော	-3401
မာတရား	-3402
ရကြပြီ	-3403
လူပေါင	-3404
ဟေရှာယ	-3405
အဗျာသာ	-3406
အသံတော	-3407
းဝေးကြ	-3408
ကိုထောက	-3409
ကြားသော	-3410
ငါမူကား	-3411
စကားတို	-3412
ဇေဒကိမင	-3413
ထိုကျွန	-3414
မယားဖြစ	-3415
မှူးတော	-3416
ရှားလျက	-3417
အာဏာတော	-3418
ကြားရသော	-3419
နေသောအခါ	-3420
ပြုမိသော	-3421
ရှိကြလော	-3422
သောဘုရား	-3423
အကျိုးနည	-3424
အမှုစောင	-3425
ခိုလှုံရာ	-3426
မရှိစေခြင	-3427
ပြုသောအမှု	-3428
းရဲသောသူတို	-3429
ထာဝရဘုရားနှင	-3430
ငါထာဝရဘုရားသည	-3431
▁-	-3432
ကြေ	-3433
ခါး	-3434
ဆုံ	-3435
ညွန	-3436
တမဲ	-3437
ဗလံ	-3438
မချ	-3439
မမေ	-3440
မာလ	-3441
မိစ	-3442
လဆန	-3443
ဟုရ	-3444
အကန	-3445
ကဲသာ	-3446
တယော	-3447
တသိန	-3448
တိုး	-3449
ထတော	-3450
ယောဟ	-3451
ရှုံ	-3452
းစိတ	-3453
းဖူး	-3454
းမှစ	-3455
ကိုလက	-3456
ဂိလဂါ	-3457
စုသိမ	-3458
ဆိုခဲ	-3459
မစတော	-3460
မီးသည	-3461
ယူသော	-3462
သဘောက	-3463
ဟိလခိ	-3464
အဘတို	-3465
အဘနှင	-3466
အဘဖြစ	-3467
းတိုက	-3468
ကိုလုပ	-3469
ကိုအဘယ	-3470
ဆရာတို	-3471
တောအရပ	-3472
ပေးလော	-3473
ပေးလျက	-3474
ဗောရှက	-3475
မယားသည	-3476
မြေသို	-3477
သူများ	-3478
သေလျှင	-3479
အာမနုန	-3480
းရဲသား	-3481
းလွှား	-3482
ကျိုးပဲ	-3483
ကြီးကို	-3484
ပြုရသော	-3485
ဘုရားဝတ	-3486
ဘူးသလော	-3487
မိမိသား	-3488
ရာမမြို	-3489
ရွာများ	-3490
လေပြီဟု	-3491
သူမူကား	-3492
သွားခြင	-3493
းကိုမျှ	-3494
းသားတို	-3495
ကြားလိုက	-3496
စားရကြမည	-3497
မျိုးတို	-3498
မှာထားသည	-3499
သိုးမွေး	-3500
သွားလျှင	-3501
ဟုလျှောက	-3502
းစကားကို	-3503
စကားကြောင	-3504
ဆိုပြီးမှ	-3505
နှလုံးနှင	-3506
ပညာရှိသော	-3507
းရှိကြလော	-3508
လူအမျိုးမျိုး	-3509
ကရ	-3510
ဟဂ	-3511
နွေ	-3512
ရှမ	-3513
သလဲ	-3514
ဟာဂ	-3515
ကာဒေ	-3516
မညှဉ	-3517
မလှည	-3518
မဟော	-3519
ဟိရံ	-3520
အဟော	-3521
ဤမိန	-3522
းပြီ	-3523
းရွက	-3524
ချောက	-3525
တိကို	-3526
ထားပြ	-3527
ထိုညဉ	-3528
ထိုပလ	-3529
ထိုယဇ	-3530
ပေရသိ	-3531
ပေးတတ	-3532
ဗာရှာ	-3533
ဘမြို	-3534
ယုဒသည	-3535
ယူခြင	-3536
ရှာဖန	-3537
သောဥစ	-3538
ဟုခေါ	-3539
းအပြည	-3540
ကာမဂုဏ	-3541
စကားသံ	-3542
ဆီးသော	-3543
တပါးသည	-3544
ထားပြီ	-3545
ထိုသူက	-3546
ပေတရုက	-3547
ပြအိုး	-3548
သာလျှင	-3549
သာသနာပ	-3550
အမှိုက	-3551
းစေသော	-3552
းတုတို	-3553
းနှောင	-3554
းမျိုး	-3555
ဂါသမြို	-3556
စိုးသော	-3557
ထိုသူငယ	-3558
နေကြလိမ	-3559
နွားကို	-3560
မိမိနှင	-3561
မှာထိုင	-3562
ရုံးတော	-3563
ရှိကြသည	-3564
လေးယောက	-3565
သမီးကညာ	-3566
းသောအထည	-3567
ဒေါသအမျက	-3568
ယေရမိသို	-3569
ယောရှိမင	-3570
းကြီးသော	-3571
းလေးထောင	-3572
တံခါးတိုင	-3573
မူသမျှတို	-3574
မူသောသူသည	-3575
ရှိသောအခါ	-3576
ခါလဒဲလူတို	-3577
ဂိလဂါလမြို	-3578
တရားအားဖြင	-3579
ထိုအမှုအရာ	-3580
ရှိလောမြို	-3581
အမှုအရာတို	-3582
တရားစကားကို	-3583
ထောမနာသီချင	-3584
ဘိုးဘေးများ	-3585
သိုးထီးတကောင	-3586
ဣသရေလလူအပေါင	-3587
အူ	-3588
ညှပ	-3589
တပိ	-3590
တရံ	-3591
ထွာ	-3592
ဒါယ	-3593
ဖေရ	-3594
ဗိလ	-3595
ဘိလ	-3596
ရိက	-3597
လှမ	-3598
အမတ	-3599
အယူ	-3600
းတု	-3601
ွှန	-3602
ဆာလံ	-3603
တခုတ	-3604
ပဌမလ	-3605
မနေရ	-3606
ရှေလ	-3607
ဥရိယ	-3608
ိုလဲ	-3609
ကိုခံ	-3610
ငါမသိ	-3611
ဆီးတတ	-3612
နူးညံ	-3613
ပါတော	-3614
ဖိနဟတ	-3615
ဗာရုတ	-3616
မတောင	-3617
မနှုတ	-3618
မလွှဲ	-3619
မျောက	-3620
မျှသာ	-3621
မှာရပ	-3622
ရာသခင	-3623
အာဟာရ	-3624
းစေမည	-3625
ကိုကြည	-3626
ကျေးလက	-3627
ကြပါသည	-3628
ကြသဖြင	-3629
ဍာတိုက	-3630
ပွဲသို	-3631
မိဘတို	-3632
မှူးသည	-3633
အာရွှေ	-3634
ခံသောသူ	-3635
ဂေရရှုံ	-3636
ငွေအခွက	-3637
စားရသော	-3638
ဆေးကြော	-3639
နွားတို	-3640
ယေရမိသည	-3641
ရှားလိမ	-3642
ရှောလုက	-3643
အမှုဖြစ	-3644
အမှုမှာ	-3645
အာဣမြို	-3646
အိုအရှင	-3647
ဣသရေလသည	-3648
းဝေးခြင	-3649
းသောအရာ	-3650
ျားပေါင	-3651
ကဲသာဘုရင	-3652
တောသားရဲ	-3653
ပေါလုနှင	-3654
မသနားတော	-3655
မှာထားလေ	-3656
းကြီးတော	-3657
းအာနုဘော	-3658
ဆာများကို	-3659
ရှောလုနှင	-3660
လူများရှေ	-3661
သွားသောလမ	-3662
ဟောပြောသည	-3663
ဦးချိုတို	-3664
အလျားအတောင	-3665
ဤလူမျိုးသည	-3666
းပြုဆရာတို	-3667
ခိုးအာနုဘော	-3668
ထားပြီးလျှင	-3669
ပြောဆိုလျှင	-3670
အလုံးစုံကို	-3671
းကျေးဇူးကို	-3672
ဆုံးရှုံးခြင	-3673
?????????????	-3674
ဘဝ	-3675
းစ	-3676
ခွာ	-3677
ဇုရ	-3678
ဇေဘ	-3679
ဓာတ	-3680
နိစ	-3681
ရွတ	-3682
သိလ	-3683
သေယ	-3684
ိမင	-3685
းမူ	-3686
တာသည	-3687
မကြာ	-3688
မကွာ	-3689
မရှင	-3690
မသွင	-3691
လေသာ	-3692
ဟောက	-3693
းမငယ	-3694
းလုပ	-3695
းအုပ	-3696
ငါကလည	-3697
စုံမည	-3698
ထိုလူ	-3699
နမြို	-3700
မကြွင	-3701
မေရှု	-3702
ယုဘိလ	-3703
ယောသံ	-3704
လောဗန	-3705
လှသော	-3706
သူကလည	-3707
အဝေးက	-3708
အာဇုတ	-3709
အာနုန	-3710
ဆီဥကို	-3711
ဇာမြို	-3712
နားသို	-3713
ပလွံပင	-3714
ပါလေစေ	-3715
ပြောလေ	-3716
မိမိခင	-3717
မူပါစေ	-3718
မူသလော	-3719
လေးပါး	-3720
အကဲအမှ	-3721
အဘိရှဲ	-3722
အသံဗလံ	-3723
ျားနှင	-3724
ကိုတိုက	-3725
ဗေရရှေဘ	-3726
လူတထောင	-3727
သရဖူကို	-3728
သေစေခြင	-3729
သေသောသူ	-3730
သွားလိမ	-3731
ဟေဇကိသည	-3732
းစရာဘို	-3733
နီသောအထည	-3734
မိမိကိုယ	-3735
သိနာတောင	-3736
ကိုယုံကြည	-3737
ငါအလိုရှိ	-3738
တရားအတိုင	-3739
မှားပါပြီ	-3740
ဟောပြောကြ	-3741
ထူးခြားသော	-3742
ရှိသောသူသည	-3743
နှလုံးထဲမှာ	-3744
မူပါစေသောဟု	-3745
စာရှိသမျှကို	-3746
လူအစုအဝေးတို	-3747
အမျိုးမျိုးကို	-3748
ဂန	-3749
ပံ	-3750
အဓ	-3751
စုရ	-3752
မစည	-3753
မရဏ	-3754
အတင	-3755
းရံ	-3756
းသေ	-3757
ခုစီ	-3758
စိသည	-3759
ဆာဆင	-3760
နာရီ	-3761
နေဗတ	-3762
မရှာ	-3763
မာကေ	-3764
မာခါ	-3765
ရိမင	-3766
လူသေ	-3767
သတိရ	-3768
သူတည	-3769
ဦးချ	-3770
ဩခြင	-3771
းပြန	-3772
းမသိ	-3773
းအသင	-3774
ကိုပြ	-3775
ခရာတင	-3776
ငံတို	-3777
စိမြင	-3778
စေချင	-3779
တိမော	-3780
ပါသတည	-3781
ပေးသည	-3782
ပြောက	-3783
ဘူးသည	-3784
မပါဘဲ	-3785
မာသေယ	-3786
မီးခဲ	-3787
မှိုင	-3788
ယောခတ	-3789
သောလက	-3790
ဟာနနိ	-3791
အမှုတ	-3792
းကြား	-3793
းလွှဲ	-3794
ကြပါဟု	-3795
ဆိုပြန	-3796
ဆိုလော	-3797
တခုကို	-3798
ထိုနှစ	-3799
ထိုရှင	-3800
နေကြသည	-3801
မိဘကို	-3802
မှစသော	-3803
ယောဟနန	-3804
လျှာသည	-3805
သူခိုး	-3806
အာဏာစက	-3807
ဧဒုံပင	-3808
းအရောင	-3809
ကိုတောင	-3810
ကိုလွှတ	-3811
ငွေဖလား	-3812
စိုးခြင	-3813
ဆိုးယုတ	-3814
ထိုအပြစ	-3815
နှာခေါင	-3816
မခံနိုင	-3817
မာနထောင	-3818
သိုးဆိတ	-3819
ဟုဆိုကြ	-3820
းသောအရပ	-3821
ငံသားတို	-3822
စာရေးတော	-3823
အစာအာဟာရ	-3824
အမျိုးမှ	-3825
ဧလိရှဲသည	-3826
းတွားခြင	-3827
စာများကို	-3828
ထားပြီးမှ	-3829
ထိုပရောဖက	-3830
ရေလအမျိုး	-3831
ရေးထားသော	-3832
ရှုသောအခါ	-3833
သူရဲအပေါင	-3834
သွားကြကုန	-3835
အမျိုးအစဉ	-3836
းကြားပြော	-3837
ခရီးသွားကြ	-3838
တပါးအမျိုး	-3839
လူအများတို	-3840
အမွေခံရသော	-3841
အားဆိုလျှင	-3842
ပြုသောသူတို	-3843
ဘာသာစကားကို	-3844
မှားသောအပြစ	-3845
လူကိုစေလွှတ	-3846
စကားကိုနားထောင	-3847
တလ	-3848
မဿ	-3849
ဌေး	-3850
ဒရယ	-3851
မဆင	-3852
မရိ	-3853
ဟုဒ	-3854
ဟေရ	-3855
ဧလက	-3856
ေဇာ	-3857
းစီ	-3858
ကဖြစ	-3859
ကြစဉ	-3860
ပိဿာ	-3861
မရို	-3862
မလွန	-3863
မြုံ	-3864
သာမည	-3865
သိပါ	-3866
အဟိယ	-3867
ကိုဘမ	-3868
ကြသတည	-3869
ခုကို	-3870
ငါထား	-3871
ငါပညတ	-3872
ငြိုင	-3873
တခြား	-3874
ပညာသည	-3875
မနိုင	-3876
မအမှု	-3877
မြှုပ	-3878
ယေခေါ	-3879
ရာဘို	-3880
ရှေမက	-3881
အကိုင	-3882
အမိသည	-3883
အာခဇိ	-3884
ဧလျာဘ	-3885
းအပေါ	-3886
ကာဒေရှ	-3887
ကိုစား	-3888
စီးလျက	-3889
ဇေရုယာ	-3890
ညီပေါင	-3891
နေဇာသည	-3892
နေအောက	-3893
ပြိုလဲ	-3894
မရေတွက	-3895
ယောရှိ	-3896
ရှားစေ	-3897
လုံကို	-3898
လေးမျက	-3899
အမဲသား	-3900
အရာမှာ	-3901
းဆဲသော	-3902
းမစိုး	-3903
ကိုစောင	-3904
ငြိုငြင	-3905
တရားတို	-3906
တီးမှုတ	-3907
ဒံယေလသည	-3908
နေရာကို	-3909
ပြားနှစ	-3910
ပြုကြသည	-3911
မပြုနှင	-3912
မိမိပြည	-3913
မိမိသခင	-3914
မုသာကို	-3915
မေရှုလံ	-3916
မြေခွေး	-3917
ရထားတော	-3918
ရွေးတော	-3919
ရွှေကို	-3920
လုယူသော	-3921
လေးသောင	-3922
သောစပျစ	-3923
အသရေတော	-3924
ဣသရေလလူ	-3925
းရှိတော	-3926
ကြိုးကို	-3927
ခံပြီးမှ	-3928
တိုးပွါး	-3929
တံခါးသို	-3930
ထိုအချိန	-3931
ပေးကြလော	-3932
ဗာလဘုရား	-3933
ရှုကြလော	-3934
သွားရသော	-3935
ထိုကာလအခါ	-3936
ပြုလေရာရာ	-3937
များကြောင	-3938
သနားစုံမက	-3939
သောအသံကို	-3940
အဦးသီးသော	-3941
းသွေးဆောင	-3942
သားများကို	-3943
သတိပြုကြလော	-3944
အကြီးအကဲတို	-3945
ဆာရှိသမျှတို	-3946
အရေဖျားလှီးမင	-3947
သားသမီးများကို	-3948
ဇန	-3949
တီ	-3950
အဋ	-3951
ဩဃ	-3952
ကြင	-3953
ငြာ	-3954
ဇွန	-3955
ဒိန	-3956
ပိန	-3957
ဖိမ	-3958
မကျ	-3959
မစပ	-3960
မုရ	-3961
ယေလ	-3962
ချမည	-3963
စဖူး	-3964
တအိမ	-3965
ပရိတ	-3966
မထိမ	-3967
မနှစ	-3968
မရွေ	-3969
ရခြင	-3970
ရှကာ	-3971
သိသည	-3972
ဟိဝိ	-3973
ဟေဗာ	-3974
ဟောရ	-3975
အရွက	-3976
းရှေ	-3977
ကျသော	-3978
ငါနှစ	-3979
ငွေတန	-3980
ဆုကို	-3981
ဇေရုဗ	-3982
နာဗုတ	-3983
ပြုရာ	-3984
ဖေရဇိ	-3985
ယူရမည	-3986
ရကြဟု	-3987
အသုံး	-3988
အားယူ	-3989
းခုနစ	-3990
းခေါင	-3991
းမဟုတ	-3992
းသမား	-3993
ကိုဖြစ	-3994
ကိုလှည	-3995
ဂေါမော	-3996
စားရကြ	-3997
ဆွဲထား	-3998
ညအချိန	-3999
ညိုသော	-4000
ထူးတော	-4001
နှာပျက	-4002
ပညာအတတ	-4003
ပါတကား	-4004
ပြုလိမ	-4005
ဖြူသော	-4006
မနာလို	-4007
ယောဘသည	-4008
ရသောသူ	-4009
ရေလွှမ	-4010
ရှိသကဲ	-4011
ရှုခြင	-4012
ရှုလျက	-4013
လှူသော	-4014
လှေကား	-4015
သဘောသည	-4016
သိလျှင	-4017
သောကာလ	-4018
ဟောတော	-4019
အငြိုး	-4020
ကိုဝိုင	-4021
ကြီးမြင	-4022
ခြေထောက	-4023
ပြောစရာ	-4024
ယုဒရှကာ	-4025
ရှိကြပါ	-4026
လုယူခြင	-4027
လွှဲတော	-4028
သမားတို	-4029
းခိုသော	-4030
တံခါးရွက	-4031
နေပြီးမှ	-4032
နေရာမြို	-4033
ပေါလုကို	-4034
ဘုရားနှင	-4035
မိမိညီအစ	-4036
မွေးဘွား	-4037
ရှုရိပြည	-4038
သုံးသောင	-4039
အသေခံတော	-4040
အာရွှေရု	-4041
းကြီးနှင	-4042
းငါးထောင	-4043
ျားအပေါင	-4044
ထိုအမှုသည	-4045
ပြုပြီးမှ	-4046
သိုးတကောင	-4047
စေပြီးလျှင	-4048
ယုဒရှကာရုတ	-4049
ရူပါရုံကို	-4050
အမှီပြုလျက	-4051
ငိုကြွေးလျက	-4052
တရားဆုံးဖြတ	-4053
ကြီးသောအသံနှင	-4054
ဆုံးမဩဝါဒပေးတော	-4055
ဥဖ	-4056
ဇရု	-4057
ဇာရ	-4058
ဇိန	-4059
တပင	-4060
ဒြေ	-4061
နေလ	-4062
ဘွေ	-4063
မရပ	-4064
ရဥစ	-4065
ဝိဇ	-4066
သမက	-4067
သမင	-4068
အဇု	-4069
းကာ	-4070
ကာရန	-4071
ငါနေ	-4072
တွေး	-4073
နေဝင	-4074
ဖူးမ	-4075
ဗေဒင	-4076
မငြင	-4077
မာခိ	-4078
ယာဗက	-4079
ရိုင	-4080
ရေကဲ	-4081
ဝေငှ	-4082
သေရည	-4083
အဟိမ	-4084
အာဂန	-4085
ဥဖရတ	-4086
းသနည	-4087
ကာနှင	-4088
ကိုပယ	-4089
ငါးရက	-4090
ငံသို	-4091
စာလိပ	-4092
စေလျက	-4093
နှာမှ	-4094
ပွဲနေ	-4095
မတိုက	-4096
ရာကာလ	-4097
လာဇရု	-4098
လူမျက	-4099
အာမုတ	-4100
အာရှိ	-4101
ဧလကာန	-4102
းသောင	-4103
ကိုဖျက	-4104
ကိုအုပ	-4105
ကြီးရင	-4106
တရာနှစ	-4107
နီးပြီ	-4108
နှာကြက	-4109
ဘီးတို	-4110
မလူတို	-4111
မီးနှင	-4112
မူသမျှ	-4113
လာကြသည	-4114
အားနှင	-4115
းခံခြင	-4116
းရေကို	-4117
စကားဖြင	-4118
ဆိုသဖြင	-4119
ဒူးထောက	-4120
ပါရစေဟု	-4121
ပေးနိုင	-4122
ပြားတို	-4123
လောကဓာတ	-4124
သဘောနှင	-4125
သေကြောင	-4126
းသေးသော	-4127
းအရာရှိ	-4128
ကာလနာဘေး	-4129
ခံရသောသူ	-4130
ငါမှတပါး	-4131
ဆိုးမတို	-4132
ထိုလူတို	-4133
သိအမျိုး	-4134
သောအရာသည	-4135
သွားကြစဉ	-4136
သွားပါမည	-4137
ဤစကားကို	-4138
းဆိုပါမည	-4139
းရဲသောသူ	-4140
ပါစေသောဟု	-4141
မပြုကြနှင	-4142
မာကေဒေါနိ	-4143
ရသောကြောင	-4144
ရှေးဦးစွာ	-4145
သောအသံနှင	-4146
ခြားနားသော	-4147
မြေကြီးနှင	-4148
သေသောသူတို	-4149
ဣသရေလရာဇဝင	-4150
ဂလာရှိစေသတည	-4151
ငါမှာထားသော	-4152
မှားသောကြောင	-4153
ဆစ	-4154
ကပင	-4155
ချန	-4156
ဂိဒ	-4157
ပေလ	-4158
ဗနိ	-4159
ဘဝါ	-4160
မသန	-4161
မေရ	-4162
ရူး	-4163
ဟာဒ	-4164
ဟိန	-4165
အဘက	-4166
အအူ	-4167
ဧကြ	-4168
ဧဖက	-4169
းငါ	-4170
ကရာဇ	-4171
ကူညီ	-4172
ခံစေ	-4173
တာမာ	-4174
နိနေ	-4175
မူတတ	-4176
ယူကြ	-4177
ရှုပ	-4178
လျှက	-4179
သိမည	-4180
သေတတ	-4181
သေရက	-4182
အတို	-4183
အဘတည	-4184
အရုပ	-4185
အာဒံ	-4186
ဦးရစ	-4187
းချစ	-4188
းတီး	-4189
းရကြ	-4190
ကိရယတ	-4191
ကိုသည	-4192
ကိုအပ	-4193
ကြံကြ	-4194
ငါဖျက	-4195
ငါရှိ	-4196
ငါသွန	-4197
ငံသား	-4198
စထာဝရ	-4199
စုတွင	-4200
တခုတည	-4201
တာနှင	-4202
တိနှင	-4203
နေလိမ	-4204
ပြခြင	-4205
မပေါင	-4206
မသိဘဲ	-4207
မိပြီ	-4208
မီးကဲ	-4209
မူသကဲ	-4210
မူသတည	-4211
မေရှက	-4212
ရှာကြ	-4213
ရှိလေ	-4214
သိရကြ	-4215
သိသော	-4216
သေလျက	-4217
သောသက	-4218
ဟာဇော	-4219
အဘကို	-4220
အာမခံ	-4221
အာမဇိ	-4222
ဤစကား	-4223
ဧကြုန	-4224
းမံလေ	-4225
းအတွင	-4226
ခဏာကို	-4227
ခြေဖြင	-4228
တဦးကို	-4229
ထိုမုန	-4230
နေရာမှ	-4231
နှာပြု	-4232
နှာသို	-4233
ပြညွှန	-4234
မခံမယူ	-4235
မပြောင	-4236
မယားငယ	-4237
များကဲ	-4238
ယဟောရံ	-4239
ယေဟုသည	-4240
ရောအခါ	-4241
ရှိပြီ	-4242
ရှုရှန	-4243
လေးနှစ	-4244
သောငှာ	-4245
အိုးကင	-4246
းကိုသာ	-4247
ကိုးနှစ	-4248
ကြားလျက	-4249
ခါနနိလူ	-4250
မယားတို	-4251
မရဏနိုင	-4252
မသိနိုင	-4253
မိမိစိတ	-4254
မိုးပေါ	-4255
ရထားစီး	-4256
လုယူဖျက	-4257
သေကြလိမ	-4258
ဤအကြောင	-4259
ဤအမှုသည	-4260
းရှိလိမ	-4261
းလေသမျှ	-4262
ကြားရပြီ	-4263
ခါလဒဲပြည	-4264
ငါပြုသော	-4265
စကားတခွန	-4266
စွဲသောသူ	-4267
တံခါးခုံ	-4268
ထိုခဏခြင	-4269
ပြုစုသော	-4270
ပြုရကြမည	-4271
ပြုရပါမည	-4272
ယုဒရာဇဝင	-4273
ယုဘိလနှစ	-4274
အဘိုးကို	-4275
းကြီးအား	-4276
းသွားသော	-4277
ကြပြီတကား	-4278
ရွံရှာတော	-4279
လူပျိုတို	-4280
လွှဲရှောင	-4281
ဝေးသောအရပ	-4282
သဘောဖြောင	-4283
သူကြီးတို	-4284
သွားစေခြင	-4285
အာမောရိလူ	-4286
းသာပေးတော	-4287
ရှိသမျှနှင	-4288
သားသမီးကို	-4289
အကျိုးမရှိ	-4290
အသီးသီးတို	-4291
ခံရသောကြောင	-4292
ထုံးစံအတိုင	-4293
အလိုရှိလျှင	-4294
အိုဘုရားရှင	-4295
များသောကြောင	-4296
ဂြ	-4297
မံ	-4298
းသ	-4299
ချပ	-4300
ချာ	-4301
ဂုန	-4302
ဆိန	-4303
တမလ	-4304
နာသ	-4305
မစစ	-4306
ရေမ	-4307
သဘင	-4308
သူက	-4309
အတည	-4310
အတန	-4311
ဧဖာ	-4312
ောန	-4313
းပေ	-4314
းလမ	-4315
ွေလ	-4316
ကာဣန	-4317
ခံရာ	-4318
ငှါး	-4319
စေဘဲ	-4320
တုမင	-4321
နကို	-4322
ဗာနာ	-4323
ဗေသလ	-4324
မဘော	-4325
မရိတ	-4326
ရွှံ	-4327
ရှေမ	-4328
လာခိ	-4329
သိသရ	-4330
သူမည	-4331
အပွင	-4332
အာရပ	-4333
ဣသမာ	-4334
ဤအရာ	-4335
ကာသော	-4336
ကျလျက	-4337
ကြံလေ	-4338
ခဏာသက	-4339
စာတို	-4340
စုံသည	-4341
တိအုတ	-4342
နာခေါ	-4343
နီသော	-4344
ပါရစေ	-4345
ပုဆိန	-4346
ပေးပါ	-4347
ပျိုက	-4348
မိမိန	-4349
မေလခိ	-4350
ရနိုင	-4351
ရာပေါ	-4352
ရှိမည	-4353
သူတော	-4354
သေချာ	-4355
သောသင	-4356
အထောင	-4357
အမြီး	-4358
အဟိကံ	-4359
အာခိတ	-4360
းမကလည	-4361
းယူကြ	-4362
ကိလေသာ	-4363
ကြပါစေ	-4364
ကြားကြ	-4365
ကြားသည	-4366
ကြံပြု	-4367
ခံနိုင	-4368
ငါပိုင	-4369
ငါလွှတ	-4370
စားလိမ	-4371
စေနိုင	-4372
တံစိုး	-4373
နိနေဝေ	-4374
နေကြစဉ	-4375
ပြနိုင	-4376
ပြောမည	-4377
မဖြောင	-4378
မသွားရ	-4379
မေးပြန	-4380
လေရာရာ	-4381
သုံးတတ	-4382
သေအောင	-4383
အမှုထမ	-4384
းကျိုး	-4385
းဥပဒေသ	-4386
ပြေးသော	-4387
ဖလားကို	-4388
ဖလားတော	-4389
ဖုံးကို	-4390
မနေနိုင	-4391
ရှုရိလူ	-4392
သမီးဖြစ	-4393
သိုးကို	-4394
အဒေါနိယ	-4395
းပါးခြင	-4396
းဝေးသော	-4397
ကရုဏာနှင	-4398
သားအကြီး	-4399
အကဲအမှူး	-4400
အခြားသို	-4401
အနီးအပါး	-4402
အမှုဆောင	-4403
းရှိလျှင	-4404
းသောမြို	-4405
းအခြားသည	-4406
ခံသောသူသည	-4407
စကားအတိုင	-4408
နွားတကောင	-4409
လူမျိုးသည	-4410
သောသူမရှိ	-4411
အစိုးရတော	-4412
အစေခံကျွန	-4413
အဆုံးတိုင	-4414
အဗရှလုံသည	-4415
အရာကိုမျှ	-4416
အရာရှိတို	-4417
အားပေးတော	-4418
ကြသောကြောင	-4419
စာရေးတံပြု	-4420
ရွှေငွေကို	-4421
သားဦးအပေါင	-4422
အခြားသောသူ	-4423
အာရှုရိပြည	-4424
ခိုးကြီးသော	-4425
ငါထာဝရဘုရား	-4426
ငိုကြွေးခြင	-4427
မူသောအားဖြင	-4428
သာသနာပလူတို	-4429
ဤလူမျိုးကို	-4430
းသောအမှုကို	-4431
ခိုလှုံရာဖြစ	-4432
းမောတွေဝေလျက	-4433
မြေကြီးသားအပေါင	-4434
ဗပ	-4435
ဘယ	-4436
ဂိတ	-4437
ဂုရ	-4438
စေး	-4439
ဇိဘ	-4440
တိရ	-4441
မညစ	-4442
မလူ	-4443
မိလ	-4444
ရာဗ	-4445
လပတ	-4446
သနိ	-4447
အသည	-4448
အာလ	-4449
ဧရှ	-4450
းဝန	-4451
ကာလမ	-4452
ခါရန	-4453
ခံမည	-4454
ဂေါဂ	-4455
ငါစစ	-4456
ငါဆင	-4457
ဆူဖြ	-4458
ညံရာ	-4459
တေမန	-4460
ဒေဇာ	-4461
နဖူး	-4462
နေမန	-4463
မေဒိ	-4464
မြိန	-4465
မြွတ	-4466
လူကန	-4467
လူလက	-4468
လောဃ	-4469
ဝခြင	-4470
ဝပြည	-4471
ဟာဂရ	-4472
အကျန	-4473
အဆီး	-4474
အညွန	-4475
ဩဗဒိ	-4476
းပျက	-4477
းမလင	-4478
းမိန	-4479
းရှစ	-4480
းသာရ	-4481
းအစဉ	-4482
ငါအသက	-4483
စရောက	-4484
စီရှိ	-4485
ဆီးကြ	-4486
ထားခဲ	-4487
ထိုတန	-4488
ဒေဒုံ	-4489
နှောက	-4490
မမူဟု	-4491
မလှုပ	-4492
ယာရိမ	-4493
ယေရော	-4494
ရကြပါ	-4495
ရအောင	-4496
လာသနည	-4497
လဲလျက	-4498
သိခြင	-4499
သူဌေး	-4500
သူရှေ	-4501
သေဘေး	-4502
အသောင	-4503
းကိုယ	-4504
းချုပ	-4505
းဆိုင	-4506
းမရွာ	-4507
းလုလင	-4508
းသလော	-4509
ျာတော	-4510
ကာလတွင	-4511
ကိုနှင	-4512
ကြီးသည	-4513
ကြံခြင	-4514
ခြေနှင	-4515
ခြေဘဝါ	-4516
စားဘွယ	-4517
စုံလိမ	-4518
တရာအုပ	-4519
နေကြပါ	-4520
ပုံကို	-4521
မိမိဥစ	-4522
ရသောနေ	-4523
လိုချင	-4524
လေးကို	-4525
ဝေးသော	-4526
သတိပြု	-4527
သလဲသီး	-4528
သွားပါ	-4529
ဟေဇရုံ	-4530
အရှုံး	-4531
အသုံးအ	-4532
အဟိမလက	-4533
ဤကျောက	-4534
ဤသူကား	-4535
းကိုယူ	-4536
းစံနှစ	-4537
ကိုမစား	-4538
ခံစေခြင	-4539
ဂါဇမြို	-4540
စရာမရှိ	-4541
စိရတောင	-4542
ဆုံးခြင	-4543
ဆူဖြိုး	-4544
တရားသော	-4545
ထားသဖြင	-4546
ပဌနာပြု	-4547
ပေးပါဟု	-4548
ပြောလျက	-4549
မနှမြော	-4550
မမူလျှင	-4551
ယေခေါနိ	-4552
သမီးနှင	-4553
သောစကား	-4554
သောသူလည	-4555
အထူးထူး	-4556
အမွေခံရ	-4557
အမွေတော	-4558
အလိုကို	-4559
အသွေးသည	-4560
အာဗြံသည	-4561
ဆိုလေသော	-4562
ထိုသူအား	-4563
ပြုစုတော	-4564
ပြေစေခြင	-4565
မိမိနှုတ	-4566
မြှားတို	-4567
ရှာကြလော	-4568
ရှိကြသနည	-4569
လှံတံကို	-4570
သောကျောက	-4571
းနှီးသော	-4572
းမိုးသော	-4573
ပြောကြလော	-4574
မှားစေသော	-4575
ယောရှုအား	-4576
လောကီနိုင	-4577
သုံးစုတစု	-4578
သူများတို	-4579
သွားကြလိမ	-4580
အမျိုးတို	-4581
ငါရွေးကောက	-4582
ငိုကြွေးကြ	-4583
ပြုသောသူသည	-4584
မူသောသူကို	-4585
ဝါကြွားခြင	-4586
သားဘွားခြင	-4587
အသုံးအဆောင	-4588
အားပြောဆို	-4589
ပဌနာစကားကို	-4590
အမှုကိုဆောင	-4591
မိဘမရှိသောသူ	-4592
မောရှေအားဖြင	-4593
??????????????	-4594
ကတ	-4595
အတ	-4596
ဣဇ	-4597
ကဲသ	-4598
ငုံ	-4599
ဆွံ	-4600
ဇိက	-4601
တဆူ	-4602
ပွတ	-4603
ဖျာ	-4604
မအပ	-4605
ယုန	-4606
ရဘဲ	-4607
လေလ	-4608
ဟာမ	-4609
အနု	-4610
ဥမင	-4611
ဥရိ	-4612
ဧဒင	-4613
ိယာ	-4614
းခဲ	-4615
ငါလည	-4616
စေသည	-4617
ညမှာ	-4618
မဆရာ	-4619
မိဘမ	-4620
မိသည	-4621
မျေလ	-4622
မှလာ	-4623
ယောလ	-4624
လူခပ	-4625
အဇုမ	-4626
ဩဇေလ	-4627
းအရပ	-4628
ကိုစစ	-4629
ကြစို	-4630
ကြလတံ	-4631
ခါးစည	-4632
ခံစား	-4633
ခွဲခန	-4634
ဍာကို	-4635
တဆောင	-4636
တပိဿာ	-4637
ထားလက	-4638
ထိုလမ	-4639
နီးစပ	-4640
ပံအတတ	-4641
ဘထွေး	-4642
မဆောက	-4643
မထောင	-4644
မာခိရ	-4645
မှာတင	-4646
ရေစီး	-4647
ရေဖိမ	-4648
လုနီး	-4649
လေဘွေ	-4650
သားတည	-4651
သီးနယ	-4652
သုကုတ	-4653
သူမှစ	-4654
သောလူ	-4655
အကျွမ	-4656
အဆီးအ	-4657
အာရော	-4658
အာသမင	-4659
ဤသူငယ	-4660
းလိုက	-4661
ကိုပြင	-4662
ကိုပြစ	-4663
ခဏာတို	-4664
ခါးကို	-4665
ခံရပြီ	-4666
စီးပွါ	-4667
ဍာစိုး	-4668
တုရိယာ	-4669
ထိုအရာ	-4670
ထူးမြတ	-4671
ဒါရိမင	-4672
နေဇာမင	-4673
ပါးသော	-4674
ပြုပြီ	-4675
ပြေးလေ	-4676
ပွဲတော	-4677
ပွဲသဘင	-4678
ဘူးကို	-4679
မပူဇော	-4680
မရနိုင	-4681
ရကြလတံ	-4682
ရှားမည	-4683
လေတိုက	-4684
သောသူက	-4685
အထဲမှာ	-4686
အလံကို	-4687
းနေသော	-4688
းမများ	-4689
ျားတို	-4690
ကိုလိုက	-4691
ကြီးဖြစ	-4692
ငါချိုး	-4693
စိုးတော	-4694
စီးပွား	-4695
စွဲကိုင	-4696
နေရာပြည	-4697
ပေးပါမည	-4698
မထားသော	-4699
မလျှောက	-4700
မာနကြီး	-4701
မောရှေက	-4702
ယွာဘနှင	-4703
လုံးသို	-4704
လူစုတို	-4705
လူတသောင	-4706
သွားလျက	-4707
အကြံနှင	-4708
အသရေပျက	-4709
ဧလိရှဲက	-4710
ဩဗဒေဒုံ	-4711
းအသံကို	-4712
ငါပြောမည	-4713
စားကြလော	-4714
စားရာအရပ	-4715
ဇေရုဗဗေလ	-4716
တဝါအပေါင	-4717
တံခါးရှေ	-4718
နေရကြလိမ	-4719
ပမာဏမပြု	-4720
မကိုးကွယ	-4721
မီးထဲသို	-4722
ယေရမိကို	-4723
ရိုသေစွာ	-4724
သေဘေးနှင	-4725
းဆုံးသော	-4726
ချီမြှောက	-4727
တရံရောအခါ	-4728
ဘုရားကျွန	-4729
မူသောအရှင	-4730
ဝါကြွားဝမ	-4731
သေသောနောက	-4732
သောအကြောင	-4733
သွားကြပြီ	-4734
ဟုပြောဆို	-4735
အကြံရှိသည	-4736
ထိုဘုရားသည	-4737
မိသောကြောင	-4738
လေဝိအမျိုး	-4739
ဂေါမောရမြို	-4740
ထုံးစံရှိသည	-4741
မူသမျှအတိုင	-4742
များဟူမူကား	-4743
ရှာသောသူတို	-4744
ဆိုးသောသူတို	-4745
မာကေဒေါနိပြည	-4746
ယုဒအမျိုးကို	-4747
သမျှသောသူတို	-4748
မတရားသောမေထုန	-4749
ဘိုးဘေးများကို	-4750
ဣသရေလအမျိုးနှင	-4751
မတရားသောအမှုကို	-4752
ိဋ	-4753
ကာယ	-4754
ညှိ	-4755
မတက	-4756
ယုပ	-4757
ရလေ	-4758
လှစ	-4759
အာတ	-4760
းဆယ	-4761
းနယ	-4762
းသင	-4763
ှေး	-4764
ကာရာ	-4765
ကျို	-4766
ချုံ	-4767
ဂေဟာ	-4768
ငါဝမ	-4769
ငါသက	-4770
စာရဲ	-4771
ဗာရက	-4772
မာစေ	-4773
မိကြ	-4774
လိဗန	-4775
ဝဲလက	-4776
သိုက	-4777
ဟာလေ	-4778
အာနက	-4779
အာရံ	-4780
ိမိတ	-4781
ိသား	-4782
းညှင	-4783
းတွေ	-4784
းမှီ	-4785
းရူး	-4786
းအရေ	-4787
▁???	-4788
ကိုရည	-4789
ခုနှင	-4790
စုံကြ	-4791
စေလိမ	-4792
ဆာနှင	-4793
ဆဲခြင	-4794
တပြား	-4795
တောဘိ	-4796
တဲကို	-4797
တံစို	-4798
နာကျင	-4799
နွားမ	-4800
ပုံသက	-4801
ပြလော	-4802
ဘိသိတ	-4803
မကျိန	-4804
မရွေး	-4805
မာနော	-4806
မာသတိ	-4807
မှာလည	-4808
ယုဒမင	-4809
သားကဲ	-4810
သေတို	-4811
သွားရ	-4812
အခကို	-4813
အဘိဂဲ	-4814
အာသလိ	-4815
းချုန	-4816
းဆုံး	-4817
းရလိမ	-4818
းရဲငတ	-4819
းအောက	-4820
ကိုကို	-4821
ကိုချီ	-4822
ကိုညှဉ	-4823
ကိုးဆယ	-4824
ကျသဖြင	-4825
ကြပါမည	-4826
ကြဲခြင	-4827
ချလိုက	-4828
ခြေဆွံ	-4829
ခွဲထား	-4830
တပြိုင	-4831
ထိုမြေ	-4832
နားကို	-4833
နူးညွတ	-4834
နွေကာလ	-4835
နှာချင	-4836
ပေးပြီ	-4837
ပေးလိမ	-4838
ဖူးမြင	-4839
ဖြိုချ	-4840
ဘောကို	-4841
မမူသော	-4842
ယဟောရှ	-4843
ရွာနှင	-4844
ရွေးယူ	-4845
ရှာတော	-4846
လေးသော	-4847
ဝေးစွာ	-4848
သဘောကျ	-4849
သိကျွမ	-4850
သောအနံ	-4851
အနှောင	-4852
အမိနဒပ	-4853
အလိုဆန	-4854
အဟိသော	-4855
ဧသတာသည	-4856
ဧသောသည	-4857
းခံတော	-4858
းပါရမီ	-4859
းရဲကို	-4860
ကိလမြို	-4861
ကိုနှုတ	-4862
ခံရလျှင	-4863
ငါးကျိပ	-4864
ဆီမွှေး	-4865
ဆွေးမြေ	-4866
တောခွေး	-4867
ထိုလုလင	-4868
ဒေါသစိတ	-4869
ပသခါပွဲ	-4870
မဆီးတား	-4871
ရာငါးဆယ	-4872
သနားသော	-4873
သောတရား	-4874
သောသူတည	-4875
သွားပြီ	-4876
ဟာဒဒေဇာ	-4877
အမွေကို	-4878
အမှုနှင	-4879
အာဗနာသည	-4880
အိုးထိန	-4881
းကိုပြု	-4882
းခုံခြင	-4883
းတရားသည	-4884
ကိုကြောက	-4885
ကျွေးခြင	-4886
ကျွေးသော	-4887
ငါခံရသော	-4888
စိုးရသော	-4889
စုံစေခြင	-4890
ဆိုကြသော	-4891
တုံးလုံး	-4892
ပြောနိုင	-4893
ပြောလျှင	-4894
မိမိအဘို	-4895
မြွေဆိုး	-4896
မှာနေသော	-4897
ယောယဒသား	-4898
ရွှေဖလား	-4899
ရှိစေသတည	-4900
လွှားသော	-4901
သုံးမြို	-4902
သေချာစွာ	-4903
ဟေရှာယသည	-4904
အဘိုးပြတ	-4905
အိုဣသရေလ	-4906
ဤလောကသို	-4907
းမရှိသော	-4908
းသူအပေါင	-4909
ကဲသရိမြို	-4910
ငါနားထောင	-4911
စကားမပြော	-4912
စာရေးတံချ	-4913
တံခါးဝသို	-4914
နှလုံးသွင	-4915
ပြောဆိုသည	-4916
မသိကြသလော	-4917
ရှောလုကလည	-4918
ရှောလုအား	-4919
သောသူတိုင	-4920
ခါနနိလူတို	-4921
ပြုသမျှသော	-4922
မူသောဘုရား	-4923
မြေကြီးသား	-4924
လုံခြုံစွာ	-4925
လူမျိုးဖြစ	-4926
အမှုအရာကို	-4927
အသံကိုလွှင	-4928
းဟုမေးလျှင	-4929
မနာရှေခရိုင	-4930
အမှုများကို	-4931
းရှိသမျှကို	-4932
းသောအကြံကို	-4933
အမျိုးသားဖြစ	-4934
ပြုသောအမှုကို	-4935
လူမျိုးတကာတို	-4936
ဣသရေလအမျိုးအနွယ	-4937
ခရီးဦးကြိုပြုခြင	-4938
ဖယ	-4939
ဖု	-4940
ဗဲ	-4941
ဣရ	-4942
ငါက	-4943
စာဝ	-4944
ဇိဖ	-4945
ညှစ	-4946
တစပ	-4947
တွဲ	-4948
ဒေလ	-4949
ဒွါ	-4950
နုတ	-4951
ရိန	-4952
သိရ	-4953
ဟေသ	-4954
အဖန	-4955
ိတည	-4956
ေနေ	-4957
းထံ	-4958
းလူ	-4959
ကခုန	-4960
ခေါက	-4961
ခံသည	-4962
ငါပြ	-4963
ငါလာ	-4964
စရိတ	-4965
ဇေဒက	-4966
ဌမနေ	-4967
တံသင	-4968
နာဟတ	-4969
မစွမ	-4970
မိရိ	-4971
မိလက	-4972
မုရန	-4973
မေဖိ	-4974
မြုပ	-4975
မြှင	-4976
ယောဇ	-4977
ရသား	-4978
ရှိပ	-4979
လာခဲ	-4980
လှိမ	-4981
ဝသော	-4982
သရွတ	-4983
သေစေ	-4984
သံကဲ	-4985
ဟေမန	-4986
အကွက	-4987
အရသာ	-4988
းဘို	-4989
ကရမေလ	-4990
ကိုဝန	-4991
ခာကို	-4992
ခြိုး	-4993
စားမည	-4994
ဆဲရေး	-4995
ညီတော	-4996
ထားရာ	-4997
ဒကဲသည	-4998
ဒရာသဲ	-4999
ဓေစွဲ	-5000
နားပင	-5001
ဗေသော	-5002
မောရှ	-5003
ယခုလည	-5004
ယေဖုန	-5005
သူကား	-5006
သေးသည	-5007
အဘအား	-5008
အယောင	-5009
အဟိမတ	-5010
အာနနိ	-5011
အာမရိ	-5012
အာမရံ	-5013
းအဝေး	-5014
ခြံစွာ	-5015
စပါးပင	-5016
တချောင	-5017
နာမဖြင	-5018
နေရလိမ	-5019
နေသဖြင	-5020
ပနိမိတ	-5021
ဘူးပြီ	-5022
မနှောင	-5023
မာရိသည	-5024
မိမိသန	-5025
မြေကွက	-5026
မြေနှင	-5027
ရေးမှတ	-5028
လူကလေး	-5029
သိရလိမ	-5030
သူရဲကဲ	-5031
သေထိုက	-5032
သောမြေ	-5033
သေးသနည	-5034
ဟေရမုန	-5035
ဟောရှေ	-5036
အစေကို	-5037
အပြောက	-5038
အမိကို	-5039
အာနသုတ	-5040
အံသွား	-5041
းရာအရပ	-5042
းလဲခြင	-5043
းသာကို	-5044
ကာလတိုင	-5045
ကိုမပေး	-5046
ကိုမမြင	-5047
ကိုအပြစ	-5048
ကူးသွား	-5049
ကြီးတို	-5050
ကြီးမား	-5051
ကြံသဖြင	-5052
ချောနှင	-5053
ငါးသောင	-5054
စုဝေးကြ	-5055
ညံရာအရပ	-5056
ထိုတောင	-5057
ထံမှထွက	-5058
နွားနှစ	-5059
ပေးသဖြင	-5060
ပျိုးပင	-5061
ပြောလိမ	-5062
များရှေ	-5063
လူစုထဲက	-5064
လှီးခြင	-5065
သမီးတော	-5066
သိုးခြံ	-5067
သောတောင	-5068
အဘထံသို	-5069
းမရှိကြ	-5070
းမအပေါင	-5071
းအမှုသည	-5072
ကာမှတပါး	-5073
ကိုပူဇော	-5074
ချီးမြှင	-5075
ငါပေးပြီ	-5076
စုဝေးလျက	-5077
စုံစေတော	-5078
ဆီရောသော	-5079
ညူးသောနတ	-5080
တီးအချိန	-5081
ထိုဝိညာဉ	-5082
ဒံယေလကို	-5083
ပခုံးပေါ	-5084
ပေတရုနှင	-5085
ပွားများ	-5086
ဖြားယောင	-5087
မိမိအဘော	-5088
ယုဒခရိုင	-5089
ယုဒလူဖြစ	-5090
ရှိစေတော	-5091
လူတမျိုး	-5092
လောကီရှင	-5093
အသေခံရမည	-5094
အာရှိပြည	-5095
ဧလျာရှိပ	-5096
းများနှင	-5097
းသမျှသော	-5098
ငါဟောပြော	-5099
စကားကိုသာ	-5100
တာရှုမြို	-5101
တံခါးဝမှာ	-5102
နှာပြုသော	-5103
ဘုရားမဟုတ	-5104
ဘုရားအဘို	-5105
မရှိစေနှင	-5106
မိဖုရားသည	-5107
များအပေါင	-5108
ယောရှုနှင	-5109
ရှောလုကို	-5110
လူများနှင	-5111
လေးပါးတို	-5112
သောအမျိုး	-5113
ကိုအမှီပြု	-5114
နိနေဝေမြို	-5115
နှလုံးခိုင	-5116
ပြုကိုးကွယ	-5117
ယုဒလူအပေါင	-5118
လူအလုံးအရင	-5119
အဦးဘွားသော	-5120
းကြီးထံသို	-5121
ခြိုးခြံစွာ	-5122
ဗေရရှေဘမြို	-5123
မိမိလူမျိုး	-5124
သိုးနွားတို	-5125
ကျွေးမွေးတော	-5126
ပြောသောစကားကို	-5127
သောသူရှိသမျှတို	-5128
တဝ	-5129
ဝရ	-5130
ကျစ	-5131
ဇေဗ	-5132
တတပ	-5133
တထည	-5134
တလက	-5135
ပါယ	-5136
ဖနိ	-5137
ဗာသ	-5138
ဗေဒ	-5139
သတေ	-5140
သရက	-5141
သေလ	-5142
အရံ	-5143
ာဝင	-5144
းတပ	-5145
းထင	-5146
းဝယ	-5147
ကိရှ	-5148
ခဏသာ	-5149
ခံအံ	-5150
ငါကယ	-5151
ငြီး	-5152
ဇေရဇ	-5153
တရုတ	-5154
တဩမဲ	-5155
တိတပ	-5156
တုရန	-5157
တူကြ	-5158
ထဲမှ	-5159
ဒသမလ	-5160
ဒေနာ	-5161
နာဒပ	-5162
နာဗလ	-5163
နေစေ	-5164
ပေရန	-5165
မမေး	-5166
မရိပ	-5167
ယူလေ	-5168
ရဟော	-5169
ရှေဖ	-5170
သကို	-5171
သိလူ	-5172
ဟေလက	-5173
အကွယ	-5174
အဆိပ	-5175
အဓိပ	-5176
အရူး	-5177
အလွတ	-5178
အဟိတ	-5179
ဣဇဟာ	-5180
ားလည	-5181
းခံရ	-5182
းဆွဲ	-5183
းပေး	-5184
းအိမ	-5185
▁်၏၊	-5186
ကာပြု	-5187
ကာလမှ	-5188
ကိုကဲ	-5189
ကဲတို	-5190
ကျလိမ	-5191
ကျုံး	-5192
ခဲဘွယ	-5193
ချီလာ	-5194
ငံဖြစ	-5195
စာချက	-5196
စီးတတ	-5197
ဇိကလတ	-5198
တဦးသည	-5199
တုရှေ	-5200
ထိုအင	-5201
ဒမြို	-5202
နေစရာ	-5203
နှာသည	-5204
ပေဂုရ	-5205
ဗမြို	-5206
ဗေလသည	-5207
ဘိသနည	-5208
မစခြင	-5209
မထောက	-5210
မရှုတ	-5211
ယေရုဗ	-5212
ရပါသည	-5213
ရေတို	-5214
ရှာဇာ	-5215
လာတော	-5216
လိသား	-5217
သတေဖန	-5218
သေလိမ	-5219
ဟောရပ	-5220
ဟောလေ	-5221
အမိုက	-5222
အမိုး	-5223
အိုငါ	-5224
ဦးတို	-5225
ဧလိယက	-5226
ားတို	-5227
းကြစေ	-5228
းတောက	-5229
းမပြု	-5230
းမအား	-5231
းသမျှ	-5232
းအရိပ	-5233
ကိုကျင	-5234
ကိုငြင	-5235
ကိုနှစ	-5236
ကျီကို	-5237
ကြားနာ	-5238
ကြေကွဲ	-5239
ကြဲသော	-5240
ခြေသခင	-5241
ဂေါရှင	-5242
စာရာသည	-5243
စိမမြင	-5244
ဆွေတော	-5245
တောတွင	-5246
ထိုအခန	-5247
နီမောင	-5248
နောဧသည	-5249
နှာအရပ	-5250
ပြုချင	-5251
ပြောပါ	-5252
မိရိအံ	-5253
မီးထွန	-5254
ရပါလိမ	-5255
ဝေးဝေး	-5256
သမျှသည	-5257
သားဖြင	-5258
သူမရှိ	-5259
သူမျှမ	-5260
သောဘေး	-5261
သောသခင	-5262
သောအသံ	-5263
ဟာရှဘိ	-5264
ဟိဝိလူ	-5265
အတူရှိ	-5266
အသားသည	-5267
အဟိတုပ	-5268
အားကို	-5269
းကြပြီ	-5270
းငှါသာ	-5271
းမကောင	-5272
းလှသော	-5273
းအများ	-5274
ကိုတိုင	-5275
ကုရှပြည	-5276
ဂေရရှုန	-5277
တခြားစီ	-5278
နူနာစွဲ	-5279
နေစေခြင	-5280
နေရာအိမ	-5281
ပါစေသတည	-5282
ပေရနောင	-5283
ဖုံးသော	-5284
ဖေရဇိလူ	-5285
မသိမမှတ	-5286
မသွားဘဲ	-5287
မြေတိုင	-5288
ရှမွေလက	-5289
ရှိရလိမ	-5290
သားမယား	-5291
သိကြလိမ	-5292
သူအချို	-5293
သောအရွယ	-5294
ဟုဆိုလေ	-5295
အစရှိသည	-5296
အိုထာဝရ	-5297
ဥပမာကား	-5298
းကြီးနန	-5299
းစေလျှင	-5300
းဆိုလျက	-5301
းနှီးသက	-5302
းမှတပါး	-5303
ချိုးတော	-5304
ဆိုကြလော	-5305
မဝါကြွား	-5306
မျိုးတော	-5307
လုံးလုံး	-5308
လူသားကို	-5309
လေးချောင	-5310
လွှဲသွား	-5311
အဆီးအတား	-5312
အလျားနှစ	-5313
အသွေးဖြစ	-5314
းကြီးတို	-5315
းတွားမြည	-5316
ကြာပြီးမှ	-5317
ကြားကြလော	-5318
ချီသွားကြ	-5319
ဂတိထားတော	-5320
ဆီးတားခြင	-5321
နဿလိခရိုင	-5322
မှားမိသော	-5323
သတိပြုလော	-5324
သိုးစုကို	-5325
အတူရှိတော	-5326
အလိုရှိကြ	-5327
းမရှိလျှင	-5328
ကြားပြောလေ	-5329
ကြွသွားတော	-5330
ကွဲပြားလျက	-5331
ထိုမျှလောက	-5332
ပြောဆိုလျက	-5333
လာခိရှမြို	-5334
အလိုရှိတော	-5335
အသရေရှိသော	-5336
ယေဗုသိလူတို	-5337
အမျိုးအလိုက	-5338
အိုယေရုရှလင	-5339
ဤအရာများကို	-5340
းစီးသူရဲတို	-5341
နွားထီးတကောင	-5342
များပြားစေမည	-5343
အာမောရိလူတို	-5344
တရားသူကြီးတို	-5345
မြေကြီးသားတို	-5346
လူဣသရေလအမျိုး	-5347
အမျိုးမျိုးနှင	-5348
စုဝေးစေပြီးလျှင	-5349
ခွ	-5350
ငင	-5351
နစ	-5352
ဘု	-5353
ယမ	-5354
ဧဂ	-5355
ကသည	-5356
ခွေ	-5357
ခွံ	-5358
စသည	-5359
စုန	-5360
စုပ	-5361
ထွင	-5362
နဝမ	-5363
ဖေတ	-5364
ဖွယ	-5365
ဗာဇ	-5366
ဗုန	-5367
မစေ	-5368
မတန	-5369
မထိ	-5370
မသက	-5371
ယမန	-5372
လဝိ	-5373
လုဒ	-5374
အငန	-5375
အထိ	-5376
အဒု	-5377
အဗျ	-5378
အသိ	-5379
ဤသည	-5380
ဧဇရ	-5381
ိလစ	-5382
းခန	-5383
းစက	-5384
းစဉ	-5385
းဝတ	-5386
ကုရု	-5387
ကြလေ	-5388
ငါဖန	-5389
စရာယ	-5390
စာဝတ	-5391
တခုပ	-5392
တဖြစ	-5393
တရာယ	-5394
တိတု	-5395
နေပူ	-5396
ဗာနိ	-5397
မဖွင	-5398
မရကြ	-5399
မသီး	-5400
မဟာန	-5401
မာဂဒ	-5402
ယာဟတ	-5403
ရလတံ	-5404
သားမ	-5405
ဟူမူ	-5406
အပြင	-5407
အဘိန	-5408
ာကို	-5409
ိယနေ	-5410
းကြည	-5411
းမယူ	-5412
းမုန	-5413
ကိုဖဲ	-5414
ကြသေး	-5415
ခံရပါ	-5416
ငံနှင	-5417
ငံအရပ	-5418
ငွေအင	-5419
စတုရန	-5420
စိတို	-5421
စေဘို	-5422
ဆွဲငင	-5423
တကြိမ	-5424
တဟာရှ	-5425
တူသနည	-5426
ထသွား	-5427
ထားတတ	-5428
ထုသော	-5429
နေသနည	-5430
ပညာမဲ	-5431
ပုလွေ	-5432
ပေးကမ	-5433
ပြုစေ	-5434
ပြုသင	-5435
မခံဘဲ	-5436
မမြွက	-5437
မရောင	-5438
မရှား	-5439
မသာညည	-5440
မသုံး	-5441
ဝပြော	-5442
သတိလစ	-5443
သူငှါ	-5444
သောမင	-5445
ဟာမော	-5446
အခိုး	-5447
အစအဦး	-5448
အထဲမှ	-5449
အသိုက	-5450
အာမုန	-5451
အာရုံ	-5452
အားသာ	-5453
ဧလိဖတ	-5454
ဩဇိမင	-5455
းကြပါ	-5456
းကြုတ	-5457
းစီရင	-5458
းစေတတ	-5459
းစံဆယ	-5460
းပြေး	-5461
းလွှတ	-5462
းအကျင	-5463
ကိုခံရ	-5464
ကျေးဇူ	-5465
ငါတိုက	-5466
ငါလိုက	-5467
ငါသွား	-5468
ငါအမိန	-5469
ငါအောက	-5470
ငါးတို	-5471
စားချင	-5472
စားလတံ	-5473
ဆုံးလေ	-5474
တရားပလ	-5475
တီးလျက	-5476
နားပြင	-5477
နှာနှင	-5478
နှာပေါ	-5479
ပါရှုရ	-5480
ဖြေရှင	-5481
ဘုရားက	-5482
ဘဲနေမည	-5483
မခံရကြ	-5484
မမြောက	-5485
မုဆိုး	-5486
ယခုကာလ	-5487
ယခုမြင	-5488
ယိုယွင	-5489
ရာဗရှာ	-5490
ရွာသား	-5491
ရှားတတ	-5492
သဘောတူ	-5493
သိကြပါ	-5494
သိုးကဲ	-5495
သောမုန	-5496
အမြှေး	-5497
အသံမြည	-5498
အဟောလိ	-5499
အားဖြည	-5500
ဧလျေဇာ	-5501
းချောက	-5502
းဆိုကြ	-5503
းဆဲတော	-5504
းသာခြင	-5505
ကာလရောက	-5506
ကျူးသော	-5507
ချိုသော	-5508
ငါဆုံးမ	-5509
ငါပြုသည	-5510
ဆိုကြသည	-5511
ဆီးကြို	-5512
တပါးကို	-5513
တလုံးတဝ	-5514
တိဇံဆရာ	-5515
ထားလျှင	-5516
ထိုစကား	-5517
နေရကြမည	-5518
မရိုမသေ	-5519
မိမိလုပ	-5520
မောဘရှင	-5521
မြေတိရစ	-5522
ရွှေဇွန	-5523
ရွှေရုပ	-5524
ရှိခိုး	-5525
လေးတောင	-5526
သာယာသော	-5527
သားမရှိ	-5528
သိနားလည	-5529
သုစရိုက	-5530
အာတဇေရဇ	-5531
အာမဇိသည	-5532
အိုးတို	-5533
းပေးတော	-5534
းအရာကား	-5535
ကရုဏာကို	-5536
ကျေးဇူးမ	-5537
ကြပြီးမှ	-5538
ချိုးငှက	-5539
ခြေအပေါင	-5540
စာရှိသော	-5541
စားသောသူ	-5542
စုဝေးသော	-5543
ဆိုကြလိမ	-5544
ညဦးအချိန	-5545
တိအမျိုး	-5546
နွားခုနစ	-5547
နှလုံးထဲ	-5548
မိမိခေါင	-5549
ရာအကြောင	-5550
သူတပါးသည	-5551
သွားရလိမ	-5552
အနာပျောက	-5553
အမှုမထား	-5554
အသနားတော	-5555
အိုအကျွန	-5556
းခရီးတော	-5557
းပဌနာပြု	-5558
းသမျှကို	-5559
းသမျှတို	-5560
းသာစေခြင	-5561
းအသရေကို	-5562
ငါကိုးကွယ	-5563
ငါပေါလုသည	-5564
စားရကြလိမ	-5565
ဆီးတားတော	-5566
ထိုကာလတွင	-5567
ထိုအရာကို	-5568
နေရာချတော	-5569
ပြောဆိုလေ	-5570
မသိဘူးသော	-5571
ရှမွေလကလည	-5572
အာဗြဟံအား	-5573
ဣရှဗောရှက	-5574
ဣသရေလတောင	-5575
းမှထမြောက	-5576
းဝေဒနာကို	-5577
ခံသောသူတို	-5578
နေသောကြောင	-5579
ဘုရားထံတော	-5580
မိမိသားတို	-5581
မေဖိဗောရှက	-5582
မောဘအမျိုး	-5583
ဝါကြွားသော	-5584
သားများတို	-5585
သားများနှင	-5586
းမရှိကြနှင	-5587
ကိုနှိုးဆော	-5588
ဆိုပြီးလျှင	-5589
တိအမျိုးသား	-5590
နဲသောအရာကို	-5591
အကြီးအကဲဖြစ	-5592
အနာရောဂါကို	-5593
းသောစကားကို	-5594
းအရာများကို	-5595
ဆာရှိသမျှကို	-5596
ပြုလေသမျှတို	-5597
ယုဒအမျိုးနှင	-5598
းမောတွေဝေခြင	-5599
လူအသီးအသီးတို	-5600
အဆွေအမျိုးဖြစ	-5601
ခရီးဦးကြိုပြုအံ	-5602
မနာရှေအမျိုးတဝက	-5603
ဈာ	-5604
တစ	-5605
မဆ	-5606
ဟဲ	-5607
ခိတ	-5608
စွတ	-5609
စွယ	-5610
ဒရက	-5611
ဒါန	-5612
နိတ	-5613
မဆည	-5614
မူး	-5615
အဂြ	-5616
အထံ	-5617
အပါ	-5618
အာဒ	-5619
ဩဖိ	-5620
ဩဗက	-5621
းစမ	-5622
းတင	-5623
ကေနတ	-5624
ကေနိ	-5625
ကျီး	-5626
ချိတ	-5627
ငှား	-5628
စပြု	-5629
စုတတ	-5630
ဆိုရ	-5631
တူသည	-5632
တံစဉ	-5633
နဲရာ	-5634
ပါကြ	-5635
ဖာရက	-5636
မမြည	-5637
မူစေ	-5638
မေလက	-5639
မွေလ	-5640
ယာဖက	-5641
ရတနာ	-5642
ရပြည	-5643
ရသတည	-5644
ရသေး	-5645
ရာခပ	-5646
ရာနေ	-5647
ရာဟု	-5648
လာမက	-5649
လူကဲ	-5650
လူနာ	-5651
အနာမ	-5652
အဗေဒ	-5653
အလေး	-5654
ဧဖရတ	-5655
ဩမရိ	-5656
းကပင	-5657
းကာလ	-5658
းပြင	-5659
းဖြတ	-5660
းမကပ	-5661
းမုတ	-5662
းမျက	-5663
းသေး	-5664
ကိုသန	-5665
ခွဲဝေ	-5666
ငံတွင	-5667
စိတော	-5668
စီးစေ	-5669
စုတို	-5670
စုံစေ	-5671
ဆာမိန	-5672
ဆာလုပ	-5673
ဆံသော	-5674
ညီတို	-5675
တိဖြစ	-5676
ဒါဂုန	-5677
နေဗော	-5678
ပါးမက	-5679
ပြုပါ	-5680
ဘုံမှ	-5681
မေလသည	-5682
ယူလော	-5683
ရာနှစ	-5684
ရေပေါ	-5685
သေစား	-5686
ဟောတတ	-5687
အဂြိပ	-5688
အဖုံး	-5689
အသောက	-5690
အာဗေလ	-5691
အိုအဘ	-5692
ဧဇရသည	-5693
ဧနောက	-5694
ဧလိရှ	-5695
းစေကြ	-5696
းဆဲတတ	-5697
းတပါး	-5698
းအဘို	-5699
းအရှည	-5700
ကာလမှစ	-5701
ကိုငါမ	-5702
ကိုလွန	-5703
ကိုသိမ	-5704
ခဲကြိတ	-5705
ခံရသကဲ	-5706
ချီကြွ	-5707
ငါပြမည	-5708
စားလော	-5709
စုံကို	-5710
စုံတခု	-5711
ဇာလမုန	-5712
တောကို	-5713
ထူထောင	-5714
နေပါသည	-5715
နှာထား	-5716
နှံတို	-5717
ပညာတော	-5718
ပွဲလုပ	-5719
ဖူးသော	-5720
မပေးဘဲ	-5721
မဟာနိမ	-5722
မီးထဲက	-5723
ရိုးသည	-5724
ရေတိုက	-5725
ရှားကြ	-5726
လူစောင	-5727
သေခံကြ	-5728
အပျိုက	-5729
းတုကို	-5730
းပါလော	-5731
းပြုလေ	-5732
းမရှိရ	-5733
းယူတော	-5734
ကိုချွတ	-5735
ကြားရကြ	-5736
ကြောခြင	-5737
ကြောတော	-5738
ခြုံလျက	-5739
စရာအခွင	-5740
စေပြီဟု	-5741
ဆရာသမား	-5742
ဆေးသမား	-5743
တရားဟော	-5744
တွေးတော	-5745
ထိုသိုး	-5746
ပေးရသော	-5747
ပြားနှင	-5748
ဖာရောမင	-5749
မပြောဘဲ	-5750
မရှိမှီ	-5751
မေလမြို	-5752
များထဲက	-5753
မှီအောင	-5754
ရာခေလသည	-5755
လေးကောင	-5756
သားပေါင	-5757
သားရဲသည	-5758
သောသူငယ	-5759
ဟာလေလုယ	-5760
အမွေမြေ	-5761
အသရေနှင	-5762
ဧလိရှမာ	-5763
ဧလျာကိမ	-5764
းကိုမြင	-5765
းဆဲနှိပ	-5766
ခံရကြလတံ	-5767
ငါဆိုသော	-5768
ငြိုးဖွဲ	-5769
တလုံးကို	-5770
တံခါးမုတ	-5771
ဒေသနာတော	-5772
နာသနိသား	-5773
ပေးစေခြင	-5774
မကြာမမြင	-5775
မပြုလျှင	-5776
မပြောနှင	-5777
မျိုးနှင	-5778
မှာစာကို	-5779
ရထားများ	-5780
ရုံမျှသာ	-5781
ရေးထားသည	-5782
ရွှေအခွက	-5783
ရှိစေလော	-5784
လှေထဲသို	-5785
သူအားမျှ	-5786
သွားကြသည	-5787
ဟူသောအမည	-5788
အနံအတောင	-5789
အပျိုကညာ	-5790
အမွေခံရာ	-5791
ဤအမှုအရာ	-5792
းတွားလျက	-5793
းဘိုးတို	-5794
းအရေအတွက	-5795
ကြားရလျှင	-5796
ဂလာရှိလိမ	-5797
စိုးစံတော	-5798
ဆိုလိုသနည	-5799
ဇေရုယာသား	-5800
ပြောစေခြင	-5801
မပြောနိုင	-5802
မိမိဖြောင	-5803
မူသမျှသော	-5804
ယောရှိသား	-5805
အမှုကြောင	-5806
အာဗြဟံနှင	-5807
အားကြီးသည	-5808
းသွားချုပ	-5809
ကြီးမားသော	-5810
ကွဲပြားသော	-5811
တစုံတခုသော	-5812
နှာကိုထောက	-5813
မိဘမရှိသော	-5814
များပြားစေ	-5815
သံကြိုးနှင	-5816
သွားပြီးမှ	-5817
အမွေမြေကို	-5818
အမှုကိုမျှ	-5819
အာရှာခရိုင	-5820
းစရာအကြောင	-5821
ကြားပြောသော	-5822
တောသားရဲတို	-5823
တိဇံဆရာယောဟန	-5824
မှီခိုရာမြို	-5825
အမျိုးသားနှင	-5826
အားကြီးသောသူ	-5827
ကျေးဇူးပြုခြင	-5828
ထာဝရဘုရားစီရင	-5829
ထာဝရဘုရားနောက	-5830
ထာဝရဘုရားအခွင	-5831
ပညာရှိသောသူသည	-5832
လူအစုအဝေးအပေါင	-5833
ဣသရေလအမျိုးတို	-5834
ဂင	-5835
ဇဲ	-5836
ဒက	-5837
ဖရ	-5838
မလ	-5839
ယင	-5840
အေ	-5841
ခေရ	-5842
ခြမ	-5843
ငရဲ	-5844
ဇိလ	-5845
ဇေလ	-5846
ဈေး	-5847
ဉာဏ	-5848
ညီမ	-5849
တခဲ	-5850
ဒိမ	-5851
နုံ	-5852
ပမင	-5853
ဖေး	-5854
ဗိန	-5855
ဗေါ	-5856
ဘိန	-5857
မညှ	-5858
မမည	-5859
မရေ	-5860
မလဲ	-5861
မူလ	-5862
ရိဗ	-5863
ရွယ	-5864
လတည	-5865
လမာ	-5866
သီလ	-5867
ဟုံ	-5868
အစစ	-5869
ဧဖါ	-5870
ာဝန	-5871
ိတပ	-5872
းနန	-5873
းဘက	-5874
းသပ	-5875
ကေဒေ	-5876
ကျား	-5877
ကြူး	-5878
ခရိပ	-5879
ခံခဲ	-5880
ငါကဲ	-5881
ငါတင	-5882
ငါထင	-5883
ငါလက	-5884
တုသည	-5885
နံရံ	-5886
ပုလဲ	-5887
ပုံး	-5888
ပြွတ	-5889
ဗာရဗ	-5890
ဗေါင	-5891
မကူး	-5892
မကြဲ	-5893
မဆွက	-5894
မလို	-5895
မိဿံ	-5896
ရသကဲ	-5897
အခြံ	-5898
အရေး	-5899
အာဂတ	-5900
ဥပဒေ	-5901
ဧလိမ	-5902
ေလုန	-5903
းခေါ	-5904
းဆဲရ	-5905
းမျှ	-5906
ခဲတို	-5907
ငါပြင	-5908
စကားအ	-5909
စားရာ	-5910
စုထား	-5911
စုထဲက	-5912
ဇိမရိ	-5913
တခါတည	-5914
တဆူတည	-5915
တေကော	-5916
တောလမ	-5917
တံဖျာ	-5918
ထိုသတ	-5919
နာသော	-5920
နေဂေါ	-5921
ပြလျက	-5922
မချုပ	-5923
မဖုံး	-5924
မမူဘဲ	-5925
မဟာတန	-5926
မဟာလိ	-5927
မာစွာ	-5928
မုသား	-5929
မေဂိဒ	-5930
ယေဒါယ	-5931
ယေဟေလ	-5932
ယောအာ	-5933
ယွာဘက	-5934
ရပါအံ	-5935
ရှာတတ	-5936
ရှုဆင	-5937
လာပြန	-5938
လူချင	-5939
လေပြင	-5940
လေးခု	-5941
သိလျက	-5942
သူအုပ	-5943
ဟာနုန	-5944
ဟာရိမ	-5945
အခိုက	-5946
အထောက	-5947
အဒုလံ	-5948
အဘိရံ	-5949
ဤတောင	-5950
ဧဂလုန	-5951
ဧဖရုန	-5952
းစာလာ	-5953
းတောင	-5954
းအတွက	-5955
ကာလဖြစ	-5956
ကိုကူး	-5957
ကိုထုတ	-5958
ချွေးမ	-5959
ငါမတွေ	-5960
ငါမြော	-5961
စာချုပ	-5962
စာစကား	-5963
စုရုံး	-5964
ဆာများ	-5965
ဆိုဘွယ	-5966
ဆီဥနှင	-5967
ဆီးလိမ	-5968
တခုပေါ	-5969
တခုမျှ	-5970
တစုကို	-5971
ထိုပညတ	-5972
နာရှုန	-5973
ပေါလုက	-5974
ပြီလော	-5975
ဗာဇိလဲ	-5976
မဆုံးမ	-5977
မပြုတတ	-5978
မမူမှီ	-5979
မသေမှီ	-5980
မာနကို	-5981
မိမိသည	-5982
မီးညှပ	-5983
မူပါသည	-5984
မောဒနာ	-5985
များကြ	-5986
မှလွှတ	-5987
ရှာဒရက	-5988
လူနေရာ	-5989
လူယောက	-5990
လေဦးမည	-5991
လေးနှင	-5992
လှံနှင	-5993
သားမြတ	-5994
သားရှေ	-5995
သီးနှင	-5996
ဟောသော	-5997
အမွှေး	-5998
အာသဟေလ	-5999
အားကုန	-6000
ောမြို	-6001
းကြီးက	-6002
းစာချက	-6003
းရကြမည	-6004
းသားသည	-6005
ကနားပြင	-6006
ကိုရသော	-6007
ကြိုဆို	-6008
ခွေးတို	-6009
ငါမပြော	-6010
ငြီးငွေ	-6011
စပါးနှင	-6012
ဆိုကြပါ	-6013
ထိုတိရစ	-6014
နေဗုဇာရ	-6015
ပြုစုတတ	-6016
မိပါပြီ	-6017
မိမိမျက	-6018
မုယောဆန	-6019
မူပါပြီ	-6020
မောဘလွင	-6021
ယောရှသည	-6022
ရသောအခါ	-6023
ရိုးတို	-6024
သနာခရိပ	-6025
သားခုနစ	-6026
သုံးချက	-6027
သူလျှို	-6028
သေခံဖြစ	-6029
သောနေရာ	-6030
အကြံတော	-6031
အခြံအရံ	-6032
အစေကျွန	-6033
းဆီးခြင	-6034
းပါးသော	-6035
းရှိလော	-6036
းသလောဟု	-6037
းသွားလေ	-6038
းအရာနှင	-6039
ကပေရနောင	-6040
ကရုဏာစိတ	-6041
တိရဇမြို	-6042
တံခါးပြင	-6043
တံခါးဖြင	-6044
နာမကြောင	-6045
နေရာကျကြ	-6046
ပေတရုကလည	-6047
ပေရသိရှင	-6048
မပေးနိုင	-6049
မပြုနိုင	-6050
မမှီနိုင	-6051
မူသလောဟု	-6052
ယောရှသား	-6053
ရှိပါသနည	-6054
ရှိရာအရပ	-6055
သေသောအခါ	-6056
သောအကောင	-6057
ဟောရတောင	-6058
အနံတတောင	-6059
အရာရာတို	-6060
အားပြတော	-6061
းကိုမပြု	-6062
းစွာအမျက	-6063
းသာပေးမည	-6064
းသွားလော	-6065
းအသရေနှင	-6066
ကရမေလတောင	-6067
ကြီးသောသူ	-6068
ကြေးဝါနှင	-6069
ငါချီးမွမ	-6070
စားပွဲတော	-6071
တလုံးတဝတည	-6072
တုများကို	-6073
တံပိုးကို	-6074
ပြေးကြလိမ	-6075
မနှမြောဘဲ	-6076
မရှိကြောင	-6077
မူသမျှကို	-6078
ယေရှုရှလင	-6079
ရှားစေတော	-6080
သုံးပါးမက	-6081
သူများကို	-6082
သွားကြနှင	-6083
ဟောပြောတတ	-6084
အစိုးပိုင	-6085
အမူအရာတို	-6086
အရာအားဖြင	-6087
အဟိသောဖေလ	-6088
အာဗြဟံကို	-6089
ကိုးစားသော	-6090
ကြိုဆိုခြင	-6091
ခံရသောသူသည	-6092
တရားမှုကို	-6093
ထိုတရားကို	-6094
ပညာတရားကို	-6095
မီးခုံတိုင	-6096
မူသောသူဖြစ	-6097
များပြားသည	-6098
သောသဘောကို	-6099
သောအမှုဖြစ	-6100
းကြီးပေးမည	-6101
းကြီးအပေါင	-6102
ကြီးသူအပေါင	-6103
ခိုးကြီးခြင	-6104
ဆိုသောကြောင	-6105
ထာဝရဘုရားတည	-6106
ထိုဘုရားကို	-6107
လူမျိုးသတို	-6108
လဲစရာအကြောင	-6109
အစိုးရသောမင	-6110
အမျိုးသားသည	-6111
းရဲသောသူကို	-6112
ကျေးဇူးပြုမည	-6113
ကျွေးမွေးခြင	-6114
ကွဲပြားစေတော	-6115
ဆုံးမဩဝါဒပေး	-6116
ဒရာသဲလုံးနှင	-6117
နားမှာရှိသော	-6118
မူသောစကားကို	-6119
အထူးထူးအပြား	-6120
အံသွားခဲကြိတ	-6121
ထိုလူမျိုးတို	-6122
အခြားသောသူတို	-6123
ဧဒုံအမျိုးသား	-6124
မနာရှေအမျိုးသား	-6125
တပါးအမျိုးသားဖြစ	-6126
ဌိ	-6127
ထစ	-6128
ဖင	-6129
ဟမ	-6130
ှက	-6131
ကလာ	-6132
ကြပ	-6133
ကွေ	-6134
ဂတေ	-6135
ငါထ	-6136
ညှု	-6137
တာန	-6138
တုပ	-6139
တေရ	-6140
နုပ	-6141
နှဲ	-6142
ပနက	-6143
ဘမင	-6144
မတူ	-6145
မထမ	-6146
မဝတ	-6147
မာဂ	-6148
ယခင	-6149
ယိမ	-6150
ယေသ	-6151
ရုဏ	-6152
ရုသ	-6153
လာယ	-6154
လူက	-6155
အငတ	-6156
အနေ	-6157
အာဝ	-6158
အုံ	-6159
ဤကဲ	-6160
းလန	-6161
းသစ	-6162
ဿုပ	-6163
ကေဒါ	-6164
ကေဒြ	-6165
ခဲယဉ	-6166
ခဲသည	-6167
ချွန	-6168
စုတေ	-6169
ဇေဘဟ	-6170
ညီသည	-6171
တစုတ	-6172
တေရပ	-6173
ဒါသန	-6174
ဒေဒန	-6175
ဒေဗိ	-6176
နနှင	-6177
နီလာ	-6178
နေရိ	-6179
နှေး	-6180
ပါရန	-6181
ပုသည	-6182
ဗေရိ	-6183
မကွဲ	-6184
မချစ	-6185
မဖြေ	-6186
မသိရ	-6187
မအိပ	-6188
ယေဒု	-6189
ယေဖသ	-6190
ရောမ	-6191
ရှာယ	-6192
လဲကြ	-6193
သားအ	-6194
သိုလ	-6195
သူလည	-6196
အကျယ	-6197
အစုံ	-6198
အစွဲ	-6199
အာဒါ	-6200
ဤတော	-6201
ဥတုရ	-6202
ဧဟုဒ	-6203
းကုပ	-6204
းကျန	-6205
းချမ	-6206
းနွမ	-6207
းမကဲ	-6208
းမြည	-6209
းအခက	-6210
ကိုမစ	-6211
ကိုသူ	-6212
ခံလော	-6213
ချထား	-6214
ခြေတင	-6215
ဂလာသည	-6216
ငါကား	-6217
ငါပို	-6218
ငါဖွဲ	-6219
ငါဘော	-6220
ငါမုန	-6221
ငါသုတ	-6222
စလုံး	-6223
စာရတတ	-6224
စားသည	-6225
စီးရာ	-6226
စေသနည	-6227
ဆွဲချ	-6228
ဇိခရိ	-6229
တနာရီ	-6230
တအမှု	-6231
တာစိတ	-6232
တာဗော	-6233
တဲသို	-6234
ထားပါ	-6235
ထိုသင	-6236
ဒေဗော	-6237
နာမသည	-6238
ဖြူစင	-6239
ဗိလဟာ	-6240
ဗေသနိ	-6241
မပေးရ	-6242
မပျော	-6243
မလောက	-6244
မာလခိ	-6245
မူနှင	-6246
မှာနေ	-6247
ယုပွေ	-6248
ယေဟုက	-6249
ရှိစေ	-6250
ရှုနင	-6251
ရှုအာ	-6252
လမာရိ	-6253
သားယဉ	-6254
သီးတတ	-6255
သံချပ	-6256
အတောက	-6257
အရောန	-6258
အာရှက	-6259
းစကား	-6260
းပါသည	-6261
းပေါင	-6262
းမြီး	-6263
းရထား	-6264
းရောက	-6265
းလာကြ	-6266
ကိုဆုတ	-6267
ကိုပြန	-6268
ကိုဘော	-6269
ကုသိုလ	-6270
ကေဒြုန	-6271
ကြာပွင	-6272
ကွာသော	-6273
ခိုးသည	-6274
ခံနေရာ	-6275
ခံရလတံ	-6276
ချသဖြင	-6277
ဂျုံဆန	-6278
ငါစောင	-6279
ငါရွေး	-6280
ငါလာသည	-6281
စကားတည	-6282
စွာကျင	-6283
ဆိုလိမ	-6284
တံထွေး	-6285
ထရံအခန	-6286
ထိုခရစ	-6287
ထိုတပည	-6288
ထိုတွင	-6289
ထိုမြစ	-6290
နာမရှိ	-6291
နားရွက	-6292
နေရာသည	-6293
နွားသည	-6294
နှံသော	-6295
ပညာသတိ	-6296
ပါးအဝင	-6297
ပျိုစဉ	-6298
ပြာကို	-6299
ပြေးတတ	-6300
ဘကျိုင	-6301
ဘားတို	-6302
ဘောတို	-6303
မခံမှီ	-6304
မရှိကြ	-6305
မာမြို	-6306
မှနှုတ	-6307
ယောဇဗဒ	-6308
ယောနဒပ	-6309
ရေလောင	-6310
ရှေလမိ	-6311
လာပါသည	-6312
လာသဖြင	-6313
လုယူကြ	-6314
သေလသား	-6315
သောအိမ	-6316
အထီးအမ	-6317
အဘဣဇာက	-6318
အအူကို	-6319
အားပြန	-6320
းငါးဆယ	-6321
းစေနှင	-6322
းယူခြင	-6323
းယူသော	-6324
းရံလျက	-6325
းဝေဒနာ	-6326
းသာရမည	-6327
းသောနေ	-6328
ကာရာသား	-6329
ကိုကောင	-6330
ကျူလုံး	-6331
ကြီးပွါ	-6332
ကြွလာသည	-6333
ခစားသော	-6334
ငါသိမြင	-6335
စရာသိတင	-6336
စားမြုံ	-6337
စွာနေကြ	-6338
ထိုတိုင	-6339
နေကြောင	-6340
နေရာဖြစ	-6341
ဗေနာယသည	-6342
မူရာအရပ	-6343
မှလာသော	-6344
မှားပြီ	-6345
ယူကြလော	-6346
ယောရှုက	-6347
ယောသံသည	-6348
ရထားနှင	-6349
ရေကိုလည	-6350
ရွှေနှစ	-6351
လာကြသနည	-6352
လာပြီဟု	-6353
လျှာကို	-6354
အကြံပေး	-6355
အခြားသူ	-6356
အစိုးတရ	-6357
အညီအမျှ	-6358
အနားသို	-6359
အရူးဖြစ	-6360
အာခဇိသည	-6361
အာဗြံဟံ	-6362
ဣသရေလမင	-6363
ဥတုရောက	-6364
းခံရသော	-6365
းစေသဖြင	-6366
းတံခါးဝ	-6367
းထားသော	-6368
းရှိခြင	-6369
းသာလျှင	-6370
းသောအပင	-6371
ကြပြီလော	-6372
ကြားပါစေ	-6373
ကြိုးတို	-6374
ကြီးလှပါ	-6375
ခံရကြပြီ	-6376
ချိုးဖျက	-6377
ဂလာရှိပါ	-6378
ဂေဇာမြို	-6379
ဂျုံစပါး	-6380
ငါလျှောက	-6381
စရာရှိသည	-6382
စားစေခြင	-6383
စုတစုကို	-6384
ဆုံးမသော	-6385
ဆုံးမသွန	-6386
ညှိုးနှင	-6387
တံခါးထုပ	-6388
ထားသောသူ	-6389
ထိုဘုရား	-6390
ထိုသားသည	-6391
ထိုဥယျာဉ	-6392
နေစရာဘို	-6393
နဲသောအရာ	-6394
ပေးပါလော	-6395
ပြုဘိသနည	-6396
ပြောရသော	-6397
မထိမခိုက	-6398
များအပေါ	-6399
မှားလျှင	-6400
မှီဝဲခြင	-6401
မှီဝဲလျက	-6402
ယေဗုသိလူ	-6403
ယေရှုနှင	-6404
ရိအမျိုး	-6405
ရှာကြံကြ	-6406
လိဗနမြို	-6407
လွှားခြင	-6408
သားဒါဝိဒ	-6409
သားရေဘူး	-6410
သားရဲတို	-6411
သားအချို	-6412
သားဦးကို	-6413
သောငါတို	-6414
သွားနိုင	-6415
အကာရှသား	-6416
အကျိုးမဲ	-6417
အကြီးဖြစ	-6418
အပျိုတော	-6419
အဘိုးနှင	-6420
အသွေးတော	-6421
အိုဇိအုန	-6422
အိုယာကုပ	-6423
ဣရှမေလသည	-6424
ဤလူအပေါင	-6425
းသာထဲသို	-6426
းအမှုတို	-6427
ကရမေလမြို	-6428
ကိုပေးတော	-6429
ကျေးဇူးသည	-6430
ကွဲပြားစေ	-6431
ချိုးကလေး	-6432
ငံလုံးကို	-6433
စိုးစေခြင	-6434
ဆိုးသောသူ	-6435
ဆုံးသောသူ	-6436
ထပြီးလျှင	-6437
ထားဘေးနှင	-6438
ဒေါသအရှိန	-6439
နေဗုဇာရဒန	-6440
နှလုံးတော	-6441
ပွဲခံချိန	-6442
ဘုရားများ	-6443
မရှိကြနှင	-6444
မသွားနိုင	-6445
မာဂဒလမာရိ	-6446
မေလခိဇေဒက	-6447
မှီခိုလျက	-6448
ယောရှုကလည	-6449
လောကီအလုပ	-6450
ဝေးသောပြည	-6451
သားမရှိဘဲ	-6452
သောသူများ	-6453
အကျိုးရှိ	-6454
အစားအသောက	-6455
အမွေခံဖြစ	-6456
အမွေခံရကြ	-6457
ဧလိရှဲကလည	-6458
းမြီးကောက	-6459
းရာဌာနကို	-6460
ကုလားကာကို	-6461
ကေဒေရှမြို	-6462
ကြဲသောသူသည	-6463
ချီလွှဲသော	-6464
စုဝေးစေတော	-6465
စေသောကြောင	-6466
ညဦးယံအချိန	-6467
တဆေးမပါသော	-6468
တိဇံကိုပေး	-6469
ထိုစကားတော	-6470
ဘာသာအားဖြင	-6471
မမူမှီတိုင	-6472
မသွားကြနှင	-6473
မူသောသူတို	-6474
ရေချိုးရမည	-6475
သားကိုဘွား	-6476
သားဘွားသော	-6477
သောသဘောနှင	-6478
သောသူကိုလည	-6479
ဟောပြောခြင	-6480
ဟောပြောလော	-6481
းပြောဆိုကြ	-6482
ငါပေးသောပြည	-6483
စကားများကို	-6484
တရားဟူမူကား	-6485
နားရှိသောသူ	-6486
ဗာလဘုရားတို	-6487
မသိသောကြောင	-6488
မြေအသီးအနှံ	-6489
ယုဒအမျိုးသည	-6490
ရထားစီးသူရဲ	-6491
သားရှောလမုန	-6492
အကာရှသားနှင	-6493
အစာအာဟာရကို	-6494
အလုံးစုံသော	-6495
းဆဲသောသူတို	-6496
းဝေးရာတဲတော	-6497
းအများအလိုက	-6498
ကျေးဇူးပြုတတ	-6499
ငါချီးမြှောက	-6500
ငါဟောပြောသော	-6501
ထိုအမှုကြောင	-6502
ထိုအမှုအရာသည	-6503
မနာလိုသောစိတ	-6504
မူသောအမှုကို	-6505
သူရဲသုံးယောက	-6506
အဆွေအမျိုးတည	-6507
အမွေခံစရာဘို	-6508
ကျေးဇူးရှိသနည	-6509
အကျိုးအလိုငှါ	-6510
အများသောသူတို	-6511
တစုံတခုမျှမရှိ	-6512
တရားသောအမှုကို	-6513
စကားကိုနားမထောင	-6514
ထာဝရဘုရားပြုတော	-6515
ကွ	-6516
ငန	-6517
ဆဋ	-6518
ဖဒ	-6519
ဣဗ	-6520
ကာဣ	-6521
ကိန	-6522
ခိမ	-6523
ဇာန	-6524
ဓိဋ	-6525
မကဲ	-6526
မဘတ	-6527
မာဝ	-6528
မေန	-6529
မှင	-6530
ရဘိ	-6531
ရိဘ	-6532
ရွင	-6533
အပဲ	-6534
အဲသ	-6535
ုလိ	-6536
းညီ	-6537
းနင	-6538
းသဏ	-6539
းအပ	-6540
းအံ	-6541
ွှေ	-6542
ကထွက	-6543
ခထဲက	-6544
ခံစဉ	-6545
ငါယူ	-6546
ဆာဒိ	-6547
ဆိုက	-6548
ဇလော	-6549
ဇာဗဒ	-6550
ဇေဗေ	-6551
ညွှန	-6552
ညှိတ	-6553
တဆော	-6554
တညွတ	-6555
တထွာ	-6556
တိသည	-6557
ထလျက	-6558
နေလိ	-6559
ပါအံ	-6560
ပေအံ	-6561
ပြလေ	-6562
ဘာဦး	-6563
မစွဲ	-6564
မဆုတ	-6565
မထူး	-6566
မယူရ	-6567
မသခင	-6568
မိခင	-6569
မိစဉ	-6570
မီးမ	-6571
မြား	-6572
ယပြည	-6573
ရပြန	-6574
ရာဘက	-6575
ရိနာ	-6576
လုသည	-6577
လေစေ	-6578
ဝလိမ	-6579
ဝါရှ	-6580
သိတတ	-6581
သူဟူ	-6582
သေမည	-6583
သံဝါ	-6584
အခြာ	-6585
အငွေ	-6586
အစွန	-6587
အဘိတ	-6588
အမေး	-6589
အာဖာ	-6590
အာသန	-6591
ဣဇာတ	-6592
ဣဒေါ	-6593
ဤခွက	-6594
ဤမုန	-6595
ဧလိဖ	-6596
းစေရ	-6597
းဘူး	-6598
းမီး	-6599
းမှန	-6600
းမှု	-6601
းသွင	-6602
ကာတော	-6603
ကာဣနန	-6604
ကိပြည	-6605
ကိုချ	-6606
ကိုထင	-6607
ခဲသော	-6608
ငါရှာ	-6609
စာရှိ	-6610
စားအံ	-6611
စီနှင	-6612
စောလေ	-6613
ဆီးလေ	-6614
ဆံခြင	-6615
ဇာအတတ	-6616
ဇေဖနိ	-6617
ဇေဗုလ	-6618
တခဲနက	-6619
တရတော	-6620
တာပနက	-6621
တာပို	-6622
တုဖြစ	-6623
တောဖက	-6624
တောသစ	-6625
တဲတို	-6626
ထိုလယ	-6627
ဒနာရံ	-6628
နာခြင	-6629
နာစွဲ	-6630
နာဇရိ	-6631
နားပတ	-6632
နားသည	-6633
နူကွက	-6634
နေသကဲ	-6635
နေသရက	-6636
နောမိ	-6637
ပရိကံ	-6638
ပျံတတ	-6639
ပြလိမ	-6640
ဖွဲကဲ	-6641
ဘေးအန	-6642
မစိုက	-6643
မဆုံး	-6644
မထိုက	-6645
မပိုင	-6646
မလူသည	-6647
မုရှိ	-6648
မူပြန	-6649
မေရိဘ	-6650
မေးကြ	-6651
မေးသည	-6652
မဲခြင	-6653
ယေရိမ	-6654
ယောပိ	-6655
ရသဖြင	-6656
ရဦးမည	-6657
ရာဇဝတ	-6658
ရွာမှ	-6659
ရှိတတ	-6660
ရှုမည	-6661
လိုသည	-6662
လူတရာ	-6663
လေနှင	-6664
သကေနေ	-6665
သုံးလ	-6666
သေတော	-6667
သေပြစ	-6668
သောဟု	-6669
ဟုပြန	-6670
ဟုရှဲ	-6671
ဟောကြ	-6672
အဘိဟု	-6673
အမြို	-6674
းကြသည	-6675
းဆဲကြ	-6676
းပိုက	-6677
းမြို	-6678
းရိုး	-6679
းသမီး	-6680
ကားခြင	-6681
ကိုထား	-6682
ကိုမှီ	-6683
ကုရုမင	-6684
ကူးသော	-6685
ကြောမည	-6686
ကြေးနီ	-6687
ခဏာနှင	-6688
ခံစေမည	-6689
ခံပါမည	-6690
ချေတော	-6691
ခြေချင	-6692
ခွဲခြင	-6693
ဂိလဂါလ	-6694
ငါမြွက	-6695
ဆိုးသည	-6696
ဆွဲလျက	-6697
ဇေဗေဒဲ	-6698
ဌာနကို	-6699
တရားသစ	-6700
ထိုအမတ	-6701
ဒါမြို	-6702
နာသနေလ	-6703
နေနိုင	-6704
နေရောင	-6705
ပူလောင	-6706
ပြာသော	-6707
ပြေးသည	-6708
ဘူးသီး	-6709
မပြုစု	-6710
ယခုဖြစ	-6711
ယေဇဗေလ	-6712
ယေဖသသည	-6713
ယောနသည	-6714
ရှားလေ	-6715
ရှားသည	-6716
ရှေလော	-6717
လူခုနစ	-6718
လူမရှိ	-6719
လူမဟုတ	-6720
လှေပေါ	-6721
လှဲခြင	-6722
လှံတို	-6723
ဝေးကို	-6724
သာဆိုင	-6725
သားသော	-6726
သိလတို	-6727
သောအစေ	-6728
ဟိရံသည	-6729
အနာစိမ	-6730
အဗျေဇာ	-6731
အဘများ	-6732
အဘိယသည	-6733
အမိဖြစ	-6734
အမူအရာ	-6735
အရာမျှ	-6736
အသံကား	-6737
အာရှုရ	-6738
အားဘော	-6739
အားရဝမ	-6740
ဧလံပြည	-6741
းကရုဏာ	-6742
းကြသော	-6743
းထားကြ	-6744
းပါလိမ	-6745
းပူဇော	-6746
းမလျှာ	-6747
းမံရမည	-6748
းမံသော	-6749
းအတိုင	-6750
ကိုများ	-6751
ကိုရခြင	-6752
ကိုရိုက	-6753
ခြေမစွမ	-6754
ငါကြောက	-6755
ငွေအကျပ	-6756
စုံစေမည	-6757
စေကြပြီ	-6758
ဆုံးလိမ	-6759
ဇာခရိသည	-6760
ဇေဘဟနှင	-6761
တဆေးကို	-6762
တရားဖြစ	-6763
ထိုနိုင	-6764
ထိုအကျင	-6765
နာမအဘို	-6766
နားတောင	-6767
နိုးတော	-6768
နူနာဖြစ	-6769
နံဝိညာဉ	-6770
နွားနှင	-6771
ပဌနာကို	-6772
ပါဒနာရံ	-6773
ပေးသနား	-6774
ပြကြလော	-6775
ပြုသမျှ	-6776
ပြောခြင	-6777
ဖြားခြင	-6778
ဗာရှာသည	-6779
ဗာသရှေဘ	-6780
ဘာဦးမှစ	-6781
မခံထိုက	-6782
မသိပါဟု	-6783
မာစေတော	-6784
မိမိရှေ	-6785
မီးမွေး	-6786
မူစေခြင	-6787
မြေလှုပ	-6788
မြေအိုး	-6789
မှီဝဲဆည	-6790
မှူးတို	-6791
ယေရိမုတ	-6792
ယေရောဟံ	-6793
ယောယဒသည	-6794
ရထားကို	-6795
ရထားတို	-6796
ရာခြောက	-6797
ရာအချိန	-6798
ရွှေကွင	-6799
ရှိမိသည	-6800
လာကြောင	-6801
လောဘလွန	-6802
လဲကြလိမ	-6803
လှံတံသည	-6804
ဝစွာစား	-6805
သာစေတော	-6806
သားမဟုတ	-6807
သုံးပါး	-6808
သုံးသော	-6809
သူကိုလည	-6810
သောအဘို	-6811
သံကြိုး	-6812
ဟာဇေလသည	-6813
အစိုးမရ	-6814
အစေအပါး	-6815
အတူလိုက	-6816
အမှုလုပ	-6817
အရေအောက	-6818
အလှူကို	-6819
အဝေးသို	-6820
ဣသရေလတပ	-6821
ဧလိယကလည	-6822
ဧလိရှဗက	-6823
းကြလျှင	-6824
းမရှိပါ	-6825
းသောအဝတ	-6826
ကိုရှောင	-6827
ငါဆုတောင	-6828
စကားများ	-6829
ထိုချိုင	-6830
ထိုစာကို	-6831
ထိုသူကလည	-6832
ဒုတိယသား	-6833
ပါတကားဟု	-6834
ပြုကြသနည	-6835
ပြောသဖြင	-6836
ပြေးသွား	-6837
မကိုးစား	-6838
မစားနိုင	-6839
မပြေနိုင	-6840
မေးလေသော	-6841
မြှားတော	-6842
မွှေးသော	-6843
မှီခိုရာ	-6844
ရိဗလမြို	-6845
ရှုပြုစု	-6846
ဝစွာစားရ	-6847
သားဂေဒလိ	-6848
သားဦးကား	-6849
သိသောစိတ	-6850
သိသောအခါ	-6851
သိုးစုကဲ	-6852
သူကြီးသည	-6853
သူခံရသော	-6854
အကြေးနှင	-6855
အများသော	-6856
အရာကိုလည	-6857
အဲသယောပိ	-6858
ဦးစွာမှစ	-6859
းစေကြလော	-6860
းတရားနှင	-6861
းနှီးဖြစ	-6862
းမရှိနှင	-6863
းအမှုနှင	-6864
းအသရေတော	-6865
ကြပါစေနှင	-6866
ချီလွှဲရာ	-6867
စားပွဲကို	-6868
တစုံတမြို	-6869
တံစိုးကို	-6870
ထိုငွေကို	-6871
ထိုဗျာဒိတ	-6872
ပကတိအတိုင	-6873
ပညာအားဖြင	-6874
ပါသမျှသော	-6875
မပေးဘဲမနေ	-6876
မပြုပါနှင	-6877
မာတရားနှင	-6878
မြဲမြံစွာ	-6879
ယုပွေမြို	-6880
ရေကိုသောက	-6881
ရေးထားလော	-6882
ရှိသလောဟု	-6883
လေပြီးသော	-6884
သိုထားသော	-6885
ဟုဆိုသဖြင	-6886
အကျိုးအပဲ	-6887
အခြားတပါး	-6888
အဒေါနိယသည	-6889
အနုမောဒနာ	-6890
အဗေဒနေဂေါ	-6891
အမျိုးပျက	-6892
ဣသရေလမြို	-6893
းကြိုးကို	-6894
းဝေးရာသို	-6895
းသောသူဖြစ	-6896
းဟုမေးသော	-6897
ကာဒေရှဗာနာ	-6898
ကိုနားထောင	-6899
ကိုများကို	-6900
ကုလားကာတထည	-6901
ကြားသိလျှင	-6902
ငါမှာထားသည	-6903
စီးမှီတိုင	-6904
ဇာတိအားဖြင	-6905
တဟာရှသားရေ	-6906
ဒုတိယအကြိမ	-6907
ပြောပြီးမှ	-6908
မကြားမပြော	-6909
မောရှေစီရင	-6910
မျိုးအပေါင	-6911
ယေရှုထံတော	-6912
ရသောအကြောင	-6913
သာမျိုးနှင	-6914
သောဒုံအိုင	-6915
သွားလေရာရာ	-6916
ဟောပြောရမည	-6917
အလိုရှိသော	-6918
အာမောရိပြည	-6919
အာမောရိရှင	-6920
းရိသောသူသည	-6921
ခဏကြာပြီးမှ	-6922
ခံရသောသူဖြစ	-6923
စားရသောအခွင	-6924
ထာဝရဘုရားဘက	-6925
နှလုံးမူကား	-6926
ဘာသာစကားဖြင	-6927
မိဖုရားဧသတာ	-6928
မိမိလူအပေါင	-6929
မြေကြီးလှုပ	-6930
မြေကြီးအောက	-6931
လေပြီတကားဟု	-6932
သားသုံးယောက	-6933
သူတစုံတယောက	-6934
သွားသောနောက	-6935
အနာရောဂါစွဲ	-6936
အရာရှိအပေါင	-6937
းကြီးပေးခြင	-6938
းအရာဟူမူကား	-6939
ဆုကျေးဇူးကို	-6940
ဆုကျေးဇူးတော	-6941
ထာဝရဘုရားအသက	-6942
ဘုရားများကို	-6943
သွားသောသူတို	-6944
အကျိုးအကြောင	-6945
ထာဝရဘုရားအမိန	-6946
ထိုအရာများကို	-6947
လူအကြီးအကဲတို	-6948
းကြီးပေးကြလော	-6949
မြေအသီးအနှံကို	-6950
ဣသရေလအမျိုးတွင	-6951
???????????????	-6952
အမှုအလုံးစုံတို	-6953
းအရာအလုံးစုံတို	-6954
ဂလ	-6955
တသ	-6956
ပဏ	-6957
ရွ	-6958
ဧရ	-6959
ာဖ	-6960
ခာက	-6961
ခိန	-6962
စိန	-6963
စိပ	-6964
ဆီတ	-6965
ဆုလ	-6966
ဇဒက	-6967
ဈာယ	-6968
တစင	-6969
ဒိယ	-6970
ပုစ	-6971
ပြဿ	-6972
ဖော	-6973
ဗိဂ	-6974
ဗေဇ	-6975
ဘဆက	-6976
မညီ	-6977
မနင	-6978
မလမ	-6979
မသု	-6980
မာခ	-6981
ယှက	-6982
ရဂါ	-6983
ရာယ	-6984
ရှဒ	-6985
လဟာ	-6986
လေဗ	-6987
လျူ	-6988
လွမ	-6989
ဝါး	-6990
အခင	-6991
အထင	-6992
အာက	-6993
ဥပဇ	-6994
ဧသန	-6995
းပတ	-6996
ွှဲ	-6997
ကယာဖ	-6998
ကလျက	-6999
ကာတည	-7000
ကျကြ	-7001
ကွာဝ	-7002
ခံတတ	-7003
ခြွင	-7004
ငါသန	-7005
စကပင	-7006
စာရီ	-7007
စောက	-7008
ဆုလပ	-7009
တဟုန	-7010
တာဟတ	-7011
ထသား	-7012
ပုရာ	-7013
ပေကာ	-7014
ဖာလက	-7015
ဖေလဇ	-7016
မချရ	-7017
မငို	-7018
မထုတ	-7019
မရှု	-7020
မလာရ	-7021
မာကု	-7022
မာဝက	-7023
မာသည	-7024
မေရှ	-7025
မောန	-7026
မံရေ	-7027
မြူး	-7028
မှလည	-7029
ယာရက	-7030
ယုရှ	-7031
ယူတင	-7032
ယေသာ	-7033
ရိတည	-7034
လတို	-7035
လပို	-7036
လူတည	-7037
လူမည	-7038
လေဇန	-7039
သောမ	-7040
သံသည	-7041
အခြေ	-7042
အထိန	-7043
အဖြူ	-7044
အအုပ	-7045
အာဖက	-7046
ဧနုတ	-7047
ုပညာ	-7048
းထွက	-7049
းထွာ	-7050
းမေး	-7051
းမြင	-7052
းအုံ	-7053
ကာမျှ	-7054
ကိုဆင	-7055
ကျူပင	-7056
ခမောက	-7057
ခာအိမ	-7058
ခြံရံ	-7059
ငါပေါ	-7060
ငါလုပ	-7061
ငါအား	-7062
ငါးခု	-7063
စာငှက	-7064
စာရှင	-7065
စားလေ	-7066
စိပွင	-7067
စုကို	-7068
စေသကဲ	-7069
ဆရာသည	-7070
ညီညွတ	-7071
ညံသော	-7072
တောကဲ	-7073
တောပင	-7074
ထိသော	-7075
ထိုဆင	-7076
ထဲတွင	-7077
နေနှင	-7078
နေရသည	-7079
နှိုက	-7080
နှိုင	-7081
ဖာရော	-7082
ဘာမျှ	-7083
မကျွမ	-7084
မခံကြ	-7085
မဘွား	-7086
မမူမည	-7087
မမူသည	-7088
မရသော	-7089
မလာကြ	-7090
မအောင	-7091
မာခြင	-7092
မူဘွယ	-7093
မေသော	-7094
မှာတည	-7095
ယခုနေ	-7096
ယောဗပ	-7097
ရေဇိန	-7098
ရောဒိ	-7099
ရှိမာ	-7100
ရှိရစ	-7101
လာလျက	-7102
လိဗနိ	-7103
လူလွတ	-7104
လောဒိ	-7105
လှပြီ	-7106
ဝေမျှ	-7107
သားရင	-7108
သိရမည	-7109
သိသနည	-7110
သေသကဲ	-7111
သောစာ	-7112
သောတန	-7113
ဟေလသည	-7114
ဟောရန	-7115
အကြော	-7116
အစရှိ	-7117
အဖျား	-7118
အမှုန	-7119
ဧဇယုန	-7120
ဧလိဟု	-7121
းခိုင	-7122
းစေသည	-7123
းထိုး	-7124
းနှုတ	-7125
းမနှစ	-7126
ကာစောင	-7127
ကိုခွဲ	-7128
ကြစေဟု	-7129
ကြားလေ	-7130
ကွာဝေး	-7131
ခိုနှစ	-7132
ချိုဆယ	-7133
ဂလာဖြစ	-7134
ဂေဟာဇိ	-7135
ငါကောင	-7136
ငါထောက	-7137
ငါသောက	-7138
ငါးကို	-7139
ငါးကျပ	-7140
စားသကဲ	-7141
စိရပြည	-7142
စီးထွက	-7143
စုံတို	-7144
စုံနှင	-7145
စွတကား	-7146
ဆရာဖြစ	-7147
ဆွဲဖြတ	-7148
တရမြို	-7149
တရားမဲ	-7150
တုရုမင	-7151
တူအောင	-7152
ထိုအဓမ	-7153
ထိုအဝတ	-7154
ထဲကထုတ	-7155
ဒုတိယလ	-7156
နှမဖြစ	-7157
ပါသလော	-7158
ပိုးရွ	-7159
ပုံနှင	-7160
ပုံဖြစ	-7161
ပြီးစေ	-7162
ပြုစုရ	-7163
ပြုဘူး	-7164
ဗေသွေလ	-7165
ဗောဇသည	-7166
ဘုံသို	-7167
ဘူးသနည	-7168
ဘေးကို	-7169
ဘေးတို	-7170
ဘေးတော	-7171
ဘေးဖြင	-7172
ဘဲမနေရ	-7173
မဆိုဘဲ	-7174
မပြုအပ	-7175
မရှောက	-7176
မိမိညီ	-7177
မိမိအစ	-7178
မှားပါ	-7179
ယခုအခါ	-7180
ယူဆောင	-7181
ယေဇရေလ	-7182
ရသောဥစ	-7183
ရာရောက	-7184
ရေလရှင	-7185
ရွာမှာ	-7186
ရှာခြင	-7187
လုယူရာ	-7188
ဝါးတို	-7189
သားဘို	-7190
သားအား	-7191
သူတိုင	-7192
သူရဲသည	-7193
သောနှစ	-7194
သောအပင	-7195
သွားရာ	-7196
အနာစွဲ	-7197
အဘိနဒပ	-7198
အမိဟုဒ	-7199
အမွေတည	-7200
အသရေထင	-7201
အာဖာဇဒ	-7202
အာလေဇန	-7203
ဤသူကို	-7204
ဥရိယသည	-7205
းကုလား	-7206
းစေရမည	-7207
းပျောက	-7208
းပြီဟု	-7209
းမမိဿံ	-7210
းမိသော	-7211
းရဲခံရ	-7212
းရှိစေ	-7213
းလူတို	-7214
ျားဖြစ	-7215
ကိုစိုက	-7216
ကိုနိုင	-7217
ကိုနှိမ	-7218
ကိုမွေး	-7219
ကိုရောင	-7220
ကျကြလိမ	-7221
ကျွေးမည	-7222
ကြီးစွာ	-7223
ကြုံသော	-7224
ခံယူသော	-7225
ငါကြံစည	-7226
ငါမသိဟု	-7227
ငါအပိုင	-7228
စရာကောင	-7229
စားရလိမ	-7230
စားလျှင	-7231
စုထဲမှာ	-7232
စုံသဖြင	-7233
ဆိုပါမည	-7234
ဆုံးဖြစ	-7235
ဇေဒကိသည	-7236
တံခါးလမ	-7237
ထိုကောင	-7238
ထိုယောက	-7239
ထိုအရှင	-7240
ထိုဥပမာ	-7241
ဒုကဲတို	-7242
ဒုတိယနေ	-7243
ဒေနာရိတ	-7244
ဒေသစာရီ	-7245
ဒေါမြို	-7246
ဓေစွဲယူ	-7247
နေကြသနည	-7248
နောမြို	-7249
နွားလား	-7250
ပုရာဟိတ	-7251
ပေးလျှင	-7252
ပြားပေါ	-7253
ပြီတကား	-7254
ပြုကြမည	-7255
ပြောပြီ	-7256
ပြောလွယ	-7257
ပွဲခံစဉ	-7258
ဖလားတို	-7259
ဗာနဗနှင	-7260
ဘာသာဓလေ	-7261
ဘဲနေသော	-7262
မစားရဟု	-7263
မဆိုလို	-7264
မပြနိုင	-7265
မယားနှစ	-7266
မာရိနှင	-7267
မုသာနှင	-7268
မူသောနေ	-7269
များသို	-7270
ယုဒဘာသာ	-7271
ယေဒုသုန	-7272
ရှာလျှင	-7273
လူတဦးသည	-7274
လေးမြို	-7275
သိုးငါး	-7276
သူရဲဖြစ	-7277
သေခံခြင	-7278
သောအဖြစ	-7279
သွားကို	-7280
အခါယပြည	-7281
အသီးဖြစ	-7282
အသေမခံရ	-7283
အာဗြဟံက	-7284
အာရှတရက	-7285
အားရနှစ	-7286
ဤအရာတို	-7287
ဧလာဇာသည	-7288
းနှီးတင	-7289
းပြုသော	-7290
းဖူးသော	-7291
းမမူကား	-7292
းရှိရမည	-7293
းသီးကို	-7294
းအရာမှာ	-7295
ကိုသူတို	-7296
ကိုအပေါင	-7297
ချထားတော	-7298
ငါထားသော	-7299
ဆာပရောဖက	-7300
ဆိုကြသနည	-7301
ဆီးစေခြင	-7302
တမျိုးတည	-7303
တရားစကား	-7304
တံခါးနား	-7305
ထားကြပြီ	-7306
ထားကြလိမ	-7307
ထားစေခြင	-7308
ထိုပူဇော	-7309
ထုသောရုပ	-7310
နှံကြလိမ	-7311
ပါလေစေဟု	-7312
ပေါလုကလည	-7313
ပျားလပို	-7314
ဘုရားအိမ	-7315
ဘောထဲသို	-7316
မပေးဘဲနေ	-7317
မယားကိုမ	-7318
မရှိပါဟု	-7319
မရှိသလော	-7320
များအဘို	-7321
မျှမကြွင	-7322
ယာဇာမြို	-7323
ယူသွားကြ	-7324
ရသောသူသည	-7325
ရသောအမှု	-7326
ရေဘူးကို	-7327
ရောမမြို	-7328
လွှားစော	-7329
လှသောအဆင	-7330
ဝပြောသော	-7331
သတိပြုကြ	-7332
သားဦးဖြစ	-7333
သူမျှမသိ	-7334
သောလူတို	-7335
သောသူမှန	-7336
အမျိုးတည	-7337
အသိအကျွမ	-7338
အသီးမသီး	-7339
အိုးများ	-7340
ဦးစွာကပင	-7341
ဦးစွာသော	-7342
းဆဲသောသူ	-7343
းတရားတော	-7344
းမိုးခြင	-7345
ကာဒေရှအရပ	-7346
ကိုရှာသော	-7347
ကြေးဝါကို	-7348
ငါမှာလိုက	-7349
ငါအကြံရှိ	-7350
စားပွဲပေါ	-7351
စုဝေးစေမည	-7352
ဆိုကြလျှင	-7353
တံခါးအတွင	-7354
ထားဘေးဖြင	-7355
ထိုစာစောင	-7356
ထိုအခါမှစ	-7357
ထိုအမျိုး	-7358
ထုံးစံဓလေ	-7359
နေရာပြောင	-7360
နှမြောတော	-7361
ပြုမိလျှင	-7362
ပြေးကြောင	-7363
ဘွားသောနေ	-7364
ရဟောဘမြို	-7365
ရှမာရိပြည	-7366
ရှေလောမိတ	-7367
လူငါးကျိပ	-7368
သတိပေးသော	-7369
သားညီပေါင	-7370
သားယောရှု	-7371
သေစားသေစေ	-7372
သောငွေကို	-7373
သွားသောသူ	-7374
ဟောပြောလေ	-7375
အခိုးအငွေ	-7376
အငြိုးထား	-7377
အသီးအခြား	-7378
အာရှကေလုန	-7379
ဣသခါခရိုင	-7380
းကိုခံရမည	-7381
းကြိုးနှင	-7382
းသောသူကို	-7383
ကုလားကာနှင	-7384
ကြီးသောအခါ	-7385
ခိုလှုံလျက	-7386
ချသောကြောင	-7387
ချသောသူတို	-7388
ငါအလိုမရှိ	-7389
ငိုကြွေးလေ	-7390
စားသောသူသည	-7391
စီးပွားကို	-7392
ဆိုသောဆာလံ	-7393
ဆူဖြိုးသော	-7394
တုံးလုံးနေ	-7395
ပြေးသောအခါ	-7396
ဘုရားထံသို	-7397
မယားကိုပြစ	-7398
မာနကြီးသော	-7399
မိမိသားကို	-7400
မီးခိုးထွက	-7401
မြဲမြံခိုင	-7402
ရှုံးစေတော	-7403
ရှေးကာလမှစ	-7404
လူမျိုးနှင	-7405
လူအကြီးအကဲ	-7406
ဝေးပါစေသော	-7407
သောသူအချို	-7408
ဟေဗြဲလူတို	-7409
အကြံထမြောက	-7410
အမြဲပြုသော	-7411
အမှုကိုပြု	-7412
ဣသရေလခရိုင	-7413
းကြပါစေသော	-7414
းကြီးပေးကြ	-7415
းလေသမျှတို	-7416
ဇေရုဗဗေလနှင	-7417
တရားသောအမှု	-7418
ထိုဘုရားတို	-7419
နှလုံးထဲသို	-7420
ပါပြီတကားဟု	-7421
ပြုပြီးလျှင	-7422
မိမိဒုစရိုက	-7423
မိမိနေရာသို	-7424
မိမိမယားနှင	-7425
သိုးများကို	-7426
သိုးမွေးကို	-7427
အသွေးအားဖြင	-7428
အားကြီးသဖြင	-7429
းကိုမီးရှို	-7430
ပြုသောအမှုသည	-7431
ပြုသောအားဖြင	-7432
မုသားစကားကို	-7433
ရှိသမျှအတိုင	-7434
သူရှိသမျှတို	-7435
သွားရသောအခွင	-7436
ကိုချီးမြှောက	-7437
ဂလာရှိပါစေသော	-7438
ထိုသူသုံးယောက	-7439
အနားမှာရှိသော	-7440
အလိုလိုပြုသော	-7441
ဆုံးရှုံးစေခြင	-7442
မိဘမရှိသောသူငယ	-7443
လူမျိုးများတို	-7444
အဆွေအမျိုးအသီး	-7445
ငါမှာထားသမျှသော	-7446
ထာဝရဘုရားထားတော	-7447
ရေလအမျိုးသားတို	-7448
အဆွေအမျိုးအပေါင	-7449
အားကြီးသောကြောင	-7450
တိုးပွားများပြား	-7451
မိမိအမျိုးသားချင	-7452
ဤအမှုအလုံးစုံတို	-7453
နျ	-7454
ဟဒ	-7455
အဿ	-7456
ဥဇ	-7457
ကိစ	-7458
ကူမ	-7459
ဂါမ	-7460
ဆဌမ	-7461
တနိ	-7462
ထွေ	-7463
နသည	-7464
နေဟ	-7465
ဗာမ	-7466
ဘဝဂ	-7467
မတာ	-7468
မလပ	-7469
မလု	-7470
မျဉ	-7471
မြူ	-7472
မှထ	-7473
ယာန	-7474
ယာဣ	-7475
ရွဲ	-7476
လမဲ	-7477
လူတ	-7478
လူမ	-7479
လျစ	-7480
လှပ	-7481
သေရ	-7482
သွာ	-7483
အနီ	-7484
ဤစာ	-7485
ဥတု	-7486
ဦးမ	-7487
ဧဇာ	-7488
ဧဒြ	-7489
ဩကြ	-7490
ဩနန	-7491
းခပ	-7492
းဆက	-7493
းနာ	-7494
းသံ	-7495
▁၍။	-7496
ကိလိ	-7497
ကောဇ	-7498
ကျသည	-7499
ကြွက	-7500
ကြွပ	-7501
ခနှင	-7502
ခေဗာ	-7503
ခေမု	-7504
ခဲကဲ	-7505
ခြေမ	-7506
ငိုက	-7507
စမသတ	-7508
စာကဲ	-7509
စာပစ	-7510
စိုင	-7511
ဆာသည	-7512
တကို	-7513
တကျပ	-7514
တကွက	-7515
တချပ	-7516
တစိတ	-7517
တနှင	-7518
တမျက	-7519
တဧဖါ	-7520
တုလူ	-7521
ဓာသည	-7522
နွှယ	-7523
နှာရ	-7524
ပြကြ	-7525
ပြွန	-7526
ဗာတံ	-7527
ဗာရှ	-7528
ဗေလတ	-7529
ဘာလတ	-7530
မကျရ	-7531
မတွန	-7532
မထွန	-7533
မပို	-7534
မရဘဲ	-7535
မဝှက	-7536
ယူမည	-7537
ရာနံ	-7538
ရှဟံ	-7539
ရှိရ	-7540
လိုင	-7541
လျား	-7542
ဝလျက	-7543
သာဆီ	-7544
သာဝင	-7545
သေဖရ	-7546
သေလု	-7547
သောအ	-7548
သဲသဲ	-7549
ဟာဇာ	-7550
အကြပ	-7551
အပြန	-7552
အဖူး	-7553
အယုတ	-7554
အလွဲ	-7555
အဟိန	-7556
အာမသ	-7557
အိုက	-7558
ဤကျမ	-7559
ဥရိမ	-7560
ိညာဉ	-7561
းကျပ	-7562
းကြွ	-7563
းတကဲ	-7564
းမလှ	-7565
းရဟု	-7566
းသိမ	-7567
းအဝတ	-7568
းအသံ	-7569
ကိုပစ	-7570
ကိုမရ	-7571
ကိုရန	-7572
ကုပရု	-7573
ခံစရာ	-7574
ချေဟု	-7575
ခြေသေ	-7576
ဂိရဂါ	-7577
ငါခံရ	-7578
ငါစိတ	-7579
ငါစွန	-7580
ငါထွက	-7581
ငါပြည	-7582
ငါဖွင	-7583
စိုးရ	-7584
စုပုံ	-7585
ဆိုစေ	-7586
ဆိုရာ	-7587
ဆီမီး	-7588
ဆီလိမ	-7589
ဇေဗဒိ	-7590
တစုတည	-7591
တမြား	-7592
တဦးတည	-7593
တာပွါ	-7594
တိမနတ	-7595
တုနှင	-7596
တုမြစ	-7597
ထားဝရ	-7598
ထိုနက	-7599
ထိုနတ	-7600
ထိုလက	-7601
ထိုသက	-7602
ထိုသစ	-7603
ဒိဘုန	-7604
နာလျက	-7605
နိကော	-7606
နိပြည	-7607
နီးသည	-7608
နေကို	-7609
နေခေါ	-7610
နေရပါ	-7611
နေသေး	-7612
နံဖေး	-7613
နွှေး	-7614
ပဌနာမ	-7615
ပုံပြ	-7616
ပေးဝေ	-7617
ပြုစဉ	-7618
ပြောရ	-7619
ပြဿနာ	-7620
ဖမြို	-7621
ဗိခရိ	-7622
ဘူးဟု	-7623
မကိုင	-7624
မကျော	-7625
မချော	-7626
မခြား	-7627
မထားရ	-7628
မနိုး	-7629
မိခါလ	-7630
မီးကျ	-7631
မူရမည	-7632
မေနဟင	-7633
မေရော	-7634
မေးစစ	-7635
မြေညီ	-7636
မှာခဲ	-7637
မှီရာ	-7638
ယခုသင	-7639
ယေဟော	-7640
ရထိုက	-7641
ရာပြည	-7642
ရုသသည	-7643
ရဲတို	-7644
ရှာဖတ	-7645
ရှေမိ	-7646
လာရမည	-7647
လူအို	-7648
လဲခြင	-7649
လဲစရာ	-7650
သမြို	-7651
သာလော	-7652
သာလွန	-7653
သားလည	-7654
သိလိမ	-7655
သူနှစ	-7656
သေပြီ	-7657
သေးဟု	-7658
အကြား	-7659
အစုစု	-7660
အဆတရာ	-7661
အဘကလည	-7662
အဘရှေ	-7663
အာသသည	-7664
အားဆင	-7665
အားပြ	-7666
အားဗလ	-7667
ဦးထုပ	-7668
ဦးသို	-7669
ဧလိသည	-7670
းကလေး	-7671
းပြီး	-7672
းပွား	-7673
းမတွေ	-7674
းသဘော	-7675
းသောက	-7676
းဟောင	-7677
းအာဏာ	-7678
းဥပဒေ	-7679
ျာနား	-7680
ကာလနှင	-7681
ကိုဖြေ	-7682
ကိုမခံ	-7683
ကိုအစဉ	-7684
ကျလျှင	-7685
ကျားသစ	-7686
ကြံသော	-7687
ခဏာဖြစ	-7688
ခါလိုက	-7689
ခေမုရှ	-7690
ချမထား	-7691
ချီတော	-7692
ခွဲတော	-7693
ဂတေနှင	-7694
ဂိလဗော	-7695
ငါခိုင	-7696
ငါတိုင	-7697
ငါထာဝရ	-7698
ငါမဖျက	-7699
ငါအမျက	-7700
စာမရှိ	-7701
စာလမုန	-7702
စားဘို	-7703
စွဲလျက	-7704
ဆာဒိဌိ	-7705
ဆာအမေး	-7706
ဆိုသနည	-7707
ဆူအောင	-7708
ဆေးခြင	-7709
ဆေးတော	-7710
ဇလောဖဒ	-7711
ဇိဘောင	-7712
ဇောဘမင	-7713
တရာတဆယ	-7714
တာဖုံး	-7715
တိုးတက	-7716
တူးရွင	-7717
တောအုပ	-7718
ထိုတမန	-7719
ထိုတော	-7720
ထိုရုပ	-7721
ထိုအသင	-7722
ထုံးတမ	-7723
ဒိရှုန	-7724
နာမြို	-7725
နုံသား	-7726
နေပါမည	-7727
နွားကဲ	-7728
နှာတို	-7729
နှံခြင	-7730
ပဌမနှစ	-7731
ပုဆိုး	-7732
ပုံးရည	-7733
ပေးရကြ	-7734
ပြတောင	-7735
ပြေးဝင	-7736
ဘွားတတ	-7737
မကြားရ	-7738
မခံနှင	-7739
မညှိုး	-7740
မရိုသေ	-7741
မိမိမြ	-7742
မိမိလူ	-7743
မီးထွက	-7744
မောဘသည	-7745
မြေဖြစ	-7746
မြဲသော	-7747
မှလွှဲ	-7748
ယုံခြင	-7749
ယေရမေလ	-7750
ယေရှာယ	-7751
ယောဇဒက	-7752
ရေမရှိ	-7753
ရေများ	-7754
ရေလပြည	-7755
ရေသောက	-7756
ရေးသား	-7757
ရှာရုန	-7758
ရှိနှင	-7759
ရှေရဘိ	-7760
လဝိရိယ	-7761
လူရိုင	-7762
လူသုံး	-7763
လူဟောင	-7764
လေးမြတ	-7765
လှံကို	-7766
လှံတော	-7767
သနားတတ	-7768
သမီးကဲ	-7769
သိကြသည	-7770
သုံးဆင	-7771
သေရလိမ	-7772
သောနှမ	-7773
ဟိရံမင	-7774
ဟေဇကိက	-7775
အကြိုင	-7776
အစာစား	-7777
အနားပတ	-7778
အယူကို	-7779
အသရေတင	-7780
အာဇရေလ	-7781
အာဇလုန	-7782
အာဒံသည	-7783
ဧရှတော	-7784
ဩဇိသား	-7785
းခံလျက	-7786
းစေလော	-7787
းတထောင	-7788
းထဲမှစ	-7789
းမှထွက	-7790
းရူးပင	-7791
းရှိပါ	-7792
းသရိုက	-7793
းသာရကြ	-7794
းသောလမ	-7795
ကိုကျိန	-7796
ကိုစီရင	-7797
ကိုသနား	-7798
ကြာမမြင	-7799
ကြားစရာ	-7800
ကြီးနှင	-7801
ခေဗာမြစ	-7802
ခေါမြို	-7803
ခံရသဖြင	-7804
ချောဖြင	-7805
ဂျုံမုန	-7806
ငါမျှော	-7807
စကားမှာ	-7808
စာကိုလည	-7809
စာပရိကံ	-7810
စုဝေးရာ	-7811
စေကြနှင	-7812
စေကြလိမ	-7813
စေသောဟု	-7814
ဆိုရသော	-7815
ဆိုးစွဲ	-7816
တတိယသား	-7817
တာရှုသင	-7818
တောတိရစ	-7819
ထသောအခါ	-7820
ထားကိုင	-7821
ထိသောသူ	-7822
ထိုနှုတ	-7823
ဒြေစောင	-7824
ဓေယူပြန	-7825
နေရိသား	-7826
နောဧနှင	-7827
ပကတိဖြစ	-7828
ပမာဏနှင	-7829
ပေးဦးမည	-7830
ပျိုတို	-7831
ပြစေခြင	-7832
ပြုကြပါ	-7833
ပွဲခံရာ	-7834
ဖြေလျှင	-7835
ဗောရသား	-7836
ဘိုးတော	-7837
မပြုရကြ	-7838
မသိဘဲနေ	-7839
မာဂုပညာ	-7840
မိမိပစပ	-7841
မူလအမြစ	-7842
မြွေကို	-7843
မှားနှင	-7844
မှားလျက	-7845
ယောရံမင	-7846
ရာဗရှာခ	-7847
ရုံးနှင	-7848
ရွေးရမည	-7849
ရှိနေစဉ	-7850
ရှုလျှင	-7851
လာသောလမ	-7852
လာသောသူ	-7853
လူသေတို	-7854
လူအများ	-7855
လောကီမင	-7856
လျှာနှင	-7857
သတိမရှိ	-7858
သုံးဩမဲ	-7859
သူရဲနှစ	-7860
သူအများ	-7861
သံခမောက	-7862
သွားရကြ	-7863
ဟုဆိုတတ	-7864
အဆုံးသည	-7865
အလိုငှာ	-7866
အသားနှင	-7867
အားပြော	-7868
ဩဝါဒကို	-7869
းကိုမခံ	-7870
းဆိုသော	-7871
းထောမနာ	-7872
းဘေးကို	-7873
းသောပြည	-7874
းသောမြေ	-7875
းသောရုပ	-7876
ကာပြုရမည	-7877
ကိုမူကား	-7878
ကိုသိသော	-7879
ကိုအာရုန	-7880
ကြားသိကြ	-7881
ကြေးဝါယဇ	-7882
ခြံရံလျက	-7883
ဂလာရှိသည	-7884
ငွေတပိဿာ	-7885
စပါးခုနစ	-7886
စေသောအခါ	-7887
စွာနေလော	-7888
ဆုံးစေမည	-7889
ဇောရမြို	-7890
ညူးစေခြင	-7891
ထားကြောင	-7892
ထားဘေးသည	-7893
ထိုဖိလိတ	-7894
ထိုမြေသည	-7895
ထိုသူနှင	-7896
နိအမျိုး	-7897
နေသောပြည	-7898
ပြုကြသော	-7899
ပွါးများ	-7900
ဗေသောရုန	-7901
ဘာသာစကား	-7902
ဘုရားကလည	-7903
မချီးမွမ	-7904
မနာရှေသည	-7905
မပြုဘဲနေ	-7906
မယူကြနှင	-7907
မိမိပိုင	-7908
မိမိမြို	-7909
မီးမရှို	-7910
မေသောပေါ	-7911
များမကြာ	-7912
မှီဝဲသော	-7913
ယခုအချိန	-7914
ယဟောရှသည	-7915
ယူပြီးမှ	-7916
ရိုသေဘွယ	-7917
ရေမလိသား	-7918
ရွေးပိုင	-7919
ရှာကြလိမ	-7920
ရှိစေရမည	-7921
ရှိနေသော	-7922
ရှိပါလိမ	-7923
ရှုရမြို	-7924
လုနီးပြီ	-7925
လှံတံနှင	-7926
သဘောကောက	-7927
သားရဲနှင	-7928
¦	-7929
▁	-7930
်	-7931
ာ	-7932
ု	-7933
ိ	-7934
ေ	-7935
း	-7936
သ	-7937
က	-7938
င	-7939
မ	-7940
တ	-7941
့	-7942
ရ	-7943
ြ	-7944
အ	-7945
ှ	-7946
ည	-7947
န	-7948
လ	-7949
ပ	-7950
စ	-7951
၊	-7952
ျ	-7953
ူ	-7954
ခ	-7955
။	-7956
ါ	-7957
ွ	-7958
၏	-7959
ထ	-7960
ယ	-7961
ဘ	-7962
ံ	-7963
ီ	-7964
ဖ	-7965
၍	-7966
ဆ	-7967
ဝ	-7968
ဟ	-7969
ဲ	-7970
၌	-7971
?	-7972
္	-7973
ဒ	-7974
ဇ	-7975
ဗ	-7976
၎	-7977
ဉ	-7978
ဂ	-7979
ဣ	-7980
ဤ	-7981
ဏ	-7982
ဧ	-7983
ဥ	-7984
ဦ	-7985
ဃ	-7986
ဌ	-7987
ဩ	-7988
ဓ	-7989
ဋ	-7990
ဿ	-7991
-	-7992
ဍ	-7993
ဈ	-7994
ဠ	-7995
ဪ	-7996
