<pad>	0
</s>	0
<unk>	0
▁¦	-0
▁𐋇	-1
ti	-2
▁,	-3
ai	-4
in	-5
os	-6
ri	-7
pa	-8
au	-9
▁.	-10
si	-11
ir	-12
al	-13
ar	-14
an	-15
en	-16
as	-17
ei	-18
am	-19
im	-20
to	-21
su	-22
ro	-23
es	-24
ko	-25
tu	-26
ki	-27
ka	-28
ra	-29
st	-30
ku	-31
li	-32
vi	-33
mo	-34
ne	-35
ės	-36
či	-37
tai	-38
tin	-39
er	-40
at	-41
dė	-42
kad	-43
ij	-44
us	-45
pri	-46
mi	-47
tų	-48
yb	-49
ši	-50
me	-51
po	-52
tik	-53
ta	-54
ek	-55
kai	-56
iš	-57
pr	-58
uo	-59
gal	-60
eu	-61
je	-62
euro	-63
kuri	-64
ių	-65
eik	-66
dėl	-67
dar	-68
sa	-69
bū	-70
cij	-71
di	-72
re	-73
gi	-74
min	-75
europ	-76
vo	-77
ms	-78
no	-79
▁𐊣	-80
ant	-81
rin	-82
te	-83
ju	-84
europos	-85
ma	-86
ži	-87
jo	-88
par	-89
end	-90
ap	-91
kl	-92
tar	-93
ausi	-94
rė	-95
imo	-96
tei	-97
ab	-98
var	-99
jos	-100
ke	-101
pro	-102
aug	-103
už	-104
do	-105
val	-106
prie	-107
yra	-108
pat	-109
ais	-110
jų	-111
yv	-112
pir	-113
vy	-114
tas	-115
ly	-116
▁-	-117
yti	-118
de	-119
mon	-120
bu	-121
pasi	-122
ie	-123
komi	-124
ini	-125
są	-126
ja	-127
nu	-128
mu	-129
čiau	-130
turi	-131
mą	-132
aus	-133
susi	-134
dži	-135
ama	-136
mas	-137
man	-138
lai	-139
be	-140
nau	-141
bi	-142
ci	-143
teis	-144
sti	-145
sų	-146
is	-147
imą	-148
on	-149
ame	-150
taip	-151
men	-152
veik	-153
šal	-154
mis	-155
na	-156
rei	-157
tr	-158
lam	-159
tą	-160
pas	-161
svar	-162
styb	-163
valstyb	-164
inti	-165
ing	-166
kaip	-167
ng	-168
tos	-169
komisi	-170
av	-171
▁(	-172
imas	-173
pirmin	-174
bend	-175
cijos	-176
lamen	-177
jung	-178
du	-179
eš	-180
pirminin	-181
kos	-182
čių	-183
▁)	-184
tis	-185
ve	-186
pran	-187
per	-188
mų	-189
vien	-190
le	-191
lab	-192
ky	-193
gali	-194
ty	-195
kia	-196
lo	-197
ni	-198
ams	-199
klausi	-200
mes	-201
vai	-202
gr	-203
darb	-204
poli	-205
vis	-206
nuo	-207
parlamen	-208
or	-209
kur	-210
gyv	-211
ver	-212
galim	-213
kon	-214
pra	-215
praneš	-216
turė	-217
sąjung	-218
uos	-219
pi	-220
oje	-221
būtų	-222
ūsų	-223
kal	-224
▁¦2	-225
reik	-226
žin	-227
buvo	-228
va	-229
▁"	-230
ger	-231
mok	-232
būti	-233
labai	-234
nes	-235
nar	-236
kar	-237
ys	-238
ui	-239
tari	-240
savo	-241
ūr	-242
saug	-243
dal	-244
pl	-245
sk	-246
sie	-247
ijos	-248
daug	-249
bal	-250
bus	-251
pirmininke	-252
ami	-253
ge	-254
tus	-255
lin	-256
norė	-257
ėj	-258
amas	-259
anči	-260
mūsų	-261
eng	-262
spr	-263
apie	-264
kas	-265
todėl	-266
lyg	-267
eko	-268
že	-269
oj	-270
pag	-271
ką	-272
din	-273
ybos	-274
▁¦20	-275
atsi	-276
ste	-277
toj	-278
priemon	-279
padė	-280
tačiau	-281
eig	-282
tarp	-283
ekono	-284
komisijos	-285
nari	-286
vyk	-287
inan	-288
ties	-289
mos	-290
norėčiau	-291
bet	-292
tais	-293
ose	-294
vir	-295
tikrin	-296
dy	-297
kin	-298
da	-299
ėms	-300
ter	-301
skir	-302
jau	-303
kyti	-304
so	-305
amos	-306
mus	-307
kalb	-308
auk	-309
veiks	-310
reikal	-311
keli	-312
stat	-313
tini	-314
pasiū	-315
lie	-316
finan	-317
umo	-318
0¦	-319
usi	-320
ak	-321
aiš	-322
augi	-323
for	-324
cial	-325
ją	-326
paž	-327
turime	-328
pasiūly	-329
pak	-330
mano	-331
inių	-332
omis	-333
užtikrin	-334
vie	-335
▁¦1	-336
esn	-337
sav	-338
darbo	-339
dir	-340
der	-341
kri	-342
sku	-343
proc	-344
sprend	-345
tori	-346
turėtų	-347
reikia	-348
šiuo	-349
sri	-350
prieš	-351
iz	-352
lei	-353
žmon	-354
mė	-355
mės	-356
kurie	-357
ang	-358
naudo	-359
tiks	-360
sieki	-361
ji	-362
skai	-363
pagrin	-364
manau	-365
dien	-366
valstybės	-367
oms	-368
suo	-369
nai	-370
politik	-371
sąjungos	-372
dab	-373
ch	-374
gin	-375
dabar	-376
tikr	-377
aš	-378
ry	-379
tau	-380
maž	-381
cija	-382
ekt	-383
ank	-384
pagal	-385
ba	-386
duo	-387
žve	-388
visi	-389
sių	-390
bendr	-391
pe	-392
tume	-393
toki	-394
parlamento	-395
imų	-396
kom	-397
mai	-398
škai	-399
ble	-400
ent	-401
tam	-402
tuo	-403
vei	-404
daugi	-405
inės	-406
proble	-407
tina	-408
stitu	-409
gyven	-410
▁:	-411
ypa	-412
galimyb	-413
komisija	-414
str	-415
žino	-416
regi	-417
tyje	-418
gyvend	-419
pilie	-420
įsi	-421
disku	-422
lių	-423
ciją	-424
tink	-425
pateik	-426
įgyvend	-427
ime	-428
siste	-429
rez	-430
raš	-431
auj	-432
lgi	-433
priim	-434
sta	-435
lio	-436
ener	-437
ūros	-438
ga	-439
šį	-440
atsa	-441
pone	-442
galė	-443
jie	-444
bendra	-445
kų	-446
ud	-447
kurios	-448
teik	-449
susitari	-450
zi	-451
tinės	-452
pasau	-453
ekonomi	-454
mums	-455
pras	-456
tie	-457
social	-458
ūri	-459
narių	-460
institu	-461
ati	-462
sto	-463
stra	-464
ektyv	-465
apsaug	-466
por	-467
ypač	-468
gai	-469
uk	-470
lik	-471
teisės	-472
kiai	-473
valstybių	-474
cijų	-475
teg	-476
pab	-477
ėmis	-478
imus	-479
padar	-480
amą	-481
šios	-482
gu	-483
sek	-484
atsižve	-485
pareig	-486
diskusi	-487
avimo	-488
kio	-489
ėra	-490
dide	-491
tojų	-492
tek	-493
dami	-494
vertin	-495
sty	-496
▁¦200	-497
tį	-498
narės	-499
tiksl	-500
ėje	-501
▁?	-502
metu	-503
poni	-504
sutar	-505
šio	-506
el	-507
tinių	-508
daugiau	-509
nor	-510
svarbi	-511
osi	-512
laiko	-513
šių	-514
taryb	-515
liu	-516
mais	-517
šis	-518
dr	-519
tvar	-520
pakei	-521
ėjo	-522
pasa	-523
balsav	-524
gerb	-525
nustat	-526
did	-527
imu	-528
ausia	-529
jis	-530
čia	-531
darbi	-532
jusi	-533
užtikrinti	-534
ija	-535
nei	-536
dama	-537
nėra	-538
bendradarbi	-539
siekiant	-540
▁.,	-541
ėti	-542
klaus	-543
liau	-544
pasiek	-545
kriz	-546
ybės	-547
ausiai	-548
ori	-549
past	-550
kuris	-551
jai	-552
prek	-553
uosi	-554
lė	-555
rū	-556
inio	-557
mog	-558
gan	-559
atve	-560
fi	-561
nori	-562
lais	-563
prin	-564
politikos	-565
ima	-566
aplin	-567
svarbu	-568
virtin	-569
bei	-570
tarptau	-571
biud	-572
sime	-573
biudže	-574
imai	-575
ęs	-576
demok	-577
demokra	-578
gų	-579
galima	-580
jei	-581
mui	-582
visų	-583
ūs	-584
mat	-585
la	-586
se	-587
čiai	-588
trauk	-589
šian	-590
visuo	-591
inter	-592
lt	-593
šiandien	-594
ųjų	-595
amai	-596
žmog	-597
bai	-598
plė	-599
rink	-600
prisi	-601
naudoj	-602
joje	-603
infor	-604
rak	-605
ten	-606
mini	-607
auti	-608
poži	-609
komite	-610
iki	-611
kių	-612
šalių	-613
teisių	-614
katin	-615
gam	-616
pritari	-617
sąlyg	-618
nuos	-619
dų	-620
tur	-621
dyti	-622
įgyvendin	-623
arba	-624
cion	-625
kiek	-626
rijos	-627
frak	-628
ekonomikos	-629
lg	-630
ali	-631
imui	-632
ančių	-633
didži	-634
sektori	-635
dos	-636
uoti	-637
strateg	-638
uose	-639
jek	-640
ag	-641
amų	-642
jas	-643
ves	-644
taisy	-645
žmogaus	-646
visiškai	-647
das	-648
vyri	-649
▁;	-650
progr	-651
parlamentas	-652
prival	-653
pre	-654
vė	-655
sio	-656
siek	-657
tiek	-658
rėž	-659
finans	-660
tarybos	-661
umą	-662
sudar	-663
sis	-664
teri	-665
kel	-666
lau	-667
nepa	-668
suteik	-669
jus	-670
gijos	-671
būt	-672
klausimas	-673
praš	-674
ęsti	-675
spor	-676
kus	-677
šią	-678
srityje	-679
lis	-680
krei	-681
metų	-682
direktyv	-683
pirma	-684
den	-685
cional	-686
nors	-687
kurį	-688
vyriaus	-689
kurių	-690
informa	-691
šalys	-692
požiūri	-693
esni	-694
inga	-695
oliu	-696
plan	-697
pagrindin	-698
kre	-699
esu	-700
lan	-701
galime	-702
rezoliu	-703
žmonių	-704
tro	-705
žemės	-706
pakeiti	-707
kol	-708
privalo	-709
nacional	-710
susijusi	-711
veiksmin	-712
pranešimą	-713
ban	-714
priemonių	-715
ras	-716
teiki	-717
priklaus	-718
daly	-719
įvai	-720
sąjunga	-721
jį	-722
pti	-723
stų	-724
sun	-725
atei	-726
įmon	-727
skatin	-728
projek	-729
patvirtin	-730
tiki	-731
antis	-732
inius	-733
mokes	-734
reg	-735
dov	-736
princi	-737
visuomen	-738
ėk	-739
čio	-740
onos	-741
gos	-742
rodo	-743
damas	-744
nų	-745
dėmes	-746
kė	-747
ybę	-748
vidu	-749
5¦	-750
būtina	-751
inę	-752
fon	-753
rinkos	-754
acijos	-755
sukur	-756
tran	-757
veiksmų	-758
duk	-759
dirb	-760
tyri	-761
vienas	-762
dą	-763
organ	-764
raštu	-765
siems	-766
ps	-767
pavy	-768
dalyv	-769
produk	-770
il	-771
ski	-772
stės	-773
region	-774
oti	-775
sien	-776
pv	-777
inis	-778
ekonomin	-779
ven	-780
anti	-781
toliau	-782
atsižvelgi	-783
eigu	-784
dėti	-785
jeigu	-786
galėtų	-787
lygi	-788
engti	-789
uoj	-790
viena	-791
reglamen	-792
varto	-793
reiš	-794
konkur	-795
stan	-796
abe	-797
tijos	-798
energijos	-799
rem	-800
pasakyti	-801
žo	-802
log	-803
9¦	-804
jog	-805
prekybos	-806
pen	-807
svei	-808
laisv	-809
tui	-810
bos	-811
ukt	-812
pasl	-813
čius	-814
įtrauk	-815
net	-816
labi	-817
visa	-818
tre	-819
bendro	-820
gru	-821
kok	-822
baig	-823
mir	-824
geri	-825
klausimą	-826
asmen	-827
kartu	-828
vadov	-829
pvz	-830
dauge	-831
džio	-832
kurią	-833
ančios	-834
jūsų	-835
politi	-836
paslaug	-837
turėtume	-838
priklauso	-839
abejo	-840
darbuo	-841
pranešime	-842
sp	-843
grį	-844
šali	-845
lyje	-846
nusi	-847
nuomon	-848
biudžeto	-849
regio	-850
pos	-851
sab	-852
koti	-853
rezu	-854
lisab	-855
osios	-856
taiko	-857
▁¦201	-858
kuriuos	-859
pozi	-860
remi	-861
šalim	-862
iją	-863
klima	-864
atas	-865
organiz	-866
teising	-867
konkuren	-868
įsipareig	-869
ru	-870
ragin	-871
pati	-872
europo	-873
apsaugos	-874
steb	-875
vert	-876
moter	-877
sveika	-878
alo	-879
yje	-880
kartą	-881
lėš	-882
aukš	-883
kymo	-884
pais	-885
ponia	-886
tinio	-887
lisabonos	-888
pabrėž	-889
klimato	-890
tech	-891
didel	-892
8¦	-893
ln	-894
kie	-895
sporto	-896
moks	-897
avimą	-898
frakcijos	-899
gą	-900
vių	-901
stab	-902
imtis	-903
iniai	-904
išlai	-905
europa	-906
jė	-907
jūs	-908
ojo	-909
rie	-910
kole	-911
veikl	-912
spręsti	-913
ijoje	-914
staty	-915
dėmesį	-916
klausimu	-917
ran	-918
rių	-919
žvi	-920
atyv	-921
negali	-922
plėtr	-923
avimas	-924
žinoma	-925
žas	-926
io	-927
iu	-928
dėlto	-929
kontro	-930
ponios	-931
pu	-932
ūkio	-933
7¦	-934
ėtų	-935
pram	-936
pažei	-937
atsižvelgiant	-938
ėme	-939
pavyz	-940
ponai	-941
vid	-942
kovo	-943
atžvi	-944
deryb	-945
konkre	-946
inin	-947
atsto	-948
papras	-949
atžvilgi	-950
šie	-951
atveju	-952
taryba	-953
kuo	-954
umas	-955
šim	-956
vaid	-957
vardu	-958
šiame	-959
susitik	-960
europoje	-961
3¦	-962
atlik	-963
cijas	-964
pramon	-965
priežas	-966
vyriausyb	-967
vimo	-968
aplinkos	-969
dymo	-970
inves	-971
tiems	-972
piliečių	-973
eur	-974
nesu	-975
tvir	-976
inici	-977
priemones	-978
dvi	-979
pateikti	-980
gas	-981
atžvilgiu	-982
part	-983
vidaus	-984
padėkoti	-985
inį	-986
taigi	-987
tojams	-988
atsižvelg	-989
rūp	-990
ištek	-991
partne	-992
proces	-993
svarbus	-994
ed	-995
siū	-996
mažin	-997
2¦	-998
atli	-999
duomen	-1000
vysty	-1001
kinti	-1002
pil	-1003
skait	-1004
turin	-1005
nustaty	-1006
pirminink	-1007
įgyvendinti	-1008
gra	-1009
sus	-1010
finansų	-1011
imi	-1012
rib	-1013
tikos	-1014
balsavau	-1015
politiką	-1016
ūk	-1017
grei	-1018
kitų	-1019
kius	-1020
kult	-1021
darbą	-1022
šioje	-1023
ingas	-1024
energe	-1025
pažang	-1026
diskusijos	-1027
pusi	-1028
teigi	-1029
glo	-1030
vieš	-1031
politika	-1032
ef	-1033
tri	-1034
prieži	-1035
iniciatyv	-1036
ats	-1037
siu	-1038
proced	-1039
aiškiai	-1040
yn	-1041
pek	-1042
padaryti	-1043
žu	-1044
nus	-1045
tinę	-1046
tinis	-1047
go	-1048
tel	-1049
koje	-1050
džiai	-1051
pirmi	-1052
labiau	-1053
tok	-1054
šti	-1055
naujo	-1056
būtent	-1057
pritariu	-1058
6¦	-1059
grin	-1060
vaiz	-1061
būtin	-1062
pagrind	-1063
skiri	-1064
tarti	-1065
tikrųjų	-1066
įsipareigoj	-1067
pus	-1068
priimti	-1069
iai	-1070
pui	-1071
palai	-1072
saugumo	-1073
visiems	-1074
daž	-1075
pasiekti	-1076
angi	-1077
audo	-1078
doku	-1079
grup	-1080
sant	-1081
timi	-1082
aspek	-1083
taisykl	-1084
galimybę	-1085
auja	-1086
vers	-1087
dokumen	-1088
1¦	-1089
tę	-1090
šk	-1091
anks	-1092
jame	-1093
klai	-1094
met	-1095
tru	-1096
jums	-1097
lygmen	-1098
pastang	-1099
tojai	-1100
mėn	-1101
nen	-1102
iniu	-1103
reng	-1104
tikrai	-1105
tikiuosi	-1106
transporto	-1107
asi	-1108
kis	-1109
sėk	-1110
vieno	-1111
nepais	-1112
kei	-1113
pavo	-1114
tiesio	-1115
kir	-1116
tuoj	-1117
kil	-1118
tinį	-1119
derin	-1120
kijos	-1121
svarb	-1122
žių	-1123
institucijos	-1124
ėm	-1125
vės	-1126
maisto	-1127
00¦	-1128
fer	-1129
grie	-1130
galioj	-1131
veikti	-1132
siekiama	-1133
ber	-1134
orite	-1135
sistemos	-1136
nustatyti	-1137
kti	-1138
susij	-1139
pasaulio	-1140
ad	-1141
nis	-1142
vos	-1143
šiuos	-1144
priorite	-1145
galiausiai	-1146
tyvi	-1147
papil	-1148
sumaž	-1149
standar	-1150
sukurti	-1151
pabrėžti	-1152
sveikatos	-1153
ūrų	-1154
džia	-1155
sudė	-1156
atstov	-1157
finansav	-1158
pirmininkauj	-1159
4¦	-1160
it	-1161
rim	-1162
engi	-1163
kant	-1164
griež	-1165
numat	-1166
vieną	-1167
atkrei	-1168
reiškia	-1169
kan	-1170
strukt	-1171
klausimus	-1172
priemonės	-1173
tol	-1174
panai	-1175
atskir	-1176
gar	-1177
mone	-1178
ūrin	-1179
tinai	-1180
bendrą	-1181
didesn	-1182
pirmiausia	-1183
nesi	-1184
strai	-1185
santy	-1186
pakank	-1187
pači	-1188
reikalav	-1189
pasin	-1190
stipr	-1191
visos	-1192
krizės	-1193
moterų	-1194
api	-1195
ate	-1196
nie	-1197
aliz	-1198
požiūriu	-1199
dėj	-1200
maži	-1201
noriu	-1202
refor	-1203
čiams	-1204
spe	-1205
sąjungoje	-1206
įvy	-1207
juos	-1208
mosi	-1209
komiteto	-1210
pranešėj	-1211
lta	-1212
lės	-1213
kūri	-1214
vaidmen	-1215
ūra	-1216
ūrą	-1217
šalies	-1218
vyr	-1219
įvyk	-1220
antra	-1221
tokia	-1222
vietos	-1223
kadangi	-1224
af	-1225
pini	-1226
techno	-1227
atsakom	-1228
tarybai	-1229
tinkamai	-1230
pasaulyje	-1231
pasinaudo	-1232
ings	-1233
stai	-1234
didin	-1235
įskait	-1236
plėtros	-1237
pasiūlymą	-1238
įskaitant	-1239
sen	-1240
guli	-1241
kelia	-1242
parei	-1243
taikyti	-1244
valstybėse	-1245
daro	-1246
kele	-1247
skri	-1248
kitos	-1249
styti	-1250
įstaty	-1251
valstybėms	-1252
pan	-1253
tra	-1254
dėjo	-1255
klių	-1256
dešim	-1257
ėjimo	-1258
žings	-1259
bendrijos	-1260
atų	-1261
viz	-1262
nariai	-1263
bendradarbiavimo	-1264
bo	-1265
savai	-1266
atliek	-1267
padėtis	-1268
problema	-1269
20¦	-1270
nių	-1271
rio	-1272
van	-1273
paro	-1274
džios	-1275
srity	-1276
šalis	-1277
reguli	-1278
šalyse	-1279
energetikos	-1280
aki	-1281
oro	-1282
smu	-1283
leng	-1284
šalims	-1285
nepaisant	-1286
pie	-1287
skur	-1288
paten	-1289
padėti	-1290
žmonės	-1291
hu	-1292
kli	-1293
soli	-1294
inimo	-1295
jusių	-1296
straips	-1297
ateityje	-1298
nary	-1299
remti	-1300
išs	-1301
kios	-1302
iškai	-1303
kuriuo	-1304
nebuvo	-1305
kalbant	-1306
bar	-1307
muo	-1308
ines	-1309
rius	-1310
pastar	-1311
ataskai	-1312
parlamente	-1313
džių	-1314
kodėl	-1315
kurio	-1316
kurias	-1317
akivaiz	-1318
paslaugų	-1319
pranešimas	-1320
pagrindinių	-1321
toje	-1322
jiems	-1323
siūlo	-1324
teisė	-1325
ino	-1326
kau	-1327
nuost	-1328
pagrį	-1329
tuoti	-1330
geb	-1331
rezult	-1332
užsien	-1333
nuomone	-1334
dai	-1335
juo	-1336
tumo	-1337
šias	-1338
daryti	-1339
metais	-1340
privalome	-1341
direktyvos	-1342
ep	-1343
cing	-1344
veng	-1345
pareng	-1346
kuriame	-1347
pranešimo	-1348
rai	-1349
vėl	-1350
posė	-1351
ausias	-1352
sutarties	-1353
▁¦3	-1354
kro	-1355
lius	-1356
moky	-1357
nuro	-1358
ausių	-1359
daugu	-1360
kitas	-1361
norime	-1362
sudėtin	-1363
jam	-1364
kiu	-1365
rusi	-1366
esame	-1367
gerai	-1368
naujų	-1369
reikš	-1370
sunku	-1371
suoti	-1372
kurioje	-1373
agent	-1374
dalis	-1375
tinka	-1376
vadin	-1377
vakar	-1378
naudoti	-1379
pareišk	-1380
reikėtų	-1381
srityse	-1382
lygmeniu	-1383
fak	-1384
gau	-1385
yta	-1386
teisę	-1387
skirti	-1388
didinti	-1389
produktų	-1390
taisyklių	-1391
visuomenės	-1392
ūrė	-1393
dant	-1394
tero	-1395
žini	-1396
atsak	-1397
rikos	-1398
kuriose	-1399
nusikal	-1400
priežiūros	-1401
▁".	-1402
besi	-1403
kita	-1404
mato	-1405
gauti	-1406
priėm	-1407
dažnai	-1408
džiaugi	-1409
suteikti	-1410
ūz	-1411
ios	-1412
mln	-1413
spa	-1414
ėja	-1415
fika	-1416
užim	-1417
esnio	-1418
papildo	-1419
veiklos	-1420
auto	-1421
patir	-1422
nagrin	-1423
neturi	-1424
skaidr	-1425
sumažinti	-1426
šū	-1427
eno	-1428
dėme	-1429
proto	-1430
tuose	-1431
visas	-1432
leisti	-1433
mokesčių	-1434
skatinti	-1435
institucijų	-1436
co	-1437
stas	-1438
aiškin	-1439
narėse	-1440
padėtį	-1441
laikyti	-1442
pagalbos	-1443
ančius	-1444
vartotojų	-1445
ser	-1446
naud	-1447
cijai	-1448
tiesų	-1449
visus	-1450
investi	-1451
įvertin	-1452
▁¦2009¦	-1453
piliečiams	-1454
amo	-1455
gir	-1456
ruo	-1457
yba	-1458
šia	-1459
▁",	-1460
lygio	-1461
vykdo	-1462
narėms	-1463
tinius	-1464
sistemą	-1465
sąlygas	-1466
išteklių	-1467
gyventojų	-1468
žal	-1469
lėšų	-1470
dialo	-1471
gerinti	-1472
solidar	-1473
tikslas	-1474
20	-1475
dav	-1476
kusi	-1477
mobi	-1478
linių	-1479
rasti	-1480
teises	-1481
vartoj	-1482
svarsty	-1483
kš	-1484
mar	-1485
naš	-1486
toks	-1487
kovos	-1488
porei	-1489
povei	-1490
tines	-1491
įmano	-1492
kuriais	-1493
paramos	-1494
vaidmenį	-1495
cūz	-1496
jūros	-1497
kuria	-1498
metus	-1499
galbūt	-1500
paramą	-1501
atitink	-1502
suderin	-1503
žmonėms	-1504
valdžios	-1505
les	-1506
tiš	-1507
damos	-1508
prancūz	-1509
problemų	-1510
užsienio	-1511
technolog	-1512
bą	-1513
lu	-1514
timo	-1515
ingai	-1516
narys	-1517
tinkl	-1518
geriau	-1519
pripaž	-1520
darbuotojų	-1521
susitarimas	-1522
buv	-1523
kalbė	-1524
rekom	-1525
dešimt	-1526
dirbti	-1527
pradėti	-1528
reikalų	-1529
sistema	-1530
pramonės	-1531
rekomend	-1532
susitarimo	-1533
nepriklauso	-1534
mę	-1535
deja	-1536
inte	-1537
kito	-1538
antys	-1539
kinin	-1540
patik	-1541
ėjimą	-1542
susidu	-1543
turėti	-1544
įsitik	-1545
gė	-1546
jais	-1547
rūpin	-1548
cijoms	-1549
kompro	-1550
sprendimo	-1551
strategijos	-1552
ria	-1553
ingos	-1554
ketin	-1555
palan	-1556
tarpi	-1557
terori	-1558
uje	-1559
pake	-1560
mažiau	-1561
sėkmin	-1562
tiniai	-1563
interne	-1564
stiprin	-1565
klausimų	-1566
negalime	-1567
eg	-1568
bul	-1569
dės	-1570
myn	-1571
pai	-1572
kelb	-1573
visą	-1574
pasku	-1575
tyrimų	-1576
tvirtin	-1577
cen	-1578
šei	-1579
gero	-1580
dį	-1581
dys	-1582
tes	-1583
aktų	-1584
esnės	-1585
prašy	-1586
tiniu	-1587
turės	-1588
vyksta	-1589
įvairi	-1590
taikymo	-1591
organiza	-1592
susijusių	-1593
laikotarpi	-1594
rezoliucijos	-1595
fr	-1596
kry	-1597
lat	-1598
plo	-1599
res	-1600
trum	-1601
galai	-1602
cijoje	-1603
▁¦0	-1604
apsi	-1605
drau	-1606
pajė	-1607
aišku	-1608
veikį	-1609
atsaky	-1610
poveikį	-1611
pirmininko	-1612
pla	-1613
nuspr	-1614
stabil	-1615
kriteri	-1616
problemas	-1617
stiprinti	-1618
▁¦5	-1619
išsi	-1620
joms	-1621
leid	-1622
liai	-1623
prof	-1624
šiam	-1625
didžiu	-1626
pažeid	-1627
interes	-1628
sprendži	-1629
bau	-1630
ijų	-1631
grai	-1632
rinką	-1633
čiausi	-1634
šalyje	-1635
bran	-1636
gamin	-1637
rengi	-1638
atlikti	-1639
kuriomis	-1640
komisijai	-1641
sprendimą	-1642
mer	-1643
ijai	-1644
rizi	-1645
esnis	-1646
vaikų	-1647
tikslų	-1648
žinome	-1649
rezulta	-1650
inf	-1651
trū	-1652
ved	-1653
meto	-1654
esmės	-1655
pamin	-1656
taiky	-1657
tvark	-1658
sudaro	-1659
▁¦2020¦	-1660
pakankamai	-1661
sprendimus	-1662
rd	-1663
len	-1664
įst	-1665
rėži	-1666
vertyb	-1667
dėmesio	-1668
ilgalai	-1669
atkreipti	-1670
ce	-1671
kėl	-1672
žuv	-1673
apib	-1674
▁¦19	-1675
kelių	-1676
turiu	-1677
atsisa	-1678
vadovų	-1679
vanden	-1680
tvarkos	-1681
panaikin	-1682
problemos	-1683
klausimais	-1684
džiaugiuosi	-1685
ny	-1686
tė	-1687
žen	-1688
amie	-1689
dvie	-1690
gruo	-1691
iššū	-1692
sang	-1693
krizę	-1694
naują	-1695
vietų	-1696
sanglau	-1697
skirtin	-1698
kiekvien	-1699
sky	-1700
dalį	-1701
tarn	-1702
ančią	-1703
nijos	-1704
uomen	-1705
dauguma	-1706
efektyv	-1707
kalbėti	-1708
valdymo	-1709
parlamentui	-1710
informacijos	-1711
nk	-1712
kiau	-1713
mams	-1714
mili	-1715
rati	-1716
švie	-1717
linės	-1718
norin	-1719
įmonių	-1720
galimybes	-1721
tės	-1722
duoti	-1723
kelią	-1724
vokie	-1725
tokios	-1726
regiono	-1727
partnery	-1728
įtraukti	-1729
kontrolės	-1730
sprendimas	-1731
susitarimą	-1732
pasinaudoti	-1733
tarptautinės	-1734
oji	-1735
vyst	-1736
kurti	-1737
atrodo	-1738
naujos	-1739
prieštar	-1740
pasiūlymas	-1741
būsi	-1742
grės	-1743
kada	-1744
lauk	-1745
šiau	-1746
ordin	-1747
žiūrė	-1748
derybų	-1749
global	-1750
konven	-1751
gyvenimo	-1752
smur	-1753
nebus	-1754
nelyg	-1755
laikas	-1756
leidži	-1757
naujas	-1758
siekti	-1759
ūkinin	-1760
koordin	-1761
ministra	-1762
remiantis	-1763
kams	-1764
nauj	-1765
tada	-1766
pažin	-1767
prezi	-1768
kaitos	-1769
visada	-1770
piliečiai	-1771
administra	-1772
konkurencing	-1773
cin	-1774
glob	-1775
itin	-1776
žvej	-1777
esnių	-1778
kompe	-1779
laiky	-1780
iniais	-1781
matyti	-1782
uosius	-1783
duomenų	-1784
kompeten	-1785
preziden	-1786
demokrati	-1787
susirūpin	-1788
aukščiausi	-1789
blo	-1790
miš	-1791
sub	-1792
vyks	-1793
aplink	-1794
kystės	-1795
nuolat	-1796
turėjo	-1797
paskelb	-1798
tiesiog	-1799
▁¦2008¦	-1800
padėties	-1801
finansinių	-1802
biu	-1803
kam	-1804
poky	-1805
riai	-1806
fondo	-1807
ančias	-1808
sudary	-1809
vertus	-1810
pagalbą	-1811
galėtume	-1812
pavyzdži	-1813
ekonomini	-1814
klausimai	-1815
vystymosi	-1816
darbotvark	-1817
bli	-1818
▁),	-1819
dito	-1820
mies	-1821
neiš	-1822
orės	-1823
reag	-1824
liber	-1825
nelai	-1826
teikti	-1827
veiklą	-1828
sektoriaus	-1829
socialinės	-1830
svarbiausia	-1831
del	-1832
jav	-1833
nio	-1834
ron	-1835
rės	-1836
išme	-1837
mani	-1838
pera	-1839
atvir	-1840
ginti	-1841
karto	-1842
tegra	-1843
diskri	-1844
teikia	-1845
apibrėž	-1846
branduo	-1847
pateiki	-1848
special	-1849
pasireng	-1850
įsitikin	-1851
diskrimin	-1852
cent	-1853
dėko	-1854
kyla	-1855
ankst	-1856
elekt	-1857
komis	-1858
tokių	-1859
trukt	-1860
trūku	-1861
išorės	-1862
pastab	-1863
pabrėži	-1864
žingsnis	-1865
balsavimas	-1866
teisingumo	-1867
žr	-1868
bio	-1869
vin	-1870
▁¦1¦	-1871
acija	-1872
kreip	-1873
kitaip	-1874
naudos	-1875
ėjimas	-1876
integra	-1877
susijęs	-1878
parengti	-1879
sprendimų	-1880
ano	-1881
galu	-1882
truk	-1883
viso	-1884
šiai	-1885
priva	-1886
keletą	-1887
pritar	-1888
saugos	-1889
ministr	-1890
protokol	-1891
svarstyti	-1892
bendruomen	-1893
ekonominės	-1894
pirmininkas	-1895
rezoliuciją	-1896
bendradarbiavimą	-1897
dis	-1898
kime	-1899
konf	-1900
gerbi	-1901
likti	-1902
pabai	-1903
tampa	-1904
moteri	-1905
tikslus	-1906
anksčiau	-1907
neturėtų	-1908
padidinti	-1909
dus	-1910
▁¦4	-1911
jokių	-1912
pavoj	-1913
sveik	-1914
dėkoju	-1915
pareik	-1916
tinėje	-1917
daugelis	-1918
klausimo	-1919
pasirink	-1920
prieglob	-1921
direktyva	-1922
žy	-1923
ros	-1924
įta	-1925
klas	-1926
užsi	-1927
usios	-1928
nutrauk	-1929
sumažin	-1930
įmanoma	-1931
laikytis	-1932
pritarti	-1933
▁!	-1934
erd	-1935
suk	-1936
tys	-1937
amus	-1938
apri	-1939
dali	-1940
žemi	-1941
feren	-1942
moksl	-1943
tinti	-1944
šiais	-1945
susiję	-1946
neabejo	-1947
princip	-1948
▁¦2010¦	-1949
sektoriuje	-1950
ein	-1951
ekl	-1952
antį	-1953
baus	-1954
ingą	-1955
išva	-1956
muni	-1957
rumu	-1958
lieka	-1959
opera	-1960
tikro	-1961
derybas	-1962
poveikio	-1963
mokslinių	-1964
sanglaudos	-1965
ho	-1966
idė	-1967
nos	-1968
san	-1969
bent	-1970
chan	-1971
ital	-1972
reli	-1973
mažai	-1974
parti	-1975
pradė	-1976
valsti	-1977
kokybės	-1978
rinkoje	-1979
besivyst	-1980
pakeisti	-1981
sąjungai	-1982
diskusijas	-1983
priežasčių	-1984
stu	-1985
situ	-1986
šiol	-1987
ūkst	-1988
torin	-1989
supras	-1990
europai	-1991
aplinkyb	-1992
balsuoti	-1993
teritori	-1994
balsavimo	-1995
informacija	-1996
ine	-1997
ome	-1998
laiv	-1999
umui	-2000
vyko	-2001
skubi	-2002
spaud	-2003
kovoti	-2004
mechan	-2005
pinigų	-2006
laisvės	-2007
automobi	-2008
išspręsti	-2009
pasiūlymų	-2010
pastangas	-2011
rezultatų	-2012
finansavimo	-2013
mal	-2014
zmo	-2015
dujų	-2016
kitą	-2017
kliū	-2018
tikė	-2019
galvo	-2020
tinku	-2021
valdy	-2022
profes	-2023
skirtu	-2024
įmonės	-2025
apsauga	-2026
sutartį	-2027
šalimis	-2028
mechaniz	-2029
pasiūlymo	-2030
bir	-2031
grą	-2032
rau	-2033
trau	-2034
login	-2035
minti	-2036
persp	-2037
tojus	-2038
treči	-2039
galimybių	-2040
programos	-2041
strategija	-2042
strategiją	-2043
informaciją	-2044
ną	-2045
avo	-2046
būs	-2047
ems	-2048
zon	-2049
atos	-2050
glau	-2051
kšči	-2052
minė	-2053
ausią	-2054
kaimo	-2055
pirmą	-2056
sijos	-2057
tapti	-2058
iniams	-2059
parama	-2060
pasaky	-2061
gamybos	-2062
gracijos	-2063
protokolą	-2064
finansinės	-2065
demokratijos	-2066
zo	-2067
efek	-2068
plat	-2069
pobū	-2070
vali	-2071
muose	-2072
nauja	-2073
ukrai	-2074
ėjusi	-2075
▁¦20¦	-2076
beveik	-2077
dalies	-2078
europą	-2079
bendros	-2080
derybos	-2081
pasitik	-2082
įgalioj	-2083
frakcija	-2084
greičiau	-2085
supapras	-2086
užimtumo	-2087
dalyvauti	-2088
galimybės	-2089
taisykles	-2090
atsižvelgti	-2091
liz	-2092
kija	-2093
pietų	-2094
vidur	-2095
ystės	-2096
kaimyn	-2097
paskir	-2098
veikla	-2099
konflik	-2100
komisiją	-2101
ml	-2102
įg	-2103
gyn	-2104
įro	-2105
char	-2106
rašy	-2107
sako	-2108
tapo	-2109
balsu	-2110
lygin	-2111
ficial	-2112
humani	-2113
infras	-2114
kščion	-2115
norint	-2116
regionų	-2117
humanitar	-2118
krikščion	-2119
valstybes	-2120
reglamento	-2121
infrastrukt	-2122
abi	-2123
gus	-2124
kui	-2125
deda	-2126
ingi	-2127
jūrų	-2128
kite	-2129
prak	-2130
judėj	-2131
nuola	-2132
techn	-2133
tenka	-2134
tūkst	-2135
aujama	-2136
komuni	-2137
manome	-2138
žmones	-2139
oficial	-2140
vertinu	-2141
apsaugoti	-2142
palankiai	-2143
tap	-2144
ybą	-2145
amži	-2146
gran	-2147
imis	-2148
mlrd	-2149
portu	-2150
tomis	-2151
aktyvi	-2152
nariams	-2153
regionu	-2154
sąlygos	-2155
aiškinti	-2156
paskatin	-2157
pažangos	-2158
poziciją	-2159
sutartis	-2160
komitetas	-2161
naudojimo	-2162
struktūrin	-2163
įgyvendinimo	-2164
fu	-2165
ob	-2166
jui	-2167
ūrį	-2168
esnę	-2169
link	-2170
tams	-2171
vari	-2172
konsu	-2173
nesen	-2174
▁¦10¦	-2175
atitik	-2176
ypatin	-2177
▁¦000¦	-2178
požiūrį	-2179
regione	-2180
svarsto	-2181
konstitu	-2182
kultūros	-2183
pažeidži	-2184
politinių	-2185
pozicijos	-2186
susijusius	-2187
sal	-2188
umu	-2189
vas	-2190
apim	-2191
būdu	-2192
esnį	-2193
koki	-2194
pats	-2195
sčio	-2196
toms	-2197
aciją	-2198
imais	-2199
tikrą	-2200
veiki	-2201
vimas	-2202
baudži	-2203
nebūtų	-2204
verslo	-2205
kuriems	-2206
padidin	-2207
pasveik	-2208
tariant	-2209
žuvinin	-2210
globaliz	-2211
nuomonės	-2212
portugal	-2213
sudaryti	-2214
pranešėjas	-2215
vyriausybės	-2216
še	-2217
tyv	-2218
vež	-2219
giai	-2220
paci	-2221
saky	-2222
site	-2223
tuos	-2224
uoja	-2225
ėjus	-2226
kelti	-2227
neigi	-2228
praei	-2229
sąžin	-2230
žemio	-2231
milijo	-2232
veikia	-2233
kalbame	-2234
nepriim	-2235
pripažin	-2236
direktyvą	-2237
pagerinti	-2238
taisyklės	-2239
daugiausia	-2240
kiš	-2241
ryž	-2242
slo	-2243
jaun	-2244
ėjau	-2245
užkir	-2246
nurody	-2247
vengti	-2248
afrikos	-2249
nuomonę	-2250
konkreči	-2251
skaičius	-2252
visapusi	-2253
prieglobsčio	-2254
mių	-2255
puo	-2256
šir	-2257
eiti	-2258
esus	-2259
many	-2260
tumė	-2261
▁¦2¦	-2262
ančio	-2263
apgai	-2264
dviejų	-2265
kūrimo	-2266
raginu	-2267
didelis	-2268
vykdyti	-2269
atitinka	-2270
partijos	-2271
kompromis	-2272
solidarumo	-2273
pagrindinis	-2274
patvirtinti	-2275
avi	-2276
elg	-2277
ken	-2278
ūro	-2279
istų	-2280
mojo	-2281
žodži	-2282
numaty	-2283
preven	-2284
rijoje	-2285
siekia	-2286
sritis	-2287
ančioms	-2288
dalykas	-2289
pažangą	-2290
svarbūs	-2291
teikiama	-2292
demokratų	-2293
pavyzdžiui	-2294
priemonėmis	-2295
nacionalinių	-2296
reikalavimus	-2297
by	-2298
eid	-2299
paj	-2300
abie	-2301
nare	-2302
pažy	-2303
usių	-2304
aprib	-2305
atsin	-2306
laiką	-2307
pasek	-2308
prant	-2309
užduo	-2310
darbas	-2311
išsaug	-2312
sustab	-2313
trečia	-2314
cijomis	-2315
europie	-2316
sutinku	-2317
komitete	-2318
problemą	-2319
programą	-2320
diskusijų	-2321
jungtinių	-2322
nusikalti	-2323
az	-2324
jt	-2325
nl	-2326
rež	-2327
dary	-2328
aktus	-2329
aptar	-2330
ispan	-2331
kaita	-2332
padės	-2333
tinas	-2334
čiųjų	-2335
baigti	-2336
apsaugą	-2337
kalbėjo	-2338
mirties	-2339
rinkimų	-2340
sveikin	-2341
sąjungą	-2342
tvirtai	-2343
įvairių	-2344
konferen	-2345
neseniai	-2346
pareigas	-2347
gav	-2348
lap	-2349
pit	-2350
stą	-2351
vil	-2352
ijas	-2353
ingų	-2354
sias	-2355
draud	-2356
galio	-2357
galiu	-2358
kokia	-2359
koleg	-2360
prasi	-2361
audito	-2362
augimo	-2363
ausios	-2364
mėnesi	-2365
papraš	-2366
atliekų	-2367
išmetam	-2368
pranešė	-2369
skirtas	-2370
įmonėms	-2371
atsinauj	-2372
paaiškin	-2373
siekdami	-2374
tinkamas	-2375
partnerystės	-2376
žuvininkystės	-2377
jan	-2378
imės	-2379
pana	-2380
rija	-2381
šiek	-2382
balan	-2383
bulga	-2384
lanks	-2385
atnauj	-2386
dalykų	-2387
pasaul	-2388
pačios	-2389
žinoti	-2390
pusiaus	-2391
rusijos	-2392
daugelio	-2393
negalima	-2394
pernelyg	-2395
pasveikinti	-2396
eb	-2397
kt	-2398
lę	-2399
nį	-2400
vę	-2401
che	-2402
kiti	-2403
leis	-2404
pato	-2405
tojo	-2406
tokį	-2407
galės	-2408
mastu	-2409
nieko	-2410
tęsti	-2411
uojant	-2412
airijos	-2413
šiaurės	-2414
kontroli	-2415
įtvirtin	-2416
akivaizdu	-2417
teisingai	-2418
perspektyv	-2419
reikalingas	-2420
susirūpinimą	-2421
serb	-2422
tarš	-2423
štai	-2424
biuro	-2425
nares	-2426
tokio	-2427
asmenų	-2428
miršti	-2429
nenori	-2430
teisėk	-2431
aptarti	-2432
išlaidų	-2433
taikoma	-2434
▁¦2007¦	-2435
bendrosios	-2436
panaikinti	-2437
reguliavimo	-2438
my	-2439
▁).	-2440
dele	-2441
jant	-2442
tiko	-2443
vizų	-2444
apima	-2445
ausio	-2446
impor	-2447
kainų	-2448
muoti	-2449
skite	-2450
prakti	-2451
prašau	-2452
moterys	-2453
puikiai	-2454
galėsime	-2455
sąlygomis	-2456
veiksmingai	-2457
et	-2458
lp	-2459
če	-2460
rti	-2461
šką	-2462
niek	-2463
angli	-2464
centr	-2465
rytoj	-2466
sugeb	-2467
ženkl	-2468
intere	-2469
tavimo	-2470
teisin	-2471
tiškai	-2472
visoms	-2473
įvairo	-2474
žinias	-2475
kolegos	-2476
paremti	-2477
apgailes	-2478
suintere	-2479
veiksmus	-2480
stabilumo	-2481
vengrijos	-2482
iniciatyva	-2483
labiausiai	-2484
socialinių	-2485
viduržemio	-2486
organizacijos	-2487
ūp	-2488
gen	-2489
ško	-2490
bank	-2491
gele	-2492
gyvū	-2493
omen	-2494
pava	-2495
rytų	-2496
tema	-2497
virš	-2498
didėj	-2499
ginkl	-2500
inova	-2501
kapit	-2502
kvali	-2503
publi	-2504
refer	-2505
tokie	-2506
galiau	-2507
laikin	-2508
procesą	-2509
leiskite	-2510
pagaliau	-2511
priežastis	-2512
pripažinti	-2513
investicijų	-2514
gim	-2515
grįž	-2516
negu	-2517
užuo	-2518
jomis	-2519
momis	-2520
stato	-2521
tautų	-2522
vykdy	-2523
didelį	-2524
keturi	-2525
kuriai	-2526
vėliau	-2527
geležin	-2528
greitai	-2529
grindži	-2530
kalbama	-2531
projektą	-2532
sektorių	-2533
vartojimo	-2534
teisėkūros	-2535
elį	-2536
izra	-2537
liui	-2538
pabė	-2539
para	-2540
amasi	-2541
pašal	-2542
plėto	-2543
tikras	-2544
visose	-2545
derinti	-2546
paklaus	-2547
įveikti	-2548
amerikos	-2549
atvejais	-2550
interesų	-2551
požiūris	-2552
suprasti	-2553
teisinga	-2554
turkijos	-2555
reikalinga	-2556
reikalavimų	-2557
py	-2558
vį	-2559
alų	-2560
ilg	-2561
nės	-2562
tan	-2563
ąją	-2564
amės	-2565
civi	-2566
jaus	-2567
kryp	-2568
mane	-2569
moje	-2570
neri	-2571
tame	-2572
tose	-2573
▁¦3¦	-2574
fondų	-2575
subsi	-2576
sąraš	-2577
tikrų	-2578
uždav	-2579
grupės	-2580
kitais	-2581
tinėms	-2582
dėmesys	-2583
palaiko	-2584
suprant	-2585
išvengti	-2586
naudotis	-2587
respubli	-2588
socialin	-2589
taikomos	-2590
žvejybos	-2591
jungtinės	-2592
naudojimą	-2593
padarinių	-2594
pasiūlymus	-2595
pirmininka	-2596
apgailestau	-2597
atsakomybės	-2598
/20	-2599
ded	-2600
kor	-2601
pel	-2602
▁¦6	-2603
planą	-2604
rinka	-2605
sutel	-2606
tokiu	-2607
visai	-2608
istori	-2609
ketvir	-2610
rengti	-2611
didelių	-2612
savaitę	-2613
tikslai	-2614
▁¦2011¦	-2615
dešimtme	-2616
komunika	-2617
kultūrin	-2618
pastangų	-2619
patikrin	-2620
interneto	-2621
susiduria	-2622
veiksming	-2623
automobilių	-2624
laikotarpiu	-2625
prancūzijos	-2626
įsipareigojimų	-2627
amb	-2628
bri	-2629
▁¦7	-2630
▁¦8	-2631
mažu	-2632
noje	-2633
suvo	-2634
šved	-2635
žali	-2636
bandy	-2637
birže	-2638
gerin	-2639
iškas	-2640
kalba	-2641
kelei	-2642
netgi	-2643
pagar	-2644
sienų	-2645
kitose	-2646
tikimės	-2647
ateities	-2648
procesas	-2649
projekto	-2650
diskusija	-2651
neabejotinai	-2652
aukščiausiojo	-2653
mvį	-2654
sijų	-2655
spin	-2656
uoju	-2657
aiški	-2658
dieną	-2659
dienį	-2660
esmin	-2661
karal	-2662
kokyb	-2663
linin	-2664
tikiu	-2665
apskri	-2666
atvejų	-2667
didelę	-2668
išsami	-2669
nuošir	-2670
priein	-2671
skirta	-2672
taikos	-2673
balsavo	-2674
bendras	-2675
kurioms	-2676
pareigū	-2677
pavaduo	-2678
program	-2679
atsakyti	-2680
priemonė	-2681
programa	-2682
santykių	-2683
veiksmai	-2684
čiausiai	-2685
švietimo	-2686
laikotarp	-2687
politinės	-2688
prisijung	-2689
susijusios	-2690
aplinkosaug	-2691
supaprastin	-2692
drą	-2693
prar	-2694
punk	-2695
tele	-2696
bulin	-2697
cinės	-2698
nedel	-2699
reali	-2700
tikra	-2701
tikri	-2702
torių	-2703
šiose	-2704
baltar	-2705
kuriam	-2706
sakyti	-2707
sąlygų	-2708
antiems	-2709
pagalba	-2710
referend	-2711
siekdama	-2712
apskritai	-2713
liberaliz	-2714
rekomenda	-2715
pusiausvyr	-2716
standartus	-2717
ks	-2718
-20	-2719
apy	-2720
dve	-2721
ele	-2722
hag	-2723
ginč	-2724
nebe	-2725
cinių	-2726
imams	-2727
izrae	-2728
kokių	-2729
vykst	-2730
analiz	-2731
galėjo	-2732
mokykl	-2733
nuosav	-2734
pavyko	-2735
stipri	-2736
svarbų	-2737
neteisė	-2738
stebėti	-2739
vaidmuo	-2740
ilgalaik	-2741
naudinga	-2742
požiūrio	-2743
praėjusi	-2744
vieninte	-2745
atsakomyb	-2746
baltarusi	-2747
interesus	-2748
skaidrumo	-2749
žiniasklai	-2750
sprendžiant	-2751
institucijoms	-2752
ds	-2753
gy	-2754
nr	-2755
vą	-2756
naf	-2757
neį	-2758
čiu	-2759
giau	-2760
iška	-2761
ploj	-2762
ribo	-2763
ribų	-2764
šeng	-2765
ūras	-2766
pačių	-2767
siais	-2768
viską	-2769
vykti	-2770
pabėgė	-2771
pacien	-2772
sričių	-2773
versti	-2774
vienos	-2775
visoje	-2776
žinote	-2777
amžiaus	-2778
nustato	-2779
omenyje	-2780
vandens	-2781
birželio	-2782
pobūdžio	-2783
kriterijus	-2784
pritariame	-2785
socialistų	-2786
suinteresuo	-2787
ato	-2788
paš	-2789
vel	-2790
yst	-2791
ėjų	-2792
įsp	-2793
imti	-2794
koso	-2795
mirš	-2796
romų	-2797
roso	-2798
sank	-2799
atsar	-2800
avimu	-2801
geras	-2802
lyčių	-2803
steng	-2804
davimo	-2805
ketina	-2806
sakant	-2807
svarbą	-2808
tikslo	-2809
tingai	-2810
šiomis	-2811
leidžia	-2812
moteris	-2813
niekada	-2814
pavojus	-2815
teroriz	-2816
tiniais	-2817
žiūrėti	-2818
biudžetą	-2819
konsulta	-2820
paminėti	-2821
parodyti	-2822
patenkin	-2823
pagrindas	-2824
sėkmingai	-2825
tiesiogiai	-2826
įsitikinęs	-2827
vartotojams	-2828
pirmininkaujanči	-2829
kvo	-2830
oni	-2831
rug	-2832
kais	-2833
kumo	-2834
mokė	-2835
teig	-2836
tris	-2837
vimą	-2838
anori	-2839
būdas	-2840
dirba	-2841
intel	-2842
kopen	-2843
lėšos	-2844
pieno	-2845
tiesa	-2846
tojas	-2847
delega	-2848
dienos	-2849
kilmės	-2850
minėjo	-2851
nerimą	-2852
tarpus	-2853
torius	-2854
anglies	-2855
barroso	-2856
saugumą	-2857
tinėmis	-2858
šengeno	-2859
principų	-2860
išlaikyti	-2861
pasiektas	-2862
sprendimai	-2863
sustiprinti	-2864
tarpvalstyb	-2865
nacionalinės	-2866
įgyvendinant	-2867
konkurencijos	-2868
pt	-2869
laik	-2870
stoj	-2871
timą	-2872
tęsi	-2873
darbu	-2874
gyvyb	-2875
iniam	-2876
kiais	-2877
įstai	-2878
elemen	-2879
nepasi	-2880
pažymė	-2881
sausio	-2882
supran	-2883
teismo	-2884
termin	-2885
vakarų	-2886
apriboj	-2887
centrin	-2888
dialogą	-2889
garanti	-2890
reikšti	-2891
skaičių	-2892
tiekimo	-2893
tyrimus	-2894
išlaidas	-2895
numatyta	-2896
pagrindą	-2897
reikšmin	-2898
išteklius	-2899
įvertinti	-2900
globalizacijos	-2901
amu	-2902
ksi	-2903
sau	-2904
▁.)	-2905
didė	-2906
dieg	-2907
ektr	-2908
enos	-2909
mode	-2910
rang	-2911
čios	-2912
išgir	-2913
nario	-2914
patys	-2915
tradi	-2916
žinau	-2917
biurok	-2918
laisvę	-2919
komisar	-2920
efektyvi	-2921
gruodžio	-2922
gyvenimą	-2923
nepapras	-2924
plojimai	-2925
pritaria	-2926
graikijos	-2927
pakeitimų	-2928
panaudoti	-2929
prisidėti	-2930
sustiprin	-2931
lų	-2932
geo	-2933
nas	-2934
sep	-2935
koks	-2936
energ	-2937
esant	-2938
kiame	-2939
rumun	-2940
kelias	-2941
padary	-2942
tumėte	-2943
įsteig	-2944
daugelį	-2945
kartais	-2946
laikoma	-2947
plėtoti	-2948
trumpai	-2949
integruo	-2950
kopenhag	-2951
mokesčio	-2952
nusprend	-2953
pavyzdys	-2954
priminti	-2955
reaguoti	-2956
vadovauj	-2957
daugelyje	-2958
projektas	-2959
standartų	-2960
imigracijos	-2961
krikščionių	-2962
darbuotojams	-2963
svarbiausias	-2964
bendradarbiauti	-2965
pirmininkaujanti	-2966
▁%	-2967
ači	-2968
dio	-2969
eta	-2970
ren	-2971
uni	-2972
ačiū	-2973
galų	-2974
jose	-2975
juod	-2976
kredi	-2977
laivų	-2978
rinkų	-2979
tinei	-2980
tingų	-2981
trans	-2982
vesti	-2983
zonos	-2984
įpras	-2985
▁¦27¦	-2986
manymu	-2987
naikin	-2988
numato	-2989
tuomet	-2990
visame	-2991
prekyba	-2992
sistemų	-2993
siūloma	-2994
kompromi	-2995
padaryta	-2996
savanori	-2997
trečiųjų	-2998
užkirsti	-2999
straipsnio	-3000
užtikrinant	-3001
technologijų	-3002
egi	-3003
lib	-3004
mbu	-3005
oma	-3006
pli	-3007
ding	-3008
kent	-3009
malo	-3010
moms	-3011
taps	-3012
trūk	-3013
baigi	-3014
esnes	-3015
lengv	-3016
priek	-3017
sritį	-3018
valiu	-3019
versl	-3020
malonu	-3021
ančiais	-3022
didesnį	-3023
lyginti	-3024
pagrindu	-3025
pasaulin	-3026
ratifika	-3027
suteikta	-3028
konkrečių	-3029
pakeitimą	-3030
didžiausią	-3031
regionuose	-3032
susitarimų	-3033
rą	-3034
eks	-3035
gre	-3036
ina	-3037
ind	-3038
ėmė	-3039
ėsi	-3040
gana	-3041
graf	-3042
gruz	-3043
karo	-3044
maty	-3045
minu	-3046
niai	-3047
peln	-3048
spar	-3049
voje	-3050
žinių	-3051
daugyb	-3052
pageid	-3053
skirtų	-3054
sutari	-3055
sąskai	-3056
proceso	-3057
rizikos	-3058
skubiai	-3059
vykdant	-3060
elektron	-3061
pirmasis	-3062
priėmimo	-3063
suteikia	-3064
teisinės	-3065
balsavimą	-3066
ekonomika	-3067
paslaugas	-3068
atsakomybę	-3069
susitikime	-3070
priežasties	-3071
ac	-3072
sv	-3073
▁'	-3074
dekl	-3075
uotų	-3076
visu	-3077
ybai	-3078
▁¦14	-3079
aljan	-3080
direk	-3081
draus	-3082
komer	-3083
laiku	-3084
lygiu	-3085
timas	-3086
balsuo	-3087
dalimi	-3088
dedant	-3089
deklar	-3090
džioje	-3091
gyvena	-3092
iniame	-3093
jokios	-3094
keisti	-3095
kelion	-3096
kijoje	-3097
kokios	-3098
mokėti	-3099
plėtrą	-3100
reikės	-3101
teršal	-3102
▁¦2006¦	-3103
turėsime	-3104
kvalifika	-3105
naudojant	-3106
pasiūlyme	-3107
pateiktas	-3108
santykius	-3109
suderinti	-3110
pakeitimus	-3111
vokietijos	-3112
finansavimą	-3113
integracijos	-3114
įsipareigojimus	-3115
ari	-3116
lūk	-3117
žai	-3118
gerą	-3119
klei	-3120
lemi	-3121
rodi	-3122
▁¦5¦	-3123
kitus	-3124
poten	-3125
ptimi	-3126
stabi	-3127
taptų	-3128
tokią	-3129
kroati	-3130
atkreip	-3131
srities	-3132
teisėms	-3133
aspektus	-3134
atidžiai	-3135
duomenys	-3136
priimtas	-3137
rengiant	-3138
taikomas	-3139
įstatymų	-3140
žmonėmis	-3141
potencial	-3142
regioninės	-3143
susitikimo	-3144
konvencijos	-3145
aplinkybėmis	-3146
pastaruosius	-3147
kūr	-3148
tal	-3149
ambi	-3150
dies	-3151
išim	-3152
mėne	-3153
nenu	-3154
reak	-3155
silp	-3156
siun	-3157
smul	-3158
stos	-3159
▁¦4¦	-3160
diplo	-3161
kateg	-3162
kuoti	-3163
lėšas	-3164
minim	-3165
mėnes	-3166
patek	-3167
supra	-3168
šioms	-3169
ekolog	-3170
ektros	-3171
grąžin	-3172
kalbos	-3173
kokybę	-3174
kompen	-3175
medžia	-3176
pasakė	-3177
plėtra	-3178
tekste	-3179
turint	-3180
būtinas	-3181
didelės	-3182
istorin	-3183
mažinti	-3184
sunkumų	-3185
taikant	-3186
tinkama	-3187
elektros	-3188
išnagrin	-3189
kategori	-3190
kuriuose	-3191
principo	-3192
pranešimu	-3193
paaiškinti	-3194
reglamentą	-3195
pagrindinės	-3196
pareiškimai	-3197
susitarimus	-3198
lb	-3199
apr	-3200
eis	-3201
ner	-3202
enar	-3203
funk	-3204
išdė	-3205
kova	-3206
lygį	-3207
draug	-3208
esama	-3209
miškų	-3210
riboj	-3211
vieto	-3212
atliko	-3213
ausius	-3214
balkan	-3215
galios	-3216
kaltin	-3217
kistan	-3218
matome	-3219
niekas	-3220
nukent	-3221
plenar	-3222
šaliai	-3223
aplinką	-3224
bendrai	-3225
kinijos	-3226
laisvių	-3227
registr	-3228
suteiki	-3229
viešųjų	-3230
norėtume	-3231
posėdžio	-3232
agentūros	-3233
ekonominę	-3234
pareikšti	-3235
pranešėja	-3236
sektorius	-3237
socialinę	-3238
ekonomikai	-3239
neturėtume	-3240
reikalauja	-3241
rezultatus	-3242
technologijas	-3243
bž	-3244
lį	-3245
ppe	-3246
rus	-3247
ėse	-3248
aišk	-3249
bėra	-3250
gaun	-3251
gera	-3252
išpl	-3253
narė	-3254
tumą	-3255
šalį	-3256
bando	-3257
inėje	-3258
kijai	-3259
liams	-3260
masto	-3261
orien	-3262
reiki	-3263
reišk	-3264
sando	-3265
siant	-3266
čiais	-3267
▁¦50¦	-3268
augimą	-3269
esnius	-3270
leistų	-3271
naujus	-3272
nuosek	-3273
nuosta	-3274
perkėl	-3275
sulauk	-3276
tikisi	-3277
tikslą	-3278
uojama	-3279
vietas	-3280
žodžio	-3281
kasdien	-3282
pažanga	-3283
vokieti	-3284
dalyvauj	-3285
instituc	-3286
biudžetas	-3287
palaikyti	-3288
politikai	-3289
sektoriui	-3290
informuoti	-3291
nedelsiant	-3292
rezultatas	-3293
socialinio	-3294
diskusijose	-3295
iniciatyvos	-3296
tarptautinių	-3297
aplinkosaugos	-3298
pą	-3299
būd	-3300
kaž	-3301
ėte	-3302
/200	-3303
esti	-3304
ingo	-3305
skol	-3306
tali	-3307
tern	-3308
tine	-3309
tųsi	-3310
amumo	-3311
dažni	-3312
fikuo	-3313
garan	-3314
išpuo	-3315
kalbu	-3316
kiant	-3317
tuoja	-3318
vengi	-3319
ąsias	-3320
altern	-3321
atspin	-3322
bendrų	-3323
pajėgu	-3324
vaistų	-3325
šiuose	-3326
gerokai	-3327
kitomis	-3328
pakarto	-3329
sukurta	-3330
taikomi	-3331
vidurio	-3332
vietoje	-3333
įpareig	-3334
nagrinėj	-3335
pasiekta	-3336
nusikalst	-3337
nustatyta	-3338
policijos	-3339
procedūrą	-3340
atsinaujin	-3341
pakeitimas	-3342
patenkinti	-3343
persvarsty	-3344
prezidento	-3345
procedūros	-3346
susijusias	-3347
svarbiausių	-3348
vienintelis	-3349
paprasčiausiai	-3350
fe	-3351
50¦	-3352
ash	-3353
aso	-3354
baz	-3355
dem	-3356
ris	-3357
ska	-3358
afri	-3359
kilo	-3360
mąsi	-3361
žais	-3362
bankų	-3363
damie	-3364
leido	-3365
motin	-3366
pelno	-3367
užuot	-3368
ūroje	-3369
▁¦30¦	-3370
artimi	-3371
ateitį	-3372
aujame	-3373
kampan	-3374
laukia	-3375
mokyti	-3376
padėtų	-3377
susido	-3378
viskas	-3379
abipusi	-3380
atsitik	-3381
dialogo	-3382
tinkamą	-3383
mažinimo	-3384
mėnesius	-3385
pabaigos	-3386
pakistan	-3387
taryboje	-3388
teigiama	-3389
trečiosi	-3390
ekonomiką	-3391
finansinę	-3392
nuostatos	-3393
pasiūlyti	-3394
projektus	-3395
sutartyje	-3396
kiekvienos	-3397
pranešėjui	-3398
visuomenei	-3399
prioritetus	-3400
rezoliucija	-3401
akivaizdžiai	-3402
darbotvarkės	-3403
tarptautinio	-3404
gn	-3405
qu	-3406
egz	-3407
gri	-3408
her	-3409
išk	-3410
los	-3411
▁¦9	-3412
blog	-3413
japo	-3414
sesi	-3415
siai	-3416
uota	-3417
atein	-3418
brius	-3419
ceden	-3420
inėms	-3421
katas	-3422
labui	-3423
lygis	-3424
medži	-3425
relig	-3426
saugi	-3427
sukel	-3428
tegin	-3429
▁¦199	-3430
▁¦25¦	-3431
grantų	-3432
lapkri	-3433
liepos	-3434
pasteb	-3435
sienos	-3436
skaiči	-3437
svarst	-3438
taršos	-3439
trukus	-3440
įtakos	-3441
šeimos	-3442
damiesi	-3443
gyventi	-3444
kitiems	-3445
kūrimas	-3446
palaiky	-3447
plataus	-3448
suteiks	-3449
abejonių	-3450
pozicija	-3451
preceden	-3452
saugumas	-3453
skiriama	-3454
sveikinu	-3455
tikslais	-3456
bendrovių	-3457
naudingas	-3458
nuostatas	-3459
paprašyti	-3460
politinio	-3461
sutartimi	-3462
ekonominių	-3463
pabrėžiama	-3464
pasiūlymai	-3465
veiksmingą	-3466
apsvarstyti	-3467
gyventojams	-3468
atsižvelgiama	-3469
geg	-3470
ims	-3471
sch	-3472
įdo	-3473
dyje	-3474
goje	-3475
koms	-3476
lank	-3477
liko	-3478
misi	-3479
nele	-3480
ombu	-3481
suoj	-3482
vyrų	-3483
ėjai	-3484
žiau	-3485
▁¦6¦	-3486
aktai	-3487
dsmen	-3488
geguž	-3489
gomis	-3490
kriti	-3491
mybės	-3492
reikį	-3493
slova	-3494
stymo	-3495
sukči	-3496
tvari	-3497
vertę	-3498
šiems	-3499
avimui	-3500
gyvūnų	-3501
naftos	-3502
priekį	-3503
rimtai	-3504
aukštos	-3505
poreikį	-3506
prievar	-3507
▁¦2013¦	-3508
abejonės	-3509
duomenis	-3510
italijos	-3511
liaudies	-3512
medžiagų	-3513
ministrų	-3514
netrukus	-3515
nuomonei	-3516
reformas	-3517
skiriasi	-3518
susiduri	-3519
tarnybos	-3520
transpor	-3521
užduotis	-3522
lapkričio	-3523
ombudsmen	-3524
įsigalioj	-3525
įtrauktas	-3526
atsisakyti	-3527
patvirtino	-3528
straipsnis	-3529
vartotojai	-3530
laikotarpio	-3531
nuoširdžiai	-3532
reikalaujama	-3533
cs	-3534
aty	-3535
noz	-3536
žlu	-3537
aktu	-3538
egip	-3539
eurų	-3540
gais	-3541
gani	-3542
gelb	-3543
real	-3544
sprę	-3545
aktyv	-3546
amojo	-3547
dvigu	-3548
išaug	-3549
jokio	-3550
savar	-3551
siūly	-3552
sunki	-3553
įvyko	-3554
abiejų	-3555
galite	-3556
kinija	-3557
minist	-3558
narius	-3559
pajamų	-3560
prieig	-3561
smurto	-3562
vaikai	-3563
aisiais	-3564
tiniame	-3565
aplinkai	-3566
atstovai	-3567
galimybe	-3568
griežtai	-3569
kovojant	-3570
palaikau	-3571
reformos	-3572
įvykdymo	-3573
ataskaitą	-3574
diskutuoj	-3575
kiekvieną	-3576
poreikius	-3577
pradžioje	-3578
teigiamai	-3579
parlamentą	-3580
rezultatai	-3581
institucija	-3582
nepriimtina	-3583
organizacijų	-3584
tarptautiniu	-3585
infrastruktūros	-3586
ur	-3587
jun	-3588
-201	-3589
belg	-3590
dytų	-3591
inei	-3592
pikt	-3593
pirk	-3594
rūmų	-3595
sėjo	-3596
viau	-3597
įtik	-3598
dinti	-3599
kaden	-3600
moder	-3601
pasak	-3602
perži	-3603
rūmai	-3604
stras	-3605
susie	-3606
tiesą	-3607
trijų	-3608
įrody	-3609
dalyje	-3610
džiaug	-3611
ekspor	-3612
grupių	-3613
inimas	-3614
ininkų	-3615
kolegų	-3616
kreipi	-3617
lengva	-3618
mėnesį	-3619
parodė	-3620
pavojų	-3621
prasme	-3622
rusija	-3623
stengi	-3624
tiniam	-3625
tojais	-3626
amosios	-3627
atlygin	-3628
gegužės	-3629
kuriant	-3630
lygybės	-3631
pasiraš	-3632
pavadin	-3633
pensijų	-3634
pokyčių	-3635
savaran	-3636
skatina	-3637
didesnio	-3638
draudimo	-3639
ganistan	-3640
keleivių	-3641
ketvirta	-3642
neturime	-3643
pateikta	-3644
programų	-3645
tvarkyti	-3646
bendrovės	-3647
išsaugoti	-3648
laikomasi	-3649
palyginti	-3650
pasiūlymu	-3651
principas	-3652
programas	-3653
strategin	-3654
sveikatai	-3655
tiesiogin	-3656
kiekvienas	-3657
parlamentu	-3658
pranešimui	-3659
reikalauti	-3660
susitikimą	-3661
sustabdyti	-3662
darbotvarkę	-3663
darbuotojai	-3664
susitikimas	-3665
pagrindiniai	-3666
žiniasklaidos	-3667
ale	-3668
cep	-3669
ton	-3670
tęs	-3671
vys	-3672
šeš	-3673
akto	-3674
pral	-3675
viai	-3676
ūrai	-3677
ančia	-3678
demon	-3679
gener	-3680
išmok	-3681
kartų	-3682
nauji	-3683
nesėk	-3684
pagam	-3685
sukėl	-3686
įtrau	-3687
▁¦12¦	-3688
didėja	-3689
kandid	-3690
mokymo	-3691
paketo	-3692
pastat	-3693
prekių	-3694
skurdo	-3695
statis	-3696
sėkmės	-3697
tarybą	-3698
tokias	-3699
viduje	-3700
visais	-3701
zonoje	-3702
žengti	-3703
aspektų	-3704
didelio	-3705
diploma	-3706
medžiag	-3707
palikti	-3708
piktnau	-3709
rugsėjo	-3710
tiniams	-3711
aspektas	-3712
elektrin	-3713
kontrolę	-3714
numatyti	-3715
posėdyje	-3716
raginama	-3717
speciali	-3718
svarbios	-3719
vertinti	-3720
išreikšti	-3721
pabėgėlių	-3722
procedūrų	-3723
afganistan	-3724
pasiūlymui	-3725
vyriausybių	-3726
ata	-3727
dūr	-3728
ide	-3729
ker	-3730
mil	-3731
sak	-3732
▁..	-3733
argu	-3734
ario	-3735
arti	-3736
fron	-3737
kėme	-3738
nami	-3739
rimo	-3740
trof	-3741
tųjų	-3742
vado	-3743
vais	-3744
atidė	-3745
forma	-3746
muisi	-3747
nepak	-3748
pridė	-3749
proga	-3750
rūpes	-3751
speci	-3752
sutik	-3753
aptari	-3754
atsira	-3755
britan	-3756
briuse	-3757
fondas	-3758
lestin	-3759
mažumų	-3760
skurdu	-3761
status	-3762
stebės	-3763
sąlyga	-3764
tokius	-3765
aljanso	-3766
argumen	-3767
dalykai	-3768
nemanau	-3769
pradėjo	-3770
praėjus	-3771
prekybą	-3772
skirtos	-3773
teršalų	-3774
▁¦2012¦	-3775
biologin	-3776
derybose	-3777
izraelio	-3778
karalyst	-3779
nuostatų	-3780
suprantu	-3781
inovacijų	-3782
leidžiama	-3783
nutraukti	-3784
paklausti	-3785
socialinį	-3786
vertinimo	-3787
bulgarijos	-3788
dabartinės	-3789
duomenimis	-3790
ekonominio	-3791
finansuoti	-3792
piktnaudži	-3793
procedūras	-3794
ataskaitoje	-3795
susitarimai	-3796
prieštarauja	-3797
įgyvendinimas	-3798
abu	-3799
des	-3800
gaz	-3801
kny	-3802
mor	-3803
niu	-3804
sko	-3805
auju	-3806
bžūp	-3807
davo	-3808
grąž	-3809
kuli	-3810
make	-3811
prog	-3812
sual	-3813
tasi	-3814
vald	-3815
vėje	-3816
amųjų	-3817
antai	-3818
antro	-3819
banko	-3820
dalij	-3821
egzis	-3822
imasi	-3823
kelio	-3824
kiekį	-3825
liais	-3826
parem	-3827
sakau	-3828
tiški	-3829
valdo	-3830
ėjimų	-3831
▁¦11¦	-3832
▁¦15¦	-3833
daugia	-3834
griežt	-3835
imuose	-3836
kainos	-3837
likusi	-3838
padeda	-3839
paskol	-3840
plėtoj	-3841
propag	-3842
protin	-3843
skirtą	-3844
uojami	-3845
įgalio	-3846
bulinti	-3847
jaunimo	-3848
laisvai	-3849
negaliu	-3850
nukreip	-3851
procese	-3852
reformų	-3853
strasbū	-3854
turkija	-3855
vykdoma	-3856
bendrąją	-3857
dabartin	-3858
kryptimi	-3859
lenkijos	-3860
pamiršti	-3861
pareikal	-3862
priimant	-3863
rinkimus	-3864
užbaigti	-3865
švedijos	-3866
dokumentų	-3867
katastrof	-3868
pavyzdžių	-3869
pranešėjo	-3870
principus	-3871
procedūra	-3872
terorizmu	-3873
iniciatyvą	-3874
pakeitimai	-3875
pasaulinės	-3876
prioritetų	-3877
nepaprastai	-3878
pusiausvyrą	-3879
prisitaikymo	-3880
visapusiškai	-3881
ec	-3882
ol	-3883
th	-3884
išką	-3885
kong	-3886
nesą	-3887
suma	-3888
sąvo	-3889
ėsti	-3890
dalių	-3891
iškel	-3892
kokie	-3893
namio	-3894
panaš	-3895
septy	-3896
uotas	-3897
vienu	-3898
ashton	-3899
asmens	-3900
buvusi	-3901
išrink	-3902
kitoms	-3903
makedo	-3904
pasmer	-3905
tarnyb	-3906
apmokes	-3907
atstovų	-3908
gaminių	-3909
general	-3910
gynybos	-3911
mėnesių	-3912
nuosekl	-3913
panaudo	-3914
pareiga	-3915
patiria	-3916
pavyzdį	-3917
priimta	-3918
spekuli	-3919
susitar	-3920
svarbos	-3921
teismas	-3922
turizmo	-3923
visomis	-3924
įvykiai	-3925
agentūrų	-3926
biurokra	-3927
eksporto	-3928
priemonę	-3929
dalyvauja	-3930
neįmanoma	-3931
mokslinius	-3932
nuosavybės	-3933
veiksmingu	-3934
šiandienos	-3935
tikriausiai	-3936
reglamentuoj	-3937
pastaraisiais	-3938
-0	-3939
vp	-3940
art	-3941
dan	-3942
išo	-3943
kta	-3944
neš	-3945
sia	-3946
autų	-3947
avio	-3948
gavo	-3949
išti	-3950
judu	-3951
koru	-3952
pama	-3953
paty	-3954
peti	-3955
toja	-3956
toją	-3957
toli	-3958
įved	-3959
škas	-3960
asoci	-3961
inimą	-3962
išsky	-3963
lanki	-3964
objek	-3965
pačiu	-3966
pusės	-3967
remia	-3968
stebė	-3969
struk	-3970
tumas	-3971
valan	-3972
vyksi	-3973
entams	-3974
paketą	-3975
pranaš	-3976
procen	-3977
spalio	-3978
tinimo	-3979
turtin	-3980
vairuo	-3981
atlieka	-3982
balsuoj	-3983
bendrov	-3984
geograf	-3985
gracija	-3986
keletas	-3987
minėjau	-3988
rinkose	-3989
savaime	-3990
uždraus	-3991
vasario	-3992
kolegoms	-3993
moterims	-3994
pacientų	-3995
palestin	-3996
pastabas	-3997
principą	-3998
siekiame	-3999
skaičiau	-4000
sparčiai	-4001
sutelkti	-4002
šaltinių	-4003
atstovauj	-4004
aviacijos	-4005
finansuoj	-4006
ispanijos	-4007
patirties	-4008
patobulin	-4009
pranešimų	-4010
pripažįst	-4011
santykiai	-4012
sudėtinga	-4013
teritorin	-4014
laikotarpį	-4015
migracijos	-4016
naudojamos	-4017
priešingai	-4018
reglamentas	-4019
branduolinės	-4020
pasitikėjimą	-4021
struktūrinių	-4022
įgyvendinimą	-4023
atsižvelgdama	-4024
įsipareigojimą	-4025
ig	-4026
bur	-4027
dri	-4028
dėk	-4029
fiz	-4030
gna	-4031
kyl	-4032
liū	-4033
mei	-4034
ram	-4035
įgū	-4036
šku	-4037
iran	-4038
iųjų	-4039
jama	-4040
lams	-4041
mybę	-4042
rauk	-4043
srau	-4044
tavo	-4045
teks	-4046
vėse	-4047
▁¦8¦	-4048
ameri	-4049
dienų	-4050
ilgai	-4051
keiči	-4052
koman	-4053
komen	-4054
osime	-4055
palik	-4056
puikų	-4057
saugo	-4058
įtaką	-4059
amiems	-4060
atosto	-4061
atskai	-4062
fronte	-4063
grėsmę	-4064
kolega	-4065
maistu	-4066
mokslo	-4067
norėtų	-4068
planas	-4069
sukeli	-4070
apsaugo	-4071
baigtos	-4072
daugybę	-4073
gerovės	-4074
inantis	-4075
kliūčių	-4076
logijos	-4077
moderni	-4078
pagarba	-4079
plėtrai	-4080
rūpinti	-4081
saugoti	-4082
subsidi	-4083
žingsnį	-4084
išlaidos	-4085
iššūkius	-4086
pažymėti	-4087
politinį	-4088
pramonei	-4089
sistemas	-4090
stengtis	-4091
svarbius	-4092
valstijų	-4093
kiekviena	-4094
pakeitimo	-4095
pasirengę	-4096
priežiūrą	-4097
rumunijos	-4098
valstybei	-4099
didžiausia	-4100
investuoti	-4101
konkrečiai	-4102
kopenhagos	-4103
nustatytas	-4104
standartai	-4105
tarpusavio	-4106
valstybėje	-4107
demokratiją	-4108
respublikos	-4109
demokratinės	-4110
geležinkelių	-4111
nacionaliniu	-4112
apgailestauju	-4113
bė	-4114
ii	-4115
atą	-4116
bra	-4117
ijo	-4118
ira	-4119
las	-4120
lav	-4121
mol	-4122
myg	-4123
sim	-4124
son	-4125
tem	-4126
tiz	-4127
džiu	-4128
džią	-4129
fici	-4130
inta	-4131
korė	-4132
krov	-4133
lyde	-4134
moji	-4135
mųjų	-4136
skun	-4137
tend	-4138
tens	-4139
tiną	-4140
įsta	-4141
atlan	-4142
buvau	-4143
eismo	-4144
kelis	-4145
keliu	-4146
kiams	-4147
kovai	-4148
laips	-4149
masis	-4150
mėgin	-4151
pasie	-4152
perse	-4153
ryšių	-4154
slovė	-4155
vieta	-4156
▁¦40¦	-4157
aiškus	-4158
daroma	-4159
eksper	-4160
ektams	-4161
faktas	-4162
intens	-4163
inėmis	-4164
išanks	-4165
kosovo	-4166
surink	-4167
tekstą	-4168
tenden	-4169
tinklo	-4170
tyrimą	-4171
ančiose	-4172
frontex	-4173
inančių	-4174
ininkai	-4175
kliūtis	-4176
naudoja	-4177
partija	-4178
pasitel	-4179
pažangi	-4180
pažinti	-4181
pinigus	-4182
pradžių	-4183
rūmuose	-4184
statyti	-4185
stojimo	-4186
svarbių	-4187
tikėtis	-4188
būtinybę	-4189
daugeliu	-4190
nereikia	-4191
nurodyta	-4192
pagarbos	-4193
pokyčius	-4194
vienodai	-4195
ypatingą	-4196
baigdamas	-4197
glaudžiai	-4198
juodosios	-4199
nustatant	-4200
pastangos	-4201
patirtimi	-4202
pašalinti	-4203
priežiūra	-4204
subsidiar	-4205
susitarti	-4206
vertinimą	-4207
asmeniškai	-4208
partneryst	-4209
užtikrinta	-4210
ūkininkams	-4211
gamintojams	-4212
iniciatyvas	-4213
kaimynystės	-4214
prevencijos	-4215
portugalijos	-4216
rezoliucijoje	-4217
atsižvelgdamas	-4218
hi	-4219
lą	-4220
cos	-4221
etn	-4222
har	-4223
rek	-4224
žod	-4225
doje	-4226
gyvu	-4227
iems	-4228
iškų	-4229
kioj	-4230
kiui	-4231
land	-4232
nija	-4233
paža	-4234
smar	-4235
įspū	-4236
▁...	-4237
alios	-4238
antrą	-4239
atėjo	-4240
augin	-4241
geros	-4242
ingus	-4243
jėgos	-4244
kliai	-4245
lūkes	-4246
pavel	-4247
rūšių	-4248
suver	-4249
taupy	-4250
teisi	-4251
toler	-4252
uotos	-4253
žalos	-4254
žinia	-4255
▁¦13¦	-4256
charti	-4257
parduo	-4258
perein	-4259
specif	-4260
subsid	-4261
tebėra	-4262
tyvoje	-4263
vaikus	-4264
atkurti	-4265
balkanų	-4266
maždaug	-4267
nemažai	-4268
nesugeb	-4269
norėjau	-4270
pasikei	-4271
patenka	-4272
protoko	-4273
seksual	-4274
sutinka	-4275
suveren	-4276
tacijos	-4277
vaikams	-4278
aktyviai	-4279
konstruk	-4280
naujovių	-4281
padėtyje	-4282
principu	-4283
pristaty	-4284
teigiamą	-4285
tikslams	-4286
ukrainos	-4287
vaidmens	-4288
įtraukta	-4289
apibrėžti	-4290
atsakymas	-4291
paraginti	-4292
parengtas	-4293
partnerių	-4294
pažeidimų	-4295
pradedant	-4296
principai	-4297
vienintel	-4298
visuomenę	-4299
diskutuoti	-4300
skaidrumas	-4301
pagrindines	-4302
baltarusijos	-4303
konkurencija	-4304
pagrindinius	-4305
rn	-4306
rų	-4307
įž	-4308
ža	-4309
dek	-4310
jar	-4311
mul	-4312
ybe	-4313
ybė	-4314
šil	-4315
anka	-4316
drąs	-4317
gerų	-4318
gnav	-4319
išei	-4320
kovą	-4321
kuoj	-4322
kuro	-4323
loje	-4324
neat	-4325
patį	-4326
pyti	-4327
sign	-4328
smer	-4329
vies	-4330
ženg	-4331
žurn	-4332
abiem	-4333
ausiu	-4334
brazi	-4335
dirbo	-4336
dviem	-4337
dymas	-4338
gaila	-4339
intas	-4340
kelbi	-4341
kingi	-4342
kokią	-4343
korup	-4344
penke	-4345
puiki	-4346
rijai	-4347
rinko	-4348
steig	-4349
sąnau	-4350
vysči	-4351
ėjimu	-4352
ėjome	-4353
įrang	-4354
elgtis	-4355
erdvės	-4356
išorin	-4357
milžin	-4358
nariui	-4359
nurodo	-4360
primyg	-4361
propor	-4362
rinkas	-4363
studen	-4364
sąrašą	-4365
tikslu	-4366
įvesti	-4367
▁¦100¦	-4368
asignav	-4369
asmenys	-4370
bausmės	-4371
misijos	-4372
priimtų	-4373
remdama	-4374
teikimo	-4375
teisinę	-4376
trūksta	-4377
valdyti	-4378
▁¦2005¦	-4379
ančiomis	-4380
atsisaky	-4381
didesnis	-4382
frakcijų	-4383
kreiptis	-4384
lengviau	-4385
nurodyti	-4386
nuveikti	-4387
partneri	-4388
projektų	-4389
sandorių	-4390
saugumui	-4391
skaitmen	-4392
spaudimą	-4393
stabiliz	-4394
teisėmis	-4395
tiksliai	-4396
valiutos	-4397
valstybę	-4398
visuomet	-4399
ataskaita	-4400
balandžio	-4401
pagrįstas	-4402
persekioj	-4403
politinis	-4404
pranešėją	-4405
prisiimti	-4406
uždrausti	-4407
įvairovės	-4408
finansinio	-4409
kompromisą	-4410
naudojimas	-4411
paskatinti	-4412
pranešėjai	-4413
vystymuisi	-4414
pirmininkui	-4415
problemomis	-4416
tarptautinę	-4417
užtikrintas	-4418
valstybėmis	-4419
finansavimas	-4420
konkurencingumo	-4421
bvp	-4422
rėm	-4423
elge	-4424
ilgi	-4425
indė	-4426
irgi	-4427
namų	-4428
pusę	-4429
radi	-4430
ruoš	-4431
trys	-4432
veln	-4433
šilt	-4434
aprūp	-4435
atmes	-4436
esate	-4437
kalbų	-4438
krizė	-4439
plano	-4440
profe	-4441
verta	-4442
verti	-4443
▁¦14¦	-4444
amieji	-4445
atsako	-4446
diegti	-4447
gamyba	-4448
imtasi	-4449
klausy	-4450
kūrimą	-4451
mintis	-4452
osioms	-4453
pasien	-4454
paspar	-4455
protek	-4456
protes	-4457
sujung	-4458
tvarka	-4459
žaliav	-4460
fikuoti	-4461
leidimo	-4462
pinigai	-4463
pirmąjį	-4464
politin	-4465
prašymą	-4466
tinkamo	-4467
viešojo	-4468
vykdymo	-4469
atskirai	-4470
baltijos	-4471
kolektyv	-4472
nelaimių	-4473
nepakank	-4474
pagrįsta	-4475
poveikis	-4476
serbijos	-4477
smarkiai	-4478
surengti	-4479
susisiek	-4480
sutarčių	-4481
sužinoti	-4482
tokiomis	-4483
vertybes	-4484
vertybių	-4485
dokumentą	-4486
garantijų	-4487
išsivysči	-4488
lankstumo	-4489
naudojami	-4490
nepalanki	-4491
pabaigoje	-4492
paprastai	-4493
piliečius	-4494
verslinin	-4495
įpareigoj	-4496
alternatyv	-4497
efektyvumą	-4498
nustatytos	-4499
priemonėms	-4500
principais	-4501
pritaikyti	-4502
programoje	-4503
tūkstančių	-4504
užmokesčio	-4505
veiksminga	-4506
kompromisas	-4507
patvirtinta	-4508
pranešėjams	-4509
primygtinai	-4510
įgaliojimus	-4511
konkurenciją	-4512
kontroliuoti	-4513
koordinavimo	-4514
nusikaltimus	-4515
patvirtinimo	-4516
humanitarinės	-4517
kompetencijos	-4518
vadovaujantis	-4519
kr	-4520
ug	-4521
ul	-4522
ben	-4523
bes	-4524
cho	-4525
fis	-4526
gue	-4527
jer	-4528
lon	-4529
nui	-4530
sar	-4531
ąjį	-4532
ūkį	-4533
alde	-4534
alis	-4535
dari	-4536
ekst	-4537
ieji	-4538
inys	-4539
kina	-4540
klos	-4541
kokį	-4542
kosi	-4543
liks	-4544
nams	-4545
savi	-4546
tabi	-4547
žlug	-4548
žuvų	-4549
žymi	-4550
durti	-4551
esniu	-4552
kotik	-4553
uostų	-4554
ėjams	-4555
šveln	-4556
amasis	-4557
grįžti	-4558
išveng	-4559
paminė	-4560
patiri	-4561
ragina	-4562
sureng	-4563
tikros	-4564
užmojo	-4565
vertės	-4566
atsklei	-4567
atvejus	-4568
brazili	-4569
didesnę	-4570
draudži	-4571
galioja	-4572
jektams	-4573
nesąžin	-4574
procesu	-4575
prognoz	-4576
subalan	-4577
teisinį	-4578
turinči	-4579
vadovau	-4580
agentūra	-4581
atitiktų	-4582
išgirsti	-4583
išskyrus	-4584
kapitalo	-4585
pagrindų	-4586
perduoti	-4587
raštiški	-4588
reitingų	-4589
turinčių	-4590
įvykdyti	-4591
ūkininkų	-4592
balsavome	-4593
diskusiją	-4594
nustatytų	-4595
papildomą	-4596
prisidėjo	-4597
priversti	-4598
produktai	-4599
produktus	-4600
skaičiaus	-4601
skirtumus	-4602
šiltnamio	-4603
branduolin	-4604
padarinius	-4605
prancūzija	-4606
vyriausybę	-4607
demokratija	-4608
didžiausias	-4609
prezidentas	-4610
visuomenėje	-4611
institucijas	-4612
perspektyvos	-4613
strategijoje	-4614
subsidiarumo	-4615
nacionalinius	-4616
fo	-4617
kū	-4618
vų	-4619
ze	-4620
deg	-4621
ged	-4622
lig	-4623
pot	-4624
ryš	-4625
sas	-4626
ška	-4627
dang	-4628
išku	-4629
jome	-4630
kiją	-4631
liek	-4632
nato	-4633
sakė	-4634
teko	-4635
ūkis	-4636
žalą	-4637
▁¦11	-4638
▁¦7¦	-4639
aiškų	-4640
būdin	-4641
darbų	-4642
džius	-4643
galių	-4644
ieško	-4645
islam	-4646
jumis	-4647
kalbą	-4648
kokiu	-4649
lietu	-4650
penki	-4651
plane	-4652
potvy	-4653
ryšio	-4654
sekre	-4655
simbo	-4656
statu	-4657
sąmon	-4658
▁¦17¦	-4659
-2013¦	-4660
aukšto	-4661
bendri	-4662
dedama	-4663
kartos	-4664
kiekio	-4665
kokias	-4666
manyti	-4667
pasiūl	-4668
pirmen	-4669
pirmyn	-4670
reklam	-4671
režimo	-4672
skaity	-4673
tosios	-4674
tvarką	-4675
univer	-4676
▁¦500¦	-4677
atsiran	-4678
atskirų	-4679
atvirai	-4680
baigtas	-4681
kredito	-4682
kreipti	-4683
patekti	-4684
pirmojo	-4685
prisidė	-4686
tekstas	-4687
tikslui	-4688
valdymą	-4689
veikimo	-4690
airijoje	-4691
atkūrimo	-4692
dalyvavo	-4693
grąžinti	-4694
investuo	-4695
laukiame	-4696
narkotik	-4697
pasaulis	-4698
patikimu	-4699
pradžios	-4700
statybos	-4701
dirbančių	-4702
italijoje	-4703
neišvengi	-4704
nepakanka	-4705
papildomų	-4706
skaidrumą	-4707
skiriamas	-4708
skirtingų	-4709
susijusią	-4710
terorizmo	-4711
vertiname	-4712
įtrauktos	-4713
atitinkamų	-4714
gyvybiškai	-4715
pasirinkti	-4716
praktiškai	-4717
struktūros	-4718
universite	-4719
administrac	-4720
aukščiausio	-4721
darbuotojus	-4722
susiduriame	-4723
teritorijoje	-4724
rekomendacijas	-4725
ca	-4726
pų	-4727
sl	-4728
žū	-4729
bro	-4730
dre	-4731
hai	-4732
nat	-4733
alus	-4734
dera	-4735
elgi	-4736
esnė	-4737
garb	-4738
ingu	-4739
kari	-4740
mali	-4741
medi	-4742
nius	-4743
ryši	-4744
siau	-4745
skry	-4746
tiką	-4747
škos	-4748
▁¦0,	-4749
▁¦10	-4750
▁¦13	-4751
▁¦9¦	-4752
amais	-4753
amumą	-4754
amąją	-4755
asmuo	-4756
idėja	-4757
imosi	-4758
iškos	-4759
makro	-4760
mečio	-4761
našta	-4762
naštą	-4763
nyder	-4764
pager	-4765
paken	-4766
popie	-4767
ribos	-4768
situa	-4769
tojui	-4770
vieni	-4771
vijos	-4772
azijos	-4773
defici	-4774
efektą	-4775
išsprę	-4776
kenčia	-4777
kinimo	-4778
kiškai	-4779
matėme	-4780
nuosto	-4781
pasiro	-4782
patvir	-4783
rinkai	-4784
tinklų	-4785
turite	-4786
tvirtą	-4787
verčia	-4788
išdėsty	-4789
milijar	-4790
nepagrį	-4791
pereiti	-4792
plačiai	-4793
spaudos	-4794
taupyti	-4795
tavimas	-4796
tobulin	-4797
vizijos	-4798
čekijos	-4799
antrasis	-4800
apibūdin	-4801
asmenims	-4802
didesnės	-4803
judėjimo	-4804
kandidat	-4805
numatoma	-4806
pasakyta	-4807
pasirašy	-4808
pateiktą	-4809
pateiktų	-4810
peticijų	-4811
praktika	-4812
įstatymo	-4813
atsakinga	-4814
civilinės	-4815
dabartinę	-4816
daugeliui	-4817
geriausia	-4818
kriterijų	-4819
ministras	-4820
nuspręsti	-4821
paskelbti	-4822
religijos	-4823
ryžtingai	-4824
situacija	-4825
vystymąsi	-4826
atsakingas	-4827
egzistuoja	-4828
iniciatyvų	-4829
išmetamųjų	-4830
laisvosios	-4831
mažiausiai	-4832
pilietinės	-4833
reikalingi	-4834
solidarumą	-4835
suteikiama	-4836
tarptautin	-4837
užtikrintų	-4838
vertinimas	-4839
vyriausybė	-4840
atitinkamai	-4841
panaikinimo	-4842
paslaugomis	-4843
pažeidžiami	-4844
reikalingos	-4845
užtikrinimo	-4846
reikalavimai	-4847
reikalavimas	-4848
ck	-4849
mb	-4850
tv	-4851
ša	-4852
ena	-4853
far	-4854
mit	-4855
ukš	-4856
dymą	-4857
gaiv	-4858
lgti	-4859
mono	-4860
nyje	-4861
spra	-4862
sunk	-4863
šešė	-4864
amblė	-4865
amoji	-4866
ančiu	-4867
dytas	-4868
džiau	-4869
fondą	-4870
ignor	-4871
indėl	-4872
irano	-4873
kodek	-4874
ksido	-4875
londo	-4876
mijos	-4877
nuoro	-4878
pašar	-4879
spręs	-4880
teise	-4881
tunis	-4882
vietą	-4883
visam	-4884
ančiai	-4885
daliai	-4886
išskir	-4887
judėti	-4888
kiamas	-4889
laipsn	-4890
miestų	-4891
minėta	-4892
naujai	-4893
pajėgų	-4894
pirmas	-4895
puikus	-4896
skolin	-4897
teksto	-4898
valdys	-4899
žodžiu	-4900
ančiame	-4901
aspektą	-4902
atliktą	-4903
davimas	-4904
iniuose	-4905
intelek	-4906
išlikti	-4907
kreditų	-4908
laikosi	-4909
pagerin	-4910
palengv	-4911
pradžia	-4912
profesi	-4913
sunkiai	-4914
taisyti	-4915
traukti	-4916
žurnali	-4917
afrikoje	-4918
didžioji	-4919
gruzijos	-4920
ketiname	-4921
komisare	-4922
nyderlan	-4923
pasienio	-4924
politinę	-4925
sesijoje	-4926
sudarymo	-4927
žodžiais	-4928
faktiškai	-4929
internetu	-4930
komitetui	-4931
kontekste	-4932
operacijų	-4933
praėjusią	-4934
vidutinės	-4935
britanijos	-4936
briuselyje	-4937
dokumentas	-4938
efektyvumo	-4939
nepamiršti	-4940
opozicijos	-4941
pareiškimą	-4942
patvirtina	-4943
pripažįsta	-4944
protekcion	-4945
subalansuo	-4946
suprantama	-4947
valstybnar	-4948
vertybėmis	-4949
įgaliojimų	-4950
įsipareigo	-4951
prisijungti	-4952
straipsnyje	-4953
konstruktyvi	-4954
supaprastinti	-4955
tarptautinėje	-4956
diskriminacijos	-4957
jk	-4958
akr	-4959
alą	-4960
eib	-4961
eną	-4962
ius	-4963
ktų	-4964
tad	-4965
alas	-4966
arab	-4967
būdą	-4968
būdų	-4969
dais	-4970
eksp	-4971
goms	-4972
gras	-4973
kles	-4974
prad	-4975
puos	-4976
sche	-4977
taik	-4978
terš	-4979
tinų	-4980
vyje	-4981
žodį	-4982
aukšt	-4983
dvejo	-4984
ekosi	-4985
gauna	-4986
išsam	-4987
krize	-4988
kusių	-4989
minių	-4990
minės	-4991
natūr	-4992
rimtą	-4993
sumos	-4994
tarif	-4995
verts	-4996
škoti	-4997
▁¦18¦	-4998
▁¦21¦	-4999
anksto	-5000
aujant	-5001
darbui	-5002
eksplo	-5003
gaires	-5004
gerbti	-5005
jūroje	-5006
koncep	-5007
metodą	-5008
miršta	-5009
nesvar	-5010
nijoje	-5011
paties	-5012
pavyks	-5013
pralei	-5014
puosel	-5015
sakoma	-5016
sienas	-5017
skelbi	-5018
skiria	-5019
smurtą	-5020
subjek	-5021
sutiko	-5022
teismų	-5023
teisus	-5024
viešai	-5025
apgalvo	-5026
bendrin	-5027
būtinai	-5028
išvadas	-5029
leidimų	-5030
naujoji	-5031
prašyti	-5032
radikal	-5033
tyrimai	-5034
uojamas	-5035
valdžia	-5036
vienodo	-5037
įvykius	-5038
žodžius	-5039
antmečio	-5040
atsakymą	-5041
daugumos	-5042
dioksido	-5043
ekosiste	-5044
interven	-5045
komitetų	-5046
liberalų	-5047
mokestis	-5048
narystės	-5049
padėčiai	-5050
pagrįsti	-5051
raginame	-5052
reikalas	-5053
teikiant	-5054
turėjome	-5055
įvairias	-5056
šaltinis	-5057
dokumente	-5058
ekonominį	-5059
imigrantų	-5060
kalbėtoją	-5061
klausimui	-5062
nereiškia	-5063
pritariau	-5064
sistemoje	-5065
teigiamas	-5066
ataskaitos	-5067
atnaujinti	-5068
atsakingos	-5069
gyventojai	-5070
motinystės	-5071
naudojamas	-5072
pasimokyti	-5073
pateikiama	-5074
politinius	-5075
potencialą	-5076
proporcing	-5077
socialines	-5078
direktyvoje	-5079
nacionalinę	-5080
vyriausybei	-5081
įsitikinusi	-5082
demokratijai	-5083
investicijas	-5084
persvarstyti	-5085
tūkstantmečio	-5086
konkurencingumą	-5087
fa	-5088
deš	-5089
dim	-5090
gab	-5091
hol	-5092
nam	-5093
pad	-5094
raf	-5095
sam	-5096
alko	-5097
aštu	-5098
cidų	-5099
dinį	-5100
gene	-5101
laim	-5102
lika	-5103
logi	-5104
moka	-5105
niui	-5106
pakr	-5107
riją	-5108
taus	-5109
vyno	-5110
ytis	-5111
įsto	-5112
šauk	-5113
▁¦12	-5114
avyje	-5115
cinio	-5116
demog	-5117
elges	-5118
erdvę	-5119
idėją	-5120
jungi	-5121
kitur	-5122
kūryb	-5123
pagir	-5124
rimta	-5125
skyri	-5126
stams	-5127
ėmėsi	-5128
ėsime	-5129
įtari	-5130
▁¦16¦	-5131
amomis	-5132
antras	-5133
formul	-5134
indėlį	-5135
kortel	-5136
kusios	-5137
linkme	-5138
lygiai	-5139
mosios	-5140
riziką	-5141
sukuri	-5142
svarba	-5143
toriai	-5144
traged	-5145
▁¦2007	-5146
aiškios	-5147
asmenis	-5148
ateitis	-5149
augimas	-5150
dalykus	-5151
išreikš	-5152
iššūkių	-5153
laikais	-5154
lygmens	-5155
neatidė	-5156
paragin	-5157
patrauk	-5158
religin	-5159
sričiai	-5160
tarnyba	-5161
tinkame	-5162
ukraina	-5163
vertina	-5164
vystymo	-5165
ženklas	-5166
biudžete	-5167
demograf	-5168
einantis	-5169
energiją	-5170
moderniz	-5171
nepavyko	-5172
pasisaky	-5173
poreikis	-5174
pridurti	-5175
sistemai	-5176
sveikata	-5177
teisinių	-5178
tolesnių	-5179
numatytos	-5180
nusipelno	-5181
pagrįstai	-5182
pakistano	-5183
pasauliui	-5184
paskirsty	-5185
politines	-5186
prasidėjo	-5187
socialine	-5188
sprendimu	-5189
straipsnį	-5190
svarstymą	-5191
įvairiose	-5192
apibendrin	-5193
demokratiš	-5194
didžiausių	-5195
europiečių	-5196
geriausiai	-5197
svarstomas	-5198
įtvirtinti	-5199
asociacijos	-5200
atsižvelgta	-5201
dalyvavimas	-5202
dažniausiai	-5203
palengvinti	-5204
patenkintas	-5205
susipažinti	-5206
susisiekimo	-5207
tarpusavyje	-5208
vokietijoje	-5209
diskutuojame	-5210
humanitarinę	-5211
investicijos	-5212
trečiosiomis	-5213
įgyvendinama	-5214
įsipareigojo	-5215
kvalifikacijos	-5216
besivystančioms	-5217
,5¦	-5218
ado	-5219
bij	-5220
dug	-5221
dva	-5222
lią	-5223
ppo	-5224
stį	-5225
absu	-5226
areš	-5227
aukų	-5228
aust	-5229
dyta	-5230
gale	-5231
kimo	-5232
norą	-5233
padi	-5234
peri	-5235
piln	-5236
pirm	-5237
raus	-5238
skub	-5239
stav	-5240
ėjas	-5241
įnaš	-5242
atmet	-5243
dalys	-5244
dinga	-5245
glaud	-5246
kaina	-5247
kilti	-5248
kinys	-5249
motyv	-5250
nauda	-5251
naudą	-5252
ojimo	-5253
onien	-5254
pesti	-5255
vaiko	-5256
vasar	-5257
vyktų	-5258
įreng	-5259
škumo	-5260
ančiam	-5261
aukoms	-5262
bankas	-5263
būtini	-5264
esniam	-5265
fiskal	-5266
išreiš	-5267
kasmet	-5268
kitoje	-5269
laukti	-5270
nekant	-5271
paskui	-5272
seniai	-5273
teigia	-5274
teksti	-5275
tyrimo	-5276
uždary	-5277
vietoj	-5278
ėjusių	-5279
įvykių	-5280
▁¦149¦	-5281
ankstyv	-5282
asamblė	-5283
bendrus	-5284
dvišali	-5285
išlaiky	-5286
keliais	-5287
narėmis	-5288
pagalvo	-5289
palygin	-5290
pasiryž	-5291
pastatų	-5292
pataisy	-5293
skurdži	-5294
sudarys	-5295
susidom	-5296
susilai	-5297
tinkami	-5298
trukmės	-5299
vadovai	-5300
vienodą	-5301
žaliavų	-5302
▁¦2000¦	-5303
atkreipi	-5304
atnaujin	-5305
baronien	-5306
deryboms	-5307
energija	-5308
geresnio	-5309
gyvenime	-5310
informuo	-5311
išplėsti	-5312
kompensa	-5313
milijonų	-5314
nenorime	-5315
nesvarbu	-5316
padėtimi	-5317
pateisin	-5318
pavojing	-5319
peržiūrė	-5320
pranešti	-5321
priemone	-5322
teisinio	-5323
tinkamos	-5324
valdymas	-5325
valstybė	-5326
įstatymą	-5327
gamintojų	-5328
konflikto	-5329
kroatijos	-5330
paslaugos	-5331
sankcijas	-5332
skatinama	-5333
skatinimo	-5334
stabilumą	-5335
stebėjimo	-5336
sudarytos	-5337
svarstome	-5338
ūkininkai	-5339
geriausias	-5340
konkrečius	-5341
lygmenimis	-5342
pasaulinio	-5343
patikrinti	-5344
pažeidimus	-5345
peržiūrėti	-5346
susitarime	-5347
susitarimu	-5348
diskusijoje	-5349
gerbiamieji	-5350
pasirengusi	-5351
paspartinti	-5352
prioritetai	-5353
prioritetas	-5354
referendumo	-5355
solidarumas	-5356
sukeliančių	-5357
nepakankamai	-5358
pavaduotojas	-5359
▁¦2007-2013¦	-5360
savarankiškai	-5361
technologijos	-5362
administravimo	-5363
diskriminaciją	-5364
cu	-5365
kį	-5366
sė	-5367
fra	-5368
išš	-5369
juk	-5370
kla	-5371
ktu	-5372
neu	-5373
ngl	-5374
nys	-5375
sai	-5376
sud	-5377
angl	-5378
bang	-5379
eina	-5380
gumo	-5381
jusį	-5382
kana	-5383
liga	-5384
ligų	-5385
osiu	-5386
tąją	-5387
vius	-5388
žemy	-5389
amąjį	-5390
atgal	-5391
balsų	-5392
blogi	-5393
darbe	-5394
didės	-5395
dirvo	-5396
domin	-5397
faktą	-5398
gosla	-5399
jaunų	-5400
kainą	-5401
laimė	-5402
lėktu	-5403
mingų	-5404
moral	-5405
neper	-5406
pašto	-5407
remiu	-5408
rimtų	-5409
suded	-5410
tapat	-5411
turto	-5412
tvarų	-5413
ūrėme	-5414
▁¦198	-5415
▁¦23¦	-5416
alkoho	-5417
būtume	-5418
derėtų	-5419
didele	-5420
gamtos	-5421
gresia	-5422
išsaky	-5423
klaidų	-5424
nuosmu	-5425
plačia	-5426
rankos	-5427
reitin	-5428
rimtas	-5429
rizika	-5430
sakiau	-5431
atvykti	-5432
autorių	-5433
būtinyb	-5434
esminis	-5435
geresnę	-5436
importo	-5437
jugosla	-5438
kultūra	-5439
laikomi	-5440
laikymo	-5441
naujosi	-5442
paketas	-5443
partijų	-5444
paskolų	-5445
pastabą	-5446
prielai	-5447
priešin	-5448
sukelia	-5449
taikomų	-5450
trūkumų	-5451
veiklai	-5452
įstaigų	-5453
žaliųjų	-5454
aspektai	-5455
atskaito	-5456
branduol	-5457
galėčiau	-5458
krovinių	-5459
naujoves	-5460
nelaimės	-5461
nelegali	-5462
oficiali	-5463
pasekmes	-5464
reikalus	-5465
struktyv	-5466
teisingą	-5467
tvarkymo	-5468
uždaryti	-5469
veikloje	-5470
vyriausi	-5471
įsteigti	-5472
įvairovę	-5473
japonijos	-5474
mažinimas	-5475
mažosioms	-5476
milijonai	-5477
nagrinėti	-5478
naudojama	-5479
naujosios	-5480
numatytas	-5481
pasiekėme	-5482
pesticidų	-5483
prisideda	-5484
profesion	-5485
protokolo	-5486
situaciją	-5487
svarstymo	-5488
tekstilės	-5489
vietovėse	-5490
įstatymus	-5491
dokumentai	-5492
efektyviai	-5493
gamintojai	-5494
interesams	-5495
konkrečios	-5496
nuolatinis	-5497
padariniai	-5498
pasakytina	-5499
projektams	-5500
suderintas	-5501
vidutinėms	-5502
išnagrinėti	-5503
konstruktyv	-5504
pareiškimas	-5505
diskriminacija	-5506
pirmininkavimo	-5507
neatsižvelgiant	-5508
bas	-5509
gol	-5510
sin	-5511
skl	-5512
tav	-5513
zim	-5514
įgy	-5515
acqu	-5516
aktą	-5517
atro	-5518
beje	-5519
dreb	-5520
dujo	-5521
galo	-5522
gaus	-5523
iais	-5524
indi	-5525
iško	-5526
klau	-5527
krau	-5528
kvie	-5529
kyst	-5530
lios	-5531
neuž	-5532
noro	-5533
obli	-5534
plau	-5535
save	-5536
siej	-5537
stud	-5538
tonų	-5539
varo	-5540
vizi	-5541
žudy	-5542
žval	-5543
ajame	-5544
apsun	-5545
diena	-5546
išlyg	-5547
išmet	-5548
kaino	-5549
kiama	-5550
kipro	-5551
lyder	-5552
manęs	-5553
mastą	-5554
mikro	-5555
papli	-5556
parod	-5557
repre	-5558
stovy	-5559
sukūr	-5560
čiama	-5561
šešių	-5562
acquis	-5563
aiškią	-5564
darbus	-5565
darome	-5566
degalų	-5567
formos	-5568
formuo	-5569
ginklų	-5570
ilgiau	-5571
inicij	-5572
išsamų	-5573
kokius	-5574
kovoje	-5575
krizei	-5576
linijų	-5577
mieste	-5578
narėje	-5579
nežino	-5580
obliga	-5581
parodo	-5582
person	-5583
primen	-5584
ryžtin	-5585
sachar	-5586
skurdą	-5587
smurtu	-5588
sudano	-5589
susilp	-5590
tautos	-5591
tinkam	-5592
būtinos	-5593
elgesio	-5594
grandin	-5595
išlieka	-5596
jusiems	-5597
klaidin	-5598
lengvin	-5599
libijos	-5600
pasaulį	-5601
pirmiau	-5602
pirmoji	-5603
pranašu	-5604
prašome	-5605
prisiim	-5606
reikėjo	-5607
sukuria	-5608
susidūr	-5609
sušveln	-5610
taikymą	-5611
tokiais	-5612
toriaus	-5613
vienoje	-5614
vietose	-5615
įrangos	-5616
▁¦2004¦	-5617
ambicing	-5618
atsirado	-5619
ausiomis	-5620
autorius	-5621
baigdama	-5622
daugiame	-5623
demonstr	-5624
didžiulę	-5625
ekologin	-5626
eksploat	-5627
finansin	-5628
judėjimą	-5629
kelionės	-5630
komentar	-5631
ministre	-5632
mokyklos	-5633
monopoli	-5634
nesutari	-5635
pasekmių	-5636
poreikio	-5637
prekybai	-5638
regionai	-5639
regionas	-5640
regionui	-5641
rinkimai	-5642
rumunija	-5643
savaites	-5644
skirtumų	-5645
sukurtos	-5646
susijusį	-5647
suteiktų	-5648
teigiamų	-5649
teisėtos	-5650
trūkumas	-5651
aspektais	-5652
centraliz	-5653
istorijos	-5654
palaikome	-5655
palaikymo	-5656
praktikos	-5657
pridėtinę	-5658
regionams	-5659
reikalauj	-5660
struktūrą	-5661
sutarčiai	-5662
užtikrina	-5663
veiksmais	-5664
atsakingai	-5665
dalyvavimo	-5666
didžiosios	-5667
grindžiama	-5668
gyvenančių	-5669
kadencijos	-5670
konvenciją	-5671
neatidėlio	-5672
neatitinka	-5673
pakeitimui	-5674
pateikiami	-5675
politikoje	-5676
politiniai	-5677
reguliuoti	-5678
transatlan	-5679
veiksmingi	-5680
delegacijos	-5681
jungtinėmis	-5682
kiekvienoje	-5683
kompetentin	-5684
mechanizmus	-5685
patobulinti	-5686
reikalavimą	-5687
įgyvendinta	-5688
nacionalinio	-5689
pusiausvyros	-5690
veiksmingiau	-5691
atsižvelgdami	-5692
konferencijos	-5693
konstitucijos	-5694
parlamentinės	-5695
infrastruktūrą	-5696
rekomendacijos	-5697
atsinaujinančios	-5698
bų	-5699
dt	-5700
mc	-5701
10¦	-5702
gat	-5703
mti	-5704
nuž	-5705
vyl	-5706
apči	-5707
atka	-5708
etap	-5709
gird	-5710
kart	-5711
kinį	-5712
kitu	-5713
lobi	-5714
pary	-5715
priė	-5716
raiš	-5717
tant	-5718
tibe	-5719
treč	-5720
trik	-5721
uopi	-5722
zoną	-5723
akcen	-5724
aliai	-5725
arabų	-5726
fondu	-5727
galin	-5728
iškil	-5729
jokiu	-5730
keiti	-5731
kongo	-5732
kvotų	-5733
ligos	-5734
muitų	-5735
muosi	-5736
nemok	-5737
nepri	-5738
neutr	-5739
pažve	-5740
ribas	-5741
rieji	-5742
sieji	-5743
skelb	-5744
uždar	-5745
versi	-5746
viams	-5747
vysto	-5748
įdomu	-5749
šešis	-5750
žinią	-5751
žiūri	-5752
absurd	-5753
apskai	-5754
baigta	-5755
buvome	-5756
būsime	-5757
darbda	-5758
dienas	-5759
ingumą	-5760
iškrai	-5761
kažkas	-5762
komerc	-5763
konsta	-5764
krizių	-5765
mažųjų	-5766
metams	-5767
miesto	-5768
mingai	-5769
moldov	-5770
neapsi	-5771
neteis	-5772
organų	-5773
padėjo	-5774
pagalb	-5775
palank	-5776
pareiš	-5777
planus	-5778
praras	-5779
priver	-5780
vykusi	-5781
čiamas	-5782
ėjimai	-5783
įmones	-5784
dujotie	-5785
juodkal	-5786
keliant	-5787
klaidos	-5788
kultūrą	-5789
lėšomis	-5790
metinės	-5791
nariais	-5792
nestabi	-5793
pagarbą	-5794
pajamas	-5795
palanki	-5796
pastabų	-5797
reforma	-5798
remiame	-5799
sesijos	-5800
skurdas	-5801
surasti	-5802
susilpn	-5803
tarnybų	-5804
turinio	-5805
uojamos	-5806
verslui	-5807
vystyti	-5808
apčiuopi	-5809
atliktas	-5810
didžiulį	-5811
ekspertų	-5812
galėjome	-5813
išaiškin	-5814
išmetamų	-5815
išsamiai	-5816
ketinama	-5817
konkretų	-5818
neturtin	-5819
nuomonių	-5820
nuostata	-5821
pasiruoš	-5822
paversti	-5823
poreikių	-5824
reikalai	-5825
sankcijų	-5826
studentų	-5827
sunkumus	-5828
teisinti	-5829
tikėtina	-5830
veiksnys	-5831
vienodas	-5832
vykdomas	-5833
dokumento	-5834
galutinis	-5835
ištaisyti	-5836
ištekliai	-5837
kiekvieno	-5838
naudojimu	-5839
nekalbant	-5840
pageidauj	-5841
palengvin	-5842
pareigūnų	-5843
pasiūlyta	-5844
pastarųjų	-5845
perdavimo	-5846
pozicijai	-5847
pozicijas	-5848
požiūriui	-5849
priešingu	-5850
siekdamos	-5851
skatinant	-5852
strasbūre	-5853
suteikimo	-5854
užtikrins	-5855
vartojimą	-5856
vidutinių	-5857
apribojimų	-5858
atsakomybė	-5859
bendrovėms	-5860
biologinės	-5861
biurokrati	-5862
dokumentus	-5863
karalystės	-5864
klausimams	-5865
kompromiso	-5866
nepritariu	-5867
pareigūnai	-5868
piliečiais	-5869
pirmininką	-5870
pirmininkų	-5871
politiškai	-5872
priežastys	-5873
produktais	-5874
vadovautis	-5875
afganistano	-5876
socialinius	-5877
tarptautinį	-5878
valstijomis	-5879
veiksmingas	-5880
įgaliojimai	-5881
bendruomenės	-5882
geležinkelio	-5883
konsultacijų	-5884
organizacija	-5885
patvirtintos	-5886
protekcioniz	-5887
tarpinstituc	-5888
veiksmingumą	-5889
atskaitomybės	-5890
institucijomis	-5891
un	-5892
vu	-5893
šv	-5894
6-0	-5895
and	-5896
ark	-5897
ava	-5898
eji	-5899
eli	-5900
emi	-5901
eri	-5902
pse	-5903
sui	-5904
umi	-5905
čią	-5906
ėję	-5907
škų	-5908
▁.-	-5909
asis	-5910
cego	-5911
delį	-5912
dome	-5913
eilu	-5914
jėgų	-5915
musi	-5916
nais	-5917
olog	-5918
pako	-5919
rūpi	-5920
stok	-5921
tino	-5922
toji	-5923
trak	-5924
tynų	-5925
tėvy	-5926
vyra	-5927
ybių	-5928
amoms	-5929
detal	-5930
dimen	-5931
gaben	-5932
ginči	-5933
kandi	-5934
lemia	-5935
matau	-5936
metai	-5937
minio	-5938
mumis	-5939
narei	-5940
pakto	-5941
pasto	-5942
persi	-5943
tarsi	-5944
taršą	-5945
čiojo	-5946
žvejo	-5947
▁¦19¦	-5948
▁¦24¦	-5949
▁¦60¦	-5950
▁¦80¦	-5951
apribo	-5952
atšauk	-5953
augalų	-5954
bankai	-5955
būdais	-5956
būtinų	-5957
būčiau	-5958
dideli	-5959
dydžio	-5960
galimų	-5961
gamybą	-5962
grėsmė	-5963
ingumo	-5964
išties	-5965
jaučia	-5966
kartoj	-5967
kavimo	-5968
ketinu	-5969
konser	-5970
konsul	-5971
mažėja	-5972
modelį	-5973
padėsi	-5974
parody	-5975
perkel	-5976
pobūdį	-5977
septin	-5978
teigti	-5979
teismą	-5980
trumpą	-5981
vatori	-5982
šalimi	-5983
šimtai	-5984
▁¦200¦	-5985
atvejis	-5986
cegovin	-5987
dažniau	-5988
geresnį	-5989
išsilav	-5990
iššūkis	-5991
karinių	-5992
konsoli	-5993
kūrimui	-5994
metodus	-5995
mokestį	-5996
nuspren	-5997
patirtį	-5998
perdirb	-5999
posėdis	-6000
reikšmę	-6001
skirsty	-6002
statuso	-6003
sutikti	-6004
suvokti	-6005
tikrais	-6006
tinkamų	-6007
vienbal	-6008
apriboti	-6009
atitikti	-6010
dialogas	-6011
formuluo	-6012
gyvename	-6013
išvengta	-6014
keliamas	-6015
kelionių	-6016
mokymosi	-6017
mokėtojų	-6018
neigiamą	-6019
padarėme	-6020
padidėjo	-6021
pagrindo	-6022
pavojaus	-6023
priimtos	-6024
procesus	-6025
projekte	-6026
reklamos	-6027
sudarytų	-6028
sumažėjo	-6029
sunaikin	-6030
supranta	-6031
susidoro	-6032
sąskaita	-6033
taikymas	-6034
tarpinin	-6035
teisinis	-6036
teisėtai	-6037
tikrinti	-6038
vengrija	-6039
vykdomos	-6040
vykstant	-6041
atsakingi	-6042
demonstra	-6043
didžiulis	-6044
ilgalaikį	-6045
internete	-6046
išnaudoti	-6047
judėjimas	-6048
kalbėjote	-6049
laikantis	-6050
mokslinin	-6051
nesuderin	-6052
nusikaltė	-6053
organizuo	-6054
pagalvoti	-6055
papildyti	-6056
pateiktus	-6057
politiniu	-6058
praeityje	-6059
projektai	-6060
siekdamas	-6061
skirtumai	-6062
turinčios	-6063
aplinkybes	-6064
ekonomines	-6065
graikijoje	-6066
hercegovin	-6067
jungtinėje	-6068
kampanijos	-6069
komunikatą	-6070
kriterijai	-6071
moksliniai	-6072
palestinos	-6073
pasisakyti	-6074
pastaruoju	-6075
pranešimus	-6076
profesinių	-6077
profesinės	-6078
reglamente	-6079
situacijos	-6080
stebėsenos	-6081
suderinimo	-6082
sudėtingas	-6083
atitinkamas	-6084
džiaugiamės	-6085
karalystėje	-6086
kopenhagoje	-6087
makedonijos	-6088
portugalija	-6089
rezoliucijų	-6090
sektoriuose	-6091
technologin	-6092
branduolinių	-6093
intelektinės	-6094
išsiaiškinti	-6095
kompetencija	-6096
paaiškinimai	-6097
pasitikėjimo	-6098
patvirtintas	-6099
apgailestauti	-6100
institucijose	-6101
rekomendacijų	-6102
tarptautinius	-6103
konferencijoje	-6104
įsipareigojusi	-6105
bg	-6106
bt	-6107
ls	-6108
nd	-6109
of	-6110
įk	-6111
anų	-6112
bab	-6113
eil	-6114
fik	-6115
klą	-6116
kra	-6117
oli	-6118
pin	-6119
rad	-6120
rea	-6121
try	-6122
wal	-6123
zai	-6124
zmą	-6125
šau	-6126
alių	-6127
atim	-6128
deba	-6129
derė	-6130
hori	-6131
išmo	-6132
jimo	-6133
jėga	-6134
liūd	-6135
lėme	-6136
maiš	-6137
maro	-6138
mėly	-6139
priv	-6140
ster	-6141
stis	-6142
strö	-6143
tipo	-6144
važi	-6145
vėli	-6146
▁¦18	-6147
alban	-6148
apdai	-6149
atneš	-6150
atšil	-6151
fakto	-6152
irane	-6153
iškus	-6154
kauka	-6155
kiami	-6156
klasi	-6157
liktų	-6158
mažas	-6159
meksi	-6160
mesti	-6161
mobil	-6162
nerim	-6163
nuose	-6164
nurod	-6165
palūk	-6166
patyr	-6167
pačią	-6168
preki	-6169
savęs	-6170
siaub	-6171
sriti	-6172
teisį	-6173
įvyks	-6174
šeimų	-6175
▁¦22¦	-6176
▁¦26¦	-6177
centra	-6178
didina	-6179
imasis	-6180
iškumo	-6181
išmokų	-6182
išraiš	-6183
išvadų	-6184
kankin	-6185
kelios	-6186
kenkia	-6187
laikau	-6188
lyties	-6189
minėtų	-6190
pamaty	-6191
rengia	-6192
režimą	-6193
siųsti	-6194
sritys	-6195
sąvoka	-6196
tinklą	-6197
tradic	-6198
trukdo	-6199
turbūt	-6200
tvarky	-6201
usiems	-6202
vakarą	-6203
zimbab	-6204
ėjimus	-6205
žodžių	-6206
atidėti	-6207
atsidūr	-6208
civiliz	-6209
esančių	-6210
esniais	-6211
galioti	-6212
girdėjo	-6213
horizon	-6214
ieškoti	-6215
indijos	-6216
jungtin	-6217
kandida	-6218
keturių	-6219
klastoj	-6220
kryptis	-6221
medicin	-6222
mokyklų	-6223
naujovi	-6224
naujųjų	-6225
nedarbo	-6226
pasisek	-6227
patikim	-6228
pilname	-6229
prašoma	-6230
prieigą	-6231
reikalo	-6232
rytuose	-6233
serbija	-6234
stokhol	-6235
svarbią	-6236
taupymo	-6237
tinklus	-6238
užduoti	-6239
užuojau	-6240
visišką	-6241
visuose	-6242
įsivaiz	-6243
ateičiai	-6244
atostogų	-6245
atskirti	-6246
atspindi	-6247
bankinin	-6248
belgijos	-6249
bendrais	-6250
daugybės	-6251
geresnis	-6252
intensyv	-6253
istoriją	-6254
kalbomis	-6255
migrantų	-6256
mokėjimų	-6257
neleisti	-6258
norėdami	-6259
paminėjo	-6260
parduoti	-6261
patirtis	-6262
pokyčiai	-6263
praėjusį	-6264
prisimen	-6265
procesui	-6266
savaičių	-6267
suvereni	-6268
tikimasi	-6269
tyrimams	-6270
įtikinti	-6271
dvidešimt	-6272
elementas	-6273
iššūkiais	-6274
koncentra	-6275
konfliktų	-6276
korupcija	-6277
lūkesčius	-6278
narkotikų	-6279
neteisėta	-6280
nukreipti	-6281
paskatino	-6282
pateiktos	-6283
svarstant	-6284
tikrinimo	-6285
uždavinių	-6286
viešosios	-6287
įstatymas	-6288
šaltinius	-6289
dalyvavimą	-6290
ekonominiu	-6291
inovacijas	-6292
komisijoje	-6293
konstatuoj	-6294
konvencija	-6295
mechanizmą	-6296
nekantriai	-6297
oficialiai	-6298
papildomos	-6299
reikalingų	-6300
rumunijoje	-6301
savarankiš	-6302
slovakijos	-6303
standartiz	-6304
sumažintas	-6305
svarbiausi	-6306
ženklinimo	-6307
atitinkamos	-6308
europiečiai	-6309
galimybėmis	-6310
grindžiamas	-6311
informavimo	-6312
kiekvienais	-6313
laikotarpis	-6314
praėjusiais	-6315
televizijos	-6316
įsigaliojus	-6317
bendruomenių	-6318
jugoslavijos	-6319
reikalaujame	-6320
tarptautinis	-6321
apmokestinimo	-6322
priklausomybę	-6323
besivystančios	-6324
em	-6325
jū	-6326
ou	-6327
rs	-6328
up	-6329
xx	-6330
zy	-6331
dik	-6332
han	-6333
hei	-6334
lia	-6335
lus	-6336
orė	-6337
ple	-6338
pvm	-6339
sel	-6340
suž	-6341
sve	-6342
tak	-6343
trų	-6344
vio	-6345
audi	-6346
būdo	-6347
dina	-6348
dose	-6349
esne	-6350
form	-6351
gose	-6352
iški	-6353
maža	-6354
mažų	-6355
paly	-6356
pirš	-6357
ruož	-6358
rėme	-6359
rūši	-6360
slap	-6361
teto	-6362
vard	-6363
čiui	-6364
įraš	-6365
švei	-6366
šven	-6367
ūriz	-6368
žaid	-6369
▁¦17	-6370
aktas	-6371
amumu	-6372
artėj	-6373
austr	-6374
brang	-6375
būdus	-6376
cosur	-6377
dytos	-6378
farma	-6379
giems	-6380
girdė	-6381
idėjų	-6382
kinių	-6383
kuoja	-6384
licen	-6385
mažos	-6386
merio	-6387
paded	-6388
prašo	-6389
riems	-6390
saugą	-6391
schul	-6392
sklei	-6393
ström	-6394
susid	-6395
tikru	-6396
tvirt	-6397
airija	-6398
apimtų	-6399
atgaiv	-6400
atvyko	-6401
audami	-6402
ausime	-6403
dalyką	-6404
davimą	-6405
dvejus	-6406
dvišal	-6407
galimą	-6408
gyvybę	-6409
ijomis	-6410
imtųsi	-6411
integr	-6412
island	-6413
laikui	-6414
laisvo	-6415
lankst	-6416
laukiu	-6417
linkiu	-6418
nenorė	-6419
nuodug	-6420
palaik	-6421
paraiš	-6422
paveik	-6423
pertek	-6424
riboti	-6425
ryšius	-6426
sakėte	-6427
savait	-6428
siūlau	-6429
skolos	-6430
skyrių	-6431
suvien	-6432
teisei	-6433
tokiam	-6434
triukš	-6435
verslą	-6436
vežimo	-6437
žaislų	-6438
žinios	-6439
žvelgi	-6440
žymiai	-6441
antroji	-6442
apginti	-6443
arkties	-6444
atliktų	-6445
bandymų	-6446
dalyvav	-6447
daugumą	-6448
galvoje	-6449
galvoti	-6450
išlaisv	-6451
ištirti	-6452
konkret	-6453
kultūrų	-6454
laisves	-6455
lengvai	-6456
mobiliz	-6457
nvienas	-6458
pagamin	-6459
pareigą	-6460
pasmerk	-6461
paveldo	-6462
pramonę	-6463
reikštų	-6464
remiant	-6465
rinkėjų	-6466
susitel	-6467
svarbiu	-6468
sąnaudų	-6469
tokioms	-6470
tvarumo	-6471
įrodyti	-6472
apsaugai	-6473
asdešimt	-6474
atsakymo	-6475
atsitiko	-6476
bendroji	-6477
bendrojo	-6478
dvišalių	-6479
geresnės	-6480
libijoje	-6481
mercosur	-6482
ministro	-6483
nepavyks	-6484
pabrėžia	-6485
paprasta	-6486
perkelti	-6487
posėdžių	-6488
potvynių	-6489
prisimin	-6490
pritarta	-6491
reakcija	-6492
restrukt	-6493
skrydžių	-6494
sukurtas	-6495
svarbiau	-6496
sėkminga	-6497
trūkumus	-6498
turintys	-6499
įstaigos	-6500
įvairios	-6501
alkoholio	-6502
atsiranda	-6503
chartijos	-6504
graikijai	-6505
interesai	-6506
laikymosi	-6507
mokėtojai	-6508
naudojasi	-6509
nereikėtų	-6510
nustatymo	-6511
pakeitimu	-6512
pateiksiu	-6513
pavyzdžiu	-6514
pažeidimo	-6515
penkerius	-6516
perkėlimo	-6517
pirmenybę	-6518
pritarimą	-6519
reikalavo	-6520
sekretori	-6521
susipažin	-6522
sutinkame	-6523
teikiamas	-6524
tobulinti	-6525
uždavinys	-6526
valstijos	-6527
visuotinį	-6528
švietimas	-6529
balsuosime	-6530
dabartinių	-6531
imigracija	-6532
netinkamas	-6533
pacientams	-6534
pagrindinį	-6535
pasieksime	-6536
precedento	-6537
profesinio	-6538
rašytiniai	-6539
remdamiesi	-6540
sugebėsime	-6541
tiesioginį	-6542
vengrijoje	-6543
vertinamas	-6544
vystymasis	-6545
įtraukties	-6546
šiuolaikin	-6547
ateinančius	-6548
diskusijoms	-6549
ekonominius	-6550
laipsniškai	-6551
mechanizmas	-6552
nevyriausyb	-6553
pasirinkimo	-6554
pirmininkav	-6555
pripažinimo	-6556
ratifikuoti	-6557
visapusišką	-6558
ateinančiais	-6559
demokratinių	-6560
koordinavimą	-6561
patvirtinimą	-6562
prancūzijoje	-6563
ratifikavimo	-6564
restruktūriz	-6565
darbotvarkėje	-6566
ketvirtadienį	-6567
reglamentavimo	-6568
nutraukkalbėtoją	-6569
-1	-6570
pš	-6571
7-0	-6572
aky	-6573
cor	-6574
dak	-6575
dur	-6576
fil	-6577
pjū	-6578
psi	-6579
stę	-6580
sva	-6581
tvf	-6582
viu	-6583
šak	-6584
akis	-6585
cinį	-6586
demp	-6587
dėjų	-6588
gios	-6589
gumą	-6590
gydy	-6591
ilgą	-6592
kruo	-6593
manu	-6594
mėms	-6595
narį	-6596
paži	-6597
prag	-6598
puli	-6599
raši	-6600
siją	-6601
skyr	-6602
tunų	-6603
užme	-6604
veda	-6605
▁¦1,	-6606
apgau	-6607
atoki	-6608
domis	-6609
duoda	-6610
esamą	-6611
esnei	-6612
euros	-6613
formą	-6614
gavau	-6615
gazos	-6616
grupę	-6617
ijoms	-6618
iškėl	-6619
išplė	-6620
kaitą	-6621
karas	-6622
miško	-6623
noras	-6624
paska	-6625
pavėl	-6626
prend	-6627
pripa	-6628
radio	-6629
rezer	-6630
suvar	-6631
tinos	-6632
viršu	-6633
įdomi	-6634
įrodo	-6635
įstoj	-6636
šešėl	-6637
ūkiui	-6638
apyvar	-6639
bausti	-6640
birmos	-6641
būsimą	-6642
esmini	-6643
fondai	-6644
gairės	-6645
imperi	-6646
islamo	-6647
keleto	-6648
klasto	-6649
kruopš	-6650
likimo	-6651
lotynų	-6652
manote	-6653
nedels	-6654
neramu	-6655
nusprę	-6656
paklau	-6657
paryži	-6658
patais	-6659
pašarų	-6660
pernai	-6661
prekės	-6662
priėmė	-6663
rūšies	-6664
salėje	-6665
tavimą	-6666
tenkin	-6667
tikrus	-6668
totali	-6669
tumėme	-6670
turinį	-6671
užbaig	-6672
uždrau	-6673
valios	-6674
vidury	-6675
viziją	-6676
atlikus	-6677
austral	-6678
didžiul	-6679
dėkinga	-6680
erdvėje	-6681
grupėms	-6682
grėsmės	-6683
intensy	-6684
išimčių	-6685
iškelti	-6686
kituose	-6687
leidimą	-6688
mažumos	-6689
metodas	-6690
minučių	-6691
modelio	-6692
modelis	-6693
nepakei	-6694
nusivyl	-6695
pabrėžė	-6696
pajėgos	-6697
pateiks	-6698
pačioje	-6699
planuoj	-6700
posėdži	-6701
pradėtų	-6702
prasidė	-6703
prireik	-6704
privers	-6705
punktas	-6706
referen	-6707
regioną	-6708
savinin	-6709
skaidri	-6710
skirtus	-6711
sukurtų	-6712
susieti	-6713
tokiose	-6714
tuojama	-6715
turinti	-6716
tvaraus	-6717
tyrimas	-6718
vandeny	-6719
vykdomą	-6720
įdiegti	-6721
žodžiai	-6722
atsispin	-6723
baigiant	-6724
didesnių	-6725
didinant	-6726
diskutuo	-6727
formuoti	-6728
gamtinių	-6729
geresnių	-6730
iniciaty	-6731
išdavimo	-6732
iškraipy	-6733
išpuolių	-6734
keliuose	-6735
mažinant	-6736
mokėjimo	-6737
moldovos	-6738
nedarbas	-6739
nelygybę	-6740
nuomones	-6741
orientuo	-6742
pajėgumų	-6743
partnerė	-6744
pasekmės	-6745
pasisako	-6746
planuoti	-6747
politikų	-6748
pradėtas	-6749
reikšmės	-6750
signalas	-6751
skaityti	-6752
skiriant	-6753
tiniuose	-6754
valandas	-6755
veiksnių	-6756
alternaty	-6757
centrinės	-6758
europinės	-6759
galutinai	-6760
gyvenimui	-6761
miestuose	-6762
migracija	-6763
mokesčius	-6764
nepilname	-6765
pakalbėti	-6766
pakartoti	-6767
praeities	-6768
pritarimo	-6769
projektui	-6770
reiškinys	-6771
skirstymo	-6772
sprendžia	-6773
suteiktas	-6774
sėkmingas	-6775
teisiškai	-6776
teroristų	-6777
vertinama	-6778
asamblėjos	-6779
atsiprašau	-6780
balsuojama	-6781
delegacija	-6782
draudžiama	-6783
finansines	-6784
garantuoti	-6785
neteisėtai	-6786
netinkamai	-6787
ombudsmeno	-6788
operacijos	-6789
parlamentų	-6790
pasauliniu	-6791
pranešimai	-6792
prevenciją	-6793
prioritetu	-6794
privalomas	-6795
produktams	-6796
ratifikavo	-6797
regioninių	-6798
remdamasis	-6799
skatinamas	-6800
sukčiavimu	-6801
suprantame	-6802
vykstančių	-6803
dalyvaujant	-6804
integraciją	-6805
koordinuoti	-6806
neabejotina	-6807
panaudojimo	-6808
partneriais	-6809
pasirūpinti	-6810
paskirstymo	-6811
pavaduotoja	-6812
reguliavimą	-6813
rezultatais	-6814
taisyklėmis	-6815
užtikrinama	-6816
konferencija	-6817
konferenciją	-6818
nepritariame	-6819
panaikinimas	-6820
telekomunika	-6821
investicijoms	-6822
tarpvyriausyb	-6823
įgyvendinamos	-6824
nepriklausomai	-6825
suinteresuotos	-6826
įsipareigojimas	-6827
nepriklausomybės	-6828
dž	-6829
hl	-6830
sm	-6831
aip	-6832
alu	-6833
car	-6834
cuk	-6835
dra	-6836
egf	-6837
gro	-6838
hos	-6839
kės	-6840
leg	-6841
mau	-6842
riu	-6843
ybų	-6844
zmu	-6845
ąja	-6846
ški	-6847
aids	-6848
amam	-6849
ante	-6850
arch	-6851
auga	-6852
bylų	-6853
būkl	-6854
dams	-6855
duno	-6856
duos	-6857
eigi	-6858
foru	-6859
gina	-6860
nios	-6861
rajo	-6862
rams	-6863
rido	-6864
ryšį	-6865
skal	-6866
skan	-6867
spau	-6868
sumą	-6869
tora	-6870
tumu	-6871
vili	-6872
voka	-6873
zona	-6874
įkal	-6875
įves	-6876
švai	-6877
alaus	-6878
atvyk	-6879
aukos	-6880
bijau	-6881
buvęs	-6882
būdai	-6883
daržo	-6884
degin	-6885
dikta	-6886
dinam	-6887
dingi	-6888
esnir	-6889
galią	-6890
gautų	-6891
grėsm	-6892
human	-6893
išduo	-6894
išsis	-6895
karaš	-6896
kompl	-6897
kurdų	-6898
lanky	-6899
lauki	-6900
liaus	-6901
mėsos	-6902
nuogą	-6903
paktą	-6904
pasių	-6905
patar	-6906
ponas	-6907
ponen	-6908
privi	-6909
redak	-6910
sklan	-6911
sueig	-6912
sąvei	-6913
temos	-6914
tinga	-6915
tinin	-6916
tėvai	-6917
usias	-6918
užker	-6919
viršū	-6920
voliu	-6921
ūroms	-6922
žengi	-6923
amumas	-6924
arešto	-6925
autono	-6926
autori	-6927
bendru	-6928
centre	-6929
centro	-6930
centrų	-6931
grupuo	-6932
haičio	-6933
inanti	-6934
iššūkį	-6935
kalbas	-6936
kartus	-6937
kiekis	-6938
korėja	-6939
mokymą	-6940
nebėra	-6941
nedaug	-6942
nepajė	-6943
nesusi	-6944
norėjo	-6945
padidė	-6946
padirb	-6947
paliek	-6948
pardav	-6949
pasist	-6950
pačius	-6951
perduo	-6952
pjūčio	-6953
praran	-6954
priims	-6955
prilyg	-6956
privat	-6957
pusėje	-6958
ratori	-6959
ravimo	-6960
rodyti	-6961
siekis	-6962
viltis	-6963
įsikiš	-6964
įtikin	-6965
šveica	-6966
▁¦142¦	-6967
aktuali	-6968
antrojo	-6969
ančioje	-6970
atsargų	-6971
atsiras	-6972
ausiais	-6973
dideliu	-6974
elgesys	-6975
fikuotų	-6976
fondais	-6977
indėlis	-6978
išplėti	-6979
išreišk	-6980
kartoju	-6981
namuose	-6982
nenoriu	-6983
pabaiga	-6984
padarys	-6985
padidėj	-6986
padidės	-6987
pajamos	-6988
pareikš	-6989
praeitą	-6990
prašymų	-6991
pristat	-6992
privalu	-6993
priėmus	-6994
reformą	-6995
režimas	-6996
rinktis	-6997
teismin	-6998
traukia	-6999
amerikie	-7000
bendrųjų	-7001
dalyviai	-7002
daugumai	-7003
dvigubai	-7004
fikavimo	-7005
geresnes	-7006
graikija	-7007
griežtos	-7008
interpre	-7009
išgyvena	-7010
išsaugoj	-7011
iššūkiai	-7012
naujasis	-7013
novatori	-7014
pagrįstą	-7015
pasibaig	-7016
pilietis	-7017
pratęsti	-7018
prieigos	-7019
privalau	-7020
priėmimą	-7021
protinga	-7022
rūpinimo	-7023
skaičiav	-7024
sugebėjo	-7025
sujungti	-7026
sulaukti	-7027
sąnaudas	-7028
trukdyti	-7029
turėčiau	-7030
valstybe	-7031
įmanomas	-7032
apskaitos	-7033
atliekant	-7034
atsakingą	-7035
bulgarija	-7036
direktyvų	-7037
draudimas	-7038
ekonomine	-7039
kariuomen	-7040
ketinimai	-7041
kritikuoj	-7042
naudingos	-7043
nesutinku	-7044
nuolatinį	-7045
nustatoma	-7046
pardavimo	-7047
pasmerkti	-7048
praktinių	-7049
praėjusių	-7050
rinkimams	-7051
rugpjūčio	-7052
socialiai	-7053
stokholmo	-7054
sulaikymo	-7055
sunkumais	-7056
susitarta	-7057
sutaupyti	-7058
teisingas	-7059
turkijoje	-7060
tvarkaraš	-7061
veiksniai	-7062
vertinant	-7063
vertybėms	-7064
vieningai	-7065
visuomenė	-7066
įsitikinę	-7067
įvairiais	-7068
atskirtimi	-7069
atstovauja	-7070
darbininkų	-7071
geriausios	-7072
gyventojus	-7073
ištekliais	-7074
jungtinėse	-7075
mechanizmo	-7076
nacionaliz	-7077
naudojimui	-7078
papildomas	-7079
pasirašyti	-7080
paskutinis	-7081
pateiktame	-7082
patenkinta	-7083
pažeidimai	-7084
perdavimas	-7085
perkėlimas	-7086
plačiajuos	-7087
pristatyti	-7088
problemoms	-7089
skirtingos	-7090
socialiniu	-7091
susidoroti	-7092
valdysenos	-7093
visuotinai	-7094
vyriausybe	-7095
didžiausios	-7096
ekonomiškai	-7097
kriterijais	-7098
organizuoti	-7099
pasiūlymais	-7100
pasiūlymams	-7101
trečiadienį	-7102
veiksmingos	-7103
darbuotojais	-7104
diskusijomis	-7105
konstituciją	-7106
nusprendžiau	-7107
susitarimais	-7108
veiksmingumo	-7109
įgyvendinami	-7110
baltarusijoje	-7111
baudžiamosios	-7112
besivystančių	-7113
kompetencijai	-7114
neišvengiamai	-7115
nepriklausomą	-7116
pasitikėjimas	-7117
patvirtinimas	-7118
tarptautiniai	-7119
liberalizavimo	-7120
supaprastinimo	-7121
pirmininkavimas	-7122
konkurencingumas	-7123
konkurencingumui	-7124
telekomunikacijų	-7125
ah	-7126
gv	-7127
he	-7128
kk	-7129
sy	-7130
ana	-7131
bru	-7132
cas	-7133
epi	-7134
eps	-7135
gūs	-7136
hel	-7137
iam	-7138
jor	-7139
kaš	-7140
ket	-7141
kly	-7142
klų	-7143
lui	-7144
nyk	-7145
ovo	-7146
pnr	-7147
rom	-7148
til	-7149
vak	-7150
žem	-7151
▁."	-7152
antr	-7153
aprė	-7154
aren	-7155
diag	-7156
etik	-7157
jams	-7158
karą	-7159
koma	-7160
kono	-7161
mažą	-7162
miją	-7163
mumo	-7164
mąst	-7165
pono	-7166
rami	-7167
rytą	-7168
rėje	-7169
scen	-7170
stre	-7171
tenk	-7172
trag	-7173
tusi	-7174
užmo	-7175
vėms	-7176
ėjęs	-7177
atmos	-7178
atsky	-7179
avari	-7180
cingi	-7181
dimas	-7182
dinin	-7183
dislo	-7184
etape	-7185
ginčy	-7186
griau	-7187
grupė	-7188
iečių	-7189
ilgas	-7190
infli	-7191
intis	-7192
išryš	-7193
jemen	-7194
jėgai	-7195
kinės	-7196
klaid	-7197
klest	-7198
mainų	-7199
minga	-7200
nebuv	-7201
nekil	-7202
nešal	-7203
ojoje	-7204
paini	-7205
pasen	-7206
pasky	-7207
pasta	-7208
planų	-7209
pražū	-7210
recep	-7211
rodik	-7212
sauga	-7213
sieną	-7214
simės	-7215
stais	-7216
sunkų	-7217
sėkmę	-7218
teigė	-7219
tiška	-7220
tybės	-7221
įdarb	-7222
įdieg	-7223
šalia	-7224
žodis	-7225
▁¦197	-7226
▁¦31¦	-7227
▁¦90¦	-7228
/2008¦	-7229
/2010¦	-7230
apytik	-7231
apžval	-7232
bausmę	-7233
damasi	-7234
dančių	-7235
esamas	-7236
fondus	-7237
formal	-7238
išeiti	-7239
jautri	-7240
judumo	-7241
kainuo	-7242
kanada	-7243
kovoja	-7244
laisvė	-7245
mažumo	-7246
mingas	-7247
mirčių	-7248
misija	-7249
misiją	-7250
moters	-7251
nesame	-7252
pakeit	-7253
paketu	-7254
posėdį	-7255
prekyb	-7256
remtis	-7257
siškai	-7258
skubių	-7259
staiga	-7260
sąlygą	-7261
tokiai	-7262
trimis	-7263
užterš	-7264
vakcin	-7265
veiktų	-7266
vienam	-7267
ėjimui	-7268
▁¦250¦	-7269
▁¦300¦	-7270
antrąjį	-7271
aplinka	-7272
arenoje	-7273
atverti	-7274
aukomis	-7275
baigėsi	-7276
balsuos	-7277
blogiau	-7278
būdamas	-7279
derėtis	-7280
dideles	-7281
galimas	-7282
gaminti	-7283
gelbėti	-7284
girdime	-7285
graciją	-7286
ideolog	-7287
išbandy	-7288
išimtis	-7289
išvados	-7290
laisvos	-7291
lenkija	-7292
muosius	-7293
mąstyti	-7294
nepaisy	-7295
netoler	-7296
nežinau	-7297
osiomis	-7298
pakrant	-7299
palydov	-7300
panašių	-7301
pareigų	-7302
pasekmė	-7303
pašalin	-7304
pirkimų	-7305
pirmąją	-7306
prašymo	-7307
prekėms	-7308
primena	-7309
pritars	-7310
saugumu	-7311
siejama	-7312
skatins	-7313
skubiau	-7314
skyrimo	-7315
smurtas	-7316
steigti	-7317
sukelti	-7318
sukeltų	-7319
sunkiau	-7320
susidar	-7321
sąjungų	-7322
taikiai	-7323
tiekimą	-7324
tikslin	-7325
trūkumą	-7326
tvarios	-7327
užduotį	-7328
vaistus	-7329
įprasta	-7330
įrodymų	-7331
įspūdis	-7332
žvejyba	-7333
agentūrą	-7334
aktyviau	-7335
apibrėži	-7336
atsakyta	-7337
atskiros	-7338
chartija	-7339
didelius	-7340
didinimą	-7341
dunojaus	-7342
dėkingas	-7343
elementų	-7344
galimybė	-7345
galutinį	-7346
girdėjau	-7347
iškeltas	-7348
išmetamo	-7349
jaunimas	-7350
jaunimui	-7351
kinijoje	-7352
kroatija	-7353
minėjote	-7354
neigiamų	-7355
nepamirš	-7356
nesupran	-7357
padengti	-7358
parengta	-7359
pasakėte	-7360
pasiektų	-7361
pasiraši	-7362
praktiką	-7363
prašymas	-7364
svarbaus	-7365
sąnaudos	-7366
turėdami	-7367
valdymui	-7368
viduryje	-7369
viršūnių	-7370
įgūdžius	-7371
įvairius	-7372
ančiosios	-7373
atostogas	-7374
bendromis	-7375
būtinybės	-7376
daugiašal	-7377
galiojimo	-7378
grąžinimo	-7379
ilgalaikę	-7380
išdėstyti	-7381
kapitaliz	-7382
konkurenc	-7383
medžiagos	-7384
milijonus	-7385
ministrai	-7386
mokesčiai	-7387
mėnesiais	-7388
neleidžia	-7389
nukentėjo	-7390
nuspręsta	-7391
nustatomi	-7392
pacientai	-7393
pajėgumus	-7394
pasirinko	-7395
paskatins	-7396
pastebėti	-7397
peržiūros	-7398
priimtina	-7399
principui	-7400
priėmimas	-7401
ratifikuo	-7402
rezultatą	-7403
rodikliai	-7404
skiriamos	-7405
struktūra	-7406
sukūrimas	-7407
sumažinta	-7408
supratimo	-7409
aplinkybių	-7410
apmokestin	-7411
dabartinis	-7412
dešimtmetį	-7413
dujotiekio	-7414
ilgalaikio	-7415
ilgalaikės	-7416
istorijoje	-7417
konfliktas	-7418
neteisinga	-7419
nuosekliai	-7420
nyderlandų	-7421
pakankamas	-7422
pasirengti	-7423
pavojingas	-7424
pažangiojo	-7425
pažeidimas	-7426
pranešėjos	-7427
priimtinas	-7428
prisiminti	-7429
pritariama	-7430
referentas	-7431
slovėnijos	-7432
socialinei	-7433
sprendimui	-7434
suteikiant	-7435
svarbesnis	-7436
įtraukiant	-7437
atsakydamas	-7438
nuostatomis	-7439
nusikaltimų	-7440
panaudojimą	-7441
pateikiamas	-7442
priklausomi	-7443
specialistų	-7444
sprendžiami	-7445
sukčiavimas	-7446
teritorijos	-7447
tiesioginių	-7448
tiesioginės	-7449
tūkstančiai	-7450
užtikrintos	-7451
dokumentuose	-7452
greičiausiai	-7453
juodkalnijos	-7454
laikotarpiui	-7455
pripažįstama	-7456
prisitaikyti	-7457
respublikoje	-7458
rezoliucijas	-7459
užtikrinamas	-7460
portugalijoje	-7461
susirūpinimas	-7462
bankininkystės	-7463
infrastruktūra	-7464
atsinaujinančių	-7465
besivystančiose	-7466
nepriklausomybę	-7467
suinteresuotųjų	-7468
supaprastinimas	-7469
įsipareigojimai	-7470
6/	-7471
bp	-7472
ee	-7473
hn	-7474
lū	-7475
wi	-7476
▁/	-7477
30¦	-7478
alz	-7479
ani	-7480
aną	-7481
baž	-7482
emo	-7483
fut	-7484
gil	-7485
gių	-7486
gti	-7487
gui	-7488
iui	-7489
kun	-7490
laf	-7491
lyn	-7492
lėm	-7493
lėp	-7494
myb	-7495
opi	-7496
pia	-7497
pės	-7498
ryt	-7499
tir	-7500
vus	-7501
zui	-7502
žym	-7503
adek	-7504
ajai	-7505
akim	-7506
antų	-7507
atme	-7508
bazę	-7509
besą	-7510
bruo	-7511
devy	-7512
gamy	-7513
geor	-7514
gija	-7515
gvin	-7516
gyti	-7517
josé	-7518
ktat	-7519
linę	-7520
malm	-7521
marš	-7522
modi	-7523
nutu	-7524
olaf	-7525
olim	-7526
orde	-7527
paud	-7528
renk	-7529
skau	-7530
tebe	-7531
tetą	-7532
toną	-7533
usią	-7534
zmas	-7535
ūkių	-7536
akmen	-7537
amąja	-7538
amžių	-7539
bažny	-7540
būsto	-7541
dinių	-7542
esamų	-7543
feder	-7544
formų	-7545
futbo	-7546
izoli	-7547
jimas	-7548
kilmę	-7549
kišti	-7550
kusio	-7551
laikė	-7552
latvi	-7553
liban	-7554
lieči	-7555
ligon	-7556
metas	-7557
mingi	-7558
muoju	-7559
nariu	-7560
neapy	-7561
nekal	-7562
niems	-7563
nijai	-7564
nikos	-7565
paban	-7566
padal	-7567
papra	-7568
renka	-7569
retai	-7570
skirs	-7571
stalo	-7572
stoti	-7573
stume	-7574
sukau	-7575
svyra	-7576
tikai	-7577
tojos	-7578
tumui	-7579
uotus	-7580
usius	-7581
užmeg	-7582
verči	-7583
įtaka	-7584
švies	-7585
žaidy	-7586
žemin	-7587
žvejų	-7588
▁¦28¦	-7589
▁¦75¦	-7590
akimir	-7591
aštuon	-7592
blogai	-7593
damosi	-7594
dedame	-7595
didžių	-7596
dvideg	-7597
etapas	-7598
galias	-7599
galimo	-7600
gydymo	-7601
idėjai	-7602
iškart	-7603
iškilo	-7604
išsiun	-7605
keičia	-7606
kelyje	-7607
klaida	-7608
kraštu	-7609
kvotas	-7610
kvotos	-7611
leista	-7612
mažina	-7613
minutę	-7614
naštos	-7615
optimi	-7616
paaišk	-7617
pamirš	-7618
panaši	-7619
paneig	-7620
parado	-7621
pažįst	-7622
prarad	-7623
prekes	-7624
realią	-7625
ryšiai	-7626
santuo	-7627
savimo	-7628
sergan	-7629
sumany	-7630
sutrik	-7631
tarnau	-7632
tranzi	-7633
tunise	-7634
užimti	-7635
vaisių	-7636
venesu	-7637
vilčių	-7638
čekija	-7639
įvykti	-7640
žmogus	-7641
aiškiau	-7642
amžiuje	-7643
analizę	-7644
ančiųjų	-7645
atlanto	-7646
atlikta	-7647
atmesti	-7648
autobus	-7649
azijoje	-7650
besąlyg	-7651
būsimos	-7652
centras	-7653
dalytis	-7654
dalyvių	-7655
daugėja	-7656
diagnoz	-7657
griežti	-7658
griežtą	-7659
imamasi	-7660
jusieji	-7661
kalboje	-7662
kalbėta	-7663
kritika	-7664
krypčių	-7665
mėnesio	-7666
naujoms	-7667
neaišku	-7668
nedarbą	-7669
orienta	-7670
pagyven	-7671
palaips	-7672
patentų	-7673
plačiau	-7674
pradėta	-7675
prasmės	-7676
priimtą	-7677
prisiėm	-7678
regulia	-7679
rodikli	-7680
saugios	-7681
siūlyti	-7682
sritims	-7683
stabili	-7684
statusą	-7685
statymo	-7686
sudėtis	-7687
sugriež	-7688
sunkvež	-7689
termino	-7690
teroris	-7691
tikrove	-7692
toriams	-7693
trūkumo	-7694
turimas	-7695
turėjau	-7696
valdymu	-7697
valdžią	-7698
verslas	-7699
vykdymą	-7700
įgūdžių	-7701
žvelgti	-7702
amuosius	-7703
artimųjų	-7704
balsuoju	-7705
besitęsi	-7706
buvusios	-7707
cheminių	-7708
dalyvaus	-7709
didelėms	-7710
didinimo	-7711
didžiąją	-7712
draudimą	-7713
džiaugti	-7714
ekstremi	-7715
gebėjimą	-7716
gerinimo	-7717
išmetimą	-7718
išvadose	-7719
kalbėsiu	-7720
kaltinti	-7721
kreipėsi	-7722
laikomės	-7723
mažosios	-7724
nedeklar	-7725
nusiteik	-7726
pageidau	-7727
pareigos	-7728
pažeidin	-7729
pažymėjo	-7730
penkerių	-7731
pradėtos	-7732
priimami	-7733
privileg	-7734
propagan	-7735
rūpestis	-7736
septynių	-7737
siūlomas	-7738
skiriami	-7739
stipriai	-7740
sudarant	-7741
sukūrimo	-7742
sumokėti	-7743
susidaro	-7744
susiklos	-7745
sutartys	-7746
sąskaitų	-7747
teikiamų	-7748
teikimas	-7749
teisingi	-7750
teisiniu	-7751
tiesiems	-7752
tolesnio	-7753
turėdama	-7754
vadinama	-7755
vertybės	-7756
vienašal	-7757
aplinkoje	-7758
atliekami	-7759
centrinis	-7760
dabartine	-7761
didelėmis	-7762
dvišalius	-7763
džiaugtis	-7764
galėdamas	-7765
girdėjome	-7766
gyvulinin	-7767
importuoj	-7768
ispanijai	-7769
išnagrinė	-7770
kolegomis	-7771
lankstumą	-7772
leidžiami	-7773
malmström	-7774
naujajame	-7775
neteising	-7776
nurodytas	-7777
pagrindus	-7778
paklausos	-7779
pasaulinę	-7780
pastarojo	-7781
pateikiau	-7782
pateikėme	-7783
pavojingų	-7784
pažvelgti	-7785
personalo	-7786
plėtojant	-7787
prievarta	-7788
pripažino	-7789
remdamasi	-7790
sankcijos	-7791
subsidijų	-7792
suderintą	-7793
sudėtingų	-7794
surinkimo	-7795
svarstoma	-7796
techninio	-7797
trumpalai	-7798
užimtumas	-7799
vadovauja	-7800
veiksmams	-7801
vidutinio	-7802
vystomojo	-7803
ypatingas	-7804
įsigalios	-7805
ankstesnio	-7806
apytikriai	-7807
atskirties	-7808
balsuojant	-7809
demokratai	-7810
dvideginio	-7811
efektyvaus	-7812
ekonominei	-7813
elektrinės	-7814
ilgalaikių	-7815
imperialis	-7816
ispanijoje	-7817
komercinių	-7818
komunikate	-7819
konkuruoti	-7820
kreipiuosi	-7821
nukreiptas	-7822
nustatytus	-7823
panaikinta	-7824
partneriai	-7825
pasiektume	-7826
paslaugoms	-7827
priklausys	-7828
prižiūrėti	-7829
reglamentų	-7830
reikalingą	-7831
rinkimuose	-7832
skatinimas	-7833
skirtingas	-7834
stiprinant	-7835
susitikimų	-7836
taisyklėms	-7837
teisingumą	-7838
vairuotojų	-7839
vartotojus	-7840
visuotinio	-7841
visuotinės	-7842
įtvirtinta	-7843
įvairiomis	-7844
afganistane	-7845
atnaujinimo	-7846
baudžiamojo	-7847
finansinius	-7848
integruotos	-7849
moksliniams	-7850
pabrėžiamas	-7851
padariniais	-7852
pakeitimais	-7853
pareikalavo	-7854
partnerystę	-7855
pasirinkimą	-7856
pastangomis	-7857
prieglobstį	-7858
pusiausvyra	-7859
socialiniai	-7860
standartais	-7861
susilaikiau	-7862
susitarimui	-7863
vienbalsiai	-7864
atsinaujinan	-7865
atstovaujama	-7866
demokratinio	-7867
finansavimui	-7868
kategoriškai	-7869
nacionalines	-7870
patvirtinome	-7871
persvarstymo	-7872
plenariniame	-7873
teritorijose	-7874
įsigaliojimo	-7875
biurokratijos	-7876
pagrindinėmis	-7877
pasinaudojant	-7878
plačiajuosčio	-7879
tarptautinėse	-7880
įgyvendinimui	-7881
nepriklausomos	-7882
nusikalstamumu	-7883
administracinės	-7884
cc	-7885
ha	-7886
nė	-7887
¦	-7888
▁	-7889
i	-7890
a	-7891
s	-7892
t	-7893
r	-7894
o	-7895
e	-7896
n	-7897
u	-7898
k	-7899
m	-7900
p	-7901
l	-7902
d	-7903
v	-7904
j	-7905
𐋇	-7906
g	-7907
,	-7908
b	-7909
ų	-7910
y	-7911
ė	-7912
š	-7913
.	-7914
ą	-7915
ž	-7916
į	-7917
ū	-7918
c	-7919
č	-7920
f	-7921
z	-7922
𐊣	-7923
𐊼	-7924
ę	-7925
0	-7926
-	-7927
2	-7928
(	-7929
)	-7930
h	-7931
1	-7932
"	-7933
:	-7934
5	-7935
9	-7936
?	-7937
3	-7938
7	-7939
4	-7940
8	-7941
;	-7942
6	-7943
/	-7944
w	-7945
!	-7946
x	-7947
q	-7948
é	-7949
%	-7950
á	-7951
'	-7952
ö	-7953
è	-7954
í	-7955
ó	-7956
ü	-7957
+	-7958
ş	-7959
ä	-7960
ă	-7961
&	-7962
[	-7963
]	-7964
ń	-7965
ß	-7966
ć	-7967
°	-7968
ø	-7969
ú	-7970
ţ	-7971
à	-7972
ê	-7973
ï	-7974
ķ	-7975
ł	-7976
ň	-7977
ő	-7978
·	-7979
ç	-7980
ñ	-7981
ý	-7982
ż	-7983
_	-7984
ò	-7985
ī	-7986
ľ	-7987
ř	-7988
ś	-7989
̨	-7990
έ	-7991
π	-7992
ρ	-7993
υ	-7994
”	-7995
•	-7996
