<pad>	0
</s>	0
<unk>	0
▁the	-2.86173
,	-3.1497
.	-3.41639
▁of	-3.5227
▁to	-3.61697
▁and	-3.7145
▁in	-3.97209
s	-4.06623
▁a	-4.26
▁that	-4.30232
▁is	-4.31533
▁for	-4.63095
▁I	-4.6862
▁on	-4.82673
▁this	-4.93092
▁we	-4.97509
▁be	-4.98969
▁are	-5.10396
▁	-5.1765
▁European	-5.17878
▁have	-5.1903
▁it	-5.22276
▁not	-5.25235
▁with	-5.28345
▁as	-5.30124
▁The	-5.40909
▁will	-5.45175
▁which	-5.45652
-	-5.46945
ing	-5.47197
'	-5.51136
▁by	-5.51467
▁has	-5.66947
▁-	-5.68374
ed	-5.71533
▁also	-5.85375
▁an	-5.85684
▁(	-5.90135
)	-5.93321
▁would	-5.94817
▁at	-5.96314
▁all	-5.96662
▁Mr	-5.98615
▁Commission	-5.98775
▁from	-6.00284
▁President	-6.02899
▁should	-6.041
▁We	-6.04306
▁our	-6.0515
▁EU	-6.05294
d	-6.05767
▁must	-6.08213
▁Member	-6.12636
▁but	-6.13842
▁Union	-6.15298
ly	-6.21645
▁been	-6.23474
▁States	-6.25272
▁Parliament	-6.25931
▁It	-6.2627
▁you	-6.28159
▁more	-6.28966
▁report	-6.30136
▁can	-6.3021
▁their	-6.30686
▁was	-6.36758
▁Europe	-6.3721
▁or	-6.38293
▁like	-6.38444
▁This	-6.40596
▁very	-6.41405
▁its	-6.41485
▁do	-6.42966
▁In	-6.43802
▁need	-6.4596
▁there	-6.50627
▁these	-6.5069
▁important	-6.525
▁countries	-6.55355
▁they	-6.57931
:	-6.57986
▁Council	-6.58512
▁who	-6.58798
▁one	-6.58813
e	-6.6042
▁people	-6.615
▁so	-6.62086
▁about	-6.64155
▁new	-6.64496
▁other	-6.67001
▁us	-6.69272
▁support	-6.71552
▁time	-6.72257
▁my	-6.73148
▁because	-6.73272
▁policy	-6.75735
▁only	-6.77483
▁what	-6.78395
n	-6.81285
▁am	-6.84685
▁rights	-6.84918
▁out	-6.87041
▁economic	-6.87772
▁work	-6.89232
▁such	-6.90163
▁up	-6.90303
▁between	-6.9127
▁no	-6.92425
▁into	-6.94924
y	-6.95872
▁if	-6.96551
▁make	-6.97046
al	-6.97153
?	-6.97542
▁now	-6.97922
▁take	-6.98979
er	-7.00042
t	-7.00287
c	-7.03103
▁those	-7.03993
▁market	-7.04541
▁when	-7.05682
▁'	-7.06659
▁believe	-7.06767
▁therefore	-7.06903
▁financial	-7.07196
▁citizens	-7.07525
in	-7.0913
▁some	-7.10282
▁against	-7.11657
▁energy	-7.12988
▁social	-7.14154
▁being	-7.15053
▁political	-7.15058
▁them	-7.15628
;	-7.15967
▁many	-7.17621
▁think	-7.18892
▁crisis	-7.18907
▁were	-7.19748
▁than	-7.20488
▁well	-7.20509
▁However	-7.20561
▁made	-7.20683
▁development	-7.21296
r	-7.21673
▁Commissioner	-7.21854
▁way	-7.21858
▁any	-7.21866
▁fact	-7.22136
▁order	-7.25131
▁situation	-7.25875
▁human	-7.25913
▁country	-7.26003
es	-7.27709
▁measures	-7.28586
▁first	-7.31521
▁issue	-7.3184
▁say	-7.31896
▁ensure	-7.32094
▁future	-7.3247
▁A	-7.32476
▁national	-7.32653
p	-7.32713
▁years	-7.333
▁S	-7.33689
▁agreement	-7.34213
▁right	-7.34303
▁over	-7.34878
▁debate	-7.34957
▁just	-7.35723
▁proposal	-7.36567
▁most	-7.36744
u	-7.37086
▁today	-7.37655
▁want	-7.38312
▁public	-7.38589
▁same	-7.38682
▁level	-7.39148
▁good	-7.392
▁use	-7.39515
▁where	-7.40453
m	-7.41199
▁here	-7.41512
▁As	-7.41759
▁under	-7.41775
▁Madam	-7.42027
▁part	-7.42302
▁me	-7.42525
▁see	-7.42711
▁even	-7.42943
▁area	-7.43739
▁possible	-7.43797
▁cannot	-7.4431
▁That	-7.4507
▁re	-7.45684
▁clear	-7.46827
▁world	-7.46873
▁question	-7.47115
▁system	-7.47177
▁international	-7.4734
▁could	-7.47825
▁cooperation	-7.47973
▁know	-7.47988
▁two	-7.48245
▁particular	-7.4896
▁much	-7.49321
▁vote	-7.49566
▁does	-7.49574
▁point	-7.49851
▁year	-7.50808
▁how	-7.50812
▁common	-7.51031
▁protection	-7.51299
▁already	-7.53403
▁said	-7.54635
▁both	-7.54739
▁voted	-7.5481
▁had	-7.54976
▁favour	-7.56691
▁still	-7.56862
▁within	-7.56965
▁resolution	-7.57437
▁Treaty	-7.57454
▁through	-7.58871
b	-7.59171
▁change	-7.59228
▁There	-7.59692
▁your	-7.6037
▁hope	-7.60431
▁security	-7.60704
▁respect	-7.61008
▁writing	-7.62386
ri	-7.62434
▁Committee	-7.62548
▁sector	-7.62923
▁process	-7.62987
▁course	-7.63188
ation	-7.63824
▁own	-7.64071
▁why	-7.64405
▁case	-7.65373
▁too	-7.65487
▁place	-7.65631
▁budget	-7.66039
ar	-7.66043
▁de	-7.66358
▁end	-7.66387
▁law	-7.6642
▁information	-7.66539
▁put	-7.66555
▁able	-7.66555
l	-7.66841
or	-7.67144
▁gentlemen	-7.67301
▁number	-7.68053
▁help	-7.68142
it	-7.68487
▁last	-7.6862
▁thank	-7.68708
▁Group	-7.69539
▁women	-7.69701
▁role	-7.69783
▁view	-7.69965
▁trade	-7.70215
▁particularly	-7.70461
▁rapporteur	-7.70727
▁example	-7.71841
▁action	-7.72693
▁necessary	-7.72866
▁problem	-7.7436
▁without	-7.74892
▁long	-7.75142
▁regard	-7.75508
ic	-7.76628
a	-7.76804
se	-7.76965
▁taken	-7.76976
ion	-7.7714
▁issues	-7.77403
▁Lisbon	-7.78068
▁means	-7.78196
▁un	-7.78472
▁climate	-7.7853
▁problems	-7.79464
i	-7.79551
▁areas	-7.80791
▁legal	-7.8119
▁better	-7.81783
▁global	-7.81834
g	-7.82089
▁he	-7.8214
▁needs	-7.82419
▁strategy	-7.82717
▁behalf	-7.82903
re	-7.83022
▁agree	-7.83257
▁Mrs	-7.83616
▁may	-7.83651
▁For	-7.83838
▁his	-7.83891
o	-7.83903
▁welcome	-7.84923
en	-7.85707
▁If	-7.87241
▁health	-7.87604
▁ladies	-7.87698
▁give	-7.87916
▁rules	-7.87943
▁current	-7.87945
h	-7.89083
▁framework	-7.89566
th	-7.89716
ers	-7.89808
▁however	-7.90005
ur	-7.9015
▁set	-7.90361
▁legislation	-7.90592
▁institutions	-7.90939
le	-7.91174
▁including	-7.91224
▁different	-7.92078
▁continue	-7.92156
▁access	-7.923
▁terms	-7.92325
▁again	-7.92405
▁next	-7.92472
▁directive	-7.93133
▁given	-7.93612
st	-7.93871
able	-7.93957
▁come	-7.94066
▁far	-7.94143
▁services	-7.94231
▁increase	-7.94534
▁provide	-7.94586
▁approach	-7.95348
▁result	-7.95389
▁whether	-7.9557
▁further	-7.9572
▁before	-7.9575
▁great	-7.95755
▁p	-7.96213
▁since	-7.96283
▁decision	-7.96547
▁economy	-7.96644
▁transport	-7.97102
▁adopted	-7.97609
an	-7.97846
▁food	-7.9892
▁matter	-7.98958
▁State	-7.99387
ity	-7.99721
▁Presidency	-7.99798
ch	-8.00385
▁resources	-8.00419
▁fundamental	-8.00649
▁G	-8.01073
▁regulation	-8.01134
▁products	-8.01529
▁after	-8.01765
▁position	-8.01859
▁progress	-8.01943
▁then	-8.02404
il	-8.02608
▁account	-8.02673
▁authorities	-8.0291
▁policies	-8.0307
▁effective	-8.03669
▁especially	-8.03803
▁conditions	-8.04464
ra	-8.04642
▁certain	-8.04659
▁towards	-8.04765
▁basis	-8.05451
▁opportunity	-8.05701
on	-8.06244
▁present	-8.06489
▁importance	-8.06591
▁E	-8.06725
▁done	-8.06783
▁forward	-8.06847
▁high	-8.07046
▁opinion	-8.0724
▁real	-8.07697
ment	-8.07765
DE	-8.07982
▁What	-8.08214
ro	-8.08251
▁Members	-8.08484
▁during	-8.0849
▁going	-8.08597
et	-8.08681
▁working	-8.08854
▁proposals	-8.09294
▁freedom	-8.09831
▁million	-8.09991
▁Community	-8.10087
▁become	-8.10113
▁third	-8.10373
▁aid	-8.10381
k	-8.10642
f	-8.10855
▁United	-8.10898
▁C	-8.10942
▁implementation	-8.11149
▁EUR	-8.11448
▁f	-8.11562
▁together	-8.11992
▁safety	-8.1212
▁subject	-8.12205
▁workers	-8.1232
▁used	-8.12346
▁negotiations	-8.12415
ive	-8.12995
▁specific	-8.13017
▁state	-8.13187
▁greater	-8.13188
▁three	-8.1326
▁region	-8.13262
▁ask	-8.13675
▁small	-8.13836
▁find	-8.13998
at	-8.14467
▁call	-8.14497
▁essential	-8.14837
li	-8.14931
▁impact	-8.1594
▁serious	-8.16126
▁every	-8.16241
ent	-8.16654
▁funds	-8.16713
▁based	-8.17427
▁House	-8.17574
▁go	-8.17593
▁growth	-8.17618
▁allow	-8.17796
▁On	-8.17975
▁really	-8.17977
▁wish	-8.1805
▁attention	-8.18195
▁hand	-8.18593
▁few	-8.18678
▁industry	-8.18744
▁efforts	-8.1881
ies	-8.18817
▁children	-8.18858
▁At	-8.19077
▁bring	-8.19078
▁whole	-8.19265
▁achieve	-8.19569
▁free	-8.19778
▁major	-8.20125
▁data	-8.20544
▁responsibility	-8.20583
▁research	-8.20815
z	-8.20917
▁look	-8.21097
▁democracy	-8.21359
ou	-8.21418
▁did	-8.21493
C	-8.21782
▁while	-8.22102
▁internal	-8.22417
▁reason	-8.22561
▁environmental	-8.22694
▁step	-8.22794
▁principle	-8.22858
▁back	-8.23113
▁clearly	-8.23277
el	-8.24188
▁making	-8.24676
ir	-8.24983
▁society	-8.25131
▁consider	-8.25173
▁down	-8.25632
▁These	-8.25635
▁standards	-8.2568
▁another	-8.2576
▁difficult	-8.25842
▁F	-8.26237
▁second	-8.27183
la	-8.27487
▁get	-8.27697
▁positive	-8.27734
▁consumers	-8.27822
▁deal	-8.27835
▁interests	-8.28336
▁They	-8.28818
▁create	-8.28924
▁power	-8.29088
▁taking	-8.2922
▁programme	-8.29276
▁something	-8.29601
▁money	-8.29875
▁regions	-8.29967
2	-8.30343
▁least	-8.3043
▁proposed	-8.30568
▁education	-8.30831
▁agricultural	-8.31113
▁general	-8.31216
▁group	-8.3148
▁improve	-8.31554
▁democratic	-8.31766
▁life	-8.31803
▁always	-8.32041
▁force	-8.32155
ul	-8.32267
▁Russia	-8.32402
▁large	-8.32406
▁P	-8.33147
▁employment	-8.33158
▁companies	-8.33527
as	-8.33548
ce	-8.34443
▁quality	-8.34872
▁once	-8.351
▁key	-8.3528
▁euro	-8.35347
▁fully	-8.3575
▁recent	-8.35755
▁production	-8.35994
▁jobs	-8.36327
▁concerned	-8.36434
▁environment	-8.36501
ting	-8.36553
▁various	-8.36769
▁each	-8.36796
▁full	-8.36857
▁period	-8.37111
▁To	-8.37599
▁Therefore	-8.37958
▁itself	-8.37981
▁agreements	-8.38073
▁solution	-8.38084
▁risk	-8.38204
▁objectives	-8.38293
A	-8.38416
ate	-8.38635
▁best	-8.3894
▁control	-8.39424
▁g	-8.3947
est	-8.39699
▁fight	-8.39881
▁things	-8.40255
▁main	-8.40264
▁sustainable	-8.40478
▁strong	-8.40846
▁less	-8.40897
▁government	-8.41084
S	-8.41105
▁T	-8.41341
▁concerns	-8.41493
▁developing	-8.41602
▁context	-8.41756
▁amendments	-8.42282
▁relations	-8.42707
▁yet	-8.42789
▁words	-8.43254
I	-8.43407
▁Government	-8.43761
▁groups	-8.44092
ter	-8.4427
▁package	-8.44517
▁often	-8.44985
▁act	-8.45036
um	-8.45038
▁significant	-8.45082
▁single	-8.45457
▁initiative	-8.45487
▁regional	-8.45532
▁having	-8.45604
▁Directive	-8.45629
▁dialogue	-8.45952
▁solidarity	-8.46477
▁currently	-8.46533
▁among	-8.46816
ne	-8.47253
▁rather	-8.47307
te	-8.47504
▁form	-8.47707
▁c	-8.47894
8	-8.48541
▁lack	-8.48789
▁open	-8.48867
▁promote	-8.48935
▁So	-8.48946
▁systems	-8.49045
▁involved	-8.49119
▁management	-8.49247
▁following	-8.49276
▁results	-8.49312
▁non	-8.49737
▁actually	-8.49805
▁aim	-8.49817
▁tax	-8.49952
▁start	-8.50132
▁response	-8.50176
lo	-8.50301
▁understand	-8.50514
▁interest	-8.50648
P	-8.50654
▁compromise	-8.50776
▁local	-8.50828
▁text	-8.50891
▁With	-8.50906
▁population	-8.50933
▁markets	-8.51262
▁pay	-8.51265
▁young	-8.51332
1	-8.51722
▁states	-8.51816
▁plan	-8.5192
▁competition	-8.52012
▁con	-8.52188
▁labour	-8.5233
▁objective	-8.52855
▁poverty	-8.52916
▁transparency	-8.52943
ant	-8.53032
▁Fund	-8.53057
un	-8.53324
▁procedure	-8.53395
▁funding	-8.53441
▁legislative	-8.53641
▁play	-8.53697
▁challenges	-8.53764
▁majority	-8.53768
▁appropriate	-8.53802
ary	-8.53972
▁Let	-8.53993
▁reform	-8.54037
0	-8.54235
▁ago	-8.54512
▁Court	-8.54559
▁available	-8.54777
▁mentioned	-8.54898
▁cohesion	-8.54913
▁costs	-8.55013
▁commitment	-8.55055
▁her	-8.55151
▁extremely	-8.55225
5	-8.55254
ut	-8.5636
▁protect	-8.56716
▁concerning	-8.56847
▁dis	-8.56891
im	-8.57013
term	-8.57021
▁co	-8.57163
▁let	-8.57318
▁points	-8.57435
ia	-8.57802
▁needed	-8.58034
▁projects	-8.58113
▁investment	-8.58395
▁responsible	-8.58435
▁emissions	-8.58644
▁simply	-8.58689
▁principles	-8.59077
▁programmes	-8.59267
▁B	-8.59547
▁priority	-8.59635
▁assistance	-8.5969
w	-8.59728
▁quit	-8.59864
▁move	-8.5997
▁2020	-8.60381
▁cases	-8.60459
E	-8.60554
▁potential	-8.60604
▁reduce	-8.60631
▁guarantee	-8.60659
▁activities	-8.6069
▁individual	-8.60705
▁remain	-8.60836
▁project	-8.60963
▁prevent	-8.61091
▁China	-8.61096
▁benefit	-8.61127
▁nuclear	-8.61299
ta	-8.61343
▁short	-8.61369
ated	-8.61414
▁3	-8.61533
▁months	-8.61541
▁st	-8.6159
▁concern	-8.61867
▁due	-8.61882
▁regarding	-8.61964
▁billion	-8.62011
ol	-8.62039
ism	-8.62092
▁Finally	-8.62968
FR	-8.63339
9	-8.63346
▁decisions	-8.63661
▁instruments	-8.63686
▁several	-8.63739
▁aware	-8.63781
▁review	-8.64007
▁business	-8.64017
ness	-8.64076
us	-8.64365
▁kind	-8.64396
▁1	-8.65242
▁civil	-8.65546
ance	-8.65843
▁thing	-8.6595
ist	-8.66
tion	-8.66257
▁innovation	-8.66393
▁fellow	-8.66577
▁shall	-8.66582
▁meeting	-8.66612
▁values	-8.67192
▁certainly	-8.67224
▁integration	-8.67315
age	-8.6754
7	-8.67642
po	-8.67668
PL	-8.68104
▁enable	-8.68108
▁per	-8.68173
▁M	-8.68278
ge	-8.68338
▁De	-8.68716
▁addition	-8.69074
▁provided	-8.69202
▁true	-8.69309
▁parties	-8.69503
▁include	-8.69528
▁achieved	-8.69819
ating	-8.69911
ig	-8.69932
▁US	-8.70022
▁day	-8.70095
M	-8.70187
▁pleased	-8.70293
▁gas	-8.70362
▁success	-8.70564
▁enough	-8.70609
▁consumer	-8.70639
▁increasing	-8.7082
▁amendment	-8.71062
6	-8.71065
ot	-8.71116
▁questions	-8.71189
▁farmers	-8.71248
▁e	-8.71273
▁But	-8.71288
▁off	-8.71426
▁Affairs	-8.71472
▁foreign	-8.71473
▁2009	-8.7163
▁creation	-8.71762
3	-8.72029
▁19	-8.72087
▁Turkey	-8.72215
▁4	-8.72247
▁D	-8.7252
▁face	-8.72534
▁road	-8.72539
em	-8.72591
▁themselves	-8.72669
ted	-8.72743
is	-8.72761
▁prices	-8.72887
▁crucial	-8.73028
▁violence	-8.73224
▁indeed	-8.73262
▁encourage	-8.73385
▁joint	-8.7344
▁final	-8.73583
▁doing	-8.73794
ti	-8.73989
▁b	-8.74019
▁stability	-8.74418
▁share	-8.74475
▁increased	-8.74496
▁express	-8.74645
▁consequences	-8.74688
to	-8.74816
▁develop	-8.74889
4	-8.75008
▁cross	-8.75041
▁sure	-8.75093
▁000	-8.75176
▁speak	-8.75195
ally	-8.75259
▁congratulate	-8.75341
▁moment	-8.75493
▁existing	-8.75573
▁Rights	-8.75642
▁meet	-8.75643
▁rule	-8.75694
▁address	-8.75771
▁idea	-8.76021
▁10	-8.76292
▁reduction	-8.76349
▁instrument	-8.76376
▁efficiency	-8.76398
ver	-8.76585
D	-8.76672
▁avoid	-8.76857
▁fair	-8.769
▁field	-8.76935
▁lead	-8.77247
▁reasons	-8.77363
▁actions	-8.77388
▁relation	-8.77579
am	-8.77587
▁term	-8.77657
▁feel	-8.77667
id	-8.77715
▁Thank	-8.77743
▁matters	-8.77937
▁contribution	-8.78009
▁special	-8.78078
▁answer	-8.78096
▁members	-8.78183
▁medium	-8.78189
▁above	-8.78235
up	-8.7826
▁No	-8.78453
▁past	-8.78674
▁value	-8.78809
▁requirements	-8.78814
bo	-8.78841
▁excellent	-8.78949
▁Republic	-8.78984
▁mention	-8.7919
▁focus	-8.79209
▁soon	-8.79335
▁cost	-8.79566
▁longer	-8.79728
▁changes	-8.79764
▁seen	-8.79769
▁Minutes	-8.79784
▁water	-8.79994
▁R	-8.80074
▁strengthen	-8.80098
ad	-8.80146
ma	-8.80164
▁vital	-8.80239
▁K	-8.80297
▁elections	-8.80698
▁application	-8.80953
no	-8.80989
▁opportunities	-8.81262
▁regards	-8.81325
▁governments	-8.81383
▁comes	-8.81871
▁equal	-8.82028
▁times	-8.82082
op	-8.82478
▁everyone	-8.82492
▁Minister	-8.8251
▁voting	-8.82548
▁One	-8.8269
▁external	-8.82799
IT	-8.82808
▁adopt	-8.82864
▁draw	-8.82887
▁expect	-8.82965
▁show	-8.8297
▁contribute	-8.83035
▁mind	-8.83057
▁ensuring	-8.83124
▁procedures	-8.83201
▁establish	-8.83287
▁line	-8.8333
▁aspects	-8.83356
▁Article	-8.83722
▁accept	-8.83723
▁illegal	-8.83869
ve	-8.84087
▁priorities	-8.84107
▁assessment	-8.84197
ised	-8.842
▁others	-8.84221
▁communication	-8.84287
▁agreed	-8.84708
▁Ireland	-8.84837
▁criteria	-8.85094
▁peace	-8.85107
▁job	-8.85151
▁apply	-8.8523
▁7	-8.85378
▁across	-8.8539
▁governance	-8.85467
▁businesses	-8.85515
▁provisions	-8.85518
F	-8.85583
▁car	-8.85622
om	-8.85755
▁victims	-8.85777
▁stress	-8.85807
▁might	-8.85876
▁week	-8.86057
▁mean	-8.86113
▁Our	-8.86196
▁enterprises	-8.86205
▁My	-8.86245
▁around	-8.86265
de	-8.86319
▁draft	-8.86582
▁regulations	-8.86668
▁5	-8.86805
▁agenda	-8.87067
▁technical	-8.87067
▁discussion	-8.87401
▁partnership	-8.87447
ci	-8.87501
▁balance	-8.87588
ous	-8.87651
▁close	-8.87657
▁practice	-8.87755
▁adoption	-8.88183
▁little	-8.88277
▁demand	-8.88298
pe	-8.88324
▁H	-8.88428
▁implement	-8.88589
▁using	-8.88926
▁living	-8.88964
▁item	-8.89085
▁found	-8.89177
▁2007	-8.89318
▁W	-8.89433
R	-8.89526
ha	-8.89763
▁strategic	-8.89888
▁organisations	-8.90094
▁private	-8.90347
▁Development	-8.90393
▁relating	-8.90469
▁competitiveness	-8.90482
▁keep	-8.90714
▁media	-8.90809
▁required	-8.90959
▁natural	-8.90973
▁partners	-8.91011
ag	-8.91088
▁regime	-8.91368
▁supported	-8.91598
▁UN	-8.91607
▁additional	-8.91667
▁carried	-8.91682
▁colleagues	-8.91793
▁perhaps	-8.91958
▁respond	-8.92274
▁Agreement	-8.92512
▁thus	-8.92632
▁agriculture	-8.9283
▁supply	-8.9283
▁nothing	-8.92917
▁care	-8.92961
▁talking	-8.93213
▁sitting	-8.93276
▁pressure	-8.93316
ty	-8.93327
▁movement	-8.93349
ac	-8.93379
▁basic	-8.93494
T	-8.93604
▁experience	-8.93638
▁Africa	-8.9367
▁waste	-8.93701
less	-8.93831
isation	-8.94038
▁solutions	-8.94054
ise	-8.94194
▁effect	-8.94246
▁borders	-8.9448
ck	-8.94559
▁model	-8.9472
▁throughout	-8.94805
▁Roma	-8.9488
▁cultural	-8.94884
vi	-8.94994
▁d	-8.95092
tra	-8.95225
▁quickly	-8.95373
▁tomorrow	-8.95452
▁20	-8.95487
▁request	-8.95606
▁When	-8.95862
▁live	-8.96126
▁training	-8.96155
▁committee	-8.96397
▁All	-8.96695
ial	-8.9688
▁Re	-8.9692
▁infrastructure	-8.97143
▁message	-8.97267
▁initiatives	-8.97365
▁Secondly	-8.97561
▁motion	-8.97651
▁although	-8.97768
▁Greece	-8.9781
ow	-8.97951
▁financing	-8.97974
▁service	-8.98
▁though	-8.98005
▁absolutely	-8.98158
▁community	-8.98187
▁discrimination	-8.98346
▁V	-8.98415
▁accession	-8.98488
▁huge	-8.98608
▁coming	-8.98611
ian	-8.98797
▁she	-8.99125
j	-8.99259
▁treatment	-8.99297
▁monitoring	-8.99387
▁immigration	-8.99413
▁never	-8.99419
▁tell	-8.99428
▁International	-8.99456
▁until	-8.99541
▁capital	-8.99614
▁6	-8.99647
▁direction	-8.99776
▁reach	-8.99801
▁price	-8.99895
▁makes	-8.99897
▁everything	-8.99925
va	-9.00038
▁namely	-9.00088
▁ambitious	-9.00139
▁implemented	-9.00207
▁home	-9.00486
▁return	-9.00493
▁saying	-9.00713
▁affected	-9.00939
▁stage	-9.00981
▁ever	-9.01026
▁effects	-9.01171
▁12	-9.01177
▁coordination	-9.01302
▁fund	-9.0147
▁creating	-9.01476
me	-9.01546
▁low	-9.01635
▁talk	-9.01649
▁fishing	-9.01678
▁aimed	-9.01859
di	-9.01922
▁hard	-9.01976
ns	-9.01979
x	-9.02058
O	-9.02425
act	-9.02476
▁military	-9.02479
▁conflict	-9.02586
▁document	-9.02674
▁seems	-9.0293
ling	-9.03156
▁9	-9.03179
▁reached	-9.03213
▁humanitarian	-9.03271
▁providing	-9.03271
▁pre	-9.03379
▁exchange	-9.03424
▁criminal	-9.03448
▁emphasise	-9.03695
▁sense	-9.03759
▁levels	-9.03844
▁powers	-9.03867
com	-9.03928
▁leave	-9.03936
▁remind	-9.04066
▁stop	-9.04132
our	-9.04308
▁asked	-9.04309
▁lot	-9.04352
sized	-9.04675
▁Regulation	-9.04696
▁terrorism	-9.04797
▁outside	-9.04841
▁t	-9.04884
pa	-9.05331
▁challenge	-9.05344
▁represent	-9.05348
ll	-9.05349
▁direct	-9.05386
▁held	-9.05416
▁combat	-9.05449
▁ourselves	-9.05461
▁improving	-9.05461
▁list	-9.05468
▁effort	-9.05665
▁mechanism	-9.05944
▁add	-9.06438
PT	-9.06594
▁reports	-9.06633
ising	-9.06646
▁goods	-9.06813
sh	-9.06814
▁credit	-9.06853
▁amount	-9.06969
▁closed	-9.07016
out	-9.07034
ES	-9.07164
▁And	-9.07229
▁pro	-9.07376
▁8	-9.07394
▁summit	-9.07469
▁previous	-9.075
▁thanks	-9.07569
▁relevant	-9.07653
mi	-9.07699
▁included	-9.07717
RO	-9.07772
▁measure	-9.07853
▁offer	-9.07885
▁promoting	-9.08209
▁light	-9.08255
▁called	-9.08276
▁French	-9.08395
▁rise	-9.08457
The	-9.08491
▁recently	-9.08527
▁men	-9.08648
side	-9.08872
▁effectively	-9.0901
▁poor	-9.0912
▁efficient	-9.09276
▁five	-9.09596
▁independent	-9.09855
▁December	-9.09895
▁origin	-9.1003
▁justice	-9.10178
▁Of	-9.10211
▁culture	-9.10226
▁possibility	-9.10321
border	-9.10562
▁war	-9.1058
▁budgetary	-9.10641
▁four	-9.10665
▁nature	-9.10702
▁Democrats	-9.10939
▁visa	-9.11162
▁Today	-9.11185
▁reality	-9.11225
▁produce	-9.11269
▁completely	-9.11379
▁South	-9.11388
v	-9.11516
▁lives	-9.11523
B	-9.11605
▁along	-9.11646
▁almost	-9.11658
cu	-9.11668
ence	-9.11728
▁according	-9.11794
20	-9.11849
▁burden	-9.1185
▁send	-9.11866
▁sectors	-9.11915
▁fisheries	-9.12284
and	-9.12326
▁limit	-9.12455
▁inter	-9.12463
▁personal	-9.12878
ities	-9.13011
▁try	-9.13146
▁entire	-9.13204
▁recognise	-9.13219
ry	-9.13229
▁proper	-9.13247
mo	-9.13251
▁him	-9.13453
▁family	-9.1355
▁Now	-9.13585
▁active	-9.13655
fe	-9.13815
▁agencies	-9.13844
▁ex	-9.13856
▁benefits	-9.13865
▁Strategy	-9.13943
▁decided	-9.13946
▁presented	-9.14213
▁Romania	-9.14216
▁air	-9.14224
▁strengthening	-9.14234
ight	-9.14589
▁conclusion	-9.14622
▁receive	-9.14648
▁applied	-9.14832
▁statement	-9.14959
▁established	-9.14983
▁reducing	-9.1503
▁doubt	-9.15031
▁administrative	-9.1513
Office	-9.15161
▁comprehensive	-9.15229
▁rate	-9.15306
▁turn	-9.15354
▁received	-9.15364
▁left	-9.15379
▁Ukraine	-9.15402
▁defend	-9.15461
▁developed	-9.15524
tic	-9.15669
▁Czech	-9.15729
▁task	-9.15739
▁targets	-9.158
▁reforms	-9.15914
▁Bank	-9.1603
ors	-9.16162
▁remains	-9.16208
▁Internet	-9.16382
▁heard	-9.16386
▁six	-9.16432
▁committed	-9.16691
▁combating	-9.16799
▁crime	-9.16915
ations	-9.17011
▁follow	-9.17143
▁J	-9.1736
▁prepared	-9.17394
▁N	-9.17488
▁sea	-9.17581
▁technology	-9.17598
▁either	-9.17608
▁Convention	-9.17752
▁brought	-9.17854
▁O	-9.17967
▁finally	-9.18369
▁implementing	-9.18416
▁border	-9.18666
fi	-9.18674
▁provides	-9.18692
▁capacity	-9.18703
▁supporting	-9.18752
▁Firstly	-9.19052
▁statements	-9.19064
▁knowledge	-9.1914
▁equality	-9.19142
▁death	-9.19321
▁events	-9.19384
▁calls	-9.19396
▁ban	-9.19422
▁He	-9.19424
▁self	-9.19556
ill	-9.19567
▁name	-9.19571
▁met	-9.19584
▁provision	-9.19948
▁facing	-9.19973
▁discuss	-9.20064
▁shown	-9.20288
ard	-9.20323
▁2	-9.20377
▁Furthermore	-9.20391
▁renewable	-9.20444
▁post	-9.20498
ell	-9.2054
▁giving	-9.20549
▁successful	-9.20575
▁cause	-9.20622
▁Hungarian	-9.20654
▁unacceptable	-9.20707
EC	-9.20744
▁days	-9.20784
▁v	-9.20906
▁behind	-9.20917
▁May	-9.20938
▁2008	-9.20976
▁unemployment	-9.21344
▁side	-9.21618
▁cut	-9.21737
▁anti	-9.21749
▁tackle	-9.21871
▁oil	-9.21892
▁parliamentary	-9.21906
▁steps	-9.21957
▁rural	-9.21981
▁raised	-9.22046
▁tabled	-9.22302
▁requires	-9.22802
▁consideration	-9.22842
▁stand	-9.22947
▁rest	-9.23046
▁created	-9.23323
▁concrete	-9.23373
▁r	-9.2342
▁expressed	-9.2342
led	-9.23469
▁Unfortunately	-9.23589
▁technologies	-9.23698
▁North	-9.23713
▁minimum	-9.23752
▁27	-9.23786
▁ma	-9.23897
▁urge	-9.23904
▁conclude	-9.24008
▁alternative	-9.24023
▁join	-9.24042
ure	-9.24082
ts	-9.24088
ions	-9.24163
▁representatives	-9.24204
▁sh	-9.24214
▁raise	-9.24227
ak	-9.24392
▁maintain	-9.24589
▁remember	-9.24843
▁represents	-9.24913
▁cover	-9.2502
▁similar	-9.25062
▁introduce	-9.25144
▁introduction	-9.25173
▁land	-9.25199
▁Barroso	-9.25393
▁caused	-9.25471
▁economies	-9.25503
▁deliver	-9.25669
ud	-9.25778
▁upon	-9.2578
▁took	-9.25789
▁2006	-9.25876
▁debt	-9.26059
▁asylum	-9.26112
▁practical	-9.26167
▁L	-9.26267
co	-9.26374
▁choice	-9.26501
▁banks	-9.26657
▁sources	-9.26663
▁An	-9.26664
ap	-9.26692
rs	-9.26711
▁scope	-9.26725
▁competitive	-9.2681
▁recovery	-9.26917
▁activity	-9.26953
▁France	-9.27064
▁hold	-9.27092
▁Social	-9.2715
▁away	-9.27192
▁Economic	-9.27229
▁Party	-9.2725
▁content	-9.27342
▁confidence	-9.27454
Applause	-9.2751
▁damage	-9.27567
▁closely	-9.27637
▁discussions	-9.27686
▁producers	-9.27749
▁Mediterranean	-9.27881
▁difficulties	-9.27983
▁correct	-9.27989
▁invest	-9.28008
▁June	-9.28018
go	-9.2804
▁speech	-9.2806
▁extent	-9.28188
▁higher	-9.28209
▁mobility	-9.28359
▁fall	-9.28442
▁colleague	-9.28482
na	-9.28554
ip	-9.28578
▁delay	-9.28586
▁cr	-9.28597
▁child	-9.28643
▁transparent	-9.28814
▁negative	-9.28985
▁begin	-9.29036
▁trying	-9.29133
▁Italy	-9.29165
▁l	-9.29185
N	-9.2921
▁instead	-9.29214
▁decide	-9.29268
▁industrial	-9.29314
▁influence	-9.29329
▁beyond	-9.29386
ful	-9.29507
ical	-9.29674
▁achieving	-9.29904
▁scientific	-9.29962
▁commitments	-9.29967
▁sign	-9.29972
▁Human	-9.30077
▁unfortunately	-9.30181
▁Schengen	-9.30251
▁product	-9.30351
▁circumstances	-9.30425
▁despite	-9.30526
▁SMEs	-9.30683
▁Sea	-9.30715
▁Nations	-9.30728
ni	-9.30802
▁rapporteurs	-9.30809
▁voice	-9.3089
all	-9.30905
▁Vice	-9.31027
▁Central	-9.31065
▁perspective	-9.31181
▁2011	-9.3123
▁carry	-9.31248
hi	-9.3125
▁old	-9.31332
▁precisely	-9.3137
NL	-9.31433
▁total	-9.31438
▁mechanisms	-9.31552
▁aims	-9.31608
nt	-9.31663
▁mutual	-9.31767
▁discussed	-9.31842
▁11	-9.31862
▁mandate	-9.31885
▁establishing	-9.32152
▁defence	-9.32357
▁People	-9.32357
▁Germany	-9.32379
▁learn	-9.32414
▁Agency	-9.32416
▁age	-9.32596
President	-9.32621
▁Amendment	-9.32712
▁central	-9.32713
▁increasingly	-9.32785
he	-9.3287
▁serve	-9.33129
▁Irish	-9.33189
▁CO	-9.33232
▁duty	-9.33248
▁connection	-9.33248
▁target	-9.33253
▁history	-9.33486
▁Moreover	-9.33548
▁trust	-9.33606
▁beginning	-9.33795
▁press	-9.33874
▁happen	-9.33903
▁Justice	-9.33909
▁opposition	-9.33966
▁imp	-9.34066
▁enter	-9.34088
European	-9.3419
▁en	-9.34196
▁broad	-9.34236
▁practices	-9.34252
▁exist	-9.34255
▁plans	-9.34271
▁First	-9.34309
▁accordance	-9.34329
L	-9.3439
▁paid	-9.34508
▁weeks	-9.34535
▁wrong	-9.34689
▁status	-9.3475
▁half	-9.34811
▁purpose	-9.34813
▁Euro	-9.3485
▁shows	-9.34865
▁reference	-9.34882
▁Georgia	-9.34932
▁attempt	-9.35062
▁considered	-9.35549
▁income	-9.35581
▁Poland	-9.35608
▁strongly	-9.35626
▁calling	-9.35781
▁Iran	-9.35786
▁properly	-9.35789
ring	-9.35843
▁refer	-9.35859
▁forget	-9.35972
▁integrated	-9.36027
ning	-9.36206
▁participation	-9.36275
▁early	-9.36276
ine	-9.36298
▁Belarus	-9.36324
ever	-9.36328
▁recommendations	-9.36471
str	-9.36475
▁date	-9.36519
▁annual	-9.36543
▁Ladies	-9.36707
▁relationship	-9.36966
▁allowed	-9.36979
▁explain	-9.37016
▁note	-9.37044
▁fuel	-9.37078
▁safeguard	-9.37156
▁highly	-9.37188
▁balanced	-9.37214
ex	-9.37265
▁wanted	-9.37416
▁complete	-9.37516
▁migration	-9.37575
▁improved	-9.37624
▁World	-9.37637
▁threat	-9.37713
G	-9.37721
▁disaster	-9.38006
ph	-9.38021
▁forces	-9.38191
▁Copenhagen	-9.382
▁2010	-9.38259
▁overall	-9.38269
▁sufficient	-9.38314
▁directly	-9.3835
▁independence	-9.38639
one	-9.3871
▁Market	-9.38765
▁bodies	-9.38828
ious	-9.38894
spite	-9.38991
▁highlight	-9.39041
av	-9.3908
▁urgent	-9.39082
▁Action	-9.39108
▁specifically	-9.39137
ice	-9.39165
▁travel	-9.39195
▁15	-9.39211
▁intervention	-9.39334
▁sanctions	-9.39344
▁14	-9.39898
▁visit	-9.39907
vis	-9.39919
▁bilateral	-9.39972
▁Croatia	-9.40034
▁concept	-9.40034
▁looking	-9.40058
▁paragraph	-9.40098
▁MEPs	-9.40112
▁How	-9.40455
▁reading	-9.40514
▁approved	-9.4052
ven	-9.40637
ba	-9.40664
▁Although	-9.40674
▁read	-9.40789
the	-9.40794
▁delegation	-9.40803
▁conclusions	-9.40818
ev	-9.40934
▁growing	-9.40987
▁discussing	-9.40996
▁signal	-9.40999
▁dimension	-9.41125
▁transfer	-9.41185
▁manner	-9.41324
▁consultation	-9.4136
▁nor	-9.41364
▁discharge	-9.41384
▁require	-9.41385
▁useful	-9.41459
▁risks	-9.41471
▁campaign	-9.41513
▁di	-9.41533
▁setting	-9.41556
▁man	-9.41648
man	-9.41658
▁secure	-9.41838
vo	-9.41842
▁intended	-9.41883
▁mission	-9.41959
▁dealing	-9.41977
▁March	-9.42058
▁building	-9.42314
▁export	-9.42439
▁seriously	-9.42474
tor	-9.4248
▁monitor	-9.4253
▁professional	-9.42622
▁gender	-9.42686
sa	-9.42689
▁minorities	-9.42691
▁member	-9.42888
▁propose	-9.42996
▁facilitate	-9.43278
▁forms	-9.43329
▁Brussels	-9.43344
▁Israel	-9.43412
ern	-9.43626
▁build	-9.43653
▁African	-9.43711
▁fear	-9.43767
00	-9.43803
nd	-9.43845
▁added	-9.43953
▁takes	-9.44058
▁establishment	-9.44168
▁goes	-9.44193
▁assess	-9.44238
▁language	-9.44446
▁chance	-9.44472
▁led	-9.44567
▁elements	-9.44608
con	-9.44642
ke	-9.44715
▁outcome	-9.4474
▁alone	-9.44741
called	-9.44757
▁expression	-9.44772
▁organisation	-9.44793
▁pass	-9.44809
▁guidelines	-9.44873
ability	-9.44899
ov	-9.44928
▁Kosovo	-9.4494
▁Trade	-9.45144
▁convinced	-9.452
▁includes	-9.45388
cl	-9.4542
▁sp	-9.4564
▁referendum	-9.4568
▁Serbia	-9.45816
▁reduced	-9.4582
▁failure	-9.45824
oc	-9.45839
▁leading	-9.459
▁East	-9.45943
▁Programme	-9.45951
▁obligations	-9.45982
▁families	-9.46019
▁abuse	-9.46092
▁test	-9.46188
▁safe	-9.46204
▁party	-9.46206
ish	-9.46275
▁regret	-9.46358
▁recognition	-9.46426
▁finance	-9.46538
▁institutional	-9.46817
be	-9.46986
▁Ma	-9.47018
▁adequate	-9.47047
▁appeal	-9.47109
▁vehicles	-9.4745
▁German	-9.47564
▁structural	-9.47596
tu	-9.47648
▁speaker	-9.48015
▁differences	-9.48034
▁passengers	-9.48042
▁sub	-9.48057
▁commercial	-9.48142
▁gain	-9.48143
▁Russian	-9.48155
▁January	-9.48211
▁rightly	-9.48234
ign	-9.48241
▁maritime	-9.48281
▁police	-9.48419
▁introduced	-9.48459
▁aspect	-9.4853
ber	-9.48644
▁event	-9.48652
▁union	-9.48835
▁Charter	-9.48837
▁thought	-9.48861
▁topic	-9.48901
▁goal	-9.4895
land	-9.49226
▁stated	-9.49227
▁Since	-9.49326
▁deep	-9.49329
▁firm	-9.49338
H	-9.49371
▁After	-9.49466
▁limited	-9.49518
▁ground	-9.49533
bu	-9.49544
▁type	-9.4967
▁vulnerable	-9.49677
▁regulatory	-9.49701
▁India	-9.49737
▁Service	-9.49747
▁comments	-9.49815
▁instance	-9.49819
▁person	-9.49845
▁Some	-9.49861
▁hear	-9.49931
▁managed	-9.5009
▁standard	-9.50097
▁Prime	-9.50099
▁constructive	-9.50247
▁documents	-9.5028
▁heart	-9.50287
▁study	-9.50595
iv	-9.50772
▁binding	-9.50808
▁w	-9.50827
▁High	-9.50879
▁Ca	-9.50928
▁animal	-9.50965
▁obviously	-9.51046
ite	-9.51103
▁comp	-9.51126
▁network	-9.51182
▁Bulgaria	-9.51247
▁gives	-9.51301
▁method	-9.51334
▁author	-9.51378
▁18	-9.51469
▁becoming	-9.51598
▁known	-9.51631
▁related	-9.51826
▁protecting	-9.51884
▁La	-9.51921
▁13	-9.52262
5%	-9.52377
▁consensus	-9.52384
▁Security	-9.52457
▁Indeed	-9.52458
qu	-9.52464
▁linked	-9.52513
▁office	-9.52621
au	-9.52683
EL	-9.52725
▁asking	-9.52922
▁prevention	-9.52924
▁simple	-9.52964
▁critical	-9.53037
▁domestic	-9.53037
▁improvement	-9.53414
bi	-9.53448
▁br	-9.53458
▁leaders	-9.53597
▁goals	-9.53648
▁conference	-9.53693
▁record	-9.53693
▁former	-9.53734
▁n	-9.53795
▁near	-9.53848
der	-9.53849
▁whom	-9.53984
▁spirit	-9.54207
▁acts	-9.54261
▁dangerous	-9.54293
▁patients	-9.54317
▁exercise	-9.54354
▁run	-9.54412
▁obtain	-9.54469
▁treaty	-9.54471
▁promotion	-9.54501
ration	-9.54521
▁happened	-9.54535
▁entry	-9.54575
▁big	-9.5478
▁Energy	-9.54797
▁Po	-9.54836
if	-9.54894
▁expenditure	-9.54945
▁partner	-9.54991
▁ways	-9.55017
▁November	-9.55019
▁Ba	-9.55021
▁complex	-9.55059
▁Foreign	-9.55242
ru	-9.55436
▁persons	-9.55471
responsibilities	-9.5554
▁contact	-9.5554
▁inclusion	-9.55614
▁permanent	-9.55763
▁truly	-9.55764
per	-9.5581
gr	-9.55841
▁Many	-9.56022
▁involvement	-9.56234
▁laws	-9.56262
▁religious	-9.56438
▁payments	-9.56509
▁comply	-9.56553
tre	-9.56825
▁ahead	-9.56891
▁terrorist	-9.56914
▁mis	-9.57039
▁thousands	-9.57046
▁investments	-9.57199
▁table	-9.5725
▁closer	-9.57339
▁demonstrate	-9.5734
▁substantial	-9.57497
▁guarantees	-9.5754
▁structure	-9.57629
ification	-9.57682
▁function	-9.57764
▁official	-9.57862
▁produced	-9.57867
▁initial	-9.57879
▁evaluation	-9.57956
ok	-9.58018
res	-9.58058
▁later	-9.58113
▁immediate	-9.58137
line	-9.58157
red	-9.58195
▁administration	-9.5826
▁supervision	-9.5826
▁Ha	-9.58314
▁Partnership	-9.58336
▁Representative	-9.58336
▁analysis	-9.5849
und	-9.58528
▁enjoy	-9.58567
▁sometimes	-9.58567
▁Western	-9.58571
▁Chamber	-9.58643
▁ready	-9.58679
way	-9.58713
▁trafficking	-9.58725
▁fail	-9.58812
▁company	-9.58952
▁opening	-9.58974
▁institution	-9.58996
▁Nevertheless	-9.59029
▁counter	-9.59041
▁Policy	-9.59183
▁failed	-9.59203
▁territory	-9.59338
▁consumption	-9.59415
▁genuine	-9.59527
▁views	-9.59601
▁St	-9.59686
▁lower	-9.59691
▁path	-9.59728
▁Pakistan	-9.59881
▁plenary	-9.59959
▁Hungary	-9.60037
▁lost	-9.60116
▁head	-9.6018
ified	-9.60198
▁immediately	-9.60318
▁liberalisation	-9.60357
▁se	-9.60503
▁milk	-9.60506
▁speed	-9.60507
part	-9.60571
ative	-9.606
▁organised	-9.60615
▁By	-9.60687
▁October	-9.60741
▁bear	-9.60814
▁British	-9.60899
▁Eastern	-9.60908
▁considerable	-9.61037
▁UK	-9.61059
▁ten	-9.61066
ward	-9.61164
▁Spain	-9.61214
▁operation	-9.61253
▁shadow	-9.61293
▁demands	-9.6133
▁easy	-9.61372
▁PPE	-9.61451
▁Pa	-9.61454
▁resolve	-9.61455
ping	-9.61639
mer	-9.61675
▁While	-9.61847
ub	-9.61896
od	-9.619
▁enormous	-9.62085
▁firstly	-9.62168
▁sport	-9.62174
du	-9.62263
▁exactly	-9.62285
▁Spanish	-9.62484
▁word	-9.62529
che	-9.62582
▁probably	-9.62644
▁30	-9.62697
ear	-9.62747
rg	-9.62782
▁Do	-9.62887
▁seem	-9.62964
▁emphasis	-9.62974
▁body	-9.63125
▁communities	-9.63125
▁sensitive	-9.63125
▁staff	-9.63125
▁recognised	-9.63187
ga	-9.63238
▁operate	-9.63286
▁desire	-9.63288
▁election	-9.63363
▁speaking	-9.63409
har	-9.63453
▁addressed	-9.63588
▁flexibility	-9.63609
▁submitted	-9.63621
▁Why	-9.63697
ritten	-9.63763
▁anything	-9.63772
ition	-9.63808
eg	-9.63816
▁Chinese	-9.63852
▁session	-9.63916
▁globalisation	-9.63933
▁thinking	-9.63981
▁manage	-9.64086
▁happy	-9.64095
▁Mo	-9.64098
▁lay	-9.641
V	-9.64369
▁carbon	-9.64415
CS	-9.64599
▁advantage	-9.64604
ship	-9.64623
ments	-9.64672
▁informed	-9.64713
▁reinforce	-9.64747
▁collective	-9.64764
end	-9.64874
ca	-9.65151
based	-9.65256
▁minority	-9.65256
▁suffering	-9.6526
▁trading	-9.65403
▁mainly	-9.6544
▁candidate	-9.65485
▁contains	-9.65557
▁faced	-9.65829
▁wants	-9.65841
▁Portugal	-9.65898
lu	-9.66022
▁seek	-9.6609
mission	-9.6614
HU	-9.66247
▁contrary	-9.66561
▁worse	-9.66562
les	-9.66575
▁functioning	-9.6674
rat	-9.66747
▁Auditors	-9.66811
▁signed	-9.66868
gen	-9.66879
▁shared	-9.66981
ie	-9.67311
▁healthcare	-9.67313
▁modern	-9.67347
sk	-9.67348
▁factor	-9.67387
▁insist	-9.67391
▁methods	-9.67449
▁sound	-9.6746
▁deficit	-9.67481
mon	-9.67499
▁extend	-9.67576
ho	-9.67707
▁multi	-9.67729
que	-9.67808
▁came	-9.68002
▁enlargement	-9.68071
▁understanding	-9.68095
ably	-9.6813
▁element	-9.68237
▁obvious	-9.68295
▁authority	-9.68365
▁Ashton	-9.68409
▁Or	-9.68479
▁disasters	-9.68502
▁tool	-9.68515
▁21	-9.68554
▁danger	-9.6865
fa	-9.68711
▁referred	-9.68759
▁conduct	-9.68847
▁causes	-9.68853
▁continent	-9.69005
▁happening	-9.69086
▁freedoms	-9.69102
▁parts	-9.69244
▁tr	-9.69298
▁participate	-9.69346
▁25	-9.69434
▁rates	-9.69447
▁attack	-9.6945
▁Framework	-9.69775
▁repeat	-9.69878
▁appear	-9.69888
▁suggest	-9.69912
▁continuing	-9.69947
▁green	-9.69947
▁Italian	-9.69948
▁ideas	-9.70143
▁crimes	-9.7033
▁According	-9.70378
▁immigrants	-9.7043
▁register	-9.70552
pro	-9.70574
▁developments	-9.706
▁Alliance	-9.70638
▁link	-9.70789
▁else	-9.70811
▁forced	-9.70843
▁react	-9.70938
▁clause	-9.7116
▁ability	-9.71196
▁sexual	-9.71214
▁Mar	-9.71229
▁worked	-9.71291
▁dispute	-9.71336
▁16	-9.71357
▁thereby	-9.71428
▁starting	-9.71429
▁Summit	-9.71509
▁easier	-9.71596
▁effectiveness	-9.71604
▁Ch	-9.71646
▁underline	-9.71683
▁o	-9.71729
ify	-9.7179
▁helping	-9.71812
▁Even	-9.71815
▁competence	-9.71832
▁situations	-9.7186
debate	-9.71908
▁consistent	-9.71935
▁numerous	-9.71947
▁mo	-9.7195
▁coordinated	-9.7199
▁pension	-9.72011
▁America	-9.72027
▁earlier	-9.72035
▁refugees	-9.7204
rm	-9.72186
▁scheme	-9.72279
▁block	-9.72395
▁count	-9.72451
▁mistake	-9.72564
▁intend	-9.726
▁reject	-9.72623
▁rapid	-9.7263
▁achievement	-9.72876
▁figures	-9.72903
▁fraud	-9.72918
▁myself	-9.72918
▁red	-9.73114
▁greatest	-9.73141
▁applies	-9.73184
▁honourable	-9.733
▁Green	-9.73451
▁stronger	-9.73526
▁rating	-9.73573
ture	-9.7358
making	-9.73614
▁territorial	-9.7372
▁comment	-9.73723
▁unable	-9.73881
▁elected	-9.739
app	-9.73989
▁accepted	-9.74079
▁excessive	-9.74084
▁source	-9.74087
os	-9.74104
▁fish	-9.74148
▁definition	-9.74168
▁investigation	-9.74168
▁confirm	-9.74289
▁worth	-9.74433
▁la	-9.74448
▁Le	-9.74486
SV	-9.745
▁networks	-9.74505
▁separate	-9.74527
▁17	-9.74558
ster	-9.74559
▁proportion	-9.74617
ew	-9.74653
▁fulfil	-9.74776
▁Swedish	-9.74798
▁harmonisation	-9.74798
▁tourism	-9.74801
▁option	-9.74857
▁sustainability	-9.74983
▁reflect	-9.75016
▁traffic	-9.75155
▁affect	-9.75171
ng	-9.75186
ates	-9.75212
▁ethnic	-9.75312
▁Afghanistan	-9.75342
▁solve	-9.75362
▁awareness	-9.75396
▁revision	-9.75433
▁continues	-9.75587
▁merely	-9.75616
Rule	-9.75687
▁Ombudsman	-9.75706
▁Fundamental	-9.75797
▁statistics	-9.75889
▁adapt	-9.75912
▁adopting	-9.75943
▁September	-9.76163
▁entirely	-9.76262
▁II	-9.76367
▁gap	-9.76384
▁obligation	-9.76488
▁innovative	-9.7653
port	-9.76547
▁yesterday	-9.76622
▁organ	-9.7675
▁construction	-9.7682
▁compliance	-9.76899
▁evidence	-9.76899
▁finding	-9.76998
▁Palestinian	-9.77024
▁spent	-9.7703
▁school	-9.77055
▁inform	-9.7713
▁Con	-9.77176
▁overcome	-9.77176
lic	-9.77217
▁month	-9.77239
▁talks	-9.77259
▁condition	-9.77333
▁ship	-9.77551
▁oral	-9.77643
▁positions	-9.77648
▁m	-9.77708
▁getting	-9.7784
▁improvements	-9.77971
▁attacks	-9.77993
▁sort	-9.78023
▁bad	-9.78064
ten	-9.78115
fer	-9.78218
▁check	-9.78283
ack	-9.78325
▁condemn	-9.78356
▁significantly	-9.78485
▁Pro	-9.78529
▁Libya	-9.78574
▁20%	-9.78581
▁recommendation	-9.78613
▁Health	-9.78762
int	-9.78765
▁2005	-9.78777
▁sides	-9.78848
▁identify	-9.78856
▁membership	-9.78865
▁millions	-9.79038
▁WTO	-9.79044
▁Al	-9.79142
▁expected	-9.79147
▁original	-9.79151
▁feed	-9.79239
▁American	-9.79242
▁Rules	-9.79346
▁import	-9.79351
▁assist	-9.79441
▁weak	-9.7945
▁1.	-9.79474
▁politicians	-9.79618
▁2009.	-9.79631
▁wide	-9.79659
▁cooperate	-9.79707
▁Protection	-9.79897
▁encouraging	-9.79992
▁planning	-9.80024
▁class	-9.80275
▁granted	-9.80307
io	-9.80416
▁prove	-9.80482
▁fire	-9.8051
▁Greek	-9.80564
▁diversity	-9.80564
▁payment	-9.80803
light	-9.80921
▁port	-9.81179
▁barriers	-9.8123
▁attitude	-9.81237
▁credibility	-9.81237
▁parliaments	-9.81267
▁advance	-9.81293
▁animals	-9.81314
▁rejected	-9.81402
▁late	-9.81481
▁decisive	-9.81527
▁restrictions	-9.81536
▁Baltic	-9.81623
▁negotiating	-9.81623
▁corruption	-9.81631
▁fo	-9.8166
▁disease	-9.8167
lin	-9.81695
▁rail	-9.81714
▁violations	-9.81798
▁protected	-9.81992
▁range	-9.82108
▁space	-9.82206
▁tri	-9.82254
▁2013	-9.82303
▁claim	-9.82363
▁interesting	-9.82398
▁normal	-9.826
▁operations	-9.82642
ki	-9.82668
▁drawn	-9.8269
▁Environment	-9.82693
▁imports	-9.82783
▁CAP	-9.82783
▁fiscal	-9.82889
▁maximum	-9.82889
▁Balkans	-9.82906
U	-9.8292
▁suffer	-9.82927
▁assure	-9.82929
▁criticism	-9.82987
▁recommend	-9.83026
▁fighting	-9.83166
▁impose	-9.83246
▁emergency	-9.83285
▁Pact	-9.83336
▁Organisation	-9.83479
▁NATO	-9.83523
▁conflicts	-9.83534
▁break	-9.83874
▁degree	-9.83874
▁associated	-9.83894
▁acceptable	-9.8407
▁strategies	-9.84072
▁vision	-9.84072
▁save	-9.84082
▁largest	-9.84143
▁involving	-9.84171
▁welfare	-9.84171
▁started	-9.84231
▁grant	-9.84233
▁ought	-9.84271
▁allowing	-9.84291
▁convention	-9.8437
ade	-9.84407
ach	-9.84455
▁Polish	-9.84469
▁aviation	-9.84471
▁materials	-9.84475
▁substances	-9.84499
▁mark	-9.84558
▁followed	-9.84613
▁requirement	-9.84715
▁pointed	-9.84891
ric	-9.84984
▁house	-9.85073
▁intention	-9.85076
▁Monetary	-9.85169
▁2012	-9.85269
▁citizen	-9.85271
▁changed	-9.85287
▁Safety	-9.85369
▁accounts	-9.85372
▁urgently	-9.85384
▁Di	-9.85456
▁penalty	-9.8547
▁push	-9.8547
▁Given	-9.8547
▁controls	-9.85472
▁General	-9.85783
▁lose	-9.85789
▁operators	-9.85963
▁Lithuania	-9.85974
▁Moldova	-9.85974
▁Procedure	-9.85974
▁ultimately	-9.86027
▁spending	-9.86046
▁factors	-9.86059
▁scale	-9.86209
▁exploitation	-9.8632
▁Thirdly	-9.86335
▁preparation	-9.86582
▁enforcement	-9.86602
▁lies	-9.8674
▁Such	-9.86786
▁property	-9.86813
▁debates	-9.8684
▁employees	-9.86888
▁average	-9.86888
▁seeking	-9.86952
▁opposed	-9.8705
▁arrest	-9.87092
▁association	-9.87092
▁Portuguese	-9.87399
gg	-9.87453
qui	-9.87576
▁U	-9.87586
▁carefully	-9.87644
▁industries	-9.87707
▁ongoing	-9.87713
▁told	-9.87776
▁anyone	-9.87828
▁base	-9.87887
▁appreciate	-9.87913
▁impossible	-9.88016
▁laid	-9.88034
▁April	-9.88119
▁firmly	-9.88206
ile	-9.8824
▁series	-9.88326
▁directives	-9.88378
▁civilian	-9.88472
▁fine	-9.88523
▁Conference	-9.88533
▁subsidiarity	-9.88637
▁imposed	-9.88675
▁sc	-9.88715
▁loss	-9.88774
▁Brazil	-9.88844
iz	-9.8886
ep	-9.88966
▁nations	-9.88974
ingle	-9.88986
ner	-9.8908
do	-9.89093
▁judicial	-9.89106
▁covered	-9.89151
▁distribution	-9.89157
▁severe	-9.89157
ists	-9.89196
▁ratification	-9.89261
▁strict	-9.89285
▁Only	-9.8932
▁afford	-9.89366
▁grateful	-9.89366
▁guaranteed	-9.89371
▁approval	-9.89402
hor	-9.89467
▁flexible	-9.8947
▁clean	-9.8947
val	-9.89489
▁via	-9.89504
▁highest	-9.89507
▁depend	-9.89517
▁Be	-9.8956
▁electronic	-9.89575
▁realise	-9.89633
▁spoke	-9.89678
for	-9.89718
ier	-9.89735
vote	-9.89781
▁moving	-9.89785
ncy	-9.8992
log	-9.8995
ator	-9.90046
king	-9.9024
▁boost	-9.90417
▁urban	-9.90417
▁presence	-9.90417
▁peaceful	-9.90485
cing	-9.9064
ible	-9.90809
ging	-9.90906
▁cars	-9.91026
▁July	-9.91159
▁Plan	-9.91181
▁dealt	-9.91192
▁court	-9.91277
▁says	-9.91317
uc	-9.91345
▁tools	-9.91448
SK	-9.91469
▁currency	-9.91479
we	-9.91588
▁profit	-9.91601
▁endorse	-9.91782
▁religion	-9.918
▁taxpayers	-9.91816
▁unfair	-9.91907
▁acknowledge	-9.91996
▁drive	-9.92013
ff	-9.92058
▁formal	-9.92061
▁opt	-9.92085
▁Tunisia	-9.92122
men	-9.9214
▁truth	-9.92229
pre	-9.92232
▁leadership	-9.92342
▁offers	-9.92378
▁Com	-9.92389
▁Ex	-9.92415
▁exclusion	-9.92445
▁From	-9.92445
▁regular	-9.92461
▁respected	-9.9251
ient	-9.92526
▁reasonable	-9.92639
▁primarily	-9.92661
▁zone	-9.92661
▁centre	-9.92667
▁purposes	-9.92764
istic	-9.92868
▁hit	-9.92988
▁affairs	-9.93024
▁grow	-9.93081
▁GDP	-9.93094
▁capable	-9.93112
putting	-9.93118
▁introducing	-9.93139
ka	-9.93169
▁te	-9.93236
▁allocated	-9.93246
pol	-9.93278
▁assume	-9.93324
▁individuals	-9.93366
▁Another	-9.93423
gra	-9.93429
▁Stability	-9.93431
▁wine	-9.9348
▁2004	-9.93528
▁structures	-9.93558
▁sum	-9.93624
▁Fa	-9.93724
▁Kingdom	-9.93747
▁Middle	-9.93856
▁j	-9.93956
▁involve	-9.93977
ide	-9.93987
▁submit	-9.94058
▁Food	-9.94075
▁politics	-9.94075
▁totally	-9.94131
▁legitimate	-9.94185
▁launch	-9.94186
▁su	-9.94193
old	-9.94275
▁board	-9.94405
▁sent	-9.94464
▁detailed	-9.94579
▁slow	-9.94625
▁definitely	-9.9467
▁experts	-9.94672
▁External	-9.94735
▁proposing	-9.94735
▁written	-9.94855
▁strengthened	-9.94883
▁restrict	-9.94921
▁February	-9.94956
▁labelling	-9.94964
▁equally	-9.95018
▁allows	-9.95025
▁agency	-9.95076
▁Ro	-9.95096
▁representative	-9.95158
ble	-9.95175
▁Go	-9.95181
▁50	-9.95208
▁traditional	-9.95224
▁pillar	-9.95288
▁please	-9.95291
▁declaration	-9.95369
▁planned	-9.95401
▁equipment	-9.95405
ang	-9.95483
▁qua	-9.95485
▁advocate	-9.9551
▁delighted	-9.9551
▁compared	-9.95571
▁transactions	-9.95577
▁placed	-9.95823
▁Co	-9.95864
▁belong	-9.95956
▁Mi	-9.95968
▁arise	-9.95988
▁personally	-9.95991
▁behaviour	-9.96291
▁century	-9.96291
▁Those	-9.96403
▁greenhouse	-9.96403
▁generate	-9.96516
▁Br	-9.96537
▁protest	-9.96628
▁Rule	-9.9663
▁Egypt	-9.96728
▁ALDE	-9.9674
▁Bo	-9.96775
▁pose	-9.96784
si	-9.96839
▁morning	-9.96853
▁design	-9.96864
▁voluntary	-9.96966
▁resolutions	-9.97035
▁micro	-9.97079
▁otherwise	-9.97079
▁phase	-9.97079
▁undermine	-9.97079
▁preventing	-9.97125
▁prison	-9.97153
▁plant	-9.97176
fl	-9.9726
▁honest	-9.97645
▁transition	-9.97684
▁hours	-9.97757
▁Gaza	-9.97759
▁Korea	-9.9776
▁legally	-9.97786
▁forthcoming	-9.97872
▁exception	-9.97965
▁committees	-9.97986
▁contributions	-9.98014
▁limits	-9.9807
▁Last	-9.98206
▁observe	-9.9821
▁learning	-9.98333
▁crises	-9.98444
▁plants	-9.98492
Christian	-9.98679
▁exploit	-9.98969
put	-9.99017
▁murder	-9.99132
▁spread	-9.99132
▁ca	-9.9925
▁floor	-9.99363
▁paper	-9.99364
▁exceptional	-9.99475
tructural	-9.99585
▁New	-9.99734
▁contract	-9.99752
▁interested	-9.9977
▁speakers	-9.99788
han	-9.99795
▁Thus	-10.0006
▁choose	-10.0006
▁quotas	-10.0017
▁Asia	-10.002
▁buildings	-10.003
LT	-10.0031
▁prepare	-10.0041
▁100	-10.0041
▁Paper	-10.0042
▁Before	-10.0064
▁dignity	-10.0064
▁2008,	-10.0083
▁Japan	-10.0088
▁concentrate	-10.0088
▁proceed	-10.011
▁reaction	-10.0122
▁obstacles	-10.0128
FI	-10.0131
▁retain	-10.0135
▁mother	-10.0135
▁resolved	-10.0146
▁eliminate	-10.0146
▁stable	-10.0149
▁actual	-10.015
ton	-10.0153
▁500	-10.0154
▁buy	-10.017
▁Li	-10.017
▁operational	-10.017
▁votes	-10.018
▁biodiversity	-10.0182
▁mass	-10.0192
▁demonstrated	-10.0195
▁processes	-10.02
▁charge	-10.0202
▁Research	-10.0206
▁gave	-10.0218
▁concluded	-10.0221
▁generation	-10.0221
▁permit	-10.0228
▁seven	-10.0231
▁designed	-10.024
▁customs	-10.0247
▁Financial	-10.0265
▁savings	-10.027
▁defined	-10.0287
▁Turkish	-10.0289
▁Women	-10.0289
▁got	-10.0307
▁generally	-10.0316
▁expectations	-10.0317
W	-10.0328
▁meetings	-10.0342
▁stay	-10.0349
ef	-10.035
▁continued	-10.0361
▁subsidies	-10.0361
▁technological	-10.0361
▁Na	-10.0365
▁bit	-10.0372
▁material	-10.0373
▁operating	-10.0373
▁united	-10.0373
▁Iraq	-10.038
▁medicines	-10.038
use	-10.0388
▁announced	-10.039
▁succeed	-10.0401
▁Ta	-10.0421
▁rising	-10.0424
▁flood	-10.0434
▁reliable	-10.0434
▁existence	-10.0436
▁honour	-10.0455
▁highlighted	-10.046
▁lines	-10.0468
▁treated	-10.0471
▁textile	-10.0473
▁temporary	-10.0482
▁enhance	-10.0484
▁Not	-10.0492
▁passed	-10.0506
▁demographic	-10.0507
▁spoken	-10.0507
▁amending	-10.053
▁Dur	-10.053
▁Strasbourg	-10.0531
▁front	-10.0531
da	-10.0538
▁2008.	-10.0549
▁wishes	-10.0553
▁ho	-10.0555
▁medical	-10.0556
▁2.	-10.0559
▁wealth	-10.0569
▁applying	-10.0585
ory	-10.0603
▁skills	-10.0605
▁undoubtedly	-10.0605
▁Ms	-10.0609
▁preparing	-10.0618
▁whilst	-10.0618
▁performance	-10.0619
▁EC	-10.0629
▁universal	-10.063
▁diseases	-10.0649
▁supports	-10.0656
rv	-10.0672
▁error	-10.068
▁played	-10.0681
▁examine	-10.0681
▁users	-10.0685
▁More	-10.0686
▁Globalisation	-10.0693
▁glad	-10.0705
▁prosperity	-10.0717
▁Funds	-10.0718
▁sovereignty	-10.0718
▁soil	-10.0719
▁Can	-10.0721
▁coherent	-10.073
▁dependent	-10.0732
▁occur	-10.0741
▁trend	-10.0743
▁latest	-10.0759
▁targeted	-10.0761
▁decades	-10.0771
▁pollution	-10.078
▁realistic	-10.0783
▁neighbours	-10.0788
point	-10.079
▁proceedings	-10.0818
▁sentence	-10.0819
▁replace	-10.0822
▁difference	-10.0825
▁Act	-10.0827
▁Sa	-10.0831
▁electricity	-10.0831
▁resulting	-10.0839
▁clarify	-10.0843
▁detail	-10.0843
▁languages	-10.0848
▁Cooperation	-10.0855
▁audit	-10.0856
▁taxation	-10.0866
▁...	-10.0904
▁double	-10.0906
▁taxes	-10.0916
▁Here	-10.0917
▁Consumer	-10.0919
▁Sweden	-10.0919
▁indicate	-10.0921
▁procurement	-10.0932
▁define	-10.0934
▁banking	-10.0949
▁hearing	-10.0957
▁entitled	-10.0957
▁recall	-10.0964
▁requested	-10.0983
▁constantly	-10.0985
▁studies	-10.0996
▁welcomed	-10.0998
▁offered	-10.0998
cre	-10.1002
▁tradition	-10.1016
▁Ka	-10.1019
▁latter	-10.1021
▁revenue	-10.1021
ze	-10.1024
▁witness	-10.1034
▁Haiti	-10.1035
▁waiting	-10.1035
▁guaranteeing	-10.104
▁multilateral	-10.1047
▁rich	-10.1048
▁changing	-10.106
▁manufacturers	-10.106
EU	-10.1064
tal	-10.1069
▁Investment	-10.1073
▁pursue	-10.1076
▁Slovakia	-10.1086
▁grounds	-10.1088
ick	-10.1089
▁nation	-10.1094
▁Socialist	-10.1102
▁details	-10.1104
▁bank	-10.1106
▁Black	-10.1112
▁facilities	-10.1112
▁migrants	-10.1117
▁Austria	-10.1125
▁host	-10.113
▁object	-10.1135
▁analyse	-10.1138
▁accidents	-10.1141
▁worldwide	-10.1142
▁neighbouring	-10.1146
▁monetary	-10.1151
▁Ra	-10.1164
▁0	-10.117
amp	-10.1175
▁Agriculture	-10.1177
related	-10.1199
▁speeches	-10.1207
▁ones	-10.1215
▁Report	-10.1218
scale	-10.124
▁compensation	-10.1243
▁reiterate	-10.1243
▁simplification	-10.1243
▁Un	-10.1246
▁restore	-10.1247
▁contracts	-10.1251
▁healthy	-10.1253
▁insurance	-10.1256
▁neither	-10.1256
▁Nor	-10.1257
ran	-10.1275
▁published	-10.1276
▁gone	-10.1289
▁Arctic	-10.1296
▁Baroness	-10.1296
▁Instead	-10.1296
▁involves	-10.1302
▁Lastly	-10.1305
▁Frontex	-10.1322
cor	-10.1324
▁determined	-10.1325
▁hands	-10.1327
▁launched	-10.1335
▁Public	-10.1335
over	-10.1343
▁commit	-10.1343
▁minutes	-10.1345
▁Head	-10.1353
of	-10.1353
lt	-10.1354
▁margin	-10.1362
▁budgets	-10.1365
▁liberal	-10.1372
▁version	-10.1375
▁2010,	-10.1397
▁enhanced	-10.1401
▁train	-10.1401
▁Solidarity	-10.1402
▁surveillance	-10.1402
▁diplomatic	-10.1402
▁tried	-10.1407
▁justified	-10.1413
▁trans	-10.1414
▁Civil	-10.1429
▁primary	-10.1429
▁massive	-10.1432
▁playing	-10.1435
▁wonder	-10.1439
(	-10.1439
▁stakeholders	-10.1456
▁opinions	-10.146
ire	-10.1461
▁sovereign	-10.1468
▁emerging	-10.1469
▁abandon	-10.1483
▁contained	-10.1487
▁focused	-10.1488
▁geographical	-10.1496
▁extension	-10.1496
▁radical	-10.1496
▁release	-10.15
▁passenger	-10.1502
▁intellectual	-10.151
▁wait	-10.1522
▁valuable	-10.1523
▁raw	-10.1524
ler	-10.1534
▁railway	-10.1538
▁keeping	-10.1539
▁prisoners	-10.1541
▁maintaining	-10.1545
▁uniform	-10.155
▁super	-10.1551
ey	-10.1552
▁moral	-10.1565
▁tasks	-10.1575
▁Canada	-10.1577
▁answers	-10.1587
▁VAT	-10.1591
▁reserve	-10.1591
▁threaten	-10.1594
ib	-10.1595
▁infringement	-10.1605
▁reply	-10.1605
▁naturally	-10.1606
▁piece	-10.1618
▁proud	-10.1621
▁successfully	-10.163
ger	-10.1634
▁determination	-10.1637
▁prior	-10.1641
▁expand	-10.1646
▁considering	-10.1653
▁phenomenon	-10.166
▁preserve	-10.166
▁employ	-10.1661
▁suitable	-10.1661
▁23	-10.167
▁consult	-10.1678
▁collection	-10.1679
▁expense	-10.1687
▁stock	-10.1697
▁24	-10.17
▁Macedonia	-10.1701
bel	-10.171
▁tests	-10.1713
▁chain	-10.1715
▁mid	-10.1717
▁built	-10.1728
▁prohibit	-10.1728
▁emerge	-10.1742
year	-10.1744
▁Over	-10.1746
▁extra	-10.1758
▁accident	-10.1767
▁examples	-10.1768
economic	-10.1769
▁likely	-10.1771
▁remarks	-10.1775
▁listen	-10.1777
▁Arab	-10.1784
wa	-10.1784
form	-10.1786
▁constitution	-10.179
▁extreme	-10.1792
▁judge	-10.1798
▁Transport	-10.1798
▁supposed	-10.1801
tan	-10.1815
▁Pre	-10.1825
▁players	-10.1825
▁perform	-10.1826
▁2010.	-10.1834
▁disposal	-10.184
▁feature	-10.184
▁identity	-10.184
▁actively	-10.184
den	-10.1847
▁nevertheless	-10.1868
▁select	-10.1868
▁types	-10.1869
▁abstained	-10.1871
▁evening	-10.1879
▁incident	-10.1882
grad	-10.1883
▁collect	-10.1886
rect	-10.1893
hold	-10.1894
▁ordinary	-10.1896
▁complement	-10.19
▁biggest	-10.191
▁seat	-10.191
▁schools	-10.1914
▁someone	-10.1914
▁Bosnia	-10.1924
▁couple	-10.1924
▁Free	-10.1924
▁bureaucracy	-10.1938
▁fruit	-10.1947
▁environmentally	-10.1949
▁stocks	-10.1956
▁felt	-10.1966
▁par	-10.1978
▁debating	-10.198
▁West	-10.1989
▁Thursday	-10.1995
▁judgment	-10.1995
▁authorisation	-10.1997
▁tackling	-10.2009
▁complicated	-10.2016
▁brings	-10.2029
▁size	-10.203
▁conducted	-10.2035
▁identified	-10.2037
▁Mu	-10.2047
▁letter	-10.2048
▁contain	-10.205
▁Every	-10.2051
▁ACP	-10.2051
▁exists	-10.2054
▁withdraw	-10.2056
▁brief	-10.206
▁represented	-10.2061
▁arrangements	-10.2063
ug	-10.2063
▁disagree	-10.2066
▁finish	-10.2066
▁extended	-10.2079
▁Christian	-10.208
▁round	-10.2083
ped	-10.2089
▁acquis	-10.2094
▁proposes	-10.2105
▁relates	-10.2105
by	-10.2108
▁affects	-10.2118
lan	-10.2119
▁airlines	-10.2119
▁flag	-10.2123
▁negotiation	-10.2126
▁housing	-10.2137
▁attach	-10.2138
▁Cuba	-10.2138
▁door	-10.2149
▁Cyprus	-10.2152
▁deadline	-10.2152
▁increases	-10.2159
▁duties	-10.2166
▁presidency	-10.2166
▁Regional	-10.2171
▁cheap	-10.2181
▁significance	-10.2181
▁parents	-10.2181
▁engage	-10.2196
▁EP	-10.2221
▁weapons	-10.2222
▁attend	-10.2225
▁hundreds	-10.2228
▁occasion	-10.2229
▁cities	-10.2231
▁PSE	-10.2239
▁Adjustment	-10.2253
▁science	-10.2253
▁approve	-10.2259
▁happens	-10.2263
▁sad	-10.2287
▁worrying	-10.2294
▁cuts	-10.231
▁advertising	-10.2312
▁societies	-10.2312
▁officials	-10.2315
▁eight	-10.2317
▁oppose	-10.2318
▁Fisheries	-10.2326
▁Israeli	-10.2341
▁farming	-10.2341
▁leader	-10.2341
▁ministers	-10.2343
▁confirmed	-10.2351
▁holding	-10.2363
▁seeing	-10.2369
▁digital	-10.2371
▁suffered	-10.2376
rate	-10.2382
▁Burma	-10.2385
▁Perhaps	-10.2385
▁worst	-10.2385
▁Latin	-10.2385
▁options	-10.2398
▁intentions	-10.2399
▁Once	-10.2404
▁Constitution	-10.2405
her	-10.2407
▁places	-10.2409
▁affecting	-10.2424
wing	-10.2425
▁Jo	-10.2426
▁incentives	-10.2428
▁fishermen	-10.2445
▁Under	-10.2445
▁finances	-10.2458
%	-10.2459
▁experiencing	-10.2459
▁bi	-10.2462
▁Car	-10.2467
▁courage	-10.2473
▁spec	-10.2474
▁charges	-10.2479
▁belief	-10.2489
▁historical	-10.249
▁dynamic	-10.2504
▁Greens	-10.2504
▁room	-10.2519
▁Ministers	-10.2519
az	-10.2539
lying	-10.2541
▁allocation	-10.2543
▁drawing	-10.2543
▁addressing	-10.2555
▁substance	-10.256
▁restructuring	-10.2564
▁fast	-10.257
▁warning	-10.2572
▁secondly	-10.2573
▁careful	-10.2578
▁constitute	-10.259
east	-10.2592
▁contributed	-10.2616
▁amounts	-10.2622
▁Growth	-10.2624
▁speculation	-10.2624
▁remove	-10.2631
▁Bu	-10.2647
▁profits	-10.2652
▁physical	-10.2655
▁sell	-10.266
▁whatever	-10.2668
▁depends	-10.2673
2%	-10.2677
▁chosen	-10.2689
▁amongst	-10.2692
▁demanding	-10.27
▁mix	-10.27
▁motor	-10.2702
▁poorest	-10.2708
ibility	-10.2715
▁appropriations	-10.2715
▁dairy	-10.2715
▁patent	-10.2715
▁feeling	-10.2719
▁dramatic	-10.2731
▁Internal	-10.2731
▁strength	-10.2742
▁interpretation	-10.2744
▁threats	-10.2748
own	-10.2749
tar	-10.2751
▁Romanian	-10.2753
▁ambition	-10.276
▁enabling	-10.2761
▁negotiated	-10.2768
▁centres	-10.2772
▁opened	-10.2773
▁occasions	-10.2787
▁absolute	-10.2787
▁abolish	-10.2792
▁largely	-10.2794
▁Hav	-10.2798
▁losses	-10.2803
▁harmful	-10.2808
▁sensible	-10.2823
▁online	-10.2828
▁coal	-10.2829
uring	-10.2838
▁arrive	-10.2838
▁driving	-10.2838
3%	-10.2852
▁Christians	-10.2853
▁applicable	-10.2854
▁National	-10.2854
▁chair	-10.2868
▁chemical	-10.2869
▁sit	-10.2873
▁Vi	-10.2875
▁System	-10.2885
▁strike	-10.2885
▁deserve	-10.2886
▁Me	-10.2889
▁symbol	-10.291
▁wider	-10.2912
▁team	-10.2918
▁beneficial	-10.2931
▁evaluate	-10.2931
▁competent	-10.2932
▁certainty	-10.2944
▁Time	-10.2947
mark	-10.2951
▁coordinate	-10.2955
▁catch	-10.2963
▁texts	-10.2968
▁60	-10.2974
▁label	-10.2978
▁Sudan	-10.2978
▁possibilities	-10.2978
▁urgency	-10.298
▁figure	-10.2981
▁win	-10.2982
▁previously	-10.2983
▁experienced	-10.2991
hy	-10.2998
K	-10.3
▁spend	-10.3001
▁counterfeit	-10.301
▁daily	-10.301
▁airports	-10.301
▁simplify	-10.3015
▁observation	-10.3025
▁pipeline	-10.3025
▁violation	-10.303
▁core	-10.3032
▁wage	-10.3033
▁heavy	-10.3041
▁Tr	-10.3042
▁intends	-10.3043
▁proved	-10.3048
▁island	-10.306
▁minor	-10.3068
▁2000	-10.3078
▁saw	-10.3105
▁sale	-10.3105
▁enforce	-10.3117
▁swift	-10.312
▁decent	-10.312
▁regulate	-10.3129
▁exports	-10.3134
▁section	-10.3136
▁valid	-10.3152
▁stake	-10.3152
▁declarations	-10.3156
▁forest	-10.3163
elect	-10.3167
▁donor	-10.317
▁politically	-10.3175
▁foundations	-10.3178
▁understood	-10.3184
▁granting	-10.3187
▁generations	-10.3189
ple	-10.3214
TA	-10.3214
▁Control	-10.3216
▁helped	-10.3224
▁pure	-10.3227
▁impression	-10.3232
ural	-10.3234
▁greatly	-10.3235
▁etc	-10.3236
▁negotiate	-10.3241
free	-10.3257
▁paying	-10.3262
▁regrettable	-10.3264
▁EIB	-10.328
▁foremost	-10.328
▁Where	-10.328
▁neighbourhood	-10.328
▁ill	-10.3281
▁treat	-10.3281
▁30%	-10.3281
ski	-10.3286
▁Budget	-10.3288
▁precise	-10.3293
▁apparent	-10.3296
▁sufficiently	-10.3299
1%	-10.331
▁encouraged	-10.3314
▁Follow	-10.3329
▁kept	-10.3329
▁40	-10.3333
rant	-10.3337
▁ignore	-10.3338
▁arguments	-10.3345
▁southern	-10.3346
▁lessons	-10.3348
▁emphasised	-10.335
▁resource	-10.3354
▁representation	-10.3359
▁absence	-10.3361
▁extensive	-10.3361
▁supplies	-10.3361
▁raising	-10.3361
▁Then	-10.3362
▁issued	-10.3363
▁birth	-10.3378
▁accessible	-10.3383
▁emission	-10.3391
ung	-10.3398
▁loans	-10.3399
▁heading	-10.34
▁reaching	-10.3406
▁schemes	-10.3414
▁resulted	-10.3422
▁cancer	-10.3428
▁arms	-10.3431
▁competences	-10.3432
▁Just	-10.3442
▁struggle	-10.3443
▁purchase	-10.3459
▁unless	-10.346
▁parliament	-10.3469
▁inspection	-10.347
ai	-10.3479
▁friends	-10.348
▁pensions	-10.348
▁Assembly	-10.3492
▁demonstration	-10.3492
▁supervisory	-10.3492
▁visas	-10.3498
▁200	-10.35
▁recession	-10.3509
▁sets	-10.3513
▁determine	-10.3518
▁i	-10.3522
▁requests	-10.3529
level	-10.3535
atory	-10.354
▁detention	-10.3542
▁harm	-10.3542
ron	-10.355
▁correctly	-10.355
▁complain	-10.3558
▁sphere	-10.3559
▁students	-10.3561
▁fields	-10.357
ny	-10.3574
▁wind	-10.3583
▁described	-10.3588
▁correspond	-10.3592
▁Latvia	-10.3592
▁root	-10.3592
▁disappear	-10.3608
▁credible	-10.3608
▁carrying	-10.3611
▁appears	-10.362
▁argue	-10.3642
▁leads	-10.365
▁reflected	-10.3652
▁bureaucratic	-10.3659
▁channel	-10.3675
▁utmost	-10.3675
▁acting	-10.3676
▁somewhat	-10.3692
▁ruling	-10.3692
▁weaken	-10.3699
▁undertaken	-10.3701
▁attempts	-10.3707
▁Albania	-10.3709
▁Employment	-10.3709
▁Netherlands	-10.3709
▁background	-10.3709
▁codecision	-10.3709
▁component	-10.3709
▁running	-10.3711
uff	-10.3712
▁card	-10.3713
▁indicators	-10.3723
▁harmonised	-10.3724
▁indication	-10.3726
▁below	-10.3726
▁quote	-10.3732
day	-10.3737
ik	-10.3737
▁historic	-10.3742
▁mandatory	-10.3743
▁tragic	-10.3743
▁postpone	-10.3743
▁argument	-10.3759
▁penalties	-10.376
▁possibly	-10.376
▁estimated	-10.3762
▁employers	-10.3781
▁easily	-10.3794
▁Iceland	-10.3794
▁destroy	-10.3795
▁constitutional	-10.3805
▁solely	-10.3811
▁governing	-10.3814
▁quota	-10.3815
▁economically	-10.383
▁difficulty	-10.3838
▁chapter	-10.3845
▁necessity	-10.3845
▁intelligent	-10.3845
ral	-10.3848
leg	-10.3849
para	-10.3852
▁links	-10.3853
▁qualified	-10.3862
▁dossier	-10.3862
▁applications	-10.3874
▁legitimacy	-10.3879
▁follows	-10.3884
▁settlement	-10.3887
▁die	-10.3888
▁vessels	-10.389
▁confront	-10.3896
▁species	-10.3899
▁succeeded	-10.3908
ALE	-10.3913
▁unnecessary	-10.3913
ending	-10.3916
▁unity	-10.3925
▁constant	-10.3928
▁youth	-10.3932
▁investors	-10.3934
▁claims	-10.3937
▁notice	-10.3937
▁showing	-10.394
▁ratified	-10.3948
▁Both	-10.3954
▁fleet	-10.3959
▁Sarkozy	-10.3965
▁contributing	-10.3965
ina	-10.3978
▁Verts	-10.3982
▁qualifications	-10.3982
▁tragedy	-10.3982
▁22	-10.3985
▁trial	-10.3986
SA	-10.3987
wide	-10.3992
▁mobilise	-10.4
▁Common	-10.4001
▁Iranian	-10.4003
▁referring	-10.402
▁Subject	-10.4034
▁secret	-10.4034
▁foster	-10.4036
▁regardless	-10.4036
▁amended	-10.4047
▁await	-10.4052
▁interpret	-10.4054
▁treaties	-10.4055
▁genuinely	-10.4062
▁revised	-10.4063
imbabwe	-10.4069
▁Regard	-10.4069
▁NGOs	-10.4087
▁faith	-10.4087
▁rapidly	-10.4091
outh	-10.4102
▁Consequently	-10.4104
▁stands	-10.411
▁punish	-10.4114
▁completed	-10.4117
▁tariff	-10.4117
▁leaving	-10.4122
▁touch	-10.4126
▁prospects	-10.4135
▁tobacco	-10.4139
▁proof	-10.4141
▁offence	-10.4146
▁division	-10.4157
▁eastern	-10.4157
▁heritage	-10.4157
▁exceed	-10.4157
▁sorry	-10.4157
▁yes	-10.4167
▁privacy	-10.4175
▁seeks	-10.4184
▁26	-10.4189
▁satisfied	-10.4192
▁intervene	-10.4193
▁predict	-10.4193
▁summer	-10.4193
▁10%	-10.4194
▁exemption	-10.4207
▁offering	-10.4213
▁dead	-10.4216
▁meaning	-10.4225
▁Protocol	-10.4228
▁collapse	-10.4228
▁na	-10.4235
▁Well	-10.4241
▁Agenda	-10.4245
▁sharing	-10.4246
2010	-10.426
terinstitutional	-10.4263
▁afraid	-10.4263
▁Legal	-10.4263
▁image	-10.4263
▁alcohol	-10.4281
▁convergence	-10.4281
▁Home	-10.4285
▁respective	-10.4295
DA	-10.4295
▁petition	-10.4299
▁vast	-10.4299
▁shame	-10.4299
▁War	-10.4305
▁cru	-10.4307
▁bearing	-10.431
▁highlights	-10.4313
▁surely	-10.4334
ept	-10.4343
▁checks	-10.4355
▁essentially	-10.4369
▁Are	-10.4373
mar	-10.4382
▁Belgium	-10.4389
▁town	-10.4399
legislator	-10.4407
▁confident	-10.4407
▁widespread	-10.4407
▁reveal	-10.4407
▁powerful	-10.4407
▁obtained	-10.4415
▁update	-10.4417
▁bl	-10.4421
▁occupation	-10.4425
▁regulated	-10.4433
▁biofuels	-10.4438
▁code	-10.444
▁Belgian	-10.4443
▁complaints	-10.4444
▁meat	-10.4448
▁thorough	-10.4459
▁Climate	-10.4461
▁inadequate	-10.4461
▁friendly	-10.4464
▁Will	-10.4467
lock	-10.4469
General	-10.4477
placing	-10.4479
▁expensive	-10.4479
▁obliged	-10.4487
shop	-10.4488
▁guide	-10.4498
▁clarity	-10.4498
▁storage	-10.4498
▁mobilisation	-10.4498
▁educational	-10.4501
▁Information	-10.4516
▁went	-10.4525
▁pan	-10.4532
▁resident	-10.4534
▁consent	-10.4534
▁torture	-10.4534
▁fit	-10.4545
▁producing	-10.4547
▁transitional	-10.4551
▁female	-10.4552
▁insufficient	-10.4552
▁eye	-10.4567
▁elsewhere	-10.4571
▁toys	-10.4574
▁debated	-10.4575
▁compulsory	-10.4589
▁Because	-10.4608
▁imported	-10.4616
▁appoint	-10.4616
▁tend	-10.4619
so	-10.4623
▁admit	-10.4624
▁tough	-10.463
▁bus	-10.4638
▁entail	-10.4644
▁length	-10.4644
▁lift	-10.4645
▁Left	-10.4645
▁promised	-10.4645
▁presentation	-10.4652
▁failing	-10.4652
▁sustain	-10.4659
▁fairly	-10.466
▁hence	-10.4663
ana	-10.4671
▁minister	-10.4679
▁battle	-10.4682
▁Congo	-10.4683
uestion	-10.4687
▁deeply	-10.4697
depth	-10.4704
pen	-10.4712
2008	-10.4718
▁efficiently	-10.4723
▁warming	-10.4726
▁Britain	-10.4737
▁assurance	-10.4737
▁causing	-10.4756
▁map	-10.4771
2009	-10.4774
▁engine	-10.4775
▁Millennium	-10.4775
▁persist	-10.4775
ermost	-10.4776
▁track	-10.4776
▁entered	-10.4783
▁govern	-10.4784
▁28	-10.479
▁extending	-10.4793
▁Authority	-10.4794
▁Cohesion	-10.4794
▁drivers	-10.4795
ology	-10.4796
▁camp	-10.4797
▁mine	-10.4797
▁journalists	-10.4801
employed	-10.4808
▁Atlantic	-10.4812
▁universities	-10.4812
▁amend	-10.4815
7%	-10.4825
▁organise	-10.483
▁inequalities	-10.4831
▁marine	-10.4831
▁optimis	-10.4832
▁suggested	-10.4846
▁scrutiny	-10.485
▁Day	-10.485
▁40%	-10.485
▁adaptation	-10.4853
▁constitutes	-10.4855
▁sw	-10.4862
▁approximately	-10.4865
▁stressed	-10.4866
▁quick	-10.4868
▁maintained	-10.4869
▁watch	-10.4869
▁vehicle	-10.487
▁occurred	-10.487
▁briefly	-10.4876
▁earthquake	-10.4888
▁Joint	-10.4889
▁unemployed	-10.4892
▁Second	-10.4906
▁doubts	-10.4907
▁Petitions	-10.4907
▁anniversary	-10.4907
▁percentage	-10.4907
▁Centre	-10.4907
▁freely	-10.4914
umb	-10.4922
▁lend	-10.4923
▁courts	-10.4924
▁stipulat	-10.4926
▁abroad	-10.4926
6%	-10.4931
▁suggestions	-10.4939
▁expansion	-10.4945
▁investigate	-10.4945
▁flow	-10.4947
▁satisfactory	-10.4964
▁favourable	-10.4973
▁deaths	-10.4975
▁Socialists	-10.4986
▁differ	-10.4998
▁flows	-10.5
▁deserves	-10.5001
▁Montenegro	-10.5041
▁viable	-10.5042
▁willingness	-10.5042
▁financed	-10.5049
▁ideal	-10.505
▁article	-10.506
▁picture	-10.506
▁drop	-10.506
▁ageing	-10.5067
▁Slovenia	-10.5068
▁Budgets	-10.507
▁assets	-10.5095
▁indicated	-10.5095
▁Neighbourhood	-10.5099
▁revolution	-10.5099
▁blame	-10.5099
▁openness	-10.5112
▁maternity	-10.5118
▁50%	-10.5119
time	-10.5122
▁prospect	-10.5123
▁Conservative	-10.5137
▁solid	-10.5138
50	-10.5143
▁compete	-10.5157
▁Obviously	-10.5157
▁uncertainty	-10.5158
▁advantages	-10.5171
▁opposite	-10.5176
▁forests	-10.5184
▁apart	-10.5197
▁tangible	-10.5215
▁unique	-10.5215
▁rare	-10.5216
▁pesticides	-10.5219
▁intensive	-10.5232
▁commend	-10.5235
▁signing	-10.524
stitution	-10.5242
▁ratify	-10.5255
▁search	-10.5255
▁shift	-10.5255
▁Also	-10.5256
▁remaining	-10.5303
▁Schulz	-10.5314
▁protocol	-10.5314
country	-10.5317
30	-10.5321
▁ecological	-10.5334
▁freight	-10.5334
▁platform	-10.5334
▁29	-10.5334
▁Islamic	-10.5337
▁notably	-10.5338
af	-10.5339
▁scandal	-10.5354
▁armed	-10.5355
▁2003	-10.5356
▁Slovenian	-10.5365
▁31	-10.5374
atic	-10.5391
ET	-10.5397
▁partly	-10.5402
▁actors	-10.5403
▁patient	-10.5403
▁macro	-10.5413
▁Soviet	-10.5413
▁disabled	-10.5413
▁2002	-10.5416
▁modes	-10.542
tergovernmental	-10.5423
▁meant	-10.5426
▁friend	-10.5428
▁prefer	-10.5434
▁broader	-10.5443
▁talked	-10.5444
▁joined	-10.5453
▁She	-10.5454
▁victim	-10.5464
▁turned	-10.5465
▁teach	-10.5471
right	-10.5472
▁GUE	-10.5473
▁Please	-10.5473
▁shortcomings	-10.5473
ploy	-10.5474
▁transatlantic	-10.5474
▁declared	-10.5476
4%	-10.5477
▁refuse	-10.549
▁collaboration	-10.5494
▁conviction	-10.5494
▁stimulate	-10.5494
▁eyes	-10.55
▁stance	-10.5506
▁adjustment	-10.5507
▁providers	-10.5508
▁integrity	-10.5514
▁consequence	-10.5526
▁prompt	-10.5534
session	-10.5538
▁terrible	-10.5554
▁removed	-10.5565
▁shortage	-10.5566
▁protectionism	-10.5572
▁Does	-10.5572
▁depriv	-10.5574
▁electoral	-10.5574
▁transposition	-10.5574
▁managing	-10.5574
▁earn	-10.5576
discrimination	-10.5579
▁killed	-10.5589
▁breach	-10.5612
▁imagine	-10.5615
▁inhabitants	-10.5615
▁sake	-10.5615
▁game	-10.5615
aw	-10.5617
▁Industry	-10.5636
ya	-10.5639
▁drafting	-10.5639
▁promises	-10.5648
▁advice	-10.5656
▁consistency	-10.5656
off	-10.5659
▁Mon	-10.5659
▁defending	-10.5663
▁Olympic	-10.5676
▁street	-10.5676
hood	-10.5679
▁perfectly	-10.5694
▁suspended	-10.5695
▁Dutch	-10.5697
▁Estonia	-10.5697
▁clarification	-10.5697
▁smaller	-10.5697
▁shape	-10.5698
▁EGF	-10.5701
▁drugs	-10.5703
▁considerably	-10.5703
reg	-10.5714
▁evident	-10.5718
▁Goals	-10.5718
▁attractive	-10.572
▁listened	-10.5725
NGL	-10.5738
▁supplier	-10.5738
▁imposing	-10.5738
▁Office	-10.5746
ological	-10.5752
▁Tibet	-10.5755
▁Galileo	-10.5759
▁destruction	-10.5759
▁endeavour	-10.5759
▁relative	-10.5765
▁Danube	-10.578
▁territories	-10.578
▁decline	-10.578
▁tonnes	-10.578
quality	-10.578
▁Any	-10.5781
fully	-10.5786
▁estimate	-10.5798
▁himself	-10.58
▁dictatorship	-10.5801
▁reflects	-10.5815
▁declare	-10.5819
▁invite	-10.5819
▁socio	-10.582
▁focusing	-10.5822
▁rely	-10.5822
▁tension	-10.5823
▁shock	-10.5842
▁inflation	-10.5842
▁repeated	-10.586
▁Secretary	-10.5863
▁prevail	-10.5863
▁pilot	-10.5863
▁became	-10.5884
▁2015	-10.5885
▁dependence	-10.5886
▁pla	-10.5889
▁explanations	-10.589
connect	-10.5904
▁brutal	-10.5905
▁rational	-10.5906
ttle	-10.5917
▁city	-10.5933
▁Freedom	-10.5947
▁promoted	-10.5948
▁ambitions	-10.5948
▁airport	-10.5948
▁Van	-10.5955
ek	-10.5968
▁London	-10.5968
▁reconciliation	-10.5968
▁volume	-10.5968
▁poll	-10.5968
▁Reform	-10.597
▁older	-10.598
▁lie	-10.598
▁gradually	-10.5983
▁informal	-10.5988
▁afternoon	-10.5989
▁142)	-10.5989
▁alongside	-10.5994
▁frequently	-10.6
▁Small	-10.601
▁cap	-10.6013
▁USA	-10.6026
▁extraordinary	-10.6031
matic	-10.604
▁beneficiaries	-10.6053
▁consolidation	-10.6053
▁implications	-10.6053
▁receiving	-10.6053
▁ownership	-10.6053
▁sincere	-10.6071
▁tape	-10.6074
▁began	-10.6075
▁combined	-10.6078
▁stations	-10.6082
▁Herzegovina	-10.6095
▁threshold	-10.6095
▁publish	-10.6105
▁recover	-10.6107
▁net	-10.6128
▁creative	-10.616
initiative	-10.6168
▁bar	-10.6175
▁disadvantage	-10.618
▁restricted	-10.618
▁Treaties	-10.6181
▁broadcast	-10.6181
▁undertake	-10.6192
▁justify	-10.6197
▁repeatedly	-10.6202
▁Association	-10.6203
▁Liberties	-10.6203
▁accompanied	-10.6203
▁losing	-10.6203
▁jointly	-10.6204
commun	-10.6208
▁socialist	-10.6211
▁elderly	-10.6225
▁Europol	-10.6226
▁route	-10.6228
▁proven	-10.6231
ft	-10.6245
▁Communist	-10.6246
▁farms	-10.6248
credit	-10.6255
▁Democratic	-10.6268
▁Innovation	-10.6268
▁merit	-10.6269
sceptic	-10.6271
▁Cor	-10.6277
▁Ne	-10.6284
▁consist	-10.6289
▁abolition	-10.629
▁banana	-10.6291
work	-10.6298
▁routes	-10.6308
▁sugar	-10.6312
▁rescue	-10.6312
▁Muslim	-10.6334
▁continuous	-10.6334
▁arising	-10.6334
▁wording	-10.6338
down	-10.6353
▁preference	-10.6357
▁schedule	-10.6377
▁threatened	-10.6386
▁appointment	-10.6389
state	-10.6398
▁passport	-10.6401
▁missing	-10.6402
▁whereby	-10.6409
▁minute	-10.6415
▁wages	-10.6417
▁Ukrainian	-10.6422
▁facilitating	-10.6422
ah	-10.6427
▁fewer	-10.6439
▁fix	-10.6444
▁Doha	-10.645
▁larger	-10.6451
▁formula	-10.6456
▁drafted	-10.646
▁coherence	-10.6466
▁vocational	-10.6466
▁80%	-10.6466
▁endorsed	-10.647
pproval	-10.6481
▁execution	-10.6482
▁Mexico	-10.6488
▁accurate	-10.6488
▁closure	-10.6488
▁controversial	-10.6488
▁television	-10.6488
▁transit	-10.649
▁promise	-10.6495
▁turning	-10.6497
▁Most	-10.6498
▁Slovak	-10.6509
▁everybody	-10.651
▁reconstruction	-10.651
▁rigorous	-10.651
▁simplified	-10.651
▁south	-10.6511
▁expertise	-10.6511
▁humanity	-10.6521
▁violent	-10.6533
▁ECB	-10.6535
▁nine	-10.6536
▁expressing	-10.6546
▁300	-10.6547
▁Caucasus	-10.6555
▁attract	-10.6574
▁Lu	-10.6589
▁whereas	-10.6596
▁1990	-10.66
▁mitigat	-10.66
▁website	-10.66
▁citizenship	-10.6601
▁seekers	-10.661
▁lobby	-10.6622
▁Stockholm	-10.6622
▁connected	-10.6623
▁planet	-10.6626
▁character	-10.6644
SL	-10.6644
▁redundant	-10.6645
▁army	-10.6645
▁bill	-10.6666
▁troops	-10.6668
▁multiannual	-10.6668
▁Other	-10.669
▁investing	-10.6699
▁discipline	-10.6713
▁mobile	-10.6713
▁undertakings	-10.6722
yes	-10.6735
▁adverse	-10.6736
▁blood	-10.6736
▁necessarily	-10.6736
▁Obama	-10.6759
▁jurisdiction	-10.6759
▁saving	-10.6772
▁pleasure	-10.6782
▁modernisation	-10.6785
▁marking	-10.6786
turn	-10.679
▁Decision	-10.6804
▁hunger	-10.6804
▁unprecedented	-10.6804
▁gross	-10.6804
▁unilateral	-10.6806
▁perfect	-10.6807
law	-10.682
▁ecosystem	-10.6827
▁falling	-10.6836
disproportionate	-10.685
▁149)	-10.685
▁Wall	-10.6857
▁cutting	-10.6861
▁foundation	-10.6871
▁president	-10.6872
▁popular	-10.6874
▁exclusively	-10.689
▁Through	-10.6897
▁comparison	-10.6897
▁persecution	-10.6897
▁surprised	-10.6913
▁Nonetheless	-10.692
▁orientation	-10.692
▁instability	-10.692
▁hazardous	-10.6921
▁stick	-10.6923
▁interim	-10.6929
▁allocat	-10.6931
▁imbalances	-10.6931
▁accountability	-10.6931
▁explanation	-10.6936
air	-10.694
▁sincerely	-10.6942
▁imperative	-10.6943
BG	-10.695
▁punishment	-10.6953
▁fill	-10.6957
▁excluded	-10.6959
▁drug	-10.696
standing	-10.6964
▁Man	-10.6971
▁Liberals	-10.6985
ko	-10.6989
▁wave	-10.6991
▁none	-10.6995
▁Ho	-10.7011
▁Labour	-10.7013
▁prevented	-10.702
▁coastal	-10.7022
▁MEP	-10.7031
▁clearer	-10.7032
▁congratulations	-10.7037
▁inclusive	-10.7037
▁internet	-10.7037
▁standing	-10.7041
back	-10.7045
mini	-10.7046
▁throw	-10.706
▁strive	-10.706
▁usual	-10.7064
▁hopefully	-10.7066
▁alarming	-10.7082
▁acquire	-10.7084
▁repression	-10.7084
▁broke	-10.7085
▁entrepreneurs	-10.7107
▁quarter	-10.7107
▁satisfaction	-10.7107
▁showed	-10.7109
▁sold	-10.711
▁supplement	-10.7129
PA	-10.714
▁Otherwise	-10.7155
▁privilege	-10.7155
▁resolving	-10.7155
▁totalitarian	-10.7155
▁condemned	-10.7167
▁coast	-10.7169
▁transplant	-10.7179
▁Two	-10.7179
▁fourth	-10.7197
▁forgotten	-10.7203
▁procedural	-10.7203
▁IMF	-10.7203
effective	-10.7218
8%	-10.7223
▁voters	-10.723
▁Air	-10.7235
▁uphold	-10.7244
▁sought	-10.7251
▁halt	-10.7251
▁2001	-10.7253
▁systematic	-10.7256
▁advanced	-10.7261
▁Special	-10.7275
▁livestock	-10.7275
▁tuna	-10.7275
like	-10.7277
▁Allow	-10.7282
▁gather	-10.7299
▁woman	-10.7299
▁bound	-10.7299
▁observed	-10.73
print	-10.7315
▁austerity	-10.7323
▁bomb	-10.7323
▁widely	-10.7325
▁engaged	-10.7338
▁disappointed	-10.7347
▁reaffirm	-10.7347
▁convey	-10.7347
▁smart	-10.7347
▁moreover	-10.7358
▁journey	-10.7371
▁English	-10.7396
▁reservations	-10.7396
▁assert	-10.7399
▁productive	-10.7416
▁aircraft	-10.742
▁residence	-10.742
▁robust	-10.742
▁blue	-10.742
▁foresee	-10.7421
▁ECR	-10.7423
▁director	-10.7442
MO	-10.7449
▁subsequent	-10.7449
▁unanimously	-10.7461
relatively	-10.7461
▁decrease	-10.7469
▁integrate	-10.747
ER	-10.7486
▁safeguarding	-10.7487
▁Wednesday	-10.7494
▁autonomy	-10.7494
▁principal	-10.7494
▁divide	-10.7495
▁progressive	-10.7514
▁discover	-10.7518
▁multinational	-10.7519
▁frank	-10.7543
▁incentive	-10.7546
▁Education	-10.7568
▁gambling	-10.7568
▁Tourism	-10.7568
▁Rome	-10.757
▁career	-10.7591
▁facility	-10.7592
▁lifelong	-10.7593
▁night	-10.7596
▁Tibetan	-10.7597
▁August	-10.7617
▁familiar	-10.7617
▁timetable	-10.7618
▁exert	-10.7619
▁directed	-10.7624
▁cope	-10.7624
▁Culture	-10.7642
▁abortion	-10.7642
▁exposed	-10.7642
▁examined	-10.7664
▁2007-2013	-10.7668
▁relate	-10.7675
▁violate	-10.7677
▁ignored	-10.7678
▁released	-10.7685
▁incorporate	-10.7694
▁mental	-10.77
▁Ko	-10.7706
▁Canc	-10.7714
where	-10.7714
▁adult	-10.7718
▁roll	-10.7718
▁Chad	-10.7722
▁unfortunate	-10.7723
▁suit	-10.7733
▁applaud	-10.7743
▁dioxide	-10.7743
▁equivalent	-10.7743
▁hospital	-10.7743
▁maintenance	-10.7743
▁characteristics	-10.7743
▁spring	-10.7746
▁His	-10.7751
▁sites	-10.7754
▁accelerate	-10.7768
▁stringent	-10.7768
▁consistently	-10.7775
round	-10.7784
▁neighbour	-10.7784
▁excuse	-10.7793
▁stream	-10.7793
▁dumping	-10.7819
▁suspect	-10.7844
▁horizontal	-10.7844
▁reverse	-10.7844
▁cycle	-10.7846
▁disadvantaged	-10.7846
▁deny	-10.7852
▁distance	-10.787
ough	-10.7874
ivity	-10.7877
▁outstanding	-10.7881
▁Part	-10.7889
▁database	-10.7895
▁unlike	-10.79
emen	-10.7914
▁Area	-10.7915
▁neglect	-10.7921
▁manufacturing	-10.7921
▁Hamas	-10.7921
▁hardly	-10.7935
medicinal	-10.7946
▁location	-10.7946
▁forecast	-10.7947
▁Like	-10.7948
▁illegally	-10.7958
▁suggestion	-10.797
▁closing	-10.7972
▁SIS	-10.7972
▁begun	-10.7972
▁era	-10.7976
▁Belarusian	-10.7977
▁employed	-10.7982
▁radio	-10.7983
▁distribute	-10.7998
ham	-10.8009
▁regularly	-10.802
▁parallel	-10.8024
▁keen	-10.8024
▁tolerance	-10.8024
▁covering	-10.8038
▁player	-10.8044
▁incorporated	-10.8048
▁drink	-10.805
▁participating	-10.805
▁profound	-10.805
▁scenario	-10.805
▁refused	-10.8054
▁pact	-10.8071
▁Clearly	-10.8076
▁Equality	-10.8082
▁80	-10.8102
▁disparities	-10.8102
▁statistical	-10.8102
▁timber	-10.8102
▁adhere	-10.8106
▁Tak	-10.8116
▁Criminal	-10.8128
▁Guant	-10.8128
▁guard	-10.8128
▁bio	-10.8133
▁basically	-10.8139
friendly	-10.815
2007	-10.815
▁Business	-10.8155
▁Declaration	-10.8181
▁category	-10.8181
▁habit	-10.8181
▁surrounding	-10.8181
▁tribute	-10.8181
▁expert	-10.8194
▁father	-10.8207
▁visible	-10.8207
▁bond	-10.8207
▁preventive	-10.8208
bove	-10.8209
▁Lo	-10.8223
J	-10.823
▁constituent	-10.8234
▁impetus	-10.8234
▁travelling	-10.8239
▁wise	-10.8239
▁reflection	-10.8241
▁Bar	-10.8251
▁approaches	-10.8253
▁rid	-10.826
▁Trans	-10.826
▁listening	-10.8261
namo	-10.8261
▁undertaking	-10.8277
▁Concern	-10.8287
▁smooth	-10.8287
▁doctor	-10.8287
▁resistance	-10.8288
▁harmonise	-10.829
▁categories	-10.8313
▁defining	-10.8313
▁envisaged	-10.8329
▁immunity	-10.834
▁spectrum	-10.834
9%	-10.8343
▁died	-10.8345
▁engagement	-10.8349
efficient	-10.8364
▁divided	-10.8366
▁extract	-10.8371
▁adapted	-10.8383
▁disabilities	-10.8394
▁convince	-10.8398
▁Bulgarian	-10.8416
ould	-10.8418
▁adequately	-10.8418
▁CE	-10.8421
▁controlled	-10.8432
▁decade	-10.8441
▁abstain	-10.8442
EN	-10.8443
known	-10.8445
▁encounter	-10.8448
▁Institute	-10.8448
▁minimis	-10.8448
▁OSCE	-10.8448
▁contrast	-10.8448
▁worthy	-10.8449
▁consolidate	-10.8452
05	-10.8457
▁hundred	-10.8468
▁Nabucco	-10.8475
▁pharmaceutical	-10.8475
▁liability	-10.8475
▁contradict	-10.8476
▁presidential	-10.8476
▁cent	-10.8495
▁ceiling	-10.8502
▁prerequisite	-10.8502
▁redundancies	-10.8502
▁banned	-10.8502
▁UEN	-10.8503
▁translate	-10.8503
▁formulate	-10.8504
ranging	-10.8505
▁gradual	-10.8509
▁solved	-10.8518
building	-10.852
discriminatory	-10.8529
▁Syria	-10.8529
▁exclusive	-10.8537
▁Region	-10.8547
▁warmly	-10.8548
▁settle	-10.8549
▁strictly	-10.8554
▁fate	-10.8566
load	-10.8574
Constitutional	-10.8577
▁2014	-10.8584
▁programming	-10.8584
▁signature	-10.8584
▁transform	-10.8603
ja	-10.8603
▁Balkan	-10.8607
continuation	-10.8612
▁Switzerland	-10.8612
▁Taiwan	-10.8612
▁conservation	-10.8612
▁variety	-10.8612
▁executive	-10.8614
▁killing	-10.8637
▁dream	-10.8639
▁pragmatic	-10.8639
▁fresh	-10.8639
▁lesson	-10.8644
▁Paris	-10.8645
▁subsequently	-10.8662
CO	-10.8663
▁Barrot	-10.8667
▁outlined	-10.8667
▁attain	-10.8667
war	-10.8668
▁invited	-10.867
▁absurd	-10.8694
▁concentration	-10.8694
▁renewed	-10.8694
▁draftsman	-10.8695
▁helpful	-10.8702
▁waiver	-10.8703
▁Islam	-10.8719
democratic	-10.8721
▁Chair	-10.8722
▁interference	-10.8722
▁yourself	-10.8722
▁criticise	-10.8727
circ	-10.8729
▁regulator	-10.8741
▁containing	-10.8748
▁derogation	-10.875
▁newspaper	-10.875
▁recognising	-10.875
▁Somalia	-10.875
▁researchers	-10.875
recast	-10.8753
▁everywhere	-10.8753
▁initiated	-10.877
▁compatible	-10.8778
▁disrupt	-10.8778
▁foodstuffs	-10.8778
▁sudden	-10.8778
▁praise	-10.8779
▁simplifying	-10.8797
▁thousand	-10.8805
▁White	-10.8806
▁deliberate	-10.8806
▁innocent	-10.8806
▁satellite	-10.8834
▁false	-10.8834
▁alleged	-10.8834
▁resumed	-10.8844
▁acceptance	-10.8848
▁faster	-10.8851
▁soft	-10.8859
▁match	-10.8862
let	-10.8865
▁pursued	-10.8885
▁Ber	-10.889
▁Afghan	-10.8891
▁explor	-10.8891
▁entities	-10.8891
▁grave	-10.8891
▁permitted	-10.8895
▁tourist	-10.89
▁corporate	-10.8919
▁Who	-10.8924
▁withdrawal	-10.8938
▁autumn	-10.8947
▁pretext	-10.8947
▁regulating	-10.8947
▁Malta	-10.8947
▁marked	-10.8955
▁pain	-10.8992
▁Certain	-10.9004
▁comparable	-10.9004
▁elimination	-10.9004
▁recruit	-10.9004
▁shipyard	-10.9004
▁inequality	-10.9005
▁badly	-10.9008
aught	-10.9031
▁anticipate	-10.9033
▁enshrined	-10.9033
▁blind	-10.9033
▁Chairman	-10.9034
▁lawyer	-10.9036
▁civilisation	-10.9045
GA	-10.9051
▁stresses	-10.9059
▁retirement	-10.9062
▁focuses	-10.9063
▁breaches	-10.9072
▁Luxembourg	-10.9091
▁middle	-10.9091
▁install	-10.9091
▁destroyed	-10.9117
▁dictator	-10.9119
▁disastrous	-10.9119
▁neutral	-10.9119
▁van	-10.9134
▁Kar	-10.9137
▁benchmark	-10.9148
▁translation	-10.9148
finance	-10.915
▁realised	-10.9151
press	-10.9152
▁pick	-10.9156
▁slightly	-10.916
eath	-10.9168
▁Process	-10.9178
▁desirable	-10.9178
▁disregard	-10.9178
▁pursuing	-10.9178
▁sacrifice	-10.9178
▁Gender	-10.9178
▁distortion	-10.9182
▁Code	-10.9183
▁file	-10.9202
▁examination	-10.9207
▁removal	-10.9207
▁Martin	-10.9207
carbon	-10.9208
▁workplace	-10.9216
▁Working	-10.9218
reaching	-10.9235
▁fossil	-10.9236
▁precondition	-10.9236
▁Change	-10.9236
▁irregularities	-10.9236
▁25%	-10.9241
regulation	-10.9257
▁Global	-10.9264
▁Guinea	-10.9265
▁scientists	-10.9265
▁stopped	-10.9268
▁outset	-10.9269
▁adjust	-10.9275
▁usually	-10.929
▁coordinating	-10.9295
▁Among	-10.9295
▁tonight	-10.9296
▁acknowledged	-10.93
▁rejection	-10.9313
▁contradiction	-10.9323
▁survive	-10.9324
other	-10.9341
(2)	-10.9341
▁Progress	-10.9355
▁availability	-10.9383
▁conscience	-10.9383
▁jeopardise	-10.9383
▁trialogue	-10.9383
▁Gulf	-10.9383
▁conciliation	-10.9384
▁warm	-10.9385
▁replaced	-10.9409
▁Barnier	-10.9413
▁Dublin	-10.9413
▁Malmst	-10.9413
▁congratulating	-10.9413
▁precedent	-10.9413
▁reinforcing	-10.9413
▁Monday	-10.9414
▁restrictive	-10.9421
▁Director	-10.9435
▁OLAF	-10.9443
▁Finland	-10.9443
▁unanimous	-10.9453
▁Work	-10.9457
▁judiciary	-10.9473
▁misleading	-10.9473
▁nobody	-10.9473
▁trouble	-10.9473
▁wake	-10.9473
▁advise	-10.9475
▁north	-10.949
▁Beijing	-10.9503
▁College	-10.9503
▁activists	-10.9503
▁atmosphere	-10.9503
▁story	-10.9507
▁Hence	-10.9512
governmental	-10.9518
▁devoted	-10.9522
▁constituency	-10.9533
▁solving	-10.9533
▁resort	-10.9533
▁deriv	-10.9563
▁Citizens	-10.9563
▁nonetheless	-10.9563
▁endanger	-10.9563
▁specialist	-10.9572
▁complie	-10.9574
▁transaction	-10.9575
▁justification	-10.9589
▁Venezuela	-10.9594
▁deposit	-10.9594
▁transpose	-10.9594
▁announcement	-10.9599
▁tolerate	-10.9614
▁Barcelona	-10.9624
▁Prize	-10.9624
▁distinguish	-10.9624
▁eurozone	-10.9624
▁oppress	-10.9624
▁stabilisation	-10.9625
dict	-10.9625
▁tighten	-10.9627
▁logical	-10.963
▁sight	-10.963
▁reciprocity	-10.9655
▁stabilise	-10.9655
▁Mercosur	-10.9685
▁pluralism	-10.9685
▁IND	-10.9685
▁toxic	-10.9686
▁distinction	-10.9691
▁automotive	-10.9716
▁machine	-10.9716
▁modified	-10.9716
▁warn	-10.9736
▁damaging	-10.9747
▁dependency	-10.9747
▁diverse	-10.9747
▁recycling	-10.9747
▁meantime	-10.9749
▁detriment	-10.976
▁handling	-10.9766
▁exempt	-10.9784
▁describe	-10.9785
▁precarious	-10.9808
▁60%	-10.9809
▁productivity	-10.9809
▁alter	-10.9812
▁distort	-10.9835
▁accused	-10.9839
▁discriminate	-10.9839
▁extremist	-10.9839
▁fought	-10.9839
▁35	-10.9865
▁criticised	-10.9866
▁genetic	-10.9871
▁Denmark	-10.9871
place	-10.9877
▁unified	-10.9887
DEM	-10.9894
▁detect	-10.9902
▁enhancing	-10.9902
▁narrow	-10.9902
▁retail	-10.9902
▁zero	-10.9902
visual	-10.9902
call	-10.9906
▁obstacle	-10.992
-2013	-10.9932
▁diversification	-10.9933
▁silence	-10.9933
▁proportionality	-10.9933
▁shipping	-10.9936
Russia	-10.9939
▁vary	-10.9945
▁consolidated	-10.996
▁Rompuy	-10.9965
▁neoliberal	-10.9965
▁smoking	-10.9965
▁virtual	-10.9965
▁Morocco	-10.9996
▁energies	-10.9996
▁mountain	-10.9996
▁registration	-10.9996
▁struck	-10.9996
▁eventually	-10.9996
▁commissioner	-11.0013
▁Naturally	-11.0028
▁PNR	-11.0028
▁straight	-11.0028
▁soldiers	-11.0028
▁donation	-11.003
▁everyday	-11.0033
▁Seventh	-11.006
▁copyright	-11.006
▁twice	-11.006
▁redress	-11.006
▁consequently	-11.0065
▁remark	-11.0089
▁profession	-11.009
▁destination	-11.0091
▁traceability	-11.0091
▁essence	-11.0091
▁licence	-11.0091
▁empty	-11.0091
▁lobbyists	-11.0092
national	-11.0101
▁maybe	-11.0109
▁volunteer	-11.0123
▁Vot	-11.0137
▁fallen	-11.0145
serving	-11.0155
▁bottom	-11.0155
▁hinder	-11.0155
▁70%	-11.0155
▁Instrument	-11.0155
▁Support	-11.0155
▁democratisation	-11.0155
▁heavily	-11.0155
▁survey	-11.0155
▁workforce	-11.0155
▁thoroughly	-11.0159
▁explicitly	-11.0168
US	-11.0175
15	-11.0187
▁Darfur	-11.0188
▁northern	-11.0188
▁transferred	-11.0191
▁bold	-11.0192
▁initiate	-11.0196
▁mu	-11.021
▁Geneva	-11.022
▁Lanka	-11.022
▁exacerbate	-11.022
▁satisfy	-11.022
▁transmission	-11.0221
▁fulfilled	-11.0223
▁surprise	-11.0229
▁Armenia	-11.0252
▁Azerbaijan	-11.0252
▁communicate	-11.0252
▁pledge	-11.0252
▁vaccine	-11.0252
▁black	-11.0253
▁cens	-11.0254
▁symbolic	-11.0263
nnual	-11.0274
▁Alzheimer	-11.0285
▁Democracy	-11.0285
▁broadband	-11.0285
ugoslav	-11.0313
▁genocide	-11.0317
▁cease	-11.0317
▁hot	-11.0318
makers	-11.0344
▁Kyoto	-11.035
▁ethical	-11.035
▁piracy	-11.035
▁sex	-11.036
▁stem	-11.0368
▁enterprise	-11.0377
▁securing	-11.0383
▁computer	-11.0383
▁safer	-11.0385
▁stricter	-11.0411
▁resist	-11.0416
▁diplomacy	-11.0416
▁examining	-11.0416
▁authorised	-11.0422
▁combine	-11.0436
ultural	-11.0447
▁uncertain	-11.0447
▁Current	-11.0449
▁Palestine	-11.0449
▁certification	-11.0449
▁survival	-11.0449
▁prime	-11.0449
▁2050	-11.0451
▁rape	-11.0453
▁concluding	-11.0482
▁fragile	-11.0482
▁illustrate	-11.0482
▁remit	-11.0482
▁complexity	-11.0497
▁400	-11.0501
▁born	-11.0501
▁Communication	-11.0515
▁albeit	-11.0515
▁eliminating	-11.0515
▁holiday	-11.0515
▁moratorium	-11.0515
▁reassure	-11.0515
▁Unti	-11.0536
▁democratically	-11.0539
▁logic	-11.0542
▁overwhelming	-11.0548
▁pursuan	-11.0548
▁wall	-11.0553
▁quo	-11.0558
▁lit	-11.0563
▁reward	-11.0573
proliferation	-11.0582
▁ideological	-11.0582
▁persuade	-11.0582
▁vegetable	-11.0582
▁Great	-11.0582
▁align	-11.0582
▁construct	-11.0607
▁penalise	-11.0615
▁liquidity	-11.0617
▁systematically	-11.0617
▁celebrate	-11.0649
▁repercussions	-11.0649
▁denied	-11.0649
▁alleviat	-11.0649
▁overlook	-11.0659
▁capabilities	-11.0683
▁drastic	-11.0683
▁identification	-11.0683
▁sympathy	-11.0683
▁whatsoever	-11.0683
▁Bali	-11.0686
▁capacities	-11.0717
▁disturb	-11.0717
▁continual	-11.0717
▁dual	-11.0717
▁write	-11.0718
▁combination	-11.072
▁requir	-11.0732
▁race	-11.0751
▁forestry	-11.0753
▁hour	-11.0762
group	-11.0762
▁Ben	-11.0771
▁academic	-11.0785
▁located	-11.0785
▁preliminary	-11.0785
▁irrespective	-11.0785
▁refugee	-11.0792
▁won	-11.0799
▁cast	-11.081
▁fishery	-11.0819
▁isolation	-11.082
2006	-11.0831
▁1999	-11.0853
▁cornerstone	-11.0853
▁victory	-11.0853
▁issuing	-11.0854
▁Madeira	-11.0888
▁Network	-11.0888
▁bridge	-11.0888
▁remedy	-11.0888
▁sharp	-11.0888
▁100%	-11.0889
▁except	-11.0895
▁wonderful	-11.0898
▁trigger	-11.0922
▁catastrophe	-11.0922
▁university	-11.0922
▁personnel	-11.0922
▁western	-11.0923
oriented	-11.093
▁love	-11.0946
▁plea	-11.0956
▁Technology	-11.0957
▁discard	-11.0957
▁integral	-11.0957
▁duplicat	-11.0957
▁Recent	-11.0957
▁exclude	-11.0969
FA	-11.0971
▁modernise	-11.0972
change	-11.0976
▁Anti	-11.0978
▁borne	-11.1006
▁detrimental	-11.1011
▁Mugabe	-11.1027
▁irresponsible	-11.1027
▁preservation	-11.1027
▁proactive	-11.1027
▁Games	-11.1027
▁Rehn	-11.1027
▁electric	-11.1038
▁capitalist	-11.1039
▁equity	-11.1062
▁motivate	-11.1062
▁stimulus	-11.1062
▁weaknesses	-11.1062
▁compensate	-11.1062
▁hedge	-11.1062
▁composition	-11.1063
▁15%	-11.1073
▁Law	-11.1073
generation	-11.1076
▁Federation	-11.1097
▁Functioning	-11.1097
▁federal	-11.1097
▁storm	-11.1097
▁possess	-11.1098
▁problematic	-11.1105
▁asset	-11.1124
▁Similarly	-11.1133
▁deciding	-11.1133
▁display	-11.1133
▁monopoly	-11.1133
▁seize	-11.1134
▁sheep	-11.1137
▁Third	-11.1148
▁imm	-11.1156
▁90%	-11.1168
▁creativity	-11.1168
▁Lukashenko	-11.1204
▁ties	-11.1227
▁Verheugen	-11.1239
▁dedicated	-11.1239
▁disseminat	-11.1239
▁assembly	-11.1239
obb	-11.1265
lecommunications	-11.1275
▁inappropriate	-11.1275
▁protein	-11.1275
▁pace	-11.1275
▁pull	-11.1276
empt	-11.1282
comprehensible	-11.1311
▁repeal	-11.1311
▁customers	-11.1314
▁Board	-11.1315
▁finger	-11.1315
▁Fran	-11.1316
▁coach	-11.1318
Mediterranean	-11.1327
▁suspension	-11.1347
▁title	-11.1347
▁Everyone	-11.1349
▁reproductive	-11.1352
▁airline	-11.1364
grassroots	-11.1384
▁Christmas	-11.1384
▁Confedera	-11.1384
▁coordinator	-11.1384
▁paramount	-11.1384
▁privatisation	-11.1384
▁transnational	-11.1384
▁characterised	-11.1386
▁pave	-11.1389
▁escape	-11.142
▁imperialist	-11.142
▁managers	-11.1425
▁gear	-11.1431
Africa	-11.1436
▁condemnation	-11.145
▁definitive	-11.1456
▁emotion	-11.1456
▁excellence	-11.1456
▁indispensable	-11.1456
▁precaution	-11.1456
▁refusal	-11.1456
▁owe	-11.1458
▁disability	-11.1467
▁devise	-11.1473
▁constraints	-11.1493
▁deforestation	-11.1493
▁disgrace	-11.1493
▁facilitation	-11.1493
▁volatility	-11.1493
▁Reding	-11.1495
▁teachers	-11.15
▁anywhere	-11.1504
▁revise	-11.1507
regional	-11.151
▁stating	-11.1514
▁flu	-11.1519
▁fault	-11.153
▁surplus	-11.153
▁suspend	-11.1534
establish	-11.1547
▁terror	-11.1553
▁accompany	-11.1567
▁exhaust	-11.1567
▁removing	-11.1567
▁devote	-11.1597
▁confusion	-11.1604
▁earmarked	-11.1604
▁militari	-11.1604
▁resettlement	-11.1604
▁strange	-11.1604
▁boat	-11.1604
▁backward	-11.1616
▁painful	-11.1625
▁extremism	-11.1641
▁electrical	-11.1662
RA	-11.1663
▁automatic	-11.1677
▁completion	-11.1678
ruct	-11.1714
▁substantive	-11.1716
▁wholeheartedly	-11.1716
▁worried	-11.1716
▁earth	-11.1716
▁macroeconomic	-11.1716
▁Bureau	-11.1753
▁Moscow	-11.1753
▁synergies	-11.1753
▁harsh	-11.1753
▁organising	-11.1758
▁dare	-11.1766
▁ultimate	-11.1771
▁radioactive	-11.1791
▁separation	-11.1791
▁industrialised	-11.1801
with	-11.181
▁purchasing	-11.1829
▁frequent	-11.1847
▁Iraqi	-11.1847
▁statute	-11.1867
▁confine	-11.1867
▁Combat	-11.1868
▁warrant	-11.187
hould	-11.1876
human	-11.1896
▁Whilst	-11.1905
▁corridor	-11.1905
▁chairman	-11.1907
▁Round	-11.1907
▁caught	-11.1908
▁appalling	-11.1943
▁evasion	-11.1943
▁relocation	-11.1943
▁unequivocal	-11.1943
▁yield	-11.1943
▁deployment	-11.1943
▁Japanese	-11.1943
▁isolated	-11.1944
AIDS	-11.1982
▁Foundation	-11.1982
▁inevitably	-11.1982
▁parliamentarian	-11.1982
▁elite	-11.1982
Maritime	-11.1982
▁150	-11.1998
keeping	-11.2003
▁Caribbean	-11.202
▁criterion	-11.202
▁fashion	-11.202
▁intensify	-11.202
▁salaries	-11.202
▁calm	-11.2021
▁preferred	-11.2022
ugoslavia	-11.2026
EEC	-11.2059
▁Sakharov	-11.2059
▁Stream	-11.2059
▁church	-11.2059
▁switch	-11.2059
▁Pacific	-11.2059
▁cite	-11.2063
▁Workers	-11.2064
▁tight	-11.2065
▁migrant	-11.2084
▁exact	-11.2088
tabilisation	-11.2097
▁Statute	-11.2098
▁indirectly	-11.2098
▁linguistic	-11.2098
▁inspire	-11.2098
▁store	-11.2101
▁Burmese	-11.2137
▁denounce	-11.2137
▁kilometre	-11.2137
▁racism	-11.2137
▁transformation	-11.2151
fold	-11.2165
▁Asylum	-11.2176
▁agents	-11.2177
▁standardisation	-11.2184
▁envisage	-11.2192
▁Erasmus	-11.2216
▁HIV	-11.2216
▁manifest	-11.2216
▁Against	-11.2218
▁Poverty	-11.2255
▁Tuesday	-11.2255
▁Michel	-11.2255
▁Scotland	-11.2295
▁delegated	-11.2295
▁simultaneous	-11.2295
▁incorrect	-11.2295
▁prioritise	-11.2295
▁automatically	-11.2297
▁Ferrero	-11.2335
▁Initiative	-11.2335
▁Vietnam	-11.2335
▁artificial	-11.2335
▁desperate	-11.2335
▁devastating	-11.2335
▁impartial	-11.2335
▁Would	-11.2337
▁reconcile	-11.2347
Waldner	-11.2375
▁clarified	-11.2375
▁recital	-11.2375
▁slaughter	-11.2375
▁instruct	-11.2375
▁accomplish	-11.2375
▁fulfilling	-11.238
▁execut	-11.2382
minute	-11.2398
▁Recovery	-11.2415
▁Opening	-11.2415
▁winner	-11.2417
▁blow	-11.2444
▁eco	-11.2448
▁fifth	-11.2455
entrepreneurship	-11.2456
▁admitted	-11.2459
esterday	-11.2496
▁Resolution	-11.2496
▁Together	-11.2496
▁speculative	-11.2496
▁wild	-11.2496
▁capture	-11.2497
▁consume	-11.2528
▁Meanwhile	-11.2536
▁demonstrating	-11.2536
▁impunity	-11.2536
▁split	-11.2536
▁communist	-11.2537
▁unrest	-11.2537
▁taxpayer	-11.2571
▁Mauritania	-11.2577
▁Ossetia	-11.2577
▁biometric	-11.2577
▁monopolies	-11.2577
▁determin	-11.2581
▁electorate	-11.2618
▁remote	-11.2618
▁Washington	-11.2659
▁recipient	-11.2659
▁vigilant	-11.2659
▁confuse	-11.2659
▁hide	-11.266
▁preserving	-11.2661
▁supplementary	-11.2663
▁officers	-11.2666
▁Lebanon	-11.2701
▁Political	-11.2701
▁marriage	-11.2701
▁interfere	-11.2701
▁invent	-11.2703
▁bigger	-11.2703
▁courageous	-11.2705
▁diminish	-11.2742
▁mainstream	-11.2742
▁vigorous	-11.2742
▁apologise	-11.2742
▁drought	-11.2742
▁liberties	-11.2742
▁unanimity	-11.2742
▁utilise	-11.2742
▁enrich	-11.2742
▁profile	-11.2742
▁delete	-11.2752
▁cultivat	-11.2784
▁Australia	-11.2784
▁Merkel	-11.2784
▁cluster	-11.2784
▁delicate	-11.2784
▁displaced	-11.2784
▁auction	-11.2784
▁ICT	-11.2784
▁Brok	-11.2787
▁violat	-11.2804
▁Progressiv	-11.2823
▁undermining	-11.2826
▁relief	-11.2826
▁repair	-11.2826
▁Jean	-11.2826
▁hydrogen	-11.2826
▁remarkable	-11.283
product	-11.285
▁cautious	-11.2868
▁unresolved	-11.2868
▁cooperating	-11.291
▁generous	-11.291
▁perpetrators	-11.291
▁cofinancing	-11.2911
▁meaningful	-11.2928
▁Tajani	-11.2952
▁appreciation	-11.2952
▁champion	-11.2952
▁divorce	-11.2952
▁manipulat	-11.2952
▁rhetoric	-11.2952
▁GSP	-11.2952
▁absent	-11.2952
▁underpin	-11.2953
▁hoping	-11.2955
polluter	-11.2956
▁compare	-11.2972
▁cereal	-11.2995
▁indigenous	-11.2995
▁renewal	-11.2995
▁illness	-11.3
▁Danish	-11.3038
▁Documents	-11.3038
▁summary	-11.3038
▁surprising	-11.3038
▁Kenya	-11.3038
▁educate	-11.3038
▁Egyptian	-11.3042
▁Berlin	-11.3048
▁rebuild	-11.3048
▁Directorate	-11.305
▁commission	-11.3058
▁Defence	-11.308
▁viability	-11.3081
▁river	-11.3081
▁abide	-11.3081
▁fruitful	-11.3095
▁Abkhazia	-11.3124
▁arbitrary	-11.3124
▁attribut	-11.3124
▁calculation	-11.3124
▁underestimate	-11.3124
▁phone	-11.3124
productive	-11.3151
▁bluefin	-11.3167
▁comitology	-11.3167
▁pursuit	-11.3167
▁alliance	-11.3167
▁multiple	-11.3169
▁Eurostat	-11.3172
▁deterioration	-11.321
▁immense	-11.321
▁interrupt	-11.321
▁circle	-11.3211
▁intense	-11.3211
▁embark	-11.3254
interoperability	-11.3254
▁Correction	-11.3254
▁SWIFT	-11.3254
▁architecture	-11.3254
▁typical	-11.3254
▁Personally	-11.3298
▁injured	-11.3298
▁ticket	-11.3298
▁weapon	-11.3304
▁spare	-11.3307
▁conscious	-11.3342
esumption	-11.3342
▁luck	-11.3342
▁grand	-11.3342
▁equipped	-11.3342
▁duly	-11.3343
▁Peace	-11.3386
▁aquaculture	-11.3386
▁merge	-11.3417
▁aggressive	-11.3431
▁occupied	-11.3431
▁prejudice	-11.3431
▁province	-11.3431
▁fatal	-11.3431
▁biological	-11.3431
▁alert	-11.3435
▁excess	-11.3472
▁assumption	-11.3475
▁coincide	-11.3475
▁enthusiasm	-11.3475
▁reconsider	-11.3475
▁Norway	-11.3478
▁ease	-11.348
▁arrangement	-11.3485
▁Govern	-11.3516
▁Federal	-11.352
▁Nuclear	-11.352
▁challenging	-11.352
▁phrase	-11.352
▁invitation	-11.352
▁upcoming	-11.3521
▁rain	-11.3521
▁Liberal	-11.353
▁chose	-11.3554
▁Friday	-11.3565
▁approving	-11.3565
▁flexicurity	-11.3565
▁gratitude	-11.3565
▁homosexual	-11.3565
▁hypocrisy	-11.3565
▁Coelho	-11.361
▁centuries	-11.361
▁guidance	-11.361
▁preparatory	-11.361
▁supplied	-11.361
▁ACTA	-11.361
▁verify	-11.361
▁Look	-11.3612
▁iron	-11.3612
▁kill	-11.3627
▁council	-11.3656
▁Nigeria	-11.3656
▁Swoboda	-11.3656
▁caution	-11.3656
▁contamination	-11.3656
▁geopolitical	-11.3656
▁silent	-11.3656
▁ruin	-11.3656
▁Warrant	-11.3657
determination	-11.3691
▁convincing	-11.3702
▁cooperative	-11.3702
▁hatred	-11.3702
▁phenomena	-11.3702
▁visibility	-11.3702
▁render	-11.3702
▁borrow	-11.3747
▁refrain	-11.3747
▁Arrest	-11.3747
▁famous	-11.3747
▁municipal	-11.3747
▁resolute	-11.3747
▁struggling	-11.3747
▁echo	-11.3747
▁white	-11.3747
▁curb	-11.3747
▁bail	-11.3748
▁scene	-11.3748
power	-11.3783
▁experiment	-11.3793
▁prudent	-11.3793
▁propaganda	-11.3793
▁tremendous	-11.3793
▁village	-11.3793
▁Equal	-11.3837
▁affirm	-11.384
▁airspace	-11.384
▁intelligence	-11.384
▁navigation	-11.384
▁volcan	-11.384
▁Solana	-11.384
▁scarce	-11.384
▁audio	-11.384
▁mining	-11.384
▁awarded	-11.3843
▁alarm	-11.3844
▁misuse	-11.3849
▁Closure	-11.3886
▁Dalai	-11.3886
▁diagnosis	-11.3886
▁disappointment	-11.3886
▁psychological	-11.3886
▁quantities	-11.3886
▁reception	-11.3886
▁stimulating	-11.3886
▁suppress	-11.3886
▁weather	-11.3886
▁applicant	-11.3933
▁inevitable	-11.3933
▁Annex	-11.3933
▁drain	-11.3933
▁contractual	-11.3933
▁Besides	-11.3933
▁Anyone	-11.3935
EGF	-11.397
Ivoire	-11.398
▁deplore	-11.398
▁dismantling	-11.398
▁eligibility	-11.398
▁smoke	-11.4017
terrorism	-11.4018
submission	-11.4024
▁nutrition	-11.4027
▁Frattini	-11.4027
▁clothing	-11.4027
▁Sahara	-11.4046
CFSP	-11.4075
▁Eurojust	-11.4075
▁Gaddafi	-11.4075
▁SOLVIT	-11.4075
▁eradicate	-11.4075
▁infection	-11.4075
▁vague	-11.4075
▁promising	-11.4075
▁reputation	-11.4075
▁conceal	-11.4075
▁insult	-11.4076
either	-11.4116
▁Communities	-11.4122
▁paradox	-11.4122
dvisory	-11.4122
▁film	-11.4122
▁medicine	-11.4144
▁Turkmenistan	-11.417
▁Uganda	-11.417
▁loophole	-11.417
▁relevance	-11.417
▁tuberculosis	-11.417
▁gesture	-11.417
▁modification	-11.417
▁stood	-11.417
▁behave	-11.417
▁plus	-11.417
▁definite	-11.4198
▁concerted	-11.4218
▁integrating	-11.4218
▁liberty	-11.4218
▁suspicion	-11.4218
▁moderate	-11.4218
▁dollar	-11.4218
▁dictate	-11.4221
▁custom	-11.4238
▁occupy	-11.4266
▁Kallas	-11.4266
▁Particular	-11.4266
▁chief	-11.4266
▁livelihood	-11.4266
▁unconditional	-11.4266
▁vaccination	-11.4266
▁Data	-11.4266
financial	-11.4307
▁secretariat	-11.4315
▁worthwhile	-11.4315
▁biogas	-11.4315
▁Drug	-11.4364
▁exposure	-11.4364
▁migratory	-11.4364
▁GMOs	-11.4364
▁Dimas	-11.4364
▁loud	-11.4364
▁weigh	-11.4371
▁imbalance	-11.439
▁condolences	-11.4413
▁harmonising	-11.4413
▁substitute	-11.4413
▁emergence	-11.4413
▁hamper	-11.4413
ultiannual	-11.4461
▁Supervisor	-11.4462
▁imprisonment	-11.4462
▁interconnection	-11.4462
▁brain	-11.4462
upreme	-11.4463
▁music	-11.4464
▁SME	-11.449
▁slight	-11.4496
▁commemorat	-11.4511
▁Congress	-11.4511
▁identical	-11.4511
▁ocean	-11.4511
▁emit	-11.4512
▁accord	-11.4518
▁Eurobonds	-11.4561
▁Fukushima	-11.4561
▁Lampedusa	-11.4561
▁aggression	-11.4561
▁commodities	-11.4561
▁commodity	-11.4561
▁consolidating	-11.4561
▁injustice	-11.4561
▁pattern	-11.4561
▁unclear	-11.4561
▁EFD	-11.4561
pidla	-11.4561
▁memory	-11.4561
▁club	-11.4561
▁pool	-11.4561
▁solar	-11.4562
▁diversify	-11.4611
▁empower	-11.4611
▁feasible	-11.4611
▁guiding	-11.4611
▁practise	-11.4611
▁senior	-11.4611
▁Next	-11.4611
▁Stalin	-11.4611
▁journalist	-11.4643
public	-11.4654
▁ASEAN	-11.4661
▁competitors	-11.4661
▁detained	-11.4661
▁eligible	-11.4661
▁encompass	-11.4661
▁prosecution	-11.4661
▁tabling	-11.4661
▁twenty	-11.4661
▁inhumane	-11.4662
▁defeat	-11.4662
commerce	-11.4712
▁authoritarian	-11.4712
▁virtue	-11.4712
▁massacre	-11.4712
▁Costa	-11.4712
▁annex	-11.4712
▁acute	-11.4712
drew	-11.4737
▁childcare	-11.4763
▁democracies	-11.4763
▁epidemic	-11.4763
▁evaluating	-11.4763
▁rank	-11.4764
▁loan	-11.4798
▁mortality	-11.4814
▁responsibly	-11.4814
▁spouses	-11.4814
▁rush	-11.4814
▁Water	-11.4814
▁EPAs	-11.4814
ttering	-11.4844
▁explicit	-11.4845
ordinate	-11.4863
▁Maastricht	-11.4865
▁conservative	-11.4865
▁discretion	-11.4865
▁football	-11.4865
▁portfolio	-11.4865
▁reliability	-11.4865
MDG	-11.4865
▁dying	-11.4866
▁km	-11.4866
▁Fortunately	-11.4917
▁advocating	-11.4917
▁calculate	-11.4917
▁worry	-11.4926
colonial	-11.4968
▁outbreak	-11.4968
▁bull	-11.4978
▁Almunia	-11.5021
▁Hague	-11.5021
▁Prague	-11.5021
▁Transparency	-11.5021
▁fragmentation	-11.5021
▁intercultural	-11.5021
▁pornography	-11.5021
▁dementia	-11.5021
▁restoring	-11.5021
▁inspect	-11.5038
Bendit	-11.5073
▁Specific	-11.5073
▁knew	-11.5073
▁philosophy	-11.5073
▁sensitivity	-11.5073
▁tongue	-11.5073
▁Rather	-11.5073
▁cyber	-11.5073
▁Relations	-11.5073
▁brave	-11.5074
▁equip	-11.5122
▁Cohn	-11.5125
▁falsified	-11.5125
▁logistics	-11.5125
▁prosperous	-11.5125
▁telephone	-11.5125
▁accumulat	-11.5125
▁convert	-11.5127
cycle	-11.5175
developed	-11.5175
▁Three	-11.5178
▁Whether	-11.5178
▁congestion	-11.5178
▁generating	-11.5178
▁readiness	-11.5178
▁relax	-11.5178
▁Opel	-11.5178
▁wholly	-11.518
▁differentiate	-11.5189
▁bankrupt	-11.5232
▁Lehne	-11.5232
▁aforementioned	-11.5232
▁boundaries	-11.5232
▁devices	-11.5232
▁imprisoned	-11.5232
▁tendency	-11.5232
▁premise	-11.5232
▁veto	-11.5232
▁activat	-11.5237
▁oblige	-11.5262
▁Dialogue	-11.5285
▁accusations	-11.5285
▁charter	-11.5285
▁circulation	-11.5285
▁entrust	-11.5285
▁junta	-11.5285
▁refusing	-11.5285
▁relaunch	-11.5285
▁temperature	-11.5285
▁prize	-11.5285
▁implies	-11.5285
▁dozen	-11.5286
▁sanction	-11.5331
misunderstanding	-11.5339
▁Chernobyl	-11.5339
▁exemplary	-11.5339
▁poultry	-11.5339
▁repressive	-11.5339
▁CFP	-11.5339
▁Daul	-11.5339
▁Finance	-11.5339
▁remedi	-11.5339
▁Basel	-11.5339
▁student	-11.5386
▁prolong	-11.5393
▁Operation	-11.5393
▁forefront	-11.5393
▁manoeuvre	-11.5393
▁prosecute	-11.5393
▁unequal	-11.5393
▁Agricultural	-11.5447
▁McCreevy	-11.5447
▁hygiene	-11.5447
▁tailor	-11.5447
▁prescription	-11.5447
▁grip	-11.5447
▁Refugee	-11.5502
▁exercising	-11.5502
▁landscape	-11.5502
▁hunt	-11.5502
▁intolerance	-11.5502
▁entity	-11.5502
omposition	-11.5555
balanced	-11.5555
▁Cotonou	-11.5557
▁conjunction	-11.5557
▁Border	-11.5557
▁regain	-11.5557
▁odd	-11.5558
▁distinct	-11.5602
▁politician	-11.5608
▁Further	-11.5612
▁Harbour	-11.5612
▁continuity	-11.5612
▁frozen	-11.5612
▁unsatisfactory	-11.5612
▁corrupt	-11.5663
SMEs	-11.5667
▁Corbett	-11.5668
▁Management	-11.5668
▁deficiencies	-11.5668
▁elaborat	-11.5668
▁opposing	-11.5668
▁predecessor	-11.5668
▁reimbursement	-11.5668
▁excise	-11.5668
▁summarise	-11.5668
▁codification	-11.5668
▁compliment	-11.5668
▁Blue	-11.5668
▁barely	-11.5668
▁competing	-11.5668
▁assistants	-11.5668
▁telecom	-11.571
▁Again	-11.572
▁School	-11.5723
▁ridiculous	-11.5723
▁Klaus	-11.5723
▁Sometimes	-11.5724
▁scrap	-11.5724
▁flee	-11.5742
▁Campania	-11.578
▁England	-11.578
▁certificate	-11.578
▁imposition	-11.578
▁striking	-11.578
▁horse	-11.578
▁comprise	-11.578
▁hazard	-11.5835
contract	-11.5836
▁Jerusalem	-11.5836
▁Mechanism	-11.5836
▁OECD	-11.5836
▁ceasefire	-11.5836
▁mobilising	-11.5836
▁speculators	-11.5836
▁unjustified	-11.5836
▁colour	-11.5836
valuation	-11.5891
ERDF	-11.5893
▁comfort	-11.5893
▁decentralised	-11.5893
▁hitherto	-11.5893
▁incompatible	-11.5893
▁negotiator	-11.5893
▁prerogative	-11.5893
▁prominent	-11.5893
▁scanners	-11.5893
▁synergy	-11.5893
▁unambiguous	-11.5893
▁Product	-11.595
▁Section	-11.595
▁injuries	-11.595
▁perception	-11.595
▁screening	-11.595
Europe	-11.6002
▁diploma	-11.6007
▁xenophobia	-11.6008
▁bankruptcy	-11.6008
▁dismiss	-11.6008
▁supervise	-11.601
value	-11.6038
▁wheel	-11.6065
▁Ecofin	-11.6065
▁engaging	-11.6065
▁upheld	-11.6065
▁Aviation	-11.6065
▁inherent	-11.6066
▁barrier	-11.607
▁ESF	-11.6082
▁Nazi	-11.6118
employment	-11.6121
▁Monitoring	-11.6124
▁anybody	-11.6124
▁cyanide	-11.6124
▁harassment	-11.6124
▁quantitative	-11.6124
▁intolerable	-11.6124
class	-11.6126
▁Kurdish	-11.6182
▁Organization	-11.6182
▁Verhofstadt	-11.6182
▁desertification	-11.6182
▁pregnant	-11.6182
▁duration	-11.6182
▁operator	-11.6188
▁liquid	-11.6237
▁Delegation	-11.6241
▁Strategic	-11.6241
▁Sunday	-11.6241
▁secular	-11.6241
▁striving	-11.6241
▁blatant	-11.6241
▁degradation	-11.6241
▁afterwards	-11.6241
Saharan	-11.6277
▁Administration	-11.63
▁contributor	-11.63
▁discourage	-11.63
▁equitable	-11.63
▁indicating	-11.63
▁legislate	-11.63
▁unsustainable	-11.63
▁venture	-11.63
▁indicator	-11.6308
dependent	-11.6353
▁Canadian	-11.636
▁Chancellor	-11.636
▁League	-11.636
▁Tribunal	-11.636
▁absorb	-11.636
▁proclaim	-11.636
▁stabilising	-11.636
▁obstruct	-11.636
▁completing	-11.636
▁Six	-11.636
▁Due	-11.636
▁Ministry	-11.6419
▁Piebalgs	-11.6419
▁ideology	-11.6419
▁overview	-11.6419
▁Cross	-11.6419
▁likewise	-11.6419
▁shaping	-11.6419
Rapporteur	-11.648
▁Goldstone	-11.648
▁Measures	-11.648
▁analysing	-11.648
▁eradication	-11.648
▁harvest	-11.648
▁Saudi	-11.648
▁transmit	-11.648
▁roadmap	-11.648
▁Florenz	-11.654
▁hectare	-11.654
▁supranational	-11.654
▁David	-11.654
▁illusion	-11.654
▁Sudanese	-11.654
Parliament	-11.6545
▁announce	-11.6567
▁prescrib	-11.6601
▁Draft	-11.6601
▁Undertaking	-11.6601
▁ignoring	-11.6601
▁impressive	-11.6601
▁pandemic	-11.6601
▁pocket	-11.6601
▁qualitative	-11.6601
▁derivatives	-11.6601
▁grasp	-11.6601
▁salary	-11.6601
▁Doyle	-11.6601
▁pride	-11.6601
▁Sky	-11.6601
▁catastrophic	-11.6663
▁coexistence	-11.6663
▁hidden	-11.6663
▁plenty	-11.6663
▁unregulated	-11.6663
financing	-11.6666
CAP	-11.6668
social	-11.6668
▁ratio	-11.6673
▁Creat	-11.6687
▁exchang	-11.6699
▁Buzek	-11.6724
▁frequency	-11.6724
▁presidencies	-11.6724
▁slogan	-11.6724
▁stereotypes	-11.6724
▁unusual	-11.6724
▁walk	-11.6725
▁dogma	-11.6769
▁Nobody	-11.6786
▁Oettinger	-11.6786
▁precedence	-11.6786
▁subsidy	-11.6786
▁retention	-11.6786
▁dark	-11.6786
▁loyal	-11.6786
▁travellers	-11.6787
▁talent	-11.6787
▁inquiry	-11.6787
▁box	-11.6787
▁rotat	-11.6796
Cypriot	-11.6849
▁Cashman	-11.6849
▁Catholic	-11.6849
▁REACH	-11.6849
▁Swiss	-11.6849
▁Ultimately	-11.6849
▁chaos	-11.6849
▁incapable	-11.6849
▁surface	-11.6849
▁subsidise	-11.6849
▁furthermore	-11.6849
▁reopen	-11.6849
▁steer	-11.6849
2004	-11.6855
▁Lange	-11.6857
▁choosing	-11.6912
▁disarmament	-11.6912
▁munitions	-11.6912
▁resume	-11.6952
looking	-11.6964
▁dominant	-11.6975
▁premature	-11.6975
▁provoke	-11.6975
▁scourge	-11.6975
▁advertise	-11.6975
▁expire	-11.6975
▁branch	-11.6975
▁proving	-11.6975
▁Islands	-11.6975
people	-11.6982
▁vessel	-11.6996
▁Children	-11.7039
▁straightforward	-11.7039
▁temporarily	-11.7039
▁unrealistic	-11.7039
▁pretend	-11.7039
▁tactic	-11.7039
▁basin	-11.704
missile	-11.7049
▁Jouyet	-11.7103
▁bought	-11.7103
▁preferential	-11.7103
▁pupils	-11.7103
▁Church	-11.7103
▁parental	-11.7103
▁restoration	-11.7103
▁sentiment	-11.7103
▁upgrade	-11.7122
▁blackmail	-11.7167
▁Likewise	-11.7167
▁Temporary	-11.7167
▁backdrop	-11.7167
▁demonstrators	-11.7167
▁evolve	-11.7167
▁parameters	-11.7167
▁populist	-11.7167
▁EDF	-11.7167
▁slip	-11.7167
▁Strip	-11.7167
▁ENP	-11.7168
▁Robert	-11.7168
increasing	-11.7176
(1)	-11.7223
▁irregular	-11.7231
▁wood	-11.7232
▁Taliban	-11.7232
▁chronic	-11.7232
▁evolution	-11.7232
▁obligatory	-11.7232
▁unlawful	-11.7232
▁verification	-11.7232
▁immigrant	-11.7259
▁authentic	-11.7298
▁influx	-11.7298
▁minimal	-11.7298
▁perpetrated	-11.7298
▁reciprocal	-11.7298
▁remuneration	-11.7298
▁fingerprints	-11.7298
▁CIA	-11.7298
▁Liechtenstein	-11.7364
▁cabotage	-11.7364
▁somebody	-11.7364
▁unwilling	-11.7364
▁Gross	-11.7364
liberal	-11.7373
ransatlantic	-11.7429
▁Bangladesh	-11.743
▁Competition	-11.743
▁Countries	-11.743
▁Customs	-11.743
▁Review	-11.743
▁University	-11.743
▁arrival	-11.743
▁licensing	-11.743
▁mortgage	-11.743
▁rethink	-11.743
▁modify	-11.743
▁traffickers	-11.743
▁virus	-11.743
▁wrote	-11.743
▁Minsk	-11.743
NTE	-11.743
sembl	-11.7468
▁Colombia	-11.7496
▁attentive	-11.7496
▁bargaining	-11.7496
▁confidentiality	-11.7496
▁uncontrolled	-11.7496
▁famine	-11.7496
private	-11.7507
▁Berlusconi	-11.7564
▁Kazakhstan	-11.7564
▁cohesive	-11.7564
▁harmonious	-11.7564
▁intimidation	-11.7564
▁paternity	-11.7564
▁recourse	-11.7564
▁varied	-11.7564
▁welcoming	-11.7564
▁fibre	-11.7564
competitive	-11.7574
2011	-11.7574
▁wound	-11.7631
▁charging	-11.7631
▁cigarette	-11.7631
food	-11.7642
olvency	-11.7646
▁complicat	-11.767
▁Malaysia	-11.7699
▁Mitchell	-11.7699
▁nomination	-11.7699
▁reluctant	-11.7699
▁temptation	-11.7699
▁measuring	-11.7699
▁pretty	-11.7699
▁Leinen	-11.7699
intensive	-11.7711
▁Access	-11.7726
Accession	-11.7741
▁curtail	-11.7768
▁Euratom	-11.7768
▁Executive	-11.7768
▁Training	-11.7768
▁antibiotic	-11.7768
▁beneficiary	-11.7768
▁mercury	-11.7768
▁unbundling	-11.7768
▁1995	-11.7768
egislative	-11.7836
▁Assistance	-11.7837
▁Gauz	-11.7837
▁Oomen	-11.7837
▁frustration	-11.7837
▁nowadays	-11.7837
▁combin	-11.7844
minded	-11.7902
Ruijten	-11.7906
▁Bahrain	-11.7906
▁Mundus	-11.7906
▁biomass	-11.7906
▁obesity	-11.7906
▁undeclared	-11.7906
7-02	-11.7906
▁conferr	-11.7906
▁Eurovignette	-11.7976
▁Prevention	-11.7976
▁celebrating	-11.7976
▁contempt	-11.7976
▁fabric	-11.7976
▁hypocritical	-11.7976
▁milestone	-11.7976
▁nonsense	-11.7976
▁utilisation	-11.7976
▁outlook	-11.7976
▁ETS	-11.7976
▁Immigration	-11.8046
▁Madrid	-11.8046
▁adjourned	-11.8046
▁administer	-11.8046
▁arguing	-11.8046
▁breakthrough	-11.8046
▁dismantle	-11.8046
▁offensive	-11.8046
▁smuggling	-11.8046
▁undeniabl	-11.8046
▁vulnerability	-11.8046
▁Police	-11.8046
▁John	-11.8046
▁assuming	-11.8046
▁occurrence	-11.8117
▁revive	-11.8117
enterprises	-11.8132
which	-11.8132
▁frame	-11.8189
▁atrocities	-11.8189
▁consular	-11.8189
▁deliberations	-11.8189
▁embargo	-11.8189
▁petrol	-11.8189
▁premium	-11.8189
▁motto	-11.8189
▁refund	-11.8189
deplet	-11.8217
▁affair	-11.8235
▁Capital	-11.8261
▁Situation	-11.8261
▁altogether	-11.8261
▁departure	-11.8261
▁provocation	-11.8261
▁roaming	-11.8261
▁scrutinise	-11.8261
▁timeframe	-11.8261
▁levy	-11.8261
6-04	-11.8261
▁redefin	-11.8261
sponsor	-11.8261
▁deregulat	-11.8286
▁capita	-11.8328
▁Eritrea	-11.8333
▁Railway	-11.8333
▁arriving	-11.8333
▁correlation	-11.8333
▁cosmetic	-11.8333
▁enforcing	-11.8333
▁expulsion	-11.8333
▁thrust	-11.8333
▁addiction	-11.8333
▁goodwill	-11.8333
nterim	-11.8344
▁beautiful	-11.8406
▁cancellation	-11.8406
▁comparative	-11.8406
▁tragedies	-11.8406
▁invasion	-11.8406
▁hydro	-11.8479
Terrorism	-11.848
▁Azores	-11.848
▁Medvedev	-11.848
▁command	-11.848
▁legacy	-11.848
▁precious	-11.848
▁corner	-11.848
(3)	-11.8481
▁refuge	-11.8533
▁compound	-11.8554
▁incredible	-11.8554
▁enthusiastic	-11.8628
▁Colleagues	-11.8628
▁Facility	-11.8628
▁UKIP	-11.8628
▁Universal	-11.8628
▁abstention	-11.8628
▁incorporating	-11.8628
▁mutilation	-11.8628
▁patience	-11.8628
▁pioneer	-11.8628
▁Manuel	-11.8628
▁extradition	-11.8628
▁fraudulent	-11.8628
▁imminent	-11.8628
▁verdict	-11.8628
tropical	-11.8629
▁liais	-11.8629
phobia	-11.8704
▁Albertini	-11.8704
▁Presidencies	-11.8704
▁asbestos	-11.8704
▁juncture	-11.8704
▁modulation	-11.8704
▁rigid	-11.8704
▁symptom	-11.8704
▁1994	-11.8704
▁hesitate	-11.8704
tariff	-11.8723
stepped	-11.8737
▁Lamassoure	-11.8779
▁Madagascar	-11.8779
▁Rasmussen	-11.8779
▁circumvent	-11.8779
▁college	-11.8779
▁default	-11.8779
▁dignified	-11.8779
▁disclosure	-11.8779
▁inconsistent	-11.8779
▁cloning	-11.8779
▁roughly	-11.8779
onourable	-11.8779
▁lagging	-11.8779
ocracy	-11.8779
ntegrated	-11.8855
▁Additional	-11.8856
▁ESDP	-11.8856
▁Google	-11.8856
▁Official	-11.8856
▁Sustainable	-11.8856
▁Trichet	-11.8856
▁Violence	-11.8856
▁chamber	-11.8856
▁influenza	-11.8856
▁motivation	-11.8856
▁tendencies	-11.8856
▁harmony	-11.8856
▁1970	-11.8856
▁bread	-11.8856
Wolski	-11.8933
scrupulous	-11.8933
▁Gucht	-11.8933
▁Secretariat	-11.8933
▁absorption	-11.8933
▁applause	-11.8933
▁commence	-11.8933
▁deteriorate	-11.8933
▁embrace	-11.8933
▁husband	-11.8933
▁steadily	-11.8933
▁1992	-11.8933
▁Things	-11.8933
▁Better	-11.8933
▁Consider	-11.8933
script	-11.8942
producing	-11.8953
▁Mandelson	-11.901
▁Twenty	-11.901
▁controversy	-11.901
▁intermediate	-11.901
q	-12.0735
