<pad>	0
</s>	0
<unk>	0
▁¦	-0
▁𐋇	-1
th	-2
in	-3
the	-4
re	-5
on	-6
an	-7
at	-8
en	-9
▁.	-10
er	-11
or	-12
▁,	-13
is	-14
ed	-15
al	-16
as	-17
es	-18
to	-19
of	-20
ar	-21
ing	-22
it	-23
ou	-24
ion	-25
and	-26
ent	-27
ac	-28
ic	-29
st	-30
il	-31
be	-32
ro	-33
ve	-34
id	-35
co	-36
le	-37
se	-38
ch	-39
for	-40
ad	-41
tr	-42
ct	-43
ation	-44
me	-45
ir	-46
are	-47
lo	-48
▁𐊣	-49
ho	-50
cor	-51
ay	-52
he	-53
ver	-54
no	-55
ly	-56
de	-57
we	-58
un	-59
so	-60
us	-61
fe	-62
ha	-63
con	-64
vac	-65
coron	-66
ter	-67
mp	-68
ill	-69
ur	-70
ment	-71
sp	-72
cin	-73
vaccin	-74
corona	-75
has	-76
di	-77
ate	-78
ce	-79
that	-80
su	-81
▁'	-82
ag	-83
ld	-84
do	-85
ab	-86
ut	-87
wi	-88
pe	-89
um	-90
have	-91
ati	-92
with	-93
pro	-94
ig	-95
oun	-96
ap	-97
est	-98
ak	-99
go	-100
sa	-101
0¦	-102
ers	-103
wh	-104
ne	-105
▁¦1	-106
was	-107
op	-108
dis	-109
vid	-110
this	-111
vir	-112
rom	-113
will	-114
ents	-115
mo	-116
from	-117
am	-118
▁¦2	-119
not	-120
fect	-121
pati	-122
po	-123
im	-124
te	-125
sh	-126
ain	-127
out	-128
by	-129
et	-130
ther	-131
ex	-132
ant	-133
ul	-134
res	-135
min	-136
ort	-137
ies	-138
patients	-139
umb	-140
ity	-141
been	-142
per	-143
wor	-144
vaccine	-145
act	-146
if	-147
gen	-148
▁"	-149
af	-150
med	-151
alth	-152
iv	-153
virus	-154
day	-155
vern	-156
our	-157
cent	-158
govern	-159
all	-160
9¦	-161
du	-162
government	-163
ive	-164
ess	-165
ial	-166
dr	-167
cl	-168
minis	-169
said	-170
there	-171
covid	-172
ople	-173
people	-174
health	-175
qu	-176
har	-177
ould	-178
ions	-179
ol	-180
art	-181
any	-182
also	-183
state	-184
▁(	-185
pr	-186
wn	-187
ding	-188
one	-189
ase	-190
infect	-191
ical	-192
ital	-193
igh	-194
ated	-195
▁)	-196
em	-197
but	-198
ef	-199
str	-200
cre	-201
ict	-202
com	-203
ren	-204
pl	-205
can	-206
tra	-207
numb	-208
test	-209
ma	-210
cont	-211
ck	-212
av	-213
other	-214
were	-215
iz	-216
▁?	-217
coun	-218
od	-219
ts	-220
19¦	-221
ca	-222
number	-223
hosp	-224
sy	-225
li	-226
hospital	-227
ary	-228
indi	-229
red	-230
sit	-231
after	-232
work	-233
-19¦	-234
who	-235
der	-236
minister	-237
ash	-238
ll	-239
ud	-240
pre	-241
ox	-242
ous	-243
imp	-244
had	-245
countr	-246
gh	-247
age	-248
low	-249
ast	-250
ke	-251
should	-252
ime	-253
ath	-254
ear	-255
comp	-256
down	-257
ack	-258
tak	-259
ge	-260
port	-261
mar	-262
ough	-263
▁¦20	-264
5¦	-265
end	-266
you	-267
ound	-268
use	-269
ail	-270
ib	-271
oxy	-272
oxygen	-273
some	-274
comm	-275
lock	-276
ms	-277
ser	-278
able	-279
hand	-280
sed	-281
ans	-282
lic	-283
mahar	-284
fic	-285
2¦	-286
ine	-287
new	-288
ator	-289
ashtra	-290
cond	-291
maharashtra	-292
cr	-293
india	-294
▁:	-295
more	-296
these	-297
ip	-298
incre	-299
ra	-300
than	-301
pres	-302
dise	-303
about	-304
very	-305
many	-306
▁¦3	-307
ctor	-308
distr	-309
lockdown	-310
vaccination	-311
wo	-312
say	-313
ance	-314
read	-315
00¦	-316
ide	-317
4¦	-318
ask	-319
fo	-320
up	-321
ist	-322
fir	-323
may	-324
they	-325
time	-326
ai	-327
ild	-328
ates	-329
ard	-330
ased	-331
reat	-332
their	-333
year	-334
ile	-335
spe	-336
part	-337
ia	-338
disease	-339
ases	-340
ach	-341
cur	-342
clo	-343
form	-344
infection	-345
gr	-346
ub	-347
reg	-348
under	-349
ight	-350
district	-351
vaccines	-352
what	-353
ced	-354
get	-355
ars	-356
how	-357
vel	-358
man	-359
now	-360
report	-361
sion	-362
being	-363
ong	-364
sch	-365
ev	-366
days	-367
cording	-368
ations	-369
high	-370
une	-371
according	-372
resp	-373
ace	-374
country	-375
ich	-376
1¦	-377
bo	-378
ious	-379
br	-380
ep	-381
mpto	-382
ens	-383
ction	-384
ann	-385
mon	-386
rent	-387
ass	-388
which	-389
need	-390
pp	-391
care	-392
vent	-393
ris	-394
cial	-395
8¦	-396
incl	-397
child	-398
while	-399
first	-400
treat	-401
whe	-402
▁¦202	-403
mis	-404
last	-405
ure	-406
ave	-407
ence	-408
cted	-409
aw	-410
iven	-411
bre	-412
ted	-413
two	-414
used	-415
second	-416
ss	-417
lop	-418
effect	-419
ang	-420
over	-421
again	-422
sur	-423
uring	-424
offic	-425
chi	-426
fore	-427
found	-428
world	-429
such	-430
spread	-431
sympto	-432
when	-433
ign	-434
its	-435
pub	-436
velop	-437
ool	-438
like	-439
due	-440
vi	-441
ug	-442
only	-443
develop	-444
sars	-445
strict	-446
march	-447
ministr	-448
7¦	-449
cy	-450
cases	-451
ty	-452
stud	-453
school	-454
pers	-455
ci	-456
ade	-457
uation	-458
chin	-459
symptoms	-460
rel	-461
says	-462
▁%	-463
come	-464
mumb	-465
start	-466
mumbai	-467
ition	-468
log	-469
children	-470
chief	-471
given	-472
ities	-473
death	-474
during	-475
▁-	-476
gan	-477
▁¦5	-478
medical	-479
person	-480
dif	-481
6¦	-482
▁¦4	-483
cess	-484
howe	-485
however	-486
doctor	-487
col	-488
ish	-489
avail	-490
treatment	-491
coronavirus	-492
cro	-493
inclu	-494
atory	-495
produ	-496
inter	-497
apr	-498
▁¦2020¦	-499
april	-500
states	-501
dec	-502
esh	-503
home	-504
tal	-505
situation	-506
mun	-507
stem	-508
hy	-509
mb	-510
fl	-511
every	-512
wave	-513
public	-514
sto	-515
center	-516
3¦	-517
ice	-518
ose	-519
system	-520
ree	-521
even	-522
uary	-523
infected	-524
je	-525
contro	-526
countries	-527
ek	-528
your	-529
bed	-530
ting	-531
bet	-532
posit	-533
available	-534
han	-535
itiz	-536
against	-537
fin	-538
uk	-539
serv	-540
most	-541
om	-542
drug	-543
peri	-544
risk	-545
break	-546
ied	-547
,0	-548
io	-549
ating	-550
ational	-551
mand	-552
fr	-553
cal	-554
mask	-555
those	-556
inform	-557
restrict	-558
hav	-559
announ	-560
cle	-561
take	-562
his	-563
ute	-564
add	-565
eng	-566
provid	-567
week	-568
thr	-569
inst	-570
ident	-571
ited	-572
organ	-573
icip	-574
pune	-575
pur	-576
import	-577
hospitals	-578
sul	-579
current	-580
ivir	-581
through	-582
ses	-583
ures	-584
gu	-585
rs	-586
del	-587
wash	-588
appro	-589
centr	-590
vaccinated	-591
main	-592
taken	-593
respon	-594
hum	-595
lar	-596
▁."	-597
them	-598
arr	-599
colle	-600
where	-601
ual	-602
aren	-603
ning	-604
sing	-605
acker	-606
restrictions	-607
ody	-608
made	-609
requ	-610
information	-611
cause	-612
few	-613
issu	-614
ackeray	-615
thackeray	-616
prote	-617
reported	-618
ok	-619
ved	-620
,000¦	-621
par	-622
kar	-623
emic	-624
cer	-625
les	-626
▁¦1¦	-627
air	-628
lin	-629
central	-630
ire	-631
ult	-632
¦	-633
▁	-634
e	-635
t	-636
a	-637
i	-638
o	-639
n	-640
s	-641
r	-642
h	-643
d	-644
c	-645
l	-646
𐋇	-647
u	-648
m	-649
p	-650
f	-651
g	-652
v	-653
y	-654
w	-655
b	-656
.	-657
,	-658
k	-659
0	-660
-	-661
𐊣	-662
𐊼	-663
1	-664
2	-665
x	-666
'	-667
j	-668
9	-669
"	-670
z	-671
5	-672
q	-673
4	-674
3	-675
)	-676
(	-677
?	-678
8	-679
6	-680
7	-681
:	-682
%	-683
;	-684
/	-685
!	-686
’	-687
”	-688
“	-689
–	-690
[	-691
]	-692
&	-693
$	-694
#	-695
—	-696
‘	-697
•	-698
≥	-699
+	-700
°	-701
*	-702
ा	-703
_	-704
×	-705
武	-706
肺	-707
~	-708
á	-709
í	-710
α	-711
β	-712
स	-713
े	-714
्	-715
=	-716
ò	-717
ü	-718
č	-719
ş	-720
γ	-721
ं	-722
क	-723
ब	-724
र	-725
汉	-726
漢	-727
炎	-728
£	-729
å	-730
é	-731
ó	-732
ई	-733
ओ	-734
च	-735
त	-736
द	-737
प	-738
ल	-739
ळ	-740
व	-741
श	-742
ो	-743
′	-744
火	-745
眼	-746
