<pad>	0
</s>	0
<unk>	0
,	-2.72253
.	-3.15986
▁ir	-3.69069
s	-4.28438
▁	-4.30089
▁kad	-4.39243
i	-4.78515
▁Europos	-4.99157
▁su	-5.10117
o	-5.12109
▁į	-5.22462
▁dėl	-5.24985
▁yra	-5.28257
▁-	-5.36197
ų	-5.4075
▁iš	-5.47016
▁tai	-5.52387
e	-5.53684
▁ne	-5.60466
ą	-5.66706
▁(	-5.74093
)	-5.74372
▁pat	-5.78046
a	-5.78578
us	-5.8664
as	-5.87301
▁kaip	-5.88258
▁taip	-5.90933
ti	-5.93775
os	-5.94114
u	-5.95602
▁būti	-6.02273
▁ES	-6.0356
▁už	-6.05405
▁būtų	-6.07186
▁turi	-6.10088
ai	-6.11059
is	-6.13599
▁savo	-6.14394
▁labai	-6.17172
▁buvo	-6.17486
▁apie	-6.17826
▁m	-6.20131
▁tik	-6.22096
▁to	-6.22672
ė	-6.26726
ės	-6.26954
k	-6.28255
▁nes	-6.29527
▁mūsų	-6.3026
▁pa	-6.31909
▁o	-6.3515
▁Komisijos	-6.35478
me	-6.36209
▁per	-6.36884
▁pirmininke	-6.4054
▁ar	-6.45029
▁dar	-6.46653
▁bet	-6.46714
į	-6.46731
tų	-6.48094
ta	-6.48875
▁kai	-6.49145
t	-6.49646
▁bus	-6.50231
ę	-6.50642
▁mes	-6.51564
▁Tai	-6.54895
ių	-6.56396
▁gali	-6.59742
▁nuo	-6.60331
▁reikia	-6.61475
ma	-6.62406
▁"	-6.62973
imo	-6.64074
m	-6.65136
▁jų	-6.65859
r	-6.66735
es	-6.67456
▁norėčiau	-6.68817
▁kurie	-6.68989
▁Sąjungos	-6.69915
:	-6.70325
▁Komisija	-6.73802
▁turėtų	-6.77507
▁Parlamento	-6.78302
g	-6.79794
▁Todėl	-6.80754
▁prie	-6.81398
▁turime	-6.81525
▁jos	-6.81631
nt	-6.82715
▁kurios	-6.83959
te	-6.8514
▁jau	-6.85403
tas	-6.87533
▁darbo	-6.87711
š	-6.8829
▁narių	-6.88927
▁valstybių	-6.90774
▁šį	-6.90965
?	-6.91292
in	-6.91682
y	-6.91972
mas	-6.92959
▁Tačiau	-6.93415
imą	-6.93424
▁prieš	-6.94336
▁šiuo	-6.9527
ra	-6.96004
▁ypač	-6.96234
▁valstybės	-6.9628
to	-6.96301
io	-6.96332
▁teisės	-6.96891
n	-6.97092
imas	-6.97793
▁metu	-6.98028
▁daug	-6.98458
mi	-6.9855
▁d	-6.99095
▁užtikrinti	-6.99311
l	-6.99876
▁tačiau	-7.00202
▁Pone	-7.00484
▁kuri	-7.0088
▁daugiau	-7.02253
"	-7.02883
▁mums	-7.05064
▁vis	-7.05566
▁bei	-7.06798
▁S	-7.08356
iu	-7.09768
▁kuris	-7.10007
b	-7.10028
▁šios	-7.10501
▁politikos	-7.1121
▁nėra	-7.11245
si	-7.12084
▁siekiant	-7.1297
ei	-7.14073
mos	-7.14464
▁po	-7.14585
au	-7.16046
▁Be	-7.16495
al	-7.16612
▁todėl	-7.16779
▁M	-7.17922
▁aš	-7.18144
▁mano	-7.18552
oje	-7.18612
▁tam	-7.18631
ir	-7.18642
ius	-7.18679
d	-7.20097
▁teisių	-7.20611
;	-7.20954
▁šio	-7.226
ia	-7.22616
▁ji	-7.22678
▁Taip	-7.22803
p	-7.23785
▁svarbu	-7.2482
▁Gerb	-7.25167
iai	-7.25623
mo	-7.2612
▁šalių	-7.26342
▁srityje	-7.26437
▁manau	-7.27087
▁iki	-7.27259
▁visų	-7.28365
▁jie	-7.28618
▁dabar	-7.28956
mą	-7.2909
▁be	-7.29539
tos	-7.29893
▁arba	-7.30529
▁ekonomikos	-7.30579
▁galima	-7.3133
tą	-7.3178
▁Parlamentas	-7.31859
▁ši	-7.32735
z	-7.33657
▁narės	-7.34431
▁A	-7.34748
▁pagal	-7.36631
▁kurių	-7.36669
▁tarp	-7.36847
▁žmogaus	-7.37045
-	-7.37218
▁jis	-7.37358
▁šių	-7.37976
▁metų	-7.38021
▁klausimas	-7.38785
ant	-7.39028
▁J	-7.39282
yti	-7.39719
▁Tarybos	-7.39774
▁tiek	-7.39965
▁priemonių	-7.40243
▁bendradarbiavim	-7.40864
▁kas	-7.41099
▁ką	-7.41148
▁nei	-7.41318
▁kurį	-7.41743
▁jei	-7.4225
▁žmonių	-7.42414
▁proc	-7.42521
▁at	-7.42535
▁visiškai	-7.43797
▁pasakyti	-7.44059
ais	-7.4408
▁jo	-7.44098
▁pranešimą	-7.44447
en	-7.44666
▁Mes	-7.44695
▁veiksmų	-7.44884
▁Sąjunga	-7.45303
mų	-7.46062
▁šią	-7.46383
ž	-7.47353
▁Manau	-7.47808
▁galėtų	-7.49512
ar	-7.50159
▁šis	-7.50318
ose	-7.51122
▁toliau	-7.52102
▁energijos	-7.52111
omis	-7.52184
▁raštu	-7.5285
▁E	-7.52954
ųjų	-7.54108
tu	-7.5413
▁G	-7.54367
am	-7.54446
▁apsaugos	-7.55404
ėme	-7.55543
na	-7.56699
▁nors	-7.57085
▁žemės	-7.57131
▁kartu	-7.57368
▁K	-7.59265
ui	-7.59321
▁B	-7.59505
▁šiandien	-7.59562
ne	-7.59598
▁būtina	-7.59964
dami	-7.6021
ū	-7.60453
ri	-7.60482
▁atveju	-7.61189
tik	-7.61824
▁Aš	-7.62368
▁klausimu	-7.62399
▁prekybos	-7.62782
oms	-7.62846
sime	-7.62947
▁ap	-7.63072
▁Vis	-7.63912
▁Norėčiau	-7.64156
▁Taryba	-7.64819
ys	-7.65229
▁rinkos	-7.65261
▁klausimą	-7.65538
ka	-7.65552
iau	-7.66769
▁pirma	-7.66876
▁P	-7.66966
▁jog	-7.67173
▁tuo	-7.67417
ėje	-7.67875
▁t	-7.68351
▁Europoje	-7.69284
▁Dėl	-7.69432
▁ponai	-7.6946
▁jūsų	-7.70331
▁kuriuos	-7.71382
▁k	-7.71794
▁man	-7.72763
▁kartą	-7.73427
▁kurią	-7.73562
▁C	-7.74062
▁Kaip	-7.74208
▁vardu	-7.74426
ams	-7.75299
inių	-7.7574
▁dėmesį	-7.76174
ija	-7.76357
dama	-7.76445
▁Lisabonos	-7.76683
▁pvz	-7.76993
▁re	-7.77256
▁nu	-7.77377
ja	-7.77444
ek	-7.77462
▁dėlto	-7.77512
li	-7.77788
▁svarbus	-7.77808
▁klimato	-7.77946
umo	-7.78013
▁pasiekti	-7.78026
re	-7.78212
v	-7.78386
▁kelia	-7.78472
tar	-7.78771
er	-7.78873
▁Ponia	-7.79101
▁net	-7.79546
P	-7.79689
▁biudžeto	-7.79805
▁ūkio	-7.79819
▁kitų	-7.79876
▁padėkoti	-7.80407
▁piliečių	-7.80912
▁Šiuo	-7.81915
▁frakcijos	-7.82143
▁Ne	-7.82205
▁Pirmininke	-7.82283
▁galimybę	-7.83658
▁imtis	-7.84011
ik	-7.84426
▁tikrųjų	-7.8483
▁priemones	-7.84883
▁ponios	-7.85699
imu	-7.8592
di	-7.85934
▁labiau	-7.85972
uo	-7.86168
ėmis	-7.86486
im	-7.86606
je	-7.86702
▁mėn	-7.86941
▁pasi	-7.86949
▁visi	-7.87016
▁politiką	-7.87034
▁Ši	-7.87045
ijos	-7.87871
id	-7.88057
▁saugumo	-7.88225
▁D	-7.88278
▁įgyvendinti	-7.8873
▁priimti	-7.89201
▁atžvilgiu	-7.8946
ur	-7.89779
sti	-7.89907
nčių	-7.90089
inės	-7.90162
▁pateikti	-7.90202
▁pranešime	-7.90368
▁finansų	-7.90484
aus	-7.91268
▁jeigu	-7.91432
▁viena	-7.91582
/	-7.91605
▁darbą	-7.91796
▁transporto	-7.91931
▁aiškiai	-7.92192
▁negali	-7.92256
▁sveikatos	-7.92596
▁T	-7.92734
▁pri	-7.9277
▁nepa	-7.9319
▁ko	-7.93247
▁čia	-7.93431
pa	-7.9378
iam	-7.9424
▁kur	-7.94291
▁pateik	-7.94356
▁politika	-7.94489
tai	-7.94892
do	-7.94898
▁požiūriu	-7.95112
▁padaryti	-7.9534
▁vidaus	-7.95462
▁šioje	-7.95764
sta	-7.95842
▁de	-7.95984
an	-7.95985
on	-7.95999
▁krizės	-7.96325
▁Pa	-7.96414
ko	-7.96724
ėms	-7.97106
umą	-7.97246
▁Iš	-7.97825
DE	-7.97839
ni	-7.97896
ems	-7.9827
oji	-7.98451
le	-7.98688
▁Ar	-7.98829
▁galime	-7.98949
▁sukurti	-7.98979
▁šiuos	-7.99096
▁priemonės	-7.99209
kl	-7.99809
▁Europa	-8.00102
▁V	-8.0027
▁sistemos	-8.00399
▁vienas	-8.00612
▁tikrai	-8.00644
▁siekiama	-8.01088
▁reiškia	-8.01508
▁privalo	-8.01521
▁laisv	-8.01603
vy	-8.01617
or	-8.0168
ng	-8.02271
vo	-8.02321
ak	-8.02375
▁maisto	-8.02459
▁atsi	-8.02681
▁visiems	-8.02781
▁nustatyti	-8.02856
▁turėtume	-8.03424
▁jūs	-8.03555
imui	-8.0392
▁svarbi	-8.04173
osios	-8.04182
▁vien	-8.04224
▁pasaulio	-8.04265
▁jums	-8.04491
2	-8.04545
nčios	-8.0476
mus	-8.04782
▁šie	-8.0479
▁Sąjungoje	-8.04874
▁H	-8.05335
uose	-8.05451
ymas	-8.0549
▁pabrėžti	-8.05821
▁skirti	-8.05932
▁komiteto	-8.05981
▁R	-8.06547
▁šiame	-8.06654
▁nariai	-8.0703
damas	-8.07067
▁nuomone	-8.07829
mis	-8.08429
at	-8.09085
il	-8.09475
▁juos	-8.09745
▁klausimus	-8.09823
su	-8.09828
▁laiko	-8.09852
tin	-8.09904
▁institucijos	-8.1022
▁kuriuo	-8.10594
tume	-8.10618
▁padėti	-8.10619
mai	-8.10765
f	-8.10926
▁du	-8.11233
ime	-8.11245
▁jį	-8.11605
el	-8.11838
ūs	-8.11992
čiau	-8.12026
▁šalyse	-8.1243
iems	-8.12953
lo	-8.13002
avimo	-8.13599
▁kurias	-8.13654
▁kurioje	-8.13848
ki	-8.14116
▁teis	-8.14172
▁padėtį	-8.14455
▁kurio	-8.14462
mu	-8.14538
▁valstybėse	-8.14606
c	-8.14807
▁Taigi	-8.14964
jo	-8.15045
▁teises	-8.1513
▁atsižvelgiant	-8.15148
ėjo	-8.15153
▁Tarybai	-8.15271
▁šalies	-8.15324
dė	-8.15552
▁įskaitant	-8.15658
▁institucijų	-8.15868
▁visuomenės	-8.15913
uoti	-8.16116
▁metus	-8.1619
▁žinoma	-8.16418
imų	-8.16504
▁pra	-8.16631
▁žmonės	-8.1675
inti	-8.16756
▁šalis	-8.1679
▁Parlamente	-8.16809
va	-8.16836
▁plėtros	-8.17066
ymo	-8.1716
▁Turime	-8.17216
▁neturi	-8.17457
▁spręsti	-8.17466
ju	-8.17524
usi	-8.17794
▁F	-8.17971
▁vėl	-8.18547
A	-8.1864
▁šalys	-8.18745
▁N	-8.1889
▁valstybėms	-8.18917
la	-8.19099
gi	-8.19113
▁sistemą	-8.1928
▁EUR	-8.19684
▁lygio	-8.19765
▁visos	-8.19808
čių	-8.19817
▁pasiūlymą	-8.2002
ojo	-8.20049
yb	-8.20357
▁jiems	-8.2048
▁b	-8.2068
ms	-8.20983
▁ateityje	-8.21133
▁ž	-8.21267
ame	-8.21367
tus	-8.21515
▁pro	-8.21672
▁lygmeniu	-8.21896
no	-8.21962
ro	-8.22198
▁pas	-8.22309
▁pasaulyje	-8.22311
▁problema	-8.2235
▁aplinkos	-8.2236
▁pranešimo	-8.22634
iais	-8.22811
1	-8.22872
▁nebuvo	-8.22902
ina	-8.22938
▁pirmiausia	-8.23199
▁suteikti	-8.23291
j	-8.23363
ba	-8.23444
▁ją	-8.23646
▁priežiūros	-8.23757
▁teisę	-8.23773
▁narys	-8.23825
▁nori	-8.24257
▁moterų	-8.2437
▁dalis	-8.24547
da	-8.24806
▁būtent	-8.24838
men	-8.2508
nti	-8.25096
E	-8.25135
▁skatinti	-8.25141
▁metais	-8.25219
▁maž	-8.25405
▁Jei	-8.25533
▁sistema	-8.26058
▁valdžios	-8.27256
▁energetikos	-8.27453
▁Bendrijos	-8.27486
▁vaidmenį	-8.27497
▁tikslas	-8.27738
▁taisyklių	-8.27826
▁Šis	-8.27844
▁veiklos	-8.2787
▁pranešimas	-8.27871
▁š	-8.2788
▁sk	-8.28086
▁Mano	-8.28105
ėja	-8.28379
▁sąlygas	-8.28458
▁kuriame	-8.2874
▁Dabar	-8.2912
uk	-8.29569
▁gerai	-8.30076
▁susitarimo	-8.30171
▁noriu	-8.3043
▁esu	-8.3044
▁kuo	-8.30474
▁susi	-8.30617
5	-8.30796
▁nary	-8.30798
joje	-8.30923
iant	-8.31161
inio	-8.31176
▁pritariu	-8.31241
yta	-8.31632
▁problemų	-8.31702
▁vietos	-8.31744
tra	-8.31826
▁sumažinti	-8.31955
▁taikyti	-8.31988
▁bendrą	-8.32095
h	-8.32228
T	-8.32318
▁pagalbos	-8.32552
▁narėms	-8.32872
sto	-8.329
▁vieną	-8.32922
ži	-8.33034
▁narėse	-8.33145
iame	-8.33378
▁paslaugų	-8.33384
▁išteklių	-8.33477
ter	-8.33617
ks	-8.33845
▁piliečiams	-8.33849
▁šalims	-8.34106
▁mln	-8.34365
ymą	-8.34373
jų	-8.34432
▁tokia	-8.3444
▁paramos	-8.3458
min	-8.34649
".	-8.34664
kel	-8.34848
umas	-8.34857
▁produktų	-8.34858
▁darbuotojų	-8.35141
▁vartotojų	-8.35425
▁oro	-8.35511
▁direktyvos	-8.35687
0	-8.35858
iams	-8.36032
▁kiek	-8.36322
▁tiesų	-8.36469
▁paramą	-8.36835
▁norime	-8.3696
▁lėšų	-8.37437
ymu	-8.37444
▁įtraukti	-8.37511
▁1	-8.37683
ty	-8.38002
▁geriau	-8.38021
nor	-8.38129
▁2009	-8.38401
▁šia	-8.38404
6	-8.38439
▁kuriais	-8.38469
▁aktų	-8.38709
▁ta	-8.38729
cija	-8.38941
▁naujo	-8.39156
▁kuria	-8.39334
▁pasiek	-8.39524
ntis	-8.39618
imus	-8.39693
▁mokesčių	-8.40134
▁daryti	-8.40287
9	-8.40307
▁mažiau	-8.40321
▁atlikti	-8.40494
▁turėti	-8.40602
▁srityse	-8.40648
M	-8.40656
▁L	-8.40711
▁pradėti	-8.40959
▁euro	-8.41073
ėti	-8.41141
▁kyla	-8.41159
▁Balsavau	-8.41184
▁klausimų	-8.41199
▁kuriose	-8.4135
▁dažnai	-8.41368
▁poveikį	-8.41385
▁visus	-8.41392
▁sprendimą	-8.41486
var	-8.41514
▁gauti	-8.41562
▁pramonės	-8.41605
▁esmės	-8.41811
aug	-8.42212
▁duomenų	-8.4232
ome	-8.42717
uoja	-8.42742
▁pagrindinių	-8.42824
▁visas	-8.42971
▁gyventojų	-8.43167
▁naujų	-8.43243
gr	-8.43376
4	-8.43444
S	-8.4349
▁in	-8.43596
7	-8.44021
▁veikia	-8.44203
▁g	-8.44334
iją	-8.44482
▁valdymo	-8.44515
▁reikalų	-8.44581
▁žmonėms	-8.44607
nų	-8.44644
ran	-8.44736
▁turės	-8.44803
▁naują	-8.44845
▁tyrimų	-8.44872
iš	-8.44887
▁užsienio	-8.45013
▁padėtis	-8.45128
▁JAV	-8.45364
▁esame	-8.45393
▁ra	-8.45502
▁susijusi	-8.45558
▁kar	-8.45562
iškai	-8.45744
▁bendr	-8.45768
veik	-8.45776
mon	-8.4582
kur	-8.46199
inį	-8.46231
▁sprendimo	-8.46232
▁balsavau	-8.46258
▁informacijos	-8.46285
▁siekti	-8.46288
ch	-8.46323
▁strategijos	-8.46338
▁susitarimą	-8.46446
ru	-8.46519
ing	-8.46731
▁nesu	-8.46991
▁reikėtų	-8.47032
▁tinkamai	-8.47038
▁e	-8.47425
▁problemas	-8.47454
ęs	-8.47503
▁jūros	-8.47588
▁kodėl	-8.47684
▁piliečiai	-8.47937
▁įmonių	-8.4808
ul	-8.48188
3	-8.48402
I	-8.48744
▁tikiuosi	-8.4894
▁tikslų	-8.49019
▁rink	-8.49047
▁O	-8.4911
▁rinką	-8.49145
▁sutarties	-8.49183
▁rodo	-8.49254
▁vyksta	-8.49339
▁tiesiog	-8.49457
▁dabartin	-8.49622
oja	-8.49663
▁y	-8.49845
ip	-8.49921
▁pak	-8.4996
ytų	-8.49974
8	-8.5031
▁klausimais	-8.50352
ama	-8.50477
▁šias	-8.50911
▁Parlamentui	-8.50994
ci	-8.51082
▁Komisijai	-8.51325
▁privalome	-8.51363
▁atkreipti	-8.51594
▁treči	-8.51669
▁socialinės	-8.51786
▁Kai	-8.52056
ją	-8.52114
▁regiono	-8.52446
du	-8.5251
▁Su	-8.52584
▁būsim	-8.52667
▁st	-8.53138
▁toks	-8.5342
▁bū	-8.53554
oti	-8.5376
▁sprendimas	-8.54174
▁vietų	-8.54376
▁2008	-8.54986
▁3	-8.54988
▁kita	-8.55425
▁dirbti	-8.55497
▁Galiausiai	-8.55615
avo	-8.55692
gal	-8.55715
▁sudaro	-8.5584
▁visą	-8.55921
B	-8.55989
▁dėmesio	-8.55992
der	-8.56223
▁šiam	-8.56453
▁priklauso	-8.56465
R	-8.56662
▁mok	-8.56866
tį	-8.56907
▁galėtume	-8.56928
▁Antra	-8.5713
▁vaikų	-8.57185
▁didel	-8.57205
▁siek	-8.57239
tis	-8.57309
▁4	-8.57427
ios	-8.57479
▁šalyje	-8.57607
ink	-8.5777
▁diskusijos	-8.57867
▁nebus	-8.5789
▁kuriomis	-8.5789
▁galimyb	-8.58072
▁nuolat	-8.5809
iama	-8.5821
▁pinigų	-8.5823
ntys	-8.58252
▁šiol	-8.58321
▁sektoriaus	-8.58469
N	-8.5848
▁pasinaudoti	-8.58533
FR	-8.58745
▁problemos	-8.58768
▁Mūsų	-8.58888
▁dalies	-8.59008
▁ak	-8.59088
▁kol	-8.59517
▁pagrindin	-8.59564
▁susiję	-8.59913
▁visada	-8.60055
C	-8.60185
▁dauguma	-8.60205
▁susijusių	-8.60209
dar	-8.60212
din	-8.60505
▁abejo	-8.60579
▁tokių	-8.60974
▁vert	-8.61021
▁būdu	-8.61155
▁19	-8.61375
siu	-8.6139
gy	-8.61599
▁na	-8.61822
▁itin	-8.61859
▁programos	-8.61872
▁Mums	-8.61932
ku	-8.62073
▁tokios	-8.62106
▁sprendimus	-8.62108
▁Labai	-8.62523
PL	-8.62672
▁a	-8.62704
nčius	-8.62805
▁veikti	-8.62945
▁susitarimas	-8.63145
▁bendra	-8.63217
▁saugos	-8.63693
▁direktyva	-8.6374
▁galimybes	-8.63818
▁demokratijos	-8.63898
▁rezoliucijos	-8.63929
▁kokia	-8.63975
▁20	-8.63982
▁gal	-8.64053
▁frakcija	-8.64119
▁žingsnis	-8.64277
▁pastangas	-8.64308
▁tikslus	-8.64366
▁pritar	-8.64392
▁kovos	-8.64398
ES	-8.64418
▁Šiandien	-8.64625
▁įmanoma	-8.64665
kime	-8.64853
▁I	-8.6504
O	-8.65148
▁anksčiau	-8.65775
▁strategija	-8.65871
nas	-8.66063
▁keletą	-8.66322
▁negalime	-8.66333
▁tada	-8.66471
▁padar	-8.66475
ol	-8.66498
",	-8.66718
▁laikytis	-8.6672
▁kaitos	-8.66773
for	-8.668
ga	-8.66863
▁Vadov	-8.67003
ža	-8.67043
▁pareng	-8.67095
▁apsaugoti	-8.67154
▁kovoti	-8.67224
▁dirba	-8.67236
▁te	-8.6736
▁Nors	-8.67364
▁jas	-8.67393
▁finansinių	-8.67522
▁krizę	-8.67593
ėjimo	-8.67599
▁kon	-8.6778
▁Per	-8.67834
▁10	-8.67867
rin	-8.67922
▁veiklą	-8.68115
▁tvarkos	-8.68124
iz	-8.68141
▁Jeigu	-8.68168
ting	-8.68545
▁Man	-8.68734
▁remti	-8.68942
▁pl	-8.68974
et	-8.69025
D	-8.69102
un	-8.69104
▁kadangi	-8.69112
▁kelią	-8.69139
▁fondo	-8.69239
▁finansavimo	-8.69451
▁naujas	-8.69563
▁žinome	-8.69566
▁vyriausybės	-8.69614
it	-8.6972
per	-8.69766
▁padėties	-8.69777
▁atskir	-8.69798
▁suteik	-8.69831
V	-8.69891
▁atitinka	-8.70014
▁2010	-8.70079
▁problemą	-8.70141
▁remia	-8.70153
vie	-8.70227
dy	-8.7026
▁vyriausyb	-8.70317
▁išspręsti	-8.70477
ap	-8.70533
▁sprendimų	-8.70544
▁kitos	-8.70557
▁klausimai	-8.70567
▁kontrolės	-8.70951
▁bendros	-8.70958
▁siekia	-8.71129
IT	-8.71143
▁griež	-8.71152
▁2	-8.71158
▁vadov	-8.712
▁pirmininkauja	-8.71233
▁laikas	-8.71359
K	-8.71461
▁le	-8.71592
▁apima	-8.71628
▁galimybės	-8.71677
▁5	-8.71821
▁galimybių	-8.71861
▁mokslinių	-8.71991
▁derybų	-8.72072
ali	-8.7209
▁gyvenimo	-8.7225
▁įsi	-8.72395
▁Rusijos	-8.72449
imai	-8.72485
sp	-8.72614
▁greičiau	-8.72688
▁kalbėti	-8.72814
▁pagalbą	-8.72966
▁susijęs	-8.72973
▁taisykles	-8.73103
▁klausimo	-8.73127
▁padidinti	-8.73356
▁gr	-8.73483
▁ilgalaik	-8.73731
▁tvirt	-8.73735
▁dujų	-8.73808
ac	-8.73819
▁pasiūlymas	-8.73997
▁priežasčių	-8.74075
▁strategiją	-8.7411
▁ga	-8.7414
▁vykdyti	-8.74215
▁visa	-8.74256
▁val	-8.7475
▁vertus	-8.74758
▁Sąjungai	-8.74831
▁gamybos	-8.74952
▁įgyvendinimo	-8.75234
ver	-8.7534
iek	-8.75449
dal	-8.75481
ėtų	-8.75626
▁rinkoje	-8.75686
▁beveik	-8.7575
vi	-8.75797
▁pone	-8.75843
▁li	-8.75859
▁dalį	-8.75877
▁Afrikos	-8.76085
▁la	-8.76095
dži	-8.76181
inę	-8.76341
avimą	-8.76363
▁rezoliuciją	-8.76406
▁parengti	-8.7648
▁gyvena	-8.76511
nčią	-8.76895
nai	-8.77034
▁gerb	-8.77044
▁pakeisti	-8.77121
▁tr	-8.77184
▁atsižvelgti	-8.77496
▁vystymosi	-8.77531
▁neturėtų	-8.77565
▁Europą	-8.77591
▁sanglaudos	-8.77736
▁laikotarpiu	-8.77808
▁teikti	-8.77942
▁Žinoma	-8.77954
par	-8.78109
jimo	-8.78135
▁ekonomin	-8.78137
▁bendro	-8.78186
▁kalba	-8.78251
▁sektoriuje	-8.78609
▁rasti	-8.78668
▁Jis	-8.78866
ną	-8.78968
▁Komisiją	-8.78974
▁leisti	-8.79064
▁jokių	-8.79142
▁nebūtų	-8.79286
▁EP	-8.79298
▁regione	-8.79417
ve	-8.79549
▁Po	-8.79664
▁var	-8.79813
▁p	-8.79831
▁apsaugą	-8.79895
ner	-8.80029
▁Ji	-8.80379
▁informaciją	-8.80526
▁apsauga	-8.80736
▁remiantis	-8.80738
▁regionų	-8.80901
▁žino	-8.81039
tinka	-8.81206
čio	-8.81226
▁valstybes	-8.81392
ieji	-8.81433
▁000	-8.81502
damos	-8.81542
▁dalyvauti	-8.81574
▁poveikio	-8.81686
▁laisvės	-8.81772
zi	-8.81784
▁Būtent	-8.81799
▁Dar	-8.81918
▁pagerinti	-8.81971
▁Tikiuosi	-8.81991
▁išorės	-8.82217
nčias	-8.82266
▁mus	-8.82315
avimas	-8.82476
▁įvertin	-8.82549
žr	-8.82593
▁Re	-8.82611
ag	-8.82683
daug	-8.82748
▁pirm	-8.82846
jus	-8.83134
▁viso	-8.83246
▁rezultatų	-8.83434
▁pasak	-8.83564
▁dalykas	-8.83779
▁įmonės	-8.83806
▁ekonominės	-8.8389
▁augimo	-8.83897
▁įvairių	-8.83908
▁turiu	-8.83962
čia	-8.84043
ąją	-8.84073
▁pasiūlymus	-8.84113
▁greitai	-8.84229
▁sen	-8.84344
▁padės	-8.8441
▁pakankamai	-8.84414
▁kuriems	-8.84476
ino	-8.84486
▁tokio	-8.84511
▁band	-8.84519
▁šalimis	-8.84535
▁įmonėms	-8.84564
▁informacija	-8.8459
▁teik	-8.84762
ke	-8.84788
▁programa	-8.84808
naud	-8.84936
▁protokolą	-8.8494
▁atrodo	-8.85027
▁pasiūlymo	-8.85121
▁sudaryti	-8.85141
liu	-8.85404
▁kelių	-8.85536
▁mlrd	-8.8576
▁tapti	-8.85797
▁sąlygomis	-8.85799
▁jam	-8.85888
▁pasveikinti	-8.86176
▁diskusijų	-8.8635
▁diskusijas	-8.86352
▁naujos	-8.86438
▁Š	-8.8658
▁įtrauk	-8.86587
vir	-8.86689
▁kitą	-8.86749
ce	-8.86872
▁procesą	-8.87025
▁tapo	-8.87298
auti	-8.87353
▁Kitas	-8.87422
▁suteikia	-8.87444
▁nepaisant	-8.87735
lin	-8.8774
oli	-8.87905
▁Europai	-8.87913
▁galbūt	-8.87981
▁juo	-8.87987
▁bent	-8.88073
ger	-8.88129
▁nurod	-8.88181
▁2007	-8.88212
vert	-8.88241
▁kalbė	-8.88339
▁daro	-8.88382
▁pritarti	-8.88594
▁sąlygos	-8.88707
gali	-8.88803
▁leidžia	-8.88815
▁demokratin	-8.88915
▁svarbiausia	-8.89007
▁aišku	-8.89131
▁dvi	-8.89264
▁sritis	-8.89273
▁jai	-8.89306
▁tarptautinės	-8.89313
yt	-8.89737
yra	-8.90057
inimo	-8.90077
▁nuomonės	-8.90099
▁tą	-8.90111
▁Deja	-8.9032
▁laik	-8.90368
▁išlaidų	-8.90418
▁ant	-8.90466
nu	-8.90606
ite	-8.90607
▁taik	-8.90717
▁verslo	-8.90746
▁nuomonę	-8.90898
▁asmenų	-8.90911
▁8	-8.91045
▁Kalbant	-8.91053
ėm	-8.91068
▁daugiausia	-8.91071
▁džiaugiuosi	-8.91077
darb	-8.91304
nelyg	-8.91425
jimas	-8.91548
čiu	-8.91699
▁balsavimo	-8.9174
▁kokybės	-8.91781
▁kurti	-8.91899
▁politinių	-8.919
▁Jie	-8.91979
▁valstyb	-8.91984
▁naudoti	-8.92013
▁blog	-8.92147
▁padidin	-8.92229
▁atstov	-8.92296
▁veiksmai	-8.92425
▁pareišk	-8.92552
▁6	-8.92563
▁patvirtinti	-8.92585
▁visuotin	-8.92592
▁iniciatyva	-8.92687
▁švietimo	-8.92955
sk	-8.93118
či	-8.93226
ntiems	-8.93406
▁labiausiai	-8.93466
▁va	-8.93478
ud	-8.93615
▁vieš	-8.93768
▁finansin	-8.93783
▁Rusija	-8.93887
▁rinkimų	-8.9389
yv	-8.93912
▁pasiūl	-8.93915
▁sunku	-8.9396
▁veikla	-8.94054
▁skaičius	-8.94271
▁sp	-8.94354
▁kaimo	-8.9438
▁poziciją	-8.94442
▁jame	-8.94458
▁kitas	-8.94461
▁aktus	-8.94483
cijos	-8.9449
▁sutartis	-8.94557
▁esant	-8.94654
▁pus	-8.94656
▁kaita	-8.94668
▁nare	-8.94757
▁kalbant	-8.94762
ši	-8.9477
▁išsi	-8.94866
▁teisė	-8.94883
▁parama	-8.95198
▁nieko	-8.95232
▁programą	-8.95344
▁komitetas	-8.95387
▁skirtas	-8.95507
▁skirta	-8.95527
uosius	-8.9561
jos	-8.95632
▁jus	-8.95876
▁užimtumo	-8.9595
▁Ko	-8.96014
ėte	-8.96172
skai	-8.96185
▁svarbūs	-8.96255
▁šiais	-8.96325
▁svarbų	-8.96429
▁laiką	-8.96541
▁investicijų	-8.96735
▁atsak	-8.96813
▁balsuoti	-8.97009
EB	-8.97014
▁neseniai	-8.97131
▁susiduria	-8.97176
dav	-8.97396
▁tariant	-8.9752
▁veik	-8.97537
▁galės	-8.97696
gu	-8.97851
usios	-8.9797
▁vadinam	-8.9798
▁ten	-8.97981
▁stiprinti	-8.98008
▁neabejotinai	-8.98013
uoju	-8.98034
▁joms	-8.98107
▁Bet	-8.98121
▁naudos	-8.98132
▁im	-8.98139
▁vertinu	-8.98281
jau	-8.98352
▁dviejų	-8.98362
ntį	-8.98419
▁patvirtin	-8.9845
▁galiausiai	-8.98463
Europos	-8.9849
man	-8.98507
▁tinkl	-8.98549
▁įvertinti	-8.98723
kalb	-8.98757
▁proceso	-8.98773
ėjimą	-8.9878
ab	-8.98863
▁pripažinti	-8.98939
▁skyr	-8.98965
▁reglamento	-8.98993
▁nauja	-8.98996
klaus	-8.9903
▁pareigas	-8.99178
▁mastu	-8.99182
▁siūl	-8.99197
▁suteikta	-8.99216
▁Amerikos	-8.99217
▁tikras	-8.99244
▁tenka	-8.99245
▁paminėti	-8.99269
▁atvejais	-8.993
imti	-8.99335
▁kitaip	-8.99384
▁pritaria	-8.99664
▁pirminink	-8.99689
▁teisinga	-8.99689
▁reguliavimo	-8.99937
▁lyg	-9.0007
žym	-9.00079
▁pažangą	-9.00118
▁parod	-9.00238
▁direktyvą	-9.00254
▁sutartį	-9.00307
▁technologijų	-9.00406
ry	-9.00646
tais	-9.00655
▁kalbama	-9.00659
▁partijos	-9.00663
PT	-9.00746
eig	-9.00759
▁pasiūlymų	-9.008
▁aiški	-9.00842
omi	-9.00846
▁kovo	-9.00877
inius	-9.00945
ysime	-9.00984
▁Pirma	-9.01174
▁link	-9.01231
▁saugumą	-9.01348
F	-9.01507
▁veiksmus	-9.01508
tor	-9.01516
▁tikrą	-9.01681
▁išvengti	-9.01687
▁sąlygų	-9.01718
▁taikymo	-9.01749
ines	-9.01878
▁JT	-9.01905
▁Šios	-9.01987
▁12	-9.02093
▁pagrindu	-9.02279
▁politinės	-9.02286
▁taisyklės	-9.02317
▁vyks	-9.02343
nčio	-9.0245
▁šiai	-9.02479
asis	-9.02519
tojų	-9.02716
▁partnerystės	-9.02767
▁Tik	-9.0281
▁politikai	-9.03069
▁būdas	-9.0307
▁užsi	-9.03145
▁taigi	-9.03233
▁Sąjungą	-9.03292
čiai	-9.034
▁naudotis	-9.0349
▁gyv	-9.03546
▁turėjo	-9.0362
▁derybas	-9.03855
val	-9.03882
▁paskelb	-9.03888
kai	-9.03896
▁socialinių	-9.03925
▁nares	-9.03943
▁tų	-9.03986
▁nustat	-9.04014
inis	-9.04347
▁tas	-9.04361
laid	-9.04477
▁žmones	-9.0461
yk	-9.04701
▁ketina	-9.04885
▁tampa	-9.0489
▁negu	-9.04948
▁Turi	-9.05055
▁reali	-9.05095
rė	-9.05151
▁pirmininko	-9.05188
▁didžiul	-9.05219
▁įgyvendinant	-9.0524
▁sau	-9.05274
▁susijusios	-9.05275
▁pozicija	-9.05275
ge	-9.05301
iausi	-9.05464
▁priemonėmis	-9.0552
▁vartojimo	-9.05657
▁vartotojams	-9.05705
▁rinka	-9.05775
▁rytoj	-9.0586
up	-9.05927
fi	-9.06012
▁nebe	-9.06027
▁automobilių	-9.06041
▁žvejybos	-9.06093
kti	-9.06184
▁daugelis	-9.06282
▁Jungtinės	-9.06297
▁jūrų	-9.06329
jant	-9.06404
▁pačios	-9.06431
▁laiku	-9.06431
Europa	-9.06442
bi	-9.06444
▁Ir	-9.06555
▁atlik	-9.06574
▁naudojimo	-9.06581
▁nariams	-9.06637
▁tarptautini	-9.06719
esn	-9.06722
▁dėkoju	-9.06764
▁kriz	-9.06833
vien	-9.07094
00	-9.07166
▁matyti	-9.07236
po	-9.07396
▁kolegos	-9.07464
vil	-9.07568
▁pagrindinis	-9.07568
ėjų	-9.07583
▁pavyzdžiui	-9.07634
▁dėmesys	-9.07737
▁požiūrį	-9.07883
▁organizacijos	-9.07886
▁netgi	-9.07891
▁kainų	-9.0793
▁žem	-9.08016
▁visai	-9.08019
▁pažangos	-9.08079
▁svarbą	-9.08128
▁suprasti	-9.08295
nes	-9.08465
▁Nepaisant	-9.08571
▁klaus	-9.08621
▁ateities	-9.08669
▁suinteresuot	-9.08768
de	-9.08834
▁norint	-9.0885
▁tikrų	-9.08952
▁Airijos	-9.09065
▁nacionalinių	-9.09138
kart	-9.09157
▁panaikinti	-9.09407
▁Rytų	-9.0947
▁aukščiausiojo	-9.09474
▁grupės	-9.09526
ėjimas	-9.09573
ven	-9.09788
▁Kinijos	-9.09811
▁kaimyn	-9.09866
▁didinti	-9.09868
▁sak	-9.09984
▁reikalauja	-9.10053
▁požiūrio	-9.1016
▁Viduržemio	-9.1031
▁negalima	-9.10414
▁tar	-9.10461
▁savaitę	-9.10461
▁požiūris	-9.10562
▁reikalavimus	-9.10611
▁Kadangi	-9.10914
ig	-9.10961
▁Prieš	-9.11091
▁teisingumo	-9.11136
▁technin	-9.1122
▁paremti	-9.11343
▁pobūdžio	-9.11419
▁susijusius	-9.11464
kin	-9.11496
▁naudinga	-9.11573
▁visuomen	-9.11603
▁min	-9.11684
▁9	-9.11733
▁nenu	-9.11803
▁vaidmuo	-9.11877
and	-9.11921
▁kalbame	-9.12121
▁sektorių	-9.12237
▁regionin	-9.1225
▁finansinės	-9.123
▁tęsti	-9.12313
ąjį	-9.12336
ly	-9.12417
▁15	-9.12435
▁paslaugas	-9.12439
▁karto	-9.12482
RO	-9.12592
▁atsisak	-9.12625
▁tema	-9.12851
▁reng	-9.12864
▁įveikti	-9.12886
▁Jungtini	-9.12971
▁Šiaurės	-9.13158
mui	-9.13203
tvar	-9.13261
▁pagrindas	-9.13262
▁procesas	-9.13264
▁taikoma	-9.13265
▁pagalba	-9.13416
▁galiu	-9.13589
▁veiksmingai	-9.13653
ov	-9.13661
▁nusi	-9.13828
▁dalykų	-9.13883
aud	-9.13928
▁teisin	-9.1399
▁keturi	-9.14091
▁darbas	-9.14105
vis	-9.14152
bal	-9.14182
▁gruodžio	-9.14195
▁pasaulin	-9.14292
▁politin	-9.14311
▁palaik	-9.14332
▁priežasties	-9.14404
▁priėm	-9.14433
▁pranešėjas	-9.14456
kite	-9.14474
▁demokratų	-9.14513
▁esama	-9.147
▁sienų	-9.14725
▁gauna	-9.14825
▁žuvininkystės	-9.14947
pre	-9.14964
ydami	-9.14971
▁skatina	-9.14988
▁padarinių	-9.1505
▁didesn	-9.15103
▁kelias	-9.15123
▁7	-9.15149
▁nepakanka	-9.15209
▁mirties	-9.15249
▁viską	-9.15281
▁skatin	-9.15296
▁fondų	-9.15349
iniai	-9.15426
▁teisėkūros	-9.15454
▁išlaikyti	-9.15467
▁sudar	-9.15492
▁iniciatyvos	-9.15614
▁bendrosios	-9.15658
inant	-9.15836
▁rezoliucija	-9.1593
▁solidarumo	-9.1593
▁sričių	-9.1593
▁didelį	-9.15945
▁atsakomybę	-9.1595
▁grup	-9.15984
ingą	-9.16038
▁aukšt	-9.16122
▁kiti	-9.16289
▁tris	-9.1629
▁pastangų	-9.16302
umui	-9.16354
dor	-9.16563
▁interesus	-9.16569
vai	-9.16572
ad	-9.16593
▁Jos	-9.16781
▁Pritariu	-9.16836
▁priežastis	-9.16981
umu	-9.17019
▁padaryta	-9.17038
▁2020"	-9.17117
▁Pirmiausia	-9.17165
▁sustiprinti	-9.17338
▁kuriam	-9.1737
teisin	-9.17484
▁Ž	-9.17496
▁pačių	-9.17525
ingų	-9.1757
nos	-9.17827
ką	-9.17876
▁pasirink	-9.17883
log	-9.17887
▁Pirmininko	-9.17971
▁išteklius	-9.1802
pu	-9.18116
▁sektorius	-9.18132
▁reikalinga	-9.18224
▁prieglobsčio	-9.18237
▁kalbėjo	-9.1824
be	-9.18298
acija	-9.1833
▁27	-9.18382
▁nepasi	-9.18414
ąsias	-9.18479
▁pasisak	-9.18505
▁sakant	-9.18563
▁bendradarbiauti	-9.18565
▁nuolatin	-9.18615
žiau	-9.18646
▁patiria	-9.18738
▁sunki	-9.18807
▁Vakarų	-9.18815
▁atlieka	-9.18826
vimo	-9.18837
lių	-9.18971
▁gamin	-9.19219
usių	-9.19241
▁pavojus	-9.19384
▁komitete	-9.19603
kų	-9.19816
▁san	-9.19896
▁laisvę	-9.19977
▁Ma	-9.19982
▁standartus	-9.20045
yje	-9.20076
▁panaikin	-9.20157
▁konkurencijos	-9.20213
▁viening	-9.20238
▁sek	-9.20253
▁Li	-9.20295
▁panaši	-9.20327
dą	-9.20328
go	-9.20338
▁niekada	-9.20381
▁aplinkai	-9.20391
▁speciali	-9.20415
▁Turkijos	-9.20432
pro	-9.20465
▁teikiama	-9.20648
▁pakeitimų	-9.20766
ties	-9.20792
▁gana	-9.20813
nio	-9.20874
už	-9.21044
▁tokį	-9.2105
ic	-9.21149
L	-9.21173
▁pasiūlymai	-9.21268
acijos	-9.21271
tum	-9.21313
▁deja	-9.21317
▁planą	-9.21327
▁aptarti	-9.21376
▁Šie	-9.21404
aiški	-9.21444
▁jokios	-9.21455
lyg	-9.2147
▁susirūpinimą	-9.21511
▁nepri	-9.21518
bo	-9.21542
▁pateikta	-9.21544
▁kultūros	-9.21549
▁biudžetą	-9.21605
▁Atsižvelgiant	-9.2166
▁bi	-9.21723
▁kr	-9.21804
nių	-9.21848
▁aptar	-9.21928
▁manome	-9.21967
čius	-9.21982
▁tvirtai	-9.22076
▁santykių	-9.22111
▁visose	-9.22115
▁priimtas	-9.22165
▁sistemų	-9.22168
▁prisidėti	-9.22232
▁praš	-9.22276
▁bendras	-9.22334
▁standartų	-9.2262
G	-9.22757
▁tikri	-9.22811
▁palankiai	-9.22826
▁strategin	-9.22886
▁2006	-9.22911
▁kito	-9.23069
J	-9.23091
▁MV	-9.23091
angl	-9.23186
▁Pietų	-9.23245
▁išlaidas	-9.23247
▁vėliau	-9.23279
▁amžiaus	-9.23531
▁par	-9.23534
▁santykius	-9.23588
▁zonos	-9.23646
yst	-9.23697
▁skaidrumo	-9.23703
▁siekdami	-9.23742
▁aktai	-9.23841
viz	-9.23843
▁siekdama	-9.23908
Plojimai	-9.2399
▁tokiu	-9.24
▁užtikrinant	-9.24188
pas	-9.24194
▁socialinę	-9.24248
▁didelių	-9.24272
▁priminti	-9.2431
mės	-9.24471
▁puiki	-9.24522
▁susitikime	-9.2454
▁tiesiogiai	-9.24547
▁Barroso	-9.24566
▁tikslą	-9.24567
▁interesų	-9.24567
▁susitarimų	-9.24585
tojai	-9.24636
bu	-9.24713
▁kilmės	-9.24798
cijų	-9.24799
▁Jūs	-9.24891
▁vakar	-9.24986
▁padeda	-9.25004
▁vizų	-9.25094
▁tie	-9.25126
ėjai	-9.25135
▁institucijoms	-9.25146
▁30	-9.2522
▁Kita	-9.25239
▁galėsime	-9.25305
▁panaudoti	-9.25328
▁įrod	-9.25369
ančių	-9.25392
▁atvejų	-9.25496
nės	-9.25509
▁svarbiausi	-9.25521
tinių	-9.25575
▁stipr	-9.25587
savo	-9.25707
▁romų	-9.25768
pl	-9.25791
▁vertina	-9.2584
▁didesnį	-9.25852
▁reikalavimų	-9.25905
▁numatyta	-9.25958
▁įsipareigojimų	-9.25964
▁didelis	-9.26066
vers	-9.26166
▁visame	-9.26186
silpn	-9.26245
▁dalyvauja	-9.26263
NL	-9.26282
▁atsakyti	-9.26301
▁pateiktas	-9.2633
▁ge	-9.26376
▁Šiame	-9.26499
▁rimtai	-9.26501
port	-9.26547
▁Reikia	-9.26552
▁skubiai	-9.26594
▁atsinaujinanči	-9.26641
▁Visi	-9.26657
▁užtikrin	-9.26701
▁teikia	-9.26731
▁forma	-9.26785
tės	-9.26822
▁laikin	-9.26943
amas	-9.26954
kš	-9.26984
ybę	-9.2701
▁tiekimo	-9.27106
▁neat	-9.27119
▁tikra	-9.27141
▁parodyti	-9.27164
▁Šengeno	-9.27203
▁anglies	-9.27203
▁kitose	-9.27248
▁daugelio	-9.27253
▁kitais	-9.27314
▁srities	-9.27322
▁lygiu	-9.27414
▁gyven	-9.27416
20	-9.27426
▁tinkamas	-9.27449
▁padėtų	-9.27501
▁globalizacijos	-9.27561
▁paskutin	-9.27613
▁atsakomybės	-9.27621
▁įsitikin	-9.27634
▁jud	-9.27647
▁projektą	-9.27679
▁masto	-9.27705
▁tokie	-9.27771
▁pabrėž	-9.2791
▁susitik	-9.27913
▁2011	-9.28008
rą	-9.2802
▁atliekų	-9.28037
▁teisingai	-9.28063
▁kurioms	-9.28124
▁antra	-9.28196
▁puikiai	-9.28206
maž	-9.28227
▁kal	-9.28328
eik	-9.28369
▁pastaruosius	-9.28397
▁nerimą	-9.28406
▁kitus	-9.28525
▁mažai	-9.28559
▁baig	-9.28657
▁dešimt	-9.28813
▁taikomos	-9.28842
lio	-9.28905
▁Nuo	-9.28921
▁teisinės	-9.29083
▁sustiprin	-9.29105
dien	-9.29138
sumažin	-9.29228
▁moterys	-9.29242
▁pavyzdys	-9.29242
▁tuos	-9.29276
šal	-9.29286
▁integracijos	-9.29371
▁pirmininkas	-9.29509
▁At	-9.29616
od	-9.29623
▁pranešimu	-9.2965
▁žmonėmis	-9.29667
ami	-9.29755
▁tikslai	-9.29946
jai	-9.3001
▁taikos	-9.30047
▁patvirtino	-9.3019
▁Prancūzijos	-9.30216
tri	-9.30258
▁pakeitimus	-9.30293
▁stebė	-9.30343
▁lygį	-9.30489
▁teisėms	-9.30492
▁pakeitimai	-9.30523
▁tinkamą	-9.30524
▁rengiant	-9.30533
▁priemon	-9.3058
▁pavyko	-9.30707
▁įtakos	-9.30708
▁sprendžiant	-9.30714
iui	-9.30762
▁termin	-9.30769
▁apsvarstyti	-9.30788
▁ekonomiką	-9.3083
▁procedūros	-9.30891
▁kuriai	-9.30913
▁komp	-9.30932
pač	-9.30993
bū	-9.31045
nd	-9.31066
▁tiems	-9.31094
▁rezultatai	-9.31138
imams	-9.31159
▁11	-9.31161
▁projekto	-9.31262
▁didėja	-9.31271
ment	-9.31277
dėti	-9.31295
▁leis	-9.31313
▁vald	-9.31409
▁sutinku	-9.31448
▁žali	-9.31455
▁darbu	-9.31457
▁apskritai	-9.31509
▁rizikos	-9.31509
▁išmetam	-9.31518
lis	-9.31541
gyvendin	-9.31603
▁nelegal	-9.31637
▁Toki	-9.31777
▁neiš	-9.31783
▁socialin	-9.31841
▁žinote	-9.31871
laik	-9.31905
▁akivaizdu	-9.31913
▁atstovai	-9.3194
▁nar	-9.32005
▁skirtų	-9.32069
▁reikalingas	-9.32146
▁svarst	-9.32168
rand	-9.32168
▁pieno	-9.322
▁lengva	-9.32208
▁dialogą	-9.32256
▁įsipareigojimus	-9.32256
jame	-9.32261
▁dieną	-9.32323
▁esanči	-9.32326
▁pasiūlyti	-9.32409
▁siūloma	-9.32426
▁rezultatus	-9.32479
▁nepriimtina	-9.32569
▁koks	-9.32742
▁išmok	-9.32761
▁nepriklauso	-9.32857
▁papild	-9.32878
▁agentūros	-9.32882
▁visoms	-9.32902
iuose	-9.33054
▁2020	-9.33075
▁įtaką	-9.33135
kos	-9.33141
▁esmin	-9.33169
▁pats	-9.33196
▁sprendimai	-9.33261
nus	-9.33321
iniu	-9.33358
▁gerbia	-9.33479
▁vienos	-9.33486
▁pozicijos	-9.33512
▁laukia	-9.33539
▁Pri	-9.33556
▁privači	-9.33578
▁atsakomyb	-9.33654
▁diskusijose	-9.33658
▁minėjo	-9.33684
op	-9.33691
▁pačiu	-9.33694
▁tikslo	-9.33712
▁palaikyti	-9.33778
▁pristat	-9.33801
▁balsavimą	-9.33892
uota	-9.33945
▁turėsime	-9.33948
▁straipsnio	-9.33956
▁principo	-9.34274
nuo	-9.34341
▁Parlamentą	-9.34402
▁išsami	-9.34455
▁darbuotojams	-9.34465
▁CO	-9.34489
▁prisi	-9.34506
ang	-9.34511
▁sukurta	-9.34548
lai	-9.34575
leisti	-9.34707
dėl	-9.34719
▁priemonė	-9.34754
▁sėkm	-9.34773
▁gyvenimą	-9.3489
▁vandens	-9.34931
▁suderinti	-9.35042
amb	-9.35068
▁pažanga	-9.35092
den	-9.35159
▁Visų	-9.35161
▁didelę	-9.35239
▁svarbios	-9.35295
▁tikros	-9.35327
▁v	-9.35429
▁14	-9.35464
land	-9.35492
▁vienu	-9.35528
▁mane	-9.35538
▁nacionalin	-9.35596
▁Noriu	-9.35597
▁taikomas	-9.35693
▁nustatyta	-9.35707
▁vietas	-9.35738
ine	-9.35764
▁paprašyti	-9.35799
▁lėšas	-9.35815
▁tyrimus	-9.35888
▁rinkų	-9.35972
▁kuriuose	-9.35978
▁nuostatas	-9.36049
▁aplinkybėmis	-9.36139
▁omenyje	-9.36139
▁derin	-9.36161
▁tokią	-9.36206
▁įsitikinęs	-9.36294
tina	-9.3636
iška	-9.36365
▁užkirsti	-9.36434
▁geras	-9.36448
▁moteris	-9.36464
▁greit	-9.36479
▁taps	-9.36506
▁sėkmingai	-9.3652
▁Kinija	-9.3653
▁atstovauja	-9.36597
izmo	-9.36802
ingo	-9.36808
▁nario	-9.3683
ima	-9.36865
▁atnaujin	-9.36987
▁uždar	-9.36995
pil	-9.37036
▁Vokietijos	-9.37052
▁ekonomikai	-9.37138
staty	-9.37145
jama	-9.37222
tumėte	-9.37317
▁pareiškimai	-9.37381
inga	-9.37515
▁tarptautinių	-9.37589
▁viešųjų	-9.37594
▁prieštarauja	-9.37645
ėse	-9.37719
▁sprendžia	-9.3774
▁To	-9.37756
EL	-9.37829
▁atidžiai	-9.37841
▁pareikšti	-9.37842
▁skirtos	-9.37912
▁mažinti	-9.38129
▁teigia	-9.38245
▁Trečia	-9.38252
▁organ	-9.38301
▁terorizmu	-9.38304
▁Ponios	-9.38305
▁dvišal	-9.38386
esni	-9.38394
▁De	-9.38443
▁karin	-9.38489
▁taikant	-9.38502
▁didelės	-9.3871
▁pagrindą	-9.38771
zo	-9.38789
▁nelaim	-9.38864
▁prekyba	-9.38937
iškas	-9.3895
▁kandidat	-9.3897
▁gerokai	-9.38976
▁Pagal	-9.39084
pirmininkaujanti	-9.39098
▁visais	-9.39111
▁patys	-9.39154
▁pranešėjo	-9.39194
▁konkrečių	-9.39239
kūr	-9.39277
pajėg	-9.39285
vanden	-9.39363
▁prekių	-9.3944
▁Jungtin	-9.39562
ten	-9.39582
▁La	-9.39626
▁f	-9.3964
▁tarptautiniu	-9.39643
▁partner	-9.39666
ybės	-9.39695
▁jokio	-9.39978
▁finansavimą	-9.3999
turi	-9.39999
▁principų	-9.40044
▁projektas	-9.40045
▁priėmimo	-9.40079
▁Nr	-9.40136
▁skaičių	-9.4018
▁ja	-9.40184
▁pati	-9.40186
▁vykdo	-9.40213
▁ginč	-9.40232
vin	-9.40274
inimas	-9.40281
▁kartais	-9.40282
▁stipri	-9.40289
▁rengia	-9.40312
▁nuostatos	-9.40316
gen	-9.40319
▁manymu	-9.40371
▁ribų	-9.40387
vz	-9.40492
▁lemia	-9.40533
▁Tuo	-9.40547
▁išsaugoti	-9.40577
lu	-9.40623
▁augimą	-9.40657
▁priekį	-9.40658
▁įstatymų	-9.4079
▁siūlom	-9.40814
▁bendrai	-9.40838
▁raginu	-9.40926
▁svarbiausių	-9.41141
▁kalbos	-9.41297
▁bu	-9.41322
▁pavojų	-9.41335
▁daroma	-9.41345
▁ekonomika	-9.4145
▁skurdo	-9.41472
▁Pranešime	-9.41553
▁rūpi	-9.41555
▁Bal	-9.41568
▁pripažin	-9.4167
▁kainos	-9.4168
▁apibrėž	-9.41729
▁nedelsiant	-9.41746
▁Taryboje	-9.41815
▁Darbo	-9.41815
▁pasiraš	-9.41922
pat	-9.41941
tojo	-9.41991
▁teigiama	-9.42208
tui	-9.42215
▁procedūrą	-9.42228
▁tikimės	-9.42232
▁plėtrą	-9.42235
▁kultūrin	-9.42304
išku	-9.42349
kas	-9.42486
▁paklausti	-9.42518
▁jėga	-9.42573
▁birželio	-9.42643
▁pranešimui	-9.42711
▁Pas	-9.42789
ies	-9.42821
▁reikės	-9.42867
▁25	-9.42991
▁kokių	-9.43014
▁straipsnis	-9.43059
momis	-9.43083
išką	-9.43089
▁veiks	-9.43195
▁taptų	-9.432
ciją	-9.43202
ilg	-9.43207
▁nuostatų	-9.43269
▁Gal	-9.43292
▁skiria	-9.43293
▁lyčių	-9.43338
▁aspektus	-9.43346
▁mėnesius	-9.43478
nčioms	-9.43493
forma	-9.43524
▁nepaprastai	-9.43658
▁pamat	-9.43682
▁vyriausybių	-9.43918
▁nutrauk	-9.43981
▁Jau	-9.44004
▁kolega	-9.44009
▁daugelį	-9.44039
▁institucija	-9.44073
▁poreikius	-9.44103
▁programas	-9.44127
▁priemonę	-9.44139
▁stabilumo	-9.44249
▁ragina	-9.44438
▁naudo	-9.44443
▁Svarbu	-9.4446
▁paprast	-9.44536
▁paskatin	-9.4455
ūro	-9.44563
tinės	-9.44646
dur	-9.44687
▁šiose	-9.44744
eng	-9.44753
▁augin	-9.44759
▁socialinio	-9.44793
▁Dėkoju	-9.44814
▁šeimos	-9.44814
▁Turkija	-9.44884
▁puikų	-9.44955
▁pramon	-9.44975
▁nusprend	-9.44989
▁išreikšti	-9.45022
▁lėšos	-9.45026
▁biudžetas	-9.45027
▁užtikrina	-9.45072
▁interneto	-9.45097
▁l	-9.45139
▁rezultatas	-9.45168
▁Audito	-9.45168
▁šalį	-9.45171
▁pavadin	-9.45179
▁Vien	-9.45222
▁ištekliai	-9.45239
▁tuomet	-9.45267
▁valstybėje	-9.45333
▁imigracijos	-9.45382
▁ci	-9.45398
▁susitarimus	-9.45462
▁kokios	-9.45551
uojant	-9.45612
▁Graikijos	-9.45667
▁nagrinėja	-9.45667
tams	-9.45719
▁stebėti	-9.45761
▁pradžių	-9.4581
▁abejonių	-9.45833
▁gyvūnų	-9.45863
▁13	-9.45892
▁gerą	-9.4592
▁aplinką	-9.45924
▁būtinas	-9.45994
▁reaguoti	-9.46004
ėjus	-9.46069
▁asmenin	-9.46098
▁geresn	-9.46114
▁neap	-9.46184
▁principą	-9.4624
▁lauk	-9.46287
▁ponia	-9.46346
▁technologi	-9.46411
▁neįmanoma	-9.46455
▁diskusija	-9.4657
▁sritį	-9.46599
▁patikrin	-9.46697
▁projektų	-9.46744
▁naftos	-9.46816
▁Nauj	-9.46845
▁stat	-9.46932
▁kartų	-9.47035
▁laivų	-9.47105
▁susitikimo	-9.47119
▁gyn	-9.47132
▁malonu	-9.47167
az	-9.47202
▁pokyčių	-9.4725
▁valstybėmis	-9.47257
▁siūlo	-9.47439
ky	-9.47446
ep	-9.47475
▁principas	-9.47613
uv	-9.47634
▁pakanka	-9.47653
vad	-9.47676
▁h	-9.47682
▁žiniasklaidos	-9.47686
▁Tautų	-9.47687
▁vienintel	-9.4775
▁pakeitimą	-9.4776
amos	-9.47784
▁Euro	-9.47814
▁da	-9.47859
▁nauji	-9.48009
tautin	-9.48099
▁18	-9.48125
▁įgyvendinimą	-9.48125
jimu	-9.48191
▁Vengrijos	-9.48198
▁institucijas	-9.48234
▁daugyb	-9.48274
▁lygis	-9.48277
▁pasiektas	-9.48293
mano	-9.48314
▁Pra	-9.48314
▁susijusias	-9.4841
▁svarbiausias	-9.48487
mer	-9.4853
▁plataus	-9.48565
▁pradėjo	-9.4859
▁pabrėžiama	-9.48644
▁Kad	-9.48682
reikšm	-9.48776
▁ateitį	-9.48785
jam	-9.48868
▁geriausi	-9.48907
▁naujus	-9.49152
▁lygybės	-9.49157
▁bendrų	-9.49219
▁aktyviai	-9.49238
▁regionuose	-9.49302
▁Bendr	-9.49349
▁rezoliucijoje	-9.49376
▁sunkumų	-9.49403
▁aspektų	-9.4945
esnis	-9.49491
▁šimt	-9.49573
▁pagerin	-9.49644
▁perspektyv	-9.49798
kėl	-9.49815
▁kryptimi	-9.49822
ny	-9.49874
▁grupių	-9.49874
▁plėtoti	-9.50065
▁tolesn	-9.50165
▁dirb	-9.50283
▁mokymo	-9.50323
um	-9.50397
ypating	-9.50435
▁Vienas	-9.50548
▁medžiagų	-9.50569
▁turė	-9.50635
▁kriterijus	-9.50644
▁Italijos	-9.50719
▁svarbių	-9.50772
▁vertinti	-9.50793
lų	-9.50883
iškų	-9.50965
▁kl	-9.50979
▁laikomasi	-9.51049
▁keleivių	-9.51095
vel	-9.51146
▁pažeidžiam	-9.51157
▁sal	-9.51234
▁PPE	-9.51246
▁bendrovės	-9.51261
▁gerinti	-9.5127
▁inter	-9.51329
avi	-9.5134
iški	-9.51346
▁rū	-9.51361
ves	-9.51373
▁paveik	-9.51385
▁paaiškinti	-9.51397
▁50	-9.51399
▁Būtina	-9.51478
▁karo	-9.51492
▁sausio	-9.51552
▁parem	-9.51575
▁pagaliau	-9.51582
inimą	-9.51749
▁integr	-9.51785
ber	-9.51832
▁konstituci	-9.51852
▁galutin	-9.51909
▁mažumų	-9.51929
▁sava	-9.52014
▁pasiekta	-9.5203
▁eurų	-9.52081
SV	-9.52144
▁viskas	-9.52265
▁joje	-9.52301
▁Štai	-9.52304
▁virš	-9.5235
▁bendruomen	-9.52375
▁tvari	-9.52598
▁pagrindinės	-9.52623
antis	-9.52731
▁pranešėjui	-9.52734
▁sako	-9.52738
leis	-9.52747
kelia	-9.52752
▁pradžioje	-9.52768
▁mėnesių	-9.52769
▁vartotojai	-9.52844
▁vertinimo	-9.5288
davo	-9.52909
ob	-9.5292
▁visuomenei	-9.53123
ydamas	-9.53164
ingas	-9.53204
▁penki	-9.53225
▁saugi	-9.53258
▁sulauk	-9.53331
ug	-9.5336
▁reformos	-9.53383
▁paprasčiausiai	-9.53383
žia	-9.53482
▁Negalim	-9.53578
▁palyginti	-9.53665
▁kelis	-9.53688
▁procese	-9.53773
▁sudėtinga	-9.53872
▁principus	-9.53955
▁teršalų	-9.54002
▁lyder	-9.5407
▁buvusi	-9.54082
▁tokius	-9.54228
▁keičia	-9.54246
liet	-9.54277
▁gera	-9.54304
▁supaprastin	-9.54314
▁demokratija	-9.54391
niu	-9.54526
▁parodė	-9.54615
▁dalimi	-9.54704
▁atsižvelg	-9.5477
▁skiriama	-9.54775
▁laikotarpio	-9.54781
▁laikotarpį	-9.54781
▁konkrečiai	-9.54864
▁vienintelis	-9.54869
▁įsteig	-9.54878
▁pan	-9.54918
▁derybos	-9.54936
▁keisti	-9.55016
▁Pirmininkas	-9.55118
▁abejonės	-9.5512
▁kovojant	-9.55191
gos	-9.55272
▁ryt	-9.55282
▁Jo	-9.55289
▁Mar	-9.55291
▁vaikai	-9.55297
▁produktai	-9.5533
nis	-9.55381
▁ekonominę	-9.55416
▁naudojant	-9.55441
▁principu	-9.55456
▁profesin	-9.5548
▁skirtą	-9.55488
▁programų	-9.55489
▁ginti	-9.55492
▁žinoti	-9.55533
▁nacionalinės	-9.55594
▁Privalom	-9.55646
▁pajamų	-9.55647
▁ekonominių	-9.5572
▁įvyko	-9.55725
▁gyventojai	-9.55737
▁ram	-9.55782
▁Daug	-9.55879
▁br	-9.55947
mais	-9.55952
žvelg	-9.55968
▁informuoti	-9.55999
▁dalykus	-9.55999
ėra	-9.56087
▁vieno	-9.56116
▁išlaik	-9.56118
mat	-9.56142
▁reglamentą	-9.56278
▁tikėtis	-9.56288
▁projektus	-9.56328
▁finans	-9.56459
▁kova	-9.56508
▁koleg	-9.56542
▁darbuotojai	-9.56596
demokrat	-9.56611
▁platesn	-9.56628
aciją	-9.56716
ėjams	-9.56738
inta	-9.568
▁finansuoti	-9.56865
▁Kon	-9.56914
▁draudimo	-9.56915
kar	-9.56939
▁duomenis	-9.56995
▁grėsm	-9.57
rib	-9.57067
yn	-9.57106
▁vyrų	-9.57155
▁narė	-9.57174
▁tinkama	-9.572
▁nus	-9.5722
▁niek	-9.57253
plan	-9.57272
▁prisijung	-9.57301
▁procedūra	-9.57313
▁kitiems	-9.57448
nga	-9.5747
▁aspektas	-9.57476
▁tvarka	-9.57485
▁įved	-9.57533
▁sveikatai	-9.57613
nam	-9.57618
▁Sutarties	-9.57637
lia	-9.57639
▁analiz	-9.57649
tuo	-9.57657
▁argument	-9.57718
▁galimybe	-9.57759
▁asmens	-9.57798
▁gyventojams	-9.57807
nčiai	-9.57826
▁paskutini	-9.57888
▁pranešėja	-9.57897
nauj	-9.57931
▁Ch	-9.57939
▁neturime	-9.57943
▁U	-9.57965
jomis	-9.57973
▁pirk	-9.58022
▁aspektai	-9.5804
▁kasdien	-9.58041
ingai	-9.58062
naudoja	-9.58072
▁ties	-9.58185
iami	-9.58197
▁Diskusijos	-9.58202
▁reikalavimai	-9.58202
▁dienos	-9.58208
▁pasakė	-9.58263
▁trans	-9.58435
▁turt	-9.58443
▁moterims	-9.58526
▁įgaliotin	-9.58526
▁bendrovių	-9.58542
▁Džiaugiuosi	-9.58608
▁organizuot	-9.58618
▁eina	-9.58789
rb	-9.58796
▁pirmą	-9.58821
▁kitomis	-9.58899
▁galėjo	-9.58903
▁sektoriui	-9.58933
eji	-9.59017
▁Gr	-9.59031
lig	-9.59049
spaud	-9.59071
▁didži	-9.59096
lie	-9.59361
▁balsu	-9.59428
▁atsisakyti	-9.59537
▁didesnio	-9.59552
sprend	-9.59562
▁pabaigos	-9.59583
est	-9.5962
liko	-9.5962
ono	-9.59649
▁papraš	-9.59651
▁Lenkijos	-9.5967
▁tarnybos	-9.5967
sen	-9.59704
▁Di	-9.59712
tomis	-9.59743
▁taiko	-9.59758
▁peln	-9.59782
▁vykdant	-9.59842
▁sukėl	-9.59933
▁kiekį	-9.59957
▁būtinyb	-9.59996
▁visapusiškai	-9.60032
▁trūksta	-9.60082
▁kapitalo	-9.60117
▁smurto	-9.60166
▁finansinę	-9.60221
▁tvark	-9.6023
▁vaidmens	-9.60329
▁pasitikėjimą	-9.60412
▁šaltinių	-9.60438
▁kam	-9.60448
▁proga	-9.60469
▁sistemas	-9.60497
dyti	-9.60529
▁paklaus	-9.60563
▁sukuria	-9.60567
džiu	-9.60676
▁vadovauja	-9.60709
▁paskatinti	-9.60721
▁ekolog	-9.60736
trūk	-9.60805
▁sukūr	-9.6086
▁niekas	-9.60874
č	-9.60933
▁Pasauli	-9.60992
▁struktūrin	-9.61015
▁lapkričio	-9.61076
▁Gali	-9.61141
▁bankų	-9.61163
▁kalt	-9.61205
▁griežtai	-9.61236
▁partija	-9.61244
▁daugelyje	-9.6126
▁Sa	-9.61343
▁žvej	-9.61402
▁Izraelio	-9.6141
▁prisideda	-9.61418
▁solidarumą	-9.61493
▁pabaigoje	-9.61515
iausia	-9.61517
ana	-9.6154
▁miškų	-9.61554
▁atsakinga	-9.61569
HU	-9.61585
uojama	-9.61661
esnės	-9.61739
▁mažinimo	-9.61799
pol	-9.61839
▁laisvių	-9.61867
▁apsi	-9.61948
▁ataskaita	-9.62165
▁organizacijų	-9.62165
fer	-9.62166
reikš	-9.62239
▁Al	-9.623
▁kūr	-9.62323
▁išlaidos	-9.62336
▁Par	-9.62403
▁naudojimą	-9.62418
▁režimo	-9.62418
joms	-9.62427
ding	-9.62438
ėję	-9.62656
▁Siekiant	-9.62671
▁Kit	-9.62867
▁susitarimai	-9.6288
▁kuriant	-9.629
▁stebi	-9.62926
▁Kodėl	-9.62943
▁biurokrat	-9.63037
ingi	-9.63093
van	-9.63202
▁naudingas	-9.63264
▁dabartinės	-9.63266
▁gamyba	-9.63351
▁Ta	-9.63424
▁gegužės	-9.63436
▁demokratiją	-9.63436
▁tolesni	-9.63444
▁branduolini	-9.63521
▁reglamentu	-9.63581
▁produktus	-9.63607
ski	-9.63607
▁valstybnar	-9.63608
gar	-9.63629
▁pilietin	-9.63682
▁paketo	-9.63694
▁kokybę	-9.63738
▁agentūrų	-9.63778
▁migracijos	-9.63778
nčia	-9.63806
▁Tam	-9.6381
▁nenori	-9.63827
kon	-9.63861
▁patenkinti	-9.63863
▁tikrov	-9.63899
▁minėta	-9.63905
▁Ashton	-9.63949
▁palaiko	-9.64031
▁stabili	-9.64036
plat	-9.64132
gan	-9.64137
iesiems	-9.64151
bus	-9.64181
▁aplinkosaugos	-9.64207
site	-9.64242
▁40	-9.64242
▁taikomi	-9.64242
▁įvairi	-9.64256
▁investuoti	-9.64299
▁žemyn	-9.64402
▁elektros	-9.64453
▁reik	-9.64457
▁Prancūzija	-9.64465
▁poreikį	-9.64465
▁žodžio	-9.64551
▁pažeid	-9.64634
▁teismo	-9.64697
▁toli	-9.6471
ans	-9.64739
▁idėja	-9.64744
band	-9.64749
▁baz	-9.64761
▁šeši	-9.64809
▁agentūra	-9.64896
▁ilgai	-9.64927
▁mažesn	-9.64946
▁praėjus	-9.64962
▁vyko	-9.65072
▁iniciatyvą	-9.65158
ler	-9.65195
▁darbotvarkės	-9.65201
tojams	-9.65203
▁keli	-9.65217
▁17	-9.65322
uotų	-9.65392
▁regis	-9.65399
▁16	-9.65414
▁sustabdyti	-9.65458
▁leistų	-9.65472
▁kolegų	-9.65561
▁fondas	-9.65591
▁rūšių	-9.65591
▁būdų	-9.65696
▁spalio	-9.65853
▁Viena	-9.65859
▁numatyti	-9.6591
ij	-9.65932
▁prekybą	-9.6594
až	-9.65976
▁reišk	-9.65987
▁pasiūlymu	-9.66061
ybos	-9.66189
▁prasme	-9.66192
Pirminink	-9.66208
▁Respublikos	-9.66291
▁komercin	-9.66291
▁In	-9.66341
▁didesnis	-9.66408
▁prašau	-9.66472
▁Te	-9.66517
▁pakeitimas	-9.66555
che	-9.66587
▁kiekvieno	-9.6663
▁plano	-9.66669
▁teisėmis	-9.66709
▁nemažai	-9.66761
▁Vi	-9.66785
▁mokslin	-9.66788
▁organizacija	-9.66823
▁plėtra	-9.66956
▁vietoje	-9.67036
▁Le	-9.67039
▁infrastruktūros	-9.67045
▁politinę	-9.67071
▁Teisingumo	-9.67084
▁prisiimti	-9.67128
▁kūrimo	-9.67135
lus	-9.67153
▁Akivaizdu	-9.67172
▁erdvės	-9.67278
▁galiojanči	-9.67304
▁bio	-9.6737
pri	-9.67402
▁rėm	-9.67418
▁vykdoma	-9.6746
▁atliko	-9.67489
▁vykusi	-9.67507
▁2013	-9.67527
▁vidutin	-9.67583
▁pašalinti	-9.67733
▁auto	-9.67753
▁pusės	-9.67777
▁liaudies	-9.67794
▁skirtingų	-9.67795
▁nuomon	-9.6786
▁derybose	-9.67885
▁namų	-9.67887
tę	-9.67887
▁praneš	-9.67904
▁susitikimas	-9.67935
▁reformų	-9.67972
▁turizmo	-9.67982
inama	-9.67983
▁teig	-9.68032
▁judėjimo	-9.68087
mams	-9.68123
ide	-9.68164
▁pasirengę	-9.68194
▁pagrindiniai	-9.68315
▁politinio	-9.68325
prek	-9.68368
bai	-9.68435
▁bausm	-9.68454
das	-9.68459
▁mat	-9.68588
▁iškil	-9.68669
▁standartai	-9.68689
▁Pirm	-9.68733
▁tur	-9.68763
▁grėsmę	-9.68767
▁geležinkelių	-9.68779
▁ryšių	-9.68779
▁žinia	-9.68807
▁papildoma	-9.68815
▁politinį	-9.68898
▁mokslo	-9.6896
▁Kartu	-9.69011
▁piliečius	-9.69049
▁tarpusavio	-9.69049
▁nuoširdžiai	-9.69111
▁pasirengusi	-9.69114
prie	-9.69125
▁vykd	-9.69131
▁duomenys	-9.69139
▁skurdu	-9.6923
▁nariui	-9.69257
▁dr	-9.69305
▁procedūras	-9.69329
▁tokias	-9.69349
vesti	-9.6945
▁BŽ	-9.69459
kio	-9.69469
▁pareiga	-9.6949
▁Pagrindini	-9.69553
▁raginama	-9.69581
▁tos	-9.69597
omuni	-9.69655
▁pabėgėlių	-9.69682
▁įgyvendinimas	-9.69683
▁susitar	-9.69698
▁tikiu	-9.69711
iniams	-9.69711
▁dokumentų	-9.69773
stan	-9.69798
▁skiriasi	-9.69805
▁paraginti	-9.69823
▁metin	-9.69835
aš	-9.69841
▁sukelia	-9.69844
▁parlamentin	-9.70114
▁branduolinės	-9.70137
▁institucin	-9.70137
▁nežino	-9.70139
gre	-9.70142
▁užtikrinta	-9.70164
▁pagrindines	-9.70172
▁trijų	-9.7023
ren	-9.70314
▁kalbą	-9.7033
▁pranešėjai	-9.70351
avimu	-9.70358
CS	-9.70375
▁pabrėžia	-9.70409
▁planas	-9.70416
nui	-9.70427
▁atmet	-9.7046
▁mir	-9.70502
▁leiskite	-9.70519
▁nustato	-9.70592
▁priimta	-9.706
▁laimė	-9.70627
▁priversti	-9.70627
▁klas	-9.7065
▁istorin	-9.70687
▁nukreipt	-9.70731
▁Kar	-9.70801
▁veiksmingesn	-9.7087
▁turint	-9.70878
▁išsaugo	-9.70879
▁ras	-9.70962
▁pasiūlyme	-9.70962
ada	-9.70967
▁suteikiama	-9.71002
▁pritariame	-9.71019
▁matome	-9.71023
▁tiesa	-9.7104
avimui	-9.71097
▁pastangos	-9.71146
liai	-9.71151
▁padaryt	-9.71195
▁pradin	-9.7121
▁susitarimu	-9.71215
ūp	-9.71217
eiti	-9.71219
▁Balsavimas	-9.71238
▁Buvo	-9.71239
▁II	-9.71298
▁tyrimai	-9.71304
▁Ukrainos	-9.7133
▁kiekvieną	-9.7133
▁paketą	-9.71331
mobil	-9.71346
▁Parlamentu	-9.7142
▁padėtyje	-9.71422
▁ūkininkams	-9.71454
▁skaidrumą	-9.71607
▁pasirod	-9.71616
▁Net	-9.71684
prieš	-9.71689
ika	-9.71705
lės	-9.71717
imais	-9.71804
ekijos	-9.71876
▁pakeitimo	-9.71887
▁krize	-9.71905
ūk	-9.7193
▁pasiūlymui	-9.71934
▁n	-9.71968
▁santykiai	-9.71978
▁poveikis	-9.71979
▁pripažįsta	-9.71983
▁tarybos	-9.71991
▁Ministr	-9.72072
▁nepais	-9.72073
▁netrukus	-9.72164
▁reikalauti	-9.72164
jį	-9.72185
▁jaunimo	-9.72225
▁100	-9.72227
ano	-9.72237
ed	-9.7225
▁asmenims	-9.72257
▁papildomų	-9.72262
uotos	-9.72285
▁sprendimu	-9.72307
▁NATO	-9.7235
dėjo	-9.72488
▁prioritetų	-9.72537
▁rank	-9.72596
▁saugumas	-9.72631
▁labui	-9.72631
iškos	-9.72643
▁kontrol	-9.727
▁pastabas	-9.72799
▁ataskaitą	-9.72818
▁energetin	-9.72818
▁socialine	-9.72846
ėjau	-9.72855
▁sąlyga	-9.72858
▁saugo	-9.72887
▁pinigai	-9.72911
▁praeit	-9.72927
▁konkurencin	-9.72944
▁ataskaitos	-9.73005
▁neturėtume	-9.7303
▁Šio	-9.73082
▁posėdyje	-9.73099
ytume	-9.73135
▁nacionaliniu	-9.73137
▁dialogo	-9.73193
Ž	-9.73208
▁baigtos	-9.73209
▁skiriamas	-9.73209
▁norėtų	-9.73477
▁policijos	-9.73486
▁ro	-9.73512
▁plėt	-9.73634
▁plėtrai	-9.73707
tė	-9.73715
lan	-9.73738
▁kontroliuoti	-9.73759
▁geri	-9.73762
rie	-9.73781
▁svarbos	-9.73854
▁trys	-9.7389
▁Ispanijos	-9.73948
galv	-9.73951
▁numat	-9.73982
ėjimu	-9.74106
vas	-9.74118
▁dalykai	-9.74138
▁kliūtis	-9.74138
▁konkurencingumą	-9.74138
▁darbotvarkę	-9.74142
nij	-9.74142
▁Irano	-9.74151
▁suteiks	-9.74155
▁valdymą	-9.7427
▁kažk	-9.74331
▁dalyje	-9.74334
▁jais	-9.74393
▁įvesti	-9.74423
bar	-9.74433
ind	-9.7449
▁pakartoti	-9.74598
▁diskusiją	-9.74614
atlygin	-9.74614
▁spaudimą	-9.74615
▁patar	-9.74686
iško	-9.74697
▁veiksmingiau	-9.74761
▁negaliu	-9.74789
▁asmenys	-9.74804
▁lank	-9.74817
▁ekonominio	-9.74876
diskusijos	-9.74891
▁mėnesį	-9.74901
▁kovą	-9.74904
▁se	-9.74958
▁pranaš	-9.74996
▁narėmis	-9.74997
▁suveren	-9.75093
dra	-9.7516
pie	-9.75197
eg	-9.75309
▁svarstyti	-9.75378
▁pažymėti	-9.7538
▁pratęs	-9.75383
▁Lo	-9.75421
▁apibrėžti	-9.75426
▁kada	-9.75478
▁Valstybės	-9.75522
▁palaikau	-9.75524
▁pažeidimų	-9.75604
vus	-9.75648
lauk	-9.75662
▁Airijoje	-9.75668
▁Leiskite	-9.75668
▁Valstijos	-9.75668
▁patirties	-9.75674
kom	-9.75677
damiesi	-9.75727
▁gyventi	-9.75762
▁pusiausvyrą	-9.75765
taip	-9.75836
▁tikslais	-9.75905
▁verčia	-9.75915
pe	-9.75947
▁palik	-9.75991
▁steng	-9.7606
migra	-9.76066
▁maistu	-9.76159
ado	-9.76221
▁simboli	-9.76248
skiria	-9.76264
▁įvykdymo	-9.76275
vų	-9.76295
garb	-9.76341
▁prioritetas	-9.76345
U	-9.76346
▁kolegoms	-9.76405
▁pensijų	-9.76442
skyr	-9.76443
▁ryž	-9.76447
▁didžiausi	-9.76456
ros	-9.76466
▁Valstijų	-9.7654
▁kontrolę	-9.76598
▁energiją	-9.76637
▁akivaizdžiai	-9.76638
▁užtikrintų	-9.76695
▁Visiškai	-9.76725
▁kokyb	-9.76744
▁skaidri	-9.76761
▁2012	-9.76832
ministr	-9.76833
duoda	-9.76834
▁didelio	-9.76871
nį	-9.76873
ančios	-9.76892
ich	-9.7692
▁patvirtina	-9.76996
▁keletas	-9.77027
▁vystymuisi	-9.77027
▁2005	-9.77048
▁reikalaujama	-9.7707
▁duomenimis	-9.77125
▁šaliai	-9.77141
▁finansuojam	-9.77152
▁grindžiam	-9.77211
▁PPO	-9.77223
▁teise	-9.77257
▁teritorijoje	-9.7732
▁metai	-9.77323
▁savi	-9.77388
▁atsižvelgiama	-9.77442
▁politinis	-9.77457
▁c	-9.77471
džio	-9.77554
▁dokumentai	-9.77615
▁įsipareigo	-9.77715
▁skirtu	-9.77717
▁prisitaikymo	-9.77919
▁Kas	-9.77963
▁galioja	-9.78001
▁Galbūt	-9.78009
▁banko	-9.78015
že	-9.78039
▁kiekviena	-9.78039
▁tobul	-9.78051
▁reglamentas	-9.78107
▁narius	-9.7815
▁moka	-9.78155
▁ypatingą	-9.78164
▁susidar	-9.78174
nijos	-9.78202
▁stabilumą	-9.78206
▁skirs	-9.78223
▁deficit	-9.78305
▁sutartimi	-9.78309
deda	-9.78336
▁sutelkti	-9.78385
inys	-9.78406
▁žinių	-9.78417
▁susirūpin	-9.78642
▁dviem	-9.78661
reg	-9.78851
▁kitoms	-9.78853
▁eksp	-9.7887
▁apibūdin	-9.78901
▁užduotis	-9.78985
▁visuomenę	-9.78994
▁kokią	-9.79001
▁vaistų	-9.79001
tro	-9.79026
▁didžiausia	-9.79042
▁keliu	-9.791
▁surink	-9.79138
▁Teis	-9.79173
▁tikru	-9.79177
▁pateikia	-9.79226
▁apsaugo	-9.7923
inėje	-9.79236
▁susitikimą	-9.79264
▁Pasi	-9.79313
▁gynybos	-9.79409
▁nurodyti	-9.79453
▁persvarst	-9.79479
▁inovacijų	-9.795
▁ryšius	-9.79523
aktyv	-9.79607
▁kenčia	-9.79701
▁priemonėms	-9.79703
antys	-9.79708
▁dienų	-9.7971
▁bendruomenės	-9.79726
▁atstovų	-9.79771
▁norėtume	-9.79801
▁Baltijos	-9.79801
▁pagrindų	-9.79803
▁besi	-9.79857
▁Visa	-9.79867
▁Rumunijos	-9.79901
▁jėgos	-9.79901
▁suprantama	-9.79916
▁draug	-9.79921
▁diskriminacija	-9.80002
gai	-9.80021
▁didesnę	-9.80086
▁etnin	-9.80103
fe	-9.80105
▁narėje	-9.80125
ystės	-9.80164
labai	-9.80212
ck	-9.80256
▁apimti	-9.8032
▁tikro	-9.80346
▁baigti	-9.80347
▁Biudžeto	-9.80359
▁mėgin	-9.80406
mokė	-9.80419
▁koordinuo	-9.80444
▁apribo	-9.80455
SK	-9.80556
▁nepriklausoma	-9.80695
▁akto	-9.80732
▁didžiausią	-9.80762
ję	-9.80801
▁Graikija	-9.8081
▁aviacijos	-9.8081
▁konkurencija	-9.80919
ved	-9.80946
▁taršos	-9.81014
▁trumpai	-9.81064
▁spekuli	-9.81114
H	-9.81178
▁nukentėjusi	-9.81217
▁pranešėją	-9.81217
▁likusi	-9.81226
▁tęs	-9.81236
▁pasireng	-9.81298
▁fondu	-9.81319
▁įvykių	-9.81319
ote	-9.8136
tys	-9.8149
▁sutelk	-9.81543
gebė	-9.81574
▁žinau	-9.81626
▁nutraukti	-9.81629
▁frakcijų	-9.81728
▁išdėst	-9.81752
dų	-9.81761
▁pastat	-9.81809
▁atsižvelgta	-9.81824
▁Tarybą	-9.8183
▁įsipareigojimą	-9.8183
▁kokio	-9.81879
▁al	-9.81897
▁intensyv	-9.81933
▁pramonei	-9.81949
keliančių	-9.82024
▁įvykd	-9.82059
▁nurodyta	-9.82104
▁viduje	-9.82138
▁deram	-9.82163
▁atvyk	-9.82224
co	-9.82226
▁konvencijos	-9.82241
▁prezidento	-9.82245
▁parodo	-9.82285
▁eismo	-9.82345
▁kredito	-9.82345
▁smarkiai	-9.82447
▁įprast	-9.82497
▁pinigus	-9.8255
▁sutarčių	-9.82552
▁gaus	-9.82584
region	-9.82623
▁posėdžio	-9.82654
▁tinkamu	-9.82682
▁patyr	-9.82713
▁technologijas	-9.82758
▁rugsėjo	-9.82861
▁esm	-9.82875
▁vertybių	-9.82964
▁vertybes	-9.82965
grįž	-9.82986
lk	-9.82989
▁minima	-9.8299
▁abipus	-9.83045
▁pateiktų	-9.83046
valstyb	-9.8306
▁egzistuoja	-9.83068
▁teigiamai	-9.83094
▁Ką	-9.83115
▁kaina	-9.83127
ininkai	-9.83148
▁institucijomis	-9.83172
▁auga	-9.83188
▁pagrįstas	-9.83207
▁gerovės	-9.83283
▁reglamentuoja	-9.83307
▁ad	-9.83409
bėg	-9.83413
▁padarinius	-9.8342
▁pranešėjams	-9.83426
ajai	-9.83444
▁politikoje	-9.83484
▁atid	-9.83558
▁ve	-9.83585
▁lengviau	-9.83612
▁netinkama	-9.83632
▁neuž	-9.83766
balsavimas	-9.83809
▁gyvybiškai	-9.83902
▁gim	-9.83966
▁demokratišk	-9.83976
▁teks	-9.84021
▁kiekvienas	-9.84102
▁griežtesn	-9.8412
▁Na	-9.84163
▁supranta	-9.84169
▁kokį	-9.84218
olog	-9.84256
▁vež	-9.84283
▁Iki	-9.84316
▁kompetencija	-9.84321
▁milijonų	-9.84431
krau	-9.84437
▁visomis	-9.84459
▁sauga	-9.8451
▁pe	-9.84537
▁skubi	-9.8455
iamos	-9.84573
▁nepakankamai	-9.846
▁sėkmės	-9.84638
▁valstybei	-9.84654
▁iššūkius	-9.84765
▁atkreip	-9.84788
▁humanitarin	-9.8481
he	-9.84843
▁sąjungos	-9.84848
pel	-9.84849
▁pasikeit	-9.8506
▁menk	-9.85092
▁Kitaip	-9.85098
▁procedūrų	-9.85166
▁balsavo	-9.85204
▁trump	-9.85262
tobulin	-9.85263
gauti	-9.85314
pus	-9.854
▁įtrauktas	-9.85415
▁struktūrinių	-9.85455
▁jaučia	-9.85464
▁patvirtinimo	-9.85478
▁Ekonomikos	-9.85484
▁pirmąjį	-9.85522
▁atliekam	-9.85561
šiltnamio	-9.8559
▁reformas	-9.85627
▁baudžiam	-9.85654
mokslinius	-9.85688
▁veiksmingą	-9.85697
▁regionams	-9.85697
▁pamiršti	-9.85709
▁žud	-9.85723
(	-9.85735
▁patį	-9.85775
▁pavyzdį	-9.85804
▁Tokia	-9.85817
▁palengvin	-9.8586
▁ankstesn	-9.85869
leidžia	-9.85881
▁surengti	-9.85918
▁užmojo	-9.85924
▁daugeliu	-9.85932
▁naudoja	-9.86011
▁aukų	-9.8602
▁perduoti	-9.86049
▁vaizd	-9.86072
▁Ap	-9.8608
▁tikslu	-9.86177
▁rinkai	-9.86186
parlament	-9.86312
▁projektu	-9.8635
▁eiti	-9.86375
▁gaminių	-9.86405
▁Balkanų	-9.8666
▁ėmėsi	-9.86669
▁užbaigti	-9.86683
▁įgyvendinta	-9.86694
▁oficiali	-9.86701
▁skatinama	-9.86784
▁nustatant	-9.86828
▁išnagrinėti	-9.86828
▁pradėt	-9.86898
▁stengtis	-9.86902
▁grąžin	-9.87023
▁įtraukta	-9.87123
▁laisvai	-9.87142
▁išsivysčiusi	-9.872
vių	-9.87224
▁gerbti	-9.87291
funkci	-9.87416
▁pokyčius	-9.87416
▁finansavimas	-9.87437
▁BVP	-9.87525
▁sveikinu	-9.87538
▁Šį	-9.87624
▁skatinant	-9.87757
▁paties	-9.87782
▁mažiausiai	-9.87786
rodo	-9.87836
ha	-9.87837
▁susitarti	-9.87841
ėjusi	-9.87842
▁situacija	-9.87851
▁Dabartin	-9.87907
▁efektyvumo	-9.8796
▁priežiūrą	-9.88069
▁kaimynystės	-9.88081
▁supaprastinti	-9.88111
▁kapital	-9.8827
▁balsavimas	-9.88276
ajame	-9.88279
▁pateikiam	-9.88373
▁smulki	-9.88397
▁atkurti	-9.88398
▁partnerių	-9.8841
▁naudojimas	-9.88418
▁kilo	-9.88431
▁Jūsų	-9.88481
▁bandom	-9.88519
▁lieka	-9.88547
izmas	-9.88611
▁kokie	-9.88634
▁europin	-9.88683
▁garantijų	-9.88726
▁persekioj	-9.88726
▁tarptautine	-9.88732
▁sutartyje	-9.88734
tov	-9.88792
trukd	-9.88852
▁palanki	-9.8887
dinti	-9.88871
▁mato	-9.88903
▁dokumentą	-9.88946
▁rinkas	-9.8895
▁med	-9.89042
▁pakenk	-9.89061
▁užtikrintas	-9.89145
▁bendradarbiauja	-9.89156
▁kliūčių	-9.89166
▁prevencijos	-9.89166
▁tarnyba	-9.89166
▁Rūmų	-9.89166
▁elgtis	-9.89185
▁Šia	-9.89202
▁pateikiama	-9.89205
▁nereikia	-9.89231
▁vietą	-9.89279
▁Savo	-9.8931
▁fa	-9.89315
▁pirmininkavimo	-9.89348
▁verta	-9.89357
▁eksporto	-9.89387
▁glaudžiai	-9.89387
▁veiksminga	-9.89391
▁pasirinkti	-9.89401
▁nustatytas	-9.89523
toje	-9.89546
skund	-9.89584
▁sienos	-9.89616
▁nuosavybės	-9.89726
▁naudą	-9.89733
▁naujosios	-9.89876
▁ūkininkų	-9.89883
iečių	-9.89926
inė	-9.89927
▁siekiame	-9.89939
▁atsakymą	-9.90002
elio	-9.90008
▁gina	-9.90094
ybė	-9.90119
▁priimant	-9.90123
riaus	-9.90124
▁leidžiama	-9.90156
▁2004	-9.90178
▁laikosi	-9.90179
▁iniciatyvų	-9.90278
▁60	-9.90312
▁atsakingas	-9.90317
sias	-9.90318
ausių	-9.90344
▁ALDE	-9.90387
▁investicijas	-9.90387
▁pagrįsta	-9.90457
direktor	-9.90499
cijoje	-9.90514
▁kiš	-9.90554
▁aljanso	-9.90624
mojo	-9.90682
▁didesnės	-9.90698
vimas	-9.90707
▁interesai	-9.90726
▁plenarin	-9.90746
cio	-9.90757
▁aptaria	-9.90757
▁įmon	-9.90881
▁informacin	-9.90947
▁prasm	-9.91052
liū	-9.91057
▁nesilaik	-9.91063
▁daugumos	-9.91074
▁politiniai	-9.91131
▁Vyriausyb	-9.91318
▁St	-9.91346
▁planu	-9.91362
▁vietin	-9.914
▁nedarbo	-9.91403
▁efektą	-9.91459
▁Br	-9.91479
▁prieštara	-9.91492
▁21	-9.915
▁liepos	-9.9151
▁patvirtintas	-9.91604
▁nauda	-9.91617
kla	-9.91619
▁prezidentas	-9.91625
▁dabartinę	-9.91676
▁valstybę	-9.9169
▁minėjau	-9.9175
▁kiekio	-9.91757
▁svarsto	-9.91803
ketin	-9.91805
▁teikiam	-9.91805
▁modern	-9.91847
▁tikriausiai	-9.9185
▁buvę	-9.9185
▁balsavome	-9.91922
▁patekti	-9.91973
▁Portugalijos	-9.92076
▁prioritetin	-9.92076
▁Ačiū	-9.92076
▁jauni	-9.92083
▁krizė	-9.92199
kol	-9.92208
▁priemone	-9.92231
▁tekstą	-9.92262
alai	-9.92267
▁Pro	-9.92287
▁pašalin	-9.92289
▁Baltarusijos	-9.92304
▁žalos	-9.92307
▁atitikti	-9.92342
▁strategijoje	-9.92418
th	-9.92438
▁metams	-9.92449
▁susiduriame	-9.92527
▁disk	-9.92538
▁poli	-9.9267
▁pateiks	-9.9268
▁daugybę	-9.92716
▁regioninės	-9.92722
▁buvau	-9.9276
▁susidūr	-9.92771
▁įtvirtin	-9.92871
lenk	-9.92907
▁aiškus	-9.92962
▁rinkimus	-9.92973
▁imtasi	-9.92992
del	-9.93063
žo	-9.93115
▁valdžia	-9.93126
inėmis	-9.93149
▁ginklų	-9.93219
▁pagrindo	-9.93222
Darbo	-9.93249
▁Toks	-9.93266
▁sugebėj	-9.93285
▁Žmogaus	-9.93333
▁socialinį	-9.93356
nę	-9.93363
vimą	-9.93408
▁vertės	-9.93488
kant	-9.93553
▁balandžio	-9.93564
▁akivaizd	-9.93567
▁savaime	-9.93612
nusikalt	-9.93674
▁asmeniškai	-9.93794
▁pridėtin	-9.938
▁rinkimai	-9.9383
▁užtikrinama	-9.9384
▁priežiūra	-9.9391
▁rengti	-9.93927
tojas	-9.93929
kių	-9.93929
esnį	-9.9398
▁priklaus	-9.9399
▁būtinybę	-9.94004
▁geografin	-9.94026
▁koordinavimo	-9.94026
▁vertinimą	-9.94055
jome	-9.94106
▁sakyti	-9.94118
▁veikimo	-9.94142
▁glaud	-9.94143
▁dieg	-9.94143
▁pasakyta	-9.94146
▁laisvosio	-9.9416
▁Ra	-9.94171
▁kompromisą	-9.94258
iv	-9.94284
▁arti	-9.94364
▁įvykdyti	-9.94572
▁šak	-9.94614
▁sukurt	-9.94652
▁praktiškai	-9.94686
▁vienodo	-9.94687
▁išskirtin	-9.94735
▁sąrašą	-9.9484
▁irgi	-9.94937
▁kriterijai	-9.94957
▁straipsnį	-9.94957
▁suprantu	-9.94957
▁atvirai	-9.94969
inami	-9.95055
▁lygmens	-9.95074
▁Turė	-9.95119
▁kiekvienos	-9.9514
mųjų	-9.95151
▁pirmasis	-9.95154
lav	-9.9525
▁naudojami	-9.95272
▁pokyčiai	-9.95308
▁įgaliojimus	-9.95308
▁kalbų	-9.95325
▁neturė	-9.95346
▁galite	-9.95352
▁paslaugos	-9.95425
▁Švedijos	-9.95425
▁persvarstyti	-9.95497
▁žmogišk	-9.95543
▁visuomet	-9.9558
▁Karalystės	-9.95589
tyje	-9.95589
▁gin	-9.95619
▁teritorijos	-9.9566
▁balsų	-9.95661
▁svarbesn	-9.95661
▁įvykiai	-9.95896
▁vaikams	-9.95928
▁kokiu	-9.95948
▁komitetui	-9.95967
ąja	-9.95972
▁ketiname	-9.95975
▁pasaulinės	-9.96034
iantis	-9.96095
▁Kopenhagos	-9.96132
▁nustatytos	-9.96136
▁praras	-9.96138
▁pasiūlyta	-9.96217
▁aukštos	-9.96265
iškumo	-9.9633
▁patirtimi	-9.9637
▁atsižvelgdama	-9.96374
▁milžinišk	-9.96488
▁įmones	-9.96513
▁steig	-9.9654
vart	-9.96557
pir	-9.96572
▁prioritetus	-9.96593
▁partneryst	-9.96655
▁palengvinti	-9.96663
tam	-9.96702
▁JK	-9.96703
▁skaičiaus	-9.96725
▁Žemės	-9.96726
▁nelaimių	-9.96744
lieka	-9.96754
▁atsakingi	-9.96807
▁didėjanči	-9.96827
▁pateiktą	-9.9687
FI	-9.96897
▁pradėta	-9.96903
▁aiškin	-9.96914
▁valiutos	-9.96964
▁Jame	-9.96972
▁baigta	-9.96989
▁Pagaliau	-9.9705
▁užbaig	-9.97058
▁Vidurio	-9.97083
▁sistemoje	-9.97084
▁gamintojų	-9.97109
▁konsul	-9.97134
LT	-9.97155
▁suma	-9.97254
PS	-9.9731
▁Ukraina	-9.97322
▁kompetencijos	-9.97322
▁tęsia	-9.97364
▁kasmet	-9.97368
▁kalbu	-9.97398
▁reitingų	-9.97442
▁įstatymo	-9.97443
▁socialistų	-9.97444
lį	-9.97487
▁aukščiausio	-9.97543
▁tikisi	-9.97552
▁500	-9.97561
▁išvados	-9.97596
▁paprastai	-9.97642
▁didžiausias	-9.97657
dėjus	-9.97663
▁riboja	-9.97682
▁plane	-9.97692
inėms	-9.97716
▁gyvūn	-9.97716
▁programoje	-9.97802
▁vidutinės	-9.97893
▁poreikis	-9.97922
▁įvairovės	-9.98048
▁išvadas	-9.98064
▁naujovių	-9.98069
▁saugumui	-9.98069
▁kovai	-9.98094
▁vienod	-9.98133
▁Prezident	-9.98164
▁pardav	-9.98216
▁Tr	-9.98234
▁iniciatyvas	-9.98235
▁vietovėse	-9.98242
▁pavyzdžiu	-9.98296
▁vaikus	-9.98372
▁sieja	-9.98427
▁pagrindinius	-9.98482
▁ieškoti	-9.98539
▁prireik	-9.98608
▁ataskaitoje	-9.98647
nčiu	-9.98663
▁vadovai	-9.98701
▁įvykdyt	-9.98744
nčiais	-9.98775
▁geros	-9.98789
▁bendrąj	-9.98794
▁anti	-9.98815
nčiomis	-9.98857
▁diskriminacijos	-9.9889
▁skatinimo	-9.98951
▁patrauk	-9.98981
▁reikšmę	-9.99015
▁teisinę	-9.99098
▁Kosovo	-9.99134
▁dideliu	-9.99134
audo	-9.99185
▁sakiau	-9.99251
▁nužud	-9.99256
▁ministras	-9.99261
▁numatoma	-9.99279
▁augimas	-9.99384
▁sunkiai	-9.99385
▁ribos	-9.99422
▁kūrimą	-9.99522
▁narystės	-9.99569
▁diskusijoje	-9.99623
▁gamybą	-9.99623
▁paslaugomis	-9.99623
▁subsidiarumo	-9.99623
▁tikslams	-9.99623
▁žingsnį	-9.99623
▁konkurencingumo	-9.99623
▁Turėtum	-9.99636
▁pasaulinio	-9.99735
▁aspektą	-9.99745
▁sporto	-9.99868
▁naudojamos	-9.99886
▁priešingai	-9.99896
▁laikyti	-9.99982
▁kontroliuoja	-10.0001
▁vertę	-10.0012
▁paskelbti	-10.0012
▁naujausi	-10.0012
▁80	-10.0013
▁mintis	-10.002
bank	-10.0023
▁fondą	-10.0024
▁neteisinga	-10.003
dešimt	-10.0036
▁pavyks	-10.0036
▁Ties	-10.0036
ysiu	-10.0037
▁didin	-10.0038
▁parlamento	-10.0039
▁Ispanija	-10.0048
▁dioksido	-10.0048
▁tarptautinę	-10.0048
nčiam	-10.0051
▁Tarptautini	-10.0052
▁nustatytų	-10.0054
▁sėkminga	-10.0056
▁Tarp	-10.006
▁iškelt	-10.0063
▁vairuo	-10.0076
▁Bo	-10.0081
▁esate	-10.0098
▁paskirst	-10.01
▁trečiosiom	-10.0106
▁daugiašal	-10.0111
▁atsako	-10.0112
▁aukšto	-10.0116
avau	-10.0117
▁kortel	-10.0123
piet	-10.0135
▁vystymąsi	-10.0148
▁pradeda	-10.015
▁padėk	-10.0154
▁daugeliui	-10.0158
▁parengtas	-10.016
milijard	-10.016
▁zona	-10.0163
krit	-10.0171
▁duoti	-10.0174
▁svarbius	-10.0181
▁viešojo	-10.0182
vok	-10.0182
▁minimali	-10.0185
▁meto	-10.0187
▁Briuselyje	-10.0198
▁europiečių	-10.0198
▁jumis	-10.0198
ade	-10.0205
▁įgyvendinama	-10.0208
▁neišveng	-10.021
▁Sutinku	-10.021
▁žuvų	-10.021
▁žalą	-10.0211
pti	-10.022
▁atskirti	-10.0221
▁efektyvumą	-10.0223
▁ekologin	-10.0224
▁nelaimės	-10.0226
bin	-10.023
▁tarpvalstybin	-10.0231
▁problemomis	-10.0235
▁vasario	-10.0235
▁prisidėjo	-10.0237
▁gamintojams	-10.0237
▁išsamiai	-10.0246
▁išankstin	-10.0248
▁neatitinka	-10.0248
▁perkelti	-10.0249
▁rimtų	-10.0261
▁nuveikti	-10.0261
▁ženklas	-10.0261
▁raš	-10.0269
▁privaloma	-10.027
žius	-10.0271
▁reikalingos	-10.0273
▁atvejis	-10.0286
▁seksualin	-10.0286
▁teikimo	-10.0291
▁narei	-10.0295
▁išsak	-10.0298
pakeit	-10.0302
▁Už	-10.0304
▁padėčiai	-10.0311
▁grįžti	-10.0312
▁norėjo	-10.0318
▁daugia	-10.0319
▁didina	-10.0321
▁pažangi	-10.0323
▁įstatymus	-10.0324
▁pradžios	-10.0324
▁23	-10.0327
▁potencial	-10.0327
▁miestų	-10.0337
aisiais	-10.0339
▁energija	-10.0342
bendr	-10.0346
▁įreng	-10.035
▁mini	-10.0352
▁skirtumus	-10.0354
▁vieta	-10.0354
▁nepamiršti	-10.0355
▁įvairiose	-10.0357
▁vos	-10.0358
▁atgal	-10.0359
▁skait	-10.0359
▁konkurenciją	-10.0362
▁biudžetu	-10.0368
▁aktyvi	-10.0379
▁abiejų	-10.0388
▁blok	-10.0388
▁peržiūrėti	-10.0389
▁regionai	-10.0389
▁baim	-10.039
▁nuspręsti	-10.0397
moms	-10.04
▁pažeidimus	-10.0404
▁objektyv	-10.0413
▁kreiptis	-10.0416
krikščionių	-10.0418
▁varg	-10.0419
▁atnaujinti	-10.0426
▁svarstymą	-10.0431
▁ieško	-10.0434
▁įsikiš	-10.0439
▁pagarbą	-10.0439
▁pirmyn	-10.0441
▁atėjo	-10.0457
redit	-10.0457
▁girdė	-10.0457
▁naudojamas	-10.0458
▁sužinoti	-10.0458
▁žodžius	-10.0459
▁kv	-10.046
▁tradicin	-10.0465
▁dalyvavo	-10.0465
ard	-10.0465
▁skaitmenin	-10.0465
▁konflikto	-10.0465
▁sav	-10.0475
▁linkme	-10.0475
moje	-10.0476
▁teikiant	-10.0476
▁tekstilės	-10.0477
▁dalyvavimą	-10.0477
ėjome	-10.048
▁tvirtą	-10.0481
mir	-10.0482
▁katastrof	-10.049
▁sustabd	-10.0497
▁dėti	-10.0501
iniais	-10.0504
▁laikantis	-10.0506
▁likti	-10.0508
▁ūkinink	-10.0508
▁tyrimą	-10.0511
▁Kol	-10.0511
▁planus	-10.0519
▁paketas	-10.0529
▁bendradarbiau	-10.053
▁meta	-10.0534
keltų	-10.0535
tyti	-10.0535
▁taup	-10.0535
▁tiksliai	-10.0537
▁svarstoma	-10.0541
cijomis	-10.0545
▁sutarčiai	-10.0555
tenka	-10.0558
▁priimam	-10.0558
▁prisijungti	-10.0558
▁konkrečius	-10.0559
▁prašymą	-10.0561
vyriausyb	-10.0562
▁kovoja	-10.0562
▁dydžio	-10.0568
▁atsiras	-10.0574
▁humanitarinės	-10.058
▁sutikti	-10.0583
▁svarba	-10.0584
▁pranešimų	-10.0585
▁atitinkamai	-10.0594
▁Rumunija	-10.0594
▁naštą	-10.0594
ininkų	-10.0596
▁kli	-10.0603
▁gale	-10.0605
▁Baigdamas	-10.0605
▁tekstas	-10.0607
▁padariniai	-10.0614
izmu	-10.0619
▁gamtos	-10.062
liberal	-10.0621
▁rod	-10.0631
▁fondai	-10.0633
▁teisinio	-10.0636
▁Tarptautinės	-10.0641
▁ūkininkai	-10.0644
▁pasmerk	-10.0646
▁primygtinai	-10.0646
▁patvirtinta	-10.0647
▁politinius	-10.0647
▁mokėti	-10.0657
▁Nu	-10.066
▁krovinių	-10.066
▁miesto	-10.066
▁stojimo	-10.066
▁teisinį	-10.0661
▁praktika	-10.0662
▁įsitikinusi	-10.0665
▁žurnalist	-10.0673
▁pagarba	-10.0673
▁terorist	-10.068
▁užmokesčio	-10.0686
▁Kr	-10.0688
ėdami	-10.0692
kan	-10.0697
▁kompromisas	-10.0699
▁Raštišk	-10.0699
▁Rūmai	-10.0699
▁tvarką	-10.0701
▁planuoja	-10.0709
▁užduoti	-10.071
▁įvykius	-10.0712
▁komand	-10.0713
▁principai	-10.0721
▁gerų	-10.0722
▁pasitikėjimo	-10.0725
▁užtikrins	-10.0732
▁išorin	-10.0734
▁Palestinos	-10.0739
▁pastaraisiais	-10.0739
▁tautų	-10.074
▁žaisl	-10.074
▁esančių	-10.0745
▁kitoje	-10.0748
raf	-10.0754
▁išreišk	-10.0759
▁asociacijos	-10.0765
▁pacientų	-10.0765
▁teismų	-10.0765
teisė	-10.0766
▁pagrindinį	-10.0767
▁tinklo	-10.0768
▁abi	-10.0776
▁proporcing	-10.0779
▁Afrikoje	-10.0779
▁išplėsti	-10.0779
▁aplink	-10.078
▁kelion	-10.0783
ah	-10.0787
keičia	-10.0787
toja	-10.0791
▁pradžia	-10.0792
▁bausmės	-10.0794
duoti	-10.0795
eina	-10.0801
▁demografin	-10.0805
ybe	-10.0811
▁socialinius	-10.0813
sąlyg	-10.0817
▁mokyklos	-10.0818
▁ekonominį	-10.0821
▁didžiausių	-10.0823
▁palikti	-10.0832
▁dialogas	-10.0832
▁mechanizmą	-10.0832
▁pakeitimu	-10.0845
tynų	-10.0846
▁mokėjimų	-10.0846
▁teigiamas	-10.085
▁rekomendacijas	-10.0852
▁atitiktų	-10.0856
▁plačiai	-10.086
▁raginame	-10.0865
vald	-10.0867
▁Aplinkos	-10.0872
▁dokumentas	-10.0872
▁sekretor	-10.0872
lap	-10.0873
▁skirtingos	-10.0873
▁panaudot	-10.0875
▁pagarbos	-10.0885
▁naujai	-10.0889
▁sutart	-10.0891
▁pakeis	-10.0898
▁kriterijų	-10.0899
▁sektoriuose	-10.0899
▁pertvark	-10.09
▁principais	-10.0904
▁baud	-10.0911
▁tinklų	-10.0912
▁ateina	-10.0918
▁PVM	-10.0926
▁darbuotojus	-10.0926
▁žengti	-10.0931
▁sudaryta	-10.0934
▁elg	-10.0938
▁Bulgarijos	-10.0939
▁teigiamą	-10.094
uosi	-10.0941
▁gamintojai	-10.0942
▁išlieka	-10.0947
▁diskutuojame	-10.0954
▁kelti	-10.0955
ajam	-10.0958
▁laikais	-10.096
▁vertinama	-10.0966
▁nedidel	-10.0966
riai	-10.0969
▁ankstesni	-10.0972
vės	-10.0976
▁suderinta	-10.0993
▁bendrijos	-10.0999
▁Nor	-10.0999
▁grėsmė	-10.1
▁šalt	-10.1
▁nuosekli	-10.1005
▁direktyvoje	-10.1007
▁pažeidžia	-10.1008
taisykl	-10.1008
▁struktūra	-10.1011
▁vieni	-10.1011
▁valdymas	-10.1014
▁nepasiek	-10.1018
▁tūkst	-10.102
▁importo	-10.1021
▁ilgą	-10.1026
▁nepritar	-10.1045
ficial	-10.1046
▁religijos	-10.1048
▁verslinink	-10.1048
▁savaites	-10.1048
▁dirbo	-10.1056
▁sveiki	-10.1069
▁atkūrimo	-10.1075
▁klaidų	-10.1075
▁Koki	-10.108
šiems	-10.1084
▁taryba	-10.1089
esnio	-10.1092
▁elektronin	-10.1096
ikos	-10.1098
muose	-10.1098
stat	-10.11
avus	-10.1104
▁strategini	-10.1107
▁įtrauktos	-10.1113
▁bendrov	-10.1113
iausiai	-10.1115
▁žodžių	-10.1116
▁gaires	-10.1116
▁užuot	-10.1117
▁rinkose	-10.1122
▁Gruzijos	-10.113
▁investicijos	-10.113
▁Žinau	-10.113
mokestin	-10.1132
▁priimto	-10.1132
▁įsitrauk	-10.1144
▁Kroatijos	-10.1144
▁Stabilum	-10.1144
▁tūkstančių	-10.1145
▁technologijos	-10.1146
▁nepra	-10.1152
▁nusivyl	-10.1158
▁kainas	-10.1159
▁pelno	-10.1159
▁atliktą	-10.1163
▁numatytas	-10.1163
▁Britanijos	-10.1172
▁pajamas	-10.1172
cijoms	-10.1175
▁jung	-10.1185
▁riziką	-10.1185
▁gero	-10.1189
▁paskirti	-10.1192
▁veiklai	-10.1195
ld	-10.1199
ird	-10.1199
▁atsidūr	-10.1212
▁pasiekėme	-10.1215
▁naudojama	-10.122
vid	-10.1224
▁projektai	-10.1227
dalyv	-10.123
klaida	-10.1231
▁veiksmingas	-10.1232
▁imigrantų	-10.1241
▁prioritetai	-10.1241
▁pilietinės	-10.1245
įvair	-10.1245
▁atgaivin	-10.1255
▁pašar	-10.1255
▁ligų	-10.1256
ulia	-10.1266
▁save	-10.1269
▁lankstumo	-10.1269
▁įvyks	-10.1269
usią	-10.127
▁besivystanči	-10.1271
miems	-10.1273
deg	-10.1274
▁atitinkamų	-10.1279
konflikt	-10.1279
▁Airija	-10.1283
▁kuro	-10.1286
▁tikrus	-10.1297
▁nereiškia	-10.1297
▁projektams	-10.1297
amp	-10.1305
ET	-10.1309
▁išaiškin	-10.1309
▁išskyrus	-10.1311
▁specifin	-10.1312
▁artimiausi	-10.1322
▁pereiti	-10.1324
▁atsiranda	-10.1328
▁pareiškimą	-10.1329
▁neigiamą	-10.1331
har	-10.1335
▁reikalavimas	-10.1339
▁donor	-10.134
▁procesu	-10.1341
▁skelb	-10.135
▁geriausias	-10.1357
▁partijų	-10.1367
▁privalu	-10.1382
▁dvidešimt	-10.1383
▁protinga	-10.1384
▁kreip	-10.1386
bor	-10.1388
▁24	-10.139
▁sunkumus	-10.1392
▁tobulinti	-10.14
▁Vengrija	-10.1409
▁struktūros	-10.1423
▁judėti	-10.1429
▁vidutinėms	-10.1429
intų	-10.1433
▁kritišk	-10.1434
▁mokesčio	-10.1438
▁padėjo	-10.1438
ryšk	-10.1438
▁Teismo	-10.1438
esnę	-10.144
▁dirbančių	-10.1447
▁aiškią	-10.1448
▁reikalingi	-10.1452
▁nusikaltimų	-10.1452
tinti	-10.1452
▁mažosioms	-10.1454
▁specialist	-10.1456
▁tebėra	-10.1466
▁trumpalaik	-10.1466
▁veiksnys	-10.1466
▁norėjau	-10.1466
▁patenkintas	-10.1466
▁kan	-10.1469
▁socialines	-10.1471
▁pranešimus	-10.1474
▁global	-10.1479
▁rizika	-10.148
▁apgailestauju	-10.1495
▁įdarbin	-10.1499
▁suteiktų	-10.1502
▁nuostata	-10.1502
▁skirtumų	-10.1503
▁sistemin	-10.1508
▁asmuo	-10.1509
▁Komisare	-10.1509
esnių	-10.1514
▁nuosav	-10.1519
▁trukmės	-10.1521
▁Pavyzdžiui	-10.1523
▁dalyvavimas	-10.1523
▁vykti	-10.1523
▁palaikymo	-10.1531
vykus	-10.1533
▁civilinės	-10.1537
▁straipsnyje	-10.1537
▁perkėlimo	-10.1538
▁darbotvark	-10.1539
▁Tarptautin	-10.154
▁Laik	-10.1541
▁indėlį	-10.1552
▁supras	-10.1554
▁žodžiu	-10.1558
▁atmesti	-10.1562
milijon	-10.1564
▁elgesio	-10.1566
▁dvigub	-10.1567
ojoje	-10.1569
▁dalyvavimo	-10.1581
▁priimtų	-10.1581
▁uostų	-10.1581
▁praktini	-10.1583
▁Ger	-10.1583
▁iškėl	-10.159
▁darome	-10.1591
▁tikslui	-10.1592
▁prisiminti	-10.1596
▁galios	-10.1605
▁išgirsti	-10.1606
▁priskir	-10.1608
▁teksto	-10.1608
▁jūroje	-10.1609
▁ryžtingai	-10.1609
▁veng	-10.1612
▁užtikrinimo	-10.1613
niai	-10.1613
▁vienodas	-10.1616
▁organų	-10.1621
▁kenkia	-10.1621
▁internetu	-10.1624
▁išplėt	-10.1625
▁paskir	-10.1625
▁Kalb	-10.1632
▁įgaliojimų	-10.1638
▁teisiškai	-10.164
▁Remiant	-10.1641
▁išreikšt	-10.1643
▁teismin	-10.1646
ėmės	-10.166
▁vienodai	-10.1664
▁fiskalin	-10.1667
▁interesams	-10.1667
▁teisinių	-10.1668
▁vadovų	-10.167
▁gavo	-10.1679
▁nepritaria	-10.1687
▁sąskaita	-10.1711
▁neatsi	-10.1713
▁efektyvi	-10.1716
kov	-10.1721
▁mokėtojų	-10.1726
▁susijusią	-10.1738
▁iššūkiai	-10.174
▁įgyvendina	-10.1751
▁įgaliojimai	-10.1755
▁Švedija	-10.1755
minėt	-10.176
▁vyriausi	-10.1767
▁konstruktyvi	-10.177
▁trūkumų	-10.177
▁nutar	-10.1773
▁reforma	-10.1774
▁149	-10.1775
▁pritaikyti	-10.1781
▁Tiesa	-10.1781
2010	-10.1782
▁Italijoje	-10.1784
▁situaciją	-10.1784
▁tiesą	-10.1791
▁abiem	-10.1798
virš	-10.1806
lyje	-10.1808
▁lygiai	-10.1811
▁mokesčius	-10.1814
▁pavojinga	-10.1814
▁sveikatą	-10.1816
▁rimta	-10.1822
▁ateičiai	-10.1828
▁Manome	-10.1837
▁Sch	-10.184
▁grindžiama	-10.1842
▁neigia	-10.1848
▁Du	-10.1849
▁ekonominius	-10.1871
▁visuomenėje	-10.1872
auga	-10.1878
▁Bū	-10.1879
▁privers	-10.1882
▁tyrimo	-10.1884
▁vidutinių	-10.1884
būtų	-10.1886
▁vystyti	-10.1888
▁atšauk	-10.1888
▁sparčiai	-10.1888
▁išmetamų	-10.19
▁Esame	-10.1903
▁teko	-10.1906
▁bendrovėms	-10.1906
▁svarbiu	-10.1911
▁liga	-10.1914
▁susisiekimo	-10.1917
▁veiksmingumą	-10.1917
▁žinią	-10.1917
▁pagamint	-10.1917
▁sudėtingo	-10.1918
▁fizin	-10.1918
▁kankin	-10.1921
traukti	-10.1922
▁taikymą	-10.1927
torių	-10.1929
▁internete	-10.1932
▁PSE	-10.1932
▁konfliktų	-10.1933
▁alternatyvi	-10.1947
▁nurodoma	-10.195
▁ligos	-10.1951
▁puikus	-10.1952
▁vysty	-10.1956
▁vykstanči	-10.196
▁nesugebėj	-10.1962
▁tap	-10.1962
izmą	-10.1976
▁žodį	-10.1977
▁faktas	-10.1977
▁pavaduotojas	-10.1988
▁sumažėjo	-10.1992
▁vyn	-10.1996
▁vykdymo	-10.1997
▁besivystančioms	-10.1997
▁dalin	-10.2007
erio	-10.201
▁valdyti	-10.201
▁koordinuoti	-10.2016
▁kelio	-10.2018
priimti	-10.2022
▁sandorių	-10.2022
▁leidimų	-10.2037
▁statybos	-10.2039
▁elektr	-10.2046
tinio	-10.2047
▁spręs	-10.2048
universitet	-10.2052
▁AKR	-10.2052
▁demokratinės	-10.2054
▁infrastruktūrą	-10.2062
▁centrini	-10.2069
▁skirto	-10.2069
▁sritys	-10.2073
padėtis	-10.2084
▁subsidi	-10.2095
▁sankcijų	-10.2098
▁nuomonei	-10.2101
▁pavojaus	-10.2113
▁nepavyko	-10.2113
▁nemanau	-10.2113
▁tvaraus	-10.2113
žių	-10.2114
▁reguliuoja	-10.2115
▁tinkamo	-10.2118
▁jautr	-10.2128
▁Serbijos	-10.2128
▁dalyką	-10.2128
▁iššūkis	-10.2128
▁korupcija	-10.2128
▁savaičių	-10.2128
▁diplomatin	-10.2129
▁pranešti	-10.2133
pli	-10.2135
2008	-10.2146
▁Kal	-10.2146
▁mąst	-10.2147
mosios	-10.215
▁moksliniai	-10.2151
▁krizei	-10.2154
▁įvykusi	-10.2158
▁nestabil	-10.2159
▁pagrįsto	-10.2159
▁pasekmes	-10.2159
▁rūšies	-10.2159
▁įsteigti	-10.217
▁būtini	-10.2172
▁arešt	-10.2174
problema	-10.2176
▁besivystančių	-10.2177
▁aiškų	-10.2178
▁būtinos	-10.2182
▁ekspertų	-10.2183
▁konferencijos	-10.2189
▁suteikiant	-10.2193
▁būdą	-10.2195
▁suvok	-10.2196
▁migrantų	-10.2204
▁komunist	-10.2204
▁pirmenybę	-10.2214
administracin	-10.2219
▁patirtį	-10.2219
▁modelį	-10.222
▁etape	-10.222
▁tyrimams	-10.2221
▁Susi	-10.2223
▁dalių	-10.2224
▁faktiškai	-10.2235
▁gresia	-10.2236
▁dvejus	-10.224
▁vyriausybę	-10.2242
▁Portugalija	-10.2266
▁stiprina	-10.2266
▁tose	-10.2279
▁teigiamų	-10.2279
lika	-10.228
▁0	-10.2287
ėlio	-10.229
▁sąjunga	-10.2297
▁reformą	-10.2297
▁str	-10.2301
▁nuspręs	-10.2301
▁vykdyt	-10.2311
▁iškelti	-10.2312
▁ilgiau	-10.2312
▁terorizmo	-10.2312
▁numatytos	-10.2312
▁Atsak	-10.2318
stūm	-10.2322
▁erdvę	-10.2325
▁mumis	-10.2329
▁pataisy	-10.2341
▁neatidėliotin	-10.2343
▁Aišku	-10.2346
▁Or	-10.2356
▁pasekmių	-10.2359
▁Vida	-10.2361
▁pradedant	-10.2361
▁darbų	-10.2363
lov	-10.2372
▁tokiomis	-10.2372
▁vykdomos	-10.2372
▁neišspręs	-10.2373
tųsi	-10.2378
▁visam	-10.238
avę	-10.2384
▁atspindi	-10.239
▁Būtų	-10.239
▁ministrų	-10.2391
▁stebėjimo	-10.2394
▁galo	-10.2396
▁diskutuoti	-10.2401
▁Palankia	-10.2406
▁Van	-10.2412
▁2000	-10.2414
tinis	-10.2417
▁skirtumai	-10.2423
rašyti	-10.2423
▁transportu	-10.2427
▁trečiosios	-10.2439
▁panaikinimo	-10.2443
▁biologin	-10.245
▁Kroatija	-10.2453
▁Kiekviena	-10.2453
▁atskirai	-10.2454
▁Priešingai	-10.2455
▁parengta	-10.2457
▁pavaduotoja	-10.2457
▁prašymu	-10.2459
izavimo	-10.2463
▁nacional	-10.2466
▁sutiko	-10.2468
▁mažina	-10.2468
▁remdamasi	-10.2468
▁Kinijoje	-10.2484
▁Raginu	-10.2484
▁uždrausti	-10.2484
ieno	-10.2492
▁aktas	-10.2494
▁išimtin	-10.2495
▁pradės	-10.2496
▁pastabų	-10.25
▁Daugelis	-10.25
▁turto	-10.2505
▁susitarime	-10.2505
▁pamin	-10.2511
▁įsipareigojimai	-10.2516
▁galėčiau	-10.2516
▁išeiti	-10.2532
izacijos	-10.2532
▁ekstr	-10.2532
▁bankas	-10.2532
▁tinkamos	-10.2532
▁atvira	-10.2533
2009	-10.254
▁vertiname	-10.2546
▁generalini	-10.2547
▁pusiausvyros	-10.2547
▁spaudos	-10.2548
▁Rom	-10.2559
▁kontekste	-10.2563
plauk	-10.2565
▁socialiniai	-10.2571
▁Juo	-10.2572
▁užduot	-10.2574
▁padėtimi	-10.2582
▁por	-10.2583
▁audito	-10.2585
▁vykstant	-10.259
▁turite	-10.259
▁tokiais	-10.2591
▁perspektyvos	-10.2592
▁anksto	-10.2595
▁pridurti	-10.2595
▁sudarytos	-10.2595
▁būtume	-10.2596
▁jungtin	-10.2596
▁grindžiamas	-10.2598
▁pavyzdžių	-10.2611
▁sąmoning	-10.2611
▁kvotų	-10.2611
▁šiuolaikin	-10.2615
▁patirt	-10.2621
▁įveik	-10.2625
▁Svarbiausia	-10.2627
▁pajėgų	-10.2628
end	-10.2629
buvo	-10.263
švaist	-10.2641
▁laikoma	-10.2642
▁imigracija	-10.2643
▁rekomendacijos	-10.2643
▁darbe	-10.2644
▁autor	-10.2644
▁taupymo	-10.2647
▁pirmojo	-10.2647
▁Visos	-10.2657
▁integraciją	-10.2661
▁partneriais	-10.2661
▁įgyvendinimu	-10.2662
▁finansinio	-10.267
▁Kopenhagoje	-10.2675
▁prognoz	-10.2675
▁metodą	-10.2676
▁patikima	-10.2678
▁kultūra	-10.2683
▁politiniu	-10.2683
▁sie	-10.2687
▁aukštesn	-10.2688
▁ruoš	-10.2691
▁Azijos	-10.2691
▁įtvirtinti	-10.2696
▁pranešimai	-10.2699
▁nepalanki	-10.2707
▁puoselė	-10.2707
▁sujung	-10.2714
▁įtikin	-10.2714
▁išnaudoti	-10.2718
▁naudojasi	-10.2722
▁Arkties	-10.2723
▁kelios	-10.2732
▁mažųjų	-10.2733
▁Juodosios	-10.274
▁ginkluot	-10.274
▁pripažįstama	-10.2742
▁Prie	-10.2751
▁administravimo	-10.2756
▁europiečiai	-10.2756
▁konferencija	-10.2756
škai	-10.276
▁nacionalinę	-10.2762
▁palygin	-10.2764
▁oficialiai	-10.277
▁sankcijas	-10.2772
▁pakalbėti	-10.2772
▁sienas	-10.2774
▁Kiek	-10.2779
▁įtikinti	-10.2782
▁nelygyb	-10.2795
osiomis	-10.2802
▁aktą	-10.2808
▁reikalus	-10.2812
▁patenka	-10.2812
▁diskutuo	-10.2815
▁krizių	-10.2821
▁jomis	-10.2823
▁renka	-10.2824
▁einantis	-10.2825
tre	-10.2826
▁nesąžining	-10.2826
▁saugoti	-10.2829
▁galimybėmis	-10.2842
▁nustatytu	-10.2852
▁ryšio	-10.2853
▁leido	-10.2867
▁priklausanči	-10.2869
▁kiekvienam	-10.2869
Pirmininkas	-10.287
▁atsakingos	-10.2873
usiems	-10.2874
▁bendrus	-10.2876
▁išties	-10.2885
▁perdavimo	-10.2886
▁grandin	-10.2888
▁Praneš	-10.289
▁Teisės	-10.2901
▁Užsieni	-10.2903
▁paminėjo	-10.2918
dikta	-10.2919
▁praktikos	-10.2919
▁uždavinys	-10.2919
▁pramonę	-10.2921
▁vykdomas	-10.2922
▁diena	-10.2924
▁gars	-10.2928
▁skurdą	-10.2935
▁tarpusavyje	-10.2935
▁EIB	-10.2935
▁susijusį	-10.2935
žiūrėti	-10.2939
▁tad	-10.2941
▁įvairias	-10.2942
rov	-10.2946
▁neatsižvelg	-10.295
▁pasekmė	-10.2952
▁saugą	-10.2952
▁teisinis	-10.2952
krikščion	-10.2952
▁22	-10.2954
▁bendrojo	-10.2961
ėjimui	-10.2964
▁opozicijos	-10.2969
▁vadovaujantis	-10.2973
ell	-10.2974
▁gyvenančių	-10.2978
▁struktūrą	-10.2985
▁smurtą	-10.2985
▁seniai	-10.2985
▁pasipriešin	-10.2986
▁šaltinis	-10.2987
▁nacionalines	-10.2987
šį	-10.2988
▁kainą	-10.2989
▁gyvenime	-10.2994
▁atsakymas	-10.2997
kriz	-10.3
▁sureng	-10.3001
▁dokumento	-10.3002
▁lėšomis	-10.3002
▁septyni	-10.3002
▁vaik	-10.3008
▁pasitelk	-10.301
paversti	-10.3014
▁reikšminga	-10.302
▁visišką	-10.3022
▁neleidžia	-10.3026
▁mažesni	-10.3029
▁taikymas	-10.3032
▁pripažinimo	-10.3033
ALE	-10.3035
▁įstatymai	-10.3035
▁pareiškimas	-10.3039
▁tarpvalstybini	-10.3042
ėjimai	-10.3043
▁atsakas	-10.3044
▁susipažinti	-10.3047
▁regionas	-10.3052
▁sakė	-10.3053
▁sumažinta	-10.3053
▁nedaug	-10.3056
▁atmes	-10.3057
▁Pasiūl	-10.3066
▁padidėjo	-10.3068
▁išsamų	-10.3068
▁kilusi	-10.3069
▁pasauliniu	-10.3069
▁70	-10.3092
▁politines	-10.3094
▁civilin	-10.3102
▁klausimams	-10.3105
▁gautų	-10.3113
▁nacionalinius	-10.3117
▁svarbią	-10.3118
▁nusikaltimus	-10.3119
▁įsipareigojimas	-10.3121
▁įdomu	-10.3122
didel	-10.3122
▁eil	-10.3123
▁neteisėta	-10.3134
▁pagrįsti	-10.3135
▁jaunų	-10.314
▁priims	-10.314
pažeis	-10.3144
▁geresnės	-10.3147
▁brang	-10.3149
▁dokumentu	-10.315
▁mechanizmas	-10.3152
praneš	-10.3152
▁religini	-10.3153
▁išsiaiškinti	-10.3161
▁integracija	-10.3164
▁spart	-10.3173
▁geriausia	-10.3173
▁šiandienos	-10.3175
ausias	-10.3177
▁sudėtingas	-10.318
▁skaidrumas	-10.3186
▁reikalas	-10.3186
▁išnagrinė	-10.3187
-20	-10.3188
▁dažn	-10.3194
cial	-10.3197
▁pateiktus	-10.3199
▁įvairovę	-10.32
▁Respublika	-10.3203
mūsų	-10.3204
▁įprasta	-10.3204
▁daugiamet	-10.3207
▁pasirinkimo	-10.321
▁primin	-10.3213
▁esminis	-10.3215
▁švietimą	-10.322
▁režimas	-10.322
▁statistini	-10.322
▁kiekis	-10.3229
▁Tada	-10.3232
▁tikslin	-10.3233
▁tvirtina	-10.3233
▁turinčių	-10.3235
▁Žinome	-10.3237
▁papildomą	-10.3237
▁apsaugai	-10.3243
▁terš	-10.3253
rezerv	-10.3254
▁savarankiškai	-10.3263
▁pasirašyt	-10.3267
▁kiekvienai	-10.3268
▁atostogų	-10.3271
▁straipsniu	-10.3271
▁dažniausiai	-10.3271
▁susirink	-10.3271
▁liberalizav	-10.3276
▁paragin	-10.3279
▁užkirs	-10.3279
▁aplinkybes	-10.3288
▁asmenis	-10.3288
▁Norint	-10.3289
▁didžiulį	-10.3289
▁paskelbta	-10.3292
▁neįgal	-10.3292
▁lėt	-10.3296
simės	-10.3297
tampa	-10.3301
▁ačiū	-10.3305
▁sakau	-10.3315
▁pirmin	-10.3315
▁geriausiai	-10.3316
▁stebėsenos	-10.3322
izaciją	-10.3322
▁Vakar	-10.3329
▁kokybišk	-10.333
čiausi	-10.3337
▁Indijos	-10.3339
▁reikėjo	-10.3345
▁patobulinti	-10.3346
inėti	-10.335
▁zonoje	-10.3356
▁Paskutin	-10.3356
▁bendroji	-10.3361
▁pasirašyti	-10.3365
▁vaiko	-10.337
▁baronien	-10.3374
▁pagirti	-10.3374
▁ateitis	-10.3374
▁negalėjo	-10.3375
▁Verts	-10.3382
▁efektyviai	-10.3388
▁kovoje	-10.3388
▁iššūkių	-10.3391
▁pasaulis	-10.3391
▁Saugumo	-10.3391
▁regionui	-10.3408
▁dažniau	-10.3412
▁Pirmasis	-10.3412
▁tyr	-10.3415
leido	-10.3416
▁atrod	-10.3417
▁26	-10.342
▁antai	-10.3423
▁nustatoma	-10.3424
▁laikotarpis	-10.3425
▁keleri	-10.3426
▁Norime	-10.3429
▁sakoma	-10.3431
▁ekspert	-10.3434
▁viešosios	-10.3439
▁mažų	-10.3439
▁punktas	-10.3443
▁reglamentavimo	-10.3443
▁metodas	-10.3444
▁praeityje	-10.3445
▁finansines	-10.3447
▁siekdamos	-10.3451
▁drąsi	-10.3457
▁mechanizmus	-10.3466
▁darbui	-10.3469
▁sužino	-10.3469
▁protokolo	-10.3478
▁200	-10.3485
pen	-10.3487
▁prašo	-10.3488
▁garantija	-10.3495
▁įdieg	-10.3503
▁istorijos	-10.3512
▁lygmenimis	-10.3512
▁trūkumas	-10.3512
▁mieste	-10.3512
▁nuomonių	-10.3523
▁Afganistano	-10.353
▁delegacija	-10.353
▁pasauliui	-10.353
imbabv	-10.353
▁ištirti	-10.353
▁rūmuose	-10.3531
▁vyksianči	-10.3532
▁geresnį	-10.3533
▁Sarkozy	-10.3547
▁Serbija	-10.3547
▁mechanizmo	-10.3547
laikyti	-10.3549
▁įdomi	-10.3549
▁besivystančiose	-10.3554
▁apriboti	-10.3558
pažįsta	-10.3561
▁užimtumą	-10.3565
▁sukelti	-10.3566
▁Pat	-10.3571
▁vienam	-10.3572
▁Pranešimas	-10.3575
iečiai	-10.3582
▁Rūmuose	-10.3583
▁motinystės	-10.3583
▁faktą	-10.3583
▁tarpinink	-10.3583
▁mažumos	-10.3583
▁bankai	-10.3584
▁norą	-10.3586
▁teisingu	-10.3588
▁lanksči	-10.3591
▁kitur	-10.3592
ekija	-10.3593
▁kokius	-10.3594
▁derėtų	-10.36
▁gairės	-10.36
▁prieštaring	-10.3602
brėž	-10.3603
▁skiriant	-10.3604
▁sutinka	-10.3606
▁integruoti	-10.3607
▁suvokti	-10.3613
▁Lenkija	-10.3618
▁konferencijoje	-10.3618
▁kompromisin	-10.3618
▁Indija	-10.3618
▁galutinį	-10.3619
sistema	-10.3619
▁išaugo	-10.362
▁Mat	-10.3627
▁informuot	-10.3627
▁ankstyv	-10.3635
▁daugybės	-10.3636
▁milijonai	-10.3636
▁atomin	-10.3637
▁veda	-10.3639
▁vertinimas	-10.364
egz	-10.365
▁aštuoni	-10.3653
▁pakto	-10.3662
▁trauk	-10.3665
▁procesui	-10.367
▁geresnio	-10.3678
▁atviru	-10.3679
▁atviro	-10.3681
▁nesutar	-10.3682
▁produktams	-10.3689
žiūri	-10.3692
žal	-10.3698
▁ženklinimo	-10.3701
▁parduot	-10.3705
▁Komisijoje	-10.3706
▁informavimo	-10.3706
▁nacionaliniai	-10.3707
▁siunčia	-10.3707
▁tinkamų	-10.3707
▁laikomas	-10.3709
▁pusę	-10.3716
▁didžioj	-10.3717
▁žodžiais	-10.3719
▁Vokietija	-10.3724
▁Tikimės	-10.3724
▁importuojam	-10.3725
▁slap	-10.3726
▁atliktas	-10.3727
▁žodžiai	-10.373
▁atsargi	-10.3737
▁Moldovos	-10.3742
▁profesional	-10.3742
▁infrastruktūra	-10.3754
▁panaudojimo	-10.376
▁chemin	-10.376
▁geresnę	-10.3761
▁prieinama	-10.3769
▁nesuteik	-10.3774
▁duoda	-10.3784
▁Vokietijoje	-10.3796
▁nviena	-10.3796
sėkm	-10.3806
▁nustatymo	-10.3825
iuosi	-10.3827
▁turėjome	-10.3829
▁poreikių	-10.3832
▁leidimo	-10.3832
sakyti	-10.3833
▁lėm	-10.3844
▁laikomi	-10.3845
▁veikloje	-10.385
▁sugebės	-10.3857
▁pagrindinėm	-10.3859
▁tekste	-10.3868
mato	-10.3875
▁dėkingas	-10.3875
▁sveikata	-10.3883
▁nusipelno	-10.3885
▁Bulgarija	-10.3886
▁apribojimų	-10.3886
▁pasienio	-10.3886
▁teisėtai	-10.389
▁krikščionių	-10.3896
▁sudarant	-10.3899
▁nukentėjo	-10.3904
▁orientuot	-10.3904
▁veiksmingos	-10.3905
osioms	-10.3913
▁autorius	-10.3914
▁rimtas	-10.3928
▁lengv	-10.3934
▁nemaž	-10.3941
▁reguliar	-10.3941
▁šeimų	-10.3941
▁garantuoti	-10.3942
▁naudingi	-10.3942
▁nepadar	-10.3956
▁pasmerkti	-10.3959
▁aplinka	-10.3961
▁pranešėju	-10.3965
▁lengvai	-10.3976
▁Graikijoje	-10.3977
▁Prancūzijoje	-10.3977
▁gyventojus	-10.3977
▁pageidauja	-10.3977
▁kryptis	-10.3977
▁nagrinėti	-10.3995
▁prasidėjo	-10.3995
▁finansinius	-10.3996
▁įvairov	-10.3998
▁turinio	-10.4002
krat	-10.4006
▁vakarą	-10.4013
▁vyresni	-10.4014
▁mikro	-10.4014
▁pačią	-10.4014
▁prisidės	-10.4015
▁partnerystę	-10.4019
▁visuose	-10.4032
▁augimui	-10.4033
▁pritaik	-10.4039
▁Valstyb	-10.4042
▁susirūpinę	-10.4043
▁pagrįstą	-10.4051
▁solidarumas	-10.4051
▁didele	-10.4054
▁mažas	-10.4056
▁kalbėjusi	-10.4059
▁Jungtinėm	-10.4059
Š	-10.4062
▁toms	-10.4065
▁bendruomenių	-10.4067
▁situacijos	-10.4069
▁savarankišk	-10.4078
▁mokymą	-10.4084
▁gerov	-10.4087
▁išlikti	-10.4088
▁prieigą	-10.4088
▁aiškios	-10.4088
Euro	-10.4097
skirti	-10.4103
teikti	-10.4105
▁įstatymą	-10.4106
▁naudojimu	-10.4108
▁serga	-10.4109
▁jokiu	-10.4109
▁nepamirš	-10.4117
▁28	-10.4118
▁apsvarst	-10.4122
▁Tūkstantmeči	-10.4125
▁Atsižvelgdamas	-10.4127
▁vietose	-10.4128
50	-10.4136
▁grupėms	-10.4137
▁Transporto	-10.4143
▁nusikalstamumu	-10.4143
▁dinamišk	-10.4143
▁tragišk	-10.4143
atsarg	-10.4148
▁pagrįstai	-10.4149
▁viešai	-10.4153
▁žiūri	-10.4154
▁būna	-10.4161
nčiųjų	-10.4162
▁bylos	-10.4162
▁teikiamos	-10.4166
▁ženg	-10.4166
▁atstat	-10.4166
▁prekybai	-10.4171
▁banku	-10.4173
▁pereinam	-10.4176
▁dokumente	-10.4181
▁ombudsmeno	-10.4181
▁sušvelnin	-10.4181
▁atsirado	-10.4181
▁štai	-10.4195
turėtų	-10.4196
▁kolektyvin	-10.4199
▁delegacijos	-10.4199
▁valdysenos	-10.4199
▁paskolų	-10.4199
▁našta	-10.4199
nali	-10.4217
▁Piliečių	-10.4218
▁Libijos	-10.4218
▁kalboje	-10.4218
numaty	-10.4219
▁dienas	-10.4225
▁tebe	-10.4227
vaizdu	-10.4229
▁potencialą	-10.4232
▁priima	-10.4236
▁ruožtu	-10.4239
▁priimtina	-10.4242
▁taiką	-10.4243
▁įvairius	-10.4244
▁erdv	-10.4251
▁diskusijoms	-10.4255
▁sukčiavimu	-10.4255
▁balsavimu	-10.4256
▁skolos	-10.4256
▁projekte	-10.4256
▁Tema	-10.4266
▁svarstome	-10.4273
laiko	-10.4277
jungti	-10.4277
▁sudarytų	-10.4282
▁svarbiau	-10.4284
▁mažėja	-10.4289
šio	-10.4293
▁31	-10.4295
▁prašyti	-10.4297
atsak	-10.4299
šioms	-10.4304
▁valios	-10.4305
▁tokioms	-10.4308
▁Pakistano	-10.4312
▁skelbia	-10.4316
▁svar	-10.4318
▁jokia	-10.4321
▁sudarymo	-10.4322
▁šeima	-10.4325
▁šalin	-10.4325
▁naujųjų	-10.433
▁reformuo	-10.4331
▁dokumentus	-10.4334
torius	-10.4337
▁prašome	-10.4339
▁neatsižvelgiant	-10.4342
▁patikrinti	-10.4344
▁žmogus	-10.435
▁tarptautinėje	-10.435
▁pastebim	-10.435
▁gaben	-10.435
arba	-10.435
▁Jums	-10.435
30	-10.4354
link	-10.4358
▁profesinių	-10.4366
▁atitik	-10.4367
▁dideles	-10.4368
▁Slovakijos	-10.4369
▁mokestį	-10.4369
▁metodus	-10.4369
▁surasti	-10.437
▁muitų	-10.437
▁valstybė	-10.4375
▁teisus	-10.4385
▁aukoms	-10.4388
▁žaliavų	-10.4388
▁valdom	-10.4392
▁plati	-10.4396
▁sukūrimo	-10.4399
▁ūkiui	-10.44
▁judumo	-10.4402
▁pusiausvyra	-10.4407
▁apginti	-10.4407
▁Atrodo	-10.4409
▁konkrečios	-10.4409
▁primena	-10.4409
▁balsuosime	-10.441
▁paprasta	-10.4419
išspręs	-10.4422
▁pavojingų	-10.4426
▁peržiūros	-10.4426
▁vietovių	-10.4426
▁Atsi	-10.4427
▁Kur	-10.4432
▁atitinkamos	-10.4435
▁atsižvelgdami	-10.4438
▁varom	-10.4441
▁laikau	-10.4445
▁kairiųjų	-10.4446
▁penkerius	-10.4449
▁pirkimų	-10.4452
▁ženklin	-10.4461
▁padarys	-10.4463
▁Klausim	-10.4464
▁Ekonomin	-10.4465
nutraukkalbėtoją	-10.4465
▁įrangos	-10.4465
EGF	-10.4465
▁konkrečias	-10.4465
sprendžia	-10.4472
▁teroristų	-10.4473
tarnaut	-10.4473
lum	-10.4477
▁sunkiau	-10.4483
▁socialiniam	-10.4484
▁minėto	-10.4488
rst	-10.4491
ling	-10.4491
reguliuo	-10.45
▁esamų	-10.4503
▁susitelk	-10.4503
▁reikštų	-10.4504
▁atkakl	-10.4504
gauna	-10.4504
▁tvarų	-10.4506
▁ministrai	-10.4506
▁visiška	-10.4509
▁artėja	-10.4511
teikia	-10.4515
▁gimt	-10.4518
▁modelio	-10.4522
▁papildomos	-10.4524
▁narį	-10.4532
▁pesticidų	-10.4535
▁gerovę	-10.4538
▁paskyr	-10.4539
▁kritika	-10.4543
▁skirtingai	-10.4543
▁įsipareigojo	-10.4554
▁neleisti	-10.4556
▁Rumunijoje	-10.4561
▁kreditų	-10.4561
▁biologinės	-10.4565
▁Nesu	-10.4566
▁Maž	-10.4569
▁matėme	-10.4573
priklausomyb	-10.4578
▁konvencija	-10.4581
▁vartotojus	-10.4581
▁Žaliųjų	-10.4581
▁reguliuoti	-10.4581
pirk	-10.4583
▁būdais	-10.4585
▁Pagrindin	-10.4589
▁pastatų	-10.4589
▁galutinis	-10.46
▁Rytuose	-10.46
▁šešių	-10.4603
▁atliekant	-10.4619
▁remdamiesi	-10.462
▁naudojam	-10.4623
▁pažeidimo	-10.463
▁paspartinti	-10.4633
▁dialogu	-10.4639
▁ideolog	-10.4639
▁kilti	-10.4639
▁ūkis	-10.464
▁brangi	-10.4646
praktin	-10.4648
▁moralin	-10.4648
▁ribas	-10.4649
▁liberalizavimo	-10.4654
▁pasaulį	-10.4659
▁nukryp	-10.4662
▁humanitarinę	-10.4667
▁stipresn	-10.4667
apie	-10.4668
▁Veik	-10.4674
▁Neseniai	-10.4678
▁Komitet	-10.4678
▁Peticij	-10.4678
▁kadencijos	-10.4679
▁pateiktos	-10.4687
▁Tokiu	-10.4695
▁centro	-10.4698
▁kompromiso	-10.4698
▁reikšmės	-10.4699
▁augalų	-10.4699
▁tipo	-10.47
▁savęs	-10.4701
▁sunkumais	-10.4702
▁detal	-10.4705
▁džiaug	-10.4715
▁Afganistane	-10.4718
▁pasisteng	-10.4718
▁gairių	-10.4718
▁patirtis	-10.4726
▁atidar	-10.4729
▁pripažino	-10.4733
▁balsuos	-10.4737
▁išbrauk	-10.4737
▁padeng	-10.4737
▁mažinant	-10.4738
▁vyriausybei	-10.4739
▁esamo	-10.4747
▁skland	-10.4748
▁būtinų	-10.4751
▁kariuomen	-10.4757
▁įstaigų	-10.4757
▁testavim	-10.4758
▁misija	-10.4759
▁pajėgos	-10.476
nepriklausomybės	-10.4763
abejoti	-10.4765
▁Lenkijoje	-10.4777
▁reikalavimą	-10.4777
▁Teismas	-10.4777
▁judėjimas	-10.4781
▁moksliniam	-10.4786
▁būdam	-10.4792
taut	-10.4794
▁naštos	-10.4797
EC	-10.4797
▁vengti	-10.4799
▁patvirtinimas	-10.4799
taikyti	-10.4807
▁Apie	-10.4811
▁diplomat	-10.4816
▁gili	-10.4817
▁ateinančiu	-10.4817
▁ketvirta	-10.482
▁vertybės	-10.4822
izacija	-10.4824
▁susitarimui	-10.4825
▁žiauri	-10.4825
zavimas	-10.4827
▁29	-10.483
uojami	-10.4831
▁San	-10.4831
▁visiško	-10.4834
▁pasibaig	-10.4837
▁demokratinių	-10.4848
▁sudarys	-10.4855
▁apmokestinimo	-10.4856
▁pareigūn	-10.4858
▁skamb	-10.4866
▁vienoje	-10.4874
▁imasi	-10.4876
▁tabako	-10.4876
▁gaila	-10.4877
▁ligoni	-10.488
▁importuot	-10.488
techn	-10.4884
▁tiksli	-10.4887
▁Bendra	-10.4894
▁Italija	-10.4896
▁mokesčiai	-10.4896
▁tvarios	-10.4903
▁pabaiga	-10.491
▁NVO	-10.4917
▁nereikėtų	-10.4917
▁trūkumus	-10.4917
▁gerbiamieji	-10.4917
▁nenorime	-10.4917
▁įvairios	-10.4922
▁taikomų	-10.4924
▁siūlau	-10.4932
▁uždav	-10.4932
▁išveng	-10.4933
▁palank	-10.4933
▁atokiausi	-10.4937
▁skubiau	-10.4939
▁nepateik	-10.4951
▁GUE	-10.4957
▁indėlis	-10.4957
▁naujoji	-10.4957
▁politiškai	-10.4957
▁verslui	-10.4958
▁išmokų	-10.496
▁pasisakyti	-10.4964
▁skaid	-10.4965
DA	-10.4966
▁90	-10.4972
▁patikinti	-10.4976
▁smerkia	-10.4977
▁veiksmingumo	-10.4977
▁sudėtingu	-10.4977
▁pagalvoti	-10.4977
▁didinant	-10.4977
▁švies	-10.4978
▁neteisėtai	-10.498
▁svarbaus	-10.4981
2007	-10.4984
▁gaminti	-10.4993
▁įsigaliojus	-10.4997
▁Schulz	-10.4997
▁direktyvų	-10.4997
▁ketvirtadienį	-10.4997
neturting	-10.4998
▁pakeista	-10.5006
▁gil	-10.5009
AS	-10.5011
▁socialinis	-10.5013
▁2003	-10.502
▁priežastys	-10.5038
▁vertybėmis	-10.5038
▁Nemanau	-10.5038
▁pareigą	-10.5038
▁tarptautinį	-10.5038
▁geresnių	-10.5038
▁statusą	-10.5038
▁įgyti	-10.504
BG	-10.5057
▁istorija	-10.5058
▁problemoms	-10.5058
▁linijų	-10.5058
▁vienodą	-10.5059
sunaikin	-10.5065
▁biudžetin	-10.5072
▁ekonominiu	-10.5073
Posėdis	-10.5079
▁Baltarusija	-10.5079
▁Kipro	-10.5079
▁kultūrą	-10.5079
▁valanda	-10.508
▁remiame	-10.5083
▁Tikiu	-10.5083
▁2002	-10.5084
▁pritaikyt	-10.5085
▁partneriai	-10.5086
▁kalin	-10.5097
NGL	-10.5099
▁idėją	-10.5099
▁puol	-10.51
▁trukdo	-10.5101
▁pigi	-10.5106
▁Afrika	-10.512
sąžin	-10.512
▁pritarta	-10.5128
▁Japonijos	-10.514
▁konvenciją	-10.514
▁rimtą	-10.514
▁Antroj	-10.514
▁sutinkame	-10.514
▁Šiais	-10.5141
▁sukūrimas	-10.5143
▁prisitaikyti	-10.5145
ininkystės	-10.5151
aukščiausi	-10.5154
▁leista	-10.5155
▁pobūdį	-10.5161
▁referendumo	-10.5161
▁Sprendim	-10.5161
▁nebūtina	-10.5161
▁suprantame	-10.5167
▁dabartinių	-10.517
▁atidėti	-10.5171
prezident	-10.5173
▁susilaik	-10.5177
intervenci	-10.5178
▁Gazos	-10.5181
▁skirtingas	-10.5182
laisv	-10.5188
▁neįtrauk	-10.5191
▁politikų	-10.5202
▁regioną	-10.5203
sidomė	-10.5208
▁teigti	-10.5222
sanglauda	-10.5223
▁posėdį	-10.5223
▁transatlantin	-10.5223
izuoti	-10.5226
▁įdiegti	-10.5233
▁abu	-10.5233
▁įraš	-10.5234
▁derėtis	-10.5243
▁vandenyno	-10.5243
▁formų	-10.5244
▁planų	-10.5245
▁balt	-10.5247
▁žy	-10.5257
▁nacionalinio	-10.5258
ratifikuo	-10.5264
▁prevencin	-10.5264
▁aukomis	-10.5264
▁režimą	-10.5264
▁atneš	-10.5264
kultūr	-10.5271
▁remiu	-10.5273
▁šalimi	-10.5273
▁svarstymo	-10.5274
Komisijos	-10.5276
▁kampanija	-10.5285
▁modelis	-10.5285
▁sritims	-10.5285
▁žvejyba	-10.5286
▁tautos	-10.5286
▁kūrimas	-10.5288
tiniai	-10.5292
▁paraš	-10.5294
▁skatinimas	-10.5302
▁manyti	-10.5303
▁apibendrin	-10.5306
▁istoriją	-10.5306
▁musulmon	-10.5306
▁pastaruoju	-10.5306
▁biudžete	-10.5306
▁kultūrų	-10.5307
▁savinink	-10.5325
▁vyno	-10.5326
▁deryboms	-10.5327
▁valdžią	-10.5327
▁nemoka	-10.5328
▁prisiimt	-10.5342
▁suvokia	-10.5346
▁poreikio	-10.5348
▁turbūt	-10.5348
▁nedarbas	-10.5348
▁profesinio	-10.5354
▁Slovėnija	-10.5369
▁produkto	-10.5369
▁Rusijoje	-10.5369
▁trūkumo	-10.5369
▁prieigos	-10.5369
▁Direktyvos	-10.539
▁savanoriška	-10.539
▁stiprinant	-10.5404
▁iškraip	-10.5411
▁taisyklėmis	-10.5411
▁Vert	-10.5413
▁ekonomiškai	-10.5418
▁valdymu	-10.5419
vykę	-10.5422
▁laimi	-10.5429
▁papildyti	-10.5432
▁Strasbūre	-10.5432
▁didinimo	-10.5434
▁lob	-10.5437
▁gaminam	-10.5443
▁ekonominiai	-10.5443
ykime	-10.5444
▁elementų	-10.5453
▁apsisprend	-10.5453
▁kompensuo	-10.5453
▁paminėta	-10.5456
prasta	-10.546
▁tekstu	-10.546
▁reklamos	-10.5475
▁akcentu	-10.5475
žem	-10.5477
ėjimų	-10.5478
▁drauge	-10.548
▁didžiulis	-10.5491
▁veiksmams	-10.5498
▁išspręsta	-10.5502
▁pažeidimai	-10.5512
▁Sveikinu	-10.5517
▁diskriminaciją	-10.5517
▁elementas	-10.5517
▁išgyvena	-10.5517
▁efektyvesn	-10.5517
▁neaišku	-10.552
▁namuose	-10.552
▁veiksnių	-10.552
▁pirmininkui	-10.5521
▁pramonin	-10.5522
▁techninių	-10.5535
▁formos	-10.5539
▁judėjimą	-10.5543
▁padedant	-10.5549
▁atitinkamas	-10.556
▁narkotikų	-10.556
▁ryšį	-10.556
▁keitimo	-10.556
▁vertinimu	-10.5561
▁plačiau	-10.5562
▁keliauti	-10.5564
▁darbotvarkėje	-10.5567
▁teisingą	-10.5572
▁mobili	-10.5579
▁apribojimai	-10.5581
▁operacijų	-10.5581
▁stengiasi	-10.5581
▁atverti	-10.5582
▁reikšti	-10.5583
▁išlaisvin	-10.5585
▁elektrinių	-10.5588
kab	-10.5598
▁įstaigos	-10.5603
▁piršt	-10.5603
▁esminių	-10.5618
tautinbendruomen	-10.5624
▁Moterų	-10.5624
▁įrodymų	-10.5624
▁lyties	-10.5625
▁misijos	-10.5626
▁2015	-10.5626
▁rytą	-10.5633
▁jūra	-10.5646
▁aiškesn	-10.5646
▁telefon	-10.5646
▁nusikaltimai	-10.5647
▁praėjusią	-10.5647
▁priėmus	-10.565
saugo	-10.5651
▁blogiau	-10.5663
▁medicinos	-10.5668
ininkams	-10.5672
▁sąžiningai	-10.5681
▁antrą	-10.5686
▁pietin	-10.5689
▁Brazilijos	-10.5689
▁apsunkin	-10.5689
▁koordinavimą	-10.5689
▁normal	-10.5689
▁Irane	-10.569
▁įmanom	-10.569
▁sąžininga	-10.5699
▁patikė	-10.5701
▁post	-10.5704
klių	-10.5709
▁statistikos	-10.5711
▁nepavyks	-10.5711
▁europietišk	-10.5711
▁atvyksta	-10.5719
▁mažiausi	-10.5722
▁grupę	-10.5729
▁kompetenciją	-10.5733
▁rekomendacijų	-10.5733
▁intelektinės	-10.5741
▁lygių	-10.5743
▁Galime	-10.5745
▁dvej	-10.5748
▁socialiniu	-10.5748
▁apsiribo	-10.5755
▁smurtas	-10.5755
▁finansavimu	-10.5755
▁pabrėžė	-10.5758
▁Susitar	-10.5761
▁prezidentu	-10.5762
▁mažinimas	-10.5763
▁Praėjus	-10.5764
▁palaikome	-10.5765
▁kritin	-10.5776
▁surengt	-10.5777
▁Apskritai	-10.5777
▁tarnybų	-10.5777
▁režimu	-10.5779
▁įsipareigojimo	-10.578
▁išdėstyta	-10.5783
▁pramonėje	-10.5791
▁skiriamos	-10.5797
▁šeimoms	-10.5799
frakci	-10.58
▁paketu	-10.5803
▁mokymosi	-10.5804
▁vežimo	-10.5804
IS	-10.5806
▁dalyvaujant	-10.5818
▁komisar	-10.5821
▁kažkas	-10.5821
▁prašytoj	-10.5822
▁75	-10.5827
▁veiktų	-10.5832
▁centru	-10.5843
▁prevencija	-10.5843
▁Dauguma	-10.5843
▁metodo	-10.585
▁vidutinio	-10.5853
vėl	-10.5857
▁individual	-10.5865
▁sanglaudą	-10.5865
▁Sutartį	-10.5865
▁praktiką	-10.5865
▁vyrai	-10.5865
▁išvengta	-10.5883
▁Jugoslavijos	-10.5887
▁Kanados	-10.5887
▁pastarųjų	-10.5887
▁plėsti	-10.5887
▁reikalaujame	-10.5898
▁ugd	-10.5898
▁išrinkta	-10.59
▁išdėstyti	-10.59
▁jaunimas	-10.5907
▁autorių	-10.5907
▁pono	-10.5909
▁chartijos	-10.5909
▁tendencija	-10.5909
▁Pramonės	-10.5909
▁aktuose	-10.5909
▁girdėjome	-10.591
▁Europol	-10.5911
▁pareigūnų	-10.5915
▁Didžioj	-10.5924
▁vykdomi	-10.5928
▁FRONTE	-10.5931
▁privataus	-10.5931
▁protokola	-10.5931
▁rezoliucijų	-10.5931
▁ECB	-10.5931
▁įstatymas	-10.5931
▁veikėja	-10.5933
▁neturėjo	-10.5942
▁palieka	-10.5943
▁pragyven	-10.595
▁žingsniu	-10.5953
▁tūkstančiai	-10.5953
▁ministru	-10.5971
▁trečdali	-10.5976
▁Irako	-10.5976
▁tikėtina	-10.5976
▁Antrasis	-10.5979
▁mastą	-10.5981
registruo	-10.5983
▁elektronini	-10.5988
▁ketinama	-10.5992
▁aspektu	-10.5995
▁gydymo	-10.5998
▁rezultatą	-10.5998
▁aktuali	-10.5998
▁Kongo	-10.6001
▁aptariama	-10.6004
▁laukti	-10.6013
▁rūk	-10.6015
▁Kalbu	-10.6017
▁investicijoms	-10.6021
▁kvalifikacijos	-10.6021
▁nesupranta	-10.6021
▁Prašau	-10.6021
▁teritorini	-10.6022
▁naujoves	-10.6028
▁nepritariu	-10.6035
▁garantuoja	-10.6043
▁etapu	-10.6043
sign	-10.6043
▁smurtu	-10.6044
▁užima	-10.6046
▁kitu	-10.6047
▁reaguoja	-10.6061
▁repr	-10.6064
SL	-10.6065
▁medžiagos	-10.6066
▁skurdas	-10.6066
▁Sudano	-10.6066
▁trišal	-10.6066
maiš	-10.6066
▁jaunimui	-10.6068
tiškai	-10.6082
▁pirmoji	-10.6085
▁Atlanto	-10.6088
▁Belgijos	-10.6088
▁sąvoka	-10.6088
▁Posėdži	-10.6088
▁suderinimo	-10.6088
▁atitinkamą	-10.609
▁nepaprast	-10.6106
▁lygyb	-10.6109
▁paslaugoms	-10.6111
▁reglamentų	-10.6111
▁esamą	-10.6111
gul	-10.6111
▁Tie	-10.6131
▁ratifikavimo	-10.6133
pagalba	-10.6135
▁imsis	-10.6136
▁Prisi	-10.6136
▁prašoma	-10.614
02	-10.6145
▁turinį	-10.6148
▁partnerė	-10.6151
▁garantijos	-10.6156
▁pareigų	-10.6156
▁paruoš	-10.6156
▁lošim	-10.6156
▁sutrik	-10.6157
▁stiprinimo	-10.6162
▁tauta	-10.6163
▁parlamentų	-10.618
▁opi	-10.6188
▁pasitaik	-10.6193
▁priėmimą	-10.6199
▁Socialistų	-10.6202
▁neužtikrin	-10.6202
▁rinkimuose	-10.6202
▁auka	-10.6202
▁parduodam	-10.6202
▁nuosekliai	-10.6205
▁didžiulę	-10.6205
TA	-10.6205
▁trumpą	-10.6206
▁keliauja	-10.621
▁politiniam	-10.6219
▁Gerai	-10.6219
▁300	-10.6224
▁Užimtumo	-10.6225
▁Sutartis	-10.6225
▁pasisek	-10.6226
▁patvirtinimą	-10.6229
traukia	-10.6234
▁mažuma	-10.6241
privalo	-10.6241
▁regioniniu	-10.6247
▁Problem	-10.6248
▁švietimas	-10.6248
▁Reikėtų	-10.6248
▁likvid	-10.6248
▁tvarumo	-10.6248
▁veiksniai	-10.6249
spėja	-10.6253
▁tarsi	-10.6257
▁išreiškia	-10.6258
▁grąžinti	-10.6262
▁absurdišk	-10.6271
▁palūkanų	-10.6271
▁žiniomis	-10.6271
▁Padėtis	-10.6271
▁kainuoja	-10.6271
▁pajamos	-10.6271
▁pritarimą	-10.6273
Front	-10.6274
▁tvarkymo	-10.6278
▁Mok	-10.6286
▁chartija	-10.6294
▁sritimi	-10.6294
▁skaičiai	-10.6294
▁ketinimai	-10.6294
▁atvykti	-10.6307
▁atsakymo	-10.6309
▁negalės	-10.6314
▁Gruzija	-10.6317
▁nesvarbu	-10.6317
▁protestu	-10.6317
▁vyriausioj	-10.632
▁abipusi	-10.6323
▁masini	-10.6332
▁pamatyti	-10.6337
▁ministro	-10.6342
▁susilaikiau	-10.6345
▁komitetu	-10.6349
▁gamtinių	-10.635
▁ser	-10.6351
▁tyrimas	-10.6353
05	-10.636
▁konkuruoti	-10.6363
▁modeliu	-10.6363
▁žuvo	-10.6363
▁drąsos	-10.6386
▁reikalingų	-10.6386
▁pačioje	-10.6386
reikia	-10.6388
▁prioritetu	-10.6389
▁aktyviau	-10.6395
▁sutaria	-10.6403
▁pristatyti	-10.6409
▁atsakymus	-10.641
▁parengtą	-10.641
▁švent	-10.6411
▁įvairiai	-10.643
▁Baltarusijoje	-10.6433
▁maksimal	-10.6433
▁neproporcing	-10.6456
▁pasimokyti	-10.6456
▁suderinto	-10.6456
▁trukm	-10.6461
ykite	-10.6463
draudžia	-10.6464
▁lygybę	-10.6477
▁Daugiau	-10.648
laimė	-10.6482
▁praėjusių	-10.6487
▁įtraukiant	-10.6511
▁mokestis	-10.6527
▁minėtų	-10.6529
stipr	-10.6531
▁planai	-10.6531
▁praėjusį	-10.6546
▁galėtumėte	-10.6551
▁balans	-10.6551
▁nekalt	-10.6551
▁šaltinius	-10.6553
▁Lank	-10.6553
▁35	-10.6557
▁formuluot	-10.656
ill	-10.6561
▁prašymas	-10.6564
▁peržiūra	-10.6574
▁kritikuoja	-10.6574
▁ūkių	-10.6575
▁laukiame	-10.6577
▁pažeidžiamos	-10.6578
▁perspektyva	-10.6587
▁finansiniai	-10.659
▁baudžiamojo	-10.6593
konkreči	-10.6594
▁pamirš	-10.6595
▁pacientams	-10.6598
▁dvasia	-10.6598
▁įrodyti	-10.6599
▁numatom	-10.66
▁artimiausiu	-10.6603
▁dirvožemio	-10.6614
▁karinių	-10.6618
▁Komisar	-10.6621
▁Sanglaudos	-10.6622
▁kompromisu	-10.6622
▁lūkesčius	-10.6622
▁natūrali	-10.6622
▁reakcija	-10.6622
▁spaudimas	-10.6622
▁2007-2013	-10.6623
▁Karalystėje	-10.6624
pagrind	-10.6626
▁būdinga	-10.6633
▁bausmę	-10.6638
▁didesnių	-10.6645
▁Egipte	-10.6646
▁organizacijoms	-10.6646
▁rimto	-10.6646
▁spaudimo	-10.6646
▁įtvirtinta	-10.6655
▁šalinink	-10.6656
▁kaltina	-10.6667
▁santykiuose	-10.667
▁referent	-10.667
▁atliktų	-10.6673
vimu	-10.6688
▁baisi	-10.6689
▁skyrimo	-10.6693
▁Lietuvos	-10.6694
▁pakeitimams	-10.6694
▁degalų	-10.6694
▁ištaisyti	-10.6694
▁Kokia	-10.6697
▁penkeri	-10.6713
▁įgyvendinamos	-10.6718
▁Korėjos	-10.6718
▁jėgų	-10.6718
▁komunikate	-10.6718
▁Ketvirta	-10.6732
▁pasiūlyto	-10.6732
15	-10.6736
avimų	-10.6737
▁sąnaudų	-10.6742
▁panašu	-10.6742
slapt	-10.6747
▁padarėme	-10.6757
▁lytin	-10.6763
▁norėdami	-10.6766
▁ribą	-10.6767
▁patekim	-10.6773
▁gryn	-10.6774
▁statut	-10.6784
▁plenariniam	-10.6785
▁Valstijomis	-10.679
▁neveiksming	-10.679
▁trejus	-10.679
▁naujoms	-10.6795
▁grasin	-10.6808
▁sakėte	-10.6812
▁dalyvaus	-10.6815
▁paskui	-10.6815
▁kaup	-10.6816
tektų	-10.682
gyventi	-10.6829
▁priėmimas	-10.6834
▁komitetų	-10.6839
▁operacijos	-10.6839
▁sričiai	-10.6839
▁apribojimus	-10.6839
▁miršta	-10.6839
▁ribota	-10.6839
▁pajėgas	-10.684
gail	-10.6842
▁rinkėjų	-10.6849
▁radikali	-10.6852
▁paskirstymo	-10.6856
▁Dohos	-10.6863
▁produktyv	-10.6863
▁ryšiai	-10.6863
▁sesijos	-10.6863
▁reikalai	-10.6865
▁pietų	-10.6865
▁investuoja	-10.6866
dirba	-10.6879
konsoliduot	-10.6888
▁neramu	-10.6888
▁efektyviau	-10.6908
▁analizę	-10.6909
▁vadovaujama	-10.6916
▁pirmenyb	-10.6922
▁sėd	-10.6931
▁reglamente	-10.6937
▁užsienyje	-10.6937
▁aukos	-10.6937
▁2001	-10.694
▁sutartys	-10.6946
▁Artim	-10.6955
▁ilgalaikio	-10.6958
▁Direktyva	-10.6961
▁konkretų	-10.6961
▁balsuojant	-10.6961
▁neteisėto	-10.6964
▁grupes	-10.6973
▁atsitikti	-10.6974
▁teritoriją	-10.6986
▁verslą	-10.6986
▁elgesį	-10.6986
▁sudėtingi	-10.699
ydamos	-10.6999
▁nukreipta	-10.7001
▁klaidinga	-10.7003
▁vakcin	-10.7011
izavimą	-10.7018
telekomunikacijų	-10.7036
▁prasideda	-10.7036
▁elgesys	-10.7036
▁pusėje	-10.7038
▁išnyk	-10.704
▁neigiamo	-10.7054
▁naudingos	-10.706
▁reguliavimą	-10.706
▁galvoje	-10.7061
▁poreikiai	-10.7061
▁antrąjį	-10.7061
lankst	-10.707
▁atleisti	-10.7083
▁atvėr	-10.7085
▁inovacijas	-10.7085
▁sudėtingą	-10.7085
▁naudingu	-10.7085
▁žinios	-10.7086
iškumą	-10.7088
▁turėjau	-10.7091
▁sprendžiami	-10.7097
▁restruktūrizav	-10.7101
▁Vyriausybės	-10.7103
▁susitarta	-10.7106
svarst	-10.7107
▁produkcijos	-10.711
▁siaubing	-10.711
▁užuojautą	-10.711
▁punktu	-10.711
▁formuoja	-10.711
▁sveikintina	-10.711
▁reikalo	-10.7111
▁eilut	-10.7112
▁supaprastinimo	-10.7128
▁Dunojaus	-10.7135
▁konsultacijų	-10.7135
▁transportą	-10.7135
▁darbininkų	-10.7135
▁pasielg	-10.7136
garantuot	-10.7136
▁galutinio	-10.7143
▁užtikrintume	-10.7148
▁dydį	-10.7161
▁pastabą	-10.7161
▁subjektų	-10.7161
▁sąrašas	-10.7161
Galileo	-10.7162
▁valią	-10.7163
▁riba	-10.7182
▁etapą	-10.7186
▁nedalyvauja	-10.7186
▁dešimtmečius	-10.7186
▁įpareigot	-10.7186
▁pakrančių	-10.7186
▁viršija	-10.7202
▁didžiąj	-10.7207
▁rimtu	-10.7211
▁pažvelgti	-10.7211
▁sumažinimo	-10.7212
▁priklausys	-10.7213
▁metinės	-10.7214
ysite	-10.7218
ekonomin	-10.7227
▁minėjote	-10.7228
▁Ispanijoje	-10.7236
▁geležinkelio	-10.7236
▁punktų	-10.7236
▁rūpestį	-10.7236
▁zoną	-10.7236
▁statuso	-10.7237
▁vertybini	-10.7238
▁kelionių	-10.7239
▁stabd	-10.7242
▁alkoholio	-10.7242
▁sakydama	-10.7243
▁kolegomis	-10.7254
▁vertinga	-10.7254
▁laipsniškai	-10.7255
▁Izraelis	-10.7262
▁apgailestauti	-10.7262
▁pastangomis	-10.7262
▁neutral	-10.7262
▁operacija	-10.7262
▁ECR	-10.7262
▁normų	-10.7263
▁uždavinius	-10.7263
▁praėjusiais	-10.7271
▁pirmiau	-10.7276
pagrįsta	-10.728
ženkl	-10.7281
▁Solidarumo	-10.7287
▁Vartotoj	-10.7287
▁išimtis	-10.7291
▁nuogąstav	-10.7313
▁ekonomikoje	-10.7313
▁sesijoje	-10.7313
▁savaitės	-10.7313
▁sėkmingo	-10.7318
▁kitokio	-10.732
▁pripažinta	-10.7328
▁konstruktyvų	-10.7338
▁bankininkystės	-10.7338
▁Bank	-10.7342
naudoti	-10.7343
▁perskait	-10.7343
▁įpareigoja	-10.7352
▁panaikinimas	-10.7356
▁Praėjusi	-10.7358
▁geresnes	-10.736
Komisija	-10.7361
▁keliuose	-10.7362
▁Ankstesn	-10.7364
▁pajėgumų	-10.7364
▁transportas	-10.7364
▁dalyviai	-10.7365
▁atidėt	-10.7365
▁subsidijų	-10.7368
▁teigė	-10.7369
▁Martin	-10.738
▁geneti	-10.738
▁manęs	-10.7385
▁mokyklų	-10.739
▁integruota	-10.7393
▁erdvėje	-10.7396
▁ypatingo	-10.7408
▁posėdžių	-10.7415
▁dalyvių	-10.7416
▁visapusišką	-10.7416
▁Didžiosio	-10.7417
▁Keli	-10.7433
skaičiuoja	-10.7441
▁kadenciją	-10.7441
▁susieti	-10.7443
▁lyderiai	-10.7444
▁saugumu	-10.7461
▁Slovėnijos	-10.7467
▁mechanizmai	-10.7467
▁išvadų	-10.7468
▁praranda	-10.747
▁prielaida	-10.7471
▁skirtingi	-10.7473
Hamas	-10.7492
▁skirtumas	-10.7493
▁suteiktos	-10.7494
▁ekonominiam	-10.7501
▁sudedam	-10.7502
▁mokėjimo	-10.7508
▁vidin	-10.7509
galimyb	-10.7518
rekomendaci	-10.7519
▁ataskaitų	-10.7519
▁istorijoje	-10.7519
▁pastebėti	-10.7519
▁ūkyje	-10.7519
▁skaidresn	-10.7519
▁mokymas	-10.7521
▁dvejop	-10.7521
8/	-10.7528
drausm	-10.753
ašt	-10.7534
▁teisiniu	-10.7543
▁UEN	-10.7545
▁pasiūlymams	-10.7545
▁sąjunginink	-10.7545
▁riboto	-10.7545
▁apimtų	-10.7545
▁Klaus	-10.7546
▁privati	-10.7548
▁tinkami	-10.7551
▁tikimasi	-10.7553
iniciatyv	-10.7564
▁Briuselio	-10.7571
▁valandų	-10.7571
▁ūkį	-10.7572
▁faktu	-10.7572
▁rinktis	-10.7594
▁aprūpinimo	-10.7598
▁centrų	-10.7598
▁horizontal	-10.7598
▁komitetą	-10.7598
▁gerinimo	-10.7598
temp	-10.7607
mums	-10.761
▁apibrėžta	-10.7617
▁paaiškėjo	-10.7624
▁imamasi	-10.7624
▁užtikrinimas	-10.764
▁salėje	-10.764
▁fakto	-10.7643
▁Demokratin	-10.7648
▁aiškumo	-10.7649
▁sąnaudas	-10.765
▁nepriklausomybę	-10.765
▁Didel	-10.7653
žeidžia	-10.7659
▁kalinių	-10.7661
▁pasirūpinti	-10.7662
▁mažosios	-10.7664
▁nusprendėme	-10.767
▁matau	-10.7674
▁netaik	-10.7676
▁Brazilija	-10.7677
▁Egipto	-10.7677
▁Stokholmo	-10.7677
▁dalyvautų	-10.7677
▁susidoroti	-10.7677
▁rekomenduoja	-10.7677
▁nusteb	-10.7677
▁dešin	-10.7685
▁susilaikyti	-10.7689
▁pareigūnai	-10.7695
▁didinimas	-10.7697
▁rūmų	-10.7697
▁būding	-10.7698
▁šalia	-10.7701
▁nepalankiausiom	-10.7703
▁ratifikuoti	-10.7704
▁skola	-10.7707
▁įtaka	-10.7711
▁nariu	-10.7715
▁liks	-10.7718
▁Atsižvelgdama	-10.7726
▁glaudesni	-10.773
▁alternatyva	-10.773
▁reikalingą	-10.773
▁slypi	-10.773
▁neatitik	-10.773
▁prisiėm	-10.7732
▁susidariusi	-10.7735
▁netinkamo	-10.7741
▁santykiams	-10.7757
▁TVF	-10.7757
▁suformuot	-10.7757
▁įsigalios	-10.7757
▁įvairiom	-10.7758
▁pasiektume	-10.7763
▁viešąsias	-10.7763
▁atvejį	-10.7783
▁dvideginio	-10.7783
▁planavimo	-10.7783
▁skurdžiausi	-10.7791
▁SIS	-10.7794
▁pasitrauk	-10.7807
▁paprasčiau	-10.781
▁Portugalijoje	-10.781
▁draudimą	-10.781
▁Žmonės	-10.781
▁Tiesiog	-10.781
▁plėtojant	-10.781
▁vilčių	-10.781
▁sumokėti	-10.7811
▁Praeit	-10.7821
leidimo	-10.7837
▁reikalavo	-10.7837
▁Kanada	-10.7837
▁reikalams	-10.7837
▁byla	-10.7837
▁diskutuojama	-10.7838
▁importu	-10.7839
▁kalbėsiu	-10.7853
▁šešėlini	-10.786
▁novatorišk	-10.7864
▁visapus	-10.7867
▁vietoj	-10.7879
▁neteising	-10.788
▁nesąžininga	-10.7882
▁priverstin	-10.7883
uomet	-10.7888
▁veiksmingo	-10.7889
▁Vengrijoje	-10.7891
▁tarifų	-10.7891
▁sankcijos	-10.7891
▁žiniasklaida	-10.7891
▁žodis	-10.7891
▁gebėjimu	-10.7891
▁įsipareigojusi	-10.7891
▁pateisinti	-10.7891
▁funkcija	-10.7891
▁mokytis	-10.7892
leidimas	-10.7892
▁pasakysiu	-10.7894
▁Abi	-10.7908
smurt	-10.7918
▁sektoriams	-10.7918
▁metodai	-10.7919
▁baigėsi	-10.7919
▁žodini	-10.7923
▁Esant	-10.7924
toriai	-10.7927
▁pragmati	-10.7928
▁bijo	-10.7937
▁Trumpai	-10.7945
▁centre	-10.7945
▁vidurio	-10.7945
▁savanoriško	-10.7945
▁atsiliep	-10.7945
▁išdavimo	-10.7946
▁antrojo	-10.7948
▁nešališk	-10.7952
▁investuot	-10.7954
pasiūl	-10.7957
▁asignavimų	-10.7973
▁pajėgumus	-10.7973
▁teritorija	-10.7973
▁nuostatomis	-10.7973
▁vaistus	-10.7973
▁riboti	-10.7973
▁Birmos	-10.7973
▁neįsi	-10.7976
▁patenkinta	-10.8
▁Tibeto	-10.8
▁reguliavimas	-10.8
▁kryptį	-10.8
▁priėmėme	-10.8
▁progą	-10.8
▁vienašališk	-10.8001
▁faktin	-10.8001
▁saugesn	-10.8001
▁tokiems	-10.8014
mėlyn	-10.8022
▁pensin	-10.8023
▁verslu	-10.8026
prancūz	-10.8027
▁informuoja	-10.8027
▁mechanizmų	-10.8027
▁aktualu	-10.8027
▁klaidina	-10.8027
▁Th	-10.8031
tiesiogin	-10.8035
▁susijusiems	-10.8036
▁atkreipiamas	-10.8036
▁rodyti	-10.8042
▁gaut	-10.8046
▁pakil	-10.805
▁diskriminuoja	-10.8051
leidimu	-10.8054
▁Belgija	-10.8055
▁administracija	-10.8055
▁pagreitin	-10.8055
▁kolektyvini	-10.8056
▁kituose	-10.8062
▁vykdomą	-10.8067
▁Balsuoj	-10.8073
▁aktyvist	-10.808
▁ieškant	-10.8082
▁suprato	-10.8082
▁sukčiavimo	-10.8082
▁sąjungų	-10.8082
▁įgūdžių	-10.8082
▁įsivaizduoti	-10.8082
▁žingsnių	-10.8082
▁džiaugiamės	-10.8082
▁vyriausybėms	-10.8083
▁amžiuje	-10.811
▁keista	-10.811
▁arabų	-10.811
▁atsitiko	-10.8111
▁nusistat	-10.8114
▁nuostolių	-10.8138
▁išminting	-10.8138
▁priklausomybę	-10.8138
▁prievarta	-10.8139
▁praeities	-10.814
▁biurokratijos	-10.815
▁pavyzdin	-10.8165
▁Pasaulin	-10.8166
▁nepriklausomą	-10.8169
▁vystymo	-10.8169
▁ilgesn	-10.8177
▁uždraud	-10.8181
▁Neturi	-10.8184
▁planuojama	-10.8185
▁atskirtimi	-10.8186
▁Tuniso	-10.8193
▁teritorijų	-10.8193
▁rekomendaciją	-10.8193
▁keleto	-10.8193
▁numatytų	-10.8199
sistem	-10.8209
▁keleiviams	-10.8221
▁patikimumą	-10.8221
▁rodikliai	-10.8221
▁stabilumas	-10.8221
▁žymiai	-10.8223
▁prekybin	-10.8227
▁mažinimą	-10.8231
▁pasiekiam	-10.8236
▁susitikimui	-10.8236
▁aljans	-10.8246
▁Liberalų	-10.8249
konkurencingumui	-10.8249
▁vartojam	-10.8251
▁ilgas	-10.8251
▁sudėtis	-10.8253
▁aktyvesn	-10.8259
▁EPS	-10.8271
▁Barrot	-10.8277
▁Respublikoje	-10.8277
▁atstovams	-10.8279
lauž	-10.8292
▁ketvirt	-10.8301
▁Austrijos	-10.8305
▁jūrą	-10.8305
▁konferenciją	-10.8305
▁medienos	-10.8305
▁paveldo	-10.8305
▁viziją	-10.8306
▁padirb	-10.8306
▁patikin	-10.8307
▁Baigdama	-10.8309
▁nedideli	-10.8312
▁nuodugniai	-10.8314
▁trošk	-10.8334
▁krypčių	-10.8334
▁minutės	-10.8334
▁prašymų	-10.8334
▁atvejai	-10.8338
▁įgyvendinami	-10.835
▁Nyderlandų	-10.8362
▁elementai	-10.8362
▁obligaci	-10.8362
▁valiuta	-10.8363
▁stiprinimas	-10.8366
▁pasitelkiant	-10.8366
▁gauta	-10.839
▁Haičio	-10.839
▁nesuderinam	-10.8391
▁laivai	-10.8391
▁dienomis	-10.8391
▁Užuo	-10.8401
▁rugpjū	-10.8419
▁skrydžių	-10.8419
▁užkerta	-10.8419
▁vienbalsiai	-10.8419
▁galėdamas	-10.8419
▁pasikeis	-10.8419
▁konfliktą	-10.842
▁sutarimą	-10.842
▁metodų	-10.842
▁organizavimo	-10.842
▁tarpvyriausybin	-10.8421
▁Tikrai	-10.8422
▁pabaig	-10.8422
TV	-10.8423
▁pastaba	-10.8425
▁Region	-10.8444
▁islamo	-10.8447
▁ketveri	-10.8447
▁panaudojimą	-10.8447
▁rodiklius	-10.8447
▁išmetimo	-10.8448
▁vyktų	-10.8448
▁gyvulių	-10.8448
▁patenkina	-10.8448
▁devyni	-10.8448
▁įtaria	-10.8452
▁pakartotinai	-10.8452
išrinkt	-10.8455
politika	-10.8456
▁vykdydam	-10.846
▁centrin	-10.8474
▁knygos	-10.8476
▁suderintą	-10.8476
▁aplinkybių	-10.8476
▁kreipia	-10.8481
ieško	-10.8485
▁nauju	-10.8488
iečiams	-10.8496
▁Arab	-10.85
▁Makedonijos	-10.8505
▁kampanijos	-10.8505
▁kruopščiai	-10.8505
▁balsuojama	-10.8505
▁sesiją	-10.8505
▁vaisių	-10.8505
▁kitokia	-10.8508
▁palankesn	-10.8512
▁ignoruoja	-10.8534
▁būklės	-10.8534
▁sulaikymo	-10.8534
skirstyti	-10.8534
▁sutarimo	-10.8535
▁tiksliau	-10.8536
▁šešėliniams	-10.8538
▁parlamentai	-10.8539
▁atleist	-10.8543
▁kalbėjau	-10.8545
▁neigiamų	-10.8545
▁instituciją	-10.8563
▁nepriklausanči	-10.8563
▁Rusiją	-10.8563
▁idėjų	-10.8563
▁pačiam	-10.8567
▁pavieni	-10.857
▁perduodam	-10.8576
▁atitinkamu	-10.8579
▁atsipraš	-10.8584
▁Apgailestauju	-10.8592
▁pasitikėjimas	-10.8592
▁šiaurės	-10.8592
▁gyvybing	-10.8592
konkurencingumas	-10.8592
▁sektoriai	-10.8593
▁reiškinys	-10.8593
▁žala	-10.8618
▁sugriežtin	-10.8621
▁veiksmingų	-10.8621
▁galvoti	-10.8621
▁gerinant	-10.8621
▁prekės	-10.8622
▁rūšis	-10.865
▁atsisakymo	-10.8666
▁IND	-10.8679
▁azartini	-10.8679
▁jurisdikci	-10.8679
▁koordinavimas	-10.8679
geležin	-10.8679
▁automobiliu	-10.8679
▁trūkumą	-10.8679
▁skolų	-10.8679
▁nvieno	-10.868
▁prižiūri	-10.8685
▁Kubos	-10.8708
▁aspekto	-10.8708
▁draudimas	-10.8708
▁pasidžiaugti	-10.8708
▁įsigaliojimo	-10.8708
▁kritikos	-10.8708
▁suvienodin	-10.8708
▁pareigos	-10.8708
▁ženklą	-10.8709
▁kils	-10.871
▁prievol	-10.8714
▁išmeta	-10.8716
▁patikslin	-10.8738
pažįstu	-10.8738
▁principams	-10.8738
▁supratimą	-10.8738
▁etapas	-10.8738
▁įneš	-10.874
▁draudžiama	-10.8741
▁išleist	-10.8741
▁saugojimo	-10.8743
▁Didži	-10.8744
▁prisimin	-10.8748
▁pereinamojo	-10.8751
▁parėm	-10.8757
▁investavimo	-10.8767
▁pasinaudodam	-10.8767
▁sąžiningą	-10.8767
▁sąžiningo	-10.8767
▁domina	-10.8769
▁vyrauja	-10.8775
▁Malmstr	-10.8797
▁vartojimą	-10.8797
▁Jean	-10.8799
▁atveria	-10.88
▁elektrinės	-10.8804
▁kampaniją	-10.8827
▁padidės	-10.8827
▁signalą	-10.8827
▁apskaitos	-10.8827
▁pastabos	-10.8827
▁Laisv	-10.883
▁svarstymu	-10.8838
▁laivybos	-10.8856
▁atlyginimo	-10.8857
▁priimtu	-10.8877
▁baigiant	-10.8883
▁Konstitucijos	-10.8886
▁koncepcija	-10.8886
▁pavyzdžiai	-10.8886
▁redakcija	-10.8886
▁unikal	-10.8886
▁vandenyse	-10.8886
▁tėvų	-10.8886
▁kalbomis	-10.8887
▁maistą	-10.8887
biudžet	-10.8909
▁vystymasis	-10.8916
▁sutaupyti	-10.8921
▁Artimuosiu	-10.8925
▁šūk	-10.8925
▁reglamentai	-10.8946
▁studentų	-10.8946
▁vizija	-10.8946
▁švelni	-10.8946
▁išvadą	-10.8947
▁konfliktas	-10.8947
▁imtųsi	-10.8949
▁didesniu	-10.8949
▁social	-10.8949
▁teisingumą	-10.8958
▁neigiamai	-10.8965
▁dalyko	-10.8976
▁susidurti	-10.8976
▁balsuoju	-10.8976
▁užteršt	-10.8976
▁liečia	-10.8976
▁bankams	-10.8976
▁nukreip	-10.8977
▁Būdama	-10.898
atsakomyb	-10.8981
▁persvarstymo	-10.8985
▁Barnier	-10.9006
Nabucco	-10.9006
▁apgailėtin	-10.9006
▁programoms	-10.9007
▁atskaitomybės	-10.9007
▁Kioto	-10.9007
▁užsiima	-10.9016
▁turėčiau	-10.9018
▁solidarumu	-10.9037
▁švietimu	-10.9037
▁ESBO	-10.9037
▁Niekas	-10.9037
▁vartoti	-10.9037
▁fil	-10.904
burg	-10.9043
▁socialiai	-10.9044
▁laipsnišk	-10.9045
mokyk	-10.9067
▁raginimu	-10.9067
▁idėjos	-10.9067
▁Irake	-10.9067
▁arenoje	-10.9068
▁kurst	-10.9078
▁energetika	-10.9098
▁išpuolių	-10.9098
▁rekomendacija	-10.9114
▁ilgo	-10.9126
▁mėnesio	-10.9129
▁kūrybišk	-10.9129
▁Tuomet	-10.9133
suvienyt	-10.9153
▁Reglamento	-10.9159
▁kliūtys	-10.9159
▁televizijos	-10.9159
astaraisiais	-10.9159
▁sukurs	-10.916
▁garbing	-10.9165
radikal	-10.9173
GA	-10.918
▁atkreipia	-10.9181
▁išrinkti	-10.9182
▁Suprantu	-10.919
▁dešimtmetį	-10.919
▁pasinaudojant	-10.919
▁įgyvendintos	-10.919
tūri	-10.9192
▁Pasiūlymas	-10.9196
▁šaltiniai	-10.9216
Paslaugų	-10.9221
▁aiškūs	-10.9221
▁ragino	-10.9221
▁išsamesn	-10.9221
▁Regioninės	-10.9225
▁peržiūrą	-10.9251
▁biudžetų	-10.9252
▁vaistai	-10.9252
▁lankstesn	-10.9254
▁sumažina	-10.9277
▁Ateityje	-10.9283
▁eksportuoja	-10.9283
▁subjektai	-10.9283
▁tradicija	-10.9283
▁Pritariau	-10.9283
▁elgiasi	-10.9283
▁įvairūs	-10.9283
▁administracinių	-10.9283
▁Kalbame	-10.9289
▁uždavinių	-10.9289
▁nedaro	-10.9294
finansų	-10.9304
▁auganči	-10.9312
▁apgailestauja	-10.9314
▁jėgą	-10.9314
▁personalo	-10.9314
▁sąskaitų	-10.9314
▁kvotas	-10.9314
▁neįgyvendin	-10.9314
▁normos	-10.9315
dramatišk	-10.9315
▁Toliau	-10.9315
▁teigiamo	-10.932
▁lyginant	-10.9321
▁pažeidžiamiausi	-10.9338
▁žodin	-10.9341
▁pastebėjo	-10.9345
▁srautų	-10.9345
▁Somali	-10.9345
▁eurą	-10.9345
▁gerus	-10.9348
▁prižiūrėti	-10.9352
▁atskleid	-10.9375
▁OLAF	-10.9376
▁Turkijoje	-10.9376
▁kategorija	-10.9376
▁prarado	-10.9376
▁muitinės	-10.9376
▁nuostatą	-10.9377
▁kūrybin	-10.9395
▁Rompuy	-10.9408
▁nevienod	-10.9408
▁Iranas	-10.9408
▁poveikiu	-10.9408
▁milijonus	-10.9409
▁misiją	-10.9409
▁universitetų	-10.9409
▁pranešėjų	-10.9412
▁Tiksl	-10.9421
dėjau	-10.9422
duotų	-10.9423
▁atsinaujin	-10.9424
▁supratimo	-10.9439
▁sąrašo	-10.9439
▁silpna	-10.9446
▁mintį	-10.9454
▁Sutartyje	-10.9471
▁cukraus	-10.9471
▁išsilavinimą	-10.9471
▁panašaus	-10.9471
▁užmegzti	-10.9471
▁Kiniją	-10.9471
▁skundų	-10.9473
▁organizuoja	-10.9474
▁daliai	-10.9475
▁graf	-10.9478
▁aukščiau	-10.9479
▁vykdymą	-10.9479
▁nebegali	-10.9481
▁europini	-10.9496
▁perženg	-10.9503
▁Buvusi	-10.9503
▁migracija	-10.9503
▁išliks	-10.9503
▁stalo	-10.9504
▁neketina	-10.9511
▁metini	-10.9522
General	-10.9531
▁beprasm	-10.9535
▁subalansuota	-10.9535
▁tarnybą	-10.9535
▁integruotą	-10.9535
▁reikalavimo	-10.9535
▁Korėja	-10.9535
▁apibrėžia	-10.9535
▁apsilank	-10.9535
▁ženklų	-10.9535
▁Kriz	-10.9539
▁juk	-10.9539
▁pikt	-10.9541
▁Bendrosios	-10.9548
▁konkrečiu	-10.9553
▁pagrįstu	-10.9566
▁pagyvenusi	-10.9566
▁pilietis	-10.9566
▁konstatuojam	-10.9566
▁sustabdytas	-10.9567
▁pašto	-10.9567
▁baudžiamosios	-10.9576
▁klaiding	-10.9577
▁atsiskait	-10.9577
▁konkurencinga	-10.9581
▁ūkiu	-10.9583
▁Finansin	-10.9599
▁Klimato	-10.9599
▁signalas	-10.9599
▁įspūdį	-10.9599
▁laikytųsi	-10.9599
▁įsipareigoję	-10.96
▁mirtin	-10.9621
▁Ukrainoje	-10.9631
▁koordinator	-10.9631
▁padidėjusi	-10.9631
▁grįžta	-10.9633
▁Tunise	-10.9663
▁anksti	-10.9663
▁pasiruošę	-10.9663
▁kelyje	-10.9663
▁Pateikt	-10.9688
▁konkretūs	-10.9695
▁trečiadienį	-10.9695
▁užsibrėžt	-10.9696
▁privala	-10.9703
▁prisitaik	-10.9703
▁tvirtinimas	-10.9703
▁liberali	-10.9708
▁būdai	-10.9721
▁tinkamiausi	-10.9726
▁netiesiogiai	-10.9728
▁pasitenkin	-10.9728
▁popierių	-10.9728
▁knyga	-10.9728
▁nevykd	-10.9728
▁stambi	-10.9746
▁įkvėp	-10.976
▁elgiamasi	-10.976
▁sudėtingesn	-10.976
▁radijo	-10.976
▁aplinkybės	-10.9762
▁išsiųst	-10.9779
▁agentūrą	-10.9793
▁nuosmukio	-10.9793
▁ryšys	-10.9793
▁strategijų	-10.9793
▁viršūnių	-10.9793
▁penkt	-10.9793
▁pažymėjo	-10.9793
▁administracinės	-10.9794
▁kreipiuosi	-10.9794
▁atstum	-10.9794
▁atskleidžia	-10.9794
▁džiaugtis	-10.9797
▁Gruzijoje	-10.9826
▁Pakistane	-10.9826
▁palaipsniui	-10.9826
▁reikalingu	-10.9826
▁gebėjimą	-10.9826
▁organizacijomis	-10.9826
▁norėdama	-10.9826
▁dėka	-10.9827
▁priešingu	-10.9832
▁derybin	-10.985
▁apytikriai	-10.9859
▁poreikiams	-10.9859
▁iškyla	-10.9859
▁įvykti	-10.9859
▁gelbė	-10.9859
▁technologijomis	-10.9862
▁vokieči	-10.9863
▁atsakingo	-10.9866
▁išsakyta	-10.9867
▁išvada	-10.9872
▁Gvantanamo	-10.9892
▁etiket	-10.9892
▁klient	-10.9895
▁atvirą	-10.9897
moral	-10.9898
▁paprastesn	-10.9903
organizaci	-10.9917
▁pastangoms	-10.9925
▁sąnaudos	-10.9925
▁Teigiama	-10.9925
▁atsakymų	-10.9925
▁suaugusi	-10.9926
▁galvoja	-10.9926
▁rizikuoja	-10.9928
▁ministre	-10.9929
▁mėsos	-10.9933
▁konkuren	-10.9941
▁potvynių	-10.9958
▁sąžiningu	-10.9958
▁balsas	-10.9958
▁lankstumą	-10.9958
▁viltį	-10.9958
▁2050	-10.9961
federaci	-10.9961
▁žengia	-10.9984
▁Izraeliu	-10.9991
▁referendumą	-10.9991
▁tranzito	-10.9991
▁Palaikau	-10.9991
▁konserv	-10.9991
▁gaivalin	-10.9991
▁viltis	-10.9992
▁priklausomybės	-10.9992
▁atitinkanči	-10.9992
▁nutiko	-10.9992
▁Japonija	-11.0025
▁Septint	-11.0025
▁Strategij	-11.0025
▁inicijuot	-11.0025
▁paplitusi	-11.0025
▁faktai	-11.0025
▁parlamentas	-11.0026
▁Ilg	-11.0027
▁noras	-11.003
▁išgirs	-11.0033
▁1990	-11.0058
▁PNR	-11.0058
▁greičiausiai	-11.006
suvarž	-11.0069
▁nuoširdži	-11.0073
▁gamtin	-11.008
▁MERCOSUR	-11.0092
▁Makedonija	-11.0092
▁kraštutin	-11.0092
▁populiar	-11.0092
▁stovyklos	-11.0092
▁esamus	-11.0092
▁skurde	-11.0093
▁apmoka	-11.0093
▁kilę	-11.0093
▁ketinu	-11.0104
▁miestuose	-11.0126
▁patikimumo	-11.0126
▁avarijos	-11.0126
▁nesutinku	-11.0126
▁priimtą	-11.0126
▁sistemoms	-11.0126
program	-11.0127
▁mažinimu	-11.0129
▁Karibų	-11.016
▁perkėlimas	-11.016
▁teisėtumo	-11.016
▁nebėra	-11.016
▁vengrų	-11.016
▁nustatytą	-11.016
▁Politin	-11.0162
▁stoka	-11.0162
▁pageidaut	-11.0194
▁Neturėtum	-11.0194
▁emisijų	-11.0194
▁europiečiams	-11.0194
▁sąjungą	-11.0194
▁taršą	-11.0194
▁Vietoj	-11.0194
▁malon	-11.02
▁tarša	-11.0215
▁1999	-11.0228
▁elementu	-11.0228
▁Norėtume	-11.0228
▁komisijos	-11.0228
▁tėvai	-11.0228
▁pažangioj	-11.0231
▁prieiga	-11.0239
▁Centrinė	-11.0248
▁Sacharos	-11.0262
▁iššūkį	-11.0262
▁prevenciją	-11.0262
▁Ramiojo	-11.0262
▁gelbėjimo	-11.0264
▁negalėsime	-11.0267
▁praktišk	-11.0273
▁įšald	-11.0276
▁sutaup	-11.0291
▁chartiją	-11.0296
▁pavojingo	-11.0296
▁pilietybės	-11.0296
▁aklaviet	-11.0296
▁dešimtmečio	-11.0296
▁patikimą	-11.0298
▁Didžiausi	-11.0301
▁įstatymu	-11.0304
▁nustatyto	-11.0307
▁trūkumai	-11.0331
▁civilių	-11.0331
▁Pranešėjas	-11.0331
▁bevizi	-11.0339
▁išvyst	-11.034
▁draugišk	-11.0362
▁centras	-11.0366
▁ignoruoti	-11.0366
▁paaiškinimai	-11.0366
▁pražūting	-11.0366
▁vystomojo	-11.0366
▁2014	-11.0366
▁mokėtojai	-11.0366
▁prievartos	-11.0366
▁globalizacija	-11.0366
grieb	-11.0367
▁prisimena	-11.0367
▁sieną	-11.0369
Parlamentas	-11.0369
krečia	-11.0371
rašyta	-11.0395
▁medžiagas	-11.04
▁pensiją	-11.04
▁racionali	-11.04
▁teiginiu	-11.0404
▁žemesn	-11.0405
paprast	-11.0432
▁patobulint	-11.0434
▁modifikuot	-11.0435
▁didžiuotis	-11.0435
▁stokos	-11.0435
važiuo	-11.0439
pirmininkaujanči	-11.0468
▁korupcijos	-11.047
▁prioritetą	-11.047
▁statistika	-11.047
▁reagavimo	-11.047
▁pirmininkavusi	-11.047
▁konkrečią	-11.0471
▁Angli	-11.0471
▁atsargų	-11.0471
ekonomikos	-11.0475
▁prisiima	-11.0478
netikėt	-11.0488
laikytų	-11.0497
▁Maist	-11.0502
▁byloja	-11.0505
▁vasarą	-11.0505
▁raginimą	-11.0505
▁tuberkulioz	-11.0505
▁įsigyti	-11.0505
▁euras	-11.0505
▁sumažės	-11.0506
▁verg	-11.0515
▁bandymų	-11.054
▁liberalizuot	-11.0541
▁tikslinga	-11.055
▁papildomo	-11.0564
▁konsultacijas	-11.0576
▁rudenį	-11.0576
▁Žuvininkystė	-11.0576
▁raginti	-11.0576
▁ligomis	-11.0576
▁Rehn	-11.0577
▁nedarbu	-11.0581
▁visapusiško	-11.0602
▁Naujoj	-11.0605
▁kvalifikacijų	-11.0611
▁nesibaig	-11.0611
▁nusikalstamumo	-11.0611
▁pareikalauti	-11.0611
▁vilties	-11.0611
▁kviet	-11.0612
pažanga	-11.0619
▁mastas	-11.0624
▁konsultacijos	-11.0647
▁tunų	-11.0648
▁turinys	-11.0651
nacionalin	-11.0653
▁žalinga	-11.0654
▁užpild	-11.0656
▁Balkanuose	-11.0682
▁susigrąžin	-11.0682
▁įspūdis	-11.0682
▁Remdamasi	-11.0682
▁nesugeba	-11.0682
▁išmetimą	-11.0683
▁intervencijos	-11.0683
▁pasitikėti	-11.0683
▁Kyla	-11.0683
▁susipažin	-11.0692
įkalin	-11.0709
AIDS	-11.0718
▁efektyvumas	-11.0718
▁trokšta	-11.0718
▁GMO	-11.0718
▁sąžiningi	-11.0718
▁kainomis	-11.0719
▁besąlygišk	-11.072
▁neteko	-11.0722
▁skatinanči	-11.0724
▁sveika	-11.0726
▁taisom	-11.0729
akivaizdži	-11.0735
▁noru	-11.0742
▁gyvybių	-11.0754
▁stengiamės	-11.0754
▁įstaiga	-11.0754
▁Danijos	-11.0754
▁staiga	-11.0754
▁subsidijas	-11.0754
▁kvotos	-11.0754
ininkas	-11.0758
▁paskata	-11.0758
▁rezultato	-11.079
▁sudėtingų	-11.079
▁įvykis	-11.079
▁gražu	-11.0791
▁pastarojo	-11.0791
▁nuoroda	-11.0791
▁mažmenin	-11.0811
▁Turkiją	-11.0827
▁sluoksni	-11.0827
▁vėžio	-11.0827
▁Tautos	-11.0827
▁įranga	-11.0828
▁ženklu	-11.0846
▁Dublino	-11.0863
▁moratorium	-11.0863
▁nepatenkin	-11.0863
▁Gazoje	-11.0863
▁paaiškina	-11.0863
▁graži	-11.0865
▁mėlynąj	-11.087
▁pasakyt	-11.0873
kontrol	-11.0874
▁įgij	-11.0895
▁efektyvaus	-11.0899
▁kategorijos	-11.0899
▁kodekso	-11.0899
▁operatyv	-11.0899
▁sąlygoms	-11.09
▁išimčių	-11.09
▁tvarumą	-11.09
▁nesiekia	-11.0915
▁žvelgia	-11.0916
▁neoliberali	-11.0917
▁reaguo	-11.092
▁Atsižvelgdami	-11.0936
▁deklaracija	-11.0936
▁pacientai	-11.0936
▁pažiūrų	-11.0936
▁perdirbimo	-11.0936
▁piktnaudžiavimo	-11.0936
▁propaguoja	-11.0936
▁tragedija	-11.0936
▁verslas	-11.0936
▁įlankos	-11.0936
▁neoficiali	-11.0936
▁logiška	-11.0941
▁dolerių	-11.0973
▁užimtumas	-11.0973
▁vartojimas	-11.0973
▁mokestini	-11.0974
front	-11.0974
▁narystei	-11.0975
▁Konstitucini	-11.0984
prašau	-11.0986
sieja	-11.1
▁Libijoje	-11.101
▁apkaltin	-11.101
▁uostuose	-11.101
Erasmus	-11.101
▁žvejybą	-11.101
▁praktikoje	-11.101
▁statusas	-11.101
▁atspar	-11.1011
▁mainai	-11.1012
▁pagrindai	-11.1015
tiesioginių	-11.1043
▁Kultūros	-11.1047
▁Verheugen	-11.1047
▁imigraciją	-11.1047
▁saviraiškos	-11.1047
▁autobusų	-11.1047
▁pozicijų	-11.1047
▁liautis	-11.1047
▁trims	-11.1048
▁Bulgarijoje	-11.1084
▁atkreipdėmesį	-11.1084
▁produktas	-11.1084
▁tarpinstitucini	-11.1084
▁teritorinės	-11.1084
fundamental	-11.1084
▁apgaul	-11.1084
▁jūrin	-11.1085
grupuot	-11.1104
EIVT	-11.1121
▁alternatyvų	-11.1121
▁popietę	-11.1121
▁perdavimas	-11.1122
▁nusikaltimas	-11.1122
▁Išorė	-11.1133
▁uždaviniai	-11.1136
▁Latvijos	-11.1159
▁Slovakija	-11.1159
▁slėp	-11.1159
▁dydis	-11.1159
▁pasirenka	-11.1159
▁Lyg	-11.1159
▁tikrinimo	-11.1159
▁tautinių	-11.116
▁iškastini	-11.1166
▁plačia	-11.1189
instrument	-11.1196
▁abejing	-11.1196
▁keleiviai	-11.1196
▁nuostolius	-11.1196
▁vaidmeniu	-11.1196
▁nebaig	-11.1197
▁vilkin	-11.1198
▁valdanči	-11.1233
▁materiali	-11.1234
▁palestiniečių	-11.1234
▁Gaila	-11.1234
▁reklama	-11.1234
▁aktyvų	-11.1236
skirstymo	-11.1255
▁Alzheimerio	-11.1272
▁bananų	-11.1272
▁panaudojimas	-11.1272
▁registrą	-11.1272
sipiktin	-11.1272
▁modernizuoti	-11.1273
▁ateinančiais	-11.1273
▁orumą	-11.1274
▁pataisa	-11.1297
▁Lisabonoje	-11.131
▁knygą	-11.131
▁nusipeln	-11.1313
▁homoseksual	-11.1348
▁sertifikav	-11.1348
▁tėvyn	-11.1348
▁Bosnijos	-11.1348
▁sistemomis	-11.1348
▁nuteist	-11.1348
▁susidurs	-11.1358
socialist	-11.1376
▁padalin	-11.1377
▁Juodkalnija	-11.1386
▁Nuoširdžia	-11.1386
▁vartotojui	-11.1386
▁mobilumo	-11.1387
▁administracijos	-11.1425
▁operatorių	-11.1425
▁universal	-11.1425
▁naikinimo	-11.1425
▁ginklus	-11.1425
▁neįgaliųjų	-11.1425
▁varžy	-11.1427
▁perkeliam	-11.1451
▁visapusiška	-11.146
▁konkreti	-11.1464
▁gaisrų	-11.1464
▁kritikuoti	-11.1464
▁veiksmingumas	-11.1464
▁apdair	-11.1464
▁kontr	-11.1464
▁požiūriai	-11.1464
▁Tvirta	-11.1465
▁mašin	-11.1466
▁manimi	-11.1467
▁skolini	-11.1469
▁apraš	-11.1469
▁perkam	-11.1493
▁aplinkybėms	-11.1502
▁deklaracijos	-11.1502
▁konkretaus	-11.1502
▁procedūrin	-11.1502
▁reprodukcin	-11.1502
▁apsirūpinim	-11.1502
▁pastarąsias	-11.1502
▁nesėkming	-11.1504
▁antrasis	-11.1505
▁įkait	-11.1525
▁Treči	-11.1533
▁Islandijos	-11.1541
▁Kosove	-11.1541
▁inovacijos	-11.1541
▁stebėseną	-11.1541
▁aiškaus	-11.1541
▁kebl	-11.1541
▁Negaliu	-11.1541
▁ženklo	-11.1542
▁patentų	-11.1543
▁procesų	-11.1544
▁registruot	-11.1579
▁girdime	-11.158
▁išnaudojimo	-11.158
▁situacijoje	-11.158
▁truputį	-11.158
▁ŽIV	-11.158
▁įnašas	-11.158
▁bylų	-11.158
▁moters	-11.158
▁neveikia	-11.1583
▁paspartin	-11.1593
▁Finansų	-11.162
▁ombudsmenas	-11.162
▁rūpestis	-11.162
▁tapatybės	-11.162
▁pažadėjo	-11.162
▁etapo	-11.162
▁dalyvavusi	-11.162
▁Neabejotina	-11.162
▁Michel	-11.162
▁dalyku	-11.164
▁įtempt	-11.1642
▁konkretus	-11.1659
▁nusiteikę	-11.1659
▁vertybėms	-11.1659
▁išsamus	-11.1659
▁Maroko	-11.1659
▁Reikala	-11.1659
▁administracinę	-11.1659
▁Vaik	-11.1681
▁pertrauk	-11.1691
▁metr	-11.1691
▁Dažnai	-11.1698
▁Energij	-11.1698
▁mitybos	-11.1698
▁mokslininkų	-11.1698
▁mažumoms	-11.1698
▁pasiūlytą	-11.1699
▁viršenyb	-11.17
▁tenkina	-11.1702
finansin	-11.1721
▁reikalu	-11.1727
▁maitin	-11.1732
▁imigrantai	-11.1738
▁kenksming	-11.1738
▁vietoms	-11.1738
▁atskaiting	-11.1738
▁laikymąsi	-11.1738
▁išimties	-11.1739
▁sumažinimas	-11.1739
▁atsakingu	-11.1746
▁Lietuva	-11.1778
▁taškas	-11.1778
▁ketinimų	-11.1778
▁atlyginimų	-11.1778
▁pasinaudos	-11.1778
▁sugebėti	-11.1779
▁formą	-11.1779
▁padėsianči	-11.1791
▁atidėjim	-11.1798
▁priimanči	-11.1814
▁Siūlom	-11.1818
▁automatiškai	-11.1818
▁investicini	-11.1818
▁nagrinėjimo	-11.1818
▁Bosnija	-11.1818
▁prieštaravimų	-11.1818
▁rodiklių	-11.1818
▁keitimas	-11.1818
aldner	-11.1818
▁nekalbant	-11.1818
▁duris	-11.1822
▁vadinamąj	-11.1841
▁dėkinga	-11.1841
▁karšt	-11.1847
▁peržiūrėt	-11.1855
▁Direktyvą	-11.1858
▁drebėjimo	-11.1858
▁gebėjimų	-11.1858
▁veidmaini	-11.1858
▁Kaul	-11.1873
▁Ferrero	-11.1898
IFT	-11.1898
▁farmacijos	-11.1898
▁gėdinga	-11.1898
▁įrangą	-11.1898
▁laikymosi	-11.1898
▁suklastot	-11.1898
▁sukaupt	-11.1899
▁išgelbėti	-11.1899
▁atviri	-11.1902
▁sveiko	-11.191
▁iškreip	-11.1917
▁aplinkosaugin	-11.193
▁padrąsin	-11.1939
▁sąraše	-11.1939
▁automobiliai	-11.1939
▁plečia	-11.1939
▁išlaidoms	-11.1939
▁minėtą	-11.1957
▁sutrumpin	-11.198
▁Meksikos	-11.198
▁delegacijų	-11.198
▁pozityvi	-11.198
▁įgūdžius	-11.198
▁krypties	-11.198
▁taryboje	-11.198
▁kūno	-11.198
▁motyvu	-11.198
▁amžių	-11.198
▁užmojų	-11.198
▁užtruk	-11.198
▁sugrįžti	-11.198
▁uosto	-11.1981
▁šeimin	-11.1985
▁formul	-11.2004
▁pamatini	-11.2019
▁deklaraciją	-11.202
▁protekcionizmo	-11.202
▁konfliktai	-11.2024
▁biurokratini	-11.203
▁biuro	-11.2061
▁Drambli	-11.2061
▁atvirkščiai	-11.2061
▁rodiklis	-11.2061
▁paskolas	-11.2061
▁šešt	-11.2062
▁tikroji	-11.2062
▁laikėsi	-11.2063
▁nugalė	-11.2065
▁skurdži	-11.2091
▁Rašytiniai	-11.2102
▁pavyktų	-11.2102
▁plačiajuosči	-11.2102
▁precedento	-11.2102
▁priežastimi	-11.2102
▁vaidina	-11.2103
▁pasitikėjimu	-11.2103
▁Obama	-11.2103
vėž	-11.212
▁puiku	-11.2131
▁Barselonos	-11.2144
▁Vystymosi	-11.2144
▁centrai	-11.2144
▁grūdų	-11.2144
▁referendumu	-11.2144
▁struktūrų	-11.2144
▁susitikimuose	-11.2144
▁ginklai	-11.2144
▁viešąj	-11.2155
▁Islandija	-11.2185
▁Kaukazo	-11.2185
▁eksploatavimo	-11.2185
▁išpuolius	-11.2185
▁konservatorių	-11.2185
▁kritiką	-11.2185
▁nebaudžiam	-11.2185
▁nepageidaujam	-11.2185
▁atsargūs	-11.2185
▁panaudojant	-11.2186
▁atgras	-11.2186
▁sunkų	-11.2186
▁naikina	-11.2187
▁įvesta	-11.2199
▁sužlugd	-11.2227
▁deleguot	-11.2227
▁knygoje	-11.2227
▁posėdis	-11.2227
▁premijos	-11.2227
▁susidomėjimą	-11.2227
▁sutuoktini	-11.2227
▁investuotojų	-11.2227
▁pakete	-11.2228
▁orumo	-11.2229
▁ginčytin	-11.223
▁sudaranči	-11.2238
▁Brok	-11.2239
▁Albanijos	-11.2269
▁aprūpint	-11.2269
▁punktą	-11.2269
▁pasinaudojo	-11.2269
▁neatsakinga	-11.2269
▁alkohol	-11.2301
▁optimist	-11.2311
▁konvergencijos	-11.2311
▁pareikalavo	-11.2311
▁skaičiui	-11.2311
▁vyrams	-11.2311
▁sunaikinti	-11.2312
▁nepadės	-11.2319
▁nesėkmė	-11.2323
▁įgyvendinus	-11.2324
konsultuoja	-11.2336
▁privatumo	-11.2353
▁stabilizavimo	-11.2353
▁sukrėt	-11.2353
▁atsitikimų	-11.2353
▁Merkel	-11.2353
▁naudingą	-11.2353
▁viršutin	-11.2356
▁vaising	-11.2357
▁procesai	-11.2359
▁nekreip	-11.2383
▁įkurta	-11.2383
▁asamblėjos	-11.2395
▁žlugimo	-11.2395
▁žmonijos	-11.2395
▁suderinimas	-11.2395
▁praleist	-11.2429
▁Amerikoje	-11.2438
▁kalėjime	-11.2438
▁pasiryžimą	-11.2438
▁sektoriumi	-11.2438
▁suvartoja	-11.2438
▁konkurencingesn	-11.2439
▁Nuolat	-11.2441
tikromis	-11.248
▁Rezoliucijoje	-11.2481
▁konservatoriai	-11.2481
▁svetainė	-11.2481
▁užduočių	-11.2481
▁vasaros	-11.2481
▁neįvykd	-11.2481
▁pablogin	-11.2481
▁svajon	-11.2481
▁įgyvendintų	-11.2481
slepia	-11.2482
▁Londone	-11.2524
▁Sacharovo	-11.2524
▁Švedijoje	-11.2524
▁nedelsdama	-11.2524
▁absoliučiai	-11.2524
▁sugriaut	-11.2524
▁Manuel	-11.2527
▁įkalint	-11.2533
▁Balsuot	-11.2554
▁konfidencial	-11.2567
▁laivams	-11.2567
▁įtampą	-11.2567
▁Amerika	-11.2567
▁lygmenį	-11.2567
▁dešiniųjų	-11.2567
▁programomis	-11.2567
▁administracines	-11.2567
▁Atėj	-11.2568
▁mėnesin	-11.2576
Taryba	-11.2605
▁ambicinga	-11.261
▁santykin	-11.261
▁šešeri	-11.261
▁žingsniai	-11.261
▁efektyvumu	-11.261
▁prasidėjus	-11.261
▁Azijoje	-11.261
▁pasidalyti	-11.261
▁sugeba	-11.261
▁kairieji	-11.261
▁trunka	-11.2623
▁pasirašiusi	-11.2634
▁nedviprasmišk	-11.2653
▁emisijos	-11.2654
▁Bendrijoje	-11.2654
▁klaidos	-11.2654
▁pradžią	-11.2654
▁kertini	-11.2655
▁mainų	-11.2655
▁netaikoma	-11.2657
▁pavard	-11.2658
▁perversm	-11.2679
▁agresyv	-11.2697
▁diagnoz	-11.2697
▁standartin	-11.2697
▁užmokestį	-11.2697
▁prilygsta	-11.2697
▁Tajani	-11.2697
▁ketinimus	-11.2697
▁statyba	-11.2702
investuo	-11.2719
▁nuošird	-11.2735
▁atostogas	-11.2741
▁išsilavinimo	-11.2741
▁kompensavimo	-11.2741
▁nusikaltėliai	-11.2741
▁pasiruošusi	-11.2741
▁patikimumas	-11.2741
▁dalyvavau	-11.2741
▁baigiasi	-11.2741
▁matydama	-11.2748
▁JungtinKaralyst	-11.2762
▁kiaul	-11.2763
▁abiej	-11.2784
socialin	-11.2785
▁Japonijoje	-11.2785
▁Reglamentą	-11.2785
▁sąrašu	-11.2785
▁džiaugiasi	-11.2785
▁kirt	-11.2792
▁Konvencijos	-11.2829
▁Slovakijoje	-11.2829
▁pavasarį	-11.2829
▁procentin	-11.2833
▁ribin	-11.2863
▁atsakydama	-11.2867
rizikuo	-11.2869
▁Juodkalnijos	-11.2874
▁pakomentuoti	-11.2874
▁reakcijos	-11.2874
▁paskatų	-11.2874
▁išvardyt	-11.288
skaldy	-11.2889
▁pasveikin	-11.2894
dvigub	-11.2918
▁Centrini	-11.2918
/2006	-11.2918
▁Energetikos	-11.2918
▁gydymą	-11.2918
▁keitimąsi	-11.2918
▁palydovin	-11.2918
▁raginimas	-11.2918
▁ryžtingų	-11.2918
▁lobistų	-11.2918
▁laikysis	-11.2919
▁išlaidomis	-11.2919
kreipti	-11.2945
naudotų	-11.2954
augelyje	-11.2956
▁atsispindi	-11.2963
▁biodegalų	-11.2963
▁leidybos	-11.2963
▁Šveicarijos	-11.2963
▁džiugu	-11.2963
▁internetin	-11.2964
▁terorizmą	-11.3008
▁įnašą	-11.3008
▁perkėlimą	-11.3008
skaitant	-11.3011
▁siaur	-11.3012
▁pasižymi	-11.3012
krypt	-11.3053
▁kilmę	-11.3054
▁klastojimu	-11.3054
▁Derybos	-11.3054
▁gamintojus	-11.3054
▁gyvybes	-11.3054
▁gėda	-11.3054
▁veiksmingi	-11.3074
▁asmeniui	-11.3099
▁didžiuojuosi	-11.3099
▁ištekliams	-11.3099
▁riziking	-11.3099
▁dalyviams	-11.3099
▁BLS	-11.3101
▁septyneri	-11.3145
sunkvežim	-11.3145
▁apsispręsti	-11.3145
▁filosof	-11.3145
▁kliūtimi	-11.3145
▁kompetentinga	-11.3145
▁spektro	-11.3145
▁neliečia	-11.3145
▁priimdami	-11.3145
▁Daugeliu	-11.3145
▁trejų	-11.3145
▁neribot	-11.3145
▁suvestin	-11.316
▁Graikiją	-11.3191
▁nepastebė	-11.3191
▁skausming	-11.3191
▁atsikratyti	-11.3191
▁neteisėtą	-11.3191
▁kiekvienu	-11.3191
▁reikalavimu	-11.3192
▁kenk	-11.3203
BUSP	-11.3237
▁Coelho	-11.3237
▁nukenčia	-11.3237
▁punkto	-11.3237
▁Haityje	-11.3237
▁atsargumo	-11.3237
▁įgyvendindami	-11.3237
▁tariamai	-11.3237
▁atminti	-11.324
▁Mokslini	-11.3257
▁SOLVIT	-11.3283
▁infliacijos	-11.3283
▁nuoseklumą	-11.3283
▁orientacijos	-11.3283
▁sąvokos	-11.3283
▁žuvies	-11.3283
▁momentu	-11.3283
▁sprendimams	-11.3283
▁dalyvavimu	-11.3285
▁išraiška	-11.3285
▁nustatanči	-11.3298
skolint	-11.3301
▁avarijų	-11.3329
▁ekstremali	-11.3329
▁pavojingi	-11.3329
▁prieglobstį	-11.3329
▁supratau	-11.3329
▁punktai	-11.3329
▁ilgainiui	-11.3329
▁socialistai	-11.333
▁Nepamirškime	-11.3376
▁narkotikais	-11.3376
▁neapibrėžt	-11.3376
▁nežinau	-11.3376
▁nubausti	-11.3376
▁prasidės	-11.3376
▁leidėjai	-11.3376
▁vaidinti	-11.3376
▁poreikiu	-11.338
▁Prekybos	-11.3423
▁izoliuot	-11.3423
▁kiltų	-11.3423
▁žymėjimo	-11.3423
▁balsai	-11.3423
▁numatytą	-11.3424
▁nepateisina	-11.3425
▁kvail	-11.3427
▁artėjanči	-11.3455
▁Tikėkimės	-11.347
▁neprieštarauja	-11.347
▁pasikliauti	-11.347
▁stereotip	-11.347
▁vartotojo	-11.347
▁minutę	-11.347
▁tautybės	-11.347
▁mokėtojams	-11.347
▁ypatyb	-11.347
▁Bendrijų	-11.347
▁didės	-11.3471
▁tank	-11.3477
▁kviečia	-11.3493
▁nepanaudot	-11.3504
▁dominuoja	-11.3518
▁dujotiekio	-11.3518
▁lūkesčių	-11.3518
▁pabėgėliai	-11.3518
▁balsuojame	-11.3518
▁sumenkin	-11.3518
▁kainoms	-11.3518
▁Visuotin	-11.3527
tvirtino	-11.3541
▁Smulkioj	-11.3565
▁specialų	-11.3565
▁strategiškai	-11.3565
▁viduryje	-11.3565
▁žlugo	-11.3565
▁minučių	-11.3565
▁funkciją	-11.3565
▁aplank	-11.3566
▁liktų	-11.3566
▁Savaim	-11.3569
-2013	-11.3612
▁pavaduotojo	-11.3613
▁Nyderlanduose	-11.3613
▁Reglamentas	-11.3613
▁drabuži	-11.3613
▁pasiryžę	-11.3613
▁referendumas	-11.3613
▁skubos	-11.3613
▁reagavo	-11.3613
▁nustačius	-11.3613
▁toleruoti	-11.3613
▁valiutą	-11.3613
▁bandymai	-11.3613
▁komisija	-11.3613
▁pažadėt	-11.362
▁išleidžiam	-11.3622
▁biometrini	-11.3661
▁išpuoliai	-11.3661
▁širdies	-11.3661
▁žiniasklaidoje	-11.3661
▁Rytoj	-11.3661
▁balsuodami	-11.3661
▁išnaudojam	-11.3665
reikalauja	-11.3671
trumpas	-11.3681
▁Centr	-11.3681
▁centralizuo	-11.3691
▁Moterys	-11.371
▁centrą	-11.371
▁darbdavių	-11.371
▁komitetai	-11.371
▁kompensacijos	-11.371
▁pasiryžusi	-11.371
▁pensijos	-11.371
▁psichologin	-11.371
▁subjektams	-11.371
▁terorizmas	-11.371
▁palinkėti	-11.371
▁prekėmis	-11.371
▁parlamentar	-11.371
▁Patvirtin	-11.3711
▁numatytu	-11.372
▁išsiaiškin	-11.3732
▁(142	-11.3758
▁Gaddafi	-11.3758
▁daržovių	-11.3758
▁atrankos	-11.3758
▁peticijų	-11.3758
▁vėžiu	-11.3758
organizuo	-11.3769
▁įvardyt	-11.377
▁Karalyst	-11.3783
▁Mugabe	-11.3807
▁Pakistanu	-11.3807
▁diskusijomis	-11.3807
▁dvasią	-11.3807
▁krovinini	-11.3807
▁nesuprantu	-11.3807
▁Šveicarija	-11.3807
▁geopolitin	-11.3807
▁nekantriai	-11.3807
▁įsiskolin	-11.3807
▁savitarpi	-11.3809
nčioji	-11.3833
kapitalistin	-11.3842
▁pagrįstų	-11.3856
▁tragedijos	-11.3856
▁išliktų	-11.3856
▁leidėjų	-11.3856
▁įsigaliojo	-11.3856
▁reikmėms	-11.3856
▁Libija	-11.3856
▁prekėms	-11.3856
▁kategorišk	-11.3905
▁Frattini	-11.3905
▁Lietuvoje	-11.3905
▁dėkingi	-11.3905
▁kodeksą	-11.3905
▁komunikato	-11.3905
▁srautus	-11.3905
▁nebuvimas	-11.3905
▁pirmadienį	-11.3905
▁migraciją	-11.3905
▁teisėtumą	-11.3905
▁skaidrumu	-11.3905
▁Laimei	-11.3905
▁buvein	-11.3907
▁stiprinimu	-11.3909
▁neįprast	-11.3917
▁Darbuotoj	-11.3955
▁Direktyvoje	-11.3955
▁privatumą	-11.3955
▁gyvybei	-11.3955
▁užsitęs	-11.3955
▁uostai	-11.3955
▁nuostabi	-11.3955
▁pasenusi	-11.3959
▁ruož	-11.3999
▁konkrečiom	-11.4
▁komentarus	-11.4004
▁readmisijos	-11.4004
▁transeuropini	-11.4004
▁tėvystės	-11.4004
▁pastebėjim	-11.4004
▁galvoju	-11.4004
▁tuščia	-11.4004
▁organizacijoje	-11.4004
▁antrosios	-11.4004
▁griauna	-11.4005
▁bausti	-11.4005
▁Demokrat	-11.4009
▁USD	-11.4054
▁kompensaciją	-11.4054
▁pokyčiams	-11.4054
▁recept	-11.4054
socialdemokratai	-11.4055
▁įrodymai	-11.4055
▁kerta	-11.4055
▁intelektin	-11.4085
▁įvairiausi	-11.4088
▁Anksčiau	-11.4105
▁Belgijoje	-11.4105
▁asociacijų	-11.4105
▁koncepciją	-11.4105
▁sąvoką	-11.4105
▁EFD	-11.4105
▁antradienį	-11.4105
▁totalitarini	-11.4105
▁vartotojas	-11.4105
▁mobilizuoti	-11.4105
▁atstovauju	-11.4105
▁frakcijoje	-11.4105
▁skolą	-11.4105
▁penkiolik	-11.4108
▁Valstijas	-11.4155
▁pasidalijimo	-11.4155
▁protekcionistin	-11.4155
▁rimčiau	-11.4155
▁skursta	-11.4155
▁iniciatyvoms	-11.4155
▁skubu	-11.4157
▁Konkreči	-11.4158
Persijos	-11.4165
▁Hercegovina	-11.4206
▁Sovietų	-11.4206
▁byloje	-11.4206
▁gavybos	-11.4206
▁komitologijos	-11.4206
▁lėktuvų	-11.4206
▁operatoriams	-11.4206
▁prieinamumą	-11.4206
▁nurodytos	-11.4206
▁realistišk	-11.421
diskusija	-11.4224
▁atžvilgiais	-11.4257
▁nedelsdami	-11.4257
▁Stream	-11.4257
▁išsamaus	-11.4257
▁lankstumas	-11.4257
▁išbandymas	-11.4257
▁Iranu	-11.426
▁nepilnamečių	-11.4308
▁įspūding	-11.4308
▁pastarąjį	-11.4308
▁avarija	-11.4308
▁nesusiję	-11.4308
▁padėtume	-11.4308
išgelbė	-11.4308
▁navigacijos	-11.436
▁nuosmukį	-11.436
▁subalansuotą	-11.436
▁tikėkimės	-11.436
▁Škotijos	-11.436
▁pažadų	-11.436
▁paskolos	-11.436
▁plėtojimo	-11.436
Inovacij	-11.4364
▁antrašt	-11.4366
▁dviej	-11.4368
▁advokat	-11.4412
▁eksportuoti	-11.4412
▁dešimtmetyje	-11.4412
▁gavėjų	-11.4412
▁papasako	-11.4412
▁gaisrai	-11.4412
▁pasireišk	-11.4412
▁vyrus	-11.4412
▁fraz	-11.4412
▁atsigavimo	-11.4412
▁rumun	-11.4412
▁solidari	-11.4412
▁valiutų	-11.4412
▁akademin	-11.4464
▁atliekos	-11.4464
▁balsavime	-11.4464
▁investuotojams	-11.4464
▁kompromisų	-11.4464
▁okupuot	-11.4464
▁srautai	-11.4464
▁tarnyboms	-11.4464
▁kosmoso	-11.4464
▁balsą	-11.4464
▁žuvininkyst	-11.4497
▁nuvyk	-11.4497
▁Ukrainą	-11.4516
▁kompetentingo	-11.4516
žmogžudyst	-11.4516
▁impuls	-11.4516
▁mikrokredit	-11.4516
▁žmonija	-11.4516
▁Sunku	-11.4516
▁raudon	-11.4516
▁skaudžia	-11.4516
▁pigesn	-11.4516
▁federalin	-11.4569
▁išbristi	-11.4569
▁karjeros	-11.4569
▁laimėjimų	-11.4569
▁pinigin	-11.4569
▁propaguoti	-11.4569
▁cituoju	-11.4569
▁laikymasis	-11.4569
Bendit	-11.4569
▁laivus	-11.4569
▁pačioms	-11.4569
▁Nežinau	-11.4622
▁energetiką	-11.4622
▁nusikaltėlių	-11.4622
▁operatoriai	-11.4622
▁panašūs	-11.4622
▁revoliucijos	-11.4622
▁Cohn	-11.4622
▁frakcijoms	-11.4622
▁paisoma	-11.4622
▁uostus	-11.4622
▁nepriklausomumą	-11.4622
▁kilometr	-11.4622
▁Kelet	-11.4622
▁stebėsena	-11.4622
▁drastišk	-11.4623
▁rezultatu	-11.4644
▁ASEAN	-11.4675
▁Faktiškai	-11.4675
▁Hercegovinos	-11.4675
▁apskaičiuot	-11.4675
▁darbdaviams	-11.4675
▁orderio	-11.4675
▁spragas	-11.4675
▁kryptys	-11.4675
▁realybė	-11.4676
▁Kankūne	-11.4728
▁futbolo	-11.4728
▁laivyno	-11.4728
▁paslėpt	-11.4728
▁ratifikavo	-11.4728
▁tarifus	-11.4728
▁Ženevos	-11.4728
▁Indijoje	-11.4728
▁Pritariame	-11.4728
▁suderintų	-11.4728
▁nepakeis	-11.4729
2011	-11.4755
▁kaimyninėm	-11.477
▁Vadinasi	-11.4782
▁imunitetą	-11.4782
▁kategoriją	-11.4782
▁moterimis	-11.4782
▁ombudsmenu	-11.4782
▁sandorius	-11.4782
▁internetas	-11.4782
▁Islam	-11.4782
Global	-11.4783
▁Reikaling	-11.4836
▁autonomin	-11.4836
▁pabėgėliams	-11.4836
▁tendencijos	-11.4836
▁pagrob	-11.4836
▁žiūrė	-11.4865
kodifikuot	-11.489
▁apdovano	-11.489
▁apygardoje	-11.489
▁nerimauja	-11.489
▁pobūdis	-11.489
▁nusiteikusi	-11.489
▁optimal	-11.489
▁misijų	-11.489
▁keletu	-11.489
▁neturtingiausi	-11.4891
▁išnaikin	-11.4891
▁sveiką	-11.4891
▁schema	-11.4891
▁neteisėtu	-11.4892
skraid	-11.49
▁instituto	-11.4945
▁stichinių	-11.4945
▁tinkamesn	-11.4945
▁užpuol	-11.4945
energija	-11.4975
pademonstruot	-11.5
▁apžvalga	-11.5
▁inovacijoms	-11.5
▁kompleksin	-11.5
▁pažadus	-11.5
▁brutal	-11.5
▁Birmoje	-11.5
▁moduli	-11.5
▁elgesiu	-11.5
sigaliojus	-11.5001
▁trukdanči	-11.5006
praktik	-11.5013
▁Nacionalini	-11.5055
▁bylą	-11.5055
▁prekiauti	-11.5055
▁rinkodaros	-11.5055
▁susitvarkyti	-11.5055
▁tradicijų	-11.5055
▁nekontroliuojam	-11.5055
transplantacijos	-11.5111
▁Harbour	-11.5111
▁užmokestis	-11.5111
▁kompensacija	-11.5111
▁religija	-11.5111
▁specialus	-11.5111
▁Estijos	-11.5111
▁išsaugojimą	-11.5111
▁nuorodų	-11.5111
▁nuostatoms	-11.5111
▁Galimyb	-11.5112
atskaitomyb	-11.5166
▁Asmeniškai	-11.5167
▁McCreevy	-11.5167
▁kvalifikaciją	-11.5167
▁susitaikymo	-11.5167
▁realybe	-11.5167
▁facto	-11.5167
▁sausumos	-11.5167
▁režimų	-11.5167
▁atsakymai	-11.5167
▁Visuomen	-11.5167
▁atsiduria	-11.5167
▁priimdama	-11.5168
▁infrastruktūr	-11.5175
▁eilini	-11.519
▁Italiją	-11.5223
▁Prancūziją	-11.5223
▁nyksta	-11.5223
▁produkcija	-11.5223
▁įvaikinimo	-11.5223
▁civilius	-11.5223
▁smūgi	-11.5223
▁Kalbėdamas	-11.5223
▁klestinči	-11.5223
▁savivaldyb	-11.5223
▁Obamos	-11.5223
dešimčia	-11.5223
▁patikimi	-11.5227
didžiul	-11.5258
▁džiugina	-11.5279
▁spragų	-11.5279
▁Jeruzal	-11.5279
▁saugūs	-11.5279
▁kaltinimai	-11.5279
▁akcin	-11.5283
Parlamento	-11.5315
visuomen	-11.5324
Kalbėtojas	-11.5336
▁Albanija	-11.5336
▁Tibete	-11.5336
▁pamėgin	-11.5336
▁poilsio	-11.5336
▁oponent	-11.5336
▁Robert	-11.5336
▁draudimu	-11.5336
nediskriminavimo	-11.5386
▁Mastrichto	-11.5393
▁pablogėjo	-11.5393
▁reikalavimams	-11.5393
▁vadovaudamiesi	-11.5393
▁skubot	-11.5393
▁šįvakar	-11.5393
▁skeptišk	-11.5393
žmogaus	-11.5431
atsisak	-11.5439
▁Branduolin	-11.5451
▁asignavimus	-11.5451
▁sumetimais	-11.5451
▁partijoms	-11.5451
▁krašto	-11.5451
▁Linkiu	-11.5451
neigiama	-11.5469
▁Valstijoms	-11.5509
▁atogrąžų	-11.5509
▁sąskaitos	-11.5509
▁įsisavin	-11.5509
ambasador	-11.5509
▁prekiauja	-11.5509
▁įsidarbinti	-11.5509
▁įsigij	-11.5513
▁Verhofstadt	-11.5567
▁atšilimo	-11.5567
▁bejėg	-11.5567
▁mokyklas	-11.5567
▁rašytiniai	-11.5567
▁prieštarauju	-11.5567
▁Didesn	-11.5572
▁nedalyvav	-11.5578
▁baudžiamąj	-11.5586
▁Izraelį	-11.5625
▁aspektams	-11.5625
▁civilizacijos	-11.5625
▁pensijas	-11.5625
▁psichikos	-11.5625
▁Nepritar	-11.5625
▁semestr	-11.5625
▁Lehne	-11.5625
▁mokytojų	-11.5625
▁artimesn	-11.5626
projekt	-11.5636
Nord	-11.5659
▁mechanizmu	-11.5665
▁Socialini	-11.5676
▁Rumuniją	-11.5684
▁konvencijų	-11.5684
▁nuoseklumo	-11.5684
▁pavasario	-11.5684
▁prekyboje	-11.5684
▁Nepriimtina	-11.5684
▁Kolegos	-11.5684
▁Tinkama	-11.5684
šaldyt	-11.5706
ininkaujančioji	-11.5735
▁Austrijoje	-11.5743
▁nereikalingo	-11.5743
▁posėdžiuose	-11.5743
▁užmiršti	-11.5743
▁asmenį	-11.5743
▁atvejo	-11.5743
▁jėgomis	-11.5803
▁kriminalin	-11.5803
▁licencija	-11.5803
▁lygmenyje	-11.5803
▁produktą	-11.5803
▁referendume	-11.5803
▁Špidla	-11.5803
▁apgalvota	-11.5803
▁reakciją	-11.5803
▁pasienyje	-11.5803
▁viešosiom	-11.581
▁gimtoj	-11.5854
▁Pietryčių	-11.5863
▁atotrūkį	-11.5863
▁falsifikuot	-11.5863
▁išanalizuoti	-11.5863
▁pavėluota	-11.5863
▁šeimoje	-11.5863
▁Kotonu	-11.5863
▁nuostoliai	-11.5863
sidūrsu	-11.5863
▁šiuolaikišk	-11.5865
teršėjas	-11.5865
▁domė	-11.5872
▁vietovės	-11.5883
Paaiškinimai	-11.5923
▁Florenz	-11.5923
▁Venesuelos	-11.5923
▁asignavimai	-11.5923
▁padidėtų	-11.5923
▁pajėgumai	-11.5923
▁įtampos	-11.5923
▁žmogui	-11.5923
▁eksportą	-11.5923
▁stengiamasi	-11.5923
▁Solana	-11.5923
▁globalizuot	-11.5925
