<pad>	0
</s>	0
<unk>	0
▁p	-0
ti	-1
ai	-2
ri	-3
os	-4
▁k	-5
▁s	-6
in	-7
au	-8
as	-9
▁t	-10
ar	-11
ir	-12
al	-13
▁n	-14
is	-15
im	-16
an	-17
en	-18
▁d	-19
am	-20
us	-21
▁v	-22
▁ir	-23
ei	-24
at	-25
▁b	-26
ad	-27
om	-28
ij	-29
es	-30
▁m	-31
ro	-32
ių	-33
on	-34
ės	-35
ek	-36
▁g	-37
tin	-38
oj	-39
er	-40
uri	-41
li	-42
ra	-43
▁š	-44
▁su	-45
▁į	-46
▁j	-47
▁kad	-48
eik	-49
▁pa	-50
tų	-51
▁E	-52
tik	-53
▁pri	-54
či	-55
iš	-56
▁r	-57
yb	-58
▁ne	-59
aus	-60
▁a	-61
em	-62
▁l	-63
um	-64
st	-65
uo	-66
▁pas	-67
▁T	-68
av	-69
uro	-70
ėl	-71
et	-72
▁iš	-73
▁at	-74
▁P	-75
rin	-76
▁tai	-77
▁kuri	-78
urop	-79
ki	-80
ijos	-81
▁Europ	-82
or	-83
aug	-84
arb	-85
ta	-86
▁K	-87
ant	-88
to	-89
▁ši	-90
ur	-91
▁Europos	-92
▁bū	-93
ži	-94
imo	-95
ėj	-96
el	-97
end	-98
▁y	-99
ais	-100
▁ap	-101
id	-102
▁ž	-103
▁vis	-104
eis	-105
omis	-106
yv	-107
▁gal	-108
▁pat	-109
už	-110
▁dėl	-111
gi	-112
▁pr	-113
▁pro	-114
▁tik	-115
▁už	-116
▁po	-117
▁kai	-118
ie	-119
ink	-120
ab	-121
min	-122
▁to	-123
oje	-124
ym	-125
ien	-126
▁yra	-127
yti	-128
▁S	-129
cij	-130
ėm	-131
eš	-132
▁-	-133
usi	-134
tu	-135
ak	-136
ok	-137
un	-138
aik	-139
iek	-140
▁val	-141
čiau	-142
uos	-143
si	-144
tas	-145
imą	-146
io	-147
▁re	-148
▁in	-149
▁teis	-150
ia	-151
pr	-152
imas	-153
tr	-154
▁sk	-155
yk	-156
▁sv	-157
▁A	-158
▁B	-159
▁pir	-160
ui	-161
ama	-162
▁turi	-163
laus	-164
aud	-165
▁par	-166
ci	-167
▁f	-168
▁pad	-169
▁M	-170
gal	-171
ūs	-172
lam	-173
▁Komis	-174
styb	-175
auj	-176
▁reik	-177
ing	-178
te	-179
ame	-180
tis	-181
vo	-182
lamen	-183
rim	-184
ąj	-185
▁(	-186
ung	-187
od	-188
▁valstyb	-189
ys	-190
čių	-191
cijos	-192
minink	-193
il	-194
toj	-195
ams	-196
▁daug	-197
▁J	-198
ik	-199
inti	-200
▁šal	-201
iu	-202
▁V	-203
▁sav	-204
až	-205
▁veik	-206
▁kaip	-207
▁klaus	-208
▁nes	-209
je	-210
kai	-211
▁taip	-212
tar	-213
▁svarb	-214
▁bend	-215
ari	-216
▁lab	-217
▁poli	-218
iai	-219
and	-220
▁per	-221
tą	-222
ėtų	-223
aneš	-224
▁N	-225
ime	-226
ija	-227
ąjung	-228
og	-229
ūsų	-230
ūr	-231
▁Par	-232
sti	-233
▁o	-234
▁D	-235
▁darb	-236
uvo	-237
▁Parlamen	-238
▁tur	-239
▁Tai	-240
▁praneš	-241
▁ES	-242
▁Sąjung	-243
tos	-244
▁did	-245
ov	-246
ans	-247
ėti	-248
▁kon	-249
▁2	-250
▁būti	-251
amas	-252
▁pirminink	-253
esn	-254
▁nar	-255
yje	-256
▁G	-257
▁būtų	-258
▁sus	-259
ol	-260
▁Š	-261
▁ats	-262
dži	-263
tat	-264
▁nor	-265
▁pasi	-266
yg	-267
▁man	-268
▁pag	-269
iau	-270
jų	-271
uom	-272
me	-273
▁savo	-274
▁nep	-275
umo	-276
mon	-277
eli	-278
eg	-279
▁ek	-280
▁vien	-281
▁labai	-282
ami	-283
▁apie	-284
inių	-285
ios	-286
oms	-287
▁buvo	-288
tai	-289
▁ki	-290
eng	-291
rink	-292
ej	-293
▁dar	-294
▁dal	-295
anči	-296
▁bendr	-297
sl	-298
▁siek	-299
uk	-300
▁susi	-301
ūl	-302
▁tar	-303
ems	-304
emon	-305
šk	-306
ties	-307
ačiau	-308
▁R	-309
ul	-310
▁pak	-311
▁galim	-312
tim	-313
auk	-314
▁laik	-315
▁ar	-316
ybos	-317
▁prie	-318
ius	-319
eig	-320
▁met	-321
onom	-322
▁mūsų	-323
iz	-324
ėčiau	-325
▁priemon	-326
▁tr	-327
ist	-328
▁įv	-329
ank	-330
▁pl	-331
alb	-332
tink	-333
▁politik	-334
▁20	-335
▁nuo	-336
▁Komisijos	-337
inės	-338
ekt	-339
▁L	-340
ed	-341
tikrin	-342
amos	-343
▁Tar	-344
pa	-345
aid	-346
▁nari	-347
▁spr	-348
ėms	-349
iaus	-350
▁ekonom	-351
avimo	-352
tum	-353
▁ver	-354
▁pirmininke	-355
ome	-356
uoti	-357
▁rink	-358
oti	-359
men	-360
▁I	-361
raš	-362
one	-363
oma	-364
inans	-365
▁veiks	-366
ori	-367
ili	-368
vir	-369
▁nauj	-370
▁bet	-371
▁mok	-372
▁proc	-373
▁užtikrin	-374
als	-375
imų	-376
cial	-377
▁kom	-378
▁bus	-379
▁aps	-380
▁finans	-381
ap	-382
▁gr	-383
▁mes	-384
orm	-385
isk	-386
▁kar	-387
jos	-388
▁naud	-389
žv	-390
acij	-391
yst	-392
ent	-393
▁net	-394
▁sri	-395
▁tarp	-396
ang	-397
▁pasiūl	-398
▁es	-399
ums	-400
rind	-401
▁1	-402
▁reikal	-403
▁gyv	-404
ymo	-405
▁pav	-406
ėjo	-407
odėl	-408
eri	-409
bl	-410
▁str	-411
▁są	-412
▁sprend	-413
▁žmon	-414
abar	-415
ter	-416
▁"	-417
ch	-418
var	-419
ėk	-420
▁skir	-421
▁tikr	-422
riz	-423
▁nus	-424
▁var	-425
▁sud	-426
▁kurios	-427
uoj	-428
▁pateik	-429
▁vyk	-430
▁kalb	-431
▁jų	-432
gyv	-433
▁gali	-434
▁pagrind	-435
▁jau	-436
▁reikia	-437
lik	-438
imus	-439
▁so	-440
gr	-441
▁pagal	-442
▁kurie	-443
▁norėčiau	-444
▁valstybės	-445
tarim	-446
imu	-447
▁Sąjungos	-448
▁taik	-449
ektyv	-450
▁sieki	-451
▁dir	-452
blem	-453
oki	-454
form	-455
▁prieš	-456
uomen	-457
▁darbo	-458
istem	-459
tus	-460
tyje	-461
eči	-462
tori	-463
▁ger	-464
▁galimyb	-465
stitu	-466
iškai	-467
erg	-468
uose	-469
enk	-470
▁pirm	-471
kur	-472
▁Komisija	-473
ini	-474
gyvend	-475
tume	-476
▁problem	-477
▁sistem	-478
▁ak	-479
▁susij	-480
▁pal	-481
▁sut	-482
ting	-483
▁turėtų	-484
ag	-485
▁Parlamento	-486
▁saug	-487
▁tiksl	-488
▁disk	-489
▁as	-490
tina	-491
val	-492
▁jos	-493
▁Todėl	-494
▁įgyvend	-495
▁e	-496
▁pili	-497
▁kur	-498
▁turime	-499
▁ypa	-500
▁toki	-501
it	-502
▁apsaug	-503
▁me	-504
ški	-505
rak	-506
ūros	-507
▁bals	-508
ėmis	-509
umą	-510
▁maž	-511
kr	-512
▁paž	-513
veik	-514
tinės	-515
eto	-516
▁įsi	-517
ies	-518
išk	-519
▁rez	-520
do	-521
▁Ši	-522
▁en	-523
▁atv	-524
▁Man	-525
▁keli	-526
▁dabar	-527
▁gyven	-528
▁narių	-529
ose	-530
žvel	-531
▁social	-532
▁susitarim	-533
▁institu	-534
▁ti	-535
▁šį	-536
▁pasiūlym	-537
▁energ	-538
▁im	-539
lyg	-540
▁pon	-541
▁valstybių	-542
▁atsi	-543
▁ji	-544
▁šiuo	-545
▁atsak	-546
tį	-547
▁regi	-548
▁Tačiau	-549
ūk	-550
atin	-551
▁ekonomik	-552
▁Pir	-553
yn	-554
tojų	-555
imai	-556
▁ypač	-557
▁nei	-558
▁teisės	-559
ėra	-560
por	-561
▁200	-562
▁ai	-563
▁i	-564
▁pasau	-565
▁nustat	-566
dž	-567
oli	-568
aip	-569
▁užtikrinti	-570
▁metu	-571
tinių	-572
▁suteik	-573
amą	-574
▁neb	-575
▁tačiau	-576
▁Pone	-577
▁Taryb	-578
▁žin	-579
dami	-580
▁sek	-581
dėl	-582
ming	-583
▁tink	-584
▁pab	-585
ųjų	-586
cija	-587
▁išs	-588
▁daugiau	-589
▁veiksm	-590
▁narės	-591
inę	-592
▁prek	-593
iet	-594
▁reg	-595
ėje	-596
ateg	-597
▁priim	-598
inio	-599
▁pasiek	-600
▁min	-601
pras	-602
ybės	-603
acijos	-604
▁mums	-605
▁prad	-606
erb	-607
iją	-608
ančių	-609
du	-610
▁tam	-611
▁bei	-612
▁pasak	-613
rik	-614
aš	-615
rė	-616
par	-617
▁pask	-618
erin	-619
tari	-620
adarb	-621
link	-622
▁kuris	-623
▁region	-624
ud	-625
.,	-626
▁šios	-627
ykl	-628
tau	-629
▁negal	-630
▁Vis	-631
▁bendradarb	-632
▁politikos	-633
▁te	-634
▁nėra	-635
▁kriz	-636
riaus	-637
trauk	-638
virtin	-639
mog	-640
ob	-641
emok	-642
▁aš	-643
▁kl	-644
inimo	-645
▁be	-646
imui	-647
▁siekiant	-648
▁lyg	-649
inink	-650
ojo	-651
iudž	-652
▁diskus	-653
aisv	-654
▁todėl	-655
▁strateg	-656
▁aplink	-657
ėmes	-658
aig	-659
ęs	-660
▁vy	-661
ėtume	-662
amų	-663
▁pan	-664
▁sąlyg	-665
▁kiek	-666
ėn	-667
▁gam	-668
sn	-669
▁sutar	-670
▁ati	-671
▁inform	-672
žiū	-673
arba	-674
▁mano	-675
▁teisių	-676
tab	-677
▁dėmes	-678
liau	-679
▁žmog	-680
amai	-681
cijų	-682
avimą	-683
▁Taip	-684
ijoje	-685
avimas	-686
ciją	-687
▁ties	-688
▁kas	-689
▁sum	-690
▁atvej	-691
▁nuom	-692
▁biudž	-693
▁kel	-694
andien	-695
▁visi	-696
▁sektori	-697
▁Nor	-698
▁demok	-699
▁žem	-700
▁nuos	-701
▁laisv	-702
▁Gerb	-703
▁vid	-704
▁tiek	-705
▁padar	-706
▁atsižvel	-707
uv	-708
▁progr	-709
▁šalių	-710
▁svarbu	-711
▁srityje	-712
anti	-713
▁bendradarbi	-714
▁manau	-715
▁C	-716
uosi	-717
cion	-718
auti	-719
antis	-720
▁visų	-721
▁Be	-722
▁ko	-723
▁iki	-724
▁jie	-725
▁ab	-726
aniz	-727
eid	-728
▁ly	-729
ečių	-730
▁šio	-731
▁tais	-732
▁sp	-733
▁viet	-734
vark	-735
▁arba	-736
eitim	-737
▁sveik	-738
▁ekonomikos	-739
▁teik	-740
▁frak	-741
ėme	-742
▁dv	-743
▁Parlamentas	-744
iausia	-745
▁plė	-746
▁komit	-747
▁mo	-748
▁didel	-749
▁or	-750
▁Pirminink	-751
▁si	-752
ėg	-753
▁prival	-754
ymą	-755
asi	-756
mės	-757
▁kol	-758
▁tarptau	-759
yta	-760
yrim	-761
▁jis	-762
▁der	-763
rov	-764
mo	-765
▁naudoj	-766
▁kurių	-767
▁sudar	-768
▁li	-769
▁padė	-770
▁veikl	-771
ęsti	-772
▁auk	-773
▁rem	-774
▁na	-775
▁žmogaus	-776
▁galima	-777
rib	-778
▁šių	-779
inis	-780
▁mėn	-781
damas	-782
▁metų	-783
ub	-784
ukt	-785
ausi	-786
žiūri	-787
ež	-788
rėž	-789
▁klausimas	-790
vien	-791
▁vykd	-792
tek	-793
oliu	-794
▁išl	-795
ūki	-796
▁st	-797
osios	-798
▁Tarybos	-799
▁raš	-800
▁vie	-801
▁priemonių	-802
▁suk	-803
▁direktyv	-804
▁ką	-805
cional	-806
▁dalyv	-807
▁skatin	-808
inį	-809
▁kurį	-810
▁taisykl	-811
▁požiūri	-812
eip	-813
umas	-814
▁jei	-815
giant	-816
yse	-817
▁žmonių	-818
ato	-819
▁įmon	-820
čia	-821
▁didži	-822
▁vad	-823
cip	-824
▁demokra	-825
▁visiškai	-826
atyv	-827
▁laiko	-828
avo	-829
▁pranešimą	-830
▁Mes	-831
▁proj	-832
▁inter	-833
▁veiksmų	-834
ymas	-835
osi	-836
tip	-837
inga	-838
▁prin	-839
▁princip	-840
dama	-841
▁šią	-842
up	-843
▁ry	-844
▁Sąjunga	-845
ada	-846
▁susijusi	-847
▁įgyvendin	-848
▁patvirtin	-849
sp	-850
▁sun	-851
▁įvai	-852
▁Manau	-853
▁pasakyti	-854
tn	-855
▁vertin	-856
ijai	-857
inius	-858
tijos	-859
▁pasaul	-860
lio	-861
pareig	-862
▁šis	-863
▁vyriaus	-864
▁trans	-865
▁įst	-866
▁proces	-867
▁visuomen	-868
▁galėtų	-869
▁jo	-870
▁pasir	-871
00	-872
rag	-873
▁el	-874
▁ned	-875
rijos	-876
▁Ž	-877
kir	-878
ystės	-879
tro	-880
▁pakeitim	-881
paž	-882
▁pris	-883
onos	-884
▁rezoliu	-885
▁energijos	-886
ves	-887
▁toliau	-888
ep	-889
ybę	-890
eigu	-891
▁org	-892
porto	-893
▁atei	-894
▁vald	-895
▁raštu	-896
iausiai	-897
▁pap	-898
▁šiandien	-899
čiai	-900
▁pagalb	-901
▁plan	-902
▁kr	-903
aist	-904
▁prod	-905
▁politin	-906
▁aiški	-907
▁kov	-908
▁pilieči	-909
ijų	-910
▁apsaugos	-911
eisti	-912
▁nacional	-913
ytų	-914
sta	-915
▁asmen	-916
uli	-917
engti	-918
▁dirb	-919
▁aug	-920
▁	-921
i	-922
a	-923
s	-924
t	-925
r	-926
o	-927
e	-928
n	-929
u	-930
k	-931
m	-932
p	-933
l	-934
d	-935
v	-936
j	-937
g	-938
,	-939
b	-940
ų	-941
y	-942
ė	-943
.	-944
š	-945
ą	-946
ž	-947
į	-948
ū	-949
c	-950
č	-951
E	-952
T	-953
P	-954
z	-955
S	-956
f	-957
K	-958
ę	-959
0	-960
-	-961
A	-962
B	-963
M	-964
V	-965
2	-966
(	-967
)	-968
D	-969
N	-970
J	-971
R	-972
"	-973
G	-974
1	-975
h	-976
L	-977
Š	-978
I	-979
:	-980
C	-981
?	-982
9	-983
O	-984
5	-985
F	-986
3	-987
U	-988
8	-989
;	-990
7	-991
4	-992
Ž	-993
6	-994
H	-995
/	-996
