<pad>	0
</s>	0
<unk>	0
▁¦	-0
th	-1
in	-2
the	-3
re	-4
on	-5
an	-6
at	-7
en	-8
er	-9
or	-10
▁𐋇	-11
▁the	-12
is	-13
ed	-14
al	-15
as	-16
es	-17
▁s	-18
to	-19
of	-20
▁c	-21
ar	-22
ing	-23
▁a	-24
ti	-25
ou	-26
▁w	-27
and	-28
▁in	-29
▁p	-30
▁h	-31
ent	-32
▁of	-33
▁b	-34
ac	-35
it	-36
▁f	-37
▁d	-38
ati	-39
▁to	-40
ic	-41
il	-42
ro	-43
ve	-44
▁.	-45
ec	-46
id	-47
tr	-48
le	-49
▁,	-50
▁m	-51
he	-52
▁and	-53
us	-54
ation	-55
os	-56
ir	-57
om	-58
▁T	-59
▁th	-60
▁n	-61
▁be	-62
ay	-63
ad	-64
ver	-65
▁re	-66
ly	-67
ow	-68
▁v	-69
tion	-70
▁C	-71
▁is	-72
acc	-73
ter	-74
oron	-75
▁M	-76
ave	-77
ch	-78
un	-79
ur	-80
ol	-81
accin	-82
orona	-83
ment	-84
▁l	-85
ill	-86
▁A	-87
▁g	-88
op	-89
▁e	-90
st	-91
ate	-92
▁I	-93
▁t	-94
▁S	-95
am	-96
ot	-97
um	-98
ce	-99
▁The	-100
ted	-101
im	-102
▁for	-103
di	-104
ith	-105
▁on	-106
et	-107
el	-108
oun	-109
are	-110
ak	-111
oc	-112
ig	-113
rom	-114
for	-115
ers	-116
▁st	-117
▁are	-118
ts	-119
be	-120
res	-121
als	-122
over	-123
ents	-124
ut	-125
ul	-126
em	-127
▁vaccin	-128
ld	-129
ab	-130
ag	-131
fec	-132
ere	-133
▁P	-134
▁that	-135
ain	-136
▁has	-137
▁H	-138
se	-139
ap	-140
out	-141
ther	-142
ome	-143
▁have	-144
atients	-145
umb	-146
ion	-147
▁con	-148
all	-149
▁D	-150
ity	-151
vid	-152
▁an	-153
▁with	-154
▁B	-155
iti	-156
iv	-157
▁In	-158
aid	-159
irus	-160
por	-161
▁wh	-162
overn	-163
20	-164
▁corona	-165
▁𐊣	-166
od	-167
alth	-168
our	-169
overnment	-170
if	-171
ess	-172
▁1	-173
▁was	-174
ore	-175
inis	-176
▁as	-177
ase	-178
eop	-179
eople	-180
▁r	-181
▁"	-182
▁will	-183
ould	-184
gen	-185
uc	-186
qu	-187
har	-188
▁from	-189
ear	-190
▁W	-191
est	-192
▁dis	-193
▁pro	-194
▁(	-195
ud	-196
▁y	-197
▁R	-198
ated	-199
▁or	-200
also	-201
up	-202
ew	-203
▁'	-204
igh	-205
own	-206
▁o	-207
▁not	-208
19	-209
av	-210
▁at	-211
wh	-212
ies	-213
▁sh	-214
pl	-215
▁by	-216
me	-217
ash	-218
tric	-219
pit	-220
tions	-221
▁been	-222
ant	-223
corona	-224
▁it	-225
ays	-226
vaccin	-227
pro	-228
co	-229
ep	-230
▁patients	-231
cl	-232
▁ex	-233
con	-234
umber	-235
ospit	-236
ary	-237
any	-238
end	-239
▁this	-240
ork	-241
▁vaccine	-242
-19	-243
has	-244
per	-245
fter	-246
▁tr	-247
▁Th	-248
▁N	-249
that	-250
sp	-251
▁he	-252
sh	-253
inister	-254
tor	-255
ge	-256
▁O	-257
ef	-258
▁com	-259
▁said	-260
med	-261
gh	-262
ous	-263
▁U	-264
ountr	-265
ical	-266
ast	-267
der	-268
ding	-269
com	-270
ure	-271
▁ch	-272
cre	-273
we	-274
ath	-275
▁government	-276
have	-277
ans	-278
tra	-279
ever	-280
one	-281
▁people	-282
ial	-283
fic	-284
ock	-285
ik	-286
ack	-287
ren	-288
with	-289
ough	-290
port	-291
xy	-292
ue	-293
ound	-294
vel	-295
ms	-296
ail	-297
ex	-298
▁also	-299
ose	-300
ub	-301
virus	-302
xygen	-303
pr	-304
▁F	-305
tic	-306
▁de	-307
▁im	-308
dis	-309
ance	-310
▁state	-311
age	-312
▁infec	-313
ahar	-314
ine	-315
dia	-316
use	-317
ven	-318
down	-319
uch	-320
ator	-321
iz	-322
ashtra	-323
aharashtra	-324
this	-325
▁K	-326
▁ac	-327
▁Ch	-328
ost	-329
▁cl	-330
not	-331
▁un	-332
ospital	-333
ip	-334
▁were	-335
▁G	-336
will	-337
ib	-338
▁ad	-339
▁per	-340
▁virus	-341
able	-342
duc	-343
ens	-344
cent	-345
from	-346
▁number	-347
pre	-348
▁¦1	-349
ll	-350
▁le	-351
ockdown	-352
00	-353
▁2	-354
art	-355
▁He	-356
ond	-357
▁ab	-358
▁cont	-359
reat	-360
ard	-361
ia	-362
iss	-363
▁we	-364
pos	-365
ild	-366
time	-367
▁20	-368
ates	-369
ive	-370
▁can	-371
act	-372
ased	-373
ym	-374
ple	-375
▁E	-376
was	-377
ease	-378
▁Corona	-379
by	-380
trict	-381
eed	-382
ong	-383
ile	-384
enti	-385
ases	-386
ations	-387
▁all	-388
ru	-389
▁countr	-390
ass	-391
day	-392
▁should	-393
arch	-394
lo	-395
ach	-396
ire	-397
▁other	-398
▁work	-399
ra	-400
ovid	-401
ight	-402
te	-403
de	-404
▁J	-405
▁health	-406
ell	-407
▁Minister	-408
patients	-409
ist	-410
ai	-411
▁me	-412
ffec	-413
been	-414
tive	-415
ording	-416
ake	-417
▁there	-418
▁had	-419
▁se	-420
clud	-421
pe	-422
ich	-423
▁cent	-424
une	-425
ask	-426
ymp	-427
vaccine	-428
▁res	-429
ympto	-430
oll	-431
▁ap	-432
other	-433
ID	-434
OV	-435
ang	-436
irst	-437
very	-438
▁k	-439
ally	-440
pec	-441
OVID	-442
wo	-443
ike	-444
ence	-445
ress	-446
said	-447
▁pre	-448
ide	-449
ame	-450
ool	-451
government	-452
covid	-453
▁pl	-454
ied	-455
econd	-456
there	-457
used	-458
▁out	-459
▁after	-460
▁Maharashtra	-461
▁oxygen	-462
▁who	-463
velop	-464
form	-465
▁ag	-466
ish	-467
uring	-468
▁COVID	-469
▁India	-470
ief	-471
orld	-472
▁V	-473
ign	-474
▁you	-475
▁incre	-476
0¦	-477
ace	-478
miss	-479
▁Wh	-480
infec	-481
health	-482
people	-483
oV	-484
▁hand	-485
▁L	-486
▁do	-487
▁dec	-488
chool	-489
ice	-490
ubl	-491
ting	-492
ures	-493
inistr	-494
og	-495
erv	-496
ons	-497
ious	-498
ind	-499
▁no	-500
▁3	-501
ities	-502
uation	-503
▁It	-504
state	-505
ymptoms	-506
▁about	-507
af	-508
aw	-509
iven	-510
▁more	-511
▁pr	-512
ort	-513
ildren	-514
mission	-515
umbai	-516
▁Dr	-517
▁test	-518
▁This	-519
▁)	-520
aj	-521
ok	-522
ade	-523
owever	-524
esh	-525
gan	-526
octor	-527
▁their	-528
reatment	-529
ced	-530
ov	-531
CoV	-532
▁lockdown	-533
▁than	-534
▁time	-535
atory	-536
▁But	-537
mun	-538
▁some	-539
fore	-540
here	-541
odi	-542
▁new	-543
cont	-544
aking	-545
ituation	-546
▁so	-547
▁med	-548
ning	-549
RS	-550
▁?	-551
ek	-552
▁5	-553
stem	-554
▁infection	-555
ree	-556
ublic	-557
ystem	-558
ult	-559
cording	-560
han	-561
but	-562
row	-563
▁under	-564
▁disease	-565
▁being	-566
▁vaccination	-567
▁days	-568
▁vaccines	-569
were	-570
work	-571
bre	-572
can	-573
▁year	-574
fere	-575
▁pos	-576
▁one	-577
▁Health	-578
▁country	-579
rough	-580
▁4	-581
▁if	-582
▁¦2	-583
▁these	-584
▁-	-585
so	-586
▁av	-587
ailable	-588
itiz	-589
ainst	-590
ines	-591
▁There	-592
▁al	-593
number	-594
ber	-595
▁resp	-596
isk	-597
rug	-598
▁Pr	-599
red	-600
ute	-601
sti	-602
pread	-603
ne	-604
▁	-605
¦	-606
e	-607
t	-608
a	-609
i	-610
o	-611
n	-612
s	-613
r	-614
h	-615
d	-616
c	-617
l	-618
u	-619
m	-620
p	-621
f	-622
g	-623
v	-624
y	-625
w	-626
b	-627
.	-628
𐋇	-629
,	-630
k	-631
C	-632
T	-633
0	-634
-	-635
1	-636
I	-637
A	-638
2	-639
S	-640
M	-641
x	-642
'	-643
D	-644
P	-645
9	-646
H	-647
j	-648
"	-649
R	-650
B	-651
O	-652
z	-653
5	-654
V	-655
𐊣	-656
𐊼	-657
W	-658
4	-659
q	-660
3	-661
)	-662
(	-663
N	-664
E	-665
?	-666
U	-667
8	-668
6	-669
7	-670
K	-671
F	-672
G	-673
:	-674
J	-675
L	-676
%	-677
;	-678
/	-679
Y	-680
Z	-681
!	-682
’	-683
”	-684
“	-685
–	-686
Q	-687
X	-688
[	-689
]	-690
&	-691
$	-692
#	-693
—	-694
‘	-695
•	-696
≥	-697
+	-698
°	-699
*	-700
ा	-701
_	-702
×	-703
武	-704
肺	-705
~	-706
á	-707
í	-708
α	-709
β	-710
स	-711
े	-712
्	-713
=	-714
ò	-715
č	-716
ş	-717
γ	-718
ं	-719
क	-720
ब	-721
र	-722
汉	-723
漢	-724
炎	-725
Ü	-726
£	-727
é	-728
ó	-729
ई	-730
ओ	-731
च	-732
त	-733
द	-734
प	-735
ल	-736
ळ	-737
व	-738
श	-739
ो	-740
′	-741
火	-742
眼	-743
Å	-744
ü	-745
å	-746
