<pad>	0
</s>	0
<unk>	0
▁¦	-0
▁እ	-1
▁አ	-2
▁በ	-3
▁የ	-4
▁ከ	-5
▁።	-6
ንም	-7
ቸው	-8
▁ይ	-9
▁ወ	-10
▁ነ	-11
▁እን	-12
▁፥	-13
አብ	-14
▁መ	-15
ግዚ	-16
ሔር	-17
ግዚአብ	-18
ግዚአብሔር	-19
ንድ	-20
▁ለ	-21
ሁሉ	-22
▁ተ	-23
▁፤	-24
ርሱ	-25
ችሁ	-26
▁ሰ	-27
እግዚአብሔር	-28
▁ል	-29
እን	-30
▁ያ	-31
▁ወደ	-32
▁ስ	-33
▁ሁሉ	-34
ለሁ	-35
ላይ	-36
ዘንድ	-37
ገር	-38
ንተ	-39
ለው	-40
ኤል	-41
ግን	-42
▁ም	-43
▁እግዚአብሔር	-44
▁እንደ	-45
ድር	-46
ትን	-47
ውን	-48
▁ብ	-49
ትም	-50
▁የሚ	-51
ዎች	-52
ጊዜ	-53
▁ነበ	-54
ዚህ	-55
እስ	-56
▁ደ	-57
▁ዘንድ	-58
ጆች	-59
ወደ	-60
ውም	-61
ነበ	-62
ዲህ	-63
▁ላይ	-64
ራኤል	-65
ርሱም	-66
ንጉ	-67
▁ሆ	-68
▁ነው	-69
ል።	-70
ጋር	-71
▁ት	-72
▁ባ	-73
▁ስለ	-74
ህን	-75
ዚያ	-76
▁ግን	-77
ሕዝ	-78
ለም	-79
እስራኤል	-80
ልና	-81
ርስ	-82
▁እነ	-83
ሪያ	-84
▁አለ	-85
▁ቀ	-86
ምላ	-87
በት	-88
ችን	-89
ደረ	-90
▁የተ	-91
▁ድ	-92
መን	-93
▁ጊዜ	-94
እነ	-95
ፊት	-96
▁ታ	-97
ነው	-98
ላቸው	-99
▁አይ	-100
ም።	-101
▁ማ	-102
ኢየ	-103
ደር	-104
እንደ	-105
▁ነገር	-106
ያስ	-107
ንና	-108
ቤት	-109
ለት	-110
ላችሁ	-111
▁በእ	-112
ጌታ	-113
ናንተ	-114
▁ልጆች	-115
▁ክ	-116
▁ጋር	-117
ያን	-118
▁እኔ	-119
ሰው	-120
ሆን	-121
▁እስ	-122
የሚ	-123
ምን	-124
ቃል	-125
ሥራ	-126
ነት	-127
▁በአ	-128
ተኛ	-129
ሠራ	-130
▁ልጅ	-131
▁ነበር	-132
▁ው	-133
ግሞ	-134
ል፤	-135
መል	-136
እኔ	-137
ሰማ	-138
▁ጠ	-139
▁አል	-140
ቶች	-141
ስጥ	-142
መጣ	-143
ቱም	-144
ቸውም	-145
▁ዓ	-146
ስት	-147
ለህ	-148
ለች	-149
ረስ	-150
መለ	-151
▁እንዲህ	-152
ምድር	-153
▁ፈ	-154
ስም	-155
▁ሰው	-156
ል፥	-157
▁ንጉ	-158
ህም	-159
ባት	-160
ገድ	-161
▁እንዲ	-162
▁እንዳ	-163
▁ገ	-164
ከተ	-165
ሆና	-166
▁መን	-167
ምላክ	-168
ሆነ	-169
▁ዘ	-170
አት	-171
ስለ	-172
ይም	-173
እርሱ	-174
ናገ	-175
ቸውን	-176
አል	-177
ይሁ	-178
ዳዊ	-179
▁?	-180
▁አን	-181
ቱን	-182
ካከ	-183
ኃጢ	-184
ግብ	-185
▁ሁ	-186
የተ	-187
ፍራ	-188
ወጣ	-189
▁የአ	-190
▁ሕዝ	-191
ዳን	-192
ገባ	-193
ነበረ	-194
▁ፍ	-195
▁በመ	-196
ብር	-197
ይ፥	-198
አንተ	-199
▁ና	-200
አለ	-201
▁ሳ	-202
ኋላ	-203
▁ቤት	-204
ቀመ	-205
ችኋ	-206
▁የእግዚአብሔር	-207
▁ቀን	-208
ላል	-209
▁ነበረ	-210
▁ፊት	-211
ሳሌ	-212
▁ደግሞ	-213
ቸዋ	-214
ድን	-215
▁ቢ	-216
ኢየሱ	-217
ተው	-218
▁ሆይ፥	-219
▁እጅ	-220
▁መል	-221
ነገር	-222
ሉት	-223
ነሣ	-224
ርም	-225
▁አስ	-226
ውያን	-227
▁በዚያ	-228
▁አንተ	-229
ም፥	-230
▁ከተ	-231
▁እነሆ	-232
▁ይህ	-233
ምም	-234
ትና	-235
ምና	-236
▁አት	-237
ልጆች	-238
▁ሰዎች	-239
ወር	-240
ልጅ	-241
ልን	-242
ውንም	-243
ሉ።	-244
ካከል	-245
▁ቃል	-246
እናንተ	-247
ሙሴ	-248
ደረገ	-249
▁እርሱ	-250
▁አለው	-251
▁ካ	-252
ማይ	-253
አን	-254
አይ	-255
▁እርሱም	-256
መት	-257
ዛብ	-258
▁ምድር	-259
ኢየሩ	-260
ኢየሩሳሌ	-261
▁ሲ	-262
ቸው።	-263
▁ቅ	-264
ርባ	-265
▁ድረስ	-266
▁ጌታ	-267
ኞች	-268
ያው	-269
እርሱም	-270
ሩት	-271
ምት	-272
ነበር	-273
ሕዛብ	-274
▁ሆነ	-275
▁ንጉሥ	-276
ልም	-277
▁አንድ	-278
ሁን	-279
ቤቱ	-280
ራት	-281
ንን	-282
▁ሊ	-283
▁እስከ	-284
ኢዮ	-285
▁ጥ	-286
ቶቻ	-287
ፈር	-288
▁በእግዚአብሔር	-289
ረው	-290
▁ራ	-291
ዋዕ	-292
▁አለው።	-293
ርያ	-294
ለሁ።	-295
ይወ	-296
ቹም	-297
ኢየሱስ	-298
▁አምላክ	-299
ንጉሡ	-300
ሥዋዕ	-301
ጠፋ	-302
ይሁዳ	-303
▁ሕ	-304
▁ነው።	-305
ነገ	-306
▁ውስጥ	-307
ሮች	-308
▁ብሎ	-309
ህና	-310
▁ሌ	-311
እንዲህ	-312
▁አድር	-313
ሞች	-314
▁ዕ	-315
▁ነበር።	-316
▁ሴ	-317
ላቅ	-318
ርስዋ	-319
ን፥	-320
▁አለ።	-321
▁እናንተ	-322
▁የእስራኤል	-323
ላለም	-324
አባ	-325
ይን	-326
ቀር	-327
ለሁ፥	-328
መስ	-329
▁እግዚአብሔርም	-330
እንዲ	-331
ምድ	-332
ራራ	-333
▁ነገ	-334
በላ	-335
ኃጢአ	-336
ለሁ፤	-337
እንዳ	-338
▁በኋላ	-339
▁ቍ	-340
ቆች	-341
▁ይሆና	-342
ገለ	-343
▁በተ	-344
አስ	-345
▁በሰ	-346
ወንድ	-347
ልቅ	-348
ዘላለም	-349
በሰ	-350
ቢያ	-351
ቀን	-352
▁ስለዚህ	-353
▁ወንድ	-354
ካም	-355
ግሥ	-356
▁የሚያ	-357
ድቅ	-358
ርስቶ	-359
እጅ	-360
▁አም	-361
ፈስ	-362
▁አላ	-363
ኢየሩሳሌም	-364
▁ድን	-365
እግዚአብሔርም	-366
በአ	-367
ሕዝቡ	-368
አቸው	-369
▁እነሆ፥	-370
▁ሞ	-371
▁አሳ	-372
ብም	-373
ለን	-374
ም፤	-375
ሳት	-376
ታቸው	-377
በረ	-378
ሥጋ	-379
በር	-380
ጠብ	-381
ሆኑ	-382
ት፥	-383
ደስ	-384
እነርሱ	-385
ድም	-386
ሠራዊ	-387
ርስቶስ	-388
ሰጠ	-389
ለውን	-390
ታችሁ	-391
ልክ	-392
ጀራ	-393
ብን	-394
▁ሄ	-395
ዚያም	-396
ገና	-397
በል	-398
ባቸው	-399
▁ወይም	-400
▁ይህን	-401
▁መካከል	-402
ነበሩ	-403
በታ	-404
በመ	-405
ደርጋ	-406
ግዲህ	-407
▁ምን	-408
ሥዋዕት	-409
ቀረ	-410
ተኛው	-411
ደርግ	-412
ላቸው።	-413
ገብ	-414
ብሎ	-415
ተዋ	-416
▁ንጉሡ	-417
ሆይ	-418
ሥር	-419
ት።	-420
ጥቶ	-421
ደግሞ	-422
ታው	-423
ንጉሥ	-424
ዴት	-425
ሩ።	-426
ኃጢአት	-427
ገን	-428
አልና	-429
▁ከአ	-430
ው።	-431
▁ልብ	-432
▁ዓመት	-433
ሰጣ	-434
ሰዎች	-435
ችም	-436
ጀም	-437
ናገር	-438
መሰ	-439
▁ነው፤	-440
▁ይላ	-441
▁ባሪያ	-442
▁ዳዊ	-443
▁አው	-444
▁እንዲሁ	-445
ስን	-446
▁ዛ	-447
ሺህ	-448
ምላካ	-449
▁ሙሴ	-450
በእ	-451
▁ሕዝብ	-452
ና።	-453
ባሪያ	-454
ኢያ	-455
እነርሱም	-456
ቃጠ	-457
ሉ፤	-458
▁ሥራ	-459
ይህ	-460
ሉ፥	-461
ለደ	-462
▁አይደ	-463
ማን	-464
ውነት	-465
ቅር	-466
እነሆ	-467
ቻቸው	-468
የአ	-469
ዚህም	-470
▁ነፍ	-471
▁ደስ	-472
▁ግ	-473
ልፍ	-474
ኑም	-475
▁ቤ	-476
▁ሚ	-477
▁ሁለት	-478
ሩም	-479
ላም	-480
▁ለመ	-481
ብዙ	-482
▁ዮ	-483
ናቸው	-484
ውያ	-485
ቀደ	-486
ቱንም	-487
▁ብዙ	-488
▁እግዚአብሔርን	-489
▁ን	-490
ኝ።	-491
ታት	-492
▁የመ	-493
▁ላ	-494
▁ጽ	-495
ዋን	-496
ዕቆ	-497
▁ከፍ	-498
ሦስት	-499
አለው	-500
ዶች	-501
አንድ	-502
ዎቹ	-503
ቀድ	-504
እዛ	-505
▁በሚ	-506
ክር	-507
ጠራ	-508
የእግዚአብሔር	-509
▁ወር	-510
▁ስፍራ	-511
ከራ	-512
ሠዊ	-513
ኖች	-514
▁ሕዝቡ	-515
ነፍ	-516
ኛው	-517
ገል	-518
ድረስ	-519
ርሃ	-520
▁እንጂ	-521
ኃይ	-522
ፈል	-523
ይፍ	-524
▁ስም	-525
▁ሸ	-526
ሕይወ	-527
ሁለ	-528
ሱን	-529
▁መቶ	-530
▁ያለ	-531
▁ክፉ	-532
መና	-533
መጡ	-534
▁ዳ	-535
ያም	-536
ውስጥ	-537
ጀመ	-538
ቀመጡ	-539
ልብ	-540
አምላክ	-541
ህንም	-542
ኖር	-543
ጀምሮ	-544
▁በታ	-545
ሎች	-546
አም	-547
▁ር	-548
ወድ	-549
▁አባ	-550
ወን	-551
▁የም	-552
ችሁን	-553
ሰማይ	-554
ሠራዊት	-555
ይስ	-556
▁በደ	-557
በተ	-558
▁አላቸው።	-559
እስከ	-560
▁እጅግ	-561
▁በምድር	-562
ዘዘ	-563
ወጡ	-564
▁በዚያም	-565
▁እነርሱም	-566
▁እስራኤል	-567
ከፍ	-568
▁እነዚህ	-569
ራቸው	-570
▁ለእግዚአብሔር	-571
ባል	-572
ዱም	-573
ቀበ	-574
▁ሁለ	-575
▁ነበረ።	-576
ገደ	-577
ግብፅ	-578
እኛ	-579
ላት	-580
▁ለሚ	-581
▁እኔም	-582
ሕዝብ	-583
ለምን	-584
▁ሐ	-585
▁ኤ	-586
ረት	-587
▁ወን	-588
ፍር	-589
▁ማን	-590
ኖሩ	-591
እስራኤልም	-592
ዙሪያ	-593
▁ኢየሱስ	-594
በው	-595
ዘጋ	-596
በደ	-597
ገኘ	-598
▁እና	-599
ለማ	-600
ወስ	-601
ፈራ	-602
ጠገብ	-603
▁ነበር፤	-604
ችሁም	-605
ገዛ	-606
▁ተናገ	-607
ክፉ	-608
ን።	-609
▁የእግዚአብሔርን	-610
▁ቆ	-611
አድር	-612
▁ከተማ	-613
ዓት	-614
▁መጣ	-615
ረገ	-616
ነሥ	-617
▁እንደሚ	-618
ኩል	-619
▁በው	-620
▁በየ	-621
▁መንገድ	-622
ደው	-623
ተኞች	-624
ኖራ	-625
ከት	-626
ቀም	-627
ሁንም	-628
ላችኋ	-629
▁ሁሉ፥	-630
ልኝ	-631
▁ምስ	-632
▁መሥዋዕት	-633
▁ጸ	-634
▁አቤቱ	-635
ታን	-636
▁የሰ	-637
▁የምት	-638
ደረግ	-639
ዳዊት	-640
▁በፊ	-641
▁ሽ	-642
ያለ	-643
ያንዳን	-644
ሄድ	-645
▁ድም	-646
ፋት	-647
▁በማ	-648
ሀያ	-649
ሁለት	-650
▁የማ	-651
▁እንዳይ	-652
ጠን	-653
ይላል	-654
ዋል	-655
▁ከመ	-656
ቅም	-657
ዋም	-658
▁ጊዜ፥	-659
▁ይላል።	-660
▁ኢዮ	-661
መንገድ	-662
ታል	-663
በእግዚአብሔር	-664
ሩን	-665
ሰብ	-666
▁ውኃ	-667
ቹን	-668
▁ምድ	-669
▁በዚህ	-670
ሕር	-671
ሰጥ	-672
መው	-673
ፋን	-674
ጠላ	-675
ጥር	-676
ሞት	-677
ክርስቶስ	-678
▁ከእርሱ	-679
ቢሎ	-680
ገቡ	-681
ደረጉ	-682
ች።	-683
▁አለቆች	-684
ከተማ	-685
ስፍራ	-686
ፍሬ	-687
በኋላ	-688
▁ሺህ	-689
ምር	-690
▁በር	-691
▁ያስ	-692
ሎሞ	-693
ፈረ	-694
ጠው	-695
ይሆና	-696
▁ዝ	-697
▁ዘመን	-698
ጋይ	-699
እነዚህ	-700
ውያንም	-701
ልስጥ	-702
ልህ	-703
▁አለቃ	-704
ከብ	-705
ሙር	-706
▁በዓ	-707
▁ናቸው	-708
▁ይላል	-709
ህል	-710
▁አገር	-711
ችንም	-712
ልስጥኤ	-713
▁እኛ	-714
መረ	-715
ስፋ	-716
▁ኪ	-717
ምስ	-718
እኔም	-719
ሳቸው	-720
ባባ	-721
ደርጉ	-722
ልሃ	-723
ልክት	-724
ርስዋም	-725
▁ለአ	-726
▁የእ	-727
ገረ	-728
▁እንድ	-729
▁እንዲህም	-730
ናት	-731
▁ዛሬ	-732
ነግ	-733
▁አሕዛብ	-734
በዚያ	-735
▁አደረገ	-736
▁አቤቱ፥	-737
ርዳ	-738
አሳ	-739
▁ሠ	-740
▁መልካም	-741
ለሁና	-742
ግብጽ	-743
ወሰ	-744
በዛ	-745
▁ታላቅ	-746
የሚያ	-747
ሱም	-748
ኝ፥	-749
ርባን	-750
▁ይሁን	-751
▁በዳ	-752
▁ከሚ	-753
▁በል	-754
▁የሆነ	-755
▁በእስራኤል	-756
▁ቃ	-757
ማግ	-758
ሳን	-759
ሮን	-760
መካከል	-761
ጥን	-762
ያዕቆ	-763
▁በግ	-764
▁ለዘላለም	-765
ባለ	-766
ሕይወት	-767
ሁ።	-768
▁ኃጢአ	-769
ምድረ	-770
እዛዝ	-771
▁መለ	-772
ሩ፤	-773
ፎች	-774
ካህና	-775
ልጆ	-776
ንያ	-777
▁እርሱም።	-778
ሠዊያ	-779
ልስጥኤማ	-780
ኝ፤	-781
ውል	-782
▁ሰማ	-783
ሊት	-784
▁አብ	-785
እንግዲህ	-786
▁እነርሱ	-787
ሦስ	-788
▁በጎ	-789
ሄዱ	-790
ዖን	-791
ለመ	-792
ረብ	-793
▁ለማ	-794
ወይም	-795
ላለ	-796
ኢየሱስም	-797
ቀመጥ	-798
▁ጣ	-799
▁ቅዱ	-800
ሉት።	-801
ረከ	-802
ይህን	-803
▁ጀምሮ	-804
ት፤	-805
▁ጕ	-806
▁ፍር	-807
ርን	-808
ሴፍ	-809
▁ዘንድ፥	-810
ድና	-811
ታም	-812
▁መስ	-813
ሰበ	-814
ዓመት	-815
ቶቻቸው	-816
ወይን	-817
ወርቅ	-818
▁ነበረ፤	-819
▁እየ	-820
▁ወጣ	-821
▁ነበሩ።	-822
ተኛውም	-823
ቅዱ	-824
▁ልጆ	-825
▁እስኪ	-826
አው	-827
ሥታት	-828
▁አያ	-829
▁ከእ	-830
ሶች	-831
ፈሩ	-832
▁ሥጋ	-833
▁እንግዲህ	-834
ግባ	-835
ከን	-836
ዘን	-837
▁ስድ	-838
▁ዓይ	-839
ማግሌ	-840
ዛሙር	-841
▁አደ	-842
▁ድምፅ	-843
ንስ	-844
ሰሙ	-845
▁ሄደ	-846
አላ	-847
ባቢሎ	-848
▁ጻ	-849
▁ብት	-850
▁ነውና	-851
▁ነው፥	-852
▁ፊ	-853
ግሥት	-854
▁መቅ	-855
እንዲሁ	-856
▁ኃጢአት	-857
ሄዳ	-858
ምራ	-859
ጸና	-860
ጽሐ	-861
ቴን	-862
ሆነው	-863
▁ሌላ	-864
▁በእርሱ	-865
ረግ	-866
ንድር	-867
▁አሁን	-868
ብላ	-869
▁አታ	-870
▁ሰባት	-871
ሌላ	-872
▁እንጀራ	-873
ብት	-874
▁ይሁ	-875
የእስራኤል	-876
ላችሁ።	-877
በትን	-878
እክ	-879
▁ያል	-880
ሰድ	-881
ጠጣ	-882
▁ተራራ	-883
ቅን	-884
▁ባለ	-885
ወለደ	-886
▁የለም	-887
አይደ	-888
በግ	-889
በትም	-890
ሳኦ	-891
ላሳ	-892
በሉ	-893
ለህ።	-894
▁ወዳ	-895
▁ወገን	-896
ትንም	-897
▁ሦስት	-898
ታችን	-899
ቹንም	-900
ዋጋ	-901
▁ክርስቶስ	-902
ደነ	-903
ውሎ	-904
ልና።	-905
▁ዕቃ	-906
ስለዚህ	-907
ሳችሁ	-908
ይሆናል	-909
▁ይልቅ	-910
▁ሆኖ	-911
መልካም	-912
▁ማንም	-913
በብ	-914
ወዳ	-915
▁ክንድ	-916
ከማ	-917
ርሻ	-918
ኳን	-919
ኑን	-920
ገው	-921
በራ	-922
▁በም	-923
▁አጠገብ	-924
ሰና	-925
ጀመሪያ	-926
▁ዳዊትም	-927
ገኝ	-928
መለሱ	-929
መቶ	-930
▁አማ	-931
▁ከአንተ	-932
▁አሁንም	-933
ሮስ	-934
ቀው	-935
ግር	-936
መለስ	-937
ስተ	-938
አክ	-939
ውቃ	-940
ዛት	-941
▁እንዴት	-942
መታ	-943
ያል	-944
ህ፥	-945
ውኃ	-946
እግዚአብሔርን	-947
ብዓ	-948
ቀመጠ	-949
▁ኢያ	-950
አላቸው	-951
▁ጭ	-952
▁አየ	-953
▁መንፈስ	-954
▁ብለው	-955
▁ተነሥ	-956
▁ከእኔ	-957
▁ስሙ	-958
▁ብቻ	-959
▁ከተሞች	-960
መንፈስ	-961
ወረ	-962
▁ካህና	-963
ርግ	-964
በጎ	-965
በቀ	-966
ከአ	-967
ጆሮ	-968
ርቻ	-969
በሚ	-970
▁አልተ	-971
▁ንጉሡም	-972
ሜን	-973
ኖስ	-974
▁ሴቶች	-975
መድ	-976
ሽን	-977
ዘው	-978
ናገረ	-979
ሉም	-980
መለሰ	-981
▁በታች	-982
ጥተው	-983
ሁ፥	-984
ፈጸ	-985
▁ተመል	-986
ዓይ	-987
ገኙ	-988
▁ጨ	-989
▁በራ	-990
▁አይደለም	-991
ስድ	-992
ናገራ	-993
▁ይሆናል።	-994
ቈጠ	-995
ዊው	-996
ፈው	-997
ልና፥	-998
እንጂ	-999
ወንድሞ	-1000
▁አሳል	-1001
▁የተነሣ	-1002
ሂድ	-1003
ረድ	-1004
በቅ	-1005
ቴና	-1006
ከተማይ	-1007
ርቶ	-1008
▁አምስት	-1009
▁አሥራ	-1010
▁ያለውን	-1011
ከለ	-1012
ምላካችን	-1013
▁በኩል	-1014
ማል	-1015
ሳይ	-1016
▁እያ	-1017
ንጉሡም	-1018
▁በአንድ	-1019
▁አሉት።	-1020
ዳቸው	-1021
ደሪያ	-1022
ጽሐፍ	-1023
ቀድሞ	-1024
ጁን	-1025
▁ሳይ	-1026
ቦት	-1027
ቅያስ	-1028
▁በላ	-1029
▁ገና	-1030
ርስት	-1031
ጣን	-1032
▁ወለደ	-1033
▁የማይ	-1034
ዋንም	-1035
ባችሁ	-1036
▁የነበረ	-1037
ነጋ	-1038
ኛል	-1039
ች፥	-1040
ወይ	-1041
▁ሠራ	-1042
ሽም	-1043
ነኝ	-1044
ክብር	-1045
ለች።	-1046
▁ቢሆን	-1047
▁ክብር	-1048
▁እነሆም፥	-1049
ንቀ	-1050
ሰም	-1051
▁ወስ	-1052
▁ከእናንተ	-1053
▁እግዚአብሔር።	-1054
ባር	-1055
▁ፍሬ	-1056
ራም	-1057
▁በፍ	-1058
▁ብላ	-1059
▁ከእግዚአብሔር	-1060
ረጋ	-1061
ዓብ	-1062
ሴቶች	-1063
▁ኃይ	-1064
ድጓ	-1065
ድማ	-1066
ዱን	-1067
ቢት	-1068
▁ሰጠ	-1069
▁ፈጽ	-1070
ረክ	-1071
እጅግ	-1072
ናገሩ	-1073
ሁ፤	-1074
ለዋ	-1075
▁ራስ	-1076
▁በት	-1077
ወቅ	-1078
ባሕር	-1079
ቻቸውም	-1080
ሃለሁ	-1081
▁ያለው	-1082
ሰደ	-1083
ቍጣ	-1084
ዲያ	-1085
▁ሴት	-1086
▁የሰው	-1087
መር	-1088
ታመ	-1089
ፈጽ	-1090
▁ካህ	-1091
በምድር	-1092
▁ነገድ	-1093
ሙን	-1094
ዳዊትም	-1095
▁ኤል	-1096
በዚያም	-1097
ለሚ	-1098
ዶም	-1099
ሉትን	-1100
ገሩ	-1101
▁በፊት	-1102
ቴም	-1103
▁ስን	-1104
▁ናቸው።	-1105
ችው	-1106
ለእግዚአብሔር	-1107
ቅል	-1108
የም	-1109
ፀሐ	-1110
ብርሃ	-1111
▁ሥር	-1112
ነበሩት	-1113
▁ከዚያም	-1114
ስማ	-1115
ጡ።	-1116
እና	-1117
ጽድቅ	-1118
▁በይሁዳ	-1119
▁ከእርሱም	-1120
ሠሩ	-1121
▁ጋ	-1122
▁ይሆን	-1123
ሌለ	-1124
በሩ	-1125
▁አራ	-1126
▁በእኔ	-1127
ከመ	-1128
ዬን	-1129
ጋና	-1130
ታቸውን	-1131
ሕግ	-1132
▁የእስራኤልም	-1133
ቂት	-1134
ናል	-1135
ወገ	-1136
ቸዋል	-1137
ዓመ	-1138
ራችሁ	-1139
መሥዋዕት	-1140
ማግሌዎች	-1141
ዩም	-1142
መለከ	-1143
ባቢሎን	-1144
ፋስ	-1145
▁ሳኦ	-1146
በለ	-1147
▁ብር	-1148
▁አፍ	-1149
ኢየሩሳሌምም	-1150
ሉን	-1151
ሁት	-1152
በየ	-1153
▁ሕግ	-1154
▁በቀ	-1155
ሌዋ	-1156
ሞተ	-1157
ቀቅ	-1158
ዮን	-1159
ምላኬ	-1160
ና፥	-1161
ደም	-1162
▁በዚያን	-1163
▁የእግዚአብሔርም	-1164
አታ	-1165
▁ይመጣ	-1166
ነዓ	-1167
አለቆች	-1168
የእግዚአብሔርን	-1169
ሞላ	-1170
ጉባ	-1171
ልጊዜ	-1172
ኝም	-1173
ካህ	-1174
ያላ	-1175
▁ደግሞም	-1176
ቤተ	-1177
ትንና	-1178
▁ከን	-1179
▁ቍርባን	-1180
ለቆ	-1181
ብል	-1182
እንደሚ	-1183
ውነ	-1184
እንድ	-1185
ኮረብ	-1186
ጉባኤ	-1187
ዛሬ	-1188
ዳም	-1189
ጳውሎ	-1190
▁ሰባ	-1191
▁ነበር፥	-1192
ነሡ	-1193
▁አራት	-1194
ውቀ	-1195
ምነት	-1196
አብርሃ	-1197
ተህ	-1198
ዘመን	-1199
▁አባት	-1200
ቶቹ	-1201
▁	-1202
¦	-1203
ን	-1204
ም	-1205
አ	-1206
በ	-1207
እ	-1208
ር	-1209
ው	-1210
ል	-1211
ት	-1212
ለ	-1213
ስ	-1214
የ	-1215
ይ	-1216
።	-1217
ነ	-1218
መ	-1219
ደ	-1220
፥	-1221
ብ	-1222
ና	-1223
ች	-1224
ድ	-1225
ተ	-1226
ያ	-1227
ከ	-1228
ሁ	-1229
ግ	-1230
ላ	-1231
ወ	-1232
ህ	-1233
ሰ	-1234
ገ	-1235
ራ	-1236
፤	-1237
ረ	-1238
ባ	-1239
ታ	-1240
ዚ	-1241
ሉ	-1242
ማ	-1243
ቸ	-1244
ቀ	-1245
ጠ	-1246
ዘ	-1247
ዳ	-1248
ፍ	-1249
ሆ	-1250
ሱ	-1251
ሔ	-1252
ሳ	-1253
ቅ	-1254
ክ	-1255
ጥ	-1256
ሚ	-1257
ዋ	-1258
ፈ	-1259
ቱ	-1260
ሩ	-1261
ጋ	-1262
ጣ	-1263
ሥ	-1264
ቶ	-1265
ሞ	-1266
ቃ	-1267
ሕ	-1268
ካ	-1269
ዲ	-1270
ኤ	-1271
ዝ	-1272
ዓ	-1273
ቤ	-1274
ጅ	-1275
ኛ	-1276
ጉ	-1277
ዛ	-1278
ኝ	-1279
ዎ	-1280
ሌ	-1281
ሎ	-1282
ኑ	-1283
ኔ	-1284
ጆ	-1285
ሙ	-1286
ሮ	-1287
ፋ	-1288
ዱ	-1289
ጊ	-1290
ቢ	-1291
ሴ	-1292
ኢ	-1293
ኖ	-1294
?	-1295
ፊ	-1296
ሠ	-1297
ሪ	-1298
ዜ	-1299
ቡ	-1300
ዕ	-1301
ቻ	-1302
ዊ	-1303
ቆ	-1304
ሽ	-1305
ጡ	-1306
ዮ	-1307
ኃ	-1308
ጽ	-1309
ቹ	-1310
ኋ	-1311
ጌ	-1312
ሬ	-1313
ዙ	-1314
ቁ	-1315
ሃ	-1316
ሊ	-1317
ዶ	-1318
ሐ	-1319
ሸ	-1320
ቴ	-1321
ሄ	-1322
ፉ	-1323
ጀ	-1324
ሣ	-1325
ጸ	-1326
ሶ	-1327
ሲ	-1328
ጢ	-1329
ሜ	-1330
ሡ	-1331
ሻ	-1332
ጨ	-1333
ዩ	-1334
ጎ	-1335
ኪ	-1336
ጻ	-1337
ቍ	-1338
ኩ	-1339
ቦ	-1340
ጭ	-1341
ኞ	-1342
ዬ	-1343
ዴ	-1344
ኮ	-1345
ጃ	-1346
ቈ	-1347
ሦ	-1348
ጁ	-1349
ቼ	-1350
ፎ	-1351
ቂ	-1352
ፅ	-1353
ጦ	-1354
ጕ	-1355
ኳ	-1356
ኅ	-1357
ኸ	-1358
ዖ	-1359
ኵ	-1360
ጫ	-1361
ሺ	-1362
ጂ	-1363
ኦ	-1364
ሀ	-1365
ጐ	-1366
ኘ	-1367
ዞ	-1368
ኬ	-1369
ፀ	-1370
ጹ	-1371
ጮ	-1372
ጄ	-1373
ጓ	-1374
ዔ	-1375
ፌ	-1376
ሹ	-1377
ሾ	-1378
ቄ	-1379
ቲ	-1380
ፃ	-1381
ሂ	-1382
ኒ	-1383
ቺ	-1384
ኙ	-1385
ቋ	-1386
ጳ	-1387
!	-1388
ኰ	-1389
ዐ	-1390
ኣ	-1391
ጩ	-1392
ጤ	-1393
ጴ	-1394
ዌ	-1395
ኀ	-1396
ዉ	-1397
ዑ	-1398
ፁ	-1399
ሤ	-1400
ኹ	-1401
ጾ	-1402
ዣ	-1403
ሖ	-1404
ዥ	-1405
ጵ	-1406
ኽ	-1407
ፆ	-1408
ኜ	-1409
ኻ	-1410
ጪ	-1411
ጲ	-1412
ሑ	-1413
ኆ	-1414
ዪ	-1415
ዒ	-1416
a	-1417
ሒ	-1418
ሼ	-1419
ዠ	-1420
ጶ	-1421
ዢ	-1422
ኡ	-1423
ኚ	-1424
ጼ	-1425
ጺ	-1426
ጬ	-1427
W	-1428
ዦ	-1429
ዤ	-1430
ሢ	-1431
ቾ	-1432
ሓ	-1433
ዡ	-1434
ፄ	-1435
k	-1436
g	-1437
w	-1438
ኄ	-1439
r	-1440
ኾ	-1441
ጰ	-1442
ጱ	-1443
K	-1444
ቧ	-1445
ፔ	-1446
ፕ	-1447
𐋇	-1448
d	-1449
ኺ	-1450
*	-1451
1	-1452
v	-1453
T	-1454
"	-1455
l	-1456
ሷ	-1457
ፐ	-1458
ፓ	-1459
𐊣	-1460
𐊼	-1461
2	-1462
s	-1463
t	-1464
3	-1465
[	-1466
]	-1467
o	-1468
ፑ	-1469
ፒ	-1470
D	-1471
(	-1472
)	-1473
-	-1474
5	-1475
e	-1476
ቊ	-1477
ዷ	-1478
ፂ	-1479
A	-1480
0	-1481
4	-1482
@	-1483
b	-1484
m	-1485
u	-1486
ሏ	-1487
ቷ	-1488
ቿ	-1489
ኗ	-1490
ኟ	-1491
ኲ	-1492
ኼ	-1493
ጒ	-1494
ጧ	-1495
ፏ	-1496
