<pad>	0
</s>	0
<unk>	0
▁the	-3.10587
s	-3.19674
,	-3.40877
.	-3.66653
▁of	-3.76693
▁to	-3.85401
▁and	-3.97672
▁in	-4.13923
▁	-4.16157
▁a	-4.32591
▁that	-4.56336
▁is	-4.57137
ing	-4.60773
ed	-4.72947
d	-4.83666
▁for	-4.85655
▁I	-4.88361
e	-4.9412
t	-5.02921
▁on	-5.06965
▁be	-5.12333
▁this	-5.19197
▁we	-5.19771
ly	-5.2156
n	-5.27941
▁are	-5.36874
er	-5.40704
y	-5.42633
▁European	-5.44049
▁it	-5.44203
▁have	-5.45134
p	-5.48647
al	-5.48649
▁not	-5.48878
c	-5.51324
▁with	-5.53141
a	-5.54572
▁as	-5.57459
r	-5.58784
o	-5.60369
▁The	-5.60466
m	-5.62277
i	-5.62521
b	-5.67162
g	-5.68326
-	-5.70284
▁will	-5.70654
▁which	-5.71755
f	-5.7306
u	-5.7312
'	-5.76232
re	-5.76802
▁by	-5.77793
in	-5.77906
ar	-5.916
or	-5.92094
▁re	-5.92379
▁has	-5.93067
▁-	-5.95779
it	-6.00186
▁an	-6.06987
▁f	-6.10698
▁also	-6.1148
ation	-6.13236
st	-6.14523
▁(	-6.16091
)	-6.16412
▁all	-6.17275
ri	-6.18319
an	-6.1845
▁de	-6.18594
▁at	-6.19835
▁would	-6.20921
ent	-6.21038
l	-6.22202
▁Mr	-6.22476
▁p	-6.23171
ic	-6.24466
▁Commission	-6.2452
▁We	-6.25534
▁Member	-6.25542
▁from	-6.26389
es	-6.27001
▁President	-6.29041
▁should	-6.30204
▁EU	-6.31559
▁our	-6.31666
▁c	-6.32712
ur	-6.32898
h	-6.33825
▁must	-6.34318
le	-6.37409
▁but	-6.40045
ment	-6.40747
▁Union	-6.4141
en	-6.41588
ate	-6.43475
k	-6.44071
▁b	-6.45028
ion	-6.45193
th	-6.45576
▁st	-6.47309
▁In	-6.47646
on	-6.47918
▁S	-6.47925
▁do	-6.48593
▁It	-6.48803
▁so	-6.49771
▁been	-6.50102
▁report	-6.50213
w	-6.51178
ol	-6.51543
▁States	-6.51814
▁Parliament	-6.52033
▁you	-6.52341
▁more	-6.54073
▁can	-6.54828
▁was	-6.5559
▁con	-6.56221
il	-6.57062
▁need	-6.58103
▁their	-6.59393
▁or	-6.6044
▁like	-6.61802
▁A	-6.62184
▁Europe	-6.63147
ro	-6.64614
▁This	-6.66702
se	-6.67136
▁very	-6.67516
lo	-6.72296
ra	-6.72988
ad	-6.73052
ity	-6.7344
as	-6.73552
ch	-6.73587
tion	-6.73754
ive	-6.74707
▁w	-6.75753
la	-6.76161
▁co	-6.76444
▁its	-6.7655
▁support	-6.76929
▁M	-6.77381
▁important	-6.78608
at	-6.789
ul	-6.78937
▁who	-6.79029
▁other	-6.79052
▁us	-6.79144
▁B	-6.79655
▁pro	-6.8011
▁un	-6.81015
▁these	-6.81318
▁countries	-6.8146
able	-6.81742
▁C	-6.81815
▁t	-6.82105
▁ex	-6.8211
ir	-6.83031
▁there	-6.83562
:	-6.84091
▁Council	-6.84617
▁time	-6.84688
ies	-6.85837
▁one	-6.86514
▁people	-6.87601
ter	-6.87992
▁P	-6.88054
▁new	-6.89155
▁out	-6.89839
ut	-6.89958
▁about	-6.90259
0	-6.90849
li	-6.91517
▁m	-6.93439
▁g	-6.94815
▁my	-6.9483
ce	-6.95676
te	-6.96498
et	-6.96753
im	-6.99088
▁because	-6.99376
▁they	-6.99631
▁no	-6.9993
▁what	-7.00142
▁up	-7.00236
▁am	-7.00945
▁policy	-7.01839
▁pre	-7.01892
▁part	-7.02194
ver	-7.02384
v	-7.03959
ers	-7.04336
un	-7.04404
id	-7.0472
ig	-7.04772
▁work	-7.05681
▁only	-7.06128
ence	-7.06132
el	-7.06966
▁me	-7.08048
com	-7.08902
▁market	-7.09894
▁see	-7.09895
▁make	-7.10327
▁economic	-7.10894
▁rights	-7.12866
op	-7.14825
▁such	-7.1638
▁take	-7.16399
us	-7.16848
▁dis	-7.1705
▁G	-7.17057
z	-7.17252
▁r	-7.17338
▁between	-7.17374
▁T	-7.17507
▁mo	-7.18481
ne	-7.18542
▁into	-7.18942
▁e	-7.19007
▁su	-7.20012
ist	-7.21071
▁1	-7.21271
▁if	-7.22638
▁now	-7.22683
▁proposal	-7.23246
?	-7.23646
end	-7.24186
E	-7.25773
est	-7.26674
ta	-7.26946
ide	-7.26989
5	-7.27013
em	-7.27479
▁some	-7.27565
▁E	-7.28392
▁under	-7.3003
▁agreement	-7.30098
▁those	-7.30098
ance	-7.31522
▁any	-7.31706
▁when	-7.31788
ise	-7.31882
ve	-7.3212
age	-7.32643
▁comp	-7.32848
▁believe	-7.32871
▁therefore	-7.33007
▁financial	-7.33293
▁fact	-7.3377
▁citizens	-7.33775
ish	-7.34043
▁say	-7.34919
am	-7.35801
▁over	-7.36102
▁even	-7.36108
▁think	-7.36723
▁political	-7.37032
▁d	-7.37111
▁social	-7.37214
▁'	-7.37684
▁system	-7.37693
▁against	-7.37854
▁way	-7.3908
▁energy	-7.39087
▁development	-7.395
▁se	-7.39608
▁point	-7.39964
isation	-7.40339
P	-7.40391
ha	-7.40517
▁regard	-7.40676
▁l	-7.40747
S	-7.41104
ac	-7.41122
;	-7.42071
▁F	-7.42081
and	-7.42445
me	-7.42554
ci	-7.42595
vi	-7.42701
ten	-7.42739
▁want	-7.4305
ous	-7.43123
▁many	-7.43718
▁situation	-7.43777
▁v	-7.4431
ary	-7.44551
her	-7.44733
▁crisis	-7.45007
▁than	-7.46545
▁well	-7.46574
▁However	-7.46664
▁right	-7.46686
▁made	-7.46816
▁good	-7.47195
om	-7.47298
▁O	-7.47535
▁being	-7.476
▁level	-7.47607
ia	-7.4769
▁question	-7.47816
▁first	-7.48127
ine	-7.4842
▁were	-7.48549
▁human	-7.48697
▁Commissioner	-7.49203
▁debate	-7.49212
▁just	-7.49834
ight	-7.50393
▁issue	-7.50645
▁W	-7.51166
▁order	-7.51228
▁change	-7.51389
ge	-7.51634
▁country	-7.52096
1	-7.52909
ations	-7.53338
▁use	-7.53418
▁di	-7.5368
ated	-7.54173
ud	-7.54275
ow	-7.54646
▁measures	-7.55106
R	-7.55779
he	-7.5604
▁D	-7.56286
qu	-7.56441
tic	-7.56566
▁As	-7.5669
x	-7.57379
A	-7.57454
▁ensure	-7.582
▁future	-7.58574
mo	-7.58614
▁national	-7.58734
▁case	-7.5892
▁where	-7.59034
tra	-7.59504
▁provide	-7.59857
our	-7.59897
ating	-7.61241
▁years	-7.61517
ru	-7.61627
▁he	-7.61644
ff	-7.61685
▁know	-7.61806
ck	-7.62029
T	-7.62279
▁go	-7.62801
▁ho	-7.6287
▁result	-7.63046
▁most	-7.63236
%	-7.63281
▁vote	-7.63725
um	-7.64299
ap	-7.64335
▁budget	-7.64404
▁N	-7.64607
▁public	-7.64684
▁today	-7.6472
▁same	-7.64787
ti	-7.64893
ant	-7.65629
▁world	-7.66116
j	-7.66159
▁them	-7.66166
is	-7.66186
ally	-7.66298
ted	-7.66556
▁H	-7.66659
all	-7.67382
▁here	-7.67883
ting	-7.68068
▁Madam	-7.68132
▁concern	-7.68465
▁sector	-7.68698
▁clear	-7.68714
▁action	-7.69017
▁call	-7.6944
6	-7.69525
port	-7.69559
▁possible	-7.69901
act	-7.69998
ry	-7.70347
▁cannot	-7.70415
▁L	-7.70486
▁2	-7.70866
▁area	-7.70892
▁long	-7.7113
▁That	-7.71175
oc	-7.71278
ian	-7.71532
▁consider	-7.71904
ran	-7.72353
ot	-7.72383
▁respect	-7.72399
▁help	-7.72483
▁thank	-7.72614
ful	-7.72627
▁protection	-7.72819
▁international	-7.73444
▁end	-7.73553
▁could	-7.73931
▁cooperation	-7.74078
ard	-7.74169
▁two	-7.74351
▁year	-7.7442
ability	-7.74584
2	-7.7471
▁particular	-7.74718
▁resolution	-7.74819
▁law	-7.75185
▁much	-7.75425
und	-7.75474
ak	-7.75568
▁place	-7.75844
▁interest	-7.75877
▁act	-7.76137
▁does	-7.76256
▁state	-7.7634
▁sp	-7.76361
▁increase	-7.76626
7	-7.76936
od	-7.76947
▁how	-7.77081
▁common	-7.77136
po	-7.77179
▁favour	-7.7759
▁region	-7.77676
▁high	-7.78261
▁agree	-7.78293
▁rapporteur	-7.78446
line	-7.78619
▁already	-7.79507
▁process	-7.80321
▁said	-7.8074
▁both	-7.80842
▁had	-7.81107
▁certain	-7.8125
▁real	-7.81358
▁decision	-7.81361
▁voted	-7.81619
▁view	-7.82078
▁hope	-7.82195
▁access	-7.8226
ear	-7.82358
8	-7.82763
C	-7.82948
▁your	-7.82958
▁still	-7.83107
▁put	-7.83312
de	-7.83364
▁Treaty	-7.83558
pa	-7.84824
▁plan	-7.84892
▁through	-7.84987
▁own	-7.85113
vis	-7.85211
▁within	-7.85365
▁come	-7.8569
▁achieve	-7.85731
lu	-7.86545
O	-7.86711
▁security	-7.86808
▁effective	-7.86922
▁matter	-7.87631
▁On	-7.88439
▁There	-7.88471
▁writing	-7.8849
▁en	-7.885
▁Committee	-7.88652
9	-7.8917
▁course	-7.89294
▁too	-7.89652
▁example	-7.89729
term	-7.89977
▁set	-7.90035
▁per	-7.90328
▁why	-7.90511
▁ask	-7.90915
ities	-7.91271
▁For	-7.91589
ative	-7.9172
▁regulation	-7.91785
▁reason	-7.92088
ho	-7.92207
ness	-7.92561
▁Re	-7.92627
ill	-7.92627
▁information	-7.9264
▁global	-7.9293
ition	-7.93001
▁allow	-7.93278
▁gentlemen	-7.93406
▁continue	-7.93531
▁sh	-7.9358
L	-7.9368
▁number	-7.94157
pe	-7.9423
▁group	-7.94352
▁his	-7.94437
▁problem	-7.9455
▁last	-7.94736
3	-7.94847
▁relation	-7.9485
▁improve	-7.9488
▁Group	-7.95643
ical	-7.95659
▁women	-7.95806
tor	-7.95856
▁role	-7.95902
▁give	-7.96083
▁principle	-7.9612
ou	-7.96216
▁trade	-7.96323
▁legal	-7.96436
iv	-7.965
▁present	-7.9675
▁able	-7.96938
▁particularly	-7.96996
I	-7.9701
▁ma	-7.97467
▁great	-7.98077
4	-7.9871
one	-7.98718
▁necessary	-7.9897
per	-7.99712
▁programme	-7.99935
ell	-8.00801
▁without	-8.00867
form	-8.00928
▁welcome	-8.01007
ised	-8.01135
▁represent	-8.01917
▁objective	-8.02101
co	-8.02392
▁lead	-8.03234
▁establish	-8.03373
ship	-8.0343
ma	-8.03506
▁health	-8.03675
▁consumer	-8.03737
▁taken	-8.04066
▁close	-8.04143
cu	-8.04163
▁Lisbon	-8.04166
▁form	-8.04554
▁climate	-8.04634
hi	-8.04771
av	-8.05089
U	-8.05383
▁K	-8.05672
▁means	-8.06007
▁directive	-8.06057
▁may	-8.06136
ven	-8.06201
ure	-8.06421
▁far	-8.06505
▁trans	-8.07003
▁car	-8.07042
▁issues	-8.07857
▁better	-8.079
ator	-8.07951
▁account	-8.0803
▁aim	-8.08142
▁problems	-8.08382
▁power	-8.08799
▁strategy	-8.08822
▁behalf	-8.09007
▁thing	-8.09147
▁since	-8.09606
ning	-8.09953
▁Con	-8.1005
ism	-8.10863
ncy	-8.11006
▁show	-8.11829
▁areas	-8.12016
▁position	-8.12051
ling	-8.12345
▁amendment	-8.12421
ag	-8.12501
▁difficult	-8.12764
▁J	-8.13066
▁organ	-8.13154
ke	-8.13474
ty	-8.13666
▁current	-8.13703
▁ladies	-8.13803
▁specific	-8.14177
cl	-8.14464
▁job	-8.14571
ial	-8.14668
va	-8.14831
▁rules	-8.15086
DE	-8.15223
▁deal	-8.1523
▁force	-8.15309
▁different	-8.15472
▁step	-8.15659
▁framework	-8.1567
▁government	-8.15699
▁approach	-8.1594
▁however	-8.16125
▁project	-8.1631
▁strong	-8.16682
▁legislation	-8.16696
▁institutions	-8.16783
▁direct	-8.16851
▁require	-8.17093
▁including	-8.17329
▁serious	-8.17329
▁freedom	-8.17416
▁implement	-8.17688
▁terms	-8.1779
▁after	-8.18084
▁again	-8.18304
▁next	-8.18576
▁solution	-8.18986
▁include	-8.1903
▁To	-8.19057
▁million	-8.19162
▁Ma	-8.19196
▁express	-8.19264
▁pay	-8.19375
▁further	-8.19441
▁V	-8.19563
▁food	-8.19589
▁given	-8.20253
▁3	-8.20386
▁La	-8.20507
▁look	-8.20611
▁large	-8.20716
▁needs	-8.20996
no	-8.21213
▁services	-8.21221
▁If	-8.21237
F	-8.21425
▁opinion	-8.21493
▁whether	-8.21674
▁progress	-8.21734
▁So	-8.21773
▁before	-8.21855
▁create	-8.22202
▁find	-8.22223
▁20	-8.22335
▁recent	-8.22453
▁economy	-8.22748
▁State	-8.23035
▁adopt	-8.23094
▁mention	-8.23105
▁speak	-8.23145
▁transport	-8.23259
ising	-8.23346
▁every	-8.23389
▁prevent	-8.23578
border	-8.23629
▁guarantee	-8.2365
▁procedure	-8.23973
▁An	-8.24197
▁adopted	-8.24468
▁200	-8.24591
▁initiative	-8.2484
▁talk	-8.25685
▁Presidency	-8.25902
▁play	-8.25922
▁open	-8.25973
N	-8.26039
▁hand	-8.26113
▁ca	-8.26227
land	-8.26346
▁resources	-8.26359
▁instrument	-8.26611
▁fundamental	-8.26754
bu	-8.26772
D	-8.26799
▁Mrs	-8.26935
▁products	-8.27166
con	-8.27707
ions	-8.27787
▁sub	-8.28626
▁exist	-8.28974
▁authorities	-8.29035
stitution	-8.29158
▁policies	-8.29174
▁value	-8.29597
▁especially	-8.29907
▁wish	-8.30184
▁conditions	-8.30268
▁Ch	-8.30357
ible	-8.30364
day	-8.30454
▁main	-8.30594
gr	-8.3076
▁back	-8.30779
▁towards	-8.3086
▁business	-8.30959
▁sign	-8.31027
▁Russia	-8.31141
▁essential	-8.31273
▁protect	-8.3128
▁small	-8.31506
▁basis	-8.31556
▁person	-8.318
▁opportunity	-8.31805
▁start	-8.31865
▁move	-8.32418
▁bring	-8.32549
▁remain	-8.32626
▁importance	-8.32721
▁forward	-8.32745
▁challenge	-8.33046
▁done	-8.33397
▁risk	-8.33843
20	-8.33994
▁get	-8.3409
ified	-8.34101
lic	-8.34182
▁What	-8.3432
▁during	-8.34598
gra	-8.34976
▁strengthen	-8.3547
▁imp	-8.35915
str	-8.36001
▁Community	-8.36181
▁become	-8.36243
▁free	-8.36296
▁EUR	-8.36307
▁going	-8.36411
▁third	-8.36477
▁addition	-8.36537
▁treat	-8.36548
▁few	-8.36557
▁environmental	-8.3674
▁United	-8.37003
▁inter	-8.37146
▁working	-8.37239
▁reform	-8.37431
▁implementation	-8.37497
▁control	-8.37848
▁together	-8.38096
▁equal	-8.38153
▁safety	-8.38231
▁subject	-8.38309
▁workers	-8.38696
▁negotiations	-8.38828
▁At	-8.38998
▁three	-8.39364
▁data	-8.39367
▁greater	-8.39867
▁research	-8.40194
▁second	-8.40412
▁member	-8.40667
app	-8.40779
▁benefit	-8.4083
▁general	-8.4083
▁aid	-8.40868
ber	-8.41073
▁whole	-8.4108
▁tax	-8.41823
▁impact	-8.4209
▁funds	-8.42115
qui	-8.42152
▁price	-8.42265
▁No	-8.42285
▁commitment	-8.42429
▁used	-8.42978
M	-8.43038
▁hear	-8.43321
▁based	-8.43368
▁House	-8.43679
▁growth	-8.43716
ification	-8.44134
▁attention	-8.443
▁text	-8.44621
▁industry	-8.44848
▁children	-8.44963
▁fight	-8.4515
▁really	-8.45484
▁accept	-8.45572
▁reach	-8.45752
▁education	-8.45821
ruct	-8.45843
▁efforts	-8.45964
▁major	-8.46143
▁discuss	-8.46424
▁responsibility	-8.46687
▁produce	-8.46707
▁De	-8.46895
▁democracy	-8.47463
▁less	-8.47475
▁live	-8.47753
less	-8.47766
▁significant	-8.47795
▁while	-8.48207
▁internal	-8.48526
▁develop	-8.49018
▁refer	-8.494
▁life	-8.49551
▁understand	-8.4971
▁did	-8.4992
▁clearly	-8.50177
▁final	-8.50402
▁making	-8.50656
▁day	-8.50883
▁reduce	-8.51195
▁society	-8.51236
▁standards	-8.51296
▁democratic	-8.5154
▁down	-8.51688
▁another	-8.51845
▁sc	-8.52234
▁cause	-8.52367
▁address	-8.52437
▁happen	-8.52518
▁investment	-8.52978
▁increasing	-8.53839
▁positive	-8.53839
▁These	-8.53893
▁euro	-8.54156
▁effect	-8.54325
▁affect	-8.54359
▁taking	-8.55327
▁something	-8.5571
▁money	-8.55982
mark	-8.56226
▁least	-8.56533
ture	-8.56809
▁proposed	-8.56977
▁expect	-8.57003
▁10	-8.57053
▁agricultural	-8.57218
▁proper	-8.57234
istic	-8.57526
▁among	-8.57629
ough	-8.57733
G	-8.57988
▁provision	-8.58039
▁civil	-8.58125
▁always	-8.58146
▁fail	-8.58174
▁4	-8.58574
▁idea	-8.59184
▁employment	-8.59327
▁demand	-8.5948
▁companies	-8.59632
▁Fund	-8.59883
▁He	-8.60083
▁war	-8.6026
▁non	-8.609
▁quality	-8.60916
vo	-8.61016
ever	-8.61068
▁environment	-8.61273
▁target	-8.61273
▁key	-8.61396
▁draw	-8.61408
▁aware	-8.61542
▁care	-8.61561
▁offer	-8.61674
▁focus	-8.61767
▁production	-8.62081
▁invest	-8.62124
▁short	-8.62161
▁fully	-8.62163
▁full	-8.62626
mission	-8.62691
▁discussion	-8.62774
▁various	-8.62874
▁each	-8.62899
▁period	-8.63216
▁individual	-8.63261
▁19	-8.6344
▁promote	-8.63539
▁limit	-8.63628
▁once	-8.63881
▁Therefore	-8.64063
▁itself	-8.64088
▁mean	-8.64103
▁week	-8.64121
▁concerned	-8.64575
▁share	-8.6461
▁practice	-8.65103
▁colleague	-8.65243
▁face	-8.65717
▁complete	-8.6602
▁let	-8.66074
▁balance	-8.6611
▁name	-8.66132
way	-8.66561
▁sustainable	-8.66578
▁aspect	-8.67502
▁combat	-8.67742
▁context	-8.6786
▁2009	-8.68469
▁developing	-8.68614
▁yet	-8.68933
▁emphasis	-8.69571
▁meeting	-8.69724
▁Government	-8.69863
▁election	-8.70506
▁package	-8.70622
ably	-8.70634
▁single	-8.71566
▁having	-8.71708
▁Directive	-8.71733
▁receive	-8.71785
▁dialogue	-8.72056
▁Africa	-8.72331
▁solidarity	-8.72581
▁regional	-8.72584
▁All	-8.7265
▁draft	-8.73008
▁currently	-8.73263
▁rather	-8.73411
EC	-8.74122
▁statement	-8.74159
B	-8.74594
▁mechanism	-8.74707
▁build	-8.74861
▁lack	-8.74893
▁monitor	-8.75426
▁management	-8.75448
▁involved	-8.7579
▁actually	-8.75866
▁following	-8.76093
▁response	-8.7628
▁add	-8.76471
▁request	-8.76802
▁compromise	-8.7688
▁local	-8.76934
▁though	-8.77014
▁With	-8.77024
▁population	-8.77037
▁young	-8.77395
▁contribution	-8.77773
▁author	-8.77868
▁try	-8.7792
▁parliament	-8.77931
▁list	-8.78028
▁decide	-8.78101
▁competition	-8.78117
▁labour	-8.78435
▁poverty	-8.79021
▁transparency	-8.79047
▁funding	-8.79295
▁legislative	-8.79745
▁appropriate	-8.79906
▁recommend	-8.7996
▁majority	-8.79994
▁bank	-8.80017
▁Let	-8.80067
▁ago	-8.80139
▁raise	-8.80227
▁document	-8.80447
▁Court	-8.80666
▁available	-8.80881
▁cohesion	-8.81017
▁encourage	-8.81044
▁found	-8.81156
▁extremely	-8.8129
▁peace	-8.8129
▁answer	-8.81702
▁US	-8.82143
▁mis	-8.82964
▁First	-8.83167
▁follow	-8.83367
▁low	-8.83533
▁feel	-8.83538
▁conclusion	-8.8364
▁stress	-8.83731
▁2008	-8.83937
▁field	-8.84427
▁emissions	-8.84459
▁responsible	-8.84539
▁simply	-8.84794
▁apply	-8.85148
▁priority	-8.85732
▁assistance	-8.85789
▁joint	-8.85796
FR	-8.86108
▁fair	-8.86168
▁quit	-8.863
▁2020	-8.86524
▁potential	-8.86708
▁activities	-8.86795
▁Minister	-8.87084
▁China	-8.87202
▁threat	-8.87316
▁nuclear	-8.87403
▁contribute	-8.87694
▁due	-8.87999
▁billion	-8.88103
▁application	-8.88278
▁Finally	-8.89073
▁several	-8.89846
▁review	-8.90112
▁kind	-8.90501
spite	-8.91304
▁keep	-8.91494
▁committee	-8.91585
▁intend	-8.91609
▁conflict	-8.91858
▁natural	-8.91888
▁recognise	-8.91888
▁innovation	-8.92498
▁fellow	-8.92682
▁shall	-8.92809
▁introduce	-8.92865
▁Com	-8.9318
▁road	-8.9341
▁integration	-8.93419
▁special	-8.93446
▁depend	-8.94167
PL	-8.94404
▁enable	-8.94529
elect	-8.95215
▁true	-8.95419
▁origin	-8.95511
IT	-8.95778
▁German	-8.96457
▁entire	-8.96617
▁success	-8.96636
▁operation	-8.96712
▁illegal	-8.96744
▁enough	-8.96771
▁crime	-8.96874
▁experience	-8.96935
▁link	-8.97226
▁farmers	-8.97353
▁Affairs	-8.97577
▁foreign	-8.97577
▁creation	-8.97877
▁maintain	-8.98061
K	-8.98244
▁Turkey	-8.98319
▁Social	-8.98677
▁themselves	-8.98774
▁never	-8.99023
▁count	-8.99086
▁2010	-8.991
▁crucial	-8.99132
▁violence	-8.99328
▁indeed	-8.99414
▁rule	-8.99498
Rule	-8.99703
▁multi	-8.99792
▁involve	-9.00378
▁consequences	-9.00514
▁contain	-9.00649
▁2007	-9.01136
▁cross	-9.01148
▁Euro	-9.01258
▁000	-9.01278
▁congratulate	-9.01445
▁Rights	-9.01747
▁highlight	-9.02386
▁total	-9.02404
▁reduction	-9.02453
▁efficiency	-9.02487
▁turn	-9.02681
▁avoid	-9.02963
▁broad	-9.03474
▁manage	-9.03582
▁Thank	-9.03847
▁suffer	-9.03986
▁above	-9.04156
▁medium	-9.04293
▁requirements	-9.04344
▁source	-9.04365
▁past	-9.04828
▁excellent	-9.05053
▁Republic	-9.05088
▁basic	-9.0537
▁Minutes	-9.05888
▁water	-9.06118
▁vital	-9.0636
▁amount	-9.06554
V	-9.06609
H	-9.07111
▁opportunities	-9.07367
▁previous	-9.07794
▁spec	-9.08391
▁poor	-9.08434
▁voting	-9.08657
▁everyone	-9.08663
▁disaster	-9.08869
▁external	-9.08904
▁mind	-9.09142
▁ensuring	-9.09229
▁pass	-9.09409
▁Article	-9.09808
▁East	-9.10015
▁priorities	-9.10209
▁assessment	-9.10245
▁restrict	-9.10245
▁communication	-9.10391
▁task	-9.10504
▁Ireland	-9.10947
▁criteria	-9.11199
▁across	-9.11494
▁governance	-9.11568
▁visa	-9.11856
▁enterprises	-9.12087
▁around	-9.12169
▁Romania	-9.12396
▁hard	-9.12397
▁conclude	-9.12422
▁grant	-9.12443
▁element	-9.12499
▁efficient	-9.12834
▁collect	-9.13059
▁finance	-9.13101
▁technical	-9.13171
▁agenda	-9.13171
▁partnership	-9.13548
▁successful	-9.14207
▁capital	-9.14229
▁little	-9.14383
▁import	-9.14556
▁living	-9.15071
▁suggest	-9.1526
▁method	-9.15838
▁immediate	-9.15992
▁strategic	-9.15992
▁obvious	-9.1607
▁neighbour	-9.16341
▁urgent	-9.16344
▁private	-9.16418
▁purpose	-9.16418
▁Development	-9.16496
▁relating	-9.16578
▁competitiveness	-9.16599
▁learn	-9.16813
▁obligation	-9.16846
▁media	-9.16911
▁reflect	-9.17002
▁traffic	-9.17276
▁along	-9.17277
▁regime	-9.17475
▁UN	-9.17709
▁carried	-9.17792
▁comment	-9.17855
▁doubt	-9.17865
▁danger	-9.17984
▁perhaps	-9.18063
▁speech	-9.1826
▁respond	-9.18379
▁him	-9.18422
▁Agreement	-9.18617
▁thus	-9.18759
▁function	-9.18895
▁agriculture	-9.18935
▁network	-9.18935
▁supply	-9.18935
▁employ	-9.18975
▁nothing	-9.191
▁reject	-9.19134
▁sitting	-9.19375
▁pressure	-9.19414
▁post	-9.19572
Office	-9.19655
▁defend	-9.19739
▁urge	-9.2024
▁detail	-9.20623
▁hold	-9.20751
▁model	-9.20837
▁throughout	-9.20867
▁Roma	-9.20894
▁qua	-9.21181
point	-9.21383
▁death	-9.2141
▁quickly	-9.21434
▁tomorrow	-9.21557
▁service	-9.21645
▁animal	-9.21771
▁When	-9.2197
▁training	-9.22131
▁extend	-9.22595
▁infrastructure	-9.23247
▁message	-9.23373
▁Secondly	-9.23622
▁firm	-9.23673
▁although	-9.23872
▁Greece	-9.23914
▁financing	-9.2404
▁community	-9.24292
ibility	-9.24418
▁correct	-9.24713
▁huge	-9.24713
▁immigration	-9.25517
▁join	-9.2555
▁International	-9.2556
▁until	-9.25657
▁everything	-9.26033
▁ambitious	-9.26243
▁return	-9.26587
▁coordination	-9.27406
▁creating	-9.27583
▁language	-9.28189
▁military	-9.28583
▁exchange	-9.29111
▁effort	-9.29311
▁humanitarian	-9.29376
▁providing	-9.29376
▁criminal	-9.29553
▁sense	-9.29871
▁remind	-9.30041
▁leave	-9.30042
▁approve	-9.3013
▁attempt	-9.30353
▁attack	-9.30398
sized	-9.30399
▁propose	-9.30722
▁structure	-9.30756
▁Regulation	-9.308
▁terrorism	-9.30845
▁regret	-9.31251
Christian	-9.31385
▁measure	-9.31499
▁held	-9.31529
▁improving	-9.31565
▁ourselves	-9.31565
▁sufficient	-9.3161
▁America	-9.32336
▁ground	-9.32337
▁Israel	-9.32382
▁Un	-9.32436
▁passenger	-9.32792
▁credit	-9.32839
▁summit	-9.33573
▁relevant	-9.33758
▁demonstrate	-9.33943
▁promoting	-9.34314
related	-9.3442
▁French	-9.34499
ritten	-9.34888
▁type	-9.35111
ttle	-9.35708
▁independent	-9.3581
▁travel	-9.35952
▁December	-9.35999
▁resolve	-9.36236
▁justice	-9.36247
▁culture	-9.36331
▁possibility	-9.36425
▁repeat	-9.36655
▁nature	-9.36805
▁Democrats	-9.37043
▁South	-9.37485
▁almost	-9.37762
▁according	-9.37858
▁burden	-9.37954
▁fisheries	-9.38389
place	-9.39098
▁emerge	-9.39268
▁family	-9.39654
▁agencies	-9.39949
▁Strategy	-9.40047
▁liberal	-9.40244
▁safeguard	-9.40738
▁applied	-9.40936
▁Belarus	-9.41035
▁reducing	-9.41135
▁administrative	-9.41234
▁industrial	-9.41284
▁comprehensive	-9.41334
▁Ukraine	-9.41483
▁left	-9.41484
▁Czech	-9.41833
▁adapt	-9.41885
▁official	-9.42034
▁Bank	-9.42138
▁Internet	-9.42486
▁vehicle	-9.42536
▁six	-9.42538
▁impose	-9.42713
▁either	-9.43653
▁technology	-9.43703
▁Convention	-9.43856
▁brought	-9.43958
▁child	-9.4411
▁capacity	-9.4478
▁knowledge	-9.45245
▁self	-9.45668
▁modern	-9.45973
▁facing	-9.46095
▁obtain	-9.46339
▁Furthermore	-9.46496
▁renewable	-9.46548
▁giving	-9.46658
▁Hungarian	-9.46758
▁unacceptable	-9.46811
▁behind	-9.47022
▁unemployment	-9.47444
▁tackle	-9.47975
▁conduct	-9.48082
▁rural	-9.4809
▁genuine	-9.48831
▁patient	-9.48992
▁transfer	-9.49003
▁exploit	-9.49207
▁concrete	-9.49477
▁Unfortunately	-9.49693
▁technologies	-9.49802
▁North	-9.49807
▁minimum	-9.49856
▁disease	-9.50074
▁alternative	-9.50128
▁contract	-9.50237
▁material	-9.504
▁adequate	-9.50509
▁remember	-9.50947
▁similar	-9.51167
▁Human	-9.51167
▁introduction	-9.51276
▁Barroso	-9.51497
▁economies	-9.51607
▁deliver	-9.51775
▁asylum	-9.52216
▁practical	-9.52272
▁choice	-9.52606
▁confirm	-9.52662
▁school	-9.52662
▁Green	-9.52723
▁scope	-9.52831
▁competitive	-9.52849
▁recovery	-9.52997
ological	-9.53053
▁activity	-9.53053
▁France	-9.53167
▁Economic	-9.53333
▁Party	-9.53335
▁coordinate	-9.53446
▁safe	-9.53472
▁confidence	-9.53558
Applause	-9.53615
▁damage	-9.53671
▁Bulgaria	-9.5384
▁spoke	-9.53841
▁figure	-9.54124
▁June	-9.54126
▁condemn	-9.5435
▁appear	-9.54408
▁mobility	-9.54463
▁transparent	-9.54918
▁competence	-9.55033
▁negative	-9.5509
▁scheme	-9.55262
▁pension	-9.55319
▁instead	-9.5532
▁exception	-9.55433
▁influence	-9.55433
▁beyond	-9.55491
▁advantage	-9.5572
▁expert	-9.55897
▁achieving	-9.56008
scale	-9.56024
▁scientific	-9.56066
▁Schengen	-9.56355
▁SMEs	-9.56529
▁circumstances	-9.56529
▁voice	-9.56995
▁Vice	-9.57119
▁Central	-9.57169
▁perspective	-9.57286
▁2011	-9.57286
President	-9.57715
▁rapid	-9.57814
▁mutual	-9.57872
▁mandate	-9.57992
▁People	-9.58461
▁Agency	-9.58521
▁Amendment	-9.58817
▁central	-9.58817
▁tradition	-9.59173
▁serve	-9.59257
European	-9.59278
▁connection	-9.59354
▁duty	-9.59358
▁history	-9.59592
▁Moreover	-9.59651
▁substance	-9.59711
▁trust	-9.59713
▁violation	-9.5989
▁fulfil	-9.59951
▁Justice	-9.6001
▁opposition	-9.6007
▁launch	-9.6007
▁oppose	-9.60251
▁accordance	-9.60431
▁wrong	-9.60794
▁status	-9.60857
▁half	-9.60916
▁complex	-9.60976
▁Georgia	-9.61036
▁Poland	-9.61708
▁integrated	-9.62073
▁strict	-9.62321
▁participation	-9.6238
▁annual	-9.62381
▁check	-9.62442
▁prison	-9.62626
▁explain	-9.6312
▁enforce	-9.63182
▁claim	-9.6362
▁migration	-9.63679
▁World	-9.63741
▁Copenhagen	-9.64304
▁independence	-9.64744
▁Market	-9.6487
▁bodies	-9.64934
▁sanctions	-9.65249
▁intervention	-9.65439
▁bilateral	-9.66075
▁enhance	-9.66075
▁Croatia	-9.66138
▁concept	-9.66139
▁paragraph	-9.66202
▁Although	-9.66779
▁delegation	-9.66907
▁dimension	-9.67229
▁discharge	-9.67488
▁campaign	-9.67617
▁sovereign	-9.67617
▁label	-9.67619
General	-9.67752
▁secure	-9.67946
▁consistent	-9.68202
▁declaration	-9.68594
▁professional	-9.68659
▁minorities	-9.68791
▁facilitate	-9.69382
▁Brussels	-9.69448
▁charge	-9.69514
▁guidelines	-9.70977
▁Kosovo	-9.71044
▁accident	-9.71246
▁convinced	-9.71246
▁Trade	-9.71247
W	-9.71773
▁referendum	-9.71785
▁Serbia	-9.7192
▁Programme	-9.72055
▁families	-9.72123
▁recognition	-9.7253
▁generation	-9.72599
▁occur	-9.72599
▁citizen	-9.72851
▁appeal	-9.73214
minute	-9.73569
▁advance	-9.73625
▁quota	-9.74109
▁commercial	-9.74246
▁January	-9.74316
▁maritime	-9.74385
▁police	-9.74524
▁regulatory	-9.75781
▁vulnerable	-9.75781
▁Service	-9.75851
▁constructive	-9.76345
▁succeed	-9.7677
pproval	-9.76912
▁binding	-9.76913
▁Balkan	-9.78489
▁consensus	-9.78489
▁Security	-9.78561
▁simple	-9.79068
▁domestic	-9.79141
▁critical	-9.79141
▁conference	-9.79797
▁record	-9.79798
▁exercise	-9.80458
▁Energy	-9.80901
▁expenditure	-9.81049
▁November	-9.81123
▁electric	-9.81346
responsibilities	-9.81644
▁inclusion	-9.81718
▁occasion	-9.81793
▁permanent	-9.81868
▁religious	-9.82542
▁custom	-9.82919
▁terrorist	-9.82995
▁announce	-9.83146
▁substantial	-9.83601
▁regular	-9.83753
▁evaluation	-9.84058
▁administration	-9.84364
▁supervision	-9.84364
▁Partnership	-9.84441
▁Representative	-9.84441
(	-9.85112
q	-9.95552
J	-11.074
