<pad>	0
</s>	0
<unk>	0
▁ا	-0
▁ال	-1
▁و	-2
▁م	-3
▁ف	-4
▁ل	-5
▁ي	-6
▁ب	-7
ان	-8
ال	-9
▁ع	-10
ين	-11
▁ك	-12
▁في	-13
ون	-14
وا	-15
▁ت	-16
▁من	-17
رب	-18
ما	-19
لا	-20
▁ان	-21
▁ق	-22
▁ه	-23
را	-24
ها	-25
هم	-26
▁وا	-27
نا	-28
▁الم	-29
لك	-30
ذا	-31
▁ح	-32
يا	-33
▁س	-34
▁عل	-35
▁الى	-36
ار	-37
▁الرب	-38
▁ج	-39
▁وال	-40
كم	-41
يل	-42
▁ن	-43
لم	-44
▁لا	-45
يم	-46
▁اس	-47
دا	-48
▁ر	-49
يت	-50
▁الذ	-51
▁الا	-52
▁ش	-53
▁على	-54
ير	-55
▁كل	-56
▁لان	-57
ول	-58
ني	-59
▁خ	-60
▁اب	-61
تي	-62
ور	-63
له	-64
مي	-65
يد	-66
ائ	-67
قال	-68
▁ص	-69
▁الس	-70
عل	-71
اب	-72
ري	-73
ئيل	-74
▁وك	-75
رج	-76
▁عن	-77
▁لي	-78
مع	-79
▁الذي	-80
اء	-81
▁الش	-82
عب	-83
▁الي	-84
ود	-85
▁قد	-86
عد	-87
وم	-88
▁.	-89
▁مع	-90
▁وي	-91
وت	-92
رائيل	-93
ذه	-94
مل	-95
▁بن	-96
▁اسرائيل	-97
وب	-98
▁ث	-99
ية	-100
▁وم	-101
قد	-102
وس	-103
▁الب	-104
حد	-105
▁وت	-106
▁لل	-107
▁الج	-108
▁ار	-109
ام	-110
كون	-111
▁اي	-112
▁ول	-113
▁بال	-114
▁اخ	-115
▁وب	-116
▁الك	-117
▁ولا	-118
▁الله	-119
▁يس	-120
ضا	-121
ته	-122
▁الار	-123
جل	-124
▁هو	-125
▁يا	-126
تم	-127
▁ما	-128
هو	-129
ميع	-130
▁كان	-131
▁آ	-132
▁لم	-133
▁فا	-134
▁له	-135
مر	-136
▁علي	-137
▁هذا	-138
وع	-139
▁أ	-140
▁الح	-141
▁وس	-142
▁فقال	-143
كن	-144
لب	-145
▁وج	-146
▁الارض	-147
كل	-148
▁د	-149
▁التي	-150
▁ذ	-151
▁اله	-152
▁بيت	-153
فس	-154
▁اع	-155
عة	-156
نة	-157
عا	-158
▁اما	-159
دي	-160
▁يق	-161
▁ط	-162
بي	-163
رة	-164
با	-165
▁غ	-166
رف	-167
لام	-168
بر	-169
▁وان	-170
▁ايضا	-171
▁ملك	-172
▁الع	-173
خل	-174
▁وقال	-175
▁الف	-176
▁يع	-177
تك	-178
▁وع	-179
▁وق	-180
▁انا	-181
تى	-182
▁قائ	-183
▁الملك	-184
▁جميع	-185
▁لك	-186
سل	-187
سي	-188
ست	-189
صر	-190
سب	-191
▁الذين	-192
وح	-193
▁او	-194
نع	-195
في	-196
مة	-197
▁يد	-198
▁قال	-199
▁وكان	-200
بل	-201
وه	-202
رق	-203
▁دا	-204
يس	-205
اه	-206
جد	-207
▁به	-208
كر	-209
▁ثم	-210
▁الق	-211
يام	-212
▁لانه	-213
ذهب	-214
خذ	-215
▁الخ	-216
مس	-217
سان	-218
▁عند	-219
حا	-220
دين	-221
▁بني	-222
▁بل	-223
ليم	-224
▁ابن	-225
هر	-226
شر	-227
▁امام	-228
كذا	-229
فر	-230
▁ام	-231
وق	-232
▁يهو	-233
▁فت	-234
▁واحد	-235
ضع	-236
▁اق	-237
▁اليوم	-238
يين	-239
▁با	-240
▁هكذا	-241
بع	-242
▁ارض	-243
▁الن	-244
طي	-245
▁ومن	-246
ماء	-247
سا	-248
▁لهم	-249
▁داود	-250
خر	-251
▁الشعب	-252
▁هنا	-253
▁فان	-254
رك	-255
▁انت	-256
رع	-257
▁ون	-258
▁فل	-259
اد	-260
فت	-261
▁اح	-262
▁يسوع	-263
▁كما	-264
▁ز	-265
▁رب	-266
▁هذه	-267
▁الآ	-268
▁وكل	-269
تل	-270
▁ولك	-271
▁قائلا	-272
رت	-273
مه	-274
كان	-275
ذب	-276
وسى	-277
▁بعد	-278
▁الص	-279
▁حتى	-280
▁وص	-281
ورش	-282
▁تع	-283
▁اذ	-284
▁وح	-285
قل	-286
▁ذلك	-287
دينة	-288
به	-289
▁يكون	-290
ورشليم	-291
▁كث	-292
▁الر	-293
▁تح	-294
▁يهوذا	-295
▁نفس	-296
▁واما	-297
▁اج	-298
قط	-299
▁يقول	-300
خرج	-301
▁وفي	-302
ظر	-303
▁ين	-304
▁رج	-305
دم	-306
ساء	-307
▁ولم	-308
بت	-309
▁موسى	-310
▁اورشليم	-311
▁يح	-312
▁عب	-313
▁هناك	-314
فا	-315
▁را	-316
▁الت	-317
يه	-318
▁ولكن	-319
▁ليس	-320
▁بين	-321
فع	-322
▁الام	-323
وك	-324
يمة	-325
▁انه	-326
▁هي	-327
▁الغ	-328
يرة	-329
نت	-330
يق	-331
▁اش	-332
▁حسب	-333
حم	-334
▁وه	-335
ات	-336
▁شي	-337
▁امر	-338
زل	-339
▁عين	-340
لاث	-341
▁النا	-342
سم	-343
دن	-344
▁لكي	-345
▁بنو	-346
رون	-347
ضرب	-348
كلم	-349
ئة	-350
لق	-351
مال	-352
▁نح	-353
▁اليه	-354
▁يت	-355
▁لكم	-356
يف	-357
يب	-358
▁سب	-359
▁شعب	-360
طر	-361
ذلك	-362
يون	-363
▁الان	-364
ريق	-365
▁عليه	-366
كت	-367
وج	-368
حة	-369
▁بع	-370
▁قلب	-371
▁حين	-372
سيح	-373
▁مصر	-374
من	-375
▁عظ	-376
▁الث	-377
ينا	-378
▁عش	-379
▁اص	-380
▁رأ	-381
▁شا	-382
راء	-383
▁نا	-384
▁رجل	-385
فعل	-386
▁الرج	-387
▁باب	-388
▁قل	-389
▁ايام	-390
▁اذا	-391
▁وش	-392
طا	-393
▁يش	-394
▁سمع	-395
وف	-396
▁لت	-397
بة	-398
وات	-399
▁وخ	-400
أة	-401
▁لما	-402
▁المدينة	-403
▁يم	-404
آب	-405
▁مح	-406
▁اجل	-407
وة	-408
ثل	-409
ذبح	-410
▁تق	-411
ضة	-412
دخل	-413
▁يو	-414
▁الاب	-415
▁وجه	-416
اني	-417
▁اني	-418
قدس	-419
ياء	-420
▁المسيح	-421
▁اث	-422
حر	-423
▁بها	-424
▁وعل	-425
▁للرب	-426
خا	-427
▁وسط	-428
تها	-429
▁يوم	-430
▁احد	-431
يرا	-432
شا	-433
تهم	-434
لاء	-435
يدي	-436
▁رؤ	-437
▁ولما	-438
تا	-439
فظ	-440
▁لب	-441
▁ور	-442
▁يأ	-443
▁الشر	-444
هد	-445
▁لن	-446
جا	-447
▁يب	-448
رجع	-449
رية	-450
▁تس	-451
▁يص	-452
▁مئة	-453
كث	-454
▁فلا	-455
▁مل	-456
▁فيه	-457
▁وعلى	-458
▁الل	-459
▁عمل	-460
▁تن	-461
▁جاء	-462
▁وهو	-463
حق	-464
▁السماء	-465
▁اف	-466
▁كلم	-467
دع	-468
اهن	-469
▁عشر	-470
▁ايها	-471
طين	-472
▁ير	-473
▁لاني	-474
هما	-475
طلب	-476
▁كال	-477
ربع	-478
دة	-479
صا	-480
مت	-481
▁وأ	-482
▁واع	-483
يك	-484
▁قائل	-485
يش	-486
▁هم	-487
▁الجن	-488
قوب	-489
▁حي	-490
هنة	-491
▁تخ	-492
▁بق	-493
سر	-494
▁بي	-495
▁الامم	-496
▁كلام	-497
▁الانسان	-498
▁فلما	-499
سد	-500
▁ثلاث	-501
جر	-502
ارك	-503
رض	-504
ياه	-505
ؤلاء	-506
نين	-507
▁انتم	-508
▁هوذا	-509
▁والم	-510
▁الآن	-511
▁سنة	-512
بائ	-513
▁تكون	-514
▁يخ	-515
▁انسان	-516
▁واق	-517
سة	-518
▁فاج	-519
▁معه	-520
▁واذا	-521
ئيس	-522
قدم	-523
▁مثل	-524
▁قدا	-525
وضع	-526
▁شاول	-527
▁واخ	-528
لس	-529
▁الكاهن	-530
▁تر	-531
▁واح	-532
▁البيت	-533
تكلم	-534
▁الط	-535
بز	-536
مك	-537
حل	-538
▁للم	-539
▁ات	-540
▁فيها	-541
قا	-542
وها	-543
زع	-544
▁طريق	-545
▁هل	-546
▁لاجل	-547
▁ولد	-548
وش	-549
▁مس	-550
▁لذلك	-551
▁نع	-552
▁الد	-553
▁تأ	-554
▁مت	-555
▁قائلين	-556
▁عم	-557
جعل	-558
▁جدا	-559
▁الهك	-560
رام	-561
▁است	-562
▁فر	-563
▁كر	-564
ضي	-565
▁ارسل	-566
▁الابد	-567
دد	-568
وال	-569
▁الرجل	-570
▁يعقوب	-571
وني	-572
بال	-573
جع	-574
▁تحت	-575
▁لها	-576
قي	-577
ارة	-578
▁السيد	-579
▁ض	-580
لامي	-581
صي	-582
▁واب	-583
▁ابي	-584
▁وبن	-585
▁هؤلاء	-586
لاك	-587
▁ود	-588
معوا	-589
▁فار	-590
▁لانهم	-591
▁سا	-592
▁تكلم	-593
▁تت	-594
▁صوت	-595
▁فلم	-596
▁وث	-597
▁فال	-598
آن	-599
طع	-600
ضب	-601
نم	-602
مات	-603
مان	-604
▁وز	-605
▁شيء	-606
▁البحر	-607
يمان	-608
▁راس	-609
▁كنت	-610
ارج	-611
▁الز	-612
▁نحو	-613
طية	-614
شي	-615
▁فن	-616
▁بك	-617
▁فعل	-618
قة	-619
قول	-620
الم	-621
▁وراء	-622
▁صار	-623
حي	-624
▁اعط	-625
ضط	-626
يده	-627
راه	-628
▁فس	-629
▁ذهب	-630
عبد	-631
▁رئيس	-632
كثر	-633
لاو	-634
▁الكهنة	-635
▁لنا	-636
صعد	-637
▁الناس	-638
جت	-639
عوب	-640
▁ظ	-641
ائر	-642
▁فأ	-643
قر	-644
▁يدي	-645
▁لماذا	-646
▁كثير	-647
فن	-648
لت	-649
▁بابل	-650
▁عبد	-651
▁عليك	-652
هب	-653
صنع	-654
ولا	-655
▁الوا	-656
ئذ	-657
ورة	-658
▁قبل	-659
▁منه	-660
▁كانوا	-661
▁الجنود	-662
▁خمس	-663
▁وانا	-664
▁عليهم	-665
▁فاجاب	-666
▁كانت	-667
▁امرأة	-668
رد	-669
▁غير	-670
▁واس	-671
بك	-672
▁حا	-673
طل	-674
رائ	-675
لسطين	-676
ليمان	-677
▁آبائ	-678
وته	-679
▁الايام	-680
▁كثيرة	-681
بيحة	-682
صف	-683
▁أل	-684
▁يكن	-685
▁رجال	-686
خت	-687
▁ويكون	-688
سن	-689
مو	-690
انا	-691
▁السم	-692
▁نفسه	-693
انب	-694
طلق	-695
ونه	-696
▁والا	-697
رى	-698
قت	-699
وخ	-700
▁جبل	-701
▁سليمان	-702
علم	-703
▁بنا	-704
▁روح	-705
▁صنع	-706
▁المس	-707
▁وجميع	-708
▁اليهود	-709
▁الفلسطين	-710
▁جل	-711
▁آخر	-712
▁جعل	-713
هل	-714
▁بر	-715
رعون	-716
▁فوق	-717
ملك	-718
يلة	-719
▁تش	-720
▁وغ	-721
▁تلك	-722
▁السموات	-723
وي	-724
▁الهي	-725
صل	-726
▁وقد	-727
▁مكان	-728
ند	-729
▁وف	-730
▁لكن	-731
▁نحن	-732
مد	-733
ماع	-734
▁لانك	-735
فوا	-736
▁خرج	-737
▁عنه	-738
راب	-739
▁اد	-740
▁فكان	-741
وسف	-742
▁عيني	-743
شب	-744
قيا	-745
ونا	-746
▁عشرة	-747
▁نج	-748
راهيم	-749
▁ماذا	-750
فرح	-751
▁الحق	-752
▁عليها	-753
نب	-754
▁جه	-755
▁مو	-756
▁قدام	-757
▁لنفس	-758
▁رؤساء	-759
ئا	-760
عاد	-761
▁كن	-762
راع	-763
▁فد	-764
حت	-765
▁خبز	-766
جي	-767
ثان	-768
▁ست	-769
▁حينئذ	-770
ثا	-771
ذين	-772
رقة	-773
▁السا	-774
نى	-775
قام	-776
▁بم	-777
▁ابنه	-778
عون	-779
▁ارت	-780
▁انك	-781
▁وحد	-782
▁الاخ	-783
أل	-784
▁اولا	-785
▁الروح	-786
اح	-787
رس	-788
دائ	-789
وان	-790
ياة	-791
▁ها	-792
▁نفسي	-793
ئلا	-794
▁وانت	-795
▁الاول	-796
▁فرعون	-797
موس	-798
▁ايا	-799
▁اليك	-800
▁واخذ	-801
اس	-802
نان	-803
انذا	-804
▁بلا	-805
▁يده	-806
عمل	-807
▁مدينة	-808
هلك	-809
ماعة	-810
▁اقول	-811
اله	-812
زي	-813
كمة	-814
▁بح	-815
▁مدن	-816
▁القد	-817
▁الكلام	-818
رجل	-819
▁سي	-820
▁لئلا	-821
▁البرية	-822
▁منهم	-823
فة	-824
رار	-825
▁العظ	-826
قيم	-827
▁دم	-828
▁اسمه	-829
جمع	-830
طان	-831
دت	-832
وية	-833
كتوب	-834
▁مست	-835
▁المح	-836
▁هرون	-837
▁اخذ	-838
▁السنة	-839
قب	-840
▁والع	-841
وز	-842
▁والى	-843
ضر	-844
توا	-845
عبر	-846
نون	-847
▁هانذا	-848
▁حيث	-849
▁الاش	-850
▁المر	-851
▁يوسف	-852
▁واحدة	-853
▁مر	-854
▁والب	-855
▁دع	-856
▁وليس	-857
فل	-858
▁تب	-859
▁تم	-860
انية	-861
▁المذبح	-862
▁ابراهيم	-863
داء	-864
واب	-865
▁فم	-866
▁معك	-867
▁يست	-868
▁الآب	-869
وهم	-870
▁يز	-871
▁يغ	-872
▁وار	-873
▁الطريق	-874
الك	-875
يدة	-876
▁كت	-877
▁انفس	-878
طف	-879
وقت	-880
▁بعض	-881
▁اخرج	-882
أت	-883
لكم	-884
▁عظيم	-885
ضل	-886
كا	-887
لهة	-888
ورا	-889
ينة	-890
▁ضرب	-891
▁مجد	-892
▁اذهب	-893
▁المع	-894
▁وخمس	-895
هن	-896
▁فه	-897
▁مش	-898
▁وير	-899
▁ابنا	-900
▁اكثر	-901
▁سيدي	-902
▁سبط	-903
▁سبع	-904
▁الشعوب	-905
دون	-906
ابوت	-907
▁الكل	-908
▁يسمع	-909
▁يشوع	-910
▁حز	-911
▁بيته	-912
لف	-913
حاب	-914
▁عا	-915
ربوا	-916
▁ثيا	-917
▁حول	-918
▁لاب	-919
▁وعمل	-920
رايم	-921
▁اسم	-922
▁سر	-923
▁فح	-924
جميع	-925
يامين	-926
زم	-927
كب	-928
▁بالا	-929
▁الشهر	-930
▁اغ	-931
ربعة	-932
▁الفا	-933
▁وعشر	-934
ذي	-935
▁مب	-936
داود	-937
▁رأى	-938
▁سبعة	-939
▁القدس	-940
▁الهنا	-941
▁مكتوب	-942
▁اربع	-943
▁شعبي	-944
▁الحقل	-945
▁ثلاثة	-946
قدر	-947
▁شيئا	-948
▁واحدا	-949
فق	-950
▁الظ	-951
▁بكل	-952
▁كلمة	-953
ريب	-954
▁بيد	-955
▁كيف	-956
▁نس	-957
▁ومع	-958
▁وكلم	-959
▁اللاو	-960
▁والآن	-961
انيين	-962
▁الرا	-963
▁المن	-964
▁يخرج	-965
▁العالم	-966
حاس	-967
▁ذا	-968
▁وآ	-969
▁وكانت	-970
▁فج	-971
▁مخ	-972
▁ايل	-973
▁دخل	-974
▁وما	-975
▁يعرف	-976
وص	-977
هار	-978
يته	-979
بياء	-980
▁وملك	-981
بح	-982
جب	-983
غض	-984
غي	-985
دوا	-986
▁ماء	-987
▁متى	-988
▁الموت	-989
ئك	-990
رفع	-991
▁المت	-992
▁وجاء	-993
▁يأتي	-994
ؤمن	-995
▁نب	-996
▁سيد	-997
▁معي	-998
ضى	-999
نه	-1000
▁اين	-1001
▁جهة	-1002
▁مرا	-1003
▁تقول	-1004
▁عبيد	-1005
▁الاردن	-1006
زر	-1007
لمة	-1008
▁كا	-1009
▁قلوب	-1010
قطع	-1011
▁لكل	-1012
▁الجل	-1013
▁خارج	-1014
▁واعط	-1015
▁فضة	-1016
▁الاث	-1017
▁يعمل	-1018
خبر	-1019
▁تج	-1020
▁عد	-1021
▁مق	-1022
▁الواحد	-1023
▁وبعد	-1024
▁الرجال	-1025
▁وقالوا	-1026
▁الفلسطينيين	-1027
جن	-1028
عط	-1029
▁خيمة	-1030
▁الباب	-1031
▁الهكم	-1032
▁المرأة	-1033
حن	-1034
وث	-1035
سوا	-1036
قدمة	-1037
تكم	-1038
ضاء	-1039
▁يف	-1040
▁معا	-1041
▁ابني	-1042
▁الجميع	-1043
▁شر	-1044
ؤساء	-1045
▁منذ	-1046
▁حق	-1047
▁اخت	-1048
▁المص	-1049
▁لبني	-1050
▁اليكم	-1051
▁موآب	-1052
ذل	-1053
تين	-1054
رفة	-1055
▁الجبل	-1056
طئ	-1057
وى	-1058
ولس	-1059
يات	-1060
▁اعمال	-1061
▁بخ	-1062
▁يه	-1063
طايا	-1064
يتها	-1065
▁عبر	-1066
▁الكر	-1067
▁وضرب	-1068
▁يدخل	-1069
▁النبي	-1070
طرس	-1071
يلا	-1072
▁الها	-1073
▁عليكم	-1074
▁افرايم	-1075
دى	-1076
ربة	-1077
سيف	-1078
شعب	-1079
▁لح	-1080
جارة	-1081
▁آدم	-1082
▁ذبيحة	-1083
هيون	-1084
▁رؤوس	-1085
▁سكان	-1086
▁ملوك	-1087
سك	-1088
يما	-1089
ضطجع	-1090
▁ايدي	-1091
▁يعلم	-1092
ظم	-1093
نار	-1094
▁طرق	-1095
▁يتكلم	-1096
ئم	-1097
ابل	-1098
الح	-1099
ثبت	-1100
ميا	-1101
▁وجعل	-1102
تان	-1103
صرخ	-1104
وتي	-1105
ريعة	-1106
▁اعدائ	-1107
الث	-1108
الي	-1109
صوت	-1110
لاف	-1111
▁صهيون	-1112
▁مج	-1113
▁يدك	-1114
▁ابيه	-1115
▁تعلم	-1116
▁فانه	-1117
▁لداود	-1118
لاص	-1119
قذ	-1120
كلون	-1121
▁صاح	-1122
▁وين	-1123
جتماع	-1124
▁وثلاث	-1125
عطي	-1126
▁نص	-1127
موئيل	-1128
▁عبدك	-1129
طيع	-1130
لامة	-1131
▁وبنو	-1132
▁يفعل	-1133
▁الاجتماع	-1134
ظروا	-1135
▁قتل	-1136
▁ليد	-1137
▁وذهب	-1138
طة	-1139
ذكر	-1140
مار	-1141
▁جب	-1142
▁سل	-1143
▁بنت	-1144
▁قلت	-1145
▁ويس	-1146
▁قلبه	-1147
▁كذلك	-1148
▁منها	-1149
▁يعطي	-1150
▁الشمس	-1151
انة	-1152
ظهر	-1153
▁بس	-1154
▁تا	-1155
▁فهو	-1156
▁باسم	-1157
▁بطرس	-1158
▁يطلب	-1159
▁المياه	-1160
▁بولس	-1161
▁رأيت	-1162
▁فخرج	-1163
▁وارسل	-1164
مون	-1165
▁ويش	-1166
در	-1167
ده	-1168
باط	-1169
صير	-1170
مسك	-1171
جرة	-1172
سبب	-1173
▁عظيمة	-1174
باح	-1175
جلس	-1176
ولد	-1177
▁بغ	-1178
▁لس	-1179
▁سلا	-1180
▁صعد	-1181
▁غضب	-1182
▁ويت	-1183
▁اشور	-1184
▁فقالت	-1185
▁كثيرا	-1186
أوا	-1187
▁اكل	-1188
▁خطية	-1189
▁رجلا	-1190
لاميذه	-1191
▁فارسل	-1192
▁الأ	-1193
▁فمن	-1194
▁وهم	-1195
▁انهم	-1196
▁فاخذ	-1197
راف	-1198
عام	-1199
▁غن	-1200
▁قب	-1201
▁وضع	-1202
▁وقل	-1203
▁الاخوة	-1204
▁الناموس	-1205
تد	-1206
جس	-1207
دمة	-1208
ريح	-1209
كيم	-1210
موا	-1211
▁صر	-1212
▁قر	-1213
▁بهذا	-1214
▁فجاء	-1215
▁عشائر	-1216
اري	-1217
▁حد	-1218
▁رح	-1219
▁اخط	-1220
▁واذ	-1221
▁وقت	-1222
▁ولي	-1223
▁يدع	-1224
▁نعمة	-1225
تر	-1226
خلص	-1227
طرح	-1228
فتح	-1229
ونها	-1230
▁وجد	-1231
▁السيف	-1232
▁النار	-1233
▁لانكم	-1234
نية	-1235
وحنا	-1236
▁ولل	-1237
▁اعين	-1238
▁بيوت	-1239
▁قلبك	-1240
▁الساب	-1241
▁الفضة	-1242
▁علينا	-1243
▁الثالث	-1244
▁بنيامين	-1245
رح	-1246
قوا	-1247
وجد	-1248
▁بط	-1249
▁لع	-1250
▁منس	-1251
▁وام	-1252
▁وصا	-1253
▁اصعد	-1254
▁تعمل	-1255
▁والح	-1256
▁يقتل	-1257
▁الاشرار	-1258
مين	-1259
▁وط	-1260
▁للح	-1261
▁وخرج	-1262
شع	-1263
▁يج	-1264
امرة	-1265
▁جسد	-1266
▁ووضع	-1267
▁الامور	-1268
ناء	-1269
▁قام	-1270
▁كله	-1271
▁لست	-1272
▁الشي	-1273
▁يموت	-1274
▁الجبال	-1275
صب	-1276
▁عو	-1277
▁كم	-1278
▁لو	-1279
▁انما	-1280
▁والف	-1281
▁ارميا	-1282
▁تابوت	-1283
وء	-1284
▁أت	-1285
▁فب	-1286
▁مث	-1287
▁بما	-1288
▁ويل	-1289
▁الحي	-1290
▁الشمال	-1291
شف	-1292
▁عز	-1293
▁الض	-1294
▁اوص	-1295
▁خير	-1296
▁العا	-1297
▁قلبي	-1298
▁كلها	-1299
▁ملاك	-1300
▁الجسد	-1301
كام	-1302
كين	-1303
مام	-1304
▁حص	-1305
▁أما	-1306
▁رحم	-1307
▁عني	-1308
▁البر	-1309
▁ونزل	-1310
▁الشرير	-1311
خط	-1312
نوا	-1313
▁رجع	-1314
▁مات	-1315
▁ويع	-1316
▁يوآب	-1317
▁الحرب	-1318
حارب	-1319
▁للق	-1320
▁المل	-1321
وناثان	-1322
▁جلعاد	-1323
▁الثاني	-1324
باء	-1325
قون	-1326
قية	-1327
▁رس	-1328
▁غض	-1329
معون	-1330
▁المغ	-1331
▁كرسي	-1332
تة	-1333
زا	-1334
▁مص	-1335
▁بهم	-1336
▁عرف	-1337
▁وهي	-1338
▁حوال	-1339
▁وجهه	-1340
▁يصنع	-1341
▁الامر	-1342
انه	-1343
عات	-1344
علي	-1345
▁تف	-1346
▁دائ	-1347
▁سفر	-1348
▁فما	-1349
▁ارجع	-1350
▁معهم	-1351
▁منكم	-1352
▁الهيكل	-1353
▁الجماعة	-1354
▁بج	-1355
▁خط	-1356
▁ترك	-1357
▁فقل	-1358
▁للك	-1359
▁آلاف	-1360
▁الكت	-1361
▁نفسك	-1362
▁وبنا	-1363
▁وبين	-1364
▁يوجد	-1365
▁لانها	-1366
▁تز	-1367
▁فك	-1368
▁أمر	-1369
▁اول	-1370
▁قول	-1371
▁لحم	-1372
▁نار	-1373
▁تعرف	-1374
▁لاننا	-1375
▁وتكون	-1376
▁الموضع	-1377
بس	-1378
شق	-1379
ائل	-1380
شون	-1381
▁اه	-1382
ملكة	-1383
وبين	-1384
▁ارام	-1385
▁الاح	-1386
▁ذراع	-1387
▁فاني	-1388
▁مقدس	-1389
▁صموئيل	-1390
▁فقالوا	-1391
صد	-1392
أته	-1393
▁مي	-1394
▁باس	-1395
▁الصد	-1396
▁فقام	-1397
▁واست	-1398
بات	-1399
▁جد	-1400
▁نها	-1401
▁اسمع	-1402
▁يقدر	-1403
▁النهر	-1404
▁الوقت	-1405
▁بالسيف	-1406
▁قم	-1407
▁واش	-1408
▁آلهة	-1409
▁بالح	-1410
▁خبزا	-1411
▁والخ	-1412
▁والق	-1413
▁الانبياء	-1414
اك	-1415
نك	-1416
حها	-1417
يتك	-1418
▁اقت	-1419
▁اهل	-1420
▁فقد	-1421
▁ادوم	-1422
▁انكم	-1423
▁سمعت	-1424
▁سنين	-1425
▁والن	-1426
▁فالآن	-1427
▁فيكون	-1428
▁الساكن	-1429
▁السامرة	-1430
▁اللاويين	-1431
أتي	-1432
بون	-1433
▁فص	-1434
الوم	-1435
▁الاع	-1436
▁ملكا	-1437
▁وادي	-1438
▁الذهب	-1439
▁اليها	-1440
▁المكان	-1441
ارض	-1442
تني	-1443
▁ومل	-1444
▁ووق	-1445
▁الدم	-1446
▁معكم	-1447
▁وبني	-1448
سه	-1449
حفظ	-1450
واق	-1451
▁فلي	-1452
شالوم	-1453
▁بسبب	-1454
▁راسه	-1455
▁المدن	-1456
ذر	-1457
رتف	-1458
كار	-1459
▁بت	-1460
▁خا	-1461
▁يجد	-1462
▁افعل	-1463
▁جانب	-1464
حه	-1465
▁خر	-1466
▁واي	-1467
▁وتس	-1468
▁أليس	-1469
▁اخبر	-1470
▁انها	-1471
▁وهذه	-1472
▁المحل	-1473
▁اليهم	-1474
أس	-1475
ذان	-1476
فين	-1477
وجه	-1478
▁حل	-1479
▁خز	-1480
▁عه	-1481
يتهم	-1482
▁ارا	-1483
▁امه	-1484
▁قوم	-1485
▁وسمع	-1486
▁اربعة	-1487
▁حزقيا	-1488
▁عينيك	-1489
▁الخطية	-1490
الة	-1491
بار	-1492
مرا	-1493
مهم	-1494
▁طلب	-1495
▁اعطي	-1496
▁الارا	-1497
▁الماء	-1498
▁العظيم	-1499
▁تلاميذه	-1500
فض	-1501
أخذ	-1502
دهم	-1503
فون	-1504
كتب	-1505
▁فع	-1506
▁ينب	-1507
▁اخرى	-1508
▁والج	-1509
▁يمين	-1510
▁امامك	-1511
▁واقام	-1512
▁يوحنا	-1513
▁المساء	-1514
▁والذين	-1515
ثر	-1516
لة	-1517
وما	-1518
▁مغ	-1519
رائض	-1520
كلوا	-1521
نعان	-1522
▁قرب	-1523
▁تفعل	-1524
▁سلام	-1525
▁عيون	-1526
▁والت	-1527
▁للملك	-1528
▁آبائهم	-1529
▁الجنوب	-1530
▁بالنار	-1531
قين	-1532
وفا	-1533
▁مد	-1534
▁نق	-1535
برون	-1536
ربعام	-1537
▁اجاب	-1538
▁عمون	-1539
▁قالوا	-1540
▁ملكوت	-1541
▁وانتم	-1542
▁الحياة	-1543
بير	-1544
▁فق	-1545
▁فقط	-1546
▁والر	-1547
▁لانفس	-1548
ئر	-1549
الس	-1550
بوا	-1551
▁تغ	-1552
▁حس	-1553
▁قا	-1554
هرون	-1555
▁ثمر	-1556
▁عدد	-1557
▁للا	-1558
▁ونا	-1559
▁ويا	-1560
▁اخوت	-1561
▁البا	-1562
▁صارت	-1563
▁والس	-1564
▁الايمان	-1565
ربا	-1566
▁شف	-1567
▁ابد	-1568
▁تست	-1569
▁ليت	-1570
▁ورج	-1571
▁بنات	-1572
▁نصيب	-1573
▁واسم	-1574
▁وصعد	-1575
▁ومات	-1576
▁الدهر	-1577
▁الليل	-1578
▁عبيده	-1579
▁لنفسك	-1580
▁المقدس	-1581
بني	-1582
يسو	-1583
يدون	-1584
▁بحسب	-1585
▁الصباح	-1586
▁كثيرين	-1587
جار	-1588
زيت	-1589
فاط	-1590
كمل	-1591
▁حر	-1592
▁خذ	-1593
ريسي	-1594
▁بكر	-1595
▁مياه	-1596
▁والرب	-1597
اع	-1598
بعة	-1599
داس	-1600
كرا	-1601
ناك	-1602
نيا	-1603
يدا	-1604
▁يؤ	-1605
ربون	-1606
▁نبو	-1607
▁ويق	-1608
▁عوضا	-1609
▁واخبر	-1610
▁المصري	-1611
طه	-1612
هائم	-1613
▁اعلم	-1614
▁العد	-1615
▁داخل	-1616
▁جميعا	-1617
▁عظيما	-1618
بش	-1619
تون	-1620
▁ذكر	-1621
▁منا	-1622
▁موا	-1623
▁ورأ	-1624
▁اقام	-1625
▁شعبك	-1626
▁شعبه	-1627
▁ودخل	-1628
▁يرجع	-1629
▁الاله	-1630
▁والذي	-1631
▁اسمعوا	-1632
ئت	-1633
قيق	-1634
بعون	-1635
هادة	-1636
▁فيك	-1637
▁منك	-1638
▁ومس	-1639
▁اسحق	-1640
▁تصنع	-1641
▁حياة	-1642
▁السابع	-1643
طم	-1644
▁صد	-1645
▁جيش	-1646
▁لاس	-1647
▁مسا	-1648
▁ويد	-1649
▁ميرا	-1650
▁وبيت	-1651
▁وصايا	-1652
▁وفيما	-1653
▁انفسهم	-1654
يح	-1655
اهر	-1656
▁تد	-1657
▁خل	-1658
▁قص	-1659
▁بان	-1660
▁رفع	-1661
▁وعن	-1662
▁وسجد	-1663
▁الغنم	-1664
▁واربع	-1665
▁ابشالوم	-1666
عي	-1667
فك	-1668
ثال	-1669
جائ	-1670
ونة	-1671
▁اك	-1672
▁مز	-1673
▁شرا	-1674
▁واغ	-1675
▁المش	-1676
▁تقدم	-1677
▁السبت	-1678
▁عشيرة	-1679
▁عندما	-1680
▁عينيه	-1681
عر	-1682
عه	-1683
سلط	-1684
ضوا	-1685
غير	-1686
ملة	-1687
هنا	-1688
▁بد	-1689
▁سك	-1690
راعا	-1691
مهور	-1692
▁تعب	-1693
▁سقط	-1694
لاميذ	-1695
▁اذرع	-1696
▁فعلت	-1697
▁وهذا	-1698
▁يصعد	-1699
▁امامه	-1700
▁واجعل	-1701
اي	-1702
قى	-1703
راس	-1704
ياب	-1705
▁تل	-1706
ضايق	-1707
لائك	-1708
▁عهد	-1709
▁كلا	-1710
▁للخ	-1711
▁الاق	-1712
▁عيسو	-1713
▁وعند	-1714
▁يأكل	-1715
▁الاثم	-1716
▁خطايا	-1717
▁كنعان	-1718
▁لنفسه	-1719
▁الخارج	-1720
يها	-1721
▁عر	-1722
▁فاس	-1723
▁ويم	-1724
شافاط	-1725
▁وصنع	-1726
▁يقوم	-1727
▁امامي	-1728
▁جماعة	-1729
▁يهويا	-1730
▁النساء	-1731
▁وعشرين	-1732
▁يربعام	-1733
جة	-1734
طب	-1735
تنا	-1736
▁معل	-1737
▁ويح	-1738
يمالك	-1739
▁اذكر	-1740
▁تخرج	-1741
▁كنتم	-1742
▁تكلمت	-1743
▁ويقول	-1744
▁المسكن	-1745
▁المحرقة	-1746
▁يوناثان	-1747
وط	-1748
ركة	-1749
عدا	-1750
▁نف	-1751
▁يك	-1752
▁تخم	-1753
▁طوب	-1754
▁وعا	-1755
▁اجعل	-1756
▁انظر	-1757
▁اننا	-1758
▁لهما	-1759
▁ليست	-1760
▁والش	-1761
▁وامر	-1762
▁ودعا	-1763
▁الآخر	-1764
▁ايليا	-1765
▁ذراعا	-1766
▁مبارك	-1767
▁وهرون	-1768
صح	-1769
ارت	-1770
شان	-1771
واه	-1772
ودا	-1773
ولاد	-1774
▁زوج	-1775
▁لير	-1776
▁اسمك	-1777
▁عنده	-1778
▁فاذا	-1779
▁فدخل	-1780
▁الشرق	-1781
▁اولاد	-1782
▁ثيابه	-1783
▁الثلاث	-1784
▁كثيرون	-1785
مى	-1786
▁حن	-1787
▁لص	-1788
▁افت	-1789
▁تكن	-1790
▁مخت	-1791
▁الحص	-1792
▁فذهب	-1793
▁فقلت	-1794
▁مذبح	-1795
▁اخوته	-1796
▁الغرب	-1797
▁بالرب	-1798
▁جاءوا	-1799
▁محرقة	-1800
▁نبوخذ	-1801
▁وعشرون	-1802
عاة	-1803
▁احب	-1804
▁حما	-1805
▁فام	-1806
▁كنا	-1807
▁واث	-1808
▁بالم	-1809
▁تدخل	-1810
▁ساكن	-1811
▁القلب	-1812
▁لجميع	-1813
▁مقابل	-1814
▁مكانه	-1815
خرة	-1816
نوب	-1817
▁لآ	-1818
يسين	-1819
▁وعد	-1820
▁الكث	-1821
▁شيوخ	-1822
▁فدعا	-1823
▁والك	-1824
▁يذهب	-1825
▁الدار	-1826
▁الاموات	-1827
باؤ	-1828
لبس	-1829
▁دخ	-1830
▁اخي	-1831
▁حيا	-1832
▁فرح	-1833
▁قري	-1834
▁قوة	-1835
▁مرك	-1836
▁نزل	-1837
انيال	-1838
▁خمسة	-1839
▁زمان	-1840
▁لبيت	-1841
▁اسباط	-1842
عت	-1843
راخ	-1844
ظرت	-1845
▁رم	-1846
▁ضع	-1847
▁يل	-1848
▁اثم	-1849
▁ضيق	-1850
▁موت	-1851
▁ابنة	-1852
▁نحاس	-1853
▁وقتل	-1854
▁دائما	-1855
▁الكلمة	-1856
▁يقولون	-1857
تاز	-1858
وبة	-1859
وقد	-1860
▁حك	-1861
▁شه	-1862
عليم	-1863
▁اجت	-1864
▁تخا	-1865
▁الاس	-1866
▁بالك	-1867
▁بيتك	-1868
▁ويهو	-1869
▁ينبغي	-1870
▁والارض	-1871
تن	-1872
شت	-1873
عوا	-1874
▁قو	-1875
▁سيف	-1876
▁قطع	-1877
▁يرت	-1878
▁حكمة	-1879
▁لموسى	-1880
▁عشائرهم	-1881
قم	-1882
قه	-1883
زار	-1884
▁حم	-1885
رابا	-1886
▁آسا	-1887
▁امة	-1888
▁صاد	-1889
▁يفت	-1890
علمون	-1891
▁اخآب	-1892
▁اخطأ	-1893
▁المست	-1894
ره	-1895
طس	-1896
باب	-1897
روح	-1898
يوت	-1899
▁احت	-1900
▁الو	-1901
▁بام	-1902
▁صبا	-1903
▁فتح	-1904
▁فري	-1905
▁نصف	-1906
▁وصل	-1907
ذبيحة	-1908
▁تأتي	-1909
▁معنا	-1910
▁وحده	-1911
▁يأخذ	-1912
▁يوما	-1913
▁اياها	-1914
▁ايتها	-1915
▁النهار	-1916
▁امرأته	-1917
أكل	-1918
روا	-1919
ظلم	-1920
عها	-1921
يتم	-1922
▁بث	-1923
نيسة	-1924
▁ابا	-1925
▁فاب	-1926
▁يعل	-1927
▁الغد	-1928
▁امور	-1929
▁خيرا	-1930
▁مسكن	-1931
▁موضع	-1932
▁يحفظ	-1933
▁بالحق	-1934
▁تقدمة	-1935
▁صاحبه	-1936
▁فتكون	-1937
▁وهكذا	-1938
زن	-1939
صة	-1940
ثام	-1941
حون	-1942
نبأ	-1943
▁سن	-1944
ودية	-1945
▁اري	-1946
▁امت	-1947
▁وعب	-1948
▁ويب	-1949
▁يرى	-1950
▁آمين	-1951
▁فصعد	-1952
▁لهذا	-1953
▁يحمل	-1954
▁الكلد	-1955
▁وقالت	-1956
▁واللاو	-1957
▁ورؤساء	-1958
▁الهاوية	-1959
ئه	-1960
اف	-1961
جيء	-1962
▁زب	-1963
▁كف	-1964
رقات	-1965
مالك	-1966
▁صحي	-1967
▁طول	-1968
▁قدس	-1969
▁لاخ	-1970
▁لله	-1971
▁اسمي	-1972
▁بقية	-1973
▁سلاه	-1974
▁فضرب	-1975
▁فيكم	-1976
▁ههنا	-1977
▁وجهك	-1978
▁ورجع	-1979
▁واخرج	-1980
▁وايضا	-1981
▁ايديهم	-1982
ابر	-1983
الب	-1984
ربت	-1985
لاة	-1986
يقة	-1987
▁فض	-1988
فينة	-1989
ودين	-1990
▁هلم	-1991
لائكة	-1992
▁ابيك	-1993
▁اطلب	-1994
▁اعظم	-1995
▁اليم	-1996
▁برية	-1997
▁بصوت	-1998
▁والغ	-1999
▁آبائه	-2000
▁الجمع	-2001
▁ايمان	-2002
▁سلطان	-2003
▁عبيدك	-2004
▁قدامه	-2005
▁الملوك	-2006
زى	-2007
جون	-2008
جيل	-2009
سله	-2010
شيا	-2011
صاب	-2012
موت	-2013
▁بش	-2014
▁ته	-2015
▁عي	-2016
ائيل	-2017
▁دفع	-2018
▁مقد	-2019
▁مما	-2020
▁ليلا	-2021
▁ابواب	-2022
▁العهد	-2023
▁الجليل	-2024
طى	-2025
كي	-2026
حاز	-2027
طرد	-2028
عير	-2029
فان	-2030
▁جاد	-2031
▁صور	-2032
▁فين	-2033
▁لدى	-2034
▁ربنا	-2035
▁عمله	-2036
▁شريعة	-2037
▁واصعد	-2038
▁ونزلوا	-2039
رأ	-2040
اسا	-2041
جاب	-2042
رات	-2043
زوا	-2044
فرة	-2045
▁صل	-2046
▁آتي	-2047
▁وات	-2048
▁وتن	-2049
▁اصنع	-2050
▁اكون	-2051
▁بعضا	-2052
▁قليل	-2053
▁وبال	-2054
▁سمعوا	-2055
▁دانيال	-2056
▁قلوبهم	-2057
▁وكانوا	-2058
تب	-2059
رش	-2060
طق	-2061
ائه	-2062
انع	-2063
تيق	-2064
داب	-2065
داع	-2066
صنا	-2067
طير	-2068
▁عص	-2069
▁عق	-2070
▁لخ	-2071
اروا	-2072
لكوا	-2073
▁ثوب	-2074
▁جمع	-2075
▁للس	-2076
▁مخا	-2077
▁نصي	-2078
▁نوح	-2079
▁نور	-2080
▁القا	-2081
▁بنيه	-2082
▁خلاص	-2083
▁عهدا	-2084
▁لاوي	-2085
▁وجهي	-2086
▁ونحن	-2087
▁السجن	-2088
▁اربعين	-2089
▁السحاب	-2090
▁رأوبين	-2091
يني	-2092
▁ظل	-2093
ولون	-2094
ونني	-2095
▁ترت	-2096
▁عاد	-2097
▁عنك	-2098
▁قاد	-2099
▁لمن	-2100
▁آباء	-2101
▁ادخل	-2102
▁بالخ	-2103
▁بيده	-2104
▁فليس	-2105
▁يديه	-2106
▁يسقط	-2107
▁يسكن	-2108
▁الأمر	-2109
▁الحكمة	-2110
▁يسمعوا	-2111
▁العظيمة	-2112
حك	-2113
صم	-2114
اهل	-2115
بيب	-2116
قلا	-2117
موع	-2118
مير	-2119
ناه	-2120
▁تك	-2121
▁جا	-2122
داخل	-2123
ولدت	-2124
يئيل	-2125
▁تدع	-2126
▁دان	-2127
▁عنا	-2128
▁عندك	-2129
▁فسمع	-2130
▁كلهم	-2131
▁يسلم	-2132
▁عشرين	-2133
▁للشعب	-2134
▁ليكون	-2135
▁قلوبكم	-2136
▁واخوته	-2137
▁الرؤساء	-2138
جه	-2139
حب	-2140
غر	-2141
مز	-2142
لات	-2143
مائ	-2144
▁صن	-2145
▁مئ	-2146
حلوا	-2147
خذوا	-2148
▁بحر	-2149
▁بكم	-2150
▁لين	-2151
▁آباؤ	-2152
▁تطلب	-2153
▁شعوب	-2154
▁ففعل	-2155
▁نجسا	-2156
▁اضطجع	-2157
▁الخير	-2158
▁قائلة	-2159
▁وبقية	-2160
▁ارسلني	-2161
▁المغنين	-2162
ظل	-2163
اره	-2164
حوا	-2165
يتي	-2166
ذهبا	-2167
ودون	-2168
يران	-2169
▁اجي	-2170
▁حفظ	-2171
▁حكم	-2172
▁حلق	-2173
▁محل	-2174
▁ينا	-2175
▁اعرف	-2176
▁شجرة	-2177
▁صنعت	-2178
▁طوبى	-2179
رتفعات	-2180
▁اعطيت	-2181
▁حبرون	-2182
▁للحرب	-2183
خم	-2184
طن	-2185
بائح	-2186
▁حسن	-2187
▁ردي	-2188
▁فمه	-2189
▁ثياب	-2190
▁صالح	-2191
▁عنها	-2192
▁فكلم	-2193
▁لسان	-2194
▁وجوه	-2195
▁وعبد	-2196
▁وقلت	-2197
▁يقبل	-2198
▁الزيت	-2199
▁العمل	-2200
▁بعدما	-2201
▁الاولى	-2202
▁الساعة	-2203
▁الكلدانيين	-2204
▁الفلسطينيون	-2205
حص	-2206
الا	-2207
راد	-2208
شاي	-2209
طاء	-2210
فاة	-2211
ناص	-2212
وتك	-2213
يره	-2214
▁تذ	-2215
▁كس	-2216
كلمة	-2217
▁احش	-2218
▁بار	-2219
▁تخف	-2220
▁ثور	-2221
▁سبي	-2222
▁ليع	-2223
▁مرض	-2224
▁مني	-2225
▁يضع	-2226
▁اياه	-2227
▁تأكل	-2228
▁فمات	-2229
▁يكلم	-2230
▁الريح	-2231
▁المعد	-2232
▁وتصنع	-2233
▁الرابع	-2234
غا	-2235
غل	-2236
ائط	-2237
ائن	-2238
حدث	-2239
خور	-2240
صرف	-2241
فاء	-2242
▁بف	-2243
▁شد	-2244
ارجا	-2245
ملوا	-2246
نعمة	-2247
▁خشب	-2248
▁شمع	-2249
▁وتع	-2250
▁وحي	-2251
▁وفر	-2252
▁ارفع	-2253
▁اعطا	-2254
▁الحا	-2255
▁بارك	-2256
▁تسمع	-2257
▁جعلت	-2258
▁عنهم	-2259
▁غضبه	-2260
▁وحدث	-2261
▁يخطئ	-2262
▁اتكلم	-2263
▁الخبز	-2264
▁المجد	-2265
▁النفس	-2266
▁بكلام	-2267
▁بينهم	-2268
▁سمعان	-2269
▁لبنان	-2270
▁وتكلم	-2271
▁الفريسي	-2272
▁القديسين	-2273
ادع	-2274
دام	-2275
زيا	-2276
طاة	-2277
طهر	-2278
▁از	-2279
▁بب	-2280
تموه	-2281
جتمع	-2282
▁آمن	-2283
▁بشر	-2284
▁بعل	-2285
▁تمت	-2286
▁حار	-2287
▁سري	-2288
▁فيس	-2289
▁مزم	-2290
▁مكر	-2291
▁الوح	-2292
▁تخوم	-2293
▁خدمة	-2294
▁يثبت	-2295
▁يهلك	-2296
▁الخام	-2297
▁الههم	-2298
▁بجانب	-2299
▁رحمته	-2300
▁عندكم	-2301
▁فاخبر	-2302
▁وخمسة	-2303
▁الآباء	-2304
▁تعلمون	-2305
▁ابيمالك	-2306
▁الثلاثة	-2307
سى	-2308
بعض	-2309
خاي	-2310
▁لأ	-2311
تهما	-2312
وئيل	-2313
▁حجر	-2314
▁دعا	-2315
▁شري	-2316
▁طعا	-2317
▁قسم	-2318
▁ممل	-2319
▁نجس	-2320
▁ودع	-2321
ردخاي	-2322
▁اخيه	-2323
▁المخ	-2324
▁شعبا	-2325
▁عبدي	-2326
▁واله	-2327
▁ووقف	-2328
▁ينظر	-2329
▁اريحا	-2330
▁الفصح	-2331
▁النور	-2332
▁بجميع	-2333
▁ذبائح	-2334
▁كلامي	-2335
▁ميراث	-2336
▁الكتاب	-2337
▁مكتوبة	-2338
▁الاراضي	-2339
▁السفينة	-2340
▁يهوشافاط	-2341
فه	-2342
قض	-2343
بتد	-2344
ودي	-2345
يرون	-2346
▁بئر	-2347
▁حرا	-2348
▁سكن	-2349
▁علم	-2350
▁فمي	-2351
▁فهم	-2352
▁وها	-2353
▁ينت	-2354
▁احدا	-2355
▁اطلق	-2356
▁العش	-2357
▁باطل	-2358
▁بعيد	-2359
▁تنظر	-2360
▁شكيم	-2361
▁فاعط	-2362
▁فرجع	-2363
▁مدين	-2364
▁وابي	-2365
▁والص	-2366
▁وجدت	-2367
▁ونصف	-2368
▁سريعا	-2369
▁طريقه	-2370
▁فماذا	-2371
▁للذين	-2372
▁مزمور	-2373
▁انظروا	-2374
اتب	-2375
تهج	-2376
فهم	-2377
لاح	-2378
▁قط	-2379
راها	-2380
طفال	-2381
▁ارج	-2382
▁تقد	-2383
▁جئت	-2384
▁دور	-2385
▁راح	-2386
▁للج	-2387
▁وعش	-2388
▁ابتد	-2389
▁بيتا	-2390
▁دقيق	-2391
▁عندي	-2392
▁قدوس	-2393
▁مدخل	-2394
▁نساء	-2395
▁وشعب	-2396
▁يؤمن	-2397
▁يجعل	-2398
▁الجيش	-2399
▁الضرب	-2400
▁العلي	-2401
▁حينما	-2402
▁خارجا	-2403
▁معرفة	-2404
▁فلماذا	-2405
▁البهائم	-2406
▁الشريعة	-2407
▁المصريين	-2408
▁نبوخذناص	-2409
خدم	-2410
دعو	-2411
طلا	-2412
عدة	-2413
ومي	-2414
▁جث	-2415
▁جس	-2416
▁حو	-2417
▁رد	-2418
▁شم	-2419
▁ضد	-2420
آبائ	-2421
الوا	-2422
كثرة	-2423
▁ستة	-2424
▁شبه	-2425
▁فصا	-2426
▁مطر	-2427
▁نسل	-2428
▁نعم	-2429
▁وله	-2430
▁ابصر	-2431
▁حسنا	-2432
▁دمشق	-2433
▁فنزل	-2434
▁ميخا	-2435
▁والآ	-2436
▁والث	-2437
▁ورفع	-2438
▁وقام	-2439
▁يقال	-2440
▁اثنين	-2441
▁اياما	-2442
▁بينكم	-2443
▁حجارة	-2444
▁وبارك	-2445
▁وهوذا	-2446
▁ويجعل	-2447
▁الملاك	-2448
▁التلاميذ	-2449
صى	-2450
ارح	-2451
ودة	-2452
▁رآ	-2453
▁عج	-2454
▁فش	-2455
▁كب	-2456
ارية	-2457
انان	-2458
بعام	-2459
نتين	-2460
▁سلم	-2461
▁كام	-2462
▁للت	-2463
▁وبك	-2464
▁وجل	-2465
▁ياب	-2466
▁يحب	-2467
▁افضل	-2468
▁المو	-2469
▁الهه	-2470
▁بالت	-2471
▁تموت	-2472
▁خرجت	-2473
▁لصوت	-2474
▁نارا	-2475
▁وسكن	-2476
▁وولد	-2477
▁ياكل	-2478
▁يزرع	-2479
▁ينزل	-2480
▁الخمر	-2481
▁باشان	-2482
▁طعاما	-2483
▁الداخل	-2484
▁السلام	-2485
يع	-2486
ائد	-2487
اهد	-2488
دوم	-2489
فير	-2490
ناح	-2491
▁بص	-2492
▁جز	-2493
▁قت	-2494
▁لش	-2495
▁هد	-2496
ديان	-2497
كريا	-2498
لاطس	-2499
▁اضط	-2500
▁خدم	-2501
▁نجا	-2502
▁وحا	-2503
▁يكر	-2504
ارحها	-2505
▁آنية	-2506
▁ابنك	-2507
▁ايوب	-2508
▁بنين	-2509
▁مرات	-2510
▁وبنى	-2511
▁ابناء	-2512
▁بعضهم	-2513
▁جمهور	-2514
▁قليلا	-2515
▁لامام	-2516
▁والام	-2517
▁وسطهم	-2518
▁الخيمة	-2519
▁وهؤلاء	-2520
▁يكونون	-2521
▁المملكة	-2522
▁لاسرائيل	-2523
يط	-2524
ائي	-2525
تهز	-2526
هور	-2527
▁صف	-2528
▁نذ	-2529
الحة	-2530
ديدا	-2531
ذابح	-2532
نيمة	-2533
يرود	-2534
▁بقر	-2535
▁تعط	-2536
▁خلا	-2537
▁رائ	-2538
▁زيت	-2539
▁ظهر	-2540
▁قدم	-2541
▁ميت	-2542
▁نير	-2543
▁وبا	-2544
▁وتش	-2545
▁وكث	-2546
▁يصل	-2547
انسان	-2548
▁اثنا	-2549
▁تذهب	-2550
▁سرور	-2551
▁سيده	-2552
▁شاقل	-2553
▁معها	-2554
▁وارت	-2555
▁ياتي	-2556
▁الجيل	-2557
▁فرائض	-2558
▁فريضة	-2559
▁ناموس	-2560
▁نهارا	-2561
▁وبنيه	-2562
▁وتقدم	-2563
▁الظلمة	-2564
▁بالروح	-2565
▁تقولون	-2566
▁اللاويون	-2567
آش	-2568
ئون	-2569
نات	-2570
وكم	-2571
▁وو	-2572
جائب	-2573
واتي	-2574
▁ألم	-2575
▁جال	-2576
▁حقل	-2577
▁سرا	-2578
▁ففي	-2579
▁للع	-2580
▁ملت	-2581
▁يقت	-2582
▁اناس	-2583
▁بالع	-2584
▁فكيف	-2585
▁قريب	-2586
▁ليكن	-2587
▁ملكه	-2588
▁وابن	-2589
▁وعبر	-2590
▁ياهو	-2591
▁ابنير	-2592
▁افواه	-2593
▁الرسل	-2594
▁السور	-2595
▁الضيق	-2596
▁المرك	-2597
▁اليشع	-2598
▁وسطها	-2599
▁يوشيا	-2600
▁المجمع	-2601
▁انفسكم	-2602
▁بيلاطس	-2603
▁فصاعدا	-2604
نس	-2605
بعه	-2606
رعى	-2607
ساؤ	-2608
يبة	-2609
▁رف	-2610
▁قي	-2611
▁كع	-2612
رامة	-2613
▁حقا	-2614
▁حلف	-2615
▁زرع	-2616
▁طرف	-2617
▁غدا	-2618
▁قبر	-2619
▁هما	-2620
▁يخا	-2621
فتالي	-2622
▁بنفس	-2623
▁تصير	-2624
▁حامل	-2625
▁زوجة	-2626
▁صنعة	-2627
▁قرية	-2628
▁مريم	-2629
▁ولدت	-2630
▁يخبر	-2631
▁يقيم	-2632
▁العدو	-2633
▁بعضكم	-2634
▁مملكة	-2635
▁التراب	-2636
▁السبعة	-2637
▁الليلة	-2638
▁انسانا	-2639
▁مردخاي	-2640
▁ارتحلوا	-2641
▁الساكنين	-2642
مح	-2643
بلت	-2644
حمة	-2645
روف	-2646
مله	-2647
▁اض	-2648
▁فخ	-2649
▁فغ	-2650
▁وذ	-2651
ريبة	-2652
زريا	-2653
قامة	-2654
كونة	-2655
لمان	-2656
واحد	-2657
▁اجن	-2658
▁بأس	-2659
▁برج	-2660
▁حور	-2661
▁ذاك	-2662
▁قيا	-2663
▁محب	-2664
▁مرة	-2665
▁مرت	-2666
▁مشي	-2667
▁وتح	-2668
▁يخت	-2669
▁ابوه	-2670
▁احفظ	-2671
▁القل	-2672
▁حولي	-2673
▁خمرا	-2674
▁رجاء	-2675
▁علمت	-2676
▁عملت	-2677
▁عنكم	-2678
▁فانا	-2679
▁فوجد	-2680
▁لملك	-2681
▁يخدم	-2682
▁ارضهم	-2683
▁البقر	-2684
▁السبي	-2685
▁صدقيا	-2686
▁والاب	-2687
▁وثمان	-2688
▁الزمان	-2689
▁الوادي	-2690
▁اليمنى	-2691
▁ويهوذا	-2692
▁حواليها	-2693
▁بالايمان	-2694
▁الاموريين	-2695
رقا	-2696
صيا	-2697
ضرع	-2698
غوا	-2699
فرز	-2700
كله	-2701
لمي	-2702
▁أف	-2703
▁شق	-2704
كماء	-2705
▁رفض	-2706
▁سور	-2707
▁لاج	-2708
▁هام	-2709
▁وقف	-2710
▁يتم	-2711
▁ارضك	-2712
▁الجز	-2713
▁الفق	-2714
▁بزيت	-2715
▁رسلا	-2716
▁نفوس	-2717
▁هيكل	-2718
▁واقف	-2719
▁وسطك	-2720
▁وصار	-2721
▁ابرام	-2722
▁اقوال	-2723
▁بسلام	-2724
▁فكانت	-2725
▁وادخل	-2726
▁القائل	-2727
▁المحبة	-2728
▁رحبعام	-2729
▁وثلاثين	-2730
أن	-2731
بق	-2732
سط	-2733
سين	-2734
ناس	-2735
وائ	-2736
ويا	-2737
شرين	-2738
طيور	-2739
واعد	-2740
▁ألا	-2741
▁جند	-2742
▁شوا	-2743
▁صرت	-2744
▁فيح	-2745
▁منت	-2746
▁واص	-2747
▁وقر	-2748
▁ينج	-2749
▁اباه	-2750
▁العب	-2751
▁بالب	-2752
▁بذهب	-2753
▁بركة	-2754
▁رأوا	-2755
▁صراخ	-2756
▁ضربة	-2757
▁كتاب	-2758
▁لرجل	-2759
▁وآخر	-2760
▁ورأى	-2761
▁ومتى	-2762
▁يدعى	-2763
▁يفهم	-2764
▁الابن	-2765
▁السفر	-2766
▁الصبي	-2767
▁اولئك	-2768
▁بلعام	-2769
▁وجاءوا	-2770
▁الشهادة	-2771
▁الكنيسة	-2772
▁لانفسهم	-2773
▁المستقيم	-2774
قص	-2775
لع	-2776
يظ	-2777
أله	-2778
تاة	-2779
ثون	-2780
داد	-2781
شيء	-2782
طال	-2783
كلت	-2784
ورح	-2785
▁أس	-2786
▁نت	-2787
▁وض	-2788
بيدا	-2789
تيقظ	-2790
جدون	-2791
صرون	-2792
وجوه	-2793
▁خوف	-2794
▁شهر	-2795
▁ليش	-2796
▁ملج	-2797
▁ابوا	-2798
▁ارضه	-2799
▁اصاب	-2800
▁اقسم	-2801
▁تحفظ	-2802
▁فأخذ	-2803
▁فاجت	-2804
▁فيما	-2805
▁ودفع	-2806
▁ودفن	-2807
▁وطلب	-2808
▁يذبح	-2809
▁التخم	-2810
▁الثام	-2811
▁باسمي	-2812
▁بكثرة	-2813
▁عبيدا	-2814
▁فتقدم	-2815
▁كلامك	-2816
▁مملوء	-2817
▁هيرود	-2818
▁وراءه	-2819
▁الشيوخ	-2820
▁يستطيع	-2821
▁يسمعون	-2822
▁التابوت	-2823
▁الثانية	-2824
اج	-2825
بأ	-2826
ضت	-2827
ائح	-2828
بيح	-2829
تاج	-2830
مرة	-2831
▁صغ	-2832
▁مك	-2833
ملوك	-2834
هادا	-2835
▁تبر	-2836
▁ترى	-2837
▁خيم	-2838
▁دار	-2839
▁طال	-2840
▁فات	-2841
▁وكر	-2842
▁ويغ	-2843
سرحها	-2844
ماعيل	-2845
وانات	-2846
▁بيتي	-2847
▁تجعل	-2848
▁تذكر	-2849
▁ثورا	-2850
▁طعام	-2851
▁عامل	-2852
▁كثرة	-2853
▁وأتى	-2854
▁وقطع	-2855
▁ارتفع	-2856
▁اعداء	-2857
▁الكنع	-2858
▁لآبائ	-2859
▁لابان	-2860
▁نهاية	-2861
▁الغلام	-2862
▁يهوياداع	-2863
باش	-2864
حوت	-2865
صور	-2866
عين	-2867
نائ	-2868
يدك	-2869
يفة	-2870
▁اط	-2871
▁حج	-2872
▁غر	-2873
جدوا	-2874
راعي	-2875
▁أتى	-2876
▁اور	-2877
▁حشب	-2878
▁حمل	-2879
▁دين	-2880
▁غنم	-2881
▁فرأ	-2882
▁نهر	-2883
برياء	-2884
▁اخاه	-2885
▁اعطى	-2886
▁القت	-2887
▁بالس	-2888
▁حديد	-2889
▁عبده	-2890
▁فاست	-2891
▁قالت	-2892
▁ليهو	-2893
▁نسلك	-2894
▁نعلم	-2895
▁وحين	-2896
▁وسبع	-2897
▁يرفع	-2898
▁اجيال	-2899
▁احكام	-2900
▁اخبار	-2901
▁اخوتي	-2902
▁اصحاب	-2903
▁البار	-2904
▁الراس	-2905
▁العبد	-2906
▁القفر	-2907
▁الينا	-2908
▁رئيسا	-2909
▁واذهب	-2910
▁اعدائي	-2911
▁الآلهة	-2912
▁الصالح	-2913
▁الكروب	-2914
▁تسمعوا	-2915
▁يطلبون	-2916
▁السلامة	-2917
▁الشيطان	-2918
▁ومسرحها	-2919
▁اليهودية	-2920
▁ومسارحها	-2921
دب	-2922
ذن	-2923
شى	-2924
هي	-2925
ؤيا	-2926
ارد	-2927
جلة	-2928
طلع	-2929
عله	-2930
▁حض	-2931
▁رع	-2932
▁كه	-2933
جوني	-2934
حديد	-2935
عمال	-2936
وصية	-2937
يدهم	-2938
▁آله	-2939
▁ألي	-2940
▁بري	-2941
▁حرب	-2942
▁خال	-2943
▁سوف	-2944
▁سين	-2945
▁عار	-2946
▁عال	-2947
▁فخا	-2948
▁فخر	-2949
▁فلل	-2950
▁للش	-2951
▁متم	-2952
▁وصر	-2953
▁يعط	-2954
رائضي	-2955
▁احمد	-2956
▁اسفل	-2957
▁اصنا	-2958
▁العم	-2959
▁القر	-2960
▁المج	-2961
▁بماء	-2962
▁جبعة	-2963
▁سدوم	-2964
▁عظام	-2965
▁فأتى	-2966
▁فيهم	-2967
▁ورائ	-2968
▁وسقط	-2969
▁وعرض	-2970
▁يضرب	-2971
▁الثور	-2972
▁الساد	-2973
▁ثانية	-2974
▁جديدة	-2975
▁خرابا	-2976
▁رجليه	-2977
▁غنيمة	-2978
▁قدامك	-2979
▁واعطى	-2980
▁الخامس	-2981
▁الضربة	-2982
▁اللذين	-2983
▁ثلاثين	-2984
خة	-2985
تهن	-2986
حور	-2987
وار	-2988
وعة	-2989
▁أم	-2990
▁شل	-2991
حاكم	-2992
يهما	-2993
▁اصل	-2994
▁عصا	-2995
▁فهي	-2996
▁قيل	-2997
▁لعب	-2998
▁مذب	-2999
▁ومي	-3000
▁يرد	-3001
▁يعد	-3002
▁يقف	-3003
ذبائح	-3004
▁انقذ	-3005
▁تأخذ	-3006
▁جبال	-3007
▁خربة	-3008
▁راسي	-3009
▁قدمي	-3010
▁وزنة	-3011
▁يترك	-3012
▁يخلص	-3013
▁يصير	-3014
▁استير	-3015
▁افكار	-3016
▁الحجر	-3017
▁الغضب	-3018
▁باطلا	-3019
▁رائحة	-3020
▁عملها	-3021
▁قربان	-3022
▁الكاتب	-3023
▁بالحري	-3024
▁تكونوا	-3025
صو	-3026
قف	-3027
بها	-3028
تيه	-3029
سون	-3030
قلب	-3031
كسر	-3032
▁آه	-3033
▁تي	-3034
▁مؤ	-3035
ابرة	-3036
صايا	-3037
فتخر	-3038
ونان	-3039
ونهم	-3040
▁ارى	-3041
▁بيس	-3042
▁خائ	-3043
▁طرد	-3044
▁عدا	-3045
▁فرا	-3046
▁للب	-3047
▁للغ	-3048
▁وبر	-3049
▁الجب	-3050
▁العل	-3051
▁انته	-3052
▁تثبت	-3053
▁خروج	-3054
▁كهنة	-3055
▁لاست	-3056
▁وعاش	-3057
▁الخيل	-3058
▁الولد	-3059
▁تتكلم	-3060
▁سلامة	-3061
▁مساكن	-3062
▁واعطي	-3063
▁يعطيك	-3064
▁الجالس	-3065
▁القدوس	-3066
▁القضاء	-3067
▁امامهم	-3068
▁محرقات	-3069
▁الاقداس	-3070
▁الاولاد	-3071
▁الواحدة	-3072
اعد	-3073
حدر	-3074
دان	-3075
شوا	-3076
فني	-3077
ولة	-3078
▁آت	-3079
انها	-3080
عياء	-3081
وتهم	-3082
▁آية	-3083
▁ابو	-3084
▁اجر	-3085
▁ارد	-3086
▁اشت	-3087
▁حمو	-3088
▁شرك	-3089
▁صلا	-3090
▁فاح	-3091
▁فمك	-3092
▁كمن	-3093
▁لتس	-3094
▁مخل	-3095
▁نبي	-3096
▁ومت	-3097
▁يخل	-3098
▁يفن	-3099
فرعون	-3100
▁آذان	-3101
▁اشهر	-3102
▁اشير	-3103
▁بهذه	-3104
▁ترجع	-3105
▁جسده	-3106
▁طرقه	-3107
▁عرفت	-3108
▁فسقط	-3109
▁مملك	-3110
▁يجلس	-3111
▁ابدية	-3112
▁العين	-3113
▁الفهم	-3114
▁القبر	-3115
▁لهرون	-3116
▁هامان	-3117
▁وتجعل	-3118
▁اذهبوا	-3119
▁اشعياء	-3120
▁الكبير	-3121
▁النحاس	-3122
▁تعملوا	-3123
▁حواليه	-3124
▁كلاهما	-3125
▁وقراها	-3126
▁المرتفعات	-3127
دخ	-3128
ضح	-3129
فى	-3130
جال	-3131
راق	-3132
عرف	-3133
لمه	-3134
ملأ	-3135
هات	-3136
ونك	-3137
يوش	-3138
▁جم	-3139
▁خي	-3140
▁غل	-3141
ائهم	-3142
حرقة	-3143
زعزع	-3144
ونوا	-3145
▁خمر	-3146
▁شعر	-3147
▁صلب	-3148
▁فرق	-3149
▁مضى	-3150
▁وتخ	-3151
▁وتي	-3152
▁وخر	-3153
▁ورؤ	-3154
▁ولت	-3155
ياطين	-3156
▁الرس	-3157
▁الوع	-3158
▁بنوه	-3159
▁دخول	-3160
▁عالم	-3161
▁غضبي	-3162
▁فارس	-3163
▁لابي	-3164
▁وصية	-3165
▁يحسن	-3166
▁اجتمع	-3167
▁اسماء	-3168
▁العبر	-3169
▁خمسين	-3170
▁راحيل	-3171
▁شاقلا	-3172
▁لنفسي	-3173
▁مذبحا	-3174
▁وأتوا	-3175
▁واحرق	-3176
▁وهناك	-3177
▁يبارك	-3178
▁هيرودس	-3179
▁وصاياك	-3180
▁المسكونة	-3181
▁واورشليم	-3182
ثة	-3183
زة	-3184
ائم	-3185
بكة	-3186
ديا	-3187
ديب	-3188
ضاة	-3189
طيب	-3190
قتل	-3191
ومة	-3192
▁لج	-3193
▁يط	-3194
فعله	-3195
▁اعت	-3196
▁بدم	-3197
▁تقل	-3198
▁دعي	-3199
▁دما	-3200
▁عيد	-3201
▁فدع	-3202
▁قدر	-3203
▁كوش	-3204
▁ليم	-3205
▁مسر	-3206
▁مفت	-3207
▁ورب	-3208
▁وسا	-3209
▁ولب	-3210
▁يحل	-3211
▁ابغض	-3212
▁اريد	-3213
▁بغتة	-3214
▁جاءت	-3215
▁شمال	-3216
▁عملا	-3217
▁عينه	-3218
▁للام	-3219
▁وفعل	-3220
▁ومعه	-3221
▁يطلق	-3222
▁البشر	-3223
▁الخمس	-3224
▁الردي	-3225
▁المنا	-3226
▁صباحا	-3227
▁مشورة	-3228
▁واسحق	-3229
▁وبنوه	-3230
▁وبيوت	-3231
▁وسبعة	-3232
▁الرئيس	-3233
▁النعمة	-3234
▁انبياء	-3235
▁انفسنا	-3236
▁بالكذب	-3237
▁نفتالي	-3238
▁وخمسين	-3239
▁ويعقوب	-3240
▁اسماعيل	-3241
▁الجلجال	-3242
▁وثلاثون	-3243
▁المعدودون	-3244
اة	-3245
غت	-3246
اكر	-3247
بيا	-3248
بيع	-3249
تاف	-3250
دفع	-3251
ذنب	-3252
رسل	-3253
زوج	-3254
ضون	-3255
هام	-3256
واء	-3257
واح	-3258
وعا	-3259
▁تص	-3260
▁جر	-3261
▁ده	-3262
▁رك	-3263
▁فآ	-3264
لكون	-3265
ناها	-3266
ولوا	-3267
وهما	-3268
▁ابت	-3269
▁اتى	-3270
▁اجد	-3271
▁اذن	-3272
▁امس	-3273
▁حدث	-3274
▁ظلم	-3275
▁وتب	-3276
▁وتت	-3277
▁ورا	-3278
▁وست	-3279
▁اراد	-3280
▁اسما	-3281
▁اكتب	-3282
▁الجد	-3283
▁السب	-3284
▁السر	-3285
▁بشيء	-3286
▁تعطي	-3287
▁رحمة	-3288
▁شريع	-3289
▁فصرخ	-3290
▁لستم	-3291
▁لشعب	-3292
▁محبة	-3293
▁وارض	-3294
▁والي	-3295
▁وذبح	-3296
▁وسار	-3297
▁ولكل	-3298
انبياء	-3299
▁ابتدأ	-3300
▁البعل	-3301
▁الجوع	-3302
▁الدائ	-3303
▁المعز	-3304
▁بكلمة	-3305
▁كلامه	-3306
▁لملوك	-3307
▁ملعون	-3308
▁الصغير	-3309
▁المشرق	-3310
▁الاشياء	-3311
▁التقدمة	-3312
طح	-3313
عن	-3314
غة	-3315
كة	-3316
امة	-3317
ثار	-3318
زون	-3319
طمئ	-3320
لوا	-3321
منا	-3322
▁أه	-3323
▁ثر	-3324
▁لغ	-3325
ذراء	-3326
واري	-3327
يدوا	-3328
▁آكل	-3329
▁ادع	-3330
▁اعد	-3331
▁افس	-3332
▁تعد	-3333
▁جلد	-3334
▁خاد	-3335
▁فتن	-3336
▁نقي	-3337
▁وسل	-3338
▁وعظ	-3339
▁ولو	-3340
▁ونع	-3341
▁اجمع	-3342
▁اخوة	-3343
▁اسرع	-3344
▁الما	-3345
▁ذنوب	-3346
▁صاحب	-3347
▁صوته	-3348
▁عبدا	-3349
▁عهدي	-3350
▁فسأل	-3351
▁قرون	-3352
▁مجده	-3353
▁وجمع	-3354
▁ويست	-3355
▁يبغض	-3356
▁يحيا	-3357
▁يقدم	-3358
▁يقطع	-3359
▁رحمتك	-3360
▁شهادة	-3361
▁فاخرج	-3362
▁للقاء	-3363
▁ملتوت	-3364
▁وابتد	-3365
▁وانظر	-3366
▁وسكان	-3367
▁الجموع	-3368
▁القتال	-3369
▁امامكم	-3370
▁وخمسون	-3371
▁الابواب	-3372
▁الغرباء	-3373
▁لانفسكم	-3374
▁واللاويين	-3375
ؤه	-3376
شة	-3377
ضم	-3378
طت	-3379
برر	-3380
تلئ	-3381
حار	-3382
روس	-3383
سيس	-3384
صرة	-3385
كور	-3386
ليا	-3387
مدة	-3388
نطة	-3389
يلي	-3390
يور	-3391
▁لق	-3392
▁يث	-3393
اهرة	-3394
دعون	-3395
سبوك	-3396
▁خلق	-3397
▁ذبح	-3398
▁سأل	-3399
▁سار	-3400
▁فهل	-3401
▁نظر	-3402
▁وسب	-3403
▁وغش	-3404
▁يجب	-3405
▁اترك	-3406
▁اثما	-3407
▁احسن	-3408
▁اذني	-3409
▁بفرح	-3410
▁خيام	-3411
▁روحي	-3412
▁عابر	-3413
▁فصار	-3414
▁قادش	-3415
▁كالب	-3416
▁كاهن	-3417
▁كتبت	-3418
▁مبغض	-3419
▁وأمر	-3420
▁وكما	-3421
▁يحسب	-3422
▁يفرح	-3423
▁ابينا	-3424
▁ارسلت	-3425
▁ارسله	-3426
▁البكر	-3427
▁الجلد	-3428
▁القاد	-3429
▁القتل	-3430
▁الكذب	-3431
▁الموج	-3432
▁الولا	-3433
▁بالاق	-3434
▁بيسوع	-3435
▁جبعون	-3436
▁خرجوا	-3437
▁مقدسة	-3438
▁والمر	-3439
▁الرامة	-3440
▁القدير	-3441
▁جبابرة	-3442
▁وبينما	-3443
▁الابدية	-3444
▁الثالثة	-3445
▁الحكماء	-3446
▁المسكين	-3447
▁الملائكة	-3448
▁واسرائيل	-3449
▁الكنعانيين	-3450
جف	-3451
ظة	-3452
قك	-3453
نط	-3454
خذه	-3455
زلا	-3456
زير	-3457
صري	-3458
عنة	-3459
فيض	-3460
هاب	-3461
هوة	-3462
▁جن	-3463
▁عط	-3464
▁لد	-3465
▁يذ	-3466
▁اضع	-3467
▁بحد	-3468
▁خيل	-3469
▁كذب	-3470
▁لوح	-3471
▁وتغ	-3472
▁ونج	-3473
▁يمس	-3474
عازار	-3475
ماليق	-3476
▁ألعل	-3477
▁احكا	-3478
▁الال	-3479
▁التم	-3480
▁اليا	-3481
▁انزل	-3482
▁تصعد	-3483
▁جالس	-3484
▁حماة	-3485
▁دخلت	-3486
▁ساعة	-3487
▁طاهر	-3488
▁لاله	-3489
▁وصوت	-3490
▁وقلب	-3491
▁ومضى	-3492
▁يظهر	-3493
▁يعود	-3494
▁يغسل	-3495
▁يفتح	-3496
▁اثنان	-3497
▁الآتي	-3498
▁امصيا	-3499
▁ايامه	-3500
▁بماذا	-3501
▁حشبون	-3502
▁شمعون	-3503
▁عشرون	-3504
▁مديان	-3505
▁مذابح	-3506
▁ممالك	-3507
▁وكذلك	-3508
▁يأتون	-3509
▁يتنبأ	-3510
▁ابوابك	-3511
▁تخافوا	-3512
▁جميعكم	-3513
▁زبولون	-3514
▁فاجتمع	-3515
▁وسجدوا	-3516
▁الارامي	-3517
▁والكهنة	-3518
ثرة	-3519
خرى	-3520
ديك	-3521
زين	-3522
سلا	-3523
فعة	-3524
لون	-3525
ماث	-3526
ولي	-3527
▁تؤ	-3528
▁ذو	-3529
▁نث	-3530
بارك	-3531
▁برا	-3532
▁خبر	-3533
▁دمه	-3534
▁رعب	-3535
▁ريح	-3536
▁سبب	-3537
▁سبت	-3538
▁سخط	-3539
▁لتم	-3540
▁ولن	-3541
▁ومر	-3542
▁يتع	-3543
▁يجا	-3544
▁يلق	-3545
وريين	-3546
▁آحاز	-3547
▁ابيا	-3548
▁احدى	-3549
▁الجه	-3550
▁الخا	-3551
▁بالج	-3552
▁بدون	-3553
▁بلاد	-3554
▁تترك	-3555
▁رفعت	-3556
▁سائر	-3557
▁سحاب	-3558
▁صانع	-3559
▁لبعض	-3560
▁لحما	-3561
▁وتحت	-3562
▁وجلس	-3563
▁ومجد	-3564
▁ونظر	-3565
▁ويضع	-3566
▁ياخذ	-3567
▁يمكن	-3568
▁اقداس	-3569
▁الاسد	-3570
▁التاس	-3571
▁جالسا	-3572
▁زكريا	-3573
▁سمعتم	-3574
▁علامة	-3575
▁كاملا	-3576
▁كرسيه	-3577
▁نصيبا	-3578
▁والحق	-3579
▁وسطكم	-3580
▁وسمعت	-3581
▁ولكنه	-3582
▁وملوك	-3583
▁وولدت	-3584
▁اخوتهم	-3585
▁ارجعوا	-3586
▁الاربع	-3587
▁الجاهل	-3588
▁الغريب	-3589
▁القاتل	-3590
▁عليهما	-3591
▁والشعب	-3592
▁وصاياه	-3593
▁يأكلون	-3594
▁يزرعيل	-3595
▁الاحياء	-3596
▁العازار	-3597
▁المصفاة	-3598
▁للانسان	-3599
▁يتكلمون	-3600
▁لابراهيم	-3601
تت	-3602
صق	-3603
صن	-3604
عى	-3605
لث	-3606
ئين	-3607
ائك	-3608
راي	-3609
سكر	-3610
سها	-3611
ضيب	-3612
كرم	-3613
كنا	-3614
نجس	-3615
وقف	-3616
▁بأ	-3617
▁جت	-3618
▁زا	-3619
بائل	-3620
شيوخ	-3621
صيان	-3622
يلون	-3623
▁ابل	-3624
▁تضع	-3625
▁تعل	-3626
▁تقو	-3627
▁حبي	-3628
▁عاب	-3629
▁عري	-3630
▁فاذ	-3631
▁هرب	-3632
▁واف	-3633
▁وتق	-3634
▁ومش	-3635
▁ونس	-3636
▁ويز	-3637
▁يبق	-3638
ساكين	-3639
▁امتل	-3640
▁ترون	-3641
▁تهلك	-3642
▁رجلي	-3643
▁صوتا	-3644
▁مزمع	-3645
▁منظر	-3646
▁والز	-3647
▁وحسب	-3648
▁يبني	-3649
▁يشرب	-3650
▁ابديا	-3651
▁السبع	-3652
▁الصخر	-3653
▁الظلم	-3654
▁اوريا	-3655
▁باسمك	-3656
▁شمشون	-3657
▁عيناك	-3658
▁فيقول	-3659
▁للرجل	-3660
▁نفسها	-3661
▁واعطا	-3662
▁وتقول	-3663
▁ويأخذ	-3664
▁الرؤيا	-3665
▁الرداء	-3666
▁الكتبة	-3667
▁المؤمن	-3668
▁رؤوسهم	-3669
▁فرائضي	-3670
▁ميراثا	-3671
▁واضطجع	-3672
▁واربعين	-3673
حو	-3674
رث	-3675
ظن	-3676
فخ	-3677
كف	-3678
بته	-3679
رفض	-3680
فوس	-3681
كما	-3682
مرك	-3683
وير	-3684
يار	-3685
ينه	-3686
▁بآ	-3687
▁ذي	-3688
▁صو	-3689
▁نش	-3690
راري	-3691
ومون	-3692
يتين	-3693
▁بنى	-3694
▁تجد	-3695
▁تنج	-3696
▁رفي	-3697
▁سلك	-3698
▁فتم	-3699
▁فكل	-3700
▁مسح	-3701
▁ومح	-3702
▁يقر	-3703
▁اثني	-3704
▁اجنا	-3705
▁ارجل	-3706
▁اسأل	-3707
▁اعمل	-3708
▁الوس	-3709
▁برجل	-3710
▁تؤمن	-3711
▁تشدد	-3712
▁تعال	-3713
▁حاشا	-3714
▁سارة	-3715
▁صورة	-3716
▁فدور	-3717
▁قتلى	-3718
▁مسيح	-3719
▁والل	-3720
▁وامت	-3721
▁وطرح	-3722
▁ووجد	-3723
▁يحكم	-3724
▁يرسل	-3725
▁يمسك	-3726
▁يوآش	-3727
▁آخرين	-3728
▁اخزيا	-3729
▁اسمها	-3730
▁الدين	-3731
▁اللحم	-3732
▁بالله	-3733
▁حيثما	-3734
▁سيحون	-3735
▁صادوق	-3736
▁كلمات	-3737
▁واقطع	-3738
▁والمع	-3739
▁ولاجل	-3740
▁استيقظ	-3741
▁الحكيم	-3742
▁عماليق	-3743
▁فكانوا	-3744
▁ليعقوب	-3745
▁مدينته	-3746
▁والذهب	-3747
▁والفضة	-3748
▁وذبائح	-3749
▁اعدائهم	-3750
▁الحجارة	-3751
▁السابعة	-3752
▁المعرفة	-3753
▁واربعون	-3754
كس	-3755
ائب	-3756
اصي	-3757
تلع	-3758
حية	-3759
سيا	-3760
عدل	-3761
كير	-3762
ماد	-3763
ملت	-3764
وآب	-3765
ومه	-3766
ويل	-3767
▁تط	-3768
▁تو	-3769
▁كي	-3770
▁وإ	-3771
الون	-3772
دايا	-3773
رباء	-3774
ربين	-3775
مامة	-3776
هاية	-3777
يلوه	-3778
▁امي	-3779
▁جار	-3780
▁حلم	-3781
▁ضيا	-3782
▁عيب	-3783
▁فاع	-3784
▁كاس	-3785
▁للن	-3786
▁مرب	-3787
▁وعز	-3788
ماثيل	-3789
▁ارحم	-3790
▁اسلم	-3791
▁اقيم	-3792
▁اللب	-3793
▁امسك	-3794
▁اهلك	-3795
▁بهما	-3796
▁حوله	-3797
▁رديء	-3798
▁سعير	-3799
▁صخرة	-3800
▁غلام	-3801
▁فارت	-3802
▁فالت	-3803
▁فرفع	-3804
▁فضلا	-3805
▁فهذا	-3806
▁فوضع	-3807
▁فينا	-3808
▁قدسه	-3809
▁كانه	-3810
▁كلما	-3811
▁للاو	-3812
▁نجسة	-3813
▁واوص	-3814
▁وترك	-3815
▁وعرف	-3816
▁يبصر	-3817
▁يذكر	-3818
▁اخطأت	-3819
▁اقترب	-3820
▁الشحم	-3821
▁الوعر	-3822
▁حيوان	-3823
▁رجالا	-3824
▁سيناء	-3825
▁صعدوا	-3826
▁عملوا	-3827
▁فولدت	-3828
▁لتكون	-3829
▁للامم	-3830
▁للموت	-3831
▁مضايق	-3832
▁ويخرج	-3833
▁آبائكم	-3834
▁آبائنا	-3835
▁الاثني	-3836
▁الحائط	-3837
▁الحنطة	-3838
▁الخلاص	-3839
▁الفتاة	-3840
▁الفقير	-3841
▁عيونهم	-3842
▁لفرعون	-3843
▁وثلاثة	-3844
▁يكونوا	-3845
▁الخطايا	-3846
▁الفلسطيني	-3847
حش	-3848
خي	-3849
▁ـ	-3850
برا	-3851
تهي	-3852
جان	-3853
جيب	-3854
ناع	-3855
وري	-3856
وسي	-3857
▁لف	-3858
اريم	-3859
اسات	-3860
الهم	-3861
راصر	-3862
كرون	-3863
لسنة	-3864
والي	-3865
يادي	-3866
يتكم	-3867
يرام	-3868
▁ابر	-3869
▁ارز	-3870
▁تنت	-3871
▁جلب	-3872
▁رآه	-3873
▁عمي	-3874
▁غنى	-3875
▁فتع	-3876
▁ليا	-3877
▁واز	-3878
▁وحل	-3879
▁وشي	-3880
▁وعم	-3881
▁وقب	-3882
رتفعة	-3883
ناموس	-3884
ويروش	-3885
▁اقصى	-3886
▁الاغ	-3887
▁السل	-3888
▁دعوا	-3889
▁صعدت	-3890
▁عالي	-3891
▁فانت	-3892
▁فبال	-3893
▁فحين	-3894
▁فرأى	-3895
▁قبلا	-3896
▁قبله	-3897
▁قورح	-3898
▁وصرخ	-3899
▁وفرح	-3900
▁وكسر	-3901
▁يصرخ	-3902
▁يعبر	-3903
ستقامة	-3904
▁ابليس	-3905
▁الراب	-3906
▁المخت	-3907
▁المطر	-3908
▁الوحش	-3909
▁بالاب	-3910
▁ثماني	-3911
▁جدعون	-3912
▁خزائن	-3913
▁خيمته	-3914
▁رجلها	-3915
▁سمعنا	-3916
▁شديدة	-3917
▁مراري	-3918
▁وامسك	-3919
▁وبنات	-3920
▁ولبني	-3921
▁ولكني	-3922
▁اخوتكم	-3923
▁اعدائك	-3924
▁الظلام	-3925
▁الوجوه	-3926
▁الوراء	-3927
▁قربانه	-3928
▁وجوههم	-3929
▁ولماذا	-3930
▁اجتمعوا	-3931
▁الكثيرة	-3932
▁اللواتي	-3933
▁وانظروا	-3934
▁ويقولون	-3935
▁احشويروش	-3936
▁وبنيامين	-3937
▁يهوياقيم	-3938
▁الحيوانات	-3939
▁واللاويون	-3940
ؤك	-3941
بد	-3942
ثى	-3943
قو	-3944
وض	-3945
ارق	-3946
بية	-3947
تبة	-3948
راج	-3949
ربي	-3950
سام	-3951
شار	-3952
طوا	-3953
قاق	-3954
كية	-3955
ياح	-3956
▁خص	-3957
▁نظ	-3958
اهما	-3959
بعوا	-3960
بيين	-3961
ريبا	-3962
لابس	-3963
نموا	-3964
يتيم	-3965
▁آخذ	-3966
▁برص	-3967
▁بقي	-3968
▁تسع	-3969
▁تعي	-3970
▁جوا	-3971
▁صرخ	-3972
▁فلن	-3973
▁لشا	-3974
▁مضط	-3975
▁مقب	-3976
▁نون	-3977
▁واج	-3978
▁وخذ	-3979
▁وسك	-3980
▁يحت	-3981
حاربة	-3982
عملوا	-3983
▁آثام	-3984
▁اجرة	-3985
▁اخيك	-3986
▁اعدا	-3987
▁اكلم	-3988
▁الاص	-3989
▁البع	-3990
▁الوف	-3991
▁بقوة	-3992
▁بيني	-3993
▁تاكل	-3994
▁تسقط	-3995
▁تقدر	-3996
▁تقوم	-3997
▁تنبأ	-3998
▁فمتى	-3999
▁قتلا	-4000
▁قضاء	-4001
▁كباش	-4002
▁مثله	-4003
▁مجدا	-4004
▁وارج	-4005
▁وعاد	-4006
▁وكال	-4007
▁ينقذ	-4008
▁اجتاز	-4009
▁اشجار	-4010
▁الصبح	-4011
▁العدل	-4012
▁العرش	-4013
▁المرا	-4014
▁بخورا	-4015
▁حلقيا	-4016
▁فاسمع	-4017
▁فاعلم	-4018
▁فصارت	-4019
▁فيلبس	-4020
▁قريبه	-4021
▁والكت	-4022
▁وانقذ	-4023
▁اعينكم	-4024
▁الثامن	-4025
▁الرعاة	-4026
▁ثمانية	-4027
▁والآخر	-4028
▁والمنا	-4029
▁وراءهم	-4030
▁الاربعة	-4031
▁الانجيل	-4032
▁الانهار	-4033
▁الباقين	-4034
▁السحابة	-4035
▁المكتوب	-4036
▁والعشرين	-4037
مق	-4038
▁إ	-4039
ؤهم	-4040
بان	-4041
تاظ	-4042
ثها	-4043
جعا	-4044
ذبا	-4045
رأة	-4046
رقت	-4047
شيش	-4048
صية	-4049
ضيء	-4050
طقة	-4051
قبل	-4052
مته	-4053
وبإ	-4054
وبا	-4055
وثا	-4056
يري	-4057
▁بز	-4058
▁ضا	-4059
▁مض	-4060
جعله	-4061
عاقب	-4062
نابا	-4063
واضع	-4064
وبيد	-4065
ونكم	-4066
يانا	-4067
▁حمي	-4068
▁حية	-4069
▁ذنب	-4070
▁رأت	-4071
▁سبق	-4072
▁فتت	-4073
▁فضل	-4074
▁فنا	-4075
▁لسب	-4076
▁للص	-4077
▁مري	-4078
▁وبق	-4079
▁وشا	-4080
▁ويخ	-4081
▁يبر	-4082
▁يسر	-4083
تموني	-4084
▁أتوا	-4085
▁اخوك	-4086
▁اضرب	-4087
▁افرح	-4088
▁الحث	-4089
▁الرق	-4090
▁الكا	-4091
▁بنون	-4092
▁توجد	-4093
▁جمال	-4094
▁جناح	-4095
▁رجعت	-4096
▁شمعي	-4097
▁فدفع	-4098
▁فرحا	-4099
▁فهرب	-4100
▁قصور	-4101
▁لتكن	-4102
▁مخدع	-4103
▁وحمل	-4104
▁وشمع	-4105
▁يدين	-4106
▁يزيد	-4107
▁يسأل	-4108
▁اختار	-4109
▁اقاصي	-4110
▁البئر	-4111
▁الحال	-4112
▁الفرح	-4113
▁المتك	-4114
▁المرض	-4115
▁حكيما	-4116
▁رجعوا	-4117
▁شيلوه	-4118
▁صاروا	-4119
▁صالحة	-4120
▁فانهم	-4121
▁فلذلك	-4122
▁مدنهم	-4123
▁وارجع	-4124
▁واقفا	-4125
▁والمس	-4126
▁وحارب	-4127
▁ورأيت	-4128
▁ويوقد	-4129
▁يونان	-4130
▁اعماله	-4131
▁القلوب	-4132
▁النازل	-4133
▁الوصية	-4134
▁فتعلمون	-4135
▁الفريسيون	-4136
زق	-4137
لي	-4138
أول	-4139
امر	-4140
جوم	-4141
حلف	-4142
حيا	-4143
ديه	-4144
ركض	-4145
زاة	-4146
زعج	-4147
ساد	-4148
ساف	-4149
شبة	-4150
شين	-4151
طيا	-4152
علك	-4153
علن	-4154
مها	-4155
هاد	-4156
وزن	-4157
وشث	-4158
يبا	-4159
يتا	-4160
▁ثق	-4161
▁شع	-4162
▁قس	-4163
▁مه	-4164
كروا	-4165
ملون	-4166
وارض	-4167
يرين	-4168
▁اخا	-4169
▁اذه	-4170
▁اشد	-4171
▁امم	-4172
▁برك	-4173
▁تتم	-4174
▁ثاب	-4175
▁خلص	-4176
▁سيس	-4177
▁شار	-4178
▁شاه	-4179
▁عاي	-4180
▁فكم	-4181
▁فيا	-4182
▁فيت	-4183
▁كسر	-4184
▁لعل	-4185
▁لمع	-4186
▁ليب	-4187
▁موض	-4188
▁وتم	-4189
▁وحر	-4190
▁ويه	-4191
حفظون	-4192
مائدة	-4193
▁آساف	-4194
▁اباك	-4195
▁اخذت	-4196
▁اسكن	-4197
▁افتح	-4198
▁اكمل	-4199
▁الاج	-4200
▁الرف	-4201
▁الصغ	-4202
▁بعده	-4203
▁بيدك	-4204
▁تعود	-4205
▁تقتل	-4206
▁جسدي	-4207
▁حكيم	-4208
▁خراف	-4209
▁رؤيا	-4210
▁صغير	-4211
▁طوله	-4212
▁فمضى	-4213
▁فوقف	-4214
▁كالع	-4215
▁كامل	-4216
▁لاسم	-4217
▁ملكي	-4218
▁وامه	-4219
▁وعلم	-4220
▁يجمع	-4221
▁يشهد	-4222
▁ينزع	-4223
سليمان	-4224
▁اسمان	-4225
▁الشرط	-4226
▁الصدي	-4227
▁الكاس	-4228
▁جدليا	-4229
▁حياتي	-4230
▁خطيته	-4231
▁رأيتم	-4232
▁سبعون	-4233
▁صحيحا	-4234
▁عزريا	-4235
▁قلبهم	-4236
▁للوقت	-4237
▁مقدسا	-4238
▁وابنا	-4239
▁وابنه	-4240
▁اعمالك	-4241
▁الجهال	-4242
▁القتلى	-4243
▁الملكة	-4244
▁ايديكم	-4245
▁فانطلق	-4246
▁مركبات	-4247
▁ورجعوا	-4248
▁وضربوا	-4249
▁ويوحنا	-4250
▁يختاره	-4251
▁يعرفون	-4252
▁اجيالكم	-4253
▁الاحباء	-4254
▁الكلمات	-4255
▁المصريون	-4256
▁والانبياء	-4257
تف	-4258
دء	-4259
دك	-4260
ألك	-4261
امي	-4262
جلب	-4263
رهم	-4264
فصل	-4265
واع	-4266
وعز	-4267
يمك	-4268
يهم	-4269
▁فط	-4270
▁مط	-4271
▁نخ	-4272
انون	-4273
بتها	-4274
بعني	-4275
راءى	-4276
زلزل	-4277
زمنة	-4278
صفور	-4279
ضطهد	-4280
طانا	-4281
كنون	-4282
هارا	-4283
يهود	-4284
▁ألق	-4285
▁اغت	-4286
▁بوا	-4287
▁ثلث	-4288
▁درج	-4289
▁ركب	-4290
▁رمم	-4291
▁شمس	-4292
▁صان	-4293
▁صخر	-4294
▁طرح	-4295
▁عشب	-4296
▁عما	-4297
▁فلت	-4298
▁ليأ	-4299
▁معر	-4300
▁ملأ	-4301
▁وبع	-4302
▁وبه	-4303
▁وتا	-4304
▁ومئ	-4305
▁يحد	-4306
▁يدا	-4307
▁يقا	-4308
▁اشتر	-4309
▁اناء	-4310
▁بروح	-4311
▁بعدد	-4312
▁تحسب	-4313
▁حسنة	-4314
▁دعوت	-4315
▁ذكرا	-4316
▁صلاة	-4317
▁صوتي	-4318
▁غريب	-4319
▁قرعة	-4320
▁لبنا	-4321
▁مثلك	-4322
▁موال	-4323
▁وقاس	-4324
▁وهرب	-4325
▁يرحم	-4326
▁يريد	-4327
▁يشبه	-4328
▁يمشي	-4329
▁البائ	-4330
▁البدء	-4331
▁الشغل	-4332
▁الفلك	-4333
▁القوم	-4334
▁اللوح	-4335
▁المثل	-4336
▁الميت	-4337
▁حراسة	-4338
▁حكماء	-4339
▁خمسون	-4340
▁شمعيا	-4341
▁طريقك	-4342
▁واسلم	-4343
▁واكثر	-4344
▁والشر	-4345
▁والله	-4346
▁وامير	-4347
▁وياخذ	-4348
▁الحصاد	-4349
▁الختان	-4350
▁الخروف	-4351
▁المنظر	-4352
▁ترنيمة	-4353
▁تفعلون	-4354
▁لذبيحة	-4355
▁للكهنة	-4356
▁ورجاله	-4357
▁وفرسان	-4358
▁الرابعة	-4359
▁والفريسي	-4360
▁الفريسيين	-4361
ثم	-4362
زب	-4363
هة	-4364
ؤون	-4365
ابا	-4366
بوت	-4367
تاع	-4368
جلا	-4369
دية	-4370
شية	-4371
فيه	-4372
قرض	-4373
نتي	-4374
هدد	-4375
ويه	-4376
يمن	-4377
▁آن	-4378
▁كح	-4379
▁كش	-4380
ائدة	-4381
الحا	-4382
رقون	-4383
فرون	-4384
لميذ	-4385
لويا	-4386
نائس	-4387
▁اهت	-4388
▁ايد	-4389
▁باص	-4390
▁تفس	-4391
▁جان	-4392
▁حبل	-4393
▁سبا	-4394
▁شرق	-4395
▁عور	-4396
▁فاش	-4397
▁قاس	-4398
▁قوا	-4399
▁كتب	-4400
▁ليل	-4401
▁مبر	-4402
▁مجي	-4403
▁محا	-4404
▁هات	-4405
▁وتر	-4406
▁يحا	-4407
اريوس	-4408
انيون	-4409
▁احتر	-4410
▁ادون	-4411
▁اقبل	-4412
▁اقطع	-4413
▁البل	-4414
▁بالص	-4415
▁بالف	-4416
▁بالن	-4417
▁تجاه	-4418
▁تقطع	-4419
▁ثمرا	-4420
▁جنوب	-4421
▁حجرا	-4422
▁ذاهب	-4423
▁رفقة	-4424
▁شفتي	-4425
▁شهود	-4426
▁عورة	-4427
▁فاحت	-4428
▁فانك	-4429
▁فحمي	-4430
▁فعمل	-4431
▁فملك	-4432
▁قبور	-4433
▁كالا	-4434
▁لسبب	-4435
▁ليئة	-4436
▁موتا	-4437
▁نظرت	-4438
▁هلاك	-4439
▁واتى	-4440
▁واخت	-4441
▁وارد	-4442
▁وحفظ	-4443
▁وليد	-4444
▁يسير	-4445
▁يغفر	-4446
▁اخترت	-4447
▁اقامه	-4448
▁الارز	-4449
▁الامة	-4450
▁البوق	-4451
▁العري	-4452
▁العشب	-4453
▁القدم	-4454
▁القول	-4455
▁المدي	-4456
▁امنون	-4457
▁اوصيك	-4458
▁بعيدة	-4459
▁بهيمة	-4460
▁سلاحه	-4461
▁سلموا	-4462
▁شمالا	-4463
▁صروية	-4464
▁عندنا	-4465
▁فاقام	-4466
▁فاننا	-4467
▁فتعلم	-4468
▁ليخدم	-4469
▁مخارج	-4470
▁ناثان	-4471
▁والاح	-4472
▁وامام	-4473
▁وماذا	-4474
▁ويأتي	-4475
▁ويرجع	-4476
▁ويعطي	-4477
▁يقوله	-4478
▁البنين	-4479
▁الحديد	-4480
▁الخدمة	-4481
▁القرعة	-4482
▁لاجلنا	-4483
▁هللويا	-4484
▁وابتدأ	-4485
▁والبحر	-4486
▁وذهبوا	-4487
▁ولكنهم	-4488
▁وللوقت	-4489
▁يخرجون	-4490
▁افواههم	-4491
▁الزيتون	-4492
▁الغلمان	-4493
▁المقدسة	-4494
▁النهاية	-4495
▁لسليمان	-4496
▁والشيوخ	-4497
▁المركبات	-4498
▁نبوخذراصر	-4499
ئي	-4500
ثين	-4501
حين	-4502
داث	-4503
رقه	-4504
سات	-4505
طفئ	-4506
عدت	-4507
فات	-4508
كري	-4509
ناة	-4510
ولك	-4511
ياس	-4512
▁بذ	-4513
▁غش	-4514
▁كخ	-4515
▁نز	-4516
اباد	-4517
اهرا	-4518
ديرا	-4519
ربها	-4520
رجال	-4521
زقيا	-4522
طيني	-4523
فتحت	-4524
قيمة	-4525
يدان	-4526
يدين	-4527
▁أعط	-4528
▁امك	-4529
▁بدل	-4530
▁بطن	-4531
▁سفن	-4532
▁شرب	-4533
▁عدم	-4534
▁لبا	-4535
▁مقا	-4536
▁مقت	-4537
▁وكن	-4538
▁يتأ	-4539
▁يرب	-4540
▁يصد	-4541
▁يقد	-4542
ربابل	-4543
طردهم	-4544
عبدوا	-4545
وثاوس	-4546
يابسة	-4547
▁ابيض	-4548
▁ادفع	-4549
▁اعمى	-4550
▁اعود	-4551
▁المب	-4552
▁بالق	-4553
▁بعشا	-4554
▁بنيك	-4555
▁بيدي	-4556
▁ثوبه	-4557
▁جيوش	-4558
▁حافظ	-4559
▁شهوة	-4560
▁طرقك	-4561
▁طيور	-4562
▁غضبك	-4563
▁فترك	-4564
▁فعله	-4565
▁قوته	-4566
▁لعبد	-4567
▁نباط	-4568
▁وكتب	-4569
▁وكيف	-4570
▁ومدن	-4571
▁يؤكل	-4572
▁يلبس	-4573
▁أليست	-4574
▁اثمهم	-4575
▁احببت	-4576
▁اخيرا	-4577
▁ارنون	-4578
▁البطن	-4579
▁الشوك	-4580
▁العار	-4581
▁الوسط	-4582
▁بيوتا	-4583
▁ترشيش	-4584
▁تمثال	-4585
▁جعلوا	-4586
▁حبيبي	-4587
▁حياته	-4588
▁خلاصي	-4589
▁رأينا	-4590
▁سبعين	-4591
▁صحيحة	-4592
▁عندهم	-4593
▁غريبة	-4594
▁فاعلي	-4595
▁فامسك	-4596
▁فليكن	-4597
▁مفتوح	-4598
▁منحوت	-4599
▁نصيبه	-4600
▁واسمع	-4601
▁واضرب	-4602
▁والمغ	-4603
▁وانما	-4604
▁وداود	-4605
▁وعسلا	-4606
▁وليلا	-4607
▁ويعمل	-4608
▁يتسلط	-4609
▁يمينك	-4610
▁يمينه	-4611
يموثاوس	-4612
▁الاخير	-4613
▁البركة	-4614
▁البيوت	-4615
▁الرحمة	-4616
▁الشجرة	-4617
▁الصانع	-4618
▁الصخرة	-4619
▁العاشر	-4620
▁القديم	-4621
▁فللوقت	-4622
▁لاجلكم	-4623
▁واثنان	-4624
▁واخذوا	-4625
▁وقواعد	-4626
▁ولكنني	-4627
▁يحملون	-4628
▁يعلمون	-4629
▁يعملون	-4630
▁يهورام	-4631
▁الدائمة	-4632
▁القديمة	-4633
▁المركبة	-4634
▁فيعلمون	-4635
▁مستديرا	-4636
▁الشياطين	-4637
▁الكروبيم	-4638
▁المساكين	-4639
▁بالابواق	-4640
باع	-4641
ترف	-4642
تكر	-4643
تمد	-4644
ثوا	-4645
جاع	-4646
حمه	-4647
ددت	-4648
صان	-4649
فرغ	-4650
قوى	-4651
مسح	-4652
مية	-4653
وبخ	-4654
وشن	-4655
يرك	-4656
▁طل	-4657
▁مم	-4658
▁نن	-4659
▁هن	-4660
آحاز	-4661
انهم	-4662
اهنا	-4663
تيان	-4664
جامع	-4665
حتها	-4666
ريين	-4667
زابل	-4668
شاور	-4669
لاما	-4670
مروا	-4671
▁اخو	-4672
▁اصغ	-4673
▁اعا	-4674
▁اكت	-4675
▁انق	-4676
▁بقل	-4677
▁تخل	-4678
▁جوع	-4679
▁حزن	-4680
▁حفر	-4681
▁خزي	-4682
▁سال	-4683
▁سام	-4684
▁سني	-4685
▁شهد	-4686
▁عرض	-4687
▁فاغ	-4688
▁فخذ	-4689
▁فمد	-4690
▁قوس	-4691
▁ليح	-4692
▁محت	-4693
▁ملء	-4694
▁وخل	-4695
▁ورف	-4696
▁وزن	-4697
▁وقع	-4698
تموها	-4699
▁امرا	-4700
▁تفيض	-4701
▁تكمل	-4702
▁حمار	-4703
▁خذوا	-4704
▁ذهبت	-4705
▁رجلك	-4706
▁سبيل	-4707
▁شاهد	-4708
▁فدفن	-4709
▁قهات	-4710
▁قوية	-4711
▁كهذا	-4712
▁للذي	-4713
▁للشر	-4714
▁مدنا	-4715
▁مساء	-4716
▁معكة	-4717
▁معون	-4718
▁نازل	-4719
▁نذهب	-4720
▁وانه	-4721
▁وحدي	-4722
▁وشرب	-4723
▁وقود	-4724
▁وملأ	-4725
▁يديك	-4726
▁يطرد	-4727
هاداتك	-4728
▁ابنها	-4729
▁اخذوا	-4730
▁اخوتك	-4731
▁ارملة	-4732
▁اعطوا	-4733
▁السهل	-4734
▁الشيخ	-4735
▁العيد	-4736
▁الكبش	-4737
▁الكرم	-4738
▁المئة	-4739
▁باسمه	-4740
▁بيتها	-4741
▁بيننا	-4742
▁تركوا	-4743
▁دائرة	-4744
▁راموت	-4745
▁رنموا	-4746
▁شافان	-4747
▁عبيدي	-4748
▁كلمني	-4749
▁مسبوك	-4750
▁مستحق	-4751
▁مشيئة	-4752
▁واجمع	-4753
▁وافعل	-4754
▁والسا	-4755
▁وستين	-4756
▁وشيوخ	-4757
▁وعشرة	-4758
▁وقودا	-4759
▁يابيش	-4760
▁يساكر	-4761
▁اخطأوا	-4762
▁اعينهم	-4763
▁السادس	-4764
▁السنين	-4765
▁الصلاة	-4766
▁الغطاء	-4767
▁باعمال	-4768
▁بالبوق	-4769
▁تسمعون	-4770
▁تلاميذ	-4771
▁جميعهم	-4772
▁شريعتك	-4773
▁فحينئذ	-4774
▁ملائكة	-4775
▁مملكته	-4776
▁وصاياي	-4777
▁ياكلون	-4778
▁يدخلون	-4779
▁يفعلون	-4780
▁اعمالهم	-4781
▁التاسعة	-4782
▁الوصايا	-4783
▁اليابسة	-4784
▁ايمانكم	-4785
▁واقاموا	-4786
▁والنساء	-4787
▁لتلاميذه	-4788
شد	-4789
صت	-4790
آنة	-4791
تلك	-4792
زية	-4793
سحق	-4794
سلك	-4795
صبة	-4796
عود	-4797
غضي	-4798
غيظ	-4799
فرس	-4800
قاء	-4801
قات	-4802
مور	-4803
هاء	-4804
وبي	-4805
وطة	-4806
وقا	-4807
▁أن	-4808
▁ثا	-4809
▁سم	-4810
▁طا	-4811
▁لذ	-4812
▁نه	-4813
انيا	-4814
جعلك	-4815
دموا	-4816
ديهم	-4817
ديين	-4818
شرون	-4819
عدون	-4820
كلين	-4821
وثان	-4822
ولود	-4823
يتنا	-4824
يقام	-4825
▁افع	-4826
▁باق	-4827
▁بمن	-4828
▁تبك	-4829
▁تصل	-4830
▁تمر	-4831
▁حال	-4832
▁خطا	-4833
▁دون	-4834
▁راع	-4835
▁عتي	-4836
▁فكر	-4837
▁كور	-4838
▁ليخ	-4839
▁نذر	-4840
▁هدد	-4841
▁ورد	-4842
▁وزب	-4843
▁يشأ	-4844
▁يشت	-4845
▁يقل	-4846
أكلون	-4847
بابرة	-4848
ثامار	-4849
▁آيات	-4850
▁أتيت	-4851
▁ابوك	-4852
▁اختر	-4853
▁ارضي	-4854
▁اعبر	-4855
▁الصل	-4856
▁المز	-4857
▁انزع	-4858
▁بارا	-4859
▁بغير	-4860
▁بنار	-4861
▁تفهم	-4862
▁جبار	-4863
▁جيدا	-4864
▁جيشه	-4865
▁حلفت	-4866
▁ذوات	-4867
▁راحة	-4868
▁سقطت	-4869
▁سيدك	-4870
▁صباح	-4871
▁عينك	-4872
▁فاخت	-4873
▁فجعل	-4874
▁فحدث	-4875
▁فنظر	-4876
▁قائد	-4877
▁لعمل	-4878
▁لقول	-4879
▁مثلا	-4880
▁مجيء	-4881
▁ملجأ	-4882
▁نعرف	-4883
▁نفسا	-4884
▁واضع	-4885
▁وستة	-4886
▁وضعت	-4887
▁وكبش	-4888
▁وكذا	-4889
▁ولكي	-4890
▁ويرد	-4891
▁يتبع	-4892
▁يدفع	-4893
▁يهرب	-4894
وحانان	-4895
يناداب	-4896
▁الدرج	-4897
▁السما	-4898
▁الكتب	-4899
▁الواق	-4900
▁انتظر	-4901
▁انجيل	-4902
▁انطلق	-4903
▁ايامك	-4904
▁بعيدا	-4905
▁بنهدد	-4906
▁بنيهم	-4907
▁تعليم	-4908
▁حيرام	-4909
▁دهرية	-4910
▁زانية	-4911
▁فانكم	-4912
▁فهوذا	-4913
▁قبائل	-4914
▁قدموا	-4915
▁قوموا	-4916
▁كونوا	-4917
▁لشاول	-4918
▁ليوسف	-4919
▁مسامع	-4920
▁ملكهم	-4921
▁والنا	-4922
▁واليب	-4923
▁وتعمل	-4924
▁وسلام	-4925
▁وصارت	-4926
▁وقرمز	-4927
▁ونادى	-4928
▁ويذبح	-4929
▁يحارب	-4930
▁يدعون	-4931
▁يفتاح	-4932
▁احكامك	-4933
▁احكامي	-4934
▁اخطأنا	-4935
▁الرجاء	-4936
▁الكرمل	-4937
▁اللذان	-4938
▁ايزابل	-4939
▁تأكلون	-4940
▁تقدرون	-4941
▁ثيابهم	-4942
▁دينونة	-4943
▁زربابل	-4944
▁طريقهم	-4945
▁فالتفت	-4946
▁ليهوذا	-4947
▁مستقيم	-4948
▁واربعة	-4949
▁والجوع	-4950
▁وبنايا	-4951
▁وعجائب	-4952
▁يصعدون	-4953
▁يقدروا	-4954
▁الجمهور	-4955
▁وارجوان	-4956
▁الجبابرة	-4957
▁الداخلية	-4958
▁المؤمنين	-4959
▁اسمانجوني	-4960
جز	-4961
حض	-4962
زف	-4963
ؤوس	-4964
برأ	-4965
حول	-4966
دمه	-4967
راك	-4968
ساب	-4969
سته	-4970
شدد	-4971
صفة	-4972
ظال	-4973
عته	-4974
كلا	-4975
كوا	-4976
لاب	-4977
وحا	-4978
ودع	-4979
▁أأ	-4980
▁ذن	-4981
▁سخ	-4982
▁شب	-4983
أديب	-4984
ابور	-4985
ادوق	-4986
برين	-4987
جاوز	-4988
جروا	-4989
ذارى	-4990
صنام	-4991
طيرا	-4992
عدوا	-4993
قبال	-4994
قتال	-4995
لمون	-4996
نتهم	-4997
وفان	-4998
▁اغص	-4999
▁اقم	-5000
▁باك	-5001
▁تمس	-5002
▁ثبت	-5003
▁جلس	-5004
▁حضر	-5005
▁ذات	-5006
▁سحق	-5007
▁سلب	-5008
▁شيخ	-5009
▁صرف	-5010
▁عزي	-5011
▁عسى	-5012
▁فتا	-5013
▁فتب	-5014
▁فست	-5015
▁قرع	-5016
▁كذا	-5017
▁كرم	-5018
▁لصا	-5019
▁للر	-5020
▁لوط	-5021
▁متع	-5022
▁نزع	-5023
▁وأت	-5024
▁واد	-5025
▁وبل	-5026
▁وسم	-5027
▁وشر	-5028
▁وفا	-5029
▁ويص	-5030
▁يمت	-5031
دونية	-5032
وسيين	-5033
▁اتخذ	-5034
▁احتم	-5035
▁اظهر	-5036
▁اقدر	-5037
▁الجا	-5038
▁النع	-5039
▁اموت	-5040
▁بقلب	-5041
▁بكاء	-5042
▁تحمل	-5043
▁تراب	-5044
▁تزرع	-5045
▁تضرع	-5046
▁تقبل	-5047
▁جيدة	-5048
▁حقول	-5049
▁ذهبا	-5050
▁راسك	-5051
▁روحه	-5052
▁عشير	-5053
▁فآمن	-5054
▁فسكن	-5055
▁فعلم	-5056
▁قوتي	-5057
▁قومه	-5058
▁كانا	-5059
▁كبير	-5060
▁لاحد	-5061
▁لسبط	-5062
▁ليلة	-5063
▁ميثا	-5064
▁نبيا	-5065
▁نقول	-5066
▁نموت	-5067
▁وبكى	-5068
▁وحدك	-5069
▁ورجل	-5070
▁وسأل	-5071
▁ولست	-5072
▁ومئة	-5073
▁وموا	-5074
▁يجيب	-5075
▁يرون	-5076
▁يشاء	-5077
▁يشفق	-5078
▁يملك	-5079
▁اثنتي	-5080
▁ارضكم	-5081
▁اسنان	-5082
▁الازل	-5083
▁التفت	-5084
▁الحكم	-5085
▁الحلم	-5086
▁الخبر	-5087
▁السنط	-5088
▁القوس	-5089
▁النجس	-5090
▁خيانة	-5091
▁رفيعة	-5092
▁زمانا	-5093
▁صلاتي	-5094
▁عظامي	-5095
▁عيلام	-5096
▁فاخذت	-5097
▁فطيرا	-5098
▁فعلتم	-5099
▁قولوا	-5100
▁كمنظر	-5101
▁لابيه	-5102
▁ناحية	-5103
▁واسكن	-5104
▁والار	-5105
▁والبا	-5106
▁وانزل	-5107
▁ولسان	-5108
▁ونساء	-5109
▁ونظرت	-5110
▁يتقدم	-5111
▁يتنجس	-5112
▁ينبوع	-5113
▁اخرجوا	-5114
▁ادونيا	-5115
▁اعطاني	-5116
▁الحبيب	-5117
▁الدهور	-5118
▁العبيد	-5119
▁العربة	-5120
▁الفطير	-5121
▁تقويمك	-5122
▁حزائيل	-5123
▁ضياعها	-5124
▁عالمين	-5125
▁فجاءوا	-5126
▁كبرياء	-5127
▁معروفا	-5128
▁واعطاه	-5129
▁والفرز	-5130
▁وحجارة	-5131
▁وسكنوا	-5132
▁وعملوا	-5133
▁وفرائض	-5134
▁ووقفوا	-5135
▁يسقطون	-5136
▁يعطيكم	-5137
▁يقومون	-5138
▁المخادع	-5139
▁بالمسيح	-5140
▁مرتفعات	-5141
▁واخبروا	-5142
▁والثلاث	-5143
▁والبهائم	-5144
ئب	-5145
جم	-5146
خب	-5147
غو	-5148
فو	-5149
قش	-5150
ئات	-5151
باد	-5152
ثوث	-5153
جيج	-5154
حبة	-5155
حيم	-5156
خار	-5157
رنا	-5158
زرع	-5159
سار	-5160
صرت	-5161
طاب	-5162
طار	-5163
طعم	-5164
على	-5165
قها	-5166
وشي	-5167
ومر	-5168
يله	-5169
▁دب	-5170
▁زم	-5171
▁سف	-5172
▁سق	-5173
▁كأ	-5174
▁لر	-5175
▁نم	-5176
جلون	-5177
خرون	-5178
رارا	-5179
قتله	-5180
هروا	-5181
هنوت	-5182
وريم	-5183
▁ألس	-5184
▁انش	-5185
▁بره	-5186
▁تشت	-5187
▁شبع	-5188
▁شفت	-5189
▁عدو	-5190
▁لنع	-5191
▁وعر	-5192
▁وكب	-5193
▁ولس	-5194
▁ويج	-5195
تكفير	-5196
رفعون	-5197
طلبوا	-5198
طيعون	-5199
مدودة	-5200
▁اجلب	-5201
▁ارضا	-5202
▁اصرخ	-5203
▁الاز	-5204
▁الرأ	-5205
▁اوصا	-5206
▁اوصى	-5207
▁بوعز	-5208
▁تجار	-5209
▁تخبر	-5210
▁تدين	-5211
▁تسكن	-5212
▁تفرح	-5213
▁حارب	-5214
▁حارس	-5215
▁دخان	-5216
▁شوشن	-5217
▁صرخت	-5218
▁طالب	-5219
▁ظلما	-5220
▁غنمي	-5221
▁قائم	-5222
▁كاذب	-5223
▁كلكم	-5224
▁كورة	-5225
▁لسنا	-5226
▁محبي	-5227
▁مرثا	-5228
▁ملكة	-5229
▁مواش	-5230
▁وبلا	-5231
▁وحوش	-5232
▁وحيث	-5233
▁وخبز	-5234
▁وفضة	-5235
▁وقيل	-5236
▁يبقى	-5237
▁يدعو	-5238
▁يزول	-5239
انجوني	-5240
▁احياء	-5241
▁اطراف	-5242
▁اعاقب	-5243
▁اعطيك	-5244
▁البرد	-5245
▁الجند	-5246
▁السمك	-5247
▁الشقة	-5248
▁الصوت	-5249
▁القوة	-5250
▁اللهم	-5251
▁الملح	-5252
▁انتهى	-5253
▁بالقر	-5254
▁ثامار	-5255
▁حولها	-5256
▁ذهبوا	-5257
▁شعبها	-5258
▁شواقل	-5259
▁صالحا	-5260
▁عددهم	-5261
▁عيناي	-5262
▁فأتوا	-5263
▁فاعطى	-5264
▁فالذي	-5265
▁فيرجع	-5266
▁قدامي	-5267
▁قدميه	-5268
▁لكيلا	-5269
▁مبروم	-5270
▁معهما	-5271
▁مكانا	-5272
▁ملآنة	-5273
▁نابوت	-5274
▁هربوا	-5275
▁واكتب	-5276
▁واكون	-5277
▁والتي	-5278
▁والكل	-5279
▁والمت	-5280
▁وستون	-5281
▁ويدخل	-5282
▁ويسقط	-5283
▁ويشوع	-5284
▁ينتظر	-5285
▁يوثام	-5286
▁آباؤكم	-5287
▁آلهتهم	-5288
▁ارتفعت	-5289
▁الخمسة	-5290
▁العلاء	-5291
▁الفرات	-5292
▁الكامل	-5293
▁الكثرة	-5294
▁الكثير	-5295
▁باركوا	-5296
▁تستطيع	-5297
▁تعرفون	-5298
▁للمسيح	-5299
▁نصيبهم	-5300
▁واعطوا	-5301
▁ودخلوا	-5302
▁الاعمال	-5303
▁المائدة	-5304
▁للاويين	-5305
▁مستقيمة	-5306
▁والكتبة	-5307
▁وامرأته	-5308
▁وثمانية	-5309
▁يتنبأون	-5310
▁الخارجية	-5311
▁المرتفعة	-5312
▁لاستقبال	-5313
▁المديانيين	-5314
**	-5315
فح	-5316
ابة	-5317
تهى	-5318
جين	-5319
حبه	-5320
حمك	-5321
رنم	-5322
شوة	-5323
صوا	-5324
طون	-5325
فلح	-5326
فية	-5327
مكم	-5328
ناق	-5329
هود	-5330
وبأ	-5331
وحش	-5332
وفل	-5333
وفي	-5334
▁أب	-5335
▁حط	-5336
▁خض	-5337
▁سه	-5338
▁ضل	-5339
▁طم	-5340
▁كغ	-5341
انوا	-5342
جاسة	-5343
خروف	-5344
رائي	-5345
راهم	-5346
رسون	-5347
صيكم	-5348
ظنون	-5349
لاحظ	-5350
ماما	-5351
وبال	-5352
وبوا	-5353
وبيل	-5354
وحوش	-5355
يرها	-5356
يرهم	-5357
ينهم	-5358
ينوى	-5359
▁احا	-5360
▁بغض	-5361
▁تقر	-5362
▁ربا	-5363
▁زنى	-5364
▁شاء	-5365
▁فرغ	-5366
▁فله	-5367
▁قوي	-5368
▁كبر	-5369
▁كفا	-5370
▁لقد	-5371
▁للث	-5372
▁للف	-5373
▁مال	-5374
▁متك	-5375
▁مضا	-5376
▁مظل	-5377
▁هدم	-5378
▁وحش	-5379
▁ودخ	-5380
▁وشب	-5381
▁يبي	-5382
▁يجت	-5383
▁يرج	-5384
▁يلت	-5385
قدسوا	-5386
▁اجلس	-5387
▁اكرم	-5388
▁الأس	-5389
▁البق	-5390
▁الزا	-5391
▁العط	-5392
▁القب	-5393
▁المي	-5394
▁امره	-5395
▁بالغ	-5396
▁بملك	-5397
▁تبصر	-5398
▁تبني	-5399
▁تمسك	-5400
▁ثمان	-5401
▁سامع	-5402
▁سيفا	-5403
▁صادق	-5404
▁ضربه	-5405
▁عارا	-5406
▁غربا	-5407
▁غيرة	-5408
▁قبلي	-5409
▁كتان	-5410
▁لابن	-5411
▁لعنة	-5412
▁محفل	-5413
▁مشيئ	-5414
▁مطمئ	-5415
▁ملجإ	-5416
▁نكون	-5417
▁وبكل	-5418
▁وتضع	-5419
▁وعين	-5420
▁وقدم	-5421
▁وقفت	-5422
▁وكنت	-5423
▁ومست	-5424
▁يحدث	-5425
▁يسلك	-5426
▁يعطى	-5427
▁يقسم	-5428
▁يقضي	-5429
▁آبائك	-5430
▁ابنته	-5431
▁ارتفا	-5432
▁اعطاه	-5433
▁التاج	-5434
▁الطيب	-5435
▁المخا	-5436
▁انبيا	-5437
▁دخلوا	-5438
▁دقيقا	-5439
▁رأيته	-5440
▁رجاسا	-5441
▁سلاما	-5442
▁شوارع	-5443
▁صغيرة	-5444
▁صنعوا	-5445
▁عذراء	-5446
▁فابتد	-5447
▁فعلوا	-5448
▁قريبك	-5449
▁كاهنا	-5450
▁كرامة	-5451
▁كلاما	-5452
▁للناس	-5453
▁ليصنع	-5454
▁مائدة	-5455
▁مخافة	-5456
▁مختار	-5457
▁نابال	-5458
▁والبر	-5459
▁والقد	-5460
▁وذهبا	-5461
▁ورائي	-5462
▁ورجال	-5463
▁وعرضه	-5464
▁وليكن	-5465
▁ويشرب	-5466
▁يضطجع	-5467
▁الاخرى	-5468
▁البحار	-5469
▁البخور	-5470
▁الخطاة	-5471
▁العريس	-5472
▁النفوس	-5473
▁الهلاك	-5474
▁الوالي	-5475
▁بالعدل	-5476
▁والبيت	-5477
▁والزيت	-5478
▁وانطلق	-5479
▁وعبيده	-5480
▁يخدمون	-5481
▁يذبحون	-5482
▁يذهبون	-5483
▁يعرفوا	-5484
▁الآبدين	-5485
▁المنارة	-5486
▁مكدونية	-5487
▁الساكنون	-5488
▁العبودية	-5489
▁وقواعدها	-5490
▁والفريسيون	-5491
عك	-5492
يج	-5493
يي	-5494
ئوا	-5495
ادة	-5496
ارس	-5497
حوه	-5498
ديف	-5499
سنة	-5500
شيب	-5501
ضائ	-5502
فسد	-5503
ماق	-5504
وله	-5505
يوم	-5506
▁أخ	-5507
▁جئ	-5508
▁فف	-5509
▁كج	-5510
ائها	-5511
ادية	-5512
بيرا	-5513
حلون	-5514
رفاء	-5515
زائن	-5516
سبيح	-5517
عازر	-5518
لامه	-5519
مرون	-5520
ناهم	-5521
هبوا	-5522
وتار	-5523
وتها	-5524
▁أخذ	-5525
▁انف	-5526
▁باث	-5527
▁تحل	-5528
▁تضر	-5529
▁تلت	-5530
▁تلد	-5531
▁جرى	-5532
▁خلف	-5533
▁رؤس	-5534
▁سبل	-5535
▁سمك	-5536
▁ضعف	-5537
▁غيظ	-5538
▁فتس	-5539
▁لار	-5540
▁لتن	-5541
▁محص	-5542
▁مذل	-5543
▁وتل	-5544
▁ورق	-5545
▁وكم	-5546
▁ومج	-5547
▁ومد	-5548
▁يبل	-5549
▁يعب	-5550
جائبه	-5551
حيوان	-5552
وابين	-5553
وبديا	-5554
يتوفل	-5555
▁اثنت	-5556
▁احكم	-5557
▁اخاف	-5558
▁اختي	-5559
▁اخوه	-5560
▁اذنك	-5561
▁اعمد	-5562
▁اليب	-5563
▁امين	-5564
▁اياك	-5565
▁ايلة	-5566
▁بطنه	-5567
▁بعين	-5568
▁بمجد	-5569
▁بنيت	-5570
▁تاتي	-5571
▁تجمع	-5572
▁تحرق	-5573
▁تخطئ	-5574
▁تشبع	-5575
▁تظلم	-5576
▁ثروة	-5577
▁حربا	-5578
▁حفظت	-5579
▁خروف	-5580
▁خمسا	-5581
▁راسا	-5582
▁رداء	-5583
▁زبدي	-5584
▁ظلمة	-5585
▁فارص	-5586
▁فراش	-5587
▁قدسا	-5588
▁قصبة	-5589
▁قضاة	-5590
▁نورا	-5591
▁وذلك	-5592
▁وروح	-5593
▁وميش	-5594
▁ووجه	-5595
▁ويكف	-5596
▁يغلب	-5597
▁ابيها	-5598
▁اخذها	-5599
▁اذهبي	-5600
▁اسوار	-5601
▁البأس	-5602
▁الحطب	-5603
▁الغنى	-5604
▁القصر	-5605
▁المحي	-5606
▁المرة	-5607
▁باروخ	-5608
▁بلسان	-5609
▁بنايا	-5610
▁ثيابا	-5611
▁جوابا	-5612
▁خافوا	-5613
▁خلاصا	-5614
▁سيسرا	-5615
▁شاهدا	-5616
▁صاحبك	-5617
▁فاصعد	-5618
▁فاعطي	-5619
▁فتقول	-5620
▁فتكلم	-5621
▁فهكذا	-5622
▁فيأتي	-5623
▁قليلة	-5624
▁قيامة	-5625
▁كنيسة	-5626
▁لسيدي	-5627
▁ليسوا	-5628
▁ليسوع	-5629
▁مئتين	-5630
▁مبغضي	-5631
▁مركبا	-5632
▁مركبة	-5633
▁مقدسي	-5634
▁نينوى	-5635
▁واصنع	-5636
▁واقول	-5637
▁واهلك	-5638
▁وخرجت	-5639
▁وقائد	-5640
▁ومضوا	-5641
▁وواحد	-5642
▁ويصعد	-5643
▁يجدوا	-5644
▁يمينا	-5645
▁ارسلوا	-5646
▁اصعدوا	-5647
▁اعدائه	-5648
▁الآيات	-5649
▁الأسود	-5650
▁الباطل	-5651
▁الحجاب	-5652
▁الخراف	-5653
▁الذكور	-5654
▁السعاة	-5655
▁المدعو	-5656
▁تكونون	-5657
▁جميعها	-5658
▁سلطانا	-5659
▁قدامهم	-5660
▁للقائه	-5661
▁لمحرقة	-5662
▁مكتوبا	-5663
▁نفوسكم	-5664
▁وآخرون	-5665
▁واحكام	-5666
▁واقفين	-5667
▁والملك	-5668
▁ورؤساؤ	-5669
▁وراءها	-5670
▁وسبعون	-5671
▁وعزريا	-5672
▁وقتلوا	-5673
▁وقولوا	-5674
▁ووضعوا	-5675
▁يعاريم	-5676
▁ينابيع	-5677
▁ينظرون	-5678
▁الابطال	-5679
▁الجزائر	-5680
▁السادسة	-5681
▁الصالحة	-5682
▁المتكلم	-5683
▁الممالك	-5684
▁المنحوت	-5685
▁بالقرعة	-5686
▁ليكونوا	-5687
▁يهوآحاز	-5688
▁العمودين	-5689
▁والرؤساء	-5690
▁والعازار	-5691
بن	-5692
ضد	-5693
كه	-5694
باك	-5695
بلة	-5696
حرة	-5697
حرج	-5698
شرب	-5699
شمس	-5700
صام	-5701
صفح	-5702
صين	-5703
ضحة	-5704
عزر	-5705
علة	-5706
غرب	-5707
كرز	-5708
لاه	-5709
نهم	-5710
وسا	-5711
وطي	-5712
وكل	-5713
ياد	-5714
يدر	-5715
▁أر	-5716
▁رذ	-5717
▁سأ	-5718
▁صب	-5719
▁عس	-5720
▁قف	-5721
ابيع	-5722
بأوا	-5723
باطل	-5724
جايل	-5725
جبوا	-5726
دخول	-5727
راقب	-5728
علان	-5729
فتين	-5730
قيما	-5731
كارا	-5732
مانة	-5733
نيهم	-5734
واته	-5735
وايا	-5736
وركم	-5737
ولاة	-5738
وياء	-5739
يروا	-5740
▁أخر	-5741
▁اذل	-5742
▁بذا	-5743
▁ترج	-5744
▁ترن	-5745
▁تطه	-5746
▁تلق	-5747
▁ثقل	-5748
▁جثث	-5749
▁جوف	-5750
▁جيد	-5751
▁حام	-5752
▁خاص	-5753
▁خاف	-5754
▁دام	-5755
▁ذوي	-5756
▁رجس	-5757
▁ساق	-5758
▁شحم	-5759
▁شوك	-5760
▁عزر	-5761
▁عوض	-5762
▁فرع	-5763
▁فيب	-5764
▁فيغ	-5765
▁قرأ	-5766
▁كبش	-5767
▁كفر	-5768
▁كلت	-5769
▁لبن	-5770
▁لدن	-5771
▁وجا	-5772
▁وفت	-5773
▁وكت	-5774
▁ولح	-5775
▁ومز	-5776
▁يعو	-5777
▁يكف	-5778
▁يلا	-5779
▁يمد	-5780
▁يوا	-5781
ثينيم	-5782
طاكية	-5783
طردون	-5784
▁آمون	-5785
▁أفلا	-5786
▁ابدي	-5787
▁اخيش	-5788
▁اسيا	-5789
▁اكلت	-5790
▁الاك	-5791
▁المق	-5792
▁امما	-5793
▁امير	-5794
▁بسيف	-5795
▁بفضة	-5796
▁تاخذ	-5797
▁تسبي	-5798
▁تشفق	-5799
▁تشهد	-5800
▁تعبد	-5801
▁تنزل	-5802
▁حائط	-5803
▁خربت	-5804
▁رسول	-5805
▁ركاب	-5806
▁رواق	-5807
▁سكوت	-5808
▁شاطئ	-5809
▁طرقي	-5810
▁عمود	-5811
▁عنقه	-5812
▁عينا	-5813
▁غنما	-5814
▁فجمع	-5815
▁فصنع	-5816
▁قتلت	-5817
▁قدسك	-5818
▁قضيب	-5819
▁قلتم	-5820
▁قولك	-5821
▁قومي	-5822
▁كملت	-5823
▁لخيش	-5824
▁لعله	-5825
▁مالك	-5826
▁مثلي	-5827
▁مجمع	-5828
▁مختل	-5829
▁نعمي	-5830
▁نفعل	-5831
▁نقمة	-5832
▁هدية	-5833
▁والط	-5834
▁وبقر	-5835
▁وتعب	-5836
▁وطرد	-5837
▁وظهر	-5838
▁ومثل	-5839
▁وهما	-5840
▁ويحي	-5841
▁يدها	-5842
▁يدهم	-5843
▁يشبع	-5844
▁يكرز	-5845
▁يهود	-5846
▁اجلكم	-5847
▁استمع	-5848
▁افتقد	-5849
▁اقطاب	-5850
▁البتة	-5851
▁الطرف	-5852
▁العتي	-5853
▁امينا	-5854
▁انصرف	-5855
▁انهار	-5856
▁ايامي	-5857
▁اياهم	-5858
▁بالبر	-5859
▁بعضنا	-5860
▁تبارك	-5861
▁تخومك	-5862
▁ثمرها	-5863
▁جارية	-5864
▁جديدا	-5865
▁سقطوا	-5866
▁سنتين	-5867
▁صيدون	-5868
▁فأخبر	-5869
▁فاذهب	-5870
▁كبيرة	-5871
▁كريمة	-5872
▁لعبدك	-5873
▁ليذهب	-5874
▁ليشوع	-5875
▁مستعد	-5876
▁واحفظ	-5877
▁واطلق	-5878
▁واقيم	-5879
▁والحو	-5880
▁والمن	-5881
▁وبعده	-5882
▁وبيته	-5883
▁وبينك	-5884
▁وتصير	-5885
▁وجعله	-5886
▁وشعبك	-5887
▁وكبشا	-5888
▁ولدوا	-5889
▁وليمة	-5890
▁ومريم	-5891
▁ويهلك	-5892
▁يستطع	-5893
▁يهودي	-5894
▁ارحمني	-5895
▁استطيع	-5896
▁اطلبوا	-5897
▁افعلوا	-5898
▁الآنية	-5899
▁الامين	-5900
▁الجديد	-5901
▁الحمار	-5902
▁الخشبة	-5903
▁الشبكة	-5904
▁الطعام	-5905
▁القادر	-5906
▁القرية	-5907
▁اللاوي	-5908
▁اللعنة	-5909
▁المسحة	-5910
▁اليمين	-5911
▁امامنا	-5912
▁اولادا	-5913
▁برنابا	-5914
▁تعلموا	-5915
▁تعملون	-5916
▁فدفنوه	-5917
▁فليسمع	-5918
▁قلوبنا	-5919
▁لانهما	-5920
▁لعبيده	-5921
▁للخدمة	-5922
▁للقتال	-5923
▁للكاهن	-5924
▁لليهود	-5925
▁واجتمع	-5926
▁وارتفا	-5927
▁والشحم	-5928
▁وذبحوا	-5929
▁وذبيحة	-5930
▁وزكريا	-5931
▁ونهارا	-5932
▁يدخلوا	-5933
▁يصرخون	-5934
▁يعملوا	-5935
▁الاخيرة	-5936
▁الاولين	-5937
▁الايادي	-5938
▁الثامنة	-5939
▁الحصينة	-5940
▁الرسالة	-5941
▁الزانية	-5942
▁الزاوية	-5943
▁الفرائض	-5944
▁الناصري	-5945
▁اليوبيل	-5946
▁شهاداتك	-5947
▁واعطاهم	-5948
▁والرئيس	-5949
▁وثمانين	-5950
▁الواقفين	-5951
▁بالحجارة	-5952
▁ويوناثان	-5953
▁المعدودين	-5954
ئل	-5955
اظ	-5956
ثق	-5957
خض	-5958
زه	-5959
لج	-5960
نق	-5961
أتك	-5962
ادر	-5963
بهن	-5964
تيب	-5965
ثلث	-5966
حكم	-5967
داة	-5968
درا	-5969
ديق	-5970
ذيب	-5971
ركب	-5972
ركم	-5973
ريع	-5974
ريك	-5975
صاص	-5976
صدق	-5977
ضحك	-5978
ضعا	-5979
غفة	-5980
فاز	-5981
فلى	-5982
كاف	-5983
ماس	-5984
ناي	-5985
نيت	-5986
وجع	-5987
وصا	-5988
وطا	-5989
وعي	-5990
ياج	-5991
يبه	-5992
يحا	-5993
▁جف	-5994
▁زل	-5995
▁غز	-5996
▁قع	-5997
أتون	-5998
اريع	-5999
ارين	-6000
بارا	-6001
تلال	-6002
تموا	-6003
ثرون	-6004
ثليا	-6005
ربات	-6006
ستان	-6007
سلان	-6008
شاصر	-6009
صرية	-6010
ضروا	-6011
ماذا	-6012
ماكن	-6013
نابل	-6014
نتها	-6015
نوعة	-6016
نياء	-6017
هارة	-6018
واني	-6019
وبعة	-6020
ولها	-6021
وموا	-6022
ومية	-6023
يروت	-6024
▁ابط	-6025
▁اقص	-6026
▁اكن	-6027
▁امل	-6028
▁انح	-6029
▁ببر	-6030
▁برب	-6031
▁بشا	-6032
▁بمع	-6033
▁تذل	-6034
▁ترد	-6035
▁تقت	-6036
▁تقف	-6037
▁جيل	-6038
▁رمل	-6039
▁سفك	-6040
▁سيق	-6041
▁شاة	-6042
▁شجر	-6043
▁صائ	-6044
▁طبق	-6045
▁طيب	-6046
▁عدن	-6047
▁فاه	-6048
▁فرد	-6049
▁لعد	-6050
▁مدة	-6051
▁مكت	-6052
▁موج	-6053
▁هلك	-6054
▁واك	-6055
▁واه	-6056
▁وبأ	-6057
▁وشد	-6058
▁يذل	-6059
▁يضل	-6060
الكين	-6061
زيئيل	-6062
مائهم	-6063
▁ابعد	-6064
▁اتكل	-6065
▁احرق	-6066
▁اشرب	-6067
▁افسس	-6068
▁الشا	-6069
▁الفخ	-6070
▁الفس	-6071
▁ترفع	-6072
▁تسلم	-6073
▁تضرب	-6074
▁تظهر	-6075
▁تعطى	-6076
▁حصاد	-6077
▁حكما	-6078
▁حنطة	-6079
▁دعني	-6080
▁رعاة	-6081
▁روحا	-6082
▁سيفه	-6083
▁شرقا	-6084
▁شلوم	-6085
▁طلبت	-6086
▁ظلام	-6087
▁عرضا	-6088
▁عمري	-6089
▁فامر	-6090
▁فحسن	-6091
▁فعاد	-6092
▁فعند	-6093
▁فقتل	-6094
▁فلست	-6095
▁قطعت	-6096
▁قطيع	-6097
▁قوما	-6098
▁كثرت	-6099
▁كروب	-6100
▁كلمه	-6101
▁لحظة	-6102
▁لحمه	-6103
▁لكنه	-6104
▁مائد	-6105
▁متاع	-6106
▁مجدي	-6107
▁مرعى	-6108
▁مضجع	-6109
▁مهما	-6110
▁موته	-6111
▁نسلا	-6112
▁نصنع	-6113
▁نظير	-6114
▁وآتي	-6115
▁واكل	-6116
▁والد	-6117
▁والظ	-6118
▁وتبع	-6119
▁ودعت	-6120
▁وزيت	-6121
▁ومنس	-6122
▁ونحو	-6123
▁ويسب	-6124
▁يبيد	-6125
▁يحمد	-6126
▁يرعى	-6127
▁يوقد	-6128
▁يولد	-6129
لائكته	-6130
▁آمنوا	-6131
▁ابيهم	-6132
▁احسان	-6133
▁احمدك	-6134
▁ارواح	-6135
▁اسألك	-6136
▁اشدود	-6137
▁اعضاء	-6138
▁اعطني	-6139
▁افعله	-6140
▁الاسم	-6141
▁الحصن	-6142
▁الخوف	-6143
▁الضأن	-6144
▁العمي	-6145
▁الغني	-6146
▁القمر	-6147
▁امتعة	-6148
▁امراء	-6149
▁بالام	-6150
▁ثيران	-6151
▁جهتكم	-6152
▁حوريب	-6153
▁خلاصك	-6154
▁ربوات	-6155
▁رجلان	-6156
▁رسائل	-6157
▁شيطان	-6158
▁طرقكم	-6159
▁عاجلا	-6160
▁عرفوا	-6161
▁عوبيد	-6162
▁غلمان	-6163
▁فاعطا	-6164
▁فاقول	-6165
▁فانته	-6166
▁فحبلت	-6167
▁فخرجت	-6168
▁فقالا	-6169
▁فيصير	-6170
▁قايين	-6171
▁قعيلة	-6172
▁كلمتك	-6173
▁لآلهة	-6174
▁للخير	-6175
▁ليأخذ	-6176
▁ليعمل	-6177
▁مئتان	-6178
▁مجتمع	-6179
▁ناداب	-6180
▁نثنيا	-6181
▁نجاسة	-6182
▁واتوا	-6183
▁واخذت	-6184
▁واعمل	-6185
▁واغلق	-6186
▁والقر	-6187
▁والكب	-6188
▁والكن	-6189
▁ولدته	-6190
▁ويضرب	-6191
▁ويقوم	-6192
▁ياتون	-6193
▁يورام	-6194
▁ابتداء	-6195
▁اخيقام	-6196
▁اذكروا	-6197
▁اعطاكم	-6198
▁اعطاهم	-6199
▁اعطيكم	-6200
▁الاسوا	-6201
▁الاصغر	-6202
▁الجزية	-6203
▁الجمال	-6204
▁الدماء	-6205
▁السفلى	-6206
▁الشروق	-6207
▁الصدرة	-6208
▁الظالم	-6209
▁الكورة	-6210
▁امتلأت	-6211
▁تريدون	-6212
▁ثلاثون	-6213
▁فرائضك	-6214
▁قيصرية	-6215
▁لتمتلك	-6216
▁للخطية	-6217
▁مكانهم	-6218
▁مملوءة	-6219
▁ميراثه	-6220
▁والبقر	-6221
▁والرجل	-6222
▁والعرض	-6223
▁والقمر	-6224
▁واولاد	-6225
▁وبعدما	-6226
▁وحينئذ	-6227
▁وخرجوا	-6228
▁وصادوق	-6229
▁ويتكلم	-6230
▁يسيرون	-6231
▁ينزلون	-6232
▁اخيتوفل	-6233
▁اعطيتني	-6234
▁الاسماء	-6235
▁الباقية	-6236
▁الكتابة	-6237
▁الكنائس	-6238
▁خطاياهم	-6239
▁للتكفير	-6240
▁لمحاربة	-6241
▁ليأكلوا	-6242
▁واخوتهم	-6243
▁واصعدوا	-6244
▁والنحاس	-6245
▁وفرائضه	-6246
▁بالناموس	-6247
▁والاحكام	-6248
▁الاراميين	-6249
حى	-6250
رن	-6251
زح	-6252
وذ	-6253
آخر	-6254
أصل	-6255
ؤكم	-6256
ارع	-6257
تمر	-6258
تمس	-6259
جرى	-6260
جهة	-6261
حضة	-6262
داه	-6263
راث	-6264
سرى	-6265
سمع	-6266
شاء	-6267
شبع	-6268
شعر	-6269
شور	-6270
صاد	-6271
طاد	-6272
طاع	-6273
طنة	-6274
ظرا	-6275
عاف	-6276
عطى	-6277
عظم	-6278
فيب	-6279
قاب	-6280
قته	-6281
قدة	-6282
قسم	-6283
قوت	-6284
كره	-6285
ماه	-6286
معة	-6287
ميص	-6288
هدت	-6289
وام	-6290
وجة	-6291
يعة	-6292
ينك	-6293
يوا	-6294
▁آم	-6295
▁جي	-6296
▁در	-6297
▁دن	-6298
▁طر	-6299
▁كق	-6300
▁هز	-6301
▁وظ	-6302
أولى	-6303
ابله	-6304
بطين	-6305
تهاد	-6306
تهزئ	-6307
راحت	-6308
راسة	-6309
رتها	-6310
زلوا	-6311
شاقى	-6312
صاعد	-6313
ضبان	-6314
عادة	-6315
قدسه	-6316
قرون	-6317
قلون	-6318
كتوا	-6319
كوني	-6320
مدان	-6321
وباب	-6322
وثون	-6323
وعير	-6324
ولئك	-6325
ياها	-6326
يتني	-6327
يقين	-6328
▁اتع	-6329
▁اذي	-6330
▁الإ	-6331
▁اية	-6332
▁باع	-6333
▁تبع	-6334
▁تحب	-6335
▁تيس	-6336
▁تين	-6337
▁جنة	-6338
▁جيح	-6339
▁حجي	-6340
▁ساب	-6341
▁عام	-6342
▁عرا	-6343
▁عظم	-6344
▁عير	-6345
▁غسل	-6346
▁فاي	-6347
▁فبه	-6348
▁فصل	-6349
▁فلس	-6350
▁قيس	-6351
▁كلب	-6352
▁لقي	-6353
▁لوز	-6354
▁ليك	-6355
▁متر	-6356
▁محر	-6357
▁وتد	-6358
▁وتز	-6359
▁وحن	-6360
▁وخا	-6361
▁وعي	-6362
▁وغن	-6363
▁ويو	-6364
▁يرث	-6365
ائيين	-6366
علموا	-6367
كاذيب	-6368
مودية	-6369
ياثار	-6370
يماني	-6371
▁أخبر	-6372
▁أعطي	-6373
▁أفما	-6374
▁اسكب	-6375
▁اشته	-6376
▁اغلق	-6377
▁الحر	-6378
▁الصح	-6379
▁الصف	-6380
▁الضع	-6381
▁الكم	-6382
▁امتك	-6383
▁بالل	-6384
▁باني	-6385
▁بقوا	-6386
▁بمثل	-6387
▁بناه	-6388
▁بوجه	-6389
▁تألم	-6390
▁تجيء	-6391
▁تخلص	-6392
▁تذبح	-6393
▁تعبت	-6394
▁ثمرة	-6395
▁حبيب	-6396
▁دفعت	-6397
▁دمها	-6398
▁راعي	-6399
▁راية	-6400
▁ساقط	-6401
▁سواء	-6402
▁صحيح	-6403
▁صنعه	-6404
▁صوتك	-6405
▁ضمير	-6406
▁طويل	-6407
▁عادة	-6408
▁عزرا	-6409
▁عزيا	-6410
▁فاعل	-6411
▁فالى	-6412
▁فداء	-6413
▁فرصة	-6414
▁فقطع	-6415
▁فليت	-6416
▁قاتل	-6417
▁قاعد	-6418
▁قدسي	-6419
▁قطعة	-6420
▁قطعه	-6421
▁قولا	-6422
▁قيصر	-6423
▁كالن	-6424
▁كورش	-6425
▁لبنة	-6426
▁مجدك	-6427
▁مرسل	-6428
▁مستد	-6429
▁ميتة	-6430
▁نجني	-6431
▁نسمة	-6432
▁نعطي	-6433
▁هذان	-6434
▁وإلا	-6435
▁وتمت	-6436
▁وزنه	-6437
▁وسلم	-6438
▁وسيف	-6439
▁وصاح	-6440
▁وقبل	-6441
▁ومنا	-6442
▁يؤتى	-6443
▁يؤخذ	-6444
▁يخاف	-6445
▁يرتد	-6446
▁يروا	-6447
▁يضيء	-6448
▁يعيش	-6449
▁يكثر	-6450
▁يكمل	-6451
▁يمنع	-6452
▁يونا	-6453
▁آبائي	-6454
▁أعطيت	-6455
▁اجنحة	-6456
▁افتخر	-6457
▁اكلوا	-6458
▁الثوب	-6459
▁الحسن	-6460
▁الحية	-6461
▁الخرب	-6462
▁السطح	-6463
▁العصا	-6464
▁الغلف	-6465
▁الغمر	-6466
▁القائ	-6467
▁القها	-6468
▁المحب	-6469
▁الموآ	-6470
▁الهين	-6471
▁اموال	-6472
▁انقطع	-6473
▁بايدي	-6474
▁بهائم	-6475
▁تعطون	-6476
▁تمتلك	-6477
▁توكلت	-6478
▁جميلة	-6479
▁حننيا	-6480
▁زوجها	-6481
▁ساكنا	-6482
▁سبحوا	-6483
▁سيكون	-6484
▁صنعها	-6485
▁طرقهم	-6486
▁فاحفظ	-6487
▁فتصير	-6488
▁فدخلت	-6489
▁قلبها	-6490
▁ليعطي	-6491
▁ليقتل	-6492
▁مختوم	-6493
▁معروف	-6494
▁مغارة	-6495
▁ملاكا	-6496
▁وابيد	-6497
▁والاخ	-6498
▁والحث	-6499
▁وامتل	-6500
▁وتضرع	-6501
▁وذراع	-6502
▁وسأله	-6503
▁وضعوا	-6504
▁وعدلا	-6505
▁وعملت	-6506
▁ووضعه	-6507
▁ويقتل	-6508
▁ويقيم	-6509
▁يأتوا	-6510
▁يابسة	-6511
▁يجتاز	-6512
▁ينقطع	-6513
▁آباؤنا	-6514
▁اثنتين	-6515
▁اخبروا	-6516
▁ارفعوا	-6517
▁الامير	-6518
▁البيدر	-6519
▁الجيدة	-6520
▁الجيوش	-6521
▁الرائي	-6522
▁الراعي	-6523
▁الرواق	-6524
▁الشعير	-6525
▁الطيور	-6526
▁العظام	-6527
▁الكتان	-6528
▁المدخل	-6529
▁الموعد	-6530
▁اليسار	-6531
▁بيوتهم	-6532
▁تؤمنون	-6533
▁ترديدا	-6534
▁تسبيحة	-6535
▁تكلموا	-6536
▁فخرجوا	-6537
▁للجميع	-6538
▁للمرأة	-6539
▁والابد	-6540
▁والروح	-6541
▁وبناتك	-6542
▁وساروا	-6543
▁وسبعين	-6544
▁وعمورة	-6545
▁وكلمهم	-6546
▁يأخذون	-6547
▁يباركك	-6548
▁يحفظوا	-6549
▁يقولوا	-6550
▁يموتون	-6551
▁الاقوال	-6552
▁الاماكن	-6553
▁الاوثان	-6554
▁الحادية	-6555
▁الخامسة	-6556
▁الرجلين	-6557
▁الشريرة	-6558
▁العظماء	-6559
▁انطاكية	-6560
▁ويشربون	-6561
▁ويكونون	-6562
▁الداخلين	-6563
▁والاموريين	-6564
▁واليبوسيين	-6565
ئس	-6566
ئن	-6567
بى	-6568
جج	-6569
عص	-6570
فث	-6571
أون	-6572
ؤها	-6573
ارا	-6574
اية	-6575
بأت	-6576
جلد	-6577
حسن	-6578
خيا	-6579
خير	-6580
درخ	-6581
دعى	-6582
ذاب	-6583
رني	-6584
سمه	-6585
شرة	-6586
صني	-6587
صون	-6588
ضيا	-6589
طوب	-6590
ظري	-6591
فار	-6592
فها	-6593
قاة	-6594
قلغ	-6595
كاء	-6596
لاد	-6597
نعم	-6598
هدي	-6599
واج	-6600
واد	-6601
وحة	-6602
وحي	-6603
وسن	-6604
وفة	-6605
يبس	-6606
▁شغ	-6607
▁كط	-6608
▁مأ	-6609
▁مذ	-6610
اتها	-6611
اريح	-6612
اعوا	-6613
الية	-6614
ترنم	-6615
تيين	-6616
جنبي	-6617
داسة	-6618
ديكم	-6619
ذراع	-6620
رحمة	-6621
ساعد	-6622
ضباب	-6623
ضعوا	-6624
طفوا	-6625
ظرون	-6626
ظرين	-6627
عبون	-6628
فقير	-6629
كرات	-6630
كلما	-6631
مسوح	-6632
ملين	-6633
نئيل	-6634
نايم	-6635
هوات	-6636
وبيخ	-6637
ياته	-6638
يادة	-6639
يامة	-6640
يليا	-6641
يموت	-6642
▁اخل	-6643
▁اشر	-6644
▁افر	-6645
▁بسب	-6646
▁بوص	-6647
▁تحر	-6648
▁ترب	-6649
▁تسب	-6650
▁جوج	-6651
▁حاد	-6652
▁خزف	-6653
▁داخ	-6654
▁دفن	-6655
▁رفق	-6656
▁سائ	-6657
▁سكت	-6658
▁سها	-6659
▁سيل	-6660
▁شكر	-6661
▁صدر	-6662
▁طائ	-6663
▁عوج	-6664
▁غفر	-6665
▁غني	-6666
▁فخل	-6667
▁فقب	-6668
▁فها	-6669
▁قصر	-6670
▁قضى	-6671
▁كاج	-6672
▁لتت	-6673
▁لحا	-6674
▁لوم	-6675
▁مرف	-6676
▁مضت	-6677
▁ممن	-6678
▁نحم	-6679
▁نسي	-6680
▁نغو	-6681
▁هتا	-6682
▁وتج	-6683
▁وحق	-6684
▁ودي	-6685
▁ومص	-6686
▁ويط	-6687
الواح	-6688
بروته	-6689
خائيل	-6690
رادان	-6691
مالقة	-6692
▁اشهد	-6693
▁افرا	-6694
▁اكله	-6695
▁بامر	-6696
▁بانه	-6697
▁بعدك	-6698
▁بغضب	-6699
▁بقرب	-6700
▁بناء	-6701
▁بنوك	-6702
▁بهاء	-6703
▁تدعى	-6704
▁تشته	-6705
▁تطلق	-6706
▁تعبه	-6707
▁تيوس	-6708
▁ثالث	-6709
▁حبال	-6710
▁حروب	-6711
▁حلما	-6712
▁حنان	-6713
▁خوفا	-6714
▁سلكت	-6715
▁شدرخ	-6716
▁شرقي	-6717
▁صاعد	-6718
▁صوغر	-6719
▁صيدا	-6720
▁ضربت	-6721
▁طولا	-6722
▁عقاب	-6723
▁علما	-6724
▁عناق	-6725
▁عهده	-6726
▁غروب	-6727
▁غنمك	-6728
▁فاقت	-6729
▁فحسب	-6730
▁فذلك	-6731
▁فغور	-6732
▁فلين	-6733
▁قامت	-6734
▁قبال	-6735
▁كذبا	-6736
▁كرجل	-6737
▁كهذه	-6738
▁لآخر	-6739
▁لهذه	-6740
▁لولا	-6741
▁ماتت	-6742
▁مخاص	-6743
▁مطرا	-6744
▁معزى	-6745
▁مهلك	-6746
▁نسله	-6747
▁نسمع	-6748
▁نصعد	-6749
▁وألق	-6750
▁واخي	-6751
▁واشت	-6752
▁وثيا	-6753
▁وكبر	-6754
▁ومرك	-6755
▁ونفس	-6756
▁يدفن	-6757
▁يدوس	-6758
▁يرفض	-6759
▁يعثر	-6760
▁يغطي	-6761
▁يفنى	-6762
▁يقدس	-6763
▁يكرم	-6764
▁يليق	-6765
▁يومه	-6766
تهزئون	-6767
فيبوشث	-6768
▁آمنين	-6769
▁ارضها	-6770
▁اصوات	-6771
▁اضعاف	-6772
▁اعماق	-6773
▁اقسمت	-6774
▁الالف	-6775
▁الشوا	-6776
▁الطول	-6777
▁الطين	-6778
▁العشر	-6779
▁الفجر	-6780
▁اللبن	-6781
▁المحا	-6782
▁المعا	-6783
▁الواح	-6784
▁الوجه	-6785
▁اموات	-6786
▁اناسا	-6787
▁باطلة	-6788
▁بالدم	-6789
▁بالشر	-6790
▁بيضاء	-6791
▁تاكله	-6792
▁تخافي	-6793
▁تخمهم	-6794
▁ترتعب	-6795
▁تماما	-6796
▁ثيابك	-6797
▁جعلتك	-6798
▁حاصور	-6799
▁حوالي	-6800
▁حياتك	-6801
▁خضراء	-6802
▁درجات	-6803
▁راسها	-6804
▁سبوتي	-6805
▁سحابة	-6806
▁صخرتي	-6807
▁صغيرا	-6808
▁طالبي	-6809
▁طاهرا	-6810
▁طردهم	-6811
▁طلبوا	-6812
▁عجائب	-6813
▁عربات	-6814
▁عقرون	-6815
▁فاجعل	-6816
▁فانتم	-6817
▁فرقته	-6818
▁فنظرت	-6819
▁كلمته	-6820
▁لتعمل	-6821
▁للبعل	-6822
▁ماكير	-6823
▁مجانا	-6824
▁مخادع	-6825
▁مرارا	-6826
▁مكرهة	-6827
▁مكروه	-6828
▁مواشي	-6829
▁نتكلم	-6830
▁واغفر	-6831
▁والحم	-6832
▁واوقد	-6833
▁وبنوك	-6834
▁وتأكل	-6835
▁وتحفظ	-6836
▁وتنبأ	-6837
▁وتيسا	-6838
▁وجعلت	-6839
▁وجهها	-6840
▁وحدها	-6841
▁ودخلت	-6842
▁ورائه	-6843
▁وضربه	-6844
▁وطريق	-6845
▁ومذبح	-6846
▁ومعهم	-6847
▁ويسمع	-6848
▁ويطرح	-6849
▁يتبرر	-6850
▁يرتفع	-6851
▁يرثون	-6852
▁ينادي	-6853
▁آباءكم	-6854
▁اجابهم	-6855
▁احمدوا	-6856
▁اعيننا	-6857
▁افرحوا	-6858
▁الأمور	-6859
▁الاعمى	-6860
▁الثياب	-6861
▁الجبار	-6862
▁الخفاء	-6863
▁العشاء	-6864
▁الغيرة	-6865
▁الموتى	-6866
▁انتظرت	-6867
▁اوصيكم	-6868
▁بالخير	-6869
▁بالفضة	-6870
▁تأكلوا	-6871
▁تطلبون	-6872
▁تفعلوا	-6873
▁تقدموا	-6874
▁خطاياك	-6875
▁داريوس	-6876
▁شياطين	-6877
▁عورتها	-6878
▁فابتدأ	-6879
▁فانصرف	-6880
▁فينحاس	-6881
▁لآبائك	-6882
▁لتقدمة	-6883
▁لحزقيا	-6884
▁للحياة	-6885
▁ممدودة	-6886
▁والبعض	-6887
▁والخمر	-6888
▁وجعلها	-6889
▁وعبدوا	-6890
▁ومئتان	-6891
▁ومعرفة	-6892
▁وهربوا	-6893
▁يرجعون	-6894
▁يريدون	-6895
▁اجنحتها	-6896
▁اصنامهم	-6897
▁اعدائكم	-6898
▁الابناء	-6899
▁الارملة	-6900
▁الاشجار	-6901
▁الاودية	-6902
▁التعليم	-6903
▁الجارية	-6904
▁الخصيان	-6905
▁الرديئة	-6906
▁السلطان	-6907
▁العينين	-6908
▁الغنيمة	-6909
▁الفقراء	-6910
▁المصاعد	-6911
▁لآبائهم	-6912
▁والغريب	-6913
▁والمرأة	-6914
▁الخارجين	-6915
▁الصديقين	-6916
▁المحرقات	-6917
▁المعمدان	-6918
▁بالحقيقة	-6919
▁والارملة	-6920
▁والثلاثين	-6921
▁المستقيمين	-6922
▁بالاستقامة	-6923
ئد	-6924
بئ	-6925
بث	-6926
ذذ	-6927
فف	-6928
لد	-6929
نج	-6930
ؤخذ	-6931
ائس	-6932
انت	-6933
ثني	-6934
حاد	-6935
حمق	-6936
راز	-6937
ربه	-6938
رلة	-6939
زاء	-6940
زيك	-6941
شهد	-6942
ضرة	-6943
طبخ	-6944
عاه	-6945
عيا	-6946
فلت	-6947
فنى	-6948
فيا	-6949
فيف	-6950
كني	-6951
ماي	-6952
هلل	-6953
وجب	-6954
وسة	-6955
ياع	-6956
▁تث	-6957
▁حث	-6958
▁خش	-6959
▁رغ	-6960
▁سؤ	-6961
▁عك	-6962
▁كز	-6963
ائية	-6964
ابيح	-6965
اروث	-6966
ارون	-6967
الين	-6968
امير	-6969
بتهم	-6970
تهلك	-6971
جانب	-6972
جعوا	-6973
ديون	-6974
ذهاب	-6975
رتفع	-6976
رعوا	-6977
رفات	-6978
سروا	-6979
سلوا	-6980
صروا	-6981
صوين	-6982
ضعين	-6983
طعام	-6984
طفون	-6985
طياب	-6986
فادع	-6987
فاهم	-6988
فتقد	-6989
فلوج	-6990
فيرا	-6991
قدار	-6992
كرين	-6993
كلهم	-6994
كملت	-6995
لاسل	-6996
لميا	-6997
مسكت	-6998
نيين	-6999
ورات	-7000
ورون	-7001
يدكم	-7002
يمعص	-7003
▁أتت	-7004
▁اسد	-7005
▁برد	-7006
▁بسر	-7007
▁بوق	-7008
▁تاج	-7009
▁تتأ	-7010
▁تدن	-7011
▁تسم	-7012
▁تشق	-7013
▁تعا	-7014
▁تمل	-7015
▁ثمن	-7016
▁حصن	-7017
▁خجل	-7018
▁خرا	-7019
▁خرب	-7020
▁سرت	-7021
▁غلب	-7022
▁فجل	-7023
▁فيع	-7024
▁كأن	-7025
▁كنز	-7026
▁لاع	-7027
▁للد	-7028
▁مسل	-7029
▁هاب	-7030
▁وبت	-7031
▁وبس	-7032
▁وبغ	-7033
▁وحو	-7034
▁وشم	-7035
▁وكا	-7036
▁وكس	-7037
▁ومخ	-7038
▁يتر	-7039
▁يظن	-7040
ذبحوا	-7041
رائحة	-7042
رافيم	-7043
رامين	-7044
رتفعا	-7045
ناحوم	-7046
نازير	-7047
وابون	-7048
وليمة	-7049
▁ألست	-7050
▁ابدا	-7051
▁اتبع	-7052
▁اتوا	-7053
▁اثبت	-7054
▁اجلي	-7055
▁ادرك	-7056
▁ارتد	-7057
▁ارنم	-7058
▁اسوا	-7059
▁الاد	-7060
▁الاف	-7061
▁الخل	-7062
▁الفم	-7063
▁الوق	-7064
▁بالد	-7065
▁بالش	-7066
▁تارح	-7067
▁تجري	-7068
▁تحته	-7069
▁تخاف	-7070
▁تدفع	-7071
▁تسلط	-7072
▁تعبر	-7073
▁تكثر	-7074
▁تكشف	-7075
▁تمام	-7076
▁تملك	-7077
▁تمنع	-7078
▁تنال	-7079
▁تنزع	-7080
▁جعله	-7081
▁خالص	-7082
▁خراب	-7083
▁ذاته	-7084
▁راكب	-7085
▁سأله	-7086
▁ستون	-7087
▁سخطي	-7088
▁سراج	-7089
▁شفاه	-7090
▁صرنا	-7091
▁صفوف	-7092
▁عدوك	-7093
▁عظمة	-7094
▁عنقك	-7095
▁فبنى	-7096
▁فجلس	-7097
▁فعرف	-7098
▁قادر	-7099
▁قراب	-7100
▁قلبا	-7101
▁قلنا	-7102
▁قمحا	-7103
▁قولي	-7104
▁كالم	-7105
▁كصوت	-7106
▁كمال	-7107
▁للبر	-7108
▁لهيب	-7109
▁ليفت	-7110
▁مئتي	-7111
▁مشور	-7112
▁ملكك	-7113
▁نبوز	-7114
▁وأخذ	-7115
▁واقم	-7116
▁والأ	-7117
▁وامك	-7118
▁واوق	-7119
▁وايا	-7120
▁وبات	-7121
▁وبوص	-7122
▁وثور	-7123
▁وفتح	-7124
▁وقته	-7125
▁وللم	-7126
▁ووصل	-7127
▁يافا	-7128
▁يحرق	-7129
▁يصلح	-7130
▁يطرح	-7131
▁يظلم	-7132
▁يمضي	-7133
▁ينجو	-7134
▁ينفع	-7135
▁يهوه	-7136
▁آخرون	-7137
▁آنيته	-7138
▁ابكار	-7139
▁ابيكم	-7140
▁اثمار	-7141
▁اجابه	-7142
▁احترز	-7143
▁احتمل	-7144
▁اسمعي	-7145
▁اقتحم	-7146
▁اقسام	-7147
▁اكليل	-7148
▁الحزن	-7149
▁الحلق	-7150
▁الخشب	-7151
▁الرحم	-7152
▁الرمح	-7153
▁الزنى	-7154
▁السوء	-7155
▁السيل	-7156
▁الشجر	-7157
▁الصيف	-7158
▁المنت	-7159
▁اماكن	-7160
▁بنفسه	-7161
▁تأديب	-7162
▁تفتخر	-7163
▁ثانيا	-7164
▁جرشون	-7165
▁حرمون	-7166
▁حقويه	-7167
▁خطيتي	-7168
▁دائمة	-7169
▁ساراي	-7170
▁سمعته	-7171
▁شريرة	-7172
▁شفتيه	-7173
▁صوتهم	-7174
▁طريقا	-7175
▁عثليا	-7176
▁عطايا	-7177
▁عظامه	-7178
▁عماسا	-7179
▁غريبا	-7180
▁غلتها	-7181
▁فافعل	-7182
▁فيخرج	-7183
▁قاريح	-7184
▁قبلما	-7185
▁قريبا	-7186
▁قصيدة	-7187
▁كبيرا	-7188
▁كتابة	-7189
▁كلمهم	-7190
▁لاجله	-7191
▁لاسمي	-7192
▁لانني	-7193
▁لقيصر	-7194
▁لكلام	-7195
▁للسكن	-7196
▁للكبش	-7197
▁ماتوا	-7198
▁متسلط	-7199
▁متمرد	-7200
▁مدنها	-7201
▁مرارة	-7202
▁مسالك	-7203
▁منهما	-7204
▁وآنية	-7205
▁وأتيا	-7206
▁وأعطي	-7207
▁وابني	-7208
▁واعلم	-7209
▁والسم	-7210
▁واوصى	-7211
▁وتدخل	-7212
▁وجدوا	-7213
▁وسائر	-7214
▁وسجدت	-7215
▁وشمعي	-7216
▁وقدام	-7217
▁ومنظر	-7218
▁ويصنع	-7219
▁ويفرح	-7220
▁وينزع	-7221
▁يربعل	-7222
▁يقاوم	-7223
▁يقترب	-7224
▁يقفون	-7225
▁يميني	-7226
▁يهوآش	-7227
وبينيين	-7228
▁احشائي	-7229
▁اعطانا	-7230
▁اعطاها	-7231
▁اعطيها	-7232
▁اقاموا	-7233
▁الالوف	-7234
▁التيمن	-7235
▁التينة	-7236
▁الجراد	-7237
▁الحاضر	-7238
▁الرديء	-7239
▁الرسول	-7240
▁السرير	-7241
▁الصغار	-7242
▁الصورة	-7243
▁العسكر	-7244
▁العشرة	-7245
▁العليا	-7246
▁القاضي	-7247
▁الكرمة	-7248
▁اللسان	-7249
▁المئات	-7250
▁المذنب	-7251
▁المرضى	-7252
▁امرأتي	-7253
▁بايمان	-7254
▁بحجارة	-7255
▁تدخلوا	-7256
▁خدمتهم	-7257
▁خيامهم	-7258
▁عروعير	-7259
▁كليهما	-7260
▁مضطجعا	-7261
▁ملتوتا	-7262
▁وابواب	-7263
▁واجعلك	-7264
▁والقوا	-7265
▁والكنع	-7266
▁ودفنوه	-7267
▁وصعدوا	-7268
▁وضربهم	-7269
▁وكرامة	-7270
▁وكونوا	-7271
▁اعطيتها	-7272
▁اعمالكم	-7273
▁الابرار	-7274
▁الاحشاء	-7275
▁الارواح	-7276
▁الاعمدة	-7277
▁البكرات	-7278
▁التلميذ	-7279
▁الرجلان	-7280
▁الساكنة	-7281
▁الشفتين	-7282
▁الشوارع	-7283
▁العذراء	-7284
▁الكسلان	-7285
▁الميعاد	-7286
▁اليهودي	-7287
▁بالسلام	-7288
▁كلتاهما	-7289
▁لانفسنا	-7290
▁ملائكته	-7291
▁واليتيم	-7292
▁يرتحلون	-7293
▁يوحانان	-7294
▁الثلاثين	-7295
▁الكروبين	-7296
▁الهابطين	-7297
▁تيموثاوس	-7298
▁كفرناحوم	-7299
▁والاربعة	-7300
▁والمدينة	-7301
▁القهاتيين	-7302
▁نبوزرادان	-7303
▁العبرانيين	-7304
تق	-7305
خس	-7306
لظ	-7307
هض	-7308
ئاب	-7309
ائع	-7310
الت	-7311
حني	-7312
خري	-7313
خين	-7314
راح	-7315
راط	-7316
ريز	-7317
ستا	-7318
سيه	-7319
ضره	-7320
ضيق	-7321
قطر	-7322
قهم	-7323
كمن	-7324
لقا	-7325
ماة	-7326
موص	-7327
ناز	-7328
نيك	-7329
ههم	-7330
ودك	-7331
وعم	-7332
وقة	-7333
يان	-7334
▁رز	-7335
▁زك	-7336
▁شط	-7337
▁شك	-7338
اتكم	-7339
اركك	-7340
بتكم	-7341
بكرا	-7342
تمجد	-7343
خروا	-7344
ذبوا	-7345
ذروا	-7346
رارة	-7347
رجها	-7348
رشوم	-7349
رفان	-7350
رفوا	-7351
ستهم	-7352
سنان	-7353
شايخ	-7354
ضطرب	-7355
عامل	-7356
عبده	-7357
فيهم	-7358
لايا	-7359
لهما	-7360
ماقة	-7361
مرها	-7362
معين	-7363
هيرة	-7364
وائد	-7365
وائل	-7366
واكب	-7367
وتاد	-7368
ومها	-7369
يقون	-7370
يلوا	-7371
▁أفل	-7372
▁أفي	-7373
▁اتت	-7374
▁احل	-7375
▁اسر	-7376
▁اطع	-7377
▁باح	-7378
▁باد	-7379
▁بسي	-7380
▁تبل	-7381
▁تحا	-7382
▁ترس	-7383
▁تغي	-7384
▁جاع	-7385
▁جبع	-7386
▁حصر	-7387
▁حصل	-7388
▁خدع	-7389
▁خصي	-7390
▁دنس	-7391
▁رؤى	-7392
▁ربط	-7393
▁رسل	-7394
▁زاد	-7395
▁سكب	-7396
▁عرش	-7397
▁غرب	-7398
▁غرس	-7399
▁فاص	-7400
▁فتك	-7401
▁فرس	-7402
▁فير	-7403
▁قرن	-7404
▁قمت	-7405
▁قير	-7406
▁لاف	-7407
▁لال	-7408
▁لتخ	-7409
▁لرب	-7410
▁ليه	-7411
▁ماش	-7412
▁مهي	-7413
▁مول	-7414
▁نائ	-7415
▁نحا	-7416
▁نست	-7417
▁وبح	-7418
▁وتأ	-7419
▁وظل	-7420
▁وقص	-7421
▁ونح	-7422
▁يائ	-7423
▁يتك	-7424
▁يدب	-7425
بابات	-7426
حاريب	-7427
دراوس	-7428
▁آموص	-7429
▁أظهر	-7430
▁أمرت	-7431
▁اثمك	-7432
▁اجيء	-7433
▁اخاك	-7434
▁اخذه	-7435
▁ادعو	-7436
▁اردن	-7437
▁اسلك	-7438
▁اشكر	-7439
▁اطرح	-7440
▁اقمت	-7441
▁اقوم	-7442
▁اقوى	-7443
▁التج	-7444
▁الجم	-7445
▁الطا	-7446
▁الكو	-7447
▁النس	-7448
▁امرت	-7449
▁امكث	-7450
▁باحد	-7451
▁ببعل	-7452
▁بشدة	-7453
▁بمئة	-7454
▁بواس	-7455
▁تؤكل	-7456
▁تبقى	-7457
▁تحكم	-7458
▁تحيا	-7459
▁ترصة	-7460
▁تروا	-7461
▁تزول	-7462
▁تقيم	-7463
▁تمتد	-7464
▁توال	-7465
▁جئتم	-7466
▁جاهل	-7467
▁حبلت	-7468
▁خزائ	-7469
▁خمير	-7470
▁دعوى	-7471
▁ريحا	-7472
▁زارح	-7473
▁سيما	-7474
▁شباب	-7475
▁شديد	-7476
▁صرتم	-7477
▁صعود	-7478
▁عارف	-7479
▁عجلة	-7480
▁عصاه	-7481
▁غطاء	-7482
▁فأمر	-7483
▁فاتى	-7484
▁فالج	-7485
▁فاها	-7486
▁فاين	-7487
▁فبكر	-7488
▁فدعي	-7489
▁فدية	-7490
▁فطلب	-7491
▁فطير	-7492
▁فعبر	-7493
▁فلير	-7494
▁قاله	-7495
▁كنفس	-7496
▁لاغا	-7497
▁لديه	-7498
▁لكما	-7499
▁للمس	-7500
▁ليحي	-7501
▁ليدك	-7502
▁مدنه	-7503
▁ميتا	-7504
▁نادى	-7505
▁نذرا	-7506
▁نعمل	-7507
▁نوحا	-7508
▁هاجر	-7509
▁هوشع	-7510
▁واعد	-7511
▁واين	-7512
▁وباب	-7513
▁وبسط	-7514
▁وبعض	-7515
▁وجند	-7516
▁وحول	-7517
▁وشبع	-7518
▁وغنم	-7519
▁وغير	-7520
▁ولحم	-7521
▁وليت	-7522
▁وماء	-7523
▁ومقب	-7524
▁ونزع	-7525
▁وهدم	-7526
▁ويرت	-7527
▁ويعط	-7528
▁يجيء	-7529
▁يصيح	-7530
▁يفحص	-7531
▁يقرب	-7532
▁ينجس	-7533
▁ينقض	-7534
ارجوان	-7535
▁أسلام	-7536
▁ابونا	-7537
▁اتراس	-7538
▁اثنتا	-7539
▁اذهبا	-7540
▁ارتحل	-7541
▁استجب	-7542
▁اشرار	-7543
▁اصعاد	-7544
▁الاست	-7545
▁البرص	-7546
▁الحمل	-7547
▁السخط	-7548
▁السفن	-7549
▁العجل	-7550
▁العرس	-7551
▁المقت	-7552
▁امتلأ	-7553
▁امتنع	-7554
▁انهما	-7555
▁بعينه	-7556
▁ترتيب	-7557
▁تعطوا	-7558
▁جرشوم	-7559
▁حانان	-7560
▁حورون	-7561
▁حولهم	-7562
▁رؤساؤ	-7563
▁رجليك	-7564
▁رسولا	-7565
▁رفعوا	-7566
▁رمليا	-7567
▁رومية	-7568
▁ساكنة	-7569
▁سبحوه	-7570
▁سكنوا	-7571
▁شعوبا	-7572
▁صوتها	-7573
▁ظلاما	-7574
▁عوارض	-7575
▁عيناه	-7576
▁فتنزع	-7577
▁فجاءت	-7578
▁فرأيت	-7579
▁فقامت	-7580
▁فنادى	-7581
▁فنزلت	-7582
▁فيعطي	-7583
▁فيوما	-7584
▁كايام	-7585
▁لآساف	-7586
▁لاخآب	-7587
▁لاسمك	-7588
▁لساني	-7589
▁لشعبه	-7590
▁لملكه	-7591
▁ليصعد	-7592
▁مبكرا	-7593
▁متكلم	-7594
▁مشلام	-7595
▁معثرة	-7596
▁ملوكا	-7597
▁ناحور	-7598
▁نعمان	-7599
▁واتخذ	-7600
▁واجاب	-7601
▁والاش	-7602
▁والسب	-7603
▁وامتد	-7604
▁واوقف	-7605
▁وتأخذ	-7606
▁وتذهب	-7607
▁وتعطي	-7608
▁وجدنا	-7609
▁وخذوا	-7610
▁ورؤوس	-7611
▁ورفعت	-7612
▁وشاول	-7613
▁وشعبه	-7614
▁وقفوا	-7615
▁وقلتم	-7616
▁وكثرة	-7617
▁وكثير	-7618
▁وكروم	-7619
▁وميشخ	-7620
▁ويحرق	-7621
▁ويدفع	-7622
▁يتألم	-7623
▁يحاكم	-7624
▁يحبون	-7625
▁يعرفه	-7626
يدونيين	-7627
▁اجناسه	-7628
▁احدهما	-7629
▁احكاما	-7630
▁ارجلهم	-7631
▁اعداءك	-7632
▁اكليلا	-7633
▁التلال	-7634
▁التنين	-7635
▁الحسنة	-7636
▁الحفرة	-7637
▁الخراب	-7638
▁الرشوة	-7639
▁الرماد	-7640
▁الشفاء	-7641
▁العجلة	-7642
▁القبور	-7643
▁الكروم	-7644
▁المظال	-7645
▁المهلك	-7646
▁الهتاف	-7647
▁اليتيم	-7648
▁اليزرع	-7649
▁امرأتك	-7650
▁ايدينا	-7651
▁تاكلون	-7652
▁تتزعزع	-7653
▁تذكارا	-7654
▁تسلكوا	-7655
▁تماثيل	-7656
▁جاريتك	-7657
▁خطواتي	-7658
▁ربشاقى	-7659
▁عيونكم	-7660
▁فاجابه	-7661
▁فاخذوا	-7662
▁فارسلت	-7663
▁فاعطاه	-7664
▁فرائضه	-7665
▁فصرخوا	-7666
▁كالماء	-7667
▁لالهنا	-7668
▁لصاحبه	-7669
▁لعبيدك	-7670
▁للعالم	-7671
▁للغلام	-7672
▁مباركا	-7673
▁مخارجه	-7674
▁مرتفعا	-7675
▁مكانها	-7676
▁والوبإ	-7677
▁وجعلوا	-7678
▁وسقطوا	-7679
▁وصنعوا	-7680
▁وعوارض	-7681
▁ومعسيا	-7682
▁وناثان	-7683
▁يسجدون	-7684
▁يفهمون	-7685
▁يموتوا	-7686
▁ابياثار	-7687
▁اسماؤهم	-7688
▁الاسباط	-7689
▁الاسواق	-7690
▁الاصنام	-7691
▁الاطفال	-7692
▁التأديب	-7693
▁التمثال	-7694
▁الثيران	-7695
▁الذبيحة	-7696
▁الطاهرة	-7697
▁العصفور	-7698
▁العلامة	-7699
▁المجامع	-7700
▁المحيطة	-7701
▁المعطاة	-7702
▁المغارة	-7703
▁الولاية	-7704
▁بالحكمة	-7705
▁بالكلمة	-7706
▁خطايانا	-7707
▁سنحاريب	-7708
▁فاجابوا	-7709
▁ليعملوا	-7710
▁واجعلهم	-7711
▁وافرايم	-7712
▁والخراف	-7713
▁والمذبح	-7714
▁والولاة	-7715
▁وبناتهم	-7716
▁مواليدهم	-7717
▁والانسان	-7718
▁والتقدمة	-7719
▁والحيوان	-7720
▁والعشرون	-7721
▁ليهوشافاط	-7722
طش	-7723
غى	-7724
قق	-7725
لح	-7726
نف	-7727
ئيم	-7728
اها	-7729
تاق	-7730
تبر	-7731
جده	-7732
جية	-7733
خاص	-7734
دبه	-7735
راض	-7736
رعت	-7737
سعة	-7738
شاب	-7739
شاد	-7740
صلب	-7741
صها	-7742
ضبط	-7743
ضلة	-7744
طلة	-7745
غون	-7746
فكر	-7747
فوف	-7748
قاط	-7749
قلع	-7750
قيه	-7751
لاق	-7752
لية	-7753
مده	-7754
مسة	-7755
نيع	-7756
وبى	-7757
وده	-7758
وره	-7759
وسج	-7760
وشة	-7761
▁أح	-7762
▁خت	-7763
▁دف	-7764
▁دل	-7765
▁ذه	-7766
▁ضر	-7767
▁لإ	-7768
▁يض	-7769
الها	-7770
بيعة	-7771
تفوا	-7772
تمرد	-7773
جنوب	-7774
خروج	-7775
داءة	-7776
ذاره	-7777
راسي	-7778
رايا	-7779
رباب	-7780
رسوا	-7781
زلاي	-7782
زلون	-7783
سبوا	-7784
صدون	-7785
عادي	-7786
فتهم	-7787
قبله	-7788
كتين	-7789
كونه	-7790
متين	-7791
مسين	-7792
موها	-7793
موهم	-7794
هودا	-7795
وانب	-7796
ولين	-7797
يدار	-7798
يعال	-7799
يكال	-7800
▁آوى	-7801
▁اشك	-7802
▁اصد	-7803
▁اطا	-7804
▁اقل	-7805
▁امد	-7806
▁باج	-7807
▁باخ	-7808
▁بحق	-7809
▁بلب	-7810
▁تبق	-7811
▁تجا	-7812
▁تخت	-7813
▁تسل	-7814
▁تصد	-7815
▁تفر	-7816
▁تقا	-7817
▁تمد	-7818
▁جدي	-7819
▁جرب	-7820
▁جرح	-7821
▁جمر	-7822
▁حبس	-7823
▁دهر	-7824
▁ذاه	-7825
▁ريا	-7826
▁زور	-7827
▁زين	-7828
▁سوء	-7829
▁سير	-7830
▁شاخ	-7831
▁شبا	-7832
▁صبر	-7833
▁طهر	-7834
▁عاق	-7835
▁عنق	-7836
▁عود	-7837
▁غلا	-7838
▁فرض	-7839
▁فسا	-7840
▁فسي	-7841
▁ففت	-7842
▁فكا	-7843
▁فلك	-7844
▁فمر	-7845
▁فيق	-7846
▁كثر	-7847
▁كره	-7848
▁كشف	-7849
▁لام	-7850
▁لحي	-7851
▁لنب	-7852
▁لنت	-7853
▁ليق	-7854
▁مار	-7855
▁مجن	-7856
▁مخط	-7857
▁مشت	-7858
▁نصب	-7859
▁هور	-7860
▁ودم	-7861
▁ورع	-7862
▁وسي	-7863
▁وشل	-7864
▁وطر	-7865
▁وقا	-7866
▁ونص	-7867
▁يأت	-7868
▁يسب	-7869
▁يعر	-7870
▁يمل	-7871
ائبهن	-7872
جائبك	-7873
خافون	-7874
ريباس	-7875
سلطان	-7876
شيطان	-7877
صومات	-7878
عبدون	-7879
فقراء	-7880
لمناع	-7881
مسكين	-7882
ناسها	-7883
▁آمنت	-7884
▁أخذت	-7885
▁أمرا	-7886
▁ابرص	-7887
▁اثمي	-7888
▁احمل	-7889
▁اخته	-7890
▁اخيا	-7891
▁اذنه	-7892
▁ارجو	-7893
▁اساس	-7894
▁اشبع	-7895
▁اشرف	-7896
▁اعمق	-7897
▁اقتل	-7898
▁اكلا	-7899
▁الجث	-7900
▁الحم	-7901
▁الظل	-7902
▁الفر	-7903
▁الوك	-7904
▁امان	-7905
▁امته	-7906
▁باله	-7907
▁بذلك	-7908
▁بطنك	-7909
▁بعدي	-7910
▁بكره	-7911
▁بمكر	-7912
▁بنتي	-7913
▁تتعب	-7914
▁تحول	-7915
▁تخدم	-7916
▁تخرب	-7917
▁تدوس	-7918
▁ترسل	-7919
▁تصرخ	-7920
▁تمنة	-7921
▁تيطس	-7922
▁جازر	-7923
▁جديد	-7924
▁جميل	-7925
▁جهنم	-7926
▁حاجة	-7927
▁حبلى	-7928
▁حدثت	-7929
▁حمور	-7930
▁خادم	-7931
▁خدام	-7932
▁خزيا	-7933
▁خطاة	-7934
▁رآها	-7935
▁ربما	-7936
▁زيتا	-7937
▁سبيا	-7938
▁ستين	-7939
▁سررت	-7940
▁سمعا	-7941
▁سمعه	-7942
▁سهوا	-7943
▁شبكة	-7944
▁شدائ	-7945
▁شرير	-7946
▁شفاء	-7947
▁شهرا	-7948
▁صباي	-7949
▁صوبة	-7950
▁ظهرت	-7951
▁عديم	-7952
▁عطية	-7953
▁عقبة	-7954
▁غيرك	-7955
▁غيري	-7956
▁فامت	-7957
▁فرحت	-7958
▁فطرح	-7959
▁فقدم	-7960
▁فكتب	-7961
▁فمال	-7962
▁فيكف	-7963
▁قسما	-7964
▁قياس	-7965
▁كاتب	-7966
▁كالر	-7967
▁كذبة	-7968
▁كرما	-7969
▁كنار	-7970
▁لكني	-7971
▁ليتم	-7972
▁ليوم	-7973
▁مادي	-7974
▁مجلس	-7975
▁محلي	-7976
▁مشرق	-7977
▁معين	-7978
▁مقيم	-7979
▁منوح	-7980
▁ميلا	-7981
▁نأخذ	-7982
▁نجاة	-7983
▁نذور	-7984
▁نقدر	-7985
▁هربت	-7986
▁هنوم	-7987
▁وآخذ	-7988
▁واحب	-7989
▁واهل	-7990
▁وبقي	-7991
▁وبيد	-7992
▁وتيس	-7993
▁وخمر	-7994
▁وركض	-7995
▁وسكب	-7996
▁ولكم	-7997
▁وللب	-7998
▁ولهم	-7999
▁ونصب	-8000
▁ويخت	-8001
▁ويعل	-8002
▁ويقر	-8003
▁يبيت	-8004
▁يحبه	-8005
▁يخرب	-8006
▁يمجد	-8007
شاوروا	-8008
▁ألستم	-8009
▁اتقيا	-8010
▁اختها	-8011
▁ارجعي	-8012
▁اطفال	-8013
▁اعتمد	-8014
▁اعرفه	-8015
▁اعطاك	-8016
▁اعمدة	-8017
▁اقصاء	-8018
▁الاذن	-8019
▁التين	-8020
▁الثلج	-8021
▁الديك	-8022
▁السكن	-8023
▁الفرس	-8024
▁القسم	-8025
▁القمح	-8026
▁القوي	-8027
▁الكبد	-8028
▁المفت	-8029
▁الملق	-8030
▁المول	-8031
▁امانة	-8032
▁انحدر	-8033
▁انقلب	-8034
▁باكثر	-8035
▁بالكم	-8036
▁بحكمة	-8037
▁بخلاص	-8038
▁بعدهم	-8039
▁بقوتك	-8040
▁تذكار	-8041
▁ترتعد	-8042
▁جاسان	-8043
▁حاملي	-8044
▁حسبما	-8045
▁حصرون	-8046
▁خارجة	-8047
▁خروفا	-8048
▁خطوات	-8049
▁زناها	-8050
▁زوايا	-8051
▁شديدا	-8052
▁شركاء	-8053
▁طمثها	-8054
▁عاملي	-8055
▁عمرام	-8056
▁غرباء	-8057
▁فاران	-8058
▁فامتل	-8059
▁فانها	-8060
▁فذهبت	-8061
▁فراشي	-8062
▁فشحور	-8063
▁فيسقط	-8064
▁فيصفح	-8065
▁قائمة	-8066
▁قاعدة	-8067
▁قدرون	-8068
▁كروما	-8069
▁كواحد	-8070
▁لشعبي	-8071
▁لعازر	-8072
▁للأكل	-8073
▁للشهر	-8074
▁ليجعل	-8075
▁ليسأل	-8076
▁ليعبد	-8077
▁ليوآب	-8078
▁مربعة	-8079
▁مريضا	-8080
▁مزمعا	-8081
▁ملكيا	-8082
▁منطلق	-8083
▁ميكال	-8084
▁نادوا	-8085
▁نازلا	-8086
▁نزلوا	-8087
▁هابيل	-8088
▁هدايا	-8089
▁هلموا	-8090
▁وآباؤ	-8091
▁واثنا	-8092
▁وارام	-8093
▁واصاب	-8094
▁والآب	-8095
▁والصد	-8096
▁واماء	-8097
▁وانزع	-8098
▁وتبعه	-8099
▁وتشدد	-8100
▁وجنده	-8101
▁وحدهم	-8102
▁وخروف	-8103
▁وراءك	-8104
▁وطيور	-8105
▁وعبيد	-8106
▁وقالا	-8107
▁وكانا	-8108
▁ونساؤ	-8109
▁ويجمع	-8110
▁ويحفظ	-8111
▁ويرفع	-8112
▁يائير	-8113
▁يبكون	-8114
▁يديها	-8115
▁يعطيه	-8116
▁يوئيل	-8117
ونانيين	-8118
▁اجعلوا	-8119
▁اخيطوب	-8120
▁اربعون	-8121
▁ارجلكم	-8122
▁الاكبر	-8123
▁الباقي	-8124
▁البكاء	-8125
▁التوبة	-8126
▁الحصار	-8127
▁الخصام	-8128
▁الرياح	-8129
▁السهام	-8130
▁الصليب	-8131
▁الغرلة	-8132
▁القريب	-8133
▁الكلاب	-8134
▁اللابس	-8135
▁الولاة	-8136
▁اليهما	-8137
▁انقذني	-8138
▁بالماء	-8139
▁بليعال	-8140
▁تؤمنوا	-8141
▁تعرفوا	-8142
▁تمثالا	-8143
▁خطيتهم	-8144
▁ساكنون	-8145
▁شريعتي	-8146
▁عابرون	-8147
▁عريانا	-8148
▁فهؤلاء	-8149
▁فوجدوا	-8150
▁قديسين	-8151
▁كلمتكم	-8152
▁لانسان	-8153
▁لنفسها	-8154
▁مراحمك	-8155
▁مركبته	-8156
▁مضايقي	-8157
▁مقابله	-8158
▁مواليد	-8159
▁وابيهو	-8160
▁واخذها	-8161
▁وارسلت	-8162
▁واعمال	-8163
▁والمجد	-8164
▁والمدن	-8165
▁والناس	-8166
▁وجمعوا	-8167
▁وسلطان	-8168
▁وعندما	-8169
▁وعوبيد	-8170
▁ومشلام	-8171
▁ومنضحة	-8172
▁يؤمنوا	-8173
▁يؤمنون	-8174
▁يسكنون	-8175
▁يسلكون	-8176
▁يعلموا	-8177
▁استيقظي	-8178
▁اعطيتكم	-8179
▁اعطيتهم	-8180
▁اغريباس	-8181
▁الاثنين	-8182
▁الاحداث	-8183
▁الاوتار	-8184
▁الباقون	-8185
▁البعليم	-8186
▁الحيوان	-8187
▁الخارجة	-8188
▁الخمسين	-8189
▁الرفيعة	-8190
▁الصحراء	-8191
▁العذارى	-8192
▁المتسلط	-8193
▁النجاسة	-8194
▁الوليمة	-8195
▁الياشيب	-8196
▁الياقيم	-8197
▁بايديهم	-8198
▁خطاياكم	-8199
▁فارسلوا	-8200
▁لصموئيل	-8201
▁للقائهم	-8202
▁مستعدين	-8203
▁ميخائيل	-8204
▁واحكامه	-8205
▁واعطاها	-8206
▁والحديد	-8207
▁والمحبة	-8208
▁وكثيرون	-8209
▁ولذبيحة	-8210
▁الرجاسات	-8211
▁المجدلية	-8212
▁الموجودة	-8213
▁تواليدهم	-8214
▁كاجناسها	-8215
▁مملوءتان	-8216
▁وتقدمتها	-8217
▁وتقدمتهن	-8218
▁الاراميون	-8219
▁الاسرائيل	-8220
▁الموجودين	-8221
▁ويهوشافاط	-8222
آل	-8223
ؤس	-8224
بط	-8225
جو	-8226
زت	-8227
شل	-8228
نو	-8229
وغ	-8230
أجر	-8231
ؤخر	-8232
ئها	-8233
ئهم	-8234
ابع	-8235
اته	-8236
ادم	-8237
اما	-8238
انك	-8239
تاء	-8240
تسل	-8241
تصب	-8242
تلف	-8243
جسة	-8244
جعة	-8245
حاش	-8246
حمد	-8247
خلة	-8248
رأف	-8249
راش	-8250
زان	-8251
زنا	-8252
زها	-8253
زيز	-8254
زيع	-8255
سنت	-8256
شير	-8257
ضرم	-8258
ضها	-8259
طفأ	-8260
طوح	-8261
ظمت	-8262
علت	-8263
عمة	-8264
عهم	-8265
فيك	-8266
قاد	-8267
قيت	-8268
كبه	-8269
ماح	-8270
مني	-8271
مود	-8272
ميك	-8273
ميم	-8274
نوع	-8275
نيه	-8276
وذة	-8277
وضة	-8278
وين	-8279
▁خن	-8280
▁عذ	-8281
▁فث	-8282
▁قض	-8283
▁كد	-8284
▁نط	-8285
▁هه	-8286
أتين	-8287
انكم	-8288
باحة	-8289
بادر	-8290
تهاج	-8291
ثروا	-8292
جلوا	-8293
ددهم	-8294
دروا	-8295
رتهم	-8296
رسله	-8297
ستها	-8298
طوفا	-8299
فروا	-8300
قاتل	-8301
قاوة	-8302
قطوا	-8303
قلوا	-8304
وبهم	-8305
وحام	-8306
وراة	-8307
وفهم	-8308
وقين	-8309
يبها	-8310
يشون	-8311
ينها	-8312
▁اجا	-8313
▁ارس	-8314
▁افك	-8315
▁اهو	-8316
▁بست	-8317
▁بشف	-8318
▁بصل	-8319
▁بفم	-8320
▁بقد	-8321
▁بيم	-8322
▁تخس	-8323
▁تضل	-8324
▁تكل	-8325
▁تنا	-8326
▁جمل	-8327
▁جنا	-8328
▁حقو	-8329
▁خان	-8330
▁خدا	-8331
▁دهن	-8332
▁دود	-8333
▁ذوو	-8334
▁ربع	-8335
▁رضى	-8336
▁زبح	-8337
▁شبر	-8338
▁شفي	-8339
▁عدل	-8340
▁غصن	-8341
▁فأت	-8342
▁فتأ	-8343
▁فسد	-8344
▁فكن	-8345
▁فنع	-8346
▁فيز	-8347
▁قصد	-8348
▁كيل	-8349
▁لبل	-8350
▁للط	-8351
▁لمس	-8352
▁ليج	-8353
▁ماض	-8354
▁مجا	-8355
▁ملح	-8356
▁ممز	-8357
▁منق	-8358
▁نرى	-8359
▁ننت	-8360
▁واض	-8361
▁واط	-8362
▁وبخ	-8363
▁ودا	-8364
▁وده	-8365
▁ورح	-8366
▁ورش	-8367
▁وسأ	-8368
▁وسر	-8369
▁وسن	-8370
▁وشف	-8371
▁وصب	-8372
▁وصد	-8373
▁وعو	-8374
▁وفم	-8375
▁وكف	-8376
▁ومب	-8377
▁ونت	-8378
▁ووج	-8379
▁يبس	-8380
▁يجي	-8381
▁يرك	-8382
▁يضم	-8383
▁يعي	-8384
▁يغش	-8385
▁يقب	-8386
▁يلم	-8387
▁يهي	-8388
تمدوا	-8389
تيئيل	-8390
جاسته	-8391
حرقات	-8392
راباس	-8393
شبوشث	-8394
شعياء	-8395
ضائده	-8396
قدمات	-8397
كرامة	-8398
نائيل	-8399
ودعاء	-8400
ياقيم	-8401
ينوعم	-8402
▁آتيا	-8403
▁أأنت	-8404
▁أرسل	-8405
▁اثقل	-8406
▁احبه	-8407
▁اخضع	-8408
▁اسود	-8409
▁اشفق	-8410
▁اكبر	-8411
▁التع	-8412
▁الجر	-8413
▁الخز	-8414
▁الرع	-8415
▁الضا	-8416
▁الفي	-8417
▁النش	-8418
▁اليد	-8419
▁امضي	-8420
▁امها	-8421
▁انثى	-8422
▁ببني	-8423
▁بجان	-8424
▁بسخط	-8425
▁بعمل	-8426
▁بعور	-8427
▁بقيت	-8428
▁بكري	-8429
▁بلهة	-8430
▁بهجة	-8431
▁بيدر	-8432
▁تبكي	-8433
▁تبيد	-8434
▁تريد	-8435
▁تسأل	-8436
▁تشرب	-8437
▁تعظم	-8438
▁تنبت	-8439
▁تنجس	-8440
▁تنسى	-8441
▁توجه	-8442
▁جالب	-8443
▁جزية	-8444
▁جلست	-8445
▁جماع	-8446
▁جموع	-8447
▁جيشا	-8448
▁حافة	-8449
▁حالا	-8450
▁حفرة	-8451
▁حمام	-8452
▁خبرا	-8453
▁دماء	-8454
▁رأوه	-8455
▁ربلة	-8456
▁رجسا	-8457
▁رجله	-8458
▁زينة	-8459
▁ساحة	-8460
▁سيفي	-8461
▁شركا	-8462
▁شرهم	-8463
▁شعير	-8464
▁صباك	-8465
▁صقلغ	-8466
▁ضايق	-8467
▁عطلة	-8468
▁عملك	-8469
▁عنيا	-8470
▁عهدك	-8471
▁غنمه	-8472
▁فأكل	-8473
▁فاكل	-8474
▁فتحت	-8475
▁فتنة	-8476
▁فخاف	-8477
▁فغضب	-8478
▁ففتح	-8479
▁فهذه	-8480
▁فيرد	-8481
▁قدرة	-8482
▁قوتك	-8483
▁كلمت	-8484
▁لامك	-8485
▁لحمي	-8486
▁لديك	-8487
▁مؤمن	-8488
▁مقام	-8489
▁منقذ	-8490
▁نحوه	-8491
▁واقت	-8492
▁وتغش	-8493
▁وجبل	-8494
▁وحفر	-8495
▁وحلف	-8496
▁وخدم	-8497
▁وخيل	-8498
▁وراس	-8499
▁وزنت	-8500
▁وسخط	-8501
▁وسطه	-8502
▁وصحن	-8503
▁وعوج	-8504
▁وغيظ	-8505
▁وقسم	-8506
▁ولدا	-8507
▁وللا	-8508
▁وليب	-8509
▁ومحب	-8510
▁ومكث	-8511
▁ويبس	-8512
▁ويمل	-8513
▁يبست	-8514
▁يجري	-8515
▁يحيط	-8516
▁يدرك	-8517
▁يسحق	-8518
▁يعلن	-8519
▁يعوز	-8520
▁يلقي	-8521
▁ينجح	-8522
▁ينطق	-8523
خريوطي	-8524
▁اباكم	-8525
▁ابغضت	-8526
▁اجساد	-8527
▁اجعلك	-8528
▁احبوا	-8529
▁اخذتم	-8530
▁اخرجت	-8531
▁اخرجك	-8532
▁اراني	-8533
▁ازمنة	-8534
▁اصنام	-8535
▁اعطيه	-8536
▁اعناق	-8537
▁اكلمك	-8538
▁الاسا	-8539
▁البرق	-8540
▁البعض	-8541
▁الزرع	-8542
▁الشقق	-8543
▁الصند	-8544
▁الصيا	-8545
▁الظهر	-8546
▁الفان	-8547
▁القدر	-8548
▁الملء	-8549
▁الوبأ	-8550
▁اليهو	-8551
▁امثال	-8552
▁امناء	-8553
▁اوفير	-8554
▁بانفس	-8555
▁بثشبع	-8556
▁بشاقل	-8557
▁بعضها	-8558
▁بغضبي	-8559
▁بنيكم	-8560
▁بواسط	-8561
▁تأتوا	-8562
▁تأسيس	-8563
▁ترتفع	-8564
▁تضايق	-8565
▁تظنون	-8566
▁تعيير	-8567
▁تمتلئ	-8568
▁ثابتة	-8569
▁ثالثة	-8570
▁ثوران	-8571
▁جانبي	-8572
▁حصينة	-8573
▁حورام	-8574
▁حوشاي	-8575
▁خادما	-8576
▁خدمته	-8577
▁داجون	-8578
▁دخوله	-8579
▁زاوية	-8580
▁سابقا	-8581
▁شاردا	-8582
▁شفطيا	-8583
▁شلومي	-8584
▁طوبيا	-8585
▁عظماء	-8586
▁عفرون	-8587
▁عندها	-8588
▁فأخذت	-8589
▁فاصنع	-8590
▁فانزل	-8591
▁فبارك	-8592
▁فتأكل	-8593
▁فتذكر	-8594
▁فريسة	-8595
▁فستوس	-8596
▁قتلهم	-8597
▁قتلوا	-8598
▁قدسوا	-8599
▁قريبة	-8600
▁قلبكم	-8601
▁كرسيك	-8602
▁لابني	-8603
▁لاخيه	-8604
▁لبطرس	-8605
▁لخدمة	-8606
▁لرجال	-8607
▁لصوتي	-8608
▁لنذهب	-8609
▁مترسة	-8610
▁مثلها	-8611
▁مرتين	-8612
▁مسيرة	-8613
▁ملجإي	-8614
▁مناحة	-8615
▁مياها	-8616
▁وارحم	-8617
▁واطرح	-8618
▁وافرح	-8619
▁واكمل	-8620
▁والبس	-8621
▁والتم	-8622
▁والجا	-8623
▁والرف	-8624
▁والسن	-8625
▁وانثى	-8626
▁واولا	-8627
▁وتاخذ	-8628
▁وجانب	-8629
▁وخمرا	-8630
▁وصرخت	-8631
▁وقتله	-8632
▁وموسى	-8633
▁ويخبر	-8634
▁ويصير	-8635
▁يبنون	-8636
▁يفتخر	-8637
▁ينطفئ	-8638
▁يهوشع	-8639
▁آباؤهم	-8640
▁آذانهم	-8641
▁اتبعني	-8642
▁اجمعون	-8643
▁احتياج	-8644
▁اخترته	-8645
▁اخرجكم	-8646
▁اخرجها	-8647
▁اخوتنا	-8648
▁اخيمعص	-8649
▁اضطجاع	-8650
▁اعطيتك	-8651
▁اعلموا	-8652
▁اقوياء	-8653
▁الايمن	-8654
▁البنون	-8655
▁التاسع	-8656
▁التكلم	-8657
▁الحافظ	-8658
▁الرقيب	-8659
▁السارق	-8660
▁السالك	-8661
▁الصخور	-8662
▁العتيق	-8663
▁العروس	-8664
▁العمود	-8665
▁الغاية	-8666
▁القانة	-8667
▁القياس	-8668
▁القيام	-8669
▁الكرسي	-8670
▁المتجه	-8671
▁المجوس	-8672
▁المعزى	-8673
▁اليدين	-8674
▁اهربوا	-8675
▁اولادك	-8676
▁ايمانك	-8677
▁بألسنة	-8678
▁باصبعه	-8679
▁بالموت	-8680
▁بالوزن	-8681
▁بامثال	-8682
▁بملكوت	-8683
▁بيوتكم	-8684
▁تأخذوا	-8685
▁تحفظون	-8686
▁تصعدوا	-8687
▁تفهمون	-8688
▁تقولوا	-8689
▁جعلتها	-8690
▁حماتها	-8691
▁حنانيا	-8692
▁رؤوسكم	-8693
▁رجاسات	-8694
▁ركبتيه	-8695
▁عسائيل	-8696
▁عناثوث	-8697
▁فأكلوا	-8698
▁فسألوه	-8699
▁فصعدوا	-8700
▁فلسطين	-8701
▁لابرام	-8702
▁لرائحة	-8703
▁محنايم	-8704
▁مشيئته	-8705
▁معلوما	-8706
▁ميراثك	-8707
▁نفوسهم	-8708
▁واصغوا	-8709
▁واعاقب	-8710
▁واقفون	-8711
▁والتفت	-8712
▁والغنم	-8713
▁والفهم	-8714
▁والليل	-8715
▁والموت	-8716
▁وامرأة	-8717
▁وبينكم	-8718
▁وجوهكم	-8719
▁وحننيا	-8720
▁وزيادة	-8721
▁وشمعيا	-8722
▁وصرخوا	-8723
▁وعبروا	-8724
▁وعشيرة	-8725
▁ولجميع	-8726
▁ومبارك	-8727
▁وميراث	-8728
▁ووضعها	-8729
▁ويستحم	-8730
▁يبصرون	-8731
▁يحرسون	-8732
▁يحفظون	-8733
▁يرجعوا	-8734
▁يشربوا	-8735
▁يفرحون	-8736
▁يقتلوه	-8737
▁يكلمهم	-8738
▁ابيجايل	-8739
▁اجنادهم	-8740
▁اجيالهم	-8741
▁اعدائنا	-8742
▁اعمدتها	-8743
▁اغصانها	-8744
▁الاثنان	-8745
▁الاسنان	-8746
▁الاعالي	-8747
▁الاغصان	-8748
▁الشرقية	-8749
▁الطوفان	-8750
▁الظهيرة	-8751
▁العشرين	-8752
▁الفخاري	-8753
▁القواعد	-8754
▁القيامة	-8755
▁المشورة	-8756
▁المنتهى	-8757
▁انتذاره	-8758
▁ايشبوشث	-8759
▁باراباس	-8760
▁بالكلام	-8761
▁فاخبروا	-8762
▁فيكونون	-8763
▁كالعادة	-8764
▁مجتمعين	-8765
▁مساكنكم	-8766
▁واخرجوا	-8767
▁وارسلوا	-8768
▁والجالس	-8769
▁والجنوب	-8770
▁والقرمز	-8771
▁وتكونون	-8772
▁يوناداب	-8773
▁الخنازير	-8774
▁الدينونة	-8775
▁الكبرياء	-8776
▁المكتوبة	-8777
▁النثينيم	-8778
▁لابشالوم	-8779
▁لبنيامين	-8780
▁وابياثار	-8781
▁وارتفاعه	-8782
▁واعطيتهم	-8783
▁والاطفال	-8784
▁والمغنون	-8785
▁الرفائيين	-8786
▁الموآبيين	-8787
▁والارجوان	-8788
▁والكليتين	-8789
▁وتيموثاوس	-8790
▁الاسخريوطي	-8791
▁واسمانجوني	-8792
اش	-8793
ثت	-8794
ثو	-8795
جح	-8796
حظ	-8797
خن	-8798
دل	-8799
شم	-8800
ضه	-8801
عم	-8802
نث	-8803
يء	-8804
يز	-8805
يص	-8806
بتك	-8807
بره	-8808
تبئ	-8809
تعة	-8810
تمة	-8811
تهر	-8812
ثلج	-8813
ثله	-8814
ثيا	-8815
جاج	-8816
جري	-8817
جوا	-8818
خان	-8819
خذا	-8820
رسه	-8821
رقص	-8822
ركه	-8823
روة	-8824
ريء	-8825
ريف	-8826
ريه	-8827
زعت	-8828
زني	-8829
زور	-8830
سرب	-8831
سرت	-8832
سكب	-8833
شفت	-8834
صاف	-8835
صهم	-8836
طئا	-8837
طفا	-8838
طمة	-8839
طيل	-8840
عان	-8841
غال	-8842
فلة	-8843
فنا	-8844
قاه	-8845
نوج	-8846
نوخ	-8847
هبط	-8848
هرا	-8849
واي	-8850
وثق	-8851
وشا	-8852
ويت	-8853
يقا	-8854
▁أي	-8855
▁بو	-8856
▁تض	-8857
▁ذب	-8858
▁رض	-8859
▁زر	-8860
▁سج	-8861
▁طب	-8862
▁غد	-8863
ائنا	-8864
بكاء	-8865
خاتم	-8866
داهم	-8867
ديني	-8868
راءف	-8869
رتين	-8870
رقته	-8871
رقوا	-8872
رونه	-8873
ريهم	-8874
سكين	-8875
ضروب	-8876
طيته	-8877
عاهم	-8878
فنيا	-8879
فورة	-8880
قارب	-8881
قديس	-8882
قليل	-8883
كتان	-8884
كثرت	-8885
كنيا	-8886
لبوا	-8887
لبون	-8888
نيلي	-8889
نينة	-8890
هبون	-8891
هنته	-8892
هورا	-8893
واتك	-8894
ومين	-8895
وهبة	-8896
يراث	-8897
يسون	-8898
يشوع	-8899
يقاد	-8900
يلية	-8901
يموث	-8902
▁آون	-8903
▁أرأ	-8904
▁اتم	-8905
▁اثر	-8906
▁اخف	-8907
▁اضل	-8908
▁افن	-8909
▁اوق	-8910
▁بسط	-8911
▁بعظ	-8912
▁بلط	-8913
▁بلغ	-8914
▁بيض	-8915
▁بيل	-8916
▁تتع	-8917
▁تزن	-8918
▁تسر	-8919
▁تعز	-8920
▁تكت	-8921
▁ثال	-8922
▁ثدي	-8923
▁جبه	-8924
▁حضن	-8925
▁ذها	-8926
▁رجا	-8927
▁رعد	-8928
▁رمح	-8929
▁ساد	-8930
▁شان	-8931
▁شدة	-8932
▁شقق	-8933
▁صدق	-8934
▁صلف	-8935
▁صين	-8936
▁ضحك	-8937
▁ضوء	-8938
▁طلع	-8939
▁طير	-8940
▁عجل	-8941
▁عسل	-8942
▁فاد	-8943
▁فتذ	-8944
▁فتغ	-8945
▁فحل	-8946
▁فدى	-8947
▁فذا	-8948
▁فسأ	-8949
▁فعا	-8950
▁فعد	-8951
▁فقا	-8952
▁فقر	-8953
▁فني	-8954
▁قضا	-8955
▁كار	-8956
▁كوك	-8957
▁كوى	-8958
▁لجد	-8959
▁لرج	-8960
▁لطف	-8961
▁لعن	-8962
▁محم	-8963
▁مشا	-8964
▁مصل	-8965
▁معز	-8966
▁ناج	-8967
▁ناد	-8968
▁نطق	-8969
▁نقش	-8970
▁نقل	-8971
▁نمر	-8972
▁نهب	-8973
▁وتف	-8974
▁وذر	-8975
▁وغض	-8976
▁ومق	-8977
▁ونخ	-8978
▁وهل	-8979
▁وور	-8980
▁ووك	-8981
▁وول	-8982
▁يجر	-8983
▁يحث	-8984
▁يحق	-8985
▁يزم	-8986
▁يشق	-8987
▁يطع	-8988
▁يفك	-8989
▁يقع	-8990
▁يلب	-8991
▁يمر	-8992
اهرين	-8993
تاجون	-8994
تموهم	-8995
جارين	-8996
جانبه	-8997
حتهما	-8998
صادين	-8999
صريين	-9000
طيعوا	-9001
غربوا	-9002
قدمون	-9003
لاكهم	-9004
مانات	-9005
نبأوا	-9006
وصاهم	-9007
وقيين	-9008
ياتهم	-9009
ينحاس	-9010
▁أمور	-9011
▁اتيت	-9012
▁اثمه	-9013
▁اجله	-9014
▁اجيب	-9015
▁احمر	-9016
▁اخزى	-9017
▁استغ	-9018
▁اشبه	-9019
▁اصغر	-9020
▁اصلب	-9021
▁البه	-9022
▁الجت	-9023
▁الدع	-9024
▁السك	-9025
▁السن	-9026
▁الغش	-9027
▁اللا	-9028
▁المم	-9029
▁المه	-9030
▁النب	-9031
▁امتد	-9032
▁املك	-9033
▁اهرب	-9034
▁اياي	-9035
▁بابا	-9036
▁بالر	-9037
▁بثمر	-9038
▁بثمن	-9039
▁بجيش	-9040
▁بحجر	-9041
▁بخوف	-9042
▁بخير	-9043
▁بعصا	-9044
▁بقرك	-9045
▁بقعة	-9046
▁بكرة	-9047
▁بمنا	-9048
▁تجلس	-9049
▁تجيب	-9050
▁ترعى	-9051
▁تسلك	-9052
▁تطفأ	-9053
▁تطهر	-9054
▁تقرأ	-9055
▁تنوح	-9056
▁ثقيل	-9057
▁جثته	-9058
▁جرار	-9059
▁جلود	-9060
▁حجاب	-9061
▁حصون	-9062
▁حطبا	-9063
▁حقله	-9064
▁حملا	-9065
▁خائف	-9066
▁خربا	-9067
▁خشبة	-9068
▁خلاء	-9069
▁دبير	-9070
▁ذبلت	-9071
▁رجوع	-9072
▁رصين	-9073
▁رمحه	-9074
▁زادا	-9075
▁زمري	-9076
▁سارت	-9077
▁سرية	-9078
▁سقوط	-9079
▁شركة	-9080
▁شروق	-9081
▁شيخا	-9082
▁ضارب	-9083
▁طرفي	-9084
▁ظهور	-9085
▁عبرت	-9086
▁عثرة	-9087
▁عونا	-9088
▁عيدا	-9089
▁غنيم	-9090
▁غيور	-9091
▁فاتح	-9092
▁فتاة	-9093
▁فحلف	-9094
▁فدعت	-9095
▁فساد	-9096
▁فعلى	-9097
▁ففرح	-9098
▁فوقع	-9099
▁فيرى	-9100
▁فيلك	-9101
▁قوات	-9102
▁كالج	-9103
▁كالح	-9104
▁كالغ	-9105
▁كاني	-9106
▁كتفه	-9107
▁كرمة	-9108
▁كنهر	-9109
▁لعدم	-9110
▁لمجد	-9111
▁لوحي	-9112
▁ليحل	-9113
▁ليرد	-9114
▁ليرى	-9115
▁ليعط	-9116
▁مئات	-9117
▁متجر	-9118
▁متسل	-9119
▁متنا	-9120
▁مسحا	-9121
▁مشته	-9122
▁مضوا	-9123
▁معاص	-9124
▁معلم	-9125
▁مملو	-9126
▁منفر	-9127
▁نأتي	-9128
▁نخرج	-9129
▁نزلت	-9130
▁نقيا	-9131
▁نهبا	-9132
▁وابا	-9133
▁وارك	-9134
▁وباع	-9135
▁وتعل	-9136
▁وجها	-9137
▁وجيش	-9138
▁وحتى	-9139
▁وحجر	-9140
▁وحشب	-9141
▁وخاف	-9142
▁وخشب	-9143
▁ودار	-9144
▁ورقا	-9145
▁وسبى	-9146
▁وسحق	-9147
▁وسلك	-9148
▁وشكر	-9149
▁وصلى	-9150
▁وعنا	-9151
▁وغضب	-9152
▁وقضى	-9153
▁وكيل	-9154
▁ولاة	-9155
▁ومخا	-9156
▁وناد	-9157
▁ونار	-9158
▁ونجا	-9159
▁يأمر	-9160
▁يبنى	-9161
▁يتكل	-9162
▁يجده	-9163
▁يحضر	-9164
▁يخزى	-9165
▁يرضى	-9166
▁يرضي	-9167
▁يسمى	-9168
▁يكتب	-9169
▁يملأ	-9170
▁ينبت	-9171
▁ينوح	-9172
▁يهتم	-9173
جتمعون	-9174
شونيين	-9175
ضبانها	-9176
طوفاتي	-9177
نيليوس	-9178
هاداته	-9179
هللئيل	-9180
▁آباؤك	-9181
▁ابنتي	-9182
▁ابهام	-9183
▁احدكم	-9184
▁اختهم	-9185
▁اخنوخ	-9186
▁ارتحش	-9187
▁استطع	-9188
▁اسواق	-9189
▁اقدام	-9190
▁الاسب	-9191
▁الافت	-9192
▁التمس	-9193
▁التيس	-9194
▁الجنة	-9195
▁الحلف	-9196
▁الخائ	-9197
▁الدهن	-9198
▁الذبح	-9199
▁الرجس	-9200
▁السبط	-9201
▁السدى	-9202
▁الشبع	-9203
▁العرب	-9204
▁العسل	-9205
▁الفرق	-9206
▁القرن	-9207
▁الكسر	-9208
▁اللجج	-9209
▁المحت	-9210
▁المشت	-9211
▁المشق	-9212
▁المعل	-9213
▁الموا	-9214
▁النير	-9215
▁اليآب	-9216
▁انتقم	-9217
▁انتما	-9218
▁انصاب	-9219
▁انواع	-9220
▁اوصيت	-9221
▁باراق	-9222
▁بالان	-9223
▁بالذي	-9224
▁بامور	-9225
▁بذراع	-9226
▁برنيع	-9227
▁بريئا	-9228
▁بقوته	-9229
▁بيومه	-9230
▁تابور	-9231
▁تجربة	-9232
▁تعمله	-9233
▁تلتفت	-9234
▁تواضع	-9235
▁تيمان	-9236
▁جالسة	-9237
▁جعلها	-9238
▁جهالة	-9239
▁حاران	-9240
▁حاشية	-9241
▁حكمتك	-9242
▁حماقة	-9243
▁حيطان	-9244
▁خرجتم	-9245
▁خروجه	-9246
▁خلصني	-9247
▁دعوتك	-9248
▁ذراعه	-9249
▁راعوث	-9250
▁رجلين	-9251
▁زيتون	-9252
▁ساروا	-9253
▁سباهم	-9254
▁سريره	-9255
▁سفينة	-9256
▁سكائب	-9257
▁سكناك	-9258
▁سواري	-9259
▁سيدنا	-9260
▁سيدهم	-9261
▁شرقية	-9262
▁صادقة	-9263
▁صراخي	-9264
▁صرخوا	-9265
▁طولها	-9266
▁عظمته	-9267
▁عمودا	-9268
▁عينها	-9269
▁غلامه	-9270
▁غيرتي	-9271
▁فادخل	-9272
▁فارغة	-9273
▁فاطلق	-9274
▁فسقطت	-9275
▁فهناك	-9276
▁فيحرق	-9277
▁فيحكم	-9278
▁فيخبر	-9279
▁فيسكن	-9280
▁فيسمع	-9281
▁فيصنع	-9282
▁فيعلم	-9283
▁فيفرح	-9284
▁قاموا	-9285
▁قدرته	-9286
▁قرأتم	-9287
▁قيدار	-9288
▁كاذبة	-9289
▁كرسيي	-9290
▁كنائس	-9291
▁كهنوت	-9292
▁لابسا	-9293
▁لاخبر	-9294
▁لبنيه	-9295
▁لتحفظ	-9296
▁لسانه	-9297
▁للذبح	-9298
▁للعمل	-9299
▁للنار	-9300
▁لياكل	-9301
▁ليعلم	-9302
▁ليكهن	-9303
▁ماشيا	-9304
▁مجامع	-9305
▁مجيئه	-9306
▁محارب	-9307
▁مخماس	-9308
▁مرتفع	-9309
▁مسكنه	-9310
▁ملكها	-9311
▁منارة	-9312
▁مولود	-9313
▁نحاسا	-9314
▁نحشون	-9315
▁نظروا	-9316
▁نيريا	-9317
▁هتافا	-9318
▁هيكله	-9319
▁هيمان	-9320
▁وابصر	-9321
▁وابنك	-9322
▁وادفع	-9323
▁وارفع	-9324
▁واعظم	-9325
▁واعمد	-9326
▁واقمت	-9327
▁واكلت	-9328
▁والرا	-9329
▁والها	-9330
▁واياه	-9331
▁وباقي	-9332
▁وبقرا	-9333
▁وبكوا	-9334
▁وبنوا	-9335
▁وتسكن	-9336
▁وتعلم	-9337
▁وثياب	-9338
▁وجمال	-9339
▁وحمير	-9340
▁وخمسا	-9341
▁ورئيس	-9342
▁وعينا	-9343
▁وقلبي	-9344
▁وكلاء	-9345
▁ولآخر	-9346
▁ولذلك	-9347
▁ولستم	-9348
▁ولعنة	-9349
▁ونسله	-9350
▁ويأكل	-9351
▁ويخلص	-9352
▁ويعلم	-9353
▁ويفعل	-9354
▁وينضح	-9355
▁ويوجد	-9356
▁يتزوج	-9357
▁يثرون	-9358
▁يجاوب	-9359
▁يحتاج	-9360
▁يحتقر	-9361
▁يحمدك	-9362
▁يحيون	-9363
▁يراقب	-9364
▁يرعون	-9365
▁يصنعه	-9366
▁يعترف	-9367
▁يقتله	-9368
▁يمشون	-9369
▁يومين	-9370
ألتيئيل	-9371
▁آباءنا	-9372
▁اخبرني	-9373
▁اخرجهم	-9374
▁ارسلكم	-9375
▁ارسلهم	-9376
▁اسوارك	-9377
▁اصحابه	-9378
▁اطردهم	-9379
▁اعداؤك	-9380
▁اغتصاب	-9381
▁افتخار	-9382
▁افراتة	-9383
▁الاتان	-9384
▁الاكمة	-9385
▁البناء	-9386
▁الحرام	-9387
▁الحقيق	-9388
▁الخاطئ	-9389
▁الخدام	-9390
▁الخربة	-9391
▁الخيام	-9392
▁الذهاب	-9393
▁السائر	-9394
▁السماو	-9395
▁السوسن	-9396
▁العتاة	-9397
▁العوسج	-9398
▁الفراش	-9399
▁القليل	-9400
▁المتطه	-9401
▁المستك	-9402
▁الواقف	-9403
▁الوحوش	-9404
▁باكورة	-9405
▁بالاثم	-9406
▁بالخمر	-9407
▁بالصدق	-9408
▁بخطايا	-9409
▁بذبيحة	-9410
▁برزلاي	-9411
▁بفرعون	-9412
▁بناتهم	-9413
▁تصنعوا	-9414
▁تعرفها	-9415
▁تعطيني	-9416
▁تنظرون	-9417
▁تهتموا	-9418
▁جالسين	-9419
▁جميعنا	-9420
▁حاملين	-9421
▁خروجهم	-9422
▁ذراعان	-9423
▁صراخهم	-9424
▁صلفحاد	-9425
▁علانية	-9426
▁عوبديا	-9427
▁فأخذوا	-9428
▁فاجابت	-9429
▁فارتحل	-9430
▁فخافوا	-9431
▁قصورها	-9432
▁كلامكم	-9433
▁لاخوته	-9434
▁لاستير	-9435
▁لبلعام	-9436
▁للدخول	-9437
▁مختاري	-9438
▁مختلفة	-9439
▁مرتفعة	-9440
▁مسبوكا	-9441
▁مستحقا	-9442
▁ملتوتة	-9443
▁ملوكهم	-9444
▁منحوتا	-9445
▁موضوعة	-9446
▁واجعله	-9447
▁واختار	-9448
▁واعترف	-9449
▁واعطيك	-9450
▁وباركه	-9451
▁وبماذا	-9452
▁وبناته	-9453
▁وتابوت	-9454
▁وتسعين	-9455
▁وجلسوا	-9456
▁وحيثما	-9457
▁وخزائن	-9458
▁وصاروا	-9459
▁ولبنيه	-9460
▁ولكننا	-9461
▁وملأها	-9462
▁ويحارب	-9463
▁يتزعزع	-9464
▁يخلصون	-9465
▁يدفنون	-9466
▁يرفعون	-9467
▁يسلكوا	-9468
▁يسلمني	-9469
▁يصنعوا	-9470
▁يضربون	-9471
▁يعبرون	-9472
▁يعثرون	-9473
▁يقدمون	-9474
▁يقطعون	-9475
▁ينادون	-9476
▁اخيمالك	-9477
▁افكارهم	-9478
▁الادومي	-9479
▁الازمنة	-9480
▁الاشبال	-9481
▁البلدان	-9482
▁الجديدة	-9483
▁الخليقة	-9484
▁السواري	-9485
▁العمامة	-9486
▁الغريبة	-9487
▁الفتيان	-9488
▁اللوحين	-9489
▁المحراب	-9490
▁المعصرة	-9491
▁الميراث	-9492
▁الودعاء	-9493
▁اولادها	-9494
▁ايديهما	-9495
▁بالنعمة	-9496
▁بلطشاصر	-9497
▁بنجاسته	-9498
▁تلاميذك	-9499
▁فاستجاب	-9500
▁فاعلموا	-9501
▁فيقولون	-9502
▁قاعدتان	-9503
▁مساكنهم	-9504
▁مستقيما	-9505
▁مفيبوشث	-9506
▁نثنائيل	-9507
▁واعملوا	-9508
▁والآنية	-9509
▁والخطاة	-9510
▁والشرير	-9511
▁والفقير	-9512
▁والنجوم	-9513
▁وبجانبه	-9514
▁وبرنابا	-9515
▁وتعلمون	-9516
▁وسكيبها	-9517
▁وسليمان	-9518
▁وصلمناع	-9519
▁وصموئيل	-9520
▁وفرائضي	-9521
▁وفينحاس	-9522
▁ويسجدون	-9523
▁البائسين	-9524
▁الجالسين	-9525
▁العمالقة	-9526
▁القائلين	-9527
▁القائمين	-9528
▁المنحوتة	-9529
▁باسمائهم	-9530
▁كرنيليوس	-9531
▁واستراحت	-9532
▁والألسنة	-9533
▁والكرامة	-9534
▁والمناضح	-9535
▁وتلاميذه	-9536
▁يستطيعوا	-9537
▁يهوياكين	-9538
▁الجرشونيين	-9539
▁الصيدونيين	-9540
▁الكلدانيون	-9541
آت	-9542
از	-9543
اق	-9544
جإ	-9545
حط	-9546
خف	-9547
دف	-9548
شئ	-9549
آمر	-9550
ؤنا	-9551
ئمك	-9552
ابي	-9553
الق	-9554
اهم	-9555
بكم	-9556
بلغ	-9557
بيت	-9558
بيك	-9559
تكأ	-9560
تكي	-9561
تهد	-9562
ثات	-9563
ثمر	-9564
جاد	-9565
جبر	-9566
جمة	-9567
خرس	-9568
خفض	-9569
خله	-9570
خيك	-9571
دات	-9572
رجد	-9573
ريد	-9574
زلة	-9575
سمك	-9576
شفة	-9577
صوص	-9578
عتق	-9579
عدد	-9580
عيد	-9581
فقة	-9582
فكم	-9583
فيق	-9584
كلك	-9585
لاي	-9586
لقة	-9587
لنا	-9588
لهج	-9589
لهم	-9590
ميد	-9591
نطق	-9592
هدأ	-9593
هيم	-9594
واة	-9595
وخة	-9596
يسة	-9597
يشة	-9598
يمس	-9599
▁أع	-9600
▁بئ	-9601
▁حف	-9602
▁رو	-9603
▁صك	-9604
▁صي	-9605
▁ضح	-9606
▁عض	-9607
▁ــ	-9608
▁مف	-9609
▁ني	-9610
ائكم	-9611
ارها	-9612
اليم	-9613
بتاع	-9614
بتدئ	-9615
بروت	-9616
بلوس	-9617
بيرة	-9618
تايم	-9619
تلذذ	-9620
جاجي	-9621
حمتك	-9622
داها	-9623
دمون	-9624
ذلوا	-9625
ردوا	-9626
رسلا	-9627
رعزر	-9628
ركوا	-9629
ريان	-9630
ريضة	-9631
زايد	-9632
زموت	-9633
زنوا	-9634
سلون	-9635
سمها	-9636
شيئة	-9637
عداد	-9638
ملها	-9639
ميرا	-9640
ميين	-9641
ناعة	-9642
نسلك	-9643
هبين	-9644
هدوا	-9645
وبون	-9646
وتكم	-9647
ورام	-9648
وطني	-9649
وفوا	-9650
وقات	-9651
ولان	-9652
وننا	-9653
يائل	-9654
ياتي	-9655
يرات	-9656
يعزر	-9657
يكية	-9658
يمون	-9659
ينان	-9660
▁آبل	-9661
▁أسس	-9662
▁أفت	-9663
▁أوص	-9664
▁اعل	-9665
▁اوا	-9666
▁اوع	-9667
▁بائ	-9668
▁بذل	-9669
▁برق	-9670
▁بعب	-9671
▁تفت	-9672
▁تقب	-9673
▁تقع	-9674
▁تكث	-9675
▁تكف	-9676
▁تلم	-9677
▁تنس	-9678
▁ثقة	-9679
▁جام	-9680
▁حاج	-9681
▁حاض	-9682
▁حسد	-9683
▁حقك	-9684
▁خفي	-9685
▁راء	-9686
▁ستر	-9687
▁سرق	-9688
▁شخت	-9689
▁صوف	-9690
▁عائ	-9691
▁عشت	-9692
▁عمق	-9693
▁غرل	-9694
▁غزة	-9695
▁غلة	-9696
▁غلم	-9697
▁فته	-9698
▁فحص	-9699
▁فرج	-9700
▁فشف	-9701
▁كاب	-9702
▁لاث	-9703
▁لاص	-9704
▁لبس	-9705
▁لتا	-9706
▁لتك	-9707
▁مرق	-9708
▁معد	-9709
▁نجد	-9710
▁ندم	-9711
▁نسر	-9712
▁نوا	-9713
▁نوب	-9714
▁نوم	-9715
▁وآب	-9716
▁وأل	-9717
▁وجر	-9718
▁وعج	-9719
▁وقم	-9720
▁ونث	-9721
▁ووا	-9722
▁ويذ	-9723
▁يعا	-9724
▁يفر	-9725
▁يفس	-9726
▁يكت	-9727
▁يوق	-9728
ؤمنوا	-9729
زلزلة	-9730
صابات	-9731
كسروا	-9732
لاتهم	-9733
لاطين	-9734
وداعة	-9735
ياعها	-9736
▁أتون	-9737
▁أهذا	-9738
▁اباد	-9739
▁ابيد	-9740
▁احسب	-9741
▁احلف	-9742
▁اختك	-9743
▁اخرب	-9744
▁اذار	-9745
▁اردت	-9746
▁ازيد	-9747
▁اصرف	-9748
▁اصفح	-9749
▁اعرج	-9750
▁افرز	-9751
▁افهم	-9752
▁اقتن	-9753
▁اقدا	-9754
▁اقرض	-9755
▁اكمة	-9756
▁الات	-9757
▁البس	-9758
▁التق	-9759
▁الخر	-9760
▁الذا	-9761
▁الست	-9762
▁الشد	-9763
▁العث	-9764
▁العن	-9765
▁القي	-9766
▁الوز	-9767
▁امنع	-9768
▁اناة	-9769
▁انفك	-9770
▁انفه	-9771
▁اهلا	-9772
▁ببعض	-9773
▁بخشب	-9774
▁بدمه	-9775
▁بكرا	-9776
▁تجهل	-9777
▁تحتي	-9778
▁تحجب	-9779
▁تسجد	-9780
▁تطرح	-9781
▁تغطي	-9782
▁تقرب	-9783
▁تقطر	-9784
▁تكسر	-9785
▁تلمي	-9786
▁تنكر	-9787
▁ثمره	-9788
▁جابر	-9789
▁جزاء	-9790
▁جسدا	-9791
▁جلال	-9792
▁جمعا	-9793
▁جوعا	-9794
▁حافر	-9795
▁حجار	-9796
▁حداث	-9797
▁حراس	-9798
▁حصلت	-9799
▁حقلك	-9800
▁حمله	-9801
▁حولك	-9802
▁حينه	-9803
▁خالق	-9804
▁خزوا	-9805
▁خلقت	-9806
▁دبيب	-9807
▁ذنبه	-9808
▁راجل	-9809
▁رغيف	-9810
▁رفضت	-9811
▁سألت	-9812
▁سبله	-9813
▁صيبا	-9814
▁ضجيج	-9815
▁ضيقي	-9816
▁طرحت	-9817
▁طلوع	-9818
▁عتيد	-9819
▁عجبا	-9820
▁عجلا	-9821
▁عزيز	-9822
▁عشبا	-9823
▁عنبا	-9824
▁غضبا	-9825
▁غنوا	-9826
▁فالح	-9827
▁فاهم	-9828
▁فبعد	-9829
▁فخذه	-9830
▁فركض	-9831
▁فصرت	-9832
▁فقبل	-9833
▁فقير	-9834
▁فليق	-9835
▁فليم	-9836
▁فمها	-9837
▁فهما	-9838
▁قبره	-9839
▁قتله	-9840
▁قربت	-9841
▁قناة	-9842
▁قناز	-9843
▁قيام	-9844
▁كاسد	-9845
▁كالس	-9846
▁كالف	-9847
▁كتفي	-9848
▁كرمل	-9849
▁كرمي	-9850
▁كروم	-9851
▁كريم	-9852
▁كسرة	-9853
▁كغنم	-9854
▁كلمك	-9855
▁كلنا	-9856
▁لآسا	-9857
▁لارض	-9858
▁لسمع	-9859
▁للقد	-9860
▁لوجه	-9861
▁لوحا	-9862
▁ليخز	-9863
▁ليسا	-9864
▁ليقل	-9865
▁مختر	-9866
▁مدعو	-9867
▁مدنك	-9868
▁مرضه	-9869
▁مظال	-9870
▁معان	-9871
▁معرف	-9872
▁ملآن	-9873
▁ممرا	-9874
▁موطئ	-9875
▁مولا	-9876
▁نبوة	-9877
▁هتاف	-9878
▁واحا	-9879
▁واصل	-9880
▁وافر	-9881
▁والض	-9882
▁وامي	-9883
▁وبعل	-9884
▁وتست	-9885
▁وتلك	-9886
▁وجده	-9887
▁وساق	-9888
▁وسور	-9889
▁وشدد	-9890
▁وشعر	-9891
▁وصرف	-9892
▁وصلا	-9893
▁وعار	-9894
▁وعيد	-9895
▁وفاة	-9896
▁وفوق	-9897
▁وقائ	-9898
▁وقبض	-9899
▁وقرأ	-9900
▁وقرب	-9901
▁وقعت	-9902
▁وقوة	-9903
▁ولان	-9904
▁ولبس	-9905
▁وللغ	-9906
▁ولمن	-9907
▁ومعل	-9908
▁ومنذ	-9909
▁ونور	-9910
▁وهلم	-9911
▁ويتع	-9912
▁ويرث	-9913
▁ويقف	-9914
▁يتعب	-9915
▁يجتر	-9916
▁يحلق	-9917
▁يحيي	-9918
▁يخجل	-9919
▁يخدع	-9920
▁يدنس	-9921
▁يراه	-9922
▁يرذل	-9923
▁يزهر	-9924
▁يسبح	-9925
▁يسكب	-9926
▁يسوق	-9927
▁يصيب	-9928
▁يضعه	-9929
▁يطلع	-9930
▁يطهر	-9931
▁يغلق	-9932
▁يفسد	-9933
▁يقرأ	-9934
▁يكسر	-9935
▁يكشف	-9936
▁يلقى	-9937
▁يمكث	-9938
▁يميل	-9939
▁ينجي	-9940
▁ينسى	-9941
▁ينقص	-9942
▁ينكر	-9943
▁ينمو	-9944
الونيك	-9945
دينونة	-9946
مركبات	-9947
▁آلهتك	-9948
▁ألعلي	-9949
▁ابارك	-9950
▁اباهم	-9951
▁اجرته	-9952
▁اجنبي	-9953
▁احبائ	-9954
▁احشاء	-9955
▁ارادة	-9956
▁ارجاس	-9957
▁ارضنا	-9958
▁استار	-9959
▁اعترف	-9960
▁اقوله	-9961
▁الاتن	-9962
▁الارت	-9963
▁الجار	-9964
▁الجلا	-9965
▁الحثي	-9966
▁الزمت	-9967
▁السحب	-9968
▁السرج	-9969
▁السوق	-9970
▁الشاب	-9971
▁الشون	-9972
▁الشيء	-9973
▁الطير	-9974
▁العطر	-9975
▁العلم	-9976
▁الفاس	-9977
▁القاب	-9978
▁القسي	-9979
▁القطع	-9980
▁المحص	-9981
▁المسر	-9982
▁المعت	-9983
▁النهب	-9984
▁امتحن	-9985
▁انتقل	-9986
▁اهتفي	-9987
▁اياكم	-9988
▁باكرا	-9989
▁بالمر	-9990
▁بقليل	-9991
▁بمثله	-9992
▁بنوكم	-9993
▁تجارك	-9994
▁تراءى	-9995
▁تركهم	-9996
▁تستقر	-9997
▁تشتهي	-9998
▁تضطهد	-9999
▁تلقاء	-10000
▁ثقيلة	-10001
▁جانبه	-10002
▁جزائر	-10003
▁جعلته	-10004
▁جوانب	-10005
▁جيحزي	-10006
▁جيران	-10007
▁حشبيا	-10008
▁خروجك	-10009
▁خزيهم	-10010
▁دبورة	-10011
▁دعواي	-10012
▁رجعتم	-10013
▁رديئا	-10014
▁رذيلة	-10015
▁رسالة	-10016
▁سرايا	-10017
▁شرورا	-10018
▁شهوات	-10019
▁صليبه	-10020
▁ضربات	-10021
▁طالعة	-10022
▁طريقي	-10023
▁عجلون	-10024
▁عرافة	-10025
▁علمني	-10026
▁عملتم	-10027
▁عملته	-10028
▁فارغا	-10029
▁فتاكل	-10030
▁فتحيا	-10031
▁فجميع	-10032
▁فسأله	-10033
▁فللرب	-10034
▁فيعرف	-10035
▁فيغسل	-10036
▁فيقتل	-10037
▁فيلكس	-10038
▁فيموت	-10039
▁قائما	-10040
▁قبالة	-10041
▁قرونه	-10042
▁كاذبا	-10043
▁كاملة	-10044
▁كانها	-10045
▁لبناء	-10046
▁لبولس	-10047
▁لتسمع	-10048
▁لقولي	-10049
▁لكنهم	-10050
▁للثور	-10051
▁للسمع	-10052
▁للوحش	-10053
▁ليسمع	-10054
▁لينظر	-10055
▁ليهرب	-10056
▁مجتاز	-10057
▁مذلتي	-10058
▁مراعي	-10059
▁مرثاة	-10060
▁مريبة	-10061
▁مسكنا	-10062
▁مسيحه	-10063
▁مشيرا	-10064
▁معسيا	-10065
▁مقفرة	-10066
▁مكرها	-10067
▁ملككم	-10068
▁منفعة	-10069
▁ناحاش	-10070
▁وآثام	-10071
▁واحضر	-10072
▁واحكا	-10073
▁واخذه	-10074
▁واسعة	-10075
▁واطلب	-10076
▁والدم	-10077
▁والصح	-10078
▁والمص	-10079
▁والهي	-10080
▁واليف	-10081
▁واياي	-10082
▁وتحرق	-10083
▁وثمرة	-10084
▁وحافظ	-10085
▁وحكمة	-10086
▁وذهبت	-10087
▁ورحمة	-10088
▁وزنات	-10089
▁وسافر	-10090
▁وسيلا	-10091
▁وصيدا	-10092
▁وضعها	-10093
▁وعظام	-10094
▁وفعلت	-10095
▁وقاعد	-10096
▁وكلام	-10097
▁ولتكن	-10098
▁ولكنك	-10099
▁وليست	-10100
▁وموآب	-10101
▁ونحاس	-10102
▁ونزلت	-10103
▁ووجوه	-10104
▁ووحوش	-10105
▁ووقفت	-10106
▁ويسجد	-10107
▁ويسلم	-10108
▁ويعرف	-10109
▁ويموت	-10110
▁يتعجب	-10111
▁يجازي	-10112
▁يخاصم	-10113
▁يزمجر	-10114
▁يستحق	-10115
▁يصغوا	-10116
▁يضايق	-10117
▁يضطهد	-10118
▁يعزير	-10119
▁يفنون	-10120
▁يقدمه	-10121
▁يقضون	-10122
▁يقينا	-10123
▁يكنيا	-10124
▁يلاحظ	-10125
نعانيون	-10126
▁آثامنا	-10127
▁آنيتها	-10128
▁اجمعوا	-10129
▁اختاره	-10130
▁ارتعدت	-10131
▁ارتفاع	-10132
▁ارسلته	-10133
▁اسابيع	-10134
▁اسنانه	-10135
▁اسهروا	-10136
▁اضطجعت	-10137
▁اعطيته	-10138
▁اعطيهم	-10139
▁افنيهم	-10140
▁اقوالي	-10141
▁الآكام	-10142
▁الايدي	-10143
▁الايفة	-10144
▁التقوى	-10145
▁الجانب	-10146
▁الحادي	-10147
▁الحمير	-10148
▁الزارع	-10149
▁الساقط	-10150
▁السبوت	-10151
▁الشاهد	-10152
▁الشرور	-10153
▁الصبية	-10154
▁الصلاح	-10155
▁العمون	-10156
▁الغزاة	-10157
▁الغناء	-10158
▁الفاجر	-10159
▁القدرة	-10160
▁القلعة	-10161
▁القوية	-10162
▁اللحمة	-10163
▁المخرب	-10164
▁المسكر	-10165
▁الملقب	-10166
▁النجسة	-10167
▁النشيد	-10168
▁الهدية	-10169
▁الوقوف	-10170
▁امتعته	-10171
▁اوصيتك	-10172
▁باقوال	-10173
▁بالجوع	-10174
▁بالذهب	-10175
▁بالقوة	-10176
▁بامرأة	-10177
▁بناتكم	-10178
▁بواسطة	-10179
▁بينهما	-10180
▁تركوني	-10181
▁تستجيب	-10182
▁تفسيره	-10183
▁تنبأوا	-10184
▁جواسيس	-10185
▁حبيبتي	-10186
▁خائفيه	-10187
▁رؤوسها	-10188
▁رعوئيل	-10189
▁سكانها	-10190
▁سلامته	-10191
▁سلطانه	-10192
▁طالبين	-10193
▁عجائبك	-10194
▁فاضطجع	-10195
▁فاعطيك	-10196
▁فاغتاظ	-10197
▁فامتنع	-10198
▁فقاموا	-10199
▁فهانذا	-10200
▁قدامكم	-10201
▁كروبيم	-10202
▁للذهاب	-10203
▁للشرير	-10204
▁للقضاء	-10205
▁للملاك	-10206
▁ليأتوا	-10207
▁مدينتي	-10208
▁مستوجب	-10209
▁مصابيح	-10210
▁مملكتي	-10211
▁منظرها	-10212
▁موضوعا	-10213
▁ميثاقي	-10214
▁ميراثي	-10215
▁هدرعزر	-10216
▁وأخذوا	-10217
▁واجتاز	-10218
▁واخبرت	-10219
▁واقامه	-10220
▁والامم	-10221
▁واليوم	-10222
▁وامريا	-10223
▁وتقدمة	-10224
▁وثيابا	-10225
▁ورفعوا	-10226
▁وسرايا	-10227
▁وشربوا	-10228
▁وعرضها	-10229
▁وكبشين	-10230
▁وكلموا	-10231
▁ومقببه	-10232
▁ومواشي	-10233
▁ونهبوا	-10234
▁يدوثون	-10235
▁يروحام	-10236
▁يشربون	-10237
▁يعرفها	-10238
▁يفهموا	-10239
▁يقتلون	-10240
▁يقدرون	-10241
▁يهلكون	-10242
▁احترزوا	-10243
▁اخرجتهم	-10244
▁اصواتهم	-10245
▁افعالهم	-10246
▁الارامل	-10247
▁الاسبوع	-10248
▁الالواح	-10249
▁التوراة	-10250
▁الداخلي	-10251
▁السماوي	-10252
▁الضربات	-10253
▁الضفادع	-10254
▁العصوين	-10255
▁الفرسان	-10256
▁الكبيرة	-10257
▁الكهنوت	-10258
▁المتقدة	-10259
▁الملكوت	-10260
▁المنطقة	-10261
▁الموجود	-10262
▁ايثامار	-10263
▁بالباطل	-10264
▁بناياهو	-10265
▁حيوانات	-10266
▁فانظروا	-10267
▁فتحفظون	-10268
▁لآبائنا	-10269
▁لداريوس	-10270
▁للشيطان	-10271
▁للمحرقة	-10272
▁ليخدموا	-10273
▁مذابحهم	-10274
▁مسارحها	-10275
▁وابيرام	-10276
▁وابيشاي	-10277
▁واخبروه	-10278
▁واذهبوا	-10279
▁والبخور	-10280
▁والثياب	-10281
▁والحمير	-10282
▁والخروف	-10283
▁والرباب	-10284
▁والرجال	-10285
▁والسعاة	-10286
▁والكلام	-10287
▁وامتلأت	-10288
▁وبناتها	-10289
▁وتجعلها	-10290
▁وتحفظون	-10291
▁وتعالوا	-10292
▁وجبروته	-10293
▁وضياعها	-10294
▁وعجائبه	-10295
▁وعوبديا	-10296
▁ومركبات	-10297
▁ويحيئيل	-10298
▁يعرفوها	-10299
▁البوابين	-10300
▁الجلعادي	-10301
▁الصديقون	-10302
▁القائلون	-10303
▁المراؤون	-10304
▁المسبيين	-10305
▁اليصابات	-10306
▁بالامانة	-10307
▁وابوابها	-10308
▁والاخيرة	-10309
▁والخمسين	-10310
▁وايثامار	-10311
▁وبناياهو	-10312
▁يستطيعون	-10313
▁يهوناثان	-10314
▁السماويات	-10315
▁النطوفاتي	-10316
▁بالانبياء	-10317
▁الكنعانيون	-10318
آخ	-10319
اث	-10320
تز	-10321
جى	-10322
حف	-10323
دس	-10324
ذق	-10325
ذك	-10326
ذى	-10327
زك	-10328
صك	-10329
صه	-10330
ضن	-10331
غط	-10332
امخ	-10333
انق	-10334
بتم	-10335
برص	-10336
بكي	-10337
بهم	-10338
بيه	-10339
تكئ	-10340
جاز	-10341
جبت	-10342
حنن	-10343
خاء	-10344
خاف	-10345
خلع	-10346
داي	-10347
دهش	-10348
ربح	-10349
ربض	-10350
رتد	-10351
رضى	-10352
رعي	-10353
رفه	-10354
ريا	-10355
زاز	-10356
سبي	-10357
سلة	-10358
سمة	-10359
سمى	-10360
شتا	-10361
شمع	-10362
صاة	-10363
صار	-10364
صلة	-10365
صيب	-10366
ضاب	-10367
ضعت	-10368
طني	-10369
ظته	-10370
عنه	-10371
غين	-10372
فوظ	-10373
قرة	-10374
قلق	-10375
كشف	-10376
لقت	-10377
لقي	-10378
لين	-10379
مري	-10380
موه	-10381
نظر	-10382
نفت	-10383
نهد	-10384
وهن	-10385
▁أش	-10386
▁حب	-10387
▁حش	-10388
▁رخ	-10389
▁زي	-10390
▁سع	-10391
▁سو	-10392
▁ظن	-10393
▁غا	-10394
▁غط	-10395
▁غي	-10396
▁كو	-10397
****	-10398
ائره	-10399
اران	-10400
انيه	-10401
بيوت	-10402
تكوا	-10403
تمين	-10404
تهبة	-10405
ثلوا	-10406
ثلين	-10407
جازي	-10408
جرها	-10409
خذها	-10410
خطار	-10411
دخان	-10412
ديبا	-10413
راجا	-10414
ربان	-10415
رديد	-10416
رضوا	-10417
زبول	-10418
زمون	-10419
سارة	-10420
سافر	-10421
ساوة	-10422
سايا	-10423
سلهم	-10424
سمون	-10425
سيين	-10426
شروا	-10427
ضدني	-10428
طمئن	-10429
عاتي	-10430
عبير	-10431
عبين	-10432
علين	-10433
عونة	-10434
فقود	-10435
كافئ	-10436
كران	-10437
كروه	-10438
كلمك	-10439
كنين	-10440
مرته	-10441
مريا	-10442
منوا	-10443
ميان	-10444
نعار	-10445
هلاك	-10446
واقي	-10447
ورين	-10448
ولكم	-10449
وليب	-10450
ونون	-10451
وييم	-10452
ياما	-10453
يشمع	-10454
ينني	-10455
ينوا	-10456
▁آمر	-10457
▁أعد	-10458
▁اسأ	-10459
▁اسب	-10460
▁اضا	-10461
▁اطف	-10462
▁امع	-10463
▁باي	-10464
▁بتع	-10465
▁بخز	-10466
▁بدد	-10467
▁برس	-10468
▁بوز	-10469
▁تاب	-10470
▁تبت	-10471
▁تجس	-10472
▁تكم	-10473
▁تهد	-10474
▁تول	-10475
▁ثقي	-10476
▁جاه	-10477
▁جرا	-10478
▁حطب	-10479
▁حقي	-10480
▁حلو	-10481
▁ختم	-10482
▁دسم	-10483
▁راك	-10484
▁رما	-10485
▁روم	-10486
▁زنت	-10487
▁سرو	-10488
▁سمي	-10489
▁سنو	-10490
▁شره	-10491
▁شفا	-10492
▁شوب	-10493
▁شوع	-10494
▁صام	-10495
▁عطش	-10496
▁علو	-10497
▁عنى	-10498
▁فتق	-10499
▁فحا	-10500
▁فسب	-10501
▁فصح	-10502
▁فلو	-10503
▁فمل	-10504
▁فيخ	-10505
▁فيش	-10506
▁فيض	-10507
▁قاض	-10508
▁قمح	-10509
▁كفت	-10510
▁لتد	-10511
▁لتر	-10512
▁لهن	-10513
▁متغ	-10514
▁مسب	-10515
▁مسم	-10516
▁نخو	-10517
▁نوء	-10518
▁هبة	-10519
▁وأر	-10520
▁وأن	-10521
▁وته	-10522
▁وثق	-10523
▁وحص	-10524
▁وذو	-10525
▁ورم	-10526
▁وعص	-10527
▁وغر	-10528
▁وفس	-10529
▁وفق	-10530
▁وفل	-10531
▁وكه	-10532
▁ولذ	-10533
▁ولع	-10534
▁ياه	-10535
▁يبت	-10536
▁يحر	-10537
▁يخف	-10538
▁يسل	-10539
▁يصر	-10540
▁يعز	-10541
▁يقو	-10542
▁يول	-10543
أكلوا	-10544
اتراس	-10545
اريعه	-10546
تمسون	-10547
جعلكم	-10548
حمدوا	-10549
دابير	-10550
ريئيل	-10551
صاياك	-10552
صدقيا	-10553
طلبون	-10554
عبدوه	-10555
فانوس	-10556
فهموا	-10557
قطعون	-10558
كونوا	-10559
نابها	-10560
نفتني	-10561
واعيد	-10562
والدة	-10563
وريون	-10564
وسيون	-10565
ياداع	-10566
يتايم	-10567
يليين	-10568
▁آكلة	-10569
▁آلات	-10570
▁آمرك	-10571
▁آمنا	-10572
▁اتفق	-10573
▁اجري	-10574
▁احمق	-10575
▁اخضر	-10576
▁ادين	-10577
▁اذبح	-10578
▁ازال	-10579
▁اسقط	-10580
▁اسير	-10581
▁اشتد	-10582
▁اشرق	-10583
▁اضاء	-10584
▁اعثر	-10585
▁اغفر	-10586
▁افسد	-10587
▁اكذب	-10588
▁اكسر	-10589
▁البن	-10590
▁التخ	-10591
▁التس	-10592
▁الذل	-10593
▁الرك	-10594
▁العز	-10595
▁الفت	-10596
▁الفل	-10597
▁المذ	-10598
▁النق	-10599
▁امتح	-10600
▁امكن	-10601
▁انني	-10602
▁اهان	-10603
▁اهود	-10604
▁بابن	-10605
▁باطن	-10606
▁بالث	-10607
▁بريء	-10608
▁بشعب	-10609
▁بصرة	-10610
▁بطلب	-10611
▁بغنى	-10612
▁بغيظ	-10613
▁بكور	-10614
▁بلوط	-10615
▁تارك	-10616
▁تحبه	-10617
▁ترفض	-10618
▁تزيد	-10619
▁تسير	-10620
▁تطول	-10621
▁تقسم	-10622
▁تمجد	-10623
▁تميت	-10624
▁تنجح	-10625
▁توقد	-10626
▁تيسا	-10627
▁ثابت	-10628
▁ثوره	-10629
▁جشور	-10630
▁جلبت	-10631
▁جلده	-10632
▁حريق	-10633
▁حزنا	-10634
▁حلمت	-10635
▁خبزك	-10636
▁ذبيح	-10637
▁ذرية	-10638
▁ذكرت	-10639
▁ذنبا	-10640
▁رافع	-10641
▁رايت	-10642
▁رباب	-10643
▁رتبة	-10644
▁رحوب	-10645
▁رمون	-10646
▁زرعه	-10647
▁زقاق	-10648
▁زناك	-10649
▁ساحل	-10650
▁ساكت	-10651
▁سبقت	-10652
▁سخطه	-10653
▁سكنت	-10654
▁سلاح	-10655
▁سماع	-10656
▁شالح	-10657
▁شرائ	-10658
▁شهاد	-10659
▁صياح	-10660
▁ضعيف	-10661
▁طيبة	-10662
▁عابد	-10663
▁عبرة	-10664
▁عتبة	-10665
▁عثني	-10666
▁عجول	-10667
▁عدله	-10668
▁عدوا	-10669
▁عروة	-10670
▁عشاء	-10671
▁عصوا	-10672
▁عظمت	-10673
▁عفرة	-10674
▁غبار	-10675
▁غناء	-10676
▁غنيا	-10677
▁فاشت	-10678
▁فالم	-10679
▁فاوص	-10680
▁فخلص	-10681
▁فذبح	-10682
▁فرحي	-10683
▁فرخي	-10684
▁فرغت	-10685
▁فرقا	-10686
▁فطرد	-10687
▁فعلة	-10688
▁فقبض	-10689
▁فلنا	-10690
▁فليح	-10691
▁فمكث	-10692
▁فنزع	-10693
▁فنوا	-10694
▁فيست	-10695
▁فيوم	-10696
▁قبلت	-10697
▁قواد	-10698
▁قيود	-10699
▁كالت	-10700
▁كالص	-10701
▁كثوب	-10702
▁كقلب	-10703
▁كنوز	-10704
▁لآكل	-10705
▁لآله	-10706
▁لامه	-10707
▁لحفظ	-10708
▁لشيء	-10709
▁لصوص	-10710
▁لغير	-10711
▁للحق	-10712
▁للكل	-10713
▁لوطا	-10714
▁ليتك	-10715
▁ليده	-10716
▁ليصل	-10717
▁مبتد	-10718
▁متوش	-10719
▁مجدل	-10720
▁محلة	-10721
▁مخرج	-10722
▁مخلص	-10723
▁مذهب	-10724
▁مريض	-10725
▁مسرة	-10726
▁مقاد	-10727
▁منتخ	-10728
▁منعت	-10729
▁موعد	-10730
▁نؤمن	-10731
▁نحوك	-10732
▁نرجع	-10733
▁نساؤ	-10734
▁نصبه	-10735
▁نطلب	-10736
▁نفخة	-10737
▁نمشي	-10738
▁نهار	-10739
▁هذين	-10740
▁هلكت	-10741
▁وأكل	-10742
▁وارف	-10743
▁وافت	-10744
▁وامش	-10745
▁واول	-10746
▁وترش	-10747
▁وثبت	-10748
▁وثلث	-10749
▁وحصر	-10750
▁وحقا	-10751
▁وصرت	-10752
▁وصلت	-10753
▁وضعه	-10754
▁وعدد	-10755
▁وعصا	-10756
▁وغدا	-10757
▁وغرس	-10758
▁وفيه	-10759
▁وقتا	-10760
▁وقلا	-10761
▁وقوي	-10762
▁ولاد	-10763
▁وللك	-10764
▁ولمس	-10765
▁ومقت	-10766
▁ووقع	-10767
▁ويده	-10768
▁ويرى	-10769
▁ويوز	-10770
▁يارد	-10771
▁يبشر	-10772
▁يبطل	-10773
▁يتقي	-10774
▁يحجز	-10775
▁يحرث	-10776
▁يحصد	-10777
▁يدان	-10778
▁يذوق	-10779
▁يزني	-10780
▁يستر	-10781
▁يسعى	-10782
▁يشدد	-10783
▁يعمد	-10784
▁يغيظ	-10785
▁يفتش	-10786
▁يفرغ	-10787
▁يفقد	-10788
▁يكذب	-10789
▁يكفي	-10790
▁يلزم	-10791
▁يلهج	-10792
▁ينال	-10793
▁ينقب	-10794
▁يهدي	-10795
▁يواش	-10796
جانبهم	-10797
طايانا	-10798
مامتين	-10799
▁أفليس	-10800
▁أمناء	-10801
▁ابتلع	-10802
▁ابصرت	-10803
▁ابنتك	-10804
▁ابواق	-10805
▁ابوكم	-10806
▁اتركك	-10807
▁اجرتي	-10808
▁اجلهم	-10809
▁احبنا	-10810
▁احسنت	-10811
▁احيني	-10812
▁اذنان	-10813
▁اذنيه	-10814
▁ارغفة	-10815
▁ارونة	-10816
▁اصعدي	-10817
▁اعدوا	-10818
▁اعشار	-10819
▁افترس	-10820
▁اكتاف	-10821
▁الاصل	-10822
▁الاكل	-10823
▁الانت	-10824
▁الثمن	-10825
▁الجيد	-10826
▁الحمد	-10827
▁الخبا	-10828
▁الخزي	-10829
▁السبب	-10830
▁الشعر	-10831
▁الصاد	-10832
▁العرض	-10833
▁القرع	-10834
▁القرى	-10835
▁الكلب	-10836
▁الكوش	-10837
▁الملا	-10838
▁الملت	-10839
▁الموص	-10840
▁النخل	-10841
▁النسر	-10842
▁النسل	-10843
▁النوم	-10844
▁امراض	-10845
▁انصبة	-10846
▁انكسر	-10847
▁اوائل	-10848
▁اوصاه	-10849
▁اوقات	-10850
▁ايادي	-10851
▁بآلات	-10852
▁برخيا	-10853
▁بنفسي	-10854
▁بينما	-10855
▁تأتون	-10856
▁تبررت	-10857
▁تتقدم	-10858
▁تحبون	-10859
▁تحتقر	-10860
▁تصنعه	-10861
▁تضرعي	-10862
▁تعرفه	-10863
▁تعطيه	-10864
▁تلميذ	-10865
▁تنتزع	-10866
▁ثابتا	-10867
▁ثيابي	-10868
▁جثثها	-10869
▁جلاله	-10870
▁جلبوع	-10871
▁جمالك	-10872
▁جنوبي	-10873
▁حانون	-10874
▁حقويك	-10875
▁حلقات	-10876
▁حماره	-10877
▁حناني	-10878
▁خابور	-10879
▁خيرات	-10880
▁دفعهم	-10881
▁دينار	-10882
▁ذبحوا	-10883
▁راجعا	-10884
▁راحاب	-10885
▁رديئة	-10886
▁ركبتي	-10887
▁سبوهم	-10888
▁سبيهم	-10889
▁ستأتي	-10890
▁سراجا	-10891
▁سريرك	-10892
▁سلاسل	-10893
▁سنابل	-10894
▁سورية	-10895
▁سيدكم	-10896
▁شمالي	-10897
▁شنعار	-10898
▁صباها	-10899
▁صلاحا	-10900
▁صنعته	-10901
▁ضيقهم	-10902
▁طاهرة	-10903
▁طعامه	-10904
▁طلبنا	-10905
▁عالما	-10906
▁عاملا	-10907
▁عبروا	-10908
▁عداوة	-10909
▁عددهن	-10910
▁عذارى	-10911
▁عورتك	-10912
▁فاحتر	-10913
▁فاخذه	-10914
▁فاسرع	-10915
▁فاقطع	-10916
▁فالله	-10917
▁فتحول	-10918
▁فتسقط	-10919
▁فتشدد	-10920
▁فتنبأ	-10921
▁فرجعت	-10922
▁فريسي	-10923
▁فسادا	-10924
▁فضربه	-10925
▁فقلنا	-10926
▁فكلمه	-10927
▁فلتكن	-10928
▁فيحيا	-10929
▁فيدخل	-10930
▁فيدفع	-10931
▁فيذهب	-10932
▁قواعد	-10933
▁قينان	-10934
▁كلمكم	-10935
▁كمينا	-10936
▁كنجوم	-10937
▁كنفسك	-10938
▁لبقية	-10939
▁لتسأل	-10940
▁لكنني	-10941
▁للبيت	-10942
▁للسيد	-10943
▁ليتجس	-10944
▁ليخبر	-10945
▁ليدفع	-10946
▁ليسجد	-10947
▁ليعرف	-10948
▁ليقدم	-10949
▁مثلكم	-10950
▁محتاج	-10951
▁مذبحي	-10952
▁مفقود	-10953
▁مقيدة	-10954
▁ملاكه	-10955
▁منحيم	-10956
▁منظره	-10957
▁نسلهم	-10958
▁ننتظر	-10959
▁هاتوا	-10960
▁وآحاز	-10961
▁وآيات	-10962
▁واجلب	-10963
▁واذكر	-10964
▁وارنم	-10965
▁واصير	-10966
▁واقبل	-10967
▁والاق	-10968
▁والصف	-10969
▁والكر	-10970
▁والمج	-10971
▁والمز	-10972
▁وامها	-10973
▁وباني	-10974
▁وتأتي	-10975
▁وتجمع	-10976
▁وتخرج	-10977
▁وترجع	-10978
▁وتسقط	-10979
▁وتشجع	-10980
▁وتفرح	-10981
▁وجاءت	-10982
▁وجدته	-10983
▁وجلست	-10984
▁وحاصر	-10985
▁وحامل	-10986
▁وحفظت	-10987
▁ودخلا	-10988
▁ودعوا	-10989
▁ودهشا	-10990
▁ورأوا	-10991
▁ورحوب	-10992
▁ورحيم	-10993
▁وزيتا	-10994
▁وسكنت	-10995
▁وشبنة	-10996
▁وشعبي	-10997
▁وشعوب	-10998
▁وعبدك	-10999
▁وكلوا	-11000
▁ولاية	-11001
▁ومئتي	-11002
▁ومواش	-11003
▁ووضعت	-11004
▁ويبيد	-11005
▁ويجلس	-11006
▁ويخجل	-11007
▁ويداه	-11008
▁ويرحض	-11009
▁ويسكن	-11010
▁وينوح	-11011
▁ويوسف	-11012
▁يبتهج	-11013
▁يترأف	-11014
▁يتقون	-11015
▁يخزون	-11016
▁يزنون	-11017
▁يساره	-11018
▁يسلمه	-11019
▁يعاقب	-11020
▁يعطون	-11021
▁يعمله	-11022
▁يفعله	-11023
▁يقيمه	-11024
▁يكرمه	-11025
▁يمتلئ	-11026
▁ينتبه	-11027
وليبامة	-11028
▁آباءهم	-11029
▁ابتدأت	-11030
▁ابيشاي	-11031
▁اتكلوا	-11032
▁اخائية	-11033
▁اخرجني	-11034
▁ادخلوا	-11035
▁اصنعوا	-11036
▁اصولها	-11037
▁اعداءه	-11038
▁اعلمكم	-11039
▁اعمالا	-11040
▁افكاره	-11041
▁اقوالا	-11042
▁اقيموا	-11043
▁الابدي	-11044
▁الاثمة	-11045
▁الاحمق	-11046
▁الازرق	-11047
▁الاعلى	-11048
▁الانفس	-11049
▁البقية	-11050
▁البلاد	-11051
▁الثروة	-11052
▁الجواب	-11053
▁الحقول	-11054
▁الخاصة	-11055
▁الدقيق	-11056
▁الراية	-11057
▁السبيل	-11058
▁السقاة	-11059
▁الشاقل	-11060
▁الصاعد	-11061
▁الضارب	-11062
▁العامل	-11063
▁العتمة	-11064
▁العراف	-11065
▁الغادر	-11066
▁الفسجة	-11067
▁القبيح	-11068
▁القرون	-11069
▁القميص	-11070
▁الكمين	-11071
▁المتسل	-11072
▁المغرب	-11073
▁المنزل	-11074
▁النجوم	-11075
▁الوحيد	-11076
▁اليفاز	-11077
▁امواله	-11078
▁انتهوا	-11079
▁انزلوا	-11080
▁انفراد	-11081
▁انقضاء	-11082
▁اهتفوا	-11083
▁ايامنا	-11084
▁باخطار	-11085
▁بالخبز	-11086
▁بالعود	-11087
▁بمشيئة	-11088
▁بناتنا	-11089
▁تخومهم	-11090
▁تذهبوا	-11091
▁ترجعوا	-11092
▁تصنعها	-11093
▁تصنعون	-11094
▁تعالوا	-11095
▁تعليمه	-11096
▁تلميذا	-11097
▁تموتون	-11098
▁ثمانين	-11099
▁جناحيه	-11100
▁خصومات	-11101
▁خطاياه	-11102
▁خطواته	-11103
▁ذنوبهم	-11104
▁طعامها	-11105
▁عاملون	-11106
▁عاملين	-11107
▁عباريم	-11108
▁عشيرته	-11109
▁عينيها	-11110
▁فطلبوا	-11111
▁فنزلوا	-11112
▁فهربوا	-11113
▁قائلات	-11114
▁كالثلج	-11115
▁كالرمل	-11116
▁كانسان	-11117
▁لابسين	-11118
▁لتقديس	-11119
▁لمحارب	-11120
▁لمعرفة	-11121
▁ليتكلم	-11122
▁مائدتي	-11123
▁مبغضين	-11124
▁مخاصمة	-11125
▁مستوية	-11126
▁مصاريع	-11127
▁مقبولة	-11128
▁منحوتة	-11129
▁واخبره	-11130
▁واخوتك	-11131
▁واطفال	-11132
▁واعطوه	-11133
▁والحجر	-11134
▁والسوا	-11135
▁والعدل	-11136
▁والقوة	-11137
▁والماء	-11138
▁والمحل	-11139
▁وانتظر	-11140
▁وبنوهم	-11141
▁وبهائم	-11142
▁وتركوا	-11143
▁وتسعون	-11144
▁وجلعاد	-11145
▁وجمهور	-11146
▁وحزقيا	-11147
▁وحملوا	-11148
▁وحملوه	-11149
▁وحينما	-11150
▁وخطايا	-11151
▁وزبديا	-11152
▁وسرجها	-11153
▁وشبعوا	-11154
▁وقتلوه	-11155
▁ولولوا	-11156
▁وملكها	-11157
▁ويبارك	-11158
▁ويتسلط	-11159
▁ويضعون	-11160
▁يأخذوا	-11161
▁يستريح	-11162
▁يشتكون	-11163
▁يصدقوا	-11164
▁يصومون	-11165
▁يطردون	-11166
▁يطلبوا	-11167
▁يعطينا	-11168
▁يعطيها	-11169
▁يمسكوه	-11170
▁ينقذنا	-11171
لسطينيين	-11172
يونانيين	-11173
▁ألعازار	-11174
▁اتقيائه	-11175
▁احداهما	-11176
▁اسباطكم	-11177
▁استقبله	-11178
▁اصنامكم	-11179
▁الارغفة	-11180
▁الامتعة	-11181
▁البستان	-11182
▁الحلقات	-11183
▁الدائرة	-11184
▁الرسائل	-11185
▁الزوبعة	-11186
▁الصغيرة	-11187
▁العاصفة	-11188
▁العظائم	-11189
▁العموني	-11190
▁القضبان	-11191
▁الكرامة	-11192
▁المتمرد	-11193
▁المذابح	-11194
▁المرحضة	-11195
▁المولود	-11196
▁الناصرة	-11197
▁اولادكم	-11198
▁اولادهم	-11199
▁اياديهم	-11200
▁بالتمام	-11201
▁بقلوبهم	-11202
▁تتكلمون	-11203
▁ترتاعوا	-11204
▁تعملونه	-11205
▁ثيابهما	-11206
▁رجاساتك	-11207
▁سمعتموه	-11208
▁فاجابهم	-11209
▁فاعطاها	-11210
▁فاعطاهم	-11211
▁فتقدموا	-11212
▁لآبائكم	-11213
▁لدانيال	-11214
▁للناموس	-11215
▁ليذهبوا	-11216
▁ليصعدوا	-11217
▁لينظروا	-11218
▁متمثلين	-11219
▁مقابلهم	-11220
▁مهللئيل	-11221
▁وآباؤنا	-11222
▁واحرقوا	-11223
▁وارجعوا	-11224
▁واسمعوا	-11225
▁والباقي	-11226
▁والحكمة	-11227
▁والرابع	-11228
▁والرحمة	-11229
▁والرفوش	-11230
▁والسحرة	-11231
▁والسلام	-11232
▁والطاهر	-11233
▁والطيور	-11234
▁والكاهن	-11235
▁والكلمة	-11236
▁والهلاك	-11237
▁وانبياء	-11238
▁وبناتكم	-11239
▁وتقولون	-11240
▁وتكلموا	-11241
▁وثمانون	-11242
▁ورؤساؤه	-11243
▁وزبولون	-11244
▁وسكانها	-11245
▁وعوارضه	-11246
▁وفرسانه	-11247
▁ونفتالي	-11248
▁ويخافون	-11249
▁ويربعام	-11250
▁ويرجعوا	-11251
▁ويعملون	-11252
▁استفانوس	-11253
▁اكتنفتني	-11254
▁التماثيل	-11255
▁التيماني	-11256
▁الحصادين	-11257
▁الشونمية	-11258
▁الكرامين	-11259
▁المدعوين	-11260
▁المستهزئ	-11261
▁بالاعمال	-11262
▁شألتيئيل	-11263
▁فاجتمعوا	-11264
▁فبالأولى	-11265
▁لتمتلكها	-11266
▁محرقاتكم	-11267
▁والاولاد	-11268
▁والايمان	-11269
▁والكبشين	-11270
▁واندراوس	-11271
▁وبجانبهم	-11272
▁وسكائبهن	-11273
▁وشهاداته	-11274
▁وقاعدتها	-11275
▁وقضبانها	-11276
▁ويوحانان	-11277
▁ويوزاباد	-11278
▁يستهزئون	-11279
▁اليزرعيلي	-11280
▁لتمتلكوها	-11281
▁والجاديين	-11282
▁المستكبرين	-11283
▁الرأوبينيين	-11284
▁والكنعانيين	-11285
أم	-11286
تئ	-11287
تس	-11288
ثث	-11289
سع	-11290
شك	-11291
طأ	-11292
عو	-11293
فذ	-11294
مخ	-11295
نز	-11296
أخر	-11297
ؤال	-11298
ؤتى	-11299
ؤدب	-11300
ؤسس	-11301
ئكم	-11302
ئير	-11303
ادف	-11304
افل	-11305
باي	-11306
برك	-11307
تكا	-11308
ثمة	-11309
جاة	-11310
جلي	-11311
جند	-11312
جوز	-11313
جول	-11314
حال	-11315
حزح	-11316
حمل	-11317
حيي	-11318
داق	-11319
ذار	-11320
ذلل	-11321
رتم	-11322
رته	-11323
رجم	-11324
رقي	-11325
رمة	-11326
ريض	-11327
رين	-11328
زرا	-11329
زنت	-11330
زيب	-11331
ساة	-11332
سنا	-11333
شاة	-11334
شاط	-11335
صيع	-11336
صيل	-11337
ضيع	-11338
طبغ	-11339
طمت	-11340
طيء	-11341
ظمة	-11342
عاج	-11343
عبة	-11344
عدو	-11345
علا	-11346
علب	-11347
غيث	-11348
فاح	-11349
قان	-11350
قرت	-11351
قنا	-11352
كاي	-11353
كرن	-11354
لبث	-11355
لبن	-11356
لوك	-11357
ليل	-11358
متي	-11359
ميه	-11360
نكم	-11361
هده	-11362
واك	-11363
وبه	-11364
وخذ	-11365
وسم	-11366
وعن	-11367
ولى	-11368
يئة	-11369
يشد	-11370
يشع	-11371
يكم	-11372
▁اؤ	-11373
▁تظ	-11374
▁رش	-11375
▁رق	-11376
▁زن	-11377
▁شت	-11378
▁ضي	-11379
▁غم	-11380
▁فو	-11381
▁نو	-11382
اباة	-11383
اتهم	-11384
ادوا	-11385
اروخ	-11386
اعدة	-11387
الاق	-11388
الفة	-11389
اموا	-11390
انين	-11391
بائس	-11392
باته	-11393
بادة	-11394
بلين	-11395
بيبي	-11396
بيون	-11397
تكاف	-11398
تنجس	-11399
جبار	-11400
جديد	-11401
جرون	-11402
جوان	-11403
جيال	-11404
خاطئ	-11405
خيكس	-11406
داثا	-11407
دبون	-11408
ددها	-11409
دينا	-11410
ذهبي	-11411
راسا	-11412
ربتي	-11413
رحيا	-11414
زموا	-11415
زنون	-11416
زواج	-11417
ساني	-11418
ستقي	-11419
سموا	-11420
شتري	-11421
شتغل	-11422
شورة	-11423
صابة	-11424
صافة	-11425
صرين	-11426
صمون	-11427
صيهم	-11428
طاعة	-11429
طفين	-11430
طهير	-11431
ظماء	-11432
ظهرت	-11433
عاتك	-11434
عاوي	-11435
عطيه	-11436
عنات	-11437
فايا	-11438
قذني	-11439
قيني	-11440
كبور	-11441
كتهم	-11442
كمته	-11443
لاصي	-11444
ماتي	-11445
ماسا	-11446
مهما	-11447
ميرة	-11448
ناكم	-11449
نبية	-11450
نتنا	-11451
نثوس	-11452
هوان	-11453
وبيم	-11454
وثام	-11455
وجاع	-11456
وجون	-11457
وحشة	-11458
وديم	-11459
وعون	-11460
وفون	-11461
ويين	-11462
ياتك	-11463
ياكل	-11464
يبون	-11465
يتام	-11466
يلبس	-11467
يناي	-11468
▁أعن	-11469
▁احي	-11470
▁اخش	-11471
▁اعض	-11472
▁اقض	-11473
▁انص	-11474
▁باذ	-11475
▁بحم	-11476
▁بذن	-11477
▁بمر	-11478
▁بمس	-11479
▁بمك	-11480
▁تات	-11481
▁تصر	-11482
▁تعر	-11483
▁تقي	-11484
▁تمي	-11485
▁تنط	-11486
▁توج	-11487
▁جاز	-11488
▁جبا	-11489
▁جرت	-11490
▁جمي	-11491
▁حبة	-11492
▁حدي	-11493
▁حذا	-11494
▁حوش	-11495
▁خذه	-11496
▁خطر	-11497
▁دمي	-11498
▁رأي	-11499
▁رام	-11500
▁ربح	-11501
▁رذل	-11502
▁زيف	-11503
▁سوى	-11504
▁شدد	-11505
▁شفة	-11506
▁شهي	-11507
▁طار	-11508
▁طين	-11509
▁ظله	-11510
▁غشا	-11511
▁فاخ	-11512
▁فتى	-11513
▁فرآ	-11514
▁فشد	-11515
▁فشق	-11516
▁فصر	-11517
▁فقح	-11518
▁قبض	-11519
▁قدي	-11520
▁قسي	-11521
▁قلا	-11522
▁كجن	-11523
▁كعب	-11524
▁كمل	-11525
▁كنع	-11526
▁لاي	-11527
▁لتح	-11528
▁لحن	-11529
▁لصق	-11530
▁لنس	-11531
▁مجر	-11532
▁محي	-11533
▁مرش	-11534
▁مسك	-11535
▁مصغ	-11536
▁مطل	-11537
▁معص	-11538
▁منج	-11539
▁موث	-11540
▁نبا	-11541
▁نقض	-11542
▁نوف	-11543
▁وأخ	-11544
▁وأه	-11545
▁وبم	-11546
▁وخط	-11547
▁ورس	-11548
▁ورك	-11549
▁وشق	-11550
▁وطي	-11551
▁وعس	-11552
▁وفخ	-11553
▁وقط	-11554
▁ونب	-11555
▁وهب	-11556
▁ياع	-11557
▁يثر	-11558
▁يحو	-11559
▁يزل	-11560
▁يسد	-11561
▁يسع	-11562
▁يضر	-11563
▁يقم	-11564
▁يكم	-11565
▁يمي	-11566
▁ينط	-11567
ائرهم	-11568
ائلين	-11569
اركون	-11570
البين	-11571
بتهاج	-11572
بهيمة	-11573
تاعوا	-11574
تيهما	-11575
حانان	-11576
دادون	-11577
رائين	-11578
رابحة	-11579
زاباد	-11580
صاداق	-11581
قدمين	-11582
ناؤون	-11583
نادهم	-11584
نتينا	-11585
نجسوا	-11586
هادات	-11587
هارته	-11588
وكلون	-11589
ولادة	-11590
وناني	-11591
يهودي	-11592
▁أتيا	-11593
▁أصعد	-11594
▁أفان	-11595
▁ابشر	-11596
▁ابقى	-11597
▁ابيب	-11598
▁اتان	-11599
▁اجاج	-11600
▁اجلك	-11601
▁احبك	-11602
▁اخرس	-11603
▁اراه	-11604
▁ارفض	-11605
▁اسبح	-11606
▁اسكت	-11607
▁اشدد	-11608
▁اضطر	-11609
▁اطرد	-11610
▁اطعم	-11611
▁اعلى	-11612
▁اغاظ	-11613
▁اغلف	-11614
▁اغني	-11615
▁افيق	-11616
▁اقلع	-11617
▁التر	-11618
▁التش	-11619
▁الجش	-11620
▁الحل	-11621
▁الكف	-11622
▁المف	-11623
▁النذ	-11624
▁امرك	-11625
▁امطر	-11626
▁انسى	-11627
▁انقض	-11628
▁انهض	-11629
▁اوفر	-11630
▁ايسر	-11631
▁ايفة	-11632
▁باقي	-11633
▁ببأس	-11634
▁بخبر	-11635
▁بخبز	-11636
▁برجا	-11637
▁بريح	-11638
▁بطون	-11639
▁بقرا	-11640
▁بمسح	-11641
▁بنور	-11642
▁تؤخذ	-11643
▁تبطل	-11644
▁تبعه	-11645
▁تجده	-11646
▁تدفن	-11647
▁تركه	-11648
▁تزني	-11649
▁تسرق	-11650
▁تسعة	-11651
▁تسفك	-11652
▁تسكت	-11653
▁تشاء	-11654
▁تشبه	-11655
▁تطلع	-11656
▁تعجب	-11657
▁تغرب	-11658
▁تغرس	-11659
▁تفتح	-11660
▁تفتك	-11661
▁تفلح	-11662
▁تكره	-11663
▁تليق	-11664
▁تنذر	-11665
▁تنطق	-11666
▁تهدم	-11667
▁توبخ	-11668
▁تيبس	-11669
▁ثوبا	-11670
▁جامه	-11671
▁جفنة	-11672
▁حاضر	-11673
▁حاكم	-11674
▁حصنا	-11675
▁حضنك	-11676
▁حقلا	-11677
▁حلفا	-11678
▁خبزي	-11679
▁خزيت	-11680
▁خشبا	-11681
▁خصام	-11682
▁خفية	-11683
▁خيلا	-11684
▁دمهم	-11685
▁ديار	-11686
▁دينة	-11687
▁ذبحت	-11688
▁ذكور	-11689
▁رجمة	-11690
▁رحيم	-11691
▁رقاب	-11692
▁رماد	-11693
▁رممه	-11694
▁روحك	-11695
▁رياح	-11696
▁زرعك	-11697
▁زكري	-11698
▁زلفة	-11699
▁زورا	-11700
▁سألك	-11701
▁سالم	-11702
▁سبيت	-11703
▁سرير	-11704
▁سنبل	-11705
▁سهام	-11706
▁سيدا	-11707
▁سيفك	-11708
▁شارع	-11709
▁شقوق	-11710
▁شيشق	-11711
▁صارخ	-11712
▁صرعة	-11713
▁صغار	-11714
▁صوعن	-11715
▁طائر	-11716
▁طارد	-11717
▁ظلفا	-11718
▁عادل	-11719
▁عبثا	-11720
▁عبدة	-11721
▁عدال	-11722
▁عدلا	-11723
▁عدلك	-11724
▁عدوي	-11725
▁عسكر	-11726
▁عشرا	-11727
▁عقيق	-11728
▁عناد	-11729
▁غضبت	-11730
▁غمده	-11731
▁فأتت	-11732
▁فاحب	-11733
▁فاعد	-11734
▁فتات	-11735
▁فترى	-11736
▁فحمل	-11737
▁فراخ	-11738
▁فروع	-11739
▁فريض	-11740
▁فسار	-11741
▁ففيه	-11742
▁فقول	-11743
▁فكما	-11744
▁فليف	-11745
▁فنحن	-11746
▁قادم	-11747
▁قبلك	-11748
▁قتال	-11749
▁قرعا	-11750
▁قفوا	-11751
▁قوسه	-11752
▁كأسد	-11753
▁كاحد	-11754
▁كالث	-11755
▁كرمك	-11756
▁كعشب	-11757
▁كقول	-11758
▁كلوا	-11759
▁كوشي	-11760
▁لاهل	-11761
▁لحمك	-11762
▁لطلب	-11763
▁لعلي	-11764
▁لكنت	-11765
▁لملا	-11766
▁ليدي	-11767
▁ليقر	-11768
▁مباح	-11769
▁مخيف	-11770
▁مسحه	-11771
▁مصعد	-11772
▁مضاع	-11773
▁ممتل	-11774
▁نأكل	-11775
▁ناظر	-11776
▁نبني	-11777
▁نتاج	-11778
▁نحوي	-11779
▁نخلة	-11780
▁ندخل	-11781
▁نزعت	-11782
▁نعبد	-11783
▁نقبل	-11784
▁نكرز	-11785
▁نومه	-11786
▁هاتي	-11787
▁هيبة	-11788
▁واجل	-11789
▁وارا	-11790
▁واصغ	-11791
▁وامد	-11792
▁وانك	-11793
▁واني	-11794
▁وبكر	-11795
▁وتمر	-11796
▁وتنا	-11797
▁وتين	-11798
▁وحقك	-11799
▁وحلق	-11800
▁وحور	-11801
▁وحية	-11802
▁وحيد	-11803
▁وختم	-11804
▁وخلص	-11805
▁ودان	-11806
▁ودهن	-11807
▁وذكر	-11808
▁ورام	-11809
▁وزرع	-11810
▁وزهر	-11811
▁وسبي	-11812
▁وسجف	-11813
▁وسكي	-11814
▁وسمك	-11815
▁وشتي	-11816
▁وصور	-11817
▁وضيق	-11818
▁وطوب	-11819
▁وطول	-11820
▁وظلم	-11821
▁وعاي	-11822
▁وعود	-11823
▁وكوز	-11824
▁ولبا	-11825
▁ولود	-11826
▁ولول	-11827
▁ولير	-11828
▁ولين	-11829
▁وهود	-11830
▁ويرش	-11831
▁ويسم	-11832
▁ويشق	-11833
▁ويصب	-11834
▁ويضل	-11835
▁يبسط	-11836
▁يجدف	-11837
▁يجسر	-11838
▁يجلب	-11839
▁يجوز	-11840
▁يحرس	-11841
▁يحلف	-11842
▁يخطف	-11843
▁يداك	-11844
▁يداه	-11845
▁يذوب	-11846
▁يصدق	-11847
▁يصفح	-11848
▁يطير	-11849
▁يعدم	-11850
▁يعرض	-11851
▁يفلت	-11852
▁يقين	-11853
▁يلعن	-11854
▁ينام	-11855
▁ينفخ	-11856
▁يهتف	-11857
شتاروث	-11858
لاميذي	-11859
يتموني	-11860
▁آباؤه	-11861
▁أرأيت	-11862
▁ابتهج	-11863
▁ابنان	-11864
▁ابواه	-11865
▁ابوها	-11866
▁اتعاب	-11867
▁احاطت	-11868
▁احترق	-11869
▁اخبرت	-11870
▁اخبرك	-11871
▁اخرجه	-11872
▁اخوكم	-11873
▁ادعوا	-11874
▁ادوات	-11875
▁اذنبت	-11876
▁اذنهم	-11877
▁اراضي	-11878
▁اراكم	-11879
▁ارامل	-11880
▁ارتخت	-11881
▁ارتعب	-11882
▁ارنان	-11883
▁اسافل	-11884
▁استهز	-11885
▁اسلمه	-11886
▁اشراف	-11887
▁اشرقت	-11888
▁اصابه	-11889
▁اصغوا	-11890
▁اصلبه	-11891
▁اعطنا	-11892
▁اعياد	-11893
▁اغتاظ	-11894
▁اغتسل	-11895
▁افتكر	-11896
▁اقيمه	-11897
▁اكلها	-11898
▁الاجن	-11899
▁الاخت	-11900
▁البرج	-11901
▁التبن	-11902
▁الجبا	-11903
▁الجبة	-11904
▁الجنس	-11905
▁الخاد	-11906
▁الختم	-11907
▁الذنب	-11908
▁الرأي	-11909
▁السرو	-11910
▁الشكر	-11911
▁الصحي	-11912
▁العزف	-11913
▁العصي	-11914
▁العمق	-11915
▁العنب	-11916
▁الغاب	-11917
▁الفائ	-11918
▁القوا	-11919
▁المجن	-11920
▁المحر	-11921
▁المقب	-11922
▁النظر	-11923
▁النوح	-11924
▁الهها	-11925
▁الوعد	-11926
▁امرتك	-11927
▁امرهم	-11928
▁امينة	-11929
▁انادي	-11930
▁انتصب	-11931
▁اوتاد	-11932
▁اوجاع	-11933
▁بآذان	-11934
▁باصنا	-11935
▁بافوا	-11936
▁بتسبي	-11937
▁بثلاث	-11938
▁بثياب	-11939
▁بحائط	-11940
▁بحيرة	-11941
▁بخاتم	-11942
▁بربنا	-11943
▁بطنها	-11944
▁بعدلك	-11945
▁بقضيب	-11946
▁بناها	-11947
▁بنعمة	-11948
▁بنفسك	-11949
▁بنيها	-11950
▁بهتاف	-11951
▁بوجهك	-11952
▁بيدكم	-11953
▁بيدهم	-11954
▁تبتهج	-11955
▁تحبوا	-11956
▁تحولت	-11957
▁ترابا	-11958
▁تركنا	-11959
▁ترنمي	-11960
▁تقدمت	-11961
▁تلاحظ	-11962
▁تمموا	-11963
▁ثالثا	-11964
▁ثلاثا	-11965
▁جعلني	-11966
▁حاريم	-11967
▁حاملة	-11968
▁حراسا	-11969
▁حزينا	-11970
▁حفظوا	-11971
▁خليقة	-11972
▁دعاكم	-11973
▁دعواه	-11974
▁دعيتم	-11975
▁ديبون	-11976
▁ذراعي	-11977
▁ذكرهم	-11978
▁راحتي	-11979
▁رجاله	-11980
▁زلزلة	-11981
▁شرفاء	-11982
▁شفتاي	-11983
▁شفتيك	-11984
▁شكنيا	-11985
▁شلميا	-11986
▁صانعه	-11987
▁صلوات	-11988
▁ضعفاء	-11989
▁ظاهرا	-11990
▁عادلة	-11991
▁عاصفة	-11992
▁عجيبة	-11993
▁عرفتم	-11994
▁عصيون	-11995
▁عميقة	-11996
▁عينان	-11997
▁فاسكن	-11998
▁فاقبل	-11999
▁فانكر	-12000
▁فبادر	-12001
▁فتحنن	-12002
▁فتخرج	-12003
▁فتعجب	-12004
▁فتفعل	-12005
▁فتقطع	-12006
▁فحارب	-12007
▁فرفعت	-12008
▁فسمعت	-12009
▁فضتهم	-12010
▁فطوبى	-12011
▁فعلته	-12012
▁فعلها	-12013
▁فليعط	-12014
▁فمضوا	-12015
▁فهمني	-12016
▁فوقفت	-12017
▁فيصعد	-12018
▁فيطهر	-12019
▁فيهما	-12020
▁قبلكم	-12021
▁قيافا	-12022
▁كاننا	-12023
▁كداود	-12024
▁كسحاب	-12025
▁لاجلي	-12026
▁لاخيك	-12027
▁لخلاص	-12028
▁لرئيس	-12029
▁لطيور	-12030
▁لكورش	-12031
▁للارض	-12032
▁للجسد	-12033
▁للسيف	-12034
▁للمطر	-12035
▁لمعان	-12036
▁لنسلك	-12037
▁لوحين	-12038
▁لوطان	-12039
▁ليأتي	-12040
▁ليخرج	-12041
▁ليدخل	-12042
▁ليدهم	-12043
▁ليصلب	-12044
▁ليطلب	-12045
▁ليقيم	-12046
▁ليهلك	-12047
▁متسرب	-12048
▁مجنون	-12049
▁مجيئك	-12050
▁محتقر	-12051
▁محرقا	-12052
▁مسكنك	-12053
▁مصنوع	-12054
▁مصيبة	-12055
▁معصرة	-12056
▁معصية	-12057
▁مقدسه	-12058
▁ملابس	-12059
▁ملاكي	-12060
▁منطقة	-12061
▁موائد	-12062
▁موضعه	-12063
▁موطئا	-12064
▁موهبة	-12065
▁ميعاد	-12066
▁نحميا	-12067
▁نذوري	-12068
▁نياما	-12069
▁هاتين	-12070
▁وآلهة	-12071
▁وابغض	-12072
▁واجلس	-12073
▁واسما	-12074
▁واصرخ	-12075
▁واعبر	-12076
▁واقفة	-12077
▁والحا	-12078
▁والشب	-12079
▁واليا	-12080
▁وامتك	-12081
▁وانضم	-12082
▁وبالج	-12083
▁وبهاء	-12084
▁وبهذا	-12085
▁وبيتك	-12086
▁وتخرب	-12087
▁وتزوج	-12088
▁وتسمع	-12089
▁وتعرف	-12090
▁وتقدس	-12091
▁وتمسح	-12092
▁وتيوس	-12093
▁وجلود	-12094
▁وجنوب	-12095
▁وحبلت	-12096
▁ورجعت	-12097
▁وزارح	-12098
▁وسبعا	-12099
▁وسطنا	-12100
▁وشريع	-12101
▁وشكيم	-12102
▁وصرير	-12103
▁وغنما	-12104
▁وفاته	-12105
▁وقدوس	-12106
▁ولئلا	-12107
▁ولاوي	-12108
▁ولحمي	-12109
▁ولهذا	-12110
▁وماتت	-12111
▁ومهما	-12112
▁ونخيل	-12113
▁ونسلك	-12114
▁ويترك	-12115
▁ويذهب	-12116
▁ويغمس	-12117
▁ويقطع	-12118
▁ويكثر	-12119
▁ويلبس	-12120
▁ويوآب	-12121
▁يابين	-12122
▁يبتلع	-12123
▁يتحول	-12124
▁يجتمع	-12125
▁يخاطب	-12126
▁يدعوه	-12127
▁يزداد	-12128
▁يساعد	-12129
▁يسيرا	-12130
▁يضعون	-12131
▁يطلبه	-12132
▁يلازم	-12133
▁يلتفت	-12134
▁ينتفع	-12135
الونيكي	-12136
عبرانية	-12137
▁آثامهم	-12138
▁ابصروا	-12139
▁ابيهما	-12140
▁احرارا	-12141
▁احسانا	-12142
▁احكامه	-12143
▁احملوا	-12144
▁اخبرنا	-12145
▁اخذتها	-12146
▁اذكرني	-12147
▁اسألوا	-12148
▁اسرعوا	-12149
▁اشتروا	-12150
▁اشقلون	-12151
▁اعبدوا	-12152
▁اعبروا	-12153
▁اغنياء	-12154
▁اكلمكم	-12155
▁الآتين	-12156
▁الاخرس	-12157
▁الازقة	-12158
▁الاساس	-12159
▁الاسرى	-12160
▁البائس	-12161
▁التجار	-12162
▁الجلوس	-12163
▁الحراس	-12164
▁الحصون	-12165
▁الحمام	-12166
▁الخاتم	-12167
▁الخروج	-12168
▁الرجمة	-12169
▁الرقبة	-12170
▁السطوح	-12171
▁الشبان	-12172
▁الشهور	-12173
▁العالي	-12174
▁العتبة	-12175
▁العجين	-12176
▁الغمام	-12177
▁الفهيم	-12178
▁القضاة	-12179
▁القورح	-12180
▁القيني	-12181
▁الكائن	-12182
▁الكباش	-12183
▁اللباس	-12184
▁اللتين	-12185
▁المؤخر	-12186
▁المخدع	-12187
▁المعطي	-12188
▁المعلم	-12189
▁الهضاب	-12190
▁الوسطى	-12191
▁اليسرى	-12192
▁امسكوا	-12193
▁انفتحت	-12194
▁انقطعت	-12195
▁اوصاكم	-12196
▁اوصانا	-12197
▁ايامكم	-12198
▁ايامهم	-12199
▁ايمانا	-12200
▁باسماء	-12201
▁بالجسد	-12202
▁بالوبإ	-12203
▁بامانة	-12204
▁بتوئيل	-12205
▁بجانبه	-12206
▁بخلاصك	-12207
▁بذبائح	-12208
▁بسببكم	-12209
▁بسلاسل	-12210
▁بصلئيل	-12211
▁بعضهما	-12212
▁بعظائم	-12213
▁بعينيك	-12214
▁بمرارة	-12215
▁بهائمك	-12216
▁بيتشمس	-12217
▁تجعلوا	-12218
▁تخرجوا	-12219
▁تدخلون	-12220
▁تذكرون	-12221
▁تسبيحه	-12222
▁تشددوا	-12223
▁تصدقون	-12224
▁تعبيره	-12225
▁تعرفني	-12226
▁تفكرون	-12227
▁تموتوا	-12228
▁تنظران	-12229
▁تيخيكس	-12230
▁جمهورا	-12231
▁حلقتين	-12232
▁حواليك	-12233
▁حياتهم	-12234
▁خلاصنا	-12235
▁سائرون	-12236
▁ساكنين	-12237
▁سمعناه	-12238
▁شاهدين	-12239
▁عريانة	-12240
▁عظامهم	-12241
▁عملتها	-12242
▁فالقوا	-12243
▁فبماذا	-12244
▁فدعاهم	-12245
▁فدفعهم	-12246
▁فذهبوا	-12247
▁فرفعوا	-12248
▁فسكتوا	-12249
▁فشفاهم	-12250
▁فضربهم	-12251
▁ففعلوا	-12252
▁فكونوا	-12253
▁فنوئيل	-12254
▁كلامهم	-12255
▁لارميا	-12256
▁لبالاق	-12257
▁لجدعون	-12258
▁لسمعان	-12259
▁لصدقيا	-12260
▁لغلامه	-12261
▁للابان	-12262
▁للخلاص	-12263
▁للشعوب	-12264
▁للمسكن	-12265
▁للملوك	-12266
▁للهلاك	-12267
▁ليحارب	-12268
▁مباركة	-12269
▁مراحمه	-12270
▁مساكين	-12271
▁مسبوكة	-12272
▁مستطاع	-12273
▁مطروحة	-12274
▁معونتي	-12275
▁مغفورة	-12276
▁مفتوحة	-12277
▁مقاومي	-12278
▁ملتهبة	-12279
▁ميثاقا	-12280
▁نستطيع	-12281
▁واخرجت	-12282
▁واخوتي	-12283
▁واكلوا	-12284
▁والجبل	-12285
▁والجرج	-12286
▁والسهل	-12287
▁والعرج	-12288
▁والعود	-12289
▁والفرس	-12290
▁والمست	-12291
▁والنار	-12292
▁وامتعة	-12293
▁وانتهر	-12294
▁وانصرف	-12295
▁وانظري	-12296
▁وبذراع	-12297
▁وتبتهج	-12298
▁وتوبال	-12299
▁وحراسة	-12300
▁وحصرون	-12301
▁وسمعان	-12302
▁وشربيا	-12303
▁وكسروا	-12304
▁ولنسلك	-12305
▁ومرسلا	-12306
▁وهدموا	-12307
▁ويبنون	-12308
▁ويرميا	-12309
▁ويعطيه	-12310
▁ويوئيل	-12311
▁يبيعون	-12312
▁يتركون	-12313
▁يتوبوا	-12314
▁يثبتوا	-12315
▁يجلسون	-12316
▁يحيئيل	-12317
▁يخبرون	-12318
▁يستعبد	-12319
▁يشبعون	-12320
▁يعطيهم	-12321
▁يعملها	-12322
▁يعودون	-12323
▁يفكرون	-12324
▁يقبلني	-12325
▁يقتلوا	-12326
▁يقدموا	-12327
▁يلبسون	-12328
▁يمجدون	-12329
▁يوقدون	-12330
▁ألسنتهم	-12331
▁ابوابها	-12332
▁اثمارها	-12333
▁اخينوعم	-12334
▁ارسلتني	-12335
▁ارسلتهم	-12336
▁استقامة	-12337
▁اسوارها	-12338
▁اطفالهم	-12339
▁اعينهما	-12340
▁الاجانب	-12341
▁الاجنبي	-12342
▁الاحسان	-12343
▁الاعزاء	-12344
▁الاقيسة	-12345
▁الامانة	-12346
▁البهيمة	-12347
▁الترديد	-12348
▁التوبيخ	-12349
▁الجامعة	-12350
▁الخرفان	-12351
▁السارية	-12352
▁السنابل	-12353
▁الضعفاء	-12354
▁الطبيعة	-12355
▁العتيدة	-12356
▁العجائب	-12357
▁العطشان	-12358
▁القاعدة	-12359
▁الكواكب	-12360
▁اللعنات	-12361
▁المخازن	-12362
▁المشقات	-12363
▁المضروب	-12364
▁المعسكر	-12365
▁المعصية	-12366
▁المغنون	-12367
▁المنافق	-12368
▁المنفصل	-12369
▁النهرين	-12370
▁الولادة	-12371
▁اليبوسي	-12372
▁اوصيتهم	-12373
▁بالأولى	-12374
▁بالخلاف	-12375
▁بانفسهم	-12376
▁بطهارته	-12377
▁تحاربوا	-12378
▁تعرفونه	-12379
▁جمهورها	-12380
▁عثنيئيل	-12381
▁فارسلهم	-12382
▁فانتهره	-12383
▁كورنثوس	-12384
▁لافرايم	-12385
▁للاوثان	-12386
▁للايقاد	-12387
▁للفقراء	-12388
▁للكنائس	-12389
▁ليربعام	-12390
▁ليقتلوه	-12391
▁متوشالح	-12392
▁مركباته	-12393
▁معاصينا	-12394
▁واخذوها	-12395
▁وادخلوا	-12396
▁وارجعهم	-12397
▁وارسلها	-12398
▁وارسلهم	-12399
▁واصعدوه	-12400
▁والبهاء	-12401
▁والجمال	-12402
▁والغطاء	-12403
▁والوصية	-12404
▁واوصاهم	-12405
▁وتماثيل	-12406
▁وحاربوا	-12407
▁وضربوها	-12408
▁وعزيئيل	-12409
▁وفرسانا	-12410
▁ومستقيم	-12411
▁ونساؤهم	-12412
▁ووضعوها	-12413
▁ويأكلون	-12414
▁ويريموث	-12415
▁ويعيئيل	-12416
▁يرحمئيل	-12417
▁ابيناداب	-12418
▁الاربعين	-12419
▁الارجوان	-12420
▁الاغنياء	-12421
▁البناؤون	-12422
▁السامعين	-12423
▁العاملين	-12424
▁الغادرين	-12425
▁الكثيرين	-12426
▁الكنعاني	-12427
▁المتكئين	-12428
▁المحاكمة	-12429
▁المواعيد	-12430
▁بالانجيل	-12431
▁بالايادي	-12432
▁عميناداب	-12433
▁لتعملوها	-12434
▁للمحاربة	-12435
▁للمساكين	-12436
▁ليوناثان	-12437
▁مضايقيهم	-12438
▁وابتدأوا	-12439
▁وارتحلوا	-12440
▁والاتراس	-12441
▁والحجارة	-12442
▁والسموات	-12443
▁والفرائض	-12444
▁والمائدة	-12445
▁والمحرقة	-12446
▁والمصفاة	-12447
▁والمعرفة	-12448
▁المختارين	-12449
▁تسالونيكي	-12450
▁والبوابون	-12451
▁والنثينيم	-12452
▁وتعملونها	-12453
▁اليونانيين	-12454
▁والفريسيين	-12455
ؤل	-12456
ثه	-12457
دح	-12458
زد	-12459
غب	-12460
لط	-12461
يث	-12462
يض	-12463
ؤلؤ	-12464
اءه	-12465
ائغ	-12466
ائف	-12467
ابت	-12468
ادت	-12469
اكم	-12470
الط	-12471
الى	-12472
اهي	-12473
بتي	-12474
بعك	-12475
بلى	-12476
تاب	-12477
ثاء	-12478
ثري	-12479
جام	-12480
جاي	-12481
جتر	-12482
جدد	-12483
جست	-12484
جور	-12485
حات	-12486
حرك	-12487
حشا	-12488
حوم	-12489
حيس	-12490
حيل	-12491
خلا	-12492
خوا	-12493
درى	-12494
دري	-12495
دنا	-12496
دير	-12497
ذرت	-12498
ربط	-12499
رحى	-12500
رها	-12501
زبة	-12502
زمة	-12503
زول	-12504
ساق	-12505
سبح	-12506
ستر	-12507
سمن	-12508
سير	-12509
شفى	-12510
شوع	-12511
شيع	-12512
ضرر	-12513
ضوء	-12514
ضوع	-12515
طئة	-12516
طاف	-12517
طفة	-12518
عاب	-12519
عدي	-12520
عطش	-12521
غضة	-12522
فاع	-12523
فاق	-12524
فخة	-12525
فرا	-12526
فقت	-12527
قذه	-12528
قطة	-12529
قوم	-12530
كرة	-12531
كلة	-12532
كنه	-12533
لبة	-12534
متك	-12535
مزا	-12536
ميس	-12537
ندى	-12538
نعت	-12539
نكي	-12540
نور	-12541
وتد	-12542
وثن	-12543
ورث	-12544
وزة	-12545
وسع	-12546
وقع	-12547
ونو	-12548
وون	-12549
ياض	-12550
يتس	-12551
▁أق	-12552
▁ثل	-12553
▁حظ	-12554
▁خف	-12555
▁ذخ	-12556
▁صح	-12557
▁طو	-12558
▁نض	-12559
▁نغ	-12560
▁هب	-12561
▁هق	-12562
آبية	-12563
ائرة	-12564
اعدا	-12565
السة	-12566
المي	-12567
اليل	-12568
اليه	-12569
انته	-12570
انوح	-12571
باهم	-12572
تازا	-12573
تبدد	-12574
تروا	-12575
تفون	-12576
تلعت	-12577
تمون	-12578
جاسر	-12579
جرتك	-12580
جعهم	-12581
جلات	-12582
جوبة	-12583
جيبا	-12584
حرهم	-12585
حنية	-12586
خبين	-12587
خيلة	-12588
دائي	-12589
داية	-12590
ددان	-12591
دران	-12592
ذنبا	-12593
ذيلة	-12594
راءة	-12595
رابي	-12596
رافة	-12597
راهة	-12598
ربوه	-12599
رجوع	-12600
رعين	-12601
روسة	-12602
ريبك	-12603
ريسة	-12604
ريها	-12605
ساطة	-12606
سانا	-12607
سحقت	-12608
سكبت	-12609
سكوت	-12610
سكيب	-12611
سلين	-12612
شيرة	-12613
صادق	-12614
صنوج	-12615
ضعات	-12616
طعمة	-12617
طلعت	-12618
طلقا	-12619
ظالم	-12620
ظلمة	-12621
ظلمت	-12622
عالب	-12623
عاها	-12624
عزية	-12625
غيرة	-12626
فائس	-12627
فظوا	-12628
فظين	-12629
فقوا	-12630
فيني	-12631
فيون	-12632
قتها	-12633
قدما	-12634
قدين	-12635
قطاع	-12636
قطرة	-12637
قلاع	-12638
قلقل	-12639
قياس	-12640
قيهم	-12641
كاية	-12642
كايد	-12643
كتاب	-12644
كثير	-12645
كنوا	-12646
كواي	-12647
كيال	-12648
لاوة	-12649
لتنا	-12650
مائه	-12651
متحن	-12652
متلك	-12653
متون	-12654
مرين	-12655
مشون	-12656
ملكم	-12657
مورا	-12658
مورة	-12659
نيات	-12660
هانة	-12661
وائز	-12662
وابع	-12663
وانا	-12664
وايم	-12665
ورهم	-12666
وريا	-12667
ولاع	-12668
ويها	-12669
يائه	-12670
يانة	-12671
يتوا	-12672
يدها	-12673
يرتي	-12674
يشان	-12675
يلتك	-12676
▁أتح	-12677
▁أمل	-12678
▁أهو	-12679
▁احق	-12680
▁ارك	-12681
▁ازل	-12682
▁اسل	-12683
▁اظن	-12684
▁اكر	-12685
▁امض	-12686
▁انس	-12687
▁باف	-12688
▁ببش	-12689
▁بجل	-12690
▁بظل	-12691
▁بكى	-12692
▁بله	-12693
▁تأت	-12694
▁تتذ	-12695
▁تجر	-12696
▁تجل	-12697
▁تحي	-12698
▁تدب	-12699
▁تدر	-12700
▁تزل	-12701
▁تصب	-12702
▁تعم	-12703
▁تقس	-12704
▁تلا	-12705
▁تمن	-12706
▁تنه	-12707
▁تها	-12708
▁توا	-12709
▁جائ	-12710
▁جبر	-12711
▁جثا	-12712
▁جدع	-12713
▁جنس	-12714
▁جوز	-12715
▁حمد	-12716
▁حوا	-12717
▁خبث	-12718
▁ختن	-12719
▁خيط	-12720
▁دمك	-12721
▁دوا	-12722
▁ذبل	-12723
▁رئي	-12724
▁راب	-12725
▁رحى	-12726
▁رزز	-12727
▁رسم	-12728
▁رضا	-12729
▁رعو	-12730
▁ركض	-12731
▁رهب	-12732
▁زلا	-12733
▁زمر	-12734
▁ساع	-12735
▁سنط	-12736
▁سوق	-12737
▁شغب	-12738
▁شكل	-12739
▁صدي	-12740
▁صمت	-12741
▁صيد	-12742
▁عاج	-12743
▁عذا	-12744
▁عقد	-12745
▁عمد	-12746
▁عمه	-12747
▁عوص	-12748
▁غرت	-12749
▁غطى	-12750
▁غلف	-12751
▁فاك	-12752
▁فبك	-12753
▁فبي	-12754
▁فتخ	-12755
▁فتص	-12756
▁فجر	-12757
▁فده	-12758
▁فذل	-12759
▁فرش	-12760
▁فسق	-12761
▁فعي	-12762
▁فمز	-12763
▁فوا	-12764
▁قار	-12765
▁قرى	-12766
▁قشا	-12767
▁قضب	-12768
▁قفة	-12769
▁قمي	-12770
▁كاخ	-12771
▁كاع	-12772
▁كدر	-12773
▁كري	-12774
▁كلص	-12775
▁كوم	-12776
▁كيس	-12777
▁لتش	-12778
▁لتغ	-12779
▁لتل	-12780
▁لجر	-12781
▁لهو	-12782
▁مؤس	-12783
▁مائ	-12784
▁مدم	-12785
▁مشد	-12786
▁مصف	-12787
▁مفا	-12788
▁مفر	-12789
▁مقر	-12790
▁ملا	-12791
▁منع	-12792
▁موص	-12793
▁ناه	-12794
▁ندى	-12795
▁نوع	-12796
▁هدب	-12797
▁هيئ	-12798
▁وأس	-12799
▁واظ	-12800
▁وبي	-12801
▁وتذ	-12802
▁وتط	-12803
▁وجت	-12804
▁وذا	-12805
▁ورآ	-12806
▁وشع	-12807
▁وغط	-12808
▁وغي	-12809
▁ولخ	-12810
▁ولص	-12811
▁ومغ	-12812
▁ونز	-12813
▁ووز	-12814
▁ويث	-12815
▁يبد	-12816
▁يخر	-12817
▁يسا	-12818
▁يشد	-12819
▁يغي	-12820
▁يفي	-12821
▁يقص	-12822
▁يكس	-12823
▁يكل	-12824
▁يمن	-12825
▁يهم	-12826
آمروا	-12827
أنينة	-12828
ائهما	-12829
ابرين	-12830
باطيل	-12831
باقين	-12832
بتداء	-12833
تهجون	-12834
تواضع	-12835
جاديف	-12836
جمعون	-12837
دادوا	-12838
دودون	-12839
رازبة	-12840
رامون	-12841
ريقام	-12842
زعجهم	-12843
سابهم	-12844
صافان	-12845
صاياه	-12846
ضرعات	-12847
طلعوا	-12848
طهروا	-12849
فرسان	-12850
فكشاد	-12851
فنحيس	-12852
قيمين	-12853
كثرون	-12854
كسرون	-12855
كفيلة	-12856
لاحون	-12857
معرفة	-12858
ميئيل	-12859
وليبة	-12860
ياساف	-12861
يلوني	-12862
ينارا	-12863
▁آتية	-12864
▁أانت	-12865
▁أنوش	-12866
▁أهلك	-12867
▁أوحي	-12868
▁ابطل	-12869
▁ابيش	-12870
▁اتعب	-12871
▁احاط	-12872
▁احيا	-12873
▁اخدم	-12874
▁ارتج	-12875
▁ارتض	-12876
▁اساء	-12877
▁استر	-12878
▁اسخط	-12879
▁اسست	-12880
▁اشعر	-12881
▁اصدق	-12882
▁اعدد	-12883
▁اغضب	-12884
▁اغلظ	-12885
▁اقضي	-12886
▁الاط	-12887
▁التح	-12888
▁الحب	-12889
▁الحو	-12890
▁الزب	-12891
▁السي	-12892
▁الصر	-12893
▁الضل	-12894
▁الغم	-12895
▁القص	-12896
▁المك	-12897
▁املأ	-12898
▁اموا	-12899
▁اناث	-12900
▁انتظ	-12901
▁انذر	-12902
▁انصت	-12903
▁اهدم	-12904
▁اوجه	-12905
▁اوفي	-12906
▁اوقد	-12907
▁بادت	-12908
▁بازق	-12909
▁بافع	-12910
▁بالآ	-12911
▁بالأ	-12912
▁بالط	-12913
▁ببال	-12914
▁ببرك	-12915
▁بتعب	-12916
▁بدرج	-12917
▁بدمك	-12918
▁برئت	-12919
▁براس	-12920
▁بربا	-12921
▁بصوم	-12922
▁بعنف	-12923
▁بفمه	-12924
▁بفمي	-12925
▁بقسم	-12926
▁بموا	-12927
▁بموت	-12928
▁بنوا	-12929
▁بوضع	-12930
▁تائه	-12931
▁تباد	-12932
▁تبنا	-12933
▁تبنى	-12934
▁تتقي	-12935
▁تتلف	-12936
▁تجبر	-12937
▁تحدث	-12938
▁تحصد	-12939
▁تخما	-12940
▁تخمه	-12941
▁تراه	-12942
▁تركت	-12943
▁ترنم	-12944
▁تسعا	-12945
▁تشرق	-12946
▁تطبخ	-12947
▁تعنك	-12948
▁تعيش	-12949
▁تغفر	-12950
▁تفرغ	-12951
▁تفسد	-12952
▁تفنى	-12953
▁تفوح	-12954
▁تقرض	-12955
▁تقوع	-12956
▁تلبس	-12957
▁تنقص	-12958
▁توفة	-12959
▁توما	-12960
▁ثبتت	-12961
▁جئنا	-12962
▁جسمه	-12963
▁جعلك	-12964
▁جهاد	-12965
▁جهتي	-12966
▁جواب	-12967
▁جيلا	-12968
▁حائك	-12969
▁حابر	-12970
▁حاذق	-12971
▁حالة	-12972
▁حرمة	-12973
▁حسبت	-12974
▁حضنه	-12975
▁حلمه	-12976
▁حملت	-12977
▁خاتم	-12978
▁خاصم	-12979
▁خاطئ	-12980
▁خبزه	-12981
▁خذها	-12982
▁خصيا	-12983
▁خمسه	-12984
▁دحرج	-12985
▁دخلا	-12986
▁دعيت	-12987
▁دفعة	-12988
▁دفعه	-12989
▁دموع	-12990
▁ذئاب	-12991
▁ذابت	-12992
▁ذاتك	-12993
▁ربوة	-12994
▁رحوم	-12995
▁رشوة	-12996
▁رفضه	-12997
▁ركبت	-12998
▁روجل	-12999
▁رياء	-13000
▁زهور	-13001
▁سالع	-13002
▁سبات	-13003
▁سخطك	-13004
▁سرعة	-13005
▁سروج	-13006
▁سكبت	-13007
▁سماء	-13008
▁سيلا	-13009
▁شحمة	-13010
▁شعره	-13011
▁شفتا	-13012
▁شفته	-13013
▁صدقة	-13014
▁صديق	-13015
▁صلحا	-13016
▁صناع	-13017
▁صوما	-13018
▁ضعفت	-13019
▁ضعوا	-13020
▁ضيقة	-13021
▁طاقة	-13022
▁طالت	-13023
▁طلاق	-13024
▁ظالم	-13025
▁عاشر	-13026
▁عجرة	-13027
▁عصيت	-13028
▁عطشت	-13029
▁غراب	-13030
▁غفرت	-13031
▁غيره	-13032
▁فاتت	-13033
▁فاحص	-13034
▁فبنو	-13035
▁فبهت	-13036
▁فتحي	-13037
▁فتست	-13038
▁فدان	-13039
▁فذاك	-13040
▁فرأت	-13041
▁فسجد	-13042
▁فسخط	-13043
▁فصحا	-13044
▁فقاس	-13045
▁فكره	-13046
▁فكنت	-13047
▁فلكي	-13048
▁فناء	-13049
▁فندم	-13050
▁فنطق	-13051
▁فوقي	-13052
▁فيضع	-13053
▁فيلب	-13054
▁قالا	-13055
▁قرنا	-13056
▁قسمت	-13057
▁قصدت	-13058
▁قميص	-13059
▁قوله	-13060
▁كبيت	-13061
▁كجنة	-13062
▁كحجر	-13063
▁كرام	-13064
▁كريت	-13065
▁كسرت	-13066
▁كشعب	-13067
▁لامر	-13068
▁لايش	-13069
▁لباس	-13070
▁لترث	-13071
▁لحمل	-13072
▁لشمع	-13073
▁لصور	-13074
▁لكان	-13075
▁لكنك	-13076
▁للاث	-13077
▁للتم	-13078
▁للسا	-13079
▁لنصف	-13080
▁ليضع	-13081
▁ليعز	-13082
▁ليعي	-13083
▁مئتا	-13084
▁متمر	-13085
▁مجيب	-13086
▁مخبر	-13087
▁مذنب	-13088
▁مرضى	-13089
▁معتم	-13090
▁منفي	-13091
▁ناتئ	-13092
▁ناحت	-13093
▁نترك	-13094
▁نجوم	-13095
▁نذرت	-13096
▁نريد	-13097
▁نزول	-13098
▁نسوا	-13099
▁نشرب	-13100
▁نشكر	-13101
▁نصفه	-13102
▁نهلك	-13103
▁نوما	-13104
▁نيره	-13105
▁هدوء	-13106
▁وأتت	-13107
▁وادع	-13108
▁واسع	-13109
▁واصي	-13110
▁واطع	-13111
▁واعر	-13112
▁واكم	-13113
▁وبرك	-13114
▁وبنت	-13115
▁وبها	-13116
▁وتخم	-13117
▁وترت	-13118
▁وترد	-13119
▁وترى	-13120
▁وتقر	-13121
▁وحام	-13122
▁وخلع	-13123
▁وسبط	-13124
▁وشاخ	-13125
▁وشحم	-13126
▁وطار	-13127
▁وطنه	-13128
▁وعاء	-13129
▁وعصي	-13130
▁وفتن	-13131
▁وفضل	-13132
▁وفهم	-13133
▁وفوط	-13134
▁وقدا	-13135
▁وقدس	-13136
▁وقضا	-13137
▁وقيس	-13138
▁وكره	-13139
▁وكله	-13140
▁وكنا	-13141
▁ولاس	-13142
▁وللس	-13143
▁ولها	-13144
▁وليق	-13145
▁ومخت	-13146
▁ومرا	-13147
▁ومسح	-13148
▁ونوا	-13149
▁وهلك	-13150
▁وويل	-13151
▁ويحب	-13152
▁ويدي	-13153
▁ويفت	-13154
▁ويلت	-13155
▁ويمد	-13156
▁يامر	-13157
▁يباع	-13158
▁يبرئ	-13159
▁يبرح	-13160
▁يبرر	-13161
▁يبعد	-13162
▁يتنا	-13163
▁يحصى	-13164
▁يختن	-13165
▁يخضع	-13166
▁يذبل	-13167
▁يرجم	-13168
▁يركض	-13169
▁يسجد	-13170
▁يسفك	-13171
▁يشرق	-13172
▁يصفق	-13173
▁يضعف	-13174
▁يطفئ	-13175
▁يعبد	-13176
▁يعسر	-13177
▁يفدي	-13178
▁يفرق	-13179
▁يقلب	-13180
▁يقنع	-13181
▁يقود	-13182
▁يمتد	-13183
▁ينشئ	-13184
▁ينير	-13185
▁يهيج	-13186
▁يوبخ	-13187
▁يوصي	-13188
▁يوضع	-13189
ئيروتي	-13190
ارحيين	-13191
اساتهم	-13192
تمردين	-13193
جتمعوا	-13194
دانيين	-13195
غيظوني	-13196
ناقيين	-13197
▁آمنتم	-13198
▁آياته	-13199
▁أبلوس	-13200
▁أتينا	-13201
▁أحاكم	-13202
▁أقليل	-13203
▁ألسنة	-13204
▁ابانا	-13205
▁ابتدئ	-13206
▁ابريز	-13207
▁ابطلت	-13208
▁ابعدت	-13209
▁ابنيه	-13210
▁ابوهم	-13211
▁ابيهن	-13212
▁اتكلت	-13213
▁اتلام	-13214
▁اثقال	-13215
▁اجازي	-13216
▁اجلنا	-13217
▁اجناد	-13218
▁احتقر	-13219
▁اختبر	-13220
▁ارسلك	-13221
▁ارفعي	-13222
▁ازواج	-13223
▁اصعدت	-13224
▁اصنعه	-13225
▁اطعمة	-13226
▁اطلقك	-13227
▁اقامة	-13228
▁اقبال	-13229
▁اقراط	-13230
▁اقمصة	-13231
▁اكلنا	-13232
▁الآية	-13233
▁الاحد	-13234
▁الافس	-13235
▁الافع	-13236
▁الباك	-13237
▁البهي	-13238
▁الترس	-13239
▁التقط	-13240
▁الثمر	-13241
▁الخصم	-13242
▁الدود	-13243
▁الرهن	-13244
▁السام	-13245
▁السهم	-13246
▁الضال	-13247
▁العاج	-13248
▁العلى	-13249
▁العنا	-13250
▁العنق	-13251
▁العود	-13252
▁الغبي	-13253
▁الغيم	-13254
▁الفين	-13255
▁القذى	-13256
▁اللون	-13257
▁المخط	-13258
▁المخل	-13259
▁المرت	-13260
▁المسا	-13261
▁المظل	-13262
▁المعي	-13263
▁المغا	-13264
▁المقا	-13265
▁النوا	-13266
▁الودي	-13267
▁امرنا	-13268
▁امرني	-13269
▁امريا	-13270
▁امسكت	-13271
▁امضوا	-13272
▁املاك	-13273
▁امواج	-13274
▁انتبه	-13275
▁انتهر	-13276
▁اهوال	-13277
▁اوثان	-13278
▁اوصاك	-13279
▁ايثان	-13280
▁ايلون	-13281
▁ايليم	-13282
▁باخيه	-13283
▁باركه	-13284
▁بالرس	-13285
▁بالقد	-13286
▁بترنم	-13287
▁بحبال	-13288
▁بذنبه	-13289
▁برؤوس	-13290
▁بركات	-13291
▁بروحه	-13292
▁بستان	-13293
▁بسرعة	-13294
▁بسيوف	-13295
▁بشارة	-13296
▁بطريق	-13297
▁بقصبة	-13298
▁بقلبه	-13299
▁بكروا	-13300
▁بلدان	-13301
▁بنوهم	-13302
▁بهتوا	-13303
▁بيدها	-13304
▁بيوتك	-13305
▁تأكله	-13306
▁تتبرأ	-13307
▁تجديف	-13308
▁تحارب	-13309
▁تحتها	-13310
▁تذكري	-13311
▁تذللت	-13312
▁ترواس	-13313
▁تطلقه	-13314
▁تعزية	-13315
▁تعزيت	-13316
▁تقدمه	-13317
▁تلتقط	-13318
▁تمتنع	-13319
▁تمسوا	-13320
▁تنجست	-13321
▁تنكسر	-13322
▁توجهت	-13323
▁ثروتك	-13324
▁ثقيلا	-13325
▁جبهته	-13326
▁جعلهم	-13327
▁جليات	-13328
▁جناحي	-13329
▁جندها	-13330
▁جنوبا	-13331
▁جهارا	-13332
▁جيحون	-13333
▁حاملو	-13334
▁حدتها	-13335
▁حضرتك	-13336
▁حفروا	-13337
▁حمامة	-13338
▁حولكم	-13339
▁حولية	-13340
▁خدامه	-13341
▁خصومة	-13342
▁خيمتك	-13343
▁خيمتي	-13344
▁داخلي	-13345
▁دليلة	-13346
▁ذاهبا	-13347
▁ذنبها	-13348
▁راعيا	-13349
▁رجائي	-13350
▁رحمتي	-13351
▁رعبهم	-13352
▁رفضتم	-13353
▁روحيا	-13354
▁روحية	-13355
▁زاغوا	-13356
▁ساعير	-13357
▁سالما	-13358
▁سلكتم	-13359
▁سلكوا	-13360
▁سيأتي	-13361
▁شافاط	-13362
▁شريرا	-13363
▁شكواي	-13364
▁شوامخ	-13365
▁شيخوخ	-13366
▁صاعدا	-13367
▁صبعون	-13368
▁صفنيا	-13369
▁صناعة	-13370
▁طلبتك	-13371
▁طهارة	-13372
▁عابري	-13373
▁عاقرا	-13374
▁عاموس	-13375
▁عثروا	-13376
▁عرضها	-13377
▁عظائم	-13378
▁علمتم	-13379
▁علموا	-13380
▁عملكم	-13381
▁عمورة	-13382
▁عيونا	-13383
▁فأخذه	-13384
▁فاذكر	-13385
▁فارفع	-13386
▁فاصاب	-13387
▁فاطرح	-13388
▁فاغفر	-13389
▁فاقيم	-13390
▁فالرب	-13391
▁فانما	-13392
▁فاياه	-13393
▁فتثبت	-13394
▁فتحفظ	-13395
▁فتحمل	-13396
▁فتشوا	-13397
▁فدعوا	-13398
▁فذهبا	-13399
▁فراشك	-13400
▁فرحوا	-13401
▁فرحين	-13402
▁فرعوش	-13403
▁فرقهم	-13404
▁فقراء	-13405
▁فلهذا	-13406
▁فليست	-13407
▁فهيما	-13408
▁فوقها	-13409
▁فيأخذ	-13410
▁فيؤخذ	-13411
▁فياتي	-13412
▁فيثبت	-13413
▁فيخلص	-13414
▁فيضرب	-13415
▁فيعمل	-13416
▁فيفعل	-13417
▁فيهرب	-13418
▁قامته	-13419
▁قطعان	-13420
▁قوائم	-13421
▁قيشون	-13422
▁كاسات	-13423
▁كامدة	-13424
▁كراسي	-13425
▁كقطيع	-13426
▁كلمتي	-13427
▁لاعطي	-13428
▁لاعمل	-13429
▁لبانا	-13430
▁لتصير	-13431
▁لسارة	-13432
▁لشعبك	-13433
▁لصوته	-13434
▁لكنتم	-13435
▁للاكل	-13436
▁للدار	-13437
▁للشمس	-13438
▁للفضة	-13439
▁للمست	-13440
▁للنهب	-13441
▁لليوم	-13442
▁لملكة	-13443
▁لمولك	-13444
▁لنعرف	-13445
▁لواحد	-13446
▁لوزية	-13447
▁ليأكل	-13448
▁ليتنا	-13449
▁ليحفظ	-13450
▁ليرفع	-13451
▁ليشرب	-13452
▁ليظهر	-13453
▁ليفعل	-13454
▁مثالا	-13455
▁مثمرة	-13456
▁محبته	-13457
▁محبيك	-13458
▁محفوظ	-13459
▁مخازن	-13460
▁مدنكم	-13461
▁مديون	-13462
▁مذنبا	-13463
▁مذهبة	-13464
▁مريشة	-13465
▁مسافة	-13466
▁مستعب	-13467
▁مسرعا	-13468
▁مسكرا	-13469
▁مسكني	-13470
▁مسكين	-13471
▁مسيحك	-13472
▁مضجعك	-13473
▁مضجعه	-13474
▁مضطجع	-13475
▁مقبلا	-13476
▁مواسم	-13477
▁نازلة	-13478
▁نافلة	-13479
▁نايوت	-13480
▁نصيبي	-13481
▁نقتله	-13482
▁نيركم	-13483
▁هوانا	-13484
▁وآباء	-13485
▁وأرسل	-13486
▁وأكلت	-13487
▁وابطل	-13488
▁واثبت	-13489
▁واحكم	-13490
▁واحمل	-13491
▁واخرب	-13492
▁وارجل	-13493
▁وارضه	-13494
▁واشرب	-13495
▁واضجع	-13496
▁واعرف	-13497
▁والاع	-13498
▁والان	-13499
▁والبع	-13500
▁والحي	-13501
▁والعا	-13502
▁والقا	-13503
▁والقي	-13504
▁والما	-13505
▁والمخ	-13506
▁وامان	-13507
▁واملأ	-13508
▁وانفس	-13509
▁وباسم	-13510
▁وتصعد	-13511
▁وتطلع	-13512
▁وتعال	-13513
▁وتلبس	-13514
▁وتمسك	-13515
▁وتملك	-13516
▁وحسنة	-13517
▁وخمرك	-13518
▁وددان	-13519
▁وراقم	-13520
▁ورعدة	-13521
▁وسبوا	-13522
▁وسلمه	-13523
▁وسيدي	-13524
▁وصنعت	-13525
▁وضعته	-13526
▁وطرحت	-13527
▁وطلبت	-13528
▁وعارا	-13529
▁وعبدي	-13530
▁وعيون	-13531
▁وغنمك	-13532
▁وغيظي	-13533
▁وفارس	-13534
▁وفتحت	-13535
▁وقامت	-13536
▁وقرية	-13537
▁وقضاء	-13538
▁وقطعت	-13539
▁وقلبه	-13540
▁وقهات	-13541
▁وقوات	-13542
▁وكلمت	-13543
▁ولدتك	-13544
▁ولهيب	-13545
▁ومجدا	-13546
▁ومحبة	-13547
▁ومشير	-13548
▁وملاك	-13549
▁ونارا	-13550
▁ونجوت	-13551
▁وهذان	-13552
▁ووراء	-13553
▁وياتي	-13554
▁ويافث	-13555
▁ويتلف	-13556
▁ويسوع	-13557
▁ويشفي	-13558
▁ويعبر	-13559
▁ويعود	-13560
▁ويملأ	-13561
▁وينزل	-13562
▁ويوآخ	-13563
▁ياعيل	-13564
▁يبالي	-13565
▁يتعظم	-13566
▁يتعلم	-13567
▁يتمشى	-13568
▁يجدها	-13569
▁يجرون	-13570
▁يجعلك	-13571
▁يشتغل	-13572
▁يصطاد	-13573
▁يطالب	-13574
▁يكلمه	-13575
▁يلقون	-13576
▁يمتحن	-13577
▁ينادى	-13578
▁ينتقم	-13579
▁ينزعه	-13580
▁ينطلق	-13581
▁ينكسر	-13582
▁يوباب	-13583
برونيين	-13584
معونيين	-13585
▁آثامكم	-13586
▁ابراجا	-13587
▁ابيعزر	-13588
▁اتزعزع	-13589
▁اثبتوا	-13590
▁اثمارا	-13591
▁اثنتان	-13592
▁اجابوا	-13593
▁اجتمعت	-13594
▁اجمعين	-13595
▁احاطوا	-13596
▁احبائي	-13597
▁احشائك	-13598
▁ارحمنا	-13599
▁ارسلنا	-13600
▁ارسلها	-13601
▁استحسن	-13602
▁استطعت	-13603
▁اسلكوا	-13604
▁اشتعلت	-13605
▁اضربوا	-13606
▁اضطراب	-13607
▁اغبياء	-13608
▁اغصانا	-13609
▁افكارك	-13610
▁اقتربت	-13611
▁اقطعوا	-13612
▁اكملوا	-13613
▁الآلاف	-13614
▁الاثنا	-13615
▁الاجير	-13616
▁الاسفل	-13617
▁الاكثر	-13618
▁البرقع	-13619
▁البريء	-13620
▁البطمة	-13621
▁البنات	-13622
▁التشبي	-13623
▁التنان	-13624
▁الحرية	-13625
▁الحمرة	-13626
▁الدموع	-13627
▁الراحة	-13628
▁الرجوع	-13629
▁الرعود	-13630
▁الساحة	-13631
▁الساحل	-13632
▁الشرقي	-13633
▁الصحيح	-13634
▁الصغرى	-13635
▁الضباب	-13636
▁العبور	-13637
▁العزيز	-13638
▁الفراء	-13639
▁الفساد	-13640
▁الفعلة	-13641
▁القامة	-13642
▁القضيب	-13643
▁القطيع	-13644
▁القوات	-13645
▁القيود	-13646
▁الكوشي	-13647
▁اللئيم	-13648
▁المجيء	-13649
▁الموسم	-13650
▁الناظر	-13651
▁النذير	-13652
▁النسور	-13653
▁النعام	-13654
▁الهوان	-13655
▁الوارث	-13656
▁انشقاق	-13657
▁انقذنا	-13658
▁انقطاع	-13659
▁انهارك	-13660
▁اوصاهم	-13661
▁اولادي	-13662
▁باثنين	-13663
▁بالحلم	-13664
▁بالرجل	-13665
▁بالظلم	-13666
▁بالعتق	-13667
▁بالعدد	-13668
▁بالمكر	-13669
▁بالنبي	-13670
▁بامراض	-13671
▁بانجيل	-13672
▁ببشارة	-13673
▁بتقدمة	-13674
▁بخطيته	-13675
▁برجليه	-13676
▁برحمتك	-13677
▁بسلامة	-13678
▁بسلطان	-13679
▁بشفتيه	-13680
▁بعينيه	-13681
▁بمقدار	-13682
▁تثبتون	-13683
▁تجربون	-13684
▁تجعلون	-13685
▁تجهلوا	-13686
▁تحفظوا	-13687
▁تخطئوا	-13688
▁تذكروا	-13689
▁تذهبون	-13690
▁ترفعون	-13691
▁تركتني	-13692
▁ترونني	-13693
▁تسجدون	-13694
▁تسيرون	-13695
▁تشربون	-13696
▁تصيروا	-13697
▁تعبرون	-13698
▁تعليما	-13699
▁تقدسوا	-13700
▁تقولين	-13701
▁تكونين	-13702
▁تنكرني	-13703
▁ثروتهم	-13704
▁ثيابكم	-13705
▁جباههم	-13706
▁جعلتني	-13707
▁خائفين	-13708
▁خارجون	-13709
▁دخولهم	-13710
▁دينارا	-13711
▁ذنوبكم	-13712
▁رأيتها	-13713
▁رؤسائه	-13714
▁رفضتنا	-13715
▁رفقائه	-13716
▁روماني	-13717
▁زيتونة	-13718
▁سالكين	-13719
▁صارخين	-13720
▁صاعدون	-13721
▁صنعتها	-13722
▁طائعين	-13723
▁عجائبه	-13724
▁عشيرتي	-13725
▁فآمنوا	-13726
▁فاتكلم	-13727
▁فارتفع	-13728
▁فافعله	-13729
▁فامتلأ	-13730
▁فامسكه	-13731
▁فانحدر	-13732
▁فتراءى	-13733
▁فتكلمت	-13734
▁فحملوا	-13735
▁فضربوا	-13736
▁فقولوا	-13737
▁فمدينة	-13738
▁قرابين	-13739
▁قربانا	-13740
▁قليلون	-13741
▁قليلين	-13742
▁كالشمس	-13743
▁كثيرات	-13744
▁لآخرين	-13745
▁لاجلهم	-13746
▁لاسباط	-13747
▁لاصعاد	-13748
▁لالواح	-13749
▁لتمثال	-13750
▁لرؤساء	-13751
▁لرجاله	-13752
▁لقدميك	-13753
▁لكلامي	-13754
▁للجبال	-13755
▁للجموع	-13756
▁للخراب	-13757
▁للسكنى	-13758
▁للطريق	-13759
▁للغريب	-13760
▁ليبارك	-13761
▁مؤامرة	-13762
▁مبغضيك	-13763
▁مجمرته	-13764
▁مجمعهم	-13765
▁محاباة	-13766
▁محبوسا	-13767
▁محبيها	-13768
▁محرقته	-13769
▁مربوطا	-13770
▁مزمعين	-13771
▁مسكونة	-13772
▁مشورتي	-13773
▁مشيئتك	-13774
▁مملكتك	-13775
▁منحنية	-13776
▁مواجهة	-13777
▁نذورها	-13778
▁واتكلم	-13779
▁واخبرا	-13780
▁وارتحل	-13781
▁واصحاب	-13782
▁واصعده	-13783
▁واطلقه	-13784
▁واعطيت	-13785
▁واعمدة	-13786
▁واغتسل	-13787
▁واقمنا	-13788
▁واكثرت	-13789
▁والابن	-13790
▁والاسد	-13791
▁والبوص	-13792
▁والخبز	-13793
▁والسيف	-13794
▁والشمس	-13795
▁والنبي	-13796
▁والنور	-13797
▁وامانة	-13798
▁واوقفه	-13799
▁وايليا	-13800
▁وباتوا	-13801
▁وبقرهم	-13802
▁وبكروا	-13803
▁وتتكلم	-13804
▁وتمتلك	-13805
▁وجعلهم	-13806
▁وجعلوه	-13807
▁وجماعة	-13808
▁وحاصور	-13809
▁وحانان	-13810
▁وحبرون	-13811
▁وخافوا	-13812
▁ودعاها	-13813
▁وشمعون	-13814
▁وطلبوا	-13815
▁وطوبيا	-13816
▁وعبيدك	-13817
▁وعسايا	-13818
▁وعقرون	-13819
▁وعيناه	-13820
▁وغنيمة	-13821
▁وقاموا	-13822
▁وقتلهم	-13823
▁وقدموا	-13824
▁وقطعوا	-13825
▁وكرسيه	-13826
▁وكلموه	-13827
▁ولبنان	-13828
▁ولكنها	-13829
▁ومتنيا	-13830
▁ومراري	-13831
▁وملابس	-13832
▁وملكيا	-13833
▁ومملكة	-13834
▁وهامان	-13835
▁وهيمان	-13836
▁وياقوت	-13837
▁ويبتهج	-13838
▁ويختار	-13839
▁يأكلوا	-13840
▁ياخذون	-13841
▁يبصروا	-13842
▁يتزايد	-13843
▁يجازيك	-13844
▁يجعلون	-13845
▁يخافون	-13846
▁يخرجوا	-13847
▁يدعونه	-13848
▁يركضون	-13849
▁يزوجون	-13850
▁يستيقظ	-13851
▁يعطيني	-13852
▁يغسلون	-13853
▁يفعلها	-13854
▁يقبلوا	-13855
▁ينزعها	-13856
▁ينقذكم	-13857
▁يهلكها	-13858
▁ألياساف	-13859
▁اجتازوا	-13860
▁احتمالا	-13861
▁اختبأوا	-13862
▁اخترتها	-13863
▁ارتاعوا	-13864
▁ارفكشاد	-13865
▁استراحت	-13866
▁استعلان	-13867
▁اعداءكم	-13868
▁افواهكم	-13869
▁الآخرون	-13870
▁الآخرين	-13871
▁الآكلين	-13872
▁الاجيال	-13873
▁الاصحاب	-13874
▁الاطياب	-13875
▁الاموال	-13876
▁البداءة	-13877
▁البراري	-13878
▁البعيدة	-13879
▁البقرات	-13880
▁التاجين	-13881
▁التجربة	-13882
▁التسبيح	-13883
▁الجباية	-13884
▁الجزيرة	-13885
▁الجميلة	-13886
▁الحقيقي	-13887
▁الحماقة	-13888
▁الحمامة	-13889
▁الخارجي	-13890
▁الخزائن	-13891
▁الخزانة	-13892
▁الدعاوي	-13893
▁الزوايا	-13894
▁السبعين	-13895
▁الشديدة	-13896
▁الصندوق	-13897
▁الضيقات	-13898
▁العليقة	-13899
▁الغرفات	-13900
▁الفريسة	-13901
▁القبائل	-13902
▁القباحة	-13903
▁القداسة	-13904
▁القطعان	-13905
▁المتزوج	-13906
▁المحلات	-13907
▁المسبوك	-13908
▁المقطرة	-13909
▁الملتوي	-13910
▁المنسحق	-13911
▁المنفعة	-13912
▁الوكلاء	-13913
▁انبيائه	-13914
▁انكسروا	-13915
▁ايمانهم	-13916
▁بالبكاء	-13917
▁بالصلاة	-13918
▁بالغداة	-13919
▁باللسان	-13920
▁بامرأته	-13921
▁بجانبها	-13922
▁بمحرقات	-13923
▁بيلشاصر	-13924
▁تأكلونه	-13925
▁تحفنحيس	-13926
▁تلاميذي	-13927
▁تمتلكها	-13928
▁عشتاروث	-13929
▁فاخرجوا	-13930
▁فتأكلون	-13931
▁فتكونون	-13932
▁فيسكنون	-13933
▁فيفرحون	-13934
▁لتعلموا	-13935
▁لتنظروا	-13936
▁للتعليم	-13937
▁للثيران	-13938
▁للحكماء	-13939
▁للقائنا	-13940
▁للمفلوج	-13941
▁لمردخاي	-13942
▁لملاقاة	-13943
▁ليكهنوا	-13944
▁محرقاتك	-13945
▁مصاريعه	-13946
▁معمودية	-13947
▁هيروديا	-13948
▁واحكامي	-13949
▁واذريهم	-13950
▁واصطفوا	-13951
▁واعطاني	-13952
▁واعطيكم	-13953
▁واعلموا	-13954
▁والاخوة	-13955
▁والاربع	-13956
▁والبائس	-13957
▁والبغال	-13958
▁والثالث	-13959
▁والحياة	-13960
▁والرماد	-13961
▁والسماء	-13962
▁والصحون	-13963
▁والظلمة	-13964
▁والعالم	-13965
▁والقانة	-13966
▁والقدرة	-13967
▁والقدير	-13968
▁واللاوي	-13969
▁والمئات	-13970
▁والمسيح	-13971
▁والملوك	-13972
▁واليفلط	-13973
▁واهلكوا	-13974
▁وباركهم	-13975
▁وتخومها	-13976
▁وتسكنون	-13977
▁وتضرعوا	-13978
▁وتعجبوا	-13979
▁وضربوهم	-13980
▁وعسائيل	-13981
▁وعضائده	-13982
▁ولاولاد	-13983
▁وللغريب	-13984
▁ونثنئيل	-13985
▁ووصاياه	-13986
▁ويأخذون	-13987
▁ويجعلون	-13988
▁ويحرقون	-13989
▁ويدوثون	-13990
▁ويسكنون	-13991
▁ويغرسون	-13992
▁ويوقدون	-13993
▁يتسلطون	-13994
▁يتكلموا	-13995
▁يفتخرون	-13996
▁يهوصادق	-13997
▁اجنحتهما	-13998
▁ارتفاعها	-13999
▁افسنتينا	-14000
▁الاغبياء	-14001
▁الاقوياء	-14002
▁الجالسون	-14003
▁الجلادين	-14004
▁الخبازين	-14005
▁الشعبتين	-14006
▁الشيلوني	-14007
▁العارفين	-14008
▁العشاءين	-14009
▁العشارين	-14010
▁القادمين	-14011
▁القدوسين	-14012
▁القديسون	-14013
▁القريبين	-14014
▁المحبوبة	-14015
▁المصنوعة	-14016
▁المكفيلة	-14017
▁الممدودة	-14018
▁الموآبية	-14019
▁الموكلين	-14020
▁النازلين	-14021
▁باجنادهم	-14022
▁بخطاياهم	-14023
▁بمعمودية	-14024
▁فانصرفوا	-14025
▁قرابينهم	-14026
▁ليعبدوني	-14027
▁مفتوحتين	-14028
▁وابيجايل	-14029
▁واسماعيل	-14030
▁واعمدتها	-14031
▁والاجنبي	-14032
▁والباقون	-14033
▁والسلطان	-14034
▁والعجائب	-14035
▁والعيدان	-14036
▁والمتكلم	-14037
▁والمسكين	-14038
▁والمشايخ	-14039
▁وتشاوروا	-14040
▁وميشائيل	-14041
▁الاستقامة	-14042
▁الاموريون	-14043
▁البئيروتي	-14044
▁الجشوريين	-14045
▁الزارحيين	-14046
▁المتكبرين	-14047
▁المتكلمين	-14048
▁اليبوسيين	-14049
▁بالاكاذيب	-14050
▁ليهوياقيم	-14051
▁وابيناداب	-14052
▁والبوابين	-14053
▁المستقيمون	-14054
▁والاستقامة	-14055
▁والمعدودون	-14056
▁والكنعانيون	-14057
▁الاسرائيليون	-14058
آة	-14059
أص	-14060
أه	-14061
ؤى	-14062
تو	-14063
ثي	-14064
حس	-14065
خص	-14066
زء	-14067
ظت	-14068
ظه	-14069
غز	-14070
غه	-14071
فج	-14072
قن	-14073
كو	-14074
لى	-14075
نن	-14076
▁ً	-14077
ألم	-14078
أها	-14079
أوة	-14080
ئور	-14081
ئيا	-14082
اتي	-14083
ارز	-14084
اكة	-14085
الف	-14086
باس	-14087
باق	-14088
برة	-14089
بسط	-14090
بطة	-14091
بطت	-14092
بعت	-14093
بعل	-14094
بيض	-14095
تحن	-14096
تفع	-14097
تلة	-14098
تلس	-14099
تلي	-14100
تمم	-14101
تية	-14102
تيك	-14103
ثاق	-14104
جدة	-14105
جرا	-14106
جود	-14107
جيز	-14108
حام	-14109
حته	-14110
حضر	-14111
حقا	-14112
حقق	-14113
حلة	-14114
حلي	-14115
حمى	-14116
حنا	-14117
خره	-14118
داح	-14119
دار	-14120
دفن	-14121
ديل	-14122
راص	-14123
ردل	-14124
رفق	-14125
رقب	-14126
ركك	-14127
رنح	-14128
روع	-14129
روه	-14130
ريص	-14131
زعة	-14132
زله	-14133
زيغ	-14134
سدك	-14135
سرة	-14136
سكا	-14137
سلي	-14138
سهم	-14139
سوس	-14140
شرا	-14141
شوب	-14142
شيخ	-14143
صبا	-14144
صرك	-14145
صكم	-14146
صمت	-14147
صيم	-14148
ضاع	-14149
طيك	-14150
ظبي	-14151
ظرة	-14152
عاع	-14153
عجب	-14154
عدى	-14155
غاء	-14156
غاز	-14157
فاه	-14158
فتش	-14159
فتك	-14160
فرت	-14161
فقه	-14162
فلا	-14163
فوح	-14164
فوه	-14165
فيش	-14166
فيع	-14167
قبه	-14168
قذي	-14169
قلة	-14170
قلت	-14171
قلي	-14172
قني	-14173
كنة	-14174
كول	-14175
لاع	-14176
لبت	-14177
لها	-14178
متم	-14179
منة	-14180
ميز	-14181
نام	-14182
ندب	-14183
نيس	-14184
هرت	-14185
هوب	-14186
وآش	-14187
واش	-14188
وتا	-14189
وجا	-14190
وحر	-14191
وخي	-14192
ودخ	-14193
ورق	-14194
وسط	-14195
وسك	-14196
وسه	-14197
وضا	-14198
وفر	-14199
وفه	-14200
وكة	-14201
ياط	-14202
يرع	-14203
يسر	-14204
يصر	-14205
يوث	-14206
▁بض	-14207
▁ذر	-14208
▁ذك	-14209
▁ذل	-14210
▁رت	-14211
▁ضم	-14212
▁كآ	-14213
▁كص	-14214
▁لز	-14215
▁مآ	-14216
▁ند	-14217
▁هت	-14218
أتان	-14219
ئنون	-14220
اروت	-14221
اسية	-14222
العة	-14223
اليق	-14224
امخة	-14225
بيثة	-14226
بيحا	-14227
تاهم	-14228
ترون	-14229
تموع	-14230
تهاء	-14231
تهجي	-14232
تهين	-14233
تيبة	-14234
ثوثي	-14235
جاجة	-14236
جارب	-14237
جسوا	-14238
جعين	-14239
جورة	-14240
حلفك	-14241
حموا	-14242
حيرة	-14243
ختان	-14244
دامة	-14245
دبوا	-14246
دتان	-14247
دتنا	-14248
دونه	-14249
دياء	-14250
دياك	-14251
ذبين	-14252
ذرون	-14253
رائر	-14254
رائع	-14255
رابة	-14256
راخا	-14257
رافا	-14258
راكض	-14259
راكم	-14260
رجاء	-14261
رسهم	-14262
رضون	-14263
ركها	-14264
ركهم	-14265
ريوخ	-14266
زعوا	-14267
زقها	-14268
زيلا	-14269
سكرا	-14270
سكلا	-14271
سلسل	-14272
شاثا	-14273
شرار	-14274
شرها	-14275
صاصة	-14276
صبوا	-14277
صقون	-14278
صومة	-14279
صويه	-14280
صيبا	-14281
ضاجع	-14282
ضربة	-14283
ضرون	-14284
ضعيف	-14285
طرده	-14286
طلاق	-14287
طونه	-14288
ظلام	-14289
ظهار	-14290
عانف	-14291
عديا	-14292
عطيت	-14293
علكم	-14294
غرون	-14295
غضون	-14296
فاضل	-14297
فاعي	-14298
فاقا	-14299
فتوح	-14300
فنوا	-14301
فهمه	-14302
قاته	-14303
قتضى	-14304
قتكم	-14305
قتني	-14306
قتهم	-14307
قضيب	-14308
قطون	-14309
قلاب	-14310
قلين	-14311
كارى	-14312
كتاف	-14313
كثرك	-14314
كيين	-14315
لاقط	-14316
لبوه	-14317
لتني	-14318
لعنة	-14319
لقمة	-14320
مارا	-14321
مالا	-14322
ماوس	-14323
مسيس	-14324
مونك	-14325
مييز	-14326
نبنا	-14327
نبيا	-14328
نزير	-14329
نكسر	-14330
هارك	-14331
هدني	-14332
هماء	-14333
وارح	-14334
وازم	-14335
والا	-14336
وانى	-14337
وسين	-14338
وعية	-14339
وغاء	-14340
وكوه	-14341
وليس	-14342
ويان	-14343
يارا	-14344
يدبا	-14345
يديم	-14346
يروث	-14347
يلود	-14348
▁أبد	-14349
▁أتي	-14350
▁أسر	-14351
▁أمن	-14352
▁أهم	-14353
▁ابى	-14354
▁احذ	-14355
▁احر	-14356
▁احص	-14357
▁ارع	-14358
▁ارف	-14359
▁اسس	-14360
▁اقب	-14361
▁اكم	-14362
▁امن	-14363
▁باط	-14364
▁برأ	-14365
▁بطل	-14366
▁بمل	-14367
▁بير	-14368
▁بيع	-14369
▁تام	-14370
▁تاه	-14371
▁تتب	-14372
▁تجب	-14373
▁تحو	-14374
▁تذم	-14375
▁ترض	-14376
▁تصي	-14377
▁تعث	-14378
▁تغر	-14379
▁تفك	-14380
▁ثقب	-14381
▁ثير	-14382
▁جرز	-14383
▁جزع	-14384
▁جسم	-14385
▁جنب	-14386
▁حاش	-14387
▁حبا	-14388
▁حمة	-14389
▁حمر	-14390
▁حنط	-14391
▁دمت	-14392
▁ديا	-14393
▁ذئب	-14394
▁ذاب	-14395
▁رقد	-14396
▁زدت	-14397
▁زهر	-14398
▁ساء	-14399
▁سجد	-14400
▁سقف	-14401
▁سقو	-14402
▁سكة	-14403
▁سما	-14404
▁سمة	-14405
▁سهم	-14406
▁سوس	-14407
▁شئت	-14408
▁شبك	-14409
▁شدي	-14410
▁شرع	-14411
▁شغل	-14412
▁شور	-14413
▁صبي	-14414
▁صلح	-14415
▁ضاق	-14416
▁ضام	-14417
▁طرس	-14418
▁طعن	-14419
▁طمع	-14420
▁ظلف	-14421
▁عاش	-14422
▁عرس	-14423
▁عزك	-14424
▁علة	-14425
▁فائ	-14426
▁فتش	-14427
▁فجع	-14428
▁فحث	-14429
▁فحي	-14430
▁فرك	-14431
▁فسخ	-14432
▁فقص	-14433
▁فكف	-14434
▁فمع	-14435
▁فنس	-14436
▁فيل	-14437
▁فيم	-14438
▁قفر	-14439
▁كاف	-14440
▁كفي	-14441
▁كهن	-14442
▁كون	-14443
▁لأس	-14444
▁لاق	-14445
▁لبر	-14446
▁لتب	-14447
▁لسا	-14448
▁لشف	-14449
▁لفم	-14450
▁لقم	-14451
▁لمح	-14452
▁لود	-14453
▁مؤب	-14454
▁متا	-14455
▁مخد	-14456
▁مزد	-14457
▁مسخ	-14458
▁مصو	-14459
▁مضر	-14460
▁مضل	-14461
▁مطم	-14462
▁معت	-14463
▁مفس	-14464
▁مكد	-14465
▁مكش	-14466
▁مكم	-14467
▁موق	-14468
▁نام	-14469
▁نحت	-14470
▁نطح	-14471
▁نعل	-14472
▁نيق	-14473
▁وأح	-14474
▁وبآ	-14475
▁وبئ	-14476
▁وتث	-14477
▁وجز	-14478
▁وحم	-14479
▁ورث	-14480
▁وزي	-14481
▁وصف	-14482
▁وقو	-14483
▁ولأ	-14484
▁ولج	-14485
▁ومث	-14486
▁ونش	-14487
▁ويأ	-14488
▁ويف	-14489
▁يثب	-14490
▁يجز	-14491
▁يجل	-14492
▁يحم	-14493
▁يدن	-14494
▁يرض	-14495
▁يره	-14496
▁يزد	-14497
▁يسم	-14498
▁يشإ	-14499
▁يصب	-14500
▁يعظ	-14501
▁ينف	-14502
▁يهب	-14503
▁يهد	-14504
أجروا	-14505
ؤمنون	-14506
الحين	-14507
المون	-14508
انتهم	-14509
انيات	-14510
تتنوا	-14511
ثيرين	-14512
جارها	-14513
حافات	-14514
دعوين	-14515
دونيا	-14516
رابهم	-14517
راحوا	-14518
راعان	-14519
رنمون	-14520
زعتني	-14521
سادهم	-14522
سترخس	-14523
شاماع	-14524
صاحبه	-14525
صاياي	-14526
صدقاء	-14527
صرتين	-14528
صرخون	-14529
طاميس	-14530
غتصاب	-14531
فنيهم	-14532
فوسكم	-14533
فيلية	-14534
قيامة	-14535
كتابة	-14536
كيمات	-14537
لعومر	-14538
مائها	-14539
مانية	-14540
نطقون	-14541
وتالح	-14542
ودكية	-14543
وليآب	-14544
ياتنا	-14545
ياتها	-14546
ياثان	-14547
ياريب	-14548
▁آلام	-14549
▁أدخل	-14550
▁أسلم	-14551
▁أشهد	-14552
▁أفلم	-14553
▁ألقي	-14554
▁اؤتم	-14555
▁ابسط	-14556
▁اتون	-14557
▁اجمل	-14558
▁اجير	-14559
▁احدث	-14560
▁احزن	-14561
▁اخطئ	-14562
▁ادفن	-14563
▁اراح	-14564
▁اراك	-14565
▁ارزا	-14566
▁اسأت	-14567
▁استع	-14568
▁اسدا	-14569
▁اسرى	-14570
▁اسند	-14571
▁اشاء	-14572
▁اشار	-14573
▁اشفي	-14574
▁اصبر	-14575
▁اصفر	-14576
▁اصير	-14577
▁اضرم	-14578
▁اضعف	-14579
▁اطيب	-14580
▁اعان	-14581
▁اعتز	-14582
▁اعفو	-14583
▁اعوا	-14584
▁افتد	-14585
▁افلت	-14586
▁افني	-14587
▁اقدم	-14588
▁اقرب	-14589
▁اقرع	-14590
▁التو	-14591
▁الحظ	-14592
▁الدن	-14593
▁الزي	-14594
▁الطي	-14595
▁اللم	-14596
▁المث	-14597
▁امجد	-14598
▁انتن	-14599
▁انده	-14600
▁انسب	-14601
▁انكر	-14602
▁بئرا	-14603
▁باثم	-14604
▁باخت	-14605
▁بارض	-14606
▁باست	-14607
▁باسط	-14608
▁بايد	-14609
▁بباب	-14610
▁بثور	-14611
▁بحقك	-14612
▁بحمو	-14613
▁برنا	-14614
▁بسطت	-14615
▁بطيء	-14616
▁بعلة	-14617
▁بعنا	-14618
▁بعهد	-14619
▁بقدر	-14620
▁بقول	-14621
▁بمحب	-14622
▁بموج	-14623
▁بندى	-14624
▁بيعه	-14625
▁تآمر	-14626
▁تأبى	-14627
▁تبعد	-14628
▁تبلى	-14629
▁تبيت	-14630
▁تتقد	-14631
▁تجرب	-14632
▁تجرى	-14633
▁تجلب	-14634
▁تحتك	-14635
▁تحسد	-14636
▁تخضع	-14637
▁تدعو	-14638
▁تربض	-14639
▁ترحم	-14640
▁ترده	-14641
▁تزال	-14642
▁تزوج	-14643
▁تستر	-14644
▁تسلب	-14645
▁تسمى	-14646
▁تشفى	-14647
▁تصلح	-14648
▁تصيب	-14649
▁تعبا	-14650
▁تعبك	-14651
▁تعبي	-14652
▁تغلق	-14653
▁تفلت	-14654
▁تكتب	-14655
▁تمرد	-14656
▁تمضي	-14657
▁تملأ	-14658
▁تنجو	-14659
▁تنفع	-14660
▁تنمو	-14661
▁تنور	-14662
▁توبي	-14663
▁توضع	-14664
▁ثاني	-14665
▁ثمنه	-14666
▁ثواب	-14667
▁ثوبك	-14668
▁جارف	-14669
▁جاوب	-14670
▁جحشا	-14671
▁جلدي	-14672
▁جلوس	-14673
▁جمرا	-14674
▁جملة	-14675
▁جنده	-14676
▁جنود	-14677
▁جهال	-14678
▁جورا	-14679
▁جوفك	-14680
▁جوفه	-14681
▁جومر	-14682
▁جيرا	-14683
▁جيرة	-14684
▁حجري	-14685
▁حجيث	-14686
▁حدقة	-14687
▁حدود	-14688
▁حدين	-14689
▁حفظة	-14690
▁حفني	-14691
▁حكام	-14692
▁حلفى	-14693
▁حلمي	-14694
▁حلوا	-14695
▁حمير	-14696
▁حميه	-14697
▁حنوك	-14698
▁حينا	-14699
▁خباء	-14700
▁خبره	-14701
▁خرجا	-14702
▁خردل	-14703
▁خلاف	-14704
▁خوذة	-14705
▁خيار	-14706
▁دامس	-14707
▁ددان	-14708
▁دعاك	-14709
▁دهشا	-14710
▁دهشة	-14711
▁دهنا	-14712
▁دواغ	-14713
▁دودو	-14714
▁ذنبي	-14715
▁رآهم	-14716
▁رأته	-14717
▁رأيا	-14718
▁رأيي	-14719
▁رؤية	-14720
▁رائي	-14721
▁رجفت	-14722
▁رعبا	-14723
▁زرعا	-14724
▁زكيا	-14725
▁زنار	-14726
▁زنوا	-14727
▁سؤلك	-14728
▁ساعد	-14729
▁سبطا	-14730
▁سبلي	-14731
▁سحقت	-14732
▁سفكت	-14733
▁سوءا	-14734
▁سيله	-14735
▁سينا	-14736
▁شارد	-14737
▁شباك	-14738
▁شبان	-14739
▁شربت	-14740
▁شعرة	-14741
▁شفاك	-14742
▁شكوى	-14743
▁شمري	-14744
▁صبرا	-14745
▁صنما	-14746
▁ضباب	-14747
▁ضحكة	-14748
▁ضعفا	-14749
▁ضيقا	-14750
▁طردا	-14751
▁طلبه	-14752
▁عارض	-14753
▁عاري	-14754
▁عاقر	-14755
▁عتاة	-14756
▁عجيب	-14757
▁عخان	-14758
▁عخور	-14759
▁عراة	-14760
▁عسلا	-14761
▁عصاك	-14762
▁عظمي	-14763
▁عكرن	-14764
▁عكسة	-14765
▁عناة	-14766
▁عودا	-14767
▁عوني	-14768
▁عيرا	-14769
▁عينن	-14770
▁غزاة	-14771
▁غسلت	-14772
▁غلوة	-14773
▁غناه	-14774
▁غيظه	-14775
▁غيظي	-14776
▁فآخذ	-14777
▁فابى	-14778
▁فاذل	-14779
▁فاعت	-14780
▁فاقل	-14781
▁فامد	-14782
▁فباع	-14783
▁فتاك	-14784
▁فترت	-14785
▁فتنك	-14786
▁فدار	-14787
▁فرضا	-14788
▁فسنة	-14789
▁فضتك	-14790
▁فضتي	-14791
▁فطنة	-14792
▁فعلا	-14793
▁فقيل	-14794
▁فكبر	-14795
▁فمهم	-14796
▁فنيت	-14797
▁فوطي	-14798
▁فوقه	-14799
▁فولد	-14800
▁فيحت	-14801
▁فيرت	-14802
▁قامة	-14803
▁قدوة	-14804
▁قلقا	-14805
▁قنية	-14806
▁قويا	-14807
▁كاسم	-14808
▁كالخ	-14809
▁كالز	-14810
▁كالض	-14811
▁كامس	-14812
▁كبشا	-14813
▁كرهت	-14814
▁كشبه	-14815
▁كطرق	-14816
▁كعمل	-14817
▁كموت	-14818
▁كموش	-14819
▁كنته	-14820
▁كوكب	-14821
▁لئيم	-14822
▁لارت	-14823
▁لتصر	-14824
▁لتلك	-14825
▁لربي	-14826
▁لكون	-14827
▁للآب	-14828
▁للاب	-14829
▁للتذ	-14830
▁للسب	-14831
▁للمت	-14832
▁للمش	-14833
▁للمن	-14834
▁لمثل	-14835
▁لميت	-14836
▁لنسل	-14837
▁ليال	-14838
▁ليخت	-14839
▁ليلت	-14840
▁ماشك	-14841
▁ماله	-14842
▁ماهر	-14843
▁متحي	-14844
▁متكئ	-14845
▁متكا	-14846
▁متكل	-14847
▁مثال	-14848
▁محبا	-14849
▁مختب	-14850
▁مذمة	-14851
▁مرضا	-14852
▁مرضي	-14853
▁مرقس	-14854
▁مسحت	-14855
▁مشتا	-14856
▁مصري	-14857
▁معار	-14858
▁معطي	-14859
▁مقبل	-14860
▁مناد	-14861
▁منهن	-14862
▁نجوا	-14863
▁نحسب	-14864
▁نحيا	-14865
▁نخلص	-14866
▁نخيل	-14867
▁نسيت	-14868
▁نشيد	-14869
▁نظره	-14870
▁نعبر	-14871
▁نعيش	-14872
▁ننزل	-14873
▁نوبة	-14874
▁نورك	-14875
▁نوره	-14876
▁هارب	-14877
▁هيأت	-14878
▁وابو	-14879
▁واثم	-14880
▁واجن	-14881
▁واحت	-14882
▁واخل	-14883
▁وادخ	-14884
▁واذل	-14885
▁واسر	-14886
▁واشب	-14887
▁واضط	-14888
▁وامة	-14889
▁وامل	-14890
▁واية	-14891
▁وايق	-14892
▁وايل	-14893
▁وبار	-14894
▁وبام	-14895
▁وبما	-14896
▁وتجس	-14897
▁وتحي	-14898
▁وتخل	-14899
▁وترج	-14900
▁وتصل	-14901
▁وتعد	-14902
▁وتكس	-14903
▁وتنت	-14904
▁وثقي	-14905
▁وجاد	-14906
▁وحسن	-14907
▁وحضر	-14908
▁وحكم	-14909
▁وخان	-14910
▁وخدا	-14911
▁وخير	-14912
▁وداس	-14913
▁ودور	-14914
▁ورأت	-14915
▁ورثة	-14916
▁ورجا	-14917
▁ورذل	-14918
▁ورعب	-14919
▁وسيط	-14920
▁وسين	-14921
▁وشاة	-14922
▁وشدة	-14923
▁وصول	-14924
▁وطيب	-14925
▁وعري	-14926
▁وعصى	-14927
▁وعظم	-14928
▁وغسل	-14929
▁وفرش	-14930
▁وفري	-14931
▁وفكر	-14932
▁وقار	-14933
▁وقفا	-14934
▁وكثر	-14935
▁ولبن	-14936
▁وللع	-14937
▁وللق	-14938
▁وليخ	-14939
▁ومجن	-14940
▁ومخل	-14941
▁ومضت	-14942
▁ومما	-14943
▁ومنت	-14944
▁ومنه	-14945
▁ونقش	-14946
▁وهبت	-14947
▁وهين	-14948
▁ووزن	-14949
▁ويبل	-14950
▁ويبي	-14951
▁ويتر	-14952
▁ويجد	-14953
▁ويحر	-14954
▁ويشب	-14955
▁ويصل	-14956
▁ويقت	-14957
▁ويمس	-14958
▁ويوم	-14959
▁يؤدي	-14960
▁ياهص	-14961
▁يبقي	-14962
▁يبيع	-14963
▁يتعل	-14964
▁يجاز	-14965
▁يجبه	-14966
▁يجوع	-14967
▁يحزن	-14968
▁يحمى	-14969
▁يختر	-14970
▁يخطر	-14971
▁يخفي	-14972
▁يخيب	-14973
▁يدعه	-14974
▁يدكم	-14975
▁يريح	-14976
▁يزعج	-14977
▁يسخط	-14978
▁يسمح	-14979
▁يسود	-14980
▁يصاد	-14981
▁يضحك	-14982
▁يعزي	-14983
▁يعطه	-14984
▁يعظم	-14985
▁يعوش	-14986
▁يعير	-14987
▁يغوي	-14988
▁يفلح	-14989
▁يقلع	-14990
▁يكره	-14991
▁يمطر	-14992
▁يندم	-14993
▁ينسب	-14994
▁ينصب	-14995
▁يهدم	-14996
▁يهيئ	-14997
▁يوفي	-14998
آبائكم	-14999
انتقام	-15000
حاربوا	-15001
خروجهم	-15002
دانيون	-15003
راعيبه	-15004
رعتوني	-15005
وديموس	-15006
وعيناي	-15007
ينابيع	-15008
▁أتيتم	-15009
▁أسسها	-15010
▁أفانت	-15011
▁ألعلك	-15012
▁ألعله	-15013
▁ألقوا	-15014
▁أليآب	-15015
▁أمركم	-15016
▁أمسكت	-15017
▁أهولة	-15018
▁أوصنا	-15019
▁اباها	-15020
▁ابتاه	-15021
▁ابراج	-15022
▁ابرار	-15023
▁ابصره	-15024
▁ابطال	-15025
▁ابقيت	-15026
▁ابناه	-15027
▁ابيام	-15028
▁ابيدن	-15029
▁ابيشج	-15030
▁اتقوا	-15031
▁اجرتك	-15032
▁اجسام	-15033
▁اجعله	-15034
▁اجلسي	-15035
▁احباء	-15036
▁اخاصم	-15037
▁اخاكم	-15038
▁اخبره	-15039
▁اخيرع	-15040
▁ادوني	-15041
▁اذرعي	-15042
▁اذنيك	-15043
▁اذيال	-15044
▁ارباب	-15045
▁ارجاع	-15046
▁ارجوب	-15047
▁اريده	-15048
▁اساسا	-15049
▁اسبوع	-15050
▁استدع	-15051
▁اسمهم	-15052
▁اشتيا	-15053
▁اشراك	-15054
▁اشكول	-15055
▁اشياء	-15056
▁اصبعه	-15057
▁اصطبغ	-15058
▁اضطرب	-15059
▁اضطهد	-15060
▁اطلبه	-15061
▁اعالي	-15062
▁اعطهم	-15063
▁اعلان	-15064
▁اعيوا	-15065
▁اغاني	-15066
▁اغلقت	-15067
▁افتقر	-15068
▁افرخت	-15069
▁افودا	-15070
▁اقضوا	-15071
▁اكلتم	-15072
▁اكملت	-15073
▁الآخذ	-15074
▁الآكل	-15075
▁الاجر	-15076
▁الاحت	-15077
▁البطل	-15078
▁البنت	-15079
▁التصق	-15080
▁الثدي	-15081
▁الثقة	-15082
▁الجان	-15083
▁الجحش	-15084
▁الجسم	-15085
▁الجمل	-15086
▁الجهل	-15087
▁الحبس	-15088
▁الحضن	-15089
▁الخجل	-15090
▁الخرا	-15091
▁الخصي	-15092
▁الخلا	-15093
▁الدجى	-15094
▁الدرع	-15095
▁الربا	-15096
▁الربع	-15097
▁الركب	-15098
▁الرمل	-15099
▁الزهر	-15100
▁الزور	-15101
▁الساق	-15102
▁السجف	-15103
▁السكة	-15104
▁السكك	-15105
▁السلة	-15106
▁السوط	-15107
▁الصدر	-15108
▁الصدق	-15109
▁الصلح	-15110
▁الصوف	-15111
▁الضوء	-15112
▁الطرق	-15113
▁الطلب	-15114
▁الطمع	-15115
▁العاد	-15116
▁العطش	-15117
▁الفعل	-15118
▁الكور	-15119
▁الكوى	-15120
▁اللعن	-15121
▁المال	-15122
▁المفر	-15123
▁الندى	-15124
▁النقي	-15125
▁النيل	-15126
▁الوبإ	-15127
▁الولي	-15128
▁امتلك	-15129
▁امركم	-15130
▁امورا	-15131
▁انتهت	-15132
▁انطرح	-15133
▁انفتح	-15134
▁انفصل	-15135
▁انقسم	-15136
▁اهانة	-15137
▁اوتار	-15138
▁اوراق	-15139
▁ايطال	-15140
▁بآلهة	-15141
▁باباي	-15142
▁باثمه	-15143
▁باركي	-15144
▁بالاح	-15145
▁بالار	-15146
▁بالقي	-15147
▁بالكل	-15148
▁بالمس	-15149
▁باليد	-15150
▁بداءة	-15151
▁بدموع	-15152
▁بروقا	-15153
▁بريعة	-15154
▁بسلسل	-15155
▁بعيون	-15156
▁بغواي	-15157
▁بقبلة	-15158
▁بقرات	-15159
▁بلباس	-15160
▁بلوطة	-15161
▁بمجيء	-15162
▁بناته	-15163
▁بنحاس	-15164
▁تبكوا	-15165
▁تبنوا	-15166
▁تبنون	-15167
▁تتبرر	-15168
▁تتسلط	-15169
▁تتنبأ	-15170
▁تثبتت	-15171
▁تجاوب	-15172
▁تجاوز	-15173
▁تجتمع	-15174
▁تحيوا	-15175
▁تخاصم	-15176
▁تدشين	-15177
▁تدعني	-15178
▁تراقب	-15179
▁تركته	-15180
▁تزعزع	-15181
▁تزلزل	-15182
▁تشتري	-15183
▁تضطجع	-15184
▁تعالي	-15185
▁تفسير	-15186
▁تمناع	-15187
▁تنبأت	-15188
▁تنتظر	-15189
▁توبوا	-15190
▁ثورين	-15191
▁جاهلا	-15192
▁جثثهم	-15193
▁جرتها	-15194
▁جسدكم	-15195
▁جواري	-15196
▁جوزان	-15197
▁جيوشه	-15198
▁حادثة	-15199
▁حدتهن	-15200
▁حديدا	-15201
▁حلفوا	-15202
▁حملان	-15203
▁حولنا	-15204
▁حيدوا	-15205
▁حيلون	-15206
▁خاصته	-15207
▁خبزات	-15208
▁خبزنا	-15209
▁ختانا	-15210
▁خدمتك	-15211
▁خسارة	-15212
▁خصيان	-15213
▁خلاصه	-15214
▁خلقته	-15215
▁خمرها	-15216
▁خميرا	-15217
▁داثان	-15218
▁داخلا	-15219
▁داخله	-15220
▁دخلتم	-15221
▁دعانا	-15222
▁دعوته	-15223
▁دفنوا	-15224
▁دمهما	-15225
▁دينون	-15226
▁ذاتها	-15227
▁راحتك	-15228
▁رايته	-15229
▁رجوعي	-15230
▁رحبيا	-15231
▁رداءه	-15232
▁رززها	-15233
▁رفضوا	-15234
▁زعانف	-15235
▁زينتك	-15236
▁سألوا	-15237
▁سائرا	-15238
▁سرجها	-15239
▁سكانه	-15240
▁سكيبا	-15241
▁سهامك	-15242
▁سواقي	-15243
▁سوداء	-15244
▁سيخرج	-15245
▁سيرها	-15246
▁سيقوم	-15247
▁شارون	-15248
▁شبابك	-15249
▁شدائد	-15250
▁شريكا	-15251
▁شعائر	-15252
▁شفتاك	-15253
▁شهودا	-15254
▁شوبال	-15255
▁شوعال	-15256
▁صانعا	-15257
▁صانعي	-15258
▁صراخا	-15259
▁صلاتك	-15260
▁صلبوه	-15261
▁ضاربة	-15262
▁ضربته	-15263
▁ضيقات	-15264
▁طرحهم	-15265
▁طرفيه	-15266
▁طلبته	-15267
▁ظاهرة	-15268
▁عبادة	-15269
▁عبرنا	-15270
▁عجيبا	-15271
▁عددها	-15272
▁عدلام	-15273
▁عديمة	-15274
▁عرفنا	-15275
▁عزموت	-15276
▁عصائب	-15277
▁عصفور	-15278
▁عصوين	-15279
▁عصيتم	-15280
▁عكبور	-15281
▁عيبال	-15282
▁غبارا	-15283
▁غرلته	-15284
▁غلاما	-15285
▁فابصر	-15286
▁فاجبت	-15287
▁فاحرق	-15288
▁فاحيا	-15289
▁فارجع	-15290
▁فاشتد	-15291
▁فاضلة	-15292
▁فاطلب	-15293
▁فاطهر	-15294
▁فاعرف	-15295
▁فاكون	-15296
▁فانظر	-15297
▁فبنوا	-15298
▁فتأتي	-15299
▁فتأخذ	-15300
▁فتدخل	-15301
▁فتذمر	-15302
▁فتروس	-15303
▁فتصعد	-15304
▁فتصنع	-15305
▁فتعال	-15306
▁فتعطي	-15307
▁فتعمل	-15308
▁فتيات	-15309
▁فحدثت	-15310
▁فحسنا	-15311
▁فخررت	-15312
▁فدايا	-15313
▁فرحكم	-15314
▁فسدوا	-15315
▁فصعدت	-15316
▁ففتحت	-15317
▁فقتله	-15318
▁فقيرا	-15319
▁فكاكه	-15320
▁فكذلك	-15321
▁فوضعت	-15322
▁فيجيب	-15323
▁فيحمل	-15324
▁فيعثر	-15325
▁فيقطع	-15326
▁فيلبي	-15327
▁فينزل	-15328
▁قاسية	-15329
▁قبلنا	-15330
▁قدمها	-15331
▁قديما	-15332
▁قرابة	-15333
▁قرعتك	-15334
▁قطيعه	-15335
▁قلبنا	-15336
▁قميصا	-15337
▁قوتها	-15338
▁قياسا	-15339
▁كارزا	-15340
▁كانكم	-15341
▁كتبها	-15342
▁كثروا	-15343
▁كجبار	-15344
▁كخراف	-15345
▁كراهة	-15346
▁كشعبك	-15347
▁كعادة	-15348
▁كلمنا	-15349
▁كمياه	-15350
▁كهنته	-15351
▁كوشان	-15352
▁لابنة	-15353
▁لابنه	-15354
▁لابيك	-15355
▁لاثمه	-15356
▁لاجلك	-15357
▁لاخيش	-15358
▁لاربح	-15359
▁لاسحق	-15360
▁لاعلم	-15361
▁لافعل	-15362
▁لانظر	-15363
▁لانهن	-15364
▁لباسي	-15365
▁لتعرف	-15366
▁لحمها	-15367
▁لديكم	-15368
▁لرجلي	-15369
▁لسكان	-15370
▁لشمعي	-15371
▁لصاحب	-15372
▁لعامل	-15373
▁لعيسو	-15374
▁لكالب	-15375
▁لكنكم	-15376
▁لكنها	-15377
▁لكونه	-15378
▁للآخر	-15379
▁للجوع	-15380
▁للحفظ	-15381
▁للرضا	-15382
▁للروح	-15383
▁للضوء	-15384
▁للقتل	-15385
▁للمنا	-15386
▁لمدخل	-15387
▁لمسني	-15388
▁لناكل	-15389
▁لهوشع	-15390
▁ليتني	-15391
▁ليثبت	-15392
▁ليجمع	-15393
▁ليحمل	-15394
▁ليدكم	-15395
▁ليدنا	-15396
▁ليذبح	-15397
▁ليروا	-15398
▁ليسكن	-15399
▁ليضرب	-15400
▁ليمسك	-15401
▁ليوآش	-15402
▁ليوقد	-15403
▁مأكلا	-15404
▁متجرد	-15405
▁متعظم	-15406
▁متقدة	-15407
▁متنيا	-15408
▁متوجه	-15409
▁مثلنا	-15410
▁مثمرا	-15411
▁محالة	-15412
▁محبين	-15413
▁محروس	-15414
▁محصنة	-15415
▁مخاوف	-15416
▁مدوسة	-15417
▁مراحم	-15418
▁مربعا	-15419
▁مرضية	-15420
▁مسارح	-15421
▁مستري	-15422
▁مسلمه	-15423
▁مسلول	-15424
▁مشترك	-15425
▁مشويا	-15426
▁مصفاة	-15427
▁مطمئن	-15428
▁مظلته	-15429
▁معكما	-15430
▁مغلقا	-15431
▁مفتاح	-15432
▁مفلوج	-15433
▁مقيما	-15434
▁ملجئه	-15435
▁ممزقة	-15436
▁مناطق	-15437
▁مناظر	-15438
▁مناهي	-15439
▁منفلت	-15440
▁مواهب	-15441
▁مولاه	-15442
▁ميثاق	-15443
▁ميدبا	-15444
▁نائمة	-15445
▁ناشفة	-15446
▁نجسوا	-15447
▁نسلكم	-15448
▁نعمته	-15449
▁نفائس	-15450
▁نفتخر	-15451
▁نفسهم	-15452
▁نهبوا	-15453
▁نيرنا	-15454
▁هاران	-15455
▁هدمها	-15456
▁هلاكا	-15457
▁هنالك	-15458
▁هياكل	-15459
▁وآساف	-15460
▁وأتيت	-15461
▁وأخفي	-15462
▁وألبس	-15463
▁وابوه	-15464
▁واثني	-15465
▁واجري	-15466
▁واخضع	-15467
▁واخيو	-15468
▁وادفن	-15469
▁وادوم	-15470
▁وارضا	-15471
▁واساء	-15472
▁واسكب	-15473
▁واسمه	-15474
▁واشتد	-15475
▁واشعل	-15476
▁واشير	-15477
▁واعين	-15478
▁واغاظ	-15479
▁وافرة	-15480
▁وافلح	-15481
▁واقتل	-15482
▁واقسم	-15483
▁واكسر	-15484
▁والاج	-15485
▁والاس	-15486
▁والاه	-15487
▁والبل	-15488
▁والتح	-15489
▁والجل	-15490
▁والكم	-15491
▁وامسح	-15492
▁وايام	-15493
▁وايفة	-15494
▁وبدون	-15495
▁وبسخط	-15496
▁وبعنة	-15497
▁وبكيت	-15498
▁وبنيك	-15499
▁وبولس	-15500
▁وبيده	-15501
▁وتخدم	-15502
▁وتذكر	-15503
▁وتسحق	-15504
▁وتشرب	-15505
▁وتطهر	-15506
▁وتقيم	-15507
▁وتنظر	-15508
▁وتوقد	-15509
▁وتوما	-15510
▁وثورا	-15511
▁وحدنا	-15512
▁وحديد	-15513
▁وحرشف	-15514
▁وحزنا	-15515
▁وحصني	-15516
▁وحكما	-15517
▁وحياة	-15518
▁وخاصم	-15519
▁وخبزا	-15520
▁وخلاص	-15521
▁ودفعت	-15522
▁ودفعه	-15523
▁وربنا	-15524
▁ورجاء	-15525
▁وزمان	-15526
▁وزنيت	-15527
▁وزيتك	-15528
▁وسقطت	-15529
▁وسماء	-15530
▁وسيفه	-15531
▁وصعدت	-15532
▁وضباب	-15533
▁وضربت	-15534
▁وضعوه	-15535
▁وطعام	-15536
▁وظهرت	-15537
▁وعبرت	-15538
▁وعزرا	-15539
▁وعشرا	-15540
▁وعلمه	-15541
▁وعليه	-15542
▁وعوضا	-15543
▁وغطاء	-15544
▁وفطنة	-15545
▁وفيها	-15546
▁وقتلا	-15547
▁وقضاة	-15548
▁وقلوب	-15549
▁وقليل	-15550
▁وكتبت	-15551
▁وكثرت	-15552
▁وكشفت	-15553
▁وكيلا	-15554
▁ولانه	-15555
▁ولبيت	-15556
▁ولدان	-15557
▁وليعط	-15558
▁ومالك	-15559
▁ومساء	-15560
▁ومسحه	-15561
▁ومكان	-15562
▁ونذبح	-15563
▁ونسوا	-15564
▁ونشهد	-15565
▁ونعلم	-15566
▁ونفرح	-15567
▁وهتاف	-15568
▁ووجدا	-15569
▁ووجدت	-15570
▁ووجهه	-15571
▁ووضعا	-15572
▁وياكل	-15573
▁ويبسط	-15574
▁ويبني	-15575
▁ويثبت	-15576
▁ويجلد	-15577
▁ويحمل	-15578
▁ويحيا	-15579
▁ويخدم	-15580
▁ويدين	-15581
▁ويرون	-15582
▁ويزول	-15583
▁ويسير	-15584
▁ويشبع	-15585
▁ويصفر	-15586
▁ويضعه	-15587
▁ويظلم	-15588
▁ويغلق	-15589
▁ويفرغ	-15590
▁ويكرز	-15591
▁ويكرم	-15592
▁ويمضي	-15593
▁وينجح	-15594
▁وييبس	-15595
▁يأكله	-15596
▁ياتوا	-15597
▁ياكله	-15598
▁يتبعه	-15599
▁يتركه	-15600
▁يتغرب	-15601
▁يتقدس	-15602
▁يتمسك	-15603
▁يجدون	-15604
▁يحبني	-15605
▁يحتمل	-15606
▁يخبره	-15607
▁يدعيا	-15608
▁يراني	-15609
▁يردها	-15610
▁يسأله	-15611
▁يسبون	-15612
▁يشربه	-15613
▁يضربك	-15614
▁يعتبر	-15615
▁يفنوا	-15616
▁يقتلك	-15617
▁يقفوا	-15618
▁يكلمك	-15619
▁يمدوا	-15620
▁ينقرض	-15621
▁يهودا	-15622
طلبونني	-15623
وخذراصر	-15624
▁ابرارا	-15625
▁ابرياء	-15626
▁ابغضها	-15627
▁اتجاوز	-15628
▁اتخذها	-15629
▁اتركوا	-15630
▁اجتهاد	-15631
▁اجعلها	-15632
▁اجلسوا	-15633
▁احتملت	-15634
▁احرقها	-15635
▁احسنوا	-15636
▁احضروا	-15637
▁احفظني	-15638
▁احفظوا	-15639
▁احكموا	-15640
▁اخبركم	-15641
▁اخرجنا	-15642
▁اخواتك	-15643
▁اخيعزر	-15644
▁اخيلود	-15645
▁ادخلني	-15646
▁ارادته	-15647
▁ارادوا	-15648
▁ارجعنا	-15649
▁اساسات	-15650
▁استأجر	-15651
▁استعبد	-15652
▁استعمل	-15653
▁اسجدوا	-15654
▁اسواقك	-15655
▁اشتريت	-15656
▁اشرارا	-15657
▁اشربها	-15658
▁اصعدنا	-15659
▁اضطربت	-15660
▁اطيعوا	-15661
▁اعثرتك	-15662
▁الآلام	-15663
▁الإيفة	-15664
▁الابرص	-15665
▁الاثيم	-15666
▁الاخضر	-15667
▁الاركي	-15668
▁الاسير	-15669
▁الاعرج	-15670
▁الافود	-15671
▁البائع	-15672
▁البقرة	-15673
▁البقعة	-15674
▁التائه	-15675
▁التالي	-15676
▁التخوم	-15677
▁الجاعل	-15678
▁الجلاء	-15679
▁الجنات	-15680
▁الجناح	-15681
▁الحاكم	-15682
▁الردية	-15683
▁الرعدة	-15684
▁الرماة	-15685
▁السلاح	-15686
▁الشاطئ	-15687
▁الشباك	-15688
▁الشتاء	-15689
▁الشراء	-15690
▁الشوحي	-15691
▁الصراخ	-15692
▁الصندل	-15693
▁الضمير	-15694
▁الضياع	-15695
▁الضيقة	-15696
▁الطاقة	-15697
▁الطاهر	-15698
▁الطراز	-15699
▁العاقر	-15700
▁العتيد	-15701
▁العشية	-15702
▁العلية	-15703
▁الغبار	-15704
▁الغربي	-15705
▁الغيوم	-15706
▁الفاضل	-15707
▁الفاعل	-15708
▁الفجار	-15709
▁الفداء	-15710
▁الفطنة	-15711
▁القائم	-15712
▁القتيل	-15713
▁القدور	-15714
▁القرمز	-15715
▁القريص	-15716
▁الكذاب	-15717
▁الكريم	-15718
▁اللفيف	-15719
▁اللقمة	-15720
▁المائت	-15721
▁الماشي	-15722
▁الماضي	-15723
▁المبشر	-15724
▁المتجن	-15725
▁المتنب	-15726
▁المحيط	-15727
▁المخوف	-15728
▁المريض	-15729
▁المزمع	-15730
▁المشقة	-15731
▁الملجإ	-15732
▁الملكي	-15733
▁المنجل	-15734
▁النازع	-15735
▁النبية	-15736
▁الهزيع	-15737
▁الهواء	-15738
▁الوحشي	-15739
▁اليثري	-15740
▁امانتك	-15741
▁امرتهم	-15742
▁امواتا	-15743
▁امواجه	-15744
▁انتقام	-15745
▁انسحقت	-15746
▁انسكبت	-15747
▁انقلبت	-15748
▁انكسرت	-15749
▁انهارا	-15750
▁اوصاني	-15751
▁بالارا	-15752
▁بالارض	-15753
▁بالجهد	-15754
▁بالحرب	-15755
▁بالكيل	-15756
▁بالمجد	-15757
▁بانسان	-15758
▁بتابوت	-15759
▁بحكمته	-15760
▁بحوريم	-15761
▁بخزائم	-15762
▁بكلامه	-15763
▁بليتهم	-15764
▁بمقتضى	-15765
▁بناموس	-15766
▁بيمينه	-15767
▁بيوتنا	-15768
▁تأديبا	-15769
▁تأملوا	-15770
▁تاخذون	-15771
▁تبصرون	-15772
▁تتركني	-15773
▁تتركوا	-15774
▁تتزلزل	-15775
▁تجارتك	-15776
▁تحزنوا	-15777
▁تحسبون	-15778
▁تحلفوا	-15779
▁تحملوا	-15780
▁تحملون	-15781
▁تخبرني	-15782
▁تخدموا	-15783
▁تخرجون	-15784
▁تدينون	-15785
▁ترجعون	-15786
▁تسلكون	-15787
▁تشتتوا	-15788
▁تشربوا	-15789
▁تطلبان	-15790
▁تطلبوا	-15791
▁تعاظمت	-15792
▁تعبدون	-15793
▁تعجبوا	-15794
▁تعودوا	-15795
▁تقربوا	-15796
▁تكثيرا	-15797
▁تكفيرا	-15798
▁تكلمتم	-15799
▁تكلمنا	-15800
▁تنجسوا	-15801
▁تهلكون	-15802
▁جالسون	-15803
▁جانبها	-15804
▁جدعوني	-15805
▁جماعتك	-15806
▁جناحيك	-15807
▁جيوشهم	-15808
▁حصونهم	-15809
▁حضيروت	-15810
▁حفظتها	-15811
▁حلقتان	-15812
▁حماقته	-15813
▁خزائنك	-15814
▁خزائنه	-15815
▁ذاهبين	-15816
▁ذبيحتي	-15817
▁ذراعيه	-15818
▁رجليها	-15819
▁رذيلتك	-15820
▁رفيديم	-15821
▁رقابهم	-15822
▁سراويل	-15823
▁سلامكم	-15824
▁سيأتون	-15825
▁سيوفهم	-15826
▁شاكرين	-15827
▁شديئور	-15828
▁شفاههم	-15829
▁شلوميث	-15830
▁صحيحين	-15831
▁صغيرهم	-15832
▁صلاتهم	-15833
▁طردتهم	-15834
▁طوباكم	-15835
▁عبراني	-15836
▁عبودية	-15837
▁عشيرتك	-15838
▁عضائده	-15839
▁عطاروت	-15840
▁عقابهم	-15841
▁عميهود	-15842
▁غلاطية	-15843
▁غلماني	-15844
▁فاجتاز	-15845
▁فاحتقر	-15846
▁فاخذها	-15847
▁فارتعد	-15848
▁فارغين	-15849
▁فبعدما	-15850
▁فبهتوا	-15851
▁فخلصهم	-15852
▁فدخلوا	-15853
▁فدعاها	-15854
▁فدهصور	-15855
▁فراصيم	-15856
▁فعلوها	-15857
▁فعندما	-15858
▁ففتشوا	-15859
▁فقدموا	-15860
▁فليعمل	-15861
▁فليفعل	-15862
▁فوجدهم	-15863
▁قديسيه	-15864
▁قربانك	-15865
▁قضبانه	-15866
▁كالاول	-15867
▁كالعشب	-15868
▁كالنار	-15869
▁كالنسر	-15870
▁كذبيحة	-15871
▁كرامين	-15872
▁كلماتي	-15873
▁كهنتها	-15874
▁لاجلها	-15875
▁لاخبرك	-15876
▁لاعدائ	-15877
▁لاغاظة	-15878
▁لاقامة	-15879
▁لاليشع	-15880
▁لانجيل	-15881
▁لاهلاك	-15882
▁لايليا	-15883
▁لباروخ	-15884
▁لحبيبي	-15885
▁لرجلها	-15886
▁لرجليه	-15887
▁لشمعون	-15888
▁لقريبك	-15889
▁للرئيس	-15890
▁للمؤمن	-15891
▁للمذبح	-15892
▁لهؤلاء	-15893
▁ليتغرب	-15894
▁ليتمجد	-15895
▁مبغضيه	-15896
▁متسلطا	-15897
▁مجازاة	-15898
▁مجاهرة	-15899
▁محبتكم	-15900
▁مخترطي	-15901
▁مخطوبة	-15902
▁مزمعون	-15903
▁مسكنهم	-15904
▁مشاجرة	-15905
▁مشهودا	-15906
▁مصنوعة	-15907
▁مضطهدي	-15908
▁مطمئنا	-15909
▁مغربها	-15910
▁مكروهة	-15911
▁ملعونة	-15912
▁ملكوتك	-15913
▁ملكوته	-15914
▁منتخبي	-15915
▁منفردا	-15916
▁موازين	-15917
▁مواشيه	-15918
▁مواعيد	-15919
▁موثقين	-15920
▁موجودا	-15921
▁نازلون	-15922
▁نبايوت	-15923
▁نذوركم	-15924
▁نصيبنا	-15925
▁هاربين	-15926
▁همداثا	-15927
▁وأكلوا	-15928
▁وابكار	-15929
▁وابنتك	-15930
▁واحيوا	-15931
▁وارتفع	-15932
▁وارسله	-15933
▁	-15934
ا	-15935
ل	-15936
ي	-15937
و	-15938
م	-15939
ن	-15940
ر	-15941
ب	-15942
ه	-15943
ع	-15944
ت	-15945
ك	-15946
ف	-15947
س	-15948
د	-15949
.	-15950
ق	-15951
ح	-15952
ج	-15953
ة	-15954
ذ	-15955
ش	-15956
خ	-15957
ى	-15958
ص	-15959
ط	-15960
ض	-15961
ئ	-15962
ث	-15963
ّ	-15964
ز	-15965
أ	-15966
ء	-15967
غ	-15968
آ	-15969
ظ	-15970
ؤ	-15971
إ	-15972
*	-15973
ـ	-15974
-	-15975
ً	-15976
(	-15977
)	-15978
I	-15979
:	-15980
1	-15981
2	-15982
[	-15983
]	-15984
h	-15985
o	-15986
5	-15987
6	-15988
J	-15989
T	-15990
i	-15991
m	-15992
n	-15993
t	-15994
y	-15995
ٍ	-15996
