<pad>	0
</s>	0
<unk>	0
▁¦	-0
ال	-1
▁ال	-2
▁و	-3
▁ا	-4
ان	-5
▁م	-6
▁ف	-7
▁ل	-8
▁ي	-9
وا	-10
▁.	-11
▁ب	-12
ين	-13
ون	-14
لا	-15
ما	-16
▁ع	-17
رب	-18
را	-19
ها	-20
هم	-21
كل	-22
نا	-23
▁في	-24
لك	-25
▁ت	-26
▁من	-27
ار	-28
يا	-29
ذا	-30
▁ق	-31
لي	-32
من	-33
▁ه	-34
▁ان	-35
في	-36
▁ك	-37
اب	-38
عل	-39
▁وا	-40
كم	-41
▁الم	-42
بي	-43
ول	-44
يل	-45
ام	-46
▁ح	-47
▁س	-48
رج	-49
▁الى	-50
ني	-51
ري	-52
▁الرب	-53
دا	-54
تي	-55
▁ج	-56
له	-57
مع	-58
مي	-59
قال	-60
▁وال	-61
ور	-62
ير	-63
قد	-64
▁ن	-65
وت	-66
ائ	-67
وم	-68
ذي	-69
اس	-70
▁كل	-71
هو	-72
▁عل	-73
▁اس	-74
ئيل	-75
▁لا	-76
يت	-77
يد	-78
الم	-79
وب	-80
وس	-81
يم	-82
▁ش	-83
عد	-84
▁على	-85
اء	-86
كان	-87
▁لان	-88
عب	-89
لم	-90
ذه	-91
رائيل	-92
ود	-93
▁خ	-94
وع	-95
مل	-96
حد	-97
يس	-98
ارض	-99
ته	-100
الى	-101
كون	-102
▁ص	-103
بن	-104
▁الس	-105
ية	-106
تم	-107
الرب	-108
▁ر	-109
▁قد	-110
ضا	-111
كن	-112
با	-113
▁عن	-114
ميع	-115
شر	-116
▁الذي	-117
على	-118
▁الي	-119
وال	-120
مة	-121
لب	-122
▁الا	-123
فس	-124
بر	-125
▁مع	-126
سب	-127
مر	-128
▁وي	-129
عة	-130
▁بن	-131
▁الش	-132
▁اسرائيل	-133
▁ث	-134
عا	-135
وح	-136
فا	-137
دي	-138
بل	-139
قول	-140
جل	-141
ذين	-142
عط	-143
يضا	-144
لان	-145
كر	-146
صر	-147
وق	-148
جد	-149
وه	-150
فر	-151
▁ار	-152
وي	-153
مس	-154
نة	-155
ذلك	-156
▁وت	-157
فت	-158
▁لل	-159
خل	-160
سي	-161
▁لي	-162
▁ولا	-163
▁الله	-164
▁اخ	-165
▁الج	-166
▁يس	-167
لام	-168
تى	-169
▁هو	-170
▁يا	-171
سل	-172
عن	-173
▁ما	-174
▁كان	-175
▁آ	-176
بح	-177
الا	-178
هر	-179
▁علي	-180
ذهب	-181
▁هذا	-182
مام	-183
▁له	-184
خذ	-185
ولا	-186
به	-187
▁أ	-188
ليم	-189
▁لم	-190
كلم	-191
▁الح	-192
رف	-193
نع	-194
انا	-195
قت	-196
الي	-197
دين	-198
قل	-199
▁فقال	-200
▁فا	-201
▁الارض	-202
الس	-203
▁التي	-204
▁اب	-205
وج	-206
ست	-207
يام	-208
بيت	-209
رة	-210
▁بال	-211
▁اله	-212
داود	-213
اد	-214
▁د	-215
▁ول	-216
كذا	-217
▁بيت	-218
بع	-219
▁الك	-220
اه	-221
هوذا	-222
اني	-223
خر	-224
▁ط	-225
▁وج	-226
▁غ	-227
سان	-228
قط	-229
ماء	-230
ضع	-231
الذي	-232
▁الع	-233
تك	-234
رجل	-235
▁وس	-236
▁ايضا	-237
▁ملك	-238
▁وقال	-239
▁انا	-240
الح	-241
يني	-242
خرج	-243
وك	-244
رق	-245
▁قائ	-246
عمل	-247
ملك	-248
▁الملك	-249
مه	-250
▁جميع	-251
▁وب	-252
الك	-253
▁لك	-254
لل	-255
ات	-256
▁الذين	-257
اله	-258
مت	-259
اسرائيل	-260
ظر	-261
آب	-262
ده	-263
ناك	-264
هذا	-265
وسى	-266
▁وكان	-267
الش	-268
حا	-269
ورش	-270
▁قال	-271
حت	-272
لكن	-273
دينة	-274
رع	-275
رك	-276
ورشليم	-277
رأ	-278
حم	-279
▁وان	-280
فل	-281
علم	-282
▁لانه	-283
بال	-284
كث	-285
سا	-286
وص	-287
▁بني	-288
بت	-289
▁ثم	-290
دم	-291
عم	-292
الج	-293
ساء	-294
فعل	-295
▁الخ	-296
▁ابن	-297
علي	-298
يق	-299
▁الب	-300
شي	-301
شا	-302
▁بل	-303
الله	-304
آن	-305
▁امام	-306
كت	-307
فع	-308
ثم	-309
هي	-310
▁فت	-311
زل	-312
▁عند	-313
رت	-314
دن	-315
يب	-316
لاث	-317
▁واحد	-318
▁به	-319
ليس	-320
طر	-321
ضرب	-322
▁يد	-323
▁الق	-324
ئة	-325
▁اليوم	-326
بني	-327
ينا	-328
▁وع	-329
▁هكذا	-330
جميع	-331
▁ارض	-332
▁ومن	-333
حب	-334
▁الن	-335
صعد	-336
حي	-337
يرة	-338
ريق	-339
حل	-340
ذبح	-341
▁لهم	-342
▁داود	-343
صنع	-344
يف	-345
▁الشعب	-346
▁وم	-347
خط	-348
▁انت	-349
▁ون	-350
وف	-351
لت	-352
اف	-353
ماذا	-354
▁يسوع	-355
سيح	-356
▁كما	-357
▁رب	-358
فقال	-359
راء	-360
وان	-361
▁وكل	-362
الارض	-363
قائ	-364
نت	-365
▁هذه	-366
يع	-367
يها	-368
قر	-369
التي	-370
▁رج	-371
▁ز	-372
وات	-373
▁قائلا	-374
جعل	-375
▁او	-376
▁الام	-377
هما	-378
قدس	-379
▁بعد	-380
▁الص	-381
واحد	-382
▁يع	-383
▁حتى	-384
طل	-385
يمة	-386
▁ليس	-387
يدي	-388
حة	-389
▁ذ	-390
اخ	-391
انسان	-392
نفس	-393
يش	-394
▁ذلك	-395
▁الف	-396
وش	-397
اع	-398
ثل	-399
▁يت	-400
▁يكون	-401
انه	-402
▁اذ	-403
جت	-404
▁كث	-405
▁الر	-406
وة	-407
▁اع	-408
▁يهوذا	-409
قام	-410
دخل	-411
ضة	-412
▁وفي	-413
▁نفس	-414
رون	-415
▁يقول	-416
حن	-417
قا	-418
عون	-419
راس	-420
ياء	-421
▁موسى	-422
▁اورشليم	-423
▁واما	-424
قي	-425
▁ام	-426
▁الت	-427
▁هناك	-428
▁ولم	-429
ابن	-430
ارج	-431
رية	-432
سمع	-433
لاء	-434
▁ولكن	-435
ايضا	-436
الب	-437
هد	-438
جر	-439
وقال	-440
لين	-441
أت	-442
عطي	-443
▁الغ	-444
الع	-445
▁وق	-446
▁انه	-447
طلب	-448
▁حسب	-449
▁هي	-450
الملك	-451
جاب	-452
▁ين	-453
▁بين	-454
حو	-455
ايا	-456
▁عشر	-457
حرق	-458
بة	-459
فظ	-460
بيد	-461
▁امر	-462
رجع	-463
حق	-464
▁النا	-465
يرا	-466
اهن	-467
ابل	-468
الذين	-469
▁لكي	-470
وخ	-471
▁اش	-472
▁بنو	-473
دة	-474
▁شي	-475
دع	-476
خت	-477
وضع	-478
▁وص	-479
▁لكم	-480
حسب	-481
سم	-482
وكان	-483
ارك	-484
تهم	-485
▁ابي	-486
كما	-487
أكل	-488
قوب	-489
عند	-490
اح	-491
ابد	-492
هنة	-493
ؤساء	-494
سط	-495
جس	-496
▁حين	-497
▁مصر	-498
ؤلاء	-499
تها	-500
لهم	-501
▁عظ	-502
ثلاث	-503
بز	-504
ربع	-505
لكم	-506
▁فان	-507
هذه	-508
▁وح	-509
وني	-510
▁بع	-511
هكذا	-512
▁عليه	-513
قدم	-514
سر	-515
انب	-516
▁نا	-517
▁با	-518
فن	-519
بك	-520
ئيس	-521
ليل	-522
أتي	-523
لانه	-524
▁فل	-525
مو	-526
▁ايام	-527
خبر	-528
▁سب	-529
▁لت	-530
مات	-531
بحر	-532
غض	-533
▁اذا	-534
▁سمع	-535
نين	-536
قتل	-537
خا	-538
▁رأ	-539
رام	-540
▁اح	-541
▁يش	-542
هود	-543
اج	-544
▁اما	-545
▁شا	-546
▁المدينة	-547
قة	-548
دائ	-549
او	-550
عبد	-551
وها	-552
امام	-553
طريق	-554
نم	-555
وكل	-556
ارسل	-557
بين	-558
رائ	-559
ارت	-560
زع	-561
بائ	-562
▁اني	-563
يه	-564
انت	-565
رس	-566
▁المسيح	-567
صل	-568
▁بها	-569
ياه	-570
أل	-571
▁للرب	-572
▁وخ	-573
لامي	-574
الث	-575
▁وش	-576
▁وسط	-577
رض	-578
بنو	-579
مك	-580
يسوع	-581
▁اجل	-582
▁الث	-583
اليوم	-584
▁يوم	-585
▁احد	-586
ولد	-587
صي	-588
نب	-589
لاك	-590
ارة	-591
الت	-592
الف	-593
أخذ	-594
وجد	-595
رد	-596
صف	-597
ومن	-598
هل	-599
عبي	-600
وته	-601
▁يق	-602
الن	-603
▁قلب	-604
الق	-605
جي	-606
عي	-607
اذ	-608
▁مئة	-609
رى	-610
▁رجل	-611
ضي	-612
بعد	-613
▁فلا	-614
الشعب	-615
الص	-616
لاوي	-617
بها	-618
▁وعلى	-619
وز	-620
قيا	-621
رأة	-622
كثر	-623
ليمان	-624
▁ولما	-625
ضط	-626
▁شعب	-627
▁فيه	-628
وفي	-629
راه	-630
رجال	-631
▁جاء	-632
▁عمل	-633
اث	-634
سك	-635
عظ	-636
▁وك	-637
▁السماء	-638
سكن	-639
نود	-640
▁بي	-641
▁ايها	-642
شعب	-643
▁عيني	-644
اش	-645
الخ	-646
روح	-647
▁وجه	-648
فرح	-649
▁لاني	-650
جمع	-651
عوب	-652
▁يم	-653
حفظ	-654
ائر	-655
الام	-656
قب	-657
▁عب	-658
قطع	-659
قائلا	-660
▁الشر	-661
جاء	-662
آخر	-663
ورة	-664
حتى	-665
ئذ	-666
عشر	-667
هناك	-668
سن	-669
فلسط	-670
▁قل	-671
▁هم	-672
▁اف	-673
▁حي	-674
يكون	-675
دون	-676
▁ات	-677
▁اق	-678
فلسطيني	-679
وقت	-680
جن	-681
▁الامم	-682
▁كلام	-683
▁الانسان	-684
زم	-685
اما	-686
يمان	-687
حين	-688
بيحة	-689
▁مل	-690
▁ثلاث	-691
صا	-692
▁انتم	-693
▁هوذا	-694
وآب	-695
▁تخ	-696
▁تن	-697
▁الآن	-698
از	-699
شب	-700
▁سنة	-701
▁تكون	-702
عبر	-703
▁وهو	-704
يهوذا	-705
رح	-706
▁مت	-707
نار	-708
▁خط	-709
موات	-710
يقول	-711
وث	-712
دد	-713
وط	-714
سد	-715
وجه	-716
▁اث	-717
▁معه	-718
▁واذا	-719
لكي	-720
عرف	-721
▁اعط	-722
قيم	-723
▁شاول	-724
بق	-725
▁قدام	-726
جع	-727
موسى	-728
ونه	-729
▁تت	-730
▁الكاهن	-731
اورشليم	-732
▁البيت	-733
ماع	-734
واما	-735
الآن	-736
وسف	-737
صوت	-738
▁اليه	-739
▁امرأ	-740
وهم	-741
راهيم	-742
ولكن	-743
▁مثل	-744
معوا	-745
▁يح	-746
▁فيها	-747
ئا	-748
عاد	-749
ولم	-750
▁عم	-751
غي	-752
انية	-753
تن	-754
▁واب	-755
▁طريق	-756
فان	-757
تا	-758
سيف	-759
▁لذلك	-760
▁والم	-761
اسم	-762
▁ولد	-763
▁فلما	-764
▁قائلين	-765
طلق	-766
ظلم	-767
الغ	-768
▁تحت	-769
▁للم	-770
اي	-771
وما	-772
ياة	-773
▁لاجل	-774
لة	-775
▁جدا	-776
ئلا	-777
موس	-778
راب	-779
▁الهك	-780
واب	-781
انذا	-782
مال	-783
▁ارسل	-784
▁الابد	-785
▁انسان	-786
▁يعقوب	-787
ضر	-788
ماعة	-789
هة	-790
واق	-791
▁ها	-792
يح	-793
باب	-794
▁لها	-795
كمة	-796
تد	-797
سنة	-798
▁السيد	-799
غير	-800
رار	-801
▁هل	-802
عز	-803
قلب	-804
سة	-805
▁الرجل	-806
▁هؤلاء	-807
يك	-808
كتوب	-809
▁لانهم	-810
است	-811
▁اص	-812
بارك	-813
▁را	-814
▁عش	-815
▁فعل	-816
اق	-817
قدر	-818
▁فلم	-819
كلمة	-820
▁شيء	-821
▁تكلم	-822
نات	-823
حرقة	-824
زن	-825
▁الد	-826
حدا	-827
▁البحر	-828
▁راس	-829
داء	-830
ورا	-831
▁كنت	-832
▁ض	-833
عت	-834
وسط	-835
فق	-836
ظهر	-837
ايام	-838
صد	-839
▁ود	-840
حاب	-841
مصر	-842
رير	-843
فين	-844
يده	-845
▁وراء	-846
تل	-847
دك	-848
▁نحو	-849
يدة	-850
▁فن	-851
▁كر	-852
النا	-853
عليه	-854
▁رئيس	-855
تر	-856
لهة	-857
▁ذهب	-858
▁تس	-859
جب	-860
▁الكهنة	-861
ريب	-862
صير	-863
ناء	-864
▁لنا	-865
▁بك	-866
▁الناس	-867
حاس	-868
▁بق	-869
المسيح	-870
ابوت	-871
اكن	-872
▁يدي	-873
▁لماذا	-874
كة	-875
ربوا	-876
▁الل	-877
▁بابل	-878
▁كثير	-879
ولي	-880
ؤوس	-881
▁است	-882
عام	-883
▁ور	-884
▁عليك	-885
▁كانوا	-886
راع	-887
المدينة	-888
رايم	-889
ربعة	-890
▁صوت	-891
▁منه	-892
▁الجنود	-893
▁خمس	-894
▁عليهم	-895
▁فاجاب	-896
▁كانت	-897
▁امرأة	-898
فيه	-899
وية	-900
اة	-901
طان	-902
اذا	-903
▁وأ	-904
▁وانا	-905
هلك	-906
اردن	-907
ذكر	-908
فوا	-909
انيين	-910
عر	-911
▁جعل	-912
حر	-913
وقد	-914
كام	-915
▁آبائ	-916
▁الايام	-917
قلت	-918
يون	-919
غل	-920
▁جل	-921
رعون	-922
▁كثيرة	-923
دوا	-924
ؤمن	-925
معه	-926
ريين	-927
▁باب	-928
▁يهو	-929
يوم	-930
▁يكن	-931
فلا	-932
يامين	-933
هار	-934
نفسه	-935
▁وقد	-936
▁ويكون	-937
▁غير	-938
زيت	-939
▁نفسه	-940
فلسطينيين	-941
يات	-942
▁قبل	-943
▁سليمان	-944
اص	-945
هرون	-946
تكلم	-947
▁جبل	-948
▁روح	-949
▁صنع	-950
▁وجميع	-951
مرا	-952
ذب	-953
للرب	-954
▁آخر	-955
جلس	-956
سلا	-957
وتي	-958
▁فوق	-959
تخ	-960
ضل	-961
زي	-962
▁غض	-963
الر	-964
▁مس	-965
عمال	-966
عوا	-967
مني	-968
حص	-969
احد	-970
مان	-971
▁اي	-972
لاويين	-973
▁تلك	-974
▁السموات	-975
مش	-976
عين	-977
قبل	-978
▁الهي	-979
فة	-980
ولس	-981
▁تر	-982
شاول	-983
علمون	-984
▁مكان	-985
باط	-986
ثبت	-987
مئة	-988
▁اج	-989
▁لكن	-990
▁نحن	-991
ريح	-992
قدمة	-993
ضاء	-994
فك	-995
▁خرج	-996
▁عنه	-997
▁اليهود	-998
فهم	-999
▁تش	-1000
نوب	-1001
صرخ	-1002
▁فكان	-1003
دى	-1004
▁ولي	-1005
▁لانك	-1006
▁لما	-1007
▁عشرة	-1008
ضى	-1009
▁ماذا	-1010
انبياء	-1011
بس	-1012
وى	-1013
جارة	-1014
ولاد	-1015
▁الحق	-1016
▁عليها	-1017
تين	-1018
▁رؤساء	-1019
طرس	-1020
ثلاثة	-1021
كب	-1022
تس	-1023
يين	-1024
▁خبز	-1025
تت	-1026
ربة	-1027
▁حينئذ	-1028
هن	-1029
تان	-1030
جدا	-1031
ميا	-1032
▁الاخ	-1033
ثا	-1034
هيون	-1035
▁ابنه	-1036
هؤلاء	-1037
صار	-1038
طا	-1039
▁واخ	-1040
▁وحد	-1041
اجل	-1042
ولما	-1043
▁الروح	-1044
هب	-1045
والم	-1046
موا	-1047
ياب	-1048
كلام	-1049
▁انك	-1050
▁نفسي	-1051
بار	-1052
لاص	-1053
سبب	-1054
شيء	-1055
يلة	-1056
لاف	-1057
أمر	-1058
خلص	-1059
▁كن	-1060
ريعة	-1061
لاني	-1062
▁الاول	-1063
▁فرعون	-1064
قذ	-1065
فتح	-1066
▁ايا	-1067
▁خارج	-1068
▁واخذ	-1069
السماء	-1070
وعلى	-1071
جتماع	-1072
▁وز	-1073
▁بلا	-1074
▁يده	-1075
قوا	-1076
عش	-1077
هنا	-1078
▁فم	-1079
عيني	-1080
▁يخ	-1081
▁رجال	-1082
▁مدينة	-1083
ئم	-1084
▁فد	-1085
▁اقول	-1086
▁اليك	-1087
وانا	-1088
طيع	-1089
نان	-1090
▁اد	-1091
▁لن	-1092
جتمع	-1093
▁ارت	-1094
أس	-1095
يما	-1096
▁مدن	-1097
▁الكلام	-1098
فسهم	-1099
موئيل	-1100
▁يب	-1101
▁لئلا	-1102
▁البرية	-1103
ايها	-1104
طف	-1105
آبائ	-1106
▁منهم	-1107
باح	-1108
جار	-1109
▁العظ	-1110
ظروا	-1111
▁بر	-1112
▁تح	-1113
▁مست	-1114
▁اسمه	-1115
▁وانت	-1116
تكون	-1117
▁لاب	-1118
▁ابني	-1119
انة	-1120
مين	-1121
▁ير	-1122
الشر	-1123
▁هرون	-1124
ضطجع	-1125
جا	-1126
قم	-1127
▁حل	-1128
نفسك	-1129
▁اخذ	-1130
▁واس	-1131
▁السنة	-1132
شف	-1133
▁وجد	-1134
▁والى	-1135
ظل	-1136
فضة	-1137
كنت	-1138
ونها	-1139
عه	-1140
▁هانذا	-1141
قدام	-1142
مثل	-1143
▁حيث	-1144
▁ويس	-1145
▁القد	-1146
▁وعشر	-1147
امر	-1148
ذبيحة	-1149
الامم	-1150
▁يوسف	-1151
▁واحدة	-1152
▁تق	-1153
صب	-1154
▁ست	-1155
▁الاش	-1156
وبين	-1157
تكم	-1158
▁وليس	-1159
صيب	-1160
وراء	-1161
لاميذه	-1162
جرة	-1163
▁واعط	-1164
الانسان	-1165
▁المذبح	-1166
▁ابراهيم	-1167
▁الآب	-1168
▁الطريق	-1169
اك	-1170
زرع	-1171
▁فس	-1172
كيم	-1173
وبي	-1174
تلك	-1175
▁صار	-1176
▁الكل	-1177
دمة	-1178
معي	-1179
انتم	-1180
شع	-1181
وهو	-1182
بعض	-1183
▁بعض	-1184
▁اخرج	-1185
▁عظيم	-1186
طي	-1187
غت	-1188
رفة	-1189
رئيس	-1190
▁المن	-1191
وحنا	-1192
يتها	-1193
فض	-1194
وقف	-1195
▁وغ	-1196
▁ضرب	-1197
▁مجد	-1198
▁وخمس	-1199
▁سبط	-1200
▁اكثر	-1201
▁سيدي	-1202
زقيا	-1203
مح	-1204
بات	-1205
▁سبع	-1206
▁اذهب	-1207
▁الشعوب	-1208
مسك	-1209
طرح	-1210
▁يشوع	-1211
اكل	-1212
رات	-1213
مون	-1214
در	-1215
يخ	-1216
نية	-1217
▁نج	-1218
▁بيته	-1219
▁تع	-1220
امرة	-1221
بط	-1222
مير	-1223
وار	-1224
اليه	-1225
▁وعمل	-1226
▁يسمع	-1227
امل	-1228
واذا	-1229
بش	-1230
ذل	-1231
اعط	-1232
اثان	-1233
▁اسم	-1234
▁الفا	-1235
أوا	-1236
لامة	-1237
ملكة	-1238
▁الشهر	-1239
زر	-1240
وء	-1241
قون	-1242
قية	-1243
▁يست	-1244
الكاهن	-1245
فيها	-1246
ند	-1247
▁رأى	-1248
البيت	-1249
▁سبعة	-1250
قائلين	-1251
▁القدس	-1252
▁الهنا	-1253
▁مكتوب	-1254
شرب	-1255
▁شعبي	-1256
▁الحقل	-1257
▁ثلاثة	-1258
كتب	-1259
▁واق	-1260
▁شيئا	-1261
▁واحدا	-1262
▁الآ	-1263
▁بكل	-1264
▁كلمة	-1265
تب	-1266
حبة	-1267
▁كيف	-1268
لها	-1269
داخل	-1270
▁والآن	-1271
نى	-1272
▁بيد	-1273
▁البر	-1274
▁يخرج	-1275
▁العالم	-1276
صن	-1277
وآ	-1278
جانب	-1279
كثير	-1280
فرعون	-1281
▁ذا	-1282
▁نع	-1283
▁وبن	-1284
▁وكانت	-1285
حارب	-1286
ابي	-1287
▁دخل	-1288
▁يعرف	-1289
هرب	-1290
مد	-1291
ارح	-1292
▁بالا	-1293
لاجل	-1294
ارس	-1295
لذلك	-1296
▁الط	-1297
▁ماء	-1298
▁متى	-1299
▁معك	-1300
واحدة	-1301
▁وكلم	-1302
▁الموت	-1303
تح	-1304
ابع	-1305
▁عد	-1306
▁فر	-1307
▁معي	-1308
▁هنا	-1309
▁وجاء	-1310
يته	-1311
نفسي	-1312
▁كلم	-1313
▁يأتي	-1314
للم	-1315
زلوا	-1316
مالك	-1317
تحت	-1318
سبعة	-1319
فلما	-1320
▁سيد	-1321
▁اربع	-1322
▁وملك	-1323
ارا	-1324
سلط	-1325
عات	-1326
▁اين	-1327
▁جهة	-1328
▁عبيد	-1329
▁الاردن	-1330
خمس	-1331
رأى	-1332
الحق	-1333
غر	-1334
خير	-1335
▁وف	-1336
▁المت	-1337
▁تقول	-1338
▁قلوب	-1339
الهك	-1340
سليمان	-1341
عو	-1342
بيده	-1343
▁فلي	-1344
▁لكل	-1345
▁الاس	-1346
▁وجعل	-1347
راف	-1348
▁بم	-1349
▁فضة	-1350
▁ومس	-1351
▁يعمل	-1352
الابد	-1353
اري	-1354
يعقوب	-1355
داس	-1356
ريم	-1357
لنا	-1358
خطية	-1359
▁وبعد	-1360
▁الرجال	-1361
▁وقالوا	-1362
▁الفلسطينيين	-1363
نون	-1364
تق	-1365
▁مش	-1366
بائح	-1367
▁ايل	-1368
▁عبر	-1369
لانهم	-1370
▁خيمة	-1371
▁الباب	-1372
▁الهكم	-1373
▁المرأة	-1374
بلا	-1375
السيد	-1376
خبز	-1377
فلم	-1378
الوم	-1379
الرجل	-1380
▁ايدي	-1381
▁الجميع	-1382
سلك	-1383
كانت	-1384
▁اوص	-1385
▁منذ	-1386
▁النبي	-1387
وفا	-1388
أتوا	-1389
دهم	-1390
لوك	-1391
▁حق	-1392
▁لبني	-1393
▁اليكم	-1394
مز	-1395
ذك	-1396
ضيق	-1397
▁دم	-1398
▁سر	-1399
▁الز	-1400
▁عين	-1401
ثر	-1402
لح	-1403
الد	-1404
ينة	-1405
خارج	-1406
رفع	-1407
كنع	-1408
البحر	-1409
▁موآب	-1410
▁الجبل	-1411
▁وضرب	-1412
نير	-1413
طة	-1414
ذان	-1415
▁مق	-1416
ملوك	-1417
رؤساء	-1418
▁الخط	-1419
▁الها	-1420
▁يدخل	-1421
▁عليكم	-1422
اخذ	-1423
وله	-1424
امرأة	-1425
تاب	-1426
▁آدم	-1427
شالوم	-1428
▁	-1429
ا	-1430
¦	-1431
ل	-1432
ي	-1433
و	-1434
م	-1435
ن	-1436
ر	-1437
ب	-1438
ه	-1439
ع	-1440
ت	-1441
ك	-1442
ف	-1443
س	-1444
د	-1445
.	-1446
ق	-1447
ح	-1448
ج	-1449
ة	-1450
ذ	-1451
ش	-1452
خ	-1453
ى	-1454
ص	-1455
ط	-1456
ض	-1457
ئ	-1458
ث	-1459
ّ	-1460
ز	-1461
أ	-1462
ء	-1463
غ	-1464
آ	-1465
ظ	-1466
ؤ	-1467
إ	-1468
*	-1469
ـ	-1470
-	-1471
ً	-1472
(	-1473
)	-1474
:	-1475
I	-1476
i	-1477
1	-1478
2	-1479
[	-1480
]	-1481
h	-1482
o	-1483
t	-1484
5	-1485
6	-1486
m	-1487
n	-1488
y	-1489
ٍ	-1490
𐋇	-1491
J	-1492
T	-1493
j	-1494
𐊣	-1495
𐊼	-1496
