<pad>	0
</s>	0
<unk>	0
▁¦	-0
de	-1
▁𐋇	-2
▁,	-3
en	-4
oc	-5
ll	-6
an	-7
ar	-8
er	-9
och	-10
om	-11
tt	-12
▁.	-13
in	-14
ör	-15
är	-16
st	-17
ig	-18
sk	-19
för	-20
ti	-21
on	-22
ade	-23
ag	-24
till	-25
han	-26
all	-27
or	-28
som	-29
än	-30
ra	-31
et	-32
ed	-33
na	-34
vi	-35
ck	-36
så	-37
den	-38
el	-39
att	-40
av	-41
un	-42
der	-43
var	-44
det	-45
▁;	-46
ick	-47
da	-48
jag	-49
sa	-50
her	-51
herr	-52
▁:	-53
ing	-54
på	-55
fr	-56
ån	-57
skall	-58
ol	-59
va	-60
icke	-61
herren	-62
med	-63
hon	-64
ta	-65
pp	-66
▁𐊣	-67
du	-68
bl	-69
ut	-70
se	-71
▁»	-72
har	-73
ud	-74
rä	-75
dem	-76
ter	-77
dig	-78
ver	-79
där	-80
honom	-81
men	-82
äl	-83
då	-84
us	-85
sin	-86
äg	-87
upp	-88
kt	-89
es	-90
kom	-91
mo	-92
ka	-93
and	-94
ja	-95
si	-96
ung	-97
sig	-98
ju	-99
gud	-100
man	-101
mig	-102
ma	-103
eder	-104
ef	-105
sade	-106
ro	-107
år	-108
ss	-109
min	-110
från	-111
din	-112
åg	-113
över	-114
åt	-115
ri	-116
▁.»	-117
ty	-118
hade	-119
lig	-120
alla	-121
hans	-122
la	-123
jor	-124
is	-125
vid	-126
ett	-127
när	-128
it	-129
nu	-130
ur	-131
efter	-132
kon	-133
tta	-134
lä	-135
be	-136
bar	-137
sta	-138
skol	-139
hav	-140
le	-141
are	-142
li	-143
ga	-144
br	-145
konung	-146
olk	-147
itt	-148
folk	-149
bli	-150
gi	-151
re	-152
ning	-153
ock	-154
ba	-155
vad	-156
såsom	-157
ull	-158
män	-159
het	-160
▁?	-161
säg	-162
isra	-163
sam	-164
israel	-165
gen	-166
mot	-167
son	-168
hel	-169
ne	-170
må	-171
ska	-172
hö	-173
gör	-174
as	-175
någ	-176
allt	-177
ller	-178
dag	-179
hör	-180
fra	-181
gå	-182
dö	-183
of	-184
arna	-185
em	-186
barn	-187
fö	-188
skola	-189
ev	-190
detta	-191
äm	-192
hava	-193
ön	-194
dan	-195
hus	-196
og	-197
dr	-198
ras	-199
ens	-200
des	-201
eller	-202
mer	-203
fram	-204
skull	-205
yn	-206
erna	-207
ot	-208
deras	-209
te	-210
sina	-211
ort	-212
jäl	-213
gjor	-214
sl	-215
herrens	-216
vill	-217
ste	-218
jän	-219
oss	-220
nen	-221
här	-222
vara	-223
od	-224
vil	-225
tjän	-226
yck	-227
vit	-228
os	-229
tr	-230
väl	-231
mm	-232
vor	-233
ha	-234
få	-235
hu	-236
ni	-237
under	-238
israels	-239
jer	-240
ande	-241
edan	-242
göra	-243
inn	-244
vå	-245
mitt	-246
ord	-247
und	-248
▁'	-249
säger	-250
ken	-251
tag	-252
land	-253
andra	-254
genom	-255
al	-256
rätt	-257
kun	-258
vän	-259
sitt	-260
dina	-261
skulle	-262
själ	-263
äng	-264
äro	-265
ingen	-266
bliva	-267
komma	-268
ul	-269
del	-270
stä	-271
trä	-272
blev	-273
kr	-274
ifrån	-275
ader	-276
utan	-277
str	-278
ned	-279
någon	-280
ber	-281
vär	-282
yg	-283
bet	-284
kan	-285
lå	-286
fer	-287
sedan	-288
iga	-289
tal	-290
stad	-291
offer	-292
syn	-293
hå	-294
fa	-295
jär	-296
vet	-297
ly	-298
sön	-299
brö	-300
hen	-301
ab	-302
ft	-303
sten	-304
voro	-305
jo	-306
pa	-307
hand	-308
mn	-309
dess	-310
svar	-311
else	-312
konungen	-313
fader	-314
ätt	-315
männi	-316
hi	-317
dessa	-318
guds	-319
bort	-320
ann	-321
david	-322
tid	-323
folket	-324
ång	-325
därför	-326
bland	-327
väg	-328
mina	-329
ditt	-330
ena	-331
lö	-332
eg	-333
hela	-334
kte	-335
lj	-336
mån	-337
stor	-338
skolen	-339
lat	-340
sp	-341
inför	-342
fär	-343
jes	-344
ott	-345
gon	-346
rö	-347
lla	-348
herre	-349
giva	-350
jorden	-351
vin	-352
svarade	-353
hög	-354
lan	-355
dde	-356
först	-357
prä	-358
sen	-359
nes	-360
ukt	-361
gjorde	-362
far	-363
tet	-364
sän	-365
lag	-366
läg	-367
söner	-368
vä	-369
ligen	-370
▁-	-371
vår	-372
juda	-373
gick	-374
fä	-375
fi	-376
▁!	-377
namn	-378
beg	-379
bo	-380
ära	-381
människ	-382
något	-383
▁--	-384
hur	-385
tog	-386
aden	-387
mi	-388
tjänare	-389
lo	-390
lem	-391
ia	-392
mose	-393
mar	-394
hjär	-395
▁?»	-396
låt	-397
usa	-398
kommer	-399
ker	-400
fy	-401
ser	-402
slä	-403
ej	-404
huru	-405
skap	-406
blivit	-407
åd	-408
jesus	-409
jerusa	-410
nas	-411
éerna	-412
jerusalem	-413
je	-414
färdig	-415
ho	-416
sö	-417
stå	-418
nar	-419
gr	-420
yp	-421
edra	-422
henne	-423
ko	-424
lar	-425
landet	-426
star	-427
ger	-428
byg	-429
ten	-430
drag	-431
mmel	-432
får	-433
förb	-434
säga	-435
egyp	-436
am	-437
himmel	-438
gjort	-439
åter	-440
sä	-441
lät	-442
pro	-443
ster	-444
två	-445
går	-446
ögon	-447
sal	-448
fört	-449
själv	-450
gär	-451
ända	-452
sju	-453
denna	-454
at	-455
låta	-456
vatt	-457
dagen	-458
sådan	-459
ven	-460
nat	-461
frukt	-462
me	-463
gav	-464
änder	-465
fet	-466
kta	-467
dom	-468
mä	-469
baka	-470
hos	-471
bå	-472
rar	-473
hund	-474
satt	-475
liga	-476
rättfärdig	-477
skri	-478
tillbaka	-479
vis	-480
ställ	-481
ningar	-482
bes	-483
därefter	-484
ds	-485
höra	-486
haven	-487
svär	-488
ve	-489
hustr	-490
taga	-491
stod	-492
denne	-493
profet	-494
myck	-495
klä	-496
ännu	-497
öd	-498
bliver	-499
bel	-500
go	-501
hundra	-502
liv	-503
komm	-504
kunna	-505
också	-506
lade	-507
tro	-508
bor	-509
tar	-510
intet	-511
hem	-512
räck	-513
jäm	-514
dju	-515
ren	-516
hjärta	-517
bed	-518
fråg	-519
ansi	-520
tio	-521
samman	-522
kommit	-523
lik	-524
rik	-525
jud	-526
bröder	-527
samma	-528
huv	-529
emot	-530
slag	-531
talade	-532
lighet	-533
människor	-534
im	-535
dit	-536
nade	-537
fem	-538
lär	-539
fly	-540
lika	-541
kring	-542
tus	-543
berg	-544
ligt	-545
ighet	-546
kö	-547
eftersom	-548
föra	-549
tju	-550
ingo	-551
fri	-552
brän	-553
rist	-554
tusen	-555
dar	-556
bud	-557
dro	-558
mma	-559
äta	-560
full	-561
stra	-562
kän	-563
följ	-564
staden	-565
tän	-566
åstad	-567
kvar	-568
il	-569
bro	-570
många	-571
tit	-572
terna	-573
försam	-574
tala	-575
kor	-576
nad	-577
sag	-578
hålla	-579
stri	-580
ling	-581
plat	-582
uld	-583
allena	-584
kro	-585
omkring	-586
hä	-587
fick	-588
sak	-589
givit	-590
skar	-591
krist	-592
ansikte	-593
bef	-594
förde	-595
finn	-596
dagar	-597
vatten	-598
håll	-599
städer	-600
kommo	-601
himmelen	-602
dock	-603
edom	-604
såg	-605
jung	-606
igt	-607
tan	-608
rop	-609
vinn	-610
▁.'	-611
san	-612
fara	-613
ons	-614
gä	-615
sammans	-616
kär	-617
vem	-618
fast	-619
fäder	-620
igen	-621
vare	-622
hjäl	-623
mor	-624
gu	-625
mycket	-626
unn	-627
gång	-628
ben	-629
fräl	-630
sagt	-631
bör	-632
ner	-633
tre	-634
rå	-635
red	-636
präst	-637
eld	-638
sar	-639
näm	-640
hustru	-641
saul	-642
vitt	-643
sände	-644
hörde	-645
måste	-646
läng	-647
huvud	-648
pen	-649
mannen	-650
dd	-651
kob	-652
jakob	-653
fin	-654
tiden	-655
eli	-656
ske	-657
mun	-658
salom	-659
allenast	-660
tter	-661
bu	-662
döda	-663
hennes	-664
broder	-665
stora	-666
ets	-667
stån	-668
synd	-669
prästen	-670
höj	-671
vre	-672
sätt	-673
låg	-674
bygg	-675
våra	-676
kvinn	-677
händer	-678
ades	-679
els	-680
hag	-681
net	-682
blod	-683
varför	-684
moder	-685
kar	-686
kall	-687
svärd	-688
födde	-689
¦	-690
▁	-691
a	-692
e	-693
n	-694
r	-695
t	-696
s	-697
d	-698
l	-699
o	-700
i	-701
h	-702
m	-703
g	-704
k	-705
𐋇	-706
v	-707
ä	-708
f	-709
u	-710
å	-711
c	-712
,	-713
ö	-714
b	-715
j	-716
p	-717
.	-718
y	-719
»	-720
;	-721
:	-722
𐊣	-723
𐊼	-724
?	-725
-	-726
'	-727
é	-728
!	-729
x	-730
(	-731
)	-732
2	-733
0	-734
4	-735
6	-736
1	-737
8	-738
9	-739
ó	-740
3	-741
5	-742
7	-743
í	-744
]	-745
á	-746
