<pad>	0
</s>	0
<unk>	0
▁the	-3.18727
,	-3.40782
s	-3.62683
▁of	-3.64581
▁	-3.8661
.	-3.89677
▁and	-4.05106
▁(	-4.19448
▁in	-4.2436
▁to	-4.30939
▁a	-4.39478
-	-4.48209
▁was	-4.51995
ed	-4.55237
)	-4.63528
'	-5.07065
▁is	-5.07585
ing	-5.09082
▁as	-5.16096
e	-5.2778
i	-5.35427
a	-5.39905
▁that	-5.4455
▁by	-5.49107
▁no	-5.53387
d	-5.54156
o	-5.57181
n	-5.57316
▁for	-5.58191
▁he	-5.60029
▁on	-5.64772
t	-5.67577
▁with	-5.67636
▁The	-5.76104
▁from	-5.78551
ly	-5.80355
l	-5.80929
▁'	-5.84967
al	-5.85781
▁his	-5.86402
▁"	-5.89333
▁In	-5.89506
),	-5.93186
).	-5.94829
in	-5.96785
▁were	-5.96961
▁it	-5.97725
ri	-5.99396
er	-6.01994
u	-6.02061
"	-6.03582
▁at	-6.03941
y	-6.05623
▁who	-6.05916
▁which	-6.05931
ji	-6.0872
▁be	-6.14459
shi	-6.17625
ra	-6.19686
c	-6.21833
p	-6.22593
▁are	-6.2587
▁He	-6.26798
ku	-6.29373
▁an	-6.30701
▁A	-6.30863
▁O	-6.31133
▁or	-6.33568
no	-6.33662
or	-6.35095
m	-6.36194
to	-6.37062
ko	-6.37139
the	-6.37487
ki	-6.3771
▁period	-6.4018
▁family	-6.42246
:	-6.43836
r	-6.46953
▁clan	-6.49994
▁Emperor	-6.51162
▁It	-6.51239
th	-6.51364
re	-6.51953
jo	-6.5389
▁had	-6.55205
se	-6.55251
▁but	-6.55426
▁Kyoto	-6.55672
ir	-6.56117
mi	-6.56134
ta	-6.57999
▁not	-6.58402
an	-6.58585
es	-6.59138
▁also	-6.60923
▁this	-6.63337
tsu	-6.65405
ma	-6.65459
do	-6.67107
▁Temple	-6.6807
▁Province	-6.69361
▁Ko	-6.71016
▁name	-6.71715
ro	-6.72909
▁19	-6.73468
chi	-6.74543
▁called	-6.758
▁Japan	-6.75975
▁I	-6.7625
A	-6.76632
ion	-6.76728
▁after	-6.76856
sho	-6.78653
▁became	-6.79697
▁City	-6.79714
ation	-6.80198
en	-6.80304
▁one	-6.8291
▁Imperial	-6.8307
▁so	-6.83747
k	-6.84088
▁re	-6.84497
st	-6.87358
ka	-6.87847
te	-6.87868
ar	-6.8804
▁such	-6.88229
g	-6.90256
;	-6.90509
me	-6.91549
▁been	-6.92013
ga	-6.92293
go	-6.92298
▁have	-6.92701
ke	-6.94694
▁time	-6.96554
O	-6.97059
ve	-6.97539
▁Japanese	-6.9755
▁Prefecture	-6.99312
▁when	-7.00486
ya	-7.00917
▁used	-7.0098
gi	-7.01377
bo	-7.04615
ru	-7.05312
da	-7.06364
w	-7.06659
ge	-7.06906
bu	-7.08584
yo	-7.09313
▁On	-7.09347
ter	-7.09394
▁there	-7.09507
le	-7.09732
wa	-7.10555
▁To	-7.10852
▁His	-7.12327
na	-7.12934
▁made	-7.14624
cho	-7.15672
▁c	-7.16451
b	-7.16599
ment	-7.16609
▁other	-7.17998
I	-7.18267
ba	-7.1898
▁son	-7.1913
shu	-7.19262
▁head	-7.19335
▁Edo	-7.19823
▁has	-7.20473
▁they	-7.20538
su	-7.20927
▁government	-7.21013
it	-7.21299
ur	-7.22532
▁during	-7.2288
f	-7.24332
▁people	-7.24432
▁first	-7.24709
▁f	-7.24743
ne	-7.25546
ho	-7.26678
▁into	-7.2687
▁Yoshi	-7.26917
▁said	-7.26919
▁P	-7.27028
S	-7.27262
▁U	-7.2827
▁de	-7.28453
ce	-7.28513
▁T	-7.28864
▁-	-7.29691
▁Sho	-7.29733
sa	-7.30818
ic	-7.31191
gu	-7.31895
▁So	-7.32578
li	-7.33149
ng	-7.33569
▁S	-7.35293
so	-7.35869
fu	-7.36459
▁However	-7.37456
▁18	-7.37647
yama	-7.38339
▁Station	-7.38913
▁Mi	-7.39368
4	-7.3997
▁Ka	-7.40205
2	-7.40631
▁Go	-7.4069
h	-7.4096
▁under	-7.41531
zu	-7.41873
▁con	-7.42684
ted	-7.43953
▁because	-7.44549
on	-7.44756
▁Ho	-7.45012
9	-7.45457
at	-7.46051
kan	-7.46901
zo	-7.47637
▁Taka	-7.47721
▁year	-7.47776
▁out	-7.47859
U	-7.48571
▁E	-7.48593
E	-7.48708
gen	-7.48857
▁its	-7.50123
us	-7.50289
ha	-7.51059
▁Shrine	-7.51197
▁system	-7.51197
kyo	-7.51325
ch	-7.51351
ll	-7.52312
▁Prince	-7.52441
il	-7.5337
▁Ki	-7.53695
▁between	-7.54525
▁many	-7.55689
▁part	-7.56256
▁all	-7.56282
5	-7.56767
▁order	-7.56928
▁Su	-7.5716
ers	-7.57644
ary	-7.57656
dai	-7.57898
be	-7.58022
▁Sa	-7.58292
▁some	-7.58621
▁Thi	-7.58693
sen	-7.59552
▁her	-7.59708
bi	-7.59761
▁rank	-7.60086
1	-7.60393
ju	-7.60412
ent	-7.60427
mon	-7.60457
▁15	-7.60659
ni	-7.6085
▁After	-7.61171
mo	-7.61199
▁same	-7.61228
▁Shi	-7.61314
x	-7.614
3	-7.6147
▁C	-7.61511
▁two	-7.61533
7	-7.61782
▁only	-7.62261
▁about	-7.62751
▁p	-7.63095
▁over	-7.63208
▁where	-7.6462
un	-7.64777
▁died	-7.64778
▁him	-7.64824
▁Ku	-7.64898
▁years	-7.65016
mu	-7.65694
G	-7.66742
▁FUJIWARA	-7.67516
vi	-7.67546
den	-7.67566
▁can	-7.68146
de	-7.68197
▁e	-7.69738
v	-7.69748
tion	-7.70066
▁F	-7.70459
ated	-7.70494
▁temple	-7.70551
▁16	-7.70951
▁Ta	-7.71802
▁end	-7.71837
▁post	-7.72106
M	-7.72144
▁school	-7.72822
shin	-7.72963
▁Shin	-7.73235
▁up	-7.73283
kai	-7.73394
▁father	-7.7388
though	-7.73888
▁main	-7.74005
▁established	-7.74045
▁court	-7.74139
▁position	-7.75358
▁old	-7.75822
8	-7.76051
▁Court	-7.76797
The	-7.76856
▁army	-7.76866
.'	-7.77242
ryo	-7.77358
K	-7.77606
ck	-7.77654
led	-7.77655
▁later	-7.7783
▁written	-7.79556
▁side	-7.79998
▁well	-7.80256
▁Castle	-7.80677
▁death	-7.80678
▁hand	-7.81151
▁co	-7.81154
ial	-7.8128
ten	-7.81787
▁held	-7.81799
ant	-7.82195
ting	-7.82214
age	-7.83852
ity	-7.83975
▁As	-7.84042
yoshi	-7.84085
out	-7.84231
▁Ha	-7.84544
▁Rank	-7.84713
▁than	-7.84728
▁area	-7.85144
za	-7.8516
▁rice	-7.86138
▁being	-7.86306
ance	-7.86359
▁War	-7.86526
▁Ma	-7.86731
▁including	-7.87183
yu	-7.87714
▁Hi	-7.87945
▁through	-7.87969
▁she	-7.88029
▁however	-7.88445
▁second	-7.886
▁Ten	-7.88611
▁those	-7.88919
0	-7.89161
▁sho	-7.89594
▁Kan	-7.89651
▁dis	-7.89782
6	-7.90082
▁official	-7.90231
▁while	-7.90543
▁three	-7.90563
▁war	-7.90763
▁17	-7.90841
gyo	-7.91411
▁more	-7.91483
gawa	-7.9151
R	-7.91589
he	-7.91956
▁Fu	-7.9205
▁do	-7.92634
jin	-7.92659
▁ma	-7.92765
▁daughter	-7.92813
▁located	-7.92945
▁military	-7.93019
▁Masa	-7.9316
▁1	-7.93188
▁pa	-7.93213
▁brother	-7.93475
▁mo	-7.9358
▁known	-7.93679
▁them	-7.93741
▁go	-7.93947
▁pro	-7.94179
▁served	-7.94417
▁ex	-7.9463
▁bakufu	-7.94818
▁o	-7.95004
▁Buddhist	-7.95039
Japanese	-7.95275
▁Kamakura	-7.95325
▁station	-7.95431
sha	-7.95451
▁There	-7.95635
▁state	-7.9603
TA	-7.96304
T	-7.96711
▁Sei	-7.96755
est	-7.96773
ry	-7.96828
▁appointed	-7.96944
▁11	-7.97148
▁Domain	-7.97388
as	-7.97388
▁style	-7.97467
ate	-7.97628
▁person	-7.97954
▁due	-7.98438
sei	-7.98449
▁13	-7.98568
▁b	-7.98949
▁un	-7.99164
▁since	-7.99482
▁12	-7.99683
▁before	-8.00018
▁young	-8.00578
B	-8.00586
min	-8.00739
▁around	-8.00953
▁line	-8.01035
able	-8.01045
▁Ya	-8.01054
▁Dai	-8.01087
▁would	-8.01627
▁came	-8.01677
▁H	-8.01885
gaku	-8.02171
▁B	-8.02519
▁Nara	-8.02818
▁new	-8.02961
▁region	-8.0334
▁10	-8.03622
▁Jo	-8.03719
▁each	-8.03836
▁Meiji	-8.03873
el	-8.03879
▁power	-8.04323
▁given	-8.04466
moto	-8.04582
▁Tsu	-8.04777
▁Line	-8.04971
▁down	-8.05506
ver	-8.05512
▁work	-8.05651
san	-8.05718
▁Al	-8.05776
▁w	-8.05983
tai	-8.06072
▁place	-8.06431
pe	-8.06692
▁lord	-8.07003
po	-8.07495
▁land	-8.07496
co	-8.07578
▁Ni	-8.07646
▁San	-8.08049
ie	-8.08235
▁various	-8.08352
▁Tada	-8.08495
▁took	-8.08823
/	-8.08933
▁title	-8.08937
▁Re	-8.08948
▁age	-8.08968
ist	-8.09196
▁pre	-8.09292
▁No	-8.09317
▁Osaka	-8.09852
▁di	-8.09854
day	-8.09901
masa	-8.1003
um	-8.1021
▁Ji	-8.10729
▁br	-8.10843
nin	-8.10988
▁sect	-8.11153
ous	-8.11289
C	-8.11395
▁3	-8.11455
▁Tokyo	-8.11484
ive	-8.11609
▁Heian	-8.12018
ut	-8.12207
▁even	-8.12523
▁[	-8.12553
▁Naga	-8.12616
▁early	-8.13101
▁addition	-8.13154
▁following	-8.13186
▁use	-8.13248
▁M	-8.13255
suke	-8.13588
▁MINAMOTO	-8.1371
▁back	-8.13713
jinja	-8.13739
▁emperor	-8.14324
ze	-8.14514
zen	-8.14689
▁shogun	-8.14936
hi	-8.15307
▁did	-8.15377
based	-8.154
▁Se	-8.15463
ally	-8.15533
▁ha	-8.1564
▁When	-8.16187
▁imperial	-8.16489
▁ho	-8.16529
▁wife	-8.16816
▁sp	-8.16943
mori	-8.17019
▁considered	-8.17037
▁Do	-8.17039
▁become	-8.17116
▁battle	-8.17449
▁like	-8.1757
▁8	-8.17751
▁priest	-8.17962
▁both	-8.18105
▁day	-8.1829
▁Ward	-8.18645
▁number	-8.18727
▁mother	-8.18756
ect	-8.19369
man	-8.19448
▁himself	-8.20021
▁form	-8.2004
mb	-8.20269
ring	-8.20316
ei	-8.20508
▁local	-8.20878
▁general	-8.20893
▁st	-8.21215
▁domain	-8.21342
,"	-8.21425
▁Chinese	-8.21495
▁great	-8.21693
KA	-8.22153
ice	-8.22335
▁Palace	-8.22662
▁could	-8.22662
▁left	-8.22662
▁book	-8.22669
▁Sen	-8.22882
▁shrine	-8.22919
▁sa	-8.23022
kata	-8.23151
▁Buddhism	-8.23333
DA	-8.23401
▁refer	-8.23436
▁14	-8.23606
▁then	-8.24371
ichi	-8.24378
▁7	-8.24397
Ta	-8.24496
▁School	-8.24689
▁Wa	-8.25063
taka	-8.25155
ty	-8.25497
▁Chi	-8.25618
▁theory	-8.2615
▁Yo	-8.26365
ies	-8.26812
▁Nobu	-8.26918
▁Kin	-8.27239
▁al	-8.27251
▁tea	-8.27251
▁group	-8.27457
et	-8.276
▁6	-8.27778
▁At	-8.27883
▁ceremony	-8.28161
Juni	-8.28173
▁Buddha	-8.28258
▁high	-8.28515
▁these	-8.2856
▁Mt	-8.28582
▁TOKUGAWA	-8.28871
▁large	-8.28872
▁most	-8.29087
KI	-8.29262
sai	-8.29296
shima	-8.29469
ld	-8.29644
myo	-8.30112
roku	-8.3016
rin	-8.30302
▁third	-8.30304
▁According	-8.30389
▁Gen	-8.30445
naga	-8.30489
▁ga	-8.30855
▁against	-8.31085
▁born	-8.31255
ban	-8.31314
▁Ju	-8.31574
went	-8.31796
nd	-8.31814
▁April	-8.31908
▁January	-8.31939
▁era	-8.32338
▁show	-8.32542
▁July	-8.32801
▁ko	-8.32926
▁present	-8.33265
using	-8.33744
▁An	-8.33954
id	-8.34063
ward	-8.3413
▁koku	-8.3418
▁March	-8.3423
MI	-8.3424
▁started	-8.34443
▁office	-8.34605
▁visit	-8.34733
▁Shige	-8.34917
▁October	-8.34967
▁make	-8.34992
▁Yu	-8.35278
▁su	-8.3543
▁built	-8.35491
▁Nobunaga	-8.35518
▁Period	-8.35662
▁Shinto	-8.3597
H	-8.35995
Z	-8.3607
pp	-8.36167
Ko	-8.36211
▁University	-8.36254
▁above	-8.36259
▁Shu	-8.36283
ca	-8.36418
▁samurai	-8.36459
▁section	-8.36506
ron	-8.36648
ence	-8.36682
▁N	-8.36961
▁example	-8.37023
."	-8.37127
men	-8.37215
ight	-8.37319
am	-8.37511
▁among	-8.37803
▁fact	-8.38009
▁set	-8.38283
chu	-8.38612
Ka	-8.38614
▁tri	-8.38619
▁man	-8.38625
▁For	-8.3893
▁5	-8.38949
kuni	-8.39082
zan	-8.39213
han	-8.39392
▁building	-8.39458
▁Yori	-8.39644
ja	-8.39752
▁ro	-8.39993
kaku	-8.4014
▁capital	-8.40161
▁feud	-8.40961
▁Hideyoshi	-8.4099
▁China	-8.41057
▁Moto	-8.41167
▁adopted	-8.41172
▁Ba	-8.4119
▁house	-8.41212
ized	-8.41268
▁temples	-8.41541
00	-8.41669
▁chief	-8.41779
mura	-8.41897
▁lived	-8.42283
▁Hon	-8.42437
▁Kyo	-8.42587
▁way	-8.42626
gun	-8.42664
ti	-8.42687
▁ancient	-8.42729
▁En	-8.42845
▁Kai	-8.42892
nari	-8.42952
▁Ken	-8.43067
▁Sai	-8.43079
▁right	-8.43403
D	-8.43491
▁art	-8.43673
NO	-8.43694
▁life	-8.44228
▁different	-8.44234
▁put	-8.44306
▁days	-8.44445
ions	-8.44488
nori	-8.44626
ther	-8.44656
▁statue	-8.4488
ding	-8.45671
▁sake	-8.46031
ken	-8.46219
▁Ri	-8.46295
▁Chu	-8.46312
ical	-8.46724
▁century	-8.46747
▁will	-8.4681
▁former	-8.46858
yaku	-8.46861
N	-8.47054
▁unti	-8.47236
▁De	-8.47365
▁world	-8.47602
▁G	-8.47665
▁water	-8.47689
▁May	-8.47816
▁others	-8.47893
z	-8.47899
▁ka	-8.47951
▁real	-8.47964
▁kami	-8.48425
▁unknown	-8.48473
▁Tai	-8.48537
▁national	-8.48649
▁R	-8.4889
▁long	-8.49004
▁Yasu	-8.49008
yuki	-8.49023
▁mi	-8.49246
fe	-8.49317
▁control	-8.49334
▁branch	-8.49334
▁often	-8.49346
▁4	-8.49372
▁2	-8.49442
▁governor	-8.49579
▁Cho	-8.4959
▁common	-8.49903
mei	-8.50042
ure	-8.50574
gin	-8.50783
▁ASHIKAGA	-8.51096
▁August	-8.51096
▁sword	-8.51096
▁Ieyasu	-8.51106
▁February	-8.51296
fa	-8.51623
▁off	-8.51887
oka	-8.51982
▁birth	-8.51989
▁December	-8.52152
▁four	-8.52156
▁September	-8.52171
▁should	-8.5289
▁charge	-8.5289
J	-8.53051
shiki	-8.53334
ful	-8.53491
ran	-8.53586
▁9	-8.53618
tic	-8.541
▁Gon	-8.54116
hime	-8.54155
▁play	-8.54166
kei	-8.54238
one	-8.54461
▁Railway	-8.54716
▁half	-8.54726
▁began	-8.54932
ig	-8.55022
yori	-8.55037
▁Mitsu	-8.55044
▁wa	-8.55235
koku	-8.55301
▁train	-8.55563
literally	-8.55642
▁close	-8.55642
▁together	-8.55644
▁members	-8.55665
▁if	-8.55922
▁another	-8.55949
machi	-8.56013
▁child	-8.56564
AIRA	-8.56577
▁castle	-8.56577
▁still	-8.56599
▁times	-8.56641
ff	-8.56674
▁historical	-8.56711
▁November	-8.56748
dori	-8.56984
old	-8.57268
▁Co	-8.57317
▁away	-8.57493
▁Battle	-8.5752
▁reason	-8.57521
▁changed	-8.57726
▁po	-8.57802
less	-8.5788
kura	-8.5809
▁law	-8.58198
▁within	-8.58446
▁influence	-8.58473
▁regard	-8.58473
▁result	-8.58474
toku	-8.58939
▁en	-8.59234
ism	-8.59314
▁Muromachi	-8.59434
▁important	-8.59449
gan	-8.5958
▁Uji	-8.59597
▁Jin	-8.5971
om	-8.59712
▁Miya	-8.59745
va	-8.59773
▁Omi	-8.59947
pi	-8.59976
kin	-8.60157
ts	-8.60217
P	-8.60266
SU	-8.60272
▁h	-8.60318
MA	-8.60327
▁families	-8.60405
▁National	-8.60405
▁country	-8.60422
▁Mo	-8.61033
ai	-8.61098
▁bu	-8.61188
▁D	-8.61191
▁d	-8.61259
▁means	-8.61604
▁according	-8.61797
having	-8.61814
▁san	-8.62034
▁cha	-8.62063
L	-8.62275
bun	-8.6234
▁Sada	-8.6239
very	-8.62509
ating	-8.62652
low	-8.62669
tori	-8.63105
▁small	-8.63376
moved	-8.63378
▁Zen	-8.63379
▁tax	-8.63384
rai	-8.63698
▁take	-8.63838
ac	-8.63927
rd	-8.6409
▁late	-8.64349
fi	-8.64355
▁north	-8.6439
kyu	-8.64459
▁They	-8.64501
▁Empress	-8.64505
▁Ga	-8.64666
cy	-8.64707
▁term	-8.64975
tomo	-8.65303
▁any	-8.65397
pen	-8.65412
▁Bu	-8.65483
▁lost	-8.65492
▁express	-8.6555
▁described	-8.65586
▁type	-8.65835
▁ri	-8.65989
▁la	-8.66054
▁center	-8.66442
▁issued	-8.66647
▁public	-8.66648
▁Hiro	-8.66681
ishi	-8.66854
tur	-8.66872
▁service	-8.66877
▁origin	-8.67117
ph	-8.67191
To	-8.67323
▁Sane	-8.67355
▁Street	-8.67479
▁20	-8.67726
▁role	-8.67733
▁Kei	-8.6782
red	-8.6784
▁Yamato	-8.67898
mitsu	-8.68106
▁V	-8.68411
▁Grade	-8.68531
▁Tokugawa	-8.68548
Since	-8.68564
▁W	-8.68593
emon	-8.68598
ish	-8.68628
▁mountain	-8.68724
▁Mori	-8.6882
ture	-8.68911
per	-8.68913
▁K	-8.68933
]	-8.69358
▁dai	-8.69364
▁Be	-8.69563
▁volume	-8.69595
Northern	-8.69603
ryu	-8.69748
▁found	-8.70277
▁m	-8.70518
▁popular	-8.7063
▁good	-8.70674
▁children	-8.70689
▁Ie	-8.70713
▁Nishi	-8.70796
▁promoted	-8.71085
▁shrines	-8.71746
▁political	-8.71757
▁front	-8.71758
Southern	-8.71768
▁believed	-8.71868
kawa	-8.71947
katsu	-8.71955
▁kind	-8.71961
dan	-8.72075
▁received	-8.72079
form	-8.7248
▁monk	-8.72486
▁Korea	-8.72647
▁music	-8.72859
▁Hide	-8.72962
▁hall	-8.7306
▁succeeded	-8.731
▁along	-8.73458
▁Ise	-8.7356
▁noble	-8.73724
▁trains	-8.73838
▁books	-8.73956
▁Therefore	-8.73967
Senior	-8.73975
nomiya	-8.74095
▁se	-8.74137
▁history	-8.74208
▁created	-8.74452
▁killed	-8.74491
▁current	-8.74531
▁ju	-8.74601
▁Matsu	-8.74759
▁Minister	-8.7482
▁Bun	-8.74851
▁view	-8.75091
▁site	-8.75096
▁River	-8.75133
▁She	-8.75243
designated	-8.75447
tsuna	-8.75882
▁Na	-8.75882
▁rule	-8.75885
hara	-8.75922
▁case	-8.75985
▁calendar	-8.76227
▁daimyo	-8.76256
▁last	-8.76367
son	-8.76414
hito	-8.7653
▁Kane	-8.76746
▁ca	-8.76825
▁character	-8.77007
ide	-8.77236
▁original	-8.7739
▁just	-8.77503
▁sent	-8.77717
tada	-8.77906
kami	-8.78154
tan	-8.7819
shige	-8.78299
▁you	-8.78345
hira	-8.7847
▁story	-8.7859
gon	-8.78619
▁Sect	-8.78672
▁Also	-8.78697
▁thought	-8.78752
▁master	-8.79061
▁record	-8.79392
king	-8.79455
▁Kami	-8.79539
▁Bo	-8.79659
▁letter	-8.79717
rei	-8.79786
▁works	-8.80034
▁Nan	-8.80109
michi	-8.80166
▁June	-8.80178
▁food	-8.80906
▁strong	-8.80907
▁transferred	-8.80913
▁sever	-8.80987
▁bi	-8.80988
▁hold	-8.8099
aki	-8.81
▁five	-8.81057
and	-8.81173
▁included	-8.81199
nobu	-8.81332
▁modern	-8.81356
▁Myo	-8.81458
▁Toki	-8.81477
bon	-8.81531
ren	-8.81536
▁lead	-8.81965
▁L	-8.82095
▁Incident	-8.82111
▁practice	-8.82111
▁territory	-8.82111
▁Yoritomo	-8.82138
▁Noh	-8.82238
▁seen	-8.82518
▁ten	-8.82541
▁Mon	-8.82568
matsu	-8.82677
▁Dur	-8.82793
tch	-8.82822
▁(1	-8.8299
▁Y	-8.83213
▁Genji	-8.83259
nyo	-8.83268
▁residence	-8.83331
▁contain	-8.83333
▁Kyushu	-8.83362
▁Shogun	-8.83399
hon	-8.83651
▁city	-8.83652
▁come	-8.8367
▁east	-8.83892
butsu	-8.84123
▁returned	-8.84238
▁Naka	-8.84352
▁status	-8.84565
▁every	-8.84639
tsugu	-8.84806
▁fu	-8.8489
▁kan	-8.85043
▁forces	-8.85271
▁word	-8.85645
▁per	-8.85839
▁Li	-8.85843
con	-8.8588
up	-8.85947
▁collection	-8.85989
▁developed	-8.86039
▁Taira	-8.86118
▁Aki	-8.863
sada	-8.8639
▁Some	-8.86421
▁performed	-8.86454
▁passed	-8.86663
ling	-8.86838
▁sometime	-8.87109
▁enshrined	-8.87188
])	-8.87364
les	-8.87668
kko	-8.88278
▁instead	-8.88363
▁Cultur	-8.88363
▁gate	-8.88576
fusa	-8.88776
▁characters	-8.88777
ship	-8.88851
▁own	-8.88957
▁Koku	-8.89062
ill	-8.89242
Ma	-8.89309
▁Mu	-8.89447
way	-8.89504
▁cho	-8.89507
ound	-8.89511
▁me	-8.89627
▁foreign	-8.89662
▁festival	-8.89662
▁middle	-8.89673
▁State	-8.89807
▁produced	-8.89818
▁commander	-8.8989
▁member	-8.90009
referred	-8.90031
▁areas	-8.90061
▁once	-8.90148
▁Yama	-8.90323
dy	-8.90452
Mi	-8.90514
▁Nori	-8.90785
▁support	-8.90845
▁Kita	-8.90923
▁generation	-8.90946
▁Dynasty	-8.90978
▁construction	-8.91005
▁making	-8.91025
tory	-8.91148
▁officer	-8.91252
val	-8.91301
▁200	-8.91408
▁materials	-8.91984
nder	-8.92024
Sa	-8.9207
▁County	-8.92311
▁famous	-8.92311
▁ground	-8.92313
imate	-8.92378
▁private	-8.92527
ness	-8.92706
gata	-8.92846
Na	-8.93662
▁next	-8.93662
▁stone	-8.9371
▁shogunate	-8.93741
▁act	-8.93755
zai	-8.93781
▁comp	-8.93927
▁mon	-8.93934
▁Take	-8.9408
▁point	-8.94421
fac	-8.94614
60	-8.94807
▁Fuku	-8.95023
▁incident	-8.95032
▁countries	-8.95032
▁image	-8.95058
▁short	-8.95059
▁Tsune	-8.95214
▁25	-8.95452
Genji	-8.95713
▁Toshi	-8.95726
by	-8.95873
pt	-8.96126
Ho	-8.96268
oki	-8.96297
▁get	-8.96319
▁south	-8.96424
▁studi	-8.96424
▁palace	-8.96433
▁we	-8.9644
▁fire	-8.96504
over	-8.9661
▁1,	-8.96659
▁field	-8.96737
JI	-8.96779
let	-8.96809
uchi	-8.96811
land	-8.96874
▁cultur	-8.97285
YA	-8.97721
bashi	-8.97791
ities	-8.97819
▁spirit	-8.97825
▁text	-8.9783
ifth	-8.97913
▁arm	-8.97918
ving	-8.97975
▁vassal	-8.97987
▁Kuni	-8.98031
▁shi	-8.98053
▁class	-8.98098
▁Te	-8.98119
ssistant	-8.9813
▁paper	-8.98229
SHI	-8.98242
ue	-8.98298
lar	-8.98352
hiko	-8.9848
1,	-8.98545
goku	-8.9889
▁major	-8.99259
▁village	-8.99273
▁plan	-8.99275
cross	-8.99277
ified	-8.99377
,000	-8.99481
▁retainer	-8.99521
we	-8.99624
▁return	-8.99639
ple	-8.99833
▁ki	-8.99987
YAMA	-9.00067
▁placed	-9.00265
▁Ro	-9.0032
mono	-9.0042
Sho	-9.00478
▁god	-9.0066
▁Lower	-9.00707
▁Office	-9.00707
▁worship	-9.00708
saki	-9.00788
80	-9.00801
▁event	-9.00892
▁special	-9.00955
Hi	-9.01001
▁originally	-9.01135
):	-9.01249
koji	-9.01301
▁base	-9.01346
▁Michi	-9.01373
kushi	-9.01394
▁gra	-9.01419
▁Iwa	-9.01552
oku	-9.0156
▁Tomo	-9.01628
cre	-9.01635
▁now	-9.01685
▁again	-9.02095
yasu	-9.02141
que	-9.02176
▁Because	-9.02178
▁Division	-9.02178
▁Fujiwara	-9.02178
▁study	-9.02178
▁method	-9.02178
▁House	-9.02182
side	-9.02316
▁bus	-9.02472
seki	-9.02577
▁ODA	-9.02586
pu	-9.0264
▁process	-9.02664
▁sea	-9.02691
▁allowed	-9.02697
▁introduced	-9.02713
▁Saga	-9.03433
ors	-9.0355
ui	-9.036
▁conflict	-9.03671
▁business	-9.03671
▁TO	-9.03729
▁v	-9.03814
▁deity	-9.03902
cha	-9.03923
▁attack	-9.04115
▁men	-9.04115
dera	-9.0418
jima	-9.04197
▁Han	-9.04529
rew	-9.04614
▁Waka	-9.04628
▁may	-9.04629
2,	-9.0473
taro	-9.04805
F	-9.04933
▁Ne	-9.04991
ral	-9.05101
▁near	-9.05199
uji	-9.05206
▁tak	-9.05217
cul	-9.05334
miya	-9.05461
▁Princess	-9.05524
ine	-9.05586
▁troops	-9.05881
▁30	-9.06163
▁relat	-9.06191
gami	-9.06248
▁Ichi	-9.06307
▁Man	-9.06536
ification	-9.06668
▁etc	-9.06706
▁founded	-9.06707
▁traditional	-9.06709
▁color	-9.06727
▁Ryo	-9.06753
▁History	-9.0682
MURA	-9.06862
▁month	-9.06911
guchi	-9.0705
▁Kanto	-9.07294
▁hi	-9.07454
Ha	-9.07517
▁Da	-9.07518
▁entered	-9.07621
Japan	-9.07765
head	-9.07778
▁collect	-9.08069
▁Kiyo	-9.08164
▁prince	-9.08188
▁town	-9.08248
▁concern	-9.08287
▁assum	-9.0838
port	-9.08539
AN	-9.08618
▁KO	-9.08797
Y	-9.08801
▁nobles	-9.08928
▁appeared	-9.08942
lic	-9.09145
▁pass	-9.09204
▁protect	-9.09249
▁St	-9.09346
ought	-9.09702
▁Yuki	-9.09751
▁mentioned	-9.09875
▁therefore	-9.09876
▁Keihan	-9.0991
fuku	-9.09933
CHI	-9.0998
mune	-9.10181
18	-9.10392
▁Tale	-9.10593
ner	-9.10947
▁design	-9.10977
hiro	-9.10978
")	-9.11024
house	-9.11027
▁include	-9.11091
specially	-9.11221
UCHI	-9.11379
if	-9.11445
▁Satsuma	-9.11488
▁From	-9.11488
▁consist	-9.11491
▁spread	-9.11514
WA	-9.11765
▁Ashi	-9.11842
RI	-9.11858
▁past	-9.12408
▁unit	-9.12449
▁Korean	-9.12508
▁Sha	-9.12565
▁places	-9.12636
hei	-9.12868
qua	-9.13126
▁Family	-9.13126
▁wrote	-9.13127
▁latter	-9.13127
▁occurred	-9.13131
tto	-9.13146
▁compil	-9.13215
kept	-9.13258
nen	-9.13312
▁Kazu	-9.13475
round	-9.13928
saka	-9.14033
▁sub	-9.14062
19	-9.14273
▁exist	-9.14357
Shi	-9.14502
▁operat	-9.14581
▁stop	-9.14586
▁run	-9.14609
ugh	-9.14664
▁Monogatari	-9.14793
▁situation	-9.14793
▁soldiers	-9.14793
▁Kannon	-9.14796
▁inside	-9.14801
ternal	-9.14808
▁East	-9.14822
tive	-9.14863
▁fought	-9.14869
▁stage	-9.15154
▁affairs	-9.15187
6,	-9.15216
▁defeated	-9.15237
▁six	-9.15347
▁rep	-9.15448
▁Me	-9.15469
hai	-9.15507
▁shape	-9.15517
row	-9.15518
toki	-9.15522
▁pur	-9.15563
▁continued	-9.15649
ible	-9.1567
Shin	-9.15678
mochi	-9.15692
Fu	-9.15762
▁religio	-9.16105
read	-9.16362
▁low	-9.16417
▁Com	-9.1642
MOTO	-9.16488
▁Museum	-9.16488
▁custom	-9.16488
▁Second	-9.16488
▁granted	-9.16488
▁movement	-9.16488
▁few	-9.16494
10	-9.16497
▁authority	-9.16515
▁performance	-9.16519
▁Later	-9.16532
▁Shogunate	-9.16537
▁Mune	-9.16585
▁meters	-9.16591
▁dance	-9.16602
▁fish	-9.16606
▁carri	-9.16743
▁provinces	-9.17013
▁provinc	-9.17099
▁taken	-9.17243
▁ti	-9.17266
▁Katsu	-9.17561
hisa	-9.1765
cent	-9.18096
▁Higashi	-9.18172
▁technique	-9.18212
▁Great	-9.18212
▁women	-9.18212
▁With	-9.18213
later	-9.18244
▁Hall	-9.18426
▁operation	-9.18435
▁store	-9.18497
gai	-9.18507
▁Bus	-9.18558
▁see	-9.18579
chika	-9.18686
maro	-9.18691
▁gain	-9.18912
▁pla	-9.18922
ok	-9.19061
▁force	-9.19385
ging	-9.19618
Kyoto	-9.19646
Ki	-9.19655
IN	-9.19707
▁retainers	-9.1973
omi	-9.19799
▁manag	-9.19886
▁Guards	-9.19966
▁social	-9.19967
▁garden	-9.19967
▁body	-9.19969
▁road	-9.19971
▁car	-9.19977
▁Sengoku	-9.20001
▁eight	-9.20034
20	-9.20246
▁bar	-9.20317
▁Ministry	-9.20366
▁Nari	-9.20374
even	-9.20377
like	-9.20389
15	-9.2046
▁na	-9.20718
90	-9.20755
▁date	-9.2082
tsune	-9.20829
▁officials	-9.20921
▁medi	-9.21142
▁start	-9.21167
▁Governor	-9.21247
style	-9.21514
7,	-9.21574
▁waka	-9.21583
▁names	-9.21739
mission	-9.21746
▁decided	-9.21752
▁disciple	-9.21752
▁treasure	-9.21752
▁article	-9.21752
▁secret	-9.21754
▁Con	-9.21815
▁Di	-9.21823
▁wooden	-9.21838
▁represent	-9.21845
zuka	-9.21938
▁gold	-9.2194
▁seem	-9.21944
▁abolished	-9.22014
▁Haru	-9.22104
▁Kawa	-9.22151
▁today	-9.22335
▁culture	-9.22449
▁poems	-9.22558
▁22	-9.22684
ology	-9.2294
▁Kore	-9.22971
▁party	-9.22991
ged	-9.23016
72	-9.23125
▁change	-9.23179
▁read	-9.23387
leg	-9.23403
▁24	-9.23497
▁Gi	-9.23502
▁Festival	-9.2357
▁particular	-9.2357
▁relationship	-9.2357
▁sister	-9.23571
▁Route	-9.23571
99	-9.23575
▁poet	-9.23619
▁hard	-9.23634
▁lower	-9.23844
▁priests	-9.23927
▁published	-9.23939
13	-9.23962
ach	-9.24033
▁met	-9.24153
▁cut	-9.24195
istic	-9.24374
▁Mura	-9.24398
▁poem	-9.24595
▁enter	-9.24597
75	-9.2463
gree	-9.24652
▁Cha	-9.249
related	-9.24922
▁ge	-9.24933
art	-9.2505
jiro	-9.25374
▁themselves	-9.25422
▁legend	-9.25422
▁retired	-9.25422
Record	-9.25423
▁drama	-9.25423
▁reign	-9.25423
▁Road	-9.25424
▁indicat	-9.25424
▁Bosatsu	-9.25431
▁district	-9.25449
▁generations	-9.25466
▁Right	-9.25475
▁what	-9.25484
▁28	-9.25519
▁Third	-9.2552
▁reach	-9.25539
▁assigned	-9.25634
Kan	-9.25649
▁big	-9.25669
tama	-9.2597
kiyo	-9.26045
▁Kage	-9.2606
ult	-9.26069
▁sha	-9.26117
nosuke	-9.26122
▁joined	-9.26237
▁Du	-9.2628
▁Ei	-9.26464
▁attacked	-9.2675
▁serve	-9.26923
40	-9.26936
pon	-9.27028
▁Dainagon	-9.27309
▁certain	-9.27309
▁similar	-9.27309
▁High	-9.27309
Nihonshoki	-9.27313
KAWA	-9.27316
▁broke	-9.27338
▁direct	-9.27343
▁room	-9.2736
OKA	-9.27395
▁caused	-9.27534
hashi	-9.27552
▁how	-9.27574
▁fourth	-9.27628
▁western	-9.2774
▁Nijo	-9.27793
▁founder	-9.27933
▁tra	-9.28105
ISHI	-9.2856
▁21	-9.28676
▁central	-9.28735
shiro	-9.28998
▁my	-9.29053
▁respect	-9.29232
▁beginning	-9.29232
▁property	-9.29232
▁throne	-9.29232
▁First	-9.29233
▁flower	-9.29233
▁horse	-9.29234
▁estate	-9.29235
▁Sutra	-9.29236
▁highest	-9.29332
most	-9.29697
▁higher	-9.29906
gura	-9.29932
hama	-9.29956
▁Nin	-9.30023
▁Shima	-9.30178
▁Then	-9.30212
▁leader	-9.30217
▁27	-9.30233
▁existed	-9.30478
▁shin	-9.30646
ura	-9.30778
▁Mino	-9.31117
mportant	-9.31183
▁HOSOKAWA	-9.31193
▁TOYOTOMI	-9.31193
▁amount	-9.31193
▁figure	-9.31193
▁World	-9.31193
▁teaching	-9.31194
▁series	-9.31194
▁Even	-9.31199
▁administration	-9.31237
▁Whi	-9.31248
tei	-9.31252
▁One	-9.31437
▁code	-9.31445
▁Jodo	-9.31661
▁conducted	-9.31674
table	-9.31713
▁Suke	-9.31754
mai	-9.31921
maru	-9.32069
▁jo	-9.32131
35	-9.32237
▁Jun	-9.32286
shaku	-9.32457
wn	-9.32469
▁learn	-9.32563
▁actual	-9.32569
▁formed	-9.32604
▁hon	-9.32732
66	-9.32769
▁Nao	-9.32777
zane	-9.32795
▁descendants	-9.32927
present	-9.33007
nai	-9.33097
▁Furthermore	-9.33193
▁look	-9.33193
▁married	-9.33193
▁woman	-9.33193
▁clear	-9.33193
▁usual	-9.33199
saku	-9.33225
▁West	-9.33261
toshi	-9.33273
▁grave	-9.33325
▁Moro	-9.33448
▁J	-9.33487
▁upon	-9.33499
▁Art	-9.33505
hide	-9.33529
▁documents	-9.33596
82	-9.33717
haru	-9.33743
▁meaning	-9.33771
▁guard	-9.3378
▁does	-9.33846
▁Kuro	-9.3387
▁23	-9.33923
▁II	-9.3394
▁Toyo	-9.33973
of	-9.34129
▁Nihon	-9.34224
▁Main	-9.3434
▁older	-9.34394
▁wh	-9.34401
shaped	-9.34425
▁count	-9.3443
▁kuni	-9.34582
▁west	-9.34676
goro	-9.3475
▁song	-9.34877
car	-9.34913
50	-9.34966
▁live	-9.35116
▁seven	-9.35149
▁Tang	-9.35189
chief	-9.35208
unicipal	-9.35233
▁length	-9.35233
▁limited	-9.35233
▁organization	-9.35233
▁possible	-9.35233
▁company	-9.35234
▁raised	-9.35235
▁belonged	-9.35236
▁route	-9.35236
▁Left	-9.35242
▁fall	-9.35253
rank	-9.35337
▁lineage	-9.35387
ft	-9.35684
meter	-9.35824
NI	-9.36007
Go	-9.36131
▁New	-9.3622
GI	-9.36244
▁continu	-9.36255
▁mid	-9.3638
▁follows	-9.36427
▁services	-9.36429
▁got	-9.3644
88	-9.36856
81	-9.37017
▁perform	-9.3706
strict	-9.37282
X	-9.37317
▁HOJO	-9.37317
▁MATSU	-9.37317
▁sauce	-9.37317
▁Kabuki	-9.37318
▁Fushimi	-9.37318
▁Western	-9.37318
▁turn	-9.37334
▁production	-9.37359
▁heir	-9.37362
▁list	-9.37388
▁Kawachi	-9.37456
▁sta	-9.37465
▁Fuji	-9.3749
▁home	-9.37679
▁mean	-9.3778
▁top	-9.37897
Ku	-9.38015
▁vo	-9.38036
date	-9.38121
▁YAMA	-9.38275
▁Hojo	-9.38326
▁im	-9.38407
ished	-9.38533
j	-9.38622
▁Le	-9.38701
▁lords	-9.38789
▁shu	-9.38852
▁Bi	-9.39241
▁hot	-9.39366
▁NAKA	-9.39433
posthumous	-9.39444
▁equi	-9.39445
▁burn	-9.39448
▁season	-9.3947
▁relative	-9.39487
▁Land	-9.3949
▁originated	-9.39539
▁appears	-9.39543
▁spring	-9.39544
▁Takeda	-9.39584
▁Tendai	-9.39682
▁selected	-9.39689
ber	-9.39702
▁cover	-9.39737
0,000	-9.39801
▁sold	-9.39916
▁say	-9.39953
▁records	-9.40036
tsuki	-9.40039
line	-9.40097
kaido	-9.40148
▁approx	-9.40164
tle	-9.40252
tomi	-9.406
▁students	-9.40849
ble	-9.41082
▁trees	-9.41211
▁vassals	-9.41375
▁coins	-9.41516
Chronicle	-9.41618
▁Army	-9.41618
▁Electric	-9.41618
▁occasion	-9.41618
▁scene	-9.41619
▁matter	-9.4162
▁money	-9.41621
▁Tei	-9.41639
▁night	-9.4164
▁Act	-9.41652
▁Shingon	-9.41706
▁outside	-9.41707
▁Oda	-9.41772
▁province	-9.4179
▁remov	-9.41821
▁love	-9.41886
▁played	-9.41995
▁Ama	-9.42067
▁hereditary	-9.42069
▁Her	-9.42236
▁total	-9.42364
▁wear	-9.42382
▁cases	-9.42415
▁Yoshino	-9.42552
▁port	-9.42575
sui	-9.42585
thing	-9.42593
▁remained	-9.42635
tsuryo	-9.42813
▁whole	-9.42901
▁schools	-9.42921
▁va	-9.4326
▁Gyo	-9.43408
▁light	-9.43459
part	-9.43467
▁fell	-9.43536
▁give	-9.43604
17	-9.43687
▁trans	-9.43743
▁document	-9.43756
▁whe	-9.43779
jingu	-9.4383
▁gradually	-9.43841
▁opinion	-9.43841
▁properties	-9.43841
▁ritual	-9.43841
▁Nichiren	-9.43841
▁accept	-9.43841
▁simpl	-9.43841
claim	-9.43841
▁rebellion	-9.43841
▁human	-9.43841
▁maintain	-9.43843
▁renam	-9.43845
▁Owari	-9.43845
▁value	-9.4385
▁thus	-9.43865
▁development	-9.4387
▁description	-9.43882
▁lun	-9.43884
aries	-9.43924
▁measure	-9.43956
▁recent	-9.43987
▁director	-9.44087
▁words	-9.4415
▁remains	-9.44195
▁Bureau	-9.44399
68	-9.44542
▁lot	-9.44569
▁details	-9.44744
▁Kata	-9.44745
▁Dan	-9.44757
Wa	-9.44817
yaki	-9.44998
▁kill	-9.45168
long	-9.45186
GAWA	-9.4527
▁Sui	-9.45476
BE	-9.45504
▁Prefectur	-9.45573
pper	-9.45598
▁except	-9.4579
bugyo	-9.45802
▁issue	-9.45824
ever	-9.45955
▁Ge	-9.46028
▁Restoration	-9.46113
▁difficult	-9.46113
▁dynasty	-9.46113
▁education	-9.46113
▁involved	-9.46113
▁literature	-9.46113
HARA	-9.46113
▁participat	-9.46113
▁policy	-9.46113
▁course	-9.46114
▁Year	-9.46114
▁railway	-9.46115
▁Ltd	-9.46116
▁Amida	-9.46116
▁completed	-9.46118
board	-9.46124
▁never	-9.46127
▁leave	-9.46152
▁Fourth	-9.46177
▁Law	-9.46211
▁farm	-9.46243
iwa	-9.46323
V	-9.46347
kazu	-9.46503
▁inherited	-9.46574
▁compar	-9.46582
▁below	-9.46618
▁male	-9.46793
tari	-9.46879
▁remain	-9.47103
cal	-9.47574
EN	-9.47751
pped	-9.47828
▁parts	-9.47966
▁tsu	-9.48236
▁cloth	-9.48285
▁though	-9.48292
?	-9.48439
▁Chunagon	-9.48439
▁conferred	-9.48439
▁pattern	-9.48439
▁subject	-9.48439
▁silver	-9.48439
▁prevent	-9.48439
▁featur	-9.4844
▁film	-9.4844
▁uncle	-9.4844
▁northern	-9.48441
▁track	-9.48492
▁divided	-9.48538
▁asked	-9.48561
time	-9.48585
▁powerful	-9.48657
▁provided	-9.48679
▁surrounding	-9.48742
▁Maizuru	-9.48871
▁constructed	-9.48901
▁SHI	-9.48944
▁Un	-9.48949
▁far	-9.48975
▁idea	-9.49036
▁Sanjo	-9.49045
▁Tame	-9.49085
also	-9.49138
▁added	-9.49231
raw	-9.49233
▁Toku	-9.49234
▁General	-9.49259
▁positions	-9.4945
16	-9.49562
▁("	-9.49673
▁Roku	-9.49873
▁liv	-9.49912
raku	-9.50002
▁minister	-9.50099
▁towns	-9.50163
▁command	-9.504
▁By	-9.50442
kaga	-9.50583
▁stra	-9.50622
▁And	-9.50628
vol	-9.5069
▁face	-9.50755
76	-9.5079
ON	-9.50815
▁research	-9.5082
▁level	-9.5082
▁suffer	-9.5082
▁foot	-9.50821
▁keep	-9.50822
▁earth	-9.50822
▁much	-9.50828
▁engag	-9.50838
▁deriv	-9.50841
▁Ishi	-9.50848
▁wood	-9.51356
▁hair	-9.51421
nabe	-9.51747
treated	-9.51777
▁tai	-9.51942
▁100	-9.5212
ori	-9.52297
48	-9.52594
▁join	-9.52635
▁councilor	-9.52689
▁describe	-9.52863
▁know	-9.52886
▁ship	-9.5289
daijin	-9.52926
▁gods	-9.52927
▁nation	-9.52928
ious	-9.52931
▁connect	-9.52977
▁creat	-9.53107
oji	-9.5313
▁prepar	-9.53146
kuro	-9.53158
▁author	-9.5322
▁Affairs	-9.53259
▁Captain	-9.53259
▁contribut	-9.53259
▁destroy	-9.53259
▁structure	-9.53259
▁surrender	-9.53259
▁picture	-9.53259
▁street	-9.53259
▁request	-9.53259
▁Among	-9.53261
▁decorat	-9.53264
▁lines	-9.53271
SAKA	-9.53292
▁gl	-9.53312
▁establishment	-9.53332
▁Awa	-9.53345
▁fla	-9.53487
▁increased	-9.53491
▁Mutsu	-9.53506
▁Taisho	-9.53594
Heike	-9.5363
▁Yoshiaki	-9.53631
▁More	-9.5364
▁Otsu	-9.5371
scale	-9.53724
ppo	-9.53775
▁statues	-9.5379
▁rest	-9.53819
▁26	-9.54144
▁opened	-9.5419
▁bound	-9.54368
87	-9.54525
▁Shimo	-9.54547
eak	-9.54557
▁cars	-9.54661
▁ken	-9.54726
HO	-9.5478
▁gun	-9.54801
▁terms	-9.5483
▁Hachi	-9.55193
▁Shiga	-9.55537
23	-9.5555
▁Nai	-9.55571
▁Treasure	-9.55759
▁Village	-9.55759
▁condition	-9.55759
▁independent	-9.55759
▁individual	-9.55759
▁problem	-9.55759
▁Crown	-9.55759
▁white	-9.5576
▁Asuka	-9.55763
▁regent	-9.55764
▁envoy	-9.5577
▁roof	-9.55791
▁theories	-9.55795
▁29	-9.55934
iddle	-9.55992
▁Shinshu	-9.56238
called	-9.56275
▁standing	-9.56342
▁forced	-9.56462
▁cap	-9.56465
▁Showa	-9.56565
zuki	-9.56937
No	-9.5705
▁care	-9.57053
▁appear	-9.57094
mine	-9.57095
▁becom	-9.571
▁full	-9.5711
light	-9.57135
▁imp	-9.57451
▁Ren	-9.57738
▁Rei	-9.57818
▁regions	-9.57979
▁govern	-9.5799
dditionally	-9.58093
▁painting	-9.58224
▁female	-9.58323
▁register	-9.58323
▁further	-9.58323
▁senior	-9.58323
▁chapter	-9.58324
▁itself	-9.58324
▁travel	-9.58326
WARA	-9.58341
▁succession	-9.58346
▁things	-9.58396
▁deep	-9.58404
▁rare	-9.58415
▁sound	-9.58438
▁deities	-9.58451
▁seat	-9.585
▁wall	-9.58508
▁trade	-9.58596
▁direction	-9.58714
gar	-9.58849
year	-9.58862
▁Shichi	-9.59195
Ten	-9.59433
▁Minamoto	-9.60046
▁establish	-9.60296
stitution	-9.60312
nao	-9.60351
▁toward	-9.60489
▁wide	-9.60803
▁favor	-9.60918
▁warrior	-9.60928
>	-9.60955
▁Goshirakawa	-9.60955
▁available	-9.60955
▁resigned	-9.60955
▁ancestor	-9.60955
▁eventually	-9.60955
▁purpose	-9.60955
▁natural	-9.60955
▁finally	-9.60955
Article	-9.60962
▁print	-9.60968
▁Kiyomori	-9.61004
▁JR	-9.61005
▁active	-9.6102
mark	-9.61045
▁Town	-9.61069
▁shugo	-9.61104
take	-9.61164
Raku	-9.61168
▁administrati	-9.61384
▁committ	-9.61502
Emperor	-9.6155
▁followed	-9.61568
▁says	-9.61637
▁Council	-9.61664
▁ryo	-9.61672
▁stayed	-9.61723
▁saying	-9.61735
▁Kame	-9.61897
▁exp	-9.62135
▁Kamo	-9.6219
▁provision	-9.62201
Ya	-9.62452
▁rid	-9.6252
kane	-9.62557
for	-9.62629
47	-9.62827
78	-9.62951
▁stand	-9.63145
65	-9.63207
ization	-9.63219
▁fight	-9.63285
bara	-9.63346
▁Gu	-9.63583
▁effect	-9.63626
▁Ancient	-9.63657
▁Association	-9.63657
▁Household	-9.63657
▁distinguish	-9.63657
▁little	-9.63657
▁peace	-9.63657
▁Godaigo	-9.63658
▁Party	-9.63658
▁think	-9.63658
▁successive	-9.63663
▁promot	-9.6367
▁legal	-9.63691
▁awarded	-9.63706
▁Higashiyama	-9.63757
Kojiki	-9.63772
▁Yoshimitsu	-9.63844
▁Juni	-9.6404
▁Ex	-9.64097
▁Gun	-9.64213
▁ONO	-9.64286
Minister	-9.64318
▁sun	-9.64359
▁Shugo	-9.64397
In	-9.64481
Dai	-9.64491
sato	-9.6452
▁faction	-9.64532
mizu	-9.64758
94	-9.64927
quality	-9.65147
produc	-9.65234
W	-9.65315
zoku	-9.65326
41	-9.66292
▁em	-9.66416
ological	-9.66435
▁Department	-9.66435
▁location	-9.66435
▁possess	-9.66435
▁restaurant	-9.66435
▁society	-9.66435
▁suicide	-9.66435
▁scholar	-9.66435
▁dedicat	-9.66435
▁enjoy	-9.66436
▁belonging	-9.66437
▁Mikoto	-9.66438
▁either	-9.66438
▁sign	-9.66439
dokoro	-9.66439
▁propos	-9.66444
▁composed	-9.66446
▁transport	-9.66449
▁rather	-9.6645
▁successor	-9.66475
kage	-9.66526
▁sense	-9.66537
▁Zo	-9.66551
▁weak	-9.66559
▁meat	-9.66583
▁princip	-9.66601
▁memor	-9.66898
▁Inner	-9.66989
main	-9.67064
▁KAN	-9.67066
▁Daijo	-9.67147
▁acc	-9.67158
councilor	-9.67161
provinc	-9.67168
former	-9.67346
▁resident	-9.67505
zaki	-9.67544
▁cit	-9.67674
33	-9.67686
▁open	-9.67704
▁red	-9.67729
ration	-9.67967
▁Hata	-9.68012
▁coin	-9.68299
▁size	-9.6834
NAGA	-9.68415
▁call	-9.68439
▁Shiki	-9.68681
▁Kara	-9.68682
▁supported	-9.68741
setsu	-9.68934
kado	-9.68991
▁elde	-9.69233
▁Education	-9.69292
▁Research	-9.69292
▁enemy	-9.69292
▁folk	-9.69292
▁friend	-9.69292
ternational	-9.69292
ordinary	-9.69293
▁thousand	-9.69294
▁Island	-9.69299
▁Retire	-9.69304
▁Dazai	-9.69317
▁bow	-9.69319
▁help	-9.69329
▁future	-9.69337
▁approv	-9.6934
nami	-9.69344
▁star	-9.69373
▁gather	-9.69406
▁river	-9.6941
▁required	-9.69437
▁seventh	-9.69504
maki	-9.69506
uma	-9.69604
▁empress	-9.69637
▁dispatched	-9.6978
▁Shun	-9.69865
▁actor	-9.6988
▁Pro	-9.6994
Governor	-9.70109
▁grand	-9.70114
Imperial	-9.70126
▁suppress	-9.70248
▁70	-9.70268
kichi	-9.70342
pei	-9.70376
▁existing	-9.70383
▁highly	-9.70558
▁Tosa	-9.70735
▁Uma	-9.70817
▁bell	-9.70829
03	-9.70967
▁Kobe	-9.71037
Sei	-9.71098
▁introduc	-9.71163
▁fan	-9.71236
gashi	-9.71251
▁Ritsu	-9.717
62	-9.71786
51	-9.71795
dono	-9.71802
▁actors	-9.72046
24	-9.72065
▁attend	-9.72211
▁accompani	-9.72233
▁Company	-9.72233
▁Property	-9.72233
▁effort	-9.72233
▁negotiat	-9.72233
▁platform	-9.72233
▁submitt	-9.72233
▁Izumo	-9.72234
▁writing	-9.72234
▁settled	-9.72234
▁Park	-9.72236
▁attempt	-9.72238
▁warriors	-9.72266
▁Kyu	-9.72275
▁carry	-9.72295
▁paintings	-9.72348
▁Hiei	-9.72428
▁Tango	-9.72797
tang	-9.72935
▁lay	-9.72972
eval	-9.73031
minister	-9.73134
▁eastern	-9.73175
Yo	-9.73467
▁consider	-9.73664
64	-9.73874
▁allow	-9.74308
▁Tama	-9.7439
ative	-9.74862
▁Hana	-9.7493
▁OTOMO	-9.75264
▁Tumulus	-9.75264
▁ingredient	-9.75264
▁quit	-9.75264
▁variety	-9.75264
▁depict	-9.75264
▁unique	-9.75264
▁management	-9.75264
▁Center	-9.75266
▁southern	-9.75266
▁Harima	-9.75266
▁Azuchi	-9.75266
▁Qing	-9.7527
▁Nyorai	-9.75279
zumi	-9.7529
▁poetry	-9.75323
▁ruin	-9.75346
▁driv	-9.75367
▁fifth	-9.75423
▁elder	-9.75432
39	-9.75455
▁escaped	-9.7548
▁table	-9.75489
▁reform	-9.75574
▁honor	-9.75635
▁descendant	-9.7571
▁directly	-9.75765
▁Za	-9.7587
▁personal	-9.76232
(	-9.76283
sawa	-9.76408
▁wish	-9.76601
▁pieces	-9.76681
▁products	-9.76682
San	-9.76725
▁Grand	-9.76839
▁Atsu	-9.76853
▁training	-9.77367
30	-9.77417
Chi	-9.77425
tane	-9.77425
▁dish	-9.77564
Jo	-9.77603
▁forest	-9.77682
▁descend	-9.78347
correspond	-9.78389
▁MATSUDAIRA	-9.78389
▁architectur	-9.78389
▁enthronement	-9.78389
▁entrance	-9.78389
▁increasing	-9.78389
▁ticket	-9.78389
▁Jusanmi	-9.78389
▁respectively	-9.78389
▁serving	-9.78389
ability	-9.78389
Momoyama	-9.78391
▁Tanba	-9.78392
▁depend	-9.78393
▁attach	-9.78394
▁hundred	-9.78397
▁difference	-9.78399
▁District	-9.78404
▁content	-9.7841
▁impos	-9.78412
▁Book	-9.78418
Major	-9.78421
▁kimono	-9.78426
▁sacr	-9.78432
▁single	-9.78438
▁manner	-9.78454
▁might	-9.78475
▁necessary	-9.78483
▁Takauji	-9.78515
▁translat	-9.78531
▁dishes	-9.78551
▁Bank	-9.78557
▁Choshu	-9.78666
▁sixth	-9.78674
▁Haku	-9.78683
▁foundation	-9.78722
▁deal	-9.78825
▁busho	-9.78959
▁Confucianism	-9.79043
▁owned	-9.79062
▁fighting	-9.79123
▁Yoko	-9.79193
lf	-9.79226
Minamoto	-9.79482
which	-9.79508
▁add	-9.79513
ben	-9.79579
Jugoinoge	-9.79605
▁anti	-9.8036
shoku	-9.80417
jun	-9.80495
▁gon	-9.80524
umb	-9.80964
▁Express	-9.81614
▁activities	-9.81614
▁beautiful	-9.81614
▁employ	-9.81614
▁merchant	-9.81614
▁noodles	-9.81614
▁politics	-9.81614
▁priesthood	-9.81614
▁territories	-9.81614
▁Hokkaido	-9.81615
▁square	-9.81615
▁Musashi	-9.81615
▁faith	-9.81615
▁silk	-9.81615
▁Suruga	-9.81615
▁skill	-9.81616
▁version	-9.81616
▁Settsu	-9.81617
▁grow	-9.81619
zukuri	-9.8162
▁buried	-9.81625
▁classified	-9.81644
▁appointment	-9.81652
▁something	-9.817
▁Ke	-9.81744
▁aim	-9.81838
▁2006	-9.81977
gumi	-9.82081
▁Tsuna	-9.82124
ball	-9.82163
46	-9.82195
▁tree	-9.8223
▁tr	-9.8224
▁religion	-9.82353
▁MORI	-9.82434
Provi	-9.82442
▁La	-9.82449
▁Ming	-9.8265
▁mikoto	-9.82713
▁commonly	-9.82769
▁ruled	-9.82782
fine	-9.82796
court	-9.82844
law	-9.82854
▁won	-9.83077
▁manor	-9.83124
ASHI	-9.83231
38	-9.8371
satsu	-9.83859
who	-9.8396
▁pray	-9.84317
▁cause	-9.84555
▁oppos	-9.8473
▁31	-9.84732
▁Chika	-9.8486
▁Kanpaku	-9.84948
▁childhood	-9.84948
▁function	-9.84948
▁grandfather	-9.84948
▁marriage	-9.84948
▁disease	-9.84948
▁implement	-9.84948
▁suggest	-9.84948
▁Fukuchiyama	-9.84948
▁heaven	-9.84948
▁household	-9.84948
▁frequently	-9.84948
▁drum	-9.84949
▁taste	-9.8495
▁completely	-9.84953
▁information	-9.84953
▁ruling	-9.84953
▁arrow	-9.84956
▁interest	-9.84957
▁grandson	-9.84969
temporar	-9.84977
▁Mitsuhide	-9.84981
▁existence	-9.84996
▁lady	-9.84997
▁1868	-9.85044
▁nine	-9.85049
▁subsequently	-9.85058
▁ABE	-9.85227
RO	-9.8526
▁principle	-9.85299
▁meeting	-9.85302
▁Kukai	-9.85359
zawa	-9.85568
SHIMA	-9.85812
▁sweet	-9.8587
52	-9.85977
▁If	-9.86029
26	-9.86192
▁Shoni	-9.86237
▁Ryu	-9.86243
count	-9.86338
▁runn	-9.86377
▁soba	-9.86527
▁Koya	-9.86564
▁tradition	-9.86705
teru	-9.87056
SE	-9.87252
▁report	-9.87577
▁Uda	-9.87596
▁best	-9.8761
ography	-9.88119
▁transfer	-9.88378
celebrat	-9.88391
▁Cabinet	-9.88396
▁cabinet	-9.88396
▁easily	-9.88396
▁installed	-9.88396
▁object	-9.88396
▁exhibit	-9.88396
▁rapid	-9.88396
▁recognized	-9.88396
▁specific	-9.88396
▁exchange	-9.88396
▁Echizen	-9.88396
literary	-9.88397
▁Echigo	-9.88397
▁Kozuke	-9.88398
▁extend	-9.88399
▁reduc	-9.88403
▁coming	-9.88408
▁walk	-9.88421
▁staff	-9.88428
▁nature	-9.88437
▁appearance	-9.8845
▁Michinaga	-9.88457
▁pot	-9.88527
▁bad	-9.88531
▁immediately	-9.88544
▁classic	-9.88566
▁declined	-9.88685
Master	-9.88815
▁2007	-9.88821
▁stopp	-9.88861
▁Sakyo	-9.88959
▁But	-9.88961
▁Sangi	-9.88969
▁Yodo	-9.89065
ntry	-9.89195
▁Other	-9.89225
▁TAKA	-9.89241
▁material	-9.89257
▁produce	-9.89414
▁kokushi	-9.89474
▁reported	-9.89489
▁learning	-9.89499
▁reading	-9.89636
▁soon	-9.89696
known	-9.89822
▁factor	-9.90075
chan	-9.90102
▁newly	-9.90383
oyal	-9.90542
69	-9.90644
37	-9.90831
sumi	-9.91172
mote	-9.9133
▁cook	-9.91427
naka	-9.91488
▁TAKE	-9.9194
magistrate	-9.91967
▁Russia	-9.91967
▁barbarians	-9.91967
▁belief	-9.91967
▁discovered	-9.91967
▁pronounce	-9.91967
▁companies	-9.91968
▁concept	-9.91968
▁previous	-9.91968
▁Shinkansen	-9.91968
▁standard	-9.91968
▁Collection	-9.91969
▁judge	-9.91974
▁representative	-9.91979
▁display	-9.91997
▁Nakamaro	-9.91999
▁achieve	-9.92021
▁Yoshinaka	-9.9204
▁Hongan	-9.92057
zaemon	-9.92106
graph	-9.9212
▁Wakashu	-9.92149
▁Kansai	-9.92171
▁association	-9.92195
▁sell	-9.92196
▁Kofuku	-9.92255
Ni	-9.92275
08	-9.92303
▁Gion	-9.92628
▁theater	-9.92665
▁opening	-9.92772
▁shoen	-9.92904
▁sushi	-9.93038
jutsu	-9.93286
▁island	-9.93635
URA	-9.93701
kyoku	-9.93807
▁hid	-9.93834
▁Daigo	-9.93835
▁plant	-9.93854
▁step	-9.93971
▁Iyo	-9.94016
west	-9.94602
▁door	-9.94744
▁job	-9.9487
▁All	-9.94874
▁stay	-9.95013
▁Hira	-9.95353
▁associat	-9.95436
scription	-9.95601
▁Akita	-9.95623
reservation	-9.95671
▁America	-9.95671
▁Bridge	-9.95671
▁Cloister	-9.95671
▁Facult	-9.95671
▁advantage	-9.95671
▁alcohol	-9.95671
▁language	-9.95671
▁legitimate	-9.95671
▁morning	-9.95671
▁survey	-9.95671
▁symbol	-9.95671
*	-9.95671
▁obtain	-9.95671
▁revision	-9.95671
▁surface	-9.95671
▁basis	-9.95671
▁Hyogo	-9.95672
▁stories	-9.95672
▁ITO	-9.95672
▁Kintetsu	-9.95672
▁demand	-9.95674
▁account	-9.95674
▁worn	-9.95676
▁Taiwan	-9.95677
▁offering	-9.95682
▁Aizu	-9.95682
▁NAKAMURA	-9.95692
▁prefecture	-9.95693
▁Konoe	-9.95695
▁camp	-9.95696
▁root	-9.95699
▁must	-9.957
▁Masakado	-9.9572
▁eye	-9.95772
▁Under	-9.95875
▁tale	-9.9588
25	-9.95921
▁write	-9.96115
▁Katsura	-9.96128
▁Mochi	-9.96133
▁Nyo	-9.96135
▁Sakai	-9.96164
▁Shira	-9.96841
ctually	-9.96869
point	-9.96952
▁formal	-9.97012
▁Kura	-9.97309
nother	-9.97334
great	-9.97407
work	-9.97414
▁canno	-9.97491
pet	-9.97545
Do	-9.9808
▁provide	-9.99127
▁believe	-9.99193
▁import	-9.99505
▁Christian	-9.99517
▁Shinsengumi	-9.99517
▁arrived	-9.99517
▁bamboo	-9.99517
▁currency	-9.99517
▁facilities	-9.99517
▁financi	-9.99517
▁industry	-9.99517
▁punishment	-9.99517
▁treatment	-9.99517
▁autumn	-9.99517
▁prohibit	-9.99517
▁Spring	-9.99518
▁pagoda	-9.99518
▁painter	-9.99519
▁model	-9.99524
▁invited	-9.99527
▁leather	-9.99533
▁spot	-9.99535
▁followers	-9.99567
Chief	-9.9958
Azuma	-9.99596
▁reviv	-9.99602
▁Udaijin	-9.99632
▁yen	-9.9964
▁match	-9.99647
▁Nagaoka	-9.99653
▁Shinran	-9.99727
59	-9.99753
▁115	-9.99766
▁clothes	-9.99774
▁alive	-9.99778
▁sumo	-9.99796
▁advanced	-9.9981
▁separated	-9.99825
▁need	-9.99871
nushi	-9.9997
▁widely	-9.99973
▁adviser	-10.0016
55	-10.0023
▁action	-10.0052
▁Mei	-10.0071
▁Toba	-10.009
▁hit	-10.0101
wheat	-10.0162
▁receive	-10.0177
▁Many	-10.0202
▁defeat	-10.0245
lace	-10.0246
▁adopt	-10.0247
ryaku	-10.026
▁los	-10.032
lock	-10.0349
corporate	-10.0352
▁Europe	-10.0352
▁Poetry	-10.0352
▁Sekigahara	-10.0352
▁Thereafter	-10.0352
▁Volume	-10.0352
▁YOSHIDA	-10.0352
▁avoid	-10.0352
▁blood	-10.0352
▁ceremonies	-10.0352
▁decision	-10.0352
▁excellent	-10.0352
▁manuscript	-10.0352
▁permitted	-10.0352
▁taishogun	-10.0352
▁yield	-10.0352
▁SHIBA	-10.0352
▁department	-10.0352
▁experienc	-10.0352
▁screen	-10.0352
▁drawn	-10.0352
▁arrest	-10.0352
▁Kumamoto	-10.0352
▁achievements	-10.0352
▁dispute	-10.0352
▁sutra	-10.0352
▁intention	-10.0352
▁better	-10.0353
▁crop	-10.0353
▁Kongo	-10.0353
eputy	-10.0354
▁attain	-10.0354
▁Yamashiro	-10.0355
▁heard	-10.0356
ivil	-10.0359
▁Nagasaki	-10.0361
▁Masamune	-10.0361
▁Yoshitsune	-10.0368
▁Mikawa	-10.0375
akira	-10.0384
▁Ryoma	-10.0386
▁Yoshinobu	-10.0392
▁dro	-10.0421
▁cooking	-10.0423
▁done	-10.0428
▁prayer	-10.0429
▁Tane	-10.0429
nokami	-10.0432
▁Ukyo	-10.0441
▁card	-10.0454
▁longer	-10.047
tenno	-10.0475
▁Mizu	-10.0478
▁student	-10.0496
▁180	-10.0507
▁hole	-10.0548
Grand	-10.0555
traditional	-10.0556
current	-10.0557
Head	-10.056
grade	-10.0577
terior	-10.0588
Yoshi	-10.0593
34	-10.0593
dani	-10.0639
▁seal	-10.0649
fully	-10.0676
▁advis	-10.0699
Tsu	-10.0723
▁increase	-10.0729
rical	-10.0734
valen	-10.0751
▁South	-10.0765
tumulus	-10.0768
▁KUJO	-10.0768
▁Library	-10.0768
▁Peninsula	-10.0768
▁attract	-10.0768
▁criticiz	-10.0768
▁doctor	-10.0768
▁explain	-10.0768
▁occupied	-10.0768
▁target	-10.0768
▁temporarily	-10.0768
▁thereafter	-10.0768
▁traffic	-10.0768
▁Group	-10.0768
▁Shizuoka	-10.0768
▁prefix	-10.0768
▁weapon	-10.0768
▁Navy	-10.0768
▁defined	-10.0768
▁graduat	-10.0768
▁portrait	-10.0768
▁restoration	-10.0768
▁entire	-10.0768
▁teacher	-10.0769
▁insisted	-10.0769
▁restored	-10.0769
▁talent	-10.077
▁recover	-10.077
▁tell	-10.0771
▁novel	-10.0771
▁permission	-10.0772
▁Hachiman	-10.0773
▁attendant	-10.0774
▁mound	-10.0776
▁weight	-10.0776
lways	-10.0776
▁Lake	-10.0781
rmal	-10.0784
▁exiled	-10.0789
▁dry	-10.0791
▁Biwa	-10.0792
▁opposit	-10.0796
sional	-10.0804
▁try	-10.0805
▁Tenmu	-10.0812
▁exception	-10.0829
▁miko	-10.085
▁meal	-10.0878
zaka	-10.0879
▁fel	-10.0891
AKURA	-10.0956
imperial	-10.0992
Nihon	-10.0992
Chu	-10.0992
temple	-10.1012
▁Taisha	-10.1046
uct	-10.1069
▁owner	-10.1087
▁conduct	-10.1096
93	-10.1173
▁Amaterasu	-10.1203
▁HIRA	-10.1203
▁Mountain	-10.1203
▁Summary	-10.1203
▁Three	-10.1203
▁black	-10.1203
▁confirmed	-10.1203
▁evidence	-10.1203
▁facility	-10.1203
▁husband	-10.1203
▁lacquer	-10.1203
▁project	-10.1203
▁recommend	-10.1203
▁supposed	-10.1203
▁surname	-10.1203
▁surviv	-10.1203
▁background	-10.1203
▁flavor	-10.1203
▁boiled	-10.1203
▁captured	-10.1203
▁consort	-10.1203
▁reconstruct	-10.1203
▁cooperat	-10.1203
▁devot	-10.1203
▁million	-10.1203
▁annual	-10.1203
▁police	-10.1203
▁guardian	-10.1203
complete	-10.1203
▁space	-10.1204
▁copy	-10.1204
▁planned	-10.1205
▁Shinano	-10.1205
▁Constitution	-10.1205
▁Toyotomi	-10.1205
▁true	-10.1205
▁minutes	-10.1207
▁merg	-10.1208
Sakone	-10.1211
▁sentence	-10.1213
▁least	-10.1213
▁improv	-10.1213
▁150	-10.1214
▁eighth	-10.1219
▁reference	-10.1219
▁upper	-10.1224
▁mind	-10.1225
▁princess	-10.1231
▁Shotoku	-10.1236
▁Five	-10.1238
▁soup	-10.1244
▁Ichijo	-10.1246
▁cake	-10.125
▁Yoshimasa	-10.1257
▁free	-10.1276
▁Kanze	-10.1424
artial	-10.1438
provision	-10.1444
Osaka	-10.1473
refer	-10.1502
Diary	-10.1557
east	-10.157
temp	-10.1642
scribed	-10.165
▁assassin	-10.1653
▁Institute	-10.1658
▁Okinawa	-10.1658
▁advocat	-10.1658
▁announced	-10.1658
▁collapse	-10.1658
▁community	-10.1658
▁conclude	-10.1658
▁disappear	-10.1658
▁domestic	-10.1658
▁economic	-10.1658
▁influential	-10.1658
▁peasants	-10.1658
▁pilgrim	-10.1658
▁quick	-10.1658
▁scroll	-10.1658
▁summer	-10.1658
▁investigat	-10.1658
▁Subway	-10.1658
▁regular	-10.1658
▁Nagoya	-10.1658
▁Karasuma	-10.1658
▁behind	-10.1658
▁Bakufu	-10.1658
▁items	-10.1658
▁stock	-10.1658
▁Kasuga	-10.1658
▁regulation	-10.1658
▁pick	-10.1659
▁aspect	-10.1659
▁India	-10.1659
▁adult	-10.1659
▁movie	-10.1659
▁box	-10.166
▁dead	-10.1661
▁sugar	-10.1663
▁plot	-10.1663
▁relocated	-10.1664
▁Diet	-10.1665
▁preach	-10.1666
▁copper	-10.1667
▁Daijokan	-10.1668
▁km	-10.1668
▁wine	-10.1672
rief	-10.1677
▁salt	-10.1677
▁calligraphy	-10.1678
▁Daimyo	-10.168
▁follow	-10.1681
▁Daigaku	-10.1687
▁artist	-10.1703
▁your	-10.1724
▁Yamana	-10.1756
lot	-10.1824
▁Saigo	-10.1863
▁medic	-10.1873
play	-10.1918
direct	-10.1922
Buddhist	-10.1923
written	-10.1923
▁Unit	-10.193
master	-10.1931
▁succeed	-10.2027
▁assist	-10.2045
▁surround	-10.2071
▁accord	-10.2072
akari	-10.2077
▁decline	-10.2094
▁enshrine	-10.2098
▁Jushiino	-10.2134
ZAWA	-10.2134
dustrial	-10.2134
ssibility	-10.2134
▁Bodhisattva	-10.2134
▁English	-10.2134
▁Government	-10.2134
▁ICHIJO	-10.2134
▁Kingdom	-10.2134
▁SAIONJI	-10.2134
▁defense	-10.2134
▁floor	-10.2134
▁murder	-10.2134
▁thirty	-10.2134
▁university	-10.2134
▁duties	-10.2134
▁punished	-10.2134
▁replaced	-10.2134
▁enough	-10.2134
▁broad	-10.2134
▁serious	-10.2134
▁element	-10.2134
▁edict	-10.2134
▁wealth	-10.2134
▁Okayama	-10.2134
▁Series	-10.2134
▁coast	-10.2135
▁machine	-10.2135
▁Qu	-10.2135
▁Port	-10.2135
▁dried	-10.2136
▁Enryaku	-10.2137
▁deliver	-10.2137
▁Michizane	-10.2137
▁Minami	-10.2145
▁slight	-10.2145
▁farmers	-10.2146
▁Gifu	-10.2151
▁Izumi	-10.2154
▁invad	-10.2166
▁Teru	-10.2167
▁plu	-10.2176
efore	-10.2179
▁Gate	-10.2206
▁adj	-10.2232
New	-10.2421
military	-10.2423
three	-10.2426
Shu	-10.2428
six	-10.2439
type	-10.2448
bound	-10.2452
▁Shaka	-10.2507
▁separate	-10.2594
▁SOGA	-10.2634
▁opponent	-10.2634
▁Rebellion	-10.2634
▁abandon	-10.2634
▁academic	-10.2634
▁arranged	-10.2634
▁circumstances	-10.2634
▁determined	-10.2634
▁doctrine	-10.2634
▁enforce	-10.2634
▁extreme	-10.2634
▁genealog	-10.2634
▁identified	-10.2634
▁illustrat	-10.2634
▁mausoleum	-10.2634
▁neighbor	-10.2634
▁nobility	-10.2634
▁observ	-10.2634
▁precinct	-10.2634
▁professional	-10.2634
▁reflect	-10.2634
▁twenty	-10.2634
▁Commerc	-10.2634
▁discuss	-10.2634
▁focus	-10.2634
▁Hosokawa	-10.2634
▁decrease	-10.2634
▁Originally	-10.2634
▁craft	-10.2634
▁understand	-10.2634
大	-10.2634
▁invasion	-10.2634
▁IKE	-10.2634
▁dress	-10.2634
▁subdue	-10.2634
▁lectur	-10.2634
▁steam	-10.2634
▁Hitachi	-10.2634
▁revolt	-10.2634
▁ascetic	-10.2634
▁drink	-10.2634
▁Tohoku	-10.2634
▁eaten	-10.2635
▁tourist	-10.2635
▁Okimi	-10.2635
▁Shirakawa	-10.2636
▁Sessho	-10.2637
▁deputy	-10.2637
▁Ishikawa	-10.2638
kabuki	-10.2638
▁comic	-10.2638
▁erect	-10.2638
▁INOUE	-10.2642
▁Sadaijin	-10.2645
cycl	-10.2647
▁2008	-10.2653
▁Kagami	-10.2655
▁chant	-10.266
▁pup	-10.266
▁fund	-10.2661
▁Code	-10.2663
▁someone	-10.2664
▁connection	-10.2693
▁Kurama	-10.2706
▁equal	-10.2873
person	-10.2957
syllable	-10.2963
Ran	-10.2965
▁shall	-10.3006
▁commit	-10.305
▁inherit	-10.3053
▁build	-10.3098
▁advance	-10.312
▁calligraph	-10.3136
▁Four	-10.3146
▁shar	-10.3155
▁North	-10.3156
▁flour	-10.3159
%	-10.316
▁Agricultur	-10.316
▁Corporation	-10.316
▁DATE	-10.316
▁Disturbance	-10.316
▁Modern	-10.316
▁People	-10.316
▁Properties	-10.316
▁Science	-10.316
▁Subsequent	-10.316
▁TACHIBANA	-10.316
▁TANAKA	-10.316
▁anecdote	-10.316
▁critical	-10.316
▁emerged	-10.316
▁executive	-10.316
▁headquarters	-10.316
▁license	-10.316
▁passengers	-10.316
▁peerage	-10.316
▁procedure	-10.316
=	-10.316
ANDO	-10.316
▁applied	-10.316
▁fixed	-10.316
▁revealed	-10.316
▁Historical	-10.316
▁organized	-10.316
▁overthrow	-10.316
▁failed	-10.316
▁Kagoshima	-10.316
▁check	-10.316
▁integrat	-10.316
▁scriptures	-10.316
▁Agency	-10.316
▁Women	-10.316
▁refused	-10.316
FUKU	-10.316
▁answer	-10.316
▁trend	-10.316
xplanation	-10.316
▁market	-10.316
Pacific	-10.316
grandchild	-10.316
▁MIYA	-10.316
▁finance	-10.316
▁winter	-10.316
▁evil	-10.3161
▁earn	-10.3161
▁flourished	-10.3161
▁feeling	-10.3162
▁guest	-10.3162
▁medicine	-10.3162
▁Lady	-10.3163
▁Ryukyu	-10.3163
tsukasa	-10.3163
▁Rokuhara	-10.3164
▁TAKEDA	-10.3164
▁assassinated	-10.3166
▁rebel	-10.3167
▁Hankyu	-10.3167
▁Tokitada	-10.3167
diction	-10.3168
▁strengthen	-10.3169
▁desire	-10.3169
▁race	-10.317
numer	-10.317
▁preci	-10.3178
▁popularity	-10.318
▁alone	-10.3183
▁preparation	-10.3185
▁tower	-10.3187
▁rock	-10.3192
▁receiv	-10.3235
▁500	-10.3291
owned	-10.3311
resident	-10.3497
shrine	-10.3503
modern	-10.3504
while	-10.3505
from	-10.3506
▁construct	-10.3597
▁historic	-10.3635
▁Pur	-10.3672
▁escape	-10.3676
ntil	-10.3679
▁FUJI	-10.3715
▁Foreign	-10.3716
▁KATO	-10.3716
▁KONOE	-10.3716
▁SHIMAZU	-10.3716
▁Society	-10.3716
▁UESUGI	-10.3716
▁approach	-10.3716
▁contrast	-10.3716
▁diplomat	-10.3716
▁dismissed	-10.3716
▁expedition	-10.3716
▁mirror	-10.3716
▁practical	-10.3716
▁sleeve	-10.3716
▁subordinate	-10.3716
▁trouble	-10.3716
▁Matters	-10.3716
▁demonstrat	-10.3716
▁dancing	-10.3716
▁question	-10.3716
▁concurrently	-10.3716
▁platoon	-10.3716
▁search	-10.3716
▁Thus	-10.3716
▁Juichii	-10.3716
▁monument	-10.3716
▁truth	-10.3716
▁attention	-10.3716
▁Imagawa	-10.3716
▁entertain	-10.3716
▁painted	-10.3716
▁departed	-10.3716
▁agreement	-10.3716
▁Wood	-10.3716
▁repair	-10.3716
▁evaluat	-10.3716
▁Sanuki	-10.3716
▁trust	-10.3716
▁price	-10.3716
▁yeast	-10.3716
▁gift	-10.3716
▁edited	-10.3717
▁prior	-10.3717
▁giving	-10.3717
▁royal	-10.3717
▁tools	-10.3717
▁Naidaijin	-10.3717
▁Train	-10.3718
▁prais	-10.3719
▁range	-10.3721
▁Theater	-10.3722
▁expect	-10.3722
▁effective	-10.3722
▁Iwakura	-10.3724
▁1869	-10.3726
▁Hiroshima	-10.373
▁key	-10.3731
▁2005	-10.3738
▁successful	-10.3741
▁Kinai	-10.375
▁copie	-10.3757
▁lea	-10.3814
▁piece	-10.4031
▁product	-10.4031
▁troop	-10.4033
four	-10.4093
period	-10.4093
first	-10.4094
lord	-10.41
▁basic	-10.4169
▁develop	-10.4189
compos	-10.4211
▁meet	-10.4256
▁fee	-10.4274
▁retain	-10.4276
stood	-10.4298
▁occur	-10.4302
privilege	-10.4304
territorial	-10.4304
▁College	-10.4304
▁Currently	-10.4304
▁MIYOSHI	-10.4304
▁SAIGO	-10.4304
▁Statue	-10.4304
▁anniversary	-10.4304
▁arrangement	-10.4304
▁correct	-10.4304
▁criticism	-10.4304
▁deceased	-10.4304
▁exclud	-10.4304
▁execution	-10.4304
▁harvest	-10.4304
▁instruction	-10.4304
▁progress	-10.4304
▁responsible	-10.4304
▁stipend	-10.4304
▁superior	-10.4304
▁typical	-10.4304
▁heavy	-10.4304
▁reject	-10.4304
▁bridge	-10.4304
▁holiday	-10.4304
▁double	-10.4304
▁funeral	-10.4304
linked	-10.4304
▁emphasi	-10.4304
▁girl	-10.4304
▁damage	-10.4304
▁gokenin	-10.4304
▁captain	-10.4304
loud	-10.4304
▁Yamashina	-10.4304
▁twel	-10.4304
▁Sukune	-10.4304
▁comment	-10.4304
▁decree	-10.4304
▁Tottori	-10.4304
▁Gotoba	-10.4304
▁Order	-10.4304
▁estimat	-10.4305
▁constable	-10.4305
▁expert	-10.4305
itially	-10.4305
▁Atago	-10.4305
▁despi	-10.4305
▁soul	-10.4307
▁self	-10.4308
▁expand	-10.4308
▁percent	-10.4309
▁block	-10.431
▁president	-10.431
▁understood	-10.431
▁shift	-10.4311
▁medium	-10.4315
AKU	-10.4315
▁Minbu	-10.4318
speci	-10.4325
▁curs	-10.433
▁Ukon	-10.4365
▁considerabl	-10.441
ippon	-10.4519
▁kuge	-10.452
General	-10.4716
approx	-10.4716
high	-10.4718
March	-10.4718
including	-10.4718
brother	-10.4718
government	-10.4718
second	-10.4718
about	-10.4719
general	-10.4726
▁dispatch	-10.4821
–	-10.4929
▁Platform	-10.4929
▁SAITO	-10.4929
▁SATO	-10.4929
▁SUGA	-10.4929
▁Special	-10.4929
▁agricultur	-10.4929
▁appropriate	-10.4929
▁excavated	-10.4929
▁instrument	-10.4929
▁quarter	-10.4929
▁science	-10.4929
▁separation	-10.4929
▁seppuku	-10.4929
▁taught	-10.4929
▁treaty	-10.4929
!	-10.4929
▁French	-10.4929
▁secular	-10.4929
▁judicia	-10.4929
▁division	-10.4929
▁German	-10.4929
▁Further	-10.4929
contact	-10.4929
▁illness	-10.4929
▁hakase	-10.4929
▁egg	-10.4929
▁Hokke	-10.4929
▁crown	-10.4929
▁mixed	-10.4929
▁mouth	-10.493
▁proceed	-10.493
▁Otani	-10.493
▁throw	-10.493
▁cherr	-10.4931
▁chujo	-10.4932
▁green	-10.4932
▁stick	-10.4932
▁Inaba	-10.4933
▁Asano	-10.4933
▁Oama	-10.4934
▁yet	-10.4934
saburo	-10.494
▁boat	-10.4946
▁certifi	-10.4952
That	-10.4955
▁Brit	-10.4976
▁constitut	-10.5084
▁detail	-10.5326
cession	-10.5376
eastern	-10.5382
October	-10.5384
local	-10.5385
family	-10.5385
where	-10.5386
with	-10.5388
born	-10.5398
Councilor	-10.5415
▁appoint	-10.5482
huge	-10.5544
knowledge	-10.5582
minute	-10.5591
Q	-10.5593
Collect	-10.5595
▁Confuci	-10.5596
Amitabha	-10.5596
ceremonial	-10.5596
▁Arashiyama	-10.5596
▁Capital	-10.5596
▁Hokuriku	-10.5596
▁KUSUNOKI	-10.5596
▁KYOGOKU	-10.5596
▁TAKATSUKASA	-10.5596
▁application	-10.5596
▁beauty	-10.5596
▁behavior	-10.5596
▁campaign	-10.5596
▁cloister	-10.5596
▁concubine	-10.5596
▁costume	-10.5596
▁engineer	-10.5596
▁episode	-10.5596
▁fierce	-10.5596
▁honorific	-10.5596
▁nephew	-10.5596
▁policies	-10.5596
▁predecessor	-10.5596
▁reorganiz	-10.5596
▁resistance	-10.5596
▁response	-10.5596
▁situated	-10.5596
▁thirteen	-10.5596
Chamberlain	-10.5596
▁exempt	-10.5596
▁border	-10.5596
▁narrow	-10.5596
▁completion	-10.5596
▁draft	-10.5596
▁underground	-10.5596
▁Bicchu	-10.5596
▁Reizei	-10.5596
▁fortune	-10.5596
▁revised	-10.5596
▁1889	-10.5596
▁sitting	-10.5596
▁prison	-10.5596
▁squad	-10.5596
▁brewing	-10.5596
▁secure	-10.5596
▁corner	-10.5596
zaburo	-10.5596
▁1871	-10.5596
▁Silla	-10.5596
▁1867	-10.5596
▁Besides	-10.5596
▁Person	-10.5596
▁Samurai	-10.5596
▁easy	-10.5596
▁Region	-10.5596
▁affect	-10.5596
▁wind	-10.5596
▁snow	-10.5596
▁extent	-10.5596
venue	-10.5596
▁ornament	-10.5596
▁personnel	-10.5596
hachiman	-10.5596
▁pull	-10.5597
▁explo	-10.5597
▁wrapp	-10.5597
▁Akashi	-10.5597
▁leaving	-10.5597
kofun	-10.5598
▁rites	-10.5599
▁health	-10.5602
▁raid	-10.5606
▁banish	-10.5607
▁iron	-10.5612
▁Engishiki	-10.5653
▁sla	-10.5731
train	-10.6004
according	-10.6098
member	-10.6099
guard	-10.6099
mikoto	-10.6099
cutting	-10.6162
▁abolish	-10.6203
▁immediate	-10.6279
NOUE	-10.6298
▁strength	-10.6298
▁differ	-10.6303
prefectur	-10.6306
undred	-10.6308
、	-10.631
▁bureaucrat	-10.631
▁competition	-10.631
▁library	-10.631
administrator	-10.631
onsequently	-10.631
▁ASANO	-10.631
▁HATAKEYAMA	-10.631
▁Mausoleum	-10.631
▁Mirror	-10.631
▁OKUBO	-10.631
▁Public	-10.631
▁animals	-10.631
▁automatic	-10.631
▁enlightenment	-10.631
▁exercis	-10.631
▁magazine	-10.631
▁manufacturing	-10.631
▁monogatari	-10.631
▁philosophy	-10.631
▁probably	-10.631
▁prosperity	-10.631
▁significant	-10.631
▁struggle	-10.631
▁virtue	-10.631
▁wrestler	-10.631
ZAKI	-10.631
▁Control	-10.631
▁settlement	-10.631
▁Local	-10.631
▁chicken	-10.631
▁utiliz	-10.631
▁HINO	-10.631
▁thick	-10.631
▁Kanazawa	-10.631
▁pillar	-10.631
▁width	-10.631
▁drawing	-10.631
▁hatamoto	-10.631
▁rumor	-10.631
▁Shimotsuke	-10.631
▁ISHIKAWA	-10.631
▁fief	-10.631
▁ladies	-10.631
▁Sometimes	-10.631
▁fundoshi	-10.631
▁uniform	-10.631
▁France	-10.631
▁overseas	-10.631
▁characteristics	-10.631
▁hakama	-10.631
▁besieg	-10.631
▁distance	-10.631
▁labor	-10.631
▁Though	-10.631
▁cousin	-10.6311
▁Saionji	-10.6311
Kitakinki	-10.6311
▁crime	-10.6311
▁Clan	-10.6311
▁spell	-10.6312
speaking	-10.6312
UTSU	-10.6312
▁Fire	-10.6313
▁Promot	-10.6313
▁winn	-10.6313
▁assert	-10.632
afety	-10.6323
▁cub	-10.6325
▁Asahi	-10.6356
▁centraliz	-10.6502
▁tall	-10.6608
compa	-10.6692
grand	-10.678
located	-10.6858
sweet	-10.6866
wood	-10.6867
Yamato	-10.6868
official	-10.6868
samurai	-10.6868
▁require	-10.7039
▁necessar	-10.7056
enshrin	-10.7074
の	-10.7079
▁script	-10.7079
iscellan	-10.7079
blossom	-10.7079
▁Development	-10.7079
▁GOTO	-10.7079
▁MIZUNO	-10.7079
▁SUZUKI	-10.7079
▁System	-10.7079
▁Treaty	-10.7079
▁abroad	-10.7079
▁attitude	-10.7079
▁doubt	-10.7079
▁earlier	-10.7079
▁encourag	-10.7079
▁enthroned	-10.7079
▁essential	-10.7079
▁hospital	-10.7079
▁messenger	-10.7079
▁population	-10.7079
▁professor	-10.7079
▁stipulat	-10.7079
▁surpris	-10.7079
▁tunnel	-10.7079
▁universities	-10.7079
▁vinegar	-10.7079
chamberlain	-10.7079
▁engrav	-10.7079
▁fifty	-10.7079
▁perfect	-10.7079
▁reinforce	-10.7079
▁supervis	-10.7079
▁herself	-10.7079
▁pardon	-10.7079
▁phrase	-10.7079
▁reputation	-10.7079
一	-10.7079
▁appeal	-10.7079
▁England	-10.7079
▁caught	-10.7079
▁navy	-10.7079
国	-10.7079
Ushioni	-10.7079
▁Appoint	-10.7079
▁uprising	-10.7079
▁marry	-10.7079
▁Shimousa	-10.7079
▁Chichibu	-10.7079
▁Shosanmi	-10.7079
▁chamber	-10.7079
▁shooting	-10.7079
▁Hisamitsu	-10.708
SHIGE	-10.708
▁Kashiwa	-10.708
▁expell	-10.708
bayashi	-10.708
▁basin	-10.708
dominant	-10.708
▁Retain	-10.708
▁Two	-10.708
▁celebration	-10.708
▁profit	-10.7081
Russo	-10.7081
▁crest	-10.7081
▁initiat	-10.7083
▁Site	-10.7085
Hikaru	-10.7086
favorite	-10.709
▁cool	-10.7093
Origin	-10.7094
▁worse	-10.7099
Board	-10.7099
miyatsuko	-10.7101
▁suitabl	-10.7107
▁HAT	-10.7111
▁strik	-10.7115
▁Plan	-10.7119
generate	-10.7163
HIRO	-10.7173
▁Prim	-10.723
▁strip	-10.7346
anjuro	-10.7355
▁Udon	-10.7371
rotection	-10.7398
wheel	-10.7557
MORI	-10.7699
Bureau	-10.77
class	-10.7701
paper	-10.7701
January	-10.7701
Chinese	-10.7701
people	-10.7702
measur	-10.7869
▁exile	-10.7874
▁council	-10.789
▁Lot	-10.79
▁villa	-10.7904
▁recogni	-10.7913
▁JNR	-10.7913
安	-10.7913
Establish	-10.7913
▁KATSURA	-10.7913
▁KUTSUKI	-10.7913
▁accomplish	-10.7913
▁alternate	-10.7913
▁commercial	-10.7913
commissioner	-10.7913
inspector	-10.7913
▁Empire	-10.7913
▁HASHIBA	-10.7913
▁KANZE	-10.7913
▁KONDO	-10.7913
▁Misasagi	-10.7913
▁Poems	-10.7913
▁accident	-10.7913
▁acquir	-10.7913
▁activity	-10.7913
▁audience	-10.7913
▁autonom	-10.7913
▁capacity	-10.7913
▁categoriz	-10.7913
▁conventional	-10.7913
▁criminal	-10.7913
▁cultivation	-10.7913
▁declared	-10.7913
▁eleventh	-10.7913
▁exclusive	-10.7913
▁peninsula	-10.7913
▁pronunciation	-10.7913
▁retirement	-10.7913
▁schedule	-10.7913
▁security	-10.7913
▁varieties	-10.7913
▁vicinity	-10.7913
expensive	-10.7913
fensive	-10.7913
▁advice	-10.7913
▁circle	-10.7913
▁fresh	-10.7913
▁mythology	-10.7913
▁thorough	-10.7913
▁vertical	-10.7913
子	-10.7913
Goddess	-10.7913
▁Branch	-10.7913
▁parents	-10.7913
▁pressure	-10.7913
▁respond	-10.7913
solution	-10.7913
▁address	-10.7913
▁stretch	-10.7913
▁subjugat	-10.7913
▁impress	-10.7913
▁stream	-10.7913
▁Recently	-10.7913
▁sixteen	-10.7913
▁Sarugaku	-10.7913
▁supply	-10.7913
▁curry	-10.7913
▁fiction	-10.7913
▁exact	-10.7913
▁geisha	-10.7913
Taiheiki	-10.7913
▁1998	-10.7913
▁loan	-10.7913
▁patron	-10.7913
▁duty	-10.7913
▁march	-10.7913
▁steward	-10.7913
▁1891	-10.7913
mandala	-10.7913
▁karate	-10.7913
▁1897	-10.7913
▁worth	-10.7913
▁Asakura	-10.7913
▁divine	-10.7913
▁park	-10.7913
▁concentrat	-10.7913
▁split	-10.7913
▁convey	-10.7913
▁ferment	-10.7913
float	-10.7914
▁fond	-10.7914
▁frame	-10.7914
▁premise	-10.7914
▁stole	-10.7915
erhaps	-10.7915
▁spiritual	-10.7915
▁convert	-10.7917
OTSU	-10.7919
▁patien	-10.7919
payment	-10.7924
proved	-10.7939
Biography	-10.7983
ogether	-10.8004
ottery	-10.8106
basically	-10.811
Ministry	-10.8609
western	-10.8609
field	-10.861
February	-10.861
Period	-10.861
▁select	-10.8714
▁assign	-10.8715
structed	-10.8761
▁divide	-10.8782
▁subsequent	-10.8791
ollowing	-10.8814
housand	-10.8821
・	-10.8822
神	-10.8822
▁Academy	-10.8822
▁Headquarters	-10.8822
▁coffee	-10.8822
▁constituen	-10.8822
▁institute	-10.8822
▁powder	-10.8822
▁sovereignty	-10.8822
院	-10.8822
Ordinance	-10.8822
communication	-10.8822
▁Baekje	-10.8822
▁Director	-10.8822
▁Exhibition	-10.8822
▁Hospital	-10.8822
▁NDL	-10.8822
▁Studies	-10.8822
▁TOKUDAIJI	-10.8822
▁Tachibana	-10.8822
▁Transportation	-10.8822
▁category	-10.8822
▁chronicle	-10.8822
▁dwelling	-10.8822
▁electric	-10.8822
▁enemies	-10.8822
▁enormous	-10.8822
▁expansion	-10.8822
▁independence	-10.8822
▁intersection	-10.8822
▁outstanding	-10.8822
▁petition	-10.8822
▁remnant	-10.8822
▁specified	-10.8822
▁suspended	-10.8822
▁sympath	-10.8822
▁temperature	-10.8822
▁wisdom	-10.8822
▁Administrat	-10.8822
▁Shogoino	-10.8822
▁argument	-10.8822
▁birthplace	-10.8822
▁ghost	-10.8822
▁katsudon	-10.8822
▁nationwide	-10.8822
▁abdicat	-10.8822
▁prevail	-10.8822
▁foster	-10.8822
▁1185	-10.8822
▁luck	-10.8822
▁calculat	-10.8822
▁Daruma	-10.8822
▁poison	-10.8822
▁1884	-10.8822
▁blue	-10.8822
▁HORI	-10.8822
▁Siege	-10.8822
▁newspaper	-10.8822
▁1874	-10.8822
▁Hyobu	-10.8822
▁Horikawa	-10.8822
▁1989	-10.8822
▁burden	-10.8822
▁rush	-10.8822
▁interact	-10.8822
▁What	-10.8822
▁Chinju	-10.8822
▁fruit	-10.8822
▁Dainichi	-10.8822
▁Refer	-10.8822
▁mistake	-10.8822
▁1877	-10.8822
▁week	-10.8822
▁curve	-10.8822
▁edition	-10.8822
▁Text	-10.8822
load	-10.8822
▁enact	-10.8822
▁conquer	-10.8822
regulat	-10.8823
NAMI	-10.8823
▁couple	-10.8823
▁hunt	-10.8824
▁dominat	-10.8824
Manyoshu	-10.8825
Kumiyama	-10.883
▁Vario	-10.8833
▁smok	-10.8837
▁Construct	-10.8876
Sagano	-10.9244
Naomasa	-10.9508
Confucianism	-10.9608
hereditary	-10.9609
public	-10.961
September	-10.961
April	-10.961
Heian	-10.9611
▁enabl	-10.9759
▁frequen	-10.9822
上	-10.9822
&	-10.9822
BAYASHI	-10.9822
Secretary	-10.9822
YANAGI	-10.9822
cypress	-10.9822
kneading	-10.9822
▁CHIBA	-10.9822
▁Continued	-10.9822
▁Demachiyanagi	-10.9822
▁Dowager	-10.9822
▁Earthquake	-10.9822
▁Engineering	-10.9822
▁HATTORI	-10.9822
▁ICOCA	-10.9822
▁Interchange	-10.9822
▁KIRA	-10.9822
▁KURODA	-10.9822
▁Medicine	-10.9822
▁NIJO	-10.9822
▁SANJO	-10.9822
▁Sixth	-10.9822
▁Treasury	-10.9822
▁WATANABE	-10.9822
▁apparent	-10.9822
▁attribut	-10.9822
▁bottom	-10.9822
▁cavalry	-10.9822
▁ceramic	-10.9822
▁clerk	-10.9822
▁combination	-10.9822
▁commemorat	-10.9822
▁corporation	-10.9822
▁disclos	-10.9822
本	-11.0933
宗	-11.0933
王	-11.0933
法	-11.0933
し	-11.2183
美	-11.2183
へ	-11.2183
公	-11.2183
道	-11.3611
<	-11.3611
り	-11.3611
師	-11.3611
行	-11.3611
門	-11.3611
人	-11.3611
信	-11.3611
山	-11.3611
候	-11.5278
氏	-11.5278
七	-11.5278
武	-11.5278
都	-11.5278
事	-11.5278
天	-11.5278
い	-11.5278
城	-11.5278
社	-11.5278
念	-11.5278
仏	-11.5278
無	-11.5278
[	-11.7067
き	-11.7278
に	-11.7278
源	-11.7278
合	-11.7278
三	-11.7278
下	-11.7278
二	-11.7278
島	-11.7278
政	-11.7278
高	-11.7278
古	-11.7278
姫	-11.7278
藤	-11.7278
≒	-11.7278
軍	-11.7278
明	-11.9778
八	-11.9778
之	-11.9778
慶	-11.9778
尺	-11.9778
と	-11.9778
宮	-11.9778
é	-11.9778
万	-11.9778
余	-11.9778
例	-11.9778
光	-11.9778
名	-11.9778
呂	-11.9778
咒	-11.9778
屋	-11.9778
普	-11.9778
中	-11.9778
小	-11.9778
朝	-11.9778
反	-11.9778
忌	-11.9778
左	-11.9778
`	-12.311
q	-12.3111
