<pad>	0
</s>	0
<unk>	0
.	-3.43093
▁	-3.71334
,	-4.00443
ा	-4.09113
त	-4.41666
ी	-4.4243
े	-4.44227
▁आहे	-4.50651
▁आणि	-4.68302
ं	-4.73867
क	-4.76736
च्या	-4.77273
र	-4.91064
न	-4.96287
ल	-5.01287
▁या	-5.07898
ला	-5.08088
म	-5.12836
स	-5.15746
चा	-5.19022
व	-5.21861
य	-5.2272
ची	-5.23607
च	-5.23857
ो	-5.28558
ड	-5.42807
चे	-5.46067
ही	-5.46769
ने	-5.50899
प	-5.54297
मध्ये	-5.54707
ात	-5.5552
ू	-5.59936
▁अ	-5.62076
-	-5.63996
्	-5.64458
▁कोरोना	-5.65782
वर	-5.70124
▁आहेत	-5.71069
्या	-5.72179
ि	-5.72551
▁क	-5.72883
ले	-5.73414
ण	-5.77266
ज	-5.78383
▁स	-5.80002
द	-5.81241
ली	-5.81444
ु	-5.82337
ट	-5.83614
ित	-5.8766
्र	-5.90467
ग	-5.90887
ब	-5.91102
▁नाही	-5.92217
▁आ	-5.92763
ील	-5.936
िक	-5.9507
ह	-5.98056
श	-5.98073
▁न	-5.98127
ना	-5.98821
्य	-6.01392
▁हे	-6.03054
▁ब	-6.03661
साठी	-6.04496
▁ज	-6.05599
ल्या	-6.05957
चं	-6.10194
वा	-6.12372
)	-6.13783
▁लस	-6.14302
▁प्र	-6.15567
▁ते	-6.16485
शी	-6.16988
ून	-6.19411
▁व	-6.19744
▁प	-6.20417
▁(	-6.20851
▁किंवा	-6.23658
ता	-6.25034
ळ	-6.25328
▁एक	-6.25474
र्	-6.26024
▁तर	-6.27285
▁आरोग्य	-6.28496
▁काही	-6.28841
?	-6.32132
▁"	-6.32889
▁यांनी	-6.33069
ध	-6.34579
▁त्या	-6.34739
▁म	-6.34819
▁करण्यात	-6.36802
▁कमी	-6.38978
ाच्या	-6.40869
▁की	-6.41221
्स	-6.42219
ख	-6.4416
ष	-6.46684
थ	-6.47978
▁सर्व	-6.48013
ाय	-6.48054
▁असं	-6.4864
-19	-6.48947
▁हा	-6.4917
ई	-6.49454
▁केली	-6.49615
ॅ	-6.49994
▁द	-6.52439
री	-6.53521
▁पण	-6.55277
▁श	-6.55683
का	-6.55838
मुळे	-6.57524
▁ज्या	-6.58066
▁वि	-6.5851
▁ही	-6.58537
फ	-6.58568
▁वापर	-6.59852
▁का	-6.64085
▁ग	-6.64708
▁विषाणू	-6.65414
▁आले	-6.66979
ांना	-6.67232
लं	-6.67745
▁रुग्ण	-6.68665
▁होते	-6.70982
▁संसर्ग	-6.71723
▁उ	-6.71887
▁ह	-6.71981
▁येत	-6.72438
ंड	-6.7325
▁केले	-6.73734
'	-6.74496
▁करोना	-6.75364
▁राज्य	-6.75458
पासून	-6.75762
ठ	-6.76263
▁डॉ	-6.76505
रा	-6.77592
ती	-6.77688
▁कोव्हिड	-6.79271
ंग	-6.79367
▁सुरू	-6.79395
▁त	-6.80145
▁काम	-6.80653
▁बंद	-6.82282
▁सरकार	-6.82285
व्ह	-6.82524
1	-6.82868
▁माहिती	-6.83596
▁लसीकरण	-6.84022
▁केंद्र	-6.84321
▁इ	-6.84892
▁इतर	-6.86153
▁सं	-6.86484
ाने	-6.86765
▁जास्त	-6.87101
ाला	-6.87107
▁अनेक	-6.8937
▁अस	-6.89601
▁होती	-6.90109
▁र	-6.90768
▁होता	-6.90788
पर्यंत	-6.91043
▁आली	-6.91145
भ	-6.92175
▁2	-6.92268
▁लशी	-6.92706
▁करत	-6.93808
कडे	-6.94175
▁अधिक	-6.94206
▁केला	-6.94248
ाचा	-6.94258
▁असलेल्या	-6.94262
▁'	-6.95265
▁पा	-6.95345
▁वाढ	-6.95732
ातील	-6.96494
्व	-6.97047
तील	-6.97415
▁करण्यासाठी	-6.97568
5	-6.97781
िन	-6.97962
▁एका	-6.98915
2	-6.99105
▁मृत्यू	-6.99125
कार	-6.99223
▁होत	-6.99302
▁नि	-6.99593
▁काय	-6.99983
ाची	-7.00016
0	-7.00317
ते	-7.00885
नी	-7.01754
वि	-7.01867
▁उपचार	-7.02235
णे	-7.02404
▁दु	-7.03398
▁हात	-7.03898
▁वा	-7.04339
ांनी	-7.04633
▁करण्या	-7.04761
▁तयार	-7.04871
ावर	-7.05432
▁झाला	-7.05572
▁सा	-7.06092
पा	-7.06114
▁ऑक्सिजन	-7.06246
▁झाली	-7.06854
▁फ	-7.07102
िल	-7.07325
▁भ	-7.07337
▁चाचणी	-7.07966
ासाठी	-7.08149
झ	-7.10705
▁आजार	-7.10982
ंना	-7.11323
▁दोन	-7.11983
नंतर	-7.12151
▁त्यांच्या	-7.14166
▁असे	-7.15351
▁औषध	-7.15732
▁व्हायरस	-7.16159
▁राज्यात	-7.16404
▁म्हणून	-7.16423
ांत	-7.1652
3	-7.16541
वे	-7.16838
▁लॉकडाऊन	-7.1691
सा	-7.18136
स्त	-7.1864
▁COVID	-7.18732
घ	-7.18864
▁असेल	-7.19142
से	-7.19346
ार	-7.19398
दा	-7.19814
ण्यात	-7.1999
▁ट	-7.20015
▁झालेल्या	-7.20049
ांच्या	-7.2041
मधील	-7.20661
▁अशा	-7.20836
िंग	-7.20963
▁संख्या	-7.22107
ांमध्ये	-7.22483
▁झाल्या	-7.22978
▁करून	-7.23235
▁मार्च	-7.23464
▁दिली	-7.24158
▁यांच्या	-7.24174
ंद	-7.24175
प्र	-7.24663
ास	-7.24775
हा	-7.25078
▁ए	-7.25267
▁जे	-7.25853
▁आता	-7.26279
अ	-7.26384
▁परिस्थिती	-7.27208
▁उपलब्ध	-7.27923
▁देण्यात	-7.28264
ण्यासाठी	-7.28276
स्ट	-7.28517
▁गेल्या	-7.28677
कडून	-7.2869
त्र	-7.2898
▁परिणाम	-7.2913
ेट	-7.29747
▁त्यांना	-7.29838
▁टक्के	-7.29863
▁मा	-7.29884
:	-7.30156
▁लोक	-7.30242
▁ला	-7.31082
▁म्हणजे	-7.31349
ेश	-7.31365
ाचे	-7.31561
टी	-7.31708
ांची	-7.32107
e	-7.32306
ेल	-7.3259
▁च्या	-7.3284
▁जात	-7.32943
▁मात्र	-7.33172
पेक्षा	-7.33316
▁म्हणाले	-7.33606
▁आला	-7.34423
▁केलं	-7.34639
डी	-7.34655
▁हजार	-7.35401
▁त्यामुळे	-7.35523
E	-7.35658
▁कारण	-7.36063
ै	-7.36438
▁करणे	-7.36985
▁असा	-7.37222
णार	-7.38071
▁आम्ही	-7.38286
8	-7.38532
▁स्व	-7.38615
नं	-7.38661
▁गरज	-7.38828
गा	-7.38901
▁अशी	-7.39003
ंट	-7.39047
ेस	-7.39205
▁2020	-7.39357
7	-7.39556
▁एप्रिल	-7.39627
ढ	-7.39855
▁त्यांनी	-7.40053
बाबत	-7.40077
▁च	-7.41175
▁१	-7.41967
▁तरी	-7.42082
कर	-7.42159
▁ध	-7.42297
स्	-7.423
▁ह्या	-7.42445
▁असून	-7.42803
▁डोस	-7.4292
न्स	-7.4326
▁मोठ्या	-7.43479
सं	-7.4362
▁पड	-7.43622
णी	-7.43664
▁दिवस	-7.43842
▁3	-7.44812
▁शकतो	-7.44985
वी	-7.45044
▁असल्याचं	-7.45291
▁व्यक्ती	-7.45316
र्स	-7.4534
▁केल्या	-7.45401
▁झाले	-7.45547
इ	-7.45618
२	-7.46203
▁होतं	-7.46261
०	-7.46459
9	-7.46712
जी	-7.46873
4	-7.46937
▁सांगतात	-7.47004
S	-7.47193
▁लाख	-7.47721
मान	-7.48281
6	-7.48563
▁शाळा	-7.48669
▁:	-7.48898
"	-7.48908
▁महाराष्ट्रात	-7.49217
▁सध्या	-7.49554
▁दिले	-7.4963
."	-7.49844
A	-7.49848
पैकी	-7.49849
▁भारतात	-7.50317
▁निर्णय	-7.51354
▁प्रमाण	-7.51444
ंची	-7.51547
▁होऊ	-7.51577
▁शकतात	-7.51688
ंनी	-7.51764
▁सरकारने	-7.51866
शा	-7.52031
▁सु	-7.52157
णं	-7.52361
a	-7.53168
▁येईल	-7.53192
▁वैद्यकीय	-7.53192
▁देश	-7.53266
ृत	-7.53536
न्	-7.53616
्ट	-7.54012
▁घेत	-7.54014
▁प्रसार	-7.54444
आ	-7.54883
ुक	-7.54976
▁ना	-7.54981
▁सांगितलं	-7.55064
▁आलं	-7.551
सह	-7.55301
सोबत	-7.55412
▁होतो	-7.55622
रो	-7.55683
▁बदल	-7.55727
▁चीन	-7.56116
o	-7.56147
लेल्या	-7.56188
▁ठर	-7.56225
ांवर	-7.5693
▁कोविड	-7.56973
▁लोकांना	-7.57377
▁मान	-7.58474
िया	-7.58533
▁प्रकार	-7.58667
▁1	-7.58718
ीय	-7.58742
▁गंभीर	-7.58917
▁नवीन	-7.58945
▁लक्ष	-7.59126
नुसार	-7.59427
िस	-7.60245
I	-7.60486
▁-	-7.60545
▁प्रवास	-7.6125
▁म्हटलं	-7.61378
▁चा	-7.61659
▁दुसऱ्या	-7.61908
▁मदत	-7.61942
▁आपल्या	-7.62139
C	-7.62244
ए	-7.62487
R	-7.62924
▁होणार	-7.62925
ामध्ये	-7.62963
▁देशात	-7.63075
▁समावेश	-7.63633
या	-7.63693
%	-7.63733
लो	-7.63763
ांसाठी	-7.64055
▁होण्या	-7.64164
▁मास्क	-7.65031
▁को	-7.65236
▁स्थिती	-7.65532
ीन	-7.65704
▁4	-7.65767
▁करा	-7.66016
▁वाढत	-7.66024
ंच्या	-7.66068
▁करू	-7.66083
▁वाट	-7.66385
के	-7.6713
▁शकते	-7.67133
ांचा	-7.67232
▁ख	-7.67458
▁आल्या	-7.67537
▁प्रति	-7.67754
▁असल्याच	-7.67801
▁लोकां	-7.67993
वरील	-7.68214
िट	-7.68235
सीओव्ही	-7.6853
ंत	-7.68775
ळी	-7.69128
▁मे	-7.69308
ंचा	-7.69408
बद्दल	-7.69619
▁तो	-7.70034
नि	-7.70137
▁ठाकरे	-7.70348
▁मध्ये	-7.70543
स्थ	-7.71071
▁मुंबई	-7.71704
▁आज	-7.71814
M	-7.71827
▁रुग्णालयात	-7.71843
▁शकत	-7.72232
ण्याची	-7.72261
वेळी	-7.72485
पूर्वी	-7.72715
P	-7.72951
पणे	-7.73098
▁खा	-7.73525
i	-7.73673
▁ने	-7.7383
▁नाहीत	-7.74103
▁विचार	-7.74117
▁जर	-7.74374
s	-7.74469
▁सुरुवात	-7.74485
▁शक्यता	-7.74578
िय	-7.74583
▁डॉक्टर	-7.7528
▁राज	-7.75461
द्वारे	-7.75623
▁संसर्गा	-7.75627
▁आपण	-7.75732
/	-7.7601
▁7	-7.76033
द्ध	-7.76386
▁अभ्यास	-7.76399
▁जाहीर	-7.764
▁आलेल्या	-7.76653
;	-7.7679
t	-7.7679
▁वेळ	-7.77029
६	-7.77182
निर्माण	-7.77182
CoV	-7.77185
▁रोग	-7.77227
ोट	-7.77434
▁भाग	-7.77524
▁5	-7.77615
ुर	-7.77702
ऱ्या	-7.77752
▁सो	-7.78141
▁जागतिक	-7.78368
▁निर्बंध	-7.78368
र्ज	-7.79103
▁परवानगी	-7.79568
▁लागत	-7.7965
िश	-7.79826
त्त	-7.79927
▁म्हणतात	-7.7999
णाऱ्या	-7.80079
१	-7.80312
▁असते	-7.80627
▁ठ	-7.80733
ीत	-7.8077
▁काळात	-7.81051
▁येणार	-7.81191
▁पुढे	-7.81219
दर	-7.81469
▁केलेल्या	-7.8148
▁चाचण्या	-7.81726
▁तुम्हाला	-7.82012
▁जाऊ	-7.82162
▁कु	-7.82201
▁भर	-7.82218
▁करण्याची	-7.82369
▁भारत	-7.8238
▁लागू	-7.82432
▁शिक्षण	-7.82457
▁ति	-7.82786
▁प्रमाणात	-7.82817
व्या	-7.82829
८	-7.8284
▁महत्त्वाच	-7.8301
ळा	-7.83336
▁लक्षणे	-7.83419
▁जो	-7.83961
्ह	-7.84028
रे	-7.84263
▁आवश्यक	-7.843
▁शि	-7.84495
तो	-7.84908
▁शोध	-7.84944
▁बोलताना	-7.84962
▁दिसून	-7.85059
िम	-7.85899
▁प्रयत्न	-7.86223
▁प्रश्न	-7.86223
▁मु	-7.86329
जा	-7.86408
ग्र	-7.86556
▁दिवसां	-7.86649
▁करणार	-7.86664
▁रि	-7.8691
▁रोजी	-7.87091
टे	-7.8739
▁10	-7.87422
ेन	-7.87509
▁दाखल	-7.87522
▁पसर	-7.87608
▁कोटी	-7.87621
टा	-7.87678
▁काढ	-7.87753
▁जाते	-7.88317
▁जाईल	-7.88397
ंमध्ये	-7.88631
▁माग	-7.88829
▁पहिल्या	-7.88838
▁ऑफ	-7.8897
भाव	-7.89113
▁दर	-7.89154
सी	-7.89258
▁पो	-7.89618
▁नोंद	-7.89718
४	-7.90025
▁करणाऱ्या	-7.90175
-2	-7.90233
▁SARS	-7.90388
▁मी	-7.90445
▁कोणत्या	-7.90623
▁कार्य	-7.90698
▁दिसत	-7.90835
▁पर	-7.90879
▁मो	-7.90914
५	-7.91405
▁रुग्णांची	-7.91483
▁मागणी	-7.91586
रण	-7.92136
▁विभागा	-7.92468
र्ड	-7.92764
T	-7.92892
▁कंपनी	-7.92892
▁नियंत्रण	-7.93353
ृ	-7.93721
ेंद्र	-7.93963
▁ऑ	-7.941
▁धोका	-7.94282
ोज	-7.94353
▁आजारा	-7.94453
▁योग्य	-7.94788
▁असताना	-7.94832
▁9	-7.94968
r	-7.95151
िर	-7.95245
▁देखील	-7.95302
▁थ	-7.95483
▁काळजी	-7.95734
▁रुग्णालय	-7.96059
▁पुरवठा	-7.9664
मधून	-7.96652
दार	-7.96738
ेशन	-7.96832
▁महाराष्ट्र	-7.96975
▁स्ट	-7.97102
३	-7.97115
▁मुख्यमंत्री	-7.9761
▁ताप	-7.97706
▁उत्पादन	-7.98082
▁पुन्हा	-7.98082
▁तीन	-7.98105
▁वर्ष	-7.98111
▁सेवा	-7.98204
भर	-7.9845
तून	-7.98685
▁मुलां	-7.98959
00	-7.99178
▁लागण	-7.99339
▁उद्धव	-7.99546
ालय	-7.99753
प्रमाणे	-7.99799
▁देत	-7.99942
▁20	-7.99994
▁उत्तर	-8.00041
▁यांना	-8.00179
्म	-8.00197
n	-8.00489
▁साध	-8.00696
▁तेव्हा	-8.00698
▁भागात	-8.00854
▁बीबीसी	-8.01031
▁ठेवण्या	-8.01031
▁ल	-8.0111
र्म	-8.01173
▁घट	-8.01189
▁कोरोनाची	-8.01287
र्ट	-8.01423
▁कोण	-8.01482
▁२	-8.01711
▁6	-8.01823
▁वर्	-8.02035
▁टेस्ट	-8.02037
▁मोदी	-8.02037
▁गेले	-8.02209
पूर	-8.02323
▁स्पष्ट	-8.02538
▁बाहेर	-8.02666
हून	-8.02931
▁पंतप्रधान	-8.03046
▁परीक्षा	-8.03051
▁पूर्ण	-8.03605
▁संबंधित	-8.03653
▁संपर्क	-8.03844
▁असू	-8.03982
ातून	-8.04029
c	-8.04069
▁दिला	-8.04091
ब्	-8.04264
▁लसी	-8.04406
▁दिल्ली	-8.05102
▁श्वसन	-8.05102
▁किती	-8.05276
▁सार्स	-8.05276
▁याचा	-8.05351
▁देण्या	-8.05366
▁ती	-8.05409
▁प्रत्येक	-8.05623
▁विकसित	-8.05623
▁शे	-8.05845
ुन	-8.06134
▁रक्त	-8.06253
तात	-8.06418
▁सूचना	-8.06886
▁विशेष	-8.07202
वार	-8.07284
क्षण	-8.0749
▁डि	-8.07519
▁जानेवारी	-8.07734
▁तुम्ही	-8.07734
ावे	-8.07742
▁नये	-8.07787
मी	-8.08252
ावी	-8.08753
▁डेटा	-8.08808
▁करता	-8.08811
पर	-8.09064
▁सह	-8.09225
▁ठिकाणी	-8.09303
जन	-8.09322
▁रुग्णांना	-8.09331
▁सार्वजनिक	-8.09347
िव	-8.09375
▁पाठव	-8.09903
शिवाय	-8.09926
▁द्या	-8.10385
▁साम	-8.10458
▁उच्च	-8.10492
▁साथी	-8.10524
▁महिन्यात	-8.10671
▁घरी	-8.10957
७	-8.10986
▁रूग्णां	-8.11398
▁यु	-8.11415
▁विद्यार्थ्यां	-8.11539
N	-8.12094
▁आढळून	-8.12094
९	-8.12325
▁कि	-8.12363
िड	-8.12703
करण	-8.12716
ताना	-8.13004
▁करतात	-8.13178
▁प्रतिबंध	-8.13215
▁राज्या	-8.13639
▁आधी	-8.13642
ोर	-8.13687
मिळ	-8.13862
▁पाळ	-8.14286
▁पाहिजे	-8.14348
▁होईल	-8.14348
▁पद्धती	-8.14349
▁शहर	-8.14603
स्क	-8.1476
▁लहान	-8.14925
▁मध्य	-8.1495
▁ट्र	-8.15077
▁घेण्या	-8.15272
▁लक्षणं	-8.15491
▁संपूर्ण	-8.15535
▁याबाबत	-8.15673
▁चर्चा	-8.16075
▁प्रभावी	-8.16076
▁अर्थ	-8.16076
▁घ	-8.16313
को	-8.16536
▁विविध	-8.16654
▁तसंच	-8.16655
▁वाढव	-8.16733
ीकरण	-8.16967
संदर्भात	-8.17029
ांचे	-8.17069
▁पोहोच	-8.17238
▁झालं	-8.17319
▁असतात	-8.17395
▁शहरात	-8.17505
एन	-8.17636
▁8	-8.17774
▁पॉझिटिव्ह	-8.17827
▁ओळख	-8.17827
युक्त	-8.17874
▁टाळ	-8.17895
▁मन	-8.17932
▁गु	-8.17951
▁सी	-8.18132
क्त	-8.1825
▁असतो	-8.18583
▁वर्षां	-8.18645
▁आहोत	-8.19014
▁अंदाज	-8.19014
▁जगभरात	-8.19014
▁19	-8.19125
▁पुर	-8.1917
▁रा	-8.19293
▁जाण	-8.19553
▁करण्यास	-8.19785
ात्मक	-8.20361
▁बोल	-8.20515
▁व्यक्त	-8.20662
एस	-8.20798
दान	-8.20997
▁ओ	-8.21313
▁कुटुंब	-8.21431
d	-8.21431
▁येऊ	-8.21431
▁50	-8.21503
ायला	-8.22173
सारख्या	-8.22361
▁गोष्टी	-8.22408
ेड	-8.22424
▁सम	-8.22435
▁आढळले	-8.22661
▁तीव्र	-8.22663
▁बस	-8.23184
▁चाल	-8.23436
ाऊ	-8.23606
▁आपल	-8.24035
▁महा	-8.24497
ोप	-8.24785
विषयी	-8.25169
▁केसेस	-8.2517
सुद्धा	-8.252
▁वय	-8.25696
H	-8.25806
▁कालावधी	-8.25806
▁घेतला	-8.25815
▁मुल	-8.25921
▁भारता	-8.26104
▁सामान्य	-8.26449
▁फेब्रुवारी	-8.27093
▁उपाय	-8.27196
▁जीव	-8.27314
▁अमेरिके	-8.27709
▁एकूण	-8.27751
▁हॉस्पिटल	-8.28004
▁नियम	-8.28299
▁जिल्ह्य	-8.28323
▁तुमच्या	-8.2859
▁काळ	-8.28793
▁त्यानंतर	-8.28965
▁वर्षा	-8.29123
▁मला	-8.29137
▁मिळत	-8.29263
र्ग	-8.29448
▁घा	-8.296
▁खूप	-8.29719
▁जिल्ह्यात	-8.2979
▁जाणार	-8.29871
धान	-8.30052
▁दरम्यान	-8.30242
ल्यानंतर	-8.30268
▁असल्याने	-8.30386
▁अंतर	-8.30413
▁लाटे	-8.30461
▁फक्त	-8.30482
▁प्रदेश	-8.31056
▁कार्यक्रम	-8.3108
▁धुण्या	-8.31093
▁लढ	-8.31181
की	-8.31368
ेवळ	-8.31583
▁बेड्स	-8.31851
▁चे	-8.31902
▁केंद्रीय	-8.31981
पत्र	-8.32147
▁प्रशासना	-8.32233
▁याची	-8.32695
l	-8.3304
▁सेंटर	-8.33095
▁त्रास	-8.33101
▁अनु	-8.33129
वाद	-8.33321
ंचे	-8.33361
▁त्याच	-8.3343
▁नाव	-8.33628
▁आदेश	-8.33786
▁“	-8.3381
▁रूग्ण	-8.33959
▁पर्यंत	-8.34024
▁प्रतिसाद	-8.34479
▁संख्ये	-8.34497
▁स्वच्छ	-8.3453
▁जेव्हा	-8.34559
▁रुग्णालया	-8.34783
▁सरकारी	-8.34965
्यू	-8.35064
▁होत्या	-8.35078
▁संशोधन	-8.35178
▁तसेच	-8.3518
राव	-8.35186
प्प	-8.3532
▁वेगळ	-8.35662
▁परत	-8.3569
▁अप	-8.35715
▁खासगी	-8.35882
▁अहवाल	-8.35882
▁रुग्णसंख्या	-8.35883
डा	-8.36317
नल	-8.36497
विक	-8.36538
▁पाच	-8.36575
▁गर्दी	-8.36591
▁सांगितले	-8.36591
▁सगळ्या	-8.36592
▁जातो	-8.3664
▁यासाठी	-8.36663
▁असतील	-8.37006
क्स	-8.371
▁संक्रमण	-8.37306
▁देशा	-8.37543
▁घर	-8.3755
▁मूळ	-8.38065
ामुळे	-8.38103
▁येथ	-8.38307
▁त्याच्या	-8.38428
▁संस्था	-8.3852
▁चार	-8.38562
वरून	-8.38663
भार	-8.38737
▁आकडेवारी	-8.3875
▁येणाऱ्या	-8.3875
▁त्यात	-8.38958
ष्ट	-8.3939
▁मर्याद	-8.3948
व्हा	-8.39777
▁घेऊन	-8.39865
▁घाल	-8.40111
▁शिफारस	-8.40215
ळ्या	-8.40464
▁कर्मचारी	-8.40955
▁अजून	-8.40966
िस्ट	-8.41334
▁दिस	-8.41492
▁क्षेत्र	-8.41572
D	-8.41701
▁सुरक्षित	-8.41702
▁लागेल	-8.41702
▁रात्री	-8.41703
▁दोन्ही	-8.41709
ावं	-8.41719
▁दिल्या	-8.41891
▁जी	-8.42005
▁लि	-8.42154
▁गाव	-8.42378
▁साबण	-8.42457
▁लशीच्या	-8.42459
▁प्रमुख	-8.4258
▁शरीरात	-8.42795
ण्याचा	-8.42913
▁नसल्या	-8.42998
▁शक्य	-8.43009
▁अॅ	-8.43137
▁जणां	-8.43263
्यात	-8.43474
▁मंत्रालया	-8.43975
▁प्रवेश	-8.43985
▁अधिकारी	-8.4399
▁दूर	-8.43993
▁12	-8.44206
▁करताना	-8.44376
▁पूर्व	-8.4446
▁डॉक्टरां	-8.44656
h	-8.44744
m	-8.44744
▁आठवड्या	-8.44787
▁कार्यालय	-8.44802
ियन	-8.45283
’	-8.45519
▁वेगान	-8.4617
▁ग्रामीण	-8.463
▁14	-8.46446
▁४	-8.46556
▁मुंबईत	-8.4656
▁घेतली	-8.47054
▁आर्थिक	-8.47088
ल्ल	-8.47678
▁बैठक	-8.47824
▁आणखी	-8.47881
▁होणाऱ्या	-8.47882
▁स्थानिक	-8.47886
▁करावी	-8.48043
▁उपस्थित	-8.48048
▁आमच्या	-8.48232
▁रे	-8.48309
▁तास	-8.48408
O	-8.48681
▁सल्ला	-8.48688
▁नव्या	-8.48764
▁त्याचा	-8.48934
▁घ्या	-8.49057
▁पक्ष	-8.49092
▁३	-8.49493
▁मुख्य	-8.49585
▁फे	-8.49719
▁होण्याची	-8.4996
रोग	-8.49963
▁जिल्हा	-8.503
▁टोपे	-8.50302
▁गेली	-8.50331
▁पेशी	-8.50338
▁चाचण्यां	-8.50874
ण्यास	-8.51052
बरोबर	-8.51121
▁पर्याय	-8.51125
▁पुणे	-8.51204
ानुसार	-8.51224
▁असणाऱ्या	-8.51322
तः	-8.51546
▁फि	-8.51689
▁बरे	-8.51718
िव्ह	-8.51853
▁आधार	-8.51884
▁महिला	-8.51951
▁मार्ग	-8.52037
▁15	-8.52197
▁माहितीनुसार	-8.52218
▁अँ	-8.52328
ॅक्स	-8.52379
▁फार	-8.5255
एम	-8.52719
क्क	-8.52833
उ	-8.52842
▁महाराष्ट्रा	-8.5287
▁नव	-8.52912
▁लाट	-8.53027
▁राष्ट्रीय	-8.53216
च्छ	-8.53558
▁संनिरीक्षण	-8.53621
▁नागपूर	-8.53621
▁परंतु	-8.53621
▁घोषणा	-8.53643
▁अन्य	-8.53657
▁घेण्यात	-8.53658
तज्ज्ञ	-8.53755
▁प्रमाणावर	-8.53941
▁30	-8.54033
स्थाप	-8.54219
▁दिव	-8.54251
▁लॉकडाउन	-8.54468
▁सहा	-8.54537
चित	-8.54653
▁C	-8.54828
▁नागरिकां	-8.54917
ओ	-8.55211
▁एचसीओव्ही	-8.55324
▁ठेवा	-8.55355
▁करणं	-8.55373
▁सर्वाधिक	-8.55414
राज	-8.5549
▁ऑक्सिजनची	-8.56031
▁संकट	-8.56212
▁पत्रकार	-8.5628
दरम्यान	-8.56367
▁समज	-8.56568
▁म्हण	-8.56717
▁छ	-8.56766
▁कधी	-8.57092
▁बाब	-8.5713
▁आतापर्यंत	-8.57429
▁विमान	-8.57572
▁येथे	-8.57589
▁क्षेत्रात	-8.57635
▁उद्रेका	-8.57742
▁बाल	-8.57746
▁तज्ज्ञां	-8.57791
▁लशीं	-8.58057
▁यामुळे	-8.58196
पणा	-8.58559
▁नर	-8.58753
▁सुरु	-8.58786
▁बाधित	-8.58817
▁दाखव	-8.58818
▁जाण्या	-8.5888
▁महिन्या	-8.59314
▁नंतर	-8.59528
▁आय	-8.59615
▁करतो	-8.59639
षण	-8.59662
▁भीती	-8.59719
▁युके	-8.59796
▁प्रक्रिया	-8.59899
▁कळ	-8.60059
▁जातं	-8.60208
▁पेक्षा	-8.6021
▁त्यांची	-8.60254
शल	-8.6035
▁कर्मचाऱ्यां	-8.61256
जे	-8.61419
!	-8.61519
▁पत्र	-8.61808
िओ	-8.61814
▁झाल्यानंतर	-8.6187
ल्ड	-8.61983
मंत्री	-8.6229
▁इन्स्टिट्यूट	-8.62437
▁स्पर्श	-8.62437
▁नागरिक	-8.62461
ऊ	-8.62543
▁सोड	-8.62676
▁मत	-8.63139
ांचं	-8.63161
▁विलगीकरण	-8.63363
▁पुष्टी	-8.63364
▁प्रवाशां	-8.63365
▁प्रकरणां	-8.63406
द्द	-8.63464
िटी	-8.63495
▁I	-8.6359
▁मते	-8.63812
▁संप	-8.63968
▁निर्मिती	-8.64094
▁इंडिय	-8.64316
कोव्ह	-8.64329
▁तपासणी	-8.64339
▁बेड	-8.64588
▁त्याची	-8.64694
▁पुण्यात	-8.65021
▁आपल्याला	-8.65125
▁प्राण	-8.65202
p	-8.65241
▁संघटने	-8.65241
अत्यावश्यक	-8.65241
▁तुटवडा	-8.65241
▁इटली	-8.65246
ंतर्गत	-8.65252
क्रम	-8.65846
▁प्राथमिक	-8.66193
▁अत्यं	-8.66196
▁क्षमता	-8.66207
मेंट	-8.66234
▁आरोग्यमंत्री	-8.66387
▁आमच	-8.66422
▁कोणती	-8.66438
▁लशीचा	-8.66538
▁म्हटलंय	-8.66744
▁इंजेक्शन	-8.67155
▁रेमडेसिवीर	-8.67155
▁मोठा	-8.67159
हळू	-8.67283
▁झा	-8.67326
▁एखाद्या	-8.67335
वून	-8.67449
भाग	-8.67625
बल	-8.67689
▁पार	-8.67866
▁करते	-8.67937
▁एकत्र	-8.67948
▁दुसरी	-8.68032
▁यांचा	-8.68079
▁असल्यास	-8.68121
B	-8.68125
U	-8.68125
▁अध्यक्ष	-8.68125
▁क्वारंटाईन	-8.68125
▁मृत्यु	-8.68125
▁सुविधा	-8.68126
▁देऊ	-8.68127
▁शेवट	-8.68156
▁कॅ	-8.6819
ँ	-8.68389
▁वर्षी	-8.68474
कोरोना	-8.68651
▁चालू	-8.68689
प्त	-8.68702
▁विषाणूच्या	-8.68812
▁श्वास	-8.69107
▁मोठी	-8.69109
▁आव्हान	-8.69135
▁घड	-8.69314
००	-8.69338
धार	-8.69647
▁करावा	-8.69768
क्षम	-8.70074
▁आम्हाला	-8.70096
▁नियोजन	-8.70096
g	-8.70096
▁संभाव्य	-8.70096
▁लवकर	-8.70097
▁उप	-8.70216
ग्न	-8.70298
▁टप्प्यात	-8.70392
▁11	-8.70446
▁त्याला	-8.70739
▁लोकांच्या	-8.70821
u	-8.71096
▁अवलंब	-8.71096
▁येण्या	-8.71155
▁५	-8.71356
क्रिया	-8.71806
▁नका	-8.71843
▁थांब	-8.7205
▁जोखीम	-8.72106
▁तुलनेत	-8.72106
▁असलेले	-8.72113
्युट	-8.72175
▁नोंदणी	-8.72273
▁पातळी	-8.72463
थेट	-8.72604
स्थान	-8.72631
(	-8.72752
▁लोकांनी	-8.72764
▁सामाजिक	-8.73126
▁मग	-8.73143
ग्रस्त	-8.73292
▁वेळे	-8.73337
▁पाव	-8.73669
▁पु	-8.7377
▁WHO	-8.74157
▁मराठी	-8.74157
▁बाजार	-8.74158
▁जवळपास	-8.74158
▁तोंड	-8.74539
▁समोर	-8.74745
१९	-8.74768
▁सुरक्षा	-8.75199
▁योजना	-8.75199
▁लोकसंख्ये	-8.752
▁परिणामकारक	-8.75202
▁कामगार	-8.75204
▁दिलं	-8.7521
▁छाती	-8.75214
▁पालन	-8.7523
▁स्वतः	-8.75279
▁टाक	-8.75349
▁जवळ	-8.75455
▁राख	-8.75531
▁सरकारच्या	-8.75747
▁लक्षण	-8.75848
▁रुग्णांच्या	-8.75917
▁हि	-8.75994
▁पालक	-8.76024
ँड	-8.76028
▁व्यवस्था	-8.76242
▁तिथे	-8.76256
▁भारतीय	-8.764
▁बनव	-8.76604
▁त्यासाठी	-8.76837
▁पॅ	-8.77079
▁खर्च	-8.77326
▁जनते	-8.77332
▁करावे	-8.77597
▁असल्याची	-8.77645
▁डिसेंबर	-8.78391
▁रेल्वे	-8.78391
▁वुहान	-8.78391
▁प्रकाश	-8.78396
▁आरोप	-8.784
▁आग	-8.78565
▁क्ल	-8.78667
▁24	-8.78766
▁वर्ग	-8.78809
संबंधी	-8.7892
▁लाटेत	-8.78985
िष्ट	-8.79125
▁पुढ	-8.79192
▁मुलांना	-8.79202
▁वाहतूक	-8.79478
▁व्हेंटिलेटर	-8.79478
▁भाजप	-8.79478
▁करावं	-8.79503
▁सात	-8.79556
ण्याच्या	-8.79925
मुक्त	-8.80318
▁युरोप	-8.80562
▁बहुतांश	-8.80577
▁आंतर	-8.80584
▁२०	-8.80642
रित्या	-8.80717
▁होऊन	-8.80874
विरोधात	-8.81123
▁हॉस्पिटलमध्ये	-8.81241
▁विद्यार्थी	-8.81688
▁पोलीस	-8.81692
▁मोहीम	-8.81694
▁लोकांमध्ये	-8.82138
▁घेण्यासाठी	-8.82157
▁मंत्री	-8.82367
▁फ्लू	-8.82811
▁सौम्य	-8.82811
▁2019	-8.82812
▁टास्क	-8.82816
▁थोड	-8.8284
▁विरोध	-8.82917
संख्य	-8.83102
▁त्यांचे	-8.83159
▁तुमच	-8.83615
▁जातात	-8.83755
▁200	-8.83769
L	-8.83948
▁सकाळी	-8.83949
▁सांगण्या	-8.83995
▁प्ल	-8.84283
▁पवार	-8.84447
▁नमुने	-8.85069
V	-8.85087
▁अमरावती	-8.85097
▁कोव्हॅक्सिन	-8.85097
▁अद्याप	-8.85097
▁बायोटेक	-8.85097
▁अनुभव	-8.851
▁18	-8.8533
▁कोड	-8.85474
▁गृह	-8.85599
▁पातळीवर	-8.85857
”	-8.8626
▁माध्यमातून	-8.8626
▁तिसऱ्या	-8.86261
▁राहिल	-8.86263
▁दुसरा	-8.86265
▁साठा	-8.86274
▁विकास	-8.86285
▁झालेली	-8.86336
▁रद्द	-8.8641
▁मानवी	-8.86503
▁देशांमध्ये	-8.86605
जन्य	-8.86744
▁संपर्कात	-8.86777
▁जगात	-8.86834
▁साथ	-8.87061
▁जबाबदार	-8.87436
▁दररोज	-8.87438
▁अन्न	-8.8745
▁दिवसात	-8.87539
▁सांगत	-8.87559
रुप	-8.87617
▁उद्रेक	-8.87692
▁माझ्या	-8.87716
▁नमुन	-8.88611
▁मान्यता	-8.88629
▁सचिव	-8.88631
▁होणे	-8.88631
ट्ट	-8.8879
▁शिक	-8.88824
मधल्या	-8.88903
▁इन्	-8.89
विरोधी	-8.89124
▁समस्या	-8.89841
▁आपत्	-8.89843
▁राहतील	-8.90081
▁केल्यानंतर	-8.90189
▁मिळव	-8.90239
ाईन	-8.90272
च्च	-8.90307
▁नागरिकांना	-8.90376
▁हवा	-8.90728
▁रुग्णांचा	-8.90941
▁रोख	-8.91004
▁चिंता	-8.91051
▁टक्क्यां	-8.91051
▁व्हेरियंट	-8.91051
▁प्रभावित	-8.91053
▁कडक	-8.91145
▁आवश्यकता	-8.91684
▁टप्प्या	-8.91919
सारखी	-8.92257
▁मिळाली	-8.92286
▁बंधन	-8.92287
▁राजकीय	-8.92288
▁अॅप	-8.92474
म्प	-8.92661
▁जून	-8.93322
▁उद्योग	-8.93536
▁कोरोनाव्हायरस	-8.93536
▁प्रसिद्ध	-8.93536
v	-8.93536
▁सुमार	-8.93539
▁संस्थे	-8.9354
▁लागली	-8.93541
,000	-8.93544
▁महिन्यां	-8.93554
▁फायद	-8.93565
▁अमेरिक	-8.93598
▁संरक्षण	-8.93704
▁झालेले	-8.93727
▁घेता	-8.94054
▁गटा	-8.94265
▁पुरव	-8.94378
आय	-8.94648
▁यंत्रणा	-8.94802
▁जिथे	-8.94802
▁दक्षिण	-8.94802
▁बऱ्याच	-8.94806
▁उघड	-8.9481
▁पुढील	-8.95131
▁तासां	-8.95141
▁कर्मचाऱ्यांना	-8.9517
▁न्यू	-8.95311
▁आणण्या	-8.95683
▁घरात	-8.95861
▁आवाहन	-8.96084
▁फोर्स	-8.96086
▁झाल्याचं	-8.96089
▁धोरण	-8.96089
मुख	-8.96202
▁लागणार	-8.96389
▁असणार	-8.96571
▁भेट	-8.96675
▁आठवड्यात	-8.96696
ल्ट	-8.97003
▁प्राणवायू	-8.97382
▁16	-8.97621
▁लावण्या	-8.97674
▁परि	-8.97777
▁घटना	-8.97789
ांमधील	-8.97953
▁घेऊ	-8.98005
▁त्यांचा	-8.98092
दीप	-8.98244
जारी	-8.98368
▁उपाययोजना	-8.98698
▁महापालिके	-8.98698
▁रिपोर्ट	-8.98698
▁सप्टेंबर	-8.98698
▁व्यक्तीं	-8.99053
▁खरेदी	-9.00031
▁दशलक्ष	-9.00031
▁मार्गदर्शक	-9.00031
▁राहण्या	-9.00086
▁संसर्गजन्य	-9.00172
▁ठिकाण	-9.00181
▁40	-9.00195
%)	-9.00887
▁करोनाबाधित	-9.01383
▁चिकित्सालय	-9.01384
▁असलेली	-9.01391
▁अँप	-9.02032
▁देव	-9.02201
ांमुळे	-9.0235
▁राहत	-9.02525
्झा	-9.02673
▁राष्ट्र	-9.02695
▁महत्वाच	-9.02753
▁सॅनिटायझर	-9.02753
ज्ञात	-9.02755
▁देशभरात	-9.02768
▁निदान	-9.02973
▁केअर	-9.03022
▁गर्भ	-9.03163
जसे	-9.03405
▁100	-9.0363
G	-9.04142
▁विशिष्ट	-9.04142
▁वस्तू	-9.04147
▁वितरण	-9.04149
▁करुन	-9.04153
▁नसेल	-9.04163
▁गेला	-9.04267
▁तपास	-9.04353
▁माल	-9.05101
सारखे	-9.05402
▁प्रादुर्भाव	-9.0555
▁प्रॅक्टिस	-9.0555
▁फायझर	-9.0555
▁आढावा	-9.0555
▁2021	-9.0555
▁अगदी	-9.0555
▁दर्शव	-9.0555
जिनोम	-9.05552
▁फोन	-9.05592
▁सूच	-9.05808
▁प्रशासन	-9.05918
आधी	-9.05952
▁देशांनी	-9.06067
▁देण्यासाठी	-9.06222
▁अंमलबजावणी	-9.06979
▁प्रणाली	-9.06979
▁परिषद	-9.06979
▁नसलेल्या	-9.06986
▁व्यवस्थापन	-9.06991
ॅक्ट	-9.06995
▁होम	-9.07011
▁दावा	-9.07065
in	-9.07106
▁वेगवेगळ्या	-9.07152
▁आधारित	-9.07481
ाधिक	-9.07709
▁शरीरा	-9.07776
▁60	-9.07793
▁निश्चित	-9.08428
▁फडणवीस	-9.08428
▁म्युटेशन	-9.08428
▁वटवाघळ	-9.08428
▁विद्यापीठ	-9.08428
▁संक्रमित	-9.08428
▁समुदाय	-9.08428
▁ट्रायल	-9.08431
▁सीरम	-9.0844
▁गरजेचं	-9.08442
▁आयोज	-9.08509
अखेर	-9.0855
▁नसल्याचं	-9.08872
▁कंपन्यां	-9.08924
▁नेते	-9.08968
ः	-9.09024
▁पूर्णपण	-9.09129
▁रुग्णांमध्ये	-9.0924
▁80	-9.09849
▁ऑक्सफर्ड	-9.09898
▁ट्वीट	-9.09898
▁सिरम	-9.09905
▁करायला	-9.09923
er	-9.10108
▁वापरण्या	-9.10532
▁अडचणी	-9.11391
▁निष्कर्ष	-9.11391
▁मेडिकल	-9.11391
▁बांध	-9.11392
▁चित्र	-9.1141
▁संबंध	-9.11876
▁रुग्णांवर	-9.11983
वर्षी	-9.1204
▁वेग	-9.12232
ांपेक्षा	-9.12266
य़ा	-9.12319
▁मुख्यमंत्र्यां	-9.12704
▁युनायटे	-9.12906
▁पॉल	-9.12906
शासकीय	-9.12906
▁कठोर	-9.12907
▁साधारण	-9.12909
▁होणं	-9.1291
▁साठव	-9.12929
▁राहा	-9.12978
▁रोखण्यासाठी	-9.12992
भूत	-9.12996
▁लागल्या	-9.13004
▁म्हणणं	-9.13007
▁फुफ्फुस	-9.13082
▁संकल	-9.13136
पूर्ण	-9.13453
▁समाव	-9.1436
▁उपयोग	-9.14445
▁हॉटेल	-9.14445
▁संचालक	-9.14445
▁टीका	-9.1448
▁बैठकीत	-9.14556
▁माझ	-9.14597
▁नियमां	-9.14707
स्थिती	-9.14833
▁दिवसांपासून	-9.14902
▁व्यक्तींना	-9.15232
▁अधिकाऱ्यांन	-9.15656
▁अँटीबॉडी	-9.16007
▁ऑनलाईन	-9.16007
▁कमतरता	-9.16007
▁भूमिका	-9.16007
▁हृदय	-9.16007
▁पोलिसां	-9.16008
▁मिनिट	-9.16008
▁सदस्य	-9.16008
▁एवढ	-9.16009
▁इंटर	-9.16024
▁साथरोग	-9.16036
▁दुसरीकडे	-9.16165
▁पुण्या	-9.16224
▁17	-9.16324
▁चौकशी	-9.17594
▁म्हटले	-9.17594
▁ब्रिटन	-9.17594
▁कारवाई	-9.17595
▁रुपये	-9.17595
▁हेल्थ	-9.17595
▁रुग्णसंख्ये	-9.17597
▁सेवे	-9.1764
▁सुधार	-9.17687
ीक्ष	-9.17944
समोर	-9.1842
▁रेमडेसिव्हिर	-9.19207
विरुद्ध	-9.19208
▁शाळे	-9.19208
▁धुणे	-9.19209
▁नव्हती	-9.19211
▁कुठे	-9.19213
al	-9.19336
▁संवाद	-9.19476
▁सादर	-9.19598
राष्ट्रीय	-9.2006
Co	-9.2014
▁पोशिंद	-9.20847
▁प्रकल्प	-9.20847
▁वयोगटा	-9.20847
▁टँकर	-9.20847
▁देणार	-9.20858
▁उपक्रम	-9.20877
▁अजित	-9.20879
▁निवड	-9.20896
▁समाज	-9.209
▁घेतल्यानंतर	-9.20972
▁नाहीये	-9.21012
▁व्हाय	-9.21137
सायन	-9.21554
▁आठवड	-9.21628
RCGP	-9.22513
▁पार्श्वभूमीवर	-9.22513
▁फॉर	-9.22513
▁वारंवार	-9.22513
▁प्राधान्य	-9.22513
▁आयोगा	-9.22514
▁प्राप्त	-9.22519
▁आकडा	-9.22521
▁घ्यावी	-9.22651
गृह	-9.23489
कूल	-9.23967
▁उदाहरणार्थ	-9.24208
▁उद्भव	-9.24208
▁रेमडेसिविर	-9.24208
▁रोगप्रतिकार	-9.24208
▁नियमावली	-9.24208
▁वातावरण	-9.24208
▁राहणार	-9.24209
▁उपकरण	-9.24268
▁नेमक	-9.24342
ग्ल	-9.25119
▁फुफ्फुसां	-9.25733
ांकडून	-9.25809
ञ	-9.2593
▁कोरोनाबाधित	-9.25932
▁धार्मिक	-9.25932
▁व्यवसाय	-9.25932
▁व्यावसायिक	-9.25932
क्लिनिकल	-9.25932
▁लागला	-9.25948
▁लागले	-9.26004
▁सापडल	-9.26029
▁प्राण्यां	-9.26057
मधल	-9.26111
▁पृष्ठभाग	-9.27687
▁प्रोटोकॉल	-9.27687
▁अतिशय	-9.27687
▁खोकला	-9.27687
▁उद्देश	-9.27687
▁स्वरूप	-9.27687
▁जंतू	-9.27701
ेअर	-9.27756
▁नमुन्यां	-9.27762
▁अधिकाऱ्यां	-9.28083
▁कंपन्या	-9.28863
मंत	-9.29007
ांपासून	-9.29078
▁RSC	-9.29472
▁पश्चिम	-9.29472
▁प्रयोगशाळे	-9.29472
▁महामारी	-9.29472
▁संघटना	-9.29472
▁आढळत	-9.29473
▁किंमत	-9.29473
▁मिळेल	-9.29478
▁जाणवत	-9.29508
▁पुरेस	-9.2987
▁राहू	-9.29926
▁नोंदवल	-9.30865
▁एखाद	-9.30949
माध्यम	-9.30991
तिरिक्त	-9.31283
W	-9.31291
▁ICU	-9.31291
▁प्रक्रिये	-9.31291
▁महाविद्यालय	-9.31291
▁जैविक	-9.31291
▁ट्विट	-9.31291
▁बाजू	-9.31291
▁मीडिया	-9.31292
▁जर्मनी	-9.31292
▁ढकल	-9.31292
▁बातमी	-9.31295
▁समूह	-9.31297
▁सोनू	-9.31312
▁बायो	-9.31318
▁हाताळ	-9.3133
▁कोरड	-9.31355
क्षि	-9.31916
़	-9.32001
ज्ञान	-9.33142
▁अपेक्षित	-9.33142
▁आफ्रिक	-9.33142
▁काँग्रेस	-9.33142
▁प्रयोगशाळा	-9.33142
RNA	-9.33143
▁स्ट्रेन	-9.33143
▁पुरवठ्या	-9.33144
▁क्षमते	-9.33147
▁खेळ	-9.33195
▁ट्रेन	-9.33363
▁तुलना	-9.33445
▁सांगा	-9.34035
मुद	-9.35011
▁उत्पन्न	-9.35029
▁प्रारंभ	-9.35029
▁शास्त्रज्ञ	-9.35029
▁शिक्षक	-9.35029
▁रविवार	-9.3503
▁सहभागी	-9.3503
▁इशारा	-9.3503
▁कोणताही	-9.35033
▁खात्री	-9.35037
▁समिती	-9.35043
▁जाणाऱ्या	-9.35054
▁लांब	-9.35061
▁कोरोनाग्रस्तां	-9.35123
व्हायरल	-9.35168
चिनी	-9.35479
बाहेर	-9.36462
▁तपासण्या	-9.3693
▁ज्येष्ठ	-9.36952
▁तथापि	-9.36952
▁तक्रार	-9.36952
▁फ्रान्स	-9.36952
▁परदेश	-9.36955
▁ठेवत	-9.3696
▁तरुण	-9.36985
▁राबव	-9.37001
▁असतं	-9.37072
▁खुल	-9.37689
▁मिळू	-9.38208
जवळ	-9.38498
▁पाण्या	-9.38814
तंत्रज्ञान	-9.38913
▁आयसोलेशन	-9.38913
▁निर्देश	-9.38913
▁निवडणूक	-9.38913
▁संशोधक	-9.38913
▁सर्दी	-9.38913
▁धोक्या	-9.38914
CDC	-9.38914
▁कुठल्या	-9.38914
▁बहु	-9.38952
▁व्हि	-9.38959
खोल	-9.39103
▁उचल	-9.39146
ंजय	-9.40191
ऐवजी	-9.40913
▁युनिव्हर्सिटी	-9.40913
▁व्हॅक्सिन	-9.40913
▁जोखमी	-9.40914
▁चंद्र	-9.40916
▁नाशिक	-9.40918
▁मिळाल्या	-9.40924
▁बाबतीत	-9.40928
▁पाटील	-9.40929
▁त्यांचं	-9.40957
▁गोष्ट	-9.41748
देखील	-9.42587
▁इतिहास	-9.42954
▁महापालिका	-9.42954
▁प्रोटीन	-9.42955
क्शन	-9.42957
शास्त्र	-9.42957
▁बोर्डा	-9.42959
▁चुकीच	-9.42959
▁शक्ती	-9.42961
▁मानसिक	-9.42964
▁देताना	-9.42979
▁जेवण	-9.43018
िमान	-9.44336
▁घोष	-9.44985
पीसीआर	-9.45037
▁अल्कोहोल	-9.45037
▁क्रमांक	-9.45037
▁झपाट्यान	-9.45037
▁सकारात्मक	-9.45038
कर्त्या	-9.4504
▁रशिया	-9.4504
▁तातडीन	-9.45041
▁घालण्या	-9.45779
▁लक्षणां	-9.46011
▁नातेवाईक	-9.46669
▁मोहिमे	-9.47165
▁सिक्वेंसिंग	-9.47165
▁यशस्वी	-9.47165
▁स्थगित	-9.47165
▁चेहऱ्या	-9.47165
▁शनिवार	-9.47165
▁निरीक्षण	-9.47165
▁घेणं	-9.47168
▁लागलं	-9.47169
▁घ्यायला	-9.47174
▁सुरूवात	-9.4753
▁अनिवार्य	-9.49339
▁नेटवर्क	-9.49339
▁यंत्रणे	-9.49339
▁योजने	-9.49339
▁वृद्ध	-9.49339
▁इतक्या	-9.49339
▁नव्हते	-9.49343
▁मिळणार	-9.49345
▁सर्वेक्षण	-9.49346
व्यतिरिक्त	-9.49349
▁मिळाला	-9.4935
▁रस्त्या	-9.49351
▁देणे	-9.49361
▁खालील	-9.49362
▁माणसा	-9.49382
करिता	-9.49408
▁शिंक	-9.49451
▁द्रव	-9.49544
मागे	-9.49682
▁सभा	-9.50093
▁कंट्रोल	-9.51561
▁कॉलेज	-9.51561
▁मंजूर	-9.51561
▁विश्लेषण	-9.51561
▁सोसायटी	-9.51561
▁वाजेपर्यंत	-9.51561
▁घराबाहेर	-9.51562
▁बंगाल	-9.51562
▁असल्यामुळे	-9.51566
▁गैर	-9.5157
▁कृती	-9.51593
▁निकाल	-9.51638
▁खरं	-9.51648
मूद	-9.51806
कोव्हॅक्सीन	-9.53834
▁प्रत्यक्ष	-9.53834
▁मधुमेह	-9.53834
▁कारणीभूत	-9.53835
▁बारावी	-9.53835
▁कुमार	-9.53837
▁प्रथिन	-9.5384
▁सहकार्य	-9.5384
▁पेपर	-9.53846
▁कागद	-9.53852
▁क्रि	-9.55532
▁संरक्ष	-9.5585
ठिकाणी	-9.5609
▁ठेवणे	-9.56159
▁तालुक्यात	-9.56159
▁निगेटिव्ह	-9.56159
▁ब्राझील	-9.56159
▁मंजुरी	-9.56159
▁वैयक्तिक	-9.56159
▁व्यायाम	-9.56159
▁विक्री	-9.56161
▁जनरल	-9.56161
▁घेणार	-9.56163
▁रुपयां	-9.56165
▁टोच	-9.56202
▁करेल	-9.56214
▁महत्त्व	-9.57561
▁PHE	-9.5854
▁आयुष्य	-9.5854
▁ऑक्टोबर	-9.5854
▁खबरदारी	-9.5854
▁टाळेबंदी	-9.5854
▁निर्जंतुक	-9.5854
▁मॉडर्ना	-9.5854
▁कक्ष	-9.58541
▁झोन	-9.58541
▁अचानक	-9.58542
▁विनंती	-9.58542
▁घेणाऱ्या	-9.58543
▁लॅब	-9.58544
▁राहु	-9.58544
▁नव्हता	-9.5855
▁पुरावा	-9.58558
▁निधी	-9.58572
▁सद्य	-9.58573
▁गेलं	-9.58584
▁सुचव	-9.58621
▁उलट	-9.58693
▁स्थळ	-9.58712
इफेक्ट	-9.60979
▁न्यूमोनिया	-9.60979
▁असोसिएशन	-9.60979
पदार्थ	-9.6098
मेट्रिक	-9.60981
▁कोरिया	-9.60984
▁मासिक	-9.61
▁धुवा	-9.61001
▁फटका	-9.61071
▁घ्यायच	-9.61729
▁लसींच	-9.62693
▁इंग्लंड	-9.63479
▁कुंभमेळ्या	-9.63479
▁गायकवाड	-9.63479
▁देखरेख	-9.63479
▁सरासरी	-9.63479
▁सूक्ष्म	-9.63479
▁एकमेकां	-9.6348
▁इमारत	-9.6348
▁नेहमी	-9.6348
▁शब्द	-9.63483
▁मोठं	-9.63485
▁इतकी	-9.63486
▁ठाणे	-9.6349
▁प्रथम	-9.63509
▁सहाय्य	-9.63511
रुग्ण	-9.63585
▁पाहाय	-9.63653
▁कोव्हिशील्ड	-9.66043
▁गुजरात	-9.66043
▁नोव्हेंबर	-9.66043
▁विश्वास	-9.66043
▁वैज्ञानिक	-9.66043
▁सर्वसामान्य	-9.66043
▁खाजगी	-9.66044
▁लगेच	-9.66044
▁बातम्या	-9.66044
म्बो	-9.66044
▁व्यापक	-9.66044
ाध्यक्ष	-9.66045
▁सोमवार	-9.66046
▁राजकारण	-9.66048
▁फार्मा	-9.66052
▁इराण	-9.66078
▁उपमुख्यमंत्र	-9.68675
▁उल्लेख	-9.68675
▁कॅलिफोर्निया	-9.68675
▁वाहतुकी	-9.68675
▁संबोध	-9.68675
▁सिंड्रोम	-9.68675
▁महिने	-9.68675
▁नियामक	-9.68676
▁वृत्त	-9.68676
▁येणं	-9.68676
▁सातत्यान	-9.6868
▁घेणे	-9.68681
▁कोविन	-9.68684
▁देणाऱ्या	-9.68687
▁कचऱ्या	-9.68687
▁बँक	-9.68696
▁शकेल	-9.68697
ऑ	-9.68913
COVID	-9.68929
▁गोंधळ	-9.71378
▁बिघड	-9.71378
▁संचारबंदी	-9.71378
▁पालघर	-9.71378
मार्फत	-9.71378
▁म्हणाल्या	-9.7139
▁कार्यक्षमत	-9.7139
▁माध्यमां	-9.71826
▁वेगवेगळ	-9.73818
▁उड्डाण	-9.74156
▁कोव्हिशिल्ड	-9.74156
▁मुखवट	-9.74156
▁साखळी	-9.74157
▁विषाणूरोध	-9.74158
▁रोगजनक	-9.74158
▁प्रजाती	-9.74158
▁रूग्णालयात	-9.7416
▁नातेवाईकां	-9.74809
▁संदर्भ	-9.75166
▁योग	-9.76775
▁अडथळा	-9.77013
▁आटोक्यात	-9.77013
▁आयसीयू	-9.77013
▁कँडीडेट	-9.77013
▁डिजिटल	-9.77013
▁नैसर्गिक	-9.77013
▁मूल्यांकन	-9.77013
▁तुटवड्या	-9.77013
▁बहुतेक	-9.77014
▁व्यापार	-9.77015
▁निर्यात	-9.77018
पीपी	-9.77091
मंत्र्यांनी	-9.78884
▁मिळवण्या	-9.79442
्फ्ल्युए	-9.79954
PCR	-9.79954
▁तात्पुरत	-9.79954
▁पूनावाला	-9.79954
▁वैशिष्ट्य	-9.79954
▁व्यवस्थे	-9.79954
▁हर्षवर्धन	-9.79954
▁सक्रिय	-9.79954
▁स्टेट्स	-9.79955
▁गुणकार	-9.79955
▁परिसरात	-9.79955
▁ठेवून	-9.79956
▁विस्तार	-9.79956
सारखा	-9.79982
▁रुग्णांच	-9.80201
माहीत	-9.82112
दैनंदिन	-9.82984
▁न्युमोनिया	-9.82984
▁प्रतिकारशक्ती	-9.82984
▁प्रतिनिधी	-9.82984
▁मार्गदर्शन	-9.82984
▁मोबाईल	-9.82984
▁वेबसाईट	-9.82984
▁ह्रदय	-9.82984
▁स्वतंत्र	-9.82984
▁अॅक्टिव्ह	-9.82984
▁छोट्या	-9.82985
▁कॅनडा	-9.82986
▁शारीर	-9.82986
▁स्तरावर	-9.82987
निर्मिती	-9.83653
▁आघाडी	-9.86109
▁आढळला	-9.86109
▁आणीबाणी	-9.86109
▁आपात्काल	-9.86109
▁उदाहरण	-9.86109
▁गोपनीयत	-9.86109
▁ग्राहक	-9.86109
▁प्रावस्था	-9.86109
▁प्रस्ताव	-9.8611
▁गमाव	-9.8611
सारखं	-9.86168
▁प्रतिजैविक	-9.89335
▁अतिदक्षत	-9.89335
▁एजन्सी	-9.89335
▁गुंतागुंत	-9.89335
▁गुरुवारी	-9.89335
▁जनुकीय	-9.89335
▁प्लॅटफॉर्म	-9.89335
▁मॉडेल	-9.89335
▁लिहिलं	-9.89335
▁उद्दिष्ट	-9.89335
▁सगळं	-9.89335
▁हायड्र	-9.89335
▁राहणाऱ्या	-9.89336
छ	-9.97231
ऐ	-12.8637
‘	-12.8638
ौ	-12.8639
औ	-12.864
ऱ	-12.8641
ॉ	-12.8642
“	-12.8642
