<pad>	0
</s>	0
<unk>	0
▁	-2.95168
e	-3.5408
▁a	-3.77767
a	-3.77791
r	-3.9329
.	-3.98537
,	-4.03842
s	-4.10041
▁an	-4.19757
í	-4.25646
▁agus	-4.40435
u	-4.40893
n	-4.43348
o	-4.43388
t	-4.45983
l	-4.47186
▁ar	-4.49438
▁le	-4.58174
á	-4.66222
▁c	-4.66909
é	-4.78659
d	-4.81776
ú	-4.8429
▁go	-4.88465
c	-4.88712
▁na	-4.89906
▁i	-4.94103
ar	-4.99025
▁d	-4.9947
ó	-4.99553
▁f	-5.06106
is	-5.0855
▁t	-5.10965
ta	-5.12652
air	-5.13363
▁do	-5.14665
-	-5.16796
an	-5.22467
ch	-5.22649
▁s	-5.22803
in	-5.235
il	-5.31472
iú	-5.33615
g	-5.36439
i	-5.38131
ach	-5.38587
la	-5.40626
▁m	-5.41029
ir	-5.4261
▁ag	-5.44333
or	-5.45793
m	-5.47778
bh	-5.48262
p	-5.49651
▁ch	-5.51597
id	-5.51813
inn	-5.52705
f	-5.57391
▁th	-5.57849
th	-5.59142
na	-5.6059
▁b	-5.64065
ra	-5.64382
▁de	-5.6624
▁r	-5.66333
mh	-5.66554
▁covid	-5.67077
▁g	-5.68995
-19	-5.69768
as	-5.70519
▁nó	-5.71047
ad	-5.71514
on	-5.73301
ol	-5.73317
al	-5.75128
it	-5.75936
▁n	-5.78278
▁’	-5.78738
▁h	-5.80555
ithe	-5.83856
▁sa	-5.86168
adh	-5.87144
h	-5.88204
▁1	-5.88342
os	-5.90719
▁seo	-5.90981
ic	-5.91188
ith	-5.93273
im	-5.9548
aí	-5.97496
▁mar	-5.98525
▁bh	-5.98734
▁gc	-5.98919
eas	-5.99005
▁2	-5.99248
ann	-6.01348
▁fh	-6.01692
0	-6.02283
áil	-6.02431
eadh	-6.03326
áin	-6.03339
▁tú	-6.0374
b	-6.03936
▁mh	-6.05498
▁chun	-6.06038
igh	-6.06251
▁eile	-6.07299
▁p	-6.08938
te	-6.09893
▁dh	-6.1094
dh	-6.12319
eann	-6.13105
aigh	-6.13643
▁bhfuil	-6.14076
)	-6.1532
anna	-6.15737
ig	-6.16317
ais	-6.16463
▁(	-6.16583
▁C	-6.20904
án	-6.21476
▁sé	-6.23559
▁sh	-6.24291
cov	-6.24421
ag	-6.24608
1	-6.24692
ion	-6.24721
éir	-6.27021
▁in	-6.27033
aithe	-6.2828
▁nío	-6.28411
▁atá	-6.29504
▁tá	-6.29802
▁D	-6.29861
ia	-6.31084
▁mb	-6.31086
tha	-6.32775
oir	-6.33982
9	-6.34125
ath	-6.3513
each	-6.35398
3	-6.36327
2	-6.36994
▁faoi	-6.38042
▁ó	-6.38226
int	-6.38328
gh	-6.39353
6	-6.40015
ear	-6.40077
8	-6.40551
idh	-6.41486
▁is	-6.41635
4	-6.42497
▁Tá	-6.43956
íonn	-6.47828
7	-6.4819
▁é	-6.49064
5	-6.49693
▁féidir	-6.50343
▁lá	-6.50945
re	-6.5141
▁T	-6.52013
ac	-6.52714
io	-6.55016
acha	-6.5525
▁cás	-6.553
ian	-6.55397
▁l	-6.56406
▁daoine	-6.57518
rú	-6.57573
acht	-6.59213
▁u	-6.59384
▁ná	-6.60725
▁sláinte	-6.61198
ín	-6.61936
óir	-6.63574
eacht	-6.63753
▁sc	-6.64109
nach	-6.64816
▁sin	-6.64985
ála	-6.65071
ip	-6.65151
▁duine	-6.65487
v	-6.65812
imh	-6.66483
▁á	-6.66514
▁Is	-6.67102
ill	-6.67143
▁aon	-6.673
▁co	-6.68914
▁gh	-6.68917
▁leis	-6.7014
▁vacsaín	-6.71894
eacha	-6.73101
▁víreas	-6.73377
▁má	-6.73378
ine	-6.73485
óg	-6.73689
le	-6.73919
▁mó	-6.75395
eachta	-6.75725
▁ph	-6.78849
cha	-6.79104
▁dt	-6.79395
▁raibh	-6.80072
omh	-6.82186
▁ba	-6.83694
:	-6.84984
om	-6.8679
▁bás	-6.89035
▁chomh	-6.89125
▁Má	-6.89563
eidh	-6.896
▁ort	-6.9085
▁sars	-6.91206
lú	-6.91414
artha	-6.93807
▁Ní	-6.94055
▁bheith	-6.94383
▁dhéanamh	-6.96535
▁tr	-6.96657
▁úsáid	-6.98251
▁ní	-6.98282
▁aghaidh	-6.98758
▁4	-6.98841
▁rud	-6.99126
am	-6.99473
ma	-7.00243
▁3	-7.01378
▁An	-7.02353
▁bhf	-7.02845
▁éis	-7.04113
▁fu	-7.04195
▁gur	-7.05151
▁st	-7.05159
ocht	-7.05275
▁iad	-7.0538
▁féin	-7.06615
aíonn	-7.0681
▁tar	-7.06982
íocht	-7.07624
tar	-7.07863
▁chóir	-7.08166
▁fhéadfa	-7.0924
íodh	-7.09374
▁chur	-7.09722
▁2020	-7.09956
▁duit	-7.10711
eanna	-7.11011
achta	-7.12467
▁roinnt	-7.12502
▁comharthaí	-7.13248
▁br	-7.13956
aoi	-7.1425
▁bhí	-7.14699
▁dhaoine	-7.14736
sh	-7.15591
mp	-7.15848
áis	-7.15849
▁siad	-7.16279
y	-7.16637
▁idir	-7.18736
▁ón	-7.18894
▁orthu	-7.20558
habh	-7.20672
▁déan	-7.21003
úil	-7.21221
ib	-7.21444
eart	-7.215
▁den	-7.23288
%	-7.23386
▁líon	-7.24224
▁cho	-7.24476
▁ina	-7.2569
▁trí	-7.25765
▁don	-7.25772
éim	-7.26136
-2	-7.26428
▁thug	-7.26759
gach	-7.27738
ras	-7.28109
▁5	-7.29001
▁san	-7.30214
▁márta	-7.30646
▁tástáil	-7.31957
▁ráig	-7.3197
▁rial	-7.35189
▁roimh	-7.35612
▁air	-7.3635
all	-7.36368
▁leat	-7.36867
tear	-7.37373
éin	-7.38656
▁amach	-7.39037
▁nua	-7.39584
▁ach	-7.39939
▁mór	-7.41048
▁freisin	-7.41824
▁oibr	-7.41827
▁isteach	-7.41835
▁dóibh	-7.42816
▁sp	-7.45101
w	-7.45854
▁amháin	-7.4589
▁srian	-7.46401
▁chás	-7.47007
▁dtí	-7.47241
▁nuair	-7.47426
▁fáil	-7.48159
"	-7.4952
▁ionfhabhtaithe	-7.50054
▁tástála	-7.50592
▁gheall	-7.50597
00	-7.51097
▁chuig	-7.51153
▁Ba	-7.53325
▁lua	-7.53361
eamh	-7.53496
▁sonraí	-7.53881
▁bhíonn	-7.55229
▁coronavirus	-7.55566
▁gan	-7.57166
íochta	-7.57235
▁Tuairiscíodh	-7.5728
▁ann	-7.57396
▁lámha	-7.59636
▁linn	-7.60594
if	-7.60833
▁neamh	-7.61201
▁Mar	-7.61398
▁fanacht	-7.61409
eolaíoch	-7.62051
k	-7.63216
▁Déan	-7.63234
▁comh	-7.63348
teagmháil	-7.6383
othar	-7.63984
▁Ag	-7.64447
áirítear	-7.64447
▁fháil	-7.64489
▁tír	-7.65162
▁chuid	-7.66367
▁acu	-7.66991
eoirí	-7.67089
fh	-7.67529
▁maidi	-7.67623
▁dul	-7.68451
▁aontaithe	-7.6889
▁measc	-7.68898
▁cásanna	-7.68921
▁feabhra	-7.70181
▁scaipeadh	-7.70181
íoch	-7.70463
▁teaghlaigh	-7.71501
▁haghaidh	-7.73515
▁Cuir	-7.7354
“	-7.7488
▁chéad	-7.74909
éifeacht	-7.76975
▁víris	-7.77668
faidh	-7.77702
osca	-7.78329
▁tugadh	-7.79811
▁eanáir	-7.80535
▁bhaile	-7.80537
eagra	-7.80733
▁hiomláin	-7.82
▁fógra	-7.82038
;	-7.82741
▁riospráide	-7.84239
▁tuairiscíodh	-7.84997
▁tsín	-7.85039
▁poiblí	-7.8576
▁thabhairt	-7.8576
▁bhfeidhm	-7.88087
▁cur	-7.8879
▁aois	-7.89535
'	-7.89667
▁maith	-7.89778
▁síne	-7.91603
▁cúram	-7.92087
▁bearta	-7.9224
▁agat	-7.93146
▁galar	-7.95434
▁chuir	-7.96322
▁pháiste	-7.97109
▁bhaineann	-7.97971
▁leighis	-7.98015
seirbhís	-7.9884
▁stáit	-7.98848
▁shampla	-7.99717
▁leanaí	-7.99772
▁dhochtúir	-8.01495
▁paindéim	-8.01495
▁gcásanna	-8.01495
▁tíortha	-8.03305
▁ionad	-8.03704
ógraíodh	-8.04186
▁othair	-8.04228
,000	-8.04237
▁chaitheamh	-8.05149
oifig	-8.05152
▁clúdach	-8.06083
▁scoileanna	-8.06155
▁iomlán	-8.07026
▁dearfach	-8.09912
rón	-8.10445
▁chéile	-8.11883
▁aibreán	-8.12882
huairisc	-8.12882
▁domhain	-8.14913
▁rialtas	-8.14943
▁Dífh	-8.16992
▁toradh	-8.17016
z	-8.18037
▁who	-8.18038
▁bhféadfa	-8.19101
▁ospidéal	-8.21263
▁sóisialta	-8.21263
▁comhairle	-8.21265
▁cuairt	-8.21268
▁beag	-8.21344
▁fhógair	-8.22369
úirt	-8.22544
▁thástáil	-8.23473
▁mura	-8.23567
▁Bhí	-8.25733
▁minic	-8.26909
j	-8.28045
▁bunús	-8.28045
▁náisiúnta	-8.29222
▁ghnáth	-8.29222
theagmhála	-8.30412
▁wuhan	-8.30412
▁milliún	-8.30413
▁ialtóg	-8.30413
▁chosaint	-8.30413
▁cosúil	-8.30428
▁tioncha	-8.30431
▁scoil	-8.31557
▁teagmhála	-8.31617
▁éagsúla	-8.31617
▁mbaol	-8.31675
▁glao	-8.31909
▁gníomh	-8.32837
▁léinn	-8.3287
▁riosca	-8.34075
▁háirithe	-8.35322
▁casacht	-8.3538
▁lasmuigh	-8.36587
▁sábháilte	-8.36587
▁mers	-8.37888
▁riachtana	-8.40485
▁óstach	-8.40486
▁láthair	-8.40505
▁laghdú	-8.41817
▁fhéidir	-8.41817
▁obair	-8.41821
▁ghalair	-8.4183
▁coraintín	-8.43168
▁leibhéal	-8.43168
▁Chuir	-8.43169
▁dúnadh	-8.43169
▁iarracht	-8.4317
coróinvíreas	-8.45927
▁bealtaine	-8.45927
▁eipidéim	-8.45927
▁choinneáil	-8.45927
▁taistil	-8.45928
▁príomh	-8.47336
▁laghad	-8.47336
x	-8.48764
▁torthaí	-8.48765
ionfhabhtuithe	-8.50213
▁bliain	-8.50214
?	-8.5938
D	-11.7533
’	-12.2538
Ú	-13.2553
P	-13.2554
O	-13.2555
–	-13.2556
”	-13.2557
R	-13.2558
/	-13.2559
G	-13.256
L	-13.2561
F	-13.2562
S	-13.2563
B	-13.2564
N	-13.2565
(	-13.2566
M	-13.2567
I	-13.2568
A	-13.2569
C	-13.257
T	-13.257
