<pad>	0
</s>	0
<unk>	0
▁t	-0
he	-1
▁a	-2
in	-3
▁the	-4
▁o	-5
re	-6
er	-7
▁s	-8
nd	-9
▁w	-10
at	-11
on	-12
is	-13
en	-14
▁of	-15
it	-16
▁c	-17
▁b	-18
or	-19
es	-20
▁f	-21
ed	-22
ou	-23
▁p	-24
an	-25
al	-26
ar	-27
▁in	-28
▁and	-29
ing	-30
▁to	-31
▁m	-32
▁d	-33
ion	-34
▁h	-35
as	-36
ic	-37
le	-38
om	-39
▁th	-40
ent	-41
ll	-42
▁n	-43
▁A	-44
▁T	-45
▁be	-46
ve	-47
▁e	-48
▁I	-49
ct	-50
▁re	-51
▁is	-52
▁S	-53
ro	-54
▁l	-55
st	-56
▁y	-57
ot	-58
▁g	-59
ut	-60
id	-61
se	-62
▁for	-63
ation	-64
ur	-65
im	-66
▁wh	-67
ce	-68
ay	-69
ly	-70
ad	-71
▁you	-72
ver	-73
▁u	-74
ow	-75
▁The	-76
am	-77
▁on	-78
▁C	-79
▁P	-80
▁M	-81
et	-82
▁H	-83
ir	-84
il	-85
▁-	-86
ig	-87
▁that	-88
ch	-89
▁he	-90
ment	-91
▁B	-92
ith	-93
ol	-94
▁it	-95
▁as	-96
▁(	-97
ra	-98
ill	-99
▁an	-100
▁or	-101
od	-102
▁not	-103
if	-104
▁W	-105
▁st	-106
ess	-107
ul	-108
▁with	-109
ter	-110
▁are	-111
ri	-112
ge	-113
▁de	-114
▁ha	-115
her	-116
▁pro	-117
▁G	-118
▁D	-119
▁con	-120
ate	-121
▁su	-122
▁we	-123
ld	-124
▁R	-125
▁se	-126
rom	-127
ab	-128
res	-129
op	-130
ers	-131
▁'	-132
th	-133
ak	-134
nt	-135
▁L	-136
▁com	-137
▁by	-138
ist	-139
▁sh	-140
▁1	-141
pe	-142
ain	-143
ht	-144
▁N	-145
▁was	-146
▁have	-147
▁they	-148
▁from	-149
▁ex	-150
iv	-151
▁them	-152
▁will	-153
est	-154
all	-155
ity	-156
us	-157
em	-158
and	-159
▁O	-160
▁who	-161
ah	-162
▁v	-163
▁E	-164
▁F	-165
▁this	-166
ore	-167
ich	-168
ive	-169
ie	-170
ant	-171
ac	-172
um	-173
▁k	-174
▁Ind	-175
qu	-176
▁has	-177
ction	-178
▁r	-179
pp	-180
▁He	-181
ies	-182
▁at	-183
art	-184
ure	-185
os	-186
▁which	-187
un	-188
ia	-189
ould	-190
ort	-191
▁All	-192
▁their	-193
el	-194
ard	-195
oc	-196
▁ne	-197
ight	-198
red	-199
our	-200
▁his	-201
ord	-202
▁al	-203
ind	-204
pt	-205
ous	-206
▁all	-207
ose	-208
▁le	-209
ust	-210
▁ch	-211
te	-212
ther	-213
▁2	-214
▁do	-215
▁In	-216
▁whe	-217
▁K	-218
ong	-219
ud	-220
ag	-221
age	-222
ial	-223
ome	-224
▁Allah	-225
▁Th	-226
▁tr	-227
▁And	-228
▁We	-229
▁wor	-230
cc	-231
ated	-232
▁U	-233
ance	-234
ount	-235
▁your	-236
▁me	-237
▁sa	-238
▁pl	-239
▁go	-240
ip	-241
ect	-242
▁dis	-243
ans	-244
▁ab	-245
rou	-246
av	-247
ast	-248
ear	-249
▁us	-250
▁India	-251
ide	-252
ost	-253
ry	-254
able	-255
▁can	-256
▁any	-257
ff	-258
▁im	-259
▁there	-260
ame	-261
ok	-262
▁pe	-263
▁but	-264
▁un	-265
nder	-266
now	-267
▁comp	-268
▁ad	-269
▁en	-270
▁man	-271
▁up	-272
ish	-273
▁one	-274
ary	-275
▁him	-276
ap	-277
og	-278
▁j	-279
▁so	-280
ult	-281
▁been	-282
ice	-283
▁"	-284
▁other	-285
▁per	-286
▁J	-287
so	-288
▁V	-289
out	-290
ople	-291
one	-292
▁were	-293
▁res	-294
ical	-295
ru	-296
per	-297
ik	-298
ence	-299
au	-300
ions	-301
gh	-302
▁had	-303
▁It	-304
▁cont	-305
ib	-306
ire	-307
pl	-308
▁those	-309
ress	-310
iz	-311
vel	-312
▁am	-313
▁when	-314
are	-315
▁said	-316
ake	-317
▁ag	-318
ime	-319
ine	-320
ail	-321
▁people	-322
▁know	-323
ations	-324
ign	-325
very	-326
▁shall	-327
ue	-328
orm	-329
ase	-330
▁Y	-331
▁inc	-332
▁under	-333
▁out	-334
ile	-335
ade	-336
▁ind	-337
▁part	-338
ang	-339
vers	-340
ath	-341
ings	-342
▁cl	-343
▁no	-344
ub	-345
ens	-346
▁/	-347
▁int	-348
rit	-349
▁its	-350
▁what	-351
▁bel	-352
ace	-353
▁ar	-354
▁God	-355
ach	-356
▁also	-357
ep	-358
▁if	-359
▁co	-360
▁our	-361
ian	-362
ass	-363
▁Ch	-364
act	-365
▁ev	-366
▁19	-367
ber	-368
▁St	-369
▁comm	-370
ious	-371
▁may	-372
ren	-373
▁te	-374
lic	-375
reat	-376
▁Lord	-377
ise	-378
00	-379
▁app	-380
du	-381
ual	-382
vern	-383
▁acc	-384
▁imp	-385
▁sc	-386
fore	-387
ook	-388
ree	-389
erv	-390
fter	-391
▁This	-392
ition	-393
ory	-394
ident	-395
ack	-396
fe	-397
▁year	-398
▁sp	-399
old	-400
urn	-401
▁would	-402
▁sub	-403
▁spe	-404
▁Sh	-405
ike	-406
▁only	-407
▁bec	-408
▁“	-409
▁such	-410
ove	-411
▁rel	-412
hed	-413
ject	-414
form	-415
▁_	-416
▁tw	-417
▁time	-418
▁pre	-419
ause	-420
sel	-421
▁prov	-422
▁work	-423
ater	-424
ted	-425
▁then	-426
▁rec	-427
▁over	-428
ational	-429
▁po	-430
rib	-431
ric	-432
▁Go	-433
▁ear	-434
ities	-435
▁fo	-436
▁made	-437
▁belie	-438
▁day	-439
ild	-440
▁qu	-441
▁As	-442
we	-443
ward	-444
lect	-445
ound	-446
ied	-447
▁should	-448
▁more	-449
▁about	-450
▁like	-451
▁than	-452
vernment	-453
▁my	-454
wn	-455
▁some	-456
ces	-457
▁into	-458
ution	-459
ife	-460
▁Pro	-461
▁new	-462
▁say	-463
▁ass	-464
tern	-465
▁em	-466
▁bet	-467
ert	-468
uth	-469
ite	-470
ful	-471
▁count	-472
ark	-473
▁fe	-474
▁off	-475
▁But	-476
▁rem	-477
▁Wh	-478
▁cons	-479
aj	-480
way	-481
▁They	-482
▁pr	-483
▁Com	-484
velop	-485
ness	-486
iss	-487
▁3	-488
ons	-489
sh	-490
▁Se	-491
stit	-492
own	-493
cept	-494
▁two	-495
ific	-496
gr	-497
▁”	-498
▁reg	-499
oy	-500
ank	-501
hen	-502
▁[	-503
▁good	-504
ments	-505
▁these	-506
ved	-507
me	-508
▁after	-509
▁form	-510
▁ro	-511
▁act	-512
ily	-513
▁So	-514
▁Un	-515
led	-516
▁des	-517
ates	-518
▁before	-519
▁Re	-520
ient	-521
▁pers	-522
▁ent	-523
ond	-524
▁ob	-525
ph	-526
ne	-527
ave	-528
cess	-529
01	-530
▁again	-531
llow	-532
▁De	-533
ts	-534
▁His	-535
ors	-536
▁bl	-537
▁dec	-538
eng	-539
▁right	-540
cy	-541
▁see	-542
ght	-543
▁rep	-544
▁gu	-545
▁fir	-546
ower	-547
ink	-548
row	-549
▁trans	-550
▁ac	-551
▁pres	-552
▁her	-553
▁life	-554
▁sy	-555
rough	-556
cial	-557
erm	-558
ced	-559
aw	-560
▁An	-561
eth	-562
▁call	-563
▁giv	-564
▁Indian	-565
▁world	-566
ob	-567
▁ra	-568
ism	-569
▁Pr	-570
arm	-571
pect	-572
▁fl	-573
▁where	-574
▁Con	-575
resident	-576
▁being	-577
▁set	-578
rent	-579
▁through	-580
ener	-581
▁way	-582
▁develop	-583
),	-584
other	-585
ange	-586
▁You	-587
▁inv	-588
▁cre	-589
▁every	-590
ning	-591
▁great	-592
▁dif	-593
ally	-594
ves	-595
eed	-596
▁There	-597
ating	-598
ever	-599
uring	-600
li	-601
uc	-602
igh	-603
▁If	-604
int	-605
ft	-606
ull	-607
▁Bh	-608
oth	-609
ative	-610
les	-611
nds	-612
▁serv	-613
xt	-614
▁down	-615
▁thou	-616
ween	-617
▁make	-618
ided	-619
▁country	-620
▁att	-621
olog	-622
▁sec	-623
its	-624
).	-625
▁br	-626
▁add	-627
▁pol	-628
ax	-629
▁Is	-630
▁Government	-631
▁President	-632
▁produ	-633
▁cent	-634
ages	-635
▁follow	-636
▁between	-637
ular	-638
▁used	-639
ible	-640
▁exp	-641
▁&	-642
ublic	-643
▁pos	-644
ood	-645
▁ke	-646
ple	-647
ural	-648
ised	-649
▁En	-650
▁well	-651
▁could	-652
pen	-653
▁Min	-654
stem	-655
▁did	-656
▁first	-657
ble	-658
gan	-659
▁Him	-660
▁come	-661
▁inte	-662
▁person	-663
oci	-664
▁Act	-665
als	-666
▁years	-667
ty	-668
▁eff	-669
▁most	-670
▁For	-671
▁ret	-672
▁upon	-673
lp	-674
▁many	-675
▁5	-676
any	-677
pport	-678
▁sign	-679
ving	-680
▁Ex	-681
hi	-682
▁col	-683
ents	-684
▁unt	-685
ility	-686
ature	-687
▁back	-688
▁very	-689
▁even	-690
lud	-691
▁earth	-692
ited	-693
rie	-694
▁dist	-695
▁how	-696
▁Comm	-697
con	-698
▁4	-699
▁ord	-700
▁num	-701
fer	-702
▁among	-703
ven	-704
▁mess	-705
▁pur	-706
ister	-707
▁ed	-708
▁get	-709
ting	-710
▁200	-711
▁own	-712
▁against	-713
ale	-714
self	-715
▁tra	-716
elie	-717
air	-718
iew	-719
▁need	-720
amm	-721
uch	-722
aking	-723
ck	-724
..	-725
ather	-726
▁help	-727
ha	-728
hes	-729
irect	-730
ission	-731
▁inst	-732
ati	-733
▁sent	-734
get	-735
▁take	-736
ute	-737
ision	-738
ures	-739
ased	-740
▁val	-741
chn	-742
▁writ	-743
und	-744
▁does	-745
▁mem	-746
▁char	-747
ract	-748
▁Ad	-749
▁mod	-750
formation	-751
▁disc	-752
▁believe	-753
▁she	-754
▁use	-755
▁Ne	-756
▁given	-757
▁ap	-758
ick	-759
not	-760
▁gr	-761
ants	-762
▁turn	-763
▁system	-764
rong	-765
read	-766
▁just	-767
▁State	-768
▁child	-769
▁bu	-770
ished	-771
ices	-772
▁because	-773
▁end	-774
▁must	-775
▁requ	-776
▁ins	-777
▁import	-778
▁On	-779
▁mat	-780
▁mon	-781
▁cert	-782
▁Sc	-783
▁To	-784
▁ph	-785
ives	-786
ock	-787
belie	-788
▁ye	-789
round	-790
up	-791
▁pass	-792
▁place	-793
▁diffe	-794
▁hum	-795
ash	-796
ital	-797
ctions	-798
of	-799
ides	-800
iness	-801
▁lit	-802
▁account	-803
ari	-804
ror	-805
alth	-806
▁long	-807
▁car	-808
▁When	-809
pr	-810
▁Am	-811
▁equ	-812
rest	-813
ouse	-814
arch	-815
pos	-816
ivers	-817
▁wom	-818
▁give	-819
▁power	-820
ten	-821
▁>	-822
▁sm	-823
ries	-824
tle	-825
▁cap	-826
▁Al	-827
▁av	-828
▁cle	-829
ene	-830
...	-831
ral	-832
▁Day	-833
ix	-834
▁gener	-835
ified	-836
▁min	-837
▁includ	-838
▁sure	-839
pend	-840
▁prom	-841
arn	-842
▁inter	-843
ata	-844
▁water	-845
ES	-846
▁name	-847
uthor	-848
▁cond	-849
▁201	-850
selves	-851
▁<	-852
▁No	-853
▁nor	-854
▁now	-855
▁away	-856
▁gl	-857
▁let	-858
▁Hind	-859
▁found	-860
ork	-861
ars	-862
ined	-863
ug	-864
oun	-865
ee	-866
▁lar	-867
ared	-868
ety	-869
ern	-870
▁want	-871
▁number	-872
roup	-873
ship	-874
conom	-875
▁state	-876
▁men	-877
▁lo	-878
."	-879
ists	-880
▁lead	-881
▁heav	-882
▁Our	-883
▁fin	-884
day	-885
tc	-886
▁conc	-887
▁during	-888
▁conf	-889
▁inf	-890
ana	-891
less	-892
angu	-893
the	-894
▁fam	-895
▁Cent	-896
ters	-897
▁same	-898
ict	-899
▁main	-900
ody	-901
▁fore	-902
▁section	-903
ledge	-904
▁while	-905
▁	-906
e	-907
t	-908
a	-909
o	-910
i	-911
n	-912
r	-913
s	-914
h	-915
l	-916
d	-917
c	-918
u	-919
m	-920
f	-921
p	-922
g	-923
y	-924
w	-925
b	-926
v	-927
.	-928
,	-929
k	-930
A	-931
T	-932
I	-933
S	-934
C	-935
-	-936
M	-937
P	-938
H	-939
x	-940
B	-941
R	-942
D	-943
1	-944
E	-945
W	-946
)	-947
(	-948
N	-949
'	-950
G	-951
0	-952
O	-953
j	-954
L	-955
:	-956
F	-957
2	-958
q	-959
;	-960
"	-961
U	-962
K	-963
z	-964
9	-965
V	-966
?	-967
5	-968
3	-969
%	-970
/	-971
Y	-972
J	-973
4	-974
8	-975
6	-976
7	-977
!	-978
”	-979
“	-980
_	-981
’	-982
[	-983
]	-984
&	-985
Q	-986
>	-987
<	-988
‘	-989
—	-990
–	-991
{	-992
}	-993
Z	-994
X	-995
*	-996
