<pad>	0
</s>	0
<unk>	0
▁t	-0
he	-1
▁a	-2
in	-3
▁the	-4
▁o	-5
re	-6
er	-7
▁s	-8
nd	-9
▁w	-10
on	-11
at	-12
is	-13
en	-14
▁of	-15
it	-16
▁c	-17
▁b	-18
or	-19
es	-20
▁f	-21
ed	-22
▁p	-23
ou	-24
an	-25
al	-26
ar	-27
▁in	-28
▁and	-29
ing	-30
▁to	-31
▁m	-32
▁d	-33
ion	-34
▁h	-35
ic	-36
as	-37
le	-38
▁th	-39
om	-40
ent	-41
ll	-42
▁T	-43
▁n	-44
▁A	-45
▁be	-46
▁e	-47
ve	-48
▁I	-49
▁is	-50
▁re	-51
ct	-52
▁S	-53
▁l	-54
ro	-55
st	-56
▁y	-57
ut	-58
▁g	-59
id	-60
ot	-61
se	-62
ur	-63
▁for	-64
ation	-65
▁wh	-66
im	-67
ce	-68
ay	-69
ly	-70
▁you	-71
ver	-72
▁u	-73
ad	-74
▁The	-75
ow	-76
▁on	-77
am	-78
▁C	-79
▁P	-80
il	-81
et	-82
▁-	-83
▁M	-84
ir	-85
▁H	-86
▁that	-87
ig	-88
ch	-89
ment	-90
▁he	-91
▁as	-92
ith	-93
ra	-94
▁B	-95
ol	-96
▁(	-97
▁it	-98
ill	-99
▁an	-100
▁or	-101
▁W	-102
if	-103
▁with	-104
ul	-105
od	-106
▁not	-107
ess	-108
▁are	-109
ter	-110
ri	-111
ge	-112
▁st	-113
▁de	-114
▁ha	-115
her	-116
▁G	-117
▁D	-118
▁we	-119
▁pro	-120
▁se	-121
▁R	-122
▁con	-123
ld	-124
res	-125
ate	-126
rom	-127
▁su	-128
ab	-129
op	-130
ers	-131
▁'	-132
nt	-133
▁L	-134
ak	-135
▁by	-136
▁com	-137
ist	-138
ain	-139
th	-140
▁sh	-141
pe	-142
▁1	-143
▁N	-144
▁ex	-145
est	-146
▁have	-147
iv	-148
▁was	-149
ity	-150
▁from	-151
ht	-152
▁them	-153
▁will	-154
▁O	-155
us	-156
all	-157
and	-158
ie	-159
▁who	-160
▁this	-161
▁they	-162
em	-163
ich	-164
▁v	-165
ac	-166
▁F	-167
▁E	-168
ant	-169
ive	-170
um	-171
ah	-172
os	-173
qu	-174
▁r	-175
ore	-176
▁which	-177
▁He	-178
▁Ind	-179
▁at	-180
▁has	-181
▁k	-182
ies	-183
pp	-184
red	-185
el	-186
ction	-187
art	-188
ort	-189
our	-190
ard	-191
▁ne	-192
▁their	-193
un	-194
▁al	-195
▁his	-196
ia	-197
ould	-198
▁All	-199
ure	-200
▁all	-201
▁2	-202
ord	-203
oc	-204
▁K	-205
pt	-206
▁le	-207
ind	-208
ong	-209
ight	-210
te	-211
▁ch	-212
▁do	-213
▁whe	-214
ust	-215
ose	-216
ous	-217
ther	-218
▁In	-219
ag	-220
age	-221
ud	-222
ated	-223
▁U	-224
▁your	-225
ial	-226
ome	-227
▁We	-228
▁pl	-229
ount	-230
▁wor	-231
▁Allah	-232
▁Th	-233
▁tr	-234
av	-235
▁me	-236
cc	-237
ip	-238
▁And	-239
▁go	-240
rou	-241
▁dis	-242
ost	-243
ance	-244
ide	-245
ect	-246
▁us	-247
▁sa	-248
ok	-249
▁pe	-250
ear	-251
ff	-252
▁ab	-253
▁man	-254
ry	-255
ans	-256
▁India	-257
▁un	-258
ame	-259
▁but	-260
▁can	-261
▁one	-262
▁comp	-263
ice	-264
able	-265
▁there	-266
▁J	-267
▁so	-268
▁him	-269
▁en	-270
ast	-271
nder	-272
▁up	-273
ary	-274
ish	-275
▁ad	-276
▁been	-277
▁any	-278
ople	-279
so	-280
▁j	-281
▁It	-282
ap	-283
▁were	-284
au	-285
ult	-286
▁im	-287
now	-288
ik	-289
▁per	-290
ub	-291
▁people	-292
one	-293
▁when	-294
gh	-295
▁"	-296
▁other	-297
ib	-298
▁V	-299
og	-300
▁ag	-301
ations	-302
ress	-303
ine	-304
ru	-305
ake	-306
iz	-307
pl	-308
ical	-309
▁out	-310
very	-311
ition	-312
▁said	-313
out	-314
per	-315
▁those	-316
▁cont	-317
▁am	-318
ail	-319
ire	-320
▁res	-321
are	-322
ings	-323
ign	-324
vers	-325
ens	-326
vel	-327
▁ar	-328
▁part	-329
▁inc	-330
▁also	-331
ue	-332
lic	-333
ime	-334
ence	-335
▁had	-336
▁/	-337
▁bel	-338
ade	-339
ath	-340
▁no	-341
ile	-342
▁what	-343
ase	-344
00	-345
ace	-346
ass	-347
orm	-348
ep	-349
ber	-350
▁its	-351
▁know	-352
▁shall	-353
▁under	-354
▁Ch	-355
urn	-356
ang	-357
▁cl	-358
▁int	-359
▁Y	-360
▁comm	-361
act	-362
▁our	-363
▁co	-364
port	-365
▁ev	-366
▁acc	-367
▁ind	-368
ution	-369
ach	-370
ook	-371
▁if	-372
reat	-373
ident	-374
▁Lord	-375
▁19	-376
ren	-377
fe	-378
ian	-379
▁may	-380
▁sp	-381
erv	-382
fore	-383
vern	-384
du	-385
▁bec	-386
▁God	-387
▁app	-388
ise	-389
rit	-390
ack	-391
ual	-392
▁This	-393
▁St	-394
ike	-395
ory	-396
▁te	-397
▁pre	-398
▁spe	-399
▁sc	-400
ious	-401
▁would	-402
ree	-403
ause	-404
▁year	-405
▁_	-406
▁tw	-407
▁then	-408
int	-409
ks	-410
▁only	-411
ric	-412
hed	-413
▁Sh	-414
▁3	-415
▁say	-416
▁sub	-417
ater	-418
▁rec	-419
▁time	-420
▁“	-421
ces	-422
ove	-423
sel	-424
▁such	-425
▁made	-426
01	-427
fter	-428
ild	-429
rib	-430
▁than	-431
ject	-432
wn	-433
▁Go	-434
▁over	-435
ful	-436
ational	-437
▁po	-438
▁prov	-439
we	-440
▁fo	-441
▁new	-442
ife	-443
form	-444
▁bet	-445
old	-446
lect	-447
iss	-448
ions	-449
▁ear	-450
▁rel	-451
▁belie	-452
ound	-453
▁like	-454
▁rem	-455
ied	-456
▁Wh	-457
▁more	-458
vernment	-459
ite	-460
uth	-461
tern	-462
▁cons	-463
aj	-464
ities	-465
ific	-466
ness	-467
▁Pro	-468
ons	-469
▁count	-470
own	-471
▁my	-472
ward	-473
▁should	-474
way	-475
▁work	-476
▁As	-477
▁act	-478
▁off	-479
ert	-480
▁qu	-481
▁day	-482
▁Se	-483
stit	-484
▁into	-485
▁about	-486
▁some	-487
▁pers	-488
▁these	-489
ark	-490
▁ass	-491
▁They	-492
▁good	-493
ved	-494
cept	-495
cy	-496
▁So	-497
▁Com	-498
ments	-499
velop	-500
▁again	-501
▁em	-502
▁fe	-503
ted	-504
▁De	-505
resident	-506
gr	-507
▁two	-508
other	-509
end	-510
row	-511
▁des	-512
▁reg	-513
oy	-514
ates	-515
hen	-516
▁life	-517
▁before	-518
ily	-519
ink	-520
▁Un	-521
▁ac	-522
▁But	-523
▁form	-524
▁”	-525
▁giv	-526
ower	-527
eng	-528
li	-529
ient	-530
▁Con	-531
▁inv	-532
ph	-533
led	-534
▁[	-535
ond	-536
▁bl	-537
rough	-538
).	-539
rent	-540
▁pr	-541
llow	-542
eth	-543
cess	-544
▁ent	-545
ob	-546
▁On	-547
▁ra	-548
▁after	-549
▁world	-550
),	-551
hi	-552
ors	-553
▁Re	-554
aw	-555
▁An	-556
▁see	-557
▁pres	-558
ft	-559
amm	-560
▁If	-561
▁ro	-562
▁sy	-563
ange	-564
▁dec	-565
▁through	-566
▁ob	-567
▁call	-568
▁right	-569
▁cre	-570
▁dif	-571
▁set	-572
▁serv	-573
ght	-574
ural	-575
▁ret	-576
▁br	-577
ple	-578
▁Pr	-579
ey	-580
▁cent	-581
▁President	-582
▁fir	-583
cial	-584
ublic	-585
ave	-586
▁Bh	-587
▁His	-588
▁used	-589
▁Is	-590
uc	-591
xt	-592
erm	-593
ever	-594
▁Act	-595
▁pol	-596
▁sec	-597
▁fl	-598
pect	-599
ting	-600
ween	-601
▁5	-602
▁sign	-603
▁between	-604
ts	-605
ood	-606
ener	-607
▁did	-608
▁her	-609
▁down	-610
▁make	-611
▁very	-612
▁where	-613
▁country	-614
▁develop	-615
ism	-616
▁Indian	-617
..	-618
its	-619
▁gu	-620
ages	-621
ased	-622
▁could	-623
▁trans	-624
arn	-625
▁op	-626
ally	-627
▁col	-628
lp	-629
ative	-630
ision	-631
▁well	-632
ced	-633
oth	-634
ves	-635
ha	-636
iew	-637
igh	-638
ull	-639
▁Government	-640
ax	-641
▁&	-642
ular	-643
▁being	-644
▁every	-645
▁great	-646
als	-647
elie	-648
▁way	-649
uring	-650
ible	-651
▁200	-652
▁You	-653
▁4	-654
eed	-655
hip	-656
▁pos	-657
▁many	-658
▁most	-659
▁follow	-660
pos	-661
▁En	-662
ility	-663
▁There	-664
mit	-665
uch	-666
▁back	-667
▁disc	-668
▁among	-669
arm	-670
▁ord	-671
▁add	-672
▁att	-673
▁she	-674
▁requ	-675
ars	-676
und	-677
olog	-678
▁person	-679
ble	-680
▁tra	-681
▁years	-682
gan	-683
les	-684
▁ed	-685
▁Min	-686
▁come	-687
▁turn	-688
any	-689
ute	-690
ures	-691
ating	-692
▁help	-693
▁upon	-694
▁Sc	-695
▁ap	-696
ents	-697
ided	-698
▁cle	-699
▁mess	-700
ank	-701
ven	-702
rong	-703
▁eff	-704
▁own	-705
▁even	-706
fer	-707
ised	-708
▁inte	-709
▁first	-710
▁against	-711
▁Ex	-712
ty	-713
ract	-714
▁<	-715
▁>	-716
▁supp	-717
ission	-718
▁Ne	-719
ited	-720
ough	-721
stem	-722
▁201	-723
▁just	-724
stitution	-725
ale	-726
ash	-727
con	-728
lud	-729
▁For	-730
round	-731
▁given	-732
▁produ	-733
▁get	-734
▁mat	-735
▁num	-736
▁hand	-737
▁need	-738
▁take	-739
▁child	-740
▁earth	-741
▁exp	-742
▁hum	-743
▁rep	-744
▁tak	-745
ather	-746
belie	-747
ern	-748
get	-749
ati	-750
▁because	-751
me	-752
of	-753
▁No	-754
ants	-755
ouse	-756
▁mem	-757
▁pass	-758
▁sent	-759
not	-760
read	-761
ving	-762
▁power	-763
ES	-764
oci	-765
▁gl	-766
ters	-767
▁Him	-768
▁how	-769
ature	-770
ished	-771
▁account	-772
oun	-773
▁Ad	-774
oint	-775
▁car	-776
▁dist	-777
ral	-778
▁To	-779
self	-780
▁end	-781
▁lit	-782
▁inst	-783
▁diffe	-784
roup	-785
▁writ	-786
formation	-787
air	-788
▁ph	-789
pend	-790
▁use	-791
▁believe	-792
rest	-793
▁pur	-794
▁gener	-795
▁another	-796
ck	-797
ya	-798
ides	-799
▁unt	-800
▁When	-801
▁does	-802
▁must	-803
tc	-804
ror	-805
▁min	-806
▁conc	-807
▁inter	-808
▁import	-809
▁Al	-810
▁bu	-811
ices	-812
▁nor	-813
▁wom	-814
▁away	-815
▁cert	-816
▁char	-817
▁place	-818
▁return	-819
ana	-820
arch	-821
ared	-822
ives	-823
chn	-824
▁Mu	-825
▁sm	-826
▁ye	-827
less	-828
▁equ	-829
▁want	-830
▁state	-831
ef	-832
▁etc	-833
▁now	-834
▁here	-835
▁long	-836
▁water	-837
▁system	-838
ee	-839
tle	-840
ital	-841
▁Our	-842
▁cur	-843
▁men	-844
iness	-845
uthor	-846
▁lead	-847
▁av	-848
▁cap	-849
▁val	-850
▁sure	-851
ctions	-852
su	-853
▁7	-854
▁8	-855
hes	-856
▁gr	-857
▁lo	-858
▁mod	-859
ified	-860
irect	-861
▁Hind	-862
▁book	-863
▁cond	-864
selves	-865
▁clear	-866
▁present	-867
...	-868
ict	-869
ered	-870
▁inf	-871
▁let	-872
▁loc	-873
▁name	-874
▁includ	-875
orn	-876
alth	-877
ired	-878
ries	-879
▁def	-880
▁open	-881
."	-882
pr	-883
day	-884
ick	-885
▁Te	-886
ains	-887
ists	-888
▁beh	-889
▁fam	-890
▁lar	-891
conom	-892
ivers	-893
wards	-894
▁give	-895
▁public	-896
EN	-897
▁Q	-898
ata	-899
▁med	-900
▁mon	-901
▁cour	-902
▁spec	-903
ug	-904
▁	-905
e	-906
t	-907
a	-908
o	-909
i	-910
n	-911
s	-912
r	-913
h	-914
l	-915
d	-916
c	-917
u	-918
m	-919
f	-920
p	-921
g	-922
y	-923
w	-924
b	-925
.	-926
v	-927
,	-928
k	-929
A	-930
T	-931
I	-932
S	-933
-	-934
C	-935
P	-936
M	-937
H	-938
x	-939
B	-940
R	-941
1	-942
D	-943
W	-944
0	-945
E	-946
N	-947
'	-948
(	-949
)	-950
G	-951
O	-952
j	-953
L	-954
2	-955
:	-956
F	-957
q	-958
;	-959
U	-960
K	-961
"	-962
9	-963
z	-964
5	-965
3	-966
?	-967
V	-968
/	-969
J	-970
%	-971
4	-972
Y	-973
8	-974
7	-975
6	-976
”	-977
“	-978
!	-979
_	-980
’	-981
]	-982
[	-983
&	-984
<	-985
>	-986
Q	-987
–	-988
‘	-989
Z	-990
{	-991
}	-992
—	-993
X	-994
+	-995
*	-996
