<pad>	0
</s>	0
<unk>	0
.	-3.19528
ا	-3.70148
▁	-3.76934
▁ال	-3.78675
ى	-3.99442
ه	-4.00836
ي	-4.00929
ت	-4.2401
ك	-4.28915
▁في	-4.28943
▁من	-4.35515
وا	-4.38659
ة	-4.43254
ن	-4.43637
▁و	-4.49057
م	-4.60656
▁ي	-4.62401
ون	-4.65318
ّ	-4.7591
▁ا	-4.78448
▁ت	-4.89696
ر	-4.91921
ب	-4.97201
▁الرب	-4.98573
▁ان	-5.02675
س	-5.10228
▁ف	-5.12313
هم	-5.12854
ل	-5.20506
ع	-5.20589
ين	-5.21505
ها	-5.23672
د	-5.24629
▁عل	-5.25875
▁لا	-5.26091
▁م	-5.26909
ح	-5.2898
ق	-5.30156
▁كل	-5.32559
▁الذي	-5.3376
ش	-5.36427
نا	-5.37629
▁ب	-5.42347
ف	-5.42762
▁وا	-5.4996
كم	-5.55412
▁وال	-5.56169
▁ل	-5.63032
▁وي	-5.7229
غ	-5.73454
ان	-5.74758
ص	-5.75176
ج	-5.78999
اء	-5.79255
خ	-5.80383
▁قد	-5.81377
▁ن	-5.83066
و	-5.83363
ز	-5.85265
ث	-5.85276
ض	-5.85486
▁لي	-5.86165
▁اسرائيل	-5.87779
ط	-5.88656
▁الم	-5.93197
ار	-5.97521
▁الله	-6.01778
ما	-6.02412
▁ولا	-6.02833
ني	-6.0419
▁لان	-6.06363
▁لل	-6.13338
▁.	-6.14016
▁هذا	-6.1414
ور	-6.14218
▁لم	-6.16024
▁له	-6.18342
▁وت	-6.18716
▁فقال	-6.19626
▁الارض	-6.20275
▁مع	-6.21487
▁التي	-6.21527
▁يا	-6.21766
▁عن	-6.2188
▁هو	-6.26191
▁بال	-6.26318
ال	-6.27968
▁ك	-6.28723
▁ع	-6.30552
▁ما	-6.32108
▁ج	-6.34297
▁فا	-6.35198
▁ش	-6.35521
▁بيت	-6.37363
ات	-6.38419
ية	-6.39347
ته	-6.39583
▁ايضا	-6.40131
▁بن	-6.40281
▁كان	-6.41493
أ	-6.46896
اد	-6.47115
▁جميع	-6.47553
ئ	-6.4782
▁الملك	-6.47841
ير	-6.48734
▁ملك	-6.49294
بي	-6.51379
▁وقال	-6.53575
▁قال	-6.54041
يا	-6.54976
ذ	-6.55436
▁لانه	-6.59542
▁انا	-6.60383
اب	-6.60722
▁عند	-6.62062
▁بل	-6.62866
▁خ	-6.63224
▁امام	-6.63491
▁بني	-6.65264
▁ثم	-6.66035
▁ابن	-6.66981
ام	-6.67238
ول	-6.67748
▁وكان	-6.68617
دي	-6.71123
▁وم	-6.72298
را	-6.725
يد	-6.73049
عل	-6.78962
وب	-6.79251
▁اليوم	-6.79588
تم	-6.80164
▁ارض	-6.80177
يل	-6.8052
▁لهم	-6.81242
▁او	-6.81345
▁هكذا	-6.81734
▁به	-6.81822
▁س	-6.82937
قي	-6.83365
▁داود	-6.84524
با	-6.85361
▁ومن	-6.85474
▁الشعب	-6.85803
▁ام	-6.85892
▁الا	-6.86527
▁وع	-6.86736
عد	-6.87202
▁وكل	-6.87556
▁الع	-6.87676
▁كما	-6.87815
رب	-6.8823
فر	-6.88258
يم	-6.88382
▁يسوع	-6.88432
وه	-6.89196
▁وب	-6.89552
▁هذه	-6.90303
▁رب	-6.9139
▁قائلا	-6.92123
تك	-6.92885
▁الس	-6.94885
▁بعد	-6.95148
▁واحد	-6.95587
▁حت	-6.95704
قر	-6.96196
▁ذلك	-6.98138
▁انت	-6.98886
بر	-6.99134
▁أ	-6.99398
▁يكون	-6.99491
وس	-7.02077
▁يهوذا	-7.02163
ود	-7.0231
▁وفي	-7.0234
اف	-7.03025
▁واما	-7.03103
▁يقول	-7.03486
لا	-7.03545
مر	-7.03912
▁ولكن	-7.0454
تي	-7.04743
▁فت	-7.05308
كل	-7.05431
▁ليس	-7.05516
▁رجل	-7.05873
▁ولم	-7.05968
ظ	-7.06279
رج	-7.0636
▁موسى	-7.06489
▁اورشليم	-7.06676
ري	-7.0723
▁هناك	-7.07881
▁بنو	-7.08833
▁هي	-7.09235
جر	-7.09564
جل	-7.10895
رف	-7.12844
▁ول	-7.13355
▁بين	-7.13744
▁حسب	-7.14363
حا	-7.1438
وت	-7.14661
دم	-7.15451
▁انه	-7.16335
وف	-7.18847
▁وان	-7.1898
اس	-7.19144
وم	-7.19848
▁لكي	-7.20195
▁وس	-7.2026
ذهب	-7.20329
▁ايام	-7.21579
ست	-7.21695
فت	-7.22093
▁لكم	-7.22261
▁لك	-7.22281
▁فان	-7.22546
وح	-7.23875
ذا	-7.24551
جا	-7.24695
▁مصر	-7.25801
يت	-7.25919
▁عليه	-7.26816
بت	-7.27031
لم	-7.27781
خر	-7.29087
بع	-7.29194
رك	-7.3031
سكن	-7.30353
▁الق	-7.30407
نظر	-7.31526
رد	-7.3287
طر	-7.33225
▁الح	-7.33494
عة	-7.33682
ضع	-7.34109
▁عمل	-7.34492
▁وح	-7.34678
آ	-7.34894
▁يوم	-7.34899
قل	-7.3643
▁اجل	-7.36778
▁ابي	-7.37567
▁اذا	-7.37573
حم	-7.37605
▁احد	-7.379
▁اذ	-7.38731
▁المدينة	-7.39497
ؤ	-7.39852
وع	-7.39926
لام	-7.40139
▁ار	-7.40989
صي	-7.41021
حر	-7.41327
▁د	-7.41675
زل	-7.4257
▁ز	-7.42716
وج	-7.42787
هوذا	-7.42827
تهم	-7.43389
▁وعل	-7.43642
▁يد	-7.44178
صل	-7.44655
▁لت	-7.44752
صا	-7.45573
▁المسيح	-7.46183
صر	-7.46409
صعد	-7.47094
▁للرب	-7.47127
▁وسط	-7.47551
هما	-7.48494
دخل	-7.48578
▁مر	-7.4868
▁بر	-7.48757
▁الف	-7.49541
قب	-7.49829
▁كلام	-7.50399
جمع	-7.50807
▁اليه	-7.51005
طي	-7.51622
رت	-7.51745
قا	-7.51975
رس	-7.52163
وي	-7.52444
سا	-7.52739
رق	-7.52836
صنع	-7.5344
▁مثل	-7.53596
▁با	-7.53801
▁مئة	-7.54005
يين	-7.54957
▁عشر	-7.5524
عا	-7.55557
▁فلا	-7.56033
مت	-7.56347
دع	-7.56425
▁آ	-7.56652
اح	-7.56947
▁والم	-7.57297
▁وك	-7.57417
▁الج	-7.57534
▁السماء	-7.57793
▁فم	-7.57849
▁الب	-7.57901
▁تر	-7.58084
▁جاء	-7.58435
اق	-7.58534
▁ولما	-7.58768
مة	-7.59348
▁عيني	-7.59678
▁اما	-7.59712
اع	-7.59926
▁هل	-7.60716
جن	-7.61314
تها	-7.61393
دا	-7.61769
▁كال	-7.61942
▁يت	-7.62107
له	-7.62366
يق	-7.62398
نة	-7.62472
▁ط	-7.62529
عمل	-7.62585
▁الشر	-7.62808
حل	-7.63689
هر	-7.64809
في	-7.64836
▁اسم	-7.65449
حفظ	-7.65584
▁بها	-7.66106
▁الامم	-7.66157
▁اع	-7.66345
بل	-7.66449
حب	-7.66523
▁الانسان	-7.66974
▁سمع	-7.68081
▁شر	-7.68326
▁وجه	-7.68353
طلب	-7.68429
▁وهو	-7.68575
▁الآن	-7.69018
▁اله	-7.6921
▁كنت	-7.69445
وق	-7.69577
شر	-7.69805
▁لاجل	-7.70201
▁سنة	-7.70202
قطع	-7.70307
▁تكون	-7.70485
▁انتم	-7.70516
قد	-7.70523
▁ارسل	-7.70865
به	-7.70906
▁انسان	-7.71243
خل	-7.71432
▁وش	-7.71508
▁اني	-7.71604
▁معه	-7.71917
قول	-7.72351
▁ير	-7.72416
لت	-7.72475
عط	-7.73789
شب	-7.73882
▁شاول	-7.7404
صب	-7.74123
▁اس	-7.74457
▁واذا	-7.74823
رفع	-7.75007
▁الكاهن	-7.75333
▁قدام	-7.75359
▁است	-7.7587
▁البيت	-7.76117
لي	-7.7639
▁تحت	-7.76987
قت	-7.77113
بة	-7.77413
▁فلما	-7.77553
مل	-7.7768
▁حين	-7.77829
سر	-7.77838
سي	-7.78559
▁سب	-7.79342
▁قبل	-7.79411
▁ولد	-7.79464
صف	-7.80031
رض	-7.80157
▁طريق	-7.80458
▁قو	-7.80727
▁اعط	-7.80738
أخذ	-7.80747
دين	-7.81129
▁اي	-7.81221
▁شعب	-7.81236
▁لذلك	-7.81292
در	-7.81695
▁قائلين	-7.82128
▁الابد	-7.82487
▁وق	-7.82567
▁امر	-7.8264
▁جدا	-7.82833
▁رأ	-7.82878
▁صوت	-7.83078
سقط	-7.83233
▁عبيد	-7.83844
▁يخ	-7.8421
▁يعقوب	-7.84982
▁الرجل	-7.85101
وش	-7.85349
▁الهك	-7.85548
▁الش	-7.86236
▁ايه	-7.86658
عبد	-7.87412
▁السيد	-7.87415
▁نحو	-7.87648
ذب	-7.88419
خرج	-7.88872
عون	-7.89125
هد	-7.89417
وك	-7.89491
▁هؤلاء	-7.89659
▁هم	-7.89995
صو	-7.90068
▁فلم	-7.90283
تكلم	-7.90422
خبر	-7.90849
ذل	-7.91201
حد	-7.91411
جعل	-7.91439
▁شيء	-7.91966
اث	-7.92046
▁اش	-7.92115
موت	-7.92195
بن	-7.92277
رح	-7.92571
قض	-7.92687
▁البحر	-7.92922
جد	-7.92964
▁تكلم	-7.93092
اني	-7.93191
سم	-7.93211
قيم	-7.93514
▁لانهم	-7.93678
رة	-7.94133
حمل	-7.94263
لق	-7.94688
لو	-7.94907
▁مس	-7.95049
▁صار	-7.9548
▁ذهب	-7.95618
قة	-7.95722
قف	-7.95828
بط	-7.96018
ضرب	-7.96071
▁صنع	-7.9621
عز	-7.96284
مسك	-7.96354
▁وراء	-7.96423
أت	-7.96481
▁مت	-7.96642
▁عليهم	-7.96666
بني	-7.96935
سأل	-7.97225
طا	-7.97331
▁حي	-7.97372
رام	-7.97479
▁غير	-7.97674
وص	-7.97682
▁نفسه	-7.977
از	-7.9771
▁عظيم	-7.9807
▁رئيس	-7.98612
▁قر	-7.98714
عي	-7.99105
جي	-7.99121
▁الكهنة	-7.99249
سمع	-7.99294
دون	-7.99656
ائه	-7.99746
▁الناس	-7.99865
▁وخ	-8.0009
وها	-8.00112
▁حق	-8.00378
▁لماذا	-8.01124
ذبح	-8.01156
قتل	-8.01305
▁وقد	-8.01437
▁بابل	-8.01901
ملك	-8.02019
▁فيها	-8.02052
وث	-8.02186
دعو	-8.02432
▁اخي	-8.02518
▁عليك	-8.02596
دفع	-8.02971
▁اخ	-8.03242
▁يدي	-8.03266
▁الجنود	-8.03363
فرح	-8.03553
▁فاجاب	-8.03715
▁خمس	-8.03739
شف	-8.03868
▁امرأة	-8.04059
▁اب	-8.04502
▁أل	-8.05013
ذر	-8.05914
▁الايام	-8.06939
▁لها	-8.07121
قص	-8.0723
طلق	-8.07325
▁سي	-8.07527
سب	-8.07627
▁الاول	-8.07921
شرب	-8.07942
▁رجال	-8.08
▁كثيرة	-8.08127
▁حم	-8.08462
▁ويكون	-8.08498
▁يكن	-8.08565
▁بعض	-8.08594
▁جبل	-8.08661
▁بكل	-8.08703
فا	-8.08852
خت	-8.08994
▁لنا	-8.09028
بو	-8.09179
▁باب	-8.09292
▁كانوا	-8.09532
▁بيد	-8.09604
رسل	-8.09614
▁آخر	-8.09948
▁سر	-8.09964
▁سليمان	-8.10196
عت	-8.10282
▁وجميع	-8.10569
▁روح	-8.1061
فل	-8.10734
▁اليهود	-8.10737
▁كانت	-8.11206
صد	-8.11431
رون	-8.12254
▁فوق	-8.12339
▁يسمع	-8.12516
▁عنه	-8.12724
▁مل	-8.12841
ذكر	-8.1318
ائم	-8.13268
▁السموات	-8.13608
▁كر	-8.13702
▁كلم	-8.13779
▁تلك	-8.13796
▁لكن	-8.14233
فعل	-8.14263
▁غضب	-8.14352
▁راس	-8.14477
ظل	-8.14628
▁مكان	-8.14873
▁نحن	-8.15364
آب	-8.15704
قام	-8.15887
تقدم	-8.16105
هلك	-8.16756
▁اخو	-8.1694
▁مدن	-8.17027
كتب	-8.17203
▁فكان	-8.17236
▁بم	-8.17237
▁واعط	-8.17632
▁الحق	-8.17759
▁وانا	-8.17924
▁دم	-8.18619
▁يع	-8.18671
▁ماذا	-8.1885
▁رؤساء	-8.19151
عال	-8.19203
▁خرج	-8.1973
▁واخذ	-8.19785
ائر	-8.19922
▁فيه	-8.20164
▁عشرة	-8.20202
▁يس	-8.20339
▁عبد	-8.20491
▁اسمه	-8.20938
▁مجد	-8.21172
▁حينئذ	-8.21192
▁فعل	-8.21212
▁الر	-8.2131
▁سيد	-8.21329
▁يده	-8.21658
وة	-8.21735
بال	-8.21966
▁تن	-8.21982
▁باسم	-8.22167
امة	-8.22215
ئلا	-8.22496
▁الروح	-8.23004
موا	-8.23668
لة	-8.23886
▁فرعون	-8.24173
▁نفسي	-8.2432
▁حر	-8.24469
قسم	-8.2452
▁خارج	-8.24618
▁فلي	-8.24725
▁اخذ	-8.24891
▁ابنه	-8.25022
هرب	-8.25415
جم	-8.25522
▁عليها	-8.25814
▁عين	-8.25863
▁مدينة	-8.25902
▁وبنو	-8.26157
قوم	-8.26245
▁لن	-8.2681
ورة	-8.26852
▁سا	-8.26919
بس	-8.26996
▁اذهب	-8.27118
▁وأ	-8.27139
▁اليك	-8.27335
▁الكلام	-8.27384
▁فن	-8.27571
ايا	-8.27623
▁البرية	-8.27812
▁اقول	-8.27829
وز	-8.27835
▁مح	-8.27875
▁لانك	-8.27914
ء	-8.28101
▁وقل	-8.28343
صرخ	-8.28743
▁عد	-8.29116
أتي	-8.2913
حز	-8.29411
حت	-8.29807
▁هرون	-8.29997
ظهر	-8.3016
▁وليس	-8.30251
▁السنة	-8.3062
▁وجد	-8.31261
▁قا	-8.31395
▁وانت	-8.31717
▁هانذا	-8.31723
ولد	-8.32085
▁فل	-8.32192
▁عر	-8.32399
حكم	-8.32492
▁ست	-8.32506
▁حيث	-8.32591
قط	-8.32654
▁يوسف	-8.32666
تين	-8.32953
جلس	-8.33257
عظ	-8.33409
هن	-8.33439
مجد	-8.33573
▁معك	-8.33852
▁ها	-8.34017
سجد	-8.34166
▁ابراهيم	-8.34532
صير	-8.34712
▁المذبح	-8.34934
ئيل	-8.34965
تكم	-8.35325
▁حول	-8.35479
▁الطريق	-8.35491
▁تت	-8.358
▁علي	-8.35933
ريح	-8.36056
كسر	-8.36298
ضل	-8.36506
ائي	-8.36768
▁اسمع	-8.36854
▁كثير	-8.37335
▁ذراع	-8.37431
▁واحدة	-8.37475
▁را	-8.37693
▁بي	-8.37873
▁الآب	-8.37938
▁اكثر	-8.38173
▁سبط	-8.38191
فتح	-8.38315
ثر	-8.38713
حارب	-8.38916
سد	-8.38929
▁والا	-8.39156
▁اثم	-8.39317
▁الفا	-8.39375
بغض	-8.3939
▁وخمس	-8.39411
خير	-8.39415
جتمع	-8.39417
▁اخرج	-8.39434
▁والذي	-8.3954
حيا	-8.3966
▁وف	-8.39781
سلك	-8.39849
خي	-8.40022
▁والب	-8.40295
▁الشعوب	-8.40403
نعم	-8.40549
وهم	-8.40881
▁يهو	-8.40884
تان	-8.40924
ائل	-8.40926
▁تع	-8.40975
▁يشوع	-8.40979
مالك	-8.41002
▁سبع	-8.41042
زرع	-8.41196
▁سيدي	-8.41376
حسن	-8.41714
▁خير	-8.41986
▁ولي	-8.42056
▁بك	-8.42097
▁وعمل	-8.4213
▁عهد	-8.4214
زم	-8.42367
▁لما	-8.42771
ثور	-8.42813
نحاس	-8.42853
▁ضرب	-8.43078
▁ثلاث	-8.43477
▁الشهر	-8.43613
فهم	-8.43745
▁تح	-8.43875
▁عز	-8.44069
▁مكتوب	-8.44516
▁القدس	-8.44555
أكل	-8.44565
▁أت	-8.44682
▁والآن	-8.45266
▁وام	-8.45498
▁شيئا	-8.45571
▁اكل	-8.45647
▁بع	-8.45712
▁اخت	-8.45833
▁سبعة	-8.45917
▁الحقل	-8.46025
اتي	-8.46062
فض	-8.46195
▁ثلاثة	-8.46264
لح	-8.46459
▁الهنا	-8.46646
ؤمن	-8.46685
▁العالم	-8.46692
▁سل	-8.47203
▁هنا	-8.47441
▁كيف	-8.4769
▁حكم	-8.48014
▁قتل	-8.48185
إ	-8.48259
فق	-8.48442
▁شعبي	-8.4846
▁يش	-8.48487
▁وما	-8.48735
▁لحم	-8.48759
▁يعرف	-8.48944
▁كلمة	-8.49284
حلف	-8.49299
▁تقدم	-8.49631
ركب	-8.49637
دان	-8.49639
▁يخرج	-8.49681
▁ايدي	-8.49859
فة	-8.5039
عود	-8.50441
ضطجع	-8.50464
قلب	-8.50472
▁دخل	-8.50492
▁وجاء	-8.50536
▁بيته	-8.5097
▁لبني	-8.51144
▁يأتي	-8.5122
▁وملك	-8.51252
▁لكل	-8.51253
▁يعمل	-8.51348
قدم	-8.5136
▁مست	-8.51768
وني	-8.51978
▁جعل	-8.52108
▁الاردن	-8.52157
▁وكلم	-8.52164
عبر	-8.52227
▁جهة	-8.52348
▁وجعل	-8.52565
▁قلب	-8.52764
▁قلبه	-8.52828
▁العظيم	-8.53293
وط	-8.5333
▁كن	-8.53393
بصر	-8.5365
▁بلا	-8.53766
▁تقول	-8.53875
▁متى	-8.53975
▁فضة	-8.53996
▁الواحد	-8.545
▁وقت	-8.54622
طف	-8.54776
▁الثاني	-8.55043
▁الرجال	-8.55045
▁البر	-8.55093
▁الموت	-8.55338
▁الفلسطينيين	-8.55342
كثر	-8.55367
تعب	-8.5559
▁المرأة	-8.55607
▁خيمة	-8.55626
▁وبعد	-8.55685
▁وكانت	-8.56048
▁رأيت	-8.56124
▁الباب	-8.56209
▁سلام	-8.56281
▁رحم	-8.56371
▁ابني	-8.56631
نزع	-8.56703
▁عبر	-8.56753
ارة	-8.57089
▁واحدا	-8.57226
▁الجميع	-8.57409
يرة	-8.57572
▁النبي	-8.5761
▁جسد	-8.57711
▁عم	-8.57976
▁موآب	-8.57983
يء	-8.58004
▁نصيب	-8.58006
▁اليكم	-8.58087
▁والع	-8.58328
▁ماء	-8.58409
▁الهكم	-8.58505
▁قلت	-8.58607
عام	-8.58648
▁لست	-8.58695
▁ومع	-8.58992
▁نجس	-8.59049
▁نار	-8.59111
▁مقدس	-8.59206
نقذ	-8.59562
▁الجبل	-8.59677
▁وذهب	-8.59957
▁معي	-8.60348
▁اعمال	-8.60586
▁يعطي	-8.6061
بقية	-8.60762
▁افرايم	-8.6103
▁يدخل	-8.61098
▁وط	-8.61322
▁بار	-8.61436
▁منهم	-8.61491
▁صل	-8.61496
▁فانه	-8.61514
▁حد	-8.61584
▁فال	-8.61609
نجس	-8.61858
▁آدم	-8.61893
▁عليكم	-8.61946
▁رؤوس	-8.62276
▁سكان	-8.62307
▁ملوك	-8.62367
▁يعلم	-8.62493
▁للم	-8.62576
▁انك	-8.62588
▁وز	-8.62589
▁وضرب	-8.62608
▁ابا	-8.62961
▁ذبيحة	-8.62983
يئيل	-8.63411
راس	-8.63694
▁طرق	-8.63839
حجارة	-8.64186
▁ابيه	-8.64551
جع	-8.64826
▁وقالوا	-8.64867
بون	-8.65028
▁يفعل	-8.6527
▁صهيون	-8.65461
▁تعلم	-8.65642
▁اياه	-8.65693
▁يتكلم	-8.65716
▁يست	-8.65782
▁ابو	-8.66078
▁لداود	-8.66112
▁ولل	-8.66815
دد	-8.67163
▁الليل	-8.67252
▁وارسل	-8.67612
▁حص	-8.67648
ائد	-8.67755
حكام	-8.68209
▁منذ	-8.68238
شبع	-8.68331
تني	-8.6861
ختار	-8.68737
▁الاجتماع	-8.68751
▁سمعت	-8.69902
▁عبدك	-8.70012
▁يقتل	-8.70103
زوج	-8.70104
▁كذلك	-8.70106
▁الشمس	-8.70115
▁يدك	-8.70206
▁انظر	-8.70211
▁المن	-8.7042
▁فارسل	-8.70465
▁غل	-8.70547
▁فاخذ	-8.70657
▁بطرس	-8.70796
▁المياه	-8.70836
سير	-8.70878
▁خل	-8.70889
▁قم	-8.71118
حسب	-8.71146
لآخر	-8.71269
جوع	-8.71355
▁بولس	-8.71484
▁قدس	-8.71641
▁اربع	-8.71781
جز	-8.7185
▁الصد	-8.72054
▁فأ	-8.72507
▁والس	-8.72538
▁حسن	-8.72571
دفن	-8.72734
▁فخرج	-8.72805
▁لو	-8.72807
▁صاحب	-8.72853
▁اوص	-8.73105
▁قليل	-8.7319
ائب	-8.7329
▁يطلب	-8.73641
كثرة	-8.73745
شد	-8.73932
لبس	-8.73942
▁بنت	-8.74289
يلة	-8.74386
▁الشرير	-8.74601
▁اشور	-8.74808
▁خطية	-8.7497
▁قول	-8.75006
غني	-8.75022
▁تعمل	-8.75305
▁وابن	-8.75499
▁عظيمة	-8.76123
▁الاخوة	-8.76396
▁قلبك	-8.76549
تقد	-8.76702
▁اهل	-8.77132
▁فجاء	-8.77155
▁فمن	-8.77319
بشر	-8.77497
▁بهذا	-8.7767
أمر	-8.77716
▁نعمة	-8.77894
▁الناموس	-8.77971
▁المح	-8.78053
خزي	-8.78137
▁كثيرا	-8.78336
▁رد	-8.78348
▁قل	-8.78375
سحق	-8.78538
▁يأكل	-8.78558
اخذ	-8.78576
▁ووضع	-8.78597
▁رم	-8.78682
▁وضع	-8.79138
▁صعد	-8.79382
▁السيف	-8.79407
▁بيوت	-8.79524
▁أم	-8.79801
▁الكل	-8.79841
▁الثالث	-8.80071
▁اخطأ	-8.80075
▁بنيامين	-8.80078
▁أليس	-8.80135
▁النار	-8.80318
▁الاشرار	-8.80824
▁غر	-8.80898
غش	-8.80908
▁ونزل	-8.80968
▁الفضة	-8.81012
▁اصعد	-8.81033
معرفة	-8.81132
▁علينا	-8.81644
شهد	-8.81691
▁ابد	-8.81738
▁اعين	-8.82083
دل	-8.82142
▁وهي	-8.82154
▁الهي	-8.82245
▁جانب	-8.8241
▁الامور	-8.82418
▁نفس	-8.82431
▁قريب	-8.82451
تنبأ	-8.82459
▁نسل	-8.82612
▁احب	-8.82644
طين	-8.8326
▁الجبال	-8.83377
▁قوم	-8.83399
▁تسمع	-8.8341
خو	-8.83429
باط	-8.83569
▁تابوت	-8.83895
▁ارميا	-8.83897
▁وصايا	-8.83905
▁بنات	-8.83925
▁واذ	-8.84409
▁وخرج	-8.84575
▁الشمال	-8.8468
▁السابع	-8.84712
▁الجسد	-8.84781
▁رجع	-8.84846
▁لانكم	-8.84945
▁يقدر	-8.85509
▁كرسي	-8.85585
▁أمر	-8.85603
▁يموت	-8.85814
غضب	-8.85844
▁افعل	-8.86515
▁فرح	-8.86756
▁يوآب	-8.87056
رث	-8.87209
▁مذبح	-8.87536
▁ملاك	-8.87538
▁فهو	-8.87578
▁يمين	-8.87623
▁الحرب	-8.8766
▁جلعاد	-8.87857
▁ارجع	-8.88008
▁خبز	-8.88029
ملأ	-8.88049
خبز	-8.88096
خيل	-8.88113
▁بكر	-8.88194
▁وجهه	-8.88258
▁قلبي	-8.88267
▁الامر	-8.88349
▁احت	-8.88368
وخ	-8.88507
▁سفر	-8.88772
▁وثلاث	-8.89031
سخط	-8.89367
▁ارام	-8.8942
▁حوالي	-8.89494
▁واقف	-8.90062
▁واسم	-8.90065
▁قام	-8.90121
لجميع	-8.90285
▁الجماعة	-8.90316
ذنب	-8.90341
الآن	-8.90368
▁الهيكل	-8.90429
▁اولاد	-8.90625
▁فقد	-8.90663
مسح	-8.90829
▁تعط	-8.90856
▁واست	-8.90874
▁آلاف	-8.91152
▁بسبب	-8.9116
▁يوجد	-8.91183
▁نفسك	-8.91472
▁معهم	-8.91776
▁ذكر	-8.91903
▁الموضع	-8.91993
▁وبيت	-8.9206
▁تعرف	-8.92154
▁اولا	-8.92222
▁وتكون	-8.92291
نتظر	-8.92695
▁صموئيل	-8.92837
دور	-8.92978
▁رع	-8.93422
▁يصنع	-8.93452
▁ترك	-8.93746
▁راسه	-8.93824
▁حو	-8.93827
▁الوقت	-8.93833
▁واجعل	-8.94145
▁فقام	-8.94166
▁خبزا	-8.94269
▁سنين	-8.94341
▁بالسيف	-8.94557
▁صالح	-8.94558
▁عوض	-8.94565
▁ادوم	-8.94602
▁النهر	-8.94683
▁وزن	-8.94752
▁اخوته	-8.9477
▁وقو	-8.95104
▁الانبياء	-8.95423
▁آلهة	-8.95426
▁وبين	-8.96229
▁اللاويين	-8.963
▁السامرة	-8.96301
▁الساكن	-8.96308
▁بما	-8.96411
عشيرة	-8.96452
حمد	-8.96525
▁تخم	-8.96578
▁المكان	-8.9729
▁المحل	-8.9737
حيوان	-8.97703
▁فيكون	-8.97725
جيب	-8.98001
ائك	-8.98022
▁داخل	-8.98089
▁فعلت	-8.98276
▁ابواب	-8.98337
▁المس	-8.98427
▁وسبع	-8.98781
▁محب	-8.98879
▁خطايا	-8.98981
▁غنم	-8.98997
▁خلاص	-8.99028
قضاء	-8.99096
▁المدن	-8.99118
▁خذ	-8.99575
▁بعيد	-8.99686
▁اليهم	-8.99699
▁حزقيا	-8.99888
▁سيف	-9.00009
صرف	-9.00039
▁واقام	-9.00093
▁ورأ	-9.00169
▁مياه	-9.00205
غسل	-9.00307
▁اعطيت	-9.00414
▁يجد	-9.00499
▁ملكوت	-9.00928
شعر	-9.00992
▁تأكل	-9.01264
▁ثمر	-9.0166
▁وهذه	-9.01714
▁سن	-9.01721
▁تلاميذه	-9.01731
▁الخطية	-9.01732
مثل	-9.02107
تراب	-9.02477
▁طعام	-9.02775
▁وأت	-9.02823
▁اخبر	-9.02834
▁وسمع	-9.03177
شتر	-9.03216
▁اربعة	-9.03375
▁يوحنا	-9.0364
▁تفعل	-9.03664
▁باطل	-9.03714
ملاك	-9.03725
▁اخرى	-9.03742
عرض	-9.03786
▁المساء	-9.03998
مثال	-9.04045
تسلط	-9.04573
▁الجنوب	-9.04579
▁بالنار	-9.04669
▁جيش	-9.04723
▁عيون	-9.04919
▁السلام	-9.05178
▁للملك	-9.052
▁آبائهم	-9.0526
▁وانتم	-9.05295
شير	-9.05298
▁وحده	-9.05363
نطق	-9.05392
▁اجعل	-9.054
▁شعبه	-9.05478
▁الدهر	-9.05587
▁الحياة	-9.05591
▁اجاب	-9.05626
▁ساكن	-9.05709
حضر	-9.05822
▁صور	-9.0624
▁عمون	-9.06254
اؤه	-9.06271
▁عدد	-9.06278
▁فقط	-9.06337
▁لنفسه	-9.06494
▁جعلت	-9.06927
▁واخبر	-9.07015
وئيل	-9.07132
▁الايمان	-9.07481
▁الاثم	-9.07628
▁بهم	-9.07669
نحن	-9.08268
هكذا	-9.08304
▁لنفسك	-9.08465
▁المقدس	-9.08471
▁ودخل	-9.0877
▁اذن	-9.08837
يتها	-9.09293
جاز	-9.09417
▁الصباح	-9.09471
▁بحسب	-9.10147
▁ثيابه	-9.10423
اكر	-9.10583
▁كثيرين	-9.10619
وقد	-9.10676
شجرة	-9.12099
مسيح	-9.12343
اصم	-9.12386
▁حن	-9.12517
▁انفسهم	-9.12527
▁وهذا	-9.12681
طير	-9.12686
▁سار	-9.1291
▁الفلسطيني	-9.12996
▁اعلم	-9.13003
ريب	-9.13233
▁مقابل	-9.1357
▁يرجع	-9.13783
▁واربع	-9.13992
▁فاعط	-9.14559
ناموس	-9.14631
سكر	-9.14633
▁شاقل	-9.1467
▁ووقف	-9.14679
▁الجب	-9.14706
▁حياة	-9.14777
▁الاله	-9.15162
▁ميراث	-9.15688
▁اسحق	-9.15898
تاج	-9.16055
▁وبنات	-9.16071
▁ابشالوم	-9.16759
لرؤساء	-9.1676
▁كنعان	-9.16766
▁سلطان	-9.16766
▁الغنم	-9.16768
▁ثياب	-9.16818
▁حجر	-9.16856
آنية	-9.17102
ذبيحة	-9.17712
تموه	-9.17745
▁ودعا	-9.18557
▁السبت	-9.18801
▁اذرع	-9.18991
▁عيسو	-9.20057
▁الخارج	-9.20059
▁مبارك	-9.20063
▁الرابع	-9.20101
ضايق	-9.20122
▁وعند	-9.20135
▁الظلم	-9.20315
ثلاثين	-9.2033
عمود	-9.20762
▁وعشرين	-9.21183
▁يربعام	-9.21183
▁جماعة	-9.21184
▁النساء	-9.21185
▁أف	-9.21316
عيد	-9.21679
هلاك	-9.21837
▁طول	-9.21921
رئيس	-9.2229
▁فرائض	-9.22316
▁المحرقة	-9.22319
▁يوناثان	-9.22319
▁فقلت	-9.22406
▁خرب	-9.22442
ليكن	-9.22664
جيء	-9.23003
هذه	-9.23471
▁ايليا	-9.23496
▁وهرون	-9.23607
▁ظلم	-9.23801
▁طوب	-9.24128
ائح	-9.24378
▁واخوته	-9.24643
▁جالس	-9.24689
▁لبيت	-9.24766
خلاص	-9.24832
قترب	-9.25222
ناثان	-9.25309
يهوشافاط	-9.25805
▁محرقة	-9.25809
▁وعشرون	-9.25812
▁آمن	-9.25981
▁فاذا	-9.26066
▁شيوخ	-9.27001
متلك	-9.27081
▁وصار	-9.27266
▁تكن	-9.27425
▁العلي	-9.2757
▁ونس	-9.27705
▁الاموات	-9.28217
▁فدعا	-9.28306
اؤك	-9.28432
▁الدار	-9.28636
▁عشائرهم	-9.2869
▁للذي	-9.29387
▁قربان	-9.29443
▁اسباط	-9.29504
▁زمان	-9.29589
▁ذو	-9.30185
فتخر	-9.30365
▁آتي	-9.30394
الخمر	-9.30626
▁دائما	-9.3066
▁ضيق	-9.30715
▁الكلمة	-9.30778
اربعين	-9.30827
مشي	-9.31071
انسان	-9.3172
▁ينبغي	-9.31904
▁والارض	-9.32096
▁الغد	-9.32397
▁موضع	-9.33182
▁لموسى	-9.33212
▁بصوت	-9.33223
▁عظم	-9.33368
للوقت	-9.33544
فكر	-9.33899
▁اخآب	-9.34574
كيف	-9.34584
هؤلاء	-9.34726
▁آسا	-9.35153
▁امرأته	-9.35755
▁النهار	-9.35778
بتهج	-9.35989
ايضا	-9.36662
▁اعظم	-9.37096
كنيسة	-9.37097
▁ورجع	-9.37189
▁بالحق	-9.37196
▁ايمان	-9.37205
▁فتكون	-9.37286
قاتل	-9.37988
▁ورؤساء	-9.384
▁الهاوية	-9.38402
▁آمين	-9.38435
▁آبائه	-9.38772
▁صحيح	-9.39752
▁ههنا	-9.398
▁سلاه	-9.39893
طلع	-9.40303
لغريب	-9.40669
ملائكة	-9.41132
▁الملوك	-9.41151
▁لصوت	-9.41204
▁بجانب	-9.42512
▁الجليل	-9.42546
▁كامل	-9.4265
اثنان	-9.42671
▁شريعة	-9.43928
▁ثوب	-9.44017
▁جئت	-9.44045
تشدد	-9.44447
▁دانيال	-9.45349
▁قلوبهم	-9.45349
تضرع	-9.45421
▁يقبل	-9.45448
بخور	-9.45852
▁رأوبين	-9.468
▁ميخا	-9.46809
▁عظام	-9.46811
▁تخاف	-9.46832
▁السحاب	-9.46835
▁فصار	-9.4698
▁دعا	-9.47093
▁اللذ	-9.47145
▁آباء	-9.48309
غيظ	-9.48333
▁الحكمة	-9.4841
عجب	-9.48851
صلاة	-9.49749
▁للشعب	-9.4976
▁قلوبكم	-9.49761
▁الصالح	-9.49766
راعي	-9.49958
▁يسلم	-9.50098
▁ضد	-9.50521
▁قائلة	-9.51275
▁المغنين	-9.51283
▁شعوب	-9.5129
▁غريب	-9.51399
▁تخف	-9.51509
شكر	-9.52217
▁حبرون	-9.52821
حائط	-9.52822
▁حامل	-9.52839
▁للحرب	-9.52842
▁وجوه	-9.52909
▁بئر	-9.52927
▁يكلم	-9.53115
▁الكلدانيين	-9.54376
▁تخوم	-9.54423
▁الساعة	-9.54425
▁الزيت	-9.54463
▁فكلم	-9.54556
▁لسان	-9.54771
ائع	-9.54869
مئة	-9.55097
ناداب	-9.55604
▁ذبائح	-9.55964
▁صغير	-9.55965
▁صباح	-9.55984
▁يثبت	-9.55998
▁الكرم	-9.56101
آخذ	-9.56211
▁القديسين	-9.57576
▁جمهور	-9.57577
▁حكيم	-9.57581
▁صانع	-9.57584
▁لبنان	-9.57586
▁النفس	-9.57586
▁وحدث	-9.57609
▁تاكل	-9.57862
▁صرت	-9.5844
▁الثلاثة	-9.59215
▁الخامس	-9.59216
▁فريض	-9.59241
▁خدمة	-9.59241
▁طاهر	-9.59245
▁ونصف	-9.59438
▁بجميع	-9.60882
▁الاراضي	-9.60882
▁السفينة	-9.60883
▁اريحا	-9.60986
▁وبارك	-9.60987
▁نبوخذن	-9.62577
▁مزمور	-9.62581
▁المعدود	-9.62582
▁سريعا	-9.62584
▁فماذا	-9.62608
▁شكيم	-9.62624
▁الصخر	-9.62658
▁صخر	-9.62661
▁فرجع	-9.62663
اطفال	-9.62795
▁بطن	-9.63086
حصاد	-9.6317
طعم	-9.63363
▁حلم	-9.63435
▁المصريين	-9.64303
▁البهائم	-9.64311
▁الشريعة	-9.64311
▁دقيق	-9.6432
▁الضيق	-9.64366
لخدمة	-9.64386
حنطة	-9.64386
▁نساء	-9.64392
▁الجيش	-9.64433
▁ينزل	-9.64534
ورشليم	-9.6518
▁التلاميذ	-9.66055
▁يستطيع	-9.66057
▁دمشق	-9.66066
▁كاهن	-9.66196
▁عابر	-9.66239
▁عامل	-9.66378
▁فرأ	-9.66495
▁جلد	-9.6658
▁قبر	-9.66705
ثلث	-9.66825
▁الكنعاني	-9.67841
▁افكار	-9.67845
▁شمعي	-9.67858
▁باشان	-9.67858
▁عشائر	-9.68926
▁لاسرائيل	-9.69659
▁مرتفع	-9.69661
صادوق	-9.69666
▁الخيمة	-9.69667
▁المملكة	-9.69678
▁فتعلم	-9.69683
الكتبة	-9.70104
لعنة	-9.70145
ثمانية	-9.70229
لماذا	-9.71079
▁اللاويون	-9.71511
▁صراخ	-9.71515
-	-11.6792
ً	-11.822
)	-12.4387
I	-12.4387
:	-12.772
2	-13.272
1	-13.272
[	-13.272
]	-13.272
h	-13.272
o	-13.272
(	-14.2718
ـ	-14.2719
6	-14.272
5	-14.272
J	-14.272
n	-14.272
y	-14.272
ٍ	-14.272
*	-14.272
T	-14.272
i	-14.272
m	-14.272
t	-14.272
