<pad>	0
</s>	0
<unk>	0
,	-3.3966
a	-3.72496
▁	-3.75345
▁e	-3.83058
▁di	-3.89575
e	-3.91952
i	-4.04014
o	-4.18068
▁a	-4.26871
re	-4.32904
▁il	-4.37034
n	-4.41056
▁la	-4.57088
'	-4.6905
r	-4.7385
▁che	-4.77981
to	-4.81012
▁in	-4.83545
▁i	-4.87292
u	-4.89325
ri	-4.93343
▁per	-4.94295
:	-4.96447
ro	-5.01903
▁con	-5.04396
te	-5.06897
▁del	-5.13193
▁si	-5.134
no	-5.13778
ra	-5.13954
l	-5.16412
▁non	-5.17423
ta	-5.20177
▁Signore	-5.21843
▁le	-5.22132
ti	-5.24313
g	-5.25821
s	-5.26483
m	-5.27665
t	-5.34439
b	-5.36103
ni	-5.37528
di	-5.43887
;	-5.44638
de	-5.46914
ò	-5.46956
▁un	-5.47161
va	-5.48899
▁«	-5.49687
▁vi	-5.49891
li	-5.51288
na	-5.52865
le	-5.53633
▁da	-5.53711
p	-5.54183
▁ma	-5.54403
▁l	-5.55911
.	-5.56146
▁al	-5.56736
▁è	-5.5725
ne	-5.58008
▁dell	-5.59616
mo	-5.61782
▁loro	-5.62077
▁se	-5.65876
▁A	-5.68556
f	-5.68919
▁re	-5.69315
▁ri	-5.69736
ci	-5.70195
se	-5.7159
▁o	-5.72452
▁gli	-5.76524
▁Dio	-5.76662
la	-5.76752
▁mi	-5.82572
ve	-5.84108
ca	-5.84329
ma	-5.84441
▁te	-5.87018
▁E	-5.88328
gli	-5.89273
co	-5.92226
▁fa	-5.9446
ce	-5.95172
rà	-5.9582
▁s	-5.9675
me	-6.00431
»	-6.0079
▁c	-6.01193
▁perché	-6.02436
z	-6.02807
si	-6.03341
bi	-6.03637
▁me	-6.03774
▁come	-6.04168
▁lo	-6.04827
c	-6.04835
vo	-6.06411
nti	-6.07885
vi	-6.09344
▁dei	-6.10056
or	-6.12181
▁de	-6.13462
▁nel	-6.14053
▁sa	-6.15304
ato	-6.15661
gi	-6.16065
so	-6.16587
mi	-6.17603
sse	-6.18243
▁ha	-6.18288
ndo	-6.19378
sa	-6.2083
▁suo	-6.21061
d	-6.22961
do	-6.24456
lo	-6.24727
▁sono	-6.25419
▁una	-6.29868
à	-6.30033
tto	-6.30398
▁d	-6.32412
ggi	-6.32469
▁su	-6.32602
▁disse	-6.3342
▁pro	-6.34331
v	-6.35465
pi	-6.35535
▁figli	-6.36018
rò	-6.36666
tti	-6.38203
ar	-6.39269
▁tu	-6.39406
▁nell	-6.39633
▁pre	-6.39753
ì	-6.43794
▁ti	-6.48308
po	-6.48319
▁alla	-6.48535
nte	-6.486
▁ne	-6.48869
▁sua	-6.4922
▁f	-6.49601
▁I	-6.49758
▁tutti	-6.49985
▁mio	-6.50036
▁Ma	-6.5035
▁io	-6.50551
▁tuo	-6.50696
▁so	-6.5114
nza	-6.51625
▁li	-6.52209
rono	-6.52314
▁figlio	-6.52522
rai	-6.52869
ssa	-6.52973
tà	-6.54091
▁Il	-6.54114
vano	-6.54382
ssi	-6.55642
▁voi	-6.56977
pa	-6.57087
zione	-6.58106
sti	-6.59948
nda	-6.61376
▁C	-6.61388
cco	-6.61471
ste	-6.62639
an	-6.63418
▁co	-6.63464
▁pi	-6.64235
chi	-6.6434
▁aveva	-6.64651
da	-6.64708
▁suoi	-6.64783
▁dal	-6.64938
▁ven	-6.65206
sta	-6.65466
▁chi	-6.65889
▁G	-6.66254
▁ci	-6.67487
▁popolo	-6.69273
▁lui	-6.70172
ga	-6.7079
▁sta	-6.70916
sso	-6.71583
▁sc	-6.71865
▁fu	-6.72653
ranno	-6.73735
er	-6.74601
pe	-6.74704
▁tra	-6.74822
▁dall	-6.75633
go	-6.76146
un	-6.77128
lla	-6.77304
▁questo	-6.78088
▁sp	-6.79839
tta	-6.80219
▁era	-6.8146
▁ai	-6.81735
▁po	-6.81753
du	-6.82072
▁t	-6.82085
ba	-6.82472
gu	-6.83087
▁più	-6.83626
che	-6.84231
▁fi	-6.84377
▁terra	-6.84411
nto	-6.85717
nta	-6.86161
è	-6.86619
▁sarà	-6.88047
▁contro	-6.88363
sto	-6.88663
▁Israele	-6.90042
▁paese	-6.90252
amo	-6.90855
▁città	-6.93721
▁ho	-6.93816
▁S	-6.94127
▁tua	-6.9453
▁tutto	-6.95518
tu	-6.95627
ver	-6.95955
▁egli	-6.96564
▁do	-6.96657
▁casa	-6.97129
tte	-6.97575
▁ad	-6.97798
zza	-6.98005
sci	-7.00061
▁col	-7.00063
lle	-7.00144
▁giorno	-7.0022
▁Se	-7.01153
▁N	-7.01233
al	-7.01889
?	-7.01921
stra	-7.03466
▁anche	-7.03571
▁P	-7.03667
uto	-7.03736
rete	-7.04135
erà	-7.04154
▁pe	-7.05564
per	-7.05897
▁Si	-7.05903
▁b	-7.06217
▁mia	-7.06654
am	-7.08303
▁ve	-7.08332
▁davanti	-7.09389
arono	-7.10014
▁quando	-7.1035
▁sull	-7.10727
are	-7.1097
▁Davide	-7.11013
▁Non	-7.1171
▁Io	-7.12796
▁R	-7.13237
lli	-7.1404
▁vol	-7.14108
ogni	-7.14782
bo	-7.15497
sco	-7.15689
▁par	-7.17083
▁Allora	-7.17904
▁pu	-7.18216
gno	-7.18294
▁be	-7.18403
▁uomini	-7.1918
▁ra	-7.1946
▁L	-7.19499
ru	-7.20063
ate	-7.20391
▁Gesù	-7.2128
ati	-7.21785
▁fatto	-7.22063
▁hai	-7.23132
▁all	-7.23699
▁for	-7.24734
sce	-7.24949
▁va	-7.25003
▁così	-7.25619
▁noi	-7.2595
▁quel	-7.26994
▁tuoi	-7.27061
za	-7.27258
min	-7.2762
▁mezzo	-7.27929
▁né	-7.28302
▁and	-7.28653
llo	-7.29277
▁bene	-7.29956
▁secondo	-7.30265
T	-7.3065
uomo	-7.3135
▁mor	-7.31889
▁quant	-7.32553
▁due	-7.32609
▁comp	-7.32704
▁erano	-7.34369
▁sul	-7.34878
▁Di	-7.35493
?»	-7.3646
▁Sa	-7.37087
▁u	-7.37425
▁Giuda	-7.37482
▁porta	-7.37536
▁dice	-7.38008
▁ed	-7.38403
▁V	-7.38642
▁Mosè	-7.38918
▁tutte	-7.39305
▁F	-7.39488
ad	-7.39671
▁gr	-7.4034
▁Gerusalemme	-7.41854
D	-7.42308
▁hanno	-7.4313
▁La	-7.43498
ano	-7.43849
!»	-7.4447
▁qual	-7.44773
▁ce	-7.45188
▁fece	-7.45535
one	-7.45826
▁mano	-7.46215
cu	-7.46291
A	-7.46814
anno	-7.46904
ch	-7.46984
cci	-7.47093
zia	-7.47352
▁In	-7.47692
▁ver	-7.48008
▁fino	-7.48119
▁padre	-7.48395
fer	-7.48495
cchi	-7.48858
ul	-7.49124
io	-7.49408
▁Israeliti	-7.49461
▁servi	-7.49475
▁occhi	-7.49959
▁por	-7.50572
h	-7.50754
▁B	-7.50824
S	-7.52111
▁nome	-7.53768
▁cuore	-7.53844
▁tre	-7.54071
udi	-7.54128
▁ciò	-7.54523
▁essi	-7.54919
mmo	-7.55048
▁acc	-7.55563
▁vita	-7.55699
▁pote	-7.55713
-	-7.5604
k	-7.56107
mento	-7.56426
▁sue	-7.56689
▁questa	-7.57344
▁cui	-7.5751
▁degl	-7.57839
▁Be	-7.57941
▁tempio	-7.58718
▁tutta	-7.59394
▁grande	-7.60069
▁gio	-7.60842
▁O	-7.61085
▁Quando	-7.61097
▁parola	-7.61105
▁prese	-7.61554
».	-7.61663
▁giorni	-7.62008
▁vers	-7.62094
▁Egli	-7.62219
▁fra	-7.62982
erò	-7.63098
!	-7.63566
fa	-7.64007
glio	-7.64328
▁dunque	-7.64409
▁alle	-7.64522
▁cosa	-7.64962
U	-7.65245
▁rispose	-7.65245
▁Chi	-7.67308
▁quelli	-7.67506
▁Per	-7.6764
▁mani	-7.67748
▁miei	-7.68165
▁poi	-7.69022
Z	-7.69246
▁dove	-7.69806
E	-7.70001
Egitto	-7.70261
mente	-7.70879
rmi	-7.71463
▁-	-7.71636
▁Da	-7.73247
▁entr	-7.7347
▁sei	-7.73699
▁uno	-7.74174
▁avr	-7.74241
▁capi	-7.74671
▁Ora	-7.7494
zio	-7.75061
▁cose	-7.75573
cca	-7.75728
cento	-7.7637
rti	-7.76597
eranno	-7.76622
▁capo	-7.76654
acqu	-7.78254
▁tempo	-7.78302
rsi	-7.78628
▁infatti	-7.78656
q	-7.79191
rlo	-7.80335
▁parole	-7.80659
▁parte	-7.81301
▁trova	-7.81783
▁parla	-7.81938
▁Quest	-7.82001
▁Poi	-7.82553
▁ancora	-7.82681
▁nostro	-7.83813
▁chiama	-7.83874
▁abbia	-7.84005
lu	-7.84176
▁male	-7.84318
▁Cristo	-7.84568
▁uomo	-7.84915
▁Mi	-7.8498
▁fratelli	-7.85139
fica	-7.85377
▁cielo	-7.85921
▁gener	-7.86488
▁vostro	-7.86683
▁sopra	-7.86854
▁poiché	-7.8707
▁saranno	-7.87583
▁sotto	-7.87653
▁fede	-7.87692
▁mentre	-7.88051
Perché	-7.88051
▁gran	-7.88156
▁sap	-7.88823
▁sempre	-7.89041
▁com	-7.89398
stru	-7.89875
▁quello	-7.89883
zioni	-7.90595
par	-7.90853
I	-7.90855
▁quale	-7.90987
▁legge	-7.91459
▁allora	-7.91515
▁detto	-7.91812
▁vostri	-7.92075
▁fuoco	-7.92085
Che	-7.9219
▁mangia	-7.92487
▁Così	-7.92689
▁alcun	-7.93234
▁dopo	-7.94176
▁sacerdote	-7.94774
▁Gli	-7.94796
▁qui	-7.95197
ghe	-7.96118
▁avete	-7.96554
▁Le	-7.96771
▁stato	-7.97357
▁usc	-7.9777
altro	-7.97967
Israele	-7.98167
▁aff	-7.98207
▁luogo	-7.98423
▁sacrifici	-7.99301
▁que	-7.99677
▁peccato	-8.00634
▁anni	-8.00703
C	-8.00891
▁Figli	-8.0114
▁forse	-8.0158
▁Ecco	-8.0195
▁servo	-8.02008
cc	-8.02463
▁altri	-8.02477
▁queste	-8.03031
▁giustizia	-8.03371
▁ascolta	-8.05205
ber	-8.05577
▁prende	-8.05702
▁sangue	-8.05909
▁Saul	-8.06285
▁morte	-8.06306
▁sette	-8.06792
▁pot	-8.07218
▁questi	-8.0748
▁essere	-8.08011
▁padri	-8.08052
▁solo	-8.08848
tura	-8.09027
ghi	-8.09038
▁spada	-8.09039
ù	-8.09615
M	-8.09844
▁nessuno	-8.1053
▁vede	-8.1108
▁sacerdoti	-8.1148
▁senz	-8.11666
ccia	-8.12779
P	-8.13022
▁voce	-8.1354
▁stesso	-8.14534
▁Tutt	-8.14699
▁salv	-8.14751
▁là	-8.15223
▁regno	-8.15275
▁fratello	-8.15288
altare	-8.15913
mila	-8.16302
▁insieme	-8.1659
▁prima	-8.1659
▁molti	-8.1738
Non	-8.17548
▁mette	-8.17702
▁gia	-8.18145
▁Giacobbe	-8.19515
▁passa	-8.19604
▁gloria	-8.20328
▁furono	-8.20463
▁tribù	-8.21148
▁guard	-8.2115
▁bocca	-8.21428
▁pass	-8.21904
▁donna	-8.21993
▁cost	-8.22404
▁dov	-8.22599
presso	-8.23828
▁moglie	-8.24781
▁vesti	-8.24991
▁Me	-8.25402
unque	-8.2545
stri	-8.25631
cinque	-8.25637
é	-8.25896
▁cammin	-8.25925
rebbe	-8.26552
▁deserto	-8.26791
▁Aronne	-8.26791
▁quella	-8.27553
▁Ti	-8.28062
▁Tu	-8.28085
▁dicendo	-8.2822
▁buon	-8.29458
▁invece	-8.30362
▁siete	-8.30636
▁qua	-8.32124
▁popoli	-8.32161
▁gett	-8.32481
quattro	-8.33081
▁piedi	-8.33128
▁mondo	-8.3315
▁cal	-8.33913
▁monte	-8.34381
▁causa	-8.34953
▁posto	-8.3545
sione	-8.3666
▁appar	-8.36875
▁faccia	-8.3692
argento	-8.38479
▁nulla	-8.39134
▁notte	-8.39191
zzi	-8.39302
▁colui	-8.39517
alleanza	-8.39607
▁divent	-8.39938
▁Babilonia	-8.40456
▁carne	-8.40465
V	-8.40555
▁rest	-8.41398
▁Salomone	-8.41459
▁eserciti	-8.41796
▁profeti	-8.41796
▁gente	-8.41797
▁madre	-8.41844
▁nostri	-8.42149
▁cap	-8.44062
▁conosce	-8.44221
angelo	-8.44538
▁lascia	-8.44588
▁spirito	-8.44879
▁nemici	-8.45232
▁Poiché	-8.45576
▁cerca	-8.4594
▁vostra	-8.45949
▁present	-8.46826
▁numero	-8.477
▁offri	-8.477
▁segui	-8.48453
▁faraone	-8.4951
▁pane	-8.49572
▁vostre	-8.4987
▁Con	-8.50132
▁molto	-8.50238
▁finché	-8.51344
altra	-8.51869
▁discende	-8.53217
▁cas	-8.54302
▁grazia	-8.54362
zzo	-8.54546
▁rende	-8.54843
▁Padre	-8.55902
▁leviti	-8.55934
▁pace	-8.56334
▁ebbe	-8.56694
▁giur	-8.56737
▁verità	-8.57477
▁fuori	-8.58355
cur	-8.58486
▁nuovo	-8.58654
▁profeta	-8.58655
▁cioè	-8.58667
▁bruc	-8.58698
▁acque	-8.59151
▁primo	-8.59457
▁Giudei	-8.59859
▁Giosuè	-8.60264
stro	-8.61055
▁fronte	-8.61088
▁abbandon	-8.61489
▁Giuseppe	-8.61489
▁cant	-8.61573
▁Filistei	-8.63145
▁inter	-8.63163
▁luce	-8.63622
iniquità	-8.63984
▁gioia	-8.64101
▁grida	-8.64416
▁Come	-8.64436
▁viene	-8.64589
▁discepoli	-8.65255
▁comanda	-8.65265
▁torna	-8.65272
▁Spirito	-8.65682
▁nazioni	-8.66132
▁fosse	-8.6744
▁pens	-8.6752
▁crede	-8.68371
▁bat	-8.69374
▁giusto	-8.69613
F	-8.69621
▁opere	-8.69691
▁Anch	-8.7034
▁guerra	-8.70508
▁ricord	-8.71869
▁corpo	-8.72799
▁annunzi	-8.73241
▁Rispose	-8.73704
ordine	-8.73739
▁signore	-8.73744
▁pal	-8.73942
▁uscire	-8.74237
▁ritorn	-8.75133
offerta	-8.75578
▁Perciò	-8.76056
▁costrui	-8.76537
▁radun	-8.76568
▁cubiti	-8.77971
▁famiglia	-8.77971
▁stabili	-8.78464
▁allontan	-8.78946
▁rivolt	-8.78952
▁bestiame	-8.80421
▁pascol	-8.80424
▁divenne	-8.81421
▁riferi	-8.82451
▁libera	-8.82474
▁prostr	-8.82745
▁Giordano	-8.83444
▁campo	-8.83447
▁ciascuno	-8.83957
▁mandò	-8.84473
▁anziani	-8.84473
▁arriv	-8.84541
▁strada	-8.85009
▁Moab	-8.87623
▁proprio	-8.87623
▁piant	-8.87952
▁Dopo	-8.88157
▁santuario	-8.88695
▁Efraim	-8.88695
▁scritto	-8.88708
▁consegn	-8.90348
▁intorno	-8.91986
▁soff	-8.92102
▁malvagi	-8.92542
▁riguardo	-8.93668
▁lontano	-8.93681
▁uccide	-8.94238
olocausto	-8.95382
O	-8.95484
▁genti	-8.95965
▁Paolo	-8.97127
▁oltre	-8.97128
▁chiamò	-8.97131
B	-8.97833
▁giudizi	-8.98307
▁peccati	-8.98309
L	-8.99064
▁ordinato	-8.99501
▁possesso	-8.99503
▁salvezza	-8.99505
oriente	-8.99549
G	-9.17125
R	-9.17824
N	-9.36412
"	-10.1118
1	-11.0895
(	-11.1921
)	-11.2477
’	-12.2372
]	-13.1872
j	-13.6872
J	-14.6859
9	-14.686
0	-14.6861
8	-14.6862
7	-14.6863
5	-14.6864
4	-14.6865
3	-14.6866
2	-14.6867
6	-14.6868
K	-14.6869
H	-14.687
Q	-14.6871
}	-14.6872
«	-14.6872
