<pad>	0
</s>	0
<unk>	0
▁¦	-0
के	-1
्र	-2
ार	-3
है	-4
ें	-5
या	-6
ने	-7
ों	-8
▁़	-9
में	-10
कर	-11
▁।	-12
से	-13
का	-14
की	-15
▁,	-16
ता	-17
कि	-18
और	-19
र्	-20
स्	-21
को	-22
प्र	-23
ना	-24
्य	-25
क्	-26
वि	-27
ान	-28
पर	-29
ही	-30
वा	-31
ति	-32
लि	-33
ला	-34
नि	-35
▁(	-36
हो	-37
▁)	-38
न्	-39
जा	-40
सा	-41
रा	-42
सं	-43
ते	-44
कार	-45
ित	-46
दे	-47
मा	-48
ले	-49
तु	-50
हा	-51
दि	-52
हैं	-53
▁.	-54
भी	-55
था	-56
ती	-57
लिए	-58
इस	-59
ोग	-60
त्	-61
एक	-62
सी	-63
क्ष	-64
जो	-65
दा	-66
सम	-67
तो	-68
त्र	-69
हीं	-70
बा	-71
उस	-72
अप	-73
उन	-74
द्	-75
जि	-76
नहीं	-77
हम	-78
तुम	-79
हु	-80
पा	-81
ल्	-82
ष्	-83
गा	-84
िक	-85
नी	-86
भा	-87
वे	-88
तर	-89
चा	-90
किया	-91
मु	-92
यह	-93
ली	-94
कु	-95
री	-96
यों	-97
वह	-98
श्	-99
रू	-100
ष्ट	-101
अध	-102
करने	-103
पू	-104
अन	-105
मि	-106
लोग	-107
मान	-108
ारा	-109
ये	-110
ंग	-111
रे	-112
मे	-113
▁¦1	-114
खा	-115
जी	-116
दी	-117
शा	-118
हि	-119
वर्	-120
ारे	-121
देश	-122
अपने	-123
सक	-124
भार	-125
न्ह	-126
रह	-127
सु	-128
उप	-129
सि	-130
िर	-131
स्थ	-132
च्	-133
्या	-134
सू	-135
गे	-136
क्र	-137
दो	-138
पु	-139
व्य	-140
▁¤	-141
िया	-142
तथा	-143
प्	-144
ओं	-145
सर	-146
गया	-147
जिस	-148
अनु	-149
ार्	-150
ारी	-151
ैं	-152
रूप	-153
्री	-154
कुछ	-155
आप	-156
जब	-157
शि	-158
तक	-159
▁𐋇	-160
्ह	-161
द्व	-162
निर्	-163
किसी	-164
उन्ह	-165
तुम्ह	-166
परि	-167
साथ	-168
प्रा	-169
मी	-170
पूर्	-171
दू	-172
योग	-173
▁¦2	-174
इन	-175
बं	-176
ोज	-177
गी	-178
हर	-179
कोई	-180
म्	-181
वर	-182
प्रति	-183
वी	-184
ुदा	-185
द्ध	-186
यु	-187
क्त	-188
थे	-189
राज	-190
कृ	-191
करें	-192
ंड	-193
बना	-194
द्वारा	-195
रि	-196
करते	-197
लो	-198
क्ति	-199
भारत	-200
उनके	-201
नों	-202
लोगों	-203
ंत्र	-204
धार	-205
बी	-206
गु	-207
फिर	-208
जाए	-209
गर	-210
पी	-211
राष्ट	-212
अधि	-213
ज्	-214
ची	-215
कार्य	-216
जाता	-217
चार	-218
स्था	-219
बे	-220
ग्र	-221
पह	-222
मैं	-223
दिया	-224
कह	-225
▁"	-226
क्या	-227
अं	-228
टी	-229
थी	-230
द्य	-231
निय	-232
लाह	-233
कहा	-234
ब्	-235
टा	-236
▁?	-237
0¦	-238
अल्	-239
करना	-240
रख	-241
▁्	-242
बर	-243
सब	-244
स्त	-245
अव	-246
उसके	-247
दु	-248
बंध	-249
अपनी	-250
चे	-251
रहे	-252
क्षा	-253
च्छ	-254
अल्लाह	-255
प्त	-256
भि	-257
उत्	-258
धि	-259
रु	-260
क्षे	-261
ज्ञ	-262
मू	-263
हुए	-264
रो	-265
द्र	-266
वाले	-267
त्य	-268
बि	-269
डा	-270
बहु	-271
चि	-272
लग	-273
लों	-274
बात	-275
चु	-276
न्न	-277
जन	-278
▁;	-279
टे	-280
उसे	-281
पै	-282
स्व	-283
क्षेत्र	-284
करता	-285
जान	-286
बाद	-287
समय	-288
सकता	-289
शु	-290
उन्हें	-291
योज	-292
ोंने	-293
दान	-294
होता	-295
बड	-296
रहा	-297
अधिक	-298
शी	-299
पति	-300
शे	-301
कर्	-302
शन	-303
देख	-304
मिल	-305
पास	-306
ियों	-307
वन	-308
काम	-309
भू	-310
ोड	-311
जै	-312
▁'	-313
दर्	-314
चित	-315
राष्ट्र	-316
्यों	-317
ानी	-318
र्थ	-319
कारी	-320
भाग	-321
बु	-322
तीय	-323
बहुत	-324
त्व	-325
कम	-326
मह	-327
पूर्ण	-328
चाह	-329
विश्	-330
लय	-331
निक	-332
धान	-333
करण	-334
डि	-335
कों	-336
तरह	-337
दर	-338
पि	-339
वर्ष	-340
णा	-341
टि	-342
होने	-343
उन्होंने	-344
मत	-345
सम्	-346
मो	-347
हू	-348
हुआ	-349
गए	-350
सह	-351
गत	-352
मुख	-353
्रा	-354
नियम	-355
टर	-356
पे	-357
तुम्हारे	-358
दिन	-359
बो	-360
▁:	-361
चना	-362
▁¦19	-363
प्राप्त	-364
_¦	-365
▁¦_¦	-366
बार	-367
उनकी	-368
वं	-369
स्ता	-370
हमारे	-371
यदि	-372
तों	-373
जिन	-374
्रीय	-375
हमने	-376
मन	-377
ौर	-378
व्यक्ति	-379
चाहि	-380
राष्ट्रपति	-381
नाम	-382
अन्य	-383
वाला	-384
पर्	-385
यी	-386
हों	-387
होगा	-388
पहले	-389
्यू	-390
01	-391
ऐसे	-392
समा	-393
झे	-394
दूस	-395
हां	-396
5¦	-397
गई	-398
सभी	-399
ओर	-400
दन	-401
हाँ	-402
अच्छ	-403
राज्य	-404
एं	-405
▁%	-406
स्ट	-407
स्थान	-408
4¦	-409
न्या	-410
पड	-411
िति	-412
प्रकार	-413
एँ	-414
खु	-415
्रे	-416
लन	-417
बद	-418
संबंध	-419
सरकार	-420
सकते	-421
श्य	-422
कारण	-423
जाने	-424
बढ	-425
अगर	-426
समझ	-427
दार	-428
शेष	-429
भाव	-430
साम	-431
करे	-432
धन	-433
पूर्व	-434
धी	-435
धा	-436
ईमान	-437
चाहिए	-438
तन	-439
न्द	-440
होती	-441
सद	-442
वार	-443
सार	-444
किए	-445
इसके	-446
लिया	-447
ज्ञान	-448
योजना	-449
पो	-450
माण	-451
▁¦3	-452
अभि	-453
फल	-454
ऐसा	-455
गार	-456
ध्य	-457
भाष	-458
सर्	-459
उसकी	-460
क्रिया	-461
ट्	-462
क्यों	-463
करो	-464
रसू	-465
वै	-466
na	-467
डी	-468
यन	-469
दिखा	-470
ंच	-471
त्म	-472
क्रम	-473
द्योग	-474
जू	-475
युक्त	-476
भे	-477
▁𐊣	-478
व्या	-479
तः	-480
पहु	-481
हित	-482
मुझे	-483
यू	-484
निश्	-485
भारतीय	-486
ंक	-487
सो	-488
आई	-489
यर	-490
हे	-491
ठा	-492
स्तु	-493
जे	-494
वृ	-495
लगा	-496
विक	-497
रसूल	-498
प्रदान	-499
रब	-500
किन	-501
अब	-502
विका	-503
ीन	-504
लें	-505
हाय	-506
मंत्र	-507
प्रे	-508
▁¦1¦	-509
गो	-510
च्च	-511
मार्	-512
एवं	-513
क्षण	-514
विश्व	-515
पार	-516
बै	-517
विशेष	-518
अपना	-519
जाती	-520
होते	-521
आर	-522
विष	-523
दृ	-524
शो	-525
कृति	-526
उपयोग	-527
बन	-528
आधार	-529
पत्र	-530
विकास	-531
मौ	-532
जैसे	-533
सहाय	-534
स्थिति	-535
काश	-536
जीवन	-537
दोनों	-538
चल	-539
यो	-540
वाद	-541
सन	-542
श्री	-543
चीज	-544
लोक	-545
हुई	-546
इल	-547
कं	-548
▁!	-549
सेवा	-550
फा	-551
वल	-552
▁-	-553
▁¥	-554
मूल	-555
तुम्हें	-556
काल	-557
▁़्	-558
me	-559
00	-560
रही	-561
ख्या	-562
डर	-563
िय	-564
ष्ठ	-565
ंत	-566
भर	-567
लिख	-568
कू	-569
जु	-570
धारा	-571
मद	-572
शक	-573
कें	-574
माल	-575
ताओं	-576
बारे	-577
प्रयोग	-578
6¦	-579
उसने	-580
स्वा	-581
ti	-582
आव	-583
मै	-584
ऐसी	-585
बीच	-586
चय	-587
णी	-588
लेख	-589
डे	-590
मेरे	-591
लेकिन	-592
स्थाप	-593
बू	-594
पैदा	-595
आज	-596
आय	-597
तम	-598
तंत्र	-599
2¦	-600
ख्	-601
वास	-602
त्या	-603
राष्ट्रीय	-604
पं	-605
तना	-606
पश्	-607
देने	-608
विचार	-609
अथ	-610
कै	-611
नीति	-612
▁¦4	-613
हमारी	-614
8¦	-615
फ्	-616
उसका	-617
दूसरे	-618
अधिनियम	-619
▁।"	-620
निया	-621
1¦	-622
ताकि	-623
in	-624
एस	-625
हूँ	-626
आवश्य	-627
7¦	-628
ण्	-629
इसे	-630
वाली	-631
भिन्न	-632
अंत	-633
उद्	-634
क्स	-635
जाना	-636
9¦	-637
घा	-638
जाएगा	-639
कड	-640
छोड	-641
माम	-642
ल्प	-643
स्प	-644
परा	-645
हमें	-646
उसी	-647
श्र	-648
अथवा	-649
कता	-650
ष्टि	-651
स्वी	-652
क्योंकि	-653
मार	-654
र्म	-655
ग्रा	-656
मान्य	-657
on	-658
वालों	-659
संग	-660
ेंगे	-661
शक्ति	-662
कृत	-663
त्ता	-664
सूचना	-665
जिसमें	-666
उनका	-667
केवल	-668
जिसे	-669
यालय	-670
ra	-671
टन	-672
ार्थ	-673
यार	-674
वही	-675
न्तु	-676
इसमें	-677
पन	-678
यक	-679
उपल	-680
कान	-681
ट्र	-682
सुर	-683
इसलिए	-684
फि	-685
फी	-686
कभी	-687
सबसे	-688
तब	-689
सहायता	-690
ंभ	-691
निर्धार	-692
खे	-693
बल्	-694
मेरी	-695
न्त	-696
पत्	-697
मित	-698
प्रत्य	-699
भव	-700
सूची	-701
अधिकार	-702
ठी	-703
ताब	-704
अर्थ	-705
कट	-706
भाषा	-707
खो	-708
कला	-709
उससे	-710
करती	-711
उपलब्	-712
वेश	-713
3¦	-714
खि	-715
तै	-716
गति	-717
महा	-718
उनसे	-719
बस	-720
लं	-721
लू	-722
तरी	-723
दों	-724
पुर	-725
देता	-726
धर	-727
मार्ग	-728
संदेश	-729
परिवर्	-730
छो	-731
पता	-732
याद	-733
जाते	-734
त्रा	-735
स्ते	-736
घर	-737
जल	-738
बन्	-739
वाह	-740
सभा	-741
सकती	-742
िका	-743
बल	-744
अति	-745
कंप	-746
अंतर	-747
बैं	-748
बैठ	-749
सके	-750
हरा	-751
ज्ञा	-752
व्यव	-753
होना	-754
जिन्ह	-755
महत्व	-756
गि	-757
ध्या	-758
परवर	-759
स्त्र	-760
er	-761
मर	-762
करा	-763
तरफ	-764
वान	-765
सदस्	-766
भु	-767
कुल	-768
समान	-769
उत्पा	-770
परवरदि	-771
शिक्षा	-772
कई	-773
अलग	-774
दूर	-775
भूमि	-776
आया	-777
वरण	-778
िकी	-779
कर्म	-780
परवरदिगार	-781
वो	-782
र्ट	-783
यहाँ	-784
▁¦201	-785
उपलब्ध	-786
फे	-787
बाज	-788
मिक	-789
लिक	-790
सफल	-791
क्षम	-792
अच्छा	-793
स्पष्ट	-794
निर्माण	-795
पुन	-796
बता	-797
उच्च	-798
अर्	-799
बल्कि	-800
..	-801
re	-802
कल	-803
रत	-804
ब्र	-805
हूं	-806
जोड	-807
दौर	-808
हार	-809
लिये	-810
लड	-811
षण	-812
▁”	-813
उठा	-814
किस	-815
टना	-816
name	-817
कहते	-818
द्धि	-819
पहुँ	-820
पूरी	-821
सामान्य	-822
चर	-823
छा	-824
यं	-825
आदि	-826
दाय	-827
लगे	-828
▁..	-829
उनमें	-830
संख्या	-831
अधीन	-832
इससे	-833
प्रो	-834
इं	-835
खंड	-836
शब्	-837
अवसर	-838
इसका	-839
करेगा	-840
तैयार	-841
अज	-842
तू	-843
किताब	-844
होंगे	-845
भग	-846
मं	-847
सिं	-848
विषय	-849
सामने	-850
विभिन्न	-851
कॉ	-852
ेक	-853
बरा	-854
वित	-855
पूरा	-856
क्षित	-857
जिसके	-858
शामिल	-859
गै	-860
ग्	-861
लत	-862
गें	-863
मदद	-864
मृ	-865
प्रौ	-866
होगी	-867
ियाँ	-868
टो	-869
नेक	-870
लाभ	-871
▁¦2¦	-872
मुख्य	-873
वस्तु	-874
निश्चय	-875
प्रकाश	-876
तुम्हारा	-877
नो	-878
फो	-879
▁‘	-880
ंतु	-881
अंग	-882
इसी	-883
उनको	-884
बाहर	-885
रंग	-886
लने	-887
करके	-888
जहां	-889
पक्ष	-890
शुरू	-891
la	-892
लौ	-893
रुप	-894
लाने	-895
विद्	-896
स्ति	-897
▁¦200	-898
ic	-899
पृ	-900
तान	-901
ग्रह	-902
प्रक्रिया	-903
नई	-904
यही	-905
आपको	-906
जाएँ	-907
स्थित	-908
कौ	-909
झु	-910
्व	-911
हरी	-912
ध्यम	-913
धु	-914
हत	-915
ाब	-916
वित्	-917
एम	-918
धे	-919
ून	-920
सित	-921
हाथ	-922
रचना	-923
विधि	-924
संस्	-925
देशों	-926
न्द्र	-927
पद	-928
र्ष	-929
उसमें	-930
ंद	-931
लु	-932
201	-933
गर्	-934
दुनिया	-935
आं	-936
छे	-937
जह	-938
ीय	-939
अभी	-940
ऊपर	-941
गां	-942
तार	-943
कार्	-944
जारी	-945
वर्ग	-946
हेतु	-947
चाहता	-948
दौरान	-949
मंत्री	-950
आए	-951
पढ	-952
लॉ	-953
⁄4	-954
दें	-955
रखा	-956
समू	-957
साइ	-958
ाइल	-959
त्मक	-960
विधा	-961
▁...	-962
वास्त	-963
प्रौद्योग	-964
गण	-965
शत	-966
हन	-967
भवन	-968
यान	-969
लित	-970
चाहते	-971
भावना	-972
प्रत्येक	-973
शै	-974
हक	-975
गयी	-976
गये	-977
शान	-978
च्चे	-979
सीमा	-980
स्तर	-981
अनुसार	-982
गू	-983
गुण	-984
देखा	-985
अग	-986
सौ	-987
जमा	-988
महि	-989
मीन	-990
संघ	-991
सिक	-992
निश्चित	-993
विश्वास	-994
चुन	-995
लना	-996
खुदा	-997
वादी	-998
बनाया	-999
समर्थ	-1000
दृष्टि	-1001
पस	-1002
तीन	-1003
यां	-1004
ज्या	-1005
पानी	-1006
मैंने	-1007
जग	-1008
जरू	-1009
देह	-1010
पिछ	-1011
र्ड	-1012
र्फ	-1013
देना	-1014
उत्तर	-1015
प्रबंध	-1016
महत्वपूर्ण	-1017
आग	-1018
एन	-1019
यम	-1020
गिर	-1021
त्सा	-1022
परिणा	-1023
शिष्ट	-1024
सुरक्षा	-1025
प्रौद्योगिकी	-1026
षि	-1027
चला	-1028
ठीक	-1029
लाल	-1030
सां	-1031
जिसने	-1032
स्वयं	-1033
प्रमाण	-1034
माध्यम	-1035
क्षेत्रों	-1036
it	-1037
▁#	-1038
▁’	-1039
इन्	-1040
नया	-1041
तिहा	-1042
परिवर्तन	-1043
आगे	-1044
रात	-1045
राम	-1046
रों	-1047
ियां	-1048
प्रार	-1049
उद्देश	-1050
फर	-1051
सल	-1052
▁&	-1053
00¦	-1054
क्षि	-1055
ग्री	-1056
जनता	-1057
नीचे	-1058
मौजू	-1059
पोर्ट	-1060
कार्यक्रम	-1061
कठ	-1062
सत	-1063
अतः	-1064
साफ	-1065
निका	-1066
प्रया	-1067
बनाने	-1068
विद्य	-1069
परिणाम	-1070
प्रतिशत	-1071
प्रस्तु	-1072
निर्धारित	-1073
घु	-1074
गुज	-1075
जित	-1076
अध्य	-1077
दारी	-1078
प्रती	-1079
करेंगे	-1080
नियंत्र	-1081
संबंधित	-1082
तुम्हारी	-1083
ह्	-1084
जिक	-1085
धिक	-1086
त्रु	-1087
धरती	-1088
शासन	-1089
आवश्यक	-1090
स्थापित	-1091
व्यवस्था	-1092
ht	-1093
आख	-1094
झा	-1095
फै	-1096
3⁄4	-1097
अनेक	-1098
आपके	-1099
मेरा	-1100
म्बर	-1101
लेकर	-1102
प्रभा	-1103
▁¤3⁄4	-1104
अधिकारी	-1105
▁>	-1106
धित	-1107
मगर	-1108
सिवा	-1109
हिन्	-1110
op	-1111
जाओ	-1112
राह	-1113
▁¦5	-1114
आदेश	-1115
काफी	-1116
ल्डर	-1117
रिक्त	-1118
सिर्फ	-1119
केंद्र	-1120
प्रमुख	-1121
स्वतंत्र	-1122
ण्ड	-1123
परी	-1124
सुन	-1125
tion	-1126
मध्य	-1127
विंड	-1128
स्या	-1129
पश्चि	-1130
संस्थान	-1131
परियोजना	-1132
चौ	-1133
टक	-1134
ंति	-1135
उल्	-1136
चर्	-1137
नीय	-1138
भेज	-1139
पन्न	-1140
श्रे	-1141
प्रणा	-1142
युद्ध	-1143
ज्यादा	-1144
विज्ञान	-1145
ऋण	-1146
▁“	-1147
नाथ	-1148
पाठ	-1149
अत्य	-1150
कृषि	-1151
गुना	-1152
देते	-1153
लाया	-1154
शब्द	-1155
सामा	-1156
विधान	-1157
किन्तु	-1158
प्रयास	-1159
विश्वविद्	-1160
मक	-1161
खोज	-1162
लाए	-1163
अवधि	-1164
दर्श	-1165
पीछे	-1166
अंतर्	-1167
जानते	-1168
दिष्ट	-1169
मामले	-1170
सिद्ध	-1171
उद्योग	-1172
यत	-1173
आकार	-1174
धर्म	-1175
निम्	-1176
बिना	-1177
यहां	-1178
रखने	-1179
समूह	-1180
अच्छे	-1181
तियों	-1182
सामाजिक	-1183
स्वीकार	-1184
ंजी	-1185
जाय	-1186
ज्य	-1187
मर्	-1188
षित	-1189
जबकि	-1190
ट्टी	-1191
बैंक	-1192
चित्र	-1193
जिसका	-1194
विस्त	-1195
सदस्य	-1196
सहयोग	-1197
प्रधान	-1198
or	-1199
ंस	-1200
आस	-1201
दम	-1202
पक	-1203
ोह	-1204
परे	-1205
चाहे	-1206
जैसा	-1207
मानव	-1208
हिस्	-1209
होकर	-1210
पश्चा	-1211
संदेह	-1212
गं	-1213
ोर	-1214
आने	-1215
जवा	-1216
तौर	-1217
कल्प	-1218
ल्ली	-1219
वर्त	-1220
वासी	-1221
पर्या	-1222
प्रभाव	-1223
निर्दिष्ट	-1224
es	-1225
ुष	-1226
कित	-1227
मुक	-1228
हिं	-1229
बन्द	-1230
रहते	-1231
लेने	-1232
सारे	-1233
ध्यान	-1234
मूल्य	-1235
संस्था	-1236
उद्देश्य	-1237
th	-1238
नक	-1239
उन्	-1240
लाई	-1241
शरी	-1242
.201	-1243
डियो	-1244
दर्शन	-1245
दूसरी	-1246
निम्न	-1247
पृष्ठ	-1248
समस्या	-1249
जिन्हें	-1250
ंगे	-1251
इसकी	-1252
बेशक	-1253
मूसा	-1254
जानकारी	-1255
प्रणाली	-1256
ed	-1257
en	-1258
छि	-1259
वत	-1260
ंचा	-1261
रोग	-1262
रोज	-1263
शील	-1264
साल	-1265
आकाश	-1266
आर्थ	-1267
रहने	-1268
लगभग	-1269
संगठ	-1270
सत्य	-1271
जानता	-1272
बराबर	-1273
स्तान	-1274
ोल्डर	-1275
सुविधा	-1276
विशिष्ट	-1277
व्यापार	-1278
प्रस्तुत	-1279
एफ	-1280
गम	-1281
टों	-1282
डाल	-1283
दिए	-1284
दिल	-1285
बेह	-1286
त्मा	-1287
निस्	-1288
पर्क	-1289
लाइन	-1290
वक्त	-1291
वर्ण	-1292
▁¦3¦	-1293
कर्ता	-1294
co	-1295
pr	-1296
आत	-1297
घो	-1298
नु	-1299
ूँ	-1300
ूम	-1301
अमे	-1302
जन्	-1303
जुड	-1304
झुठ	-1305
रोक	-1306
अग्र	-1307
उसको	-1308
एक्स	-1309
निकाल	-1310
निर्ण	-1311
न्याय	-1312
▁¦44¦	-1313
क्षमता	-1314
आवश्यकता	-1315
जगह	-1316
पाद	-1317
र्इ	-1318
कहने	-1319
निष्	-1320
रखते	-1321
लागू	-1322
वहां	-1323
वेदन	-1324
आर्थिक	-1325
पश्चात	-1326
प्रदेश	-1327
अतिरिक्त	-1328
न्यायालय	-1329
ंश	-1330
आम	-1331
नज	-1332
▁<	-1333
देव	-1334
पाल	-1335
मेल	-1336
लिम	-1337
ष्ण	-1338
▁¥	-1339
क्ता	-1340
घटना	-1341
न्यू	-1342
बद्ध	-1343
महान	-1344
सिंह	-1345
हुक्	-1346
निवेश	-1347
लिखित	-1348
नए	-1349
मज	-1350
अन्	-1351
कौन	-1352
चान	-1353
म्प	-1354
रान	-1355
राय	-1356
समु	-1357
सही	-1358
हमे	-1359
हाल	-1360
मनुष	-1361
हाला	-1362
अच्छी	-1363
अमेरि	-1364
इनकार	-1365
कृतिक	-1366
प्रेम	-1367
साहित	-1368
मंत्रा	-1369
वर्तमान	-1370
विश्वविद्यालय	-1371
आद	-1372
खड	-1373
िल	-1374
कूल	-1375
तें	-1376
वों	-1377
साह	-1378
आत्म	-1379
चुके	-1380
न्यास	-1381
महिला	-1382
संधान	-1383
हुक्म	-1384
चै	-1385
टल	-1386
ूब	-1387
कवि	-1388
बदल	-1389
लाम	-1390
हरे	-1391
देशी	-1392
बंगा	-1393
समाज	-1394
जिससे	-1395
शीर्ष	-1396
निर्णय	-1397
साहित्य	-1398
ot	-1399
ूं	-1400
इस्	-1401
गैर	-1402
रोध	-1403
्रो	-1404
योजन	-1405
वार्	-1406
क्ष्य	-1407
तुमसे	-1408
विभाग	-1409
विवरण	-1410
परिवार	-1411
ba	-1412
गड	-1413
डॉ	-1414
पथ	-1415
ran	-1416
ंतर	-1417
क्ट	-1418
गीत	-1419
नेट	-1420
वाज	-1421
वेब	-1422
▁''	-1423
वायु	-1424
शिका	-1425
दक्षि	-1426
यात्रा	-1427
वास्ते	-1428
सम्बन्	-1429
संयुक्त	-1430
अनुसंधान	-1431
अफ	-1432
ऑफ	-1433
ाई	-1434
अपे	-1435
लाख	-1436
स्क	-1437
राशि	-1438
वहार	-1439
वृत्	-1440
जाएगी	-1441
समिति	-1442
वित्तीय	-1443
स्थापना	-1444
अभ	-1445
थम	-1446
बच	-1447
लै	-1448
ृत	-1449
अला	-1450
नही	-1451
पात	-1452
बाग	-1453
माँ	-1454
लती	-1455
वाई	-1456
संर	-1457
क्षर	-1458
धारण	-1459
बुरा	-1460
भेजा	-1461
रिया	-1462
सक्र	-1463
कंपनी	-1464
तुमने	-1465
यातना	-1466
सुधार	-1467
आधारित	-1468
प्रारंभ	-1469
-1	-1470
is	-1471
छु	-1472
जय	-1473
वस	-1474
इंड	-1475
करी	-1476
पित	-1477
भाई	-1478
ल्क	-1479
कहीं	-1480
चिकि	-1481
चुका	-1482
पार्	-1483
मिला	-1484
स्ती	-1485
पिछले	-1486
सक्रिय	-1487
अंतर्गत	-1488
बह	-1489
तीस	-1490
बचा	-1491
ैंड	-1492
जन्म	-1493
जाये	-1494
पहली	-1495
ल्या	-1496
परन्तु	-1497
स्वरूप	-1498
.0	-1499
आन	-1500
नाज	-1501
वरी	-1502
▁¤	-1503
पालन	-1504
पुरा	-1505
मंदि	-1506
बच्चे	-1507
बाजार	-1508
बोर्ड	-1509
हमारा	-1510
कार्या	-1511
दिल्ली	-1512
शिक्षण	-1513
-#	-1514
मॉ	-1515
रण	-1516
शं	-1517
ona	-1518
अनि	-1519
तिम	-1520
थोड	-1521
शहर	-1522
सान	-1523
▁¤°	-1524
देगा	-1525
मिले	-1526
▁¦5¦	-1527
परंतु	-1528
हमेशा	-1529
वृद्धि	-1530
इत	-1531
चन	-1532
तौ	-1533
पण	-1534
तिक	-1535
मंड	-1536
यें	-1537
शर्	-1538
हटा	-1539
अन्त	-1540
कारा	-1541
च्छा	-1542
टिंग	-1543
पुरु	-1544
वहाँ	-1545
ानों	-1546
tiona	-1547
पत्ति	-1548
प्रथम	-1549
मित्र	-1550
हस्ता	-1551
मनुष्य	-1552
संपर्क	-1553
निस्संदेह	-1554
स्वतंत्रता	-1555
do	-1556
डाक	-1557
नित	-1558
भूत	-1559
र्च	-1560
सिल	-1561
बच्च	-1562
ब्रा	-1563
माना	-1564
निशान	-1565
प्रश्	-1566
बंगाल	-1567
योग्य	-1568
प्राधि	-1569
मंत्रालय	-1570
अल	-1571
दय	-1572
पल	-1573
ौम	-1574
जल्	-1575
जें	-1576
पैग	-1577
मीण	-1578
याँ	-1579
रहो	-1580
सेट	-1581
rans	-1582
तत्व	-1583
निकल	-1584
लेखा	-1585
श्वर	-1586
trans	-1587
गांधी	-1588
दियों	-1589
पुरुष	-1590
tional	-1591
अंग्रे	-1592
पश्चिम	-1593
उत्पादन	-1594
ग्रामीण	-1595
रिपोर्ट	-1596
bl	-1597
ma	-1598
ँह	-1599
झू	-1600
थि	-1601
पौ	-1602
सै	-1603
उपा	-1604
कृप	-1605
रीब	-1606
र्य	-1607
हरण	-1608
जाति	-1609
दिशा	-1610
बदला	-1611
लगता	-1612
स्तक	-1613
कृपया	-1614
बेहतर	-1615
मौजूद	-1616
स्थ्य	-1617
वर्षों	-1618
वास्तव	-1619
स्थानी	-1620
निर्देश	-1621
प्रबंधन	-1622
नियंत्रण	-1623
जिन्होंने	-1624
स्वास्थ्य	-1625
गल	-1626
उदा	-1627
छवि	-1628
दया	-1629
पसं	-1630
विध	-1631
साय	-1632
निधि	-1633
पाया	-1634
भीतर	-1635
रिश्	-1636
लेते	-1637
संसा	-1638
समझा	-1639
सुना	-1640
इतिहा	-1641
प्रेर	-1642
इतिहास	-1643
दक्षिण	-1644
transla	-1645
प्रस्ता	-1646
निर्धारण	-1647
एल	-1648
हज	-1649
कठि	-1650
▁¦0	-1651
▁¦8	-1652
कम्प	-1653
जवाब	-1654
जांच	-1655
अलावा	-1656
कोर्इ	-1657
पहचान	-1658
प्रिय	-1659
त्रुटि	-1660
पुस्तक	-1661
व्यवहार	-1662
kg	-1663
टु	-1664
जबू	-1665
तरा	-1666
मिन	-1667
सका	-1668
करोड	-1669
दुर्	-1670
प्ति	-1671
मजबू	-1672
मांग	-1673
मुँह	-1674
संभव	-1675
सार्	-1676
आसमान	-1677
जहन्न	-1678
देखने	-1679
यंत्र	-1680
विकल्प	-1681
अमेरिका	-1682
स्थानीय	-1683
प्रधानमंत्री	-1684
उड	-1685
नर	-1686
kgm	-1687
आयु	-1688
मना	-1689
यदा	-1690
लीन	-1691
वीं	-1692
▁),	-1693
जहाँ	-1694
त्यु	-1695
बनाए	-1696
र्जा	-1697
शरीर	-1698
स्रो	-1699
▁¦18	-1700
देखते	-1701
पहुँच	-1702
बाहरी	-1703
बच्चों	-1704
मृत्यु	-1705
हिस्सा	-1706
ज्ञानिक	-1707
वैज्ञानिक	-1708
टू	-1709
ढा	-1710
नौ	-1711
यद	-1712
चीन	-1713
तहत	-1714
बने	-1715
बाल	-1716
भ्र	-1717
यात	-1718
लिस	-1719
िता	-1720
च्चा	-1721
संशो	-1722
संसद	-1723
साइट	-1724
योजित	-1725
स्क्र	-1726
्यूटर	-1727
▁¦195	-1728
उत्पाद	-1729
मात्रा	-1730
लक्ष्य	-1731
सदस्यों	-1732
सामग्री	-1733
optional	-1734
टै	-1735
्त	-1736
चले	-1737
जों	-1738
न्व	-1739
बिल	-1740
र्क	-1741
सन्	-1742
आरंभ	-1743
कैसे	-1744
क्षक	-1745
तारी	-1746
नागर	-1747
र्जी	-1748
सहित	-1749
अनुभव	-1750
प्रभु	-1751
बातें	-1752
बातों	-1753
पूर्वक	-1754
उत्पन्न	-1755
संविधान	-1756
अर	-1757
गठ	-1758
णि	-1759
वज	-1760
शल	-1761
हद	-1762
ील	-1763
००	-1764
ity	-1765
ंबर	-1766
आशा	-1767
थीं	-1768
ल्म	-1769
ेगा	-1770
▁¤	-1771
किये	-1772
क्का	-1773
चारी	-1774
फाइल	-1775
मीटर	-1776
मूर्	-1777
लिखा	-1778
शाली	-1779
शेयर	-1780
दिनों	-1781
सर्वर	-1782
प्रवेश	-1783
केन्द्र	-1784
विस्तार	-1785
te	-1786
to	-1787
ँच	-1788
दल	-1789
बत	-1790
खरी	-1791
पों	-1792
विन	-1793
▁?"	-1794
▁¦6	-1795
000¦	-1796
द्वि	-1797
निजी	-1798
बैठक	-1799
रखता	-1800
शायद	-1801
शिया	-1802
उपकरण	-1803
चर्चा	-1804
जरूरत	-1805
शुल्क	-1806
सहायक	-1807
उपधारा	-1808
नागरिक	-1809
श्रेणी	-1810
चिकित्सा	-1811
le	-1812
ne	-1813
कमी	-1814
खुद	-1815
चरण	-1816
पूछ	-1817
▁¥	-1818
▁¦7	-1819
इयों	-1820
खिला	-1821
तकनी	-1822
राजा	-1823
लैंड	-1824
सर्व	-1825
अंतिम	-1826
इनमें	-1827
इस्ते	-1828
कानून	-1829
कारों	-1830
दस्ता	-1831
दारों	-1832
मंदिर	-1833
▁¦199	-1834
पहुँचा	-1835
प्रगति	-1836
भूमिका	-1837
व्यक्त	-1838
संबंधी	-1839
समाप्त	-1840
सरकारी	-1841
स्थायी	-1842
//	-1843
ar	-1844
खी	-1845
तृ	-1846
सज	-1847
म्ब	-1848
र्स	-1849
सोच	-1850
ौती	-1851
क्रो	-1852
छोटे	-1853
द्रा	-1854
लयों	-1855
ीकरण	-1856
दिखाई	-1857
अवस्था	-1858
प्रश्न	-1859
विकसित	-1860
समर्थन	-1861
सम्मान	-1862
ia	-1863
tp	-1864
आँ	-1865
फु	-1866
मल	-1867
लर	-1868
कने	-1869
कहो	-1870
खेल	-1871
तत्	-1872
दृढ	-1873
निर	-1874
पकड	-1875
भुग	-1876
रूर	-1877
लोड	-1878
हान	-1879
आतंक	-1880
चुना	-1881
त्रि	-1882
थमिक	-1883
यूरो	-1884
लागत	-1885
वर्क	-1886
वापस	-1887
▁¦4¦	-1888
क्षमा	-1889
जिनके	-1890
तुमको	-1891
नियों	-1892
पुनर्	-1893
मालूम	-1894
उदाहरण	-1895
शास्त्र	-1896
प्राथमिक	-1897
ंज	-1898
नल	-1899
भय	-1900
हल	-1901
pro	-1902
ंचे	-1903
गाह	-1904
र्ण	-1905
ारि	-1906
खाता	-1907
जिला	-1908
निकट	-1909
भूति	-1910
म्मे	-1911
रहता	-1912
सेना	-1913
अध्या	-1914
आवेदन	-1915
चुनें	-1916
पहुंच	-1917
वर्ती	-1918
चाहिये	-1919
दिखाएँ	-1920
भुगतान	-1921
प्रशिक्षण	-1922
व्यक्तियों	-1923
ंट	-1924
छ्	-1925
ृह	-1926
not	-1927
ध्व	-1928
मति	-1929
वहन	-1930
सला	-1931
▁¤¿	-1932
....	-1933
खाते	-1934
नाटक	-1935
परिक	-1936
पुनः	-1937
पूरे	-1938
ब्रि	-1939
संके	-1940
अधिका	-1941
जिसकी	-1942
ज्ञात	-1943
दृश्य	-1944
मुक्त	-1945
संगठन	-1946
सफलता	-1947
समुदा	-1948
अपेक्षा	-1949
प्रदर्श	-1950
हस्ताक्षर	-1951
प्रमाणपत्र	-1952
ii	-1953
il	-1954
nt	-1955
ऊँ	-1956
मय	-1957
रज	-1958
ंग्	-1959
कोण	-1960
जीव	-1961
पेश	-1962
बंद	-1963
लौट	-1964
शख्	-1965
सात	-1966
city	-1967
http	-1968
च्छे	-1969
दिना	-1970
दिवस	-1971
भागी	-1972
यामत	-1973
रखना	-1974
वाही	-1975
ऊर्जा	-1976
किंतु	-1977
द्रीय	-1978
विंडो	-1979
अध्ययन	-1980
औद्योग	-1981
राजनीति	-1982
राज्यों	-1983
इस्तेमाल	-1984
प्रोत्सा	-1985
इज	-1986
उठ	-1987
नै	-1988
लब	-1989
▁@	-1990
htm	-1991
ऊण्	-1992
छ्ष	-1993
पाक	-1994
पीड	-1995
म्भ	-1996
हाड	-1997
ीनन	-1998
इतना	-1999
इन्ह	-2000
क्रा	-2001
गुरु	-2002
लिंग	-2003
शख्स	-2004
समझौ	-2005
्राम	-2006
▁://	-2007
आयतों	-2008
ऊण्श्	-2009
क्रमण	-2010
प्रकट	-2011
मात्र	-2012
सलमान	-2013
दस्तावे	-2014
ऊण्श्छ्ष	-2015
निशानियाँ	-2016
उट	-2017
गढ	-2018
चं	-2019
झी	-2020
पट	-2021
बौ	-2022
सृ	-2023
गुम	-2024
घोष	-2025
ट्स	-2026
ताल	-2027
तित	-2028
फेर	-2029
बाव	-2030
मही	-2031
रकम	-2032
रिक	-2033
ल्स	-2034
सदी	-2035
▁):	-2036
कांग	-2037
गुणव	-2038
तेरे	-2039
मारी	-2040
अत्या	-2041
पुलिस	-2042
मियों	-2043
मिलने	-2044
रक्षा	-2045
लियों	-2046
संगीत	-2047
▁¦10¦	-2048
उल्लेख	-2049
निर्भर	-2050
उपस्थित	-2051
निर्यात	-2052
परीक्षा	-2053
प्रकृति	-2054
मुसलमान	-2055
संरक्षण	-2056
प्रस्ताव	-2057
se	-2058
ड्	-2059
पॉ	-2060
भौ	-2061
हृ	-2062
▁+	-2063
▁̧	-2064
com	-2065
आउट	-2066
ईसा	-2067
कमा	-2068
खिल	-2069
जोर	-2070
बनी	-2071
मंच	-2072
मों	-2073
रेल	-2074
लाओ	-2075
वें	-2076
ोगे	-2077
ोजन	-2078
चालन	-2079
चुकी	-2080
जैसी	-2081
प्रण	-2082
मिटा	-2083
विभा	-2084
वेयर	-2085
स्टे	-2086
कामना	-2087
केन्द	-2088
चयनित	-2089
द्वार	-2090
पूंजी	-2091
रुपये	-2092
वार्य	-2093
सम्मे	-2094
स्कूल	-2095
स्रोत	-2096
जाएँगे	-2097
पदार्थ	-2098
पूर्ति	-2099
संरचना	-2100
समाधान	-2101
गतिविधि	-2102
मुखर्जी	-2103
वेबसाइट	-2104
संपत्ति	-2105
अनिवार्य	-2106
औद्योगिक	-2107
केंद्रीय	-2108
गुणवत्ता	-2109
वास्तविक	-2110
चू	-2111
▁/	-2112
▁̈	-2113
nic	-2114
आधु	-2115
केट	-2116
तेज	-2117
दीन	-2118
नदी	-2119
फ्ट	-2120
भली	-2121
शाल	-2122
शिश	-2123
शुभ	-2124
सों	-2125
need	-2126
उचित	-2127
पसंद	-2128
पहाड	-2129
प्रस	-2130
भविष	-2131
मिली	-2132
मुद्	-2133
युवा	-2134
अर्था	-2135
प्रशा	-2136
मजबूत	-2137
वजनिक	-2138
सर्वो	-2139
अनुमति	-2140
भविष्य	-2141
्राष्ट	-2142
प्राकृतिक	-2143
सार्वजनिक	-2144
सुनिश्चित	-2145
निर्धारिती	-2146
translation	-2147
de	-2148
इक	-2149
शय	-2150
ुम	-2151
bly	-2152
आपस	-2153
जिए	-2154
नगर	-2155
परं	-2156
पाए	-2157
फ्फ	-2158
बर्	-2159
बान	-2160
रखो	-2161
ल्ड	-2162
वजह	-2163
वेद	-2164
शता	-2165
हम्	-2166
हैः	-2167
▁'%	-2168
does	-2169
उद्य	-2170
क्शन	-2171
पर्य	-2172
मर्श	-2173
ल्ला	-2174
विदा	-2175
समार	-2176
ालिम	-2177
▁¦20	-2178
bably	-2179
आत्मा	-2180
इच्छा	-2181
ग्रहण	-2182
डिस्क	-2183
देंगे	-2184
पुरस्	-2185
सक्षम	-2186
दिनांक	-2187
पहुंचा	-2188
बुद्धि	-2189
विदेशी	-2190
व्यापक	-2191
अध्यक्ष	-2192
प्रभावी	-2193
probably	-2194
करनेवाला	-2195
प्रयुक्त	-2196
केन्द्रीय	-2197
्राष्ट्रीय	-2198
इट	-2199
एच	-2200
घन	-2201
फू	-2202
▁–	-2203
ंकन	-2204
चयन	-2205
मुं	-2206
ल्ल	-2207
श्त	-2208
ेंट	-2209
अगले	-2210
आदमी	-2211
आपने	-2212
आयोग	-2213
किंग	-2214
डेटा	-2215
पद्ध	-2216
परिष	-2217
च्छेद	-2218
तरीके	-2219
तुमपर	-2220
न्त्र	-2221
मिलता	-2222
वित्त	-2223
संपाद	-2224
सिस्ट	-2225
▁¦196	-2226
आयोजित	-2227
प्रतीक	-2228
योक्ता	-2229
योगदान	-2230
अधिकांश	-2231
विचारों	-2232
संभावना	-2233
सम्मेलन	-2234
प्रभावित	-2235
सुरक्षित	-2236
बॉ	-2237
षक	-2238
अदा	-2239
काफ	-2240
गिज	-2241
डरा	-2242
दोष	-2243
नेह	-2244
फोन	-2245
बाप	-2246
भंड	-2247
रखे	-2248
वाक	-2249
शीघ	-2250
सहे	-2251
असफल	-2252
दर्भ	-2253
देती	-2254
प्ले	-2255
बदले	-2256
यद्य	-2257
▁¦11	-2258
अवश्य	-2259
उपबंध	-2260
खाद्य	-2261
पात्र	-2262
पुकार	-2263
प्रणब	-2264
प्रोग	-2265
वायदा	-2266
संचार	-2267
संसार	-2268
सत्या	-2269
इन्हें	-2270
परंपरा	-2271
यद्यपि	-2272
समुद्र	-2273
साधारण	-2274
कांग्रे	-2275
नेटवर्क	-2276
संस्करण	-2277
कंप्यूटर	-2278
ta	-2279
us	-2280
अक	-2281
चढ	-2282
१९	-2283
▁}	-2284
res	-2285
ंकि	-2286
ंगी	-2287
आती	-2288
आते	-2289
कलक	-2290
कोड	-2291
गलत	-2292
त्त	-2293
नतम	-2294
माह	-2295
म्र	-2296
रखी	-2297
साब	-2298
हिक	-2299
हिर	-2300
▁)।	-2301
आवाज	-2302
उनपर	-2303
चलता	-2304
द्वी	-2305
न्दा	-2306
पंजी	-2307
पिता	-2308
रक्त	-2309
लियन	-2310
व्यय	-2311
ारों	-2312
ईश्वर	-2313
उपचार	-2314
कोशिश	-2315
रुद्ध	-2316
विद्व	-2317
विशाल	-2318
शताब्	-2319
शीघ्र	-2320
सियों	-2321
अधिकतर	-2322
अर्थात	-2323
जिनमें	-2324
संदर्भ	-2325
समुदाय	-2326
अत्यन्त	-2327
पर्याप्त	-2328
छू	-2329
नू	-2330
पत	-2331
फॉ	-2332
लक	-2333
सच	-2334
ुत	-2335
इला	-2336
ख्त	-2337
झगड	-2338
टिक	-2339
दशा	-2340
पान	-2341
पीठ	-2342
हीन	-2343
कानू	-2344
छोटा	-2345
प्ता	-2346
माने	-2347
हार्	-2348
ित्व	-2349
▁¦6¦	-2350
कार्ड	-2351
कुंजी	-2352
खुलती	-2353
विवाह	-2354
आधुनिक	-2355
तुममें	-2356
बन्दों	-2357
बैंकों	-2358
मूर्ति	-2359
मौजूदा	-2360
संशोधन	-2361
समाचार	-2362
सेवाओं	-2363
हिन्दी	-2364
कांग्रेस	-2365
aà	-2366
ch	-2367
ंख	-2368
अस	-2369
कत	-2370
तल	-2371
नव	-2372
ूप	-2373
आता	-2374
आश्	-2375
उम्	-2376
कथा	-2377
कूट	-2378
खूब	-2379
गाड	-2380
ढंग	-2381
बूल	-2382
रिए	-2383
समी	-2384
स्य	-2385
ाने	-2386
उसपर	-2387
क्टर	-2388
ग्रे	-2389
चिह्	-2390
ठहरा	-2391
बयान	-2392
भारी	-2393
भाषण	-2394
यूनि	-2395
ल्यू	-2396
वधान	-2397
स्थल	-2398
कालीन	-2399
काव्य	-2400
कुफ्फ	-2401
कृष्ण	-2402
दूसरा	-2403
धिकार	-2404
बनाएँ	-2405
संकेत	-2406
सत्ता	-2407
इस्लाम	-2408
न्याया	-2409
प्रसार	-2410
मिट्टी	-2411
विंडों	-2412
वीडियो	-2413
समारोह	-2414
सिस्टम	-2415
स्वागत	-2416
स्वामी	-2417
दायित्व	-2418
संस्कृत	-2419
अनुच्छेद	-2420
पुरस्कार	-2421
व्यक्तिगत	-2422
ur	-2423
इड	-2424
उज	-2425
डो	-2426
िम	-2427
▁̄	-2428
ंगा	-2429
अता	-2430
कीय	-2431
गरी	-2432
गाँ	-2433
झूठ	-2434
तया	-2435
पना	-2436
भला	-2437
शाह	-2438
सिफ	-2439
सीख	-2440
अपरा	-2441
खर्च	-2442
छोटी	-2443
दायत	-2444
द्धा	-2445
धनों	-2446
नंबर	-2447
पांच	-2448
पाने	-2449
रेखा	-2450
लिका	-2451
विजय	-2452
वैश्	-2453
संगत	-2454
सलाह	-2455
सागर	-2456
सारा	-2457
अफ्री	-2458
गुनाह	-2459
घोषणा	-2460
तारीख	-2461
आकाशों	-2462
वृत्ति	-2463
संकल्प	-2464
जहन्नुम	-2465
अंतर्राष्ट्रीय	-2466
al	-2467
तय	-2468
यल	-2469
ैर	-2470
ँकि	-2471
इका	-2472
जूद	-2473
दुख	-2474
धों	-2475
न्ट	-2476
पाई	-2477
पुट	-2478
पेट	-2479
मां	-2480
माइ	-2481
मुझ	-2482
मोड	-2483
युग	-2484
र्व	-2485
लघु	-2486
सरक	-2487
सवा	-2488
हाज	-2489
▁¤¤	-2490
अपील	-2491
करार	-2492
क्रि	-2493
घरों	-2494
जादू	-2495
ट्रै	-2496
डाला	-2497
बिल्	-2498
माता	-2499
लाते	-2500
विधे	-2501
वेतन	-2502
▁¦0¦	-2503
▁¦7¦	-2504
एशिया	-2505
कराने	-2506
प्राय	-2507
बताया	-2508
मार्च	-2509
वार्ष	-2510
विविध	-2511
सच्चे	-2512
हरगिज	-2513
अभिलेख	-2514
मामलों	-2515
हिदायत	-2516
कलकत्ता	-2517
चारियों	-2518
तिहासिक	-2519
विरुद्ध	-2520
शताब्दी	-2521
हालाँकि	-2522
प्रकाशित	-2523
ार्थियों	-2524
प्रदर्शित	-2525
उल	-2526
खर	-2527
सॉ	-2528
कश्	-2529
तरण	-2530
दास	-2531
मशी	-2532
मीर	-2533
लग्	-2534
सरल	-2535
अप्र	-2536
इतनी	-2537
खुला	-2538
जाँच	-2539
दोलन	-2540
धीरे	-2541
न्ना	-2542
बारा	-2543
मंडल	-2544
महत्	-2545
श्रम	-2546
संतु	-2547
साझी	-2548
▁¦12	-2549
कल्या	-2550
क्ट्र	-2551
जिस्ट	-2552
जीवित	-2553
दर्शा	-2554
देखें	-2555
परिषद	-2556
पुस्त	-2557
प्रवि	-2558
भंडार	-2559
विमान	-2560
शुक्र	-2561
शब्दों	-2562
सिद्धा	-2563
आतंकवाद	-2564
दस्तावेज	-2565
प्रभुत्व	-2566
संस्थानों	-2567
अर्थव्यवस्था	-2568
अह	-2569
ऑन	-2570
घड	-2571
चो	-2572
थर	-2573
▁[	-2574
ंदर	-2575
अक्	-2576
एका	-2577
कदम	-2578
गृह	-2579
तेल	-2580
द्द	-2581
नमा	-2582
नये	-2583
नवी	-2584
बां	-2585
भीर	-2586
भेद	-2587
राब	-2588
सौं	-2589
हवा	-2590
ावा	-2591
िरत	-2592
्यु	-2593
-#-#	-2594
pres	-2595
इनके	-2596
खरीद	-2597
छिपा	-2598
टुकड	-2599
नियत	-2600
नेता	-2601
सख्त	-2602
स्पर	-2603
स्वर	-2604
हालत	-2605
हिमा	-2606
ुरान	-2607
कटौती	-2608
निदेश	-2609
बौद्ध	-2610
मिलकर	-2611
सूचित	-2612
सूत्र	-2613
हासिल	-2614
ार्थी	-2615
▁¦197	-2616
▁¦30¦	-2617
बावजूद	-2618
मानसिक	-2619
स्वच्छ	-2620
निर्मित	-2621
प्रसन्न	-2622
विस्तृत	-2623
पर्यावरण	-2624
अनुप्रयोग	-2625
निम्नलिखित	-2626
मार्गदर्शन	-2627
an	-2628
उत	-2629
कथ	-2630
जर	-2631
रल	-2632
सव	-2633
काट	-2634
चली	-2635
ट्ट	-2636
ताव	-2637
पें	-2638
पेड	-2639
बरी	-2640
बिक	-2641
बोल	-2642
मस्	-2643
रुर	-2644
र्न	-2645
लिप	-2646
सचि	-2647
समृ	-2648
▁¤1	-2649
ment	-2650
आईटी	-2651
कठोर	-2652
कहना	-2653
किस्	-2654
कीमत	-2655
खाने	-2656
चुने	-2657
जल्द	-2658
दाता	-2659
पादन	-2660
प्रच	-2661
प्रि	-2662
बैठे	-2663
रखें	-2664
शैली	-2665
संभा	-2666
सकें	-2667
सीता	-2668
हमसे	-2669
हानि	-2670
आज्ञा	-2671
इजराय	-2672
ग्राम	-2673
नैतिक	-2674
मालिक	-2675
शांति	-2676
शुद्ध	-2677
▁¦25¦	-2678
अनुरोध	-2679
नियमित	-2680
नियमों	-2681
परस्पर	-2682
रहेंगे	-2683
संसाधन	-2684
उपयुक्त	-2685
कार्यों	-2686
झुठलाया	-2687
श्रेणीः	-2688
स्क्रीन	-2689
ऐतिहासिक	-2690
कर्मचारी	-2691
प्राप्ति	-2692
प्रोग्राम	-2693
गतिविधियों	-2694
प्राधिकारी	-2695
ct	-2696
vi	-2697
औन	-2698
घट	-2699
डु	-2700
णु	-2701
दै	-2702
भो	-2703
शख	-2704
सड	-2705
▁{	-2706
...	-2707
अना	-2708
अरब	-2709
आंक	-2710
किल	-2711
ख्य	-2712
चिं	-2713
जनक	-2714
जून	-2715
तोड	-2716
दिख	-2717
देन	-2718
नसी	-2719
फ्र	-2720
बाई	-2721
हरि	-2722
▁¤2	-2723
▁¤®	-2724
▁¦9	-2725
html	-2726
आकर्	-2727
आपका	-2728
आयात	-2729
कठिन	-2730
क्सी	-2731
खाना	-2732
तरित	-2733
दूरी	-2734
पंचा	-2735
पाकि	-2736
भोजन	-2737
मेहर	-2738
रहती	-2739
रहना	-2740
रहें	-2741
विफल	-2742
सत्र	-2743
सबके	-2744
सबको	-2745
स्ना	-2746
हृदय	-2747
ारिश	-2748
▁¦8¦	-2749
▁¦9¦	-2750
,000¦	-2751
चंद्र	-2752
जरूरी	-2753
जल्दी	-2754
जिसको	-2755
तृत्व	-2756
दर्शक	-2757
द्वीप	-2758
मानते	-2759
रहेगा	-2760
हम्मद	-2761
उन्हीं	-2762
कल्याण	-2763
प्रचार	-2764
बुनिया	-2765
हिन्दू	-2766
प्राचीन	-2767
महिलाओं	-2768
वैश्विक	-2769
लोकप्रिय	-2770
संस्कृति	-2771
परिस्थिति	-2772
अधिकारियों	-2773
अंतरराष्ट्रीय	-2774
un	-2775
आठ	-2776
तथ	-2777
दस	-2778
दौ	-2779
मण	-2780
ँति	-2781
अंश	-2782
इले	-2783
कदा	-2784
कां	-2785
घटा	-2786
ध्र	-2787
पैर	-2788
बहा	-2789
विल	-2790
शून	-2791
सहम	-2792
सुख	-2793
हीम	-2794
करनी	-2795
क्ष्	-2796
चलते	-2797
नमाज	-2798
पारि	-2799
मानक	-2800
मुस्	-2801
विरा	-2802
सरों	-2803
सारी	-2804
सीधे	-2805
स्मृ	-2806
▁¦10	-2807
उत्तम	-2808
छात्र	-2809
तुलना	-2810
निहित	-2811
बदलें	-2812
भाषित	-2813
मिश्र	-2814
यूरोप	-2815
लगाने	-2816
वर्णन	-2817
वाद्य	-2818
वित्र	-2819
शून्य	-2820
सच्चा	-2821
सप्ता	-2822
सांस्	-2823
स्थिर	-2824
स्पर्	-2825
हाथों	-2826
ग्राहक	-2827
जिम्मे	-2828
पद्धति	-2829
मुद्रा	-2830
युक्ति	-2831
ल्यूशन	-2832
विधेयक	-2833
शीर्षक	-2834
नेतृत्व	-2835
पश्चिमी	-2836
महात्मा	-2837
विद्युत	-2838
हालांकि	-2839
अंग्रेजी	-2840
राजनीतिक	-2841
क्षेत्रीय	-2842
कार्यक्रमों	-2843
.1	-2844
id	-2845
गज	-2846
धो	-2847
यण	-2848
शर	-2849
हट	-2850
ास	-2851
ैल	-2852
्स	-2853
अनक	-2854
एवो	-2855
खास	-2856
टिल	-2857
ड्र	-2858
देय	-2859
धाई	-2860
नाक	-2861
निश	-2862
पशु	-2863
पूर	-2864
बिं	-2865
बिज	-2866
मनो	-2867
रहम	-2868
र्द	-2869
लम्	-2870
ल्ट	-2871
वंश	-2872
शोध	-2873
्वे	-2874
एजें	-2875
काले	-2876
खेती	-2877
टिप्	-2878
तौबा	-2879
पंजा	-2880
फिली	-2881
मतलब	-2882
लेखक	-2883
ल्टर	-2884
वालो	-2885
शाला	-2886
ाहिर	-2887
अंतरण	-2888
अभिया	-2889
आसानी	-2890
उद्घा	-2891
कठिना	-2892
क्षेप	-2893
खिलाफ	-2894
गंभीर	-2895
जनवरी	-2896
नेहरू	-2897
पट्टी	-2898
बनाकर	-2899
बनाना	-2900
भगवान	-2901
भाँति	-2902
मैदान	-2903
लेंगे	-2904
सुंदर	-2905
हिंदू	-2906
▁¦11¦	-2907
▁¦192	-2908
▁¦194	-2909
अध्याय	-2910
आंदोलन	-2911
इजरायल	-2912
ऑनलाइन	-2913
जाएंगे	-2914
तकनीकी	-2915
रिश्ते	-2916
संघर्ष	-2917
संविदा	-2918
सप्ताह	-2919
अफ्रीका	-2920
उपन्यास	-2921
नीतियों	-2922
न्यूनतम	-2923
प्रेरित	-2924
बिल्कुल	-2925
विशेषता	-2926
सम्बन्ध	-2927
उपयोक्ता	-2928
दृष्टिकोण	-2929
ca	-2930
je	-2931
अत	-2932
खन	-2933
बई	-2934
बग	-2935
रौ	-2936
लम	-2937
इरा	-2938
एगा	-2939
चाई	-2940
जंग	-2941
टाइ	-2942
टिश	-2943
तोष	-2944
दंड	-2945
न्य	-2946
पृथ	-2947
बख्	-2948
भोग	-2949
यथा	-2950
र्ज	-2951
ष्क	-2952
सूर	-2953
ह्य	-2954
▁(%	-2955
इकट्	-2956
कर्त	-2957
गंगा	-2958
जाएं	-2959
ट्रा	-2960
डाटा	-2961
देवी	-2962
धार्	-2963
फरमा	-2964
बधाई	-2965
भलाई	-2966
मिशन	-2967
लेना	-2968
लौटा	-2969
सुझा	-2970
आदर्श	-2971
इत्या	-2972
कुमार	-2973
कृष्ट	-2974
गिरोह	-2975
तस्वी	-2976
दयालु	-2977
दिलों	-2978
देखकर	-2979
▁¦12¦	-2980
▁¦198	-2981
अन्तर्	-2982
कल्पना	-2983
कारबार	-2984
जायेगा	-2985
नेवाला	-2986
बिक्री	-2987
म्बरों	-2988
विभाजन	-2989
स्मृति	-2990
कर्ताओं	-2991
किसानों	-2992
धार्मिक	-2993
नियुक्त	-2994
वस्तुओं	-2995
वादियों	-2996
संबंधों	-2997
सरकारों	-2998
अधिकारों	-2999
प्रयासों	-3000
लोकतंत्र	-3001
समस्याओं	-3002
एवोल्यूशन	-3003
करनेवालों	-3004
सांस्कृतिक	-3005
-0	-3006
fo	-3007
st	-3008
तट	-3009
नृ	-3010
सश	-3011
ॉन	-3012
ोस	-3013
▁\	-3014
▁]	-3015
आँख	-3016
कना	-3017
कपड	-3018
कात	-3019
खतर	-3020
ज्ज	-3021
तबा	-3022
न्स	-3023
पीय	-3024
बोझ	-3025
मरा	-3026
लिब	-3027
लॉग	-3028
सदन	-3029
सब्	-3030
सुफ	-3031
अद्य	-3032
आंकड	-3033
इंडि	-3034
एँगे	-3035
करीब	-3036
क्रे	-3037
खाली	-3038
गहरा	-3039
डाउन	-3040
देखो	-3041
बजाय	-3042
बीमा	-3043
बुरी	-3044
मुकद	-3045
मौसम	-3046
लोकन	-3047
वाता	-3048
वाहि	-3049
सिंग	-3050
स्टा	-3051
ूँगा	-3052
▁¦15	-3053
कहानी	-3054
गुप्त	-3055
चालित	-3056
जिनका	-3057
तरीका	-3058
दर्शी	-3059
दीवार	-3060
धारणा	-3061
नसीहत	-3062
पत्थर	-3063
प्रदू	-3064
प्रशं	-3065
बनाते	-3066
भक्ति	-3067
भाग्य	-3068
वर्धन	-3069
वस्था	-3070
शत्रु	-3071
संलग्	-3072
िन्दा	-3073
▁¦31¦	-3074
अत्यंत	-3075
इंडिया	-3076
कानूनी	-3077
रोजगार	-3078
संग्रह	-3079
स्त्री	-3080
कर्तव्य	-3081
गणराज्य	-3082
प्रयोजन	-3083
प्रशासन	-3084
संपूर्ण	-3085
स्थानों	-3086
इलेक्ट्र	-3087
कार्यालय	-3088
प्राथमिकता	-3089
di	-3090
sh	-3091
uk	-3092
चम	-3093
दश	-3094
मई	-3095
मस	-3096
हथ	-3097
ौल	-3098
con	-3099
खोल	-3100
चीत	-3101
टेड	-3102
तभी	-3103
तला	-3104
मोह	-3105
म्स	-3106
लीफ	-3107
वीय	-3108
समे	-3109
सिर	-3110
ानु	-3111
▁.)	-3112
इंटर	-3113
गठित	-3114
ग्रं	-3115
चरित	-3116
ट्रो	-3117
तिथि	-3118
तेरा	-3119
दिये	-3120
नवान	-3121
निगम	-3122
न्वय	-3123
पहला	-3124
मुना	-3125
मुर्	-3126
यादा	-3127
रिंग	-3128
रीति	-3129
शुरु	-3130
सचिव	-3131
स्टर	-3132
ैसला	-3133
▁¦13	-3134
अनुमो	-3135
उठाने	-3136
उम्मी	-3137
कविता	-3138
काफिर	-3139
खोलें	-3140
चुनाव	-3141
जानवर	-3142
जितना	-3143
ध्वनि	-3144
न्वयन	-3145
पत्नी	-3146
पारित	-3147
पुत्र	-3148
महारा	-3149
मामला	-3150
लिखने	-3151
विदेश	-3152
विरोध	-3153
विवाद	-3154
सामान	-3155
सीमित	-3156
हत्या	-3157
▁¦20¦	-3158
▁¦50¦	-3159
अनुवाद	-3160
उच्चतम	-3161
कोशिका	-3162
पंक्ति	-3163
बातचीत	-3164
संचालन	-3165
ार्थना	-3166
उद्घाटन	-3167
दयालुता	-3168
नवान्वे	-3169
ब्रिटिश	-3170
मान्यता	-3171
व्यवसाय	-3172
परिभाषित	-3173
भागीदारी	-3174
पाकिस्तान	-3175
पृष्ठभूमि	-3176
प्रतिनिधि	-3177
प्रार्थना	-3178
-2	-3179
we	-3180
आक	-3181
धक	-3182
धै	-3183
वक	-3184
ेर	-3185
अब्	-3186
आयी	-3187
आरो	-3188
एक्	-3189
कोष	-3190
गौर	-3191
चौड	-3192
जात	-3193
णीय	-3194
दूँ	-3195
नें	-3196
फिक	-3197
मरी	-3198
महल	-3199
रिज	-3200
लेन	-3201
सें	-3202
हेज	-3203
ंखला	-3204
आपकी	-3205
इंजी	-3206
इबरा	-3207
उन्न	-3208
किरा	-3209
कॉन्	-3210
ट्रे	-3211
ठिका	-3212
ड्रा	-3213
त्तर	-3214
बनने	-3215
बारी	-3216
मोमि	-3217
लिंक	-3218
ष्टा	-3219
ष्णु	-3220
सुबह	-3221
ान्त	-3222
ालिब	-3223
▁¦17	-3224
आस्ति	-3225
एकत्र	-3226
औरतों	-3227
क्लिक	-3228
धियों	-3229
धैर्य	-3230
बदलने	-3231
लगाया	-3232
समझते	-3233
सर्वे	-3234
स्तंभ	-3235
▁¦15¦	-3236
अद्यतन	-3237
कम्पनी	-3238
कश्मीर	-3239
कहेंगे	-3240
पवित्र	-3241
पार्टी	-3242
पुराने	-3243
प्रदाय	-3244
प्रभार	-3245
मिलियन	-3246
मूल्या	-3247
सहकारी	-3248
साम्रा	-3249
हिन्दु	-3250
▁¦100¦	-3251
comment	-3252
इबराहीम	-3253
ईमानदार	-3254
द्वितीय	-3255
प्रतिनि	-3256
महत्त्व	-3257
मुस्लिम	-3258
वातावरण	-3259
विन्यास	-3260
श्रेष्ठ	-3261
स्तित्व	-3262
व्याख्या	-3263
शुभकामना	-3264
प्रत्यक्ष	-3265
निर्देशिका	-3266
परियोजनाओं	-3267
प्रोत्साहन	-3268
कर्मचारियों	-3269
परिणामस्वरूप	-3270
आइ	-3271
गन	-3272
घि	-3273
रन	-3274
ाइ	-3275
ुर	-3276
ूर	-3277
▁॰	-3278
01¦	-3279
her	-3280
अका	-3281
अके	-3282
आर्	-3283
एकल	-3284
कॉल	-3285
चाय	-3286
टिन	-3287
ढूं	-3288
ताज	-3289
तुर	-3290
दबा	-3291
दिक	-3292
दित	-3293
पहल	-3294
भाल	-3295
मास	-3296
यहू	-3297
रेख	-3298
लगी	-3299
लाद	-3300
शिव	-3301
२००	-3302
▁--	-3303
▁:-	-3304
अंदर	-3305
उम्र	-3306
ऊंचा	-3307
क्यू	-3308
खुली	-3309
खुले	-3310
खुशी	-3311
गर्भ	-3312
जर्म	-3313
ट्यू	-3314
तर्क	-3315
तेजी	-3316
दादा	-3317
दीर्	-3318
नष्ट	-3319
नामक	-3320
पूछा	-3321
बनाई	-3322
बुरे	-3323
महिम	-3324
मानो	-3325
माबू	-3326
रहित	-3327
लाना	-3328
लिखी	-3329
लेता	-3330
लोगो	-3331
वादा	-3332
विवे	-3333
समर्	-3334
सीडी	-3335
स्वि	-3336
आयोजन	-3337
आरम्भ	-3338
कार्र	-3339
चारिक	-3340
जिनकी	-3341
तकलीफ	-3342
देखता	-3343
न्दगी	-3344
प्राण	-3345
बिजली	-3346
भागों	-3347
मस्जि	-3348
मिलित	-3349
समक्ष	-3350
सामना	-3351
सिवाय	-3352
ृंखला	-3353
अज्ञात	-3354
इकट्ठा	-3355
जलवायु	-3356
दिखाया	-3357
दोबारा	-3358
नेताओं	-3359
नेवाले	-3360
पंचांग	-3361
बन्दगी	-3362
बारगाह	-3363
भाषाओं	-3364
विश्ले	-3365
इंजीनिय	-3366
इत्यादि	-3367
कनेक्शन	-3368
क्षिप्त	-3369
परामर्श	-3370
प्रशंसा	-3371
फ्टवेयर	-3372
महामहिम	-3373
वार्षिक	-3374
वासियों	-3375
संपादित	-3376
प्रसिद्ध	-3377
विद्यमान	-3378
संस्थाओं	-3379
सम्मिलित	-3380
ईमानदारों	-3381
परिवर्तित	-3382
प्रारंभिक	-3383
मुसलमानों	-3384
साहित्यिक	-3385
स्त्रियों	-3386
स्पष्टीकरण	-3387
विनिर्दिष्ट	-3388
aa	-3389
bm	-3390
hi	-3391
of	-3392
po	-3393
qu	-3394
ro	-3395
एह	-3396
औष	-3397
घं	-3398
चक	-3399
बज	-3400
शौ	-3401
ाम	-3402
ैध	-3403
dia	-3404
आबं	-3405
आमत	-3406
आये	-3407
गठन	-3408
गोल	-3409
चैन	-3410
तुल	-3411
देर	-3412
बोध	-3413
भरो	-3414
भले	-3415
भूल	-3416
मॉड	-3417
रें	-3418
लकड	-3419
लान	-3420
लॉक	-3421
वां	-3422
संत	-3423
हल्	-3424
ान्	-3425
▁¥	-3426
-201	-3427
कहान	-3428
कालय	-3429
क्रय	-3430
गणना	-3431
गांव	-3432
डाले	-3433
डिया	-3434
ढूंढ	-3435
तकों	-3436
तमिल	-3437
तेरी	-3438
दावा	-3439
द्री	-3440
प्लग	-3441
बख्श	-3442
बाइल	-3443
बोले	-3444
ब्या	-3445
मिंग	-3446
मिनट	-3447
मेंट	-3448
रुपए	-3449
लगते	-3450
वाणि	-3451
शाही	-3452
ष्ठा	-3453
संगम	-3454
्यता	-3455
▁¦26	-3456
अक्सर	-3457
अगस्त	-3458
आध्या	-3459
आमतौर	-3460
कमांड	-3461
क्रिय	-3462
ख्याल	-3463
गवाही	-3464
गारों	-3465
गिरफ्	-3466
जवाहर	-3467
जिनको	-3468
जुलाई	-3469
त्मिक	-3470
दोस्त	-3471
नृत्य	-3472
पूज्य	-3473
भांति	-3474
महीने	-3475
यूसुफ	-3476
वर्षा	-3477
वृत्त	-3478
शहरों	-3479
संवाद	-3480
सर्वा	-3481
▁¦193	-3482
अप्रैल	-3483
इन्कार	-3484
किनारे	-3485
ठिकाना	-3486
निरंतर	-3487
पूर्वा	-3488
पूर्वी	-3489
मिलेगी	-3490
लगातार	-3491
विषयों	-3492
शिकायत	-3493
समन्वय	-3494
अत्यधिक	-3495
दिखायें	-3496
प्रेरणा	-3497
मूल्यों	-3498
वाणिज्य	-3499
अस्तित्व	-3500
कार्रवाई	-3501
जनसंख्या	-3502
प्रदर्शन	-3503
सम्बन्धी	-3504
सर्वोच्च	-3505
निष्क्रिय	-3506
प्रतीक्षा	-3507
आध्यात्मिक	-3508
प्रतिक्रिया	-3509
विद्यार्थियों	-3510
at	-3511
da	-3512
et	-3513
आओ	-3514
आफ	-3515
ईल	-3516
जड	-3517
jee	-3518
pra	-3519
prh	-3520
the	-3521
ंडा	-3522
असम	-3523
अहम	-3524
गाय	-3525
चिड	-3526
चें	-3527
जाग	-3528
दूध	-3529
निः	-3530
पीढ	-3531
बेस	-3532
भरी	-3533
व्र	-3534
सरण	-3535
सुल	-3536
हाद	-3537
होम	-3538
ारत	-3539
ूबर	-3540
bmuk	-3541
अवैध	-3542
इनका	-3543
उतार	-3544
उपाय	-3545
कहता	-3546
कुशल	-3547
क्षी	-3548
गवाह	-3549
घाटी	-3550
जाया	-3551
डिजा	-3552
धानी	-3553
निरा	-3554
निरी	-3555
प्ला	-3556
बेटे	-3557
बोली	-3558
मशीन	-3559
माँग	-3560
मानी	-3561
रद्द	-3562
लंबे	-3563
शाखा	-3564
संकट	-3565
सदीय	-3566
सनीय	-3567
सराह	-3568
साझा	-3569
साधन	-3570
हथिय	-3571
prana	-3572
आसपास	-3573
उठाया	-3574
कितनी	-3575
कितने	-3576
घोषित	-3577
चारों	-3578
चिह्न	-3579
चेतना	-3580
चेताव	-3581
चेहरे	-3582
दोहरा	-3583
पर्वत	-3584
भरोसा	-3585
माबूद	-3586
मौलिक	-3587
लक्षण	-3588
वर्तन	-3589
वृक्ष	-3590
शिकार	-3591
संग्र	-3592
समग्र	-3593
सिविल	-3594
स्मार	-3595
herjee	-3596
अधिकतम	-3597
अनुपात	-3598
अनुमान	-3599
अनुसरण	-3600
अभियान	-3601
आयुक्त	-3602
उम्मीद	-3603
ग्रस्त	-3604
जर्मनी	-3605
दूसरों	-3606
निकलने	-3607
निशानी	-3608
पर्यटन	-3609
पुष्टि	-3610
पुस्ति	-3611
बीमारी	-3612
मुक्ति	-3613
मोबाइल	-3614
रजिस्ट	-3615
रास्ता	-3616
विनियम	-3617
संलग्न	-3618
संसदीय	-3619
सहेजें	-3620
अंग्रेज	-3621
सिफारिश	-3622
........	-3623
उत्कृष्ट	-3624
उपस्थिति	-3625
करनेवाले	-3626
पुस्तिका	-3627
बुनियादी	-3628
संसाधनों	-3629
सिद्धांत	-3630
pranabmuk	-3631
नियंत्रित	-3632
विश्वसनीय	-3633
संक्षिप्त	-3634
साम्राज्य	-3635
शुभकामनाएं	-3636
pranabmukherjee	-3637
ce	-3638
lo	-3639
अय	-3640
उद	-3641
टॉ	-3642
थो	-3643
वण	-3644
ॉल	-3645
ing	-3646
ंदा	-3647
अवर	-3648
उतर	-3649
उपर	-3650
उर्	-3651
कब्	-3652
क्य	-3653
खान	-3654
गैस	-3655
जाज	-3656
जेल	-3657
झाड	-3658
झों	-3659
ताक	-3660
त्न	-3661
दरत	-3662
दली	-3663
धीश	-3664
नवा	-3665
नहर	-3666
पदा	-3667
पाइ	-3668
बुल	-3669
बूझ	-3670
भरा	-3671
भरे	-3672
वली	-3673
वसी	-3674
वैध	-3675
शोथ	-3676
सफे	-3677
सूस	-3678
▁¤«	-3679
अगला	-3680
आहार	-3681
इकाई	-3682
इतने	-3683
इसरा	-3684
ईमेल	-3685
उपभो	-3686
कक्ष	-3687
खण्ड	-3688
गर्इ	-3689
चर्य	-3690
जटिल	-3691
जमीन	-3692
जरूर	-3693
टेली	-3694
डिजि	-3695
ताला	-3696
दर्ज	-3697
दोनो	-3698
पहलू	-3699
बाहम	-3700
ब्रे	-3701
मुला	-3702
रेशन	-3703
वर्ड	-3704
वहीं	-3705
विरू	-3706
सजदा	-3707
सवाल	-3708
सीसी	-3709
ाबले	-3710
▁¦1.	-3711
कदापि	-3712
करोगे	-3713
क्षति	-3714
खोलने	-3715
गाँधी	-3716
चार्य	-3717
चाहती	-3718
धित्व	-3719
पंजाब	-3720
पसन्द	-3721
पाठ्य	-3722
बच्चा	-3723
बस्ती	-3724
बिंदु	-3725
बिगाड	-3726
बीमार	-3727
मस्ति	-3728
मुद्र	-3729
रेलवे	-3730
वितरण	-3731
विहित	-3732
हिसाब	-3733
▁¦14¦	-3734
अवतरित	-3735
उपयोगी	-3736
तस्वीर	-3737
देखभाल	-3738
निवासी	-3739
प्रायः	-3740
संबद्ध	-3741
समझौते	-3742
सराहना	-3743
हिमालय	-3744
गुनाहों	-3745
डाउनलोड	-3746
पुरुषों	-3747
प्रबंधक	-3748
मुद्दों	-3749
मोहम्मद	-3750
योग्यता	-3751
शिक्षित	-3752
संगठनों	-3753
संयंत्र	-3754
समीक्षा	-3755
अधिसूचना	-3756
प्रतियोग	-3757
प्रतिष्ठ	-3758
विश्लेषण	-3759
स्वीकृति	-3760
मूल्यांकन	-3761
सर्वेक्षण	-3762
महत्त्वपूर्ण	-3763
गौ	-3764
ठे	-3765
तं	-3766
दह	-3767
मछ	-3768
यस	-3769
ात	-3770
िफ	-3771
ैव	-3772
ॉप	-3773
▁$	-3774
lea	-3775
अंक	-3776
आजा	-3777
आना	-3778
एकी	-3779
एल्	-3780
कोल	-3781
चाल	-3782
जम्	-3783
जाल	-3784
टित	-3785
टैब	-3786
डाय	-3787
दुआ	-3788
धीन	-3789
नजर	-3790
नेअ	-3791
नोड	-3792
पट्	-3793
प्ट	-3794
बले	-3795
बाँ	-3796
बेच	-3797
बेल	-3798
मधु	-3799
मिट	-3800
र्र	-3801
वरि	-3802
वीर	-3803
शोर	-3804
ाना	-3805
▁!"	-3806
▁:%	-3807
▁¤	-3808
▁‘‘	-3809
▁”-	-3810
आसान	-3811
इबाद	-3812
इसने	-3813
औलाद	-3814
किलो	-3815
कुर्	-3816
कोवि	-3817
खतरा	-3818
गहरी	-3819
गिरा	-3820
घाटे	-3821
चैनल	-3822
जहाज	-3823
जानी	-3824
टिका	-3825
तमाम	-3826
तूने	-3827
त्तम	-3828
त्री	-3829
दर्द	-3830
दायी	-3831
धारी	-3832
पैरा	-3833
फार्	-3834
फ्रा	-3835
बंदर	-3836
बाबत	-3837
भेजे	-3838
मांस	-3839
मारे	-3840
मुश्	-3841
लिखे	-3842
लिपि	-3843
वसाय	-3844
वाना	-3845
वेशन	-3846
व्यु	-3847
शरीक	-3848
सदैव	-3849
साथी	-3850
सिक्	-3851
स्को	-3852
हजार	-3853
▁¦14	-3854
▁¦25	-3855
अपमान	-3856
अपराध	-3857
अब्दु	-3858
आयतें	-3859
इबादत	-3860
ऑडियो	-3861
कामों	-3862
क्षिक	-3863
तुरंत	-3864
दीजिए	-3865
परहेज	-3866
प्रका	-3867
बनाये	-3868
बिहार	-3869
ब्याज	-3870
भेजने	-3871
महसूस	-3872
मिलती	-3873
मुंबई	-3874
वर्गी	-3875
समस्त	-3876
सरकशी	-3877
स्ट्र	-3878
हिंदु	-3879
हिंसा	-3880
अग्रिम	-3881
असमर्थ	-3882
इंडियन	-3883
इन्सान	-3884
गांवों	-3885
ज्ञापन	-3886
दीक्षा	-3887
निर्वा	-3888
प्रशास	-3889
बिलकुल	-3890
मिश्रण	-3891
मीडिया	-3892
वर्गों	-3893
विनष्ट	-3894
विरासत	-3895
शेयरों	-3896
समझौता	-3897
हिस्से	-3898
िन्दगी	-3899
आश्चर्य	-3900
क्रांति	-3901
जातियों	-3902
पत्रिका	-3903
मित्रता	-3904
मेहरबान	-3905
रिश्तों	-3906
श्रद्धा	-3907
संक्रमण	-3908
समुद्री	-3909
अपेक्षित	-3910
कारात्मक	-3911
केंद्रित	-3912
मस्तिष्क	-3913
इलेक्ट्रॉ	-3914
प्रसन्नता	-3915
परिस्थितियों	-3916
प्रतिनिधित्व	-3917
प्रभुत्वशाली	-3918
el	-3919
iv	-3920
pa	-3921
sa	-3922
एड	-3923
औप	-3924
कस	-3925
छह	-3926
वट	-3927
षा	-3928
ौफ	-3929
fin	-3930
for	-3931
iii	-3932
आकर	-3933
आलो	-3934
उभर	-3935
कहे	-3936
काउ	-3937
केश	-3938
खुश	-3939
घरे	-3940
घात	-3941
चलो	-3942
चूं	-3943
जार	-3944
टका	-3945
ठोस	-3946
ताप	-3947
दशक	-3948
नमू	-3949
नर्	-3950
नार	-3951
पलट	-3952
फें	-3953
बचे	-3954
बैक	-3955
शोक	-3956
सदा	-3957
सरो	-3958
▁"%	-3959
▁¤¡	-3960
▁¥	-3961
▁।-	-3962
अस्प	-3963
आनंद	-3964
इज्ज	-3965
उठाए	-3966
कागज	-3967
क्षु	-3968
गणित	-3969
गेंद	-3970
चार्	-3971
चिका	-3972
जिले	-3973
ट्रि	-3974
डिंग	-3975
तनों	-3976
दत्त	-3977
दस्त	-3978
दार्	-3979
दाहि	-3980
दुश्	-3981
देकर	-3982
देखी	-3983
द्रव	-3984
न्दर	-3985
न्दु	-3986
पर्व	-3987
पाना	-3988
प्री	-3989
बादी	-3990
बारह	-3991
भावी	-3992
माया	-3993
मेहन	-3994
राही	-3995
रोधी	-3996
रौशन	-3997
लेखन	-3998
विनि	-3999
शर्त	-4000
शिखर	-4001
सफेद	-4002
सब्र	-4003
स्की	-4004
स्टी	-4005
स्टो	-4006
स्पे	-4007
ुरआन	-4008
ूंगा	-4009
lease	-4010
आनन्द	-4011
उद्यम	-4012
उल्लं	-4013
कराया	-4014
कितना	-4015
ख्वाह	-4016
चिंता	-4017
चीजों	-4018
चूंकि	-4019
दाखिल	-4020
देखना	-4021
नेपाल	-4022
पौधों	-4023
फिरऔन	-4024
बचाने	-4025
बदलाव	-4026
बस्ति	-4027
भेजें	-4028
यूनिट	-4029
विद्र	-4030
सकेगा	-4031
साबित	-4032
सुदृढ	-4033
सुभाष	-4034
स्वतः	-4035
िम्मे	-4036
िल्टर	-4037
अनुकूल	-4038
आक्रमण	-4039
उत्तरी	-4040
गुजरात	-4041
चन्द्र	-4042
चुनौती	-4043
तत्वों	-4044
दिखाने	-4045
परिवहन	-4046
प्रयोज	-4047
भंडारण	-4048
वास्तु	-4049
विमर्श	-4050
श्रमिक	-4051
संध्या	-4052
समृद्ध	-4053
सावधान	-4054
एकमात्र	-4055
काफिरों	-4056
चेतावनी	-4057
परिपत्र	-4058
विरूद्ध	-4059
संवर्धन	-4060
अत्याचार	-4061
उद्योगों	-4062
तंत्रिका	-4063
नागरिकों	-4064
न्द्रनाथ	-4065
पुस्तकों	-4066
शक्तियों	-4067
सुविधाएं	-4068
सुविधाओं	-4069
न्यायाधीश	-4070
प्रशासनिक	-4071
प्राधिकरण	-4072
प्रोत्साहित	-4073
प्राप्तकर्ता	-4074
si	-4075
ww	-4076
कब	-4077
डन	-4078
भड	-4079
रस	-4080
शः	-4081
सभ	-4082
हँ	-4083
ूल	-4084
१५	-4085
www	-4086
अलं	-4087
असं	-4088
गईं	-4089
गान	-4090
जगत	-4091
जना	-4092
जर्	-4093
जाम	-4094
टरी	-4095
णों	-4096
नती	-4097
नवं	-4098
नीन	-4099
प्य	-4100
बजट	-4101
बहि	-4102
बीज	-4103
मणि	-4104
मती	-4105
मला	-4106
यता	-4107
यदे	-4108
रेट	-4109
लंब	-4110
लाइ	-4111
लाफ	-4112
लास	-4113
शरण	-4114
शाम	-4115
शेख	-4116
सद्	-4117
सल्	-4118
सहज	-4119
साद	-4120
स्म	-4121
ायम	-4122
▁¤¶	-4123
deta	-4124
ंतों	-4125
अनाज	-4126
आईसी	-4127
इजाज	-4128
उदार	-4129
उधार	-4130
कर्ष	-4131
कारक	-4132
काला	-4133
कौशल	-4134
जोखि	-4135
टर्न	-4136
तरिक	-4137
दावे	-4138
धातु	-4139
बाकी	-4140
बाबू	-4141
बेटा	-4142
भक्त	-4143
मैने	-4144
मोहन	-4145
राना	-4146
लॉकि	-4147
विवर	-4148
वैसा	-4149
शुदा	-4150
संबो	-4151
साहब	-4152
साहस	-4153
सीआर	-4154
सृजन	-4155
सोचा	-4156
होनी	-4157
ह्मण	-4158
ार्क	-4159
्यास	-4160
▁¦16	-4161
▁¦23	-4162
अंतरा	-4163
आंध्र	-4164
कीर्ण	-4165
ख्यात	-4166
ग्रंथ	-4167
जम्मू	-4168
टिप्प	-4169
तीसरे	-4170
दैनिक	-4171
नवंबर	-4172
निवार	-4173
नेअमत	-4174
प्रिं	-4175
बुराई	-4176
भारती	-4177
भाविक	-4178
सुझाव	-4179
स्तरी	-4180
हिकमत	-4181
ियामत	-4182
▁¦40¦	-4183
detail	-4184
अपनाया	-4185
अवज्ञा	-4186
उत्साह	-4187
क्षकों	-4188
गुमराह	-4189
घटनाओं	-4190
चित्रण	-4191
जहन्नम	-4192
डिजिटल	-4193
दाताओं	-4194
पक्षों	-4195
परिचित	-4196
प्रतीत	-4197
मददगार	-4198
मानवीय	-4199
यालयों	-4200
वसायिक	-4201
सभापति	-4202
हालॉकि	-4203
गुमराही	-4204
छात्रों	-4205
परीक्षण	-4206
प्रकाशन	-4207
प्रचलित	-4208
प्रारूप	-4209
यूरोपीय	-4210
सत्यापन	-4211
जवाहरलाल	-4212
फिलीस्ती	-4213
राजस्थान	-4214
सर्वाधिक	-4215
नवान्वेषण	-4216
अभिव्यक्ति	-4217
जिम्मेदारी	-4218
कार्यान्वयन	-4219
mp	-4220
ou	-4221
ंव	-4222
इश	-4223
ईं	-4224
ऊं	-4225
कच	-4226
घे	-4227
षे	-4228
सफ	-4229
ुद	-4230
50¦	-4231
आंख	-4232
एंड	-4233
ओगे	-4234
कमज	-4235
कही	-4236
गंत	-4237
गन्	-4238
ग्ध	-4239
चुप	-4240
चोट	-4241
टाई	-4242
टूट	-4243
डब्	-4244
डिफ	-4245
दरा	-4246
दाम	-4247
दुः	-4248
दुर	-4249
नरे	-4250
नाट	-4251
नान	-4252
नाश	-4253
नूह	-4254
पटल	-4255
पणन	-4256
पब्	-4257
परत	-4258
बजे	-4259
बटन	-4260
बिन	-4261
बीह	-4262
बोस	-4263
भंग	-4264
युक	-4265
रेत	-4266
लिन	-4267
लूत	-4268
संक	-4269
सचे	-4270
सतत	-4271
सरी	-4272
सिन	-4273
सेल	-4274
ीनी	-4275
ेंस	-4276
▁/-	-4277
ंतरण	-4278
अकबर	-4279
अनुप	-4280
अभाव	-4281
आईडी	-4282
आदान	-4283
आपसी	-4284
आवास	-4285
इमार	-4286
उतना	-4287
ऊंचे	-4288
एकता	-4289
ऑपरे	-4290
कटॉप	-4291
कहाँ	-4292
किला	-4293
कैसा	-4294
गरीब	-4295
गोया	-4296
गौरव	-4297
चक्र	-4298
चलने	-4299
जनरल	-4300
डरते	-4301
डीपी	-4302
डेस्	-4303
दायक	-4304
पदों	-4305
पाता	-4306
पोषण	-4307
बाधा	-4308
मकान	-4309
मछली	-4310
मुका	-4311
मुखी	-4312
मुगल	-4313
मोदी	-4314
यतों	-4315
यानी	-4316
रोगी	-4317
विनय	-4318
वियत	-4319
विस्	-4320
शहरी	-4321
शारी	-4322
शासक	-4323
शिशु	-4324
श्रो	-4325
सहमत	-4326
हराम	-4327
हैंः	-4328
ॉन्ट	-4329
press	-4330
आस्था	-4331
कुरान	-4332
ट्रैक	-4333
तकनीक	-4334
तथापि	-4335
त्कार	-4336
त्याग	-4337
दीर्घ	-4338
नौकरी	-4339
न्वित	-4340
फिल्म	-4341
मक्का	-4342
रियों	-4343
वलोकन	-4344
विपणन	-4345
ष्ट्र	-4346
सरदार	-4347
▁¤1⁄4	-4348
▁¦202	-4349
▁¦29¦	-4350
आंतरिक	-4351
आउटपुट	-4352
आमंत्र	-4353
उत्तरा	-4354
चरित्र	-4355
डिजाइन	-4356
निदेशक	-4357
पहुंचे	-4358
प्रवाह	-4359
मस्जिद	-4360
मुकदमा	-4361
रास्ते	-4362
व्युत्	-4363
संपादक	-4364
सामर्थ	-4365
स्मारक	-4366
हथियार	-4367
▁#-#-#	-4368
release	-4369
उल्लंघन	-4370
पंजीकरण	-4371
माइक्रो	-4372
विनियमन	-4373
विभागों	-4374
विविधता	-4375
शारीरिक	-4376
शैक्षिक	-4377
सदस्यता	-4378
▁¦1956¦	-4379
डेस्कटॉप	-4380
प्रविष्ट	-4381
प्रावधान	-4382
फलस्वरूप	-4383
ब्राह्मण	-4384
राज्यपाल	-4385
श्रृंखला	-4386
सम्पूर्ण	-4387
कम्प्यूटर	-4388
कार्यवाही	-4389
पुस्तकालय	-4390
विनिर्माण	-4391
सर्वोत्तम	-4392
स्वाभाविक	-4393
आत्मनिर्भर	-4394
उद्देश्यों	-4395
व्यावसायिक	-4396
▁#-#-#-#-#	-4397
पूर्वावलोकन	-4398
प्रतियोगिता	-4399
वैज्ञानिकों	-4400
12	-4401
mb	-4402
थल	-4403
पय	-4404
बम	-4405
यौ	-4406
वश	-4407
वॉ	-4408
सख	-4409
▁—	-4410
gen	-4411
ंडी	-4412
अली	-4413
अवि	-4414
इम्	-4415
एहद	-4416
औसत	-4417
कीट	-4418
खनन	-4419
खबर	-4420
घटक	-4421
चंद	-4422
छूट	-4423
जीत	-4424
ण्य	-4425
तिश	-4426
दरख	-4427
दवा	-4428
दौड	-4429
नस्	-4430
पका	-4431
पुत	-4432
महो	-4433
रार	-4434
वकी	-4435
विज	-4436
सजा	-4437
सना	-4438
सिस	-4439
सीन	-4440
ेरत	-4441
ोजे	-4442
▁).	-4443
▁,–	-4444
▁>>	-4445
ento	-4446
info	-4447
ther	-4448
अखिल	-4449
इंग्	-4450
ऊपरी	-4451
कहां	-4452
खराब	-4453
घंटे	-4454
चन्द	-4455
चीनी	-4456
जनों	-4457
डीएफ	-4458
ड्यू	-4459
तारा	-4460
तुर्	-4461
दरमि	-4462
दिसं	-4463
देशा	-4464
नीला	-4465
परीत	-4466
पहचा	-4467
पाँच	-4468
पाते	-4469
पारं	-4470
पारी	-4471
पुरी	-4472
पूजा	-4473
प्रय	-4474
फैला	-4475
फ्री	-4476
बाजी	-4477
बिया	-4478
मरने	-4479
मारा	-4480
र्ती	-4481
लेगा	-4482
वानी	-4483
विकि	-4484
शंकर	-4485
संगण	-4486
समझे	-4487
हटकर	-4488
ुबूल	-4489
अक्षर	-4490
आबादी	-4491
करेगी	-4492
कियों	-4493
कोर्ट	-4494
घरेलू	-4495
चलाने	-4496
जागरू	-4497
जानकर	-4498
जायें	-4499
जिनसे	-4500
जिहाद	-4501
जोखिम	-4502
टकारा	-4503
ट्यूब	-4504
डराने	-4505
दिव्य	-4506
नियोज	-4507
निवास	-4508
परमाण	-4509
फरवरी	-4510
बरदार	-4511
मध्यम	-4512
मिसाल	-4513
विज्ञ	-4514
संगिक	-4515
सभाओं	-4516
समझता	-4517
सम्भव	-4518
सुनकर	-4519
▁)...	-4520
▁¦16¦	-4521
.2012¦	-4522
.2015¦	-4523
findia	-4524
idento	-4525
अग्रणी	-4526
अनुरूप	-4527
कठिनाई	-4528
क्ताओं	-4529
गंतव्य	-4530
चिकित्	-4531
छुट्टी	-4532
तन्त्र	-4533
तयशुदा	-4534
दिसंबर	-4535
पालिका	-4536
पुकारा	-4537
पुरानी	-4538
प्रभाग	-4539
महीनों	-4540
मानवता	-4541
रणनीति	-4542
रसूलों	-4543
वरिष्ठ	-4544
विपरीत	-4545
विरोधी	-4546
विष्णु	-4547
शिक्षक	-4548
समानता	-4549
सूक्ष्	-4550
सेक्टर	-4551
सेटिंग	-4552
स्क्रि	-4553
स्तरीय	-4554
स्थापन	-4555
अमेरिकी	-4556
आकर्षित	-4557
चाहेंगे	-4558
टिप्पणी	-4559
दरमियान	-4560
प्रतिभा	-4561
प्रत्या	-4562
प्रवासी	-4563
प्रेषित	-4564
मुश्किल	-4565
विद्वान	-4566
सम्पर्क	-4567
साथियों	-4568
▁¦2017¦	-4569
दुर्घटना	-4570
निष्कर्ष	-4571
पदार्थों	-4572
पारंपरिक	-4573
प्रदर्शक	-4574
राजनैतिक	-4575
विशेषज्ञ	-4576
तत्वदर्शी	-4577
प्रयोजनों	-4578
प्रविष्टि	-4579
प्रासंगिक	-4580
रजिस्ट्री	-4581
शक्तिशाली	-4582
presidento	-4583
प्रतिष्ठित	-4584
प्रसंस्करण	-4585
presidentofindia	-4586
ad	-4587
ty	-4588
अट	-4589
आड	-4590
तस	-4591
लस	-4592
हॉ	-4593
़ी	-4594
ाक	-4595
िन	-4596
ोन	-4597
ौज	-4598
.09	-4599
.5¦	-4600
are	-4601
lin	-4602
ric	-4603
ter	-4604
अम्	-4605
इंग	-4606
इंच	-4607
उपे	-4608
कुफ	-4609
खाओ	-4610
खून	-4611
गमन	-4612
घोड	-4613
चिर	-4614
चेक	-4615
जील	-4616
जूर	-4617
दाज	-4618
धर्	-4619
नबी	-4620
निस	-4621
नुक	-4622
न्थ	-4623
पते	-4624
परस	-4625
पेज	-4626
पोत	-4627
प्स	-4628
फलक	-4629
फोट	-4630
बें	-4631
मंग	-4632
मरि	-4633
मुड	-4634
मुश	-4635
मेज	-4636
मेट	-4637
मैन	-4638
रोड	-4639
लिफ	-4640
लेट	-4641
वरन	-4642
वसू	-4643
सले	-4644
सोस	-4645
सौर	-4646
ाया	-4647
्वी	-4648
०००	-4649
quot	-4650
ंकित	-4651
अगली	-4652
अमरी	-4653
अर्ज	-4654
ईसाई	-4655
कथित	-4656
कर्ण	-4657
काता	-4658
कारो	-4659
गीता	-4660
चाहा	-4661
चेंज	-4662
च्ची	-4663
जन्न	-4664
जुर्	-4665
तथ्य	-4666
तरीक	-4667
तलाश	-4668
दक्ष	-4669
दुःख	-4670
दुखद	-4671
नकदी	-4672
निभा	-4673
पाइप	-4674
फोटो	-4675
बंदी	-4676
बनता	-4677
बेहि	-4678
ब्यू	-4679
भेजी	-4680
माला	-4681
मुंह	-4682
मुसी	-4683
मुहा	-4684
म्मत	-4685
रखती	-4686
रानी	-4687
रोका	-4688
लगती	-4689
लियम	-4690
वाने	-4691
शादी	-4692
शिता	-4693
श्या	-4694
सिखा	-4695
सिया	-4696
हलाल	-4697
हस्त	-4698
हिता	-4699
ॉल्ट	-4700
अन्तर	-4701
अन्दर	-4702
आग्रह	-4703
इनपुट	-4704
क्रोध	-4705
गर्मी	-4706
गीतों	-4707
चिन्ह	-4708
जाओगे	-4709
झुठला	-4710
तीसरी	-4711
दरबार	-4712
दरिया	-4713
दशकों	-4714
धारित	-4715
निकाह	-4716
निष्ठ	-4717
नेत्र	-4718
परेखा	-4719
प्रथा	-4720
प्रेस	-4721
फैसला	-4722
बाह्य	-4723
ब्रह्	-4724
मानना	-4725
मासिक	-4726
मिलते	-4727
मेहनत	-4728
रोकने	-4729
ल्पना	-4730
विधिक	-4731
सारिक	-4732
सीआरए	-4733
सुनता	-4734
स्पति	-4735
होंगी	-4736
होगें	-4737
▁¦18¦	-4738
▁¦19¦	-4739
▁¦22¦	-4740
▁¦26¦	-4741
▁¦27¦	-4742
▁¦28¦	-4743
अनुदान	-4744
अन्ततः	-4745
इसराईल	-4746
इस्पात	-4747
उद्यान	-4748
कलापों	-4749
कल्पिक	-4750
क्रमशः	-4751
क्षणिक	-4752
दाहिने	-4753
नवम्बर	-4754
पक्षीय	-4755
पत्रों	-4756
परमाणु	-4757
पहुँचे	-4758
पृथ्वी	-4759
प्रसंग	-4760
प्रेषण	-4761
प्रोजे	-4762
प्रोटो	-4763
बख्शने	-4764
ब्राउज	-4765
भ्रष्ट	-4766
मिटाएँ	-4767
मिलेगा	-4768
रंगमंच	-4769
रिजर्व	-4770
विडियो	-4771
विद्या	-4772
शर्तें	-4773
शुरुआत	-4774
सकेंगे	-4775
सभ्यता	-4776
सम्बंध	-4777
सिंचाई	-4778
सीमाओं	-4779
सेवाएं	-4780
स्ट्री	-4781
स्तानी	-4782
ालिमों	-4783
अनुमोदन	-4784
अभिभाषण	-4785
आपूर्ति	-4786
इंटरनेट	-4787
कर्नाटक	-4788
कोलकाता	-4789
दर्शाता	-4790
पंजीकृत	-4791
प्रतिफल	-4792
बहुतेरे	-4793
बेहिश्त	-4794
मंदिरों	-4795
मित्रों	-4796
योजनाओं	-4797
विशेषकर	-4798
संदेशों	-4799
संभावित	-4800
समाप्ति	-4801
हार्दिक	-4802
▁¦2013¦	-4803
अनुसूचित	-4804
अन्तर्गत	-4805
आमंत्रित	-4806
उत्पादों	-4807
कंपनियों	-4808
गिरफ्तार	-4809
परिवारों	-4810
प्रतिबंध	-4811
लानेवालो	-4812
वैकल्पिक	-4813
सांसारिक	-4814
सामर्थ्य	-4815
परिकल्पना	-4816
पूर्ववर्ष	-4817
प्रतिबद्ध	-4818
प्रतिभूति	-4819
प्रोजेक्ट	-4820
सामान्यतः	-4821
स्क्रिप्ट	-4822
आवश्यकताओं	-4823
विश्वविद्यालयों	-4824
ai	-4825
ly	-4826
nu	-4827
pu	-4828
इफ	-4829
झि	-4830
ध्	-4831
नत	-4832
फट	-4833
बख	-4834
हड	-4835
ाफ	-4836
ुक	-4837
ुड	-4838
ुप	-4839
ुश	-4840
१०	-4841
१७	-4842
dis	-4843
ंडे	-4844
अग्	-4845
अने	-4846
अहं	-4847
आशु	-4848
एजे	-4849
एप्	-4850
कम्	-4851
करू	-4852
काव	-4853
कीन	-4854
कैं	-4855
क्क	-4856
गेट	-4857
घने	-4858
जैव	-4859
टीम	-4860
टेन	-4861
ड्ड	-4862
तीत	-4863
नाग	-4864
पंच	-4865
पहन	-4866
बला	-4867
बूढ	-4868
मले	-4869
माप	-4870
मिथ	-4871
मुच	-4872
मेह	-4873
मौत	-4874
यूँ	-4875
रवी	-4876
रूस	-4877
लीय	-4878
लेज	-4879
वचन	-4880
वधि	-4881
वाप	-4882
विर	-4883
वेग	-4884
शनी	-4885
शिक	-4886
साई	-4887
स्र	-4888
हाई	-4889
ाकर	-4890
ृंग	-4891
▁</	-4892
ंजलि	-4893
अंधे	-4894
अक्त	-4895
अमान	-4896
अरबी	-4897
अल्प	-4898
आपदा	-4899
आमाल	-4900
इनसे	-4901
इसको	-4902
उक्त	-4903
उपर्	-4904
कष्ट	-4905
काउं	-4906
किन्	-4907
कॉपी	-4908
खतरे	-4909
खत्म	-4910
गर्म	-4911
गामी	-4912
गुजर	-4913
चुनौ	-4914
जाकर	-4915
टेबल	-4916
ट्री	-4917
ठहरे	-4918
ताकत	-4919
तात्	-4920
दिरा	-4921
दीदा	-4922
ध्वज	-4923
नारा	-4924
निगर	-4925
निपट	-4926
पेशी	-4927
प्रद	-4928
फ्रे	-4929
बंधन	-4930
बिता	-4931
मादा	-4932
राइट	-4933
रुरत	-4934
लाइस	-4935
लाकर	-4936
वकील	-4937
वाजे	-4938
वैसे	-4939
सरकश	-4940
सलाम	-4941
साइड	-4942
साझे	-4943
सामू	-4944
सीधा	-4945
स्पी	-4946
स्वे	-4947
हाउस	-4948
हारी	-4949
होगे	-4950
ंतरित	-4951
अक्षम	-4952
अभिगम	-4953
असंभव	-4954
औरतें	-4955
कमजोर	-4956
कालिक	-4957
किसान	-4958
कॉन्फ	-4959
क्रमा	-4960
गुणों	-4961
ग्राह	-4962
चीजें	-4963
जिसपर	-4964
डालते	-4965
डालें	-4966
ढांचे	-4967
थियों	-4968
देगें	-4969
देवता	-4970
पक्षी	-4971
परवाह	-4972
परिसर	-4973
बल्ले	-4974
बांग्	-4975
भर्ती	-4976
मुझसे	-4977
वंचित	-4978
शासित	-4979
शिल्प	-4980
शीलता	-4981
शैतान	-4982
समापन	-4983
सशक्त	-4984
सहमति	-4985
सीखने	-4986
सुनते	-4987
सुनने	-4988
हिंदी	-4989
हितों	-4990
हैदरा	-4991
▁¦13¦	-4992
▁¦24¦	-4993
▁¦75¦	-4994
.2014¦	-4995
अधिकृत	-4996
अन्यथा	-4997
जादूगर	-4998
जीविका	-4999
तुम्हे	-5000
द्रव्य	-5001
निवारण	-5002
निष्ठा	-5003
पुराना	-5004
प्रबन्	-5005
वर्णित	-5006
विनिमय	-5007
विवरणी	-5008
व्यस्त	-5009
शर्तों	-5010
सन्तान	-5011
स्ट्रे	-5012
अनुपालन	-5013
अस्थायी	-5014
आदमियों	-5015
उन्होने	-5016
कांक्षा	-5017
क्रिकेट	-5018
छुटकारा	-5019
दर्शिता	-5020
निकायों	-5021
परिभाषा	-5022
पासवर्ड	-5023
प्रयत्न	-5024
मोमिनीन	-5025
राजधानी	-5026
संचालित	-5027
संतुष्ट	-5028
संरक्षक	-5029
संशोधित	-5030
समर्पित	-5031
सामूहिक	-5032
सितम्बर	-5033
सूक्ष्म	-5034
▁¦2000¦	-5035
▁¦2007¦	-5036
▁¦2014¦	-5037
▁¦2016¦	-5038
अनुज्ञात	-5039
क्षमाशील	-5040
तापूर्वक	-5041
दीक्षांत	-5042
प्रतिदिन	-5043
प्रदायिक	-5044
प्रवर्तन	-5045
व्यापारी	-5046
सम्मानित	-5047
हैदराबाद	-5048
प्रतिष्ठा	-5049
प्राधिकार	-5050
विद्वानों	-5051
व्यवस्थित	-5052
शास्त्रीय	-5053
प्रतिस्पर्	-5054
फिलीस्तीनी	-5055
विद्यार्थी	-5056
0-	-5057
ac	-5058
ap	-5059
as	-5060
bu	-5061
ke	-5062
li	-5063
ol	-5064
ri	-5065
ङ्	-5066
जॉ	-5067
दं	-5068
रै	-5069
रॉ	-5070
षी	-5071
िश	-5072
ैत	-5073
१८	-5074
▁=	-5075
-19	-5076
ंगु	-5077
अमल	-5078
अलब	-5079
उदय	-5080
उधर	-5081
कति	-5082
केल	-5083
घुस	-5084
छोर	-5085
जिज	-5086
टैग	-5087
डीई	-5088
डूब	-5089
तिर	-5090
दिर	-5091
दिश	-5092
दीक	-5093
नकद	-5094
नयी	-5095
नाइ	-5096
नाई	-5097
नोट	-5098
पंड	-5099
पचा	-5100
पने	-5101
पाट	-5102
फर्	-5103
फिल	-5104
फूँ	-5105
बडे	-5106
बाब	-5107
बीर	-5108
बेड	-5109
भीड	-5110
भूख	-5111
मक्	-5112
मरण	-5113
माग	-5114
माफ	-5115
यरी	-5116
रेश	-5117
लीस	-5118
वगै	-5119
वाल	-5120
शिष	-5121
श्व	-5122
सज्	-5123
सटी	-5124
सहन	-5125
ाता	-5126
ुशी	-5127
्ति	-5128
१९९	-5129
▁¤¬	-5130
mail	-5131
this	-5132
अकाद	-5133
अक्ष	-5134
अहले	-5135
आँकड	-5136
आएगा	-5137
आचरण	-5138
आपात	-5139
उपरा	-5140
कचरा	-5141
कमाई	-5142
कर्ज	-5143
कलाप	-5144
कहें	-5145
कायम	-5146
किमी	-5147
क्की	-5148
क्लब	-5149
खींच	-5150
ख्ते	-5151
गुफा	-5152
गुरू	-5153
ग्लो	-5154
जरिए	-5155
ताबे	-5156
त्सव	-5157
दलों	-5158
धन्य	-5159
नेशन	-5160
पिछड	-5161
पुष्	-5162
पेशे	-5163
पैसा	-5164
बचने	-5165
बनकर	-5166
बांध	-5167
ब्रै	-5168
भौगो	-5169
मौका	-5170
यंती	-5171
यानि	-5172
रुचि	-5173
रूपा	-5174
र्रर	-5175
लगने	-5176
लगाए	-5177
लांग	-5178
लाती	-5179
वसीय	-5180
वायर	-5181
वारी	-5182
शिला	-5183
सबका	-5184
स्कर	-5185
स्थि	-5186
हमला	-5187
हवाई	-5188
हाथी	-5189
िल्म	-5190
ोक्त	-5191
अपवाद	-5192
आकृति	-5193
आबंटन	-5194
ऊंचाई	-5195
कीटना	-5196
कुफ्र	-5197
कृत्य	-5198
खोजें	-5199
चलाया	-5200
च्छिक	-5201
जीवों	-5202
टियाँ	-5203
ड्राइ	-5204
तालाब	-5205
तौरेत	-5206
दर्जे	-5207
पंडित	-5208
परिचय	-5209
पिछली	-5210
पूछें	-5211
पेंशन	-5212
पोस्ट	-5213
प्रौढ	-5214
बन्दे	-5215
बुद्ध	-5216
मजदूर	-5217
माध्य	-5218
मानों	-5219
मारते	-5220
मोमिन	-5221
यक्ति	-5222
रहेगी	-5223
लाभों	-5224
लौटने	-5225
वक्ता	-5226
वियों	-5227
संकलन	-5228
संपदा	-5229
सहानु	-5230
सैनिक	-5231
स्वाद	-5232
ाइलों	-5233
ेंद्र	-5234
▁¦21¦	-5235
.2011¦	-5236
ंत्रिक	-5237
अधिकरण	-5238
अन्तिम	-5239
अभ्यास	-5240
अवसरों	-5241
आचार्य	-5242
आलोचना	-5243
एकीकृत	-5244
कारणों	-5245
कार्बन	-5246
कृतज्ञ	-5247
झुठलाओ	-5248
डिग्री	-5249
तथ्यों	-5250
निकाले	-5251
परसतिश	-5252
परेशान	-5253
पीडीएफ	-5254
पैमाने	-5255
फोल्डर	-5256
बादशाह	-5257
बिन्दु	-5258
बैठकों	-5259
मुसीबत	-5260
लाएँगे	-5261
संहिता	-5262
सच्चाई	-5263
साक्षी	-5264
सितंबर	-5265
स्वस्थ	-5266
अनुग्रह	-5267
अलबत्ता	-5268
अस्पताल	-5269
आजीविका	-5270
आरक्षित	-5271
उपेक्षा	-5272
औपचारिक	-5273
कविताओं	-5274
कारोबार	-5275
कूटशब्द	-5276
चिह्नित	-5277
जानवरों	-5278
टेलीफोन	-5279
निगरानी	-5280
नियोजित	-5281
प्रदूषण	-5282
बैंकिंग	-5283
भौगोलिक	-5284
मुलाकात	-5285
विद्रोह	-5286
विभाजित	-5287
विस्फोट	-5288
व्याकरण	-5289
समृद्धि	-5290
▁¦1957¦	-5291
▁¦2015¦	-5292
उपभोक्ता	-5293
एक्सचेंज	-5294
निर्वाचन	-5295
निष्पादन	-5296
प्रकाशना	-5297
वर्गीकरण	-5298
विद्यालय	-5299
ईमानवालों	-5300
उपर्युक्त	-5301
उल्लेखनीय	-5302
पाठ्यक्रम	-5303
प्रयोक्ता	-5304
वास्तुकला	-5305
संस्थापित	-5306
सकारात्मक	-5307
सहानुभूति	-5308
सॉफ्टवेयर	-5309
पूर्ववर्ती	-5310
मंत्रालयों	-5311
व्युत्पन्न	-5312
रवीन्द्रनाथ	-5313
इलेक्ट्रॉनिक	-5314
cd	-5315
ex	-5316
ka	-5317
pe	-5318
up	-5319
अख	-5320
ऐं	-5321
कन	-5322
कप	-5323
छड	-5324
डै	-5325
ढो	-5326
थै	-5327
नम	-5328
नॉ	-5329
यॉ	-5330
tor	-5331
ver	-5332
wea	-5333
असल	-5334
आइए	-5335
आभा	-5336
आह्	-5337
उपज	-5338
घूम	-5339
चमक	-5340
चरम	-5341
चाँ	-5342
जैन	-5343
टर्	-5344
ठहर	-5345
तरल	-5346
तूर	-5347
थान	-5348
दाख	-5349
निज	-5350
निष	-5351
परम	-5352
परो	-5353
पाँ	-5354
पेय	-5355
फसल	-5356
फूल	-5357
बंग	-5358
बरस	-5359
बसा	-5360
माई	-5361
माद	-5362
मीम	-5363
मृत	-5364
मेन	-5365
यती	-5366
रंज	-5367
रद्	-5368
रिश	-5369
रूष	-5370
लता	-5371
वती	-5372
वात	-5373
विश	-5374
विस	-5375
शित	-5376
सफा	-5377
सेन	-5378
िये	-5379
▁()	-5380
▁.%	-5381
▁¤	-5382
cons	-5383
ंगिक	-5384
ंगों	-5385
अर्ध	-5386
आएगी	-5387
आकलन	-5388
आखिर	-5389
आगमन	-5390
आपरे	-5391
आराम	-5392
इलाज	-5393
एससी	-5394
कराए	-5395
कलाम	-5396
कृपा	-5397
क्कर	-5398
ख्वा	-5399
गारी	-5400
घटित	-5401
चालू	-5402
चाहो	-5403
चिन्	-5404
जंगल	-5405
जीवी	-5406
झोंक	-5407
डाली	-5408
ताना	-5409
तुझे	-5410
दर्य	-5411
दायर	-5412
दिलच	-5413
नवीन	-5414
निको	-5415
निधन	-5416
नेकी	-5417
नेमत	-5418
नौकर	-5419
पचास	-5420
पटना	-5421
पांड	-5422
पादप	-5423
पिंग	-5424
पीएम	-5425
पूछे	-5426
पूछो	-5427
पैके	-5428
प्रॉ	-5429
बचपन	-5430
बतौर	-5431
बनना	-5432
बरसा	-5433
बादल	-5434
बायो	-5435
बोला	-5436
ब्बे	-5437
ब्रो	-5438
भेंट	-5439
भौति	-5440
माएँ	-5441
मुहर	-5442
मॉडल	-5443
मोटे	-5444
याची	-5445
यिका	-5446
राधा	-5447
रामा	-5448
रिये	-5449
रूरत	-5450
लंका	-5451
लंबी	-5452
लानत	-5453
लेती	-5454
ल्लम	-5455
वासन	-5456
वृति	-5457
शोषण	-5458
ष्णव	-5459
समझी	-5460
सर्ग	-5461
सवार	-5462
सिटी	-5463
सियत	-5464
सिले	-5465
सीधी	-5466
सुपु	-5467
स्का	-5468
हँसी	-5469
हरित	-5470
ार्ड	-5471
िरऔन	-5472
िलाफ	-5473
िस्म	-5474
ुदरत	-5475
▁¦21	-5476
अग्नि	-5477
आँखों	-5478
आयुर्	-5479
इमारत	-5480
उत्सव	-5481
उन्नत	-5482
उपखंड	-5483
उर्दू	-5484
कक्षा	-5485
कतिपय	-5486
कहेगा	-5487
कालेज	-5488
कियां	-5489
किस्म	-5490
कीजिए	-5491
कीटों	-5492
केडीई	-5493
खातों	-5494
खिलाड	-5495
गरीबी	-5496
गर्भा	-5497
चुपके	-5498
जयंती	-5499
जापान	-5500
जितने	-5501
तबाही	-5502
तीव्र	-5503
तीसरा	-5504
तुल्य	-5505
दरगुज	-5506
दिमाग	-5507
दूँगा	-5508
द्रास	-5509
नहरें	-5510
पाओगे	-5511
पुरूष	-5512
पैरवी	-5513
प्रेत	-5514
प्लेट	-5515
बताना	-5516
बदलना	-5517
बनाता	-5518
बाध्य	-5519
भरपूर	-5520
भौतिक	-5521
मजबूर	-5522
मानता	-5523
मार्क	-5524
माहौल	-5525
म्परा	-5526
यहूदी	-5527
रोकते	-5528
रोगों	-5529
लिखना	-5530
वगैरह	-5531
वापसी	-5532
विनाश	-5533
शरारत	-5534
संदेय	-5535
सचमुच	-5536
सुनाई	-5537
सूर्य	-5538
सैन्य	-5539
स्थाई	-5540
हटाने	-5541
▁¦191	-5542
-2018¦	-5543
अज्ञान	-5544
अन्याय	-5545
अप्रिय	-5546
आशुतोष	-5547
ग्रन्थ	-5548
तत्काल	-5549
तत्त्व	-5550
तरीकों	-5551
ताकतों	-5552
तुर्की	-5553
दयावान	-5554
दिलाने	-5555
दिवसीय	-5556
धारकों	-5557
पब्लिक	-5558
भाइयों	-5559
मंत्रण	-5560
मद्रास	-5561
याचिका	-5562
लेखकों	-5563
विक्रय	-5564
संतुलन	-5565
संपन्न	-5566
संवेदन	-5567
समझाने	-5568
समाहित	-5569
सीरिया	-5570
सुसंगत	-5571
सोवियत	-5572
स्थाना	-5573
स्पर्श	-5574
अक्तूबर	-5575
अधिवेशन	-5576
अवधारणा	-5577
आधारभूत	-5578
आसमानों	-5579
उपकरणों	-5580
उपबंधों	-5581
कानूनों	-5582
किताबें	-5583
कोविन्द	-5584
त्रियों	-5585
दक्षिणी	-5586
पसंदीदा	-5587
पूर्णतः	-5588
प्रशांत	-5589
बांग्ला	-5590
महामारी	-5591
मोमिनों	-5592
लाइसेंस	-5593
विदेशों	-5594
विधियां	-5595
संबोधित	-5596
समर्थित	-5597
सम्बद्ध	-5598
सशस्त्र	-5599
सुपुर्द	-5600
स्थिरता	-5601
स्रोतों	-5602
स्वीकृत	-5603
▁¦2005¦	-5604
▁¦2012¦	-5605
अनुमोदित	-5606
अभिप्रेत	-5607
असामान्य	-5608
इंग्लैंड	-5609
कहानियाँ	-5610
केंद्रों	-5611
कॉपीराइट	-5612
चिकित्सक	-5613
झुठलाओगे	-5614
निरीक्षण	-5615
पक्षियों	-5616
प्रतिकूल	-5617
प्रश्नों	-5618
बस्तियों	-5619
भूतपूर्व	-5620
वार्षिकी	-5621
शिकायतों	-5622
सत्यापित	-5623
अध्यक्षता	-5624
उत्तरदायी	-5625
केन्द्रों	-5626
जाननेवाला	-5627
यथास्थिति	-5628
वाणिज्यिक	-5629
सम्बन्धित	-5630
साफ्टवेयर	-5631
न्यायालयों	-5632
परिवर्तनों	-5633
प्रयोगशाला	-5634
व्यक्तित्व	-5635
सामान्यतया	-5636
इंजीनियरिंग	-5637
सफलतापूर्वक	-5638
,1	-5639
16	-5640
ck	-5641
ge	-5642
ng	-5643
so	-5644
ँग	-5645
अँ	-5646
जज	-5647
डू	-5648
तफ	-5649
नं	-5650
मख	-5651
यथ	-5652
रम	-5653
लश	-5654
वय	-5655
िस	-5656
ुन	-5657
१४	-5658
२०	-5659
01.	-5660
75¦	-5661
col	-5662
ice	-5663
lla	-5664
per	-5665
ँचा	-5666
अंड	-5667
असर	-5668
आएँ	-5669
आदर	-5670
इंट	-5671
ऑंख	-5672
कल्	-5673
कीज	-5674
कीर	-5675
क्ल	-5676
गहन	-5677
गित	-5678
ग्स	-5679
घटन	-5680
चमड	-5681
चलन	-5682
चश्	-5683
चों	-5684
जॉन	-5685
टने	-5686
टिव	-5687
टेढ	-5688
डेट	-5689
ढेर	-5690
तस्	-5691
तिज	-5692
दाद	-5693
दूत	-5694
दोज	-5695
फाइ	-5696
फाउ	-5697
फौज	-5698
बचत	-5699
बनो	-5700
बलि	-5701
बीस	-5702
ब्ध	-5703
भोज	-5704
रमा	-5705
रसी	-5706
रिस	-5707
लाज	-5708
लोन	-5709
वंत	-5710
वाय	-5711
षेध	-5712
सकल	-5713
सकी	-5714
सघन	-5715
सेस	-5716
हफ्	-5717
हला	-5718
हास	-5719
ाबू	-5720
▁)-	-5721
_01.	-5722
eric	-5723
अंतः	-5724
अक्ट	-5725
अचान	-5726
अवरो	-5727
आजाद	-5728
आपसे	-5729
इच्छ	-5730
इनकी	-5731
इनको	-5732
ईरान	-5733
उतनी	-5734
उभार	-5735
एनआर	-5736
एसएम	-5737
किले	-5738
कूमत	-5739
कैसी	-5740
कोटि	-5741
क्री	-5742
गोली	-5743
गोवि	-5744
घाटा	-5745
घेरे	-5746
चावल	-5747
छपाई	-5748
जीवा	-5749
टिकट	-5750
डरता	-5751
त्ते	-5752
त्वर	-5753
देगी	-5754
नस्ल	-5755
नामः	-5756
नामा	-5757
निंग	-5758
निकी	-5759
पंथी	-5760
पनाह	-5761
परेश	-5762
पीएस	-5763
पृथक	-5764
पोर्	-5765
फरसख	-5766
फलों	-5767
बांस	-5768
बीबी	-5769
भरने	-5770
भव्य	-5771
भागे	-5772
मंडप	-5773
मण्ड	-5774
माउस	-5775
मेटी	-5776
मोटर	-5777
म्बई	-5778
म्मा	-5779
म्यू	-5780
रहकर	-5781
राहत	-5782
रूपए	-5783
रूरी	-5784
लंबा	-5785
लाएँ	-5786
लाता	-5787
वाणी	-5788
वाहक	-5789
विला	-5790
व्यक	-5791
शराब	-5792
शिंग	-5793
सचेत	-5794
समें	-5795
साइन	-5796
सिरे	-5797
सेरो	-5798
सौदा	-5799
स्रा	-5800
हमको	-5801
हरेक	-5802
हालय	-5803
हाली	-5804
ारसी	-5805
िक्ष	-5806
िरों	-5807
ुसार	-5808
ोहों	-5809
्यूल	-5810
्रेट	-5811
अंततः	-5812
अकेले	-5813
अग्रे	-5814
अचानक	-5815
अदालत	-5816
अनुया	-5817
आँखें	-5818
इंसान	-5819
इस्ला	-5820
कानों	-5821
कामया	-5822
कॉलेज	-5823
जन्नत	-5824
जातीय	-5825
जानने	-5826
टेनिस	-5827
डवेयर	-5828
डालना	-5829
ढांचा	-5830
तियार	-5831
तीकरण	-5832
त्वचा	-5833
दिसम्	-5834
दुकान	-5835
धिकृत	-5836
नदिया	-5837
नागरी	-5838
नेशनल	-5839
पट्टे	-5840
पर्दा	-5841
फार्म	-5842
बताता	-5843
बूझकर	-5844
बोलते	-5845
मरियम	-5846
मारने	-5847
मौजिज	-5848
रवाना	-5849
रहमान	-5850
लगाकर	-5851
वाहित	-5852
व्यास	-5853
शर्ते	-5854
संघीय	-5855
संचित	-5856
संदाय	-5857
सदनों	-5858
समझना	-5859
हटाएँ	-5860
ाइलें	-5861
▁¦189	-5862
अनुचित	-5863
आदेशों	-5864
आबंटित	-5865
आह्वान	-5866
इसीलिए	-5867
करूँगा	-5868
कलाकार	-5869
कीमतों	-5870
कुशलता	-5871
ग्लोबल	-5872
घनिष्ठ	-5873
त्मकता	-5874
दिखाना	-5875
धिकारी	-5876
नवाचार	-5877
पेट्रो	-5878
प्रांत	-5879
प्लगइन	-5880
बरदस्त	-5881
बैठकें	-5882
मंत्रि	-5883
माताओं	-5884
मिलाकर	-5885
मुकदमे	-5886
रामायण	-5887
वरीयता	-5888
वर्षीय	-5889
वहारिक	-5890
वार्ता	-5891
विशेषा	-5892
वैष्णव	-5893
संगठित	-5894
संगणना	-5895
संपादन	-5896
समर्पण	-5897
सर्वथा	-5898
स्तरों	-5899
स्थगित	-5900
स्वर्ग	-5901
हैसियत	-5902
िस्तान	-5903
generic	-5904
weather	-5905
अक्टूबर	-5906
अनुसूची	-5907
अपशिष्ट	-5908
अभिदाता	-5909
इकाइयों	-5910
उत्पादक	-5911
किन्हीं	-5912
कृत्यों	-5913
क्ष्यों	-5914
चाहूंगा	-5915
झुठलाने	-5916
देवताओं	-5917
निकालते	-5918
निकालने	-5919
निर्वहन	-5920
नीतियां	-5921
परम्परा	-5922
प्रपत्र	-5923
प्रान्त	-5924
बौद्धिक	-5925
महाभारत	-5926
महाराजा	-5927
मुकाबले	-5928
मुहम्मद	-5929
रूपरेखा	-5930
वनस्पति	-5931
विकलांग	-5932
विख्यात	-5933
संकीर्ण	-5934
समकालीन	-5935
सम्पन्न	-5936
साक्ष्य	-5937
सुधारों	-5938
सौभाग्य	-5939
स्वदेशी	-5940
स्वार्थ	-5941
▁¦1992¦	-5942
▁¦2006¦	-5943
▁¦2020¦	-5944
आकांक्षा	-5945
ग्राहकों	-5946
निमंत्रण	-5947
नियंत्रक	-5948
पथभ्रष्ट	-5949
परंपरागत	-5950
पुस्तकें	-5951
पैरामीटर	-5952
भारतीयों	-5953
मनुष्यों	-5954
रचनात्मक	-5955
शैक्षणिक	-5956
स्वचालित	-5957
अत्याचारी	-5958
अनुस्मृति	-5959
अपीलार्थी	-5960
अब्दुल्ला	-5961
अभिव्यक्त	-5962
कठिनाइयों	-5963
निर्देशों	-5964
निशानियों	-5965
पद्धतियों	-5966
प्रतिवादी	-5967
प्रवृत्ति	-5968
प्रोटोकॉल	-5969
संग्रहालय	-5970
स्तानियों	-5971
स्वीकार्य	-5972
हार्डवेयर	-5973
उपलब्धियों	-5974
द्विपक्षीय	-5975
महाराष्ट्र	-5976
व्यावहारिक	-5977
स्ट्रेलिया	-5978
हिंदुस्तान	-5979
क्रांतिकारी	-5980
उत्तरदायित्व	-5981
/1	-5982
ph	-5983
su	-5984
va	-5985
wh	-5986
xt	-5987
ंब	-5988
घू	-5989
चख	-5990
चट	-5991
छः	-5992
जम	-5993
ज़	-5994
डं	-5995
तह	-5996
धम	-5997
नय	-5998
पठ	-5999
मश	-6000
लख	-6001
व्	-6002
सउ	-6003
हं	-6004
ूत	-6005
ेश	-6006
.04	-6007
.06	-6008
30¦	-6009
ँगा	-6010
ंटी	-6011
अमर	-6012
अवय	-6013
आवि	-6014
इंत	-6015
ईंट	-6016
उठे	-6017
ऊतक	-6018
ओवर	-6019
कती	-6020
कथन	-6021
कमल	-6022
करु	-6023
काँ	-6024
किट	-6025
किम	-6026
कुं	-6027
कुर	-6028
कैन	-6029
कोप	-6030
कोर	-6031
खाई	-6032
खाड	-6033
खार	-6034
गंध	-6035
ग्न	-6036
घाट	-6037
घाव	-6038
जनन	-6039
जरा	-6040
टाल	-6041
टीन	-6042
टेक	-6043
डरो	-6044
डाई	-6045
डीए	-6046
डें	-6047
तंग	-6048
तिल	-6049
धरो	-6050
धीय	-6051
धूप	-6052
नकल	-6053
नाप	-6054
नीम	-6055
न्च	-6056
पंख	-6057
पडे	-6058
पूँ	-6059
पॉप	-6060
फिस	-6061
फुट	-6062
बक्	-6063
बहन	-6064
बहस	-6065
बाढ	-6066
बिट	-6067
बृह	-6068
ब्ल	-6069
भिन	-6070
मंज	-6071
मसा	-6072
मसी	-6073
मात	-6074
मील	-6075
यीं	-6076
रता	-6077
राक	-6078
राग	-6079
रूह	-6080
रेड	-6081
लकर	-6082
लीग	-6083
वाड	-6084
ष्म	-6085
सको	-6086
सतह	-6087
साउ	-6088
सास	-6089
सील	-6090
सूँ	-6091
हाइ	-6092
ोटो	-6093
ोरी	-6094
▁(&	-6095
▁¥	-6096
▁।’	-6097
▁’’	-6098
-19¦	-6099
ंदगी	-6100
अय्य	-6101
आईएस	-6102
आघात	-6103
आयकर	-6104
आरोप	-6105
इन्स	-6106
इल्म	-6107
इष्ट	-6108
इसपर	-6109
इसमे	-6110
ईंधन	-6111
एकदम	-6112
कतरा	-6113
करवा	-6114
काओं	-6115
काया	-6116
किर्	-6117
क्के	-6118
गवर्	-6119
गाँव	-6120
गाना	-6121
गुणा	-6122
गूगल	-6123
चट्ट	-6124
चर्म	-6125
चलकर	-6126
चलती	-6127
चैतन	-6128
जगन्	-6129
टेक्	-6130
दलील	-6131
दिता	-6132
देखे	-6133
दोषी	-6134
धारक	-6135
धोखे	-6136
नाना	-6137
निवे	-6138
नोडल	-6139
पश्च	-6140
पहलु	-6141
पावर	-6142
पीने	-6143
पुर्	-6144
पूरक	-6145
पैसे	-6146
प्पा	-6147
प्रक	-6148
बचाव	-6149
बलों	-6150
बालक	-6151
बेटी	-6152
बेहद	-6153
बैठा	-6154
भरें	-6155
मदों	-6156
मातृ	-6157
मिता	-6158
मुहै	-6159
मेजब	-6160
याता	-6161
रचित	-6162
रहमत	-6163
राजी	-6164
राने	-6165
रियल	-6166
रूचि	-6167
रेगि	-6168
र्या	-6169
लगाई	-6170
लाये	-6171
लियो	-6172
वन्य	-6173
विजन	-6174
विलो	-6175
शनिक	-6176
शुल्	-6177
शोधन	-6178
संकु	-6179
सटीक	-6180
सतर्	-6181
सतौर	-6182
सफाई	-6183
सबकी	-6184
समझो	-6185
सिडी	-6186
सुगम	-6187
सुल्	-6188
स्तन	-6189
हाइड	-6190
होटल	-6191
ह्रा	-6192
ादिर	-6193
ुल्म	-6194
्राट	-6195
▁¦02	-6196
▁¦24	-6197
▁¦27	-6198
▁¦34	-6199
▁¦80	-6200
tella	-6201
अंगों	-6202
अनन्त	-6203
अपनाई	-6204
अफसोस	-6205
अर्जन	-6206
आजादी	-6207
आवासी	-6208
इनसाफ	-6209
उद्भव	-6210
उन्हे	-6211
उपभोग	-6212
ऊतकों	-6213
एजेन्	-6214
एहकाम	-6215
एहसान	-6216
कनेक्	-6217
कमीशन	-6218
कमेटी	-6219
कराते	-6220
करेंः	-6221
कर्मी	-6222
कुदरत	-6223
कुबूल	-6224
क्तता	-6225
खासकर	-6226
खेतों	-6227
गुलाम	-6228
गेहूं	-6229
चक्कर	-6230
चाहें	-6231
जितनी	-6232
जेम्स	-6233
ठहराए	-6234
डब्लू	-6235
डेयरी	-6236
तसबीह	-6237
तारों	-6238
तीर्थ	-6239
धियां	-6240
निकला	-6241
निकास	-6242
निक्स	-6243
निगाह	-6244
निभाई	-6245
परस्त	-6246
परिपथ	-6247
पशुओं	-6248
पाकीज	-6249
पार्क	-6250
पालने	-6251
पिछला	-6252
पेक्ष	-6253
पैकेज	-6254
फायदे	-6255
फॉर्म	-6256
फ्रेम	-6257
बनाएं	-6258
बन्दी	-6259
बॉक्स	-6260
बोलना	-6261
भागने	-6262
भेजना	-6263
भ्रंश	-6264
मार्ट	-6265
मुल्क	-6266
रद्दी	-6267
रहस्य	-6268
रूपये	-6269
रूपों	-6270
रेक्ट	-6271
लगाना	-6272
लिखें	-6273
लियां	-6274
लीकरण	-6275
लौटना	-6276
वर्मा	-6277
विभेद	-6278
व्यति	-6279
शियों	-6280
शिष्य	-6281
समझने	-6282
सारणी	-6283
सीनों	-6284
स्वप्	-6285
हरिया	-6286
▁¦35¦	-6287
▁¦45¦	-6288
अंतराल	-6289
अकादमी	-6290
अनुबंध	-6291
अर्पित	-6292
आईआईटी	-6293
इलाकों	-6294
उद्यमी	-6295
कर्मों	-6296
क्रामक	-6297
क्साइड	-6298
खुल्लम	-6299
खुल्ला	-6300
चैतन्य	-6301
दक्षता	-6302
दिखाएं	-6303
दिखाते	-6304
नवीनतम	-6305
नारायण	-6306
निवेदन	-6307
पतियों	-6308
पहचाने	-6309
पैटर्न	-6310
प्रेरक	-6311
प्रेषक	-6312
फ्रांस	-6313
भौतिकी	-6314
मशीनरी	-6315
मुद्दे	-6316
मुहैया	-6317
यथार्थ	-6318
युवाओं	-6319
राजस्व	-6320
राजाओं	-6321
रात्रि	-6322
रेडियो	-6323
लैंगिक	-6324
वस्त्र	-6325
शुरूआत	-6326
सन्देह	-6327
सम्राट	-6328
सृष्टि	-6329
स्टेशन	-6330
हजारों	-6331
हिमाचल	-6332
हुकूमत	-6333
▁¦1961	-6334
अनुभवों	-6335
अनुभूति	-6336
आश्वासन	-6337
इच्छाओं	-6338
ख्तेयार	-6339
चित्रों	-6340
जगन्नाथ	-6341
जाएँगें	-6342
ड्राफ्ट	-6343
त्रुटिः	-6344
धन्यवाद	-6345
न्यायिक	-6346
परिश्रम	-6347
प्रसारण	-6348
ब्रिटेन	-6349
मध्यस्थ	-6350
यातायात	-6351
राजभाषा	-6352
रिकार्ड	-6353
वस्तुतः	-6354
वैयक्ति	-6355
संक्षेप	-6356
सतर्कता	-6357
साझीदार	-6358
स्वयंसे	-6359
▁¦1950¦	-6360
▁¦2001¦	-6361
▁¦2008¦	-6362
▁¦2009¦	-6363
▁¦2010¦	-6364
▁¦2011¦	-6365
अंतरिक्ष	-6366
उपलब्धता	-6367
किलोमीटर	-6368
दार्शनिक	-6369
देनेवाला	-6370
नरेन्द्र	-6371
निःशुल्क	-6372
नियुक्ति	-6373
पत्तियों	-6374
पहुंचाने	-6375
पूर्णतया	-6376
प्रतिदान	-6377
प्रारम्भ	-6378
प्रेमचंद	-6379
प्रॉक्सी	-6380
वार्मिंग	-6381
शक्तियां	-6382
शिक्षकों	-6383
सद्भावना	-6384
समितियों	-6385
समुदायों	-6386
साझेदारी	-6387
constella	-6388
translate	-6389
अंग्रेजों	-6390
अधिकारिता	-6391
आज्ञाकारी	-6392
निवासियों	-6393
प्रतिवर्ष	-6394
प्रदर्शनी	-6395
प्रस्तुति	-6396
विशेषताएं	-6397
व्यापारिक	-6398
सुपुर्दगी	-6399
कार्यालयों	-6400
दस्तावेजों	-6401
पारिश्रमिक	-6402
प्रजातियों	-6403
वास्तविकता	-6404
सिद्धांतों	-6405
श्रद्धांजलि	-6406
▁¦1961-2018¦	-6407
constellation	-6408
................	-6409
-8	-6410
.2	-6411
11	-6412
be	-6413
fi	-6414
gt	-6415
ko	-6416
mi	-6417
ms	-6418
no	-6419
ps	-6420
ul	-6421
ंछ	-6422
ंध	-6423
अड	-6424
ईस	-6425
गॉ	-6426
जं	-6427
जौ	-6428
ञ्	-6429
डल	-6430
णे	-6431
धू	-6432
नस	-6433
फज	-6434
फस	-6435
बक	-6436
मग	-6437
यश	-6438
शह	-6439
ीक	-6440
्ड	-6441
१६	-6442
२५	-6443
▁‍	-6444
.4¦	-6445
60¦	-6446
des	-6447
end	-6448
gtk	-6449
lar	-6450
man	-6451
ror	-6452
ser	-6453
tic	-6454
wor	-6455
अटल	-6456
अद्	-6457
अपू	-6458
आनु	-6459
आमद	-6460
उगा	-6461
एटी	-6462
एयर	-6463
एसो	-6464
ओडि	-6465
ओपन	-6466
कंड	-6467
कट्	-6468
करम	-6469
काग	-6470
किर	-6471
कुड	-6472
केन	-6473
कैश	-6474
कोच	-6475
कोय	-6476
खपत	-6477
खरा	-6478
गरण	-6479
गाढ	-6480
गिन	-6481
गुं	-6482
गोप	-6483
घण्	-6484
चाप	-6485
चिक	-6486
चीख	-6487
छंद	-6488
छत्	-6489
जता	-6490
जमी	-6491
जुन	-6492
टूल	-6493
टें	-6494
टेल	-6495
डिट	-6496
ड्स	-6497
ढूँ	-6498
तको	-6499
तदन	-6500
तिन	-6501
त्ल	-6502
थाम	-6503
धना	-6504
धूम	-6505
नात	-6506
नील	-6507
नेस	-6508
पहर	-6509
पिक	-6510
पूज	-6511
फिट	-6512
फीस	-6513
फैल	-6514
फ्त	-6515
बीन	-6516
बेख	-6517
बों	-6518
भुत	-6519
मंद	-6520
मचा	-6521
मता	-6522
मल्	-6523
मुह	-6524
मैप	-6525
रघु	-6526
रवै	-6527
रूख	-6528
रूढ	-6529
रेब	-6530
लते	-6531
वला	-6532
विच	-6533
वुड	-6534
वृत	-6535
वेत	-6536
शिप	-6537
शैल	-6538
श्म	-6539
संख	-6540
साँ	-6541
सूद	-6542
हकी	-6543
हर्	-6544
होश	-6545
ारह	-6546
ियम	-6547
िरो	-6548
ीसा	-6549
ेगी	-6550
▁);	-6551
▁,%	-6552
▁¥	-6553
▁“%	-6554
blic	-6555
type	-6556
what	-6557
अनुभ	-6558
अपार	-6559
अष्ट	-6560
अहमद	-6561
आभास	-6562
आयाम	-6563
आर्य	-6564
आवेद	-6565
आश्र	-6566
इयां	-6567
इराक	-6568
उठता	-6569
उद्ध	-6570
ऊँचा	-6571
ऊँची	-6572
ऊँचे	-6573
ऊंगा	-6574
एण्ड	-6575
कमरे	-6576
करतू	-6577
कुंड	-6578
केरल	-6579
कोटा	-6580
क्यो	-6581
क्ला	-6582
क्ले	-6583
खुशख	-6584
खोला	-6585
ख्यक	-6586
गयीं	-6587
गलती	-6588
गुस्	-6589
गोरा	-6590
च्यु	-6591
छिपी	-6592
जायज	-6593
जिंग	-6594
जिन्	-6595
जूरी	-6596
झूठी	-6597
झूठे	-6598
टाइप	-6599
टाउन	-6600
डालर	-6601
डेलि	-6602
ढूँढ	-6603
तनाव	-6604
तिरु	-6605
त्ती	-6606
दबाव	-6607
दांत	-6608
देनी	-6609
धीमी	-6610
ध्रु	-6611
नगरी	-6612
नाडु	-6613
नासा	-6614
नियन	-6615
न्तर	-6616
न्दन	-6617
न्नी	-6618
परता	-6619
पाएँ	-6620
पालि	-6621
पेयी	-6622
पैनल	-6623
प्लस	-6624
फर्क	-6625
फर्ज	-6626
फेंक	-6627
फेरा	-6628
फेसर	-6629
फैली	-6630
फैले	-6631
बंबई	-6632
बनते	-6633
बन्ध	-6634
बर्फ	-6635
बाएँ	-6636
बाएं	-6637
बाकू	-6638
बामा	-6639
ब्बत	-6640
भ्रम	-6641
मंगल	-6642
मर्द	-6643
मिया	-6644
मीरा	-6645
मुवा	-6646
मूली	-6647
मेनू	-6648
मोचन	-6649
मोर्	-6650
यकों	-6651
यज्ञ	-6652
यहीं	-6653
यारी	-6654
युग्	-6655
रखकर	-6656
रहीं	-6657
राबी	-6658
रुरी	-6659
लंदन	-6660
लाठी	-6661
लिमि	-6662
लेबल	-6663
लोहे	-6664
ल्टा	-6665
वकों	-6666
वाइस	-6667
वारा	-6668
वाष्	-6669
वेदी	-6670
व्रत	-6671
शल्य	-6672
शांत	-6673
शियन	-6674
श्रा	-6675
श्ले	-6676
सउदी	-6677
सकने	-6678
सदिश	-6679
समूद	-6680
सुले	-6681
सूजन	-6682
सूरत	-6683
सोने	-6684
स्कू	-6685
स्टल	-6686
स्फी	-6687
स्ला	-6688
स्वै	-6689
हड्ड	-6690
हमपर	-6691
हिला	-6692
ुद्ध	-6693
▁¦28	-6694
▁¦44	-6695
अकादे	-6696
अकेला	-6697
अखबार	-6698
अनुकू	-6699
अफगान	-6700
अवकाश	-6701
असत्य	-6702
अस्थि	-6703
आधारी	-6704
इरादा	-6705
उपदेश	-6706
उपहार	-6707
उपाधि	-6708
ऊँचाई	-6709
एप्पल	-6710
कच्चे	-6711
कट्टर	-6712
कब्जे	-6713
कहावत	-6714
केदार	-6715
कोविड	-6716
कोष्ठ	-6717
क्लिप	-6718
खिसका	-6719
खुदाई	-6720
खोलना	-6721
गहराई	-6722
घण्टे	-6723
चलेगा	-6724
चिन्त	-6725
चेन्न	-6726
जीवंत	-6727
तियां	-6728
तीसगढ	-6729
दरवाज	-6730
दस्ती	-6731
धरोहर	-6732
ध्याय	-6733
नमूने	-6734
निंदा	-6735
नियां	-6736
निरूप	-6737
नीयता	-6738
पक्का	-6739
पन्ना	-6740
पायों	-6741
पुण्य	-6742
पुतली	-6743
पुनरा	-6744
पुराण	-6745
पूछते	-6746
पूछने	-6747
पोरेट	-6748
फायदा	-6749
फैक्ट	-6750
बन्दर	-6751
बहनों	-6752
बियों	-6753
बुलाए	-6754
ब्लॉक	-6755
भत्ता	-6756
भागवत	-6757
मनाया	-6758
महानि	-6759
माणिक	-6760
मिस्र	-6761
मूत्र	-6762
यार्क	-6763
रखेगा	-6764
राजपू	-6765
रोशनी	-6766
लगाते	-6767
लम्बे	-6768
लीजिए	-6769
लैण्ड	-6770
लॉन्च	-6771
वरणीय	-6772
वसीयत	-6773
वसूली	-6774
वाक्य	-6775
विकृत	-6776
विकेट	-6777
विघटन	-6778
विराट	-6779
विवेक	-6780
वृक्क	-6781
वेस्ट	-6782
संहार	-6783
सच्ची	-6784
समझकर	-6785
सहभाग	-6786
साध्य	-6787
सृजित	-6788
सौंपा	-6789
स्कीम	-6790
स्टाक	-6791
स्टाफ	-6792
स्टार	-6793
स्टेट	-6794
स्तीन	-6795
स्नान	-6796
स्मरण	-6797
स्विच	-6798
हममें	-6799
हालात	-6800
हीनता	-6801
ृंगार	-6802
▁¦17¦	-6803
▁¦190	-6804
▁¦48¦	-6805
▁¦70¦	-6806
▁¦80¦	-6807
▁¦90¦	-6808
.2013¦	-6809
0,000¦	-6810
public	-6811
अग्रसर	-6812
अनेकों	-6813
अब्दुल	-6814
अर्जुन	-6815
आकर्षण	-6816
आपरेशन	-6817
आरोपों	-6818
उपक्रम	-6819
उपायों	-6820
एकाग्र	-6821
एजेंसी	-6822
कदाचित	-6823
कवियों	-6824
केन्या	-6825
क्रमित	-6826
खासतौर	-6827
ख्वाहि	-6828
छिपाते	-6829
जीलैंड	-6830
टर्मिन	-6831
टाइम्स	-6832
टिप्पण	-6833
ड्राइव	-6834
ढूंढने	-6835
तात्या	-6836
त्वरित	-6837
दरवाजे	-6838
देशालय	-6839
ध्यक्ष	-6840
नदियाँ	-6841
नदियों	-6842
नवीकरण	-6843
निकाली	-6844
निकासी	-6845
निर्गम	-6846
निर्धन	-6847
निर्या	-6848
नुकसान	-6849
परिवेश	-6850
पहलुओं	-6851
प्रचंड	-6852
प्रिया	-6853
प्रोसे	-6854
बंगाली	-6855
बुलाने	-6856
ब्रह्म	-6857
ब्रेरी	-6858
मधुमेह	-6859
मरम्मत	-6860
मानकों	-6861
मिटाना	-6862
मुद्दा	-6863
मेट्रो	-6864
रिश्ता	-6865
विकिरण	-6866
विद्वत	-6867
वृत्ता	-6868
संभवतः	-6869
सदियों	-6870
समन्दर	-6871
समर्थक	-6872
समावेश	-6873
सहयोगी	-6874
सांख्य	-6875
साइकिल	-6876
साधनों	-6877
सायनिक	-6878
सारांश	-6879
हिष्णु	-6880
▁¦500¦	-6881
अनिवासी	-6882
इस्लामी	-6883
कुफ्फार	-6884
कूटनीति	-6885
क्रमांक	-6886
खुशहाली	-6887
गर्भाशय	-6888
गांधीजी	-6889
जरूरतों	-6890
जायेंगे	-6891
डेलिगेट	-6892
तकोत्तर	-6893
दर्दनाक	-6894
दिसम्बर	-6895
देखेंगे	-6896
नर्सिंग	-6897
निकालना	-6898
निकालें	-6899
निर्दोष	-6900
पाबन्दी	-6901
पूर्णता	-6902
पृष्ठों	-6903
प्रचालन	-6904
बागवानी	-6905
बुनियाद	-6906
भ्रष्टा	-6907
मजदूरों	-6908
महोत्सव	-6909
योजनाएं	-6910
लिमिटेड	-6911
वाजपेयी	-6912
विधियों	-6913
विवेकान	-6914
व्यष्टि	-6915
श्रीमती	-6916
संकेतों	-6917
संग्राम	-6918
सरपरस्त	-6919
सिक्किम	-6920
स्मार्ट	-6921
स्वाधीन	-6922
हरियाणा	-6923
हिस्सों	-6924
▁¦1997¦	-6925
▁¦2002¦	-6926
▁¦2018¦	-6927
▁¦2019¦	-6928
आस्तियों	-6929
चित्रकला	-6930
जागरूकता	-6931
जानेवाले	-6932
तत्कालीन	-6933
देवनागरी	-6934
प्रदूषित	-6935
प्रदेशों	-6936
प्रबन्धन	-6937
प्रभार्य	-6938
प्रमाणित	-6939
प्रोफेसर	-6940
बल्लेबाज	-6941
बुराइयों	-6942
ब्रैसेरो	-6943
यहूदियों	-6944
राजमार्ग	-6945
विकासशील	-6946
वैयक्तिक	-6947
संक्रिया	-6948
स्वच्छता	-6949
उत्पादकता	-6950
कार्यकारी	-6951
कार्यनीति	-6952
चुनौतियों	-6953
जिस्ट्रेट	-6954
दुर्भाग्य	-6955
प्रगतिशील	-6956
प्रतिलिपि	-6957
प्राधिकृत	-6958
मूर्तिकला	-6959
यात्रियों	-6960
लाइब्रेरी	-6961
विशिष्टता	-6962
विशेषताओं	-6963
संवेदनशील	-6964
सर्वप्रथम	-6965
स्थितियों	-6966
स्वैच्छिक	-6967
हस्तक्षेप	-6968
हस्तांतरण	-6969
उपयोगकर्ता	-6970
उपलब्धियां	-6971
क्रियाकलाप	-6972
पर्यावरणीय	-6973
पारिस्थिति	-6974
प्रशिक्षित	-6975
प्रस्तावित	-6976
भ्रष्टाचार	-6977
कार्यान्वित	-6978
प्रक्रियाओं	-6979
विशेषाधिकार	-6980
सांप्रदायिक	-6981
स्नातकोत्तर	-6982
आत्मनिर्भरता	-6983
प्रतिस्पर्धा	-6984
प्रविष्टियों	-6985
रजिस्ट्रीकृत	-6986
-9	-6987
02	-6988
am	-6989
ay	-6990
ds	-6991
du	-6992
go	-6993
he	-6994
ho	-6995
im	-6996
ld	-6997
og	-6998
os	-6999
pg	-7000
ts	-7001
अश	-7002
आल	-7003
उग	-7004
एव	-7005
ऐब	-7006
औज	-7007
कव	-7008
छी	-7009
झट	-7010
तज	-7011
थन	-7012
बट	-7013
रक	-7014
लभ	-7015
शू	-7016
शॉ	-7017
हौ	-7018
ाव	-7019
ूस	-7020
ेय	-7021
ैश	-7022
ॉँ	-7023
्म	-7024
.02	-7025
.0¦	-7026
.10	-7027
.11	-7028
.3¦	-7029
.6¦	-7030
cha	-7031
cre	-7032
ctr	-7033
cur	-7034
key	-7035
out	-7036
pop	-7037
tle	-7038
uri	-7039
war	-7040
ँचे	-7041
अंध	-7042
अपा	-7043
अमी	-7044
आईओ	-7045
आत्	-7046
आदम	-7047
आवं	-7048
इता	-7049
इत्	-7050
उंट	-7051
उजी	-7052
ऋषि	-7053
एकड	-7054
एना	-7055
औरत	-7056
कटा	-7057
कन्	-7058
कबू	-7059
कसा	-7060
काय	-7061
कूब	-7062
कोट	-7063
कौं	-7064
खाए	-7065
गरि	-7066
गिक	-7067
गिल	-7068
गुड	-7069
गुल	-7070
गों	-7071
गोर	-7072
घना	-7073
घास	-7074
घुड	-7075
घेर	-7076
चरि	-7077
चूँ	-7078
जला	-7079
जीब	-7080
टिस	-7081
टीय	-7082
डिग	-7083
तख्	-7084
तनत	-7085
ताछ	-7086
ताड	-7087
तीं	-7088
तूफ	-7089
थाई	-7090
थित	-7091
दंत	-7092
दाह	-7093
दीव	-7094
नाफ	-7095
नूर	-7096
नोक	-7097
न्ध	-7098
पंथ	-7099
परक	-7100
पहे	-7101
पुल	-7102
पुस	-7103
फिन	-7104
फूट	-7105
फेस	-7106
फॉर	-7107
बडा	-7108
बडी	-7109
बसे	-7110
बही	-7111
बीत	-7112
बुक	-7113
बूट	-7114
भटक	-7115
भीत	-7116
भीम	-7117
मनी	-7118
मरू	-7119
मिज	-7120
मुल	-7121
मूर	-7122
मोर	-7123
मौज	-7124
याक	-7125
रजि	-7126
रवि	-7127
राइ	-7128
राख	-7129
रिफ	-7130
र्ग	-7131
लंग	-7132
लयन	-7133
लार	-7134
लेस	-7135
लेह	-7136
लैक	-7137
लोप	-7138
ल्ज	-7139
वरा	-7140
वाम	-7141
विड	-7142
वेल	-7143
शंस	-7144
शों	-7145
श्क	-7146
सती	-7147
सत्	-7148
सदृ	-7149
सनी	-7150
सरत	-7151
साव	-7152
सिए	-7153
सीई	-7154
सोम	-7155
सोल	-7156
हंस	-7157
हाक	-7158
हिल	-7159
हें	-7160
ाते	-7161
ारस	-7162
ारो	-7163
िगर	-7164
ियल	-7165
ोति	-7166
ोसी	-7167
ौरन	-7168
्यक	-7169
▁%)	-7170
▁.-	-7171
▁.–	-7172
▁¤	-7173
▁¤	-7174
▁¥	-7175
▁¥	-7176
▁़़	-7177
▁”.	-7178
dist	-7179
link	-7180
sion	-7181
text	-7182
unit	-7183
अकार	-7184
अनुष	-7185
अभ्य	-7186
असली	-7187
आईपी	-7188
आबाद	-7189
इयाँ	-7190
ईस्ट	-7191
ऊंची	-7192
एसआई	-7193
एसवी	-7194
औजार	-7195
औषधि	-7196
कब्ज	-7197
कराई	-7198
करूँ	-7199
काबा	-7200
कालि	-7201
केशन	-7202
कॉफी	-7203
क्लो	-7204
खनिज	-7205
गद्य	-7206
गर्व	-7207
गहरे	-7208
गायब	-7209
गोला	-7210
ग्रि	-7211
ग्वा	-7212
चमत्	-7213
चर्च	-7214
चारण	-7215
चारे	-7216
चुरा	-7217
चोरी	-7218
च्चय	-7219
छाया	-7220
जन्य	-7221
जिये	-7222
ज्वर	-7223
झूठा	-7224
टीका	-7225
टॉगल	-7226
ट्ठी	-7227
तलाक	-7228
तानु	-7229
त्फे	-7230
दरख्	-7231
दराज	-7232
दुष्	-7233
देहा	-7234
द्दा	-7235
द्यो	-7236
धोखा	-7237
नागा	-7238
नाते	-7239
नानक	-7240
निशा	-7241
नींद	-7242
नींव	-7243
पाँव	-7244
पाठक	-7245
पादक	-7246
पालक	-7247
पोजी	-7248
पोषक	-7249
फायर	-7250
फ्लै	-7251
बाला	-7252
बीते	-7253
बुला	-7254
भावा	-7255
भुला	-7256
भूषण	-7257
भ्रा	-7258
मरयम	-7259
मर्स	-7260
माइश	-7261
माही	-7262
मोटी	-7263
मोती	-7264
म्बे	-7265
यत्त	-7266
योनि	-7267
य्या	-7268
राहे	-7269
रिकॉ	-7270
रियर	-7271
लशकर	-7272
लायक	-7273
लौटे	-7274
वबाल	-7275
वरना	-7276
वाकई	-7277
वानि	-7278
वाहन	-7279
विषा	-7280
वेरी	-7281
शंका	-7282
शकों	-7283
शोभा	-7284
श्रु	-7285
संचय	-7286
संधि	-7287
सबूत	-7288
सल्ल	-7289
सामु	-7290
सिने	-7291
सिपल	-7292
सीखा	-7293
सेल्	-7294
स्टि	-7295
हलाक	-7296
हायत	-7297
हुईं	-7298
हुये	-7299
ारिज	-7300
िक्र	-7301
▁¦1,	-7302
▁¦2,	-7303
▁¦22	-7304
▁¦35	-7305
▁।’’	-7306
forma	-7307
tions	-7308
whats	-7309
अंकित	-7310
अगरचे	-7311
अनन्य	-7312
अनुपम	-7313
अन्वे	-7314
अपडेट	-7315
अहमदा	-7316
आंखों	-7317
आमदनी	-7318
आविष्	-7319
इताअत	-7320
उठाना	-7321
उतारा	-7322
उत्सु	-7323
उन्हो	-7324
उर्वर	-7325
ओडिशा	-7326
ओबामा	-7327
कथाओं	-7328
कारगर	-7329
किलोग	-7330
कुष्ठ	-7331
केलिए	-7332
क्टरी	-7333
खानों	-7334
गर्दन	-7335
गिनती	-7336
गोष्ठ	-7337
ग्राफ	-7338
ग्रीन	-7339
चरिता	-7340
चिपका	-7341
चूँकि	-7342
चूर्ण	-7343
चेहरा	-7344
जगहों	-7345
जानें	-7346
जानों	-7347
जायगा	-7348
जैविक	-7349
झुकाव	-7350
ट्रां	-7351
ट्रिक	-7352
ट्रेड	-7353
डालने	-7354
तानों	-7355
तीनों	-7356
तौरैत	-7357
दायिक	-7358
दाश्त	-7359
दिखता	-7360
दिखाओ	-7361
दिग्ध	-7362
द्भूत	-7363
धानिक	-7364
नमूना	-7365
निकले	-7366
निमित	-7367
नुसार	-7368
न्तरण	-7369
पत्ती	-7370
परदाज	-7371
पराजय	-7372
पार्ट	-7373
पूँजी	-7374
प्यार	-7375
प्रबल	-7376
फोर्ड	-7377
बजाएँ	-7378
बताते	-7379
बदलते	-7380
बनायी	-7381
बम्बई	-7382
बुलाओ	-7383
बेचने	-7384
बेटों	-7385
बेडकर	-7386
ब्रेक	-7387
भूभाग	-7388
भेजता	-7389
भ्रमण	-7390
मंजूर	-7391
मण्डल	-7392
मरतबा	-7393
मराठी	-7394
मानने	-7395
मित्व	-7396
मिलान	-7397
मुफ्त	-7398
मूर्त	-7399
मॉरिश	-7400
याकूब	-7401
योंकि	-7402
यौगिक	-7403
रंगों	-7404
रक्षक	-7405
रक्षण	-7406
रमानी	-7407
राक्ष	-7408
रास्त	-7409
रिवाज	-7410
रुपया	-7411
रोकना	-7412
लंबाई	-7413
लगेगा	-7414
लम्बी	-7415
लाखों	-7416
लियाँ	-7417
लेंडर	-7418
लेखों	-7419
विफलः	-7420
विष्ट	-7421
वीर्य	-7422
वृद्ध	-7423
संचरण	-7424
संजाल	-7425
संतान	-7426
संबन्	-7427
संयोग	-7428
सकताः	-7429
सकेगी	-7430
साइटी	-7431
सार्थ	-7432
साहसी	-7433
सोचने	-7434
स्थूल	-7435
स्राव	-7436
हुर्इ	-7437
होंने	-7438
होस्ट	-7439
ारिटी	-7440
▁¦115	-7441
▁¦51¦	-7442
▁¦64¦	-7443
action	-7444
अंतरित	-7445
अंशदान	-7446
अद्भुत	-7447
अनदेखा	-7448
अनदेखी	-7449
अनुभवी	-7450
अमरीका	-7451
अर्जित	-7452
अवलोकन	-7453
असंख्य	-7454
अहंकार	-7455
आकर्षक	-7456
आवासीय	-7457
इच्छुक	-7458
इन्साफ	-7459
उच्चतर	-7460
उत्तरः	-7461
उत्पीड	-7462
ऑपरेशन	-7463
ऑफलाइन	-7464
करूंगा	-7465
करेंगी	-7466
कहेगें	-7467
काउंटर	-7468
किराया	-7469
क्सीजन	-7470
गोविंद	-7471
चित्रा	-7472
चेष्टा	-7473
जागरूक	-7474
जापानी	-7475
जायेगी	-7476
जिन्ना	-7477
ज्योति	-7478
ट्रांस	-7479
ठहराया	-7480
डाक्टर	-7481
डॉक्टर	-7482
ड्यूटी	-7483
ढूंढें	-7484
तापमान	-7485
तालिका	-7486
त्राशय	-7487
दादाओं	-7488
दिखाता	-7489
दिखायी	-7490
दुश्मन	-7491
धर्मों	-7492
निकलता	-7493
निकाला	-7494
निहायत	-7495
नीतिगत	-7496
नीलामी	-7497
नुत्फे	-7498
पीडिया	-7499
पुकारो	-7500
प्रातः	-7501
प्लगिन	-7502
प्लेयर	-7503
फरमाया	-7504
बलिदान	-7505
बशर्ते	-7506
बहादुर	-7507
बहुदेव	-7508
बिलियन	-7509
बेहश्त	-7510
मंजूरी	-7511
माँगता	-7512
मानदंड	-7513
माननीय	-7514
मामूली	-7515
मूलभूत	-7516
रिपोर्	-7517
रोकथाम	-7518
लोकसभा	-7519
वर्तनी	-7520
वाशिंग	-7521
विकृति	-7522
विनम्र	-7523
विभक्त	-7524
वृद्धा	-7525
शाखाओं	-7526
शृंखला	-7527
सन्देश	-7528
समझाया	-7529
सल्तनत	-7530
सहभागी	-7531
साक्षा	-7532
सार्थक	-7533
सिक्का	-7534
सुन्दर	-7535
सेनाओं	-7536
सेवानि	-7537
स्टिंग	-7538
स्नायु	-7539
स्वप्न	-7540
स्वभाव	-7541
स्वरुप	-7542
स्वर्ण	-7543
ंत्रिकी	-7544
अकादेमी	-7545
अनुषंगी	-7546
अफ्रीकी	-7547
कम्प्यू	-7548
करतूतों	-7549
कामयाबी	-7550
किताबों	-7551
ख्तियार	-7552
ख्वाहिश	-7553
गणतंत्र	-7554
ग्रंथों	-7555
तापूर्ण	-7556
निकोबार	-7557
निम्नतर	-7558
परिचालन	-7559
परिषदों	-7560
पात्रता	-7561
पात्रों	-7562
पुकारते	-7563
पैदावार	-7564
पोतन्ना	-7565
प्रतिबि	-7566
प्रदाता	-7567
प्रशासक	-7568
बेटियाँ	-7569
ब्राजील	-7570
मर्यादा	-7571
महासागर	-7572
मिश्रित	-7573
मुख्यतः	-7574
मुद्रित	-7575
मैदानों	-7576
यूनिटों	-7577
रणनीतिक	-7578
वायुयान	-7579
वैचारिक	-7580
वैधानिक	-7581
संग्रहण	-7582
संतुलित	-7583
संभालने	-7584
सब्सिडी	-7585
समुच्चय	-7586
सलाहकार	-7587
सिलसिले	-7588
सुचरिता	-7589
सुलेमान	-7590
सोसाइटी	-7591
सौंदर्य	-7592
स्ट्रीम	-7593
▁¦1000¦	-7594
▁¦2003¦	-7595
▁¦2004¦	-7596
अग्रेषित	-7597
अतिथियों	-7598
अधिग्रहण	-7599
अधिवक्ता	-7600
अहमदाबाद	-7601
ईमानवाले	-7602
उत्कीर्ण	-7603
उन्होनें	-7604
उल्लिखित	-7605
ऑपरेटिंग	-7606
कहानियों	-7607
कामगारों	-7608
कृतज्ञता	-7609
कोशिकाओं	-7610
क्रिस्टल	-7611
छत्तीसगढ	-7612
जानबूझकर	-7613
ज्यादातर	-7614
दिलचस्पी	-7615
दूरसंचार	-7616
नियन्त्र	-7617
निर्माता	-7618
परंपराओं	-7619
प्रख्यात	-7620
प्रत्यर्	-7621
माध्यमिक	-7622
मूत्राशय	-7623
यांत्रिक	-7624
राजकुमार	-7625
राष्ट्री	-7626
लक्ष्यों	-7627
वाशिंगटन	-7628
विज्ञानी	-7629
विज्ञापन	-7630
विधायिका	-7631
शीर्षिका	-7632
श्रीलंका	-7633
संकल्पना	-7634
संरक्षित	-7635
समस्याएं	-7636
समाजवादी	-7637
सम्पत्ति	-7638
सहभागिता	-7639
साझीदारी	-7640
स्वेच्छा	-7641
.09.2011¦	-7642
अतिमानसिक	-7643
अधिनिर्णय	-7644
अभिवृद्धि	-7645
आवेदनपत्र	-7646
उद्यमियों	-7647
एजेंसियों	-7648
कर्तव्यों	-7649
किलोग्राम	-7650
केन्द्रित	-7651
क्षेत्रफल	-7652
गिरफ्तारी	-7653
नकारात्मक	-7654
निर्देशित	-7655
प्रतिज्ञा	-7656
प्रोद्भूत	-7657
फरमाबरदार	-7658
विवेकानंद	-7659
व्याख्यान	-7660
संभावनाएं	-7661
सत्याग्रह	-7662
सम्प्रदाय	-7663
सहयोगियों	-7664
सांख्यिकी	-7665
साझीदारों	-7666
सामुदायिक	-7667
सिद्धान्त	-7668
स्वतन्त्र	-7669
translator	-7670
अपेक्षाकृत	-7671
उत्कृष्टता	-7672
उपभोक्ताओं	-7673
क्लिपबोर्ड	-7674
निर्माताओं	-7675
पारदर्शिता	-7676
प्रभावशाली	-7677
प्रावधानों	-7678
बांग्लादेश	-7679
मजिस्ट्रेट	-7680
मार्गदर्शक	-7681
अफगानिस्तान	-7682
कार्यकलापों	-7683
कार्यपालिका	-7684
हस्ताक्षरित	-7685
अत्याचारियों	-7686
-3	-7687
-4	-7688
.3	-7689
.6	-7690
85	-7691
ab	-7692
af	-7693
au	-7694
ci	-7695
cs	-7696
em	-7697
ew	-7698
gi	-7699
gu	-7700
jo	-7701
pi	-7702
sl	-7703
wc	-7704
ँक	-7705
ऊन	-7706
कख	-7707
झल	-7708
ढी	-7709
तव	-7710
थॉ	-7711
नफ	-7712
फड	-7713
यड	-7714
रं	-7715
वू	-7716
शव	-7717
षड	-7718
सऋ	-7719
हब	-7720
़े	-7721
िए	-7722
िग	-7723
ीज	-7724
ीर	-7725
ुआ	-7726
ूद	-7727
ेए	-7728
३०	-7729
▁|	-7730
▁~	-7731
.01	-7732
0-1	-7733
15¦	-7734
200	-7735
68¦	-7736
7-0	-7737
9-2	-7738
but	-7739
cla	-7740
dom	-7741
dow	-7742
fit	-7743
ish	-7744
mac	-7745
nia	-7746
one	-7747
ope	-7748
rat	-7749
see	-7750
ंटा	-7751
अंट	-7752
अड्	-7753
अधू	-7754
अमन	-7755
अरे	-7756
अहि	-7757
आइस	-7758
आईए	-7759
आदत	-7760
आधा	-7761
आधि	-7762
आधे	-7763
आन्	-7764
आसि	-7765
इधर	-7766
इना	-7767
ईएस	-7768
उच्	-7769
उजा	-7770
उथल	-7771
उलझ	-7772
एटर	-7773
एन्	-7774
एस्	-7775
ऑटो	-7776
कप्	-7777
कमर	-7778
काई	-7779
काज	-7780
कीं	-7781
¦	-7782
▁	-7783
ा	-7784
क	-7785
र	-7786
े	-7787
्	-7788
न	-7789
ि	-7790
स	-7791
त	-7792
ह	-7793
ं	-7794
ी	-7795
म	-7796
ो	-7797
य	-7798
प	-7799
ल	-7800
व	-7801
द	-7802
ज	-7803
ु	-7804
ग	-7805
ब	-7806
ै	-7807
अ	-7808
श	-7809
ए	-7810
च	-7811
उ	-7812
भ	-7813
ू	-7814
़	-7815
।	-7816
ट	-7817
,	-7818
थ	-7819
औ	-7820
ध	-7821
ख	-7822
आ	-7823
ष	-7824
ड	-7825
इ	-7826
ण	-7827
फ	-7828
(	-7829
)	-7830
.	-7831
ई	-7832
-	-7833
छ	-7834
ँ	-7835
1	-7836
ौ	-7837
ृ	-7838
0	-7839
ओ	-7840
ठ	-7841
a	-7842
e	-7843
2	-7844
i	-7845
घ	-7846
झ	-7847
t	-7848
ऐ	-7849
n	-7850
à	-7851
𐋇	-7852
o	-7853
s	-7854
ढ	-7855
¤	-7856
r	-7857
ॉ	-7858
ः	-7859
"	-7860
4	-7861
9	-7862
3	-7863
/	-7864
l	-7865
m	-7866
c	-7867
5	-7868
p	-7869
?	-7870
ञ	-7871
'	-7872
d	-7873
;	-7874
%	-7875
6	-7876
8	-7877
h	-7878
:	-7879
ऊ	-7880
7	-7881
_	-7882
u	-7883
b	-7884
𐊣	-7885
𐊼	-7886
g	-7887
y	-7888
ऑ	-7889
!	-7890
¥	-7891
‍	-7892
ऋ	-7893
k	-7894
f	-7895
०	-7896
w	-7897
१	-7898
#	-7899
v	-7900
‘	-7901
”	-7902
’	-7903
>	-7904
⁄	-7905
&	-7906
२	-7907
x	-7908
“	-7909
<	-7910
	-7911
९	-7912
३	-7913
°	-7914
५	-7915
	-7916
–	-7917
	-7918
	-7919
६	-7920
z	-7921
८	-7922
j	-7923
४	-7924
¿	-7925
@	-7926
+	-7927
̧	-7928
ॅ	-7929
q	-7930
{	-7931
̈	-7932
७	-7933
\	-7934
}	-7935
]	-7936
̄	-7937
[	-7938
®	-7939
॰	-7940
ङ	-7941
μ	-7942
	-7943
$	-7944
«	-7945
	-7946
	-7947
¡	-7948
¶	-7949
—	-7950
	-7951
=	-7952
¬	-7953
	-7954
	-7955
	-7956
ऍ	-7957
ॆ	-7958
	-7959
ॊ	-7960
ळ	-7961
|	-7962
~	-7963
	-7964
	-7965
·	-7966
é	-7967
*	-7968
	-7969
£	-7970
©	-7971
॥	-7972
	-7973
§	-7974
ऎ	-7975
`	-7976
¢	-7977
	-7978
	-7979
̃	-7980
	-7981
	-7982
	-7983
	-7984
	-7985
×	-7986
î	-7987
ò	-7988
þ	-7989
ą	-7990
ĺ	-7991
ş	-7992
ॄ	-7993
॓	-7994
‐	-7995
₹	-7996
