<pad>	0
</s>	0
<unk>	0
▁s	-0
de	-1
▁h	-2
en	-3
▁o	-4
ll	-5
▁f	-6
an	-7
ch	-8
ar	-9
▁de	-10
er	-11
▁och	-12
▁t	-13
▁m	-14
▁d	-15
tt	-16
om	-17
▁v	-18
in	-19
ör	-20
är	-21
▁a	-22
▁b	-23
ig	-24
▁i	-25
ill	-26
on	-27
ade	-28
▁för	-29
▁sk	-30
▁g	-31
ag	-32
▁k	-33
ck	-34
▁till	-35
▁l	-36
st	-37
▁han	-38
et	-39
▁e	-40
ra	-41
än	-42
na	-43
▁u	-44
or	-45
ed	-46
▁som	-47
▁p	-48
▁j	-49
el	-50
der	-51
▁H	-52
▁n	-53
▁att	-54
▁så	-55
all	-56
▁st	-57
un	-58
▁är	-59
▁O	-60
ing	-61
▁en	-62
ån	-63
▁den	-64
▁D	-65
▁skall	-66
da	-67
▁det	-68
▁jag	-69
▁I	-70
cke	-71
▁J	-72
▁Och	-73
▁på	-74
ol	-75
▁av	-76
▁r	-77
▁vi	-78
▁icke	-79
pp	-80
▁var	-81
iv	-82
▁hon	-83
▁S	-84
ER	-85
RE	-86
ERRE	-87
▁med	-88
▁HERRE	-89
it	-90
sa	-91
▁HERREN	-92
▁all	-93
ud	-94
▁har	-95
▁M	-96
▁ö	-97
kt	-98
äl	-99
▁bl	-100
sk	-101
▁dem	-102
▁honom	-103
åt	-104
▁»	-105
▁du	-106
av	-107
▁fr	-108
ad	-109
es	-110
▁ut	-111
ft	-112
us	-113
äg	-114
▁G	-115
al	-116
▁sin	-117
▁upp	-118
and	-119
ot	-120
as	-121
ver	-122
▁där	-123
itt	-124
am	-125
år	-126
den	-127
▁mig	-128
▁kom	-129
▁om	-130
ung	-131
at	-132
▁in	-133
ss	-134
▁sig	-135
▁dig	-136
▁A	-137
id	-138
åg	-139
rä	-140
▁sade	-141
▁din	-142
▁eder	-143
▁Gud	-144
.»	-145
▁över	-146
▁hade	-147
för	-148
els	-149
▁hans	-150
▁min	-151
em	-152
fter	-153
▁åt	-154
som	-155
ro	-156
▁komm	-157
lig	-158
are	-159
re	-160
▁skol	-161
▁då	-162
ur	-163
onung	-164
▁hav	-165
▁be	-166
tta	-167
ka	-168
▁konung	-169
olk	-170
▁alla	-171
▁Men	-172
ning	-173
os	-174
▁man	-175
änn	-176
▁folk	-177
ort	-178
▁bliv	-179
▁E	-180
ull	-181
▁ett	-182
▁från	-183
sra	-184
erna	-185
ande	-186
▁såsom	-187
mm	-188
het	-189
▁nu	-190
▁Isra	-191
ff	-192
▁när	-193
ev	-194
▁br	-195
▁säg	-196
▁efter	-197
ri	-198
ätt	-199
▁någ	-200
▁sj	-201
▁sl	-202
var	-203
▁bar	-204
ram	-205
ller	-206
▁T	-207
äm	-208
▁allt	-209
öra	-210
arna	-211
▁Då	-212
▁un	-213
ja	-214
▁hel	-215
▁skola	-216
▁vad	-217
ik	-218
▁ty	-219
▁tj	-220
il	-221
▁N	-222
ång	-223
▁men	-224
ön	-225
ens	-226
öd	-227
▁dag	-228
▁hava	-229
od	-230
▁barn	-231
▁son	-232
▁ock	-233
ne	-234
▁vid	-235
ras	-236
▁an	-237
ta	-238
▁än	-239
▁må	-240
yn	-241
▁fram	-242
▁mot	-243
▁B	-244
▁giv	-245
▁or	-246
▁sina	-247
▁hus	-248
▁deras	-249
▁hö	-250
▁skull	-251
att	-252
og	-253
isk	-254
▁se	-255
▁detta	-256
▁vill	-257
ick	-258
iga	-259
▁vil	-260
▁HERRENS	-261
▁gj	-262
▁tal	-263
ab	-264
ste	-265
▁oss	-266
▁tjän	-267
fr	-268
ärd	-269
edan	-270
ld	-271
enom	-272
yck	-273
▁dö	-274
▁gå	-275
ak	-276
▁Israels	-277
▁Ty	-278
▁eller	-279
▁sitt	-280
▁K	-281
▁få	-282
ast	-283
dra	-284
▁under	-285
▁vara	-286
inn	-287
▁låt	-288
▁säger	-289
ut	-290
äd	-291
andra	-292
▁mitt	-293
▁Så	-294
▁na	-295
▁land	-296
▁V	-297
▁F	-298
yg	-299
te	-300
▁vor	-301
▁å	-302
▁äro	-303
▁själ	-304
▁hj	-305
från	-306
▁här	-307
▁genom	-308
▁göra	-309
▁dina	-310
▁tr	-311
▁skulle	-312
▁bliva	-313
uda	-314
▁blev	-315
▁komma	-316
äng	-317
ader	-318
äll	-319
äder	-320
▁någon	-321
nen	-322
▁utan	-323
amm	-324
▁hu	-325
is	-326
ingen	-327
ans	-328
▁rätt	-329
ffer	-330
ken	-331
▁svar	-332
▁männ	-333
ska	-334
dan	-335
▁ar	-336
▁ned	-337
ät	-338
ukt	-339
▁fö	-340
▁voro	-341
▁sön	-342
eb	-343
orde	-344
▁Jer	-345
aga	-346
▁hen	-347
▁först	-348
▁bort	-349
▁dess	-350
ga	-351
▁Her	-352
▁hör	-353
▁väl	-354
avid	-355
▁hand	-356
del	-357
else	-358
▁konungen	-359
▁David	-360
ott	-361
va	-362
▁jor	-363
im	-364
▁dr	-365
▁ord	-366
sal	-367
▁beg	-368
▁syn	-369
▁förb	-370
äkt	-371
▁kun	-372
▁folket	-373
▁människ	-374
▁ur	-375
▁ber	-376
ssa	-377
▁skolen	-378
åd	-379
äst	-380
▁ju	-381
▁ditt	-382
▁P	-383
ände	-384
op	-385
gon	-386
ighet	-387
▁inför	-388
åll	-389
▁Guds	-390
▁hela	-391
▁Där	-392
ose	-393
ren	-394
▁väg	-395
▁Jes	-396
▁ifrån	-397
ann	-398
▁De	-399
imm	-400
▁svarade	-401
▁sv	-402
▁mina	-403
▁andra	-404
mn	-405
räst	-406
▁Israel	-407
▁När	-408
▁Han	-409
▁pl	-410
lj	-411
▁jorden	-412
▁söner	-413
ligen	-414
▁ingen	-415
▁dessa	-416
ul	-417
så	-418
akt	-419
▁L	-420
--	-421
str	-422
▁namn	-423
▁brö	-424
▁Jag	-425
▁bland	-426
▁fört	-427
▁kl	-428
pt	-429
▁fl	-430
▁kan	-431
▁--	-432
▁något	-433
▁tillb	-434
io	-435
▁int	-436
▁tv	-437
▁gick	-438
▁lev	-439
▁Jo	-440
▁hög	-441
si	-442
ara	-443
aden	-444
▁Juda	-445
?»	-446
▁fader	-447
eg	-448
▁sedan	-449
▁sp	-450
▁'	-451
färd	-452
kte	-453
inna	-454
▁lik	-455
offer	-456
▁tjänare	-457
▁bo	-458
▁giva	-459
▁hjär	-460
det	-461
änder	-462
▁gjorde	-463
ia	-464
nes	-465
▁Jeru	-466
sam	-467
uru	-468
éerna	-469
salem	-470
▁vår	-471
sm	-472
ring	-473
▁män	-474
andet	-475
und	-476
▁blivit	-477
▁kommer	-478
▁Jerusalem	-479
▁tog	-480
▁Jesus	-481
nar	-482
ygg	-483
▁präst	-484
▁henne	-485
▁Ab	-486
▁år	-487
▁mer	-488
igt	-489
▁läg	-490
ob	-491
▁edra	-492
ov	-493
ats	-494
rof	-495
gy	-496
gypt	-497
skap	-498
▁tid	-499
la	-500
äck	-501
immel	-502
▁ej	-503
▁säga	-504
▁on	-505
▁gör	-506
aka	-507
▁får	-508
efter	-509
ek	-510
▁frukt	-511
▁liv	-512
▁därför	-513
rö	-514
▁Mose	-515
▁himmel	-516
▁Ja	-517
▁trä	-518
▁ögon	-519
▁Herren	-520
▁lät	-521
▁al	-522
▁gjort	-523
▁ev	-524
▁förg	-525
▁själv	-526
▁R	-527
ker	-528
▁denna	-529
nade	-530
▁sju	-531
▁vet	-532
▁två	-533
rar	-534
gen	-535
ända	-536
rofet	-537
▁åter	-538
▁vatt	-539
▁gr	-540
▁håll	-541
▁landet	-542
▁stad	-543
ist	-544
ju	-545
ock	-546
▁hos	-547
▁sådan	-548
des	-549
undra	-550
▁tillbaka	-551
▁tre	-552
▁bå	-553
▁profet	-554
ära	-555
orna	-556
ningar	-557
▁gav	-558
▁rättfärd	-559
▁låta	-560
eh	-561
▁kv	-562
aren	-563
samm	-564
▁sm	-565
▁rö	-566
▁släkt	-567
nat	-568
▁Om	-569
stad	-570
▁lag	-571
▁stor	-572
iterna	-573
▁Egypt	-574
hö	-575
ärl	-576
▁dagen	-577
▁hundra	-578
ets	-579
▁äl	-580
aul	-581
yr	-582
▁ja	-583
▁Den	-584
▁haven	-585
▁he	-586
liga	-587
ånga	-588
▁huru	-589
▁myck	-590
▁bes	-591
▁ansi	-592
ord	-593
▁vå	-594
ännu	-595
▁ännu	-596
ron	-597
▁taga	-598
yd	-599
▁her	-600
▁tag	-601
▁vis	-602
▁intet	-603
ug	-604
▁hustr	-605
usen	-606
▁såg	-607
▁El	-608
▁kommit	-609
lighet	-610
sl	-611
ött	-612
riv	-613
nad	-614
▁bröder	-615
ligt	-616
▁fråg	-617
▁lö	-618
▁ställ	-619
▁ä	-620
lar	-621
ingo	-622
rist	-623
▁gl	-624
▁huv	-625
opp	-626
uld	-627
▁satt	-628
▁samm	-629
▁tusen	-630
rog	-631
▁Se	-632
▁bliver	-633
ej	-634
ter	-635
▁bet	-636
▁dit	-637
▁omk	-638
pa	-639
▁em	-640
▁höra	-641
▁stod	-642
▁åstad	-643
jur	-644
▁hem	-645
▁berg	-646
▁denne	-647
iss	-648
▁Du	-649
agt	-650
▁kr	-651
▁vin	-652
▁kvar	-653
▁sö	-654
▁förd	-655
▁fem	-656
▁sto	-657
unn	-658
ling	-659
se	-660
ige	-661
ält	-662
▁ti	-663
rade	-664
▁ända	-665
▁str	-666
▁full	-667
▁emot	-668
▁staden	-669
est	-670
▁kall	-671
▁fick	-672
▁många	-673
▁död	-674
▁gud	-675
▁ansikte	-676
▁rik	-677
▁också	-678
ånd	-679
▁mån	-680
▁förl	-681
▁omkring	-682
▁Krist	-683
▁kunna	-684
▁talade	-685
ika	-686
▁rop	-687
änd	-688
▁bef	-689
▁finn	-690
▁hjärta	-691
bar	-692
▁kro	-693
▁fast	-694
▁försam	-695
ätta	-696
ma	-697
▁kommo	-698
.'	-699
ster	-700
▁himmelen	-701
mar	-702
▁går	-703
▁allen	-704
▁ol	-705
▁jäm	-706
▁äta	-707
▁vatten	-708
▁stå	-709
▁synd	-710
ien	-711
nan	-712
▁eftersom	-713
bet	-714
ret	-715
Jag	-716
▁eld	-717
▁tro	-718
▁fäder	-719
▁plats	-720
sammans	-721
▁mycket	-722
▁bj	-723
▁lär	-724
▁dagar	-725
▁fall	-726
▁hålla	-727
räck	-728
▁städer	-729
▁bro	-730
▁föd	-731
ytt	-732
ades	-733
oder	-734
▁utg	-735
▁drog	-736
▁sände	-737
änt	-738
▁Jak	-739
▁vitt	-740
▁sid	-741
je	-742
▁måste	-743
▁människor	-744
▁Saul	-745
dom	-746
▁förs	-747
▁bed	-748
▁förde	-749
▁slag	-750
ib	-751
▁ska	-752
▁sagt	-753
▁Jakob	-754
trä	-755
▁offer	-756
▁döda	-757
▁ly	-758
▁tala	-759
▁huvud	-760
▁givit	-761
▁fräl	-762
▁läng	-763
▁nåd	-764
ers	-765
▁Seb	-766
▁alt	-767
ger	-768
▁All	-769
eder	-770
▁Sal	-771
▁hustru	-772
kl	-773
▁best	-774
▁gång	-775
▁mun	-776
▁Sedan	-777
▁hennes	-778
sen	-779
väl	-780
▁För	-781
yll	-782
▁og	-783
▁blod	-784
bl	-785
▁vare	-786
jung	-787
▁tillh	-788
▁bud	-789
▁guld	-790
▁händer	-791
ons	-792
▁helg	-793
▁broder	-794
ack	-795
▁Därför	-796
yra	-797
▁off	-798
erligen	-799
▁stora	-800
▁Därefter	-801
▁näm	-802
▁vre	-803
▁allenast	-804
▁oren	-805
▁uppen	-806
öj	-807
▁lov	-808
▁hörde	-809
sta	-810
kom	-811
▁Ah	-812
▁sten	-813
▁heller	-814
▁lig	-815
▁följ	-816
▁ren	-817
rätt	-818
▁moder	-819
äk	-820
▁svärd	-821
dens	-822
▁reg	-823
▁våra	-824
▁hjärt	-825
▁kvinn	-826
▁samma	-827
▁arv	-828
▁förv	-829
ir	-830
▁både	-831
▁ville	-832
um	-833
▁Aron	-834
▁sätt	-835
▁finnes	-836
på	-837
▁Det	-838
rick	-839
▁Var	-840
▁tän	-841
net	-842
ifrån	-843
▁dock	-844
▁prästen	-845
ått	-846
▁vilja	-847
▁kött	-848
▁dom	-849
sig	-850
tio	-851
▁vilken	-852
ida	-853
edom	-854
ärningar	-855
ett	-856
▁vä	-857
▁fien	-858
▁gott	-859
▁uppenbar	-860
▁fur	-861
▁fött	-862
▁själva	-863
öt	-864
▁kunde	-865
gel	-866
änna	-867
▁san	-868
▁port	-869
▁and	-870
▁röst	-871
till	-872
lade	-873
▁natt	-874
▁drick	-875
▁häm	-876
▁herre	-877
▁Egypten	-878
ars	-879
▁föra	-880
▁lj	-881
▁arbet	-882
▁varit	-883
fö	-884
▁sil	-885
isa	-886
▁An	-887
ål	-888
ark	-889
▁Kristus	-890
öm	-891
▁tron	-892
▁blevo	-893
▁kropp	-894
erk	-895
▁sam	-896
▁tjug	-897
▁försk	-898
▁En	-899
▁gingo	-900
red	-901
▁nämligen	-902
eck	-903
udakt	-904
agen	-905
▁räd	-906
▁höv	-907
orgon	-908
otter	-909
▁Detta	-910
▁bränn	-911
▁framför	-912
▁ogudakt	-913
sten	-914
▁förk	-915
▁stam	-916
uk	-917
▁kärl	-918
igen	-919
▁vilka	-920
raft	-921
▁akt	-922
▁Salom	-923
ub	-924
▁gläd	-925
▁veta	-926
▁födde	-927
▁strid	-928
edel	-929
▁rättfärdighet	-930
▁ande	-931
▁morgon	-932
▁konungens	-933
sb	-934
▁verk	-935
▁U	-936
▁Seba	-937
▁silver	-938
era	-939
jär	-940
ven	-941
▁go	-942
▁fatt	-943
▁kast	-944
▁begyn	-945
▁heliga	-946
▁finna	-947
▁giver	-948
▁välsig	-949
éernas	-950
▁ont	-951
▁makt	-952
▁sidan	-953
ilist	-954
▁miss	-955
▁satte	-956
▁fördär	-957
▁hed	-958
▁dotter	-959
org	-960
▁fått	-961
alt	-962
▁bygg	-963
▁hjäl	-964
ningen	-965
▁annan	-966
▁skriv	-967
▁Jos	-968
▁Sam	-969
▁dött	-970
▁träd	-971
▁förm	-972
▁tiden	-973
dar	-974
vid	-975
äpp	-976
▁högt	-977
▁kraft	-978
▁filist	-979
»,	-980
ell	-981
ham	-982
ile	-983
tal	-984
onde	-985
▁förbund	-986
▁beh	-987
▁Bet	-988
▁draga	-989
▁Fara	-990
▁frågade	-991
▁läm	-992
▁båda	-993
▁älsk	-994
▁jämte	-995
aret	-996
▁slog	-997
▁vrede	-998
▁Egyptens	-999
sar	-1000
iten	-1001
ingar	-1002
▁onda	-1003
▁bära	-1004
▁kläder	-1005
▁lärjung	-1006
nas	-1007
▁På	-1008
▁del	-1009
ua	-1010
ipp	-1011
▁öpp	-1012
▁förr	-1013
▁undan	-1014
▁Sebaot	-1015
▁far	-1016
▁ing	-1017
▁funn	-1018
star	-1019
ycka	-1020
▁jud	-1021
▁vän	-1022
▁fång	-1023
▁havet	-1024
▁uppst	-1025
▁arvedel	-1026
pel	-1027
▁ök	-1028
▁hit	-1029
▁föll	-1030
ina	-1031
▁låg	-1032
▁varandra	-1033
▁drä	-1034
▁fyra	-1035
▁leva	-1036
▁ljus	-1037
abb	-1038
▁Man	-1039
dat	-1040
ellan	-1041
ärning	-1042
▁mannen	-1043
här	-1044
jut	-1045
▁sex	-1046
▁förn	-1047
▁barns	-1048
▁därefter	-1049
onen	-1050
▁vägen	-1051
änner	-1052
▁Fader	-1053
▁sådant	-1054
fl	-1055
udit	-1056
unt	-1057
▁vände	-1058
▁Ben	-1059
▁mör	-1060
▁råd	-1061
ännen	-1062
giv	-1063
▁Sim	-1064
▁dör	-1065
▁främ	-1066
▁lång	-1067
▁likas	-1068
▁talat	-1069
▁tjugu	-1070
osef	-1071
ttio	-1072
▁lade	-1073
oning	-1074
▁bröd	-1075
▁ske	-1076
▁befall	-1077
▁vidare	-1078
▁gärningar	-1079
Vad	-1080
gar	-1081
med	-1082
▁höj	-1083
raham	-1084
▁djur	-1085
▁höll	-1086
▁Josef	-1087
▁förkun	-1088
tte	-1089
vo	-1090
▁eg	-1091
▁prästerna	-1092
▁Bab	-1093
▁vem	-1094
▁äld	-1095
▁öknen	-1096
▁Davids	-1097
▁Salomo	-1098
essa	-1099
▁ära	-1100
▁låtit	-1101
▁vända	-1102
▁sönder	-1103
▁fiender	-1104
▁tjänst	-1105
ias	-1106
▁el	-1107
▁ov	-1108
ästa	-1109
örd	-1110
▁fann	-1111
▁ären	-1112
▁Abraham	-1113
▁öv	-1114
▁står	-1115
▁vilk	-1116
▁förut	-1117
▁döttrar	-1118
▁skaff	-1119
▁tack	-1120
▁tillsammans	-1121
gå	-1122
▁runt	-1123
▁några	-1124
▁härlighet	-1125
stra	-1126
▁fly	-1127
▁for	-1128
Du	-1129
ah	-1130
▁teck	-1131
liv	-1132
▁Si	-1133
arnas	-1134
▁alnar	-1135
▁mellan	-1136
Var	-1137
▁fyr	-1138
▁bjudit	-1139
ser	-1140
▁skö	-1141
▁helgedom	-1142
▁människa	-1143
pen	-1144
▁tung	-1145
▁offra	-1146
▁slakt	-1147
▁brännoffer	-1148
▁bod	-1149
▁stra	-1150
▁förstånd	-1151
sh	-1152
jas	-1153
▁sätta	-1154
▁bön	-1155
▁drag	-1156
▁bodde	-1157
▁reger	-1158
▁länge	-1159
▁missg	-1160
▁krig	-1161
ust	-1162
▁sak	-1163
▁igen	-1164
▁stör	-1165
▁Ef	-1166
▁tem	-1167
pl	-1168
rus	-1169
▁Isa	-1170
▁mur	-1171
▁värl	-1172
▁likasom	-1173
▁Dessa	-1174
åller	-1175
rå	-1176
res	-1177
ordan	-1178
▁leviterna	-1179
▁veder	-1180
▁ena	-1181
▁tio	-1182
▁ropade	-1183
atan	-1184
▁hövd	-1185
kall	-1186
▁grä	-1187
▁lägga	-1188
▁kvinna	-1189
ok	-1190
▁ås	-1191
elser	-1192
▁dricka	-1193
▁Josua	-1194
Så	-1195
ng	-1196
rig	-1197
▁Vad	-1198
▁tol	-1199
▁gått	-1200
!»	-1201
ård	-1202
ömm	-1203
▁le	-1204
▁Babel	-1205
▁låter	-1206
▁medan	-1207
▁äldste	-1208
▁hjärtan	-1209
kar	-1210
▁fot	-1211
ältet	-1212
▁fötter	-1213
ana	-1214
jorde	-1215
jam	-1216
oab	-1217
ämm	-1218
ende	-1219
hel	-1220
ycken	-1221
▁därav	-1222
▁fingo	-1223
jen	-1224
jer	-1225
sman	-1226
▁orätt	-1227
▁alltså	-1228
▁natten	-1229
▁bor	-1230
▁vart	-1231
▁fräls	-1232
▁släkte	-1233
äv	-1234
das	-1235
▁ät	-1236
▁förskräck	-1237
Se	-1238
▁sy	-1239
▁kal	-1240
▁altaret	-1241
iel	-1242
vis	-1243
▁by	-1244
▁god	-1245
▁döden	-1246
▁gudar	-1247
fta	-1248
iska	-1249
▁pri	-1250
▁skri	-1251
▁Farao	-1252
▁därpå	-1253
▁redan	-1254
▁första	-1255
▁månaden	-1256
▁inv	-1257
men	-1258
▁dra	-1259
▁utr	-1260
▁hört	-1261
▁besitt	-1262
▁vittnes	-1263
åda	-1264
▁rike	-1265
▁huset	-1266
▁ängel	-1267
▁överste	-1268
sp	-1269
▁red	-1270
▁trö	-1271
▁faders	-1272
▁skam	-1273
▁därtill	-1274
▁jordens	-1275
▁kallade	-1276
▁vittnesb	-1277
sö	-1278
fyll	-1279
▁räk	-1280
▁bröt	-1281
▁goda	-1282
▁häl	-1283
▁mar	-1284
ammal	-1285
▁konungar	-1286
edje	-1287
▁kor	-1288
▁utv	-1289
▁ytt	-1290
jamin	-1291
ås	-1292
rev	-1293
▁säd	-1294
▁vag	-1295
▁sett	-1296
▁edert	-1297
▁tredje	-1298
ningarna	-1299
ti	-1300
fte	-1301
höv	-1302
ygga	-1303
elsen	-1304
▁Efra	-1305
enskap	-1306
▁tillhör	-1307
lö	-1308
▁hop	-1309
▁hopp	-1310
▁stygg	-1311
▁äg	-1312
▁ung	-1313
▁hung	-1314
▁stri	-1315
▁folken	-1316
elset	-1317
▁tolv	-1318
▁vand	-1319
lingen	-1320
▁falla	-1321
▁alltid	-1322
▁ligger	-1323
▁därifrån	-1324
▁Herre	-1325
▁Jordan	-1326
off	-1327
uel	-1328
▁ör	-1329
▁Nej	-1330
bland	-1331
▁togo	-1332
▁helig	-1333
▁hjälp	-1334
▁marken	-1335
▁fördärv	-1336
ela	-1337
håll	-1338
▁ser	-1339
▁svär	-1340
▁våld	-1341
▁högra	-1342
arn	-1343
▁gra	-1344
öl	-1345
oden	-1346
▁nöd	-1347
▁fjär	-1348
▁annat	-1349
▁lever	-1350
bb	-1351
ikt	-1352
följ	-1353
▁slut	-1354
▁känna	-1355
▁talar	-1356
▁glädje	-1357
ärde	-1358
▁sång	-1359
▁visa	-1360
▁Efraim	-1361
fall	-1362
ften	-1363
▁övr	-1364
nelse	-1365
innerligen	-1366
▁Ä	-1367
▁ih	-1368
▁fråga	-1369
▁tagit	-1370
▁förlåt	-1371
▁tjänar	-1372
▁evinnerligen	-1373
▁inb	-1374
▁sänt	-1375
▁stodo	-1376
▁ibland	-1377
▁vandra	-1378
höj	-1379
ost	-1380
▁Av	-1381
anna	-1382
skil	-1383
▁före	-1384
▁kärlek	-1385
▁levande	-1386
Det	-1387
aal	-1388
rag	-1389
▁avg	-1390
▁led	-1391
▁lej	-1392
▁boskap	-1393
▁håller	-1394
▁tempel	-1395
esa	-1396
▁bär	-1397
▁världen	-1398
vor	-1399
▁Fr	-1400
▁ny	-1401
ldrig	-1402
▁kvinnor	-1403
sd	-1404
▁tager	-1405
skar	-1406
smän	-1407
▁Jon	-1408
▁fam	-1409
▁gammal	-1410
▁synder	-1411
▁vishet	-1412
▁besittning	-1413
ant	-1414
eam	-1415
▁sol	-1416
oppar	-1417
ställ	-1418
▁frid	-1419
▁sabb	-1420
▁spis	-1421
▁drogo	-1422
▁ligga	-1423
▁tecken	-1424
▁missgärning	-1425
▁kö	-1426
▁ot	-1427
ryck	-1428
▁Pet	-1429
▁hal	-1430
▁träl	-1431
▁ving	-1432
▁begynte	-1433
uck	-1434
ören	-1435
aulus	-1436
▁bred	-1437
lingar	-1438
▁Paulus	-1439
▁stadgar	-1440
lja	-1441
▁Moab	-1442
▁fröj	-1443
▁jord	-1444
▁sons	-1445
mod	-1446
▁Joh	-1447
▁Benjamin	-1448
▁fara	-1449
▁utrot	-1450
▁vägar	-1451
▁lagen	-1452
▁uppfyll	-1453
▁St	-1454
visa	-1455
▁lika	-1456
▁männen	-1457
▁övriga	-1458
▁släkter	-1459
röv	-1460
▁egen	-1461
▁Petrus	-1462
ädur	-1463
▁fanns	-1464
▁förnimm	-1465
jän	-1466
▁pen	-1467
▁förh	-1468
ligare	-1469
▁Jerem	-1470
▁följde	-1471
äp	-1472
folk	-1473
▁und	-1474
präst	-1475
▁steg	-1476
▁lärjungar	-1477
upp	-1478
▁hat	-1479
▁oför	-1480
▁sjun	-1481
▁upph	-1482
▁intill	-1483
▁sådana	-1484
▁förbliv	-1485
▁aft	-1486
▁Ande	-1487
▁skatt	-1488
▁ytter	-1489
▁berget	-1490
annerligen	-1491
fat	-1492
▁Allt	-1493
▁Jesu	-1494
▁grän	-1495
▁Manas	-1496
▁behag	-1497
▁utför	-1498
▁Kristi	-1499
▁finnas	-1500
▁länder	-1501
inga	-1502
▁sky	-1503
▁lott	-1504
▁hemsö	-1505
▁frälsning	-1506
umm	-1507
▁bätt	-1508
▁stället	-1509
▁rättfärdig	-1510
▁överstepräst	-1511
▁ed	-1512
uden	-1513
▁Neb	-1514
▁utt	-1515
offret	-1516
▁fastän	-1517
arm	-1518
ygd	-1519
▁barm	-1520
▁invån	-1521
iternas	-1522
▁förnimma	-1523
',	-1524
rens	-1525
▁rädda	-1526
▁bel	-1527
▁söka	-1528
▁bygga	-1529
▁hämta	-1530
▁varda	-1531
▁vädur	-1532
▁förtör	-1533
▁koppar	-1534
▁olycka	-1535
rott	-1536
▁tor	-1537
▁öde	-1538
ilead	-1539
▁döds	-1540
▁aldrig	-1541
▁uppenbarelset	-1542
aft	-1543
rik	-1544
dade	-1545
▁ben	-1546
▁slå	-1547
larna	-1548
igenom	-1549
▁vattnet	-1550
▁himmelens	-1551
mer	-1552
ran	-1553
kten	-1554
ydde	-1555
▁Huru	-1556
▁häst	-1557
▁olja	-1558
▁strö	-1559
▁fullb	-1560
▁profeten	-1561
▁profeter	-1562
▁Am	-1563
▁däri	-1564
▁kläd	-1565
▁lamm	-1566
annade	-1567
▁menighet	-1568
Om	-1569
▁Låt	-1570
▁bry	-1571
▁dju	-1572
ången	-1573
▁Joab	-1574
▁uppt	-1575
▁andre	-1576
▁stort	-1577
▁sända	-1578
▁arbete	-1579
▁övergiv	-1580
föd	-1581
▁Amm	-1582
▁Asa	-1583
▁frukta	-1584
▁furstar	-1585
▁väx	-1586
samma	-1587
▁egypt	-1588
▁Herrens	-1589
▁befallning	-1590
gn	-1591
jäl	-1592
▁In	-1593
älla	-1594
▁fåg	-1595
▁klipp	-1596
▁filistéerna	-1597
ärn	-1598
härt	-1599
▁lju	-1600
▁driv	-1601
▁mörk	-1602
▁tjäna	-1603
▁Har	-1604
▁hette	-1605
▁förrän	-1606
▁trädde	-1607
▁het	-1608
annes	-1609
▁Gilead	-1610
▁trettio	-1611
▁människorna	-1612
ner	-1613
träd	-1614
örde	-1615
▁rök	-1616
▁snar	-1617
▁vakt	-1618
▁Samuel	-1619
ry	-1620
man	-1621
aria	-1622
inne	-1623
▁dal	-1624
▁enda	-1625
▁nära	-1626
▁Efter	-1627
▁lejon	-1628
▁stamm	-1629
▁boning	-1630
▁därmed	-1631
▁skaffa	-1632
▁barmhärt	-1633
De	-1634
vär	-1635
▁sn	-1636
amla	-1637
▁mat	-1638
äckte	-1639
▁områ	-1640
▁vore	-1641
▁träff	-1642
▁berätt	-1643
Her	-1644
bär	-1645
▁ond	-1646
▁Hisk	-1647
▁Isak	-1648
Varför	-1649
▁begär	-1650
▁given	-1651
▁tänkte	-1652
▁Jeremia	-1653
▁hedningarna	-1654
▁nog	-1655
marker	-1656
▁Varför	-1657
▁vittnesbörd	-1658
jöl	-1659
ssy	-1660
▁ro	-1661
bara	-1662
▁nor	-1663
aberna	-1664
▁öster	-1665
▁femtio	-1666
▁förgås	-1667
▁kommen	-1668
▁allasammans	-1669
▁kn	-1670
skur	-1671
slag	-1672
▁Hans	-1673
▁förö	-1674
▁mätt	-1675
▁långt	-1676
▁fyrtio	-1677
▁stannade	-1678
▁Vid	-1679
▁hug	-1680
▁sen	-1681
▁Baal	-1682
▁åker	-1683
▁slags	-1684
sår	-1685
▁ry	-1686
unda	-1687
▁dår	-1688
▁fri	-1689
▁bjöd	-1690
▁tjur	-1691
▁församlade	-1692
ef	-1693
Låt	-1694
app	-1695
int	-1696
opa	-1697
oses	-1698
▁Eli	-1699
▁Ham	-1700
▁Hon	-1701
▁ang	-1702
▁sågo	-1703
▁famil	-1704
▁byggde	-1705
▁Johannes	-1706
▁regering	-1707
▁församling	-1708
▁Nu	-1709
▁arm	-1710
▁dog	-1711
derna	-1712
▁evig	-1713
▁sorg	-1714
▁läger	-1715
▁varför	-1716
▁Manasse	-1717
▁taberna	-1718
ke	-1719
ada	-1720
len	-1721
över	-1722
▁hår	-1723
ierna	-1724
önstr	-1725
▁Alla	-1726
▁inne	-1727
▁förakt	-1728
▁sabbat	-1729
▁hustrur	-1730
▁utgjorde	-1731
ala	-1732
rat	-1733
▁Esa	-1734
▁sik	-1735
▁Dock	-1736
▁lust	-1737
▁Moses	-1738
▁gören	-1739
▁mycken	-1740
▁namnet	-1741
▁judarna	-1742
▁helgedomen	-1743
▁mark	-1744
▁strax	-1745
▁hövding	-1746
.'»	-1747
åga	-1748
▁förf	-1749
▁lyss	-1750
▁sant	-1751
▁grund	-1752
▁förfölj	-1753
▁konungs	-1754
▁spisoffer	-1755
▁profeterna	-1756
läm	-1757
ydd	-1758
▁Vi	-1759
▁yn	-1760
▁gen	-1761
▁Josa	-1762
▁eget	-1763
▁uppl	-1764
▁vårt	-1765
▁Fadern	-1766
▁känner	-1767
▁ställe	-1768
▁ställde	-1769
▁c	-1770
ama	-1771
▁Sk	-1772
fäng	-1773
delse	-1774
▁Sion	-1775
▁lära	-1776
▁stark	-1777
▁område	-1778
▁sjunde	-1779
ckså	-1780
▁mär	-1781
▁tör	-1782
▁bäck	-1783
▁ting	-1784
▁svara	-1785
ämmande	-1786
vå	-1787
eln	-1788
ild	-1789
▁am	-1790
▁bek	-1791
▁jub	-1792
deles	-1793
rätta	-1794
ssyri	-1795
▁gråt	-1796
▁skuld	-1797
▁likväl	-1798
▁syster	-1799
sg	-1800
▁Må	-1801
uset	-1802
angel	-1803
▁läpp	-1804
▁bevar	-1805
▁sitta	-1806
▁solen	-1807
▁Jerusalems	-1808
▁ef	-1809
juta	-1810
äcka	-1811
▁mjöl	-1812
▁evangel	-1813
▁förkunna	-1814
▁människob	-1815
Vi	-1816
Den	-1817
▁bu	-1818
erub	-1819
illa	-1820
utit	-1821
ycke	-1822
▁Dan	-1823
▁äng	-1824
▁skap	-1825
▁skyn	-1826
▁väld	-1827
▁rätta	-1828
▁Jakobs	-1829
▁bedröv	-1830
▁bestäm	-1831
▁tionde	-1832
▁varken	-1833
▁skrivet	-1834
uv	-1835
▁blo	-1836
ändigt	-1837
▁Hiskia	-1838
▁gånger	-1839
▁fruktan	-1840
▁tillhopa	-1841
ind	-1842
rip	-1843
▁Vem	-1844
▁ark	-1845
anter	-1846
smäkt	-1847
▁egna	-1848
▁funnit	-1849
▁kvinnan	-1850
▁överträ	-1851
▁evangeli	-1852
▁främmande	-1853
pte	-1854
utt	-1855
teck	-1856
äste	-1857
▁bad	-1858
▁sär	-1859
▁fäng	-1860
▁star	-1861
▁begav	-1862
▁särskil	-1863
▁regeringsår	-1864
dd	-1865
öda	-1866
salom	-1867
äller	-1868
▁sida	-1869
▁Såsom	-1870
▁levde	-1871
▁flydde	-1872
▁fåfäng	-1873
ea	-1874
gas	-1875
jor	-1876
kia	-1877
män	-1878
▁bak	-1879
▁tan	-1880
HERRE	-1881
▁Ahas	-1882
▁Joja	-1883
▁dörr	-1884
▁välb	-1885
smännen	-1886
▁altare	-1887
▁lägret	-1888
▁skrift	-1889
▁alldeles	-1890
▁syndoffer	-1891
kast	-1892
▁ens	-1893
▁lön	-1894
▁bitt	-1895
▁gåvo	-1896
▁inom	-1897
▁stenar	-1898
▁större	-1899
▁Absalom	-1900
▁sanning	-1901
▁utmarker	-1902
änk	-1903
elek	-1904
▁Min	-1905
▁bör	-1906
▁yng	-1907
▁tukt	-1908
landet	-1909
▁platsen	-1910
▁dyr	-1911
▁pred	-1912
▁finner	-1913
▁förtrö	-1914
▁invånare	-1915
kor	-1916
akar	-1917
jort	-1918
▁mol	-1919
obeam	-1920
▁Också	-1921
▁siklar	-1922
▁strömm	-1923
▁välbeh	-1924
▁förgöra	-1925
▁ogudaktiga	-1926
fly	-1927
lat	-1928
▁besk	-1929
▁föda	-1930
▁vila	-1931
▁skick	-1932
▁floden	-1933
▁högtid	-1934
▁porten	-1935
▁straff	-1936
▁Jonatan	-1937
▁kastade	-1938
▁stammar	-1939
▁älskade	-1940
▁ytterligare	-1941
post	-1942
▁ång	-1943
ården	-1944
▁trol	-1945
▁begra	-1946
▁Ammons	-1947
▁förviss	-1948
▁kunskap	-1949
▁människobarn	-1950
St	-1951
kv	-1952
aja	-1953
far	-1954
fäll	-1955
▁kär	-1956
▁lit	-1957
▁små	-1958
unden	-1959
▁djup	-1960
▁hast	-1961
▁mant	-1962
▁pris	-1963
▁tält	-1964
▁avgud	-1965
▁förbr	-1966
▁överm	-1967
▁portar	-1968
▁Å	-1969
mju	-1970
par	-1971
edde	-1972
reat	-1973
▁Mes	-1974
Herre	-1975
▁skil	-1976
▁bröto	-1977
▁tills	-1978
smannen	-1979
▁jämväl	-1980
▁rätter	-1981
▁samman	-1982
▁Jerobeam	-1983
▁förstföd	-1984
▁morgonen	-1985
▁barmhärtighet	-1986
ift	-1987
▁änd	-1988
reatur	-1989
▁inbygg	-1990
▁uppstå	-1991
äkreatur	-1992
▁undervis	-1993
▁försoning	-1994
▁penningar	-1995
▁fångenskap	-1996
▁filistéernas	-1997
Gå	-1998
▁Ar	-1999
▁ox	-2000
asun	-2001
kade	-2002
▁hor	-2003
▁tunga	-2004
▁handen	-2005
▁slagna	-2006
Ja	-2007
räv	-2008
uta	-2009
änga	-2010
▁Sid	-2011
▁van	-2012
ljest	-2013
▁Kana	-2014
▁besl	-2015
▁döma	-2016
▁just	-2017
▁läto	-2018
▁lögn	-2019
▁väst	-2020
▁lovat	-2021
▁otukt	-2022
▁läppar	-2023
▁fäkreatur	-2024
▁evangelium	-2025
oa	-2026
▁bok	-2027
▁hämt	-2028
▁mäkt	-2029
▁ovan	-2030
▁uppv	-2031
▁avkom	-2032
▁faris	-2033
▁berömm	-2034
▁vilket	-2035
▁fjärran	-2036
▁präster	-2037
▁styggelse	-2038
Vem	-2039
lag	-2040
lev	-2041
▁ra	-2042
▁Är	-2043
▁öd	-2044
asar	-2045
dels	-2046
▁Sela	-2047
▁Sime	-2048
▁mått	-2049
▁Arons	-2050
▁Sauls	-2051
▁fasta	-2052
▁funnos	-2053
▁aftonen	-2054
▁egyptierna	-2055
▁Ö	-2056
Min	-2057
iden	-2058
ädes	-2059
▁Lib	-2060
▁Sik	-2061
▁fal	-2062
▁uppb	-2063
▁vänt	-2064
▁ände	-2065
straff	-2066
▁höllo	-2067
▁innan	-2068
▁träda	-2069
▁åkall	-2070
▁bergen	-2071
▁bättre	-2072
▁förstå	-2073
▁hästar	-2074
▁stanna	-2075
▁förbann	-2076
tid	-2077
▁Lik	-2078
▁ene	-2079
▁Edom	-2080
▁sjuk	-2081
▁viss	-2082
ännisk	-2083
▁antal	-2084
▁därom	-2085
▁köttet	-2086
▁vagnar	-2087
▁uppteck	-2088
▁välbehag	-2089
läg	-2090
tes	-2091
ista	-2092
ukad	-2093
▁Med	-2094
▁pel	-2095
frukt	-2096
srael	-2097
▁Ahab	-2098
▁lagt	-2099
▁ändå	-2100
▁basun	-2101
▁gamla	-2102
▁seger	-2103
▁fullbor	-2104
▁ingången	-2105
».	-2106
För	-2107
fem	-2108
ora	-2109
äda	-2110
dets	-2111
▁Sem	-2112
▁inm	-2113
▁kam	-2114
▁Till	-2115
▁behö	-2116
▁klag	-2117
▁styr	-2118
▁stoft	-2119
▁ostraff	-2120
▁tillbed	-2121
▁överläm	-2122
nu	-2123
sky	-2124
▁Ma	-2125
eras	-2126
▁Hel	-2127
satte	-2128
▁psal	-2129
▁litet	-2130
▁omtal	-2131
▁släpp	-2132
▁därvid	-2133
▁stycken	-2134
▁regerade	-2135
▁ogudaktig	-2136
▁församlingen	-2137
of	-2138
ass	-2139
jäm	-2140
oka	-2141
ria	-2142
drag	-2143
mark	-2144
▁Gib	-2145
▁häp	-2146
▁stö	-2147
▁utb	-2148
▁vär	-2149
flykt	-2150
▁smäl	-2151
▁stav	-2152
▁kasta	-2153
▁eljest	-2154
▁Nebukad	-2155
▁lägrade	-2156
▁lämnade	-2157
▁tabernakl	-2158
kas	-2159
eser	-2160
iske	-2161
verk	-2162
▁Lev	-2163
▁äkt	-2164
▁bord	-2165
▁byte	-2166
▁unga	-2167
HERREN	-2168
männen	-2169
▁elden	-2170
▁skett	-2171
▁fäders	-2172
▁Efraims	-2173
▁rikedom	-2174
▁följande	-2175
▁fördärva	-2176
ulle	-2177
▁gre	-2178
riket	-2179
▁Icke	-2180
▁bety	-2181
imelek	-2182
▁bryta	-2183
▁drabb	-2184
▁hören	-2185
▁kerub	-2186
▁slogo	-2187
▁sökte	-2188
▁trolö	-2189
▁dragit	-2190
▁israel	-2191
▁inbyggare	-2192
▁Be	-2193
edes	-2194
komm	-2195
▁ill	-2196
▁pal	-2197
hövit	-2198
stånd	-2199
▁amor	-2200
▁norr	-2201
▁ropa	-2202
▁druck	-2203
▁sägen	-2204
▁ödmju	-2205
▁allena	-2206
▁kunnen	-2207
▁syndat	-2208
▁älskar	-2209
▁planter	-2210
▁tillika	-2211
▁vingård	-2212
nor	-2213
rov	-2214
lder	-2215
räkt	-2216
▁hov	-2217
▁besp	-2218
▁fyll	-2219
▁goss	-2220
▁järn	-2221
▁moln	-2222
▁stig	-2223
▁stol	-2224
▁tänka	-2225
▁utval	-2226
▁vredes	-2227
▁evighet	-2228
▁vilkens	-2229
▁människors	-2230
ap	-2231
jan	-2232
jat	-2233
oss	-2234
äva	-2235
éer	-2236
örj	-2237
urit	-2238
▁aram	-2239
▁året	-2240
▁bedja	-2241
▁jubel	-2242
▁snart	-2243
▁väsen	-2244
▁inmönstr	-2245
gång	-2246
rakt	-2247
▁akta	-2248
▁orda	-2249
▁blott	-2250
▁lämna	-2251
▁nästa	-2252
▁bergsb	-2253
▁bäcken	-2254
▁ställa	-2255
▁viljen	-2256
▁visste	-2257
▁familjer	-2258
ört	-2259
udet	-2260
▁lovs	-2261
▁skar	-2262
▁stån	-2263
▁öron	-2264
▁Ingen	-2265
▁hjord	-2266
▁stäng	-2267
▁Assyri	-2268
▁domare	-2269
änniskos	-2270
▁rå	-2271
Huru	-2272
anja	-2273
▁Ele	-2274
▁kung	-2275
▁utom	-2276
▁arken	-2277
▁beläg	-2278
▁följa	-2279
▁fjärde	-2280
▁mörker	-2281
▁hälften	-2282
▁striden	-2283
hu	-2284
lon	-2285
ors	-2286
▁Heb	-2287
▁ute	-2288
naden	-2289
änker	-2290
▁gäst	-2291
▁kors	-2292
▁lida	-2293
▁påsk	-2294
▁dräpa	-2295
▁sköld	-2296
▁längre	-2297
▁stycke	-2298
▁Samaria	-2299
▁förvisso	-2300
▁rättfärdiga	-2301
Kom	-2302
ene	-2303
ova	-2304
▁Ad	-2305
mäst	-2306
▁Jeh	-2307
▁bock	-2308
▁rena	-2309
▁undf	-2310
▁vars	-2311
▁föllo	-2312
▁faller	-2313
▁vederg	-2314
▁vänder	-2315
▁Josafat	-2316
▁Assyrien	-2317
▁rättfärdige	-2318
kön	-2319
▁sål	-2320
▁uts	-2321
▁haft	-2322
▁slår	-2323
▁framb	-2324
▁hjält	-2325
▁tillst	-2326
▁Kanaans	-2327
▁offrade	-2328
▁utanför	-2329
▁Benjamins	-2330
ena	-2331
ten	-2332
ötte	-2333
▁Gal	-2334
▁Reh	-2335
▁Son	-2336
▁bot	-2337
▁tåg	-2338
▁fint	-2339
▁Eller	-2340
▁veten	-2341
▁älska	-2342
▁öppna	-2343
stycken	-2344
▁Alltså	-2345
▁blodet	-2346
▁fåglar	-2347
▁förhär	-2348
▁förtär	-2349
▁utvalt	-2350
▁avgudar	-2351
▁y	-2352
eba	-2353
eda	-2354
ugg	-2355
aken	-2356
▁Gad	-2357
▁buro	-2358
▁färd	-2359
▁ihåg	-2360
▁trof	-2361
▁apost	-2362
▁såväl	-2363
▁Faraos	-2364
▁drager	-2365
▁starka	-2366
▁strida	-2367
▁orättfärd	-2368
dde	-2369
gör	-2370
▁Jis	-2371
▁båg	-2372
▁mod	-2373
▁Från	-2374
▁jung	-2375
▁kald	-2376
▁pers	-2377
▁rent	-2378
▁Moabs	-2379
▁härsk	-2380
▁kalla	-2381
▁lands	-2382
▁graven	-2383
▁räckte	-2384
▁smälek	-2385
▁varder	-2386
▁rökelse	-2387
▁sjuttio	-2388
▁Eftersom	-2389
Fr	-2390
sv	-2391
bud	-2392
samt	-2393
▁öga	-2394
anden	-2395
helst	-2396
orten	-2397
▁fett	-2398
▁fing	-2399
▁pläg	-2400
▁spet	-2401
yllene	-2402
▁evärd	-2403
▁livet	-2404
▁Daniel	-2405
▁jungfr	-2406
▁sitter	-2407
▁öppnade	-2408
▁vandrade	-2409
▁Människos	-2410
▁berättade	-2411
▁menigheten	-2412
tti	-2413
▁Ve	-2414
iter	-2415
omål	-2416
rött	-2417
▁lid	-2418
sträv	-2419
ändes	-2420
▁Mina	-2421
▁redo	-2422
▁regn	-2423
▁sjön	-2424
▁skör	-2425
▁Elisa	-2426
▁blygd	-2427
▁folks	-2428
▁invid	-2429
▁skåda	-2430
▁söker	-2431
▁bevisa	-2432
▁dräpte	-2433
▁frälsa	-2434
▁tankar	-2435
▁gyllene	-2436
▁trofast	-2437
▁förbliver	-2438
▁tillbedja	-2439
▁beständigt	-2440
asa	-2441
▁Eb	-2442
▁ok	-2443
agog	-2444
▁Ber	-2445
▁Rub	-2446
yddor	-2447
▁nytt	-2448
▁resa	-2449
▁svår	-2450
▁äter	-2451
▁evigt	-2452
▁fulla	-2453
▁hövit	-2454
▁stiga	-2455
▁söder	-2456
▁förvar	-2457
▁moders	-2458
▁främling	-2459
▁välsigna	-2460
▁slaktoffer	-2461
▁lärjungarna	-2462
seg	-2463
kläd	-2464
satt	-2465
▁åto	-2466
▁Aram	-2467
▁ofta	-2468
▁vack	-2469
delser	-2470
▁förra	-2471
▁olyck	-2472
▁stjär	-2473
▁varar	-2474
▁dennes	-2475
▁spetäl	-2476
▁upphöj	-2477
▁fursten	-2478
▁skriftl	-2479
▁gensträv	-2480
▁offerhöj	-2481
▁ogudaktige	-2482
ims	-2483
ske	-2484
ikon	-2485
ldig	-2486
omma	-2487
▁Job	-2488
▁Sil	-2489
▁Levi	-2490
▁hölj	-2491
▁plåg	-2492
▁ryck	-2493
aledes	-2494
▁Liban	-2495
▁lyfte	-2496
▁prisa	-2497
▁spill	-2498
▁tagen	-2499
▁ditupp	-2500
▁förtäl	-2501
▁predik	-2502
▁skedde	-2503
▁stilla	-2504
▁utgjut	-2505
▁folkets	-2506
▁fruktade	-2507
▁tillhöra	-2508
bo	-2509
ög	-2510
▁re	-2511
änkt	-2512
▁Mer	-2513
▁Sad	-2514
▁fel	-2515
▁lam	-2516
▁nit	-2517
skriv	-2518
unnit	-2519
▁fisk	-2520
▁Anden	-2521
▁Genom	-2522
▁ringa	-2523
▁sidor	-2524
▁Hebron	-2525
▁Josefs	-2526
▁bränna	-2527
▁gränsen	-2528
▁somliga	-2529
▁svärdet	-2530
▁tjänares	-2531
▁myckenhet	-2532
▁tillflykt	-2533
▁tabernaklet	-2534
af	-2535
br	-2536
uka	-2537
ådo	-2538
inda	-2539
ydda	-2540
▁Bas	-2541
▁Ett	-2542
▁gat	-2543
▁omv	-2544
▁pil	-2545
▁illa	-2546
▁värd	-2547
soffer	-2548
▁Betel	-2549
▁Hören	-2550
▁kanan	-2551
▁Galile	-2552
▁bringa	-2553
▁förgät	-2554
▁helige	-2555
▁krossa	-2556
▁huvuden	-2557
▁mörkret	-2558
▁förstfödde	-2559
▁(	-2560
▁os	-2561
emot	-2562
ylon	-2563
▁fån	-2564
▁rör	-2565
▁sal	-2566
▁brev	-2567
▁grav	-2568
▁sutt	-2569
▁vagn	-2570
▁öken	-2571
▁därut	-2572
▁gåvor	-2573
▁spjut	-2574
▁tänker	-2575
▁uträck	-2576
▁visade	-2577
▁därinne	-2578
▁havande	-2579
▁landets	-2580
▁synagog	-2581
▁städerna	-2582
le	-2583
eld	-2584
▁ax	-2585
agar	-2586
skan	-2587
▁Kan	-2588
▁Ser	-2589
▁göm	-2590
Detta	-2591
unnen	-2592
▁Joas	-2593
▁Judas	-2594
▁Sikem	-2595
▁låten	-2596
▁ropar	-2597
▁övert	-2598
▁gäller	-2599
▁klippa	-2600
mästaren	-2601
▁förtryck	-2602
▁hövdingar	-2603
▁välsignade	-2604
▁förtörnelse	-2605
?'	-2606
ym	-2607
Är	-2608
gat	-2609
ägg	-2610
▁Hav	-2611
▁Här	-2612
▁rov	-2613
inner	-2614
plats	-2615
rarna	-2616
gående	-2617
▁Denne	-2618
▁bröst	-2619
▁ordet	-2620
▁talen	-2621
▁hunger	-2622
▁mantel	-2623
▁utrota	-2624
▁väster	-2625
▁hungers	-2626
▁Abimelek	-2627
▁drickoffer	-2628
Han	-2629
dre	-2630
per	-2631
slut	-2632
▁Hes	-2633
▁bju	-2634
▁Esau	-2635
▁blyg	-2636
▁ohel	-2637
▁vikt	-2638
▁åsyn	-2639
▁orena	-2640
▁hållen	-2641
▁ljuset	-2642
▁hungersn	-2643
▁därigenom	-2644
▁profetera	-2645
▁Människosonen	-2646
iva	-2647
sma	-2648
anda	-2649
imod	-2650
änka	-2651
▁Hör	-2652
▁kon	-2653
ernas	-2654
▁Elia	-2655
▁horn	-2656
▁vika	-2657
▁Jerik	-2658
▁krigs	-2659
▁storm	-2660
▁stund	-2661
▁tider	-2662
▁vildd	-2663
▁ålder	-2664
▁bedriv	-2665
▁frimod	-2666
▁ljusst	-2667
▁sänder	-2668
▁underl	-2669
▁utföra	-2670
▁betryck	-2671
▁vandrar	-2672
▁Abrahams	-2673
▁angående	-2674
▁eldsoffer	-2675
ton	-2676
aner	-2677
föll	-2678
lada	-2679
▁Bar	-2680
▁böj	-2681
stjän	-2682
äcker	-2683
▁hämn	-2684
▁tapp	-2685
▁Simon	-2686
▁borde	-2687
▁furst	-2688
▁hände	-2689
▁intog	-2690
▁skepp	-2691
▁trösk	-2692
▁varen	-2693
▁Konung	-2694
▁behåll	-2695
▁hemsök	-2696
▁honung	-2697
▁ondska	-2698
▁Eleasar	-2699
▁fördriv	-2700
▁Galileen	-2701
▁tungomål	-2702
▁ogudaktigas	-2703
ölj	-2704
▁As	-2705
▁nå	-2706
ehem	-2707
gåva	-2708
lösa	-2709
raga	-2710
▁Mis	-2711
dräkt	-2712
▁inga	-2713
▁skon	-2714
▁glada	-2715
▁heter	-2716
▁kring	-2717
▁kross	-2718
▁murar	-2719
▁stånd	-2720
▁vilse	-2721
▁förråd	-2722
▁gången	-2723
▁trodde	-2724
▁förvand	-2725
▁omtalade	-2726
▁vilddjur	-2727
▁bergsbygd	-2728
▁förgården	-2729
▁konungars	-2730
▁sanningen	-2731
▁skriftlärde	-2732
ses	-2733
▁va	-2734
▁ve	-2735
ktet	-2736
rett	-2737
äckt	-2738
▁Säg	-2739
▁mid	-2740
▁pur	-2741
amask	-2742
hända	-2743
ileam	-2744
▁Mika	-2745
▁borg	-2746
▁lyck	-2747
▁vred	-2748
▁även	-2749
▁ödel	-2750
▁kamel	-2751
▁kände	-2752
▁trygg	-2753
▁hjälpa	-2754
▁vingar	-2755
▁fängelse	-2756
▁församla	-2757
▁tackoffer	-2758
▁äktenskap	-2759
▁främlingar	-2760
▁vittnesbör	-2761
▁förskräckelse	-2762
»;	-2763
éen	-2764
▁äd	-2765
aktt	-2766
iven	-2767
otvå	-2768
örja	-2769
▁hin	-2770
▁nät	-2771
ygden	-2772
▁Aser	-2773
▁drab	-2774
▁likt	-2775
shuset	-2776
▁Abram	-2777
▁Deras	-2778
▁fikon	-2779
▁judar	-2780
amaskus	-2781
▁Bileam	-2782
▁begått	-2783
▁förfär	-2784
▁kallas	-2785
▁någons	-2786
▁smorde	-2787
▁ungdom	-2788
▁förtära	-2789
▁förutom	-2790
▁väsende	-2791
▁Damaskus	-2792
▁styggelser	-2793
tar	-2794
äld	-2795
öja	-2796
jord	-2797
▁Pil	-2798
▁döm	-2799
▁par	-2800
▁säl	-2801
▁öra	-2802
▁Mord	-2803
▁häng	-2804
▁lukt	-2805
▁lågo	-2806
▁mans	-2807
▁näst	-2808
▁skön	-2809
▁Medan	-2810
▁byggt	-2811
▁flytt	-2812
▁psalm	-2813
▁furste	-2814
▁sträck	-2815
▁änglar	-2816
▁Mordoka	-2817
▁förbliva	-2818
▁människan	-2819
▁trofasthet	-2820
▁Sannerligen	-2821
▁alltsammans	-2822
▁sannerligen	-2823
tan	-2824
▁sä	-2825
ares	-2826
nuft	-2827
tare	-2828
▁Mah	-2829
▁båt	-2830
▁efa	-2831
▁mål	-2832
▁oom	-2833
▁sår	-2834
tiden	-2835
▁Sara	-2836
▁rytt	-2837
▁skog	-2838
▁tror	-2839
▁beder	-2840
▁drömm	-2841
▁fröjd	-2842
▁försv	-2843
▁gräns	-2844
▁muren	-2845
▁upply	-2846
▁förnäm	-2847
▁slakta	-2848
▁ångest	-2849
▁Salomos	-2850
▁förloss	-2851
▁oomskur	-2852
▁skatter	-2853
▁övergivit	-2854
döm	-2855
hög	-2856
las	-2857
ckes	-2858
sias	-2859
▁rot	-2860
falla	-2861
▁Asar	-2862
▁helt	-2863
▁hörn	-2864
▁krön	-2865
▁pest	-2866
▁utsk	-2867
▁växa	-2868
▁årsg	-2869
boskap	-2870
eligen	-2871
samhet	-2872
ändiga	-2873
▁anden	-2874
▁femte	-2875
▁linne	-2876
▁orent	-2877
▁sutto	-2878
▁tacka	-2879
▁vapen	-2880
▁herres	-2881
▁lovade	-2882
▁fruktar	-2883
▁markens	-2884
▁evärdlig	-2885
▁frambära	-2886
▁händerna	-2887
▁oförnuft	-2888
▁undervisa	-2889
▁Nebukadnes	-2890
▁välsignelse	-2891
▁äktenskapsb	-2892
bon	-2893
äta	-2894
▁Ob	-2895
atus	-2896
gade	-2897
sikt	-2898
öden	-2899
▁Uss	-2900
▁Väl	-2901
▁bab	-2902
▁gån	-2903
densk	-2904
hustr	-2905
orden	-2906
▁begå	-2907
▁foro	-2908
▁höga	-2909
▁ljuv	-2910
▁slöt	-2911
▁timm	-2912
ästare	-2913
▁Rehab	-2914
▁ditin	-2915
▁förbi	-2916
▁givas	-2917
▁nitäl	-2918
▁höjden	-2919
▁slagit	-2920
▁spillo	-2921
▁sätter	-2922
denskull	-2923
▁babylon	-2924
▁månader	-2925
▁Allsmäkt	-2926
▁försmäkt	-2927
▁skyndade	-2928
▁fåfänglighet	-2929
▁sångmästaren	-2930
po	-2931
avl	-2932
eon	-2933
ier	-2934
kat	-2935
por	-2936
elat	-2937
emål	-2938
▁Lab	-2939
▁byar	-2940
▁glad	-2941
▁gräs	-2942
▁hård	-2943
▁inre	-2944
▁pass	-2945
▁Abner	-2946
▁Ester	-2947
▁Sadok	-2948
▁Sakar	-2949
▁afton	-2950
▁borta	-2951
▁ceder	-2952
▁funno	-2953
▁hedna	-2954
▁herde	-2955
▁liten	-2956
▁löfte	-2957
▁mätte	-2958
▁bliven	-2959
▁gästab	-2960
▁tjurar	-2961
▁vänner	-2962
▁Pilatus	-2963
▁hjärtat	-2964
▁skänker	-2965
▁vinning	-2966
▁Mordokai	-2967
▁sabbaten	-2968
▁träffade	-2969
▁småboskap	-2970
▁upptecknat	-2971
▁babyloniske	-2972
eus	-2973
omm	-2974
▁Din	-2975
▁garn	-2976
▁täck	-2977
▁väll	-2978
▁dräpt	-2979
▁iaktt	-2980
▁mätta	-2981
▁orter	-2982
▁slipp	-2983
▁fattig	-2984
▁palats	-2985
▁stötte	-2986
▁vilkas	-2987
▁ängeln	-2988
▁fattiga	-2989
▁huvudet	-2990
▁händers	-2991
▁förbunds	-2992
▁dödsriket	-2993
▁hemlighet	-2994
▁upptändes	-2995
▁förkunnade	-2996
tr	-2997
ts	-2998
ude	-2999
▁bi	-3000
▁ma	-3001
hövd	-3002
ifta	-3003
revo	-3004
vakt	-3005
▁Hög	-3006
▁Mik	-3007
▁heb	-3008
yning	-3009
▁kort	-3010
▁prov	-3011
▁råda	-3012
▁åtta	-3013
nelsen	-3014
▁Basan	-3015
▁Tyrus	-3016
▁anför	-3017
▁avdel	-3018
▁hatar	-3019
▁komme	-3020
▁månad	-3021
▁nådig	-3022
ställde	-3023
▁Jeriko	-3024
▁försyn	-3025
▁förvär	-3026
▁ovanpå	-3027
▁sextio	-3028
▁överfl	-3029
▁Messias	-3030
▁bittida	-3031
▁kroppen	-3032
▁ovänner	-3033
▁detsamma	-3034
▁upprätta	-3035
▁araméerna	-3036
▁hednafolk	-3037
▁tjänstgör	-3038
▁fariséerna	-3039
▁brännoffret	-3040
Gud	-3041
Stå	-3042
kan	-3043
ned	-3044
pur	-3045
rop	-3046
ynd	-3047
▁Gi	-3048
alek	-3049
dakt	-3050
land	-3051
minn	-3052
ängd	-3053
▁Hor	-3054
▁vak	-3055
annsa	-3056
årdar	-3057
▁fäst	-3058
▁glöd	-3059
▁hata	-3060
▁tram	-3061
seende	-3062
ttonde	-3063
▁Jojak	-3064
▁driva	-3065
▁fullt	-3066
▁förel	-3067
▁plund	-3068
▁sinne	-3069
▁skada	-3070
▁uppeh	-3071
▁östra	-3072
▁Rubens	-3073
▁avfäll	-3074
▁beskär	-3075
▁helgat	-3076
▁högmod	-3077
▁offerg	-3078
▁purpur	-3079
▁trälar	-3080
▁Libanon	-3081
▁befästa	-3082
▁fullkom	-3083
▁kroppar	-3084
▁ansikten	-3085
▁bröderna	-3086
▁bedrövelse	-3087
▁gudsmannen	-3088
▁Nebukadnessar	-3089
stå	-3090
fäst	-3091
osen	-3092
ossa	-3093
skri	-3094
ådde	-3095
▁Gil	-3096
▁Kir	-3097
▁Nah	-3098
▁gag	-3099
aftal	-3100
handa	-3101
▁Jehu	-3102
▁gjut	-3103
▁skor	-3104
▁ståt	-3105
▁säng	-3106
▁Maria	-3107
▁Sebul	-3108
▁bästa	-3109
▁drott	-3110
▁fåren	-3111
▁föras	-3112
▁skara	-3113
▁skänd	-3114
▁Sidkia	-3115
▁bevara	-3116
▁bjuder	-3117
▁frågar	-3118
▁förbar	-3119
▁glädja	-3120
▁husets	-3121
▁betyder	-3122
▁förkast	-3123
▁hemsöka	-3124
▁kvarlev	-3125
▁vädurar	-3126
▁Rehabeam	-3127
▁försking	-3128
▁sändebud	-3129
▁därutöver	-3130
All	-3131
Gån	-3132
ams	-3133
fär	-3134
ira	-3135
odom	-3136
stod	-3137
ärna	-3138
▁Kal	-3139
▁Tag	-3140
▁ant	-3141
▁nej	-3142
▁skå	-3143
▁tra	-3144
▁våg	-3145
innor	-3146
skaff	-3147
▁fort	-3148
▁larm	-3149
▁samt	-3150
▁ungt	-3151
itiska	-3152
▁Joram	-3153
▁bevis	-3154
▁dryck	-3155
▁farit	-3156
▁ihjäl	-3157
▁ofärd	-3158
▁reste	-3159
▁räkna	-3160
▁vinna	-3161
▁Naftal	-3162
▁Skulle	-3163
▁brutit	-3164
▁dödade	-3165
▁föddes	-3166
▁förmår	-3167
▁frukten	-3168
▁föremål	-3169
▁ryttare	-3170
▁räddade	-3171
▁skyldig	-3172
▁offereld	-3173
▁tillhörande	-3174
▁missgärningar	-3175
ymm	-3176
▁vr	-3177
adöm	-3178
agit	-3179
klag	-3180
ovad	-3181
stol	-3182
▁möt	-3183
▁nal	-3184
nader	-3185
▁Beer	-3186
▁Gads	-3187
▁brud	-3188
▁grät	-3189
▁gåva	-3190
▁lova	-3191
▁lösa	-3192
▁mott	-3193
▁oliv	-3194
▁vind	-3195
▁Åter	-3196
▁Sodom	-3197
▁fjort	-3198
▁flera	-3199
▁givet	-3200
▁sista	-3201
▁sjung	-3202
▁barnen	-3203
▁dörren	-3204
▁fiende	-3205
▁lägger	-3206
▁mankön	-3207
▁söners	-3208
▁berömma	-3209
▁budskap	-3210
▁tjänste	-3211
▁enlighet	-3212
▁fotstycken	-3213
▁konungarna	-3214
▁översteprästen	-3215
▁C	-3216
kel	-3217
oas	-3218
tet	-3219
▁Na	-3220
▁Un	-3221
atta	-3222
fyra	-3223
skär	-3224
stan	-3225
äten	-3226
▁Abi	-3227
▁Fil	-3228
▁Rak	-3229
▁Sab	-3230
▁Tim	-3231
▁brä	-3232
▁utk	-3233
▁Asaf	-3234
▁Isma	-3235
▁ford	-3236
▁född	-3237
▁gren	-3238
▁möda	-3239
▁ring	-3240
▁sker	-3241
▁vist	-3242
ammare	-3243
ydande	-3244
▁åsnor	-3245
▁överd	-3246
innande	-3247
▁gossen	-3248
▁munnen	-3249
▁mörkbl	-3250
▁synden	-3251
▁tretti	-3252
kommande	-3253
▁bestånd	-3254
▁dottern	-3255
▁förstod	-3256
▁förstår	-3257
▁hämtade	-3258
▁uppstån	-3259
▁vällukt	-3260
▁eländiga	-3261
▁iakttaga	-3262
▁övermått	-3263
▁likaledes	-3264
▁spetälska	-3265
▁tjänarinna	-3266
▁avkomlingar	-3267
▁välbehaglig	-3268
Sk	-3269
Ack	-3270
Din	-3271
▁ön	-3272
alak	-3273
amar	-3274
ocka	-3275
ätte	-3276
▁Has	-3277
▁Per	-3278
▁grö	-3279
▁lem	-3280
▁lös	-3281
▁ägo	-3282
dagen	-3283
följa	-3284
norna	-3285
ycket	-3286
änden	-3287
▁Dina	-3288
▁Mitt	-3289
▁gods	-3290
▁grip	-3291
▁hugg	-3292
▁ihop	-3293
▁kron	-3294
▁osky	-3295
▁uppe	-3296
▁vänd	-3297
▁våll	-3298
alunda	-3299
▁Laban	-3300
▁Sions	-3301
▁behöv	-3302
▁bestå	-3303
▁brunn	-3304
▁dödas	-3305
▁frest	-3306
▁härom	-3307
▁rörde	-3308
▁samla	-3309
▁träng	-3310
▁tröst	-3311
▁välde	-3312
▁besvär	-3313
▁fångar	-3314
▁förbun	-3315
▁förgör	-3316
▁heligt	-3317
▁livets	-3318
▁sinnet	-3319
▁sträng	-3320
▁vittne	-3321
▁antalet	-3322
▁härskar	-3323
▁orenhet	-3324
▁samlade	-3325
▁tjänade	-3326
▁ödemark	-3327
▁bättring	-3328
▁strömmar	-3329
▁ståndakt	-3330
▁särskilt	-3331
▁varifrån	-3332
▁världens	-3333
▁överflöd	-3334
▁Jerobeams	-3335
▁undervisade	-3336
for	-3337
kam	-3338
ots	-3339
sel	-3340
▁hä	-3341
▁pr	-3342
ider	-3343
ripa	-3344
skyn	-3345
ugga	-3346
ukta	-3347
ulen	-3348
▁aln	-3349
▁olj	-3350
▁omg	-3351
▁prö	-3352
▁rev	-3353
▁vek	-3354
▁väv	-3355
ister	-3356
sdjur	-3357
under	-3358
▁Gide	-3359
▁Matt	-3360
▁Sina	-3361
▁dröm	-3362
▁fred	-3363
▁hals	-3364
▁utpl	-3365
mannen	-3366
▁flick	-3367
▁fäste	-3368
▁gärna	-3369
▁riken	-3370
▁smörj	-3371
▁talri	-3372
▁beslut	-3373
▁fallit	-3374
▁igenom	-3375
▁lyssna	-3376
▁mäktig	-3377
▁tjugut	-3378
▁vinden	-3379
▁hjärtas	-3380
▁stoftet	-3381
▁upprätt	-3382
▁övermod	-3383
▁ogärning	-3384
▁vederfar	-3385
▁tjänstekv	-3386
▁hövdingdöm	-3387
Tag	-3388
gal	-3389
åra	-3390
adad	-3391
ebus	-3392
odes	-3393
▁Sel	-3394
▁nya	-3395
annad	-3396
ätten	-3397
▁Hasa	-3398
▁fria	-3399
▁livs	-3400
▁äger	-3401
▁blick	-3402
▁föret	-3403
▁namns	-3404
▁plåga	-3405
▁synda	-3406
▁Helige	-3407
▁bereda	-3408
▁frälst	-3409
▁förund	-3410
▁häpnad	-3411
▁hållit	-3412
▁drabant	-3413
▁fattige	-3414
▁förlåta	-3415
▁sjukdom	-3416
▁syndare	-3417
▁fienders	-3418
▁föreskriv	-3419
▁verkligen	-3420
▁hungersnöd	-3421
▁övermåttan	-3422
▁inmönstrades	-3423
hör	-3424
▁Än	-3425
anat	-3426
eken	-3427
falt	-3428
▁Ass	-3429
▁Kom	-3430
▁Noa	-3431
▁tak	-3432
fader	-3433
heten	-3434
jämte	-3435
▁högg	-3436
▁vise	-3437
estånd	-3438
▁andar	-3439
▁hydda	-3440
▁mjölk	-3441
▁stört	-3442
▁svårt	-3443
▁templ	-3444
▁törst	-3445
▁utväl	-3446
▁velat	-3447
▁voren	-3448
▁angrip	-3449
▁barnet	-3450
▁berett	-3451
▁mindre	-3452
▁nödgas	-3453
▁tänder	-3454
▁varmed	-3455
▁Herodes	-3456
▁Naftali	-3457
▁altaren	-3458
▁helgade	-3459
▁skullen	-3460
▁gästabud	-3461
▁ståthåll	-3462
▁amoréernas	-3463
▁främlingen	-3464
▁ljusstaken	-3465
▁Allsmäktige	-3466
▁underlydande	-3467
oh	-3468
åp	-3469
dån	-3470
eja	-3471
eta	-3472
get	-3473
irs	-3474
pet	-3475
ssl	-3476
▁lä	-3477
▁si	-3478
Seba	-3479
allt	-3480
tter	-3481
▁Nab	-3482
▁Sih	-3483
▁köp	-3484
▁lyd	-3485
innan	-3486
sligt	-3487
änkte	-3488
▁Jude	-3489
▁Sera	-3490
▁grön	-3491
▁lätt	-3492
▁mynd	-3493
▁närm	-3494
▁rikt	-3495
▁sken	-3496
▁torr	-3497
ansvär	-3498
marken	-3499
▁Balak	-3500
▁konst	-3501
▁ljung	-3502
▁mötes	-3503
▁riket	-3504
▁råder	-3505
▁åminn	-3506
▁Asarja	-3507
▁hoppas	-3508
▁person	-3509
▁bespott	-3510
▁bredvid	-3511
▁klippan	-3512
▁krönika	-3513
▁sabbats	-3514
▁utgjuta	-3515
▁vinträd	-3516
▁tillfäll	-3517
▁tjugufem	-3518
▁underdån	-3519
▁furstarna	-3520
▁förföljde	-3521
▁offergåva	-3522
▁begynnelsen	-3523
▁orättfärdighet	-3524
En	-3525
sn	-3526
eka	-3527
ila	-3528
son	-3529
säg	-3530
▁Ak	-3531
▁Ba	-3532
▁Gå	-3533
▁ky	-3534
▁mö	-3535
eber	-3536
jämt	-3537
▁Vil	-3538
▁blå	-3539
▁bäv	-3540
▁hag	-3541
▁him	-3542
▁löv	-3543
▁spå	-3544
▁utl	-3545
Lehem	-3546
ammet	-3547
▁Amas	-3548
▁gäll	-3549
▁skål	-3550
▁suck	-3551
▁Över	-3552
▁Jisre	-3553
▁Natan	-3554
▁visar	-3555
▁Gideon	-3556
▁förman	-3557
▁förord	-3558
▁ingång	-3559
▁skapat	-3560
▁slippa	-3561
▁bestämt	-3562
▁bosatte	-3563
▁utvalda	-3564
▁alltjämt	-3565
▁höjderna	-3566
▁krossade	-3567
▁mörkblått	-3568
▁offergärd	-3569
▁huvudmännen	-3570
▁israeliterna	-3571
ks	-3572
öv	-3573
Nej	-3574
Väl	-3575
bas	-3576
ror	-3577
vet	-3578
▁äm	-3579
ahas	-3580
ehör	-3581
fria	-3582
nens	-3583
omer	-3584
sken	-3585
▁Saf	-3586
▁fog	-3587
▁mis	-3588
enast	-3589
komst	-3590
satta	-3591
▁band	-3592
▁blom	-3593
▁båge	-3594
▁lärt	-3595
elsens	-3596
▁Gibea	-3597
▁Haman	-3598
▁bakom	-3599
▁helga	-3600
▁lycka	-3601
▁missh	-3602
▁tända	-3603
▁upphö	-3604
▁Kirjat	-3605
▁dragen	-3606
▁enligt	-3607
▁fördol	-3608
▁höjder	-3609
▁kallar	-3610
▁lotten	-3611
▁sjätte	-3612
▁tuktan	-3613
▁fastmer	-3614
▁plägade	-3615
▁templet	-3616
▁väldiga	-3617
▁vänstra	-3618
▁begraven	-3619
▁någonsin	-3620
▁förbränna	-3621
▁förgjorde	-3622
▁invånarna	-3623
▁kvinnorna	-3624
▁tillbehör	-3625
▁åminnelse	-3626
Må	-3627
add	-3628
lös	-3629
rad	-3630
råd	-3631
idan	-3632
sför	-3633
▁Ack	-3634
▁Mid	-3635
▁Ram	-3636
▁smä	-3637
▁tår	-3638
▁Jesa	-3639
▁köpa	-3640
▁löft	-3641
▁rädd	-3642
▁svag	-3643
▁ätit	-3644
▁fören	-3645
▁förka	-3646
▁rycka	-3647
▁sluta	-3648
▁Filipp	-3649
▁Gilgal	-3650
▁havets	-3651
▁tappra	-3652
▁tältet	-3653
▁tågade	-3654
▁bortför	-3655
▁däremot	-3656
▁förstör	-3657
▁gjordes	-3658
▁bestämda	-3659
▁förrätta	-3660
▁allahanda	-3661
▁myndighet	-3662
▁inmönstrade	-3663
▁överträdelser	-3664
ai	-3665
ain	-3666
fot	-3667
räk	-3668
▁nä	-3669
▁ob	-3670
agda	-3671
ager	-3672
orda	-3673
▁Ada	-3674
▁Kor	-3675
▁dån	-3676
▁fär	-3677
▁käm	-3678
delar	-3679
delen	-3680
shopp	-3681
▁alls	-3682
▁bild	-3683
▁bäva	-3684
▁kunn	-3685
▁lägg	-3686
▁skåd	-3687
▁svek	-3688
porten	-3689
▁Rakel	-3690
▁Under	-3691
▁armar	-3692
▁burit	-3693
▁fläck	-3694
▁Benaja	-3695
▁Judeen	-3696
▁familj	-3697
▁förtor	-3698
▁kallat	-3699
▁löften	-3700
▁räknas	-3701
▁rätten	-3702
▁styrka	-3703
▁Sakarja	-3704
▁arbetet	-3705
▁behöver	-3706
▁husfolk	-3707
▁uppbygg	-3708
▁uppstod	-3709
▁vittnen	-3710
▁Allenast	-3711
▁förlåten	-3712
▁skaffade	-3713
▁skickade	-3714
▁landshövd	-3715
▁kananéerna	-3716
▁uppenbarat	-3717
▁föreskrivet	-3718
▁gensträviga	-3719
▁undervisning	-3720
ita	-3721
mål	-3722
rym	-3723
råk	-3724
uns	-3725
bete	-3726
ehas	-3727
gäng	-3728
kret	-3729
pade	-3730
unna	-3731
▁Gat	-3732
▁Ged	-3733
▁Lot	-3734
▁Sib	-3735
▁bon	-3736
▁dar	-3737
▁döp	-3738
▁hän	-3739
▁tom	-3740
▁vit	-3741
▁väp	-3742
▁ypp	-3743
▁ätt	-3744
jorda	-3745
livet	-3746
ragen	-3747
ämmer	-3748
▁Silo	-3749
▁bådo	-3750
▁börd	-3751
▁korn	-3752
▁känt	-3753
▁leda	-3754
▁rygg	-3755
▁smäd	-3756
▁Samar	-3757
▁Simei	-3758
▁aktar	-3759
▁betyg	-3760
▁dömer	-3761
▁envar	-3762
▁flykt	-3763
▁jebus	-3764
▁likna	-3765
▁vinet	-3766
▁Ismael	-3767
▁avguda	-3768
▁avskil	-3769
▁begjut	-3770
▁behöva	-3771
▁drabba	-3772
▁fattas	-3773
▁främst	-3774
▁fröjda	-3775
▁herrar	-3776
▁hyddor	-3777
▁tronen	-3778
▁upplåt	-3779
▁allting	-3780
▁bihustr	-3781
▁fattade	-3782
▁ungtjur	-3783
▁gräshopp	-3784
▁gudstjän	-3785
▁huvudmän	-3786
▁härefter	-3787
▁överallt	-3788
▁översten	-3789
▁keruberna	-3790
▁tillfälle	-3791
▁vingårdar	-3792
▁tillsyning	-3793
▁drabanterna	-3794
▁ogudaktighet	-3795
Giv	-3796
dag	-3797
räd	-3798
tur	-3799
urs	-3800
usa	-3801
▁er	-3802
▁fo	-3803
▁lu	-3804
anan	-3805
fött	-3806
iels	-3807
mnen	-3808
pres	-3809
stes	-3810
ödde	-3811
▁Jab	-3812
▁Net	-3813
▁Sin	-3814
▁ked	-3815
darna	-3816
ionde	-3817
ornas	-3818
▁Tala	-3819
▁dröj	-3820
▁halv	-3821
▁kalk	-3822
▁ädla	-3823
kreter	-3824
▁Kaleb	-3825
▁Mispa	-3826
▁altar	-3827
▁dalen	-3828
▁förne	-3829
▁gälla	-3830
▁hämnd	-3831
▁krets	-3832
▁undfå	-3833
▁Jesaja	-3834
▁anslag	-3835
▁brände	-3836
▁skräck	-3837
▁släppa	-3838
▁träden	-3839
▁vittna	-3840
▁begärde	-3841
▁behålla	-3842
▁folkens	-3843
▁hjältar	-3844
▁omvända	-3845
▁anförare	-3846
▁dörrvakt	-3847
▁förbarma	-3848
▁förlossa	-3849
▁sekreter	-3850
▁talenter	-3851
▁amoréerna	-3852
▁hedningar	-3853
▁smörjelse	-3854
▁särskilda	-3855
▁fullbordas	-3856
▁konungadöm	-3857
▁förbundsark	-3858
▁välluktande	-3859
▁konungshuset	-3860
▁äktenskapsbrott	-3861
iet	-3862
its	-3863
Allt	-3864
gent	-3865
rets	-3866
segg	-3867
▁Jed	-3868
▁avv	-3869
▁gul	-3870
▁leg	-3871
▁res	-3872
▁vån	-3873
Denne	-3874
annen	-3875
dalen	-3876
yrade	-3877
▁Adon	-3878
▁Rama	-3879
▁dubb	-3880
▁flyg	-3881
▁hund	-3882
▁plöt	-3883
▁väkt	-3884
▁värn	-3885
▁åsna	-3886
▁Esaus	-3887
▁Merar	-3888
▁Varen	-3889
▁fånga	-3890
▁göras	-3891
▁hugga	-3892
▁klädd	-3893
▁lustg	-3894
▁sjuka	-3895
▁uttyd	-3896
▁visst	-3897
▁värde	-3898
▁Amasja	-3899
▁Hesbon	-3900
▁Semaja	-3901
▁Simson	-3902
▁Vidare	-3903
▁arbeta	-3904
▁blygas	-3905
▁omskur	-3906
▁själar	-3907
▁åkalla	-3908
ydlandet	-3909
▁Gileads	-3910
▁försvar	-3911
▁förtälj	-3912
▁gärning	-3913
▁liknade	-3914
▁livkläd	-3915
▁tillred	-3916
▁utrotas	-3917
▁vänster	-3918
▁därjämte	-3919
▁framgent	-3920
▁förfölja	-3921
▁judarnas	-3922
▁kommande	-3923
▁kärleken	-3924
▁lovsjung	-3925
▁motstånd	-3926
▁trygghet	-3927
▁övermäkt	-3928
▁svärdsegg	-3929
Sannerligen	-3930
▁förståndig	-3931
▁kaldéernas	-3932
▁Y	-3933
När	-3934
Säg	-3935
fas	-3936
uja	-3937
val	-3938
Icke	-3939
adab	-3940
alja	-3941
bild	-3942
yrat	-3943
▁Hil	-3944
▁Keh	-3945
▁Kis	-3946
▁Mak	-3947
▁bäg	-3948
▁lög	-3949
▁rum	-3950
▁åsn	-3951
ansar	-3952
atans	-3953
eller	-3954
rogna	-3955
vorna	-3956
▁Ahit	-3957
▁Dans	-3958
▁Samm	-3959
▁gagn	-3960
▁oxar	-3961
▁röra	-3962
▁tåga	-3963
▁Ahabs	-3964
▁bruka	-3965
▁båten	-3966
▁glädj	-3967
▁hemma	-3968
▁krona	-3969
▁yttre	-3970
▁Herres	-3971
▁aktade	-3972
▁bitter	-3973
▁fältet	-3974
▁skugga	-3975
▁visdom	-3976
▁ögonen	-3977
▁övergå	-3978
▁broders	-3979
▁förstån	-3980
▁jungfru	-3981
▁predika	-3982
▁trolösa	-3983
▁åttonde	-3984
gärningar	-3985
▁härskara	-3986
▁kallades	-3987
▁slaktade	-3988
▁tjänaren	-3989
▁Sydlandet	-3990
▁brinnande	-3991
▁storligen	-3992
▁stjärnorna	-3993
▁förskräckta	-3994
gl	-3995
jäv	-3996
ola	-3997
vin	-3998
▁Je	-3999
▁Ly	-4000
ansv	-4001
ecka	-4002
löse	-4003
nakt	-4004
orra	-4005
▁ers	-4006
▁gam	-4007
▁hud	-4008
▁häd	-4009
▁ort	-4010
▁teg	-4011
andel	-4012
innas	-4013
lägga	-4014
ullen	-4015
▁Karm	-4016
▁Sall	-4017
▁avsk	-4018
▁dråp	-4019
▁gärd	-4020
▁höjd	-4021
▁klok	-4022
▁lysa	-4023
▁muns	-4024
▁måst	-4025
▁otro	-4026
▁sörj	-4027
▁tyck	-4028
▁upps	-4029
▁vall	-4030
heliga	-4031
▁böjde	-4032
▁gripa	-4033
▁härpå	-4034
▁höger	-4035
▁leder	-4036
▁lägra	-4037
▁pilar	-4038
▁rosen	-4039
▁skrev	-4040
▁snara	-4041
▁varom	-4042
sporten	-4043
▁assyri	-4044
▁begiva	-4045
▁djuren	-4046
▁fordom	-4047
▁lämnat	-4048
▁skaror	-4049
▁vandel	-4050
▁ordning	-4051
▁osyrade	-4052
▁skrivit	-4053
▁ävensom	-4054
▁Filippus	-4055
▁Konungen	-4056
▁cederträ	-4057
▁fötterna	-4058
▁härhövit	-4059
▁lyssnade	-4060
▁molnskyn	-4061
▁uppstått	-4062
▁yttersta	-4063
▁årsgamla	-4064
▁vedergäll	-4065
▁leviternas	-4066
▁tabernakel	-4067
▁tillstädes	-4068
▁förbannelse	-4069
Nu	-4070
Här	-4071
fog	-4072
lad	-4073
mon	-4074
rod	-4075
▁Is	-4076
▁tä	-4077
▁öm	-4078
bärg	-4079
ting	-4080
uvor	-4081
vind	-4082
ödda	-4083
ödra	-4084
▁Hed	-4085
▁Mal	-4086
▁San	-4087
▁Upp	-4088
▁oxe	-4089
▁röv	-4090
arens	-4091
innes	-4092
ivill	-4093
▁Tänk	-4094
▁Uria	-4095
▁djäv	-4096
▁drev	-4097
▁skär	-4098
▁topp	-4099
▁utsl	-4100
▁ägde	-4101
rättav	-4102
sdagar	-4103
trädet	-4104
äderna	-4105
▁Likas	-4106
▁Låten	-4107
▁Sådan	-4108
▁baner	-4109
▁blind	-4110
▁brist	-4111
▁ensam	-4112
▁haden	-4113
▁hopen	-4114
▁huden	-4115
▁södra	-4116
▁tårar	-4117
▁ändar	-4118
▁änden	-4119
Mästare	-4120
sbygden	-4121
▁Jojada	-4122
▁bedjen	-4123
▁bordet	-4124
▁förmer	-4125
▁föröka	-4126
▁guldet	-4127
▁kunnat	-4128
▁nalkas	-4129
▁nionde	-4130
▁räddat	-4131
▁stadga	-4132
▁stenen	-4133
▁trolös	-4134
▁utbred	-4135
▁Jisreel	-4136
▁brunnen	-4137
▁frivill	-4138
▁klädnad	-4139
▁utvalde	-4140
▁begjutet	-4141
▁härifrån	-4142
▁kanhända	-4143
▁övergiva	-4144
▁drottning	-4145
▁förbundet	-4146
▁förkunnat	-4147
▁förnämsta	-4148
▁förstfött	-4149
▁Nebukadres	-4150
▁förtröstar	-4151
▁moderlivet	-4152
▁tiondedels	-4153
▁upptecknade	-4154
▁visserligen	-4155
▁efterkommande	-4156
Har	-4157
hav	-4158
mma	-4159
▁Ai	-4160
▁iv	-4161
▁lå	-4162
▁um	-4163
edon	-4164
eman	-4165
sida	-4166
▁Reb	-4167
▁bug	-4168
▁näp	-4169
▁tju	-4170
▁åst	-4171
Tagen	-4172
strar	-4173
tonde	-4174
ullam	-4175
umpet	-4176
▁Tars	-4177
▁knän	-4178
▁ljud	-4179
▁medb	-4180
▁mäns	-4181
▁sann	-4182
▁strå	-4183
▁tvär	-4184
▁vete	-4185
▁vift	-4186
ammalt	-4187
gjorde	-4188
tiotvå	-4189
▁Elias	-4190
▁angår	-4191
▁betal	-4192
▁försm	-4193
▁oljan	-4194
▁trång	-4195
▁utplå	-4196
▁åkern	-4197
▁åttio	-4198
▁begrov	-4199
▁botade	-4200
▁bryter	-4201
▁ditned	-4202
▁dyrbar	-4203
▁falska	-4204
▁förför	-4205
▁oskyld	-4206
▁ryktet	-4207
▁Gedalja	-4208
▁bevarar	-4209
▁dyrbara	-4210
▁egendom	-4211
▁frambär	-4212
▁frälsta	-4213
▁fränder	-4214
▁kameler	-4215
▁lovligt	-4216
▁lovsång	-4217
▁underst	-4218
▁befallde	-4219
▁beslutit	-4220
▁straffas	-4221
▁ägodelar	-4222
▁stridbara	-4223
▁uppenbara	-4224
▁tillrättav	-4225
▁vedergälla	-4226
▁uppenbarade	-4227
▁vittnesbördet	-4228
dab	-4229
ede	-4230
kta	-4231
cken	-4232
iram	-4233
ivit	-4234
jare	-4235
kunn	-4236
sien	-4237
äves	-4238
året	-4239
▁Had	-4240
▁ler	-4241
▁mal	-4242
▁tyg	-4243
Efter	-4244
cedon	-4245
itisk	-4246
veros	-4247
ymmer	-4248
▁Fräl	-4249
▁Förb	-4250
▁ader	-4251
▁gömm	-4252
▁kruk	-4253
▁käll	-4254
▁last	-4255
▁moab	-4256
▁nitt	-4257
▁omst	-4258
▁rika	-4259
▁salt	-4260
▁skäl	-4261
▁säck	-4262
▁vild	-4263
▁ätas	-4264
bärare	-4265
delsen	-4266
testen	-4267
önster	-4268
▁Edoms	-4269
▁Satan	-4270
▁Sonen	-4271
▁Ytter	-4272
▁arter	-4273
▁böner	-4274
▁härav	-4275
▁högre	-4276
▁ledde	-4277
▁lösen	-4278
▁menar	-4279
▁sålde	-4280
▁sörja	-4281
▁befäst	-4282
▁bockar	-4283
▁delade	-4284
▁förhus	-4285
▁lemmar	-4286
▁likaså	-4287
▁lämnas	-4288
▁märkte	-4289
▁sjunga	-4290
▁skriva	-4291
▁svurit	-4292
▁tränga	-4293
▁utgöra	-4294
▁vänden	-4295
▁västra	-4296
▁begrava	-4297
▁beläten	-4298
▁dagliga	-4299
▁däröver	-4300
▁förgäta	-4301
▁förvärv	-4302
▁härliga	-4303
▁påskhög	-4304
▁skaffar	-4305
▁stadens	-4306
▁träldom	-4307
▁uppkall	-4308
▁vandrat	-4309
▁österut	-4310
▁tillbådo	-4311
▁utväljer	-4312
▁Ahasveros	-4313
▁belägrade	-4314
▁krigsfolk	-4315
▁sorgdräkt	-4316
▁stötesten	-4317
▁välsignat	-4318
▁förundrade	-4319
▁purpurrött	-4320
▁Ytterligare	-4321
▁avfällighet	-4322
▁beståndande	-4323
let	-4324
ubl	-4325
van	-4326
öto	-4327
▁rä	-4328
adja	-4329
giva	-4330
ivna	-4331
näst	-4332
rymm	-4333
shus	-4334
umma	-4335
▁bev	-4336
▁buk	-4337
▁gap	-4338
▁ris	-4339
▁sed	-4340
▁ski	-4341
▁öva	-4342
Hören	-4343
atten	-4344
gande	-4345
kvick	-4346
lagan	-4347
ripen	-4348
▁Folk	-4349
▁Obed	-4350
▁bruk	-4351
▁hårt	-4352
▁möta	-4353
inadab	-4354
ältets	-4355
▁Baals	-4356
▁Ebjat	-4357
▁Stora	-4358
▁dödsk	-4359
▁eviga	-4360
▁falsk	-4361
▁finge	-4362
▁fästa	-4363
▁föreh	-4364
▁hälsa	-4365
▁månen	-4366
▁norra	-4367
▁skrym	-4368
▁smäda	-4369
▁still	-4370
▁syner	-4371
▁vänta	-4372
▁växte	-4373
▁Gibeon	-4374
▁Högste	-4375
▁blinda	-4376
▁bugade	-4377
▁dårakt	-4378
▁dödens	-4379
▁fyrfot	-4380
▁förste	-4381
▁föräld	-4382
▁gläder	-4383
▁gravar	-4384
▁grenar	-4385
▁herdar	-4386
▁hälsar	-4387
▁ryckte	-4388
▁samvet	-4389
▁svarar	-4390
▁väldig	-4391
kastning	-4392
▁andarna	-4393
▁avkomma	-4394
▁befallt	-4395
▁dricker	-4396
▁lidande	-4397
▁lögnakt	-4398
▁sköldar	-4399
▁trumpet	-4400
▁bekymmer	-4401
▁framgång	-4402
▁förbanna	-4403
▁förtälja	-4404
▁grundval	-4405
▁jungfrur	-4406
▁korsfäst	-4407
▁länderna	-4408
▁tillstad	-4409
▁fullborda	-4410
▁förkastat	-4411
▁kaldéerna	-4412
▁oomskurna	-4413
▁plötsligt	-4414
▁apostlarna	-4415
▁dödsklagan	-4416
▁orenlighet	-4417
▁ostrafflig	-4418
▁skuldoffer	-4419
▁sabbatsdagen	-4420
▁överträdelse	-4421
In	-4422
nt	-4423
»?	-4424
eli	-4425
huv	-4426
kac	-4427
kit	-4428
låt	-4429
▁Of	-4430
▁Sl	-4431
▁So	-4432
adan	-4433
iens	-4434
räva	-4435
skor	-4436
▁Sob	-4437
▁ans	-4438
▁gem	-4439
▁kej	-4440
▁mät	-4441
▁nio	-4442
▁nym	-4443
▁tål	-4444
allel	-4445
hålla	-4446
nades	-4447
▁----	-4448
▁Ditt	-4449
▁Nuns	-4450
▁besö	-4451
▁brok	-4452
▁dagg	-4453
▁dags	-4454
▁förj	-4455
▁guda	-4456
▁likn	-4457
▁länd	-4458
▁sakt	-4459
▁stöd	-4460
▁uppg	-4461
stoden	-4462
stolen	-4463
årdens	-4464
öjligt	-4465
▁Dagen	-4466
▁Netan	-4467
▁Skall	-4468
▁allas	-4469
▁begår	-4470
▁benen	-4471
▁boken	-4472
▁bredd	-4473
▁domen	-4474
▁drevo	-4475
▁försö	-4476
▁grann	-4477
▁gråta	-4478
▁inner	-4479
▁jubla	-4480
▁lycko	-4481
▁skjut	-4482
▁säker	-4483
▁uppsl	-4484
▁yngre	-4485
▁öppet	-4486
▁anklag	-4487
▁begåvo	-4488
▁betyda	-4489
▁blotta	-4490
▁brödet	-4491
▁dörrar	-4492
▁flyter	-4493
▁gjorda	-4494
▁insikt	-4495
▁rannsa	-4496
▁skörda	-4497
▁starkt	-4498
▁trösta	-4499
▁Rebecka	-4500
▁dagarna	-4501
▁dårskap	-4502
▁flickan	-4503
▁handlat	-4504
▁prisade	-4505
▁tacksäg	-4506
▁väduren	-4507
▁ödmjuka	-4508
▁folkslag	-4509
▁förgrymm	-4510
▁portarna	-4511
▁räddning	-4512
▁sångarna	-4513
▁tillsade	-4514
▁efterfölj	-4515
▁förstling	-4516
▁människas	-4517
▁nitälskan	-4518
▁tillhörde	-4519
▁småboskapen	-4520
be	-4521
ic	-4522
eti	-4523
ket	-4524
ris	-4525
skt	-4526
tor	-4527
▁No	-4528
aler	-4529
elns	-4530
fram	-4531
hugg	-4532
iges	-4533
ämma	-4534
åtta	-4535
▁Ger	-4536
▁Jot	-4537
▁gal	-4538
▁gan	-4539
▁oro	-4540
▁osk	-4541
▁spr	-4542
▁ved	-4543
adjur	-4544
▁Abia	-4545
▁akac	-4546
▁bund	-4547
▁dåre	-4548
▁döpa	-4549
▁grep	-4550
▁guds	-4551
▁häls	-4552
▁nåda	-4553
▁ovän	-4554
▁raka	-4555
▁säll	-4556
▁utgå	-4557
▁utst	-4558
▁vita	-4559
signad	-4560
▁Baesa	-4561
▁Barna	-4562
▁Kades	-4563
▁Sidon	-4564
▁betes	-4565
▁bleve	-4566
▁forna	-4567
▁förkl	-4568
▁gjuta	-4569
▁husen	-4570
▁längd	-4571
▁närma	-4572
▁pelar	-4573
▁sköna	-4574
▁stöta	-4575
▁synes	-4576
▁söken	-4577
▁växer	-4578
▁överg	-4579
åtligen	-4580
▁Josias	-4581
▁avfall	-4582
▁begrav	-4583
▁består	-4584
▁delakt	-4585
▁djupet	-4586
▁finger	-4587
▁fromma	-4588
▁ganska	-4589
▁hållas	-4590
▁meddel	-4591
▁midjan	-4592
▁skilja	-4593
▁tjuren	-4594
▁uppför	-4595
▁Johanan	-4596
▁akaciet	-4597
▁förblev	-4598
▁mäktiga	-4599
▁räkning	-4600
▁sträcka	-4601
▁tillför	-4602
▁Barnabas	-4603
▁Manasses	-4604
▁ansiktet	-4605
▁arbetade	-4606
▁berättat	-4607
▁utrotade	-4608
▁änglarna	-4609
▁överdrog	-4610
▁förkunnar	-4611
▁rosenrött	-4612
▁fullbordan	-4613
▁gudstjänst	-4614
▁tillstadde	-4615
▁underhövit	-4616
▁motståndare	-4617
▁vittnesbördets	-4618
ns	-4619
pe	-4620
agd	-4621
bör	-4622
her	-4623
jöd	-4624
ods	-4625
osa	-4626
▁ru	-4627
brut	-4628
ereb	-4629
häng	-4630
iskt	-4631
sher	-4632
sinn	-4633
▁Amn	-4634
▁Arn	-4635
▁Häl	-4636
▁Pin	-4637
▁beb	-4638
▁bil	-4639
▁eti	-4640
▁göt	-4641
▁ikl	-4642
▁sov	-4643
Hadad	-4644
blick	-4645
kades	-4646
odens	-4647
roder	-4648
▁Elja	-4649
▁bada	-4650
▁bott	-4651
▁famn	-4652
▁gift	-4653
▁giss	-4654
▁inäl	-4655
▁nasi	-4656
▁unge	-4657
▁vård	-4658
▁änka	-4659
▁äten	-4660
Kommen	-4661
kommer	-4662
▁Först	-4663
▁Hamat	-4664
▁Hanan	-4665
▁Jefta	-4666
▁Josia	-4667
▁allra	-4668
▁avund	-4669
▁befäl	-4670
▁beser	-4671
▁etiop	-4672
▁fatta	-4673
▁gamle	-4674
▁grepo	-4675
▁grott	-4676
▁gröda	-4677
▁häpna	-4678
▁källa	-4679
▁låtom	-4680
▁naken	-4681
▁skugg	-4682
▁stått	-4683
▁vakta	-4684
▁visat	-4685
▁änkor	-4686
varande	-4687
▁Amalek	-4688
▁Sallum	-4689
▁Tarsis	-4690
▁betala	-4691
▁dubbel	-4692
▁elände	-4693
▁framåt	-4694
▁förvir	-4695
▁härlig	-4696
▁klädde	-4697
▁ofrukt	-4698
▁omskär	-4699
▁ringar	-4700
▁samlar	-4701
▁sattes	-4702
▁stigar	-4703
▁stänka	-4704
▁tillsl	-4705
▁täckes	-4706
▁väggen	-4707
alleluja	-4708
▁Hananja	-4709
▁Meraris	-4710
▁Sebaots	-4711
▁begynna	-4712
▁drömmen	-4713
▁härtill	-4714
▁judiska	-4715
▁skriver	-4716
▁upphöjt	-4717
▁anseende	-4718
▁dörrarna	-4719
▁hjärtans	-4720
▁liknelse	-4721
▁plantera	-4722
▁psaltare	-4723
▁särskild	-4724
▁akacieträ	-4725
▁förtäljde	-4726
▁ögonblick	-4727
▁barmhärtig	-4728
▁berömmelse	-4729
▁förskräckt	-4730
▁fyrfotadjur	-4731
▁profeterade	-4732
▁skändlighet	-4733
▁befallningar	-4734
▁sekreteraren	-4735
▁tjänstgöring	-4736
ben	-4737
fri	-4738
ler	-4739
▁Al	-4740
▁Oh	-4741
▁Or	-4742
▁Sö	-4743
▁Åt	-4744
esus	-4745
fatt	-4746
full	-4747
kaff	-4748
llre	-4749
ogen	-4750
skas	-4751
skål	-4752
ssla	-4753
▁Bil	-4754
▁Elj	-4755
▁Lea	-4756
▁Sen	-4757
▁dol	-4758
agade	-4759
ansen	-4760
rycka	-4761
salen	-4762
språk	-4763
ukten	-4764
unnes	-4765
▁Bätt	-4766
▁Esra	-4767
▁Maas	-4768
▁Röda	-4769
▁bist	-4770
▁gent	-4771
▁knor	-4772
▁köpt	-4773
▁njur	-4774
▁utse	-4775
▁äkta	-4776
Frukta	-4777
▁Assur	-4778
▁Baruk	-4779
▁Guden	-4780
▁Ramot	-4781
▁andan	-4782
▁föreb	-4783
▁hagel	-4784
▁kötts	-4785
▁legat	-4786
▁saken	-4787
▁spets	-4788
▁tomma	-4789
▁troll	-4790
▁uttal	-4791
▁Adonia	-4792
▁Hilkia	-4793
▁Midjan	-4794
▁betjän	-4795
▁drucko	-4796
▁falskt	-4797
▁följer	-4798
▁förmör	-4799
▁godhet	-4800
▁hellre	-4801
▁intaga	-4802
▁intogo	-4803
▁kastat	-4804
▁måltid	-4805
▁nästas	-4806
▁plågor	-4807
▁skjuta	-4808
▁skynda	-4809
▁skörde	-4810
▁slutit	-4811
▁syntes	-4812
▁tjänen	-4813
▁vederm	-4814
fyllning	-4815
▁förtjän	-4816
▁talrika	-4817
▁behagade	-4818
▁innersta	-4819
▁kvarleva	-4820
▁ordspråk	-4821
▁personer	-4822
▁tillstäd	-4823
▁västerut	-4824
▁faderlöse	-4825
▁föräldrar	-4826
▁lovsjunga	-4827
▁predikade	-4828
▁stridsmän	-4829
▁svärfader	-4830
▁tjugufyra	-4831
▁fullbordat	-4832
▁vederkvick	-4833
▁avdelningar	-4834
▁fördenskull	-4835
▁penningarna	-4836
▁handfyllning	-4837
▁rättfärdigas	-4838
';	-4839
.)	-4840
ux	-4841
har	-4842
hop	-4843
hår	-4844
ion	-4845
tyr	-4846
uro	-4847
▁Ej	-4848
▁It	-4849
abel	-4850
arej	-4851
aves	-4852
djur	-4853
krar	-4854
kron	-4855
lagt	-4856
llop	-4857
ssik	-4858
ujas	-4859
vret	-4860
▁Att	-4861
▁Gom	-4862
▁Hag	-4863
▁Ken	-4864
▁Lov	-4865
▁Nas	-4866
▁Stå	-4867
▁amm	-4868
▁anv	-4869
▁hiv	-4870
▁per	-4871
▁vir	-4872
huset	-4873
saren	-4874
änken	-4875
▁Boas	-4876
▁Vänd	-4877
▁allm	-4878
▁aska	-4879
▁begr	-4880
▁dels	-4881
▁ende	-4882
▁like	-4883
▁löpa	-4884
▁onde	-4885
▁sänd	-4886
▁utsp	-4887
▁vari	-4888
▁Ännu	-4889
pelare	-4890
redvid	-4891
▁Bland	-4892
▁Darej	-4893
▁Isaks	-4894
▁Tamar	-4895
▁binda	-4896
▁brudg	-4897
▁frisk	-4898
▁fullg	-4899
▁gator	-4900
▁givna	-4901
▁heder	-4902
▁inbär	-4903
▁inseg	-4904
▁ljuda	-4905
▁långa	-4906
▁missk	-4907
▁mängd	-4908
▁njuta	-4909
▁tidså	-4910
▁trapp	-4911
▁tvist	-4912
▁utmed	-4913
▁vrång	-4914
▁Ahasja	-4915
▁Bättre	-4916
▁Sikems	-4917
▁Simeon	-4918
▁hunnit	-4919
▁ljudet	-4920
▁lärare	-4921
▁räddar	-4922
▁räknat	-4923
▁stolta	-4924
▁svärja	-4925
▁syndar	-4926
▁tjänat	-4927
▁vackla	-4928
▁vagnen	-4929
Eftersom	-4930
▁Nasaret	-4931
▁Pinehas	-4932
▁Simeons	-4933
▁anställ	-4934
▁bedriva	-4935
▁fienden	-4936
▁fjorton	-4937
▁frälste	-4938
▁förgäng	-4939
▁hjorden	-4940
▁kryddor	-4941
▁omstört	-4942
▁pelarna	-4943
▁penning	-4944
▁stående	-4945
▁upphöja	-4946
▁äventyr	-4947
ningarnas	-4948
▁bedrövad	-4949
▁fåglarna	-4950
▁förstöra	-4951
▁högtiden	-4952
▁närmaste	-4953
▁sabbater	-4954
▁övergåvo	-4955
▁assyriske	-4956
▁förestånd	-4957
▁försmäkta	-4958
▁uppfyllda	-4959
▁nådastolen	-4960
▁spisoffret	-4961
▁uppfylldes	-4962
▁Fördenskull	-4963
▁himmelriket	-4964
▁underdåniga	-4965
▁helgedomssik	-4966
▁ståndaktighet	-4967
'?	-4968
Hör	-4969
Vil	-4970
ear	-4971
eri	-4972
eve	-4973
fal	-4974
hud	-4975
nam	-4976
sla	-4977
ula	-4978
väg	-4979
väv	-4980
äde	-4981
äte	-4982
▁Og	-4983
▁cy	-4984
akis	-4985
amen	-4986
emes	-4987
jest	-4988
orop	-4989
osex	-4990
sdag	-4991
upps	-4992
äver	-4993
▁Gån	-4994
▁Hen	-4995
▁Nil	-4996
▁Nåd	-4997
▁läk	-4998
▁röd	-4999
indel	-5000
modig	-5001
oteus	-5002
reder	-5003
spill	-5004
▁Bort	-5005
▁feta	-5006
▁gavs	-5007
▁pröv	-5008
▁smak	-5009
▁sömn	-5010
▁tavl	-5011
jestät	-5012
kamrar	-5013
oniten	-5014
stenar	-5015
▁Amnon	-5016
▁Asers	-5017
▁Jabes	-5018
▁Kores	-5019
▁Lakis	-5020
▁Samma	-5021
▁Sihon	-5022
▁Sinai	-5023
▁bords	-5024
▁breda	-5025
▁domar	-5026
▁drack	-5027
▁följt	-5028
▁förmå	-5029
▁gömde	-5030
▁höjde	-5031
▁kläda	-5032
▁loven	-5033
▁stamf	-5034
▁stjäl	-5035
▁syssl	-5036
▁tereb	-5037
▁trakt	-5038
▁vilar	-5039
▁åkrar	-5040
▁örter	-5041
innorna	-5042
sländer	-5043
▁Hälsen	-5044
▁Joahas	-5045
▁Nebats	-5046
▁Seraja	-5047
▁amalek	-5048
▁begära	-5049
▁djuret	-5050
▁driver	-5051
▁förlor	-5052
▁försåt	-5053
▁handla	-5054
▁mönstr	-5055
▁påskal	-5056
▁räcker	-5057
▁ställt	-5058
▁timmen	-5059
▁vinner	-5060
▁värdig	-5061
▁älskat	-5062
▁öppnar	-5063
▁Ebjatar	-5064
▁Jojadas	-5065
▁Serujas	-5066
▁behövde	-5067
▁bröllop	-5068
▁felfria	-5069
▁frälsar	-5070
▁förakta	-5071
▁förbarm	-5072
▁hustrun	-5073
▁rådslag	-5074
▁skapade	-5075
▁stridde	-5076
▁tecknet	-5077
▁tillräk	-5078
▁upphöjd	-5079
▁uträcka	-5080
▁vandren	-5081
▁väpnade	-5082
▁yngling	-5083
▁Mesullam	-5084
▁Timoteus	-5085
▁djävulen	-5086
▁fiskarna	-5087
▁förgäves	-5088
▁förklara	-5089
▁misskund	-5090
▁skrifter	-5091
▁tjugutvå	-5092
▁trångmål	-5093
▁upphörde	-5094
▁utskifta	-5095
▁äventyrs	-5096
▁Darejaves	-5097
▁Förbannad	-5098
▁Halleluja	-5099
▁fjortonde	-5100
▁fängelset	-5101
▁förhärlig	-5102
▁hjältarna	-5103
▁plundring	-5104
▁uppfyllde	-5105
▁viftoffer	-5106
▁överlämna	-5107
▁förföljare	-5108
▁israeliter	-5109
▁egyptiernas	-5110
▁tacksägelse	-5111
▁hövitsmannen	-5112
▁människornas	-5113
▁uppenbarelse	-5114
▁tjänstekvinna	-5115
▁församlingarna	-5116
▁tillsyningsmän	-5117
'.	-5118
ake	-5119
ank	-5120
bil	-5121
ess	-5122
hus	-5123
ima	-5124
jud	-5125
pas	-5126
tas	-5127
vde	-5128
▁Ag	-5129
▁Ko	-5130
dera	-5131
höll	-5132
iken	-5133
osju	-5134
salt	-5135
▁Bel	-5136
▁Deb	-5137
▁Jah	-5138
▁Jet	-5139
▁Jäm	-5140
▁Sar	-5141
▁Sus	-5142
▁Tob	-5143
▁bom	-5144
▁dan	-5145
▁kys	-5146
▁lat	-5147
▁myr	-5148
▁möd	-5149
▁når	-5150
▁räm	-5151
▁sch	-5152
▁sur	-5153
▁sån	-5154
elses	-5155
innat	-5156
lades	-5157
rande	-5158
samme	-5159
sande	-5160
stamm	-5161
stnad	-5162
sverk	-5163
udens	-5164
ållen	-5165
▁Kain	-5166
▁Vill	-5167
▁böja	-5168
▁damm	-5169
▁doms	-5170
▁fält	-5171
▁hebr	-5172
▁kill	-5173
▁korg	-5174
▁känd	-5175
▁käre	-5176
▁list	-5177
▁spär	-5178
▁veck	-5179
broder	-5180
färdig	-5181
larnas	-5182
talade	-5183
träden	-5184
äpplen	-5185
▁Därav	-5186
▁Ekron	-5187
▁Given	-5188
▁Haven	-5189
▁Safan	-5190
▁Seirs	-5191
▁Tagen	-5192
▁brett	-5193
▁börda	-5194
▁därur	-5195
▁hebre	-5196
▁höjer	-5197
▁höras	-5198
▁jordb	-5199
▁pröva	-5200
▁skägg	-5201
▁skörd	-5202
▁säden	-5203
▁tagas	-5204
▁taket	-5205
▁torra	-5206
▁vilda	-5207
▁värre	-5208
▁ändan	-5209
spillog	-5210
▁Babels	-5211
▁Faders	-5212
▁andras	-5213
▁avföll	-5214
▁blodsk	-5215
▁drivit	-5216
▁ersätt	-5217
▁fästen	-5218
▁fångna	-5219
▁granat	-5220
▁gällde	-5221
▁harpor	-5222
▁hindra	-5223
▁kännen	-5224
▁namnen	-5225
▁ohelga	-5226
▁osyrat	-5227
▁periss	-5228
▁sanden	-5229
▁sinnes	-5230
▁smörja	-5231
▁tolfte	-5232
▁vilade	-5233
▁ämbete	-5234
▁Jojakim	-5235
▁Sebulon	-5236
▁alltför	-5237
▁förbitt	-5238
▁förrätt	-5239
▁grottan	-5240
▁hjälper	-5241
▁redliga	-5242
▁rådsher	-5243
▁spetsen	-5244
▁stänger	-5245
▁söderut	-5246
▁undfått	-5247
▁upphäva	-5248
▁uppstår	-5249
▁utkräva	-5250
▁vattnen	-5251
▁altarets	-5252
▁förgäter	-5253
▁förgöras	-5254
▁förkasta	-5255
▁förmådde	-5256
▁förstock	-5257
▁herdarna	-5258
▁kläderna	-5259
▁kvinnans	-5260
▁lyckosam	-5261
▁pelarhuv	-5262
▁stranden	-5263
▁störtade	-5264
▁tillslut	-5265
▁uppfylla	-5266
▁uppväckt	-5267
▁utgjutit	-5268
▁evigheter	-5269
▁filistéen	-5270
▁himmelska	-5271
▁hövdingen	-5272
▁utgjordes	-5273
▁begynnelse	-5274
▁frälsnings	-5275
▁fördärvade	-5276
▁gräshoppor	-5277
▁påskhögtid	-5278
▁sammalunda	-5279
▁tackoffret	-5280
▁vilddjuret	-5281
▁tillspillog	-5282
▁tillrättavis	-5283
▁tjänstgöringen	-5284
ni	-5285
Där	-5286
bor	-5287
mär	-5288
reg	-5289
sai	-5290
sak	-5291
sat	-5292
spr	-5293
tag	-5294
▁La	-5295
▁di	-5296
▁fj	-5297
▁id	-5298
barn	-5299
iste	-5300
kias	-5301
oset	-5302
otre	-5303
pare	-5304
sköl	-5305
tton	-5306
uren	-5307
usar	-5308
▁Ana	-5309
▁Dem	-5310
▁Gör	-5311
▁Sef	-5312
▁Tir	-5313
▁bra	-5314
▁gro	-5315
▁hur	-5316
▁ins	-5317
▁rän	-5318
▁sna	-5319
▁ull	-5320
Skall	-5321
empel	-5322
erubb	-5323
röder	-5324
skars	-5325
ublik	-5326
ummen	-5327
ändas	-5328
▁Amen	-5329
▁Amos	-5330
▁Asas	-5331
▁Dess	-5332
▁Gasa	-5333
▁arme	-5334
▁bokr	-5335
▁elva	-5336
▁form	-5337
▁fäll	-5338
▁godo	-5339
▁lyft	-5340
▁läst	-5341
▁noga	-5342
▁orol	-5343
▁pant	-5344
▁sköt	-5345
▁torn	-5346
▁vett	-5347
▁vida	-5348
sikten	-5349
tligen	-5350
▁Fräls	-5351
▁Gören	-5352
▁Koras	-5353
▁Nabal	-5354
▁bjuda	-5355
▁bojor	-5356
▁bring	-5357
▁dödat	-5358
▁föder	-5359
▁jämra	-5360
▁lärde	-5361
▁nasir	-5362
▁natur	-5363
▁ovänn	-5364
▁skinn	-5365
▁stena	-5366
▁store	-5367
▁svaga	-5368
▁svåra	-5369
▁sälja	-5370
▁talas	-5371
▁varpå	-5372
▁vikit	-5373
▁överv	-5374
▁Esaias	-5375
▁Gudens	-5376
▁Karmel	-5377
▁Likväl	-5378
▁Saliga	-5379
▁Vilken	-5380
▁begabb	-5381
▁besatt	-5382
▁bräder	-5383
▁efoden	-5384
▁förtal	-5385
▁gjutna	-5386
▁helgar	-5387
▁himlar	-5388
▁hårdna	-5389
▁kanten	-5390
▁kysste	-5391
▁omkull	-5392
▁sjunka	-5393
▁törnen	-5394
▁Isaskar	-5395
▁Macedon	-5396
▁anskaff	-5397
▁avstånd	-5398
▁bakhåll	-5399
▁gränser	-5400
▁olyckan	-5401
▁omgjord	-5402
▁plundra	-5403
▁rådslut	-5404
▁silvret	-5405
▁släppte	-5406
▁sålunda	-5407
▁tillbad	-5408
▁tillbör	-5409
▁upphöra	-5410
▁uträckt	-5411
▁väntade	-5412
heligaste	-5413
▁Isaskars	-5414
▁Sebulons	-5415
▁angripna	-5416
▁bedrivit	-5417
▁förgätit	-5418
▁kejsaren	-5419
▁klagorop	-5420
▁levandes	-5421
▁omskurna	-5422
▁skriften	-5423
▁starkare	-5424
▁ständigt	-5425
▁tillkomm	-5426
▁varhelst	-5427
▁överdrag	-5428
▁Likaledes	-5429
▁avdelning	-5430
▁begärelse	-5431
▁budbärare	-5432
▁fikonträd	-5433
▁förtrösta	-5434
▁oförstånd	-5435
▁synagogan	-5436
▁förgårdens	-5437
▁jebuséerna	-5438
▁bergsbygden	-5439
▁fruktansvär	-5440
▁hednafolken	-5441
▁hemsökelsen	-5442
▁offerhöjder	-5443
▁smörjelseol	-5444
▁övermäktiga	-5445
▁evigheternas	-5446
▁förbannelser	-5447
▁rättfärdiges	-5448
▁uppståndelse	-5449
▁Nebukadressar	-5450
▁allraheligaste	-5451
ba	-5452
▁,	-5453
Gör	-5454
Upp	-5455
jes	-5456
läd	-5457
mas	-5458
slå	-5459
öre	-5460
▁hy	-5461
▁ug	-5462
Amen	-5463
ilja	-5464
käll	-5465
mått	-5466
napp	-5467
odet	-5468
orat	-5469
riel	-5470
tiop	-5471
uels	-5472
▁Ama	-5473
▁Giv	-5474
▁Res	-5475
▁Sis	-5476
▁get	-5477
▁gry	-5478
▁mut	-5479
▁rub	-5480
▁skr	-5481
▁tig	-5482
▁val	-5483
Semes	-5484
bärge	-5485
jning	-5486
lande	-5487
moder	-5488
plikt	-5489
skinn	-5490
stäng	-5491
ätter	-5492
ådade	-5493
ödens	-5494
▁Abel	-5495
▁Akis	-5496
▁Gers	-5497
▁Isai	-5498
▁Iseb	-5499
▁Suck	-5500
▁bett	-5501
▁bäst	-5502
▁dens	-5503
▁druv	-5504
▁häft	-5505
▁jubl	-5506
▁klen	-5507
▁kära	-5508
▁pund	-5509
▁spar	-5510
▁stöt	-5511
▁svin	-5512
▁svor	-5513
▁sökt	-5514
▁tiga	-5515
▁äran	-5516
▁ålig	-5517
jungen	-5518
▁Eliab	-5519
▁Etiop	-5520
▁Hiram	-5521
▁Honom	-5522
▁Intet	-5523
▁Isais	-5524
▁Joabs	-5525
▁Lovad	-5526
▁Nilfl	-5527
▁Ruben	-5528
▁arvsl	-5529
▁duvor	-5530
▁dånet	-5531
▁dårar	-5532
▁dödad	-5533
▁fylla	-5534
▁gives	-5535
▁helst	-5536
▁hänga	-5537
▁höres	-5538
▁lagar	-5539
▁märke	-5540
▁oupps	-5541
▁plikt	-5542
▁rådde	-5543
▁skona	-5544
▁skyld	-5545
▁smort	-5546
▁stego	-5547
▁ström	-5548
▁stång	-5549
▁sädes	-5550
▁torrt	-5551
▁ypper	-5552
▁äldre	-5553
bredvid	-5554
platsen	-5555
stycket	-5556
▁Kehats	-5557
▁Kommen	-5558
▁Serubb	-5559
▁bröden	-5560
▁cypres	-5561
▁friska	-5562
▁frågen	-5563
▁fåkunn	-5564
▁förväg	-5565
▁höghel	-5566
▁kedjor	-5567
▁lagens	-5568
▁lammen	-5569
▁lyster	-5570
▁omring	-5571
▁publik	-5572
▁rening	-5573
▁sexton	-5574
▁tackar	-5575
▁tronar	-5576
▁utfört	-5577
▁belägra	-5578
▁bringar	-5579
▁brännas	-5580
▁drabbas	-5581
▁drömmar	-5582
▁fördrag	-5583
▁förvalt	-5584
▁grunden	-5585
▁kammare	-5586
▁keruber	-5587
▁närmast	-5588
▁platser	-5589
▁stunden	-5590
▁tvinnat	-5591
▁uppdrag	-5592
▁väldige	-5593
▁åkallan	-5594
▁Därifrån	-5595
▁bihustru	-5596
▁boskapen	-5597
▁fullbord	-5598
▁förstodo	-5599
▁häravdel	-5600
▁lidanden	-5601
▁orättråd	-5602
▁uppfyllt	-5603
▁vadhelst	-5604
▁vistades	-5605
▁alltefter	-5606
▁föraktade	-5607
▁förbannar	-5608
▁kvarlevan	-5609
▁morgonrod	-5610
▁människoh	-5611
▁underbara	-5612
▁uppenbart	-5613
▁vapendrag	-5614
▁ödmjukade	-5615
▁Macedonien	-5616
▁ersättning	-5617
▁fåfängliga	-5618
▁förvirring	-5619
▁havsländer	-5620
▁planterade	-5621
▁förstlingen	-5622
▁hövdingarna	-5623
▁påskalammet	-5624
▁stadsporten	-5625
▁ståthållare	-5626
▁hedningarnas	-5627
▁konungadömet	-5628
▁välbehagligt	-5629
▁vedergällning	-5630
Ha	-5631
På	-5632
ly	-5633
ty	-5634
Men	-5635
ads	-5636
art	-5637
bad	-5638
bel	-5639
ber	-5640
jon	-5641
lit	-5642
set	-5643
▁Es	-5644
▁Sa	-5645
▁ag	-5646
Edom	-5647
Till	-5648
bets	-5649
iern	-5650
kana	-5651
otta	-5652
ropa	-5653
sdod	-5654
ssar	-5655
steg	-5656
stid	-5657
tjän	-5658
ulor	-5659
unno	-5660
viss	-5661
▁Jaf	-5662
▁Ked	-5663
▁Mol	-5664
▁Ner	-5665
▁Ref	-5666
▁Reg	-5667
▁Vår	-5668
▁gir	-5669
▁håg	-5670
▁ivr	-5671
▁knä	-5672
▁lin	-5673
▁log	-5674
▁mul	-5675
▁oms	-5676
▁sjö	-5677
judit	-5678
klaga	-5679
komma	-5680
osång	-5681
ummet	-5682
▁Adam	-5683
▁Ahik	-5684
▁Berg	-5685
▁Hela	-5686
▁Noom	-5687
▁Själ	-5688
▁anst	-5689
▁arma	-5690
▁bönh	-5691
▁dela	-5692
▁dölj	-5693
▁give	-5694
▁grop	-5695
▁heta	-5696
▁höre	-5697
▁pann	-5698
▁rust	-5699
▁uppf	-5700
ringar	-5701
stycke	-5702
vinden	-5703
▁Många	-5704
▁Nadab	-5705
▁bävan	-5706
▁elfte	-5707
▁fågel	-5708
▁fånge	-5709
▁gatan	-5710
▁hären	-5711
▁klaga	-5712
▁köpte	-5713
▁locka	-5714
▁neder	-5715
▁snabb	-5716
▁stapp	-5717
▁surde	-5718
▁synen	-5719
▁trädg	-5720
▁varna	-5721
▁Ahitof	-5722
▁Elkana	-5723
▁bedrag	-5724
▁behaga	-5725
▁borgen	-5726
▁bredde	-5727
▁bunden	-5728
▁bägare	-5729
▁druvor	-5730
▁frihet	-5731
▁härmed	-5732
▁kalvar	-5733
▁kastas	-5734
▁klädda	-5735
▁ledare	-5736
▁lyfter	-5737
▁lämnar	-5738
▁offras	-5739
▁regera	-5740
▁samlat	-5741
▁skådar	-5742
▁slagen	-5743
▁strand	-5744
▁störta	-5745
▁toppen	-5746
▁träffa	-5747
▁umgäng	-5748
▁uppman	-5749
▁utöver	-5750
▁yngste	-5751
lingarna	-5752
▁Gomorra	-5753
▁Högstes	-5754
▁aderton	-5755
▁andliga	-5756
▁antända	-5757
▁apostel	-5758
▁bedraga	-5759
▁bevisat	-5760
▁drucken	-5761
▁druckit	-5762
▁druckna	-5763
▁drycker	-5764
▁fönster	-5765
▁förgård	-5766
▁förmana	-5767
▁gatorna	-5768
▁hjordar	-5769
▁leviten	-5770
▁leviter	-5771
▁samvete	-5772
▁skapare	-5773
▁stolpar	-5774
▁stycket	-5775
▁talrikt	-5776
▁trakten	-5777
▁upplyft	-5778
▁utförde	-5779
▁vredgas	-5780
▁fariséer	-5781
▁högtider	-5782
▁konungas	-5783
▁lustgård	-5784
▁misshand	-5785
▁släktreg	-5786
▁starkhet	-5787
▁sörjande	-5788
▁terebint	-5789
▁tjänsten	-5790
▁underbar	-5791
▁visheten	-5792
▁betalning	-5793
▁församlat	-5794
▁ingenting	-5795
▁inälvorna	-5796
▁tidsålder	-5797
▁uppväckte	-5798
▁väsendena	-5799
▁övertäcka	-5800
▁begärelser	-5801
▁förtröstan	-5802
▁förtörnade	-5803
▁prästernas	-5804
▁årsgammalt	-5805
▁fäkreaturen	-5806
▁tjänarinnor	-5807
▁vederfarits	-5808
▁dörrvaktarna	-5809
▁förgrymmelse	-5810
▁förskingrade	-5811
▁tabernaklets	-5812
▁offerhöjderna	-5813
▁ostrafflighet	-5814
▁äktenskapsbry	-5815
bu	-5816
fa	-5817
Hav	-5818
aim	-5819
deb	-5820
eas	-5821
fåg	-5822
gir	-5823
jar	-5824
lan	-5825
ogo	-5826
oms	-5827
vir	-5828
yka	-5829
▁Hu	-5830
▁so	-5831
▁tö	-5832
▁åd	-5833
Bort	-5834
Från	-5835
amod	-5836
area	-5837
enai	-5838
fald	-5839
isai	-5840
ivet	-5841
nans	-5842
ovan	-5843
urna	-5844
äget	-5845
övar	-5846
▁Mil	-5847
▁Set	-5848
▁Tal	-5849
▁ced	-5850
▁fat	-5851
▁lug	-5852
▁orm	-5853
Lovad	-5854
Välan	-5855
insen	-5856
kning	-5857
sidan	-5858
tande	-5859
visso	-5860
äckar	-5861
▁Elam	-5862
▁Följ	-5863
▁Hava	-5864
▁Jona	-5865
▁Kora	-5866
▁Mesa	-5867
▁Ohol	-5868
▁Saba	-5869
▁Säll	-5870
▁blin	-5871
▁evad	-5872
▁fira	-5873
▁hänt	-5874
▁mild	-5875
▁nord	-5876
▁ohör	-5877
▁snär	-5878
▁tänk	-5879
▁vägg	-5880
▁åren	-5881
▁övar	-5882
▁övre	-5883
Konung	-5884
rikets	-5885
tiokia	-5886
▁Peres	-5887
▁Redan	-5888
▁Timna	-5889
▁Ussia	-5890
▁angre	-5891
▁barna	-5892
▁bytet	-5893
▁djupt	-5894
▁drist	-5895
▁dåren	-5896
▁femti	-5897
▁färde	-5898
▁hetta	-5899
▁hurud	-5900
▁hårda	-5901
▁inföd	-5902
▁invig	-5903
▁lider	-5904
▁lidit	-5905
▁mutor	-5906
▁märka	-5907
▁orygg	-5908
▁regna	-5909
▁sköte	-5910
▁slung	-5911
▁slöto	-5912
▁tanke	-5913
▁tukta	-5914
▁törne	-5915
▁utfär	-5916
altaret	-5917
eberget	-5918
färdiga	-5919
ställen	-5920
▁Sammal	-5921
▁bommar	-5922
▁bygger	-5923
▁fattat	-5924
▁femton	-5925
▁fyrfat	-5926
▁fördes	-5927
▁förlit	-5928
▁förnam	-5929
▁förstr	-5930
▁hjulen	-5931
▁hängde	-5932
▁jämmer	-5933
▁kallad	-5934
▁kastar	-5935
▁löftes	-5936
▁märker	-5937
▁norrut	-5938
▁sinnen	-5939
▁skaran	-5940
▁slutat	-5941
▁snaror	-5942
▁surdeg	-5943
▁älsken	-5944
▁Därtill	-5945
▁bevisar	-5946
▁emellan	-5947
▁förströ	-5948
▁härskri	-5949
▁hårdhet	-5950
▁jordbäv	-5951
▁kungöra	-5952
▁ljungel	-5953
▁manteln	-5954
▁saktmod	-5955
▁tålamod	-5956
▁ungdoms	-5957
▁utbrett	-5958
▁vittnar	-5959
▁vänligt	-5960
▁Antiokia	-5961
▁Jonatans	-5962
▁Kanhända	-5963
▁Libanons	-5964
▁benjamin	-5965
▁densamme	-5966
▁frimodig	-5967
▁förlåtet	-5968
▁förskjut	-5969
▁hårdnack	-5970
▁landsmän	-5971
▁larmande	-5972
▁palatser	-5973
▁personen	-5974
▁rikligen	-5975
▁rättsinn	-5976
▁rökelsen	-5977
▁täckelse	-5978
▁upptagen	-5979
▁återhåll	-5980
▁anställde	-5981
▁försvinna	-5982
▁förödelse	-5983
▁härskaror	-5984
▁hövitsman	-5985
▁klagosång	-5986
▁livsdagar	-5987
▁livsfrukt	-5988
▁planterat	-5989
▁provinsen	-5990
▁stormvind	-5991
▁stängerna	-5992
▁vedermöda	-5993
▁ynglingar	-5994
▁Sammalunda	-5995
▁familjerna	-5996
▁förhärliga	-5997
▁grundvalar	-5998
▁omgjordade	-5999
▁tillkommer	-6000
▁framställde	-6001
▁fördärvligt	-6002
▁överlämnade	-6003
▁hungersnöden	-6004
▁härskarornas	-6005
▁ogärningsmän	-6006
▁vapendragare	-6007
▁kraftgärningar	-6008
bs	-6009
ha	-6010
'?»	-6011
Med	-6012
Sen	-6013
gud	-6014
lär	-6015
syn	-6016
▁Eg	-6017
▁Ur	-6018
▁ko	-6019
Dina	-6020
Drag	-6021
aget	-6022
akna	-6023
asib	-6024
edda	-6025
föda	-6026
iner	-6027
kärl	-6028
nest	-6029
rovo	-6030
stre	-6031
står	-6032
träl	-6033
umen	-6034
ånad	-6035
ömde	-6036
▁Ara	-6037
▁Keg	-6038
▁Mar	-6039
▁Mig	-6040
▁Mot	-6041
▁Nin	-6042
▁Par	-6043
▁Sur	-6044
▁döv	-6045
▁gas	-6046
▁göd	-6047
▁hot	-6048
▁hån	-6049
▁lek	-6050
▁påb	-6051
▁rid	-6052
▁snö	-6053
Dessa	-6054
Ingen	-6055
Låten	-6056
anför	-6057
följd	-6058
given	-6059
kakor	-6060
tänkt	-6061
ydnad	-6062
▁Ahia	-6063
▁Anat	-6064
▁Frat	-6065
▁Joel	-6066
▁Naam	-6067
▁Rimm	-6068
▁Vart	-6069
▁anda	-6070
▁bjud	-6071
▁dopp	-6072
▁edom	-6073
▁fina	-6074
▁grek	-6075
▁lamp	-6076
▁mång	-6077
▁näsa	-6078
▁riva	-6079
▁spår	-6080
▁tand	-6081
▁tyst	-6082
estalt	-6083
fogade	-6084
runden	-6085
skrift	-6086
slagen	-6087
staden	-6088
städer	-6089
städes	-6090
trädde	-6091
äldjur	-6092
▁Asafs	-6093
▁Haran	-6094
▁Hasab	-6095
▁Jesua	-6096
▁Libna	-6097
▁Loven	-6098
▁Mikal	-6099
▁Tirsa	-6100
▁akten	-6101
▁bestr	-6102
▁flyga	-6103
▁fritt	-6104
▁fälla	-6105
▁följd	-6106
▁glatt	-6107
▁gröna	-6108
▁håret	-6109
▁klapp	-6110
▁kvist	-6111
▁köpen	-6112
▁menen	-6113
▁nedan	-6114
▁orden	-6115
▁ormen	-6116
▁panna	-6117
▁räcka	-6118
▁sjöng	-6119
▁skipa	-6120
▁skott	-6121
▁stick	-6122
▁svart	-6123
▁trött	-6124
▁tände	-6125
▁tänkt	-6126
▁ugnen	-6127
▁utstå	-6128
▁vanär	-6129
ammaren	-6130
detiden	-6131
strumen	-6132
▁Abisai	-6133
▁Hasael	-6134
▁Hennes	-6135
▁Hesron	-6136
▁bedrev	-6137
▁besöka	-6138
▁dessas	-6139
▁fettet	-6140
▁förbin	-6141
▁förseg	-6142
▁hitupp	-6143
▁huvudb	-6144
▁kropps	-6145
▁kärlen	-6146
▁plägar	-6147
▁redlig	-6148
▁sjutti	-6149
▁stiger	-6150
▁stöter	-6151
▁trädet	-6152
kamrarna	-6153
▁Därnäst	-6154
▁Hiskias	-6155
▁Maaseja	-6156
▁anklaga	-6157
▁begrovo	-6158
▁bereder	-6159
▁besitta	-6160
▁bestämd	-6161
▁borgare	-6162
▁brodern	-6163
▁dubbelt	-6164
▁fröjdar	-6165
▁förhäng	-6166
▁förnumm	-6167
▁förtärt	-6168
▁heligas	-6169
▁hetiten	-6170
▁krossat	-6171
▁kunnigt	-6172
▁möjligt	-6173
▁offergå	-6174
▁otrogna	-6175
▁otrohet	-6176
▁portens	-6177
▁skriade	-6178
▁skyarna	-6179
▁släkten	-6180
▁stadgat	-6181
▁stänkte	-6182
▁svaghet	-6183
▁upphört	-6184
▁öppning	-6185
▁överens	-6186
▁Jojakims	-6187
▁femtonde	-6188
▁föraktar	-6189
▁förfäran	-6190
▁gällande	-6191
▁hundarna	-6192
▁kräldjur	-6193
▁majestät	-6194
▁ovänners	-6195
▁sonhustr	-6196
▁stenarna	-6197
▁trampade	-6198
▁uppväcka	-6199
▁varelser	-6200
▁bedrövade	-6201
▁bestämmer	-6202
▁bröstsköl	-6203
▁fördrivna	-6204
▁förtrycka	-6205
▁högeligen	-6206
▁högheligt	-6207
▁ingalunda	-6208
▁människos	-6209
▁silverpen	-6210
▁skrivelse	-6211
▁svärmoder	-6212
▁övergiven	-6213
ansvärjning	-6214
▁frivilliga	-6215
▁förkastade	-6216
▁förlåtelse	-6217
▁förskräcka	-6218
▁hemsökelse	-6219
▁korteligen	-6220
▁skrifterna	-6221
▁frimodighet	-6222
▁sammankomst	-6223
▁tillbörligt	-6224
▁amalekiterna	-6225
▁fångenskapen	-6226
▁tillkommelse	-6227
▁morgonrodnaden	-6228
▁rättfärdighets	-6229
uc	-6230
?»,	-6231
Ett	-6232
bes	-6233
bok	-6234
edd	-6235
mak	-6236
oda	-6237
one	-6238
pat	-6239
pta	-6240
ymb	-6241
öde	-6242
▁Sm	-6243
▁ex	-6244
Jear	-6245
Rätt	-6246
abba	-6247
agna	-6248
bygg	-6249
eden	-6250
kare	-6251
klok	-6252
ljud	-6253
makt	-6254
nars	-6255
ropp	-6256
ätet	-6257
ävar	-6258
ådom	-6259
▁Ces	-6260
▁Jek	-6261
▁Låg	-6262
▁Pas	-6263
▁Rab	-6264
▁Tab	-6265
▁Tre	-6266
▁Vet	-6267
▁Vis	-6268
▁avh	-6269
▁gad	-6270
▁hål	-6271
▁lur	-6272
▁lut	-6273
Såsom	-6274
arbet	-6275
buden	-6276
fritt	-6277
föder	-6278
gning	-6279
kring	-6280
ommor	-6281
ordön	-6282
parna	-6283
rivna	-6284
rogen	-6285
räden	-6286
uggen	-6287
ärtes	-6288
▁Atal	-6289
▁Eder	-6290
▁Gläd	-6291
▁Jord	-6292
▁Våra	-6293
▁bjäl	-6294
▁bölj	-6295
▁böra	-6296
▁gett	-6297
▁glän	-6298
▁halm	-6299
▁kost	-6300
▁lopp	-6301
▁läsa	-6302
▁oavl	-6303
▁rafa	-6304
▁skök	-6305
▁sova	-6306
▁tist	-6307
▁vält	-6308
Herren	-6309
iftade	-6310
stiden	-6311
▁Amasa	-6312
▁Andra	-6313
▁Arnon	-6314
▁Asien	-6315
▁Barak	-6316
▁Hasor	-6317
▁Horeb	-6318
▁Noomi	-6319
▁Simri	-6320
▁aktat	-6321
▁ammon	-6322
▁bortt	-6323
▁glans	-6324
▁harpa	-6325
▁inträ	-6326
▁knapp	-6327
▁korsf	-6328
▁lydde	-6329
▁mulås	-6330
▁olika	-6331
▁orten	-6332
▁renas	-6333
▁ruben	-6334
▁rövar	-6335
▁samme	-6336
▁sidon	-6337
▁sonen	-6338
▁ungar	-6339
▁uppåt	-6340
▁utgör	-6341
▁utläm	-6342
▁varav	-6343
▁vålla	-6344
▁Åklag	-6345
▁ådrag	-6346
igheter	-6347
▁Elisam	-6348
▁Frukta	-6349
▁Isebel	-6350
▁Likaså	-6351
▁Obadja	-6352
▁Profet	-6353
▁Suckot	-6354
▁avföda	-6355
▁avstod	-6356
▁begynt	-6357
▁begärt	-6358
▁byggas	-6359
▁cedrar	-6360
▁färdas	-6361
▁förson	-6362
▁gladde	-6363
▁gräset	-6364
▁hankön	-6365
▁hatade	-6366
▁hornen	-6367
▁infria	-6368
▁klagan	-6369
▁kriget	-6370
▁lyckas	-6371
▁längst	-6372
▁löftet	-6373
▁makten	-6374
▁menade	-6375
▁månads	-6376
▁nödens	-6377
▁pelare	-6378
▁prövar	-6379
▁samlas	-6380
▁skicka	-6381
▁skogen	-6382
▁spådom	-6383
▁sätten	-6384
▁timmer	-6385
▁tordön	-6386
▁tungor	-6387
▁uppror	-6388
▁uppträ	-6389
▁vinter	-6390
▁vunnit	-6391
▁ångrar	-6392
▁översv	-6393
ryckning	-6394
▁Cesarea	-6395
▁Eljasib	-6396
▁befäste	-6397
▁beskärm	-6398
▁därovan	-6399
▁endräkt	-6400
▁exempel	-6401
▁flykten	-6402
▁förbida	-6403
▁förråda	-6404
▁förtram	-6405
▁förvill	-6406
▁hustrus	-6407
▁härligt	-6408
▁lyssnar	-6409
▁manskap	-6410
▁meddela	-6411
▁närmare	-6412
▁orenade	-6413
▁skaffat	-6414
▁skeppet	-6415
▁skådade	-6416
▁skönhet	-6417
▁släpper	-6418
▁systrar	-6419
▁trolöst	-6420
▁trängde	-6421
▁uppsluk	-6422
▁utplåna	-6423
▁vartill	-6424
▁älskare	-6425
▁Ahimelek	-6426
▁Jeremias	-6427
▁blomster	-6428
▁frälsare	-6429
▁färdades	-6430
▁fördriva	-6431
▁förlorat	-6432
▁härbärge	-6433
▁krigsmän	-6434
▁ljuvligt	-6435
▁lärjunge	-6436
▁rättvisa	-6437
▁strömmen	-6438
▁tecknade	-6439
▁tillrett	-6440
▁utseende	-6441
strumenter	-6442
▁Hedmarken	-6443
▁Låglandet	-6444
▁Nilfloden	-6445
▁avkomling	-6446
▁frimodigt	-6447
▁förföljer	-6448
▁förmaning	-6449
▁förvärvat	-6450
▁hövitsmän	-6451
▁levitiska	-6452
▁mäktigare	-6453
▁profeters	-6454
▁tillfalla	-6455
▁undergång	-6456
▁Serubbabel	-6457
▁förlossare	-6458
▁ljungeldar	-6459
▁skonsamhet	-6460
▁vederfaras	-6461
▁uttydningen	-6462
▁granatäpplen	-6463
ilj	-6464
jot	-6465
kim	-6466
led	-6467
rak	-6468
rim	-6469
räm	-6470
rän	-6471
sid	-6472
ssk	-6473
uas	-6474
öjt	-6475
öll	-6476
örn	-6477
▁Aj	-6478
▁Kv	-6479
▁hå	-6480
Tala	-6481
ahab	-6482
ahat	-6483
akan	-6484
akat	-6485
akor	-6486
arne	-6487
aväl	-6488
itus	-6489
kant	-6490
olen	-6491
rida	-6492
sars	-6493
stån	-6494
ukor	-6495
uxit	-6496
varo	-6497
älle	-6498
ågor	-6499
▁Ahi	-6500
▁Hur	-6501
▁Jas	-6502
▁Jef	-6503
▁Kap	-6504
▁Kus	-6505
▁Mir	-6506
▁bat	-6507
▁bäd	-6508
▁gåv	-6509
▁inh	-6510
▁kin	-6511
▁kiv	-6512
▁ras	-6513
▁äga	-6514
farna	-6515
marja	-6516
undar	-6517
ästar	-6518
▁Geba	-6519
▁Seir	-6520
▁bete	-6521
▁bota	-6522
▁cymb	-6523
▁dogo	-6524
▁flyr	-6525
▁jaga	-6526
▁krok	-6527
▁lagd	-6528
▁lutt	-6529
▁lyte	-6530
▁lärd	-6531
▁lövh	-6532
▁nedb	-6533
▁oxen	-6534
▁rest	-6535
▁skym	-6536
▁stäm	-6537
▁trog	-6538
▁väga	-6539
▁värt	-6540
Skulle	-6541
blivna	-6542
ernaum	-6543
gjorda	-6544
höjden	-6545
illnad	-6546
kläder	-6547
sassar	-6548
▁Asael	-6549
▁Hanok	-6550
▁Jotam	-6551
▁Låtom	-6552
▁Maaka	-6553
▁Teman	-6554
▁blåsa	-6555
▁darra	-6556
▁delar	-6557
▁födda	-6558
▁föröd	-6559
▁gifta	-6560
▁hasta	-6561
▁likad	-6562
▁låder	-6563
▁måtte	-6564
▁mötte	-6565
▁näpst	-6566
▁påbud	-6567
▁rikes	-6568
▁skilj	-6569
▁sköka	-6570
▁sover	-6571
▁spott	-6572
▁utlov	-6573
▁vuxit	-6574
▁vårda	-6575
▁ägare	-6576
▁änkan	-6577
▁önska	-6578
▁öppen	-6579
▁östan	-6580
etéerna	-6581
kammare	-6582
ordning	-6583
▁Amarja	-6584
▁Efesus	-6585
▁Lammet	-6586
▁Nineve	-6587
▁arbets	-6588
▁beläte	-6589
▁besked	-6590
▁brevet	-6591
▁brinna	-6592
▁fiskar	-6593
▁flytta	-6594
▁förest	-6595
▁hitned	-6596
▁hämnas	-6597
▁höljde	-6598
▁hördes	-6599
▁ikläda	-6600
▁kämpar	-6601
▁lagbok	-6602
▁lampor	-6603
▁levnad	-6604
▁läggen	-6605
▁myckna	-6606
▁offrar	-6607
▁offren	-6608
▁offret	-6609
▁palmer	-6610
▁ryckas	-6611
▁rövare	-6612
▁signet	-6613
▁spänna	-6614
▁stjäla	-6615
▁säljer	-6616
▁träder	-6617
▁tvådde	-6618
▁utgått	-6619
▁utropa	-6620
▁verket	-6621
▁väntar	-6622
▁ödeläg	-6623
▁övrigt	-6624
Förvisso	-6625
saltaret	-6626
▁Frukten	-6627
▁Jordans	-6628
▁Likasom	-6629
▁barnlös	-6630
▁begäran	-6631
▁bespeja	-6632
▁betrakt	-6633
▁brödets	-6634
▁dråpare	-6635
▁eftersk	-6636
▁förhärj	-6637
▁förhäva	-6638
▁förneka	-6639
▁grannar	-6640
▁gudsman	-6641
▁hungrig	-6642
▁häpnade	-6643
▁insegel	-6644
▁kvinnas	-6645
▁mannens	-6646
▁nymånad	-6647
▁närvaro	-6648
▁rytande	-6649
▁räknade	-6650
▁smädade	-6651
▁spjutet	-6652
▁stannen	-6653
▁styggel	-6654
▁träffar	-6655
▁upptänd	-6656
▁vacklar	-6657
▁översta	-6658
färdighet	-6659
▁Baalerna	-6660
▁Mattanja	-6661
▁apostlar	-6662
▁bevarade	-6663
▁boningar	-6664
▁felfritt	-6665
▁framsida	-6666
▁förgjort	-6667
▁lamporna	-6668
▁nalkades	-6669
▁nedanför	-6670
▁njurarna	-6671
▁oförgäng	-6672
▁olivträd	-6673
▁omgjorda	-6674
▁stjärnor	-6675
▁tillföll	-6676
▁tjänarna	-6677
▁undkomma	-6678
▁uppehåll	-6679
▁uppehöll	-6680
▁uppfylld	-6681
▁utgjuten	-6682
▁utgjuter	-6683
▁åkallade	-6684
▁Kapernaum	-6685
▁blodskuld	-6686
▁farbroder	-6687
▁förbrutit	-6688
▁fördärvar	-6689
▁förtörnad	-6690
▁jubelåret	-6691
▁klädnaden	-6692
▁liknelser	-6693
▁nedgjorde	-6694
▁ofruktsam	-6695
▁oomskuren	-6696
▁ostraffad	-6697
▁sjukdomar	-6698
▁skriftens	-6699
▁tredjedel	-6700
▁uppsikten	-6701
▁uttydning	-6702
▁Åklagaren	-6703
▁överdraga	-6704
▁fullkomlig	-6705
▁försmäktar	-6706
▁landsflykt	-6707
▁moabiterna	-6708
▁sanningens	-6709
▁tempelträl	-6710
▁uppenbarad	-6711
▁vattenkäll	-6712
▁överlämnat	-6713
▁boskapsdjur	-6714
▁drottningen	-6715
▁förskräckas	-6716
▁förståndiga	-6717
▁helgedomens	-6718
▁huvudbindel	-6719
▁huvudmannen	-6720
▁krigsmännen	-6721
▁ogudaktiges	-6722
▁perisséerna	-6723
▁skördetiden	-6724
▁tredjedelen	-6725
▁hövdingdömen	-6726
▁lottkastning	-6727
▁ouppsåtligen	-6728
▁fruktansvärda	-6729
▁uppståndelsen	-6730
få	-6731
kn	-6732
kr	-6733
vä	-6734
Neg	-6735
agn	-6736
ani	-6737
bev	-6738
fan	-6739
gad	-6740
sad	-6741
tss	-6742
▁Ut	-6743
Rabb	-6744
agra	-6745
edag	-6746
efib	-6747
ehat	-6748
elon	-6749
esur	-6750
fält	-6751
ills	-6752
iver	-6753
ohög	-6754
röda	-6755
tasa	-6756
turd	-6757
äden	-6758
äger	-6759
ågen	-6760
ömen	-6761
▁Aro	-6762
▁Arp	-6763
▁Bes	-6764
▁Dag	-6765
▁Jeg	-6766
▁Olj	-6767
▁Sif	-6768
▁avs	-6769
▁lån	-6770
▁nek	-6771
▁rym	-6772
▁sar	-6773
▁seg	-6774
▁sör	-6775
▁tel	-6776
▁tur	-6777
▁ugn	-6778
Varen	-6779
acken	-6780
aljas	-6781
ebrev	-6782
framt	-6783
herib	-6784
heter	-6785
härda	-6786
imaas	-6787
kaffa	-6788
rossa	-6789
röden	-6790
sområ	-6791
▁Abed	-6792
▁Eber	-6793
▁Elis	-6794
▁Hose	-6795
▁Husa	-6796
▁Lamm	-6797
▁Rätt	-6798
▁Siba	-6799
▁entr	-6800
▁flod	-6801
▁gömt	-6802
▁halt	-6803
▁harp	-6804
▁hitt	-6805
▁jude	-6806
▁kalv	-6807
▁koka	-6808
▁lerk	-6809
▁lyda	-6810
▁nämn	-6811
▁nåde	-6812
▁omsk	-6813
▁pres	-6814
▁rost	-6815
▁sist	-6816
▁sålt	-6817
▁sått	-6818
▁tänt	-6819
▁uppr	-6820
▁övat	-6821
asarus	-6822
faller	-6823
fartss	-6824
offren	-6825
skande	-6826
urstar	-6827
▁Asdod	-6828
▁Astar	-6829
▁Geser	-6830
▁Gosen	-6831
▁Jahas	-6832
▁Jedut	-6833
▁Makir	-6834
▁Manoa	-6835
▁Merib	-6836
▁Mikas	-6837
▁Sarai	-6838
▁Sefat	-6839
▁Tobia	-6840
▁avsom	-6841
▁avstå	-6842
▁beror	-6843
▁betro	-6844
▁brand	-6845
▁brast	-6846
▁bågar	-6847
▁börde	-6848
▁danat	-6849
▁eldsl	-6850
▁flyta	-6851
▁gemen	-6852
▁gräto	-6853
▁gömma	-6854
▁hands	-6855
▁kloka	-6856
▁lampa	-6857
▁ljusa	-6858
▁lyfta	-6859
▁maten	-6860
▁nöden	-6861
▁romer	-6862
▁röken	-6863
▁samar	-6864
▁smält	-6865
▁stolt	-6866
▁svall	-6867
▁synas	-6868
▁sägas	-6869
▁tjock	-6870
▁uppbr	-6871
▁uppeg	-6872
▁utgöt	-6873
▁utsag	-6874
▁veden	-6875
▁vägde	-6876
▁övade	-6877
HERRENS	-6878
fruktan	-6879
ingarna	-6880
▁Ahitub	-6881
▁Atalja	-6882
▁Elifas	-6883
▁Itamar	-6884
▁Jerubb	-6885
▁Mirjam	-6886
▁Naaman	-6887
▁Saulus	-6888
▁Siklag	-6889
▁Sisera	-6890
▁Vatten	-6891
▁Vänden	-6892
▁andres	-6893
▁befann	-6894
▁bleven	-6895
▁bävade	-6896
▁dröjer	-6897
▁dödssk	-6898
▁fyllde	-6899
▁förhud	-6900
▁förmån	-6901
▁griper	-6902
▁gården	-6903
▁hjälte	-6904
▁huggor	-6905
▁hugnad	-6906
▁lydiga	-6907
▁läggas	-6908
▁middag	-6909
▁molnen	-6910
▁nämner	-6911
▁nätter	-6912
▁orenat	-6913
▁provet	-6914
▁regnet	-6915
▁renade	-6916
▁rummet	-6917
▁räddad	-6918
▁självt	-6919
▁skända	-6920
▁skådeb	-6921
▁slutet	-6922
▁solens	-6923
▁sättas	-6924
▁tjugus	-6925
▁trogen	-6926
▁trävir	-6927
▁tänken	-6928
▁villen	-6929
▁ådraga	-6930
▁ödmjuk	-6931
▁ömkade	-6932
ellertid	-6933
styckena	-6934
usaradan	-6935
▁Ahimaas	-6936
▁Eljakim	-6937
▁Hasabja	-6938
▁Jonadab	-6939
▁avskaff	-6940
▁blickar	-6941
▁bringas	-6942
▁domaren	-6943
▁fyrkant	-6944
▁förbjöd	-6945
▁fördolt	-6946
▁förklar	-6947
▁gestalt	-6948
▁glädjas	-6949
▁grönska	-6950
▁hälsade	-6951
▁kransar	-6952
▁krossar	-6953
▁krossas	-6954
▁lejonet	-6955
▁längtar	-6956
▁mästare	-6957
▁nedbrut	-6958
▁skrivna	-6959
▁slaktas	-6960
▁smycken	-6961
▁storhet	-6962
▁störtar	-6963
▁såframt	-6964
▁tillträ	-6965
▁troende	-6966
▁träffat	-6967
▁turturd	-6968
▁undersö	-6969
▁utrotat	-6970
▁åkallar	-6971
▁övergav	-6972
fartssång	-6973
▁Ahitofel	-6974
▁Jefunnes	-6975
▁Sanherib	-6976
▁angripen	-6977
▁anskaffa	-6978
▁betryckt	-6979
▁cymbaler	-6980
▁enträget	-6981
▁falskhet	-6982
▁fångarna	-6983
▁fördolda	-6984
▁förtärde	-6985
▁förvärva	-6986
▁genombor	-6987
▁hivéerna	-6988
▁hjälpare	-6989
▁hästarna	-6990
▁kungliga	-6991
▁mottagit	-6992
▁oskyldig	-6993
▁ringaste	-6994
▁sammansv	-6995
▁spetälsk	-6996
▁tjugutre	-6997
▁trolldom	-6998
▁trälinna	-6999
▁utbredde	-7000
▁Välsignad	-7001
▁avfälliga	-7002
▁basunerna	-7003
▁belägring	-7004
▁delaktiga	-7005
▁fruktansv	-7006
▁fördrivit	-7007
▁förfärdig	-7008
▁förhänget	-7009
▁förlossat	-7010
▁förordnat	-7011
▁hebreiska	-7012
▁kunskapen	-7013
▁medbröder	-7014
▁offerhöjd	-7015
▁oförtänkt	-7016
▁ordningen	-7017
▁oskyldigt	-7018
▁smädelser	-7019
▁stammarna	-7020
▁trumpeter	-7021
▁tvärstäng	-7022
▁uppfyllas	-7023
▁Oljeberget	-7024
▁barnaföder	-7025
▁endräktigt	-7026
▁krigshövit	-7027
▁livklädnad	-7028
▁lägerplats	-7029
▁människans	-7030
▁tillbedjen	-7031
▁trettiotvå	-7032
▁uppenbaras	-7033
▁överlämnad	-7034
▁övertäckte	-7035
▁Bergsbygden	-7036
▁Nebusaradan	-7037
▁fikonträdet	-7038
▁gensträvigt	-7039
▁hövdingdöme	-7040
▁offerhöjden	-7041
▁synagogorna	-7042
▁tempelsalen	-7043
▁havsländerna	-7044
▁härhövitsman	-7045
▁orättfärdiga	-7046
▁överflödande	-7047
▁vallfartssång	-7048
▁landshövdingen	-7049
▁smörjelseoljan	-7050
▁återhållsamhet	-7051
▁rättfärdigheten	-7052
!'	-7053
El	-7054
Sl	-7055
sf	-7056
▁2	-7057
Hor	-7058
Kan	-7059
eel	-7060
eor	-7061
fen	-7062
gai	-7063
iot	-7064
ius	-7065
kon	-7066
lyn	-7067
ppa	-7068
räg	-7069
▁Cy	-7070
▁Ev	-7071
▁Su	-7072
▁do	-7073
▁gn	-7074
▁yx	-7075
Sake	-7076
Vill	-7077
aste	-7078
avel	-7079
ebud	-7080
fund	-7081
idna	-7082
jälp	-7083
ktes	-7084
lare	-7085
pion	-7086
stav	-7087
tapp	-7088
älte	-7089
ären	-7090
ånne	-7091
åren	-7092
▁Dib	-7093
▁Efr	-7094
▁Hos	-7095
▁Mam	-7096
▁Någ	-7097
▁Pel	-7098
▁Rem	-7099
▁Sek	-7100
▁Sex	-7101
▁Sor	-7102
▁Uri	-7103
▁ban	-7104
▁bul	-7105
▁ham	-7106
▁måg	-7107
▁Äro	-7108
ankor	-7109
apall	-7110
areas	-7111
aspel	-7112
domen	-7113
elseb	-7114
estus	-7115
igail	-7116
krets	-7117
riven	-7118
sgäst	-7119
sides	-7120
stade	-7121
stret	-7122
undat	-7123
äckas	-7124
▁Bliv	-7125
▁Drag	-7126
▁Edra	-7127
▁Hamm	-7128
▁Lyss	-7129
▁Reka	-7130
▁Salt	-7131
▁Ussa	-7132
▁anbe	-7133
▁dans	-7134
▁flyt	-7135
▁gode	-7136
▁gruv	-7137
▁hind	-7138
▁höja	-7139
▁idel	-7140
▁ingå	-7141
▁leds	-7142
▁lock	-7143
▁låga	-7144
▁låte	-7145
▁lönn	-7146
▁löst	-7147
▁mots	-7148
▁palm	-7149
▁pärl	-7150
▁släp	-7151
▁svik	-7152
▁säge	-7153
▁tage	-7154
▁titt	-7155
▁tomt	-7156
▁torg	-7157
▁törn	-7158
▁utty	-7159
▁varn	-7160
eliten	-7161
ställa	-7162
▁Amram	-7163
▁Hadad	-7164
▁Rehob	-7165
▁betog	-7166
▁blive	-7167
▁botad	-7168
▁brott	-7169
▁dalar	-7170
▁delen	-7171
▁dyrka	-7172
▁faren	-7173
▁fromm	-7174
▁fyllt	-7175
▁fyrti	-7176
▁födas	-7177
▁föred	-7178
▁hungr	-7179
▁hädan	-7180
▁hölja	-7181
▁kakor	-7182
▁kehat	-7183
▁läste	-7184
▁mörkt	-7185
▁orsak	-7186
▁rader	-7187
▁rinna	-7188
▁rykte	-7189
▁skära	-7190
▁slock	-7191
▁späda	-7192
▁stadd	-7193
▁styra	-7194
▁sucka	-7195
▁tahas	-7196
▁trons	-7197
▁tungt	-7198
▁utgår	-7199
▁vakna	-7200
▁visas	-7201
▁åsnan	-7202
▁återv	-7203
farande	-7204
ittning	-7205
samling	-7206
sdjuret	-7207
önstret	-7208
▁Anatot	-7209
▁Artasa	-7210
▁Festus	-7211
▁Folket	-7212
▁Gersom	-7213
▁Himmel	-7214
▁Kanaan	-7215
▁Kareas	-7216
▁Oholib	-7217
▁Sådant	-7218
▁avbild	-7219
▁avsked	-7220
▁behand	-7221
▁dräper	-7222
▁finnen	-7223
▁frände	-7224
▁förött	-7225
▁gudars	-7226
▁guldsm	-7227
▁hållet	-7228
▁ivrigt	-7229
▁klövar	-7230
▁källor	-7231
▁lydnad	-7232
▁lärdom	-7233
▁minsta	-7234
▁nittio	-7235
▁omhäng	-7236
▁omsorg	-7237
▁omtala	-7238
▁rådgiv	-7239
▁rösten	-7240
▁siaren	-7241
▁skålar	-7242
▁smädat	-7243
▁spring	-7244
▁spåmän	-7245
▁staven	-7246
▁svavel	-7247
▁sängen	-7248
▁sömnen	-7249
▁talrik	-7250
▁trötta	-7251
▁töcken	-7252
▁utgick	-7253
▁önskar	-7254
Varifrån	-7255
ellersta	-7256
▁Abigail	-7257
▁Elisama	-7258
▁Josabad	-7259
▁arbetat	-7260
▁betäcka	-7261
▁bittert	-7262
▁bosatta	-7263
▁bördiga	-7264
▁drabbar	-7265
▁dricken	-7266
▁efodens	-7267
▁fastade	-7268
▁frambar	-7269
▁fridens	-7270
▁fyllest	-7271
▁färdigt	-7272
▁förborg	-7273
▁förjaga	-7274
▁förkunn	-7275
▁hörsamm	-7276
▁inbärga	-7277
▁kvistar	-7278
▁lystnad	-7279
▁medborg	-7280
▁murarna	-7281
▁mättade	-7282
▁nätverk	-7283
▁oförfär	-7284
▁ovanför	-7285
▁redligt	-7286
▁redskap	-7287
▁rörande	-7288
▁skjuter	-7289
▁skuggan	-7290
▁slätten	-7291
▁stormen	-7292
▁strömma	-7293
▁störste	-7294
▁synders	-7295
▁tackade	-7296
▁träffas	-7297
▁tröstar	-7298
▁upptaga	-7299
▁vardera	-7300
▁vinpres	-7301
▁vägarna	-7302
▁väktare	-7303
▁våderna	-7304
▁Etiopien	-7305
▁Frälsare	-7306
▁Följande	-7307
▁Netanjas	-7308
▁arvslott	-7309
▁barnbarn	-7310
▁befinnas	-7311
▁fotapall	-7312
▁fönstret	-7313
▁förlidna	-7314
▁förvaras	-7315
▁glödande	-7316
▁knorrade	-7317
▁konstför	-7318
▁ljuvliga	-7319
▁nederlag	-7320
▁sträckte	-7321
▁tillreda	-7322
▁tillsagt	-7323
▁underord	-7324
▁uppbygga	-7325
▁upphäver	-7326
▁utrannsa	-7327
▁yppersta	-7328
▁ödelagda	-7329
▁Jerubbaal	-7330
▁avgudarna	-7331
▁budskapet	-7332
▁evangelii	-7333
▁faderlösa	-7334
▁framtiden	-7335
▁fyrtiofem	-7336
▁förbannad	-7337
▁förbarmar	-7338
▁förfärade	-7339
▁förlorade	-7340
▁glädjebud	-7341
▁hetiterna	-7342
▁murpelare	-7343
▁mönstrade	-7344
▁silverfat	-7345
▁skrymtare	-7346
▁spåmännen	-7347
▁underbart	-7348
▁välsignad	-7349
▁dödsrikets	-7350
▁folkslagen	-7351
▁frivilligt	-7352
▁förbundets	-7353
▁förlossade	-7354
▁förståndet	-7355
▁härlighets	-7356
▁tahasskinn	-7357
▁berättelsen	-7358
▁förbarmande	-7359
▁gudsfruktan	-7360
▁hänryckning	-7361
▁konungarnas	-7362
▁landsbygden	-7363
▁rannsakning	-7364
▁strängaspel	-7365
▁vedergäller	-7366
▁livklädnader	-7367
▁tillkommande	-7368
▁välbehagliga	-7369
▁bäckenställen	-7370
▁sammansvärjning	-7371
Ar	-7372
bi	-7373
yx	-7374
Åt	-7375
▁.	-7376
!»,	-7377
ais	-7378
elk	-7379
eto	-7380
gro	-7381
idd	-7382
oim	-7383
saf	-7384
sop	-7385
tom	-7386
ura	-7387
uva	-7388
vän	-7389
yte	-7390
äss	-7391
ösa	-7392
▁Er	-7393
▁Et	-7394
▁Ga	-7395
▁Ta	-7396
▁fi	-7397
Nego	-7398
agel	-7399
atra	-7400
ejat	-7401
föra	-7402
idda	-7403
itna	-7404
jans	-7405
kött	-7406
lige	-7407
löst	-7408
rang	-7409
rare	-7410
sbes	-7411
sort	-7412
tavl	-7413
unde	-7414
värd	-7415
▁Ask	-7416
▁Bat	-7417
▁Bed	-7418
▁Gol	-7419
▁Kid	-7420
▁Lem	-7421
▁Pad	-7422
▁Rut	-7423
▁bem	-7424
▁dry	-7425
▁fet	-7426
▁fru	-7427
▁gol	-7428
▁grå	-7429
▁out	-7430
▁rag	-7431
▁sök	-7432
▁tär	-7433
▁ver	-7434
▁änk	-7435
▁ögl	-7436
▁örn	-7437
David	-7438
Horon	-7439
Också	-7440
abbas	-7441
adduc	-7442
allen	-7443
anaim	-7444
andat	-7445
arkus	-7446
atron	-7447
dreas	-7448
hjord	-7449
kraft	-7450
sbock	-7451
skade	-7452
sport	-7453
träff	-7454
umman	-7455
yller	-7456
ådjur	-7457
▁Amon	-7458
▁Anan	-7459
▁Noas	-7460
▁Omri	-7461
▁Stra	-7462
▁allo	-7463
▁bida	-7464
▁brun	-7465
▁fåll	-7466
▁grus	-7467
▁hyll	-7468
▁kain	-7469
▁kaka	-7470
▁late	-7471
▁padd	-7472
▁part	-7473
▁skak	-7474
▁skrä	-7475
▁skul	-7476
▁stul	-7477
▁stum	-7478
▁tjuv	-7479
▁vaka	-7480
▁vanv	-7481
busken	-7482
bäckar	-7483
gården	-7484
innoms	-7485
rarnas	-7486
skaran	-7487
smedel	-7488
sträck	-7489
äcktyg	-7490
äpnade	-7491
ånader	-7492
▁Aroer	-7493
▁Eglon	-7494
▁Hanna	-7495
▁Heman	-7496
▁Mefib	-7497
▁Mesak	-7498
▁Månne	-7499
▁Nabot	-7500
▁Rabba	-7501
▁Söder	-7502
▁Titus	-7503
▁arame	-7504
▁askan	-7505
▁avläg	-7506
▁bekym	-7507
▁budet	-7508
▁djupa	-7509
▁dömas	-7510
▁dömda	-7511
▁dömde	-7512
▁foten	-7513
▁halta	-7514
▁hitin	-7515
▁hopar	-7516
▁hända	-7517
▁höves	-7518
▁kruka	-7519
▁mista	-7520
▁myrra	-7521
▁mätsn	-7522
▁nåden	-7523
▁ondsk	-7524
▁ormar	-7525
▁otill	-7526
▁pläga	-7527
▁reser	-7528
▁rygga	-7529
▁räken	-7530
▁ränta	-7531
▁saden	-7532
▁satra	-7533
▁sikel	-7534
▁steng	-7535
▁tegel	-7536
▁utfor	-7537
▁uttor	-7538
▁vaken	-7539
▁vifta	-7540
▁väder	-7541
▁överh	-7542
estädes	-7543
itiskan	-7544
kallade	-7545
ssyssla	-7546
tjänare	-7547
trädare	-7548
▁Aldrig	-7549
▁Andens	-7550
▁Aseran	-7551
▁Aseror	-7552
▁Josada	-7553
▁Kegila	-7554
▁Malkia	-7555
▁Mannen	-7556
▁Sinais	-7557
▁annans	-7558
▁annars	-7559
▁bekläd	-7560
▁besinn	-7561
▁breder	-7562
▁draken	-7563
▁döljer	-7564
▁felfri	-7565
▁fräcka	-7566
▁fälten	-7567
▁fördöm	-7568
▁förlän	-7569
▁greker	-7570
▁gripas	-7571
▁grävde	-7572
▁helgad	-7573
▁hovman	-7574
▁hovmän	-7575
▁hungra	-7576
▁husgud	-7577
▁hämtar	-7578
▁hämtat	-7579
▁hänger	-7580
▁höghet	-7581
▁höljer	-7582
▁klagar	-7583
▁korgen	-7584
▁lägrat	-7585
▁mening	-7586
▁måsten	-7587
▁pansar	-7588
▁renhet	-7589
▁sadduc	-7590
▁sprang	-7591
▁stigit	-7592
▁stoder	-7593
▁tycker	-7594
▁utsett	-7595
▁vackra	-7596
▁verkar	-7597
▁villig	-7598
▁vållat	-7599
▁öppnat	-7600
▁öronen	-7601
Konungen	-7602
arbetare	-7603
städerna	-7604
▁Andreas	-7605
▁Elieser	-7606
▁Kvinnan	-7607
▁Lammets	-7608
▁Midjans	-7609
▁arbeten	-7610
▁arvsbes	-7611
▁basunen	-7612
▁befälet	-7613
▁behagar	-7614
▁beredde	-7615
▁bergens	-7616
▁blottad	-7617
▁dödades	-7618
▁fortfor	-7619
▁fåfängt	-7620
▁förhåll	-7621
▁förlora	-7622
▁hemfall	-7623
▁häftigt	-7624
▁insatte	-7625
▁lastade	-7626
▁lerkärl	-7627
▁lögnens	-7628
▁mantlar	-7629
▁mildhet	-7630
▁omskära	-7631
▁skaffen	-7632
▁skonade	-7633
▁släktet	-7634
▁smådjur	-7635
▁stenade	-7636
▁stormän	-7637
▁straffa	-7638
▁syndade	-7639
▁sysslor	-7640
▁tretton	-7641
▁utefter	-7642
▁uthärda	-7643
▁vaknade	-7644
▁ångrade	-7645
▁ödelagt	-7646
Välsignad	-7647
▁Mahanaim	-7648
▁Remaljas	-7649
▁Samarias	-7650
▁Samarien	-7651
▁arvedels	-7652
▁avfallit	-7653
▁bestämma	-7654
▁bevisade	-7655
▁byggning	-7656
▁dagligen	-7657
▁drabbade	-7658
▁därunder	-7659
▁föraktad	-7660
▁föreskri	-7661
▁försvara	-7662
▁glädjens	-7663
▁härstamm	-7664
▁konungam	-7665
▁ljungeld	-7666
▁predikat	-7667
▁ringarna	-7668
▁skålarna	-7669
▁styckena	-7670
▁tillhåll	-7671
▁tröskeln	-7672
▁upphöjer	-7673
▁uppskriv	-7674
▁vagnarna	-7675
▁vandring	-7676
▁ättföljd	-7677
▁ålderdom	-7678
▁ödmjukar	-7679
▁öppnades	-7680
▁Amminadab	-7681
▁avgrunden	-7682
▁betjänade	-7683
▁betryckta	-7684
▁bihustrur	-7685
▁fullgjort	-7686
▁fyrtiotvå	-7687
▁fördärvat	-7688
▁fördärvet	-7689
▁glänsande	-7690
▁hovmannen	-7691
▁kamelerna	-7692
▁köpenskap	-7693
▁lärjungen	-7694
▁mellersta	-7695
▁ohörsamma	-7696
▁rikedomar	-7697
▁räkenskap	-7698
▁rättstjän	-7699
▁rådgivare	-7700
▁tillbeder	-7701
▁tillträde	-7702
▁tjuguåtta	-7703
▁underhåll	-7704
▁understöd	-7705
▁välsignar	-7706
▁våldsverk	-7707
▁ödemarken	-7708
▁övergiver	-7709
▁allestädes	-7710
▁avkastning	-7711
▁brudgummen	-7712
▁misshagade	-7713
▁nordlandet	-7714
▁profeterar	-7715
▁sidonierna	-7716
▁strömmarna	-7717
▁syndoffret	-7718
▁sändebuden	-7719
▁uppehåller	-7720
▁förlossning	-7721
▁förstockade	-7722
▁kananéernas	-7723
▁konungadöme	-7724
▁konungatron	-7725
▁medarbetare	-7726
▁rubeniterna	-7727
▁rättfärdigt	-7728
▁skådebröden	-7729
▁oförståndiga	-7730
▁tjänstgjorde	-7731
▁träldomshuset	-7732
▁arvsbesittning	-7733
▁människohänder	-7734
▁offergärdsområ	-7735
▁syndoffersbock	-7736
),	-7737
).	-7738
Jo	-7739
jd	-7740
ox	-7741
ös	-7742
?'»	-7743
arl	-7744
dyr	-7745
ino	-7746
ium	-7747
kad	-7748
ode	-7749
ofh	-7750
pis	-7751
ryt	-7752
röd	-7753
vre	-7754
ävt	-7755
Baal	-7756
Följ	-7757
Guds	-7758
Mina	-7759
Mitt	-7760
anas	-7761
ania	-7762
avet	-7763
bruk	-7764
bund	-7765
dden	-7766
ebar	-7767
ehen	-7768
erot	-7769
etus	-7770
fång	-7771
gjut	-7772
hölj	-7773
imot	-7774
isad	-7775
kaka	-7776
lats	-7777
mitt	-7778
nere	-7779
poll	-7780
regn	-7781
rikt	-7782
shäm	-7783
ståg	-7784
vill	-7785
ädda	-7786
åten	-7787
åtts	-7788
öjen	-7789
ölja	-7790
▁Abd	-7791
▁Bev	-7792
▁Dis	-7793
▁Hat	-7794
▁Idd	-7795
▁Imm	-7796
▁Jav	-7797
▁Meg	-7798
▁Nek	-7799
▁Pen	-7800
▁Pis	-7801
▁Rib	-7802
▁Rom	-7803
▁Som	-7804
▁Tel	-7805
▁avt	-7806
▁boh	-7807
▁gåt	-7808
▁jis	-7809
▁kas	-7810
▁kol	-7811
▁krä	-7812
▁kuv	-7813
▁mog	-7814
▁nak	-7815
▁saf	-7816
▁söt	-7817
▁ymn	-7818
Rabbi	-7819
agods	-7820
araim	-7821
edeus	-7822
ehasi	-7823
förde	-7824
lehem	-7825
munna	-7826
nings	-7827
rippa	-7828
stygg	-7829
undas	-7830
varna	-7831
vägen	-7832
äckta	-7833
ändra	-7834
ärden	-7835
ärnor	-7836
örden	-7837
ördes	-7838
▁Abis	-7839
▁Bars	-7840
▁Bela	-7841
▁Fast	-7842
▁Förd	-7843
▁Hets	-7844
▁Just	-7845
▁Melk	-7846
▁Ofir	-7847
▁Pash	-7848
▁Stån	-7849
▁Tjän	-7850
▁Utan	-7851
▁brut	-7852
▁duva	-7853
▁flöd	-7854
▁gill	-7855
▁gran	-7856
▁göre	-7857
▁harm	-7858
▁häkt	-7859
▁isop	-7860
▁jämn	-7861
▁kopp	-7862
▁mena	-7863
▁nåds	-7864
▁ords	-7865
▁reda	-7866
▁röda	-7867
▁rött	-7868
▁somt	-7869
▁spej	-7870
▁spel	-7871
▁veko	-7872
▁ärar	-7873
Dragen	-7874
Därför	-7875
Jearim	-7876
akarna	-7877
bilder	-7878
huggna	-7879
ickade	-7880
kommit	-7881
rifter	-7882
sorter	-7883
ställt	-7884
ängden	-7885
▁Abihu	-7886
▁Apoll	-7887
▁Avkom	-7888
▁Dedan	-7889
▁Denna	-7890
▁Gehen	-7891
▁Hasar	-7892
▁Husai	-7893
▁Kedes	-7894
▁Kehat	-7895
▁Magda	-7896
▁Präst	-7897
▁Selom	-7898
▁Silas	-7899
▁Sägen	-7900
▁Välan	-7901
▁befri	-7902
▁björn	-7903
▁bälte	-7904
▁dräkt	-7905
▁dröja	-7906
▁därin	-7907
▁dölja	-7908
▁elfen	-7909
▁fager	-7910
▁feber	-7911
▁frist	-7912
▁gjord	-7913
▁grymm	-7914
▁halva	-7915
▁hedar	-7916
▁härut	-7917
▁håvor	-7918
▁höggo	-7919
▁hölls	-7920
▁insåg	-7921
▁kläde	-7922
▁kulor	-7923
▁levit	-7924
▁manna	-7925
▁munsk	-7926
▁ondas	-7927
▁rämna	-7928
▁sanna	-7929
▁schak	-7930
▁sjönk	-7931
▁skydd	-7932
▁skynd	-7933
▁skänk	-7934
▁stams	-7935
▁timme	-7936
▁träta	-7937
▁utrop	-7938
▁viker	-7939
▁vävda	-7940
▁vågar	-7941
▁ängsl	-7942
planter	-7943
shämnar	-7944
▁Gehasi	-7945
▁Jesuas	-7946
▁Jorden	-7947
▁Kidron	-7948
▁Megidd	-7949
▁Mikael	-7950
▁Sadrak	-7951
▁Susans	-7952
▁bedräg	-7953
▁bekant	-7954
▁bundna	-7955
▁böljor	-7956
▁drivas	-7957
▁friskt	-7958
▁fästet	-7959
▁fågeln	-7960
▁fången	-7961
▁fördel	-7962
▁gasell	-7963
▁gråten	-7964
▁gårdar	-7965
▁gömmer	-7966
▁handel	-7967
▁hjälpt	-7968
▁hämten	-7969
▁hörden	-7970
▁hörnen	-7971
▁inrist	-7972
▁judisk	-7973
▁kalven	-7974
▁korgar	-7975
▁korset	-7976
▁kunnig	-7977
▁lammet	-7978
▁lösakt	-7979
▁mister	-7980
▁mitten	-7981
▁mättad	-7982
▁orenar	-7983
▁planer	-7984
▁prisar	-7985
▁pärlor	-7986
▁saliga	-7987
▁skökan	-7988
▁skökor	-7989
▁stavar	-7990
▁sörjer	-7991
▁tjuvar	-7992
▁trogna	-7993
▁utgång	-7994
▁uttala	-7995
▁vakten	-7996
▁varvid	-7997
▁värdet	-7998
▁vävnad	-7999
▁ynnest	-8000
▁överst	-8001
▁Ahasjas	-8002
▁Babylon	-8003
▁Betania	-8004
▁Gersons	-8005
▁Hadades	-8006
▁Lasarus	-8007
▁Netanel	-8008
▁Persien	-8009
▁Sjungen	-8010
▁avsides	-8011
▁besinna	-8012
▁betjäna	-8013
▁betygar	-8014
▁bröders	-8015
▁byggnad	-8016
▁bönhöra	-8017
▁djupare	-8018
▁domarna	-8019
▁döpelse	-8020
▁fingrar	-8021
▁folkhop	-8022
▁fröjdas	-8023
▁fäderne	-8024
▁fördrev	-8025
▁förfall	-8026
▁förgrip	-8027
▁förgång	-8028
▁hemliga	-8029
▁hemsökt	-8030
▁hjälpte	-8031
▁killing	-8032
▁leverne	-8033
▁lyssnen	-8034
▁mäktigt	-8035
▁nyttigt	-8036
▁profeti	-8037
▁sannsky	-8038
▁skiljas	-8039
▁skörden	-8040
▁strider	-8041
▁stängde	-8042
▁säcktyg	-8043
▁tillade	-8044
▁uppbära	-8045
▁utbreda	-8046
▁utvälja	-8047
▁vaktade	-8048
▁vanligt	-8049
▁vanvett	-8050
▁villigt	-8051
▁Abinadab	-8052
▁Barsilla	-8053
▁Salmunna	-8054
▁Sebedeus	-8055
▁ansiktes	-8056
▁befaller	-8057
▁begynner	-8058
▁bestämde	-8059
▁bortfört	-8060
▁dörrpost	-8061
▁egyptier	-8062
▁frånskil	-8063
▁föraktat	-8064
▁fördölja	-8065
▁förfärad	-8066
▁förvilla	-8067
▁hemligen	-8068
▁hjärtats	-8069
▁hörnsten	-8070
▁konstväv	-8071
▁kungjort	-8072
▁omskuren	-8073
▁otillbör	-8074
▁stentavl	-8075
▁sträcker	-8076
▁synagoga	-8077
▁tavlorna	-8078
▁trävirke	-8079
▁upplyfta	-8080
▁uppträda	-8081
▁äntligen	-8082
▁Samariens	-8083
▁betryckte	-8084
▁bortförda	-8085
▁förbrände	-8086
▁förkastar	-8087
▁förnämste	-8088
▁gaditerna	-8089
▁himmelske	-8090
▁högheliga	-8091
▁jordagods	-8092
▁jordkrets	-8093
▁långmodig	-8094
▁någonting	-8095
▁plundrade	-8096
▁prästadöm	-8097
▁stadsport	-8098
▁tillsluta	-8099
▁vinträdet	-8100
▁avskaffade	-8101
▁därbredvid	-8102
▁fruktsamma	-8103
▁förrättade	-8104
▁förrådshus	-8105
▁förstöring	-8106
▁förtryckte	-8107
▁förvandlas	-8108
▁konungslig	-8109
▁lögnaktiga	-8110
▁offergåvor	-8111
▁rådsherrar	-8112
▁silverskål	-8113
▁tillräknas	-8114
▁upprättade	-8115
▁återstoden	-8116
▁dörrvaktare	-8117
▁fariséernas	-8118
▁fullbordade	-8119
▁förvandlade	-8120
▁krigsfolket	-8121
▁ostraffliga	-8122
▁tillförsikt	-8123
▁överträdels	-8124
▁Allsmäktiges	-8125
▁arbetssyssla	-8126
▁bröstskölden	-8127
▁fettstyckena	-8128
▁föreståndare	-8129
▁församlingar	-8130
▁hövitsmännen	-8131
▁instrumenter	-8132
▁kehatiternas	-8133
▁midjanitiska	-8134
▁ståthållarna	-8135
▁Avkomlingarna	-8136
▁släktregister	-8137
▁fängelsegården	-8138
▁vingårdsmännen	-8139
▁tillspillogivna	-8140
▁översteprästens	-8141
Ab	-8142
Av	-8143
Ve	-8144
up	-8145
ys	-8146
?',	-8147
Sal	-8148
ata	-8149
ekt	-8150
min	-8151
rät	-8152
åde	-8153
önd	-8154
▁Af	-8155
▁Bl	-8156
▁On	-8157
Frid	-8158
Räck	-8159
Vänd	-8160
agas	-8161
ajas	-8162
alla	-8163
anta	-8164
arja	-8165
assa	-8166
asta	-8167
band	-8168
dais	-8169
ekoa	-8170
fett	-8171
inge	-8172
natt	-8173
oham	-8174
okam	-8175
omas	-8176
ovar	-8177
tade	-8178
tram	-8179
ttai	-8180
ubal	-8181
unem	-8182
utom	-8183
vara	-8184
vida	-8185
ynda	-8186
åder	-8187
ömma	-8188
▁Aka	-8189
▁Asm	-8190
▁Gog	-8191
▁Jim	-8192
▁Kem	-8193
▁Ned	-8194
▁Vin	-8195
▁bin	-8196
▁bos	-8197
▁hät	-8198
▁rig	-8199
▁syd	-8200
▁säk	-8201
▁såd	-8202
▁tyd	-8203
▁väd	-8204
▁våd	-8205
▁vål	-8206
Haven	-8207
allat	-8208
asars	-8209
ebarn	-8210
erson	-8211
givna	-8212
havet	-8213
igare	-8214
iljor	-8215
jerop	-8216
kalla	-8217
maren	-8218
melse	-8219
ornet	-8220
ostad	-8221
resor	-8222
rider	-8223
sfolk	-8224
siens	-8225
skara	-8226
stjur	-8227
uggar	-8228
äkten	-8229
ällen	-8230
ändig	-8231
ängde	-8232
▁Akta	-8233
▁Ammi	-8234
▁Bani	-8235
▁Ebed	-8236
▁Frid	-8237
▁Fört	-8238
▁Nebo	-8239
▁Ners	-8240
▁Peka	-8241
▁Sack	-8242
▁Sipp	-8243
▁Sisa	-8244
▁Tera	-8245
▁brus	-8246
▁eden	-8247
▁eröv	-8248
▁flät	-8249
▁frod	-8250
▁grym	-8251
▁hjul	-8252
▁härj	-8253
▁kans	-8254
▁kitt	-8255
▁klar	-8256
▁kora	-8257
▁kula	-8258
▁kval	-8259
▁känn	-8260
▁käpp	-8261
▁loss	-8262
▁neto	-8263
▁nykt	-8264
▁nått	-8265
▁obet	-8266
▁onyx	-8267
▁pung	-8268
▁rand	-8269
▁skad	-8270
▁sköv	-8271
▁sönd	-8272
▁tviv	-8273
▁uppm	-8274
▁usla	-8275
▁växt	-8276
▁Övre	-8277
Finnes	-8278
Profet	-8279
annens	-8280
edelst	-8281
elsers	-8282
kaffen	-8283
rening	-8284
ringen	-8285
äcktes	-8286
▁Beors	-8287
▁Berek	-8288
▁Debir	-8289
▁Edens	-8290
▁Elihu	-8291
▁Hanun	-8292
▁Hosea	-8293
▁Iskar	-8294
▁Kenas	-8295
▁Lemek	-8296
▁Levis	-8297
▁Mahal	-8298
▁Marta	-8299
▁Nahor	-8300
▁Paran	-8301
▁Rahab	-8302
▁Resin	-8303
▁Rädda	-8304
▁Själv	-8305
▁Skola	-8306
▁Strax	-8307
▁Tomas	-8308
▁aktas	-8309
▁bekrä	-8310
▁bistå	-8311
▁bären	-8312
▁bävar	-8313
▁dömen	-8314
▁döpta	-8315
▁fullo	-8316
▁följe	-8317
▁förbl	-8318
▁förek	-8319
▁gosse	-8320
▁härar	-8321
▁höljd	-8322
▁idiss	-8323
▁koret	-8324
▁lusta	-8325
▁minst	-8326
▁modet	-8327
▁nådde	-8328
▁präkt	-8329
▁pukor	-8330
▁redde	-8331
▁rådet	-8332
▁safir	-8333
▁själs	-8334
▁skrud	-8335
▁skyla	-8336
▁smord	-8337
▁spela	-8338
▁stock	-8339
▁strål	-8340
▁ströv	-8341
▁styck	-8342
▁syrat	-8343
▁sänka	-8344
▁sågen	-8345
▁tages	-8346
▁talet	-8347
▁torka	-8348
▁uppre	-8349
▁utkor	-8350
▁utväg	-8351
▁vinge	-8352
▁värda	-8353
▁vånda	-8354
▁ätter	-8355
▁ångra	-8356
▁ögons	-8357
▁örnen	-8358
elserna	-8359
lärjung	-8360
mästare	-8361
ningens	-8362
▁Abiram	-8363
▁Ahikam	-8364
▁Hamans	-8365
▁Jaeser	-8366
▁Jedaja	-8367
▁Mikmas	-8368
▁Paddan	-8369
▁Sadoks	-8370
▁Selofh	-8371
▁Sihons	-8372
▁Tacken	-8373
▁Tänken	-8374
▁bilder	-8375
▁blinde	-8376
▁blåste	-8377
▁bortom	-8378
▁bådade	-8379
▁bördan	-8380
▁dräpta	-8381
▁dårars	-8382
▁ertapp	-8383
▁fadern	-8384
▁funnen	-8385
▁fyllas	-8386
▁fängsl	-8387
▁följen	-8388
▁förfar	-8389
▁förlik	-8390
▁gissla	-8391
▁glömde	-8392
▁grytan	-8393
▁gråter	-8394
▁huggen	-8395
▁husbon	-8396
▁huvudg	-8397
▁insatt	-8398
▁källan	-8399
▁nekade	-8400
▁nästen	-8401
▁offrat	-8402
▁plocka	-8403
▁rötter	-8404
▁samlad	-8405
▁själen	-8406
▁skurna	-8407
▁skänkt	-8408
▁skökol	-8409
▁smädar	-8410
▁sommar	-8411
▁spände	-8412
▁stänga	-8413
▁suttit	-8414
▁syssla	-8415
▁säkert	-8416
▁sättet	-8417
▁sånger	-8418
▁sörjde	-8419
▁talent	-8420
▁tapper	-8421
▁tavlor	-8422
▁tillre	-8423
▁tistel	-8424
▁trampa	-8425
▁trohet	-8426
▁uppsåt	-8427
▁uträtt	-8428
▁uttyda	-8429
▁varest	-8430
▁vattna	-8431
▁vildås	-8432
▁viljes	-8433
▁vistas	-8434
▁väldet	-8435
imsdalen	-8436
▁Agrippa	-8437
▁Askelon	-8438
▁Gehenna	-8439
▁Hinnoms	-8440
▁Jerikos	-8441
▁Jojakin	-8442
▁Magdala	-8443
▁Sidkias	-8444
▁avvända	-8445
▁behöves	-8446
▁bekänna	-8447
▁besvärj	-8448
▁brokiga	-8449
▁bägaren	-8450
▁dalarna	-8451
▁döparen	-8452
▁fläcken	-8453
▁förestå	-8454
▁förhöll	-8455
▁förleda	-8456
▁förlust	-8457
▁försagd	-8458
▁förödda	-8459
▁gammalt	-8460
▁gåvorna	-8461
▁intagit	-8462
▁krukmak	-8463
▁kärleks	-8464
▁lögnare	-8465
▁männens	-8466
▁mönster	-8467
▁nedtill	-8468
▁netofat	-8469
▁olyckor	-8470
▁påträff	-8471
▁skickat	-8472
▁skrämma	-8473
▁stenhop	-8474
▁stillar	-8475
▁straffe	-8476
▁strödde	-8477
▁sångare	-8478
▁tjurens	-8479
▁törstig	-8480
▁uppgift	-8481
▁upplåta	-8482
▁upprikt	-8483
▁utlovat	-8484
▁vittnat	-8485
▁värdigt	-8486
▁ytterst	-8487
▁återstå	-8488
▁överhov	-8489
beväpnade	-8490
ohögtiden	-8491
ställning	-8492
▁Aserorna	-8493
▁Eleasars	-8494
▁Josadaks	-8495
▁Sakarias	-8496
▁antingen	-8497
▁avskilde	-8498
▁begrunda	-8499
▁beslutet	-8500
▁bildstod	-8501
▁bokrulle	-8502
▁bäckenet	-8503
▁bördeman	-8504
▁dråparen	-8505
▁dåraktig	-8506
▁flygande	-8507
▁flytning	-8508
▁flyttade	-8509
▁fädernas	-8510
▁fädernes	-8511
▁förlåter	-8512
▁förstått	-8513
▁förstört	-8514
▁förökade	-8515
▁grämelse	-8516
▁helgelse	-8517
▁huruvida	-8518
▁huvudhår	-8519
▁hälsning	-8520
▁kallelse	-8521
▁kamrarna	-8522
▁klenoder	-8523
▁mörkrets	-8524
▁olyckans	-8525
▁omöjligt	-8526
▁predikan	-8527
▁publikan	-8528
▁skorpion	-8529
▁sommaren	-8530
▁stadgade	-8531
▁stolthet	-8532
▁tillhört	-8533
▁varnagel	-8534
▁vilostad	-8535
▁välsigne	-8536
▁våningen	-8537
▁överföll	-8538
▁Mefiboset	-8539
▁adertonde	-8540
▁arbetarna	-8541
▁avgudadyr	-8542
▁avsomnade	-8543
▁bedrifter	-8544
▁betesmark	-8545
▁bokrullen	-8546
▁bordsgäst	-8547
▁dagsresor	-8548
▁föremålen	-8549
▁försyndat	-8550
▁galenskap	-8551
▁gemenskap	-8552
▁glädjerop	-8553
▁gossebarn	-8554
▁leverfett	-8555
▁livsmedel	-8556
▁nymånader	-8557
▁samtalade	-8558
▁sonhustru	-8559
▁stamfader	-8560
▁strömmade	-8561
▁trettonde	-8562
▁uppkallat	-8563
▁väderstre	-8564
▁vädurarna	-8565
▁aftontiden	-8566
▁araméernas	-8567
▁däromkring	-8568
▁femtedelen	-8569
▁förskingra	-8570
▁förstfödda	-8571
▁förströdda	-8572
▁förtärande	-8573
▁förvaltare	-8574
▁gärningars	-8575
▁hetiternas	-8576
▁lustgården	-8577
▁mångahanda	-8578
▁undervisar	-8579
▁uppenbarar	-8580
▁vederstygg	-8581
▁övermäktig	-8582
▁Söderlandet	-8583
▁betesmarker	-8584
▁bitterligen	-8585
▁blodshämnar	-8586
▁förföljelse	-8587
▁förståndige	-8588
▁förtröstade	-8589
▁menighetens	-8590
▁människoson	-8591
▁oförnuftiga	-8592
▁stamfurstar	-8593
▁trumpeterna	-8594
▁tvärstänger	-8595
▁vilddjurets	-8596
▁fotställning	-8597
▁frälsningens	-8598
▁förvandlades	-8599
▁månadsrening	-8600
▁vattenkällor	-8601
▁konstförfarna	-8602
▁Nebukadressars	-8603
▁svärdbeväpnade	-8604
▁ogärningsmännen	-8605
tu	-8606
vt	-8607
öp	-8608
Bed	-8609
Hel	-8610
Hon	-8611
adm	-8612
ere	-8613
fel	-8614
jus	-8615
kal	-8616
lut	-8617
löd	-8618
mus	-8619
ppe	-8620
skl	-8621
vas	-8622
yft	-8623
yng	-8624
yri	-8625
ärv	-8626
öst	-8627
▁bö	-8628
▁äv	-8629
Aram	-8630
Folk	-8631
Peor	-8632
Vart	-8633
ahem	-8634
emja	-8635
fara	-8636
fråg	-8637
idde	-8638
isra	-8639
juda	-8640
jölk	-8641
mera	-8642
ofet	-8643
rika	-8644
ryta	-8645
sats	-8646
skat	-8647
skov	-8648
slig	-8649
slor	-8650
unst	-8651
ägen	-8652
ämta	-8653
även	-8654
éens	-8655
önst	-8656
▁Död	-8657
▁Hef	-8658
▁Joa	-8659
▁Lär	-8660
▁Nob	-8661
▁Ped	-8662
▁Ste	-8663
▁Sua	-8664
▁Uts	-8665
▁bal	-8666
▁dop	-8667
▁gib	-8668
▁itu	-8669
▁jär	-8670
▁ker	-8671
▁kra	-8672
▁näs	-8673
▁omb	-8674
▁rus	-8675
▁sad	-8676
▁sor	-8677
▁tim	-8678
▁års	-8679
Barne	-8680
Fader	-8681
Given	-8682
agnar	-8683
aksad	-8684
aktat	-8685
anten	-8686
beten	-8687
derop	-8688
ebråd	-8689
elaja	-8690
frisk	-8691
fulla	-8692
gades	-8693
icien	-8694
iftar	-8695
järde	-8696
klipp	-8697
marna	-8698
räset	-8699
salon	-8700
samla	-8701
sförv	-8702
signa	-8703
skepp	-8704
slarm	-8705
udena	-8706
vilja	-8707
äcken	-8708
ärken	-8709
åligt	-8710
▁Ajal	-8711
▁Bitt	-8712
▁Bjud	-8713
▁Ehud	-8714
▁Hass	-8715
▁Jaas	-8716
▁Jeus	-8717
▁Malk	-8718
▁Mill	-8719
▁Neko	-8720
▁Refa	-8721
▁Sanb	-8722
▁Slut	-8723
▁Soar	-8724
▁Soba	-8725
▁Sons	-8726
▁Ussi	-8727
▁Vast	-8728
▁arab	-8729
▁axen	-8730
▁bets	-8731
▁dund	-8732
▁döpt	-8733
▁flug	-8734
▁frik	-8735
▁from	-8736
▁gård	-8737
▁iver	-8738
▁kant	-8739
▁kull	-8740
▁kyss	-8741
▁lugn	-8742
▁läte	-8743
▁mest	-8744
▁mord	-8745
▁mygg	-8746
▁nedg	-8747
▁nere	-8748
▁nyss	-8749
▁prat	-8750
▁ridh	-8751
▁rund	-8752
▁spen	-8753
▁tiot	-8754
▁tyng	-8755
▁utåt	-8756
▁varm	-8757
Barnea	-8758
Vilken	-8759
attnet	-8760
berget	-8761
besvär	-8762
ederna	-8763
gropen	-8764
nelser	-8765
samlen	-8766
sluter	-8767
smuren	-8768
stoder	-8769
stängd	-8770
svädur	-8771
tidens	-8772
undade	-8773
▁Dibon	-8774
▁Efron	-8775
▁Eliel	-8776
▁Hagar	-8777
▁Hamor	-8778
▁Huram	-8779
▁Jonas	-8780
▁Joppe	-8781
▁Milka	-8782
▁Molok	-8783
▁Nahes	-8784
▁Ribla	-8785
▁Sealt	-8786
▁Sorga	-8787
▁Veten	-8788
▁aktad	-8789
▁avseg	-8790
▁begag	-8791
▁behov	-8792
▁blods	-8793
▁bohag	-8794
▁bräde	-8795
▁bränt	-8796
▁bågen	-8797
▁dolde	-8798
▁faror	-8799
▁fjäll	-8800
▁flöda	-8801
▁fostr	-8802
▁förse	-8803
▁hakar	-8804
▁hanen	-8805
▁hjort	-8806
▁homer	-8807
▁korna	-8808
▁kvarn	-8809
▁köper	-8810
▁lejde	-8811
▁levat	-8812
▁leven	-8813
▁lyser	-8814
▁lyste	-8815
▁lända	-8816
▁miste	-8817
▁måtto	-8818
▁nätet	-8819
▁oskär	-8820
▁prakt	-8821
▁rovet	-8822
▁ryckt	-8823
▁salig	-8824
▁sexti	-8825
▁skyar	-8826
▁skölj	-8827
▁snöre	-8828
▁stack	-8829
▁sunda	-8830
▁trots	-8831
▁trott	-8832
▁trätt	-8833
▁uttåg	-8834
▁verka	-8835
▁öglor	-8836
Frukten	-8837
fattade	-8838
ledning	-8839
pelarna	-8840
ståndet	-8841
▁Assurs	-8842
▁Bevara	-8843
▁Debora	-8844
▁Dragen	-8845
▁Därvid	-8846
▁Finnes	-8847
▁Hamats	-8848
▁Jehiel	-8849
▁Jorams	-8850
▁Stefan	-8851
▁Sådana	-8852
▁Ussiel	-8853
▁Vilket	-8854
▁balsam	-8855
▁betänk	-8856
▁blyges	-8857
▁brista	-8858
▁brokig	-8859
▁byarna	-8860
▁byggen	-8861
▁bäckar	-8862
▁bönhör	-8863
▁dagars	-8864
▁dammen	-8865
▁delvis	-8866
▁domars	-8867
▁dunder	-8868
▁foster	-8869
▁fostra	-8870
▁funnes	-8871
▁färdig	-8872
▁följes	-8873
▁förbid	-8874
▁förhat	-8875
▁föruts	-8876
▁getter	-8877
▁gilead	-8878
▁gjuten	-8879
▁gripen	-8880
▁grotta	-8881
▁gördel	-8882
▁honkön	-8883
▁hoppet	-8884
▁hugger	-8885
▁huggit	-8886
▁inbjöd	-8887
▁jagade	-8888
▁kalken	-8889
▁kasten	-8890
▁kungör	-8891
▁maakat	-8892
▁maskar	-8893
▁meniga	-8894
▁märken	-8895
▁njurar	-8896
▁nämnda	-8897
▁oliver	-8898
▁omkomm	-8899
▁pannor	-8900
▁rankor	-8901
▁ruiner	-8902
▁rycker	-8903
▁saknas	-8904
▁scharl	-8905
▁senare	-8906
▁sjöngo	-8907
▁skilde	-8908
▁slunga	-8909
▁släcka	-8910
▁släppt	-8911
▁spräck	-8912
▁stryka	-8913
▁styres	-8914
▁störst	-8915
▁suckan	-8916
▁svarta	-8917
▁säckar	-8918
▁såddes	-8919
▁tidens	-8920
▁torgen	-8921
▁trygga	-8922
▁tyckte	-8923
▁tärnor	-8924
▁uppgiv	-8925
▁utkräv	-8926
▁utslag	-8927
▁utsäde	-8928
▁vagnsh	-8929
▁vaktar	-8930
▁vanart	-8931
▁vanlig	-8932
▁varnat	-8933
▁vitmen	-8934
▁vållar	-8935
▁vården	-8936
▁återfå	-8937
isaddais	-8938
ligheten	-8939
smannens	-8940
tesassar	-8941
▁Apollos	-8942
▁Ismaels	-8943
▁Jedutun	-8944
▁Jeroham	-8945
▁Mediens	-8946
▁ankomst	-8947
▁befanns	-8948
▁begivit	-8949
▁behöven	-8950
▁besatta	-8951
▁blandat	-8952
▁bosätta	-8953
▁brinner	-8954
▁brister	-8955
▁brudgum	-8956
▁domstol	-8957
▁drabbat	-8958
▁därnäst	-8959
▁dödliga	-8960
▁ersätta	-8961
▁frukter	-8962
▁fäderna	-8963
▁förgick	-8964
▁förmåga	-8965
▁grundat	-8966
▁gudarna	-8967
▁handels	-8968
▁högljud	-8969
▁illfund	-8970
▁jagande	-8971
▁kansler	-8972
▁klokhet	-8973
▁krossad	-8974
▁lagklok	-8975
▁ledning	-8976
▁ljuvlig	-8977
▁läkedom	-8978
▁läppars	-8979
▁medlare	-8980
▁midnatt	-8981
▁misstan	-8982
▁mottaga	-8983
▁mäktige	-8984
▁ondskas	-8985
▁pilarna	-8986
▁pluggar	-8987
▁rustade	-8988
▁rättvis	-8989
▁rörelse	-8990
▁sidokam	-8991
▁skägget	-8992
▁skördar	-8993
▁slockna	-8994
▁stadigt	-8995
▁stamfam	-8996
▁stappla	-8997
▁stridsv	-8998
▁syndens	-8999
▁sönderk	-9000
▁torkade	-9001
▁tränger	-9002
▁tröskel	-9003
▁utrotad	-9004
▁ådragit	-9005
▁ödelägg	-9006
förestånd	-9007
samlingen	-9008
▁Absaloms	-9009
▁Barabbas	-9010
▁anställa	-9011
▁bedragit	-9012
▁bekänner	-9013
▁bespotta	-9014
▁betygade	-9015
▁bräderna	-9016
▁döttrars	-9017
▁fattades	-9018
▁fruktsam	-9019
▁fördrevo	-9020
▁förelagt	-9021
▁förgäten	-9022
▁förmanar	-9023
▁förskyll	-9024
▁förtorka	-9025
▁förtäras	-9026
▁gråtande	-9027
▁gudfrukt	-9028
▁handlade	-9029
▁helighet	-9030
▁hemsökte	-9031
▁hittills	-9032
▁huvudman	-9033
▁hängivet	-9034
▁härskare	-9035
▁hörsamma	-9036
▁jordiska	-9037
▁kammaren	-9038
▁likadana	-9039
▁lovoffer	-9040
▁mulåsnor	-9041
▁ohelgade	-9042
▁pliktiga	-9043
▁skalliga	-9044
▁skyldiga	-9045
▁skyldige	-9046
▁skökolön	-9047
▁stillhet	-9048
▁söndersl	-9049
▁tillbett	-9050
▁tiotusen	-9051
▁trädgård	-9052
▁underlåt	-9053
▁upplåter	-9054
▁uppmanar	-9055
▁uppsluka	-9056
▁utslitna	-9057
▁utvärtes	-9058
▁vittnade	-9059
▁våldsamt	-9060
▁ädlingar	-9061
▁åsninnan	-9062
▁Sanballat	-9063
▁bespottar	-9064
▁etiopiern	-9065
▁femtiotvå	-9066
▁folkhopen	-9067
▁frimodiga	-9068
▁fröjderop	-9069
▁förgångna	-9070
▁förlossar	-9071
▁förmörkas	-9072
▁församlar	-9073
▁förtjänar	-9074
▁förtörnat	-9075
▁gemensamt	-9076
▁hedmarken	-9077
▁hopfogade	-9078
▁husbonden	-9079
▁korsfästa	-9080
▁oförfärad	-9081
▁oryggligt	-9082
▁planterar	-9083
▁profetisk	-9084
▁redlighet	-9085
▁ridhästar	-9086
▁skatterna	-9087
▁skyndsamt	-9088
▁tillfrisk	-9089
▁tillredde	-9090
▁täckelset	-9091
▁upplyfter	-9092
▁uppträdde	-9093
▁upptändas	-9094
▁uppväcker	-9095
▁villebråd	-9096
▁vingården	-9097
▁vinträden	-9098
▁ynglingen	-9099
lärjungarna	-9100
▁andebesvär	-9101
▁berättelse	-9102
▁bespottare	-9103
▁efterföljt	-9104
▁fjärdedels	-9105
▁fåfängligt	-9106
▁förbannade	-9107
▁fördärvets	-9108
▁förskoning	-9109
▁försvunnit	-9110
▁högtidsför	-9111
▁kvarblivna	-9112
▁lögnaktigt	-9113
▁medtjänare	-9114
▁omskärelse	-9115
▁publikaner	-9116
▁styggeliga	-9117
▁tillstädja	-9118
▁tröskplats	-9119
▁umgängelse	-9120
▁underrätta	-9121
▁uppslukade	-9122
▁vilddjuren	-9123
▁övermodiga	-9124
▁Människoson	-9125
▁arbetsplikt	-9126
▁förbittrade	-9127
▁förhärligad	-9128
▁hårdnackade	-9129
▁jordbävning	-9130
▁konstvävnad	-9131
▁leverfettet	-9132
▁löftesoffer	-9133
▁motsvarande	-9134
▁oavlåtligen	-9135
▁skattkamrar	-9136
▁tjänarinnas	-9137
▁understödde	-9138
▁främlingarna	-9139
▁fädernesland	-9140
▁förstfödslor	-9141
▁gräshopporna	-9142
▁häravdelning	-9143
▁landshövding	-9144
▁midjaniterna	-9145
▁strängeligen	-9146
▁tempelkamrar	-9147
▁tröskplatsen	-9148
▁vattenbäckar	-9149
▁häravdelningar	-9150
▁landshövdingar	-9151
▁rökelsealtaret	-9152
▁syndofferstjur	-9153
▁tempelträlarna	-9154
▁härhövitsmannen	-9155
▁silverpenningar	-9156
tn	-9157
uh	-9158
Bos	-9159
Far	-9160
Joh	-9161
Och	-9162
aff	-9163
blå	-9164
dad	-9165
ddm	-9166
fer	-9167
hän	-9168
jul	-9169
lex	-9170
nöd	-9171
odd	-9172
ore	-9173
orn	-9174
sas	-9175
vit	-9176
väx	-9177
äga	-9178
äka	-9179
▁Em	-9180
▁Lo	-9181
▁Me	-9182
▁Sp	-9183
▁li	-9184
▁od	-9185
Alla	-9186
adet	-9187
arim	-9188
avla	-9189
ddar	-9190
efas	-9191
elix	-9192
eons	-9193
eter	-9194
gick	-9195
icke	-9196
iker	-9197
ipor	-9198
itja	-9199
jens	-9200
kniv	-9201
lott	-9202
löje	-9203
mäkt	-9204
odda	-9205
onja	-9206
pung	-9207
redd	-9208
sköt	-9209
smur	-9210
strä	-9211
teri	-9212
vaka	-9213
värl	-9214
våld	-9215
yrad	-9216
yses	-9217
åden	-9218
öner	-9219
▁Big	-9220
▁Bik	-9221
▁Dig	-9222
▁Fem	-9223
▁Jib	-9224
▁Jit	-9225
▁Kai	-9226
▁Nim	-9227
▁Nof	-9228
▁Ogs	-9229
▁Ses	-9230
▁Ska	-9231
▁Två	-9232
▁ask	-9233
▁bly	-9234
▁byn	-9235
▁dis	-9236
▁frö	-9237
▁gar	-9238
▁hul	-9239
▁inf	-9240
▁jas	-9241
▁kar	-9242
▁lår	-9243
▁mil	-9244
▁påm	-9245
▁rak	-9246
▁ret	-9247
▁sea	-9248
▁säm	-9249
▁utd	-9250
▁väm	-9251
Denna	-9252
Edoms	-9253
Fören	-9254
Jesus	-9255
abarn	-9256
ander	-9257
assar	-9258
bräck	-9259
esång	-9260
fäste	-9261
gonde	-9262
jorna	-9263
junde	-9264
karna	-9265
komna	-9266
krans	-9267
onden	-9268
ordet	-9269
perna	-9270
rivet	-9271
salel	-9272
sglöd	-9273
sider	-9274
skall	-9275
skytt	-9276
strid	-9277
sätta	-9278
unkel	-9279
varen	-9280
varor	-9281
yrien	-9282
änger	-9283
änkta	-9284
ärdes	-9285
▁Adar	-9286
▁Alex	-9287
▁Eljo	-9288
▁Förk	-9289
▁Gaal	-9290
▁Hagg	-9291
▁Hosa	-9292
▁Mack	-9293
▁Mall	-9294
▁Mare	-9295
▁Sitt	-9296
▁Sätt	-9297
▁amen	-9298
▁anak	-9299
▁axel	-9300
▁baka	-9301
▁bakt	-9302
▁bese	-9303
▁brän	-9304
▁bull	-9305
▁dikt	-9306
▁flöt	-9307
▁forn	-9308
▁glup	-9309
▁gömd	-9310
▁hala	-9311
▁häri	-9312
▁kamp	-9313
▁kust	-9314
▁kvad	-9315
▁lags	-9316
▁linn	-9317
▁låna	-9318
▁mana	-9319
▁mull	-9320
▁mäta	-9321
▁omsl	-9322
▁rakt	-9323
▁rida	-9324
▁skov	-9325
▁slet	-9326
▁smär	-9327
▁spir	-9328
▁sött	-9329
▁tull	-9330
▁tunn	-9331
▁tvag	-9332
▁vinn	-9333
▁ädel	-9334
▁åtsk	-9335
▁ögat	-9336
Aldrig	-9337
Folket	-9338
fallit	-9339
fjärde	-9340
håller	-9341
inande	-9342
jorden	-9343
lägger	-9344
lätten	-9345
rifrån	-9346
sdagen	-9347
sdräkt	-9348
sfikon	-9349
sfrukt	-9350
skraft	-9351
skuren	-9352
ännens	-9353
ättrar	-9354
▁Akaja	-9355
▁Baana	-9356
▁Cefas	-9357
▁Därpå	-9358
▁Gerar	-9359
▁Horma	-9360
▁Höjen	-9361
▁Jetro	-9362
▁Jobab	-9363
▁Mesek	-9364
▁Millo	-9365
▁Nahas	-9366
▁Sebna	-9367
▁Simea	-9368
▁Sobal	-9369
▁Susan	-9370
▁Söken	-9371
▁Tabor	-9372
▁Tubal	-9373
▁Vakna	-9374
▁agnar	-9375
▁angel	-9376
▁armod	-9377
▁axeln	-9378
▁begiv	-9379
▁beräk	-9380
▁beröv	-9381
▁besin	-9382
▁bräck	-9383
▁bäras	-9384
▁dager	-9385
▁ditut	-9386
▁drypa	-9387
▁dödar	-9388
▁flöde	-9389
▁fullm	-9390
▁fönst	-9391
▁föreg	-9392
▁föres	-9393
▁förny	-9394
▁gödda	-9395
▁hitut	-9396
▁härda	-9397
▁högti	-9398
▁ikläd	-9399
▁inlåt	-9400
▁juden	-9401
▁klart	-9402
▁korer	-9403
▁krist	-9404
▁krydd	-9405
▁lades	-9406
▁ljuga	-9407
▁lykta	-9408
▁läran	-9409
▁lären	-9410
▁läror	-9411
▁mätst	-9412
▁nakna	-9413
▁nämnt	-9414
▁okunn	-9415
▁omgiv	-9416
▁plock	-9417
▁prydd	-9418
▁raden	-9419
▁renar	-9420
▁renat	-9421
▁resan	-9422
▁river	-9423
▁rivit	-9424
▁ropen	-9425
▁roten	-9426
▁rymma	-9427
▁siare	-9428
▁sidov	-9429
▁siste	-9430
▁sjuke	-9431
▁skaka	-9432
▁skäpp	-9433
▁sköta	-9434
▁slita	-9435
▁slöja	-9436
▁smaka	-9437
▁spira	-9438
▁språk	-9439
▁stads	-9440
▁strut	-9441
▁svagt	-9442
▁säkra	-9443
▁sådde	-9444
▁tvång	-9445
▁uppsö	-9446
▁utdel	-9447
▁utlän	-9448
▁vagns	-9449
▁varde	-9450
▁visen	-9451
▁årets	-9452
ddmjölk	-9453
essalon	-9454
faldiga	-9455
färgade	-9456
kastade	-9457
offrets	-9458
penning	-9459
sdjuren	-9460
stammar	-9461
▁Bedjen	-9462
▁Därmed	-9463
▁Folken	-9464
▁Gerson	-9465
▁Haggai	-9466
▁Jegiel	-9467
▁Josuas	-9468
▁Kaifas	-9469
▁Kalebs	-9470
▁Lyssna	-9471
▁Maheli	-9472
▁Merari	-9473
▁Rekabs	-9474
▁Rimmon	-9475
▁Salmon	-9476
▁Simons	-9477
▁Själva	-9478
▁Smorde	-9479
▁Sodoms	-9480
▁Ussias	-9481
▁Utsaga	-9482
▁anfall	-9483
▁angrep	-9484
▁avsönd	-9485
▁befria	-9486
▁begrät	-9487
▁bekänn	-9488
▁betyga	-9489
▁botten	-9490
▁brukar	-9491
▁brutet	-9492
▁bundit	-9493
▁djävul	-9494
▁domens	-9495
▁drivet	-9496
▁fingen	-9497
▁firade	-9498
▁fogdar	-9499
▁frågan	-9500
▁frågat	-9501
▁fångad	-9502
▁fångas	-9503
▁förmen	-9504
▁gibeon	-9505
▁gripit	-9506
▁haglet	-9507
▁halsen	-9508
▁helade	-9509
▁herden	-9510
▁hinder	-9511
▁höljda	-9512
▁iklätt	-9513
▁järnet	-9514
▁kastad	-9515
▁kinden	-9516
▁kuvade	-9517
▁liknar	-9518
▁liksid	-9519
▁ljuder	-9520
▁malört	-9521
▁mandel	-9522
▁minste	-9523
▁oaktat	-9524
▁ombord	-9525
▁omgiva	-9526
▁orolig	-9527
▁oxarna	-9528
▁pannan	-9529
▁plågas	-9530
▁prydde	-9531
▁rovfåg	-9532
▁rullen	-9533
▁ryckes	-9534
▁ryggen	-9535
▁räddas	-9536
▁räknad	-9537
▁räknar	-9538
▁skenet	-9539
▁skidan	-9540
▁spärra	-9541
▁stämma	-9542
▁stödja	-9543
▁sången	-9544
▁torget	-9545
▁troner	-9546
▁trätor	-9547
▁tungan	-9548
▁upphör	-9549
▁utpost	-9550
▁utsaga	-9551
▁utsänd	-9552
▁vaknar	-9553
▁verkat	-9554
▁vindar	-9555
▁vrånga	-9556
▁väckte	-9557
▁väggar	-9558
▁väpnad	-9559
▁ärende	-9560
▁åtlöje	-9561
Johannes	-9562
kläderna	-9563
sträckan	-9564
▁Ahikams	-9565
▁Ammihud	-9566
▁Ananias	-9567
▁Besalel	-9568
▁Bittida	-9569
▁Faderns	-9570
▁Mackeda	-9571
▁Megiddo	-9572
▁Rimmons	-9573
▁Sebadja	-9574
▁altarna	-9575
▁avskilt	-9576
▁bedrevo	-9577
▁bekräft	-9578
▁bekände	-9579
▁berömme	-9580
▁betrodd	-9581
▁blommor	-9582
▁blottar	-9583
▁blottat	-9584
▁bredden	-9585
▁brunnar	-9586
▁dragare	-9587
▁dyrbart	-9588
▁därnere	-9589
▁efteråt	-9590
▁flodens	-9591
▁fotfolk	-9592
▁framtid	-9593
▁främsta	-9594
▁fröjden	-9595
▁fängsla	-9596
▁föreläg	-9597
▁förfång	-9598
▁förlopp	-9599
▁förskrä	-9600
▁försorg	-9601
▁förvara	-9602
▁förvänt	-9603
▁gossens	-9604
▁granatt	-9605
▁gudlösa	-9606
▁handlar	-9607
▁inhyses	-9608
▁intaget	-9609
▁keruben	-9610
▁likaväl	-9611
▁lyssnat	-9612
▁lämnats	-9613
▁lövhydd	-9614
▁medelst	-9615
▁nattens	-9616
▁nogsamt	-9617
▁obetänk	-9618
▁omringa	-9619
▁omtalat	-9620
▁prydnad	-9621
▁riktigt	-9622
▁sidorna	-9623
▁sjutton	-9624
▁skiljer	-9625
▁skjutas	-9626
▁skorven	-9627
▁slaktar	-9628
▁slipper	-9629
▁smältug	-9630
▁spejare	-9631
▁stränga	-9632
▁strängt	-9633
▁ställen	-9634
▁ställer	-9635
▁systers	-9636
▁tionden	-9637
▁tröskar	-9638
▁tvärtom	-9639
▁uträtta	-9640
▁uttalat	-9641
▁vanmäkt	-9642
▁varnade	-9643
▁vinbärg	-9644
▁vintern	-9645
▁ädlaste	-9646
▁åstunda	-9647
▁översky	-9648
▁Arpaksad	-9649
▁Elisabet	-9650
▁Iskariot	-9651
▁Jisreels	-9652
▁Persiens	-9653
▁andevärl	-9654
▁avskilja	-9655
▁behåller	-9656
▁bergfäst	-9657
▁berömmer	-9658
▁beskydda	-9659
▁beskärma	-9660
▁bestryka	-9661
▁blickade	-9662
▁blottade	-9663
▁bortförd	-9664
▁bönfalla	-9665
▁densamma	-9666
▁efterfor	-9667
▁elfenben	-9668
▁fiendens	-9669
▁fullgöra	-9670
▁fårhjord	-9671
▁fönstren	-9672
▁förbränt	-9673
▁förelade	-9674
▁förgåtts	-9675
▁förhuset	-9676
▁förledde	-9677
▁förlitar	-9678
▁förlorad	-9679
▁förlåtna	-9680
▁förnummo	-9681
▁förplikt	-9682
▁försökte	-9683
▁förtörna	-9684
▁genstrid	-9685
▁girighet	-9686
▁gravarna	-9687
▁grenarna	-9688
▁hemfalla	-9689
▁hemsöker	-9690
▁himlarna	-9691
▁hoppades	-9692
▁hyllning	-9693
▁innanför	-9694
▁israelit	-9695
▁jubelrop	-9696
▁krigshär	-9697
▁kringspr	-9698
▁liknande	-9699
▁mätsnöre	-9700
▁omsluter	-9701
▁ovantill	-9702
▁plundrar	-9703
▁spådomar	-9704
▁stamhövd	-9705
▁tjugonde	-9706
▁tröstade	-9707
▁uppförde	-9708
▁upphöjde	-9709
▁uppifrån	-9710
▁utbreder	-9711
▁utfärdat	-9712
▁utgjutet	-9713
▁utropade	-9714
▁uttalade	-9715
▁vrånghet	-9716
▁ödelägga	-9717
ilistéerna	-9718
▁Därigenom	-9719
▁Förkunnen	-9720
▁Sealtiels	-9721
▁andekraft	-9722
▁begabberi	-9723
▁blodsförv	-9724
▁dåraktigt	-9725
▁edoméerna	-9726
▁egyptiske	-9727
▁eldslågor	-9728
▁fortsatte	-9729
▁fåkunniga	-9730
▁följeslag	-9731
▁föreläste	-9732
▁företager	-9733
▁förnummit	-9734
▁förskjuta	-9735
▁förstörde	-9736
▁försyndar	-9737
▁förtrampa	-9738
▁förundran	-9739
▁förvandla	-9740
▁lovsånger	-9741
▁norrifrån	-9742
▁oskyldige	-9743
▁skickliga	-9744
▁skrymteri	-9745
▁skändliga	-9746
▁sorgesång	-9747
▁straffdom	-9748
▁stridsman	-9749
▁strålande	-9750
▁ställning	-9751
▁synagogor	-9752
▁sysslorna	-9753
▁trappsteg	-9754
▁underrätt	-9755
▁vacklande	-9756
▁varthelst	-9757
▁värdighet	-9758
▁ödmjukhet	-9759
▁överträtt	-9760
▁Därbredvid	-9761
▁cypressträ	-9762
▁efterfölja	-9763
▁efterskörd	-9764
▁förordnade	-9765
▁förskjutit	-9766
▁gensträvig	-9767
▁keretéerna	-9768
▁lovsjungen	-9769
▁medborgare	-9770
▁profetians	-9771
▁satraperna	-9772
▁scharlakan	-9773
▁sjuttiofem	-9774
▁sjuttiotvå	-9775
▁terebinten	-9776
▁tidsålders	-9777
▁tillsluter	-9778
▁trettiofem	-9779
▁trettiosju	-9780
▁vederfares	-9781
▁åtskillnad	-9782
▁övermorgon	-9783
planteringar	-9784
▁avgudaoffer	-9785
▁fastställde	-9786
▁förgårdarna	-9787
▁konungamakt	-9788
▁lösaktighet	-9789
▁ostraffligt	-9790
▁penningpung	-9791
▁profeternas	-9792
▁rättsinniga	-9793
▁sekreterare	-9794
▁tjugufjärde	-9795
▁turturduvor	-9796
▁vingårdarna	-9797
▁vredesdomen	-9798
▁välbehållen	-9799
▁besittningar	-9800
▁efterföljare	-9801
▁fruktansvärd	-9802
▁förbannelsen	-9803
▁föreskrifter	-9804
▁gudstjänsten	-9805
▁huvudbindeln	-9806
▁högtidsdräkt	-9807
▁ljusstakarna	-9808
▁misshandlade	-9809
▁skördemännen	-9810
▁välsignelser	-9811
▁föreståndarna	-9812
▁glädjebudskap	-9813
▁kopparaltaret	-9814
▁orättrådighet	-9815
▁rättstjänarna	-9816
▁tempelkamrarna	-9817
▁byggningsmännen	-9818
Då	-9819
fj	-9820
if	-9821
ix	-9822
lt	-9823
Än	-9824
ök	-9825
Vid	-9826
Vår	-9827
ael	-9828
agg	-9829
anh	-9830
ava	-9831
boa	-9832
hon	-9833
juk	-9834
län	-9835
lön	-9836
nel	-9837
pad	-9838
put	-9839
rud	-9840
rum	-9841
sem	-9842
sna	-9843
uga	-9844
una	-9845
uni	-9846
öjd	-9847
öma	-9848
öme	-9849
ömt	-9850
öva	-9851
▁Bo	-9852
▁Di	-9853
▁Kl	-9854
▁Ra	-9855
▁Ru	-9856
▁Us	-9857
▁ir	-9858
▁kå	-9859
▁Äl	-9860
Aven	-9861
Moab	-9862
Saul	-9863
atro	-9864
blås	-9865
bära	-9866
drei	-9867
ebja	-9868
ehus	-9869
emas	-9870
esta	-9871
fats	-9872
fört	-9873
geln	-9874
hand	-9875
icka	-9876
igas	-9877
ikar	-9878
issa	-9879
lyft	-9880
oken	-9881
osor	-9882
part	-9883
pern	-9884
raff	-9885
raim	-9886
räng	-9887
snib	-9888
stas	-9889
svär	-9890
säkt	-9891
uktt	-9892
unio	-9893
ysol	-9894
Ännu	-9895
åpan	-9896
öten	-9897
▁Beg	-9898
▁Bek	-9899
▁Bos	-9900
▁Cil	-9901
▁Dal	-9902
▁Ela	-9903
▁Est	-9904
▁Gam	-9905
▁Hab	-9906
▁Hak	-9907
▁Jam	-9908
▁Jok	-9909
▁Jud	-9910
▁Kel	-9911
▁Lus	-9912
▁Mus	-9913
▁Nik	-9914
▁Sok	-9915
▁avm	-9916
▁bag	-9917
▁bit	-9918
▁dug	-9919
▁dyn	-9920
▁fän	-9921
▁kos	-9922
▁mor	-9923
▁sim	-9924
▁stu	-9925
Geber	-9926
Gören	-9927
aller	-9928
allet	-9929
anjas	-9930
attus	-9931
elius	-9932
felet	-9933
födde	-9934
isael	-9935
isede	-9936
jupet	-9937
löses	-9938
makar	-9939
märke	-9940
radöm	-9941
redje	-9942
saken	-9943
sedan	-9944
skott	-9945
smakt	-9946
staol	-9947
stjär	-9948
talet	-9949
ynden	-9950
ädrar	-9951
älten	-9952
ängda	-9953
änges	-9954
▁Afek	-9955
▁Agag	-9956
▁Arab	-9957
▁Både	-9958
▁Ebal	-9959
▁Eden	-9960
▁Enos	-9961
▁Eser	-9962
▁Etan	-9963
▁Främ	-9964
▁Förl	-9965
▁Jael	-9966
▁Jair	-9967
▁Kadm	-9968
▁Leas	-9969
▁Lots	-9970
▁Mera	-9971
▁Nord	-9972
▁Ofra	-9973
▁Onan	-9974
▁Pred	-9975
▁Sabd	-9976
▁Stor	-9977
▁Visa	-9978
▁Väkt	-9979
▁avog	-9980
▁befl	-9981
▁bero	-9982
▁bytt	-9983
▁delt	-9984
▁doft	-9985
▁dold	-9986
▁dömt	-9987
▁flög	-9988
▁frig	-9989
▁gaff	-9990
▁gäck	-9991
▁hull	-9992
▁idog	-9993
▁isma	-9994
▁karm	-9995
▁kniv	-9996
▁kräl	-9997
▁lame	-9998
▁ledo	-9999
▁lera	-10000
▁malm	-10001
▁mand	-10002
▁nyck	-10003
▁nödv	-10004
▁obeb	-10005
▁ruin	-10006
▁skal	-10007
▁slit	-10008
▁slum	-10009
▁snår	-10010
▁stär	-10011
▁trot	-10012
▁trät	-10013
▁tvår	-10014
▁unna	-10015
▁uteb	-10016
▁åsne	-10017
▁åtti	-10018
▁örat	-10019
Skaffa	-10020
Stanna	-10021
Vänden	-10022
bilden	-10023
fågeln	-10024
ganden	-10025
giriga	-10026
hetens	-10027
huggen	-10028
kastad	-10029
ljudet	-10030
otiten	-10031
sbredd	-10032
shjord	-10033
skräck	-10034
skurar	-10035
utgjut	-10036
verken	-10037
önstra	-10038
▁Abdon	-10039
▁Ackub	-10040
▁Andes	-10041
▁Arams	-10042
▁Ariel	-10043
▁Asaja	-10044
▁Bilha	-10045
▁Datan	-10046
▁Edrei	-10047
▁Felix	-10048
▁Hjälp	-10049
▁Jabin	-10050
▁Jafet	-10051
▁Jahat	-10052
▁Jakin	-10053
▁Jeram	-10054
▁Kebar	-10055
▁Kemos	-10056
▁Mamre	-10057
▁Naama	-10058
▁Nehem	-10059
▁Ornan	-10060
▁Rehum	-10061
▁Sabad	-10062
▁Sefar	-10063
▁Sikri	-10064
▁Solen	-10065
▁Sunem	-10066
▁Tofet	-10067
▁Vaken	-10068
▁Vasti	-10069
▁ansen	-10070
▁axlar	-10071
▁bered	-10072
▁bjäll	-10073
▁brann	-10074
▁böjer	-10075
▁degen	-10076
▁doppa	-10077
▁dödss	-10078
▁döper	-10079
▁döpte	-10080
▁dövst	-10081
▁fetma	-10082
▁foder	-10083
▁folkm	-10084
▁födsl	-10085
▁förtv	-10086
▁gesur	-10087
▁grönt	-10088
▁gåven	-10089
▁gåvos	-10090
▁hatat	-10091
▁hinna	-10092
▁hoppa	-10093
▁hunno	-10094
▁högtl	-10095
▁höljt	-10096
▁ivrig	-10097
▁jämna	-10098
▁korta	-10099
▁krank	-10100
▁löper	-10101
▁lösas	-10102
▁marks	-10103
▁nämna	-10104
▁omvär	-10105
▁salen	-10106
▁sidol	-10107
▁skild	-10108
▁skilt	-10109
▁skria	-10110
▁skönt	-10111
▁späka	-10112
▁sträv	-10113
▁stämp	-10114
▁stänk	-10115
▁sämre	-10116
▁tagna	-10117
▁undgå	-10118
▁uppfo	-10119
▁utbad	-10120
▁utvid	-10121
▁vetet	-10122
▁virke	-10123
▁vises	-10124
▁värld	-10125
▁överl	-10126
blommor	-10127
färdige	-10128
huggare	-10129
isterna	-10130
ligaste	-10131
platser	-10132
skörden	-10133
▁Ajalon	-10134
▁Arnons	-10135
▁Bergen	-10136
▁Betuel	-10137
▁Bikris	-10138
▁Cypern	-10139
▁Gilboa	-10140
▁Hermon	-10141
▁Hållen	-10142
▁Jishar	-10143
▁Jotams	-10144
▁Jämren	-10145
▁Labans	-10146
▁Markus	-10147
▁Misael	-10148
▁Nabals	-10149
▁Nabots	-10150
▁Nerias	-10151
▁Pashur	-10152
▁Rakels	-10153
▁Sackur	-10154
▁Syrien	-10155
▁ansedd	-10156
▁avsikt	-10157
▁bebygg	-10158
▁bergsk	-10159
▁bevaka	-10160
▁bittra	-10161
▁budbär	-10162
▁disput	-10163
▁djupen	-10164
▁drogen	-10165
▁dröjde	-10166
▁dubbla	-10167
▁dyrkas	-10168
▁därute	-10169
▁dåligt	-10170
▁fallna	-10171
▁farisé	-10172
▁flesta	-10173
▁flicka	-10174
▁flödar	-10175
▁friden	-10176
▁fruktt	-10177
▁fröjde	-10178
▁förfor	-10179
▁föränd	-10180
▁gagnar	-10181
▁gethår	-10182
▁giller	-10183
▁gingen	-10184
▁gräsma	-10185
▁hornet	-10186
▁härska	-10187
▁hästen	-10188
▁höllos	-10189
▁inemot	-10190
▁infatt	-10191
▁knappt	-10192
▁knorra	-10193
▁krysol	-10194
▁köpmän	-10195
▁liljor	-10196
▁linned	-10197
▁ljuger	-10198
▁minnes	-10199
▁minnet	-10200
▁mödrar	-10201
▁nyktra	-10202
▁nästan	-10203
▁omvänt	-10204
▁ordets	-10205
▁oväder	-10206
▁paddor	-10207
▁pesten	-10208
▁raseri	-10209
▁rådslå	-10210
▁seende	-10211
▁skapar	-10212
▁smorda	-10213
▁snärja	-10214
▁starke	-10215
▁stödde	-10216
▁svinen	-10217
▁såning	-10218
▁tanken	-10219
▁tjocka	-10220
▁tjuven	-10221
▁tomhet	-10222
▁tornet	-10223
▁troget	-10224
▁trogne	-10225
▁tröskv	-10226
▁tuktat	-10227
▁tvagit	-10228
▁undfår	-10229
▁uppblå	-10230
▁ursäkt	-10231
▁utbyte	-10232
▁uthåll	-10233
▁utplån	-10234
▁vikten	-10235
▁vildox	-10236
▁vinläg	-10237
▁vissla	-10238
▁vränga	-10239
▁vägnar	-10240
▁vågade	-10241
▁äldsta	-10242
▁älskad	-10243
▁öknens	-10244
▁örsnib	-10245
delsedag	-10246
ighetens	-10247
läggning	-10248
sväduren	-10249
vaktaren	-10250
▁Berekja	-10251
▁Hilkias	-10252
▁Kidrons	-10253
▁Menahem	-10254
▁Meribas	-10255
▁Människ	-10256
▁Naheson	-10257
▁Sefanja	-10258
▁Sefatja	-10259
▁Serebja	-10260
▁använde	-10261
▁arvinge	-10262
▁avfalla	-10263
▁bebland	-10264
▁berätta	-10265
▁betogos	-10266
▁blygsel	-10267
▁brokigt	-10268
▁cypress	-10269
▁darrade	-10270
▁dugande	-10271
▁fostrat	-10272
▁fullhet	-10273
▁funnits	-10274
▁fyrfalt	-10275
▁fördold	-10276
▁förebrå	-10277
▁företog	-10278
▁förkväv	-10279
▁förlita	-10280
▁försköt	-10281
▁förökar	-10282
▁förökas	-10283
▁föröken	-10284
▁gatiten	-10285
▁glädjen	-10286
▁hastigt	-10287
▁huggorm	-10288
▁intagen	-10289
▁jublade	-10290
▁kaldéer	-10291
▁konstar	-10292
▁kunniga	-10293
▁ledsaga	-10294
▁lejonen	-10295
▁ljusets	-10296
▁längden	-10297
▁mullbär	-10298
▁ohelgat	-10299
▁området	-10300
▁omsider	-10301
▁pelaren	-10302
▁sistone	-10303
▁sjufalt	-10304
▁skatten	-10305
▁skeppen	-10306
▁skogens	-10307
▁skulden	-10308
▁slaktat	-10309
▁snarare	-10310
▁styrkte	-10311
▁tecknen	-10312
▁trakter	-10313
▁trampar	-10314
▁trefalt	-10315
▁trodden	-10316
▁uppgång	-10317
▁upplösa	-10318
▁utifrån	-10319
▁utspänt	-10320
▁utsända	-10321
▁vattnar	-10322
▁villkor	-10323
▁väldigt	-10324
▁vänskap	-10325
▁värdiga	-10326
▁årligen	-10327
▁återbör	-10328
▁överhet	-10329
▁övertyg	-10330
Människos	-10331
▁Betlehem	-10332
▁Elifelet	-10333
▁Eljoenai	-10334
▁Josafats	-10335
▁Mattitja	-10336
▁allmosor	-10337
▁allmänna	-10338
▁användas	-10339
▁bestraff	-10340
▁betäckte	-10341
▁dristade	-10342
▁egyptisk	-10343
▁flugsvär	-10344
▁frestade	-10345
▁fröjdade	-10346
▁föredöme	-10347
▁förehåll	-10348
▁förfäras	-10349
▁förgöres	-10350
▁förnekat	-10351
▁förråder	-10352
▁förstörd	-10353
▁förunder	-10354
▁förvarat	-10355
▁förändra	-10356
▁förödmju	-10357
▁gårdarna	-10358
▁herradöm	-10359
▁hungrige	-10360
▁inbördes	-10361
▁inföding	-10362
▁inseglet	-10363
▁kananéer	-10364
▁kastades	-10365
▁kastskov	-10366
▁kringstr	-10367
▁kroppens	-10368
▁kungören	-10369
▁lagkloke	-10370
▁liggande	-10371
▁maktlösa	-10372
▁ondskans	-10373
▁persiske	-10374
▁profetia	-10375
▁prästens	-10376
▁påbjudit	-10377
▁romerska	-10378
▁ruinerna	-10379
▁räknades	-10380
▁rådförde	-10381
▁smädelse	-10382
▁tillskyn	-10383
▁tjugunio	-10384
▁tjurarna	-10385
▁trollkar	-10386
▁trängtan	-10387
▁tvistade	-10388
▁tänderna	-10389
▁uppbyggd	-10390
▁uppbyggt	-10391
▁uträckta	-10392
▁vattnade	-10393
▁vissnade	-10394
▁väktaren	-10395
▁väktarna	-10396
▁väsendes	-10397
▁österlän	-10398
▁Melkisede	-10399
▁Slutligen	-10400
▁andedräkt	-10401
▁arameiska	-10402
▁avståndet	-10403
▁djävulens	-10404
▁dåraktiga	-10405
▁dödsskugg	-10406
▁evärdliga	-10407
▁fattigdom	-10408
▁frestelse	-10409
▁förbinder	-10410
▁förborgat	-10411
▁förfallet	-10412
▁förjagade	-10413
▁förkunnen	-10414
▁förmanade	-10415
▁församlas	-10416
▁förskyllt	-10417
▁förstörda	-10418
▁förutsagt	-10419
▁hjordarna	-10420
▁högmodiga	-10421
▁högmodigt	-10422
▁klipporna	-10423
▁köttsliga	-10424
▁löftesord	-10425
▁lösningen	-10426
▁omfattade	-10427
▁omhängena	-10428
▁oskyldiga	-10429
▁rafaéerna	-10430
▁schakaler	-10431
▁sextiotvå	-10432
▁skovlarna	-10433
▁skändligt	-10434
▁släktregi	-10435
▁solstoder	-10436
▁spenabarn	-10437
▁stolparna	-10438
▁syndernas	-10439
▁timmermän	-10440
▁träffades	-10441
▁trälinnor	-10442
▁undersöka	-10443
▁upprättat	-10444
▁uppsyning	-10445
▁väldighet	-10446
▁välsignen	-10447
▁övergivna	-10448
▁överträda	-10449
▁Artasastas	-10450
▁Emellertid	-10451
▁Jerubbaals	-10452
▁alltigenom	-10453
▁anstiftade	-10454
▁avsöndrade	-10455
▁bedrägliga	-10456
▁därutanför	-10457
▁forntidens	-10458
▁frånskilja	-10459
▁förfärdiga	-10460
▁förförelse	-10461
▁förstockat	-10462
▁försvinner	-10463
▁förtorkade	-10464
▁hundrafalt	-10465
▁högtiderna	-10466
▁ihjälrivet	-10467
▁inbyggarna	-10468
▁innestängd	-10469
▁lårstycket	-10470
▁moderssköt	-10471
▁profeterat	-10472
▁skiljebrev	-10473
▁skördeskri	-10474
▁stamfamilj	-10475
▁ståndaktig	-10476
▁tillslutit	-10477
▁tilltalade	-10478
▁trettiotre	-10479
▁uppskrivna	-10480
▁utskickade	-10481
▁åkerstycke	-10482
▁åligganden	-10483
▁åsninnorna	-10484
▁återkommit	-10485
▁överlämnar	-10486
▁Allasammans	-10487
▁Beltesassar	-10488
▁axelstycken	-10489
▁delaktighet	-10490
▁folkmängden	-10491
▁frälsningen	-10492
▁förbittring	-10493
▁förstföddes	-10494
▁hemligheter	-10495
▁härstammade	-10496
▁netofatiten	-10497
▁någonstädes	-10498
▁ofruktsamma	-10499
▁sönderrivna	-10500
▁tillfriskna	-10501
▁östanvinden	-10502
Människosonen	-10503
▁boningsorter	-10504
▁boskapshjord	-10505
▁dörrposterna	-10506
▁följeslagare	-10507
▁förmaningens	-10508
▁försmäktande	-10509
▁hövdingdömet	-10510
▁konungasonen	-10511
▁kringspridda	-10512
▁laggärningar	-10513
▁landsträckan	-10514
▁misshandling	-10515
▁otillbörligt	-10516
▁sammansvurit	-10517
▁blodshämnaren	-10518
▁gensträvighet	-10519
▁granatäpplena	-10520
▁midnattstiden	-10521
▁mullbärsfikon	-10522
▁sammankallade	-10523
▁tillrättavisa	-10524
▁Människosonens	-10525
▁arbetspliktiga	-10526
▁barnaföderskas	-10527
▁krigshövitsmän	-10528
▁överhovmästaren	-10529
▁;	-10530
'.»	-10531
Ber	-10532
Bet	-10533
Dor	-10534
Gad	-10535
Jer	-10536
Pil	-10537
ang	-10538
bol	-10539
bom	-10540
ert	-10541
fur	-10542
han	-10543
has	-10544
jok	-10545
mai	-10546
mur	-10547
när	-10548
och	-10549
ogb	-10550
oti	-10551
råt	-10552
skå	-10553
stö	-10554
tat	-10555
tol	-10556
tåg	-10557
ubb	-10558
vux	-10559
yta	-10560
älj	-10561
▁Ir	-10562
▁ah	-10563
▁dy	-10564
▁gi	-10565
▁ta	-10566
▁ul	-10567
Arba	-10568
Ditt	-10569
Förb	-10570
Förd	-10571
Hamm	-10572
Isra	-10573
Leve	-10574
Sade	-10575
Sänd	-10576
Sätt	-10577
Träd	-10578
agat	-10579
ages	-10580
anak	-10581
arma	-10582
bort	-10583
bröd	-10584
dött	-10585
ebes	-10586
ejas	-10587
emat	-10588
ftar	-10589
gåvo	-10590
höjd	-10591
hörn	-10592
ikus	-10593
imon	-10594
innu	-10595
liva	-10596
mons	-10597
nets	-10598
odag	-10599
odic	-10600
olis	-10601
opas	-10602
oram	-10603
ppna	-10604
pröv	-10605
reck	-10606
rund	-10607
seka	-10608
smål	-10609
uppe	-10610
vist	-10611
yter	-10612
ällt	-10613
ådar	-10614
ålig	-10615
åpar	-10616
ödor	-10617
öjda	-10618
örta	-10619
▁Bak	-10620
▁Del	-10621
▁Esb	-10622
▁Hem	-10623
▁Hod	-10624
▁Kar	-10625
▁Ker	-10626
▁Mat	-10627
▁Ore	-10628
▁Otn	-10629
▁Pag	-10630
▁Sju	-10631
▁Tib	-10632
▁Tro	-10633
▁deg	-10634
▁gur	-10635
▁häg	-10636
▁jäg	-10637
▁kog	-10638
▁let	-10639
▁lie	-10640
▁mus	-10641
▁pry	-10642
▁ses	-10643
▁sot	-10644
▁tin	-10645
▁tis	-10646
▁tri	-10647
▁umg	-10648
▁vas	-10649
▁vik	-10650
▁ägg	-10651
Faren	-10652
Genom	-10653
Hanan	-10654
Melek	-10655
Menar	-10656
Sådan	-10657
abbok	-10658
amars	-10659
andes	-10660
annat	-10661
armut	-10662
atros	-10663
blott	-10664
dskap	-10665
ehåll	-10666
elsev	-10667
esers	-10668
fläck	-10669
flöde	-10670
fogat	-10671
fråga	-10672
födda	-10673
höljt	-10674
iftat	-10675
inoam	-10676
jarib	-10677
judes	-10678
jälpa	-10679
kande	-10680
lagna	-10681
minst	-10682
narna	-10683
oriet	-10684
ovade	-10685
rogne	-10686
saida	-10687
sarna	-10688
skorn	-10689
skost	-10690
skäll	-10691
skött	-10692
ummin	-10693
unnan	-10694
unnos	-10695
uppim	-10696
äggen	-10697
ämmas	-10698
ämnen	-10699
åning	-10700
▁Akan	-10701
▁Blev	-10702
▁Buck	-10703
▁Döds	-10704
▁Elon	-10705
▁Etam	-10706
▁Flyn	-10707
▁Förm	-10708
▁Hams	-10709
▁Iddo	-10710
▁Lika	-10711
▁Lägg	-10712
▁Maon	-10713
▁Soko	-10714
▁Stig	-10715
▁Väst	-10716
▁amma	-10717
▁avsl	-10718
▁bind	-10719
▁blix	-10720
▁bädd	-10721
▁böck	-10722
▁efod	-10723
▁fest	-10724
▁fots	-10725
▁fula	-10726
▁gens	-10727
▁gnat	-10728
▁golv	-10729
▁inpå	-10730
▁inåt	-10731
▁klöv	-10732
▁kärt	-10733
▁leta	-10734
▁lita	-10735
▁ljöd	-10736
▁loge	-10737
▁löse	-10738
▁mött	-10739
▁oket	-10740
▁plåt	-10741
▁pret	-10742
▁rens	-10743
▁rota	-10744
▁räck	-10745
▁röja	-10746
▁sand	-10747
▁sera	-10748
▁skra	-10749
▁stru	-10750
▁sval	-10751
▁tego	-10752
▁tumm	-10753
▁urim	-10754
▁usel	-10755
▁utly	-10756
▁värm	-10757
▁väva	-10758
▁ärad	-10759
Fördär	-10760
Lehems	-10761
agniss	-10762
andras	-10763
atiten	-10764
fältet	-10765
första	-10766
gångar	-10767
inkare	-10768
konung	-10769
kärlen	-10770
sarens	-10771
sarken	-10772
signal	-10773
skaror	-10774
spräst	-10775
starna	-10776
stenen	-10777
sträng	-10778
ygdens	-10779
åtligt	-10780
▁Adaja	-10781
▁Anaks	-10782
▁Arjok	-10783
▁Aseka	-10784
▁Beria	-10785
▁Binnu	-10786
▁Bosra	-10787
▁Elams	-10788
▁Elnat	-10789
▁Esjon	-10790
▁Faren	-10791
▁Fören	-10792
▁Gesur	-10793
▁Heber	-10794
▁Hefer	-10795
▁Ittai	-10796
▁Javan	-10797
▁Jebus	-10798
▁Jered	-10799
▁Karmi	-10800
▁Massa	-10801
▁Menar	-10802
▁Några	-10803
▁Peleg	-10804
▁Salig	-10805
▁Seras	-10806
▁Släpp	-10807
▁Stark	-10808
▁Talen	-10809
▁Varom	-10810
▁angav	-10811
▁bakat	-10812
▁beträ	-10813
▁brust	-10814
▁båtar	-10815
▁freds	-10816
▁frikö	-10817
▁förfl	-10818
▁föröv	-10819
▁galil	-10820
▁greps	-10821
▁gräva	-10822
▁gömda	-10823
▁hålor	-10824
▁högst	-10825
▁jisre	-10826
▁kyssa	-10827
▁lekam	-10828
▁lilja	-10829
▁lovar	-10830
▁lägre	-10831
▁längs	-10832
▁makts	-10833
▁mänsk	-10834
▁målet	-10835
▁nedåt	-10836
▁näste	-10837
▁orene	-10838
▁ovärd	-10839
▁parti	-10840
▁pilen	-10841
▁plöja	-10842
▁riset	-10843
▁ropat	-10844
▁rulle	-10845
▁rövat	-10846
▁sades	-10847
▁sakna	-10848
▁sking	-10849
▁skygd	-10850
▁sköto	-10851
▁slagg	-10852
▁slutt	-10853
▁stode	-10854
▁stung	-10855
▁sålda	-10856
▁taken	-10857
▁togen	-10858
▁torde	-10859
▁trona	-10860
▁tyget	-10861
▁ullen	-10862
▁uppät	-10863
▁utsåg	-10864
▁vakar	-10865
▁varse	-10866
▁viken	-10867
▁väcka	-10868
Abraham	-10869
Herrens	-10870
Israels	-10871
elsebul	-10872
ockning	-10873
redskap	-10874
shusets	-10875
ästaren	-10876
▁Abrams	-10877
▁Asarel	-10878
▁Basans	-10879
▁Eliabs	-10880
▁Elisas	-10881
▁Eljest	-10882
▁Estaol	-10883
▁Frågen	-10884
▁Hanani	-10885
▁Harims	-10886
▁Havila	-10887
▁Jabbok	-10888
▁Jarmut	-10889
▁Laedan	-10890
▁Makirs	-10891
▁Malluk	-10892
▁Nahors	-10893
▁Penuel	-10894
▁Reguel	-10895
▁Safans	-10896
▁Skaffa	-10897
▁Taanak	-10898
▁Viljen	-10899
▁ansatt	-10900
▁avhåll	-10901
▁avsats	-10902
▁avvant	-10903
▁bepröv	-10904
▁beslöt	-10905
▁betung	-10906
▁bjudna	-10907
▁blodsd	-10908
▁blåser	-10909
▁bocken	-10910
▁borden	-10911
▁borgar	-10912
▁brytas	-10913
▁bränsl	-10914
▁bältet	-10915
▁daggen	-10916
▁danade	-10917
▁draget	-10918
▁drives	-10919
▁drycke	-10920
▁dråpar	-10921
▁efraim	-10922
▁eftert	-10923
▁flöden	-10924
▁fresta	-10925
▁främja	-10926
▁fyller	-10927
▁förebr	-10928
▁föröda	-10929
▁gerson	-10930
▁girgas	-10931
▁gjutet	-10932
▁gropen	-10933
▁gäster	-10934
▁gående	-10935
▁gödsel	-10936
▁harpos	-10937
▁hinner	-10938
▁huggna	-10939
▁hämtad	-10940
▁högste	-10941
▁inbjud	-10942
▁ingått	-10943
▁inlåta	-10944
▁jaspis	-10945
▁kallen	-10946
▁kamrar	-10947
▁kärvar	-10948
▁larmet	-10949
▁lukten	-10950
▁lustar	-10951
▁lutade	-10952
▁mullen	-10953
▁mättas	-10954
▁mången	-10955
▁nacken	-10956
▁ofärds	-10957
▁ogunst	-10958
▁omskar	-10959
▁plågad	-10960
▁påsken	-10961
▁rövade	-10962
▁samlen	-10963
▁skakar	-10964
▁skilda	-10965
▁skåden	-10966
▁slaget	-10967
▁sluter	-10968
▁smärta	-10969
▁snabba	-10970
▁snaran	-10971
▁stadda	-10972
▁streck	-10973
▁strids	-10974
▁strimm	-10975
▁stumma	-10976
▁stöder	-10977
▁stödje	-10978
▁suckar	-10979
▁sunnan	-10980
▁sänden	-10981
▁sänkte	-10982
▁sättes	-10983
▁teckna	-10984
▁toppar	-10985
▁tummen	-10986
▁tyngre	-10987
▁törsta	-10988
▁undand	-10989
▁undfly	-10990
▁uppsyn	-10991
▁uppvig	-10992
▁utsago	-10993
▁varade	-10994
▁vassen	-10995
▁veckor	-10996
▁väntan	-10997
▁våndas	-10998
▁ägaren	-10999
▁älskog	-11000
▁ändens	-11001
liggande	-11002
minstone	-11003
sförbund	-11004
ställena	-11005
ärningen	-11006
▁Ahinoam	-11007
▁Basemat	-11008
▁Fördärv	-11009
▁Jeremot	-11010
▁Jerimot	-11011
▁Jojarib	-11012
▁Mahalal	-11013
▁Merajot	-11014
▁Samuels	-11015
▁Sebanja	-11016
▁Selemja	-11017
▁Sippors	-11018
▁Skaffen	-11019
▁Somliga	-11020
▁ansatte	-11021
▁arbetar	-11022
▁avhålla	-11023
▁avundas	-11024
▁bebodda	-11025
▁beskärt	-11026
▁dagakar	-11027
▁djupets	-11028
▁doppade	-11029
▁dugliga	-11030
▁filisté	-11031
▁folkför	-11032
▁fotsida	-11033
▁frodiga	-11034
▁frommas	-11035
▁främjar	-11036
▁färdiga	-11037
▁förblin	-11038
▁fördölj	-11039
▁företag	-11040
▁förföra	-11041
▁förkort	-11042
▁förmått	-11043
▁försmäl	-11044
▁försöka	-11045
▁förteck	-11046
▁gjorden	-11047
▁hammare	-11048
▁hjälpkv	-11049
▁hurudan	-11050
▁högtids	-11051
▁inälvor	-11052
▁klappar	-11053
▁konster	-11054
▁krafter	-11055
▁krigare	-11056
▁kränkte	-11057
▁lättare	-11058
▁lönndom	-11059
▁molnsky	-11060
▁murbruk	-11061
▁naturen	-11062
▁nedtram	-11063
▁oheligt	-11064
▁omgiven	-11065
▁plågade	-11066
▁påminna	-11067
▁rakkniv	-11068
▁reskost	-11069
▁rikligt	-11070
▁ringare	-11071
▁ringhet	-11072
▁romersk	-11073
▁rostade	-11074
▁rämnade	-11075
▁rådklok	-11076
▁sjunker	-11077
▁sjunkit	-11078
▁skeppsb	-11079
▁skriven	-11080
▁skäppan	-11081
▁smakade	-11082
▁spridde	-11083
▁spänner	-11084
▁spärrar	-11085
▁stammen	-11086
▁stortal	-11087
▁stortån	-11088
▁svansen	-11089
▁svängde	-11090
▁syndiga	-11091
▁tuktade	-11092
▁tycktes	-11093
▁tydligt	-11094
▁uppsikt	-11095
▁upptill	-11096
▁utblott	-11097
▁utföras	-11098
▁vanliga	-11099
▁vanärat	-11100
▁villfar	-11101
▁virkade	-11102
▁vredens	-11103
▁våldsam	-11104
▁vårregn	-11105
▁ängslas	-11106
▁ådrager	-11107
▁ödelagd	-11108
▁övergår	-11109
▁överlåt	-11110
▁övertal	-11111
Förbannad	-11112
Profetera	-11113
agnisslan	-11114
byggnaden	-11115
▁Ammihuds	-11116
▁Betsaida	-11117
▁Cilicien	-11118
▁Eljasibs	-11119
▁Glädjens	-11120
▁Himmelen	-11121
▁Stefanus	-11122
▁anbefall	-11123
▁angripne	-11124
▁anställt	-11125
▁barnsnöd	-11126
▁bedriver	-11127
▁befinnes	-11128
▁begravit	-11129
▁beklädde	-11130
▁bespejat	-11131
▁betrakta	-11132
▁bulnader	-11133
▁bågskytt	-11134
▁dårarnas	-11135
▁eldsglöd	-11136
▁etiopier	-11137
▁flykting	-11138
▁fortfara	-11139
▁framburo	-11140
▁fyrfaten	-11141
▁förfarna	-11142
▁förföljt	-11143
▁förgicks	-11144
▁försagda	-11145
▁förtrött	-11146
▁förvända	-11147
▁getterna	-11148
▁hebreisk	-11149
▁hämndens	-11150
▁infördes	-11151
▁invärtes	-11152
▁jungfrun	-11153
▁klagomål	-11154
▁konstnär	-11155
▁kopparen	-11156
▁krysolit	-11157
▁köpebrev	-11158
▁landsfur	-11159
▁lejonets	-11160
▁liksidig	-11161
▁måltiden	-11162
▁omvänder	-11163
▁otuktiga	-11164
▁ovänskap	-11165
▁redligas	-11166
▁rötterna	-11167
▁sabbatsv	-11168
▁skinande	-11169
▁skönaste	-11170
▁stormade	-11171
▁stridens	-11172
▁syndaren	-11173
▁synderna	-11174
▁säkerhet	-11175
▁uppstodo	-11176
▁utforska	-11177
▁utplånat	-11178
▁uträckte	-11179
▁utsläcka	-11180
▁utsträck	-11181
▁vanartig	-11182
▁vildmark	-11183
▁vittnens	-11184
▁väsendet	-11185
▁åsninnor	-11186
▁återigen	-11187
▁återstår	-11188
▁överkläd	-11189
▁Beelsebul	-11190
▁Hadadeser	-11191
▁Oholibama	-11192
▁Salthavet	-11193
▁Selofhads	-11194
▁alltsedan	-11195
▁anklagade	-11196
▁askkärlen	-11197
▁egyptiern	-11198
▁fiendskap	-11199
▁filistéer	-11200
▁frambäras	-11201
▁framsidan	-11202
▁fruktträd	-11203
▁fängslade	-11204
▁förbliven	-11205
▁förblivit	-11206
▁förbrända	-11207
▁fördriver	-11208
▁förkrossa	-11209
▁förstrött	-11210
▁förtörnas	-11211
▁förvärvar	-11212
▁hebréerna	-11213
▁hemfallen	-11214
▁huggormar	-11215
▁huvudgärd	-11216
▁invigning	-11217
▁killingar	-11218
▁korsfäste	-11219
▁kärlekens	-11220
▁levnadsår	-11221
▁ljusstake	-11222
▁lovsången	-11223
▁lydstäder	-11224
▁lövhyddor	-11225
▁namngivna	-11226
▁naturliga	-11227
▁ovanifrån	-11228
▁pretoriet	-11229
▁profetsyn	-11230
▁slutligen	-11231
▁sädesfält	-11232
▁tappraste	-11233
▁uppbrända	-11234
▁uppehälle	-11235
▁uppkallad	-11236
▁uppmanade	-11237
▁upprättar	-11238
▁varandras	-11239
▁varigenom	-11240
▁vattenrik	-11241
▁vishetens	-11242
▁vredgades	-11243
▁åliggande	-11244
▁ödemarker	-11245
▁överheten	-11246
▁översvinn	-11247
▁arvslotter	-11248
▁benjaminit	-11249
▁bergsklyft	-11250
▁besvärjare	-11251
▁emellertid	-11252
▁etiopierna	-11253
▁fastställt	-11254
▁femtiofyra	-11255
▁fullkomnad	-11256
▁förhärjade	-11257
▁förhärjare	-11258
▁förkunnare	-11259
▁förtjänade	-11260
▁förtrycker	-11261
▁förvillade	-11262
▁gräddmjölk	-11263
▁gräsmaskar	-11264
▁grönskande	-11265
▁gästabudet	-11266
▁hebréernas	-11267
▁hädanefter	-11268
▁hårdnackat	-11269
▁innehåller	-11270
▁kastskovel	-11271
▁konungasön	-11272
▁korsfästas	-11273
▁larmsignal	-11274
▁murpelarna	-11275
▁oavlåtligt	-11276
▁oförnuftig	-11277
▁omstörtade	-11278
▁peletéerna	-11279
▁rafaéernas	-11280
▁sannfärdig	-11281
▁signetring	-11282
▁skrivelsen	-11283
▁smältugnen	-11284
▁stentavlor	-11285
▁sönderbrut	-11286
▁tillfogade	-11287
▁tillsluten	-11288
▁törnbusken	-11289
▁underdånig	-11290
▁underordna	-11291
▁undervisat	-11292
▁uppstånden	-11293
▁utskiftade	-11294
▁vingårdens	-11295
▁vägfarande	-11296
▁åtminstone	-11297
▁överskrift	-11298
▁altaroffret	-11299
▁apostlarnas	-11300
▁basunljudet	-11301
▁bordsgäster	-11302
▁fotstyckena	-11303
▁församlings	-11304
▁förskingrat	-11305
▁förskräckes	-11306
▁försmäktade	-11307
▁förståndigt	-11308
▁förtryckare	-11309
▁hemsökelser	-11310
▁jisreeliten	-11311
▁jordkretsen	-11312
▁konungsliga	-11313
▁mönsterbild	-11314
▁nitälskande	-11315
▁nymånaderna	-11316
▁oförnuftige	-11317
▁orättfärdig	-11318
▁prästadömet	-11319
▁påträffades	-11320
▁sammansvuro	-11321
▁skuldoffret	-11322
▁slagordning	-11323
▁stormvinden	-11324
▁ståndaktiga	-11325
▁ståndaktigt	-11326
▁tillstädjer	-11327
▁tjugutredje	-11328
▁uppbyggelse	-11329
▁vederkvicka	-11330
▁viftoffersb	-11331
▁väderstreck	-11332
▁Refaimsdalen	-11333
▁andevärldens	-11334
▁gibeoniterna	-11335
▁härlighetens	-11336
▁livklädnaden	-11337
▁modersskötet	-11338
▁pelarhuvuden	-11339
▁påskhögtiden	-11340
▁stridsmännen	-11341
▁stridsvagnar	-11342
▁ståthållaren	-11343
▁sönderkrossa	-11344
▁uppenbarades	-11345
▁välsignelsen	-11346
▁våldsverkare	-11347
▁Jordanslätten	-11348
▁Rättfärdighet	-11349
▁avgudadyrkare	-11350
▁förbundsarken	-11351
▁hövdingdömena	-11352
▁konungshusets	-11353
▁linnekläderna	-11354
▁smörjelseolja	-11355
▁tandagnisslan	-11356
▁förskräckelser	-11357
▁högtidsdräkter	-11358
▁släktregistret	-11359
▁överstepräster	-11360
▁förstfödslorätt	-11361
▁morgonrodnadens	-11362
▁offerhöjdspräst	-11363
);	-11364
An	-11365
Kv	-11366
oi	-11367
vi	-11368
yo	-11369
Beg	-11370
Bär	-11371
Ged	-11372
Hos	-11373
Sam	-11374
Sua	-11375
alm	-11376
amp	-11377
dig	-11378
dol	-11379
eeg	-11380
ema	-11381
fam	-11382
gum	-11383
kab	-11384
kun	-11385
lde	-11386
lid	-11387
met	-11388
mäl	-11389
oba	-11390
oeg	-11391
rom	-11392
skö	-11393
tad	-11394
tof	-11395
uba	-11396
uds	-11397
vår	-11398
ygn	-11399
äls	-11400
ömd	-11401
▁24	-11402
▁Ol	-11403
▁Pl	-11404
▁Rå	-11405
▁il	-11406
▁ån	-11407
Bliv	-11408
Gott	-11409
Hagg	-11410
Hans	-11411
Hell	-11412
Jeru	-11413
Sean	-11414
Stig	-11415
Stån	-11416
Vems	-11417
agte	-11418
alen	-11419
bbat	-11420
beka	-11421
bräg	-11422
deri	-11423
easa	-11424
ekem	-11425
erai	-11426
form	-11427
fors	-11428
hail	-11429
hänt	-11430
kens	-11431
kern	-11432
kist	-11433
lock	-11434
ners	-11435
ogel	-11436
ogla	-11437
pela	-11438
pill	-11439
rene	-11440
räde	-11441
röst	-11442
sgav	-11443
själ	-11444
skon	-11445
spär	-11446
ssak	-11447
synt	-11448
trot	-11449
ttan	-11450
unne	-11451
urim	-11452
usta	-11453
uvud	-11454
ymme	-11455
änkl	-11456
ätas	-11457
ödan	-11458
öret	-11459
ötas	-11460
▁Ajo	-11461
▁Akv	-11462
▁Bus	-11463
▁Dom	-11464
▁Dor	-11465
▁Dår	-11466
▁Fur	-11467
▁Får	-11468
▁Geb	-11469
▁Gem	-11470
▁Hof	-11471
▁Ira	-11472
▁Jar	-11473
▁Kef	-11474
▁Kib	-11475
▁Mad	-11476
▁Meh	-11477
▁Mib	-11478
▁Mor	-11479
▁Nef	-11480
▁Pon	-11481
▁Rik	-11482
▁Ris	-11483
▁Tap	-11484
▁aga	-11485
▁böl	-11486
▁dia	-11487
▁dri	-11488
▁däm	-11489
▁fas	-11490
▁gom	-11491
▁gäl	-11492
▁ind	-11493
▁isk	-11494
▁kok	-11495
▁lib	-11496
▁lud	-11497
▁met	-11498
▁omh	-11499
▁put	-11500
▁röj	-11501
▁sve	-11502
▁vap	-11503
▁äpp	-11504
Boset	-11505
Drick	-11506
Släpp	-11507
Vilka	-11508
anans	-11509
anhes	-11510
appua	-11511
areos	-11512
basun	-11513
beton	-11514
biten	-11515
borra	-11516
emuel	-11517
endet	-11518
ernen	-11519
fläkt	-11520
givit	-11521
gäves	-11522
herre	-11523
huvud	-11524
ianna	-11525
inger	-11526
ingos	-11527
ionio	-11528
irgat	-11529
itens	-11530
nande	-11531
odder	-11532
orger	-11533
paret	-11534
polis	-11535
raden	-11536
raren	-11537
rikam	-11538
rikes	-11539
ryckt	-11540
sares	-11541
skare	-11542
sslor	-11543
stund	-11544
tverk	-11545
ublen	-11546
ulder	-11547
undan	-11548
vapen	-11549
verar	-11550
äpple	-11551
ärdar	-11552
ärder	-11553
ässan	-11554
ätena	-11555
▁Abib	-11556
▁Bakb	-11557
▁Beba	-11558
▁Doeg	-11559
▁Elas	-11560
▁Elim	-11561
▁Evad	-11562
▁Fram	-11563
▁Hack	-11564
▁Håll	-11565
▁Hörn	-11566
▁Ikon	-11567
▁Jiss	-11568
▁Jokt	-11569
▁Korn	-11570
▁Kärl	-11571
▁Lais	-11572
▁Lova	-11573
▁Mara	-11574
▁Mosa	-11575
▁Musi	-11576
▁Ofel	-11577
▁Oreb	-11578
▁Seeb	-11579
▁Sema	-11580
▁Sems	-11581
▁Sten	-11582
▁Sänd	-11583
▁Tron	-11584
▁agar	-11585
▁bara	-11586
▁befr	-11587
▁beta	-11588
▁blek	-11589
▁dygn	-11590
▁enes	-11591
▁flit	-11592
▁foga	-11593
▁gata	-11594
▁glas	-11595
▁gryr	-11596
▁gåve	-11597
▁hann	-11598
▁hovo	-11599
▁hörd	-11600
▁inse	-11601
▁inym	-11602
▁kind	-11603
▁klot	-11604
▁kuva	-11605
▁kåpa	-11606
▁laga	-11607
▁lans	-11608
▁leka	-11609
▁ljug	-11610
▁lytt	-11611
▁läkt	-11612
▁löje	-11613
▁märg	-11614
▁måne	-11615
▁njut	-11616
▁obes	-11617
▁outr	-11618
▁plöj	-11619
▁påle	-11620
▁ryta	-11621
▁råds	-11622
▁röse	-11623
▁röva	-11624
▁sjöm	-11625
▁skyd	-11626
▁snid	-11627
▁speg	-11628
▁stub	-11629
▁sväv	-11630
▁sälj	-11631
▁säte	-11632
▁togs	-11633
▁tyri	-11634
▁utsi	-11635
▁vann	-11636
▁varv	-11637
▁vass	-11638
▁virv	-11639
▁vämj	-11640
▁väns	-11641
▁våga	-11642
▁ånyo	-11643
▁ömka	-11644
Mannen	-11645
Skynda	-11646
Vilket	-11647
annsak	-11648
areser	-11649
arkärl	-11650
deiska	-11651
elatja	-11652
hugget	-11653
ikaren	-11654
ingade	-11655
ivelse	-11656
kummin	-11657
köttet	-11658
mittad	-11659
märken	-11660
odagen	-11661
odräng	-11662
parens	-11663
parnas	-11664
ringan	-11665
roende	-11666
skapet	-11667
skjort	-11668
skålar	-11669
språng	-11670
staven	-11671
terska	-11672
unnits	-11673
verkar	-11674
vingar	-11675
visare	-11676
väkten	-11677
ämbete	-11678
▁Absai	-11679
▁Ahias	-11680
▁Arist	-11681
▁Bigva	-11682
▁Dagon	-11683
▁Dömen	-11684
▁Estem	-11685
▁Frukt	-11686
▁Herod	-11687
▁Härav	-11688
▁Ifrån	-11689
▁Jairs	-11690
▁Jamin	-11691
▁Jedia	-11692
▁Jehus	-11693
▁Jeter	-11694
▁Jämte	-11695
▁Kalde	-11696
▁Kedar	-11697
▁Metus	-11698
▁Najot	-11699
▁Nedre	-11700
▁Pahat	-11701
▁Rekem	-11702
▁Rogel	-11703
▁Rådet	-11704
▁Sabdi	-11705
▁Samla	-11706
▁Sered	-11707
▁Setar	-11708
▁Svara	-11709
▁Svärd	-11710
▁Tahat	-11711
▁Tekoa	-11712
▁Troas	-11713
▁Urias	-11714
▁Veder	-11715
▁anmäl	-11716
▁anses	-11717
▁armen	-11718
▁arvet	-11719
▁avsat	-11720
▁beseg	-11721
▁brusa	-11722
▁buken	-11723
▁bundo	-11724
▁bönen	-11725
▁bören	-11726
▁dropp	-11727
▁duvan	-11728
▁dödes	-11729
▁fagra	-11730
▁famla	-11731
▁fatet	-11732
▁fejat	-11733
▁fläkt	-11734
▁flöjt	-11735
▁fross	-11736
▁fålen	-11737
▁förre	-11738
▁försa	-11739
▁gagna	-11740
▁gomer	-11741
▁grävt	-11742
▁havsd	-11743
▁helar	-11744
▁hädar	-11745
▁hädat	-11746
▁hälft	-11747
▁häpen	-11748
▁hätsk	-11749
▁höjen	-11750
▁ifall	-11751
▁ingav	-11752
▁innes	-11753
▁inred	-11754
▁insam	-11755
▁jagar	-11756
▁juble	-11757
▁koger	-11758
▁krans	-11759
▁kviga	-11760
▁lagda	-11761
▁leret	-11762
▁lossa	-11763
▁lågor	-11764
▁lönar	-11765
▁lönen	-11766
▁löser	-11767
▁magra	-11768
▁minne	-11769
▁mogen	-11770
▁nasar	-11771
▁nåder	-11772
▁omkom	-11773
▁ragla	-11774
▁reden	-11775
▁rista	-11776
▁rätts	-11777
▁råden	-11778
▁sakta	-11779
▁salva	-11780
▁seder	-11781
▁skapa	-11782
▁skärp	-11783
▁stank	-11784
▁styrk	-11785
▁summa	-11786
▁svans	-11787
▁svett	-11788
▁sänkl	-11789
▁tavla	-11790
▁tiger	-11791
▁trium	-11792
▁tveeg	-11793
▁tvill	-11794
▁täcke	-11795
▁utgav	-11796
▁utspy	-11797
▁utstr	-11798
▁vinst	-11799
▁vissa	-11800
▁vägas	-11801
▁välja	-11802
▁våden	-11803
▁Öster	-11804
▁Östra	-11805
▁ärade	-11806
Stannen	-11807
aharaim	-11808
delsens	-11809
formiga	-11810
görelse	-11811
igheten	-11812
litliga	-11813
orsfäst	-11814
osabbat	-11815
rytelse	-11816
skällan	-11817
slandet	-11818
ställda	-11819
ydnader	-11820
örtning	-11821
▁Abners	-11822
▁Akvila	-11823
▁Arauna	-11824
▁Baesas	-11825
▁Beerot	-11826
▁Cyrene	-11827
▁Dagons	-11828
▁Delila	-11829
▁Eleasa	-11830
▁Förrän	-11831
▁Kedars	-11832
▁Korint	-11833
▁Laodic	-11834
▁Lystra	-11835
▁Migdol	-11836
▁Natans	-11837
▁Pareos	-11838
▁Satans	-11839
▁Seboim	-11840
▁Simeis	-11841
▁Simron	-11842
▁Skolen	-11843
▁Starke	-11844
▁Talmai	-11845
▁Träden	-11846
▁Varken	-11847
▁Västra	-11848
▁allvar	-11849
▁andlig	-11850
▁avkast	-11851
▁avskur	-11852
▁avslut	-11853
▁barmen	-11854
▁bemäkt	-11855
▁bespej	-11856
▁betogs	-11857
▁bjuden	-11858
▁bjudet	-11859
▁blomma	-11860
▁bragte	-11861
▁bruset	-11862
▁bryten	-11863
▁bälten	-11864
▁bärare	-11865
▁bölder	-11866
▁böners	-11867
▁bördor	-11868
▁början	-11869
▁cedern	-11870
▁dennas	-11871
▁dundra	-11872
▁enskil	-11873
▁erövra	-11874
▁fattar	-11875
▁floder	-11876
▁fromme	-11877
▁frossa	-11878
▁frågor	-11879
▁fäller	-11880
▁förbud	-11881
▁fördrö	-11882
▁förelä	-11883
▁förhäv	-11884
▁förkov	-11885
▁försmå	-11886
▁försåg	-11887
▁försök	-11888
▁förvis	-11889
▁garnet	-11890
▁grepos	-11891
▁gräver	-11892
▁halsar	-11893
▁handpå	-11894
▁hanter	-11895
▁hebron	-11896
▁hettan	-11897
▁hjärte	-11898
▁hulpen	-11899
▁huvuds	-11900
▁häktor	-11901
▁härför	-11902
▁ismael	-11903
▁ivriga	-11904
▁jämför	-11905
▁jämren	-11906
▁kalkar	-11907
▁kanane	-11908
▁klagen	-11909
▁kronor	-11910
▁krukan	-11911
▁kränkt	-11912
▁krönik	-11913
▁kullar	-11914
▁kärlet	-11915
▁liknas	-11916
▁läcker	-11917
▁lägren	-11918
▁läkare	-11919
▁lämnen	-11920
▁makter	-11921
▁mjölet	-11922
▁myrten	-11923
▁måttet	-11924
▁nämnas	-11925
▁näpste	-11926
▁närhet	-11927
▁näring	-11928
▁nådens	-11929
▁oskick	-11930
▁oskuld	-11931
▁prövat	-11932
▁pröven	-11933
▁punden	-11934
▁pålade	-11935
▁påminn	-11936
▁riglar	-11937
▁riklig	-11938
▁ringen	-11939
▁rinner	-11940
▁rymlig	-11941
▁ränsel	-11942
▁saknar	-11943
▁samtal	-11944
▁skarpa	-11945
▁skarpt	-11946
▁skölja	-11947
▁slutna	-11948
▁spiran	-11949
▁stenas	-11950
▁stinga	-11951
▁storma	-11952
▁strupe	-11953
▁stulit	-11954
▁stängd	-11955
▁summan	-11956
▁svarat	-11957
▁svikit	-11958
▁säljas	-11959
▁tappar	-11960
▁tingen	-11961
▁tvista	-11962
▁tviste	-11963
▁uppgav	-11964
▁utfärd	-11965
▁vetter	-11966
▁vitnat	-11967
▁vrångt	-11968
▁vändas	-11969
▁vänten	-11970
▁Älsken	-11971
▁änkans	-11972
▁önskan	-11973
▁öppnas	-11974
▁översk	-11975
fjättrar	-11976
fruktade	-11977
kammaren	-11978
ngalunda	-11979
ogshuset	-11980
ringande	-11981
sfrukter	-11982
skningar	-11983
▁Abihail	-11984
▁Adullam	-11985
▁Ahitubs	-11986
▁Asarjas	-11987
▁Asrikam	-11988
▁Astarot	-11989
▁Eljasaf	-11990
▁Elnatan	-11991
▁Filippi	-11992
▁Gibeons	-11993
▁Haserot	-11994
▁Hebrons	-11995
▁Hedmark	-11996
▁Heliges	-11997
▁Ikonium	-11998
▁Itamars	-11999
▁Jekonja	-12000
▁Judarna	-12001
▁Kadmiel	-12002
▁Makpela	-12003
▁Meremot	-12004
▁Mästare	-12005
▁Netanja	-12006
▁Oholiba	-12007
▁Sallums	-12008
▁Sefarva	-12009
▁Siseras	-12010
▁Ussiels	-12011
▁ansätta	-12012
▁armband	-12013
▁avskära	-12014
▁bagaren	-12015
▁basuner	-12016
▁begripa	-12017
▁begären	-12018
▁besatte	-12019
▁beskriv	-12020
▁betygat	-12021
▁betänka	-12022
▁bevaras	-12023
▁bevarat	-12024
▁brukade	-12025
▁byggdes	-12026
▁bävande	-12027
▁bönföll	-12028
▁dariker	-12029
▁ditöver	-12030
▁däruppe	-12031
▁ensamma	-12032
▁finaste	-12033
▁fjädrar	-12034
▁flyttat	-12035
▁fruktat	-12036
▁fänaden	-12037
▁födelse	-12038
▁förfara	-12039
▁förhävt	-12040
▁förslag	-12041
▁försmåd	-12042
▁försökt	-12043
▁förtvin	-12044
▁förtviv	-12045
▁gathörn	-12046
▁genomgå	-12047
▁grandet	-12048
▁grushög	-12049
▁gästvän	-12050
▁helbräg	-12051
▁hjälten	-12052
▁husvill	-12053
▁hädelse	-12054
▁hämnare	-12055
▁hämnden	-12056
▁härjade	-12057
▁hårdare	-12058
▁högfärd	-12059
▁hörande	-12060
▁hörntof	-12061
▁inträda	-12062
▁inträff	-12063
▁knorren	-12064
▁kvarter	-12065
▁lekamen	-12066
▁likadan	-12067
▁luttrat	-12068
▁lägligt	-12069
▁längtan	-12070
▁misslyn	-12071
▁motpart	-12072
▁mörkblå	-12073
▁nedlagt	-12074
▁nässlor	-12075
▁ogräset	-12076
▁ohelgar	-12077
▁olivträ	-12078
▁olyckas	-12079
▁omkomma	-12080
▁områden	-12081
▁omvände	-12082
▁ordnade	-12083
▁oroliga	-12084
▁plågare	-12085
▁prövade	-12086
▁påbudet	-12087
▁ridande	-12088
▁råmärke	-12089
▁sadlade	-12090
▁sargade	-12091
▁seglade	-12092
▁skälvde	-12093
▁smaklig	-12094
▁snodder	-12095
▁sorgsen	-12096
▁sprider	-12097
▁springa	-12098
▁stengol	-12099
▁stocken	-12100
▁ställas	-12101
▁ständig	-12102
▁störtas	-12103
▁telning	-12104
▁tistlar	-12105
▁trampas	-12106
▁tuktigt	-12107
▁törnena	-12108
▁törstar	-12109
▁umgänge	-12110
▁ungarna	-12111
▁uppmunt	-12112
▁upprörd	-12113
▁utgingo	-12114
▁utgivit	-12115
▁utlämna	-12116
▁utrikes	-12117
▁utrymme	-12118
▁utsagor	-12119
▁uttömma	-12120
▁verksam	-12121
▁vingars	-12122
▁visshet	-12123
▁välfärd	-12124
▁vällust	-12125
▁äldstes	-12126
▁åkallen	-12127
▁åsninna	-12128
Jerusalem	-12129
▁Därjämte	-12130
▁Ebjatars	-12131
▁Gibbeton	-12132
▁Jahasiel	-12133
▁Majestät	-12134
▁Naftalis	-12135
▁Natanael	-12136
▁Profeten	-12137
▁Tapanhes	-12138
▁Tessalon	-12139
▁Visheten	-12140
▁angripet	-12141
▁arbetare	-12142
▁armparet	-12143
▁avhåller	-12144
▁bedriven	-12145
▁bedrövat	-12146
▁befälhav	-12147
▁belätena	-12148
▁besinnen	-12149
▁besluten	-12150
▁beställt	-12151
▁blodsdåd	-12152
▁blomstra	-12153
▁borttaga	-12154
▁brunnens	-12155
▁budordet	-12156
▁bäckarna	-12157
▁diktamen	-12158
▁ertappas	-12159
▁flickans	-12160
▁flätverk	-12161
▁framtill	-12162
▁förebild	-12163
▁företaga	-12164
▁förfaren	-12165
▁förhäver	-12166
▁förliden	-12167
▁förmäten	-12168
▁förnekar	-12169
▁förordna	-12170
▁försvann	-12171
▁försynda	-12172
▁förtäljt	-12173
▁förtärda	-12174
▁förundra	-12175
▁graverar	-12176
▁grekiska	-12177
▁gruvliga	-12178
▁handfull	-12179
▁hantverk	-12180
▁heloffer	-12181
▁hindrade	-12182
▁hjältars	-12183
▁hurudana	-12184
▁hurudant	-12185
▁härsmakt	-12186
▁inbjudit	-12187
▁ivrigare	-12188
▁jebuséen	-12189
▁kasernen	-12190
▁kedjorna	-12191
▁kerubens	-12192
▁kraftigt	-12193
▁kristall	-12194
▁köttslig	-12195
▁landsman	-12196
▁lejonens	-12197
▁likadant	-12198
▁linneduk	-12199
▁läglarna	-12200
▁middagen	-12201
▁motvilja	-12202
▁människo	-12203
▁nedersta	-12204
▁nitälska	-12205
▁nådegåva	-12206
▁offermål	-12207
▁omhängen	-12208
▁omskäras	-12209
▁palatset	-12210
▁palmträd	-12211
▁plötslig	-12212
▁predikar	-12213
▁riktning	-12214
▁skamligt	-12215
▁skapades	-12216
▁skicklig	-12217
▁skillnad	-12218
▁snabbare	-12219
▁spottade	-12220
▁stigarna	-12221
▁stoderna	-12222
▁styckade	-12223
▁svärdets	-12224
▁tisbiten	-12225
▁trängtar	-12226
▁uppbrott	-12227
▁upphängd	-12228
▁upplyfte	-12229
▁upptagna	-12230
▁utkorade	-12231
▁vattenfl	-12232
▁vindarna	-12233
▁väggarna	-12234
▁åkerfält	-12235
▁åstundan	-12236
▁åstundar	-12237
▁återstod	-12238
▁överlade	-12239
▁övervåld	-12240
sgärningar	-12241
▁Alexander	-12242
▁Artasasta	-12243
▁Barsillai	-12244
▁Belsassar	-12245
▁Frälsares	-12246
▁Församlen	-12247
▁Kornelius	-12248
▁Mahalalel	-12249
▁Prästerna	-12250
▁avgudabel	-12251
▁avseglade	-12252
▁basunljud	-12253
▁beblandar	-12254
▁befunnits	-12255
▁begrundar	-12256
▁betydelse	-12257
▁brännande	-12258
▁bröllopet	-12259
▁egyptiska	-12260
▁fienderna	-12261
▁fortsätta	-12262
▁framburit	-12263
▁framdeles	-12264
▁fädernest	-12265
▁fåkunnige	-12266
▁förbjudit	-12267
▁fördelade	-12268
▁fördärvas	-12269
▁förgingos	-12270
▁förhatlig	-12271
▁förhållit	-12272
▁förkunnas	-12273
▁förseglad	-12274
▁förtorkas	-12275
▁gästabuds	-12276
▁hemfallna	-12277
▁herrarnas	-12278
▁hovmännen	-12279
▁härigenom	-12280
▁högljudda	-12281
▁hörsammat	-12282
▁inmönstra	-12283
▁kaldeiska	-12284
▁kropparna	-12285
▁krukmakar	-12286
▁kvarnsten	-12287
▁köttsligt	-12288
▁legodräng	-12289
▁lejoninna	-12290
▁likasåväl	-12291
▁livskraft	-12292
▁muntligen	-12293
▁nedbrutet	-12294
▁nittionio	-12295
▁offerdjur	-12296
▁offerkist	-12297
▁omringade	-12298
▁rosenröda	-12299
▁sannskyld	-12300
▁sextiosex	-12301
▁sjuttonde	-12302
▁självdött	-12303
▁skänkerna	-12304
▁styresmän	-12305
▁tempelbol	-12306
▁tillstatt	-12307
▁ungtjurar	-12308
▁uppbyggda	-12309
▁uppeggade	-12310
▁uppfyller	-12311
▁upphängda	-12312
▁utseendet	-12313
▁uttorkade	-12314
▁vederfors	-12315
▁återbörda	-12316
▁återvända	-12317
▁östanvind	-12318
▁övertäckt	-12319
Filistéerna	-12320
▁Amminadabs	-12321
▁Barsillais	-12322
▁Nordlandet	-12323
▁Predikaren	-12324
▁anakiterna	-12325
▁bespottade	-12326
▁betraktade	-12327
▁blodgiriga	-12328
▁dödsskugga	-12329
▁evärdligen	-12330
▁farbroders	-12331
▁fullbordar	-12332
▁furstarnas	-12333
▁förbarmade	-12334
▁förbrännas	-12335
▁förelägger	-12336
▁förseglade	-12337
▁förskjuten	-12338
▁förtroende	-12339
▁förtryckta	-12340
▁förtrösten	-12341
▁förtröttas	-12342
▁förvandlad	-12343
▁genomborra	-12344
▁gileaditen	-12345
▁gudabilden	-12346
▁handsbredd	-12347
▁havsdjupet	-12348
▁husgudarna	-12349
▁härutanför	-12350
▁högtidsdag	-12351
▁inhysesman	-12352
▁konungaväl	-12353
▁ljuvlighet	-12354
▁okunnighet	-12355
▁outrannsak	-12356
▁plundrares	-12357
▁rätteligen	-12358
▁rödfärgade	-12359
▁sabbaterna	-12360
▁skymningen	-12361
▁spräckliga	-12362
▁stadsmuren	-12363
▁stolparnas	-12364
▁styggeligt	-12365
▁stänkelsev	-12366
▁tjänstbara	-12367
▁trösklarna	-12368
▁tvillingar	-12369
▁uppkallade	-12370
▁uppriktigt	-12371
▁veckodagen	-12372
▁vedermödor	-12373
▁vilosabbat	-12374
▁vinpressen	-12375
▁vädurskinn	-12376
▁överblivna	-12377
▁övertäcker	-12378
▁Tessalonika	-12379
▁ammoniterna	-12380
▁barmhärtiga	-12381
▁bekräftelse	-12382
▁bestörtning	-12383
▁blodskulder	-12384
▁folkstammar	-12385
▁fullkomliga	-12386
▁fördärvliga	-12387
▁förskingras	-12388
▁förskräcker	-12389
▁förskräckte	-12390
▁förtörnades	-12391
▁granatäpple	-12392
▁hemsökelses	-12393
▁härligheten	-12394
▁jebuséernas	-12395
▁krukmakaren	-12396
▁lösepenning	-12397
▁offergärden	-12398
▁sabbatsvila	-12399
▁sannskyldig	-12400
▁styggelsers	-12401
▁tjugusjunde	-12402
▁trollkarlar	-12403
▁underdånigt	-12404
▁vingårdsmän	-12405
▁väldigheter	-12406
▁återstående	-12407
▁ödeläggelse	-12408
▁överträdare	-12409
▁övertäcktes	-12410
elsebringande	-12411
▁blodsförvant	-12412
▁egendomsfolk	-12413
▁fruktansvärt	-12414
▁förbindelser	-12415
▁förståndiges	-12416
▁förunderliga	-12417
▁genomborrade	-12418
▁missgärnings	-12419
▁människohand	-12420
▁orättfärdigt	-12421
▁perisséernas	-12422
▁rådsherrarna	-12423
▁signetringar	-12424
▁timmermännen	-12425
▁upprätthålla	-12426
▁överlämnades	-12427
▁belägringsmur	-12428
▁bröstsköldens	-12429
▁fruktansvärde	-12430
▁främlingarnas	-12431
▁församlingens	-12432
▁förskräckligt	-12433
▁förteckningen	-12434
▁genstridighet	-12435
▁jordbävningen	-12436
▁kringliggande	-12437
▁mandelblommor	-12438
▁missgärningen	-12439
▁pelarhuvudena	-12440
▁översvämmande	-12441
▁andebesvärjare	-12442
▁boskapshjordar	-12443
▁kopparfjättrar	-12444
▁tillsyningsman	-12445
▁tjänstekvinnas	-12446
▁överträdelsers	-12447
aj	-12448
fy	-12449
oe	-12450
pr	-12451
ve	-12452
ya	-12453
äx	-12454
ót	-12455
Bes	-12456
Dan	-12457
Hah	-12458
Has	-12459
Hed	-12460
Jak	-12461
Köp	-12462
Lov	-12463
Seb	-12464
aba	-12465
ale	-12466
als	-12467
ard	-12468
eft	-12469
ehi	-12470
fst	-12471
fyl	-12472
fål	-12473
gob	-12474
går	-12475
iab	-12476
jag	-12477
lai	-12478
lot	-12479
mor	-12480
paf	-12481
pit	-12482
rot	-12483
räs	-12484
röp	-12485
röt	-12486
san	-12487
sin	-12488
ski	-12489
skn	-12490
sly	-12491
sst	-12492
säd	-12493
tyd	-12494
tyg	-12495
ums	-12496
yor	-12497
åld	-12498
öns	-12499
▁Få	-12500
▁Ul	-12501
▁ha	-12502
▁ku	-12503
▁kä	-12504
Fara	-12505
Fram	-12506
Lägg	-12507
Meon	-12508
Rimm	-12509
Står	-12510
Våra	-12511
aaka	-12512
adda	-12513
allu	-12514
amot	-12515
asil	-12516
atas	-12517
bors	-12518
elis	-12519
emet	-12520
enor	-12521
eres	-12522
esem	-12523
evis	-12524
fera	-12525
fest	-12526
feus	-12527
fåle	-12528
glöd	-12529
gått	-12530
göra	-12531
hjäl	-12532
hjär	-12533
icin	-12534
idas	-12535
idim	-12536
iger	-12537
ikin	-12538
ilas	-12539
iman	-12540
imma	-12541
imus	-12542
inar	-12543
ings	-12544
keln	-12545
klas	-12546
kluv	-12547
knen	-12548
kors	-12549
lika	-12550
ljus	-12551
mans	-12552
mant	-12553
mmer	-12554
mäss	-12555
nart	-12556
neja	-12557
odak	-12558
odas	-12559
ogna	-12560
olär	-12561
onio	-12562
open	-12563
orla	-12564
pant	-12565
pnad	-12566
resa	-12567
reta	-12568
ränn	-12569
rått	-12570
römm	-12571
röpp	-12572
sbud	-12573
sdyr	-12574
snär	-12575
sord	-12576
spår	-12577
ssen	-12578
ters	-12579
ulla	-12580
umme	-12581
uret	-12582
usim	-12583
vägg	-12584
ylle	-12585
ädet	-12586
ämpa	-12587
ämpe	-12588
äsen	-12589
ässa	-12590
ådat	-12591
årig	-12592
ömda	-12593
▁Ain	-12594
▁Asb	-12595
▁Bah	-12596
▁Böj	-12597
▁Dod	-12598
▁Efa	-12599
▁Far	-12600
▁Fly	-12601
▁Fyr	-12602
▁Gas	-12603
▁Gen	-12604
▁Gos	-12605
▁Het	-12606
▁Him	-12607
▁Kab	-12608
▁Kes	-12609
▁Kil	-12610
▁Kos	-12611
▁Leb	-12612
▁Mit	-12613
▁Ord	-12614
▁Pam	-12615
▁Sof	-12616
▁Tar	-12617
▁Tog	-12618
▁Tyk	-12619
▁alm	-12620
▁bid	-12621
▁byg	-12622
▁bål	-12623
▁duv	-12624
▁erk	-12625
▁fil	-12626
▁häv	-12627
▁pin	-12628
▁pro	-12629
▁rod	-12630
▁sem	-12631
▁sko	-12632
▁sus	-12633
▁ten	-12634
▁täv	-12635
▁yxa	-12636
▁åld	-12637
▁ösa	-12638
Hatta	-12639
Hedra	-12640
Heres	-12641
Intet	-12642
Jakob	-12643
Kalla	-12644
Moabs	-12645
Simon	-12646
Skola	-12647
Skriv	-12648
Sägen	-12649
abels	-12650
aftor	-12651
alats	-12652
annar	-12653
annim	-12654
aragd	-12655
ardus	-12656
armar	-12657
armas	-12658
asten	-12659
asurs	-12660
atien	-12661
betet	-12662
cknet	-12663
delat	-12664
deurs	-12665
ebröd	-12666
efest	-12667
eligt	-12668
erade	-12669
faren	-12670
frist	-12671
fällt	-12672
girig	-12673
iluds	-12674
indra	-12675
ingst	-12676
issan	-12677
issel	-12678
istan	-12679
jänst	-12680
kasta	-12681
lagda	-12682
laska	-12683
oppas	-12684
paren	-12685
pipor	-12686
sgåva	-12687
sinna	-12688
skaka	-12689
sliga	-12690
srätt	-12691
stift	-12692
summa	-12693
talig	-12694
tassl	-12695
terna	-12696
undet	-12697
uppeh	-12698
uttna	-12699
varar	-12700
väder	-12701
våder	-12702
yckte	-12703
äckes	-12704
äljas	-12705
ällde	-12706
ängen	-12707
ättes	-12708
örnen	-12709
▁Adma	-12710
▁Aksa	-12711
▁Arad	-12712
▁Asel	-12713
▁Bene	-12714
▁Besa	-12715
▁Epaf	-12716
▁Full	-12717
▁Gall	-12718
▁Gaml	-12719
▁Gitt	-12720
▁Häst	-12721
▁Inom	-12722
▁Jise	-12723
▁Jobs	-12724
▁Kark	-12725
▁Kena	-12726
▁Kära	-12727
▁Lovs	-12728
▁Mede	-12729
▁Neft	-12730
▁Perg	-12731
▁Poti	-12732
▁Regu	-12733
▁Ropa	-12734
▁Stol	-12735
▁Tola	-12736
▁Trof	-12737
▁agag	-12738
▁ahoa	-12739
▁akte	-12740
▁avel	-12741
▁bane	-12742
▁bars	-12743
▁bebl	-12744
▁beså	-12745
▁blås	-12746
▁brak	-12747
▁bryt	-12748
▁buga	-12749
▁dalb	-12750
▁dräg	-12751
▁dväl	-12752
▁döde	-12753
▁dömd	-12754
▁döva	-12755
▁ekar	-12756
▁enah	-12757
▁fack	-12758
▁fore	-12759
▁färg	-12760
▁fåle	-12761
▁föga	-12762
▁gera	-12763
▁gåta	-12764
▁havs	-12765
▁hedn	-12766
▁himl	-12767
▁hysa	-12768
▁höft	-12769
▁infl	-12770
▁kann	-12771
▁lapp	-12772
▁lejt	-12773
▁lind	-12774
▁lumm	-12775
▁låda	-12776
▁mask	-12777
▁matt	-12778
▁mura	-12779
▁märk	-12780
▁mörd	-12781
▁neds	-12782
▁osyn	-12783
▁pina	-12784
▁puka	-12785
▁rasa	-12786
▁revo	-12787
▁saft	-12788
▁slem	-12789
▁slån	-12790
▁slås	-12791
▁snöv	-12792
▁sunt	-12793
▁tigg	-12794
▁tråd	-12795
▁trög	-12796
▁täpp	-12797
▁vems	-12798
▁vägs	-12799
▁vävt	-12800
▁ylle	-12801
▁yppa	-12802
▁yxan	-12803
▁ämne	-12804
Bosets	-12805
Davids	-12806
Förrän	-12807
Himmel	-12808
Hållen	-12809
Israel	-12810
Rimmon	-12811
Saliga	-12812
Träden	-12813
Varmed	-12814
allret	-12815
arneol	-12816
dotter	-12817
edagen	-12818
edajas	-12819
edatas	-12820
elsets	-12821
esedan	-12822
fylien	-12823
förråd	-12824
gången	-12825
hamrat	-12826
härden	-12827
ikrist	-12828
innans	-12829
israim	-12830
ittror	-12831
kallas	-12832
kalvar	-12833
kluvna	-12834
litlig	-12835
länder	-12836
makter	-12837
nelses	-12838
odemus	-12839
ogbill	-12840
otters	-12841
råpare	-12842
shusen	-12843
skalle	-12844
slåret	-12845
stegen	-12846
strömm	-12847
stötta	-12848
tjänst	-12849
trogne	-12850
ugliga	-12851
vandra	-12852
väldig	-12853
änktes	-12854
▁Abiam	-12855
▁Adoni	-12856
▁Akors	-12857
▁Akten	-12858
▁Amons	-12859
▁Argob	-12860
▁Assir	-12861
▁Baala	-12862
▁Bucki	-12863
▁Bären	-12864
▁Dison	-12865
▁Ebeds	-12866
▁Edert	-12867
▁Efrat	-12868
▁Enans	-12869
▁Gajus	-12870
▁Geras	-12871
▁Gihon	-12872
▁Havet	-12873
▁Heles	-12874
▁Hodia	-12875
▁Hofni	-12876
▁Iddos	-12877
▁Immer	-12878
▁Innan	-12879
▁Invid	-12880
▁Jafia	-12881
▁Jehud	-12882
▁Jekam	-12883
▁Jimna	-12884
▁Kenan	-12885
▁Kison	-12886
▁Kreta	-12887
▁Libni	-12888
▁Magog	-12889
▁Malki	-12890
▁Mispe	-12891
▁Nahal	-12892
▁Nahat	-12893
▁Något	-12894
▁Ohola	-12895
▁Omris	-12896
▁Resen	-12897
▁Salma	-12898
▁Saron	-12899
▁Selum	-12900
▁Seres	-12901
▁Serug	-12902
▁Silpa	-12903
▁Skåda	-12904
▁Ställ	-12905
▁Suars	-12906
▁Söner	-12907
▁andel	-12908
▁anser	-12909
▁armas	-12910
▁asdod	-12911
▁avbär	-12912
▁avgör	-12913
▁avläm	-12914
▁basil	-12915
▁bergs	-12916
▁bjödo	-12917
▁blixt	-12918
▁bloss	-12919
▁buden	-12920
▁bytes	-12921
▁bärga	-12922
▁delad	-12923
▁drake	-12924
▁dröjt	-12925
▁drömt	-12926
▁felar	-12927
▁fenor	-12928
▁flamm	-12929
▁fogde	-12930
▁fåror	-12931
▁fördr	-12932
▁gemål	-12933
▁gryta	-12934
▁guden	-12935
▁gudom	-12936
▁gåvan	-12937
▁göres	-12938
▁hagar	-12939
▁handa	-12940
▁hotat	-12941
▁husat	-12942
▁häger	-12943
▁höjes	-12944
▁jeter	-12945
▁klyft	-12946
▁kämpa	-12947
▁kämpe	-12948
▁kåpan	-12949
▁körde	-12950
▁lampt	-12951
▁liden	-12952
▁lilla	-12953
▁livro	-12954
▁ljust	-12955
▁lugnt	-12956
▁lupit	-12957
▁lurar	-12958
▁läser	-12959
▁lätta	-12960
▁lågan	-12961
▁mager	-12962
▁manar	-12963
▁milda	-12964
▁mödar	-12965
▁möter	-12966
▁nedre	-12967
▁näpsa	-12968
▁nötas	-12969
▁ocker	-12970
▁ombes	-12971
▁omgav	-12972
▁omväg	-12973
▁oskäl	-12974
▁purim	-12975
▁rasar	-12976
▁ricin	-12977
▁ringe	-12978
▁ryter	-12979
▁rädes	-12980
▁räfst	-12981
▁satta	-12982
▁senap	-12983
▁skarp	-12984
▁skorv	-12985
▁skröp	-12986
▁slätt	-12987
▁spara	-12988
▁spyor	-12989
▁stadg	-12990
▁synds	-12991
▁syrad	-12992
▁sälla	-12993
▁sälta	-12994
▁sårad	-12995
▁sötma	-12996
▁tekoa	-12997
▁togos	-12998
▁topas	-12999
▁träst	-13000
▁tunna	-13001
▁tysta	-13002
▁tågen	-13003
▁tåget	-13004
▁undsl	-13005
▁vaktt	-13006
▁valde	-13007
▁vette	-13008
▁vindr	-13009
▁visor	-13010
▁vålds	-13011
▁yppat	-13012
▁ädelt	-13013
▁ärans	-13014
▁ävlas	-13015
▁återf	-13016
▁örtag	-13017
Jearims	-13018
aresers	-13019
byggnad	-13020
bärande	-13021
desrätt	-13022
fränder	-13023
frågade	-13024
färdigt	-13025
gärning	-13026
kunniga	-13027
kunskap	-13028
mässigt	-13029
naderna	-13030
nelsens	-13031
oppning	-13032
skläder	-13033
sslagna	-13034
sstäder	-13035
terskor	-13036
undrade	-13037
▁Abarim	-13038
▁Abisag	-13039
▁Abisua	-13040
▁Akbors	-13041
▁Alfeus	-13042
▁Bakbuk	-13043
▁Balaks	-13044
▁Bebais	-13045
▁Bildad	-13046
▁Binnui	-13047
▁Bliven	-13048
▁Delaja	-13049
▁Eleale	-13050
▁Fastän	-13051
▁Förlåt	-13052
▁Gibeas	-13053
▁Hackos	-13054
▁Hassub	-13055
▁Hattus	-13056
▁Helgen	-13057
▁Helons	-13058
▁Hoppas	-13059
▁Immers	-13060
▁Javans	-13061
▁Jeguel	-13062
▁Jissia	-13063
▁Jublen	-13064
▁Jämväl	-13065
▁Kibrot	-13066
▁Lyften	-13067
▁Läggen	-13068
▁Mahela	-13069
▁Maresa	-13070
▁Medien	-13071
▁Märken	-13072
▁Okrans	-13073
▁Otniel	-13074
▁Patros	-13075
▁Pedaja	-13076
▁Sammua	-13077
▁Sibeon	-13078
▁Tappua	-13079
▁Tarsus	-13080
▁Välsig	-13081
▁angick	-13082
▁bakade	-13083
▁barfot	-13084
▁bedrog	-13085
▁befatt	-13086
▁behöll	-13087
▁belopp	-13088
▁beredd	-13089
▁bergst	-13090
▁beröva	-13091
▁besett	-13092
▁bestyr	-13093
▁betsel	-13094
▁bevilj	-13095
▁boende	-13096
▁bosatt	-13097
▁bruden	-13098
▁brusto	-13099
▁brötos	-13100
▁buller	-13101
▁busken	-13102
▁bygder	-13103
▁dagens	-13104
▁daglön	-13105
▁dalens	-13106
▁darrar	-13107
▁doften	-13108
▁druvsa	-13109
▁dräpas	-13110
▁dunkel	-13111
▁dyrkar	-13112
▁dörrpo	-13113
▁fallet	-13114
▁flicke	-13115
▁fliken	-13116
▁flotta	-13117
▁flyger	-13118
▁folksk	-13119
▁fordra	-13120
▁fotsid	-13121
▁framst	-13122
▁fräckt	-13123
▁färgen	-13124
▁fållor	-13125
▁förbön	-13126
▁förgår	-13127
▁förmin	-13128
▁förräd	-13129
▁försum	-13130
▁förödd	-13131
▁föröke	-13132
▁gissel	-13133
▁grödan	-13134
▁görare	-13135
▁harpan	-13136
▁hastar	-13137
▁helgen	-13138
▁hjässa	-13139
▁hopsam	-13140
▁hundar	-13141
▁hämnde	-13142
▁härens	-13143
▁hätska	-13144
▁hålles	-13145
▁högsta	-13146
▁höljas	-13147
▁hövdes	-13148
▁inrätt	-13149
▁inspär	-13150
▁inviga	-13151
▁invigt	-13152
▁jublen	-13153
▁kalmus	-13154
▁kedjan	-13155
▁kistan	-13156
▁kornet	-13157
▁kronan	-13158
▁kränka	-13159
▁kännas	-13160
▁kärare	-13161
▁lejons	-13162
▁lovets	-13163
▁luften	-13164
▁längta	-13165
▁mannat	-13166
▁marmor	-13167
▁mognad	-13168
▁mättar	-13169
▁mångas	-13170
▁nardus	-13171
▁nedslå	-13172
▁oansen	-13173
▁omfång	-13174
▁omslöt	-13175
▁ormens	-13176
▁panter	-13177
▁pirgat	-13178
▁plågan	-13179
▁pressa	-13180
▁prisas	-13181
▁prisen	-13182
▁prästs	-13183
▁putéer	-13184
▁raglar	-13185
▁randen	-13186
▁rensar	-13187
▁rotade	-13188
▁ryggar	-13189
▁ränker	-13190
▁röster	-13191
▁salvor	-13192
▁segern	-13193
▁sinnad	-13194
▁skiner	-13195
▁skorem	-13196
▁skrevo	-13197
▁skriar	-13198
▁skumma	-13199
▁skyler	-13200
▁skådat	-13201
▁sluten	-13202
▁smulor	-13203
▁smälta	-13204
▁sonson	-13205
▁stenrö	-13206
▁sticka	-13207
▁styrkt	-13208
▁stängt	-13209
▁stöten	-13210
▁stötta	-13211
▁svaren	-13212
▁svepte	-13213
▁sväger	-13214
▁synner	-13215
▁sårade	-13216
▁tackor	-13217
▁tiders	-13218
▁tidigt	-13219
▁tillsk	-13220
▁trotsa	-13221
▁tuktar	-13222
▁tummim	-13223
▁tvinga	-13224
▁tyckes	-13225
▁täckas	-13226
▁täcken	-13227
▁täcket	-13228
▁tänden	-13229
▁tåligt	-13230
▁undang	-13231
▁utländ	-13232
▁utmark	-13233
▁vakade	-13234
▁vaknat	-13235
▁vallar	-13236
▁varden	-13237
▁vargar	-13238
▁varnar	-13239
▁visare	-13240
▁vissna	-13241
▁vreden	-13242
▁väcker	-13243
▁vägrar	-13244
▁vältra	-13245
▁värmde	-13246
▁vårdar	-13247
▁Ängeln	-13248
▁ålägga	-13249
▁åtfölj	-13250
Fördärva	-13251
Hattaava	-13252
Kanhända	-13253
Naharaim	-13254
denstund	-13255
höjderna	-13256
ligheter	-13257
modighet	-13258
orlaomer	-13259
sdjurets	-13260
skaffens	-13261
skonster	-13262
trädarna	-13263
▁Ahieser	-13264
▁Ahiluds	-13265
▁Amasjas	-13266
▁Asmavet	-13267
▁Bahurim	-13268
▁Bileams	-13269
▁Däremot	-13270
▁Fastmer	-13271
▁Förmana	-13272
▁Gersoms	-13273
▁Haggits	-13274
▁Hasaels	-13275
▁Hermons	-13276
▁Kegilas	-13277
▁Laedans	-13278
▁Matteus	-13279
▁Nehemja	-13280
▁Oholiab	-13281
▁Pelatja	-13282
▁Prästen	-13283
▁Refidim	-13284
▁Sedeurs	-13285
▁Sekanja	-13286
▁Semajas	-13287
▁Skullen	-13288
▁Tykikus	-13289
▁Vinkeln	-13290
▁allmosa	-13291
▁alltmer	-13292
▁andades	-13293
▁andligt	-13294
▁angrepo	-13295
▁araméen	-13296
▁avföllo	-13297
▁avsatte	-13298
▁baktill	-13299
▁bakverk	-13300
▁barnens	-13301
▁begiven	-13302
▁beskärd	-13303
▁beslöto	-13304
▁betrott	-13305
▁bistånd	-13306
▁bjälkar	-13307
▁bjälken	-13308
▁blandar	-13309
▁blygdes	-13310
▁branten	-13311
▁bringan	-13312
▁bränner	-13313
▁brännes	-13314
▁bröstet	-13315
▁bålverk	-13316
▁bönehus	-13317
▁desamma	-13318
▁drycken	-13319
▁dörröpp	-13320
▁farande	-13321
▁fiskare	-13322
▁flyktig	-13323
▁flyttas	-13324
▁fläckar	-13325
▁fordrar	-13326
▁fostrar	-13327
▁fotspår	-13328
▁främste	-13329
▁frånträ	-13330
▁fångade	-13331
▁födslov	-13332
▁förband	-13333
▁förehar	-13334
▁förehav	-13335
▁förlett	-13336
▁förrådd	-13337
▁försmår	-13338
▁förtröt	-13339
▁förutan	-13340
▁förökat	-13341
▁genomsö	-13342
▁glansen	-13343
▁gudinna	-13344
▁hastade	-13345
▁hedmark	-13346
▁hjärtes	-13347
▁härlige	-13348
▁jubelår	-13349
▁jämföra	-13350
▁karneol	-13351
▁klippor	-13352
▁knoppar	-13353
▁kunglig	-13354
▁macedon	-13355
▁maktlös	-13356
▁missunn	-13357
▁mulåsna	-13358
▁musikin	-13359
▁närmade	-13360
▁nödgade	-13361
▁obebott	-13362
▁olycksv	-13363
▁omkommo	-13364
▁ondskef	-13365
▁oskärat	-13366
▁otrogen	-13367
▁ouppsåt	-13368
▁ovännen	-13369
▁prisgav	-13370
▁resliga	-13371
▁rycktes	-13372
▁sjungen	-13373
▁sjunger	-13374
▁skadade	-13375
▁skakade	-13376
▁skicken	-13377
▁skuldra	-13378
▁skäligt	-13379
▁slakten	-13380
▁släpade	-13381
▁smaragd	-13382
▁smordes	-13383
▁smälter	-13384
▁somnade	-13385
▁sovande	-13386
▁spränga	-13387
▁stadier	-13388
▁stjärna	-13389
▁stormar	-13390
▁styrkas	-13391
▁stängas	-13392
▁suckade	-13393
▁svärjen	-13394
▁svävade	-13395
▁synliga	-13396
▁sänklod	-13397
▁sönerna	-13398
▁taladen	-13399
▁talades	-13400
▁tempelt	-13401
▁tiderna	-13402
▁tidsåld	-13403
▁tomhänt	-13404
▁trappan	-13405
▁tvister	-13406
▁töcknet	-13407
▁undfick	-13408
▁uppgiva	-13409
▁upphävt	-13410
▁upplopp	-13411
▁uppsatt	-13412
▁utebliv	-13413
▁utgöras	-13414
▁utstått	-13415
▁uttorka	-13416
▁uttydde	-13417
▁vanmakt	-13418
▁varelse	-13419
▁vattenk	-13420
▁vissnar	-13421
▁vägrade	-13422
▁våldets	-13423
▁änglars	-13424
▁ärenden	-13425
▁ålägger	-13426
▁åtföljd	-13427
fristaden	-13428
penningar	-13429
▁Elimelek	-13430
▁Gideonis	-13431
▁Herodias	-13432
▁Himlarna	-13433
▁Härefter	-13434
▁Jedutuns	-13435
▁Johanans	-13436
▁Laodicea	-13437
▁Leviatan	-13438
▁Maasejas	-13439
▁Metusela	-13440
▁Pedasurs	-13441
▁Sefatjas	-13442
▁Sekanjas	-13443
▁Tjänaren	-13444
▁agagiten	-13445
▁andarnas	-13446
▁anklagad	-13447
▁användes	-13448
▁arbetena	-13449
▁arvingen	-13450
▁avlägset	-13451
▁avlägsna	-13452
▁avskjuta	-13453
▁baksidan	-13454
▁barnlösa	-13455
▁basilisk	-13456
▁basuners	-13457
▁befunnos	-13458
▁befäster	-13459
▁begjutna	-13460
▁behandla	-13461
▁besvärja	-13462
▁betänker	-13463
▁blindhet	-13464
▁brännsår	-13465
▁bulnaden	-13466
▁bärgning	-13467
▁bönhörde	-13468
▁dessutom	-13469
▁druvklas	-13470
▁därförbi	-13471
▁enahanda	-13472
▁familjeh	-13473
▁fattiges	-13474
▁fogdarna	-13475
▁fruhuset	-13476
▁förakten	-13477
▁förbidar	-13478
▁förbinda	-13479
▁förblive	-13480
▁fördömer	-13481
▁förenade	-13482
▁företogo	-13483
▁förfäder	-13484
▁förförde	-13485
▁förleder	-13486
▁förlorar	-13487
▁förloren	-13488
▁förlåtit	-13489
▁försonad	-13490
▁förspill	-13491
▁förtalar	-13492
▁gaseller	-13493
▁guldring	-13494
▁guldsmed	-13495
▁gångerna	-13496
▁handslag	-13497
▁hemsökta	-13498
▁hungerns	-13499
▁hungerår	-13500
▁hungriga	-13501
▁husgudar	-13502
▁hustrurs	-13503
▁hämndgir	-13504
▁härjande	-13505
▁idisslar	-13506
▁inbjudna	-13507
▁inbärgen	-13508
▁innehåll	-13509
▁jordrått	-13510
▁konungab	-13511
▁konungad	-13512
▁krigsman	-13513
▁kungjord	-13514
▁käpparna	-13515
▁lemmarna	-13516
▁molnstod	-13517
▁mottagen	-13518
▁munskänk	-13519
▁nakenhet	-13520
▁nedbryta	-13521
▁nedböjda	-13522
▁omkommit	-13523
▁omsorger	-13524
▁omstörta	-13525
▁paddorna	-13526
▁plogbill	-13527
▁prisgiva	-13528
▁präktiga	-13529
▁rannsaka	-13530
▁rinnande	-13531
▁samfällt	-13532
▁samveten	-13533
▁sidovägg	-13534
▁sittande	-13535
▁skakades	-13536
▁skapelse	-13537
▁slagregn	-13538
▁syndarna	-13539
▁sällskap	-13540
▁teckenty	-13541
▁tillgiva	-13542
▁tillslöt	-13543
▁tjugusju	-13544
▁trolovad	-13545
▁tröstare	-13546
▁tusenden	-13547
▁tvagning	-13548
▁tveeggat	-13549
▁tygvåder	-13550
▁tålmodig	-13551
▁uppgivas	-13552
▁upphänga	-13553
▁upprycka	-13554
▁uppsatte	-13555
▁utbredda	-13556
▁utfärdas	-13557
▁uthamrat	-13558
▁utlovade	-13559
▁utplånas	-13560
▁uträcker	-13561
▁uträttat	-13562
▁utvaldas	-13563
▁vakthåll	-13564
▁varefter	-13565
▁vattenbr	-13566
▁vingarna	-13567
▁vinlägel	-13568
▁vinpress	-13569
▁vädurens	-13570
▁vältrade	-13571
▁ypperste	-13572
▁ögonlock	-13573
▁överskri	-13574
▁övertyga	-13575
sförestånd	-13576
skogshuset	-13577
utgjutning	-13578
▁Abinadabs	-13579
▁Ahitofels	-13580
▁Dödsriket	-13581
▁Kirjataim	-13582
▁Nikodemus	-13583
▁Pamfylien	-13584
▁Saltdalen	-13585
▁ammoniten	-13586
▁anbefalla	-13587
▁anklagare	-13588
▁anskaffat	-13589
▁anställda	-13590
▁arameiske	-13591
▁begabbade	-13592
▁bergfäste	-13593
▁besinning	-13594
▁bestående	-13595
▁blomstrar	-13596
▁boskapssk	-13597
▁broderlig	-13598
▁byggnader	-13599
▁därovanpå	-13600
▁eftertänk	-13601
▁enfaldiga	-13602
▁femtionde	-13603
▁femtiotre	-13604
▁framförde	-13605
▁fullkomna	-13606
▁fyrtioett	-13607
▁förbannat	-13608
▁förbidade	-13609
▁förbjudes	-13610
▁fördärvad	-13611
▁förklaras	-13612
▁förmörkat	-13613
▁förrättar	-13614
▁församlen	-13615
▁förstocka	-13616
▁förstöras	-13617
▁förtjänat	-13618
▁förtorkat	-13619
▁förtrogen	-13620
▁förtrogna	-13621
▁förtäckta	-13622
▁förvillar	-13623
▁gafflarna	-13624
▁hedersamt	-13625
▁hedmarker	-13626
▁herradöme	-13627
▁himlarnas	-13628
▁hivéernas	-13629
▁hungrande	-13630
▁husatiten	-13631
▁händelser	-13632
▁härstamma	-13633
▁innantill	-13634
▁invändigt	-13635
▁kainéerna	-13636
▁kansleren	-13637
▁kungjorde	-13638
▁livsuppeh	-13639
▁misstanke	-13640
▁morgonens	-13641
▁nedbrutna	-13642
▁nitälskar	-13643
▁nuvarande	-13644
▁omstörtas	-13645
▁oomskuret	-13646
▁oryggliga	-13647
▁platserna	-13648
▁profetens	-13649
▁påskoffer	-13650
▁samvetets	-13651
▁sextiofem	-13652
▁slaktdjur	-13653
▁sorgefest	-13654
▁straffade	-13655
▁stränghet	-13656
▁tillföllo	-13657
▁tjänarens	-13658
▁triumfera	-13659
▁trätgirig	-13660
▁tröskvagn	-13661
▁underlagt	-13662
▁uppfyllen	-13663
▁utlämnade	-13664
▁vagnshjul	-13665
▁vanmäktig	-13666
▁villkoret	-13667
▁åstundade	-13668
▁öppningen	-13669
▁överföllo	-13670
▁överskygg	-13671
▁övervinna	-13672
Fördenskull	-13673
▁Aristarkus	-13674
▁Astarterna	-13675
▁Galileiska	-13676
▁Hadadesers	-13677
▁Hadaresers	-13678
▁Hammedatas	-13679
▁Lovsjungen	-13680
▁Sefarvaims	-13681
▁allvarligt	-13682
▁avsatserna	-13683
▁begravning	-13684
▁bördesrätt	-13685
▁domarsätet	-13686
▁drägligare	-13687
▁flickebarn	-13688
▁flyktingar	-13689
▁fullbordad	-13690
▁fyrtiofyra	-13691
▁fårhjordar	-13692
▁förborgade	-13693
▁förbränner	-13694
▁fördärvare	-13695
▁förebrådde	-13696
▁förordning	-13697
▁försyndade	-13698
▁förvandlar	-13699
▁förvarings	-13700
▁förvissnar	-13701
▁helgedomar	-13702
▁hovmästare	-13703
▁huggormars	-13704
▁illfundigt	-13705
▁infödingen	-13706
▁jordstycke	-13707
▁jungfrurna	-13708
▁kerubernas	-13709
▁kittéernas	-13710
▁klentrogne	-13711
▁kopparkärl	-13712
▁lustgårdar	-13713
▁längesedan	-13714
▁mandråpare	-13715
▁molnstoden	-13716
▁munskänken	-13717
▁mätstången	-13718
▁närvarande	-13719
▁obesmittad	-13720
▁offergåvan	-13721
▁oförskräck	-13722
▁onyxstenar	-13723
▁ordspråket	-13724
▁pelarhuvud	-13725
▁purpurröda	-13726
▁rådklokhet	-13727
▁senapskorn	-13728
▁skattskriv	-13729
▁skinnsaken	-13730
▁spetälskan	-13731
▁springande	-13732
▁stridslarm	-13733
▁sångerskor	-13734
▁sönderslås	-13735
▁tidsåldern	-13736
▁tillfället	-13737
▁tredjedels	-13738
▁trettiosex	-13739
▁trädgården	-13740
▁underlivet	-13741
▁undervisad	-13742
▁uppehållit	-13743
▁upphöjning	-13744
▁utrannsaka	-13745
▁vedergällt	-13746
▁väsendenas	-13747
▁ädlingarna	-13748
▁återställa	-13749
▁överträder	-13750
▁övervunnit	-13751
▁överväldig	-13752
▁Ammisaddais	-13753
▁Hedningarna	-13754
▁Kedorlaomer	-13755
▁Melkisedeks	-13756
▁Surisaddais	-13757
▁bespottaren	-13758
▁bespottelse	-13759
▁betalningen	-13760
▁brännoffren	-13761
▁dryckenskap	-13762
▁efterföljer	-13763
▁flugsvärmar	-13764
▁främlingars	-13765
▁frånvarande	-13766
▁fädernestad	-13767
▁förfärdigat	-13768
▁förgängelse	-13769
▁förgängliga	-13770
▁förhoppning	-13771
▁förhärligar	-13772
▁förkunnelse	-13773
▁förskingrar	-13774
▁genomborrar	-13775
▁gesuréernas	-13776
▁girgaséerna	-13777
▁gottgörelse	-13778
▁gudfruktiga	-13779
▁gudsmannens	-13780
▁gärningarna	-13781
▁hagelstenar	-13782
▁ingenstädes	-13783
▁klotformiga	-13784
▁lejongropen	-13785
▁linnekläder	-13786
▁moabitiskan	-13787
▁morgondagen	-13788
▁morgonstjär	-13789
▁människoben	-13790
▁omskärelsen	-13791
▁oroligheter	-13792
▁orättrådige	-13793
▁profetissan	-13794
▁rovfåglarna	-13795
▁sadducéerna	-13796
▁sidoniernas	-13797
▁stamfränder	-13798
▁tillkallade	-13799
▁underordnen	-13800
▁understödja	-13801
▁utrannsakar	-13802
▁vadställena	-13803
▁vederkvickt	-13804
▁veteskörden	-13805
▁våldsverkar	-13806
▁Österlandet	-13807
▁åkerstycket	-13808
▁Vattenporten	-13809
▁avkastningen	-13810
▁dödsskuggans	-13811
▁förgängelsen	-13812
▁förskräcktes	-13813
▁försvinnande	-13814
▁guldsmederna	-13815
▁hemsökelsens	-13816
▁israelitiske	-13817
▁konstarbeten	-13818
▁konstmässigt	-13819
▁konungariken	-13820
▁konungavälde	-13821
▁lärjungarnas	-13822
▁långmodighet	-13823
▁oförgängligt	-13824
▁pelarhuvudet	-13825
▁rättskaffens	-13826
▁sidokamrarna	-13827
▁stentavlorna	-13828
▁vittnesbörds	-13829
▁överträdarna	-13830
▁barnaföderska	-13831
▁betesmarkerna	-13832
▁folkskockning	-13833
▁fångenskapens	-13834
▁förfärdigande	-13835
▁förrådsstäder	-13836
▁förtryckarens	-13837
▁gersoniternas	-13838
▁kärleksäpplen	-13839
▁nymånadsdagen	-13840
▁nådegärningar	-13841
▁offerkistorna	-13842
▁plundringståg	-13843
▁rättfärdiggör	-13844
▁skattkamrarna	-13845
▁tempelkammare	-13846
▁underdånighet	-13847
▁uppenbarelsen	-13848
▁uppsyningsmän	-13849
▁vagnsstäderna	-13850
▁Nebukadnessars	-13851
▁benjaminiterna	-13852
▁handpåläggning	-13853
▁konungasönerna	-13854
▁oförgänglighet	-13855
▁underhövitsmän	-13856
▁vakthållningen	-13857
▁vederkvickelse	-13858
▁dråparfristaden	-13859
▁offergärdslåret	-13860
▁sädesutgjutning	-13861
▁tillspillogivet	-13862
'!	-13863
):	-13864
20	-13865
40	-13866
Ly	-13867
Su	-13868
Ut	-13869
kö	-13870
»:	-13871
ít	-13872
Ben	-13873
Man	-13874
Sju	-13875
Slå	-13876
Tig	-13877
Två	-13878
Vet	-13879
ado	-13880
age	-13881
bäg	-13882
eat	-13883
ems	-13884
ern	-13885
esr	-13886
fon	-13887
gås	-13888
hem	-13889
hål	-13890
ice	-13891
ike	-13892
jda	-13893
jug	-13894
juv	-13895
jön	-13896
kuv	-13897
låg	-13898
nät	-13899
kol	-13900
ogs	-13901
orm	-13902
ruv	-13903
råg	-13904
sbl	-13905
sib	-13906
sik	-13907
tai	-13908
tak	-13909
trö	-13910
tus	-13911
uma	-13912
unk	-13913
uti	-13914
ymp	-13915
önt	-13916
öpp	-13917
öta	-13918
▁Mi	-13919
▁Pi	-13920
▁Ti	-13921
▁To	-13922
▁pi	-13923
▁tu	-13924
▁yr	-13925
Hass	-13926
Juda	-13927
Just	-13928
Risa	-13929
Sede	-13930
Soba	-13931
Sual	-13932
Vore	-13933
adel	-13934
akas	-13935
amel	-13936
anel	-13937
anen	-13938
anis	-13939
antg	-13940
atea	-13941
bart	-13942
beta	-13943
bind	-13944
bjäl	-13945
cien	-13946
dats	-13947
deja	-13948
döma	-13949
ears	-13950
eels	-13951
efod	-13952
ekas	-13953
emär	-13954
enas	-13955
erbe	-13956
eses	-13957
gäld	-13958
hama	-13959
irot	-13960
ivas	-13961
jukt	-13962
järn	-13963
kamm	-13964
kula	-13965
kvar	-13966
kväm	-13967
laud	-13968
lund	-13969
lägg	-13970
nand	-13971
nats	-13972
ntyd	-13973
olja	-13974
oppa	-13975
oren	-13976
orum	-13977
otan	-13978
pläg	-13979
pott	-13980
rann	-13981
ratt	-13982
riga	-13983
rona	-13984
ross	-13985
rust	-13986
sbit	-13987
seel	-13988
seln	-13989
sena	-13990
skiv	-13991
snår	-13992
sopa	-13993
speg	-13994
ssel	-13995
säga	-13996
tius	-13997
torn	-13998
tung	-13999
ubba	-14000
ubla	-14001
ufas	-14002
uken	-14003
upen	-14004
urun	-14005
vare	-14006
Ären	-14007
ägna	-14008
ämde	-14009
ärda	-14010
ärer	-14011
ångt	-14012
ödet	-14013
öken	-14014
▁Aja	-14015
▁Ant	-14016
▁Asd	-14017
▁Asg	-14018
▁Bef	-14019
▁Bär	-14020
▁Deg	-14021
▁Dyr	-14022
▁Elh	-14023
▁Ere	-14024
▁Eva	-14025
▁Fen	-14026
▁Gid	-14027
▁Hot	-14028
▁Hul	-14029
▁Jan	-14030
▁Jor	-14031
▁Ket	-14032
▁Kim	-14033
▁Kol	-14034
▁Köp	-14035
▁Lit	-14036
▁Mag	-14037
▁Mas	-14038
▁Naf	-14039
▁Neh	-14040
▁Nis	-14041
▁Nya	-14042
▁Pri	-14043
▁Pul	-14044
▁Put	-14045
▁Rea	-14046
▁Ros	-14047
▁Skö	-14048
▁Soh	-14049
▁Sut	-14050
▁Syn	-14051
▁Tek	-14052
▁Tig	-14053
▁Tio	-14054
▁Tol	-14055
▁Ute	-14056
▁Väg	-14057
▁abi	-14058
▁ack	-14059
▁agg	-14060
▁art	-14061
▁fab	-14062
▁fre	-14063
▁fäg	-14064
▁gil	-14065
▁gin	-14066
▁inl	-14067
▁kly	-14068
▁kör	-14069
▁lad	-14070
▁mak	-14071
▁ohö	-14072
▁ost	-14073
▁oär	-14074
▁pek	-14075
▁rad	-14076
▁sab	-14077
▁sif	-14078
▁sty	-14079
▁säv	-14080
▁urg	-14081
▁uth	-14082
▁vax	-14083
▁yta	-14084
▁ägt	-14085
▁åtn	-14086
Akten	-14087
Framb	-14088
Fråga	-14089
Hajes	-14090
Hämta	-14091
Inför	-14092
Maaka	-14093
Peras	-14094
Sebub	-14095
Sefer	-14096
Stick	-14097
Tiden	-14098
Vakna	-14099
adads	-14100
addon	-14101
akten	-14102
antor	-14103
astar	-14104
attir	-14105
bekai	-14106
bojor	-14107
boken	-14108
bukor	-14109
buske	-14110
ecken	-14111
eckna	-14112
edels	-14113
eltor	-14114
emjas	-14115
erska	-14116
gelåt	-14117
glans	-14118
glist	-14119
gåvor	-14120
haven	-14121
hemma	-14122
husen	-14123
icken	-14124
iftas	-14125
igast	-14126
ikten	-14127
ikvin	-14128
illem	-14129
inter	-14130
issim	-14131
istor	-14132
itter	-14133
jande	-14134
klang	-14135
kläda	-14136
konst	-14137
kämpe	-14138
laden	-14139
leder	-14140
ljutt	-14141
läger	-14142
nappt	-14143
nelag	-14144
omeus	-14145
ommit	-14146
onaim	-14147
ragit	-14148
ropar	-14149
skans	-14150
skniv	-14151
skyar	-14152
skärl	-14153
sling	-14154
slösa	-14155
sning	-14156
spira	-14157
ssven	-14158
ssynd	-14159
stämm	-14160
svärd	-14161
säden	-14162
tagen	-14163
tagna	-14164
talen	-14165
tarna	-14166
tarot	-14167
tider	-14168
träet	-14169
tsord	-14170
tusen	-14171
ummer	-14172
ustad	-14173
vanus	-14174
villa	-14175
viskt	-14176
vuxen	-14177
vänja	-14178
väsen	-14179
ycker	-14180
äljen	-14181
ämtar	-14182
änkas	-14183
ötsel	-14184
▁Adin	-14185
▁Adna	-14186
▁Ajas	-14187
▁Anas	-14188
▁Arar	-14189
▁Arim	-14190
▁Asan	-14191
▁Asen	-14192
▁Aten	-14193
▁Bala	-14194
▁Blod	-14195
▁Bred	-14196
▁Bygg	-14197
▁Bäst	-14198
▁Driv	-14199
▁Druv	-14200
▁Dyng	-14201
▁Efer	-14202
▁Elat	-14203
▁Elot	-14204
▁Elsa	-14205
▁Esek	-14206
▁Fisk	-14207
▁Förö	-14208
▁Gaas	-14209
▁Gera	-14210
▁Guni	-14211
▁Hall	-14212
▁Hara	-14213
▁Hoda	-14214
▁Idel	-14215
▁Inga	-14216
▁Jadd	-14217
▁Jafo	-14218
▁Joks	-14219
▁Keri	-14220
▁Lehi	-14221
▁Ljuv	-14222
▁Lyft	-14223
▁Obot	-14224
▁Onam	-14225
▁Ones	-14226
▁Palm	-14227
▁Palt	-14228
▁Peor	-14229
▁Pris	-14230
▁Raka	-14231
▁Ryck	-14232
▁Räck	-14233
▁Saal	-14234
▁Sare	-14235
▁Sasa	-14236
▁Sidd	-14237
▁Tatt	-14238
▁Träd	-14239
▁Tvär	-14240
▁Tyat	-14241
▁Vore	-14242
▁aloe	-14243
▁anat	-14244
▁avgå	-14245
▁avra	-14246
▁bakl	-14247
▁besv	-14248
▁bita	-14249
▁bäre	-14250
▁böjt	-14251
▁dolt	-14252
▁dåna	-14253
▁efes	-14254
▁elda	-14255
▁flöj	-14256
▁fukt	-14257
▁givm	-14258
▁glöm	-14259
▁grum	-14260
▁gurk	-14261
▁hack	-14262
▁hopa	-14263
▁häll	-14264
▁irra	-14265
▁karb	-14266
▁knot	-14267
▁kräm	-14268
▁kräv	-14269
▁kvig	-14270
▁köld	-14271
▁lada	-14272
▁lata	-14273
▁lejd	-14274
▁liby	-14275
▁lien	-14276
▁luft	-14277
▁läka	-14278
▁lämp	-14279
▁mala	-14280
▁nedt	-14281
▁nöja	-14282
▁oand	-14283
▁obef	-14284
▁obeg	-14285
▁oläk	-14286
▁omak	-14287
▁otid	-14288
▁rapp	-14289
▁reta	-14290
▁rist	-14291
▁ränk	-14292
▁ränn	-14293
▁rått	-14294
▁sedd	-14295
▁sent	-14296
▁sido	-14297
▁sjud	-14298
▁skud	-14299
▁sluk	-14300
▁span	-14301
▁spik	-14302
▁späd	-14303
▁stir	-14304
▁strä	-14305
▁syns	-14306
▁sådd	-14307
▁såll	-14308
▁tenn	-14309
▁test	-14310
▁tvås	-14311
▁tyda	-14312
▁undv	-14313
▁uppd	-14314
▁utgr	-14315
▁utrö	-14316
▁vilt	-14317
▁vänn	-14318
▁Ända	-14319
▁Ären	-14320
▁ädle	-14321
▁åber	-14322
▁ålåg	-14323
▁åtrå	-14324
Bröder	-14325
Daniel	-14326
Fallen	-14327
Gripen	-14328
Hadads	-14329
Huggen	-14330
Kallen	-14331
Kvinna	-14332
Risata	-14333
Svarar	-14334
Tacken	-14335
Värdes	-14336
abriel	-14337
ademet	-14338
agrare	-14339
arbete	-14340
ariten	-14341
arskap	-14342
bassar	-14343
debröd	-14344
edalen	-14345
edring	-14346
faldig	-14347
frågor	-14348
gissel	-14349
gällen	-14350
gånget	-14351
gördel	-14352
hundar	-14353
hundra	-14354
hängen	-14355
inoams	-14356
iramot	-14357
ivande	-14358
ivning	-14359
kläden	-14360
landsk	-14361
läggas	-14362
läggen	-14363
mmelek	-14364
måttet	-14365
ockens	-14366
oplats	-14367
ordent	-14368
ottern	-14369
rummet	-14370
ryckta	-14371
ränsen	-14372
shavet	-14373
sklipp	-14374
skning	-14375
skålen	-14376
slängd	-14377
sskänk	-14378
stadga	-14379
strare	-14380
ställd	-14381
ullams	-14382
värdet	-14383
yttade	-14384
änning	-14385
ärdade	-14386
åtelse	-14387
▁Ahira	-14388
▁Aksib	-14389
▁Asuba	-14390
▁Aters	-14391
▁Atrot	-14392
▁Attai	-14393
▁Bamot	-14394
▁Banis	-14395
▁Beser	-14396
▁Derbe	-14397
▁Dåren	-14398
▁Geder	-14399
▁Gedor	-14400
▁Golan	-14401
▁Gomer	-14402
▁Gosan	-14403
▁Harim	-14404
▁Hatak	-14405
▁Helig	-14406
▁Hogla	-14407
▁Hores	-14408
▁Husam	-14409
▁Husim	-14410
▁Inför	-14411
▁Jason	-14412
▁Jeser	-14413
▁Jisvi	-14414
▁Joses	-14415
▁Kusan	-14416
▁Långt	-14417
▁Mahas	-14418
▁Melki	-14419
▁Mesel	-14420
▁Måste	-14421
▁Naara	-14422
▁Nefeg	-14423
▁Ordet	-14424
▁Orätt	-14425
▁Pallu	-14426
▁Pisga	-14427
▁Rekab	-14428
▁Rispa	-14429
▁Safat	-14430
▁Salka	-14431
▁Saras	-14432
▁Senir	-14433
▁Sesan	-14434
▁Silla	-14435
▁Sisak	-14436
▁Snart	-14437
▁Soans	-14438
▁Sobab	-14439
▁Sofar	-14440
▁Säger	-14441
▁Temas	-14442
▁Ussas	-14443
▁anlet	-14444
▁anord	-14445
▁armst	-14446
▁avlat	-14447
▁avtvå	-14448
▁bakas	-14449
▁banad	-14450
▁banen	-14451
▁besåg	-14452
▁bidar	-14453
▁biter	-14454
▁bläck	-14455
▁bortd	-14456
▁botas	-14457
▁buske	-14458
▁byggd	-14459
▁bytte	-14460
▁bäres	-14461
▁bådar	-14462
▁bådas	-14463
▁danad	-14464
▁delat	-14465
▁djurs	-14466
▁dolda	-14467
▁drage	-14468
▁drift	-14469
▁duger	-14470
▁dåres	-14471
▁endas	-14472
▁fackl	-14473
▁falle	-14474
▁faran	-14475
▁faten	-14476
▁fotbl	-14477
▁fräck	-14478
▁funne	-14479
▁fåret	-14480
▁födes	-14481
▁förda	-14482
▁förev	-14483
▁föror	-14484
▁förun	-14485
▁galit	-14486
▁galla	-14487
▁gapet	-14488
▁gästa	-14489
▁gånge	-14490
▁gåtan	-14491
▁gömsl	-14492
▁halsh	-14493
▁hatad	-14494
▁hjälm	-14495
▁hopps	-14496
▁härja	-14497
▁inber	-14498
▁inkom	-14499
▁inuti	-14500
▁kanel	-14501
▁kassi	-14502
▁kedja	-14503
▁kenas	-14504
▁kista	-14505
▁klara	-14506
▁kling	-14507
▁knipp	-14508
▁komna	-14509
▁kärve	-14510
▁köpta	-14511
▁larma	-14512
▁leden	-14513
▁leran	-14514
▁letar	-14515
▁lyder	-14516
▁lysen	-14517
▁lägel	-14518
▁läten	-14519
▁medar	-14520
▁merar	-14521
▁minor	-14522
▁mogna	-14523
▁märkt	-14524
▁månne	-14525
▁måtta	-14526
▁nekar	-14527
▁nitti	-14528
▁näsan	-14529
▁näten	-14530
▁nådes	-14531
▁nödga	-14532
▁ogräs	-14533
▁omhäg	-14534
▁omväl	-14535
▁omätt	-14536
▁omått	-14537
▁otros	-14538
▁pelik	-14539
▁pipor	-14540
▁plöjt	-14541
▁press	-14542
▁prytt	-14543
▁pålen	-14544
▁påstå	-14545
▁rekab	-14546
▁rensa	-14547
▁revor	-14548
▁rymde	-14549
▁räckt	-14550
▁räddh	-14551
▁råkar	-14552
▁salar	-14553
▁sanne	-14554
▁sedda	-14555
▁seden	-14556
▁senor	-14557
▁sjätt	-14558
▁sjöar	-14559
▁skift	-14560
▁skrin	-14561
▁skuro	-14562
▁skytt	-14563
▁slapp	-14564
▁smyck	-14565
▁spjär	-14566
▁stall	-14567
▁stekt	-14568
▁säges	-14569
▁tacke	-14570
▁talan	-14571
▁tigga	-14572
▁tillm	-14573
▁tvärt	-14574
▁tvått	-14575
▁tågar	-14576
▁ulvar	-14577
▁umgås	-14578
▁unnar	-14579
▁upplä	-14580
▁urtid	-14581
▁uselt	-14582
▁utbet	-14583
▁utsir	-14584
▁vetat	-14585
▁vilen	-14586
▁väger	-14587
▁vässt	-14588
▁våder	-14589
▁vågor	-14590
▁Öknen	-14591
▁Öppna	-14592
▁ägnar	-14593
▁ämbar	-14594
▁ökent	-14595
▁ömkar	-14596
Bosenai	-14597
Perasim	-14598
Skaffen	-14599
Ställen	-14600
apalats	-14601
beläten	-14602
bygdens	-14603
elsedom	-14604
enernas	-14605
enheten	-14606
hörande	-14607
ittills	-14608
jänaren	-14609
kningen	-14610
kunnigt	-14611
lidande	-14612
lösning	-14613
männens	-14614
ohögtid	-14615
[...]
