<pad>	0
</s>	0
<unk>	0
¦	-1.42303
▁¦	-1.42304
ܐ	-2.54801
ܘ	-3.58505
ܕ	-3.7063
ܠ	-4.29295
ܒ	-4.45869
ܝ	-4.46207
ܢ	-4.53649
ܗ	-4.65278
ܘܢ	-4.65349
ܬ	-4.67357
ܗܘ	-4.73681
ܝܢ	-4.79204
ܡܢ	-4.91498
ܠܐ	-4.94369
ܠܗ	-5.09757
ܕܝܢ	-5.27911
ܡ	-5.31232
ܦ	-5.55136
ܪ	-5.60475
ܟ	-5.64374
ܟܘܢ	-5.66799
ܥܠ	-5.67934
ܘܗܝ	-5.7185
ܬܐ	-5.74448
ܐܢܐ	-5.75079
ܤ	-5.83462
ܗܘܢ	-5.85099
ܐܡܪ	-5.86683
ܥ	-5.8892
ܩ	-5.93251
ܫܘܥ	-5.99535
ܓܝܪ	-6.00994
ܚܕ	-6.01511
ܠܝ	-6.03479
ܚ	-6.07936
ܓ	-6.15731
ܟܠ	-6.16213
ܠܡ	-6.17236
ܛ	-6.20766
ܥܒܕ	-6.21732
ܫ	-6.22063
ܙ	-6.23087
ܐܝܟ	-6.24021
ܐܦ	-6.24177
ܕܢ	-6.2726
ܘܬܐ	-6.30433
ܐܝܬ	-6.32335
ܡܬ	-6.32472
ܟܕ	-6.34022
ܘܐܡܪ	-6.3408
ܗܢ	-6.34166
ܒܗ	-6.34257
ܨ	-6.34595
ܡܐ	-6.36477
ܥܡ	-6.37262
ܡܛܠ	-6.40057
ܢܐ	-6.40236
ܘܤ	-6.40827
ܢܬܘܢ	-6.41232
ܘܠܐ	-6.41763
ܗܘܘ	-6.42327
ܕܠܐ	-6.426
ܢܘܢ	-6.44775
ܕܡ	-6.47798
ܠܟ	-6.48585
ܘܪ	-6.51866
ܠܝܢ	-6.52023
ܐܢܬ	-6.5287
ܗܝ	-6.5322
ܝܠܝܢ	-6.60608
ܕܐܠܗ	-6.64282
ܚܝ	-6.69496
ܡܕܡ	-6.69537
ܕܝ	-6.70738
ܘܠ	-6.739
ܠܘܬ	-6.74227
ܘܒ	-6.75888
ܫܬ	-6.76525
ܘܡ	-6.77976
ܢܝ	-6.78729
ܐܢܫ	-6.81333
ܡܫܝܚ	-6.82321
ܟܠܗ	-6.83165
ܒܪ	-6.83794
ܫܠܡ	-6.87725
ܒܝ	-6.87975
ܒܢܝ	-6.96077
ܒܝܬ	-6.97597
ܘܟܕ	-7.02256
ܪܘܚ	-7.03822
ܐܠܗ	-7.06061
ܡܪ	-7.0851
ܦܪ	-7.10042
ܘܐܬ	-7.13107
ܩܕܡ	-7.1432
ܤܓܝܐ	-7.14454
ܟܝܠ	-7.15282
ܕܥ	-7.18614
ܕܐܝܬ	-7.1988
ܫܐ	-7.21255
ܙܒܢ	-7.21472
ܘܬ	-7.22119
ܥܕ	-7.23484
ܗܘܝܬ	-7.23724
ܓܒܪ	-7.23842
ܡܪܢ	-7.24835
ܟܪ	-7.25229
ܝܕܥ	-7.26521
ܕܒ	-7.26587
ܠܢ	-7.27147
ܗܕ	-7.27266
ܬܘܢ	-7.29486
ܐܡܪܝܢ	-7.3094
ܡܠܬ	-7.31819
ܒܪܗ	-7.32362
ܡܪܝ	-7.34852
ܢܫܐ	-7.35502
ܐܪܥ	-7.37368
ܝܗܒ	-7.37682
ܕܬ	-7.37891
ܬܗ	-7.38557
ܗܟܢ	-7.39043
ܡܝܬ	-7.39292
ܐܝܟܢ	-7.39318
ܬܬ	-7.39989
ܬܠܡܝܕ	-7.40656
ܘܡܢ	-7.41251
ܐܙܠ	-7.4222
ܢܬ	-7.42853
ܫܡܥ	-7.4434
ܩܪ	-7.4472
ܒܥ	-7.44934
ܕܐܬ	-7.46405
ܐܬܐ	-7.46609
ܐܝܕ	-7.4817
ܟܝ	-7.48799
ܢܗܘ	-7.48926
ܩܪܒ	-7.49573
ܠܝܬ	-7.50102
ܚܙܐ	-7.50227
ܚܢܢ	-7.5231
ܫܡܝ	-7.54136
ܗܘܬ	-7.54705
ܩܘ	-7.54906
ܪܫ	-7.56899
ܝܬܐ	-7.57128
ܕܡܢ	-7.57565
ܝܠ	-7.57913
ܪܟ	-7.58122
ܥܢ	-7.58363
ܐܚܪܢ	-7.58889
ܟܢܫ	-7.59392
ܚܘ	-7.59497
ܬܘܒ	-7.60884
ܢܡܘܤ	-7.61998
ܘܐܢ	-7.62985
ܪܒ	-7.63256
ܤܝ	-7.63609
ܚܐ	-7.63667
ܫܒ	-7.64895
ܡܟ	-7.64902
ܡܚ	-7.65735
ܫܕܪ	-7.67285
ܘܫ	-7.67874
ܡܕܝܢܬ	-7.68311
ܥܡܗ	-7.68724
ܘܩ	-7.68783
ܡܫ	-7.69305
ܤܒܪ	-7.69374
ܢܫ	-7.69667
ܝܗܘܕܝ	-7.70526
ܕܪ	-7.71614
ܝܗܝ	-7.72465
ܪܚܡ	-7.73482
ܟܬܒ	-7.73666
ܥܝܢ	-7.74016
ܫܘ	-7.74097
ܒܬܪ	-7.74315
ܦܘܠ	-7.74501
ܡܗܝܡܢ	-7.74806
ܢܦܫܗ	-7.75295
ܡܠܟ	-7.76195
ܡܤ	-7.76544
ܢܦܩ	-7.77033
ܝܕܥܝܢ	-7.77289
ܡܫܬ	-7.77317
ܢܤܒ	-7.77505
ܟܤ	-7.77715
ܡܢܗ	-7.78417
ܩܪܐ	-7.79437
ܐܚܝ	-7.79541
ܪܒܐ	-7.79981
ܡܡܠܠ	-7.80335
ܬܡܢ	-7.80659
ܩܝܡ	-7.80684
ܫܝ	-7.80852
ܫܡܥܘܢ	-7.80929
ܝܬܝܪ	-7.81123
ܢܒܝ	-7.82122
ܚܫ	-7.83172
ܡܝ	-7.83312
ܦܓܪ	-7.83651
ܡܠܐܟ	-7.83978
ܝܟ	-7.86201
ܪܬ	-7.86368
ܥܠܡ	-7.86767
ܝܘܡ	-7.87648
ܡܠܠ	-7.88408
ܠܥܠܡ	-7.88748
ܠܐܠܗ	-7.89468
ܒܟܠ	-7.89513
ܐܝܬܝܗ	-7.89706
ܗܝܡܢܘܬ	-7.89921
ܫܐܠ	-7.91103
ܐܡܝܢ	-7.91749
ܩܡ	-7.92883
ܛܒ	-7.93308
ܨܒܐ	-7.93632
ܨܒܝܢ	-7.93865
ܒܝܫ	-7.93885
ܚܪ	-7.94415
ܩܕܝܫ	-7.95064
ܓܪ	-7.95984
ܒܫ	-7.96256
ܢܦܫ	-7.96674
ܡܫܟܚ	-7.96726
ܚܠܦ	-7.98114
ܫܡܗ	-7.98469
ܡܠܟܘܬ	-7.99173
ܘܗ	-7.99225
ܘܬܗ	-7.99229
ܤܛ	-8.00342
ܛܪ	-8.01418
ܗܝܡܢ	-8.0167
ܚܙܘ	-8.01683
ܪܓ	-8.02421
ܫܪܝ	-8.02503
ܥܒܪ	-8.02744
ܘܚܢܢ	-8.03428
ܤܝܡ	-8.03846
ܢܦܠ	-8.04468
ܟܐܦ	-8.04628
ܩܕܡܝ	-8.05897
ܛܝܒܘܬ	-8.0616
ܡܥ	-8.06234
ܩܐ	-8.07406
ܩܒܠ	-8.0759
ܕܐܡܪ	-8.08161
ܕܐܦ	-8.08674
ܕܒܪ	-8.09193
ܐܢܬܬ	-8.09758
ܘܟܠ	-8.10916
ܡܠܐ	-8.11414
ܬܪܝܢ	-8.1163
ܒܤܪ	-8.11807
ܤܗܕ	-8.12504
ܠܒܪ	-8.12548
ܐܬܪ	-8.1269
ܚܬ	-8.12766
ܬܠܬ	-8.13141
ܘܚ	-8.13173
ܠܘܬܗ	-8.13289
ܩܢ	-8.14228
ܬܪܥ	-8.14743
ܓܠܝ	-8.14791
ܫܒܩ	-8.16129
ܐܫܟܚ	-8.17285
ܒܥܐ	-8.17503
ܒܢ	-8.17882
ܒܠܚܘܕ	-8.18065
ܝܩ	-8.19
ܗܘܝ	-8.19523
ܥܠܝܗ	-8.20258
ܩܝ	-8.20862
ܚܛ	-8.21034
ܘܐܝܬ	-8.21238
ܩܠܐ	-8.21369
ܬܟ	-8.21402
ܝܡܐ	-8.21456
ܬܗܘ	-8.22319
ܕܚܠ	-8.2277
ܗܪ	-8.22943
ܚܝܠ	-8.22993
ܕܥܒܕ	-8.23032
ܪܒܝ	-8.23155
ܘܥܠ	-8.23514
ܝܬܒ	-8.25123
ܡܠܦ	-8.25234
ܟܬܝܒ	-8.25386
ܥܬܝܕ	-8.25488
ܚܘܒ	-8.25502
ܤܡ	-8.25877
ܟܗܢ	-8.25931
ܩܛܠ	-8.2635
ܛܥ	-8.26687
ܒܥܝܢ	-8.26842
ܕܐܢ	-8.27726
ܠܚܡ	-8.27872
ܕܫܐ	-8.27921
ܢܛܪ	-8.27956
ܒܫܡܝ	-8.28169
ܥܡܡ	-8.28826
ܕܚܝ	-8.30142
ܪܡܝ	-8.31416
ܒܟܘܢ	-8.31507
ܢܝܢ	-8.31569
ܒܡ	-8.31675
ܢܚ	-8.32203
ܫܪܪ	-8.32515
ܫܒܥ	-8.3298
ܕܐܢܫ	-8.33999
ܒܪܘܚ	-8.34102
ܫܦܝܪ	-8.342
ܕܟܠ	-8.34337
ܐܒܐ	-8.34398
ܦܩܕ	-8.34554
ܦܪܝܫ	-8.36293
ܫܥܬ	-8.36534
ܥܡܐ	-8.36758
ܗܝܟܠ	-8.37207
ܐܘܪܚ	-8.38634
ܕܢܬ	-8.38707
ܝܤ	-8.39035
ܕܩܘ	-8.40544
ܒܝܕ	-8.40876
ܫܪܝܪ	-8.41509
ܩܘܡ	-8.42039
ܕܡܪܝ	-8.42458
ܤܓܝ	-8.43508
ܒܪܝ	-8.44147
ܚܛܗ	-8.44398
ܚܙܝܬ	-8.4453
ܪܥܝܢ	-8.44644
ܠܒܝܬ	-8.4546
ܢܚܬ	-8.46122
ܫܩ	-8.46711
ܫܩܠ	-8.46791
ܩܘܒ	-8.46966
ܤܠܩ	-8.47115
ܪܝܐ	-8.48549
ܫܡܥܘ	-8.4863
ܫܠܝܚ	-8.49117
ܐܠܦ	-8.49381
ܤܦܪ	-8.49548
ܦܠܚ	-8.49798
ܚܛܝܬ	-8.4992
ܥܠܝܟ	-8.50142
ܬܫܒܘܚܬ	-8.50154
ܕܡܫܝܚ	-8.50189
ܕܢܗܘ	-8.50959
ܡܘܬ	-8.51176
ܦܘܩܕܢ	-8.51244
ܘܐܙܠ	-8.51908
ܒܗܝܡܢܘܬ	-8.52178
ܝܗܘܕ	-8.52384
ܛܠܝ	-8.53348
ܫܘܒܚ	-8.54647
ܐܤܝܪ	-8.54667
ܟܡܐ	-8.55172
ܐܪܒܥ	-8.55478
ܙܕܝܩ	-8.55727
ܫܪܐ	-8.55741
ܕܠܡܐ	-8.56165
ܘܢܦܩ	-8.56292
ܩܫܝܫ	-8.58046
ܥܕܬ	-8.58188
ܒܪܢܫ	-8.58903
ܤܪ	-8.60486
ܫܡܥܬ	-8.60525
ܙܪܥ	-8.60929
ܥܤܪ	-8.61856
ܚܤ	-8.62504
ܦܘܡ	-8.6251
ܗܦܟ	-8.62552
ܐܬܝܬ	-8.62893
ܚܙܝ	-8.62992
ܝܘܡܬ	-8.63238
ܚܙܝܢ	-8.63401
ܛܘܪ	-8.63413
ܫܡܫ	-8.64013
ܝܡܝܢ	-8.64364
ܦܐܪ	-8.64647
ܕܡܝ	-8.64735
ܡܘܫ	-8.64801
ܫܘܠܛܢ	-8.653
ܥܘܠ	-8.66506
ܦܬܚ	-8.66684
ܚܝܬ	-8.6797
ܬܪܬ	-8.68003
ܪܓܠ	-8.68489
ܒܝܘܡ	-8.68708
ܕܚܠܬ	-8.69979
ܕܒܚ	-8.70075
ܠܝܘܡ	-8.7041
ܕܘܟ	-8.70627
ܐܝܤܪ	-8.70728
ܦܝܠ	-8.72278
ܟܢܘܫܬ	-8.73156
ܩܥ	-8.74948
ܢܦܫܟ	-8.76001
ܦܠܓ	-8.76008
ܐܚܘܗܝ	-8.765
ܬܪܝ	-8.76569
ܡܫܟܚܝܢ	-8.77784
ܒܝܫܬ	-8.78305
ܙܕܩ	-8.79142
ܩܝܡܝܢ	-8.79976
ܡܦܩ	-8.80134
ܫܪܒܬ	-8.80276
ܩܠܝܠ	-8.80289
ܚܒܝܒ	-8.80292
ܒܟܠܗ	-8.80517
ܕܝܠܝ	-8.81338
ܚܪܬ	-8.81657
ܤܡܝ	-8.8167
ܢܘܗܪ	-8.82041
ܟܘܬ	-8.82653
ܛܝܒ	-8.83232
ܕܡܬܩܪ	-8.83395
ܛܒܬ	-8.83741
ܒܬܪܗ	-8.83821
ܝܘܠܦܢ	-8.84676
ܙܥܘܪ	-8.84676
ܚܒܠ	-8.85509
ܡܗܠܟ	-8.86483
ܕܓܠ	-8.87464
ܡܩܒܠ	-8.87746
ܟܪܝܗ	-8.88427
ܩܪܝܬ	-8.88834
ܤܗܕܘܬ	-8.89328
ܚܪܝܢ	-8.8933
ܝܕܥܬ	-8.89423
ܬܪܥܤܪ	-8.91021
ܫܠܝܛ	-8.92624
ܚܡܫ	-8.92834
ܟܐܢܘܬ	-8.92916
ܚܘܝ	-8.93258
ܠܫܢ	-8.93444
ܒܪܟ	-8.93831
ܚܨ	-8.94716
ܢܘܪ	-8.94824
ܤܝܒܪ	-8.95158
ܐܘܠܨܢ	-8.9598
ܬܝܗܒ	-8.9749
ܡܪܝܡ	-8.9818
ܐܡܗ	-8.98891
ܤܥܪ	-8.99529
ܐܒܘܗܝ	-9.00598
ܕܝܠܟ	-9.01133
ܓܠܝܠ	-9.01358
ܡܤܒܪ	-9.01551
ܡܛܝ	-9.01593
ܐܚܪܝ	-9.02306
ܡܨܠ	-9.02634
ܩܪܝܒ	-9.03224
ܢܝܚ	-9.07097
ܒܛܠ	-9.08752
ܚܫܘܟ	-9.08766
ܠܘܩܒܠ	-9.08832
ܬܫܡܫܬ	-9.08897
ܗܪܘܕ	-9.09076
ܩܤܪ	-9.09682
ܪܝܫ	-9.10609
ܒܐܝܕܗ	-9.10797
ܟܘܪܤܝ	-9.12681
ܤܓܕ	-9.13885
ܚܟܡܬ	-9.14766
ܫܢܝܢ	-9.15421
ܨܝܕ	-9.1616
ܒܝܢܬ	-9.16558
ܥܝܪ	-9.1706
ܐܬܚܙܝ	-9.18259
ܡܟܪܙ	-9.18987
ܛܢܦ	-9.1901
ܪܝܡ	-9.20463
ܡܘܗܒܬ	-9.21109
ܫܒܘܩ	-9.21518
ܒܥܠܕܒܒ	-9.25599
ܡܫܡܫܢ	-9.25753
ܥܓܠ	-9.27048
ܪܗܛ	-9.2739
ܚܕܘܬ	-9.30492
ܠܒܘܬ	-9.31088
ܓܢܒ	-9.31808
ܦܝܠܝܦ	-9.32751
ܟܦܢ	-9.34279
v	-9.35243
𐋇	-9.35243
▁	-12.3321
1	-12.606
)	-13.606
4	-13.606
5	-13.606
9	-13.606
:	-13.606
