<pad>	0
</s>	0
<unk>	0
▁a	-0
ch	-1
ea	-2
ai	-3
▁d	-4
th	-5
▁s	-6
in	-7
na	-8
▁c	-9
▁l	-10
▁t	-11
▁g	-12
bh	-13
▁f	-14
ir	-15
▁m	-16
▁ag	-17
ar	-18
il	-19
▁an	-20
is	-21
dh	-22
mh	-23
ío	-24
▁ch	-25
▁n	-26
us	-27
▁i	-28
ta	-29
▁agus	-30
▁ar	-31
an	-32
id	-33
▁le	-34
▁r	-35
air	-36
la	-37
▁bh	-38
ra	-39
gh	-40
▁co	-41
▁na	-42
on	-43
each	-44
▁b	-45
▁go	-46
eo	-47
éa	-48
ás	-49
nn	-50
▁do	-51
ao	-52
ach	-53
the	-54
iú	-55
áil	-56
▁th	-57
▁o	-58
▁p	-59
ain	-60
inn	-61
ine	-62
ear	-63
▁chu	-64
ei	-65
eas	-66
áin	-67
▁dh	-68
ia	-69
▁fh	-70
▁h	-71
aí	-72
te	-73
19	-74
ais	-75
co	-76
ean	-77
▁de	-78
▁bhf	-79
▁cov	-80
ig	-81
▁2	-82
▁T	-83
it	-84
cht	-85
▁é	-86
uair	-87
▁covid	-88
ír	-89
as	-90
-19	-91
▁nó	-92
tá	-93
io	-94
aithe	-95
▁v	-96
ile	-97
éad	-98
im	-99
▁ó	-100
▁’	-101
eadh	-102
▁in	-103
▁e	-104
igh	-105
aigh	-106
or	-107
eag	-108
abh	-109
ail	-110
anna	-111
▁seo	-112
adh	-113
íonn	-114
▁is	-115
▁C	-116
al	-117
▁du	-118
▁1	-119
▁D	-120
eann	-121
ithe	-122
▁gh	-123
▁mar	-124
▁mh	-125
aidh	-126
án	-127
▁fé	-128
▁gc	-129
ín	-130
aoine	-131
▁tú	-132
uil	-133
▁sh	-134
óg	-135
óir	-136
▁lá	-137
▁chun	-138
▁cho	-139
▁A	-140
íos	-141
▁eile	-142
áir	-143
▁I	-144
ad	-145
▁sa	-146
▁M	-147
áid	-148
ac	-149
▁bhfuil	-150
láin	-151
eacht	-152
ro	-153
tha	-154
▁(	-155
▁mb	-156
íodh	-157
▁ro	-158
▁or	-159
ian	-160
ic	-161
isc	-162
aith	-163
sc	-164
fh	-165
▁sé	-166
ur	-167
▁tá	-168
eal	-169
▁dt	-170
íoch	-171
▁cás	-172
ib	-173
ála	-174
eamh	-175
▁atá	-176
ith	-177
ol	-178
idir	-179
re	-180
▁níos	-181
▁mó	-182
ug	-183
cha	-184
▁aon	-185
▁tr	-186
▁vír	-187
▁N	-188
taí	-189
▁fao	-190
cov	-191
ús	-192
▁B	-193
▁má	-194
▁ná	-195
éana	-196
ial	-197
▁20	-198
▁ph	-199
éir	-200
▁sc	-201
arth	-202
ann	-203
▁comh	-204
rú	-205
▁Tá	-206
uir	-207
▁lea	-208
imh	-209
eith	-210
▁féidir	-211
▁á	-212
saí	-213
▁ion	-214
éim	-215
▁sláin	-216
ion	-217
ró	-218
mp	-219
dir	-220
eidh	-221
eanna	-222
ud	-223
aint	-224
▁io	-225
▁daoine	-226
uairisc	-227
tach	-228
éadf	-229
lú	-230
nach	-231
▁faoi	-232
saín	-233
▁leis	-234
▁duine	-235
acsaín	-236
▁sláinte	-237
▁Is	-238
▁sin	-239
éan	-240
▁u	-241
airt	-242
fhabh	-243
ars	-244
áis	-245
▁tás	-246
táil	-247
taithe	-248
▁vacsaín	-249
eagmh	-250
aibh	-251
▁víreas	-252
íon	-253
▁am	-254
tear	-255
▁bás	-256
iún	-257
le	-258
un	-259
▁tar	-260
úsáid	-261
ís	-262
▁S	-263
▁raibh	-264
raí	-265
os	-266
▁cú	-267
tar	-268
agh	-269
▁dhéana	-270
if	-271
▁as	-272
▁air	-273
▁ionfhabh	-274
▁chomh	-275
arthaí	-276
íomh	-277
ill	-278
▁dó	-279
▁F	-280
▁roinn	-281
▁4	-282
éar	-283
ua	-284
▁rá	-285
eoir	-286
▁ort	-287
teach	-288
▁sars	-289
▁ach	-290
eir	-291
▁3	-292
íocht	-293
sp	-294
ibh	-295
20	-296
▁st	-297
▁bheith	-298
éadfadh	-299
er	-300
▁dhéanamh	-301
▁úsáid	-302
áth	-303
▁idir	-304
▁agh	-305
▁aghaidh	-306
▁rud	-307
▁Má	-308
▁amh	-309
uairiscíodh	-310
idh	-311
íor	-312
▁iad	-313
▁An	-314
▁cl	-315
▁éis	-316
ip	-317
aid	-318
ras	-319
éal	-320
▁gach	-321
eola	-322
inne	-323
▁gur	-324
dú	-325
▁féin	-326
at	-327
▁im	-328
thair	-329
▁meas	-330
▁rial	-331
úir	-332
rta	-333
▁chóir	-334
thu	-335
▁nach	-336
ainn	-337
lach	-338
▁chur	-339
▁2020	-340
▁duit	-341
▁ann	-342
▁bhí	-343
▁ní	-344
ógra	-345
oir	-346
▁rio	-347
▁Ní	-348
▁nd	-349
aist	-350
aip	-351
reis	-352
▁comharthaí	-353
úil	-354
▁sia	-355
▁dhaoine	-356
▁L	-357
tas	-358
▁roinnt	-359
thar	-360
▁siad	-361
▁sco	-362
eabh	-363
▁ina	-364
▁den	-365
▁5	-366
nadh	-367
▁don	-368
▁fr	-369
eall	-370
▁san	-371
▁orthu	-372
íne	-373
▁ón	-374
óis	-375
iom	-376
▁ts	-377
▁G	-378
▁w	-379
ghl	-380
▁sr	-381
aile	-382
▁trí	-383
nacht	-384
▁fhéadfadh	-385
00	-386
aon	-387
eart	-388
▁líon	-389
▁thug	-390
▁sp	-391
▁ac	-392
radh	-393
da	-394
eachta	-395
acha	-396
ítear	-397
eagmháil	-398
▁gco	-399
int	-400
-2	-401
▁márta	-402
vir	-403
iúil	-404
lí	-405
▁ráig	-406
▁tástáil	-407
rom	-408
ásanna	-409
ag	-410
▁lena	-411
▁thar	-412
aim	-413
tála	-414
onraí	-415
eachtaí	-416
eidhm	-417
▁su	-418
▁to	-419
aine	-420
▁có	-421
▁po	-422
acht	-423
ru	-424
▁iar	-425
▁roimh	-426
▁ath	-427
▁dear	-428
vír	-429
en	-430
eic	-431
▁gn	-432
ist	-433
eacha	-434
▁amach	-435
naí	-436
▁gal	-437
▁cos	-438
▁lámh	-439
▁oib	-440
dach	-441
eá	-442
reisin	-443
▁freisin	-444
▁isteach	-445
aind	-446
▁scaip	-447
▁dóibh	-448
aindéim	-449
navir	-450
ianta	-451
▁neamh	-452
▁domh	-453
▁leat	-454
▁fáil	-455
nas	-456
▁amháin	-457
lán	-458
chtúir	-459
sh	-460
inic	-461
▁nuair	-462
▁bun	-463
ronavir	-464
▁mór	-465
rach	-466
▁lagh	-467
anacht	-468
aol	-469
ram	-470
uid	-471
abhairt	-472
se	-473
▁gheall	-474
▁tástála	-475
ronavirus	-476
▁ionfhabhtaithe	-477
tú	-478
▁chuig	-479
▁/	-480
▁mo	-481
eor	-482
▁br	-483
▁mí	-484
▁sonraí	-485
▁stá	-486
▁bhíonn	-487
fach	-488
mpla	-489
íochta	-490
▁coronavirus	-491
ois	-492
de	-493
▁gan	-494
▁áit	-495
áiste	-496
▁leor	-497
▁Tuairiscíodh	-498
▁tinn	-499
ráid	-500
▁tea	-501
nad	-502
▁linn	-503
aidir	-504
▁scoil	-505
ghlaigh	-506
st	-507
achta	-508
eabhra	-509
ura	-510
▁Mar	-511
▁chl	-512
▁nua	-513
▁hiom	-514
▁fanacht	-515
ór	-516
íortha	-517
ma	-518
ead	-519
▁Ch	-520
▁fháil	-521
eoirí	-522
▁lámha	-523
▁dá	-524
▁tír	-525
invír	-526
áirítear	-527
▁-	-528
▁cé	-529
▁Ag	-530
▁réir	-531
ll	-532
▁acu	-533
▁ard	-534
▁éig	-535
▁chuid	-536
▁ng	-537
úla	-538
iblí	-539
▁leith	-540
ún	-541
▁dho	-542
▁dul	-543
▁fud	-544
▁tug	-545
ialta	-546
aghaidh	-547
▁roimhe	-548
▁cásanna	-549
artha	-550
iúnta	-551
▁measc	-552
▁maidir	-553
eagmhála	-554
▁aontaithe	-555
▁2020,	-556
▁bhain	-557
pa	-558
▁feabhra	-559
▁scaipeadh	-560
ath	-561
éin	-562
-19.	-563
▁dtí	-564
▁teaghlaigh	-565
och	-566
sca	-567
▁sao	-568
aig	-569
▁fó	-570
eirbh	-571
▁chás	-572
▁uair	-573
▁aghaidhe	-574
anta	-575
▁aip	-576
▁Cuir	-577
▁haghaidh	-578
airle	-579
eirbhís	-580
ph	-581
▁6	-582
asc	-583
easta	-584
▁chéad	-585
ábh	-586
▁Déan	-587
ál	-588
▁bp	-589
iúla	-590
▁iom	-591
lúdach	-592
▁ba	-593
▁fo	-594
▁sna	-595
uithe	-596
▁R	-597
ait	-598
▁lean	-599
▁víris	-600
am	-601
aitheamh	-602
úis	-603
▁fógra	-604
eac	-605
▁tugadh	-606
ho	-607
▁bl	-608
aire	-609
dáil	-610
▁ean	-611
▁gla	-612
illiún	-613
▁riosp	-614
▁taist	-615
▁eanáir	-616
ios	-617
éil	-618
▁Ba	-619
spid	-620
scail	-621
▁chos	-622
▁rian	-623
eachas	-624
áirithe	-625
▁cuir	-626
▁bhaile	-627
▁éa	-628
ráide	-629
únadh	-630
▁leigh	-631
▁hiomláin	-632
chur	-633
eáil	-634
▁ghn	-635
▁ospid	-636
éis	-637
▁riospráide	-638
▁lu	-639
▁tsín	-640
▁tuairiscíodh	-641
éile	-642
oláth	-643
▁cinn	-644
▁poiblí	-645
▁thabhairt	-646
oc	-647
▁”	-648
▁déana	-649
óirí	-650
▁for	-651
▁mbeadh	-652
úr	-653
reag	-654
▁siú	-655
▁bhfeidhm	-656
▁7	-657
▁pr	-658
eala	-659
▁aois	-660
▁hcov	-661
iachta	-662
iar	-663
sco	-664
▁ain	-665
▁cur	-666
▁oibr	-667
▁maith	-668
▁chor	-669
ástáil	-670
▁faoin	-671
óisialta	-672
▁Co	-673
uais	-674
álacha	-675
tr	-676
liú	-677
▁cúram	-678
▁“	-679
▁Th	-680
▁agat	-681
ne	-682
▁9	-683
▁cu	-684
▁ei	-685
▁me	-686
faidh	-687
ard	-688
mhn	-689
▁déan	-690
▁choinne	-691
).	-692
ár	-693
aic	-694
▁10	-695
▁tu	-696
▁fad	-697
▁sha	-698
▁galar	-699
▁náis	-700
▁chuir	-701
ibre	-702
▁pháiste	-703
ló	-704
▁8	-705
tais	-706
▁leo	-707
▁bear	-708
▁tion	-709
▁feadh	-710
▁mhéad	-711
▁leighis	-712
▁bhaineann	-713
ae	-714
tí	-715
▁stáit	-716
fidh	-717
fhógra	-718
▁aibre	-719
▁leanaí	-720
▁éigean	-721
▁shampla	-722
000	-723
anda	-724
ca	-725
▁Bh	-726
▁gcásanna	-727
▁paindéim	-728
▁dhochtúir	-729
▁ionfhabhtú	-730
arr	-731
uigh	-732
▁tíortha	-733
han	-734
▁al	-735
,000	-736
ifig	-737
▁eis	-738
▁staid	-739
▁othair	-740
invíreas	-741
mpar	-742
orth	-743
▁oir	-744
stach	-745
▁ghal	-746
▁léir	-747
▁chaitheamh	-748
éid	-749
-19,	-750
bair	-751
▁clúdach	-752
▁scoileanna	-753
ladh	-754
▁éif	-755
uairt	-756
),	-757
▁14	-758
▁éir	-759
▁leibh	-760
▁srianta	-761
tóg	-762
▁Dí	-763
▁gá	-764
▁lé	-765
eimhn	-766
▁cóir	-767
▁teagmháil	-768
ob	-769
eog	-770
íní	-771
eath	-772
▁daon	-773
▁síne	-774
ábháil	-775
▁seirbhís	-776
▁Ná	-777
íobh	-778
mhair	-779
▁ionad	-780
eol	-781
▁lua	-782
▁fhor	-783
▁chéile	-784
▁4,	-785
▁Ar	-786
▁dí	-787
▁iomlán	-788
▁aibreán	-789
ón	-790
▁"	-791
ige	-792
pid	-793
char	-794
▁dhá	-795
▁fol	-796
▁seacht	-797
▁domhain	-798
▁rialtas	-799
gs	-800
ealt	-801
▁siúd	-802
íochaine	-803
iabh	-804
▁cor	-805
▁eag	-806
▁mhí	-807
racha	-808
orthaí	-809
áireamh	-810
▁dearbh	-811
▁toradh	-812
ub	-813
aoi	-814
róit	-815
▁who	-816
▁mbeidh	-817
aigheann	-818
▁Dífhógra	-819
▁Dífhógraíodh	-820
rón	-821
earr	-822
▁dearfach	-823
ers	-824
nann	-825
▁bhr	-826
▁fhóg	-827
íochtaí	-828
far	-829
▁cr	-830
romch	-831
▁beag	-832
asacht	-833
▁ospidéal	-834
▁sóisialta	-835
ims	-836
rao	-837
▁déanaí	-838
ní	-839
▁–	-840
iath	-841
uhan	-842
éigh	-843
▁las	-844
áinig	-845
aintín	-846
aíocht	-847
▁thástáil	-848
ss	-849
▁éags	-850
▁luath	-851
▁cuairt	-852
▁fhógair	-853
óm	-854
▁19	-855
▁dé	-856
eana	-857
iain	-858
▁aer	-859
▁tho	-860
▁mura	-861
▁frith	-862
▁fuair	-863
el	-864
▁ial	-865
▁minic	-866
gn	-867
all	-868
imp	-869
▁bu	-870
▁sio	-871
racht	-872
laíonn	-873
▁bunús	-874
▁thart	-875
amh	-876
ite	-877
éas	-878
▁dhear	-879
▁náisiúnta	-880
▁ho	-881
▁ré	-882
aisc	-883
▁tos	-884
▁ghla	-885
▁srian	-886
▁wuhan	-887
▁cosúil	-888
▁ghnáth	-889
▁ialtóg	-890
▁milliún	-891
▁chosaint	-892
uas	-893
eolas	-894
muigh	-895
▁bhás	-896
▁mbaol	-897
róitéin	-898
▁teagmhála	-899
▁ís	-900
aill	-901
ithr	-902
▁bia	-903
▁léinn	-904
iabhras	-905
▁bearta	-906
▁gníomh	-907
▁vacsaíní	-908
úirt	-909
▁aith	-910
raíonn	-911
▁leath	-912
▁éagsúla	-913
og	-914
oirm	-915
luais	-916
▁háirithe	-917
▁tionchar	-918
▁comhairle	-919
▁bhféadfadh	-920
onn	-921
▁24	-922
▁Bhí	-923
íonna	-924
pidéim	-925
▁choró	-926
▁sábháil	-927
▁lasmuigh	-928
▁O	-929
iúl	-930
paí	-931
▁11	-932
dála	-933
▁Níl	-934
▁mers	-935
▁theas	-936
eachais	-937
ág	-938
lan	-939
igiú	-940
▁lae	-941
lacha	-942
▁oibre	-943
▁cheart	-944
▁riosca	-945
▁thoradh	-946
sa	-947
um	-948
namh	-949
uine	-950
▁ans	-951
▁con	-952
▁cúr	-953
daigh	-954
scoil	-955
▁deir	-956
▁suas	-957
▁Beidh	-958
▁freag	-959
▁céanna	-960
ealtaine	-961
▁láthair	-962
▁riachta	-963
▁thuairisc	-964
▁fhaigheann	-965
▁fhé	-966
ainne	-967
▁láimh	-968
▁obair	-969
inneadh	-970
▁laghdú	-971
▁fhéidir	-972
▁ghalair	-973
ghn	-974
▁os	-975
eist	-976
ionn	-977
▁dír	-978
▁oid	-979
eanta	-980
nacha	-981
▁méad	-982
▁Chuir	-983
▁dúnadh	-984
▁leibhéal	-985
▁15	-986
▁De	-987
▁Go	-988
▁nós	-989
▁éad	-990
▁imdh	-991
scailte	-992
▁tinnis	-993
thú	-994
▁Cé	-995
isce	-996
▁géar	-997
▁gcuid	-998
▁teacht	-999
▁taistil	-1000
▁eipidéim	-1001
róinvíreas	-1002
▁bealtaine	-1003
▁choinneáil	-1004
ce	-1005
mó	-1006
rá	-1007
ich	-1008
▁lú	-1009
▁um	-1010
iana	-1011
▁eor	-1012
▁mac	-1013
▁laghad	-1014
▁príomh	-1015
▁casacht	-1016
▁cuireadh	-1017
▁fu	-1018
▁lár	-1019
▁dáil	-1020
ealach	-1021
tuithe	-1022
▁oifig	-1023
eolaíoch	-1024
▁torthaí	-1025
ara	-1026
▁masc	-1027
▁ceann	-1028
achtach	-1029
oireann	-1030
▁bliain	-1031
▁óstach	-1032
▁dearbhaithe	-1033
▁dr	-1034
▁átha	-1035
▁airde	-1036
▁bharr	-1037
▁tarchur	-1038
fa	-1039
▁j	-1040
▁ta	-1041
▁fós	-1042
bairt	-1043
gnóis	-1044
▁2019	-1045
▁cabh	-1046
▁tábh	-1047
▁garth	-1048
▁leanú	-1049
luaiseachtaí	-1050
▁P	-1051
ang	-1052
▁23	-1053
▁tac	-1054
▁deac	-1055
▁imní	-1056
mhithe	-1057
nachta	-1058
▁othar	-1059
▁dochtúir	-1060
▁éigeandála	-1061
cs	-1062
es	-1063
aoin	-1064
éamh	-1065
iaidh	-1066
▁Mura	-1067
▁sain	-1068
▁mheas	-1069
aistigh	-1070
op	-1071
aisn	-1072
aobh	-1073
▁más	-1074
álach	-1075
▁ceal	-1076
▁eolas	-1077
aisnéis	-1078
▁cheann	-1079
óireacht	-1080
sí	-1081
▁12	-1082
▁chó	-1083
▁nol	-1084
▁cosc	-1085
▁síos	-1086
▁teor	-1087
▁cliath	-1088
▁iompar	-1089
▁láithr	-1090
eitheamh	-1091
eastaíonn	-1092
▁rialtais	-1093
▁coraintín	-1094
náis	-1095
▁thr	-1096
▁tóg	-1097
áistí	-1098
▁iarr	-1099
▁líne	-1100
daithe	-1101
▁iodáil	-1102
▁soláth	-1103
▁taisteal	-1104
▁meitheamh	-1105
ene	-1106
faí	-1107
tra	-1108
ách	-1109
éit	-1110
▁13	-1111
▁oll	-1112
▁leag	-1113
eastal	-1114
▁clinic	-1115
▁fiabhras	-1116
oil	-1117
óil	-1118
▁ár	-1119
éimh	-1120
▁Cuireadh	-1121
dar	-1122
tiú	-1123
▁ae	-1124
aisp	-1125
iond	-1126
▁ais	-1127
▁chú	-1128
▁cru	-1129
▁fss	-1130
raith	-1131
ugtar	-1132
▁fliú	-1133
▁meán	-1134
▁2020.	-1135
▁Nuair	-1136
▁sampla	-1137
▁dáileog	-1138
▁gcoinne	-1139
▁ndaoine	-1140
náisiúnta	-1141
▁laistigh	-1142
▁dteagmháil	-1143
1,	-1144
ná	-1145
eis	-1146
ing	-1147
íol	-1148
▁22	-1149
▁ró	-1150
ears	-1151
uill	-1152
áirt	-1153
▁pob	-1154
agann	-1155
▁héir	-1156
▁cionn	-1157
▁rianú	-1158
itianta	-1159
▁fhéadf	-1160
fr	-1161
oig	-1162
▁cuid	-1163
▁drug	-1164
iagnóis	-1165
rachtaí	-1166
▁imdhío	-1167
airíonna	-1168
▁dhiaidh	-1169
▁tháinig	-1170
▁bunaithe	-1171
▁chomharthaí	-1172
▁idirnáisiúnta	-1173
eap	-1174
eil	-1175
ibr	-1176
óid	-1177
▁Sc	-1178
aigin	-1179
chtaí	-1180
▁fair	-1181
abhair	-1182
aighde	-1183
▁Léigh	-1184
▁chloig	-1185
▁cúraim	-1186
▁mhéadar	-1187
▁iarracht	-1188
▁ainmhithe	-1189
om	-1190
▁18	-1191
▁pl	-1192
aise	-1193
obal	-1194
▁gcó	-1195
tharl	-1196
▁baint	-1197
▁chosc	-1198
raothar	-1199
▁fhreag	-1200
▁áirithe	-1201
▁oibrithe	-1202
mpt	-1203
▁30	-1204
▁thu	-1205
▁thóg	-1206
▁daonna	-1207
▁dhuine	-1208
▁galair	-1209
▁sholáth	-1210
▁freastal	-1211
▁seirbhísí	-1212
laí	-1213
lín	-1214
▁16	-1215
áirg	-1216
éann	-1217
eatha	-1218
▁tapa	-1219
staint	-1220
▁ndéan	-1221
▁pears	-1222
▁díreach	-1223
▁deireadh	-1224
árta	-1225
▁200	-1226
▁fiú	-1227
▁mho	-1228
aithn	-1229
aíonn	-1230
▁céim	-1231
▁stát	-1232
▁tíre	-1233
raithe	-1234
▁réamh	-1235
▁bhaint	-1236
▁staidéar	-1237
raothartach	-1238
▁chomhairle	-1239
▁í	-1240
ioc	-1241
aoil	-1242
údar	-1243
▁Ach	-1244
ógais	-1245
▁cúis	-1246
▁fhág	-1247
éimhse	-1248
invíris	-1249
iúltach	-1250
▁sheach	-1251
ionfhabh	-1252
▁dhearbh	-1253
▁thagann	-1254
▁básmhair	-1255
▁próitéin	-1256
▁áiteanna	-1257
▁coitianta	-1258
▁imdhíonachta	-1259
.3	-1260
aif	-1261
omh	-1262
rúpa	-1263
tair	-1264
▁Tar	-1265
ghabh	-1266
ineál	-1267
reise	-1268
▁dara	-1269
▁rogh	-1270
achtar	-1271
innigh	-1272
▁eagra	-1273
▁rialú	-1274
▁glaoch	-1275
eachtach	-1276
▁bunúsacha	-1277
▁pearsanta	-1278
▁foláireamh	-1279
iv	-1280
úl	-1281
tae	-1282
▁2,	-1283
fear	-1284
lúth	-1285
únta	-1286
ailiú	-1287
aradh	-1288
oltar	-1289
▁fíne	-1290
▁méid	-1291
arthas	-1292
iscint	-1293
osaigh	-1294
▁caith	-1295
▁déine	-1296
▁fearr	-1297
▁gcomh	-1298
▁bheidh	-1299
▁cabhrú	-1300
aireacht	-1301
▁ialtóga	-1302
▁z	-1303
eán	-1304
fra	-1305
nna	-1306
▁26	-1307
iúmó	-1308
▁eit	-1309
▁rna	-1310
▁pian	-1311
ealamh	-1312
▁chinn	-1313
▁chúis	-1314
▁mbaile	-1315
ubstaint	-1316
▁mbásanna	-1317
rán	-1318
▁sí	-1319
bhar	-1320
▁Amh	-1321
▁Ina	-1322
▁cón	-1323
▁eas	-1324
▁sla	-1325
aonrú	-1326
iúint	-1327
untas	-1328
▁Faoi	-1329
▁gcás	-1330
▁teas	-1331
▁timp	-1332
láinte	-1333
ruithe	-1334
▁antas	-1335
▁seach	-1336
ialacha	-1337
iúmóine	-1338
▁amhras	-1339
▁mhárta	-1340
uilleadh	-1341
▁saotharl	-1342
▁hairíonna	-1343
dc	-1344
▁Ú	-1345
iúr	-1346
ost	-1347
▁25	-1348
▁nú	-1349
▁dea	-1350
▁dta	-1351
▁dtr	-1352
▁ainm	-1353
▁aire	-1354
▁fola	-1355
▁níor	-1356
▁uait	-1357
scailt	-1358
▁ansin	-1359
▁beidh	-1360
▁ceart	-1361
eantair	-1362
lúdaigh	-1363
▁cheana	-1364
▁daonra	-1365
▁feidhm	-1366
▁domhanda	-1367
▁víreasach	-1368
▁thuairiscigh	-1369
0%	-1370
sta	-1371
chúr	-1372
eang	-1373
rain	-1374
▁lig	-1375
▁éil	-1376
▁arís	-1377
▁bhrí	-1378
▁forl	-1379
▁sula	-1380
▁ndear	-1381
eiceáil	-1382
ianaise	-1383
íobháid	-1384
▁Amhail	-1385
▁leanbh	-1386
▁mbíonn	-1387
▁éadrom	-1388
romchúis	-1389
▁neamhsh	-1390
eagmhálaí	-1391
▁héireann	-1392
mhíochaine	-1393
▁míochaine	-1394
▁sraothartach	-1395
▁ghluaiseachtaí	-1396
bhr	-1397
▁1,	-1398
▁Ús	-1399
eich	-1400
rtha	-1401
▁uir	-1402
mptóm	-1403
▁Níor	-1404
▁aims	-1405
▁eorp	-1406
víreas	-1407
▁gcuir	-1408
▁measa	-1409
▁Úsáid	-1410
álaithe	-1411
▁deimhn	-1412
▁ionaid	-1413
▁pobail	-1414
▁cosanta	-1415
▁covanna	-1416
eolaíocht	-1417
▁chásanna	-1418
eolaíochta	-1419
▁bpaindéim	-1420
▁géarmhíochaine	-1421
▁ionfhabhtuithe	-1422
3,	-1423
ifr	-1424
nat	-1425
▁17	-1426
itiú	-1427
laig	-1428
mhór	-1429
ógas	-1430
▁202	-1431
▁ama	-1432
cháin	-1433
lanna	-1434
▁Lean	-1435
▁baol	-1436
▁mhór	-1437
eánach	-1438
▁conas	-1439
▁drugaí	-1440
▁sláint	-1441
▁treoir	-1442
▁nollaig	-1443
▁dhéanann	-1444
▁láithreach	-1445
▁tábhachtach	-1446
ns	-1447
to	-1448
che	-1449
pad	-1450
▁28	-1451
aois	-1452
aolú	-1453
eicn	-1454
rath	-1455
zene	-1456
éarm	-1457
▁eol	-1458
▁hio	-1459
chuir	-1460
eoidh	-1461
▁scag	-1462
▁súil	-1463
athair	-1464
zeneca	-1465
▁cófra	-1466
▁dhéan	-1467
eachtain	-1468
ubstaintí	-1469
▁ollscoil	-1470
▁ospidéil	-1471
▁rianaire	-1472
▁sheachaint	-1473
lo	-1474
▁k	-1475
ghal	-1476
nama	-1477
▁sín	-1478
▁Agus	-1479
▁bain	-1480
▁dtús	-1481
ghlaim	-1482
teacht	-1483
▁chéim	-1484
▁gcéad	-1485
▁laeth	-1486
▁rinne	-1487
ataigin	-1488
▁dtugtar	-1489
trazeneca	-1490
óireachta	-1491
▁timpeall	-1492
▁eagraíocht	-1493
▁choróinvíris	-1494
ga	-1495
róm	-1496
▁21	-1497
▁3,	-1498
▁pá	-1499
▁sm	-1500
imid	-1501
llmh	-1502
oibr	-1503
oigh	-1504
▁dío	-1505
▁phl	-1506
fraic	-1507
ibear	-1508
lacht	-1509
tráil	-1510
íochán	-1511
▁dheir	-1512
▁dhomh	-1513
iondróm	-1514
▁againn	-1515
▁breise	-1516
▁gceart	-1517
▁siopad	-1518
▁niúmóine	-1519
ior	-1520
éif	-1521
▁Dh	-1522
▁mu	-1523
cadh	-1524
fadh	-1525
itis	-1526
onad	-1527
áine	-1528
éacs	-1529
▁fás	-1530
▁phr	-1531
ardaí	-1532
eiric	-1533
iméad	-1534
▁aige	-1535
▁bhun	-1536
▁fion	-1537
▁fios	-1538
▁stop	-1539
▁Dúirt	-1540
▁córas	-1541
▁rudaí	-1542
inneach	-1543
▁láimhe	-1544
▁reatha	-1545
▁suntas	-1546
▁chibear	-1547
▁comhair	-1548
▁áireamh	-1549
▁faisnéis	-1550
▁tuairisc	-1551
▁fhorbairt	-1552
▁sábháilte	-1553
nú	-1554
irí	-1555
lat	-1556
únú	-1557
▁Ro	-1558
▁di	-1559
▁dhí	-1560
▁eac	-1561
▁ear	-1562
▁str	-1563
iosta	-1564
róidh	-1565
▁cúig	-1566
▁dian	-1567
▁fada	-1568
▁glan	-1569
▁nasc	-1570
▁údar	-1571
eannta	-1572
ghlach	-1573
▁athrú	-1574
▁bhéal	-1575
▁dlúth	-1576
▁dúnta	-1577
▁gnáth	-1578
▁méadú	-1579
mparáid	-1580
▁amhail	-1581
▁bliana	-1582
▁oiread	-1583
▁spreag	-1584
eachtais	-1585
▁cosaint	-1586
▁chinntiú	-1587
▁diagnóis	-1588
▁diúltach	-1589
▁riochtaí	-1590
▁tréimhse	-1591
▁dhomhanda	-1592
▁imeachtaí	-1593
▁oideachais	-1594
29	-1595
ter	-1596
▁aic	-1597
▁pol	-1598
airtí	-1599
arasc	-1600
eocht	-1601
shlat	-1602
éanna	-1603
▁nádú	-1604
▁saor	-1605
eithre	-1606
scoile	-1607
▁díobh	-1608
▁maisc	-1609
▁scamh	-1610
▁shrón	-1611
▁taobh	-1612
▁thugann	-1613
▁uachtar	-1614
▁paindéime	-1615
▁seirbhíse	-1616
▁tromchúis	-1617
▁seachtaine	-1618
▁theastaíonn	-1619
▁vacsaínithe	-1620
▁éifeachtach	-1621
▁chibearshlat	-1622
aib	-1623
idí	-1624
lis	-1625
eáin	-1626
ghla	-1627
álta	-1628
▁Tug	-1629
rúpaí	-1630
thóir	-1631
▁bith	-1632
▁chon	-1633
▁fhad	-1634
▁Caith	-1635
▁uisce	-1636
aithnid	-1637
▁aonair	-1638
▁leagan	-1639
▁eacnama	-1640
▁cóireáil	-1641
▁dtíortha	-1642
▁oscailte	-1643
▁trealamh	-1644
▁phaindéim	-1645
▁sholáthar	-1646
▁tástálacha	-1647
▁astrazeneca	-1648
▁coróinvíreas	-1649
br	-1650
me	-1651
ghd	-1652
▁50	-1653
▁In	-1654
▁il	-1655
▁tí	-1656
eadú	-1657
itic	-1658
róis	-1659
éach	-1660
▁Más	-1661
▁cum	-1662
▁gar	-1663
▁gnó	-1664
▁nár	-1665
▁tob	-1666
ailís	-1667
ochta	-1668
▁atho	-1669
▁cath	-1670
▁uimh	-1671
ialach	-1672
mhainn	-1673
naíonn	-1674
éanann	-1675
▁uirth	-1676
▁cruinn	-1677
▁eisigh	-1678
▁gardaí	-1679
▁idirmh	-1680
▁liosta	-1681
▁phobal	-1682
▁scamhóg	-1683
▁scaradh	-1684
▁seachas	-1685
▁Oscailte	-1686
▁hcovanna	-1687
▁staidéir	-1688
▁tabhairt	-1689
▁vacsaíniú	-1690
▁úsáideann	-1691
▁cliniciúla	-1692
cr	-1693
iz	-1694
▁'	-1695
ilt	-1696
▁at	-1697
▁so	-1698
chán	-1699
lann	-1700
úile	-1701
▁cro	-1702
▁ind	-1703
olann	-1704
▁ráta	-1705
▁samh	-1706
áraigh	-1707
▁bhfad	-1708
▁bíonn	-1709
▁dócha	-1710
▁taire	-1711
▁toisc	-1712
illeadh	-1713
lachtaí	-1714
riachta	-1715
▁curtha	-1716
▁fionraí	-1717
▁samplaí	-1718
▁fhéadfaí	-1719
▁thosaigh	-1720
▁fhoireann	-1721
▁rianaithe	-1722
ge	-1723
ein	-1724
▁29	-1725
rais	-1726
▁100	-1727
▁Cén	-1728
▁gin	-1729
chéim	-1730
línte	-1731
oladh	-1732
▁deara	-1733
▁gcaoi	-1734
▁monat	-1735
▁rátaí	-1736
▁speis	-1737
aíochta	-1738
▁dromch	-1739
▁gcónaí	-1740
▁suíomh	-1741
▁uirthi	-1742
▁anailís	-1743
▁chlinic	-1744
▁taighde	-1745
▁thógáil	-1746
▁tinneas	-1747
iallaíonn	-1748
▁teastáil	-1749
▁tógálach	-1750
▁seachtain	-1751
▁antasubstaintí	-1752
.5	-1753
ab	-1754
.30	-1755
eim	-1756
▁27	-1757
▁31	-1758
▁gr	-1759
▁nu	-1760
aite	-1761
alar	-1762
eans	-1763
▁inn	-1764
▁scr	-1765
dáile	-1766
eicis	-1767
oirch	-1768
éanóm	-1769
íocha	-1770
▁céad	-1771
▁difr	-1772
▁shoc	-1773
▁tosú	-1774
aifead	-1775
duithe	-1776
iteach	-1777
bhreith	-1778
eiriceá	-1779
▁domhan	-1780
▁ghalar	-1781
▁thaist	-1782
▁éirinn	-1783
aíochtaí	-1784
itheoirí	-1785
▁Déantar	-1786
▁bhfaigh	-1787
▁hiodáile	-1788
▁nádúrtha	-1789
▁theannta	-1790
▁leanúnach	-1791
▁coronaviruses	-1792
2,	-1793
eam	-1794
ism	-1795
▁rc	-1796
nais	-1797
óidh	-1798
úram	-1799
▁Gla	-1800
▁the	-1801
iorra	-1802
nithe	-1803
▁coró	-1804
▁foir	-1805
▁marg	-1806
▁muid	-1807
▁slán	-1808
▁srón	-1809
▁tríd	-1810
▁ísle	-1811
aitéis	-1812
▁Bíonn	-1813
▁anois	-1814
▁dúirt	-1815
▁eacht	-1816
▁fhios	-1817
▁stair	-1818
▁teach	-1819
▁éigin	-1820
ghníomh	-1821
iomptóm	-1822
▁coinne	-1823
▁iaráin	-1824
▁Tháinig	-1825
▁tosaigh	-1826
▁beagnach	-1827
▁leibhéil	-1828
▁tuiscint	-1829
▁fhreagairt	-1830
▁shóisialta	-1831
▁neamhriachta	-1832
▁choróinvíreas	-1833
▁gartheagmhálaí	-1834
arc	-1835
lár	-1836
ong	-1837
rio	-1838
▁Mh	-1839
▁no	-1840
reid	-1841
tran	-1842
▁Fan	-1843
▁bhu	-1844
▁brú	-1845
▁iúl	-1846
▁oil	-1847
▁pho	-1848
▁tag	-1849
covid	-1850
ealaí	-1851
rasaí	-1852
throm	-1853
▁Léir	-1854
▁coim	-1855
▁ithe	-1856
▁modh	-1857
▁thea	-1858
daíonn	-1859
oiléir	-1860
▁anseo	-1861
▁anála	-1862
▁ráige	-1863
▁íseal	-1864
covanna	-1865
earálta	-1866
tacháin	-1867
teachas	-1868
▁cinnte	-1869
▁gceist	-1870
▁leithr	-1871
▁oiriún	-1872
▁théann	-1873
▁bhailiú	-1874
▁ceithre	-1875
▁hiomlán	-1876
▁iarraidh	-1877
▁siondróm	-1878
▁tharchur	-1879
▁éifeacht	-1880
▁suntasach	-1881
▁speisialta	-1882
▁saotharlainne	-1883
▁básmhaireachta	-1884
18	-1885
7,	-1886
ed	-1887
eid	-1888
icl	-1889
ire	-1890
las	-1891
ord	-1892
tao	-1893
ána	-1894
▁ua	-1895
inse	-1896
ubei	-1897
éine	-1898
▁ant	-1899
▁níl	-1900
▁soc	-1901
▁tor	-1902
earta	-1903
feadh	-1904
tanas	-1905
▁Bain	-1906
▁Thug	-1907
▁chru	-1908
▁faid	-1909
▁inst	-1910
▁mbás	-1911
chtain	-1912
ástála	-1913
▁Fuair	-1914
▁fásta	-1915
chúraim	-1916
▁cúnamh	-1917
aitheann	-1918
aoiseach	-1919
iúrthóir	-1920
▁chineál	-1921
▁fíneáil	-1922
▁tuarasc	-1923
▁rinneadh	-1924
▁teorainn	-1925
▁anaithnid	-1926
▁caitheamh	-1927
▁dhearfach	-1928
▁deimhnithe	-1929
▁idirmheánach	-1930
▁monatóireacht	-1931
▁neamhshiomptóm	-1932
▁0	-1933
irt	-1934
áit	-1935
▁Cl	-1936
▁Sa	-1937
▁ea	-1938
▁jo	-1939
chtú	-1940
ille	-1941
insí	-1942
irim	-1943
iste	-1944
mhar	-1945
íche	-1946
▁beo	-1947
▁cdc	-1948
▁dlí	-1949
▁fho	-1950
▁rsc	-1951
▁shu	-1952
▁tús	-1953
▁zón	-1954
othar	-1955
uaire	-1956
▁gcon	-1957
▁iomp	-1958
▁móra	-1959
▁pang	-1960
▁páip	-1961
eartha	-1962
eathan	-1963
pháirt	-1964
▁anuas	-1965
▁cóire	-1966
▁dhaon	-1967
▁gnách	-1968
▁hubei	-1969
▁núicl	-1970
▁tobac	-1971
teachta	-1972
▁déanta	-1973
▁géanóm	-1974
▁nochta	-1975
▁slaghd	-1976
▁uimhir	-1977
▁zónóis	-1978
aispeáin	-1979
eimhnigh	-1980
▁básanna	-1981
▁eorpach	-1982
▁ghníomh	-1983
▁Coinnigh	-1984
▁shláinte	-1985
▁chuireann	-1986
▁dheireadh	-1987
▁hionfhabh	-1988
▁faireachas	-1989
▁riachtanach	-1990
%)	-1991
.2	-1992
1.	-1993
ap	-1994
gp	-1995
ast	-1996
hon	-1997
orn	-1998
íse	-1999
airí	-2000
▁Tóg	-2001
▁abh	-2002
▁chr	-2003
▁col	-2004
▁éin	-2005
abhar	-2006
aíodh	-2007
liana	-2008
raoin	-2009
▁Chun	-2010
▁cead	-2011
▁dtos	-2012
▁páir	-2013
▁riar	-2014
▁siar	-2015
▁trom	-2016
▁tríú	-2017
abhadh	-2018
riosca	-2019
▁Féadf	-2020
▁coinn	-2021
íocháin	-2022
▁afraic	-2023
▁chóiré	-2024
▁eoraip	-2025
▁gharth	-2026
▁leanas	-2027
▁ligean	-2028
▁mhaolú	-2029
▁rialta	-2030
▁réigiú	-2031
▁ríocht	-2032
▁scaoil	-2033
▁nóiméad	-2034
▁Rinneadh	-2035
▁clúdaigh	-2036
▁sháraigh	-2037
▁straitéis	-2038
▁tuilleadh	-2039
ismitheoirí	-2040
▁éigeantach	-2041
,8	-2042
."	-2043
.4	-2044
13	-2045
ie	-2046
iu	-2047
cho	-2048
fen	-2049
ins	-2050
ipe	-2051
óca	-2052
▁Dá	-2053
▁Le	-2054
▁hu	-2055
aimh	-2056
ealú	-2057
isic	-2058
izer	-2059
álaí	-2060
▁par	-2061
▁tru	-2062
ailte	-2063
aimid	-2064
llach	-2065
seáil	-2066
▁Comh	-2067
▁Meas	-2068
▁aice	-2069
▁chum	-2070
▁dáta	-2071
▁héif	-2072
▁sine	-2073
▁siúl	-2074
aiscum	-2075
uashon	-2076
▁baile	-2077
▁chorp	-2078
▁figiú	-2079
▁ghear	-2080
▁seich	-2081
▁teicn	-2082
▁theor	-2083
▁táirg	-2084
▁ullmh	-2085
tranais	-2086
▁cógais	-2087
▁tharla	-2088
▁aithint	-2089
▁cónaith	-2090
▁phoiblí	-2091
▁údaráis	-2092
eisteanna	-2093
▁vacsaíne	-2094
▁altranais	-2095
▁chóireáil	-2096
▁ndearnadh	-2097
▁rialuithe	-2098
▁athoscailt	-2099
▁chomhartha	-2100
▁tseachtain	-2101
▁dhearbhaigh	-2102
▁riachtanais	-2103
ba	-2104
ut	-2105
der	-2106
hio	-2107
▁dú	-2108
-229	-2109
asta	-2110
cair	-2111
chum	-2112
scrú	-2113
éirí	-2114
óirt	-2115
▁cal	-2116
▁joh	-2117
stáin	-2118
▁Nigh	-2119
▁bhro	-2120
▁clár	-2121
▁croí	-2122
▁féid	-2123
▁rcgp	-2124
▁réim	-2125
▁séas	-2126
▁téar	-2127
eoladh	-2128
onrach	-2129
▁aonrú	-2130
▁brath	-2131
▁facht	-2132
▁faide	-2133
▁ngach	-2134
▁tirim	-2135
▁áfach	-2136
eannach	-2137
uarthas	-2138
unaithe	-2139
▁critic	-2140
▁húsáid	-2141
▁sciath	-2142
anntanas	-2143
▁dhúnadh	-2144
▁fómhair	-2145
▁áitiúil	-2146
▁áitiúla	-2147
▁léiríonn	-2148
▁tarchuir	-2149
▁buinneach	-2150
▁oideachas	-2151
▁tacaíocht	-2152
▁forleathan	-2153
▁deacrachtaí	-2154
▁gartheagmháil	-2155
43	-2156
8,	-2157
eád	-2158
lag	-2159
niú	-2160
olg	-2161
tac	-2162
tán	-2163
éag	-2164
▁ur	-2165
▁ío	-2166
▁ós	-2167
inte	-2168
iúin	-2169
líne	-2170
▁míl	-2171
danna	-2172
fizer	-2173
níodh	-2174
obail	-2175
oifig	-2176
rainc	-2177
rnach	-2178
▁díot	-2179
▁fóin	-2180
▁teir	-2181
lachta	-2182
lúnach	-2183
naíodh	-2184
reacha	-2185
▁Conas	-2186
▁foirm	-2187
▁johns	-2188
▁seala	-2189
▁díghal	-2190
▁siopaí	-2191
▁tháirg	-2192
▁toirch	-2193
eachtadh	-2194
eirbhísí	-2195
iocfaidh	-2196
raoiníní	-2197
▁billiún	-2198
▁eisíodh	-2199
▁fhrainc	-2200
▁folláin	-2201
▁acmhainn	-2202
▁fianaise	-2203
▁figiúirí	-2204
▁filleadh	-2205
▁fuarthas	-2206
▁leanúint	-2207
▁mhilliún	-2208
▁teoranta	-2209
▁seicheamh	-2210
▁beartaithe	-2211
▁ginearálta	-2212
▁frithvíreas	-2213
ól	-2214
drá	-2215
ind	-2216
mra	-2217
ort	-2218
▁cá	-2219
▁ra	-2220
alta	-2221
lóid	-2222
tigh	-2223
▁bhl	-2224
▁cad	-2225
▁cén	-2226
▁lán	-2227
▁mic	-2228
▁shr	-2229
▁trá	-2230
▁breo	-2231
▁fear	-2232
▁gcor	-2233
▁glas	-2234
▁mhic	-2235
▁tiom	-2236
aispeá	-2237
óstach	-2238
▁agóid	-2239
▁bhfor	-2240
▁moill	-2241
▁oibrí	-2242
▁uathu	-2243
eananna	-2244
▁Tugann	-2245
▁chóras	-2246
▁contae	-2247
▁úsáide	-2248
▁abhaile	-2249
▁frithdh	-2250
▁hothair	-2251
▁níochán	-2252
▁shonraí	-2253
▁éileamh	-2254
▁dhearbhú	-2255
▁institiú	-2256
▁leanacht	-2257
▁leithlis	-2258
▁éineacht	-2259
▁aitheanta	-2260
▁freagairt	-2261
▁gallúnach	-2262
▁príobháid	-2263
▁ráigeanna	-2264
▁faireachais	-2265
▁treoirlínte	-2266
5,	-2267
63	-2268
ku	-2269
ít	-2270
nal	-2271
nar	-2272
riú	-2273
wab	-2274
árú	-2275
éig	-2276
óra	-2277
▁”.	-2278
aing	-2279
▁cam	-2280
▁spá	-2281
▁íos	-2282
▁óna	-2283
aisin	-2284
isiún	-2285
▁báis	-2286
▁luan	-2287
▁shao	-2288
▁treo	-2289
aibéit	-2290
▁aisce	-2291
▁cónaí	-2292
▁fisic	-2293
▁mheán	-2294
▁rogha	-2295
▁thair	-2296
éarmach	-2297
▁amuigh	-2298
▁chúram	-2299
▁foirne	-2300
▁giorra	-2301
▁huaire	-2302
▁mhéadú	-2303
▁shocrú	-2304
▁spóirt	-2305
▁thaobh	-2306
▁theach	-2307
▁bhféadf	-2308
▁chéanna	-2309
▁fheidhm	-2310
▁nuashon	-2311
▁náisiún	-2312
▁pháistí	-2313
▁soiléir	-2314
▁taifead	-2315
▁éiríonn	-2316
aibéiteas	-2317
▁bhealach	-2318
▁chathair	-2319
▁ghlanadh	-2320
▁leathadh	-2321
▁rochtain	-2322
▁scaipthe	-2323
▁sheoladh	-2324
aireachtaí	-2325
▁próitéiní	-2326
▁sealadach	-2327
▁uaireanta	-2328
▁Dheimhnigh	-2329
▁féideartha	-2330
▁sláintiúil	-2331
▁frithdhúnadh	-2332
.,	-2333
50	-2334
cm	-2335
et	-2336
ul	-2337
-2.	-2338
ata	-2339
bla	-2340
feá	-2341
icí	-2342
ils	-2343
órt	-2344
▁60	-2345
▁Do	-2346
▁Gh	-2347
▁Tr	-2348
▁ha	-2349
▁mú	-2350
▁se	-2351
annú	-2352
eirt	-2353
máin	-2354
tech	-2355
áise	-2356
▁201	-2357
▁fan	-2358
▁mná	-2359
▁mol	-2360
▁phe	-2361
aisle	-2362
asamh	-2363
raigh	-2364
ánach	-2365
íomhá	-2366
órais	-2367
▁Cabh	-2368
▁acla	-2369
▁bhia	-2370
▁fáth	-2371
▁hion	-2372
▁infh	-2373
▁póca	-2374
▁rith	-2375
▁séir	-2376
rasaíl	-2377
ualadh	-2378
▁eagla	-2379
▁fhliú	-2380
▁scoth	-2381
▁trump	-2382
▁pfizer	-2383
▁scoile	-2384
▁teocht	-2385
▁tionsc	-2386
aiscumar	-2387
eannacht	-2388
éarchéim	-2389
▁Léirigh	-2390
▁bhfuair	-2391
▁luaithe	-2392
▁léirigh	-2393
▁mbliana	-2394
▁rialach	-2395
▁bhainist	-2396
▁chlúdach	-2397
▁dhéantar	-2398
▁foghlaim	-2399
▁bhrollach	-2400
▁láimhseáil	-2401
▁stiúrthóir	-2402
▁éifeachtaí	-2403
▁básmhaireacht	-2404
.8	-2405
94	-2406
fí	-2407
go	-2408
ue	-2409
ise	-2410
mpl	-2411
▁Cu	-2412
▁re	-2413
▁sl	-2414
eách	-2415
ichí	-2416
nell	-2417
osta	-2418
éite	-2419
▁dro	-2420
▁lim	-2421
▁pro	-2422
aighd	-2423
aosta	-2424
iforn	-2425
ionad	-2426
lúine	-2427
áirtí	-2428
éithe	-2429
▁asat	-2430
▁dhír	-2431
▁dtar	-2432
▁ghin	-2433
▁hath	-2434
▁mall	-2435
▁rúis	-2436
bartha	-2437
hiodrá	-2438
naithe	-2439
úlacht	-2440
▁caill	-2441
▁foils	-2442
▁ghabh	-2443
▁ghlas	-2444
▁grúpa	-2445
▁meáin	-2446
▁seans	-2447
▁téigh	-2448
▁íomhá	-2449
ialanna	-2450
imsíonn	-2451
úlachta	-2452
▁Braith	-2453
▁eolais	-2454
▁gcaith	-2455
▁ngarth	-2456
▁óstáin	-2457
íollacha	-2458
▁bualadh	-2459
▁déanamh	-2460
▁glaoigh	-2461
▁thuaidh	-2462
ineálacha	-2463
▁californ	-2464
▁dromchla	-2465
▁labhairt	-2466
▁meiriceá	-2467
▁scornach	-2468
▁thíortha	-2469
eoireachta	-2470
▁thaisteal	-2471
▁trialacha	-2472
▁Ciallaíonn	-2473
▁athbhreith	-2474
▁bhfoireann	-2475
▁fíneálacha	-2476
▁laghdaithe	-2477
▁scothaosta	-2478
▁suíomhanna	-2479
▁víreasacha	-2480
coróinvíreas	-2481
▁sábháilteachta	-2482
▁siopadóireachta	-2483
".	-2484
..	-2485
60	-2486
65	-2487
9,	-2488
95	-2489
bo	-2490
cp	-2491
cu	-2492
fó	-2493
si	-2494
tu	-2495
ant	-2496
fho	-2497
lac	-2498
org	-2499
pro	-2500
rna	-2501
tic	-2502
tin	-2503
ual	-2504
ódh	-2505
▁(3	-2506
▁40	-2507
▁só	-2508
▁úr	-2509
chta	-2510
eafó	-2511
eict	-2512
eobh	-2513
gann	-2514
impl	-2515
laim	-2516
oils	-2517
onch	-2518
phen	-2519
sars	-2520
▁4,9	-2521
▁gcl	-2522
▁lee	-2523
▁pló	-2524
▁ste	-2525
▁uas	-2526
▁óga	-2527
asach	-2528
illiú	-2529
ospid	-2530
rótac	-2531
thach	-2532
▁ardú	-2533
▁arna	-2534
▁chol	-2535
▁dóch	-2536
▁fhón	-2537
▁géin	-2538
▁hiar	-2539
▁swab	-2540
chúram	-2541
eannas	-2542
eapáin	-2543
ghlama	-2544
scrúdú	-2545
▁easpa	-2546
▁eitil	-2547
▁ionas	-2548
▁leoch	-2549
▁mórán	-2550
▁neart	-2551
▁plean	-2552
▁tarlú	-2553
▁téacs	-2554
iontech	-2555
ránaigh	-2556
▁chumas	-2557
▁ghrúpa	-2558
▁mheabh	-2559
▁nollag	-2560
▁saoire	-2561
eobhaidh	-2562
eolaithe	-2563
inteoirí	-2564
▁Déanann	-2565
▁Glaoigh	-2566
▁Tabhair	-2567
▁freagra	-2568
▁johnson	-2569
▁phobail	-2570
oifigeach	-2571
▁Cuireann	-2572
▁aireacht	-2573
▁amhrasta	-2574
▁ceantair	-2575
▁imeachta	-2576
▁ndéantar	-2577
▁pataigin	-2578
▁shrianta	-2579
▁tseapáin	-2580
aispeánann	-2581
uairiscigh	-2582
▁taiscumar	-2583
▁taoiseach	-2584
▁cleachtais	-2585
▁cliniciúil	-2586
▁gcomparáid	-2587
▁zónóiseach	-2588
▁éigeandáil	-2589
▁diaibéiteas	-2590
▁dianchúraim	-2591
▁Thuairiscigh	-2592
▁sábháilteacht	-2593
▁tromchúiseacha	-2594
.7	-2595
4,	-2596
6,	-2597
ti	-2598
-2,	-2599
eat	-2600
eál	-2601
iní	-2602
▁Sp	-2603
▁ne	-2604
▁”,	-2605
-19)	-2606
adhb	-2607
eamó	-2608
east	-2609
iail	-2610
éanó	-2611
▁4,8	-2612
▁Ath	-2613
▁ail	-2614
▁alc	-2615
▁dar	-2616
▁fhr	-2617
▁fón	-2618
▁nas	-2619
naigh	-2620
tacha	-2621
▁ains	-2622
▁ball	-2623
▁chug	-2624
▁gabh	-2625
▁gair	-2626
▁mich	-2627
▁scrú	-2628
▁thír	-2629
aicéit	-2630
athúil	-2631
aítear	-2632
bhlóid	-2633
chtúra	-2634
ineach	-2635
▁2021,	-2636
▁Chomh	-2637
▁Seach	-2638
▁aonad	-2639
▁béite	-2640
▁cógas	-2641
▁dháil	-2642
▁dhíon	-2643
▁gcéim	-2644
▁india	-2645
▁moder	-2646
▁nocht	-2647
▁núíos	-2648
▁roghn	-2649
▁slabh	-2650
▁toirm	-2651
▁veict	-2652
▁éasca	-2653
róiseas	-2654
▁Deimhn	-2655
▁Moltar	-2656
▁bpobal	-2657
▁gcóras	-2658
▁láidir	-2659
▁martin	-2660
▁páistí	-2661
▁scagth	-2662
▁spáinn	-2663
ghabháil	-2664
▁bhliain	-2665
▁buailte	-2666
▁chruthú	-2667
▁chórais	-2668
▁deacair	-2669
▁dtagann	-2670
▁fhágann	-2671
▁fhéadfá	-2672
▁ndearna	-2673
▁phríomh	-2674
▁riarach	-2675
▁seachad	-2676
▁stephen	-2677
▁stopadh	-2678
▁éadroma	-2679
▁aimsíodh	-2680
▁coinnigh	-2681
▁cóireála	-2682
▁domhnach	-2683
▁leathair	-2684
▁leigheas	-2685
▁leochail	-2686
▁réigiúin	-2687
▁toirchis	-2688
▁Féadfaidh	-2689
▁análaithe	-2690
▁athruithe	-2691
▁dochtúirí	-2692
▁fachtóirí	-2693
▁gceantair	-2694
▁ghearmáin	-2695
▁plódaithe	-2696
▁teaghlach	-2697
▁éifeachta	-2698
▁iarrachtaí	-2699
▁leithlisiú	-2700
▁rialacháin	-2701
▁tharlaíonn	-2702
▁theaghlach	-2703
▁víreolaíoch	-2704
▁coinníollacha	-2705
▁ngluaiseachtaí	-2706
▁siopadóireacht	-2707
%.	-2708
.1	-2709
eip	-2710
oid	-2711
álú	-2712
íce	-2713
▁(2	-2714
▁37	-2715
▁Sh	-2716
▁ci	-2717
▁en	-2718
easc	-2719
eora	-2720
inbh	-2721
roid	-2722
íola	-2723
▁ana	-2724
▁bog	-2725
▁mhu	-2726
▁tur	-2727
eamól	-2728
inneo	-2729
leách	-2730
mhach	-2731
nelly	-2732
níomh	-2733
oirth	-2734
raing	-2735
scéal	-2736
áilte	-2737
▁Iarr	-2738
▁Lagh	-2739
▁airg	-2740
▁aist	-2741
▁atos	-2742
▁chón	-2743
▁coic	-2744
▁fíor	-2745
▁ghnó	-2746
▁mhol	-2747
▁rang	-2748
▁raon	-2749
▁tacú	-2750
ileáin	-2751
▁Faigh	-2752
▁análú	-2753
▁beart	-2754
▁beirt	-2755
▁bhonn	-2756
▁chead	-2757
▁naíon	-2758
eithimh	-2759
speicis	-2760
▁Molann	-2761
▁Tugtar	-2762
▁breith	-2763
▁earraí	-2764
▁fhoils	-2765
▁haoine	-2766
▁istigh	-2767
▁limist	-2768
▁réimsí	-2769
▁scrios	-2770
▁trácht	-2771
shláinte	-2772
▁chuairt	-2773
▁clainne	-2774
▁margadh	-2775
▁mholtar	-2776
▁micheál	-2777
▁moderna	-2778
aireachas	-2779
▁donnelly	-2780
▁forbairt	-2781
▁braoiníní	-2782
▁ganntanas	-2783
▁paraicéit	-2784
▁phróitéin	-2785
▁sciatháin	-2786
▁theorannú	-2787
▁uachtarán	-2788
▁cineálacha	-2789
▁cruinnithe	-2790
▁eacnamaíoch	-2791
▁riachtanacha	-2792
▁tuismitheoirí	-2793
▁paraicéiteamól	-2794
0,	-2795
48	-2796
66	-2797
ec	-2798
ik	-2799
nl	-2800
mar	-2801
tor	-2802
▁48	-2803
▁ad	-2804
▁fl	-2805
▁gl	-2806
▁ir	-2807
▁rt	-2808
▁ól	-2809
cúnú	-2810
iall	-2811
iamh	-2812
iúna	-2813
olog	-2814
ordú	-2815
osca	-2816
thas	-2817
treo	-2818
áinl	-2819
▁Cad	-2820
▁For	-2821
▁Ion	-2822
▁ace	-2823
▁asl	-2824
▁dtu	-2825
▁hom	-2826
▁ins	-2827
▁ndú	-2828
▁pcr	-2829
andam	-2830
chomh	-2831
earbh	-2832
facha	-2833
igiún	-2834
tharn	-2835
ínigh	-2836
▁Glan	-2837
▁bhrú	-2838
▁fadt	-2839
▁fadú	-2840
▁mbun	-2841
▁mhar	-2842
▁mrna	-2843
▁shin	-2844
▁tair	-2845
▁thit	-2846
▁tuir	-2847
▁éirí	-2848
raíodh	-2849
▁2019,	-2850
▁Ionad	-2851
▁Rinne	-2852
▁ailse	-2853
▁athmh	-2854
▁bheag	-2855
▁linbh	-2856
▁mbain	-2857
▁meabh	-2858
▁meách	-2859
▁ríomh	-2860
▁ábhar	-2861
amáiste	-2862
fheidhm	-2863
áineadh	-2864
▁Tabhar	-2865
▁bailiú	-2866
▁choinn	-2867
▁chógas	-2868
▁cocúnú	-2869
▁dtithe	-2870
▁ghéanó	-2871
▁grúpaí	-2872
▁moladh	-2873
▁paisin	-2874
▁pangol	-2875
▁randam	-2876
▁scoite	-2877
▁shúile	-2878
aibheath	-2879
▁bealach	-2880
▁coimeád	-2881
▁imeacht	-2882
▁iompair	-2883
▁nósanna	-2884
▁oiriúnú	-2885
▁ordaigh	-2886
▁réigiún	-2887
▁saoráid	-2888
▁satharn	-2889
▁sonrach	-2890
▁Seachain	-2891
▁bhrasaíl	-2892
▁dochtúra	-2893
▁fhorbair	-2894
▁ghlacadh	-2895
▁laethúla	-2896
▁leithris	-2897
▁macasamh	-2898
▁ndéanann	-2899
▁slaghdán	-2900
▁éabhlóid	-2901
ábhachtach	-2902
▁chinneadh	-2903
▁limistéar	-2904
▁méadaithe	-2905
▁nuashonrú	-2906
▁scriosadh	-2907
▁soláthair	-2908
airshláinte	-2909
▁freagartha	-2910
▁sheirbhísí	-2911
▁straitéisí	-2912
aibheathaigh	-2913
▁chliniciúil	-2914
▁gcoróinvíreas	-2915
▁ollscoileanna	-2916
▁teicneolaíocht	-2917
07	-2918
37	-2919
pp	-2920
sú	-2921
yl	-2922
yn	-2923
dla	-2924
fss	-2925
hku	-2926
iam	-2927
ros	-2928
róg	-2929
tad	-2930
usa	-2931
úin	-2932
úsh	-2933
▁38	-2934
▁Na	-2935
▁Rá	-2936
▁ab	-2937
▁bó	-2938
▁te	-2939
aird	-2940
alla	-2941
idhm	-2942
iomp	-2943
ivet	-2944
róif	-2945
rúil	-2946
scla	-2947
íniú	-2948
▁Sna	-2949
▁aig	-2950
▁clo	-2951
▁deo	-2952
▁ith	-2953
▁lit	-2954
▁ról	-2955
aiste	-2956
atáin	-2957
chadh	-2958
mheas	-2959
íteas	-2960
▁chlé	-2961
▁cian	-2962
▁cáis	-2963
▁gurb	-2964
▁iúil	-2965
▁leic	-2966
▁nigh	-2967
▁rann	-2968
▁teag	-2969
▁éard	-2970
▁óige	-2971
aidhme	-2972
arsáid	-2973
daíodh	-2974
eangal	-2975
iseadh	-2976
stacha	-2977
▁aidhm	-2978
▁chill	-2979
▁civet	-2980
▁coisc	-2981
▁cothú	-2982
▁fadhb	-2983
▁faigh	-2984
▁fheic	-2985
▁féach	-2986
▁gasta	-2987
▁mílte	-2988
▁sceid	-2989
▁sheol	-2990
▁thion	-2991
iocfadh	-2992
lastach	-2993
ochtúir	-2994
thaíonn	-2995
▁Maidir	-2996
▁braith	-2997
▁chugat	-2998
▁chuige	-2999
▁córais	-3000
▁éadach	-3001
aisteach	-3002
▁Fanacht	-3003
▁Meastar	-3004
▁astráil	-3005
▁déantar	-3006
▁eitiltí	-3007
▁fhágáil	-3008
▁glacadh	-3009
▁imdhíon	-3010
▁scagadh	-3011
aispeáint	-3012
eolaíocha	-3013
▁Fuarthas	-3014
▁biontech	-3015
▁bunúsach	-3016
▁dáileoga	-3017
▁fhreagra	-3018
▁iontráil	-3019
▁mbealach	-3020
▁oifigigh	-3021
▁shábháil	-3022
▁torracha	-3023
scoileanna	-3024
▁Déanfaidh	-3025
▁comparáid	-3026
▁céimeanna	-3027
▁deacracht	-3028
▁forbartha	-3029
▁rialaithe	-3030
eagmhálacha	-3031
▁bhfaighidh	-3032
▁chaitheann	-3033
▁gcaithfidh	-3034
▁mheánoirth	-3035
eagmhálaithe	-3036
▁dearbhaíodh	-3037
▁meastacháin	-3038
▁soláthairtí	-3039
▁thuairisciú	-3040
▁athbhreithniú	-3041
▁tromchúiseach	-3042
▁gníomhaíochtaí	-3043
▁ngartheagmháil	-3044
10	-3045
14	-3046
25	-3047
36	-3048
47	-3049
68	-3050
nó	-3051
íd	-3052
olo	-3053
oth	-3054
pla	-3055
scr	-3056
ula	-3057
who	-3058
▁70	-3059
▁Im	-3060
▁oc	-3061
agra	-3062
ailí	-3063
ainm	-3064
dars	-3065
eill	-3066
itim	-3067
onna	-3068
éard	-3069
▁car	-3070
▁cul	-3071
▁fág	-3072
▁ios	-3073
▁new	-3074
▁ábh	-3075
anann	-3076
arsúr	-3077
iarmh	-3078
iméir	-3079
laigh	-3080
roich	-3081
taigh	-3082
taofa	-3083
teist	-3084
tábla	-3085
tóirí	-3086
uaise	-3087
ábhar	-3088
▁Nach	-3089
▁alfa	-3090
▁béal	-3091
▁chúr	-3092
▁cloí	-3093
▁coth	-3094
▁dhún	-3095
▁dífh	-3096
▁earn	-3097
▁gcur	-3098
▁heag	-3099
▁muin	-3100
▁seas	-3101
▁soch	-3102
▁teil	-3103
▁tusa	-3104
▁uile	-3105
▁éire	-3106
ghleac	-3107
tachán	-3108
▁Roinn	-3109
▁atosú	-3110
▁bhfón	-3111
▁cille	-3112
▁druga	-3113
▁fhost	-3114
▁gearr	-3115
▁iomar	-3116
▁oiriú	-3117
▁siúil	-3118
▁spíce	-3119
▁thuas	-3120
churtha	-3121
eachtas	-3122
ghluais	-3123
rótacal	-3124
éalainn	-3125
▁Dúnadh	-3126
▁aslonn	-3127
▁breoit	-3128
▁bronch	-3129
▁cealla	-3130
▁chealú	-3131
▁cineál	-3132
▁comhdh	-3133
▁críoch	-3134
▁eiseam	-3135
▁imoibr	-3136
▁matáin	-3137
▁minice	-3138
▁ndeach	-3139
▁riocht	-3140
▁sraith	-3141
▁sreabh	-3142
▁séasúr	-3143
▁100,000	-3144
▁chógais	-3145
▁cothrom	-3146
▁dtosach	-3147
▁gcontae	-3148
▁leathnú	-3149
▁mhaithe	-3150
▁páipéar	-3151
▁páipéir	-3152
▁samhain	-3153
aireachta	-3154
▁aibreáin	-3155
▁cinneadh	-3156
▁cúramach	-3157
▁damáiste	-3158
▁díhiodrá	-3159
▁fhormhór	-3160
▁hiaráine	-3161
▁modhanna	-3162
▁níocháin	-3163
▁pangolin	-3164
▁scamhóga	-3165
teistiméir	-3166
áinliachta	-3167
▁Cleachtaí	-3168
▁acmhainní	-3169
▁cathracha	-3170
▁cónaidhme	-3171
▁fhoilsigh	-3172
▁leithreas	-3173
▁maireacht	-3174
▁ndochtúir	-3175
▁roinneann	-3176
▁spreagadh	-3177
ghleacaithe	-3178
▁Deimhníodh	-3179
▁ainsealach	-3180
▁braitheadh	-3181
▁california	-3182
▁criticiúla	-3183
▁meánscoile	-3184
▁ndeachaigh	-3185
▁phríobháid	-3186
▁scrúduithe	-3187
▁tháirgeadh	-3188
▁tuarascáil	-3189
▁Taispeánann	-3190
▁hionfhabhtú	-3191
▁maireachtáil	-3192
▁éifeachtúlacht	-3193
▁hionfhabhtuithe	-3194
%,	-3195
35	-3196
5%	-3197
cl	-3198
dr	-3199
fá	-3200
mo	-3201
uí	-3202
anc	-3203
cdc	-3204
eit	-3205
ina	-3206
irp	-3207
lam	-3208
nan	-3209
ony	-3210
ton	-3211
tús	-3212
íbh	-3213
íde	-3214
▁bí	-3215
▁lo	-3216
▁mé	-3217
aipe	-3218
cann	-3219
imhe	-3220
ions	-3221
ithn	-3222
iuch	-3223
nigh	-3224
onta	-3225
sála	-3226
ueto	-3227
ácha	-3228
éilí	-3229
óige	-3230
▁Cor	-3231
▁Cos	-3232
▁San	-3233
▁cúl	-3234
▁has	-3235
▁lag	-3236
▁ocs	-3237
▁orf	-3238
▁orm	-3239
▁pat	-3240
▁sul	-3241
▁thú	-3242
▁tán	-3243
▁uil	-3244
▁áis	-3245
▁íoc	-3246
balta	-3247
innte	-3248
loiní	-3249
lóidh	-3250
naimh	-3251
ogene	-3252
ology	-3253
roigh	-3254
uaigh	-3255
▁2021	-3256
▁Fliú	-3257
▁Níos	-3258
▁Sula	-3259
▁agam	-3260
▁aird	-3261
▁bail	-3262
▁bean	-3263
▁haon	-3264
▁háit	-3265
▁reil	-3266
▁réas	-3267
▁shuí	-3268
▁sórt	-3269
chumas	-3270
eantar	-3271
eiceas	-3272
fraice	-3273
rafach	-3274
taíonn	-3275
thacht	-3276
éigean	-3277
éitíde	-3278
íneach	-3279
▁Scaip	-3280
▁beaga	-3281
▁ceath	-3282
▁chabh	-3283
▁deich	-3284
▁dtreo	-3285
▁dúinn	-3286
▁eitle	-3287
▁fuinn	-3288
▁léana	-3289
▁maolú	-3290
▁marbh	-3291
▁mhéid	-3292
▁tithe	-3293
▁tráth	-3294
aintíní	-3295
ealtair	-3296
eilleag	-3297
inneoin	-3298
itheach	-3299
uetooth	-3300
▁Tugadh	-3301
▁antash	-3302
▁bhrath	-3303
▁breath	-3304
▁eitilt	-3305
▁fheabh	-3306
▁hoifig	-3307
▁polait	-3308
▁seomra	-3309
▁tagtha	-3310
achtarán	-3311
ostaithe	-3312
teachais	-3313
▁Casacht	-3314
▁airgead	-3315
▁braisle	-3316
▁ciarsúr	-3317
▁dhaonra	-3318
▁dtabhar	-3319
▁gcuirfí	-3320
▁iomarca	-3321
▁neamhch	-3322
▁príomha	-3323
▁speicis	-3324
aithníodh	-3325
darsnacht	-3326
eachtanna	-3327
phataigin	-3328
▁Bunaithe	-3329
▁ainneoin	-3330
▁hafraice	-3331
▁imscrúdú	-3332
▁iontaofa	-3333
▁oibríonn	-3334
▁reiligiú	-3335
▁seachain	-3336
▁speiceas	-3337
tarchurtha	-3338
▁ainmnithe	-3339
▁ardriosca	-3340
▁bhformhór	-3341
▁caithfidh	-3342
▁dhiagnóis	-3343
▁dromchlaí	-3344
▁faisnéise	-3345
▁fhaisnéis	-3346
▁fhianaise	-3347
▁laethanta	-3348
▁pleananna	-3349
▁Úsáideann	-3350
▁úsáidtear	-3351
▁Comharthaí	-3352
▁bhainistiú	-3353
▁múinteoirí	-3354
▁nochtaithe	-3355
▁roghnaíonn	-3356
▁scaoileadh	-3357
▁sheachtain	-3358
▁sláintiúla	-3359
▁taifeadadh	-3360
▁thógálacha	-3361
▁cuairteanna	-3362
▁dteastaíonn	-3363
▁idirghníomh	-3364
▁máinliachta	-3365
▁núicléitíde	-3366
▁saotharlann	-3367
▁sláinteachas	-3368
.0	-3369
16	-3370
17	-3371
27	-3372
57	-3373
6%	-3374
92	-3375
be	-3376
fe	-3377
ps	-3378
tt	-3379
ve	-3380
úb	-3381
-20	-3382
aca	-3383
ana	-3384
and	-3385
ent	-3386
ibé	-3387
lta	-3388
lío	-3389
man	-3390
nea	-3391
sin	-3392
thr	-3393
▁Br	-3394
▁ca	-3395
▁ct	-3396
▁cy	-3397
▁gu	-3398
▁ii	-3399
aidr	-3400
aoir	-3401
eata	-3402
eoga	-3403
eoil	-3404
fíor	-3405
iach	-3406
iche	-3407
lais	-3408
ligh	-3409
líon	-3410
ragh	-3411
raid	-3412
túil	-3413
áint	-3414
éara	-3415
▁4,7	-3416
▁Seo	-3417
▁adh	-3418
▁bis	-3419
▁cel	-3420
▁cin	-3421
▁céa	-3422
▁dhó	-3423
▁him	-3424
▁icu	-3425
▁int	-3426
▁iol	-3427
▁lon	-3428
▁mem	-3429
▁prá	-3430
▁sol	-3431
▁sub	-3432
▁une	-3433
ainní	-3434
chtúr	-3435
ithre	-3436
ríomh	-3437
seach	-3438
uaisc	-3439
óthar	-3440
▁Mhol	-3441
▁aipe	-3442
▁brus	-3443
▁char	-3444
▁cong	-3445
▁deis	-3446
▁dona	-3447
▁drom	-3448
▁díol	-3449
▁hong	-3450
▁leas	-3451
▁mian	-3452
▁ndún	-3453
▁ordú	-3454
▁phac	-3455
▁phyl	-3456
▁póil	-3457
▁tras	-3458
agairt	-3459
amaigh	-3460
eanach	-3461
eirthe	-3462
inneas	-3463
iomlán	-3464
▁Galar	-3465
▁Téigh	-3466
▁caint	-3467
▁ceana	-3468
▁cumas	-3469
▁cóiré	-3470
▁dhíth	-3471
▁dóigh	-3472
▁fhonn	-3473
▁féadf	-3474
▁haipe	-3475
▁lucht	-3476
▁mhair	-3477
▁miond	-3478
▁nithe	-3479
▁oíche	-3480
▁páirt	-3481
▁réidh	-3482
▁sular	-3483
▁titim	-3484
▁uasló	-3485
aoinigh	-3486
eabhrac	-3487
íneacha	-3488
▁Cuairt	-3489
▁Spreag	-3490
▁aeráil	-3491
▁comhch	-3492
▁céatad	-3493
▁dtéann	-3494
▁ionann	-3495
▁molann	-3496
▁orainn	-3497
▁phlean	-3498
▁smacht	-3499
▁thuras	-3500
▁unesco	-3501
▁éirigh	-3502
ogenetic	-3503
ospidéal	-3504
róitéine	-3505
sclaíodh	-3506
▁Scaradh	-3507
▁Tástáil	-3508
▁bainist	-3509
▁biseach	-3510
▁chonair	-3511
▁chuaigh	-3512
▁coicíse	-3513
▁coiscth	-3514
▁eabhrac	-3515
▁héirinn	-3516
▁leanann	-3517
▁marfach	-3518
▁measúnú	-3519
▁nasctha	-3520
▁oscailt	-3521
▁pangóil	-3522
▁tabhair	-3523
▁úrscéal	-3524
ardriosca	-3525
bhunaithe	-3526
eadúlacht	-3527
uaireanta	-3528
▁Baineadh	-3529
▁Cuirfidh	-3530
▁beartais	-3531
▁bialanna	-3532
▁comhairl	-3533
▁céadaoin	-3534
▁eorpacha	-3535
▁homology	-3536
▁laethúil	-3537
▁ndéanfaí	-3538
▁seiceáil	-3539
▁thorthaí	-3540
▁trialach	-3541
ghabhálach	-3542
iarmhairtí	-3543
▁Cabhróidh	-3544
▁aclaíocht	-3545
▁bluetooth	-3546
▁bunscoile	-3547
▁ceadaithe	-3548
▁chuirtear	-3549
▁coimeádta	-3550
▁fhoghlaim	-3551
▁gníomhach	-3552
▁mheiriceá	-3553
▁mheithimh	-3554
▁oifigiúla	-3555
▁oiriúnach	-3556
▁páirteach	-3557
▁riarachán	-3558
▁slaghdáin	-3559
cheisteanna	-3560
▁géiniteach	-3561
▁tacaíochta	-3562
thábhachtach	-3563
▁bhfaigheann	-3564
▁chleachtadh	-3565
▁comhaireamh	-3566
▁cuairteoirí	-3567
▁institiúidí	-3568
▁theaghlaigh	-3569
▁leochaileach	-3570
▁mheánoirthir	-3571
▁phylogenetic	-3572
▁saineolaithe	-3573
▁ghníomhaíocht	-3574
▁leitheadúlacht	-3575
▁teachtaireacht	-3576
▁fheidhmeannacht	-3577
▁príomhoifigeach	-3578
12	-3579
39	-3580
58	-3581
bú	-3582
▁y	-3583
500	-3584
ace	-3585
afa	-3586
ibe	-3587
maí	-3588
pcr	-3589
rar	-3590
rop	-3591
tok	-3592
ímh	-3593
óin	-3594
▁33	-3595
▁43	-3596
▁To	-3597
▁rí	-3598
earc	-3599
fort	-3600
iarr	-3601
ilip	-3602
inch	-3603
labh	-3604
mpor	-3605
ruth	-3606
sius	-3607
thír	-3608
tóga	-3609
áidí	-3610
éire	-3611
éise	-3612
▁80%	-3613
▁Gan	-3614
▁and	-3615
▁cla	-3616
▁fia	-3617
▁nao	-3618
▁rté	-3619
▁tcm	-3620
aidis	-3621
chlár	-3622
eolaí	-3623
iripe	-3624
sanna	-3625
taobh	-3626
▁9.30	-3627
▁Forb	-3628
▁cuar	-3629
▁dtír	-3630
▁dtóg	-3631
▁dúsh	-3632
▁físe	-3633
▁goir	-3634
▁holo	-3635
▁iobú	-3636
▁iona	-3637
▁laid	-3638
▁lorg	-3639
▁léar	-3640
▁mair	-3641
▁rach	-3642
▁sins	-3643
▁thac	-3644
▁tony	-3645
aiméar	-3646
aoiniú	-3647
chúrsa	-3648
faimid	-3649
imheas	-3650
iotóga	-3651
iseamh	-3652
rasóil	-3653
ránach	-3654
tokine	-3655
túrtha	-3656
éadann	-3657
▁Cháin	-3658
▁Roghn	-3659
▁camel	-3660
▁ceadú	-3661
▁chaoi	-3662
▁droch	-3663
▁feabh	-3664
▁gabhd	-3665
▁gcúis	-3666
▁inter	-3667
▁ionch	-3668
▁iontr	-3669
▁leaba	-3670
▁mhodh	-3671
▁nuabh	-3672
▁páirc	-3673
▁riamh	-3674
▁scála	-3675
▁súile	-3676
aisteal	-3677
aithigh	-3678
eineafó	-3679
iteacha	-3680
ithníní	-3681
ruchtúr	-3682
▁Daoine	-3683
▁Sonraí	-3684
▁bheadh	-3685
▁bhuail	-3686
▁boladh	-3687
▁chreid	-3688
▁comhsh	-3689
▁fhéile	-3690
▁ghearr	-3691
▁guaise	-3692
▁margaí	-3693
▁moltar	-3694
▁ngalar	-3695
▁nuacht	-3696
▁salach	-3697
▁teirip	-3698
▁thairg	-3699
▁ullmhú	-3700
▁ábalta	-3701
▁óstáil	-3702
aitheach	-3703
mpordach	-3704
próitéin	-3705
áirteach	-3706
▁Gabhadh	-3707
▁bhealaí	-3708
▁celsius	-3709
▁cúrsála	-3710
▁gcéanna	-3711
▁gnéithe	-3712
▁holohan	-3713
▁idirlín	-3714
▁innéacs	-3715
▁leabhar	-3716
▁láithre	-3717
▁measadh	-3718
▁meáchan	-3719
▁neamhsp	-3720
▁pháirtí	-3721
▁rabhadh	-3722
▁síneadh	-3723
▁theacht	-3724
▁uathúil	-3725
fhoghlama	-3726
uaisceart	-3727
▁ceathrar	-3728
▁cytokine	-3729
▁cáineadh	-3730
▁eisiúint	-3731
▁nochtadh	-3732
▁náisiúin	-3733
▁núíosach	-3734
▁ranganna	-3735
▁sceideal	-3736
▁siomptóm	-3737
aidisiúnta	-3738
aighdeoirí	-3739
aiméaráise	-3740
▁Caithfidh	-3741
▁Roghnaigh	-3742
▁bhféadfaí	-3743
▁cheannach	-3744
▁cumarsáid	-3745
▁céimnithe	-3746
▁dhiúltach	-3747
▁difríocht	-3748
▁faoiseamh	-3749
▁fhiabhras	-3750
▁héifeacht	-3751
▁measartha	-3752
▁oifigeach	-3753
▁oifigiúil	-3754
▁próitéine	-3755
▁saoránach	-3756
▁toirmeasc	-3757
▁tseirbhís	-3758
▁tuairiscí	-3759
ghabhálacha	-3760
▁ceisteanna	-3761
▁coraintíní	-3762
▁institiúid	-3763
▁laidineach	-3764
▁macasamhlú	-3765
▁paisinéirí	-3766
▁randamacha	-3767
▁thrialacha	-3768
▁tuairisciú	-3769
▁tuarascála	-3770
▁fhaireachas	-3771
▁nuabheirthe	-3772
ionfhabhtuithe	-3773
▁sainaithníodh	-3774
teistiméireachta	-3775
▁antaibheathaigh	-3776
▁saincheisteanna	-3777
▁éifeachtúlachta	-3778
30	-3779
45	-3780
53	-3781
69	-3782
74	-3783
91	-3784
av	-3785
ay	-3786
óp	-3787
100	-3788
aiw	-3789
amp	-3790
ane	-3791
ash	-3792
caí	-3793
irg	-3794
mha	-3795
oph	-3796
par	-3797
uro	-3798
óga	-3799
▁39	-3800
▁99	-3801
▁be	-3802
▁ib	-3803
▁km	-3804
▁ma	-3805
▁rb	-3806
▁us	-3807
aígh	-3808
eodh	-3809
intí	-3810
istí	-3811
lána	-3812
náth	-3813
róir	-3814
ínte	-3815
▁Bhu	-3816
▁bac	-3817
▁bru	-3818
▁clu	-3819
▁cód	-3820
▁ghá	-3821
▁héa	-3822
▁mbr	-3823
▁mon	-3824
▁org	-3825
▁rad	-3826
▁rat	-3827
▁río	-3828
▁spr	-3829
▁tam	-3830
▁tap	-3831
▁tra	-3832
aiwan	-3833
asana	-3834
brane	-3835
caigh	-3836
chair	-3837
dlata	-3838
ealla	-3839
eimic	-3840
eithe	-3841
eomra	-3842
icind	-3843
ictiú	-3844
iltír	-3845
iocht	-3846
iteas	-3847
laidh	-3848
láine	-3849
neach	-3850
olait	-3851
thain	-3852
éanta	-3853
▁Cuid	-3854
▁Oibr	-3855
▁Seas	-3856
▁atru	-3857
▁bhfo	-3858
▁bord	-3859
▁buid	-3860
▁cibé	-3861
▁cáil	-3862
▁eala	-3863
▁fhan	-3864
▁fuar	-3865
▁hard	-3866
▁hind	-3867
▁inar	-3868
▁long	-3869
▁mara	-3870
▁mhná	-3871
▁pail	-3872
▁post	-3873
▁réit	-3874
▁saol	-3875
▁stoc	-3876
▁sách	-3877
▁tasc	-3878
aigine	-3879
aiginí	-3880
bhaint	-3881
ghalrú	-3882
gneamh	-3883
náithe	-3884
uairim	-3885
▁Ansin	-3886
▁Duine	-3887
▁Fógra	-3888
▁alcól	-3889
▁atreo	-3890
▁baill	-3891
▁bhail	-3892
▁breis	-3893
▁ceang	-3894
▁choim	-3895
▁dheas	-3896
▁dhiúl	-3897
▁dhíol	-3898
▁gcóir	-3899
▁ghéin	-3900
▁gnéas	-3901
▁gréas	-3902
▁inniu	-3903
▁laghd	-3904
▁litir	-3905
▁mothú	-3906
▁ngall	-3907
▁poist	-3908
▁scéim	-3909
▁triúr	-3910
eantais	-3911
eálacha	-3912
eánacha	-3913
iantúil	-3914
illithe	-3915
isteach	-3916
ivíreas	-3917
oblacht	-3918
teritis	-3919
éileáil	-3920
▁aigéad	-3921
▁amharc	-3922
▁atáirg	-3923
▁	-3924
a	-3925
i	-3926
h	-3927
n	-3928
r	-3929
e	-3930
t	-3931
s	-3932
o	-3933
c	-3934
l	-3935
d	-3936
g	-3937
á	-3938
m	-3939
u	-3940
í	-3941
b	-3942
f	-3943
é	-3944
ú	-3945
ó	-3946
.	-3947
,	-3948
p	-3949
v	-3950
-	-3951
1	-3952
2	-3953
0	-3954
9	-3955
T	-3956
’	-3957
C	-3958
3	-3959
D	-3960
4	-3961
A	-3962
I	-3963
M	-3964
5	-3965
)	-3966
(	-3967
N	-3968
B	-3969
6	-3970
8	-3971
7	-3972
S	-3973
w	-3974
:	-3975
F	-3976
L	-3977
y	-3978
G	-3979
%	-3980
"	-3981
/	-3982
k	-3983
z	-3984
“	-3985
R	-3986
;	-3987
”	-3988
'	-3989
–	-3990
j	-3991
O	-3992
x	-3993
P	-3994
?	-3995
Ú	-3996
