<pad>	0
</s>	0
<unk>	0
¦	-1.15
▁¦	-1.64084
▁	-2.79329
𐋇	-3.23216
s	-3.91213
the	-3.93018
▁.	-4.27083
▁,	-4.41846
of	-4.75684
ed	-4.81106
in	-4.81782
to	-4.86887
a	-4.87951
ing	-5.17385
and	-5.1965
is	-5.33555
be	-5.47375
th	-5.6029
at	-5.67022
𐊼	-5.71863
𐊣	-5.71863
y	-5.74219
on	-5.81937
for	-5.92866
t	-6.10171
are	-6.10765
ly	-6.11501
-	-6.14099
corona	-6.16107
has	-6.21697
d	-6.2575
▁'	-6.27558
have	-6.30616
en	-6.30974
with	-6.34462
vaccine	-6.47605
it	-6.49112
will	-6.49852
from	-6.5245
as	-6.52477
patient	-6.58113
not	-6.5854
was	-6.63712
by	-6.65796
w	-6.69424
n	-6.70057
or	-6.73721
state	-6.74938
e	-6.78635
pe	-6.83655
▁"	-6.85308
government	-6.87254
an	-6.87915
said	-6.89529
covid	-6.90162
ople	-6.90673
there	-6.91336
day	-6.94256
health	-6.97174
▁(	-6.99691
lso	-7.04271
al	-7.05125
se	-7.11362
i	-7.13502
number	-7.13899
but	-7.14447
virus	-7.15895
he	-7.16888
were	-7.17153
▁?	-7.19579
we	-7.21068
can	-7.24748
other	-7.25346
-19¦	-7.27651
after	-7.27817
one	-7.27919
hospital	-7.28643
if	-7.28892
minister	-7.30141
who	-7.33391
ies	-7.33831
should	-7.37352
thi	-7.38589
had	-7.40281
how	-7.4164
test	-7.41719
r	-7.449
v	-7.45024
us	-7.46282
all	-7.48495
you	-7.48596
oxygen	-7.48771
c	-7.48919
▁)	-7.50188
co	-7.50444
some	-7.51293
maha	-7.53127
ir	-7.55465
rashtr	-7.55703
india	-7.56006
more	-7.56406
▁:	-7.56463
infection	-7.57441
no	-7.58148
so	-7.5994
abou	-7.61663
lockdown	-7.6315
case	-7.6361
vaccination	-7.63757
out	-7.64654
time	-7.66188
say	-7.66235
many	-7.6704
may	-7.67485
es	-7.67696
dr	-7.69971
year	-7.71093
than	-7.71705
disease	-7.72613
new	-7.73969
district	-7.78038
what	-7.78769
er	-7.80973
work	-7.82953
ity	-7.83987
according	-7.85566
country	-7.86119
per	-7.86858
take	-7.87329
do	-7.87419
center	-7.87958
use	-7.88248
being	-7.88388
high	-7.88556
hich	-7.90316
hile	-7.92833
first	-7.9309
last	-7.9551
increase	-7.9656
spread	-7.96849
two	-7.9698
second	-7.97185
found	-7.99416
world	-7.99725
up	-7.99829
such	-8.00154
when	-8.01171
ever	-8.01181
under	-8.01762
m	-8.01931
symptom	-8.03437
due	-8.03487
go	-8.0427
march	-8.04556
sars	-8.0466
school	-8.05234
like	-8.06824
hand	-8.07041
any	-8.07897
cause	-8.08205
need	-8.09123
start	-8.09173
dur	-8.09446
mumbai	-8.10334
children	-8.10344
over	-8.10866
home	-8.11051
chief	-8.11543
death	-8.11544
medical	-8.12123
coronavirus	-8.13563
doctor	-8.13738
infect	-8.14545
now	-8.15418
give	-8.16057
situation	-8.16235
april	-8.18021
▁¦2020¦	-8.18463
dose	-8.19133
treatment	-8.19371
wave	-8.20102
.	-8.21262
sh	-8.22026
every	-8.22148
his	-8.22917
public	-8.2383
even	-8.24596
ill	-8.24698
countries	-8.25501
system	-8.25626
care	-8.26485
your	-8.26729
wh	-8.28487
available	-8.28604
ose	-8.29212
person	-8.29331
most	-8.30339
risk	-8.30917
ce	-8.31382
get	-8.32208
agains	-8.33691
mask	-8.34501
b	-8.35837
come	-8.36565
st	-8.36576
ion	-8.36671
rate	-8.36905
develop	-8.37132
l	-8.37924
hav	-8.38176
o	-8.38812
pune	-8.3916
cent	-8.39352
di	-8.39512
current	-8.40111
through	-8.40432
vaccinat	-8.41159
restriction	-8.41404
re	-8.41572
▁¦10	-8.41924
where	-8.42085
includ	-8.4245
chin	-8.42743
▁."	-8.42781
worker	-8.43775
effective	-8.45053
formation	-8.45234
age	-8.45809
our	-8.45886
acker	-8.46013
made	-8.46044
human	-8.46068
reported	-8.47137
large	-8.47435
ay	-8.47555
tak	-8.47676
way	-8.48565
well	-8.49538
area	-8.49869
place	-8.50128
outbreak	-8.50247
-2	-8.51318
beds	-8.51946
contact	-8.52029
▁;	-8.52585
ment	-8.52843
able	-8.53413
central	-8.53846
control	-8.54645
them	-8.55103
report	-8.5518
follow	-8.55713
ould	-8.56394
ation	-8.56778
lakh	-8.57226
drug	-8.57511
know	-8.57947
bas	-8.58385
student	-8.59148
level	-8.59149
important	-8.60321
call	-8.60609
announc	-8.60734
,000	-8.60792
month	-8.61918
municipal	-8.62706
long	-8.63666
g	-8.63904
administration	-8.63946
its	-8.6403
did	-8.64056
service	-8.64329
allow	-8.64812
unit	-8.65146
▁¦1¦	-8.65496
testing	-8.65671
affect	-8.65978
▁).	-8.67043
hour	-8.67696
same	-8.68102
▁-	-8.68201
demand	-8.68505
positive	-8.6852
citizens	-8.68905
education	-8.69361
round	-8.69772
body	-8.69786
data	-8.69826
part	-8.70012
travel	-8.70707
ether	-8.70758
respirator	-8.71102
et	-8.71207
decision	-8.71976
supply	-8.71976
increasing	-8.72418
few	-8.72422
p	-8.72427
prevent	-8.73256
does	-8.73424
million	-8.7376
ve	-8.73937
ry	-8.74015
before	-8.741
help	-8.7428
question	-8.7466
meeting	-8.7475
twee	-8.75168
rs	-8.75479
udd	-8.75705
crore	-8.76031
rule	-8.76086
provide	-8.77209
hands	-8.77276
three	-8.7742
present	-8.77451
department	-8.77887
set	-8.77943
order	-8.78328
mean	-8.78535
modi	-8.78835
washing	-8.79048
un	-8.79119
jan	-8.79251
de	-8.7967
social	-8.79778
▁),	-8.79961
then	-8.80078
very	-8.80172
show	-8.80699
could	-8.81294
prim	-8.82623
delhi	-8.82684
thousand	-8.82685
severe	-8.84763
me	-8.85543
private	-8.86184
since	-8.86212
emergenc	-8.8631
issue	-8.86512
trial	-8.86726
uk	-8.8673
institute	-8.86778
speak	-8.87199
organization	-8.8721
week	-8.87251
expert	-8.87723
uary	-8.88024
local	-8.88241
period	-8.88549
campaign	-8.88761
app	-8.89064
less	-8.89178
possibl	-8.89645
2¦	-8.8981
different	-8.89811
clos	-8.90669
include	-8.90763
bb	-8.91598
sample	-8.91623
ask	-8.91801
open	-8.91975
study	-8.93029
office	-8.93285
low	-8.93298
make	-8.93456
though	-8.93514
research	-8.93632
shortage	-8.94142
ten	-8.94538
ic	-8.94602
police	-8.94733
line	-8.95086
far	-8.95238
wide	-8.95243
national	-8.9536
don	-8.9539
effect	-8.95779
endra	-8.95801
thing	-8.96256
phase	-8.96371
ive	-8.96521
/	-8.97161
le	-8.97195
fore	-8.97196
ld	-8.9726
rapid	-8.98632
ous	-8.98795
clinical	-8.99223
company	-9.00166
est	-9.00206
general	-9.0041
grow	-9.00966
ness	-9.01005
both	-9.01071
ministr	-9.01561
lance	-9.02311
change	-9.02399
four	-9.02765
giv	-9.0332
february	-9.03353
universit	-9.03353
union	-9.0399
,	-9.04255
quarantine	-9.04266
tion	-9.0467
reason	-9.04712
wom	-9.04842
blood	-9.05183
man	-9.05346
close	-9.05476
continue	-9.05988
reach	-9.06188
measures	-9.06214
▁¦12	-9.07041
recommend	-9.07655
reduce	-9.07776
among	-9.08309
ural	-9.0885
am	-9.08882
pandemic	-9.08945
sever	-9.08967
village	-9.09586
regard	-9.10231
total	-9.10338
▁¦2¦	-9.1067
back	-9.10878
ventilator	-9.10906
k	-9.11449
avoid	-9.11537
try	-9.11885
surveil	-9.12192
third	-9.12199
u	-9.12277
▁¦6	-9.12293
complete	-9.12555
▁¦50	-9.13362
came	-9.13596
direct	-9.1381
market	-9.14192
response	-9.14192
air	-9.14517
my	-9.14704
transmission	-9.14869
done	-9.1494
heart	-9.15604
become	-9.15793
cit	-9.16125
contain	-9.16562
na	-9.16869
down	-9.17046
much	-9.17618
result	-9.17702
she	-9.17789
him	-9.17893
essential	-9.18316
keep	-9.1832
treat	-9.18322
indian	-9.18959
▁¦30	-9.18965
population	-9.19021
media	-9.19123
ary	-9.19601
problem	-9.19729
▁¦15¦	-9.19782
5¦	-9.1999
pur	-9.20186
here	-9.20194
again	-9.20301
force	-9.20429
kovid	-9.20464
▁¦5¦	-9.20599
impos	-9.20799
rum	-9.20821
raje	-9.20949
conduct	-9.21174
five	-9.21175
percent	-9.21196
family	-9.21304
8¦	-9.21573
ers	-9.21722
coming	-9.2174
corporation	-9.21888
soap	-9.21888
ance	-9.22381
early	-9.22451
process	-9.22591
limit	-9.22598
stay	-9.22685
producti	-9.22708
further	-9.23353
relative	-9.23365
fever	-9.23379
hc	-9.2342
nex	-9.23663
▁¦3¦	-9.24636
9¦	-9.24758
nagpur	-9.2484
type	-9.24973
group	-9.25076
approv	-9.2536
confirm	-9.25592
water	-9.25602
end	-9.26193
difficult	-9.26349
medicine	-9.26371
shop	-9.26379
pm	-9.27151
serious	-9.27163
development	-9.27433
la	-9.27441
officer	-9.27525
1¦	-9.27703
relat	-9.27845
similar	-9.27882
crisi	-9.28628
fight	-9.28651
global	-9.28657
▁¦20¦	-9.28765
pain	-9.28817
support	-9.2901
ches	-9.29178
register	-9.29438
passenger	-9.29438
chinese	-9.29439
face	-9.29486
release	-9.2956
acros	-9.29638
▁¦11	-9.30069
fire	-9.30228
president	-9.3023
conditions	-9.30438
bat	-9.30453
immediate	-9.3102
half	-9.3102
remain	-9.31034
learn	-9.31355
kar	-9.31492
good	-9.31827
small	-9.32141
action	-9.32612
lung	-9.32686
distance	-9.33155
exam	-9.33385
▁¦24¦	-9.33663
facilit	-9.34162
transport	-9.34259
nar	-9.34573
cell	-9.34587
concern	-9.35085
parent	-9.35598
each	-9.35688
staff	-9.35918
animal	-9.35919
4¦	-9.36167
want	-9.36617
strict	-9.36716
strain	-9.36746
practice	-9.36957
▁¦19¦	-9.36972
sure	-9.37331
free	-9.37609
admitted	-9.37617
addition	-9.3774
lack	-9.37795
six	-9.37851
old	-9.37867
into	-9.37961
non	-9.38433
common	-9.38465
touch	-9.38469
proper	-9.38473
▁¦4¦	-9.38514
wear	-9.38522
sent	-9.38658
tope	-9.38896
self	-9.39155
college	-9.39337
tory	-9.39708
protect	-9.39801
critical	-9.40224
uhan	-9.40272
dai	-9.40671
leas	-9.40906
fa	-9.40976
epidemic	-9.4107
claim	-9.41155
vs	-9.4132
condition	-9.41405
major	-9.41955
young	-9.41957
task	-9.42337
see	-9.42639
injection	-9.42852
night	-9.42932
monitor	-9.43749
host	-9.43819
inform	-9.43967
▁¦7	-9.44125
war	-9.44292
gett	-9.44435
closures	-9.44502
implement	-9.44638
her	-9.44677
class	-9.44735
community	-9.44771
▁¦18	-9.44779
jun	-9.45027
il	-9.4528
remedesivir	-9.45575
7¦	-9.45624
house	-9.4614
safety	-9.46501
covac	-9.4651
cough	-9.46546
f	-9.46806
head	-9.47425
examination	-9.47438
food	-9.47442
clear	-9.47623
plan	-9.47649
immune	-9.48389
plann	-9.48393
prade	-9.48399
happen	-9.48458
shield	-9.48479
active	-9.48494
ok	-9.48989
mers	-9.49208
pass	-9.49344
flu	-9.50048
weeks	-9.50197
icu	-9.50248
look	-9.50299
form	-9.50474
factor	-9.50526
receiv	-9.5114
capacit	-9.51264
election	-9.51279
um	-9.51932
companie	-9.51972
▁¦14¦	-9.51997
antibod	-9.51999
evidence	-9.52244
return	-9.52254
marath	-9.52398
requir	-9.52441
director	-9.52452
ical	-9.52581
3¦	-9.52793
hel	-9.5288
mutation	-9.53238
board	-9.53242
right	-9.53306
ke	-9.53443
cost	-9.53451
consider	-9.53554
ace	-9.53643
▁¦100	-9.53649
bjp	-9.54235
guideline	-9.54238
bharat	-9.54269
talk	-9.54283
▁!	-9.54398
h	-9.5508
crowd	-9.55218
cold	-9.5566
side	-9.55896
results	-9.5614
breath	-9.56198
south	-9.56262
big	-9.56263
protein	-9.56264
amravati	-9.56265
expected	-9.56393
li	-9.56789
produce	-9.56923
ning	-9.56949
stage	-9.57132
tweet	-9.57264
discuss	-9.57272
variant	-9.57297
cities	-9.574
gan	-9.58288
project	-9.58311
biotech	-9.58335
december	-9.58337
court	-9.58338
studie	-9.58338
special	-9.5877
ma	-9.58891
▁¦16	-9.59363
statistic	-9.5939
check	-9.5939
genome	-9.59391
europe	-9.59393
letter	-9.59401
deliver	-9.59428
train	-9.59432
outside	-9.5944
viral	-9.5944
safe	-9.59479
term	-9.59607
een	-9.59615
pawa	-9.60132
cute	-9.60435
express	-9.60456
name	-9.60521
lives	-9.60871
00¦	-9.61001
post	-9.61182
fear	-9.61535
seem	-9.61759
room	-9.626
visit	-9.6263
italy	-9.62661
mort	-9.63125
ally	-9.63247
vaccinate	-9.63363
ially	-9.63422
require	-9.63424
authorit	-9.63969
suggest	-9.64802
ra	-9.6481
taluka	-9.64826
detect	-9.64826
think	-9.64855
times	-9.65222
va	-9.6523
j	-9.66021
store	-9.66034
begin	-9.66057
▁,"	-9.66153
diseases	-9.66267
provid	-9.66412
recover	-9.66477
anti	-9.66865
kit	-9.66914
con	-9.6692
polic	-9.66974
survey	-9.67086
sector	-9.67086
figure	-9.67086
front	-9.67086
▁¦200	-9.67126
recent	-9.67166
challenge	-9.67326
news	-9.67371
officials	-9.67478
add	-9.67607
find	-9.67684
put	-9.67795
espec	-9.67892
appear	-9.6823
mild	-9.68238
specific	-9.68246
international	-9.68246
enter	-9.68251
own	-9.68523
declin	-9.68907
leader	-9.68978
necessar	-9.69382
record	-9.69399
industr	-9.69399
ough	-9.69659
full	-9.70099
olation	-9.70154
considered	-9.70458
lead	-9.70526
alcohol	-9.70575
negative	-9.70575
pneumonia	-9.70575
life	-9.70578
review	-9.70592
experience	-9.70704
rna	-9.70903
others	-9.70923
needs	-9.71216
pr	-9.71374
decid	-9.71493
“	-9.71765
short	-9.71821
stock	-9.72988
later	-9.73012
gp	-9.73018
political	-9.73038
wash	-9.7388
fund	-9.74181
event	-9.74189
pfizer	-9.74189
secretary	-9.74192
step	-9.7423
illness	-9.74244
stop	-9.74281
ture	-9.74292
initial	-9.74561
dry	-9.74573
run	-9.75079
hi	-9.75342
effort	-9.75424
senior	-9.75424
suspect	-9.75424
business	-9.75424
child	-9.75427
economic	-9.75439
0¦	-9.75492
raj	-9.75618
kill	-9.7568
chain	-9.75742
influenza	-9.76674
▁%)	-9.76674
sanitizer	-9.76714
lot	-9.76881
▁¦2019	-9.76977
drugs	-9.7699
estimate	-9.77393
let	-9.77859
stor	-9.78331
undergo	-9.78355
id	-9.78421
nagar	-9.78464
drop	-9.7869
clean	-9.79192
ty	-9.79219
september	-9.79222
publish	-9.79222
extend	-9.79308
great	-9.79318
healthcare	-9.79661
▁¦2021¦	-9.79666
suffer	-9.80521
answer	-9.80521
impact	-9.80521
employee	-9.80523
infectious	-9.80524
flight	-9.80526
uttar	-9.80532
waste	-9.80837
produc	-9.81385
creat	-9.81748
cdc	-9.81874
commissioner	-9.81947
soon	-9.82001
6	-9.82043
ight	-9.82265
inter	-9.82398
ar	-9.82614
oxford	-9.8317
spite	-9.83171
stress	-9.83171
team	-9.83178
just	-9.83197
main	-9.83529
manage	-9.8369
additional	-9.84314
commission	-9.84408
once	-9.84475
member	-9.84498
societ	-9.84521
▁¦60	-9.84755
rise	-9.84839
collect	-9.84852
▁¦25	-9.85332
cur	-9.8547
example	-9.85891
earlie	-9.85891
application	-9.85892
syndrome	-9.85895
instruction	-9.859
tter	-9.85901
astra	-9.85915
financial	-9.85916
abo	-9.85992
date	-9.86249
individuals	-9.86473
bio	-9.8727
off	-9.87299
fill	-9.87379
▁”	-9.87848
▁'.	-9.88278
pre	-9.88296
temperature	-9.88688
maintain	-9.88689
hotel	-9.88691
technolog	-9.88692
sick	-9.88849
tri	-9.88907
bo	-9.89015
jit	-9.89227
statement	-9.89261
supplie	-9.89482
▁¦8	-9.89889
significant	-9.90125
already	-9.90182
navi	-9.90312
laboratory	-9.90314
pay	-9.90765
live	-9.9085
unti	-9.90915
slow	-9.91094
genetic	-9.91567
▁¦40¦	-9.91569
association	-9.91585
scientist	-9.91585
single	-9.91596
issu	-9.91656
▁¦45	-9.9181
toll	-9.91841
near	-9.91888
leaders	-9.92155
rais	-9.92296
dep	-9.92678
view	-9.93009
zeneca	-9.93037
previous	-9.93037
symptomatic	-9.93037
minute	-9.93038
appeal	-9.93052
curfew	-9.93054
past	-9.93074
perform	-9.93089
▁¦17	-9.9362
manufactur	-9.93874
chang	-9.93928
▁¦22	-9.94028
official	-9.94207
vari	-9.94485
option	-9.945
pcr	-9.94529
committee	-9.9453
kumar	-9.94543
stopp	-9.94828
nurse	-9.9489
real	-9.94932
uty	-9.95695
diagnos	-9.9598
victim	-9.96044
region	-9.96044
permission	-9.96062
must	-9.96099
manda	-9.96111
▁/	-9.97259
▁¦28	-9.97412
aid	-9.97465
west	-9.9757
benefit	-9.97583
lower	-9.97585
discussion	-9.97618
went	-9.9772
trac	-9.9789
virolog	-9.9796
rsc	-9.98006
create	-9.98022
too	-9.98024
▁".	-9.98361
ful	-9.98381
ne	-9.98393
compar	-9.98487
rc	-9.98546
rious	-9.9866
writ	-9.98757
primar	-9.98878
▁¦31¦	-9.98959
tic	-9.99044
protocol	-9.99145
hygien	-9.99146
point	-9.99146
exposure	-9.99146
solution	-9.99146
card	-9.99153
journalist	-9.99158
phe	-9.99285
collector	-9.99291
identifi	-9.99341
role	-9.99446
decide	-9.99511
dis	-9.99636
save	-9.99911
feel	-10.0017
mor	-10.0041
car	-10.0052
fast	-10.0064
video	-10.0073
usual	-10.0074
pal	-10.0076
sunday	-10.0079
tanker	-10.0079
mmunity	-10.0084
caus	-10.0102
nation	-10.015
german	-10.0158
lef	-10.0162
fu	-10.0187
abilit	-10.0227
agenc	-10.0255
antibody	-10.029
personal	-10.0315
inciden	-10.0316
ka	-10.0317
ilit	-10.0325
ppe	-10.0339
mela	-10.036
covi	-10.036
famil	-10.0367
opposi	-10.0369
potential	-10.0376
ship	-10.0393
friday	-10.0398
equipment	-10.0399
contract	-10.0399
z	-10.0428
tention	-10.0438
ble	-10.0445
ivir	-10.0451
act	-10.0471
die	-10.0487
read	-10.0502
ther	-10.0549
entire	-10.0565
standard	-10.0565
chandra	-10.0566
bank	-10.0567
kumbh	-10.0568
lab	-10.0571
surface	-10.0572
ab	-10.0587
thane	-10.0593
tog	-10.063
led	-10.0636
hind	-10.0658
▁¦80	-10.0659
reduc	-10.0706
men	-10.0715
researcher	-10.0718
break	-10.073
congress	-10.0735
access	-10.0735
paper	-10.0736
matter	-10.0736
nose	-10.0741
attend	-10.0769
ovel	-10.0787
method	-10.0844
cy	-10.0866
controll	-10.0876
code	-10.0889
late	-10.0899
import	-10.0907
pressure	-10.0907
diarrhea	-10.091
leave	-10.0911
former	-10.0923
preventi	-10.0929
track	-10.0934
shik	-10.0966
finding	-10.0994
ia	-10.1043
▁¦23	-10.106
product	-10.1064
occasion	-10.1082
scale	-10.1083
exist	-10.1083
job	-10.1083
▁¦90	-10.1109
sequenc	-10.1114
deep	-10.1143
wait	-10.118
associat	-10.1199
fee	-10.1208
▁¦26	-10.1216
quin	-10.1232
danger	-10.1245
walk	-10.1246
address	-10.1261
location	-10.1261
chloro	-10.1261
exact	-10.1261
tell	-10.1288
eight	-10.1366
observ	-10.1372
prevalen	-10.1419
launch	-10.1443
patil	-10.1444
hit	-10.146
cross	-10.1476
im	-10.1484
▁¦2	-10.1507
onu	-10.1522
rt	-10.1544
particular	-10.1628
menstrua	-10.1628
material	-10.1628
responsibilit	-10.1628
antiviral	-10.1629
remedic	-10.163
liqu	-10.1631
modern	-10.1637
teacher	-10.165
final	-10.166
notice	-10.167
twi	-10.1673
fac	-10.1677
ood	-10.1692
ent	-10.1711
got	-10.1724
hug	-10.1747
–	-10.178
declar	-10.1798
religio	-10.1804
establish	-10.181
east	-10.1815
diabetes	-10.1817
statu	-10.1823
amount	-10.1827
bring	-10.1831
ago	-10.1835
building	-10.1837
sign	-10.1845
gav	-10.1882
operation	-10.1891
protecti	-10.1903
recovered	-10.1953
mr	-10.1976
occur	-10.1982
micro	-10.2009
cylinder	-10.2009
difference	-10.2009
foreign	-10.2009
average	-10.2009
criticiz	-10.2009
account	-10.2009
railway	-10.201
securit	-10.2011
table	-10.2038
ready	-10.2038
list	-10.2052
ber	-10.2084
ttle	-10.211
groups	-10.2143
send	-10.216
availab	-10.2202
econom	-10.2203
separate	-10.2204
program	-10.2204
source	-10.2204
mind	-10.2204
multi	-10.2205
schedule	-10.2205
network	-10.2206
press	-10.2209
njay	-10.2302
vira	-10.2384
vi	-10.2398
vehicle	-10.2405
scheme	-10.2405
ghar	-10.2406
ish	-10.2406
seven	-10.2444
franc	-10.2447
prepared	-10.2458
plant	-10.2471
ch	-10.248
door	-10.2534
fic	-10.259
depend	-10.2592
advi	-10.2596
season	-10.2601
mak	-10.2602
possibilit	-10.2609
stead	-10.2609
vasai	-10.261
gym	-10.261
bh	-10.2639
ily	-10.2645
remedivi	-10.2648
gi	-10.265
tru	-10.2743
ities	-10.2764
power	-10.2817
bengal	-10.2818
living	-10.2818
cabin	-10.2818
adult	-10.2818
awareness	-10.2818
distribution	-10.2819
swab	-10.2827
x	-10.2827
origin	-10.2833
tric	-10.2861
ct	-10.2878
manufacturer	-10.2888
pra	-10.2919
skin	-10.2938
bed	-10.3008
happ	-10.3016
science	-10.303
ro	-10.303
bird	-10.303
target	-10.3031
mobile	-10.3031
saturday	-10.3032
regulator	-10.3032
throat	-10.3034
natural	-10.3036
procedure	-10.3037
tensive	-10.3049
priorit	-10.3052
adar	-10.3052
update	-10.3056
ex	-10.3086
mental	-10.3089
light	-10.309
advis	-10.3105
ash	-10.3123
training	-10.3147
bacteria	-10.3192
luc	-10.3193
decreas	-10.3204
design	-10.321
certain	-10.3229
cancel	-10.323
runn	-10.3242
scienti	-10.3245
field	-10.3248
ban	-10.3248
▁¦21¦	-10.3249
lost	-10.3249
announcement	-10.3251
mla	-10.3258
normal	-10.3259
singh	-10.3263
hospitaliz	-10.3275
land	-10.3275
decrease	-10.3292
te	-10.3375
ac	-10.3382
50¦	-10.3403
detail	-10.347
mouth	-10.347
discover	-10.3479
jum	-10.3499
whole	-10.3499
super	-10.3573
brit	-10.3579
dev	-10.3625
eat	-10.3636
arsha	-10.3691
turn	-10.3695
adequate	-10.3697
vegetable	-10.3697
adapt	-10.3697
regulation	-10.3697
rtpcr	-10.3698
rahu	-10.3698
therap	-10.3699
physical	-10.37
organ	-10.3711
conference	-10.3711
hard	-10.372
incident	-10.3723
via	-10.3747
abad	-10.3805
speci	-10.3829
fact	-10.3853
kon	-10.3874
sub	-10.3883
harsh	-10.3891
laborator	-10.3898
isolat	-10.3911
play	-10.3915
korea	-10.3917
▁¦70	-10.3921
regular	-10.3924
ei	-10.3927
adhya	-10.393
hundred	-10.393
platform	-10.393
strategi	-10.393
course	-10.393
relax	-10.393
arrest	-10.393
successful	-10.393
phone	-10.3931
allegation	-10.3931
urang	-10.3931
resource	-10.3932
buy	-10.3934
digit	-10.3934
reaction	-10.3937
urban	-10.3944
price	-10.3964
count	-10.3975
octo	-10.4
distanc	-10.4013
miss	-10.4076
aim	-10.4102
kept	-10.4155
africa	-10.4155
russia	-10.4155
move	-10.4156
ward	-10.4167
privacy	-10.4168
middle	-10.4168
request	-10.4168
guardian	-10.4168
frequent	-10.4169
monday	-10.417
antigen	-10.4175
zone	-10.4178
desh	-10.4182
sell	-10.4183
model	-10.4183
sha	-10.4199
closure	-10.421
hat	-10.4235
▁¦1	-10.428
focus	-10.4338
apart	-10.4351
kwa	-10.4357
road	-10.4368
1	-10.4379
gai	-10.4395
gujarat	-10.4412
november	-10.4412
pharmaceutical	-10.4412
picture	-10.4412
attack	-10.4412
admission	-10.4412
sudden	-10.4414
careful	-10.4418
jos	-10.4439
bann	-10.445
par	-10.4453
shar	-10.4466
share	-10.4471
▁¦13	-10.4495
never	-10.4541
bodie	-10.4541
generat	-10.4542
om	-10.4555
ted	-10.4564
sale	-10.4571
distribut	-10.458
ednes	-10.4583
histor	-10.4594
double	-10.4595
confus	-10.4605
ant	-10.4608
sola	-10.4637
receptor	-10.4655
friend	-10.4662
vardhan	-10.4662
appropriate	-10.4662
export	-10.4662
delay	-10.4662
contagious	-10.4663
black	-10.4669
johns	-10.4675
explain	-10.468
mention	-10.468
station	-10.4683
approval	-10.469
ern	-10.4703
pregnan	-10.477
mother	-10.4823
approach	-10.4836
43	-10.4874
guid	-10.4885
experienc	-10.489
responsib	-10.4918
brazil	-10.4918
accept	-10.4918
constant	-10.4918
ambulance	-10.4918
mukh	-10.4919
engl	-10.4925
serolog	-10.4979
raw	-10.5011
remov	-10.5024
▁¦27¦	-10.5026
oc	-10.5035
germ	-10.5045
involve	-10.5072
damage	-10.5095
older	-10.5099
ting	-10.5111
environment	-10.5115
cil	-10.5151
presen	-10.5164
thus	-10.5167
met	-10.5169
agricultur	-10.517
respond	-10.5174
mo	-10.518
subject	-10.5181
california	-10.5181
elder	-10.5181
session	-10.5181
acid	-10.5182
29	-10.524
ages	-10.5249
mp	-10.5255
▁¦29	-10.5256
nown	-10.5266
peak	-10.5266
eu	-10.5288
esh	-10.5322
ja	-10.5355
baba	-10.5389
exercise	-10.5405
cod	-10.541
arise	-10.5411
coun	-10.5416
hyderabad	-10.5452
approximate	-10.5452
grocer	-10.5452
▁%.	-10.5452
obtain	-10.5452
exclud	-10.5452
nnes	-10.5452
chron	-10.5452
strong	-10.5454
interest	-10.5454
loss	-10.5454
hypox	-10.5455
poor	-10.546
rush	-10.5465
border	-10.5466
ase	-10.5466
rising	-10.5472
percentage	-10.5472
fall	-10.5474
overall	-10.5475
outcome	-10.5494
hu	-10.5496
pro	-10.5497
rought	-10.5514
space	-10.5523
operat	-10.5539
mone	-10.5552
ond	-10.5555
rao	-10.5574
arriv	-10.5603
thought	-10.5604
clot	-10.5605
95¦	-10.5626
tract	-10.5632
reli	-10.5658
iran	-10.5675
shank	-10.5679
hra	-10.5685
function	-10.572
bar	-10.5722
▁¦9	-10.5723
assess	-10.5727
dead	-10.5727
interact	-10.5728
poonawala	-10.5729
photo	-10.5729
spike	-10.5729
aster	-10.573
believe	-10.5731
receive	-10.5766
pat	-10.5771
rest	-10.5784
cov	-10.5791
el	-10.5833
law	-10.5851
politic	-10.5873
elimina	-10.5892
ji	-10.5902
farmer	-10.5913
drive	-10.5949
ather	-10.5956
meet	-10.5968
iz	-10.5969
progress	-10.6002
except	-10.6013
sufficient	-10.6015
restaurant	-10.6015
failure	-10.6015
medication	-10.6015
capital	-10.6015
preparation	-10.6017
adverse	-10.6017
investigation	-10.6017
investigat	-10.6017
suspend	-10.6018
section	-10.602
activity	-10.6039
speed	-10.6085
enforce	-10.6098
pai	-10.6119
involv	-10.6135
wal	-10.6157
amit	-10.6162
combination	-10.6162
ice	-10.6173
ought	-10.6233
key	-10.6234
ident	-10.6269
▁¦48	-10.6275
carri	-10.6285
intend	-10.6292
ventilat	-10.6297
ves	-10.6303
▁¦20	-10.6304
resident	-10.6308
multiple	-10.6309
expos	-10.6309
ram	-10.6309
[	-10.6309
krishna	-10.6309
simple	-10.6309
ba	-10.6309
toilet	-10.6309
vijay	-10.631
efficacy	-10.6312
inflamma	-10.6313
word	-10.6314
message	-10.6319
gathering	-10.6338
raja	-10.6341
san	-10.6343
spend	-10.6352
▁...	-10.6359
broad	-10.6362
bide	-10.6362
link	-10.6371
cm	-10.6422
vid	-10.6427
participat	-10.6434
mass	-10.6444
▁¦35	-10.6455
q	-10.6461
sistance	-10.6476
ii	-10.651
▁¦500	-10.6514
sore	-10.6514
measure	-10.6519
unk	-10.6526
urs	-10.6541
tu	-10.6553
shut	-10.6564
closing	-10.6589
mode	-10.659
ongo	-10.6596
&	-10.6612
enzyme	-10.6612
degree	-10.6612
engineer	-10.6612
sputnik	-10.6612
hong	-10.6612
wedding	-10.6612
territori	-10.6613
▁]	-10.6624
desivir	-10.6635
etc	-10.6654
impose	-10.6669
serve	-10.6744
complet	-10.6752
clarifi	-10.6754
▁¦4	-10.6773
ee	-10.6781
candidates	-10.6782
sun	-10.6785
remove	-10.6802
hear	-10.6808
nath	-10.6856
gad	-10.688
ol	-10.6884
mid	-10.6888
fda	-10.6897
gradua	-10.6906
warn	-10.6911
employ	-10.6923
domestic	-10.6925
pangolin	-10.6925
typical	-10.6925
pathogenic	-10.6926
device	-10.6926
billion	-10.6926
establishment	-10.6936
mu	-10.6943
transmitt	-10.6957
inquir	-10.6983
offer	-10.6997
dispos	-10.7004
eyes	-10.701
vas	-10.7038
13¦	-10.7047
iwal	-10.7057
decline	-10.7059
cha	-10.706
supplier	-10.7066
analysi	-10.708
lon	-10.7084
covin	-10.7104
fine	-10.7105
original	-10.7125
meter	-10.7129
rem	-10.7188
▁¦3	-10.7189
gas	-10.7194
oxy	-10.7201
du	-10.7216
exten	-10.7228
item	-10.7235
august	-10.7247
organisms	-10.7247
communication	-10.7248
shift	-10.7248
towel	-10.7248
japan	-10.7249
carry	-10.7251
lik	-10.7253
complaint	-10.7256
joint	-10.726
vacanc	-10.7295
meal	-10.7307
lly	-10.732
bad	-10.733
handle	-10.7339
pu	-10.737
kera	-10.7372
chance	-10.742
trum	-10.7422
ate	-10.7426
▁¦19	-10.7431
gue	-10.7443
han	-10.7464
king	-10.749
bc	-10.7517
harm	-10.7518
range	-10.7522
ial	-10.7522
tend	-10.7523
institution	-10.7539
win	-10.7549
red	-10.7559
base	-10.7569
postpon	-10.757
nel	-10.7571
mission	-10.758
$	-10.7581
assembl	-10.7581
colleague	-10.7581
singapore	-10.7581
husband	-10.7581
hotspot	-10.7581
alternative	-10.7581
plasm	-10.7581
extreme	-10.7581
finger	-10.7581
feder	-10.7584
implementation	-10.7588
bal	-10.7592
tourist	-10.7592
programmes	-10.7648
mis	-10.7662
tool	-10.7672
handl	-10.7674
temporar	-10.7685
riwal	-10.769
reserve	-10.7698
website	-10.7714
▁¦41	-10.7715
arrive	-10.7724
dom	-10.7765
position	-10.7797
gregation	-10.7814
pharma	-10.7857
mark	-10.7884
nc	-10.789
announce	-10.7903
threat	-10.7908
profess	-10.7923
crowds	-10.7925
#	-10.7925
funeral	-10.7925
aerosol	-10.7925
reddy	-10.7926
initiative	-10.7926
acquir	-10.7931
july	-10.7931
surg	-10.7944
actual	-10.7959
beta	-10.7962
sense	-10.7983
orrow	-10.8011
shiv	-10.8017
hope	-10.8079
ues	-10.8091
tissue	-10.81
arm	-10.8117
centre	-10.8166
cure	-10.817
determine	-10.8188
sitt	-10.82
xi	-10.8204
sequence	-10.8218
jai	-10.8236
youth	-10.8247
nce	-10.8251
australia	-10.8269
instruct	-10.828
shock	-10.8283
pediatrician	-10.8283
gandhi	-10.8283
paul	-10.8283
intervention	-10.8283
arbha	-10.8283
kovac	-10.8283
division	-10.8283
registration	-10.8283
specimen	-10.8283
unlock	-10.8284
karona	-10.8284
reduction	-10.8285
hydr	-10.8285
hospitalization	-10.8286
agent	-10.8304
communit	-10.831
fel	-10.8312
cover	-10.8312
▁¦33	-10.8336
harya	-10.835
purchase	-10.8362
boy	-10.8366
rong	-10.8405
ri	-10.8407
ail	-10.8412
candidate	-10.8448
disinfect	-10.8515
kin	-10.8516
learner	-10.8519
extra	-10.8535
sneez	-10.8548
▁¦65	-10.859
ge	-10.8594
coron	-10.86
hold	-10.8609
worse	-10.8614
tara	-10.8616
organiz	-10.8626
empt	-10.8653
angiotensin	-10.8653
kolhapur	-10.8653
chemical	-10.8653
cluster	-10.8653
membrane	-10.8653
reservoir	-10.8653
activist	-10.8653
resort	-10.8653
reveal	-10.8653
street	-10.8653
hazard	-10.8653
industrial	-10.8654
munde	-10.8655
remote	-10.8655
moment	-10.8659
easi	-10.866
comment	-10.8662
postpone	-10.8665
khada	-10.867
fatalit	-10.8671
itali	-10.8672
select	-10.8683
potentially	-10.8705
deal	-10.8716
bind	-10.8718
constructi	-10.8765
precautions	-10.8767
cho	-10.8781
user	-10.8782
controvers	-10.8795
pa	-10.8807
devot	-10.8818
quarantin	-10.8842
ory	-10.8861
nine	-10.8873
ure	-10.8901
elief	-10.8937
lt	-10.8944
dc	-10.896
63¦	-10.8963
gaon	-10.8985
kan	-10.8991
seat	-10.8998
understand	-10.9
prior	-10.9001
probabl	-10.9003
activit	-10.9005
qualit	-10.9029
vax	-10.9037
convert	-10.9038
province	-10.9038
false	-10.9038
attempt	-10.9038
ticket	-10.9038
complication	-10.9038
respective	-10.9038
british	-10.9038
machine	-10.9038
injur	-10.9041
yester	-10.9046
nawa	-10.9047
recommendation	-10.905
▁¦14	-10.905
worth	-10.9051
ground	-10.9053
agriculture	-10.9055
zoono	-10.9055
sena	-10.9057
north	-10.9059
organi	-10.9059
ius	-10.9067
fit	-10.907
note	-10.9079
facilitate	-10.9085
70¦	-10.9087
tech	-10.9096
toward	-10.9106
da	-10.913
pand	-10.9164
coronation	-10.9179
;	-10.9203
apply	-10.9208
▁¦21	-10.9213
born	-10.9235
operate	-10.9261
estimat	-10.9279
sur	-10.93
best	-10.9331
med	-10.9331
ho	-10.9357
cut	-10.9379
household	-10.9401
sides	-10.943
introduc	-10.9434
search	-10.9437
feature	-10.9438
holiday	-10.9438
trouble	-10.9438
deploy	-10.9438
identify	-10.9438
wi	-10.9439
connection	-10.944
festival	-10.944
bigge	-10.9442
proposal	-10.9443
msel	-10.9451
camel	-10.9458
rub	-10.9473
screening	-10.9474
amil	-10.9482
occurr	-10.9495
referr	-10.9496
graph	-10.9517
seek	-10.9518
ll	-10.9519
▁¦400	-10.9522
bacteri	-10.9541
fr	-10.955
settings	-10.957
mps	-10.9574
ism	-10.9588
ani	-10.9604
ali	-10.9634
owner	-10.9679
zhan	-10.968
mann	-10.9704
ramde	-10.9721
makes	-10.9748
sometime	-10.9751
su	-10.9773
nature	-10.9776
comfort	-10.9803
chi	-10.9813
describ	-10.9826
arvin	-10.9841
rele	-10.9841
cular	-10.9849
success	-10.9853
grant	-10.9854
pimpri	-10.9854
jessica	-10.9854
pakistan	-10.9854
prompt	-10.9854
document	-10.9854
representative	-10.9854
hku	-10.9855
venue	-10.9855
airport	-10.9855
book	-10.9856
saw	-10.9857
customer	-10.9859
boost	-10.986
interaction	-10.9861
surger	-10.9865
useful	-10.9867
wipe	-10.9871
rare	-10.9879
prove	-10.9898
coroner	-10.99
york	-10.9903
gram	-10.9905
▁¦1.5	-10.9905
mal	-10.9914
ur	-10.9915
dha	-10.9916
basic	-10.994
cri	-10.995
charge	-10.9972
circulat	-10.9988
har	-11.0006
slam	-11.0046
spokes	-11.0046
port	-11.0058
cry	-11.0065
mov	-11.0077
teach	-11.0079
lesson	-11.0105
prepar	-11.0157
adu	-11.021
harid	-11.0222
ied	-11.0232
indicat	-11.0246
trace	-11.0255
ig	-11.027
alleg	-11.027
positiv	-11.0273
jam	-11.0282
accu	-11.0286
commerc	-11.0289
compound	-11.0289
—	-11.0289
cocktail	-11.0289
therapeutic	-11.0289
sleep	-11.0289
bicycle	-11.0289
headache	-11.0289
birth	-11.0289
chairman	-11.029
consult	-11.029
nucleo	-11.029
weekend	-11.0298
brother	-11.0298
tender	-11.0313
forward	-11.0341
trader	-11.0355
▁¦300	-11.0356
kind	-11.0358
feed	-11.0401
continu	-11.0407
emerg	-11.042
gun	-11.0452
thank	-11.0458
sport	-11.0472
plane	-11.0482
amp	-11.0491
une	-11.051
cloth	-11.0514
nd	-11.0539
pregnanc	-11.0547
spoke	-11.0563
ili	-11.0569
afr	-11.0571
recogniz	-11.0598
nam	-11.0599
sar	-11.06
image	-11.06
tom	-11.0617
ims	-11.063
fil	-11.0633
tan	-11.0657
dependent	-11.0661
arter	-11.0668
▁¦37	-11.0696
biha	-11.0705
leav	-11.0731
load	-11.0733
located	-11.0738
annual	-11.0744
muscle	-11.0744
opportunit	-11.0744
doubt	-11.0744
milk	-11.0744
numer	-11.0744
quick	-11.0744
polymer	-11.0744
mechanism	-11.0744
trend	-11.0744
urgent	-11.0744
lift	-11.0744
professional	-11.0745
discharge	-11.0745
raut	-11.0745
battle	-11.0746
consistent	-11.0747
performance	-11.0747
cemeter	-11.0747
fail	-11.0749
restrict	-11.0754
coward	-11.0755
aware	-11.0755
storm	-11.0756
lescent	-11.0756
nawala	-11.0758
else	-11.0758
vant	-11.0763
weaken	-11.0765
cremat	-11.0772
install	-11.0773
hwad	-11.0782
bill	-11.0783
violat	-11.0787
avin	-11.0788
karna	-11.079
suit	-11.0795
sensitiv	-11.0834
alve	-11.0844
▁¦42	-11.0848
summ	-11.086
heav	-11.0883
box	-11.0886
khand	-11.095
canad	-11.0953
ekar	-11.0978
rely	-11.0989
individual	-11.1017
agha	-11.1064
ak	-11.1072
tax	-11.1096
yog	-11.1117
ai	-11.1127
kant	-11.1131
administrati	-11.119
bhus	-11.1194
surance	-11.1203
lok	-11.1216
ha	-11.1216
predict	-11.1217
pathogen	-11.1219
ahmed	-11.1219
petition	-11.122
homolog	-11.122
strategy	-11.122
subsequent	-11.122
traffic	-11.122
volunteer	-11.122
accident	-11.122
physician	-11.122
ceremon	-11.122
quantit	-11.122
unfortunate	-11.122
pollut	-11.122
budget	-11.1221
broke	-11.1221
alert	-11.1221
nepal	-11.1221
girl	-11.1221
parcel	-11.1224
lockout	-11.1224
sharp	-11.1225
movement	-11.1226
morbidit	-11.1228
game	-11.1236
kash	-11.1244
hall	-11.1249
cancelled	-11.1258
duration	-11.1261
fati	-11.1268
crete	-11.1273
mediate	-11.1274
blow	-11.1274
po	-11.1278
wada	-11.1282
ru	-11.13
ling	-11.1321
ca	-11.1325
pi	-11.1326
▁¦44	-11.1347
olar	-11.1356
4	-11.1366
god	-11.1377
ecut	-11.1394
jayant	-11.1409
▁¦150	-11.1429
ction	-11.1436
aged	-11.1445
elf	-11.1449
ni	-11.1453
osp	-11.1471
ros	-11.1478
cap	-11.149
serv	-11.1497
sampl	-11.1533
site	-11.156
reverse	-11.1576
appli	-11.1612
connect	-11.1627
treatments	-11.1628
dhar	-11.1641
mall	-11.1647
lock	-11.1651
em	-11.1664
inspect	-11.1705
que	-11.171
inject	-11.1718
knowledge	-11.1719
pulmon	-11.172
cytokine	-11.172
google	-11.172
routine	-11.172
complex	-11.172
component	-11.172
http	-11.172
recruit	-11.172
hyper	-11.172
dharavi	-11.172
cardio	-11.172
worry	-11.1721
extensive	-11.1721
mahavikas	-11.1721
▁¦5,000	-11.1722
secret	-11.1722
interview	-11.1722
panic	-11.1722
shopp	-11.1722
arti	-11.1722
invest	-11.1724
governor	-11.1724
idea	-11.1725
disorder	-11.1726
certificate	-11.1727
remember	-11.1728
teria	-11.1729
alarm	-11.1732
prepare	-11.1739
liver	-11.174
hot	-11.1756
atm	-11.1763
rubb	-11.1766
workplace	-11.1779
vary	-11.1781
prevalent	-11.1786
anjal	-11.1792
upper	-11.1814
62¦	-11.183
preserv	-11.1836
ud	-11.1844
won	-11.1845
formal	-11.1849
java	-11.185
encourag	-11.1853
sneeze	-11.1865
feeling	-11.1909
pan	-11.1933
improve	-11.1948
myco	-11.1973
envelope	-11.1976
generate	-11.1986
cam	-11.2001
improv	-11.2006
package	-11.2033
mant	-11.2039
intern	-11.2077
jana	-11.2089
ver	-11.2105
build	-11.2205
ikh	-11.2209
dp	-11.2225
america	-11.2233
tel	-11.2239
nl	-11.2243
cycle	-11.2246
correct	-11.2246
pattern	-11.2246
transcript	-11.2246
affair	-11.2246
gloves	-11.2246
canadian	-11.2246
quarter	-11.2246
worship	-11.2246
repurpos	-11.2246
orphan	-11.2247
facebook	-11.2247
download	-11.2247
comprehensi	-11.225
covax	-11.2254
bottle	-11.2254
particle	-11.226
kg	-11.2261
wate	-11.2265
provider	-11.2271
laborer	-11.2272
airline	-11.2275
draw	-11.2276
strand	-11.228
breathe	-11.2281
maratha	-11.2284
ries	-11.2286
pande	-11.2286
ep	-11.2292
isolate	-11.2292
hung	-11.2298
eal	-11.2307
mer	-11.2313
dropp	-11.2318
wake	-11.2326
fema	-11.2347
works	-11.2348
driver	-11.2348
23¦	-11.2386
para	-11.2395
mucor	-11.2403
audit	-11.241
agar	-11.2423
reference	-11.2423
adhan	-11.2427
conv	-11.2432
hub	-11.2446
observe	-11.2447
til	-11.245
wif	-11.2461
rul	-11.247
pt	-11.2481
kani	-11.2482
lo	-11.2484
seal	-11.249
sites	-11.2515
mainl	-11.2516
license	-11.2579
purpose	-11.2589
yo	-11.2608
reservation	-11.2622
cl	-11.2692
trade	-11.2719
expect	-11.2721
journal	-11.2727
hr	-11.2742
wards	-11.2745
solida	-11.2768
log	-11.2776
clinic	-11.2789
worri	-11.2792
covering	-11.28
stream	-11.28
efficient	-11.2802
‘	-11.2802
evolution	-11.2802
retail	-11.2802
technique	-11.2802
firecracker	-11.2802
electric	-11.2802
afford	-11.2802
cruise	-11.2802
vomit	-11.2802
cambridge	-11.2802
migrant	-11.2802
agitation	-11.2802
comparison	-11.2802
academic	-11.2802
abdom	-11.2802
mohan	-11.2802
garh	-11.2803
tribal	-11.2803
contrast	-11.2803
cuba	-11.2803
background	-11.2803
tension	-11.2804
hood	-11.2804
traditional	-11.2806
soph	-11.2806
nova	-11.2807
generation	-11.2808
minim	-11.2809
unnecessar	-11.2809
mach	-11.2811
drink	-11.2811
loan	-11.2813
tap	-11.2815
imply	-11.2817
heb	-11.282
threaten	-11.2832
russian	-11.2832
des	-11.2834
actor	-11.2835
sam	-11.2848
interspe	-11.2852
▁¦600	-11.2855
ganga	-11.2857
flow	-11.2867
nil	-11.2884
▁¦800	-11.2889
dryer	-11.2903
manag	-11.2911
warning	-11.2912
iro	-11.2926
intermedia	-11.2942
eel	-11.2962
pad	-11.2972
stand	-11.2986
variet	-11.2988
paris	-11.2997
methodolog	-11.3011
nt	-11.3031
advise	-11.3087
ima	-11.3108
tal	-11.3109
promote	-11.3159
akol	-11.3159
cies	-11.3173
demonstrat	-11.3174
dium	-11.3181
collecti	-11.3189
gar	-11.3217
mi	-11.3221
sari	-11.3229
promis	-11.3245
alter	-11.3246
osh	-11.3249
purchas	-11.3259
camp	-11.326
challeng	-11.3264
ard	-11.3283
bei	-11.3287
baj	-11.3297
ale	-11.3314
kol	-11.332
km	-11.3326
rai	-11.3337
gather	-11.3338
igad	-11.3342
refer	-11.3361
fix	-11.3369
pack	-11.3377
khar	-11.3383
harad	-11.3388
circumstance	-11.339
opinion	-11.339
pandharpur	-11.339
parliament	-11.339
behavior	-11.339
brook	-11.339
immunization	-11.339
collapse	-11.339
window	-11.339
fruit	-11.339
aditya	-11.339
vitamin	-11.339
criticism	-11.339
burden	-11.339
alpha	-11.339
agreement	-11.339
shivaji	-11.339
white	-11.339
aryng	-11.339
naik	-11.3391
cinema	-11.3391
cancellation	-11.3391
justice	-11.3391
rote	-11.3392
agreed	-11.3392
newspaper	-11.3393
consumer	-11.3393
accurate	-11.3393
exception	-11.3395
repeated	-11.3398
contaminated	-11.3406
tide	-11.3406
warm	-11.3434
rall	-11.3434
gy	-11.3434
gold	-11.3438
indicate	-11.3446
rank	-11.3449
standing	-11.3454
evening	-11.3465
jee	-11.3472
duty	-11.3479
asia	-11.3488
gene	-11.3489
iii	-11.3492
independent	-11.3502
oxi	-11.3504
mam	-11.3512
award	-11.3512
cre	-11.3518
enhance	-11.3532
deteriorat	-11.3536
pati	-11.3541
join	-11.3555
hok	-11.3565
discriminati	-11.3576
ang	-11.3589
ordin	-11.359
den	-11.3601
aken	-11.3601
bag	-11.3612
hane	-11.3617
dates	-11.3636
chava	-11.3661
pti	-11.3685
partial	-11.3699
cardia	-11.3743
ments	-11.3767
ible	-11.3781
▁¦55	-11.3791
setting	-11.3815
ped	-11.3827
shen	-11.3836
ari	-11.3879
les	-11.3897
▁¦31	-11.3903
screen	-11.3957
cels	-11.4003
farm	-11.4009
fi	-11.4012
hopk	-11.4013
club	-11.4014
cumulati	-11.4014
israel	-11.4015
vector	-11.4015
librar	-11.4015
click	-11.4015
civet	-11.4015
maxim	-11.4015
watch	-11.4015
acetam	-11.4015
zhen	-11.4015
petrol	-11.4015
pool	-11.4015
surgeon	-11.4016
specialist	-11.4016
influence	-11.4016
disruption	-11.4017
geographical	-11.4018
fluid	-11.4019
kamal	-11.4019
amino	-11.402
define	-11.402
khan	-11.4027
ative	-11.4034
angli	-11.4036
withdraw	-11.4037
bi	-11.4049
requirement	-11.4056
dire	-11.4061
mutat	-11.4063
cyto	-11.4076
trans	-11.4084
persisten	-11.4086
highway	-11.4087
▁¦15	-11.4091
rh	-11.4098
hindu	-11.4108
ara	-11.4112
dna	-11.4117
era	-11.4118
bus	-11.4121
fe	-11.4146
size	-11.415
gate	-11.4156
taxi	-11.4183
bath	-11.4197
kat	-11.4233
▁¦85	-11.4241
biologic	-11.4249
gre	-11.4252
▁¦82	-11.4257
wadi	-11.4284
ray	-11.4296
scar	-11.4308
▁¦5	-11.4317
▁¦24	-11.4365
rit	-11.4368
ran	-11.437
nail	-11.4374
sawan	-11.4376
propos	-11.4398
refus	-11.4412
spreader	-11.4417
bol	-11.4427
3	-11.4433
dhana	-11.4445
"	-11.4472
precaution	-11.4476
financ	-11.4491
diagnosi	-11.4535
hinde	-11.4563
ficial	-11.4586
bound	-11.4613
10	-11.4623
expens	-11.4632
oul	-11.4639
consist	-11.4659
▁¦72	-11.4665
attach	-11.4669
cultur	-11.467
tv	-11.4672
disrupt	-11.4679
collaborati	-11.4682
protease	-11.4682
•	-11.4682
≥	-11.4682
▁¦2012	-11.4682
dashboard	-11.4682
genomic	-11.4682
implications	-11.4682
reject	-11.4682
gestion	-11.4682
precedent	-11.4682
vigilan	-11.4682
interval	-11.4682
disadvantage	-11.4682
asthma	-11.4682
infrastructure	-11.4682
leng	-11.4682
disinfectant	-11.4682
fifth	-11.4682
grand	-11.4682
secretariat	-11.4682
garden	-11.4683
module	-11.4684
wild	-11.4684
blue	-11.4686
gla	-11.4689
roli	-11.469
weak	-11.4691
color	-11.4693
▁¦78	-11.4693
counter	-11.4694
american	-11.4698
compromised	-11.4698
milita	-11.4699
limitation	-11.47
domain	-11.4703
arrival	-11.4703
erupt	-11.4704
fortis	-11.4711
nik	-11.4718
religion	-11.4729
unlike	-11.4729
submitt	-11.4734
vive	-11.4758
shri	-11.478
dona	-11.4783
zer	-11.4796
towns	-11.4797
rain	-11.4798
corresponden	-11.4803
yava	-11.4818
readi	-11.483
ze	-11.4836
ix	-11.4838
compare	-11.484
ards	-11.4842
gir	-11.4858
vac	-11.4861
path	-11.4884
▁¦53	-11.4895
extract	-11.4903
wad	-11.4921
eep	-11.4952
touris	-11.4955
eliminate	-11.4982
spen	-11.4982
roy	-11.4996
liter	-11.5034
urg	-11.5036
sold	-11.5069
ents	-11.5078
coach	-11.5099
30	-11.5128
skill	-11.5148
bho	-11.5159
iya	-11.5165
emy	-11.5176
meat	-11.5188
combin	-11.5195
hiv	-11.5225
ition	-11.5232
com	-11.5239
ti	-11.5249
vir	-11.5266
▁¦98	-11.527
yes	-11.5282
▁¦95¦	-11.5288
absen	-11.5297
cr	-11.53
definite	-11.5303
ut	-11.5316
formula	-11.532
osis	-11.5326
ball	-11.5331
uck	-11.534
tired	-11.5356
traveler	-11.5359
gain	-11.5366
mar	-11.5367
buil	-11.5374
river	-11.5374
thora	-11.5377
compli	-11.5379
appoint	-11.5393
ken	-11.5394
christ	-11.5396
lopinavir	-11.5396
antibiotic	-11.5396
constituen	-11.5396
dynamic	-11.5396
floor	-11.5396
occupational	-11.5396
punjab	-11.5396
foot	-11.5396
taiwan	-11.5396
abortion	-11.5396
gynecologist	-11.5396
barrier	-11.5396
dispute	-11.5396
bronchitis	-11.5396
provision	-11.5396
volu	-11.5396
smell	-11.5396
popular	-11.5396
antimicrobial	-11.5396
instance	-11.5396
witness	-11.5396
ramesh	-11.5397
lethal	-11.5397
filter	-11.5397
nutrition	-11.5397
route	-11.5398
shah	-11.5398
consultation	-11.5399
authoriz	-11.5401
conclusion	-11.5402
arrangement	-11.5402
▁¦34	-11.5403
memor	-11.5404
achal	-11.5404
megh	-11.5406
smoke	-11.5407
inhibitor	-11.5407
bhagwa	-11.5407
administer	-11.5407
audi	-11.541
adopt	-11.5411
suggestion	-11.5412
▁¦38	-11.5414
anxi	-11.5417
bach	-11.5417
trust	-11.5434
african	-11.5436
poll	-11.5439
easy	-11.544
page	-11.5459
declare	-11.5463
vot	-11.5464
av	-11.5469
gov	-11.5481
orf	-11.5494
transmissib	-11.5516
rew	-11.5521
whe	-11.5532
?	-11.5536
erti	-11.5549
prav	-11.5555
meaning	-11.5581
ku	-11.5587
ip	-11.5594
ga	-11.5596
.5	-11.5599
nts	-11.5632
maharaj	-11.5653
▁¦1.7	-11.5654
sata	-11.5662
urge	-11.5693
19¦	-11.57
chu	-11.5708
raise	-11.5709
ket	-11.5715
prasa	-11.5726
bor	-11.5743
ore	-11.575
▁¦57	-11.5775
enable	-11.5775
premi	-11.5784
chand	-11.5789
realiz	-11.5811
ety	-11.5824
88¦	-11.5835
▁¦54	-11.5863
cop	-11.5872
ener	-11.5878
60	-11.591
▁¦75	-11.5918
br	-11.5957
ami	-11.5969
pace	-11.598
dhu	-11.5994
termin	-11.6001
che	-11.6006
aki	-11.6013
suppress	-11.6076
prohibit	-11.6077
ole	-11.6086
survive	-11.6091
roll	-11.6102
posts	-11.6106
-5	-11.6111
conferenc	-11.6117
bhal	-11.6126
investigate	-11.6152
48	-11.6154
sex	-11.6157
journ	-11.6159
adjust	-11.616
aught	-11.6161
fish	-11.6162
emphasi	-11.6164
structural	-11.6165
kishor	-11.6165
osmanabad	-11.6165
zydus	-11.6165
concept	-11.6165
diploma	-11.6165
panchayat	-11.6165
pulse	-11.6165
structure	-11.6165
temple	-11.6165
reflect	-11.6165
steroid	-11.6165
drastic	-11.6165
mammal	-11.6165
repair	-11.6165
thorough	-11.6165
infant	-11.6166
slum	-11.6166
fresh	-11.6166
speech	-11.6166
fortnight	-11.6166
salunk	-11.6166
virologist	-11.6166
epidemiological	-11.6166
pilot	-11.6166
▁¦2020-2	-11.6166
electronic	-11.6166
mitigation	-11.6167
truck	-11.6167
principal	-11.6167
continuous	-11.6167
diagnostic	-11.6168
formulation	-11.6168
disabilit	-11.6168
arabia	-11.617
cott	-11.617
uncertain	-11.6171
marg	-11.6171
cepi	-11.6172
observation	-11.6174
prioritize	-11.6177
remind	-11.6178
▁¦59	-11.6178
burn	-11.6181
experimental	-11.6182
nitin	-11.6183
rail	-11.6187
onavir	-11.6189
iram	-11.619
shiva	-11.6192
coordinat	-11.6195
acknowledg	-11.6199
raji	-11.6221
92	-11.6222
match	-11.6244
ankit	-11.6245
valu	-11.6246
▁¦56	-11.6247
throw	-11.625
worsen	-11.6255
edition	-11.6258
▁¦47	-11.6259
▁¦36	-11.6273
pv	-11.6274
carrier	-11.6275
serie	-11.6279
bra	-11.628
rine	-11.6297
dar	-11.6299
tube	-11.63
iv	-11.6301
jha	-11.6301
ika	-11.6302
vit	-11.6303
connected	-11.6308
lov	-11.6312
▁¦250¦	-11.6322
ivity	-11.6334
kovi	-11.6334
swin	-11.6356
ren	-11.6368
spark	-11.637
legislat	-11.6372
determin	-11.6377
write	-11.6386
nod	-11.6393
evacuat	-11.6394
park	-11.6395
kale	-11.6399
reporter	-11.6402
ryan	-11.6419
gur	-11.645
donate	-11.6452
lu	-11.6455
evaluat	-11.6467
partner	-11.6479
examin	-11.6481
sion	-11.6485
ki	-11.6487
goal	-11.6495
relations	-11.6513
buse	-11.6515
▁¦32	-11.6521
theater	-11.6554
eye	-11.6566
wan	-11.6572
goa	-11.6575
khed	-11.6576
web	-11.658
solid	-11.6585
oea	-11.6589
patholog	-11.6617
forget	-11.6629
▁¦39	-11.663
25	-11.6648
20¦	-11.6654
soil	-11.6655
ignor	-11.6676
▁¦96	-11.6679
beneficia	-11.6702
kari	-11.6713
fl	-11.6715
cc	-11.6735
oral	-11.674
laws	-11.6755
ner	-11.6772
2-	-11.6796
blam	-11.68
cation	-11.6822
umab	-11.6829
rains	-11.6846
nurs	-11.6856
intestin	-11.6857
rti	-11.6894
latur	-11.6897
▁¦94	-11.69
remed	-11.6915
struggl	-11.6947
slight	-11.6966
steril	-11.6967
▁¦92	-11.6968
complain	-11.6975
chha	-11.6984
ratio	-11.6985
▁¦64	-11.6994
arrange	-11.6994
epidemiolog	-11.6998
proportion	-11.6998
civil	-11.6998
efficienc	-11.6998
weapon	-11.6998
depriv	-11.6998
niranjan	-11.6998
naxal	-11.6998
categor	-11.6998
consulate	-11.6998
fertilizer	-11.6998
welcome	-11.6998
jack	-11.6999
technician	-11.6999
reply	-11.6999
sugar	-11.6999
antiseptic	-11.6999
twenty	-11.6999
context	-11.6999
anonym	-11.6999
objective	-11.7
analyz	-11.7
transaction	-11.7
consequence	-11.7
displeas	-11.7001
panch	-11.7001
nhs	-11.7001
technic	-11.7001
fift	-11.7001
lrti	-11.7001
appointment	-11.7002
indication	-11.7003
washroom	-11.7003
honor	-11.7003
▁¦144	-11.7005
gupt	-11.7005
tighten	-11.7006
assessment	-11.7006
concentrator	-11.7007
strange	-11.7008
▁?"	-11.7008
autopsy	-11.7009
strengthen	-11.7009
mistake	-11.7009
conven	-11.701
gown	-11.7013
nucle	-11.7014
desire	-11.7016
recogni	-11.7016
chair	-11.7017
traveller	-11.702
nekar	-11.702
sop	-11.7022
visibl	-11.7024
chhat	-11.7024
payment	-11.7029
▁¦2.4	-11.703
seasonal	-11.7037
debate	-11.7043
ulkar	-11.7044
korean	-11.7047
struggle	-11.705
graduate	-11.7051
mus	-11.7066
imp	-11.707
scrub	-11.708
surviv	-11.708
endanger	-11.7089
14¦	-11.7096
bench	-11.7101
holder	-11.7121
tant	-11.7122
swing	-11.7127
▁¦58	-11.7127
inaugurat	-11.7145
24¦	-11.7151
emerge	-11.7156
remedi	-11.7169
rang	-11.7177
ine	-11.7182
ox	-11.7193
cleaner	-11.7232
misin	-11.7233
iness	-11.7238
abc	-11.7258
replicati	-11.7266
ade	-11.7267
'	-11.727
sah	-11.7274
recognize	-11.7278
gul	-11.7282
jay	-11.7305
78	-11.7335
abha	-11.7369
centur	-11.7373
none	-11.739
07	-11.7408
ebo	-11.7409
gap	-11.7427
salar	-11.7429
protest	-11.7432
rid	-11.7449
str	-11.7459
17	-11.7477
tub	-11.7481
manager	-11.7495
ey	-11.7525
love	-11.7527
producer	-11.7594
version	-11.7601
prad	-11.7615
aram	-11.7625
avi	-11.7643
tive	-11.7652
preme	-11.7662
row	-11.7674
fat	-11.768
8	-11.7692
chau	-11.7698
75	-11.7705
oja	-11.7734
nile	-11.7751
stands	-11.7766
ghat	-11.7767
art	-11.7784
cra	-11.7791
val	-11.7792
mini	-11.7796
pol	-11.78
hin	-11.7834
exceed	-11.784
gra	-11.7854
huj	-11.7862
.6	-11.7863
tank	-11.788
transfer	-11.7887
object	-11.7904
psychiatri	-11.7905
bluetooth	-11.7907
▁¦7,1	-11.7907
affidavit	-11.7908
bangladesh	-11.7908
cheetah	-11.7908
misconception	-11.7908
munganti	-11.7908
muslim	-11.7908
rickshaw	-11.7908
smooth	-11.7908
conclude	-11.7908
decade	-11.7908
plastic	-11.7908
practitioner	-11.7908
succeed	-11.7908
philip	-11.7908
turkey	-11.7908
modify	-11.7908
soldier	-11.7908
phylogenetic	-11.7908
kilo	-11.7908
uda	-11.7908
couple	-11.7908
gastro	-11.7908
stagger	-11.7908
harass	-11.7908
automatic	-11.7909
extension	-11.7909
capture	-11.7909
chhatra	-11.7909
cellul	-11.7909
attraction	-11.7909
please	-11.7909
abnormal	-11.7909
guard	-11.791
objection	-11.791
worst	-11.791
▁¦99	-11.7911
hanu	-11.7912
▁):	-11.7912
block	-11.7912
practical	-11.7914
film	-11.7914
computer	-11.7915
violation	-11.7916
metre	-11.7918
elevated	-11.7928
wiv	-11.7929
escape	-11.7929
cal	-11.794
ane	-11.7942
nba	-11.7943
▁¦15-	-11.7945
asian	-11.7945
enroll	-11.7947
fung	-11.7947
credit	-11.7948
reopen	-11.7949
cleave	-11.7949
lashi	-11.795
vipi	-11.7951
myo	-11.7951
unte	-11.7955
eparation	-11.7959
rent	-11.7962
vendor	-11.7975
mur	-11.7975
sai	-11.799
lank	-11.7999
adviser	-11.8004
assure	-11.8007
manufacture	-11.8008
oak	-11.8008
iliz	-11.8024
ie	-11.8032
varie	-11.8034
atya	-11.8035
elbo	-11.8036
ification	-11.8047
–20	-11.8056
star	-11.8062
dia	-11.8066
avir	-11.8074
rumor	-11.8075
catch	-11.8082
covered	-11.8092
▁¦3.5	-11.8109
hurs	-11.8115
▁¦2019-20	-11.813
spr	-11.8136
doubl	-11.8162
hal	-11.8169
asal	-11.818
zil	-11.8206
liva	-11.8209
denie	-11.8211
toxicit	-11.8214
celebrat	-11.8222
pp	-11.8231
imag	-11.8248
vice	-11.8268
▁¦2019-	-11.8274
contribute	-11.8277
teen	-11.8285
achieve	-11.8288
ross	-11.8311
odi	-11.8325
tre	-11.8338
arena	-11.8354
achin	-11.8372
refuse	-11.8373
rib	-11.8379
zin	-11.8383
opd	-11.8387
ium	-11.84
mandat	-11.8409
ong	-11.8433
systemati	-11.8447
dies	-11.8452
top	-11.8465
advance	-11.8475
tain	-11.8478
01	-11.8479
▁¦0.5	-11.8488
websites	-11.8506
vita	-11.8512
sagar	-11.8539
erial	-11.8564
quot	-11.8573
examine	-11.8578
tra	-11.8578
cance	-11.8585
faces	-11.8597
ft	-11.8602
immun	-11.8604
oppos	-11.8608
▁¦66	-11.8608
7	-11.8616
beg	-11.8638
classifi	-11.8646
mail	-11.8664
stan	-11.8669
hum	-11.8693
nsecu	-11.8709
programme	-11.871
anticipat	-11.8718
squad	-11.8721
swit	-11.8728
▁¦71	-11.8734
81	-11.8785
lal	-11.8797
aj	-11.8804
rmal	-11.8813
wet	-11.8813
hous	-11.8819
9	-11.8841
integrat	-11.8842
adam	-11.8843
sudh	-11.8853
valid	-11.8858
ayan	-11.8859
▁¦46	-11.8875
smok	-11.8877
hip	-11.8878
defen	-11.8884
advantage	-11.8907
intelligence	-11.8907
substantial	-11.8908
tehsildar	-11.8908
unique	-11.8908
behaviour	-11.8908
characteristic	-11.8908
climate	-11.8908
ghebreyes	-11.8908
kidney	-11.8908
substance	-11.8908
amplify	-11.8908
diminish	-11.8908
necessit	-11.8908
vadetti	-11.8908
warrior	-11.8908
austria	-11.8908
visakha	-11.8908
embass	-11.8908
corrupt	-11.8908
▁¦2018	-11.8908
fecal	-11.8908
channel	-11.8908
dattatr	-11.8908
molecular	-11.8908
hotelier	-11.8908
lawyer	-11.8908
malaria	-11.8908
▁¦2015	-11.8908
rbd	-11.8908
pork	-11.8908
ahmedabad	-11.8908
swami	-11.8908
obia	-11.8908
eventual	-11.8909
neck	-11.8909
melli	-11.8909
bhandar	-11.8909
church	-11.8909
priya	-11.8909
topic	-11.8909
700	-11.8909
▁¦79	-11.891
loom	-11.891
modifi	-11.891
ots	-11.8911
psychiatrist	-11.8911
pathway	-11.8911
print	-11.8911
▁¦1.8	-11.8911
revise	-11.8911
ganesh	-11.8912
fig	-11.8912
bber	-11.8913
interferon	-11.8913
unemploy	-11.8913
resistan	-11.8913
attitude	-11.8913
induc	-11.8914
procure	-11.8915
fell	-11.8915
mechani	-11.8916
16	-11.8917
grape	-11.892
hurt	-11.8922
deb	-11.8923
▁¦122	-11.8924
rench	-11.8927
mitted	-11.8929
pump	-11.8929
residenc	-11.8932
labor	-11.8936
push	-11.8943
haila	-11.8948
md	-11.8952
negligen	-11.8955
ef	-11.8958
yada	-11.8963
dece	-11.8965
player	-11.8974
equal	-11.8974
donation	-11.8976
racis	-11.8978
dad	-11.8982
drome	-11.8982
bah	-11.8985
mira	-11.8987
minu	-11.8994
listen	-11.901
0	-11.901
imm	-11.9012
trip	-11.9015
oil	-11.9021
leg	-11.9027
brain	-11.904
ide	-11.9046
vya	-11.9051
▁¦0.2	-11.906
cancell	-11.9063
sara	-11.9066
durg	-11.9084
reassur	-11.9101
mangal	-11.9125
80	-11.9127
bam	-11.9139
subha	-11.9153
ihar	-11.9155
expense	-11.9159
hiran	-11.9166
nor	-11.917
tite	-11.9204
orium	-11.9233
originate	-11.9244
approache	-11.9246
ian	-11.926
nair	-11.9264
roh	-11.9283
sia	-11.9284
unt	-11.9291
cor	-11.9298
kha	-11.931
purposes	-11.9312
ham	-11.933
assist	-11.938
ilip	-11.9386
confiden	-11.9403
chlori	-11.9435
93¦	-11.944
atish	-11.9448
2	-11.9468
02	-11.9475
tim	-11.9505
tus	-11.9522
ci	-11.9548
cat	-11.9548
67	-11.9548
map	-11.9577
sanit	-11.9581
accompan	-11.9603
aman	-11.9622
ashi	-11.9636
peri	-11.9644
jo	-11.9655
ence	-11.9662
recombin	-11.9662
tempora	-11.9664
dig	-11.9664
emi	-11.9678
bhar	-11.9679
eshwar	-11.9695
77¦	-11.9695
inhibit	-11.9697
rd	-11.9709
input	-11.972
gm	-11.9723
encourage	-11.9728
64¦	-11.9753
atory	-11.9772
ven	-11.9789
algaon	-11.9794
af	-11.9796
atta	-11.9799
correspond	-11.9821
monoc	-11.9826
edicat	-11.9837
ration	-11.9845
qui	-11.9884
tala	-11.9891
ko	-11.9895
bans	-11.9916
accelerate	-11.9917
sti	-11.9932
expla	-11.9955
tul	-11.9958
accord	-11.9962
32¦	-11.9966
stick	-11.9968
fatal	-11.9975
diarrh	-11.9997
galo	-11.9998
carrie	-12.0003
devastat	-12.0008
diff	-12.0014
kum	-12.0016
article	-12.0017
rath	-12.0018
spira	-12.0018
enovir	-12.0019
prognosis	-12.0019
circle	-12.0019
cyclone	-12.0019
destination	-12.0019
guarantee	-12.0019
neglect	-12.0019
ultimate	-12.0019
alpaca	-12.0019
neighbor	-12.0019
defeat	-12.0019
destroy	-12.0019
exacerbat	-12.0019
cession	-12.0019
pillow	-12.0019
vessel	-12.0019
breastfeed	-12.0019
dramatic	-12.0019
pediatric	-12.0019
firm	-12.0019
favor	-12.0019
bhayand	-12.0019
properties	-12.0019
▁¦40,000	-12.0019
▁¦2017	-12.0019
karjat	-12.0019
organisation	-12.0019
ratna	-12.0019
jalna	-12.0019
scene	-12.0019
fault	-12.0019
commitment	-12.0019
susceptible	-12.0019
economist	-12.0019
cadilla	-12.0019
caution	-12.0019
,65	-12.002
reception	-12.002
emphasize	-12.002
resume	-12.002
expir	-12.002
promotion	-12.0021
▁¦1,5	-12.0021
bronchi	-12.0021
chicken	-12.0021
runwal	-12.0021
86	-12.0021
lunch	-12.0022
eviate	-12.0022
jj	-12.0025
dismissal	-12.0026
parab	-12.0026
1,1	-12.0028
shaile	-12.0028
legal	-12.0028
surrounding	-12.0029
introduce	-12.0029
oliti	-12.0033
afterwards	-12.0035
highlight	-12.004
committ	-12.0042
hyl	-12.0043
valve	-12.0044
encounter	-12.0051
nala	-12.0053
rland	-12.0055
impoten	-12.0059
kid	-12.0063
gage	-12.0064
saving	-12.0065
lymphocyte	-12.0068
rich	-12.0084
skeptic	-12.0085
bott	-12.0089
avirin	-12.009
homeless	-12.009
tree	-12.0101
gst	-12.0104
mit	-12.0116
aya	-12.0121
uter	-12.0121
pl	-12.0133
ious	-12.0134
shi	-12.0142
ease	-12.0144
underst	-12.0155
burg	-12.0162
ww	-12.0165
guide	-12.0166
institutional	-12.0166
bing	-12.0167
assay	-12.0175
lay	-12.0187
internal	-12.0193
promised	-12.0198
satisf	-12.02
mich	-12.0212
scarc	-12.0238
pen	-12.0248
activat	-12.0249
comorbid	-12.0251
▁¦900	-12.0253
obstructi	-12.0263
immuno	-12.0273
blast	-12.0289
fin	-12.0314
▁¦49	-12.0323
boat	-12.0323
27¦	-12.0338
preferabl	-12.0364
prescribe	-12.0374
amid	-12.0374
ila	-12.0375
mod	-12.0376
undertake	-12.0383
▁¦4.5	-12.0395
zoo	-12.0403
▁¦27	-12.0405
chat	-12.0415
proof	-12.0421
istic	-12.0425
11	-12.0457
cow	-12.0475
promot	-12.048
ile	-12.0487
migrati	-12.0503
wo	-12.0504
▁¦97	-12.0516
texti	-12.0554
shan	-12.0615
subsidi	-12.063
:	-12.0633
hou	-12.0663
grade	-12.0671
sad	-12.068
bai	-12.0684
prefer	-12.0689
text	-12.0695
▁¦61	-12.0708
appe	-12.0733
explore	-12.0743
exo	-12.0751
relation	-12.0757
achiev	-12.076
aji	-12.0761
contribut	-12.0773
town	-12.0775
balance	-12.0776
umb	-12.0807
ech	-12.0833
wiki	-12.0833
ambe	-12.0841
phu	-12.0843
kak	-12.0844
clusive	-12.0869
04	-12.0875
▁¦88	-12.0891
kes	-12.0901
charg	-12.0908
rod	-12.0915
45	-12.0917
clarif	-12.0922
gener	-12.093
sound	-12.0943
sangh	-12.0948
▁¦2,6	-12.0955
xe	-12.0955
lines	-12.0956
ites	-12.0976
divid	-12.0977
angr	-12.0984
qu	-12.1038
pron	-12.1041
expen	-12.1061
▁¦14.	-12.1071
decentrali	-12.1078
pun	-12.1105
96	-12.1114
vel	-12.1119
stabiliz	-12.1119
.7	-12.1125
▁¦74	-12.1126
clar	-12.1138
replace	-12.1146
transmit	-12.1148
fan	-12.1155
prof	-12.1173
permit	-12.1176
191	-12.1181
admit	-12.1187
▁¦1,3	-12.1191
trop	-12.1196
convenien	-12.1206
norm	-12.1211
verge	-12.1216
arg	-12.1225
initiat	-12.1244
cool	-12.1251
concentrat	-12.1257
satur	-12.1262
contagio	-12.1263
5.8	-12.1265
noph	-12.1265
educat	-12.1266
registr	-12.1267
academ	-12.1267
physiotherap	-12.1269
+	-12.1269
aggressive	-12.1269
circuit	-12.1269
concert	-12.1269
dermat	-12.1269
malaysia	-12.1269
pacific	-12.1269
permanent	-12.1269
tremendous	-12.1269
°	-12.1269
administrator	-12.1269
detergent	-12.1269
dollar	-12.1269
eligi	-12.1269
exhaust	-12.1269
jurisdiction	-12.1269
language	-12.1269
pneumocyte	-12.1269
capsule	-12.1269
ingredient	-12.1269
vulnerab	-12.1269
calculat	-12.1269
robust	-12.1269
stimulate	-12.1269
excess	-12.1269
ggle	-12.1269
constitute	-12.1269
aditi	-12.1269
wonder	-12.1269
aspect	-12.1269
chemist	-12.1269
suppose	-12.1269
compensat	-12.1269
manifestation	-12.1269
affix	-12.1269
virulen	-12.1269
pathologist	-12.1269
counsel	-12.1269
solve	-12.1269
descript	-12.1269
buddhi	-12.1269
sustain	-12.1269
devanand	-12.1269
taste	-12.1269
assistant	-12.1269
obligation	-12.1269
prince	-12.1269
aadhaar	-12.1269
plent	-12.1269
symbolic	-12.127
wikimedia	-12.127
voice	-12.127
exempt	-12.127
pines	-12.127
convention	-12.1271
brief	-12.1271
explosion	-12.1271
ky	-12.1271
▁¦2013	-12.1271
lug	-12.1271
gear	-12.1272
juda	-12.1272
onymi	-12.1272
pursu	-12.1272
nirvan	-12.1273
sister	-12.1276
accura	-12.1276
healing	-12.1276
ravind	-12.1277
combat	-12.1277
stem	-12.1278
pig	-12.1279
foam	-12.1279
subunit	-12.1279
iraq	-12.1281
newborn	-12.1284
improvement	-12.1284
chart	-12.1284
infiltrat	-12.1286
muco	-12.1288
queue	-12.129
lic	-12.1291
buri	-12.1291
intrav	-12.1294
▁?;	-12.1295
delet	-12.1296
▁”.	-12.1296
hibition	-12.1297
transferr	-12.1298
preschool	-12.1301
voter	-12.1302
nda	-12.1306
satisfy	-12.1307
interrupted	-12.1309
▁.)	-12.1309
▁¦2002	-12.131
ph	-12.1311
cash	-12.1316
mon	-12.1318
pipe	-12.1322
sticker	-12.1327
represent	-12.1336
misc	-12.1337
applica	-12.1344
swa	-12.1352
jaya	-12.1352
citizen	-12.1354
▁¦1.2	-12.1359
authoris	-12.137
overlap	-12.137
minimiz	-12.1371
fair	-12.1373
palms	-12.1374
ascertain	-12.1374
chip	-12.1377
33	-12.1383
strik	-12.1384
-6	-12.1387
assign	-12.139
rgent	-12.1393
worksite	-12.1407
kanj	-12.1409
dri	-12.1415
bhi	-12.1417
300	-12.1426
comfortabl	-12.1431
latin	-12.1434
abuse	-12.1435
azar	-12.1435
mond	-12.1436
sheet	-12.1442
erv	-12.1448
attract	-12.1448
vacan	-12.1453
outline	-12.1469
forgot	-12.1475
ek	-12.1495
driv	-12.15
▁¦1.4	-12.1502
stall	-12.1505
thai	-12.1505
gh	-12.1511
rekh	-12.1514
trick	-12.1531
zy	-12.1544
35	-12.1561
pse	-12.1564
nei	-12.1571
remark	-12.1575
assum	-12.1583
lineage	-12.1584
tar	-12.1588
eya	-12.159
shing	-12.1599
nzal	-12.16
diagnose	-12.1612
65	-12.1619
kesh	-12.1636
hang	-12.1641
encode	-12.1643
wish	-12.1649
emergen	-12.165
cup	-12.1656
ster	-12.1657
nka	-12.1673
ideal	-12.1673
karan	-12.1677
camps	-12.1684
bear	-12.1689
isation	-12.169
distribute	-12.1698
mas	-12.1707
wor	-12.1717
▁¦18-	-12.1725
file	-12.1729
akle	-12.173
meas	-12.1736
vers	-12.1736
medi	-12.1746
beneficiar	-12.1759
spo	-12.1763
ignore	-12.1783
omani	-12.1796
saif	-12.1803
licens	-12.1809
42	-12.1809
advanc	-12.1845
newly	-12.1853
founder	-12.1879
span	-12.1889
bl	-12.1901
ow	-12.1928
alli	-12.1939
bodi	-12.1966
prais	-12.1976
tens	-12.1996
bit	-12.2021
waiv	-12.2026
cris	-12.2028
noy	-12.2052
”	-12.2064
nak	-12.2067
ach	-12.2071
cooper	-12.208
wm	-12.2108
shir	-12.2128
replicate	-12.2178
participa	-12.2193
ient	-12.2287
ushan	-12.2294
▁¦76	-12.2302
rance	-12.231
itation	-12.2319
hant	-12.233
egg	-12.2335
cleans	-12.2362
remarkabl	-12.2365
hus	-12.2367
5	-12.2389
inquire	-12.2425
-12	-12.2441
▁¦52	-12.2445
participate	-12.2445
inactivat	-12.2453
pari	-12.2468
reproductiv	-12.2473
sput	-12.2479
coal	-12.2483
gel	-12.2488
terri	-12.2499
▁¦51	-12.2503
prem	-12.251
noid	-12.2512
zha	-12.2535
attendan	-12.2548
kov	-12.2549
peptid	-12.2554
lagg	-12.2571
itive	-12.2572
avati	-12.2598
submit	-12.2634
reh	-12.2644
tele	-12.2645
designat	-12.2646
bud	-12.2647
experiment	-12.2664
ramp	-12.2664
cleanse	-12.2667
bul	-12.267
gli	-12.2675
strength	-12.2679
anger	-12.268
govern	-12.2683
2000	-12.2684
loud	-12.2691
dismiss	-12.2692
rief	-12.2695
equip	-12.2695
fortunate	-12.2696
festiv	-12.2696
respect	-12.2696
parallel	-12.2697
septic	-12.2697
fertili	-12.2697
calendar	-12.2697
chimpanzee	-12.2697
jyoti	-12.2697
plaza	-12.2697
companion	-12.2697
contraceptive	-12.2697
definition	-12.2697
hashtag	-12.2697
narlikar	-12.2697
prescription	-12.2697
scenario	-12.2697
supplement	-12.2697
universal	-12.2697
affiliat	-12.2697
proxim	-12.2697
refrigerat	-12.2697
spillover	-12.2697
virtual	-12.2697
surprise	-12.2697
prophyla	-12.2697
sentiment	-12.2697
mobilize	-12.2697
psycholog	-12.2697
epidemiologist	-12.2697
limb	-12.2698
brazilian	-12.2698
polyprotein	-12.2698
microscop	-12.2698
exclusive	-12.2698
bidde	-12.2698
ferret	-12.2698
caregiver	-12.2698
suspicion	-12.2698
balram	-12.2698
zz	-12.2699
cyano	-12.2699
square	-12.2699
corpse	-12.27
dozen	-12.27
congregation	-12.27
quar	-12.27
idol	-12.27
discontinu	-12.2701
greet	-12.2701
explode	-12.2702
wool	-12.2702
max	-12.2702
olvi	-12.2703
hamper	-12.2703
deficien	-12.2703
cellphone	-12.2703
charter	-12.2704
fellow	-12.2704
garg	-12.2704
inspection	-12.2705
iranian	-12.2705
aughter	-12.2705
mix	-12.2706
pok	-12.2706
artist	-12.2707
cruci	-12.2707
upload	-12.2709
▁?'	-12.2711
plate	-12.2713
pne	-12.2715
coast	-12.2717
corne	-12.272
aadha	-12.2721
optimal	-12.2722
unexpected	-12.2722
chole	-12.2724
ukh	-12.2725
diabet	-12.2725
spot	-12.2727
taneous	-12.2728
directive	-12.2729
consideration	-12.2729
vard	-12.2732
bhag	-12.2733
inspector	-12.2736
exu	-12.2739
cze	-12.2745
overcrowd	-12.2746
lonel	-12.2747
helpless	-12.2748
pher	-12.2748
airway	-12.275
khare	-12.2751
australian	-12.2755
direction	-12.2755
ayush	-12.2755
islam	-12.2755
lash	-12.2761
kara	-12.2761
jump	-12.2762
coordinati	-12.2773
shel	-12.2775
ogenic	-12.2779
triple	-12.2792
khil	-12.2792
niv	-12.2794
shipp	-12.2809
deny	-12.281
cheap	-12.2812
scann	-12.2821
1,4	-12.2823
salon	-12.2824
accelerat	-12.2832
van	-12.2835
ize	-12.2844
minimis	-12.2846
▁¦9.	-12.2857
bias	-12.2862
mir	-12.2864
akhil	-12.2872
kut	-12.2876
sentin	-12.2877
-3	-12.2894
cbs	-12.2896
erg	-12.2898
comp	-12.29
tour	-12.2903
understanding	-12.2914
reput	-12.2921
mh	-12.2923
advisor	-12.2928
hole	-12.2933
manj	-12.2938
19.	-12.2944
▁¦1,200¦	-12.2954
bab	-12.2961
exercis	-12.2961
timeline	-12.297
reproducti	-12.2983
▁¦5-1	-12.2988
olli	-12.2988
stable	-12.2991
kas	-12.2992
approve	-12.3004
endo	-12.3019
unic	-12.3024
waj	-12.3025
intestine	-12.3042
▁¦69	-12.3051
switch	-12.3054
lai	-12.3055
blame	-12.3061
inhale	-12.3067
island	-12.3068
stain	-12.307
mboli	-12.3074
69¦	-12.308
meta	-12.3095
▁¦2.2	-12.3107
ell	-12.3108
▁¦6.	-12.3112
verifi	-12.3118
disappear	-12.3119
mos	-12.316
ul	-12.3167
tro	-12.3167
indirect	-12.317
▁¦0.	-12.3191
contaminati	-12.3207
dkar	-12.3217
52¦	-12.3218
convers	-12.322
▁¦197	-12.3222
ssc	-12.3236
kal	-12.3261
73¦	-12.3265
beach	-12.3269
▁¦89	-12.3275
joe	-12.3276
akh	-12.3281
▁¦120	-12.3332
.2	-12.3361
▁¦87	-12.3367
sanitiz	-12.3369
winn	-12.3378
jali	-12.3384
kala	-12.3408
dens	-12.3416
vote	-12.3419
ravi	-12.3453
chan	-12.346
tava	-12.3468
reliev	-12.3485
rp	-12.3486
-10	-12.3489
minor	-12.3491
▁¦86	-12.3498
analys	-12.3547
movie	-12.3556
nana	-12.3618
ury	-12.3659
hopes	-12.3677
arian	-12.368
partners	-12.369
tial	-12.3729
▁¦83	-12.3762
net	-12.3762
pri	-12.3763
diverge	-12.3793
-4	-12.3797
celebrate	-12.3809
mac	-12.3816
lar	-12.3832
lin	-12.384
eid	-12.3844
97	-12.3851
dial	-12.3871
90	-12.3876
ema	-12.3886
overcom	-12.3891
legislati	-12.391
1.1	-12.3924
eve	-12.3933
deteriorate	-12.394
epi	-12.3942
vara	-12.3948
enhanc	-12.3952
ult	-12.3964
▁¦130	-12.3988
evi	-12.399
gava	-12.4029
aft	-12.4039
underestimat	-12.4049
invit	-12.4054
hri	-12.4067
mad	-12.4082
eradicat	-12.4096
usha	-12.4104
uncle	-12.4142
bou	-12.4153
▁¦93	-12.4164
ick	-12.4165
persist	-12.4167
▁¦73	-12.4173
tma	-12.4177
ears	-12.4199
remediv	-12.4205
sul	-12.4212
reconsider	-12.4213
▁¦11.	-12.422
05	-12.4234
agi	-12.4235
fam	-12.4242
jet	-12.4259
91	-12.4262
ashmi	-12.4268
recip	-12.4269
).	-12.4293
potent	-12.4302
oj	-12.4302
communica	-12.4319
error	-12.432
▁¦5,	-12.4322
prison	-12.4322
sri	-12.4329
blin	-12.4338
hari	-12.4348
tik	-12.435
neutral	-12.4351
intens	-12.4351
contra	-12.4362
electron	-12.4362
vivo	-12.4363
psycho	-12.4364
turk	-12.4364
ा	-12.4364
*	-12.4364
arogya	-12.4364
competent	-12.4364
conscious	-12.4364
judge	-12.4364
parbhani	-12.4364
retrospective	-12.4364
umbrella	-12.4364
android	-12.4364
bilateral	-12.4364
corticosteroid	-12.4364
doorknob	-12.4364
fragment	-12.4364
glycer	-12.4364
privilege	-12.4364
broadcast	-12.4364
episode	-12.4364
piece	-12.4364
veterinar	-12.4364
wheeler	-12.4364
yield	-12.4364
hydrogen	-12.4364
civic	-12.4364
cerebr	-12.4364
vikram	-12.4364
abundan	-12.4364
pend	-12.4364
proceed	-12.4364
civilian	-12.4364
sanitiser	-12.4364
amaz	-12.4364
radiograph	-12.4364
christian	-12.4364
tipp	-12.4364
element	-12.4364
itinerar	-12.4364
inspire	-12.4364
cafe	-12.4365
bomb	-12.4365
monsoon	-12.4365
enteritis	-12.4365
colum	-12.4365
illegal	-12.4365
consultant	-12.4365
dinner	-12.4365
bridge	-12.4365
shahid	-12.4365
competition	-12.4365
▁¦2014	-12.4365
solub	-12.4366
premium	-12.4366
argument	-12.4366
▁!"	-12.4366
crop	-12.4366
odor	-12.4366
harbour	-12.4366
navratri	-12.4366
cadil	-12.4367
fuel	-12.4367
simul	-12.4368
fauc	-12.4368
dog	-12.4368
tique	-12.4368
kalyan	-12.4368
surpass	-12.4368
celebration	-12.437
pleur	-12.4371
crime	-12.4371
dgc	-12.4371
trapp	-12.4371
leak	-12.4371
cloud	-12.4371
virion	-12.4371
ellow	-12.4372
progressive	-12.4373
mahamand	-12.4373
ngoli	-12.4374
shirk	-12.4374
portion	-12.4375
inoph	-12.4376
deplet	-12.4376
reagent	-12.4376
conf	-12.4376
nasi	-12.4377
stamp	-12.4378
adjustment	-12.4378
shedd	-12.4379
jar	-12.438
auto	-12.4381
fold	-12.4383
brush	-12.4383
lymph	-12.4383
pitt	-12.4384
dust	-12.4386
evaluati	-12.4389
naval	-12.4389
profile	-12.4391
placebo	-12.4392
neurologic	-12.4395
engage	-12.4396
layer	-12.4396
allocated	-12.4401
ccal	-12.4403
akur	-12.4403
huo	-12.4404
apartment	-12.4405
irregular	-12.4408
dense	-12.4413
▁¦13.	-12.4414
curve	-12.4416
38	-12.4416
rice	-12.4416
gon	-12.442
functional	-12.4425
eum	-12.4432
baid	-12.4435
inhabit	-12.4437
pover	-12.4438
0,000	-12.444
haz	-12.4443
fibro	-12.4444
sero	-12.4446
kun	-12.4452
aga	-12.4453
signal	-12.4456
televis	-12.4459
recipe	-12.446
aura	-12.4462
frames	-12.4466
▁¦24-	-12.4466
swinger	-12.4469
spray	-12.447
wall	-12.4471
nate	-12.4473
dile	-12.4482
inconvenien	-12.4486
dark	-12.449
gam	-12.4493
publication	-12.4504
elicit	-12.4505
formulat	-12.4514
lesser	-12.4516
▁¦2010	-12.4517
▁¦1000	-12.4519
lips	-12.4525
zo	-12.4539
poly	-12.454
2-3	-12.4544
shmi	-12.4556
synthe	-12.4564
lad	-12.4564
ipl	-12.4574
▁¦60-	-12.4576
2008	-12.4583
thrombo	-12.4584
colds	-12.4588
kom	-12.4607
abhi	-12.4615
-1	-12.4641
eradicate	-12.4642
replac	-12.4655
▁¦1201	-12.4657
medica	-12.4665
▁¦2.	-12.4665
xid	-12.4669
exhibit	-12.4671
avan	-12.4673
decentralis	-12.4674
adeno	-12.4682
ruti	-12.4684
killer	-12.4686
rinse	-12.4688
char	-12.4697
eeti	-12.4704
ruk	-12.472
shout	-12.4725
hurr	-12.4726
presum	-12.4736
dys	-12.4743
horrifi	-12.4744
strip	-12.4744
cine	-12.4747
2.3	-12.4748
keen	-12.4749
semi	-12.4756
tough	-12.4762
onia	-12.4772
rty	-12.4774
.8	-12.478
mont	-12.4782
bu	-12.4791
visa	-12.4793
politici	-12.48
▁¦77	-12.48
▁¦240	-12.4801
hol	-12.4816
rogen	-12.4818
amar	-12.4818
37¦	-12.4844
distan	-12.4872
15¦	-12.4885
lgi	-12.4894
alaya	-12.4913
itam	-12.4922
fly	-12.4922
salarie	-12.4937
rob	-12.4939
band	-12.4962
quota	-12.4969
ifn	-12.497
lak	-12.497
moti	-12.4976
allergi	-12.4994
banga	-12.501
▁¦2020	-12.5018
shutt	-12.5033
parin	-12.5047
tenden	-12.5048
▁¦10-1	-12.5074
weigh	-12.509
resolv	-12.51
je	-12.5124
transparen	-12.5126
propose	-12.5129
eria	-12.5134
poster	-12.5143
caps	-12.5151
mmel	-12.5177
mortuar	-12.5183
8,3	-12.5183
blu	-12.5198
imbal	-12.5209
cardi	-12.5224
transit	-12.5254
swed	-12.5266
nio	-12.5267
loo	-12.5282
pana	-12.5283
shet	-12.5284
grain	-12.5298
litera	-12.5322
chlor	-12.5334
jame	-12.5337
44	-12.5372
ogue	-12.5378
syn	-12.5383
confident	-12.5395
gu	-12.5396
ethan	-12.5398
jing	-12.5411
aikar	-12.5415
bil	-12.5432
interfere	-12.5459
monk	-12.548
migrat	-12.551
macro	-12.5512
kap	-12.5512
erior	-12.553
rite	-12.5541
olds	-12.5551
53	-12.5557
roman	-12.5565
stockpile	-12.5572
36	-12.5574
measur	-12.5592
accommodate	-12.5604
08	-12.5608
alasa	-12.5626
mane	-12.5631
mat	-12.5639
rbi	-12.5658
za	-12.5677
ker	-12.568
cu	-12.5686
wak	-12.5712
circula	-12.5715
prescrib	-12.5727
geno	-12.573
2020¦	-12.5745
maker	-12.5762
rte	-12.5782
pose	-12.5792
),	-12.5794
reache	-12.5801
sonar	-12.5804
slot	-12.5808
zen	-12.5812
gamal	-12.5828
defec	-12.5837
hoe	-12.5845
51	-12.5849
speaker	-12.5849
inj	-12.5873
content	-12.5891
certifi	-12.5896
ograph	-12.5913
▁¦1700	-12.5913
obstruct	-12.5919
allagh	-12.5925
▁¦196	-12.5928
194	-12.5929
fur	-12.5933
nish	-12.5958
induce	-12.598
satisfact	-12.5982
alved	-12.5991
oyal	-12.603
homa	-12.603
hay	-12.6047
daman	-12.6048
06	-12.6063
xis	-12.6066
plac	-12.6068
gil	-12.6087
8.7	-12.6099
uti	-12.6104
hield	-12.6132
2.5	-12.6139
violate	-12.615
kshir	-12.6165
elect	-12.6174
cul	-12.6181
travell	-12.6182
21	-12.6212
vine	-12.6229
jag	-12.6233
pharmac	-12.6234
organize	-12.6243
0-	-12.6254
separat	-12.6263
angel	-12.6264
79	-12.6266
lymphocyt	-12.6271
habit	-12.6276
yush	-12.6283
turba	-12.6285
pensi	-12.6287
▁¦110	-12.629
▁¦1,0	-12.6291
nalize	-12.6294
natur	-12.6296
overwhelm	-12.6296
1-	-12.6296
angha	-12.6303
ovine	-12.6308
azi	-12.6313
commen	-12.632
kshi	-12.6321
shram	-12.6335
achch	-12.634
comput	-12.6348
innovati	-12.6348
rhino	-12.6355
ulka	-12.6358
1,6	-12.6359
speculat	-12.6361
mitigat	-12.6362
pick	-12.6363
susceptib	-12.6363
ambula	-12.6364
bubble	-12.6364
consequent	-12.6364
folk	-12.6364
glycoprotein	-12.6364
jawahar	-12.6364
landlord	-12.6364
penetrate	-12.6364
surprising	-12.6364
complement	-12.6364
deposit	-12.6364
griev	-12.6364
pilgrim	-12.6364
plague	-12.6364
siddharth	-12.6364
kitchen	-12.6364
louis	-12.6364
metropoli	-12.6364
phosphat	-12.6364
prosecut	-12.6364
resembl	-12.6364
tackl	-12.6364
paralyze	-12.6364
symmetr	-12.6364
discourag	-12.6364
ribonucle	-12.6364
frighten	-12.6364
delta	-12.6364
wound	-12.6364
zykov	-12.6364
polio	-12.6364
stadium	-12.6364
gastroenteritis	-12.6364
jewel	-12.6364
pulmonologist	-12.6364
guang	-12.6364
acquaintance	-12.6364
rescue	-12.6364
command	-12.6364
lobul	-12.6364
manual	-12.6364
wrapp	-12.6364
sneha	-12.6364
telephone	-12.6364
▁¦2016	-12.6364
sympath	-12.6364
shelter	-12.6364
poison	-12.6365
detriment	-12.6365
faith	-12.6365
demograph	-12.6365
▁¦1918	-12.6365
gamma	-12.6365
georg	-12.6365
plain	-12.6365
opacit	-12.6365
randomize	-12.6365
continent	-12.6365
vikas	-12.6365
spinn	-12.6366
radio	-12.6366
burst	-12.6366
dispens	-12.6366
nivers	-12.6366
capabilit	-12.6366
avert	-12.6366
▁¦1968	-12.6366
advertisement	-12.6366
index	-12.6366
bathroom	-12.6366
gluco	-12.6366
panel	-12.6367
freezer	-12.6367
hidd	-12.6367
▁¦732¦	-12.6367
anxious	-12.6368
framework	-12.6368
replicase	-12.6368
mislead	-12.6369
metro	-12.6369
display	-12.637
desk	-12.637
hedge	-12.637
historical	-12.6371
audio	-12.6371
neuro	-12.6372
nigerian	-12.6372
rrhea	-12.6372
ricin	-12.6372
rhinovirus	-12.6372
divers	-12.6373
wander	-12.6373
pharmacies	-12.6374
jeev	-12.6374
insist	-12.6375
supermarket	-12.6375
defend	-12.6376
fisher	-12.6377
belief	-12.6379
neutraliz	-12.638
humidi	-12.6383
intense	-12.6383
utc	-12.6383
matt	-12.6384
saint	-12.6384
mile	-12.6386
-19-	-12.6387
declaration	-12.6387
resistance	-12.6388
liu	-12.639
▁¦22,	-12.639
dosage	-12.639
rubel	-12.639
khaw	-12.6392
bgi	-12.6392
ritual	-12.6393
compil	-12.6394
horm	-12.6396
ramati	-12.6398
expand	-12.6399
bread	-12.6399
vacc	-12.6399
chill	-12.6399
pub	-12.6399
defender	-12.6402
insert	-12.6403
culture	-12.6405
22	-12.6407
interst	-12.6408
refund	-12.6409
itial	-12.6409
formulate	-12.6413
var	-12.6413
guil	-12.6414
misunderstand	-12.6415
mourn	-12.6418
hote	-12.6424
irel	-12.6425
etical	-12.6425
maid	-12.6429
▁";	-12.6429
phal	-12.6431
rane	-12.6435
nnai	-12.6439
facemask	-12.6439
duck	-12.6443
assurance	-12.6446
cds	-12.6447
supe	-12.6449
garba	-12.645
outlet	-12.6456
mumbaikar	-12.6457
cave	-12.6459
kiss	-12.6461
roke	-12.6462
irani	-12.6463
jayal	-12.6466
copy	-12.6468
fun	-12.6482
pour	-12.6483
cape	-12.6485
ological	-12.6502
utri	-12.6503
kim	-12.6506
dominan	-12.6507
describe	-12.6511
▁¦290	-12.6516
nominat	-12.6518
ada	-12.653
bha	-12.6531
hypo	-12.6534
score	-12.6536
ez	-12.6537
exit	-12.6539
passage	-12.6555
participati	-12.6558
promise	-12.6568
idan	-12.657
500	-12.6584
boundar	-12.6587
radiolog	-12.6591
lose	-12.6592
drought	-12.6594
ovari	-12.6595
mph	-12.6598
mel	-12.6601
istan	-12.6606
mary	-12.661
bilit	-12.6614
suppressi	-12.6614
alam	-12.6615
bm	-12.6615
8.3	-12.6622
stabilize	-12.6623
reus	-12.6631
▁¦2,5	-12.6644
awad	-12.6653
ultra	-12.6667
odal	-12.6675
baat	-12.6684
sadh	-12.6687
depressi	-12.6688
▁¦0.3	-12.669
cooperat	-12.6692
cove	-12.67
immers	-12.6713
career	-12.6722
uta	-12.6723
rega	-12.6729
roop	-12.6735
kapa	-12.6737
ocyte	-12.6738
thro	-12.6747
tight	-12.6781
prohibiti	-12.6783
appreciat	-12.6797
kh	-12.6803
herit	-12.6814
1-7	-12.6818
sms	-12.6822
qi	-12.6838
▁¦5.	-12.6838
ngen	-12.686
2,7	-12.6862
aldi	-12.6873
thale	-12.6881
kath	-12.6889
col	-12.6892
ule	-12.6895
sche	-12.6898
ctic	-12.6909
▁¦59,	-12.6913
environmental	-12.6931
batch	-12.6947
▁¦1,03	-12.6968
sentence	-12.6974
lava	-12.6998
pras	-12.7004
oh	-12.701
/100	-12.7025
revers	-12.7029
song	-12.7046
ips	-12.7051
ghatan	-12.7078
66	-12.7082
anu	-12.7113
divergen	-12.7113
mag	-12.7124
ferr	-12.7129
associate	-12.7129
hom	-12.7142
hon	-12.7183
por	-12.7183
demonstrate	-12.7193
ecolog	-12.7204
▁¦6-	-12.7297
periodic	-12.7309
4,7	-12.7314
fus	-12.7328
18	-12.7336
continual	-12.7359
attle	-12.7402
realize	-12.742
lodge	-12.7468
nav	-12.7472
await	-12.7479
hur	-12.748
gn	-12.7494
pit	-12.7555
lip	-12.7564
bay	-12.7588
container	-12.7591
propyl	-12.7614
clashe	-12.7615
-19	-12.7626
suj	-12.7631
▁¦8.	-12.7634
mation	-12.7642
gila	-12.7644
▁¦115	-12.7683
housework	-12.7708
tte	-12.7717
▁¦3,0	-12.7729
barre	-12.7739
72	-12.7744
informati	-12.7746
143	-12.7756
▁¦2.6	-12.777
paramedic	-12.7806
mande	-12.7812
ghan	-12.782
mandate	-12.7842
ajwa	-12.7853
controversi	-12.7858
soft	-12.7868
pos	-12.7875
lah	-12.7892
gen	-12.7893
contaminat	-12.7902
▁¦3.	-12.7924
urin	-12.7928
peer	-12.7933
▁¦16.	-12.8
bhu	-12.8016
myc	-12.8022
thirt	-12.8034
discriminat	-12.8037
abh	-12.8038
gal	-12.8059
▁")	-12.806
)	-12.8061
ady	-12.8063
cru	-12.8064
tai	-12.8081
03	-12.8086
biolog	-12.8096
urba	-12.8125
sentenc	-12.8135
mol	-12.814
nitis	-12.8166
appearance	-12.8166
lacking	-12.8179
dispose	-12.8186
flat	-12.8212
dock	-12.8225
sake	-12.8251
restle	-12.8252
bri	-12.8252
lind	-12.8269
ops	-12.8276
.51	-12.8282
horri	-12.8296
palm	-12.8319
magi	-12.8368
imagin	-12.8368
helper	-12.837
irrita	-12.8382
sham	-12.8399
ec	-12.843
▁¦62.	-12.8438
tify	-12.8478
bia	-12.8483
94	-12.8504
jal	-12.8547
rani	-12.8561
vade	-12.8564
igna	-12.8565
dependenc	-12.8568
react	-12.8582
fective	-12.8589
procla	-12.8596
hypoth	-12.8612
lve	-12.8621
rig	-12.8642
▁¦1,40	-12.8642
lang	-12.8645
mutate	-12.8677
mah	-12.869
refu	-12.869
ssen	-12.8696
mount	-12.8708
140	-12.8713
clusion	-12.8714
nder	-12.8716
vision	-12.872
patri	-12.8738
discre	-12.8748
rabi	-12.8753
critic	-12.8767
messag	-12.8769
interrupt	-12.8779
rust	-12.8786
cau	-12.8798
icles	-12.8804
cogniti	-12.8806
enrol	-12.8813
earn	-12.8814
nawal	-12.8817
celebr	-12.8824
prioritiz	-12.8827
specif	-12.8828
autops	-12.8831
opath	-12.8832
commo	-12.8832
rink	-12.8835
hydro	-12.8835
corporate	-12.8836
colora	-12.884
locate	-12.8843
courage	-12.8846
yogi	-12.8847
fo	-12.8849
consum	-12.8851
freed	-12.8855
argu	-12.8857
sland	-12.886
ception	-12.8861
58¦	-12.8862
capita	-12.8862
compuls	-12.8862
ridge	-12.8863
igib	-12.8863
microbial	-12.8863
molecul	-12.8863
template	-12.8864
_	-12.8864
compassion	-12.8864
ramad	-12.8864
cannula	-12.8864
dombiv	-12.8864
×	-12.8864
aggregator	-12.8864
ayurved	-12.8864
emotional	-12.8864
entrepreneur	-12.8864
external	-12.8864
imperative	-12.8864
pneumo	-12.8864
powder	-12.8864
quantify	-12.8864
threshold	-12.8864
tireless	-12.8864
tournament	-12.8864
trimester	-12.8864
武	-12.8864
absorb	-12.8864
consensu	-12.8864
enzymatic	-12.8864
forecast	-12.8864
hierarch	-12.8864
intensivist	-12.8864
marginalis	-12.8864
trigger	-12.8864
aggravate	-12.8864
characterize	-12.8864
horses	-12.8864
myxo	-12.8864
suffocat	-12.8864
syringe	-12.8864
epitheli	-12.8864
corporator	-12.8864
destructi	-12.8864
incredibl	-12.8864
pankaj	-12.8864
vertical	-12.8864
warrant	-12.8864
lobby	-12.8864
肺	-12.8864
auction	-12.8864
favour	-12.8864
retard	-12.8864
stretch	-12.8864
disseminat	-12.8864
interoperab	-12.8864
coronavirida	-12.8864
gymnasium	-12.8864
ectant	-12.8864
moisturiz	-12.8864
ddler	-12.8864
meningiti	-12.8864
feces	-12.8864
instrument	-12.8864
optimize	-12.8864
excellen	-12.8864
proportionate	-12.8864
▁¦1999	-12.8864
contemplat	-12.8864
metaboli	-12.8864
clinician	-12.8864
dysfunction	-12.8864
immunological	-12.8864
apparent	-12.8864
dream	-12.8864
gymnas	-12.8864
parallelizab	-12.8864
derive	-12.8864
sensation	-12.8864
disproportionate	-12.8865
kilometer	-12.8865
▁¦1957	-12.8865
khop	-12.8865
losing	-12.8865
industrialist	-12.8865
remadesivir	-12.8865
▁¦4-5	-12.8865
punish	-12.8865
slogan	-12.8865
▁¦8:	-12.8865
compulsive	-12.8865
dissolve	-12.8865
confiscat	-12.8866
▁¦99.99	-12.8866
3-4	-12.8866
prize	-12.8866
bioeasy	-12.8866
empower	-12.8866
4.7	-12.8866
opportunistic	-12.8866
siddh	-12.8867
mund	-12.8867
render	-12.8867
hta	-12.8867
swift	-12.8867
demra	-12.8867
northeast	-12.8867
vasant	-12.8867
silence	-12.8868
oomi	-12.8868
▁¦66,	-12.8868
affini	-12.8868
▁¦832¦	-12.8868
clause	-12.8868
flock	-12.8869
shakes	-12.8869
384	-12.8869
label	-12.8869
purifie	-12.8869
url	-12.887
radha	-12.887
radical	-12.8871
burse	-12.8871
streamline	-12.8872
vishwa	-12.8872
discount	-12.8872
boom	-12.8873
▁¦6,	-12.8874
etiolog	-12.8874
differ	-12.8874
wealth	-12.8875
renu	-12.8875
outrage	-12.8875
bulk	-12.8875
lomb	-12.8875
ribo	-12.8875
notifi	-12.8877
fateh	-12.8877
liais	-12.8878
prediction	-12.8879
jug	-12.888
suspen	-12.8881
valla	-12.8881
roam	-12.8881
nsp	-12.8882
biosafety	-12.8882
grass	-12.8883
nirmal	-12.8884
steal	-12.8885
urag	-12.8887
liberate	-12.8887
translat	-12.8888
commod	-12.8889
6.9	-12.8889
▁¦1,27	-12.889
levi	-12.889
populat	-12.889
workload	-12.8892
terol	-12.8893
engrain	-12.8893
▁¦20-2	-12.8894
deadline	-12.8895
variation	-12.8896
shali	-12.8897
prayer	-12.8898
berg	-12.8899
koli	-12.8901
exci	-12.8902
resign	-12.8902
lake	-12.8902
male	-12.8904
adhikar	-12.8906
remedies	-12.8907
admi	-12.8907
innovation	-12.8907
llen	-12.891
pedia	-12.8911
substitut	-12.8912
pleas	-12.8914
refill	-12.8916
atche	-12.8921
compris	-12.8922
nim	-12.8923
datta	-12.8924
karo	-12.8927
league	-12.8927
▁¦180	-12.8928
▁¦1800	-12.8928
hicken	-12.8932
projection	-12.8936
prisoner	-12.8938
▁¦99.9	-12.8941
niche	-12.8943
npi	-12.8945
▁¦2004	-12.8946
leuk	-12.8948
lore	-12.8955
odde	-12.8959
utili	-12.8961
colon	-12.8963
communicate	-12.8964
procession	-12.8969
mrna	-12.8973
smokers	-12.8975
radi	-12.8977
vz	-12.8979
ambas	-12.898
mva	-12.8981
adarsh	-12.8982
.1.	-12.8988
efi	-12.8989
cks	-12.8992
lokma	-12.8992
aisi	-12.8998
cement	-12.9006
laya	-12.9006
mma	-12.9009
settle	-12.9014
careless	-12.9026
28,72	-12.9027
dahi	-12.9034
ibo	-12.904
ceive	-12.9041
height	-12.9042
grate	-12.9049
hem	-12.9055
pill	-12.9058
glo	-12.9063
astro	-12.907
jian	-12.9072
sonal	-12.9086
07.	-12.9089
allot	-12.9091
▁¦3.0	-12.9091
susc	-12.9091
replicat	-12.9092
ff	-12.9098
urya	-12.9109
jer	-12.9131
peptide	-12.9134
russel	-12.9146
khad	-12.9146
sarda	-12.9149
▁¦12014	-12.9153
pop	-12.9153
▁¦70-	-12.9159
atul	-12.9161
ng	-12.9168
communi	-12.918
gange	-12.9185
kno	-12.9186
▁¦200-	-12.9191
iste	-12.9198
puri	-12.9215
rude	-12.9218
jul	-12.9219
sacr	-12.9226
indefinite	-12.9228
peace	-12.9229
bhatt	-12.924
journalis	-12.9251
wana	-12.9255
core	-12.9261
▁¦42.	-12.9273
ranji	-12.928
bell	-12.9296
athon	-12.9297
frustrati	-12.9297
unus	-12.9324
allege	-12.9337
304	-12.9342
agh	-12.9349
imagine	-12.9357
spor	-12.9362
terr	-12.9366
cart	-12.9368
applie	-12.9372
harma	-12.9383
emed	-12.9401
mplifi	-12.9415
aig	-12.944
integrate	-12.9442
▁¦7-	-12.9444
▁¦12013	-12.9475
wage	-12.9475
950	-12.948
▁¦17.	-12.9483
designate	-12.949
yama	-12.9491
pale	-12.9503
lux	-12.9507
112	-12.951
lam	-12.9512
▁¦29,	-12.9514
cla	-12.953
ndia	-12.9541
98	-12.9561
chap	-12.9564
usion	-12.9579
cher	-12.9583
ghats	-12.9585
hail	-12.9597
arteri	-12.9641
41	-12.9663
asp	-12.9675
ear	-12.9676
mala	-12.9682
100	-12.9696
hemo	-12.9701
28	-12.9711
geshwar	-12.9727
ncy	-12.9746
sush	-12.9748
enna	-12.9792
dhere	-12.9806
fusion	-12.981
5,4	-12.9811
▁¦11-	-12.9817
▁¦361	-12.9828
urani	-12.9845
raman	-12.9855
uff	-12.9868
tribe	-12.988
qualif	-12.9896
conditioner	-12.9918
dharm	-12.9926
und	-12.993
utiliz	-12.9937
nappi	-12.9958
bother	-12.9964
invite	-12.9977
▁¦9-	-12.9988
srin	-13.001
darsh	-13.0017
nut	-13.0017
665	-13.0027
▁¦30-	-13.0027
,5	-13.0044
▁¦160	-13.0066
mpr	-13.0074
kel	-13.0076
explor	-13.0087
ador	-13.01
jat	-13.0182
oppressi	-13.0184
harbo	-13.0202
,49	-13.0231
waive	-13.0244
lop	-13.0289
isoprop	-13.0291
clash	-13.0312
09¦	-13.0361
barr	-13.0388
rac	-13.0401
minorit	-13.0419
riva	-13.0421
ohol	-13.0422
relieve	-13.0423
spare	-13.043
fb	-13.0441
ologist	-13.0458
mine	-13.0483
degrad	-13.0514
rash	-13.0529
sanitize	-13.0545
coagul	-13.0568
eps	-13.0586
021¦	-13.0599
8,9	-13.0636
akole	-13.0641
meant	-13.0676
randomi	-13.0699
46	-13.0734
expedite	-13.0747
spi	-13.0778
chose	-13.0816
ager	-13.0871
utilize	-13.0873
teache	-13.0876
tari	-13.0888
odd	-13.0901
ck	-13.0901
1,09	-13.0906
llah	-13.0913
raid	-13.0916
24,	-13.0919
allerg	-13.0965
intru	-13.1003
cket	-13.1004
toxic	-13.101
author	-13.1031
orti	-13.1032
mut	-13.1033
rock	-13.1086
bur	-13.1092
construct	-13.1097
26	-13.1105
shya	-13.111
ordinat	-13.1112
iq	-13.1121
commun	-13.1129
adv	-13.1164
repli	-13.1186
87	-13.1222
125	-13.124
nflict	-13.125
bhaj	-13.1286
cryo	-13.1322
evolve	-13.134
assume	-13.1381
▁¦29.	-13.1383
wag	-13.1438
pant	-13.1474
moral	-13.148
summar	-13.1492
saf	-13.1496
▁¦8,	-13.1514
▁¦375	-13.1531
shak	-13.1546
ulation	-13.1565
!	-13.1569
...	-13.1571
actic	-13.1586
3,2	-13.1594
cro	-13.1622
immer	-13.1645
dwara	-13.1701
mm	-13.1718
opt	-13.1743
▁¦1.	-13.18
▁¦2,2	-13.1808
tolera	-13.1828
consol	-13.1842
ank	-13.1857
lish	-13.1868
shame	-13.1875
gaya	-13.1884
kang	-13.1902
minimize	-13.1902
nitai	-13.193
euro	-13.194
sank	-13.1943
2.1	-13.1943
hru	-13.1946
gavi	-13.1968
frame	-13.1971
genic	-13.1985
866	-13.1992
john	-13.1993
▁¦220	-13.201
laud	-13.2012
grad	-13.202
phagocyt	-13.2032
acknowledge	-13.2035
▁¦650	-13.2037
hack	-13.2042
earning	-13.2047
ju	-13.205
activate	-13.2064
mate	-13.2068
advert	-13.208
surfac	-13.2083
medicin	-13.2088
immunog	-13.2091
compromis	-13.2101
boo	-13.2102
elevat	-13.2114
endors	-13.2117
conduc	-13.2138
501	-13.2142
dispel	-13.2142
ivas	-13.2144
physic	-13.2146
oncolog	-13.2147
custom	-13.2153
popul	-13.2155
regulat	-13.2158
conte	-13.2161
efficac	-13.2165
kur	-13.2168
frequen	-13.2174
significan	-13.2174
xar	-13.2176
ected	-13.2177
,240	-13.2181
voc	-13.2182
nigeria	-13.2183
princip	-13.2188
bronch	-13.2189
advers	-13.219
recei	-13.2191
marri	-13.2191
recurr	-13.2191
olati	-13.2194
itigation	-13.2194
distinct	-13.2194
spective	-13.2195
competit	-13.2195
agitat	-13.2196
champ	-13.2196
solut	-13.2196
socio	-13.2197
gynecolog	-13.2197
recede	-13.2197
स	-13.2197
implicat	-13.2197
turmeric	-13.2197
~	-13.2197
í	-13.2197
bureau	-13.2197
catheter	-13.2197
constitution	-13.2197
enormous	-13.2197
enthusias	-13.2197
eopard	-13.2197
horizon	-13.2197
intriguing	-13.2197
korona	-13.2197
manohar	-13.2197
odilator	-13.2197
provincial	-13.2197
substantive	-13.2197
á	-13.2197
α	-13.2197
β	-13.2197
े	-13.2197
्	-13.2197
▁¦153,822	-13.2197
anesthesiologist	-13.2197
courier	-13.2197
enterprise	-13.2197
handkerchief	-13.2197
interrogat	-13.2197
obstacle	-13.2197
peplomer	-13.2197
physiolog	-13.2197
rhythmi	-13.2197
veteran	-13.2197
aggregate	-13.2197
curtail	-13.2197
elucidat	-13.2197
embark	-13.2197
fetch	-13.2197
plausibl	-13.2197
toothbrush	-13.2197
▁¦8,09	-13.2197
awah	-13.2197
mathematic	-13.2197
merchant	-13.2197
mineral	-13.2197
stipulate	-13.2197
voluntar	-13.2197
mmunosuppressant	-13.2197
multiplie	-13.2197
coalesce	-13.2197
regret	-13.2197
▁¦4,4	-13.2197
wreak	-13.2197
attenuat	-13.2197
commute	-13.2197
wrist	-13.2197
microbiologist	-13.2197
pierce	-13.2197
conjuncti	-13.2197
ghazi	-13.2197
motivate	-13.2197
shubhan	-13.2197
transfusion	-13.2197
apologize	-13.2197
▁¦15,	-13.2197
divert	-13.2197
scream	-13.2197
smartphone	-13.2197
float	-13.2197
immunosuppressi	-13.2197
propaga	-13.2198
▁¦7.9	-13.2198
testimon	-13.2198
vandalize	-13.2198
shadow	-13.2198
tiger	-13.2198
apprehen	-13.2198
confess	-13.2198
blockade	-13.2198
curricul	-13.2198
modification	-13.2198
socioeconomic	-13.2198
5,9	-13.2198
chronological	-13.2198
▁¦1990	-13.2198
conceive	-13.2198
elaborat	-13.2198
crimina	-13.2198
kopar	-13.2198
pocket	-13.2199
atlant	-13.2199
yasho	-13.2199
adenoviral	-13.2199
▁¦10.9	-13.2199
papad	-13.2199
dental	-13.2199
escalat	-13.2199
breast	-13.2199
flood	-13.2199
▁¦1890	-13.2199
▁¦4.8	-13.2199
oursel	-13.2199
▁¦7.4	-13.22
jerry	-13.22
raghav	-13.22
distinction	-13.22
amendment	-13.22
nishank	-13.22
crispr	-13.22
accompli	-13.22
lapse	-13.2201
radic	-13.2201
extin	-13.2201
substitution	-13.2201
9/	-13.2201
olence	-13.2202
153	-13.2203
abandon	-13.2203
serbia	-13.2203
deactivat	-13.2203
correlate	-13.2203
nightclub	-13.2203
,83	-13.2203
zhong	-13.2204
teeth	-13.2204
biopharma	-13.2204
pickle	-13.2204
cock	-13.2205
pstick	-13.2205
underscore	-13.2205
faec	-13.2205
7,2	-13.2205
borle	-13.2205
molest	-13.2205
amji	-13.2206
hardship	-13.2206
joke	-13.2206
rome	-13.2207
condom	-13.2207
carbon	-13.2207
instant	-13.2207
bagh	-13.2207
marriage	-13.2208
igma	-13.2208
bioscience	-13.2208
counterpart	-13.2209
circulate	-13.2209
flour	-13.2209
chowpat	-13.2209
erythro	-13.221
thermo	-13.2211
distract	-13.2212
ugu	-13.2213
unload	-13.2213
887	-13.2213
athlet	-13.2214
fip	-13.2214
balu	-13.2214
southeast	-13.2215
▁¦2.0	-13.2215
corpor	-13.2215
,43	-13.2217
▁¦25,8	-13.2217
▁¦743	-13.2218
reminisc	-13.2218
profession	-13.222
bpo	-13.222
flak	-13.222
▁¦3,40	-13.2221
cient	-13.2222
observance	-13.2222
1,26	-13.2222
casti	-13.2224
dehra	-13.2224
vimal	-13.2226
tenant	-13.2226
auro	-13.2228
shell	-13.2229
refra	-13.2231
jagan	-13.2232
shore	-13.2233
pile	-13.2233
manuel	-13.2235
orient	-13.2235
crash	-13.2235
7.3	-13.2237
wire	-13.2238
▁¦126	-13.2238
▁¦138	-13.2239
▁¦960	-13.2239
guest	-13.224
stral	-13.2242
reward	-13.2243
nyu	-13.2244
danc	-13.2247
dancer	-13.2249
mograph	-13.2252
firefight	-13.2253
prabha	-13.2261
fisc	-13.2261
portu	-13.2262
analyst	-13.2265
initiate	-13.2266
flor	-13.2267
fate	-13.2268
notification	-13.2269
usett	-13.2271
0-30	-13.2272
seque	-13.2276
▁¦5.7	-13.2278
ramanand	-13.2285
garage	-13.2285
worrie	-13.2291
kendra	-13.2291
kot	-13.2293
lotion	-13.2295
itch	-13.2296
▁¦1.3	-13.2297
iod	-13.2299
oo	-13.2299
consisten	-13.2301
unani	-13.2304
headline	-13.231
trap	-13.231
oils	-13.2312
▁¦1.9	-13.2314
▁¦188	-13.2315
overwhelming	-13.2319
lisa	-13.2322
adhere	-13.2323
230	-13.2328
cooler	-13.2331
thumb	-13.2334
ghana	-13.2338
bhan	-13.2342
lect	-13.2344
halt	-13.2347
ordeal	-13.2347
olog	-13.2361
terrori	-13.2365
tolerate	-13.2366
ndem	-13.2373
▁¦99.	-13.2374
▁¦3,	-13.2386
validate	-13.2389
▁¦1-2	-13.239
genera	-13.2395
chall	-13.2399
dict	-13.2405
saina	-13.2409
amant	-13.2412
amine	-13.2413
terolog	-13.2415
sync	-13.2415
eur	-13.2424
onist	-13.2426
decent	-13.2427
cture	-13.2433
helpline	-13.2433
coronavir	-13.2433
reb	-13.2435
rope	-13.2438
agger	-13.2439
arize	-13.2443
euros	-13.2447
dyn	-13.2455
retire	-13.2476
roor	-13.248
jail	-13.2481
exceeding	-13.2485
mour	-13.2485
brist	-13.2492
expediti	-13.2508
uckl	-13.2511
remade	-13.2512
accumulat	-13.2522
steriliz	-13.2526
flag	-13.253
14	-13.253
sweat	-13.2542
▁¦364	-13.2545
sudha	-13.2555
pmc	-13.2557
combine	-13.2559
amana	-13.2576
ehr	-13.2585
beep	-13.2589
amn	-13.2591
gup	-13.2601
ritis	-13.2605
vk	-13.2628
intra	-13.2648
vai	-13.2651
wind	-13.2656
▁¦11.3	-13.2658
inder	-13.2674
cad	-13.2679
poses	-13.2693
▁¦1.6	-13.2693
subsid	-13.2717
morph	-13.2723
walker	-13.2726
cia	-13.2742
accommodat	-13.2754
▁¦166	-13.2761
pray	-13.2769
exp	-13.2769
▁¦16.6	-13.2785
evacuati	-13.2817
ramji	-13.2827
needle	-13.2828
▁¦520	-13.2832
▁¦80-	-13.2839
mald	-13.2842
bog	-13.2844
classic	-13.2852
khal	-13.2884
▁¦22-	-13.2919
rase	-13.2925
jes	-13.2928
anticipate	-13.2941
▁¦8,8	-13.2951
melin	-13.297
exc	-13.2978
bhat	-13.2989
hendan	-13.3006
ashw	-13.3011
cie	-13.3011
crack	-13.3024
politiciz	-13.3037
54	-13.3091
▁¦97.	-13.3092
luck	-13.3103
accommodati	-13.3104
rational	-13.3106
▁¦370	-13.3116
evolv	-13.3134
divide	-13.3152
karanj	-13.3153
comparabl	-13.3179
lipp	-13.318
nite	-13.3205
nai	-13.3209
tries	-13.321
krab	-13.3218
61	-13.3264
57	-13.3276
,22	-13.3279
replie	-13.3281
shape	-13.3289
39	-13.3318
akal	-13.3321
epicent	-13.3339
ference	-13.3344
nerv	-13.3359
jp	-13.3377
00	-13.3384
naga	-13.3401
▁¦720	-13.3411
rag	-13.3441
conclusi	-13.3448
licit	-13.3453
▁¦34.	-13.3496
segregat	-13.3533
ool	-13.3562
tie	-13.3576
▁¦2,	-13.3594
sanstha	-13.3612
ug	-13.3623
nner	-13.3626
bris	-13.3632
.4	-13.3646
avas	-13.3661
relie	-13.3673
coincid	-13.3714
alman	-13.3728
,337¦	-13.3738
multiplex	-13.3773
stockpil	-13.3787
▁¦2,0	-13.3794
▁¦184	-13.3821
arb	-13.3823
varad	-13.3829
subside	-13.3851
nlr	-13.3859
ocyto	-13.3894
▁¦559	-13.3895
lio	-13.3934
617	-13.3949
arch	-13.3951
random	-13.3956
512	-13.3976
34	-13.3983
packag	-13.3989
marin	-13.4011
ters	-13.4013
83	-13.4082
hardwa	-13.4133
coagula	-13.414
arab	-13.4148
kanh	-13.4154
parame	-13.4239
▁¦170	-13.4249
bru	-13.4268
oppose	-13.4283
3,93	-13.4332
▁¦2,4	-13.4351
,617	-13.4375
281¦	-13.4385
cate	-13.4396
envelop	-13.4429
3,35	-13.4455
600	-13.4476
nli	-13.4609
9,9	-13.4622
supporter	-13.4632
7.8	-13.4639
▁¦2,40	-13.4694
parl	-13.4754
2019-	-13.4755
224	-13.4781
2019	-13.4785
3,49	-13.4802
faci	-13.4811
equ	-13.4833
resolve	-13.4951
evacuate	-13.4963
evaluate	-13.4976
multiplexe	-13.5063
381¦	-13.5087
9,33	-13.5094
▁¦202	-13.523
accumulate	-13.526
▁¦25,	-13.531
7,5	-13.5324
ette	-13.533
otic	-13.5339
▁¦132	-13.5357
▁¦62	-13.5365
ayak	-13.5426
discipline	-13.5441
jog	-13.5448
navn	-13.5495
7/	-13.5496
/2	-13.5543
auditor	-13.5601
oversee	-13.5687
patna	-13.5707
aving	-13.5711
praise	-13.5737
mati	-13.5743
080	-13.5756
practic	-13.5759
benz	-13.5768
▁¦2400	-13.5881
kne	-13.5891
ffers	-13.5893
morbid	-13.5908
uade	-13.5981
galkar	-13.6004
appreciate	-13.603
sensiti	-13.608
partur	-13.6083
-7.2	-13.6121
copi	-13.6155
irritat	-13.6201
institut	-13.6215
▁¦155	-13.6257
ulla	-13.6272
2,3	-13.6275
rathi	-13.6275
frustrat	-13.6277
692	-13.6282
angam	-13.6313
701	-13.6314
depress	-13.6367
giu	-13.6378
gren	-13.6382
repute	-13.6436
pric	-13.6443
thromb	-13.6449
▁¦790	-13.6459
▁¦131	-13.6474
egian	-13.6492
000	-13.6527
carbo	-13.659
arriage	-13.6591
".	-13.6605
▁¦103	-13.6608
tero	-13.6642
crati	-13.6645
hungar	-13.6651
4,0	-13.6665
integra	-13.6666
coordinate	-13.667
lue	-13.6674
interfer	-13.675
ethic	-13.6763
orph	-13.677
▁¦14,	-13.6808
ctual	-13.6808
ization	-13.6843
copie	-13.6843
integrati	-13.6874
bk	-13.6878
460	-13.689
0.8	-13.689
bang	-13.6891
emul	-13.6897
ample	-13.6897
neglig	-13.6913
omo	-13.693
1.61	-13.6966
7.2	-13.6979
zar	-13.6983
moist	-13.6983
fect	-13.6984
4.2	-13.6993
udhi	-13.6994
laund	-13.6995
procedur	-13.7003
chool	-13.7004
strati	-13.7006
117	-13.701
tag	-13.7019
secr	-13.7027
▁¦81.	-13.7031
▁¦4,5	-13.7045
justifi	-13.7064
8,2	-13.7065
smoker	-13.7068
erie	-13.7069
hetero	-13.7077
leagu	-13.7085
subtracti	-13.7085
colleg	-13.7093
optim	-13.7095
acqui	-13.7102
spirit	-13.7112
profil	-13.7113
flamma	-13.7116
filtrat	-13.7124
repeat	-13.7126
advoca	-13.7127
passe	-13.7128
commit	-13.7129
utta	-13.7131
respirat	-13.7132
loba	-13.7133
uela	-13.7134
neous	-13.7136
▁¦60.	-13.7141
ocket	-13.7144
consul	-13.7152
tradition	-13.7154
titude	-13.7162
8,6	-13.7162
xu	-13.7165
milli	-13.7169
geographic	-13.7169
recontaminate	-13.717
surround	-13.7174
eijin	-13.7176
remot	-13.7176
syndrom	-13.718
recept	-13.7183
deci	-13.7183
japa	-13.7183
,69	-13.7183
nutritio	-13.7184
agree	-13.7185
959	-13.7188
intensif	-13.7188
alka	-13.7189
navratr	-13.7189
materi	-13.719
mobil	-13.719
polycy	-13.7191
battl	-13.7193
symbol	-13.7193
oblig	-13.7195
tinguish	-13.7197
cussion	-13.7197
script	-13.7197
7,8	-13.7197
gnostic	-13.7197
ं	-13.7197
ब	-13.7197
corp	-13.7197
temperat	-13.7197
1,31	-13.7197
▁¦2004–2008	-13.7197
4,12	-13.7197
2373¦	-13.7197
=	-13.7197
cultivate	-13.7197
discrepanc	-13.7197
endemic	-13.7197
expansion	-13.7197
hairdress	-13.7197
karonamukt	-13.7197
mahashivaratr	-13.7197
ò	-13.7197
č	-13.7197
ş	-13.7197
γ	-13.7197
क	-13.7197
र	-13.7197
汉	-13.7197
漢	-13.7197
ü	-13.7197
炎	-13.7197
]	-14.6607
च	-14.7197
ळ	-14.7197
ो	-14.7197
火	-14.7197
£	-14.7197
å	-14.7197
é	-14.7197
ó	-14.7197
ई	-14.7197
ओ	-14.7197
द	-14.7197
प	-14.7197
ल	-14.7197
व	-14.7197
श	-14.7197
′	-14.7197
眼	-14.7197
त	-14.7197
’	-15.9905
%	-15.9906
(	-15.9907
