<pad>	0
</s>	0
<unk>	0
¦	-1.2877
▁¦	-1.28794
▁.	-3.72059
ة	-4.11443
ال	-4.15604
ا	-4.1917
و	-4.81279
في	-4.87032
من	-4.92824
وا	-5.00907
ى	-5.02653
ه	-5.15264
ي	-5.25073
ّ	-5.33567
لى	-5.40134
ع	-5.48679
ان	-5.51411
الرب	-5.55066
ك	-5.56157
ل	-5.57055
ون	-5.58239
ين	-5.66807
ب	-5.7243
ت	-5.85662
ف	-5.85955
كل	-5.88161
لا	-5.92278
هم	-6.06446
م	-6.06879
ها	-6.10551
الذي	-6.15796
ما	-6.28324
ن	-6.28411
كم	-6.41779
اسرائيل	-6.43281
يا	-6.45061
قد	-6.45247
نا	-6.53186
لل	-6.54831
وال	-6.5765
الله	-6.59429
هذا	-6.59999
هو	-6.60303
ولا	-6.60615
لم	-6.65005
له	-6.70257
ذا	-6.73124
الارض	-6.74253
د	-6.78369
التي	-6.78843
فقال	-6.85512
لان	-6.87292
جميع	-6.90325
يضا	-6.91759
عن	-6.93525
لي	-6.95387
بيت	-6.95571
بن	-6.99422
كان	-7.0147
الملك	-7.05592
وقال	-7.05777
ملك	-7.08099
قال	-7.1044
انا	-7.10464
ذلك	-7.1152
واحد	-7.11609
اء	-7.12166
ني	-7.12782
رب	-7.12891
ر	-7.16712
مع	-7.17686
بال	-7.17831
ذين	-7.20812
لانه	-7.21041
بني	-7.22042
بل	-7.22382
ثم	-7.25945
كذا	-7.26631
وكان	-7.29804
به	-7.30327
لهم	-7.30576
يسو	-7.315
عند	-7.33655
اود	-7.35064
اليوم	-7.36983
اذا	-7.37589
حت	-7.40131
الشعب	-7.41147
كما	-7.4204
هنا	-7.42507
امام	-7.45502
ايام	-7.46665
يهو	-7.47346
وكل	-7.48493
ارض	-7.48623
قائلا	-7.50169
بعد	-7.51716
ابن	-7.52177
عليه	-7.53636
اور	-7.54632
مدين	-7.55001
يكون	-7.55127
ذه	-7.55722
ومن	-7.56821
شليم	-7.56986
ء	-7.58272
انت	-7.58435
موس	-7.58948
عشر	-7.65657
حسب	-7.657
ولم	-7.66076
ليس	-7.66968
واما	-7.67357
وفي	-7.68461
او	-7.68576
انه	-7.69369
يقول	-7.69931
لك	-7.70608
لكي	-7.70811
لكم	-7.71299
عل	-7.7197
بنو	-7.72893
ولكن	-7.74027
بين	-7.75425
وه	-7.77269
كلام	-7.78429
مصر	-7.78924
حين	-7.80054
هي	-7.80224
أ	-7.80972
وي	-7.83475
س	-7.84093
كثير	-7.85329
ات	-7.85907
ام	-7.87702
شعب	-7.90932
رجل	-7.91532
اني	-7.92002
وت	-7.92304
سن	-7.93126
وع	-7.93985
يها	-7.96977
يوم	-7.97378
الآن	-7.98384
اجل	-7.99984
ق	-8.00794
وان	-8.00908
مئ	-8.01136
امم	-8.02512
احد	-8.0305
اذ	-8.03378
يد	-8.04509
ته	-8.0582
فيه	-8.07743
نار	-8.08275
سماء	-8.08461
بها	-8.09877
رجال	-8.10081
عمل	-8.10781
اله	-8.10964
وسط	-8.12364
ص	-8.12749
ولما	-8.13059
ول	-8.1353
جاء	-8.13762
عظيم	-8.14313
قائل	-8.15443
فلا	-8.16476
ذهب	-8.16481
لاني	-8.1671
مت	-8.16898
مثل	-8.16959
شي	-8.17041
وهو	-8.1881
معه	-8.20257
اما	-8.20396
اليه	-8.20474
انتم	-8.20479
ثلاث	-8.20798
ير	-8.21272
الانسان	-8.22107
ار	-8.2286
دم	-8.23324
سبع	-8.24286
تكون	-8.24438
سمع	-8.25116
انسان	-8.25825
ؤل	-8.26036
الم	-8.26296
ماء	-8.27354
ش	-8.27709
شاو	-8.2906
لاجل	-8.29085
الكاهن	-8.30944
فلما	-8.31195
فان	-8.32064
يعقوب	-8.32731
عيني	-8.33525
كلم	-8.35474
ابي	-8.36658
واذا	-8.36841
البيت	-8.36977
جدا	-8.38899
ناك	-8.39641
الهك	-8.40747
هل	-8.42059
رئيس	-8.42099
نحن	-8.42128
فلم	-8.42523
تحت	-8.42613
علي	-8.42718
الرجل	-8.42763
تي	-8.4332
نحو	-8.43645
رؤساء	-8.43877
الكهن	-8.44244
السيد	-8.44394
كنت	-8.44414
لانهم	-8.4442
اي	-8.44681
لها	-8.4551
سيف	-8.47152
لمسيح	-8.47517
لنا	-8.4764
وب	-8.47734
غير	-8.48104
امرأ	-8.48124
البحر	-8.48187
قبل	-8.48192
الابد	-8.48461
نفسه	-8.48502
صوت	-8.49292
بابل	-8.4933
اربع	-8.49564
الشر	-8.49926
ولد	-8.5143
هرون	-8.51583
قدس	-8.51729
عليهم	-8.52331
الناس	-8.52348
وجه	-8.5246
صار	-8.53087
كانوا	-8.53268
امر	-8.54007
ست	-8.54261
سليمان	-8.54615
هما	-8.55957
قلب	-8.5812
عليك	-8.58997
جبل	-8.59035
باب	-8.59596
بعض	-8.59612
الي	-8.59627
شعوب	-8.59634
تكلم	-8.59837
طريق	-8.60017
تك	-8.60493
تلك	-8.60537
عنه	-8.60553
ئذ	-8.60668
آ	-8.60725
نفسي	-8.6139
وم	-8.61892
ارسل	-8.626
كانت	-8.62786
تهم	-8.63079
لما	-8.63322
آخر	-8.63429
يكن	-8.63553
مياه	-8.63621
مسيح	-8.64721
الفلسطيني	-8.64919
لد	-8.66359
سموات	-8.66374
غضب	-8.67393
فرع	-8.67616
وهم	-8.68071
ويكون	-8.68494
ابرا	-8.68593
فت	-8.68767
خيم	-8.69274
فاجاب	-8.69627
رأ	-8.69667
هيم	-8.69749
ز	-8.69968
اسمه	-8.70221
خمس	-8.70243
جه	-8.71349
ابنه	-8.71656
يده	-8.71762
قدام	-8.71944
اقول	-8.72621
فض	-8.72853
وجميع	-8.73076
وانا	-8.73316
مكان	-8.7399
السن	-8.74266
وقد	-8.74879
نعم	-8.75105
شوع	-8.75963
منه	-8.76181
لانك	-8.76365
الروح	-8.7658
ذبيح	-8.78046
وراء	-8.78276
مدن	-8.78286
صنع	-8.78348
تم	-8.78391
الحق	-8.78623
نفسك	-8.78886
وها	-8.79119
فا	-8.79139
الاول	-8.79282
هذ	-8.7942
البري	-8.79774
ح	-8.80218
فم	-8.80269
حي	-8.80356
ئلا	-8.80803
ث	-8.80867
لكن	-8.80917
اليك	-8.81467
ور	-8.82416
فل	-8.8332
فعل	-8.8357
لجنود	-8.83637
سيدي	-8.8416
اذهب	-8.8438
انذا	-8.84871
وس	-8.84949
يس	-8.85346
مر	-8.85504
يسمع	-8.85541
فوق	-8.85596
سبط	-8.8636
يدي	-8.86604
بي	-8.86772
يين	-8.87607
حيث	-8.88177
بك	-8.89028
اكثر	-8.89792
معك	-8.89937
وعشر	-8.90352
يم	-8.90444
غنم	-8.90458
واخذ	-8.90641
قلوب	-8.90819
ايمان	-8.91062
منهم	-8.91189
المذبح	-8.91335
اليهود	-8.91423
ج	-8.91489
خرج	-8.91772
مجد	-8.92004
اسم	-8.9206
وليس	-8.93144
روح	-8.93477
بيته	-8.93506
انك	-8.94507
يف	-8.94597
راس	-8.94753
عبيد	-8.94941
أمر	-8.94996
الطريق	-8.95332
انبياء	-8.96067
موضع	-8.96116
حكم	-8.97498
تقدم	-8.98138
اردن	-8.98454
تابوت	-8.9858
نفس	-8.98694
عبد	-8.99496
يق	-8.99699
قوم	-8.9976
عبر	-8.99813
يأتي	-8.99868
نحاس	-9.00095
الشهر	-9.00212
موت	-9.00655
المرأ	-9.01247
ثان	-9.01772
العالم	-9.01824
معي	-9.02033
شيئا	-9.02133
والآن	-9.02327
وسف	-9.02333
الحقل	-9.02781
الموت	-9.02922
اسمع	-9.03406
اللاوي	-9.04867
وانت	-9.05058
خمر	-9.0516
وك	-9.05209
دار	-9.05871
آله	-9.06152
تقول	-9.06243
افرايم	-9.06464
باسم	-9.06593
خطي	-9.06943
دخل	-9.07034
سلام	-9.07699
وكانت	-9.07827
فكان	-9.07843
كذلك	-9.07895
خارج	-9.07908
نساء	-9.07913
وقت	-9.08186
النبي	-9.08434
لن	-9.0865
عبدك	-9.08955
موآب	-9.09035
مكتوب	-9.09496
ولس	-9.10134
وجاء	-9.10243
منذ	-9.10325
الثاني	-9.10595
وعمل	-9.10922
تخم	-9.10987
لرب	-9.11136
هيكل	-9.11393
قليل	-9.11478
بكل	-9.11527
جمع	-9.11606
شر	-9.11627
سكان	-9.11694
قلبه	-9.11768
الهكم	-9.11858
صباح	-9.12114
وادي	-9.12141
ط	-9.12513
ملوك	-9.12602
جعل	-9.12662
فن	-9.12818
ابني	-9.12904
الباب	-9.13406
الليل	-9.13615
صور	-9.13918
خلاص	-9.1393
ئيل	-9.13963
يخرج	-9.13998
يت	-9.14118
اليكم	-9.1422
سيد	-9.14288
اخذ	-9.14365
الف	-9.14413
ابيه	-9.1474
جيش	-9.14931
بنت	-9.14954
قو	-9.14981
العظيم	-9.15129
وصايا	-9.15359
بلا	-9.15403
شيوخ	-9.15461
خ	-9.15583
وبنو	-9.15929
كثر	-9.16249
قول	-9.16469
كون	-9.16738
الجبل	-9.16799
قام	-9.17161
يتكلم	-9.17325
وملك	-9.17923
عليكم	-9.18051
طرس	-9.18258
فانه	-9.18343
يدك	-9.18521
الفا	-9.18642
الشمس	-9.18647
صهي	-9.18867
خير	-9.1889
ضرب	-9.19023
بنيامين	-9.19434
اشرار	-9.19938
وخمس	-9.20273
وكلم	-9.20316
لكل	-9.2039
انظر	-9.20769
لبني	-9.20927
ض	-9.21072
وما	-9.21149
تها	-9.21184
الناموس	-9.21276
قلت	-9.21404
وذهب	-9.22024
بيد	-9.22093
الآب	-9.22216
لت	-9.22354
اجتماع	-9.22473
الواحد	-9.22753
الهي	-9.23646
موئيل	-9.2369
اخ	-9.23879
اولاد	-9.24027
كال	-9.24344
الشرير	-9.24452
بيوت	-9.24681
الاخو	-9.24694
اعط	-9.24703
ود	-9.24809
يموت	-9.25071
قتل	-9.2588
صعد	-9.25946
يدخل	-9.26212
اشور	-9.26272
نصيب	-9.26398
كرسي	-9.26425
يعمل	-9.26426
عني	-9.26434
ذكر	-9.26502
انهم	-9.26531
حيا	-9.26572
خبز	-9.26627
اياه	-9.2702
ملاك	-9.27277
وثلاث	-9.2738
الفض	-9.27497
شريع	-9.27581
نهار	-9.27774
اح	-9.27936
منس	-9.28043
تين	-9.28197
اخر	-9.28381
وجهه	-9.28545
خدم	-9.28546
حق	-9.28806
رؤوس	-9.29021
وجد	-9.29118
وبعد	-9.29119
جانب	-9.29347
رجلا	-9.29727
ولل	-9.29736
قلبك	-9.29817
ثمر	-9.30654
ريح	-9.30905
اخرج	-9.30945
ارمي	-9.30993
عهد	-9.31572
غ	-9.31584
آب	-9.31589
طعام	-9.31952
يفعل	-9.31993
زمان	-9.32167
وق	-9.32548
فهو	-9.32831
سبت	-9.3314
مات	-9.33461
الثالث	-9.33695
بنات	-9.33772
داو	-9.33919
بقي	-9.33969
خطايا	-9.34123
يعلم	-9.34264
سنين	-9.3428
مساء	-9.34587
اخي	-9.3466
الذهب	-9.34678
فقالت	-9.3469
كثيرا	-9.34879
قلبي	-9.35474
ملكوت	-9.35547
فجاء	-9.35742
بكر	-9.35822
داخل	-9.36097
الجسد	-9.36147
بهم	-9.36274
يعرف	-9.36311
فاخذ	-9.36748
تلاميذه	-9.36866
حزقيا	-9.36981
اهل	-9.37054
آباء	-9.3706
لانكم	-9.38033
وش	-9.38286
عوض	-9.38388
جلعاد	-9.3846
راسه	-9.38501
معهم	-9.38714
دان	-9.38972
دور	-9.39691
فارسل	-9.39737
الشمال	-9.39754
عدد	-9.39839
أليس	-9.39921
لست	-9.40071
يوس	-9.40231
الحرب	-9.40284
معا	-9.40669
آبائ	-9.40797
الجب	-9.40848
ونزل	-9.41295
أت	-9.41324
كله	-9.41615
يوجد	-9.41764
لحم	-9.41854
لوم	-9.42095
السابع	-9.42326
وارسل	-9.42329
نجس	-9.4236
فخرج	-9.42533
ايل	-9.42559
وضرب	-9.4263
ارام	-9.42652
خذ	-9.42798
عيون	-9.42884
آبائه	-9.42963
ابنا	-9.43495
ولي	-9.4353
يقدر	-9.43546
سر	-9.43606
آلا	-9.43618
سفر	-9.43663
أما	-9.43988
الجماع	-9.44048
مقدس	-9.44446
فرح	-9.44495
حجار	-9.44663
يقتل	-9.44786
حسن	-9.44813
السامر	-9.44944
وقل	-9.45215
ابواب	-9.4542
ارجع	-9.45467
تعمل	-9.45581
رأيت	-9.46202
بري	-9.46581
قم	-9.46608
سمعت	-9.46894
ادوم	-9.47152
بسبب	-9.47281
خبزا	-9.47538
وني	-9.4754
الامر	-9.47623
حجر	-9.47807
قل	-9.48736
تر	-9.4918
النهر	-9.49985
آم	-9.5017
اصعد	-9.50175
وجعل	-9.50388
وخرج	-9.50394
مالك	-9.5041
فقد	-9.50433
شعبه	-9.50434
مد	-9.50479
فاني	-9.50681
ويل	-9.50716
اعمال	-9.50885
يمين	-9.50965
نور	-9.5102
رجع	-9.51079
عز	-9.51274
قريب	-9.51297
خيل	-9.51343
المحل	-9.51413
عمله	-9.51419
اليهم	-9.51496
فهم	-9.51734
ابشا	-9.52496
وتكون	-9.52562
خرب	-9.52718
بما	-9.52747
فقام	-9.52749
ساكن	-9.52847
الوقت	-9.52924
وآب	-9.53014
واذ	-9.53301
امه	-9.53313
جبال	-9.53334
الجنوب	-9.53479
وزن	-9.5349
وضع	-9.53602
معكم	-9.53603
واربع	-9.53682
يقولون	-9.53778
انكم	-9.5388
ذراع	-9.53888
الساكن	-9.53901
يونا	-9.54148
وعل	-9.54182
جماع	-9.54273
شاقل	-9.54289
يربع	-9.54612
كف	-9.54722
وهي	-9.54804
افعل	-9.55107
ليد	-9.55143
تعلم	-9.55172
صالح	-9.55173
الدم	-9.552
جسد	-9.55239
الخطي	-9.55266
انفس	-9.55412
قسم	-9.55726
تسمع	-9.55843
تكم	-9.559
قضاء	-9.55965
مذبح	-9.56265
عمون	-9.56532
اسمك	-9.56569
فيكون	-9.56934
البر	-9.56952
مملك	-9.57244
المدن	-9.57603
سار	-9.57922
اموات	-9.58521
الحيا	-9.58606
فمن	-9.58696
قدم	-9.58739
السلام	-9.58763
احكام	-9.58808
وأ	-9.59002
وسبع	-9.59023
جلد	-9.59113
عشير	-9.5917
كن	-9.59258
بان	-9.59516
يأكل	-9.59815
المصري	-9.5989
وجوه	-9.59953
تخرج	-9.60377
يوحنا	-9.6045
يقوم	-9.60744
سبي	-9.61179
الحي	-9.61363
اسحق	-9.61838
اسباط	-9.62226
مس	-9.62314
علين	-9.62317
فرائض	-9.62385
للملك	-9.62537
رسل	-9.62779
اثني	-9.62837
ثوب	-9.62934
انفسهم	-9.63057
بت	-9.63379
نصف	-9.63416
وانتم	-9.63888
يصنع	-9.64304
دائم	-9.64563
طوب	-9.64578
الدهر	-9.64727
عبيده	-9.64757
زوج	-9.64916
عينيه	-9.652
اخطأ	-9.65248
لنفسه	-9.654
الظلم	-9.65407
ايليا	-9.6541
حديد	-9.65435
ياء	-9.65606
عين	-9.6566
است	-9.65736
وست	-9.65749
تكلمت	-9.66245
حر	-9.66599
اب	-9.66779
بحسب	-9.66801
فقط	-9.66877
ثياب	-9.66888
امامك	-9.66917
الاثم	-9.67026
يطلب	-9.67302
المقدس	-9.67409
واقام	-9.6756
تعلمون	-9.67828
لجميع	-9.67846
محرق	-9.67896
عام	-9.67941
فاط	-9.67989
فعلت	-9.67997
ومات	-9.68044
كنعان	-9.68083
عد	-9.68242
اثم	-9.68247
نزل	-9.68259
لانها	-9.68274
تأتي	-9.6829
قدر	-9.68391
يئيل	-9.68617
اعدائ	-9.68947
بئر	-9.69152
الرابع	-9.69358
اعلم	-9.69495
سقط	-9.69542
وصي	-9.69552
جاد	-9.69772
بعيد	-9.69878
اذرع	-9.69963
وصعد	-9.70101
واقف	-9.70137
اسمي	-9.70236
طول	-9.70597
وأت	-9.70739
شجر	-9.70766
نير	-9.70854
ودعا	-9.70907
حواليه	-9.71042
رحم	-9.71144
كنتم	-9.71225
وصل	-9.71288
برك	-9.71335
اثنا	-9.71526
شحم	-9.71703
خل	-9.71764
مبارك	-9.7178
وقف	-9.71956
سلا	-9.71982
يدع	-9.72095
شرق	-9.72229
ئ	-9.72293
خشب	-9.72407
جعلت	-9.72435
حول	-9.72542
عبيدك	-9.72814
سلطان	-9.7304
وحده	-9.73109
مكانه	-9.73245
جمهور	-9.73303
اخو	-9.73312
وخ	-9.73371
بشر	-9.73408
طرق	-9.73472
امرأت	-9.73477
شبه	-9.73802
تدخل	-9.73819
وعن	-9.74096
عرض	-9.74171
وبين	-9.74191
اذكر	-9.74277
واسم	-9.74281
اص	-9.74412
ملكا	-9.74718
المحرق	-9.74771
اجعل	-9.74782
مسكن	-9.74805
ليكن	-9.74832
الصد	-9.7501
خيرا	-9.75175
اد	-9.75175
هن	-9.75799
كهن	-9.75856
اقداس	-9.76409
حزن	-9.76482
بار	-9.76533
نسل	-9.76604
سي	-9.76635
المسكن	-9.76834
يش	-9.76842
ابدي	-9.77029
الغرب	-9.77038
قبر	-9.77219
خراب	-9.77222
حلف	-9.77253
الحكم	-9.77266
قطع	-9.7752
شرا	-9.77535
خوف	-9.77548
ذراعا	-9.77681
تكن	-9.77834
يتها	-9.77835
واعط	-9.77932
شعر	-9.78303
امامه	-9.78511
تأكل	-9.7856
امور	-9.78663
عنده	-9.78691
يذهب	-9.78785
نهاي	-9.79282
مطر	-9.79487
سخط	-9.79768
ليست	-9.79832
نوح	-9.79993
رام	-9.80052
صاحبه	-9.80086
شد	-9.80145
انها	-9.80147
وج	-9.80194
عشائرهم	-9.80197
رمل	-9.8038
تعرف	-9.8088
اخوته	-9.81024
رت	-9.81334
ثيابه	-9.81509
فقلت	-9.81515
عود	-9.81722
ودخل	-9.82316
داني	-9.82451
تفعل	-9.82993
صر	-9.8302
لبيت	-9.83307
بغي	-9.83524
ايديهم	-9.83526
بقر	-9.83531
ووقف	-9.83637
الاله	-9.83862
بنين	-9.83874
ضيق	-9.83978
ربنا	-9.84016
ثور	-9.84052
كسر	-9.84185
اولا	-9.84207
السبع	-9.8424
آسا	-9.84407
كذب	-9.8443
رجاء	-9.8446
وبيت	-9.84505
مقابل	-9.84793
واجعل	-9.84923
جديد	-9.85035
وبقي	-9.8506
ميراث	-9.85067
حلم	-9.85273
امان	-9.85504
ووضع	-9.85598
زيت	-9.85766
الآخر	-9.85867
بيده	-9.85909
محب	-9.86233
اخبر	-9.86377
خزي	-9.86724
رد	-9.86893
تنا	-9.86974
هاوي	-9.87026
فاذا	-9.87107
مض	-9.87127
آتي	-9.87394
بأس	-9.87483
اخوت	-9.87606
وصار	-9.87738
بيتك	-9.87741
اجر	-9.87841
وجهك	-9.87904
والذي	-9.882
بصوت	-9.88304
فدخل	-9.88535
يجد	-9.88691
مرتفعات	-9.88804
يوآ	-9.88872
اعظم	-9.88932
الكلم	-9.88964
الثلاث	-9.88993
محرقات	-9.89058
ظهر	-9.89165
باطل	-9.89193
يثبت	-9.89225
يعطي	-9.8951
نفوس	-9.89582
يرجع	-9.89623
الغد	-9.89976
طس	-9.89982
يديه	-9.9014
عنك	-9.90166
ترك	-9.90177
بوق	-9.90226
حرب	-9.90285
بر	-9.90445
جئت	-9.90828
شيطان	-9.90828
لموس	-9.90965
فصح	-9.91256
لبن	-9.91362
اعين	-9.91517
ايدي	-9.91597
ظلم	-9.91644
اسد	-9.91804
مركبات	-9.91854
اول	-9.9188
وص	-9.9192
جيد	-9.9201
ميخا	-9.92112
حبرون	-9.92144
ضد	-9.92148
وعند	-9.92203
عظم	-9.92273
جر	-9.93203
وسجد	-9.93221
تصنع	-9.93479
طلب	-9.93558
ابيك	-9.93625
اجاب	-9.93693
وصنع	-9.93702
فذهب	-9.93821
كلمات	-9.93821
المغن	-9.93959
غريب	-9.93985
علم	-9.94064
خرجت	-9.9414
وجدت	-9.94231
فأت	-9.94241
كامل	-9.94258
فمه	-9.94272
معنا	-9.94407
واخبر	-9.94552
كنيس	-9.94637
بارك	-9.9469
دقيق	-9.94724
الجليل	-9.94733
سجن	-9.94763
طيور	-9.94793
تلاميذ	-9.9488
نظر	-9.94975
هلاك	-9.94997
مسح	-9.95065
غن	-9.95095
الكلداني	-9.95213
سكن	-9.95448
بكم	-9.9546
وجهي	-9.95495
اخت	-9.95536
رأوبين	-9.95571
وانظر	-9.95766
ثماني	-9.95829
تخوم	-9.95914
امير	-9.95938
فصعد	-9.96262
قر	-9.96265
جن	-9.96285
باش	-9.96346
فتكون	-9.96348
السحاب	-9.96379
شق	-9.96385
زرع	-9.96416
دعا	-9.96434
وهذا	-9.96474
نسلك	-9.96483
ابناء	-9.96525
را	-9.96553
ارز	-9.96691
جت	-9.96719
لصوت	-9.96733
حكماء	-9.9676
فما	-9.96869
مل	-9.96992
قدامه	-9.97012
تن	-9.97398
دفع	-9.97433
عشب	-9.97447
قص	-9.97571
خر	-9.97573
الامور	-9.97605
صغير	-9.97624
رؤيا	-9.97675
فدعا	-9.97718
صنعت	-9.97719
بحر	-9.97976
منظر	-9.9806
عبدي	-9.98074
رفع	-9.98294
ملائك	-9.98418
شاهد	-9.98425
اطلب	-9.98448
لاوي	-9.9847
واللاوي	-9.98483
از	-9.98658
حاز	-9.98813
اقام	-9.98841
حن	-9.98899
ومت	-9.98965
الملوك	-9.99
ميت	-9.99025
معل	-9.99235
قا	-9.99279
ظلام	-9.99367
قيل	-9.99468
العهد	-9.99552
عظام	-9.99629
يأخذ	-9.99646
بعل	-9.99682
يسقط	-9.99702
ذبح	-9.99708
ورؤساء	-9.9981
ابا	-9.99921
يوما	-9.99929
تعط	-10.0016
معرف	-10.0018
تني	-10.0019
شديد	-10.0033
آني	-10.0042
ناموس	-10.0046
وقالت	-10.0054
آمن	-10.0086
اق	-10.0098
ادخل	-10.0107
بنيه	-10.0109
يه	-10.0114
يحفظ	-10.0117
انجيل	-10.0123
محل	-10.0145
ياتي	-10.0145
ذبائح	-10.015
ضعف	-10.0152
ورجع	-10.0152
حور	-10.0168
عابر	-10.0169
بخور	-10.0172
اراضي	-10.0173
بينهم	-10.018
اس	-10.0204
عندك	-10.0226
وث	-10.0242
اخيه	-10.0253
احب	-10.0264
صرت	-10.0266
اناس	-10.0272
حقل	-10.0281
جنود	-10.0288
الجوع	-10.0302
يسكن	-10.0308
القديس	-10.0339
يحب	-10.035
كرم	-10.0356
اقوال	-10.0363
تخف	-10.0366
يقف	-10.0367
كنا	-10.0368
مما	-10.0368
تأخذ	-10.0395
الخبز	-10.0401
قدوس	-10.041
سل	-10.0417
حل	-10.0438
فريض	-10.0445
الصالح	-10.0449
سور	-10.0478
قت	-10.0481
رحب	-10.0487
الكتاب	-10.0489
ارد	-10.0499
الشرق	-10.0507
يسر	-10.0519
يصعد	-10.0528
حمي	-10.0531
الكذب	-10.0532
وعد	-10.0537
برص	-10.0566
شهر	-10.057
المجد	-10.0575
فصار	-10.0577
ارفع	-10.0577
سائر	-10.0591
سريع	-10.0601
نذر	-10.0613
وقلت	-10.0614
جمال	-10.0614
واخوته	-10.0624
حمو	-10.0626
كي	-10.0628
البقر	-10.0637
ثاني	-10.0643
تسع	-10.065
قفر	-10.0657
النور	-10.0663
مجمع	-10.0691
الخير	-10.0699
ذنب	-10.0709
عشائر	-10.0712
اعطي	-10.0722
شكيم	-10.0742
سرور	-10.0744
حامل	-10.0748
جبابر	-10.0752
ردي	-10.0752
حنط	-10.0755
عهدا	-10.0766
هدي	-10.0772
يسلم	-10.0787
غدا	-10.0789
يبق	-10.0794
مسكين	-10.0795
اليهودي	-10.0799
شا	-10.0807
تت	-10.0816
طريقه	-10.0824
التراب	-10.083
اجتمع	-10.0851
اعطيت	-10.0853
عرف	-10.0886
هرب	-10.0902
لئك	-10.0903
بعضهم	-10.0903
نهر	-10.0916
مدخل	-10.0916
ارتحل	-10.0935
صراخ	-10.0939
جبع	-10.0941
غضبه	-10.0969
يل	-10.0975
عرفت	-10.0979
ابوه	-10.098
واصعد	-10.0982
الساع	-10.0994
فخر	-10.0994
يجعل	-10.1001
جد	-10.1005
المر	-10.1007
هلم	-10.1023
ففعل	-10.1025
المعدود	-10.1047
حائط	-10.1047
رائح	-10.105
ليكون	-10.1061
نجسا	-10.1068
يؤمن	-10.1075
بطن	-10.1096
السفين	-10.1106
مح	-10.1117
فمات	-10.112
يهوش	-10.1121
مرد	-10.1122
الصبي	-10.1127
ولدت	-10.1135
صف	-10.1139
اصنع	-10.1153
قضي	-10.1167
بالرب	-10.117
قيم	-10.1187
فه	-10.1189
تعب	-10.1199
دون	-10.1204
جموع	-10.1206
بالحق	-10.122
قط	-10.1229
غش	-10.1247
عبده	-10.1253
اتكلم	-10.1255
فسمع	-10.1271
قاد	-10.1296
عينا	-10.1298
تسبيح	-10.1304
الفريسي	-10.1305
قوي	-10.1312
رجليه	-10.1323
وعر	-10.1323
ابنك	-10.1352
عاد	-10.1353
تذكر	-10.1357
كلهم	-10.1364
يعل	-10.1368
عزر	-10.1369
يخطئ	-10.1375
جالس	-10.1378
مزم	-10.1393
الههم	-10.1395
رحمته	-10.1402
نقي	-10.1408
عم	-10.1416
مشور	-10.1429
يخبر	-10.1436
قري	-10.144
عالم	-10.1472
عجل	-10.1478
عر	-10.1487
ملكه	-10.1495
بكلام	-10.1496
انهار	-10.1508
الخامس	-10.1523
دوا	-10.1557
وتصنع	-10.1558
يقبل	-10.1564
ومض	-10.1575
سوا	-10.1575
وقتل	-10.1579
بجانب	-10.1589
فتح	-10.1591
وحدث	-10.1595
وسمع	-10.1601
عصا	-10.1605
تذهب	-10.1606
ورأ	-10.1608
وسار	-10.1614
آيات	-10.163
حولي	-10.1643
حبل	-10.1687
دمشق	-10.1695
صاعدا	-10.1696
افضل	-10.1697
العلي	-10.1706
اطلق	-10.171
كر	-10.1719
لو	-10.1721
فطير	-10.1723
الصخر	-10.1726
لسان	-10.1761
وراءه	-10.1764
شف	-10.1768
الكتب	-10.1772
الاربع	-10.1773
حقا	-10.1781
صانع	-10.1788
وز	-10.1788
العمل	-10.1789
ياكل	-10.1789
الخارج	-10.1801
وتكلم	-10.1824
غلمان	-10.1856
خاي	-10.1862
كاهن	-10.1869
سب	-10.187
عنهم	-10.1883
رنم	-10.1885
يوب	-10.1889
حد	-10.1899
قربان	-10.1912
ابو	-10.1912
ونصف	-10.1912
يسير	-10.1916
اعرف	-10.1918
الاموري	-10.1925
ليشع	-10.1925
سين	-10.1931
إ	-10.1948
وحي	-10.1965
تعد	-10.1973
سيده	-10.198
افكار	-10.2007
تموت	-10.2014
داع	-10.2026
اضطجع	-10.2036
شمعي	-10.2039
جب	-10.2044
نبوخذن	-10.2069
فس	-10.2077
علمت	-10.2081
جز	-10.2082
رم	-10.2088
لستم	-10.2088
يطلبون	-10.2102
تصير	-10.2105
اجمع	-10.2106
علام	-10.2107
يعطيك	-10.2117
ذي	-10.2151
فر	-10.2155
ارسلت	-10.2159
راح	-10.2163
صاحب	-10.2169
فلي	-10.2174
القت	-10.2183
الملاك	-10.2196
تس	-10.22
يستطيع	-10.2203
وبن	-10.2206
طرقه	-10.222
العدل	-10.2231
ويقول	-10.2245
خارجا	-10.226
اقيم	-10.2269
ساع	-10.2272
برج	-10.2276
الهه	-10.2279
كبير	-10.23
مريم	-10.2313
فأ	-10.2316
بجميع	-10.2331
اللذ	-10.2338
واخرج	-10.2348
لبس	-10.2354
اراد	-10.2368
زن	-10.237
رعب	-10.2381
الغريب	-10.239
صل	-10.2408
رق	-10.2412
وقع	-10.2429
فضرب	-10.2432
ألعل	-10.2449
اسماء	-10.2455
اصل	-10.2457
الكنعاني	-10.2475
وعبر	-10.2477
نبو	-10.2478
وعز	-10.2479
بسلام	-10.249
حصن	-10.2525
روحي	-10.2527
فيكم	-10.2527
بيلا	-10.2535
وعبد	-10.2555
داب	-10.2556
حفظ	-10.2562
ممالك	-10.2565
حمل	-10.2566
يوشي	-10.2585
تمثال	-10.2589
احدا	-10.2609
وبنيه	-10.261
فنزل	-10.2617
وحوش	-10.2621
المحب	-10.2625
غنيم	-10.2631
عيد	-10.2637
السبي	-10.2641
ترس	-10.2647
يشرب	-10.2652
شرب	-10.2659
تان	-10.2662
ارضه	-10.2663
وهذ	-10.267
مرات	-10.2673
المعز	-10.2675
الضيق	-10.2702
دينون	-10.2711
نهب	-10.2724
يهلك	-10.2739
ويهو	-10.2745
ومع	-10.2745
جند	-10.2752
بالروح	-10.2755
سك	-10.2761
وح	-10.2772
نبي	-10.2777
يعط	-10.2788
صدق	-10.2804
ويجعل	-10.2805
منك	-10.2805
الكبير	-10.2808
وولد	-10.2809
والي	-10.281
دعي	-10.2811
المستقيم	-10.2816
بهائم	-10.2823
حدث	-10.2833
اجيال	-10.2835
نعلم	-10.2837
وط	-10.2853
السور	-10.2856
تقدر	-10.286
بد	-10.286
ذاك	-10.2878
افواه	-10.2883
يهويا	-10.2887
يحمل	-10.2895
كشف	-10.293
عينه	-10.2933
الكثير	-10.2938
كتاب	-10.2944
يرد	-10.2946
لوقت	-10.2946
يز	-10.2952
رجلي	-10.2956
ثقل	-10.2958
اباه	-10.2969
لعام	-10.2975
صخر	-10.2976
وئيل	-10.2982
صحيح	-10.2996
ائيل	-10.2997
عملت	-10.3005
جاز	-10.3006
خبر	-10.3011
الجيل	-10.3012
خزائن	-10.3022
تثبت	-10.3029
كتان	-10.3036
فاخبر	-10.3038
بلاد	-10.3043
وجلس	-10.3045
وسطك	-10.305
لبهائم	-10.3058
خبار	-10.3058
اقترب	-10.3071
لانفس	-10.311
تجعل	-10.3112
ظل	-10.3112
قرع	-10.3113
شهد	-10.3119
ارضك	-10.3131
ايم	-10.3133
الاخير	-10.3145
دعو	-10.3146
حسنا	-10.3148
ألم	-10.315
ارضهم	-10.3157
الحجر	-10.3161
جوع	-10.3168
يسمعون	-10.3176
عار	-10.3178
طاهر	-10.3184
ثورا	-10.319
موا	-10.3199
مرض	-10.3204
سأل	-10.3206
اشع	-10.3229
وادخل	-10.3235
تنظر	-10.3238
فكي	-10.3254
العدو	-10.3277
يصير	-10.3278
مائد	-10.3286
شعبا	-10.3291
صدقي	-10.3294
اشجار	-10.3298
سا	-10.33
اسفل	-10.3308
تعطي	-10.3322
تنبأ	-10.3323
غطاء	-10.3324
رآه	-10.333
فليس	-10.3339
القديم	-10.3345
اشير	-10.335
اريد	-10.336
فكانت	-10.3369
دين	-10.337
لامام	-10.3374
وقام	-10.3395
شبع	-10.3398
امي	-10.3398
طالب	-10.3398
لانفسهم	-10.3421
فارس	-10.3426
قي	-10.3427
سدو	-10.3429
سوف	-10.3429
روا	-10.3439
غفر	-10.3439
ثبت	-10.3479
احمد	-10.3481
ابد	-10.3489
ثيران	-10.3495
مخل	-10.3497
فكلم	-10.3501
مسرح	-10.3503
زبولون	-10.3505
فات	-10.352
صادق	-10.353
اطين	-10.3533
سم	-10.3546
يفن	-10.3546
الق	-10.3547
آي	-10.355
احفظ	-10.355
رسلا	-10.355
تتكلم	-10.3561
كلامك	-10.3571
اخذت	-10.3583
البعل	-10.3591
غلام	-10.3593
صبر	-10.3595
آخذ	-10.3615
خلص	-10.3626
نج	-10.3635
عرش	-10.3639
تضع	-10.3649
النعم	-10.3653
رفعت	-10.3665
الشهاد	-10.3666
ثق	-10.3674
حوله	-10.3684
فتقدم	-10.3688
ايادي	-10.3695
مملوء	-10.3695
هتاف	-10.3696
الصغير	-10.3696
فق	-10.3703
شمعون	-10.3704
البار	-10.3715
فرجع	-10.3731
شوك	-10.3735
وقود	-10.3737
رفق	-10.3754
قدامك	-10.3765
الغلام	-10.3774
عدا	-10.3789
يات	-10.3799
شهاد	-10.3806
راحي	-10.383
قدير	-10.3832
بسط	-10.3835
آذان	-10.3835
راسي	-10.3856
ينظر	-10.3873
يترك	-10.3874
فوجد	-10.3893
يخلص	-10.3898
ابواق	-10.3903
وعاش	-10.3917
يأكلون	-10.3925
ورفع	-10.3944
يلبس	-10.3957
اليمن	-10.3958
يبصر	-10.399
الضرب	-10.3998
صوته	-10.4022
قوس	-10.4024
تحفظ	-10.4034
قاء	-10.405
باطلا	-10.4053
جبار	-10.4062
يدين	-10.4063
قصر	-10.4069
بالاق	-10.4072
طرد	-10.408
يقيم	-10.4083
مستقيم	-10.4086
رض	-10.4092
يصل	-10.4093
الثامن	-10.4107
بغت	-10.4108
خاف	-10.4109
غربا	-10.411
شم	-10.4116
قدسه	-10.4132
سلاح	-10.4134
أف	-10.4143
بطل	-10.4146
غسل	-10.4156
رمح	-10.4168
قوته	-10.4174
الوف	-10.4179
جلج	-10.418
الثور	-10.418
السفر	-10.4185
مجده	-10.4188
تهلك	-10.4191
ينزل	-10.4193
سماعي	-10.4196
دهن	-10.4203
زر	-10.421
وجمع	-10.4212
يعبر	-10.4214
ومسارح	-10.422
حشب	-10.4237
الجالس	-10.4259
الباقي	-10.4268
ظ	-10.4278
لاسرائيل	-10.4287
حارب	-10.4288
مذابح	-10.4306
عدو	-10.4317
هيرودس	-10.4319
ذنوب	-10.4319
بالحري	-10.4319
ساق	-10.4321
قيصر	-10.4321
ريحا	-10.4321
قصب	-10.4327
ملعون	-10.4331
ارا	-10.4334
الجاهل	-10.4339
صلب	-10.4342
صرخ	-10.4353
تمسك	-10.4361
انسانا	-10.4363
الداخلي	-10.4368
كور	-10.4369
اخاه	-10.4372
وآخر	-10.4381
ألا	-10.4385
يرفع	-10.4408
والعشر	-10.441
حمق	-10.4419
اوص	-10.4419
عجائب	-10.442
تعال	-10.4422
حيوانات	-10.4438
حضر	-10.4445
اكتب	-10.4468
فيض	-10.4468
ونظر	-10.4471
راعي	-10.4479
وحين	-10.4481
يجلس	-10.4494
حما	-10.4502
تطلب	-10.4506
خمسين	-10.4512
تدع	-10.4521
سبق	-10.4524
استقام	-10.4535
وسكن	-10.4539
لأ	-10.4547
حارس	-10.4554
مرار	-10.4563
ثلث	-10.4583
ترجع	-10.4586
فكر	-10.4595
حراس	-10.4601
نظرت	-10.4608
واذهب	-10.4617
مساكن	-10.4618
عظ	-10.4621
غل	-10.4645
تيم	-10.466
قائم	-10.4664
خراف	-10.4674
نفتالي	-10.4674
لابرا	-10.4674
ليل	-10.4675
وبيد	-10.4678
عس	-10.4678
قرون	-10.4697
يأتون	-10.4704
دع	-10.4713
حم	-10.4717
بم	-10.474
حث	-10.4746
كتبت	-10.4747
تأديب	-10.4759
معروف	-10.4759
جدعون	-10.4759
دخلت	-10.4762
جميل	-10.4762
شغل	-10.4765
ترنم	-10.4765
تصعد	-10.4769
خروج	-10.4783
حز	-10.4794
فيك	-10.481
تريد	-10.4812
فمك	-10.4813
وار	-10.4818
الكاتب	-10.4818
طين	-10.4826
وبك	-10.4827
امامهم	-10.4841
كباش	-10.4845
مز	-10.4846
نصب	-10.485
الفقير	-10.4854
سيح	-10.4858
وخذ	-10.4861
حا	-10.487
الاثني	-10.4872
وبني	-10.4872
لتكن	-10.4878
بدون	-10.4879
بقو	-10.4909
نوم	-10.4909
طرف	-10.4925
مزمع	-10.4932
دخول	-10.4953
سبب	-10.4954
الينا	-10.4955
جسده	-10.4967
تاج	-10.4972
اللحم	-10.4973
قض	-10.4977
كتب	-10.4978
السادس	-10.4986
مساكين	-10.4986
آت	-10.4986
كبرياء	-10.4987
وبنات	-10.4987
الفهم	-10.4998
آكل	-10.5002
يحيا	-10.502
هدم	-10.503
المسكون	-10.5037
فاعط	-10.5038
الآتي	-10.5039
نون	-10.5042
مضي	-10.505
وحش	-10.505
ياخذ	-10.5054
امس	-10.506
رون	-10.5074
بناء	-10.5075
خجل	-10.5077
حو	-10.5085
لشعب	-10.5086
يظهر	-10.5087
اعمد	-10.5088
فاجتمع	-10.5092
عدم	-10.5092
يفهم	-10.5094
اسرع	-10.5098
اش	-10.51
ابتدأ	-10.5102
لملوك	-10.5127
زكري	-10.5137
شمش	-10.5146
فهي	-10.515
الاشي	-10.5157
القائل	-10.5171
يحسن	-10.5174
قالت	-10.5183
يعود	-10.5191
دمه	-10.5194
سكب	-10.5204
فرق	-10.5208
تعليم	-10.5215
ونني	-10.5219
جيوش	-10.5219
ناد	-10.5227
يعرفون	-10.5229
وقراه	-10.5239
الراس	-10.5249
قدمي	-10.5253
عامل	-10.526
صرف	-10.5265
كرام	-10.5268
والرب	-10.5287
القدوس	-10.529
اصحاب	-10.5292
فرز	-10.5292
اذني	-10.5298
دفن	-10.5302
شريعت	-10.5325
تراب	-10.5331
طل	-10.5335
اصنام	-10.5335
شهود	-10.5374
بهيم	-10.5388
اعم	-10.5388
رسال	-10.5389
لله	-10.539
تشدد	-10.5395
بارا	-10.5403
الرحم	-10.5415
غلف	-10.5419
يهرب	-10.5424
كلامه	-10.5426
رئيسا	-10.5427
سفن	-10.5435
يغسل	-10.5459
فراش	-10.5462
ذو	-10.5464
اثنتي	-10.5467
بيتي	-10.547
اشهر	-10.5472
عش	-10.5473
شكر	-10.5474
الارامي	-10.5478
ضع	-10.5484
نس	-10.5485
الابدي	-10.549
بنون	-10.5495
اط	-10.5499
كبش	-10.5502
امصي	-10.5502
تحب	-10.5508
اصر	-10.551
خضر	-10.551
قمح	-10.5519
كلاهم	-10.5522
كاس	-10.5547
لهرون	-10.5548
ومجد	-10.5551
بشي	-10.556
راي	-10.5562
فأخذ	-10.5566
البشر	-10.5571
سحاب	-10.5587
آه	-10.5588
لباس	-10.5591
اسوار	-10.5593
وهرب	-10.5599
لرجل	-10.5627
العين	-10.5628
اريح	-10.5638
الكرم	-10.5639
اجد	-10.5653
المعرف	-10.5671
فد	-10.5676
تموه	-10.5687
طوله	-10.5699
العرب	-10.57
مستدير	-10.57
قبور	-10.5713
ابيش	-10.5714
قبض	-10.5716
ابصر	-10.5718
مخدع	-10.5726
يخل	-10.5733
حطب	-10.5736
يفتح	-10.5739
تمام	-10.5742
صح	-10.5757
جث	-10.5759
وسقط	-10.5775
رث	-10.5784
وكبش	-10.5785
فتن	-10.5787
قرب	-10.5792
تقي	-10.5808
ومعه	-10.581
اوصيك	-10.5811
يفرح	-10.5814
بغض	-10.582
يجب	-10.5821
الابن	-10.5848
حيوان	-10.5849
عور	-10.5855
اقص	-10.5863
ختان	-10.5865
اخوتك	-10.5867
بدل	-10.5868
وقطع	-10.5879
اخوتهم	-10.5883
فانا	-10.5886
لبنا	-10.5886
خدام	-10.5889
رحمتك	-10.5895
يضع	-10.5896
اعدائك	-10.5902
يطلق	-10.5902
حال	-10.5907
وبنوه	-10.5908
فضل	-10.5913
انقذ	-10.5915
حب	-10.593
خيام	-10.5933
سهام	-10.5939
وناد	-10.5942
البكر	-10.5943
يختار	-10.5951
حكيم	-10.5951
فصرخ	-10.5952
كريم	-10.5955
دخان	-10.5969
عثر	-10.5988
صعدت	-10.5988
وبارك	-10.5988
اذن	-10.5994
مديان	-10.5998
حمار	-10.6001
طيب	-10.6012
دعوا	-10.6016
اكليل	-10.603
رمم	-10.604
بالسي	-10.6045
الحكيم	-10.6051
عالي	-10.6052
يرسل	-10.6053
حقول	-10.6064
ويشرب	-10.6074
رفض	-10.6085
قاتل	-10.6089
ضل	-10.6096
بق	-10.6099
رعا	-10.61
مراري	-10.6101
وذبح	-10.6113
يحل	-10.6118
تجار	-10.6121
اجتاز	-10.6122
فك	-10.6123
فهل	-10.6124
شقق	-10.6125
مذبحا	-10.6133
يموث	-10.614
والم	-10.6153
رعد	-10.6155
بكلم	-10.6164
لب	-10.6167
التقدم	-10.618
الرام	-10.619
وخمسين	-10.6191
طير	-10.62
يتنبأ	-10.6204
يقر	-10.6205
تل	-10.6206
استيقظ	-10.6207
ارواح	-10.621
الام	-10.6216
يزيد	-10.6217
واسحق	-10.6225
تلد	-10.6235
ألي	-10.6242
ابينا	-10.6246
الوحش	-10.6252
اخيك	-10.6252
الولد	-10.6265
ارسله	-10.6266
يحملون	-10.6283
ذ	-10.6286
طرح	-10.6288
فمض	-10.6294
وامر	-10.6297
منطق	-10.6313
طلبت	-10.6313
واور	-10.6322
صفا	-10.6325
قمر	-10.6339
فهرب	-10.6341
جلب	-10.6351
العبراني	-10.6353
بفرح	-10.6354
عي	-10.6359
ولو	-10.6359
لحرب	-10.6362
سهل	-10.6364
يعد	-10.6367
تسلك	-10.6371
ومر	-10.6373
يأت	-10.638
غي	-10.6383
آثام	-10.6386
احسن	-10.6405
جلس	-10.6411
فاذ	-10.6416
طهر	-10.6418
ورش	-10.6418
يعلمون	-10.642
صوم	-10.645
ذاهب	-10.6452
امامكم	-10.646
ابطال	-10.6461
قبله	-10.6464
قورح	-10.6468
مدينته	-10.647
عذراء	-10.6473
اقسم	-10.6473
ملتوت	-10.6474
واتي	-10.6484
رماد	-10.6487
مجي	-10.6489
تشرب	-10.6495
جرح	-10.6499
حاكم	-10.6509
ابوابك	-10.6511
تسقط	-10.6522
نجاس	-10.6522
جبعون	-10.6533
مون	-10.6552
ائه	-10.6563
بنوه	-10.6565
رؤوسهم	-10.6575
غط	-10.6584
قف	-10.66
حفر	-10.6603
الشجر	-10.6608
وطلب	-10.6613
قيام	-10.662
وغش	-10.6621
فلن	-10.6622
اسأل	-10.6634
آباؤ	-10.6635
تحمل	-10.6646
تقوم	-10.6658
تضرع	-10.6669
تعود	-10.667
فرغ	-10.6671
ضحك	-10.6672
ونها	-10.6675
انته	-10.6675
زور	-10.6694
حافظ	-10.6699
كروم	-10.6705
اباد	-10.6713
أخر	-10.6718
ملأ	-10.6723
ذهاب	-10.6728
شمس	-10.6734
شهو	-10.6748
دائر	-10.6748
اخطأت	-10.6749
احببت	-10.6754
وبال	-10.6754
بيض	-10.6756
ليعمل	-10.6758
قياس	-10.6759
يكف	-10.6762
ويعقوب	-10.6763
يتم	-10.6763
مثله	-10.6765
فسقط	-10.6767
وشعب	-10.6767
تترك	-10.6776
سمعتم	-10.6791
لهيب	-10.6797
جواب	-10.6799
يحكم	-10.6815
حاشا	-10.6817
عيب	-10.6823
عبدا	-10.6831
يكلم	-10.6838
سير	-10.685
رص	-10.6854
ورام	-10.6855
لملك	-10.686
يدعو	-10.6862
وبيوت	-10.6872
شمال	-10.6881
ولكل	-10.6885
بون	-10.6892
ليت	-10.6905
حنن	-10.6907
الحصاد	-10.6909
سلب	-10.6915
وسكان	-10.6915
اعمالك	-10.692
كالب	-10.6922
غز	-10.693
الرداء	-10.6937
ربط	-10.6938
وتجعل	-10.6942
حاج	-10.6944
القاتل	-10.6954
خروف	-10.6959
ارتفع	-10.696
الزيت	-10.6965
ابر	-10.6971
ادوني	-10.6974
سمعنا	-10.698
صادو	-10.6985
المئ	-10.6994
عمق	-10.6996
تبق	-10.6998
ساعد	-10.6998
يزرعيل	-10.7018
التاسع	-10.7018
عماليق	-10.7018
جم	-10.7022
يمكن	-10.7023
مراحم	-10.7023
تقل	-10.7026
لحما	-10.7028
عير	-10.7031
شعير	-10.7035
▁	-10.7045
حصون	-10.7047
مست	-10.7058
سبوت	-10.7059
يضرب	-10.7068
مشيئ	-10.7085
المس	-10.7097
الموجود	-10.7101
وشرب	-10.7102
اوثان	-10.7121
طو	-10.7122
ترون	-10.7125
وحارب	-10.7131
ولول	-10.7133
العر	-10.7138
شرك	-10.7143
طلع	-10.7152
تاكل	-10.7155
المؤمن	-10.7155
حرم	-10.7157
سكر	-10.7169
العجل	-10.717
واست	-10.7171
واعطاه	-10.7184
سلم	-10.7186
وصوت	-10.7194
وولدت	-10.7213
فوقف	-10.7217
ورد	-10.722
وابن	-10.7226
جالسا	-10.7226
وسمعت	-10.7228
جسدي	-10.7238
تخافو	-10.724
فصل	-10.7249
ائس	-10.7252
سيا	-10.7256
ينقذ	-10.7264
اضع	-10.7269
بإ	-10.7276
الوصي	-10.7279
يمينه	-10.7296
يذكر	-10.7296
وتقدم	-10.7299
شيلو	-10.73
عاي	-10.7302
شرير	-10.7303
قبائل	-10.7305
كاذب	-10.731
وبأ	-10.7311
تعظم	-10.7326
وصرخ	-10.7327
عظماء	-10.733
مرا	-10.7341
نجوم	-10.7341
يجي	-10.7345
صد	-10.7346
بحد	-10.7347
الخشب	-10.7348
فتعلم	-10.7348
يمسك	-10.7348
لح	-10.735
لوط	-10.7369
وابتدأ	-10.7371
رجعت	-10.7374
اتبع	-10.7374
سام	-10.7379
زب	-10.7386
ودفن	-10.7389
سقطت	-10.74
فني	-10.7401
وابي	-10.7404
يطرد	-10.7405
اختار	-10.7406
فرأ	-10.7407
بث	-10.7415
كوش	-10.7427
دما	-10.7428
انزل	-10.7432
جثث	-10.7435
سبحو	-10.7444
اصغ	-10.7452
وذبائح	-10.7471
مه	-10.75
يشهد	-10.7501
صلات	-10.7511
اعطاه	-10.7513
اسمانجوني	-10.752
ختم	-10.7526
وأمر	-10.7529
صلا	-10.7555
رأت	-10.756
بدم	-10.7563
الخروف	-10.7593
القرع	-10.7594
فتحت	-10.7596
فعله	-10.7597
فاخرج	-10.7598
شوارع	-10.7598
قطيع	-10.7598
ترنيم	-10.7599
حجاب	-10.7607
سعير	-10.7614
بيدك	-10.7622
صاعد	-10.7627
صو	-10.7629
امتع	-10.7645
يهوآ	-10.765
صبح	-10.7653
للرجل	-10.7655
ؤ	-10.7664
طرقك	-10.7664
ليئ	-10.7672
قربانه	-10.7688
اعينكم	-10.7693
بيدر	-10.7694
الشي	-10.7702
جمل	-10.7706
تقو	-10.7716
وملوك	-10.7718
العاز	-10.7729
هدد	-10.7743
زهر	-10.7763
الغن	-10.7767
اللعن	-10.7773
وليم	-10.7781
الصلا	-10.7797
باط	-10.7801
رجوع	-10.7816
قائد	-10.7821
الفتا	-10.7824
جدلي	-10.7845
النازل	-10.788
صنعه	-10.789
جي	-10.7897
عص	-10.7897
يقين	-10.7899
حفظت	-10.79
تماثيل	-10.7901
ملآن	-10.7901
اخذه	-10.7903
كلمهم	-10.7906
يصرخ	-10.7909
الواح	-10.7913
احباء	-10.792
رح	-10.7922
رديئ	-10.7922
يروش	-10.7936
ركب	-10.7941
زين	-10.7945
وارض	-10.7946
حبيبي	-10.7946
وكتب	-10.7947
اخزي	-10.7947
وتحت	-10.7952
فولدت	-10.7959
ثقيل	-10.7963
وسب	-10.7965
ارن	-10.7972
أتي	-10.7973
تجرب	-10.7973
بره	-10.7974
ائل	-10.7985
اعداء	-10.7987
اعد	-10.7989
يخرجون	-10.7997
وثق	-10.7998
ثرو	-10.7998
زاني	-10.8
عاج	-10.8004
ورأيت	-10.8006
نت	-10.8011
وشا	-10.8011
اوس	-10.8012
ولكنه	-10.8014
وعجائب	-10.8017
سبا	-10.8018
دماء	-10.8023
لعل	-10.8029
بنا	-10.8032
اتوا	-10.8033
سحق	-10.8035
اعينهم	-10.8038
اعمالهم	-10.8039
سفك	-10.8041
فضلا	-10.8045
بقيت	-10.8053
واضطجع	-10.8061
فكم	-10.8064
خلق	-10.8066
عمود	-10.8067
جعله	-10.8071
رأيتم	-10.8071
وتقول	-10.8072
ورث	-10.8088
والفض	-10.8088
تسل	-10.8094
ايامه	-10.8098
رجس	-10.81
صبا	-10.8102
دوس	-10.8104
اكمل	-10.8106
يونان	-10.8113
ويس	-10.8114
وراءهم	-10.8116
كس	-10.8116
اكلت	-10.812
ووجد	-10.8124
ودي	-10.8126
يقطع	-10.8128
جيل	-10.814
الزيتون	-10.8144
فاعلي	-10.8149
خيمت	-10.8162
عزريا	-10.8164
سني	-10.8167
ضح	-10.8173
اعماله	-10.8179
رجم	-10.8183
فاسمع	-10.8185
حان	-10.8189
حمد	-10.8189
فجر	-10.819
لسبب	-10.8201
ثيابهم	-10.8208
حط	-10.8208
شفتي	-10.8209
ملجإ	-10.8213
قهات	-10.8217
العمود	-10.822
افرح	-10.8222
يمشي	-10.8226
شيب	-10.8226
صب	-10.8227
ذري	-10.8231
اشتر	-10.8238
رجاسات	-10.8241
الاخر	-10.8244
قيس	-10.8254
حياته	-10.8254
صي	-10.8255
حلقي	-10.826
غرس	-10.8282
حص	-10.8289
وفرح	-10.829
اماكن	-10.8291
تسلط	-10.8293
حوري	-10.8307
قب	-10.8309
رك	-10.8311
سيس	-10.8312
تقف	-10.8312
ايديكم	-10.8317
العشر	-10.8328
الكروب	-10.8328
تفعلون	-10.8331
غر	-10.8334
تقبل	-10.834
نجا	-10.8359
اعمل	-10.8363
رتب	-10.8363
تعل	-10.8364
اتراس	-10.8378
الجهال	-10.8378
تسكن	-10.8394
امين	-10.8405
حكيما	-10.8406
واقفا	-10.8407
الخراف	-10.8408
سراج	-10.8409
تخل	-10.8416
باع	-10.8419
عرج	-10.842
زاد	-10.8438
يجر	-10.8441
ترد	-10.8443
نبوخذ	-10.8451
خائف	-10.8452
تجد	-10.8454
وير	-10.8455
جري	-10.8463
تقتل	-10.8466
الرعا	-10.847
مجان	-10.8472
در	-10.8489
معز	-10.8491
واقطع	-10.8492
اسر	-10.8499
ليق	-10.85
مسر	-10.8505
وكسر	-10.8508
رائي	-10.8508
يسلك	-10.8512
حصل	-10.8515
لفرع	-10.8516
سرا	-10.8535
اقاصي	-10.8536
عبودي	-10.8536
ثابت	-10.8536
جراد	-10.8538
يزول	-10.8551
حشو	-10.8568
رؤ	-10.8584
اخوك	-10.86
قضا	-10.86
لمحارب	-10.8615
ثام	-10.8617
سبيل	-10.8625
قطعت	-10.8627
تست	-10.8635
عنق	-10.8638
والحق	-10.8668
الحر	-10.8686
اثار	-10.87
البرد	-10.8704
ويت	-10.8706
فخذ	-10.8711
شاف	-10.8715
حاد	-10.8719
كملت	-10.8726
سكت	-10.8728
صحيحا	-10.8729
لتكون	-10.8744
قوا	-10.8756
شل	-10.8763
لعن	-10.8769
توجد	-10.8771
الواقف	-10.8776
فعمل	-10.8777
لج	-10.8782
يعملون	-10.8789
اهلك	-10.8796
تعرفون	-10.8797
تجر	-10.8797
ابيض	-10.8804
الخارجي	-10.8811
آبائك	-10.8813
خطيته	-10.8815
ضربات	-10.882
الاخ	-10.8824
رخ	-10.8838
يعثر	-10.8839
تشبع	-10.8847
تذكار	-10.8869
ظاهر	-10.887
وفر	-10.8871
اثما	-10.8872
عيلام	-10.8873
نقم	-10.8875
ضمير	-10.8881
مضايقي	-10.8885
فارغ	-10.8888
تحفظون	-10.8896
وبقر	-10.8903
العاشر	-10.8906
جو	-10.8907
مضطجع	-10.8909
تستطيع	-10.8913
جناح	-10.8915
عسل	-10.8925
ضايق	-10.8926
عاري	-10.8926
المطر	-10.8928
سعا	-10.8929
لكلام	-10.8932
بهاء	-10.8947
اسنان	-10.8957
يهودي	-10.8961
الردي	-10.8967
الباق	-10.8969
سقي	-10.8973
نصيبه	-10.8979
حيات	-10.898
يشبع	-10.8992
اعطاني	-10.8998
صلاح	-10.8998
ورجاله	-10.9002
صمت	-10.9002
دود	-10.9004
نقض	-10.9015
يص	-10.9016
النجس	-10.9019
خصيان	-10.902
فاعلم	-10.9025
تسمعون	-10.9041
صرخت	-10.9049
الفرح	-10.9054
عيناي	-10.9056
دفعهم	-10.906
دعوت	-10.906
شك	-10.9061
ولاجل	-10.9062
فانهم	-10.9068
اترك	-10.9078
سرير	-10.9081
نسي	-10.9091
لآبائ	-10.9094
أب	-10.9097
تؤمن	-10.9101
امتلأت	-10.9101
دهري	-10.9103
ملكي	-10.9107
امثال	-10.9107
حبال	-10.9109
الصانع	-10.9117
الاح	-10.912
يفعلون	-10.9124
فدي	-10.9126
قبلا	-10.9127
تغرب	-10.9129
فمت	-10.913
خيان	-10.9131
شاء	-10.9133
حسد	-10.9134
قتلا	-10.9135
باد	-10.9136
فرحا	-10.9137
نق	-10.9137
يعو	-10.9138
ائم	-10.9139
يمد	-10.9139
وخر	-10.9144
الكاس	-10.9155
تأكلون	-10.9156
اثمهم	-10.9161
الصديق	-10.9164
ذل	-10.9165
وفا	-10.917
شهادات	-10.9184
فحين	-10.9184
ولك	-10.9185
نفخ	-10.9188
مار	-10.9191
اطعم	-10.92
اتخذ	-10.9202
الكرام	-10.9207
اغصان	-10.9207
ذكور	-10.9216
ترشيش	-10.9217
رسائل	-10.9218
يريد	-10.9225
جلال	-10.9228
طاع	-10.9232
افتح	-10.9233
فب	-10.9234
الشرط	-10.9239
خصام	-10.9241
تبارك	-10.9241
بغضب	-10.9243
وثام	-10.9245
اخترت	-10.9249
صدر	-10.927
يبني	-10.927
ياكلون	-10.9273
الفلك	-10.9282
فحص	-10.9289
يدعون	-10.929
الكروبي	-10.9299
راء	-10.93
خطوات	-10.93
وتقدمته	-10.9302
مخاف	-10.9302
رداء	-10.9303
والآخر	-10.9307
الميت	-10.9311
خادم	-10.9315
بوت	-10.9323
عمور	-10.9326
اجلس	-10.933
ويرد	-10.933
ضربت	-10.9345
يثر	-10.9351
ترع	-10.9354
يسار	-10.9359
واخي	-10.9364
واثن	-10.9373
دهش	-10.9392
خلع	-10.9395
تعطون	-10.9395
واحرق	-10.9404
وخمر	-10.9415
قديسي	-10.9432
قلبهم	-10.944
بديا	-10.9442
وعي	-10.9448
ستر	-10.9451
وابنا	-10.9461
شفي	-10.947
تطلبون	-10.9472
تعزي	-10.9473
تواضع	-10.9474
يحد	-10.9478
تغي	-10.9478
يدخلون	-10.9478
دت	-10.948
تحي	-10.9485
وانقذ	-10.9494
اخرجت	-10.9495
الحسن	-10.9496
وعرضه	-10.95
لابس	-10.9506
نطق	-10.9508
وترك	-10.9513
ويوحنا	-10.9522
خفي	-10.9529
يبغض	-10.9531
اسلم	-10.9531
فاي	-10.9534
مواشي	-10.9534
وله	-10.9537
دام	-10.9545
اعطيك	-10.9546
وامسك	-10.9553
تخبر	-10.9567
وبر	-10.9568
فاقام	-10.9568
موضوع	-10.9571
اجناد	-10.9572
بعشا	-10.9573
تقويم	-10.9573
وابنه	-10.9574
خمير	-10.9574
مستعد	-10.9579
المدياني	-10.9579
سكوت	-10.958
يخدم	-10.9582
تكمل	-10.9583
صليب	-10.9583
فرخ	-10.9584
لتلاميذ	-10.9585
زارح	-10.9585
تطهر	-10.9587
وحسب	-10.959
واسمع	-10.9591
فانطلق	-10.9597
أتيت	-10.96
جف	-10.9606
تأت	-10.9607
ايمانكم	-10.9616
تجاه	-10.9619
وحان	-10.9622
راكب	-10.9626
وقفت	-10.9626
وثماني	-10.963
سمك	-10.9652
هللو	-10.9657
اصغر	-10.9657
مبغضي	-10.9657
وحل	-10.9661
رأينا	-10.9661
رباب	-10.9663
جيشه	-10.9664
شرور	-10.9665
شب	-10.9671
يجمع	-10.9681
بش	-10.9682
الجديد	-10.9686
ثمن	-10.9689
بعده	-10.9689
وضعت	-10.9694
السمك	-10.9703
آنيته	-10.9706
تفرح	-10.971
فش	-10.9713
أن	-10.9716
طريقك	-10.9727
فتخر	-10.973
ويأخذ	-10.9732
قرن	-10.9739
برا	-10.9752
جاع	-10.9753
القو	-10.9754
يحسب	-10.9755
يهود	-10.9762
معون	-10.9766
فخ	-10.9768
اضرب	-10.9771
خاصم	-10.9771
عادل	-10.9784
اعدائه	-10.9785
مكر	-10.9786
بيني	-10.9789
بنيهم	-10.9794
سيدك	-10.9806
يكرز	-10.9806
قوتك	-10.9812
ولكني	-10.9815
رفيع	-10.9824
وحمل	-10.9828
يرون	-10.9834
بناه	-10.9837
طارد	-10.9837
شار	-10.984
نازل	-10.9846
اقامه	-10.9851
البد	-10.9863
وجعله	-10.9866
المكتوب	-10.9867
يذبح	-10.9883
تمجد	-10.989
وامرأت	-10.9892
أو	-10.9894
برد	-10.9902
خلاصك	-10.9906
الحث	-10.9918
لعمل	-10.9923
ائهم	-10.9931
الجند	-10.9934
واسلم	-10.9934
واحكام	-10.9937
ميثاق	-10.9942
عصفور	-10.9942
مكدوني	-10.9942
خزف	-10.9942
تقطع	-10.9947
لسنا	-10.995
البائس	-10.9952
بنفس	-10.9953
لص	-10.9954
مستحق	-10.9956
مقدسا	-10.9956
امتك	-10.9957
غيظ	-10.9961
مطمئن	-10.9962
فساد	-10.9964
طويل	-10.9965
تزرع	-10.9968
عديم	-10.9976
يصعدون	-10.9979
روحه	-10.9987
اجنحته	-10.9987
ورا	-10.999
قواعد	-10.9994
مركب	-10.9996
فهذا	-10.9998
الشق	-10.9999
وزي	-11
ظن	-11.0007
صفح	-11.0009
المركب	-11.001
للذي	-11.001
وقاس	-11.0015
وامه	-11.002
برئ	-11.0027
ذوات	-11.0027
خلف	-11.0028
وسي	-11.0028
وتيس	-11.0031
مخاصم	-11.0033
بنيك	-11.0042
جمر	-11.0044
بكون	-11.0044
نذور	-11.0045
حير	-11.0048
عقب	-11.0048
اباك	-11.0049
عارف	-11.0051
وعلم	-11.0066
ند	-11.0068
ظهرت	-11.0071
واضع	-11.0081
ضي	-11.0085
موعد	-11.0085
ويخرج	-11.0086
اللوح	-11.01
المرتفع	-11.0116
ابرار	-11.0116
يشبه	-11.0119
القدم	-11.0121
ناج	-11.0131
وعسل	-11.0133
قتلهم	-11.0134
لير	-11.0135
والفريسي	-11.0143
البرك	-11.0144
مملكته	-11.0149
فدع	-11.015
معصي	-11.0165
ضارب	-11.0169
مبر	-11.017
ضربه	-11.0171
طي	-11.0174
واكثر	-11.0174
الدائم	-11.0177
ابوك	-11.0183
تنجس	-11.0186
وفعل	-11.019
يمس	-11.0191
تقرب	-11.0196
وعاد	-11.0196
كنز	-11.0197
تعز	-11.0201
حضن	-11.0201
اليابس	-11.0222
يبس	-11.0223
وكال	-11.0236
تسير	-11.0237
جوف	-11.0246
نسر	-11.0247
قرمز	-11.0248
طف	-11.0253
قلتم	-11.0257
تصل	-11.0261
وغ	-11.0266
وارجع	-11.0269
ارحمن	-11.027
مدح	-11.0276
اكرم	-11.0286
زنا	-11.0288
قطعه	-11.0289
قتال	-11.029
فوضع	-11.0295
يسجد	-11.0296
غمر	-11.0297
وكم	-11.0307
بيدي	-11.0317
هز	-11.0317
طم	-11.0326
اعضاء	-11.0326
مجتمع	-11.0327
انحدر	-11.0327
تكفير	-11.0329
للاوي	-11.033
مرثا	-11.0331
يتبع	-11.0334
يؤكل	-11.0338
تحسب	-11.034
ودفع	-11.034
يرتد	-11.0343
الزاني	-11.0349
ابتد	-11.035
زم	-11.0351
يرع	-11.0352
بحار	-11.0354
جاريت	-11.0355
اكر	-11.0355
عذار	-11.0358
ري	-11.0363
فاعطاه	-11.0368
يغفر	-11.0369
مثلك	-11.0371
طبق	-11.0376
شرقي	-11.0377
خدمته	-11.0388
يضل	-11.0392
تفكر	-11.0394
يذبحون	-11.0397
يبارك	-11.0404
مرتفع	-11.0407
وقرمز	-11.0409
ابنته	-11.0412
تنس	-11.0416
ينظرون	-11.0425
ضم	-11.0426
يتقدم	-11.043
يتنجس	-11.043
مرت	-11.0436
تاتي	-11.0443
يضي	-11.0444
نعرف	-11.0452
يفت	-11.0453
وارد	-11.0453
يابس	-11.0453
مئتي	-11.046
تقدس	-11.0467
قريبك	-11.0483
حصاد	-11.0483
صنا	-11.0487
تمم	-11.0495
تذبح	-11.0499
امك	-11.0502
وقدم	-11.0507
ينجي	-11.0513
راع	-11.0517
رقص	-11.0521
برنا	-11.0523
يزرع	-11.0523
يتسلط	-11.0527
عطش	-11.0529
قيود	-11.0532
صرع	-11.0549
وحدك	-11.055
عينك	-11.0551
الخمس	-11.0554
اعطيه	-11.0572
اعبر	-11.0572
وكن	-11.0579
فقير	-11.0579
يهوياد	-11.058
وجع	-11.0587
عطر	-11.059
يضطجع	-11.0595
زلزل	-11.0632
ائي	-11.0642
القيام	-11.0644
شأ	-11.065
يقدم	-11.0656
باي	-11.0665
يجيب	-11.0667
ومدن	-11.0668
تنزل	-11.0669
موتا	-11.067
تحرق	-11.067
اياك	-11.067
فاعل	-11.0677
يقضي	-11.0677
جاب	-11.0677
بصر	-11.068
العيد	-11.0689
خيش	-11.0694
احترز	-11.0696
ارجوان	-11.0703
الوسط	-11.0703
بلغ	-11.0708
شفاه	-11.0713
قسي	-11.0721
يخدمون	-11.0726
اجناسه	-11.0726
نظير	-11.0726
بطنه	-11.0727
الحادي	-11.0727
اسواق	-11.0728
تزعزع	-11.073
ينبوع	-11.073
ينابيع	-11.0731
واعطي	-11.0733
مواليد	-11.0738
الصدر	-11.0738
تعجب	-11.0747
فنظر	-11.0747
فداء	-11.0748
حيرام	-11.0751
يؤت	-11.0751
مكروه	-11.0757
وكثير	-11.0759
محفل	-11.077
معاصي	-11.0772
واوص	-11.0772
مسامع	-11.0772
نقش	-11.0772
ولكنهم	-11.0774
صيدون	-11.0779
كبر	-11.078
حزم	-11.0784
يحمد	-11.0785
اسما	-11.0787
اناء	-11.0794
فقل	-11.0798
فعلتم	-11.0807
عدل	-11.0813
حجب	-11.0819
يغ	-11.0824
المنار	-11.0825
قوات	-11.0831
الحال	-11.0838
سلك	-11.0838
وقائد	-11.084
بط	-11.0842
تأمل	-11.0854
وصاد	-11.0857
عوج	-11.086
فسأل	-11.0864
اجي	-11.0868
اقبل	-11.0872
تألم	-11.0885
سجد	-11.0892
بلي	-11.0892
قادر	-11.0899
أم	-11.0908
قس	-11.0918
وحدي	-11.0921
وتر	-11.0923
انزع	-11.0923
وسلام	-11.0924
صيدا	-11.0926
حس	-11.0926
حوالي	-11.093
وشمعي	-11.0934
السنط	-11.0935
نسى	-11.0942
حجي	-11.0943
القدر	-11.0951
قنا	-11.0952
سطح	-11.0955
خان	-11.0961
الباطل	-11.0961
يسأل	-11.0961
آلهته	-11.0962
مسكر	-11.0962
قومه	-11.0964
شفتا	-11.0968
غني	-11.0972
ويأتي	-11.0975
مريض	-11.0979
الطيب	-11.098
تحر	-11.0982
باسمه	-11.0983
الدين	-11.0985
جل	-11.0994
تحول	-11.1
بالله	-11.1008
راسك	-11.1009
احي	-11.1013
طر	-11.1015
ذات	-11.1019
سامع	-11.1025
يرث	-11.1027
يحدث	-11.1027
حماق	-11.1028
موني	-11.104
عفر	-11.1047
حلفت	-11.1047
حاري	-11.1049
خت	-11.1051
فانك	-11.1053
خي	-11.1054
فسكن	-11.1058
اخوه	-11.1062
مؤمن	-11.107
فرائضه	-11.1074
مشت	-11.1076
ووضعه	-11.1083
تراء	-11.1085
شفتيه	-11.1087
الخرب	-11.1088
بروح	-11.1091
اتكل	-11.1095
تنب	-11.1101
عقل	-11.1104
وعم	-11.1105
برجل	-11.1106
ويع	-11.1111
ويرجع	-11.1116
طا	-11.1137
اطراف	-11.1143
يرتفع	-11.1143
ممدود	-11.1143
تعيير	-11.1145
صغار	-11.1145
ثلج	-11.1145
رسول	-11.1146
ميعاد	-11.1147
اصعاد	-11.1147
لابيه	-11.1148
ضعيف	-11.115
قراء	-11.1153
سيل	-11.1153
احشاء	-11.1158
نسم	-11.1159
شهوات	-11.1159
رجلك	-11.116
غبار	-11.1169
عدن	-11.1178
ربوات	-11.118
عندهم	-11.1183
اشرب	-11.1191
رواق	-11.1196
غدر	-11.1198
فطن	-11.1199
حبس	-11.1201
الموآبي	-11.1202
فرفع	-11.1203
وطرد	-11.121
كلمت	-11.121
خصي	-11.1211
ادعو	-11.1214
اصرخ	-11.1219
يديك	-11.1222
اوصيت	-11.1229
وارجوان	-11.1232
لشا	-11.1234
رس	-11.1238
المتكلم	-11.1239
لقول	-11.1239
كانه	-11.1242
كيل	-11.125
يدا	-11.1257
ذهبت	-11.1257
نقول	-11.1264
خد	-11.1277
اقطع	-11.1278
قامت	-11.1284
مفتوح	-11.1286
مصف	-11.1292
القان	-11.1294
فث	-11.1298
خصوم	-11.1308
واعمل	-11.1309
رأيته	-11.1321
تعبد	-11.1331
الخبر	-11.1337
الكبش	-11.1341
وسل	-11.1344
تبني	-11.1346
شيش	-11.135
تكثر	-11.1352
كثرت	-11.1354
حبيب	-11.1355
طه	-11.1357
فانكم	-11.1359
اجلب	-11.136
شلوم	-11.1361
يرحم	-11.1362
الاعم	-11.1366
صديق	-11.1371
فمد	-11.1395
وتسع	-11.1396
المخادع	-11.1397
ليأكل	-11.1407
ملح	-11.1413
يدهم	-11.1415
الكامل	-11.142
دنس	-11.1422
اؤه	-11.1423
قاس	-11.1429
نبيا	-11.143
عقرون	-11.1439
بوص	-11.1441
اثبت	-11.1443
حروب	-11.1445
زح	-11.1451
كلاب	-11.1455
تظلم	-11.1458
كلمتك	-11.1466
قرض	-11.1469
يحرق	-11.1469
والبحر	-11.1476
مشير	-11.1478
لذ	-11.1481
تظهر	-11.1483
فلت	-11.1488
يقسم	-11.1502
خن	-11.1505
تجمع	-11.1505
ويا	-11.1507
تزن	-11.1509
انطلق	-11.1525
واضرب	-11.1533
أعطي	-11.1535
باس	-11.154
جاهل	-11.1545
ورق	-11.155
يزاب	-11.155
رشو	-11.1562
التين	-11.1566
اكبر	-11.1569
ترفع	-11.1569
اغاظ	-11.1576
شاطئ	-11.1578
ملجأ	-11.1578
السماوي	-11.1578
ابتهاج	-11.1578
مجامع	-11.1579
صوف	-11.158
فيقول	-11.1584
احمل	-11.1584
عقاب	-11.1584
بتدئ	-11.159
مختوم	-11.1591
اصوات	-11.1592
فرد	-11.1592
فارص	-11.1592
وكيل	-11.1593
ركاب	-11.1596
وفض	-11.1597
خالق	-11.1598
ولن	-11.1599
كفر	-11.1604
فالتفت	-11.1606
شواق	-11.1606
ترص	-11.1607
القري	-11.1611
يح	-11.1611
ماكير	-11.1615
افتقد	-11.1617
يفتخر	-11.1632
أر	-11.1634
فتش	-11.1634
واليبوسي	-11.1639
ظلما	-11.1641
قارب	-11.1647
فحدث	-11.1647
الملح	-11.1648
قوتي	-11.1651
وبنايا	-11.1652
فارق	-11.1668
فدفع	-11.1673
رج	-11.1675
قتلت	-11.1678
الجيد	-11.1681
عمي	-11.1685
اقتن	-11.1699
لآله	-11.1706
قدامهم	-11.1706
سلمو	-11.1708
سق	-11.171
اهرب	-11.1735
وشيوخ	-11.1739
ومل	-11.174
الحبيب	-11.1742
الجزي	-11.1751
زوايا	-11.1752
بهج	-11.1757
ربح	-11.1761
لحي	-11.1762
القائم	-11.1769
بغير	-11.177
اخته	-11.1772
ترض	-11.1781
غريبا	-11.1785
الدهو	-11.1786
جدي	-11.1786
عتيد	-11.1787
يخز	-11.1788
يغطي	-11.1789
أرسل	-11.179
وثمان	-11.1794
بس	-11.1795
ثالث	-11.1799
يكرم	-11.1801
هوشع	-11.1802
الامين	-11.1805
وياخذ	-11.1805
كلمته	-11.1806
فرش	-11.181
متمرد	-11.1822
تحل	-11.1826
جرت	-11.1828
لدن	-11.1835
يرض	-11.1844
اجنبي	-11.1861
صرو	-11.1877
لدار	-11.1882
فرات	-11.1885
لسبط	-11.1886
القادر	-11.1898
يقترب	-11.1901
تمت	-11.1903
تعبير	-11.191
سيفه	-11.1915
رش	-11.1919
أعطيت	-11.1921
نزع	-11.1924
التفت	-11.1925
فرس	-11.1932
زل	-11.1932
ألست	-11.1935
فتا	-11.1936
خطف	-11.194
واسكن	-11.1946
السف	-11.1947
المسح	-11.195
ذوي	-11.1953
لآخر	-11.1954
تخاف	-11.1962
ضياعه	-11.1962
بات	-11.1967
عتا	-11.1968
كرز	-11.1972
صاحبك	-11.1976
بذل	-11.1976
اجنح	-11.1978
غرل	-11.198
دموع	-11.1983
وغنم	-11.1995
فملك	-11.1997
حصر	-11.1999
شبا	-11.2001
دفعت	-11.2002
يؤخذ	-11.2002
يبتهج	-11.2008
اسكب	-11.2011
صير	-11.2014
شوشن	-11.2032
اقطاب	-11.2033
مضجع	-11.2033
عجيب	-11.2033
قميص	-11.2034
ضأن	-11.2034
تسجد	-11.2036
عصي	-11.2037
خص	-11.2038
رياح	-11.204
عزيز	-11.2044
القوي	-11.2044
ابغضت	-11.2047
يشفق	-11.2047
سهم	-11.2048
حلقت	-11.2051
تبصر	-11.2052
تجاوز	-11.2053
ارح	-11.2053
جلوس	-11.2053
أمرت	-11.2054
حناني	-11.2054
آلات	-11.2059
متاع	-11.206
ضج	-11.2066
مادي	-11.2077
درجات	-11.2081
منقذ	-11.2086
للقائه	-11.2099
تاه	-11.2103
اثمار	-11.2108
فجلس	-11.212
ارضي	-11.2126
شاب	-11.2126
يبيد	-11.2127
للم	-11.2128
فآمن	-11.2131
اساس	-11.2133
فخاف	-11.2134
تذلل	-11.2135
بز	-11.2136
صقل	-11.2138
يشاء	-11.214
تعبر	-11.2141
فتر	-11.2141
ساح	-11.2147
يكثر	-11.2148
متسلط	-11.2148
عزيا	-11.2148
جزع	-11.2148
جنوب	-11.2149
توب	-11.2153
جلي	-11.2158
وقول	-11.2163
الجزائ	-11.2173
تلق	-11.2179
لآسا	-11.2185
حصرون	-11.2187
مشل	-11.2197
وزكري	-11.2197
ارتفاع	-11.2199
عج	-11.2214
ادفع	-11.222
التاج	-11.2223
ناحي	-11.2223
عطي	-11.2234
مبغض	-11.2239
بعيدا	-11.2248
اطفال	-11.2249
المرض	-11.2252
ناحو	-11.2255
اقمت	-11.2261
مختار	-11.2261
قولك	-11.2262
اسكن	-11.2263
شوب	-11.2267
والاموري	-11.2272
اجلكم	-11.2292
والكتب	-11.2296
استمع	-11.2302
سبل	-11.2305
قاعد	-11.2306
عيش	-11.231
قود	-11.2313
سرت	-11.2315
ره	-11.2321
ادع	-11.2325
وطرح	-11.2325
الازل	-11.2327
نقل	-11.2327
نفسا	-11.2336
ترت	-11.2337
سجف	-11.2342
حار	-11.2343
يعزي	-11.2347
قسمت	-11.2353
ازار	-11.2354
رايت	-11.2355
وحق	-11.2355
زيتون	-11.2361
عنقه	-11.2368
ارجلهم	-11.237
رأي	-11.2374
ساقط	-11.2375
صلح	-11.2377
لحمه	-11.2383
برز	-11.2384
لاطفال	-11.2384
فأكل	-11.2385
شاق	-11.2393
فعلم	-11.2408
وليد	-11.2416
تبن	-11.2424
احاط	-11.2425
وقو	-11.2426
وسم	-11.2429
جود	-11.2433
خطيت	-11.2436
كاهنا	-11.2439
قلع	-11.2443
شدد	-11.2445
الح	-11.2458
اعاقب	-11.2459
وحجار	-11.2463
حمام	-11.2463
بلسان	-11.2464
اختي	-11.2466
واعطاهم	-11.2479
تعبت	-11.2481
فحسن	-11.2481
تجي	-11.2483
لاحد	-11.2491
جنده	-11.2493
بفم	-11.2495
ارامل	-11.2502
وفرائض	-11.2503
امسك	-11.2503
ومش	-11.2503
ارتعد	-11.2504
الشيخ	-11.2505
افتخار	-11.2508
منتظر	-11.2508
لاستقبال	-11.2509
ضوء	-11.2509
عماسا	-11.251
اقسام	-11.2513
سكيب	-11.2518
ابكار	-11.252
يوبيل	-11.2522
لعله	-11.2523
وقواعده	-11.2524
اعطاهم	-11.2524
ارتد	-11.2526
شتغل	-11.2527
المغار	-11.253
ليصنع	-11.2531
ليأخذ	-11.2534
يجتمع	-11.2534
نفعل	-11.2537
استجب	-11.2537
قصور	-11.2538
وباب	-11.2539
أخبر	-11.2541
باعمال	-11.2548
فكل	-11.2548
رحيم	-11.2553
لحظ	-11.2555
حلو	-11.256
اظهر	-11.2569
وعبيده	-11.257
شيخ	-11.2574
سرج	-11.2575
عسكر	-11.2577
تقر	-11.2587
وقب	-11.2598
زير	-11.2598
احرق	-11.26
شبان	-11.2608
يخافون	-11.2611
بوش	-11.2612
السل	-11.2619
جوا	-11.2622
ينزلون	-11.2622
رعو	-11.2622
معصر	-11.2623
يغلب	-11.2624
بيوتهم	-11.2625
يباركك	-11.2627
ومد	-11.2638
أمور	-11.2644
ايامك	-11.2649
ولحم	-11.2651
يمجد	-11.2654
عسر	-11.2654
اسير	-11.2655
محص	-11.2656
اخيش	-11.2656
وانزل	-11.2659
جاري	-11.2662
معين	-11.267
والثلاث	-11.2674
الكور	-11.2679
سأله	-11.2682
اقوي	-11.2683
درا	-11.2683
وافعل	-11.2688
مقدسي	-11.2695
الكو	-11.2699
اياهم	-11.2702
علمون	-11.2704
ورائه	-11.2706
وزنت	-11.271
مشي	-11.2722
مخادع	-11.2727
امره	-11.2728
عجول	-11.2736
لناس	-11.2738
بقوا	-11.2743
ناظر	-11.2743
افع	-11.2746
الظالم	-11.2749
ورجال	-11.2754
واسع	-11.2754
لاسم	-11.2758
تنطق	-11.2759
ونساء	-11.2765
اشتد	-11.2765
اخضع	-11.2768
ألق	-11.2771
مثال	-11.2777
وجعلت	-11.2778
اثا	-11.2786
اسلك	-11.2792
قرأ	-11.2796
تمرد	-11.2799
زكي	-11.2821
ويسقط	-11.2822
ويعمل	-11.2823
يسبح	-11.2828
مسبوك	-11.283
الخطا	-11.2833
حوشا	-11.2839
تدين	-11.2839
الحمار	-11.2839
وتبع	-11.2854
عوارض	-11.2857
خطا	-11.2867
لصق	-11.2876
احسان	-11.2883
وكلاء	-11.2892
الخل	-11.2893
واكتب	-11.2893
الخف	-11.2895
وكي	-11.29
انكسر	-11.2904
واجمع	-11.2918
لينظر	-11.2919
مرسل	-11.292
ينجح	-11.2931
فطلب	-11.2942
فار	-11.2943
خيط	-11.2945
درج	-11.2949
دفعه	-11.2954
لخدم	-11.2955
حرا	-11.2956
ختن	-11.296
اخا	-11.2969
مدنه	-11.2971
اطرد	-11.2971
بمثل	-11.2972
حام	-11.2973
وبينك	-11.2976
تبيد	-11.2987
ذاته	-11.299
ربض	-11.2995
تطلع	-11.2995
صاف	-11.2998
عناثوث	-11.3008
بواسط	-11.3008
اجساد	-11.3009
يستطع	-11.3009
صخور	-11.301
زقاق	-11.301
توبيخ	-11.301
يجازي	-11.3011
اخيتوف	-11.3011
قصد	-11.3012
بخر	-11.3013
خطر	-11.3016
صفوف	-11.3018
غور	-11.302
مغار	-11.3021
واجتمع	-11.3022
ضباب	-11.3024
اهتف	-11.3025
جذب	-11.3028
مقبول	-11.303
المثل	-11.303
تخطئ	-11.3035
سنتين	-11.3036
وحيث	-11.3039
ستقر	-11.3049
حاف	-11.3049
لمحرق	-11.3056
يرثون	-11.3057
مختاري	-11.3057
مش	-11.3058
شبك	-11.3059
اوتار	-11.306
عمري	-11.3062
صلوات	-11.3067
عشار	-11.3067
حياتك	-11.3067
لحمي	-11.3072
يأخذون	-11.3073
شهور	-11.308
سوق	-11.3083
فابتدأ	-11.3085
بالقرع	-11.3089
فست	-11.3091
وملأ	-11.31
غم	-11.3104
يظن	-11.3106
ويذبح	-11.3114
اتون	-11.3121
الجاري	-11.3123
ويسجد	-11.3123
وانطلق	-11.3127
تمس	-11.313
الحصين	-11.3133
المدعو	-11.3136
خائفي	-11.3141
روث	-11.3142
وكثر	-11.3144
نينو	-11.3145
ذهبا	-11.3146
واصغ	-11.3154
حطم	-11.3158
اتان	-11.3162
يساك	-11.3167
غزا	-11.3178
اذنك	-11.3185
يحزي	-11.3185
انتظرت	-11.3186
بور	-11.3187
ينزع	-11.319
غنمك	-11.319
خصم	-11.321
لآبائك	-11.3213
يكمل	-11.3214
ولست	-11.3217
حلق	-11.3221
بالع	-11.3226
التلميذ	-11.3229
مث	-11.3234
غلته	-11.3237
حورون	-11.3238
محبي	-11.3241
نح	-11.3252
المق	-11.3257
ويوقد	-11.3259
باق	-11.326
لطف	-11.3272
يولد	-11.3273
زبدي	-11.3274
قطر	-11.3277
ولبني	-11.3279
مرع	-11.3279
تتبع	-11.3282
امد	-11.3284
تبتهج	-11.3284
وهدم	-11.3295
صالحا	-11.3295
نسله	-11.3295
شاخ	-11.3299
تخدم	-11.3306
زعج	-11.331
ابصرت	-11.3314
بنيت	-11.3326
وحكم	-11.3326
موته	-11.333
سخ	-11.3334
الشبك	-11.3334
اشد	-11.3338
والمغن	-11.3339
غد	-11.3352
تضايق	-11.3359
افعله	-11.3361
اؤهم	-11.3363
غلب	-11.3367
نادي	-11.3369
بفض	-11.3372
موجود	-11.3377
اصاب	-11.338
تنال	-11.338
عرس	-11.3386
اودي	-11.3393
بيع	-11.3394
الكسل	-11.3396
يسم	-11.3397
اثنتا	-11.3402
وتضع	-11.3406
زرا	-11.3416
حقك	-11.3416
ليسمع	-11.3417
اكله	-11.3417
وبخ	-11.3421
نجني	-11.3428
بسيف	-11.3431
ياكين	-11.3436
يقرب	-11.3441
كهنوت	-11.3446
والعاز	-11.3452
لبان	-11.3453
ديان	-11.3454
يرجعون	-11.3455
واعد	-11.3458
واخذت	-11.3461
هتف	-11.3466
تج	-11.3471
امينا	-11.3476
يخاف	-11.3479
الحقيق	-11.348
يحارب	-11.348
يعلن	-11.3483
عظمت	-11.3483
المل	-11.3487
ميراثه	-11.3497
وقوف	-11.3498
وجب	-11.3499
ثمره	-11.3501
خاتم	-11.3502
مضت	-11.3502
رفضت	-11.3505
مخارجه	-11.3516
اعطيته	-11.3521
اغني	-11.3522
تعملون	-11.3523
أتون	-11.3528
اشدود	-11.3531
مج	-11.3532
اغتاظ	-11.3535
ضجيج	-11.3535
انطاكي	-11.3535
مجيئه	-11.3535
خالص	-11.3535
زوبع	-11.3535
سقوط	-11.3536
امراض	-11.3537
عطايا	-11.3537
والاربع	-11.3538
ودعت	-11.3539
حيطان	-11.3543
غصن	-11.3544
افود	-11.3547
اؤك	-11.3548
البواب	-11.3552
قتله	-11.3552
تشهد	-11.3557
لاسل	-11.356
وإل	-11.3575
العموني	-11.3579
يمينا	-11.359
تابع	-11.3592
جاس	-11.3593
ومئ	-11.3594
تضرب	-11.3597
للبعل	-11.3597
صناع	-11.3604
محتقر	-11.3605
المحيط	-11.361
احلام	-11.3611
طوفان	-11.3614
فنيهم	-11.3614
اعطاكم	-11.3618
مسحه	-11.3627
اصعدت	-11.3627
قضبان	-11.3637
تجس	-11.3637
كأن	-11.3638
وبناتك	-11.364
تعبه	-11.3641
نثين	-11.3647
آباؤك	-11.3651
الدرج	-11.3652
أسس	-11.3652
بأ	-11.3656
والزيت	-11.3658
ابيهم	-11.3663
حصار	-11.3664
قاوم	-11.3664
مائدت	-11.3672
استي	-11.3672
الزاوي	-11.3675
تزيد	-11.3678
ويدخل	-11.3679
يمنع	-11.368
الحاضر	-11.3681
ولاد	-11.3687
مقيم	-11.3688
وعزريا	-11.3688
تمد	-11.3689
وامام	-11.3693
تقيم	-11.3695
بنايا	-11.3715
كروب	-11.3715
ثون	-11.3715
قرابين	-11.3716
وآتي	-11.3716
قطعان	-11.3721
سرق	-11.3721
لليهود	-11.3724
كتف	-11.3726
يقل	-11.3728
ندم	-11.3728
وكرام	-11.3735
ملابس	-11.3736
فاصعد	-11.374
تسلم	-11.3742
يحبون	-11.3743
احتمل	-11.3745
نبت	-11.3745
سحب	-11.3747
وثمر	-11.3749
انتظر	-11.3753
وسأل	-11.3758
فيرجع	-11.376
ماتت	-11.3762
اشر	-11.3769
اخرجهم	-11.3771
لعبيده	-11.3778
والبس	-11.3794
تكشف	-11.3799
يعيش	-11.3813
ليذهب	-11.3814
اسألك	-11.382
فيأتي	-11.3821
انصرف	-11.3824
فتقول	-11.3843
وحم	-11.3843
ابيجا	-11.3847
فترك	-11.3879
سكبت	-11.3882
يرفض	-11.3884
وشد	-11.3885
مقفر	-11.3888
آمنت	-11.3892
كدر	-11.3895
فتحي	-11.3899
تدب	-11.3907
يقتلون	-11.3912
والبقر	-11.3913
كلمه	-11.3925
امته	-11.3929
فقطع	-11.3929
قمت	-11.3932
وشبع	-11.3939
فدفنو	-11.3941
ايف	-11.3942
فاذهب	-11.3949
قبلي	-11.395
ضطهد	-11.3959
مجدك	-11.3959
تاكله	-11.3966
وحام	-11.3973
يظلم	-11.3973
سخر	-11.3976
فريس	-11.398
جزي	-11.3985
وحر	-11.3989
يعطيه	-11.3994
اجيب	-11.3999
بيل	-11.4001
اخاف	-11.4005
العامل	-11.4016
نعطي	-11.4026
المتسلط	-11.4027
فجمع	-11.403
وتعال	-11.4033
سود	-11.4033
يقع	-11.4044
جرب	-11.4047
لأكل	-11.4055
واهلك	-11.4056
الرواق	-11.4057
ميل	-11.406
يبنون	-11.4064
صيد	-11.4066
الاع	-11.4066
فلست	-11.4068
مثمر	-11.4074
احكم	-11.4076
سكائب	-11.4078
وزنه	-11.4079
ولدته	-11.4083
الأول	-11.4083
اثر	-11.4089
اجتهاد	-11.409
تمتلئ	-11.409
يجتاز	-11.409
جحش	-11.4091
منتخب	-11.4091
اقتحم	-11.4091
طائر	-11.4091
ترتيب	-11.4092
راجع	-11.4093
وجر	-11.4093
للمرأ	-11.4096
معمودي	-11.4096
حلقات	-11.4096
عاقر	-11.4097
بمجد	-11.4098
باني	-11.4099
رعي	-11.4101
دحرج	-11.4101
تشفق	-11.4101
يدفع	-11.4103
المك	-11.4104
غبي	-11.4105
مسوح	-11.4105
تعقل	-11.4109
صارخ	-11.411
جوج	-11.4113
كلمكم	-11.4118
فتيان	-11.4119
شارد	-11.4121
الناصري	-11.4123
فأخبر	-11.4126
دينار	-11.4127
عثل	-11.4129
للخير	-11.413
تظن	-11.4132
فناد	-11.4133
تحيا	-11.4138
عورته	-11.4142
اصابع	-11.4142
تبع	-11.4146
استطيع	-11.4151
وبكل	-11.4153
ومئت	-11.4153
يخف	-11.4153
مظل	-11.4154
اضطرب	-11.4163
يقدمون	-11.4173
يقض	-11.4177
مسكوه	-11.4178
داس	-11.4181
صين	-11.419
يرجم	-11.4192
مرحض	-11.4207
حربا	-11.4211
فح	-11.4215
دس	-11.4224
راق	-11.4232
اعي	-11.4233
قولي	-11.4234
فجعل	-11.4234
زوا	-11.4239
خطاياك	-11.4242
ملائكته	-11.4246
تبكي	-11.4251
وبعده	-11.4252
لكنه	-11.426
ذبل	-11.426
احشائ	-11.4261
الأس	-11.4262
تنهد	-11.4263
اقل	-11.4264
غاي	-11.427
ينادي	-11.4276
انتقام	-11.4285
كبد	-11.4291
السلطان	-11.4291
والحو	-11.4292
الاز	-11.4304
أري	-11.4307
يعر	-11.4308
اللبن	-11.4324
تنبت	-11.433
جان	-11.4355
ونهار	-11.4359
يسع	-11.4361
وتصير	-11.4372
والح	-11.4374
الرائي	-11.4375
ارجو	-11.4375
حمير	-11.4378
يعرفه	-11.438
اجير	-11.4382
قواد	-11.4386
سرع	-11.4387
نصنع	-11.4394
نزلت	-11.4395
الغم	-11.4398
ؤمن	-11.441
مولود	-11.4415
ضيقات	-11.4415
خطيتهم	-11.4416
وحد	-11.4423
نثني	-11.4429
تيس	-11.4431
ثر	-11.4434
فخرجت	-11.4438
جنس	-11.4441
دعوه	-11.4451
مجن	-11.4457
ومثل	-11.4459
فاجعل	-11.446
الجن	-11.4464
ويونا	-11.4468
خري	-11.4471
وشب	-11.4474
سه	-11.4474
زك	-11.4476
مصاريع	-11.448
اسمعي	-11.4482
الطاهر	-11.4489
العسكر	-11.449
طرفي	-11.4491
وحا	-11.4505
امل	-11.4507
جسم	-11.4508
نجد	-11.451
وعرف	-11.4513
المولود	-11.4516
حاضر	-11.4518
مكره	-11.4518
الخمسين	-11.4522
كاتب	-11.4529
واثنا	-11.4531
يشق	-11.4544
تأس	-11.4548
محارب	-11.4553
فافعل	-11.4554
وضربه	-11.4558
واحفظ	-11.4558
مقيد	-11.4561
يروا	-11.4562
وكنت	-11.4563
السامع	-11.4565
واخوتهم	-11.4569
اخز	-11.457
فج	-11.4579
ينجو	-11.4587
قداس	-11.4588
ليوس	-11.4589
اطياب	-11.4593
يدب	-11.4594
اعتمد	-11.4595
اليبوسي	-11.4598
اغلق	-11.4598
ديار	-11.4605
اوقات	-11.4605
واقيم	-11.4625
اهان	-11.4626
مبكر	-11.4628
قعي	-11.4629
ترجم	-11.4631
امض	-11.4631
يصنعون	-11.4634
لبكرات	-11.4637
ينتظر	-11.4638
طالبي	-11.4641
شتا	-11.4642
ائر	-11.4642
فامر	-11.4643
اشت	-11.4649
كد	-11.4649
اشهد	-11.4652
راسا	-11.466
رأف	-11.4661
الاثنا	-11.4667
وذبيح	-11.4669
ارغ	-11.4672
افسس	-11.4674
عطيهم	-11.4675
ساري	-11.4676
اغتصاب	-11.4679
اكاذيب	-11.4679
عضائد	-11.4679
عروعير	-11.4679
اسبوع	-11.4679
غلظ	-11.4679
تزول	-11.468
العصا	-11.468
غرفات	-11.4684
التقط	-11.4685
يرتحل	-11.4687
حذ	-11.4687
قدسك	-11.4688
مربع	-11.4688
اغنياء	-11.4688
جرشون	-11.4689
اتهم	-11.4691
مص	-11.4692
وانه	-11.4694
جلود	-11.4699
وعدلا	-11.4701
سابق	-11.4702
اوجاع	-11.4703
وتد	-11.4704
ترتعد	-11.4709
جفن	-11.4713
لديك	-11.4714
اصنامهم	-11.4714
ويهلك	-11.4719
بتهج	-11.4721
شتري	-11.4722
مواسم	-11.4724
ابراج	-11.4724
اعطيتك	-11.4727
طاق	-11.4729
فرض	-11.4731
عريان	-11.4731
يزن	-11.4735
لجج	-11.4742
لتمتلك	-11.4743
يريدون	-11.4748
اساف	-11.4755
واغلق	-11.4763
يعطون	-11.4767
توكلت	-11.4775
يسلكون	-11.4781
فتصير	-11.4784
وبيته	-11.4788
وسق	-11.4788
وسج	-11.4791
هدر	-11.4792
تنزع	-11.4793
المعط	-11.4796
لابن	-11.4798
يلقي	-11.4799
تقع	-11.4802
هارب	-11.4804
الاجنبي	-11.4805
يوقد	-11.4807
يناد	-11.4817
مجلس	-11.4817
اوصاهم	-11.4819
ويعطي	-11.4832
خب	-11.4834
نشيد	-11.4839
الخر	-11.4843
بروق	-11.4843
وقر	-11.4845
جور	-11.4846
للقت	-11.4849
عربات	-11.486
يتبرر	-11.4864
أفلا	-11.4867
مكانهم	-11.4867
شط	-11.4868
سيكون	-11.487
موطئ	-11.4874
نسمع	-11.4874
يحضر	-11.4879
فيصير	-11.4879
خو	-11.4891
واوقف	-11.4892
ريب	-11.4897
تركت	-11.4898
واصنع	-11.4901
ابيا	-11.4905
يحفظون	-11.491
سلكت	-11.491
القاضي	-11.4912
رؤسائه	-11.4915
ومعهم	-11.4921
لسانه	-11.4927
صوص	-11.4932
الكرمل	-11.4933
اشتعل	-11.4936
دسم	-11.4938
وتنبأ	-11.4938
تحارب	-11.495
تدفع	-11.4955
ترج	-11.4957
وسجدت	-11.4957
رعود	-11.4958
وبلا	-11.496
وثياب	-11.4965
باك	-11.4968
وزيت	-11.4968
السالك	-11.4972
تصنعه	-11.4975
وتحفظ	-11.498
ويط	-11.4984
المظال	-11.4987
وعملت	-11.4992
وابيد	-11.4998
الصف	-11.5005
حمله	-11.5005
الغني	-11.5015
فاز	-11.5015
الحمام	-11.5018
ركض	-11.5021
كسرت	-11.5024
ثيابك	-11.5029
ودخلت	-11.5033
تكسر	-11.5034
يدوس	-11.5038
التوب	-11.504
تهد	-11.504
الصور	-11.5049
حداث	-11.5053
صاص	-11.5063
يفك	-11.5073
وتأكل	-11.5074
جع	-11.5074
تضرعات	-11.5081
وبناته	-11.5099
وتضرع	-11.5099
نغو	-11.5104
داد	-11.5114
تلف	-11.5122
عاملي	-11.5123
صك	-11.5124
مجدي	-11.5128
ئي	-11.5129
يذل	-11.5131
الأمور	-11.5135
يعي	-11.5137
مكتوبا	-11.5141
الاس	-11.5147
اصحابه	-11.5152
اعرفه	-11.516
غرو	-11.5162
نعمان	-11.5165
امتلأ	-11.517
الشرقي	-11.5171
رني	-11.5172
صيب	-11.5182
وعو	-11.5184
فاست	-11.5185
وسأله	-11.5186
يكتب	-11.5187
جبروت	-11.5199
برق	-11.521
عمام	-11.5211
ازق	-11.5221
رتفعت	-11.5223
المز	-11.5224
يشد	-11.5237
للحي	-11.5245
صوغ	-11.5245
مختل	-11.525
حاش	-11.5252
الغنيم	-11.5253
يتين	-11.5257
ميك	-11.5257
افتخر	-11.5258
طعن	-11.526
عظامه	-11.5261
يملك	-11.5264
طار	-11.5265
انتقم	-11.5266
ليخدمو	-11.5267
فقتل	-11.5273
يراه	-11.5276
طفأ	-11.5287
اوصاه	-11.529
تقدمات	-11.5292
اشته	-11.5292
وعرض	-11.5293
رذيل	-11.5296
البس	-11.5298
مهلك	-11.5298
صرن	-11.53
صوب	-11.5301
باكور	-11.5302
ممتلئ	-11.5304
ترتفع	-11.5304
مقدار	-11.5304
اضعاف	-11.5305
الطبيع	-11.5305
الزن	-11.5306
يغلق	-11.5306
ياقوت	-11.5306
هدايا	-11.5306
يحيئيل	-11.5306
شدائد	-11.5307
محراب	-11.5307
تمر	-11.5307
ليعلم	-11.5309
خلاف	-11.531
غتصب	-11.5311
فاكل	-11.5311
ترتعب	-11.5312
الهابط	-11.5313
نتزع	-11.5315
المدخل	-11.5316
عمرام	-11.5319
قوائم	-11.5319
يفسد	-11.5326
اوائل	-11.5328
لاله	-11.5328
المنحوت	-11.533
فحم	-11.5331
وخيل	-11.5337
اعطاك	-11.534
اخترته	-11.5343
ودفنوه	-11.5346
سقف	-11.535
طالع	-11.535
سراري	-11.5352
للشر	-11.5355
مسالك	-11.5363
معطي	-11.5372
داج	-11.5374
سالم	-11.5384
خيامهم	-11.5386
المعم	-11.5389
وركض	-11.5389
ينطق	-11.5401
فاحفظ	-11.5406
اعالي	-11.5409
وعظ	-11.5412
ومريم	-11.5413
فقر	-11.5415
تخلص	-11.5421
شبل	-11.5427
فرقته	-11.5436
شان	-11.5438
معثر	-11.5439
تنظرون	-11.5442
مسير	-11.5445
ومحب	-11.5454
العتيق	-11.5454
تآمر	-11.5455
ترديدا	-11.5455
مثلي	-11.5459
واتخذ	-11.5459
مذل	-11.5459
زيد	-11.5467
وعينا	-11.5468
يلق	-11.5469
كرمي	-11.547
سيفا	-11.547
فانزل	-11.5473
يدرك	-11.5479
التمس	-11.5482
باكر	-11.5484
اختبأ	-11.5489
يتألم	-11.5491
فنظرت	-11.5496
المشق	-11.5497
يسكنون	-11.55
العاد	-11.5509
وكون	-11.5515
للقائ	-11.5517
وطي	-11.5521
الفرق	-11.5521
وكروم	-11.5521
نهض	-11.5526
استار	-11.5528
فصنع	-11.553
لصاحبه	-11.5533
سواري	-11.5534
ازال	-11.5539
يميل	-11.5546
اكلمك	-11.555
عتق	-11.5557
نائم	-11.5561
وخاف	-11.5562
سها	-11.5566
وبسط	-11.5567
مذنب	-11.5568
نثن	-11.5568
امرأتي	-11.5568
المستهزئ	-11.557
امتحن	-11.5574
رذل	-11.5574
آلام	-11.5585
احيا	-11.5585
ائك	-11.559
تخاصم	-11.5593
قاعدت	-11.5593
اكن	-11.5602
زمري	-11.5603
التل	-11.5605
وحيد	-11.5607
صوتك	-11.5608
مسحت	-11.561
تعي	-11.5615
امتلك	-11.5619
ابوا	-11.562
مقت	-11.5621
ويتكلم	-11.5621
نوب	-11.5621
روحا	-11.5622
يمل	-11.5632
برخ	-11.5637
واخت	-11.5638
حصين	-11.5638
الظل	-11.5641
توف	-11.5643
والس	-11.5648
أتت	-11.5651
تبرر	-11.5654
نهدد	-11.5655
ومس	-11.5656
اسجد	-11.5657
انث	-11.5658
جيران	-11.5661
بسخط	-11.5662
تبعه	-11.5662
تشاور	-11.5668
الاب	-11.5669
ودار	-11.5672
الرمان	-11.5672
تاكلون	-11.5679
فرسان	-11.5681
حض	-11.5686
فعاد	-11.5692
مخاوف	-11.5699
يحتقر	-11.57
تسم	-11.57
اخاك	-11.5707
تصرخ	-11.571
ومعرف	-11.5711
وكف	-11.5711
مجنون	-11.5713
سحقت	-11.5715
لحمير	-11.5732
حكام	-11.5733
وقص	-11.574
جعلته	-11.5741
يفتر	-11.5741
وروح	-11.5745
تؤمنو	-11.5746
تعثر	-11.5748
آو	-11.5752
فلح	-11.5754
الفقر	-11.5754
مئتا	-11.5754
لازم	-11.5756
وحول	-11.5756
وخبز	-11.5757
جير	-11.5759
غار	-11.5761
أمن	-11.5769
نأخذ	-11.5773
متكلم	-11.5773
لعاز	-11.5774
ويسمع	-11.5775
اجابهم	-11.5777
يوناني	-11.5777
نمر	-11.5778
ركم	-11.5782
اعداءك	-11.5787
وآني	-11.5803
انواع	-11.5804
ويصعد	-11.5806
مقام	-11.5811
قدسي	-11.5813
بحجار	-11.5814
تبدد	-11.5817
جنب	-11.5821
جاوب	-11.5822
وقته	-11.5839
بزر	-11.5852
يهدي	-11.5856
باطن	-11.586
تخافي	-11.586
وفرسان	-11.586
ويقيم	-11.5878
لوحي	-11.5882
امرت	-11.5883
خروجك	-11.5886
تروا	-11.5889
وثور	-11.5897
ابون	-11.5901
واكلت	-11.5907
جثت	-11.5908
يجده	-11.5912
رهم	-11.5914
حملت	-11.5919
الشف	-11.592
ارجل	-11.5932
تاجر	-11.5938
عذب	-11.5938
يتعب	-11.5939
أخذت	-11.5941
ادرك	-11.5945
يصر	-11.5947
وخل	-11.5948
ونحو	-11.5948
قاضي	-11.5952
جهتك	-11.5953
تاخذ	-11.5956
تسب	-11.5964
عوز	-11.5969
يحيي	-11.5969
العراف	-11.597
تعاظم	-11.597
مجتاز	-11.597
فزعت	-11.5971
أذن	-11.5971
رقيب	-11.5971
افعالهم	-11.5971
نزول	-11.5972
يحتاج	-11.5972
اباطيل	-11.5972
تجتمع	-11.5972
خطب	-11.5973
دبيب	-11.5974
تجديف	-11.5974
مغرب	-11.5974
وفتح	-11.5977
بالخير	-11.598
غيور	-11.598
بلوط	-11.5984
القهاتي	-11.5985
تؤكل	-11.5988
يقون	-11.5992
مخازن	-11.5992
تذمر	-11.5995
دخوله	-11.5999
خيرات	-11.6003
نزيل	-11.6004
أل	-11.6005
لاخ	-11.6008
حريق	-11.6013
فانصرف	-11.6015
هيئ	-11.602
قبال	-11.6021
مطروح	-11.6022
ويش	-11.6024
اغتسل	-11.6025
وارتفاعه	-11.6027
واحب	-11.603
الرفائي	-11.6035
تمتد	-11.6041
ئون	-11.6042
لتقدم	-11.6046
عراف	-11.605
خروجه	-11.6052
مدعو	-11.6055
العشاء	-11.6055
شباك	-11.6056
لوز	-11.6057
واستراح	-11.6068
عنب	-11.6069
ارجلكم	-11.6074
حقويه	-11.6075
تفتخر	-11.6075
الطرف	-11.609
كنوز	-11.6093
البعيد	-11.6097
ستطاع	-11.6098
البك	-11.6099
بعينه	-11.6102
السحر	-11.6107
وأتيا	-11.6107
سيما	-11.6111
يخرب	-11.6111
السر	-11.6114
وبوص	-11.6115
امتعته	-11.6116
مخط	-11.6118
غرست	-11.6119
نسيت	-11.612
وجدنا	-11.6125
يبست	-11.6126
مزق	-11.6133
وبنوك	-11.6135
وبات	-11.6141
السواري	-11.6147
زجر	-11.6149
عبرت	-11.6151
نعمل	-11.6151
لاحظ	-11.6152
المذنب	-11.6155
يقطعون	-11.6156
اشبال	-11.6158
الرجس	-11.6158
زق	-11.6163
كرهت	-11.6164
ميتا	-11.6168
صوتهم	-11.6185
مخوف	-11.6188
خاطئ	-11.6188
منوح	-11.619
الكوشي	-11.6197
وشعبه	-11.6205
السد	-11.6207
العم	-11.6211
اذل	-11.6213
واجعلهم	-11.6215
مصنوع	-11.6216
يكسر	-11.6218
ينكر	-11.6222
بعصا	-11.6229
هوشا	-11.6235
ابيكم	-11.6235
واولاد	-11.6239
كره	-11.6242
رسولا	-11.6249
شور	-11.625
يغش	-11.625
السوء	-11.6251
مقبل	-11.6252
بطون	-11.6252
يقاوم	-11.6253
وألق	-11.6256
كروبي	-11.6258
آل	-11.6259
المختار	-11.6263
وذراع	-11.6264
يحاكم	-11.627
تمش	-11.6271
يتزوج	-11.6278
يقتلوه	-11.6285
لتعليم	-11.6287
غربت	-11.6292
بالحكم	-11.6299
السرير	-11.63
اسنانه	-11.6303
بليت	-11.631
سهر	-11.631
أخذ	-11.6317
تقوا	-11.6321
وآ	-11.6329
ايثام	-11.6329
شفت	-11.633
عظمته	-11.633
الولاي	-11.6331
بالسلام	-11.6332
قرص	-11.6341
يصدق	-11.6341
فقح	-11.6342
تتعب	-11.6345
زد	-11.635
بخير	-11.6351
سألت	-11.6354
تحطم	-11.6362
اشفق	-11.6369
العتيد	-11.6372
يفهمون	-11.6374
وشم	-11.6381
فخا	-11.6383
بالبر	-11.6384
الفرس	-11.6384
حنك	-11.6387
الحفر	-11.639
ازر	-11.6399
مريب	-11.6404
يطهر	-11.6407
وأعطي	-11.6413
ومواشي	-11.6424
ائد	-11.6425
هود	-11.6426
السيل	-11.6427
ألسن	-11.6431
تعر	-11.6432
وحلف	-11.6435
واخبرت	-11.6435
شرع	-11.6436
ويضرب	-11.6438
ويضع	-11.6441
الرسول	-11.6441
قير	-11.6443
يهتف	-11.6443
تحكم	-11.6449
لديه	-11.6455
ولت	-11.6456
الخاطئ	-11.6456
مشورت	-11.6458
انصب	-11.6458
لساني	-11.6459
زاوي	-11.6459
انقذن	-11.6465
طاهرا	-11.647
ينجس	-11.6471
تاب	-11.6473
حج	-11.6474
اسهر	-11.6478
اقض	-11.648
خالف	-11.648
والشر	-11.649
القر	-11.649
ميراثك	-11.6496
جبر	-11.6499
اجابه	-11.6501
حلما	-11.6504
ينقض	-11.6514
تعالي	-11.6516
يتكل	-11.6526
كلتا	-11.6529
العط	-11.6538
منضح	-11.6539
هور	-11.6539
متنا	-11.654
ترسل	-11.6543
احش	-11.6552
دبير	-11.6556
قين	-11.6559
لانسان	-11.656
تدر	-11.656
صاح	-11.6566
وظهر	-11.6569
واجعلك	-11.657
مذ	-11.6585
سألوه	-11.6592
تغطي	-11.6603
عجلا	-11.6605
فتأكل	-11.6606
تارك	-11.6606
حاشي	-11.6611
يشخ	-11.6611
راقب	-11.6613
مرضي	-11.6616
نقص	-11.662
وغضب	-11.6621
وقسم	-11.6621
قدسا	-11.6622
سوء	-11.6622
يفكر	-11.6623
ووضعوه	-11.6626
ظلف	-11.6631
وفير	-11.6632
صبي	-11.6633
جلده	-11.6639
تخس	-11.6646
متني	-11.6647
طال	-11.6652
الشفت	-11.6653
وسع	-11.6656
واكب	-11.6657
الآكل	-11.6668
لتسمع	-11.6672
استراح	-11.6673
جرشو	-11.6675
باقي	-11.6676
قلق	-11.6676
عريانا	-11.6678
نقطع	-11.6681
ارتحش	-11.6685
اضطجاع	-11.6685
تلذذ	-11.6685
شرائع	-11.6685
تزداد	-11.6685
ظهور	-11.6685
عقيق	-11.6686
يحيط	-11.6686
خماس	-11.6686
المتكبر	-11.6688
رغيف	-11.6688
يزداد	-11.6688
متجرد	-11.6688
فترس	-11.6688
احترق	-11.6689
موائد	-11.6689
انصاب	-11.669
مسطار	-11.6693
طمث	-11.6694
يحاربون	-11.6695
وسكيبه	-11.6699
العليا	-11.67
البطم	-11.67
جاهر	-11.67
يستهزئ	-11.6702
وتعطي	-11.6704
يسحق	-11.6705
اقم	-11.6706
سمعته	-11.6708
الآك	-11.6709
العز	-11.6711
فركض	-11.6719
الساح	-11.6719
جزاء	-11.6721
ادوات	-11.6723
ختبئ	-11.6723
يضربون	-11.6723
يحرسون	-11.6727
رقب	-11.6734
امتد	-11.6734
شفط	-11.6735
شره	-11.6737
ملتوي	-11.674
وضعه	-11.675
فتراء	-11.6753
وكذا	-11.6759
فعبر	-11.6765
للسكن	-11.6768
يحي	-11.6773
وتعمل	-11.6773
ينفع	-11.6777
عميق	-11.6781
عادت	-11.6781
فاسرع	-11.6782
عاملون	-11.6783
عميان	-11.6783
اتيت	-11.6784
فوقع	-11.6788
اعمدته	-11.6794
تتزعزع	-11.6795
يصلح	-11.6798
عدوك	-11.6799
ويضعون	-11.68
يرعون	-11.6804
اخبرت	-11.6807
بألسن	-11.6807
وينزع	-11.681
بركات	-11.681
تدعون	-11.6819
فخار	-11.6827
وتبعه	-11.6833
تشت	-11.6836
المحبوب	-11.6837
الصي	-11.6843
باركك	-11.6845
اشف	-11.6847
احبه	-11.6852
وابيهو	-11.6853
فرأيت	-11.6854
شتر	-11.6858
عصوا	-11.6858
صدم	-11.6862
عزيئيل	-11.6863
فوح	-11.6867
هدأ	-11.6867
قولا	-11.6874
سري	-11.6876
ادب	-11.6878
اشتريت	-11.6886
اوصاك	-11.6891
افسد	-11.6894
تركه	-11.6894
اذنا	-11.6896
جرار	-11.6896
ليعطي	-11.6898
امسكت	-11.6898
تشته	-11.6899
ياس	-11.6901
طردت	-11.6903
تخت	-11.6904
التن	-11.6905
ليخز	-11.6905
تنجست	-11.6908
اثمك	-11.6915
ملاكا	-11.6916
طوف	-11.6918
محبتك	-11.6921
وامك	-11.6922
تائه	-11.6925
فتيات	-11.6931
فاك	-11.6933
اشرق	-11.6936
هلكت	-11.6936
فسد	-11.6936
تنكر	-11.6938
القرن	-11.6939
جنوبي	-11.6941
خنا	-11.6945
يفحص	-11.695
صلف	-11.695
واثق	-11.6952
وعار	-11.6963
تفهم	-11.6964
مسكنه	-11.6964
اخلص	-11.6965
مخلص	-11.6971
وبناتهم	-11.6972
وساق	-11.6974
ويفرح	-11.6976
فبكر	-11.6987
تفسيره	-11.6994
أول	-11.6994
وأخذ	-11.6998
وريم	-11.6998
تحته	-11.7006
مراؤ	-11.7015
فاهم	-11.7021
فاه	-11.7023
معص	-11.7026
يعرفوه	-11.7028
عباد	-11.703
ظبي	-11.7037
والكنعاني	-11.7037
فانظر	-11.7046
حرف	-11.7052
يطرح	-11.7052
فرحت	-11.7056
ناقص	-11.7056
اذنه	-11.7057
ويشو	-11.7061
اخبرك	-11.7065
بطال	-11.7073
نذرت	-11.7074
صخرت	-11.7076
يقود	-11.7079
تجلس	-11.7081
واجلس	-11.7084
اولادك	-11.7084
هبط	-11.7085
الحثي	-11.7085
تخز	-11.7099
تنوح	-11.7102
عزم	-11.7112
تهرب	-11.7113
اشبع	-11.7114
صنعته	-11.7118
ليرد	-11.712
والمحب	-11.7133
امكث	-11.7134
معلوم	-11.7134
المتمرد	-11.7134
ويقف	-11.7138
كرمل	-11.7141
وقض	-11.7141
والفهم	-11.7145
رنا	-11.7148
اثمه	-11.7152
توجه	-11.7161
احل	-11.7167
هدو	-11.7168
عرفاء	-11.7171
ومركبات	-11.7173
ليصعد	-11.7181
الند	-11.7181
قدرته	-11.7182
وقدام	-11.7185
اشكر	-11.7186
وطن	-11.7189
وأر	-11.7192
جهال	-11.7201
بالشر	-11.7202
لمعان	-11.7202
حون	-11.7208
احمر	-11.7212
يهلكون	-11.7219
زمر	-11.7227
واشرب	-11.7229
وقبل	-11.7235
صغر	-11.7237
نصبه	-11.7241
حولهم	-11.7247
ذك	-11.7251
ببعل	-11.7254
الحيوان	-11.7256
فانت	-11.7259
هربت	-11.726
قتني	-11.7263
العشار	-11.7267
عطل	-11.727
والمنا	-11.7272
طمع	-11.7272
واعطوه	-11.7274
يقم	-11.7279
بداء	-11.7281
القريب	-11.7285
يذوب	-11.7288
منظره	-11.7294
ووصل	-11.73
ألع	-11.73
يفرغ	-11.73
عيدان	-11.7304
اخف	-11.7307
وابواب	-11.7312
بالكم	-11.7312
يرفعون	-11.732
تدنس	-11.7323
يكفي	-11.7326
وتدخل	-11.733
قضبانه	-11.7331
تمكن	-11.7342
ابنتي	-11.735
اضطر	-11.7353
فحب	-11.7358
مقابله	-11.7361
والحيوان	-11.7361
جوب	-11.7362
بالدم	-11.7365
واحي	-11.7371
مير	-11.7374
واكمل	-11.7377
نفع	-11.7382
وحفر	-11.7387
ومعس	-11.7391
واوقد	-11.7397
وتقدس	-11.7401
الحم	-11.741
فها	-11.7413
زبول	-11.7419
وخروف	-11.742
امتنع	-11.7424
تخرب	-11.7425
الحو	-11.7425
رجز	-11.7426
طهار	-11.7427
بدد	-11.7433
وسلطان	-11.7445
ذئ	-11.7445
عذر	-11.7446
صيح	-11.7449
مصابيح	-11.7454
مشايخ	-11.7454
مضاجع	-11.7454
اصبع	-11.7454
اكتاف	-11.7454
رزز	-11.7454
يصهار	-11.7454
نذير	-11.7454
يائير	-11.7454
زاغ	-11.7454
اشقلون	-11.7454
روماني	-11.7454
رومي	-11.7455
محتاج	-11.7455
اليزرعيلي	-11.7456
شألت	-11.7456
اجاج	-11.7457
اعياد	-11.7457
فكاك	-11.7457
اعان	-11.7458
بصق	-11.7458
ارجاس	-11.7458
استماع	-11.7459
مجوس	-11.7461
الجرشوني	-11.7462
نفائس	-11.7463
الصحر	-11.7466
اوتاد	-11.7466
يقرأ	-11.7468
ويهوش	-11.7471
اغصانه	-11.7471
غراب	-11.7475
اضاء	-11.7476
والرجل	-11.7478
الاذن	-11.7478
شرفاء	-11.748
مؤخر	-11.748
الصيدوني	-11.7482
اولاده	-11.7491
تواليد	-11.7492
كتفي	-11.7492
باسط	-11.7494
عجين	-11.7495
فتنزع	-11.7496
فارسلت	-11.7497
اتقيائ	-11.7498
يلون	-11.7503
يساره	-11.7504
ضرر	-11.7506
ارسلهم	-11.7507
يصيح	-11.7509
جالب	-11.7509
تراءف	-11.7511
تفهمون	-11.7511
فيعلم	-11.7517
وقوي	-11.7519
غرف	-11.7522
عبور	-11.7524
أأن	-11.7528
تض	-11.7531
يحيد	-11.7532
انتخب	-11.7534
بطش	-11.7537
المخرب	-11.7544
كرني	-11.7546
وحفظ	-11.7547
وامتد	-11.7547
لابي	-11.7549
ساقي	-11.7551
اتفق	-11.7556
صادف	-11.7558
غيري	-11.7561
تخش	-11.7566
لاجله	-11.7569
يخزون	-11.757
وحمير	-11.7573
يخاصم	-11.7573
عملته	-11.7574
فتنبأ	-11.7577
وبما	-11.758
جفت	-11.7582
تحصد	-11.7582
نحش	-11.7587
كث	-11.7588
وعبيد	-11.759
سهوا	-11.759
فاسق	-11.759
فتاكل	-11.7592
ساء	-11.7592
والتقدم	-11.7593
والبواب	-11.7593
القادم	-11.7593
تنح	-11.7594
تحلف	-11.7595
فاعطيك	-11.7595
السوسن	-11.7595
فحسب	-11.7601
ونزع	-11.7603
يبشر	-11.7609
وفم	-11.7611
ولعن	-11.7614
بكت	-11.7615
ركبتيه	-11.7617
فاران	-11.7617
واعاقب	-11.7618
سوس	-11.7619
سمين	-11.762
ستريح	-11.7626
يضم	-11.7628
تفلح	-11.7633
ليسأل	-11.7635
تشق	-11.7636
مقدم	-11.7638
رأوه	-11.7644
لوحا	-11.7645
وسلم	-11.7646
فتقر	-11.7647
وصب	-11.7654
عشتا	-11.7654
فكتب	-11.7655
المهلك	-11.7658
أصعد	-11.7658
وغير	-11.7662
ظالم	-11.7662
ضر	-11.7672
للقائهم	-11.7675
محن	-11.7679
واسمانجوني	-11.7681
حصيد	-11.7682
اتت	-11.7683
بايديهم	-11.7685
فالذي	-11.7685
ذب	-11.7686
جمعهم	-11.7686
للبر	-11.7689
نازلا	-11.7691
فذهبت	-11.7696
حماته	-11.7697
ينبت	-11.7697
يحبه	-11.7699
انتقل	-11.77
ويجمع	-11.77
اغبي	-11.7704
جهن	-11.7707
حاملي	-11.7711
فص	-11.7714
تهدم	-11.7715
شركا	-11.773
تقطر	-11.773
حنق	-11.7736
العمي	-11.774
وتشدد	-11.7742
السارق	-11.7743
يمشو	-11.7744
خبث	-11.7745
يحرس	-11.7747
صفق	-11.7748
يخبرون	-11.775
مسرع	-11.7751
هاجر	-11.7752
اراح	-11.7752
ذنبه	-11.7753
وشدد	-11.7753
محر	-11.7754
خفض	-11.7758
يبغضون	-11.7759
ليحي	-11.7759
صفر	-11.7766
تبطل	-11.7767
سيط	-11.7768
الديك	-11.777
ليدك	-11.7772
داثا	-11.7774
عهدك	-11.7774
يستعبد	-11.7776
اعما	-11.7776
وطريق	-11.7786
قبح	-11.7789
كتفه	-11.779
شتم	-11.779
فاسد	-11.7791
خوذ	-11.7792
الجو	-11.7799
يحم	-11.7804
ونسله	-11.7806
بالاثم	-11.7806
الرفيع	-11.7808
فتكلم	-11.7815
تبر	-11.7819
ثب	-11.7823
انتصب	-11.7824
خروفا	-11.7826
تتنجس	-11.7831
وآخذ	-11.7832
ويد	-11.7832
هيج	-11.785
اصوله	-11.7861
وبرن	-11.7867
اجرته	-11.7867
فعند	-11.7869
ثقب	-11.7869
الجل	-11.7869
وابصر	-11.7872
تعرفه	-11.7874
ابنتك	-11.7878
بالكلم	-11.7878
سلمت	-11.7879
ساب	-11.7887
جلبت	-11.789
أجر	-11.7895
تهتم	-11.7896
وارتحل	-11.7898
زبد	-11.7898
الحراس	-11.7902
اشرف	-11.7905
ونصب	-11.7906
وشبن	-11.7915
ساد	-11.7921
وضربوه	-11.7921
قدور	-11.7923
وتأخذ	-11.7923
يبطل	-11.7923
طلبنا	-11.7923
زناه	-11.7927
والقو	-11.7928
صلبوه	-11.7931
فطرح	-11.7932
سالك	-11.7935
سفين	-11.7936
واقمت	-11.7938
منجل	-11.794
بنوك	-11.7946
يقتله	-11.7949
اولادهم	-11.7951
شرف	-11.7952
فأمر	-11.7953
قلبا	-11.7953
اهوال	-11.7954
اعداؤك	-11.7959
وحفظت	-11.7959
تطرح	-11.7961
شربت	-11.7973
فيسكن	-11.7973
وارسلت	-11.7975
مخبر	-11.7979
مجاز	-11.798
شهي	-11.7983
فرحي	-11.7986
أسر	-11.799
انهض	-11.799
الدب	-11.799
وفات	-11.7991
منحوت	-11.7993
عملتم	-11.7997
امضي	-11.8
نجاسته	-11.8008
منعت	-11.8009
خلقت	-11.8013
لئي	-11.8015
يدنس	-11.8018
تركهم	-11.8018
وتذهب	-11.802
عتب	-11.8025
تطهير	-11.8031
فاجابه	-11.8036
دعوتك	-11.8043
وحسن	-11.8057
خابو	-11.8061
العاصف	-11.8074
اقو	-11.8076
قني	-11.8078
اضطجعت	-11.8078
شلومي	-11.8079
العارف	-11.8081
يستر	-11.8082
وحدهم	-11.8084
حلي	-11.8095
بقرك	-11.8101
ادين	-11.8103
تعمله	-11.8103
ولسان	-11.8119
عطار	-11.8121
طعم	-11.8122
ليطلب	-11.8122
اذبح	-11.8123
تقض	-11.8128
نوحا	-11.8134
اشار	-11.8136
رياء	-11.8138
قربت	-11.8139
وتعب	-11.8139
فاها	-11.8149
ديم	-11.8149
بادر	-11.815
العالي	-11.8161
قديم	-11.8162
واعطيك	-11.8164
ورحم	-11.8169
زائ	-11.8174
الصاعد	-11.8176
أظهر	-11.8177
اصم	-11.8178
يركض	-11.8178
انضم	-11.8181
اخرجك	-11.8182
يختن	-11.8184
سمي	-11.8186
يتك	-11.8188
عناق	-11.8189
وبعل	-11.8189
ينج	-11.8194
يحلق	-11.8194
الموص	-11.8198
جس	-11.8198
اراه	-11.8199
اعترف	-11.8203
فعد	-11.8205
مواش	-11.8209
ففتح	-11.8211
تستر	-11.8212
فقدم	-11.8223
ثيا	-11.8225
بحكم	-11.8228
علما	-11.823
صعود	-11.8231
ينزعه	-11.8243
ويعل	-11.8247
فسق	-11.8249
ضياع	-11.8249
وسكب	-11.825
بعدك	-11.826
يملأ	-11.8261
شهرا	-11.8267
بانه	-11.827
خم	-11.8275
قرعت	-11.8283
احتياج	-11.8287
مؤامر	-11.8287
شعائر	-11.8287
يعترف	-11.8287
انبيائه	-11.8287
مغلق	-11.8287
مملو	-11.8287
اسابيع	-11.8287
مخاض	-11.8288
شغب	-11.8288
يمتلئ	-11.8288
يدفنون	-11.8289
انتذار	-11.829
اخائي	-11.829
باصبعه	-11.829
وصحن	-11.8293
تنكسر	-11.8293
ارتاع	-11.8298
ازدر	-11.8299
سمعه	-11.8299
اثيم	-11.83
التقو	-11.83
الجلعادي	-11.8309
حافر	-11.831
انصت	-11.8312
اقصاء	-11.8318
ستند	-11.8319
شركاء	-11.8319
يعمد	-11.8322
ذئب	-11.8324
رجاؤ	-11.8324
فراد	-11.8324
المسبي	-11.8326
قصوره	-11.8328
تركنا	-11.8329
يجوز	-11.8331
فسألوه	-11.8335
رافع	-11.8337
اتكأ	-11.8338
الماشي	-11.8338
فيحرق	-11.8346
رجائ	-11.8347
ونساؤ	-11.8349
ريس	-11.835
اموال	-11.8367
فالق	-11.8369
بيومه	-11.837
قبره	-11.837
ذخر	-11.837
سلطانه	-11.837
منطلق	-11.8371
افكاره	-11.8373
يزهر	-11.8373
تفن	-11.8376
عزاء	-11.8379
كوشي	-11.838
غيم	-11.8384
رجاساتهم	-11.8384
الكائن	-11.8385
الضال	-11.8386
نأكل	-11.8387
زمجر	-11.8391
زرعه	-11.8391
اعطيتهم	-11.8394
واجر	-11.8394
للشرير	-11.8396
مستريح	-11.8396
حضرت	-11.8397
بمكر	-11.8397
نجح	-11.8398
يحجز	-11.8398
صورته	-11.8398
وعزر	-11.8401
حابر	-11.8402
كعك	-11.8405
ويأكل	-11.8406
العصو	-11.8408
المتجه	-11.841
تناول	-11.8411
ويقر	-11.8411
نوع	-11.8413
شارع	-11.8419
ائت	-11.8419
عرفتم	-11.8423
ذكرت	-11.8424
ماشيا	-11.8429
خدمت	-11.8429
وعسا	-11.8431
يومه	-11.8432
الزارع	-11.8435
بثا	-11.8439
ذوب	-11.8441
ابغضه	-11.8441
الزوان	-11.8445
يعوز	-11.8445
والتفت	-11.8447
مربض	-11.8448
اعناق	-11.8453
وأكل	-11.8456
ينادا	-11.8456
فارتحل	-11.8457
فطرد	-11.8458
مناظر	-11.8459
ألقي	-11.846
اشراف	-11.8461
صياح	-11.8463
الملق	-11.8465
خزو	-11.8467
ذراعه	-11.8468
غلامه	-11.8476
واعطيتهم	-11.8477
قبلت	-11.8478
احتمال	-11.8479
حمر	-11.8479
الاسرائيلي	-11.8479
تقرض	-11.8488
احص	-11.8489
يعاقب	-11.8494
واقم	-11.8503
كار	-11.8504
لبقي	-11.8507
يسألون	-11.8509
عاصف	-11.8515
القبيح	-11.8519
تيمان	-11.8525
ليشرب	-11.8539
خادما	-11.854
ويرث	-11.8542
وفرسانه	-11.8542
يجدف	-11.8556
تكف	-11.8556
سؤل	-11.8558
يتام	-11.8559
اختاره	-11.8563
مراعي	-11.8574
فأخذت	-11.8577
وتشرب	-11.8582
خبرا	-11.8586
يصغ	-11.8588
اسكت	-11.8589
واعلم	-11.859
المتقد	-11.8595
متغرب	-11.8595
افرات	-11.8599
وظل	-11.862
ليجعل	-11.8621
لاست	-11.8622
أهوليب	-11.8627
طفل	-11.863
وانزع	-11.8633
جروح	-11.8634
بصل	-11.8636
واهب	-11.8639
وزا	-11.8641
حكمتك	-11.8643
اليوناني	-11.8643
يتركون	-11.8644
وافرح	-11.8646
لحفظ	-11.865
سخطه	-11.8653
محلي	-11.8654
اسود	-11.8658
وباركه	-11.8664
سحر	-11.8665
ليخدم	-11.8665
واجاب	-11.8665
دعاء	-11.8667
باركه	-11.867
الخادم	-11.867
وخزائن	-11.8677
سارق	-11.868
زيف	-11.8682
وتعلم	-11.8685
اللابس	-11.8689
النخل	-11.8689
وآباؤ	-11.869
عكس	-11.8694
ينام	-11.8696
لاهلاك	-11.8704
صني	-11.8705
لتحفظ	-11.8707
ووقع	-11.8708
عطشان	-11.8714
لاخيه	-11.872
لامك	-11.8734
مبغضين	-11.8734
حملان	-11.8735
اجري	-11.8739
حزنت	-11.8745
وعصا	-11.8748
يتعجب	-11.8757
مشيئته	-11.8758
واياه	-11.8762
يامين	-11.8768
عاهد	-11.8769
استق	-11.8773
اباكم	-11.8773
يصنعه	-11.8774
يقدمه	-11.8775
رحض	-11.8776
كهذ	-11.8779
فاصنع	-11.8783
تغرس	-11.8789
كرما	-11.8792
يحث	-11.8799
وانث	-11.8802
يبكي	-11.8809
عتبر	-11.881
بقليل	-11.8813
خاص	-11.8815
وغسل	-11.8816
وتغش	-11.8817
لياكل	-11.8822
نافع	-11.8827
يويا	-11.8831
ويدفع	-11.8834
تضل	-11.8838
تتم	-11.884
تكره	-11.8842
طلق	-11.8851
بنتي	-11.8853
تفتح	-11.8854
املأ	-11.8863
تضي	-11.8863
حائ	-11.8866
المصنوع	-11.8867
وصرت	-11.8869
يمكث	-11.8872
وغط	-11.8875
علو	-11.8881
كنائ	-11.8888
اذيال	-11.8895
نقب	-11.8904
يسب	-11.8904
التيس	-11.8908
بمئ	-11.8909
مذلت	-11.8918
فيرد	-11.8918
اكلا	-11.8921
وراءك	-11.8923
تضر	-11.8923
مصيب	-11.8928
يؤدب	-11.894
ستعلن	-11.8943
قسما	-11.8946
باحد	-11.8946
باكثر	-11.895
رهب	-11.8953
بكري	-11.8954
متكل	-11.8955
وشعر	-11.8956
بستان	-11.8956
مركبت	-11.8962
يميت	-11.8969
ارسلته	-11.8974
يهتم	-11.8976
الغبي	-11.8977
الجت	-11.8977
وكس	-11.8986
وفعلت	-11.8986
بثمر	-11.8989
وقري	-11.899
فكش	-11.899
ويبيد	-11.8991
مستقيما	-11.9001
فغضب	-11.9005
بقلب	-11.9006
ايمانك	-11.9007
رجاساتك	-11.9009
مكث	-11.9009
اجعلك	-11.9017
ابق	-11.9021
فاس	-11.9028
يجعلون	-11.9028
سرو	-11.903
يهونا	-11.9036
عابد	-11.9038
بعدهم	-11.904
غض	-11.9045
لسار	-11.9047
احدهم	-11.9049
تفرس	-11.9052
وشف	-11.9059
ينمو	-11.9065
البق	-11.9078
لوطا	-11.9079
ملاكه	-11.9082
سلامته	-11.9084
يلعن	-11.9097
يضر	-11.9102
تنف	-11.9116
ددان	-11.9116
ناز	-11.9119
وقتله	-11.9121
شكن	-11.9125
اضل	-11.9127
الاسر	-11.913
الظه	-11.9132
وقرأ	-11.9133
أس	-11.9136
والمذبح	-11.9143
يفتش	-11.9153
ليعط	-11.9156
حقله	-11.9162
لبنيامين	-11.9165
اباهم	-11.9166
واخرب	-11.9166
وتاخذ	-11.9168
ؤوس	-11.9173
الحافظ	-11.9175
سكنت	-11.9176
فحلف	-11.9179
والصح	-11.9185
فيسقط	-11.9189
فلسطين	-11.9189
النطوفاتي	-11.9196
سطوح	-11.9196
صائغ	-11.9196
ويستحم	-11.9196
مباحث	-11.9196
جائع	-11.9196
استطع	-11.9196
تلتفت	-11.9196
خزان	-11.9197
يخاطب	-11.9197
التصق	-11.9197
سؤال	-11.9197
ملتهب	-11.9197
يخش	-11.9197
تؤخذ	-11.9197
وينضح	-11.9197
ميلاد	-11.9198
وتشجع	-11.9199
موازين	-11.92
خاضع	-11.92
مكتوم	-11.9201
لامه	-11.9201
الزمت	-11.9202
بغوا	-11.9202
القيني	-11.9204
مجامر	-11.9205
ملتمس	-11.9206
قادم	-11.9207
استأجر	-11.9207
يبرر	-11.9209
اتعاب	-11.9209
ليش	-11.9211
صندوق	-11.9211
توقد	-11.9211
بذار	-11.9212
شونم	-11.9213
جواري	-11.9214
ينطفئ	-11.9215
رياس	-11.9215
جهاد	-11.9216
وسكائبه	-11.9216
ساهر	-11.9218
ترنح	-11.9218
تسر	-11.9221
الجلاد	-11.9221
رفيق	-11.9223
رحوم	-11.9223
بذراع	-11.9224
كاسات	-11.9225
فبهت	-11.9225
اليصا	-11.9226
تصب	-11.9229
دوث	-11.9232
مؤسس	-11.9233
بنجاسته	-11.9236
بطهار	-11.9237
نفذ	-11.9239
اخذتم	-11.924
اجازي	-11.9242
كليه	-11.9243
موهب	-11.9244
انفك	-11.9245
جئن	-11.9247
ضاب	-11.9248
يغيظون	-11.925
تجارت	-11.9257
شقوق	-11.9259
طحن	-11.926
تقلد	-11.9264
برقع	-11.9265
اردت	-11.9266
بالامان	-11.9266
ويحرقون	-11.9266
تنجح	-11.9276
حرث	-11.9276
تعم	-11.9282
فسكت	-11.9283
آلهتك	-11.9283
ومكث	-11.9285
ترفعون	-11.9286
لمجد	-11.9294
حجل	-11.9297
رجعتم	-11.9299
وتخومه	-11.9299
فادي	-11.9301
مديون	-11.9302
باسمائه	-11.9304
يزمجر	-11.9304
الهارب	-11.9309
الغادر	-11.9309
وباقي	-11.9309
تميت	-11.931
ليحارب	-11.9313
بعمل	-11.9317
رجموه	-11.932
سوط	-11.932
ورؤساؤه	-11.9321
محبته	-11.9322
طاب	-11.9324
تجبر	-11.933
شكو	-11.9337
يرضي	-11.9338
قار	-11.934
مطلق	-11.9343
خبره	-11.9343
نطح	-11.9344
اغاني	-11.9351
انتهر	-11.9353
يضعه	-11.9354
توجع	-11.9357
لاخوته	-11.9358
ليعبدو	-11.936
تدعو	-11.9365
يقو	-11.9369
حزين	-11.9373
اخيا	-11.9374
جارف	-11.9374
تدبير	-11.9376
مقاومي	-11.9377
منفلت	-11.9377
يتكئ	-11.9382
وكر	-11.9384
وباع	-11.9386
عاقبت	-11.939
درع	-11.9393
وتحرق	-11.9395
يرذل	-11.9396
ينقذن	-11.9399
اصفح	-11.94
فذبح	-11.9401
غيرك	-11.9403
فصرت	-11.9406
بايمان	-11.9407
واذري	-11.9408
وغيظ	-11.9409
السكن	-11.941
حامي	-11.9412
ليقل	-11.9413
حيل	-11.9414
زيتا	-11.9414
تملأ	-11.9419
يستريح	-11.9421
السائر	-11.9421
ابتدأت	-11.9422
وشهادات	-11.9427
تزلزل	-11.9429
صفني	-11.943
فاتح	-11.9436
ابتهج	-11.9436
حدته	-11.9436
ليأتو	-11.9439
ويكثر	-11.944
غمس	-11.944
والكبش	-11.9447
يشعي	-11.9453
اسع	-11.9454
وعوج	-11.9463
حتج	-11.9464
لتخ	-11.9464
ولبن	-11.9467
قرونه	-11.9468
كهنته	-11.9476
واختار	-11.9477
عجر	-11.9483
البلدا	-11.9485
بامور	-11.9488
رجسا	-11.9489
ينوح	-11.9492
الحمل	-11.9494
ماض	-11.9495
تقس	-11.9497
معوج	-11.9497
غرق	-11.9503
طوق	-11.9506
وخدم	-11.9506
يدان	-11.9508
آتيا	-11.9509
وابيش	-11.952
دعواه	-11.9521
ليسجد	-11.9523
كراسي	-11.9526
فسار	-11.9528
ينكسر	-11.9529
ودعوا	-11.9532
استقبل	-11.9534
يهيئ	-11.9537
وشكر	-11.9538
عرا	-11.9542
الرأوبيني	-11.9547
بادت	-11.9553
واطرح	-11.9556
تذر	-11.9562
وثلث	-11.9564
تتنبأ	-11.9567
غناه	-11.9568
نائح	-11.9574
ووصايا	-11.9575
أتين	-11.9576
انقطع	-11.9576
ويشبع	-11.9579
قرأت	-11.9582
يؤد	-11.9583
متكئ	-11.9584
مملكتي	-11.9586
تعطيه	-11.9593
تلميذ	-11.9603
مفيبو	-11.9606
وصلت	-11.9607
صاهر	-11.9612
برني	-11.9626
ويصير	-11.9627
الحب	-11.9629
بريع	-11.9632
والف	-11.964
نخرج	-11.9642
حصد	-11.9645
بدمه	-11.9648
والمدن	-11.9651
أعط	-11.9669
لاخي	-11.9672
تسأل	-11.9674
والجالس	-11.9677
واشت	-11.9679
الإي	-11.9684
مصعد	-11.9684
تركتم	-11.9685
تذكرون	-11.9688
والبر	-11.969
رسم	-11.9696
وامي	-11.9697
وجعلوه	-11.9701
لمعرف	-11.9702
آمر	-11.9703
فيخرج	-11.9704
بريئا	-11.9706
المتطه	-11.9708
اختهم	-11.9716
نمو	-11.9717
ابوكم	-11.9724
العتب	-11.9725
جلاله	-11.9727
يحلف	-11.9732
ايش	-11.9742
احتم	-11.9745
تنعم	-11.9745
لقا	-11.9747
جانبه	-11.975
المتكل	-11.9751
فاض	-11.9752
عشيرته	-11.9753
الفاضل	-11.9753
اوصيتك	-11.9755
تقدمت	-11.9756
احرقه	-11.9762
لقم	-11.9766
وسير	-11.9769
سافر	-11.9769
يؤ	-11.9772
يسكب	-11.9777
وتعملون	-11.9784
تخجل	-11.9799
ددهم	-11.9802
تصر	-11.9805
فروع	-11.9808
يصومو	-11.9808
ئن	-11.9811
وعظام	-11.9812
غوي	-11.9817
ونهب	-11.9821
المتكئ	-11.9821
تذ	-11.9828
المرسل	-11.983
تكبر	-11.983
تفني	-11.9839
يسلمه	-11.9855
الفطن	-11.9857
ويعطيه	-11.9861
العار	-11.9862
مواشيهم	-11.9867
حضنه	-11.9867
فرج	-11.9871
اقرع	-11.9887
دمهم	-11.9891
محم	-11.9899
ويرم	-11.99
وتمتلك	-11.9926
وقيد	-11.9936
غطت	-11.994
خطواته	-11.9942
خرجتم	-11.9942
افرز	-11.9944
اخوات	-11.9948
عبراني	-11.995
حقوي	-11.9952
وجانب	-11.9957
ضاق	-11.9959
وعشير	-11.9962
عذاب	-11.9963
القضا	-11.9965
ترديد	-11.9967
صباه	-11.9969
نشف	-11.9971
كسب	-11.9973
تدرك	-11.9973
أش	-11.9981
لكني	-11.9983
تشتهي	-11.999
اعلن	-11.9998
بالموت	-11.9998
ومبارك	-11.9999
فخذه	-12.0001
ويعلم	-12.0007
اساسا	-12.0008
وخشب	-12.0009
الكن	-12.0015
يقاد	-12.0016
يكي	-12.0024
ويجر	-12.0027
جاهد	-12.0035
يبرأ	-12.0037
اتركك	-12.0044
قامته	-12.0047
نقيا	-12.0049
وطوب	-12.006
القلع	-12.0066
العصي	-12.0068
ويرفع	-12.007
ثروت	-12.0079
طبخ	-12.008
زبي	-12.0088
يقلع	-12.009
وعيد	-12.0091
تسرق	-12.0095
مطل	-12.0105
مغط	-12.0106
وحملو	-12.0107
تشف	-12.0111
وحصر	-12.0114
اخطا	-12.0115
عرو	-12.0117
اصلح	-12.0123
يسوق	-12.0126
عيدا	-12.0127
طشا	-12.0129
ولبنيه	-12.0129
سفار	-12.0133
ويصنع	-12.0137
يرسله	-12.0137
نطلب	-12.0139
طرحهم	-12.015
ابتلع	-12.015
لود	-12.0155
استحلف	-12.016
مقر	-12.0171
شيخا	-12.0172
يغرس	-12.0175
باغ	-12.0178
يتقدس	-12.0181
آباؤه	-12.0188
اجرت	-12.019
اقضي	-12.0193
مرفوض	-12.0196
يلتصق	-12.0196
خزام	-12.0196
ومقببه	-12.0196
تدشين	-12.0196
وظيف	-12.0196
اعتكاف	-12.0196
وانتظر	-12.0196
اعضائ	-12.0196
المستكبر	-12.0196
متسربل	-12.0196
فاستجاب	-12.0197
افتكر	-12.0197
ترصيع	-12.0197
يشمع	-12.0197
زحزح	-12.0197
اقراط	-12.0197
مستوطن	-12.0197
ترتاع	-12.0198
سواقي	-12.0199
يرحمئيل	-12.0199
يخضع	-12.02
احرار	-12.02
افسنتين	-12.0202
والجادي	-12.0202
مقتدر	-12.0203
باكورات	-12.0205
اضرم	-12.0207
فاجبت	-12.0209
ويدو	-12.0209
النعام	-12.021
وحجر	-12.021
وجبروته	-12.0211
حنوك	-12.0212
قطاف	-12.0213
تقليد	-12.0213
رمون	-12.0213
يترأف	-12.0214
تبرأ	-12.0215
معاند	-12.0215
بجانبه	-12.0217
الفاجر	-12.0219
ويبسط	-12.022
المنسحق	-12.022
شبعت	-12.0221
نشئ	-12.0223
اصط	-12.0227
ليتغرب	-12.0227
مناطق	-12.0228
تلمس	-12.0229
ارادته	-12.0229
منحوتا	-12.023
تحقق	-12.0231
يطب	-12.0232
ذبحت	-12.0236
تطيل	-12.0238
الادومي	-12.0241
واغ	-12.0242
شريك	-12.0247
عصيان	-12.0248
شريف	-12.025
سيدهم	-12.0252
غنمه	-12.0253
شتاق	-12.0255
يلتمس	-12.0257
ليحل	-12.0259
والخطا	-12.026
ابيعزر	-12.026
ليتك	-12.0266
تقرأ	-12.0266
عدده	-12.027
ضغط	-12.0272
حدود	-12.0274
قبيل	-12.0275
يخجل	-12.0276
حيم	-12.0278
ويداه	-12.0279
غرت	-12.028
موثق	-12.0281
رقيق	-12.0281
يجاوب	-12.0282
استفان	-12.0282
اريك	-12.0282
بقلوب	-12.0285
مسبوكا	-12.0286
مكرهات	-12.0286
مسارحه	-12.0286
بعور	-12.0288
أأ	-12.029
سمعتموه	-12.0292
انتساب	-12.0292
موشي	-12.0293
فيحيا	-12.0293
ليكهن	-12.0295
مطرود	-12.0295
مرتعد	-12.0298
فريسي	-12.0299
واعترف	-12.03
تبرع	-12.03
ويخجل	-12.0301
خزيت	-12.0302
الحقيقي	-12.0304
ينطلق	-12.0304
ترش	-12.0315
ارتض	-12.0318
واعمدته	-12.032
رافا	-12.0321
فسأله	-12.0323
واخبروه	-12.0323
اذنب	-12.0329
تنقذ	-12.033
واولاده	-12.0339
نعبد	-12.034
والقي	-12.0341
والساكن	-12.0342
يتبعون	-12.0348
يعطيهم	-12.035
واطلب	-12.0351
فغر	-12.0353
مفت	-12.036
ومنظره	-12.0365
وقار	-12.0367
فتذكر	-12.0368
مجمر	-12.037
تعزيت	-12.0372
رعم	-12.0375
قترب	-12.0377
يفدي	-12.0378
بيتشمس	-12.038
مسكون	-12.0383
منفرد	-12.0388
وفهم	-12.0388
ظله	-12.0389
عجبا	-12.039
حملا	-12.0394
تدعين	-12.0395
ولبس	-12.0396
ساجد	-12.0396
جرد	-12.0397
وتسجد	-12.0399
الحرا	-12.04
استعد	-12.0404
وضياعه	-12.0406
واعظم	-12.0408
وبجانبهم	-12.0413
اسست	-12.0416
لتنظر	-12.0426
تحفن	-12.0427
يعزر	-12.0428
بواب	-12.0429
اصنامكم	-12.0434
بطي	-12.0435
بتاع	-12.0436
عتم	-12.0436
اخبرنا	-12.044
متعظم	-12.0443
فخل	-12.0445
طاف	-12.0445
ارباب	-12.0455
عاقل	-12.0455
مرق	-12.0464
يزد	-12.0466
اعداءه	-12.0468
فتات	-12.047
يزني	-12.0475
فادخل	-12.0477
وارحم	-12.0477
يصيب	-12.0479
وسلك	-12.048
طرحت	-12.0486
الترا	-12.0488
منفصل	-12.0488
مسافر	-12.0498
تباع	-12.0499
تبصرون	-12.0502
بناتهم	-12.0508
ستوجب	-12.0519
بخوف	-12.0524
يمتحن	-12.0525
اصابه	-12.0528
مواضع	-12.0528
الشبع	-12.0528
واعطيت	-12.0528
الألسن	-12.0528
تنظران	-12.0531
وباني	-12.0531
منتقم	-12.0535
يخطف	-12.0536
يحق	-12.0536
وسلمه	-12.0538
فضربه	-12.0539
فاجابت	-12.0545
الناظر	-12.0547
مشق	-12.055
تمتحن	-12.0551
فبارك	-12.0553
ضيقي	-12.0559
مخرج	-12.0564
المحص	-12.0567
وصنعت	-12.0568
البستان	-12.0581
يحو	-12.0581
بتسبيح	-12.0588
تيبس	-12.0593
يضايق	-12.0594
وتمسح	-12.0597
جسمه	-12.0601
اصرف	-12.0605
تعش	-12.0608
يطردون	-12.0612
وقرب	-12.0612
وحراس	-12.0617
اضطراب	-12.063
جناحيه	-12.064
جوعا	-12.0646
عونا	-12.0649
وابع	-12.065
افترس	-12.0653
الضارب	-12.0653
والقوا	-12.0655
تكتب	-12.0656
شارب	-12.0662
باقوال	-12.0668
ديش	-12.068
عزي	-12.0682
يعب	-12.0687
شمالي	-12.0689
لتعلم	-12.0692
وزر	-12.0701
عمودا	-12.0726
يقبلون	-12.0728
لكونه	-12.0736
تدفن	-12.074
والرحم	-12.0744
معونت	-12.0746
حولك	-12.0756
والعر	-12.0761
فبما	-12.0767
تموهم	-12.0767
وآيات	-12.0768
امواله	-12.0769
مخارج	-12.0777
تحرك	-12.0778
وذر	-12.0782
بثمن	-12.0784
فاضل	-12.0797
تملق	-12.0805
ارتفاعه	-12.0806
اطفالهم	-12.0806
تتقدم	-12.0807
ويبارك	-12.0807
كلما	-12.082
ويحفظ	-12.0827
ويخلص	-12.0834
تفسير	-12.0836
تحف	-12.0841
لابني	-12.0841
تعليمه	-12.0846
فطوب	-12.0848
جناحي	-12.0849
اذهان	-12.0852
ببر	-12.0853
مرضه	-12.0859
استحي	-12.0863
سبقت	-12.0866
فسر	-12.0879
تسكت	-12.0883
والباقي	-12.0901
فاحب	-12.0906
خض	-12.0909
يسلب	-12.0913
لآكل	-12.0914
الضفا	-12.0922
تجيب	-12.093
رؤي	-12.093
اساء	-12.0932
فحل	-12.0933
ومز	-12.0933
ولمس	-12.0935
اخش	-12.0935
تمل	-12.0944
تمنع	-12.0946
اخرب	-12.0951
وذهبت	-12.0955
بخطايا	-12.0955
بحث	-12.0957
صانعه	-12.0959
تعبدون	-12.0959
بقول	-12.097
وطرحوه	-12.0976
تقسم	-12.0977
امرهم	-12.0982
ارتخ	-12.0984
تعرفونه	-12.0985
ليحمل	-12.0986
ترهب	-12.0988
قدرت	-12.099
سبله	-12.0993
تداب	-12.0995
انفصل	-12.0997
وافر	-12.1001
ضبط	-12.1004
زبر	-12.1007
قبيح	-12.1009
نخل	-12.101
ليصل	-12.1017
انفه	-12.1023
الاكم	-12.1023
يقيمه	-12.1029
ختتن	-12.1032
مهد	-12.1039
سلوك	-12.1041
اهر	-12.1042
عتيق	-12.1042
منزل	-12.1043
ويوقده	-12.1044
وسرا	-12.1046
مسلم	-12.1049
نعمته	-12.1051
ومستقيم	-12.1053
تقم	-12.1071
مظال	-12.1074
عاش	-12.1075
بناؤ	-12.1079
يتعل	-12.1081
سريت	-12.1091
خطئ	-12.1099
بمركبات	-12.1103
قيا	-12.1103
تكئ	-12.1112
حداثت	-12.1114
ووقفت	-12.1137
تمتلكه	-12.1149
محيط	-12.1152
مدينتي	-12.1153
سماع	-12.1159
يجلب	-12.1164
واقامه	-12.1168
تئ	-12.1183
وحاصر	-12.1183
تحد	-12.119
بنياميني	-12.1196
وامان	-12.1203
يبلغ	-12.1203
لكنهم	-12.1206
يبيع	-12.1208
طلعت	-12.1209
تري	-12.1217
تنط	-12.1218
هدب	-12.1223
بددت	-12.1237
متجه	-12.1239
اصطف	-12.1257
لكس	-12.1264
ففرح	-12.1265
شكل	-12.1273
اسس	-12.1289
روس	-12.1305
تسالونيكي	-12.1307
محفوظ	-12.1307
تنتظر	-12.1307
ذخائر	-12.1307
صنائع	-12.1307
اقتحام	-12.1307
الخباز	-12.1307
خبيث	-12.1307
كورنث	-12.1307
تلتقط	-12.1307
مغروس	-12.1307
حاذق	-12.1308
يبتلع	-12.1308
يستحق	-12.1308
اسكندر	-12.1308
مخيف	-12.1308
ستغيث	-12.1308
رابض	-12.1308
حديث	-12.1309
دفوف	-12.1309
رفوش	-12.1309
مخترع	-12.1309
ارتحال	-12.1309
ساكت	-12.1309
يبرح	-12.1309
يلهج	-12.1309
اسبح	-12.131
وعوارضه	-12.1313
كوكب	-12.1313
اصدقاء	-12.1313
رفاد	-12.1313
ائز	-12.1314
تجهلو	-12.1316
شتكي	-12.1316
الوطني	-12.1317
افيق	-12.1317
اختراع	-12.1317
ضفر	-12.1318
تخضع	-12.1318
يتقون	-12.132
استهزأ	-12.1321
يعبدون	-12.1322
تعملونه	-12.1324
ازداد	-12.1326
حادث	-12.1326
تستجيب	-12.1326
خدعت	-12.1327
قساو	-12.1328
طلوع	-12.1329
يقرض	-12.1329
وقاعدته	-12.1329
واقع	-12.1329
المتوكل	-12.1329
فشد	-12.133
يشتهي	-12.1331
قطف	-12.1331
خاطف	-12.1334
لبنيه	-12.1335
وينهب	-12.1338
حاسب	-12.1339
قث	-12.1341
اسلح	-12.1343
واطلقه	-12.1345
يلزم	-12.1345
ويوز	-12.1346
اعتزل	-12.1347
واظب	-12.1347
فامتنع	-12.1352
ختطف	-12.1355
والحكم	-12.1358
يغي	-12.1361
بالقو	-12.1361
حساب	-12.1365
قاسي	-12.1366
تضطهد	-12.1366
مظلوم	-12.1366
وعصي	-12.1367
نزعت	-12.1368
مدبر	-12.1371
يبيعون	-12.1373
اهتمام	-12.1373
واستدع	-12.1374
مفسد	-12.1378
راسخ	-12.1381
استشار	-12.1383
وهبت	-12.1384
صنم	-12.1385
ليبارك	-12.139
عتد	-12.139
خزن	-12.1391
ارتعب	-12.1392
واصطف	-12.1393
فتعجب	-12.1394
نهلك	-12.1395
عدله	-12.1396
للرض	-12.1397
تصنعون	-12.1398
تضطجع	-12.14
يلاحظ	-12.14
كيلا	-12.1403
يخدمونه	-12.1404
سيوف	-12.1405
امواج	-12.1405
وسافر	-12.1407
زنت	-12.141
متوشا	-12.1411
ظلمت	-12.1411
محصول	-12.1412
يضعون	-12.1413
يتمش	-12.1415
كيس	-12.1415
ويطرح	-12.1417
مطرز	-12.1418
اشتراه	-12.1419
خاصته	-12.142
تجده	-12.142
ينقرض	-12.1421
غلات	-12.1421
لغلامه	-12.1423
فاطلق	-12.1425
يسقي	-12.1425
مفلوج	-12.1425
يحص	-12.1428
قترن	-12.143
وارفع	-12.1432
المضروب	-12.1436
تفسد	-12.1438
شهدت	-12.144
ويملأ	-12.1443
تحير	-12.1444
يجدون	-12.1445
تذم	-12.1446
ويحرق	-12.1447
محبوسا	-12.145
بغل	-12.145
السقا	-12.145
سعي	-12.1454
رتم	-12.1458
يعج	-12.1458
تئن	-12.1461
فتسقط	-12.1461
يوث	-12.1463
يهيج	-12.1464
يمامت	-12.1464
اصابتن	-12.1465
يتوبو	-12.1466
تؤ	-12.1469
كتبه	-12.147
فامتلأ	-12.1473
حدق	-12.1474
ونثن	-12.1474
واعتمد	-12.1475
تبررت	-12.1483
ودفعت	-12.1487
أفليس	-12.1487
يتقي	-12.1493
التبن	-12.1496
العطش	-12.1496
فشفاه	-12.1499
للمحرق	-12.15
غمد	-12.1501
زرعك	-12.1506
اضطهد	-12.1509
تطي	-12.1514
قوسه	-12.1515
وسرج	-12.1518
طفق	-12.1528
الفلاح	-12.153
مجر	-12.1535
تفرق	-12.1541
رقاب	-12.1544
معذب	-12.1548
وصري	-12.1558
لقدمي	-12.1562
عشور	-12.1564
وسور	-12.1565
تزوج	-12.1567
أرأيت	-12.1572
والطاهر	-12.1579
تتلف	-12.1586
صفير	-12.1587
فاطلب	-12.1591
أمسك	-12.1591
وزبدي	-12.1592
اسلمه	-12.1596
ختمر	-12.1596
احبائ	-12.1598
مجاري	-12.1599
اتكلت	-12.16
وتسكن	-12.16
الوحيد	-12.1605
منحني	-12.1606
طرب	-12.1606
انتظرنا	-12.1615
وسمك	-12.1618
ذكرهم	-12.1629
جمالهم	-12.163
لداني	-12.1631
وأكلت	-12.1633
فده	-12.164
جوانب	-12.164
وظلم	-12.1649
خيار	-12.1656
الوالد	-12.1658
اخراج	-12.166
وتطلع	-12.1663
دعيتم	-12.1665
اوصان	-12.1665
قيش	-12.1666
وسكنت	-12.1672
وحافظ	-12.1679
منحوتات	-12.1688
وآثام	-12.1691
واجتاز	-12.1699
مصاريعه	-12.1704
ويعملون	-12.171
تسفك	-12.1711
توما	-12.1712
فقول	-12.1712
قتلوه	-12.1718
دعيت	-12.1721
الساقط	-12.1723
احسنت	-12.1727
ليذبح	-12.1731
واملأ	-12.1735
لحوم	-12.1738
وتعل	-12.1742
سيله	-12.1755
والفرس	-12.1757
وصرف	-12.1757
مذم	-12.1758
كجن	-12.1761
ونفتالي	-12.1765
نخدم	-12.1768
لينزل	-12.1771
فدعاهم	-12.1777
المشير	-12.1781
فارجع	-12.1782
وخجل	-12.1783
واخوتك	-12.1783
طلاق	-12.1784
رؤو	-12.1792
ودهن	-12.1803
مشهود	-12.1804
تغفر	-12.1808
السمين	-12.181
خور	-12.1819
بالجه	-12.1823
وثبت	-12.1829
ارتج	-12.1831
فراخ	-12.1851
صيت	-12.1852
يكرمه	-12.1853
يعطين	-12.1855
بوزن	-12.1857
وتجمع	-12.1859
تفرغ	-12.1871
فالج	-12.1874
بذبائح	-12.1887
حياتهم	-12.1889
تمشي	-12.189
وابينا	-12.1891
ودفعه	-12.1899
وضعوه	-12.1904
يدعوه	-12.1904
ونجا	-12.1905
غلبت	-12.1909
مبغضيك	-12.1911
مجيب	-12.1911
تاخذون	-12.1914
يجتر	-12.1915
ومئتي	-12.1921
ويحارب	-12.1923
فيغسل	-12.1925
السرو	-12.1932
فلطي	-12.1935
خس	-12.1935
فعلوه	-12.1938
متمسك	-12.1939
تشاء	-12.1942
ونخيل	-12.1946
وطيب	-12.1946
آمرك	-12.1948
حظ	-12.1956
تابو	-12.1967
رفضه	-12.1967
وحشب	-12.1972
وتقر	-12.1983
وحرم	-12.1986
بظل	-12.1994
اصير	-12.1994
خفت	-12.2004
تحبون	-12.2004
تحولت	-12.2013
اندهش	-12.2018
قرنا	-12.2033
ركبت	-12.2041
مستهزئ	-12.2044
شيث	-12.2056
فتحول	-12.2057
ماخض	-12.2064
سمعناه	-12.2069
صيل	-12.2073
سلط	-12.2076
وقتلوه	-12.2084
والكلداني	-12.2085
لوح	-12.2094
جزيل	-12.2102
سوري	-12.2104
تزا	-12.2105
بغن	-12.2106
تفر	-12.2109
انفتح	-12.2112
دعوته	-12.2121
وطرحت	-12.2123
ايثان	-12.2145
نقر	-12.2154
زيع	-12.2162
وامها	-12.2176
الرأي	-12.2179
عدلام	-12.2187
مستو	-12.219
واخذوه	-12.2191
اخرجوه	-12.2201
وملأه	-12.2209
ومعل	-12.2209
زلت	-12.221
لأر	-12.2213
ينصب	-12.2215
دهر	-12.2216
فديت	-12.222
ريئيل	-12.2227
يكذب	-12.2246
شكوا	-12.2252
ثار	-12.2259
فاضطجع	-12.226
وتجعله	-12.2262
الشح	-12.2267
اعلان	-12.2273
سبيت	-12.2275
تمح	-12.2277
اشكو	-12.2277
ويرش	-12.2283
دنست	-12.2284
غيظه	-12.2285
وجاز	-12.2286
آخرته	-12.2286
متقدم	-12.2321
هزأ	-12.2337
غنيا	-12.2343
خبزك	-12.2347
وذو	-12.2355
خسر	-12.2356
احتقرت	-12.2357
يحرث	-12.2358
وليست	-12.2368
تركون	-12.2378
امنع	-12.2383
معرفته	-12.2395
يسبون	-12.2397
يشف	-12.2406
وبجانبه	-12.2406
ناجي	-12.2408
ووضعت	-12.241
آبار	-12.2413
صلبه	-12.2419
تأكلونه	-12.2419
ئل	-12.2428
احضرو	-12.2428
نكث	-12.2429
وحو	-12.2429
عاصي	-12.2443
خيانته	-12.2445
نوف	-12.2445
للسلام	-12.2447
فرجعت	-12.2452
خدعك	-12.2461
ألسنت	-12.2466
ورؤساؤ	-12.2469
بعتم	-12.2469
يزل	-12.2469
غنيمته	-12.247
اكتنف	-12.247
رؤساؤه	-12.2473
كبريت	-12.2477
رماح	-12.248
يختر	-12.2482
الناصر	-12.2486
رحوب	-12.249
أعلم	-12.25
حلاو	-12.2505
فهيم	-12.2512
العث	-12.252
اعتز	-12.2525
وطلبت	-12.2527
عوص	-12.2529
وسحق	-12.2531
رئي	-12.2539
تطلق	-12.2542
للحق	-12.2548
الفخ	-12.2549
فسج	-12.2549
طمئن	-12.255
نساؤ	-12.2553
جشور	-12.2553
تسابيح	-12.2557
رفائع	-12.2557
ننتظر	-12.2557
المنحدر	-12.2557
وملؤه	-12.2557
شنعار	-12.2557
مشتهيات	-12.2557
تفتكر	-12.2557
الجامع	-12.2558
فائق	-12.2558
مجيئك	-12.2558
مغاير	-12.2558
مرسوم	-12.2558
مجتهد	-12.2558
مرضوض	-12.2558
خنزير	-12.2558
ترميم	-12.2558
بيلشاص	-12.2558
مقادس	-12.2558
اضداد	-12.2559
اقراص	-12.2559
ورقاق	-12.2559
يلتفت	-12.2559
بواسير	-12.2559
بطئ	-12.2559
ارتداد	-12.256
نسائك	-12.256
عثني	-12.256
الجاعل	-12.256
اطايب	-12.256
مكايد	-12.2561
غفير	-12.2561
مصلوب	-12.2561
لاغاظت	-12.2564
دخلتم	-12.2564
صائر	-12.2564
وتاكل	-12.2564
الدج	-12.2564
مساف	-12.2565
جبهته	-12.2565
جوز	-12.2565
مغفور	-12.2566
لتعملوه	-12.2566
يرتاع	-12.2566
اشراك	-12.2566
فتحنن	-12.2567
ابتعد	-12.2567
فجار	-12.2567
اسأت	-12.2568
المنافق	-12.2569
لتقديسه	-12.2569
زغل	-12.2571
ازيل	-12.2571
شاكر	-12.2571
المجن	-12.2572
القب	-12.2572
اختيار	-12.2572
ينتبه	-12.2573
يشتكو	-12.2573
المحاكم	-12.2574
ارجاع	-12.2577
الوارث	-12.2577
اخشاب	-12.2579
تحتقر	-12.2581
القورحي	-12.2583
ولائم	-12.2584
حقير	-12.2584
وإي	-12.2584
يطيعون	-12.2586
يقدسون	-12.259
شجع	-12.2591
يحصد	-12.2591
تيخي	-12.2591
ليفعل	-12.2592
رابح	-12.2594
عصيتم	-12.2597
ماهر	-12.2597
مزمار	-12.2598
تجب	-12.26
الرهن	-12.26
يذوق	-12.2603
ينتقم	-12.2604
فبادر	-12.2605
العليق	-12.2605
حابا	-12.261
رآهم	-12.2611
فمكث	-12.2613
ضللت	-12.2613
شيخوخ	-12.2614
تكاثر	-12.2614
عشاء	-12.2615
ثروتهم	-12.2616
تطلقه	-12.2618
ؤخر	-12.2618
كأس	-12.2619
لتسأل	-12.262
راحتي	-12.262
واحص	-12.2621
تتعد	-12.2624
مقلاع	-12.2626
نجاسات	-12.2627
بذنبه	-12.2627
أطلق	-12.2629
اليفلط	-12.2631
تقاوم	-12.2632
اطلاق	-12.2632
سيقوم	-12.2633
محرقته	-12.2634
اقمص	-12.2641
يطير	-12.2642
تحو	-12.2642
ورحوب	-12.2644
رمان	-12.2647
يلقون	-12.2648
نسائهم	-12.2648
اعزل	-12.2656
فاحترز	-12.2657
تدن	-12.2663
شفيت	-12.2663
المواع	-12.2664
تتشدد	-12.2664
الغاب	-12.2664
يلازم	-12.2669
زلات	-12.2672
تجدد	-12.2673
تراه	-12.2677
وانتهر	-12.2678
ضمحل	-12.268
ترنمي	-12.2685
جباه	-12.2686
تلاحظ	-12.2688
فجور	-12.2689
فاعي	-12.2691
امكن	-12.2696
سوكو	-12.2696
مأكل	-12.2697
ولادته	-12.2698
فاقطع	-12.2699
مكسب	-12.27
يقنع	-12.2702
يرتعد	-12.2705
يكلمه	-12.2714
وبذراع	-12.2716
الخاص	-12.2717
درهم	-12.2719
تراكض	-12.2724
فسخ	-12.2725
رحل	-12.2726
تشامخ	-12.2726
وينوح	-12.2731
فتشدد	-12.2732
فأخذه	-12.2734
محرس	-12.2734
فكلمه	-12.2734
يبلع	-12.2735
ورذل	-12.2737
سبات	-12.2738
المبشر	-12.2739
ترفض	-12.2741
تنجي	-12.2741
احسانا	-12.2741
محبوب	-12.2743
تطبخ	-12.2744
اشتهيت	-12.2745
فنج	-12.2746
تنقص	-12.2751
سكران	-12.2759
تقلقل	-12.2762
وتخرب	-12.2766
يكلمون	-12.2767
تلميذا	-12.2767
بعجائب	-12.2772
بجبروت	-12.2772
وداس	-12.2775
مقتول	-12.2776
بريح	-12.2783
ويشفو	-12.2784
يجس	-12.2785
قتيل	-12.2794
واحاط	-12.2795
فرقهم	-12.2796
وايثا	-12.2798
يداه	-12.2799
ينقب	-12.2808
فانكر	-12.2808
وزيتا	-12.2808
حراسات	-12.2824
ومزق	-12.2825
وفطن	-12.2826
عرفنا	-12.2828
فليعط	-12.2828
لفيف	-12.2831
وابتهج	-12.2836
تنذر	-12.2837
افنيت	-12.2838
وتعجب	-12.2839
لصقت	-12.2839
تقريب	-12.284
جزائ	-12.2843
فتحمل	-12.2844
مشا	-12.2845
فخلص	-12.2846
فرفعت	-12.2857
يفر	-12.2858
يعتن	-12.2862
واصير	-12.2864
ويتسلط	-12.2865
واضح	-12.287
سيوفهم	-12.2875
خزيك	-12.2877
تميل	-12.2883
والعصا	-12.2886
كسحاب	-12.2887
تنقل	-12.2888
وزيتون	-12.2892
يفرق	-12.2894
عاثر	-12.2897
تأب	-12.291
حواليك	-12.2912
وتقطع	-12.2914
طلبات	-12.2915
برحمتك	-12.2916
فامسكه	-12.292
تتكلو	-12.2929
بسم	-12.2933
يضبط	-12.2938
فنزع	-12.2939
باثن	-12.294
وتفرح	-12.2941
يقص	-12.295
اجم	-12.2953
يفلت	-12.2955
يعطش	-12.2959
وارج	-12.2963
مسحوق	-12.2967
ليتجس	-12.2968
الموكل	-12.2968
عقيم	-12.298
مشيئت	-12.2983
بيعه	-12.2984
القاسي	-12.2987
بآذان	-12.2989
صرح	-12.2994
بهائمك	-12.2999
جعلوه	-12.3013
فنيت	-12.3016
كبار	-12.302
يزوج	-12.3026
وخدام	-12.3026
طري	-12.3028
يعدم	-12.3029
وفتن	-12.3036
حرشف	-12.3046
مصو	-12.3051
حويل	-12.3053
يشعل	-12.3058
ونور	-12.3058
تحذ	-12.3059
انطرح	-12.3061
الفهيم	-12.3065
استعل	-12.3073
الثدي	-12.3089
مصالح	-12.3094
حجارته	-12.3094
وامتلأ	-12.3096
فدفن	-12.3097
يضحك	-12.311
قبرس	-12.311
ويجلس	-12.3115
ويعود	-12.3115
فابصر	-12.3121
رسمه	-12.3122
عري	-12.3124
فشق	-12.3124
ينفخ	-12.313
والساق	-12.313
وآخ	-12.3132
ولدتهم	-12.3134
المتك	-12.3134
ليرجع	-12.3135
ذاهبا	-12.3137
وترجع	-12.3155
وفضل	-12.3162
ونجو	-12.317
احتملت	-12.3173
وحور	-12.3176
وبهائم	-12.3178
واوقفه	-12.3181
سائل	-12.3182
رأته	-12.3183
ديب	-12.3198
بقسم	-12.3206
حجز	-12.3206
مظلم	-12.3207
دخولك	-12.321
الحمر	-12.3212
علقم	-12.3216
وبكرو	-12.3217
توضع	-12.3218
راكم	-12.3221
بلج	-12.3222
واصل	-12.3229
براري	-12.3229
ماسك	-12.3232
فسدت	-12.3233
تجدون	-12.3235
تذل	-12.3239
ماشيت	-12.3246
ابغضو	-12.326
حفرت	-12.3267
عشيرتي	-12.3269
تبعوه	-12.3284
يمسكون	-12.3297
رأس	-12.3299
بعون	-12.3303
الازر	-12.3305
تعبدوه	-12.3307
شتت	-12.3313
وباركهم	-12.3315
لاقيس	-12.3323
بونه	-12.3325
اصابته	-12.3347
أتيتم	-12.3349
فادع	-12.3358
شارون	-12.3376
لشمعي	-12.3384
اضطرابا	-12.3388
اعطوه	-12.3388
وكلموه	-12.339
ليقتلوه	-12.3391
ائح	-12.3416
شراب	-12.3444
الابري	-12.3454
دخولهم	-12.3455
آس	-12.3458
فأتت	-12.346
تخدمه	-12.3472
ممسك	-12.3485
فوط	-12.3504
ويري	-12.3538
ليجمع	-12.355
فانتهره	-12.355
مخض	-12.355
يجبه	-12.3554
ليعي	-12.3556
ستطيع	-12.357
يدنو	-12.3576
تعو	-12.3577
نبات	-12.3581
يطلقه	-12.3606
سادت	-12.3609
وامش	-12.3617
مربوط	-12.3629
غفرت	-12.3633
لسانهم	-12.3635
ثديا	-12.3637
أعد	-12.3645
يطا	-12.3649
عاشر	-12.3656
يدعونه	-12.3662
اجتمعت	-12.3677
ويشب	-12.3682
خبرنا	-12.3696
زكا	-12.3699
راري	-12.37
الركب	-12.3701
ابكي	-12.3702
والمرا	-12.3708
لديهم	-12.3721
رابع	-12.3721
بسيوف	-12.3723
معارف	-12.3732
بهتو	-12.3743
ولذ	-12.3745
فتهلك	-12.3748
امرتك	-12.3748
سترت	-12.3752
بعظ	-12.3755
وقطعت	-12.3757
ليرفع	-12.3765
المعلم	-12.3775
نقتله	-12.378
بغيظ	-12.38
بخطيته	-12.3809
فداي	-12.3819
مضروب	-12.382
ولود	-12.3834
أهب	-12.3847
حرس	-12.3854
تفك	-12.386
ناقض	-12.3881
نجم	-12.39
ودخ	-12.3912
أحي	-12.3929
القش	-12.3947
متحن	-12.3947
فذل	-12.3953
فيعطي	-12.3956
مزج	-12.3956
وسخ	-12.3962
طبي	-12.3966
مخف	-12.3969
سبحي	-12.397
خبأت	-12.398
بذر	-12.3982
شوامخ	-12.3986
واستأصل	-12.3986
والجرجاشي	-12.3986
ً	-12.3986
طمأنين	-12.3986
طائع	-12.3986
تمييز	-12.3986
مضاعف	-12.3986
انتظار	-12.3986
يصطاد	-12.3986
غلاطي	-12.3986
مقاصد	-12.3986
تضطرب	-12.3986
هيرودي	-12.3986
عصائب	-12.3986
سفروايم	-12.3986
لملاقا	-12.3986
مصطف	-12.3986
ينحدر	-12.3986
يحتمل	-12.3987
الشيلوني	-12.3987
لاودكي	-12.3987
مكشوف	-12.3987
مسلول	-12.3987
تحتاج	-12.3987
المتجند	-12.3987
المتأخر	-12.3987
ازهار	-12.3988
مهجور	-12.3988
امتحان	-12.3988
وكهنته	-12.3988
تجاسر	-12.3988
جدران	-12.3989
يندبون	-12.3989
ممزوج	-12.3989
توأم	-12.3989
مشترك	-12.3989
يفتكر	-12.3989
اقتراب	-12.3989
ميزان	-12.3989
جئه	-12.3989
أرنا	-12.399
محاصر	-12.399
ضرور	-12.399
مشاجر	-12.399
تغلق	-12.399
يستيقظ	-12.3991
زروع	-12.3991
صامت	-12.3991
عوائد	-12.3992
خشيت	-12.3992
انشقاق	-12.3992
ويغمس	-12.3993
الجشوري	-12.3994
وألبس	-12.3995
ختص	-12.3995
مخترط	-12.3995
طباء	-12.3996
فتروس	-12.3997
تحرص	-12.3999
صائم	-12.4
ابطلت	-12.4
صدوقي	-12.4
يزحم	-12.4001
ممكن	-12.4001
وكوز	-12.4001
فاغفر	-12.4002
والصدوقي	-12.4003
بائسي	-12.4003
امواجه	-12.4004
اضاف	-12.4005
تصدقون	-12.4005
تحزب	-12.4006
تشبي	-12.401
جامه	-12.4011
مستعبد	-12.4011
اثقال	-12.4013
صعب	-12.4013
الجبعوني	-12.4016
اكارع	-12.402
الصياد	-12.402
اتلام	-12.4021
تحتمل	-12.4022
يطفئ	-12.4024
ليجرب	-12.4025
ئم	-12.4027
يستأجر	-12.4028
المتواضع	-12.4029
نتهي	-12.4031
يعاين	-12.4032
صهر	-12.4032
رددت	-12.4033
يباع	-12.4034
نقاب	-12.4038
ويصب	-12.4038
وميشا	-12.4041
ينتفع	-12.4041
فريك	-12.4041
اذللت	-12.4042
فعاش	-12.4044
فجعله	-12.4046
وصام	-12.4048
واعطيته	-12.4049
قذر	-12.405
يحصدون	-12.4052
يبوس	-12.4054
معاصر	-12.4056
تتبرر	-12.4057
وتسكنون	-12.4059
انتهار	-12.406
يسرق	-12.406
ابتلعت	-12.4061
لستر	-12.4062
رحلاته	-12.4062
سراويل	-12.4063
بقيام	-12.4066
عنقود	-12.4067
والباق	-12.4067
سلكتم	-12.4068
احقاء	-12.4068
جيح	-12.4069
جاديف	-12.4069
اللغ	-12.4071
مشتاق	-12.4073
عملوه	-12.4076
جامات	-12.4076
توبخ	-12.408
يصادف	-12.4086
بخاتم	-12.4086
سلخ	-12.4087
ورماح	-12.4087
فيؤخذ	-12.4087
اطرحو	-12.4088
والقاه	-12.4088
وكبريت	-12.4088
خبط	-12.409
ينتظرون	-12.409
تعيش	-12.4091
أهول	-12.4094
طهره	-12.4095
ورمان	-12.4096
انقاذ	-12.4098
ممزق	-12.4099
مسالم	-12.4103
دامس	-12.4107
التقوعي	-12.4108
محتم	-12.4108
وتلبس	-12.4108
قشر	-12.4109
فاسكن	-12.411
يرتعب	-12.4111
تنق	-12.4113
ليقدمو	-12.4113
أمل	-12.4114
يكلمك	-12.4119
اجراء	-12.412
واستحلف	-12.412
فامسك	-12.412
محلات	-12.4122
بيري	-12.4123
تتبرأ	-12.4127
خدمتك	-12.4128
فسجد	-12.4129
فائر	-12.4129
فحملو	-12.413
المشتك	-12.413
لآل	-12.4135
اطلقوهم	-12.4135
تيقن	-12.4136
مدوس	-12.4137
كريت	-12.4137
يخي	-12.4142
اصنامه	-12.4143
فائد	-12.4144
ينمي	-12.4147
فاختار	-12.4147
داهم	-12.415
يباد	-12.4151
دليل	-12.4153
فرأت	-12.4157
وتزوج	-12.4158
قبلتم	-12.416
اوراق	-12.4165
خفيف	-12.4166
يلاقي	-12.417
فاعد	-12.4173
مسرف	-12.4174
واليوناني	-12.4176
عورت	-12.4176
تلبس	-12.4176
مصغي	-12.4178
صعوده	-12.4178
ساحات	-12.4182
بدموع	-12.4183
وتشاور	-12.4187
ويسكنون	-12.4194
تنمو	-12.4194
تمنطق	-12.4195
الكرملي	-12.4196
سيج	-12.4199
واخرجوه	-12.4201
سكين	-12.4206
فيجيب	-12.4207
ويشفي	-12.4207
اعتن	-12.4208
واطياب	-12.4209
مضطرب	-12.4213
نتفع	-12.4214
سياج	-12.4217
وبكيت	-12.4218
واحرقه	-12.4225
تقوع	-12.4226
بقربانه	-12.4227
فتعال	-12.4235
اقتلع	-12.4239
علمتم	-12.4239
شبابك	-12.424
جحد	-12.4247
تجاوب	-12.425
متقلب	-12.4253
تصيب	-12.4255
ابعدت	-12.4256
يكافئ	-12.4258
رضاه	-12.4261
والاجنبي	-12.4261
ويحفظون	-12.4263
والتمس	-12.4265
جداول	-12.4265
ليفتش	-12.4272
احمال	-12.4273
يقاومون	-12.4276
عرفوه	-12.4278
بافواه	-12.4278
لآلهته	-12.4284
نخيل	-12.429
قتلوهم	-12.4296
نفتح	-12.4298
أخفي	-12.4301
كافأ	-12.4303
محاج	-12.4304
نفق	-12.4306
فتقطع	-12.431
يتوكل	-12.4311
ترده	-12.4311
حبر	-12.4312
تمخض	-12.4315
تتقد	-12.432
يذبل	-12.4322
وانصرف	-12.4323
وكبر	-12.4323
قصدت	-12.4334
نترك	-12.4334
سكك	-12.4342
يزعج	-12.4351
شخص	-12.4352
الحالف	-12.4353
مبشر	-12.4354
اختبر	-12.4356
مربوطا	-12.4356
يراني	-12.436
غرلته	-12.4365
ليهويا	-12.4369
طاس	-12.437
معتمد	-12.4376
واطفال	-12.4376
ساط	-12.4377
ازواج	-12.4378
فضتك	-12.4384
ليضع	-12.4385
فارت	-12.4385
يحسبون	-12.4388
يهبط	-12.44
مسبوكات	-12.4406
ركبتي	-12.4409
تجارب	-12.4422
يئا	-12.4425
شبكتي	-12.4427
تشتت	-12.4457
فحصت	-12.4463
باصر	-12.4467
تمتلكون	-12.4468
جدار	-12.4474
ؤدب	-12.4481
موحش	-12.4486
نقضت	-12.4488
نحمد	-12.4488
تحدث	-12.4489
ويأخذون	-12.4489
تصرف	-12.4492
حماقت	-12.4499
الناهب	-12.4502
مؤدب	-12.4506
رفقائه	-12.4514
مجمعهم	-12.4521
شقاو	-12.4525
يملكون	-12.4525
يوبخ	-12.4525
تجف	-12.4535
مدر	-12.4535
شهادته	-12.4545
والبغ	-12.4561
قضاته	-12.4564
حاجب	-12.4568
وفاء	-12.4574
ربطه	-12.4581
ذوق	-12.4583
قرضت	-12.4597
اكلنا	-12.4598
وحلق	-12.4602
استوف	-12.4611
تزل	-12.4622
تتقي	-12.4627
يغني	-12.4655
مسارح	-12.466
اثماره	-12.4673
تغشي	-12.4685
فاحص	-12.4693
ليتم	-12.4702
انكسار	-12.4707
واكثرت	-12.4708
فاوص	-12.4726
خلقته	-12.4731
طوباك	-12.4745
مغش	-12.4754
أهلك	-12.4758
لتطهير	-12.4767
تحبل	-12.4773
ليدفع	-12.4776
فانكسر	-12.4778
سميذ	-12.479
فقاس	-12.4793
ريث	-12.4794
قشا	-12.4794
خلصنا	-12.4811
يشتم	-12.4811
عظمائه	-12.483
فلاح	-12.4845
خلصت	-12.4847
مبيع	-12.4849
نصرف	-12.4861
فالح	-12.4873
يختف	-12.4875
حسنات	-12.4875
ابرأ	-12.4877
جثثه	-12.4881
الشت	-12.4903
يبيدون	-12.4923
وضعته	-12.494
طيعو	-12.4944
اهلكهم	-12.4958
وخطاياك	-12.4959
لإي	-12.496
اخواتك	-12.4965
غربي	-12.4982
رباط	-12.5007
تنهب	-12.5029
تزي	-12.5036
متعب	-12.505
هيجان	-12.5051
قاض	-12.5058
مفتوحت	-12.5067
والشرب	-12.5068
باثمه	-12.5086
اوثقو	-12.5086
يتبعه	-12.5087
ويضعه	-12.5104
شبكته	-12.5104
انتسب	-12.5111
شمري	-12.5119
مسرت	-12.5125
زهو	-12.5141
ثديي	-12.5158
زابا	-12.5177
جوانبه	-12.5188
يستجيب	-12.519
وأخذو	-12.5199
احشائك	-12.52
جلبو	-12.5218
ليقيم	-12.5228
يصدقو	-12.5231
مرسلا	-12.5261
ضربته	-12.5267
فقلن	-12.5295
تائ	-12.5311
تطهيره	-12.5312
قوق	-12.5318
امحو	-12.5336
والسلا	-12.5346
ملق	-12.5353
يجدونه	-12.5357
زعزع	-12.5383
تباد	-12.5393
ملأت	-12.5397
يقطف	-12.5409
سنط	-12.541
يثب	-12.5422
لتأت	-12.5427
مراكب	-12.5427
شامخ	-12.5428
رحمت	-12.5445
يئن	-12.545
ومسحو	-12.5454
ليصلب	-12.5462
رعات	-12.5499
تكذب	-12.5506
ذم	-12.5512
مواجه	-12.5512
وقتلت	-12.5533
شمرون	-12.5535
نطلق	-12.5577
القذ	-12.5581
متحي	-12.5583
لوثن	-12.5588
وشوبا	-12.5592
تقديس	-12.5603
احذر	-12.5623
لبست	-12.5627
كتئب	-12.5628
قراب	-12.5634
بكوري	-12.5639
اعداؤه	-12.5641
يطم	-12.5645
اضطهاد	-12.5645
والزن	-12.565
تيقظ	-12.5652
البائع	-12.5653
الخائن	-12.5653
تلتصق	-12.5653
غائب	-12.5653
مغاليق	-12.5653
الصيارف	-12.5653
زجاج	-12.5653
كزيب	-12.5653
خراعيبه	-12.5653
تذكير	-12.5653
مختبر	-12.5653
ويغطون	-12.5653
لؤلؤ	-12.5653
مطمار	-12.5653
تمتنع	-12.5653
شئت	-12.5653
محجوز	-12.5653
متروك	-12.5653
مقطوع	-12.5653
البئيروتي	-12.5653
تأدب	-12.5653
هادئ	-12.5653
اقتسمو	-12.5653
مشدود	-12.5653
قيرواني	-12.5653
مختون	-12.5654
تفاءل	-12.5654
ايطالي	-12.5654
مفتكر	-12.5654
اتقياء	-12.5654
تنتقم	-12.5654
ارتعاد	-12.5654
مهيأ	-12.5654
الاركي	-12.5654
جمجم	-12.5654
نشاط	-12.5655
مرضعات	-12.5655
وعصويه	-12.5655
بالصن	-12.5655
المكسور	-12.5655
رضيع	-12.5655
روجل	-12.5655
مأبون	-12.5655
افتراس	-12.5656
منقوش	-12.5656
الماضي	-12.5656
تنقرض	-12.5656
واطنابه	-12.5657
ويسلمون	-12.5657
سافك	-12.5657
قبول	-12.5658
المتزوج	-12.5659
مستتر	-12.5659
الذكي	-12.5659
النحل	-12.5659
يمتد	-12.5659
المائت	-12.5659
موافق	-12.566
تسبح	-12.566
فاقلع	-12.5661
فازعج	-12.5661
الراقد	-12.5663
ويصفر	-12.5663
النجار	-12.5666
غاز	-12.5666
ويتلف	-12.5667
غرض	-12.5667
منازع	-12.5668
استحسن	-12.5668
منسوج	-12.567
ملفوح	-12.567
يحرك	-12.567
فيلبي	-12.567
يقطين	-12.5671
امطار	-12.5672
العناقي	-12.5672
رذيلتك	-12.5674
كارزا	-12.5674
شيخوخته	-12.5674
غزير	-12.5675
يقشعر	-12.5676
مضطهدي	-12.5676
مقتناه	-12.5678
مكتئب	-12.5678
وصدق	-12.5679
شظ	-12.568
كراز	-12.568
فرعتون	-12.5681
هزء	-12.5682
تحيط	-12.5683
انقلبت	-12.5684
واحضره	-12.5686
بحكمته	-12.5688
عشقت	-12.5689
ولنسله	-12.5689
يراقبون	-12.569
وذريته	-12.5692
المعتبر	-12.5693
التالي	-12.5693
أشهد	-12.5694
طسوس	-12.5696
اعفو	-12.5697
فاطرح	-12.5698
عصاف	-12.57
مزود	-12.5701
تنجو	-12.5702
بسحره	-12.5704
احذي	-12.5704
المسرور	-12.5706
غرور	-12.5708
نصل	-12.5708
كبريائ	-12.5709
جاره	-12.5712
متصل	-12.5713
أوصن	-12.5714
شتعل	-12.5715
مختبئ	-12.5715
ويطرحون	-12.5717
راجين	-12.5718
فليحسب	-12.5719
رغب	-12.572
بعجر	-12.5721
ونجار	-12.5722
تحتملون	-12.5722
فصادف	-12.5722
قيثار	-12.5722
تزال	-12.5723
لترث	-12.5728
تصدقو	-12.5728
فاحضر	-12.5731
واركبه	-12.5731
مشوي	-12.5731
بسهو	-12.5731
مزد	-12.5732
سبكه	-12.5734
ينخفض	-12.5737
نفر	-12.5739
طامي	-12.5739
مخطئ	-12.5743
مرور	-12.5751
بمقدار	-12.5754
لتغطي	-12.5756
منتفخ	-12.5761
صبغ	-12.5763
ادهان	-12.5767
تستعبد	-12.5767
خاصرتي	-12.5767
يعاقبون	-12.5769
تبرح	-12.577
فارتعد	-12.5771
يكسرون	-12.5774
عائف	-12.5779
فعرفه	-12.5779
تولاع	-12.5779
ففتش	-12.578
يصفق	-12.5781
أفانت	-12.5782
تحزنو	-12.5785
فتمرد	-12.5788
دخلتموه	-12.5791
بصير	-12.5794
تحمله	-12.5794
وانفق	-12.5798
امعائ	-12.5799
ذابح	-12.5804
شهادت	-12.5805
طبع	-12.5807
نشكر	-12.5811
فياكلون	-12.5818
فتبيد	-12.5819
يبتعد	-12.582
غمض	-12.5833
طمره	-12.584
لمساعد	-12.5842
قتلتموه	-12.5843
تتمردو	-12.5843
انبياؤه	-12.5844
فاطعم	-12.5844
تلعن	-12.5845
لنعرف	-12.5858
يشمت	-12.5875
فاحيا	-12.5877
يغوي	-12.5886
تغر	-12.589
اوقاته	-12.5891
باصنامهم	-12.5898
تخلصون	-12.5899
دائس	-12.5899
ليسكت	-12.5907
تقديم	-12.5907
مرعاه	-12.5907
يلعب	-12.5911
تأن	-12.5912
التناني	-12.5912
بالصو	-12.5925
اهتم	-12.5927
البعوض	-12.5931
رتجف	-12.5944
زينتك	-12.595
هيبت	-12.5963
مذب	-12.597
يطعم	-12.5973
فأخذوه	-12.5979
متوجه	-12.5981
الثمين	-12.5981
يذر	-12.5985
لتصر	-12.6002
كحمام	-12.6005
وامري	-12.6014
تيجان	-12.6021
تفرقت	-12.6035
رقط	-12.6036
بتغ	-12.6043
أبد	-12.605
تصلح	-12.6062
غزل	-12.6067
وزنيت	-12.609
بحمد	-12.6096
مهرا	-12.6112
ثدي	-12.6123
فاشهد	-12.6126
حرش	-12.6144
ساحر	-12.6157
دروع	-12.6168
فارتفع	-12.617
وارسلوه	-12.6176
يطيع	-12.6183
تحسد	-12.6186
زائر	-12.6187
لعنت	-12.6191
فانتهرهم	-12.6193
ذاكر	-12.62
اعثرت	-12.6255
محرم	-12.627
ستجيب	-12.6271
رضض	-12.628
منازل	-12.6281
ذراعيه	-12.6307
الحاص	-12.6319
تتغي	-12.6324
شماع	-12.6333
يردده	-12.6339
فضربوه	-12.6351
احتمي	-12.6354
بتعبير	-12.6356
فامسكوه	-12.6357
فامسكت	-12.6361
بداي	-12.6371
قراه	-12.6384
الهج	-12.6386
عانق	-12.64
القفا	-12.641
اعبدو	-12.641
نشأو	-12.6423
واعبدو	-12.6438
عشيرتك	-12.6441
اقداح	-12.6452
وشمر	-12.6454
معلق	-12.6456
فأكلت	-12.6457
مجرب	-12.6461
جماعتك	-12.6468
بلغت	-12.6468
واقمن	-12.6472
اجريت	-12.6472
التق	-12.6482
يتطه	-12.6483
والمخ	-12.6508
لقيه	-12.6511
يتقو	-12.6524
أتح	-12.6525
واعطته	-12.6531
وملأت	-12.6551
البهي	-12.6556
فاخبروه	-12.6576
تعاهد	-12.6587
قضاتك	-12.6591
ونجسو	-12.6595
خفا	-12.6609
قتلاه	-12.661
ناديت	-12.6616
نحب	-12.662
ووجوهه	-12.6623
بمق	-12.663
فاخذوه	-12.6653
نجيت	-12.6656
لصدق	-12.6664
جابله	-12.6669
وسيل	-12.6676
فوطي	-12.668
رزق	-12.6691
يعطوه	-12.6692
الظب	-12.6694
يحصي	-12.6716
تهتمو	-12.6716
واحرقوه	-12.6728
تسرع	-12.6729
فنحي	-12.675
أسلم	-12.6755
تفتش	-12.6757
يرمون	-12.677
يستد	-12.6776
شهوته	-12.6804
اصول	-12.6819
أوري	-12.6823
أليش	-12.6842
رؤسائ	-12.685
ابفر	-12.6851
فراخه	-12.6852
كالصو	-12.687
معتز	-12.6892
عاتي	-12.6923
نجسوه	-12.6956
حاجت	-12.697
وطئ	-12.6978
كلموك	-12.6997
شفق	-12.7032
كتابته	-12.7036
اجفان	-12.7048
خراج	-12.7057
تجسس	-12.7095
سبوه	-12.7101
استعمل	-12.7105
فسح	-12.7116
ناهبين	-12.7126
امهات	-12.7129
ويوحا	-12.7131
سائي	-12.7137
غاب	-12.7157
يستحي	-12.7166
يعبدو	-12.7168
الشوح	-12.718
وتكس	-12.7226
سيئو	-12.7232
وغس	-12.7256
فيعطيه	-12.7309
تبكو	-12.7312
فسأ	-12.7322
ثيني	-12.7323
هيئت	-12.7329
يراقب	-12.7349
سوسن	-12.7372
راكض	-12.7382
بريس	-12.7395
وفدا	-12.7408
بتدأ	-12.7427
قفاه	-12.743
لمفلوج	-12.7434
يختبئ	-12.7465
يصغو	-12.7469
اتيان	-12.7471
يرعاه	-12.7473
فالط	-12.7475
ايتو	-12.7482
ووضعته	-12.749
خادع	-12.7511
حفني	-12.7511
خبير	-12.7541
المسج	-12.7551
قنع	-12.7564
زنيت	-12.7583
تخبرن	-12.7586
نسج	-12.7594
ختوم	-12.7601
كسلو	-12.7601
الصند	-12.7618
شبيه	-12.7631
ليقتلو	-12.7637
عاقب	-12.7642
بخزائم	-12.7653
بضائع	-12.7653
تتغاض	-12.7653
اصطبغ	-12.7653
تخالط	-12.7653
تستأصل	-12.7653
تصطاد	-12.7653
يلتقطون	-12.7653
اؤتمن	-12.7653
مطمور	-12.7653
يحتطب	-12.7653
i	-12.7653
اشتياق	-12.7653
اصاغر	-12.7653
نزاع	-12.7653
قابض	-12.7653
متكاسل	-12.7653
شوتالح	-12.7653
يقتحم	-12.7653
(	-13.0153
)	-13.0153
:	-13.3486
𐋇	-13.3486
-	-13.8486
1	-13.8486
2	-13.8486
[	-13.8486
]	-13.8486
h	-13.8486
o	-13.8486
t	-13.8486
ـ	-14.8485
.	-14.8486
6	-14.8486
5	-14.8486
n	-14.8486
y	-14.8486
ٍ	-14.8486
𐊼	-14.8486
*	-14.8486
j	-14.8486
m	-14.8486
𐊣	-14.8486
