<pad>	0
</s>	0
<unk>	0
▁¦	-0
के	-1
्र	-2
ार	-3
है	-4
ें	-5
या	-6
ने	-7
ों	-8
▁़	-9
में	-10
कर	-11
▁।	-12
से	-13
का	-14
की	-15
▁,	-16
ता	-17
कि	-18
और	-19
र्	-20
स्	-21
को	-22
प्र	-23
ना	-24
्य	-25
क्	-26
वि	-27
ान	-28
पर	-29
ही	-30
वा	-31
ति	-32
लि	-33
ला	-34
नि	-35
▁(	-36
हो	-37
▁)	-38
न्	-39
जा	-40
सा	-41
रा	-42
सं	-43
ते	-44
कार	-45
ित	-46
दे	-47
मा	-48
ले	-49
तु	-50
हा	-51
दि	-52
हैं	-53
▁.	-54
भी	-55
था	-56
ती	-57
लिए	-58
इस	-59
ोग	-60
त्	-61
एक	-62
सी	-63
क्ष	-64
जो	-65
दा	-66
सम	-67
तो	-68
त्र	-69
हीं	-70
बा	-71
उस	-72
अप	-73
उन	-74
द्	-75
जि	-76
नहीं	-77
हम	-78
तुम	-79
हु	-80
पा	-81
ल्	-82
ष्	-83
गा	-84
िक	-85
नी	-86
भा	-87
वे	-88
तर	-89
चा	-90
किया	-91
मु	-92
यह	-93
ली	-94
कु	-95
री	-96
यों	-97
वह	-98
श्	-99
रू	-100
ष्ट	-101
अध	-102
करने	-103
पू	-104
अन	-105
मि	-106
लोग	-107
मान	-108
ारा	-109
ये	-110
ंग	-111
रे	-112
मे	-113
▁¦1	-114
खा	-115
जी	-116
दी	-117
शा	-118
हि	-119
वर्	-120
ारे	-121
देश	-122
अपने	-123
सक	-124
भार	-125
न्ह	-126
रह	-127
सु	-128
उप	-129
सि	-130
िर	-131
स्थ	-132
च्	-133
्या	-134
सू	-135
गे	-136
क्र	-137
दो	-138
पु	-139
व्य	-140
▁¤	-141
िया	-142
तथा	-143
प्	-144
ओं	-145
सर	-146
गया	-147
जिस	-148
अनु	-149
ार्	-150
ारी	-151
ैं	-152
रूप	-153
्री	-154
कुछ	-155
आप	-156
जब	-157
शि	-158
तक	-159
▁𐋇	-160
्ह	-161
द्व	-162
निर्	-163
किसी	-164
उन्ह	-165
तुम्ह	-166
परि	-167
साथ	-168
प्रा	-169
मी	-170
पूर्	-171
दू	-172
योग	-173
▁¦2	-174
इन	-175
बं	-176
ोज	-177
गी	-178
हर	-179
कोई	-180
म्	-181
वर	-182
प्रति	-183
वी	-184
ुदा	-185
द्ध	-186
यु	-187
क्त	-188
थे	-189
राज	-190
कृ	-191
करें	-192
ंड	-193
बना	-194
द्वारा	-195
रि	-196
करते	-197
लो	-198
क्ति	-199
भारत	-200
उनके	-201
नों	-202
लोगों	-203
ंत्र	-204
धार	-205
बी	-206
गु	-207
फिर	-208
जाए	-209
गर	-210
पी	-211
राष्ट	-212
अधि	-213
ज्	-214
ची	-215
कार्य	-216
जाता	-217
चार	-218
स्था	-219
बे	-220
ग्र	-221
पह	-222
मैं	-223
दिया	-224
कह	-225
▁"	-226
क्या	-227
अं	-228
टी	-229
थी	-230
द्य	-231
निय	-232
लाह	-233
कहा	-234
ब्	-235
टा	-236
▁?	-237
0¦	-238
अल्	-239
करना	-240
रख	-241
▁्	-242
बर	-243
सब	-244
स्त	-245
अव	-246
उसके	-247
दु	-248
बंध	-249
अपनी	-250
चे	-251
रहे	-252
क्षा	-253
च्छ	-254
अल्लाह	-255
प्त	-256
भि	-257
उत्	-258
धि	-259
रु	-260
क्षे	-261
ज्ञ	-262
मू	-263
हुए	-264
रो	-265
द्र	-266
वाले	-267
त्य	-268
बि	-269
डा	-270
बहु	-271
चि	-272
लग	-273
लों	-274
बात	-275
चु	-276
न्न	-277
जन	-278
▁;	-279
टे	-280
उसे	-281
पै	-282
स्व	-283
क्षेत्र	-284
करता	-285
जान	-286
बाद	-287
समय	-288
सकता	-289
शु	-290
उन्हें	-291
योज	-292
ोंने	-293
दान	-294
होता	-295
बड	-296
रहा	-297
अधिक	-298
शी	-299
पति	-300
शे	-301
कर्	-302
शन	-303
देख	-304
मिल	-305
पास	-306
ियों	-307
वन	-308
काम	-309
भू	-310
ोड	-311
जै	-312
▁'	-313
दर्	-314
चित	-315
राष्ट्र	-316
्यों	-317
ानी	-318
र्थ	-319
कारी	-320
भाग	-321
बु	-322
तीय	-323
बहुत	-324
त्व	-325
कम	-326
मह	-327
पूर्ण	-328
चाह	-329
विश्	-330
लय	-331
निक	-332
धान	-333
करण	-334
डि	-335
कों	-336
तरह	-337
दर	-338
पि	-339
वर्ष	-340
णा	-341
टि	-342
होने	-343
उन्होंने	-344
मत	-345
सम्	-346
मो	-347
हू	-348
हुआ	-349
गए	-350
सह	-351
गत	-352
मुख	-353
्रा	-354
नियम	-355
टर	-356
पे	-357
तुम्हारे	-358
दिन	-359
बो	-360
▁:	-361
चना	-362
▁¦19	-363
प्राप्त	-364
_¦	-365
▁¦_¦	-366
बार	-367
उनकी	-368
वं	-369
स्ता	-370
हमारे	-371
यदि	-372
तों	-373
जिन	-374
्रीय	-375
हमने	-376
मन	-377
ौर	-378
व्यक्ति	-379
चाहि	-380
राष्ट्रपति	-381
नाम	-382
अन्य	-383
वाला	-384
पर्	-385
यी	-386
हों	-387
होगा	-388
पहले	-389
्यू	-390
01	-391
ऐसे	-392
समा	-393
झे	-394
दूस	-395
हां	-396
5¦	-397
गई	-398
सभी	-399
ओर	-400
दन	-401
हाँ	-402
अच्छ	-403
राज्य	-404
एं	-405
▁%	-406
स्ट	-407
स्थान	-408
4¦	-409
न्या	-410
पड	-411
िति	-412
प्रकार	-413
एँ	-414
खु	-415
्रे	-416
लन	-417
बद	-418
संबंध	-419
सरकार	-420
सकते	-421
श्य	-422
कारण	-423
जाने	-424
बढ	-425
अगर	-426
समझ	-427
दार	-428
शेष	-429
भाव	-430
साम	-431
करे	-432
धन	-433
पूर्व	-434
धी	-435
धा	-436
ईमान	-437
चाहिए	-438
तन	-439
न्द	-440
होती	-441
सद	-442
वार	-443
सार	-444
किए	-445
इसके	-446
लिया	-447
ज्ञान	-448
योजना	-449
पो	-450
माण	-451
▁¦3	-452
अभि	-453
फल	-454
ऐसा	-455
गार	-456
ध्य	-457
भाष	-458
सर्	-459
उसकी	-460
क्रिया	-461
ट्	-462
क्यों	-463
करो	-464
रसू	-465
वै	-466
na	-467
डी	-468
यन	-469
दिखा	-470
ंच	-471
त्म	-472
क्रम	-473
द्योग	-474
जू	-475
युक्त	-476
भे	-477
▁𐊣	-478
व्या	-479
तः	-480
पहु	-481
हित	-482
मुझे	-483
यू	-484
निश्	-485
भारतीय	-486
ंक	-487
सो	-488
आई	-489
यर	-490
हे	-491
ठा	-492
स्तु	-493
जे	-494
वृ	-495
लगा	-496
विक	-497
रसूल	-498
प्रदान	-499
रब	-500
किन	-501
अब	-502
विका	-503
ीन	-504
लें	-505
हाय	-506
मंत्र	-507
प्रे	-508
▁¦1¦	-509
गो	-510
च्च	-511
मार्	-512
एवं	-513
क्षण	-514
विश्व	-515
पार	-516
बै	-517
विशेष	-518
अपना	-519
जाती	-520
होते	-521
आर	-522
विष	-523
दृ	-524
शो	-525
कृति	-526
उपयोग	-527
बन	-528
आधार	-529
पत्र	-530
विकास	-531
मौ	-532
जैसे	-533
सहाय	-534
स्थिति	-535
काश	-536
जीवन	-537
दोनों	-538
चल	-539
यो	-540
वाद	-541
सन	-542
श्री	-543
चीज	-544
लोक	-545
हुई	-546
इल	-547
कं	-548
▁!	-549
सेवा	-550
फा	-551
वल	-552
▁-	-553
▁¥	-554
मूल	-555
तुम्हें	-556
काल	-557
▁़्	-558
me	-559
00	-560
रही	-561
ख्या	-562
डर	-563
िय	-564
ष्ठ	-565
ंत	-566
भर	-567
लिख	-568
कू	-569
जु	-570
धारा	-571
मद	-572
शक	-573
कें	-574
माल	-575
ताओं	-576
बारे	-577
प्रयोग	-578
6¦	-579
उसने	-580
स्वा	-581
ti	-582
आव	-583
मै	-584
ऐसी	-585
बीच	-586
चय	-587
णी	-588
लेख	-589
डे	-590
मेरे	-591
लेकिन	-592
स्थाप	-593
बू	-594
पैदा	-595
आज	-596
आय	-597
तम	-598
तंत्र	-599
2¦	-600
ख्	-601
वास	-602
त्या	-603
राष्ट्रीय	-604
पं	-605
तना	-606
पश्	-607
देने	-608
विचार	-609
अथ	-610
कै	-611
नीति	-612
▁¦4	-613
हमारी	-614
8¦	-615
फ्	-616
उसका	-617
दूसरे	-618
अधिनियम	-619
▁।"	-620
निया	-621
1¦	-622
ताकि	-623
in	-624
एस	-625
हूँ	-626
आवश्य	-627
7¦	-628
ण्	-629
इसे	-630
वाली	-631
भिन्न	-632
अंत	-633
उद्	-634
क्स	-635
जाना	-636
9¦	-637
घा	-638
जाएगा	-639
कड	-640
छोड	-641
माम	-642
ल्प	-643
स्प	-644
परा	-645
हमें	-646
उसी	-647
श्र	-648
अथवा	-649
कता	-650
ष्टि	-651
स्वी	-652
क्योंकि	-653
मार	-654
र्म	-655
ग्रा	-656
मान्य	-657
on	-658
वालों	-659
संग	-660
ेंगे	-661
शक्ति	-662
कृत	-663
त्ता	-664
सूचना	-665
जिसमें	-666
उनका	-667
केवल	-668
जिसे	-669
यालय	-670
ra	-671
टन	-672
ार्थ	-673
यार	-674
वही	-675
न्तु	-676
इसमें	-677
पन	-678
यक	-679
उपल	-680
कान	-681
ट्र	-682
सुर	-683
इसलिए	-684
फि	-685
फी	-686
कभी	-687
सबसे	-688
तब	-689
सहायता	-690
ंभ	-691
निर्धार	-692
खे	-693
बल्	-694
मेरी	-695
न्त	-696
पत्	-697
मित	-698
प्रत्य	-699
भव	-700
सूची	-701
अधिकार	-702
ठी	-703
ताब	-704
अर्थ	-705
कट	-706
भाषा	-707
खो	-708
कला	-709
उससे	-710
करती	-711
उपलब्	-712
वेश	-713
3¦	-714
खि	-715
तै	-716
गति	-717
महा	-718
उनसे	-719
बस	-720
लं	-721
लू	-722
तरी	-723
दों	-724
पुर	-725
देता	-726
धर	-727
मार्ग	-728
संदेश	-729
परिवर्	-730
छो	-731
पता	-732
याद	-733
जाते	-734
त्रा	-735
स्ते	-736
घर	-737
जल	-738
बन्	-739
वाह	-740
सभा	-741
सकती	-742
िका	-743
बल	-744
अति	-745
कंप	-746
अंतर	-747
बैं	-748
बैठ	-749
सके	-750
हरा	-751
ज्ञा	-752
व्यव	-753
होना	-754
जिन्ह	-755
महत्व	-756
गि	-757
ध्या	-758
परवर	-759
स्त्र	-760
er	-761
मर	-762
करा	-763
तरफ	-764
वान	-765
सदस्	-766
भु	-767
कुल	-768
समान	-769
उत्पा	-770
परवरदि	-771
शिक्षा	-772
कई	-773
अलग	-774
दूर	-775
भूमि	-776
आया	-777
वरण	-778
िकी	-779
कर्म	-780
परवरदिगार	-781
वो	-782
र्ट	-783
यहाँ	-784
▁¦201	-785
उपलब्ध	-786
फे	-787
बाज	-788
मिक	-789
लिक	-790
सफल	-791
क्षम	-792
अच्छा	-793
स्पष्ट	-794
निर्माण	-795
पुन	-796
बता	-797
उच्च	-798
अर्	-799
बल्कि	-800
..	-801
re	-802
कल	-803
रत	-804
ब्र	-805
हूं	-806
जोड	-807
दौर	-808
हार	-809
लिये	-810
लड	-811
षण	-812
▁”	-813
उठा	-814
किस	-815
टना	-816
name	-817
कहते	-818
द्धि	-819
पहुँ	-820
पूरी	-821
सामान्य	-822
चर	-823
छा	-824
यं	-825
आदि	-826
दाय	-827
लगे	-828
▁..	-829
उनमें	-830
संख्या	-831
अधीन	-832
इससे	-833
प्रो	-834
इं	-835
खंड	-836
शब्	-837
अवसर	-838
इसका	-839
करेगा	-840
तैयार	-841
अज	-842
तू	-843
किताब	-844
होंगे	-845
भग	-846
मं	-847
सिं	-848
विषय	-849
सामने	-850
विभिन्न	-851
कॉ	-852
ेक	-853
बरा	-854
वित	-855
पूरा	-856
क्षित	-857
जिसके	-858
शामिल	-859
गै	-860
ग्	-861
लत	-862
गें	-863
मदद	-864
मृ	-865
प्रौ	-866
होगी	-867
ियाँ	-868
टो	-869
नेक	-870
लाभ	-871
▁¦2¦	-872
मुख्य	-873
वस्तु	-874
निश्चय	-875
प्रकाश	-876
तुम्हारा	-877
नो	-878
फो	-879
▁‘	-880
ंतु	-881
अंग	-882
इसी	-883
उनको	-884
बाहर	-885
रंग	-886
लने	-887
करके	-888
जहां	-889
पक्ष	-890
शुरू	-891
la	-892
लौ	-893
रुप	-894
लाने	-895
विद्	-896
स्ति	-897
▁¦200	-898
ic	-899
पृ	-900
तान	-901
ग्रह	-902
प्रक्रिया	-903
नई	-904
यही	-905
आपको	-906
जाएँ	-907
स्थित	-908
कौ	-909
झु	-910
्व	-911
हरी	-912
ध्यम	-913
धु	-914
हत	-915
ाब	-916
वित्	-917
एम	-918
धे	-919
ून	-920
सित	-921
हाथ	-922
रचना	-923
विधि	-924
संस्	-925
देशों	-926
न्द्र	-927
पद	-928
र्ष	-929
उसमें	-930
ंद	-931
लु	-932
201	-933
गर्	-934
दुनिया	-935
आं	-936
छे	-937
जह	-938
ीय	-939
अभी	-940
ऊपर	-941
गां	-942
तार	-943
कार्	-944
जारी	-945
वर्ग	-946
हेतु	-947
चाहता	-948
दौरान	-949
मंत्री	-950
आए	-951
पढ	-952
लॉ	-953
⁄4	-954
दें	-955
रखा	-956
समू	-957
साइ	-958
ाइल	-959
त्मक	-960
विधा	-961
▁...	-962
वास्त	-963
प्रौद्योग	-964
गण	-965
शत	-966
हन	-967
भवन	-968
यान	-969
लित	-970
चाहते	-971
भावना	-972
प्रत्येक	-973
शै	-974
हक	-975
गयी	-976
गये	-977
शान	-978
च्चे	-979
सीमा	-980
स्तर	-981
अनुसार	-982
गू	-983
गुण	-984
देखा	-985
अग	-986
सौ	-987
जमा	-988
महि	-989
मीन	-990
संघ	-991
सिक	-992
निश्चित	-993
विश्वास	-994
चुन	-995
लना	-996
खुदा	-997
वादी	-998
बनाया	-999
समर्थ	-1000
दृष्टि	-1001
पस	-1002
तीन	-1003
यां	-1004
ज्या	-1005
पानी	-1006
मैंने	-1007
जग	-1008
जरू	-1009
देह	-1010
पिछ	-1011
र्ड	-1012
र्फ	-1013
देना	-1014
उत्तर	-1015
प्रबंध	-1016
महत्वपूर्ण	-1017
आग	-1018
एन	-1019
यम	-1020
गिर	-1021
त्सा	-1022
परिणा	-1023
शिष्ट	-1024
सुरक्षा	-1025
प्रौद्योगिकी	-1026
षि	-1027
चला	-1028
ठीक	-1029
लाल	-1030
सां	-1031
जिसने	-1032
स्वयं	-1033
प्रमाण	-1034
माध्यम	-1035
क्षेत्रों	-1036
it	-1037
▁#	-1038
▁’	-1039
इन्	-1040
नया	-1041
तिहा	-1042
परिवर्तन	-1043
आगे	-1044
रात	-1045
राम	-1046
रों	-1047
ियां	-1048
प्रार	-1049
उद्देश	-1050
फर	-1051
सल	-1052
▁&	-1053
00¦	-1054
क्षि	-1055
ग्री	-1056
जनता	-1057
नीचे	-1058
मौजू	-1059
पोर्ट	-1060
कार्यक्रम	-1061
कठ	-1062
सत	-1063
अतः	-1064
साफ	-1065
निका	-1066
प्रया	-1067
बनाने	-1068
विद्य	-1069
परिणाम	-1070
प्रतिशत	-1071
प्रस्तु	-1072
निर्धारित	-1073
घु	-1074
गुज	-1075
जित	-1076
अध्य	-1077
दारी	-1078
प्रती	-1079
करेंगे	-1080
नियंत्र	-1081
संबंधित	-1082
तुम्हारी	-1083
ह्	-1084
जिक	-1085
धिक	-1086
त्रु	-1087
धरती	-1088
शासन	-1089
आवश्यक	-1090
स्थापित	-1091
व्यवस्था	-1092
ht	-1093
आख	-1094
झा	-1095
फै	-1096
3⁄4	-1097
अनेक	-1098
आपके	-1099
मेरा	-1100
म्बर	-1101
लेकर	-1102
प्रभा	-1103
▁¤3⁄4	-1104
अधिकारी	-1105
▁>	-1106
धित	-1107
मगर	-1108
सिवा	-1109
हिन्	-1110
op	-1111
जाओ	-1112
राह	-1113
▁¦5	-1114
आदेश	-1115
काफी	-1116
ल्डर	-1117
रिक्त	-1118
सिर्फ	-1119
केंद्र	-1120
प्रमुख	-1121
स्वतंत्र	-1122
ण्ड	-1123
परी	-1124
सुन	-1125
tion	-1126
मध्य	-1127
विंड	-1128
स्या	-1129
पश्चि	-1130
संस्थान	-1131
परियोजना	-1132
चौ	-1133
टक	-1134
ंति	-1135
उल्	-1136
चर्	-1137
नीय	-1138
भेज	-1139
पन्न	-1140
श्रे	-1141
प्रणा	-1142
युद्ध	-1143
ज्यादा	-1144
विज्ञान	-1145
ऋण	-1146
▁“	-1147
नाथ	-1148
पाठ	-1149
अत्य	-1150
कृषि	-1151
गुना	-1152
देते	-1153
लाया	-1154
शब्द	-1155
सामा	-1156
विधान	-1157
किन्तु	-1158
प्रयास	-1159
विश्वविद्	-1160
मक	-1161
खोज	-1162
लाए	-1163
अवधि	-1164
दर्श	-1165
पीछे	-1166
अंतर्	-1167
जानते	-1168
दिष्ट	-1169
मामले	-1170
सिद्ध	-1171
उद्योग	-1172
यत	-1173
आकार	-1174
धर्म	-1175
निम्	-1176
बिना	-1177
यहां	-1178
रखने	-1179
समूह	-1180
अच्छे	-1181
तियों	-1182
सामाजिक	-1183
स्वीकार	-1184
ंजी	-1185
जाय	-1186
ज्य	-1187
मर्	-1188
षित	-1189
जबकि	-1190
ट्टी	-1191
बैंक	-1192
चित्र	-1193
जिसका	-1194
विस्त	-1195
सदस्य	-1196
सहयोग	-1197
प्रधान	-1198
or	-1199
ंस	-1200
आस	-1201
दम	-1202
पक	-1203
ोह	-1204
परे	-1205
चाहे	-1206
जैसा	-1207
मानव	-1208
हिस्	-1209
होकर	-1210
पश्चा	-1211
संदेह	-1212
गं	-1213
ोर	-1214
आने	-1215
जवा	-1216
तौर	-1217
कल्प	-1218
ल्ली	-1219
वर्त	-1220
वासी	-1221
पर्या	-1222
प्रभाव	-1223
निर्दिष्ट	-1224
es	-1225
ुष	-1226
कित	-1227
मुक	-1228
हिं	-1229
बन्द	-1230
रहते	-1231
लेने	-1232
सारे	-1233
ध्यान	-1234
मूल्य	-1235
संस्था	-1236
उद्देश्य	-1237
th	-1238
नक	-1239
उन्	-1240
लाई	-1241
शरी	-1242
.201	-1243
डियो	-1244
दर्शन	-1245
दूसरी	-1246
निम्न	-1247
पृष्ठ	-1248
समस्या	-1249
जिन्हें	-1250
ंगे	-1251
इसकी	-1252
बेशक	-1253
मूसा	-1254
जानकारी	-1255
प्रणाली	-1256
ed	-1257
en	-1258
छि	-1259
वत	-1260
ंचा	-1261
रोग	-1262
रोज	-1263
शील	-1264
साल	-1265
आकाश	-1266
आर्थ	-1267
रहने	-1268
लगभग	-1269
संगठ	-1270
सत्य	-1271
जानता	-1272
बराबर	-1273
स्तान	-1274
ोल्डर	-1275
सुविधा	-1276
विशिष्ट	-1277
व्यापार	-1278
प्रस्तुत	-1279
एफ	-1280
गम	-1281
¦	-1282
▁	-1283
ा	-1284
क	-1285
र	-1286
े	-1287
्	-1288
न	-1289
ि	-1290
स	-1291
त	-1292
ह	-1293
ं	-1294
ी	-1295
म	-1296
ो	-1297
य	-1298
प	-1299
ल	-1300
व	-1301
द	-1302
ज	-1303
ु	-1304
ग	-1305
ब	-1306
ै	-1307
अ	-1308
श	-1309
ए	-1310
च	-1311
उ	-1312
भ	-1313
ू	-1314
़	-1315
।	-1316
ट	-1317
,	-1318
थ	-1319
औ	-1320
ध	-1321
ख	-1322
आ	-1323
ष	-1324
ड	-1325
इ	-1326
ण	-1327
फ	-1328
(	-1329
)	-1330
.	-1331
ई	-1332
-	-1333
छ	-1334
ँ	-1335
1	-1336
ौ	-1337
ृ	-1338
0	-1339
ओ	-1340
ठ	-1341
a	-1342
e	-1343
2	-1344
i	-1345
घ	-1346
झ	-1347
t	-1348
ऐ	-1349
n	-1350
à	-1351
𐋇	-1352
o	-1353
s	-1354
ढ	-1355
¤	-1356
r	-1357
ॉ	-1358
ः	-1359
"	-1360
4	-1361
9	-1362
3	-1363
/	-1364
l	-1365
m	-1366
c	-1367
5	-1368
p	-1369
?	-1370
ञ	-1371
'	-1372
d	-1373
;	-1374
%	-1375
6	-1376
8	-1377
h	-1378
:	-1379
ऊ	-1380
7	-1381
_	-1382
u	-1383
b	-1384
𐊣	-1385
𐊼	-1386
g	-1387
y	-1388
ऑ	-1389
!	-1390
¥	-1391
‍	-1392
ऋ	-1393
k	-1394
f	-1395
०	-1396
w	-1397
१	-1398
#	-1399
v	-1400
‘	-1401
”	-1402
’	-1403
>	-1404
⁄	-1405
&	-1406
२	-1407
x	-1408
“	-1409
<	-1410
	-1411
९	-1412
३	-1413
°	-1414
५	-1415
	-1416
–	-1417
	-1418
	-1419
६	-1420
z	-1421
८	-1422
j	-1423
४	-1424
¿	-1425
@	-1426
+	-1427
̧	-1428
ॅ	-1429
q	-1430
{	-1431
̈	-1432
७	-1433
\	-1434
}	-1435
]	-1436
̄	-1437
[	-1438
®	-1439
॰	-1440
ङ	-1441
μ	-1442
	-1443
$	-1444
«	-1445
	-1446
	-1447
¡	-1448
¶	-1449
—	-1450
	-1451
=	-1452
¬	-1453
	-1454
	-1455
	-1456
ऍ	-1457
ॆ	-1458
	-1459
ॊ	-1460
ळ	-1461
|	-1462
~	-1463
	-1464
	-1465
·	-1466
é	-1467
*	-1468
	-1469
£	-1470
©	-1471
॥	-1472
	-1473
§	-1474
ऎ	-1475
`	-1476
¢	-1477
	-1478
	-1479
̃	-1480
	-1481
	-1482
	-1483
	-1484
	-1485
×	-1486
î	-1487
ò	-1488
þ	-1489
ą	-1490
ĺ	-1491
ş	-1492
ॄ	-1493
॓	-1494
‐	-1495
₹	-1496
