<pad>	0
</s>	0
<unk>	0
¦	-1.19033
▁¦	-1.63195
▁	-2.91183
𐋇	-3.27281
▁,	-3.49731
ja	-3.9789
▁.	-4.44887
n	-4.52126
t	-5.19277
a	-5.22897
on	-5.27663
hän	-5.48252
▁:	-5.49039
si	-5.64532
niin	-5.67746
▁;	-5.74995
minä	-5.75852
vat	-5.85268
en	-5.86614
ni	-5.92993
▁"	-5.93382
nsa	-5.95816
hänen	-6.02902
oli	-6.07254
he	-6.07582
herra	-6.10751
mutta	-6.11714
in	-6.21076
ksi	-6.21184
joka	-6.21764
lle	-6.21809
sta	-6.24766
se	-6.2774
sillä	-6.28428
sen	-6.30044
kuin	-6.35369
sanoi	-6.38347
i	-6.39221
että	-6.40486
minun	-6.41043
sinun	-6.42188
an	-6.44129
nsä	-6.45455
ssa	-6.46723
ei	-6.47876
kun	-6.5371
sinä	-6.56892
kaikki	-6.58005
te	-6.62541
nyt	-6.63137
nut	-6.63946
ne	-6.64121
maan	-6.64217
ä	-6.66409
vät	-6.68278
mme	-6.71687
jotka	-6.72095
ta	-6.73149
heidän	-6.80003
▁".	-6.85234
herran	-6.8573
s	-6.88967
ovat	-6.90488
mitä	-6.91182
nne	-6.91674
ole	-6.93213
lla	-6.94371
än	-6.95473
neet	-6.9897
kin	-6.99842
jumala	-7.00366
sa	-7.01095
israeli	-7.1032
▁."	-7.12543
olen	-7.16444
jos	-7.17012
hänelle	-7.17358
▁?	-7.18533
katso	-7.26994
olivat	-7.2702
me	-7.27638
teidän	-7.28717
tuli	-7.29465
hänet	-7.30614
kanssa	-7.30714
vastaan	-7.32241
tämä	-7.33353
sano	-7.365
poika	-7.36719
e	-7.37831
häntä	-7.38761
jumalan	-7.39009
nen	-7.39283
jonk	-7.40772
kuningas	-7.41497
sitä	-7.44107
ko	-7.44679
heille	-7.45451
kaa	-7.4645
▁`	-7.46648
eivät	-7.48501
näin	-7.51428
tte	-7.5161
u	-7.51864
eikä	-7.51922
silloin	-7.53845
na	-7.54825
-	-7.55932
sanoo	-7.56118
olet	-7.57629
pois	-7.63201
vaan	-7.63285
meidän	-7.63622
minulle	-7.64465
heidät	-7.66817
sitten	-7.67233
minua	-7.67634
stä	-7.67804
päivänä	-7.68343
kä	-7.71058
▁-	-7.71122
lta	-7.71535
myös	-7.73327
et	-7.73737
edessä	-7.76048
kansa	-7.76748
meni	-7.77543
teh	-7.79835
kuninkaan	-7.81107
ille	-7.81793
koko	-7.82802
teille	-7.8293
sinua	-7.84499
▁!	-7.85874
heitä	-7.86829
tai	-7.87039
puhu	-7.8707
▁?"	-7.87412
voi	-7.87912
tämän	-7.88504
sinulle	-7.89932
vastasi	-7.92796
älä	-7.93552
siitä	-7.93828
minut	-7.94915
mikä	-7.95151
jo	-7.95473
kuka	-7.97119
jerusalemi	-7.97813
vielä	-7.98401
mukaan	-7.98639
saa	-8.00433
tä	-8.00764
maahan	-8.01
tulee	-8.01606
nämä	-8.03102
asti	-8.05175
tähden	-8.07292
sti	-8.07616
sentähden	-8.08219
koska	-8.08929
ette	-8.08991
va	-8.10323
siihen	-8.11974
ten	-8.12312
kaiken	-8.12817
ssä	-8.1318
tu	-8.13418
inen	-8.13841
tykö	-8.14497
koon	-8.14699
juudan	-8.1738
llä	-8.17816
daavid	-8.18136
isi	-8.18668
kautta	-8.18852
mies	-8.19198
sekä	-8.19926
älkää	-8.2137
y	-8.23371
olkoon	-8.23723
niiden	-8.24102
kaksi	-8.24222
siellä	-8.24329
ettei	-8.24587
maa	-8.25084
antoi	-8.25175
sinut	-8.2584
jeesus	-8.26964
kaiki	-8.27202
päivä	-8.27599
otti	-8.27675
itse	-8.29065
kuinka	-8.30629
mään	-8.30857
kö	-8.3153
ollut	-8.32684
pojan	-8.32704
teki	-8.33255
olette	-8.33265
ista	-8.33615
teitä	-8.34539
nä	-8.34712
enää	-8.35597
kansan	-8.35761
sä	-8.36381
herraa	-8.37145
eteen	-8.37667
herralle	-8.38201
luo	-8.38656
aan	-8.38682
jota	-8.39614
niitä	-8.40671
pa	-8.41739
siis	-8.42357
vaimo	-8.43427
tuhat	-8.44183
sana	-8.44394
oleva	-8.44716
siinä	-8.45089
tule	-8.45523
laisten	-8.45917
maassa	-8.46317
mooses	-8.47433
un	-8.48348
kään	-8.48508
o	-8.48856
k	-8.49704
ut	-8.50113
puhui	-8.50114
tee	-8.50452
teen	-8.50901
tullut	-8.51023
kaike	-8.51303
tuo	-8.51392
olisi	-8.51404
mene	-8.51974
jumalaa	-8.52967
antaa	-8.53673
ihin	-8.54327
kolme	-8.55084
käte	-8.55406
miehet	-8.55413
antanut	-8.55439
annan	-8.562
suuri	-8.56294
minu	-8.56428
pappi	-8.56543
seitsemän	-8.59233
päälle	-8.59246
ennen	-8.59588
toista	-8.59881
pyhä	-8.60078
l	-8.60177
näki	-8.60851
aina	-8.61317
tulivat	-8.61438
daavidi	-8.61452
moosekse	-8.61623
tiin	-8.6272
v	-8.62834
olemme	-8.63073
käy	-8.63528
yksi	-8.6357
kristukse	-8.64458
▁`.	-8.64458
lähti	-8.64947
tta	-8.65654
luokse	-8.66812
nousi	-8.67071
hyvä	-8.67255
lähetti	-8.67373
m	-8.67655
jälkeen	-8.6819
päin	-8.68492
älköön	-8.69553
kse	-8.69573
miestä	-8.70609
minkä	-8.71124
vä	-8.71267
r	-8.71271
paljon	-8.71792
kuule	-8.72137
itselle	-8.72297
anna	-8.72978
miksi	-8.73521
sinne	-8.74192
egyptin	-8.74591
ota	-8.74611
toinen	-8.74868
kuuli	-8.75586
vei	-8.76098
ka	-8.76722
syö	-8.77678
illa	-8.77981
silmä	-8.80087
toi	-8.80263
sataa	-8.80369
kaupunki	-8.8054
pojat	-8.80599
kseen	-8.81036
israel	-8.81091
kää	-8.81677
asu	-8.82527
maasta	-8.82534
takaisin	-8.82769
päällä	-8.82791
meille	-8.82938
iden	-8.83764
vi	-8.83765
vaikka	-8.84676
kaikkia	-8.85347
jen	-8.86411
kaan	-8.86528
re	-8.86605
tekee	-8.86616
tulevat	-8.86668
ke	-8.86831
us	-8.87097
at	-8.87762
h	-8.87973
salomo	-8.88254
ivat	-8.88612
teidät	-8.88919
sydäme	-8.89026
emme	-8.89346
ulos	-8.90093
joita	-8.90135
toisen	-8.90608
tti	-8.90774
missä	-8.91232
iksi	-8.91408
sinu	-8.91694
tava	-8.91716
alas	-8.91925
neljä	-8.92184
d	-8.92338
jeesuksen	-8.92804
miehen	-8.92843
meitä	-8.93027
kansaa	-8.93204
▁!"	-8.93708
viisi	-8.94342
ma	-8.94357
taan	-8.94485
tiedä	-8.94498
isänsä	-8.94542
oma	-8.94612
la	-8.94639
kymmenen	-8.94758
kuu	-8.94761
usko	-8.95261
sebaot	-8.95489
kuitenk	-8.95831
vain	-8.95866
farao	-8.96189
etsi	-8.96434
ku	-8.96869
joku	-8.97674
vie	-8.97688
sielu	-8.98037
oikea	-8.98589
seen	-8.98679
tietä	-8.99208
velje	-8.99282
yli	-8.99799
vai	-8.99999
b	-9.0011
ha	-9.01379
temppelin	-9.01616
li	-9.0183
ti	-9.01983
sanon	-9.02095
jää	-9.03019
kaupungin	-9.03062
kuoli	-9.03242
pani	-9.03394
vuott	-9.03743
it	-9.03782
sille	-9.04332
pane	-9.04454
kunnia	-9.04596
israelilaiset	-9.04866
syntyi	-9.05249
kivi	-9.05341
maata	-9.05558
poikansa	-9.0581
ty	-9.05965
keskellä	-9.05999
henki	-9.06159
palvelija	-9.06178
samoin	-9.06395
pahaa	-9.07071
käske	-9.07335
saul	-9.07719
jolla	-9.07774
tehdä	-9.0788
viha	-9.07908
juo	-9.08002
tänä	-9.08074
tähän	-9.08356
taivaan	-9.0838
el	-9.0855
pä	-9.08665
kuninkaa	-9.08866
tätä	-9.09722
suu	-9.11438
sanan	-9.1156
pe	-9.11845
jossa	-9.12069
ineen	-9.12351
jaakobi	-9.1254
lain	-9.13338
alla	-9.1416
päästä	-9.14174
totisest	-9.14357
erämaa	-9.14501
van	-9.14816
to	-9.15529
kansalle	-9.1559
ki	-9.15972
ra	-9.16783
isä	-9.17486
lähtivät	-9.17511
kuninkaalle	-9.17955
eikö	-9.18051
joosua	-9.1819
ilo	-9.18409
kohtaa	-9.1848
armo	-9.18636
sai	-9.18647
hänellä	-9.19164
iankaikkisest	-9.19171
päivää	-9.19212
eltä	-9.19842
koot	-9.19944
käski	-9.19999
huusi	-9.2
profeetta	-9.20186
f	-9.20867
ia	-9.21009
ri	-9.21387
pää	-9.21801
tässä	-9.21935
kukin	-9.22413
nimi	-9.22695
varten	-9.22769
kunne	-9.22839
ot	-9.23112
kutsu	-9.23166
vuoden	-9.23504
tunte	-9.23926
ansa	-9.2405
iin	-9.2433
yhtä	-9.24547
sanonut	-9.24589
puolesta	-9.24658
kirjoitettu	-9.24689
mistä	-9.25162
heistä	-9.25464
esi	-9.25747
lainen	-9.25834
ihmisen	-9.25969
kulki	-9.26156
g	-9.2655
pitää	-9.26684
nouse	-9.26767
taas	-9.27167
rauha	-9.27191
kuul	-9.27447
matta	-9.27702
syntiä	-9.27703
otta	-9.28087
le	-9.28433
meidät	-9.28552
enkeli	-9.28657
eli	-9.28681
muuta	-9.29224
pelkää	-9.29295
sieltä	-9.29439
ylös	-9.29549
suure	-9.2974
aika	-9.29819
vasta	-9.31427
vanha	-9.31443
akka	-9.31639
vanno	-9.31677
näh	-9.31773
ainoastaan	-9.32089
ynnä	-9.32189
heimo	-9.3246
hi	-9.32544
olla	-9.32592
han	-9.32629
p	-9.32677
kysyi	-9.32789
hyvää	-9.32811
ji	-9.33001
jälkeläisiä	-9.33121
köön	-9.33501
suku	-9.33606
hänestä	-9.33747
muista	-9.34546
kaksikymmentä	-9.34699
istä	-9.34713
enkä	-9.35398
tulla	-9.35888
juuda	-9.3625
sanat	-9.36615
kaikke	-9.36826
häneen	-9.37106
jordani	-9.37238
hyvin	-9.37264
kaua	-9.37286
iistä	-9.37477
ita	-9.37729
ympäri	-9.37738
jä	-9.37839
essä	-9.3863
elää	-9.39019
leipää	-9.39075
ttu	-9.39354
kuole	-9.39483
kiinni	-9.39517
jaakob	-9.39552
jälkeläise	-9.39714
käsiin	-9.39795
issä	-9.39923
kutsui	-9.40178
ään	-9.40407
lu	-9.40479
istu	-9.40679
▁`,	-9.40681
ollee	-9.40712
puolella	-9.41193
baabelin	-9.41238
osa	-9.4129
päämiehe	-9.41329
edellä	-9.418
ettiin	-9.41882
asui	-9.4193
teistä	-9.42052
eet	-9.42123
suuren	-9.42128
palvele	-9.42367
lähte	-9.42654
käänty	-9.42831
teko	-9.42897
uhri	-9.42906
jumalalle	-9.43063
tytär	-9.43216
ltä	-9.43348
ihmi	-9.43524
kyynärää	-9.43542
massa	-9.43636
teillä	-9.43649
sauli	-9.43771
tahto	-9.43861
silmissä	-9.44091
paavali	-9.44113
▁",	-9.44134
aikaan	-9.4443
synti	-9.44483
pi	-9.44503
egypti	-9.44558
tulisi	-9.44559
miehiä	-9.44606
vettä	-9.44796
tulen	-9.44932
je	-9.45136
tekivät	-9.45643
ottaa	-9.45842
jalka	-9.46186
kaupunkiin	-9.46303
pu	-9.47336
asettui	-9.47444
isie	-9.47635
mi	-9.48142
tulleet	-9.48243
saat	-9.48321
vesi	-9.48405
luona	-9.48485
veljensä	-9.48496
päivän	-9.48574
nähdä	-9.48816
josta	-9.48983
tänne	-9.49011
verta	-9.49159
illä	-9.49218
meren	-9.49521
salli	-9.49559
kansat	-9.50145
nime	-9.50263
alttarin	-9.50422
pelasta	-9.51019
henke	-9.51422
onko	-9.51554
käsky	-9.51688
aaron	-9.51738
käskyn	-9.51848
muu	-9.52051
issa	-9.52359
isäni	-9.52403
asetti	-9.52557
ar	-9.52615
edestä	-9.52684
ketä	-9.52759
iltä	-9.52797
pitä	-9.53127
anteeksi	-9.53189
paha	-9.53444
koht	-9.53449
kulta	-9.53536
sata	-9.5377
yhden	-9.53825
keskuudessa	-9.53825
masta	-9.53918
papit	-9.54015
polttouhri	-9.54081
vaimon	-9.54099
tekevä	-9.54204
palvelijasi	-9.54397
tien	-9.54442
kansoje	-9.54466
alle	-9.54535
saanut	-9.55081
tyttäre	-9.55533
saavat	-9.56082
yhdessä	-9.56415
menkää	-9.56416
manasse	-9.56417
de	-9.5651
ttä	-9.56529
astu	-9.56534
ylen	-9.56778
astui	-9.56797
pysyy	-9.57087
ihmisten	-9.57094
den	-9.57111
tuleva	-9.57543
minulla	-9.58002
korkea	-9.58295
jeremia	-9.58401
päivinä	-9.58406
kaksitoista	-9.58472
joilla	-9.58517
essa	-9.58599
itten	-9.58794
kuningasta	-9.58807
kristus	-9.59072
täynnä	-9.59116
käsi	-9.59178
ttiin	-9.59284
palasi	-9.59482
seisoi	-9.59621
ilmestysmaja	-9.60428
johon	-9.60429
perintöosa	-9.60438
po	-9.60544
puu	-9.60814
nimen	-9.60906
isin	-9.61034
as	-9.61037
al	-9.61064
hengen	-9.61254
nimeä	-9.61663
suvu	-9.61999
takaa	-9.62084
mooabi	-9.62157
laki	-9.62296
jälle	-9.62385
lähettänyt	-9.62497
samuel	-9.62507
kuullu	-9.62509
molemm	-9.62529
jona	-9.62535
asukkaa	-9.62568
aikaa	-9.62587
tapahtu	-9.62819
seuraa	-9.62945
enemmän	-9.63061
itsensä	-9.63109
kka	-9.63293
ksen	-9.6344
tietää	-9.63515
joosef	-9.63663
mone	-9.63753
mieli	-9.63788
ksensa	-9.63881
leeviläise	-9.63922
aaronin	-9.63942
aikana	-9.63971
itseä	-9.64332
ina	-9.64391
turva	-9.65018
tul	-9.6502
neen	-9.65067
talo	-9.65162
malla	-9.6537
kuusi	-9.65458
sinulla	-9.65526
lyö	-9.65892
kaupungi	-9.66263
tästä	-9.6629
karitsa	-9.66593
mpi	-9.66615
lähetä	-9.6679
vaattee	-9.66934
voima	-9.6718
liha	-9.67187
laiset	-9.67375
lapsia	-9.67451
liikkeelle	-9.67498
mukana	-9.67531
liiton	-9.67816
miekka	-9.68008
henkeä	-9.68098
ruumii	-9.68144
söi	-9.68289
temppeliin	-9.68403
laske	-9.6868
tar	-9.69081
istui	-9.69084
pietari	-9.69364
rakenta	-9.69476
kallio	-9.69519
tunne	-9.69707
samaria	-9.69768
hu	-9.6998
kysy	-9.70057
kanta	-9.70336
assuri	-9.70909
joukko	-9.71052
aabrahami	-9.7124
lähde	-9.7125
heillä	-9.7152
daavidille	-9.72019
mihin	-9.72054
monta	-9.72068
oman	-9.72216
kuullee	-9.72395
jeesukse	-9.72445
luota	-9.72464
joukossa	-9.7248
gileadi	-9.72813
hallitsi	-9.73014
puolelle	-9.73049
nosta	-9.73347
vanhurskaude	-9.73465
siioni	-9.73535
lapset	-9.7382
syödä	-9.74299
pään	-9.74496
seiso	-9.74669
autio	-9.74682
muut	-9.74822
raja	-9.74826
da	-9.74886
su	-9.74944
valta	-9.75094
mu	-9.75819
beet	-9.75865
viisikymmentä	-9.75906
olevan	-9.76038
tahi	-9.76089
olkoot	-9.76291
neljäkymmentä	-9.76706
käskyjä	-9.76711
opetuslapse	-9.76768
äiti	-9.76841
tie	-9.77024
jumalani	-9.77151
poikaa	-9.77214
be	-9.77245
alttari	-9.7725
essaan	-9.77474
asia	-9.77703
set	-9.77735
liitto	-9.77767
mennä	-9.77783
uhraa	-9.77865
kasvo	-9.77943
toivo	-9.78106
sekeli	-9.7833
taivaasta	-9.78509
saisi	-9.78801
neuvo	-9.78918
tuomio	-9.78929
asetta	-9.78992
sukukunna	-9.79056
elämän	-9.79113
jäi	-9.79141
pidä	-9.79529
osta	-9.79641
lähtee	-9.79715
ensa	-9.79793
paikkaan	-9.79896
filistealaist	-9.79906
tähte	-9.80579
elämä	-9.80618
aabraham	-9.80788
hankki	-9.80801
taivaa	-9.80806
kultaa	-9.80809
noin	-9.8089
een	-9.81237
väkevä	-9.81315
mista	-9.81552
kulke	-9.81556
ittain	-9.81795
ihmiset	-9.81916
jumalattoma	-9.82269
yt	-9.82325
pakanain	-9.82487
poikia	-9.82487
meillä	-9.82539
ihmislapsi	-9.82567
etkä	-9.82838
ilta	-9.82901
kuulla	-9.83131
taistelu	-9.83181
valmista	-9.83327
pojalle	-9.83348
voit	-9.83552
julista	-9.84178
vihaa	-9.84184
antakaa	-9.84193
portin	-9.84254
ruhtinas	-9.84455
häpeä	-9.84744
sama	-9.84803
jumalia	-9.84879
isäsi	-9.84932
sydän	-9.85076
tehkää	-9.8519
ve	-9.85203
joosefi	-9.85367
noudatta	-9.85617
pelastu	-9.8576
ilmoitta	-9.85796
kanaani	-9.85907
totta	-9.86019
työ	-9.86267
menee	-9.86423
laisille	-9.86695
ympärillä	-9.86696
▁?`	-9.86836
kädessä	-9.86847
muuri	-9.86882
kuulu	-9.87201
näet	-9.87544
syntiuhri	-9.87551
päivään	-9.87623
puoleen	-9.87728
laidunma	-9.87728
virsi	-9.87757
löi	-9.87818
kyllä	-9.87837
kolmen	-9.87873
teet	-9.87911
soti	-9.87922
kerra	-9.88235
maailma	-9.88337
väli	-9.88337
porti	-9.88442
juuri	-9.88633
▁.`	-9.88646
herralta	-9.88778
uksen	-9.88905
filistealaise	-9.88976
rukoile	-9.8908
rukoili	-9.89194
oi	-9.89252
mise	-9.89381
miesten	-9.89463
rakensi	-9.8954
lopu	-9.89544
muita	-9.89591
käsistä	-9.89603
olkaa	-9.89606
esiin	-9.89787
juutalaise	-9.89992
kävi	-9.90224
var	-9.90459
ylitse	-9.90459
iloitse	-9.9051
ensä	-9.90633
lahja	-9.90972
äänen	-9.90992
väki	-9.91168
löytä	-9.91381
mere	-9.91437
man	-9.91451
eräs	-9.91538
piti	-9.91706
ro	-9.9174
aa	-9.91807
vastaa	-9.92005
esipiha	-9.92318
kolmekymmentä	-9.92326
er	-9.92477
palvelijat	-9.92663
tälle	-9.92751
tapahtui	-9.92783
omakse	-9.92926
staan	-9.93018
kulla	-9.93203
valtakunta	-9.93248
ottakaa	-9.93258
saastai	-9.93302
näitä	-9.93307
mättä	-9.93419
puoli	-9.93485
kai	-9.93665
temppeli	-9.94031
korva	-9.94226
tieltä	-9.94248
hopeata	-9.94309
veren	-9.94432
rakasta	-9.94557
tulette	-9.94594
sydämessä	-9.94874
toiset	-9.95196
sisälle	-9.95258
äitinsä	-9.95363
miekan	-9.95485
kimppuun	-9.95759
ho	-9.95954
jättä	-9.96042
itä	-9.96087
sijaan	-9.96126
tehtävä	-9.96153
nimeltä	-9.96158
vähä	-9.96175
lihaa	-9.96387
kauka	-9.96401
tekoja	-9.9646
suo	-9.96604
lleen	-9.96858
jooab	-9.96864
kärsi	-9.96989
ääntä	-9.96992
ua	-9.97032
loi	-9.97037
ajoi	-9.97084
pakkosiirtolais	-9.97124
yhteen	-9.97127
temppelissä	-9.97187
ilmesty	-9.97224
nousee	-9.97253
nosti	-9.97412
nimensä	-9.97417
aivan	-9.97478
laakso	-9.97833
saatta	-9.97893
vihollise	-9.97983
egyptistä	-9.98194
yöllä	-9.98599
iankaikkise	-9.98685
vanhurskas	-9.98743
kaatu	-9.98873
israelissa	-9.9891
yön	-9.98996
nuo	-9.99107
▁`."	-9.99116
lähellä	-9.99127
tin	-9.99128
oikein	-9.99176
kuollut	-9.99179
ru	-9.99302
elia	-9.99451
edomi	-9.99679
armon	-9.99754
hin	-9.99762
kuukaude	-10.0012
vanhimma	-10.0012
kumarta	-10.0012
eesau	-10.0013
synnytti	-10.0013
yhä	-10.0015
miehe	-10.0023
vedet	-10.0026
aaksi	-10.007
tutki	-10.0073
paljo	-10.0076
maailman	-10.0077
lloin	-10.0079
sten	-10.0099
viiniä	-10.0102
hiskia	-10.0107
ttava	-10.0117
luja	-10.0123
elin	-10.0137
seurasi	-10.0143
alka	-10.0156
mä	-10.0176
parempi	-10.0218
laulu	-10.0219
kertaa	-10.024
sydämen	-10.0242
ylistä	-10.0269
keskenä	-10.0301
tahdon	-10.0304
isille	-10.0313
laisia	-10.0315
hylkää	-10.0322
kulutt	-10.0333
ikinä	-10.0348
kuninkaat	-10.0351
jokaise	-10.0407
päällikkö	-10.0427
vaelsi	-10.0427
rakkaa	-10.0427
sauva	-10.0432
nuun	-10.0448
isän	-10.0457
ettet	-10.046
uskon	-10.0461
efraimin	-10.0473
sisare	-10.0489
ivät	-10.049
peto	-10.0496
valtakunna	-10.0512
ennusta	-10.0533
sukupolve	-10.0534
palvelijoita	-10.0535
pelto	-10.054
pilvi	-10.0541
päätä	-10.0541
tekemään	-10.0547
il	-10.0564
rin	-10.0565
ssaan	-10.0571
lai	-10.0574
kaupungissa	-10.0575
palaja	-10.0576
kuoleman	-10.0581
aamu	-10.0594
par	-10.0594
tetty	-10.0635
oikeutt	-10.0641
puhdas	-10.0641
kauhu	-10.0641
täällä	-10.0642
suuret	-10.0653
lihan	-10.0656
linnu	-10.0662
sukukunnasta	-10.0667
tulkoon	-10.068
huuta	-10.0696
toimitta	-10.0709
raskaa	-10.0709
palvelijansa	-10.0715
taloon	-10.072
arkin	-10.0741
kohta	-10.0742
vaelta	-10.075
vihan	-10.0775
asettu	-10.0785
kas	-10.0785
luopu	-10.0798
asuu	-10.0798
ensimmäisen	-10.0806
palveli	-10.0813
nnetaan	-10.0826
kuolema	-10.0843
joonatan	-10.0844
sanoa	-10.0858
[	-10.086
llis	-10.0864
välillä	-10.0874
kääntyi	-10.0881
sanaa	-10.0882
ly	-10.0908
ajan	-10.0925
äiden	-10.0928
sanoja	-10.0938
synnyttä	-10.0938
sivat	-10.0958
loppu	-10.0961
polve	-10.097
hallitusvuotena	-10.0971
paikassa	-10.0983
vuorelle	-10.0989
baabeli	-10.099
oikeuden	-10.1009
pelastaa	-10.1032
hopea	-10.1034
ikään	-10.1045
ruokauhri	-10.1046
kahden	-10.1053
joutui	-10.1064
poikasi	-10.1079
iä	-10.1082
katselmukse	-10.1083
näkevä	-10.1084
itki	-10.1131
viini	-10.1152
kahdeksan	-10.1182
etelä	-10.119
miele	-10.1196
äkee	-10.1197
jätti	-10.12
miehelle	-10.1203
misen	-10.1209
hävitä	-10.1218
kiitä	-10.1227
pakoon	-10.1232
tuomitse	-10.124
lo	-10.1291
juutalaist	-10.1293
huoneen	-10.1301
kolmantena	-10.1312
pojille	-10.1312
vahvista	-10.1312
toiselle	-10.1312
tahtoo	-10.1316
häpeää	-10.132
arkki	-10.1326
sota	-10.1339
pohjoise	-10.1342
jätä	-10.1347
kaupungista	-10.1348
taa	-10.1352
pyhän	-10.1359
surmaa	-10.137
imme	-10.1378
muutama	-10.1386
tut	-10.1404
paikka	-10.1406
kuun	-10.1409
lä	-10.1412
kädestä	-10.1428
ruhtinaat	-10.1435
täyttä	-10.145
sivu	-10.1464
vuotena	-10.1469
jouko	-10.148
vien	-10.1492
kätte	-10.1493
so	-10.1508
karja	-10.153
olin	-10.1537
pääse	-10.1544
pysy	-10.1545
ken	-10.1551
osasto	-10.1557
tuhon	-10.1575
miehille	-10.1587
vaivaa	-10.1592
rauhaa	-10.16
työtä	-10.1604
minen	-10.164
ad	-10.1643
huuda	-10.1655
pahan	-10.1663
uhrasi	-10.1665
seuraavana	-10.1665
heitti	-10.1665
nuori	-10.1675
rakastaa	-10.1732
papin	-10.1734
auringon	-10.1743
köyhä	-10.1749
palvelijalle	-10.1752
pahat	-10.177
kar	-10.1777
kasvoje	-10.1783
päällikö	-10.1785
tyhmä	-10.1785
öljyä	-10.1797
veri	-10.1832
vuosi	-10.1853
ruoka	-10.1854
mennyt	-10.1873
isää	-10.1884
asumuksen	-10.1907
rasva	-10.1909
seassa	-10.1912
kotiin	-10.192
elä	-10.1935
tuu	-10.1957
saman	-10.197
leeviläisi	-10.1984
ylt	-10.1985
ee	-10.1996
kokoa	-10.2001
leiriytyi	-10.2016
pyysi	-10.203
rupesi	-10.2031
vuore	-10.2031
ön	-10.2042
ilman	-10.2047
voitti	-10.2047
or	-10.2063
riemu	-10.2065
isälle	-10.2072
katsokaa	-10.2083
saastaise	-10.2088
juhla	-10.2101
opetta	-10.2103
pitkä	-10.2111
uhreja	-10.2148
suusta	-10.2155
rukoukse	-10.2155
merkki	-10.2156
lauma	-10.2193
voimalla	-10.2193
kova	-10.2207
vaski	-10.2225
puhun	-10.2248
pait	-10.2255
erä	-10.2255
puhtaa	-10.2262
omaa	-10.2273
eksy	-10.2282
tyttäriä	-10.2282
joutuu	-10.2282
leipä	-10.2302
kulu	-10.2306
jolle	-10.2313
seurakunnan	-10.2334
täytyy	-10.2352
tullessa	-10.2358
pannu	-10.2362
ääni	-10.2394
veljie	-10.24
galilea	-10.241
perhekunta	-10.241
sisään	-10.2413
sanokaa	-10.2417
pakene	-10.2418
im	-10.2425
onnettomuude	-10.2439
kuva	-10.2484
har	-10.2487
luu	-10.2489
valo	-10.2491
uuden	-10.2501
valin	-10.2504
pyhi	-10.2507
iset	-10.2508
kalu	-10.2517
kieli	-10.2525
tahdo	-10.253
öljy	-10.2531
annettu	-10.2541
miekalla	-10.2544
syntynyt	-10.2547
auta	-10.2548
ääre	-10.256
tettu	-10.2581
peri	-10.259
jokaisen	-10.2592
vanhurskaa	-10.2605
kasva	-10.261
täyte	-10.2625
sela	-10.2628
vuoristo	-10.2647
silmät	-10.265
pala	-10.2657
tuon	-10.2659
vuoren	-10.2665
osan	-10.2666
aurinko	-10.2672
kertoi	-10.2672
pelkäsi	-10.2673
omaan	-10.2679
hyvän	-10.2693
kenen	-10.2736
herrassa	-10.2744
näe	-10.2744
val	-10.2747
ihmis	-10.2749
tomu	-10.2763
seurakunta	-10.2788
her	-10.2795
mittaa	-10.2799
seitsemäntenä	-10.2805
rannall	-10.2821
itke	-10.2823
vanhurskaute	-10.2827
leijona	-10.2829
kuulee	-10.2837
siltä	-10.2842
vero	-10.2843
kuollee	-10.2853
sotaan	-10.2853
lakia	-10.2857
soi	-10.2859
väärä	-10.2867
ö	-10.2873
eri	-10.2902
pyhää	-10.2903
avaa	-10.2915
kerubi	-10.294
sanansaattaja	-10.294
elisa	-10.2959
nimessä	-10.2961
halu	-10.299
suuria	-10.2995
lapsi	-10.3001
moni	-10.3017
benjaminin	-10.3019
kokoontui	-10.3025
koi	-10.3026
ju	-10.3043
haudat	-10.3056
puolelta	-10.3058
es	-10.306
evankeliumi	-10.3069
hedelmä	-10.307
laski	-10.3075
johannes	-10.3077
eitsemänkymmentä	-10.3077
kaltaise	-10.3084
tuska	-10.3087
profeetat	-10.3088
voisi	-10.3098
virran	-10.3123
orja	-10.3146
tulet	-10.3152
oista	-10.316
menen	-10.3176
paika	-10.3191
leirin	-10.3191
pyhäkkö	-10.3201
ajatteli	-10.3216
kansoi	-10.3217
jauho	-10.3219
huomaa	-10.3223
ga	-10.3226
pello	-10.3232
kokoontu	-10.3234
talon	-10.325
näky	-10.3268
puut	-10.3278
kor	-10.3279
tehty	-10.3281
ainen	-10.3286
kieltä	-10.3305
iisaki	-10.3307
alttarilla	-10.3327
isen	-10.3331
portti	-10.3352
varhain	-10.3357
sanotte	-10.3357
vapaa	-10.3361
akse	-10.3361
kel	-10.3365
via	-10.338
vyö	-10.3388
sanot	-10.3401
puhee	-10.3405
isivat	-10.3412
per	-10.3428
todistaja	-10.345
meri	-10.3457
puolen	-10.3458
elävä	-10.3468
kovin	-10.3475
kirja	-10.348
luvan	-10.3481
kasta	-10.3491
lankesi	-10.35
sovitukse	-10.35
kansasta	-10.3507
nnut	-10.3516
sydämestä	-10.352
isiin	-10.3521
heimon	-10.3538
ottamaan	-10.3566
iho	-10.3585
poikien	-10.3605
tele	-10.3635
änsä	-10.3637
veljesi	-10.3638
nähnee	-10.364
silmie	-10.364
lapsen	-10.3643
kestä	-10.3644
veljiä	-10.3645
käydä	-10.3645
ilmoitti	-10.3646
viholliste	-10.3646
matka	-10.3655
hävittä	-10.3669
makaa	-10.3675
kan	-10.3698
ensimmäi	-10.3704
eläimet	-10.3707
vuori	-10.3712
juutalaisi	-10.3716
ensin	-10.3717
yksin	-10.3721
varo	-10.3733
juoda	-10.3744
puhua	-10.376
ttävä	-10.3773
rankaise	-10.3792
siunaa	-10.3793
sotajoukko	-10.3797
ys	-10.3799
joutuvat	-10.3801
jäljelle	-10.3803
vääryyt	-10.3811
etkö	-10.3825
rauhan	-10.3837
sala	-10.3854
karkoitta	-10.3859
viisas	-10.386
myy	-10.3871
vaiva	-10.3874
veli	-10.3879
naisen	-10.3879
yö	-10.3883
tuhoa	-10.389
odotta	-10.3892
avasi	-10.3896
käsii	-10.3918
jumalalta	-10.3924
vala	-10.3937
jumalattomi	-10.3941
isia	-10.3943
vuorella	-10.3953
beeteli	-10.3959
tykönä	-10.397
milloin	-10.3981
palkka	-10.3993
jerusalem	-10.3993
tappa	-10.4004
miekkaan	-10.4008
tiesi	-10.4011
am	-10.4019
alta	-10.4035
autta	-10.404
tultua	-10.4041
arvo	-10.4053
olemaan	-10.4058
ah	-10.406
kiele	-10.4067
käänny	-10.4083
kammio	-10.4084
baal	-10.4092
juure	-10.4092
veljille	-10.4102
pilkkaa	-10.4105
isänne	-10.411
uuteen	-10.4118
tosi	-10.4119
llaan	-10.412
ainoa	-10.4122
sekaan	-10.4125
todista	-10.4131
isämme	-10.4134
malja	-10.4137
hä	-10.4138
pelko	-10.4155
metsän	-10.4165
mukse	-10.4182
ilmoita	-10.4184
anti	-10.4187
äistä	-10.4192
absalom	-10.4203
poltta	-10.4214
simon	-10.422
kokosi	-10.4229
ehkä	-10.4246
tarvitse	-10.4246
surmasi	-10.4248
vanhurskautta	-10.4251
lisäk	-10.4255
joista	-10.426
aamulla	-10.426
tanut	-10.4262
viisaude	-10.4267
palvelusta	-10.4268
hallitse	-10.4272
tavara	-10.4281
iisak	-10.4286
olko	-10.4287
tarkoi	-10.4308
etee	-10.431
hukku	-10.4312
syövät	-10.4312
vilja	-10.4312
kymmenente	-10.433
kauhistus	-10.433
turmio	-10.4332
millä	-10.4333
lasten	-10.4338
kirjoita	-10.4339
lat	-10.4348
huoneeseen	-10.4354
uskolli	-10.4363
oppi	-10.438
hti	-10.4395
vaske	-10.4403
▁";	-10.4403
luke	-10.4406
annettiin	-10.4406
hehku	-10.4408
totuude	-10.4412
tahan	-10.4422
hebroni	-10.4427
amorilais	-10.4447
jia	-10.4452
katoa	-10.446
usta	-10.4473
itään	-10.4475
tuolla	-10.4479
kasvoille	-10.4481
kaltai	-10.4488
ol	-10.4489
israelilais	-10.4519
asua	-10.452
jälkeläisten	-10.452
kotii	-10.4542
inä	-10.4548
sidkia	-10.4561
älkööt	-10.4561
saastutta	-10.4561
palvelijoille	-10.4562
poltti	-10.4562
läpi	-10.4562
lahjoja	-10.4565
toisia	-10.4566
jeriko	-10.4568
tapahtuu	-10.4574
meistä	-10.4579
j	-10.4591
joukosta	-10.4592
käännä	-10.4616
ahabi	-10.4617
tyttären	-10.4617
omin	-10.4619
talossa	-10.4621
siksi	-10.4626
sy	-10.4629
käynyt	-10.4644
esikoise	-10.4645
heti	-10.4659
elävi	-10.4672
kuiva	-10.4695
itte	-10.47
rii	-10.4713
miika	-10.4722
lamppu	-10.4723
tappoi	-10.4723
apostoli	-10.4723
jeehu	-10.4723
mordokai	-10.4723
kenelle	-10.4723
pitäkää	-10.4727
koo	-10.4741
jumalaton	-10.4759
uh	-10.4759
uu	-10.4771
huuto	-10.4776
tuokaa	-10.4784
uutta	-10.48
uhrilahja	-10.4823
kohde	-10.4837
mullikka	-10.485
tuomari	-10.4857
mo	-10.4859
uusi	-10.487
leevi	-10.4877
damasko	-10.4887
lampaita	-10.4887
kolmas	-10.4887
luvu	-10.4887
ihmisiä	-10.4887
veden	-10.4888
kaupunkeja	-10.4898
sotajouko	-10.4899
jäljessä	-10.4901
sadan	-10.4926
joosafat	-10.4957
valtaa	-10.4961
kylvä	-10.497
olisivat	-10.497
mmin	-10.4981
naise	-10.4991
lunasta	-10.4998
vallan	-10.5004
omi	-10.5019
vuotee	-10.5021
lausui	-10.5028
isitte	-10.5033
kättä	-10.5035
puro	-10.5038
pyhäkössä	-10.5053
kädellä	-10.5053
tyyro	-10.5054
ottakoo	-10.5056
kuusisataa	-10.5057
hengessä	-10.5058
laupeude	-10.5069
sijaa	-10.5069
leivän	-10.5081
kasvojen	-10.5089
teette	-10.5102
mielessä	-10.5112
utta	-10.514
hyvi	-10.5142
os	-10.5152
vaeltaa	-10.5192
muutami	-10.5193
oven	-10.5196
laaban	-10.5223
nebukadnessar	-10.5223
muisto	-10.5223
kaupunkeihin	-10.5223
yhteysuhri	-10.5223
viedä	-10.5223
äänellä	-10.5223
kuolleista	-10.5226
vihki	-10.5227
vaati	-10.5233
teoista	-10.524
yhdeksän	-10.524
kaupungeissa	-10.5251
annoi	-10.5256
ammonilais	-10.5261
suloise	-10.5288
jäljell	-10.5296
surma	-10.5301
merki	-10.5305
opettaja	-10.5308
tiedät	-10.531
saata	-10.5313
ruhtinaa	-10.5314
taivaat	-10.5338
mma	-10.5344
jalo	-10.5347
vartioi	-10.535
meno	-10.5354
saada	-10.5356
pui	-10.5357
sukukuntaa	-10.5363
kuninkaaks	-10.5368
papei	-10.538
neuvoa	-10.5384
kii	-10.5391
suurempi	-10.5394
joojada	-10.5395
keskelle	-10.5403
pieni	-10.5412
ojensi	-10.5414
sotavaunu	-10.5417
valvo	-10.5422
iltaan	-10.5424
valkeu	-10.5425
hetke	-10.5427
veisuu	-10.5433
metsä	-10.5439
ystävä	-10.5444
maja	-10.5445
vihastui	-10.5451
daniel	-10.5475
kaval	-10.5477
palaa	-10.548
egyptiläise	-10.549
elle	-10.5494
otolli	-10.5503
sal	-10.5506
tuoda	-10.551
horju	-10.5521
hal	-10.5548
maria	-10.5551
antava	-10.556
nopea	-10.5571
ohitse	-10.5571
baasani	-10.5571
mielisty	-10.5571
kuusikymmentä	-10.5571
eläimi	-10.5572
miten	-10.558
sydämesi	-10.5581
annat	-10.5596
pelo	-10.56
puhe	-10.5604
ttää	-10.5623
paikkaa	-10.563
vaa	-10.5631
tietämä	-10.5634
amen	-10.5638
kiiru	-10.5673
profeettain	-10.5674
lti	-10.5676
nouss	-10.5676
min	-10.5688
rakenna	-10.571
kantaa	-10.5715
paasto	-10.5716
hevose	-10.5716
kauhistu	-10.5724
miseen	-10.5725
himo	-10.5731
omat	-10.5731
enne	-10.5739
huomenna	-10.5749
vankeute	-10.5749
varustettu	-10.5749
ymmärrä	-10.5749
eufrat	-10.5749
ester	-10.5749
nähdessä	-10.575
viisautta	-10.5751
muiden	-10.5753
:	-10.5753
nimeen	-10.5753
ruoho	-10.5754
kaamme	-10.5755
kulkee	-10.5763
mah	-10.5765
lausu	-10.5767
ylimmäi	-10.577
papi	-10.5772
mia	-10.5774
alkoi	-10.5775
aramin	-10.5779
taivais	-10.578
ovi	-10.5784
pian	-10.5801
njohtaja	-10.5809
jäänyt	-10.5813
lapse	-10.5833
rukoil	-10.5839
loppuu	-10.5847
päämies	-10.5861
tuota	-10.5871
sikemi	-10.588
nai	-10.5884
erään	-10.5887
vir	-10.5888
päähän	-10.5894
pakeni	-10.5902
oikeus	-10.5904
eita	-10.5915
armahda	-10.5931
siunasi	-10.5931
kolmanne	-10.5931
leiri	-10.5932
joosia	-10.5932
haaman	-10.5937
kirkkaude	-10.5937
kööt	-10.594
löydä	-10.594
turvaa	-10.594
israelilaisia	-10.5947
töitä	-10.5951
maksa	-10.5952
hedelmää	-10.5952
lapsille	-10.5961
ttaa	-10.5967
syyttä	-10.5975
rauta	-10.5981
linnan	-10.5989
kasvoi	-10.5997
pappien	-10.5998
joudu	-10.6015
ove	-10.6018
aaroni	-10.6036
kiven	-10.6041
määrä	-10.6061
tuonela	-10.6066
arpa	-10.607
tekoa	-10.6075
mat	-10.6082
akin	-10.6087
isiä	-10.6098
kyl	-10.611
tuksi	-10.6111
poikki	-10.6116
naftali	-10.6116
▁!`	-10.6116
huone	-10.6117
avoin	-10.6117
osoitta	-10.6117
tiellä	-10.6124
valtaistuimella	-10.613
kerto	-10.6132
muukalaise	-10.6139
leiriin	-10.6139
tiedo	-10.6145
laisen	-10.6155
lepoon	-10.6155
kosta	-10.6163
maton	-10.6165
yn	-10.6166
vett	-10.6166
muukalai	-10.6169
perhee	-10.617
jerobeami	-10.6182
ella	-10.6182
kurja	-10.6196
vaarin	-10.6218
neljän	-10.6234
sankari	-10.6243
käyn	-10.6255
lais	-10.6265
astia	-10.6267
mmat	-10.6268
laista	-10.63
heihin	-10.6302
halveksi	-10.6304
teurasuhri	-10.6305
lähettää	-10.6305
leeviläisten	-10.6306
kerro	-10.6314
päästi	-10.6318
temppeliä	-10.6331
vel	-10.6334
joihin	-10.6334
mis	-10.6336
näkö	-10.6336
joi	-10.634
sukukunta	-10.634
pyhittä	-10.634
kaatui	-10.634
tiedätte	-10.6351
usti	-10.6366
tahtoi	-10.6371
ruumiin	-10.6374
saatana	-10.6381
miseksi	-10.6406
sukua	-10.6418
vuode	-10.642
kymmentä	-10.6432
muuttu	-10.6434
kedoll	-10.6444
peljästy	-10.6447
nooa	-10.6448
huule	-10.6451
pylvä	-10.6458
sääli	-10.6475
kasvot	-10.6495
aterioi	-10.6497
fariseukse	-10.6497
rehabeam	-10.6497
makasi	-10.6497
alttii	-10.6497
toiseen	-10.6506
ajattele	-10.6507
määrän	-10.6514
synnin	-10.6524
esikoi	-10.6526
kirot	-10.6531
bi	-10.6539
kyynärän	-10.6543
itseänsä	-10.6544
viisau	-10.6547
nälkä	-10.6553
sellaist	-10.6571
kimppuu	-10.6575
ymmärtä	-10.6585
aseta	-10.6592
olevi	-10.6607
vanhurskaan	-10.6607
suola	-10.6612
muurin	-10.6622
jerobeam	-10.6624
tulevan	-10.6638
koske	-10.6643
vihastu	-10.6644
len	-10.6664
suru	-10.6693
huomasi	-10.6693
pakanat	-10.6693
ihmeitä	-10.6693
urho	-10.6694
juomauhri	-10.6697
kerrottava	-10.6703
ihmistä	-10.6715
efraim	-10.6716
lupauksen	-10.6718
autua	-10.6722
vasemma	-10.6722
pakenivat	-10.6725
menköö	-10.673
saalii	-10.6736
ympärille	-10.6744
hullu	-10.6747
kauris	-10.6764
ihmise	-10.6766
vuodatta	-10.6778
muukalaisi	-10.6779
kunnian	-10.6781
rikko	-10.6788
din	-10.6793
ltaan	-10.6798
maalle	-10.6803
vahva	-10.6809
yötä	-10.6814
saadakse	-10.6828
valtaan	-10.6832
valtasi	-10.6834
vaimoa	-10.6845
otettu	-10.6851
jumalasta	-10.6861
ilmestyi	-10.6873
palvelijai	-10.6874
peljätkö	-10.6874
oikean	-10.6886
hedelmän	-10.689
ymmärrykse	-10.6893
neljäntenä	-10.6893
opetti	-10.6894
antama	-10.6895
päältä	-10.6897
koskee	-10.69
jouse	-10.6901
tapa	-10.6904
ahdista	-10.6905
kuului	-10.691
olimme	-10.6913
saan	-10.6923
johanneksen	-10.6926
tällä	-10.6936
iankaikki	-10.6946
vara	-10.6947
ilmoit	-10.6955
tään	-10.6962
my	-10.6962
myöt	-10.6966
estä	-10.6976
juoksi	-10.6995
lähesty	-10.7001
varma	-10.7003
vuota	-10.7005
tyhjä	-10.7006
onnettomuu	-10.7011
eser	-10.702
benjamini	-10.7024
hautaan	-10.703
palk	-10.7033
vaunu	-10.7036
tuomit	-10.704
istuva	-10.704
herraan	-10.7041
sarve	-10.7043
ruua	-10.7053
pimeyde	-10.7094
jälkee	-10.7095
pakanakansa	-10.7097
kruunu	-10.7097
sodoma	-10.7097
leveä	-10.7097
haureutta	-10.7097
haltuun	-10.7098
kulje	-10.71
sukujen	-10.711
puhdista	-10.711
valkoisi	-10.7112
paina	-10.7115
ettava	-10.7115
kestää	-10.7116
viinitarha	-10.712
kaste	-10.7122
tuokoo	-10.7122
udu	-10.713
pääsi	-10.7138
teissä	-10.715
abi	-10.7162
kunniaa	-10.7165
sokea	-10.7168
risti	-10.7175
tulo	-10.7178
virka	-10.7183
kuolemaan	-10.7184
kiroa	-10.7185
hama	-10.7191
sanansa	-10.7191
ala	-10.7197
vaellukse	-10.7202
kätee	-10.7211
paa	-10.7216
nuorukai	-10.7222
kokoon	-10.7235
päätty	-10.7246
kirjan	-10.7251
kenenkä	-10.7256
voiton	-10.7256
isten	-10.7257
tappaa	-10.7266
eeli	-10.7272
viisaa	-10.7274
syy	-10.7279
varjo	-10.73
suun	-10.7303
pellava	-10.7303
kadu	-10.7305
järve	-10.7306
rakkaus	-10.7306
löysi	-10.7306
keskeltä	-10.7306
asarja	-10.7306
väen	-10.7307
ajatukse	-10.7309
kutsutaan	-10.7312
daani	-10.7314
varjele	-10.7315
saapui	-10.7318
hävittää	-10.7324
oihin	-10.7326
ylimmäisen	-10.7328
lampaat	-10.7335
paljasta	-10.7348
teiltä	-10.7351
pilka	-10.7359
menesty	-10.7363
unhotta	-10.7364
kuol	-10.7381
suvusta	-10.7382
näette	-10.7382
voiman	-10.7383
menet	-10.7393
aamun	-10.7402
ensimmäise	-10.7402
ojenta	-10.7405
yynni	-10.7408
aiset	-10.7421
vaari	-10.7424
juudaa	-10.7437
uskoi	-10.7437
mattoma	-10.7454
heittä	-10.747
don	-10.749
ähden	-10.7496
ovelle	-10.7497
onhan	-10.7504
sapatti	-10.7512
eefa	-10.7516
paikoille	-10.7518
paula	-10.7519
valitse	-10.7523
sapattina	-10.7524
omasta	-10.7533
asukkai	-10.7538
tuoksu	-10.7543
kirkkau	-10.7543
herättä	-10.7543
llään	-10.7545
vän	-10.7559
kumartui	-10.7567
antaisi	-10.7568
tulta	-10.7577
vis	-10.7585
luotta	-10.7587
tekisi	-10.7592
gaadi	-10.7602
säätä	-10.7606
esta	-10.762
pyydä	-10.763
otan	-10.7639
huudo	-10.765
opeta	-10.7654
kuuluva	-10.7675
enkelin	-10.7681
määrää	-10.7694
tetaan	-10.7695
dan	-10.7704
vihassa	-10.7705
vih	-10.7709
saattaa	-10.771
teit	-10.7715
itsesi	-10.7722
patsaa	-10.7729
beetlehemi	-10.7732
pystyttä	-10.7736
valloitti	-10.7736
gideon	-10.7736
hylkäsi	-10.7736
kansoja	-10.7736
avukse	-10.7736
palvelijattare	-10.7736
▁.`"	-10.7736
polttouhreja	-10.7736
käskynhaltija	-10.7736
pimeä	-10.7736
saalista	-10.774
rakasti	-10.7741
halpa	-10.7742
sato	-10.7742
vier	-10.7743
ed	-10.7754
kiittä	-10.7755
näkemä	-10.777
huoneessa	-10.7773
vihamiehe	-10.7782
midiani	-10.7789
luku	-10.7799
teltta	-10.7804
kasvoja	-10.7806
tuuli	-10.7807
annoit	-10.7812
työn	-10.7814
lähe	-10.7815
ainoata	-10.7818
valhe	-10.7822
nuorukaise	-10.7824
kantoi	-10.7855
iisai	-10.7859
linna	-10.7874
otetaan	-10.7888
tomuu	-10.7898
vaatteet	-10.7908
ymmärtäväi	-10.7917
tekijä	-10.7918
painoi	-10.7928
aasi	-10.7932
etu	-10.7937
korotta	-10.7938
saara	-10.7941
elävän	-10.795
täytty	-10.7958
vapise	-10.7958
olleit	-10.796
korjasi	-10.7961
kiitosta	-10.7964
ihana	-10.7965
panna	-10.7966
liia	-10.7978
filistealaisi	-10.7983
alttarille	-10.7987
muille	-10.7987
siimei	-10.7989
mitta	-10.799
vanhurskau	-10.7993
lapsensa	-10.7997
ellei	-10.8005
pedo	-10.8014
valhett	-10.8018
väkivaltaa	-10.8023
laskeutu	-10.8023
mar	-10.8028
ran	-10.8048
äköön	-10.8054
lestyj	-10.8075
joissa	-10.8079
katseli	-10.8083
vaella	-10.8089
tahdot	-10.8092
".	-10.8095
peit	-10.8096
vanhaa	-10.8101
ano	-10.8115
katsele	-10.8116
huonee	-10.8141
tekojen	-10.8141
kaivo	-10.8168
poista	-10.818
hyökkää	-10.8185
juudea	-10.8185
rikkomukse	-10.8186
pesköö	-10.8186
ainiaa	-10.8186
edeltä	-10.8186
voideltu	-10.8186
viereen	-10.8187
haara	-10.8189
suurta	-10.8191
uskollise	-10.8192
toteen	-10.8196
henkivartija	-10.8198
vankila	-10.8202
syvyyde	-10.8207
uus	-10.8208
pari	-10.8211
lau	-10.8213
tieto	-10.8213
apu	-10.8214
heitet	-10.8214
baalak	-10.8225
harjoitta	-10.8229
etaan	-10.8232
suurell	-10.8234
synty	-10.824
jooabi	-10.8249
absalomi	-10.825
istuu	-10.8252
ellä	-10.8261
valtakuntaa	-10.827
rakentaa	-10.8273
kesken	-10.8279
paranta	-10.8285
ajaa	-10.829
vil	-10.8292
pyhien	-10.8297
aksi	-10.8301
kuulle	-10.8304
taisiin	-10.8316
päässä	-10.832
turhaa	-10.8335
härkä	-10.8337
miin	-10.8337
ottavat	-10.8342
nousevat	-10.835
ruokaa	-10.8353
viä	-10.8355
idän	-10.8356
tarttu	-10.836
kukkula	-10.836
raha	-10.8366
yksinä	-10.8372
kedo	-10.8375
ulkopuole	-10.8381
lupaukse	-10.8389
eleasar	-10.8395
jumalien	-10.8405
erämaan	-10.8408
puita	-10.8412
myrsky	-10.8418
keskuudesta	-10.8418
lankea	-10.8418
tyttö	-10.8418
naatan	-10.8418
perhekunn	-10.8418
kirjoitti	-10.8418
hyljännyt	-10.8418
jälkeläisille	-10.8419
syökö	-10.8419
tarkasta	-10.8419
pantu	-10.8422
mispa	-10.8424
asian	-10.843
teihin	-10.8433
taivas	-10.8435
veljen	-10.8441
kukistu	-10.8441
lee	-10.8455
rikokse	-10.8464
erot	-10.8469
halua	-10.8477
oinas	-10.8486
jumalattoman	-10.8487
unhota	-10.849
ylle	-10.8492
väijy	-10.8496
noo	-10.85
tarttui	-10.8501
job	-10.8507
pääsiäi	-10.8508
tapasi	-10.851
valmii	-10.8512
aikoi	-10.8512
salaa	-10.8513
peljättävä	-10.8513
joutuisi	-10.8516
pidät	-10.8517
jät	-10.8518
kedon	-10.8528
antako	-10.8532
hautaa	-10.8556
noudata	-10.856
tunut	-10.856
päättä	-10.857
riemuitse	-10.8605
ker	-10.8606
pilatu	-10.8609
lähimmäise	-10.8614
pitali	-10.8615
hilja	-10.8619
valtia	-10.8654
täytti	-10.8656
amasja	-10.8656
kehati	-10.8656
muutoin	-10.8656
kätke	-10.8656
aasafi	-10.8656
suostu	-10.8656
annettava	-10.8658
taivast	-10.8661
osaa	-10.8661
lähtekää	-10.8662
benaja	-10.8665
suussa	-10.8682
sakarja	-10.8695
viikunapuu	-10.8699
seba	-10.8699
näyttä	-10.8701
virta	-10.8708
vihasi	-10.8709
asetu	-10.8712
lähteä	-10.8713
uksia	-10.8714
tuhannen	-10.8724
apua	-10.8725
laula	-10.8726
syttyi	-10.8729
rakastavat	-10.8729
kallista	-10.873
omista	-10.8732
ajat	-10.8735
ab	-10.8739
misesta	-10.8745
kirjat	-10.8747
tamme	-10.8748
abimelek	-10.8763
opetuslapsi	-10.8786
kompastu	-10.8799
tuulen	-10.8801
joukkoon	-10.882
kaldealais	-10.8827
mästä	-10.8832
ris	-10.8833
alusta	-10.8835
veljeä	-10.8856
siilo	-10.8864
odota	-10.8873
aikakirja	-10.8879
valitta	-10.8879
kive	-10.8882
korvii	-10.8894
sammu	-10.8895
alati	-10.8897
4	-10.89
sebuloni	-10.89
iloitsi	-10.89
osoita	-10.89
taistele	-10.89
valmis	-10.8902
siunattu	-10.8904
ylipapit	-10.8905
kirjoitta	-10.8907
aasa	-10.8911
savu	-10.8913
toisille	-10.8914
säädöksiä	-10.8916
kain	-10.8917
loista	-10.8922
vainio	-10.8923
surmasivat	-10.8947
kat	-10.8948
venhee	-10.8952
puun	-10.8957
vangi	-10.896
murhe	-10.8962
haava	-10.8966
kirjaa	-10.8968
lah	-10.8981
polttouhrin	-10.8992
vaipu	-10.8993
mus	-10.8995
majan	-10.8996
käsin	-10.9001
noudattaa	-10.9016
tein	-10.902
armoa	-10.9029
arki	-10.9044
asuva	-10.9045
vuodata	-10.907
ilmoittaa	-10.9071
laskeutui	-10.9078
lupa	-10.9084
aro	-10.9084
lepo	-10.9086
toisena	-10.909
baalin	-10.9095
suuni	-10.9119
kaunis	-10.913
teurasta	-10.9135
valtaistuime	-10.9141
gilgali	-10.915
kirjuri	-10.915
profeettoja	-10.915
simson	-10.915
puutarha	-10.915
valitsi	-10.915
ahasja	-10.915
pyhitetty	-10.9151
merari	-10.9151
ymmärrystä	-10.9152
kahdenkymmenen	-10.9153
peittää	-10.916
ulkopuolella	-10.9161
käsivarte	-10.9164
kaupungeista	-10.9165
ahab	-10.9167
perintömaa	-10.917
nouskaa	-10.9175
kuolemall	-10.9176
vääryyde	-10.9181
panee	-10.9191
pyytä	-10.9196
maljan	-10.9207
ttoma	-10.9213
vastustaja	-10.9222
panti	-10.9233
korvat	-10.924
ovet	-10.9247
pasunaa	-10.9248
pelastuksen	-10.9251
kasvaa	-10.9255
kauhistukse	-10.9255
muun	-10.9282
abner	-10.9283
uskoo	-10.9293
voimasta	-10.9299
gibeoni	-10.9305
hy	-10.9316
perintöosaa	-10.9348
luola	-10.9348
viholli	-10.935
nuore	-10.9357
silmäin	-10.9364
iso	-10.9368
samaa	-10.9368
käsissä	-10.9373
abram	-10.9381
tuomion	-10.9388
hoo	-10.9397
isältä	-10.94
heikko	-10.9403
uni	-10.9404
irti	-10.9405
julki	-10.9406
orjattare	-10.9406
talentti	-10.9406
jälkeläisistä	-10.9406
säästä	-10.9406
sortu	-10.9406
vihollisia	-10.9407
jesaja	-10.9407
toimitti	-10.9407
kirjanoppineet	-10.9408
maito	-10.9409
öljyllä	-10.9412
edelleen	-10.9413
sulke	-10.9413
alku	-10.9413
yllä	-10.9415
mainit	-10.942
kuta	-10.9427
voimaa	-10.9428
mooab	-10.9431
päiviä	-10.9432
rai	-10.9433
matkalla	-10.9439
matkalle	-10.9442
mittasi	-10.9451
ottaisi	-10.9455
kauas	-10.9456
kahta	-10.946
uuria	-10.9467
tuleen	-10.9476
miehistä	-10.9477
oina	-10.9483
leik	-10.9487
nimelle	-10.9493
kävisi	-10.9509
viljaa	-10.9512
kokona	-10.9538
riko	-10.9556
muoto	-10.9568
kirkkaute	-10.9585
kullall	-10.9585
keen	-10.9585
kal	-10.9587
ollessaan	-10.9587
mui	-10.959
rakas	-10.9591
omia	-10.9592
kaista	-10.9594
ojenna	-10.9595
kato	-10.9605
sivuvaimo	-10.9608
sula	-10.9609
edes	-10.9615
mennee	-10.9616
valtaistuimen	-10.9617
viiden	-10.962
kuulet	-10.9628
ryöstä	-10.9637
kol	-10.9643
öljypuu	-10.9646
elän	-10.9646
pöydä	-10.9652
usein	-10.9654
eloon	-10.9664
todistukse	-10.9664
riita	-10.9665
syrjä	-10.9669
vaatteita	-10.9669
viittä	-10.9669
puhutteli	-10.9669
verkko	-10.9669
leski	-10.9669
rukous	-10.9669
kahdentena	-10.9669
puettu	-10.9669
sorta	-10.9669
parhaa	-10.967
kuninkaita	-10.967
täysi	-10.967
vaippa	-10.967
vallassa	-10.967
katkera	-10.9671
tunnusta	-10.9672
pidett	-10.9673
pelasti	-10.9673
luut	-10.9679
korjaa	-10.9684
levittä	-10.9692
vuo	-10.9692
kaikkinaisi	-10.9692
suurest	-10.9696
siinai	-10.9697
palvelijaa	-10.9703
kutsutti	-10.9706
auttaa	-10.9713
luki	-10.9714
vartija	-10.9723
veljelle	-10.9728
ram	-10.9732
opetuslapsille	-10.9734
otsa	-10.9735
gibea	-10.9738
vaeltavat	-10.974
poikie	-10.9742
mässä	-10.9753
ikuise	-10.9757
valkeude	-10.9758
mielellä	-10.9764
rr	-10.9768
enkö	-10.9768
tielle	-10.9776
joille	-10.9781
toivon	-10.9784
karjaa	-10.9787
valli	-10.9796
pelastukse	-10.9801
seurakunna	-10.981
laitume	-10.9823
kaikkine	-10.9829
väisty	-10.983
äti	-10.9831
avuksi	-10.9853
niinä	-10.9856
kymmenennes	-10.988
alaisi	-10.9893
lintu	-10.9899
tuotta	-10.9901
verho	-10.9903
voittaa	-10.9906
semaja	-10.9909
istuivat	-10.9917
käden	-10.9937
puhdistu	-10.9938
tottele	-10.9938
hyljänn	-10.9939
nouta	-10.994
poikkea	-10.994
sekoitettu	-10.994
perustukse	-10.994
vaatteisiin	-10.994
kumarsi	-10.994
riivaaja	-10.994
heräjä	-10.994
pyhäkön	-10.994
asuinsija	-10.994
palmu	-10.994
köyhi	-10.994
hävitti	-10.9941
polku	-10.9941
kiittäkää	-10.9942
asera	-10.9942
hengestä	-10.9942
peitti	-10.9942
sido	-10.9942
kaunii	-10.9943
monin	-10.9944
kiveä	-10.9945
ssään	-10.9946
syökää	-10.9953
evankeliumin	-10.9955
pahuude	-10.9957
ell	-10.9966
armolli	-10.9966
kohotta	-10.9972
tehkö	-10.9973
aisia	-10.9977
aramilaise	-10.998
siion	-10.9981
nisu	-10.9982
kullan	-10.9983
seiri	-10.9985
kuluttaa	-10.9992
kirjassa	-11
kivet	-11.0003
tahdotte	-11.0015
vannoi	-11.0034
maaherra	-11.0036
aiko	-11.004
vieraa	-11.0048
simeoni	-11.0078
murha	-11.0085
syntivelka	-11.0087
teke	-11.0092
karjan	-11.0096
musta	-11.011
lie	-11.0115
saar	-11.0117
ilmaise	-11.0118
lline	-11.0128
päämiehiä	-11.0134
viinipuu	-11.0136
hoviherra	-11.0141
käyvä	-11.0143
ilaiset	-11.0143
koti	-11.0153
ristiinnaulit	-11.0153
polveutu	-11.0157
pel	-11.0163
näytä	-11.017
tapahtuva	-11.0183
leikkaa	-11.0189
ollessa	-11.02
syntien	-11.021
mullika	-11.0214
uppiniskai	-11.0217
viidentenä	-11.0217
kuorma	-11.0217
kiivaute	-11.0217
juoma	-11.0218
tervehti	-11.0218
perusta	-11.0218
herätti	-11.0218
suitsuke	-11.0218
ateria	-11.0218
näytti	-11.0219
kaup	-11.022
onnettomuutta	-11.022
eläinten	-11.022
mieltä	-11.0223
sarvi	-11.0223
vaino	-11.0224
kulkea	-11.0225
silmien	-11.0227
vaiti	-11.0227
kotka	-11.0232
hiskian	-11.0238
seurakunnalle	-11.0238
molempi	-11.0244
llisest	-11.025
riistä	-11.0253
vuorille	-11.0256
toimita	-11.0257
kielellä	-11.0265
selkään	-11.0268
murheellise	-11.0271
ahin	-11.0272
peljästyi	-11.0291
nukku	-11.0298
päämiesten	-11.0313
ryhtyi	-11.0314
käskyä	-11.0321
asseri	-11.0331
naha	-11.0334
oinast	-11.0336
oinaan	-11.0338
hun	-11.0341
abia	-11.0347
runsaast	-11.0349
jooaa	-11.035
itseni	-11.035
hoita	-11.0361
uskosta	-11.0375
palvelijain	-11.0376
tapaa	-11.0376
nuole	-11.0383
seet	-11.0387
uskossa	-11.0389
käänsi	-11.04
kohtasi	-11.0406
ikä	-11.0434
avio	-11.0439
amin	-11.0447
vitsa	-11.0449
kuivu	-11.0454
oksa	-11.0454
essään	-11.0465
kilpe	-11.0468
soo	-11.0474
opettaa	-11.0478
myi	-11.0479
milla	-11.0481
etelää	-11.0494
rutto	-11.0495
tyhji	-11.0503
vanhinten	-11.0503
1	-11.0503
2	-11.0503
3	-11.0503
pappeja	-11.0503
viitta	-11.0503
rangaistako	-11.0504
laupeutta	-11.0504
pyhäkköön	-11.0504
uskottoma	-11.0505
imin	-11.0505
aartee	-11.0505
sito	-11.0505
▁`?	-11.0505
hetki	-11.0506
kohdat	-11.0506
lisää	-11.0507
siemen	-11.0508
persia	-11.0511
lepää	-11.0517
ravitu	-11.0519
vuorilla	-11.0522
syömään	-11.0532
kauhistuksi	-11.0536
halaja	-11.0538
laaksossa	-11.0549
väärin	-11.0556
vaate	-11.0561
minne	-11.057
karitsan	-11.0573
kukista	-11.0582
suoja	-11.0584
laissa	-11.0604
turha	-11.0606
ruubeni	-11.0611
vainaja	-11.0618
näkisi	-11.063
tarkkaa	-11.0639
iitetty	-11.0639
esille	-11.0642
paimene	-11.0649
henkiin	-11.0655
tuottaa	-11.0659
kkiä	-11.0666
asetan	-11.0668
sel	-11.0671
täydellise	-11.0672
alueen	-11.0676
oilla	-11.0683
sanoma	-11.0692
teemme	-11.0692
annetu	-11.0698
nostaa	-11.0709
ruumis	-11.071
hamati	-11.0726
maasi	-11.0728
lisäänty	-11.0734
llista	-11.0736
uhrikukkula	-11.0741
vasten	-11.077
kädet	-11.077
pako	-11.0786
heilut	-11.0787
du	-11.0793
rikas	-11.0794
sang	-11.0797
beerseba	-11.0797
kuningatar	-11.0797
pyörä	-11.0797
rohkea	-11.0797
säädetty	-11.0797
hilkia	-11.0797
puhalta	-11.0797
kahdeksantena	-11.0797
jalopeura	-11.0797
puvu	-11.0797
kohdalle	-11.0798
häviä	-11.0798
lasta	-11.0798
ilmi	-11.0798
muisti	-11.0801
maista	-11.0802
todistuksen	-11.0803
hakkaa	-11.0803
huono	-11.0803
mukaise	-11.0804
säkki	-11.0805
bileam	-11.0805
leske	-11.0816
saavutta	-11.0819
kaltaista	-11.0819
koorahi	-11.082
kuolisi	-11.0836
utui	-11.0838
oissa	-11.0838
uista	-11.0838
kanaanilaise	-11.0845
taakse	-11.0846
julisti	-11.0856
ammo	-11.0866
pitävä	-11.0876
voimassa	-11.0881
ruubenilais	-11.0886
asetet	-11.0905
jumalat	-11.091
mai	-11.0914
raunio	-11.0916
viinin	-11.0917
antakoo	-11.092
tyy	-11.0925
paimen	-11.0927
lahjan	-11.0943
muka	-11.0954
avan	-11.0955
lähestyi	-11.0957
kulle	-11.0957
leea	-11.0957
voimalli	-11.0961
lohdutta	-11.0969
suojaa	-11.0972
luul	-11.0972
perä	-11.0973
laiva	-11.0977
asukast	-11.098
palvella	-11.0981
vaimot	-11.0982
kanna	-11.0995
esti	-11.0999
kuolleit	-11.1029
saaliin	-11.104
synagooga	-11.1043
käyttä	-11.1046
tarpee	-11.105
liitty	-11.1051
pysyvä	-11.1056
aasin	-11.106
valan	-11.1068
erää	-11.107
väkeä	-11.108
kseksi	-11.1082
mahtava	-11.1085
olisin	-11.1087
hedelmi	-11.1095
orjantappura	-11.11
säädös	-11.11
vanhimmi	-11.11
ihmetteli	-11.11
kymmenykse	-11.11
liikku	-11.11
pimeys	-11.11
portto	-11.11
vuonna	-11.11
joohanan	-11.11
kotona	-11.1101
vuodatti	-11.1101
riensi	-11.1101
koriste	-11.1101
elinaika	-11.1105
kuritus	-11.1105
valmisti	-11.1105
härän	-11.1105
syötävä	-11.1106
vuoti	-11.1106
kirjoitus	-11.1114
korkeasti	-11.1115
ympärileikkaamat	-11.1116
vangit	-11.1117
rikkonut	-11.112
rällä	-11.1125
nous	-11.1125
kahdeksankymmen	-11.1134
unen	-11.1136
joonatani	-11.1145
juokse	-11.1157
unta	-11.1158
tulle	-11.1169
neuvon	-11.1169
tietoa	-11.1173
tänään	-11.1177
puolta	-11.1179
katsell	-11.1181
huoli	-11.1195
vihollisen	-11.1202
valtakunnassa	-11.1208
osakse	-11.1209
otin	-11.121
pahoin	-11.1248
oja	-11.1251
vanki	-11.1258
sisar	-11.1262
mman	-11.1263
varas	-11.1264
oon	-11.1268
päällyst	-11.1276
valall	-11.1281
isaskari	-11.1284
soda	-11.1302
mana	-11.1302
kaldea	-11.1308
viimeise	-11.1327
asettaa	-11.1337
gati	-11.1338
väsy	-11.1339
egyptiläist	-11.1344
ossa	-11.1345
uskoa	-11.135
lähtenee	-11.1355
saamme	-11.1367
surmat	-11.1371
painon	-11.1374
isäntä	-11.1379
saarna	-11.1381
suusi	-11.1385
vihi	-11.1385
kostan	-11.1386
eni	-11.1387
tehköö	-11.1392
palvelijan	-11.1407
säädökse	-11.1413
ehtoo	-11.1413
häpäise	-11.1413
murehti	-11.1413
oobed	-11.1413
puhalsi	-11.1413
pystytti	-11.1413
gedalja	-11.1413
korkeimma	-11.1413
valittu	-11.1413
kielsi	-11.1413
nälänhätä	-11.1413
pituus	-11.1413
länteen	-11.1413
punnit	-11.1413
voidellu	-11.1413
lähimmäistä	-11.1413
hävitetä	-11.1413
rikkaa	-11.1413
kuohu	-11.1413
sotaurho	-11.1413
sidottu	-11.1414
sulje	-11.1415
jooas	-11.1416
aasan	-11.1416
toveri	-11.1418
utti	-11.142
raunioiksi	-11.1421
saattoi	-11.1421
vuorelta	-11.1424
sanova	-11.1424
pyhitä	-11.1427
miehestä	-11.1427
temppelistä	-11.1428
mert	-11.1429
ihmisille	-11.143
hajota	-11.1431
vaipa	-11.1433
ylä	-11.1433
laji	-11.1436
vieressä	-11.1443
neljäs	-11.1453
puhtaaksi	-11.1464
tytärtä	-11.1466
pylvää	-11.1472
seura	-11.1477
lampun	-11.1482
ensiksi	-11.1484
tappaja	-11.1492
yttä	-11.1497
tehdäkse	-11.15
pelastus	-11.1513
sotarin	-11.1513
peitä	-11.1514
muukalaisen	-11.1515
varasta	-11.1518
gaadilais	-11.1521
kaula	-11.1524
saastaisuu	-11.1533
näen	-11.1541
too	-11.1543
tähdet	-11.1555
ikuisi	-11.1555
tuaan	-11.156
kiro	-11.1562
llainen	-11.1571
huutaa	-11.1572
jisreeli	-11.1573
ikeen	-11.1581
näy	-11.1581
issaan	-11.1587
mal	-11.1605
detta	-11.1605
voimallise	-11.1613
käsken	-11.1614
äitiä	-11.1619
täytä	-11.1624
jakoi	-11.1626
saakoo	-11.1627
tetään	-11.1631
murhee	-11.1644
ruut	-11.1653
soitta	-11.1672
lyön	-11.1676
kehoita	-11.1684
raama	-11.1688
booa	-11.1696
kiis	-11.1715
syvä	-11.1715
peittä	-11.1718
asiaa	-11.1722
efraimi	-11.1725
kukkuloi	-11.1725
bileami	-11.1727
neitsye	-11.1735
leveys	-11.1735
herodes	-11.1735
vikauhri	-11.1735
sukukuntien	-11.1735
kohosi	-11.1736
toimeen	-11.1736
kaikkivaltias	-11.1738
puhetta	-11.174
pankaa	-11.1741
veisatkaa	-11.1742
syödäkse	-11.1744
tuomitsee	-11.1754
ovenvartija	-11.1757
teetti	-11.176
oikeute	-11.1762
lähelle	-11.1765
huolen	-11.177
kohdann	-11.1772
karkoita	-11.1772
etiopia	-11.1775
kymmene	-11.1776
kuljet	-11.1785
ottako	-11.1789
levat	-11.1789
pitki	-11.1791
llisen	-11.1791
surmattu	-11.1794
viettä	-11.1795
lampaan	-11.1798
hyväkse	-11.181
kappalee	-11.1812
oikeuksia	-11.1816
libanonin	-11.1826
näkijä	-11.1852
oikeassa	-11.1877
dessa	-11.1918
punasinisi	-11.1938
aluee	-11.1939
taneet	-11.195
pahoi	-11.1959
vaimoja	-11.1966
levo	-11.1968
palatsi	-11.1996
suitsutus	-11.1998
talosta	-11.2011
rinna	-11.2028
tila	-11.2029
kuolemaa	-11.2029
ismael	-11.2046
esra	-11.2054
syntisi	-11.2063
hauda	-11.2064
kohdusta	-11.2065
lango	-11.2067
jäännökse	-11.2069
keisari	-11.2069
riivaaji	-11.2069
ahdistus	-11.2069
lohdutukse	-11.2069
nuhteli	-11.2069
rakkautta	-11.2069
valloitta	-11.2069
yhtenä	-11.2069
jefta	-11.2069
repäisi	-11.2069
kiertä	-11.2069
riippu	-11.2069
turhi	-11.2069
maakunna	-11.2069
kansakunna	-11.2069
huorin	-11.2069
hesboni	-11.2069
putosi	-11.207
liitonarkki	-11.2071
hyötyä	-11.2072
pikkukarja	-11.2074
korotti	-11.2075
neba	-11.2075
hengellä	-11.2075
suora	-11.2078
▁)	-11.208
hävitettä	-11.208
vertaista	-11.2082
viinistä	-11.2083
rikkaude	-11.2086
ussia	-11.2095
ylisti	-11.2098
palata	-11.21
kylli	-11.21
päähä	-11.2103
hevosi	-11.2106
opi	-11.2109
seurakuntaa	-11.2111
herjaa	-11.2115
valheen	-11.2117
vallitse	-11.2118
taitava	-11.2121
virrat	-11.2123
kirjeen	-11.2126
vasto	-11.214
erikse	-11.2149
pitäisi	-11.2152
paikalle	-11.2154
kuri	-11.2157
halle	-11.2177
runsaa	-11.2181
rikkoo	-11.2182
omassa	-11.2183
pii	-11.2184
asiassa	-11.2189
tyköä	-11.219
puimatanteree	-11.2199
joona	-11.2199
hanki	-11.2202
pöytä	-11.2207
murska	-11.2217
katsoi	-11.2217
karva	-11.2232
rahan	-11.2232
ulottu	-11.2253
kaitse	-11.2257
hallit	-11.2266
hätä	-11.2267
käteen	-11.2271
olit	-11.2271
llisia	-11.2272
loot	-11.2276
sydämee	-11.2277
nälkään	-11.2277
jumal	-11.2289
tuomita	-11.2293
ruokauhrin	-11.2317
yhty	-11.2319
palan	-11.2321
kulma	-11.2321
sytty	-11.2332
villa	-11.2338
jooram	-11.2339
palvelus	-11.2346
syökse	-11.2364
puku	-11.2372
aikoja	-11.238
pien	-11.2382
asukkait	-11.2383
maanpiirin	-11.2387
äidin	-11.24
istutta	-11.2409
elämään	-11.241
ikkuna	-11.2414
laittoi	-11.2414
paljaa	-11.2414
siive	-11.2414
tehdy	-11.2414
sukupolvi	-11.2414
vuorten	-11.2414
nimittäi	-11.2415
kummall	-11.2415
amnon	-11.2415
vuoto	-11.2415
kiellä	-11.2415
pellavalang	-11.2415
levitti	-11.2415
hananja	-11.2416
polttouhria	-11.2416
kaduilla	-11.2416
kannettava	-11.2417
taulu	-11.2417
siihoni	-11.2419
seisovan	-11.242
asunno	-11.242
iloite	-11.2421
linnassa	-11.2422
poissa	-11.2422
takana	-11.2424
sapatin	-11.2427
näyttää	-11.2433
maihin	-11.2434
käykää	-11.2434
keitä	-11.2434
tunsi	-11.244
eleasari	-11.2448
taivasta	-11.245
kaukaise	-11.2453
eläin	-11.2455
kuninkaallise	-11.246
profeetan	-11.2467
häpeän	-11.2471
vere	-11.2477
iseksi	-11.2484
siunauksen	-11.2485
hdu	-11.2486
paimenta	-11.2492
kki	-11.2495
sisäpuolell	-11.2498
heettiläis	-11.2498
auttaja	-11.2501
tekoje	-11.2504
telee	-11.2512
sattu	-11.2513
puuta	-11.2523
polu	-11.2526
täyttää	-11.2529
kori	-11.2536
tytärkaupung	-11.2537
ilmoitett	-11.254
aahas	-11.2541
pettä	-11.2546
jumalankuva	-11.2546
,	-11.2546
vapautta	-11.2554
päästää	-11.2556
ulko	-11.2559
kil	-11.2572
oksen	-11.2576
päät	-11.2587
vaivan	-11.2588
syyllise	-11.2589
luovu	-11.2595
kiiva	-11.2599
pese	-11.2621
käsiä	-11.2626
virra	-11.2633
oikeude	-11.2645
dessä	-11.2653
polttakoo	-11.2662
mieka	-11.2698
toimittako	-11.2707
keit	-11.2708
kohoa	-11.2717
loo	-11.2718
perintö	-11.2723
rah	-11.2729
viinitarhan	-11.273
ihmeelli	-11.2731
ääree	-11.2735
elät	-11.2737
suloi	-11.2739
leiriyty	-11.2741
kerskaa	-11.2748
turhuut	-11.2748
kuulkoo	-11.2752
yhdeks	-11.2755
väke	-11.2763
saarnaa	-11.2765
seitsemäs	-11.2768
pur	-11.277
rakkaute	-11.2771
ylpeä	-11.2771
hyökkäsi	-11.2771
poikine	-11.2771
tervehdys	-11.2771
teurasti	-11.2771
äidille	-11.2771
jeesua	-11.2771
viivy	-11.2771
aasintamma	-11.2771
baesa	-11.2771
paransi	-11.2771
puhtai	-11.2772
tuule	-11.2772
mietti	-11.2772
hopeasekeli	-11.2773
antautu	-11.2773
joutunut	-11.2774
varasto	-11.2777
ylistän	-11.2778
hampaa	-11.2778
joutuneet	-11.2782
leirissä	-11.2788
alueelle	-11.2793
oita	-11.2793
riisu	-11.2802
tartu	-11.2803
tahra	-11.2805
totuudessa	-11.2807
ulkona	-11.2814
pasunan	-11.2815
paino	-11.2832
ydy	-11.2835
pahuute	-11.2836
parta	-11.2837
vuoristossa	-11.2838
setri	-11.284
kir	-11.2847
sateen	-11.2852
eksi	-11.2857
rahaa	-11.2866
kaksikymmenvuoti	-11.2871
suuremma	-11.2872
totuu	-11.2872
ovell	-11.2877
kallis	-11.2881
uudestaan	-11.2882
saadoki	-11.2884
kuritta	-11.2884
valitu	-11.2895
menette	-11.2896
puna	-11.2907
hengelli	-11.2911
kuuntele	-11.2912
jumalaan	-11.2919
erotta	-11.2921
jesi	-11.2922
juudas	-11.2927
vapau	-11.2929
tietäisi	-11.2932
kohtu	-11.2934
pahasta	-11.2935
pietarin	-11.2946
siirty	-11.2948
maksaa	-11.295
tempaa	-11.2955
itsestän	-11.297
hallitus	-11.2976
joosafati	-11.2981
saatan	-11.2981
annetta	-11.2987
seuran	-11.2988
veisaa	-11.2989
armosta	-11.2998
ikui	-11.3
kostaa	-11.3007
mieleen	-11.3007
suuta	-11.3009
elossa	-11.3012
hajotta	-11.3014
purppuranpunaisi	-11.3016
liittoa	-11.3023
saadok	-11.3025
kameli	-11.3031
pukeutu	-11.3035
raakel	-11.3037
teitte	-11.3038
jalkoje	-11.3047
tää	-11.306
kerä	-11.3062
eläime	-11.3085
paho	-11.3085
hedelmät	-11.309
seurat	-11.3111
siemene	-11.3125
lukumäärän	-11.313
niska	-11.3136
pojista	-11.314
ohja	-11.3141
juhli	-11.3141
näöltä	-11.3141
perinnöks	-11.3141
aivoitukse	-11.3141
kuivettu	-11.3141
leiviskä	-11.3141
makedonia	-11.3141
nuhteeton	-11.3141
synneistä	-11.3141
vankeude	-11.3141
ymmärsi	-11.3141
kasukan	-11.3141
keihää	-11.3141
palvelkaa	-11.3141
päätökse	-11.3141
virheetön	-11.3141
iloitkaa	-11.3141
laupia	-11.3141
selässä	-11.3141
opetuslasten	-11.3141
silmin	-11.3141
kahtakymmentä	-11.3141
hävitys	-11.3142
torvi	-11.3142
palvelijoiks	-11.3143
selittä	-11.3144
vapahtaja	-11.3145
rakkaudessa	-11.3146
edustalle	-11.3146
kumo	-11.3147
jano	-11.3148
veti	-11.315
kymmenes	-11.315
sut	-11.315
harha	-11.3151
voitele	-11.3151
muodo	-11.3152
naista	-11.3153
käskyjen	-11.3156
kuolla	-11.3157
pisti	-11.3162
ankara	-11.3166
ismaeli	-11.3167
kakku	-11.3168
valke	-11.317
uhrilahjana	-11.3171
sar	-11.3183
laakson	-11.3188
nöyrty	-11.3191
rikoksen	-11.3191
ammonilaise	-11.3193
nuoli	-11.3197
omalla	-11.3199
turmion	-11.3202
saba	-11.3209
hiin	-11.321
vaunut	-11.3218
viekää	-11.322
mielisuosio	-11.3228
yöksi	-11.323
jalkojen	-11.3236
iloa	-11.3239
raava	-11.3242
säily	-11.3243
päivi	-11.3246
käärme	-11.3249
arpaa	-11.3252
vanhurskaudessa	-11.326
koston	-11.3262
daan	-11.3265
levät	-11.3266
tellut	-11.3299
ammonilaisi	-11.3303
pohjois	-11.3304
uuri	-11.3311
poikaansa	-11.3321
antaakse	-11.3342
autioi	-11.3346
adonia	-11.3367
rahat	-11.3367
päivien	-11.3372
oogi	-11.3373
mällä	-11.3381
hoitaja	-11.3395
täyde	-11.3395
ryhty	-11.3396
terve	-11.3401
voivat	-11.3409
julistan	-11.3419
johdatta	-11.3419
pelastan	-11.3421
tuhanne	-11.3425
laste	-11.3428
vaimolle	-11.3431
kyynel	-11.3436
uudesta	-11.3437
teurastet	-11.3446
viimei	-11.3447
ihme	-11.3454
katsee	-11.3458
ohi	-11.346
ahia	-11.3474
korkeu	-11.3475
auko	-11.3484
semmoi	-11.3485
pitkän	-11.3488
menkö	-11.3505
mitan	-11.3511
leili	-11.3513
pilve	-11.3521
olenko	-11.3525
akasiapuu	-11.3526
askelee	-11.3526
neitsyt	-11.3526
kapinoi	-11.3526
kykene	-11.3526
langet	-11.3526
viides	-11.3526
ikiajoi	-11.3526
siirtä	-11.3526
benhadad	-11.3526
särje	-11.3526
askare	-11.3526
raato	-11.3526
yhdestä	-11.3527
seruja	-11.3527
poltetta	-11.3527
jootam	-11.3527
karkoitti	-11.3528
lammasten	-11.3529
jousi	-11.3529
huonetta	-11.353
jumalille	-11.353
poimi	-11.3532
hopean	-11.3533
auk	-11.3533
laita	-11.3534
nuhde	-11.3534
kirjoitukse	-11.3534
voiteli	-11.3538
piiri	-11.3539
jäsen	-11.3545
uudella	-11.3547
hurska	-11.3555
joo	-11.3566
häväistykse	-11.3574
helakanpunaisi	-11.3575
toon	-11.3577
vitsaus	-11.3579
tuna	-11.3584
virittä	-11.3585
äältä	-11.3587
ruto	-11.359
aseti	-11.3592
uhrikukkulat	-11.3602
isästä	-11.3606
lliset	-11.3607
joen	-11.361
lupaus	-11.3616
rinta	-11.3619
kuultua	-11.3623
hovi	-11.3624
noomi	-11.3628
▁(	-11.363
suvulle	-11.3641
hautasi	-11.3645
egyptiläisi	-11.3657
raavast	-11.3659
murskaa	-11.3677
pelkäävä	-11.3679
noja	-11.3679
esikois	-11.368
kaltaisia	-11.369
karkoit	-11.3701
toimittakoo	-11.3704
petolli	-11.3726
kappale	-11.3736
abimeleki	-11.3747
setripuu	-11.3749
hämmästyi	-11.3755
polttaa	-11.3764
avulla	-11.3766
juhlan	-11.3766
kuolleen	-11.379
lampaa	-11.3793
mie	-11.3795
lke	-11.3805
maailmaa	-11.3809
ampu	-11.3817
reuna	-11.3818
tuha	-11.3826
viipy	-11.3829
johdat	-11.3833
pääni	-11.3849
joojakimi	-11.3849
kirjee	-11.3852
miekkaa	-11.3869
pesi	-11.3873
sorme	-11.3879
vina	-11.388
tuoksuva	-11.3881
kansain	-11.3888
toimi	-11.3904
suitsu	-11.3905
profeetoi	-11.3905
voitto	-11.3913
kuudes	-11.3914
näänty	-11.3915
iske	-11.3923
sade	-11.3923
aabel	-11.3925
kirjakäärö	-11.3926
mesullam	-11.3926
pauhina	-11.3926
puhkesi	-11.3926
ratsasta	-11.3926
taisteli	-11.3926
huipu	-11.3926
korkein	-11.3926
kalusto	-11.3926
sytyttä	-11.3926
putoa	-11.3926
kiitokse	-11.3926
karkelo	-11.3926
parantu	-11.3926
sinetti	-11.3926
siipe	-11.3926
kelpaa	-11.3926
lännen	-11.3926
raavaita	-11.3927
ryhdy	-11.3927
linnoitt	-11.3927
piiritti	-11.3927
koettele	-11.3927
totuutta	-11.3928
pätsi	-11.3928
kosketti	-11.3928
varustukse	-11.3929
tiettävä	-11.3931
refa	-11.3931
järkky	-11.3937
aahaa	-11.3937
virkaan	-11.3938
rukoilee	-11.3955
ahdistuksessa	-11.3956
käskystä	-11.3956
palkan	-11.3959
ylhääl	-11.3962
bat	-11.3965
ostet	-11.3972
vaimokse	-11.3978
kärsiä	-11.398
vastata	-11.3982
neeri	-11.3984
kallii	-11.3986
kokous	-11.4
onnettomuute	-11.4002
voisin	-11.4002
hyljät	-11.4015
välille	-11.4018
julistaa	-11.402
tuomarin	-11.4028
matkaan	-11.4073
surmannu	-11.4101
melek	-11.4106
vamma	-11.4114
ajalla	-11.4118
hurskaa	-11.4126
itku	-11.4133
halki	-11.4134
perhe	-11.4137
autuaa	-11.4146
danieli	-11.4151
iski	-11.4163
nousta	-11.4171
tunnetu	-11.4171
rivi	-11.4172
kuuden	-11.4174
perintöosan	-11.4175
vahvistu	-11.4177
saava	-11.421
sanomme	-11.4212
ppa	-11.4221
toiste	-11.4226
käärmee	-11.4231
gassa	-11.4234
vääryy	-11.4235
kerta	-11.424
palvelle	-11.4248
kuulisi	-11.4265
puheen	-11.4269
härki	-11.4272
palkkaa	-11.4276
ylpey	-11.4286
täydelli	-11.4286
asut	-11.4298
jumalattomuu	-11.43
hunaja	-11.4305
ympärileikat	-11.4306
eläisi	-11.4311
saapu	-11.4317
anoi	-11.4325
tavaraa	-11.4334
libanoni	-11.4334
muutta	-11.4337
varrella	-11.4342
hurmoksi	-11.4342
orjantappuroi	-11.4342
kuukautena	-11.4342
pystyssä	-11.4342
timoteu	-11.4342
todisti	-11.4342
turmele	-11.4342
ruoko	-11.4342
piineha	-11.4342
valio	-11.4342
siunaus	-11.4342
lehmä	-11.4343
kaurii	-11.4343
hävinn	-11.4343
vuoro	-11.4343
sovitus	-11.4343
kantelei	-11.4343
vakoilema	-11.4343
valetu	-11.4343
raamoti	-11.4344
palautta	-11.4344
nuhtele	-11.4344
seitsemää	-11.4345
synnistä	-11.4345
abisai	-11.4346
turvallise	-11.4346
miniä	-11.4346
jalusta	-11.4347
appe	-11.4347
siementä	-11.4348
sebu	-11.4348
pimeydessä	-11.4349
tähti	-11.4351
terveeksi	-11.4352
nuoruudesta	-11.4353
mitkä	-11.4353
aikoina	-11.4353
runsaude	-11.4354
sisältä	-11.436
mielestä	-11.436
raukea	-11.4361
puhuessaan	-11.4363
sopi	-11.4366
synnit	-11.4373
salaisuude	-11.4376
pistä	-11.4384
mettä	-11.4392
synnyttää	-11.4392
sanottu	-11.4397
perässä	-11.4403
virtaa	-11.441
kuljetti	-11.4415
pääsisi	-11.4421
paikasta	-11.4422
poistu	-11.4428
paikalla	-11.4436
jok	-11.4446
vetä	-11.4452
sellaisi	-11.4454
tuonelaa	-11.4457
vereen	-11.4461
salaliito	-11.4468
pysyvät	-11.4468
juopu	-11.4474
vesa	-11.4474
kaivon	-11.4477
rakastan	-11.4497
tettävä	-11.4504
levit	-11.4512
hämmästy	-11.4523
orin	-11.4526
kunnioita	-11.4526
ratsu	-11.4531
kylä	-11.4536
suuhun	-11.4538
valkea	-11.4539
abneri	-11.4547
uhratkoo	-11.4548
alue	-11.4555
pasun	-11.4556
kes	-11.4557
alaise	-11.4564
veisaaja	-11.4565
köy	-11.4575
väärää	-11.4575
kur	-11.4575
esine	-11.4575
viero	-11.4586
pit	-11.4596
sairaa	-11.4598
pidättä	-11.4598
noita	-11.4605
palvell	-11.4607
kyn	-11.461
ilmais	-11.4622
kaulaa	-11.4624
suosio	-11.4626
miehi	-11.4644
viisait	-11.4655
kiitos	-11.4659
uotiin	-11.4665
oppia	-11.4679
sitoi	-11.4682
tahol	-11.4689
häpy	-11.47
torni	-11.4713
syvyy	-11.4715
ttaman	-11.4718
pil	-11.4724
ojen	-11.4725
asuvais	-11.4729
rake	-11.4732
koira	-11.4745
ympäröi	-11.4746
menemä	-11.4748
entise	-11.4752
kyyhky	-11.4754
kohdalta	-11.4755
todistus	-11.4755
pakanoi	-11.4757
vietä	-11.4759
äressä	-11.4762
asee	-11.4763
seitsemänne	-11.4772
toteutu	-11.4772
jyvä	-11.4775
gomorra	-11.4777
happamattoman	-11.4777
jäännös	-11.4777
korennot	-11.4777
omaisuuten	-11.4777
osoitti	-11.4777
perissiläis	-11.4777
päässeet	-11.4777
ruoski	-11.4777
ryösti	-11.4777
saafani	-11.4777
5	-11.4777
8	-11.4777
hiiram	-11.4777
kahteen	-11.4777
sanansaattaji	-11.4777
ylösnousemukse	-11.4777
alamaise	-11.4777
hirsi	-11.4777
koski	-11.4777
neuvosto	-11.4777
silmiä	-11.4777
syyttömä	-11.4777
makea	-11.4778
aartei	-11.4778
kenellä	-11.4778
naema	-11.4778
sotaväen	-11.4778
armoistuime	-11.4778
huolt	-11.4778
oleskeli	-11.4779
tytö	-11.4779
odotti	-11.4779
vaikea	-11.478
verellä	-11.4781
kadotukse	-11.4781
pidot	-11.4781
pienet	-11.4783
toisiin	-11.4783
kyyhkysen	-11.4786
pojasta	-11.4786
johti	-11.4786
orpo	-11.4787
maaseja	-11.4788
opetukse	-11.4789
seisoo	-11.4789
kukkuloilla	-11.479
väkevyyte	-11.4791
hevo	-11.4791
lauda	-11.4792
kohtalon	-11.4793
syntyneet	-11.4794
pelastuisi	-11.4795
tekemä	-11.48
jokapäiväi	-11.48
kaiketi	-11.4802
matkaa	-11.4809
katselmus	-11.4816
linnaan	-11.4818
porton	-11.482
armahtaa	-11.4826
jumalassa	-11.4832
kodissa	-11.4832
kuulutta	-11.4833
tuho	-11.4835
polta	-11.4841
rikkomus	-11.4843
kohoaa	-11.4844
valtaistuimelle	-11.4847
lyödä	-11.4852
juutalai	-11.4858
eteise	-11.4863
parannukse	-11.487
palvelukse	-11.4877
leikat	-11.4878
orjuu	-11.488
kukkulat	-11.4884
etsii	-11.4898
lussa	-11.4907
neljään	-11.4907
sielua	-11.4913
tunnet	-11.4914
lakkaa	-11.4924
ruuben	-11.4926
jolta	-11.4933
armossa	-11.4934
uudessa	-11.4937
minkään	-11.4944
jotta	-11.495
nais	-11.4959
kaupunkien	-11.4959
vaellat	-11.4974
kana	-11.4976
sanoman	-11.4978
vaimojen	-11.4979
hauta	-11.498
reväis	-11.4983
vihaan	-11.5013
merkitse	-11.5015
luotasi	-11.5022
pitkämieli	-11.5031
omaisuude	-11.5033
poisti	-11.5035
nimien	-11.504
äkist	-11.5044
kut	-11.5044
pilvet	-11.5055
tasango	-11.5063
lakkaamat	-11.508
vartijat	-11.5083
vanhan	-11.5086
taessa	-11.5088
joukkoa	-11.5093
kyynärä	-11.5099
anneta	-11.51
jälkeläi	-11.5103
leikkaamattomi	-11.5116
lammasta	-11.512
loistaa	-11.5121
voida	-11.5156
majaan	-11.5175
suulla	-11.5182
vanhurska	-11.5182
salaisuu	-11.5196
olenno	-11.5226
pyrki	-11.523
istuime	-11.523
kuukausi	-11.5232
pakanakansoj	-11.5232
perhekuntien	-11.5232
vihoitta	-11.5232
ahdisti	-11.5232
asdodi	-11.5232
geba	-11.5232
hävitetty	-11.5232
kerskaukse	-11.5232
lohikäärme	-11.5232
perustus	-11.5232
meedia	-11.5232
lammiko	-11.5232
pyhäköstä	-11.5232
hävitykse	-11.5232
rukouksi	-11.5232
naura	-11.5232
hyvänhajuis	-11.5232
lukuisa	-11.5232
suuteli	-11.5232
hiilipannu	-11.5232
toisella	-11.5232
varustetu	-11.5232
vihitty	-11.5232
väärintekijä	-11.5232
suusani	-11.5232
ennusti	-11.5233
kilve	-11.5233
siisera	-11.5233
lähetin	-11.5233
fariseusten	-11.5233
heiko	-11.5234
hädässä	-11.5235
vikapää	-11.5235
uskoton	-11.5236
määrätty	-11.5236
vastauksen	-11.5236
kiivastukse	-11.5238
rabba	-11.5238
syöt	-11.5238
suoritta	-11.5238
kahdeksantoista	-11.5239
amasa	-11.524
kahdesta	-11.5243
työhön	-11.5244
uhratkaa	-11.5245
painu	-11.5246
kunnioitta	-11.5248
vanhemmat	-11.5249
rakkauden	-11.525
etsikää	-11.5251
kaislamere	-11.5256
katkais	-11.5259
sielusta	-11.5261
täytyi	-11.5265
ahasverokse	-11.5268
orvo	-11.5271
hakat	-11.5272
puolusta	-11.5272
nälän	-11.5275
välittä	-11.5278
perilli	-11.5278
abrami	-11.5278
majassa	-11.5278
aiot	-11.5281
piirittä	-11.5283
työssä	-11.5284
kuninkuude	-11.5286
vanhempia	-11.5287
hanna	-11.529
kätki	-11.5291
menehty	-11.5295
kaaleb	-11.5297
puuhun	-11.5309
perkele	-11.5316
paastoa	-11.5318
ääneni	-11.5322
määräsi	-11.5323
polvi	-11.5323
joorami	-11.5331
luopui	-11.5333
viskaa	-11.5334
sotaa	-11.5344
syököö	-11.5346
yhtyi	-11.5352
kalliolle	-11.5359
pilkkaaja	-11.5364
elo	-11.5369
rikos	-11.537
puuttu	-11.5374
raakeli	-11.5381
lunastaa	-11.5385
repi	-11.5385
herät	-11.5386
arvolli	-11.5389
tunnustekoja	-11.5392
etuksi	-11.5398
tuotte	-11.5399
laskekoo	-11.5406
raavaa	-11.541
läisten	-11.5415
sairaan	-11.5423
vuote	-11.5425
assur	-11.5431
selkä	-11.5437
tyhjän	-11.5441
puki	-11.5442
verso	-11.5448
otetu	-11.5452
yöt	-11.5453
saattaisi	-11.5457
benjaminilaise	-11.5459
hävittäjä	-11.5471
tulkoo	-11.5485
vakaa	-11.5495
suuhu	-11.5497
äärii	-11.5509
kumpi	-11.5517
vihmo	-11.5518
ellen	-11.5523
peljättä	-11.5527
ben	-11.5528
tili	-11.5528
istuta	-11.5542
rooma	-11.5546
eela	-11.5556
amorilaise	-11.5571
eelami	-11.558
kulutta	-11.5585
mennäkse	-11.5598
viisaan	-11.56
ahdistukse	-11.5605
juhlaa	-11.5608
pito	-11.5613
leijonan	-11.5623
asettakoo	-11.5632
benjamin	-11.5634
suur	-11.5634
muukalaist	-11.5635
mätön	-11.564
kaikkinaist	-11.5652
enkelien	-11.5656
toimittaa	-11.5666
aromaa	-11.5685
atin	-11.5688
johdo	-11.5698
verra	-11.5703
ymmärrys	-11.5704
hädä	-11.5705
puhdistet	-11.5706
esirip	-11.5707
neuvonantaja	-11.5708
vartiosto	-11.5708
voiteluöljy	-11.5708
efeso	-11.5708
filippus	-11.5708
kadonnut	-11.5708
kumarra	-11.5708
mentävä	-11.5708
ravinno	-11.5708
tiedustel	-11.5708
ylistykse	-11.5708
0	-11.5708
kamele	-11.5708
kyllästy	-11.5708
nuoruute	-11.5708
ohra	-11.5708
hajaantu	-11.5708
huilu	-11.5708
jaabekse	-11.5708
talteen	-11.5708
kyen	-11.5708
enkelei	-11.5708
leeviläinen	-11.5708
timna	-11.5708
vihollisista	-11.5708
vapisi	-11.5708
tunnusteo	-11.5708
toisessa	-11.5708
laakii	-11.5709
lentävä	-11.5709
palatkaa	-11.5709
elkana	-11.5709
sotapäällikö	-11.5709
sukukunnista	-11.5709
vuohi	-11.571
sotapäällikkö	-11.571
kiitti	-11.5712
haju	-11.5712
näyssä	-11.5712
puhuttele	-11.5713
vaivannäkö	-11.5715
oltu	-11.5717
siunann	-11.5718
kutsuttu	-11.5718
tietääkse	-11.5722
eliab	-11.5725
ylistett	-11.5725
missa	-11.5726
rangaistus	-11.5727
välitä	-11.5728
yksinkertai	-11.5741
riida	-11.5742
kurita	-11.5745
kirkasta	-11.5745
kaunista	-11.5747
jääköö	-11.5748
mukaa	-11.5754
haureudessa	-11.5755
kerrat	-11.5761
sovi	-11.5764
tuke	-11.5777
pysähtyi	-11.5777
orjuude	-11.5778
ylenpalttise	-11.5785
samma	-11.5794
häpyä	-11.5794
voittoa	-11.5794
tuhosi	-11.5794
miehine	-11.5798
seurassa	-11.5799
amalekilaise	-11.5802
täkää	-11.5807
auttoi	-11.5811
jooel	-11.5815
pysyi	-11.5822
lauta	-11.5822
viipyi	-11.5825
kirous	-11.5825
asutte	-11.5828
hää	-11.5828
vapaaehtoise	-11.583
siunatkoo	-11.5835
lev	-11.5837
virheettömä	-11.5839
rikastu	-11.5842
vasti	-11.5843
onnea	-11.5844
setripui	-11.5845
kaiva	-11.5848
elivät	-11.5854
kuolemasta	-11.5857
korjat	-11.5867
vanhurskait	-11.5871
jebusilaise	-11.5873
puolet	-11.5881
lihassa	-11.5883
todistaa	-11.5885
valitus	-11.589
pol	-11.5891
näkyi	-11.5905
ettaisiin	-11.5924
kolmeen	-11.5927
aida	-11.5928
noudatat	-11.5929
saatu	-11.5931
ulottui	-11.5938
murhaa	-11.5941
ravit	-11.5946
oille	-11.5949
haas	-11.5951
kasvatta	-11.5957
rakentava	-11.5961
lieki	-11.5977
tallaa	-11.5995
tuhota	-11.5995
rautaa	-11.5996
puhdistaa	-11.5998
seinä	-11.5998
johdatt	-11.6005
joki	-11.601
karmeli	-11.6016
uuni	-11.6019
hävit	-11.6021
käsitä	-11.6025
lähtevä	-11.6028
valtakuntaan	-11.6028
varjel	-11.6035
omikse	-11.6061
nouseva	-11.608
hyödy	-11.6081
jonne	-11.6082
valoa	-11.6089
talot	-11.609
ahtaa	-11.6095
lampu	-11.6099
astiat	-11.6107
tunno	-11.6111
armahta	-11.6114
sellaise	-11.6118
siipie	-11.6127
tervehdykse	-11.6131
keihäs	-11.6143
osti	-11.6146
järjest	-11.6149
lesken	-11.6164
baali	-11.6168
tarttuma	-11.617
vaunuihin	-11.618
ohe	-11.6181
tuulta	-11.6186
kyli	-11.6187
epäjumali	-11.6188
käsivarre	-11.6188
kuullessa	-11.6188
kahdes	-11.6194
asuakse	-11.6195
asumus	-11.6198
sielusi	-11.6201
häväiss	-11.6201
mitat	-11.6203
jälje	-11.6207
hyvyy	-11.6207
ihastu	-11.6207
ahdingo	-11.6208
obadja	-11.6208
ahitofel	-11.6208
henkilö	-11.6208
jylinä	-11.6208
naadab	-11.6208
publikaani	-11.6208
purjehti	-11.6208
synagoogissa	-11.6208
kapina	-11.6208
rakennettu	-11.6208
mursi	-11.6208
vasikka	-11.6208
alankomaa	-11.6208
muistet	-11.6208
kavahta	-11.6208
vaikutta	-11.6208
puhkea	-11.6208
vieraita	-11.6208
simri	-11.6208
▁`;	-11.6208
hevosten	-11.6208
syntymän	-11.6209
raskas	-11.6209
taudi	-11.6209
netanja	-11.6209
sulki	-11.6209
pahantekijä	-11.6209
väkijuoma	-11.6209
tekemistä	-11.621
hesron	-11.621
viidenkymmenen	-11.621
kallisarvoi	-11.6211
levisi	-11.6211
pö	-11.6211
lopeta	-11.6212
piiloutu	-11.6213
arvall	-11.6213
terävä	-11.6213
raivo	-11.6214
aksa	-11.6215
siemenen	-11.6215
miehenpuoli	-11.6215
taivut	-11.6217
pylväänpää	-11.6218
laskettu	-11.6218
sotakuntois	-11.6219
puke	-11.6219
syystä	-11.6219
julistet	-11.622
uskottu	-11.622
semekse	-11.6223
tulvi	-11.6225
sora	-11.6226
vyötä	-11.6227
vietti	-11.6227
pakanoille	-11.6231
asunto	-11.6232
dad	-11.6234
toivoa	-11.6236
uden	-11.6239
syytä	-11.6239
korota	-11.6242
veisata	-11.6243
sanottava	-11.6246
palatsiin	-11.6247
piha	-11.6247
sada	-11.6249
puhuttu	-11.6251
riemuitkaa	-11.6252
suori	-11.6265
aramilaisi	-11.6271
kaade	-11.6279
hinna	-11.628
edustall	-11.6282
parannus	-11.6284
kuvaa	-11.6285
enkelit	-11.6285
seinää	-11.6293
nöyrä	-11.6298
piilo	-11.6299
hedelmällise	-11.6299
ruhtinasta	-11.6301
ymmärtäväise	-11.6304
muuttui	-11.6313
uhrat	-11.6317
armahtavai	-11.632
iir	-11.6322
levin	-11.6323
kastetta	-11.6328
aasia	-11.6331
alalla	-11.6333
pilkkasi	-11.6333
väkevi	-11.6337
seraja	-11.634
kirjoitetu	-11.6349
epäjumalan	-11.6358
sairasta	-11.6364
pankoo	-11.6369
aita	-11.6377
harjoit	-11.6381
tilaa	-11.6383
ttömä	-11.6384
täytän	-11.6385
isällä	-11.6391
anasta	-11.6391
henge	-11.6394
tyä	-11.6396
hetkell	-11.6397
pilkka	-11.6399
hebrea	-11.6403
mättömä	-11.6404
saatua	-11.6405
riemuitkoo	-11.6405
häväistä	-11.6407
odot	-11.642
hurskas	-11.6431
asioi	-11.6437
totin	-11.6439
köyhän	-11.6443
aikoje	-11.6451
hukut	-11.6456
ruumiissa	-11.6466
siirtyi	-11.6478
varust	-11.6482
tapan	-11.6483
kala	-11.6485
edom	-11.6495
joudut	-11.6499
muistut	-11.6503
kipu	-11.6514
isest	-11.6516
lihava	-11.6536
muurit	-11.6544
kuluttava	-11.6547
sooba	-11.655
kosto	-11.6563
jooah	-11.6567
näit	-11.6585
riisui	-11.6592
arvioi	-11.6603
kymmen	-11.6608
mieheen	-11.6616
saarai	-11.6629
muuten	-11.6632
jalkain	-11.6642
keske	-11.6643
sairas	-11.6645
itää	-11.665
aamo	-11.6653
tavoittele	-11.6658
voita	-11.6659
kulkiessa	-11.6661
kasukka	-11.6679
väkevyy	-11.668
haureude	-11.6688
serahi	-11.6694
kilpi	-11.6694
poltto	-11.6699
ahdistaja	-11.6702
tehtäviä	-11.6703
ajet	-11.6704
uoret	-11.6714
julistakoo	-11.6717
bar	-11.6718
tauti	-11.6718
raasta	-11.6718
vanhurskast	-11.6718
johtaja	-11.6719
jäävä	-11.6727
sydäntä	-11.6733
murta	-11.6733
aarrekammio	-11.6734
loukka	-11.6734
ahikami	-11.6734
aseenkantaja	-11.6734
kuihtu	-11.6734
maksoi	-11.6734
poikkesi	-11.6734
alttare	-11.6734
ennustus	-11.6734
esikartano	-11.6734
juoksu	-11.6734
kulji	-11.6734
kynnykse	-11.6734
libna	-11.6734
naapuri	-11.6734
pappeina	-11.6734
pauhaava	-11.6734
tyrmisty	-11.6734
antiokia	-11.6734
morsiame	-11.6734
jännittä	-11.6734
selitys	-11.6734
vohla	-11.6734
valtaistuin	-11.6734
varhais	-11.6734
▁`?"	-11.6734
riennä	-11.6734
temppelisali	-11.6734
ihokkaa	-11.6734
hakkasi	-11.6734
haanan	-11.6735
yöpy	-11.6735
hedelmätön	-11.6735
kupee	-11.6735
maakiri	-11.6735
ruhtinaita	-11.6735
aaseja	-11.6736
rikki	-11.6736
niinive	-11.6736
suljettu	-11.6737
puoliso	-11.6737
huomat	-11.6738
pyhitti	-11.674
laan	-11.674
hauto	-11.6741
kahleis	-11.6741
vanho	-11.6742
käskyistä	-11.6742
ensimmäisessä	-11.6742
perästä	-11.6743
luji	-11.6743
jaksa	-11.6743
todella	-11.6744
näkyvi	-11.6744
hieno	-11.675
sovitta	-11.675
rakennukse	-11.6755
laiska	-11.6758
pettää	-11.6758
saapuvill	-11.6759
tsee	-11.676
vitsaukse	-11.6767
selityksen	-11.6767
rakastatte	-11.6768
ymmärtää	-11.677
rakennus	-11.6776
parissa	-11.6776
lähdet	-11.6778
kuninkuute	-11.6784
tahdomme	-11.6786
huku	-11.6788
rinnalla	-11.6793
pysyä	-11.6794
surmata	-11.6795
vasikan	-11.6798
ikee	-11.68
melu	-11.6802
kalat	-11.6804
ahdistuksen	-11.6809
palava	-11.6809
palatsin	-11.6811
lammas	-11.6816
pyhille	-11.6819
huul	-11.6825
lantei	-11.6825
kysyä	-11.6829
julistakaa	-11.6832
lähdit	-11.6832
murskasi	-11.6834
laitta	-11.6842
salama	-11.6851
tuotti	-11.6856
riemuit	-11.686
viisa	-11.6865
tornin	-11.6872
kirouksen	-11.6872
ruumiista	-11.6875
save	-11.6878
nasaretilai	-11.6879
syömä	-11.6881
näkyj	-11.6881
näyt	-11.689
valitukse	-11.689
ruumista	-11.6896
savi	-11.69
viinitarhoja	-11.6906
kunnioittaa	-11.6912
väkivalta	-11.6936
menevä	-11.6942
mooabilaise	-11.6951
lake	-11.6961
hallitusmiehe	-11.6992
opetuslapsia	-11.6997
vieras	-11.7005
loppua	-11.7007
riitaa	-11.7008
astukaa	-11.7013
simeon	-11.7024
seitsemänä	-11.7024
kultaise	-11.7039
sielulle	-11.7039
saanee	-11.7041
herätä	-11.7042
pidätte	-11.7059
häväisty	-11.7064
hävittämä	-11.7068
uhka	-11.7074
katu	-11.7084
huutoa	-11.7086
eer	-11.7088
kaurist	-11.7088
tunnusteko	-11.7096
ruhtina	-11.7097
jebusilais	-11.71
kuninkaasta	-11.7125
ihmislast	-11.7126
kohota	-11.713
totise	-11.7143
jumalankuvi	-11.7147
ekroni	-11.7151
kumartu	-11.7162
nöyr	-11.7165
kirkas	-11.7166
onnistu	-11.7167
kuninkuu	-11.7176
pohja	-11.7178
taivaall	-11.7179
baabel	-11.7187
elias	-11.7189
uskoisi	-11.7195
sairastava	-11.7197
mielee	-11.72
etiopialai	-11.7221
kaupungei	-11.7228
tuolle	-11.7228
hallitseva	-11.7238
vuodatett	-11.7247
aramilaist	-11.7257
liito	-11.7259
heettiläise	-11.7268
ratsumiehi	-11.7272
järk	-11.7275
nahka	-11.7278
lisääntyi	-11.7282
käsittä	-11.7284
vapaht	-11.7284
lippu	-11.7287
varteen	-11.7288
peura	-11.7289
mesopotamia	-11.729
niskoitteli	-11.729
porteissa	-11.729
havaitsi	-11.729
kegila	-11.729
keskuuteen	-11.729
kiukku	-11.729
kuningattare	-11.729
savenvalaja	-11.729
syntejä	-11.729
särke	-11.729
uskottomi	-11.729
järjestykse	-11.729
lävistä	-11.729
valettu	-11.729
loisto	-11.729
tirsa	-11.729
kuunteli	-11.729
tobia	-11.729
epäusko	-11.729
tyhmi	-11.729
maanoah	-11.729
toisesta	-11.7291
kourist	-11.7291
kieltäyty	-11.7291
riittää	-11.7291
huulilla	-11.7291
kouku	-11.7293
hajotet	-11.7293
tuhansi	-11.7293
palauta	-11.7294
hoori	-11.7294
heittäkää	-11.7294
vieköö	-11.7295
vertauksen	-11.7295
vaunujen	-11.7295
teroit	-11.7296
ussiel	-11.7297
taistell	-11.7297
sapatinpäivänä	-11.7297
verestä	-11.7298
seem	-11.7298
kirje	-11.7298
himoitse	-11.7298
rangaistukse	-11.73
luettiin	-11.73
johdolla	-11.7301
kenkä	-11.7303
tähteeksi	-11.7304
omri	-11.7305
kuoleva	-11.7307
peljät	-11.7308
kaiverr	-11.7308
ylistystä	-11.7309
palvelukseen	-11.7311
kurji	-11.7311
käsivarrella	-11.7313
kirjanoppine	-11.7316
rahalla	-11.7316
miete	-11.7322
väkivallan	-11.7325
puid	-11.7328
otit	-11.7329
tode	-11.7331
seasta	-11.7335
rajana	-11.7335
syynalaise	-11.7336
kohdussa	-11.7337
vetäyty	-11.7337
kadotta	-11.7337
nääntyvä	-11.7339
ympärileikattu	-11.7339
härkää	-11.7344
arvossa	-11.7349
sisemmä	-11.7351
laivo	-11.7357
haureute	-11.7358
sydämellä	-11.7361
puhuvan	-11.7363
serah	-11.7363
paljou	-11.7364
vaikene	-11.7371
kokoukse	-11.7372
saarnasi	-11.7382
todistaji	-11.7384
peittävä	-11.7387
vapautu	-11.7389
seurata	-11.7397
rikot	-11.7397
haam	-11.7399
kaatoi	-11.7403
rikkaut	-11.7407
emän	-11.7411
rikkau	-11.7415
kid	-11.7429
korvaa	-11.7432
paatu	-11.7434
amaleki	-11.7437
jälkeläiste	-11.7438
jokapäiväise	-11.7442
gaad	-11.745
tunkeutu	-11.7469
ham	-11.7472
sellaisen	-11.7475
lopetta	-11.7481
hajottaa	-11.7487
mpaan	-11.7503
bil	-11.7511
moo	-11.7518
kaadekse	-11.7521
luet	-11.7522
hebrealai	-11.7523
kussa	-11.7524
kasvava	-11.7526
kerralla	-11.7527
ebjatari	-11.7529
astua	-11.7534
laitumell	-11.7537
benjaminilaisi	-11.755
tulva	-11.755
sanalla	-11.7561
kaikkinaise	-11.7582
sotamiehe	-11.7584
äkki	-11.7587
rikkonee	-11.7592
uuti	-11.7595
tekisin	-11.7602
luuli	-11.7602
rikkaute	-11.7604
muinais	-11.7605
jäisi	-11.7617
miikal	-11.7617
hulluu	-11.7648
nebukadressar	-11.7651
viimeisen	-11.7671
sokeat	-11.7675
uhkaa	-11.7675
vieraan	-11.7688
avata	-11.769
viinitarho	-11.7691
vallasta	-11.7698
kääntyisi	-11.7699
isku	-11.7701
alhaal	-11.7716
miehellä	-11.7722
lue	-11.7726
kuljetta	-11.7727
sadanpäämies	-11.773
oikeuksi	-11.773
ehty	-11.7741
tietäjät	-11.7762
vääri	-11.7766
ronin	-11.7783
tiet	-11.7784
kaivoi	-11.7785
tulko	-11.779
nouda	-11.7795
puno	-11.7802
ahne	-11.7807
kauneu	-11.781
saastaisi	-11.7816
läinen	-11.7817
leviä	-11.7819
kukistaa	-11.7845
läsnä	-11.7855
paranna	-11.7858
tekijöi	-11.7868
ahdistuksi	-11.7878
sotakelpoisi	-11.7878
häviö	-11.7878
ruovo	-11.7878
veljistä	-11.7878
vilppi	-11.7878
eljasib	-11.7878
enempää	-11.7878
hajuainei	-11.7878
kerube	-11.7878
kypressi	-11.7878
mahdollis	-11.7878
paratiisi	-11.7878
porteista	-11.7878
rabbi	-11.7878
rosvo	-11.7878
vaikutukse	-11.7878
veistety	-11.7878
ympärysverhot	-11.7878
äytäntöön	-11.7878
abigail	-11.7878
hankkee	-11.7878
kauppiaa	-11.7878
kesarea	-11.7878
rankaisi	-11.7878
ympäristö	-11.7878
ainokai	-11.7878
kreet	-11.7878
jäädä	-11.7878
yhdeksäntenä	-11.7878
jearimi	-11.7878
pelkäisi	-11.7878
sorret	-11.7878
valhettelija	-11.7878
kaikkivaltiaan	-11.7878
johto	-11.7878
rupea	-11.7878
kerskat	-11.7878
kiusaa	-11.7878
kengä	-11.7878
happamaton	-11.7878
yksimielise	-11.7878
pitalitauti	-11.7878
atalja	-11.7878
liekki	-11.7878
lakastu	-11.7878
aroeri	-11.7879
lyhy	-11.7879
lähetetty	-11.7879
ylkä	-11.7879
uorta	-11.7879
henkäys	-11.7879
peljätkää	-11.788
velho	-11.788
hadad	-11.788
arabia	-11.788
varoitta	-11.788
hanok	-11.788
halkais	-11.7881
katoavais	-11.7881
kuninkaille	-11.7881
sadanpäämiehe	-11.7881
hoosea	-11.7881
puolee	-11.7881
valita	-11.7883
alaston	-11.7883
naabali	-11.7884
vertaus	-11.7884
tekemästä	-11.7885
havaitt	-11.7886
sork	-11.7886
rakkaudesta	-11.7886
rehelli	-11.7886
puuttuu	-11.7887
aukko	-11.7887
naara	-11.7887
lisät	-11.7888
purkaa	-11.7888
kuuro	-11.7888
sijoitt	-11.789
has	-11.7891
näimme	-11.7892
iloita	-11.7892
viidennen	-11.7894
pilkkana	-11.7894
polje	-11.7894
vetää	-11.7895
kutsutut	-11.7896
viettele	-11.79
anomise	-11.79
piir	-11.7901
paisu	-11.7902
nähdäkse	-11.7902
kuntoon	-11.7903
daarejavekse	-11.7903
muutti	-11.7903
syvyyksi	-11.7906
todistusta	-11.7908
kuvapatsa	-11.791
runsas	-11.791
leposija	-11.7913
hevosilla	-11.7914
turhuu	-11.7916
pelastuu	-11.7917
hillitse	-11.7924
huoneesta	-11.7929
väijyksi	-11.793
joutua	-11.7931
juoksevat	-11.7936
hai	-11.7945
kuoppaan	-11.7949
rantaa	-11.7951
keihästä	-11.7955
tuotu	-11.7958
sotila	-11.7963
katko	-11.7964
tavoittel	-11.7964
kaikkeinpyhimmä	-11.7967
vaadi	-11.7968
kirkkaudessa	-11.7978
laupeute	-11.7978
puusta	-11.7983
omissa	-11.7983
pimeyte	-11.799
joojakim	-11.7992
hankit	-11.7995
janoa	-11.8
päällysmiehe	-11.8
tunti	-11.8011
korkui	-11.8014
ulo	-11.8022
vapahda	-11.8027
veisat	-11.8038
näkylei	-11.8038
reunaa	-11.8044
tunnette	-11.8044
sarvea	-11.8046
nuhteettoma	-11.8072
seitsenhaarai	-11.8073
elisama	-11.8075
kuuliaise	-11.8075
pilven	-11.8088
nimiin	-11.8092
sodan	-11.8097
goo	-11.8109
juodakse	-11.8116
ihossa	-11.8117
vahvistui	-11.8118
pove	-11.8124
katsel	-11.813
vuoteessa	-11.8153
haudan	-11.8158
kuvia	-11.8191
ylhäise	-11.8199
syylli	-11.8201
luolaa	-11.8202
yyde	-11.8207
ratsumiehe	-11.8224
ettakoo	-11.8224
todistajan	-11.8226
kiinnitet	-11.8243
sanottua	-11.8248
tiukku	-11.8253
valmiit	-11.8254
ensimmäisi	-11.8255
lehvä	-11.8255
laumaa	-11.8258
kaldealaise	-11.8264
pinna	-11.8282
suulle	-11.8285
valaise	-11.8287
johta	-11.8295
riutu	-11.8302
arnon	-11.8307
elämää	-11.8314
lakan	-11.8315
tyttärien	-11.8321
jobi	-11.8335
ajatell	-11.8335
laupeu	-11.8336
kiroukse	-11.8345
kohot	-11.8363
siunaukse	-11.8373
saama	-11.8375
ittävät	-11.8377
sydäm	-11.8385
paenn	-11.8388
venhe	-11.8408
vasemmall	-11.8409
kuivaa	-11.8411
rukoilema	-11.8429
oikeuteen	-11.8432
ikävöi	-11.8438
ylhääll	-11.8446
ihokas	-11.8448
yhdeksänkymmen	-11.8457
vahingo	-11.8459
uhrina	-11.8462
parku	-11.8462
maakan	-11.8473
kohtalo	-11.8482
sineti	-11.8494
renkaa	-11.85
puitte	-11.85
ohu	-11.85
pyyhi	-11.8502
leivo	-11.8503
hahmo	-11.8503
huomenaamu	-11.8503
kiusasi	-11.8503
kurjuude	-11.8503
kylvö	-11.8503
käännetty	-11.8503
baarak	-11.8503
haureelli	-11.8503
häpäisi	-11.8503
iljetykse	-11.8503
kuopa	-11.8503
linnoitukse	-11.8503
ryöstö	-11.8503
seitsemäksi	-11.8503
tästedes	-11.8503
7	-11.8503
haagar	-11.8503
kahdelle	-11.8503
pyhitety	-11.8503
rabsake	-11.8503
saastutti	-11.8503
seisahtui	-11.8503
umpeen	-11.8503
filippukse	-11.8503
jefunne	-11.8503
laudoi	-11.8503
raavaskarja	-11.8503
siiba	-11.8503
vangei	-11.8503
yläsali	-11.8503
kuudentena	-11.8503
sukkoti	-11.8503
yhdellä	-11.8503
huokaa	-11.8503
malkia	-11.8503
jehiel	-11.8503
lähettämä	-11.8503
julkea	-11.8503
itsestään	-11.8503
vahinko	-11.8503
mykkä	-11.8503
vaihta	-11.8503
joosaba	-11.8503
ylvästel	-11.8503
vedä	-11.8503
kuritukse	-11.8503
virvoita	-11.8503
särky	-11.8503
kudottu	-11.8503
paetkaa	-11.8504
pelkkä	-11.8504
amram	-11.8504
beria	-11.8504
hajoa	-11.8504
elifa	-11.8504
parasta	-11.8504
kohina	-11.8504
surmattako	-11.8505
denari	-11.8505
kiivaus	-11.8506
amarja	-11.8506
toreill	-11.8506
kirve	-11.8507
edomilaiset	-11.8507
tarkat	-11.8508
sikiö	-11.8508
eeber	-11.8508
rientä	-11.8508
tukki	-11.8509
korsk	-11.851
lantee	-11.851
vaarna	-11.8511
väestä	-11.8511
peitteen	-11.8512
opetusta	-11.8512
kastoi	-11.8512
ympäriltä	-11.8513
paimenten	-11.8513
lähteköön	-11.8513
tappio	-11.8514
bbe	-11.8514
lakeude	-11.8518
muure	-11.8519
riemuitsee	-11.852
asioita	-11.8522
hiukset	-11.8524
verko	-11.8526
unessa	-11.8526
huulten	-11.8528
luottamus	-11.8529
toisin	-11.853
mattanja	-11.853
paljastaa	-11.8532
kertomus	-11.8533
päällystä	-11.8536
väkivaltaise	-11.8536
heilutus	-11.8539
kukka	-11.854
vereksi	-11.8541
heittäytyi	-11.8543
asael	-11.8545
yksitoista	-11.8551
tuskin	-11.8552
valittajais	-11.8556
nuoremma	-11.8557
neljällä	-11.8558
sallum	-11.856
vainoava	-11.8563
looti	-11.8566
avionrikkoja	-11.8571
määräty	-11.8571
aamokse	-11.8577
riemuitsi	-11.8577
ver	-11.8583
palveluksessa	-11.8591
vertauksi	-11.8595
luotu	-11.86
johdattaa	-11.8602
pesä	-11.8607
siipi	-11.8612
porttie	-11.8617
valvokaa	-11.8617
kaare	-11.8618
taistelussa	-11.8624
paljoude	-11.8629
ääri	-11.863
pohjan	-11.8632
entiselle	-11.8633
rintakilp	-11.8637
rypäle	-11.8646
opet	-11.8647
painoin	-11.8649
säilyttä	-11.865
varjossa	-11.8655
arvio	-11.8662
aisten	-11.8664
kylää	-11.8666
kehoitta	-11.8667
olento	-11.8675
korvi	-11.8675
tuhot	-11.8686
jollei	-11.869
velka	-11.869
tiehe	-11.8694
sankarien	-11.8715
tuomitsi	-11.8719
jooahaa	-11.8725
koskeko	-11.8727
astuu	-11.8728
vertaise	-11.8732
kesä	-11.8732
kerit	-11.8738
villi	-11.8745
kieltää	-11.8756
varsa	-11.8766
karkaa	-11.8771
lohduttaa	-11.8784
seinän	-11.8784
uutise	-11.881
epäjumala	-11.881
tekemän	-11.8819
vaeltakaa	-11.8826
majalle	-11.8831
pahoj	-11.8844
ansain	-11.8847
siini	-11.8848
saarta	-11.8849
vierast	-11.8881
rakenneta	-11.8905
totuute	-11.8921
vuodattaa	-11.8923
kalo	-11.8926
yltä	-11.8931
siidoni	-11.8932
kansanjouko	-11.8932
surmatu	-11.8937
kreikkalai	-11.8939
arami	-11.8942
palvelisi	-11.8957
pituise	-11.8959
rebeka	-11.8985
vaara	-11.8987
kiir	-11.899
vastusta	-11.8999
vapaaehtoi	-11.8999
had	-11.9002
synny	-11.9009
hapan	-11.9009
pahuu	-11.901
kkä	-11.9012
rakenn	-11.904
johannekse	-11.9059
porttien	-11.9064
peite	-11.9066
kaalebi	-11.9074
perät	-11.9075
kalliit	-11.9085
aukeni	-11.9091
hetken	-11.9098
hria	-11.91
toimitet	-11.9101
levot	-11.9103
tutkistele	-11.912
ilma	-11.913
ryöstet	-11.9144
lumi	-11.9155
seutu	-11.9156
pylväit	-11.9165
sisälmy	-11.9168
sukuluettelo	-11.9168
uorten	-11.9168
herodekse	-11.917
abednego	-11.917
artahsasta	-11.917
hasabja	-11.917
mahdoton	-11.917
granaattiomeni	-11.917
happamattomi	-11.917
huoju	-11.917
häijy	-11.917
hämminki	-11.917
joonadab	-11.917
kolmanteen	-11.917
lampaista	-11.917
lähettäkää	-11.917
löyty	-11.917
mefiboset	-11.917
myrkky	-11.917
nebusaradan	-11.917
pystyy	-11.917
sananlasku	-11.917
sanherib	-11.917
teurasuhreja	-11.917
tyttäristä	-11.917
ulkokullatu	-11.917
vihoitti	-11.917
yhdist	-11.917
ylimykse	-11.917
6	-11.917
gesuri	-11.917
miellyt	-11.917
palveltava	-11.917
poikkitanko	-11.917
sadrak	-11.917
turmeltu	-11.917
aamurusko	-11.917
fariseuksi	-11.917
mirha	-11.917
mirjam	-11.917
tarkasti	-11.917
määräykse	-11.917
pääsiäislampaa	-11.917
juhta	-11.917
luotettava	-11.917
silmille	-11.917
pyhittäyty	-11.917
murtu	-11.917
mittanuora	-11.917
yhteysuhreja	-11.917
hävitety	-11.917
toiselta	-11.917
pyydystä	-11.917
▁?`"	-11.917
meesak	-11.917
oikeamielise	-11.917
perekse	-11.917
pekah	-11.917
taidokka	-11.917
vainooja	-11.917
heräsi	-11.917
koura	-11.917
rasitta	-11.917
viattoma	-11.9171
helmaan	-11.9171
kiusat	-11.9171
epäpyhä	-11.9171
ammenta	-11.9171
vävy	-11.9171
perhettä	-11.9171
ojennetu	-11.9171
happa	-11.9172
merensaar	-11.9172
palvelijoista	-11.9172
lähetit	-11.9172
istuutui	-11.9172
saviastia	-11.9172
vuorta	-11.9172
raatele	-11.9172
lähtekööt	-11.9173
elieser	-11.9173
vihollisille	-11.9173
yhteis	-11.9173
pirskoitta	-11.9174
kääntää	-11.9174
anatoti	-11.9174
paulo	-11.9174
porteill	-11.9174
jumalista	-11.9175
lammaslauma	-11.9175
maakuntaa	-11.9176
väelle	-11.9177
hampai	-11.9177
syntiset	-11.9177
käytävä	-11.9178
hiuksensa	-11.918
sure	-11.918
asuinpaika	-11.918
jäntee	-11.9181
hooroni	-11.9181
vihamiehiä	-11.9183
lauto	-11.9184
kymmenestä	-11.9186
härä	-11.9188
lainaa	-11.919
palo	-11.9191
taikina	-11.9191
ratsumiest	-11.9192
langa	-11.9192
puuttees	-11.9192
väkevämmä	-11.9194
epäjumalille	-11.9197
sopii	-11.9199
kuoltua	-11.9207
työstä	-11.9208
synk	-11.9208
teurastakoo	-11.921
juomauhre	-11.9212
onnellise	-11.9213
joitten	-11.9214
tiestä	-11.9215
kiinnitä	-11.9217
sukuun	-11.9218
ketkä	-11.9224
riitele	-11.9225
bela	-11.9226
ylistysvir	-11.9227
taamari	-11.923
kukisti	-11.9231
peseytyköö	-11.9238
jumalattomuude	-11.9239
murheellisi	-11.9241
kyntä	-11.9243
maanpiiri	-11.9246
suistu	-11.9246
määr	-11.9254
viety	-11.9258
määrät	-11.9258
koirat	-11.926
hukkui	-11.926
ylpeyde	-11.9262
ylipappi	-11.9269
osallisi	-11.9271
kuivuu	-11.9289
hunajaa	-11.929
siidonin	-11.9291
menestyisit	-11.93
kokoontunee	-11.9305
hukuttaa	-11.9306
sirot	-11.9317
näitte	-11.9318
nauttia	-11.932
varmaan	-11.9326
kirjoittaa	-11.9327
sijalle	-11.9337
vartioitse	-11.9349
lihasta	-11.9356
iisebel	-11.9357
rebek	-11.9361
tahdosta	-11.9366
purppura	-11.9368
outo	-11.9369
mik	-11.9373
jäsene	-11.9374
etelämaa	-11.9379
oksia	-11.9386
anoppi	-11.9388
nukkui	-11.9393
hiekkaa	-11.9399
varsi	-11.94
kasteen	-11.9401
pitui	-11.9408
vuorilinna	-11.9411
vallall	-11.9429
nebukadressari	-11.9434
kääri	-11.9446
kiinnittä	-11.946
harmaa	-11.9462
leivä	-11.9469
tietäjä	-11.9471
kohdalla	-11.9474
omaisuutta	-11.9478
miikael	-11.948
sorto	-11.95
säilytett	-11.95
ravitse	-11.9501
ymmärtäisi	-11.9505
nimellä	-11.953
liitonarki	-11.9531
tappaaksen	-11.956
synnyttäjä	-11.9564
vähi	-11.9576
erottaa	-11.9579
eläisit	-11.9584
vah	-11.9624
isuudessa	-11.9631
perintöos	-11.9642
hiekka	-11.9643
rimmoni	-11.9668
astukoo	-11.968
iira	-11.9696
opetuslapsista	-11.9698
johdata	-11.9699
uhrata	-11.9708
hävet	-11.9715
profeeta	-11.9717
pysyisi	-11.9718
tuhotakse	-11.9739
oppineet	-11.9742
ylimmä	-11.9743
sotii	-11.9744
unhot	-11.9753
panko	-11.9754
hyljäty	-11.9757
sukukunn	-11.9788
kastetu	-11.9788
vanhempi	-11.9797
irsta	-11.9802
totelle	-11.9809
viaton	-11.9814
läiset	-11.9815
taamar	-11.9821
serubbaabeli	-11.9827
olentoj	-11.9845
hallin	-11.9858
vavist	-11.9859
jyviä	-11.9865
taviks	-11.9867
saalis	-11.9871
om	-11.9878
kulmi	-11.988
yhdy	-11.9882
gaselli	-11.9884
heinäsirkkoj	-11.9884
hieho	-11.9884
rangaiskoo	-11.9884
ravinto	-11.9884
balsami	-11.9884
geersom	-11.9884
ilahutta	-11.9884
kapernaumi	-11.9884
kiusaukse	-11.9884
nasiiri	-11.9884
ojennettu	-11.9884
ryöväri	-11.9884
tarvitsi	-11.9884
tyhjen	-11.9884
vanhimpi	-11.9884
vilpittömä	-11.9884
aallo	-11.9884
barnabas	-11.9884
eljakim	-11.9884
kelvoton	-11.9884
neuvotteli	-11.9884
pashur	-11.9884
portteja	-11.9884
säkkeihin	-11.9884
vahvisti	-11.9884
ahimaas	-11.9884
kukko	-11.9884
nauru	-11.9884
selemja	-11.9884
toteutta	-11.9884
kihla	-11.9884
kaitsija	-11.9884
liikut	-11.9884
nurja	-11.9884
verenkostaja	-11.9884
kukoista	-11.9884
jalkoja	-11.9884
matelija	-11.9884
siirsi	-11.9884
sormuks	-11.9884
sukulunastaja	-11.9884
uskalta	-11.9884
geera	-11.9884
viiniköynnökse	-11.9884
ovenvartijoi	-11.9884
puske	-11.9884
mentyä	-11.9884
lahjuks	-11.9884
kyykäärme	-11.9884
liepee	-11.9884
netanel	-11.9884
karsiko	-11.9884
ollen	-11.9884
käädy	-11.9884
merkitty	-11.9884
useampi	-11.9884
pilkku	-11.9884
kauppaa	-11.9885
anakilais	-11.9885
erehdykses	-11.9885
kuivi	-11.9885
lilja	-11.9885
itkuvirsi	-11.9885
maksu	-11.9885
sivelköö	-11.9885
takia	-11.9885
hallituksen	-11.9885
eedeni	-11.9885
uhrikukkuloilla	-11.9885
lähettävä	-11.9885
ilosanoman	-11.9886
kahdesti	-11.9886
orjia	-11.9886
luulee	-11.9886
puhdistettava	-11.9886
kivitaulu	-11.9886
kärsimän	-11.9887
pojalla	-11.9887
lähin	-11.9887
levyi	-11.9887
peruuttamat	-11.9887
työvero	-11.9887
hasar	-11.9887
surmattujen	-11.9887
polke	-11.9887
baani	-11.9889
salamoi	-11.9889
rukoilla	-11.9889
sairai	-11.9889
mahli	-11.9889
pesästä	-11.9889
varoita	-11.989
almu	-11.989
kirkkautta	-11.989
palatkoo	-11.9892
ulompaa	-11.9892
riemuhuuto	-11.9892
gooseni	-11.9893
hyödylli	-11.9894
mennessä	-11.9895
harpu	-11.9895
paloi	-11.9896
maljaa	-11.9897
yhdeksäs	-11.9897
peda	-11.9897
kysykää	-11.9899
hopeamalja	-11.99
arba	-11.9903
tietämättä	-11.9905
hyljätty	-11.9905
lukumäärä	-11.9907
sotahuu	-11.9907
erotti	-11.991
maitten	-11.9911
läsnäollessa	-11.9912
karhu	-11.9914
seela	-11.9917
yläpuolella	-11.9918
teoilla	-11.9919
profeetoille	-11.9921
sinetillä	-11.9922
koskettaa	-11.9926
ebed	-11.9928
tuki	-11.993
suvuille	-11.9931
umm	-11.9932
nebo	-11.9933
kuunnell	-11.9938
veljienne	-11.9944
äänet	-11.9948
kaivosta	-11.9949
seudu	-11.995
hermoni	-11.9955
viatont	-11.9956
sinetöi	-11.9957
vaivoi	-11.9963
kelvottoma	-11.9964
perheelle	-11.9965
hivviläise	-11.9967
sormella	-11.9971
rakennutt	-11.9972
boo	-11.9973
lännes	-11.9973
suri	-11.9978
jisreeliläi	-11.9981
sukulaise	-11.9985
ystäväni	-12.0001
virvoitta	-12.0007
lähimmäiselle	-12.0015
pilatukse	-12.003
tunnettu	-12.0036
alueella	-12.0046
keski	-12.0048
osallise	-12.0049
lupasi	-12.005
syötäkö	-12.0051
majaa	-12.0053
kappalei	-12.006
seppä	-12.0071
katke	-12.0076
velkaa	-12.0078
neljännes	-12.0081
?	-12.0086
ammonilai	-12.009
levä	-12.0092
jälk	-12.01
kamelien	-12.0103
harrasta	-12.0103
estää	-12.0107
katui	-12.0119
kalaa	-12.0141
voimallisi	-12.0145
nuku	-12.0152
toril	-12.0157
kutsukaa	-12.0163
vahingoitta	-12.0168
vihmoi	-12.0168
otollise	-12.0171
voidakse	-12.0182
huusai	-12.0184
tällais	-12.0189
hak	-12.0193
riemuita	-12.0203
ard	-12.0208
kuudenne	-12.021
rikkoi	-12.0229
miehiltä	-12.023
kuninkaall	-12.0235
autuai	-12.0237
miehenpuole	-12.0243
eläessä	-12.0245
pyyd	-12.025
muistele	-12.025
reekabi	-12.0253
luovutta	-12.0253
stetään	-12.0273
rohkais	-12.0292
tarkka	-12.0295
vaipui	-12.0311
uksesta	-12.0322
profetoi	-12.033
muinaisi	-12.0334
siidonilais	-12.0335
haudata	-12.0351
parannu	-12.0373
toimittama	-12.0381
lähtiessä	-12.0383
äväksi	-12.0383
itsessä	-12.0395
tarkoitta	-12.0401
voito	-12.0409
häpeällise	-12.0413
voimi	-12.0421
avusta	-12.0427
viiko	-12.0427
elävää	-12.0441
adoni	-12.0446
gibeaa	-12.045
avun	-12.0455
milloinka	-12.0463
synni	-12.0467
pääskö	-12.0475
baaruk	-12.0479
rypäleit	-12.0489
geersoni	-12.0492
suosiota	-12.0494
nautti	-12.0497
kaitseva	-12.0509
viikuna	-12.051
kuullakse	-12.0523
synnyt	-12.0526
hebron	-12.0531
appi	-12.0533
ihani	-12.0545
ylistys	-12.0559
hukuta	-12.0566
osastossa	-12.0574
peseyty	-12.0574
linno	-12.0584
istuimella	-12.0589
juurt	-12.0592
jalkaisi	-12.0594
lapsettom	-12.0594
pohjoispuol	-12.0609
käyköö	-12.0622
pakolai	-12.0637
päässyt	-12.0651
ssyt	-12.0652
ruhjo	-12.0653
kuurna	-12.0653
andrea	-12.0653
kimpus	-12.0653
lampaitte	-12.0653
viikunoi	-12.0653
abinadab	-12.0653
hämär	-12.0653
juomanlaskija	-12.0653
juovuksi	-12.0653
laittomuu	-12.0653
matkusti	-12.0653
mielettömyy	-12.0653
nöyryyttä	-12.0653
pilkkopimeä	-12.0653
ripustet	-12.0653
ristikkokoriste	-12.0653
sytytä	-12.0653
tempasi	-12.0653
uskollisuutta	-12.0653
vaatteissa	-12.0653
vanhempa	-12.0653
vastedes	-12.0653
velvollis	-12.0653
viinitarhuri	-12.0653
äidistä	-12.0653
geehasi	-12.0653
naarasleijona	-12.0653
sefatja	-12.0653
vihkiyty	-12.0653
ahimeleki	-12.0653
babylon	-12.0653
satraap	-12.0653
vahvistet	-12.0653
viritti	-12.0653
hyvitykse	-12.0653
torve	-12.0653
paksu	-12.0653
oorebi	-12.0653
sorra	-12.0653
viheriä	-12.0653
vyöry	-12.0653
lepäsi	-12.0653
poikenn	-12.0653
kulku	-12.0653
selitti	-12.0653
ylösnousemus	-12.0653
öljymäe	-12.0653
jedaja	-12.0653
satuloi	-12.0653
kätketty	-12.0653
aadami	-12.0653
paremma	-12.0653
survo	-12.0653
asetuksia	-12.0654
lakkasi	-12.0654
viinikuurna	-12.0654
kultarengas	-12.0654
vankeja	-12.0654
hallussa	-12.0654
iddo	-12.0654
oikeamielist	-12.0654
hopeavati	-12.0654
naimisi	-12.0654
kantelee	-12.0654
lahjoista	-12.0654
kattila	-12.0654
mannaa	-12.0654
perikato	-12.0654
vapahtaa	-12.0654
ärjyy	-12.0654
valtakunti	-12.0654
autuute	-12.0655
puhdistautu	-12.0655
raamattu	-12.0655
voimakkaa	-12.0655
näänny	-12.0656
tuulispää	-12.0657
ruvet	-12.0657
puheita	-12.0657
aalto	-12.0657
harjoitti	-12.0657
sokei	-12.0657
vapaik	-12.0658
parane	-12.0658
olki	-12.0658
aluetta	-12.0658
salattu	-12.0658
menetell	-12.0659
ruhtinaille	-12.0659
syntisten	-12.0659
abihu	-12.066
seitsemästä	-12.0661
orjiks	-12.0661
säilytä	-12.0661
saavuta	-12.0662
vyöttäyty	-12.0663
pysykää	-12.0664
sotavaunujen	-12.0664
täyttäkää	-12.0664
meteli	-12.0665
jättäkää	-12.0666
synnissä	-12.0669
viimeinen	-12.067
pätevä	-12.0672
kirjoitin	-12.0672
köyde	-12.0674
selvä	-12.0675
pyhyyte	-12.0679
metsäkyyhkys	-12.068
näyttäyty	-12.0682
jaloille	-12.0682
kertaise	-12.0683
heimojen	-12.0684
agri	-12.0693
paista	-12.0701
korkeudesta	-12.0702
hajalla	-12.0707
väkevyyde	-12.0708
samankaltai	-12.0709
katto	-12.0711
tutkistel	-12.0712
ystävällis	-12.0713
tapahtuko	-12.0723
sokais	-12.0723
hopealla	-12.0724
karvo	-12.0728
juotta	-12.0728
täyty	-12.0729
varalle	-12.0738
pyhäkköä	-12.0738
ukselle	-12.0744
peori	-12.0745
joutukoo	-12.0754
todistuksia	-12.0755
hartaa	-12.0765
kasvoista	-12.0766
uhrattu	-12.0773
lintuj	-12.0774
tuomiota	-12.0777
hiljaisuude	-12.0777
baale	-12.0778
kärsivällisyyde	-12.078
haasori	-12.0781
pitalista	-12.079
taivaallise	-12.079
pudista	-12.0811
ylenkatse	-12.0814
pitäköö	-12.0816
polteta	-12.082
vuoteesee	-12.0825
baaruki	-12.083
sotaväke	-12.084
aakis	-12.0841
pukeutui	-12.0881
vietävä	-12.0896
kesti	-12.0906
ylhäi	-12.091
ahda	-12.0945
vetäytyi	-12.0945
ollakse	-12.0946
saulus	-12.0957
varat	-12.096
lik	-12.0974
sul	-12.101
häpeälli	-12.1015
lehti	-12.1024
osadak	-12.1026
rohkaisi	-12.1028
tottelemattom	-12.1029
tallasi	-12.1036
paikalta	-12.1039
vaelluksesta	-12.1056
hio	-12.1061
tunnusti	-12.107
leh	-12.1071
iitamari	-12.108
menestyi	-12.1084
kiroil	-12.1091
ylistää	-12.1096
nuhteettom	-12.1097
vaar	-12.1105
täydellis	-12.1117
pöytää	-12.1125
ebjatar	-12.1133
kanto	-12.1142
jedutuni	-12.1142
ammu	-12.1146
gad	-12.1157
uudis	-12.1157
koore	-12.1157
ruu	-12.1159
naaboti	-12.1159
ottaakse	-12.117
kaukaisi	-12.1172
iloise	-12.1182
viikko	-12.1187
pysyköö	-12.1217
telttaan	-12.122
tuttava	-12.1221
vahingoit	-12.1221
tällaisi	-12.1227
kuljettava	-12.124
istutti	-12.1245
muel	-12.1266
ontuva	-12.1289
ympärileikka	-12.1289
geersonilais	-12.1292
saisitte	-12.1303
tulema	-12.1307
viime	-12.1312
niskur	-12.1319
pyytämä	-12.1329
perkelee	-12.1333
paimeni	-12.1342
siunata	-12.1345
maine	-12.1352
kaikkeinpyhim	-12.136
patsas	-12.1363
raamaa	-12.1391
bai	-12.1395
sallumi	-12.1411
yljä	-12.1424
mainee	-12.1431
aamoni	-12.1432
kuninka	-12.1438
kaisla	-12.1441
muihi	-12.1471
kiivastu	-12.1476
valloitet	-12.1481
rehu	-12.1484
roukkio	-12.1485
haltija	-12.1486
lähimmä	-12.1486
ahitubi	-12.1486
naapurei	-12.1486
salmunna	-12.1486
kauhistavi	-12.1486
keihäi	-12.1486
mahanaimi	-12.1486
niskoitell	-12.1486
nuhtelu	-12.1486
pakanakansoi	-12.1486
viininkorjuu	-12.1486
9	-12.1486
auringonnousu	-12.1486
granaattiomena	-12.1486
haudois	-12.1486
huolehti	-12.1486
iisboset	-12.1486
katsahti	-12.1486
kultakuppi	-12.1486
kurjuute	-12.1486
kymbaale	-12.1486
lapsukaise	-12.1486
lähtö	-12.1486
maanjäristys	-12.1486
magdaleena	-12.1486
poiket	-12.1486
pystytä	-12.1486
pöyhkei	-12.1486
tähystäjä	-12.1486
varoitti	-12.1486
viivyttele	-12.1486
yhteyde	-12.1486
betania	-12.1486
karsikko	-12.1486
teurastu	-12.1486
barsillai	-12.1486
iltahämärä	-12.1486
ruoste	-12.1486
kaksinkertaise	-12.1487
ripusta	-12.1487
siunaisi	-12.1487
notkist	-12.1487
helvet	-12.1487
poske	-12.1487
rauda	-12.1487
ryöstettävä	-12.1487
saastuta	-12.1487
tiili	-12.1487
harhaile	-12.1487
paikkakunna	-12.1487
verivela	-12.1487
valhettele	-12.1487
luopio	-12.1487
paljastettu	-12.1487
batseba	-12.1487
silmillä	-12.1487
huoneenhaltija	-12.1487
paatumukse	-12.1487
noiden	-12.1487
kukkaro	-12.1487
ngissä	-12.1487
ättömi	-12.1487
geseri	-12.1487
pidettävä	-12.1487
megiddo	-12.1487
tarsiin	-12.1487
käsivarsi	-12.1487
mielui	-12.1487
kilju	-12.1488
jäseniä	-12.1488
palvelustehtävä	-12.1488
hyvyyttä	-12.1488
omatunto	-12.1488
paarani	-12.1488
koiruoho	-12.1488
nuorempi	-12.1488
noudatti	-12.1488
osui	-12.1489
nauha	-12.1489
sikri	-12.1489
rangaistav	-12.1489
eksyttävä	-12.1489
goomer	-12.1489
addai	-12.149
dedan	-12.149
vapautti	-12.149
ehye	-12.149
raak	-12.149
baana	-12.149
tuntemattoma	-12.1491
orjatar	-12.1491
ääristä	-12.1491
majoille	-12.1491
kultakalu	-12.1492
sivukammio	-12.1492
pääsy	-12.1492
käydessä	-12.1492
paeta	-12.1492
määräys	-12.1492
korkeuteen	-12.1493
pidetään	-12.1493
huuram	-12.1493
heltee	-12.1494
gaal	-12.1494
kahti	-12.1495
rajuilma	-12.1495
kaatuneit	-12.1495
vääristä	-12.1495
vesiastia	-12.1496
syntyy	-12.1496
bede	-12.1498
vaale	-12.1498
anotte	-12.1499
tahtoisin	-12.1499
kiivaudessa	-12.1501
koetta	-12.1502
luihin	-12.1503
säilyttää	-12.1505
suuruu	-12.1508
vainoat	-12.151
luvall	-12.1511
aio	-12.1511
kasvoihin	-12.1512
halkoj	-12.1513
tunto	-12.1513
anias	-12.1514
taloihin	-12.1514
ohessa	-12.1516
kivitti	-12.1517
päätti	-12.1518
ympärileikkaukse	-12.1518
länsipuol	-12.1519
elinaikana	-12.1519
varustuksi	-12.1522
hanani	-12.1522
sammutta	-12.1523
nuora	-12.1524
kannatta	-12.1524
lähtekö	-12.1525
teoissa	-12.1527
näissä	-12.1528
ihmee	-12.1528
ryöstää	-12.1529
misestä	-12.1532
kannel	-12.1533
korkeudessa	-12.1536
kulmakive	-12.1537
taido	-12.1538
usea	-12.154
heittää	-12.1541
koorekse	-12.1544
siunatu	-12.1544
kaltaisiks	-12.1546
kuuliaisuu	-12.1547
ympäröivä	-12.1547
pilvenpatsa	-12.1549
synkeyde	-12.1552
ihanuu	-12.1553
rukoille	-12.1558
hinnasta	-12.156
kahlee	-12.1568
päälae	-12.1573
haudalle	-12.1574
asuvi	-12.1576
koste	-12.1577
alueelta	-12.1588
palkkalaise	-12.1597
huuri	-12.1599
ihmeellise	-12.1602
isäntää	-12.1614
viisaudella	-12.1621
suink	-12.1622
esaias	-12.1625
kiitosvir	-12.1631
voidel	-12.1633
polvistui	-12.1639
synagoogassa	-12.1649
luettu	-12.1652
helpomp	-12.1656
leiriytyköö	-12.1656
varustee	-12.1657
lehvi	-12.1659
kansakuntien	-12.1661
päällysmiehi	-12.1669
hasaeli	-12.167
kunnioitu	-12.1671
kaluine	-12.1671
polveutui	-12.1675
suitsutusalttari	-12.1677
hum	-12.1678
rakastakaa	-12.1681
kaataa	-12.1682
siklagi	-12.1696
polville	-12.1698
jalustoine	-12.1699
havainn	-12.1703
tähtee	-12.1708
muotois	-12.1712
ältä	-12.1717
rikosta	-12.172
otteli	-12.1724
aikka	-12.1735
maille	-12.1739
häväistys	-12.1742
kyy	-12.1744
väkivaltaist	-12.1764
napisi	-12.1769
kylväjä	-12.1777
rakkai	-12.1777
kiv	-12.1779
kreikkalaisi	-12.1785
midianilaise	-12.1786
hde	-12.1786
lapsine	-12.18
majoissa	-12.1804
haavoi	-12.1804
punasinise	-12.1806
paistet	-12.1813
menettä	-12.1819
öin	-12.183
pimen	-12.184
isaskar	-12.1847
koetukse	-12.1857
vaeltaisi	-12.1862
valkoi	-12.1878
vadi	-12.1886
punais	-12.1895
eder	-12.1896
leipi	-12.1899
ystävää	-12.191
koor	-12.1911
vär	-12.1917
mieti	-12.1925
paljas	-12.1933
tasais	-12.1935
ahjo	-12.1952
munuaise	-12.1962
naul	-12.198
tervee	-12.1983
erroin	-12.2018
simea	-12.2026
raam	-12.2034
häväis	-12.2037
yllättä	-12.2038
riemuvuote	-12.208
kirjoit	-12.2091
seitsenhaaraise	-12.2097
tunkeutui	-12.2103
haavoitt	-12.2117
purppuraa	-12.2128
uneen	-12.2194
napis	-12.2199
saastaist	-12.22
hasael	-12.2202
heettiläi	-12.2207
pudist	-12.2211
lunastus	-12.2227
viisaute	-12.2252
apostolei	-12.2259
ajatus	-12.2261
valtakunn	-12.2261
helakanpunais	-12.2276
hivviläis	-12.229
vasika	-12.2291
opetus	-12.2299
onyks	-12.2301
erillä	-12.2303
nöyri	-12.2313
laelle	-12.2314
syynalais	-12.232
sovitet	-12.2323
ketu	-12.2324
voittaisi	-12.2329
koorah	-12.233
rangaist	-12.2336
kuunnel	-12.2339
väistyi	-12.2345
pikku	-12.2351
tuomarei	-12.2368
hoitoon	-12.2369
vaiheill	-12.2375
rypälee	-12.2383
kateu	-12.2389
valtikka	-12.2394
raju	-12.2394
idästä	-12.2396
käskynhaltijoi	-12.2396
niilivirta	-12.2396
rohkeutta	-12.2396
tyhmyy	-12.2396
apollo	-12.2396
heinäsirka	-12.2396
iskariot	-12.2396
jaafet	-12.2396
jegiel	-12.2396
kahdeksas	-12.2396
kaksois	-12.2396
karitsoita	-12.2396
kauhistava	-12.2396
kelvolli	-12.2396
keskimmäi	-12.2396
kurjuutta	-12.2396
kurkku	-12.2396
lohdutus	-12.2396
löydetty	-12.2396
niskoittele	-12.2396
pauhat	-12.2396
peräyty	-12.2396
porras	-12.2396
pyyhki	-12.2396
sakaria	-12.2396
seppele	-12.2396
sippor	-12.2396
sirppi	-12.2396
sisimpään	-12.2396
sovelias	-12.2396
syyhelmä	-12.2396
säiliö	-12.2396
vaikeroi	-12.2396
berekja	-12.2396
egloni	-12.2396
haggai	-12.2396
hyppi	-12.2396
koetella	-12.2396
lankeemukse	-12.2396
lasarus	-12.2396
oofiri	-12.2396
selofhadi	-12.2396
ukkosenjylinä	-12.2396
vähemmä	-12.2396
ylimyksi	-12.2396
daagoni	-12.2396
debiri	-12.2396
diibon	-12.2396
leveyde	-12.2396
maksanlisäk	-12.2396
meluisa	-12.2396
musersi	-12.2396
niilivirra	-12.2396
töissä	-12.2396
kirkkaa	-12.2396
koetteli	-12.2396
köyhyy	-12.2396
milka	-12.2396
korento	-12.2396
myydä	-12.2396
talve	-12.2396
ribla	-12.2396
viiniköynnös	-12.2396
elatukse	-12.2396
löydetä	-12.2396
uskollisuute	-12.2396
haanun	-12.2396
murehdi	-12.2396
heeferi	-12.2396
kaunistukse	-12.2396
huostaan	-12.2396
virtoje	-12.2396
paljai	-12.2396
palvelijatarta	-12.2396
peitetty	-12.2396
karkasi	-12.2396
elintarpei	-12.2396
monilukuis	-12.2396
hiili	-12.2396
muserta	-12.2396
rankkasa	-12.2396
lähdettyä	-12.2396
särjetty	-12.2396
talutta	-12.2396
yhdelle	-12.2396
koristepien	-12.2396
ylemp	-12.2396
peljänn	-12.2396
seurakunnill	-12.2396
oikeamielisi	-12.2396
pantti	-12.2396
ylpeit	-12.2396
hoorebill	-12.2396
raiska	-12.2396
oviauko	-12.2396
sorro	-12.2396
vuohen	-12.2396
peruste	-12.2396
arvele	-12.2397
riistaa	-12.2397
tarvita	-12.2397
meriba	-12.2397
kivijumalain	-12.2397
esirippu	-12.2397
riiteli	-12.2397
bilhan	-12.2397
rakeita	-12.2398
lymy	-12.2398
koituu	-12.2398
sukuluetteloihin	-12.2398
viritä	-12.2398
polki	-12.2399
asujattom	-12.2399
pyrkikää	-12.2399
kymmenyksi	-12.2399
määräaikana	-12.2399
hoomer	-12.2399
villiaasi	-12.24
sotaväki	-12.24
kylvetä	-12.24
viettäkää	-12.24
kytk	-12.24
pantava	-12.2401
kupeis	-12.2401
aakii	-12.2401
puetu	-12.2401
adar	-12.2402
harrani	-12.2402
vastausta	-12.2402
portai	-12.2403
esikuva	-12.2403
petty	-12.2404
hävittäkää	-12.2406
suuntaan	-12.2406
heikkoude	-12.2407
kulkijat	-12.2407
lähdimme	-12.2407
päivistä	-12.2408
menestyy	-12.2408
katsast	-12.2408
raavaitte	-12.241
tulemukse	-12.241
hedelmistä	-12.2411
lemek	-12.2412
aviorikokse	-12.2414
kisko	-12.2415
resin	-12.2417
muuli	-12.2417
saavutti	-12.2419
käsittää	-12.2422
huulilta	-12.2422
martta	-12.2423
uhrataan	-12.2423
tuomareita	-12.2423
asumusta	-12.2425
sodi	-12.2426
kiivaude	-12.2427
vavistus	-12.2427
suitsutta	-12.2431
öljystä	-12.2431
äidinkohdu	-12.2432
tuhoutu	-12.2432
rintaliha	-12.2434
elihu	-12.2434
etumai	-12.2437
nähty	-12.2439
samo	-12.2446
terah	-12.2446
lehdet	-12.2447
kehu	-12.2453
omantun	-12.2454
pöydässä	-12.2459
osuude	-12.246
veisaaji	-12.2464
varsink	-12.247
polttama	-12.2475
rakentakaa	-12.2483
ikävöitse	-12.2492
aakan	-12.2497
neuvotel	-12.2505
luotti	-12.2506
järje	-12.2506
tora	-12.2506
nälkäise	-12.2512
syöksyi	-12.2516
muotoise	-12.2525
vaivaise	-12.2528
selvi	-12.2535
kohottakaa	-12.2545
pelastava	-12.2566
arvoin	-12.2571
kaatunee	-12.2581
niskuri	-12.2583
hopearaha	-12.2584
lahjoitta	-12.259
teurastettav	-12.259
haamu	-12.2592
julistettu	-12.2592
upot	-12.2596
uhriteuraan	-12.2615
evästä	-12.2623
jordan	-12.2623
oka	-12.2629
paljastu	-12.2639
ähkää	-12.2644
iloitkoo	-12.2665
huud	-12.2665
teline	-12.2666
rimmon	-12.268
liit	-12.2683
etupuolell	-12.2689
vuodattako	-12.2711
sikem	-12.2723
eelam	-12.2751
hakas	-12.2761
taholl	-12.2762
edellise	-12.2773
tullakse	-12.2788
leeviläis	-12.2788
gilead	-12.2789
ryöstäjä	-12.279
profetoimi	-12.2794
filistealai	-12.2799
pitkämielisyy	-12.2824
kylmä	-12.2837
moti	-12.2871
jerubbaali	-12.288
valkoise	-12.2901
vähäise	-12.2908
varjeli	-12.2935
kiittämä	-12.2953
tilaisuu	-12.2953
altis	-12.2954
raunioi	-12.2963
väijyvä	-12.2963
surmatakse	-12.2977
asser	-12.2983
huusa	-12.2987
kuuliaisi	-12.2988
vallat	-12.2996
uskovi	-12.2999
lehtimajo	-12.303
taidollise	-12.3032
aitta	-12.3045
naahori	-12.3049
vaivaist	-12.3049
libanon	-12.3092
nasareti	-12.3119
ihm	-12.3122
antimaa	-12.3134
bah	-12.3157
lähdi	-12.3195
etupuol	-12.3197
kosketta	-12.3202
pimeyt	-12.3209
siunat	-12.3212
kärsivällisyy	-12.3247
pysähty	-12.3248
esaia	-12.3249
kartta	-12.325
liika	-12.3251
virr	-12.3259
syöksy	-12.3266
noussee	-12.3268
ytetään	-12.3269
syytt	-12.3281
vuodat	-12.3281
sisem	-12.3287
petokse	-12.3291
vaadit	-12.3297
torju	-12.3311
töid	-12.3315
mikmaa	-12.3326
hakatu	-12.3349
kukkaleh	-12.335
luumm	-12.3356
päällys	-12.3367
kuukautis	-12.3368
sairau	-12.3371
millo	-12.3375
kieto	-12.3381
kantakoo	-12.3391
ylvä	-12.3392
tähkäpä	-12.3394
jishar	-12.3396
ohdakkei	-12.3396
iljettävyy	-12.3396
lehtimajanjuhla	-12.3396
myöhemmi	-12.3396
närkästy	-12.3396
varuilla	-12.3396
ammihud	-12.3396
barnabaan	-12.3396
beltsassar	-12.3396
debora	-12.3396
etunenässä	-12.3396
festus	-12.3396
hammasten	-12.3396
hyökänn	-12.3396
jalkoihin	-12.3396
jeroham	-12.3396
kansleri	-12.3396
kirjanoppinut	-12.3396
kätilövaimo	-12.3396
lempeä	-12.3396
lyijy	-12.3396
maapalsta	-12.3396
melkisedek	-12.3396
paadutti	-12.3396
pyyntö	-12.3396
päästyä	-12.3396
safiiri	-12.3396
sanballat	-12.3396
vihdoin	-12.3396
yhteyt	-12.3396
yllyttä	-12.3396
aavikkosu	-12.3396
adullami	-12.3396
efrata	-12.3396
elifele	-12.3396
gerari	-12.3396
halveksu	-12.3396
hukkaan	-12.3396
kahdella	-12.3396
kalleimma	-12.3396
lähettäisi	-12.3396
mamre	-12.3396
matkusta	-12.3396
nahson	-12.3396
ripusti	-12.3396
urotöistä	-12.3396
askeloni	-12.3396
eehud	-12.3396
hadareseri	-12.3396
höyste	-12.3396
kelvottomi	-12.3396
lunastukse	-12.3396
mieletön	-12.3396
raafa	-12.3396
sealtieli	-12.3396
sefanja	-12.3396
seitsenkertai	-12.3396
tuubal	-12.3396
vanhukse	-12.3396
kyseli	-12.3396
puhalla	-12.3396
vaikkei	-12.3396
yhdistety	-12.3396
taampa	-12.3396
tekeyty	-12.3396
soitto	-12.3396
taabori	-12.3396
akkuna	-12.3396
jetro	-12.3396
osuute	-12.3396
pyri	-12.3396
huuhto	-12.3396
työnteettäj	-12.3396
veljine	-12.3396
yhdentenä	-12.3396
poltetu	-12.3396
joppe	-12.3396
isännälle	-12.3396
silmistä	-12.3396
hellit	-12.3396
ruoki	-12.3396
vaunusoturi	-12.3396
havaitse	-12.3396
koetti	-12.3396
pilkullis	-12.3396
turviin	-12.3396
päätös	-12.3396
kedekse	-12.3396
lapio	-12.3396
kiivaile	-12.3396
viitan	-12.3396
seinäpatsaa	-12.3396
joojakin	-12.3396
töitte	-12.3396
nielais	-12.3396
punonnais	-12.3396
vaskikahleis	-12.3396
lahjus	-12.3396
kuolemaisilla	-12.3397
juhlakokous	-12.3397
sylissä	-12.3397
kaifa	-12.3397
lampunjala	-12.3397
palvelijoine	-12.3397
kärsimys	-12.3397
abieser	-12.3397
murtautu	-12.3397
barnea	-12.3397
aaveni	-12.3397
kiviroukkio	-12.3397
valmistettu	-12.3397
kangas	-12.3397
päähinee	-12.3398
valittajaisia	-12.3398
jäähyväis	-12.3398
koetelt	-12.3398
oleskele	-12.3398
pieksi	-12.3398
sekanja	-12.3398
tähkäpäät	-12.3398
heber	-12.3399
suitsutti	-12.3399
imettävä	-12.34
veisasi	-12.34
halveksittu	-12.34
korkeude	-12.3401
ikiaiko	-12.3401
tuoree	-12.3402
hakattu	-12.3402
istutettu	-12.3402
jalokivi	-12.3403
surmattava	-12.3403
varpaa	-12.3404
kylvett	-12.3404
oksien	-12.3404
vakooj	-12.3404
luetaan	-12.3407
tällainen	-12.3408
hamori	-12.3408
taidolla	-12.3408
neljänteen	-12.3408
toteutuu	-12.3409
köyhty	-12.3411
karttu	-12.3411
nykyise	-12.3411
toisista	-12.3414
herjasi	-12.3415
unesta	-12.3416
kankaan	-12.3419
linko	-12.342
suojana	-12.342
hajalle	-12.3422
kintereillä	-12.3422
johtaji	-12.3423
vastustaji	-12.3425
vannotti	-12.3425
tapaust	-12.3427
aarre	-12.3436
puhuttava	-12.3436
vyöllä	-12.3438
vaatetta	-12.3438
korko	-12.344
tarsiis	-12.3441
taidollisuude	-12.345
nuoruudessa	-12.3451
akaia	-12.3452
juotti	-12.3452
maakunti	-12.3453
kankaas	-12.3463
telinee	-12.3471
serubbaabel	-12.3476
juurtu	-12.3477
kylki	-12.3478
veressä	-12.348
pelastetu	-12.348
gatilaise	-12.3482
kaarne	-12.3498
asuttu	-12.3499
kumpaa	-12.3501
valkais	-12.3508
uupu	-12.3508
kohdu	-12.3508
salma	-12.3518
kalva	-12.3525
jaeseri	-12.3527
hyökätä	-12.3531
verhoutu	-12.3539
nuhteettomast	-12.3544
ristiinnaulittu	-12.3557
korvilla	-12.3558
rautaise	-12.3564
arvoise	-12.3574
joutuma	-12.3577
sopiva	-12.3579
ruuku	-12.3583
lanka	-12.3603
peittäköö	-12.3607
valjast	-12.3617
yys	-12.3627
hebrealaist	-12.3629
kuollei	-12.363
vihamieste	-12.363
ukkuu	-12.3632
kiittäköö	-12.3639
asetett	-12.3641
kyynelee	-12.3644
hyödyttä	-12.3646
väsyttä	-12.366
immeri	-12.3661
maatil	-12.3667
kall	-12.3671
sukuruhtinaa	-12.3682
kypsy	-12.3692
tyttärie	-12.37
itätuul	-12.3715
huojenn	-12.3724
sadanpäämiehi	-12.3732
voittanee	-12.3742
heemani	-12.3758
hankitu	-12.3772
karmel	-12.3802
"	-12.3806
naabot	-12.3807
maksakoo	-12.3827
kumpik	-12.384
aike	-12.3853
musti	-12.3855
esinee	-12.3899
puusep	-12.3911
olo	-12.392
kehoit	-12.3944
maallisi	-12.4032
koittaa	-12.4036
uhraama	-12.4042
toimittaakse	-12.4043
amminadabi	-12.41
saattaakse	-12.4157
täyttäisi	-12.4168
iisebeli	-12.4194
pure	-12.4218
lehte	-12.4222
entisi	-12.4223
lasti	-12.4223
vaaka	-12.4243
kodi	-12.4283
joukkoine	-12.4301
efroni	-12.4304
kansakunti	-12.4322
tavissa	-12.4332
kudo	-12.4392
harppu	-12.4393
porto	-12.4394
huokaile	-12.4395
kadot	-12.4408
otettako	-12.4417
säädöksi	-12.443
äkyy	-12.4432
lähestykö	-12.4436
pappeu	-12.4447
ääneen	-12.4452
joutuva	-12.4484
parhai	-12.4487
kärsivällis	-12.4488
kohd	-12.4491
arvaa	-12.4495
lähteäkse	-12.4495
hoiti	-12.4496
vaivannäö	-12.4502
fariseus	-12.4503
äsken	-12.4505
puoleise	-12.4505
ilkku	-12.4506
soturi	-12.4506
eefer	-12.4507
leijoni	-12.4507
nuppu	-12.4507
profetia	-12.4507
rohkeude	-12.4507
aikaisemmi	-12.4507
haggi	-12.4507
huuhdot	-12.4507
jälkikorjuu	-12.4507
kumpu	-12.4507
käärelakki	-12.4507
leukaluu	-12.4507
liinavaattee	-12.4507
nyökyt	-12.4507
palvelijattaria	-12.4507
peukalo	-12.4507
puhtaude	-12.4507
raadeltu	-12.4507
silmänräpäykse	-12.4507
teltoissa	-12.4507
uhrikukkuloita	-12.4507
valtasuuruute	-12.4507
viinitarhurei	-12.4507
ylpisty	-12.4507
arpaksad	-12.4507
eljoenai	-12.4507
houkka	-12.4507
hävyn	-12.4507
inhottavi	-12.4507
irroitet	-12.4507
jäljennö	-12.4507
kornelius	-12.4507
kysele	-12.4507
kärsimykse	-12.4507
maaherro	-12.4507
makkeda	-12.4507
perinnön	-12.4507
puolue	-12.4507
purjehd	-12.4507
ryntäsi	-12.4507
synnytystusk	-12.4507
tessalonika	-12.4507
vedenpaisumus	-12.4507
yllytti	-12.4507
ystäville	-12.4507
▁¦39:3	-12.4507
aleksand	-12.4507
edemmä	-12.4507
haarimi	-12.4507
hajotti	-12.4507
hapatus	-12.4507
hyljit	-12.4507
kahdeksi	-12.4507
paikoissa	-12.4507
seinäpatsais	-12.4507
synneissä	-12.4507
ulevaisuus	-12.4507
ystäviä	-12.4507
2:1	-12.4507
asmavet	-12.4507
feeliks	-12.4507
herkeä	-12.4507
jekonja	-12.4507
jylise	-12.4507
nenärenkaa	-12.4507
paikoista	-12.4507
palmik	-12.4507
penuel	-12.4507
sadosta	-12.4507
sakkur	-12.4507
ylemmä	-12.4507
yltäkylläisyy	-12.4507
besalel	-12.4507
elisabet	-12.4507
kiristy	-12.4507
stefanu	-12.4507
haihtu	-12.4507
kävelevä	-12.4507
astarte	-12.4507
erinomai	-12.4507
eudet	-12.4507
lähettilää	-12.4507
täytetty	-12.4507
karkoitettu	-12.4507
doori	-12.4507
vaihtee	-12.4507
haaruk	-12.4507
pauhu	-12.4507
huomio	-12.4507
sebadja	-12.4507
ukkose	-12.4507
sairastui	-12.4507
joobab	-12.4507
suurempa	-12.4507
viskasi	-12.4507
virkosi	-12.4507
lampunjalkaa	-12.4507
sadekuuro	-12.4507
vasikoi	-12.4507
kirjoituksia	-12.4507
pääsiäislammas	-12.4507
säästi	-12.4507
matala	-12.4507
riidellä	-12.4507
kätkeyty	-12.4507
kielisoittimi	-12.4507
haavoitettu	-12.4507
pienimmä	-12.4507
renkais	-12.4507
sooari	-12.4507
pukeudu	-12.4507
loukkaantu	-12.4507
syyria	-12.4507
sebna	-12.4507
jälkiä	-12.4507
poltettu	-12.4507
sydämii	-12.4508
sydämiä	-12.4508
torne	-12.4508
mielettömä	-12.4508
korkeill	-12.4508
soofa	-12.4508
noituu	-12.4508
yltäkyll	-12.4508
verrattava	-12.4508
palautti	-12.4508
kasvit	-12.4508
tupsu	-12.4508
uudin	-12.4508
riitautu	-12.4508
leivottu	-12.4509
noustessa	-12.4509
tietäjähenki	-12.4509
vastakkai	-12.4509
esinahka	-12.4509
pihka	-12.4509
manteli	-12.4509
aukeall	-12.4509
lupausuhri	-12.4509
toimitettava	-12.4509
kehoitti	-12.4509
sisälmykse	-12.451
matalamm	-12.451
hopeakalu	-12.4511
kävell	-12.4511
kukki	-12.4511
synnyinmaa	-12.4512
vaivannäöstä	-12.4512
kurittom	-12.4512
unhotti	-12.4512
kiroussana	-12.4512
ihmislapset	-12.4512
maakunnis	-12.4512
vesipuro	-12.4512
edelle	-12.4513
yrtti	-12.4513
turvautu	-12.4513
inhoa	-12.4513
lippukunt	-12.4513
horma	-12.4513
heitetty	-12.4513
valloitettu	-12.4514
pisto	-12.4514
aseita	-12.4514
kasteli	-12.4514
leivästä	-12.4515
avautu	-12.4516
kylvi	-12.4516
talenti	-12.4516
neito	-12.4516
väkevämpi	-12.4516
soobal	-12.4517
keefa	-12.4519
tuomioita	-12.452
tyly	-12.4521
vakuutt	-12.4521
himojen	-12.4521
uhrann	-12.4522
kuolinpäivä	-12.4523
yhteysuhriteura	-12.4523
teltan	-12.4524
masentu	-12.4525
luud	-12.4525
laiho	-12.4526
herjaus	-12.4526
ofra	-12.4527
lukuun	-12.4528
lähettiläi	-12.4528
luita	-12.4529
kynnet	-12.4529
sotahuuto	-12.453
lääk	-12.4531
netofalai	-12.4534
regueli	-12.4537
uhratta	-12.4537
sairasti	-12.4537
taloissa	-12.454
raip	-12.4542
hakema	-12.4545
jumalaapelkääväi	-12.4547
taute	-12.4548
kääntynei	-12.4549
ryöstetty	-12.455
taivaanvahvuude	-12.4554
arkaile	-12.4562
eliel	-12.4562
kirjoitet	-12.4563
kuori	-12.458
alha	-12.4582
huomann	-12.4583
myyjä	-12.4585
kohotak	-12.4587
ympärileikkaus	-12.4587
kauhistutta	-12.4592
lek	-12.46
vangittu	-12.4605
vietell	-12.4609
kylissä	-12.4611
vieraantu	-12.4614
sumuksessa	-12.4619
kudotu	-12.4626
pituude	-12.4627
huudeta	-12.4632
vuodateta	-12.4636
pakotta	-12.4639
arpaosa	-12.4639
rehobi	-12.4649
multaa	-12.4651
rapp	-12.4655
ohimo	-12.4658
apostole	-12.4677
keskipäivä	-12.4689
filistea	-12.4697
tuomioistuime	-12.4698
varkai	-12.47
adaja	-12.4711
kääntyköö	-12.4712
maist	-12.4721
runnel	-12.4738
päivänmatka	-12.4739
viidennes	-12.4744
suojele	-12.4754
peljätköö	-12.4767
kahl	-12.4771
voittaj	-12.4781
hapanviini	-12.4793
tunnust	-12.4815
ettaessa	-12.482
saddukeuks	-12.4839
levottom	-12.4845
polttouhrei	-12.4848
karmi	-12.4861
lentää	-12.4866
arnoni	-12.4885
uhratakse	-12.489
naahor	-12.4909
kastele	-12.4909
rukoilkoo	-12.4909
rakentaakse	-12.4919
pohjoispuolell	-12.4945
ansio	-12.499
lyöd	-12.4991
mesek	-12.4995
kehoituks	-12.5
kompastukse	-12.5001
jälj	-12.5002
midianilaisi	-12.5013
katuj	-12.5019
bik	-12.5019
kasteell	-12.5024
totell	-12.5035
paennee	-12.5057
iitamar	-12.5084
lesty	-12.5088
taidollis	-12.5094
mateleva	-12.5105
silmukka	-12.5108
syntivel	-12.5117
alhaise	-12.5129
syntyvä	-12.5143
ylistäköö	-12.5154
tottelemattomuu	-12.517
paist	-12.5186
villihär	-12.5188
egyptiläi	-12.5229
vaskialttari	-12.5242
eteläpuol	-12.5252
edelli	-12.5253
vangitu	-12.5266
tuomas	-12.5292
valhetell	-12.5355
öitä	-12.5378
harras	-12.5397
hirmui	-12.5405
hoitakoo	-12.5442
ojalla	-12.5466
täyttääkse	-12.5471
haasor	-12.5568
todistuksi	-12.5589
itätuule	-12.5611
menehtyvä	-12.562
kanaanilaisi	-12.5624
asettaakse	-12.5627
leikkasi	-12.5636
udella	-12.5646
ahasvero	-12.5653
vastust	-12.5675
heittäyty	-12.5675
eenani	-12.5702
daarejave	-12.5703
sulkeko	-12.5719
seisovi	-12.5731
astetta	-12.5738
revin	-12.5739
oljet	-12.5745
pidetä	-12.5746
hesbon	-12.5754
piele	-12.5756
rengas	-12.5756
eutunut	-12.5756
isyyteen	-12.5757
elonleikkuu	-12.5757
isoppikorre	-12.5757
olkakappale	-12.5757
vedenpaisumukse	-12.5757
hartioille	-12.5757
henkäykse	-12.5757
irroitta	-12.5757
kivijumalilla	-12.5757
läheisyydessä	-12.5757
läksy	-12.5757
maanjäristyks	-12.5757
paiseita	-12.5757
peltopalsta	-12.5757
perinnäissääntö	-12.5757
suunemilai	-12.5757
sävyisyy	-12.5757
säädety	-12.5757
säädä	-12.5757
tyttärine	-12.5757
uskottomuute	-12.5757
vaivoja	-12.5757
vaskirummu	-12.5757
akkub	-12.5757
belsassar	-12.5757
bosra	-12.5757
eebal	-12.5757
hoviherro	-12.5757
huokaukse	-12.5757
hälytys	-12.5757
idässä	-12.5757
kivenhakkaaji	-12.5757
kultareunu	-12.5757
kypro	-12.5757
kysymykse	-12.5757
mahalalel	-12.5757
mattitja	-12.5757
miekoilla	-12.5757
munaskuu	-12.5757
orjattari	-12.5757
rypälemehu	-12.5757
ryöstettävi	-12.5757
ryöstöretke	-12.5757
saabad	-12.5757
sapatteina	-12.5757
seerebja	-12.5757
siirrä	-12.5757
suoritettava	-12.5757
tappuah	-12.5757
tietämättömi	-12.5757
todiste	-12.5757
uhreista	-12.5757
vaatteiden	-12.5757
vanhemmille	-12.5757
vaskirumpu	-12.5757
afeki	-12.5757
dood	-12.5757
geberi	-12.5757
gilboa	-12.5757
jissia	-12.5757
kadmiel	-12.5757
kiiltävä	-12.5757
kilikia	-12.5757
laajenta	-12.5757
lävisti	-12.5757
myöhä	-12.5757
märehti	-12.5757
nöyryyte	-12.5757
pahastui	-12.5757
rauhoit	-12.5757
sankarei	-12.5757
seitsemälle	-12.5757
siivillä	-12.5757
suvaitse	-12.5757
sytytti	-12.5757
temppelei	-12.5757
turmell	-12.5757
uudelle	-12.5757
itkuvirre	-12.5757
lähetety	-12.5757
miisael	-12.5757
pisga	-12.5757
arauna	-12.5757
keeniläise	-12.5757
varoitukse	-12.5757
jakaantui	-12.5757
valitkaa	-12.5757
vartijoi	-12.5757
lantio	-12.5757
tapettiin	-12.5757
repäise	-12.5757
maakatilais	-12.5757
menahem	-12.5757
pakko	-12.5757
hadadeseri	-12.5757
hylki	-12.5757
astinlauda	-12.5757
tyydyttä	-12.5757
partaveits	-12.5757
antaudu	-12.5757
moloki	-12.5757
lunnaiks	-12.5757
betueli	-12.5757
abirami	-12.5757
lepytt	-12.5757
murret	-12.5757
pyhitykse	-12.5757
rohjenn	-12.5757
saafat	-12.5757
nehemia	-12.5757
sabdi	-12.5757
rintakilve	-12.5757
jälkeise	-12.5757
sineari	-12.5757
murra	-12.5757
alistet	-12.5757
mestari	-12.5757
noida	-12.5757
peseydy	-12.5757
uuvu	-12.5757
peloittel	-12.5757
vihollisilta	-12.5757
maaresa	-12.5757
murtaudu	-12.5757
asarel	-12.5757
oviaukko	-12.5757
pleet	-12.5757
ornani	-12.5757
sisäänkäytävä	-12.5757
puolisko	-12.5757
kidasta	-12.5758
kittiläis	-12.5758
hämmästyksissä	-12.5758
hohde	-12.5758
luonnosta	-12.5758
juovut	-12.5758
sylke	-12.5758
lupauksia	-12.5758
olmikymmenvuotis	-12.5758
porttieteise	-12.5758
olkapää	-12.5758
sireeninnahka	-12.5758
syyhy	-12.5758
hopeajalusta	-12.5758
kuninkaitten	-12.5758
abdon	-12.5758
havaittaisi	-12.5758
puhutella	-12.5758
jaairi	-12.5758
kalju	-12.5758
halvatu	-12.5759
aarrekammioissa	-12.5759
jeter	-12.5759
sammakoi	-12.5759
kukkaku	-12.5759
päämiehiks	-12.5759
ihmeillä	-12.5759
selitä	-12.5759
rakentu	-12.576
leimaht	-12.576
opettajia	-12.576
vaunuhevos	-12.576
jätetään	-12.576
hautakammio	-12.576
tuokio	-12.5761
tarjosi	-12.5761
diina	-12.5762
tapetu	-12.5762
tarvinn	-12.5762
lattia	-12.5762
rintahaarnisk	-12.5763
paetkoo	-12.5763
valitushuuto	-12.5763
sulkeutu	-12.5764
uhrattava	-12.5764
eluk	-12.5765
ihmetel	-12.5766
kummank	-12.5766
avartu	-12.5766
luste	-12.5767
veriheimolai	-12.5769
deem	-12.5769
pantako	-12.577
kunnioit	-12.577
jatkoi	-12.577
juonia	-12.577
kaisto	-12.5771
teljet	-12.5771
autuude	-12.5772
edrei	-12.5772
havila	-12.5772
säikäh	-12.5773
harkit	-12.5775
kirkastettu	-12.5776
lannist	-12.5777
laidas	-12.5777
lihavuude	-12.5777
sylii	-12.5778
alenta	-12.5781
raesa	-12.5782
maido	-12.5783
hekuma	-12.5783
saavu	-12.5785
kalastaj	-12.5787
raahab	-12.5789
rehum	-12.579
saarto	-12.5799
sairaude	-12.5801
toola	-12.5807
koeta	-12.5811
esjon	-12.5813
kammioit	-12.5814
iläisiä	-12.582
tietäköö	-12.5826
laiminlyö	-12.5826
kerskaami	-12.5841
salmon	-12.5843
kiitosuhri	-12.5854
jumalisuude	-12.5874
vakoil	-12.5876
ilki	-12.588
huokail	-12.5885
harppuje	-12.5887
noustua	-12.5894
korkeamma	-12.5907
hulluude	-12.5909
säälimätt	-12.591
tuomitkoo	-12.5943
ehtineet	-12.5955
kirjaell	-12.5966
alennet	-12.5974
tarpeell	-12.598
syyttäjä	-12.5994
korvaukse	-12.5995
ahasta	-12.6011
kuljettua	-12.6035
eeloni	-12.6036
hoht	-12.6041
leikkautti	-12.6057
palvelkoo	-12.6071
yhtäläi	-12.6071
syntiuhrimullik	-12.6075
onnelli	-12.6112
kulue	-12.613
herää	-12.6169
kuollessa	-12.6212
vastannee	-12.6229
tasangoll	-12.6261
suosiolli	-12.6261
uudistu	-12.6284
uhreihin	-12.6312
menettele	-12.6327
karjaeläime	-12.637
munuais	-12.6396
daanilaise	-12.6538
istuessa	-12.6552
esem	-12.657
kukist	-12.6586
heeman	-12.6678
valhees	-12.6702
iloitko	-12.6766
kymmenvuotisi	-12.677
murheelli	-12.6787
ottamatt	-12.6804
jalusto	-12.6816
teuraa	-12.6821
jellut	-12.683
iittää	-12.6872
seisoma	-12.6875
israelilaisil	-12.6876
helpo	-12.6893
lahjoit	-12.6903
terv	-12.6923
edustal	-12.6949
ahdettu	-12.6967
rehob	-12.7003
merkkejä	-12.7017
aalem	-12.7022
eroa	-12.704
hedelmälli	-12.7049
hillit	-12.7068
synkey	-12.7071
tuski	-12.7073
siifi	-12.7074
mmät	-12.7082
pelastet	-12.7085
sopimu	-12.7085
oksilla	-12.7098
kahlauspaik	-12.7103
kirjanoppineit	-12.7104
löyd	-12.7107
oholiba	-12.7109
arkail	-12.7114
taivaanvahvuu	-12.7124
vanhemma	-12.7129
ahkeroi	-12.7136
regu	-12.7146
yhteys	-12.7162
hyöty	-12.7172
tiettäv	-12.7174
haarniska	-12.7179
yhdes	-12.7179
eristety	-12.7185
girgasilais	-12.7185
historia	-12.7185
hiuskarva	-12.7185
inhimilli	-12.7185
langenn	-12.7185
myllyn	-12.7185
ohdake	-12.7185
panettelijan	-12.7185
patrokse	-12.7185
rohkeute	-12.7185
sitoumuksen	-12.7185
syytöksi	-12.7185
syöjäsirk	-12.7185
sääsk	-12.7185
baasemat	-12.7185
diison	-12.7185
ennustukse	-12.7185
häirit	-12.7185
iäkkää	-12.7185
jerimot	-12.7185
joojarib	-12.7185
kadehdi	-12.7185
kehäpiena	-12.7185
keskusteli	-12.7185
kiihoitta	-12.7185
korppikotka	-12.7185
krysoliitti	-12.7185
kypäri	-12.7185
linnoituksi	-12.7185
neliskulmai	-12.7185
paaduta	-12.7185
paadutta	-12.7185
palvelijattarien	-12.7185
pantteri	-12.7185
peleg	-12.7185
pikemmin	-12.7185
puronotkoi	-12.7185
pyöreä	-12.7185
rouhensi	-12.7185
tulisoihtu	-12.7185
ulkokultaisuu	-12.7185
urospuole	-12.7185
vanhimpa	-12.7185
vuokra	-12.7185
vähäpätöi	-12.7185
ylpeili	-12.7185
binnui	-12.7185
gedor	-12.7185
heinäsirkka	-12.7185
helmiä	-12.7185
hyvyydellä	-12.7185
imeväise	-12.7185
kiehu	-12.7185
kääriyty	-12.7185
köynnöksi	-12.7185
laodikea	-12.7185
melske	-12.7185
morsian	-12.7185
neljännysruhtina	-12.7185
orjina	-12.7185
profeetanoppilaa	-12.7185
raateli	-12.7185
säiky	-12.7185
särki	-12.7185
tyttärille	-12.7185
5:1	-12.7185
ahinoam	-12.7185
elnatan	-12.7185
hogla	-12.7185
jabbok	-12.7185
katkeroit	-12.7185
kääritty	-12.7185
lunastetta	-12.7185
lävitse	-12.7185
pääkallon	-12.7185
raittiit	-12.7185
raskait	-12.7185
sefarvaimi	-12.7185
selomit	-12.7185
seurustel	-12.7185
skorpioni	-12.7185
syyllisyyte	-12.7185
syytön	-12.7185
vaikutti	-12.7185
vainooji	-12.7185
yritti	-12.7185
irtautu	-12.7185
kalkilla	-12.7185
puhjenn	-12.7185
pyydykse	-12.7185
daatani	-12.7185
leikkuuväe	-12.7185
lähettäjä	-12.7185
opetettu	-12.7185
ratkaista	-12.7185
vartionpi	-12.7185
ihmettele	-12.7185
nouti	-12.7185
sivuseinämä	-12.7185
töillä	-12.7185
beetsaida	-12.7185
himoitsi	-12.7185
herkkuru	-12.7185
pyhyydessä	-12.7185
aabib	-12.7185
kiihko	-12.7185
kiivaili	-12.7185
lunastusmaksu	-12.7185
selkeä	-12.7185
libni	-12.7185
beerotilai	-12.7185
sotke	-12.7185
ruoska	-12.7185
taitamattom	-12.7185
virtoja	-12.7185
jered	-12.7185
abarimi	-12.7185
houka	-12.7185
jahasiel	-12.7185
rasvo	-12.7185
tiitukse	-12.7185
kivittäköö	-12.7185
palatsei	-12.7185
raamatun	-12.7185
erokirja	-12.7186
hapse	-12.7186
paukut	-12.7186
käsketty	-12.7186
mielty	-12.7186
opetuslasta	-12.7186
paremmi	-12.7186
särpi	-12.7186
tarkoitukse	-12.7186
värise	-12.7186
akanat	-12.7186
seurakunnis	-12.7186
rahakukkaro	-12.7186
kartutta	-12.7186
kaunistus	-12.7186
kolkutta	-12.7186
korkeuksissa	-12.7186
virkoa	-12.7186
rakennettava	-12.7186
kärje	-12.7186
paluumatkall	-12.7186
ympärileikkautta	-12.7186
huoleton	-12.7186
valmistetu	-12.7186
silpa	-12.7186
raikue	-12.7186
suuruudessa	-12.7186
karjatarho	-12.7186
delaja	-12.7186
viile	-12.7186
ahira	-12.7186
halvattu	-12.7186
tuhosirk	-12.7186
kätkeydy	-12.7186
ylätasango	-12.7186
heittäydy	-12.7186
riivattu	-12.7186
lunasti	-12.7186
tapahdu	-12.7186
suoritettu	-12.7186
simron	-12.7186
pikari	-12.7187
kirjeitä	-12.7187
paljastetu	-12.7187
kieltäydy	-12.7187
myrskytuuli	-12.7187
itsestäsi	-12.7187
vasara	-12.7187
pääsiäisuhr	-12.7187
vaatekappalees	-12.7187
ajattelemattom	-12.7187
viitto	-12.7187
voihki	-12.7187
ruohik	-12.7187
hiile	-12.7187
kelpaamattom	-12.7187
malluk	-12.7187
miehuu	-12.7187
kirjataim	-12.7187
kärsivällisyyttä	-12.7187
korkeit	-12.7188
kalleuksi	-12.7188
kohtele	-12.7188
majaile	-12.7188
pahemmi	-12.7188
sydämissän	-12.7189
vakav	-12.7189
ovenpiel	-12.719
kierrelle	-12.7191
vaskijalusto	-12.7191
asuinpaikka	-12.7191
kuilu	-12.7191
otniel	-12.7191
palattua	-12.7192
punastu	-12.7192
hengil	-12.7192
paisee	-12.7193
hengäht	-12.7193
kaadut	-12.7195
ilkityö	-12.7196
sooani	-12.72
vavistukse	-12.72
tunnustukse	-12.72
ohikulkija	-12.7201
kaartu	-12.7203
voimistu	-12.7204
keskinäi	-12.7204
panettele	-12.721
pysyttel	-12.721
riidel	-12.7211
parhaimma	-12.7211
nyrk	-12.7213
pudonn	-12.7213
beetlehem	-12.7213
vesilähtei	-12.7215
tavallise	-12.7217
kääntävä	-12.7222
pahemp	-12.7224
punasini	-12.7225
juhlapuku	-12.7227
papinvirkaa	-12.7229
imellä	-12.7235
vaimoikse	-12.7238
puolustautu	-12.724
läheise	-12.7251
vastatko	-12.7258
välttäm	-12.7259
oholibama	-12.7262
pappeude	-12.7265
stutit	-12.7268
moninaisi	-12.7268
palvelustehtävi	-12.7274
kerrott	-12.7275
uufa	-12.7277
neitsyy	-12.7279
yksinäise	-12.7282
suruttom	-12.7287
lukitse	-12.7294
ristiinnauli	-12.7302
uohon	-12.7302
kuolevaise	-12.7306
tahat	-12.731
talletet	-12.7316
amalekilaisi	-12.7317
maisilla	-12.7324
pirst	-12.7328
ylipapeil	-12.7336
kauneude	-12.7359
jaavani	-12.7365
temmatt	-12.7414
vihell	-12.7418
imitti	-12.7432
pidi	-12.7437
eetami	-12.7447
ihmiskätt	-12.7522
ilmoi	-12.7532
haba	-12.7533
tuominn	-12.7549
metsäeläime	-12.7569
hirmu	-12.7607
asumattom	-12.7613
ympärileikkaama	-12.7614
ikke	-12.7639
joutu	-12.768
purppuranpunais	-12.7709
sekoitta	-12.7715
npitäjä	-12.7725
villo	-12.7743
kovuu	-12.7919
efraimilaisi	-12.7953
rahvaa	-12.7974
julist	-12.799
taivaallist	-12.8114
siidon	-12.8115
laskuun	-12.8142
viine	-12.8207
vuosiviik	-12.8212
katoll	-12.8225
auttakoo	-12.8252
argo	-12.8281
ryöstävä	-12.8327
kyps	-12.8361
kaikenkaltaisi	-12.8472
ylenpaltti	-12.8571
tulevaise	-12.86
aihee	-12.8611
kuoppa	-12.8642
huur	-12.8662
vapahd	-12.867
yllin	-12.8707
armaht	-12.8726
maall	-12.8738
auringo	-12.8742
oikei	-12.8762
hiukse	-12.8769
sotamiehi	-12.8776
jumalisuu	-12.878
itäpuolell	-12.8803
lihavuu	-12.8828
perintöomaisuu	-12.8833
naabal	-12.8833
ähtää	-12.8844
tarhois	-12.8846
gidd	-12.885
sireeninnah	-12.885
soittimien	-12.8851
luettelo	-12.8851
uhkea	-12.8852
ohje	-12.8852
paikkoihin	-12.8852
aikaisemma	-12.8852
herodia	-12.8852
kauemm	-12.8852
leveyttä	-12.8852
liehakoi	-12.8852
lystra	-12.8852
repeämä	-12.8852
tahpanhee	-12.8852
vallanalaisuude	-12.8852
avustus	-12.8852
hyväksy	-12.8852
häpeissä	-12.8852
ikonioni	-12.8852
juoming	-12.8852
jyvistä	-12.8852
kaftori	-12.8852
marmori	-12.8852
nauroi	-12.8852
pakahtu	-12.8852
raastoi	-12.8852
vaellusta	-12.8852
aasintammo	-12.8852
abihail	-12.8852
aitokultaise	-12.8852
alttariuhriosan	-12.8852
asestettu	-12.8852
asrikam	-12.8852
bukki	-12.8852
dooeg	-12.8852
edisty	-12.8852
eljasaf	-12.8852
ennusmerki	-12.8852
goljat	-12.8852
hoipertele	-12.8852
hoodia	-12.8852
huippu	-12.8852
huokaus	-12.8852
hyökkäykse	-12.8852
jediael	-12.8852
jeremot	-12.8852
juovikka	-12.8852
kadehti	-12.8852
kaikkeinpyhin	-12.8852
kehrä	-12.8852
kielto	-12.8852
kierrä	-12.8852
kierteli	-12.8852
kirjaeltu	-12.8852
käräjöi	-12.8852
käärelaki	-12.8852
luomakunna	-12.8852
menehdy	-12.8852
metusalah	-12.8852
migdoli	-12.8852
norsunlui	-12.8852
norsunluu	-12.8852
nystyrä	-12.8852
pallon	-12.8852
pikavihai	-12.8852
pitemmä	-12.8852
puhalletaan	-12.8852
päällitse	-12.8852
rannerenkaa	-12.8852
riistetty	-12.8852
rikkomuksia	-12.8852
silmiltä	-12.8852
sisimmässä	-12.8852
solmustetu	-12.8852
sylki	-12.8852
tehtävien	-12.8852
tisbeläi	-12.8852
trooaas	-12.8852
tähystel	-12.8852
tämmöi	-12.8852
uskallukse	-12.8852
valmistuspäivä	-12.8852
vanhemmista	-12.8852
verivelkoje	-12.8852
vihkiäisoina	-12.8852
viihdyt	-12.8852
viileskel	-12.8852
villitsijä	-12.8852
vilpitön	-12.8852
virkisty	-12.8852
väittelemä	-12.8852
yövartio	-12.8852
eristetty	-12.8852
herätetty	-12.8852
hoida	-12.8852
jarmuti	-12.8852
julmistu	-12.8852
juottovasik	-12.8852
lammikko	-12.8852
makpela	-12.8852
maksettava	-12.8852
natanael	-12.8852
piiritys	-12.8852
pysähdy	-12.8852
ratkaisi	-12.8852
remuava	-12.8852
roogeli	-12.8852
ryntää	-12.8852
saastutettu	-12.8852
seboimi	-12.8852
syöttö	-12.8852
uskallus	-12.8852
vaahto	-12.8852
viheliäi	-12.8852
yliskammio	-12.8852
beebai	-12.8852
beelsebuli	-12.8852
kenkiä	-12.8852
kirjoituksis	-12.8852
neitsyi	-12.8852
pallu	-12.8852
piratoni	-12.8852
riehu	-12.8852
teltto	-12.8852
sorti	-12.8852
ahieser	-12.8852
vieraitten	-12.8852
oinaannah	-12.8852
haseroti	-12.8852
katsahta	-12.8852
tarvittav	-12.8852
pesty	-12.8852
tapettu	-12.8852
tuhoudut	-12.8852
kaksiteräi	-12.8852
epätoivo	-12.8852
vuohenkarvo	-12.8852
bigvai	-12.8852
arvoitukse	-12.8852
talmai	-12.8852
ylösnousemise	-12.8852
louka	-12.8852
kasarmi	-12.8852
napinan	-12.8852
töihin	-12.8852
viekoitell	-12.8852
suuttumus	-12.8852
halkea	-12.8852
järjettömä	-12.8852
naajoti	-12.8852
nöyryyde	-12.8852
peittyi	-12.8852
seebi	-12.8852
selästä	-12.8852
luvattu	-12.8852
ihottuma	-12.8852
laitumi	-12.8852
kielten	-12.8852
erkani	-12.8852
silmiin	-12.8852
säkissä	-12.8852
kahdet	-12.8852
rakennettako	-12.8852
keskitse	-12.8852
rekem	-12.8852
veltto	-12.8852
vihoitit	-12.8853
luonnon	-12.8853
lähettänee	-12.8853
oofeli	-12.8853
valheellis	-12.8853
meremot	-12.8853
galatia	-12.8853
koitto	-12.8853
revitti	-12.8853
rauenne	-12.8853
kirjoitettako	-12.8853
luhistu	-12.8853
vaikeni	-12.8853
varise	-12.8853
tiitus	-12.8853
tyynny	-12.8853
varastohuonei	-12.8853
sopimattom	-12.8853
gedi	-12.8854
jaspis	-12.8854
koetellu	-12.8854
puutarho	-12.8854
asuba	-12.8854
egla	-12.8855
vääntele	-12.8855
nuris	-12.8855
ruhjoutu	-12.8855
uskovaise	-12.8855
synnytät	-12.8855
vähenty	-12.8856
irstaude	-12.8856
vajavais	-12.8856
lakaise	-12.8856
alastoma	-12.8856
viedy	-12.8856
takertu	-12.8857
tapoit	-12.8857
solatie	-12.8857
sitoutu	-12.8857
revittä	-12.8857
pohjoissivull	-12.8857
haikea	-12.8858
valoisa	-12.8859
vanhust	-12.8859
agab	-12.8859
sivele	-12.8859
pakoonpääss	-12.8859
kiuku	-12.8863
rantamaa	-12.8863
aihet	-12.8865
rampoj	-12.8866
laukku	-12.8872
riitapuole	-12.8873
kiinty	-12.8873
runsau	-12.8873
sekakansa	-12.8876
herekse	-12.8883
ammiel	-12.8883
valtoj	-12.8888
kärk	-12.8889
äskyn	-12.889
suomuks	-12.8894
kuukautisaikan	-12.8899
ärjy	-12.8906
ahkeroitse	-12.891
pikkueläime	-12.891
libanonill	-12.8916
eteläpuolell	-12.8919
ainaises	-12.8921
kevätsa	-12.8922
useimm	-12.8964
janoise	-12.8966
kulmaukse	-12.8969
villitse	-12.898
rauke	-12.8993
arodi	-12.9013
myytäkö	-12.9021
vakomit	-12.9038
semmoist	-12.9042
pelkääväise	-12.9107
piest	-12.9117
hakkaut	-12.9126
osattom	-12.9126
tuomittaisi	-12.9131
daanilaist	-12.9151
ankaruu	-12.9155
ukutte	-12.9164
jakama	-12.9204
viettäköö	-12.925
korjann	-12.9255
lisääntyköö	-12.9277
itäpuol	-12.9294
liittyköö	-12.93
ekron	-12.9306
väkivalla	-12.9307
kavaluu	-12.9314
kahdennes	-12.9328
herjann	-12.933
peitos	-12.9361
oittaessa	-12.9427
gibeon	-12.9589
miehenpuolt	-12.9624
amalek	-12.9738
miespuol	-12.9751
9:1	-12.977
silmuk	-12.981
samanlaise	-12.985
tähd	-12.9887
huoneesee	-12.9941
keskikohdal	-13.0038
korotett	-13.008
alhais	-13.0224
saddukeu	-13.0254
(	-13.0281
palvelko	-13.035
sisähuonees	-13.0353
suojel	-13.039
siirret	-13.0395
polvistu	-13.0473
päästäköö	-13.0529
pakotet	-13.0548
haureu	-13.0569
puolust	-13.0583
tömän	-13.0598
kelvottomast	-13.0617
laumojen	-13.0632
äriltä	-13.0709
sapati	-13.0741
pyhyy	-13.078
heimolaisi	-13.0781
joutunee	-13.0796
yöhön	-13.0803
katoill	-13.0814
nyky	-13.0819
vikapä	-13.0837
pirskoit	-13.0839
patsait	-13.0846
erehdy	-13.085
teurai	-13.0851
oppe	-13.0852
ohola	-13.0852
kalmoruoko	-13.0852
panettelijoi	-13.0852
raudoitet	-13.0852
aristarku	-13.0852
giihoni	-13.0852
goojimi	-13.0852
hiuksilla	-13.0852
hoippu	-13.0852
kahmalo	-13.0852
kultapalmikoimi	-13.0852
kykeni	-13.0852
leimua	-13.0852
leivinlevy	-13.0852
lunasteta	-13.0852
nokitähk	-13.0852
pellavakaatio	-13.0852
pylväskäytävä	-13.0852
ruskea	-13.0852
sapateista	-13.0852
sotaretkel	-13.0852
tukahutt	-13.0852
turmelukse	-13.0852
abisag	-13.0852
anteeksiantamus	-13.0852
bahurimi	-13.0852
bakbuk	-13.0852
diisan	-13.0852
estemoa	-13.0852
filippi	-13.0852
gamliel	-13.0852
halkeile	-13.0852
hassub	-13.0852
iljetyksi	-13.0852
jaafia	-13.0852
koetelkaa	-13.0852
kostutta	-13.0852
koukku	-13.0852
kuiska	-13.0852
kumarru	-13.0852
kuormaston	-13.0852
käyskenteli	-13.0852
käärinliin	-13.0852
lohdutetu	-13.0852
luomakunta	-13.0852
merodak	-13.0852
mielettömi	-13.0852
.	-13.2759
!	-13.2793
`	-14.0998
;	-14.1099
)	-15.1158
z	-15.1684
/	-15.1685
]	-15.1685
