<pad>	0
</s>	0
<unk>	0
▁¦	-0
▁क	-1
▁्	-2
▁स	-3
▁ह	-4
ार	-5
ें	-6
▁प	-7
या	-8
▁म	-9
ने	-10
ों	-11
्र	-12
▁है	-13
▁ज	-14
ता	-15
और	-16
▁अ	-17
▁के	-18
▁व	-19
के	-20
ना	-21
▁ब	-22
▁उ	-23
िक	-24
▁द	-25
▁त	-26
▁ल	-27
ान	-28
▁न	-29
▁में	-30
से	-31
▁र	-32
▁और	-33
र्	-34
है	-35
ित	-36
▁की	-37
्य	-38
▁कर	-39
▁(	-40
कर	-41
ाल	-42
▁कि	-43
में	-44
ही	-45
▁आ	-46
▁प्र	-47
की	-48
▁को	-49
ति	-50
▁से	-51
का	-52
कि	-53
ते	-54
▁भ	-55
रा	-56
िए	-57
▁़	-58
ोग	-59
▁का	-60
▁।	-61
ला	-62
▁इ	-63
▁ग	-64
वा	-65
▁,	-66
को	-67
था	-68
एक	-69
स्	-70
ती	-71
हा	-72
▁पर	-73
िय	-74
▁य	-75
ुम	-76
न्	-77
क्	-78
सी	-79
हीं	-80
वि	-81
सा	-82
▁च	-83
पर	-84
▁हो	-85
मा	-86
दा	-87
कार	-88
िया	-89
री	-90
▁जा	-91
▁श	-92
▁वि	-93
▁सं	-94
दे	-95
▁हैं	-96
ले	-97
जा	-98
नी	-99
▁एक	-100
▁ख	-101
िर	-102
्व	-103
ड़	-104
सं	-105
▁लिए	-106
▁इस	-107
ंत	-108
िन	-109
▁)	-110
भी	-111
हो	-112
्या	-113
ंग	-114
▁जो	-115
▁अप	-116
▁फ	-117
िल	-118
िस	-119
ाह	-120
▁तो	-121
ारा	-122
▁उस	-123
्ट	-124
रे	-125
▁उन	-126
▁दे	-127
▁नहीं	-128
▁सा	-129
▁भी	-130
▁सम	-131
▁तुम	-132
भा	-133
▁.	-134
हु	-135
▁नि	-136
गा	-137
उन	-138
त्	-139
▁ने	-140
▁हम	-141
मान	-142
पा	-143
▁स्	-144
लिए	-145
▁-	-146
ारे	-147
वर	-148
▁या	-149
ारी	-150
▁रा	-151
ुर	-152
हैं	-153
ल्	-154
इस	-155
दि	-156
धिक	-157
▁किया	-158
वे	-159
क्ष	-160
बा	-161
▁यह	-162
ूप	-163
हें	-164
ष्ट	-165
खा	-166
गे	-167
▁बा	-168
त्र	-169
▁ही	-170
जो	-171
नि	-172
ओं	-173
ियों	-174
ज़	-175
सम	-176
ली	-177
अप	-178
नु	-179
देश	-180
▁करने	-181
ूर	-182
तो	-183
ैं	-184
ुछ	-185
उस	-186
दी	-187
रह	-188
ास	-189
जी	-190
▁वह	-191
▁लोग	-192
हम	-193
▁थ	-194
▁मु	-195
▁हु	-196
तुम	-197
ूल	-198
योग	-199
ये	-200
नहीं	-201
वाल	-202
▁कार	-203
▁ड	-204
ंध	-205
ोज	-206
मी	-207
ारत	-208
ुदा	-209
मु	-210
तर	-211
मे	-212
यों	-213
तु	-214
गर	-215
द्	-216
▁सक	-217
धार	-218
ंड	-219
्री	-220
▁अपने	-221
श्	-222
▁ए	-223
▁वे	-224
्ष	-225
▁1	-226
▁उप	-227
▁था	-228
▁ले	-229
▁ऐ	-230
चा	-231
ुन	-232
वह	-233
सर	-234
च्	-235
हों	-236
▁उन्	-237
किया	-238
▁रह	-239
यह	-240
नों	-241
लाह	-242
▁पू	-243
गी	-244
▁तथा	-245
वी	-246
चार	-247
▁गया	-248
्त	-249
ंद	-250
▁जिस	-251
बर	-252
▁मा	-253
▁आप	-254
20	-255
यु	-256
▁दो	-257
▁कुछ	-258
▁वाल	-259
▁"	-260
बंध	-261
िका	-262
यक	-263
टा	-264
▁ध	-265
ृत	-266
▁किसी	-267
लोग	-268
▁मे	-269
▁छ	-270
करने	-271
टी	-272
शा	-273
धि	-274
▁तुम्	-275
ुल	-276
▁ला	-277
▁साथ	-278
▁अधिक	-279
म्	-280
▁द्व	-281
▁¦1	-282
▁जब	-283
पू	-284
▁घ	-285
▁ख़	-286
▁प्रा	-287
हर	-288
▁चाह	-289
▁रूप	-290
चे	-291
शन	-292
ीन	-293
▁कोई	-294
▁ना	-295
तक	-296
होंने	-297
▁निर्	-298
▁पा	-299
इन	-300
▁वा	-301
सक	-302
ोक	-303
▁अनु	-304
▁करें	-305
ानी	-306
ार्	-307
▁भा	-308
▁द्वारा	-309
▁बना	-310
▁तक	-311
एँ	-312
ोल	-313
ढ़	-314
दान	-315
▁करते	-316
षा	-317
पति	-318
वन	-319
अपने	-320
ूस	-321
जन	-322
टे	-323
▁प्रति	-324
▁थे	-325
ियम	-326
▁अन	-327
ूच	-328
▁उनके	-329
पी	-330
▁क्ष	-331
▁व्य	-332
तों	-333
▁भारत	-334
▁लोगों	-335
▁परि	-336
▁वर्	-337
हुत	-338
क्ति	-339
▁जाता	-340
क्त	-341
▁सु	-342
उप	-343
थित	-344
धान	-345
िन्	-346
बी	-347
▁विश	-348
▁फिर	-349
रण	-350
▁कार्य	-351
▁स्व	-352
रो	-353
्रा	-354
▁राष्ट	-355
तीय	-356
▁कहा	-357
▁पह	-358
ंक	-359
लि	-360
िला	-361
जब	-362
▁दिया	-363
कों	-364
▁इन	-365
टर	-366
द्य	-367
हारे	-368
दो	-369
क़	-370
▁करना	-371
दर	-372
जिस	-373
गत	-374
▁मैं	-375
ौर	-376
▁राज	-377
▁अध	-378
बे	-379
ब्	-380
शी	-381
▁ई	-382
ेष	-383
▁सि	-384
ूँ	-385
▁अल्	-386
▁क्या	-387
▁रख	-388
यी	-389
वास	-390
द्ध	-391
▁ये	-392
फ़	-393
रकार	-394
▁दि	-395
▁कह	-396
प्त	-397
▁अव	-398
आप	-399
▁उसके	-400
च्छ	-401
▁ज़	-402
थान	-403
▁सब	-404
▁¤	-405
तथा	-406
भाव	-407
चित	-408
स्त	-409
ंत्र	-410
▁उत्	-411
▁रहे	-412
निर	-413
कुछ	-414
▁हुए	-415
ोगा	-416
गया	-417
मिल	-418
एं	-419
अल	-420
▁अपनी	-421
्यों	-422
क्र	-423
राज	-424
करण	-425
रि	-426
र्ण	-427
ैसे	-428
▁अल्लाह	-429
ओर	-430
ष्	-431
झे	-432
▁𐋇	-433
मि	-434
▁'	-435
्ञ	-436
दार	-437
▁थी	-438
हां	-439
र्व	-440
अन	-441
साथ	-442
किसी	-443
▁ट	-444
रूप	-445
वं	-446
ड़ा	-447
▁जी	-448
हत	-449
▁सी	-450
वार	-451
▁फ़	-452
पूर	-453
हाँ	-454
ेत्र	-455
सि	-456
विश	-457
▁जाए	-458
▁उसे	-459
तन	-460
▁करता	-461
दन	-462
▁उन्हें	-463
ंच	-464
▁सकता	-465
▁ख़ुदा	-466
षण	-467
धा	-468
▁रहा	-469
ड़े	-470
िम	-471
▁होता	-472
▁क़	-473
अधिक	-474
टि	-475
ोजना	-476
ोड	-477
मत	-478
माण	-479
सूल	-480
ड़ी	-481
▁क्षेत्र	-482
सु	-483
सार	-484
▁समय	-485
गार	-486
थी	-487
अनु	-488
▁जान	-489
▁मान	-490
फिर	-491
वर्	-492
▁गु	-493
ोर	-494
201	-495
▁विक	-496
किन	-497
▁पै	-498
चाह	-499
▁राष्ट्र	-500
कृ	-501
कोई	-502
परि	-503
यता	-504
थे	-505
यन	-506
इल	-507
▁देख	-508
▁ता	-509
▁दी	-510
मक	-511
ारतीय	-512
न्द	-513
वल	-514
शक	-515
भारत	-516
वारा	-517
▁बी	-518
ंप	-519
बना	-520
▁बात	-521
ठा	-522
करें	-523
र्थ	-524
▁बे	-525
वाले	-526
वश	-527
िये	-528
▁बाद	-529
▁बहुत	-530
प्र	-531
वाद	-532
फल	-533
राष	-534
करते	-535
लोगों	-536
निक	-537
भाग	-538
तः	-539
भू	-540
ेज	-541
रति	-542
यर	-543
उनके	-544
स्था	-545
रक	-546
विक	-547
हित	-548
▁तरह	-549
क्षा	-550
on	-551
▁काम	-552
▁दिन	-553
▁पास	-554
पु	-555
ंतर	-556
▁वाले	-557
मैं	-558
त्य	-559
ज्ञ	-560
ाली	-561
▁उन्होंने	-562
पह	-563
लग	-564
▁2	-565
▁पु	-566
▁हुआ	-567
भि	-568
काश	-569
सब	-570
कृत	-571
दिया	-572
डी	-573
र्म	-574
ोध	-575
गु	-576
शि	-577
जाता	-578
▁झ	-579
▁गए	-580
▁होने	-581
ूं	-582
उत	-583
▁शा	-584
ाला	-585
0¦	-586
पन	-587
▁प्राप्त	-588
रों	-589
▁मिल	-590
▁सरकार	-591
वस	-592
▁राष्ट्रपति	-593
जि	-594
रु	-595
लय	-596
▁निक	-597
ची	-598
▁सम्	-599
मुख	-600
कारी	-601
▁कम	-602
अपनी	-603
्रीय	-604
▁अन्य	-605
▁हमारे	-606
स्ता	-607
ून	-608
बाद	-609
▁जिन	-610
..	-611
▁देश	-612
अध	-613
षे	-614
▁/	-615
▁?	-616
▁हमने	-617
रख	-618
▁चु	-619
▁तुम्हारे	-620
▁करो	-621
तिक	-622
▁पी	-623
ताओं	-624
उसके	-625
▁यदि	-626
करना	-627
ख़	-628
लो	-629
▁सभी	-630
▁होगा	-631
तम	-632
बार	-633
कह	-634
कहा	-635
▁गई	-636
▁उनकी	-637
णा	-638
ाइल	-639
ेगा	-640
ti	-641
वाला	-642
me	-643
्रे	-644
्स	-645
▁19	-646
▁ओर	-647
▁पहले	-648
पि	-649
▁ऐसे	-650
▁समा	-651
▁प्रकार	-652
कम	-653
दस	-654
पे	-655
▁सूच	-656
िनियम	-657
पै	-658
ूसरे	-659
ुद	-660
▁सकते	-661
रम	-662
जिन	-663
ग्र	-664
▁मह	-665
णी	-666
बन	-667
▁साम	-668
पास	-669
▁छो	-670
▁वर्ष	-671
▁संबंध	-672
▁ऊ	-673
यार	-674
▁नी	-675
▁कारण	-676
▁व्यक्ति	-677
बल	-678
हुए	-679
▁कु	-680
िक्ष	-681
काम	-682
▁खा	-683
तियों	-684
रिक	-685
▁लि	-686
जू	-687
▁अच्छ	-688
ेंद	-689
▁:	-690
थवा	-691
▁चाहिए	-692
▁बु	-693
▁समझ	-694
धारित	-695
▁अगर	-696
थिति	-697
in	-698
▁जाने	-699
दल	-700
दों	-701
यास	-702
रहे	-703
▁होती	-704
श्च	-705
▁हा	-706
पूर्ण	-707
यात	-708
समय	-709
▁नाम	-710
पत	-711
पार	-712
▁सह	-713
▁(_	-714
▁किए	-715
जाए	-716
ताब	-717
रिया	-718
ेल	-719
विद	-720
▁आय	-721
▁इसके	-722
ुक	-723
मार	-724
▁;	-725
▁हि	-726
पित	-727
उसे	-728
▁ऐसा	-729
जान	-730
ंभ	-731
▁मि	-732
ध्य	-733
वाह	-734
▁लग	-735
▁जि	-736
हायता	-737
सूच	-738
षेत	-739
सकता	-740
▁ईमान	-741
ठी	-742
करता	-743
आई	-744
जर	-745
देख	-746
ोह	-747
▁ची	-748
▁रसूल	-749
धी	-750
▁जन	-751
▁बि	-752
दू	-753
दिन	-754
मन	-755
रीय	-756
दर्	-757
ुरु	-758
▁राज्य	-759
▁दिखा	-760
भव	-761
वित	-762
मिक	-763
▁पहु	-764
कल	-765
▁बढ़	-766
ंस	-767
ra	-768
द्योग	-769
पक	-770
▁¦2	-771
▁हों	-772
डा	-773
ेंगे	-774
वेश	-775
यू	-776
200	-777
चना	-778
बात	-779
▁क्र	-780
डर	-781
लों	-782
tion	-783
होता	-784
▁उसकी	-785
छे	-786
्यू	-787
आर	-788
रहा	-789
जे	-790
▁भारतीय	-791
न्न	-792
स्तु	-793
▁क्यों	-794
धन	-795
िकी	-796
अर	-797
▁एवं	-798
स्ट	-799
▁s	-800
ुरू	-801
बड	-802
छा	-803
कु	-804
▁3	-805
च्च	-806
षित	-807
▁विश्व	-808
एस	-809
ोगी	-810
फी	-811
तान	-812
व्य	-813
संस	-814
▁अब	-815
मह	-816
ैठ	-817
▁लगा	-818
▁मुझे	-819
▁व्या	-820
ंजी	-821
ुनिया	-822
अव	-823
पना	-824
▁हर	-825
▁भाग	-826
कट	-827
ेक	-828
षि	-829
▁गा	-830
▁जाती	-831
▁उपयोग	-832
▁%	-833
वरण	-834
▁विकास	-835
▁à	-836
राप	-837
ियाँ	-838
▁प्रदान	-839
वान	-840
बहुत	-841
होने	-842
रती	-843
▁बार	-844
वरदि	-845
▁यु	-846
▁कृ	-847
टन	-848
हि	-849
ज़ा	-850
माल	-851
▁तुम्ह	-852
पो	-853
▁हुई	-854
▁अपना	-855
▁होते	-856
तना	-857
वरदिगार	-858
प्	-859
चल	-860
शास	-861
er	-862
पाल	-863
▁दोनों	-864
▁दा	-865
▁जैसे	-866
▁सेवा	-867
▁स्था	-868
▁मौ	-869
ूह	-870
विष	-871
डे	-872
राम	-873
▁जीवन	-874
▁तुम्हें	-875
सत	-876
▁श्री	-877
टना	-878
यदि	-879
लेख	-880
▁दु	-881
5¦	-882
ैर	-883
काल	-884
▁वै	-885
▁अंत	-886
तरह	-887
▁लिया	-888
ियां	-889
▁¦19	-890
रस	-891
▁निय	-892
▁मुख	-893
उद	-894
▁भू	-895
उनकी	-896
निश	-897
▁रही	-898
00	-899
हुआ	-900
▁रब	-901
▁उसने	-902
▁पूर्व	-903
दद	-904
माज	-905
ालय	-906
na	-907
चि	-908
बू	-909
यं	-910
यान	-911
हास	-912
▁पे	-913
भर	-914
ंति	-915
4¦	-916
ंश	-917
▁बीच	-918
▁मूल	-919
युक्त	-920
नेक	-921
मंत	-922
▁बारे	-923
िल्	-924
ैयार	-925
हमारे	-926
▁लेकिन	-927
▁विशेष	-928
यत	-929
धारण	-930
गए	-931
कृति	-932
नाम	-933
▁अभि	-934
चु	-935
▁न्या	-936
पाद	-937
ाहर	-938
गम	-939
▁ढ	-940
्यक	-941
हमने	-942
▁शिक्ष	-943
साम	-944
▁बन	-945
वालों	-946
▁वाला	-947
▁ऑ	-948
पहले	-949
▁देने	-950
▁रु	-951
क्रम	-952
▁ऐसी	-953
re	-954
ोट	-955
पुर	-956
हरा	-957
हार	-958
िन्न	-959
▁संस्	-960
▁पैदा	-961
_¦	-962
वत	-963
ंचा	-964
▁¦_¦	-965
बि	-966
रत	-967
लब	-968
▁चल	-969
यालय	-970
ग़	-971
शत	-972
जार	-973
दु	-974
रपति	-975
▁‘	-976
हे	-977
ैन	-978
।"	-979
▁मो	-980
▁अधिनियम	-981
▁विचार	-982
▁स्थान	-983
अच	-984
ोजन	-985
ीय	-986
▁मेरे	-987
ंतु	-988
दृ	-989
हन	-990
धारा	-991
ौरान	-992
सान	-993
▁बो	-994
होगा	-995
▁आवश	-996
मो	-997
वृ	-998
▁औ	-999
ऐसे	-1000
▁डा	-1001
▁हमारी	-1002
शिक	-1003
▁स्वा	-1004
मित	-1005
▁तर	-1006
▁दृ	-1007
ख्या	-1008
▁लोक	-1009
▁डि	-1010
▁जाएगा	-1011
la	-1012
ँच	-1013
सभी	-1014
ियो	-1015
▁शु	-1016
गई	-1017
घा	-1018
वै	-1019
रित	-1020
▁इसे	-1021
▁हे	-1022
▁उसी	-1023
▁मार्	-1024
डि	-1025
▁¦3	-1026
▁माल	-1027
▁हूँ	-1028
▁ताकि	-1029
▁प्रयोग	-1030
सो	-1031
⁄4	-1032
मीन	-1033
ईमान	-1034
मू	-1035
▁पि	-1036
▁केवल	-1037
अब	-1038
जाने	-1039
संबंध	-1040
▁उसका	-1041
त्या	-1042
ज्ञान	-1043
ic	-1044
▁आज	-1045
त्ता	-1046
▁अथवा	-1047
▁आवश्यक	-1048
ष्ठ	-1049
रू	-1050
रूर	-1051
समझ	-1052
ंट	-1053
यम	-1054
▁सो	-1055
▁जाना	-1056
फा	-1057
बु	-1058
सल	-1059
सरकार	-1060
संग	-1061
▁योजना	-1062
इट	-1063
लब्	-1064
▁खु	-1065
▁मै	-1066
न्तु	-1067
▁विष	-1068
अगर	-1069
▁जै	-1070
▁जिन्	-1071
▁इसमें	-1072
शु	-1073
कारण	-1074
▁जिसमें	-1075
▁क्योंकि	-1076
लक	-1077
सकते	-1078
▁¦1¦	-1079
सह	-1080
निय	-1081
▁पार	-1082
▁हमें	-1083
पड	-1084
▁अधिकार	-1085
लिख	-1086
▁करती	-1087
▁प्रे	-1088
बढ	-1089
ूट	-1090
त्व	-1091
▁तब	-1092
▁उद्	-1093
▁इसलिए	-1094
गो	-1095
ण्	-1096
ठीक	-1097
▁रि	-1098
ार्थ	-1099
▁सबसे	-1100
▁सहायता	-1101
ट्ट	-1102
क्षण	-1103
▁उनका	-1104
▁उपलब्	-1105
देह	-1106
मेल	-1107
▁जिसे	-1108
विध	-1109
दम	-1110
भग	-1111
उसकी	-1112
इसके	-1113
सन	-1114
▁चीज़	-1115
ऐसा	-1116
णाम	-1117
▁स्प	-1118
चाहिए	-1119
मुझे	-1120
▁मेरी	-1121
▁प्रत्य	-1122
▁आर	-1123
लिया	-1124
किए	-1125
होती	-1126
▁”	-1127
▁अर्थ	-1128
1¦	-1129
ञान	-1130
तार	-1131
विधा	-1132
जूद	-1133
ंगा	-1134
▁वही	-1135
दूसरे	-1136
▁आधार	-1137
▁सकती	-1138
▁शक्ति	-1139
al	-1140
रब	-1141
रसूल	-1142
▁अन्	-1143
▁विभ	-1144
▁जाते	-1145
▁देता	-1146
▁संदेश	-1147
▁उपलब्ध	-1148
▁राष्ट्रीय	-1149
ंह	-1150
भु	-1151
करो	-1152
ैंक	-1153
स्ते	-1154
▁बल्	-1155
▁उससे	-1156
it	-1157
जल	-1158
स्थ	-1159
त्रा	-1160
समान	-1161
▁माम	-1162
▁स्थ	-1163
3⁄4	-1164
वादी	-1165
कुल	-1166
दारी	-1167
पादन	-1168
▁सर्	-1169
▁5	-1170
मूल	-1171
मान्य	-1172
▁उनसे	-1173
▁वाली	-1174
भारतीय	-1175
युक	-1176
क्रिया	-1177
हत्व	-1178
तिहास	-1179
ैक	-1180
लोक	-1181
▁बस	-1182
दिखा	-1183
▁&	-1184
कर्	-1185
ियन	-1186
▁सुर	-1187
▁मू	-1188
▁पता	-1189
▁4	-1190
आत	-1191
ैस	-1192
▁#	-1193
▁𐊣	-1194
र्क	-1195
▁करे	-1196
▁होना	-1197
ॉल	-1198
वाली	-1199
▁महत्व	-1200
6¦	-1201
चाल	-1202
र्ट	-1203
▁कंप	-1204
फे	-1205
लू	-1206
▁ठ	-1207
पहु	-1208
ित्	-1209
राह	-1210
▁जु	-1211
ित्र	-1212
▁¦201	-1213
आय	-1214
टक	-1215
गति	-1216
माजिक	-1217
▁वृ	-1218
ष्टि	-1219
▁लिख	-1220
एम	-1221
बद	-1222
▁डाल	-1223
▁छोड़	-1224
▁दूसरे	-1225
ऋण	-1226
जीवन	-1227
▁बड़ी	-1228
▁“	-1229
मता	-1230
रदान	-1231
▁201	-1232
▁स्ट	-1233
तंत्र	-1234
▁शिक्षा	-1235
र्य	-1236
ियोजना	-1237
गू	-1238
...	-1239
रता	-1240
लगा	-1241
▁सदस	-1242
▁धारा	-1243
▁सूची	-1244
▁परिवर्	-1245
▁बद	-1246
जैसे	-1247
▁दर्	-1248
▁पुन	-1249
▁बैठ	-1250
▁महा	-1251
दोनों	-1252
ौन	-1253
name	-1254
7¦	-1255
धर	-1256
ोप	-1257
▁यहाँ	-1258
▁परवरदिगार	-1259
गें	-1260
▁अति	-1261
▁कर्म	-1262
▁सूचना	-1263
op	-1264
आज	-1265
पत्र	-1266
ht	-1267
गह	-1268
वक	-1269
षक	-1270
भिन	-1271
ूब	-1272
्ल	-1273
वों	-1274
अपना	-1275
▁उच्च	-1276
▁कहते	-1277
ूम	-1278
एवं	-1279
▁200	-1280
ंख	-1281
ैल	-1282
द्धि	-1283
▁उठा	-1284
▁कभी	-1285
2¦	-1286
मर	-1287
समा	-1288
▁आई	-1289
ूसरी	-1290
विशेष	-1291
▁सामने	-1292
कूल	-1293
ठला	-1294
यां	-1295
श्व	-1296
▁लगे	-1297
विकास	-1298
▁प्रण	-1299
▁बल्कि	-1300
▁होंगे	-1301
ाने	-1302
▁काल	-1303
▁ग्र	-1304
▁केंद	-1305
चन	-1306
मौ	-1307
▁इसका	-1308
8¦	-1309
▁रे	-1310
▁सर	-1311
वासी	-1312
होते	-1313
▁इन्	-1314
▁संप	-1315
▁स्वी	-1316
ोन	-1317
कला	-1318
जाती	-1319
डियो	-1320
राबर	-1321
▁आदि	-1322
▁पूरी	-1323
▁लिये	-1324
▁उनमें	-1325
बच	-1326
▁बदल	-1327
▁इससे	-1328
▁करेगा	-1329
es	-1330
▁जल	-1331
▁बता	-1332
▁याद	-1333
▁साह	-1334
उपयोग	-1335
भावना	-1336
▁शामिल	-1337
▁स्पष्ट	-1338
शोध	-1339
▁शी	-1340
पात	-1341
▁कान	-1342
▁विश्	-1343
▁फ़ाइल	-1344
यो	-1345
सफल	-1346
▁अग	-1347
▁सके	-1348
वस्था	-1349
ंज	-1350
ँचा	-1351
शील	-1352
▁सू	-1353
मेरे	-1354
▁निश्च	-1355
▁विभिन्न	-1356
धे	-1357
▁!	-1358
बीच	-1359
माम	-1360
▁कई	-1361
▁मन	-1362
ed	-1363
टल	-1364
अंतर	-1365
सेवा	-1366
▁सभा	-1367
▁अवसर	-1368
▁बाहर	-1369
▁तैयार	-1370
▁मुख्य	-1371
ूत	-1372
यें	-1373
रही	-1374
▁दर	-1375
▁मदद	-1376
▁हूं	-1377
▁अच्छा	-1378
▁प्रभाव	-1379
▁स्थिति	-1380
▁सामान्य	-1381
चीज	-1382
बन्	-1383
हुई	-1384
वेदन	-1385
ुठला	-1386
▁योग	-1387
▁करके	-1388
or	-1389
गल	-1390
चय	-1391
नाथ	-1392
त्मक	-1393
विचार	-1394
▁भाषा	-1395
▁<	-1396
▁बड़ा	-1397
▁विषय	-1398
9¦	-1399
झा	-1400
नीय	-1401
▁अभ	-1402
▁अधीन	-1403
▁होगी	-1404
▁किताब	-1405
▁मार्ग	-1406
¥	-1407
ात	-1408
कान	-1409
भाषा	-1410
▁अंतर	-1411
▁प्रौ	-1412
ot	-1413
वाब	-1414
▁़्	-1415
तमान	-1416
▁t	-1417
्रो	-1418
▁चि	-1419
नियम	-1420
▁अर्	-1421
▁हाथ	-1422
बो	-1423
नुष	-1424
▁ग़	-1425
भार	-1426
लाम	-1427
▁अंग	-1428
▁ज्ञ	-1429
देशों	-1430
संदेह	-1431
▁पूरा	-1432
▁जिसके	-1433
बस	-1434
यद	-1435
िश	-1436
ील	-1437
▁शुरू	-1438
जु	-1439
ऐसी	-1440
एँगे	-1441
बारे	-1442
▁इसी	-1443
▁यही	-1444
▁दौरान	-1445
लं	-1446
▁१	-1447
अभि	-1448
कभी	-1449
उसका	-1450
रयोग	-1451
▁रंग	-1452
▁लाभ	-1453
कृतिक	-1454
▁उनको	-1455
▁जहां	-1456
▁हेतु	-1457
ठन	-1458
पता	-1459
▁(1	-1460
उसने	-1461
बंधन	-1462
▁पड़	-1463
लेकिन	-1464
हमारी	-1465
▁तुम्हारा	-1466
अग	-1467
शान	-1468
पैदा	-1469
▁शब्	-1470
▁निर्माण	-1471
ेजा	-1472
▁लो	-1473
ध्यम	-1474
▁उसमें	-1475
en	-1476
pr	-1477
पश	-1478
िज	-1479
▁रो	-1480
रिका	-1481
▁आत्	-1482
▁चाहता	-1483
अलग	-1484
रचना	-1485
संधान	-1486
्यालय	-1487
▁चाहते	-1488
▁प्रकाश	-1489
ंदर	-1490
ताकि	-1491
▁प्रक्रिया	-1492
▁d	-1493
तरी	-1494
लाई	-1495
▁चा	-1496
सूची	-1497
▁हाल	-1498
▁निश्चय	-1499
पस	-1500
सद	-1501
लाल	-1502
ल्प	-1503
▁पो	-1504
जाना	-1505
▁भेज	-1506
्यादा	-1507
अत	-1508
▁ओ	-1509
दिल	-1510
संख	-1511
▁नियम	-1512
▁डे	-1513
▁नई	-1514
वहार	-1515
▁भवन	-1516
▁संग	-1517
न्द्र	-1518
मै	-1519
ंधी	-1520
सभा	-1521
▁¦4	-1522
▁दूर	-1523
एन	-1524
लु	-1525
खंड	-1526
महत	-1527
▁शि	-1528
▁चुन	-1529
▁तरफ	-1530
चर	-1531
शे	-1532
आवश	-1533
सिक	-1534
हूँ	-1535
ारंभ	-1536
ोजित	-1537
▁गयी	-1538
इसे	-1539
सित	-1540
▁आए	-1541
▁पृ	-1542
च्चे	-1543
देने	-1544
▁गये	-1545
▁त्र	-1546
▁ब्र	-1547
▁रुप	-1548
विधान	-1549
श्चित	-1550
▁प्रत्येक	-1551
्न	-1552
राय	-1553
र्ड	-1554
ैंड	-1555
ग्रह	-1556
▁गुण	-1557
▁आपको	-1558
▁वस्तु	-1559
णय	-1560
चान	-1561
परी	-1562
नीति	-1563
योजना	-1564
▁प्रौद्योग	-1565
▁a	-1566
रिय	-1567
सुर	-1568
म्बर	-1569
हमें	-1570
क्षित	-1571
अधिनियम	-1572
थम	-1573
जों	-1574
वही	-1575
▁चे	-1576
▁भर	-1577
▁।"	-1578
्यान	-1579
▁चार	-1580
योंकि	-1581
तब	-1582
छले	-1583
▁गो	-1584
अथवा	-1585
▁देखा	-1586
▁बनाया	-1587
ran	-1588
ंगे	-1589
किस	-1590
▁यू	-1591
र्या	-1592
▁दिल	-1593
जै	-1594
दूर	-1595
यिक	-1596
ेशा	-1597
▁लौ	-1598
शासन	-1599
ुरुष	-1600
▁अभी	-1601
▁रखा	-1602
▁बड़े	-1603
▁अनुसार	-1604
ेद	-1605
▁अलग	-1606
▁जमा	-1607
▁जारी	-1608
▁सीमा	-1609
्म	-1610
उसी	-1611
वाई	-1612
▁¦0	-1613
▁प्रो	-1614
जिसमें	-1615
▁संख्या	-1616
▁क्षेत्रों	-1617
छोड	-1618
▁आग	-1619
▁आम	-1620
▁ते	-1621
ंगाल	-1622
जिसे	-1623
▁गिर	-1624
▁चला	-1625
जाएगा	-1626
▁देना	-1627
▁उत्तर	-1628
▁पूर्ण	-1629
▁महत्वपूर्ण	-1630
टों	-1631
ंदिर	-1632
लाइन	-1633
रात	-1634
▁प्रतिशत	-1635
ोगे	-1636
▁..	-1637
▁वी	-1638
क्षि	-1639
▁आगे	-1640
स्थित	-1641
▁जिसने	-1642
▁मैंने	-1643
▁संस्था	-1644
3¦	-1645
ाब	-1646
चात	-1647
पया	-1648
▁निकल	-1649
▁स्वयं	-1650
▁प्रस्तु	-1651
▁कार्यक्रम	-1652
छो	-1653
उनका	-1654
ित्व	-1655
▁दें	-1656
▁अनुम	-1657
▁सुरक्षा	-1658
घर	-1659
याद	-1660
▁पद	-1661
▁गति	-1662
▁वास्त	-1663
▁प्रमाण	-1664
▁प्रौद्योगिकी	-1665
ौम	-1666
ंबर	-1667
क्ट	-1668
जित	-1669
मीण	-1670
हरे	-1671
ोल्	-1672
▁घर	-1673
▁खुदा	-1674
ba	-1675
अज	-1676
एफ	-1677
▁C	-1678
केवल	-1679
टिंग	-1680
मेरी	-1681
▁ग्रा	-1682
▁जनता	-1683
▁उद्देश	-1684
फर	-1685
▁n	-1686
तें	-1687
द्र	-1688
श्य	-1689
▁कठ	-1690
देशी	-1691
▁अनेक	-1692
▁नीचे	-1693
▁माध्यम	-1694
▁संबंधित	-1695
ौद	-1696
तरा	-1697
विज	-1698
▁टे	-1699
त्ति	-1700
▁संघ	-1701
▁करेंगे	-1702
▁परिणाम	-1703
▁संस्थान	-1704
रीर	-1705
▁पढ़	-1706
इसलिए	-1707
tional	-1708
▁निकाल	-1709
▁बनाने	-1710
सू	-1711
मुक	-1712
हरण	-1713
¤3⁄4	-1714
▁अतः	-1715
इसमें	-1716
सूचना	-1717
ँह	-1718
खु	-1719
ॉन	-1720
▁ती	-1721
▁मत	-1722
▁आया	-1723
▁नया	-1724
▁प्रश	-1725
सहायता	-1726
▁नियंत्र	-1727
▁स्वीकार	-1728
is	-1729
कंप	-1730
ण्ड	-1731
परे	-1732
rans	-1733
सबसे	-1734
▁श्र	-1735
▁सफल	-1736
▁अध्य	-1737
▁काफी	-1738
om	-1739
णन	-1740
▁¦2¦	-1741
▁सर्व	-1742
▁प्रमुख	-1743
▁विश्वास	-1744
▁स्वतंत्र	-1745
बह	-1746
▁''	-1747
▁सौ	-1748
▁आदेश	-1749
▁धरती	-1750
▁पानी	-1751
▁ज्ञान	-1752
▁मंत्र	-1753
▁ज्यादा	-1754
bl	-1755
बत	-1756
विस	-1757
िति	-1758
उनसे	-1759
उससे	-1760
निर्	-1761
▁आपके	-1762
▁पश्च	-1763
▁स्तर	-1764
अस	-1765
कई	-1766
गण	-1767
बाह	-1768
बैठ	-1769
याय	-1770
हतर	-1771
▁कै	-1772
लावा	-1773
▁कृषि	-1774
▁सिवा	-1775
धानमंत	-1776
▁परिवर्तन	-1777
▁तरी	-1778
▁लेकर	-1779
▁विद्य	-1780
▁क्रिया	-1781
th	-1782
र्फ	-1783
उपलब	-1784
▁लेख	-1785
सामान	-1786
ransla	-1787
अधिकार	-1788
उच	-1789
लत	-1790
गीत	-1791
महा	-1792
▁मी	-1793
▁कर्	-1794
▁ठीक	-1795
▁सुन	-1796
▁अत्य	-1797
▁हिन्	-1798
मेरिका	-1799
▁केंद्र	-1800
▁विश्वविद	-1801
पट	-1802
यदा	-1803
▁शे	-1804
आधार	-1805
्यता	-1806
▁ऊपर	-1807
हेंगे	-1808
दुनिया	-1809
kg	-1810
करे	-1811
डाल	-1812
रीब	-1813
▁तीन	-1814
▁पुस्	-1815
▁प्रती	-1816
▁दुनिया	-1817
ंब	-1818
kgm	-1819
सदस	-1820
करती	-1821
ट्टी	-1822
▁गर्	-1823
▁बढ़ा	-1824
▁हिस्	-1825
▁अधिकारी	-1826
▁तुम्हारी	-1827
पृ	-1828
▁दू	-1829
जाते	-1830
देता	-1831
राने	-1832
ानीय	-1833
ोल्डर	-1834
▁पक्ष	-1835
▁बैंक	-1836
▁विंड	-1837
▁प्रयास	-1838
िता	-1839
▁घा	-1840
▁शै	-1841
कारा	-1842
▁करा	-1843
▁जाओ	-1844
▁जबकि	-1845
▁जोड़	-1846
▁समूह	-1847
▁मामले	-1848
▁किन्तु	-1849
optional	-1850
▁सामाजिक	-1851
ृद	-1852
वरी	-1853
हाल	-1854
▁मेरा	-1855
▁रखने	-1856
▁जानते	-1857
▁जिसका	-1858
▁उद्योग	-1859
अति	-1860
कता	-1861
वसा	-1862
▁रू	-1863
.201	-1864
सकती	-1865
स्या	-1866
परिवर	-1867
▁देते	-1868
▁मानव	-1869
घु	-1870
णु	-1871
००	-1872
भूत	-1873
हूं	-1874
▁ली	-1875
इयों	-1876
ज़ाब	-1877
▁रोक	-1878
▁मध्य	-1879
▁होकर	-1880
खे	-1881
पद	-1882
द्व	-1883
होना	-1884
▁आने	-1885
▁खंड	-1886
लिखित	-1887
▁आकार	-1888
शल	-1889
दाय	-1890
ेंट	-1891
लाने	-1892
वरूप	-1893
▁...	-1894
▁किस	-1895
दिष्ट	-1896
▁समान	-1897
▁जिन्हें	-1898
▁परियोजना	-1899
▁निर्धारित	-1900
-#	-1901
.0	-1902
गि	-1903
शो	-1904
हस	-1905
▁6	-1906
▁8	-1907
ity	-1908
ंसा	-1909
बदल	-1910
▁ऋण	-1911
केंद	-1912
पन्न	-1913
हायक	-1914
▁खोज	-1915
धिकार	-1916
▁जैसा	-1917
▁निम्	-1918
▁पीछे	-1919
▁रहते	-1920
▁विस्त	-1921
▁पुस्तक	-1922
बता	-1923
दारों	-1924
▁निस्	-1925
▁यहां	-1926
▁ध्यान	-1927
अक	-1928
तू	-1929
तित	-1930
मिन	-1931
चारी	-1932
साइट	-1933
सुरक	-1934
िष्ट	-1935
▁पाठ	-1936
▁गुना	-1937
▁पत्र	-1938
▁सारे	-1939
ष्ट्रीय	-1940
▁समस्या	-1941
पुन	-1942
वीं	-1943
▁चौ	-1944
पूरा	-1945
मिका	-1946
यहाँ	-1947
ृत्य	-1948
साहित	-1949
▁अवधि	-1950
▁बिना	-1951
▁लेने	-1952
▁प्रस्तुत	-1953
जह	-1954
तरफ	-1955
याँ	-1956
श्र	-1957
▁तू	-1958
गरिक	-1959
र्गत	-1960
स्तान	-1961
▁अच्छे	-1962
▁पर्या	-1963
परवरदिगार	-1964
उल	-1965
पष	-1966
मात	-1967
ौती	-1968
ंतिम	-1969
भूमि	-1970
▁सार	-1971
किताब	-1972
र्थिक	-1973
▁आकाश	-1974
▁नीति	-1975
▁वर्ग	-1976
▁प्रेम	-1977
▁7	-1978
▁गण	-1979
दर्श	-1980
हारी	-1981
दाहरण	-1982
▁रहने	-1983
▁दूसरी	-1984
▁सहयोग	-1985
an	-1986
le	-1987
इड	-1988
करा	-1989
देव	-1990
न्त	-1991
भावी	-1992
▁¦200	-1993
▁सुविधा	-1994
▁उद्देश्य	-1995
¥	-1996
तनी	-1997
म्प	-1998
लिक	-1999
▁छा	-2000
....	-2001
शिया	-2002
▁खोल	-2003
▁चयन	-2004
▁लड़	-2005
संदेश	-2006
स्त्र	-2007
▁चाहे	-2008
▁बन्द	-2009
▁लगभग	-2010
▁युद्ध	-2011
▁अतिरिक	-2012
▁जानकारी	-2013
लम	-2014
सच	-2015
▁0	-2016
च्छा	-2017
पूरी	-2018
▁मगर	-2019
▁धर्म	-2020
▁निम्न	-2021
▁विशिष्ट	-2022
ठित	-2023
दमी	-2024
▁कल	-2025
नांक	-2026
लिये	-2027
वपूर	-2028
हारा	-2029
▁पत्	-2030
▁पश्	-2031
▁लाए	-2032
जिसके	-2033
▁वहां	-2034
▁बराबर	-2035
▁आवश्यकता	-2036
एल	-2037
मध	-2038
अंत	-2039
इसी	-2040
ज़र	-2041
तीन	-2042
र्ष	-2043
इसका	-2044
ग्री	-2045
्रिय	-2046
▁उल्	-2047
निवार	-2048
▁झुठला	-2049
▁फ़ोल्डर	-2050
//	-2051
ख्	-2052
ेर	-2053
करी	-2054
क्म	-2055
धुन	-2056
पों	-2057
सिर	-2058
▁मर	-2059
इससे	-2060
कहते	-2061
भूति	-2062
ुरान	-2063
विभिन	-2064
िल्ली	-2065
▁इसकी	-2066
▁महान	-2067
▁रखते	-2068
▁सिर्फ	-2069
▁न्यायालय	-2070
तत	-2071
दक	-2072
ंचे	-2073
गाह	-2074
दगी	-2075
मों	-2076
▁पं	-2077
गतान	-2078
▁कुल	-2079
उनमें	-2080
▁इनकार	-2081
▁वालों	-2082
थि	-2083
लड	-2084
उठा	-2085
जोड	-2086
दें	-2087
बिल	-2088
▁नए	-2089
अधीन	-2090
आपको	-2091
क्ता	-2092
▁साल	-2093
क्ष्य	-2094
तैयार	-2095
आस	-2096
मदद	-2097
र्च	-2098
लगे	-2099
▁कॉ	-2100
अवसर	-2101
ियान	-2102
▁कौन	-2103
सामने	-2104
▁जिससे	-2105
▁प्रणाली	-2106
▁व्यापार	-2107
44	-2108
te	-2109
नई	-2110
आदि	-2111
क्स	-2112
रंग	-2113
रमा	-2114
हरी	-2115
▁घो	-2116
उनको	-2117
विषय	-2118
ुलिस	-2119
▁चुके	-2120
▁बेशक	-2121
▁लागू	-2122
▁जानता	-2123
▁पृष्ठ	-2124
▁हुक्म	-2125
▁वर्तमान	-2126
ar	-2127
शब	-2128
▁@	-2129
समर	-2130
थमिक	-2131
पानी	-2132
शोधन	-2133
▁दिए	-2134
करेगा	-2135
पूर्व	-2136
पोर्ट	-2137
▁उसको	-2138
▁कहने	-2139
▁जरूर	-2140
▁ज़मीन	-2141
▁समर्थ	-2142
▁क्षमता	-2143
▁अतिरिक्त	-2144
पल	-2145
केट	-2146
ज़ी	-2147
जीव	-2148
बद्ध	-2149
ित्य	-2150
▁मार	-2151
होंगे	-2152
▁महिला	-2153
▁विश्वविद्यालय	-2154
मस	-2155
नेट	-2156
सके	-2157
जहां	-2158
रभाव	-2159
वाही	-2160
शिका	-2161
▁जन्	-2162
▁नही	-2163
▁निष्	-2164
▁समाज	-2165
▁तुमसे	-2166
-1	-2167
हद	-2168
ुट	-2169
धित	-2170
पुस	-2171
लाभ	-2172
▁धन	-2173
ज्ञा	-2174
शामिल	-2175
▁मनुष	-2176
▁विवरण	-2177
▁वास्ते	-2178
नो	-2179
pro	-2180
निम	-2181
▁आस	-2182
सीमा	-2183
▁अपे	-2184
▁जगह	-2185
▁पुर	-2186
▁वेब	-2187
▁सही	-2188
▁पड़े	-2189
▁वक्त	-2190
▁अच्छी	-2191
▁आर्थिक	-2192
कत	-2193
ज्	-2194
अंग	-2195
करके	-2196
यामत	-2197
वेयर	-2198
ूँगा	-2199
▁शास	-2200
▁अग्र	-2201
▁एक्स	-2202
▁शब्द	-2203
▁हाला	-2204
गिर	-2205
निष	-2206
संद	-2207
ीनन	-2208
मेलन	-2209
शुरू	-2210
होगी	-2211
ालिम	-2212
▁कला	-2213
सलमान	-2214
▁दक्षि	-2215
tp	-2216
तव	-2217
नक	-2218
ॉक	-2219
तुल	-2220
निस	-2221
माध	-2222
रखा	-2223
र्इ	-2224
साफ	-2225
▁छि	-2226
बाहर	-2227
▁भाव	-2228
▁राह	-2229
▁परन्तु	-2230
नर	-2231
मल	-2232
िब	-2233
▁>	-2234
▁̧	-2235
eed	-2236
अभी	-2237
टिक	-2238
यही	-2239
रुप	-2240
ल्क	-2241
जारी	-2242
राही	-2243
र्ति	-2244
▁वित्	-2245
▁सिंह	-2246
▁अज़ाब	-2247
▁साहित्य	-2248
▁अनुसंधान	-2249
आग	-2250
उट	-2251
ोस	-2252
▁+	-2253
जाय	-2254
ताव	-2255
मगर	-2256
▁10	-2257
▁18	-2258
▁एस	-2259
खुदा	-2260
रकाश	-2261
▁पाल	-2262
▁सन्	-2263
कारों	-2264
▁जाये	-2265
▁मूसा	-2266
▁देशों	-2267
▁मूल्य	-2268
▁सदस्य	-2269
di	-2270
आन	-2271
▁S	-2272
▁’	-2273
केन	-2274
चला	-2275
तौर	-2276
शिश	-2277
षों	-2278
http	-2279
यादा	-2280
▁बुरा	-2281
▁कंपनी	-2282
▁गांधी	-2283
▁परिवार	-2284
▁स्वतंत्रता	-2285
अभ	-2286
खी	-2287
लौ	-2288
▁̈	-2289
ंटर	-2290
चीन	-2291
रोज	-2292
▁बच	-2293
देखा	-2294
पालन	-2295
▁चिक	-2296
▁निर	-2297
▁माँ	-2298
▁चुका	-2299
▁मित्र	-2300
▁यातना	-2301
▁दृष्टि	-2302
ranslation	-2303
¤	-2304
ंदु	-2305
पोर	-2306
मंड	-2307
हाथ	-2308
▁'%	-2309
▁थो	-2310
चालन	-2311
द्धा	-2312
▁तौर	-2313
▁यक़	-2314
▁लाख	-2315
उसमें	-2316
धुनिक	-2317
नीतिक	-2318
▁आत्म	-2319
▁भेजा	-2320
▁सत्य	-2321
धिकारी	-2322
▁जाएगी	-2323
▁तुमने	-2324
▁बच्चे	-2325
▁अंतर्गत	-2326
▁स्थापित	-2327
ंव	-2328
ंकन	-2329
यवस	-2330
येक	-2331
रार	-2332
जनिक	-2333
जबूत	-2334
▁बहु	-2335
वीकार	-2336
▁बाजार	-2337
▁प्रदेश	-2338
▁संयुक्त	-2339
il	-2340
रश	-2341
bly	-2342
oes	-2343
गुण	-2344
बान	-2345
भाल	-2346
सुन	-2347
स्क	-2348
ांश	-2349
ेंस	-2350
ख़िर	-2351
मीटर	-2352
शाली	-2353
स्ती	-2354
bably	-2355
▁देगा	-2356
▁मिले	-2357
▁चित्र	-2358
▁बंगाल	-2359
▁विभाग	-2360
▁दिल्ली	-2361
▁सम्बन्	-2362
probably	-2363
आए	-2364
शय	-2365
▁२	-2366
बाल	-2367
भेज	-2368
र्श	-2369
▁प्	-2370
▁संर	-2371
▁जाएँ	-2372
▁पहली	-2373
▁प्रारंभ	-2374
¤°	-2375
पथ	-2376
ृह	-2377
ंगी	-2378
त्त	-2379
दृष	-2380
भवन	-2381
रोध	-2382
विन	-2383
▁भु	-2384
▁शहर	-2385
▁सां	-2386
▁स्त्र	-2387
▁स्थापना	-2388
खर	-2389
सौ	-2390
▁I	-2391
44;	-2392
तृत	-2393
हेतु	-2394
ैसला	-2395
▁¦3¦	-2396
▁परी	-2397
▁रात	-2398
चाहता	-2399
दौरान	-2400
▁#44;	-2401
▁पिछले	-2402
▁सुधार	-2403
▁आधारित	-2404
▁सक्रिय	-2405
▁निस्संदेह	-2406
पढ	-2407
▁P	-2408
गयी	-2409
चुन	-2410
जमा	-2411
फार	-2412
रौद	-2413
साह	-2414
साधन	-2415
▁कित	-2416
▁कहीं	-2417
▁वहाँ	-2418
अनुसार	-2419
▁हमेशा	-2420
▁वित्तीय	-2421
Na	-2422
nt	-2423
htm	-2424
र्स	-2425
वाज	-2426
▁डर	-2427
वायु	-2428
चाहते	-2429
स्थ्य	-2430
▁निवेश	-2431
▁प्रश्	-2432
▁निर्णय	-2433
▁निश्चित	-2434
▁प्रबंधन	-2435
▁रिपोर्ट	-2436
▁नियंत्रण	-2437
▁प्रशिक्ष	-2438
फ्	-2439
000	-2440
गये	-2441
नाई	-2442
वीर	-2443
▁जे	-2444
ंपरा	-2445
घटना	-2446
नीचे	-2447
वधान	-2448
ुलती	-2449
▁कवि	-2450
मैंने	-2451
▁निशान	-2452
▁हमारा	-2453
▁हस्ता	-2454
शर	-2455
nic	-2456
खिल	-2457
वयं	-2458
वहन	-2459
▁गी	-2460
▁फै	-2461
▁उपा	-2462
▁बचा	-2463
▁बाह	-2464
बाहरी	-2465
▁name	-2466
▁बच्च	-2467
▁परंतु	-2468
▁मंदिर	-2469
▁मनुष्य	-2470
▁यात्रा	-2471
▁प्रस्ता	-2472
),	-2473
as	-2474
ii	-2475
कै	-2476
हल	-2477
ाई	-2478
▁_	-2479
समस	-2480
हिन	-2481
ानों	-2482
▁राम	-2483
▁हटा	-2484
दर्शन	-2485
ैंकों	-2486
▁जन्म	-2487
▁बदला	-2488
▁मिला	-2489
▁रचना	-2490
▁संपर्क	-2491
▁ग्रामीण	-2492
▁मंत्रालय	-2493
कू	-2494
झी	-2495
रुर	-2496
रोग	-2497
िली	-2498
गुना	-2499
देना	-2500
र्जा	-2501
विधि	-2502
ारोह	-2503
▁जल्	-2504
▁ट्र	-2505
▁वित	-2506
ंकवाद	-2507
बनाया	-2508
▁लेते	-2509
▁शरीर	-2510
▁श्रे	-2511
योगिकी	-2512
▁उत्पादन	-2513
▁निर्देश	-2514
▁विज्ञान	-2515
aà	-2516
थन	-2517
आया	-2518
केत	-2519
नया	-2520
▁फा	-2521
▁लं	-2522
किंग	-2523
जूदा	-2524
योजन	-2525
र्जी	-2526
लयों	-2527
ूसरा	-2528
▁साफ	-2529
▁घटना	-2530
▁जांच	-2531
▁त्रु	-2532
▁कृपया	-2533
▁विकल्प	-2534
▁व्यवस्था	-2535
▁9	-2536
तंत	-2537
▁फल	-2538
ंडार	-2539
▁इस्	-2540
जिसने	-2541
▁राशि	-2542
▁लाने	-2543
▁देखते	-2544
▁पुरुष	-2545
▁दक्षिण	-2546
टो	-2547
वो	-2548
िष	-2549
res	-2550
अतः	-2551
जिए	-2552
बूल	-2553
लाए	-2554
सिद	-2555
ृति	-2556
▁11	-2557
▁खे	-2558
विदा	-2559
ुदाय	-2560
▁¦5¦	-2561
▁अधि	-2562
▁बाल	-2563
निकाल	-2564
▁अन्त	-2565
▁बनाए	-2566
▁लगता	-2567
ग़म्बर	-2568
▁त्रुटि	-2569
धानमंत्री	-2570
कठ	-2571
ौल	-2572
आगे	-2573
लोड	-2574
▁टी	-2575
▁बह	-2576
धरती	-2577
ध्या	-2578
निकल	-2579
रमाण	-2580
िलाफ	-2581
ीकरण	-2582
▁डाक	-2583
निवेश	-2584
▁कार्	-2585
▁अलावा	-2586
▁बेहतर	-2587
▁वर्षों	-2588
▁जिन्होंने	-2589
ॉग	-2590
ॉर	-2591
जाओ	-2592
रोक	-2593
वृत	-2594
▁एन	-2595
जनता	-2596
मेरा	-2597
▁आयु	-2598
▁रोग	-2599
▁तत्व	-2600
▁दिशा	-2601
▁पाया	-2602
▁बैठक	-2603
▁बातों	-2604
▁मौजूद	-2605
▁लक्ष्य	-2606
▁स्वास्थ्य	-2607
▁प्रधानमंत्री	-2608
आख	-2609
जय	-2610
बोध	-2611
षणा	-2612
▁बल	-2613
Name	-2614
्राम	-2615
न्यास	-2616
▁समुद	-2617
▁सहित	-2618
▁स्रो	-2619
▁अनुभव	-2620
▁देखने	-2621
▁मृत्य	-2622
▁स्थित	-2623
ज्ञानिक	-2624
▁इतिहास	-2625
▁चिकित्	-2626
▁बच्चों	-2627
▁हिस्सा	-2628
▁निर्दिष्ट	-2629
et	-2630
चयन	-2631
वें	-2632
▁अफ	-2633
▁जह	-2634
▁झू	-2635
पीछे	-2636
श्वर	-2637
▁खेल	-2638
▁वार	-2639
थापित	-2640
▁फाइल	-2641
▁रखता	-2642
परिणाम	-2643
▁पहुँच	-2644
संबंधित	-2645
▁उत्पन्न	-2646
?"	-2647
थर	-2648
▁c	-2649
▁̄	-2650
ँकि	-2651
पाठ	-2652
पुट	-2653
यंत	-2654
रोत	-2655
साध	-2656
ानि	-2657
िंग	-2658
▁खो	-2659
▁मॉ	-2660
अनुम	-2661
ैतिक	-2662
▁kgm	-2663
▁भाई	-2664
▁हित	-2665
बनाने	-2666
रतिशत	-2667
▁क़ौम	-2668
▁पहचान	-2669
▁स्थानीय	-2670
पण	-2671
▁M	-2672
ऊपर	-2673
तीस	-2674
दुर	-2675
राब	-2676
हीन	-2677
▁डी	-2678
आपके	-2679
प्ति	-2680
▁तहत	-2681
▁आरंभ	-2682
▁भीतर	-2683
करेंगे	-2684
चारियों	-2685
विधियों	-2686
▁उत्पाद	-2687
▁वास्तव	-2688
▁वृद्धि	-2689
खो	-2690
ंदू	-2691
कोर	-2692
नाव	-2693
म्ब	-2694
रीद	-2695
हिस	-2696
▁¦5	-2697
▁टै	-2698
अनेक	-2699
आदेश	-2700
समूह	-2701
▁गैर	-2702
▁जहाँ	-2703
▁मुँह	-2704
▁आसमान	-2705
तिहासिक	-2706
वय	-2707
ोण	-2708
ंदा	-2709
मुद	-2710
युद	-2711
काफी	-2712
क्या	-2713
मारी	-2714
लाया	-2715
लेकर	-2716
वजूद	-2717
विंड	-2718
▁बने	-2719
▁यूर	-2720
▁रहो	-2721
नियंत	-2722
▁¤3⁄4	-2723
▁माना	-2724
▁विधि	-2725
▁न्याय	-2726
▁पहुंच	-2727
अधिकारी	-2728
▁पश्चिम	-2729
▁प्रवेश	-2730
▁मृत्यु	-2731
▁समाप्त	-2732
परियोजना	-2733
▁अमेरिका	-2734
▁संविधान	-2735
घन	-2736
ञा	-2737
षद	-2738
ोलन	-2739
▁20	-2740
▁डॉ	-2741
अवधि	-2742
जैसा	-2743
दायत	-2744
परिक	-2745
राना	-2746
लैंड	-2747
सिवा	-2748
▁अस्	-2749
▁छवि	-2750
▁तीस	-2751
▁बोल	-2752
▁स्त	-2753
▁छोटे	-2754
▁भूमि	-2755
▁जरूरत	-2756
▁सर्वर	-2757
▁पहुँचा	-2758
▁व्यक्त	-2759
us	-2760
आम	-2761
गन	-2762
पं	-2763
▁A	-2764
लें	-2765
वोल	-2766
▁नौ	-2767
क्षम	-2768
च्चा	-2769
मूसा	-2770
रमुख	-2771
वतंत	-2772
▁इंड	-2773
▁जवाब	-2774
▁ज़रूर	-2775
▁समिति	-2776
▁अवस्था	-2777
▁वैज्ञानिक	-2778
to	-2779
¤	-2780
ंकि	-2781
चरण	-2782
चिक	-2783
टने	-2784
▁क्	-2785
▁पौ	-2786
सिंह	-2787
▁थीं	-2788
▁दया	-2789
▁विन	-2790
कामना	-2791
ख़ुदा	-2792
दियों	-2793
सहयोग	-2794
्यूटर	-2795
▁कैसे	-2796
▁मांग	-2797
▁लिखा	-2798
▁करोड़	-2799
सामाजिक	-2800
▁सदस्यों	-2801
बं	-2802
ॉप	-2803
ंभी	-2804
तुत	-2805
मीर	-2806
रान	-2807
रिश	-2808
रेम	-2809
संघ	-2810
सों	-2811
▁25	-2812
▁पक	-2813
कृषि	-2814
क्षर	-2815
▁आशा	-2816
▁गुम	-2817
▁सोच	-2818
कर्ता	-2819
नेवाले	-2820
पूर्वक	-2821
▁कानून	-2822
▁दिनों	-2823
▁सहायक	-2824
▁प्रगति	-2825
▁भूमिका	-2826
▁मात्रा	-2827
षी	-2828
इंड	-2829
दिष	-2830
नाज	-2831
लीफ	-2832
▁तु	-2833
देते	-2834
यहां	-2835
रयास	-2836
वविद	-2837
संभव	-2838
▁शर्	-2839
दूसरी	-2840
▁संसद	-2841
▁अंतिम	-2842
▁इस्ते	-2843
▁उपकरण	-2844
▁कोर्इ	-2845
▁दिखाई	-2846
▁बोर्ड	-2847
▁प्रश्न	-2848
▁सम्मान	-2849
▁विस्तार	-2850
ou	-2851
¤¿	-2852
ड्	-2853
रल	-2854
सव	-2855
हक	-2856
▁[	-2857
गैर	-2858
ज्य	-2859
भाई	-2860
रास	-2861
▁अस	-2862
जराय	-2863
बैंक	-2864
यकता	-2865
र्चा	-2866
▁धार	-2867
▁लें	-2868
जानते	-2869
जिसका	-2870
मामले	-2871
ल्पना	-2872
▁दुर्	-2873
▁निकट	-2874
▁पुनः	-2875
▁राजा	-2876
▁वापस	-2877
▁आवेदन	-2878
▁तंत्र	-2879
▁प्रथम	-2880
▁सामग्री	-2881
▁निर्धारण	-2882
चौ	-2883
काव	-2884
थिक	-2885
पान	-2886
बाज	-2887
pres	-2888
डिया	-2889
निधि	-2890
बिना	-2891
हाला	-2892
▁(1)	-2893
▁तत्	-2894
▁निजी	-2895
▁लेखा	-2896
▁शायद	-2897
▁चुनें	-2898
▁मालूम	-2899
▁विंडो	-2900
▁नागरिक	-2901
▁अपेक्षा	-2902
):	-2903
ऑफ	-2904
छी	-2905
तल	-2906
▁{	-2907
णीः	-2908
सही	-2909
ूनी	-2910
▁आत	-2911
इसकी	-2912
जबकि	-2913
जाति	-2914
बारा	-2915
बेशक	-2916
मानव	-2917
रखने	-2918
ुमार	-2919
ैनिक	-2920
▁नेट	-2921
▁मना	-2922
▁सका	-2923
बराबर	-2924
महिला	-2925
▁अप्र	-2926
स्थिति	-2927
जानकारी	-2928
▁दिनांक	-2929
▁केन्द्र	-2930
▁प्रशिक्षण	-2931
▁प्रमाणपत्र	-2932
मण	-2933
शै	-2934
खोज	-2935
खोल	-2936
मृत	-2937
रदर	-2938
रीक	-2939
ियर	-2940
▁उद	-2941
ment	-2942
जाएँ	-2943
लिंग	-2944
सारे	-2945
होकर	-2946
ाहिर	-2947
▁कमी	-2948
▁चले	-2949
कालीन	-2950
▁कम्प	-2951
▁किये	-2952
▁तकनी	-2953
▁लागत	-2954
▁शासन	-2955
▁बातें	-2956
▁सार्व	-2957
▁उपधारा	-2958
▁समर्थन	-2959
▁व्यवहार	-2960
ठे	-2961
यस	-2962
शख	-2963
ँचे	-2964
ख्त	-2965
चंद	-2966
जें	-2967
टकर	-2968
डाक	-2969
विल	-2970
साल	-2971
राशि	-2972
▁स्क	-2973
ंत्री	-2974
नलाइन	-2975
▁जिला	-2976
▁शेयर	-2977
अतिरिक	-2978
सुविधा	-2979
▁इनमें	-2980
▁जहन्न	-2981
▁उदाहरण	-2982
▁भुगतान	-2983
vi	-2984
ढा	-2985
लै	-2986
आने	-2987
गोल	-2988
तने	-2989
ताह	-2990
लेट	-2991
▁तौ	-2992
आकार	-2993
रहते	-2994
▁देव	-2995
ंदोलन	-2996
▁अनुर	-2997
▁रखना	-2998
▁जिनके	-2999
▁प्रकट	-3000
▁भावना	-3001
▁रुपये	-3002
▁इस्तेमाल	-3003
▁व्यक्तियों	-3004
ma	-3005
औन	-3006
▁¥	-3007
ओगे	-3008
गुज	-3009
धाई	-3010
धों	-3011
न्ट	-3012
वृद	-3013
शीर	-3014
ष्ण	-3015
सेट	-3016
ियत	-3017
▁12	-3018
▁आँ	-3019
▁री	-3020
क्का	-3021
चाहे	-3022
म्मे	-3023
लगभग	-3024
लेने	-3025
ारीख	-3026
▁195	-3027
▁पूछ	-3028
▁पेश	-3029
▁बिल	-3030
▁सेट	-3031
जानता	-3032
यापार	-3033
विशिष	-3034
▁पूर्	-3035
▁अध्या	-3036
▁ऊर्जा	-3037
▁पुलिस	-3038
▁भिन्न	-3039
▁दिखाएँ	-3040
▁संबंधी	-3041
▁मुखर्जी	-3042
▁प्रस्ताव	-3043
रद	-3044
▁R	-3045
://	-3046
एगा	-3047
जगह	-3048
तया	-3049
पृष	-3050
मिट	-3051
हुक	-3052
ृदय	-3053
▁बै	-3054
▁भय	-3055
कहीं	-3056
ज़िल	-3057
रणाली	-3058
▁¦44¦	-3059
▁असफल	-3060
▁खाते	-3061
▁जाति	-3062
▁रहता	-3063
▁समझा	-3064
▁सुना	-3065
▁अत्या	-3066
▁चर्चा	-3067
▁जिसकी	-3068
▁तुमको	-3069
▁संगठन	-3070
▁प्रदर्श	-3071
ee	-3072
घो	-3073
छि	-3074
कित	-3075
ज़े	-3076
▁पथ	-3077
▁पस	-3078
आकाश	-3079
उसको	-3080
माना	-3081
रूरी	-3082
सीहत	-3083
ारों	-3084
्रेस	-3085
▁199	-3086
▁कहो	-3087
▁मस्	-3088
▁लाल	-3089
जरायल	-3090
▁इतना	-3091
▁पूरे	-3092
▁समझौ	-3093
▁आयतों	-3094
▁क्षमा	-3095
▁स्कूल	-3096
▁मंत्री	-3097
▁विकसित	-3098
▁सरकारी	-3099
▁राज्यों	-3100
अफ	-3101
कॉ	-3102
ग्	-3103
▁–	-3104
ंता	-3105
काई	-3106
कात	-3107
किल	-3108
कीय	-3109
ख्स	-3110
चों	-3111
दास	-3112
दिए	-3113
बोर	-3114
भाष	-3115
▁(2	-3116
▁आन	-3117
▁ऑफ	-3118
▁कट	-3119
रिश्	-3120
ार्ड	-3121
ूनतम	-3122
झुठला	-3123
पादित	-3124
रियों	-3125
विभाग	-3126
सानों	-3127
▁गुणव	-3128
▁शख्स	-3129
नेवाला	-3130
▁चाहिये	-3131
▁समाधान	-3132
▁चिकित्सा	-3133
▁निशानियाँ	-3134
छली	-3135
फिक	-3136
शाह	-3137
हरू	-3138
▁छु	-3139
▁ति	-3140
कहने	-3141
रहने	-3142
षमता	-3143
▁not	-3144
▁¦4¦	-3145
▁क़ा	-3146
▁पहा	-3147
▁हक़	-3148
पुरुष	-3149
भाषित	-3150
राज्य	-3151
विवरण	-3152
विष्य	-3153
▁मिटा	-3154
आधारित	-3155
▁केन्द	-3156
▁अध्ययन	-3157
▁जाएँगे	-3158
▁प्रोत्	-3159
▁भविष्य	-3160
▁निर्यात	-3161
▁संभावना	-3162
▁प्राथमिक	-3163
ol	-3164
▁T	-3165
ँति	-3166
जनक	-3167
बाई	-3168
राध	-3169
श्त	-3170
सूर	-3171
▁15	-3172
▁दल	-3173
ड़ाई	-3174
मिला	-3175
रखते	-3176
रदेश	-3177
लागू	-3178
वहां	-3179
▁खुद	-3180
▁शुभ	-3181
इनकार	-3182
परिवार	-3183
यायालय	-3184
▁किंतु	-3185
▁चयनित	-3186
▁दस्ता	-3187
▁अनुमति	-3188
▁पदार्थ	-3189
▁यक़ीनन	-3190
▁विनिर्	-3191
▁वेबसाइट	-3192
▁सम्मेलन	-3193
▁गुणवत्ता	-3194
he	-3195
अम	-3196
खड	-3197
नल	-3198
00¦	-3199
ंगल	-3200
ंबई	-3201
जुड	-3202
लिम	-3203
ल्स	-3204
वेब	-3205
साब	-3206
▁(%	-3207
▁¥	-3208
▁टा	-3209
दाता	-3210
माने	-3211
िसाल	-3212
▁कमा	-3213
▁भार	-3214
▁रेल	-3215
आसमान	-3216
क्रमण	-3217
संयुक	-3218
▁चुकी	-3219
▁वायु	-3220
▁सुनि	-3221
▁सेना	-3222
ानियाँ	-3223
▁शुल्क	-3224
▁संगीत	-3225
▁उल्लेख	-3226
▁विचारों	-3227
इम	-3228
नए	-3229
नन	-3230
कौन	-3231
ट्र	-3232
दृश	-3233
म्भ	-3234
याप	-3235
वेद	-3236
सदी	-3237
▁वो	-3238
▁शो	-3239
कल्प	-3240
ताब्	-3241
भाजन	-3242
मनुष	-3243
लेखा	-3244
वर्क	-3245
समाज	-3246
▁¦20	-3247
▁जित	-3248
न्त्र	-3249
हमारा	-3250
▁need	-3251
▁आपने	-3252
▁कांग	-3253
▁मुद्	-3254
▁युवा	-3255
स्वरूप	-3256
▁पुनर्	-3257
▁मिलने	-3258
▁शताब्	-3259
▁शीर्ष	-3260
▁स्रोत	-3261
▁आयोजित	-3262
▁औद्योग	-3263
▁केन्द्रीय	-3264
▁प्राकृतिक	-3265
▁translation	-3266
गड	-3267
थल	-3268
टिल	-3269
मंच	-3270
▁गि	-3271
क्षक	-3272
चुके	-3273
तरित	-3274
नाटक	-3275
मेंट	-3276
▁नदी	-3277
▁बंद	-3278
▁रिक	-3279
तुमसे	-3280
▁खाता	-3281
▁गुरु	-3282
▁प्रणब	-3283
▁ज़ालिम	-3284
▁व्यापक	-3285
▁संग्रह	-3286
▁वास्तविक	-3287
्राष्ट्रीय	-3288
▁सुनिश्चित	-3289
इप	-3290
कद	-3291
चक	-3292
मद	-3293
▁p	-3294
ताल	-3295
बहु	-3296
▁बर	-3297
▁बौ	-3298
-#-#	-3299
City	-3300
घाटन	-3301
जरूर	-3302
तकों	-3303
त्मा	-3304
परीक	-3305
पादक	-3306
बुरा	-3307
मृति	-3308
▁परे	-3309
▁रखो	-3310
▁शेष	-3311
जिससे	-3312
थापना	-3313
थियों	-3314
धिकरण	-3315
▁does	-3316
▁आदमी	-3317
▁उचित	-3318
▁नियु	-3319
▁मिली	-3320
▁डिस्क	-3321
▁मजबूत	-3322
▁मिलता	-3323
▁विद्व	-3324
▁सर्वो	-3325
▁पश्चात	-3326
▁योगदान	-3327
व्यवस्था	-3328
▁अधिकांश	-3329
▁probably	-3330
▁करनेवाला	-3331
▁प्रभावित	-3332
▁सार्वजनिक	-3333
धु	-3334
मज	-3335
मय	-3336
▁D	-3337
ताक	-3338
थात	-3339
बाग	-3340
▁धी	-3341
ड़ों	-3342
वालो	-3343
शकों	-3344
संगत	-3345
▁आपस	-3346
▁रकम	-3347
तियां	-3348
पिछले	-3349
▁http	-3350
▁जैसी	-3351
▁सफलता	-3352
▁छोड़कर	-3353
▁प्रबंध	-3354
▁अध्यक्ष	-3355
ac	-3356
डल	-3357
ीप	-3358
ऊण्	-3359
कृष	-3360
छ्ष	-3361
जली	-3362
नही	-3363
फ्त	-3364
म्र	-3365
राण	-3366
वीन	-3367
क्शन	-3368
छ्ष्	-3369
भेजा	-3370
वसाय	-3371
िसूच	-3372
▁असम	-3373
▁ईसा	-3374
▁तेल	-3375
▁पाक	-3376
▁बनी	-3377
ऊण्श्	-3378
चालित	-3379
तावरण	-3380
तुमने	-3381
भाँति	-3382
यातना	-3383
वर्ती	-3384
हमेशा	-3385
▁¦10¦	-3386
▁बाज़	-3387
▁अवश्य	-3388
▁आख़िर	-3389
▁पुरस्	-3390
▁अंग्रे	-3391
▁आधुनिक	-3392
▁विदेशी	-3393
अनुसंधान	-3394
▁संरक्षण	-3395
ऊण्श्छ्ष्	-3396
यल	-3397
चीत	-3398
जात	-3399
थोड	-3400
बचा	-3401
वयन	-3402
▁कप	-3403
ंखला	-3404
तेरे	-3405
बैठक	-3406
महान	-3407
रतीक	-3408
वर्ष	-3409
शाला	-3410
ालिब	-3411
▁गलत	-3412
▁चैन	-3413
▁मही	-3414
▁हैः	-3415
कंपनी	-3416
जाएगी	-3417
मंदिर	-3418
सुधार	-3419
▁अगले	-3420
▁उद्य	-3421
▁देती	-3422
▁मुक़	-3423
▁शिका	-3424
गीदारी	-3425
योक्ता	-3426
निवार्य	-3427
▁नेटवर्क	-3428
राष्ट्रीय	-3429
▁अनिवार्य	-3430
▁औद्योगिक	-3431
▁पैग़म्बर	-3432
ंथ	-3433
तौ	-3434
her	-3435
ंटे	-3436
उपस	-3437
दिक	-3438
पीय	-3439
पेट	-3440
फ्ट	-3441
माँ	-3442
रेट	-3443
रेस	-3444
वेज	-3445
▁भौ	-3446
ंचाई	-3447
जाये	-3448
पहली	-3449
सरों	-3450
साहन	-3451
्रीन	-3452
रारंभ	-3453
राहीम	-3454
रिपोर	-3455
▁चलता	-3456
▁दिवस	-3457
▁बदले	-3458
▁रक्त	-3459
▁संभव	-3460
▁ज़िन्	-3461
▁तरीके	-3462
▁अधिकतर	-3463
▁पहुंचा	-3464
▁प्रकृति	-3465
▁प्रभावी	-3466
पौ	-3467
सज	-3468
कवि	-3469
गों	-3470
टिश	-3471
दित	-3472
दीन	-3473
लाख	-3474
शित	-3475
संक	-3476
▁अल	-3477
▁उल	-3478
▁एम	-3479
▁ढा	-3480
▁वन	-3481
html	-3482
आईटी	-3483
जवाब	-3484
दर्भ	-3485
बाइल	-3486
संपर	-3487
संरक	-3488
▁तस्	-3489
▁भली	-3490
▁वजह	-3491
▁सात	-3492
▁सिर	-3493
चिकित	-3494
प्रिय	-3495
बाजार	-3496
▁उनपर	-3497
▁क्रम	-3498
▁ख़बर	-3499
▁बयान	-3500
▁बाग़	-3501
▁इच्छा	-3502
▁तुमपर	-3503
▁देंगे	-3504
▁मुक्त	-3505
▁संकेत	-3506
▁संसार	-3507
▁बुद्धि	-3508
▁संदर्भ	-3509
▁हस्ताक्षर	-3510
उम	-3511
झू	-3512
घ्र	-3513
चिम	-3514
तोष	-3515
देन	-3516
न्स	-3517
परन	-3518
पैग	-3519
फिल	-3520
बंद	-3521
रीन	-3522
शहर	-3523
▁झग	-3524
अपेक	-3525
क्टर	-3526
जहाँ	-3527
फाइल	-3528
महिम	-3529
▁कने	-3530
▁चाल	-3531
▁ध्व	-3532
▁भ्र	-3533
▁रखे	-3534
▁हाँ	-3535
चारिक	-3536
च्छेद	-3537
द्यपि	-3538
ृंखला	-3539
▁नंबर	-3540
▁आत्मा	-3541
▁ईश्वर	-3542
▁कोशिश	-3543
▁ग्राह	-3544
▁पूंजी	-3545
▁प्रभु	-3546
▁सक्षम	-3547
▁परंपरा	-3548
▁प्रतिक	-3549
▁मौजूदा	-3550
▁उपस्थित	-3551
▁कांग्रेस	-3552
▁निर्धारिती	-3553
ur	-3554
कड	-3555
आउट	-3556
कलन	-3557
कुफ	-3558
रिए	-3559
हाज	-3560
ोटो	-3561
▁26	-3562
▁¤	-3563
▁¦8	-3564
▁भग	-3565
▁सच	-3566
पाया	-3567
लुता	-3568
लेषण	-3569
समाप	-3570
सिंग	-3571
ूंकि	-3572
▁जाय	-3573
▁जीव	-3574
▁फेर	-3575
▁माह	-3576
▁रखी	-3577
▁सिक	-3578
▁सित	-3579
त्रों	-3580
परंतु	-3581
▁आयोग	-3582
▁काफ़	-3583
▁बिल्	-3584
omment	-3585
बराहीम	-3586
सरकारी	-3587
साधनों	-3588
▁उपबंध	-3589
▁खाद्य	-3590
▁दूसरा	-3591
▁अनुप्र	-3592
▁इन्हें	-3593
▁कार्या	-3594
▁नाज़िल	-3595
▁समारोह	-3596
)।	-3597
यण	-3598
रज	-3599
ुत	-3600
ूद	-3601
ंडा	-3602
अवस	-3603
चिव	-3604
टेड	-3605
दया	-3606
बुद	-3607
योज	-3608
राक	-3609
▁¤°	-3610
▁अह	-3611
▁सृ	-3612
चुका	-3613
देगा	-3614
मिले	-3615
वहाँ	-3616
▁आते	-3617
▁तुल	-3618
▁दशा	-3619
▁राय	-3620
▁हास	-3621
योगिक	-3622
▁ठहरा	-3623
▁पद्ध	-3624
▁पर्व	-3625
▁निदेश	-3626
▁प्रोग	-3627
▁वायदा	-3628
▁तुममें	-3629
▁बैंकों	-3630
▁वीडियो	-3631
▁अत्यन्त	-3632
▁शताब्दी	-3633
▁संपत्ति	-3634
▁पर्याप्त	-3635
▁प्रकाशित	-3636
▁B	-3637
त्म	-3638
नाक	-3639
निध	-3640
मोह	-3641
यूर	-3642
रथम	-3643
शुल	-3644
शेष	-3645
सात	-3646
हटा	-3647
ुमा	-3648
▁1.	-3649
ंभीर	-3650
गिज़	-3651
चलित	-3652
ज़ार	-3653
जांच	-3654
दिशा	-3655
द्रा	-3656
मिंग	-3657
रशिक	-3658
▁अता	-3659
▁कलक	-3660
▁पीठ	-3661
ज्ञात	-3662
बंगाल	-3663
मिलित	-3664
रुद्ध	-3665
श्विक	-3666
▁अपील	-3667
▁डाला	-3668
▁समन्	-3669
▁कुंजी	-3670
▁दृष्ट	-3671
▁रक्षा	-3672
▁समुद्र	-3673
▁सेवाओं	-3674
▁आतंकवाद	-3675
▁मुसलमान	-3676
▁विरुद्ध	-3677
▁कंप्यूटर	-3678
▁प्रयुक्त	-3679
fo	-3680
uk	-3681
गज	-3682
डन	-3683
थक	-3684
ैव	-3685
जाब	-3686
नान	-3687
हमत	-3688
्टी	-3689
▁कौ	-3690
क्षे	-3691
फ़ार	-3692
भाषण	-3693
मतौर	-3694
समुद	-3695
▁किन	-3696
▁ढंग	-3697
▁दुख	-3698
▁बाप	-3699
ंचांग	-3700
मौजूद	-3701
▁छोटा	-3702
▁जाँच	-3703
▁ब्रि	-3704
▁विजय	-3705
▁स्टे	-3706
▁उपचार	-3707
▁वित्त	-3708
अमेरिका	-3709
▁आकाशों	-3710
▁प्रतीक	-3711
▁यद्यपि	-3712
▁शब्दों	-3713
▁परीक्षा	-3714
▁व्यक्तिगत	-3715
hi	-3716
आश	-3717
षम	-3718
ंधे	-3719
अधि	-3720
ड़क	-3721
णिज	-3722
नात	-3723
पाक	-3724
बरी	-3725
मना	-3726
मास	-3727
र्ग	-3728
लाज	-3729
वीय	-3730
ह्न	-3731
▁¦6	-3732
▁नव	-3733
भीतर	-3734
मुँह	-3735
रालय	-3736
वाहर	-3737
▁¦0¦	-3738
▁आता	-3739
▁खास	-3740
▁मेल	-3741
▁सरक	-3742
▁सीख	-3743
गांधी	-3744
रामीण	-3745
िकाना	-3746
▁आयात	-3747
▁खर्च	-3748
▁न्यू	-3749
▁वर्ण	-3750
ंजीनिय	-3751
इतिहास	-3752
▁खुलती	-3753
▁मालिक	-3754
▁वार्ष	-3755
▁विवाह	-3756
▁विशाल	-3757
वासियों	-3758
▁बन्दों	-3759
▁समाचार	-3760
▁हिन्दी	-3761
ार्थियों	-3762
▁निर्मित	-3763
▁केंद्रीय	-3764
▁सुरक्षित	-3765
▁अंतर्राष्ट्रीय	-3766
11	-3767
एच	-3768
तस	-3769
नत	-3770
गरी	-3771
चले	-3772
थिय	-3773
परस	-3774
शीन	-3775
सरण	-3776
सूस	-3777
हाद	-3778
ूंढ	-3779
थाओं	-3780
निजी	-3781
बदला	-3782
लग्न	-3783
वरणी	-3784
स्टम	-3785
▁196	-3786
▁अंक	-3787
▁कदम	-3788
▁नगर	-3789
कृपया	-3790
क्ट्र	-3791
थानों	-3792
मेरिक	-3793
रबंधन	-3794
समिति	-3795
ार्थी	-3796
▁इतनी	-3797
▁डेटा	-3798
▁पंजी	-3799
▁पालन	-3800
▁सलाह	-3801
▁सत्या	-3802
▁अभिलेख	-3803
▁न्याया	-3804
▁संरचना	-3805
▁समुदाय	-3806
........	-3807
▁पुरस्कार	-3808
bm	-3809
ha	-3810
id	-3811
अद	-3812
ईश	-3813
कब	-3814
रन	-3815
िप	-3816
▁E	-3817
▁w	-3818
उपा	-3819
खुद	-3820
दीक	-3821
पाई	-3822
बने	-3823
रणा	-3824
र्द	-3825
षिण	-3826
▁13	-3827
▁सद	-3828
धानी	-3829
धेयक	-3830
पुनर	-3831
मंडल	-3832
रेशन	-3833
लगता	-3834
लेते	-3835
विकल	-3836
शेयर	-3837
सन्न	-3838
सामग	-3839
सेना	-3840
िकोण	-3841
ेजें	-3842
▁आती	-3843
▁खूब	-3844
▁बर्	-3845
▁मोह	-3846
▁घरों	-3847
▁पसंद	-3848
▁ब्रा	-3849
▁वेतन	-3850
▁सकें	-3851
▁गुनाह	-3852
▁पुकार	-3853
▁भंडार	-3854
▁विमान	-3855
▁शीघ्र	-3856
कामनाएं	-3857
▁बावजूद	-3858
▁मिट्टी	-3859
▁विंडों	-3860
▁विधेयक	-3861
▁कलकत्ता	-3862
आक	-3863
डु	-3864
ैध	-3865
जोर	-3866
पाए	-3867
मूर	-3868
लाद	-3869
स्प	-3870
स्य	-3871
ूसु	-3872
▁14	-3873
▁30	-3874
▁इं	-3875
▁उठ	-3876
▁फे	-3877
यूटर	-3878
रुटि	-3879
िकार	-3880
▁(19	-3881
▁क्ल	-3882
▁नये	-3883
▁सरल	-3884
अलावा	-3885
गारों	-3886
नियों	-3887
पहचान	-3888
पहुँच	-3889
यवहार	-3890
▁उसपर	-3891
▁महत्	-3892
साधारण	-3893
▁कराने	-3894
▁दृश्य	-3895
▁देखें	-3896
▁पश्चा	-3897
▁बताया	-3898
▁मिलकर	-3899
▁योग्य	-3900
▁सत्ता	-3901
▁जोड़ें	-3902
▁जहन्नुम	-3903
उड	-3904
खेल	-3905
छवि	-3906
जहन	-3907
डिस	-3908
दरत	-3909
द्द	-3910
पेश	-3911
बूद	-3912
शुक	-3913
्टर	-3914
▁सत	-3915
,000	-3916
करोड	-3917
खाता	-3918
मांग	-3919
रिंग	-3920
लिखा	-3921
ूंगा	-3922
ॉनिक	-3923
▁गाँ	-3924
▁न्य	-3925
▁लम्	-3926
▁समृ	-3927
उनलोड	-3928
ञानिक	-3929
बातें	-3930
बेहतर	-3931
िकाओं	-3932
▁¦195	-3933
▁कहना	-3934
▁छोटी	-3935
▁पर्य	-3936
▁पांच	-3937
▁पाने	-3938
▁पिता	-3939
▁फरमा	-3940
▁अफ्री	-3941
▁दर्शा	-3942
▁मार्च	-3943
▁हासिल	-3944
क्षेत्र	-3945
मुसलमान	-3946
रधानमंत	-3947
▁अभिव्य	-3948
▁जिनमें	-3949
▁संशोधन	-3950
▁झुठलाया	-3951
▁वैश्विक	-3952
▁हालाँकि	-3953
▁पर्यावरण	-3954
▁अनुप्रयोग	-3955
▁संस्थानों	-3956
-0	-3957
¤¤	-3958
फै	-3959
मॉ	-3960
▁F	-3961
jee	-3962
pra	-3963
prh	-3964
ढ़ी	-3965
बूझ	-3966
बोल	-3967
मीद	-3968
रहो	-3969
रेख	-3970
ल्ल	-3971
वैज	-3972
ानु	-3973
िमी	-3974
▁),	-3975
▁¦7	-3976
▁टन	-3977
▁१९	-3978
bmuk	-3979
दापि	-3980
प्रे	-3981
यापक	-3982
रासत	-3983
ल्ला	-3984
शरीर	-3985
संसद	-3986
स्पर	-3987
्याण	-3988
▁¦18	-3989
▁¦6¦	-3990
▁अक्	-3991
▁दिख	-3992
prana	-3993
इनमें	-3994
देखते	-3995
देखने	-3996
▁दिला	-3997
▁नियत	-3998
▁रेखा	-3999
▁सारा	-4000
herjee	-4001
संबंधी	-4002
▁घोषणा	-4003
▁मानते	-4004
▁विधान	-4005
ुनियादी	-4006
▁मामलों	-4007
▁मुद्रा	-4008
▁उपयुक्त	-4009
▁विस्तृत	-4010
pranabmuk	-4011
▁प्रभुत्व	-4012
▁प्रदर्शित	-4013
▁अर्थव्यवस्था	-4014
pranabmukherjee	-4015
qu	-4016
इच	-4017
ईल	-4018
टम	-4019
नौ	-4020
भक	-4021
ुश	-4022
आशा	-4023
गुम	-4024
ज़त	-4025
टरी	-4026
टित	-4027
तहत	-4028
तुर	-4029
पूछ	-4030
भुत	-4031
भोग	-4032
रमण	-4033
रेल	-4034
र्न	-4035
लका	-4036
लिप	-4037
िना	-4038
ेषण	-4039
▁17	-4040
▁टि	-4041
किये	-4042
रोसा	-4043
र्षक	-4044
वरों	-4045
वाना	-4046
ोबार	-4047
▁जून	-4048
▁पैर	-4049
▁मुझ	-4050
▁युग	-4051
▁लघु	-4052
अनुभव	-4053
थानीय	-4054
दिनों	-4055
फारिश	-4056
सहायक	-4057
सूचित	-4058
हरबान	-4059
▁कठिन	-4060
▁कठोर	-4061
▁जादू	-4062
▁तरफ़	-4063
▁भोजन	-4064
▁रहें	-4065
▁सख्त	-4066
▁हमसे	-4067
▁हालत	-4068
उदाहरण	-4069
द्धांत	-4070
▁यूरोप	-4071
▁वर्णन	-4072
▁शांति	-4073
▁संचार	-4074
▁रहेंगे	-4075
▁स्वागत	-4076
▁प्राधिकारी	-4077
12	-4078
ct	-4079
¤2	-4080
इश	-4081
ऊर	-4082
भय	-4083
ुड	-4084
▁$	-4085
▁U	-4086
ंदी	-4087
कमी	-4088
गढ़	-4089
धीश	-4090
सोच	-4091
आरंभ	-4092
कैसे	-4093
ठनों	-4094
पसंद	-4095
प्रा	-4096
बनाए	-4097
मार्	-4098
शायद	-4099
सहित	-4100
सुना	-4101
▁दाय	-4102
▁रोज	-4103
▁विप	-4104
उपकरण	-4105
जिस्ट	-4106
बातों	-4107
्यूशन	-4108
▁खुला	-4109
▁छिपा	-4110
▁नाटक	-4111
▁रखें	-4112
▁सबको	-4113
नागरिक	-4114
िसूचना	-4115
▁बनाएँ	-4116
वादियों	-4117
संविधान	-4118
▁हिदायत	-4119
▁प्रसन्न	-4120
▁लोकप्रिय	-4121
गै	-4122
नज	-4123
ंदन	-4124
अवश	-4125
ईसा	-4126
ढ़ा	-4127
तेज	-4128
थीं	-4129
नता	-4130
राव	-4131
▁16	-4132
▁¤	-4133
▁बढ	-4134
▁हद	-4135
अनुप	-4136
अनुर	-4137
रवेश	-4138
लागत	-4139
हम्म	-4140
ुरआन	-4141
▁उम्	-4142
▁भूल	-4143
फिरों	-4144
राहना	-4145
वाधिक	-4146
▁आपका	-4147
▁इनके	-4148
▁खरीद	-4149
▁चुने	-4150
▁पड़ा	-4151
▁मौसम	-4152
▁व्यय	-4153
▁साझी	-4154
▁राजस्	-4155
▁विविध	-4156
▁सच्चे	-4157
▁इस्लाम	-4158
▁उन्हीं	-4159
▁जाएंगे	-4160
▁संसाधन	-4161
▁उपन्यास	-4162
▁अनुच्छेद	-4163
▁करनेवालों	-4164
▁अधिकारियों	-4165
▁कार्यक्रमों	-4166
¤1	-4167
इक	-4168
कश	-4169
बख	-4170
बै	-4171
षर	-4172
ुस	-4173
▁ऋ	-4174
ंकर	-4175
निट	-4176
ब्र	-4177
रेत	-4178
वली	-4179
शोथ	-4180
षमा	-4181
ेंज	-4182
ोकन	-4183
्ति	-4184
▁?"	-4185
▁तथ	-4186
▁तय	-4187
▁बॉ	-4188
▁शक	-4189
▁‘‘	-4190
▁”-	-4191
000¦	-4192
छोटे	-4193
तकनी	-4194
दिवस	-4195
निकट	-4196
परिस	-4197
बादी	-4198
रखता	-4199
समझा	-4200
सीता	-4201
▁197	-4202
▁करी	-4203
▁मंच	-4204
▁लौट	-4205
पहुंच	-4206
▁¦199	-4207
▁आकर्	-4208
▁किस्	-4209
▁जल्द	-4210
▁फिली	-4211
▁सबके	-4212
उपधारा	-4213
विकसित	-4214
संरचना	-4215
▁जरूरी	-4216
▁ज़रुर	-4217
▁जिसको	-4218
▁लगाने	-4219
▁शुक्र	-4220
▁सांस्	-4221
▁हाथों	-4222
▁क़यामत	-4223
▁निर्भर	-4224
▁परस्पर	-4225
▁प्रशास	-4226
▁सिस्टम	-4227
▁हरगिज़	-4228
▁विशेषता	-4229
▁स्क्रीन	-4230
▁अंग्रेजी	-4231
▁ऐतिहासिक	-4232
▁कर्मचारी	-4233
▁क्षेत्रीय	-4234
▁गतिविधियों	-4235
▁अंतरराष्ट्रीय	-4236
ce	-4237
¤®	-4238
आँ	-4239
कन	-4240
डो	-4241
भौ	-4242
रव	-4243
सप	-4244
हण	-4245
्ठ	-4246
▁३	-4247
ase	-4248
fin	-4249
अल्	-4250
कहो	-4251
काब	-4252
टाई	-4253
युत	-4254
लाओ	-4255
सोस	-4256
ौशन	-4257
▁¥	-4258
▁अक	-4259
▁अर	-4260
▁आठ	-4261
▁सश	-4262
ंवों	-4263
इतना	-4264
जिटल	-4265
जिला	-4266
डेटा	-4267
थायी	-4268
धारी	-4269
धीरे	-4270
मानी	-4271
रगति	-4272
रांत	-4273
राजा	-4274
संपत	-4275
▁अना	-4276
▁आंक	-4277
▁टुक	-4278
▁मास	-4279
अंतिम	-4280
कानून	-4281
जरूरत	-4282
तुमको	-4283
भावित	-4284
संचार	-4285
हम्मद	-4286
▁खेती	-4287
▁निगम	-4288
▁पकड़	-4289
▁बधाई	-4290
▁बैठे	-4291
▁भारी	-4292
▁रहती	-4293
▁रहना	-4294
▁विफल	-4295
पहुँचा	-4296
भूमिका	-4297
▁एशिया	-4298
▁कटौती	-4299
▁जीवित	-4300
▁नसीहत	-4301
▁इजरायल	-4302
▁कल्याण	-4303
▁ज़ाहिर	-4304
▁स्थायी	-4305
▁कार्यों	-4306
▁नियुक्त	-4307
▁पश्चिमी	-4308
▁महात्मा	-4309
▁महिलाओं	-4310
▁राजनीतिक	-4311
▁सिद्धांत	-4312
▁प्रोग्राम	-4313
▁निम्नलिखित	-4314
▁मार्गदर्शन	-4315
os	-4316
ail	-4317
not	-4318
खों	-4319
फेद	-4320
बित	-4321
बेस	-4322
रज़	-4323
वाक	-4324
िनी	-4325
ूदी	-4326
्ठा	-4327
▁50	-4328
ंद्र	-4329
जाइन	-4330
पिता	-4331
वापस	-4332
वामी	-4333
सागर	-4334
ाबले	-4335
्मिक	-4336
▁100	-4337
▁आउट	-4338
▁कश्	-4339
▁नमा	-4340
▁मंड	-4341
▁सप्	-4342
▁हवा	-4343
▁हिम	-4344
तावनी	-4345
दिखाई	-4346
वलोकन	-4347
वियों	-4348
▁¦12¦	-4349
▁दृढ़	-4350
▁निका	-4351
▁पार्	-4352
▁लेखक	-4353
▁समर्	-4354
▁सीधे	-4355
▁हजार	-4356
▁इत्या	-4357
▁उत्तम	-4358
▁काव्य	-4359
▁जल्दी	-4360
▁प्रार	-4361
▁बढ़कर	-4362
▁विरोध	-4363
▁जिम्मे	-4364
▁नियमों	-4365
▁स्वामी	-4366
▁विद्युत	-4367
▁शास्त्र	-4368
▁सम्बन्ध	-4369
▁दृष्टिकोण	-4370
30	-4371
कक	-4372
टै	-4373
फि	-4374
शह	-4375
▁O	-4376
▁b	-4377
आकर	-4378
दृढ	-4379
नगर	-4380
पकड	-4381
फेर	-4382
बनी	-4383
भली	-4384
रिस	-4385
रेक	-4386
वां	-4387
ष्क	-4388
सका	-4389
साइ	-4390
सिस	-4391
हान	-4392
ूरी	-4393
्वि	-4394
▁अं	-4395
ंतरण	-4396
क्सी	-4397
खाते	-4398
तुम्	-4399
दायी	-4400
पूरे	-4401
वंबर	-4402
वेशन	-4403
शानी	-4404
▁गैस	-4405
▁चरण	-4406
▁दबा	-4407
▁दीन	-4408
▁पशु	-4409
▁बिक	-4410
▁भला	-4411
lease	-4412
जिनके	-4413
तृत्व	-4414
धारणा	-4415
मालूम	-4416
वर्तन	-4417
श्वास	-4418
संगठन	-4419
संगीत	-4420
ियामत	-4421
▁¦11¦	-4422
▁करनी	-4423
▁कुफ्	-4424
▁तेरे	-4425
▁निधि	-4426
▁लेना	-4427
▁शैली	-4428
▁सारी	-4429
राथमिक	-4430
▁नेहरू	-4431
▁प्रवि	-4432
▁यंत्र	-4433
▁अध्याय	-4434
▁आंदोलन	-4435
▁ऑनलाइन	-4436
▁कल्पना	-4437
▁जायेगा	-4438
▁किसानों	-4439
▁श्रेणीः	-4440
▁संस्कृत	-4441
▁कार्यान्	-4442
▁संस्कृति	-4443
we	-4444
औद	-4445
जट	-4446
डॉ	-4447
सृ	-4448
ाक	-4449
▁H	-4450
ing	-4451
कीम	-4452
ल्म	-4453
शने	-4454
▁अम	-4455
कड़ी	-4456
बादत	-4457
माता	-4458
रहता	-4459
▁(2)	-4460
▁¦7¦	-4461
▁अरब	-4462
▁इले	-4463
▁एका	-4464
▁कूट	-4465
▁पाए	-4466
आवेदन	-4467
कृष्ट	-4468
चुनें	-4469
नियमन	-4470
भाविक	-4471
▁करार	-4472
▁क़सम	-4473
▁चलते	-4474
▁मानक	-4475
▁मिशन	-4476
चाहिये	-4477
निवासी	-4478
भुगतान	-4479
मानसिक	-4480
वृत्ति	-4481
▁अंतरण	-4482
▁खिलाफ	-4483
▁गिरोह	-4484
▁द्वार	-4485
▁नमाज़	-4486
▁मैदान	-4487
▁रहेगा	-4488
▁वाद्य	-4489
वाहरलाल	-4490
▁अत्यंत	-4491
▁अनुरोध	-4492
▁तकनीकी	-4493
▁पंक्ति	-4494
▁प्रचार	-4495
▁बढ़ावा	-4496
▁संघर्ष	-4497
▁साधारण	-4498
▁स्वच्छ	-4499
▁धार्मिक	-4500
▁न्यूनतम	-4501
▁बिल्कुल	-4502
▁हालांकि	-4503
▁प्रतिनिध	-4504
▁प्राप्ति	-4505
--	-4506
ia	-4507
iv	-4508
णि	-4509
भो	-4510
१९	-4511
खाद	-4512
खिम	-4513
जिद	-4514
ञात	-4515
धीन	-4516
माह	-4517
यदे	-4518
रकट	-4519
लाश	-4520
लील	-4521
ियल	-4522
ूबर	-4523
ॉकि	-4524
▁¤¿	-4525
▁गे	-4526
▁दस	-4527
▁फी	-4528
▁सज	-4529
खाने	-4530
गुरु	-4531
जैसी	-4532
डिंग	-4533
पुनः	-4534
भारी	-4535
मिनी	-4536
रहित	-4537
रीका	-4538
लाते	-4539
समझौ	-4540
िकमत	-4541
ॉन्ट	-4542
▁अंश	-4543
▁गृह	-4544
▁ज़ि	-4545
▁बख्	-4546
▁मिन	-4547
▁यथा	-4548
▁सुख	-4549
जिसकी	-4550
डियों	-4551
पुलिस	-4552
यंत्र	-4553
सफलता	-4554
▁एवोल	-4555
▁सिक्	-4556
▁स्थल	-4557
▁हृदय	-4558
रमाणपत	-4559
ारीरिक	-4560
▁आज्ञा	-4561
▁आदर्श	-4562
▁जनवरी	-4563
▁जिनका	-4564
▁तुलना	-4565
▁बनाकर	-4566
▁बनाना	-4567
कर्ताओं	-4568
▁पुराने	-4569
▁शीर्षक	-4570
▁अफ्रीका	-4571
▁दस्तावे	-4572
▁नीतियों	-4573
▁नेतृत्व	-4574
▁वस्तुओं	-4575
▁संबंधों	-4576
▁सरकारों	-4577
▁अधिकारों	-4578
▁प्रयासों	-4579
▁एवोल्यूशन	-4580
10	-4581
रय	-4582
iii	-4583
आती	-4584
कीर	-4585
नुम	-4586
पीठ	-4587
पुत	-4588
पें	-4589
मही	-4590
मेट	-4591
ययन	-4592
रुद	-4593
▁"%	-4594
▁जग	-4595
▁पल	-4596
▁भे	-4597
कांग	-4598
तनों	-4599
तविक	-4600
रखना	-4601
शाही	-4602
संकल	-4603
ूसुफ	-4604
ेष्ठ	-4605
▁आवा	-4606
▁इकट	-4607
▁गीत	-4608
▁चढ़	-4609
▁जोर	-4610
▁तेज	-4611
etail	-4612
किंतु	-4613
तेमाल	-4614
थियार	-4615
मियों	-4616
विंडो	-4617
विनिर	-4618
▁इंटर	-4619
▁करीब	-4620
▁मतलब	-4621
▁रीति	-4622
▁सत्र	-4623
दिखाएँ	-4624
दिनांक	-4625
वसायिक	-4626
संख्या	-4627
▁जुड़े	-4628
▁तारीख	-4629
▁दिलों	-4630
▁पत्थर	-4631
▁प्रदू	-4632
▁प्रसि	-4633
▁बनाते	-4634
▁बाहरी	-4635
▁भगवान	-4636
▁सच्चा	-4637
▁हिंदू	-4638
▁प्रसार	-4639
▁फ़रिश्	-4640
▁सप्ताह	-4641
▁प्रशासन	-4642
▁प्राचीन	-4643
निशानियाँ	-4644
▁इलेक्ट्र	-4645
▁लोकतंत्र	-4646
4)	-4647
ow	-4648
st	-4649
ऊण	-4650
नम	-4651
रै	-4652
सख	-4653
ूक	-4654
गदर	-4655
टका	-4656
तरे	-4657
देय	-4658
पहा	-4659
बाप	-4660
मेन	-4661
रिम	-4662
हिम	-4663
ोरी	-4664
▁एच	-4665
▁एफ	-4666
▁एल	-4667
▁ख्	-4668
▁चम	-4669
▁दौ	-4670
▁लु	-4671
▁सॉ	-4672
उचित	-4673
काशन	-4674
त्तर	-4675
त्री	-4676
दूरी	-4677
मुखर	-4678
लंघन	-4679
▁194	-4680
▁://	-4681
▁द्र	-4682
▁पति	-4683
▁पेट	-4684
▁बन्	-4685
▁बोझ	-4686
▁विद	-4687
▁शक़	-4688
▁शून	-4689
▁सदन	-4690
▁सुल	-4691
ंतरिक	-4692
आयतों	-4693
क्षेप	-4694
चयनित	-4695
दर्शक	-4696
दर्शी	-4697
परेशन	-4698
पुकार	-4699
पूंजी	-4700
▁अद्य	-4701
▁आपकी	-4702
▁खाली	-4703
▁गहरा	-4704
▁मुकद	-4705
▁अनुमो	-4706
▁आसानी	-4707
▁उठाने	-4708
▁औरतों	-4709
▁परिषद	-4710
▁पारित	-4711
▁पुस्त	-4712
▁महारा	-4713
▁हत्या	-4714
विज्ञान	-4715
▁अनुकूल	-4716
▁संकल्प	-4717
▁संविदा	-4718
▁गणराज्य	-4719
▁दायित्व	-4720
▁स्थानों	-4721
▁सांस्कृतिक	-4722
3)	-4723
ch	-4724
इए	-4725
वच	-4726
ैत	-4727
ौफ	-4728
dia	-4729
कोष	-4730
जाल	-4731
झाव	-4732
टुक	-4733
धता	-4734
लाइ	-4735
ल्ड	-4736
वेक	-4737
०००	-4738
▁झा	-4739
▁मं	-4740
ंकित	-4741
कटॉप	-4742
क्षी	-4743
परीत	-4744
बिया	-4745
मारक	-4746
रतिक	-4747
ष्टा	-4748
▁198	-4749
▁¦8¦	-4750
▁¦9¦	-4751
▁अवि	-4752
▁कृत	-4753
▁वाह	-4754
▁शोध	-4755
▁समी	-4756
▁साइ	-4757
▁सूर	-4758
जीवित	-4759
तुमपर	-4760
पादों	-4761
रकृति	-4762
वान्व	-4763
वित्र	-4764
ष्ट्र	-4765
▁¦25¦	-4766
▁जर्म	-4767
▁तौबा	-4768
▁नेता	-4769
▁मुस्	-4770
▁लौटा	-4771
▁वार्	-4772
दाताओं	-4773
पचारिक	-4774
▁खोलें	-4775
▁तरीका	-4776
▁बदलें	-4777
▁शून्य	-4778
▁समझते	-4779
▁कहेंगे	-4780
▁कारबार	-4781
▁कोशिका	-4782
▁नवान्व	-4783
▁फ़ैसला	-4784
▁स्त्री	-4785
▁हिन्दू	-4786
▁पश्चात्	-4787
▁महत्त्व	-4788
▁वातावरण	-4789
▁वार्षिक	-4790
▁संपूर्ण	-4791
▁संस्करण	-4792
▁परिस्थित	-4793
▁भागीदारी	-4794
▁समस्याओं	-4795
गढ	-4796
धक	-4797
िफ	-4798
▁G	-4799
आयु	-4800
आरए	-4801
कमा	-4802
चैन	-4803
छेद	-4804
पीड	-4805
बिन	-4806
बीह	-4807
बैक	-4808
रकम	-4809
लीन	-4810
षिक	-4811
संप	-4812
▁):	-4813
city	-4814
info	-4815
करार	-4816
चुकी	-4817
जनों	-4818
तरों	-4819
दादा	-4820
पदार	-4821
मिली	-4822
रेलू	-4823
रोधी	-4824
लाना	-4825
लामी	-4826
सारा	-4827
सीसी	-4828
ान्त	-4829
ोपीय	-4830
▁अदा	-4831
▁चली	-4832
▁झूठ	-4833
▁तभी	-4834
▁नजर	-4835
▁परा	-4836
▁हार	-4837
आख़िर	-4838
गुणवत	-4839
परिषद	-4840
भंडार	-4841
रुपये	-4842
सुनिश	-4843
्रिया	-4844
▁क्रि	-4845
▁खुशी	-4846
▁गठित	-4847
▁डाटा	-4848
▁पूछा	-4849
▁बजाय	-4850
▁बुरी	-4851
▁मज़ा	-4852
▁लेता	-4853
▁सीता	-4854
▁सुबह	-4855
detail	-4856
अनिवार	-4857
अल्लाह	-4858
जाएँगे	-4859
पालिका	-4860
योगिता	-4861
विदेशी	-4862
संशोधन	-4863
समाधान	-4864
▁अपराध	-4865
▁आरम्भ	-4866
▁एकत्र	-4867
▁चिह्न	-4868
▁देखकर	-4869
▁पात्र	-4870
▁पोर्ट	-4871
▁लिखित	-4872
▁विवाद	-4873
▁सर्वे	-4874
▁सामना	-4875
क्षिप्त	-4876
वावलोकन	-4877
वेबसाइट	-4878
▁इंडिया	-4879
▁संलग्न	-4880
▁इत्यादि	-4881
▁उद्घाटन	-4882
▁महामहिम	-4883
▁उपयोक्ता	-4884
▁कार्यालय	-4885
▁कर्मचारियों	-4886
▁परिणामस्वरूप	-4887
mp	-4888
of	-4889
un	-4890
ww	-4891
इत	-4892
छु	-4893
▁Z	-4894
www	-4895
ंडी	-4896
गाड	-4897
घात	-4898
चली	-4899
जाम	-4900
णों	-4901
नदी	-4902
नाश	-4903
बेल	-4904
मनी	-4905
वजह	-4906
विड	-4907
शुभ	-4908
ीनी	-4909
ोंक	-4910
▁>>	-4911
▁पॉ	-4912
▁मई	-4913
▁हल	-4914
-201	-4915
need	-4916
अगले	-4917
आदमी	-4918
आयोग	-4919
छोटी	-4920
न्ना	-4921
पंजी	-4922
पताल	-4923
पुरस	-4924
भविष	-4925
माणु	-4926
युवा	-4927
रबंध	-4928
वाने	-4929
ष्णु	-4930
संबर	-4931
स्टर	-4932
स्ति	-4933
ितीय	-4934
▁कोड	-4935
▁गुज	-4936
▁तुर	-4937
▁मनो	-4938
▁लॉग	-4939
press	-4940
एशिया	-4941
क्रिय	-4942
तरीके	-4943
मजबूत	-4944
मिलने	-4945
वजनिक	-4946
संगिक	-4947
▁¦30¦	-4948
▁अस्त	-4949
▁खड़े	-4950
▁खाना	-4951
▁चुना	-4952
▁जाएं	-4953
▁दिये	-4954
▁पराम	-4955
▁पहला	-4956
▁फ़िल	-4957
▁बनाई	-4958
▁भाषण	-4959
▁मानो	-4960
▁शुरु	-4961
▁संगम	-4962
▁साफ़	-4963
अनुमति	-4964
धारिती	-4965
मेरिकी	-4966
योजनों	-4967
▁कविता	-4968
▁ख़र्च	-4969
▁थोड़ा	-4970
▁देखता	-4971
▁बदलने	-4972
▁सीमित	-4973
release	-4974
राकृतिक	-4975
▁बातचीत	-4976
▁बिक्री	-4977
▁ईमानदार	-4978
▁कनेक्शन	-4979
▁परामर्श	-4980
▁प्रयोजन	-4981
▁निष्क्रिय	-4982
translation	-4983
▁निर्देशिका	-4984
▁प्रोत्साहन	-4985
▁विनिर्दिष्ट	-4986
ap	-4987
कौ	-4988
दत	-4989
यय	-4990
ौज	-4991
आपस	-4992
कथा	-4993
कुर	-4994
ख़्	-4995
दंड	-4996
दोष	-4997
ब्द	-4998
भेद	-4999
मुश	-5000
म्स	-5001
रखे	-5002
रखो	-5003
रहण	-5004
राइ	-5005
लती	-5006
लास	-5007
लेन	-5008
शनी	-5009
सिल	-5010
हैः	-5011
िकल	-5012
▁27	-5013
▁31	-5014
▁धा	-5015
does	-5016
ento	-5017
छोटा	-5018
जीशन	-5019
टकों	-5020
बदले	-5021
यतों	-5022
रयुक	-5023
वानी	-5024
शांत	-5025
संस्	-5026
▁अका	-5027
▁आरो	-5028
▁गौर	-5029
▁ड्र	-5030
▁लगी	-5031
▁हरि	-5032
क़रीब	-5033
देंगे	-5034
धियों	-5035
निदेश	-5036
नियुक	-5037
नेटवर	-5038
रभावी	-5039
वर्धन	-5040
विवाह	-5041
सारिक	-5042
ालयों	-5043
▁उम्र	-5044
▁खड़ा	-5045
▁खुले	-5046
▁गवाह	-5047
▁टिप्	-5048
▁तमिल	-5049
▁तेजी	-5050
▁दीर्	-5051
▁देवी	-5052
▁द्वि	-5053
▁धीरे	-5054
▁नज़र	-5055
▁पाकि	-5056
▁पेड़	-5057
▁लोगो	-5058
▁वाक़	-5059
findia	-5060
idento	-5061
परंपरा	-5062
पहुंचा	-5063
समुदाय	-5064
▁क्लिक	-5065
▁गुज़र	-5066
▁चुनाव	-5067
▁पड़ता	-5068
▁मामला	-5069
▁मोमिन	-5070
▁लगाया	-5071
▁वर्षा	-5072
▁समक्ष	-5073
▁सामान	-5074
▁स्तंभ	-5075
अधिकांश	-5076
आतंकवाद	-5077
जातियों	-5078
▁अद्यतन	-5079
▁ग्राहक	-5080
▁नियमित	-5081
▁निरंतर	-5082
▁पद्धति	-5083
▁बन्दगी	-5084
▁लगातार	-5085
▁संचालन	-5086
▁स्वरूप	-5087
करनेवाला	-5088
▁इबराहीम	-5089
▁प्रेरित	-5090
presidento	-5091
▁पृष्ठभूमि	-5092
▁प्रारंभिक	-5093
▁साहित्यिक	-5094
▁प्राथमिकता	-5095
presidentofindia	-5096
50	-5097
:-	-5098
el	-5099
ंका	-5100
आते	-5101
इंग	-5102
कना	-5103
काफ	-5104
कूट	-5105
गलत	-5106
गृह	-5107
चिह	-5108
तिम	-5109
तिश	-5110
मती	-5111
मिश	-5112
यथा	-5113
लाब	-5114
लीय	-5115
लेक	-5116
वंश	-5117
समन	-5118
हाय	-5119
▁धै	-5120
▁धो	-5121
▁नर	-5122
▁नु	-5123
▁वर	-5124
quot	-5125
ंचित	-5126
आपने	-5127
उनपर	-5128
उसपर	-5129
क़्त	-5130
खाना	-5131
चलता	-5132
चिका	-5133
जागर	-5134
तेरा	-5135
दायक	-5136
नेता	-5137
मिटा	-5138
वारी	-5139
शताब	-5140
हमति	-5141
हरें	-5142
िनाई	-5143
िल्म	-5144
ुबूल	-5145
ोगें	-5146
्यास	-5147
▁आयी	-5148
▁कथा	-5149
▁घटा	-5150
▁बाग	-5151
▁लोड	-5152
ंपरिक	-5153
निहित	-5154
नीयता	-5155
मात्र	-5156
मिलता	-5157
विशाल	-5158
संसार	-5159
▁¦196	-5160
▁ख्या	-5161
▁झगड़	-5162
▁ट्रे	-5163
▁तर्क	-5164
▁नामक	-5165
▁बनने	-5166
▁मीटर	-5167
▁लगते	-5168
▁लिखी	-5169
आयोजित	-5170
जनैतिक	-5171
योगदान	-5172
रभावित	-5173
▁अगस्त	-5174
▁आयोजन	-5175
▁कहानी	-5176
▁जिनको	-5177
▁दीवार	-5178
▁दोहरा	-5179
▁धैर्य	-5180
▁निहित	-5181
विचारों	-5182
संभावना	-5183
▁आख़िरत	-5184
▁इकट्ठा	-5185
▁पवित्र	-5186
▁प्रधान	-5187
▁मानसिक	-5188
▁मिलियन	-5189
▁मोबाइल	-5190
▁विभाजन	-5191
▁अत्यधिक	-5192
▁दयालुता	-5193
▁ब्रिटिश	-5194
▁मूल्यों	-5195
▁संपादित	-5196
▁प्रसिद्ध	-5197
▁व्याख्या	-5198
▁संस्थाओं	-5199
▁प्रत्यक्ष	-5200
ts	-5201
¥	-5202
ँव	-5203
इफ	-5204
उज	-5205
नव	-5206
नस	-5207
बग	-5208
शः	-5209
हू	-5210
िट	-5211
ेह	-5212
-19	-5213
ँसी	-5214
गिज	-5215
छला	-5216
टता	-5217
तीत	-5218
दरा	-5219
दशा	-5220
बिक	-5221
महल	-5222
यपि	-5223
यरी	-5224
रणब	-5225
शीघ	-5226
सीय	-5227
सुल	-5228
सेल	-5229
हनत	-5230
असफल	-5231
त्रु	-5232
देती	-5233
रसार	-5234
रेखा	-5235
र्ती	-5236
वागत	-5237
विजय	-5238
शुदा	-5239
िरता	-5240
ेषित	-5241
▁इला	-5242
▁गोल	-5243
▁चीज	-5244
▁पहल	-5245
▁फोन	-5246
▁मोड	-5247
उपबंध	-5248
कुमार	-5249
गुनाह	-5250
णिज्य	-5251
त्मिक	-5252
लकाता	-5253
वायदा	-5254
▁अंदर	-5255
▁उपाय	-5256
▁खुली	-5257
▁तिथि	-5258
▁प्रि	-5259
▁ब्या	-5260
▁मिनट	-5261
▁लाया	-5262
तुममें	-5263
बैंकों	-5264
यालयों	-5265
ार्थना	-5266
▁कार्र	-5267
▁गुप्त	-5268
▁मात्र	-5269
▁लकड़ी	-5270
▁शहरों	-5271
हालाँकि	-5272
▁अधिकतम	-5273
▁अनुवाद	-5274
▁अप्रैल	-5275
▁उच्चतम	-5276
▁काफ़िर	-5277
▁गिरफ्त	-5278
▁ठिकाना	-5279
▁तस्वीर	-5280
▁बढ़ाने	-5281
▁भाषाओं	-5282
▁शिकायत	-5283
▁वाणिज्य	-5284
▁व्यवसाय	-5285
ध्यात्मिक	-5286
▁उत्कृष्ट	-5287
▁विद्यमान	-5288
▁परिवर्तित	-5289
▁प्रार्थना	-5290
▁संक्षिप्त	-5291
▁सर्वेक्षण	-5292
''	-5293
aa	-5294
de	-5295
ँग	-5296
उठ	-5297
चढ	-5298
भे	-5299
ाम	-5300
▁L	-5301
▁}	-5302
ath	-5303
ons	-5304
ric	-5305
आदर	-5306
क़ल	-5307
कील	-5308
चलन	-5309
पुष	-5310
फोन	-5311
भला	-5312
मरण	-5313
युग	-5314
रखी	-5315
विच	-5316
साद	-5317
ाले	-5318
िरत	-5319
▁)।	-5320
▁40	-5321
▁तट	-5322
▁बू	-5323
▁मल	-5324
▁लॉ	-5325
आयात	-5326
कनेक	-5327
कार्	-5328
डीएफ	-5329
पहाड	-5330
पांच	-5331
बारी	-5332
भागी	-5333
यमान	-5334
राइट	-5335
राईल	-5336
शैली	-5337
ष्ठा	-5338
संदर	-5339
सांस	-5340
ूहिक	-5341
▁192	-5342
▁अके	-5343
▁अवर	-5344
▁आंख	-5345
▁आये	-5346
▁उड़	-5347
▁एक्	-5348
▁२००	-5349
उपचार	-5350
कोशिश	-5351
दूसरा	-5352
परेखा	-5353
भाजित	-5354
मालिक	-5355
▁¦15¦	-5356
▁¦20¦	-5357
▁अगला	-5358
▁अभिय	-5359
▁इनका	-5360
▁कुशल	-5361
▁गंगा	-5362
▁जमीन	-5363
▁ढूंढ	-5364
▁भलाई	-5365
अधिकतर	-5366
जिनमें	-5367
वीडियो	-5368
समाचार	-5369
ानियों	-5370
▁आमतौर	-5371
▁आसपास	-5372
▁गंभीर	-5373
▁चेहरे	-5374
▁जिनकी	-5375
▁पंजाब	-5376
▁पट्टी	-5377
▁बौद्ध	-5378
▁मिश्र	-5379
▁लेंगे	-5380
▁शिकार	-5381
▁सिवाय	-5382
▁अनुसरण	-5383
▁कम्पनी	-5384
▁कानूनी	-5385
▁ग़ालिब	-5386
▁पार्टी	-5387
▁फ़ॉन्ट	-5388
▁मिलेगी	-5389
▁मूल्या	-5390
▁रोजगार	-5391
▁सहकारी	-5392
▁साम्रा	-5393
कारात्मक	-5394
▁अनक़रीब	-5395
▁इंजीनिय	-5396
▁दिखायें	-5397
▁मुद्दों	-5398
▁सम्मिलित	-5399
▁प्रतीक्षा	-5400
▁स्त्रियों	-5401
.)	-5402
¤«	-5403
ःख	-5404
अह	-5405
कस	-5406
पय	-5407
बॉ	-5408
▁\	-5409
▁६	-5410
उपन	-5411
कोड	-5412
खूब	-5413
चिन	-5414
जील	-5415
झगड	-5416
टें	-5417
बाब	-5418
मुझ	-5419
रेश	-5420
लॉग	-5421
शोर	-5422
सीन	-5423
हाई	-5424
हेज	-5425
▁28	-5426
▁</	-5427
▁औष	-5428
▁जय	-5429
▁झु	-5430
▁तल	-5431
▁पत	-5432
▁मद	-5433
ंजलि	-5434
अनुच	-5435
आईसी	-5436
आवाज	-5437
गंगा	-5438
डीपी	-5439
तिगत	-5440
तुओं	-5441
दीदा	-5442
मानक	-5443
मुना	-5444
याओं	-5445
वाचन	-5446
साफ़	-5447
▁इंग	-5448
▁त्व	-5449
▁देर	-5450
▁पृथ	-5451
▁ब्ल	-5452
▁होम	-5453
ंतरित	-5454
कुंजी	-5455
खुलती	-5456
घोषणा	-5457
टियों	-5458
टीकरण	-5459
नुसार	-5460
मिनीन	-5461
शांति	-5462
शोधित	-5463
▁अनुप	-5464
▁उतार	-5465
▁किरा	-5466
▁गांव	-5467
▁तोड़	-5468
▁दर्द	-5469
▁प्लग	-5470
▁बोले	-5471
▁मुश्	-5472
▁लंबे	-5473
▁लिंक	-5474
▁वादा	-5475
▁विधा	-5476
▁साझा	-5477
▁हानि	-5478
आधुनिक	-5479
ड़ियों	-5480
दमियों	-5481
मौजूदा	-5482
सेवाओं	-5483
▁उठाया	-5484
▁कमांड	-5485
▁कार्ड	-5486
▁कितनी	-5487
▁ग्रहण	-5488
▁जितना	-5489
▁नृत्य	-5490
▁प्राण	-5491
▁प्राय	-5492
▁बिजली	-5493
▁विदेश	-5494
▁सरकशी	-5495
▁सिविल	-5496
▁अभियान	-5497
▁अवतरित	-5498
▁आयुक्त	-5499
▁इन्कार	-5500
▁उपयोगी	-5501
▁किनारे	-5502
▁जलवायु	-5503
▁दिखाया	-5504
▁दूसरों	-5505
▁देखभाल	-5506
▁निशानी	-5507
▁प्रभार	-5508
▁विषयों	-5509
▁हिन्दु	-5510
▁हिस्से	-5511
▁ज़िन्दा	-5512
▁प्रशंसा	-5513
▁कार्रवाई	-5514
▁जनसंख्या	-5515
▁परिभाषित	-5516
▁प्रदर्शन	-5517
▁सर्वोच्च	-5518
▁आध्यात्मिक	-5519
▁शुभकामनाएं	-5520
1.	-5521
15	-5522
19	-5523
ly	-5524
ट्	-5525
तय	-5526
धो	-5527
वज	-5528
▁e	-5529
आता	-5530
कोप	-5531
खास	-5532
खुल	-5533
खें	-5534
गमन	-5535
जिम	-5536
ढंग	-5537
णीय	-5538
त्न	-5539
नें	-5540
पणी	-5541
याग	-5542
वात	-5543
शुद	-5544
सां	-5545
ेयक	-5546
्ला	-5547
▁24	-5548
▁आक	-5549
▁एह	-5550
अपील	-5551
ख़्श	-5552
गाड़	-5553
गामी	-5554
घरों	-5555
ठहरा	-5556
देखो	-5557
पक्ष	-5558
बयान	-5559
वेतन	-5560
शिता	-5561
सदीय	-5562
▁टैब	-5563
▁निः	-5564
▁बहा	-5565
▁भले	-5566
इसेंस	-5567
उपयुक	-5568
चित्र	-5569
दायित	-5570
धियां	-5571
बोधित	-5572
विविध	-5573
शीलता	-5574
संकेत	-5575
▁अवैध	-5576
▁आसान	-5577
▁खिला	-5578
▁ड्रा	-5579
▁दूरी	-5580
▁नष्ट	-5581
▁निरा	-5582
▁परिस	-5583
▁पैरा	-5584
▁बीमा	-5585
▁बुरे	-5586
▁मुर्	-5587
▁रद्द	-5588
▁विरू	-5589
▁सम्प	-5590
नियमों	-5591
पीराइट	-5592
विंडों	-5593
विधेयक	-5594
समारोह	-5595
स्थायी	-5596
हिदायत	-5597
▁#-#-#	-5598
▁अर्था	-5599
▁आवाज़	-5600
▁कितने	-5601
▁गवाही	-5602
▁दर्शन	-5603
▁भौतिक	-5604
▁मौलिक	-5605
▁लड़ाई	-5606
▁शत्रु	-5607
▁संवाद	-5608
▁समग्र	-5609
▁सुंदर	-5610
▁स्क्र	-5611
स्तियों	-5612
▁अनुपात	-5613
▁दोबारा	-5614
▁पंचांग	-5615
▁पूर्वी	-5616
▁बीमारी	-5617
▁मूर्ति	-5618
▁संसदीय	-5619
▁डाउनलोड	-5620
▁मान्यता	-5621
▁मुस्लिम	-5622
▁उपस्थिति	-5623
▁विश्लेषण	-5624
▁संसाधनों	-5625
▁सर्वाधिक	-5626
▁#-#-#-#-#	-5627
▁ईमानदारों	-5628
▁परियोजनाओं	-5629
▁प्रतिनिधित्व	-5630
▁महत्त्वपूर्ण	-5631
2,	-5632
:%	-5633
ंठ	-5634
कच	-5635
लर	-5636
वण	-5637
▁५	-5638
अता	-5639
अरब	-5640
छुट	-5641
टिप	-5642
तेल	-5643
फ़र	-5644
वृक	-5645
वैश	-5646
संत	-5647
समी	-5648
सिन	-5649
ानत	-5650
ान्	-5651
्यु	-5652
▁¦9	-5653
▁ग्	-5654
▁धु	-5655
▁शौ	-5656
ंगों	-5657
अभिव	-5658
इतनी	-5659
कलकत	-5660
चरित	-5661
चुने	-5662
छिपा	-5663
जाया	-5664
त्तम	-5665
देवी	-5666
नंबर	-5667
बैठे	-5668
मर्श	-5669
यंती	-5670
यापन	-5671
रतिष	-5672
रशास	-5673
सलाह	-5674
हिता	-5675
▁अहम	-5676
▁आज़	-5677
▁एकल	-5678
▁क्य	-5679
▁दाह	-5680
▁नेक	-5681
क्षिक	-5682
तारीख	-5683
देखें	-5684
बनाएँ	-5685
लीफोन	-5686
िकारी	-5687
▁कीमत	-5688
▁खतरा	-5689
▁गेंद	-5690
▁ट्रा	-5691
▁नवीन	-5692
▁प्ले	-5693
▁बोली	-5694
▁शाखा	-5695
▁सजदा	-5696
आकाशों	-5697
जीविका	-5698
▁अंग्र	-5699
▁अक्सर	-5700
▁खोलने	-5701
▁पाठ्य	-5702
▁बच्चा	-5703
▁बीमार	-5704
▁ब्याज	-5705
▁ब्राह	-5706
▁महीने	-5707
▁मिसाल	-5708
▁रेलवे	-5709
▁लक्षण	-5710
▁लड़के	-5711
▁विहित	-5712
▁साबित	-5713
ानुभूति	-5714
▁कश्मीर	-5715
▁दीक्षा	-5716
▁पर्यटन	-5717
▁पोजीशन	-5718
▁रजिस्ट	-5719
▁समझौते	-5720
▁योग्यता	-5721
▁अत्याचार	-5722
▁अस्तित्व	-5723
▁केंद्रित	-5724
▁नियंत्रित	-5725
▁पैग़म्बरों	-5726
▁प्रतिक्रिया	-5727
▁इलेक्ट्रॉनिक	-5728
▁विद्यार्थियों	-5729
3.	-5730
¤	-5731
▁m	-5732
▁x	-5733
for	-5734
ँची	-5735
ंटी	-5736
ंधन	-5737
अमत	-5738
उपय	-5739
उपर	-5740
कदम	-5741
गता	-5742
टेन	-5743
डिग	-5744
डों	-5745
दाल	-5746
दुख	-5747
परा	-5748
बीर	-5749
▁	-5750
¦	-5751
ा	-5752
क	-5753
र	-5754
े	-5755
्	-5756
न	-5757
ि	-5758
स	-5759
त	-5760
ह	-5761
ं	-5762
ी	-5763
म	-5764
ो	-5765
य	-5766
प	-5767
ल	-5768
व	-5769
द	-5770
ज	-5771
ु	-5772
ग	-5773
ब	-5774
ै	-5775
अ	-5776
श	-5777
ए	-5778
च	-5779
उ	-5780
भ	-5781
ू	-5782
़	-5783
।	-5784
ट	-5785
,	-5786
थ	-5787
औ	-5788
ध	-5789
ख	-5790
आ	-5791
ष	-5792
ड	-5793
इ	-5794
ण	-5795
फ	-5796
(	-5797
)	-5798
.	-5799
ई	-5800
-	-5801
छ	-5802
ँ	-5803
1	-5804
ौ	-5805
ृ	-5806
0	-5807
ओ	-5808
ठ	-5809
2	-5810
a	-5811
e	-5812
घ	-5813
झ	-5814
ऐ	-5815
i	-5816
à	-5817
t	-5818
n	-5819
o	-5820
ढ	-5821
¤	-5822
s	-5823
ॉ	-5824
ः	-5825
"	-5826
r	-5827
4	-5828
9	-5829
3	-5830
/	-5831
5	-5832
l	-5833
?	-5834
m	-5835
ञ	-5836
'	-5837
p	-5838
;	-5839
%	-5840
c	-5841
6	-5842
8	-5843
d	-5844
:	-5845
ऊ	-5846
7	-5847
𐋇	-5848
h	-5849
_	-5850
u	-5851
b	-5852
ऑ	-5853
¥	-5854
!	-5855
‍	-5856
g	-5857
y	-5858
ऋ	-5859
०	-5860
k	-5861
१	-5862
f	-5863
w	-5864
C	-5865
#	-5866
‘	-5867
”	-5868
v	-5869
>	-5870
’	-5871
A	-5872
S	-5873
I	-5874
⁄	-5875
N	-5876
&	-5877
२	-5878
𐊣	-5879
𐊼	-5880
T	-5881
P	-5882
“	-5883
R	-5884
E	-5885
M	-5886
O	-5887
<	-5888
	-5889
D	-5890
x	-5891
९	-5892
३	-5893
५	-5894
°	-5895
	-5896
L	-5897
–	-5898
	-5899
	-5900
६	-5901
८	-5902
¿	-5903
U	-5904
B	-5905
@	-5906
४	-5907
ॅ	-5908
+	-5909
j	-5910
{	-5911
̧	-5912
}	-5913
̈	-5914
F	-5915
\	-5916
७	-5917
G	-5918
H	-5919
̄	-5920
]	-5921
[	-5922
z	-5923
q	-5924
®	-5925
॰	-5926
ङ	-5927
V	-5928
Z	-5929
W	-5930
μ	-5931
	-5932
K	-5933
$	-5934
«	-5935
	-5936
Y	-5937
	-5938
¶	-5939
¡	-5940
—	-5941
X	-5942
	-5943
¬	-5944
=	-5945
	-5946
	-5947
ऍ	-5948
	-5949
Q	-5950
ऱ	-5951
ॆ	-5952
J	-5953
ॊ	-5954
	-5955
ळ	-5956
|	-5957
~	-5958
·	-5959
	-5960
	-5961
©	-5962
*	-5963
	-5964
£	-5965
॥	-5966
§	-5967
	-5968
É	-5969
ऎ	-5970
ऩ	-5971
¢	-5972
`	-5973
é	-5974
	-5975
	-5976
	-5977
	-5978
	-5979
×	-5980
ò	-5981
þ	-5982
ą	-5983
ĺ	-5984
॓	-5985
‐	-5986
₹	-5987
	-5988
	-5989
Î	-5990
ñ	-5991
Ş	-5992
̃	-5993
ॄ	-5994
î	-5995
ş	-5996
