<pad>	0
</s>	0
<unk>	0
्य	-0
्या	-1
▁क	-2
▁आ	-3
▁स	-4
▁प	-5
्र	-6
ार	-7
▁म	-8
▁अ	-9
▁व	-10
ां	-11
ना	-12
▁त	-13
ात	-14
▁ह	-15
र्	-16
ला	-17
▁द	-18
▁य	-19
हे	-20
च्या	-21
▁ज	-22
क्	-23
▁र	-24
▁आहे	-25
ले	-26
्ह	-27
ण्या	-28
ल्या	-29
▁न	-30
▁कर	-31
चा	-32
▁ल	-33
▁प्र	-34
ची	-35
ती	-36
िक	-37
▁अस	-38
वा	-39
ही	-40
▁आण	-41
ली	-42
ून	-43
▁ब	-44
▁आणि	-45
▁श	-46
सा	-47
ने	-48
स्	-49
रो	-50
▁को	-51
ंत	-52
▁हो	-53
▁सं	-54
ता	-55
▁के	-56
्ये	-57
णा	-58
मध	-59
▁का	-60
▁या	-61
▁उ	-62
ित	-63
▁ग	-64
▁त्या	-65
चे	-66
ठी	-67
क्ष	-68
ाव	-69
नी	-70
मध्ये	-71
▁वि	-72
साठी	-73
▁ए	-74
ाण	-75
▁घ	-76
▁झ	-77
ाय	-78
ान	-79
ंद	-80
व्ह	-81
वर	-82
▁ना	-83
ग्	-84
▁वा	-85
ील	-86
लं	-87
▁दि	-88
▁झा	-89
्ट	-90
▁रा	-91
ते	-92
▁नि	-93
ास	-94
शी	-95
▁ड	-96
रोना	-97
▁दे	-98
▁ट	-99
▁भ	-100
▁करण्या	-101
ुर	-102
▁रु	-103
▁कोरोना	-104
▁ला	-105
▁पर	-106
कार	-107
▁रुग्	-108
ेत	-109
का	-110
हि	-111
मु	-112
▁इ	-113
चं	-114
िं	-115
त्	-116
▁म्ह	-117
्यां	-118
कर	-119
▁स्	-120
▁लस	-121
▁जा	-122
लेल्या	-123
तात	-124
▁मा	-125
ळे	-126
▁आहेत	-127
री	-128
णे	-129
▁यां	-130
▁फ	-131
कड	-132
पर	-133
▁नाही	-134
▁सा	-135
ारी	-136
ष्ट	-137
द्	-138
ोक	-139
वि	-140
▁शक	-141
ार्	-142
▁राज	-143
ांना	-144
मी	-145
▁उप	-146
▁मु	-147
या	-148
ऱ्या	-149
▁त्यां	-150
▁रुग्ण	-151
सि	-152
▁ठ	-153
▁पा	-154
ारा	-155
वी	-156
मुळे	-157
▁2	-158
णी	-159
▁हे	-160
ंत्र	-161
▁1	-162
ेश	-163
▁ते	-164
▁मह	-165
▁ये	-166
स्थ	-167
की	-168
▁ख	-169
▁सुर	-170
जन	-171
ंतर	-172
र्ग	-173
ग्य	-174
ेल	-175
▁चा	-176
▁लोक	-177
ुस	-178
ण्यात	-179
▁एक	-180
▁च	-181
तो	-182
िल	-183
स्त	-184
्यात	-185
▁सर	-186
▁आरो	-187
तील	-188
ांग	-189
प्र	-190
्स	-191
▁ऑ	-192
▁म्हण	-193
िती	-194
▁किं	-195
▁सर्	-196
िट	-197
ळा	-198
▁लाग	-199
▁सरकार	-200
▁(	-201
▁मो	-202
▁किंवा	-203
णार	-204
▁तर	-205
बा	-206
▁पु	-207
मा	-208
▁आरोग्य	-209
सर्ग	-210
सी	-211
▁काही	-212
तर	-213
▁परि	-214
▁सांग	-215
धी	-216
पास	-217
▁कार	-218
धिक	-219
▁डॉ	-220
▁"	-221
रा	-222
▁निर्	-223
▁यांनी	-224
ंद्र	-225
से	-226
ंट	-227
▁संसर्ग	-228
▁ध	-229
जे	-230
▁वाढ	-231
ातील	-232
ळी	-233
▁असल्या	-234
▁तु	-235
19	-236
वे	-237
▁करण्यात	-238
ाल	-239
▁विष	-240
क्र	-241
्यंत	-242
माण	-243
सं	-244
▁की	-245
▁कमी	-246
ति	-247
ेट	-248
ोन	-249
ाग	-250
ूर्	-251
▁व्य	-252
स्ट	-253
▁आप	-254
▁होत	-255
▁वे	-256
▁आज	-257
ांच्या	-258
▁देश	-259
ाणू	-260
ल्	-261
नंतर	-262
ष्ट्र	-263
म्ह	-264
▁सर्व	-265
▁जात	-266
▁असं	-267
▁सम	-268
▁लशी	-269
्यू	-270
ोग	-271
टी	-272
जी	-273
▁मि	-274
क्षा	-275
द्ध	-276
णाऱ्या	-277
ांची	-278
णं	-279
ऊन	-280
-19	-281
व्हि	-282
क्त	-283
वस	-284
▁केली	-285
▁विषाणू	-286
ाप	-287
ण्यासाठी	-288
ंध	-289
ांमध्ये	-290
▁ही	-291
लय	-292
ंब	-293
▁लसी	-294
▁वापर	-295
ृत	-296
चार	-297
▁घे	-298
▁चाच	-299
ांनी	-300
ताना	-301
करण	-302
▁गे	-303
▁हा	-304
ेव	-305
▁पण	-306
दी	-307
र्ष	-308
▁लक्ष	-309
▁भार	-310
क्सि	-311
बत	-312
▁व्ह	-313
ख्या	-314
▁बा	-315
▁अधिक	-316
ोना	-317
▁20	-318
ंड	-319
ज्	-320
शा	-321
ईल	-322
▁केंद्र	-323
न्	-324
हिती	-325
▁करोना	-326
के	-327
पे	-328
त्र	-329
▁आले	-330
▁माहिती	-331
ोल	-332
पर्यंत	-333
क्ट	-334
वार	-335
▁कोव्हि	-336
नि	-337
द्या	-338
▁क्	-339
▁होते	-340
▁रुग्णा	-341
बंध	-342
ायर	-343
पासून	-344
▁सुरू	-345
ाला	-346
मे	-347
▁शि	-348
▁केले	-349
▁मृत	-350
श्	-351
▁मार्	-352
र्थ	-353
गी	-354
ाराष्ट्र	-355
पा	-356
िया	-357
▁स्थ	-358
डी	-359
िय	-360
▁निय	-361
ण्याची	-362
रात	-363
कडा	-364
▁मध	-365
▁कोव्हिड	-366
▁C	-367
▁महाराष्ट्र	-368
▁काम	-369
▁बंद	-370
▁घेत	-371
क्ती	-372
▁ऑक्सि	-373
ेड	-374
▁लॉ	-375
▁सु	-376
ावर	-377
▁दिवस	-378
▁उत्	-379
▁इतर	-380
▁ऑक्सिजन	-381
▁वर्ष	-382
वड	-383
्यु	-384
ांचा	-385
▁पुर	-386
नेक	-387
ात्र	-388
▁झाल्या	-389
▁दोन	-390
▁कु	-391
दा	-392
▁ज्या	-393
र्म	-394
ब्	-395
▁अनेक	-396
कडे	-397
▁आली	-398
▁हात	-399
्यम	-400
सार	-401
▁आढ	-402
वारी	-403
▁'	-404
रे	-405
म्ही	-406
िंग	-407
▁ती	-408
▁दिस	-409
▁दुस	-410
▁लॉकडा	-411
▁केला	-412
▁होती	-413
▁असलेल्या	-414
रिक	-415
ायरस	-416
▁महि	-417
▁प्रति	-418
▁जे	-419
ंत्री	-420
▁जास्त	-421
भाव	-422
▁एका	-423
▁प्रमाण	-424
दल	-425
्रे	-426
▁करण्यासाठी	-427
द्य	-428
र्स	-429
को	-430
ूर	-431
▁से	-432
▁काय	-433
▁येत	-434
▁संप	-435
▁नस	-436
▁काळ	-437
▁मोठ	-438
ीय	-439
▁मृत्यू	-440
त्या	-441
ुसार	-442
▁नो	-443
▁पो	-444
▁थ	-445
▁आता	-446
▁औ	-447
▁शा	-448
कीय	-449
मान	-450
च्	-451
तिक	-452
▁मान	-453
ऱ्यां	-454
▁दु	-455
डे	-456
▁यु	-457
क्षण	-458
▁तय	-459
▁आढळ	-460
▁करत	-461
▁झाला	-462
स्थिती	-463
▁सो	-464
▁राह	-465
▁च्या	-466
शन	-467
िन	-468
िल्ह	-469
्यक	-470
▁रुग्णालय	-471
▁झाली	-472
▁झाले	-473
ज्ञ	-474
▁रो	-475
बाबत	-476
▁होता	-477
्रा	-478
▁चाचणी	-479
▁परिणा	-480
देश	-481
ूर्ण	-482
प्	-483
▁टक्	-484
VI	-485
ांवर	-486
जार	-487
OVI	-488
▁स्व	-489
ांत	-490
▁विक	-491
OVID	-492
ाच्या	-493
▁व्यक्ती	-494
▁जिल्ह	-495
ंभ	-496
ोध	-497
▁सांगित	-498
▁3	-499
▁दा	-500
▁वै	-501
▁असे	-502
▁त्यांच्या	-503
▁म्हट	-504
20	-505
▁कोण	-506
वश	-507
▁औष	-508
▁गर	-509
व्ही	-510
▁म्हणून	-511
▁व्हायरस	-512
▁ने	-513
▁नाग	-514
▁लॉकडाऊन	-515
वश्यक	-516
▁माग	-517
▁असेल	-518
▁COVID	-519
▁म्हणा	-520
टे	-521
▁औषध	-522
▁परिणाम	-523
▁सह	-524
▁भाग	-525
▁झालेल्या	-526
स्क	-527
नुसार	-528
शि	-529
▁ची	-530
व्हा	-531
ाणी	-532
▁मुख	-533
▁वेग	-534
▁मिळ	-535
भाग	-536
▁क्ष	-537
▁ठेव	-538
▁आय	-539
कडून	-540
▁संख्या	-541
▁करून	-542
ाने	-543
ध्या	-544
▁लसीकरण	-545
▁मार्च	-546
रम	-547
▁यांच्या	-548
खी	-549
▁दिली	-550
▁केल्या	-551
्हे	-552
▁टा	-553
▁5	-554
▁प्रवा	-555
मधील	-556
▁तयार	-557
▁प्रा	-558
▁उपचार	-559
▁अन	-560
ंग	-561
ोर	-562
र्क	-563
लब्	-564
▁डो	-565
क्रम	-566
▁परिस्थिती	-567
▁रू	-568
लब्ध	-569
▁उपलब्ध	-570
▁देण्यात	-571
ंप	-572
▁पुढ	-573
ंबई	-574
पेक्षा	-575
▁गेल्या	-576
▁अशा	-577
▁त्यांना	-578
▁गो	-579
▁आजार	-580
ांसाठी	-581
धार	-582
▁नोंद	-583
थे	-584
ष्	-585
▁आपल्या	-586
▁म्हटलं	-587
वळ	-588
▁१	-589
▁म्हणजे	-590
तं	-591
सर	-592
▁आला	-593
▁मात्र	-594
▁मुंबई	-595
ओव्ही	-596
▁शक्य	-597
▁म्हणाले	-598
्ल	-599
▁डॉक्ट	-600
▁केलं	-601
▁राज्य	-602
ण्याचा	-603
▁त्यामुळे	-604
पी	-605
▁ति	-606
वात	-607
▁सार्	-608
▁राज्या	-609
▁पहि	-610
▁टक्के	-611
▁तो	-612
▁शह	-613
▁करणे	-614
▁सू	-615
▁रोग	-616
▁स्प	-617
नं	-618
▁अशी	-619
▁हजार	-620
▁तरी	-621
▁जाग	-622
▁आम्ही	-623
▁राज्यात	-624
▁यो	-625
प्रिल	-626
▁महिन	-627
▁सुरु	-628
RS	-629
हो	-630
▁जो	-631
▁रे	-632
खा	-633
▁2020	-634
▁प्रय	-635
00	-636
▁महत्	-637
▁एप्रिल	-638
▁त्यांनी	-639
▁4	-640
▁हॉ	-641
ीर	-642
ष्टी	-643
▁विद्या	-644
ावा	-645
▁बोल	-646
▁अभ	-647
सो	-648
धान	-649
▁जग	-650
▁चाचण्या	-651
िका	-652
▁पड	-653
▁असून	-654
▁रूग्	-655
▁जाण	-656
ावी	-657
▁कोवि	-658
ठा	-659
▁समाव	-660
स्प	-661
▁-	-662
▁मुल	-663
म्हाला	-664
▁शकतो	-665
▁भारतात	-666
▁मोठ्या	-667
▁असल्याचं	-668
▁होतं	-669
▁:	-670
▁कार्य	-671
."	-672
▁सि	-673
▁कंप	-674
▁सांगतात	-675
▁डि	-676
ांचे	-677
▁नवी	-678
▁दाख	-679
ण्यास	-680
▁पुरव	-681
▁पे	-682
्यांना	-683
बी	-684
न्स	-685
वाय	-686
ातून	-687
▁लाख	-688
▁ओ	-689
▁कर्म	-690
पणे	-691
ैकी	-692
▁स्ट	-693
सीओव्ही	-694
ये	-695
िम	-696
▁डॉक्टर	-697
▁आठ	-698
▁साथ	-699
द्यकीय	-700
▁सरकारने	-701
मक	-702
▁निर्ण	-703
▁मध्ये	-704
▁शकतात	-705
▁सध्या	-706
र्श	-707
▁होऊ	-708
▁डोस	-709
▁जी	-710
▁श्	-711
▁येईल	-712
▁वैद्यकीय	-713
वस्थ	-714
र्भ	-715
▁आलं	-716
▁ठर	-717
▁धु	-718
▁होतो	-719
▁आवश्यक	-720
▁सांगितलं	-721
▁ठा	-722
▁सी	-723
▁आल्या	-724
ाज	-725
ंभीर	-726
गळ	-727
ख्ये	-728
▁पाल	-729
▁कोविड	-730
▁लोकांना	-731
िव्ह	-732
▁नागरिक	-733
▁प्रकार	-734
करणा	-735
▁गरज	-736
▁नवीन	-737
▁गंभीर	-738
मच्या	-739
▁निर्णय	-740
सेस	-741
▁प्रभाव	-742
वान	-743
ूक	-744
▁S	-745
▁मद	-746
▁कारण	-747
▁२	-748
▁अॅ	-749
हेर	-750
▁बी	-751
▁महाराष्ट्रात	-752
विध	-753
▁मी	-754
▁दुसऱ्या	-755
ात्	-756
▁मिळा	-757
▁समावेश	-758
पाद	-759
▁असा	-760
▁चीन	-761
▁असले	-762
▁विद्यार्थ	-763
▁अँ	-764
▁स्थिती	-765
हान	-766
▁शाळा	-767
▁ह्या	-768
र्ड	-769
▁बदल	-770
▁वाट	-771
▁शकते	-772
▁गु	-773
▁मास्क	-774
ण्याच्या	-775
▁करू	-776
▁महत्त्	-777
ूर्वी	-778
▁मुख्यम	-779
ुक	-780
िटल	-781
▁घट	-782
्याय	-783
▁नाहीत	-784
▁6	-785
शास	-786
▁देख	-787
▁संश	-788
करे	-789
द्दल	-790
क्स	-791
्यान	-792
▁ठाकरे	-793
ईन	-794
बर	-795
ावे	-796
▁पुन	-797
▁उत्पाद	-798
▁रि	-799
▁व्या	-800
ॉल	-801
▁7	-802
मडे	-803
ॅन	-804
▁दर	-805
वारे	-806
रम्यान	-807
▁पूर्ण	-808
शे	-809
▁रूग्ण	-810
▁विभाग	-811
Co	-812
च्छ	-813
▁चे	-814
ायला	-815
▁नियम	-816
हीर	-817
पैकी	-818
▁आठवड	-819
▁शक्यता	-820
▁संपर्क	-821
▁सुरुवात	-822
धित	-823
▁संबंध	-824
दर	-825
▁अभ्या	-826
▁आलेल्या	-827
टा	-828
ंना	-829
▁विचार	-830
▁आपण	-831
मडेसि	-832
▁जाहीर	-833
▁परवान	-834
▁नियंत्र	-835
्हा	-836
▁सूच	-837
विष	-838
▁फे	-839
▁बेड	-840
▁संसर्गा	-841
▁चाल	-842
▁पाहि	-843
सह	-844
भरात	-845
क्षित	-846
▁जागतिक	-847
▁निर्बंध	-848
▁महत्त्वा	-849
▁जन	-850
▁मू	-851
बद्दल	-852
▁पसर	-853
ंचा	-854
▁क्षेत	-855
▁परवानगी	-856
▁मे	-857
▁ठिक	-858
▁म्हणतात	-859
▁8	-860
▁	-861
ा	-862
्	-863
र	-864
य	-865
त	-866
े	-867
क	-868
ी	-869
स	-870
ल	-871
न	-872
ं	-873
ि	-874
व	-875
ह	-876
म	-877
च	-878
ण	-879
प	-880
ो	-881
आ	-882
द	-883
ग	-884
ज	-885
ु	-886
.	-887
ट	-888
श	-889
अ	-890
ू	-891
ध	-892
ब	-893
ड	-894
,	-895
ष	-896
ळ	-897
ठ	-898
ख	-899
भ	-900
थ	-901
उ	-902
घ	-903
ए	-904
झ	-905
ॉ	-906
फ	-907
-	-908
0	-909
1	-910
ढ	-911
2	-912
इ	-913
ई	-914
ऱ	-915
ॅ	-916
ऊ	-917
ृ	-918
"	-919
9	-920
ै	-921
C	-922
)	-923
(	-924
ऑ	-925
'	-926
5	-927
?	-928
I	-929
ओ	-930
3	-931
4	-932
S	-933
V	-934
R	-935
:	-936
O	-937
१	-938
D	-939
8	-940
ँ	-941
7	-942
6	-943
२	-944
o	-945
०	-946
A	-947
ञ	-948
औ	-949
छ	-950
ौ	-951
e	-952
a	-953
E	-954
P	-955
i	-956
%	-957
४	-958
t	-959
३	-960
r	-961
५	-962
n	-963
ः	-964
९	-965
H	-966
M	-967
s	-968
N	-969
/	-970
;	-971
६	-972
८	-973
T	-974
l	-975
c	-976
७	-977
W	-978
h	-979
d	-980
U	-981
G	-982
“	-983
‘	-984
m	-985
़	-986
’	-987
p	-988
!	-989
u	-990
B	-991
g	-992
v	-993
ऐ	-994
L	-995
”	-996
