<pad>	0
</s>	0
<unk>	0
s	-3.14297
▁the	-3.28601
,	-3.60294
▁	-3.62504
.	-3.8607
▁of	-3.94991
▁to	-4.00013
▁and	-4.17212
e	-4.20487
▁in	-4.26219
▁a	-4.33388
ing	-4.36182
t	-4.44467
d	-4.57881
ed	-4.63846
o	-4.66934
c	-4.75065
▁that	-4.75755
▁is	-4.76922
n	-4.83838
a	-4.85909
al	-4.89372
p	-4.94115
▁for	-4.97251
m	-4.97489
er	-4.98778
▁I	-5.00929
in	-5.0457
g	-5.08557
y	-5.13246
u	-5.18274
▁be	-5.20919
ly	-5.21967
i	-5.23065
or	-5.23609
▁on	-5.23856
b	-5.28101
ar	-5.30023
▁f	-5.32161
f	-5.35428
▁we	-5.35553
▁re	-5.36037
▁this	-5.38616
re	-5.40385
r	-5.43082
h	-5.4382
l	-5.49959
it	-5.53896
▁are	-5.54995
an	-5.62733
▁as	-5.63088
▁with	-5.63204
▁European	-5.63489
▁have	-5.64552
▁it	-5.65246
▁The	-5.65432
▁not	-5.66337
k	-5.74634
▁p	-5.76364
le	-5.77735
ic	-5.79696
ri	-5.80991
▁c	-5.8314
on	-5.8446
▁de	-5.85103
▁m	-5.86077
ment	-5.87962
-	-5.88642
ation	-5.88992
▁will	-5.90084
▁which	-5.91172
▁A	-5.92498
'	-5.94612
ur	-5.96223
th	-5.96414
ent	-5.97272
▁by	-5.97563
st	-5.99207
v	-5.99266
ter	-5.9939
es	-6.00778
ro	-6.01472
en	-6.02657
▁b	-6.03109
ion	-6.03407
▁con	-6.08878
▁S	-6.09697
ch	-6.11279
▁has	-6.12511
as	-6.12651
▁an	-6.14447
il	-6.14816
▁-	-6.16579
im	-6.19513
▁C	-6.19754
at	-6.20415
▁all	-6.21345
ate	-6.21505
ne	-6.21583
ol	-6.24978
et	-6.26212
ce	-6.27678
ut	-6.28442
▁ex	-6.28483
w	-6.28696
▁Mr	-6.29872
▁also	-6.30902
▁l	-6.33383
▁at	-6.35464
ul	-6.35515
▁(	-6.35534
)	-6.35829
▁do	-6.38669
▁EU	-6.38863
▁t	-6.39671
ive	-6.40044
▁you	-6.40122
▁would	-6.40339
ity	-6.42163
▁Commission	-6.43667
▁st	-6.43682
▁Member	-6.44959
▁We	-6.45536
tion	-6.4565
end	-6.45651
▁from	-6.45812
▁our	-6.47005
ra	-6.47683
▁President	-6.484
▁should	-6.49622
ad	-6.50229
ist	-6.52677
▁w	-6.53219
▁must	-6.53742
ow	-6.53935
ver	-6.53951
▁F	-6.54105
▁M	-6.54284
us	-6.54394
id	-6.55926
el	-6.56261
un	-6.56859
able	-6.56901
▁In	-6.57728
0	-6.58317
▁su	-6.58528
is	-6.58841
la	-6.59378
▁P	-6.59598
▁need	-6.59642
▁but	-6.59709
▁B	-6.60687
act	-6.60703
ir	-6.60788
▁Union	-6.60818
ve	-6.61347
▁so	-6.61374
▁e	-6.63736
▁pro	-6.6447
ance	-6.66529
vi	-6.68021
▁report	-6.69789
▁co	-6.69861
▁been	-6.69994
▁It	-6.70922
▁States	-6.71274
▁Parliament	-6.7145
ies	-6.71999
▁can	-6.72114
ge	-6.72702
und	-6.72785
▁more	-6.73764
ers	-6.73838
▁me	-6.74341
▁g	-6.74517
▁was	-6.75226
li	-6.75435
ig	-6.77561
▁se	-6.77957
lo	-6.78061
qu	-6.78809
op	-6.78858
ence	-6.79274
▁or	-6.79336
▁their	-6.79885
se	-6.79944
R	-6.79946
▁who	-6.80373
▁like	-6.81219
▁work	-6.82391
▁Europe	-6.82404
▁its	-6.82978
▁mo	-6.85137
▁This	-6.86119
ac	-6.86489
▁very	-6.86955
▁T	-6.8788
▁r	-6.88149
E	-6.88226
▁us	-6.88424
ta	-6.88925
om	-6.88953
ure	-6.90256
▁E	-6.90601
ally	-6.91269
▁en	-6.91318
ci	-6.92798
▁G	-6.94348
ia	-6.9464
▁sh	-6.95454
▁un	-6.95597
▁support	-6.96347
▁important	-6.98021
▁other	-6.98471
▁part	-6.99497
ish	-7.00135
age	-7.00155
▁v	-7.00333
te	-7.00646
am	-7.00747
▁pre	-7.00831
▁countries	-7.00877
▁take	-7.01039
▁O	-7.01226
▁1	-7.01401
ap	-7.01748
▁these	-7.01868
▁no	-7.0211
um	-7.02513
▁am	-7.03167
:	-7.03508
em	-7.03986
▁Council	-7.04034
▁time	-7.04117
▁dis	-7.04255
▁people	-7.07018
ide	-7.07351
ak	-7.07978
▁d	-7.07998
tra	-7.08192
▁new	-7.08583
ti	-7.09138
▁there	-7.09208
▁out	-7.09293
ight	-7.09499
▁about	-7.09677
z	-7.10334
▁one	-7.10378
ru	-7.12421
gr	-7.12785
com	-7.13217
day	-7.13277
ary	-7.13898
app	-7.14372
ities	-7.14913
▁L	-7.15238
▁comp	-7.15364
ations	-7.15718
est	-7.1587
▁my	-7.16064
ck	-7.16291
▁N	-7.16695
▁some	-7.16714
▁year	-7.1786
▁because	-7.18793
ated	-7.19486
▁what	-7.19565
▁up	-7.19771
x	-7.20464
▁policy	-7.21256
ise	-7.2137
▁vote	-7.22439
2	-7.22831
▁W	-7.23331
and	-7.23512
▁H	-7.23713
▁issue	-7.25325
▁only	-7.25714
ous	-7.25878
iv	-7.27
our	-7.27011
▁they	-7.2715
ud	-7.27152
▁go	-7.28515
▁market	-7.29311
▁make	-7.2976
ant	-7.29853
her	-7.29945
P	-7.30229
▁economic	-7.30311
1	-7.30798
▁rights	-7.32453
ff	-7.3255
▁he	-7.33195
ot	-7.33354
▁see	-7.34364
▁particular	-7.35338
j	-7.35452
▁di	-7.35585
tic	-7.35751
▁such	-7.36166
▁between	-7.36791
port	-7.3688
me	-7.36986
S	-7.37306
▁into	-7.38609
ition	-7.4006
U	-7.40301
ian	-7.41044
▁if	-7.42143
▁now	-7.42241
▁trans	-7.42332
ating	-7.42402
▁imp	-7.42472
▁proposal	-7.42663
ten	-7.42736
9	-7.42917
?	-7.43064
▁D	-7.43089
ough	-7.44229
▁200	-7.4616
mo	-7.46266
5	-7.4643
▁under	-7.4949
▁those	-7.49515
▁agreement	-7.49587
ell	-7.50079
▁citizens	-7.50204
T	-7.50384
▁when	-7.51207
▁problem	-7.51327
▁clear	-7.51477
ard	-7.51825
▁any	-7.52072
▁believe	-7.52288
▁therefore	-7.52425
▁financial	-7.5271
▁human	-7.5291
▁area	-7.53124
ha	-7.53462
ry	-7.53832
▁fact	-7.54254
▁say	-7.54344
isation	-7.54414
▁just	-7.54836
form	-7.54975
▁concern	-7.55492
A	-7.55547
▁over	-7.5558
▁even	-7.55645
od	-7.55889
▁think	-7.5614
▁political	-7.5645
▁social	-7.56634
3	-7.56903
▁sp	-7.57005
▁system	-7.5711
▁against	-7.57299
▁give	-7.57862
▁way	-7.58071
▁energy	-7.58505
▁development	-7.59033
▁point	-7.59127
▁regard	-7.60096
ative	-7.60525
▁direct	-7.61408
;	-7.61489
▁20	-7.61547
▁use	-7.62127
▁'	-7.6248
▁want	-7.62594
ful	-7.63056
▁many	-7.63145
▁situation	-7.63194
all	-7.63558
ical	-7.63574
▁state	-7.64257
▁car	-7.6437
▁region	-7.64376
▁crisis	-7.64425
▁than	-7.65852
▁right	-7.65996
▁However	-7.66082
▁well	-7.66113
▁made	-7.66217
▁know	-7.66402
▁per	-7.66515
▁good	-7.66668
▁great	-7.66909
▁level	-7.67025
C	-7.67053
▁question	-7.67233
▁ho	-7.67521
▁first	-7.67547
▁debate	-7.68641
ill	-7.69047
D	-7.69191
▁Commissioner	-7.69564
▁were	-7.69587
▁order	-7.70656
▁change	-7.70806
7	-7.70978
8	-7.71165
▁country	-7.71502
▁high	-7.72286
▁measures	-7.73826
▁adopt	-7.73879
4	-7.74326
O	-7.76907
▁implement	-7.77203
▁ensure	-7.77629
▁future	-7.77994
▁national	-7.78153
▁case	-7.78282
▁where	-7.78453
K	-7.7886
▁Re	-7.78868
ran	-7.79263
▁provide	-7.79277
L	-7.80462
▁J	-7.81017
▁through	-7.81529
▁result	-7.82464
%	-7.82698
▁most	-7.83106
▁budget	-7.83821
line	-7.83938
ship	-7.8401
▁public	-7.84101
▁same	-7.84209
I	-7.84588
ness	-7.84666
▁every	-7.84883
▁world	-7.85534
ven	-7.86394
▁Madam	-7.8755
V	-7.87602
▁here	-7.87811
▁sector	-7.88115
▁action	-7.88188
less	-7.88294
6	-7.88942
▁call	-7.89107
▁current	-7.89211
▁possible	-7.89318
▁cannot	-7.89833
▁long	-7.90556
▁That	-7.90596
▁consider	-7.91321
▁respect	-7.91816
▁help	-7.91905
▁thank	-7.92239
▁protection	-7.92282
▁international	-7.92861
▁could	-7.93352
▁cooperation	-7.93495
▁two	-7.93777
ability	-7.94002
▁resolution	-7.94237
▁law	-7.94623
▁much	-7.94852
▁place	-7.9496
▁interest	-7.95259
▁increase	-7.96043
▁does	-7.96384
▁common	-7.96553
▁how	-7.96641
▁favour	-7.97007
▁his	-7.97462
▁agree	-7.97623
▁rapporteur	-7.97863
F	-7.98196
▁environment	-7.98353
▁already	-7.98924
▁process	-7.99739
land	-7.99862
▁said	-8.0016
▁both	-8.00278
▁had	-8.00596
▁certain	-8.00668
▁decision	-8.00778
ruct	-8.00906
▁view	-8.01495
▁require	-8.01587
▁hope	-8.01593
▁access	-8.01678
▁still	-8.02623
▁Treaty	-8.02975
▁discuss	-8.04363
▁plan	-8.04363
▁own	-8.04612
elect	-8.04876
▁achieve	-8.05148
▁come	-8.05434
20	-8.05492
▁security	-8.06225
▁effective	-8.06363
▁matter	-8.07052
▁invest	-8.07559
▁writing	-8.07908
▁Committee	-8.0807
▁develop	-8.08243
▁course	-8.08713
▁health	-8.09118
▁example	-8.09146
▁service	-8.0942
▁why	-8.09939
N	-8.10296
ncy	-8.10688
▁regulation	-8.11202
▁reason	-8.11516
▁major	-8.11739
▁information	-8.12061
▁global	-8.12347
▁gentlemen	-8.12823
▁continue	-8.12948
▁number	-8.13575
▁group	-8.13769
▁last	-8.14206
▁improve	-8.14298
▁relation	-8.14338
▁Group	-8.1506
▁women	-8.15225
▁role	-8.15401
▁principle	-8.15537
▁trade	-8.15753
▁full	-8.15811
▁legal	-8.15859
▁present	-8.16182
▁necessary	-8.18388
▁programme	-8.19352
▁without	-8.203
▁welcome	-8.20424
▁represent	-8.21334
▁objective	-8.21507
ible	-8.22509
▁lead	-8.22704
▁establish	-8.2279
mission	-8.22942
▁consumer	-8.23155
▁means	-8.23216
▁close	-8.2358
▁Lisbon	-8.23583
▁climate	-8.24052
▁may	-8.25099
▁better	-8.27371
▁account	-8.27448
▁strategy	-8.28239
▁power	-8.28241
▁behalf	-8.28425
▁thing	-8.28862
▁since	-8.29029
▁effort	-8.2929
▁follow	-8.2976
▁position	-8.31468
▁amendment	-8.31839
▁difficult	-8.32181
▁employ	-8.32305
▁organ	-8.3258
M	-8.33122
▁ladies	-8.33221
▁specific	-8.33609
▁job	-8.33988
▁different	-8.34889
▁framework	-8.35087
▁government	-8.35116
▁step	-8.35136
▁approach	-8.35357
▁however	-8.35517
▁project	-8.35728
▁strong	-8.36099
▁legislation	-8.36114
▁institutions	-8.36197
▁including	-8.36746
▁serious	-8.36747
▁freedom	-8.36832
▁propose	-8.37296
▁involve	-8.37426
▁after	-8.37552
▁again	-8.37661
▁next	-8.37993
▁solution	-8.38403
▁include	-8.38447
▁million	-8.3858
▁manage	-8.38627
▁express	-8.38682
▁pay	-8.38835
▁further	-8.38858
▁food	-8.39018
▁look	-8.40029
▁large	-8.40141
▁opinion	-8.40911
▁whether	-8.41091
▁progress	-8.41151
▁before	-8.41273
▁tax	-8.41603
▁create	-8.41729
▁find	-8.41766
▁recent	-8.4191
▁economy	-8.42166
▁State	-8.42232
▁speak	-8.42565
▁prevent	-8.43005
▁guarantee	-8.43068
border	-8.43074
▁refer	-8.431
▁procedure	-8.43391
▁initiative	-8.44257
▁talk	-8.45122
▁Presidency	-8.45319
▁play	-8.45348
▁open	-8.45419
▁hand	-8.45563
▁resources	-8.45776
▁instrument	-8.46029
▁fundamental	-8.46171
▁products	-8.46584
stitution	-8.48579
▁policies	-8.48592
▁value	-8.49016
▁especially	-8.49325
▁conditions	-8.49685
ification	-8.50149
▁back	-8.50207
▁towards	-8.50278
▁business	-8.50376
▁sign	-8.50448
▁Russia	-8.50558
▁protect	-8.50616
▁essential	-8.50691
▁small	-8.50925
▁basis	-8.50978
▁spec	-8.51077
▁opportunity	-8.51222
▁person	-8.51243
▁start	-8.51289
▁bring	-8.52013
▁remain	-8.52043
▁importance	-8.52109
▁forward	-8.52164
▁challenge	-8.52463
▁risk	-8.53267
ified	-8.5352
▁What	-8.53746
▁join	-8.53805
▁during	-8.54029
▁strengthen	-8.54887
▁success	-8.55129
▁Community	-8.55598
▁become	-8.55683
▁third	-8.55895
▁addition	-8.5593
▁treat	-8.56017
▁United	-8.5642
▁control	-8.57266
▁together	-8.57514
▁equal	-8.57603
▁safety	-8.57638
▁subject	-8.57727
▁three	-8.58784
▁data	-8.58796
▁research	-8.59611
▁second	-8.59829
▁member	-8.60084
▁benefit	-8.60247
▁general	-8.60248
▁price	-8.61694
▁commitment	-8.61846
▁House	-8.631
▁growth	-8.63133
▁attention	-8.63718
▁text	-8.64038
▁industry	-8.64265
▁children	-8.64379
G	-8.64973
▁accept	-8.64989
▁education	-8.65238
▁responsibility	-8.66104
▁produce	-8.66125
▁democracy	-8.66881
▁significant	-8.67212
▁while	-8.67624
▁internal	-8.67941
▁life	-8.68972
▁understand	-8.69127
▁reduce	-8.70613
▁society	-8.70653
▁standards	-8.70714
▁democratic	-8.70957
▁another	-8.71263
▁cause	-8.7174
▁address	-8.71854
▁happen	-8.71936
▁increasing	-8.73256
▁positive	-8.73256
▁effect	-8.73693
▁affect	-8.73776
▁least	-8.75953
▁expect	-8.7642
▁agricultural	-8.76635
▁provision	-8.77455
▁civil	-8.77545
▁always	-8.77563
▁companies	-8.7905
▁quality	-8.80333
▁target	-8.8069
▁draw	-8.80826
▁aware	-8.8096
▁production	-8.81498
▁various	-8.82291
▁period	-8.82634
▁individual	-8.82678
▁promote	-8.82959
▁competitive	-8.83181
▁Therefore	-8.8348
▁practice	-8.8452
▁colleague	-8.8466
▁complete	-8.85436
▁name	-8.85555
▁sustainable	-8.85995
▁aspect	-8.8692
▁combat	-8.87161
▁context	-8.87277
▁emphasis	-8.88988
▁Government	-8.8928
▁package	-8.90039
▁having	-8.91126
▁Directive	-8.9115
▁dialogue	-8.91474
▁Africa	-8.91748
▁solidarity	-8.91998
▁draft	-8.92425
B	-8.92951
▁mechanism	-8.94125
▁build	-8.94278
▁monitor	-8.94844
▁response	-8.95698
▁compromise	-8.96297
▁population	-8.96454
▁contribution	-8.9719
▁parliament	-8.97348
▁labour	-8.97852
H	-9.25492
W	-9.90093
(	-10.0346
q	-10.1473
J	-11.2575
