<pad>	0
</s>	0
<unk>	0
s	-3.14091
▁the	-3.26752
▁	-3.50989
,	-3.63841
.	-3.87464
▁of	-3.95958
▁to	-4.03944
e	-4.16122
▁and	-4.19633
▁in	-4.2745
▁a	-4.30247
ing	-4.33528
a	-4.39382
d	-4.40186
t	-4.42449
o	-4.49222
p	-4.68757
c	-4.69966
ed	-4.72746
m	-4.73476
▁that	-4.76175
▁is	-4.7981
n	-4.83393
l	-4.85533
i	-4.90505
▁for	-4.97456
g	-4.97936
u	-4.99542
▁I	-5.01754
ly	-5.0714
er	-5.11487
al	-5.17018
y	-5.19694
in	-5.19803
▁be	-5.22837
▁on	-5.23888
ar	-5.25299
b	-5.34106
▁we	-5.36068
▁this	-5.39937
▁are	-5.43044
en	-5.43808
▁f	-5.44908
re	-5.46011
r	-5.47262
▁re	-5.47568
an	-5.52162
on	-5.53834
f	-5.56278
v	-5.59248
or	-5.6357
▁it	-5.63772
▁m	-5.64455
▁European	-5.64571
k	-5.64948
it	-5.65439
st	-5.66048
▁with	-5.66474
▁The	-5.66901
▁have	-5.67732
▁as	-5.67823
▁not	-5.68308
ra	-5.69784
▁p	-5.71598
▁c	-5.72453
h	-5.75443
'	-5.80965
ic	-5.84323
le	-5.86118
tion	-5.88769
ur	-5.88987
-	-5.91235
ri	-5.91522
▁will	-5.93728
▁which	-5.95411
ent	-5.95974
▁con	-5.96231
▁de	-5.97228
▁by	-5.97486
▁A	-5.97787
ir	-6.00308
ce	-6.02022
ation	-6.04492
ment	-6.05124
es	-6.05158
▁-	-6.11814
ro	-6.11897
▁b	-6.13582
▁S	-6.13801
▁has	-6.13847
id	-6.14109
▁d	-6.16653
ter	-6.171
il	-6.18295
ate	-6.21146
▁all	-6.21825
w	-6.21931
ch	-6.23936
ne	-6.24318
as	-6.26644
▁an	-6.26862
im	-6.26866
th	-6.27615
▁C	-6.28416
▁also	-6.29876
ion	-6.31288
ol	-6.31788
▁Mr	-6.32341
▁com	-6.35036
▁would	-6.35488
ive	-6.36059
el	-6.37772
▁h	-6.38639
▁EU	-6.38702
▁t	-6.39154
▁(	-6.39406
)	-6.39502
▁you	-6.40231
at	-6.40341
ul	-6.41015
▁at	-6.41069
▁Member	-6.42989
▁pro	-6.4328
ut	-6.43996
▁our	-6.45725
▁Commission	-6.4595
ity	-6.46895
▁We	-6.47822
▁from	-6.4842
se	-6.49486
▁President	-6.49607
▁should	-6.49885
▁do	-6.51019
et	-6.51162
un	-6.51305
ies	-6.51483
ad	-6.51654
ec	-6.53184
ver	-6.58223
ve	-6.58289
0	-6.58977
▁ex	-6.59238
▁must	-6.59422
▁M	-6.59744
▁but	-6.6
able	-6.60137
▁B	-6.60877
▁or	-6.61269
▁Union	-6.61635
▁P	-6.62018
▁need	-6.62036
ist	-6.62657
te	-6.63205
▁so	-6.65282
ance	-6.66295
▁In	-6.66456
li	-6.68155
ow	-6.68316
▁g	-6.6923
▁th	-6.69501
ers	-6.69637
▁report	-6.69699
▁States	-6.71438
▁been	-6.7283
▁more	-6.74139
▁w	-6.74683
▁Parliament	-6.75176
▁was	-6.75318
ge	-6.76901
▁like	-6.77227
▁can	-6.7726
▁work	-6.78331
▁It	-6.78515
ta	-6.78971
um	-6.79648
▁who	-6.80335
▁Europe	-6.80541
om	-6.80723
ose	-6.81257
▁co	-6.81387
▁me	-6.83031
ig	-6.83763
ence	-6.83902
age	-6.84036
R	-6.84763
▁very	-6.87915
▁us	-6.87994
▁e	-6.89083
▁This	-6.89119
us	-6.89409
E	-6.9084
ure	-6.91681
▁G	-6.9341
▁support	-6.94187
▁E	-6.94502
ations	-6.9515
ot	-6.96329
▁countries	-6.96377
▁un	-6.96411
▁these	-6.96982
▁other	-6.97269
str	-6.97425
▁sh	-6.97574
▁its	-6.97741
ru	-6.9836
vi	-6.98761
ous	-6.98954
is	-6.98956
our	-6.99425
ish	-6.99939
▁time	-7.00608
j	-7.00751
▁take	-7.00755
op	-7.00829
ial	-7.02238
▁1	-7.02709
▁am	-7.03214
ted	-7.0356
▁T	-7.03618
▁important	-7.03725
:	-7.04203
z	-7.04203
▁no	-7.04467
ck	-7.04503
ary	-7.05758
ia	-7.06401
and	-7.06403
▁people	-7.06463
am	-7.06722
▁O	-7.0689
sion	-7.07588
▁la	-7.08543
▁new	-7.09292
▁one	-7.1018
▁out	-7.10868
▁F	-7.1105
▁part	-7.11861
▁Council	-7.12347
▁about	-7.14447
▁policy	-7.15335
ten	-7.1544
▁L	-7.16278
▁there	-7.16995
2	-7.1883
ant	-7.19342
▁dis	-7.19391
▁some	-7.19562
▁see	-7.19875
▁my	-7.2028
▁sp	-7.20792
x	-7.20864
▁because	-7.21403
▁vi	-7.23035
▁year	-7.23125
▁vote	-7.23138
▁only	-7.24836
▁up	-7.2493
▁D	-7.25077
if	-7.25786
▁market	-7.25861
1	-7.26542
▁go	-7.26594
▁what	-7.2666
ard	-7.26691
▁issue	-7.27074
▁pre	-7.27596
P	-7.29447
ud	-7.29733
▁economic	-7.3032
▁make	-7.31995
▁W	-7.32107
▁they	-7.3404
N	-7.34703
tor	-7.359
▁per	-7.36329
tic	-7.37123
est	-7.3759
▁he	-7.37607
▁particular	-7.37627
▁between	-7.3785
▁H	-7.38937
▁proposal	-7.392
ise	-7.39217
port	-7.40274
▁into	-7.40524
▁rights	-7.41529
▁now	-7.42302
S	-7.42797
he	-7.44072
ities	-7.44085
9	-7.44789
▁such	-7.44792
▁under	-7.45523
ical	-7.47372
ated	-7.48417
5	-7.48448
▁trans	-7.49197
▁therefore	-7.49448
▁r	-7.49677
?	-7.49698
▁agreement	-7.50613
▁problem	-7.50711
▁200	-7.50842
▁clear	-7.50974
▁think	-7.51736
▁if	-7.52062
U	-7.52403
▁when	-7.53811
▁say	-7.54348
▁citizens	-7.54596
▁financial	-7.54596
▁concern	-7.55392
ber	-7.56278
▁energy	-7.56732
▁20	-7.56963
▁fact	-7.57231
igh	-7.57273
▁political	-7.57274
▁over	-7.57363
▁real	-7.57433
▁use	-7.57447
for	-7.57483
ple	-7.57679
A	-7.58458
▁any	-7.58524
all	-7.58826
▁social	-7.60306
▁against	-7.60489
▁believe	-7.60584
isation	-7.60855
▁even	-7.61488
▁situation	-7.61713
▁first	-7.61721
▁many	-7.6173
▁want	-7.61926
▁right	-7.6195
▁good	-7.62016
her	-7.6207
▁just	-7.62568
ff	-7.63438
▁debate	-7.63728
▁state	-7.63822
▁country	-7.64008
▁regard	-7.64013
▁point	-7.643
ual	-7.6446
▁system	-7.64591
3	-7.64883
ating	-7.65228
T	-7.65506
▁sta	-7.66216
▁than	-7.66843
ful	-7.66909
ry	-7.66951
▁order	-7.66979
▁through	-7.67253
▁development	-7.67399
▁were	-7.67985
▁give	-7.68119
▁way	-7.68175
C	-7.68239
▁However	-7.6846
ill	-7.68754
ative	-7.68786
▁made	-7.69396
▁adopt	-7.69697
▁region	-7.70001
▁well	-7.70054
▁crisis	-7.70607
;	-7.70918
▁question	-7.70918
▁J	-7.71072
K	-7.71542
ound	-7.7157
▁know	-7.7217
D	-7.72476
▁case	-7.72561
▁change	-7.72802
▁human	-7.72804
▁Commissioner	-7.7321
4	-7.73438
ble	-7.73738
▁exp	-7.74235
▁today	-7.74387
▁great	-7.74407
▁result	-7.75371
▁national	-7.75697
▁most	-7.75734
▁level	-7.76023
ian	-7.77297
hip	-7.78333
8	-7.78341
7	-7.79351
▁measures	-7.80371
▁provide	-7.80718
O	-7.80847
que	-7.81748
▁budget	-7.81748
▁That	-7.82795
L	-7.83404
qui	-7.83494
▁every	-7.835
▁Mada	-7.83561
com	-7.83952
▁Re	-7.84004
▁call	-7.84005
▁fund	-7.84225
▁cannot	-7.84563
▁world	-7.84917
day	-7.85075
6	-7.85636
▁future	-7.86361
▁already	-7.87087
▁public	-7.87087
▁implement	-7.87088
▁ensure	-7.87089
▁view	-7.87094
ised	-7.87703
line	-7.87806
▁cooperation	-7.87821
▁international	-7.87826
▁end	-7.88634
▁imp	-7.88715
▁act	-7.88797
▁resolution	-7.88933
▁where	-7.88936
▁relat	-7.89443
▁here	-7.89486
▁interest	-7.89687
I	-7.90936
V	-7.91574
▁sector	-7.91575
▁discuss	-7.91575
▁common	-7.91591
▁two	-7.9197
▁same	-7.92347
ness	-7.92434
▁agree	-7.92511
▁environment	-7.94287
▁consider	-7.94288
▁help	-7.94309
▁his	-7.9447
%	-7.94681
▁decision	-7.94681
▁thank	-7.94758
▁law	-7.95163
20	-7.95224
▁action	-7.96178
less	-7.96574
▁require	-7.96676
▁both	-7.96689
land	-7.9751
▁own	-7.97973
▁reduc	-7.98302
▁respect	-7.98696
▁current	-7.99531
▁matter	-7.99535
▁does	-8.00507
▁had	-8.00837
▁regulation	-8.01201
ability	-8.01206
▁much	-8.01216
▁how	-8.01436
▁favour	-8.01623
▁protection	-8.01722
▁Committee	-8.02046
▁possible	-8.02046
▁plan	-8.02178
▁high	-8.02337
F	-8.02508
elect	-8.03039
▁increase	-8.03329
▁could	-8.03336
▁set	-8.03735
▁Treaty	-8.04193
▁place	-8.04628
▁certain	-8.05503
spect	-8.05574
▁rapporteur	-8.05943
▁hope	-8.073
▁last	-8.07447
▁For	-8.07473
▁service	-8.07725
▁reason	-8.07738
▁why	-8.08182
▁effective	-8.08261
▁global	-8.08628
▁said	-8.08639
▁main	-8.08711
▁continue	-8.09082
▁still	-8.091
▁No	-8.09223
▁number	-8.09539
▁example	-8.09539
▁process	-8.09542
▁course	-8.09544
▁achieve	-8.09998
▁writing	-8.10922
▁women	-8.10924
▁security	-8.12323
▁improve	-8.12324
▁full	-8.13177
▁trade	-8.13274
▁Group	-8.14705
▁group	-8.15673
▁lead	-8.15723
▁principle	-8.16161
▁represent	-8.16161
▁information	-8.16651
▁develop	-8.16905
▁Lisbon	-8.17144
▁access	-8.17144
▁role	-8.18222
▁climate	-8.18636
▁major	-8.18636
▁legal	-8.18637
▁since	-8.18643
▁welcome	-8.19139
▁close	-8.19656
▁including	-8.20151
▁necessary	-8.21174
▁present	-8.21206
▁health	-8.21693
▁directive	-8.21832
▁amendment	-8.22729
ncy	-8.23222
mission	-8.23267
▁power	-8.23277
▁gentlemen	-8.23779
▁position	-8.2484
▁better	-8.25968
▁means	-8.27622
▁establish	-8.28644
border	-8.28665
▁step	-8.29212
▁million	-8.2976
▁follow	-8.3032
▁specific	-8.30886
▁progress	-8.31454
▁involv	-8.31455
▁next	-8.32025
▁may	-8.3213
▁behalf	-8.326
▁freedom	-8.326
▁Presidency	-8.33759
▁look	-8.33759
▁consumer	-8.3376
▁programme	-8.34344
▁again	-8.34546
▁prevent	-8.34938
▁project	-8.35524
▁include	-8.35524
▁rules	-8.35528
▁express	-8.35529
▁without	-8.35551
▁large	-8.36123
▁employ	-8.36718
▁strategy	-8.36718
▁speak	-8.36718
▁however	-8.37324
▁find	-8.37447
▁State	-8.3789
▁products	-8.37926
▁terms	-8.37938
▁account	-8.38536
▁opinion	-8.38536
▁after	-8.39201
log	-8.39246
▁approach	-8.39767
▁economy	-8.39767
▁legislation	-8.39767
▁whether	-8.39767
▁pay	-8.39873
▁effort	-8.40388
▁further	-8.40388
▁tax	-8.40408
▁institutions	-8.41642
▁value	-8.41642
▁strong	-8.41642
M	-8.41891
▁direct	-8.42102
▁before	-8.42295
▁job	-8.42913
▁word	-8.43578
▁difficult	-8.44847
ification	-8.44853
▁create	-8.44943
▁success	-8.45501
▁solution	-8.45501
▁recent	-8.45551
▁framework	-8.46821
▁open	-8.47552
▁guarantee	-8.48159
▁serious	-8.48159
▁What	-8.4884
▁move	-8.48868
▁bring	-8.48898
▁control	-8.49515
▁Uni	-8.49816
▁challenge	-8.502
▁start	-8.50234
▁essential	-8.50889
▁resources	-8.50889
▁sign	-8.50896
▁join	-8.51585
▁different	-8.52987
▁second	-8.52988
▁small	-8.52991
▁importance	-8.53697
▁forward	-8.53702
▁euro	-8.53733
▁towards	-8.54412
▁business	-8.5513
▁introduc	-8.55855
▁individual	-8.55855
▁opportunity	-8.55855
▁policies	-8.55855
▁play	-8.55856
▁equal	-8.56585
▁initiative	-8.56585
▁impact	-8.56585
▁third	-8.56606
▁member	-8.57324
▁risk	-8.57328
▁back	-8.57334
▁benefit	-8.58061
▁happen	-8.58807
▁Community	-8.59559
▁commitment	-8.59559
▁general	-8.59559
▁research	-8.59559
▁instrument	-8.59559
▁Fund	-8.59567
▁reform	-8.5957
▁prepar	-8.59581
▁become	-8.59586
▁based	-8.59587
▁procedure	-8.60317
▁children	-8.6108
▁especially	-8.6108
▁government	-8.6108
▁strengthen	-8.6108
▁attention	-8.61083
▁significant	-8.61849
▁fundamental	-8.62625
▁talk	-8.62649
▁quality	-8.63406
▁society	-8.63406
▁remain	-8.63407
ught	-8.64155
▁safety	-8.64987
▁subject	-8.64987
▁internal	-8.65788
▁basis	-8.65791
▁each	-8.65808
▁together	-8.66594
▁fight	-8.6661
G	-8.66918
▁protect	-8.67215
▁addition	-8.67406
▁cause	-8.67417
▁treat	-8.67482
▁target	-8.68226
▁vari	-8.68235
▁life	-8.68236
▁democratic	-8.69052
▁positive	-8.69886
▁draft	-8.69886
▁House	-8.69891
▁democracy	-8.70726
▁responsibility	-8.70726
▁demand	-8.70738
▁industry	-8.71574
▁Therefore	-8.72428
▁produce	-8.72431
▁expect	-8.72447
▁combat	-8.72547
ctually	-8.72626
▁increasing	-8.7329
▁Russia	-8.7329
▁accept	-8.7329
▁limit	-8.74162
▁itself	-8.74165
▁while	-8.75037
▁text	-8.75922
▁understand	-8.75923
▁always	-8.76815
▁growth	-8.76815
▁address	-8.77716
▁conclusion	-8.78625
▁effect	-8.79367
▁another	-8.79543
▁key	-8.79548
▁dialogue	-8.80468
▁package	-8.81403
▁parliament	-8.81403
▁transparency	-8.81403
▁civil	-8.81403
▁focus	-8.81403
▁provision	-8.82347
▁aware	-8.82349
▁stress	-8.82349
▁agricultural	-8.83299
▁rather	-8.84262
▁context	-8.85231
▁companies	-8.85231
▁period	-8.86212
▁name	-8.86219
▁Directive	-8.87201
▁Government	-8.88202
▁compromise	-8.88202
▁potential	-8.88202
▁taking	-8.88203
▁practice	-8.89212
▁colleague	-8.89212
▁monitor	-8.89212
▁poverty	-8.90232
▁recommend	-8.90232
▁promote	-8.9024
▁population	-8.91263
▁answer	-8.91265
▁accord	-8.92305
▁activities	-8.92305
▁encourage	-8.92305
▁investment	-8.94421
▁affect	-8.94422
▁extreme	-8.95496
▁innovation	-8.95496
▁document	-8.96583
▁decide	-8.96602
▁available	-8.97682
▁competitive	-8.97682
▁contribute	-8.97682
▁contribution	-8.97682
fellow	-8.97684
▁application	-8.98793
▁competition	-8.98793
▁solidarity	-8.98793
▁legislative	-8.99917
▁sustainable	-8.99917
▁Finally	-8.99917
B	-9.12843
H	-9.33355
W	-9.88268
(	-10.1027
J	-10.6491
q	-10.6491
