<pad>	0
</s>	0
<unk>	0
s	-3.23067
▁the	-3.41964
.	-3.55025
,	-3.63911
▁of	-3.81527
▁and	-4.09429
▁to	-4.21679
▁in	-4.35075
▁a	-4.38382
ed	-4.63931
▁	-4.7232
ing	-4.75714
▁is	-4.77608
d	-4.88495
▁for	-5.13223
t	-5.23729
▁-	-5.27647
▁that	-5.29784
▁be	-5.36963
y	-5.38372
e	-5.40477
▁you	-5.42204
er	-5.42797
▁The	-5.48398
▁(	-5.50608
ly	-5.56622
al	-5.5741
▁not	-5.57916
▁s	-5.62885
)	-5.66351
▁on	-5.67811
▁with	-5.68731
▁are	-5.69029
▁or	-5.69333
▁it	-5.70867
▁'	-5.79975
▁as	-5.8109
▁by	-5.82585
i	-5.84327
:	-5.86657
n	-5.88321
▁was	-5.88612
r	-5.89153
▁have	-5.89382
▁I	-5.90833
▁from	-5.91239
in	-5.91869
a	-5.92284
▁will	-5.92557
▁A	-5.94046
▁they	-5.96379
▁this	-6.03364
▁them	-6.03891
re	-6.06102
m	-6.07031
▁S	-6.0706
▁has	-6.10104
;	-6.10997
or	-6.12205
▁He	-6.125
▁who	-6.13237
▁which	-6.13377
▁he	-6.16523
b	-6.17376
▁re	-6.18617
o	-6.20727
▁an	-6.20802
▁his	-6.21016
▁their	-6.21933
k	-6.2297
c	-6.23119
g	-6.24991
es	-6.27282
ar	-6.291
st	-6.31504
p	-6.31774
▁at	-6.34049
ation	-6.35951
▁We	-6.38222
it	-6.39019
le	-6.39578
th	-6.39709
ra	-6.40441
▁all	-6.40805
ri	-6.4172
▁Allah	-6.41865
▁And	-6.43372
an	-6.44482
▁do	-6.45515
ur	-6.46378
h	-6.481
▁we	-6.52611
▁In	-6.52888
l	-6.53298
li	-6.5396
▁C	-6.54062
il	-6.5492
?	-6.56265
▁your	-6.56482
on	-6.58459
▁India	-6.60144
-	-6.60388
▁de	-6.625
ment	-6.62836
▁so	-6.63435
▁but	-6.63467
▁one	-6.63608
'	-6.65844
ent	-6.67828
S	-6.68309
ity	-6.70931
w	-6.71509
▁any	-6.71652
able	-6.72191
at	-6.72575
ir	-6.73061
▁been	-6.74275
▁"	-6.74513
▁B	-6.74538
▁P	-6.75166
▁b	-6.75721
▁were	-6.77778
et	-6.78102
▁can	-6.78235
I	-6.79107
u	-6.79371
▁F	-6.79451
A	-6.79629
▁had	-6.80586
ce	-6.81342
f	-6.81667
en	-6.8247
▁It	-6.8247
▁those	-6.82699
▁f	-6.82923
▁him	-6.82962
▁people	-6.83189
▁when	-6.84182
▁said	-6.84554
la	-6.84725
ll	-6.8603
▁no	-6.86194
ers	-6.86649
▁me	-6.87039
▁p	-6.87173
▁shall	-6.87614
▁e	-6.87661
C	-6.89569
▁w	-6.897
%	-6.91387
▁other	-6.92188
te	-6.93176
ion	-6.93811
▁/	-6.94026
se	-6.94464
▁what	-6.94775
▁God	-6.95713
us	-6.95826
!	-6.95914
▁also	-6.95943
▁Re	-6.96589
ch	-6.9669
vi	-6.96808
▁if	-6.97287
ti	-6.97343
ive	-6.97534
▁c	-6.98469
▁there	-6.98726
ha	-6.9908
P	-7.00327
ic	-7.01178
id	-7.01206
▁T	-7.0162
▁out	-7.02027
ate	-7.02321
▁our	-7.02673
▁may	-7.02697
O	-7.02758
ta	-7.0323
ul	-7.03294
▁up	-7.0453
▁Lord	-7.04967
M	-7.0523
▁t	-7.05542
E	-7.05832
T	-7.05998
▁K	-7.07116
▁19	-7.07327
▁pro	-7.0747
ad	-7.07539
▁un	-7.0761
el	-7.08468
▁E	-7.09388
▁its	-7.09446
▁This	-7.10073
▁G	-7.10243
un	-7.10494
D	-7.10648
ma	-7.10857
ve	-7.11448
ter	-7.11458
tion	-7.12185
um	-7.12394
na	-7.12947
ne	-7.13576
ol	-7.13609
ro	-7.13638
▁time	-7.14031
▁would	-7.14058
▁under	-7.15497
▁M	-7.15927
▁such	-7.16965
▁O	-7.17047
de	-7.17577
ance	-7.17716
▁only	-7.1811
▁_	-7.18437
x	-7.18533
as	-7.1895
▁Ma	-7.19763
lo	-7.19872
▁“	-7.20463
▁over	-7.20999
▁D	-7.23321
est	-7.2411
▁con	-7.24163
▁So	-7.24387
▁made	-7.2512
▁like	-7.25396
ver	-7.26736
ant	-7.26862
▁N	-7.28653
▁should	-7.28864
▁more	-7.29549
▁about	-7.29682
▁some	-7.29935
▁than	-7.3019
5	-7.30283
▁mo	-7.3038
▁into	-7.31463
▁pre	-7.32104
am	-7.32664
▁say	-7.3269
sh	-7.332
ies	-7.34736
▁my	-7.35193
▁then	-7.36025
ry	-7.36207
▁But	-7.36227
▁new	-7.366
▁work	-7.36986
0	-7.37295
di	-7.37413
▁us	-7.3753
▁co	-7.3947
ut	-7.3963
▁They	-7.40565
and	-7.40823
▁two	-7.41036
ist	-7.41167
ness	-7.413
▁1	-7.41475
7	-7.42158
▁know	-7.42408
]	-7.42668
▁”	-7.42724
1	-7.42828
z	-7.43537
ful	-7.43626
9	-7.44236
im	-7.44483
▁[	-7.44585
▁dis	-7.44707
▁good	-7.449
▁after	-7.4623
▁part	-7.46374
ge	-7.46675
ary	-7.47026
3	-7.47134
ip	-7.47481
4	-7.47714
▁before	-7.48478
▁make	-7.49508
2	-7.49674
me	-7.49849
hi	-7.50021
va	-7.50854
L	-7.51387
▁per	-7.51474
"	-7.51508
▁His	-7.51621
▁these	-7.51841
age	-7.51862
op	-7.52223
▁H	-7.52348
▁Indian	-7.52485
▁life	-7.52882
to	-7.53309
▁L	-7.54143
▁day	-7.54298
is	-7.54403
▁her	-7.54798
B	-7.5486
▁form	-7.5515
▁d	-7.55337
▁come	-7.5548
om	-7.55484
▁sub	-7.5607
ence	-7.56136
▁De	-7.56532
▁3	-7.57093
▁di	-7.5841
mo	-7.585
▁20	-7.58542
▁An	-7.58759
▁world	-7.60049
’	-7.60338
ted	-7.60488
ish	-7.60554
H	-7.60619
ty	-7.61213
▁where	-7.61231
ci	-7.61299
▁ra	-7.61453
▁To	-7.6158
ated	-7.61911
▁Sa	-7.62288
▁man	-7.63059
▁through	-7.63343
ng	-7.6373
▁R	-7.64055
▁st	-7.64297
ia	-7.64438
▁way	-7.64444
▁li	-7.6447
ting	-7.64622
▁being	-7.64886
▁You	-7.65111
ud	-7.65123
nd	-7.65515
8	-7.6565
▁comp	-7.6626
v	-7.6652
▁go	-7.66837
ho	-7.6689
▁2	-7.66897
▁For	-7.67147
ine	-7.67157
▁No	-7.67534
one	-7.67734
▁place	-7.67895
6	-7.68196
▁If	-7.69488
▁down	-7.69985
ell	-7.70326
nt	-7.70519
ot	-7.70769
▁country	-7.71393
min	-7.7173
ya	-7.72087
▁see	-7.72265
end	-7.72307
▁Government	-7.72609
du	-7.72674
▁President	-7.72715
ous	-7.72909
▁V	-7.73213
▁ma	-7.73243
R	-7.73245
▁between	-7.737
no	-7.73784
ism	-7.73799
▁en	-7.73867
▁right	-7.73905
ck	-7.74275
tic	-7.74695
▁&	-7.7509
wa	-7.75183
▁used	-7.76228
▁take	-7.7661
▁Na	-7.76909
▁could	-7.77171
G	-7.7718
▁first	-7.77599
▁well	-7.7762
▁Act	-7.78489
▁did	-7.78663
N	-7.78701
j	-7.78702
▁All	-7.79483
▁give	-7.79509
▁la	-7.79513
▁name	-7.79643
▁year	-7.79875
▁Ba	-7.8011
lu	-7.80275
▁most	-7.80507
▁upon	-7.81596
▁many	-7.81949
▁There	-7.82239
ru	-7.82292
pa	-7.82387
▁help	-7.82549
▁vi	-7.82567
▁La	-7.82782
▁pa	-7.82944
▁person	-7.82983
▁even	-7.83018
▁earth	-7.83218
he	-7.83455
up	-7.83472
ities	-7.83624
▁years	-7.83738
▁very	-7.84221
ow	-7.8429
tra	-7.84369
per	-7.84558
▁believe	-7.85378
pe	-7.85538
▁among	-7.85856
▁every	-7.85858
▁Mo	-7.86032
▁file	-7.86108
▁4	-7.86394
ee	-7.86668
U	-7.86798
ni	-7.86823
ial	-7.86941
▁se	-7.87025
▁sp	-7.87044
mb	-7.87279
▁own	-7.87282
▁against	-7.87382
▁Him	-7.87598
ure	-7.87713
▁use	-7.87715
▁power	-7.87778
▁Pro	-7.87891
mp	-7.87941
F	-7.88007
▁men	-7.88268
ag	-7.88487
ke	-7.88722
ite	-7.88769
▁need	-7.89145
the	-7.90076
▁great	-7.90219
man	-7.90256
ian	-7.90888
sion	-7.91139
▁Me	-7.91269
ise	-7.91522
cr	-7.91981
ship	-7.92174
▁com	-7.92291
),	-7.92571
cu	-7.9267
▁g	-7.92807
co	-7.92932
▁back	-7.92936
▁Lo	-7.93677
▁ye	-7.93979
▁Con	-7.94048
▁sent	-7.94217
▁State	-7.94371
▁am	-7.946
ten	-7.94859
▁W	-7.94958
▁case	-7.95149
ction	-7.95491
han	-7.95751
▁inter	-7.95828
▁does	-7.95858
less	-7.96037
▁number	-7.96296
ca	-7.96767
ight	-7.96789
mi	-7.97009
▁given	-7.972
▁J	-7.97218
▁open	-7.97411
▁system	-7.9785
▁Se	-7.98262
▁Co	-7.98416
ach	-7.98619
▁ex	-7.98766
▁she	-7.98855
▁because	-7.98913
be	-7.99088
▁must	-7.99579
ath	-8.00013
▁state	-8.00339
▁Do	-8.00723
go	-8.00812
▁gra	-8.00986
ating	-8.01062
red	-8.01614
▁water	-8.01781
▁As	-8.01999
tal	-8.02026
ven	-8.02131
▁Ra	-8.02747
▁get	-8.02759
ving	-8.02988
▁want	-8.03053
).	-8.03363
▁ba	-8.03942
▁long	-8.0396
▁account	-8.04
▁end	-8.04025
ical	-8.04104
ab	-8.04303
▁When	-8.04552
qu	-8.05201
ct	-8.05268
ition	-8.05452
▁set	-8.05522
▁5	-8.05572
pi	-8.05618
...	-8.05671
ga	-8.05788
▁On	-8.06003
▁section	-8.06172
▁>	-8.06383
▁order	-8.06519
ig	-8.06549
▁po	-8.07293
▁U	-8.07732
all	-8.08314
V	-8.08406
▁Day	-8.08521
ide	-8.08783
▁found	-8.08975
▁change	-8.09012
▁Ka	-8.09289
ak	-8.09357
bu	-8.09453
ward	-8.10145
▁<	-8.10753
▁imp	-8.10912
W	-8.10923
▁Un	-8.11299
ual	-8.11497
▁whom	-8.11582
▁away	-8.11671
▁message	-8.11883
ap	-8.11948
ph	-8.12101
▁how	-8.1253
▁Pa	-8.12642
▁now	-8.12652
ative	-8.12665
▁le	-8.12777
ard	-8.1309
ka	-8.13397
00	-8.13492
fi	-8.13653
tu	-8.1367
▁ca	-8.139
▁ho	-8.13983
▁came	-8.14032
▁present	-8.14272
▁development	-8.14588
."	-8.14836
▁Ha	-8.15032
▁lead	-8.15161
▁Our	-8.15517
▁high	-8.15599
▁k	-8.15632
gi	-8.15658
▁during	-8.15775
▁St	-8.15789
ration	-8.1594
▁ro	-8.15948
▁same	-8.1681
ran	-8.16922
▁Vi	-8.17042
act	-8.17283
▁Al	-8.17577
▁while	-8.17617
ect	-8.17777
gu	-8.17814
▁va	-8.18037
ture	-8.18089
▁dec	-8.18288
▁just	-8.18701
▁large	-8.18905
▁become	-8.18911
ick	-8.19044
▁each	-8.19155
▁th	-8.19161
tri	-8.19377
row	-8.19997
▁land	-8.205
▁cause	-8.20757
tain	-8.2077
▁mi	-8.21327
▁both	-8.21458
ever	-8.21546
▁Ex	-8.2163
▁tri	-8.21888
ba	-8.21979
▁here	-8.22053
ling	-8.2208
nk	-8.22523
▁nor	-8.22528
▁process	-8.22633
tor	-8.22653
line	-8.2275
▁book	-8.22816
▁Be	-8.23254
▁etc	-8.23636
▁called	-8.23685
▁another	-8.23686
▁law	-8.23793
ally	-8.23998
lar	-8.24591
▁truth	-8.24794
▁Man	-8.24846
▁exp	-8.25011
nu	-8.25299
har	-8.25379
▁fear	-8.25423
▁return	-8.25429
les	-8.25465
”	-8.25652
ments	-8.26094
ens	-8.26339
▁things	-8.26348
▁Li	-8.26763
▁public	-8.26789
vo	-8.26867
▁period	-8.26886
lic	-8.27081
▁str	-8.27108
▁ha	-8.27238
▁different	-8.27258
▁Ja	-8.27325
▁su	-8.27719
ations	-8.27865
▁indeed	-8.27956
ew	-8.27988
ign	-8.2806
▁play	-8.28145
of	-8.28153
▁show	-8.28427
▁term	-8.28639
ac	-8.28675
▁support	-8.28771
▁three	-8.28816
▁find	-8.29216
▁n	-8.29243
▁turn	-8.29376
▁Ar	-8.29691
rt	-8.29714
our	-8.29716
▁Then	-8.29851
▁fa	-8.29917
▁live	-8.30157
▁Po	-8.30234
▁cr	-8.30314
▁hand	-8.30329
▁without	-8.30383
▁bring	-8.30645
em	-8.30762
▁knowledge	-8.3077
▁app	-8.3116
po	-8.31197
▁o	-8.31479
▁National	-8.31526
hy	-8.31699
▁Th	-8.31718
ring	-8.318
ft	-8.31846
▁8	-8.31864
▁Ta	-8.3191
▁Shri	-8.32015
av	-8.32028
▁value	-8.32186
▁Ch	-8.32229
con	-8.32293
▁cl	-8.32534
qui	-8.3257
rate	-8.32658
▁provide	-8.32928
ay	-8.32998
▁7	-8.33283
com	-8.3331
▁human	-8.33383
▁bo	-8.33411
▁‘	-8.33457
▁means	-8.33514
▁6	-8.33639
▁matter	-8.33655
ana	-8.33778
▁interest	-8.33797
▁Go	-8.33894
ind	-8.33921
▁read	-8.34033
port	-8.34089
▁look	-8.34113
▁much	-8.34477
▁call	-8.34489
▁information	-8.3452
▁car	-8.348
iv	-8.34968
▁except	-8.35015
▁ch	-8.3532
ner	-8.3563
emp	-8.35715
late	-8.35749
▁unto	-8.36555
▁respect	-8.36763
mit	-8.36905
ld	-8.37166
▁off	-8.372
▁war	-8.37292
pp	-8.37396
▁language	-8.37582
ja	-8.37635
▁lo	-8.3781
▁act	-8.38062
▁education	-8.38088
side	-8.38118
▁What	-8.38123
▁qu	-8.38293
par	-8.38664
▁clear	-8.38817
pr	-8.39298
▁government	-8.39339
▁full	-8.39547
▁project	-8.39584
▁Minister	-8.39927
der	-8.40508
men	-8.40576
▁cons	-8.4067
▁OF	-8.40724
▁women	-8.40805
ces	-8.40923
▁Da	-8.41071
val	-8.41177
▁tr	-8.4119
ang	-8.41233
:%	-8.41323
▁cha	-8.41569
▁think	-8.41639
/	-8.4192
int	-8.42115
▁Say	-8.42132
▁small	-8.42194
for	-8.4234
—	-8.42631
▁hi	-8.42684
▁group	-8.42859
hu	-8.42911
▁house	-8.42964
gra	-8.43114
▁That	-8.43154
▁ne	-8.43294
ood	-8.43363
▁Pre	-8.43491
▁My	-8.43494
da	-8.43606
▁18	-8.43823
ator	-8.43839
▁created	-8.44044
▁Su	-8.4413
do	-8.443
ved	-8.44598
▁cannot	-8.44649
ble	-8.45182
dic	-8.45309
▁last	-8.45401
▁fi	-8.45437
▁real	-8.45665
pos	-8.45781
▁important	-8.45994
mon	-8.4603
▁follow	-8.46292
nce	-8.46306
mer	-8.46366
press	-8.46508
cc	-8.46622
▁best	-8.46627
K	-8.46802
ah	-8.47038
▁–	-8.47103
▁let	-8.4713
nic	-8.47151
gar	-8.47188
led	-8.47204
od	-8.47227
▁Who	-8.47277
put	-8.47362
▁br	-8.47401
rit	-8.47457
▁Di	-8.47889
▁income	-8.47946
▁company	-8.48151
▁Book	-8.48177
▁business	-8.48497
▁Le	-8.48593
▁New	-8.48652
▁sign	-8.48816
▁amount	-8.49029
fer	-8.49145
ron	-8.49152
▁Te	-8.49272
ning	-8.49359
▁surely	-8.4939
ious	-8.49419
▁Ca	-8.49467
bi	-8.49579
▁Mu	-8.49653
▁taken	-8.49734
▁never	-8.49769
▁evil	-8.49821
▁list	-8.50113
▁today	-8.50216
▁purpose	-8.5035
▁might	-8.50367
▁known	-8.5054
▁i	-8.50956
ized	-8.51082
eth	-8.51116
ple	-8.51218
fe	-8.5143
vision	-8.51943
▁head	-8.52073
▁children	-8.52084
▁These	-8.52179
▁art	-8.52288
ose	-8.52378
ern	-8.52392
▁sh	-8.5269
ough	-8.52716
ari	-8.53246
rs	-8.53264
▁various	-8.53411
▁love	-8.53585
▁date	-8.53601
▁tea	-8.53723
tro	-8.53739
▁At	-8.53947
ore	-8.54763
▁bank	-8.54888
20	-8.54914
▁Or	-8.5495
▁accept	-8.55001
ify	-8.55222
gg	-8.55335
▁themselves	-8.55372
▁four	-8.55411
▁old	-8.55559
▁0	-8.55676
▁better	-8.55739
ize	-8.55775
▁put	-8.558
▁view	-8.55874
▁enter	-8.56094
ill	-8.56261
▁rule	-8.5628
▁def	-8.56313
▁nation	-8.5637
▁share	-8.56405
ev	-8.56421
▁faith	-8.5647
▁equal	-8.56485
ice	-8.56613
▁Ro	-8.56671
ub	-8.56812
Y	-8.56817
▁problem	-8.56894
▁friend	-8.57051
ound	-8.57168
▁worship	-8.5727
low	-8.57461
▁keep	-8.57488
▁type	-8.5752
▁9	-8.57547
▁mind	-8.57664
ification	-8.57747
▁point	-8.57769
▁10	-8.58199
▁body	-8.58229
▁done	-8.58263
▁plan	-8.58418
tan	-8.58445
pect	-8.58534
▁level	-8.58537
▁left	-8.58547
pur	-8.58589
land	-8.58784
ack	-8.58854
▁window	-8.58876
▁within	-8.58977
▁social	-8.59013
▁ten	-8.59119
sa	-8.59207
▁son	-8.6024
▁address	-8.60286
▁min	-8.60335
▁One	-8.60533
▁free	-8.606
ake	-8.60784
ding	-8.60905
▁remain	-8.61331
▁ri	-8.6135
▁near	-8.61521
▁Mar	-8.61557
▁going	-8.61569
ions	-8.61755
ors	-8.61784
▁due	-8.61883
▁gl	-8.61895
▁pass	-8.62053
ability	-8.62371
▁Ju	-8.62453
ified	-8.62512
▁light	-8.62578
▁face	-8.62881
amp	-8.62885
ji	-8.62992
▁wrong	-8.63018
▁side	-8.63028
ised	-8.63237
▁im	-8.63293
▁complete	-8.63587
ctor	-8.637
tation	-8.63762
▁sector	-8.64182
▁direct	-8.64274
que	-8.64382
ries	-8.64401
▁du	-8.64442
ik	-8.64562
▁towards	-8.64601
uc	-8.64627
▁include	-8.64657
▁pay	-8.64813
use	-8.64977
▁pe	-8.65151
▁result	-8.65242
▁Central	-8.65352
▁Bo	-8.65389
▁kind	-8.65491
▁days	-8.65565
▁fact	-8.65601
ible	-8.65949
▁less	-8.66012
▁far	-8.66012
▁available	-8.66113
ER	-8.66329
▁concern	-8.66421
ster	-8.66693
os	-8.66878
▁cent	-8.66885
dra	-8.66903
▁gr	-8.67022
und	-8.6715
▁increase	-8.67193
▁disc	-8.67291
▁health	-8.67297
▁hu	-8.67314
▁contain	-8.67341
▁pur	-8.67584
▁Messenger	-8.67678
▁action	-8.68213
▁hear	-8.6827
▁Hindu	-8.6851
pt	-8.68563
▁She	-8.68625
▁service	-8.68727
▁understand	-8.68788
▁age	-8.68823
▁brought	-8.68919
▁home	-8.68957
▁thou	-8.69021
fa	-8.69141
▁heavens	-8.69298
▁leave	-8.69497
▁send	-8.69559
▁too	-8.69581
bo	-8.69582
▁control	-8.69696
▁punishment	-8.69755
▁reach	-8.69826
▁Va	-8.6983
▁main	-8.69862
▁En	-8.69909
▁function	-8.70242
▁rec	-8.70299
▁plant	-8.7039
▁ask	-8.70464
AR	-8.70504
ency	-8.70599
▁learn	-8.70684
▁national	-8.70735
}	-8.70877
▁again	-8.70884
lay	-8.70945
▁Ho	-8.70946
▁command	-8.70962
ook	-8.71008
▁mar	-8.71285
▁family	-8.71297
▁trans	-8.71399
section	-8.71572
▁question	-8.71634
cl	-8.71823
▁class	-8.72233
AN	-8.72278
▁condition	-8.72449
nder	-8.72722
▁economic	-8.72754
ber	-8.72767
nal	-8.72874
▁food	-8.73002
▁rest	-8.73016
▁folder	-8.7315
nc	-8.73195
▁Bhavan	-8.73311
▁death	-8.73365
▁Dr	-8.73388
▁organ	-8.73473
cent	-8.7358
ory	-8.73607
▁times	-8.73676
▁non	-8.7386
▁visit	-8.73888
▁something	-8.73945
ient	-8.73963
▁pl	-8.74007
ton	-8.74144
▁mis	-8.74393
▁market	-8.74498
▁special	-8.74617
▁hold	-8.75264
▁add	-8.75265
▁pi	-8.75348
▁line	-8.75482
ature	-8.75561
▁self	-8.7583
▁mu	-8.75836
▁save	-8.75905
▁Comm	-8.76045
The	-8.76056
▁Qu	-8.76273
so	-8.76315
mor	-8.76421
▁subject	-8.76441
▁produce	-8.76566
out	-8.76622
▁whole	-8.7664
ue	-8.76889
her	-8.76936
▁hard	-8.76987
▁father	-8.76998
▁15	-8.77001
ju	-8.77047
▁data	-8.77059
light	-8.77071
▁Some	-8.77124
▁true	-8.77324
▁Z	-8.77363
ex	-8.77534
▁Ga	-8.77733
▁application	-8.77886
▁village	-8.77886
▁field	-8.77887
iz	-8.77898
mission	-8.77963
lf	-8.78121
af	-8.78181
▁al	-8.78191
▁capital	-8.78228
▁product	-8.7823
▁local	-8.78323
▁close	-8.78375
▁region	-8.78649
ger	-8.7873
▁already	-8.7877
▁Mi	-8.79012
▁scheme	-8.79043
▁provided	-8.79168
▁reason	-8.79208
▁regard	-8.79248
▁start	-8.79306
▁force	-8.79417
che	-8.79504
▁cover	-8.79533
▁together	-8.79535
rr	-8.7956
tter	-8.79586
▁night	-8.79634
▁area	-8.79657
▁continue	-8.79699
▁consider	-8.79717
▁exist	-8.79793
▁Pri	-8.79795
▁protect	-8.79987
▁common	-8.80044
▁image	-8.80078
▁religion	-8.80103
▁character	-8.80139
form	-8.80202
▁create	-8.80211
▁few	-8.80386
▁cre	-8.80505
▁second	-8.80564
▁seek	-8.80565
▁gave	-8.8057
war	-8.80653
▁Ad	-8.81339
▁Indeed	-8.81479
▁countries	-8.81482
▁Fa	-8.81737
▁Rashtrapati	-8.81957
▁Delhi	-8.82164
IT	-8.82184
▁12	-8.82208
▁care	-8.82369
▁limit	-8.8249
▁Your	-8.82574
au	-8.8269
▁above	-8.82729
▁general	-8.82848
▁charge	-8.82861
ff	-8.82887
▁following	-8.82924
▁Comp	-8.82958
▁sin	-8.82992
▁Those	-8.83045
▁little	-8.83229
▁others	-8.83257
▁Cha	-8.83321
▁programme	-8.83493
▁Sha	-8.83508
▁tax	-8.83543
▁path	-8.83678
▁major	-8.83714
▁Par	-8.83861
▁himself	-8.83904
▁particular	-8.83961
aught	-8.84119
▁v	-8.84191
▁unit	-8.84276
▁based	-8.84341
ile	-8.84527
ttle	-8.84544
ash	-8.84705
▁stand	-8.84721
▁Raj	-8.84892
▁issue	-8.84964
kar	-8.84982
gue	-8.84986
hold	-8.85178
oc	-8.85197
▁god	-8.85417
gn	-8.85523
▁making	-8.85661
▁ga	-8.85668
ai	-8.85686
▁flow	-8.85724
▁cost	-8.85749
▁services	-8.85903
▁soul	-8.86016
▁heart	-8.86104
▁belong	-8.86163
istic	-8.8628
▁thought	-8.86312
▁child	-8.86418
▁policy	-8.86456
ference	-8.86695
▁signs	-8.86974
▁court	-8.86982
ric	-8.87008
▁until	-8.87169
ze	-8.87178
▁report	-8.8732
▁benefit	-8.8736
scribe	-8.87366
▁having	-8.87462
ists	-8.87523
ization	-8.87598
▁Pra	-8.87696
lock	-8.87875
▁write	-8.88002
▁clause	-8.8802
▁individual	-8.88034
▁though	-8.88036
ON	-8.88089
▁example	-8.88114
▁still	-8.8815
▁Dis	-8.88155
nch	-8.88279
▁join	-8.88425
▁total	-8.88489
▁ob	-8.88755
▁rate	-8.8883
day	-8.8893
▁around	-8.88941
▁current	-8.88994
▁Rs	-8.8903
▁society	-8.89416
▁words	-8.89469
▁sur	-8.89471
load	-8.89536
EN	-8.89544
br	-8.89604
▁took	-8.89706
▁Wa	-8.89791
▁key	-8.89958
▁seen	-8.8996
▁areas	-8.90185
▁11	-8.90259
▁fo	-8.90259
▁ill	-8.90271
▁occasion	-8.90389
▁desire	-8.90401
▁author	-8.90429
▁political	-8.9047
▁tree	-8.90518
▁ever	-8.90539
▁Gu	-8.90566
▁certain	-8.90598
▁grow	-8.90647
AL	-8.90717
▁hearts	-8.90722
▁operation	-8.90981
ES	-8.91198
▁record	-8.91294
▁always	-8.91495
▁thing	-8.91506
▁offer	-8.91558
ug	-8.91598
▁Ye	-8.91658
▁members	-8.91797
▁effort	-8.91825
we	-8.91886
su	-8.91901
▁along	-8.92035
▁represent	-8.92363
verse	-8.9237
pic	-8.92391
▁believers	-8.926
▁position	-8.92602
▁nothing	-8.92662
▁whose	-8.92844
▁text	-8.92889
▁therefore	-8.92906
by	-8.93175
▁conf	-8.9333
▁guide	-8.93368
▁whether	-8.93449
own	-8.93787
▁Bha	-8.93804
▁post	-8.93867
▁including	-8.93912
▁Per	-8.93943
way	-8.94125
▁feel	-8.94132
vation	-8.94185
▁ru	-8.94415
chi	-8.94442
▁deeds	-8.94452
▁effect	-8.9458
struct	-8.94591
▁multi	-8.94721
▁promise	-8.94799
▁With	-8.94996
▁school	-8.951
▁witness	-8.95123
▁Bank	-8.95125
▁pen	-8.95125
▁Bengal	-8.95465
▁sea	-8.95522
▁further	-8.95528
▁short	-8.95579
▁ve	-8.95646
▁Show	-8.95767
▁research	-8.95786
▁Tra	-8.959
▁since	-8.95977
▁sha	-8.96217
▁British	-8.96303
▁able	-8.964
▁employ	-8.96421
ease	-8.96531
▁five	-8.96589
▁Us	-8.96643
▁%	-8.96701
▁growth	-8.9698
art	-8.97004
if	-8.97114
▁yet	-8.97247
▁Select	-8.97261
▁river	-8.97432
▁{	-8.97475
▁nature	-8.97491
▁young	-8.97544
▁:	-8.97643
▁appear	-8.97653
▁Maha	-8.97809
▁Court	-8.98051
▁meeting	-8.98201
east	-8.98244
▁course	-8.98252
▁error	-8.98267
▁reward	-8.9829
▁became	-8.98356
▁later	-8.98373
ants	-8.98421
▁received	-8.98526
01	-8.98558
▁par	-8.98578
▁test	-8.98597
▁warn	-8.98634
▁disbelieve	-8.98699
▁peace	-8.99019
▁Sub	-8.99083
▁grant	-8.99178
▁document	-8.99354
▁Please	-8.99375
▁held	-8.99432
▁temple	-8.99665
▁word	-8.99709
▁Bu	-8.99736
▁THE	-8.99755
▁cur	-8.99799
▁money	-9.00137
▁House	-9.00141
▁cap	-9.00442
▁cor	-9.00535
▁bi	-9.00563
▁Y	-9.00654
lam	-9.00666
▁next	-9.00879
▁office	-9.00883
▁After	-9.00905
gen	-9.012
▁strong	-9.01358
▁measure	-9.014
▁English	-9.01468
▁Most	-9.01572
▁Not	-9.01591
▁deal	-9.02029
▁Hindi	-9.02246
▁States	-9.02278
▁transfer	-9.02525
cal	-9.02586
▁Prime	-9.02602
▁Singh	-9.02625
▁required	-9.02628
▁fla	-9.02737
ural	-9.0276
▁PRESIDENT	-9.02773
ani	-9.02848
RA	-9.0296
▁bar	-9.02991
▁previous	-9.03028
ii	-9.03062
cept	-9.03072
▁partner	-9.03093
▁ge	-9.03129
▁access	-9.03144
▁Ne	-9.03182
mar	-9.03231
▁six	-9.03289
▁Israel	-9.03375
▁arm	-9.03474
▁brother	-9.03579
ium	-9.03743
vol	-9.03761
▁Committee	-9.03933
▁several	-9.04008
▁possible	-9.04096
xi	-9.04206
pro	-9.04218
ram	-9.04291
▁selected	-9.04512
▁industry	-9.04635
▁relation	-9.04849
▁idea	-9.04971
▁movement	-9.05075
▁foreign	-9.05135
▁How	-9.0516
▁speak	-9.05532
▁connect	-9.0563
▁sum	-9.05804
tre	-9.05817
▁fund	-9.0586
We	-9.05924
▁building	-9.06016
▁either	-9.06173
▁exc	-9.06206
og	-9.0622
AT	-9.06237
▁event	-9.06259
▁activities	-9.06268
▁High	-9.06376
ava	-9.06437
mal	-9.06456
▁Ministry	-9.06603
▁Parliament	-9.06675
▁mother	-9.0683
▁hands	-9.06857
▁certainly	-9.06862
▁authority	-9.06964
▁source	-9.0709
▁fight	-9.07099
▁task	-9.07181
▁bear	-9.07241
OR	-9.07251
▁try	-9.0736
▁Jo	-9.07412
cious	-9.07417
▁tell	-9.07422
▁x	-9.07488
▁fire	-9.07607
▁disease	-9.07706
▁achieve	-9.07881
▁contact	-9.08027
je	-9.08031
mark	-9.08081
cor	-9.083
▁University	-9.08318
▁progress	-9.08325
gan	-9.08334
▁itself	-9.08466
▁(1)	-9.085
▁technology	-9.08611
RB	-9.08678
rn	-9.08709
▁deliver	-9.08759
▁trade	-9.08879
▁financial	-9.08978
▁fall	-9.08992
IC	-9.09022
J	-9.09042
▁production	-9.09122
▁mode	-9.09467
▁anything	-9.09658
gh	-9.09661
▁Ram	-9.09734
mitted	-9.10017
▁Department	-9.10112
▁link	-9.10131
pl	-9.10155
RI	-9.10324
▁price	-9.10396
lit	-9.1056
▁Ru	-9.10582
▁computer	-9.10588
▁resource	-9.10635
▁General	-9.10884
▁poet	-9.11189
lt	-9.11207
▁went	-9.11212
▁difficult	-9.1126
▁trust	-9.11266
IS	-9.1139
▁Bi	-9.11429
▁history	-9.11642
▁elect	-9.11693
▁forth	-9.1175
hood	-9.11812
▁quality	-9.11815
ute	-9.11883
▁happen	-9.12066
▁property	-9.12291
▁Pradesh	-9.12523
▁move	-9.12581
▁File	-9.12581
▁success	-9.12692
▁draw	-9.12729
▁lu	-9.12767
ned	-9.12781
soever	-9.12858
▁implement	-9.12905
▁Open	-9.12933
▁met	-9.13103
▁established	-9.13164
▁develop	-9.13513
▁associate	-9.13519
▁harm	-9.13532
▁ver	-9.13638
▁wide	-9.1364
aries	-9.13704
▁material	-9.13776
▁future	-9.1393
▁Sp	-9.14029
▁website	-9.14111
▁please	-9.14184
▁credit	-9.14248
▁provisions	-9.14313
▁remember	-9.14395
▁necessary	-9.14447
▁judge	-9.14525
isation	-9.14649
▁Islam	-9.14654
▁behind	-9.14683
▁user	-9.14714
▁asset	-9.14717
▁don	-9.14744
▁working	-9.14762
▁wish	-9.14857
▁entire	-9.14863
▁personal	-9.14935
▁step	-9.15038
▁gene	-9.1514
▁Development	-9.15253
▁mail	-9.15334
▁big	-9.15372
ific	-9.15513
▁mercy	-9.15567
▁Could	-9.15569
▁therein	-9.15814
▁million	-9.15856
▁experience	-9.15882
▁Add	-9.15931
▁hath	-9.15938
▁started	-9.15949
▁seem	-9.15961
▁require	-9.16075
▁referred	-9.16119
▁network	-9.16145
▁role	-9.16146
yan	-9.16211
▁using	-9.16376
▁demand	-9.16415
pre	-9.16714
▁related	-9.16759
▁16	-9.16812
▁security	-9.16832
▁Congress	-9.16847
mu	-9.1695
▁Gra	-9.17033
jo	-9.17049
▁run	-9.17272
bar	-9.1758
RE	-9.17602
▁000	-9.17673
▁cast	-9.17706
other	-9.17708
▁Thus	-9.17846
▁community	-9.18219
▁greater	-9.18338
▁commit	-9.18453
▁List	-9.18521
▁written	-9.18572
▁whatever	-9.18642
▁asked	-9.18735
▁allow	-9.18758
▁past	-9.18785
▁RRB	-9.18814
ology	-9.18876
point	-9.18935
graph	-9.1907
▁higher	-9.19144
▁Europe	-9.19167
▁guidance	-9.19195
▁doubt	-9.19197
▁revealed	-9.19237
▁specified	-9.1937
van	-9.19533
▁living	-9.19599
▁natural	-9.19848
▁kill	-9.19889
ep	-9.19901
▁object	-9.20001
▁city	-9.20004
▁’	-9.20006
▁Now	-9.20007
▁Muslim	-9.20008
▁sense	-9.2019
▁deep	-9.20218
▁got	-9.20222
▁students	-9.20243
▁Service	-9.20259
▁environment	-9.20397
bha	-9.20423
chan	-9.20438
▁paid	-9.20575
▁proper	-9.20576
▁Union	-9.20628
▁modern	-9.20661
▁seven	-9.20672
▁sure	-9.20723
▁forward	-9.20794
▁district	-9.20838
▁para	-9.20914
▁addition	-9.20972
▁25	-9.21063
▁na	-9.21066
ler	-9.21067
▁da	-9.21151
▁institutions	-9.21314
▁By	-9.21399
▁14	-9.21597
▁member	-9.2161
▁answer	-9.21615
12	-9.21677
▁gain	-9.21711
▁13	-9.21909
▁firm	-9.21936
▁according	-9.22172
▁ju	-9.22207
bil	-9.22506
▁verily	-9.22511
▁hope	-9.22562
▁righteous	-9.22621
▁story	-9.22634
▁leg	-9.22674
vel	-9.22717
▁once	-9.22865
▁remove	-9.23058
▁decision	-9.23214
▁culture	-9.23298
▁East	-9.23312
▁30	-9.23432
▁item	-9.23457
acy	-9.23582
▁server	-9.23775
▁cell	-9.2378
▁soon	-9.23806
▁air	-9.2387
▁poor	-9.24101
▁super	-9.2417
▁month	-9.24176
▁till	-9.24254
▁months	-9.24303
▁instrument	-9.2435
▁destroy	-9.24407
▁claim	-9.24459
▁Such	-9.24621
▁Gandhi	-9.24647
▁letter	-9.24677
▁Constitution	-9.24694
▁INDIA	-9.24751
▁page	-9.24815
▁mark	-9.24957
▁manner	-9.24967
▁lay	-9.24999
▁Even	-9.25006
▁perform	-9.25107
▁eat	-9.2519
▁thy	-9.25341
▁fast	-9.25487
▁method	-9.25502
▁talk	-9.25543
16	-9.2555
▁believed	-9.25558
▁lot	-9.25578
▁animal	-9.25652
▁eyes	-9.25733
▁Chi	-9.25822
matic	-9.25869
▁told	-9.25919
▁century	-9.25937
▁design	-9.26008
▁sun	-9.26017
▁writing	-9.26142
▁extend	-9.26287
hara	-9.26293
IN	-9.26435
▁international	-9.26518
▁establish	-9.2666
▁however	-9.26664
▁prayer	-9.26723
▁safe	-9.2681
▁why	-9.26846
▁blood	-9.269
▁basis	-9.26908
▁receive	-9.26939
▁article	-9.27135
cient	-9.27276
▁appointed	-9.2734
▁Har	-9.27406
ulation	-9.27528
▁setting	-9.2758
▁ground	-9.27581
▁investment	-9.27642
▁improve	-9.27667
▁energy	-9.27783
▁http	-9.27814
(	-9.27861
▁affect	-9.27964
ken	-9.27987
▁single	-9.28388
▁turned	-9.28398
▁X	-9.28445
▁loss	-9.2853
▁Surely	-9.28591
▁Moses	-9.28763
tical	-9.2878
▁Prophet	-9.28825
▁Shi	-9.28856
read	-9.28889
▁considered	-9.28992
▁size	-9.29054
den	-9.29126
▁practice	-9.29184
▁Muslims	-9.29249
▁meet	-9.2926
▁Council	-9.29274
▁approach	-9.29485
▁structure	-9.29546
▁party	-9.29573
▁reject	-9.29583
▁Fire	-9.29625
▁payment	-9.29626
▁Verily	-9.29667
▁global	-9.29726
08	-9.29743
▁hour	-9.29752
▁earn	-9.29937
mber	-9.29937
ising	-9.29962
▁Mr	-9.30023
▁fruit	-9.30122
▁suffer	-9.30152
▁custom	-9.3024
tax	-9.30458
?"	-9.30478
▁exchange	-9.30483
cular	-9.30512
▁serve	-9.30558
▁program	-9.30685
▁However	-9.30915
02	-9.30964
anda	-9.30965
▁citizen	-9.31002
▁drive	-9.31082
▁Information	-9.31155
▁Let	-9.31198
ST	-9.31214
▁bra	-9.31253
▁Asia	-9.31259
right	-9.31289
▁assessee	-9.31308
▁host	-9.3137
▁check	-9.31378
▁Ku	-9.31409
▁17	-9.31498
▁display	-9.31523
▁spread	-9.31533
▁favour	-9.31738
▁occur	-9.318
▁search	-9.31862
▁religious	-9.32294
wo	-9.32317
▁crore	-9.32329
▁carry	-9.32469
▁stage	-9.32536
▁generation	-9.32703
mination	-9.32755
▁officer	-9.32772
ham	-9.32785
▁America	-9.32823
▁standard	-9.32965
In	-9.32984
▁management	-9.33165
▁Arab	-9.33305
▁institution	-9.33345
▁possess	-9.33384
▁option	-9.33388
▁music	-9.33479
▁conduct	-9.33542
▁terror	-9.33666
▁commun	-9.33765
▁wealth	-9.3377
uck	-9.33778
▁Ko	-9.33798
▁civil	-9.34201
tract	-9.34202
▁ja	-9.34227
▁Rama	-9.3429
▁San	-9.34358
10	-9.34566
▁maintain	-9.34665
za	-9.34683
▁passed	-9.34755
▁Director	-9.34758
▁die	-9.3478
▁issued	-9.34952
▁patient	-9.35057
▁thus	-9.35109
▁Muhammad	-9.35152
▁*	-9.35172
▁freedom	-9.35217
▁expect	-9.35247
▁allowed	-9.35411
▁stone	-9.3551
▁everything	-9.35637
▁content	-9.35747
▁taking	-9.35826
▁none	-9.35843
▁Name	-9.35958
▁aware	-9.36009
nath	-9.36023
▁creation	-9.36095
▁sound	-9.36226
▁App	-9.36692
▁advance	-9.36693
▁machine	-9.36758
▁Up	-9.36775
▁Of	-9.36809
name	-9.3697
▁select	-9.37362
mic	-9.37402
▁neither	-9.37505
▁Public	-9.37603
External	-9.37735
▁loan	-9.3778
▁alone	-9.37889
▁assessment	-9.37996
atory	-9.38013
▁duty	-9.38175
▁week	-9.3821
▁enjoy	-9.38259
▁space	-9.38333
▁outside	-9.38488
▁industrial	-9.38621
mate	-9.38732
▁least	-9.38758
▁population	-9.38918
eep	-9.38939
▁deny	-9.39013
▁Institute	-9.39017
▁really	-9.3907
▁Error	-9.39084
▁thousand	-9.39088
▁Ph	-9.39214
▁profit	-9.39221
▁effective	-9.39463
▁early	-9.39591
▁Whether	-9.39815
▁enable	-9.39928
▁invest	-9.40056
▁ensure	-9.40131
▁training	-9.40146
ada	-9.40166
ID	-9.40179
board	-9.40181
▁developed	-9.40411
▁provision	-9.40492
▁rain	-9.40524
▁rich	-9.40534
▁science	-9.40621
q	-9.40623
▁Where	-9.40656
▁Use	-9.40715
▁literature	-9.40721
▁divide	-9.40793
▁stay	-9.40835
▁release	-9.40983
▁Canno	-9.40989
▁Trans	-9.40997
▁low	-9.41024
▁video	-9.41325
▁color	-9.41407
▁evidence	-9.41431
▁secret	-9.41533
▁woman	-9.41705
ological	-9.41839
▁original	-9.41892
▁Plan	-9.41902
▁followed	-9.41907
char	-9.41991
▁spirit	-9.42014
▁Mon	-9.42244
▁count	-9.42296
▁situation	-9.42419
bb	-9.42505
▁consist	-9.42624
▁South	-9.42629
▁servant	-9.42831
▁dead	-9.42867
▁Pat	-9.42914
▁Part	-9.42977
▁adopt	-9.43016
▁Officer	-9.43018
▁successful	-9.43049
▁print	-9.43076
▁travel	-9.43109
UN	-9.43165
▁device	-9.4318
▁capacity	-9.43245
▁mountain	-9.4328
▁emb	-9.4336
uch	-9.43418
▁Board	-9.43521
11	-9.43611
▁People	-9.43765
▁guard	-9.43835
▁specific	-9.43857
▁eight	-9.43881
▁hum	-9.43974
▁drink	-9.44148
▁separate	-9.44149
▁prevent	-9.44182
▁front	-9.44231
▁bill	-9.44256
▁che	-9.4431
▁half	-9.44514
▁town	-9.44539
▁birth	-9.4457
▁export	-9.44617
▁50	-9.44653
▁wife	-9.44673
▁Section	-9.44968
▁meaning	-9.44971
▁centre	-9.44991
▁proceed	-9.44999
▁port	-9.45005
▁messenger	-9.45093
▁private	-9.45269
▁study	-9.45306
▁ki	-9.45371
▁garden	-9.45376
▁factor	-9.45378
▁mass	-9.45522
time	-9.45599
position	-9.45725
▁saw	-9.45747
▁fill	-9.45963
▁wait	-9.46033
▁angels	-9.46084
▁final	-9.46106
uff	-9.46163
▁involve	-9.46259
with	-9.46266
▁mankind	-9.46333
app	-9.46611
▁log	-9.46743
▁Mukherjee	-9.46976
place	-9.47088
▁lost	-9.47274
▁collect	-9.47316
▁element	-9.47382
▁cut	-9.47472
▁king	-9.47483
▁almost	-9.47732
▁Sabha	-9.47801
▁request	-9.47951
▁Can	-9.48019
▁suggest	-9.4813
▁break	-9.48277
▁torment	-9.48323
60	-9.48341
▁earlier	-9.48457
▁figure	-9.48495
ably	-9.48527
▁kept	-9.48568
▁Project	-9.48676
▁Pur	-9.48747
▁lakh	-9.48788
tru	-9.48865
▁Commission	-9.48906
▁Merciful	-9.49005
▁across	-9.49041
▁critic	-9.49066
▁raised	-9.49129
▁touch	-9.49216
▁North	-9.49231
▁direction	-9.49255
▁similar	-9.49408
▁24	-9.4944
▁strength	-9.49492
▁install	-9.49572
▁Bharat	-9.49789
://	-9.49814
▁Governor	-9.4985
▁express	-9.49889
▁Africa	-9.49961
▁engage	-9.5
▁enough	-9.50188
▁official	-9.5022
▁crop	-9.50346
▁revelation	-9.50593
▁TO	-9.50666
▁challenge	-9.50702
▁physical	-9.50814
▁third	-9.5093
iya	-9.50983
▁job	-9.51003
▁IN	-9.51301
▁notice	-9.51332
▁recent	-9.51365
▁farmers	-9.51474
▁Du	-9.5155
▁Republic	-9.516
▁Centre	-9.51794
fect	-9.51824
cha	-9.51848
▁launch	-9.51901
▁boy	-9.51915
▁hundred	-9.51938
▁agreement	-9.52014
▁female	-9.52316
▁astray	-9.52439
▁contribution	-9.52543
▁treat	-9.5277
LE	-9.52846
▁100	-9.52956
▁Inter	-9.53014
▁apply	-9.5329
ivity	-9.53327
▁Work	-9.53498
▁carried	-9.53539
AY	-9.53565
▁reduce	-9.53579
ffi	-9.53729
▁Tri	-9.53798
▁failed	-9.53923
▁register	-9.53956
▁reform	-9.54012
X	-9.54099
▁below	-9.54148
▁United	-9.54157
▁depend	-9.54171
Q	-9.54214
▁decided	-9.5423
titude	-9.54249
▁US	-9.54308
▁April	-9.54342
▁connection	-9.54452
ock	-9.5456
▁rural	-9.5458
▁Ver	-9.54652
▁fair	-9.54706
▁spec	-9.54784
▁attack	-9.54887
▁prepared	-9.5508
RO	-9.55103
▁profession	-9.55116
▁ancient	-9.55121
▁From	-9.55122
▁bound	-9.55142
▁relating	-9.55431
▁guided	-9.55432
▁economy	-9.55623
09	-9.55735
▁(2)	-9.56189
▁behalf	-9.56213
detail	-9.5632
▁Sanskrit	-9.5633
HA	-9.5633
▁World	-9.56409
▁disbelievers	-9.56464
▁Have	-9.56505
▁bit	-9.5659
cult	-9.56716
▁strengthen	-9.56831
▁feed	-9.57063
▁shape	-9.57148
▁built	-9.5716
▁dark	-9.57211
▁auto	-9.57234
▁weak	-9.57246
50	-9.57486
▁normal	-9.57624
▁actually	-9.57718
▁gather	-9.57722
▁Edit	-9.57764
▁plain	-9.57904
▁speech	-9.58198
▁popular	-9.58238
▁lower	-9.58394
▁Pranab	-9.5856
▁War	-9.587
▁Chief	-9.58721
▁stop	-9.58805
▁wall	-9.58818
gro	-9.5883
▁Ya	-9.58883
▁import	-9.58911
▁Technology	-9.59003
▁Scheme	-9.59004
▁copy	-9.59014
▁statement	-9.59027
▁certificate	-9.59165
▁observe	-9.59329
▁square	-9.59329
▁whoever	-9.59397
▁false	-9.59416
dependent	-9.5959
▁happy	-9.59898
▁Income	-9.599
▁Account	-9.60101
▁deposit	-9.60159
▁burn	-9.60215
▁honour	-9.60348
▁paper	-9.60355
▁unbelievers	-9.60429
ED	-9.60434
▁besides	-9.60455
▁Every	-9.60557
▁store	-9.6063
▁essential	-9.60717
▁north	-9.60722
▁Education	-9.6084
▁especially	-9.6084
▁poem	-9.60881
▁style	-9.60899
▁road	-9.60968
▁tradition	-9.61071
▁scale	-9.61132
▁published	-9.61195
▁skill	-9.61255
▁arrange	-9.61377
▁opportunity	-9.61419
ulated	-9.61497
▁Commissioner	-9.61614
▁born	-9.61621
▁regular	-9.61876
▁south	-9.62135
▁basic	-9.62156
▁clean	-9.62174
▁attend	-9.62187
▁Message	-9.62293
gram	-9.62716
▁objective	-9.62814
▁providing	-9.62838
▁Save	-9.62838
▁morning	-9.62924
▁Right	-9.63008
▁simple	-9.63091
like	-9.63199
▁focus	-9.63304
▁Category	-9.63554
▁During	-9.63601
▁Under	-9.6367
▁details	-9.63762
▁facilities	-9.63809
▁cultural	-9.63894
▁View	-9.63966
▁giving	-9.63982
▁Will	-9.64006
▁wrote	-9.64022
▁active	-9.64022
▁star	-9.64109
box	-9.64127
▁easy	-9.64198
rous	-9.64233
▁status	-9.64406
body	-9.64658
▁determine	-9.64747
▁central	-9.64795
▁spend	-9.64847
▁infrastructure	-9.65133
▁avail	-9.65159
▁While	-9.65219
▁manifest	-9.65305
▁Dev	-9.65405
▁International	-9.65521
ibility	-9.6557
▁game	-9.65621
▁obtain	-9.65753
▁Hereafter	-9.6591
▁influence	-9.6591
▁prescribed	-9.65998
▁percent	-9.66183
“”	-9.66295
▁thereof	-9.66393
tric	-9.66421
▁legal	-9.66599
▁began	-9.66693
▁rather	-9.667
▁Sign	-9.66791
▁obey	-9.66829
▁room	-9.66848
▁Time	-9.66882
▁remind	-9.66943
▁American	-9.66954
▁default	-9.66955
▁dwell	-9.67
▁instead	-9.67088
▁Auto	-9.671
▁contract	-9.67156
▁Wi	-9.67188
▁difference	-9.67245
▁initiative	-9.67262
▁oil	-9.67356
▁March	-9.67437
akh	-9.67461
▁justice	-9.67525
“	-9.67674
▁root	-9.677
▁explain	-9.67704
▁build	-9.67728
▁unless	-9.678
▁yourselves	-9.67879
▁forgive	-9.67958
▁bird	-9.6799
▁beyond	-9.68057
▁base	-9.68192
▁heaven	-9.68237
▁importance	-9.68406
▁film	-9.68953
▁frame	-9.69012
▁responsible	-9.69035
▁organization	-9.69161
▁beginning	-9.69214
▁principle	-9.69259
▁sky	-9.69271
ATION	-9.69369
▁watch	-9.69396
▁shown	-9.70043
14	-9.70098
▁folk	-9.70298
▁prior	-9.70301
▁listen	-9.70359
▁session	-9.70403
▁permission	-9.70571
▁branch	-9.7091
▁balance	-9.71074
▁21	-9.71109
▁dispute	-9.71121
▁reflect	-9.71205
▁eye	-9.71303
▁spiritual	-9.71337
▁attract	-9.71491
▁Other	-9.71728
▁password	-9.71892
▁Failed	-9.71943
▁potential	-9.71985
▁walk	-9.72182
▁exceed	-9.72323
▁Move	-9.72368
▁appeal	-9.72499
▁engine	-9.72679
▁version	-9.72715
where	-9.72719
▁treatment	-9.72722
This	-9.72835
▁26	-9.72842
▁bow	-9.72993
▁affair	-9.73003
▁round	-9.73188
▁Bill	-9.73231
▁23	-9.7342
▁daughter	-9.73472
▁range	-9.73651
ancy	-9.73832
▁feature	-9.73939
▁quite	-9.73947
▁Research	-9.74032
▁girl	-9.74037
meter	-9.74077
▁collection	-9.74151
▁Author	-9.74173
▁Gujarat	-9.74173
▁organisation	-9.74344
▁Quran	-9.74347
▁Evolution	-9.74408
▁scholar	-9.74408
▁traditional	-9.74428
▁else	-9.74473
▁parents	-9.74514
▁praise	-9.7456
▁farm	-9.74596
▁code	-9.74729
▁model	-9.74731
▁labour	-9.7474
▁unjust	-9.74787
▁expression	-9.74815
▁correct	-9.74855
▁gone	-9.75128
▁dance	-9.75382
▁existence	-9.75397
▁promote	-9.75614
▁white	-9.75645
▁activity	-9.75672
▁communication	-9.75739
▁Group	-9.75786
▁train	-9.76003
▁Pakistan	-9.76121
▁System	-9.7617
operative	-9.76269
▁agricultural	-9.76506
▁bond	-9.76602
▁rise	-9.76733
▁22	-9.7701
▁employment	-9.77113
▁mental	-9.77143
▁black	-9.77282
▁flu	-9.77568
▁Search	-9.77866
▁Char	-9.7788
▁taste	-9.77987
▁felt	-9.78315
▁knew	-9.78502
▁Punjab	-9.786
18	-9.78625
▁Create	-9.78628
▁Garden	-9.7875
▁getting	-9.78755
▁reference	-9.78777
▁plus	-9.7883
▁cat	-9.78851
▁Therefore	-9.78896
▁running	-9.78988
▁opinion	-9.78994
▁delete	-9.79075
▁fixed	-9.79244
▁Resurrection	-9.79291
▁verses	-9.79352
▁wise	-9.79535
▁Krishna	-9.79539
▁Thou	-9.7964
▁emerge	-9.79641
Allah	-9.79888
▁secure	-9.8019
▁Member	-9.80203
▁Copy	-9.80398
abad	-9.80426
▁green	-9.80592
▁department	-9.80688
▁colour	-9.8069
▁Why	-9.80698
▁sale	-9.80784
▁painful	-9.80991
▁novel	-9.81031
▁foot	-9.81218
▁usually	-9.81294
▁police	-9.81295
▁responsibility	-9.81596
▁Folder	-9.818
ING	-9.82109
▁immediately	-9.82162
▁Today	-9.82234
▁27	-9.8233
▁Supreme	-9.8236
▁severe	-9.82512
▁presence	-9.82692
▁According	-9.82718
▁ideal	-9.82957
▁28	-9.82985
▁Kashmir	-9.83077
work	-9.83085
▁election	-9.83103
▁wishes	-9.83132
▁Enter	-9.83231
▁Science	-9.83439
▁dream	-9.8344
▁sustain	-9.83445
▁cross	-9.83445
▁blind	-9.83544
▁opportunities	-9.83697
▁avoid	-9.83703
▁encourage	-9.83852
▁Office	-9.83883
▁significant	-9.84008
▁perfect	-9.84263
▁medical	-9.84379
▁serious	-9.84536
▁poetry	-9.84559
▁Fund	-9.84646
▁expenditure	-9.84685
▁struggle	-9.84685
▁famous	-9.84791
▁feet	-9.84809
▁performance	-9.84824
▁forgiveness	-9.85019
▁Uttar	-9.85052
▁Islamic	-9.85132
▁Explanation	-9.85157
▁industries	-9.85209
▁companies	-9.85211
▁beautiful	-9.85262
▁degree	-9.85262
▁scientific	-9.8542
▁origin	-9.85501
▁Provided	-9.85737
▁exercise	-9.85789
▁procedure	-9.85789
▁calendar	-9.85948
iff	-9.8611
▁gold	-9.86216
▁assistance	-9.86266
▁directory	-9.86272
▁increasing	-9.86319
▁repent	-9.86329
▁insect	-9.86337
▁Wise	-9.86358
▁punish	-9.86498
▁spoke	-9.86526
▁concept	-9.8654
▁Address	-9.8692
▁nine	-9.86962
▁transport	-9.87035
▁piece	-9.87179
▁supply	-9.87228
▁software	-9.87442
▁email	-9.87444
▁Shah	-9.87764
▁journey	-9.87765
▁attempt	-9.87819
▁relevant	-9.87819
▁recommend	-9.88143
▁Which	-9.88143
▁symbol	-9.88251
▁Import	-9.88254
▁accordance	-9.88306
roll	-9.88346
▁2000	-9.88449
▁respond	-9.88795
▁media	-9.88876
▁Start	-9.8889
▁perhaps	-9.89013
▁Tamil	-9.89016
▁administration	-9.89122
▁constitute	-9.89122
▁minister	-9.89235
▁broad	-9.89508
▁Guru	-9.89542
▁Truth	-9.89562
▁location	-9.89563
▁Calcutta	-9.89615
▁chief	-9.89725
▁speed	-9.89739
▁picture	-9.89892
▁urge	-9.89951
▁husband	-9.90001
▁target	-9.90001
▁distinct	-9.90004
▁agriculture	-9.90056
▁choose	-9.90166
▁January	-9.90221
osis	-9.90246
▁memory	-9.90667
▁convey	-9.90837
▁risk	-9.90917
You	-9.91048
▁Pharaoh	-9.91054
▁transaction	-9.91222
▁quick	-9.91301
▁sufficient	-9.91333
▁voice	-9.91614
▁middle	-9.91725
▁relative	-9.91783
▁complain	-9.91811
▁Change	-9.91862
▁Mumbai	-9.92062
▁relationship	-9.92205
▁drug	-9.92515
▁length	-9.9257
▁denied	-9.9258
▁portion	-9.92674
▁quot	-9.92758
▁attention	-9.92797
▁pleasure	-9.93023
▁master	-9.9311
▁Power	-9.93205
▁transform	-9.93245
▁transgress	-9.93436
▁Port	-9.93473
▁photo	-9.93488
▁Christian	-9.93593
▁admit	-9.93672
▁Management	-9.93708
▁mutual	-9.9371
UT	-9.93867
▁Abraham	-9.93937
from	-9.94078
▁cooperation	-9.94282
▁solution	-9.9434
▁Children	-9.94397
▁match	-9.94404
▁apostle	-9.9457
▁construction	-9.9457
▁decade	-9.94591
▁announce	-9.94685
▁milk	-9.94745
▁recite	-9.94891
▁Forgiving	-9.94975
▁discussion	-9.95005
▁straight	-9.95035
▁AND	-9.95211
▁Schedule	-9.95265
▁Image	-9.95275
▁purchase	-9.9544
▁minute	-9.95492
▁innovation	-9.95499
▁cloth	-9.95696
▁chastisement	-9.95731
▁extent	-9.95738
▁marriage	-9.9579
▁twenty	-9.95906
▁threat	-9.95915
▁Home	-9.96024
▁festival	-9.96082
▁pattern	-9.962
▁stream	-9.96203
▁Western	-9.96379
▁corrupt	-9.9667
▁lose	-9.96785
▁advice	-9.96965
▁deemed	-9.96972
▁enemy	-9.97084
▁convert	-9.97238
▁appropriate	-9.97261
▁drama	-9.97383
html	-9.97498
▁December	-9.97498
▁contribute	-9.97856
▁violence	-9.97975
▁damage	-9.97976
▁association	-9.98154
▁Delete	-9.98166
▁channel	-9.98574
▁complex	-9.98636
▁deduction	-9.98695
▁habit	-9.9894
▁sudden	-9.98996
▁idol	-9.99016
▁unique	-9.99057
What	-9.99069
▁burden	-9.99117
▁arrive	-9.99124
▁Bihar	-9.99142
▁belief	-9.99237
▁response	-9.99601
▁otherwise	-9.99723
▁Chandra	-9.99846
▁species	-9.99883
mount	-9.99986
▁democracy	-10.0015
▁apart	-10.0034
▁revolution	-10.0076
▁Text	-10.009
▁distance	-10.0095
▁domestic	-10.0101
▁Free	-10.0107
▁sister	-10.0117
▁annual	-10.0121
▁technical	-10.0131
▁Finance	-10.0132
▁storage	-10.0138
▁hospital	-10.0156
▁Policy	-10.0156
▁buy	-10.016
▁plugin	-10.0162
▁First	-10.0169
ography	-10.0178
▁stock	-10.0184
▁constant	-10.0188
▁fulfill	-10.0202
▁stories	-10.0206
▁magic	-10.0207
www	-10.0233
▁Language	-10.0249
▁2014	-10.025
▁located	-10.0256
▁Remove	-10.0256
▁Region	-10.0263
▁surface	-10.0268
▁screen	-10.0281
▁October	-10.0287
▁debt	-10.0312
▁heavy	-10.0325
▁commercial	-10.0331
▁argument	-10.0344
▁title	-10.0352
mukherjee	-10.0363
▁invite	-10.0364
▁discuss	-10.0367
pranab	-10.0369
▁Corporation	-10.0407
▁recognize	-10.042
▁drop	-10.0423
▁Assembly	-10.0426
▁acquire	-10.0432
▁valid	-10.044
▁Nehru	-10.0464
▁external	-10.0483
▁discover	-10.0483
▁staff	-10.049
▁succeed	-10.0496
▁devote	-10.0505
▁Programme	-10.0509
▁sacrifice	-10.0515
▁teaching	-10.0516
▁SAW	-10.0528
▁divine	-10.0541
▁Contact	-10.0573
▁recompense	-10.0586
▁enhance	-10.0586
▁extreme	-10.0599
▁update	-10.0629
▁Bombay	-10.0658
claim	-10.0663
▁Secretary	-10.0664
▁Chairman	-10.0677
▁September	-10.0703
▁consult	-10.0706
▁recover	-10.071
▁wonder	-10.0723
gress	-10.0773
▁permanent	-10.0775
▁policies	-10.0795
fold	-10.0801
▁recognise	-10.0808
▁volume	-10.0808
▁November	-10.0808
▁entry	-10.0811
▁military	-10.0828
▁review	-10.0862
▁Window	-10.0868
▁cloud	-10.0868
▁Person	-10.0897
▁average	-10.0902
▁favor	-10.0929
▁families	-10.0935
▁confirm	-10.0942
▁refuge	-10.0968
▁refuse	-10.0982
▁Assam	-10.0985
▁tele	-10.1022
▁intend	-10.1028
▁undertaking	-10.1029
▁Exchange	-10.1049
▁sometimes	-10.105
▁circumstances	-10.1063
▁micro	-10.1083
▁academic	-10.1103
▁constitution	-10.1117
▁Check	-10.1124
▁Paradise	-10.1131
▁Gandhiji	-10.1149
▁decree	-10.1171
dress	-10.1173
▁Kerala	-10.1179
▁season	-10.1181
▁August	-10.1192
▁(3)	-10.1195
▁proposal	-10.1199
▁utter	-10.1201
▁URL	-10.1206
▁Mission	-10.1207
▁variety	-10.1227
▁truly	-10.1228
Muhammad	-10.1233
▁advise	-10.1235
▁consciousness	-10.124
▁column	-10.1247
▁mouth	-10.1262
▁conflict	-10.1275
▁Brahma	-10.1282
{	-10.1282
▁Knowing	-10.1331
▁component	-10.1331
▁manufacture	-10.1337
▁2015	-10.1351
▁instruction	-10.1374
▁School	-10.14
▁2006	-10.1407
▁celebrate	-10.1414
▁wives	-10.1417
▁chosen	-10.1422
▁indicate	-10.1453
▁sleep	-10.1485
▁advantage	-10.1492
▁distribution	-10.1499
▁remote	-10.1514
▁slave	-10.1515
▁double	-10.1528
▁medium	-10.1535
▁Japan	-10.1536
▁joy	-10.1536
▁adult	-10.1543
▁District	-10.1556
▁described	-10.1563
▁Great	-10.1564
▁estimate	-10.1577
ordinate	-10.1581
ographic	-10.1585
▁reveal	-10.1589
▁repeat	-10.1606
2019	-10.1609
▁destination	-10.1613
▁2005	-10.162
▁Maharashtra	-10.1642
▁Ganga	-10.1643
▁independence	-10.1649
▁abroad	-10.1706
▁Rajasthan	-10.1714
▁forget	-10.1724
▁context	-10.1735
▁German	-10.1736
▁Certificate	-10.175
▁1961	-10.175
▁borrow	-10.175
▁Tagore	-10.1801
▁empty	-10.1809
▁welcome	-10.1816
▁tidings	-10.1816
▁phase	-10.1817
▁2013	-10.183
▁Type	-10.1838
▁introduced	-10.1845
▁defined	-10.1846
▁resolution	-10.1852
▁expert	-10.1869
scope	-10.1872
▁hidden	-10.1874
▁wisdom	-10.1896
▁danger	-10.1904
▁consumer	-10.1904
▁fellow	-10.1911
▁withdraw	-10.1911
▁rupees	-10.1963
▁Because	-10.1985
▁Nepal	-10.1994
▁poverty	-10.2
▁Akbar	-10.2022
▁fresh	-10.2023
▁literary	-10.203
▁maximum	-10.2045
▁easily	-10.2082
▁ourselves	-10.2082
▁beauty	-10.2082
▁Mahatma	-10.209
▁initial	-10.21
▁translation	-10.2112
▁strike	-10.2115
▁philosophy	-10.212
▁restrict	-10.212
▁studies	-10.2135
_	-10.2136
▁reply	-10.2139
▁Key	-10.2139
▁universal	-10.2142
▁confidence	-10.2157
▁assigned	-10.2173
▁phone	-10.2173
▁positive	-10.2203
▁Color	-10.2212
▁distinguish	-10.2241
▁sculpture	-10.2241
▁Display	-10.2241
▁medicine	-10.2249
▁horse	-10.2249
▁border	-10.2272
▁manager	-10.2288
▁descend	-10.2302
▁promotion	-10.2302
▁authentic	-10.2317
▁History	-10.2326
▁approved	-10.2333
▁Network	-10.2341
▁rapid	-10.2357
▁examination	-10.2364
▁Special	-10.2371
▁covenant	-10.2379
▁monitor	-10.2402
▁prison	-10.2402
▁yield	-10.241
▁gift	-10.2411
▁dialog	-10.2411
▁inherit	-10.2419
▁Default	-10.2433
▁afflict	-10.2441
▁forbidden	-10.2449
▁Google	-10.2449
▁replied	-10.2449
▁escape	-10.248
▁{0}	-10.2488
▁extension	-10.2504
▁kingdom	-10.2512
▁devotion	-10.2527
▁Among	-10.2528
▁furnish	-10.2535
NAME	-10.2535
▁merely	-10.2538
▁welfare	-10.2566
▁daily	-10.2567
▁Control	-10.2583
▁Subhas	-10.2622
▁excellent	-10.2638
clause	-10.2643
▁Besides	-10.2646
▁Scripture	-10.2653
▁Environment	-10.2661
▁substance	-10.2662
▁Since	-10.2672
▁excess	-10.2681
▁integral	-10.2693
▁minimum	-10.2693
▁Himalaya	-10.2709
▁Second	-10.2749
▁Micro	-10.276
▁urban	-10.2765
▁sought	-10.2767
▁primary	-10.2773
▁Qa	-10.2774
▁palm	-10.2776
▁enterprise	-10.2781
encies	-10.2806
▁receipt	-10.2838
▁institute	-10.2838
▁Application	-10.2854
▁Official	-10.287
▁College	-10.2895
▁library	-10.2895
▁vote	-10.2905
▁Financial	-10.2911
▁campaign	-10.2919
▁equipment	-10.2927
▁companion	-10.2928
▁finance	-10.2994
Peace	-10.3001
▁fundamental	-10.3026
▁background	-10.3034
▁Yoga	-10.3034
▁cancel	-10.3043
▁trouble	-10.3109
▁probably	-10.3109
▁railway	-10.3117
▁confident	-10.3134
▁committee	-10.3143
▁sanction	-10.3143
▁technique	-10.3159
▁Excellency	-10.3167
▁Number	-10.3167
▁consequence	-10.3192
▁gui	-10.3194
▁conceal	-10.3202
▁college	-10.3209
▁relief	-10.3209
▁guilty	-10.3209
▁entitled	-10.3217
▁Click	-10.3226
▁jinn	-10.3234
▁visible	-10.3235
▁Russia	-10.3288
▁Company	-10.3302
▁prophet	-10.331
▁emotion	-10.331
▁Foreign	-10.331
▁Speaking	-10.3319
▁bodies	-10.3319
▁Help	-10.3322
▁breath	-10.3336
▁Library	-10.3344
▁Judge	-10.3344
▁correspond	-10.337
▁England	-10.337
▁yourself	-10.337
▁sacred	-10.3378
▁approval	-10.3387
▁Buddha	-10.3395
▁facility	-10.3404
▁journal	-10.3421
▁Tribunal	-10.343
▁experiment	-10.3456
▁filter	-10.3465
tivate	-10.3472
▁Trust	-10.3482
▁tissue	-10.349
▁participation	-10.3516
▁although	-10.3516
▁incident	-10.3516
▁victory	-10.3525
▁audio	-10.3541
▁solve	-10.3551
-2018	-10.3577
▁archive	-10.3586
▁myself	-10.3586
▁climate	-10.3594
▁Railway	-10.3603
▁entrepreneur	-10.3629
▁governance	-10.3629
▁Internet	-10.3629
▁Assistant	-10.3638
▁registration	-10.3638
▁bestowed	-10.3638
▁continuous	-10.3647
▁Current	-10.3647
▁Clear	-10.3666
▁differ	-10.3673
▁adequate	-10.3673
▁pillar	-10.3709
▁arrest	-10.3709
▁Article	-10.3717
▁insurance	-10.3717
▁sitting	-10.3727
▁bilateral	-10.3761
▁street	-10.378
▁empower	-10.3797
▁resolve	-10.3797
▁desert	-10.38
▁Custom	-10.3806
▁Mighty	-10.3806
▁changing	-10.3833
▁Document	-10.3842
▁Invalid	-10.3878
▁swear	-10.3887
▁About	-10.3887
▁participate	-10.3896
▁chemical	-10.3896
▁platform	-10.3932
▁regulation	-10.3932
▁1999	-10.395
▁facilitate	-10.3977
▁nuclear	-10.3995
▁agencies	-10.3995
▁shift	-10.4005
▁Knower	-10.4031
▁Connect	-10.4036
▁Kovind	-10.4041
▁package	-10.405
▁proportion	-10.405
▁criminal	-10.4086
▁Civil	-10.4105
▁defeat	-10.4132
▁Province	-10.4141
▁neighbour	-10.4151
▁Palestinian	-10.416
▁forgiving	-10.416
▁Society	-10.4169
▁fabric	-10.4188
▁student	-10.4193
▁Egypt	-10.4206
▁manufacturing	-10.4215
Amendment	-10.4216
▁survey	-10.4225
▁absolute	-10.4243
▁mobile	-10.4253
▁Class	-10.4272
▁abode	-10.4281
▁emphasis	-10.429
▁courage	-10.43
▁tube	-10.4308
▁situated	-10.4318
▁London	-10.4318
▁sweet	-10.4318
▁democratic	-10.4346
▁universities	-10.4356
▁Justice	-10.4356
▁attribute	-10.4365
▁happiness	-10.4365
▁fault	-10.4367
IVE	-10.4369
▁newspaper	-10.4403
▁parliament	-10.4412
▁prostrate	-10.4413
▁jurisdiction	-10.4422
▁subsequent	-10.4431
▁Karnataka	-10.4441
▁elephant	-10.445
▁merciful	-10.446
▁privilege	-10.446
▁electronic	-10.447
▁assume	-10.4473
▁congratulate	-10.4556
▁Security	-10.4565
▁DVD	-10.4565
▁Before	-10.4565
▁Iraq	-10.4565
▁principal	-10.4575
▁supreme	-10.4575
▁Next	-10.4585
▁negative	-10.4594
course	-10.4622
▁Swami	-10.4653
▁couple	-10.4663
▁Jammu	-10.4672
▁tonnes	-10.4672
▁Vishnu	-10.4701
▁accident	-10.4711
▁efficient	-10.475
▁mechanism	-10.476
▁schedule	-10.4779
▁heritage	-10.4779
▁ocean	-10.4819
▁exploit	-10.4829
▁weapon	-10.4829
▁commence	-10.4839
▁fuel	-10.4849
▁Legislative	-10.4858
▁fulfil	-10.4865
▁Unknown	-10.4868
▁Women	-10.4878
▁vehicle	-10.4918
▁currency	-10.4918
▁destruction	-10.4928
Z	-10.508
&	-10.7826
*	-10.7962
[	-11.1945
‘	-11.8162
–	-11.903
<	-13.0567
>	-14.0096
