<pad>	0
</s>	0
<unk>	0
s	-3.21326
▁the	-3.43883
.	-3.56193
,	-3.65246
▁of	-3.83559
▁and	-4.12872
▁to	-4.23048
▁	-4.34777
▁in	-4.40999
▁a	-4.4134
ed	-4.54409
ing	-4.54625
▁is	-4.75891
e	-4.84827
d	-4.85673
t	-5.1645
▁for	-5.17307
r	-5.24422
▁-	-5.26158
▁that	-5.29195
al	-5.38788
▁be	-5.38849
y	-5.39552
▁The	-5.42051
▁you	-5.43898
i	-5.48285
▁(	-5.51039
er	-5.52695
c	-5.53383
ly	-5.55049
n	-5.55821
▁with	-5.60063
▁s	-5.60982
▁not	-5.62672
▁are	-5.68457
a	-5.68568
)	-5.69255
▁or	-5.69552
▁on	-5.71571
m	-5.72458
▁it	-5.73514
p	-5.78752
▁'	-5.79063
▁as	-5.81162
▁by	-5.83961
in	-5.84497
o	-5.88311
▁I	-5.88328
▁have	-5.89619
▁was	-5.90299
▁S	-5.90912
▁from	-5.91924
:	-5.92056
▁will	-5.94305
or	-5.95608
▁A	-5.97085
▁this	-6.00366
b	-6.04057
▁them	-6.04855
u	-6.04885
▁who	-6.0544
▁they	-6.06803
g	-6.09034
l	-6.09249
▁which	-6.09754
ation	-6.10117
ur	-6.11898
▁has	-6.13518
;	-6.15728
ar	-6.16427
re	-6.16473
▁he	-6.18709
es	-6.18968
it	-6.19239
▁He	-6.19257
▁his	-6.21512
▁an	-6.22309
▁their	-6.23381
on	-6.23409
th	-6.24502
f	-6.30458
an	-6.34286
▁T	-6.34337
ra	-6.34699
ent	-6.35124
le	-6.35609
w	-6.3619
▁p	-6.36236
▁C	-6.36869
▁c	-6.37427
▁all	-6.37695
ion	-6.39727
▁at	-6.43374
▁P	-6.44841
▁f	-6.45672
▁re	-6.45802
▁do	-6.45984
▁We	-6.4657
ment	-6.47432
▁Allah	-6.48503
ic	-6.50642
k	-6.5143
▁And	-6.53068
en	-6.53364
at	-6.54053
▁your	-6.54515
▁we	-6.54683
st	-6.55693
h	-6.56097
?	-6.56913
-	-6.59176
ri	-6.60484
▁one	-6.6235
▁India	-6.62503
'	-6.62824
▁can	-6.62895
▁In	-6.63128
▁but	-6.64688
et	-6.64996
▁B	-6.66276
il	-6.66563
▁O	-6.67213
ir	-6.67727
▁b	-6.71115
▁been	-6.71423
▁F	-6.71913
▁It	-6.73449
se	-6.73534
▁so	-6.74556
▁were	-6.74919
▁people	-6.76473
▁de	-6.76752
I	-6.77515
%	-6.78327
um	-6.7852
la	-6.78864
A	-6.79444
▁when	-6.79499
▁K	-6.81043
T	-6.81397
▁him	-6.81598
ers	-6.81668
▁"	-6.82105
▁G	-6.8316
ity	-6.8345
ce	-6.83614
id	-6.8552
▁said	-6.85835
▁those	-6.86136
▁con	-6.86961
ad	-6.87245
li	-6.87359
S	-6.87772
▁w	-6.88096
ut	-6.88456
ate	-6.89419
▁any	-6.90538
able	-6.90869
ch	-6.90909
▁no	-6.91458
▁also	-6.92088
ive	-6.9267
▁had	-6.92879
▁me	-6.93318
▁/	-6.93323
▁other	-6.93658
▁un	-6.95553
O	-6.97515
▁shall	-6.98114
ol	-6.98482
▁out	-6.99697
▁what	-7.01085
am	-7.01513
▁there	-7.023
us	-7.03241
▁g	-7.03319
▁t	-7.03344
ul	-7.03488
ter	-7.0371
▁E	-7.04488
v	-7.05234
▁if	-7.05281
▁Lord	-7.05551
P	-7.0566
▁up	-7.05984
▁D	-7.06526
as	-7.07479
est	-7.08284
ant	-7.08287
▁may	-7.08579
▁our	-7.09017
▁m	-7.09482
▁e	-7.10962
!	-7.10964
E	-7.13056
_	-7.13216
▁its	-7.13269
▁This	-7.13341
▁N	-7.13517
ance	-7.13567
el	-7.136
▁God	-7.13746
▁M	-7.15051
5	-7.15287
C	-7.15363
▁L	-7.16214
▁time	-7.16353
N	-7.17155
2	-7.17195
▁would	-7.17486
▁Re	-7.17528
1	-7.1793
▁under	-7.18819
vi	-7.20095
0	-7.21065
z	-7.22452
▁say	-7.22547
▁R	-7.22776
▁d	-7.22852
▁only	-7.22881
ow	-7.23272
ma	-7.23395
▁such	-7.23606
▁made	-7.24063
ha	-7.24271
na	-7.24284
▁like	-7.25031
▁than	-7.2539
▁over	-7.25616
M	-7.25933
is	-7.27502
▁“	-7.27569
ous	-7.28269
ti	-7.28598
D	-7.29222
▁So	-7.29463
lo	-7.30167
▁new	-7.31034
ak	-7.32077
▁l	-7.3241
ta	-7.3241
▁more	-7.32563
om	-7.33246
tion	-7.33261
un	-7.34887
▁ex	-7.35067
▁some	-7.35419
▁work	-7.37099
▁should	-7.3711
▁my	-7.37738
▁into	-7.37957
▁then	-7.38194
▁go	-7.38993
ary	-7.39059
H	-7.39227
ine	-7.39394
▁about	-7.39564
ry	-7.41245
▁us	-7.41691
ness	-7.41731
ist	-7.41954
▁good	-7.42589
▁n	-7.42866
ect	-7.42899
hi	-7.43227
ies	-7.43384
ab	-7.44068
▁life	-7.44094
age	-7.44492
▁W	-7.45022
’	-7.45132
▁two	-7.45133
and	-7.45136
▁H	-7.45189
▁pro	-7.45374
▁co	-7.45477
▁They	-7.45978
x	-7.46431
▁r	-7.46927
▁make	-7.48331
▁these	-7.48418
▁part	-7.48688
▁before	-7.48871
▁But	-7.49637
▁k	-7.50168
▁per	-7.50243
▁”	-7.50578
to	-7.50617
8	-7.50768
B	-7.51256
3	-7.5132
▁h	-7.51539
ud	-7.51994
▁v	-7.52042
▁3	-7.52258
▁Ma	-7.5315
]	-7.53289
te	-7.53701
4	-7.54133
▁[	-7.54433
R	-7.54823
va	-7.55009
▁dis	-7.55553
▁2	-7.55982
ll	-7.56382
▁world	-7.56748
▁after	-7.56751
ful	-7.57702
ru	-7.57709
co	-7.57823
end	-7.57854
▁through	-7.59126
av	-7.59303
▁If	-7.59531
▁V	-7.59894
ya	-7.60365
ish	-7.60595
▁Indian	-7.60971
▁come	-7.61261
ag	-7.61413
ge	-7.61727
ac	-7.62484
▁Act	-7.62846
sh	-7.63228
▁mo	-7.63403
▁President	-7.63466
▁form	-7.63764
nd	-7.64146
7	-7.64497
▁His	-7.6479
ot	-7.65302
▁To	-7.65587
▁man	-7.65677
j	-7.67063
▁used	-7.67238
▁An	-7.67374
▁see	-7.67595
▁between	-7.67905
▁where	-7.68067
▁day	-7.68138
ho	-7.68169
▁her	-7.68394
op	-7.68403
▁For	-7.68596
▁No	-7.6866
▁pre	-7.69147
▁did	-7.69419
ence	-7.69629
ting	-7.69748
▁country	-7.69891
▁very	-7.70007
▁5	-7.70119
▁1	-7.70901
▁could	-7.71257
ther	-7.72185
ight	-7.72407
ne	-7.72778
ok	-7.73221
▁well	-7.73557
9	-7.73814
os	-7.74053
ure	-7.74925
tic	-7.75027
"	-7.75122
6	-7.75287
▁Government	-7.75391
qu	-7.75491
▁know	-7.76089
▁&	-7.76133
ve	-7.7616
out	-7.76525
ty	-7.76603
all	-7.76734
▁down	-7.7684
▁All	-7.76978
▁De	-7.77049
▁way	-7.77247
▁right	-7.77299
▁help	-7.77543
less	-7.77649
U	-7.78112
▁being	-7.78306
▁most	-7.78776
▁many	-7.78783
▁take	-7.79699
▁Na	-7.79823
▁4	-7.79924
em	-7.80126
ia	-7.80203
▁among	-7.80465
),	-7.80478
▁back	-7.80562
).	-7.80601
▁give	-7.81046
ated	-7.82275
▁You	-7.82347
de	-7.82594
ap	-7.82821
▁ro	-7.83376
▁sp	-7.84221
▁sub	-7.8424
ig	-7.84302
▁she	-7.84363
one	-7.84449
▁19	-7.84487
mo	-7.84677
▁Ch	-7.84788
▁even	-7.84809
▁Mo	-7.84812
ard	-7.85194
ang	-7.852
L	-7.85604
▁comp	-7.85978
▁upon	-7.86249
ian	-7.86357
ff	-7.86466
lu	-7.86497
▁open	-7.86664
▁place	-7.86808
▁di	-7.87094
▁years	-7.87368
▁name	-7.87418
ten	-7.8769
▁own	-7.87803
▁first	-7.88191
▁against	-7.88283
G	-7.88492
▁year	-7.8918
not	-7.89327
ions	-7.89854
▁every	-7.89955
<	-7.90629
▁>	-7.90629
▁file	-7.90819
F	-7.90854
ver	-7.90908
▁com	-7.90936
ave	-7.9096
▁war	-7.9097
ell	-7.9105
▁earth	-7.92329
ever	-7.92333
▁given	-7.92723
▁believe	-7.93159
▁need	-7.93162
tra	-7.93238
our	-7.93351
▁get	-7.93476
har	-7.93788
man	-7.9448
ill	-7.95026
ial	-7.95056
ite	-7.95155
▁because	-7.95709
di	-7.95826
me	-7.96643
▁There	-7.96685
▁set	-7.97267
ng	-7.97271
ast	-7.97603
▁La	-7.97623
▁J	-7.97894
▁state	-7.98287
▁account	-7.98326
▁Him	-7.98328
▁water	-7.98331
han	-7.98454
▁sent	-7.98687
▁en	-7.99
▁great	-7.99711
up	-7.99751
▁Y	-8.00078
▁nor	-8.00371
ach	-8.00901
▁Do	-8.00931
ay	-8.00939
of	-8.01364
tu	-8.0186
▁want	-8.02218
unt	-8.02252
▁power	-8.02862
▁number	-8.02872
▁another	-8.02873
act	-8.03205
iv	-8.03244
ack	-8.03267
▁end	-8.03531
▁must	-8.03809
▁On	-8.03976
▁When	-8.0401
▁rec	-8.0449
ted	-8.04891
▁does	-8.04975
ain	-8.05001
▁came	-8.05286
pp	-8.05413
for	-8.05474
▁return	-8.05702
ana	-8.05903
▁order	-8.05975
▁away	-8.06141
▁present	-8.06674
ide	-8.07381
ise	-8.07446
▁follow	-8.07533
cy	-8.07763
▁show	-8.08181
ai	-8.08197
ture	-8.08258
▁etc	-8.08643
▁long	-8.08646
▁system	-8.08712
per	-8.08722
▁use	-8.08724
▁now	-8.0933
▁br	-8.09477
▁message	-8.09605
▁Pro	-8.09777
▁Sa	-8.09906
▁Me	-8.09941
▁bo	-8.10408
▁Al	-8.10413
▁am	-8.10425
▁clear	-8.10607
mb	-8.10668
the	-8.1106
▁St	-8.11235
▁men	-8.11323
▁U	-8.11428
mp	-8.115
▁bring	-8.11731
."	-8.11963
▁turn	-8.12578
go	-8.126
▁here	-8.12635
nt	-8.1288
ick	-8.13213
▁just	-8.13667
▁become	-8.13668
...	-8.1392
▁As	-8.14136
▁7	-8.14774
ism	-8.14931
▁ye	-8.15174
▁20	-8.15642
ber	-8.15676
ran	-8.15887
▁high	-8.16414
▁public	-8.16825
▁fear	-8.16835
pe	-8.17101
▁j	-8.17369
he	-8.17915
mi	-8.17955
▁sh	-8.18129
ev	-8.18259
lay	-8.18549
▁Ba	-8.18803
▁large	-8.18987
▁law	-8.18997
W	-8.19007
▁case	-8.19082
▁cause	-8.20107
▁Day	-8.20196
00	-8.21199
▁play	-8.21383
▁Com	-8.2146
▁person	-8.21644
▁State	-8.21746
▁act	-8.21931
”	-8.2212
▁Di	-8.22265
nce	-8.22349
▁development	-8.22384
▁Lo	-8.23324
▁0	-8.23466
▁same	-8.2347
▁found	-8.2361
ical	-8.24387
▁called	-8.24425
▁Co	-8.24515
▁rule	-8.24757
▁Sh	-8.2482
V	-8.2487
▁Be	-8.24961
▁truth	-8.25769
▁matter	-8.2577
▁look	-8.25812
▁dur	-8.25828
pi	-8.25848
ash	-8.26005
▁Con	-8.26148
▁Po	-8.26164
▁Th	-8.26394
▁6	-8.26758
▁while	-8.26946
▁find	-8.26962
▁different	-8.26967
▁OF	-8.2713
▁Nation	-8.27762
▁land	-8.28017
▁process	-8.28136
▁ma	-8.28322
▁What	-8.28351
if	-8.28423
▁how	-8.28432
ven	-8.28433
▁both	-8.28521
▁Un	-8.28594
▁date	-8.28717
▁section	-8.28732
▁provide	-8.29185
use	-8.29993
ah	-8.30008
▁hand	-8.30344
▁things	-8.30765
pa	-8.30811
▁live	-8.3111
▁view	-8.31133
▁period	-8.31795
▁much	-8.31796
ward	-8.32619
ba	-8.32732
▁ho	-8.33011
▁created	-8.33452
red	-8.33839
▁information	-8.34311
▁group	-8.34311
▁support	-8.34311
▁except	-8.34311
▁lo	-8.344
low	-8.34458
▁vari	-8.34459
ome	-8.34597
Y	-8.3481
▁call	-8.34865
▁inter	-8.35185
▁change	-8.35395
cu	-8.35439
/	-8.35588
▁interest	-8.35684
▁po	-8.35797
▁whom	-8.36289
▁service	-8.36744
▁women	-8.36893
▁face	-8.36957
ner	-8.37036
▁gra	-8.37432
ities	-8.37476
lic	-8.37821
ph	-8.38193
▁think	-8.38207
▁house	-8.38247
ock	-8.38284
▁term	-8.38809
pr	-8.38953
▁Man	-8.39057
▁relat	-8.39169
line	-8.39179
▁10	-8.39253
▁friend	-8.39541
▁toward	-8.39791
▁pass	-8.3983
▁8	-8.39917
pur	-8.39918
ship	-8.40019
ea	-8.40444
ound	-8.4052
ally	-8.40557
pati	-8.40774
▁evil	-8.40895
ept	-8.41126
▁Ra	-8.4135
tri	-8.41622
▁9	-8.42084
ail	-8.42162
▁wrong	-8.42262
▁‘	-8.42262
▁human	-8.42276
▁each	-8.42408
▁vi	-8.42643
▁Ha	-8.42664
▁tri	-8.42922
▁point	-8.43006
be	-8.4364
▁Ja	-8.43798
▁share	-8.4395
▁Pa	-8.43973
▁Ka	-8.44459
▁rep	-8.44528
▁Then	-8.44706
▁consider	-8.4483
▁important	-8.45083
▁Ex	-8.45142
▁Shri	-8.45231
que	-8.45264
▁Pre	-8.45511
ition	-8.45567
ja	-8.45604
gen	-8.45631
▁taken	-8.45809
hu	-8.4603
ex	-8.46081
▁str	-8.46195
den	-8.46226
▁imp	-8.46342
▁let	-8.4645
▁tra	-8.46471
▁government	-8.46488
▁amount	-8.46489
▁small	-8.46491
▁Book	-8.46517
▁–	-8.46535
ory	-8.46558
▁At	-8.47312
ile	-8.47454
▁again	-8.47781
▁New	-8.47942
▁accept	-8.47953
▁indeed	-8.47966
▁never	-8.48053
ood	-8.48057
▁Who	-8.48091
tor	-8.48217
▁four	-8.4835
▁My	-8.48506
▁sign	-8.48765
▁put	-8.48814
eth	-8.49042
▁Say	-8.49072
▁less	-8.49168
▁best	-8.49263
ign	-8.49368
▁value	-8.49408
▁al	-8.49415
▁complete	-8.49559
K	-8.49592
ious	-8.49672
▁sea	-8.49811
ator	-8.49998
▁Rs	-8.50485
men	-8.5075
▁knowledge	-8.509
▁social	-8.50901
▁ab	-8.51006
▁last	-8.51035
▁list	-8.51157
▁action	-8.51389
val	-8.51587
▁Vi	-8.51608
▁i	-8.51792
press	-8.51935
▁language	-8.52415
▁Bhavan	-8.52415
▁education	-8.52442
▁means	-8.5245
▁home	-8.52536
▁18	-8.52543
ors	-8.52731
▁today	-8.53194
▁Mu	-8.5349
▁Rashtra	-8.53954
der	-8.53964
:%	-8.53968
▁free	-8.54002
war	-8.54017
▁report	-8.54101
▁love	-8.5422
ari	-8.54726
▁known	-8.54803
IT	-8.54877
▁far	-8.5496
▁send	-8.55104
▁off	-8.55158
▁old	-8.55219
▁Ho	-8.5536
▁project	-8.55516
▁cha	-8.55554
▁Su	-8.55835
▁Go	-8.56617
▁Ar	-8.56663
▁force	-8.56841
▁idea	-8.56981
▁Central	-8.57104
▁business	-8.57104
▁left	-8.57104
▁problem	-8.57104
▁children	-8.57105
▁remain	-8.57106
▁better	-8.57117
ling	-8.5712
mission	-8.57183
▁bank	-8.57193
▁side	-8.57221
▁hard	-8.57313
▁reach	-8.57395
fic	-8.57864
▁age	-8.57897
ative	-8.58574
▁Minister	-8.58717
▁address	-8.58717
▁type	-8.58718
▁Par	-8.58722
▁income	-8.58724
▁o	-8.58745
▁disc	-8.59236
▁par	-8.59444
ug	-8.59536
▁heavens	-8.59716
▁11	-8.59986
ification	-8.6008
ER	-8.60139
old	-8.60256
adi	-8.60323
▁control	-8.60356
▁contain	-8.60358
ple	-8.60494
mer	-8.60518
▁light	-8.60522
▁surely	-8.60607
▁She	-8.60991
▁issue	-8.61253
▁within	-8.61304
▁done	-8.61378
bi	-8.61536
▁read	-8.61773
amp	-8.61782
▁Hindu	-8.62022
▁command	-8.62024
▁folder	-8.62025
▁level	-8.62025
▁sector	-8.62027
▁window	-8.62049
▁Show	-8.62132
▁cent	-8.62403
ES	-8.62406
▁plan	-8.62598
▁whe	-8.62923
do	-8.62945
ka	-8.63008
▁art	-8.63483
▁learn	-8.63718
▁understand	-8.63718
▁something	-8.63725
▁court	-8.63731
land	-8.63771
rate	-8.64089
RA	-8.64119
▁met	-8.6417
▁cost	-8.64312
ble	-8.6448
ON	-8.64629
pro	-8.65071
▁faith	-8.65442
▁company	-8.65443
▁equal	-8.65444
▁true	-8.65444
▁still	-8.65451
▁One	-8.65507
▁guide	-8.65521
▁whole	-8.66074
nk	-8.66206
▁book	-8.66315
oc	-8.66439
▁Raj	-8.66586
rat	-8.66729
▁character	-8.67196
▁three	-8.67196
▁Bengal	-8.67196
▁along	-8.67199
▁li	-8.67327
▁ask	-8.67356
▁op	-8.67378
fi	-8.67391
▁pay	-8.67404
port	-8.67682
▁non	-8.67731
▁main	-8.67846
nic	-8.68022
ify	-8.68099
▁add	-8.6877
▁Gandhi	-8.68972
▁child	-8.68981
▁punishment	-8.68982
▁keep	-8.68982
▁common	-8.68983
ified	-8.6909
▁institution	-8.69244
▁based	-8.69257
▁unto	-8.69321
20	-8.69507
▁Dr	-8.69929
ize	-8.70496
ala	-8.70582
gan	-8.70769
▁current	-8.708
▁function	-8.708
ating	-8.70875
▁market	-8.70876
▁eye	-8.70891
▁body	-8.71305
▁em	-8.71334
HE	-8.71381
▁includ	-8.71654
▁fact	-8.71954
▁signs	-8.72152
The	-8.72196
▁thing	-8.72515
▁family	-8.72652
▁Delhi	-8.72652
▁death	-8.72658
▁near	-8.72666
▁car	-8.72746
aught	-8.72871
gu	-8.731
▁full	-8.73341
▁mis	-8.7341
hose	-8.73574
▁Ju	-8.73886
▁plant	-8.73917
▁due	-8.73925
▁gu	-8.73925
▁direct	-8.74091
▁areas	-8.74481
▁result	-8.74539
▁Muslim	-8.74539
▁condition	-8.7454
▁Pleas	-8.74541
▁self	-8.74545
▁general	-8.74546
▁visit	-8.74552
▁held	-8.74564
▁tree	-8.74574
▁father	-8.74624
▁199	-8.74647
▁That	-8.74776
▁post	-8.74956
▁members	-8.74979
▁nation	-8.74997
▁Sub	-8.75517
▁reason	-8.75582
▁Br	-8.7577
▁bi	-8.76047
▁seen	-8.76064
▁heart	-8.76227
▁Messenger	-8.76461
▁achiev	-8.76462
▁Israel	-8.76462
▁together	-8.76464
▁port	-8.76481
▁House	-8.765
▁economic	-8.76577
▁respect	-8.76581
verse	-8.76708
▁Z	-8.76757
▁line	-8.76819
▁going	-8.76875
AR	-8.77016
(	-8.7712
▁position	-8.77155
▁du	-8.77643
▁hav	-8.77712
da	-8.77989
▁already	-8.78422
▁application	-8.78422
▁himself	-8.78422
▁major	-8.78423
▁operation	-8.78423
▁Indeed	-8.78427
▁local	-8.78448
hief	-8.78459
▁deeds	-8.78751
▁days	-8.78774
▁seek	-8.78877
▁national	-8.7891
ade	-8.78952
▁meeting	-8.79104
kar	-8.79597
▁too	-8.79797
▁start	-8.80072
bo	-8.80097
▁provided	-8.80191
resident	-8.80269
—	-8.80422
▁themselves	-8.80422
▁join	-8.80424
▁path	-8.80437
▁Singh	-8.80449
▁real	-8.80883
▁required	-8.8116
istic	-8.81336
▁close	-8.81366
▁lie	-8.81646
▁acc	-8.81956
ga	-8.82133
▁ten	-8.82245
▁little	-8.82463
▁provision	-8.82463
▁perform	-8.82464
▁data	-8.82468
IC	-8.82479
▁Bha	-8.82551
▁im	-8.82631
over	-8.82715
▁might	-8.82728
bar	-8.82743
ugh	-8.83006
mark	-8.83234
her	-8.83351
ability	-8.83503
▁sin	-8.83588
fer	-8.83612
ix	-8.83954
tive	-8.84067
▁Or	-8.8436
▁field	-8.84546
▁subject	-8.84546
▁kind	-8.84556
▁sense	-8.84558
▁food	-8.8478
▁cover	-8.84884
▁Ro	-8.84902
▁run	-8.84927
▁exist	-8.85022
▁selected	-8.85042
▁special	-8.85063
▁hear	-8.86222
▁certain	-8.86278
▁bar	-8.86366
▁Can	-8.86388
}	-8.86674
▁second	-8.86674
▁security	-8.86674
▁particular	-8.86674
▁question	-8.86674
▁always	-8.86675
▁limit	-8.86678
▁key	-8.86688
▁available	-8.86714
▁mother	-8.86837
▁15	-8.86932
▁enter	-8.86986
ik	-8.87087
▁ha	-8.8729
aj	-8.87834
▁require	-8.88051
gar	-8.88092
▁Pra	-8.88252
▁head	-8.88266
▁area	-8.88458
▁effect	-8.88747
▁sl	-8.88807
▁activities	-8.88848
▁countries	-8.88848
X	-8.88848
▁financi	-8.88848
▁price	-8.88851
▁brought	-8.88873
▁Jo	-8.88878
▁arm	-8.89076
log	-8.89119
ization	-8.89262
ani	-8.89392
▁words	-8.90048
vel	-8.90224
▁son	-8.90334
▁Bo	-8.90368
ush	-8.90561
right	-8.90902
▁believed	-8.90938
▁religion	-8.9107
▁represent	-8.9107
▁example	-8.9107
▁above	-8.91071
▁class	-8.91073
▁living	-8.91073
▁link	-8.91097
▁000	-8.91128
▁night	-8.91284
▁25	-8.91379
hol	-8.91443
ju	-8.9159
▁test	-8.91724
▁qua	-8.91725
▁Mi	-8.91754
▁times	-8.9186
▁young	-8.92258
▁Let	-8.9238
▁Unit	-8.92387
▁pur	-8.92606
▁occasion	-8.93343
▁scheme	-8.93343
▁clause	-8.93343
▁extend	-8.93346
▁region	-8.93353
▁remov	-8.93357
▁mind	-8.93361
▁12	-8.94028
▁die	-8.94172
ank	-8.9418
ali	-8.94423
side	-8.94443
▁lead	-8.94477
▁fee	-8.94515
19	-8.94959
▁grow	-8.95494
▁Pri	-8.9559
▁tran	-8.9559
▁stand	-8.95652
▁benefit	-8.95669
▁difficult	-8.95669
▁purpose	-8.95669
▁material	-8.95669
▁worship	-8.95669
▁measure	-8.95669
▁witness	-8.95669
▁Select	-8.9567
▁therefore	-8.95679
▁short	-8.95683
▁few	-8.95685
ung	-8.957
giving	-8.95777
ranab	-8.96028
ible	-8.96428
▁yet	-8.97035
▁include	-8.97311
ie	-8.9783
▁product	-8.97851
▁English	-8.98049
▁PRESIDENT	-8.98049
▁research	-8.9805
▁village	-8.9805
▁error	-8.9805
▁next	-8.9805
▁thou	-8.9805
▁further	-8.98051
▁regard	-8.98052
▁computer	-8.98052
▁source	-8.98053
▁record	-8.98056
▁text	-8.98056
▁until	-8.98061
▁river	-8.98062
▁desire	-8.98063
▁health	-8.98064
▁around	-8.98066
▁later	-8.98068
een	-8.98069
▁Sabha	-8.98075
ists	-8.98075
▁image	-8.98121
ised	-8.9822
▁Bank	-8.9823
▁tax	-8.98933
ton	-8.99036
IN	-8.99064
IS	-8.99084
point	-8.99231
▁hold	-8.99282
▁rest	-8.99387
AL	-8.99456
▁cut	-8.99481
▁create	-8.99698
cal	-8.99875
▁eas	-9.0007
▁personal	-9.00147
mm	-9.00167
▁others	-9.00375
▁Committee	-9.00488
▁Parliament	-9.00488
▁produce	-9.00488
▁America	-9.00489
▁tradition	-9.00489
▁ground	-9.00489
▁expect	-9.00489
▁High	-9.0049
▁making	-9.00497
▁programme	-9.00537
gri	-9.00819
▁able	-9.00929
▁mail	-9.00935
par	-9.01048
ump	-9.01091
ou	-9.01137
RB	-9.01154
▁fel	-9.01197
came	-9.0124
▁Some	-9.01255
▁total	-9.01303
▁received	-9.01385
▁Le	-9.01512
▁either	-9.01593
▁please	-9.01747
▁books	-9.01846
▁Mar	-9.02291
mun	-9.02419
tan	-9.02501
ier	-9.02559
tical	-9.02947
▁enjoy	-9.02989
▁natural	-9.02989
▁student	-9.02989
▁entire	-9.02989
▁million	-9.02989
▁rate	-9.02992
▁several	-9.02994
▁30	-9.03027
▁Us	-9.03056
▁Arab	-9.03104
▁movement	-9.03126
▁told	-9.03351
▁fo	-9.03438
▁fall	-9.03585
ized	-9.0361
▁big	-9.03722
▁Va	-9.03806
amb	-9.04052
ries	-9.04077
▁West	-9.042
referred	-9.04281
▁persons	-9.04563
▁States	-9.04565
▁office	-9.05079
▁offer	-9.05398
▁disbelieve	-9.05531
▁INDIA	-9.05553
▁individual	-9.05553
▁industry	-9.05553
▁website	-9.05553
script	-9.05553
▁policy	-9.05553
▁transfer	-9.05553
▁management	-9.05554
▁draw	-9.05555
▁promise	-9.05568
▁temple	-9.05602
▁authority	-9.05637
▁hearts	-9.05833
▁flow	-9.05878
▁sw	-9.05882
▁access	-9.05885
aint	-9.05891
▁Most	-9.06127
▁once	-9.06229
We	-9.06333
▁feel	-9.06707
▁fund	-9.06855
▁ever	-9.06874
▁sure	-9.06898
▁five	-9.06923
section	-9.06945
spect	-9.07209
▁word	-9.07307
▁Mon	-9.07563
▁though	-9.07602
take	-9.07664
▁care	-9.07994
▁clo	-9.08135
▁associate	-9.08184
▁community	-9.08184
▁population	-9.08184
▁remember	-9.08184
▁appear	-9.08184
▁happen	-9.08184
▁crore	-9.08185
▁peace	-9.08185
▁strong	-9.08185
▁behind	-9.08185
▁money	-9.08187
▁patient	-9.08189
▁leave	-9.08193
▁stay	-9.08208
▁nothing	-9.0825
▁since	-9.08368
time	-9.08459
taking	-9.08559
▁role	-9.088
way	-9.08866
part	-9.08914
▁really	-9.09058
▁Up	-9.09144
▁event	-9.0916
ern	-9.09227
▁:	-9.09657
own	-9.09892
▁Ag	-9.10101
▁save	-9.10263
▁Prim	-9.10649
ternal	-9.10772
▁University	-9.10887
▁custom	-9.10887
▁district	-9.10887
▁experience	-9.10887
▁school	-9.10887
▁written	-9.10887
▁animal	-9.10887
▁brother	-9.10887
▁Islam	-9.10888
▁capital	-9.10888
▁simpl	-9.10889
▁element	-9.10889
▁creation	-9.10894
▁Constitution	-9.10895
▁+	-9.10907
▁Fire	-9.10907
▁teach	-9.10996
▁17	-9.11089
▁growth	-9.11117
▁services	-9.11197
▁tea	-9.11208
▁cell	-9.11493
ought	-9.11531
▁hands	-9.11781
▁got	-9.11827
view	-9.12376
▁develop	-9.1241
▁user	-9.12651
gro	-9.1269
▁forth	-9.1271
▁Your	-9.12957
ility	-9.12988
▁deal	-9.1305
▁increase	-9.1316
▁Gu	-9.13256
▁edit	-9.13311
▁1.	-9.13526
▁Pradesh	-9.13665
▁network	-9.13665
▁suffer	-9.13665
▁political	-9.13665
▁previous	-9.13665
▁Court	-9.13671
▁(1)	-9.13681
▁RRB	-9.13749
▁Not	-9.13764
▁fire	-9.13777
▁outside	-9.13798
▁allow	-9.13816
▁wish	-9.13909
▁following	-9.13958
▁wide	-9.14058
version	-9.14105
▁ver	-9.14196
▁page	-9.14666
▁soul	-9.14667
▁seem	-9.15119
DE	-9.15276
anda	-9.15528
▁related	-9.15979
▁Maha	-9.163
▁Ministry	-9.16522
▁effort	-9.16522
▁environment	-9.16522
▁international	-9.16522
▁private	-9.16522
▁Europe	-9.16522
▁appointed	-9.16522
▁involv	-9.16522
▁quality	-9.16522
▁future	-9.16524
▁century	-9.16524
▁prevent	-9.1653
▁super	-9.16534
▁story	-9.16536
▁anything	-9.16542
▁investment	-9.16611
▁write	-9.16642
▁establish	-9.16666
▁technology	-9.16702
▁move	-9.16768
▁decide	-9.16802
▁whatever	-9.16843
▁carrie	-9.16874
▁Use	-9.16921
▁List	-9.1699
▁certainly	-9.17058
ler	-9.17108
lim	-9.17116
▁six	-9.17118
▁original	-9.17221
▁trust	-9.17351
sha	-9.17357
▁deposit	-9.17559
▁established	-9.17608
▁ca	-9.17701
▁Mr	-9.17738
board	-9.17924
arch	-9.18028
hil	-9.18131
either	-9.1818
lock	-9.18288
▁receive	-9.18291
stern	-9.18295
▁concern	-9.18368
▁cap	-9.18616
▁knows	-9.18634
most	-9.18854
▁leg	-9.18901
▁ste	-9.18962
▁bear	-9.18964
ference	-9.19393
▁program	-9.19446
▁Congress	-9.19463
▁Development	-9.19463
▁progress	-9.19463
▁resource	-9.19463
▁capacity	-9.19463
▁Hindi	-9.19464
▁method	-9.19464
▁basis	-9.19464
▁fruit	-9.19465
▁task	-9.19465
▁contact	-9.19465
▁modern	-9.19465
▁course	-9.19466
▁thus	-9.19497
release	-9.19559
▁14	-9.19707
day	-9.1975
▁Union	-9.19887
▁{	-9.1996
▁host	-9.19992
▁thought	-9.20122
▁building	-9.20164
▁working	-9.20173
▁step	-9.20341
bel	-9.20758
yan	-9.21108
▁continue	-9.21512
uk	-9.21751
▁unit	-9.21828
az	-9.22095
fully	-9.22168
▁elect	-9.22492
▁spirit	-9.22493
▁global	-9.22493
▁instrument	-9.22493
▁necessary	-9.22493
▁participat	-9.22493
▁mountain	-9.22493
▁British	-9.22493
▁deliver	-9.22494
▁writing	-9.22494
▁credit	-9.22494
▁freedom	-9.22494
▁verily	-9.22496
▁speak	-9.22496
▁music	-9.2251
▁stage	-9.22522
▁size	-9.22524
▁drive	-9.22528
▁shape	-9.22558
▁believers	-9.22572
▁production	-9.22747
▁town	-9.2275
▁13	-9.22752
▁revealed	-9.22882
▁changes	-9.22987
▁Muhammad	-9.23006
▁statement	-9.2304
▁Min	-9.23597
▁rur	-9.24024
▁don	-9.24228
16	-9.2463
▁soon	-9.24995
▁serve	-9.25096
lip	-9.25192
ada	-9.25302
▁society	-9.25618
▁doubt	-9.25618
▁judge	-9.25618
▁Prophet	-9.25618
▁disease	-9.25619
▁blood	-9.25619
▁device	-9.25619
▁video	-9.2562
▁profit	-9.25623
▁With	-9.25625
▁why	-9.25625
▁paper	-9.25631
▁charge	-9.25716
▁turned	-9.25807
▁Such	-9.25835
▁26	-9.25859
▁rain	-9.25913
▁meet	-9.2592
▁using	-9.26201
RI	-9.26213
▁try	-9.26242
▁past	-9.2634
▁fight	-9.26367
▁East	-9.26457
DA	-9.26597
▁weak	-9.26652
▁allowed	-9.26864
▁favour	-9.27229
Sita	-9.27411
RE	-9.27598
▁Dur	-9.2774
▁Ram	-9.27827
▁member	-9.28094
▁By	-9.28662
▁express	-9.28732
▁employ	-9.28816
Q	-9.28832
▁Public	-9.28844
▁similar	-9.28844
▁drink	-9.28844
▁spread	-9.28845
▁affect	-9.28847
▁decision	-9.28849
▁South	-9.28855
▁vision	-9.28868
▁seven	-9.28869
▁firm	-9.28878
▁stone	-9.2888
▁Mukherjee	-9.2888
▁usual	-9.28918
▁objective	-9.28929
▁carry	-9.2896
▁deep	-9.28973
▁Name	-9.29035
▁reduc	-9.29159
bha	-9.29161
?"	-9.2951
ID	-9.30422
graph	-9.30625
▁started	-9.30659
▁factor	-9.3067
▁none	-9.30835
cross	-9.30849
mination	-9.31172
▁Har	-9.31316
▁pain	-9.31412
▁author	-9.31434
▁month	-9.3147
isation	-9.31497
▁therein	-9.31969
ji	-9.32067
▁Africa	-9.32177
▁Republic	-9.32177
▁energy	-9.32177
▁specified	-9.32177
▁Service	-9.32177
▁exchange	-9.32177
▁itself	-9.3218
▁demand	-9.32184
▁search	-9.32184
▁copy	-9.32191
▁meaning	-9.32198
▁literature	-9.32203
▁conduct	-9.32203
▁Board	-9.32241
▁Moses	-9.32243
▁Plan	-9.32285
▁alone	-9.32317
▁para	-9.32335
▁setting	-9.32384
▁prepared	-9.32411
▁kill	-9.32414
▁letter	-9.32414
uck	-9.32503
▁invit	-9.32598
▁server	-9.32762
chan	-9.32775
▁Mahat	-9.32868
▁months	-9.32899
▁below	-9.33413
hood	-9.33484
▁greater	-9.33726
▁Now	-9.33758
▁forward	-9.33774
▁x	-9.33835
▁mark	-9.34208
▁city	-9.34317
▁asked	-9.34344
CC	-9.34785
▁trade	-9.34787
▁Pat	-9.34919
▁belongs	-9.3503
▁party	-9.35207
▁treat	-9.35506
▁secret	-9.35626
▁Department	-9.35626
▁destroy	-9.35626
▁http	-9.35626
▁Verily	-9.35626
▁article	-9.35626
▁check	-9.35626
▁document	-9.35626
▁honour	-9.35627
▁civil	-9.35627
▁request	-9.35627
▁failed	-9.3563
▁training	-9.35633
▁Open	-9.35634
▁scale	-9.35636
▁design	-9.35637
▁paid	-9.35642
▁saw	-9.35654
▁disbelievers	-9.35655
ram	-9.35663
▁however	-9.35735
▁grant	-9.35745
▁Add	-9.35776
▁che	-9.3581
▁protection	-9.35814
▁mention	-9.35928
▁Have	-9.36003
▁reward	-9.36091
▁poet	-9.36106
▁lost	-9.36119
▁loan	-9.36139
▁Bill	-9.36168
▁officer	-9.36433
▁War	-9.36569
▁increased	-9.36634
like	-9.37936
▁Are	-9.38064
tax	-9.38394
▁passed	-9.38504
▁manag	-9.38845
soever	-9.39154
▁Calcutta	-9.39197
▁Education	-9.39197
▁policies	-9.39197
▁yourselves	-9.39197
▁General	-9.39197
▁front	-9.39197
▁possible	-9.39197
▁happy	-9.39197
▁depend	-9.392
▁After	-9.39202
▁central	-9.39204
▁history	-9.39204
▁Power	-9.39209
▁culture	-9.39211
▁content	-9.39235
▁touch	-9.3924
▁deny	-9.39244
▁describ	-9.39247
▁single	-9.39292
▁practice	-9.39302
cular	-9.39357
▁197	-9.39428
▁early	-9.39547
▁tell	-9.39631
▁eight	-9.397
AS	-9.3974
ather	-9.39858
▁flu	-9.40235
position	-9.40282
▁sound	-9.40348
▁cast	-9.40363
▁Inter	-9.40647
▁aspect	-9.40927
▁issued	-9.40946
▁gene	-9.41032
fo	-9.41149
▁collect	-9.42551
▁protect	-9.42701
▁Qu	-9.42886
*	-9.42901
▁Council	-9.42901
▁approach	-9.42901
▁mankind	-9.42901
▁unbelievers	-9.42901
▁claim	-9.42901
▁execut	-9.42901
▁specific	-9.42901
▁third	-9.42901
▁reject	-9.42901
science	-9.42903
▁focus	-9.42904
▁Surely	-9.42909
▁color	-9.42919
▁wait	-9.42921
▁week	-9.42922
▁bird	-9.42925
▁placed	-9.42949
▁standard	-9.42967
▁plus	-9.42969
▁consist	-9.4299
▁duty	-9.42996
▁export	-9.43042
▁equi	-9.43247
▁active	-9.43254
▁App	-9.43289
▁till	-9.43334
▁sale	-9.43487
▁fill	-9.4363
▁How	-9.43831
▁eat	-9.43955
▁hum	-9.44299
▁concerned	-9.44303
▁leading	-9.44672
AM	-9.44747
Trans	-9.44792
▁Whe	-9.45099
▁lot	-9.45986
spite	-9.46442
▁object	-9.46646
▁commit	-9.4671
▁International	-9.46747
▁Scheme	-9.46747
▁citizen	-9.46747
://	-9.46747
▁Error	-9.46747
▁behalf	-9.46747
▁answer	-9.46748
▁regulat	-9.46748
▁job	-9.46749
▁righteous	-9.4675
▁Section	-9.46751
▁mercy	-9.46752
▁nature	-9.46752
▁percent	-9.46752
▁industrial	-9.46753
▁adopt	-9.46755
▁attain	-9.46756
▁harm	-9.46777
▁employee	-9.4678
▁property	-9.46781
▁However	-9.46786
htm	-9.4682
▁Could	-9.46854
▁option	-9.46907
▁manner	-9.46908
▁196	-9.4697
▁Will	-9.47061
▁Even	-9.4708
ham	-9.47134
▁earn	-9.47358
▁pan	-9.4791
▁centre	-9.47939
▁Where	-9.47984
▁Sri	-9.48033
▁dead	-9.48315
▁16	-9.4867
▁TO	-9.48973
▁refer	-9.49053
▁success	-9.49346
J	-9.49436
with	-9.49471
▁Rama	-9.49903
▁Ko	-9.50016
10	-9.50047
VE	-9.50515
▁Information	-9.50747
▁Institute	-9.50747
▁World	-9.50747
▁messenger	-9.50747
▁advance	-9.50747
▁approv	-9.50747
▁guidance	-9.50747
▁degree	-9.50747
▁earlier	-9.50747
▁display	-9.50747
▁implement	-9.50748
▁police	-9.50748
▁garden	-9.50749
▁Work	-9.5075
▁folk	-9.50751
▁break	-9.50752
▁foreign	-9.5076
▁plain	-9.50779
▁suit	-9.50825
▁Under	-9.50829
▁assist	-9.50866
▁poem	-9.50889
cious	-9.5089
▁treatment	-9.50932
▁published	-9.5095
011	-9.50983
▁198	-9.51043
External	-9.51143
From	-9.51162
▁bill	-9.51468
▁according	-9.51487
ological	-9.51604
▁legal	-9.51697
▁hour	-9.51792
▁Well	-9.52192
▁higher	-9.5233
▁developed	-9.52361
▁Hell	-9.52618
aries	-9.52672
▁Kar	-9.5268
▁Asia	-9.53115
▁100	-9.53608
cultur	-9.53857
▁gas	-9.53889
▁Thou	-9.5391
▁ear	-9.54599
gram	-9.54821
▁multi	-9.54896
▁Krishna	-9.54914
▁assessee	-9.54914
▁beginning	-9.54914
▁essential	-9.54914
▁evidence	-9.54914
▁observ	-9.54914
▁responsibility	-9.54914
▁launch	-9.54914
▁enough	-9.54914
▁Address	-9.54914
▁angels	-9.54914
▁burden	-9.54914
▁lakh	-9.54915
▁remind	-9.54915
▁session	-9.54916
▁Every	-9.54916
▁basic	-9.54918
▁justice	-9.5492
▁medical	-9.5492
▁birth	-9.5492
▁least	-9.54928
▁North	-9.54946
▁south	-9.54951
▁prim	-9.5499
ING	-9.54993
▁watch	-9.55022
“”	-9.55032
▁hope	-9.55035
yond	-9.55048
▁station	-9.55054
▁novel	-9.55111
▁round	-9.55124
lusion	-9.55135
iff	-9.55207
▁spend	-9.55219
▁File	-9.55322
▁Officer	-9.55341
atch	-9.55341
▁gain	-9.55343
▁US	-9.55363
▁enable	-9.55436
lf	-9.55708
▁litera	-9.5575
▁fast	-9.55829
▁connected	-9.55877
▁notice	-9.55927
▁table	-9.56275
▁cross	-9.56608
dict	-9.57113
▁star	-9.57764
▁agree	-9.59186
▁Division	-9.59261
▁Group	-9.59261
▁administrati	-9.59261
▁immediate	-9.59261
▁marriage	-9.59261
▁prescribed	-9.59261
▁significant	-9.59261
▁symbol	-9.59261
▁contract	-9.59262
▁actually	-9.59262
▁organization	-9.59262
▁figure	-9.59262
▁instead	-9.59262
▁engage	-9.59263
▁generation	-9.59263
▁staff	-9.59263
▁official	-9.59264
▁wife	-9.59265
▁drop	-9.59265
▁woman	-9.59265
▁print	-9.59266
▁style	-9.59267
▁clean	-9.59269
▁space	-9.59271
▁talk	-9.59271
▁attend	-9.5928
▁reserve	-9.5931
▁born	-9.59344
▁rather	-9.59359
▁gather	-9.59377
▁farmers	-9.59386
▁agreement	-9.5942
▁grand	-9.59455
Why	-9.5952
▁char	-9.59571
▁March	-9.59578
▁expression	-9.59604
▁bound	-9.59684
▁23	-9.59692
▁prayer	-9.59694
▁rise	-9.59716
▁anyone	-9.59881
▁powerful	-9.6
▁mass	-9.60015
▁deem	-9.60026
▁ball	-9.60064
uction	-9.6028
organis	-9.60554
▁successful	-9.60809
ague	-9.6124
▁boy	-9.61409
under	-9.61957
▁build	-9.62724
▁select	-9.62724
q	-9.63218
▁strength	-9.63655
▁wind	-9.63773
▁maxim	-9.63807
November	-9.63807
▁Resurrection	-9.63807
▁contribution	-9.63807
▁correct	-9.63807
▁husband	-9.63807
▁length	-9.63807
▁religious	-9.63807
▁voice	-9.63807
▁avoid	-9.63807
▁innovat	-9.63807
▁threat	-9.63807
▁labour	-9.63807
▁dwell	-9.63808
▁Speak	-9.63808
▁perfect	-9.63808
▁white	-9.63808
▁committee	-9.63809
▁dark	-9.63811
▁View	-9.63811
▁minim	-9.63813
▁astray	-9.63817
▁Two	-9.6382
▁presence	-9.6382
▁complain	-9.63823
▁Create	-9.63827
▁(2)	-9.63827
▁difference	-9.6383
▁apply	-9.63832
▁sky	-9.63851
▁Quran	-9.63999
▁effective	-9.64021
▁194	-9.64135
place	-9.64147
▁24	-9.64247
▁thereof	-9.64312
▁raised	-9.64588
▁male	-9.64759
ikh	-9.64785
▁direction	-9.64853
▁dance	-9.64855
▁beside	-9.64875
▁provid	-9.64953
▁online	-9.65005
▁farm	-9.65859
mitted	-9.66939
▁connect	-9.67062
body	-9.67265
from	-9.67277
▁raise	-9.67775
▁mode	-9.6842
▁practi	-9.68439
▁facilit	-9.68519
▁Account	-9.68569
▁Technology	-9.68569
▁apostle	-9.68569
▁challenge	-9.68569
▁column	-9.68569
▁economy	-9.68569
▁expenditure	-9.68569
▁journey	-9.68569
▁popular	-9.68569
▁potential	-9.68569
▁software	-9.68569
▁suggest	-9.68569
▁communicat	-9.68569
▁perhaps	-9.68569
▁advice	-9.68569
▁Which	-9.68569
▁picture	-9.6857
▁black	-9.6857
▁While	-9.68571
▁Search	-9.68573
▁phone	-9.68573
▁cultural	-9.68576
▁attach	-9.68576
▁Provid	-9.68577
▁ensure	-9.6859
▁lower	-9.68604
▁game	-9.68606
▁burn	-9.68609
▁normal	-9.68613
▁details	-9.68622
▁frame	-9.68622
▁middle	-9.68623
▁items	-9.68664
▁guard	-9.6868
detail	-9.68687
▁strengthen	-9.68728
▁thy	-9.68765
▁leaders	-9.6884
▁80	-9.68913
▁UN	-9.68955
▁collection	-9.69023
▁aim	-9.69051
▁urge	-9.69104
▁loss	-9.69301
▁consideration	-9.69366
▁belong	-9.69405
▁poor	-9.69581
▁introduc	-9.69844
▁continu	-9.70441
sibilit	-9.71385
▁Char	-9.71524
“	-9.72249
know	-9.7233
efore	-9.72593
▁discuss	-9.72937
▁Commission	-9.72954
▁import	-9.73483
▁sustain	-9.73569
ufficient	-9.73569
▁Director	-9.73569
▁People	-9.73569
▁Supreme	-9.73569
▁built	-9.73569
▁certificate	-9.73569
▁devotion	-9.73569
▁explain	-9.73569
▁female	-9.73569
▁occur	-9.73569
▁relevant	-9.73569
▁responsible	-9.73569
▁wrote	-9.73569
▁Project	-9.73569
▁supply	-9.73569
lthough	-9.73569
▁legislat	-9.73569
▁manifest	-9.73569
▁possess	-9.73569
▁morning	-9.73569
▁study	-9.73569
▁obey	-9.73569
▁secure	-9.73569
▁solution	-9.73569
▁maintain	-9.7357
▁famous	-9.73571
▁spiritual	-9.73571
▁border	-9.73571
▁Income	-9.73571
▁milk	-9.73572
vocation	-9.73572
▁skill	-9.73573
▁thousand	-9.73574
▁Centre	-9.7358
▁define	-9.73581
▁Assam	-9.73594
▁half	-9.73597
▁rich	-9.73608
▁Bharat	-9.73639
dditional	-9.73641
▁examin	-9.73663
▁choose	-9.73664
▁situation	-9.73674
▁existence	-9.73682
▁construction	-9.73698
▁June	-9.73707
bodies	-9.73781
▁torment	-9.7379
▁mental	-9.7399
▁27	-9.74008
▁wishes	-9.74016
▁media	-9.74033
▁blow	-9.7413
▁21	-9.74267
▁31	-9.74297
▁recent	-9.74536
▁model	-9.74554
roa	-9.7458
alaya	-9.74858
▁Lok	-9.74858
▁Move	-9.76285
holder	-9.76429
unda	-9.76548
special	-9.77517
▁origin	-9.77547
This	-9.77578
mini	-9.77718
roph	-9.77902
▁base	-9.78146
▁Office	-9.78292
▁Qur	-9.78648
▁avail	-9.78753
▁forgive	-9.78793
▁Evolution	-9.78832
▁argument	-9.78832
▁coordinat	-9.78832
▁default	-9.78832
▁democracy	-9.78832
▁hundred	-9.78832
▁manufactur	-9.78832
▁positive	-9.78832
▁terrorism	-9.78832
▁mutual	-9.78832
▁purchase	-9.78832
▁separate	-9.78832
▁speech	-9.78832
▁2013	-9.78832
▁Author	-9.78832
▁activity	-9.78832
▁declare	-9.78832
▁appeal	-9.78832
▁2007	-9.78833
▁wonder	-9.78833
▁enhance	-9.78833
▁engine	-9.78833
▁chosen	-9.78834
▁Tamil	-9.78836
▁organisation	-9.78836
▁colour	-9.78836
▁First	-9.78837
▁divide	-9.78837
▁balance	-9.7884
▁girl	-9.78841
▁Turk	-9.78843
▁Copy	-9.78845
▁false	-9.78852
▁wealth	-9.78856
▁fair	-9.78856
▁Time	-9.78867
▁historic	-9.78869
▁safety	-9.78871
▁travel	-9.789
▁sister	-9.7891
▁Today	-9.78924
▁physical	-9.78998
▁verses	-9.79013
ika	-9.79016
▁Guru	-9.79026
▁proper	-9.79129
ridge	-9.79152
▁connection	-9.79301
▁payment	-9.79321
▁load	-9.79329
▁oil	-9.79361
▁listen	-9.79414
▁wise	-9.79441
▁Commissioner	-9.79579
▁wall	-9.79659
▁store	-9.79811
dicate	-9.7986
▁aware	-9.80134
rising	-9.8088
▁plea	-9.82305
LE	-9.83486
▁invest	-9.84275
ficiency	-9.84387
▁Certificate	-9.84387
▁Christian	-9.84387
▁December	-9.84387
▁Governor	-9.84387
▁January	-9.84387
▁Kashmir	-9.84387
▁Merciful	-9.84387
▁Nehru	-9.84387
▁Punjab	-9.84387
▁agricultural	-9.84387
▁celebrate	-9.84387
▁cultivat	-9.84387
▁exercise	-9.84387
▁hospital	-9.84387
▁refuge	-9.84387
▁surround	-9.84387
▁assessment	-9.84388
▁defeat	-9.84388
▁improv	-9.84388
▁2012	-9.84388
▁Management	-9.84388
▁companies	-9.84389
▁SAW	-9.84389
▁latter	-9.84389
▁courage	-9.8439
▁duties	-9.8439
▁AND	-9.8439
▁track	-9.84393
▁green	-9.84394
▁Enable	-9.84394
▁range	-9.84399
▁everything	-9.84402
▁assets	-9.84404
▁install	-9.84405
▁settle	-9.84409
▁Data	-9.84417
▁series	-9.84419
▁season	-9.84419
▁directory	-9.84458
▁Export	-9.84459
▁facilities	-9.8446
▁minute	-9.8447
▁speed	-9.84477
▁delete	-9.84489
▁font	-9.845
▁2000	-9.84539
▁Speci	-9.84559
▁final	-9.8466
▁useful	-9.84702
▁Wise	-9.8475
▁hide	-9.84752
▁Mark	-9.84752
▁reference	-9.84772
▁wood	-9.84807
▁humanity	-9.84852
▁Park	-9.8494
▁defen	-9.84951
lest	-9.84989
▁discussion	-9.85112
▁deduct	-9.85258
▁constitu	-9.85486
▁code	-9.85544
UL	-9.87609
▁auto	-9.88432
quite	-9.88604
work	-9.88979
200	-9.89029
▁accord	-9.89187
cribe	-9.90135
ology	-9.90248
▁According	-9.9027
▁Bombay	-9.9027
▁Science	-9.9027
▁September	-9.9027
▁calendar	-9.9027
▁college	-9.9027
▁festival	-9.9027
▁increasing	-9.9027
▁infrastructure	-9.9027
▁ourselves	-9.9027
▁regular	-9.9027
▁transform	-9.9027
Abraham	-9.9027
▁Programme	-9.9027
▁escape	-9.9027
▁inaugurat	-9.9027
▁initiative	-9.9027
▁obtain	-9.9027
▁profession	-9.9027
▁screen	-9.9027
▁ancient	-9.9027
▁Research	-9.9027
▁interpret	-9.9027
▁department	-9.9027
▁rupee	-9.9027
▁Categor	-9.90271
▁attract	-9.90271
▁description	-9.90271
▁2005	-9.90272
▁pleasure	-9.90272
▁square	-9.90272
▁magic	-9.90273
▁tonnes	-9.90273
▁stream	-9.90273
▁drug	-9.90274
▁risk	-9.90274
▁Type	-9.90275
▁attack	-9.90276
▁phase	-9.90283
▁pipe	-9.90283
▁partners	-9.90286
▁Start	-9.90297
▁forgiveness	-9.90339
▁principle	-9.90354
▁Help	-9.90355
eserve	-9.90355
▁importance	-9.90367
▁whatsoever	-9.90425
▁Edit	-9.90439
▁Hereafter	-9.90443
▁palm	-9.90462
▁replace	-9.90488
▁permission	-9.90489
▁location	-9.90533
▁root	-9.90676
▁identi	-9.91423
▁Organi	-9.91915
iii	-9.92252
▁admit	-9.92256
▁qui	-9.94791
word	-9.95405
▁safe	-9.96474
▁Exchange	-9.9652
▁Rajasthan	-9.9652
▁School	-9.9652
▁agriculture	-9.9652
▁battle	-9.9652
▁channel	-9.9652
▁contribute	-9.9652
▁council	-9.9652
▁encourage	-9.9652
▁influence	-9.9652
▁military	-9.9652
▁target	-9.9652
▁Schedule	-9.9652
▁Uttar	-9.9652
▁acquire	-9.9652
▁reflect	-9.9652
▁volume	-9.9652
▁belief	-9.9652
▁relationship	-9.9652
▁descend	-9.9652
▁Message	-9.96521
▁dialog	-9.96521
▁Chandra	-9.96521
▁medium	-9.96521
▁mobile	-9.96521
▁petition	-9.96521
▁stories	-9.96522
▁unique	-9.96522
▁arrest	-9.96522
▁transport	-9.96522
▁straight	-9.96522
▁Garden	-9.96522
▁Left	-9.96523
▁constant	-9.96523
▁Mighty	-9.96523
▁breast	-9.96524
▁Member	-9.96524
▁latest	-9.96525
▁Therefore	-9.96525
▁drama	-9.96525
▁Failed	-9.96526
▁structure	-9.9653
▁promote	-9.96531
▁conceal	-9.96533
venue	-9.96539
▁electric	-9.96541
▁Gandhiji	-9.96555
▁minu	-9.96555
▁Text	-9.96561
▁revolution	-9.96565
▁Conference	-9.96579
▁spoke	-9.9658
▁email	-9.96606
india	-9.96616
▁repeat	-9.96628
subscribe	-9.96629
▁committed	-9.96636
▁poetry	-9.96638
▁match	-9.96663
▁arise	-9.96677
cycl	-9.97188
ould	-9.9883
▁heaven	-9.99072
You	-9.99123
hath	-9.99908
ecause	-10.0307
ATION	-10.0319
▁Corporation	-10.0319
▁Display	-10.0319
▁Environment	-10.0319
▁Excellency	-10.0319
▁advantage	-10.0319
▁beautiful	-10.0319
▁behaviour	-10.0319
▁confirm	-10.0319
▁elephant	-10.0319
▁opportunities	-10.0319
▁parliament	-10.0319
▁recognise	-10.0319
▁recommend	-10.0319
▁registration	-10.0319
▁species	-10.0319
▁struggle	-10.0319
▁succeed	-10.0319
▁corrupt	-10.0319
▁Description	-10.0319
▁partnership	-10.0319
▁restrict	-10.0319
▁prison	-10.0319
▁unjust	-10.0319
▁empty	-10.0319
▁Iraq	-10.0319
▁Policy	-10.0319
▁dispute	-10.0319
▁machine	-10.0319
▁knew	-10.0319
▁ocean	-10.0319
▁complex	-10.0319
▁heritage	-10.0319
▁storage	-10.0319
▁April	-10.0319
▁opinion	-10.0319
▁visible	-10.0319
▁daughter	-10.0319
▁German	-10.0319
▁quick	-10.0319
▁filter	-10.0319
▁convey	-10.0319
▁shift	-10.0319
▁average	-10.0319
▁Learn	-10.0319
▁Change	-10.0319
▁Enter	-10.032
pathy	-10.032
▁River	-10.032
▁exceed	-10.032
▁master	-10.0322
▁proceedings	-10.0322
▁entry	-10.0322
▁constituted	-10.0323
▁debt	-10.0325
▁submitted	-10.0328
▁painful	-10.033
▁foot	-10.0333
▁update	-10.0337
▁severe	-10.0353
AME	-10.0361
▁sort	-10.0385
▁Rule	-10.0398
▁cancel	-10.0428
▁deriv	-10.0474
troduction	-10.0842
▁Veda	-10.0854
What	-10.0902
▁technolog	-10.0987
reafter	-10.1012
ukherjee	-10.1025
▁scienti	-10.1032
▁attempt	-10.1033
▁authentic	-10.1033
▁conflict	-10.1033
▁determine	-10.1033
▁procedure	-10.1033
▁specify	-10.1033
▁August	-10.1033
▁Company	-10.1033
▁Pharaoh	-10.1033
▁Window	-10.1033
▁association	-10.1033
▁campaign	-10.1033
▁circumstances	-10.1033
▁cooperation	-10.1033
▁electronic	-10.1033
▁entrepreneur	-10.1033
▁excellent	-10.1033
▁extension	-10.1033
▁frequent	-10.1033
▁institute	-10.1033
▁medicine	-10.1033
▁proposal	-10.1033
▁scholar	-10.1033
▁thirty	-10.1033
▁translation	-10.1033
▁welcome	-10.1033
▁Abdul	-10.1033
▁Mumbai	-10.1033
▁2014	-10.1033
▁Nepal	-10.1033
▁2009	-10.1033
▁Contact	-10.1033
▁photo	-10.1033
▁surviv	-10.1033
▁alternat	-10.1033
▁arrive	-10.1033
▁creating	-10.1033
▁improvement	-10.1033
▁propose	-10.1033
▁deci	-10.1033
▁double	-10.1033
▁carbon	-10.1033
▁Next	-10.1033
▁strike	-10.1033
▁Women	-10.1033
▁Import	-10.1033
▁Click	-10.1033
▁truly	-10.1033
▁ignore	-10.1033
▁Finance	-10.1034
▁favor	-10.1034
operative	-10.1034
▁serious	-10.1034
▁title	-10.1034
AGE	-10.1034
neath	-10.1034
▁Fund	-10.1035
▁talent	-10.1035
▁extent	-10.1035
▁Scripture	-10.1035
▁password	-10.1036
▁recognize	-10.1036
ography	-10.1036
▁Health	-10.1038
▁else	-10.1038
▁2010	-10.1038
▁discover	-10.104
▁assign	-10.104
▁decor	-10.1041
01.	-10.1045
lapse	-10.1155
▁realiz	-10.1156
glad	-10.1445
nsurance	-10.1446
nvalid	-10.1502
▁emerg	-10.1607
Muhammad	-10.167
{	-10.167
Allah	-10.1672
clude	-10.1681
1-201	-10.1725
▁pray	-10.173
▁locat	-10.1784
iddle	-10.1802
prehensive	-10.1802
utomatically	-10.1802
▁District	-10.1802
▁Financial	-10.1802
▁Library	-10.1802
▁Official	-10.1802
▁Pakistan	-10.1802
▁Second	-10.1802
▁arrangement	-10.1802
▁attribute	-10.1802
▁chastisement	-10.1802
▁consciousness	-10.1802
▁correspond	-10.1802
▁criminal	-10.1802
▁distinct	-10.1802
▁happiness	-10.1802
▁independent	-10.1802
▁platform	-10.1802
▁prosperity	-10.1802
▁respond	-10.1802
▁survey	-10.1802
▁telephone	-10.1802
▁victim	-10.1802
▁yield	-10.1802
▁Current	-10.1802
▁digital	-10.1802
▁greeting	-10.1802
▁liquid	-10.1802
▁minister	-10.1802
▁thrust	-10.1802
▁annual	-10.1802
▁sympath	-10.1802
▁London	-10.1802
▁proportion	-10.1802
▁Mission	-10.1802
▁chapter	-10.1802
▁2004	-10.1802
▁divine	-10.1802
▁damage	-10.1802
▁blind	-10.1802
▁throw	-10.1802
▁2002	-10.1802
▁History	-10.1803
▁pillar	-10.1803
▁broad	-10.1803
▁Truth	-10.1803
▁composed	-10.1803
▁Japan	-10.1803
▁replied	-10.1803
▁Task	-10.1803
▁easily	-10.1803
married	-10.1803
▁sitting	-10.1803
▁running	-10.1804
▁minor	-10.1804
▁walk	-10.1804
▁convert	-10.1805
▁pursu	-10.1806
▁buy	-10.1806
▁multiple	-10.1806
▁skin	-10.1807
▁laid	-10.1808
▁authorities	-10.1808
▁forbid	-10.1808
▁songs	-10.181
FOR	-10.1812
▁Key	-10.1813
habit	-10.1828
polit	-10.1839
▁Auto	-10.184
▁restore	-10.1859
▁vote	-10.1889
roz	-10.1908
▁Relat	-10.1922
uci	-10.2325
stitution	-10.2338
Z	-10.2504
what	-10.2508
▁reveal	-10.2527
power	-10.2531
▁construct	-10.2614
▁submit	-10.2633
nvestment	-10.2633
▁Legislat	-10.2635
▁exploit	-10.2635
▁furnish	-10.2635
▁Believers	-10.2636
▁Default	-10.2636
▁Global	-10.2636
▁Governance	-10.2636
▁Gujarat	-10.2636
▁Princip	-10.2636
▁Security	-10.2636
▁attitude	-10.2636
▁cattle	-10.2636
▁ceremon	-10.2636
▁counsel	-10.2636
▁destruction	-10.2636
▁estimate	-10.2636
▁families	-10.2636
▁fundamental	-10.2636
▁illegal	-10.2636
▁industries	-10.2636
▁mechanism	-10.2636
▁privilege	-10.2636
▁supreme	-10.2636
▁transaction	-10.2636
▁victory	-10.2636
▁applied	-10.2636
▁dawn	-10.2636
▁destination	-10.2636
▁division	-10.2636
▁kingdom	-10.2636
▁Jammu	-10.2636
▁Limit	-10.2636
▁abroad	-10.2636
▁audio	-10.2636
▁hydro	-10.2636
▁identified	-10.2636
▁zero	-10.2636
▁atmosphere	-10.2636
▁brief	-10.2636
▁covenant	-10.2636
▁Circular	-10.2636
▁promotion	-10.2636
▁urban	-10.2636
▁entitle	-10.2636
▁accident	-10.2636
▁download	-10.2636
▁sleep	-10.2636
▁sacred	-10.2636
▁Connect	-10.2636
Amendment	-10.2636
▁decade	-10.2636
▁branch	-10.2636
▁Email	-10.2636
▁doctor	-10.2636
▁excess	-10.2636
▁Folder	-10.2636
ligible	-10.2636
▁danger	-10.2637
▁elder	-10.2637
▁ahead	-10.2637
▁Class	-10.2637
▁Region	-10.2637
▁Great	-10.2637
▁crop	-10.2637
▁Annu	-10.2637
▁decree	-10.2637
▁mosque	-10.2637
▁initiate	-10.2637
emporary	-10.2637
▁Saudi	-10.2637
▁desert	-10.2637
▁drag	-10.2637
▁Image	-10.2637
▁praise	-10.2639
eputy	-10.2639
▁Since	-10.2639
▁utter	-10.2639
▁audit	-10.264
▁instance	-10.264
▁Ganga	-10.2643
▁forget	-10.2645
scope	-10.2653
▁stop	-10.2655
▁hind	-10.2669
▁broke	-10.2669
▁taste	-10.2675
▁competen	-10.268
▁seize	-10.2746
natha	-10.2796
▁emergenc	-10.2856
▁spare	-10.2881
▁stoo	-10.2934
plicate	-10.3036
▁temp	-10.352
▁differ	-10.3523
▁educat	-10.3528
hoose	-10.353
evolution	-10.3538
▁proceed	-10.3542
▁academic	-10.3545
▁expansion	-10.3545
erritories	-10.3545
krishna	-10.3545
▁Buddhist	-10.3545
▁Certain	-10.3545
▁Chairman	-10.3545
▁Children	-10.3545
▁Jawahar	-10.3545
▁Karnataka	-10.3545
▁Sanskrit	-10.3545
▁Switch	-10.3545
▁System	-10.3545
▁absolute	-10.3545
▁agencies	-10.3545
▁appellant	-10.3545
▁creature	-10.3545
▁distribution	-10.3545
▁encompass	-10.3545
▁enjoin	-10.3545
▁impossible	-10.3545
▁independence	-10.3545
▁innocent	-10.3545
▁intellectual	-10.3545
▁intelligen	-10.3545
▁journal	-10.3545
▁nuclea	-10.3545
▁opportunity	-10.3545
▁pollution	-10.3545
▁pregnancy	-10.3545
▁puppet	-10.3545
▁sexual	-10.3545
▁strategy	-10.3545
▁surface	-10.3545
▁technical	-10.3545
▁tissue	-10.3545
▁tribute	-10.3545
▁twenty	-10.3545
▁welfare	-10.3545
▁yesterday	-10.3545
▁{0}	-10.3545
▁resolve	-10.3545
▁studies	-10.3545
▁twice	-10.3545
▁Binoy	-10.3545
▁fault	-10.3545
▁senior	-10.3545
Remember	-10.3545
▁Options	-10.3545
▁guilty	-10.3545
▁violence	-10.3545
▁Remove	-10.3545
▁afflict	-10.3545
▁climate	-10.3545
▁yellow	-10.3545
▁retreat	-10.3545
▁equipment	-10.3545
▁prostrate	-10.3545
▁grieve	-10.3545
▁2006	-10.3545
▁drown	-10.3545
▁Mughal	-10.3545
▁2008	-10.3545
▁bounty	-10.3545
▁modification	-10.3545
nquiry	-10.3545
▁weapon	-10.3545
▁proxy	-10.3545
▁midst	-10.3545
▁dream	-10.3545
▁Institutions	-10.3545
▁fresh	-10.3545
▁marry	-10.3545
▁corner	-10.3545
▁fixed	-10.3545
▁scientists	-10.3546
▁distance	-10.3546
▁inherit	-10.3546
▁Server	-10.3546
▁Radha	-10.3546
▁blessing	-10.3546
▁render	-10.3547
▁fuel	-10.3548
▁expir	-10.355
▁lake	-10.355
▁tube	-10.3556
IME	-10.356
▁formulat	-10.3573
crete	-10.3574
▁mono	-10.3576
▁Make	-10.3577
SCO	-10.3593
ompliance	-10.3595
▁solv	-10.3612
grew	-10.3627
-2012	-10.3637
ccessible	-10.3915
▁ratio	-10.3963
trusted	-10.425
wareness	-10.4296
February	-10.4545
▁transgress	-10.4545
announced	-10.4545
polytheists	-10.4545
▁Assistant	-10.4545
▁Innovation	-10.4545
▁analysis	-10.4545
▁appropriate	-10.4545
▁bottom	-10.4545
▁commercial	-10.4545
▁conservation	-10.4545
▁consultation	-10.4545
▁definite	-10.4545
▁disbelief	-10.4545
▁extreme	-10.4545
▁governance	-10.4545
▁healthcare	-10.4545
▁inspiration	-10.4545
▁instruction	-10.4545
▁library	-10.4545
▁narrow	-10.4545
▁philosophy	-10.4545
▁plugin	-10.4545
▁resolution	-10.4545
▁response	-10.4545
▁sacrifice	-10.4545
▁sculpture	-10.4545
▁trouble	-10.4545
▁twelve	-10.4545
▁university	-10.4545
▁virtue	-10.4545
▁Brahman	-10.4545
▁Check	-10.4545
▁Knowing	-10.4545
▁Madhya	-10.4545
▁Swami	-10.4545
▁apparent	-10.4545
▁circle	-10.4545
distinguish	-10.4545
▁Application	-10.4545
▁Convention	-10.4545
▁Explanation	-10.4545
▁Field	-10.4545
▁Justice	-10.4545
▁Tagore	-10.4545
▁URL	-10.4545
▁database	-10.4545
▁discharge	-10.4545
▁investigation	-10.4545
▁Document	-10.4545
▁absorb	-10.4545
▁craft	-10.4545
▁hidden	-10.4545
▁Training	-10.4545
▁Article	-10.4545
▁failure	-10.4545
▁Jews	-10.4545
▁fifty	-10.4545
▁yourself	-10.4545
▁centuries	-10.4545
▁properties	-10.4545
▁defendant	-10.4545
▁piece	-10.4545
▁tongue	-10.4545
▁tidings	-10.4545
fortunate	-10.4545
▁generated	-10.4545
▁Civil	-10.4545
▁John	-10.4545
▁glory	-10.4545
▁fulfilled	-10.4545
▁reckon	-10.4545
▁Delegat	-10.4545
terrible	-10.4545
worthy	-10.4545
▁Social	-10.4545
▁expand	-10.4545
▁Filter	-10.4545
▁pressure	-10.4545
▁invoke	-10.4545
▁glass	-10.4545
▁swear	-10.4545
▁blame	-10.4545
Joseph	-10.4546
▁gift	-10.4546
▁protest	-10.4546
▁climb	-10.4546
▁split	-10.4546
▁Delete	-10.4546
▁organize	-10.4546
▁valid	-10.4547
▁horse	-10.4548
▁preserv	-10.4551
▁probabl	-10.4552
trategi	-10.4555
▁allocat	-10.46
graduate	-10.463
charya	-10.4651
END	-10.5022
▁capabilit	-10.5272
crease	-10.5531
▁prepare	-10.5576
▁gradua	-10.5592
osphere	-10.5656
▁Knowledge	-10.5656
▁Mohammed	-10.5656
▁excellence	-10.5656
PRODUCT	-10.5656
▁Apostle	-10.5656
▁Budget	-10.5656
▁Economic	-10.5656
▁Judgment	-10.5656
▁Palestinians	-10.5656
▁Vishnu	-10.5656
▁acquisition	-10.5656
▁adequate	-10.5656
▁aircraft	-10.5656
▁appreciate	-10.5656
▁arrogant	-10.5656
▁assault	-10.5656
▁communities	-10.5656
▁currency	-10.5656
▁definition	-10.5656
▁judgment	-10.5656
▁obvious	-10.5656
▁occup	-10.5656
▁pattern	-10.5656
▁pesticide	-10.5656
▁proclaim	-10.5656
▁satisfied	-10.5656
▁smooth	-10.5656
▁subsequent	-10.5656
▁technique	-10.5656
▁territory	-10.5656
▁treasure	-10.5656
▁uniform	-10.5656
ecurities	-10.5656
▁Continu	-10.5656
▁configur	-10.5656
▁distress	-10.5656
▁politics	-10.5656
▁railway	-10.5656
▁sanction	-10.5656
▁schedule	-10.5656
▁summon	-10.5656
▁England	-10.5656
▁Kingdom	-10.5656
▁Kovind	-10.5656
▁Network	-10.5656
▁Railway	-10.5656
▁Scienti	-10.5656
▁incident	-10.5656
▁infection	-10.5656
▁infidel	-10.5656
▁neck	-10.5656
▁Province	-10.5656
▁beauty	-10.5656
▁enemies	-10.5656
▁visual	-10.5656
▁competition	-10.5656
▁Chapter	-10.5656
▁Keep	-10.5656
▁Natural	-10.5656
▁leadership	-10.5656
▁switch	-10.5656
▁Support	-10.5656
▁devote	-10.5656
▁deprive	-10.5656
▁poison	-10.5656
▁Chinese	-10.5656
▁Among	-10.5656
▁Divine	-10.5656
▁identify	-10.5656
▁murder	-10.5656
▁2003	-10.5656
▁Question	-10.5656
▁micro	-10.5656
▁Police	-10.5656
▁Georg	-10.5656
▁Detail	-10.5656
▁adorn	-10.5656
▁abundan	-10.5657
▁adult	-10.5657
▁unaware	-10.5663
▁cease	-10.5664
Peace	-10.5664
▁dignit	-10.5667
▁contemporar	-10.5669
▁receiv	-10.5697
oddess	-10.5795
▁socio	-10.646
complete	-10.6775
system	-10.6775
▁Access	-10.681
▁princip	-10.6887
hrough	-10.6896
▁fulfil	-10.6906
▁Administrati	-10.6906
▁Narendra	-10.6906
▁necessit	-10.6906
▁neighbour	-10.6906
▁safeguard	-10.6906
▁symptom	-10.6906
orizontal	-10.6906
&	-11.4371
–	-11.7704
+	-13.2712
‘	-13.2713
>	-13.2714
[	-13.2714
