<pad>	0
</s>	0
<unk>	0
¦	-1.20329
▁¦	-1.56637
▁	-3.03919
𐋇	-3.46146
e	-3.62468
o	-3.88905
i	-3.89941
▁,	-4.08759
a	-4.15574
di	-4.62602
il	-4.927
la	-5.10814
▁'	-5.37833
che	-5.3858
in	-5.43959
per	-5.58542
▁:	-5.65332
non	-5.68152
le	-5.68282
re	-5.69529
si	-5.6981
ò	-5.81037
signore	-5.86425
del	-5.88637
è	-5.89247
l	-5.91799
gli	-5.92013
un	-6.02973
con	-6.05338
é	-6.08221
da	-6.11695
no	-6.12994
▁;	-6.13533
de	-6.13955
«	-6.18437
te	-6.26042
lo	-6.27448
loro	-6.29147
al	-6.29297
ma	-6.36401
▁.	-6.36657
ti	-6.37039
suo	-6.40266
ha	-6.43068
vi	-6.46833
mi	-6.47722
se	-6.48277
dio	-6.53483
perch	-6.56547
c	-6.62855
come	-6.63523
ci	-6.65308
nel	-6.67193
della	-6.68625
▁»	-6.70197
tutt	-6.71764
s	-6.73588
n	-6.73935
me	-6.74715
d	-6.74874
li	-6.76115
tuo	-6.79778
vo	-6.80111
sono	-6.84664
ri	-6.8654
io	-6.87574
ro	-6.89499
una	-6.89803
g	-6.93042
disse	-6.95014
rono	-6.96508
chi	-6.96523
ne	-7.00449
tu	-7.04434
figli	-7.05233
à	-7.05893
dell	-7.06183
figlio	-7.06728
p	-7.0674
rà	-7.07753
nell	-7.0905
era	-7.10151
alla	-7.1111
sua	-7.13284
va	-7.14494
ranno	-7.15358
egli	-7.16219
mio	-7.17374
dal	-7.18108
to	-7.19157
giorn	-7.22964
quand	-7.27427
quell	-7.27582
su	-7.2835
aveva	-7.28628
israel	-7.29225
questo	-7.34981
lui	-7.35807
ai	-7.35824
popolo	-7.37851
r	-7.39695
sa	-7.40435
ho	-7.41917
vostr	-7.44568
quest	-7.46153
contro	-7.46864
allor	-7.49159
dall	-7.49439
padr	-7.50133
anche	-7.51546
terra	-7.5235
uom	-7.52861
fu	-7.52977
sarà	-7.53482
osì	-7.55863
paes	-7.56015
tua	-7.56496
tutto	-7.57408
ta	-7.58312
ad	-7.58703
città	-7.62088
casa	-7.6368
parol	-7.64019
ì	-7.66293
mia	-7.68549
vanti	-7.70363
erà	-7.72461
ar	-7.72547
poi	-7.73484
ecco	-7.73883
ogni	-7.75132
▁?	-7.75324
anno	-7.75341
ed	-7.762
que	-7.77363
tra	-7.78001
sull	-7.78488
iù	-7.80259
sul	-7.8052
essi	-7.80628
david	-7.80847
all	-7.80942
ver	-7.8169
t	-7.84441
uomin	-7.86135
ato	-7.86344
ù	-7.86998
ora	-7.87138
fatto	-7.88939
esù	-7.8898
mos	-7.89566
pi	-7.89728
tà	-7.89753
ndo	-7.89944
mie	-7.91594
nostr	-7.93905
qual	-7.94789
secondo	-7.95118
fratell	-7.9575
noi	-7.96186
van	-7.97107
dice	-7.99557
mano	-7.99686
fece	-7.99711
vers	-8.00024
sacerdot	-8.00868
due	-8.0091
ra	-8.01577
so	-8.02178
far	-8.02986
na	-8.03011
ete	-8.039
m	-8.04057
fino	-8.04115
rispose	-8.04817
fatti	-8.05334
giuda	-8.0561
b	-8.06319
mezzo	-8.06876
ità	-8.07863
poich	-8.08047
cuor	-8.09183
mo	-8.09686
occhi	-8.09748
quant	-8.10239
gerusalemm	-8.10481
vita	-8.11361
ni	-8.12543
sia	-8.14676
eran	-8.14867
israelit	-8.15709
quel	-8.16121
tempi	-8.16346
rò	-8.19072
sta	-8.20196
ano	-8.20411
ciel	-8.2119
-	-8.22404
sue	-8.23215
tutta	-8.23278
im	-8.24061
mani	-8.25316
cosa	-8.25736
grande	-8.25817
nza	-8.26149
fa	-8.2615
cui	-8.26254
fra	-8.28316
mentr	-8.28395
nessun	-8.288
zione	-8.28901
k	-8.28911
uno	-8.2902
alle	-8.2908
dopo	-8.2926
sei	-8.30966
agli	-8.31509
mort	-8.33291
co	-8.34107
u	-8.34201
stess	-8.3478
pa	-8.35656
senz	-8.35966
ono	-8.36259
essa	-8.37057
regn	-8.37558
egitt	-8.37835
dun	-8.38014
▁?»	-8.39975
sc	-8.40213
han	-8.40283
one	-8.40387
▁!»	-8.40642
▁».	-8.40651
rai	-8.40654
porta	-8.40822
ancor	-8.41496
dove	-8.41739
cose	-8.41846
f	-8.41895
questi	-8.42858
▁-	-8.43251
dett	-8.43597
bene	-8.43678
capo	-8.44419
donn	-8.44679
capi	-8.44965
rete	-8.45066
tempo	-8.45275
ca	-8.45679
ve	-8.46132
spirit	-8.46762
ga	-8.48525
nom	-8.4949
crist	-8.49588
là	-8.49951
anni	-8.5007
forse	-8.50519
erò	-8.50692
semp	-8.50861
tre	-8.50961
legge	-8.51807
parte	-8.52184
and	-8.52483
sopra	-8.54245
stato	-8.55208
alcun	-8.5545
avet	-8.55902
pre	-8.55997
via	-8.5608
fi	-8.56732
av	-8.56869
za	-8.57099
ce	-8.57788
pro	-8.58518
pu	-8.59753
fuoc	-8.60286
am	-8.62131
voc	-8.63651
sotto	-8.63903
male	-8.64068
giustizia	-8.64586
altri	-8.65078
amo	-8.65416
altro	-8.65755
ate	-8.66114
servi	-8.66309
luogo	-8.67198
sacrifici	-8.67831
sette	-8.6787
pietr	-8.68006
cor	-8.68102
essere	-8.68825
servo	-8.69639
zza	-8.69881
dato	-8.70074
nno	-8.70168
sangu	-8.70507
nei	-8.70851
spad	-8.70985
altar	-8.70989
solo	-8.7231
do	-8.72721
vien	-8.7326
saul	-8.73723
tue	-8.73854
tanto	-8.74587
oro	-8.74747
z	-8.74886
ezza	-8.76121
presso	-8.76879
gia	-8.77488
prima	-8.7777
trib	-8.78706
nemic	-8.79176
po	-8.79565
oggi	-8.80544
famigli	-8.81485
peccato	-8.8159
prese	-8.83455
insiem	-8.83792
gloria	-8.84038
mare	-8.84948
abbiam	-8.85474
fare	-8.85863
pot	-8.86247
bocca	-8.86394
acqua	-8.86725
dai	-8.8685
desert	-8.8693
giacobb	-8.86942
ando	-8.8885
sse	-8.8889
as	-8.89115
invec	-8.90406
posto	-8.90414
mor	-8.91095
ebbe	-8.91619
nte	-8.91829
pac	-8.92275
colu	-8.92463
ava	-8.92852
giude	-8.93736
aronn	-8.93808
mento	-8.9396
moglie	-8.94239
popol	-8.94332
dicendo	-8.9506
ata	-8.95351
sto	-8.95425
bi	-8.95948
buon	-8.96287
mand	-8.96293
ba	-8.96739
nott	-8.96832
iamo	-8.97184
andar	-8.97477
tenda	-8.97806
mond	-8.98267
qui	-8.98499
offert	-8.9969
furon	-8.99772
venne	-8.99902
molt	-9.00487
acque	-9.00873
mente	-9.00991
nuov	-9.01215
par	-9.01278
go	-9.01608
nulla	-9.01623
piedi	-9.01914
nazion	-9.02139
giu	-9.02363
faccia	-9.02452
quali	-9.02563
santo	-9.02818
sti	-9.03417
causa	-9.03704
gente	-9.03771
monte	-9.04162
entr	-9.04482
stava	-9.04685
alleanz	-9.05349
erai	-9.05766
dov	-9.06144
argent	-9.0626
can	-9.06291
dimora	-9.06301
abram	-9.06586
tto	-9.06599
ste	-9.07036
gioi	-9.08091
ira	-9.08353
fede	-9.0838
babiloni	-9.08543
salv	-9.08598
carne	-9.08673
giust	-9.08921
mai	-9.09113
salomon	-9.09207
alz	-9.09208
▁?».	-9.09877
seppe	-9.09879
madre	-9.10216
gran	-9.10337
diede	-9.10877
col	-9.11042
amente	-9.11515
eserciti	-9.11978
porte	-9.1219
ch	-9.1222
aver	-9.1224
olocaust	-9.12591
chiam	-9.12682
comuni	-9.13098
finch	-9.13288
filiste	-9.13629
bestia	-9.14041
abitant	-9.14395
vesti	-9.14658
lavor	-9.15735
comand	-9.15799
ascolta	-9.16038
gios	-9.1612
car	-9.1625
grazia	-9.16451
propri	-9.16967
fuor	-9.17389
com	-9.17631
pane	-9.17756
chiamat	-9.1803
diceva	-9.18367
dico	-9.1849
fara	-9.18509
quanti	-9.18691
scritt	-9.19263
discepol	-9.19724
visto	-9.19925
abbia	-9.19999
venti	-9.20428
sor	-9.20757
sol	-9.22014
leviti	-9.23117
siamo	-9.23263
figlia	-9.23465
molti	-9.23744
an	-9.23803
nque	-9.24074
riguard	-9.24203
profeti	-9.24245
quindi	-9.24653
farà	-9.25175
ciascun	-9.25429
gener	-9.25438
trova	-9.25492
schiav	-9.2579
or	-9.26475
uè	-9.26568
profeta	-9.27007
cio	-9.27558
intorn	-9.2861
volta	-9.29402
altra	-9.29471
cubit	-9.2983
fronte	-9.29856
guerr	-9.30647
esse	-9.30891
mese	-9.31067
vicin	-9.31634
ben	-9.31681
dar	-9.31913
arca	-9.32597
ab	-9.32733
dire	-9.32827
quattro	-9.33081
lontan	-9.33393
oltre	-9.33495
sara	-9.33496
ggi	-9.33508
color	-9.33919
stati	-9.3402
strad	-9.34117
poter	-9.34173
sion	-9.34431
fosse	-9.34454
cinque	-9.34784
on	-9.34794
camp	-9.35165
parla	-9.35268
vide	-9.35894
be	-9.36011
rsi	-9.3644
st	-9.36742
lu	-9.36837
ge	-9.37491
avr	-9.37924
lung	-9.37973
rest	-9.38152
azion	-9.38157
opera	-9.3877
messo	-9.39163
condott	-9.39262
tor	-9.3999
mangia	-9.40052
opere	-9.40118
luce	-9.40177
remo	-9.40408
èl	-9.40422
forza	-9.40467
ved	-9.40819
dieci	-9.41036
uscire	-9.41156
primo	-9.4149
endo	-9.41518
corpo	-9.41611
ram	-9.4198
sce	-9.42041
us	-9.42077
du	-9.42273
metter	-9.42688
veder	-9.43028
eredit	-9.43414
parti	-9.43802
udit	-9.43833
sui	-9.43886
iniquit	-9.44119
dis	-9.44466
testa	-9.44512
orecchi	-9.44803
conosce	-9.44862
gio	-9.45018
ordine	-9.4517
fedel	-9.45562
grida	-9.4576
▁!».	-9.45761
immond	-9.45804
nti	-9.45974
port	-9.4604
sì	-9.4608
pes	-9.46087
angel	-9.46154
ero	-9.46166
mu	-9.4641
grid	-9.4656
bo	-9.4662
osserva	-9.46866
abi	-9.46894
cammin	-9.47099
bu	-9.47109
pen	-9.47137
venuto	-9.47255
hi	-9.47751
ser	-9.47768
mangiar	-9.47885
esso	-9.48018
esercit	-9.4808
anzi	-9.48175
sole	-9.48542
tta	-9.48701
vino	-9.48726
prender	-9.49213
divenne	-9.49293
chiu	-9.49679
oracol	-9.49742
età	-9.49781
giordan	-9.5017
segn	-9.50711
mandat	-9.51095
etern	-9.51193
ghi	-9.51217
mont	-9.51647
cal	-9.51792
menti	-9.51931
stata	-9.52308
grandi	-9.52438
fine	-9.52543
anziani	-9.52709
santuari	-9.53223
genti	-9.53561
mise	-9.53587
acc	-9.536
ghe	-9.53663
ber	-9.53822
usci	-9.5395
tar	-9.53967
passa	-9.54387
liber	-9.54599
cu	-9.54635
stranier	-9.54786
efraim	-9.54789
potenz	-9.54876
ru	-9.55054
fate	-9.55311
servizi	-9.55318
v	-9.55687
dodici	-9.55845
parl	-9.55872
tura	-9.55907
dà	-9.56092
gregg	-9.56916
farai	-9.56975
aiut	-9.57197
rti	-9.5725
pien	-9.57275
ognun	-9.57446
generazion	-9.57473
destra	-9.57528
pur	-9.579
uscit	-9.58002
mod	-9.58045
libr	-9.58184
peccat	-9.58331
present	-9.58395
at	-9.58501
avan	-9.58984
cento	-9.59019
bas	-9.59405
venir	-9.59436
và	-9.5949
ur	-9.59591
dono	-9.59771
allo	-9.60004
comp	-9.60365
manger	-9.60448
malvagi	-9.60734
lato	-9.60939
spi	-9.61073
h	-9.61195
amore	-9.6193
mori	-9.61994
terz	-9.62024
ordinat	-9.62309
misericordi	-9.62419
cavall	-9.62447
empi	-9.62459
fin	-9.6249
torn	-9.62494
tori	-9.62768
anch	-9.62789
morti	-9.62852
mila	-9.63003
presenz	-9.63233
cad	-9.63421
idol	-9.63429
oggett	-9.63741
discende	-9.63853
simil	-9.64464
giovann	-9.64712
tale	-9.64924
nostra	-9.65434
alber	-9.65522
preso	-9.6618
sapien	-9.66236
assal	-9.6638
ministr	-9.66479
elia	-9.66791
dan	-9.66935
numero	-9.66949
giudizi	-9.67061
avev	-9.67191
alza	-9.67272
orient	-9.67621
tali	-9.68044
frutt	-9.68165
possesso	-9.68252
fium	-9.68262
zz	-9.68391
sap	-9.68501
cerca	-9.68504
tri	-9.68849
sabat	-9.68867
man	-9.69043
bet	-9.69233
mar	-9.69282
morire	-9.69381
region	-9.69479
trov	-9.69512
padrone	-9.69679
saggi	-9.70179
giudic	-9.70316
senti	-9.70464
moab	-9.70612
testimonianz	-9.70699
guarda	-9.71249
lio	-9.71616
tende	-9.71757
mer	-9.71767
compi	-9.72049
timor	-9.72071
dare	-9.72206
mette	-9.72722
men	-9.73039
scelt	-9.73193
esser	-9.73256
voglio	-9.73385
maestr	-9.73528
certo	-9.73728
diritt	-9.73895
lascia	-9.74233
parlar	-9.74237
beniamin	-9.7433
bambin	-9.74446
piccol	-9.74446
tron	-9.74522
pal	-9.74565
,	-9.7478
marit	-9.75281
pian	-9.75326
folla	-9.75471
dom	-9.75714
appen	-9.75733
convegn	-9.75734
letto	-9.76184
pose	-9.762
valle	-9.77709
subit	-9.77727
costu	-9.77752
gno	-9.77861
vento	-9.78094
nato	-9.782
accampament	-9.78778
dur	-9.7887
render	-9.79016
rovina	-9.7903
muel	-9.79495
sicl	-9.79578
territori	-9.80368
cci	-9.80465
uscì	-9.80497
colp	-9.80536
confin	-9.80545
bere	-9.80775
lingua	-9.80791
prendi	-9.81349
baal	-9.81574
mura	-9.81631
sera	-9.81802
promess	-9.82302
ripos	-9.82316
son	-9.82554
sem	-9.82617
state	-9.82801
offri	-9.82902
ura	-9.83005
bar	-9.83046
mmo	-9.83474
tr	-9.83678
legn	-9.83688
tenebr	-9.83819
volte	-9.83881
denar	-9.83889
gerem	-9.84055
dagli	-9.84067
bell	-9.84172
mon	-9.84346
espiatori	-9.84524
rimase	-9.84579
rivolta	-9.84824
sorte	-9.8489
possa	-9.84939
alto	-9.85119
entra	-9.85157
segui	-9.85587
venga	-9.85669
preghier	-9.85946
benedett	-9.86041
neppur	-9.86057
date	-9.86108
zi	-9.86256
utto	-9.86468
isacc	-9.86829
costo	-9.86908
prova	-9.86974
stolt	-9.87183
zia	-9.87381
agit	-9.87636
forte	-9.88192
cr	-9.88232
prest	-9.88282
san	-9.88573
onore	-9.88826
montagn	-9.88854
cambi	-9.88862
altre	-9.88894
settentrion	-9.89595
ezechi	-9.89597
santi	-9.89699
cib	-9.89904
passat	-9.90063
primogenit	-9.90406
volto	-9.90525
mattin	-9.90831
aspett	-9.90953
qualcun	-9.91114
asin	-9.91174
ze	-9.9126
rende	-9.91322
forma	-9.91423
dietr	-9.91448
pure	-9.91845
profum	-9.92035
segu	-9.92066
ariet	-9.92337
gàla	-9.92355
riferi	-9.92516
uccider	-9.92562
sero	-9.92612
inter	-9.92736
pass	-9.93089
rito	-9.93257
pecore	-9.93383
condusse	-9.93383
ach	-9.93511
samari	-9.93707
avver	-9.93864
oab	-9.93997
cas	-9.94002
manàss	-9.94159
decret	-9.9416
anima	-9.94194
pensa	-9.94269
stanz	-9.94284
festa	-9.94367
vivent	-9.94415
domand	-9.94447
raduna	-9.94588
fo	-9.9467
partor	-9.94692
ascolt	-9.94719
fat	-9.94807
dor	-9.94901
cura	-9.9492
ntro	-9.95222
prendere	-9.95482
sorell	-9.95734
part	-9.9587
trovato	-9.9593
offr	-9.95948
stra	-9.96006
torna	-9.96495
faceva	-9.96521
nascost	-9.96523
poc	-9.96918
vision	-9.97118
entrar	-9.97225
campagn	-9.97321
scrib	-9.97337
rimane	-9.97337
battagli	-9.97345
ari	-9.9762
tratt	-9.97631
zer	-9.97853
amat	-9.97864
gra	-9.97957
commess	-9.97999
andate	-9.98372
olo	-9.98704
mari	-9.98833
ammonit	-9.9894
ricchezz	-9.9894
distrugger	-9.98972
trenta	-9.99099
crede	-9.9918
cammina	-9.99314
carri	-9.99324
porr	-9.99496
ìa	-9.99629
consacrat	-9.99656
uccise	-9.9976
nto	-9.99761
assiri	-9.99862
fà	-10.0028
anti	-10.0058
tromb	-10.0059
egizian	-10.0059
grass	-10.008
parlato	-10.0081
dani	-10.0104
oblazion	-10.0142
zio	-10.0143
giunse	-10.0143
fior	-10.0152
vecchi	-10.0157
ordin	-10.017
messagger	-10.0226
por	-10.026
pascoli	-10.0266
prende	-10.0272
seguito	-10.0273
besti	-10.0303
ingress	-10.0311
giònat	-10.0311
pratica	-10.0327
bracci	-10.0374
viv	-10.0374
onne	-10.039
assemble	-10.0396
polver	-10.0396
preser	-10.0427
abomini	-10.0482
sepolcr	-10.0482
speranz	-10.0492
manda	-10.0498
sdegn	-10.0504
sali	-10.0525
ascoltate	-10.0532
prossim	-10.057
distrutt	-10.0577
chiama	-10.0597
colonn	-10.0601
incens	-10.0635
assi	-10.0636
sappia	-10.0643
esa	-10.0645
dev	-10.0648
rifugi	-10.0658
bbe	-10.0696
accor	-10.0722
tti	-10.0722
fer	-10.0733
settim	-10.074
giovani	-10.0746
paura	-10.0749
ingann	-10.0755
concess	-10.0773
leggi	-10.0783
ferma	-10.0816
bala	-10.0819
ud	-10.0832
fanciull	-10.0835
abbonda	-10.0835
giovane	-10.0835
fame	-10.0842
case	-10.085
getta	-10.0897
empio	-10.0939
giur	-10.096
qua	-10.0966
vergogna	-10.0979
saret	-10.0995
duran	-10.0996
attravers	-10.1016
ricevut	-10.1019
cess	-10.1021
gett	-10.1062
acaz	-10.1062
trovava	-10.1069
elis	-10.1079
sarò	-10.1083
principi	-10.1108
cat	-10.1111
miser	-10.1115
costruit	-10.1115
gar	-10.1117
vor	-10.1119
giusti	-10.1123
altur	-10.1145
veni	-10.1146
cinquanta	-10.1153
potente	-10.1159
quaranta	-10.1184
villaggi	-10.12
compiut	-10.1212
finit	-10.1215
fuggi	-10.1228
labbr	-10.123
abita	-10.1248
asse	-10.1254
stermin	-10.126
colpa	-10.1263
udi	-10.1271
pover	-10.1294
sventura	-10.132
saper	-10.1358
giunge	-10.1359
sser	-10.1374
ssi	-10.1379
mille	-10.1394
batt	-10.1414
salva	-10.1429
scese	-10.1437
ritorn	-10.1446
bà	-10.1454
uccelli	-10.1458
lode	-10.1472
dolor	-10.1482
menzogn	-10.1483
cadaver	-10.1493
lech	-10.1504
accampa	-10.1518
offrire	-10.1521
tocc	-10.1532
giovenc	-10.1541
venut	-10.1554
doni	-10.156
òn	-10.1576
dinanz	-10.1595
is	-10.1641
consigli	-10.1661
cos	-10.1671
torrent	-10.1677
pastor	-10.1677
bronz	-10.1684
cadut	-10.1684
stri	-10.1691
bal	-10.1693
custodi	-10.1704
preda	-10.1764
maschi	-10.1775
baston	-10.1775
diventat	-10.1775
riceve	-10.1776
avra	-10.1785
chiese	-10.1791
gat	-10.1801
armi	-10.1811
reggia	-10.1817
portato	-10.1819
vedi	-10.1821
passar	-10.1832
resta	-10.1858
lascer	-10.1873
gerobo	-10.1874
guai	-10.1885
fals	-10.1892
ppa	-10.1937
àr	-10.1941
ricord	-10.1942
bri	-10.1946
rvi	-10.1969
cattiv	-10.1975
sarebbe	-10.1979
ferm	-10.1987
viver	-10.1992
giunt	-10.2026
nna	-10.2038
radun	-10.204
fortezz	-10.2044
entrat	-10.2046
stabil	-10.2047
propria	-10.205
sola	-10.2066
piet	-10.2074
moment	-10.2094
prostra	-10.2094
testimoni	-10.211
annunzia	-10.2119
animal	-10.2129
agnell	-10.2156
az	-10.2167
prodigi	-10.2178
farise	-10.22
atri	-10.2253
occident	-10.228
favore	-10.228
gono	-10.2282
venuti	-10.2288
conosciut	-10.2289
chiamava	-10.2299
isce	-10.2344
indietr	-10.2345
piange	-10.2371
piena	-10.2384
angoscia	-10.2385
rimast	-10.2389
tan	-10.2395
dispers	-10.2396
colpit	-10.2402
diventer	-10.2407
lasci	-10.2442
bon	-10.2456
beni	-10.2475
andava	-10.249
orpora	-10.2498
tò	-10.254
ferr	-10.2551
rmi	-10.2556
ultim	-10.2595
beat	-10.2602
gad	-10.2603
eppur	-10.2617
obbedi	-10.2621
frutti	-10.2638
tras	-10.267
misura	-10.2678
costru	-10.2689
campi	-10.2702
ucciso	-10.2703
censi	-10.2719
sicur	-10.272
passi	-10.2721
terror	-10.2729
abitava	-10.2738
prostr	-10.2754
dica	-10.2754
calde	-10.2755
ione	-10.2779
canto	-10.2783
riscatt	-10.28
preparat	-10.2802
person	-10.2815
terr	-10.2816
vuol	-10.2834
acab	-10.2844
cominci	-10.2849
avvicina	-10.2858
comandat	-10.2875
mezzogiorn	-10.2878
mogli	-10.2891
vivo	-10.2911
perenn	-10.2923
felic	-10.2923
quart	-10.2924
vangel	-10.2926
conced	-10.2941
alzati	-10.2955
metti	-10.2968
canaa	-10.2974
avut	-10.2993
guardi	-10.3013
data	-10.3014
ossa	-10.3017
mantell	-10.3033
prezios	-10.3033
dì	-10.3046
conoscere	-10.3075
sazi	-10.3078
priv	-10.3078
nub	-10.308
arriva	-10.3099
ascoltato	-10.3101
erba	-10.3101
discendent	-10.3111
sald	-10.3123
ban	-10.313
sai	-10.3134
settanta	-10.3145
gàba	-10.3145
temere	-10.3153
he	-10.316
risponde	-10.3179
convoc	-10.3186
colpir	-10.3208
cato	-10.3214
offrir	-10.3227
spin	-10.3229
vuo	-10.323
scono	-10.3246
facendo	-10.3259
avversari	-10.3259
vedendo	-10.3264
vista	-10.3267
costruir	-10.3281
àm	-10.3291
manca	-10.3298
resti	-10.3335
ggio	-10.3346
prì	-10.3373
nabucod	-10.3374
cherubin	-10.3374
pelle	-10.3375
tavola	-10.3375
amorre	-10.3376
giò	-10.3395
angeli	-10.3399
coro	-10.3407
fiss	-10.3415
buo	-10.3415
mattina	-10.3417
tam	-10.3421
partire	-10.3466
reso	-10.3488
vengo	-10.3488
compagn	-10.349
zze	-10.357
riva	-10.3574
allontan	-10.3578
giurat	-10.3581
parlava	-10.3585
uto	-10.3594
salì	-10.36
stabilito	-10.36
grazie	-10.3607
portar	-10.3608
forestier	-10.3608
sommo	-10.3614
devo	-10.3614
spe	-10.3639
sape	-10.3644
proclam	-10.3655
pront	-10.366
manifest	-10.3662
arriv	-10.3665
nati	-10.368
libera	-10.3687
udire	-10.3706
bel	-10.3724
dite	-10.3726
seppelli	-10.3727
largh	-10.3729
punt	-10.3739
divora	-10.3742
tien	-10.3747
nud	-10.3748
god	-10.3765
piogg	-10.3799
comincia	-10.3807
conosco	-10.383
sorge	-10.3832
tranquill	-10.3847
condanna	-10.3848
avendo	-10.3853
copp	-10.3863
otto	-10.3865
circ	-10.3872
apostol	-10.3898
seguire	-10.3904
mostra	-10.3946
vigna	-10.3968
pasqua	-10.397
retto	-10.4001
domanda	-10.401
inviat	-10.4013
veste	-10.4044
presi	-10.4055
tato	-10.4064
scriv	-10.4071
vestit	-10.4076
desideri	-10.4093
dò	-10.4094
iniqu	-10.4101
liba	-10.4105
tropp	-10.4106
giunto	-10.4119
agnelli	-10.4123
sagg	-10.4123
veniva	-10.4129
ritorna	-10.4135
dura	-10.414
aram	-10.4143
gettato	-10.415
stabilir	-10.4151
copert	-10.4153
pone	-10.4161
scor	-10.4168
molte	-10.4193
lasciar	-10.4197
fatta	-10.4206
abbandonato	-10.4214
caric	-10.4214
ebron	-10.4217
pagan	-10.4219
attorn	-10.4219
lunghe	-10.4221
zion	-10.424
conto	-10.4255
acces	-10.4261
consegn	-10.428
scender	-10.4282
simon	-10.4289
ger	-10.4298
sso	-10.4302
insegna	-10.4327
lì	-10.4335
governator	-10.4344
cadde	-10.4345
comandament	-10.4347
benedizion	-10.435
occup	-10.4377
velo	-10.445
circoncisi	-10.4458
capr	-10.4465
salut	-10.4471
lontà	-10.4473
canane	-10.4477
bile	-10.4502
arame	-10.4513
fugg	-10.4532
preg	-10.454
liberat	-10.4579
arco	-10.4593
avere	-10.4595
piomb	-10.4602
stirpe	-10.4602
galile	-10.4603
sinistr	-10.4603
vittim	-10.4604
decimo	-10.4613
ngo	-10.4638
profond	-10.4653
mander	-10.4653
tornar	-10.4681
pegn	-10.4683
bor	-10.4692
giardin	-10.4734
rispost	-10.4736
prigionier	-10.474
intelligen	-10.475
mes	-10.4759
trover	-10.4763
passer	-10.4781
sollev	-10.4802
secol	-10.4805
vede	-10.4824
viaggi	-10.4856
innalz	-10.486
avre	-10.486
principe	-10.4867
soffi	-10.4867
lancia	-10.4867
rallegr	-10.4869
leone	-10.4895
vent	-10.4903
stare	-10.4906
scud	-10.495
rib	-10.4958
reca	-10.4963
retti	-10.4968
rim	-10.4979
rebbe	-10.4984
letter	-10.5002
acquist	-10.5002
innocent	-10.5002
addoss	-10.5002
umili	-10.5008
anim	-10.5011
uccid	-10.5012
pieg	-10.5013
schiavi	-10.5014
possia	-10.5022
stell	-10.5028
spars	-10.5036
ombra	-10.5037
predica	-10.5063
edific	-10.5071
decim	-10.5073
cam	-10.5076
fil	-10.5101
messi	-10.5115
ruben	-10.5125
fai	-10.5125
viola	-10.5128
ieu	-10.5138
aià	-10.5138
consumat	-10.5139
vergin	-10.514
pensier	-10.514
castig	-10.5143
stes	-10.5167
spos	-10.5168
decis	-10.519
attacc	-10.5193
fann	-10.5194
prega	-10.5195
lamento	-10.5204
immol	-10.521
segni	-10.5227
cader	-10.5232
cors	-10.5234
tal	-10.5239
guardia	-10.5247
mosse	-10.5252
ricorda	-10.5255
assu	-10.5259
doman	-10.5263
atti	-10.527
orma	-10.5271
duecento	-10.5275
meravigli	-10.5278
volle	-10.5282
sogno	-10.5284
motiv	-10.5289
facci	-10.5302
negli	-10.5309
adora	-10.5329
sacri	-10.5332
risponder	-10.5377
conosci	-10.5407
sommi	-10.5417
dissi	-10.5418
violenz	-10.542
betel	-10.5421
muro	-10.5425
denti	-10.5427
piede	-10.5429
speci	-10.5435
vive	-10.5447
digiun	-10.5448
intern	-10.5502
sò	-10.5508
catene	-10.5519
doveva	-10.5546
maggior	-10.5563
avrebbe	-10.5569
nove	-10.5582
abbandona	-10.5597
spera	-10.5655
viva	-10.566
spalle	-10.5667
ferit	-10.5703
sepolt	-10.5707
fossa	-10.571
santa	-10.5723
salvat	-10.5724
abim	-10.5727
sale	-10.5734
cur	-10.5738
coller	-10.5748
strett	-10.5762
ritir	-10.5765
accan	-10.5801
insegui	-10.5839
nav	-10.5847
profan	-10.585
ordina	-10.5852
servire	-10.5854
accett	-10.5856
sichem	-10.5862
riempi	-10.5872
ricordat	-10.5883
tener	-10.5907
erico	-10.5978
ret	-10.5988
rami	-10.5989
nta	-10.5993
scienz	-10.6001
superstit	-10.6003
perfett	-10.6004
abitar	-10.6029
ricc	-10.6039
continua	-10.6041
libazion	-10.6053
collo	-10.6056
sguard	-10.6057
accad	-10.6061
presenta	-10.6085
consacr	-10.6092
portava	-10.6098
estremi	-10.611
uman	-10.6111
persona	-10.6115
continu	-10.6116
rup	-10.6125
saf	-10.6131
mettere	-10.614
caccia	-10.6142
rame	-10.6149
raccont	-10.6155
germogli	-10.6155
salmo	-10.6157
dichiar	-10.6169
gradit	-10.6172
stend	-10.6173
avesse	-10.6179
insult	-10.6182
vendett	-10.6184
rocci	-10.6209
usciva	-10.6213
tavole	-10.6229
misur	-10.6231
cen	-10.6233
scrittur	-10.6255
baci	-10.6265
abiter	-10.6268
allontana	-10.6279
siede	-10.6285
sces	-10.6297
apparve	-10.6308
moltitudin	-10.6308
sigill	-10.631
bisogno	-10.631
raccolt	-10.631
registrat	-10.6311
avvicin	-10.6319
piazz	-10.6321
essendo	-10.6323
alta	-10.6341
pani	-10.6341
abne	-10.6346
comprende	-10.6351
salvar	-10.6356
espia	-10.636
chius	-10.6367
toglier	-10.6373
amic	-10.6408
incontr	-10.641
fod	-10.6411
rifiut	-10.6434
prepara	-10.6441
inferi	-10.6441
fian	-10.6451
form	-10.6453
schiere	-10.6465
difett	-10.6469
notizi	-10.6469
tesori	-10.6469
adempi	-10.6479
poveri	-10.6493
mangiato	-10.6494
rimarr	-10.6497
ssim	-10.6503
fatica	-10.6505
rivolg	-10.6521
gelos	-10.6524
ester	-10.6526
volge	-10.6563
radic	-10.6574
confida	-10.6599
onora	-10.6618
sar	-10.6621
seduto	-10.6623
circonda	-10.6624
sedec	-10.6628
maledizion	-10.663
percoss	-10.6631
provinc	-10.6637
ragion	-10.6638
sessanta	-10.6648
consider	-10.6661
gua	-10.6674
salit	-10.6681
bruc	-10.6682
sposa	-10.6685
cint	-10.6694
miseri	-10.6698
angol	-10.6716
beve	-10.6723
vider	-10.6781
flagell	-10.6785
altissim	-10.6785
ginocchi	-10.6785
attent	-10.6788
spezz	-10.6794
trovar	-10.6797
braccia	-10.6827
posso	-10.6832
colli	-10.6854
amici	-10.6857
divis	-10.6871
cercate	-10.689
fondament	-10.6898
nubi	-10.6944
fiducia	-10.6949
prigione	-10.6949
splendor	-10.6949
dobb	-10.6949
ragazz	-10.6949
macchia	-10.6949
hittit	-10.6949
banchett	-10.6949
provoca	-10.6955
condurr	-10.6964
scere	-10.6971
partit	-10.6974
rivolt	-10.6987
numeros	-10.7009
sentier	-10.7028
vac	-10.7038
allontanat	-10.7052
interroga	-10.7053
gest	-10.7064
cedro	-10.7081
pezzi	-10.7082
proprie	-10.7082
amà	-10.7088
tratta	-10.7109
infedel	-10.7113
cammell	-10.7115
possied	-10.7115
segret	-10.7116
creato	-10.7116
schiera	-10.7117
miglior	-10.7119
sopport	-10.712
termin	-10.713
oppress	-10.7138
tornat	-10.7153
deportat	-10.7153
assedi	-10.7161
avanza	-10.7169
isai	-10.7173
ribell	-10.7178
lasciato	-10.7184
vedova	-10.7187
signor	-10.7189
dovu	-10.7207
giog	-10.7213
canti	-10.7219
talent	-10.7221
annunzi	-10.7223
combattere	-10.7248
potre	-10.7261
fianc	-10.7263
significa	-10.7285
mardoche	-10.7285
membr	-10.7285
schern	-10.7285
selvatic	-10.7285
damasc	-10.7285
giurament	-10.7287
tolt	-10.731
superbi	-10.7351
pascol	-10.7352
seicento	-10.7362
potent	-10.7368
natan	-10.7369
tiro	-10.7405
lasciat	-10.7407
brucia	-10.7409
sacc	-10.7439
oscur	-10.744
mà	-10.7442
diventa	-10.7443
carr	-10.7445
accosta	-10.7445
tenta	-10.7456
addorment	-10.7457
superior	-10.7457
parent	-10.7465
botti	-10.7469
elea	-10.7479
tira	-10.7481
furor	-10.749
colloc	-10.7497
estrem	-10.751
mangi	-10.7537
chiamar	-10.7564
um	-10.7569
presa	-10.7578
stese	-10.7585
ascoltar	-10.7598
pianto	-10.7615
serve	-10.7625
aggiunse	-10.7627
precett	-10.7633
afferr	-10.7633
onnipoten	-10.7633
fretta	-10.7634
erava	-10.7636
salire	-10.7638
regin	-10.764
scamp	-10.7662
ordini	-10.7665
supplica	-10.7667
rotol	-10.7668
bruciat	-10.767
petto	-10.7693
purifica	-10.7713
semina	-10.7717
procur	-10.7721
apert	-10.7735
tant	-10.7775
devastat	-10.7777
zeb	-10.7783
accoglie	-10.7805
dottrin	-10.7811
ismael	-10.7811
risuscitat	-10.7811
vitell	-10.7811
benevole	-10.7812
accusa	-10.7813
etiop	-10.7817
perire	-10.7817
maledett	-10.7832
abiti	-10.7839
osserver	-10.784
coprir	-10.7843
sub	-10.7868
strapp	-10.7891
sacro	-10.79
compier	-10.7901
peste	-10.7902
inizi	-10.7906
benedisse	-10.7914
stender	-10.7914
valoros	-10.7921
rra	-10.793
rendi	-10.7935
guardate	-10.796
bianc	-10.799
betlemm	-10.7993
zaccari	-10.7993
frontier	-10.7994
vigne	-10.7994
gust	-10.7995
concep	-10.7995
ufficial	-10.8001
abiss	-10.801
apri	-10.8019
scorre	-10.8046
aperto	-10.8049
attend	-10.8059
divorer	-10.8084
chiude	-10.8093
sentit	-10.8095
disprezzat	-10.8132
portaron	-10.8145
itù	-10.8148
ribelli	-10.8151
vanta	-10.8161
zaro	-10.8176
appartien	-10.8178
cavalier	-10.8178
lampad	-10.8178
scuot	-10.8178
ardente	-10.8178
palazz	-10.8178
conduce	-10.8178
vittori	-10.8178
median	-10.8185
profetizza	-10.8186
tenut	-10.819
generat	-10.8195
esulta	-10.8195
luog	-10.8196
bagn	-10.8216
fuggit	-10.8216
corona	-10.823
sorta	-10.8233
possede	-10.824
rocc	-10.8243
cresc	-10.8255
guida	-10.8261
pens	-10.8264
armat	-10.8291
atana	-10.8303
divin	-10.8304
riprese	-10.8314
quint	-10.8317
disprezza	-10.8321
amen	-10.8325
pilat	-10.8329
trecento	-10.8333
arred	-10.8355
coraggio	-10.8367
difes	-10.8371
pozz	-10.8372
asso	-10.8373
consegnato	-10.8374
vuot	-10.8375
ammi	-10.838
quarant	-10.84
niente	-10.8405
quattrocento	-10.8407
for	-10.8413
second	-10.8414
kì	-10.8423
legat	-10.8427
domina	-10.8432
lot	-10.8447
descritt	-10.8481
spiega	-10.8483
portate	-10.8491
vende	-10.8523
veglia	-10.8523
forti	-10.8533
leon	-10.8545
forn	-10.8545
scacci	-10.8551
guard	-10.8554
rub	-10.8555
prodott	-10.8559
medesim	-10.8559
ridott	-10.856
azzim	-10.856
zà	-10.8565
nèf	-10.8569
stima	-10.8574
cortil	-10.8577
simeon	-10.8578
▁"	-10.8584
voglia	-10.859
recint	-10.8607
riferit	-10.8614
zab	-10.8618
volt	-10.8636
toccat	-10.8646
ricad	-10.8655
riconosce	-10.8666
fec	-10.8682
perdona	-10.8685
grad	-10.8685
gross	-10.8702
numerosi	-10.8719
ioia	-10.8727
larg	-10.8745
candelabr	-10.8755
patern	-10.8755
conserva	-10.8755
bulon	-10.8755
frecc	-10.8756
autori	-10.8756
piaga	-10.8756
temete	-10.8758
integr	-10.8758
omicid	-10.8762
muove	-10.8764
primizi	-10.8764
prendete	-10.8774
primi	-10.8784
robo	-10.88
terren	-10.8803
prepar	-10.8817
risu	-10.8821
svegli	-10.8838
cercava	-10.884
dirgli	-10.8845
latte	-10.8881
tesor	-10.8881
attes	-10.8889
retta	-10.8918
spezzat	-10.8949
spavent	-10.8954
colpevole	-10.8955
orgoglio	-10.8955
desidera	-10.8955
parabol	-10.8955
pazien	-10.8955
destinat	-10.8955
serpent	-10.8955
desolazion	-10.8956
spavento	-10.8957
guerrier	-10.8957
annunziato	-10.8975
cintur	-10.9008
zad	-10.9011
credi	-10.9014
ebre	-10.903
soldat	-10.9051
chies	-10.9058
benedir	-10.9069
unic	-10.9074
arab	-10.9089
trema	-10.9094
giudicat	-10.9109
scarlatt	-10.9159
compassione	-10.9159
riparazion	-10.9159
azaria	-10.9159
lizia	-10.9163
confusi	-10.9164
costituit	-10.9164
marcia	-10.9165
discors	-10.9176
portic	-10.9177
brucer	-10.9178
guarit	-10.9181
lacci	-10.9183
barca	-10.9188
sterminat	-10.9196
chieder	-10.92
ttene	-10.9215
torner	-10.9235
andati	-10.9238
stepp	-10.9249
seguir	-10.9252
andato	-10.926
peccator	-10.9268
combatte	-10.9282
capro	-10.9343
prezzo	-10.9348
statu	-10.9351
tando	-10.9361
vado	-10.9365
aggiung	-10.9368
agguat	-10.9368
sconfisse	-10.9368
prostitut	-10.9368
rimprover	-10.9368
immagin	-10.9368
govern	-10.9368
mizp	-10.9369
volut	-10.9372
desolat	-10.9372
raccoglie	-10.9374
agisc	-10.9377
gheb	-10.9378
iadà	-10.9389
toglie	-10.9391
altezz	-10.9392
antichi	-10.9393
sapeva	-10.9402
fama	-10.9404
commette	-10.9415
passava	-10.9431
soav	-10.9441
strugg	-10.9462
sorgent	-10.9463
commettere	-10.9466
ascolter	-10.9466
sabea	-10.9477
inoltr	-10.9521
giovine	-10.9531
dovre	-10.9533
biss	-10.9535
avven	-10.954
stanc	-10.9543
madian	-10.9566
pianta	-10.9573
produc	-10.9581
opprime	-10.9581
keat	-10.9583
caresti	-10.9585
dimentica	-10.9609
rifer	-10.9618
sacar	-10.962
accost	-10.9625
achis	-10.9628
vedo	-10.965
capell	-10.9651
tribut	-10.9672
cava	-10.9679
ricerca	-10.9691
naba	-10.9706
fam	-10.971
duemila	-10.9718
flu	-10.9747
crescer	-10.9775
lebbr	-10.9785
attenzion	-10.9798
sconfitt	-10.9798
guadagn	-10.9798
riferisci	-10.9798
orfan	-10.9799
carcer	-10.98
ricchi	-10.98
indoss	-10.9804
rrezion	-10.9807
stabilit	-10.9811
sài	-10.9812
vigor	-10.9813
calic	-10.9819
tramont	-10.9819
spunt	-10.982
adulter	-10.9822
abbandon	-10.9859
gliel	-10.9859
malat	-10.9859
nghe	-10.9905
credent	-10.9915
fru	-10.9933
spetta	-10.9944
abbi	-10.997
oppo	-10.9988
archi	-10.9998
abbatter	-11.0019
successo	-11.002
inciamp	-11.002
fiamme	-11.002
tribolazion	-11.002
necessari	-11.002
debole	-11.002
resister	-11.0021
salari	-11.0023
annient	-11.0024
recò	-11.0028
cesar	-11.0033
punir	-11.0034
accadut	-11.004
ppur	-11.0041
esiste	-11.0076
potra	-11.0087
pesci	-11.0092
piace	-11.0096
volet	-11.0102
ief	-11.0123
oriental	-11.0167
nadà	-11.0181
presentaron	-11.0186
dimenticat	-11.0218
kiriat	-11.0247
precipit	-11.0247
strument	-11.0247
uccisi	-11.0247
percuot	-11.0248
venivan	-11.0248
migliai	-11.025
minut	-11.025
conquist	-11.0276
liet	-11.0283
impur	-11.0287
poser	-11.0326
cener	-11.0326
affid	-11.033
parler	-11.0336
pronunzi	-11.0363
pecca	-11.0364
sacra	-11.0371
stà	-11.0373
senn	-11.0377
fet	-11.038
posson	-11.0422
devast	-11.0434
rzo	-11.0442
posta	-11.0446
celebr	-11.0448
impost	-11.0452
mietit	-11.0459
sinagog	-11.0467
gira	-11.0467
occas	-11.0475
colomb	-11.048
conclus	-11.048
violent	-11.048
sovr	-11.048
peggio	-11.048
norme	-11.0481
anani	-11.0481
arrivat	-11.0482
vaso	-11.0487
abbattut	-11.0488
perdut	-11.0492
lievit	-11.0496
scur	-11.0542
sans	-11.0553
indovin	-11.0568
pezz	-11.0569
contaminat	-11.057
insegnament	-11.0578
condizion	-11.0599
abbandonat	-11.06
riuscir	-11.0603
rosso	-11.0603
ottav	-11.0628
confid	-11.0635
gede	-11.064
cetr	-11.0651
trattat	-11.0652
cert	-11.068
scende	-11.0683
risparmi	-11.0718
prenda	-11.0719
esclam	-11.0721
rumore	-11.0722
giudicher	-11.0723
izre	-11.0725
andiamo	-11.0726
grave	-11.0728
avvenne	-11.0743
cancell	-11.0751
sosten	-11.0753
corna	-11.0759
salvator	-11.0764
giubil	-11.0767
pazz	-11.077
sappiate	-11.0771
ruot	-11.0779
gen	-11.0781
finestr	-11.0789
letti	-11.0793
gàl	-11.0805
sacerdo	-11.0809
futur	-11.0815
potevan	-11.0837
poteva	-11.0844
seb	-11.0866
mostrat	-11.0885
aquil	-11.0889
util	-11.0921
uria	-11.0937
culto	-11.0959
filipp	-11.0962
gherson	-11.0962
quattordici	-11.0962
credut	-11.0962
abbatt	-11.0962
terribil	-11.0962
raccoglier	-11.0963
punit	-11.0965
merari	-11.0965
partecip	-11.0966
tomb	-11.0966
tagliat	-11.0976
purificat	-11.0978
class	-11.0985
demò	-11.0991
fissat	-11.1007
suocer	-11.1009
rivest	-11.1013
fumo	-11.1036
abit	-11.1077
solit	-11.1097
calpest	-11.1099
seguiva	-11.1147
combatt	-11.1182
stup	-11.1182
destr	-11.1186
sottomess	-11.1201
divorat	-11.1206
cistern	-11.1212
concubin	-11.1212
soggiunse	-11.1212
distribu	-11.1212
minaccia	-11.1212
sparge	-11.1212
trafitt	-11.1212
lacrim	-11.1213
rovine	-11.1213
ciec	-11.1222
massa	-11.1229
esort	-11.1233
mostrer	-11.1243
fico	-11.1264
osserv	-11.1293
pugn	-11.13
lingu	-11.1308
progett	-11.1338
guar	-11.1343
rivelat	-11.1348
limit	-11.1352
scacciat	-11.1369
font	-11.137
porzion	-11.1424
colm	-11.1434
giaco	-11.1435
gremb	-11.1468
afflitt	-11.1468
rispetto	-11.1468
croce	-11.1469
cittadin	-11.1469
potrebbe	-11.1472
mister	-11.1474
risult	-11.1479
fortific	-11.1481
ridurr	-11.1481
ugual	-11.149
fossi	-11.149
partorit	-11.1498
monton	-11.1513
gioisc	-11.1519
canna	-11.1521
piacer	-11.153
arment	-11.1532
guarir	-11.1538
centotrenta	-11.1541
manifestat	-11.1542
estern	-11.1548
lavorat	-11.1562
perdonat	-11.1563
alzate	-11.157
vò	-11.1577
piant	-11.1587
basta	-11.1601
istant	-11.1604
abitat	-11.1617
affidat	-11.1637
fichi	-11.1642
considerat	-11.1669
titudin	-11.1674
saliva	-11.1679
finir	-11.1697
cercher	-11.1704
crocifiss	-11.1731
gebuse	-11.1731
appunt	-11.1732
discut	-11.1732
protegg	-11.1732
forze	-11.1732
affann	-11.1732
seir	-11.1733
esili	-11.1735
cerchi	-11.1739
conged	-11.1763
mettete	-11.1768
onache	-11.1789
vedete	-11.1793
credete	-11.1795
gettat	-11.1798
formato	-11.1816
liberar	-11.1818
rester	-11.1834
giovench	-11.1839
consultar	-11.1843
interrog	-11.1843
spiegazion	-11.1854
guid	-11.1881
piantat	-11.1895
lecit	-11.1918
sedette	-11.193
canter	-11.1953
getter	-11.1955
teneva	-11.1972
quattromila	-11.1992
mòn	-11.1997
vendut	-11.2002
pecora	-11.2002
assegnat	-11.2002
uzzi	-11.2002
irrit	-11.2002
prescrizion	-11.2002
eliminat	-11.2003
bevand	-11.2004
intris	-11.201
chelk	-11.2011
suscita	-11.2012
frat	-11.2015
becc	-11.2025
dimore	-11.2027
sandal	-11.2037
accesso	-11.2048
ntì	-11.2049
avessi	-11.2058
alzato	-11.207
piatt	-11.2071
ventre	-11.2072
scriver	-11.2086
hadà	-11.2087
anat	-11.2105
foll	-11.2124
giudicar	-11.2129
cella	-11.2132
muor	-11.2154
compres	-11.2167
testimon	-11.2174
rabb	-11.2181
pregat	-11.2241
lavat	-11.2273
disposizion	-11.2279
doppi	-11.228
carissim	-11.228
trupp	-11.228
dolce	-11.228
giurar	-11.228
muoia	-11.228
caleb	-11.2281
tremila	-11.2281
cavern	-11.2284
seguent	-11.2284
voleva	-11.2285
triste	-11.2287
espert	-11.2287
rivolse	-11.229
portando	-11.2293
giona	-11.2307
riscattat	-11.2309
circoncis	-11.2312
cinquemila	-11.2321
legnam	-11.2321
scina	-11.235
.	-11.235
elim	-11.2351
eunuc	-11.2366
stoltezz	-11.2395
mess	-11.2399
moabit	-11.2401
torment	-11.2425
fatte	-11.2425
cerc	-11.2455
pelli	-11.2463
osservato	-11.249
rivel	-11.2493
pianse	-11.2495
fel	-11.2497
nasconder	-11.2506
soddisf	-11.2514
voler	-11.2522
rossa	-11.2534
santific	-11.2547
votat	-11.2554
umiliat	-11.2557
improvvis	-11.2565
kades	-11.2565
dipendenz	-11.2565
miracol	-11.2565
meridion	-11.2565
disperder	-11.2566
agire	-11.2567
perseguita	-11.2567
stracci	-11.2567
estrane	-11.2568
volse	-11.2573
domini	-11.2578
obbedit	-11.2578
sapendo	-11.2579
malatti	-11.2589
cantor	-11.2592
corni	-11.2608
prosper	-11.2614
frod	-11.2619
ebbi	-11.2628
annunziar	-11.2628
consiglier	-11.2629
amazi	-11.2644
safà	-11.2672
tenne	-11.269
venticinque	-11.2692
cerv	-11.2712
romp	-11.2749
consult	-11.2755
centocinquanta	-11.2812
abominevol	-11.2859
prostituzion	-11.2859
fiamma	-11.2859
scrisse	-11.2859
ricompensa	-11.2859
vantaggio	-11.286
affrett	-11.286
obed	-11.2863
antenat	-11.2863
ciech	-11.2863
scongiur	-11.2866
fron	-11.2868
basso	-11.2886
restaur	-11.2894
mater	-11.2902
rivestit	-11.2908
caza	-11.2912
chesb	-11.2957
trasport	-11.2973
cercar	-11.2974
chiest	-11.2977
maest	-11.2979
glorific	-11.2986
sante	-11.2999
appars	-11.3018
avvicinar	-11.3027
riuni	-11.3034
disprezz	-11.3037
fall	-11.3043
rach	-11.305
assis	-11.305
delitt	-11.3057
costruzion	-11.307
raggiunger	-11.309
coric	-11.3096
achim	-11.3098
stacc	-11.3107
rut	-11.3131
focacc	-11.3138
riunit	-11.3144
bes	-11.316
proposit	-11.3162
sciagur	-11.3162
deposit	-11.3162
stringe	-11.3163
diffond	-11.3163
ripet	-11.3165
fragor	-11.3166
sdra	-11.3166
coscienz	-11.3168
profanato	-11.3171
vicend	-11.3172
bot	-11.3173
popolazion	-11.318
raf	-11.3181
dammi	-11.3183
carni	-11.3191
consolat	-11.3198
operato	-11.3202
colpisc	-11.3204
erod	-11.3208
raggiung	-11.321
vedeva	-11.3229
simei	-11.323
tamar	-11.3256
centoventi	-11.3261
valor	-11.3296
invitat	-11.3303
ffa	-11.3307
razza	-11.3315
pronunziat	-11.3318
versat	-11.3323
abitan	-11.3339
muto	-11.336
celebrar	-11.3363
ritorner	-11.3363
levato	-11.3365
assù	-11.3372
volgi	-11.3426
battent	-11.3442
direzion	-11.3458
pongo	-11.3473
bestemmia	-11.3475
bevut	-11.3475
spazio	-11.3475
accende	-11.3475
sincer	-11.3475
credette	-11.3475
pruden	-11.3475
acquistat	-11.3475
uliv	-11.3476
dòn	-11.3476
saputo	-11.3477
sentenz	-11.3477
aument	-11.3477
occorr	-11.3479
idume	-11.3479
maaca	-11.3483
pagher	-11.349
settiman	-11.3495
eresse	-11.3497
scopert	-11.3507
seminato	-11.3515
coste	-11.352
faret	-11.3524
sping	-11.3544
abba	-11.3592
esalt	-11.361
bbro	-11.3617
gridava	-11.3618
passion	-11.3629
riversa	-11.3635
predic	-11.3678
nemm	-11.3689
custodisc	-11.3707
pregar	-11.3726
volger	-11.3726
terminat	-11.3736
grandin	-11.3753
genito	-11.3785
▁...	-11.3797
divamp	-11.3797
mucchi	-11.3798
afferma	-11.3798
scruta	-11.3798
rispondi	-11.3798
giacigli	-11.3798
demolir	-11.3798
scudier	-11.38
scendon	-11.3803
replic	-11.3803
vedra	-11.3804
zerach	-11.3812
ricondurr	-11.3819
scoss	-11.3857
cinge	-11.3873
forest	-11.3915
band	-11.3919
vergogn	-11.3932
manten	-11.3967
ribellat	-11.3971
potut	-11.3992
contamina	-11.4002
istruzion	-11.4023
muover	-11.4117
fondo	-11.4123
schiacciat	-11.4131
sostegn	-11.4131
cresciut	-11.4131
difend	-11.4131
memoria	-11.4132
nazare	-11.4133
portier	-11.4133
lance	-11.4133
ebiat	-11.4133
celest	-11.4134
seguendo	-11.4135
ripudi	-11.414
precede	-11.4153
coperchi	-11.4159
ricostruir	-11.4164
predett	-11.4172
uccell	-11.422
avanz	-11.4261
mandar	-11.4266
debit	-11.4268
insegnar	-11.429
purificazion	-11.4296
andra	-11.4345
strappat	-11.4355
trent	-11.4368
scacciar	-11.4376
ricopr	-11.4399
alter	-11.4452
possibil	-11.4473
afflizion	-11.4476
magnific	-11.4476
volontari	-11.4476
minister	-11.4476
accompagna	-11.4476
malfattor	-11.4476
esamina	-11.4477
contrari	-11.4477
fabbrica	-11.4477
coppier	-11.4478
scaccer	-11.4478
toccher	-11.4482
carmel	-11.4483
ladro	-11.4484
presentar	-11.4484
rafforz	-11.4493
costruisc	-11.4496
barba	-11.4504
scoprir	-11.4504
ugu	-11.4505
infami	-11.4508
pendent	-11.4536
tolse	-11.4547
baas	-11.4572
sarem	-11.4592
nobil	-11.4594
moltiplica	-11.4614
scendeva	-11.4628
cessar	-11.4632
consegnar	-11.4637
kis	-11.4728
bruciar	-11.4758
impres	-11.4768
prati	-11.4803
bàt	-11.4812
interess	-11.4815
consegner	-11.4818
fondat	-11.4826
apparteneva	-11.4833
nascondi	-11.4833
obblig	-11.4833
frantum	-11.4833
martell	-11.4833
capitell	-11.4833
cantate	-11.4833
grupp	-11.4833
porgi	-11.4834
abbandoner	-11.4834
santissim	-11.4834
brecc	-11.4835
mission	-11.4835
rattrist	-11.4835
acaci	-11.4837
abbass	-11.4838
fecond	-11.4839
calcol	-11.4845
preferi	-11.4863
trui	-11.4865
camminar	-11.4872
raggiunse	-11.4949
battezza	-11.4955
vest	-11.4956
secca	-11.4965
santificat	-11.4966
mòt	-11.4977
spezzer	-11.4981
spall	-11.4987
riempit	-11.5004
confort	-11.5017
tunic	-11.5076
battezzat	-11.5084
uel	-11.5134
total	-11.516
ostant	-11.5174
dispost	-11.5187
ricev	-11.52
glorios	-11.5203
raccolse	-11.5203
tempesta	-11.5203
rapport	-11.5203
illumin	-11.5203
cavalca	-11.5204
ncipi	-11.5204
messaggi	-11.5206
circon	-11.5206
avvolto	-11.5212
querc	-11.5215
richiest	-11.5218
zeru	-11.5218
riparo	-11.522
stupit	-11.5225
drago	-11.5226
lavorava	-11.525
zopp	-11.5256
giustificat	-11.5262
tass	-11.5284
vedut	-11.5291
impadron	-11.5307
accord	-11.5324
zib	-11.5339
accia	-11.5343
indigen	-11.5375
sposat	-11.5379
ospit	-11.5386
saccheggi	-11.54
narr	-11.5422
proced	-11.5457
detest	-11.5458
milacinquecento	-11.5469
rivestir	-11.5469
saziat	-11.5479
distru	-11.5484
servitor	-11.5574
prime	-11.5582
fonder	-11.5586
magistrat	-11.5588
apparteng	-11.5588
femmin	-11.5588
esplorar	-11.5588
asciutt	-11.5588
veggent	-11.5589
vestibol	-11.5589
perdoner	-11.5589
croll	-11.559
scavat	-11.5591
benedici	-11.5591
stette	-11.5591
compiace	-11.5592
dovrebbe	-11.5592
salutate	-11.5594
complet	-11.5595
benedica	-11.5596
sfog	-11.5598
sterminar	-11.5601
immondezza	-11.5601
turbat	-11.5601
prendendo	-11.5605
innalzat	-11.5626
desist	-11.5638
paret	-11.565
cinquecento	-11.5684
manass	-11.5697
pettor	-11.5705
credo	-11.572
imped	-11.5727
amant	-11.5768
proclamar	-11.5825
attaccat	-11.5853
fost	-11.5862
costitu	-11.5872
esaud	-11.5885
trasportar	-11.5888
cessat	-11.5911
ritornat	-11.5931
virt	-11.5939
vince	-11.5955
mmensa	-11.5981
centurion	-11.5988
profezi	-11.5988
rovesci	-11.5988
figura	-11.5988
scompars	-11.5988
zorobab	-11.5988
affamat	-11.5988
diffus	-11.5988
tessut	-11.5988
arrogan	-11.5988
ornament	-11.5988
cuocer	-11.5988
seduti	-11.5988
diciotto	-11.5988
riflett	-11.5988
relativ	-11.5989
veleno	-11.599
tralci	-11.5991
malign	-11.5991
lemb	-11.5994
tumult	-11.5994
scoppi	-11.5994
baruc	-11.5996
orror	-11.6003
lebbros	-11.6014
generos	-11.6034
avvenut	-11.6039
pascolar	-11.6044
elif	-11.605
diventar	-11.6053
scop	-11.607
comportat	-11.6089
spacc	-11.6095
costituir	-11.6096
lavar	-11.6112
cedr	-11.6119
ribellion	-11.6157
vedov	-11.6167
aprir	-11.6171
affar	-11.6176
glorificat	-11.6227
timò	-11.6258
enzio	-11.6277
alzar	-11.6278
error	-11.6403
affett	-11.6404
bisogna	-11.6404
spogliat	-11.6404
centinai	-11.6404
rimanga	-11.6404
sofferenz	-11.6404
scioglier	-11.6404
battesim	-11.6404
spiritual	-11.6405
deboli	-11.6405
apparir	-11.6405
persevera	-11.6405
consolazion	-11.6405
intona	-11.6407
provved	-11.6408
impossibil	-11.6408
confess	-11.6408
caprett	-11.6408
succed	-11.6413
servirl	-11.6414
gemit	-11.6416
scaten	-11.6416
steril	-11.6422
misfatt	-11.6439
attira	-11.6442
minor	-11.6443
sapre	-11.6476
unisc	-11.651
infermi	-11.6519
prostrer	-11.6589
calpestat	-11.6606
gettar	-11.6667
cordon	-11.6677
immolat	-11.6755
invit	-11.6807
battut	-11.6837
spond	-11.6838
vendicato	-11.6839
inebriant	-11.6839
inghiott	-11.6839
riservat	-11.6839
irreprensibil	-11.6839
moltiplicher	-11.6839
sinedri	-11.6839
turbin	-11.6839
perizzit	-11.6839
scettr	-11.6839
eleàzar	-11.6839
raccomand	-11.6839
atting	-11.684
amalecit	-11.684
macedon	-11.684
scelse	-11.684
lucern	-11.6841
scendi	-11.6841
sadd	-11.6841
vassoi	-11.6841
incendi	-11.6843
carbon	-11.6844
fornac	-11.6844
trionf	-11.6844
maltratt	-11.6848
eliminer	-11.6849
correzion	-11.6851
convertit	-11.6851
sedeva	-11.6854
merita	-11.6862
invocat	-11.6863
sinagogh	-11.6864
susciter	-11.6864
falc	-11.6877
ricorder	-11.6885
inferior	-11.6911
ekr	-11.6921
pesant	-11.6928
convertir	-11.6956
venisse	-11.6967
premur	-11.7037
scampat	-11.7053
percorr	-11.7053
avvolg	-11.711
moltiplicat	-11.7113
contes	-11.7185
turba	-11.723
statut	-11.7233
pubblic	-11.725
sacrificar	-11.7294
splendid	-11.7294
capann	-11.7294
eufrat	-11.7294
timna	-11.7294
interpret	-11.7294
risposi	-11.7294
elka	-11.7295
venera	-11.7295
melagran	-11.7295
cavallett	-11.7296
vigila	-11.7297
efes	-11.7297
distrusse	-11.7297
kena	-11.7298
stipit	-11.7298
ritort	-11.7299
debb	-11.73
nuor	-11.7301
balsam	-11.7302
demoni	-11.7303
cortin	-11.7303
cittadell	-11.7303
sicch	-11.7306
cumul	-11.7308
contempl	-11.7311
tredic	-11.7316
tribunal	-11.7318
compens	-11.7323
madianit	-11.7328
amarezz	-11.7336
pubblican	-11.7337
mercant	-11.7356
beniaminit	-11.7378
nasconde	-11.7389
giovinett	-11.7402
pigr	-11.7429
sacch	-11.7468
tenete	-11.7481
samm	-11.7489
content	-11.7517
ottanta	-11.7538
feg	-11.7559
camminat	-11.7609
cinquant	-11.7616
edificat	-11.7639
giustifica	-11.7694
degna	-11.7725
peccar	-11.7729
sacre	-11.7751
accolt	-11.7764
bugiard	-11.777
folgor	-11.777
funzionari	-11.777
purificher	-11.777
appoggia	-11.777
designat	-11.777
bevve	-11.777
demolit	-11.777
esaminer	-11.777
imparat	-11.7771
restituir	-11.7771
sospir	-11.7771
arom	-11.7771
incaricat	-11.7771
argill	-11.7772
canestr	-11.7772
maggiordom	-11.7772
mattan	-11.7772
gonfi	-11.7772
dignit	-11.7773
cepp	-11.7773
brama	-11.7775
sconvolt	-11.7779
invidia	-11.778
pentol	-11.7799
decision	-11.78
piove	-11.7802
oppressor	-11.782
fuggiasc	-11.7828
prestit	-11.7844
tacer	-11.7857
patria	-11.7862
comandant	-11.7869
ripudiat	-11.7961
usat	-11.7974
saccheggiat	-11.8008
formar	-11.8017
pianter	-11.8077
carich	-11.8122
occupat	-11.814
tenga	-11.8176
intelligent	-11.8206
sdegnat	-11.8236
angosc	-11.8265
affilat	-11.827
ottenuto	-11.827
scandalizza	-11.827
calunnia	-11.827
quadrat	-11.827
distinguer	-11.827
individu	-11.827
striscia	-11.827
squill	-11.827
nazire	-11.827
spande	-11.827
nuvol	-11.827
breve	-11.827
conduci	-11.827
consumer	-11.8273
sparir	-11.8273
rivelazion	-11.8274
caston	-11.8277
machir	-11.8277
rinnov	-11.8279
fertil	-11.8282
somiglia	-11.8286
insultat	-11.829
brill	-11.8295
beff	-11.8297
sfuggir	-11.8309
ammass	-11.8333
diadem	-11.8339
dichiarat	-11.8399
sterminer	-11.8402
indicher	-11.8419
litigi	-11.8436
scomparir	-11.8492
commett	-11.8524
perder	-11.8556
comparire	-11.8568
sapient	-11.86
superb	-11.8605
macell	-11.8626
ritirat	-11.8682
rubat	-11.8692
risplend	-11.874
feste	-11.8793
(	-11.8796
succot	-11.8796
genealogi	-11.8796
solenni	-11.8796
libna	-11.8796
notabil	-11.8796
suppliche	-11.8796
zamp	-11.8797
prelever	-11.8797
conosca	-11.8797
flaut	-11.8798
indugi	-11.8799
aromatic	-11.8799
ringrazi	-11.8799
visibil	-11.88
trascors	-11.8802
produrr	-11.8806
allegr	-11.8809
impedit	-11.881
artist	-11.8828
sput	-11.8847
rifiutat	-11.8902
piaciut	-11.8932
tign	-11.8994
romper	-11.9004
aspr	-11.9076
esaltat	-11.9112
sentiment	-11.9164
curv	-11.9193
mettit	-11.9195
sazier	-11.9214
convert	-11.9241
guardat	-11.9287
sciac	-11.9302
rader	-11.9308
prigioni	-11.9323
scomparve	-11.9352
assassin	-11.9352
circoncider	-11.9352
corruttibil	-11.9352
ioiachì	-11.9352
offes	-11.9352
scandalo	-11.9352
appartenent	-11.9352
gazzell	-11.9352
proverbi	-11.9352
terremot	-11.9352
dormire	-11.9352
canàn	-11.9353
facesse	-11.9353
stendeva	-11.9354
infrant	-11.9356
vignaiol	-11.9356
amasà	-11.9358
trasgredit	-11.9359
favori	-11.9361
covon	-11.9362
adirat	-11.9362
fallac	-11.9372
oppression	-11.9399
fresc	-11.9404
turbant	-11.9411
esulter	-11.9415
guardar	-11.9557
celebrer	-11.9636
espost	-11.9685
annunzier	-11.9708
q	-11.9739
taglier	-11.9822
pienezz	-11.986
cembal	-11.994
grappol	-11.994
ignomini	-11.994
introdusse	-11.994
nefandezz	-11.994
noviluni	-11.994
plasmat	-11.994
squarci	-11.994
vendemmia	-11.994
prosciug	-11.994
acclamazion	-11.994
scellerat	-11.994
ubriach	-11.994
sorveglianz	-11.994
»	-12.0736
:	-12.3057
j	-12.6569
;	-12.7328
9	-12.7819
’	-12.9247
?	-13.2423
"	-13.8254
]	-15.3735
0	-15.3736
8	-15.3737
7	-15.3738
5	-15.3739
4	-15.374
3	-15.3741
)	-15.3742
2	-15.3743
6	-15.3744
1	-15.3745
!	-15.3746
'	-15.3747
}	-15.3747
