<pad>	0
</s>	0
<unk>	0
¦	-1.88128
▁¦	-2.4015
▁	-2.59644
ˈ	-2.60567
̈	-3.73224
𐋇	-3.92878
,	-3.97053
.	-4.28921
▁Comam	-4.4597
k	-4.61156
an	-4.65398
▁̈	-4.6759
▁naj	-4.79654
a	-4.81008
▁,	-4.90051
▁tu	-4.98521
▁ebnaj	-4.98732
e	-5.0146
▁yin	-5.03974
comam	-5.15026
naj	-5.31962
▁.	-5.32145
▁xin	-5.40436
tu	-5.4731
ti	-5.50942
o	-5.53984
▁caw	-5.54522
▁yul	-5.54538
c	-5.54872
ebnaj	-5.55365
yin	-5.56138
▁Dios	-5.68334
▁hune	-5.68569
to	-5.70179
j	-5.70824
▁yu	-5.73633
ul	-5.74648
n	-5.75002
▁ha	-5.79227
▁tet	-5.79639
caw	-5.81268
▁anma	-5.82013
▁ti	-5.83597
▁yeb	-5.84621
i	-5.86981
xin	-5.9404
ha	-5.97643
ni	-5.97762
▁tzet	-5.9965
ay	-6.01595
yul	-6.08799
▁mach	-6.10186
▁chi	-6.10415
ch	-6.10618
▁―	-6.12459
yet	-6.13487
yu	-6.14105
ab	-6.16079
en	-6.17416
▁ay	-6.17483
hune	-6.19583
▁yet	-6.20316
▁ẍi	-6.20375
al	-6.24436
:	-6.25251
▁isc	-6.25572
xa	-6.28008
chi	-6.28394
tet	-6.3142
ek	-6.31806
dios	-6.3282
▁haca	-6.35126
yeb	-6.35426
ob	-6.35548
ta	-6.35747
ˈ,	-6.35808
tzet	-6.36148
anma	-6.3808
▁is	-6.39664
il	-6.42954
on	-6.49372
▁mac	-6.51169
▁ch	-6.53034
▁Ha	-6.55921
paxo	-6.56131
tz	-6.57983
mach	-6.5853
no	-6.59346
is	-6.60901
▁c	-6.62393
yiban	-6.63182
isc	-6.63755
wal	-6.6538
u	-6.65433
▁isk	-6.656
▁tato	-6.65672
▁he	-6.66456
lax	-6.67168
co	-6.67338
▁ta	-6.67427
ulal	-6.69055
▁yuto	-6.69378
▁con	-6.71432
in	-6.71886
▁sunil	-6.71938
p	-6.7378
ẍi	-6.76359
▁isba	-6.77106
▁cat	-6.78088
oj	-6.78494
tic	-6.78732
bal	-6.79005
▁ix	-6.80199
we	-6.81744
▁sat	-6.83734
haca	-6.83758
▁ya	-6.84139
inal	-6.85658
▁:	-6.85668
▁hunt	-6.86643
ya	-6.88225
tx	-6.88366
watx	-6.90043
han	-6.90562
▁bey	-6.90669
▁Wal	-6.90826
mac	-6.91481
he	-6.91521
cano	-6.91955
▁yalni	-6.92185
can	-6.95065
s	-6.95787
▁hunu	-6.96182
wi	-6.96292
▁tx	-6.97249
sunil	-6.98441
ix	-6.99565
▁bay	-7.00199
▁Jesús	-7.00492
h	-7.01119
sat	-7.01985
tzoti	-7.0299
▁tz	-7.03105
te	-7.04229
▁chu	-7.04855
r	-7.04976
▁¿	-7.05062
yuto	-7.06021
yalni	-7.0652
yaj	-7.07619
ic	-7.08111
tato	-7.08545
ye	-7.09739
▁ye	-7.09871
isk	-7.10284
lo	-7.11542
con	-7.118
▁te	-7.13123
▁yaj	-7.1449
bil	-7.15912
▁Jesucristo	-7.1666
?	-7.16905
▁Caw	-7.17763
m	-7.21768
bey	-7.22689
▁“	-7.22785
▁yuxin	-7.23113
na	-7.23865
▁Yaj	-7.25956
yuxin	-7.26991
l	-7.27916
otx	-7.28759
▁machi	-7.30507
▁ayco	-7.30813
ayic	-7.30888
”	-7.31043
tinan	-7.32306
▁teyet	-7.32426
▁chal	-7.3267
hac	-7.33203
isba	-7.33285
cat	-7.33858
▁xol	-7.34156
▁hac	-7.35354
▁Hac	-7.3541
▁Is	-7.35678
ojal	-7.36057
w	-7.36076
hunt	-7.37115
tajil	-7.37512
ˈ:	-7.37914
▁co	-7.38073
▁cha	-7.38426
ca	-7.38478
▁wal	-7.39171
oc	-7.3918
ec	-7.39188
▁yal	-7.40777
ilo	-7.4092
atan	-7.42125
bay	-7.4244
▁Yuxin	-7.42793
ojan	-7.42888
▁yanma	-7.43843
el	-7.45325
▁no	-7.46935
▁in	-7.47965
▁Lahwi	-7.50348
b	-7.51064
iswatx	-7.51193
wa	-7.5232
ojab	-7.53423
hunu	-7.53551
▁Israel	-7.54786
cha	-7.54806
▁ischejab	-7.55245
ah	-7.56562
▁hex	-7.56824
chu	-7.58832
ba	-7.59439
▁yip	-7.59546
▁istx	-7.6011
▁yun	-7.6332
hayet	-7.63433
▁yoc	-7.63545
lahwi	-7.63652
satcan	-7.65068
▁Yalni	-7.66595
ayo	-7.68044
▁Yet	-7.68951
jesús	-7.69484
ahol	-7.70252
;	-7.70358
▁chin	-7.71054
hal	-7.71939
y	-7.72197
hex	-7.73045
yal	-7.73704
yalan	-7.73769
xol	-7.74074
pax	-7.74655
chon	-7.7562
▁chex	-7.75825
machi	-7.76133
ma	-7.7633
inan	-7.77835
▁―¿	-7.78554
ibn	-7.78709
chal	-7.79035
ej	-7.81765
▁isya	-7.82152
‐	-7.82478
la	-7.82838
ap	-7.83738
▁iswi	-7.84112
▁che	-7.8443
▁matxa	-7.85539
esucristo	-7.86009
yoc	-7.86443
ayco	-7.86686
lan	-7.87304
▁niman	-7.89766
teyet	-7.89766
ico	-7.90488
▁A	-7.90698
ayxaco	-7.91148
anil	-7.91601
▁ma	-7.91935
t	-7.92731
tan	-7.93222
▁yelapno	-7.93496
▁yatut	-7.93698
▁Pablo	-7.93766
ayto	-7.9488
▁Ay	-7.94957
▁heyanma	-7.95023
nich	-7.95196
▁C	-7.95747
▁heba	-7.9584
▁ebix	-7.96488
▁ton	-7.96626
▁?	-7.97998
▁yilal	-7.99071
mi	-7.99178
yo	-7.99853
yanma	-8.0032
amben	-8.00436
d	-8.02027
▁ec	-8.02673
▁lan	-8.03476
istan	-8.03496
▁yehi	-8.04532
ho	-8.05319
yip	-8.05842
▁texol	-8.06379
xan	-8.06861
apni	-8.07028
▁ixim	-8.07325
▁yilni	-8.0742
yun	-8.07543
▁han	-8.08078
israel	-8.08548
yi	-8.09411
▁yi	-8.09625
om	-8.09646
tojan	-8.09771
▁isto	-8.11013
istx	-8.11465
!	-8.11634
▁xa	-8.12203
ischejab	-8.12463
▁istz	-8.12652
▁sata	-8.12867
▁icham	-8.12969
▁yapni	-8.14127
waxan	-8.14297
mam	-8.14377
▁Yuto	-8.15288
▁maca	-8.16442
taj	-8.16465
▁chiwalan	-8.17457
chin	-8.17509
▁yahawil	-8.17696
▁isbi	-8.18114
▁iscuywom	-8.19064
▁Ta	-8.19154
le	-8.19293
anxa	-8.19557
▁chis	-8.20108
haxinwal	-8.20136
yanico	-8.20695
▁maẍto	-8.2128
ac	-8.21672
▁Espíritu	-8.21864
▁hunun	-8.22757
▁yaben	-8.23131
isley	-8.24055
▁Haxa	-8.24214
▁Pedro	-8.2508
▁Moisés	-8.2549
▁win	-8.26723
▁teyin	-8.27602
▁jet	-8.27864
▁cuybanile	-8.27957
▁juẍta	-8.28421
▁yinta	-8.28644
colwa	-8.28889
▁Ista	-8.29014
wan	-8.29251
▁matzwalil	-8.2998
chex	-8.30824
eb	-8.30999
▁wetan	-8.31318
che	-8.31469
matxa	-8.32281
▁chia	-8.32481
▁choche	-8.32568
niman	-8.3309
as	-8.33345
li	-8.33426
▁yel	-8.34189
ban	-8.34676
isya	-8.35081
Ha	-8.35099
yilni	-8.35203
tzotel	-8.35478
aj	-8.36439
g	-8.3654
sa	-8.36672
Tzet	-8.36769
▁ismajul	-8.36799
▁ismul	-8.37261
▁hec	-8.37739
▁T	-8.37846
ton	-8.38898
▁Santo	-8.39092
q	-8.39361
yuxinto	-8.40749
iswi	-8.40928
▁Juan	-8.4099
▁Y	-8.42159
yelapno	-8.43387
▁jin	-8.43483
ach	-8.4349
yehi	-8.4381
tom	-8.44617
quex	-8.45152
paxojan	-8.45408
yatut	-8.45798
▁Yin	-8.46161
▁yeli	-8.46436
▁lahan	-8.46529
ayical	-8.47027
quin	-8.47822
yel	-8.47865
sata	-8.47913
yahawil	-8.48024
am	-8.49091
▁xahan	-8.49107
haxa	-8.49277
heba	-8.49333
▁wa	-8.49571
▁yuninal	-8.49628
xiw	-8.49725
tzettaj	-8.50218
ib	-8.50752
me	-8.50975
ebix	-8.51104
▁quin	-8.5126
ule	-8.51719
yilal	-8.52104
▁babel	-8.52433
heyanma	-8.52682
hanin	-8.52828
▁yebpaxo	-8.54172
▁yechel	-8.54202
▁Hune	-8.5472
yaben	-8.55016
isto	-8.55161
yabe	-8.55369
ablo	-8.55437
ja	-8.55532
bi	-8.55654
ixim	-8.55813
istz	-8.56093
lah	-8.56304
uy	-8.56368
▁janma	-8.56372
ehal	-8.56405
yoche	-8.56556
hul	-8.56743
▁Yalnipaxo	-8.56921
▁xil	-8.57066
cam	-8.57106
Mamin	-8.57128
man	-8.57297
ista	-8.57529
anc	-8.57602
▁chiwa	-8.57833
▁anmahil	-8.58374
nico	-8.58793
▁Jerusalén	-8.59342
ayon	-8.59622
chiwa	-8.59768
▁heyu	-8.60558
▁oc	-8.60592
yapni	-8.61071
▁ángel	-8.61209
bilxa	-8.61637
oji	-8.6176
icham	-8.62323
▁Yu	-8.62697
un	-8.628
ebilcano	-8.63117
▁ah	-8.63142
hun	-8.6359
ilni	-8.63676
melyu	-8.63756
texol	-8.63764
xahan	-8.6434
chiwalan	-8.64375
ángel	-8.64532
▁chiswatx	-8.64712
▁Hanin	-8.65254
txahli	-8.65575
▁isti	-8.65622
hanic	-8.65822
aypaxo	-8.65854
▁sacerdote	-8.65898
▁yahaw	-8.66114
▁chiyu	-8.66172
▁Cristo	-8.66499
▁ismunil	-8.66531
▁isnimanil	-8.66936
wah	-8.67084
lahan	-8.67471
▁inc	-8.67727
▁tiempo	-8.67791
way	-8.67939
▁yah	-8.68863
chahni	-8.69195
paxoj	-8.694
Tom	-8.69692
cach	-8.69761
▁chioc	-8.69775
▁macta	-8.69846
espíritu	-8.69891
maca	-8.69898
um	-8.70032
yah	-8.70075
iloj	-8.71045
▁isnabal	-8.712
hec	-8.71248
▁maẍtaj	-8.7138
▁Ch	-8.7166
▁yec	-8.71703
▁hach	-8.71723
matzet	-8.72058
chitan	-8.72152
itz	-8.72185
nihan	-8.72307
▁maẍt	-8.72439
▁tawet	-8.72536
aban	-8.73121
hach	-8.73369
▁;	-8.73403
▁hunelxa	-8.7375
▁ayex	-8.73958
nipaxo	-8.74149
elo	-8.74568
f	-8.74877
isbi	-8.75365
Caw	-8.75593
▁Yum	-8.75659
maẍto	-8.76013
canojan	-8.76467
iscuywom	-8.76694
win	-8.76864
▁Hex	-8.76932
▁cheyute	-8.76988
hunun	-8.77007
camical	-8.77102
ip	-8.77127
▁chiyij	-8.77159
▁nan	-8.77243
▁Isc	-8.77539
▁chico	-8.77594
▁ja	-8.77713
elax	-8.77771
ˈ?	-8.77818
lin	-8.78284
icojan	-8.78408
▁cam	-8.78904
aben	-8.7898
Mac	-8.79187
canoj	-8.79411
obal	-8.79532
▁rey	-8.79793
chis	-8.7982
▁wuhan	-8.80143
sunilbal	-8.8027
toj	-8.80316
▁cheyil	-8.80416
▁chito	-8.80518
ebil	-8.80527
▁isyelal	-8.81052
ten	-8.81108
aybal	-8.81526
wute	-8.8195
▁hun	-8.82211
laxi	-8.82623
len	-8.82634
cheyal	-8.82654
nican	-8.82931
▁istzotel	-8.83373
munla	-8.83547
yinta	-8.8358
ohtan	-8.83764
▁Jahawil	-8.84023
chejbanil	-8.84304
ulan	-8.84334
em	-8.84736
yayto	-8.85281
▁Inmaman	-8.85507
teyin	-8.85541
yuninal	-8.85701
wetan	-8.85758
cuybanile	-8.859
juẍta	-8.86059
jin	-8.8622
▁Sunil	-8.86257
▁camom	-8.86303
▁Na	-8.86305
ayc	-8.87152
walxinto	-8.87434
▁winaj	-8.87605
matzwalil	-8.8762
ambe	-8.87651
▁chihul	-8.88011
anico	-8.88175
inalo	-8.88861
choche	-8.8894
uil	-8.89231
edro	-8.89706
▁payat	-8.90337
bilintijan	-8.90489
▁coc	-8.9058
▁chiwal	-8.90648
at	-8.91015
▁el	-8.91073
jet	-8.91304
yebpaxo	-8.91434
▁ley	-8.91504
yalnipaxo	-8.91699
▁chalni	-8.92116
johta	-8.92154
ehan	-8.92272
▁howal	-8.92354
▁Chi	-8.92558
▁ismam	-8.92581
chia	-8.92728
▁hanin	-8.92901
▁chala	-8.93035
hantan	-8.93045
▁camical	-8.9309
tocanoj	-8.93351
▁ẍiayoj	-8.93404
▁chij	-8.9434
ismajul	-8.94446
ismul	-8.94449
oisés	-8.94907
tijan	-8.95212
▁yay	-8.9523
ech	-8.95358
▁cuywawom	-8.95457
yec	-8.95566
hawil	-8.96224
▁colbanile	-8.96553
taxca	-8.96564
machoj	-8.96605
▁chic	-8.96624
laxcan	-8.97069
tzen	-8.97265
▁Mach	-8.97846
▁quex	-8.97933
▁wuẍtaj	-8.9851
tzala	-8.98601
▁chute	-8.98847
wej	-8.99197
▁preso	-8.99811
intohan	-8.99833
babel	-9.00061
chawal	-9.00448
yila	-9.00493
▁Ya	-9.00807
▁yil	-9.00808
yil	-9.00907
xaco	-9.00982
K	-9.01704
yeli	-9.01997
▁cheya	-9.02236
▁E	-9.02301
potx	-9.02603
munil	-9.0278
bel	-9.02938
▁chiec	-9.03416
juan	-9.03455
santo	-9.04033
▁ishowal	-9.04199
▁Ma	-9.04201
í	-9.04314
▁wanab	-9.05022
▁coba	-9.05137
▁yeco	-9.0517
▁Abraham	-9.05302
helan	-9.05439
yichico	-9.05713
▁fariseo	-9.05783
yahaw	-9.05984
▁tiempohal	-9.06044
yohtan	-9.06123
ocnico	-9.06317
C	-9.07005
carta	-9.07455
▁wanmahan	-9.07557
inc	-9.08
heyu	-9.08351
yechel	-9.09173
howal	-9.09327
cancano	-9.09348
▁chitit	-9.09739
wet	-9.09991
ahan	-9.10231
▁chaco	-9.10298
masanto	-9.10343
▁barco	-9.10386
ano	-9.10696
▁hunuxa	-9.1096
A	-9.11219
maẍtaj	-9.11252
aco	-9.11303
Wal	-9.11358
▁yoj	-9.11507
paxto	-9.11559
yaco	-9.11724
cablahon	-9.11879
isyije	-9.11911
▁heya	-9.1236
issaj	-9.12507
mo	-9.12521
uc	-9.12774
▁Tzot	-9.12876
▁ismi	-9.13036
yoj	-9.13282
nilo	-9.13301
▁L	-9.13638
ispi	-9.13786
▁camo	-9.13883
▁!	-9.14063
▁lahwi	-9.14218
andiosal	-9.14369
chico	-9.14663
winaj	-9.14781
yute	-9.15053
▁me	-9.15292
▁chul	-9.15304
▁unin	-9.15337
anmahil	-9.16045
caj	-9.16046
▁apni	-9.16467
I	-9.16829
yetbi	-9.16931
ahto	-9.17321
wu	-9.18155
tiempo	-9.18214
▁heyalni	-9.18336
im	-9.18409
chicam	-9.18488
rey	-9.18505
z	-9.18823
Mach	-9.18968
ro	-9.19446
isti	-9.19497
▁lin	-9.19607
▁culus	-9.19673
chijal	-9.19864
sacerdote	-9.19953
janma	-9.20281
anayo	-9.20375
maẍt	-9.20412
▁hunxa	-9.2045
ischuquil	-9.20509
munlawom	-9.2052
hawanma	-9.20544
chiswatx	-9.20732
cuywa	-9.20946
▁iscam	-9.21157
yinito	-9.21511
wohtajan	-9.21586
ocan	-9.21981
▁chihalni	-9.21986
abxubal	-9.22113
ui	-9.22175
ismunil	-9.22422
aycano	-9.22486
ilojan	-9.22658
balto	-9.22664
▁lek	-9.22859
▁haba	-9.22871
mal	-9.22937
aycan	-9.23328
macta	-9.2343
xahanbal	-9.23606
hawalni	-9.23752
ley	-9.24079
▁H	-9.24278
ayilo	-9.24312
isnimanil	-9.24619
colcha	-9.2494
▁conimanil	-9.25121
paxico	-9.25342
trigo	-9.25401
▁munil	-9.25792
inale	-9.25805
ayex	-9.25819
iscutxba	-9.2584
wuhan	-9.2592
isbeybal	-9.26083
tohol	-9.26236
titna	-9.26695
Mam	-9.26699
chiyu	-9.26707
heya	-9.26911
halbilcano	-9.27113
canilo	-9.27318
▁istoholal	-9.27468
ist	-9.27539
▁juẍtaj	-9.2817
itzitzbican	-9.28293
▁niẍte	-9.28419
chalni	-9.28473
▁chischah	-9.28514
erusalén	-9.28801
txumni	-9.28886
isnabal	-9.28888
▁yohta	-9.28959
apno	-9.29065
▁isn	-9.29283
chioc	-9.29774
islahobal	-9.29973
ispoh	-9.30023
huneln	-9.30042
hum	-9.30189
▁chija	-9.30323
tawet	-9.30342
yichamil	-9.30546
hunelxa	-9.3078
▁Yoc	-9.30803
wuẍtaj	-9.30935
wican	-9.31068
jahno	-9.31132
▁yute	-9.31347
▁tzalahilal	-9.31499
▁ayicto	-9.31536
tioẍ	-9.31725
▁jichmam	-9.31735
chabe	-9.31916
meltzo	-9.31945
hiq	-9.32045
▁machojab	-9.32135
▁ip	-9.32337
comon	-9.32394
yohta	-9.32656
▁t	-9.32799
▁Israeloj	-9.33004
▁ju	-9.33227
heyohtaj	-9.33788
▁yixal	-9.34046
cristo	-9.34129
▁yijem	-9.34614
▁chisje	-9.34616
cheyute	-9.3469
▁haxa	-9.34868
yay	-9.34946
selel	-9.35032
Y	-9.35325
Ta	-9.35354
▁inti	-9.35361
▁tzujno	-9.35363
▁istiempohal	-9.35394
▁bis	-9.35583
▁soldado	-9.3566
▁wet	-9.35802
mas	-9.35887
▁chil	-9.35947
comul	-9.36008
jahawil	-9.36154
ulo	-9.36307
etaj	-9.36337
majan	-9.36397
cheyil	-9.36531
ajan	-9.36661
chiyij	-9.36768
isyelal	-9.37333
▁beh	-9.37429
hin	-9.37606
wilnihan	-9.37748
heyi	-9.37836
oxeb	-9.37843
trato	-9.37844
henabal	-9.37856
ispotx	-9.38164
▁pan	-9.38208
yocto	-9.38245
anni	-9.38777
yawten	-9.38878
camom	-9.38916
▁huno	-9.39018
ahi	-9.39287
chito	-9.39697
▁Waxa	-9.39759
alomal	-9.39953
ismeltzo	-9.40166
cuybanil	-9.40445
istzotel	-9.40461
yohtajo	-9.40466
chiwal	-9.40592
alom	-9.40596
▁Galilea	-9.41049
▁tzujan	-9.41306
etojan	-9.41353
cuywawom	-9.41492
sic	-9.41631
heyohtan	-9.41647
machiswalil	-9.41699
machojab	-9.42021
▁María	-9.4236
▁ispaj	-9.42558
ismam	-9.42739
hujeb	-9.43022
yeco	-9.43039
▁itzitz	-9.43258
jalni	-9.4334
jetan	-9.43435
ías	-9.43446
meẍa	-9.43689
▁yuch	-9.43708
subchaho	-9.43746
▁xahanbalil	-9.43837
isyenilo	-9.43898
enilo	-9.44168
ayojab	-9.44255
mame	-9.44471
nojan	-9.44794
▁Simón	-9.45036
yum	-9.45047
▁mule	-9.45128
▁ishelanil	-9.45129
▁inbahan	-9.45129
chihul	-9.45171
▁chach	-9.45193
barco	-9.45249
eloj	-9.45433
ejholo	-9.45716
inmaman	-9.45722
wom	-9.45941
▁yaw	-9.46144
▁isma	-9.46169
▁David	-9.46401
ayinic	-9.46986
txon	-9.4716
cobahan	-9.47171
ichico	-9.47342
ub	-9.47359
chejab	-9.47738
▁tawin	-9.47764
mohyi	-9.47785
nimeta	-9.47786
jiban	-9.47796
▁jilni	-9.47964
payat	-9.48056
▁nino	-9.48146
▁chitzala	-9.48164
beybaln	-9.48614
▁chiapni	-9.48748
▁janab	-9.49119
anex	-9.4917
mulum	-9.49196
▁wehan	-9.49306
yije	-9.49637
wipan	-9.49914
haltebil	-9.49939
▁sic	-9.50234
▁Machi	-9.50332
▁chitz	-9.50416
▁yaco	-9.50573
▁Herodes	-9.50617
▁chejbanile	-9.50794
cheyabe	-9.50823
▁chielico	-9.50824
▁chiya	-9.51058
ẍiayoj	-9.51128
chala	-9.51412
nicano	-9.51439
jabe	-9.51563
▁yulaj	-9.51647
ilcha	-9.51776
coc	-9.5196
colchahi	-9.52057
▁saj	-9.5206
cachann	-9.52063
hununon	-9.52249
heyil	-9.52351
wiban	-9.52372
▁chiwochehan	-9.52408
aría	-9.52423
uxan	-9.52618
awtebil	-9.52786
haywan	-9.52792
yanayto	-9.5285
▁hanta	-9.53008
juhan	-9.53161
▁ixnam	-9.53271
istit	-9.53366
Hex	-9.53484
▁yijni	-9.53512
▁Pilato	-9.53522
ischah	-9.53969
▁nahat	-9.53975
buchwa	-9.54264
beh	-9.54308
heyanico	-9.54642
▁wintajan	-9.54694
cheya	-9.54708
Machoj	-9.54742
chute	-9.54907
▁chihallax	-9.54908
colbanile	-9.54923
txumnilo	-9.54982
camoj	-9.55147
Ay	-9.55178
hunxan	-9.55227
▁walnihan	-9.55359
▁chejab	-9.55507
ayayto	-9.55512
▁mar	-9.55749
tzeh	-9.55814
munlahan	-9.55968
tzalaho	-9.55969
heyijen	-9.55999
▁xewilal	-9.56137
eho	-9.56206
txah	-9.56239
lahon	-9.56382
▁cheyaco	-9.56427
jehi	-9.56559
wabe	-9.57265
▁mil	-9.57371
preso	-9.57547
octo	-9.57566
▁ischahni	-9.57746
▁istohol	-9.57758
camo	-9.5776
W	-9.57844
oro	-9.57887
colbanil	-9.5818
▁cheyala	-9.58254
elico	-9.58429
yinilo	-9.58484
▁hawu	-9.587
hacpax	-9.58789
hajlo	-9.58945
tiempohal	-9.58961
chicawxi	-9.59161
soldado	-9.59215
unin	-9.5922
▁chip	-9.59332
chiitzitzbican	-9.59454
▁Hunt	-9.59608
▁isyeni	-9.59612
▁heyet	-9.59676
saj	-9.59914
▁tit	-9.59938
islah	-9.60023
culus	-9.60066
▁chitzotel	-9.60436
▁isyijen	-9.60508
▁Han	-9.60647
occano	-9.60648
heyalni	-9.60654
chiec	-9.60869
isma	-9.60968
teyiban	-9.61067
wanab	-9.61101
circuncisión	-9.61188
umal	-9.61524
ishowal	-9.62012
cheyoche	-9.62268
janico	-9.62395
▁chiel	-9.6243
Hach	-9.62455
cawxican	-9.62512
maẍn	-9.62794
▁Eb	-9.62897
encano	-9.63169
fariseo	-9.6353
lago	-9.63608
▁hununex	-9.63688
▁ismay	-9.6375
hallax	-9.63779
chitit	-9.63839
how	-9.64515
coba	-9.64558
iscapilla	-9.64896
▁coxol	-9.64917
etza	-9.6508
▁habil	-9.65258
wanmahan	-9.6531
▁yetxa	-9.65463
Ma	-9.65948
yixal	-9.66223
uh	-9.66719
lek	-9.66909
cochah	-9.67262
Yin	-9.67297
ischejni	-9.67522
Tz	-9.6806
▁ayxa	-9.68419
binaho	-9.68633
▁yunin	-9.68714
hunuxa	-9.68724
isje	-9.68735
chijoche	-9.6875
chaco	-9.68786
tzalahilal	-9.68957
alaxico	-9.69195
iscuyni	-9.69564
elicoj	-9.69704
ham	-9.69765
▁islo	-9.70346
yilaxto	-9.70429
▁José	-9.71238
▁Roma	-9.71238
pulta	-9.71249
roma	-9.71395
▁ewan	-9.71454
ismi	-9.71461
▁chiyal	-9.71599
▁quexchi	-9.71677
▁heyehi	-9.71725
tzujan	-9.71818
hechahni	-9.71828
tit	-9.71857
iscam	-9.7212
mar	-9.72325
yawte	-9.72547
canocan	-9.72716
yeniloj	-9.72971
▁Judea	-9.73016
▁In	-9.73058
walnihan	-9.73299
▁chisyije	-9.73358
issay	-9.73642
gobernador	-9.73917
vaso	-9.73917
vino	-9.73917
istxumni	-9.74058
haba	-9.74361
iscolni	-9.74369
N	-9.74681
yipo	-9.74771
braham	-9.74788
▁chalilo	-9.74946
ispa	-9.75268
acojan	-9.76189
desierto	-9.7667
anciano	-9.7667
wohtajojan	-9.76684
?”	-9.76743
nananta	-9.76857
nahul	-9.7701
atil	-9.77379
hacojab	-9.77647
iscol	-9.78458
O	-9.78547
isnani	-9.78619
johtan	-9.78731
chejn	-9.79123
cutxanico	-9.795
tohlabal	-9.795
eintijan	-9.79502
howeb	-9.79529
hemul	-9.79553
colni	-9.79628
chihalni	-9.79775
imón	-9.80461
▁joc	-9.80504
hunxa	-9.81249
hechah	-9.81506
chisje	-9.81608
ulla	-9.81854
hunujex	-9.82413
moyan	-9.82414
▁No	-9.82444
yetbiho	-9.82495
isyelo	-9.82613
conabal	-9.82715
conimanil	-9.82911
chintz	-9.83084
nimanile	-9.83282
▁Chiwal	-9.83675
ayoco	-9.83823
walnic	-9.83873
selelo	-9.83926
toxan	-9.8394
chiwaltojan	-9.84047
istoholal	-9.84133
hawohta	-9.84559
▁Machojab	-9.84561
itzitz	-9.84849
isbej	-9.85005
niẍte	-9.85072
txumu	-9.85226
ojtam	-9.85416
isbisil	-9.85421
iscawxi	-9.85489
janmahan	-9.85815
chischah	-9.85892
juẍtaj	-9.85968
T	-9.86095
yijem	-9.86786
▁witz	-9.87084
chma	-9.87097
laxayo	-9.87106
capilla	-9.87303
Hanin	-9.87312
lom	-9.8733
sam	-9.87389
quexwil	-9.87701
espada	-9.88506
etaxto	-9.88506
ispultahil	-9.88506
walex	-9.88506
umel	-9.887
ilaxto	-9.88886
jahaw	-9.8936
jichmam	-9.89541
tzujno	-9.89544
yaw	-9.89656
▁Yeb	-9.8981
chija	-9.89818
jila	-9.89904
iscon	-9.89949
xiwcan	-9.90162
txumcha	-9.90236
coyijen	-9.90507
colwal	-9.90911
ishitzico	-9.91236
chicuywi	-9.91698
insatan	-9.91824
hujwan	-9.91953
hawoc	-9.91969
istiempohal	-9.9204
aweco	-9.92063
yanayo	-9.92156
mil	-9.92403
chicolo	-9.92561
▁Bernabé	-9.92785
wabenan	-9.92791
bilcano	-9.92981
▁Yahawil	-9.93083
isyeni	-9.93234
wanoj	-9.93295
istxum	-9.93356
yichmam	-9.93901
hawu	-9.94035
ispaxto	-9.94239
orahil	-9.94995
istxiquin	-9.95
henimanil	-9.95005
wocan	-9.95132
▁Jacobo	-9.95222
nahat	-9.95675
pila	-9.95852
hitzico	-9.96265
yayilo	-9.96723
alaxicto	-9.968
jala	-9.97232
jehan	-9.9739
wilan	-9.97502
ischahni	-9.97514
cachwa	-9.97944
chiwochehan	-9.97954
axep	-9.98404
wacax	-9.98406
chijute	-9.98407
yofrenda	-9.98411
chinhulan	-9.98422
ohcha	-9.98504
yoccano	-9.98527
▁nu	-9.98547
wetbi	-9.98663
▁Yul	-9.99075
lebil	-9.99111
▁Felipe	-9.99567
▁Judas	-9.99567
▁Saulo	-9.99567
▁Yespíritu	-9.99649
txumchalo	-9.99827
ahilo	-10.0017
wuẍta	-10.0041
M	-10.005
ispaj	-10.0082
yanito	-10.0098
paxilo	-10.018
xahanbalil	-10.0202
▁Yebpaxo	-10.0223
watut	-10.0225
isbejnicano	-10.0265
yicta	-10.0296
inbahan	-10.0297
ishelanil	-10.0301
mule	-10.0345
lolo	-10.0414
awten	-10.0417
▁Walex	-10.0436
yanican	-10.0517
chiyijen	-10.0524
capil	-10.0555
capitán	-10.0559
chintzalahan	-10.0559
hawehi	-10.0559
masanta	-10.056
chitzala	-10.0603
▁Yal	-10.0604
yijni	-10.0611
chianico	-10.062
tawin	-10.0626
cheyayto	-10.0688
janab	-10.0713
Ho	-10.0717
cheyije	-10.0757
belwi	-10.0792
istzabnico	-10.0811
cabeb	-10.0813
bilico	-10.0829
ixtan	-10.0928
comandante	-10.0939
yuẍtaj	-10.0939
itzitzbocan	-10.0939
ixahaw	-10.0939
insatajan	-10.0939
innimanil	-10.094
unub	-10.0943
techaho	-10.0975
yulajla	-10.1005
nilto	-10.1031
chielico	-10.1062
ochen	-10.1065
alilea	-10.1069
chibe	-10.1078
nohna	-10.1083
ixnam	-10.1114
ilchalo	-10.1216
eniloj	-10.1233
wintajan	-10.1257
Hune	-10.1258
istohol	-10.1269
issayni	-10.1275
chihallax	-10.1288
axpon	-10.1334
patrón	-10.1334
chinapnihan	-10.1334
elcanico	-10.1336
chitecha	-10.1337
ishel	-10.1358
tzabno	-10.1363
xewilal	-10.1401
H	-10.1403
cheyaco	-10.1433
▁Pascua	-10.1469
▁Xol	-10.1469
▁Egipto	-10.147
jalnihan	-10.1563
tzabni	-10.1568
chitxumchalo	-10.1588
avid	-10.1606
yinican	-10.1677
laba	-10.1727
quinchiyan	-10.1745
ohtabil	-10.1745
amaria	-10.1745
sucal	-10.1745
munlahi	-10.1745
coxahann	-10.1747
inchahnihan	-10.1751
jacob	-10.1887
nabn	-10.1894
erodes	-10.2028
▁hinan	-10.2056
isbejcano	-10.208
hununex	-10.2159
ismay	-10.2169
hulic	-10.2172
lemna	-10.2174
ehojab	-10.2174
isbejtzo	-10.2176
hawip	-10.2189
yechman	-10.219
intzotelan	-10.2215
inito	-10.2251
iscancano	-10.2257
▁Matxa	-10.2321
heyohtaxa	-10.247
Chi	-10.2482
cheh	-10.2522
oxwan	-10.2621
mujan	-10.2621
▁Cocolomal	-10.2621
ciento	-10.2621
▁Chalni	-10.2626
▁Mame	-10.2642
ixobal	-10.2664
lahico	-10.2803
itah	-10.2874
▁Elías	-10.2931
chiwabehan	-10.2932
chicabcon	-10.2964
Hacoj	-10.2969
ischej	-10.2972
esarea	-10.309
mohyilal	-10.309
chawoche	-10.309
inmulan	-10.309
chebej	-10.3091
cantil	-10.3102
yitzitzbican	-10.3103
hexahann	-10.3106
txahlo	-10.311
chiillax	-10.3141
tawintaj	-10.3154
chiwilan	-10.3235
aldea	-10.3238
echmabil	-10.3252
lahanex	-10.3256
yalaxico	-10.3264
chalilo	-10.3364
cuarto	-10.3415
testigo	-10.3415
japnihan	-10.3416
yespíritu	-10.3439
yilwen	-10.3579
mujlax	-10.3582
tzijxan	-10.3582
tzujcha	-10.3582
peyab	-10.3582
▁Antioquía	-10.3584
hamanil	-10.3594
hecawil	-10.3601
iscayel	-10.3601
isbelwi	-10.3626
chahlax	-10.3639
▁pi	-10.3715
siq	-10.3752
ishajni	-10.3752
yahwano	-10.3752
opo	-10.3764
▁Esteban	-10.3924
▁Nazaret	-10.3924
ispeto	-10.3924
yictabal	-10.394
Chim	-10.3966
ohni	-10.3984
cutxbanico	-10.4018
ijatz	-10.4056
apernaum	-10.4099
griego	-10.4099
saduceo	-10.4099
xiwquilal	-10.4099
ehayo	-10.41
ismachiswalilal	-10.41
nitam	-10.41
yehobal	-10.4101
isxahanil	-10.4101
issajbilo	-10.4102
telaj	-10.4103
uslax	-10.4106
cobeybal	-10.4213
udea	-10.4278
▁Timoteo	-10.4278
nicto	-10.4339
bitn	-10.4462
cadena	-10.4645
mujli	-10.4645
pujnac	-10.4645
querubín	-10.4645
▁Maẍtaj	-10.4645
txitam	-10.4645
chijilico	-10.4645
chiyiyo	-10.4646
inchejaban	-10.4647
inmunilan	-10.4647
utelax	-10.4649
chicoyije	-10.4913
▁Jacob	-10.4987
▁Macedonia	-10.5026
▁Isaías	-10.5026
inbihan	-10.5026
▁Halwe	-10.5026
olivo	-10.5222
trompeta	-10.5222
chianayto	-10.5251
yanab	-10.5303
chiyenilo	-10.5564
udas	-10.5626
cotohan	-10.5635
inmunilt	-10.5662
circuncidar	-10.5834
dragón	-10.5834
ordán	-10.5834
▁isDiosal	-10.5834
innabalan	-10.5834
sello	-10.5835
hajxam	-10.5835
▁Lázaro	-10.5835
walnitojan	-10.5842
isbalico	-10.5851
E	-10.5943
’	-11.2871
L	-11.395
)	-11.5819
ñ	-11.999
U	-11.9991
Q	-11.9992
(	-11.9993
‘	-11.9994
Z	-11.9995
X	-11.9996
R	-11.9997
F	-11.9998
G	-11.9999
B	-12
¡	-12.0001
v	-12.0002
ó	-12.0003
á	-12.0004
“	-12.0005
S	-12.0006
P	-12.0007
é	-12.0008
¿	-12.0009
ú	-12.001
―	-12.0011
J	-12.0012
D	-12.0013
ẍ	-12.0014
x	-12.0015
