<pad>	0
</s>	0
<unk>	0
.	-3.32489
▁	-3.88883
,	-3.89935
ा	-4.37184
▁आहे	-4.40231
ी	-4.57519
▁आणि	-4.5771
त	-4.59291
े	-4.6346
च्या	-4.6353
ं	-5.02919
चा	-5.08536
▁या	-5.10604
क	-5.12175
ची	-5.13088
न	-5.15498
ला	-5.15797
ल	-5.28814
स	-5.2981
र	-5.31517
च	-5.35866
ही	-5.41503
चे	-5.44652
मध्ये	-5.46601
म	-5.46952
व	-5.51278
-	-5.5357
▁कोरोना	-5.57563
य	-5.58342
▁आहेत	-5.59877
ने	-5.60309
ात	-5.61503
प	-5.64118
ील	-5.76495
ो	-5.77499
वर	-5.81425
▁नाही	-5.81763
्या	-5.82089
ू	-5.82372
ड	-5.88549
▁हे	-5.92165
▁अ	-5.96341
साठी	-5.96687
्	-6.02344
)	-6.03179
▁लस	-6.03807
ित	-6.04209
ण	-6.04442
▁ते	-6.05091
ट	-6.05991
ल्या	-6.06974
ून	-6.09162
ु	-6.10051
▁(	-6.10221
ली	-6.10502
▁किंवा	-6.13104
ले	-6.13363
▁क	-6.14606
ज	-6.14749
▁तर	-6.16503
चं	-6.17195
िक	-6.17703
्र	-6.17831
▁काही	-6.18206
▁न	-6.20698
▁आरोग्य	-6.20783
ना	-6.21241
?	-6.21534
ब	-6.2191
▁"	-6.22163
▁यांनी	-6.22426
▁एक	-6.23581
▁व	-6.23703
▁स	-6.25111
▁करण्यात	-6.26105
▁कमी	-6.28447
▁की	-6.2933
्य	-6.29558
ि	-6.31607
शी	-6.32107
द	-6.33294
वा	-6.3448
▁असं	-6.37571
-19	-6.38348
▁केली	-6.39037
ग	-6.39696
▁हा	-6.39764
ता	-6.4129
्स	-6.43725
▁पण	-6.44411
मुळे	-6.44893
▁ही	-6.46074
▁त्या	-6.46253
ाच्या	-6.4645
▁ज्या	-6.46904
श	-6.47751
▁सर्व	-6.49276
▁आ	-6.50686
▁विषाणू	-6.5446
▁ब	-6.55358
▁वापर	-6.56314
ॅ	-6.59162
ह	-6.59724
▁होते	-6.60205
▁संसर्ग	-6.60846
ळ	-6.62218
र्	-6.6304
'	-6.64284
▁करोना	-6.64765
▁का	-6.6488
लं	-6.65139
▁म	-6.67106
फ	-6.68233
▁कोव्हिड	-6.68781
▁सुरू	-6.68806
▁डॉ	-6.70123
री	-6.71729
▁आले	-6.72
▁काम	-6.72465
▁रुग्ण	-6.72499
▁माहिती	-6.72998
ध	-6.73559
▁प	-6.74062
▁केले	-6.74138
ांना	-6.74699
▁इतर	-6.75548
ख	-6.7604
▁जास्त	-6.76512
▁प्र	-6.76583
▁केंद्र	-6.77726
▁अनेक	-6.78764
▁होती	-6.79978
▁आली	-6.80048
▁लसीकरण	-6.82417
▁राज्य	-6.82583
▁बंद	-6.83481
▁असलेल्या	-6.83652
▁केला	-6.83741
▁ज	-6.83976
▁करत	-6.84018
ई	-6.84121
▁'	-6.84192
▁द	-6.85076
ाय	-6.85918
▁करण्यासाठी	-6.86983
पर्यंत	-6.89266
ाचा	-6.89456
▁होता	-6.90184
पासून	-6.92349
ांनी	-6.92425
▁हात	-6.92608
▁होत	-6.92608
ाला	-6.93835
▁करण्या	-6.94235
▁झाला	-6.94958
ाने	-6.95398
▁ऑक्सिजन	-6.95591
▁झाली	-6.96232
▁ग	-6.96306
रा	-6.96581
▁लशी	-6.97262
▁चाचणी	-6.97367
ावर	-6.97416
▁एका	-6.9867
▁ह	-6.9899
ंड	-6.99741
ाची	-6.99891
नी	-7.00682
▁उपचार	-7.00702
▁दोन	-7.0138
▁अधिक	-7.01466
▁राज्यात	-7.01807
1	-7.0236
▁श	-7.03529
▁त्यांच्या	-7.03537
▁असे	-7.03658
ती	-7.03884
▁मृत्यू	-7.03999
तील	-7.04172
▁सरकार	-7.04676
▁औषध	-7.05134
▁म्हणून	-7.05805
▁लॉकडाऊन	-7.06294
ंग	-7.06907
▁येत	-7.07717
व्ह	-7.07974
▁COVID	-7.08102
ंना	-7.08208
▁काय	-7.08391
▁असेल	-7.0846
िन	-7.09278
▁झालेल्या	-7.09444
▁अशा	-7.0995
कडे	-7.10127
2	-7.10559
▁संख्या	-7.11501
णे	-7.11872
▁करून	-7.1281
▁तयार	-7.1313
▁दिली	-7.13557
ष	-7.13665
▁उ	-7.13889
▁आता	-7.15464
ातील	-7.16833
▁वाढ	-7.17033
िंग	-7.17215
▁उपलब्ध	-7.17325
▁देण्यात	-7.17574
▁नि	-7.17844
▁च्या	-7.18169
▁परिणाम	-7.18523
भ	-7.19001
▁त्यांना	-7.19199
▁व्हायरस	-7.19261
ांत	-7.20734
▁वि	-7.20823
ते	-7.20916
पेक्षा	-7.21265
▁सा	-7.21479
▁आजार	-7.21608
▁आला	-7.22436
▁मात्र	-7.22554
▁ला	-7.22818
▁म्हणाले	-7.23006
स्त	-7.23348
▁र	-7.23465
▁त	-7.2399
▁केलं	-7.24072
▁हजार	-7.24801
▁त्यामुळे	-7.24887
:	-7.25101
▁कारण	-7.2541
▁यांच्या	-7.25574
▁गेल्या	-7.25591
का	-7.25774
ांच्या	-7.25986
▁टक्के	-7.26102
▁करणे	-7.26372
5	-7.27623
▁आम्ही	-7.27796
▁अशी	-7.27835
▁जे	-7.28132
मधील	-7.28173
▁पा	-7.2842
टी	-7.28437
▁लोक	-7.28498
▁2020	-7.28764
▁एप्रिल	-7.29028
▁त्यांनी	-7.2941
थ	-7.30239
▁इ	-7.30626
ाचे	-7.31123
3	-7.31285
नंतर	-7.31304
ण्यासाठी	-7.31384
▁जात	-7.31702
▁असून	-7.31952
▁डोस	-7.32324
▁वा	-7.32517
▁मोठ्या	-7.3288
ेल	-7.33382
सा	-7.33386
कडून	-7.33489
▁शकतो	-7.34184
▁असल्याचं	-7.34346
▁केल्या	-7.34882
▁झाले	-7.35092
▁होतं	-7.35281
अ	-7.36015
▁परिस्थिती	-7.36371
▁सांगतात	-7.36396
4	-7.36801
▁ह्या	-7.3686
▁लाख	-7.37041
▁महाराष्ट्रात	-7.37252
▁असा	-7.37347
▁:	-7.37719
ेट	-7.37797
▁शाळा	-7.38064
बाबत	-7.38143
"	-7.38409
▁भारतात	-7.38479
▁गरज	-7.38651
▁फ	-7.38821
ासाठी	-7.38942
▁सध्या	-7.38952
▁दिले	-7.38977
झ	-7.3944
."	-7.39552
से	-7.40226
7	-7.40451
ेश	-7.40622
▁मार्च	-7.40673
▁निर्णय	-7.40756
▁प्रमाण	-7.40905
▁शकतात	-7.40984
▁सरकारने	-7.40993
▁होऊ	-7.41097
ार	-7.41367
ास	-7.42214
▁येईल	-7.42593
▁वैद्यकीय	-7.42594
▁म्हणजे	-7.42744
ांची	-7.42809
सह	-7.42978
२	-7.43699
▁प्रसार	-7.4384
8	-7.44222
▁सांगितलं	-7.44466
▁होतो	-7.4467
▁बदल	-7.4512
▁कोविड	-7.46524
या	-7.46623
▁लोकांना	-7.46668
▁-	-7.47074
स्	-7.47153
▁देशात	-7.47445
ांमध्ये	-7.47484
ण्यात	-7.4763
▁गंभीर	-7.48318
▁नवीन	-7.48337
ठ	-7.4867
▁लक्ष	-7.48771
प्र	-7.48991
िल	-7.49068
कार	-7.49298
डी	-7.49365
स्ट	-7.49579
▁प्रवास	-7.50641
▁म्हटलं	-7.50931
▁दुसऱ्या	-7.51309
▁आपल्या	-7.51574
▁प्रकार	-7.5181
▁ट	-7.51819
▁सं	-7.52058
▁3	-7.52059
▁होणार	-7.52327
णार	-7.52674
6	-7.52935
▁समावेश	-7.53033
▁तरी	-7.53042
%	-7.53111
▁वाढत	-7.53124
▁होण्या	-7.53491
वे	-7.54294
▁मास्क	-7.54406
▁स्थिती	-7.54848
▁करू	-7.55586
e	-7.55708
वि	-7.55826
▁शकते	-7.56119
▁मध्ये	-7.5633
▁जर	-7.56361
I	-7.56972
9	-7.57197
▁व्यक्ती	-7.57463
▁पड	-7.57664
त्र	-7.5774
▁तो	-7.57763
सीओव्ही	-7.57931
ंद	-7.58087
नं	-7.58715
▁रुग्णालयात	-7.58725
बद्दल	-7.59019
०	-7.5913
▁दिवस	-7.59362
0	-7.59606
▁ठाकरे	-7.5975
▁1	-7.59831
नुसार	-7.60296
ीन	-7.60779
▁भ	-7.60807
णं	-7.61429
कर	-7.61493
ंनी	-7.61633
▁नाहीत	-7.62415
▁मुंबई	-7.62449
o	-7.62466
▁आलं	-7.63132
▁5	-7.6319
▁विचार	-7.63502
▁सु	-7.6352
▁आल्या	-7.63753
▁शक्यता	-7.6396
▁आज	-7.64039
द्वारे	-7.65028
▁आपण	-7.65098
▁आलेल्या	-7.65752
▁अभ्यास	-7.65801
▁जाहीर	-7.65801
▁संसर्गा	-7.65815
▁झाल्या	-7.65832
;	-7.66191
▁चीन	-7.66193
िया	-7.6628
निर्माण	-7.66583
CoV	-7.66587
a	-7.66915
▁च	-7.66972
घ	-7.67552
ंट	-7.67671
▁करा	-7.67769
▁निर्बंध	-7.67769
▁जागतिक	-7.67769
्व	-7.67952
ामध्ये	-7.68
▁मे	-7.68139
▁भाग	-7.68291
▁परवानगी	-7.68969
दा	-7.69059
वी	-7.69137
▁म्हणतात	-7.69459
▁ए	-7.69501
▁अस	-7.69587
▁असते	-7.6986
वरील	-7.69891
सोबत	-7.70028
१	-7.70093
▁4	-7.70219
जी	-7.70229
ांचा	-7.70333
▁काळात	-7.70446
▁येणार	-7.70592
▁पुढे	-7.70736
▁केलेल्या	-7.70817
ए	-7.70914
▁मदत	-7.71105
▁ठर	-7.71109
▁चाचण्या	-7.71245
▁तुम्हाला	-7.71413
▁जाऊ	-7.71483
▁प्रमाणात	-7.71729
ै	-7.71734
▁लागू	-7.71831
▁करण्याची	-7.71887
▁को	-7.72008
ेस	-7.72174
▁दर	-7.72447
पैकी	-7.72506
▁ने	-7.72543
▁लक्षणे	-7.72571
▁भारत	-7.73075
ांवर	-7.73143
ंच्या	-7.73484
▁आवश्यक	-7.73585
न्स	-7.7398
पा	-7.74149
▁बोलताना	-7.74361
▁दिसून	-7.74446
R	-7.74768
▁ध	-7.75001
इ	-7.75009
लेल्या	-7.75284
▁प्रयत्न	-7.75624
▁प्रश्न	-7.75624
शा	-7.75745
▁लोकां	-7.76128
ंचा	-7.76504
▁10	-7.76627
▁रोजी	-7.76738
▁ख	-7.76851
A	-7.76923
▁दाखल	-7.76923
▁वेळ	-7.7698
▁कोटी	-7.77002
लो	-7.77016
▁जाते	-7.77179
▁जाईल	-7.77799
▁माग	-7.78325
▁2	-7.7838
पणे	-7.78897
▁नोंद	-7.79279
▁आजारा	-7.79378
▁करणाऱ्या	-7.79574
ढ	-7.79752
▁SARS	-7.79754
▁दिसत	-7.79845
▁कोणत्या	-7.80022
▁देश	-7.80526
▁रुग्णांची	-7.80796
ांसाठी	-7.80914
▁मागणी	-7.80965
▁शिक्षण	-7.81263
/	-7.82294
00	-7.82723
ंत	-7.82842
▁१	-7.82979
ेंद्र	-7.83471
व्या	-7.83941
हा	-7.83946
▁असताना	-7.84226
▁योग्य	-7.8435
▁देखील	-7.84614
ंची	-7.85006
सं	-7.85092
▁काळजी	-7.85116
S	-7.85455
▁पुरवठा	-7.86045
मधून	-7.86047
रे	-7.86059
i	-7.86454
▁मुख्यमंत्री	-7.8701
नि	-7.87152
▁तीन	-7.87286
▁पुन्हा	-7.87483
ीय	-7.87501
▁सेवा	-7.87529
▁उत्पादन	-7.87651
णी	-7.87868
णाऱ्या	-7.87881
ुर	-7.88166
▁भागात	-7.8819
टे	-7.88256
▁स्व	-7.88375
स्थ	-7.88407
▁राज	-7.88591
ीत	-7.88607
▁मी	-7.88716
▁20	-7.88722
T	-7.88947
▁उद्धव	-7.88947
ंमध्ये	-7.8904
▁भर	-7.89077
▁ती	-7.89106
▁देत	-7.89153
▁यांना	-7.89395
▁6	-7.8951
▁ना	-7.89648
▁शकत	-7.89775
▁शोध	-7.89912
िय	-7.90041
▁साध	-7.90123
▁तेव्हा	-7.90136
▁बीबीसी	-7.90432
ालय	-7.90888
▁कोरोनाची	-7.91121
▁टेस्ट	-7.91437
▁पहिल्या	-7.91471
▁गेले	-7.9152
िट	-7.91536
तो	-7.91752
▁स्ट	-7.91767
▁स्पष्ट	-7.91939
▁बाहेर	-7.91966
-2	-7.92042
▁पूर्ण	-7.92243
▁लसी	-7.92345
▁पंतप्रधान	-7.92447
▁परीक्षा	-7.92451
र्म	-7.9268
▁असू	-7.92753
▁काढ	-7.93028
▁7	-7.93131
▁महाराष्ट्र	-7.93131
▁संबंधित	-7.93258
▁विभागा	-7.93442
▁दिला	-7.93477
▁संपर्क	-7.93524
ऱ्या	-7.94001
▁याचा	-7.94294
▁सार्स	-7.94585
▁किती	-7.94594
▁देण्या	-7.94825
▁प्रत्येक	-7.95025
▁विकसित	-7.95025
C	-7.95591
▁सूचना	-7.95856
आ	-7.96127
र्स	-7.96364
▁पसर	-7.96417
▁ति	-7.96447
▁करता	-7.97002
t	-7.97088
▁जानेवारी	-7.97135
▁तुम्ही	-7.97135
▁नये	-7.97158
▁चा	-7.97507
दार	-7.97514
▁उत्तर	-7.97671
रो	-7.9802
ातून	-7.98028
▁डेटा	-7.98224
्ट	-7.98238
▁ऑफ	-7.98297
तून	-7.98507
▁ठिकाणी	-7.98552
▁रुग्णांना	-7.98626
▁धोका	-7.98739
▁विशेष	-7.98748
▁सार्वजनिक	-7.98748
३	-7.98873
पर	-7.99032
▁सो	-7.99216
▁डॉक्टर	-7.99459
▁लागण	-7.99553
▁महिन्यात	-7.99843
▁साथी	-7.99854
▁घरी	-8.00057
टा	-8.01073
▁आढळून	-8.01496
▁मा	-8.0179
c	-8.02054
्म	-8.02269
▁करतात	-8.02276
िश	-8.02394
▁प्रतिबंध	-8.02621
▁वाढव	-8.02759
s	-8.03089
त्त	-8.0327
रण	-8.03414
▁ऑ	-8.03485
तात	-8.03652
▁शहरात	-8.03715
▁पाहिजे	-8.03749
▁होईल	-8.03749
▁लहान	-8.04323
▁8	-8.04337
▁लक्षणं	-8.04618
▁संपूर्ण	-8.04917
▁याबाबत	-8.04923
n	-8.05435
▁चर्चा	-8.05625
५	-8.05718
▁प्रभावी	-8.0582
▁विविध	-8.06055
▁तसंच	-8.06056
प्रमाणे	-8.06256
▁झालं	-8.06706
▁पॉझिटिव्ह	-8.07228
▁टाळ	-8.07262
ळी	-8.07288
▁असतात	-8.07311
मी	-8.07441
▁शहर	-8.07665
सी	-8.07817
▁असतो	-8.07877
▁मोदी	-8.07991
▁अंदाज	-8.08415
▁आहोत	-8.08416
▁जगभरात	-8.08416
▁पर	-8.08461
ताना	-8.0858
▁मो	-8.08732
▁19	-8.08971
▁नियंत्रण	-8.09238
▁करण्यास	-8.09248
E	-8.09616
हून	-8.09616
▁उच्च	-8.09657
▁ल	-8.09685
▁बस	-8.09716
▁ओ	-8.10314
▁रोग	-8.10347
▁जाण	-8.1036
▁व्यक्त	-8.10373
▁येऊ	-8.10832
▁कंपनी	-8.11065
४	-8.11217
ेशन	-8.11513
▁असल्याच	-8.11886
६	-8.11891
सारख्या	-8.1192
दी	-8.12058
▁आढळले	-8.12063
▁तीव्र	-8.12064
ण्याची	-8.12074
▁डि	-8.12154
ळा	-8.12165
▁आपल	-8.1286
▁चे	-8.13054
r	-8.1312
ग्र	-8.13711
िस	-8.13825
▁अर्थ	-8.14043
▁50	-8.14093
▁करणार	-8.1424
▁वर्षा	-8.14304
व्हा	-8.14337
▁घेतला	-8.14479
▁केसेस	-8.14586
▁मुलां	-8.1473
ृ	-8.14747
डा	-8.1508
▁कालावधी	-8.15208
र्ड	-8.15821
▁२	-8.16007
▁जिल्ह्यात	-8.16025
▁भारता	-8.1618
गा	-8.16245
▁फेब्रुवारी	-8.16494
▁सह	-8.166
▁मला	-8.16616
▁राज्या	-8.16808
▁ठेवण्या	-8.16883
▁एकूण	-8.17148
▁नियम	-8.1735
▁हॉस्पिटल	-8.1737
ीकरण	-8.17675
▁तुमच्या	-8.18017
▁त्यानंतर	-8.18167
▁मिळत	-8.18536
▁पाठव	-8.18648
▁खूप	-8.19119
▁9	-8.19205
ंचे	-8.19239
▁जाणार	-8.19336
▁दरम्यान	-8.19345
विक	-8.19568
▁अंतर	-8.19788
ोट	-8.19822
▁फक्त	-8.19831
▁लागत	-8.19963
के	-8.19986
▁असल्याने	-8.19989
▁लाटे	-8.19995
ायला	-8.20351
▁प्रदेश	-8.20455
▁धुण्या	-8.20469
▁कार्यक्रम	-8.20474
मान	-8.20667
▁पोहोच	-8.21093
▁पर्यंत	-8.21227
▁बेड्स	-8.21248
▁केंद्रीय	-8.21309
ेवळ	-8.2149
▁याची	-8.21628
▁त्यात	-8.21643
▁शि	-8.21906
▁कि	-8.21945
ोर	-8.21957
▁सम	-8.22103
▁जीव	-8.22347
▁सरकारी	-8.22434
l	-8.22449
▁सेंटर	-8.22496
▁त्रास	-8.22499
र्ट	-8.22744
▁यु	-8.2303
▁मुल	-8.2306
्ह	-8.23167
▁आदेश	-8.23186
▁“	-8.23207
▁कार्य	-8.23278
ेन	-8.23416
▁घेत	-8.23439
ावी	-8.2345
पूर्वी	-8.235
▁प्रतिसाद	-8.2388
▁संख्ये	-8.23888
▁संस्था	-8.23941
▁जेव्हा	-8.23961
▁परत	-8.24185
▁होत्या	-8.24298
▁रुग्णालय	-8.24304
▁कुटुंब	-8.24568
ांचे	-8.24573
▁संशोधन	-8.24579
▁तसेच	-8.2458
▁रूग्ण	-8.24768
▁पाच	-8.24918
▁अहवाल	-8.25283
▁खासगी	-8.25284
▁रुग्णसंख्या	-8.25284
▁जातो	-8.25401
▁यासाठी	-8.25629
को	-8.25781
▁सांगितले	-8.25992
▁गर्दी	-8.25993
▁सगळ्या	-8.25993
M	-8.26109
▁खा	-8.26114
▁असतील	-8.26148
र्ज	-8.26287
▁पो	-8.26728
▁बोल	-8.26728
▁चार	-8.26782
ृत	-8.2711
▁रि	-8.27147
▁त्याच्या	-8.27187
H	-8.27426
▁येथ	-8.2791
ुक	-8.28029
▁येणाऱ्या	-8.28151
▁आकडेवारी	-8.28151
८	-8.2825
▁प्रति	-8.2853
▁ठ	-8.28688
ष्ट	-8.28712
▁मर्याद	-8.28881
ोप	-8.28891
िम	-8.28907
▁रूग्णां	-8.28931
▁दु	-8.28944
िर	-8.2903
▁घेऊन	-8.29199
ावे	-8.29275
▁मु	-8.29323
▁श्वसन	-8.29466
▁शिफारस	-8.29616
▁जी	-8.30046
▁वाट	-8.30065
▁कर्मचारी	-8.30357
▁अजून	-8.30362
▁घाल	-8.30513
भाव	-8.30802
एस	-8.30874
▁साम	-8.30944
▁जो	-8.30966
D	-8.31103
▁सुरक्षित	-8.31103
▁लागेल	-8.31103
▁रात्री	-8.31104
▁दोन्ही	-8.31108
▁शरीरात	-8.31164
▁वर्षां	-8.31166
▁गाव	-8.31676
▁लशीच्या	-8.31835
▁प्रमुख	-8.31896
▁ताप	-8.3192
▁शे	-8.32086
ाऊ	-8.32265
▁सुरुवात	-8.32322
▁दिल्ली	-8.32376
▁शक्य	-8.32438
जन	-8.3248
जा	-8.32615
ेड	-8.33058
भर	-8.33102
▁प्रवेश	-8.33379
▁दूर	-8.33465
की	-8.3347
▁मुंबईत	-8.33475
▁करताना	-8.33689
▁अधिकारी	-8.3376
▁क्षेत्र	-8.33821
▁मन	-8.34043
m	-8.34145
धा	-8.34282
▁४	-8.34394
न्	-8.34597
’	-8.3492
ामुळे	-8.35133
▁रे	-8.35611
▁ग्रामीण	-8.35702
▁14	-8.35841
▁वेगान	-8.35844
▁घेतली	-8.35962
P	-8.36015
▁जिल्ह्य	-8.36272
▁आर्थिक	-8.36489
एम	-8.36642
▁त्याचा	-8.36829
वरून	-8.36876
स्क	-8.36952
▁12	-8.37046
▁बैठक	-8.37232
▁आणखी	-8.37283
▁होणाऱ्या	-8.37283
▁स्थानिक	-8.37285
▁करावी	-8.37389
▁उपस्थित	-8.3749
▁C	-8.37632
▁आमच्या	-8.37703
▁विद्यार्थ्यां	-8.37875
▁नव्या	-8.37879
▁३	-8.37899
▁गु	-8.37985
▁घ्या	-8.38174
▁तास	-8.38245
▁मध्य	-8.38334
▁मान	-8.38351
दर	-8.38915
▁सी	-8.39363
▁होण्याची	-8.39489
▁नाव	-8.39551
▁उपाय	-8.39597
h	-8.39702
▁टोपे	-8.39703
▁गेली	-8.39715
नल	-8.39866
द्ध	-8.39874
▁चाचण्यां	-8.40038
▁जिल्हा	-8.40052
तः	-8.40413
▁घर	-8.40496
बरोबर	-8.40522
▁पर्याय	-8.40524
▁पुणे	-8.40581
▁असणाऱ्या	-8.40598
▁प्रकरण	-8.4075
पूर	-8.40783
▁बरे	-8.40805
▁मुख्य	-8.40908
िड	-8.40967
ानुसार	-8.41044
▁आधार	-8.41208
▁दिवसां	-8.41295
▁आधी	-8.41382
▁माहितीनुसार	-8.41616
▁फार	-8.41668
जे	-8.41743
▁मार्ग	-8.41846
▁लाट	-8.42286
ंवर	-8.42303
▁घेण्यात	-8.42327
▁राष्ट्रीय	-8.42401
▁नागपूर	-8.43022
▁परंतु	-8.43022
▁घोषणा	-8.43026
▁अन्य	-8.43035
▁15	-8.43066
▁महा	-8.43293
▁प्रमाणावर	-8.43332
▁थ	-8.43716
▁क्षेत्रात	-8.43735
▁लॉकडाउन	-8.43869
स्थाप	-8.4405
क्स	-8.44153
▁अप	-8.4448
र्ग	-8.44586
▁30	-8.44636
▁घा	-8.44652
d	-8.44671
▁घेण्या	-8.44696
▁एचसीओव्ही	-8.44724
▁सहा	-8.44739
▁करणं	-8.44739
▁सर्वाधिक	-8.44788
▁ट्र	-8.44802
▁नागरिकां	-8.44973
▁नंतर	-8.45048
▁समज	-8.45523
▁चाल	-8.45555
ात्मक	-8.45628
▁पत्रकार	-8.45641
▁ऑक्सिजनची	-8.45684
▁आय	-8.45932
▁लशीं	-8.46054
रि	-8.46093
दरम्यान	-8.46157
▁पूर्व	-8.46229
९	-8.46315
▁कधी	-8.46469
ऊ	-8.46705
▁येथे	-8.46746
▁आतापर्यंत	-8.46836
डे	-8.46857
▁अॅ	-8.46989
▁ओळख	-8.47165
▁उद्रेका	-8.47201
▁सामान्य	-8.47291
राव	-8.47333
▁अनु	-8.4734
▁मत	-8.47389
▁यामुळे	-8.47539
▁वर्ष	-8.47923
▁करतो	-8.48041
▁गोष्टी	-8.48053
▁सुरु	-8.48218
▁दाखव	-8.48218
▁लढ	-8.48299
▁पेक्षा	-8.48341
▁जातं	-8.48539
▁भीती	-8.49114
▁युके	-8.49155
▁प्रक्रिया	-8.49162
▁त्यांची	-8.49434
▁पत्र	-8.4955
▁काळ	-8.49606
▁महिन्या	-8.49708
ावं	-8.49763
ोज	-8.50001
▁संप	-8.50087
▁कर्मचाऱ्यां	-8.50714
उ	-8.50717
▁डॉक्टरां	-8.50873
!	-8.50921
▁घट	-8.5093
▁झाल्यानंतर	-8.51093
▁रा	-8.51136
▁के	-8.51184
▁नागरिक	-8.51233
▁महत्त्वाच	-8.51304
▁भा	-8.51382
▁सोड	-8.51508
▁वय	-8.51693
ल्ड	-8.51741
▁इन्स्टिट्यूट	-8.51838
▁स्पर्श	-8.51838
▁पद्धती	-8.51847
पत्र	-8.52283
▁रुग्णालया	-8.523
▁मते	-8.52478
िटी	-8.52636
▁पुष्टी	-8.52766
▁त्याची	-8.52775
डो	-8.52855
क्त	-8.52903
▁पुण्यात	-8.53073
▁जाण्या	-8.53103
▁पार	-8.53127
▁विलगीकरण	-8.53169
▁छ	-8.5329
▁दिस	-8.53301
▁निर्मिती	-8.53377
▁I	-8.53395
O	-8.53699
▁तपासणी	-8.53726
▁आमच	-8.53891
▁बेड	-8.53935
पणा	-8.5405
ओ	-8.54065
▁आपल्याला	-8.54391
p	-8.54642
अत्यावश्यक	-8.54642
▁तुटवडा	-8.54642
▁इटली	-8.54644
ंतर्गत	-8.5466
▁पाळ	-8.54845
क्रम	-8.54849
▁वर्षी	-8.54858
▁नर	-8.55117
▁उप	-8.55485
▁कु	-8.55544
▁प्राथमिक	-8.55594
▁अत्यं	-8.55596
▁क्षमता	-8.55597
▁कोणती	-8.55654
▁म्हटलंय	-8.55711
▁आरोग्यमंत्री	-8.55762
▁लशीचा	-8.5579
बल	-8.55848
ल्यानंतर	-8.56095
▁करते	-8.56174
▁इंजेक्शन	-8.56556
▁मोठा	-8.56579
▁रेमडेसिवीर	-8.56667
▁एखाद्या	-8.56717
शल	-8.57072
▁यांचा	-8.57082
▁जा	-8.5722
▁सुविधा	-8.57527
▁देऊ	-8.57528
▁शेवट	-8.57544
▁घड	-8.57576
▁क्वारंटाईन	-8.57721
▁दुसरी	-8.57771
▁चालू	-8.57804
▁संक्रमण	-8.57926
▁असल्यास	-8.57927
ियन	-8.58106
▁टप्प्यात	-8.5833
▁त्याला	-8.58422
एन	-8.58469
▁श्वास	-8.58507
▁मोठी	-8.58508
▁आव्हान	-8.58523
धान	-8.58715
थेट	-8.58755
▁करावा	-8.58953
▁५	-8.59011
▁विषाणूच्या	-8.59153
७	-8.59442
g	-8.59497
▁आम्हाला	-8.59497
▁संभाव्य	-8.59497
▁लवकर	-8.59498
▁नियोजन	-8.59793
ोम	-8.59995
▁लोकांच्या	-8.60023
▁देशा	-8.60152
▁11	-8.60379
▁सत	-8.60388
u	-8.60497
▁अवलंब	-8.60497
▁फे	-8.60509
▁येण्या	-8.60518
▁मग	-8.60653
▁आग	-8.60989
▁वेळे	-8.61099
▁कळ	-8.61457
▁जोखीम	-8.61507
▁तुलनेत	-8.61507
▁नोंदणी	-8.61645
▁हि	-8.61669
▁असलेले	-8.61688
ब्	-8.61898
क्षण	-8.61989
▁लोकांनी	-8.62116
जर	-8.62134
ूर	-8.62187
▁पातळी	-8.62245
▁अमेरिके	-8.62283
N	-8.62521
▁सामाजिक	-8.62528
(	-8.62544
▁झ	-8.62624
वून	-8.62748
▁घ	-8.62792
चित	-8.62956
१९	-8.63374
▁प्रकरणां	-8.63377
शिवाय	-8.63465
▁जवळपास	-8.63559
्यात	-8.63667
ग्रस्त	-8.63805
▁तोंड	-8.63844
▁समोर	-8.63876
▁मराठी	-8.63881
्ज	-8.63912
▁WHO	-8.63938
००	-8.6395
कोरोना	-8.64025
▁सरकारच्या	-8.6419
▁दिल्या	-8.64537
▁सुरक्षा	-8.646
▁योजना	-8.646
B	-8.64601
▁लोकसंख्ये	-8.64601
▁दिलं	-8.64604
▁छाती	-8.64612
▁पालन	-8.64612
▁जवळ	-8.64638
▁परिणामकारक	-8.64642
▁स्वतः	-8.64656
▁यावर	-8.64658
▁टाक	-8.64661
्यू	-8.6496
ांचं	-8.64974
▁देशां	-8.64975
ँ	-8.65036
▁बाधित	-8.65125
▁रुग्णांच्या	-8.6519
▁नका	-8.65339
रोग	-8.65351
▁व्यवस्था	-8.65645
ुन	-8.65657
दान	-8.65662
▁भारतीय	-8.65765
▁असल्याची	-8.65781
▁त्यासाठी	-8.65841
▁विमान	-8.65903
▁पक्ष	-8.66028
▁तिथे	-8.66299
▁खर्च	-8.66722
षण	-8.66786
▁जनते	-8.66793
▁करावे	-8.66872
▁तज्ज्ञां	-8.6719
▁वर्ग	-8.6725
▁अँ	-8.67417
वेळी	-8.67547
▁नव	-8.67562
▁वुहान	-8.67792
▁डिसेंबर	-8.67792
▁रेल्वे	-8.67792
▁सल्ला	-8.67795
▁आरोप	-8.67795
▁लाटेत	-8.67869
▁24	-8.67954
िष्ट	-8.68223
ाचं	-8.68314
विषयी	-8.68329
▁मुलांना	-8.68329
संबंधी	-8.68475
▁पुढ	-8.68715
▁त्याच	-8.68872
▁वाहतूक	-8.68879
▁भाजप	-8.68882
▁ठेवा	-8.68889
▁करावं	-8.68891
▁वाच	-8.68975
▁सि	-8.69153
▁होऊन	-8.69842
▁बहुतांश	-8.69978
रित्या	-8.70083
▁वेगळ	-8.70223
ॅक्स	-8.70274
▁हॉस्पिटलमध्ये	-8.70701
▁मंत्री	-8.70837
▁तयारी	-8.70918
▁विद्यार्थी	-8.71089
▁पोलीस	-8.71091
▁मोहीम	-8.71093
ण्याचा	-8.71174
▁लोकांमध्ये	-8.71309
▁घेण्यासाठी	-8.71427
ापासून	-8.71547
▁क्ल	-8.71678
▁कॅ	-8.71842
▁प्रशासना	-8.72029
वार	-8.72039
ण्यास	-8.72106
▁सौम्य	-8.72213
▁थोड	-8.72223
▁फ्लू	-8.72302
▁त्यांचे	-8.72505
िका	-8.72587
▁जातात	-8.72778
▁कार्यालय	-8.72997
▁तुमच	-8.73012
▁अध्यक्ष	-8.73349
▁सकाळी	-8.73349
▁सांगण्या	-8.73373
▁पवार	-8.73498
▁आजारी	-8.73646
त्व	-8.737
▁नमुने	-8.73829
जसे	-8.7391
▁मधील	-8.74039
ल्ल	-8.7422
▁वर	-8.74278
मंत्री	-8.74287
▁बी	-8.74288
▁कोड	-8.74296
ळ्या	-8.7447
▁अद्याप	-8.74498
▁अमरावती	-8.74498
▁कोव्हॅक्सिन	-8.74498
▁बायोटेक	-8.74499
▁अनुभव	-8.74499
▁दिव	-8.74679
▁18	-8.7469
▁गृह	-8.7473
▁पातळीवर	-8.74821
▁नाक	-8.74825
▁सात	-8.74949
राज	-8.75095
▁200	-8.75334
▁यात	-8.75358
▁झालेली	-8.75441
▁एन	-8.75494
▁स्वच्छ	-8.75514
”	-8.75661
▁तिसऱ्या	-8.75662
▁माध्यमातून	-8.75662
▁राहिल	-8.75662
▁विकास	-8.75672
▁रद्द	-8.75703
▁साठा	-8.75732
कल	-8.75754
जन्य	-8.75841
▁संपर्कात	-8.75869
यर	-8.75945
▁साथ	-8.75949
▁दुसरा	-8.76134
▁दिवसात	-8.76138
मिळ	-8.76173
▁देशांमध्ये	-8.76271
▁साठी	-8.76583
▁घेता	-8.76584
▁मानवी	-8.76742
▁दररोज	-8.76838
गत	-8.76891
▁सांगत	-8.76974
▁अन्न	-8.77014
▁उद्रेक	-8.77016
▁माझ्या	-8.77161
▁अव	-8.77191
▁वर्	-8.77502
▁ग्र	-8.77567
िव	-8.77949
▁मान्यता	-8.78029
▁सचिव	-8.78029
▁होणे	-8.78031
मधल्या	-8.78263
▁साबण	-8.78363
मो	-8.7847
▁जणां	-8.78539
िओ	-8.78578
▁झा	-8.78638
च्च	-8.78707
▁सरकारला	-8.78944
▁पु	-8.78962
ुम	-8.79058
्युट	-8.79096
▁हवा	-8.79112
▁समस्या	-8.79237
प्त	-8.79504
▁राहतील	-8.79524
▁केल्यानंतर	-8.79547
▁लि	-8.79611
▁नागरिकांना	-8.79682
▁रुग्णांचा	-8.80081
▁तज्ज्ञ	-8.80092
▁पुर	-8.80422
▁कम	-8.80424
यु	-8.80451
▁टक्क्यां	-8.80453
▁व्हेरियंट	-8.80453
▁कडक	-8.80477
टि	-8.80547
▁संनिरीक्षण	-8.80612
▁प्रभावित	-8.80623
आर	-8.80696
▁लशीचे	-8.80756
▁६	-8.80794
▁जून	-8.80921
▁ब्र	-8.81178
▁आवश्यकता	-8.81426
▁रक्त	-8.81524
▁गटा	-8.81544
सारखी	-8.8166
V	-8.81677
▁मिळाली	-8.81687
▁राजकीय	-8.81688
▁७	-8.81756
▁मिळव	-8.81965
▁महिन्यां	-8.82096
▁झालेले	-8.82678
▁पासून	-8.82792
▁व्यक्तीं	-8.82933
U	-8.82937
v	-8.82937
▁कोरोनाव्हायरस	-8.82937
▁प्रसिद्ध	-8.82937
▁संस्थे	-8.82939
▁सुमार	-8.82939
▁लागली	-8.82939
,000	-8.82943
▁फायद	-8.82947
▁उद्योग	-8.8296
▁संरक्षण	-8.83065
▁अमेरिक	-8.83209
▁तासां	-8.83278
आय	-8.83417
सुद्धा	-8.83419
▁येते	-8.83434
▁घरात	-8.83556
▁म्हणजेच	-8.83605
▁आठवड्यात	-8.84079
▁पाळी	-8.84105
लेले	-8.84143
▁बन	-8.84174
▁बाजार	-8.84203
▁यंत्रणा	-8.84203
▁दक्षिण	-8.84203
▁बऱ्याच	-8.84205
▁उघड	-8.84206
▁जिथे	-8.84215
वाद	-8.84283
धार	-8.84378
▁कशी	-8.84476
▁न्यू	-8.84485
▁कर्मचाऱ्यांना	-8.84492
▁परि	-8.84496
▁आणण्या	-8.84508
▁पुढील	-8.84588
▁मानवा	-8.84881
▁झाल्याचं	-8.849
▁सुद्धा	-8.84994
ळे	-8.85224
L	-8.85485
▁आवाहन	-8.85485
▁फोर्स	-8.85486
▁N	-8.85493
▁धोरण	-8.85508
▁जगात	-8.85629
▁लागणार	-8.8569
▁भेट	-8.85761
▁होतात	-8.86101
▁नसल्या	-8.86207
▁घटना	-8.86312
थे	-8.86385
संदर्भात	-8.86737
▁प्राणवायू	-8.86784
▁असणार	-8.86859
▁लावण्या	-8.86948
▁16	-8.86982
▁वाटत	-8.87042
▁त्यांचा	-8.87297
▁घेऊ	-8.87527
िस्ट	-8.87797
दीप	-8.88008
▁उपाययोजना	-8.88099
▁सप्टेंबर	-8.88099
▁महापालिके	-8.88099
▁रिपोर्ट	-8.88099
▁टास्क	-8.88102
▁आंतर	-8.88102
▁जन	-8.88346
▁असल्या	-8.88357
ानंतर	-8.88519
▁आठवड्या	-8.88874
▁प्रा	-8.88999
▁मंत्रालया	-8.89052
▁परिस्थितीत	-8.89138
िव्ह	-8.89338
▁अॅप	-8.8943
▁खरेदी	-8.89433
▁दशलक्ष	-8.89433
▁मार्गदर्शक	-8.89433
▁राहण्या	-8.89448
▁राख	-8.89583
▁संसर्गजन्य	-8.89589
▁ठिकाण	-8.89739
▁मूळ	-8.89798
▁शिक	-8.90057
▁बे	-8.90361
%)	-8.90383
▁देव	-8.90653
च्छ	-8.90746
▁चिकित्सालय	-8.90785
▁बंदी	-8.91005
▁असलेली	-8.91024
भार	-8.91045
▁माल	-8.91099
▁यांची	-8.9137
मुक्त	-8.91387
▁केलेली	-8.91453
▁करणारे	-8.91509
▁इं	-8.91541
▁राहत	-8.91845
▁विषय	-8.92062
▁महत्वाच	-8.92154
▁सॅनिटायझर	-8.92154
ज्ञात	-8.92155
▁देशभरात	-8.9216
▁निदान	-8.92253
▁केअर	-8.92328
▁गर्भ	-8.92355
▁गो	-8.92428
▁विरोधी	-8.92456
▁40	-8.9247
▁तरीही	-8.92663
▁महाराष्ट्रा	-8.9267
▁ठरव	-8.92776
▁वाटतं	-8.92858
▁वाढली	-8.93478
▁विशिष्ट	-8.93543
▁करुन	-8.93546
▁वितरण	-8.93546
▁वस्तू	-8.93546
▁नसेल	-8.93554
▁गेला	-8.93606
▁तपास	-8.93649
▁पूर्वी	-8.93765
हित	-8.9378
▁S	-8.93866
▁वेळी	-8.9392
▁पहिला	-8.93985
▁यावेळी	-8.94338
ल्ट	-8.94426
▁रोगा	-8.94567
▁वापरण्या	-8.94626
▁100	-8.9474
सारखे	-8.94804
▁इंडिया	-8.94887
▁आढावा	-8.94951
▁प्रादुर्भाव	-8.94951
▁फायझर	-8.94951
▁दर्शव	-8.94951
▁2021	-8.94952
▁अगदी	-8.94952
▁फोन	-8.94967
काली	-8.95023
करण	-8.95068
▁टप्प्या	-8.95207
कोव्ह	-8.95415
▁अँप	-8.95425
▁देशांनी	-8.95464
▁अर्ज	-8.95471
ठा	-8.95488
सोबतच	-8.9555
बी	-8.95572
▁देण्यासाठी	-8.95664
आधी	-8.95774
▁त्याचे	-8.95802
▁सूच	-8.95986
▁बनव	-8.96201
न्ट	-8.96334
▁अंमलबजावणी	-8.9638
▁परिषद	-8.9638
▁व्यवस्थापन	-8.96391
▁दावा	-8.96412
▁नसलेल्या	-8.96476
▁विभाग	-8.96518
▁होम	-8.96531
▁वेगवेगळ्या	-8.96534
िज	-8.96644
लक	-8.96791
▁प्रणाली	-8.96817
जारी	-8.96892
▁इन्	-8.96901
▁सुरुवातीला	-8.96903
ंपैकी	-8.96906
▁असल्याचा	-8.97062
▁जागा	-8.97119
स्थान	-8.97301
ट्र	-8.97354
▁आधारित	-8.9736
▁निश्चित	-8.97829
▁फडणवीस	-8.97829
▁म्युटेशन	-8.97829
▁वटवाघळ	-8.97829
▁विद्यापीठ	-8.97829
▁संक्रमित	-8.97829
▁समुदाय	-8.97829
▁ट्रायल	-8.9783
▁सीरम	-8.97833
▁गरजेचं	-8.97839
▁आयोज	-8.97873
▁नसल्याचं	-8.98069
▁प्रच	-8.98157
▁कामगार	-8.98171
▁नेते	-8.98195
▁रुग्णांमध्ये	-8.98373
▁मानव	-8.98393
बो	-8.98655
▁जोड	-8.98773
▁60	-8.98993
▁एस	-8.98993
▁शरीरा	-8.9918
▁दिवसांत	-8.99256
▁ऑक्सफर्ड	-8.993
▁ट्वीट	-8.993
▁2019	-8.993
▁सिरम	-8.99304
▁करायला	-8.99313
मेंट	-8.99335
ः	-8.99417
er	-8.99425
▁कोण	-8.99932
▁कसं	-9.00079
्यावर	-9.00176
▁नर्स	-9.00204
▁व्यक्तीला	-9.00266
▁पूर्णपण	-9.00371
▁वेग	-9.00398
क्क	-9.0046
▁पट	-9.00463
य़ा	-9.00535
▁M	-9.00547
▁मार	-9.00675
▁ची	-9.00745
▁मृत्यु	-9.00767
▁निष्कर्ष	-9.00792
▁मेडिकल	-9.00792
▁चित्र	-9.00801
▁कंपन्यां	-9.01085
लेली	-9.01088
▁अडचणी	-9.01119
▁संबंध	-9.01138
▁रुग्णांवर	-9.01232
ण्याच्या	-9.01314
▁ACE	-9.01408
▁पद्धतीने	-9.01415
▁राहा	-9.01687
ांशी	-9.0199
▁झाल्याने	-9.02267
ांमुळे	-9.02283
▁युनायटे	-9.02307
शासकीय	-9.02308
▁पॉल	-9.02308
▁साधारण	-9.0231
▁होणं	-9.0231
▁कठोर	-9.02326
▁न्याय	-9.0234
भूत	-9.02347
▁म्हणणं	-9.02358
▁लागल्या	-9.02361
▁संकल	-9.02444
▁रोखण्यासाठी	-9.02459
▁झाल्याचे	-9.02511
र्थ	-9.02821
▁येतो	-9.02946
▁80	-9.02985
पूर्ण	-9.033
▁महत्त्वाचं	-9.03406
▁पेशी	-9.03447
▁प्रशासन	-9.03477
▁माझ	-9.036
▁टन	-9.036
▁फि	-9.03605
▁समाव	-9.03753
▁पडत	-9.0382
▁उपयोग	-9.03846
▁हॉटेल	-9.03846
▁संचालक	-9.03847
▁फुफ्फुस	-9.03852
▁टीका	-9.03859
ाईन	-9.03905
▁बाब	-9.03917
▁बैठकीत	-9.03945
▁दिवसांपासून	-9.04063
▁२०	-9.04074
▁महिला	-9.04157
▁व्यक्तींना	-9.04485
स्थिती	-9.04522
▁आठ	-9.04535
▁येतील	-9.0463
▁जण	-9.0486
▁म्हण	-9.0495
▁मूळा	-9.04987
▁संघटने	-9.05027
▁अँटीबॉडी	-9.05408
▁ऑनलाईन	-9.05408
▁कमतरता	-9.05408
▁भूमिका	-9.05408
▁पोलिसां	-9.05408
▁सदस्य	-9.05409
▁मिनिट	-9.05409
▁एवढ	-9.05409
▁साथरोग	-9.05432
▁अधिकाऱ्यांन	-9.05461
in	-9.05514
▁दुसरीकडे	-9.05543
▁घटक	-9.05621
ँड	-9.05675
▁17	-9.05679
▁नियमां	-9.05719
▁शकतं	-9.05872
▁९	-9.05944
▁प्रशासनाने	-9.06083
▁पुरव	-9.06252
▁याविषयी	-9.063
ांमधील	-9.06347
▁डे	-9.06506
▁असले	-9.06588
▁फिर	-9.0662
▁पॅ	-9.06675
▁पुण्या	-9.06685
▁संकट	-9.06877
सायन	-9.06934
▁चिंता	-9.06996
▁कारवाई	-9.06996
▁म्हटले	-9.06996
▁हेल्थ	-9.06996
▁चौकशी	-9.06996
▁रुपये	-9.06996
▁ब्रिटन	-9.06996
▁रुग्णसंख्ये	-9.06997
▁सेवे	-9.07011
▁सुधार	-9.07065
▁रक्ता	-9.0735
▁31	-9.07429
▁घेतल्या	-9.07478
▁आव	-9.07555
▁आत	-9.07753
▁बो	-9.07754
▁नगर	-9.08195
समोर	-9.08206
▁८	-9.08298
▁अल	-9.08317
▁जग	-9.08341
▁पालक	-9.08512
▁युरोप	-9.08519
विरुद्ध	-9.08609
▁धुणे	-9.08609
▁कुठे	-9.0861
▁नव्हती	-9.0861
▁शाळे	-9.08611
▁संवाद	-9.08687
al	-9.0872
▁सादर	-9.0878
▁रेमडेसिव्हिर	-9.08796
▁शै	-9.0897
युक्त	-9.09298
▁पाव	-9.09366
मंत	-9.09384
था	-9.09421
राष्ट्रीय	-9.09852
▁आलेला	-9.09998
▁जि	-9.10136
▁प्रो	-9.10162
▁पोशिंद	-9.10248
▁टँकर	-9.10248
▁प्रकल्प	-9.10248
▁अजित	-9.1026
▁देणार	-9.10266
▁उपक्रम	-9.10282
▁समाज	-9.10286
▁नाहीये	-9.10345
▁घेतल्यानंतर	-9.10363
▁व्हाय	-9.10505
▁महत्त्वाची	-9.10546
प्प	-9.10609
्झा	-9.1068
▁दिल्लीत	-9.10764
▁एकत्र	-9.10944
▁ई	-9.10975
▁तिथ	-9.11161
▁एकाच	-9.11407
▁आठवड	-9.11546
िमान	-9.11575
▁उभ	-9.11602
हर	-9.11733
RCGP	-9.11915
▁फॉर	-9.11915
▁वारंवार	-9.11915
▁आयोगा	-9.11915
▁प्राधान्य	-9.11915
▁पार्श्वभूमीवर	-9.11916
▁आकडा	-9.11917
▁प्राप्त	-9.11936
▁व्हायरसच्या	-9.11938
▁सुरुवाती	-9.11955
गण	-9.11986
▁घ्यावी	-9.12021
▁आयुक्त	-9.12067
▁पाणी	-9.12179
▁घेतले	-9.12179
▁थांब	-9.12275
▁प्रवाशां	-9.1228
▁दहा	-9.12297
शे	-9.12325
▁पद	-9.12345
मधल	-9.12381
संख्य	-9.12412
गाव	-9.12897
▁भो	-9.12966
ांपेक्षा	-9.13216
▁उद्	-9.13274
गृह	-9.13276
नाथ	-9.13418
▁फुफ्फुसां	-9.13603
▁नियमावली	-9.1361
▁रेमडेसिविर	-9.1361
▁रोगप्रतिकार	-9.1361
▁वातावरण	-9.1361
▁उद्भव	-9.1361
▁राहणार	-9.1361
▁उदाहरणार्थ	-9.13615
▁उपकरण	-9.13638
▁नेमक	-9.13671
▁P	-9.14641
▁बाल	-9.14723
▁१०	-9.14973
▁कंपन्या	-9.14997
विरोधात	-9.15024
क्षम	-9.15125
▁मार्चला	-9.15225
हो	-9.1532
▁धार्मिक	-9.15334
▁व्यवसाय	-9.15334
▁व्यावसायिक	-9.15334
क्लिनिकल	-9.15334
▁लागला	-9.15341
▁लागले	-9.15372
▁सापडल	-9.15378
▁प्राण्यां	-9.15384
▁चीनमध्ये	-9.15501
▁रोख	-9.15592
▁स्वच्छता	-9.15602
▁पहिली	-9.15793
▁पेशीं	-9.15818
▁प्रभाव	-9.16067
▁द्या	-9.16276
▁असली	-9.16316
▁येतात	-9.16603
तज्ज्ञ	-9.16828
▁कायम	-9.16991
ॅक्ट	-9.17005
▁अधिकाऱ्यां	-9.17029
▁खोकला	-9.17088
▁प्रोटोकॉल	-9.17088
▁पृष्ठभाग	-9.17088
▁स्वरूप	-9.17088
▁उद्देश	-9.17088
▁अतिशय	-9.17089
▁जंतू	-9.17093
▁संशयित	-9.17194
▁गोळ	-9.17221
▁प्रकाशित	-9.17241
ार्थ	-9.17243
न्न	-9.17269
▁श्वसना	-9.17445
▁राहू	-9.17704
▁आधीच	-9.17789
Co	-9.17925
▁25	-9.18002
▁एकदा	-9.18025
▁लक्षण	-9.18083
▁घेण्यास	-9.18138
▁त्यावर	-9.18147
▁महाराष्ट्राला	-9.18216
रुप	-9.18384
▁महिलां	-9.18513
भाग	-9.18586
▁कसा	-9.18651
▁व्हेंटिलेटर	-9.1871
▁प्रयोगशाळे	-9.18874
▁RSC	-9.18874
▁आढळत	-9.18874
▁पश्चिम	-9.18874
▁महामारी	-9.18874
▁किंमत	-9.18874
▁संघटना	-9.18875
▁मिळेल	-9.18876
▁जाणवत	-9.18901
▁अमेरिकेत	-9.18915
ायक	-9.19019
▁पुरेस	-9.19031
▁वर्षे	-9.19041
▁दिवसा	-9.19229
▁विद्यार्थ्यांना	-9.1934
▁मंत्रालयाने	-9.19387
▁डॉक्टर्स	-9.19413
▁लसीकरणासाठी	-9.19582
▁नोंदवल	-9.19717
▁रोज	-9.19825
करून	-9.19829
▁सोप	-9.19895
▁वाढू	-9.20052
▁मुलांमध्ये	-9.20244
ेअर	-9.20293
माध्यम	-9.2034
▁एखाद	-9.20387
▁हळू	-9.20686
तिरिक्त	-9.20687
▁ICU	-9.20692
▁प्रक्रिये	-9.20692
▁जैविक	-9.20692
▁बाजू	-9.20692
▁ट्विट	-9.20692
▁मीडिया	-9.20692
▁जर्मनी	-9.20693
▁ढकल	-9.20694
▁बातमी	-9.20694
▁आलंय	-9.20695
▁समूह	-9.20696
▁सोनू	-9.20703
▁राय	-9.20708
▁कोरड	-9.20764
▁महाविद्यालय	-9.20943
▁त्यावेळी	-9.20959
▁मॅ	-9.21219
▁नसल्याने	-9.2123
ांकडून	-9.21234
▁70	-9.21338
▁पाण्या	-9.21472
▁सर्	-9.21801
▁कंपनीने	-9.21836
णारे	-9.22014
G	-9.22543
RNA	-9.22544
▁अपेक्षित	-9.22544
▁काँग्रेस	-9.22544
▁तुलना	-9.22544
▁प्रयोगशाळा	-9.22544
▁स्ट्रेन	-9.22544
▁पुरवठ्या	-9.22544
▁क्षमते	-9.22546
▁खेळ	-9.22575
▁ट्रेन	-9.22646
▁पोस्ट	-9.22694
▁उभार	-9.22748
▁प्रदान	-9.22753
▁28	-9.22805
▁काल	-9.22821
▁23	-9.22841
▁दुकाने	-9.23064
▁असलेला	-9.23244
20	-9.23528
▁संच	-9.23585
▁आठवड्यां	-9.23937
▁मदती	-9.23981
▁राज्यांना	-9.24114
▁जगा	-9.24347
▁उत्पन्न	-9.24431
▁प्रारंभ	-9.24431
▁शास्त्रज्ञ	-9.24431
▁रविवार	-9.24431
▁सहभागी	-9.24431
▁इशारा	-9.24431
▁कोणताही	-9.24432
▁समिती	-9.24439
▁खात्री	-9.24439
▁लांब	-9.24456
▁जाणाऱ्या	-9.24515
व्हायरल	-9.24516
▁कोरोनाग्रस्तां	-9.24522
▁संकटा	-9.24582
▁शिक्षक	-9.24643
▁मृत्यूदर	-9.24661
चिनी	-9.24672
ांपासून	-9.24937
▁रहा	-9.2499
▁आल्यानंतर	-9.25065
▁सांगा	-9.25111
ट्ट	-9.2514
▁तपासण्या	-9.25155
▁मात	-9.25313
▁नमुन्यां	-9.25324
▁भास	-9.25345
ायचं	-9.25384
▁वापरासाठी	-9.25403
▁22	-9.25559
▁लोकांची	-9.2562
▁लक्षणां	-9.25906
▁सर्वां	-9.25912
▁वाद	-9.26057
▁करोनाबाधित	-9.26146
बळ	-9.26235
▁शिवाय	-9.26245
बाहेर	-9.26254
▁आपत्	-9.26261
▁राष्ट्र	-9.26311
▁ज्येष्ठ	-9.26354
▁तक्रार	-9.26354
▁तथापि	-9.26354
▁फ्रान्स	-9.26354
▁परदेश	-9.26355
▁ठेवत	-9.26357
▁बायो	-9.26362
▁तरुण	-9.26373
ंजय	-9.26382
▁असतं	-9.26385
▁उत्पादक	-9.26534
▁दुर्	-9.26538
▁संदर्भात	-9.26654
▁मांड	-9.26693
म्प	-9.26766
▁असण्याची	-9.26798
▁खुल	-9.26822
▁जबाबदारी	-9.27026
▁मिळू	-9.27038
▁लागतील	-9.27307
िष	-9.27323
▁प्राणी	-9.27432
▁रुग्णालयां	-9.27501
▁व्हि	-9.27662
▁असाल	-9.27781
▁जातील	-9.27802
▁90	-9.27907
▁म्हणत	-9.28074
▁वेगळे	-9.28096
▁साठव	-9.28153
जवळ	-9.28262
▁आयसोलेशन	-9.28314
▁निवडणूक	-9.28314
▁संशोधक	-9.28314
▁धोक्या	-9.28315
▁निर्देश	-9.28315
▁कुठल्या	-9.28315
CDC	-9.28315
▁पाहता	-9.28325
▁बहु	-9.28328
▁सर्दी	-9.28347
▁स्वत	-9.28425
▁उचल	-9.28451
दायक	-9.28504
तंत्रज्ञान	-9.28707
▁जिम	-9.29145
▁अँड	-9.29163
▁धर	-9.29276
▁नियंत्रणात	-9.29571
ऐवजी	-9.30314
▁युनिव्हर्सिटी	-9.30314
▁व्हॅक्सिन	-9.30314
▁जोखमी	-9.30315
▁चंद्र	-9.30315
▁नाशिक	-9.30316
▁मिळाल्या	-9.30318
▁पाटील	-9.30323
▁बाबतीत	-9.30323
▁त्यांचं	-9.30338
▁प्राण	-9.30696
or	-9.30755
कारक	-9.30816
▁घालण्या	-9.31097
▁गोष्ट	-9.31339
▁मध्यम	-9.3138
क्रिया	-9.31389
ाधिक	-9.31522
▁आकडे	-9.31663
▁बाबी	-9.31697
▁गोष्टीं	-9.3174
▁यांच्याशी	-9.31755
▁साबणा	-9.31786
▁विरोधात	-9.31976
▁MERS	-9.32355
▁इतिहास	-9.32355
▁महापालिका	-9.32355
क्शन	-9.32356
शास्त्र	-9.32357
▁चुकीच	-9.32357
▁शक्ती	-9.32358
▁प्रोटीन	-9.32358
▁मानसिक	-9.32358
▁देताना	-9.3237
देखील	-9.32378
▁बोर्डा	-9.32384
हळू	-9.32389
▁जेवण	-9.32396
▁इथे	-9.32471
▁कोणी	-9.32494
▁जाव	-9.32609
▁अधिकृत	-9.3262
क्षणिक	-9.32783
▁सरकारनं	-9.329
▁सामना	-9.32957
▁झाल्यास	-9.32964
▁नातेवाईक	-9.33017
▁घोष	-9.34428
पीसीआर	-9.34439
▁अल्कोहोल	-9.34439
▁क्रमांक	-9.34439
▁झपाट्यान	-9.34439
▁सकारात्मक	-9.34439
कर्त्या	-9.34439
▁रशिया	-9.34439
▁संयुक्त	-9.34512
▁मर्स	-9.34995
▁सरकारकडून	-9.35095
▁मार्चपर्यंत	-9.35152
▁लागते	-9.35335
▁जिनोम	-9.35438
▁मनात	-9.35528
▁21	-9.35637
▁आलेले	-9.35692
पूर्व	-9.3579
▁महत्त्व	-9.35893
ांश	-9.36094
▁केस	-9.36174
▁यू	-9.36238
▁खास	-9.36256
▁अधिकार	-9.36465
मुख	-9.36564
▁मोहिमे	-9.36566
▁यशस्वी	-9.36566
▁स्थगित	-9.36566
▁सिक्वेंसिंग	-9.36566
▁निरीक्षण	-9.36566
▁शनिवार	-9.36566
▁चेहऱ्या	-9.36567
▁घेणं	-9.36567
▁लागलं	-9.36568
▁घ्यायला	-9.36572
▁यूके	-9.36601
▁डाय	-9.36672
▁२४	-9.36673
▁कोणते	-9.36689
▁१५	-9.36715
at	-9.36756
▁सुरूवात	-9.3679
▁संघ	-9.36871
▁दुकानं	-9.36967
▁13	-9.36974
▁घेतलेल्या	-9.37004
▁रुग्णांसाठी	-9.37138
▁उपचारासाठी	-9.37271
▁बघ	-9.37359
▁ठेवण्यासाठी	-9.37431
मागे	-9.3746
▁यासंदर्भात	-9.37578
शु	-9.37716
▁कदा	-9.37869
▁रूग्णांमध्ये	-9.37997
▁आई	-9.38423
▁अनिवार्य	-9.3874
▁नेटवर्क	-9.3874
▁यंत्रणे	-9.3874
▁हृदय	-9.3874
▁योजने	-9.3874
▁वृद्ध	-9.3874
▁इतक्या	-9.38741
▁नव्हते	-9.38742
▁सर्वेक्षण	-9.38743
▁मिळणार	-9.38744
▁मिळाला	-9.38744
व्यतिरिक्त	-9.38748
▁देणे	-9.38751
▁माणसा	-9.38754
अखेर	-9.38755
▁रस्त्या	-9.38759
▁शिंक	-9.38786
करिता	-9.38787
▁द्रव	-9.38849
▁ताण	-9.38869
▁सभा	-9.39022
▁अति	-9.39054
▁खालील	-9.39194
▁माज	-9.39435
▁बंधन	-9.39519
▁कोरोनाबाधित	-9.39883
10	-9.40288
▁चालव	-9.40479
▁कंट्रोल	-9.40962
▁कॉलेज	-9.40962
▁मंजूर	-9.40962
▁सोसायटी	-9.40962
▁विश्लेषण	-9.40963
▁बंगाल	-9.40963
▁वाजेपर्यंत	-9.40963
▁घराबाहेर	-9.40963
▁कृती	-9.40971
▁निवड	-9.40997
▁खरं	-9.41004
▁मिळाले	-9.41066
मूद	-9.41156
es	-9.41172
▁निकाल	-9.41209
▁असल्यामुळे	-9.41255
▁जेणे	-9.41687
▁रुग्णालयांमध्ये	-9.41744
▁भरती	-9.42435
▁विरोध	-9.42553
▁क्रि	-9.42572
▁किट	-9.42774
▁नमुन्या	-9.42998
▁मधुमेह	-9.43235
कोव्हॅक्सीन	-9.43235
▁बारावी	-9.43235
▁प्रथिन	-9.43236
▁कारणीभूत	-9.43236
▁कुमार	-9.43236
▁सहकार्य	-9.43239
▁पेपर	-9.43241
▁कागद	-9.43253
▁प्रत्यक्ष	-9.43264
▁दहावी	-9.43305
▁काळा	-9.43413
▁व्ही	-9.43587
▁नमुन	-9.43743
▁हवी	-9.43833
▁45	-9.44741
ाईड	-9.44809
▁जाग	-9.44879
द्द	-9.45135
▁संरक्ष	-9.45322
▁ठेवणे	-9.45561
▁तालुक्यात	-9.45561
▁निगेटिव्ह	-9.45561
▁ब्राझील	-9.45561
▁मंजुरी	-9.45561
▁वैयक्तिक	-9.45561
▁व्यायाम	-9.45561
▁विक्री	-9.45561
▁रुपयां	-9.45563
▁जनरल	-9.45565
▁घेणार	-9.45566
▁टोच	-9.45577
▁करेल	-9.45585
▁इंटर	-9.45586
▁हवेत	-9.45624
▁सक्षम	-9.45831
▁पुरेश	-9.45862
ठिकाणी	-9.45881
▁एकत्रित	-9.45909
▁प्रवाशांना	-9.45926
▁लिह	-9.46126
▁प्ल	-9.46367
▁आशा	-9.46409
▁थांबव	-9.46491
50	-9.46744
▁असता	-9.4696
▁कठ	-9.47156
▁वयाच	-9.47387
▁PHE	-9.47942
▁आयुष्य	-9.47942
▁ऑक्टोबर	-9.47942
▁कक्ष	-9.47942
▁खबरदारी	-9.47942
▁टाळेबंदी	-9.47942
▁निर्जंतुक	-9.47942
▁मॉडर्ना	-9.47942
▁विनंती	-9.47942
▁अचानक	-9.47942
▁राहु	-9.47943
▁घेणाऱ्या	-9.47943
▁लॅब	-9.47943
▁नव्हता	-9.47946
▁झोन	-9.47947
▁पुरावा	-9.47948
▁सद्य	-9.4795
▁निधी	-9.47955
▁गेलं	-9.47964
▁सुचव	-9.47989
▁रिक्त	-9.48011
▁लेख	-9.48016
▁उलट	-9.48017
▁सामान्यपणे	-9.48058
▁स्थळ	-9.48062
95	-9.48102
▁शुक्रवारी	-9.48211
▁संघटनेने	-9.48529
▁जणांना	-9.48548
▁कार्यालया	-9.48817
▁राज्यांमध्ये	-9.48906
▁शकल	-9.49232
पाठ	-9.49872
▁प्रॅक्टिस	-9.50302
इफेक्ट	-9.50381
▁असोसिएशन	-9.50381
▁न्यूमोनिया	-9.50381
▁कोरिया	-9.50383
▁मासिक	-9.50388
मेट्रिक	-9.5039
▁धुवा	-9.50391
▁फटका	-9.50422
▁सिद्ध	-9.50437
▁प्रशिक्षण	-9.50449
▁दिवसांपूर्वी	-9.50457
▁१८	-9.50517
▁ऑफिस	-9.50519
▁मूल	-9.50598
▁खाली	-9.50686
पदार्थ	-9.50836
▁जोशी	-9.51003
▁घ्यायच	-9.51068
ालेय	-9.51244
▁डॉक्टरांना	-9.51489
▁मोज	-9.51887
▁इंग्लंड	-9.52881
▁कुंभमेळ्या	-9.52881
▁गायकवाड	-9.52881
▁देखरेख	-9.52881
▁सरासरी	-9.52881
▁सूक्ष्म	-9.52881
▁इमारत	-9.52881
▁एकमेकां	-9.52881
▁नेहमी	-9.52881
▁शब्द	-9.52881
▁मोठं	-9.52882
▁इतकी	-9.52883
▁प्रथम	-9.52885
▁सहाय्य	-9.52886
▁ठाणे	-9.52888
▁पुरावे	-9.52936
▁पाहाय	-9.52944
is	-9.53055
▁कोणाला	-9.53065
रुग्ण	-9.53389
▁समान	-9.53666
कूल	-9.53761
▁लसींच	-9.54256
▁हाताळ	-9.54354
वरुन	-9.54841
▁तापमान	-9.55164
ीक्ष	-9.55331
▁बांध	-9.55445
▁कोव्हिशील्ड	-9.55445
▁खाजगी	-9.55445
▁नोव्हेंबर	-9.55445
▁लगेच	-9.55445
▁विश्वास	-9.55445
▁वैज्ञानिक	-9.55445
▁सर्वसामान्य	-9.55445
▁गुजरात	-9.55445
▁बातम्या	-9.55445
▁व्यापक	-9.55445
ाध्यक्ष	-9.55445
▁सोमवार	-9.55446
▁राजकारण	-9.55446
म्बो	-9.55447
▁फार्मा	-9.55451
▁संधी	-9.55456
▁इराण	-9.55456
▁हवं	-9.5548
ग्ल	-9.555
▁यांचं	-9.55583
▁पसरतो	-9.5564
▁यश	-9.5581
▁मानले	-9.56188
▁वयोगटात	-9.56421
भाष	-9.57878
▁उपमुख्यमंत्र	-9.58076
▁उल्लेख	-9.58076
▁कॅलिफोर्निया	-9.58076
▁महिने	-9.58076
▁वाहतुकी	-9.58076
▁सिंड्रोम	-9.58076
▁संबोध	-9.58076
▁नियामक	-9.58077
▁वृत्त	-9.58077
▁येणं	-9.58077
▁घेणे	-9.58079
▁सातत्यान	-9.5808
▁कोविन	-9.58081
▁कचऱ्या	-9.58082
▁देणाऱ्या	-9.58082
▁शकेल	-9.58084
▁बँक	-9.58085
▁फरक	-9.58107
▁नुकत	-9.58135
▁अंश	-9.58139
▁सीमा	-9.58186
मुद	-9.58209
▁दिल्यानंतर	-9.58249
▁27	-9.58464
विरोधी	-9.5871
COVID	-9.58721
ऑ	-9.58724
▁पावले	-9.58865
▁संक्रमणा	-9.59668
▁संनिरीक्षणा	-9.60424
▁गोंधळ	-9.60779
▁पालघर	-9.60779
▁बिघड	-9.60779
▁संचारबंदी	-9.60779
मार्फत	-9.60779
▁म्हणाल्या	-9.60784
▁कार्यक्षमत	-9.60785
▁वसई	-9.60796
▁अश्या	-9.60798
▁एकीकडे	-9.60804
▁प्रतिक्रिया	-9.60814
▁गरजेचे	-9.60818
▁कुणा	-9.60887
▁कोरोनाविषाणू	-9.60892
▁माध्यमां	-9.61306
ग्न	-9.61308
▁कार्ड	-9.61377
कोव्हिड	-9.61544
▁मिळवण्या	-9.63104
प्रकारे	-9.63191
▁वेगवेगळ	-9.63255
▁प्रकाश	-9.63316
▁उड्डाण	-9.63557
▁कोव्हिशिल्ड	-9.63557
▁मुखवट	-9.63557
▁साखळी	-9.63557
▁प्रजाती	-9.63557
▁रोगजनक	-9.63558
▁रूग्णालयात	-9.63561
▁लढाई	-9.63561
▁इतका	-9.63565
▁रूप	-9.63574
▁पथक	-9.63576
▁जलद	-9.63577
▁राहील	-9.63586
▁मृत्युदर	-9.63603
जिकल	-9.63648
▁मुख्यमंत्र्यांन	-9.63685
ed	-9.63731
▁इंडिय	-9.63733
ाइड	-9.63804
▁व्हेंटिलेटर्स	-9.63813
▁29	-9.63903
▁तापमाना	-9.63968
वर्षी	-9.64275
▁राबव	-9.64451
दिवस	-9.6447
नगर	-9.64819
▁बंधनकार	-9.65609
▁ब्ल	-9.65792
▁तातडीन	-9.66183
▁योग	-9.66231
▁मिळालेल	-9.66284
▁अडथळा	-9.66414
▁आटोक्यात	-9.66414
▁आयसीयू	-9.66414
▁कँडीडेट	-9.66414
▁डिजिटल	-9.66414
▁तुटवड्या	-9.66414
▁नैसर्गिक	-9.66414
▁मूल्यांकन	-9.66414
▁बहुतेक	-9.66415
▁व्यापार	-9.66415
▁निर्यात	-9.66416
▁नॅश	-9.66426
▁विजय	-9.66429
पीपी	-9.66448
▁लग्न	-9.66458
▁बरं	-9.66487
▁वाहन	-9.66545
▁26	-9.66787
▁थंड	-9.6681
▁त्याशिवाय	-9.66852
ंडवे	-9.66898
▁नातेवाईकां	-9.68405
▁प्रतिकार	-9.68557
बंध	-9.69207
W	-9.69355
▁तात्पुरत	-9.69355
▁पूनावाला	-9.69355
▁वैशिष्ट्य	-9.69355
▁व्यवस्थे	-9.69355
▁सक्रिय	-9.69355
▁हर्षवर्धन	-9.69355
PCR	-9.69355
▁गुणकार	-9.69356
▁स्टेट्स	-9.69356
▁परिसरात	-9.69356
▁ठेवून	-9.69356
▁विस्तार	-9.69356
सारखा	-9.69356
▁स्वीकार	-9.69359
▁कायद्या	-9.69372
▁गाडी	-9.69374
▁लक्षणीय	-9.69429
▁विषाणूरोध	-9.69458
▁शोधण्या	-9.69498
▁तातडी	-9.69604
▁विकत	-9.69721
▁काढण्या	-9.69852
माहीत	-9.70372
ांनुसार	-9.71058
ांकडे	-9.71088
▁जबाबदार	-9.71329
त्मक	-9.72283
दैनंदिन	-9.72386
▁न्युमोनिया	-9.72386
▁प्रतिकारशक्ती	-9.72386
▁प्रतिनिधी	-9.72386
▁मार्गदर्शन	-9.72386
▁मोबाईल	-9.72386
▁वेबसाईट	-9.72386
▁ह्रदय	-9.72386
▁छोट्या	-9.72386
▁स्वतंत्र	-9.72386
▁कॅनडा	-9.72386
▁शारीर	-9.72386
▁स्तरावर	-9.72387
▁सगळी	-9.72387
▁एअर	-9.72395
▁अॅक्टिव्ह	-9.72396
▁दुखत	-9.72403
▁गाठ	-9.72413
विषय	-9.72428
▁करीत	-9.72448
▁द्यावी	-9.7248
़	-9.72912
्युल	-9.73155
▁पालकां	-9.73325
निर्मिती	-9.73446
▁दुसर	-9.73606
▁रुग्णांच	-9.73779
▁मुख्यमंत्र्यां	-9.73844
▁पहा	-9.74185
ष्क	-9.74424
▁पाठवण्या	-9.74687
▁उपायां	-9.74831
▁उदाहरण	-9.755
▁आघाडी	-9.75511
▁आढळला	-9.75511
▁आणीबाणी	-9.75511
▁आपात्काल	-9.75511
▁गोपनीयत	-9.75511
▁ग्राहक	-9.75511
▁प्रावस्था	-9.75511
▁प्रस्ताव	-9.75511
▁गमाव	-9.75511
▁फोटो	-9.75511
▁सिस्टम	-9.75513
▁पोहच	-9.75514
▁आरोग्यसेवा	-9.75522
सारखं	-9.7553
▁लावला	-9.75545
▁उतर	-9.75579
▁कुणी	-9.75653
विरार	-9.75745
▁घसा	-9.75753
मंत्र्यांनी	-9.75839
▁संदर्भ	-9.76831
राज्यात	-9.76892
▁पद्धत	-9.77366
रोधक	-9.77677
ांबाबत	-9.78626
▁प्रतिजैविक	-9.78736
▁अतिदक्षत	-9.78736
▁उद्दिष्ट	-9.78736
▁एजन्सी	-9.78736
▁गुंतागुंत	-9.78736
▁गुरुवारी	-9.78736
▁जनुकीय	-9.78736
▁प्लॅटफॉर्म	-9.78736
▁मॉडेल	-9.78736
▁सगळं	-9.78736
▁हायड्र	-9.78736
▁राहणाऱ्या	-9.78736
▁अंतिम	-9.78737
▁लिहिलं	-9.78737
▁वर्तमान	-9.78737
▁प्लांट	-9.78737
▁दिवाळी	-9.78737
▁केरळ	-9.78739
▁गैर	-9.7874
▁नक्की	-9.78741
▁निधन	-9.78748
▁आरटी	-9.7875
▁सूद	-9.78755
▁करायची	-9.78756
▁वर्णन	-9.78758
▁श्री	-9.78786
▁देशमुख	-9.78802
▁ओळखपत्र	-9.78812
▁त्याचप्रमाणे	-9.78837
▁आपत्ती	-9.78893
▁ताब	-9.789
खोल	-9.7938
ाइट	-9.80547
कोरोन	-9.80658
▁मोदींन	-9.81267
▁तंत्र	-9.81896
tion	-9.82069
विल्हेवाट	-9.8207
▁जिल्हाधिकारी	-9.8207
▁नुकसान	-9.8207
▁प्रतिपिंड	-9.8207
▁रेड्डी	-9.8207
▁रेस्पिरेटर	-9.8207
▁स्थलांतर	-9.8207
▁हैदराबाद	-9.8207
▁आढळल्या	-9.8207
▁मिळालं	-9.8207
▁लूकस	-9.8207
निमित्त	-9.8207
▁अचूक	-9.8207
▁इतकं	-9.8207
▁पैसे	-9.8207
▁रोजगार	-9.8207
▁दबाव	-9.82071
▁साहित्य	-9.82071
▁रुग्णवाढ	-9.82071
▁संकेत	-9.82073
▁चांगला	-9.82074
▁शकणार	-9.82082
▁शंका	-9.82084
▁नेत्यां	-9.82086
▁स्वयं	-9.82087
▁घाबर	-9.82088
▁त्वचे	-9.821
▁त्वचा	-9.82113
▁धोकादायक	-9.82129
▁अडक	-9.82154
▁गेल्यावर्षी	-9.82155
▁प्रॅक्टिसेस	-9.82177
▁अटक	-9.82223
मिशन	-9.82246
शहरांमध्ये	-9.83444
महाराष्ट्र	-9.83447
िण्या	-9.83523
▁दुकान	-9.85266
▁डब	-9.85365
▁आफ्रिक	-9.85382
ञ	-9.85516
रोगप्रतिकारशक्ती	-9.85518
▁आश्रय	-9.85518
▁किराणा	-9.85518
▁तब्येत	-9.85518
▁तात्काळ	-9.85518
▁दवाखान्यात	-9.85518
▁प्रौढ	-9.85518
▁लॉकडॉऊन	-9.85518
▁विद्यमान	-9.85518
▁मंत्रिमंडळ	-9.85518
▁वेळापत्रक	-9.85518
▁वॉर्ड	-9.85518
▁हस्तक्षेप	-9.85518
▁ट्रेसिंग	-9.85518
▁लोकसंख्या	-9.8552
▁नियंत्रित	-9.85522
▁जपान	-9.85527
▁देणं	-9.85528
▁ठोस	-9.85529
▁ट्रम्प	-9.85558
▁शेतक	-9.8556
▁अमित	-9.85569
▁विज्ञान	-9.85583
विनाश	-9.85601
▁राजस्थान	-9.85611
▁द्यावे	-9.85635
▁युरोपिय	-9.85686
▁बालकां	-9.85846
▁डॉलर	-9.86371
▁मिळण्या	-9.86476
पक्षी	-9.86851
छ	-9.87018
▁पालकमंत्र	-9.88443
▁कॉन्ट	-9.89089
▁आंदोलन	-9.89089
▁औरंगाबाद	-9.89089
▁जुलै	-9.89089
▁डिस्टन्सिंग	-9.89089
▁तज्ञ	-9.89089
▁स्पुटनिक	-9.89089
▁तृतीय	-9.89089
▁पालिके	-9.89089
▁शिथिल	-9.89089
▁दुपारी	-9.8909
▁नव्हतं	-9.8909
▁बांधकाम	-9.8909
▁ऑगस्ट	-9.8909
▁पेशंट	-9.8909
▁अतिसार	-9.89091
▁वक्तव्य	-9.89091
▁युनिट	-9.89091
सेप्ट	-9.89091
▁टप्पा	-9.89093
▁आमदार	-9.89094
▁इथं	-9.89095
▁पहिल्यांदा	-9.89096
▁वाढवण्याच	-9.89621
▁न्यु	-9.89918
▁यांसारख	-9.90396
मार्ग	-9.90725
▁मंत्र्यां	-9.90757
▁विसर	-9.91486
▁प्रवाश	-9.91603
▁कामगारां	-9.91921
▁फ्ल	-9.9268
ोलॉजी	-9.92792
WIN	-9.92793
▁अनावश्यक	-9.92793
▁पाहिलं	-9.92793
▁प्रोत्साहन	-9.92793
▁वगळता	-9.92793
▁वरिष्ठ	-9.92793
म्युकरमायकोसिस	-9.92793
▁दुर्लक्ष	-9.92793
▁व्यवहार	-9.92793
▁स्टोअर	-9.92793
▁अद्यतन	-9.92793
▁संसाधन	-9.92793
▁डायरिया	-9.92793
▁बाळग	-9.92794
▁मजुरां	-9.92794
▁तणाव	-9.92794
▁चांगली	-9.92795
▁राजधानी	-9.92795
▁इच्छा	-9.92795
▁मुंडे	-9.92799
▁टक्केवारी	-9.92799
▁बुधवारी	-9.92802
▁बाकी	-9.92804
▁बालरोग	-9.92832
▁निघाल	-9.9285
▁कोर्टा	-9.92863
द्राव	-9.92874
▁दिवसभरा	-9.92891
िअर	-9.92942
▁नोंदवण्या	-9.93011
▁मृत्यूंच	-9.93729
घातक	-9.93828
किंवा	-9.94582
▁घटकां	-9.95152
क्लो	-9.95234
▁दिसण्या	-9.95641
मागच	-9.96537
▁आरएनए	-9.96639
▁उत्परिवर्तन	-9.96639
▁उल्लंघन	-9.96639
▁निवडणुकी	-9.96639
▁पुनावाला	-9.96639
▁पॅनगोलिन्स	-9.96639
▁भविष्यात	-9.96639
▁महापौर	-9.96639
▁विश्वविद्यालये	-9.96639
▁सिलिंडर	-9.96639
ॉवेल	-9.96639
▁दुप्पट	-9.96639
▁सिलेंडर	-9.96639
▁सुरक्षे	-9.96639
▁फ्रंटला	-9.96639
▁कुठली	-9.9664
▁चांगलं	-9.9664
▁सगळे	-9.9664
▁दोघां	-9.96641
▁चांगले	-9.96641
▁चांगल्या	-9.96641
▁वर्षभरात	-9.96642
▁मीटर	-9.96649
▁आनंद	-9.96654
▁फूट	-9.96658
▁कचरा	-9.96662
▁कार्यरत	-9.96667
▁मलिक	-9.96669
▁सर्व्हे	-9.96676
▁नव्हे	-9.96679
▁दीड	-9.9674
▁सांगू	-9.96892
▁नावाच	-9.97153
▁पहिल	-9.98007
▁असण्या	-9.98144
▁प्रतिरोध	-9.98608
नियम	-9.98871
▁केंद्राकड	-9.9893
▁मराठ	-9.99404
ज्ञान	-10.0035
▁संशय	-10.0041
▁चिकित्सा	-10.0064
दृष्ट्या	-10.0064
▁अर्थव्यवस्थे	-10.0064
▁ऑनलाइन	-10.0064
▁गांधी	-10.0064
▁निदर्शना	-10.0064
▁महिले	-10.0064
▁सर्वसाधारण	-10.0064
▁सविस्तर	-10.0064
▁सिंगापूर	-10.0064
▁स्पेन	-10.0064
▁हुबेई	-10.0064
्फ्लुए	-10.0064
▁कित्येक	-10.0064
▁दृष्टीकोन	-10.0064
▁पर्यटक	-10.0064
▁प्रयोग	-10.0064
▁फैलाव	-10.0064
▁२०२०	-10.0064
▁मुद्दा	-10.0064
PPE	-10.0064
आकृती	-10.0064
▁डोळे	-10.0064
▁जेसिका	-10.0064
▁शुद्ध	-10.0064
▁रुग्णांपैकी	-10.0064
▁यंदा	-10.0065
▁अब्ज	-10.0065
▁जहाज	-10.0065
▁ठेवावं	-10.0065
▁वाजता	-10.0065
▁अल्प	-10.0065
▁स्वरुपाच	-10.0066
▁आहात	-10.0067
▁स्थिर	-10.0067
शांक	-10.0067
ांहून	-10.007
सिंह	-10.0076
▁आफ्रिकेत	-10.008
शोक	-10.0106
▁ओळखण्या	-10.0133
▁बोलाव	-10.0159
प्रति	-10.0277
द्वा	-10.0358
▁रोखण्या	-10.0378
▁इम्युन	-10.0434
▁ICMR	-10.0481
▁अनलॉक	-10.0481
▁कर्फ्यू	-10.0481
▁कृष्ण	-10.0481
▁डिस्टंसिंग	-10.0481
▁महानगरपालिका	-10.0481
▁मार्केट	-10.0481
▁रिसर्च	-10.0481
▁अॅस्ट्राझेनका	-10.0481
▁पाहिले	-10.0481
▁व्हीडिओ	-10.0481
▁विस्तृत	-10.0481
▁परीक्षे	-10.0481
▁जिवंत	-10.0481
▁नकारात्मक	-10.0481
▁सेरोलॉज	-10.0481
▁सुरवात	-10.0481
▁पालिका	-10.0481
▁शकणाऱ्या	-10.0481
▁ग्लो	-10.0482
▁जुना	-10.0482
▁सायकल	-10.0487
ग्राफ	-10.0489
▁पक्षनेत	-10.0493
ब्रेक	-10.0535
▁वर्षांवर	-10.0539
▁प्रतिमा	-10.0562
नवाब	-10.0623
▁थांबवण्या	-10.0649
जिनोम	-10.0708
पुढे	-10.0709
कोविड	-10.071
सरकार	-10.0712
ब्लि	-10.0746
▁नियोज	-10.0784
▁लागण्याच	-10.0808
द्योग	-10.0907
▁विलग	-10.0914
▁अध्ययना	-10.0915
▁आवृत्ती	-10.0915
▁केजरीवाल	-10.0915
▁कोल्हापूर	-10.0915
▁जॉन्सन	-10.0915
▁दुष्परिणाम	-10.0915
▁प्राध्यापक	-10.0915
▁रामदेव	-10.0915
▁स्नायू	-10.0915
▁हॉटस्पॉट	-10.0915
▁उमेदवार	-10.0915
▁समन्वय	-10.0915
▁स्त्रिया	-10.0915
▁अखेरीस	-10.0915
▁तारीख	-10.0915
▁आम्ल	-10.0915
▁रक्तदाब	-10.0915
▁हंगाम	-10.0915
▁शेकडो	-10.0915
▁कार्यस्थळ	-10.0915
▁कुठला	-10.0916
▁धक्का	-10.0916
▁EU	-10.0916
▁सल्ल्या	-10.0916
▁अंमल	-10.0916
▁थकवा	-10.0916
▁वंचित	-10.0916
▁द्यायला	-10.0916
रविंद	-10.0916
▁द्यावं	-10.0916
▁गेलो	-10.0917
▁राज्यभरात	-10.0923
दोष	-10.0931
ण्यापूर्वी	-10.0933
▁अनुसर	-10.0938
▁पोहोचवण्या	-10.094
म्युनिटी	-10.0965
▁द्यायच	-10.0976
▁वयोगटा	-10.1197
शासनाने	-10.1358
DCGI	-10.137
२२९ई	-10.137
▁अर्थव्यवस्था	-10.137
▁अल्कोहल	-10.137
▁कल्पना	-10.137
▁खवखव	-10.137
▁जनजागृती	-10.137
▁जिल्हाधिकाऱ्यां	-10.137
▁देखभाल	-10.137
▁पाकिस्तान	-10.137
▁युनेस्को	-10.137
▁संवेदनशील	-10.137
▁सर्वप्रथम	-10.137
▁सिस्टिम	-10.137
▁सेकंद	-10.137
▁अवघड	-10.137
▁पाहणी	-10.137
▁मजूर	-10.137
▁खोलीत	-10.137
▁ट्रान्स	-10.137
▁आपापल	-10.137
▁दुखण्या	-10.137
▁राऊत	-10.1371
▁स्वरुपात	-10.1371
▁परवड	-10.1371
▁श्वसनमार्गा	-10.1371
▁चोळ	-10.1371
▁पुनर्	-10.1372
▁बराच	-10.1372
▁मोकळ	-10.1386
▁खाटांच	-10.139
▁वाचवण्या	-10.1399
▁करोनाबाधितांच	-10.142
▁पसरण्याच	-10.1509
▁शिक्षणमंत्र	-10.152
क्षि	-10.1535
▁बनवण्या	-10.1551
विलगीकरण	-10.164
जिल्हा	-10.164
संबंधित	-10.164
लॉकडाऊन	-10.164
▁दुकानां	-10.1659
▁चर्च	-10.1772
नियंत्र	-10.1844
क्षेप	-10.1846
चिंचवड	-10.1846
▁डोकेदुखी	-10.1846
▁दूतावास	-10.1846
▁पिंपरी	-10.1846
▁भाजीपाला	-10.1846
▁मृतदेह	-10.1846
▁संध्याकाळी	-10.1846
▁सुरळीत	-10.1846
▁हाँगकाँग	-10.1846
▁हॅण्ड	-10.1846
▁आरंभ	-10.1846
▁सीडीसी	-10.1846
▁2019-20	-10.1846
▁फेटाळ	-10.1846
▁तत्त्व	-10.1846
▁राष्ट्रवादी	-10.1846
▁दुखणे	-10.1846
▁माणसं	-10.1846
▁वर्कर्स	-10.1846
▁सुट्टी	-10.1846
▁मेसेज	-10.1846
▁इंटरनेट	-10.1846
▁नाईट	-10.1846
▁आशिया	-10.1846
▁स्कूल	-10.1846
▁जिल्ह्य़ात	-10.1846
▁संदेश	-10.1846
▁नेपाळ	-10.1847
▁अंगावर	-10.1847
▁लंडन	-10.1847
▁चक्र	-10.1848
▁कुटुंबीयां	-10.1853
▁घसर	-10.1856
▁मृतांच	-10.1857
▁राखण्या	-10.1862
▁शिल्	-10.1881
क्षेत्र	-10.2132
ACE	-10.2139
SARS	-10.214
आम्ही	-10.214
आणि	-10.2141
दीर्घ	-10.2346
://	-10.2346
http	-10.2346
▁एन्टीबॉडी	-10.2346
▁जिवाणू	-10.2346
▁RTPCR	-10.2346
▁अजिबात	-10.2346
▁आश्वास	-10.2346
▁कृषी	-10.2346
▁डब्लूएचओ	-10.2346
▁दृष्टिकोन	-10.2346
▁निष्क्रिय	-10.2346
▁बिहार	-10.2346
▁विधानसभ	-10.2346
▁वृत्तसंस्थे	-10.2346
सायटोक	-10.2346
▁घरोघर	-10.2346
▁रोगनिदान	-10.2346
▁सहकाऱ्यां	-10.2346
▁पुरुषां	-10.2346
▁समर्थन	-10.2346
▁कुठले	-10.2346
▁प्रवक्त	-10.2346
▁गुन्ह	-10.2347
▁वाईट	-10.2347
प्ताह	-10.2347
▁विवेक	-10.2347
▁विमानतळ	-10.2347
▁रिकाम	-10.2347
▁अग्नि	-10.2351
खाद्य	-10.2356
▁अपयश	-10.2368
मोहन	-10.2384
मुंबई	-10.2666
आधारित	-10.2666
्फ्ल्युए	-10.2872
स्पाईक	-10.2872
▁आखाड्या	-10.2872
▁खोकताना	-10.2872
▁चिंते	-10.2872
▁ठेवणं	-10.2872
▁तालुका	-10.2872
▁प्राधिकरणा	-10.2872
▁रिकव्हरी	-10.2872
▁व्हॅक्सीन	-10.2872
▁सुश्रुष	-10.2872
▁सॅनिटा	-10.2872
▁हाफकिन	-10.2872
▁प्रामुख्यान	-10.2872
▁पॅकेज	-10.2872
▁चिंताजनक	-10.2872
▁दुखणं	-10.2872
▁डिसीज	-10.2872
▁पशूजन्	-10.2872
▁स्रोत	-10.2872
▁सोलापूर	-10.2873
▁अवयवां	-10.2873
▁येणे	-10.2873
▁सल्लागार	-10.2873
▁टप्पे	-10.2873
▁नागरी	-10.2873
▁मंडळा	-10.2873
▁सिनेमा	-10.2873
▁अॅडव्ह	-10.2873
▁अलिकड	-10.2874
▁ह्यांन	-10.2896
▁बोटां	-10.2909
WHO	-10.3221
योग्य	-10.3222
▁नसलेल	-10.3428
दृश्य	-10.3428
▁अस्तित्व	-10.3428
▁आढळली	-10.3428
▁आदिवासी	-10.3428
▁कामगिरी	-10.3428
▁कार्यकर्ते	-10.3428
▁कौतुक	-10.3428
▁ठेवलं	-10.3428
▁थायलंड	-10.3428
▁भौगोलिक	-10.3428
▁मुद्द्यां	-10.3428
▁मेडिसिन	-10.3428
▁व्यवस्थित	-10.3428
▁सामुदायिक	-10.3428
▁हरिद्वार	-10.3428
▁हायकोर्टा	-10.3428
▁अनिश्चित	-10.3428
▁गुठळ्या	-10.3428
▁जीनसंच	-10.3428
▁तारखे	-10.3428
▁बाजारपेठा	-10.3428
▁बायडन	-10.3428
▁महिना	-10.3428
▁साताऱ्यात	-10.3428
▁हृदयविकार	-10.3428
EEA	-10.3428
▁गरोदर	-10.3428
▁चिन्ह	-10.3428
▁संमेलन	-10.3428
▁GP	-10.3428
▁आत्तापर्यं	-10.3428
▁किमती	-10.3429
वर्धन	-10.3434
कोरोनामुक्त	-10.3461
▁बाधितांच	-10.3718
▁अडचण	-10.3886
▁शिक्ष	-10.3934
▁पुरवण्या	-10.4007
ऐ	-12.7615
‘	-12.7616
ौ	-12.7617
औ	-12.7618
ऱ	-12.7619
ॉ	-12.762
“	-12.762
