<pad>	0
</s>	0
<unk>	0
▁के	-3.79806
▁है	-3.95629
।	-4.10113
▁	-4.12565
,	-4.16333
▁में	-4.2099
▁और	-4.2436
ी	-4.33318
▁की	-4.33959
े	-4.42343
▁से	-4.52553
ा	-4.55969
▁को	-4.6172
ों	-4.63222
▁का	-4.72428
न	-4.8413
▁(	-4.84366
)	-4.84996
क	-5.0631
.	-5.0914
-	-5.11442
▁कि	-5.14618
▁हैं	-5.1725
▁पर	-5.18216
र	-5.24342
▁एक	-5.24571
ने	-5.28193
▁लिए	-5.32425
ल	-5.33746
ं	-5.36526
▁इस	-5.36606
म	-5.38286
ता	-5.44921
ि	-5.46878
▁तो	-5.47439
▁जो	-5.48534
स	-5.51646
ित	-5.51821
▁नहीं	-5.52136
▁भी	-5.55076
▁हो	-5.57709
▁न	-5.58956
त	-5.62349
ो	-5.66787
▁कर	-5.70061
▁ने	-5.71156
▁किया	-5.74406
▁यह	-5.74652
प	-5.78311
▁उस	-5.78537
▁अ	-5.82467
ना	-5.83061
द	-5.84146
ट	-5.85563
ज	-5.85937
▁ही	-5.87998
▁या	-5.88717
▁वह	-5.91262
ह	-5.91529
ब	-5.93094
श	-5.9417
▁करने	-5.98071
य	-5.99535
▁आ	-6.00129
्य	-6.04742
▁हम	-6.06312
िक	-6.0642
ु	-6.06942
▁तुम	-6.13718
ू	-6.15721
व	-6.171
▁अपने	-6.17549
▁था	-6.18226
▁वे	-6.26627
▁स	-6.29368
▁क	-6.30217
ण	-6.30263
▁तथा	-6.32506
▁गया	-6.34008
à	-6.34213
का	-6.36629
्	-6.37064
▁कुछ	-6.40883
्र	-6.41214
कर	-6.43784
ियों	-6.43794
से	-6.44411
▁किसी	-6.44739
▁म	-6.46334
▁साथ	-6.48325
ई	-6.48333
ड	-6.48504
▁जब	-6.48813
के	-6.49446
▁रूप	-6.50889
ते	-6.51239
रा	-6.51439
▁उनक	-6.5241
ग	-6.5501
▁कोई	-6.55649
या	-6.57201
ओं	-6.57657
ए	-6.58247
▁द्वारा	-6.59912
▁लोग	-6.6006
फ	-6.60362
▁जा	-6.61033
च	-6.61054
▁भारत	-6.61207
ख	-6.61984
ें	-6.62213
▁करते	-6.62642
ला	-6.64275
▁लोगों	-6.64611
ै	-6.6595
▁थे	-6.66821
▁उन	-6.6691
▁कहा	-6.67378
▁व	-6.67511
▁जाता	-6.67801
▁ब	-6.68184
▁तक	-6.69502
▁फिर	-6.70228
▁इन	-6.70572
▁प्र	-6.72775
/	-6.73883
▁सं	-6.75031
▁करें	-6.75039
▁ह	-6.75273
ती	-6.75653
▁दिया	-6.78905
▁करना	-6.813
▁क्या	-6.82124
▁मैं	-6.83288
?	-6.84297
▁आप	-6.84351
वा	-6.85441
▁प	-6.85599
सी	-6.85779
▁उसके	-6.8592
▁हुए	-6.86512
दा	-6.86826
▁अपनी	-6.86885
▁दो	-6.88062
ः	-6.88517
▁अल्लाह	-6.89077
▁उ	-6.89293
▁द	-6.8976
▁ये	-6.8994
▁रहे	-6.90786
▁त	-6.92192
▁ज	-6.92309
▁उन्हें	-6.93601
नी	-6.93786
¤	-6.94138
ड़	-6.94417
▁जिस	-6.94487
▁"	-6.9526
▁कार्य	-6.96633
▁प्रति	-6.96943
▁वि	-6.97047
▁फ	-6.97228
▁सकता	-6.97511
▁रहा	-6.98238
▁अधिक	-6.99315
▁करता	-7.00026
0	-7.00852
की	-7.00982
▁ख़ुदा	-7.01155
▁होता	-7.02124
र्	-7.02559
ध	-7.026
री	-7.02714
▁थी	-7.02953
▁समय	-7.03025
ज़	-7.04397
▁भ	-7.04672
%	-7.05826
ीय	-7.06361
सा	-7.0637
ंग	-7.06684
▁मेर	-7.06873
कार	-7.07269
▁च	-7.07393
;	-7.07821
2	-7.08717
▁सा	-7.08773
ाई	-7.09511
▁श	-7.09597
▁दे	-7.10311
ौ	-7.10708
▁ले	-7.11934
▁बहुत	-7.12691
में	-7.13102
▁ग	-7.14586
s	-7.15147
▁इ	-7.15411
▁बात	-7.15594
इ	-7.15789
मा	-7.15889
e	-7.16133
▁प्राप्त	-7.16324
i	-7.16438
▁उन्होंन	-7.17066
ष	-7.17713
▁तरह	-7.17849
▁बाद	-7.17942
भ	-7.19695
ॉ	-7.20703
▁हुआ	-7.21267
मान	-7.21948
थ	-7.2235
▁नि	-7.23179
▁वाले	-7.23254
▁राष्ट्रपति	-7.24406
ंड	-7.24782
▁पा	-7.24806
स्त	-7.2535
▁काम	-7.26283
▁पास	-7.26327
▁ल	-7.2647
▁बना	-7.26995
क्ष	-7.27606
▁अन्य	-7.28182
▁गए	-7.2824
▁होने	-7.28434
िया	-7.28771
▁मु	-7.28813
फ़	-7.28911
िल	-7.29487
प्र	-7.29572
▁कम	-7.29736
▁हमारे	-7.30608
▁दी	-7.31304
▁नाम	-7.31687
▁सभी	-7.33266
▁मा	-7.33783
▁ख	-7.3391
▁ए	-7.3429
पर	-7.3429
▁यदि	-7.34623
▁वर्ष	-7.34742
1	-7.34999
▁उप	-7.35559
▁दिन	-7.35838
▁प्रकार	-7.3602
▁गई	-7.36051
▁तुम्हारे	-7.36806
▁ओर	-7.3694
अ	-7.37878
▁पहले	-7.37936
▁सकते	-7.38132
▁अनु	-7.38178
▁होगा	-7.38818
वि	-7.38972
ले	-7.39364
ली	-7.39382
▁सब	-7.39571
5	-7.3979
▁हर	-7.40678
▁ऐसे	-7.40839
▁कारण	-7.4129
्स	-7.41332
्म	-7.4157
▁क्षेत्र	-7.41958
एं	-7.41967
▁बा	-7.42482
▁करो	-7.43205
▁उनकी	-7.43416
्व	-7.43471
ार	-7.43605
▁चाहिए	-7.43808
_	-7.44117
4	-7.45069
▁सरकार	-7.45462
ति	-7.45825
▁अगर	-7.46443
▁होती	-7.46566
कि	-7.47331
क्	-7.48397
▁देश	-7.48819
3	-7.48922
ान	-7.49317
a	-7.49545
▁किए	-7.50824
▁ऐसा	-7.51121
▁घ	-7.51308
▁र	-7.51465
को	-7.51723
t	-7.51759
रे	-7.52781
▁2	-7.53321
क़	-7.53476
:	-7.53763
▁जाने	-7.53957
▁एव	-7.54376
▁रसूल	-7.54589
नि	-7.54698
▁भाग	-7.5515
▁भारतीय	-7.55908
c	-7.56208
▁मे	-7.56217
गी	-7.56389
रण	-7.56551
त्र	-7.56552
▁उसक	-7.5707
▁राज्य	-7.57081
▁दूसर	-7.57735
स्	-7.58039
▁व्यक्ति	-7.5856
m	-7.59016
ठ	-7.59691
▁अब	-7.59853
▁ला	-7.59884
▁सी	-7.60133
▁जिन	-7.602
▁पूर्व	-7.60453
▁बार	-7.60846
ओ	-7.61402
▁कह	-7.62517
दार	-7.62574
▁विकास	-7.63066
▁तुम्हे	-7.63095
िंग	-7.63447
▁उपयोग	-7.63669
8	-7.63797
त्	-7.63878
ँ	-7.64362
▁जाती	-7.64608
ंद	-7.65377
▁मुझे	-7.65754
▁ऐ	-7.66345
▁दोनों	-7.66684
▁हुई	-7.66708
▁प्रदान	-7.66754
▁लगा	-7.66976
जा	-7.67363
▁वा	-7.67415
ष्ट	-7.67548
आ	-7.67644
गे	-7.67719
▁जीवन	-7.68677
u	-7.69133
▁जैसे	-7.69395
p	-7.69588
▁देख	-7.70151
▁s	-7.70245
ाल	-7.70258
घ	-7.70566
▁अपना	-7.70706
हा	-7.70743
बा	-7.70914
▁à	-7.71034
‍	-7.71043
जी	-7.71913
▁बन	-7.71972
▁रही	-7.72121
▁बीच	-7.72427
▁छ	-7.72697
▁मिल	-7.72891
एँ	-7.7332
▁होते	-7.73646
▁रब	-7.73761
▁ध	-7.73762
▁सम	-7.73782
▁श्री	-7.74271
▁लेकिन	-7.74291
▁सु	-7.74658
टी	-7.76355
o	-7.76434
उ	-7.76827
▁लिया	-7.77097
'	-7.77341
ये	-7.77649
जन	-7.78181
लि	-7.782
!	-7.78331
ात	-7.79047
▁स्थान	-7.79116
न्त	-7.7917
िन	-7.79779
▁कु	-7.80393
▁बारे	-7.80585
ऐ	-7.80902
पा	-7.80936
▁परि	-7.81498
▁राज	-7.81787
दी	-7.81791
▁पैदा	-7.81876
▁वाला	-7.81996
पी	-7.8205
ूर	-7.82586
9	-7.82595
न्द	-7.83175
हमारी	-7.83187
▁आग	-7.83278
▁3	-7.83354
मी	-7.83373
▁'	-7.84225
▁अधिनियम	-7.85451
▁देने	-7.85825
।"	-7.85914
▁मान	-7.86474
▁स्व	-7.86618
▁सेवा	-7.86704
▁पु	-7.86755
यों	-7.87257
▁जान	-7.87422
▁केवल	-7.87627
▁ताक	-7.8789
▁ईमान	-7.88012
ंस	-7.88015
▁जाए	-7.88111
वर	-7.88471
▁प्रयोग	-7.88481
▁अव	-7.88796
ुल	-7.88896
7	-7.8896
▁आज	-7.89413
ां	-7.89663
ाव	-7.89758
वाद	-7.90121
▁जाएगा	-7.90827
6	-7.90936
▁ऐस	-7.9116
न्	-7.91188
▁खा	-7.91358
चित	-7.91454
▁चल	-7.91603
▁तब	-7.91887
▁ट	-7.91894
▁समझ	-7.91982
ृ	-7.9218
▁अप	-7.92433
रि	-7.92669
ंत	-7.92712
रो	-7.92897
▁ना	-7.92996
ल्	-7.93067
ृत	-7.9309
▁करती	-7.93462
गा	-7.93588
▁1	-7.94052
स्ट	-7.94206
▁दिखा	-7.94398
▁जिसक	-7.94402
स्थ	-7.9459
¥	-7.94722
▁अथवा	-7.94725
▁पड़	-7.9473
▁आय	-7.94763
िका	-7.94781
▁बस	-7.95231
▁हूँ	-7.95606
▁रह	-7.95685
l	-7.95823
पन	-7.96176
▁योजना	-7.96357
g	-7.96357
▁अभि	-7.96404
▁जिसमें	-7.96582
▁भर	-7.9679
▁विशेष	-7.97374
़	-7.97552
हर	-7.97599
यर	-7.97699
▁जाना	-7.97938
▁क्योंकि	-7.98042
▁सार	-7.98145
ंध	-7.98277
▁उपलब्ध	-7.98857
▁सहायता	-7.98857
▁इसलिए	-7.98859
गत	-7.9888
बी	-7.99032
्न	-7.99224
ियाँ	-7.99363
गर	-8.00051
▁ई	-8.00406
छ	-8.00425
▁सबसे	-8.00865
▁आधार	-8.01015
ग्र	-8.01676
▁उसी	-8.01926
डी	-8.01961
▁बे	-8.01967
िस	-8.02658
ोर	-8.02886
▁जाते	-8.02942
▁पी	-8.0295
▁सकती	-8.03172
▁चीज़	-8.03185
▁जिसे	-8.03283
दान	-8.03301
▁वही	-8.03751
वी	-8.04117
▁संदेश	-8.04131
ूल	-8.04884
▁क़	-8.05144
▁हमें	-8.05373
मत	-8.05414
▁लग	-8.05692
पूर्ण	-8.05897
▁पता	-8.0597
▁देता	-8.06094
▁सह	-8.06372
▁राष्ट्रीय	-8.06427
▁उनसे	-8.06515
▁शक्ति	-8.06826
▁वाली	-8.06866
▁जी	-8.07163
▁विचार	-8.07672
ाँ	-8.07689
धा	-8.07729
▁बाहर	-8.07977
▁स्	-8.08
▁गु	-8.08047
ड़ी	-8.08232
▁डाल	-8.08351
ही	-8.08816
▁पहल	-8.09196
▁मै	-8.09601
...	-8.09612
▁इसे	-8.09681
▁अस	-8.09834
▁बि	-8.09862
▁चि	-8.10119
ंट	-8.10594
▁बड़ी	-8.10616
r	-8.10659
ढ़	-8.11078
▁ड	-8.11388
तर	-8.11709
▁लो	-8.11869
बार	-8.12079
ख़	-8.12215
ास	-8.1224
▁ढ	-8.12251
00	-8.12305
b	-8.12391
▁विषय	-8.12393
▁शिक्षा	-8.12403
▁हाथ	-8.12473
झ	-8.12484
▁घर	-8.12512
▁संबंध	-8.12584
ड़ा	-8.1297
▁होना	-8.13366
ंक	-8.13592
▁अधिकार	-8.14243
▁दिल	-8.14458
▁सामने	-8.14584
▁सूची	-8.14637
त्त	-8.14881
▁धारा	-8.15041
क्स	-8.15104
ऊ	-8.15331
▁होंगे	-8.15429
▁4	-8.15633
▁यहाँ	-8.15684
तः	-8.1572
म्ब	-8.15753
ीकरण	-8.15929
▁दा	-8.15953
▁दर	-8.16376
हार	-8.16417
▁कहते	-8.166
▁अन	-8.16754
▁पार	-8.1689
टर	-8.17024
पुर	-8.17208
>	-8.17342
▁परवरदिगार	-8.17342
र्द	-8.17393
"	-8.18038
▁बल्कि	-8.18363
▁ज़	-8.18529
▁ता	-8.18842
▁मन	-8.19113
कों	-8.1931
w	-8.19395
▁आदि	-8.1944
द्ध	-8.19554
▁20	-8.19819
्ट	-8.19866
▁उत्तर	-8.20468
▁सूचना	-8.20552
ियां	-8.20585
▁मो	-8.2071
▁उठा	-8.20813
ेट	-8.21022
भा	-8.21106
▁लगे	-8.21302
ाह	-8.21369
▁शामिल	-8.21489
▁सामान्य	-8.21489
▁किताब	-8.21523
in	-8.21588
▁लाभ	-8.21668
ैन	-8.21696
▁लोक	-8.21917
▁करे	-8.22301
▁याद	-8.2241
E	-8.22552
▁लिये	-8.22554
▁निकल	-8.2282
C	-8.23066
▁आम	-8.23252
▁पूरी	-8.23643
▁करेगा	-8.23975
▁उनमें	-8.24021
▁अच्छा	-8.24169
’	-8.24714
▁तैयार	-8.24714
▁विभिन्न	-8.24714
▁स्पष्ट	-8.24738
▁स्थिति	-8.24826
▁सके	-8.24846
▁मदद	-8.24855
▁कभी	-8.24892
▁सि	-8.25163
▁अर्थ	-8.2528
▁दूर	-8.25363
भाव	-8.25391
सं	-8.25652
▁बी	-8.25658
▁करके	-8.25689
▁बदल	-8.26331
d	-8.26395
▁जल	-8.2663
▁छोड़	-8.26761
▁मुख्य	-8.26927
▁हेतु	-8.2693
▁फ़ाइल	-8.26931
▁भेज	-8.27017
▁बड़ा	-8.27088
▁विश्व	-8.27337
A	-8.27526
▁चार	-8.2798
▁हूं	-8.28053
▁पूरा	-8.28062
▁मर	-8.2828
▁सर	-8.28826
▁अंतर	-8.29076
▁खुल	-8.29457
बू	-8.29465
▁निर्माण	-8.29478
▁मानव	-8.29697
एस	-8.29918
टा	-8.29961
▁भवन	-8.30343
▁उच्च	-8.30351
▁अवसर	-8.30365
▁चाहते	-8.30422
लो	-8.30444
ताओं	-8.30583
र्ड	-8.30686
▁भाषा	-8.30785
▁झ	-8.31008
S	-8.31023
▁आई	-8.31042
▁होगी	-8.31164
वार	-8.31244
▁उसमें	-8.31347
▁दौरान	-8.31512
▁लिख	-8.31593
▁चाहता	-8.3175
▁हा	-8.32251
▁जहां	-8.32675
▁5	-8.33177
ल्ल	-8.3364
ध्य	-8.33689
▁सभा	-8.33883
▁तुम्हार	-8.33933
्ल	-8.34091
▁नियम	-8.34127
र्ट	-8.34164
मि	-8.34458
वे	-8.34489
▁बढ़	-8.3467
▁जमा	-8.34798
ेगा	-8.34851
▁शा	-8.34854
▁यू	-8.34988
ष्ठ	-8.35029
▁निश्चय	-8.35068
▁बढ़ा	-8.35465
वाह	-8.35621
ष्	-8.3606
व्य	-8.36199
▁उनको	-8.3623
▁प्रक्रिया	-8.36348
र्ज	-8.36364
▁शि	-8.36479
▁प्रत्ये	-8.36716
भी	-8.3693
मे	-8.3727
O	-8.37522
▁अधीन	-8.37523
▁गयी	-8.37534
▁अनेक	-8.37643
बर	-8.37675
▁मध्य	-8.37691
▁वर्ग	-8.37705
▁सीमा	-8.3772
▁इतन	-8.37827
पाल	-8.38302
▁देखा	-8.38365
च्छ	-8.38382
स्क	-8.3847
ज्ञ	-8.38684
▁प्रतिशत	-8.38776
▁तरफ	-8.38801
▁बड़े	-8.38901
▁महा	-8.39172
n	-8.39621
I	-8.3967
िम	-8.39675
▁गये	-8.40202
कृत	-8.40344
▁रंग	-8.40405
ोल	-8.40623
▁चला	-8.40791
▁सम्	-8.41287
▁महत्वपूर्ण	-8.41333
इस	-8.41876
▁बोल	-8.42187
▁स्ट	-8.42187
▁यही	-8.42385
ऋ	-8.42616
▁क्षेत्रों	-8.42696
▁नई	-8.42718
▁बनाया	-8.43124
▁आपको	-8.43188
म्प	-8.43257
ाया	-8.43491
T	-8.43608
▁रोक	-8.43873
▁समूह	-8.43936
▁स्वीकार	-8.43937
▁कार्यक्रम	-8.43993
▁स्तर	-8.44011
▁पो	-8.44203
▁परिवर्तन	-8.44396
बल	-8.44567
चार	-8.44576
▁अंत	-8.44744
ड़े	-8.45013
▁रखा	-8.45045
िश	-8.45183
▁फ़	-8.45215
▁शुरू	-8.45267
▁संख्या	-8.45268
▁सुन	-8.45414
▁आदेश	-8.45516
▁कै	-8.45555
▁अभी	-8.45606
▁बैंक	-8.45636
चा	-8.45796
▁दु	-8.45833
▁रि	-8.46047
दे	-8.46267
र्क	-8.46433
▁देना	-8.46467
देश	-8.4655
▁रा	-8.46582
▁पढ़	-8.46778
यो	-8.46815
▁उत्	-8.46899
०	-8.46986
क्त	-8.47147
ग्रह	-8.47152
▁जारी	-8.47243
▁रू	-8.47581
▁अलग	-8.4765
▁करेंगे	-8.47713
और	-8.47746
▁प्रस्तुत	-8.47989
▁माध्यम	-8.47989
▁स्वयं	-8.47991
▁अनुसार	-8.48019
▁प्रमुख	-8.4806
▁प्रौद्योगिकी	-8.48262
▁जनता	-8.48455
म्म	-8.48463
▁संबंधित	-8.48569
▁ओ	-8.48662
कर्ता	-8.48684
▁बह	-8.4873
▁विश्वास	-8.49105
तम	-8.49134
▁नीचे	-8.49384
▁बच	-8.49441
▁‘	-8.49527
धरती	-8.49554
था	-8.49633
▁जन	-8.49879
▁आए	-8.49909
▁खुदा	-8.49963
▁गो	-8.50176
▁निकाल	-8.50527
▁मार	-8.50757
¤3⁄4	-8.50786
L	-8.50786
▁कृषि	-8.50786
▁मौजूद	-8.50786
▁ऊपर	-8.50788
▁सुरक्षा	-8.50804
▁पानी	-8.5118
▁अतः	-8.51216
▁डर	-8.51406
्ति	-8.51695
ूँ	-8.51766
▁करा	-8.51851
N	-8.52215
न्तु	-8.52249
▁प्रेम	-8.52269
▁काफी	-8.52295
धारण	-8.52728
▁रो	-8.52891
▁ब्र	-8.52896
▁समान	-8.53086
न्न	-8.53166
मन	-8.53203
्द	-8.53243
▁पूर्ण	-8.53374
▁दें	-8.53418
युक्त	-8.53447
▁नया	-8.53563
▁केन्द्र	-8.5364
▁ख़	-8.53643
▁उद्देश्य	-8.53664
गार	-8.53668
ाब	-8.53765
▁स्वा	-8.53802
आई	-8.53846
▁पद	-8.54303
▁ज्ञान	-8.54309
ुर	-8.54745
▁सू	-8.54834
▁ज्यादा	-8.55135
▁विवरण	-8.5518
▁बनाने	-8.55545
er	-8.56056
ेशन	-8.5617
्वा	-8.56176
▁माल	-8.56186
मु	-8.56409
R	-8.56484
▁केंद्र	-8.56583
ण्ड	-8.56624
▁विश्वविद्यालय	-8.56627
▁प्रयास	-8.56633
▁ठीक	-8.56635
यन	-8.56823
▁चौ	-8.57005
▁दुनिया	-8.57141
▁खोज	-8.57584
▁आवश्यकता	-8.57702
▁रख	-8.5788
f	-8.58099
▁सामाजिक	-8.58143
▁इसी	-8.58158
▁सिवा	-8.58296
▁य	-8.58356
▁तीन	-8.58367
उस	-8.58744
वादी	-8.58763
▁अल	-8.59199
र्स	-8.59521
ज़ा	-8.59572
▁मामले	-8.5959
▁मूल	-8.59741
कारी	-8.59816
▁पश्चिम	-8.59874
▁मूल्य	-8.59922
▁वै	-8.59934
▁जिनक	-8.60014
दर्श	-8.60282
▁रु	-8.60308
▁कार	-8.60337
▁आया	-8.60559
भूत	-8.60678
▁बता	-8.60777
▁मि	-8.60815
▁कर्म	-8.60817
दाय	-8.60895
बे	-8.61084
▁समस्या	-8.61244
▁पूछ	-8.61244
▁ऋण	-8.61247
▁लौट	-8.61247
▁निशान	-8.61248
▁आपक	-8.61258
▁पै	-8.61282
▁जिन्हें	-8.61349
▁किस	-8.61561
शा	-8.61595
▁धर्म	-8.61783
▁जैसा	-8.618
▁19	-8.61844
▁ट्र	-8.61958
▁लेकर	-8.61998
▁लाए	-8.62297
▁हों	-8.62378
▁8	-8.62401
भाग	-8.62664
▁व्य	-8.62754
▁व्यापार	-8.62832
▁उद्योग	-8.62836
▁“	-8.62846
चि	-8.62879
▁ध्या	-8.6305
▁भू	-8.6315
▁निर्	-8.63175
▁जाओ	-8.63186
▁सदस्य	-8.63451
▁पक्ष	-8.63454
▁चाहे	-8.63459
▁सोच	-8.6362
सर	-8.63634
▁रे	-8.63718
ुक	-8.63747
y	-8.64134
वास	-8.64214
म्	-8.6425
र्ग	-8.64429
▁फ़ोल्डर	-8.64444
▁पीछे	-8.64445
▁अच्छे	-8.64448
▁कानून	-8.64451
▁न्यायालय	-8.64454
▁नीति	-8.64466
▁a	-8.6473
▁विंडो	-8.64748
▁जानते	-8.64787
र्इ	-8.64857
▁खंड	-8.64875
▁रहते	-8.64959
धिक	-8.65397
▁इं	-8.65635
▁चा	-8.65675
or	-8.66
▁सुविधा	-8.66083
▁प्रभाव	-8.6617
▁पत्र	-8.66186
स्व	-8.66198
▁तुम्हारी	-8.66267
▁होकर	-8.66383
▁पहुँच	-8.66394
▁गुण	-8.66419
रत	-8.66656
▁सो	-8.66805
कल	-8.6684
त्व	-8.67275
▁विशिष्ट	-8.6775
▁क्षमता	-8.6775
▁बराबर	-8.6775
▁ज़मीन	-8.67751
▁आकाश	-8.67757
01	-8.67793
P	-8.67795
▁वर्त	-8.67811
▁वस्तु	-8.67901
▁पे	-8.67916
▁शहर	-8.67953
चे	-8.68066
शन	-8.68133
▁राष्ट्र	-8.68221
▁डि	-8.68455
▁ली	-8.68466
▁देते	-8.68509
मगर	-8.68751
▁एस	-8.68768
▁मत	-8.68931
▁आकार	-8.69022
▁कुल	-8.69159
▁पं	-8.6934
▁पिछल	-8.69446
▁अवधि	-8.69459
▁जानकारी	-8.69491
▁तौर	-8.6952
▁विन	-8.69604
▁बु	-8.69701
जे	-8.70121
▁शब्द	-8.70171
डा	-8.70387
▁टे	-8.70531
▁स्थाप	-8.70622
▁लगभग	-8.71169
▁हुक्म	-8.71169
▁मार्ग	-8.71225
▁&	-8.71444
▁अत्य	-8.7145
चर	-8.71471
▁नही	-8.71494
▁ऑ	-8.71524
िला	-8.71524
▁आवश्यक	-8.71673
उन	-8.71712
▁अधिकारी	-8.71801
▁वहां	-8.71876
▁काल	-8.7201
▁लेने	-8.72058
▁आने	-8.72081
▁देव	-8.72496
▁बल	-8.72878
	-8.72922
▁परियोजना	-8.72923
▁सिंह	-8.72926
▁निम्न	-8.72926
▁रखते	-8.73105
▁आर्थ	-8.73167
नाथ	-8.73369
यां	-8.73545
▁संस्था	-8.7377
ाना	-8.74105
जो	-8.7418
ेड	-8.74221
▁गांधी	-8.74709
▁संसद	-8.7472
▁सहयोग	-8.7473
▁सिर्फ	-8.74743
▁प्रदेश	-8.74871
▁6	-8.74881
ियम	-8.74954
▁जे	-8.75067
बद्ध	-8.75448
पूर	-8.75746
पित	-8.75938
▁क्रिया	-8.75971
▁क्र	-8.75977
▁थ	-8.75995
▁रोग	-8.76058
र्थ	-8.7632
र्व	-8.76493
▁परिणाम	-8.76527
▁युद्ध	-8.76528
▁कौन	-8.76535
▁चुके	-8.76631
▁छा	-8.76655
▁तु	-8.76688
श्त	-8.76815
िय	-8.76954
▁बिना	-8.77134
▁पहुंच	-8.7735
वान	-8.7741
▁वालों	-8.77476
▁रात	-8.77632
▁सही	-8.77796
▁ठ	-8.78114
पि	-8.78159
ीन	-8.78262
▁प्रणाली	-8.7838
▁बंगाल	-8.7838
▁जगह	-8.78382
▁वास्ते	-8.78382
▁आयोज	-8.78403
ार्थ	-8.785
▁गिर	-8.78566
ांत	-8.78634
▁परन्तु	-8.79125
रिया	-8.79236
▁योग	-8.793
▁”	-8.7955
गु	-8.79578
▁बर	-8.79655
▁बैठक	-8.79788
टे	-8.79864
न्ध	-8.8003
▁एक्स	-8.80043
▁आयत	-8.80149
राम	-8.80189
▁अतिरिक्त	-8.80266
▁दक्षिण	-8.80266
▁समाप्त	-8.80266
▁बेशक	-8.8027
▁मित्र	-8.80342
▁स्वतंत्रता	-8.80404
▁रखने	-8.80491
शील	-8.80519
▁एन	-8.8053
▁दल	-8.80674
▁जोड़	-8.80681
▁न्याय	-8.80683
▁विधि	-8.80689
फा	-8.80768
▁अग्र	-8.80948
रूप	-8.81226
िए	-8.81254
▁C	-8.81261
▁साल	-8.81383
▁उत्पाद	-8.81405
▁कला	-8.81596
▁खोल	-8.81622
▁राह	-8.81701
▁तू	-8.81786
▁संस्थान	-8.82047
▁सत्य	-8.82161
▁क्यों	-8.82163
▁लागू	-8.8219
▁समाज	-8.82201
▁महिला	-8.82207
▁:	-8.82268
राज	-8.82306
▁18	-8.8231
▁चुका	-8.82313
v	-8.82408
▁पेश	-8.8264
▁धन	-8.82945
▁समिति	-8.83152
▁सौ	-8.83255
ेंगे	-8.83385
▁महान	-8.83541
▁जुड़	-8.83695
ाइट	-8.8388
टो	-8.84098
▁पुस्तक	-8.84147
३	-8.8415
▁मनुष्य	-8.8415
▁साहित्य	-8.8415
▁लक्ष्य	-8.84151
▁अच्छी	-8.84156
▁दृष्टि	-8.84184
▁जन्म	-8.84252
▁विदेश	-8.8429
न्य	-8.84299
हमेशा	-8.84389
▁0	-8.84417
▁निवेश	-8.84562
▁10	-8.84568
▁हाल	-8.84693
▁मह	-8.84902
एम	-8.84913
▁प्रा	-8.84933
ियन	-8.85202
ूद	-8.85461
▁प्रो	-8.85641
▁कहने	-8.85949
¤	-8.86149
▁कंपनी	-8.8615
▁जरूरत	-8.8615
▁रिपोर्ट	-8.8615
▁दिल्ली	-8.8615
▁बच्चे	-8.86151
▁बाजार	-8.86152
▁आर	-8.86193
▁नियंत्रण	-8.86227
हमारा	-8.86338
▁श्	-8.86402
▁पाठ	-8.8641
▁चाह	-8.86416
▁अज़ाब	-8.86572
▁प्रबंधन	-8.86628
▁उसको	-8.86644
गल	-8.86789
ोन	-8.86895
▁रहने	-8.87337
▁जानता	-8.87368
क्ति	-8.87712
19	-8.87715
वर्त	-8.88023
▁देशों	-8.88078
U	-8.8819
▁अनुसंधान	-8.8819
▁निस्संदेह	-8.8819
▁संगठन	-8.8819
▁निर्णय	-8.88192
▁मंत्रालय	-8.88194
▁यातना	-8.88213
▁कहीं	-8.88214
▁अनुभव	-8.88223
▁परिवार	-8.88271
▁खेल	-8.88298
▁दिए	-8.8831
काल	-8.88315
50	-8.88354
ग़	-8.88375
▁भय	-8.88497
गो	-8.88551
स्प	-8.88591
▁देगा	-8.886
▁बंद	-8.88691
▁लाख	-8.88705
एफ	-8.89078
शास	-8.89111
दर	-8.89377
▁जिन्ह	-8.89489
ात्मक	-8.89648
पत्र	-8.8976
र्त	-8.90089
▁प्रकाश	-8.90151
▁प्रारंभ	-8.90274
▁विकल्प	-8.90274
▁व्यवस्था	-8.90274
▁अंतर्गत	-8.90274
▁लंब	-8.90334
▁राम	-8.90377
▁विभाग	-8.90401
▁संघ	-8.9067
D	-8.90742
▁सद	-8.90768
▁चित्र	-8.90824
गें	-8.90918
▁S	-8.91131
ेस	-8.91144
▁मौ	-8.91242
▁बनाए	-8.91503
▁क्ल	-8.91509
क्षा	-8.9163
ूत	-8.91926
्श	-8.91985
ल्ड	-8.92025
▁भेजा	-8.92298
▁P	-8.92344
▁त्रुटि	-8.92401
▁पहचान	-8.92402
▁सम्बन्ध	-8.92402
▁घटना	-8.92405
¤°	-8.92406
▁संयुक्त	-8.92578
▁वक्त	-8.92615
यु	-8.92728
▁अन्त	-8.92805
क्षक	-8.92986
▁I	-8.93026
▁वहाँ	-8.9305
क्रम	-8.93066
▁7	-8.93095
▁डॉ	-8.93098
▁गा	-8.93294
▁आधारित	-8.93423
▁रुप	-8.93502
▁बन्द	-8.93527
मय	-8.93619
▁ग़	-8.93792
▁प्रण	-8.941
▁फल	-8.94107
re	-8.9413
an	-8.94157
हम	-8.94278
▁निश्चित	-8.94576
▁संपर्क	-8.94576
▁प्रश्न	-8.94576
▁शरीर	-8.94579
▁परंतु	-8.94583
▁जांच	-8.94585
▁फाइल	-8.94633
▁पड़े	-8.94645
▁जाएगी	-8.94734
▁देखते	-8.95113
▁मिला	-8.95187
▁स्प	-8.95316
▁उत्पादन	-8.95487
▁डे	-8.95824
▁अति	-8.95982
▁१	-8.96012
कृति	-8.96255
ंगा	-8.96561
F	-8.96798
x	-8.96798
▁name	-8.96798
▁ग्रामीण	-8.96798
▁यक़ीन	-8.96798
▁सक्रिय	-8.96798
▁प्रस्ताव	-8.96798
▁ज़रूर	-8.96798
▁बेहतर	-8.96798
▁मूसा	-8.968
▁दिशा	-8.968
▁रचना	-8.96801
▁बुर	-8.96807
▁यात्रा	-8.96812
▁न्यू	-8.96819
▁वापस	-8.96819
▁राशि	-8.96836
▁सुधार	-8.9694
▁स्थापना	-8.97195
▁रखता	-8.97449
तौर	-8.97454
▁डाक	-8.97761
▁लेते	-8.97805
पति	-8.98038
ून	-8.98093
चल	-8.98368
लिखित	-8.98853
▁पत	-8.99029
▁पुरुष	-8.9907
▁स्वास्थ्य	-8.9907
▁स्रोत	-8.99071
▁खुश	-8.99074
▁चीज	-8.99075
▁पुरान	-8.9926
▁पि	-8.99688
सु	-8.99693
वत	-8.99722
न्द्र	-8.99768
▁गीत	-8.99967
वेद	-9.00028
धारा	-9.00071
▁सहित	-9.00124
▁कितन	-9.00481
▁k	-9.00517
▁जु	-9.00834
▁बहु	-9.01053
▁करनेवाल	-9.01147
ीकृत	-9.01182
▁मुक्त	-9.01317
▁डा	-9.01326
▁कृपया	-9.01396
▁प्रधानमंत्री	-9.01396
▁छोटे	-9.01396
▁मंदिर	-9.01396
▁हिस्सा	-9.01396
▁बच्चों	-9.01397
▁उत्पन्न	-9.01409
▁तेज	-9.0141
▁जल्द	-9.01452
क्या	-9.016
▁संग्रह	-9.01603
▁वृद्धि	-9.01695
▁9	-9.02066
▁पाया	-9.02463
मुख	-9.02644
▁मद	-9.02823
▁सफल	-9.02884
▁M	-9.02956
क्षण	-9.03223
ची	-9.03602
▁बुरा	-9.0363
▁हु	-9.03654
▁आस	-9.03731
ायी	-9.03745
६	-9.03777
▁मृत्यु	-9.03777
▁समुद्र	-9.03777
▁शुल्क	-9.03777
▁जहाँ	-9.03778
▁अलावा	-9.03783
वीं	-9.03807
▁फैल	-9.03839
▁वित्तीय	-9.03841
▁तेर	-9.03854
?"	-9.04032
▁स्थानीय	-9.04097
▁फेर	-9.04158
ly	-9.04238
▁हटा	-9.0434
▁छवि	-9.0437
▁समझा	-9.04456
पूर्वक	-9.04952
▁लगता	-9.04959
▁हवा	-9.0507
हत	-9.05215
करण	-9.05265
▁आयु	-9.05324
ंगी	-9.05355
▁हित	-9.05509
▁देखने	-9.05797
▁वास्तव	-9.05977
निर्दिष्ट	-9.06118
▁झूठ	-9.06216
▁आरंभ	-9.06216
▁निर्यात	-9.06217
▁क़ौम	-9.06217
▁आवेदन	-9.06218
▁अंग्रेज	-9.0622
on	-9.06221
▁संकेत	-9.06222
▁कर्मचार	-9.06252
▁पुनर्	-9.06252
11	-9.06278
▁आसमान	-9.063
▁अंग	-9.06316
▁तहत	-9.06332
श्च	-9.06352
▁वृ	-9.0642
▁मामल	-9.06513
▁योग्य	-9.06534
स्तान	-9.06701
▁गति	-9.06719
M	-9.07064
१	-9.07065
क्रिया	-9.07071
▁_	-9.07104
▁करोड़	-9.0715
▁विज्ञान	-9.07168
बाद	-9.07255
▁आत्म	-9.07414
लाल	-9.08146
तु	-9.08643
▁भूमि	-9.08647
¤¿	-9.08715
ity	-9.08716
optional	-9.08716
–	-9.08716
▁पृष्ठ	-9.08716
▁translat	-9.08716
▁अपेक्षा	-9.08716
▁प्रवेश	-9.08717
▁पुनः	-9.08719
▁निकट	-9.08751
▁इतिहास	-9.0877
▁माना	-9.08778
▁गलत	-9.08816
बोध	-9.0882
▁सम्मान	-9.08865
▁जाएँ	-9.08928
▁जाएँगे	-9.09204
▁सर्वर	-9.0923
▁सीख	-9.09358
▁भाई	-9.09391
यत	-9.09436
ालय	-9.09459
▁गैर	-9.09463
▁बदला	-9.09499
दूसर	-9.09646
▁डी	-9.09706
▁रहो	-9.09797
▁वो	-9.09946
आर	-9.09963
▁बदले	-9.09963
ज्ज	-9.10075
▁बचा	-9.10208
▁बाल	-9.10283
▁11	-9.1031
▁पहुँचा	-9.10794
जह	-9.10993
▁ग्	-9.11065
▁आपस	-9.11097
▁25	-9.11219
५	-9.11266
Name	-9.1128
▁संविधान	-9.1128
▁सम्मेलन	-9.1128
▁मुँह	-9.11281
▁अवस्था	-9.11281
▁दिनांक	-9.11283
▁जीव	-9.11286
▁प्रमाणपत्र	-9.11292
▁सहायक	-9.11298
ion	-9.11307
▁रुपये	-9.11335
▁संपाद	-9.11389
▁लागत	-9.11447
▁ईमानदार	-9.11456
▁अमेरिका	-9.11658
नीय	-9.11692
▁गहर	-9.11693
▁मांग	-9.1198
▁स्थित	-9.12108
ज़ी	-9.12133
k	-9.12212
”	-9.12264
▁बेट	-9.12533
▁अंक	-9.1301
▁क्रम	-9.13032
वासी	-9.13074
जीव	-9.1316
▁लेख	-9.13288
▁सर्व	-9.13403
▁जाये	-9.13545
लाइन	-9.13728
वह	-9.13823
▁पाक	-9.13853
▁#44;	-9.13912
▁मुखर्जी	-9.13912
▁वैज्ञानिक	-9.13912
▁संसाधन	-9.13912
▁बोर्ड	-9.13913
▁प्रगति	-9.13914
▁जवाब	-9.13915
▁मात्रा	-9.13931
▁प्रकट	-9.13932
▁शासन	-9.13937
▁विस्तार	-9.13961
▁घाट	-9.14013
▁जाति	-9.14058
▁''	-9.1407
▁गुनाह	-9.14083
एक	-9.14087
▁भूमिका	-9.14102
▁जिला	-9.14214
▁निजी	-9.14252
▁चुनें	-9.14338
en	-9.14875
धर	-9.14929
▁साफ	-9.14988
▁ख़ा	-9.1499
▁भीतर	-9.15116
▁निका	-9.15128
▁d	-9.15189
▁उपस्थित	-9.15285
▁h	-9.15488
▁कॉ	-9.15631
▁अधि	-9.1584
▁गण	-9.16451
¤	-9.16614
▁सामग्री	-9.16614
▁हस्ताक्षर	-9.16614
▁इस्तेम	-9.16614
▁संभावना	-9.16615
▁पुलिस	-9.16616
▁मालूम	-9.16616
▁संगीत	-9.16617
ख्त	-9.16632
▁(1)	-9.16653
▁लिखा	-9.16663
▁अंतिम	-9.16666
▁199	-9.16685
▁उपकरण	-9.16691
▁प्रशिक्षण	-9.16698
प्त	-9.16817
रेख	-9.1687
ाधिकार	-9.16898
▁जाय	-9.17079
▁आशा	-9.17117
▁जि	-9.1712
मंडल	-9.17568
वल	-9.17628
ख़ुदा	-9.17758
राष्ट्रीय	-9.17805
▁मुह	-9.17824
▁भाव	-9.18012
▁राजा	-9.18133
▁लें	-9.18174
▁सदस्यों	-9.18312
▁सुना	-9.18609
h	-9.1869
ar	-9.18736
▁हे	-9.18848
▁कल	-9.1913
प्ल	-9.19215
ॅ	-9.19392
८	-9.19392
▁ऊर्जा	-9.19392
▁स्कूल	-9.19394
योग	-9.19405
ूँगा	-9.1947
स्थायी	-9.19509
▁दिखाएँ	-9.19548
त्ता	-9.19607
ाइड	-9.19756
▁व्यक्तियों	-9.19759
▁व्यवहार	-9.19793
्रि	-9.19794
▁गठ	-9.198
▁सका	-9.19898
▁रखना	-9.19966
▁भार	-9.20105
▁चुन	-9.20126
▁कैसे	-9.20318
▁टी	-9.20371
▁बै	-9.206
पाद	-9.20633
स्त्र	-9.20701
▁थीं	-9.20714
▁लेखा	-9.20838
्कार	-9.21012
ल्क	-9.21031
▁व्यक्त	-9.21384
▁कठिन	-9.21743
कल्पना	-9.2185
▁%	-9.22058
▁चिकित्सा	-9.22249
▁भविष्य	-9.22249
▁भुगतान	-9.22249
▁समाधान	-9.22249
bab	-9.22249
▁नागरिक	-9.2225
▁शायद	-9.22251
▁असफल	-9.22251
▁प्रथम	-9.22253
▁विजय	-9.22258
▁गुरु	-9.22309
▁वायु	-9.2232
▁विरोध	-9.22321
लोड	-9.22339
लैंड	-9.22366
▁ऑफ	-9.22399
च्च	-9.22478
▁12	-9.22565
मीटर	-9.22596
बु	-9.22733
हिर	-9.2281
▁समर्थन	-9.22822
▁दिनों	-9.22843
▁तंत्र	-9.22956
▁बने	-9.22982
▁शख	-9.23442
पु	-9.23757
▁पैर	-9.23823
▁चु	-9.23825
▁तरीक	-9.24165
▁सरकारी	-9.24357
▁राज्यों	-9.2455
▁उदाहरण	-9.24569
▁अगल	-9.24778
H	-9.2519
}	-9.2519
▁आधुनिक	-9.2519
▁शताब्द	-9.2519
▁भिन्न	-9.25191
▁निर्देश	-9.25191
▁अवश्य	-9.25193
▁आदमी	-9.25194
¥	-9.25196
▁पसंद	-9.25196
▁तीसर	-9.25207
पास	-9.25227
▁खरीद	-9.25232
▁अनुमति	-9.25263
▁मिटा	-9.25283
▁प्राकृत	-9.25284
▁गवाह	-9.25406
▁विचारों	-9.25414
▁आसान	-9.2543
्ला	-9.25466
▁चयनित	-9.25491
▁बुला	-9.25507
▁पुकार	-9.25585
कला	-9.25596
▁तर	-9.25652
▁भावना	-9.25694
ग्राम	-9.2571
▁खाते	-9.25797
▁बैठ	-9.26016
▁जैस	-9.26075
▁सन्	-9.26614
):	-9.26629
मात्र	-9.2677
▁खुद	-9.26957
▁निर	-9.27608
▁उठ	-9.27674
ियो	-9.27875
▁लाल	-9.28083
▁प्रमाण	-9.28209
कृष्ण	-9.28221
▁गुणवत्ता	-9.28221
▁वेबसाइट	-9.28221
▁समारोह	-9.28221
▁not	-9.28221
▁pro	-9.28221
▁यूरोप	-9.28221
▁शेयर	-9.28225
▁पदार्थ	-9.28254
मेल	-9.28255
▁बयान	-9.28257
▁पूरे	-9.28261
▁तकनीक	-9.28296
▁रक्त	-9.28422
▁खतर	-9.28656
▁प्रभावित	-9.28986
▁सूर	-9.29055
याँ	-9.29102
▁व्या	-9.29155
▁दिख	-9.29268
▁A	-9.29655
tt	-9.29656
▁लड़	-9.29758
गाह	-9.29792
▁मना	-9.29916
नेवाले	-9.30073
▁सकें	-9.30112
तुम	-9.30378
पात	-9.30455
▁मिलने	-9.30746
▁आपने	-9.31267
G	-9.31346
▁doe	-9.31346
▁need	-9.31346
▁नेटवर्क	-9.31346
▁पर्यावरण	-9.31346
▁मजबूत	-9.31346
▁अध्ययन	-9.31346
▁सुनिश्च	-9.31346
▁मुद्द	-9.31346
▁महत्व	-9.31346
://	-9.31347
▁प्रशासन	-9.31347
▁ज़ालिम	-9.31354
▁निर्धारण	-9.31386
▁विकस	-9.31387
▁चुकी	-9.31458
▁प्रदर्श	-9.31528
▁साझ	-9.31634
▁R	-9.31649
▁वास्तविक	-9.31654
ra	-9.31706
▁चाल	-9.31829
▁२	-9.319
▁पैग़म्बर	-9.32065
▁अनुस	-9.32102
▁युवा	-9.32142
▁एल	-9.3224
टिंग	-9.32388
न्ट	-9.32509
▁चे	-9.32514
ट्ट	-9.32528
▁संबंधी	-9.32565
▁बातें	-9.32583
वरण	-9.32635
न्स	-9.32676
▁तुमको	-9.32735
▁बर्	-9.32748
यें	-9.32853
▁कमी	-9.32884
अपने	-9.32952
वालों	-9.33058
ाइन	-9.33075
मार	-9.33137
▁चलता	-9.33175
▁निर्धारित	-9.33218
▁रहता	-9.33435
▁मिलता	-9.33527
▁मेल	-9.33775
▁D	-9.33846
▁गोल	-9.34021
▁किये	-9.34355
एगा	-9.34385
ॉन	-9.34417
देव	-9.34433
विध	-9.34436
▁रस	-9.34506
▁जिसकी	-9.34534
Z	-9.34571
४	-9.34571
▁उल्लेख	-9.34571
▁कांग्रेस	-9.34571
▁अधिकांश	-9.34573
▁व्यापक	-9.34574
▁झगड़	-9.34575
▁शेष	-9.34581
▁युग	-9.34582
▁क्षमा	-9.34582
▁डिस्क	-9.34618
▁अपील	-9.3462
क्षेप	-9.34662
▁संरक्षण	-9.34676
▁शर्त	-9.34725
▁अरब	-9.34755
▁तेल	-9.34774
▁तत्व	-9.34787
▁26	-9.34805
▁रास्त	-9.34808
▁नंबर	-9.34847
▁दुख	-9.34905
▁दिवस	-9.34984
िस्ट	-9.35127
▁हाँ	-9.35154
▁प्रकाशित	-9.35218
वैध	-9.35286
▁मंत्री	-9.35308
▁हक़	-9.35325
▁रखो	-9.3533
▁T	-9.35383
प्प	-9.35474
्ध	-9.35551
ज़ार	-9.35591
aà	-9.35717
▁सफलता	-9.35828
▁चले	-9.36055
▁करनेवाला	-9.36092
वर्ष	-9.36271
▁नदी	-9.36549
▁कहो	-9.36565
▁रखे	-9.36593
ब्ब	-9.3669
▁ताल	-9.369
▁बाज़	-9.36982
▁शीर्ष	-9.37008
▁सरल	-9.37013
▁प्रबंध	-9.37108
▁प्रतीक	-9.3724
▁बद	-9.37395
▁एम	-9.37691
▁पश्चात	-9.37709
▁लड़क	-9.378
▁आतंकवाद	-9.37905
▁सार्वजनिक	-9.37905
V	-9.37905
▁अत्याचार	-9.37905
▁बुद्धि	-9.37905
▁अध्यक्ष	-9.37905
▁चाहिये	-9.37906
▁चर्चा	-9.37906
▁जाँच	-9.37907
▁गांव	-9.37907
▁पहाड़	-9.37911
क़यामत	-9.37913
▁किंतु	-9.37915
▁शुक्र	-9.37918
▁बीमार	-9.37947
गृह	-9.37964
▁ख़बर	-9.37966
tion	-9.37977
शास्त्र	-9.38018
▁नियुक्त	-9.38082
▁सख्त	-9.38146
▁निवास	-9.38153
▁क़सम	-9.38154
▁वित्त	-9.38156
▁पालन	-9.38829
le	-9.38888
▁देती	-9.39129
▁सात	-9.39233
▁अगले	-9.39316
▁पॉ	-9.395
▁खाता	-9.39873
▁सच	-9.39887
▁प्रत्य	-9.40122
▁बाप	-9.40195
▁प्रभावी	-9.40693
ल्स	-9.40711
ेंट	-9.40916
▁15	-9.40977
▁ईश्वर	-9.41353
▁प्राथमिक	-9.41353
▁विरुद्ध	-9.41353
▁वीडियो	-9.41353
▁संदर्भ	-9.41353
▁समुदाय	-9.41353
▁खाद्य	-9.41356
▁निर्मित	-9.41358
▁संसार	-9.41364
nic	-9.4137
▁संशोधन	-9.41397
▁पकड़	-9.41442
▁स्थल	-9.41463
▁बाग़	-9.41486
▁प्रकृति	-9.41552
▁विवाह	-9.41639
▁उद्	-9.41673
▁मिली	-9.41745
गढ़	-9.41805
▁विस्त	-9.42152
वंश	-9.42192
▁आख़िर	-9.42387
▁आयात	-9.42416
▁सिर	-9.42471
ुआ	-9.42551
▁खास	-9.42773
▁ज़ा	-9.42951
रक्षा	-9.43058
▁तुमपर	-9.43167
▁लेखक	-9.43169
B	-9.43259
ॉल	-9.43323
लिम	-9.4336
▁शब्दों	-9.43397
▁बनी	-9.43429
▁पट	-9.43507
जात	-9.43583
▁देखें	-9.43684
मेंट	-9.44018
दास	-9.44568
▁दूसरा	-9.4464
हु	-9.4471
▁तौ	-9.44846
▁बावजूद	-9.44924
▁हिन्दी	-9.44924
▁परंपरा	-9.44925
▁लघु	-9.44926
▁ठहरा	-9.4493
▁कोशिश	-9.44932
▁अभिलेख	-9.44956
▁कदम	-9.44957
▁मार्गदर्श	-9.44964
▁खर्च	-9.44991
▁वायद	-9.45071
▁पीठ	-9.4515
▁सत्ता	-9.45206
▁दशा	-9.45209
▁निधि	-9.45249
th	-9.45267
ीर्ण	-9.45282
▁मल	-9.45335
▁नाज़	-9.45432
▁छोड़कर	-9.45469
▁चू	-9.45489
▁मुद्रा	-9.45497
▁मालिक	-9.45529
न्दर	-9.45555
▁दृश्य	-9.45567
▁वर्णन	-9.45651
▁डाला	-9.45713
▁संभव	-9.45859
▁वर्	-9.45894
▁पथ	-9.45969
▁बस्त	-9.46213
ाइल	-9.46304
▁अर्ज	-9.46395
▁जितन	-9.46451
▁कविता	-9.46451
▁बन्दों	-9.46607
▁नगर	-9.46693
▁मोट	-9.4674
▁आत्मा	-9.46846
२	-9.4697
ज्ञान	-9.47049
▁तरीके	-9.47418
▁बैंकों	-9.47643
▁हालत	-9.47705
▁काव्य	-9.4772
▁माँ	-9.47749
▁लाने	-9.47876
▁1.	-9.47884
पन्न	-9.47983
्ष्	-9.48111
ांतर	-9.48537
तिहास	-9.4855
▁ज़ि	-9.486
\	-9.48628
▁औद्योगिक	-9.48628
▁पुरस्कार	-9.48628
▁वैश्विक	-9.48628
▁मुसलमान	-9.48628
▁वार्षिक	-9.48628
▁शिकायत	-9.48628
▁छोटा	-9.48629
▁पद्धति	-9.4863
▁सक्षम	-9.48636
▁परीक्षा	-9.48642
मिट्टी	-9.48646
▁रकम	-9.48652
▁पूज	-9.48678
▁वेतन	-9.48701
▁रहेंगे	-9.48773
▁30	-9.48792
▁उतार	-9.48873
▁प्रयुक्त	-9.48948
16	-9.48978
al	-9.49036
▁गर्भ	-9.49301
▁भली	-9.4943
is	-9.49509
ासिल	-9.49816
▁पाने	-9.49929
▁खो	-9.50407
फिर	-9.50445
क्षेत्र	-9.50844
▁राय	-9.5087
▁तार	-9.51199
▁मोह	-9.51292
▁ईसा	-9.51542
▁विशेषता	-9.51576
र्च	-9.51766
वृत्त	-9.51776
▁रखी	-9.52028
▁रखें	-9.52144
▁इच्छा	-9.52468
▁अनिवार्य	-9.52474
▁कंप्यूटर	-9.52474
▁पर्याप्त	-9.52474
▁विधेयक	-9.52474
▁शीघ्र	-9.52474
▁हालाँकि	-9.52474
▁ऊँच	-9.52474
▁कलकत्ता	-9.52474
▁ग्राहक	-9.52474
▁दस्तावेज	-9.52474
▁समृद्ध	-9.52474
▁अंतर्राष्ट्रीय	-9.52474
▁इन्हें	-9.52475
▁संपत्ति	-9.52475
▁उपबंध	-9.52475
▁छोटी	-9.52475
▁कुंजी	-9.52476
▁परिषद	-9.52476
▁भंडार	-9.52476
▁उद्यम	-9.52478
▁गैस	-9.52481
▁फि	-9.52484
▁विभाज	-9.52488
▁नाटक	-9.52493
▁सुरक्षित	-9.52509
▁डेटा	-9.5253
लोक	-9.52548
▁शांति	-9.52556
▁196	-9.52568
▁झुठलाया	-9.52591
▁17	-9.52666
▁केंद्रीय	-9.52712
▁आयोग	-9.52831
▁देंगे	-9.52837
▁नियत	-9.52908
▁पात्र	-9.53016
▁गुज़र	-9.53043
रोध	-9.53091
▁सेवाओं	-9.53247
▁मानते	-9.53321
▁पिता	-9.53373
स्थिति	-9.53417
▁विमान	-9.53469
▁मिलकर	-9.53489
कालीन	-9.53668
भेद	-9.53812
▁आते	-9.53832
गण	-9.53853
st	-9.5386
▁सदन	-9.54053
▁हानि	-9.54187
▁B	-9.54301
लिंग	-9.54346
▁कहना	-9.54576
▁पहुंचा	-9.54668
▁बिल	-9.55057
▁स्टा	-9.55078
▁बध	-9.55164
हीन	-9.55194
▁उपाय	-9.55308
▁समर्थ	-9.55774
आईटी	-9.5589
vi	-9.56016
▁हद	-9.56113
▁मानक	-9.56158
▁हिंद	-9.56271
▁चयन	-9.56331
ed	-9.56468
K	-9.56474
▁आंदोलन	-9.56474
▁इजरायल	-9.56474
▁पत्थर	-9.56474
▁यद्यपि	-9.56474
W	-9.56474
▁अनुप्रयोग	-9.56474
▁उपन्यास	-9.56474
▁कल्याण	-9.56474
▁पूंजी	-9.56474
▁महात्मा	-9.56474
htm	-9.56475
▁अपराध	-9.56475
▁समाचार	-9.56476
▁भोजन	-9.56476
▁संचाल	-9.56477
▁विधान	-9.5648
▁सरकश	-9.56481
▁जाएंगे	-9.56482
,000	-9.56487
▁सलाह	-9.56488
▁लोकप्रिय	-9.56499
▁रेखा	-9.56509
गिज़	-9.56524
▁मार्च	-9.5655
▁प्रदर्शन	-9.56563
▁यथा	-9.56592
▁उपयुक्त	-9.56658
▁उपचार	-9.56679
शाली	-9.56699
▁आती	-9.56741
▁14	-9.56785
लेख	-9.56828
▁वर्ण	-9.56846
▁दर्ज	-9.56872
▁तारीख	-9.56872
▁कॉल	-9.56942
▁दू	-9.56986
▁बनाएँ	-9.57017
▁संकल्प	-9.57039
्छ	-9.57105
▁{	-9.57197
्हे	-9.57268
▁दोष	-9.57628
▁गाय	-9.57826
▁भूल	-9.58304
भाषा	-9.59003
भव	-9.59221
उन्हीं	-9.59335
▁मुझ	-9.59569
बाहरी	-9.59617
तुल	-9.59691
ड्ड	-9.60622
९	-9.60628
▁जहन्नुम	-9.60641
▁संस्कृति	-9.60641
▁प्रयोजन	-9.60641
▁कठोर	-9.60641
▁बौद्ध	-9.60641
▁ज़रुर	-9.60642
▁निर्भर	-9.60642
▁प्रसन्न	-9.60642
▁गिरोह	-9.60643
क़ुरान	-9.60644
▁विशाल	-9.60644
▁प्राधिकारी	-9.60645
▁खूब	-9.60647
▁मौसम	-9.60648
▁पांच	-9.60649
▁१९	-9.60654
▁मंच	-9.60656
▁साहस	-9.60744
▁प्ले	-9.60765
▁मैदान	-9.60801
▁कार्यालय	-9.60812
75	-9.6082
▁जून	-9.60911
▁जोड़ें	-9.60973
नतम	-9.61021
▁बताया	-9.6105
▁सबको	-9.61174
▁बढ़कर	-9.61233
▁100	-9.61275
▁टन	-9.61281
▁खेती	-9.61381
▁छिपा	-9.61421
▁क्षेत्रीय	-9.61456
त्मक	-9.61738
▁दाव	-9.61742
▁गुना	-9.6181
¤2	-9.61877
▁अन्तर्	-9.62165
▁13	-9.62326
▁निर्धारिती	-9.62426
▁क्रो	-9.62568
ारिक	-9.62597
▁16	-9.62725
▁चुने	-9.6281
▁संस्थानों	-9.62871
अलग	-9.63352
ांति	-9.63791
▁वाता	-9.63981
▁कवि	-9.63998
संगत	-9.64135
साथ	-9.64376
▁बैठे	-9.64963
▁अर्थव्यवस्था	-9.64989
▁गंभीर	-9.64989
▁जरूरी	-9.64989
▁राजनीतिक	-9.64989
▁विद्युत	-9.64989
▁हृदय	-9.64989
▁गुमराह	-9.64989
▁संरचना	-9.64989
▁स्क्रीन	-9.64989
▁रद्द	-9.64989
▁यंत्र	-9.6499
▁शुभ	-9.64993
pres	-9.64994
▁इस्लाम	-9.64995
▁निगम	-9.64997
▁चुनौत	-9.64999
▁विद्यार्थ	-9.64999
▁लोकतंत्र	-9.65007
▁प्रोग्राम	-9.65011
▁वाद्य	-9.65016
शुद्ध	-9.65023
▁चुनाव	-9.65056
▁दशक	-9.6506
▁पंक्ति	-9.65071
▁सिद्ध	-9.6509
▁कहेंगे	-9.65108
▁पर्वत	-9.65212
▁पेड़	-9.65271
बाइल	-9.65325
▁संचार	-9.65407
▁कथा	-9.65647
▁अधिकारियों	-9.65733
ब्ल	-9.65819
▁चीन	-9.65982
▁शीर्षक	-9.66177
वृत्ति	-9.66276
ायिक	-9.66407
ुरु	-9.66512
▁सत्र	-9.666
ेक्ट	-9.67344
विज्ञान	-9.67987
भारत	-9.68007
मैं	-9.68036
ायक	-9.6818
▁स्था	-9.6849
ट्स	-9.68992
माज़	-9.69489
ment	-9.69534
▁अध्याय	-9.69534
▁अनुच्छेद	-9.69534
▁आकर्ष	-9.69534
▁धार्मिक	-9.69534
▁हिदायत	-9.69534
▁दृढ़	-9.69534
▁ऑनलाइन	-9.69534
▁दृष्टिकोण	-9.69535
बिल्कुल	-9.69535
▁शैली	-9.69536
▁घोषणा	-9.69536
▁बोझ	-9.69536
▁अभिव्यक्त	-9.69537
▁आँख	-9.69537
▁किसानों	-9.69537
▁तथ्य	-9.69537
नैतिक	-9.69537
▁पौध	-9.69544
▁परस्पर	-9.69544
▁पशु	-9.69545
▁हजार	-9.69548
▁गतिविधियों	-9.69557
▁शोध	-9.69562
▁बजाय	-9.69588
▁उत्तम	-9.69615
▁हिस	-9.69621
▁इंटर	-9.69625
▁जायेगा	-9.69645
▁विविध	-9.69674
▁194	-9.69711
▁तरफ़	-9.69786
फ्त	-9.69896
▁सहमत	-9.69911
▁प्रेर	-9.69955
▁चढ़	-9.69969
▁फ्ल	-9.69981
प्रिय	-9.70121
तोष	-9.70209
▁व्यय	-9.70303
▁जीवित	-9.70315
▁सुख	-9.7051
ाशय	-9.70525
▁घड़	-9.70613
भोग	-9.70634
▁दोस्त	-9.70777
जिस	-9.708
▁दुर्	-9.70809
हरू	-9.70888
▁हस्त	-9.71067
¤¤	-9.71101
▁सबके	-9.71183
▁किनार	-9.7136
▁बॉ	-9.71572
▁आठ	-9.71626
कुमार	-9.7187
▁दौर	-9.71922
ंबर	-9.7197
▁रोज़	-9.722
राष्ट्र	-9.72563
▁लु	-9.72572
दुनिया	-9.72652
धर्म	-9.72798
ot	-9.72933
▁सांस	-9.73327
▁बाग	-9.7345
ॉक्स	-9.73483
ाणु	-9.73501
▁प्रकाशन	-9.73634
▁नियंत्र	-9.74111
ाइयों	-9.74124
▁झुठला	-9.74151
▁फ़रिश्त	-9.74296
▁आरम्भ	-9.74296
▁तस्वीर	-9.74296
▁विद्वान	-9.74296
▁हालांकि	-9.74296
▁बख्श	-9.74297
▁पंजाब	-9.74297
Com	-9.74298
▁एशिया	-9.74298
▁सच्चे	-9.743
▁अफ्रीका	-9.74301
▁सीधे	-9.74306
▁विफल	-9.74307
▁जादू	-9.74311
▁कोशिका	-9.74314
▁रीति	-9.74319
▁उभर	-9.7435
▁मिशन	-9.74366
▁साधन	-9.74378
▁स्वागत	-9.74417
▁नीतियों	-9.74422
ख्वाह	-9.74429
चंद्र	-9.74444
▁स्वच्छ	-9.74451
ol	-9.74556
सभा	-9.74605
▁वस्तुओं	-9.74712
▁आदर्श	-9.75094
▁औरतों	-9.7518
¤1	-9.75387
▁गौ	-9.75462
her	-9.75619
ख़र्च	-9.75868
रुप	-9.76076
▁रहना	-9.76153
रक्षित	-9.7677
▁माँग	-9.76895
▁वार्	-9.76931
▁सामन	-9.78615
▁तर्क	-9.79267
▁निष्क्रिय	-9.79296
▁इत्यादि	-9.79296
▁उद्घाट	-9.79296
▁एवोल्यूशन	-9.79296
▁दायित्व	-9.79296
▁प्रदूष	-9.79296
▁फ़ैसला	-9.79296
▁भाषण	-9.79296
▁महामहिम	-9.79296
▁अनुमोद	-9.79296
▁महत्त्व	-9.79296
▁संघर्ष	-9.79296
▁खिलाफ	-9.79296
▁संस्करण	-9.79297
▁कार्यान्व	-9.79297
▁मुकदम	-9.79298
▁हत्या	-9.79298
▁अनुकूल	-9.79299
▁टुकड़	-9.79299
▁जनवरी	-9.79299
▁सुबह	-9.79303
▁नौकर	-9.79307
विश्वसनीय	-9.79307
▁ट्रैक	-9.7931
▁जमीन	-9.79311
प्ताह	-9.79354
▁(2)	-9.79391
▁चेहर	-9.79397
▁192	-9.79578
▁पश्चात्	-9.79593
▁प्रोत्साहन	-9.79777
▁प्रचार	-9.79782
▁प्राण	-9.79825
▁मज़ा	-9.79864
▁निभा	-9.79877
▁घेर	-9.79885
▁घटा	-9.79889
▁उतर	-9.79997
▁शक़	-9.80156
13	-9.80205
▁शिकार	-9.80266
▁समझते	-9.8032
▁चलते	-9.80342
▁दबा	-9.80603
पट्ट	-9.80693
▁बड	-9.80753
▁उतन	-9.80779
▁197	-9.80802
▁पेट	-9.80871
स्त्रियों	-9.8102
ियल	-9.81043
▁फर्	-9.82349
▁नील	-9.82687
▁त्रि	-9.82735
र्ज़	-9.83254
▁परिवर्त	-9.83388
कुफ्फ़ार	-9.84559
▁अद्यतन	-9.84559
▁कटौती	-9.84559
▁कनेक्शन	-9.84559
▁नवान्वेष	-9.84559
▁परामर्श	-9.84559
▁परिणामस्वरूप	-9.84559
▁संलग्न	-9.84559
▁सांस्कृतिक	-9.84559
▁गणराज्य	-9.84559
▁बुनियाद	-9.84559
▁भागीदारी	-9.84559
▁स्तंभ	-9.84559
▁ढूंढ	-9.8456
▁काफ़िर	-9.8456
▁थोड़ा	-9.8456
▁प्रतीक्षा	-9.8456
▁निरंतर	-9.8456
▁लॉग	-9.84561
▁संविदा	-9.84561
▁सुंदर	-9.84562
▁ख़ुश	-9.84566
▁सिद्धांत	-9.84579
▁गरीब	-9.84583
▁प्रधान	-9.84592
▁जंगल	-9.84594
▁डाउन	-9.84601
▁स्त्री	-9.84606
▁अंश	-9.84644
▁इन्सा	-9.84651
▁स्वरूप	-9.84671
▁पीढ़	-9.84762
▁विनिर्दिष्ट	-9.84774
▁करीब	-9.84797
वेयर	-9.84836
कारात्मक	-9.84843
▁हिंदू	-9.84847
▁प्रचल	-9.84875
▁फोन	-9.84877
▁खोलें	-9.84961
▁ग्री	-9.85038
ियत	-9.85045
▁खाली	-9.85057
▁इबर	-9.85213
▁विवाद	-9.8524
▁संपूर्ण	-9.85285
▁ग्रे	-9.85562
▁साफ़	-9.85786
hi	-9.86803
▁कागज	-9.87967
आख़िर	-9.88454
अल्लाह	-9.88481
कुछ	-9.88491
गैर	-9.88503
सूची	-9.88515
▁मोमिन	-9.8857
sh	-9.8935
▁प्रतिनिधि	-9.90098
॰	-9.90115
▁उत्कृष्ट	-9.90115
▁नेतृत्व	-9.90115
▁फ़िल्टर	-9.90115
▁फ़ॉन्ट	-9.90115
▁मुश्किल	-9.90115
▁विश्लेषण	-9.90115
▁संक्षिप्त	-9.90115
▁हथियार	-9.90115
▁ग्रंथ	-9.90115
▁चेतावन	-9.90115
ग़ालिब	-9.90115
▁सर्वेक्षण	-9.90115
▁भगवान	-9.90115
▁दीर्घ	-9.90116
िष्णु	-9.90116
▁घोष	-9.90116
▁इंडिया	-9.90116
▁सिस्टम	-9.90117
▁टैब	-9.90118
▁मशीन	-9.90118
▁मतलब	-9.9012
▁अगस्त	-9.90121
▁नृत्य	-9.90122
▁अभियान	-9.90124
▁तुलना	-9.90129
▁आनन्द	-9.90131
▁निहित	-9.90131
▁उम्र	-9.90133
▁पट्टी	-9.90142
▁संगम	-9.90146
▁सौंप	-9.90147
je	-9.90152
▁शख़्	-9.90163
▁दर्शन	-9.90165
▁द्वि	-9.90174
▁दोहरा	-9.90181
▁सड़क	-9.90187
▁निर्देशिका	-9.90191
▁डाटा	-9.90192
▁श्रेणीः	-9.90196
▁प्रत्यक्ष	-9.90232
▁झुक	-9.90274
of	-9.90282
▁198	-9.90296
▁गंगा	-9.90351
▁अवतर	-9.90426
▁खड़े	-9.90445
▁लेंगे	-9.90473
▁पार्ट	-9.90702
▁समक्ष	-9.90751
▁दर्द	-9.90856
▁रहेगा	-9.91058
▁वीर	-9.9106
▁अधिसूच	-9.91206
▁तकलीफ	-9.91429
क्यू	-9.91609
दिर	-9.9278
▁मुस्	-9.92842
▁27	-9.93748
▁प्राधिक	-9.93809
▁संरक्ष	-9.94185
ऑ	-9.9435
तुम्हार	-9.94356
अपनी	-9.94374
▁मंत्र	-9.94663
त्यंत	-9.95121
▁पत्त	-9.95198
▁खुलत	-9.95455
▁स्वतंत्र	-9.95595
ृष्टि	-9.95892
▁आवाज	-9.95985
▁औषध	-9.95997
▁अप्रैल	-9.95997
▁इकट्ठा	-9.95997
▁उपयोक्ता	-9.95997
▁औसत	-9.95997
▁पृष्ठभूमि	-9.95997
▁पोजीशन	-9.95997
▁प्रसिद्ध	-9.95997
▁मेहरबान	-9.95997
▁वाणिज्य	-9.95997
▁व्याख्या	-9.95997
▁समन्वय	-9.95997
▁सावधान	-9.95997
▁हिन्दू	-9.95997
व्यवसाय	-9.95997
▁तिथि	-9.95997
▁ब्याज	-9.95997
▁कर्तव्य	-9.95998
▁रौशन	-9.95998
▁स्थिर	-9.95998
▁ठिकाना	-9.95998
विमर्श	-9.95998
▁बिक्री	-9.95998
▁बातचीत	-9.95998
▁प्राचीन	-9.95999
▁देखभाल	-9.95999
▁लकड़ी	-9.96001
▁जवाहर	-9.96001
▁शिखर	-9.96001
▁ढांच	-9.96002
▁to	-9.96005
▁मानसिक	-9.96005
▁दिये	-9.96006
▁कुशल	-9.96009
▁प्रतिनिधित्व	-9.96016
▁अंदर	-9.96018
▁सिक्क	-9.96028
▁आंख	-9.96031
▁आंकड़	-9.96035
▁नज़र	-9.96038
▁मिनट	-9.96039
▁चिंता	-9.96046
ग़रज़	-9.96056
प्रभु	-9.96065
▁सच्चा	-9.96107
▁सत्याप	-9.96152
ana	-9.96156
▁लक्षण	-9.96204
▁शरीक	-9.96328
▁दीवार	-9.96392
▁पैमान	-9.96398
दैव	-9.96426
▁खड़ा	-9.96443
▁दीक्षा	-9.96452
▁विरू	-9.96457
▁संस्थाओं	-9.96486
काफिरों	-9.96718
-20	-9.96757
सहकारी	-9.97439
▁कैस	-9.97608
▁२००	-9.9764
▁सर्वाधिक	-9.97672
pr	-9.9778
भक्त	-9.9951
▁उधार	-10.0041
निर्माण	-10.0061
▁वरन	-10.0087
धारक	-10.0097
▁छिप	-10.0114
▁शेख	-10.0121
▁दयालु	-10.0225
▁आध्यात्मिक	-10.0225
▁इलेक्ट्रॉनिक	-10.0225
▁औलाद	-10.0225
▁गिरफ्तार	-10.0225
▁जिम्मेदार	-10.0225
▁धैर्य	-10.0225
▁फिलीस्तीन	-10.0225
▁भौतिक	-10.0225
▁मस्जिद	-10.0225
▁विद्यमान	-10.0225
▁शुभकामनाएं	-10.0225
▁सम्मिलित	-10.0225
▁जलवायु	-10.0225
▁ब्रिटि	-10.0225
▁संक्रमण	-10.0225
▁पवित्र	-10.0225
▁शून्य	-10.0225
▁बिजली	-10.0225
▁ध्वनि	-10.0225
▁यूनिट	-10.0225
▁हिस्से	-10.0225
▁संदेह	-10.0225
ज्ञापन	-10.0225
▁सिविल	-10.0225
▁बच्चा	-10.0225
▁मिसाल	-10.0225
▁मिलेगी	-10.0225
▁लिंक	-10.0225
▁शाखा	-10.0226
▁जैव	-10.0226
▁अक्सर	-10.0226
▁सजदा	-10.0226
▁अस्थि	-10.0227
द्वितीय	-10.0228
▁गुजरात	-10.0228
▁अक्षर	-10.0229
▁सुझा	-10.023
▁गुप्त	-10.0232
▁दिखायें	-10.0233
▁फरमा	-10.0233
▁अनुरोध	-10.0235
▁प्रसार	-10.024
▁लड़ाई	-10.0243
▁नवीन	-10.0265
▁घंट	-10.0274
▁जहाज	-10.0279
▁क़ाब	-10.0298
▁नकद	-10.0306
▁अकेल	-10.0309
▁किस्म	-10.0343
▁बहुतेर	-10.0366
रोपण	-10.0506
्हों	-10.0511
▁रिक्त	-10.0525
▁सवाल	-10.0606
▁आरोप	-10.0607
▁ईमानवाल	-10.0619
ावस्था	-10.0724
(	-10.0728
यदि	-10.0735
तंत्र	-10.0738
▁मुद्र	-10.0785
क़ुरआन	-10.0891
▁इंजीनियर	-10.0891
▁उन्होने	-10.0891
▁ऊंचा	-10.0891
▁कश्मीर	-10.0891
▁कार्रवाई	-10.0891
▁कौशल	-10.0891
▁जनसंख्या	-10.0891
▁परिभाषित	-10.0891
▁शारीरिक	-10.0891
▁पंचांग	-10.0891
▁विरासत	-10.0891
▁श्रद्धा	-10.0891
▁सर्वोच्च	-10.0891
▁रोजगार	-10.0891
▁2007	-10.0891
युक़्त	-10.0891
▁रेलवे	-10.0891
▁सफेद	-10.0891
▁त्याग	-10.0891
▁समझौते	-10.0892
▁नवंबर	-10.0892
▁फैसल	-10.0892
▁पूर्ति	-10.0892
▁उत्साह	-10.0892
▁उद्यान	-10.0892
▁समझौता	-10.0892
▁फायद	-10.0892
मोहम्मद	-10.0892
▁पसन्द	-10.0892
▁निदेशक	-10.0892
▁दाहिन	-10.0892
▁सचिव	-10.0892
▁महसू	-10.0892
▁प्रभार	-10.0893
▁क्षति	-10.0893
▁कमांड	-10.0893
थोड़े	-10.0893
ग़ैर	-10.0893
▁छुट्ट	-10.0894
बिलकुल	-10.0894
▁मधु	-10.0895
▁डराने	-10.0895
▁2013	-10.0895
▁अल्प	-10.0895
▁विद्या	-10.0896
▁गेंद	-10.0896
चूंकि	-10.0896
▁आवाज़	-10.0896
▁प्रारूप	-10.0897
▁मकान	-10.0898
▁सिखा	-10.09
uk	-10.0904
▁उच्चतम	-10.0905
▁अनुपात	-10.0906
▁परिपत्र	-10.0906
▁द्रव	-10.0906
▁दूध	-10.0907
▁तत्काल	-10.0908
▁2000	-10.0912
▁चेतन	-10.0914
▁नजर	-10.0915
▁बाहम	-10.0916
▁सूत्र	-10.0918
▁पहन	-10.0941
▁नोट	-10.0944
वर्ण	-10.0951
बैक	-10.0959
▁लानेवालो	-10.1014
०००	-10.1408
पैग़म्बर	-10.144
संभव	-10.1451
▁अमेरिक	-10.1499
▁श्रेणी	-10.1595
ञ	-10.1606
▁अस्तित्व	-10.1606
▁उम्मीद	-10.1606
▁परिस्थितियों	-10.1606
▁संयंत्र	-10.1606
▁गाँधी	-10.1606
▁ज़िन्दगी	-10.1606
▁ट्यूब	-10.1606
▁डिजिटल	-10.1606
▁मीडिया	-10.1606
▁राजस्थान	-10.1606
▁इंडियन	-10.1606
▁पाकिस्तान	-10.1606
▁पुस्तिका	-10.1606
▁बिगाड़	-10.1606
▁2014	-10.1606
▁पंजीकरण	-10.1606
▁विडियो	-10.1606
▁2012	-10.1606
▁पर्यटन	-10.1606
▁बिंदु	-10.1606
▁फार्म	-10.1606
▁जम्मू	-10.1606
▁प्रार्थना	-10.1606
▁साझीदार	-10.1606
▁ऊतक	-10.1606
▁टैग	-10.1606
▁समीक्षा	-10.1606
▁मूल्यांक	-10.1606
▁मौलिक	-10.1606
▁प्रभुत्वशाली	-10.1606
▁जटिल	-10.1606
▁सर्वोत्	-10.1606
▁शत्रु	-10.1606
▁आज़मा	-10.1607
▁‘‘	-10.1607
prh	-10.1607
▁छूट	-10.1607
▁क़दम	-10.1607
▁टूट	-10.1607
▁इकाई	-10.1607
▁आनंद	-10.1608
विनियमन	-10.1608
▁क्रांति	-10.1609
▁१५	-10.161
तन्त्र	-10.161
शोथ	-10.161
▁पुस्तकालय	-10.161
शिल्प	-10.1613
ख़ूब	-10.1621
ch	-10.1622
▁आजाद	-10.1628
▁जिले	-10.1629
▁चमक	-10.1645
▁शोक	-10.1648
लॉकि	-10.1669
कथित	-10.1674
▁परमाण	-10.1774
▁सतत	-10.1899
जिहा	-10.218
नुमा	-10.2202
अज़ाब	-10.221
निवेश	-10.2211
मोह	-10.2253
▁खेत	-10.2272
न्याय	-10.2337
.09.201	-10.2375
info	-10.2375
▁अस्पताल	-10.2375
▁आश्चर्य	-10.2375
▁न्यायाधीश	-10.2375
▁प्रयोक्ता	-10.2375
▁मुक़ाबल	-10.2375
▁श्रृंखला	-10.2375
▁सिफारिश	-10.2375
अनक़रीब	-10.2375
▁प्रयत्न	-10.2375
▁विपणन	-10.2375
▁विपरीत	-10.2375
▁सभ्यता	-10.2375
▁मेहनत	-10.2375
▁थोड़ी	-10.2375
▁विन्यास	-10.2375
जहन्नम	-10.2375
▁कमज़ोर	-10.2375
▁चरित्र	-10.2375
▁सराहना	-10.2375
▁परिवहन	-10.2375
▁परेशान	-10.2375
▁मुकाबल	-10.2375
▁पुष्टि	-10.2375
▁माबूद	-10.2375
▁आमंत्र	-10.2375
▁नेअमत	-10.2375
▁इमारत	-10.2375
lease	-10.2375
▁आंध्र	-10.2375
ndia	-10.2375
▁अभिगम	-10.2376
ट्ठ	-10.2376
▁भाष्	-10.2376
▁मान्यता	-10.2376
▁वकील	-10.2377
ंतरिक	-10.2377
▁परीक्षण	-10.2378
▁नक़ल	-10.2378
▁समर्प	-10.2378
▁बजट	-10.2378
▁साहब	-10.2379
▁महीने	-10.2379
▁नमून	-10.2379
▁संचय	-10.238
ोत्तर	-10.2381
▁चोट	-10.2382
▁पलट	-10.2382
▁झाड़	-10.2385
▁उन्नत	-10.2386
▁कब्ज	-10.2386
▁रेडियो	-10.2387
महीनों	-10.24
ेंद्र	-10.24
▁दरवाज	-10.2429
तमाम	-10.2442
▁प्रतिभूति	-10.245
शिक्षण	-10.2889
▁जानेवाल	-10.289
लोगों	-10.3046
▁आज्ञा	-10.3121
▁प्रोत्साह	-10.3127
▁गतिविधि	-10.3205
▁व्यावस	-10.3206
▁शैक्ष	-10.3206
▁उपभोक्ता	-10.3208
▁कम्प्यूटर	-10.3208
▁प्रतियोगिता	-10.3208
▁ब्राह्मण	-10.3208
▁रंगमंच	-10.3208
▁साम्राज्य	-10.3208
▁अभिभाषण	-10.3208
▁अभ्यास	-10.3208
▁आत्मनिर्भर	-10.3208
▁जर्मनी	-10.3208
▁डेस्कटॉप	-10.3208
▁दरमियान	-10.3208
▁दुर्घटना	-10.3208
▁पृथ्वी	-10.3208
▁प्रासंगिक	-10.3208
▁मजदूर	-10.3208
▁लाइसेंस	-10.3208
▁विद्रोह	-10.3208
▁सितम्बर	-10.3208
▁सुदृढ़	-10.3208
▁घरेलू	-10.3208
▁स्नातक	-10.3208
▁अग्नि	-10.3208
▁गंतव्य	-10.3208
▁सूक्ष्म	-10.3208
निर्वाचन	-10.3208
▁2017	-10.3208
▁आपूर्ति	-10.3208
▁पैरामीटर	-10.3208
▁कार्बन	-10.3208
▁अदालत	-10.3208
▁असमर्थ	-10.3208
▁तत्वदर्शी	-10.3208
मुक़र्र	-10.3208
▁2010	-10.3208
▁दुःख	-10.3208
▁अज्ञात	-10.3208
▁आखिर	-10.3208
▁ज़िन्दा	-10.3208
▁आक्रमण	-10.3208
detail	-10.3208
▁स्वीकृति	-10.3209
▁जुलाई	-10.3209
श्रमिक	-10.3209
▁जोखिम	-10.3209
▁प्रेरणा	-10.3209
▁the	-10.3209
▁पाइप	-10.3209
dent	-10.3209
प्रेषित	-10.3209
▁अर्थात्	-10.3209
▁बादशाह	-10.3209
▁अखिल	-10.3209
▁खत्म	-10.3209
▁कमजोर	-10.3209
▁फिल्म	-10.3209
▁आबादी	-10.321
▁सशक्त	-10.321
▁डूब	-10.321
▁मासिक	-10.3211
▁स्थग	-10.3211
मूहि	-10.3211
▁आस्था	-10.3211
▁कूट	-10.3212
लैण्ड	-10.3213
▁स्विच	-10.3213
▁नूह	-10.3215
▁संकट	-10.3216
iii	-10.3216
▁भड़क	-10.3219
▁लम्बा	-10.3228
▁सलाम	-10.3232
क़रार	-10.3245
▁कहलात	-10.3252
▁झोंक	-10.3261
▁लटक	-10.3262
▁काउं	-10.3275
▁वरिष्	-10.3275
▁नहरे	-10.33
ate	-10.335
हिमा	-10.3447
न्हीं	-10.3481
सभापति	-10.3666
▁क़ब्	-10.3935
{	-10.3951
दृश्य	-10.3951
गर्भ	-10.3952
विश्वास	-10.3953
अच्छा	-10.3954
मुझे	-10.3954
पहले	-10.3956
नहीं	-10.3961
वस्तु	-10.3984
▁ख़ुद	-10.4007
शोधन	-10.4105
▁जागरूक	-10.4117
▁परहेज़गार	-10.4117
▁सामर्थ्य	-10.4117
▁उल्लंघन	-10.4117
▁टेलीफोन	-10.4117
▁दिसंबर	-10.4117
▁पूर्वावलोकन	-10.4117
▁फ्रांस	-10.4117
▁शुरुआत	-10.4117
▁संवर्धन	-10.4117
▁सहानुभूति	-10.4117
क़ुदरत	-10.4117
▁हिमालय	-10.4117
▁आदमियों	-10.4117
▁डिजाइन	-10.4117
▁संतुष्ट	-10.4117
▁सुभाष	-10.4117
▁क्रिकेट	-10.4117
▁राजधानी	-10.4117
▁दीजिए	-10.4117
▁मछली	-10.4117
▁इनपुट	-10.4117
▁स्मारक	-10.4117
▁प्रायः	-10.4117
▁हिंसा	-10.4117
▁फोटो	-10.4118
▁छुपा	-10.4118
▁गौरव	-10.4118
▁हँसी	-10.4118
▁दैनिक	-10.4118
ेश्वर	-10.4118
▁कनेक्ट	-10.4118
▁ब्लॉ	-10.4118
1956	-10.4118
▁धातु	-10.4118
▁जरुर	-10.4118
▁शिशु	-10.4118
▁धोख	-10.4118
▁ठहरे	-10.4118
▁कार्यवाही	-10.4118
▁फ़रमा	-10.4118
▁उपाधि	-10.4119
▁न्यास	-10.4119
▁वितरण	-10.4119
▁एहद	-10.4119
▁जनरल	-10.4119
▁साक्षी	-10.412
▁अक्षम	-10.4121
▁विनाश	-10.4122
▁ईरान	-10.4122
▁वचन	-10.4122
▁यूसुफ	-10.4123
कोलकाता	-10.4124
▁इकाइय	-10.4124
▁मृद	-10.4125
▁नस्ल	-10.4128
▁चैत	-10.413
▁ऑपरे	-10.4135
▁उलट	-10.414
तलाश	-10.4182
खराब	-10.4186
़ौर	-10.4378
▁रखनेवाल	-10.438
मोमिनीन	-10.4381
▁रहत	-10.4674
अर्थात	-10.4752
&	-10.4953
▁गुजर	-10.5113
▁छुट	-10.5115
▁प्रभुत्व	-10.5117
...............	-10.5117
आउटपुट	-10.5117
▁अपशिष्ट	-10.5117
▁ऊंचे	-10.5117
▁एक्सचेंज	-10.5117
j	-10.622
‘	-10.8741
	-11.057
°	-11.8397
̄	-13.3243
̈	-13.3244
+	-13.3245
̧	-13.3246
@	-13.3247
¿	-13.3248
	-13.3249
	-13.325
<	-13.3251
#	-13.3252
⁄	-13.3253
ढ	-13.3254
औ	-13.3255
“	-13.3255
