<pad>	0
</s>	0
<unk>	0
▁¦	-0
ال	-1
▁.	-2
ان	-3
وا	-4
لا	-5
ين	-6
من	-7
في	-8
ون	-9
ما	-10
ار	-11
عل	-12
رب	-13
لك	-14
هم	-15
ها	-16
را	-17
كل	-18
يا	-19
الم	-20
اب	-21
ذا	-22
ول	-23
نا	-24
الى	-25
لي	-26
اس	-27
الرب	-28
بي	-29
ام	-30
قد	-31
مع	-32
له	-33
وت	-34
بن	-35
وال	-36
كم	-37
على	-38
ير	-39
يل	-40
هو	-41
قال	-42
الذ	-43
وم	-44
لان	-45
يع	-46
ور	-47
وس	-48
يد	-49
كان	-50
رج	-51
يم	-52
وب	-53
عن	-54
يس	-55
ائ	-56
تي	-57
الس	-58
لم	-59
وع	-60
عد	-61
وي	-62
الي	-63
اخ	-64
ئيل	-65
ود	-66
اء	-67
الش	-68
الذي	-69
اي	-70
عب	-71
ارض	-72
يق	-73
وج	-74
حد	-75
ولا	-76
الا	-77
ته	-78
رائيل	-79
ذه	-80
ية	-81
تم	-82
اسرائيل	-83
فا	-84
وق	-85
كن	-86
لل	-87
مل	-88
بر	-89
بع	-90
الج	-91
بل	-92
دا	-93
الح	-94
كون	-95
وح	-96
به	-97
الله	-98
با	-99
فر	-100
فت	-101
الك	-102
يت	-103
بيت	-104
انا	-105
شر	-106
فس	-107
هذا	-108
قل	-109
علي	-110
اله	-111
ميع	-112
ضا	-113
وه	-114
يح	-115
لام	-116
اد	-117
صر	-118
اما	-119
فقال	-120
الارض	-121
مس	-122
مر	-123
التي	-124
اع	-125
ملك	-126
الع	-127
كلم	-128
كر	-129
اج	-130
سب	-131
ني	-132
طر	-133
بني	-134
حت	-135
جميع	-136
قائ	-137
اه	-138
ثم	-139
ايضا	-140
ذلك	-141
نة	-142
واحد	-143
سل	-144
بح	-145
وقال	-146
اني	-147
ات	-148
نع	-149
وان	-150
الملك	-151
خل	-152
يب	-153
رأ	-154
اق	-155
هوذا	-156
بال	-157
كث	-158
الذين	-159
وص	-160
تر	-161
عند	-162
وك	-163
وكان	-164
ايا	-165
هر	-166
اف	-167
مت	-168
يف	-169
اح	-170
ابن	-171
الخ	-172
لانه	-173
مة	-174
فل	-175
ليم	-176
جل	-177
دين	-178
امام	-179
طل	-180
ذهب	-181
الن	-182
جد	-183
شي	-184
وخ	-185
ماء	-186
انه	-187
فع	-188
ست	-189
داود	-190
آب	-191
كذا	-192
دي	-193
هي	-194
ضع	-195
خر	-196
لهم	-197
نفس	-198
الق	-199
هنا	-200
الب	-201
المس	-202
كما	-203
لكن	-204
موس	-205
انت	-206
هكذا	-207
اليوم	-208
سان	-209
ومن	-210
دم	-211
يه	-212
ليس	-213
الر	-214
وكل	-215
او	-216
يش	-217
رجل	-218
تع	-219
وش	-220
خذ	-221
الشعب	-222
تق	-223
رف	-224
هذه	-225
اذ	-226
رة	-227
يسوع	-228
بت	-229
اص	-230
نح	-231
تح	-232
بين	-233
الص	-234
بعد	-235
ظر	-236
قائلا	-237
الام	-238
اسم	-239
خرج	-240
حتى	-241
ورش	-242
كت	-243
عين	-244
لكم	-245
تل	-246
اش	-247
آن	-248
قط	-249
علم	-250
بنو	-251
يكون	-252
وفي	-253
دينة	-254
سمع	-255
قر	-256
الف	-257
ورشليم	-258
بيد	-259
تك	-260
شا	-261
حم	-262
يهوذا	-263
واما	-264
وف	-265
يقول	-266
انسان	-267
لت	-268
الث	-269
طي	-270
ماذا	-271
موسى	-272
هناك	-273
اورشليم	-274
عشر	-275
الت	-276
قدس	-277
ولكن	-278
صنع	-279
رق	-280
بك	-281
الغ	-282
مد	-283
حسب	-284
ولم	-285
يين	-286
باب	-287
يمة	-288
تن	-289
جعل	-290
لكي	-291
بها	-292
ورا	-293
مح	-294
لاث	-295
حين	-296
يرة	-297
سر	-298
عظ	-299
حي	-300
عة	-301
ضرب	-302
ئة	-303
عا	-304
أت	-305
عون	-306
يدي	-307
خط	-308
وات	-309
زل	-310
مي	-311
عليه	-312
ساء	-313
فعل	-314
مصر	-315
عمل	-316
جر	-317
فان	-318
شعب	-319
طريق	-320
ذبح	-321
جاء	-322
ثلاث	-323
راس	-324
ايام	-325
اث	-326
بة	-327
ولد	-328
جس	-329
ارج	-330
الشر	-331
يام	-332
النا	-333
وار	-334
اذا	-335
مث	-336
احد	-337
المدينة	-338
حق	-339
عم	-340
وجه	-341
فن	-342
تد	-343
واق	-344
بس	-345
غض	-346
يون	-347
تخ	-348
المسيح	-349
وسط	-350
وضع	-351
ينا	-352
بار	-353
الآن	-354
هد	-355
صعد	-356
لين	-357
وز	-358
صوت	-359
بعة	-360
تها	-361
رؤ	-362
هما	-363
اجل	-364
يوم	-365
عبد	-366
يك	-367
رع	-368
ضة	-369
ياء	-370
للرب	-371
شع	-372
رأة	-373
الاب	-374
وة	-375
فيه	-376
لاء	-377
سم	-378
قدم	-379
فلا	-380
ارسل	-381
كلام	-382
سن	-383
سنة	-384
مئة	-385
الد	-386
بق	-387
فق	-388
وجد	-389
آخر	-390
اعد	-391
حة	-392
هل	-393
مات	-394
وعلى	-395
ولما	-396
بز	-397
طين	-398
از	-399
السماء	-400
أل	-401
طلب	-402
عط	-403
لاني	-404
اهن	-405
ايها	-406
مو	-407
معه	-408
الار	-409
تكلم	-410
غن	-411
والم	-412
يأ	-413
تهم	-414
فظ	-415
دن	-416
صار	-417
البر	-418
الجن	-419
رجال	-420
حل	-421
قوب	-422
بحر	-423
يخ	-424
انب	-425
غير	-426
الامم	-427
ليل	-428
هنة	-429
الانسان	-430
قدام	-431
ارة	-432
تس	-433
يرا	-434
شاول	-435
تكون	-436
وها	-437
وهو	-438
ؤلاء	-439
انتم	-440
جت	-441
دخل	-442
رك	-443
دع	-444
اخذ	-445
بنا	-446
صل	-447
تأ	-448
جع	-449
قول	-450
ئيس	-451
جدا	-452
مثل	-453
واذا	-454
عش	-455
سا	-456
يعقوب	-457
قي	-458
اليه	-459
الكاهن	-460
وث	-461
فرح	-462
البيت	-463
واخ	-464
جاب	-465
كثر	-466
لها	-467
فيها	-468
اض	-469
شيء	-470
اعط	-471
قائلين	-472
هود	-473
كنت	-474
عز	-475
قت	-476
نفسه	-477
رس	-478
لذلك	-479
لاجل	-480
لاوي	-481
وقت	-482
وقد	-483
فلما	-484
روح	-485
الهك	-486
امر	-487
للم	-488
تحت	-489
وراء	-490
الابد	-491
طع	-492
رون	-493
وهم	-494
هؤلاء	-495
ذرا	-496
وما	-497
كانت	-498
وانا	-499
السيد	-500
جن	-501
مخ	-502
ابي	-503
آبائ	-504
رئيس	-505
اك	-506
كلمة	-507
الرجل	-508
الحق	-509
لانهم	-510
مال	-511
سك	-512
الز	-513
فلم	-514
لاك	-515
كثير	-516
دة	-517
تلك	-518
نب	-519
قب	-520
قيا	-521
وني	-522
البحر	-523
الل	-524
كانوا	-525
لنا	-526
نص	-527
عبيد	-528
جه	-529
قبل	-530
يده	-531
قلب	-532
سي	-533
خمس	-534
رجع	-535
بد	-536
نار	-537
فم	-538
ائر	-539
فلس	-540
نحو	-541
ليمان	-542
قة	-543
وط	-544
رائ	-545
ونه	-546
الكهنة	-547
صد	-548
منه	-549
ياه	-550
الناس	-551
جمع	-552
واس	-553
امرأة	-554
بابل	-555
سليمان	-556
السم	-557
لماذا	-558
اط	-559
يكن	-560
ذب	-561
عليك	-562
عبر	-563
فلسطين	-564
غر	-565
عليهم	-566
ورة	-567
عر	-568
وأ	-569
الجنود	-570
يز	-571
فاجاب	-572
ئذ	-573
تش	-574
انك	-575
وته	-576
راه	-577
يسمع	-578
لما	-579
الايام	-580
كثيرة	-581
حن	-582
واب	-583
يهو	-584
فرعون	-585
الاخ	-586
جبل	-587
بيحة	-588
نفسي	-589
بعض	-590
خبز	-591
ويكون	-592
يوس	-593
جي	-594
فد	-595
رؤساء	-596
مق	-597
الفلسطين	-598
يمان	-599
وجميع	-600
عنه	-601
فوق	-602
الهي	-603
حينئذ	-604
رت	-605
حيا	-606
مش	-607
فين	-608
نحن	-609
لامي	-610
واحدة	-611
حز	-612
هب	-613
است	-614
غل	-615
نم	-616
ذكر	-617
السموات	-618
حرق	-619
مكان	-620
اكل	-621
عام	-622
معي	-623
رى	-624
غي	-625
لئ	-626
اولا	-627
بلا	-628
طلق	-629
عيني	-630
السيف	-631
اليهود	-632
زع	-633
عشرة	-634
ده	-635
عاد	-636
لانك	-637
ماع	-638
مجد	-639
اسمه	-640
آله	-641
المن	-642
عليها	-643
زم	-644
راهيم	-645
فضة	-646
تت	-647
وبين	-648
ارا	-649
نس	-650
مرا	-651
وحد	-652
الاول	-653
شب	-654
عي	-655
كة	-656
هان	-657
تاب	-658
تين	-659
قلت	-660
اخرج	-661
انية	-662
ئا	-663
قدر	-664
ابنه	-665
هرون	-666
عه	-667
فك	-668
كام	-669
اة	-670
ظلم	-671
الكلام	-672
رح	-673
خارج	-674
الروح	-675
ذبيحة	-676
لة	-677
منا	-678
سد	-679
فأ	-680
واخذ	-681
بول	-682
ذين	-683
وير	-684
اليك	-685
منهم	-686
مدينة	-687
رم	-688
رام	-689
حول	-690
مدن	-691
اقول	-692
ماعة	-693
ثلاثة	-694
ضي	-695
لس	-696
اسمع	-697
حص	-698
صرخ	-699
كمة	-700
وليس	-701
البرية	-702
سبط	-703
لئلا	-704
هانذا	-705
العظ	-706
انفس	-707
مني	-708
ثيا	-709
القد	-710
بيته	-711
يط	-712
الشع	-713
لن	-714
وية	-715
بارك	-716
نفسك	-717
السنة	-718
صف	-719
لكل	-720
لاص	-721
قلوب	-722
والى	-723
شف	-724
حيث	-725
عني	-726
يدة	-727
وانت	-728
وعشر	-729
يوسف	-730
عو	-731
ايل	-732
ارب	-733
سلط	-734
مكت	-735
المذبح	-736
تب	-737
رد	-738
راء	-739
متى	-740
ابراهيم	-741
فار	-742
الآب	-743
باط	-744
واح	-745
الطريق	-746
الكل	-747
بيوت	-748
واعط	-749
يشوع	-750
يعمل	-751
خز	-752
يو	-753
ابنا	-754
جم	-755
نه	-756
فض	-757
سبع	-758
ظهر	-759
اكثر	-760
ري	-761
يج	-762
بهم	-763
شعبي	-764
الهنا	-765
قطع	-766
عظيم	-767
تار	-768
نجس	-769
الشعوب	-770
تط	-771
هن	-772
باح	-773
وخمس	-774
ضى	-775
ويس	-776
سيدي	-777
اذهب	-778
صح	-779
أمر	-780
سيد	-781
قتل	-782
وقف	-783
اربع	-784
فتح	-785
وين	-786
الفا	-787
سبعة	-788
يعرف	-789
والآن	-790
تكم	-791
جار	-792
باسم	-793
وعمل	-794
بط	-795
صير	-796
رايم	-797
نعمة	-798
الموت	-799
يامين	-800
جهة	-801
خير	-802
قام	-803
الشهر	-804
سلا	-805
الاس	-806
واحدا	-807
انبياء	-808
بكل	-809
رأى	-810
آلهة	-811
شيئا	-812
الحقل	-813
القدس	-814
بش	-815
اين	-816
موا	-817
انهم	-818
ذي	-819
شد	-820
قيم	-821
انيين	-822
امه	-823
كيف	-824
معك	-825
وبن	-826
العالم	-827
الرا	-828
مكتوب	-829
وكانت	-830
اللاوي	-831
فة	-832
نين	-833
يات	-834
جانب	-835
يأتي	-836
يخرج	-837
شق	-838
ؤمن	-839
يدخل	-840
لح	-841
تان	-842
صاح	-843
تقول	-844
يث	-845
ترك	-846
حاب	-847
ضط	-848
قض	-849
مه	-850
اكن	-851
بالا	-852
وكلم	-853
بان	-854
راب	-855
خيمة	-856
وجاء	-857
وصايا	-858
حك	-859
فلي	-860
ويل	-861
ضر	-862
اهل	-863
وجعل	-864
وملك	-865
الاردن	-866
المرأة	-867
دخ	-868
قوم	-869
يعة	-870
ابني	-871
سلام	-872
قا	-873
بوا	-874
عرف	-875
الها	-876
تز	-877
بطر	-878
دون	-879
ربوا	-880
الباب	-881
الهكم	-882
علمون	-883
الجميع	-884
الفلسطينيين	-885
تا	-886
ارت	-887
يدك	-888
وادي	-889
وبعد	-890
الرجال	-891
وقالوا	-892
خد	-893
سبب	-894
عبدك	-895
تقد	-896
يما	-897
اخبر	-898
لد	-899
امة	-900
كنع	-901
منذ	-902
النبي	-903
مك	-904
اوص	-905
يدا	-906
خطية	-907
كله	-908
لبني	-909
اليكم	-910
نج	-911
وغ	-912
آدم	-913
الط	-914
خلص	-915
دوا	-916
ضيق	-917
فهم	-918
لوك	-919
الخط	-920
سكان	-921
قوا	-922
ميا	-923
هور	-924
جارة	-925
فكان	-926
مقدس	-927
موآب	-928
قص	-929
يغ	-930
الجبل	-931
ارك	-932
غضب	-933
تعمل	-934
وضرب	-935
افرايم	-936
بخ	-937
مان	-938
فانه	-939
عليكم	-940
لاف	-941
بطرس	-942
يفعل	-943
دهم	-944
صهي	-945
معا	-946
ايدي	-947
رؤوس	-948
ملوك	-949
صهيون	-950
طرق	-951
وقل	-952
بولس	-953
عج	-954
طرح	-955
لحم	-956
وبنو	-957
اعدائ	-958
رض	-959
عت	-960
قذ	-961
عطي	-962
فوا	-963
شرار	-964
الشمس	-965
الليل	-966
اخط	-967
بنت	-968
قلبه	-969
يتكلم	-970
عص	-971
وى	-972
ابل	-973
يعطي	-974
بون	-975
ويا	-976
ابيه	-977
يموت	-978
لداود	-979
الصد	-980
أس	-981
جتماع	-982
كثيرا	-983
حفظ	-984
انظر	-985
محرق	-986
المياه	-987
اخوت	-988
منها	-989
بنيامين	-990
الاجتماع	-991
ئم	-992
لوا	-993
منس	-994
وذهب	-995
موئيل	-996
تج	-997
عى	-998
فه	-999
كذلك	-1000
اثم	-1001
صاد	-1002
والي	-1003
لأ	-1004
فخرج	-1005
تلامي	-1006
وارسل	-1007
حر	-1008
وآ	-1009
حا	-1010
حما	-1011
بكر	-1012
ثمر	-1013
مين	-1014
واذ	-1015
اشور	-1016
عظيمة	-1017
اغ	-1018
مز	-1019
فمن	-1020
ؤساء	-1021
اثان	-1022
انها	-1023
رجلا	-1024
شيوخ	-1025
معهم	-1026
فقالت	-1027
فخ	-1028
قم	-1029
عشائر	-1030
فارسل	-1031
اول	-1032
شرب	-1033
بهذا	-1034
فاخذ	-1035
يطلب	-1036
يمين	-1037
النار	-1038
جلس	-1039
الاخوة	-1040
الناموس	-1041
أتى	-1042
انة	-1043
عوا	-1044
اعين	-1045
خلاص	-1046
فجاء	-1047
قلبك	-1048
ملكة	-1049
صي	-1050
ابد	-1051
اصعد	-1052
انكم	-1053
صالح	-1054
كلها	-1055
يعلم	-1056
الفضة	-1057
ذن	-1058
ضل	-1059
خبر	-1060
دائ	-1061
ليد	-1062
هار	-1063
بنيه	-1064
ونها	-1065
علينا	-1066
نون	-1067
ارام	-1068
وحنا	-1069
ووضع	-1070
الجسد	-1071
لانكم	-1072
نت	-1073
تنا	-1074
تسمع	-1075
ذراع	-1076
ملاك	-1077
الساب	-1078
الثالث	-1079
ابا	-1080
حرب	-1081
قرب	-1082
وجهه	-1083
تابوت	-1084
الاشرار	-1085
لست	-1086
نان	-1087
صارت	-1088
وخرج	-1089
السام	-1090
ثا	-1091
صب	-1092
اعة	-1093
يحا	-1094
أتوا	-1095
افوا	-1096
رأيت	-1097
الحرب	-1098
الامور	-1099
الواحد	-1100
صموئيل	-1101
جرة	-1102
سار	-1103
وفا	-1104
ليلا	-1105
يأكل	-1106
الجبال	-1107
أتي	-1108
بير	-1109
واي	-1110
افعل	-1111
انما	-1112
قلبي	-1113
ارميا	-1114
وء	-1115
حرقة	-1116
مذبح	-1117
أكل	-1118
ولل	-1119
الحي	-1120
الشرير	-1121
الشمال	-1122
فح	-1123
أما	-1124
دان	-1125
سقط	-1126
سكن	-1127
مائ	-1128
آلاف	-1129
وبنا	-1130
يوآب	-1131
ذر	-1132
كب	-1133
بات	-1134
جيش	-1135
فهو	-1136
جتمع	-1137
جلعاد	-1138
دفع	-1139
غرب	-1140
وبي	-1141
وارب	-1142
يقتل	-1143
الذهب	-1144
حزقيا	-1145
الثاني	-1146
تة	-1147
اخل	-1148
تعب	-1149
خرا	-1150
سفر	-1151
قون	-1152
كلا	-1153
يبة	-1154
الفر	-1155
الهيكل	-1156
خرب	-1157
ومع	-1158
المح	-1159
امرأ	-1160
تعرف	-1161
منكم	-1162
ولدت	-1163
يصنع	-1164
اربعة	-1165
الامر	-1166
الماء	-1167
وهي	-1168
ويع	-1169
البا	-1170
حياة	-1171
لانها	-1172
آبائهم	-1173
الجماعة	-1174
أخذ	-1175
أوا	-1176
فاني	-1177
يوجد	-1178
وثلاث	-1179
السلام	-1180
الموضع	-1181
ثل	-1182
زر	-1183
اضط	-1184
كتب	-1185
زلوا	-1186
عبيده	-1187
لاننا	-1188
وتكون	-1189
ظم	-1190
الآ	-1191
رفع	-1192
فقد	-1193
كرا	-1194
كنا	-1195
موت	-1196
ولي	-1197
الكر	-1198
بالح	-1199
واجعل	-1200
فقالوا	-1201
كي	-1202
سبي	-1203
واش	-1204
وعد	-1205
ولك	-1206
برون	-1207
راسه	-1208
رجلي	-1209
فقام	-1210
كثرة	-1211
فالآن	-1212
طة	-1213
انج	-1214
تعد	-1215
عنا	-1216
يرب	-1217
ادوم	-1218
سنين	-1219
يقدر	-1220
النهر	-1221
الوقت	-1222
ملكوت	-1223
بالسيف	-1224
ثبت	-1225
للا	-1226
ياة	-1227
يلة	-1228
اخرى	-1229
خبزا	-1230
معكم	-1231
ومات	-1232
فيكون	-1233
الساكن	-1234
المكان	-1235
السامرة	-1236
الانبياء	-1237
ثر	-1238
كف	-1239
صور	-1240
الدم	-1241
امور	-1242
سمعت	-1243
اللاويين	-1244
ظل	-1245
ائح	-1246
زوج	-1247
ينة	-1248
الوم	-1249
ملكا	-1250
المدن	-1251
اليها	-1252
ابر	-1253
حها	-1254
قية	-1255
المت	-1256
عمون	-1257
لهما	-1258
واسم	-1259
وجوه	-1260
خطايا	-1261
جب	-1262
اري	-1263
فاط	-1264
مام	-1265
يتم	-1266
يجد	-1267
شعبه	-1268
عيون	-1269
مالك	-1270
نحاس	-1271
الخطية	-1272
ذل	-1273
زن	-1274
اجت	-1275
امس	-1276
ليست	-1277
اليهم	-1278
المساء	-1279
جز	-1280
تفع	-1281
لائ	-1282
وعن	-1283
أليس	-1284
شعبك	-1285
وهذه	-1286
عندما	-1287
خا	-1288
در	-1289
ارس	-1290
امل	-1291
بغض	-1292
جسد	-1293
فون	-1294
تفعل	-1295
عينيك	-1296
مئ	-1297
الة	-1298
باش	-1299
الاح	-1300
واست	-1301
المحل	-1302
تلاميذه	-1303
تكن	-1304
قين	-1305
اجعل	-1306
اعطي	-1307
تقدم	-1308
جالس	-1309
ميرا	-1310
ذبائح	-1311
يوحنا	-1312
العظيم	-1313
والذين	-1314
باس	-1315
بعل	-1316
تني	-1317
كيم	-1318
للك	-1319
نظر	-1320
ينب	-1321
رائض	-1322
وسمع	-1323
للملك	-1324
بالنار	-1325
بغ	-1326
بكم	-1327
تعل	-1328
جاد	-1329
متك	-1330
اجاب	-1331
بسبب	-1332
ساكن	-1333
الدهر	-1334
المصر	-1335
قالوا	-1336
وانتم	-1337
الحياة	-1338
خي	-1339
صن	-1340
امن	-1341
تخم	-1342
رفة	-1343
ضاء	-1344
فقط	-1345
كين	-1346
وله	-1347
يتك	-1348
مياه	-1349
والح	-1350
لانفس	-1351
الايمان	-1352
اكم	-1353
حدث	-1354
عهد	-1355
كسر	-1356
يسة	-1357
العد	-1358
اننا	-1359
نصيب	-1360
امامك	-1361
الجنوب	-1362
انفسهم	-1363
مض	-1364
يص	-1365
طوب	-1366
قوة	-1367
مون	-1368
وخذ	-1369
وصل	-1370
يسو	-1371
بحسب	-1372
معون	-1373
والس	-1374
وبيت	-1375
وصعد	-1376
جماعة	-1377
لنفسك	-1378
المقدس	-1379
كثيرين	-1380
آمن	-1381
افت	-1382
حكم	-1383
شرا	-1384
فاس	-1385
كار	-1386
مرك	-1387
ناح	-1388
ودا	-1389
تأكل	-1390
قداس	-1391
شالوم	-1392
الصباح	-1393
كثيرون	-1394
قيق	-1395
بنات	-1396
خدمة	-1397
ضربة	-1398
والرب	-1399
اسمعوا	-1400
تف	-1401
يؤ	-1402
ورج	-1403
عوضا	-1404
يتهم	-1405
الاثم	-1406
واخبر	-1407
لج	-1408
عال	-1409
مير	-1410
واع	-1411
ورأ	-1412
ابتد	-1413
بيده	-1414
يقوم	-1415
جميعا	-1416
عشرين	-1417
عشيرة	-1418
عظيما	-1419
تى	-1420
غط	-1421
مج	-1422
تعط	-1423
رحم	-1424
صلا	-1425
يبا	-1426
عيسو	-1427
والك	-1428
ودخل	-1429
اعمال	-1430
الاله	-1431
¦	-1432
▁	-1433
ا	-1434
ل	-1435
ي	-1436
و	-1437
م	-1438
ن	-1439
ر	-1440
ب	-1441
ه	-1442
ع	-1443
ت	-1444
ك	-1445
ف	-1446
س	-1447
د	-1448
.	-1449
ق	-1450
ح	-1451
ج	-1452
ة	-1453
ذ	-1454
ش	-1455
خ	-1456
ى	-1457
ص	-1458
ط	-1459
ض	-1460
ئ	-1461
ث	-1462
ّ	-1463
ز	-1464
أ	-1465
ء	-1466
غ	-1467
آ	-1468
ظ	-1469
ؤ	-1470
إ	-1471
*	-1472
ـ	-1473
-	-1474
ً	-1475
i	-1476
(	-1477
)	-1478
:	-1479
𐋇	-1480
1	-1481
2	-1482
[	-1483
]	-1484
h	-1485
o	-1486
t	-1487
5	-1488
6	-1489
j	-1490
m	-1491
n	-1492
y	-1493
ٍ	-1494
𐊣	-1495
𐊼	-1496
