<pad>	0
</s>	0
<unk>	0
▁t	-0
he	-1
▁a	-2
in	-3
▁the	-4
▁o	-5
re	-6
er	-7
▁s	-8
nd	-9
▁w	-10
at	-11
on	-12
is	-13
en	-14
▁of	-15
it	-16
▁c	-17
▁b	-18
or	-19
es	-20
▁f	-21
ed	-22
ou	-23
▁p	-24
an	-25
al	-26
ar	-27
▁in	-28
▁and	-29
ing	-30
▁to	-31
▁m	-32
▁d	-33
ion	-34
▁h	-35
as	-36
ic	-37
le	-38
om	-39
▁th	-40
ent	-41
ll	-42
▁n	-43
▁A	-44
▁T	-45
▁be	-46
ve	-47
▁e	-48
▁I	-49
ct	-50
▁re	-51
▁is	-52
▁S	-53
ro	-54
▁l	-55
st	-56
▁y	-57
ot	-58
▁g	-59
ut	-60
id	-61
se	-62
▁for	-63
ation	-64
ur	-65
im	-66
▁wh	-67
ce	-68
ay	-69
ly	-70
ad	-71
▁you	-72
ver	-73
▁u	-74
ow	-75
▁The	-76
am	-77
▁on	-78
▁C	-79
▁P	-80
▁M	-81
et	-82
▁H	-83
ir	-84
il	-85
▁-	-86
ig	-87
▁that	-88
ch	-89
▁he	-90
ment	-91
▁B	-92
ith	-93
ol	-94
▁it	-95
▁as	-96
▁(	-97
ra	-98
ill	-99
▁an	-100
▁or	-101
od	-102
▁not	-103
if	-104
▁W	-105
▁st	-106
ess	-107
ul	-108
▁with	-109
ter	-110
▁are	-111
ri	-112
ge	-113
▁de	-114
▁ha	-115
her	-116
▁pro	-117
▁G	-118
▁D	-119
▁con	-120
ate	-121
▁su	-122
▁we	-123
ld	-124
▁R	-125
▁se	-126
rom	-127
ab	-128
res	-129
op	-130
ers	-131
▁'	-132
th	-133
ak	-134
nt	-135
▁L	-136
▁com	-137
▁by	-138
ist	-139
▁sh	-140
▁1	-141
pe	-142
ain	-143
ht	-144
▁N	-145
▁was	-146
▁have	-147
▁they	-148
▁from	-149
▁ex	-150
iv	-151
▁them	-152
▁will	-153
est	-154
all	-155
ity	-156
us	-157
em	-158
and	-159
▁O	-160
▁who	-161
ah	-162
▁v	-163
▁E	-164
▁F	-165
▁this	-166
ore	-167
ich	-168
ive	-169
ie	-170
ant	-171
ac	-172
um	-173
▁k	-174
▁Ind	-175
qu	-176
▁has	-177
ction	-178
▁r	-179
pp	-180
▁He	-181
ies	-182
▁at	-183
art	-184
ure	-185
os	-186
▁which	-187
un	-188
ia	-189
ould	-190
ort	-191
▁All	-192
▁their	-193
el	-194
ard	-195
oc	-196
▁ne	-197
ight	-198
red	-199
our	-200
▁his	-201
ord	-202
▁al	-203
ind	-204
pt	-205
ous	-206
▁all	-207
ose	-208
▁le	-209
ust	-210
▁ch	-211
te	-212
ther	-213
▁2	-214
▁do	-215
▁In	-216
▁whe	-217
▁K	-218
ong	-219
ud	-220
ag	-221
age	-222
ial	-223
ome	-224
▁Allah	-225
▁Th	-226
▁tr	-227
▁And	-228
▁We	-229
▁wor	-230
cc	-231
ated	-232
▁U	-233
ance	-234
ount	-235
▁your	-236
▁me	-237
▁sa	-238
▁pl	-239
▁go	-240
ip	-241
ect	-242
▁dis	-243
ans	-244
▁ab	-245
rou	-246
av	-247
ast	-248
ear	-249
▁us	-250
▁India	-251
ide	-252
ost	-253
ry	-254
able	-255
▁can	-256
▁any	-257
ff	-258
▁im	-259
▁there	-260
ame	-261
ok	-262
▁pe	-263
▁but	-264
▁un	-265
nder	-266
now	-267
▁comp	-268
▁ad	-269
▁en	-270
▁man	-271
▁up	-272
ish	-273
▁one	-274
ary	-275
▁him	-276
ap	-277
og	-278
▁j	-279
▁so	-280
ult	-281
▁been	-282
ice	-283
▁"	-284
▁other	-285
▁per	-286
▁J	-287
so	-288
▁V	-289
out	-290
ople	-291
one	-292
▁were	-293
▁res	-294
ical	-295
ru	-296
per	-297
ik	-298
ence	-299
au	-300
ions	-301
gh	-302
▁had	-303
▁It	-304
▁cont	-305
ib	-306
ire	-307
pl	-308
▁those	-309
ress	-310
iz	-311
vel	-312
▁am	-313
▁when	-314
are	-315
▁said	-316
ake	-317
▁ag	-318
ime	-319
ine	-320
ail	-321
▁people	-322
▁know	-323
ations	-324
ign	-325
very	-326
▁shall	-327
ue	-328
orm	-329
ase	-330
▁Y	-331
▁inc	-332
▁under	-333
▁out	-334
ile	-335
ade	-336
▁ind	-337
▁part	-338
ang	-339
vers	-340
ath	-341
ings	-342
▁cl	-343
▁no	-344
ub	-345
ens	-346
▁/	-347
▁int	-348
rit	-349
▁its	-350
▁what	-351
▁bel	-352
ace	-353
▁ar	-354
▁God	-355
ach	-356
▁also	-357
ep	-358
▁if	-359
▁co	-360
▁our	-361
ian	-362
ass	-363
▁Ch	-364
act	-365
▁ev	-366
▁19	-367
ber	-368
▁St	-369
▁comm	-370
ious	-371
▁may	-372
ren	-373
▁te	-374
lic	-375
reat	-376
▁Lord	-377
ise	-378
00	-379
▁app	-380
du	-381
ual	-382
vern	-383
▁acc	-384
▁imp	-385
▁sc	-386
fore	-387
ook	-388
ree	-389
erv	-390
fter	-391
▁This	-392
ition	-393
ory	-394
ident	-395
ack	-396
fe	-397
▁year	-398
▁sp	-399
old	-400
urn	-401
▁would	-402
▁sub	-403
▁spe	-404
▁Sh	-405
ike	-406
▁only	-407
▁bec	-408
▁“	-409
▁such	-410
ove	-411
▁rel	-412
hed	-413
ject	-414
form	-415
▁_	-416
▁tw	-417
▁time	-418
▁pre	-419
ause	-420
sel	-421
▁prov	-422
▁work	-423
ater	-424
ted	-425
▁then	-426
▁rec	-427
▁over	-428
ational	-429
▁po	-430
rib	-431
ric	-432
▁Go	-433
▁ear	-434
ities	-435
▁fo	-436
▁made	-437
▁belie	-438
▁day	-439
ild	-440
▁qu	-441
▁As	-442
we	-443
ward	-444
lect	-445
ound	-446
ied	-447
▁should	-448
▁more	-449
▁about	-450
▁like	-451
▁than	-452
vernment	-453
▁my	-454
wn	-455
▁some	-456
ces	-457
▁into	-458
ution	-459
ife	-460
▁Pro	-461
▁new	-462
▁say	-463
▁ass	-464
tern	-465
▁em	-466
▁bet	-467
ert	-468
uth	-469
ite	-470
ful	-471
▁count	-472
ark	-473
▁fe	-474
▁off	-475
▁But	-476
▁rem	-477
▁Wh	-478
▁cons	-479
aj	-480
way	-481
▁They	-482
▁pr	-483
▁Com	-484
velop	-485
ness	-486
iss	-487
▁3	-488
ons	-489
sh	-490
▁Se	-491
stit	-492
own	-493
cept	-494
▁two	-495
ific	-496
gr	-497
▁”	-498
▁reg	-499
oy	-500
ank	-501
hen	-502
▁[	-503
▁good	-504
ments	-505
▁these	-506
ved	-507
me	-508
▁after	-509
▁form	-510
▁ro	-511
▁act	-512
ily	-513
▁So	-514
▁Un	-515
led	-516
▁des	-517
ates	-518
▁before	-519
▁Re	-520
ient	-521
▁pers	-522
▁ent	-523
ond	-524
▁ob	-525
ph	-526
ne	-527
ave	-528
cess	-529
01	-530
▁again	-531
llow	-532
▁De	-533
ts	-534
▁His	-535
ors	-536
▁bl	-537
▁dec	-538
eng	-539
▁right	-540
cy	-541
▁see	-542
ght	-543
▁rep	-544
▁gu	-545
▁fir	-546
ower	-547
ink	-548
row	-549
▁trans	-550
▁ac	-551
▁pres	-552
▁her	-553
▁life	-554
▁sy	-555
rough	-556
cial	-557
erm	-558
ced	-559
aw	-560
▁An	-561
eth	-562
▁call	-563
▁giv	-564
▁Indian	-565
▁world	-566
ob	-567
▁ra	-568
ism	-569
▁Pr	-570
arm	-571
pect	-572
▁fl	-573
▁where	-574
▁Con	-575
resident	-576
▁being	-577
▁set	-578
rent	-579
▁through	-580
ener	-581
▁way	-582
▁develop	-583
),	-584
other	-585
ange	-586
▁You	-587
▁inv	-588
▁cre	-589
▁every	-590
ning	-591
▁great	-592
▁dif	-593
ally	-594
ves	-595
eed	-596
▁There	-597
ating	-598
ever	-599
uring	-600
li	-601
uc	-602
igh	-603
▁If	-604
int	-605
ft	-606
ull	-607
▁Bh	-608
oth	-609
ative	-610
les	-611
nds	-612
▁serv	-613
xt	-614
▁down	-615
▁thou	-616
ween	-617
▁make	-618
ided	-619
▁country	-620
▁att	-621
olog	-622
▁sec	-623
its	-624
).	-625
▁br	-626
▁add	-627
▁pol	-628
ax	-629
▁Is	-630
▁Government	-631
▁President	-632
▁produ	-633
▁cent	-634
ages	-635
▁follow	-636
▁between	-637
ular	-638
▁used	-639
ible	-640
▁exp	-641
▁&	-642
ublic	-643
▁pos	-644
ood	-645
▁ke	-646
ple	-647
ural	-648
ised	-649
▁En	-650
▁well	-651
▁could	-652
pen	-653
▁Min	-654
stem	-655
▁did	-656
▁first	-657
ble	-658
gan	-659
▁Him	-660
▁come	-661
▁inte	-662
▁person	-663
oci	-664
▁Act	-665
als	-666
▁years	-667
ty	-668
▁eff	-669
▁most	-670
▁For	-671
▁ret	-672
▁upon	-673
lp	-674
▁many	-675
▁5	-676
any	-677
pport	-678
▁sign	-679
ving	-680
▁Ex	-681
hi	-682
▁col	-683
ents	-684
▁unt	-685
ility	-686
ature	-687
▁back	-688
▁very	-689
▁even	-690
lud	-691
▁earth	-692
ited	-693
rie	-694
▁dist	-695
▁how	-696
▁Comm	-697
con	-698
▁4	-699
▁ord	-700
▁num	-701
fer	-702
▁among	-703
ven	-704
▁mess	-705
▁pur	-706
ister	-707
▁ed	-708
▁get	-709
ting	-710
▁200	-711
▁own	-712
▁against	-713
ale	-714
self	-715
▁tra	-716
elie	-717
air	-718
iew	-719
▁need	-720
amm	-721
uch	-722
aking	-723
ck	-724
..	-725
ather	-726
▁help	-727
ha	-728
hes	-729
irect	-730
ission	-731
▁inst	-732
ati	-733
▁sent	-734
get	-735
▁take	-736
ute	-737
ision	-738
ures	-739
ased	-740
▁val	-741
chn	-742
▁writ	-743
und	-744
▁does	-745
▁mem	-746
▁char	-747
ract	-748
▁Ad	-749
▁mod	-750
formation	-751
▁disc	-752
▁believe	-753
▁she	-754
▁use	-755
▁Ne	-756
▁given	-757
▁ap	-758
ick	-759
not	-760
▁gr	-761
ants	-762
▁turn	-763
▁system	-764
rong	-765
read	-766
▁just	-767
▁State	-768
▁child	-769
▁bu	-770
ished	-771
ices	-772
▁because	-773
▁end	-774
▁must	-775
▁requ	-776
▁ins	-777
▁import	-778
▁On	-779
▁mat	-780
▁mon	-781
▁cert	-782
▁Sc	-783
▁To	-784
▁ph	-785
ives	-786
ock	-787
belie	-788
▁ye	-789
round	-790
up	-791
▁pass	-792
▁place	-793
▁diffe	-794
▁hum	-795
ash	-796
ital	-797
ctions	-798
of	-799
ides	-800
iness	-801
▁lit	-802
▁account	-803
ari	-804
ror	-805
alth	-806
▁long	-807
▁car	-808
▁When	-809
pr	-810
▁Am	-811
▁equ	-812
rest	-813
ouse	-814
arch	-815
pos	-816
ivers	-817
▁wom	-818
▁give	-819
▁power	-820
ten	-821
▁>	-822
▁sm	-823
ries	-824
tle	-825
▁cap	-826
▁Al	-827
▁av	-828
▁cle	-829
ene	-830
...	-831
ral	-832
▁Day	-833
ix	-834
▁gener	-835
ified	-836
▁min	-837
▁includ	-838
▁sure	-839
pend	-840
▁prom	-841
arn	-842
▁inter	-843
ata	-844
▁water	-845
ES	-846
▁name	-847
uthor	-848
▁cond	-849
▁201	-850
selves	-851
▁<	-852
▁No	-853
▁nor	-854
▁now	-855
▁away	-856
▁gl	-857
▁let	-858
▁Hind	-859
▁found	-860
ork	-861
ars	-862
ined	-863
ug	-864
oun	-865
ee	-866
▁lar	-867
ared	-868
ety	-869
ern	-870
▁want	-871
▁number	-872
roup	-873
ship	-874
conom	-875
▁state	-876
▁men	-877
▁lo	-878
."	-879
ists	-880
▁lead	-881
▁heav	-882
▁Our	-883
▁fin	-884
day	-885
tc	-886
▁conc	-887
▁during	-888
▁conf	-889
▁inf	-890
ana	-891
less	-892
angu	-893
the	-894
▁fam	-895
▁Cent	-896
ters	-897
▁same	-898
ict	-899
▁main	-900
ody	-901
▁fore	-902
▁section	-903
ledge	-904
▁while	-905
ys	-906
▁heart	-907
ruct	-908
imes	-909
iod	-910
▁spec	-911
▁whom	-912
▁cur	-913
▁occ	-914
ology	-915
▁Q	-916
▁present	-917
▁det	-918
▁each	-919
ired	-920
ron	-921
▁rece	-922
▁development	-923
▁case	-924
▁6	-925
▁land	-926
▁ask	-927
ered	-928
▁here	-929
▁est	-930
lim	-931
▁sin	-932
aken	-933
▁art	-934
▁pay	-935
▁cor	-936
ality	-937
▁organ	-938
▁resp	-939
▁process	-940
▁Te	-941
▁book	-942
ption	-943
▁ser	-944
▁called	-945
▁stud	-946
▁cour	-947
▁adv	-948
ains	-949
▁both	-950
▁order	-951
ya	-952
▁another	-953
▁def	-954
▁etc	-955
har	-956
▁loc	-957
su	-958
▁things	-959
▁dem	-960
▁law	-961
▁open	-962
▁comple	-963
▁truth	-964
▁Then	-965
▁word	-966
ience	-967
▁return	-968
ics	-969
▁Res	-970
▁prev	-971
wards	-972
man	-973
▁fac	-974
▁educ	-975
▁sur	-976
lease	-977
amp	-978
ize	-979
▁aff	-980
▁Ar	-981
▁bus	-982
ained	-983
▁start	-984
▁mark	-985
▁ce	-986
port	-987
▁public	-988
▁period	-989
▁indust	-990
▁dev	-991
bers	-992
▁term	-993
▁different	-994
▁list	-995
ention	-996
lish	-997
▁beh	-998
EN	-999
▁partic	-1000
▁indeed	-1001
▁play	-1002
▁Mu	-1003
▁file	-1004
▁Do	-1005
▁best	-1006
▁Par	-1007
▁Mus	-1008
▁ref	-1009
▁find	-1010
▁certain	-1011
▁three	-1012
ov	-1013
▁came	-1014
▁commun	-1015
▁8	-1016
▁without	-1017
▁Mess	-1018
▁Tr	-1019
▁fil	-1020
▁fact	-1021
▁wind	-1022
▁econom	-1023
erg	-1024
▁knowledge	-1025
▁sou	-1026
▁cro	-1027
▁bro	-1028
▁show	-1029
▁7	-1030
▁fa	-1031
▁fear	-1032
▁National	-1033
▁sl	-1034
▁techn	-1035
▁poss	-1036
▁relig	-1037
stitution	-1038
▁0	-1039
ived	-1040
▁read	-1041
▁ext	-1042
ines	-1043
▁‘	-1044
▁means	-1045
mit	-1046
▁support	-1047
▁interest	-1048
▁appro	-1049
▁hand	-1050
▁author	-1051
aid	-1052
▁look	-1053
ai	-1054
▁much	-1055
ament	-1056
▁high	-1057
▁avail	-1058
▁information	-1059
▁progr	-1060
▁except	-1061
ploy	-1062
▁Mah	-1063
▁Shri	-1064
▁grow	-1065
▁ty	-1066
esh	-1067
▁gra	-1068
▁vis	-1069
ner	-1070
ither	-1071
stand	-1072
▁tem	-1073
ination	-1074
▁langu	-1075
ough	-1076
▁stand	-1077
here	-1078
▁pun	-1079
▁respect	-1080
ield	-1081
iving	-1082
crib	-1083
ually	-1084
▁incre	-1085
▁direct	-1086
▁med	-1087
▁contin	-1088
▁disbelie	-1089
▁full	-1090
ized	-1091
▁government	-1092
ccess	-1093
▁Minister	-1094
:%	-1095
rence	-1096
▁(1	-1097
ocial	-1098
▁var	-1099
▁OF	-1100
▁Say	-1101
ffic	-1102
▁human	-1103
▁women	-1104
oh	-1105
ret	-1106
ms	-1107
▁think	-1108
▁oper	-1109
ify	-1110
▁sk	-1111
cl	-1112
▁Or	-1113
▁small	-1114
gg	-1115
▁unto	-1116
▁meet	-1117
▁project	-1118
▁group	-1119
▁clear	-1120
▁At	-1121
▁Man	-1122
▁That	-1123
eds	-1124
▁prof	-1125
▁18	-1126
▁created	-1127
error	-1128
ins	-1129
ware	-1130
▁sim	-1131
▁cannot	-1132
ool	-1133
ried	-1134
thing	-1135
▁last	-1136
▁Le	-1137
olution	-1138
▁ver	-1139
▁exam	-1140
▁effect	-1141
▁appe	-1142
▁som	-1143
▁happ	-1144
▁My	-1145
▁important	-1146
▁che	-1147
▁rest	-1148
ctor	-1149
▁become	-1150
▁cult	-1151
ency	-1152
▁bring	-1153
inal	-1154
lected	-1155
▁proper	-1156
▁–	-1157
ND	-1158
▁What	-1159
▁How	-1160
asht	-1161
stitut	-1162
▁message	-1163
▁div	-1164
ks	-1165
▁Be	-1166
▁ca	-1167
ways	-1168
mb	-1169
▁Book	-1170
▁company	-1171
rap	-1172
▁business	-1173
▁New	-1174
▁amount	-1175
hip	-1176
older	-1177
▁taken	-1178
RB	-1179
▁today	-1180
▁surely	-1181
enef	-1182
erc	-1183
▁never	-1184
▁known	-1185
lf	-1186
ember	-1187
▁These	-1188
por	-1189
▁estab	-1190
▁income	-1191
ider	-1192
▁might	-1193
▁pat	-1194
▁wrong	-1195
▁punish	-1196
ER	-1197
ases	-1198
▁head	-1199
▁pri	-1200
ining	-1201
akes	-1202
gress	-1203
ense	-1204
az	-1205
▁Pl	-1206
AR	-1207
▁children	-1208
den	-1209
bs	-1210
icy	-1211
istr	-1212
ls	-1213
min	-1214
▁various	-1215
▁ele	-1216
▁Me	-1217
▁applic	-1218
▁within	-1219
▁days	-1220
▁Ram	-1221
▁dest	-1222
ote	-1223
▁put	-1224
ID	-1225
▁fun	-1226
orts	-1227
work	-1228
▁forg	-1229
▁9	-1230
▁sch	-1231
▁bank	-1232
▁month	-1233
ss	-1234
▁accept	-1235
tend	-1236
▁four	-1237
▁activ	-1238
▁Muslim	-1239
▁themselves	-1240
▁old	-1241
▁better	-1242
▁view	-1243
reed	-1244
▁times	-1245
ode	-1246
▁PR	-1247
▁frie	-1248
▁faith	-1249
▁den	-1250
put	-1251
▁mind	-1252
ternal	-1253
▁proble	-1254
▁evil	-1255
▁sit	-1256
▁allow	-1257
▁done	-1258
▁large	-1259
▁success	-1260
▁ide	-1261
▁mar	-1262
▁body	-1263
to	-1264
▁Ab	-1265
ething	-1266
▁bas	-1267
▁Raj	-1268
▁left	-1269
▁real	-1270
▁move	-1271
▁window	-1272
rought	-1273
▁social	-1274
avan	-1275
▁Isl	-1276
▁employ	-1277
▁going	-1278
▁others	-1279
▁par	-1280
▁level	-1281
TI	-1282
oin	-1283
▁keep	-1284
▁address	-1285
lished	-1286
▁Eng	-1287
▁education	-1288
ically	-1289
ues	-1290
rol	-1291
▁Gu	-1292
▁10	-1293
▁leg	-1294
ateg	-1295
ulation	-1296
ium	-1297
line	-1298
▁bo	-1299
ization	-1300
ery	-1301
▁too	-1302
▁imm	-1303
▁exper	-1304
ferred	-1305
▁build	-1306
oint	-1307
ator	-1308
par	-1309
ram	-1310
ey	-1311
alf	-1312
▁polit	-1313
ury	-1314
▁soci	-1315
ession	-1316
▁tre	-1317
▁light	-1318
atic	-1319
▁invest	-1320
▁towards	-1321
rah	-1322
▁free	-1323
▁chang	-1324
▁pop	-1325
▁due	-1326
itions	-1327
▁less	-1328
ON	-1329
ran	-1330
▁dra	-1331
▁result	-1332
▁sche	-1333
▁benef	-1334
iron	-1335
▁kind	-1336
▁Who	-1337
eric	-1338
▁available	-1339
▁One	-1340
▁jud	-1341
enger	-1342
▁quest	-1343
ief	-1344
▁dep	-1345
▁hist	-1346
ording	-1347
ailed	-1348
▁rev	-1349
▁Im	-1350
ged	-1351
▁war	-1352
irc	-1353
▁Central	-1354
▁trad	-1355
▁health	-1356
inc	-1357
tt	-1358
alk	-1359
ason	-1360
oss	-1361
▁heavens	-1362
▁issu	-1363
▁offic	-1364
▁Del	-1365
ird	-1366
▁language	-1367
ENT	-1368
▁understand	-1369
▁Ass	-1370
▁brought	-1371
▁prote	-1372
000	-1373
iversity	-1374
▁mo	-1375
▁199	-1376
▁exist	-1377
ering	-1378
na	-1379
ng	-1380
▁value	-1381
▁national	-1382
ances	-1383
▁ri	-1384
▁command	-1385
▁punishment	-1386
ala	-1387
cri	-1388
uss	-1389
▁cause	-1390
201	-1391
▁family	-1392
▁She	-1393
str	-1394
▁poet	-1395
ajor	-1396
▁Dep	-1397
tal	-1398
iful	-1399
▁tas	-1400
▁class	-1401
▁bre	-1402
▁const	-1403
ructure	-1404
▁{	-1405
▁lim	-1406
▁change	-1407
▁food	-1408
ternational	-1409
▁15	-1410
▁str	-1411
▁death	-1412
ately	-1413
▁Sub	-1414
ceed	-1415
ising	-1416
ification	-1417
▁run	-1418
▁associ	-1419
▁something	-1420
▁met	-1421
urity	-1422
▁Bhavan	-1423
aim	-1424
▁market	-1425
hing	-1426
▁Islam	-1427
▁house	-1428
▁special	-1429
▁service	-1430
▁Add	-1431
isions	-1432
ready	-1433
▁plan	-1434
▁non	-1435
rict	-1436
used	-1437
rial	-1438
ocu	-1439
▁vill	-1440
section	-1441
▁self	-1442
▁ru	-1443
phe	-1444
uty	-1445
▁Rs	-1446
ource	-1447
▁supp	-1448
ential	-1449
▁mer	-1450
cut	-1451
▁ey	-1452
ricult	-1453
▁Rasht	-1454
irit	-1455
▁hard	-1456
AN	-1457
▁far	-1458
▁Z	-1459
▁Can	-1460
▁program	-1461
▁father	-1462
ivid	-1463
uk	-1464
▁object	-1465
▁reve	-1466
▁field	-1467
ait	-1468
▁area	-1469
agement	-1470
▁12	-1471
▁comput	-1472
▁subject	-1473
▁provided	-1474
▁matter	-1475
orn	-1476
itte	-1477
iqu	-1478
▁near	-1479
▁data	-1480
▁product	-1481
urther	-1482
nect	-1483
▁ple	-1484
▁love	-1485
ured	-1486
▁net	-1487
▁already	-1488
rapati	-1489
han	-1490
▁op	-1491
▁Americ	-1492
ali	-1493
▁Sec	-1494
▁enc	-1495
▁regard	-1496
▁sw	-1497
ference	-1498
▁date	-1499
▁true	-1500
▁whole	-1501
reng	-1502
▁:	-1503
▁eng	-1504
▁Dis	-1505
gether	-1506
▁together	-1507
▁hig	-1508
▁night	-1509
▁Ag	-1510
▁members	-1511
▁Sing	-1512
▁charact	-1513
ability	-1514
▁few	-1515
▁ann	-1516
▁rese	-1517
▁Gand	-1518
oney	-1519
▁second	-1520
▁gave	-1521
▁capital	-1522
▁common	-1523
▁worship	-1524
raph	-1525
aring	-1526
▁perform	-1527
▁cr	-1528
▁services	-1529
▁Us	-1530
cing	-1531
▁signs	-1532
▁Indeed	-1533
▁countries	-1534
▁Your	-1535
▁following	-1536
reen	-1537
▁Rashtrapati	-1538
io	-1539
▁del	-1540
iding	-1541
ancial	-1542
▁Delhi	-1543
▁care	-1544
ently	-1545
▁20	-1546
▁Cont	-1547
▁expl	-1548
ma	-1549
▁Brit	-1550
▁above	-1551
▁liter	-1552
▁god	-1553
▁tax	-1554
▁hold	-1555
▁Those	-1556
eness	-1557
be	-1558
▁11	-1559
▁pray	-1560
ners	-1561
▁Spe	-1562
▁little	-1563
▁Pre	-1564
▁pract	-1565
come	-1566
land	-1567
▁streng	-1568
▁dou	-1569
▁provide	-1570
▁areas	-1571
liament	-1572
ope	-1573
▁based	-1574
▁himself	-1575
ogn	-1576
▁major	-1577
▁particular	-1578
▁nation	-1579
eous	-1580
ians	-1581
▁age	-1582
▁respons	-1583
itness	-1584
otion	-1585
▁path	-1586
▁economic	-1587
▁cost	-1588
▁Rep	-1589
▁asse	-1590
ying	-1591
▁action	-1592
ems	-1593
itor	-1594
▁test	-1595
val	-1596
aining	-1597
ilities	-1598
oses	-1599
▁making	-1600
▁thought	-1601
▁plac	-1602
▁words	-1603
isation	-1604
▁belong	-1605
▁consider	-1606
▁policy	-1607
artment	-1608
▁eas	-1609
ividual	-1610
▁hearts	-1611
adesh	-1612
HE	-1613
▁init	-1614
▁until	-1615
▁having	-1616
▁Acc	-1617
ger	-1618
▁el	-1619
▁able	-1620
▁Commission	-1621
ilit	-1622
uro	-1623
▁still	-1624
ges	-1625
aled	-1626
▁beg	-1627
istry	-1628
ling	-1629
▁though	-1630
▁pain	-1631
ii	-1632
▁ve	-1633
▁seen	-1634
▁ever	-1635
▁around	-1636
chie	-1637
▁current	-1638
lection	-1639
oura	-1640
osed	-1641
▁sector	-1642
▁sol	-1643
▁took	-1644
iver	-1645
▁society	-1646
viron	-1647
▁type	-1648
idence	-1649
AL	-1650
ards	-1651
ories	-1652
▁sing	-1653
▁instru	-1654
▁necess	-1655
▁%	-1656
▁Cour	-1657
ara	-1658
▁occas	-1659
▁farm	-1660
▁aut	-1661
▁whose	-1662
jee	-1663
akh	-1664
▁States	-1665
ises	-1666
icult	-1667
▁send	-1668
▁always	-1669
▁individual	-1670
▁mus	-1671
uct	-1672
ammad	-1673
els	-1674
▁orig	-1675
▁along	-1676
▁spirit	-1677
play	-1678
▁rul	-1679
▁express	-1680
▁post	-1681
▁repres	-1682
▁seek	-1683
▁believers	-1684
vironment	-1685
▁Cl	-1686
▁nothing	-1687
▁PRES	-1688
▁enter	-1689
▁mult	-1690
ats	-1691
▁therefore	-1692
hy	-1693
▁local	-1694
▁meas	-1695
▁ut	-1696
▁fav	-1697
veral	-1698
▁whether	-1699
▁thing	-1700
cil	-1701
▁contrib	-1702
▁'%	-1703
▁including	-1704
▁clause	-1705
▁Em	-1706
▁deeds	-1707
▁political	-1708
▁guid	-1709
▁creat	-1710
▁thee	-1711
br	-1712
▁folder	-1713
▁mill	-1714
lement	-1715
▁create	-1716
▁achie	-1717
▁Bank	-1718
▁Beng	-1719
oad	-1720
▁With	-1721
▁school	-1722
▁witness	-1723
▁Gener	-1724
arent	-1725
▁religion	-1726
▁further	-1727
▁vers	-1728
▁point	-1729
▁yet	-1730
▁young	-1731
▁mean	-1732
ails	-1733
▁five	-1734
ched	-1735
ames	-1736
▁Reg	-1737
ication	-1738
▁Gandhi	-1739
umb	-1740
▁Rem	-1741
▁Show	-1742
reme	-1743
com	-1744
IN	-1745
▁growth	-1746
bt	-1747
hammad	-1748
▁Col	-1749
ustom	-1750
pportun	-1751
▁Prov	-1752
eration	-1753
▁live	-1754
oard	-1755
▁complete	-1756
pose	-1757
▁side	-1758
cribed	-1759
af	-1760
▁received	-1761
▁control	-1762
▁equal	-1763
ream	-1764
▁later	-1765
▁total	-1766
▁nature	-1767
after	-1768
▁British	-1769
atever	-1770
▁became	-1771
ier	-1772
▁es	-1773
▁institut	-1774
▁Not	-1775
erve	-1776
lling	-1777
▁home	-1778
ta	-1779
ann	-1780
ours	-1781
▁held	-1782
▁peace	-1783
▁Ph	-1784
▁docu	-1785
▁impro	-1786
ources	-1787
rael	-1788
▁since	-1789
▁Please	-1790
▁Sy	-1791
▁hands	-1792
ittee	-1793
ude	-1794
hat	-1795
itional	-1796
illed	-1797
▁inde	-1798
ached	-1799
ministr	-1800
▁cred	-1801
▁circ	-1802
▁leave	-1803
▁opportun	-1804
▁dr	-1805
incip	-1806
▁diff	-1807
ead	-1808
The	-1809
▁friend	-1810
▁Messenger	-1811
▁next	-1812
▁After	-1813
▁Most	-1814
▁THE	-1815
ences	-1816
▁mor	-1817
▁record	-1818
▁occasion	-1819
▁short	-1820
▁question	-1821
▁(2	-1822
▁strong	-1823
▁function	-1824
IDENT	-1825
▁English	-1826
opy	-1827
outh	-1828
herjee	-1829
atch	-1830
▁required	-1831
▁ill	-1832
▁x	-1833
▁mater	-1834
▁knows	-1835
▁region	-1836
▁Hindi	-1837
ches	-1838
for	-1839
▁Prime	-1840
▁PRESIDENT	-1841
▁previous	-1842
▁son	-1843
▁forth	-1844
OR	-1845
▁feel	-1846
▁Israel	-1847
▁key	-1848
ivil	-1849
ergy	-1850
▁brother	-1851
dom	-1852
▁Singh	-1853
▁Develop	-1854
▁share	-1855
▁reward	-1856
▁selected	-1857
▁mis	-1858
▁position	-1859
▁money	-1860
ibility	-1861
▁reason	-1862
▁Pe	-1863
▁text	-1864
omes	-1865
▁possible	-1866
ior	-1867
▁industry	-1868
just	-1869
▁flow	-1870
▁several	-1871
▁foreign	-1872
amb	-1873
▁relations	-1874
ME	-1875
stitute	-1876
▁port	-1877
uation	-1878
udd	-1879
▁dom	-1880
change	-1881
We	-1882
▁connect	-1883
▁priv	-1884
▁either	-1885
cious	-1886
▁activities	-1887
▁application	-1888
IT	-1889
▁certainly	-1890
▁concern	-1891
▁research	-1892
▁Hindu	-1893
▁Ministry	-1894
anab	-1895
ps	-1896
▁authority	-1897
▁mother	-1898
IA	-1899
▁access	-1900
earch	-1901
▁dise	-1902
IS	-1903
▁Offic	-1904
ouncil	-1905
end	-1906
most	-1907
hold	-1908
▁z	-1909
▁Cong	-1910
▁Parliament	-1911
ively	-1912
gu	-1913
aster	-1914
▁face	-1915
▁commit	-1916
▁Some	-1917
▁error	-1918
ony	-1919
▁Sw	-1920
▁sat	-1921
▁contact	-1922
▁character	-1923
▁University	-1924
▁progress	-1925
▁recogn	-1926
icle	-1927
▁itself	-1928
▁technology	-1929
▁sum	-1930
mission	-1931
▁fall	-1932
urely	-1933
ension	-1934
cell	-1935
ross	-1936
▁Comp	-1937
▁financial	-1938
▁plant	-1939
▁fut	-1940
▁obs	-1941
ring	-1942
▁example	-1943
▁went	-1944
cent	-1945
▁anything	-1946
idd	-1947
▁ur	-1948
rodu	-1949
▁inn	-1950
▁link	-1951
▁visit	-1952
▁opp	-1953
▁don	-1954
ault	-1955
uf	-1956
▁air	-1957
▁anim	-1958
augh	-1959
aries	-1960
▁production	-1961
men	-1962
ully	-1963
see	-1964
▁elect	-1965
▁rate	-1966
▁trust	-1967
▁difficult	-1968
▁assess	-1969
▁lab	-1970
▁using	-1971
▁provisions	-1972
bar	-1973
▁grant	-1974
arat	-1975
mber	-1976
▁history	-1977
▁quality	-1978
▁mag	-1979
▁deal	-1980
iation	-1981
▁Af	-1982
une	-1983
▁Here	-1984
isl	-1985
▁agricult	-1986
▁represent	-1987
▁property	-1988
bsite	-1989
▁established	-1990
ibr	-1991
lu	-1992
ilt	-1993
.201	-1994
▁Pradesh	-1995
▁works	-1996
ened	-1997
▁line	-1998
▁nat	-1999
▁stat	-2000
▁working	-2001
imum	-2002
▁purpose	-2003
phet	-2004
▁Ver	-2005
▁Court	-2006
▁ident	-2007
▁16	-2008
ograph	-2009
aps	-2010
ince	-2011
▁enj	-2012
▁harm	-2013
▁Direct	-2014
▁fire	-2015
▁Fin	-2016
▁report	-2017
▁therein	-2018
▁material	-2019
▁Dr	-2020
▁suff	-2021
▁scheme	-2022
▁ded	-2023
▁Co	-2024
by	-2025
ilar	-2026
▁soul	-2027
▁necessary	-2028
▁started	-2029
▁ens	-2030
▁big	-2031
▁behind	-2032
▁course	-2033
ills	-2034
obal	-2035
▁Serv	-2036
ape	-2037
▁image	-2038
▁save	-2039
▁entire	-2040
▁App	-2041
rab	-2042
▁IND	-2043
▁meeting	-2044
▁hy	-2045
▁hath	-2046
▁Could	-2047
▁mercy	-2048
▁’	-2049
▁Des	-2050
aun	-2051
▁files	-2052
▁future	-2053
▁referred	-2054
▁network	-2055
▁Development	-2056
▁hon	-2057
▁top	-2058
itiz	-2059
▁Euro	-2060
▁By	-2061
ably	-2062
▁dri	-2063
acity	-2064
▁demand	-2065
ets	-2066
irth	-2067
know	-2068
▁196	-2069
▁High	-2070
▁ten	-2071
▁fund	-2072
▁continu	-2073
▁vi	-2074
▁close	-2075
▁related	-2076
osp	-2077
▁greater	-2078
▁Congress	-2079
▁security	-2080
▁redu	-2081
erciful	-2082
▁asked	-2083
▁Open	-2084
▁court	-2085
▁Know	-2086
▁fight	-2087
mend	-2088
▁i	-2089
▁25	-2090
▁bar	-2091
mitted	-2092
▁implement	-2093
ethod	-2094
airs	-2095
▁got	-2096
pur	-2097
▁Thus	-2098
▁news	-2099
esides	-2100
edi	-2101
▁mail	-2102
▁institutions	-2103
▁decl	-2104
▁higher	-2105
▁Now	-2106
engers	-2107
▁agree	-2108
▁community	-2109
▁six	-2110
▁General	-2111
▁whatever	-2112
▁000	-2113
▁written	-2114
aged	-2115
▁RRB	-2116
ointed	-2117
▁House	-2118
▁mount	-2119
▁city	-2120
▁treat	-2121
▁revealed	-2122
unt	-2123
▁once	-2124
▁students	-2125
▁198	-2126
▁Europe	-2127
urs	-2128
▁warn	-2129
▁guidance	-2130
ipp	-2131
AT	-2132
▁specified	-2133
▁comes	-2134
rast	-2135
▁living	-2136
olk	-2137
ton	-2138
▁cal	-2139
▁leaders	-2140
▁stri	-2141
▁195	-2142
▁Mar	-2143
▁forward	-2144
side	-2145
▁List	-2146
▁paid	-2147
▁1.	-2148
▁Ev	-2149
▁months	-2150
ani	-2151
fully	-2152
bit	-2153
▁step	-2154
▁modern	-2155
▁website	-2156
▁14	-2157
▁repl	-2158
▁ones	-2159
uly	-2160
▁ans	-2161
▁sal	-2162
ung	-2163
ront	-2164
▁lay	-2165
▁rele	-2166
▁13	-2167
▁Union	-2168
▁Su	-2169
▁soon	-2170
word	-2171
ned	-2172
▁tell	-2173
▁according	-2174
▁told	-2175
poses	-2176
▁past	-2177
ones	-2178
▁Nor	-2179
▁goods	-2180
▁prep	-2181
▁verily	-2182
▁story	-2183
▁believed	-2184
):	-2185
▁righteous	-2186
ruction	-2187
▁role	-2188
▁determ	-2189
atives	-2190
▁Committee	-2191
▁Department	-2192
▁Pol	-2193
▁Sat	-2194
orrow	-2195
▁abs	-2196
▁pot	-2197
hood	-2198
IC	-2199
▁cell	-2200
▁environment	-2201
▁eyes	-2202
der	-2203
▁recom	-2204
anch	-2205
itive	-2206
▁thy	-2207
▁force	-2208
ji	-2209
▁claim	-2210
ison	-2211
▁Er	-2212
▁separ	-2213
▁Such	-2214
▁initi	-2215
▁194	-2216
▁LRB	-2217
▁destro	-2218
ush	-2219
▁wis	-2220
▁king	-2221
▁doing	-2222
ires	-2223
▁problem	-2224
lled	-2225
reedom	-2226
rish	-2227
▁lot	-2228
▁pub	-2229
▁(1)	-2230
▁till	-2231
rop	-2232
▁office	-2233
▁phys	-2234
▁Muslims	-2235
▁computer	-2236
▁Constitution	-2237
▁Sp	-2238
lier	-2239
idered	-2240
ored	-2241
▁method	-2242
▁invol	-2243
aves	-2244
▁ter	-2245
▁building	-2246
abha	-2247
▁Qur	-2248
▁turned	-2249
▁particip	-2250
▁century	-2251
▁design	-2252
acher	-2253
istic	-2254
▁Mad	-2255
ideo	-2256
▁Govern	-2257
▁international	-2258
▁however	-2259
▁Mr	-2260
ek	-2261
▁why	-2262
▁vari	-2263
▁Bengal	-2264
▁ange	-2265
▁party	-2266
▁basis	-2267
▁blood	-2268
soever	-2269
itation	-2270
oid	-2271
▁parts	-2272
▁Let	-2273
▁acqu	-2274
▁appointed	-2275
▁considered	-2276
ival	-2277
▁bea	-2278
ita	-2279
▁speak	-2280
▁problems	-2281
▁X	-2282
irt	-2283
▁needs	-2284
▁Select	-2285
▁htt	-2286
▁energy	-2287
▁administr	-2288
▁purposes	-2289
▁super	-2290
▁197	-2291
▁Sche	-2292
▁loss	-2293
▁learn	-2294
▁arm	-2295
▁sun	-2296
▁movement	-2297
▁ess	-2298
▁arch	-2299
▁Surely	-2300
▁changes	-2301
▁Moses	-2302
▁vol	-2303
▁Part	-2304
ina	-2305
▁trib	-2306
▁Lo	-2307
ript	-2308
▁tree	-2309
▁integr	-2310
▁manner	-2311
essee	-2312
▁fru	-2313
?"	-2314
▁crit	-2315
▁Cor	-2316
▁Verily	-2317
ificate	-2318
▁dele	-2319
▁Council	-2320
▁Fire	-2321
▁discuss	-2322
▁Techn	-2323
sue	-2324
ulf	-2325
▁firm	-2326
with	-2327
▁tor	-2328
▁custom	-2329
▁single	-2330
action	-2331
hether	-2332
acy	-2333
▁persons	-2334
ont	-2335
▁terms	-2336
▁deep	-2337
▁host	-2338
▁pen	-2339
ological	-2340
▁However	-2341
▁trade	-2342
▁princip	-2343
▁citiz	-2344
▁17	-2345
istan	-2346
▁often	-2347
▁scient	-2348
▁assist	-2349
▁gre	-2350
▁check	-2351
▁village	-2352
▁Information	-2353
▁cho	-2354
▁server	-2355
▁spread	-2356
▁mention	-2357
asing	-2358
▁display	-2359
ategory	-2360
ouses	-2361
▁establish	-2362
▁fr	-2363
▁poor	-2364
▁bra	-2365
▁sense	-2366
▁30	-2367
▁carry	-2368
▁destroy	-2369
▁religious	-2370
▁press	-2371
nic	-2372
▁Muk	-2373
▁begin	-2374
▁books	-2375
TION	-2376
▁remember	-2377
▁sac	-2378
▁undert	-2379
▁messages	-2380
▁anc	-2381
▁passed	-2382
▁protect	-2383
▁task	-2384
▁assessee	-2385
cription	-2386
vey	-2387
▁makes	-2388
▁Bl	-2389
aper	-2390
aught	-2391
ixed	-2392
▁general	-2393
imate	-2394
ousand	-2395
▁gives	-2396
aint	-2397
▁issued	-2398
go	-2399
▁wealth	-2400
▁management	-2401
▁terror	-2402
▁America	-2403
ama	-2404
▁mach	-2405
▁allowed	-2406
▁Set	-2407
▁maint	-2408
rect	-2409
▁INDIA	-2410
▁civil	-2411
▁er	-2412
▁low	-2413
▁squ	-2414
▁Muhammad	-2415
▁thus	-2416
▁Ed	-2417
▁none	-2418
▁wish	-2419
▁*	-2420
▁reach	-2421
▁patient	-2422
▁expect	-2423
atory	-2424
▁sound	-2425
▁freedom	-2426
▁aud	-2427
▁compan	-2428
▁viol	-2429
▁http	-2430
▁benefit	-2431
▁everything	-2432
ke	-2433
▁taking	-2434
▁conditions	-2435
sequ	-2436
▁aware	-2437
wer	-2438
▁red	-2439
▁size	-2440
▁conduct	-2441
▁increase	-2442
▁efforts	-2443
▁natural	-2444
▁Chand	-2445
▁fel	-2446
then	-2447
▁norm	-2448
vi	-2449
va	-2450
hara	-2451
inary	-2452
▁extend	-2453
ift	-2454
krit	-2455
uses	-2456
▁fig	-2457
▁matters	-2458
▁institution	-2459
ox	-2460
▁really	-2461
▁neither	-2462
idden	-2463
▁Public	-2464
▁million	-2465
new	-2466
▁reject	-2467
▁alone	-2468
▁global	-2469
▁fast	-2470
itude	-2471
▁pet	-2472
▁duty	-2473
▁partners	-2474
▁enjoy	-2475
▁2.	-2476
ples	-2477
believers	-2478
ots	-2479
▁cover	-2480
use	-2481
▁culture	-2482
▁jour	-2483
over	-2484
▁ant	-2485
▁least	-2486
tax	-2487
itable	-2488
rown	-2489
ental	-2490
▁grie	-2491
▁bur	-2492
▁talk	-2493
▁subs	-2494
ech	-2495
▁thousand	-2496
▁developed	-2497
▁source	-2498
▁search	-2499
▁doubt	-2500
▁followed	-2501
cies	-2502
▁early	-2503
▁parent	-2504
▁exc	-2505
▁consum	-2506
▁industrial	-2507
▁Whether	-2508
rec	-2509
▁Kh	-2510
▁chall	-2511
▁Wor	-2512
▁training	-2513
iles	-2514
attle	-2515
ilk	-2516
nam	-2517
▁Bi	-2518
▁Mon	-2519
▁member	-2520
▁assessment	-2521
rs	-2522
kind	-2523
▁stay	-2524
▁li	-2525
▁transfer	-2526
▁pros	-2527
iveness	-2528
adem	-2529
▁Trans	-2530
▁Cannot	-2531
▁independ	-2532
gment	-2533
▁Where	-2534
▁creation	-2535
▁dead	-2536
▁conv	-2537
▁Are	-2538
▁gen	-2539
iction	-2540
▁opens	-2541
▁temple	-2542
▁Ap	-2543
▁woman	-2544
▁credit	-2545
▁Error	-2546
▁neg	-2547
▁programm	-2548
▁di	-2549
▁saying	-2550
ptions	-2551
▁May	-2552
▁Int	-2553
vere	-2554
▁dire	-2555
tings	-2556
mon	-2557
oke	-2558
alend	-2559
▁log	-2560
▁adop	-2561
uge	-2562
▁outside	-2563
▁literature	-2564
▁eat	-2565
▁san	-2566
],	-2567
app	-2568
▁soft	-2569
▁achieve	-2570
▁capacity	-2571
▁tou	-2572
aste	-2573
ols	-2574
alay	-2575
▁ground	-2576
▁democ	-2577
▁bless	-2578
▁Even	-2579
▁drink	-2580
emed	-2581
▁Prophet	-2582
▁provision	-2583
ew	-2584
▁town	-2585
abad	-2586
rist	-2587
▁birth	-2588
▁half	-2589
▁wife	-2590
▁arr	-2591
▁event	-2592
usion	-2593
▁File	-2594
2.	-2595
▁Qu	-2596
▁disease	-2597
▁gard	-2598
▁sea	-2599
ique	-2600
ulated	-2601
▁charge	-2602
▁payment	-2603
▁population	-2604
▁fem	-2605
▁mass	-2606
▁stra	-2607
ane	-2608
▁mode	-2609
▁Div	-2610
▁Rec	-2611
▁rights	-2612
▁programme	-2613
▁disbelieve	-2614
ows	-2615
omb	-2616
▁aim	-2617
▁saw	-2618
▁remain	-2619
▁sust	-2620
▁personal	-2621
▁angels	-2622
▁wide	-2623
enty	-2624
iddle	-2625
▁write	-2626
▁compet	-2627
▁People	-2628
▁mankind	-2629
▁hope	-2630
alse	-2631
▁insp	-2632
▁lost	-2633
his	-2634
▁pal	-2635
▁Name	-2636
wise	-2637
pecial	-2638
▁document	-2639
▁Mod	-2640
▁immedi	-2641
▁SA	-2642
▁resources	-2643
nding	-2644
ada	-2645
▁ir	-2646
▁Cal	-2647
rastructure	-2648
ares	-2649
▁cut	-2650
▁try	-2651
▁transl	-2652
▁receive	-2653
▁Mukherjee	-2654
ler	-2655
yle	-2656
RA	-2657
▁Per	-2658
▁Aut	-2659
▁include	-2660
▁judge	-2661
▁almost	-2662
▁propos	-2663
▁stru	-2664
undred	-2665
▁sugg	-2666
face	-2667
▁cases	-2668
▁deny	-2669
▁lat	-2670
▁innov	-2671
▁suggest	-2672
ufact	-2673
vert	-2674
estern	-2675
uration	-2676
▁earlier	-2677
▁request	-2678
▁rule	-2679
▁price	-2680
▁kept	-2681
▁Section	-2682
empt	-2683
▁Rel	-2684
▁revel	-2685
▁writing	-2686
aff	-2687
pril	-2688
▁accom	-2689
duc	-2690
▁raised	-2691
anskrit	-2692
▁across	-2693
▁24	-2694
▁deli	-2695
▁lakh	-2696
▁continue	-2697
▁exe	-2698
▁experience	-2699
▁seven	-2700
▁Merciful	-2701
irm	-2702
▁IN	-2703
▁user	-2704
▁similar	-2705
isf	-2706
▁bal	-2707
ging	-2708
▁typ	-2709
▁multip	-2710
▁install	-2711
Ex	-2712
▁strength	-2713
▁cast	-2714
▁Sabha	-2715
▁TO	-2716
▁Project	-2717
▁torment	-2718
//	-2719
://	-2720
▁Afric	-2721
▁says	-2722
▁Mem	-2723
▁enough	-2724
ables	-2725
▁official	-2726
ifest	-2727
▁products	-2728
▁condition	-2729
▁boy	-2730
▁require	-2731
▁fu	-2732
erved	-2733
▁Institute	-2734
gest	-2735
▁ign	-2736
ees	-2737
▁space	-2738
rection	-2739
▁pow	-2740
▁operation	-2741
▁tar	-2742
▁astr	-2743
▁third	-2744
▁district	-2745
▁Mahar	-2746
▁job	-2747
▁Tra	-2748
▁enem	-2749
▁Jan	-2750
▁Che	-2751
▁projects	-2752
rote	-2753
▁farmers	-2754
▁structure	-2755
EC	-2756
▁Fl	-2757
▁West	-2758
▁Republic	-2759
▁affect	-2760
▁private	-2761
uary	-2762
RI	-2763
▁desire	-2764
▁laun	-2765
▁Arab	-2766
rences	-2767
▁hundred	-2768
▁apply	-2769
▁Budd	-2770
▁guard	-2771
lebr	-2772
▁rad	-2773
▁investment	-2774
▁science	-2775
well	-2776
▁lear	-2777
igation	-2778
▁astray	-2779
oly	-2780
let	-2781
▁states	-2782
▁influ	-2783
▁introdu	-2784
▁Board	-2785
▁Jud	-2786
▁below	-2787
▁guide	-2788
anda	-2789
▁pra	-2790
ivity	-2791
▁wait	-2792
oud	-2793
ators	-2794
▁fulf	-2795
▁signific	-2796
alendar	-2797
▁Pers	-2798
▁Work	-2799
▁carried	-2800
▁tour	-2801
▁conne	-2802
▁US	-2803
owed	-2804
▁eight	-2805
ager	-2806
▁forms	-2807
▁front	-2808
ribution	-2809
▁teacher	-2810
▁failed	-2811
haps	-2812
pecially	-2813
ava	-2814
▁guided	-2815
▁United	-2816
fficient	-2817
▁decided	-2818
▁exchange	-2819
▁April	-2820
▁Asia	-2821
▁East	-2822
▁Sur	-2823
ney	-2824
▁draw	-2825
▁rural	-2826
▁hear	-2827
▁Off	-2828
▁id	-2829
▁Med	-2830
▁reform	-2831
▁ancient	-2832
▁attack	-2833
▁Pun	-2834
llah	-2835
▁Brah	-2836
▁depos	-2837
▁provides	-2838
agar	-2839
▁prepared	-2840
▁From	-2841
▁bear	-2842
0,	-2843
▁places	-2844
▁relating	-2845
▁issue	-2846
estic	-2847
▁economy	-2848
▁South	-2849
▁approach	-2850
ades	-2851
ales	-2852
htm	-2853
▁music	-2854
lear	-2855
▁bound	-2856
▁behalf	-2857
▁King	-2858
▁decision	-2859
▁Sanskrit	-2860
▁World	-2861
▁disbelievers	-2862
▁Pal	-2863
▁promise	-2864
▁page	-2865
▁Their	-2866
▁strengthen	-2867
▁improve	-2868
▁coop	-2869
utes	-2870
▁produce	-2871
6.	-2872
mir	-2873
umn	-2874
▁Use	-2875
ban	-2876
▁Ins	-2877
▁issues	-2878
▁dark	-2879
▁built	-2880
▁led	-2881
▁manufact	-2882
gram	-2883
▁defe	-2884
vant	-2885
urance	-2886
▁foc	-2887
iture	-2888
▁Har	-2889
▁Ak	-2890
amed	-2891
▁Gur	-2892
▁actually	-2893
AS	-2894
eral	-2895
▁accord	-2896
ump	-2897
▁situation	-2898
▁stop	-2899
▁proceed	-2900
▁tele	-2901
▁Cert	-2902
▁popular	-2903
▁lives	-2904
▁instrument	-2905
reg	-2906
osop	-2907
inion	-2908
▁whoever	-2909
▁Pranab	-2910
▁prayer	-2911
eb	-2912
▁secret	-2913
ici	-2914
▁Chief	-2915
ourage	-2916
3.	-2917
▁Educ	-2918
ex	-2919
▁Up	-2920
▁Technology	-2921
▁video	-2922
▁rain	-2923
▁meaning	-2924
▁profession	-2925
▁ensure	-2926
bed	-2927
▁da	-2928
▁crore	-2929
aka	-2930
icro	-2931
▁193	-2932
▁study	-2933
▁rich	-2934
▁subst	-2935
▁groups	-2936
▁100	-2937
ening	-2938
▁happy	-2939
chan	-2940
▁Account	-2941
▁Pur	-2942
▁satisf	-2943
▁false	-2944
▁Income	-2945
▁deb	-2946
pri	-2947
uted	-2948
ibrary	-2949
▁besides	-2950
que	-2951
▁unbelievers	-2952
▁values	-2953
▁Every	-2954
▁forb	-2955
▁road	-2956
jab	-2957
▁physical	-2958
▁indic	-2959
▁essential	-2960
▁published	-2961
▁especially	-2962
▁ste	-2963
▁friends	-2964
gar	-2965
▁rules	-2966
▁original	-2967
ume	-2968
▁Def	-2969
mes	-2970
asure	-2971
▁Cons	-2972
ilosop	-2973
▁opportunity	-2974
▁Leg	-2975
adu	-2976
▁har	-2977
▁coming	-2978
▁regular	-2979
▁accepted	-2980
▁Indust	-2981
.,	-2982
band	-2983
mark	-2984
▁univers	-2985
▁wall	-2986
urrection	-2987
▁conscious	-2988
▁river	-2989
▁Child	-2990
▁occur	-2991
▁Right	-2992
▁celebr	-2993
▁vict	-2994
▁providing	-2995
yond	-2996
utions	-2997
oe	-2998
ites	-2999
0.	-3000
ED	-3001
▁sens	-3002
▁evidence	-3003
▁concerned	-3004
'.	-3005
▁load	-3006
▁lower	-3007
anation	-3008
▁Have	-3009
▁Secret	-3010
▁During	-3011
▁caused	-3012
▁Category	-3013
▁Net	-3014
▁letter	-3015
▁increased	-3016
▁dig	-3017
ulate	-3018
▁details	-3019
▁ways	-3020
▁facilities	-3021
▁View	-3022
▁attend	-3023
▁teach	-3024
▁specific	-3025
▁wrote	-3026
▁giving	-3027
light	-3028
hest	-3029
▁easy	-3030
▁reached	-3031
▁becomes	-3032
7.	-3033
▁21	-3034
▁Christ	-3035
▁obt	-3036
▁Under	-3037
▁stage	-3038
▁depend	-3039
▁status	-3040
▁Fore	-3041
aving	-3042
▁fair	-3043
ott	-3044
External	-3045
▁Will	-3046
ley	-3047
osition	-3048
▁dam	-3049
▁While	-3050
▁wid	-3051
▁manifest	-3052
▁names	-3053
▁International	-3054
▁Cre	-3055
▁possess	-3056
cle	-3057
war	-3058
▁citizens	-3059
aughter	-3060
▁began	-3061
▁Sign	-3062
▁Hereafter	-3063
▁break	-3064
▁thereof	-3065
▁prescribed	-3066
▁percent	-3067
▁copy	-3068
▁Dist	-3069
8.	-3070
▁"%	-3071
▁morning	-3072
▁infrastructure	-3073
att	-3074
▁bill	-3075
▁programmes	-3076
load	-3077
iting	-3078
▁arri	-3079
▁belongs	-3080
fort	-3081
▁color	-3082
▁room	-3083
▁feed	-3084
kar	-3085
oday	-3086
▁rather	-3087
▁measure	-3088
▁Sm	-3089
mbly	-3090
▁Save	-3091
ras	-3092
▁die	-3093
▁remind	-3094
ervation	-3095
▁mut	-3096
▁expend	-3097
▁Officer	-3098
hib	-3099
uction	-3100
▁comb	-3101
▁instead	-3102
▁cultural	-3103
abled	-3104
▁appear	-3105
▁Krish	-3106
do	-3107
▁unless	-3108
▁Service	-3109
encies	-3110
▁March	-3111
oon	-3112
head	-3113
▁Guj	-3114
▁yourselves	-3115
▁Commissioner	-3116
▁Ma	-3117
▁lib	-3118
ented	-3119
▁bird	-3120
▁justice	-3121
▁beyond	-3122
5.	-3123
▁Ge	-3124
inn	-3125
ocation	-3126
▁importance	-3127
.)	-3128
▁Expl	-3129
ober	-3130
▁concer	-3131
ev	-3132
▁clean	-3133
▁origin	-3134
▁central	-3135
irst	-3136
▁Governor	-3137
▁coll	-3138
▁shown	-3139
rog	-3140
vest	-3141
cribe	-3142
▁oil	-3143
▁bi	-3144
▁chast	-3145
▁(2)	-3146
▁forest	-3147
UR	-3148
▁prim	-3149
▁Pak	-3150
▁device	-3151
▁Val	-3152
▁placed	-3153
ection	-3154
▁stone	-3155
▁camp	-3156
▁sky	-3157
▁Africa	-3158
▁languages	-3159
▁mere	-3160
▁Art	-3161
▁Hell	-3162
▁song	-3163
▁returned	-3164
▁responsible	-3165
.'	-3166
▁idea	-3167
▁accounts	-3168
▁bit	-3169
▁emerg	-3170
▁prior	-3171
▁takes	-3172
▁fail	-3173
▁fort	-3174
ground	-3175
resh	-3176
▁North	-3177
9.	-3178
▁Director	-3179
abor	-3180
▁disp	-3181
▁weak	-3182
4.	-3183
ration	-3184
▁NA	-3185
7,	-3186
ili	-3187
▁answer	-3188
▁agreement	-3189
▁aver	-3190
▁rivers	-3191
gn	-3192
▁Bal	-3193
▁und	-3194
oice	-3195
▁poin	-3196
raw	-3197
▁Sam	-3198
▁lies	-3199
▁inform	-3200
▁loan	-3201
elf	-3202
sect	-3203
▁schol	-3204
ressed	-3205
▁Other	-3206
▁appoint	-3207
▁Sim	-3208
▁Moh	-3209
▁password	-3210
▁Failed	-3211
▁potential	-3212
▁der	-3213
▁effective	-3214
▁1,	-3215
▁gir	-3216
though	-3217
oted	-3218
ule	-3219
▁(3	-3220
▁heaven	-3221
▁heard	-3222
wh	-3223
▁Gl	-3224
▁Centre	-3225
ell	-3226
omet	-3227
▁govern	-3228
▁Plan	-3229
▁coun	-3230
▁Of	-3231
▁hor	-3232
▁Education	-3233
▁Gang	-3234
▁beginning	-3235
0}	-3236
▁bad	-3237
▁Sup	-3238
▁win	-3239
known	-3240
▁powers	-3241
▁servants	-3242
▁Forg	-3243
2,	-3244
▁spiritual	-3245
▁understanding	-3246
This	-3247
▁round	-3248
▁Ac	-3249
);	-3250
tion	-3251
▁deg	-3252
▁style	-3253
uck	-3254
▁burn	-3255
▁quite	-3256
racy	-3257
inate	-3258
▁added	-3259
▁gone	-3260
AP	-3261
▁Quran	-3262
▁contract	-3263
▁existing	-3264
rug	-3265
▁Evolution	-3266
▁else	-3267
▁default	-3268
▁parents	-3269
▁Scheme	-3270
▁histor	-3271
▁CO	-3272
".	-3273
▁article	-3274
riage	-3275
haraoh	-3276
▁unjust	-3277
▁philosop	-3278
sc	-3279
icles	-3280
▁offer	-3281
▁emb	-3282
▁simple	-3283
▁speech	-3284
▁vision	-3285
▁setting	-3286
▁connection	-3287
▁treatment	-3288
▁Kash	-3289
▁Many	-3290
▁Move	-3291
▁folk	-3292
▁mom	-3293
▁notice	-3294
▁legal	-3295
▁nar	-3296
IL	-3297
rem	-3298
▁ge	-3299
▁obey	-3300
standing	-3301
▁activity	-3302
8,	-3303
▁Sa	-3304
anced	-3305
▁Group	-3306
▁31	-3307
raham	-3308
▁lie	-3309
▁System	-3310
ami	-3311
▁Bar	-3312
▁bond	-3313
▁fif	-3314
▁mot	-3315
ctors	-3316
▁presented	-3317
▁certificate	-3318
▁sn	-3319
▁Unt	-3320
▁youth	-3321
▁Research	-3322
▁Gard	-3323
oo	-3324
▁Author	-3325
▁ship	-3326
▁asset	-3327
▁compl	-3328
▁excell	-3329
arge	-3330
▁existence	-3331
▁colle	-3332
▁exerc	-3333
▁favour	-3334
▁agricultural	-3335
▁Dele	-3336
▁option	-3337
▁black	-3338
▁goes	-3339
20	-3340
▁concerning	-3341
ingu	-3342
▁Out	-3343
▁emp	-3344
▁kill	-3345
▁strugg	-3346
ancy	-3347
amil	-3348
▁proced	-3349
▁basic	-3350
oting	-3351
iff	-3352
antly	-3353
RO	-3354
oom	-3355
▁sle	-3356
▁direction	-3357
▁employment	-3358
▁scale	-3359
].	-3360
▁ris	-3361
▁felt	-3362
▁getting	-3363
▁knew	-3364
▁Punjab	-3365
▁wanted	-3366
▁addition	-3367
▁female	-3368
▁argu	-3369
▁Air	-3370
▁Sar	-3371
▁parties	-3372
▁commer	-3373
nal	-3374
▁anal	-3375
▁beaut	-3376
▁Therefore	-3377
▁plus	-3378
▁virt	-3379
▁running	-3380
▁swe	-3381
▁unit	-3382
▁houses	-3383
▁fixed	-3384
▁verses	-3385
▁learning	-3386
▁Resurrection	-3387
uls	-3388
▁warm	-3389
rim	-3390
▁formed	-3391
▁collect	-3392
▁remove	-3393
▁Trib	-3394
▁Utt	-3395
iva	-3396
body	-3397
ulations	-3398
▁week	-3399
cember	-3400
isement	-3401
▁sil	-3402
▁born	-3403
▁assign	-3404
ils	-3405
▁pack	-3406
▁Corpor	-3407
▁aspect	-3408
▁Prof	-3409
▁engine	-3410
ules	-3411
▁Sch	-3412
road	-3413
▁mentioned	-3414
▁Why	-3415
▁aw	-3416
▁generally	-3417
ze	-3418
▁Ay	-3419
▁Asse	-3420
▁hus	-3421
▁tri	-3422
▁ep	-3423
Allah	-3424
▁Search	-3425
▁systems	-3426
▁produced	-3427
▁poll	-3428
AY	-3429
▁forces	-3430
la	-3431
▁Kal	-3432
lt	-3433
istered	-3434
▁usually	-3435
▁destroyed	-3436
▁Cur	-3437
▁cy	-3438
▁wise	-3439
▁plants	-3440
atures	-3441
▁Chair	-3442
▁ideas	-3443
where	-3444
▁responsibility	-3445
▁novel	-3446
▁sight	-3447
cer	-3448
▁sold	-3449
▁Ved	-3450
▁pie	-3451
▁limit	-3452
▁50	-3453
▁cove	-3454
▁immediately	-3455
sy	-3456
▁sex	-3457
oured	-3458
porary	-3459
▁Today	-3460
oved	-3461
▁practice	-3462
▁Pri	-3463
▁3.	-3464
▁tried	-3465
▁contro	-3466
▁prosper	-3467
▁Supreme	-3468
▁associated	-3469
▁mand	-3470
▁note	-3471
ength	-3472
▁wishes	-3473
▁According	-3474
▁generation	-3475
▁26	-3476
▁animals	-3477
ctober	-3478
▁white	-3479
▁base	-3480
▁safe	-3481
rew	-3482
▁milit	-3483
▁presence	-3484
▁painful	-3485
▁Kashmir	-3486
co	-3487
umbai	-3488
▁Legisl	-3489
▁continued	-3490
oor	-3491
CC	-3492
▁units	-3493
▁content	-3494
▁statement	-3495
▁Enter	-3496
▁dream	-3497
-1	-3498
▁award	-3499
▁blind	-3500
▁II	-3501
▁Tem	-3502
▁ON	-3503
▁opportunities	-3504
▁Just	-3505
▁Mark	-3506
▁Program	-3507
▁banks	-3508
▁Dev	-3509
rick	-3510
▁poetry	-3511
▁regarding	-3512
▁fest	-3513
▁stor	-3514
▁serious	-3515
▁Pat	-3516
▁Any	-3517
▁active	-3518
Ind	-3519
▁pict	-3520
ching	-3521
▁feet	-3522
▁famous	-3523
▁American	-3524
▁correct	-3525
▁symb	-3526
▁forgiveness	-3527
omen	-3528
▁Yet	-3529
▁desp	-3530
▁anyone	-3531
▁Ser	-3532
▁cross	-3533
▁Islamic	-3534
OS	-3535
osing	-3536
▁imag	-3537
▁industries	-3538
▁item	-3539
▁revelations	-3540
▁companies	-3541
▁Explanation	-3542
▁numbers	-3543
IR	-3544
▁includes	-3545
rep	-3546
▁contains	-3547
▁Provided	-3548
▁medical	-3549
▁traditional	-3550
cend	-3551
▁Sri	-3552
▁obl	-3553
▁walk	-3554
ovember	-3555
arily	-3556
▁particularly	-3557
fect	-3558
▁gold	-3559
▁purch	-3560
▁version	-3561
▁greet	-3562
etic	-3563
▁conce	-3564
▁insect	-3565
▁workers	-3566
EL	-3567
▁please	-3568
▁directory	-3569
▁assistance	-3570
▁bow	-3571
▁Wise	-3572
▁legisl	-3573
▁increasing	-3574
▁circum	-3575
▁concept	-3576
right	-3577
aximum	-3578
▁tradition	-3579
▁Pakistan	-3580
enth	-3581
miss	-3582
view	-3583
▁fra	-3584
▁Shah	-3585
▁former	-3586
muk	-3587
▁War	-3588
adise	-3589
▁fully	-3590
▁fold	-3591
▁af	-3592
▁Conf	-3593
▁Address	-3594
▁plug	-3595
set	-3596
▁Only	-3597
▁supply	-3598
aksh	-3599
▁green	-3600
▁Hy	-3601
▁transport	-3602
9,	-3603
iers	-3604
ipur	-3605
▁granted	-3606
▁normal	-3607
▁petition	-3608
▁relevant	-3609
itle	-3610
▁supported	-3611
ties	-3612
rows	-3613
▁attempt	-3614
▁successful	-3615
▁prob	-3616
▁severe	-3617
ply	-3618
vious	-3619
▁Red	-3620
▁accordance	-3621
aches	-3622
▁Tag	-3623
cutta	-3624
5,	-3625
▁autom	-3626
▁session	-3627
▁limited	-3628
▁scientific	-3629
▁Adv	-3630
▁laid	-3631
▁select	-3632
▁Create	-3633
adi	-3634
iet	-3635
icial	-3636
iling	-3637
▁moon	-3638
ateral	-3639
iter	-3640
▁team	-3641
▁perhaps	-3642
▁sons	-3643
▁Tamil	-3644
▁spend	-3645
▁collection	-3646
▁contribution	-3647
▁Uttar	-3648
▁Message	-3649
▁Tur	-3650
▁police	-3651
▁23	-3652
▁ago	-3653
▁minister	-3654
asa	-3655
▁IT	-3656
▁Ty	-3657
▁Last	-3658
athe	-3659
▁respond	-3660
▁worth	-3661
▁software	-3662
▁broad	-3663
▁code	-3664
▁Start	-3665
▁Truth	-3666
▁final	-3667
▁moment	-3668
▁expenditure	-3669
ternet	-3670
▁serve	-3671
ids	-3672
▁Mal	-3673
ini	-3674
▁apost	-3675
text	-3676
▁Calcutta	-3677
▁Mo	-3678
▁distin	-3679
urt	-3680
ero	-3681
ptember	-3682
▁target	-3683
▁husband	-3684
izing	-3685
▁Tw	-3686
▁agriculture	-3687
▁January	-3688
rid	-3689
▁inj	-3690
▁repe	-3691
iverse	-3692
▁announ	-3693
▁Which	-3694
▁consist	-3695
ighty	-3696
lied	-3697
asth	-3698
▁prin	-3699
ellect	-3700
▁format	-3701
▁memory	-3702
itect	-3703
▁directly	-3704
▁film	-3705
▁advance	-3706
aug	-3707
▁dial	-3708
▁Pharaoh	-3709
▁mountains	-3710
apter	-3711
▁Bang	-3712
▁quick	-3713
▁expression	-3714
amental	-3715
▁sufficient	-3716
▁administration	-3717
avi	-3718
▁Pra	-3719
▁assets	-3720
▁jo	-3721
verse	-3722
▁challeng	-3723
dden	-3724
▁cities	-3725
▁attract	-3726
▁Lok	-3727
▁strateg	-3728
▁recommend	-3729
▁medic	-3730
▁looking	-3731
equ	-3732
▁Sah	-3733
▁villages	-3734
▁changed	-3735
▁covered	-3736
▁Thou	-3737
▁sacr	-3738
ores	-3739
uman	-3740
▁middle	-3741
▁paper	-3742
▁relationship	-3743
ugust	-3744
▁gods	-3745
ays	-3746
▁Ob	-3747
▁discip	-3748
▁denied	-3749
▁opinion	-3750
▁measures	-3751
▁Mumbai	-3752
▁prevent	-3753
▁separate	-3754
▁appropri	-3755
▁benefits	-3756
hab	-3757
▁travel	-3758
▁forgive	-3759
▁relation	-3760
ishn	-3761
▁192	-3762
▁laws	-3763
ae	-3764
▁drug	-3765
▁types	-3766
▁attention	-3767
icit	-3768
▁male	-3769
▁phot	-3770
ional	-3771
med	-3772
alty	-3773
hent	-3774
▁inside	-3775
▁speed	-3776
▁Management	-3777
obile	-3778
▁steps	-3779
▁occup	-3780
inite	-3781
▁weight	-3782
▁Abraham	-3783
▁Import	-3784
▁promised	-3785
1.	-3786
▁sides	-3787
▁transgress	-3788
▁Its	-3789
▁Organ	-3790
▁Bab	-3791
▁eye	-3792
order	-3793
▁cooperation	-3794
▁calc	-3795
▁standard	-3796
▁Children	-3797
▁faces	-3798
▁fruit	-3799
▁hours	-3800
▁Messengers	-3801
▁script	-3802
▁largest	-3803
▁sym	-3804
▁opened	-3805
▁effort	-3806
has	-3807
ateful	-3808
▁highest	-3809
▁IS	-3810
hru	-3811
▁officers	-3812
iii	-3813
▁card	-3814
▁qual	-3815
▁Forgiving	-3816
▁beautiful	-3817
▁straight	-3818
▁permission	-3819
▁dy	-3820
▁AND	-3821
▁milk	-3822
▁range	-3823
from	-3824
ulpt	-3825
▁wills	-3826
▁Bas	-3827
▁pred	-3828
hra	-3829
▁prot	-3830
▁Inst	-3831
▁proof	-3832
▁foot	-3833
▁length	-3834
▁arrange	-3835
▁longer	-3836
▁threat	-3837
▁twenty	-3838
▁chastisement	-3839
▁San	-3840
▁release	-3841
▁protection	-3842
▁extent	-3843
▁dram	-3844
▁stream	-3845
▁pattern	-3846
ratic	-3847
▁game	-3848
▁polic	-3849
inent	-3850
▁Western	-3851
▁calendar	-3852
▁esc	-3853
▁taste	-3854
▁connected	-3855
▁Ker	-3856
▁pure	-3857
osis	-3858
▁joint	-3859
▁shows	-3860
▁someone	-3861
▁documents	-3862
▁performance	-3863
yan	-3864
▁corru	-3865
▁extra	-3866
▁Sik	-3867
▁cam	-3868
▁upd	-3869
atha	-3870
add	-3871
arer	-3872
▁deemed	-3873
▁export	-3874
▁pan	-3875
iment	-3876
▁academ	-3877
!"	-3878
▁enemy	-3879
▁mechan	-3880
▁resident	-3881
▁appeal	-3882
pro	-3883
▁Wind	-3884
▁north	-3885
ken	-3886
ole	-3887
▁Port	-3888
▁Tax	-3889
PS	-3890
▁Jew	-3891
▁chief	-3892
▁implementation	-3893
▁June	-3894
▁played	-3895
▁nations	-3896
▁December	-3897
▁entered	-3898
▁fre	-3899
AC	-3900
▁Folder	-3901
▁Form	-3902
▁mental	-3903
It	-3904
▁included	-3905
▁educational	-3906
ously	-3907
▁execut	-3908
istration	-3909
▁completed	-3910
▁Well	-3911
fall	-3912
▁rupe	-3913
▁sins	-3914
tic	-3915
under	-3916
▁Copy	-3917
▁hosp	-3918
▁somet	-3919
▁violence	-3920
▁Inter	-3921
lict	-3922
▁standing	-3923
▁balance	-3924
▁leading	-3925
▁intellect	-3926
▁Char	-3927
▁height	-3928
▁rail	-3929
▁Bharat	-3930
6,	-3931
▁Inf	-3932
▁complex	-3933
▁construction	-3934
In	-3935
My	-3936
▁(%	-3937
▁Ann	-3938
▁centre	-3939
▁0.	-3940
▁exceed	-3941
▁knowing	-3942
▁doers	-3943
▁items	-3944
▁offe	-3945
hens	-3946
▁sudden	-3947
▁chann	-3948
▁Krishna	-3949
▁belief	-3950
And	-3951
▁saved	-3952
ops	-3953
▁furn	-3954
▁advice	-3955
▁struggle	-3956
oga	-3957
icip	-3958
▁funds	-3959
",	-3960
pir	-3961
leg	-3962
board	-3963
ilateral	-3964
▁watch	-3965
▁convey	-3966
▁Gujarat	-3967
▁otherwise	-3968
▁Bill	-3969
▁species	-3970
pper	-3971
ifying	-3972
▁PM	-3973
omin	-3974
pty	-3975
ography	-3976
▁Vis	-3977
▁repent	-3978
▁democracy	-3979
▁Time	-3980
mical	-3981
▁emph	-3982
▁Post	-3983
▁rank	-3984
▁stre	-3985
▁util	-3986
▁contain	-3987
▁Agricult	-3988
▁Ah	-3989
RL	-3990
rene	-3991
▁labour	-3992
▁apprec	-3993
▁ton	-3994
▁journey	-3995
pted	-3996
▁hyp	-3997
▁dwell	-3998
▁south	-3999
ferences	-4000
He	-4001
icated	-4002
▁Indians	-4003
▁Home	-4004
▁ready	-4005
NA	-4006
▁sister	-4007
▁operations	-4008
▁Dh	-4009
erous	-4010
▁config	-4011
▁minus	-4012
▁focus	-4013
▁Policy	-4014
asc	-4015
▁cry	-4016
▁First	-4017
▁pursu	-4018
▁stock	-4019
▁Finance	-4020
EE	-4021
gy	-4022
tered	-4023
▁employees	-4024
▁results	-4025
▁amend	-4026
▁Assist	-4027
press	-4028
▁stories	-4029
▁dece	-4030
▁Langu	-4031
▁Unable	-4032
▁functions	-4033
▁pleasure	-4034
▁drive	-4035
▁Bomb	-4036
▁Text	-4037
▁frame	-4038
▁unique	-4039
▁Sal	-4040
▁imper	-4041
▁Fund	-4042
▁fathers	-4043
▁located	-4044
▁circumst	-4045
▁(4	-4046
stituted	-4047
▁wood	-4048
▁grace	-4049
onse	-4050
▁Sol	-4051
enced	-4052
▁Back	-4053
ensive	-4054
▁October	-4055
▁Law	-4056
If	-4057
html	-4058
▁cou	-4059
▁Pass	-4060
▁hour	-4061
▁suc	-4062
▁significant	-4063
ula	-4064
▁heavy	-4065
▁territ	-4066
▁revolution	-4067
che	-4068
▁rise	-4069
▁commercial	-4070
ipt	-4071
▁tal	-4072
▁situ	-4073
▁domestic	-4074
▁site	-4075
ashtra	-4076
▁growing	-4077
▁Script	-4078
▁schemes	-4079
▁Aud	-4080
▁mighty	-4081
oll	-4082
▁named	-4083
▁Power	-4084
▁recent	-4085
▁table	-4086
▁gardens	-4087
▁consideration	-4088
▁More	-4089
▁perman	-4090
What	-4091
▁hot	-4092
▁useful	-4093
de	-4094
▁rock	-4095
▁Assembly	-4096
atically	-4097
▁Gr	-4098
uled	-4099
▁apart	-4100
▁valid	-4101
▁Ur	-4102
▁Hist	-4103
pranab	-4104
mukherjee	-4105
▁marriage	-4106
pranabmukherjee	-4107
▁facilit	-4108
▁storage	-4109
,"	-4110
▁stated	-4111
▁trees	-4112
ighb	-4113
raft	-4114
▁Nehru	-4115
▁leaves	-4116
CT	-4117
▁vac	-4118
▁staff	-4119
▁Science	-4120
▁adopted	-4121
▁CD	-4122
roud	-4123
odies	-4124
▁secure	-4125
▁block	-4126
▁SAW	-4127
aya	-4128
▁join	-4129
▁tool	-4130
',	-4131
apan	-4132
pense	-4133
▁Remove	-4134
4,	-4135
top	-4136
▁resol	-4137
ruary	-4138
itled	-4139
inery	-4140
▁Contact	-4141
▁Excell	-4142
igr	-4143
▁committed	-4144
▁prec	-4145
▁Delete	-4146
▁leader	-4147
▁divided	-4148
▁contained	-4149
ask	-4150
▁technical	-4151
▁mid	-4152
▁involved	-4153
ebruary	-4154
-201	-4155
resp	-4156
aker	-4157
▁sus	-4158
▁gain	-4159
▁powerful	-4160
▁helped	-4161
▁UN	-4162
▁engaged	-4163
▁pil	-4164
cause	-4165
▁media	-4166
▁Bombay	-4167
iry	-4168
▁Path	-4169
▁figure	-4170
▁temples	-4171
▁Secretary	-4172
▁declared	-4173
▁disob	-4174
osen	-4175
▁appropriate	-4176
▁cells	-4177
▁famil	-4178
▁consult	-4179
▁September	-4180
▁exists	-4181
▁payable	-4182
▁portion	-4183
▁fields	-4184
▁temper	-4185
▁praise	-4186
adh	-4187
▁sculpt	-4188
lication	-4189
▁consequ	-4190
▁Office	-4191
▁causes	-4192
▁questions	-4193
▁Gh	-4194
aters	-4195
fection	-4196
▁emphas	-4197
▁registered	-4198
aran	-4199
▁policies	-4200
▁architect	-4201
▁Head	-4202
▁amongst	-4203
ora	-4204
▁Pand	-4205
▁entry	-4206
▁model	-4207
▁divine	-4208
▁promote	-4209
▁November	-4210
▁thinking	-4211
1,	-4212
ests	-4213
▁Over	-4214
▁hearing	-4215
rust	-4216
▁won	-4217
▁military	-4218
AD	-4219
▁Bus	-4220
▁Nath	-4221
▁fruits	-4222
▁officer	-4223
▁reading	-4224
▁prostr	-4225
ications	-4226
▁processing	-4227
▁Nep	-4228
▁developing	-4229
▁profit	-4230
itch	-4231
▁Ret	-4232
▁withd	-4233
▁review	-4234
▁Edit	-4235
▁cloud	-4236
▁Image	-4237
▁extreme	-4238
▁reference	-4239
You	-4240
athy	-4241
▁capt	-4242
▁depart	-4243
▁neighb	-4244
▁deduction	-4245
▁animal	-4246
▁events	-4247
▁shape	-4248
▁22	-4249
rehens	-4250
▁Enable	-4251
urg	-4252
▁seed	-4253
▁families	-4254
▁4.	-4255
▁Gra	-4256
▁Satan	-4257
▁lines	-4258
▁lived	-4259
▁shares	-4260
mer	-4261
▁ID	-4262
ti	-4263
▁AT	-4264
pid	-4265
▁earn	-4266
▁China	-4267
▁email	-4268
arma	-4269
▁veget	-4270
▁symbol	-4271
nes	-4272
▁miss	-4273
▁track	-4274
▁images	-4275
▁succeed	-4276
▁external	-4277
▁influence	-4278
▁tid	-4279
iled	-4280
cher	-4281
▁seem	-4282
assion	-4283
Mu	-4284
▁Nay	-4285
▁corpor	-4286
▁expressed	-4287
▁gather	-4288
▁sometimes	-4289
iences	-4290
ounty	-4291
▁refuge	-4292
▁messengers	-4293
▁fit	-4294
▁circumstances	-4295
asons	-4296
xy	-4297
ogle	-4298
▁Inc	-4299
▁gar	-4300
umber	-4301
▁incl	-4302
▁likely	-4303
▁standards	-4304
3,	-4305
▁interests	-4306
like	-4307
▁needed	-4308
▁ST	-4309
▁nuc	-4310
▁excl	-4311
▁touch	-4312
▁seems	-4313
▁desires	-4314
▁remained	-4315
▁Car	-4316
▁Stand	-4317
▁Check	-4318
aging	-4319
▁Paradise	-4320
▁response	-4321
OL	-4322
▁magic	-4323
▁square	-4324
▁Unto	-4325
▁Her	-4326
▁waste	-4327
▁expand	-4328
▁Gandhiji	-4329
MS	-4330
uff	-4331
▁box	-4332
▁web	-4333
▁choose	-4334
inet	-4335
ought	-4336
shipp	-4337
▁Bihar	-4338
▁dance	-4339
▁dated	-4340
▁raise	-4341
ING	-4342
▁wel	-4343
▁pric	-4344
▁ignor	-4345
▁August	-4346
▁URL	-4347
▁attach	-4348
▁master	-4349
▁remains	-4350
icate	-4351
lies	-4352
grat	-4353
▁truly	-4354
▁variety	-4355
▁wo	-4356
enge	-4357
ression	-4358
▁Kerala	-4359
▁consciousness	-4360
▁taught	-4361
▁constitution	-4362
aja	-4363
▁fish	-4364
reprene	-4365
lying	-4366
▁compon	-4367
aur	-4368
atma	-4369
▁interp	-4370
▁killed	-4371
▁average	-4372
▁rejected	-4373
▁ball	-4374
▁fill	-4375
▁magn	-4376
▁quar	-4377
▁additional	-4378
llig	-4379
▁trial	-4380
▁Roy	-4381
▁extended	-4382
▁egg	-4383
▁location	-4384
▁worshipp	-4385
▁graph	-4386
▁remark	-4387
Muhammad	-4388
▁Knowing	-4389
unk	-4390
▁column	-4391
oming	-4392
oj	-4393
▁Nar	-4394
▁elements	-4395
▁Ear	-4396
▁mouth	-4397
▁enable	-4398
▁Chairman	-4399
▁calls	-4400
▁sup	-4401
ading	-4402
▁80	-4403
rain	-4404
usive	-4405
▁terrorism	-4406
IV	-4407
▁Also	-4408
▁levels	-4409
unal	-4410
▁School	-4411
▁surface	-4412
▁Conference	-4413
cast	-4414
▁wives	-4415
▁refers	-4416
uous	-4417
iance	-4418
▁Palest	-4419
▁chosen	-4420
olute	-4421
▁Corporation	-4422
▁partnership	-4423
▁191	-4424
▁input	-4425
▁proud	-4426
▁maintain	-4427
▁lack	-4428
▁trying	-4429
▁saf	-4430
icked	-4431
asthan	-4432
▁inaug	-4433
▁Exchange	-4434
aji	-4435
▁advant	-4436
▁evening	-4437
▁sectors	-4438
▁July	-4439
▁voice	-4440
▁cash	-4441
▁print	-4442
▁earned	-4443
▁perfect	-4444
▁whosoever	-4445
▁Fil	-4446
▁cop	-4447
▁Germ	-4448
▁Det	-4449
▁unf	-4450
iring	-4451
▁joy	-4452
▁medium	-4453
sec	-4454
▁skin	-4455
▁store	-4456
▁series	-4457
nded	-4458
vention	-4459
▁settle	-4460
▁poly	-4461
AM	-4462
▁27	-4463
▁Great	-4464
▁Japan	-4465
▁brings	-4466
▁described	-4467
▁difference	-4468
▁Di	-4469
erative	-4470
EM	-4471
▁avoid	-4472
▁28	-4473
▁Buddh	-4474
▁Att	-4475
my	-4476
anges	-4477
▁Turk	-4478
▁dang	-4479
▁worked	-4480
▁distance	-4481
II	-4482
▁2,	-4483
▁Soci	-4484
▁gets	-4485
▁plain	-4486
▁construct	-4487
▁quant	-4488
▁larger	-4489
▁machine	-4490
▁reflect	-4491
▁“”	-4492
▁prem	-4493
▁root	-4494
▁crops	-4495
actions	-4496
▁distribution	-4497
lick	-4498
▁diss	-4499
▁Maharashtra	-4500
▁independence	-4501
atter	-4502
▁hell	-4503
▁mutual	-4504
idy	-4505
ray	-4506
▁risk	-4507
aign	-4508
uries	-4509
▁expected	-4510
▁observed	-4511
▁abroad	-4512
▁Bhag	-4513
▁opening	-4514
▁Inte	-4515
▁died	-4516
▁cultiv	-4517
▁Fr	-4518
▁Som	-4519
ivered	-4520
▁forget	-4521
abh	-4522
▁poems	-4523
▁cattle	-4524
▁associate	-4525
overy	-4526
▁teachers	-4527
▁Elect	-4528
▁borrow	-4529
ube	-4530
eties	-4531
ifice	-4532
▁online	-4533
▁objective	-4534
▁dust	-4535
▁stead	-4536
▁output	-4537
▁Guru	-4538
▁clearly	-4539
▁brothers	-4540
▁applications	-4541
apt	-4542
▁truthful	-4543
▁Pres	-4544
▁fine	-4545
▁looked	-4546
▁sale	-4547
▁Hindus	-4548
ague	-4549
▁sleep	-4550
▁launched	-4551
pped	-4552
▁remem	-4553
▁tidings	-4554
aling	-4555
Our	-4556
▁Pan	-4557
▁Sum	-4558
▁Madh	-4559
▁determined	-4560
▁association	-4561
ught	-4562
▁annual	-4563
▁messenger	-4564
▁Had	-4565
▁listen	-4566
▁Mission	-4567
▁defined	-4568
▁European	-4569
▁introduced	-4570
ndra	-4571
ception	-4572
▁;	-4573
iny	-4574
▁friendly	-4575
▁pill	-4576
▁exercise	-4577
▁hidden	-4578
▁independent	-4579
olid	-4580
▁removed	-4581
▁wisdom	-4582
▁fellow	-4583
▁honour	-4584
▁Services	-4585
ius	-4586
ands	-4587
teen	-4588
▁Nob	-4589
▁deliver	-4590
▁majority	-4591
onal	-4592
▁screen	-4593
▁Chandra	-4594
▁rupees	-4595
▁academic	-4596
▁Description	-4597
verty	-4598
▁burden	-4599
▁February	-4600
▁Av	-4601
ahar	-4602
▁Men	-4603
pan	-4604
ocal	-4605
▁vast	-4606
istics	-4607
ologies	-4608
▁Because	-4609
▁glad	-4610
▁element	-4611
▁remote	-4612
▁poverty	-4613
▁Iran	-4614
▁convers	-4615
▁affairs	-4616
▁spent	-4617
▁Tagore	-4618
▁safety	-4619
▁throughout	-4620
oms	-4621
▁literary	-4622
ij	-4623
ousing	-4624
▁Change	-4625
nel	-4626
▁maximum	-4627
▁km	-4628
▁electric	-4629
For	-4630
▁songs	-4631
▁procedure	-4632
▁Did	-4633
▁hel	-4634
▁homes	-4635
▁Stat	-4636
▁confirm	-4637
▁delivered	-4638
ESS	-4639
alted	-4640
▁army	-4641
▁beauty	-4642
▁easily	-4643
▁station	-4644
▁ourselves	-4645
ARD	-4646
enture	-4647
▁impact	-4648
▁goal	-4649
▁initial	-4650
▁ideal	-4651
▁Sir	-4652
apers	-4653
▁submit	-4654
▁35	-4655
▁Ke	-4656
aram	-4657
ysis	-4658
▁trou	-4659
▁offered	-4660
▁Nav	-4661
▁cat	-4662
▁unc	-4663
▁studies	-4664
▁philosophy	-4665
▁Rail	-4666
▁gains	-4667
heduled	-4668
▁breast	-4669
OP	-4670
amet	-4671
▁equip	-4672
▁characters	-4673
▁Kum	-4674
▁Mag	-4675
itis	-4676
▁unity	-4677
▁contem	-4678
▁disbelieved	-4679
▁Ant	-4680
▁context	-4681
▁Division	-4682
▁assigned	-4683
ixt	-4684
enior	-4685
▁Karn	-4686
▁mort	-4687
▁Khan	-4688
venant	-4689
.0	-4690
▁confidence	-4691
isc	-4692
uties	-4693
▁moving	-4694
▁door	-4695
▁congrat	-4696
▁department	-4697
▁lad	-4698
▁distingu	-4699
▁greatest	-4700
irty	-4701
rone	-4702
▁Display	-4703
▁Rama	-4704
▁heed	-4705
▁birds	-4706
▁suffer	-4707
▁charges	-4708
abilities	-4709
▁fresh	-4710
▁Mahatma	-4711
▁Dem	-4712
▁bed	-4713
▁organisation	-4714
▁points	-4715
ML	-4716
▁views	-4717
▁soil	-4718
ika	-4719
▁dim	-4720
epend	-4721
▁griev	-4722
urate	-4723
TH	-4724
▁fle	-4725
elines	-4726
▁authent	-4727
▁hospital	-4728
▁Web	-4729
▁flag	-4730
▁History	-4731
gen	-4732
▁dry	-4733
▁seeking	-4734
▁approved	-4735
▁40	-4736
▁Prom	-4737
▁empty	-4738
▁Health	-4739
▁Network	-4740
▁District	-4741
ese	-4742
▁enterpr	-4743
ktop	-4744
▁lik	-4745
▁Both	-4746
▁schools	-4747
▁initiatives	-4748
▁Ext	-4749
▁rapid	-4750
▁Special	-4751
▁fert	-4752
▁communication	-4753
▁River	-4754
▁namely	-4755
▁Belie	-4756
era	-4757
cript	-4758
ira	-4759
▁debt	-4760
▁yield	-4761
▁dialog	-4762
▁Ham	-4763
▁inher	-4764
▁Social	-4765
▁divide	-4766
▁settings	-4767
chand	-4768
▁hide	-4769
▁kinds	-4770
▁souls	-4771
una	-4772
▁“%	-4773
▁acts	-4774
▁Rajasthan	-4775
▁Default	-4776
▁replied	-4777
▁articles	-4778
▁forbidden	-4779
▁jur	-4780
▁Akbar	-4781
▁innovation	-4782
oph	-4783
▁blessings	-4784
▁holding	-4785
▁wherein	-4786
AG	-4787
omp	-4788
▁{0}	-4789
▁Google	-4790
▁(3)	-4791
▁1961	-4792
▁Data	-4793
▁reduced	-4794
aped	-4795
▁Ste	-4796
▁mainly	-4797
osh	-4798
▁shr	-4799
▁habit	-4800
▁happen	-4801
▁kingdom	-4802
12	-4803
”.	-4804
mat	-4805
▁2000	-4806
▁oath	-4807
dule	-4808
▁Among	-4809
gra	-4810
▁Bad	-4811
▁gas	-4812
enses	-4813
▁sell	-4814
▁Colle	-4815
▁micro	-4816
▁merely	-4817
▁follows	-4818
▁pleased	-4819
▁profits	-4820
US	-4821
lfare	-4822
▁daily	-4823
▁welfare	-4824
▁machinery	-4825
ronic	-4826
▁conver	-4827
omy	-4828
▁Ra	-4829
▁prop	-4830
▁challenges	-4831
ux	-4832
aneous	-4833
▁season	-4834
▁organization	-4835
▁Lab	-4836
▁Nat	-4837
▁frequ	-4838
▁returns	-4839
▁vital	-4840
▁grand	-4841
▁sections	-4842
▁sort	-4843
BI	-4844
Do	-4845
▁IP	-4846
▁happened	-4847
▁undertaking	-4848
▁grad	-4849
▁Besides	-4850
imal	-4851
▁partner	-4852
▁devotion	-4853
▁appointment	-4854
anged	-4855
▁Himalay	-4856
▁Programme	-4857
▁Bel	-4858
▁neck	-4859
▁carrying	-4860
▁cra	-4861
▁excess	-4862
▁minor	-4863
▁intellig	-4864
▁generations	-4865
▁Since	-4866
osphere	-4867
▁minimum	-4868
▁Lim	-4869
▁ban	-4870
▁feeling	-4871
▁excellent	-4872
▁installed	-4873
▁promotion	-4874
atab	-4875
▁(19	-4876
▁lic	-4877
▁Each	-4878
▁turns	-4879
▁surround	-4880
▁Though	-4881
▁Mary	-4882
▁lest	-4883
▁wrongdo	-4884
▁altern	-4885
▁prison	-4886
▁recompense	-4887
▁Water	-4888
▁Second	-4889
ATION	-4890
venue	-4891
▁utter	-4892
▁sought	-4893
▁sustain	-4894
11	-4895
phone	-4896
▁primary	-4897
▁authorities	-4898
▁fat	-4899
rency	-4900
▁cook	-4901
▁wants	-4902
▁creating	-4903
▁practices	-4904
ja	-4905
arant	-4906
▁slow	-4907
▁Two	-4908
▁mal	-4909
respond	-4910
aying	-4911
▁notification	-4912
▁...	-4913
▁Key	-4914
▁rej	-4915
▁nine	-4916
▁joined	-4917
▁regional	-4918
▁Environment	-4919
ilty	-4920
▁buy	-4921
arati	-4922
▁attrib	-4923
▁keeping	-4924
▁battle	-4925
ET	-4926
▁Mer	-4927
▁Free	-4928
▁urban	-4929
▁encoura	-4930
▁covenant	-4931
▁See	-4932
▁Bengali	-4933
▁Official	-4934
rate	-4935
▁nut	-4936
▁Commun	-4937
▁highly	-4938
izations	-4939
▁mir	-4940
▁library	-4941
achal	-4942
▁cold	-4943
▁prepar	-4944
▁Type	-4945
▁affected	-4946
▁Financial	-4947
▁MS	-4948
▁campaign	-4949
▁thank	-4950
▁ult	-4951
ancing	-4952
▁5.	-4953
▁dispute	-4954
ips	-4955
▁branch	-4956
▁household	-4957
▁huge	-4958
asi	-4959
aces	-4960
▁cance	-4961
vis	-4962
▁Cap	-4963
▁ast	-4964
▁receipt	-4965
▁festival	-4966
▁plat	-4967
conomic	-4968
▁diseases	-4969
▁Aff	-4970
▁resource	-4971
lly	-4972
rees	-4973
▁individuals	-4974
gin	-4975
▁filled	-4976
▁completely	-4977
▁Certificate	-4978
▁destination	-4979
iciency	-4980
▁wonder	-4981
▁Members	-4982
UN	-4983
ataka	-4984
vision	-4985
▁positive	-4986
▁believing	-4987
▁communities	-4988
roll	-4989
▁Hour	-4990
▁mist	-4991
▁degree	-4992
▁prosperity	-4993
▁east	-4994
▁ji	-4995
▁sett	-4996
▁Language	-4997
▁wild	-4998
▁Rules	-4999
▁critic	-5000
ollow	-5001
▁Arch	-5002
▁Aust	-5003
▁cand	-5004
▁tong	-5005
oot	-5006
▁reasons	-5007
▁darkness	-5008
▁Emp	-5009
▁submitted	-5010
▁probably	-5011
▁Authority	-5012
▁drawn	-5013
▁colour	-5014
▁cru	-5015
▁bab	-5016
▁opt	-5017
▁Russ	-5018
▁Assam	-5019
ensation	-5020
▁confident	-5021
▁Date	-5022
▁garden	-5023
▁rare	-5024
▁theme	-5025
▁actual	-5026
▁Gardens	-5027
iate	-5028
▁Excellency	-5029
ander	-5030
▁impl	-5031
ishing	-5032
▁Ganga	-5033
▁delivery	-5034
▁integral	-5035
▁materials	-5036
▁board	-5037
tenance	-5038
▁requirements	-5039
▁latter	-5040
▁reality	-5041
▁guilty	-5042
▁relief	-5043
udget	-5044
▁demon	-5045
▁agreed	-5046
▁learned	-5047
▁entitled	-5048
▁Bu	-5049
▁moral	-5050
een	-5051
▁syn	-5052
▁jinn	-5053
icient	-5054
▁latest	-5055
▁pressure	-5056
seen	-5057
▁distrib	-5058
▁passing	-5059
DE	-5060
▁Non	-5061
▁crim	-5062
▁visible	-5063
▁features	-5064
ura	-5065
▁Est	-5066
▁Kov	-5067
▁sick	-5068
▁Click	-5069
▁greetings	-5070
▁ende	-5071
▁SH	-5072
ertain	-5073
▁wronged	-5074
▁girl	-5075
▁late	-5076
▁leadership	-5077
igible	-5078
▁volunt	-5079
pic	-5080
▁Joh	-5081
arian	-5082
ricts	-5083
▁Panch	-5084
▁Company	-5085
TP	-5086
▁aid	-5087
oseph	-5088
▁Foreign	-5089
▁aspects	-5090
mi	-5091
▁bodies	-5092
▁picture	-5093
▁Speaking	-5094
▁Ib	-5095
ped	-5096
▁duties	-5097
▁everyone	-5098
▁2014	-5099
▁Library	-5100
▁thereby	-5101
Is	-5102
eting	-5103
▁mission	-5104
▁disput	-5105
▁principles	-5106
▁England	-5107
▁yourself	-5108
▁correspond	-5109
ayana	-5110
▁sacred	-5111
▁regions	-5112
▁meant	-5113
▁universal	-5114
▁adequ	-5115
imately	-5116
valid	-5117
▁seized	-5118
▁shared	-5119
▁facility	-5120
amin	-5121
▁reforms	-5122
▁reply	-5123
50	-5124
othe	-5125
▁internal	-5126
▁teaching	-5127
CE	-5128
ayan	-5129
▁juris	-5130
▁performed	-5131
▁selection	-5132
▁fab	-5133
▁fell	-5134
▁hypoc	-5135
▁substant	-5136
▁iron	-5137
▁moved	-5138
▁Andhra	-5139
▁encourage	-5140
▁tiss	-5141
▁Trust	-5142
▁resolution	-5143
▁Park	-5144
▁hair	-5145
▁assum	-5146
▁collabor	-5147
▁description	-5148
hu	-5149
force	-5150
charge	-5151
▁editor	-5152
▁methods	-5153
▁background	-5154
▁Yoga	-5155
▁compr	-5156
▁string	-5157
▁foundation	-5158
▁incident	-5159
AB	-5160
aul	-5161
▁Subs	-5162
▁estim	-5163
▁prices	-5164
▁victory	-5165
▁although	-5166
▁inspired	-5167
▁60	-5168
▁click	-5169
▁College	-5170
ester	-5171
▁dear	-5172
▁participation	-5173
clause	-5174
▁planning	-5175
ifications	-5176
▁Life	-5177
▁button	-5178
box	-5179
cean	-5180
▁Word	-5181
isition	-5182
▁establishment	-5183
iber	-5184
▁beings	-5185
athi	-5186
▁west	-5187
▁title	-5188
▁users	-5189
▁myself	-5190
▁delight	-5191
▁petitioner	-5192
▁ic	-5193
▁tab	-5194
urities	-5195
▁Internet	-5196
▁division	-5197
▁entreprene	-5198
▁governance	-5199
UL	-5200
▁uns	-5201
-2018	-5202
▁bestowed	-5203
▁Governments	-5204
▁inner	-5205
▁Current	-5206
▁released	-5207
▁intellectual	-5208
▁ahead	-5209
▁trave	-5210
▁forever	-5211
▁transform	-5212
asm	-5213
▁Mail	-5214
▁admon	-5215
odes	-5216
▁ang	-5217
inger	-5218
rench	-5219
▁daughter	-5220
▁suitable	-5221
ache	-5222
▁audio	-5223
OC	-5224
ricket	-5225
▁Sun	-5226
oning	-5227
▁Config	-5228
▁double	-5229
▁limits	-5230
ERS	-5231
▁Like	-5232
▁arrest	-5233
▁nearly	-5234
▁channel	-5235
▁options	-5236
▁attached	-5237
▁Scripture	-5238
itt	-5239
grim	-5240
ocol	-5241
sych	-5242
▁tur	-5243
astic	-5244
bell	-5245
rible	-5246
othing	-5247
▁Export	-5248
▁delete	-5249
▁critical	-5250
▁exact	-5251
▁endeav	-5252
▁Reserve	-5253
▁folders	-5254
▁sources	-5255
ka	-5256
▁challenge	-5257
▁insurance	-5258
▁registration	-5259
thy	-5260
▁sacrifice	-5261
▁Self	-5262
▁climate	-5263
▁defence	-5264
▁deposit	-5265
▁Send	-5266
▁crop	-5267
▁grass	-5268
▁plays	-5269
▁consists	-5270
pel	-5271
▁Kar	-5272
ottom	-5273
▁enabled	-5274
▁Custom	-5275
▁Mighty	-5276
VD	-5277
▁plugin	-5278
▁Maj	-5279
▁actions	-5280
▁Docu	-5281
▁Number	-5282
▁changing	-5283
▁HT	-5284
▁stood	-5285
▁Independ	-5286
ams	-5287
mar	-5288
▁atm	-5289
▁hero	-5290
gypt	-5291
▁manager	-5292
▁pi	-5293
▁190	-5294
▁Invalid	-5295
▁subjects	-5296
eks	-5297
▁obst	-5298
▁About	-5299
▁Micro	-5300
▁containing	-5301
▁Color	-5302
▁Ash	-5303
ingly	-5304
ondon	-5305
▁achieved	-5306
india	-5307
atience	-5308
▁Buddha	-5309
ipl	-5310
▁AS	-5311
▁Sk	-5312
▁Autom	-5313
▁waiting	-5314
▁recently	-5315
mn	-5316
▁00	-5317
isms	-5318
writ	-5319
▁Disc	-5320
▁orders	-5321
▁platform	-5322
▁Assistant	-5323
▁reminder	-5324
acter	-5325
ients	-5326
▁upper	-5327
▁Print	-5328
▁charged	-5329
idge	-5330
▁sand	-5331
look	-5332
▁glor	-5333
▁Mount	-5334
▁letters	-5335
▁bilateral	-5336
▁publication	-5337
ifies	-5338
▁reduce	-5339
▁failure	-5340
▁agencies	-5341
▁Nag	-5342
▁nuclear	-5343
using	-5344
orial	-5345
▁surv	-5346
▁Press	-5347
▁centres	-5348
▁historical	-5349
▁Knower	-5350
▁Princip	-5351
▁treated	-5352
▁examination	-5353
rical	-5354
▁Tour	-5355
▁Kovind	-5356
▁insects	-5357
▁mountain	-5358
iy	-5359
▁Met	-5360
iders	-5361
▁proved	-5362
▁proport	-5363
overed	-5364
▁swear	-5365
▁reports	-5366
▁fighting	-5367
iant	-5368
▁Tru	-5369
▁ax	-5370
▁Another	-5371
▁approval	-5372
▁multiple	-5373
ubs	-5374
▁priority	-5375
▁suffering	-5376
▁Proper	-5377
▁counter	-5378
hern	-5379
▁Bah	-5380
▁row	-5381
▁scholar	-5382
▁recorded	-5383
▁sanction	-5384
▁doub	-5385
▁Civil	-5386
diction	-5387
▁extension	-5388
bal	-5389
▁Nepal	-5390
▁thanks	-5391
▁SC	-5392
▁Pet	-5393
▁star	-5394
▁Prote	-5395
▁purchase	-5396
essing	-5397
▁relative	-5398
▁witnesses	-5399
▁Mun	-5400
▁anti	-5401
▁infl	-5402
▁liqu	-5403
▁Party	-5404
▁Palestin	-5405
▁Tribunal	-5406
▁register	-5407
▁advantage	-5408
▁awareness	-5409
▁commanded	-5410
▁forgiving	-5411
hand	-5412
▁flu	-5413
▁Make	-5414
▁Society	-5415
atabase	-5416
▁served	-5417
▁fabric	-5418
▁visited	-5419
▁chemical	-5420
▁tend	-5421
▁distinct	-5422
▁01	-5423
ithm	-5424
▁Egypt	-5425
▁volume	-5426
▁manufacturing	-5427
▁marked	-5428
ho	-5429
▁Ira	-5430
▁plot	-5431
▁requires	-5432
oration	-5433
stitu	-5434
▁reck	-5435
▁Associ	-5436
▁figures	-5437
God	-5438
▁caste	-5439
▁seeing	-5440
▁Pen	-5441
▁Modi	-5442
dess	-5443
▁Class	-5444
▁newsp	-5445
iration	-5446
▁warner	-5447
▁AD	-5448
rant	-5449
▁ren	-5450
▁signed	-5451
▁Enc	-5452
▁hind	-5453
▁president	-5454
fts	-5455
▁refer	-5456
▁courage	-5457
▁instance	-5458
oral	-5459
▁piece	-5460
▁London	-5461
▁guides	-5462
▁situated	-5463
▁Play	-5464
▁whereas	-5465
5)	-5466
back	-5467
▁Creat	-5468
▁Gov	-5469
thern	-5470
▁Code	-5471
▁leaf	-5472
▁minutes	-5473
▁Training	-5474
▁constituted	-5475
▁manufacture	-5476
▁mobile	-5477
▁monitor	-5478
▁universities	-5479
▁Po	-5480
▁fault	-5481
▁match	-5482
▁happiness	-5483
▁Writ	-5484
astern	-5485
▁absolute	-5486
oti	-5487
oose	-5488
hance	-5489
imb	-5490
ammu	-5491
▁Once	-5492
▁preced	-5493
▁contacts	-5494
▁faithful	-5495
▁Cult	-5496
enance	-5497
▁phase	-5498
▁ability	-5499
▁incor	-5500
▁subsequ	-5501
▁BC	-5502
ammed	-5503
otic	-5504
▁lock	-5505
▁privile	-5506
▁proceedings	-5507
alg	-5508
ghan	-5509
plit	-5510
▁eleph	-5511
▁election	-5512
▁Va	-5513
esus	-5514
rief	-5515
▁heat	-5516
▁Prem	-5517
▁poem	-5518
▁Karnataka	-5519
▁commitment	-5520
▁successfully	-5521
esty	-5522
▁Stud	-5523
▁dign	-5524
▁interesting	-5525
▁Benef	-5526
▁healthy	-5527
raid	-5528
athered	-5529
▁Justice	-5530
orthern	-5531
▁appears	-5532
▁banking	-5533
▁replace	-5534
▁showing	-5535
rehensive	-5536
▁officials	-5537
▁Top	-5538
▁hop	-5539
▁descend	-5540
▁Log	-5541
▁Year	-5542
▁decades	-5543
▁records	-5544
▁warning	-5545
▁parliament	-5546
aly	-5547
▁Arabic	-5548
claim	-5549
▁grown	-5550
▁looks	-5551
▁burning	-5552
Pro	-5553
pta	-5554
▁DVD	-5555
plate	-5556
▁Iraq	-5557
▁Jews	-5558
▁weeks	-5559
▁Before	-5560
▁bright	-5561
▁assured	-5562
▁Security	-5563
▁supreme	-5564
▁falsehood	-5565
“”	-5566
▁Next	-5567
inated	-5568
▁defend	-5569
▁student	-5570
▁fundamental	-5571
aded	-5572
going	-5573
▁quot	-5574
mendment	-5575
mod	-5576
▁notes	-5577
▁toward	-5578
▁discussion	-5579
▁announced	-5580
▁2006	-5581
▁delay	-5582
erves	-5583
▁Help	-5584
▁factors	-5585
▁principle	-5586
ses	-5587
rated	-5588
▁2013	-5589
▁bran	-5590
▁Vishn	-5591
▁writer	-5592
▁smaller	-5593
▁Administr	-5594
lal	-5595
▁Don	-5596
▁Page	-5597
▁rates	-5598
▁tonnes	-5599
▁scholars	-5600
greg	-5601
▁Clear	-5602
▁Jammu	-5603
▁admit	-5604
▁scientists	-5605
▁Rad	-5606
ittees	-5607
luding	-5608
▁sitting	-5609
▁friendship	-5610
▁jurisdiction	-5611
▁Find	-5612
▁Brahm	-5613
ibilities	-5614
▁eth	-5615
▁reb	-5616
▁veh	-5617
erted	-5618
▁disk	-5619
anging	-5620
▁spoke	-5621
aughters	-5622
▁accident	-5623
▁Sind	-5624
▁herit	-5625
▁overt	-5626
▁Invest	-5627
▁followers	-5628
▁mur	-5629
▁Noah	-5630
▁coord	-5631
▁helps	-5632
▁democratic	-5633
rel	-5634
eless	-5635
abinet	-5636
ulating	-5637
▁merciful	-5638
▁proposed	-5639
▁Mand	-5640
▁coal	-5641
▁Rajya	-5642
▁abode	-5643
▁efficient	-5644
oken	-5645
▁Human	-5646
▁orient	-5647
▁unable	-5648
▁applied	-5649
▁offline	-5650
▁bringing	-5651
▁transferred	-5652
▁valu	-5653
▁abund	-5654
▁phone	-5655
▁objects	-5656
▁recognised	-5657
▁professional	-5658
bon	-5659
▁bes	-5660
holders	-5661
▁decide	-5662
▁becoming	-5663
▁conflict	-5664
▁uses	-5665
▁Nan	-5666
▁negative	-5667
10	-5668
UT	-5669
▁2005	-5670
▁exec	-5671
▁sole	-5672
det	-5673
▁bene	-5674
▁weap	-5675
pected	-5676
▁deleg	-5677
▁explo	-5678
▁doctor	-5679
▁showed	-5680
▁acquired	-5681
▁Application	-5682
oples	-5683
▁Call	-5684
▁hill	-5685
▁heritage	-5686
▁obtained	-5687
▁whatsoever	-5688
wa	-5689
apur	-5690
▁2007	-5691
▁courts	-5692
▁Process	-5693
▁elected	-5694
▁engineering	-5695
▁translation	-5696
▁skill	-5697
▁Sl	-5698
▁Unknown	-5699
▁married	-5700
▁Legislative	-5701
inity	-5702
▁Bose	-5703
▁abide	-5704
▁sugar	-5705
▁concent	-5706
▁instruments	-5707
▁Nare	-5708
▁Mahab	-5709
last	-5710
▁Down	-5711
▁currently	-5712
▁29	-5713
▁surpr	-5714
▁implemented	-5715
issa	-5716
▁effects	-5717
▁currency	-5718
anya	-5719
vent	-5720
▁Women	-5721
▁withdraw	-5722
▁daughters	-5723
ouch	-5724
▁drop	-5725
▁arrog	-5726
▁sending	-5727
▁Business	-5728
▁download	-5729
▁patience	-5730
▁Ka	-5731
▁eld	-5732
▁enhan	-5733
▁politics	-5734
IP	-5735
▁irr	-5736
▁adult	-5737
isations	-5738
▁FOR	-5739
▁cave	-5740
▁rice	-5741
▁candid	-5742
▁dispos	-5743
▁recall	-5744
▁1961-2018	-5745
▁recon	-5746
▁classes	-5747
quest	-5748
▁decisions	-5749
.—	-5750
ila	-5751
▁3,	-5752
aced	-5753
osit	-5754
▁compassion	-5755
▁Joseph	-5756
▁choice	-5757
▁destruction	-5758
▁administrative	-5759
had	-5760
▁ears	-5761
▁pollution	-5762
VE	-5763
▁Fort	-5764
▁Would	-5765
▁indig	-5766
▁damage	-5767
▁Ben	-5768
▁Mother	-5769
▁skills	-5770
▁dia	-5771
▁sends	-5772
▁hasten	-5773
▁playing	-5774
▁behold	-5775
▁Ent	-5776
No	-5777
▁doesn	-5778
▁attain	-5779
▁factor	-5780
▁obvious	-5781
▁appeared	-5782
▁objectives	-5783
omic	-5784
will	-5785
ormal	-5786
▁Found	-5787
▁technologies	-5788
▁gathered	-5789
ww	-5790
wor	-5791
rier	-5792
▁fee	-5793
rites	-5794
▁lawful	-5795
ployment	-5796
▁compared	-5797
▁equipment	-5798
▁maintenance	-5799
▁Hon	-5800
▁escape	-5801
▁Affairs	-5802
▁ordinary	-5803
▁initiative	-5804
oser	-5805
▁Nadu	-5806
▁bounty	-5807
▁Kan	-5808
▁minds	-5809
▁noted	-5810
▁operating	-5811
lands	-5812
▁recip	-5813
▁permanent	-5814
alt	-5815
ishes	-5816
▁amb	-5817
▁Mugh	-5818
▁Afghan	-5819
▁stands	-5820
▁interpret	-5821
▁organized	-5822
▁university	-5823
iversary	-5824
▁archive	-5825
aman	-5826
▁CON	-5827
▁Yes	-5828
▁thoughts	-5829
MP	-5830
▁-.	-5831
ceeds	-5832
▁drugs	-5833
▁inherit	-5834
▁argument	-5835
▁organised	-5836
▁corruption	-5837
umer	-5838
▁adequate	-5839
▁western	-5840
▁Ministers	-5841
▁conducted	-5842
▁org	-5843
▁Mult	-5844
▁hall	-5845
omever	-5846
pective	-5847
▁Control	-5848
van	-5849
▁Dec	-5850
▁Ref	-5851
▁facts	-5852
▁compar	-5853
▁addressed	-5854
rat	-5855
▁Ali	-5856
▁Tel	-5857
▁rob	-5858
▁Kumar	-5859
▁prose	-5860
▁Chapter	-5861
▁maintained	-5862
inese	-5863
▁holds	-5864
▁afford	-5865
rad	-5866
▁CH	-5867
redit	-5868
ofindia	-5869
▁agency	-5870
▁settled	-5871
▁unknown	-5872
izon	-5873
▁kil	-5874
▁rent	-5875
▁constant	-5876
▁John	-5877
▁afraid	-5878
president	-5879
▁examples	-5880
ossible	-5881
▁enemies	-5882
▁weather	-5883
▁Industrial	-5884
fast	-5885
oned	-5886
▁Das	-5887
▁welcome	-5888
ankar	-5889
ensions	-5890
▁citizen	-5891
▁territory	-5892
▁GN	-5893
▁mos	-5894
▁Load	-5895
▁arms	-5896
▁Vishnu	-5897
▁resist	-5898
▁struct	-5899
▁thirty	-5900
▁suddenly	-5901
▁conference	-5902
)?	-5903
60	-5904
udi	-5905
▁cow	-5906
▁Remember	-5907
▁centuries	-5908
ni	-5909
antic	-5910
▁incur	-5911
▁desert	-5912
▁willed	-5913
▁identified	-5914
,—	-5915
www	-5916
alle	-5917
release	-5918
▁chance	-5919
presidentofindia	-5920
▁32	-5921
▁Tri	-5922
▁didn	-5923
▁pages	-5924
▁covering	-5925
▁dedicated	-5926
ially	-5927
▁lose	-5928
▁solution	-5929
izes	-5930
▁Gaz	-5931
▁evol	-5932
▁blessed	-5933
▁marketing	-5934
RE	-5935
Sh	-5936
itual	-5937
▁Frie	-5938
▁inval	-5939
▁atmosphere	-5940
ros	-5941
anas	-5942
brance	-5943
detail	-5944
▁solar	-5945
▁contents	-5946
arya	-5947
▁stars	-5948
▁transaction	-5949
▁bul	-5950
ourse	-5951
▁motion	-5952
odh	-5953
▁6.	-5954
▁attitude	-5955
▁demonstr	-5956
▁Files	-5957
▁prime	-5958
▁aims	-5959
▁favor	-5960
▁designed	-5961
▁eligible	-5962
▁Kab	-5963
▁rid	-5964
▁feature	-5965
▁finance	-5966
▁thousands	-5967
ST	-5968
▁tom	-5969
▁tasks	-5970
▁branches	-5971
▁wr	-5972
▁Jaw	-5973
▁vir	-5974
▁Flag	-5975
▁Musa	-5976
▁psych	-5977
▁closed	-5978
eal	-5979
▁ment	-5980
▁Whoever	-5981
▁guarant	-5982
▁medicine	-5983
▁terrible	-5984
▁substance	-5985
▁senior	-5986
▁peoples	-5987
▁districts	-5988
▁Hyder	-5989
▁finally	-5990
place	-5991
▁Sard	-5992
▁spot	-5993
▁Engine	-5994
▁Although	-5995
▁Regional	-5996
▁grateful	-5997
▁electricity	-5998
▁Judge	-5999
▁Middle	-6000
▁Austral	-6001
,'	-6002
▁Orissa	-6003
▁enhance	-6004
▁squared	-6005
je	-6006
▁il	-6007
▁Alm	-6008
▁idol	-6009
▁sanct	-6010
▁reported	-6011
atre	-6012
▁Jag	-6013
▁Good	-6014
▁Swami	-6015
▁blame	-6016
▁prayers	-6017
▁Christian	-6018
▁Ha	-6019
▁wage	-6020
▁flowers	-6021
▁pilgrim	-6022
▁2008	-6023
▁brows	-6024
▁Report	-6025
▁respective	-6026
isis	-6027
▁SP	-6028
▁memo	-6029
iments	-6030
▁strike	-6031
luded	-6032
▁costs	-6033
▁launch	-6034
ga	-6035
ette	-6036
▁offices	-6037
▁principal	-6038
▁brain	-6039
▁billion	-6040
▁felicit	-6041
▁identity	-6042
anta	-6043
lets	-6044
▁2002	-6045
▁brief	-6046
▁heads	-6047
▁marry	-6048
▁sweet	-6049
▁configuration	-6050
▁Ter	-6051
▁hrs	-6052
▁Best	-6053
▁User	-6054
ica	-6055
umin	-6056
▁font	-6057
rome	-6058
▁fourth	-6059
▁turning	-6060
iced	-6061
▁Sikh	-6062
▁Forest	-6063
ien	-6064
▁train	-6065
▁Ara	-6066
▁dog	-6067
ndered	-6068
▁ritual	-6069
▁theory	-6070
▁Agriculture	-6071
osers	-6072
▁Close	-6073
▁thereafter	-6074
▁Exe	-6075
▁discl	-6076
▁commod	-6077
ansion	-6078
▁Similar	-6079
▁Choose	-6080
▁whenever	-6081
▁Bin	-6082
▁ble	-6083
cutive	-6084
▁links	-6085
▁throw	-6086
▁ec	-6087
▁mock	-6088
oles	-6089
▁lif	-6090
▁Force	-6091
▁Rural	-6092
▁Small	-6093
▁simpl	-6094
▁width	-6095
▁occurred	-6096
▁committee	-6097
▁Rest	-6098
▁blue	-6099
▁Compan	-6100
▁Nature	-6101
▁fertil	-6102
▁advanced	-6103
elve	-6104
essor	-6105
▁forgot	-6106
▁Chinese	-6107
▁Univers	-6108
▁500	-6109
▁tim	-6110
acific	-6111
▁categ	-6112
▁coast	-6113
EP	-6114
FC	-6115
ster	-6116
▁Produ	-6117
▁broken	-6118
▁whomever	-6119
ranath	-6120
▁temporary	-6121
unction	-6122
▁elections	-6123
▁processes	-6124
ladesh	-6125
▁oblig	-6126
▁adjust	-6127
▁markets	-6128
▁Believers	-6129
agh	-6130
aut	-6131
▁crow	-6132
anj	-6133
▁Muse	-6134
▁Article	-6135
▁properly	-6136
▁penalty	-6137
▁Independence	-6138
▁Id	-6139
▁gate	-6140
▁judgment	-6141
uta	-6142
▁Ye	-6143
▁2016	-6144
▁Adam	-6145
▁Vice	-6146
▁upgr	-6147
▁seemed	-6148
▁mad	-6149
osure	-6150
▁band	-6151
▁analysis	-6152
yl	-6153
pers	-6154
▁backs	-6155
▁union	-6156
▁reveal	-6157
▁arrived	-6158
▁Signs	-6159
▁Command	-6160
▁Eastern	-6161
▁Speaker	-6162
▁creative	-6163
.%	-6164
avid	-6165
▁undertaken	-6166
▁Pay	-6167
▁Sud	-6168
anish	-6169
▁rout	-6170
▁comfort	-6171
▁disbelief	-6172
▁movements	-6173
▁curs	-6174
▁189	-6175
▁Mos	-6176
marks	-6177
▁surre	-6178
▁properties	-6179
wan	-6180
▁suit	-6181
▁absence	-6182
▁accused	-6183
sha	-6184
▁menu	-6185
▁pled	-6186
▁informed	-6187
atio	-6188
ping	-6189
▁loans	-6190
▁functioning	-6191
hus	-6192
▁alt	-6193
▁orph	-6194
olkata	-6195
▁inhab	-6196
▁pride	-6197
▁mostly	-6198
▁displayed	-6199
akti	-6200
▁leads	-6201
▁capable	-6202
▁Divine	-6203
cont	-6204
quiry	-6205
▁roof	-6206
▁runs	-6207
▁Aware	-6208
▁poets	-6209
▁sorrow	-6210
▁accompan	-6211
▁tomorrow	-6212
▁bind	-6213
▁center	-6214
tes	-6215
ipes	-6216
aints	-6217
▁2015	-6218
▁plans	-6219
▁Options	-6220
▁immense	-6221
▁applicable	-6222
▁environmental	-6223
▁Az	-6224
onds	-6225
▁sad	-6226
▁fifty	-6227
▁multi	-6228
▁Judgment	-6229
yr	-6230
ola	-6231
▁aside	-6232
king	-6233
▁End	-6234
▁zero	-6235
▁Limited	-6236
▁organizations	-6237
oked	-6238
oring	-6239
▁filter	-6240
▁liquid	-6241
▁comment	-6242
▁expenses	-6243
pet	-6244
ibly	-6245
asant	-6246
▁Circ	-6247
edient	-6248
▁deity	-6249
ourable	-6250
▁journal	-6251
▁Settings	-6252
▁differences	-6253
30	-6254
SS	-6255
TER	-6256
lude	-6257
mary	-6258
▁afflic	-6259
▁fulfil	-6260
▁temperature	-6261
phets	-6262
▁Read	-6263
▁girls	-6264
▁Hyderabad	-6265
▁possession	-6266
ym	-6267
iger	-6268
ports	-6269
raction	-6270
▁losers	-6271
▁Principal	-6272
▁compensation	-6273
stood	-6274
aviour	-6275
▁employee	-6276
uity	-6277
▁Awards	-6278
▁bottom	-6279
▁governments	-6280
apa	-6281
▁pu	-6282
▁emotion	-6283
▁apostles	-6284
pto	-6285
▁75	-6286
osite	-6287
▁City	-6288
▁Tele	-6289
▁Apost	-6290
▁horse	-6291
▁expert	-6292
▁grieve	-6293
▁Institut	-6294
▁humanity	-6295
zz	-6296
▁.	-6297
uit	-6298
char	-6299
▁fulfilled	-6300
▁sustenance	-6301
▁Oper	-6302
▁sequ	-6303
▁Subhas	-6304
▁category	-6305
▁represents	-6306
▁fed	-6307
▁worlds	-6308
▁outstanding	-6309
urved	-6310
▁French	-6311
▁apostle	-6312
▁El	-6313
while	-6314
criber	-6315
▁concl	-6316
▁exhib	-6317
▁Certain	-6318
▁sculpture	-6319
▁7.	-6320
ested	-6321
gor	-6322
▁Inn	-6323
iated	-6324
isher	-6325
▁hurt	-6326
▁simply	-6327
operative	-6328
▁Bur	-6329
asters	-6330
▁Server	-6331
▁188	-6332
▁mel	-6333
plete	-6334
▁deeply	-6335
▁extremely	-6336
▁automatically	-6337
ena	-6338
uli	-6339
▁decor	-6340
▁walls	-6341
▁deleted	-6342
wered	-6343
▁Food	-6344
▁Museum	-6345
▁formal	-6346
▁entirely	-6347
▁illust	-6348
▁Ban	-6349
▁Nations	-6350
▁equally	-6351
▁creatures	-6352
▁sor	-6353
▁formation	-6354
▁commission	-6355
▁wrongdoers	-6356
▁Gan	-6357
▁Tool	-6358
▁Narendra	-6359
▁4,	-6360
▁(4)	-6361
alam	-6362
otton	-6363
▁sees	-6364
▁arbit	-6365
▁sexual	-6366
▁survey	-6367
▁starting	-6368
▁Lal	-6369
▁Link	-6370
▁narrow	-6371
▁strive	-6372
▁explain	-6373
▁allowance	-6374
▁belonging	-6375
▁Kor	-6376
▁aspir	-6377
▁refused	-6378
▁chargeable	-6379
▁distinguished	-6380
IF	-6381
▁10,	-6382
▁offers	-6383
▁proposal	-6384
▁proportion	-6385
▁flower	-6386
▁impart	-6387
▁opposition	-6388
iform	-6389
active	-6390
▁Password	-6391
▁directed	-6392
▁Scheduled	-6393
PC	-6394
enous	-6395
▁Support	-6396
▁Award	-6397
▁absor	-6398
▁transp	-6399
▁composed	-6400
rd	-6401
▁1999	-6402
▁owners	-6403
▁Related	-6404
▁transactions	-6405
uru	-6406
▁pregn	-6407
▁Apostle	-6408
▁initiated	-6409
▁architecture	-6410
NG	-6411
hel	-6412
▁Init	-6413
▁fuel	-6414
theists	-6415
▁Kolkata	-6416
{0}	-6417
▁Fa	-6418
▁Soft	-6419
▁wicked	-6420
▁calling	-6421
▁Association	-6422
▁Video	-6423
▁solid	-6424
▁Pacific	-6425
▁wherever	-6426
▁Dar	-6427
▁Has	-6428
▁Light	-6429
▁quickly	-6430
▁Mohammed	-6431
▁customer	-6432
▁speaking	-6433
▁improvement	-6434
▁deed	-6435
coming	-6436
▁dynam	-6437
▁equity	-6438
▁Further	-6439
ooth	-6440
▁Tab	-6441
▁hom	-6442
orter	-6443
▁colon	-6444
▁digital	-6445
▁tourism	-6446
yal	-6447
▁115	-6448
▁Line	-6449
▁towns	-6450
▁Mughal	-6451
OM	-6452
▁Jesus	-6453
▁perce	-6454
▁Economic	-6455
▁believes	-6456
▁stones	-6457
▁dealing	-6458
▁specify	-6459
▁prostrate	-6460
▁Lic	-6461
pends	-6462
▁clot	-6463
▁Joint	-6464
▁Deputy	-6465
▁border	-6466
▁steel	-6467
▁twelve	-6468
▁update	-6469
SL	-6470
▁prove	-6471
▁Industry	-6472
▁promoting	-6473
xic	-6474
pring	-6475
▁cool	-6476
▁fought	-6477
▁beneath	-6478
▁Bangladesh	-6479
▁Province	-6480
▁explained	-6481
▁dro	-6482
▁sustainable	-6483
▁instructions	-6484
▁Urdu	-6485
aration	-6486
▁sincere	-6487
▁admitted	-6488
▁hypocrites	-6489
oman	-6490
ename	-6491
▁clay	-6492
▁shad	-6493
▁Trade	-6494
▁theirs	-6495
▁council	-6496
▁pension	-6497
erate	-6498
iplom	-6499
▁Plug	-6500
▁career	-6501
▁railway	-6502
▁recited	-6503
▁remaining	-6504
St	-6505
abet	-6506
edia	-6507
▁Pras	-6508
▁Access	-6509
▁Sardar	-6510
▁befall	-6511
▁Mat	-6512
▁Persian	-6513
▁Through	-6514
▁happens	-6515
▁tro	-6516
▁vig	-6517
▁Build	-6518
▁Garden	-6519
▁conven	-6520
▁tribal	-6521
▁Schedule	-6522
ris	-6523
▁90	-6524
remony	-6525
▁bones	-6526
▁glory	-6527
▁tools	-6528
amation	-6529
▁Jawahar	-6530
▁Something	-6531
▁Chen	-6532
▁race	-6533
▁invited	-6534
▁Christians	-6535
▁5,	-6536
▁soldiers	-6537
▁core	-6538
earing	-6539
▁Never	-6540
▁leaving	-6541
▁Mahabhar	-6542
withstanding	-6543
TS	-6544
oes	-6545
agers	-6546
urb	-6547
oding	-6548
▁bone	-6549
▁pane	-6550
fortun	-6551
▁renew	-6552
▁asking	-6553
▁render	-6554
▁exports	-6555
▁trouble	-6556
▁hur	-6557
▁scope	-6558
▁Common	-6559
▁revenue	-6560
▁Document	-6561
▁Insurance	-6562
▁rising	-6563
▁judgement	-6564
▁respectively	-6565
rary	-6566
▁holy	-6567
▁actor	-6568
▁owner	-6569
▁Tar	-6570
▁obtain	-6571
▁immediate	-6572
aud	-6573
that	-6574
▁pull	-6575
▁cricket	-6576
DA	-6577
▁bag	-6578
▁Look	-6579
▁flat	-6580
▁Israeli	-6581
▁writers	-6582
▁ves	-6583
▁Full	-6584
▁satisfied	-6585
▁contributions	-6586
▁Status	-6587
▁recite	-6588
▁accompl	-6589
HA	-6590
▁hat	-6591
▁spr	-6592
owing	-6593
▁Babu	-6594
▁Geor	-6595
▁Keep	-6596
▁Unit	-6597
▁depth	-6598
▁tissue	-6599
▁palm	-6600
▁breed	-6601
▁overall	-6602
▁recognition	-6603
cts	-6604
▁adj	-6605
▁stick	-6606
OV	-6607
▁2001	-6608
▁cere	-6609
▁twice	-6610
▁crisis	-6611
▁thread	-6612
▁drinking	-6613
▁contribute	-6614
LE	-6615
roc	-6616
▁IC	-6617
aved	-6618
▁drown	-6619
▁counsel	-6620
▁framework	-6621
▁wear	-6622
▁Noble	-6623
▁invalid	-6624
▁offering	-6625
▁contemporary	-6626
De	-6627
ming	-6628
▁hen	-6629
▁unp	-6630
DU	-6631
▁Shiva	-6632
▁drama	-6633
▁rect	-6634
▁evolution	-6635
▁communications	-6636
▁Later	-6637
▁answered	-6638
oval	-6639
inder	-6640
▁pieces	-6641
▁detailed	-6642
▁neighbour	-6643
▁facilitate	-6644
)!	-6645
▁Ans	-6646
▁Note	-6647
▁Take	-6648
▁spect	-6649
▁harvest	-6650
▁employed	-6651
kan	-6652
▁era	-6653
▁labor	-6654
▁lying	-6655
▁split	-6656
▁tongue	-6657
▁depends	-6658
▁settlement	-6659
▁personality	-6660
Al	-6661
IM	-6662
▁tea	-6663
▁legs	-6664
▁stayed	-6665
▁availability	-6666
ads	-6667
▁shar	-6668
▁Except	-6669
▁continues	-6670
▁Vol	-6671
father	-6672
▁understood	-6673
osa	-6674
▁Rab	-6675
▁map	-6676
Indeed	-6677
▁Madhya	-6678
▁Member	-6679
▁couple	-6680
▁intended	-6681
▁restrict	-6682
room	-6683
▁Term	-6684
▁ends	-6685
▁Editor	-6686
▁firmly	-6687
▁Disable	-6688
▁revelation	-6689
pes	-6690
▁kn	-6691
▁shop	-6692
▁Table	-6693
▁chain	-6694
▁trading	-6695
▁behaviour	-6696
▁wa	-6697
▁unl	-6698
▁Malay	-6699
▁affair	-6700
▁equality	-6701
▁hyd	-6702
uality	-6703
▁thick	-6704
▁acknow	-6705
▁desired	-6706
▁consumer	-6707
Moses	-6708
▁flood	-6709
edience	-6710
▁appell	-6711
▁hardly	-6712
▁regarded	-6713
▁Assessing	-6714
ushed	-6715
▁News	-6716
▁Perm	-6717
▁shaped	-6718
▁arising	-6719
▁desktop	-6720
▁judicial	-6721
▁solutions	-6722
mic	-6723
▁icon	-6724
▁charity	-6725
▁repeated	-6726
▁celebrated	-6727
▁Lt	-6728
▁Main	-6729
urally	-6730
▁Local	-6731
▁conceal	-6732
▁derived	-6733
▁preview	-6734
▁sisters	-6735
▁communal	-6736
anka	-6737
ishment	-6738
▁slight	-6739
▁evident	-6740
▁component	-6741
IG	-6742
ds	-6743
care	-6744
ruit	-6745
▁gift	-6746
ded	-6747
▁Oft	-6748
▁gall	-6749
▁alarm	-6750
▁layer	-6751
version	-6752
▁clouds	-6753
▁computing	-6754
▁religions	-6755
▁sam	-6756
▁migr	-6757
▁ties	-6758
▁Comput	-6759
▁arrangement	-6760
ayer	-6761
riya	-6762
▁eggs	-6763
▁lamp	-6764
▁audit	-6765
▁seeds	-6766
▁Himself	-6767
▁interested	-6768
▁database	-6769
ona	-6770
ulty	-6771
ector	-6772
inter	-6773
▁pert	-6774
▁Innov	-6775
▁stake	-6776
▁driven	-6777
▁diverse	-6778
▁comprehensive	-6779
▁KDE	-6780
▁Sem	-6781
▁grain	-6782
▁difficulty	-6783
▁acquisition	-6784
Why	-6785
garh	-6786
▁Ele	-6787
▁Upd	-6788
▁Vir	-6789
▁Tell	-6790
▁alive	-6791
▁apparent	-6792
▁hardship	-6793
▁buildings	-6794
▁traditions	-6795
▁intelligence	-6796
rer	-6797
gent	-6798
▁ease	-6799
ounded	-6800
▁index	-6801
▁waters	-6802
ords	-6803
▁Run	-6804
▁fet	-6805
▁rub	-6806
▁Priv	-6807
ensity	-6808
▁guidelines	-6809
-19	-6810
Who	-6811
▁doll	-6812
▁persist	-6813
▁customers	-6814
▁suggested	-6815
▁Foundation	-6816
▁worshipped	-6817
appe	-6818
▁Dra	-6819
▁crores	-6820
▁Buddhist	-6821
▁hun	-6822
▁Army	-6823
▁Laksh	-6824
▁ships	-6825
▁detail	-6826
▁servant	-6827
▁efficiency	-6828
▁sets	-6829
▁Friends	-6830
▁185	-6831
▁span	-6832
▁symp	-6833
▁disgra	-6834
▁overcome	-6835
▁Ja	-6836
▁Liter	-6837
▁naught	-6838
▁improving	-6839
▁Hand	-6840
▁observe	-6841
▁definite	-6842
▁strategy	-6843
▁estimated	-6844
mun	-6845
▁Card	-6846
▁Gold	-6847
▁budget	-6848
▁entrust	-6849
▁collected	-6850
▁preferred	-6851
▁fram	-6852
▁Green	-6853
▁radio	-6854
▁achievement	-6855
PI	-6856
▁onto	-6857
▁Comment	-6858
▁discussed	-6859
▁enjoyment	-6860
ocks	-6861
▁pit	-6862
▁hills	-6863
▁Academ	-6864
▁victim	-6865
▁numerous	-6866
▁fix	-6867
▁hit	-6868
▁exch	-6869
▁Being	-6870
iel	-6871
▁Due	-6872
▁dan	-6873
rahim	-6874
▁2012	-6875
▁Allow	-6876
▁begins	-6877
▁repentance	-6878
On	-6879
arh	-6880
iche	-6881
▁Test	-6882
▁busy	-6883
▁judges	-6884
▁advised	-6885
▁grew	-6886
▁roads	-6887
▁spite	-6888
▁facing	-6889
▁Palestinian	-6890
▁filed	-6891
▁Houses	-6892
▁Window	-6893
esterday	-6894
▁forests	-6895
iri	-6896
....	-6897
▁Lot	-6898
▁Rece	-6899
▁floor	-6900
▁outer	-6901
▁deliber	-6902
▁expansion	-6903
book	-6904
▁incorpor	-6905
▁proclaim	-6906
▁recognized	-6907
▁consumption	-6908
ums	-6909
▁Lat	-6910
▁lect	-6911
▁aband	-6912
▁allot	-6913
what	-6914
▁Jain	-6915
▁Windows	-6916
▁eval	-6917
▁Pandit	-6918
▁integrated	-6919
▁rot	-6920
iliar	-6921
▁Spec	-6922
▁Count	-6923
▁Annual	-6924
▁millions	-6925
▁permitted	-6926
▁considerable	-6927
UM	-6928
lo	-6929
▁36	-6930
▁Ask	-6931
▁Size	-6932
▁linked	-6933
▁telephone	-6934
irs	-6935
oli	-6936
▁flight	-6937
▁masses	-6938
▁imperial	-6939
▁improved	-6940
▁impossible	-6941
▁inspiration	-6942
opal	-6943
▁Bra	-6944
▁Pad	-6945
▁vit	-6946
▁embra	-6947
▁investments	-6948
▁202	-6949
tical	-6950
▁2017	-6951
▁Commer	-6952
▁highlight	-6953
▁Bet	-6954
▁pious	-6955
ny	-6956
▁Tham	-6957
inating	-6958
▁housing	-6959
▁Deb	-6960
ificial	-6961
welling	-6962
▁decree	-6963
▁Germany	-6964
▁felicitations	-6965
nan	-6966
time	-6967
▁phen	-6968
inance	-6969
▁Chait	-6970
▁David	-6971
▁stages	-6972
▁offence	-6973
▁meetings	-6974
▁Afghanistan	-6975
▁'.	-6976
▁Ce	-6977
▁La	-6978
pelled	-6979
▁Dal	-6980
.2014	-6981
entle	-6982
▁agent	-6983
▁amalg	-6984
▁curse	-6985
▁observ	-6986
▁Accounts	-6987
▁Committees	-6988
mits	-6989
▁buff	-6990
▁pick	-6991
▁Global	-6992
▁spoken	-6993
▁vessel	-6994
▁yellow	-6995
▁deposits	-6996
▁identify	-6997
▁Left	-6998
▁Earth	-6999
▁Energy	-7000
▁mailing	-7001
▁talking	-7002
▁worldly	-7003
▁reasonable	-7004
▁regulations	-7005
ota	-7006
atar	-7007
▁raw	-7008
▁aggreg	-7009
▁commence	-7010
▁completion	-7011
▁excellence	-7012
▁45	-7013
▁Get	-7014
▁Jay	-7015
▁shel	-7016
ashing	-7017
▁toler	-7018
▁guardian	-7019
▁Similarly	-7020
ION	-7021
anga	-7022
▁Dig	-7023
▁Road	-7024
▁prohib	-7025
▁Tourism	-7026
▁disobey	-7027
▁emphasis	-7028
▁steadfast	-7029
▁harmony	-7030
▁incurred	-7031
asw	-7032
▁surg	-7033
▁Asian	-7034
▁adorn	-7035
▁armed	-7036
▁street	-7037
▁criminal	-7038
▁Saty	-7039
▁acting	-7040
▁encomp	-7041
▁farmer	-7042
▁Kingdom	-7043
▁empower	-7044
▁willing	-7045
▁discharge	-7046
▁attachment	-7047
As	-7048
DR	-7049
och	-7050
pens	-7051
▁Gupta	-7052
▁breath	-7053
▁helper	-7054
life	-7055
▁via	-7056
▁describ	-7057
▁Whatever	-7058
icent	-7059
▁thor	-7060
▁Email	-7061
▁Credit	-7062
▁respite	-7063
eer	-7064
otes	-7065
▁edge	-7066
▁idols	-7067
▁mirac	-7068
jection	-7069
justice	-7070
▁Master	-7071
▁demands	-7072
▁remembrance	-7073
▁organisations	-7074
Be	-7075
▁Gree	-7076
▁rebell	-7077
▁quantity	-7078
▁continuous	-7079
▁conservation	-7080
izer	-7081
▁Appe	-7082
iciary	-7083
▁noble	-7084
▁ratio	-7085
▁warned	-7086
1}	-7087
AGE	-7088
utt	-7089
▁bh	-7090
▁mixed	-7091
▁Follow	-7092
▁propag	-7093
▁faithless	-7094
▁constructed	-7095
▁Temple	-7096
▁starts	-7097
ographical	-7098
▁signature	-7099
▁Tor	-7100
anath	-7101
▁Phot	-7102
▁stamp	-7103
▁rulers	-7104
▁stored	-7105
▁reprodu	-7106
▁distributed	-7107
▁representative	-7108
OME	-7109
▁Rev	-7110
▁zone	-7111
▁Ambed	-7112
▁Police	-7113
▁liberal	-7114
▁Jawaharlal	-7115
▁mov	-7116
vation	-7117
orous	-7118
▁Ambedkar	-7119
umes	-7120
icipal	-7121
▁sites	-7122
▁irrigation	-7123
EG	-7124
▁du	-7125
▁allows	-7126
▁violent	-7127
▁encompass	-7128
▁remarkable	-7129
▁whomsoever	-7130
▁Equ	-7131
▁Mac	-7132
▁goals	-7133
▁Capital	-7134
▁touched	-7135
▁appearance	-7136
aks	-7137
ected	-7138
ureau	-7139
▁marks	-7140
▁complaint	-7141
▁electronic	-7142
ued	-7143
▁Fed	-7144
▁impr	-7145
▁crime	-7146
▁encry	-7147
▁eastern	-7148
▁pointed	-7149
▁prepare	-7150
▁interface	-7151
▁satisfaction	-7152
▁33	-7153
asty	-7154
itya	-7155
etary	-7156
essions	-7157
▁Cabinet	-7158
yas	-7159
odal	-7160
▁valley	-7161
▁Manager	-7162
▁Knowledge	-7163
ikh	-7164
ranch	-7165
▁Land	-7166
▁baby	-7167
▁meat	-7168
▁vacc	-7169
▁defin	-7170
▁Integr	-7171
▁college	-7172
▁involve	-7173
▁Himachal	-7174
▁productivity	-7175
otal	-7176
▁sed	-7177
▁hast	-7178
▁scen	-7179
▁disabled	-7180
▁ensuring	-7181
▁transmission	-7182
▁Sab	-7183
▁sav	-7184
▁dawn	-7185
▁notified	-7186
▁securities	-7187
aren	-7188
▁van	-7189
▁doom	-7190
▁Online	-7191
▁struck	-7192
▁Bharati	-7193
▁personnel	-7194
▁difficulties	-7195
uddin	-7196
▁clust	-7197
▁paramet	-7198
▁External	-7199
▁superior	-7200
▁Companies	-7201
▁recognize	-7202
▁Jh	-7203
▁rou	-7204
▁tot	-7205
▁Banks	-7206
▁camel	-7207
▁Ibrahim	-7208
”;	-7209
▁Farm	-7210
▁spring	-7211
imony	-7212
▁Democ	-7213
▁tender	-7214
▁Panchay	-7215
▁convert	-7216
▁windows	-7217
▁categories	-7218
▁competition	-7219
▁Agricultural	-7220
▁determination	-7221
▁enact	-7222
▁falls	-7223
▁silver	-7224
▁Subject	-7225
▁fulfill	-7226
▁Amendment	-7227
▁requested	-7228
▁interpretation	-7229
rum	-7230
▁ocean	-7231
▁theatre	-7232
▁Calendar	-7233
▁corporate	-7234
▁directions	-7235
CH	-7236
▁tag	-7237
▁virtue	-7238
▁relatives	-7239
▁elim	-7240
▁jobs	-7241
▁Ahmed	-7242
▁cried	-7243
▁finds	-7244
▁verse	-7245
▁universe	-7246
emic	-7247
▁bat	-7248
ounter	-7249
▁aught	-7250
▁herself	-7251
▁affection	-7252
▁Od	-7253
▁Lad	-7254
▁Tog	-7255
▁1956	-7256
izontal	-7257
▁planned	-7258
▁discussions	-7259
.“	-7260
▁diversity	-7261
▁mechanism	-7262
▁participate	-7263
aron	-7264
▁Cop	-7265
▁bug	-7266
organ	-7267
▁acid	-7268
▁metal	-7269
▁Territ	-7270
▁trained	-7271
▁writings	-7272
▁injustice	-7273
▁voluntary	-7274
how	-7275
▁jail	-7276
▁Level	-7277
▁Vedic	-7278
▁Source	-7279
▁divers	-7280
▁occurs	-7281
▁degrees	-7282
▁founded	-7283
▁strengthening	-7284
enn	-7285
▁Amb	-7286
▁Dom	-7287
▁upto	-7288
▁Guard	-7289
▁haply	-7290
▁executive	-7291
▁convention	-7292
YS	-7293
▁Fac	-7294
▁pair	-7295
▁sympt	-7296
▁Filter	-7297
▁chapter	-7298
▁enterprise	-7299
their	-7300
▁Chenn	-7301
▁usual	-7302
▁realize	-7303
▁accommod	-7304
ima	-7305
ether	-7306
icted	-7307
▁White	-7308
▁Spirit	-7309
▁Software	-7310
▁vegetables	-7311
▁Ang	-7312
▁None	-7313
▁Peace	-7314
▁addresses	-7315
▁righteousness	-7316
?'	-7317
▁HTML	-7318
▁grat	-7319
▁Super	-7320
▁Prasad	-7321
▁palace	-7322
▁courses	-7323
▁infection	-7324
▁intention	-7325
usal	-7326
bered	-7327
▁Cell	-7328
▁abst	-7329
▁breasts	-7330
▁employer	-7331
▁suffered	-7332
▁gradually	-7333
ALL	-7334
anks	-7335
illa	-7336
▁vain	-7337
▁older	-7338
▁socio	-7339
▁Screen	-7340
’.	-7341
AND	-7342
They	-7343
aked	-7344
▁cart	-7345
▁offs	-7346
▁claimed	-7347
▁liability	-7348
DP	-7349
▁UT	-7350
olic	-7351
wers	-7352
iques	-7353
rance	-7354
▁Vers	-7355
▁draft	-7356
▁saving	-7357
▁devoted	-7358
▁ordered	-7359
▁practical	-7360
▁prominent	-7361
OU	-7362
▁coc	-7363
▁corner	-7364
▁differ	-7365
▁equals	-7366
▁Vij	-7367
▁park	-7368
▁owned	-7369
cession	-7370
▁condem	-7371
▁domain	-7372
▁Ramayana	-7373
▁Parliamentary	-7374
▁8.	-7375
▁10.	-7376
▁Four	-7377
▁alle	-7378
▁silk	-7379
urated	-7380
▁invent	-7381
▁removal	-7382
▁Way	-7383
rease	-7384
▁Cond	-7385
▁needy	-7386
▁Madras	-7387
▁achievements	-7388
Pe	-7389
bles	-7390
▁Var	-7391
▁rhy	-7392
atell	-7393
▁Raja	-7394
▁axis	-7395
▁pard	-7396
▁widely	-7397
▁greatly	-7398
▁duration	-7399
▁anniversary	-7400
▁departments	-7401
chron	-7402
house	-7403
▁subt	-7404
▁Apart	-7405
▁panel	-7406
▁Ayurved	-7407
▁elephant	-7408
aze	-7409
▁Guid	-7410
ulatory	-7411
▁Exalted	-7412
▁stopped	-7413
▁increases	-7414
▁effectively	-7415
▁Wid	-7416
▁2011	-7417
▁resc	-7418
▁eternal	-7419
▁Australia	-7420
ker	-7421
obe	-7422
▁URI	-7423
▁accum	-7424
▁liars	-7425
▁quiet	-7426
▁resolve	-7427
▁attended	-7428
▁distress	-7429
▁acceptance	-7430
”,	-7431
part	-7432
▁sev	-7433
ounds	-7434
▁nurs	-7435
▁advoc	-7436
inations	-7437
▁awarded	-7438
▁equival	-7439
▁arrangements	-7440
▁cos	-7441
▁ran	-7442
lines	-7443
▁Mode	-7444
aching	-7445
▁approx	-7446
▁wholly	-7447
▁inhabit	-7448
▁accurate	-7449
▁significance	-7450
▁York	-7451
▁programs	-7452
▁contributed	-7453
da	-7454
unc	-7455
▁70	-7456
▁Eff	-7457
▁Mir	-7458
▁bell	-7459
▁boys	-7460
orders	-7461
istries	-7462
▁plaint	-7463
▁devices	-7464
▁printed	-7465
▁streams	-7466
▁assembly	-7467
▁southern	-7468
▁forwarded	-7469
yn	-7470
▁300	-7471
▁sake	-7472
▁beside	-7473
▁papers	-7474
chief	-7475
▁glass	-7476
▁disappe	-7477
END	-7478
jan	-7479
▁Exp	-7480
▁Lah	-7481
▁lev	-7482
▁yours	-7483
▁humble	-7484
▁pillars	-7485
▁specially	-7486
▁NPS	-7487
▁nom	-7488
▁2004	-7489
▁Task	-7490
▁Const	-7491
▁flesh	-7492
▁forty	-7493
▁claims	-7494
▁recommendations	-7495
bind	-7496
▁viz	-7497
inces	-7498
iously	-7499
▁Mercy	-7500
▁innoc	-7501
▁Details	-7502
▁drawing	-7503
▁faculty	-7504
▁subjected	-7505
)."	-7506
▁-,	-7507
upon	-7508
▁2003	-7509
▁Perhaps	-7510
▁controlled	-7511
IME	-7512
▁eve	-7513
asures	-7514
ronics	-7515
▁delic	-7516
▁sovere	-7517
14	-7518
off	-7519
urse	-7520
▁Mor	-7521
▁myth	-7522
▁Audio	-7523
▁Russia	-7524
▁shrine	-7525
▁weapons	-7526
▁ignorance	-7527
▁investors	-7528
▁partition	-7529
▁receiving	-7530
ua	-7531
▁determine	-7532
▁terrorist	-7533
▁fly	-7534
reement	-7535
▁recovery	-7536
OT	-7537
▁AN	-7538
rounds	-7539
▁License	-7540
bre	-7541
▁Tir	-7542
▁deaf	-7543
▁scene	-7544
▁usage	-7545
▁components	-7546
▁accompanied	-7547
▁Luc	-7548
▁Lanka	-7549
▁illeg	-7550
▁kings	-7551
▁covers	-7552
▁sentence	-7553
▁companions	-7554
▁Universities	-7555
acc	-7556
▁IM	-7557
tched	-7558
▁ungr	-7559
▁permiss	-7560
▁strange	-7561
umph	-7562
▁Far	-7563
▁Kam	-7564
▁Bhut	-7565
▁phenomen	-7566
Ad	-7567
lihood	-7568
▁unseen	-7569
▁ceremony	-7570
▁educated	-7571
▁monitoring	-7572
zy	-7573
peror	-7574
▁bridge	-7575
▁danger	-7576
▁package	-7577
▁Chaitanya	-7578
▁producing	-7579
▁admonition	-7580
▁ww	-7581
aming	-7582
▁MSME	-7583
▁fasc	-7584
▁Binoy	-7585
gorithm	-7586
▁deities	-7587
▁Location	-7588
▁structures	-7589
▁nav	-7590
▁2009	-7591
▁stress	-7592
▁Connect	-7593
▁profile	-7594
▁ego	-7595
▁www	-7596
allel	-7597
▁Ever	-7598
▁Major	-7599
▁cloth	-7600
▁Action	-7601
▁bacter	-7602
▁Wik	-7603
attered	-7604
▁familiar	-7605
▁strategic	-7606
wing	-7607
▁lege	-7608
▁urge	-7609
▁cotton	-7610
▁aggress	-7611
medi	-7612
▁187	-7613
▁clar	-7614
▁prefer	-7615
▁indirect	-7616
isted	-7617
pping	-7618
▁player	-7619
▁browser	-7620
▁enforce	-7621
down	-7622
long	-7623
▁acce	-7624
▁bears	-7625
▁Download	-7626
▁Certainly	-7627
▁Executive	-7628
▁substantial	-7629
oram	-7630
▁mak	-7631
▁Orig	-7632
▁infinite	-7633
▁reckoning	-7634
het	-7635
azing	-7636
▁proxy	-7637
▁seeks	-7638
ailable	-7639
▁creates	-7640
▁classical	-7641
▁encouraged	-7642
icket	-7643
▁exem	-7644
▁myst	-7645
▁salt	-7646
▁Hence	-7647
▁fluid	-7648
▁worst	-7649
▁wrath	-7650
▁permit	-7651
▁retrie	-7652
▁realise	-7653
▁dwelling	-7654
▁testimony	-7655
gage	-7656
▁Burn	-7657
▁Rights	-7658
▁diplom	-7659
▁eminent	-7660
▁musical	-7661
▁prophet	-7662
HER	-7663
itra	-7664
leum	-7665
▁Short	-7666
▁adopt	-7667
▁chair	-7668
▁ended	-7669
▁League	-7670
▁Sector	-7671
▁imagine	-7672
▁publish	-7673
▁internet	-7674
▁valuable	-7675
▁discipline	-7676
There	-7677
arest	-7678
▁tear	-7679
▁Install	-7680
▁lessons	-7681
▁prevail	-7682
▁ignorant	-7683
▁innovative	-7684
lin	-7685
▁34	-7686
▁cup	-7687
.2016	-7688
▁bull	-7689
▁node	-7690
ashion	-7691
▁sharing	-7692
▁tremend	-7693
▁subsequent	-7694
▁Bo	-7695
iable	-7696
▁Shiv	-7697
▁pron	-7698
akrish	-7699
▁oaths	-7700
ository	-7701
▁testing	-7702
▁arranged	-7703
▁distinction	-7704
▁Sin	-7705
▁vide	-7706
▁northern	-7707
▁Center	-7708
▁Person	-7709
▁Medical	-7710
▁normally	-7711
▁resulting	-7712
ECH	-7713
ham	-7714
liest	-7715
▁Koran	-7716
▁lesson	-7717
▁biggest	-7718
▁despite	-7719
▁constitu	-7720
▁director	-7721
▁authorised	-7722
ITY	-7723
lex	-7724
ding	-7725
ounce	-7726
▁Somet	-7727
▁Forward	-7728
▁mothers	-7729
▁respondent	-7730
pat	-7731
thi	-7732
alore	-7733
▁vary	-7734
expected	-7735
▁quarter	-7736
▁Selection	-7737
▁alternative	-7738
▁Da	-7739
When	-7740
TIONAL	-7741
▁Value	-7742
▁faced	-7743
▁client	-7744
▁slaves	-7745
operation	-7746
▁representatives	-7747
▁(6	-7748
▁Cle	-7749
idences	-7750
▁debate	-7751
▁emerging	-7752
▁narr	-7753
worthy	-7754
▁dreams	-7755
▁constantly	-7756
▁collaboration	-7757
bl	-7758
ria	-7759
artments	-7760
▁combination	-7761
EF	-7762
▁Fe	-7763
▁NAB	-7764
▁bath	-7765
▁bomb	-7766
▁Nagar	-7767
Laughter	-7768
▁falling	-7769
▁killing	-7770
▁knoweth	-7771
▁carefully	-7772
.2015	-7773
▁Said	-7774
▁listed	-7775
▁exactly	-7776
▁entrusted	-7777
▁submission	-7778
▁Legislature	-7779
▁legislation	-7780
▁presentation	-7781
za	-7782
amber	-7783
▁Prot	-7784
▁patri	-7785
▁finding	-7786
▁Officers	-7787
▁qualities	-7788
80	-7789
eper	-7790
▁Ary	-7791
▁Tal	-7792
▁Vidy	-7793
▁compuls	-7794
▁Ek	-7795
▁mun	-7796
being	-7797
▁ring	-7798
▁midst	-7799
pection	-7800
▁minute	-7801
▁historic	-7802
▁painting	-7803
▁competent	-7804
▁cultivation	-7805
▁wed	-7806
angle	-7807
▁airc	-7808
▁beat	-7809
▁tube	-7810
▁unaw	-7811
▁cards	-7812
▁loves	-7813
▁humili	-7814
▁reader	-7815
▁Manipur	-7816
▁missing	-7817
▁pictures	-7818
▁ungrateful	-7819
▁IIT	-7820
▁Ltd	-7821
▁Rah	-7822
acing	-7823
▁diam	-7824
▁snow	-7825
▁Again	-7826
▁flour	-7827
▁closely	-7828
▁terminal	-7829
':%	-7830
rers	-7831
▁Sen	-7832
▁Hide	-7833
encing	-7834
roleum	-7835
▁gradu	-7836
▁solve	-7837
▁forced	-7838
▁injury	-7839
▁imprison	-7840
Re	-7841
husi	-7842
▁Taj	-7843
▁cycle	-7844
▁sales	-7845
▁decade	-7846
▁discrim	-7847
▁mandapa	-7848
▁arrogant	-7849
▁disgrace	-7850
▁reaching	-7851
▁weakness	-7852
▁transformation	-7853
ela	-7854
itud	-7855
omon	-7856
▁Sund	-7857
▁merg	-7858
ipping	-7859
▁advis	-7860
▁France	-7861
▁poetic	-7862
▁preparation	-7863
▁congratulate	-7864
Os	-7865
UG	-7866
▁Kir	-7867
▁anx	-7868
▁hence	-7869
lasting	-7870
▁Plugin	-7871
▁engage	-7872
▁goddess	-7873
oso	-7874
utory	-7875
▁worse	-7876
▁sports	-7877
▁helping	-7878
▁sinners	-7879
▁Japanese	-7880
▁Maharaja	-7881
▁commands	-7882
▁sensitive	-7883
▁represented	-7884
▁grief	-7885
▁motor	-7886
▁eating	-7887
entation	-7888
▁reserve	-7889
▁triumph	-7890
ador	-7891
▁pig	-7892
▁Does	-7893
▁females	-7894
▁raising	-7895
▁vehicle	-7896
▁arguments	-7897
▁authentication	-7898
fl	-7899
▁150	-7900
▁dealt	-7901
▁Courts	-7902
▁traffic	-7903
▁opposite	-7904
▁technique	-7905
▁	-7906
e	-7907
t	-7908
a	-7909
o	-7910
i	-7911
n	-7912
r	-7913
s	-7914
h	-7915
l	-7916
d	-7917
c	-7918
u	-7919
m	-7920
f	-7921
p	-7922
g	-7923
y	-7924
w	-7925
b	-7926
v	-7927
.	-7928
,	-7929
k	-7930
A	-7931
T	-7932
I	-7933
S	-7934
C	-7935
-	-7936
M	-7937
P	-7938
H	-7939
x	-7940
B	-7941
R	-7942
D	-7943
1	-7944
E	-7945
W	-7946
)	-7947
(	-7948
N	-7949
'	-7950
G	-7951
0	-7952
O	-7953
j	-7954
L	-7955
:	-7956
F	-7957
2	-7958
q	-7959
;	-7960
"	-7961
U	-7962
K	-7963
z	-7964
9	-7965
V	-7966
?	-7967
5	-7968
3	-7969
%	-7970
/	-7971
Y	-7972
J	-7973
4	-7974
8	-7975
6	-7976
7	-7977
!	-7978
”	-7979
“	-7980
_	-7981
’	-7982
[	-7983
]	-7984
&	-7985
Q	-7986
>	-7987
<	-7988
‘	-7989
—	-7990
–	-7991
{	-7992
}	-7993
Z	-7994
X	-7995
*	-7996
