<pad>	0
</s>	0
<unk>	0
▁the	-3.40825
.	-3.42385
,	-3.45254
s	-3.82902
▁and	-3.86788
▁to	-3.88106
▁of	-3.89319
▁	-4.04815
▁in	-4.3246
▁a	-4.34713
ing	-4.41225
-	-4.68294
ed	-4.68861
▁for	-4.87926
▁you	-4.88585
▁with	-4.99243
▁your	-5.02834
▁covid	-5.08405
▁is	-5.10807
▁or	-5.11728
▁The	-5.18238
-19	-5.21504
▁that	-5.26445
▁on	-5.28626
▁are	-5.29623
▁be	-5.30436
▁have	-5.35232
e	-5.3741
▁cases	-5.39224
▁as	-5.42547
y	-5.43087
d	-5.43463
▁from	-5.44741
ly	-5.47565
▁(	-5.54083
▁were	-5.57126
▁not	-5.58485
f	-5.69202
▁will	-5.82507
▁by	-5.84528
▁people	-5.86354
t	-5.8728
▁A	-5.87764
▁at	-5.91927
▁can	-5.96065
▁virus	-5.97471
)	-5.98673
▁I	-5.9908
n	-6.00666
▁if	-6.01782
al	-6.03249
'	-6.03554
▁was	-6.03842
▁has	-6.05263
▁it	-6.05284
▁who	-6.05564
a	-6.08975
cov	-6.09649
▁health	-6.10234
▁been	-6.10773
▁deaths	-6.1219
▁reported	-6.13832
r	-6.14657
▁may	-6.14804
▁an	-6.18727
ir	-6.20816
▁s	-6.21178
:	-6.22623
▁symptoms	-6.25325
p	-6.29218
▁You	-6.29633
▁other	-6.29942
m	-6.33007
▁sars	-6.33773
in	-6.35555
▁contact	-6.39005
▁test	-6.40593
▁more	-6.4156
▁should	-6.46042
▁this	-6.47112
c	-6.4837
▁march	-6.49697
▁number	-6.52416
▁do	-6.52862
▁disease	-6.53974
▁coronavirus	-6.5469
▁also	-6.56158
er	-6.56593
▁vaccine	-6.60515
notified	-6.63014
▁On	-6.6406
▁It	-6.64082
▁than	-6.65679
▁countries	-6.66979
▁about	-6.66979
had	-6.67571
▁further	-6.67862
▁2020	-6.68025
▁In	-6.68088
▁2	-6.68257
▁This	-6.71479
▁outbreak	-6.73499
▁"	-6.73671
▁all	-6.73703
▁they	-6.75553
▁de	-6.75607
▁total	-6.75713
▁which	-6.75713
▁when	-6.75784
▁face	-6.76024
o	-6.76062
▁one	-6.78365
▁no	-6.7868
uch	-6.80088
▁4	-6.81621
▁pandemic	-6.8216
▁spread	-6.82966
▁5	-6.83521
st	-6.84164
▁home	-6.84702
▁after	-6.84898
▁risk	-6.84994
▁patients	-6.86071
▁time	-6.86425
▁public	-6.88098
-2	-6.88166
i	-6.88421
▁get	-6.89577
▁use	-6.89849
▁w	-6.9043
▁first	-6.90676
▁confirmed	-6.90791
▁1	-6.92072
u	-6.92255
▁infection	-6.93714
▁data	-6.95235
l	-6.95641
▁new	-6.96012
▁over	-6.96445
▁china	-6.96449
1	-6.97705
▁need	-6.98173
▁app	-6.98309
es	-6.98583
ic	-6.98857
▁hands	-6.99117
▁C	-6.99383
on	-6.99631
▁some	-7.00009
▁bring	-7.00771
▁S	-7.01533
▁including	-7.02002
g	-7.02221
▁re	-7.03501
b	-7.0378
▁but	-7.05029
ce	-7.05542
se	-7.0574
▁m	-7.06255
▁them	-7.07523
▁case	-7.07581
due	-7.08312
▁3	-7.08443
▁february	-7.08964
▁child	-7.09628
▁stay	-7.10522
▁under	-7.10884
▁travel	-7.10979
▁high	-7.11082
▁days	-7.11487
"	-7.11547
▁care	-7.12164
▁others	-7.12433
▁government	-7.14397
▁help	-7.14464
▁unit	-7.14503
0	-7.14716
▁these	-7.14978
▁two	-7.15176
te	-7.16408
▁B	-7.17247
;	-7.18061
▁/	-7.18061
▁us	-7.18515
▁any	-7.18668
▁close	-7.19399
▁those	-7.19537
▁person	-7.2018
▁january	-7.20317
ion	-7.20593
▁respirator	-7.21035
▁positive	-7.21042
▁previously	-7.24148
▁gp	-7.24177
▁most	-7.2437
▁school	-7.24395
ation	-7.24807
▁available	-7.249
▁day	-7.2616
▁work	-7.27497
h	-7.27521
▁medical	-7.28883
▁protect	-7.28952
▁infected	-7.29097
ry	-7.30181
▁tested	-7.31154
ould	-7.31282
▁P	-7.3149
▁up	-7.32113
▁cover	-7.32146
▁transmission	-7.33905
▁between	-7.34766
2	-7.34786
▁dur	-7.34885
ers	-7.34924
▁there	-7.34953
▁c	-7.35121
out	-7.35565
▁possible	-7.35677
▁un	-7.36188
▁advice	-7.36577
or	-7.37055
▁-	-7.37817
▁–	-7.38291
▁april	-7.38315
▁million	-7.40101
▁children	-7.40115
▁wear	-7.4015
▁10	-7.4072
▁illness	-7.4092
9	-7.42202
▁Do	-7.42848
▁its	-7.42988
▁states	-7.43098
▁t	-7.43312
▁9	-7.43328
▁could	-7.43897
▁restrictions	-7.45008
le	-7.45373
▁hospital	-7.45463
▁go	-7.45765
▁severe	-7.45911
▁country	-7.46717
▁out	-7.47221
▁only	-7.47524
▁response	-7.47688
▁social	-7.47748
▁world	-7.48673
▁ireland	-7.48678
▁14	-7.48789
an	-7.49096
▁6	-7.49382
▁announced	-7.49692
-19.	-7.49722
▁u	-7.49943
▁b	-7.50553
▁into	-7.50577
ar	-7.51258
▁through	-7.51712
ve	-7.51743
▁20	-7.52053
▁T	-7.52368
ive	-7.52453
▁result	-7.52643
▁we	-7.52845
w	-7.5321
re	-7.53435
▁while	-7.53831
▁well	-7.53841
▁human	-7.53929
▁measures	-7.54053
many	-7.54692
ur	-7.55567
▁death	-7.55883
ight	-7.56762
il	-7.5711
▁how	-7.58066
).	-7.58329
8	-7.5848
▁take	-7.58924
▁system	-7.59189
▁away	-7.59316
▁before	-7.60283
▁treatment	-7.6031
▁7	-7.60884
▁so	-7.61126
▁food	-7.61592
▁testing	-7.62079
▁host	-7.62768
▁19	-7.63118
▁information	-7.63693
▁someone	-7.63699
▁make	-7.63823
▁mask	-7.63833
▁vaccines	-7.63951
▁same	-7.64868
▁call	-7.65265
able	-7.6561
ity	-7.65696
▁As	-7.65879
▁being	-7.66017
▁where	-7.66177
4	-7.66345
),	-7.66693
ies	-7.67092
▁national	-7.67209
▁community	-7.67211
th	-7.67217
it	-7.67698
▁cause	-7.68501
▁8	-7.68698
▁against	-7.69672
▁used	-7.69754
en	-7.70445
▁p	-7.70651
▁emergency	-7.70935
ol	-7.71409
▁include	-7.71986
▁wuhan	-7.72196
▁relat	-7.72663
5	-7.72724
ent	-7.72731
▁There	-7.72808
▁i	-7.73079
▁schools	-7.73095
▁show	-7.73141
▁large	-7.74665
▁fever	-7.74682
▁early	-7.74706
7	-7.75051
▁hcov	-7.75172
▁services	-7.75333
▁When	-7.7597
▁non	-7.76008
▁students	-7.76331
▁f	-7.76726
am	-7.76964
ment	-7.77523
ng	-7.78318
the	-7.78514
▁We	-7.78521
us	-7.78858
▁nose	-7.78902
at	-7.78997
▁conditions	-7.79105
k	-7.79297
▁M	-7.79576
is	-7.80028
▁italy	-7.80087
▁phone	-7.80366
▁age	-7.81331
▁june	-7.81337
▁found	-7.81372
▁humans	-7.81428
▁share	-7.82546
▁what	-7.82723
▁issued	-7.82765
▁support	-7.83052
▁mers	-7.83085
▁24	-7.83906
▁restrict	-7.84039
▁areas	-7.84087
▁least	-7.84132
v	-7.84737
▁service	-7.84862
ting	-7.84947
▁per	-7.84959
▁important	-7.8556
▁known	-7.8579
▁visit	-7.86174
▁give	-7.86578
li	-7.86631
▁infections	-7.86672
▁hand	-7.86756
▁long	-7.86868
▁surveillance	-7.87018
▁keep	-7.87022
▁south	-7.87061
▁clinical	-7.8713
▁12	-7.87169
▁hse	-7.87614
ute	-7.87794
▁place	-7.88072
▁self	-7.88481
▁chest	-7.88481
▁movements	-7.88795
▁15	-7.89539
▁11	-7.8974
▁attend	-7.89973
▁population	-7.90013
▁healthcare	-7.9003
ri	-7.9009
▁chinese	-7.90205
▁control	-7.90368
▁2019	-7.90623
based	-7.90633
um	-7.90636
▁down	-7.91277
?	-7.91488
▁pain	-7.91661
▁around	-7.91721
▁open	-7.9173
ia	-7.91945
x	-7.92164
ther	-7.9231
to	-7.92594
▁appointment	-7.93026
▁avoid	-7.93026
▁until	-7.93027
▁much	-7.93303
▁workers	-7.93792
▁years	-7.94324
▁affected	-7.95128
▁able	-7.95349
▁level	-7.95775
▁education	-7.95928
▁remain	-7.96176
ter	-7.9669
▁closures	-7.96799
▁centre	-7.97238
▁n	-7.97277
▁’	-7.97789
▁every	-7.97805
▁bats	-7.97875
▁common	-7.97891
tion	-7.9804
▁viruses	-7.9856
▁following	-7.98822
▁masks	-7.99216
ous	-7.9931
▁immun	-7.99379
ll	-7.9968
▁cough	-7.99856
▁closed	-8.00421
▁doctor	-8.0054
3	-8.00719
▁di	-8.0076
▁For	-8.01038
▁However	-8.01105
lo	-8.01728
▁23	-8.01935
very	-8.02337
▁receive	-8.02344
▁prevent	-8.02656
▁effective	-8.02789
ness	-8.03616
el	-8.03748
▁D	-8.0385
▁O	-8.03956
not	-8.04095
▁al	-8.04108
▁even	-8.04215
▁dublin	-8.04514
▁study	-8.04514
▁international	-8.04517
▁mouth	-8.04537
▁usual	-8.04631
viral	-8.04704
all	-8.04817
▁hours	-8.04882
6	-8.04957
ine	-8.05133
▁state	-8.05348
im	-8.05814
▁Rea	-8.06219
▁december	-8.06269
▁13	-8.06314
less	-8.06392
▁our	-8.07047
▁F	-8.07917
▁because	-8.0806
▁results	-8.08222
▁among	-8.08269
▁tracking	-8.08424
▁see	-8.08594
▁recommended	-8.08712
▁quarantine	-8.09339
▁live	-8.0949
tic	-8.09839
▁flu	-8.09867
▁current	-8.09872
▁major	-8.09872
▁alert	-8.09874
▁contain	-8.09879
▁last	-8.09925
▁ac	-8.10026
▁weeks	-8.10184
▁clean	-8.10471
▁often	-8.10824
▁week	-8.11122
▁epidemic	-8.11724
▁example	-8.11724
▁both	-8.11743
▁meter	-8.11751
ian	-8.1209
▁like	-8.12119
ate	-8.12286
00	-8.1238
▁E	-8.12802
id	-8.12865
▁st	-8.13487
▁blood	-8.13611
▁body	-8.13766
▁another	-8.13811
▁g	-8.14468
▁follow	-8.14975
▁safe	-8.15073
▁r	-8.15085
▁group	-8.15291
▁Some	-8.15328
▁must	-8.15565
▁negative	-8.15587
rt	-8.16147
,000	-8.16273
ial	-8.16468
ra	-8.16742
▁protein	-8.17372
▁three	-8.17495
▁different	-8.17498
▁made	-8.1751
▁especially	-8.17584
▁18	-8.17648
▁cold	-8.17656
▁higher	-8.17904
▁16	-8.18157
▁reduce	-8.19043
est	-8.19275
▁family	-8.19495
▁local	-8.19495
om	-8.19607
▁events	-8.20166
▁30	-8.20944
▁bat	-8.21522
▁department	-8.21536
▁Covid	-8.21539
ide	-8.22885
▁similar	-8.23619
▁four	-8.23644
▁european	-8.2365
ro	-8.2373
vel	-8.23841
▁caus	-8.23845
ad	-8.23961
0%	-8.24191
▁does	-8.24193
▁come	-8.2435
▁co	-8.24382
▁feel	-8.24476
age	-8.25177
▁22	-8.25703
▁short	-8.25721
▁yourself	-8.25747
▁But	-8.25747
▁since	-8.25748
▁water	-8.25748
▁safety	-8.25766
▁rna	-8.2578
▁touch	-8.26103
▁H	-8.26209
▁part	-8.26233
▁increase	-8.27474
▁infectious	-8.27921
▁research	-8.27921
▁phase	-8.27921
▁staff	-8.27923
▁To	-8.28165
as	-8.28356
▁low	-8.28375
ally	-8.28512
▁2020.	-8.28885
▁car	-8.29522
▁provide	-8.29563
▁return	-8.30143
▁having	-8.30143
▁worldwide	-8.30153
▁normal	-8.30156
▁each	-8.3016
▁less	-8.30174
▁center	-8.30243
▁fines	-8.30582
▁tests	-8.31015
na	-8.31159
▁he	-8.31797
▁global	-8.31983
▁pneumonia	-8.32415
▁team	-8.32418
▁report	-8.3264
▁rate	-8.32781
et	-8.3284
▁required	-8.32972
▁covs	-8.3305
▁detected	-8.33056
▁26	-8.33222
▁end	-8.33728
▁diseases	-8.33792
▁order	-8.33904
▁hcovs	-8.33994
ch	-8.34155
▁outside	-8.34743
▁near	-8.34764
▁enter	-8.34777
▁identified	-8.34805
▁right	-8.34815
▁G	-8.34837
▁tracker	-8.34879
▁city	-8.34932
▁specific	-8.35015
ul	-8.35137
▁likely	-8.35279
ose	-8.35328
▁individuals	-8.35612
ance	-8.35858
▁washing	-8.35953
▁Mo	-8.36178
▁ca	-8.36772
▁transport	-8.37047
▁laboratory	-8.37123
▁house	-8.37133
▁said	-8.37137
▁however	-8.37156
▁lower	-8.37277
▁county	-8.37279
▁list	-8.3729
▁ra	-8.3745
▁wash	-8.37459
cross	-8.37757
▁received	-8.37769
▁breath	-8.38328
▁k	-8.38376
ge	-8.38598
▁trials	-8.38608
▁healthy	-8.38976
▁late	-8.39438
▁equipment	-8.39561
▁2021	-8.39561
▁Stay	-8.39562
▁still	-8.39588
▁mild	-8.39637
▁suspect	-8.39672
▁second	-8.39763
▁genome	-8.39829
▁drug	-8.3984
z	-8.39952
▁sign	-8.40055
▁ill	-8.40187
▁way	-8.40296
▁developed	-8.40332
▁personal	-8.40365
▁con	-8.40448
▁17	-8.40841
▁28	-8.41187
▁samples	-8.41211
▁po	-8.41391
▁signs	-8.41756
▁know	-8.41815
▁period	-8.42061
▁suggest	-8.42061
▁economi	-8.42061
▁wait	-8.42062
▁back	-8.42081
▁date	-8.42119
▁sick	-8.42153
▁online	-8.42257
▁increased	-8.42578
▁li	-8.42941
▁sure	-8.42947
-19,	-8.42948
▁recommend	-8.43689
▁allow	-8.43916
▁v	-8.44273
▁sever	-8.44281
ory	-8.44615
▁How	-8.44619
▁syndrome	-8.44625
▁baby	-8.44625
▁influenza	-8.44627
▁Wash	-8.44627
▁daily	-8.44628
▁eu	-8.44646
▁associated	-8.44696
▁don	-8.44704
▁main	-8.44802
▁vaccinated	-8.44829
▁year	-8.45681
la	-8.458
▁limit	-8.46325
▁ho	-8.46482
▁21	-8.46565
▁25	-8.46602
▁inter	-8.46743
▁direct	-8.47159
▁ma	-8.4724
▁vaccination	-8.47257
▁uk	-8.4737
ip	-8.47376
▁properly	-8.47376
▁five	-8.47382
▁times	-8.47403
▁development	-8.47471
▁learning	-8.4748
▁later	-8.47522
▁far	-8.47578
▁dis	-8.47819
ig	-8.48225
▁lockdown	-8.48246
▁d	-8.4897
eep	-8.48991
▁impact	-8.48998
▁start	-8.49016
▁l	-8.49413
▁continue	-8.49644
un	-8.49889
▁cyberattack	-8.49959
▁distancing	-8.49959
▁evidence	-8.49959
▁Open	-8.4996
▁own	-8.4996
▁organization	-8.50461
▁official	-8.50499
▁stated	-8.5068
iv	-8.50756
▁pre	-8.50787
▁places	-8.51285
covid	-8.51302
ish	-8.51601
▁form	-8.51925
han	-8.52292
▁korea	-8.52481
ontact	-8.52674
ci	-8.52719
▁sneezing	-8.52737
▁women	-8.52737
▁access	-8.52737
▁few	-8.52738
▁mobil	-8.52738
▁separation	-8.52748
▁corona	-8.52757
▁prevention	-8.52862
▁astrazeneca	-8.52944
we	-8.53161
▁origin	-8.53276
cal	-8.53283
▁animal	-8.53384
▁put	-8.5375
▁needs	-8.54484
▁effects	-8.54737
ical	-8.54908
▁called	-8.55339
▁Re	-8.55399
eople	-8.55544
▁potential	-8.55599
▁intermedia	-8.55603
▁variant	-8.55611
▁name	-8.55701
▁extend	-8.5572
▁type	-8.55742
▁An	-8.55798
▁present	-8.55875
▁cho	-8.55945
▁groups	-8.55958
▁And	-8.56058
ill	-8.5613
▁Al	-8.56148
▁done	-8.56252
▁ha	-8.56289
mental	-8.56369
▁months	-8.56537
though	-8.5673
▁Man	-8.56911
▁'	-8.56978
up	-8.56983
ence	-8.57496
▁doses	-8.57538
j	-8.57587
▁affect	-8.57602
▁immediate	-8.58108
▁small	-8.58535
▁already	-8.58536
▁antibodies	-8.58536
▁particular	-8.58536
▁distance	-8.58536
▁history	-8.5855
▁his	-8.58569
▁then	-8.58596
▁add	-8.58679
▁now	-8.58856
land	-8.58998
▁develop	-8.5911
▁ex	-8.59152
if	-8.59236
▁become	-8.59332
▁anti	-8.60083
co	-8.60214
ma	-8.6029
▁50	-8.60498
gu	-8.60713
5%	-8.60945
ok	-8.60976
▁exposure	-8.61566
▁natural	-8.61566
▁temperature	-8.61566
▁significant	-8.6157
▁pass	-8.61597
▁authorities	-8.61629
▁primary	-8.61652
▁free	-8.61743
▁estimated	-8.61757
de	-8.61852
ac	-8.62057
▁effect	-8.6243
▁media	-8.62469
▁ask	-8.62529
▁levels	-8.62713
essential	-8.62914
and	-8.63254
▁essential	-8.63318
ccording	-8.63364
ie	-8.63672
▁Co	-8.6379
▁whe	-8.64386
ach	-8.64432
▁process	-8.64691
▁initial	-8.64698
▁arrange	-8.64797
▁general	-8.648
▁find	-8.64833
▁pregnant	-8.64834
▁protection	-8.64985
▁critical	-8.64987
▁details	-8.65014
▁side	-8.65067
▁cov	-8.65267
▁sent	-8.65384
▁area	-8.65575
▁centres	-8.65805
▁plan	-8.65943
▁great	-8.66128
qu	-8.66213
▁advis	-8.66397
▁practices	-8.66444
▁meet	-8.66668
oc	-8.66867
ef	-8.66899
▁collect	-8.67088
▁com	-8.67239
▁addition	-8.67371
tra	-8.67692
▁rates	-8.67787
ating	-8.67812
▁serious	-8.67917
▁shopping	-8.67917
▁hygiene	-8.6794
▁alone	-8.67941
▁minister	-8.68188
▁immediately	-8.68388
▁e	-8.68416
▁31	-8.68434
▁Don	-8.68966
▁means	-8.69044
▁sample	-8.69048
▁aged	-8.69075
▁spreading	-8.69197
▁tr	-8.69254
▁according	-8.6937
1,	-8.69477
coronavirus	-8.695
▁breathing	-8.69581
term	-8.69683
▁dose	-8.69934
▁detect	-8.70313
old	-8.70451
▁too	-8.70614
▁h	-8.70706
▁29	-8.7075
tensive	-8.71231
▁Follow	-8.7125
▁household	-8.7125
▁special	-8.7125
▁27	-8.7125
▁onset	-8.71274
48	-8.71446
▁best	-8.71474
▁cancelled	-8.71526
▁secondary	-8.71541
end	-8.71664
▁me	-8.72068
▁coronaviruses	-8.72168
▁provided	-8.72243
▁cell	-8.72573
risk	-8.72992
▁200	-8.72999
ne	-8.73
ological	-8.73153
che	-8.73305
for	-8.73412
▁east	-8.73673
▁animals	-8.73899
▁worse	-8.74208
▁Th	-8.7437
▁declar	-8.74416
▁systems	-8.74603
▁adapt	-8.74623
▁pregnancy	-8.74698
▁crowd	-8.74698
▁hotel	-8.74698
▁executive	-8.747
▁rsc	-8.74705
▁president	-8.74712
▁good	-8.74718
▁post	-8.74895
▁adults	-8.74896
▁leave	-8.75124
229	-8.75235
▁factors	-8.75674
▁eyes	-8.75687
ty	-8.75767
▁limited	-8.75952
▁india	-8.76001
▁trial	-8.761
".	-8.76891
pm	-8.77207
ability	-8.77675
."	-8.777
▁causes	-8.77706
▁hosts	-8.77914
▁again	-8.78154
▁sub	-8.78241
▁crisis	-8.7827
▁necessary	-8.7827
▁attack	-8.7827
▁monday	-8.78275
▁drink	-8.78279
▁gardaí	-8.78285
▁room	-8.7829
▁require	-8.78317
▁tell	-8.78329
▁Other	-8.78348
▁director	-8.78355
▁published	-8.78425
rcgp	-8.78442
▁officer	-8.78479
ttle	-8.78537
▁longer	-8.78624
▁send	-8.78665
▁screening	-8.78794
▁No	-8.7882
▁depend	-8.78929
nt	-8.7919
ever	-8.79871
▁surfaces	-8.79953
isolation	-8.80177
▁term	-8.80225
relat	-8.80256
▁chi	-8.80465
ca	-8.80632
▁numbers	-8.80819
ized	-8.81214
ions	-8.81618
▁stop	-8.81803
inister	-8.81884
▁europe	-8.81918
▁iran	-8.81956
▁mortality	-8.81973
▁breach	-8.81973
▁hubei	-8.81974
▁zoono	-8.81974
▁delay	-8.81974
▁left	-8.81978
▁analysis	-8.81982
▁north	-8.81985
▁Wear	-8.82129
▁set	-8.82209
ts	-8.82259
▁third	-8.82348
▁proteins	-8.82378
▁check	-8.82416
63	-8.82894
.30	-8.82939
▁asked	-8.83146
ize	-8.83325
ab	-8.83345
ld	-8.83522
▁concern	-8.8358
▁par	-8.83599
▁controls	-8.83657
▁nurs	-8.83891
▁sh	-8.84141
▁cells	-8.84413
▁coughing	-8.84822
▁persons	-8.85479
▁office	-8.85601
ocial	-8.85649
43	-8.85751
▁activity	-8.8582
▁citizens	-8.8582
▁reservoir	-8.8582
▁pressure	-8.8582
▁paper	-8.8582
▁soap	-8.85821
▁seven	-8.85821
▁began	-8.85821
▁life	-8.85822
▁figures	-8.85834
▁mich	-8.85835
▁lead	-8.85835
▁What	-8.85838
▁drive	-8.8584
▁beta	-8.85842
▁everyone	-8.85846
▁taking	-8.85853
▁That	-8.85869
▁severity	-8.85893
▁asymptomatic	-8.85905
ated	-8.85992
▁dry	-8.86092
▁tract	-8.861
tory	-8.8625
▁cdc	-8.86359
▁guidelines	-8.86394
4%	-8.86581
▁try	-8.86644
▁pro	-8.86891
▁started	-8.87187
13	-8.87477
▁source	-8.87532
▁experience	-8.87537
▁cluster	-8.87542
▁patient	-8.87637
▁practice	-8.87645
like	-8.88016
our	-8.88125
▁died	-8.88225
▁treat	-8.88809
▁record	-8.88867
fter	-8.89433
▁america	-8.89566
▁Use	-8.89662
ted	-8.89719
▁enough	-8.8982
▁receptor	-8.8982
▁studies	-8.8982
▁technology	-8.8982
▁billion	-8.8982
▁Health	-8.8982
▁feet	-8.8982
▁certificate	-8.8982
▁increasing	-8.89822
▁physical	-8.89827
▁multiple	-8.89829
▁university	-8.8983
▁mandatory	-8.89839
▁just	-8.89869
▁cities	-8.89873
▁older	-8.89898
▁approximate	-8.89957
ern	-8.89991
▁six	-8.89993
ten	-8.9022
▁considered	-8.90359
▁o	-8.90372
covs	-8.90504
▁phe	-8.90571
▁hospitals	-8.90867
▁De	-8.90897
▁change	-8.91294
be	-8.91924
▁sequence	-8.9216
20	-8.92743
▁air	-8.93123
▁clinic	-8.93659
▁africa	-8.93735
▁vari	-8.93795
ib	-8.93843
▁diagnosis	-8.93986
▁throat	-8.93986
▁middle	-8.93986
▁protest	-8.93986
▁heart	-8.93987
▁toilet	-8.93988
▁future	-8.9399
▁single	-8.93999
ell	-8.94155
▁offer	-8.94194
▁rapidly	-8.94307
▁range	-8.94314
▁isolated	-8.94918
▁taken	-8.94951
▁la	-8.94974
▁species	-8.95416
▁market	-8.96093
▁region	-8.96104
via	-8.96235
sars	-8.9678
▁monitor	-8.97072
▁her	-8.97381
▁eat	-8.98045
▁cloth	-8.98241
hildren	-8.98268
▁brazil	-8.98301
▁address	-8.98334
▁certain	-8.98334
▁situation	-8.98334
▁fatality	-8.98334
▁france	-8.98334
▁course	-8.98334
▁maintain	-8.98334
▁walk	-8.98335
▁camels	-8.98336
▁virology	-8.98337
▁Sars	-8.98343
▁unknown	-8.98345
▁ensure	-8.98349
▁Coronavirus	-8.9838
▁assessment	-8.98389
▁childcare	-8.98397
▁imp	-8.98408
▁mass	-8.9842
ru	-8.98431
▁fall	-8.98484
0,000	-8.98521
35	-8.98617
▁soon	-8.98715
me	-8.98741
▁reopening	-8.99371
ase	-8.99434
▁line	-8.99613
▁disinfect	-8.99853
▁allowed	-8.99972
▁contacts	-9.00382
ice	-9.00383
▁exercise	-9.00619
▁changes	-9.00721
▁working	-9.00763
▁ple	-9.01082
ake	-9.01115
high	-9.01123
▁news	-9.01414
io	-9.01664
hse	-9.01671
▁she	-9.01685
▁arr	-9.02211
▁liv	-9.0228
▁drugs	-9.02356
▁slow	-9.02609
▁season	-9.02622
▁serve	-9.02722
▁mid	-9.02751
▁assess	-9.02825
▁Un	-9.02879
▁describ	-9.02879
pfizer	-9.0288
▁efficacy	-9.0288
▁elderly	-9.0288
▁foreign	-9.0288
▁minutes	-9.0288
▁supply	-9.0288
▁think	-9.0288
▁tissue	-9.0288
▁droplets	-9.0288
▁text	-9.0288
▁function	-9.0288
▁swab	-9.0288
▁demand	-9.0288
▁60	-9.02897
▁genetic	-9.02899
▁Get	-9.02929
▁antiviral	-9.0293
▁chain	-9.02951
▁want	-9.02986
▁containment	-9.02995
▁highest	-9.03077
▁relative	-9.03086
▁difficulty	-9.03246
▁removed	-9.03382
▁pathogenic	-9.03401
▁ser	-9.03658
▁wide	-9.03768
ful	-9.03776
▁ye	-9.03806
com	-9.03867
▁reduced	-9.03942
bi	-9.04267
po	-9.04332
▁included	-9.04558
▁union	-9.04663
▁ten	-9.04762
▁residents	-9.04835
ested	-9.04985
▁j	-9.04997
ud	-9.05005
br	-9.05057
50	-9.05279
▁lung	-9.0538
▁outdoor	-9.05389
▁happen	-9.05392
▁surface	-9.05429
▁symptom	-9.05457
man	-9.05498
efore	-9.05742
ver	-9.05847
▁going	-9.05951
▁St	-9.0629
18	-9.065
▁sa	-9.06914
▁Ch	-9.07317
▁appear	-9.07618
▁college	-9.07641
▁diarrhea	-9.07641
▁nationwide	-9.07641
▁saturday	-9.07641
▁supplies	-9.07641
▁express	-9.07642
▁japan	-9.07642
▁reason	-9.07642
▁Clean	-9.07642
▁clear	-9.07642
▁things	-9.07643
▁commission	-9.07645
▁else	-9.07646
▁begin	-9.07648
sk	-9.07661
▁read	-9.07747
▁reach	-9.07783
▁occurred	-9.07938
ck	-9.08254
sense	-9.08468
▁parents	-9.0847
▁medicines	-9.08581
▁efforts	-9.08806
▁ordered	-9.09633
use	-9.09858
37	-9.1006
ary	-9.1032
▁greate	-9.10369
▁workplace	-9.10405
table	-9.10557
▁He	-9.10738
▁code	-9.10789
going	-9.10977
▁my	-9.11144
▁recover	-9.11181
cu	-9.1121
▁includes	-9.11349
▁infect	-9.11621
mit	-9.11647
▁ro	-9.11675
▁Mak	-9.11789
▁leav	-9.12023
ference	-9.12108
ital	-9.12243
of	-9.12593
▁prior	-9.12639
▁amount	-9.12641
▁diabetes	-9.12641
▁families	-9.12641
▁friday	-9.12641
▁message	-9.12641
▁november	-9.12641
▁sneeze	-9.12641
▁stephen	-9.12641
▁vulnerable	-9.12641
▁crown	-9.12642
▁regard	-9.12642
▁passenger	-9.12642
▁straight	-9.12642
▁birth	-9.12642
▁half	-9.12643
▁smoke	-9.12644
▁better	-9.12646
▁entry	-9.12647
▁trump	-9.12648
central	-9.12667
▁findings	-9.12685
▁nas	-9.12841
▁approved	-9.12875
▁governments	-9.13124
▁pa	-9.13154
▁restaurants	-9.13165
▁generally	-9.13342
▁members	-9.13747
▁notice	-9.13813
▁eas	-9.14177
go	-9.14314
ha	-9.14449
▁occur	-9.14558
vi	-9.14994
▁regions	-9.15278
95	-9.15382
▁man	-9.15523
▁Spe	-9.15555
▁mak	-9.1559
▁aid	-9.1609
species	-9.16117
most	-9.16256
led	-9.16283
▁resident	-9.16402
▁produce	-9.16477
▁en	-9.16598
▁talk	-9.16612
▁worker	-9.16652
▁reopen	-9.16702
▁br	-9.17109
one	-9.17258
con	-9.17378
▁full	-9.17457
▁recent	-9.17473
▁remove	-9.1755
ring	-9.17641
▁centers	-9.17859
▁retail	-9.17904
▁feature	-9.17905
▁foot	-9.17905
▁kingdom	-9.17905
▁schedule	-9.17905
▁closing	-9.17905
▁entire	-9.17905
▁evacuat	-9.17905
▁chance	-9.17906
▁eea	-9.17907
▁universities	-9.17907
▁vector	-9.17909
▁training	-9.1791
▁review	-9.17917
▁mutation	-9.17962
▁law	-9.17975
▁anyone	-9.17987
nl	-9.18001
▁activities	-9.18016
▁em	-9.18031
▁Sever	-9.18042
ition	-9.18092
▁weight	-9.18186
▁released	-9.1831
▁homes	-9.18742
▁Ma	-9.18743
▁isolate	-9.18787
▁recovered	-9.18922
fen	-9.18963
▁refer	-9.19224
ning	-9.19412
▁ital	-9.19561
▁estimates	-9.19574
act	-9.1958
▁quarantined	-9.1965
elly	-9.19834
▁isolation	-9.20538
▁hu	-9.20588
▁emerg	-9.20715
ily	-9.20947
▁Du	-9.20974
▁handl	-9.21029
ph	-9.21298
▁cleaning	-9.2162
sure	-9.21647
▁plans	-9.21682
who	-9.21708
stay	-9.21715
came	-9.21753
public	-9.21762
▁100	-9.21765
▁closure	-9.21828
tro	-9.22095
47	-9.22096
▁aim	-9.22123
36	-9.22195
artin	-9.2225
▁cons	-9.22422
sis	-9.22473
▁difficult	-9.22964
▁update	-9.22999
▁rapid	-9.23031
57	-9.23105
ility	-9.23288
▁inform	-9.23405
▁Ne	-9.23448
▁breast	-9.23458
▁chron	-9.2346
acetam	-9.2346
diagnosed	-9.2346
▁With	-9.2346
▁biontech	-9.2346
▁facilities	-9.2346
▁failure	-9.2346
▁institute	-9.2346
▁receiving	-9.2346
▁teachers	-9.2346
▁themselves	-9.2346
▁ventilation	-9.2346
▁germany	-9.2346
▁internet	-9.2346
▁above	-9.23462
▁dispos	-9.23462
▁contract	-9.23465
▁regulations	-9.2347
▁cent	-9.23479
nique	-9.23502
▁johnson	-9.23519
▁quickly	-9.23522
▁disinfectant	-9.23559
▁australia	-9.23619
▁fight	-9.2372
▁exist	-9.23724
▁african	-9.23798
▁cost	-9.23816
▁dig	-9.23852
▁recently	-9.23919
▁real	-9.23952
▁easy	-9.2396
▁los	-9.23963
▁leg	-9.24122
▁involved	-9.24152
▁40	-9.24178
▁shar	-9.24253
ix	-9.24357
▁indicated	-9.24371
▁donn	-9.24389
▁additional	-9.24438
▁toward	-9.24523
▁4,8	-9.24534
2%	-9.24607
▁move	-9.24648
▁recorded	-9.2481
▁gatherings	-9.24828
di	-9.2546
day	-9.25476
ling	-9.25513
ood	-9.25632
▁At	-9.25698
15	-9.25983
▁Not	-9.26467
▁came	-9.26556
put	-9.26734
▁design	-9.26795
▁indoor	-9.27093
▁individual	-9.27141
▁condition	-9.27152
▁outbreaks	-9.27188
tric	-9.2737
care	-9.27479
phone	-9.27589
-19)	-9.27706
▁becomes	-9.27748
▁track	-9.27771
nch	-9.27968
▁link	-9.28376
▁act	-9.2849
▁release	-9.28931
ree	-9.29089
▁Late	-9.29101
▁expert	-9.29342
▁Avoid	-9.29342
▁employer	-9.29342
▁gloves	-9.29342
▁improve	-9.29342
▁moderna	-9.29342
▁subject	-9.29342
▁widespread	-9.29342
▁alcohol	-9.29343
▁damage	-9.29343
▁understand	-9.29343
knowledge	-9.29343
▁reaction	-9.29343
▁fund	-9.29343
▁decide	-9.29343
▁together	-9.29344
▁difference	-9.29346
▁extra	-9.29352
▁privacy	-9.29352
▁cancer	-9.29354
▁transmitted	-9.29357
▁lack	-9.29379
▁worried	-9.29412
▁appropriate	-9.29449
▁More	-9.29485
▁spain	-9.29494
▁either	-9.2962
▁Tak	-9.2963
10	-9.29634
45	-9.29802
mo	-9.29851
▁established	-9.29896
▁suspended	-9.29896
▁active	-9.30122
▁ne	-9.30268
vas	-9.3032
med	-9.30428
▁spo	-9.30442
▁globally	-9.30493
▁flights	-9.31075
▁eating	-9.31127
▁tru	-9.3126
▁medications	-9.31354
▁pangolins	-9.31354
99	-9.31666
ised	-9.31747
▁visits	-9.32565
inflammat	-9.32896
▁concerns	-9.32905
▁mean	-9.33531
▁stage	-9.33544
▁officials	-9.34334
▁reports	-9.35371
ities	-9.3555
▁priva	-9.35583
▁Li	-9.35592
▁Restrict	-9.35592
▁envelope	-9.35592
▁focus	-9.35592
▁material	-9.35592
▁mitigation	-9.35592
▁september	-9.35592
▁thousand	-9.35592
▁approach	-9.35593
▁From	-9.35593
▁basis	-9.35593
▁shut	-9.35593
▁play	-9.35593
acquir	-9.35594
▁thus	-9.35597
▁instead	-9.35597
▁federal	-9.35602
▁look	-9.35607
▁temporary	-9.35613
▁combination	-9.35628
▁disruption	-9.35655
low	-9.35662
▁Thus	-9.35676
▁building	-9.35717
▁acid	-9.35718
▁introduced	-9.35725
spite	-9.35745
ick	-9.35889
ative	-9.35904
▁Be	-9.35999
ex	-9.36029
ct	-9.36031
6%	-9.36087
▁Fin	-9.36108
▁prevalen	-9.3613
lia	-9.36139
▁fully	-9.36143
▁ship	-9.36156
▁peak	-9.36164
▁observed	-9.3624
▁ob	-9.36391
▁visitors	-9.36442
▁cel	-9.36566
▁spend	-9.36621
▁pcr	-9.36837
▁Any	-9.36929
line	-9.36981
▁young	-9.37074
nty	-9.37148
▁gov	-9.37269
tant	-9.3743
▁collected	-9.37503
sh	-9.37584
ny	-9.37638
cy	-9.37846
▁Eat	-9.38011
▁developing	-9.38318
▁codes	-9.38481
▁advise	-9.38652
▁nurse	-9.38854
ven	-9.39007
▁arriv	-9.3913
▁though	-9.39303
▁mo	-9.39417
▁needed	-9.39424
time	-9.39697
▁reporting	-9.39706
▁covers	-9.39771
ied	-9.39833
▁location	-9.39997
▁medication	-9.40018
▁pangolin	-9.40018
▁month	-9.401
19	-9.40194
cle	-9.4021
hku	-9.40417
▁count	-9.4052
nan	-9.40747
organ	-9.41054
▁event	-9.41191
tial	-9.41494
▁fa	-9.41509
▁mon	-9.41646
▁prepar	-9.4166
▁Go	-9.41732
▁plane	-9.41766
▁previous	-9.41837
gra	-9.41908
▁treatments	-9.42094
cumulati	-9.42236
▁guide	-9.42251
▁Protect	-9.42259
▁capacity	-9.42259
▁claimed	-9.42259
▁cultur	-9.42259
▁environment	-9.42259
▁institutions	-9.42259
▁investigation	-9.42259
▁network	-9.42259
▁policy	-9.42259
▁imposed	-9.42259
▁spike	-9.4226
▁smell	-9.4226
▁turn	-9.4226
▁upper	-9.42261
▁border	-9.42262
▁muscle	-9.42262
▁procedures	-9.4227
▁dehydration	-9.42271
▁hard	-9.42307
▁trace	-9.42315
▁businesses	-9.42351
▁park	-9.42369
xim	-9.42407
▁rise	-9.42408
▁collection	-9.42423
▁homology	-9.42431
▁therapy	-9.42431
▁immunity	-9.42471
outh	-9.42509
▁Us	-9.42526
▁delivery	-9.42582
▁rt	-9.42602
▁travellers	-9.42656
▁july	-9.42657
▁declare	-9.42665
▁implemented	-9.42826
erous	-9.42894
▁methods	-9.43307
▁educational	-9.43337
▁directly	-9.43394
▁apart	-9.43474
▁learner	-9.43696
▁rest	-9.43739
74	-9.43742
94	-9.43766
▁Dat	-9.43871
▁kill	-9.43924
60	-9.44168
▁monitoring	-9.4425
▁consider	-9.44582
▁stages	-9.44723
▁indoors	-9.44882
ism	-9.45146
66	-9.45439
▁happens	-9.45527
ors	-9.4558
.5	-9.45663
▁followed	-9.45719
ris	-9.45793
▁markets	-9.45851
▁Sh	-9.46108
27	-9.4638
role	-9.46465
▁Par	-9.46493
▁estimate	-9.46711
▁70	-9.46746
isolate	-9.47135
▁programme	-9.47153
ack	-9.47247
▁vi	-9.47251
lan	-9.47384
▁sea	-9.47563
▁le	-9.47805
nger	-9.47927
nn	-9.48096
44	-9.48383
▁perform	-9.4841
3%	-9.48559
88	-9.48617
ov	-9.48739
▁minist	-9.48968
media	-9.49125
q	-9.49304
▁Vir	-9.49324
ways	-9.49351
▁fast	-9.49381
▁transmit	-9.49385
▁model	-9.49391
▁accept	-9.49402
▁respond	-9.49402
▁School	-9.49402
▁decision	-9.49402
▁discovered	-9.49402
▁holiday	-9.49402
▁pharmacist	-9.49402
▁random	-9.49402
▁target	-9.49402
▁york	-9.49402
▁application	-9.49402
▁typical	-9.49402
▁alpha	-9.49402
▁basic	-9.49402
▁reliable	-9.49402
▁Talk	-9.49403
▁Where	-9.49403
▁mrna	-9.49403
▁request	-9.49403
▁buy	-9.49405
▁successful	-9.49408
▁nations	-9.4941
▁coding	-9.49422
▁letter	-9.49431
▁subsequent	-9.49448
▁nucleo	-9.49459
▁version	-9.49475
69	-9.49476
▁prescription	-9.4948
▁head	-9.49487
▁connection	-9.49514
▁Who	-9.49539
▁100,000	-9.49546
▁effectiveness	-9.49547
▁gradually	-9.49548
▁Face	-9.49563
▁seek	-9.49574
▁ids	-9.49605
oph	-9.49607
▁fl	-9.4962
▁carri	-9.49627
▁questions	-9.4966
▁regularly	-9.4971
ey	-9.49784
▁statement	-9.49791
▁Bas	-9.49791
▁shops	-9.49835
▁american	-9.49863
14	-9.49866
▁scale	-9.50158
▁degrees	-9.50167
▁ways	-9.50451
2)	-9.50476
aking	-9.50654
▁outcomes	-9.5085
▁shown	-9.50882
▁continued	-9.51042
▁weekly	-9.51151
▁steps	-9.51193
▁complete	-9.51384
▁programmes	-9.51709
▁ju	-9.51721
▁pu	-9.51799
▁covering	-9.53101
▁old	-9.53236
1%	-9.53254
part	-9.53442
79	-9.53514
▁Pu	-9.53714
▁gene	-9.53753
▁et	-9.53826
84	-9.54014
ments	-9.54087
au	-9.54155
ash	-9.54445
▁ja	-9.54662
▁province	-9.54791
▁eye	-9.54897
▁student	-9.54904
▁flight	-9.54913
▁requir	-9.55062
year	-9.55335
including	-9.55339
67	-9.55804
▁warn	-9.5594
ite	-9.56123
ology	-9.56279
▁factor	-9.56282
▁discuss	-9.56396
ards	-9.56872
▁business	-9.56988
▁pathogen	-9.57013
ardaí	-9.57064
▁california	-9.57089
tructural	-9.57094
▁Symptoms	-9.57094
▁agencies	-9.57094
▁authority	-9.57094
▁complications	-9.57094
▁cruise	-9.57094
▁domestic	-9.57094
▁resources	-9.57094
▁scientific	-9.57094
▁wednesday	-9.57094
▁explain	-9.57094
▁okay	-9.57094
▁routine	-9.57094
cubation	-9.57094
▁contrast	-9.57094
▁next	-9.57095
exposed	-9.57095
▁administration	-9.57095
▁interaction	-9.57095
▁preparedness	-9.57095
▁sitting	-9.57095
▁throw	-9.57095
▁strong	-9.57097
▁along	-9.57098
▁hazard	-9.57098
▁hundred	-9.57098
▁recombination	-9.57099
strand	-9.57101
▁anything	-9.57101
▁facility	-9.57101
▁saying	-9.57104
▁towel	-9.57105
▁signals	-9.57112
▁racis	-9.57124
▁choice	-9.57133
▁classes	-9.57133
▁road	-9.57137
rofen	-9.57144
▁cancellation	-9.57145
▁enable	-9.57173
▁strategies	-9.57177
▁hospitalized	-9.57223
▁light	-9.57266
▁surgi	-9.57267
▁multi	-9.57319
▁arrival	-9.57394
har	-9.57508
▁bind	-9.5752
▁Vaccines	-9.57556
▁wall	-9.57594
▁indicat	-9.57619
pre	-9.57762
▁planned	-9.57765
▁referr	-9.57828
7%	-9.57954
▁created	-9.58069
▁sites	-9.5811
▁here	-9.5814
▁seat	-9.58246
▁issues	-9.58298
town	-9.58325
atal	-9.58408
rish	-9.58475
▁fluids	-9.58479
▁force	-9.58479
-2.	-9.58548
▁col	-9.58618
▁rais	-9.58771
row	-9.59119
▁doctors	-9.59776
▁locations	-9.59783
ept	-9.60005
mption	-9.60014
ft	-9.60254
▁bo	-9.60323
▁inflamma	-9.60542
▁emergenc	-9.60624
▁lungs	-9.60916
▁outdoors	-9.60916
▁exercises	-9.61105
▁deal	-9.61399
▁closely	-9.61908
▁feeling	-9.61965
▁port	-9.62014
62	-9.62763
▁rat	-9.62783
▁apply	-9.63073
▁strain	-9.6316
%)	-9.63166
▁cross	-9.63224
▁measure	-9.6324
▁men	-9.63252
▁store	-9.63319
▁origins	-9.63418
place	-9.63597
▁fin	-9.6364
lockdown	-9.63651
▁critic	-9.63664
human	-9.63666
round	-9.64085
9%	-9.64381
▁confirm	-9.64423
▁screen	-9.64427
▁inciden	-9.64496
▁except	-9.64843
▁determine	-9.64953
▁russia	-9.65162
ale	-9.65258
▁progress	-9.65286
▁Lo	-9.65359
▁prim	-9.65364
▁coordinat	-9.65428
▁video	-9.65428
▁Everyone	-9.65428
▁Nu	-9.65428
▁Patients	-9.65428
▁accurate	-9.65428
▁advance	-9.65428
▁ahead	-9.65428
▁committee	-9.65428
▁communities	-9.65428
▁demonstrate	-9.65428
▁electron	-9.65428
▁frame	-9.65428
▁funeral	-9.65428
▁oxygen	-9.65428
▁prompt	-9.65428
▁smoking	-9.65428
▁specimen	-9.65428
▁ventilator	-9.65428
▁Travel	-9.65428
▁launch	-9.65428
▁obtain	-9.65428
▁window	-9.65428
▁kong	-9.65428
▁worry	-9.65428
▁items	-9.65428
▁Short	-9.65429
▁agency	-9.65429
▁identify	-9.65429
▁fear	-9.6543
▁settings	-9.6543
▁Since	-9.6543
▁pubs	-9.6543
▁why	-9.65433
▁antibody	-9.65435
worth	-9.65437
▁bann	-9.65437
▁partner	-9.65437
▁serology	-9.65442
▁Cough	-9.65443
▁identi	-9.65446
▁book	-9.65492
▁rule	-9.65496
▁iranian	-9.655
▁contaminat	-9.65505
▁provides	-9.65509
▁variet	-9.65511
▁symptomatic	-9.65534
▁holo	-9.65541
▁inside	-9.65554
▁hit	-9.65555
▁cook	-9.65562
▁icu	-9.65582
75	-9.65594
▁frequently	-9.65606
ius	-9.65658
▁night	-9.65748
▁conducted	-9.65894
▁antigen	-9.65967
▁stock	-9.65992
▁aware	-9.66086
▁statistics	-9.66131
91	-9.66134
▁duration	-9.66171
▁criticis	-9.66204
chang	-9.66205
▁recovery	-9.66211
▁compared	-9.66316
▁tend	-9.66466
25	-9.66524
▁jobs	-9.66533
▁products	-9.66548
▁bin	-9.66553
▁performed	-9.66575
68	-9.66587
38	-9.66588
▁linked	-9.66831
▁generate	-9.66836
lt	-9.67086
tor	-9.67108
▁sundays	-9.6714
▁pan	-9.67222
77	-9.67255
▁4,7	-9.67337
▁1,0	-9.67474
pul	-9.67591
▁strains	-9.6775
▁asian	-9.67756
urb	-9.68405
▁barr	-9.68534
▁user	-9.6855
▁impacted	-9.68559
53	-9.68655
▁meeting	-9.68887
▁probabl	-9.69055
54	-9.69093
way	-9.69103
ka	-9.69115
eal	-9.69185
▁separate	-9.69469
by	-9.69868
eat	-9.70084
ilita	-9.70181
isc	-9.70375
▁construct	-9.70422
▁4,6	-9.7058
▁compar	-9.70713
73	-9.70767
latin	-9.7077
cate	-9.70781
08	-9.70956
▁conv	-9.71413
87	-9.71819
▁Wh	-9.72072
▁step	-9.72273
▁gathering	-9.72281
▁effort	-9.7229
▁shortage	-9.72354
pcr	-9.72723
▁restriction	-9.72843
▁lockdowns	-9.72979
▁expect	-9.73086
load	-9.73282
▁provider	-9.73327
▁minim	-9.73522
▁calls	-9.73545
▁observ	-9.73571
▁38	-9.73829
▁decrease	-9.74048
▁proper	-9.74093
07	-9.74119
▁orders	-9.74171
23	-9.74383
spect	-9.74417
43,	-9.7444
▁percent	-9.74492
utdoor	-9.74502
▁Visit	-9.74508
▁Work	-9.74518
▁Exercise	-9.74519
▁annual	-9.74519
▁attempt	-9.74519
▁bluetooth	-9.74519
▁bronchitis	-9.74519
▁contagious	-9.74519
▁cytokine	-9.74519
▁distress	-9.74519
▁ibuprofen	-9.74519
▁imaging	-9.74519
▁industry	-9.74519
▁membrane	-9.74519
▁nutrients	-9.74519
▁polymerase	-9.74519
▁possibilit	-9.74519
▁postponed	-9.74519
▁preliminary	-9.74519
▁prison	-9.74519
▁secure	-9.74519
▁strengthen	-9.74519
cular	-9.74519
▁companies	-9.74519
▁pollen	-9.74519
▁relief	-9.74519
▁scheme	-9.74519
▁twice	-9.74519
▁missing	-9.74519
▁answer	-9.74519
▁bank	-9.74519
▁cork	-9.74519
▁sporting	-9.74519
▁break	-9.74519
▁sleep	-9.74519
▁facilitat	-9.74519
▁trends	-9.7452
▁promis	-9.7452
▁therapeutic	-9.7452
▁bag	-9.7452
▁admission	-9.74521
▁suit	-9.74521
▁exceed	-9.74521
▁image	-9.74521
▁kind	-9.74522
▁pharmacy	-9.74523
▁instructions	-9.74525
▁index	-9.74529
▁scan	-9.74529
▁drop	-9.7453
▁ratio	-9.74533
▁assistance	-9.74534
▁diverge	-9.7454
▁ground	-9.74553
▁Stand	-9.74555
▁management	-9.74558
▁key	-9.74559
▁fre	-9.74561
▁disability	-9.74578
▁upload	-9.74589
▁Ex	-9.7459
ior	-9.74603
▁mother	-9.74629
▁sometimes	-9.74722
▁create	-9.7473
▁parties	-9.74736
▁resu	-9.74744
▁recognize	-9.74794
▁past	-9.74802
▁Test	-9.74803
▁vary	-9.74804
▁carry	-9.74826
▁excluded	-9.74845
▁original	-9.7493
▁thought	-9.74955
▁power	-9.74965
▁let	-9.75015
▁interest	-9.75061
▁mammals	-9.75072
▁completely	-9.75074
ants	-9.75113
isation	-9.75187
chloro	-9.75342
▁Car	-9.7541
▁point	-9.75496
▁manager	-9.7556
phe	-9.75611
▁deliver	-9.75655
▁39	-9.75721
▁candidates	-9.75735
2,6	-9.7587
▁problems	-9.75957
▁runn	-9.76009
78	-9.76087
ssiona	-9.7614
▁meals	-9.76179
▁involve	-9.76239
▁kits	-9.76404
▁Whi	-9.76721
ural	-9.76783
▁quarantines	-9.76811
▁treated	-9.76822
▁shortages	-9.76851
election	-9.769
▁lives	-9.76908
▁produc	-9.76954
92	-9.7699
generat	-9.77033
ros	-9.77587
34	-9.77628
▁wet	-9.77729
8%)	-9.77999
▁users	-9.78012
▁today	-9.78098
▁compa	-9.78115
▁table	-9.78564
17	-9.78665
4)	-9.78677
▁precaution	-9.78776
▁serie	-9.78805
▁workplaces	-9.78889
▁So	-9.79316
▁da	-9.79408
▁fat	-9.79781
ael	-9.79963
▁clusters	-9.80039
ppe	-9.80072
▁ct	-9.80569
ina	-9.80938
tan	-9.8158
3)	-9.82158
▁standard	-9.82216
ark	-9.82266
▁movement	-9.82406
▁mov	-9.8256
▁hour	-9.82584
▁organizations	-9.82617
count	-9.82664
general	-9.82741
face	-9.8279
▁provid	-9.82794
▁gi	-9.83247
▁member	-9.83348
food	-9.83379
▁establish	-9.83556
▁suspend	-9.83566
▁cancel	-9.83647
▁mc	-9.83786
300	-9.83821
▁fact	-9.83862
▁possibl	-9.84054
12	-9.84057
▁careful	-9.84263
▁exten	-9.84291
▁encourage	-9.8441
ugh	-9.84433
aoiseach	-9.84452
100	-9.84458
figure	-9.84481
▁danger	-9.8449
▁urg	-9.84492
rink	-9.84498
▁threat	-9.84513
▁regular	-9.84516
▁psych	-9.84517
▁attribut	-9.84518
▁Additional	-9.84519
▁Antibiotics	-9.84519
▁Privacy	-9.84519
▁aerosol	-9.84519
▁attractions	-9.84519
▁colleagues	-9.84519
▁compound	-9.84519
▁economy	-9.84519
▁enforce	-9.84519
▁epidemiological	-9.84519
▁front	-9.84519
▁implications	-9.84519
▁netherlands	-9.84519
▁permitted	-9.84519
▁religious	-9.84519
▁replication	-9.84519
▁sampling	-9.84519
▁comparison	-9.84519
▁participati	-9.84519
▁surpass	-9.84519
▁england	-9.84519
▁overweight	-9.84519
▁police	-9.84519
▁stress	-9.84519
▁unesco	-9.84519
▁amino	-9.84519
▁arabia	-9.84519
▁decline	-9.84519
▁financi	-9.84519
▁inhibit	-9.84519
▁catch	-9.84519
▁charge	-9.84519
▁task	-9.84519
▁balance	-9.84519
▁price	-9.84519
▁alarm	-9.84519
▁tracing	-9.84519
length	-9.8452
▁glasses	-9.8452
▁worst	-9.8452
▁Comm	-9.84521
▁rbd	-9.84521
wise	-9.84522
▁tcm	-9.84522
▁complex	-9.84523
▁wild	-9.84523
▁headache	-9.84524
▁recommendations	-9.84525
▁secretary	-9.84525
▁instance	-9.84526
▁project	-9.84527
▁something	-9.84529
▁xenophobia	-9.84532
▁hospitalization	-9.84535
▁tele	-9.84535
▁predict	-9.84539
▁agree	-9.84544
▁airline	-9.84545
▁intend	-9.84547
▁reduction	-9.84549
▁performance	-9.84554
average	-9.84556
▁growth	-9.84557
drome	-9.84558
▁Even	-9.84569
▁distribution	-9.8458
▁Over	-9.84591
▁urgent	-9.846
▁production	-9.84608
▁Hav	-9.84626
▁lot	-9.84627
▁circumstances	-9.84655
▁route	-9.84657
▁Pro	-9.84668
52	-9.8468
▁believed	-9.84691
▁chair	-9.8471
spira	-9.84764
▁administered	-9.84778
▁Give	-9.84784
▁doors	-9.84794
▁num	-9.848
▁cure	-9.84812
▁approval	-9.84817
▁moderate	-9.84817
▁solidarity	-9.84817
▁trade	-9.84833
▁transportation	-9.84845
▁fit	-9.84906
▁overall	-9.85127
ffic	-9.85245
▁presen	-9.85277
▁Pre	-9.85329
▁below	-9.85371
▁updated	-9.85375
▁interventions	-9.85378
▁handle	-9.8541
▁korean	-9.85483
dary	-9.85537
▁changed	-9.85721
▁bus	-9.85822
testin	-9.85925
▁sectors	-9.86117
▁liver	-9.86252
▁follows	-9.86258
ati	-9.86338
▁Pla	-9.86356
▁west	-9.86379
▁4,9	-9.86437
▁easi	-9.86502
vac	-9.86596
▁protocols	-9.86613
▁am	-9.86676
▁sad	-9.86778
▁party	-9.86814
audi	-9.86867
▁manage	-9.86913
▁providers	-9.87183
▁hku	-9.87396
fig	-9.87807
▁oc	-9.87849
ton	-9.88075
▁counts	-9.88076
96	-9.88167
▁indicate	-9.88223
65	-9.88541
dow	-9.89125
mong	-9.89264
▁loss	-9.8952
31	-9.89709
86	-9.8995
open	-9.90001
▁sources	-9.90669
▁base	-9.90916
▁youth	-9.91624
hi	-9.91944
33	-9.92185
▁bar	-9.92312
▁pen	-9.92362
uring	-9.92479
▁swi	-9.92856
den	-9.92885
▁protocol	-9.9334
▁sunday	-9.9336
▁outcome	-9.93375
▁medicine	-9.93402
▁cap	-9.93476
▁kit	-9.93574
▁once	-9.93744
ook	-9.93775
school	-9.93848
quarantine	-9.93861
direct	-9.93875
chinese	-9.93949
more	-9.94006
gov	-9.94205
▁implement	-9.94595
▁practi	-9.94603
▁seconds	-9.94622
ze	-9.9468
▁cam	-9.94761
▁4,5	-9.95
▁anonymous	-9.95178
▁cha	-9.95254
▁challeng	-9.95518
linical	-9.95564
▁evolution	-9.95617
í	-9.95625
▁cancell	-9.95629
correct	-9.9563
▁stretch	-9.9563
ccupational	-9.9563
▁Continue	-9.9563
▁Current	-9.9563
▁Practice	-9.9563
▁Up	-9.9563
▁alpaca	-9.9563
▁association	-9.9563
▁broad	-9.9563
▁council	-9.9563
▁energy	-9.9563
▁festival	-9.9563
▁joint	-9.9563
▁notification	-9.9563
▁object	-9.9563
▁particles	-9.9563
▁patrick	-9.9563
▁pattern	-9.9563
▁policies	-9.9563
▁professional	-9.9563
▁purchase	-9.9563
▁quality	-9.9563
▁society	-9.9563
▁strategy	-9.9563
▁territories	-9.9563
▁ticket	-9.9563
▁traditional	-9.9563
▁vomiting	-9.9563
▁Check	-9.9563
▁behind	-9.9563
▁communication	-9.9563
▁evaluat	-9.9563
▁respectively	-9.9563
▁status	-9.9563
▁website	-9.9563
bridge	-9.9563
▁Human	-9.9563
▁taste	-9.9563
▁canadian	-9.9563
▁delta	-9.9563
▁street	-9.9563
▁extension	-9.95632
▁court	-9.95632
▁worn	-9.95633
▁breastfeeding	-9.95634
▁extreme	-9.95634
▁super	-9.95634
stream	-9.95636
▁urine	-9.95637
▁Iran	-9.9564
▁unemployment	-9.95642
▁adver	-9.95646
▁venues	-9.95646
▁nutrition	-9.95647
▁refus	-9.95651
▁therefore	-9.95651
▁operations	-9.95655
▁percentage	-9.95663
▁game	-9.95665
▁consistent	-9.95666
▁brand	-9.95672
▁bans	-9.95679
▁2012	-9.95695
▁sen	-9.95697
▁organs	-9.95698
▁taoiseach	-9.95704
ike	-9.95728
ators	-9.95732
▁confirmation	-9.95732
▁difficulties	-9.95732
▁wipe	-9.95749
▁encourag	-9.95756
aryng	-9.95784
▁appeal	-9.95788
ency	-9.95795
▁agent	-9.95796
▁sports	-9.95811
ctual	-9.95858
▁adaptation	-9.95881
▁faster	-9.95892
▁comment	-9.95935
reading	-9.9594
▁(6	-9.95958
▁coverage	-9.96002
▁gas	-9.96021
▁employees	-9.96049
▁platforms	-9.96049
▁sex	-9.96103
▁political	-9.96184
▁whole	-9.96205
▁Plan	-9.96207
▁sore	-9.96249
ward	-9.96283
▁dead	-9.96296
▁infants	-9.96327
▁mission	-9.96405
▁independent	-9.96557
mers	-9.96614
ometimes	-9.96656
▁vir	-9.96676
▁appli	-9.96739
▁slowly	-9.96763
▁civets	-9.96873
56	-9.97085
▁options	-9.9715
▁fine	-9.97333
uba	-9.97377
uppression	-9.97461
▁warning	-9.97569
▁gar	-9.97635
▁actions	-9.97742
iste	-9.97776
▁ppe	-9.97784
▁standards	-9.98273
▁talking	-9.985
▁aside	-9.9851
16	-9.98552
05	-9.98697
▁stores	-9.98827
▁Sel	-9.99036
▁provinces	-9.99113
pack	-9.99514
29	-9.99517
bon	-9.99559
▁Per	-10
wine	-10.0013
▁2,3	-10.0015
▁dr	-10.003
▁occurs	-10.0088
eath	-10.0091
▁arrive	-10.0095
▁fac	-10.0107
▁33	-10.0112
▁80	-10.0123
▁Lea	-10.0128
▁die	-10.0217
▁weake	-10.0248
▁experienc	-10.0251
▁bio	-10.0275
probably	-10.0284
2,000	-10.0284
30	-10.029
58	-10.0311
▁85	-10.0364
▁involv	-10.0421
atic	-10.0421
80	-10.0433
▁abs	-10.0452
ump	-10.0494
ker	-10.0508
cdc	-10.0524
70	-10.0549
▁spa	-10.0591
▁select	-10.0591
▁hub	-10.0603
▁parent	-10.0606
evi	-10.0607
▁fluid	-10.0608
▁suppress	-10.0609
▁run	-10.0627
resident	-10.0628
▁action	-10.0629
▁65	-10.0638
▁creat	-10.0641
▁quarantin	-10.0661
wide	-10.0663
▁genom	-10.0671
▁meal	-10.0703
ame	-10.071
isolated	-10.0719
case	-10.0724
▁pet	-10.0765
▁hip	-10.0769
▁disrupt	-10.0801
▁ear	-10.0803
▁distribut	-10.0805
▁combin	-10.0806
▁Wa	-10.0808
▁communi	-10.0811
▁garda	-10.0813
▁Na	-10.0813
▁accompan	-10.0813
▁bowel	-10.0813
▁contribut	-10.0813
▁disappear	-10.0813
▁register	-10.0813
pkins	-10.0813
volume	-10.0813
▁Besides	-10.0813
▁Respiratory	-10.0813
▁Similar	-10.0813
▁administrator	-10.0813
▁amplify	-10.0813
▁christian	-10.0813
▁concerts	-10.0813
▁consultation	-10.0813
▁curfew	-10.0813
▁examinations	-10.0813
▁google	-10.0813
▁libraries	-10.0813
▁limerick	-10.0813
▁mitigate	-10.0813
▁municipal	-10.0813
▁october	-10.0813
▁radiograph	-10.0813
▁reflect	-10.0813
▁registration	-10.0813
▁reserve	-10.0813
▁sanitizer	-10.0813
▁security	-10.0813
▁steroids	-10.0813
▁suffer	-10.0813
▁sufficient	-10.0813
▁sustain	-10.0813
▁thursday	-10.0813
▁virtual	-10.0813
▁zealand	-10.0813
▁campus	-10.0813
▁clarif	-10.0813
▁opportunit	-10.0813
▁relax	-10.0813
▁temporarily	-10.0813
▁Track	-10.0813
▁organisation	-10.0813
▁morning	-10.0813
▁reverse	-10.0813
▁search	-10.0813
▁Like	-10.0813
▁bulb	-10.0813
▁examine	-10.0813
▁lethal	-10.0813
glass	-10.0813
credit	-10.0813
▁transcription	-10.0813
▁encod	-10.0813
▁Sign	-10.0813
▁iii	-10.0813
▁Meet	-10.0813
▁dirty	-10.0813
▁First	-10.0813
▁gap	-10.0813
▁wave	-10.0813
▁sexual	-10.0813
ransmissible	-10.0813
▁grow	-10.0813
▁Therefore	-10.0813
▁Direct	-10.0814
▁proposed	-10.0814
▁delete	-10.0814
▁fda	-10.0814
ought	-10.0815
▁violen	-10.0815
▁strict	-10.0815
▁nature	-10.0815
isolating	-10.0816
▁milk	-10.0817
▁account	-10.0818
▁geographical	-10.0818
▁lift	-10.0819
▁Long	-10.082
▁cardio	-10.0822
lock	-10.0823
▁held	-10.0823
▁zha	-10.0823
▁brit	-10.0825
▁2003	-10.0827
▁Virus	-10.0827
▁warm	-10.083
▁hope	-10.084
▁arm	-10.0842
▁Case	-10.0845
roid	-10.0851
uary	-10.0854
▁Resu	-10.0856
▁preventive	-10.0858
▁sharp	-10.0858
▁gri	-10.086
▁solutions	-10.0861
agh	-10.0869
▁carefully	-10.087
▁Cover	-10.0874
▁decreased	-10.0879
▁Mers	-10.0884
▁stopped	-10.0886
▁112	-10.0887
▁former	-10.089
▁defences	-10.0892
▁sell	-10.0897
rew	-10.0898
▁resume	-10.0901
▁diploma	-10.0908
ecdc	-10.0927
eering	-10.0928
▁prepare	-10.093
invest	-10.0942
▁sold	-10.0947
▁hua	-10.0949
▁bottles	-10.0955
2,5	-10.1
▁worsen	-10.1001
oth	-10.1018
▁spaces	-10.1019
▁serv	-10.1028
▁sur	-10.1045
▁hubs	-10.105
being	-10.1064
ified	-10.1067
▁wholes	-10.1085
▁2020)	-10.1093
▁meat	-10.1097
▁safely	-10.1126
chie	-10.1145
controlled	-10.1215
▁1,3	-10.1222
▁designate	-10.1445
39	-10.1494
nother	-10.1506
▁Le	-10.1516
infection	-10.156
ban	-10.1725
▁bor	-10.1739
▁manag	-10.1743
▁mil	-10.1771
▁learn	-10.1805
lease	-10.1847
app	-10.1848
▁method	-10.1915
▁comfort	-10.1933
▁issue	-10.197
▁problem	-10.2014
▁space	-10.202
▁guideline	-10.2022
▁sector	-10.2026
avir	-10.2037
ably	-10.2042
where	-10.2059
specific	-10.2064
check	-10.2069
called	-10.2073
active	-10.2077
egal	-10.2088
▁war	-10.21
level	-10.2109
ops	-10.2169
oose	-10.2215
▁earlie	-10.2219
▁Cov	-10.2225
▁nucle	-10.223
▁church	-10.223
onary	-10.223
ceived	-10.2234
▁clot	-10.2235
hrough	-10.2236
▁consist	-10.2237
escent	-10.2239
ffective	-10.2239
▁success	-10.224
ouble	-10.224
▁assist	-10.2241
▁john	-10.2241
clusive	-10.2242
epidemiology	-10.2242
gredient	-10.2242
isinformation	-10.2242
▁Research	-10.2242
▁Shopping	-10.2242
▁adopt	-10.2242
▁alternative	-10.2242
▁anxiety	-10.2242
▁august	-10.2242
▁benefit	-10.2242
▁calculated	-10.2242
▁comprehensive	-10.2242
▁consulate	-10.2242
▁continent	-10.2242
▁devices	-10.2242
▁diagnostic	-10.2242
▁disadvantage	-10.2242
▁discovery	-10.2242
▁disorder	-10.2242
▁elevated	-10.2242
▁enzyme	-10.2242
▁fatalities	-10.2242
▁governor	-10.2242
▁guidance	-10.2242
▁identification	-10.2242
▁importance	-10.2242
▁laboratories	-10.2242
▁legislati	-10.2242
▁nigeria	-10.2242
▁operating	-10.2242
▁oxford	-10.2242
▁philippines	-10.2242
▁pilgrims	-10.2242
▁pilot	-10.2242
▁politicians	-10.2242
▁polyprotein	-10.2242
▁prognosis	-10.2242
▁prohibit	-10.2242
▁sleeve	-10.2242
▁spillover	-10.2242
▁stuff	-10.2242
▁summer	-10.2242
▁supermarket	-10.2242
▁supplier	-10.2242
▁taiwan	-10.2242
▁technique	-10.2242
▁trigger	-10.2242
▁turkey	-10.2242
▁vehicle	-10.2242
morbidit	-10.2242
▁Second	-10.2242
▁dismiss	-10.2242
▁fruit	-10.2242
▁galway	-10.2242
nctions	-10.2242
▁detention	-10.2242
▁remote	-10.2242
▁teaching	-10.2242
▁enhance	-10.2242
▁attention	-10.2242
▁National	-10.2242
▁manifestations	-10.2242
▁plasm	-10.2242
▁package	-10.2242
▁plate	-10.2242
▁theatres	-10.2242
▁dozen	-10.2242
▁achieve	-10.2242
▁asthma	-10.2242
▁valve	-10.2242
▁storm	-10.2242
germs	-10.2242
▁itself	-10.2242
▁wool	-10.2242
▁Treat	-10.2242
▁prais	-10.2242
▁guest	-10.2242
▁Under	-10.2242
▁gain	-10.2242
▁reveal	-10.2242
▁prioritiz	-10.2242
▁Person	-10.2242
▁canada	-10.2242
▁disabilities	-10.2242
▁Community	-10.2242
▁match	-10.2242
▁garden	-10.2242
▁reproduction	-10.2242
▁fingers	-10.2243
▁gastro	-10.2243
▁chem	-10.2243
▁skin	-10.2243
vant	-10.2243
▁characteristic	-10.2243
▁vote	-10.2243
▁constant	-10.2244
▁friends	-10.2244
▁theories	-10.2244
▁pathway	-10.2244
vided	-10.2245
▁Never	-10.2245
▁mandat	-10.2245
▁phylogenetic	-10.2246
▁metric	-10.2246
engin	-10.2247
▁edition	-10.2247
▁fitness	-10.2247
▁singapore	-10.2248
▁rising	-10.2248
▁quit	-10.2248
▁unexpected	-10.2248
▁paid	-10.225
▁extensive	-10.2251
▁implementation	-10.2252
▁cellul	-10.2253
▁roll	-10.2253
▁spr	-10.2255
▁Fever	-10.2256
▁underway	-10.2256
▁stand	-10.2257
▁shit	-10.226
▁mark	-10.2262
▁airport	-10.2262
▁lymphocyte	-10.2263
▁moon	-10.2265
▁Now	-10.2265
▁travelling	-10.2267
▁press	-10.227
▁partial	-10.2271
▁prove	-10.2274
▁Let	-10.2274
▁declaration	-10.2275
▁big	-10.2277
▁useful	-10.2278
theless	-10.2281
▁Well	-10.2283
▁document	-10.2286
▁dra	-10.2295
▁adhere	-10.2296
▁components	-10.2297
▁anonymously	-10.2301
▁conte	-10.2301
▁eg	-10.2305
▁fol	-10.2307
▁30%	-10.2308
▁view	-10.2315
inary	-10.232
▁determined	-10.2326
▁seasonal	-10.2333
▁aut	-10.2335
▁Rep	-10.2339
▁airborne	-10.234
▁methodolog	-10.2344
▁pay	-10.2366
▁web	-10.2384
▁apple	-10.2398
▁Ho	-10.2405
61	-10.2411
▁beds	-10.2416
▁oil	-10.242
▁illnesses	-10.2428
income	-10.2432
tainment	-10.244
▁occurr	-10.2449
olar	-10.2452
▁4,3	-10.2461
expected	-10.247
▁save	-10.252
▁Cor	-10.2536
26	-10.2555
osis	-10.2584
▁lei	-10.262
24	-10.2626
cun	-10.269
▁Non	-10.2737
83	-10.2759
▁formal	-10.2822
ports	-10.2824
▁mar	-10.2824
other	-10.2825
size	-10.2859
▁fell	-10.2881
▁weak	-10.2957
over	-10.2961
tage	-10.2962
▁map	-10.2982
bov	-10.299
aining	-10.3018
▁giv	-10.3021
que	-10.3056
▁simpl	-10.3326
,600	-10.334
pending	-10.3358
50%	-10.3367
-2)	-10.3448
wo	-10.3502
ida	-10.3631
▁option	-10.3678
▁candidate	-10.3681
▁job	-10.3681
km	-10.371
member	-10.3714
▁continu	-10.3717
closure	-10.3728
pathogenic	-10.3728
▁product	-10.3729
third	-10.3731
work	-10.3732
person	-10.3733
home	-10.3733
when	-10.3733
confirmed	-10.3733
▁site	-10.3745
point	-10.3745
scale	-10.3748
▁visitor	-10.3765
dependent	-10.3767
strazeneca	-10.3776
dvice	-10.3777
ware	-10.3778
20,000	-10.3795
▁regula	-10.3798
▁rang	-10.3805
▁conduct	-10.3812
8%	-10.3852
▁Anti	-10.3854
▁homolog	-10.3863
▁therap	-10.3869
▁primar	-10.3877
ublic	-10.3885
▁var	-10.3885
▁norma	-10.3898
▁univers	-10.3903
▁availab	-10.3903
ecause	-10.3903
operation	-10.3904
▁stopp	-10.3905
▁analys	-10.3906
hylogenetic	-10.3906
▁harm	-10.3906
▁program	-10.3907
▁secret	-10.3907
pharmac	-10.3907
transcript	-10.3908
http	-10.3908
infrastructure	-10.3908
▁Dublin	-10.3908
▁Emergenc	-10.3908
▁Global	-10.3908
▁Screening	-10.3908
▁abroad	-10.3908
▁ancestor	-10.3908
▁anticipated	-10.3908
▁austria	-10.3908
▁bronchiolitis	-10.3908
▁cigarette	-10.3908
▁correspond	-10.3908
▁criteria	-10.3908
▁cyber	-10.3908
▁definition	-10.3908
▁demographic	-10.3908
▁discharge	-10.3908
▁elbow	-10.3908
▁explore	-10.3908
▁favour	-10.3908
▁harbour	-10.3908
▁heavy	-10.3908
▁industri	-10.3908
▁kildare	-10.3908
▁lombardy	-10.3908
▁london	-10.3908
▁manufacturing	-10.3908
▁museums	-10.3908
▁nucleocapsid	-10.3908
▁passport	-10.3908
▁plastic	-10.3908
▁pyramid	-10.3908
▁relieve	-10.3908
▁replicate	-10.3908
▁scientists	-10.3908
▁stimulate	-10.3908
▁susceptible	-10.3908
▁worship	-10.3908
▁yellow	-10.3908
▁High	-10.3908
▁Prepare	-10.3908
▁assembl	-10.3908
▁bacteria	-10.3908
▁burden	-10.3908
▁compromise	-10.3908
▁confiden	-10.3908
▁enteritis	-10.3908
▁exhibit	-10.3908
▁inject	-10.3908
▁interrupt	-10.3908
▁labour	-10.3908
▁retrospective	-10.3908
▁shock	-10.3908
▁Safe	-10.3908
▁commerc	-10.3908
▁crime	-10.3908
▁lunch	-10.3908
▁filter	-10.3908
▁tourist	-10.3908
▁famine	-10.3908
▁floor	-10.3908
▁britain	-10.3908
▁Ireland	-10.3908
▁pharmacies	-10.3908
▁offences	-10.3908
▁woman	-10.3908
▁contracepti	-10.3908
▁bodies	-10.3908
▁metre	-10.3908
▁midwife	-10.3908
▁yog	-10.3908
▁computer	-10.3908
▁North	-10.3908
▁shift	-10.3908
▁adequately	-10.3908
▁wedding	-10.3908
▁personnel	-10.3908
▁nba	-10.3908
joy	-10.3909
▁dropped	-10.3909
bound	-10.3909
mbass	-10.3909
▁cabin	-10.3909
▁league	-10.3909
▁Third	-10.3909
eutic	-10.3909
▁exams	-10.3909
▁Remov	-10.3909
▁israel	-10.3909
▁pools	-10.3909
▁twent	-10.3909
matical	-10.3909
defined	-10.3909
▁grade	-10.3909
threatening	-10.3909
▁limitations	-10.3909
▁californians	-10.391
▁undertaken	-10.391
print	-10.391
niac	-10.391
▁provision	-10.391
▁establishments	-10.391
▁ibu	-10.391
▁evolutionary	-10.391
▁company	-10.391
▁nhs	-10.391
▁writ	-10.391
▁manufacturer	-10.3911
▁modelling	-10.3911
▁donegal	-10.3911
▁activat	-10.3912
lapse	-10.3912
▁cut	-10.3912
onym	-10.3912
▁continuous	-10.3912
▁Medication	-10.3912
▁identity	-10.3912
▁tired	-10.3912
▁airways	-10.3912
▁requirements	-10.3913
zoo	-10.3913
lrti	-10.3913
titis	-10.3913
▁influence	-10.3914
▁formula	-10.3914
▁rome	-10.3914
▁justice	-10.3914
rgent	-10.3915
▁recognise	-10.3915
▁abc	-10.3916
▁cit	-10.3916
vision	-10.3916
▁islands	-10.3917
fema	-10.3918
▁Infection	-10.3918
▁appearance	-10.3918
▁2,4	-10.392
▁Comp	-10.3921
▁moment	-10.3921
▁Four	-10.3923
▁progression	-10.3925
▁challenges	-10.3926
▁Old	-10.3926
▁concluded	-10.393
▁Here	-10.393
easures	-10.393
▁mort	-10.3935
▁earlier	-10.3937
▁unlike	-10.394
▁whi	-10.3942
▁2002	-10.3945
▁dicl	-10.3946
▁counter	-10.395
▁criticism	-10.395
transmissibility	-10.395
▁gone	-10.3953
▁bad	-10.3959
▁vers	-10.3959
▁sero	-10.3959
▁varies	-10.3961
▁russian	-10.3964
▁amp	-10.3964
▁Ear	-10.3964
▁tools	-10.398
▁Later	-10.3981
▁diet	-10.3983
▁Dry	-10.3987
omic	-10.3993
hsa	-10.3996
▁jan	-10.4
▁hum	-10.4
Close	-10.4005
vast	-10.4007
▁cura	-10.4008
▁mus	-10.4017
▁1,000	-10.4018
flam	-10.402
▁exception	-10.4032
reign	-10.4038
▁rele	-10.4086
▁mel	-10.4087
▁incident	-10.4107
▁Medica	-10.4181
▁2,2	-10.4241
▁3,9	-10.4259
leo	-10.4273
7,1	-10.4287
▁bra	-10.4293
▁undergo	-10.4313
▁remarkabl	-10.432
▁rou	-10.439
virus	-10.4478
makers	-10.4502
syn	-10.4505
lves	-10.4557
eline	-10.4564
▁dona	-10.474
866	-10.4769
▁survive	-10.4823
▁considerabl	-10.4929
▁separat	-10.4939
peak	-10.4964
▁4,90	-10.5102
wiv	-10.5205
▁suc	-10.5419
ssen	-10.5474
stone	-10.5509
body	-10.5669
▁civet	-10.5679
▁bottle	-10.5682
▁degree	-10.5683
▁restaurant	-10.5685
▁detail	-10.5688
infected	-10.569
prevalen	-10.5726
planned	-10.5726
reporting	-10.5728
secondary	-10.5731
week	-10.5732
march	-10.5733
under	-10.5733
from	-10.5735
sign	-10.5743
irborne	-10.5768
ntigen	-10.5777
▁publish	-10.5814
ymptomatic	-10.5836
▁donate	-10.5839
▁class	-10.586
▁introduce	-10.5863
▁frequent	-10.5864
▁gradual	-10.5865
▁scar	-10.5867
pain	-10.5869
▁connect	-10.5879
▁Fac	-10.5887
▁tempora	-10.5901
ossible	-10.5903
rimary	-10.5903
copy	-10.5903
hinese	-10.5904
friend	-10.5905
ature	-10.5905
clusion	-10.5906
▁cardi	-10.5907
▁represent	-10.5907
▁mechani	-10.5908
▁Corona	-10.5908
dministrati	-10.5908
▁templ	-10.5908
▁authoriz	-10.5908
mmunocompromised	-10.5908
nsaids	-10.5908
▁Europe	-10.5908
▁Napro	-10.5908
▁Particularly	-10.5908
▁Transmission	-10.5908
▁accelerat	-10.5908
▁accident	-10.5908
▁accommodation	-10.5908
▁adhanom	-10.5908
▁antibiotics	-10.5908
▁basketball	-10.5908
▁calories	-10.5908
▁climate	-10.5908
▁complement	-10.5908
▁concentrat	-10.5908
▁counsel	-10.5908
▁customers	-10.5908
▁dashboard	-10.5908
▁diarrhoea	-10.5908
▁discrimination	-10.5908
▁dynamic	-10.5908
▁efficient	-10.5908
▁eliminate	-10.5908
▁fragments	-10.5908
▁hypertension	-10.5908
▁imported	-10.5908
▁investigate	-10.5908
▁located	-10.5908
▁measles	-10.5908
▁mellitus	-10.5908
▁neutraliz	-10.5908
▁opacit	-10.5908
▁operators	-10.5908
▁playgrounds	-10.5908
▁princess	-10.5908
▁purpose	-10.5908
▁replicase	-10.5908
▁repurposed	-10.5908
▁scenario	-10.5908
▁sensitive	-10.5908
▁shield	-10.5908
▁snacks	-10.5908
▁stillbirth	-10.5908
▁technologies	-10.5908
▁translat	-10.5908
▁trimester	-10.5908
▁tuesday	-10.5908
▁ultimate	-10.5908
▁unnecessar	-10.5908
▁voluntary	-10.5908
ptimal	-10.5908
▁consequen	-10.5908
▁engage	-10.5908
▁enroll	-10.5908
▁grocer	-10.5908
▁insurance	-10.5908
▁protease	-10.5908
▁provincial	-10.5908
▁remind	-10.5908
▁announcement	-10.5908
▁babies	-10.5908
▁concept	-10.5908
▁field	-10.5908
▁gamma	-10.5908
▁pollut	-10.5908
▁Change	-10.5908
▁context	-10.5908
▁piece	-10.5908
graduat	-10.5908
▁Further	-10.5908
▁Reduc	-10.5908
▁excess	-10.5908
▁machine	-10.5908
▁sputum	-10.5908
molecular	-10.5908
▁switch	-10.5908
▁board	-10.5908
▁green	-10.5908
▁curve	-10.5908
▁interval	-10.5908
▁apparent	-10.5908
proximity	-10.5908
▁Smok	-10.5908
▁mount	-10.5908
▁spray	-10.5908
▁watch	-10.5908
▁highlight	-10.5908
peptid	-10.5908
▁fecal	-10.5908
▁combat	-10.5908
▁winter	-10.5908
▁lineages	-10.5909
▁broke	-10.5909
▁Phase	-10.5909
▁mechanism	-10.5909
▁minor	-10.5909
▁false	-10.5909
▁stain	-10.5909
▁Diagnos	-10.5909
▁attach	-10.5909
▁offaly	-10.5909
▁allerg	-10.5909
▁gaa	-10.5909
▁hearing	-10.5909
▁premi	-10.5909
▁virulen	-10.5909
▁neurologic	-10.5909
▁representative	-10.5909
▁uncertainty	-10.5909
▁halls	-10.5909
▁word	-10.5909
▁Shops	-10.5909
▁cups	-10.5909
▁eventual	-10.591
▁persisten	-10.591
terti	-10.591
▁petition	-10.591
▁lessons	-10.591
▁install	-10.591
▁upset	-10.591
▁log	-10.5911
▁capital	-10.5911
▁Visitors	-10.5911
▁conclusion	-10.5911
▁fresh	-10.5911
▁remdesivir	-10.5912
▁malls	-10.5912
▁academic	-10.5912
▁preschool	-10.5913
▁neck	-10.5913
▁mouse	-10.5913
▁reception	-10.5914
▁fifth	-10.5914
▁Water	-10.5915
▁uncomfortable	-10.5915
▁Which	-10.5915
▁overlap	-10.5915
▁proof	-10.5915
▁shake	-10.5916
▁dangerous	-10.5916
▁3,5	-10.5916
▁hepa	-10.5916
▁hairdresser	-10.5917
▁suspension	-10.5917
▁surve	-10.5919
▁amid	-10.5919
▁Compar	-10.5919
▁gran	-10.5919
aster	-10.5919
▁stick	-10.592
▁charter	-10.592
▁remember	-10.592
▁anywhere	-10.5921
▁extract	-10.5921
▁1.4	-10.5921
▁progressive	-10.5924
▁4,4	-10.5924
▁3,1	-10.5924
▁brazilian	-10.5925
▁payment	-10.5926
fairs	-10.5926
▁paul	-10.5926
▁appendi	-10.5927
▁churches	-10.5927
▁1,2	-10.5927
▁peer	-10.5928
▁gav	-10.5929
▁accu	-10.5929
▁recoveries	-10.5931
▁respect	-10.5931
▁hospitalised	-10.5932
▁variable	-10.5936
▁2018	-10.5936
▁8.30	-10.5939
▁qua	-10.594
▁2004	-10.5942
copd	-10.5942
▁heel	-10.5942
▁Mea	-10.5946
▁allocat	-10.5946
▁color	-10.595
▁inhal	-10.595
convert	-10.595
▁fish	-10.595
shoe	-10.5951
▁Online	-10.5956
▁2008	-10.5958
▁fet	-10.596
▁clothes	-10.5965
reate	-10.5974
3.5	-10.5976
riage	-10.5978
▁euro	-10.5984
▁shipment	-10.5999
regulation	-10.6011
▁ecolog	-10.6013
citation	-10.6019
▁induc	-10.604
▁virion	-10.6042
▁discussion	-10.6104
▁minimiz	-10.6144
▁spen	-10.6166
mond	-10.622
wnload	-10.6221
▁polari	-10.6232
hips	-10.633
comfortable	-10.6363
cott	-10.6383
trol	-10.6397
6,8	-10.6583
▁4,92	-10.6611
▁absen	-10.6862
▁sequenc	-10.6916
recautionary	-10.7236
▁persi	-10.7246
2019-	-10.7275
tract	-10.7348
iji	-10.7695
▁remark	-10.7796
duced	-10.7973
asti	-10.7994
oxy	-10.8152
▁hydr	-10.8155
▁intervention	-10.818
▁statistic	-10.8182
iplomatic	-10.821
gregation	-10.8219
mission	-10.8221
known	-10.8226
collect	-10.8231
vaccinated	-10.8231
stock	-10.8232
common	-10.8232
wuhan	-10.8233
usual	-10.8233
with	-10.8234
china	-10.8242
host	-10.8243
▁exclud	-10.8311
▁believe	-10.8362
▁vaccinate	-10.8364
▁mutat	-10.8379
ector	-10.8383
trategies	-10.8383
▁micro	-10.8383
scope	-10.8384
▁cata	-10.8388
andatory	-10.84
▁chart	-10.8401
otential	-10.8403
hysical	-10.8403
ositive	-10.8403
▁interfere	-10.8403
nternational	-10.8404
venue	-10.8404
▁fift	-10.8406
▁responsib	-10.8407
transfer	-10.8407
roplet	-10.8408
▁moistur	-10.8408
▁Russ	-10.8408
▁authoris	-10.8408
denovirus	-10.8408
distinguish	-10.8408
efficiency	-10.8408
kenny	-10.8408
pathy	-10.8408
structive	-10.8408
unprecedented	-10.8408
▁Alcohol	-10.8408
▁Business	-10.8408
▁Epidemiologi	-10.8408
▁Figure	-10.8408
▁Generally	-10.8408
▁Hotels	-10.8408
▁Ibuprofen	-10.8408
▁Last	-10.8408
▁Libraries	-10.8408
▁Limerick	-10.8408
▁Monaghan	-10.8408
▁Pregnan	-10.8408
▁Rais	-10.8408
▁Rub	-10.8408
▁Sneezing	-10.8408
▁Vaccination	-10.8408
▁altogether	-10.8408
▁article	-10.8408
▁assault	-10.8408
▁bangladesh	-10.8408
▁behaviour	-10.8408
▁bolsonaro	-10.8408
▁buttocks	-10.8408
▁calendar	-10.8408
▁campaign	-10.8408
▁capture	-10.8408
▁characterize	-10.8408
▁cinemas	-10.8408
▁claims	-10.8408
▁club	-10.8408
▁collaboration	-10.8408
▁constitute	-10.8408
▁denmark	-10.8408
▁depression	-10.8408
▁destination	-10.8408
▁diocese	-10.8408
▁discontinu	-10.8408
▁dysfunction	-10.8408
▁ebola	-10.8408
▁egypt	-10.8408
▁elastic	-10.8408
▁emphasize	-10.8408
▁epidemiologists	-10.8408
▁exacerbat	-10.8408
▁exoribonuclease	-10.8408
▁expenditure	-10.8408
▁galleries	-10.8408
▁goggles	-10.8408
▁guangzhou	-10.8408
▁handwashing	-10.8408
▁hotspot	-10.8408
▁ignore	-10.8408
▁indefinitely	-10.8408
▁initiated	-10.8408
▁interferon	-10.8408
▁journal	-10.8408
▁journalists	-10.8408
▁loneliness	-10.8408
▁madrid	-10.8408
▁messaging	-10.8408
▁molecules	-10.8408
▁montenegro	-10.8408
▁newspaper	-10.8408
▁occasion	-10.8408
▁olympic	-10.8408
▁operate	-10.8408
▁opinion	-10.8408
▁overwhelmed	-10.8408
▁pakistan	-10.8408
▁peripheral	-10.8408
▁repatriated	-10.8408
▁ritonavir	-10.8408
▁robust	-10.8408
▁rodents	-10.8408
▁shenzhen	-10.8408
▁squeez	-10.8408
▁stroke	-10.8408
▁structure	-10.8408
▁struggl	-10.8408
▁studied	-10.8408
▁suddenly	-10.8408
▁surgery	-10.8408
▁suspicion	-10.8408
▁switzerland	-10.8408
▁thailand	-10.8408
▁thorough	-10.8408
▁tipperary	-10.8408
▁tomography	-10.8408
▁wicklow	-10.8408
▁wiki	-10.8408
▁yesterday	-10.8408
corpor	-10.8408
cortico	-10.8408
▁champions	-10.8408
▁descript	-10.8408
▁fatigue	-10.8408
▁inhabit	-10.8408
▁intelligence	-10.8408
▁liquid	-10.8408
▁modified	-10.8408
▁permanent	-10.8408
▁speech	-10.8408
▁stagger	-10.8408
▁volunteer	-10.8408
▁background	-10.8408
▁detergent	-10.8408
▁endanger	-10.8408
▁football	-10.8408
▁summar	-10.8408
▁trillion	-10.8408
▁unclear	-10.8408
▁alleged	-10.8408
ilateral	-10.8408
▁Support	-10.8408
▁expand	-10.8408
▁georg	-10.8408
▁gyms	-10.8408
▁licens	-10.8408
▁niche	-10.8408
▁beyond	-10.8408
▁science	-10.8408
▁driving	-10.8408
▁emissions	-10.8408
▁1890	-10.8408
▁brief	-10.8408
▁subgen	-10.8408
▁witness	-10.8408
▁defense	-10.8408
▁email	-10.8408
▁norway	-10.8408
▁radio	-10.8408
▁decree	-10.8408
▁deletion	-10.8408
▁transit	-10.8408
▁periodically	-10.8408
▁session	-10.8408
▁synthe	-10.8408
▁Flu	-10.8408
▁matern	-10.8408
▁placenta	-10.8408
▁drastic	-10.8408
▁qom	-10.8408
▁Cause	-10.8408
▁cycle	-10.8408
▁fog	-10.8408
▁rarely	-10.8409
▁migra	-10.8409
▁quantit	-10.8409
▁firework	-10.8409
▁horse	-10.8409
▁virologist	-10.8409
▁entities	-10.8409
▁sanit	-10.8409
▁wife	-10.8409
▁gastroenteritis	-10.8409
▁edges	-10.8409
lopin	-10.8409
▁Dehydration	-10.8409
▁afterwards	-10.8409
▁worksite	-10.8409
▁prioritis	-10.8409
▁visibl	-10.8409
▁affini	-10.8409
▁television	-10.8409
▁responsibility	-10.8409
▁anatom	-10.8409
▁scam	-10.8409
jiang	-10.841
▁Cut	-10.841
erret	-10.841
mallpox	-10.841
▁plu	-10.841
▁doubl	-10.841
▁empt	-10.8411
▁automat	-10.8411
▁islam	-10.8411
▁stations	-10.8411
▁jump	-10.8411
▁flexibility	-10.8412
▁admit	-10.8412
▁verifi	-10.8413
▁bias	-10.8413
▁memor	-10.8413
▁revise	-10.8414
feeding	-10.8414
▁descent	-10.8414
▁harmless	-10.8414
▁loose	-10.8414
▁Level	-10.8414
▁radiolog	-10.8414
▁sales	-10.8415
preserv	-10.8415
▁intell	-10.8415
7,6	-10.8415
▁tablets	-10.8415
osha	-10.8416
▁Local	-10.8416
▁3.8	-10.8416
▁nsp	-10.8417
▁accumulat	-10.8418
dominan	-10.8418
▁exact	-10.8419
▁1,7	-10.842
subsid	-10.8431
▁microscop	-10.8433
scra	-10.8433
pedia	-10.8438
▁salt	-10.8447
▁classifi	-10.8456
nitial	-10.8465
pims	-10.8469
▁Hol	-10.8487
▁Antibod	-10.8488
aint	-10.8489
▁pho	-10.8491
cfr	-10.8493
propos	-10.8545
1.8	-10.8558
0.1%	-10.8608
arade	-10.8614
▁midwi	-10.8618
▁petrol	-10.8618
rogen	-10.862
ndem	-10.8669
▁spi	-10.8671
▁fire	-10.8684
4.8	-10.8706
▁3,4	-10.8771
uta	-10.8782
ictions	-10.8883
sibl	-10.8915
owing	-10.8942
organiz	-10.8953
▁3,3	-10.8965
4.5%	-10.9019
arrh	-10.9044
▁defend	-10.9075
▁capabilit	-10.9195
tag	-10.9292
▁Immun	-10.9319
402	-10.9322
raction	-10.939
imple	-10.9394
,534	-10.9505
licit	-10.9526
3.0	-10.9572
▁patholog	-10.9702
indication	-10.9711
paris	-11.0125
▁path	-11.02
aff	-11.0319
▁prefer	-11.0427
washed	-11.0476
5,3	-11.0505
▁complet	-11.0539
type	-11.0549
hoo	-11.0607
duction	-11.0808
defender	-11.0883
supportive	-11.0954
ague	-11.1118
▁detain	-11.1243
▁chlor	-11.1407
elect	-11.1505
▁defence	-11.1511
▁infant	-11.1513
▁mammal	-11.1515
▁Vaccine	-11.1517
▁shop	-11.1517
▁traveller	-11.1519
▁adult	-11.1521
view	-11.1545
political	-11.1557
cgp	-11.1559
power	-11.1559
approved	-11.1563
exist	-11.1564
pregnant	-11.1565
protein	-11.1566
especially	-11.1566
suspect	-11.1566
while	-11.1567
january	-11.1567
vaccine	-11.1567
pandemic	-11.1567
health	-11.1567
▁remov	-11.1577
either	-11.1589
dhere	-11.1602
pproximate	-11.1609
rrange	-11.1628
▁administer	-11.1645
▁proportion	-11.1671
ception	-11.1681
▁electi	-11.1683
▁abnormal	-11.1688
▁conclude	-11.1694
▁worrie	-11.1696
▁quick	-11.1699
ubsequent	-11.1717
amples	-11.1718
urveillance	-11.1718
▁Infect	-11.1721
commended	-11.1733
onnect	-11.1735
▁recogni	-11.1735
▁differ	-11.1735
ization	-11.1736
lexibility	-11.1736
ndividuals	-11.1737
▁coronavir	-11.1737
ifferent	-11.1739
etails	-11.1739
aboratory	-11.1739
firmed	-11.174
ruption	-11.174
fforts	-11.174
ecutive	-11.174
▁uncertain	-11.174
azard	-11.174
undred	-11.174
eadache	-11.174
ologist	-11.1741
▁Organi	-11.1741
▁Contagio	-11.1742
▁Develop	-11.1742
compliance	-11.1742
evolve	-11.1742
forehead	-11.1742
hemorrhoids	-11.1742
hormonal	-11.1742
izziness	-11.1742
otherapy	-11.1742
phylact	-11.1742
symbol	-11.1742
zambi	-11.1742
▁Brazil	-11.1742
▁Breathing	-11.1742
▁Canada	-11.1742
▁Cinemas	-11.1742
▁Countries	-11.1742
▁Diabetes	-11.1742
▁Diarrhea	-11.1742
▁Disposable	-11.1742
▁Epidemic	-11.1742
▁Hospital	-11.1742
▁Infectious	-11.1742
▁Measles	-11.1742
▁Museums	-11.1742
▁Outbreak	-11.1742
▁Pneumonia	-11.1742
▁Politic	-11.1742
▁Rapid	-11.1742
▁Regular	-11.1742
▁Restaurants	-11.1742
▁Return	-11.1742
▁Sneeze	-11.1742
▁Stretch	-11.1742
▁Taiwan	-11.1742
▁Thailand	-11.1742
▁Tipperary	-11.1742
▁aboard	-11.1742
▁aggregat	-11.1742
▁asymmetric	-11.1742
▁attitude	-11.1742
▁beneficial	-11.1742
▁bubble	-11.1742
▁built	-11.1742
▁capsules	-11.1742
▁cardboard	-11.1742
▁ceasefire	-11.1742
▁ceremony	-11.1742
▁chickens	-11.1742
▁christmas	-11.1742
▁compulsive	-11.1742
▁connectivity	-11.1742
▁cornell	-11.1742
▁coworkers	-11.1742
▁defective	-11.1742
▁dehydrated	-11.1742
▁disseminat	-11.1742
▁dollars	-11.1742
▁elucidat	-11.1742
▁encountered	-11.1742
▁etiquette	-11.1742
▁evolving	-11.1742
▁feedback	-11.1742
▁forecast	-11.1742
▁gaeltacht	-11.1742
▁glycoprotein	-11.1742
▁grieving	-11.1742
▁hungary	-11.1742
▁inactivate	-11.1742
▁incubator	-11.1742
▁initiative	-11.1742
▁insufficient	-11.1742
▁jazz	-11.1742
▁journey	-11.1742
▁judaism	-11.1742
▁kidney	-11.1742
▁kilobases	-11.1742
▁kuwait	-11.1742
▁leaflet	-11.1742
▁lucia	-11.1742
▁malaysia	-11.1742
▁melbourne	-11.1742
▁metaboli	-11.1742
▁nausea	-11.1742
▁onboard	-11.1742
▁optimistic	-11.1742
▁perfect	-11.1742
▁physician	-11.1742
▁picture	-11.1742
▁portugal	-11.1742
▁propaga	-11.1742
▁recombine	-11.1742
▁recommence	-11.1742
▁reject	-11.1742
▁renewed	-11.1742
▁resolution	-11.1742
▁rhinoviruses	-11.1742
▁rumours	-11.1742
▁slightly	-11.1742
▁software	-11.1742
▁substitution	-11.1742
▁technic	-11.1742
▁transaction	-11.1742
▁undetected	-11.1742
▁vegetables	-11.1742
▁warrant	-11.1742
▁zhou	-11.1742
▁zimmerman	-11.1742
▁Priorit	-11.1742
▁Walk	-11.1742
▁abandon	-11.1742
▁bathroom	-11.1742
▁coincid	-11.1742
▁discourag	-11.1742
▁doorknob	-11.1742
▁epicent	-11.1742
▁hypox	-11.1742
▁imperative	-11.1742
▁photograph	-11.1742
▁shutdown	-11.1742
▁vessel	-11.1742
politics	-11.1742
resumably	-11.1742
▁angiotensin	-11.1742
▁antarctica	-11.1742
▁infectivity	-11.1742
▁necessit	-11.1742
▁obligat	-11.1742
▁oppos	-11.1742
▁sanitiser	-11.1742
▁seoul	-11.1742
▁shoppers	-11.1742
▁speculat	-11.1742
▁ukraine	-11.1742
▁abdom	-11.1742
▁absorb	-11.1742
▁barbers	-11.1742
▁cheater	-11.1742
▁cheese	-11.1742
▁commitment	-11.1742
▁compris	-11.1742
▁conversation	-11.1742
▁section	-11.1742
▁sweden	-11.1742
▁broncho	-11.1742
▁facebook	-11.1742
▁heighten	-11.1742
▁jesus	-11.1742
▁categor	-11.1742
▁laois	-11.1742
▁procla	-11.1742
▁punish	-11.1742
▁readiness	-11.1742
radic	-11.1742
▁Swab	-11.1742
▁trenton	-11.1742
▁properties	-11.1742
▁vivo	-11.1742
▁Concer	-11.1742
C	-11.6568
I	-11.6569
A	-11.6569
H	-12.6576
’	-12.6815
V	-12.6816
U	-12.6817
G	-12.6818
–	-12.6819
N	-12.682
L	-12.6821
/	-12.6822
E	-12.6823
R	-12.6824
F	-12.6825
B	-12.6826
%	-12.6827
M	-12.6828
P	-12.6829
D	-12.683
Y	-12.6831
W	-12.6832
O	-12.6833
S	-12.6834
(	-12.6835
T	-12.6836
