<pad>	0
</s>	0
<unk>	0
¦	-1.33212
▁¦	-1.34978
के	-4.44447
है	-4.81697
▁़	-4.91827
न	-4.95359
में	-4.96633
▁।	-4.97529
▁,	-5.03965
की	-5.05763
और	-5.06929
से	-5.16906
क	-5.18535
का	-5.21691
ी	-5.22653
को	-5.22791
ा	-5.24121
े	-5.4129
ने	-5.45719
ों	-5.46184
ल	-5.56784
स	-5.57197
कि	-5.57376
▁(	-5.65402
▁)	-5.67823
त	-5.70501
र	-5.73246
ता	-5.74409
म	-5.75648
ज	-5.76301
ं	-5.771
अ	-5.79416
पर	-5.86815
या	-5.95257
कर	-5.98477
-	-6.00715
हैं	-6.03879
लिए	-6.08118
▁.	-6.0812
ख	-6.08718
फ	-6.08995
इस	-6.09227
एक	-6.10768
उस	-6.14695
ना	-6.15509
▁	-6.1822
ित	-6.18481
य	-6.18816
द	-6.19731
ट	-6.20949
ह	-6.22571
प	-6.22705
व	-6.23901
ग	-6.23908
हो	-6.24714
आ	-6.25784
तो	-6.26628
जो	-6.2968
भी	-6.32167
ब	-6.33233
उन	-6.3362
नहीं	-6.34887
ड	-6.38027
श	-6.39695
ि	-6.41107
ई	-6.41226
ही	-6.42332
ए	-6.48846
वि	-6.52696
ला	-6.53851
यह	-6.60317
किया	-6.60791
्	-6.62798
सा	-6.63846
ते	-6.6444
तुम	-6.68765
वह	-6.70182
च	-6.73035
करने	-6.74569
प्र	-6.76839
मा	-6.77009
हम	-6.78732
र्	-6.78734
वे	-6.79789
रा	-6.79802
सं	-6.81616
नि	-6.82945
ण	-6.83095
िक	-6.84492
ो	-6.86188
था	-6.89741
उ	-6.90038
ध	-6.91962
जा	-6.93184
ये	-6.94
à	-6.94332
ले	-6.94683
𐋇	-6.96426
ु	-6.97451
अपने	-6.98935
भ	-7.0275
वा	-7.03271
सी	-7.0341
जिस	-7.03694
इ	-7.04347
्य	-7.05452
ू	-7.08155
ती	-7.10667
पा	-7.1237
दे	-7.16471
तथा	-7.16802
ें	-7.18157
गया	-7.18939
ियों	-7.20216
s	-7.2114
कुछ	-7.21703
स्	-7.22363
ै	-7.22482
रूप	-7.2252
री	-7.24033
दा	-7.24928
किसी	-7.25691
2	-7.27138
इन	-7.27301
साथ	-7.29208
जब	-7.30485
मान	-7.313
रे	-7.32208
a	-7.34269
e	-7.34416
1	-7.34448
क्ष	-7.35273
आप	-7.35366
ओं	-7.36473
मु	-7.38634
दी	-7.38683
बा	-7.39723
्हें	-7.40243
लोग	-7.42662
तक	-7.43367
नी	-7.43481
थे	-7.43873
▁¤	-7.44072
द्वारा	-7.45199
भारत	-7.45867
करते	-7.46373
ौ	-7.47654
ंग	-7.48892
t	-7.50063
दो	-7.50087
लोगों	-7.50106
छ	-7.50901
0	-7.53057
ली	-7.53073
फिर	-7.54073
ॉ	-7.55055
जाता	-7.55294
प्रति	-7.56128
कहा	-7.56149
हमार	-7.56267
ः	-7.57209
मैं	-7.58314
हर	-7.58728
▁"	-7.59647
क्या	-7.59965
/	-7.60357
दिया	-7.60523
करें	-7.60926
कार	-7.61312
कार्य	-7.6236
गा	-7.62933
रहे	-7.63233
त्र	-7.64758
करना	-7.65033
ीय	-7.65174
थी	-7.6555
न्	-7.66006
i	-7.66048
▁्	-7.66384
खा	-7.66597
ुदा	-7.66622
कह	-7.66627
श्	-7.67089
अपनी	-7.69138
ष	-7.69573
ल्लाह	-7.69715
शा	-7.70634
रि	-7.70735
.	-7.71798
घ	-7.71896
सु	-7.72226
▁?	-7.7256
मिल	-7.7323
3	-7.73327
हुए	-7.73415
मे	-7.73974
बना	-7.74414
स्त	-7.74599
अनु	-7.74803
झ	-7.75033
्र	-7.75065
o	-7.7626
रो	-7.7639
ति	-7.76698
वाले	-7.77196
बात	-7.78659
उप	-7.78697
4	-7.79119
जी	-7.7943
हा	-7.79861
मि	-7.80085
बाद	-7.80712
देश	-7.81075
ऐ	-7.81108
▁;	-7.82071
पी	-7.82365
समय	-7.83215
थ	-7.83222
करता	-7.84823
सकता	-7.85064
ढ	-7.85617
ठ	-7.8636
ग्	-7.86555
अधिक	-7.87474
कम	-7.87858
बड	-7.88416
रहा	-7.89104
होता	-7.89793
c	-7.90024
चा	-7.9006
देख	-7.90513
शि	-7.90791
सि	-7.90831
पास	-7.90845
हि	-7.91687
6	-7.93055
बर	-7.93327
बहुत	-7.93354
लि	-7.93536
m	-7.94333
ल्	-7.94742
रण	-7.9493
गी	-7.96278
दिन	-7.96475
l	-7.96615
चार	-7.97417
p	-7.97957
परि	-7.99325
चु	-8.00279
प्राप्त	-8.00676
ाई	-8.00861
d	-8.01223
ां	-8.01451
स्व	-8.01635
राज	-8.0208
बार	-8.02357
काम	-8.03101
क्	-8.03257
सब	-8.03476
ृ	-8.03684
तरह	-8.0447
रख	-8.04757
्या	-8.05172
राज्य	-8.056
वर्ष	-8.06005
उन्होंन	-8.06287
टी	-8.06503
बी	-8.06598
ाँ	-8.07252
हुआ	-8.07406
जन	-8.07777
होने	-8.08282
लो	-8.08342
क्षेत्र	-8.08491
गए	-8.08976
मत	-8.09185
u	-8.09812
जिन	-8.09894
्व	-8.09924
तुम्हारे	-8.10028
्स	-8.10039
सरकार	-8.10095
भाग	-8.1012
ओ	-8.102
मो	-8.12167
▁¦_¦	-8.12232
▁'	-8.12242
यों	-8.12498
नाम	-8.12772
दि	-8.13312
यदि	-8.13669
चल	-8.13945
रह	-8.13972
राष्ट्रपति	-8.14089
बे	-8.14108
एं	-8.14236
8	-8.14693
पूर्व	-8.15028
भा	-8.15638
अन्य	-8.15832
कु	-8.15937
वी	-8.15952
उनकी	-8.16796
वाला	-8.17073
िल	-8.17329
पहले	-8.1783
होगा	-8.17921
9	-8.18186
व्य	-8.18511
्ट	-8.18806
ार	-8.19011
करो	-8.19612
तर	-8.19733
ओर	-8.20643
व्यक्ति	-8.20802
ऐसे	-8.20907
टा	-8.21446
गई	-8.217
न्द	-8.21805
ान	-8.22238
ंड	-8.22513
▁%	-8.22655
सभी	-8.23026
पड	-8.23849
अभि	-8.24281
बि	-8.2433
प्रकार	-8.24421
पु	-8.24476
कृत	-8.24771
दु	-8.25212
संबंध	-8.25696
▁:	-8.26053
सकते	-8.26365
वर	-8.26777
सम	-8.27246
ँ	-8.27574
जाने	-8.27827
h	-8.28267
बढ	-8.28395
▁¦19	-8.28483
अगर	-8.28501
कारण	-8.29034
पूर्ण	-8.29576
𐊣	-8.2958
𐊼	-8.2958
जि	-8.29639
मी	-8.30027
r	-8.30301
फल	-8.30817
दर	-8.31336
धा	-8.31353
गत	-8.3153
चाहिए	-8.3179
स्ट	-8.31883
िंग	-8.321
चि	-8.33132
होती	-8.33583
त्त	-8.33632
एव	-8.33713
ष्ट	-8.34325
सर	-8.34621
गे	-8.34843
वाद	-8.35366
माल	-8.3581
ऐसा	-8.36095
क्यों	-8.36805
रसूल	-8.37541
भर	-8.3808
भारतीय	-8.38459
लिया	-8.38777
जान	-8.38828
चे	-8.3978
्म	-8.3981
लिख	-8.39967
टे	-8.40181
समझ	-8.40776
िका	-8.40936
मुझे	-8.41155
पे	-8.41929
िर	-8.42492
ाइल	-8.42494
रब	-8.42506
बदल	-8.43374
अब	-8.43378
गो	-8.43796
प्रदान	-8.44566
आई	-8.4466
बु	-8.44892
लगा	-8.45924
बन	-8.46413
b	-8.46617
राम	-8.46706
जाती	-8.47029
दोनो	-8.47248
डी	-8.47269
पि	-8.47554
ाव	-8.47724
गु	-8.48091
दार	-8.48242
सू	-8.48462
्त	-8.49506
जे	-8.49931
मन	-8.50534
विशेष	-8.50616
क्र	-8.507
रु	-8.50806
ाब	-8.51061
हां	-8.5122
लोक	-8.51516
कों	-8.51575
अपना	-8.51666
विकास	-8.51956
तु	-8.52111
जीवन	-8.52419
उपयोग	-8.52429
मार	-8.52455
रू	-8.52692
होते	-8.52759
सहाय	-8.53326
जैसे	-8.53418
स्थान	-8.53446
सम्	-8.53931
ईमान	-8.54334
डि	-8.54569
र्ज	-8.54692
चीज	-8.54985
श्री	-8.55347
हुई	-8.56201
सेवा	-8.56303
ंद	-8.5639
सह	-8.56453
ऊ	-8.5671
‍	-8.57081
▁!	-8.57087
शु	-8.5765
अव	-8.58248
युक्त	-8.58785
रही	-8.58811
ज्ञ	-8.58911
सर्व	-8.59337
दिखा	-8.59584
f	-8.60001
▁-	-8.60254
ेंगे	-8.60426
प्रा	-8.6055
एँ	-8.60646
महा	-8.61469
g	-8.61481
प्रयोग	-8.61591
हाल	-8.61761
ट्र	-8.62334
बारे	-8.62553
ंट	-8.62862
बीच	-8.63223
मै	-8.63301
राष्ट्रीय	-8.63542
कै	-8.63722
भेज	-8.63734
द्र	-8.63911
पो	-8.64044
मेरे	-8.64709
धन	-8.65372
पैदा	-8.65675
वै	-8.65711
मू	-8.65784
जाए	-8.65813
आज	-8.65921
लेख	-8.66198
हूँ	-8.66521
िया	-8.67145
w	-8.67697
ेकिन	-8.67918
हित	-8.68215
यू	-8.68433
विचार	-8.68536
वर्त	-8.6946
एस	-8.69559
ांत	-8.69573
ीन	-8.7002
स्थिति	-8.70062
दूसरे	-8.70291
▁¦1¦	-8.70329
अधिनियम	-8.70408
क्त	-8.70428
चित	-8.70588
देने	-8.70773
▁।"	-8.71121
क्षण	-8.71378
नीति	-8.71432
डे	-8.71767
वाह	-8.72108
लग	-8.72115
वाली	-8.72914
यर	-8.73292
डा	-8.73525
पै	-8.73744
यु	-8.73784
पाल	-8.7425
छोड	-8.74356
जाएगा	-8.74366
in	-8.74445
बाहर	-8.7455
पुर	-8.7472
पन	-8.75337
डाल	-8.75581
योजना	-8.75767
स्थ	-8.75846
जाना	-8.75873
१	-8.76035
थवा	-8.76225
मर	-8.76324
ोर	-8.76399
शन	-8.76435
ब्	-8.76566
इसे	-8.76626
वास	-8.77372
वही	-8.77696
पत्र	-8.77994
योग	-8.78444
क्रम	-8.78695
निर्	-8.78881
दान	-8.7895
शक्ति	-8.79161
तम	-8.7942
काल	-8.7948
घर	-8.79609
केवल	-8.79656
हे	-8.79765
दूर	-8.80298
अप	-8.80353
आग	-8.8056
पार	-8.80697
बो	-8.81
बल	-8.81136
प्रभाव	-8.81497
वालों	-8.82269
तब	-8.82449
ियाँ	-8.82519
इं	-8.82712
वार	-8.8273
नियम	-8.83071
ीकरण	-8.83339
,	-8.84296
धारा	-8.84381
उसी	-8.84473
सबसे	-8.84558
अंत	-8.84697
आधार	-8.84926
बल्	-8.85177
हमें	-8.85346
जल	-8.85432
ष्ठ	-8.85806
मेरी	-8.85986
ेगा	-8.85994
अधिकार	-8.8607
%	-8.86207
भू	-8.86248
आर	-8.86414
▁¥	-8.86415
कल	-8.86776
कर्म	-8.86944
v	-8.87056
अर्थ	-8.87058
सूची	-8.87076
n	-8.8761
कुल	-8.87764
बस	-8.87963
याद	-8.88123
भाषा	-8.88359
विषय	-8.88366
आय	-8.88375
हार	-8.88434
धर	-8.88704
क्स	-8.88959
सूचना	-8.8942
उपलब्ध	-8.89679
तों	-8.90218
०	-8.90345
करती	-8.9057
खुल	-8.90596
न्न	-8.90795
कभी	-8.90933
सो	-8.9094
कला	-8.91009
बच्च	-8.9102
er	-8.91335
यो	-8.91562
ंस	-8.91668
ष्	-8.91742
सभा	-8.91852
ब्र	-8.91884
संदेश	-8.92028
k	-8.92354
जाते	-8.92671
अन	-8.92822
पहल	-8.92827
हत	-8.92838
सकती	-8.93071
सामन	-8.93113
टि	-8.93253
200	-8.93516
उच्च	-8.93747
कू	-8.9397
उत्	-8.94366
तरफ	-8.94443
हूं	-8.94448
शिक्षा	-8.94883
्यू	-8.95141
ऑ	-8.95617
ियां	-8.95941
ताओं	-8.96041
नो	-8.96527
सदस्य	-8.96554
क्रिया	-8.96564
ची	-8.96726
अलग	-8.96728
दूसर	-8.96759
स्था	-8.97228
गार	-8.97262
परवरदिगार	-8.97269
रुप	-8.97466
भाव	-8.97672
पता	-8.97703
प्रकाश	-8.98017
भूमि	-8.98063
त्व	-8.98099
रंग	-8.98345
ूँ	-8.9856
फा	-8.98611
उत्तर	-9.00227
प्रो	-9.00402
यहाँ	-9.00513
र्क	-9.00856
निर्माण	-9.00919
अच्छा	-9.00921
स्पष्ट	-9.00941
ंत	-9.01255
बैंक	-9.01669
केंद्र	-9.01673
तः	-9.0176
वर्ग	-9.01766
तैयार	-9.02417
ऐस	-9.03001
किताब	-9.03227
आया	-9.03595
चाहत	-9.03596
10	-9.03693
हों	-9.03788
उत्पाद	-9.03938
उठा	-9.03942
लिये	-9.04246
द्ध	-9.04396
आदि	-9.04443
जोड	-9.0452
ोड	-9.04616
name	-9.04707
सामान्य	-9.04708
पूरी	-9.04709
▁”	-9.04711
नु	-9.0514
र्द	-9.05158
जीव	-9.05319
दिल	-9.05343
डर	-9.05401
पहुँच	-9.05482
संख्या	-9.0549
तौर	-9.05505
लाभ	-9.05916
सुन	-9.05952
करे	-9.06192
विश्व	-9.06262
अधीन	-9.06264
ज्ञान	-9.0629
होंगे	-9.06352
मूल्य	-9.0643
ूर	-9.06518
यक	-9.06705
बता	-9.06838
लगे	-9.07048
शब्द	-9.07051
अवसर	-9.07096
लड	-9.07239
y	-9.07397
करेगा	-9.07434
रिक	-9.07521
खंड	-9.07636
विभिन्न	-9.07909
म्प	-9.08475
औ	-9.08953
टो	-9.08978
र्ड	-9.09312
पूरा	-9.09454
मुख्य	-9.09538
शामिल	-9.0963
टर	-9.09787
निश्चय	-9.10264
र्च	-9.10267
मदद	-9.10275
स्प	-9.10427
अंतर	-9.10462
हाथ	-9.10695
स्तर	-9.10752
तुम्हार	-9.10764
करा	-9.1105
आत्म	-9.11197
मुख	-9.11617
द्द	-9.11652
होगी	-9.11723
च्छ	-9.11906
बच	-9.11912
वस्तु	-9.11912
गण	-9.11997
म्ब	-9.12057
अज	-9.1217
तू	-9.12307
▁‘	-9.12782
निकल	-9.13181
शुरू	-9.1362
पक्ष	-9.13907
चाल	-9.14345
मूल	-9.14816
ार्थ	-9.15004
प्रक्रिया	-9.15425
बंध	-9.1596
रचना	-9.15988
सत्य	-9.16342
दम	-9.16347
दू	-9.16588
उनमें	-9.1681
विध	-9.17089
निकाल	-9.17151
एम	-9.17765
दौरा	-9.17904
शासन	-9.17908
▁...	-9.18219
बन्द	-9.18403
परिवर्तन	-9.1878
भवन	-9.18797
आपको	-9.19521
ऋ	-9.19562
यही	-9.1965
हेतु	-9.19715
वान	-9.19723
रात	-9.19873
प्रत्ये	-9.19939
धिक	-9.19982
शो	-9.20234
रखा	-9.20563
दुनिया	-9.20575
प्ल	-9.20603
उनको	-9.21614
मंत्री	-9.21726
ऊपर	-9.22036
मीन	-9.22054
चाहता	-9.22128
जारी	-9.22206
पहुंच	-9.224
मध्य	-9.22409
00¦	-9.2264
चला	-9.2274
भार	-9.22859
पढ	-9.23174
स्थाप	-9.23209
अनुसार	-9.23329
विश्वास	-9.23344
सौ	-9.23562
सीमा	-9.23589
al	-9.23908
दें	-9.23944
मार्ग	-9.23973
जमा	-9.24183
बह	-9.24199
माध्यम	-9.24261
दृष्टि	-9.24261
गयी	-9.24283
धर्म	-9.24354
आए	-9.24543
जु	-9.24858
आम	-9.25063
ion	-9.25234
अनेक	-9.25797
राह	-9.25817
ालय	-9.26117
ण्ड	-9.26175
र्इ	-9.2618
कारी	-9.26559
कर्ता	-9.26697
मानव	-9.26984
अभी	-9.27078
समर्थ	-9.27118
साफ	-9.27449
भावना	-9.27568
ौर	-9.27625
चाहे	-9.2763
देखा	-9.27658
an	-9.27794
भूत	-9.28058
खुदा	-9.28312
वास्तव	-9.28557
दाय	-9.28618
पानी	-9.28636
व्या	-9.28711
12	-9.28774
महत्वपूर्ण	-9.29081
प्रबंध	-9.29201
रूर	-9.29644
11	-9.30008
प्रौद्योगिकी	-9.30059
ठीक	-9.30077
सुरक्षा	-9.30297
ल्ल	-9.30422
गू	-9.30465
देव	-9.30473
म्बर	-9.30833
आदेश	-9.30907
देना	-9.30912
पद	-9.30943
जू	-9.31031
तंत्र	-9.31039
स्वयं	-9.31062
pr	-9.3116
उद्देश्य	-9.32069
परिणाम	-9.32069
▁#	-9.32078
बोल	-9.32119
▁’	-9.32124
्ति	-9.32325
क्षेत्रों	-9.32526
गें	-9.32778
तीन	-9.3295
खोल	-9.33267
or	-9.33386
)	-9.33917
मौजूद	-9.34121
व्यवस्था	-9.34122
▁&	-9.34139
करेंगे	-9.34202
कार्यक्रम	-9.34207
नीचे	-9.34282
इतन	-9.34414
न्तु	-9.34989
लाल	-9.35002
निर्धारित	-9.35162
पूछ	-9.35163
केन्द्र	-9.35166
प्रतिशत	-9.35166
समूह	-9.3517
ियन	-9.35218
वादी	-9.3524
स्वीकार	-9.35295
विज्ञान	-9.35359
जनता	-9.35386
अतः	-9.35595
आख	-9.35909
ेशन	-9.36015
संस्था	-9.36221
सत	-9.36343
तुम्हारी	-9.36924
ॉल	-9.37142
मगर	-9.37318
बनाने	-9.37364
वास्त	-9.37549
गुज	-9.37554
रीब	-9.37565
स्त्र	-9.37571
स्थित	-9.37621
अधि	-9.37632
अन्त	-9.37636
धारण	-9.3796
राष्ट्र	-9.38298
▁¤3⁄4	-9.38354
ऋण	-9.38487
हु	-9.38548
ात्मक	-9.38595
मेरा	-9.38939
अधिकारी	-9.39295
x	-9.39441
प्रस्तुत	-9.39441
व्यापार	-9.39462
जाओ	-9.39501
▁>	-9.39509
चित्र	-9.39687
पाठ	-9.3982
सिवा	-9.39839
सिर्	-9.39919
एक्स	-9.39973
रोक	-9.40049
लें	-9.40457
्टर	-9.4051
ोल्डर	-9.4054
प्रयास	-9.40567
स्वतंत्र	-9.40576
सिद्ध	-9.40593
काफी	-9.40622
घाट	-9.40628
प्रमुख	-9.40697
ग्रह	-9.41024
क्ट	-9.41043
वक्त	-9.4124
कृषि	-9.41651
पश्चिम	-9.41651
यंत्र	-9.41655
परियोजना	-9.41718
नाथ	-9.41778
साल	-9.41856
ar	-9.41938
रिया	-9.42324
मामले	-9.42454
संस्थान	-9.42676
ज्यादा	-9.42775
पुस्तक	-9.42795
खोज	-9.42796
युद्ध	-9.42798
पिछल	-9.42804
शाल	-9.43051
लौट	-9.43221
आवश्यकता	-9.43313
तरीक	-9.43618
चौ	-9.43838
विश्वविद्यालय	-9.43911
कानून	-9.43913
▁“	-9.43915
निशान	-9.43957
बिल	-9.44168
विंडो	-9.44199
लू	-9.44201
न्याय	-9.44223
बिना	-9.44638
पीछे	-9.45062
प्रधान	-9.45067
अवधि	-9.45068
न्यायालय	-9.4507
उद्योग	-9.45075
जानते	-9.45458
सामाजिक	-9.46223
अच्छे	-9.46225
बंद	-9.46458
विधि	-9.46752
समान	-9.47098
ूम	-9.473
निम्न	-9.474
विवरण	-9.47402
सहयोग	-9.47441
▁¦44	-9.47458
प्रेम	-9.47459
आकार	-9.47492
निधि	-9.48015
रखने	-9.48039
th	-9.48147
रोग	-9.48457
वेद	-9.48505
चयन	-9.48616
गैर	-9.48644
डियो	-9.48682
शील	-9.48693
हिस्स	-9.48749
जैसा	-9.48885
उद्	-9.48947
पेश	-9.49174
प्रदेश	-9.49209
आवश्यक	-9.49221
निर्दिष्ट	-9.49795
जगह	-9.49831
जाये	-9.50023
प्रदर्श	-9.50344
पश्चात	-9.51015
समस्या	-9.51015
ध्यान	-9.51018
निवेश	-9.51018
बेशक	-9.51038
घट	-9.51092
लाइन	-9.51181
▁¦201	-9.52049
पति	-9.52086
सारे	-9.52164
पट	-9.52182
बाज	-9.52239
पृष्ठ	-9.52249
बराबर	-9.52252
सिंह	-9.5226
न्यास	-9.52334
जिन्हें	-9.5257
जुड	-9.52652
मेल	-9.52884
क्षमता	-9.53052
बैठ	-9.53112
प्रणाली	-9.53499
आर्थ	-9.53505
जानकारी	-9.53533
निर्देश	-9.53587
शहर	-9.5361
क्ल	-9.53989
विशिष्ट	-9.54765
लगभग	-9.54765
सुविधा	-9.54765
ic	-9.54785
आकाश	-9.5479
वर्ण	-9.54834
स्ट्र	-9.55043
अगल	-9.55053
अग्र	-9.55267
सोच	-9.55609
निश्चित	-9.55803
२	-9.56047
गिर	-9.56497
रहने	-9.56557
रखते	-9.56736
झुठला	-9.57346
अतिरिक्त	-9.57346
वृत्त	-9.57346
बद्ध	-9.57835
विदेश	-9.58204
संसद	-9.5868
जन्म	-9.58847
ऑफ	-9.59091
बैठक	-9.5911
जाएँ	-9.59237
	-9.59995
निर्णय	-9.59996
समाज	-9.60022
घटना	-9.60243
बै	-9.60335
न्यू	-9.60349
विभाग	-9.60657
संघ	-9.61128
जाति	-9.61269
राशि	-9.61295
पहचान	-9.61346
हुक्म	-9.61346
अच्छी	-9.61349
मंत्रालय	-9.61352
कौन	-9.61379
ंतु	-9.62179
अत्य	-9.62649
मनुष्य	-9.62716
९	-9.62716
सच्च	-9.62716
महिला	-9.62718
सिल	-9.62864
गुण	-9.63071
:	-9.63901
शीर्ष	-9.64105
साहित्य	-9.64105
ाएँगे	-9.64367
संयुक्त	-9.64422
त्म	-9.64649
चै	-9.65068
पंज	-9.65252
बंगाल	-9.65513
कृप	-9.65585
परिवार	-9.65601
डाक	-9.66093
दक्षिण	-9.66942
अनुसंधान	-9.66942
▁''	-9.6695
यात्रा	-9.66952
सम्बन्ध	-9.66954
▁¦18	-9.67019
ौम	-9.6702
वायु	-9.67168
सुधार	-9.67173
मुक्त	-9.67218
व्यक्त	-9.6728
ान्त	-9.67439
रहत	-9.67632
लंब	-9.67902
पथ	-9.68179
वित्तीय	-9.68391
अंतर्ग	-9.68429
जाएगी	-9.68494
स्थापना	-9.68742
is	-9.68956
▁¦20	-9.69548
प्रारंभ	-9.69862
रिपोर्ट	-9.69862
३	-9.69862
कंपनी	-9.69862
संस्कृत	-9.69862
संगठन	-9.69863
यातना	-9.69892
on	-9.69912
बाग	-9.70162
डॉ	-9.7025
बुरा	-9.7031
आधारित	-9.70354
ब्ल	-9.70611
तृत	-9.70657
५	-9.71354
सक्रिय	-9.71354
संपर्क	-9.71355
बोर्ड	-9.71383
त्पन्न	-9.71404
थोड	-9.71442
समिति	-9.715
गति	-9.71672
30	-9.71737
्ष	-9.71814
धु	-9.72104
्रि	-9.7227
आयत	-9.72318
it	-9.72577
भाई	-9.72612
वृद्धि	-9.72869
साइट	-9.72889
स्वरूप	-9.7327
परन्तु	-9.7329
जिन्ह	-9.73386
पैग	-9.73405
बनाए	-9.7372
प्रत्य	-9.7407
दिशा	-9.74109
	-9.74408
मंदिर	-9.74408
समाप्त	-9.74408
दिल्ली	-9.74408
त्रुटि	-9.74416
बाजार	-9.74465
मित्र	-9.74735
ड्र	-9.7476
आयोज	-9.75054
हमेश	-9.75255
–	-9.7597
निस्संद	-9.75971
▁¤°	-9.75973
प्रथम	-9.75973
जरूरत	-9.75976
परंतु	-9.76316
हटा	-9.76891
।	-9.77354
en	-9.77452
गठ	-9.77477
लक्ष्य	-9.77561
निर्धारण	-9.77581
योग्य	-9.78014
खेल	-9.78082
वहाँ	-9.78219
बहु	-9.78255
त्रि	-9.79048
नियंत्रण	-9.79171
बेहतर	-9.79171
अनुभव	-9.79177
वापस	-9.79333
़	-9.80606
ra	-9.80667
फेर	-9.80672
अंग्रेज	-9.8081
गांधी	-9.8081
ग्रामीण	-9.8081
पुरुष	-9.8081
प्रश्न	-9.80817
शुल्क	-9.80818
जांच	-9.8083
जल्द	-9.80943
आसमान	-9.8109
मामल	-9.81199
स्वास्थ्य	-9.82477
ुरान	-9.82933
प्रेर	-9.83626
सूर	-9.83838
option	-9.84171
translat	-9.84171
सामग्र	-9.84172
पुनर्	-9.84175
इतिहास	-9.84222
अलाव	-9.85533
विकल्प	-9.85896
व्यवहार	-9.85896
कठिन	-9.85896
समुद्र	-9.85896
जवाब	-9.85907
दुर्	-9.8647
ज्ज	-9.87285
६	-9.8765
प्रस्ताव	-9.8765
मुँह	-9.87651
संभव	-9.87654
लैंड	-9.87655
दिवस	-9.87655
शरीर	-9.87657
kg	-9.87697
ent	-9.87711
स्थानीय	-9.87841
शर्त	-9.88086
ॉर्	-9.88943
आयु	-9.89417
z	-9.89436
मृत्यु	-9.89436
वैज्ञानिक	-9.89436
स्रोत	-9.89444
गुनाह	-9.89448
रिश्त	-9.89534
बेट	-9.89728
भिन्न	-9.90365
उपस्थित	-9.90643
ियम	-9.90954
खुद	-9.91236
दृश्य	-9.91254
८	-9.91254
मीटर	-9.91378
छिप	-9.91456
ly	-9.92293
शोध	-9.92298
तत्	-9.92362
संविधान	-9.93106
आरंभ	-9.93107
शेयर	-9.93109
नाटक	-9.93206
संग्रह	-9.93295
पुकार	-9.93728
प्रमाण	-9.9498
j	-9.94992
विस्तार	-9.94993
प्रवेश	-9.94997
▁¤	-9.95
ाधिकार	-9.95001
प्रकट	-9.95019
खुश	-9.95054
पसंद	-9.95112
शेष	-9.96777
श्रेणी	-9.96916
चिकित्सा	-9.96916
संसाधन	-9.96916
नागरिक	-9.96917
चर्चा	-9.96918
उपकरण	-9.9692
निर्यात	-9.96926
▁?"	-9.96955
पट्ट	-9.96976
ईमानदार	-9.97015
▁¦199	-9.97068
▁¥	-9.98878
आवेदन	-9.98879
इस्ते	-9.98896
विकस	-9.98972
प्रगति	-9.99034
छोटे	-10.0088
झूठ	-10.0088
स्कूल	-10.0088
संपाद	-10.0088
अवस्था	-10.0093
गर्भ	-10.012
तकनीक	-10.0144
प्रतीक	-10.0199
मंत्र	-10.026
प्राथमिक	-10.0292
४	-10.0292
उदाहरण	-10.0292
भुगतान	-10.0292
यूरोप	-10.0292
दृढ	-10.0292
संपत्ति	-10.0292
शास्त्र	-10.03
कितन	-10.0341
हस्ताक्षर	-10.05
प्रशिक्षण	-10.05
चुनें	-10.0502
दिखाएँ	-10.051
ैसल	-10.0562
महत्व	-10.0711
अपेक्षा	-10.0713
not	-10.0713
पुनः	-10.0713
संगीत	-10.0713
पूरे	-10.0713
समुदाय	-10.0713
प्रमाणपत्र	-10.0715
संकेत	-10.0755
आसान	-10.0755
रक्षा	-10.0922
@	-10.093
city	-10.093
अध्ययन	-10.093
इस्लाम	-10.093
दिनांक	-10.093
शख्स	-10.0931
रुद्ध	-10.0937
गुरु	-10.0943
खरीद	-10.0956
ऊर्जा	-10.0967
nic	-10.097
जैस	-10.1025
ाइड	-10.1026
"	-10.1058
htm	-10.1152
आतंकवाद	-10.1152
औद्योगिक	-10.1152
दस्तावेज	-10.1152
परीक्षा	-10.1152
▁://	-10.1152
पुलिस	-10.1153
ियो	-10.1158
समझौत	-10.1164
ालिम	-10.1168
अंक	-10.1257
मुसलमान	-10.138
+	-10.138
मजबूत	-10.138
उल्लेख	-10.138
पहाड	-10.138
मंच	-10.1383
प्राकृत	-10.1392
कल्पना	-10.1415
द्वार	-10.1559
ॅ	-10.1612
अनिवार्य	-10.1612
गुणवत्ता	-10.1612
पर्याप्त	-10.1612
पूंजी	-10.1612
समाधान	-10.1612
doe	-10.1612
सम्मेलन	-10.1612
इच्छा	-10.1612
पूर्ति	-10.1613
विरोध	-10.1613
डिस्क	-10.1614
पदार्थ	-10.1615
बन्ध	-10.1615
विभाज	-10.1616
वायद	-10.1677
मार्गदर्श	-10.1687
अनुमति	-10.1823
मंडल	-10.1838
q	-10.185
७	-10.185
need	-10.185
{	-10.185
आधुनिक	-10.185
भविष्य	-10.185
सार्वजनिक	-10.185
प्रयोजन	-10.185
obab	-10.185
संशोधन	-10.185
व्यापक	-10.1851
विद्या	-10.1853
गृह	-10.1856
सक्षम	-10.1946
जितन	-10.2021
सुरक्ष	-10.2041
उपधार	-10.2042
\	-10.2094
}	-10.2094
कंप्यूटर	-10.2094
नेटवर्क	-10.2094
समारोह	-10.2094
बुद्धि	-10.2094
अधिकांश	-10.2094
आदमी	-10.2095
अर्थात	-10.2095
गांव	-10.2095
विजय	-10.2097
महीन	-10.2296
पर्यावरण	-10.2344
ईश्वर	-10.2344
परिषद	-10.2344
खाद्य	-10.2345
गिज	-10.235
द्यप	-10.2439
कृष्ण	-10.2601
कांग्रेस	-10.2601
जहन्नुम	-10.2601
शीघ्र	-10.2601
संस्करण	-10.2601
पुरस्कार	-10.2601
परंपरा	-10.2601
भंडार	-10.2601
अवश्य	-10.2601
ग्राहक	-10.2601
पद्धति	-10.2601
उद्यम	-10.2601
मूर्ति	-10.2602
सत्ता	-10.2603
आवाज	-10.2604
क्षेप	-10.2612
ड्ड	-10.2684
संदर्भ	-10.2864
शताब्द	-10.2864
हिन्दी	-10.2864
प्रेष	-10.2865
अपील	-10.287
फरमा	-10.2887
तिथि	-10.289
ीजिए	-10.292
अनुच्छेद	-10.3134
हृदय	-10.3134
छोटा	-10.3134
कुंजी	-10.3134
समाचार	-10.3135
सख्त	-10.3135
वंश	-10.3145
नियत	-10.3151
ाणु	-10.3211
कुफ्फ	-10.3412
चिह्न	-10.3412
द्वीप	-10.3412
अत्याचार	-10.3412
दायित्व	-10.3412
सिस्टम	-10.3412
मोमिन	-10.3412
गतिविधिय	-10.3412
ठहरा	-10.3413
भेद	-10.3415
िस्तान	-10.3422
सलाह	-10.3467
उतार	-10.3483
]	-10.3698
अंतर्राष्ट्रीय	-10.3698
घोषणा	-10.3698
हिदायत	-10.3698
कलकत्त	-10.3698
छोटी	-10.3698
गुमराह	-10.3698
[	-10.4295
>	-10.4909
®	-10.493
;	-10.5243
॰	-10.5965
’	-10.6315
ङ	-10.6335
‘	-10.7951
μ	-10.7972
$	-10.9402
'	-10.9905
ञ	-11.0484
—	-11.1072
?	-11.1677
_	-11.2364
(	-11.3058
	-11.3078
=	-11.3848
¬	-11.3848
	-11.4681
ऍ	-11.559
	-11.559
&	-11.7681
ॆ	-11.7701
ॊ	-11.8951
	-11.8951
	-12.0374
	-12.0378
ळ	-12.038
!	-12.2026
|	-12.2046
	-12.2046
	-12.2046
·	-12.2046
é	-12.2046
*	-12.4046
	-12.4046
£	-12.4046
©	-12.4046
॥	-12.4046
#	-12.6523
¥	-12.6526
	-12.6546
§	-12.6546
ऎ	-12.6546
”	-12.9859
°	-12.9874
¢	-12.988
“	-13.486
	-13.488
	-13.488
̃	-13.488
	-13.488
`	-14.4863
~	-14.4864
	-14.4865
¶	-14.4866
¡	-14.4867
	-14.4868
	-14.4869
«	-14.487
	-14.4871
̄	-14.4872
̈	-14.4873
̧	-14.4874
¿	-14.4875
<	-14.4876
⁄	-14.4877
7	-14.4878
5	-14.4879
	-14.488
	-14.488
	-14.488
	-14.488
ò	-14.488
þ	-14.488
ĺ	-14.488
ॄ	-14.488
॓	-14.488
‐	-14.488
₹	-14.488
¤	-14.488
×	-14.488
î	-14.488
ą	-14.488
ş	-14.488
