<pad>	0
</s>	0
<unk>	0
▁	-2.74479
,	-3.29485
s	-3.55236
a	-3.76167
r	-3.78014
▁och	-3.82865
t	-3.95528
.	-4.06382
en	-4.24251
d	-4.31298
n	-4.325
g	-4.42696
l	-4.43213
e	-4.52907
k	-4.53526
▁för	-4.54512
▁till	-4.6281
i	-4.6338
o	-4.67754
▁i	-4.71119
h	-4.79694
m	-4.80043
de	-4.81837
ar	-4.85276
er	-4.85975
▁som	-4.8815
v	-4.91064
▁han	-4.97748
▁att	-4.99482
å	-4.99819
b	-5.05361
▁de	-5.06548
▁så	-5.08795
;	-5.08938
▁f	-5.13239
na	-5.19137
j	-5.22499
:	-5.24411
▁skall	-5.30256
f	-5.30989
▁s	-5.31411
▁jag	-5.31931
et	-5.32237
▁den	-5.32238
▁Oc	-5.33511
▁det	-5.34197
an	-5.35951
▁på	-5.36429
▁b	-5.37341
▁är	-5.3752
▁av	-5.37974
▁icke	-5.38831
▁med	-5.44557
st	-5.46016
y	-5.46481
▁en	-5.47246
or	-5.48803
u	-5.55897
▁har	-5.56315
än	-5.58433
tt	-5.59611
▁honom	-5.59741
▁dem	-5.60019
▁du	-5.60644
da	-5.61009
▁»	-5.61894
▁var	-5.71152
▁h	-5.71385
p	-5.72832
▁I	-5.74194
ra	-5.75912
▁upp	-5.77567
▁k	-5.78848
▁HERREN	-5.82867
▁be	-5.82933
un	-5.83127
▁vi	-5.84932
▁mig	-5.87081
la	-5.8877
ta	-5.90857
on	-5.92722
▁dig	-5.93097
lä	-5.93185
▁sig	-5.93284
ade	-5.93452
it	-5.94215
▁ut	-5.95519
▁sade	-5.98449
el	-6.00129
▁eder	-6.00671
▁A	-6.0094
.»	-6.01932
▁t	-6.02473
som	-6.02909
▁g	-6.02999
▁om	-6.03497
▁över	-6.04013
am	-6.04324
▁hade	-6.04554
re	-6.0511
▁där	-6.07638
ri	-6.08172
ur	-6.11149
▁st	-6.11183
▁åt	-6.11249
▁sk	-6.12239
▁v	-6.12762
▁då	-6.14744
ka	-6.16944
▁l	-6.18596
▁hans	-6.18684
ll	-6.20811
at	-6.21424
▁sin	-6.21461
▁m	-6.22017
te	-6.23027
▁alla	-6.26256
▁Men	-6.26967
▁Gud	-6.2759
ga	-6.28498
as	-6.31204
▁man	-6.31871
ja	-6.33083
lig	-6.34365
sk	-6.36544
▁få	-6.38292
▁från	-6.38757
▁ett	-6.39044
▁din	-6.39077
▁min	-6.40014
al	-6.40317
ning	-6.41426
▁nu	-6.43962
ng	-6.44045
▁när	-6.44754
em	-6.46226
▁må	-6.46416
▁efter	-6.46454
▁in	-6.47079
▁gå	-6.49993
D	-6.53036
öd	-6.5338
ig	-6.53982
▁De	-6.54989
▁Då	-6.55774
▁skola	-6.57774
▁allt	-6.58113
▁p	-6.58378
▁vad	-6.58507
▁hava	-6.59962
▁S	-6.60087
va	-6.60344
ing	-6.60586
der	-6.61044
▁H	-6.61566
ne	-6.6221
▁ty	-6.62778
▁barn	-6.62949
för	-6.6309
▁dag	-6.63461
▁men	-6.63638
arna	-6.6405
▁son	-6.65172
'	-6.65807
om	-6.66358
▁vid	-6.68928
le	-6.69026
▁mot	-6.69118
ste	-6.69771
▁fram	-6.70152
are	-6.70544
▁E	-6.71128
?	-6.74271
▁hus	-6.74303
▁deras	-6.74712
in	-6.75655
V	-6.7599
het	-6.77186
▁sina	-6.77873
sta	-6.77948
li	-6.78219
den	-6.78291
▁se	-6.79515
pp	-6.80207
gen	-6.80551
▁detta	-6.81043
▁folk	-6.81166
else	-6.81278
ud	-6.81663
▁vill	-6.82077
erna	-6.82902
▁HERRENS	-6.83775
od	-6.84815
ter	-6.85559
▁hör	-6.85813
▁konung	-6.86129
▁oss	-6.87525
▁än	-6.89051
▁Jo	-6.91349
us	-6.92079
ande	-6.92158
▁Ty	-6.93696
▁eller	-6.94603
mma	-6.95121
▁Israels	-6.95348
▁sitt	-6.95426
▁ock	-6.95649
▁B	-6.95705
▁under	-6.97175
▁o	-6.97433
▁låt	-6.97597
▁säger	-6.98714
▁mitt	-7.01319
▁land	-7.01524
rätt	-7.01718
▁vara	-7.01887
▁Så	-7.02272
▁konungen	-7.0306
▁ju	-7.04762
▁göra	-7.05707
▁skulle	-7.05955
▁här	-7.05995
▁komma	-7.0679
▁bo	-7.06887
▁genom	-7.06981
ol	-7.07086
▁tala	-7.07267
nen	-7.07962
▁bliva	-7.08774
var	-7.09146
▁blev	-7.09313
▁äro	-7.10089
▁någon	-7.10384
yck	-7.10566
▁dina	-7.12208
▁utan	-7.12619
▁ned	-7.12918
▁ord	-7.12928
▁an	-7.13187
▁kom	-7.14348
äck	-7.16007
iga	-7.16852
▁voro	-7.18451
▁väl	-7.18857
▁bort	-7.20187
▁G	-7.20418
▁dess	-7.20508
▁henne	-7.20824
▁K	-7.21346
▁vår	-7.21399
c	-7.21842
red	-7.21879
ut	-7.24266
▁stad	-7.24498
▁hon	-7.24507
▁David	-7.25291
▁tag	-7.25387
▁stor	-7.26538
gå	-7.28241
▁Han	-7.28733
▁folket	-7.30047
▁tid	-7.3027
▁hand	-7.30706
▁lik	-7.31271
▁hela	-7.31299
▁tro	-7.31477
▁död	-7.31663
▁skolen	-7.3227
▁giv	-7.32576
▁ditt	-7.33743
▁inför	-7.33781
▁vän	-7.33846
▁själv	-7.34129
offer	-7.34406
S	-7.34469
»	-7.35382
ick	-7.35785
▁andra	-7.36503
▁dö	-7.36514
▁Israel	-7.36566
▁väg	-7.36694
R	-7.36997
▁Se	-7.37278
T	-7.37883
▁svarade	-7.38937
▁ifrån	-7.39434
▁När	-7.40281
dom	-7.40644
▁tjänare	-7.41774
▁jorden	-7.42071
▁Guds	-7.42168
▁söner	-7.42389
P	-7.42496
N	-7.42532
▁ingen	-7.43558
▁namn	-7.4434
ighet	-7.44461
▁hög	-7.44544
▁Si	-7.44926
!	-7.45418
▁mina	-7.45469
M	-7.45537
▁bland	-7.46635
▁män	-7.47175
▁dessa	-7.47454
▁Jag	-7.47527
▁sju	-7.48212
▁--	-7.49227
▁något	-7.49567
▁gick	-7.50393
x	-7.50487
▁Juda	-7.50718
▁kan	-7.50795
▁giva	-7.51087
skap	-7.51444
▁fader	-7.51878
?»	-7.51905
▁sedan	-7.52026
-	-7.52936
träd	-7.53062
fall	-7.53151
▁Herren	-7.53216
uk	-7.53381
▁Mose	-7.53418
▁gjorde	-7.54977
edra	-7.55862
▁hjärta	-7.56315
▁sp	-7.56417
isk	-7.57537
▁synd	-7.57553
▁blivit	-7.58169
▁Jerusalem	-7.58294
▁kommer	-7.58304
▁Jesus	-7.58544
▁tog	-7.58627
▁präst	-7.60313
ock	-7.61257
▁stå	-7.61703
F	-7.61983
inna	-7.63331
▁lät	-7.64652
▁all	-7.6473
▁år	-7.6487
ställ	-7.65144
▁säga	-7.65278
▁frukt	-7.67995
▁ej	-7.68096
▁liv	-7.69402
▁därför	-7.70181
▁två	-7.7026
▁gör	-7.71337
▁ögon	-7.71353
▁gjort	-7.71781
▁Ma	-7.73915
hål	-7.74548
H	-7.77716
▁landet	-7.79536
till	-7.80056
▁hos	-7.80525
▁sådan	-7.80806
▁tillbaka	-7.81377
▁profet	-7.82325
▁rättfärdig	-7.83444
▁gav	-7.83638
▁Om	-7.86254
▁himmelen	-7.86378
▁berg	-7.86598
▁huru	-7.8672
▁helig	-7.86965
▁Egypten	-7.87208
▁hundra	-7.87878
stånd	-7.8812
▁haven	-7.89233
▁ansikte	-7.91642
▁sätt	-7.91642
▁ännu	-7.92184
éerna	-7.92555
tid	-7.9294
▁intet	-7.93291
▁hustru	-7.93584
▁kommit	-7.94836
▁människor	-7.95011
▁bröder	-7.961
▁drag	-7.97809
▁Mi	-7.98309
▁huvud	-7.99247
▁eld	-7.99344
▁dit	-7.99744
▁tusen	-7.9983
▁bliver	-8.00383
▁fråga	-8.01725
▁åstad	-8.02306
▁samma	-8.03135
▁Du	-8.03196
▁kunna	-8.04086
▁sände	-8.06609
▁full	-8.06887
▁emot	-8.07077
▁många	-8.07717
▁skull	-8.07801
O	-8.09486
▁också	-8.09814
▁strid	-8.10092
▁omkring	-8.10592
▁nåd	-8.11123
▁fast	-8.12199
▁blod	-8.12531
▁hålla	-8.12754
▁kommo	-8.13173
▁kalla	-8.13421
▁Ne	-8.139
▁fly	-8.14347
▁vatten	-8.15342
Vad	-8.15463
ack	-8.17291
▁fäder	-8.18027
▁plats	-8.18255
▁mycket	-8.18485
▁leva	-8.19154
▁svärd	-8.19168
▁Me	-8.1944
▁drog	-8.20092
▁bygg	-8.20095
▁städer	-8.20555
▁vilken	-8.21493
▁lov	-8.22386
▁Saul	-8.2339
▁guld	-8.2387
▁sagt	-8.24851
▁Jakob	-8.2508
slut	-8.25631
▁rike	-8.28914
▁För	-8.30075
▁Sedan	-8.30105
E	-8.30431
▁herre	-8.30624
▁ropa	-8.32413
▁händer	-8.32681
▁broder	-8.32933
ifrån	-8.335
▁altare	-8.33997
männen	-8.34459
▁Därefter	-8.35332
▁allenast	-8.35603
▁vrede	-8.35673
▁HERRE	-8.36358
▁råd	-8.37229
▁heller	-8.37241
▁hop	-8.37618
färd	-8.3779
G	-8.3813
▁moder	-8.38372
▁vilka	-8.38941
▁vilja	-8.41197
▁födde	-8.41201
▁finnes	-8.41454
▁kvinna	-8.42325
▁offra	-8.43191
Herre	-8.43242
▁själ	-8.44018
▁människa	-8.46455
▁tjäna	-8.46717
U	-8.47364
▁förbund	-8.47671
▁Kristus	-8.49829
▁vandra	-8.50143
▁kropp	-8.50456
I	-8.79339
A	-8.79749
K	-9.00708
é	-9.04398
B	-9.17361
)	-10.071
Y	-10.6708
2	-11.1546
0	-11.2477
6	-12.2525
1	-12.3954
ó	-12.5621
9	-12.5621
5	-12.7621
3	-12.7621
7	-12.7621
í	-13.0121
]	-13.8454
8	-14.8444
4	-14.8445
C	-14.8446
(	-14.8447
Ö	-14.8448
Å	-14.8449
Ä	-14.845
L	-14.8451
J	-14.8452
ö	-14.8453
á	-14.8454
ä	-14.8454
