<pad>	0
</s>	0
<unk>	0
▁क	-0
▁स	-1
▁ह	-2
▁प	-3
▁म	-4
्र	-5
ार	-6
▁है	-7
▁ज	-8
ें	-9
▁के	-10
▁अ	-11
▁व	-12
या	-13
▁न	-14
▁ब	-15
ों	-16
▁त	-17
▁उ	-18
▁द	-19
▁ल	-20
ने	-21
▁में	-22
▁औ	-23
▁र	-24
ता	-25
▁और	-26
र्	-27
▁की	-28
्य	-29
▁कर	-30
▁कि	-31
ान	-32
▁आ	-33
▁प्र	-34
▁को	-35
▁से	-36
िक	-37
▁भ	-38
्त	-39
▁का	-40
ना	-41
▁ग	-42
▁इ	-43
ित	-44
▁(	-45
▁पर	-46
▁हो	-47
ाल	-48
▁य	-49
▁ए	-50
▁च	-51
्व	-52
न्	-53
ही	-54
▁श	-55
िए	-56
▁वि	-57
ते	-58
▁जा	-59
▁सं	-60
▁हैं	-61
▁इस	-62
िय	-63
▁एक	-64
▁उस	-65
था	-66
ला	-67
ोग	-68
के	-69
्ष	-70
▁ख	-71
ड़	-72
्ट	-73
ति	-74
हा	-75
▁लिए	-76
ुम	-77
्या	-78
▁सम	-79
ती	-80
▁अप	-81
▁जो	-82
▁फ	-83
हीं	-84
▁सा	-85
स्	-86
िया	-87
▁तो	-88
वा	-89
▁दे	-90
▁उन	-91
▁भी	-92
▁नहीं	-93
▁हम	-94
रा	-95
▁नि	-96
से	-97
दा	-98
▁तुम	-99
त्र	-100
ल्	-101
का	-102
सी	-103
▁ने	-104
▁रा	-105
▁जि	-106
री	-107
▁या	-108
कार	-109
▁बा	-110
ास	-111
▁किया	-112
नी	-113
क्ष	-114
गा	-115
▁अन	-116
▁यह	-117
ष्ट	-118
ले	-119
▁ही	-120
मा	-121
कर	-122
ंग	-123
▁करने	-124
ज़	-125
ेश	-126
▁अध	-127
सा	-128
ारा	-129
▁वह	-130
त्	-131
▁लोग	-132
▁मु	-133
▁थ	-134
▁स्	-135
▁हु	-136
क्त	-137
की	-138
िल	-139
िर	-140
▁कु	-141
▁कार	-142
▁ड	-143
ियों	-144
िन	-145
न्ह	-146
ाम	-147
ाह	-148
▁उप	-149
▁सक	-150
ारे	-151
द्	-152
▁रह	-153
ारी	-154
▁अपने	-155
▁वे	-156
▁था	-157
▁ले	-158
▁1	-159
रे	-160
▁ऐ	-161
मान	-162
भा	-163
्री	-164
्च	-165
ूप	-166
▁भार	-167
स्त	-168
ुर	-169
गे	-170
वि	-171
कि	-172
▁पू	-173
ओं	-174
▁उन्ह	-175
▁ध	-176
▁तथा	-177
में	-178
▁गया	-179
ली	-180
ंत	-181
▁जिस	-182
▁आप	-183
▁पह	-184
ैं	-185
▁दो	-186
▁स्व	-187
▁कुछ	-188
दि	-189
्ह	-190
ंध	-191
▁वाल	-192
▁छ	-193
▁मे	-194
खा	-195
▁किसी	-196
म्	-197
▁द्व	-198
ाप	-199
ूल	-200
▁अधिक	-201
▁तुम्ह	-202
▁साथ	-203
▁जब	-204
▁ला	-205
देश	-206
▁घ	-207
▁चाह	-208
▁रूप	-209
▁ख़	-210
ंद	-211
ोज	-212
▁सु	-213
▁2	-214
▁विश	-215
भी	-216
▁कोई	-217
ीन	-218
द्ध	-219
को	-220
▁निर्	-221
ढ़	-222
▁ट	-223
ाय	-224
▁तक	-225
▁करें	-226
ुदा	-227
▁अनु	-228
▁भा	-229
▁द्वारा	-230
ार्	-231
गी	-232
▁करते	-233
▁परि	-234
▁भारत	-235
ंड	-236
ुत	-237
▁पा	-238
▁लोगों	-239
▁क्ष	-240
न्द	-241
ाना	-242
▁वर्	-243
▁उनके	-244
▁प्रति	-245
▁बना	-246
▁व्य	-247
र्व	-248
ंत्र	-249
▁दि	-250
▁थे	-251
गर	-252
▁जाता	-253
▁राज	-254
योग	-255
▁फिर	-256
▁कह	-257
▁राष्ट	-258
जी	-259
▁जाए	-260
▁कार्य	-261
▁कहा	-262
क्	-263
लाह	-264
▁इन	-265
▁बह	-266
दी	-267
▁तर	-268
नों	-269
▁मा	-270
ृत	-271
▁दिया	-272
्छ	-273
▁पु	-274
▁अव	-275
▁स्थ	-276
▁करना	-277
क़	-278
द्य	-279
▁सर	-280
ब्	-281
▁अल्	-282
धार	-283
क्र	-284
▁क्या	-285
▁रख	-286
रण	-287
▁ई	-288
▁मैं	-289
पा	-290
फ़	-291
▁उसके	-292
▁सि	-293
ष्	-294
चार	-295
▁ज़	-296
▁सब	-297
च्छ	-298
ूर	-299
▁हुए	-300
क्ति	-301
▁अपनी	-302
्यों	-303
बंध	-304
▁ये	-305
▁अल्लाह	-306
बर	-307
र्ण	-308
▁रहे	-309
ये	-310
▁थी	-311
ंच	-312
श्च	-313
▁जी	-314
न्न	-315
▁मह	-316
▁उन्हें	-317
ड़ा	-318
जा	-319
ेत्र	-320
नि	-321
▁"	-322
▁फ़	-323
▁सी	-324
ाप्त	-325
▁उसे	-326
्ञ	-327
▁सकता	-328
▁रहा	-329
मी	-330
ोंने	-331
▁करता	-332
पर	-333
ड़े	-334
स्थ	-335
▁होता	-336
▁चु	-337
▁बात	-338
▁ख़ुदा	-339
▁सू	-340
वाल	-341
ड़ी	-342
▁जान	-343
ूस	-344
त्त	-345
▁गु	-346
▁क्षेत्र	-347
▁पै	-348
▁समय	-349
▁क़	-350
▁विक	-351
प्र	-352
िका	-353
▁राष्ट्र	-354
हर	-355
▁मान	-356
▁ओ	-357
बा	-358
च्च	-359
ोक	-360
दान	-361
पति	-362
र्थ	-363
कों	-364
▁बी	-365
▁जै	-366
▁देख	-367
वन	-368
वर्	-369
पू	-370
टा	-371
ानी	-372
ियम	-373
▁दी	-374
▁हि	-375
ोल	-376
▁बहुत	-377
ेल	-378
▁आय	-379
▁बाद	-380
भि	-381
▁प्राप्त	-382
स्था	-383
▁उन्होंने	-384
▁तरह	-385
वी	-386
शन	-387
र्म	-388
क्षा	-389
त्य	-390
▁मि	-391
▁सह	-392
▁झ	-393
▁काम	-394
▁दिन	-395
▁हुआ	-396
्रा	-397
▁पास	-398
ेष	-399
▁वाले	-400
▁निक	-401
▁होने	-402
िप	-403
▁राष्ट्रपति	-404
00	-405
ौर	-406
ंक	-407
टी	-408
▁देश	-409
्रीय	-410
▁मिल	-411
▁विश्व	-412
वे	-413
ज्ञ	-414
▁कम	-415
▁गए	-416
01	-417
▁करो	-418
▁अन्य	-419
ुल	-420
▁अंत	-421
▁उत्	-422
▁सरकार	-423
▁हमारे	-424
ाइ	-425
िस	-426
्स	-427
्रे	-428
▁पी	-429
▁सम्	-430
न्त	-431
▁दु	-432
▁हमने	-433
▁छो	-434
▁सभी	-435
ूँ	-436
▁नाम	-437
ख़	-438
▁जिन	-439
गत	-440
िम	-441
भाव	-442
▁यदि	-443
▁वर्ष	-444
▁ता	-445
स्ता	-446
करण	-447
▁19	-448
▁गई	-449
▁बि	-450
▁बु	-451
▁वा	-452
▁प्रकार	-453
चना	-454
▁तुम्हारे	-455
ग्र	-456
▁ओर	-457
तों	-458
▁समझ	-459
▁पहले	-460
एँ	-461
तीय	-462
▁साम	-463
▁सकते	-464
▁होगा	-465
वं	-466
ोध	-467
ीय	-468
▁ऐसे	-469
▁उनकी	-470
▁कारण	-471
श्य	-472
▁नी	-473
िक्ष	-474
धान	-475
तर	-476
हां	-477
▁दूस	-478
▁अच्छ	-479
▁संबंध	-480
एं	-481
▁रस	-482
दन	-483
▁ऊ	-484
▁चाहिए	-485
दार	-486
▁ना	-487
यी	-488
िश	-489
हाँ	-490
ुक्त	-491
▁होती	-492
▁बे	-493
▁अगर	-494
▁करे	-495
धि	-496
वर	-497
माण	-498
र्श	-499
▁जाने	-500
▁प्रा	-501
झे	-502
्यू	-503
पूर्ण	-504
ेर	-505
▁बद	-506
▁किए	-507
..	-508
िंग	-509
▁लग	-510
▁इसके	-511
त्म	-512
▁(_	-513
▁ऐसा	-514
सर	-515
▁हा	-516
ंप	-517
ची	-518
ध्य	-519
▁हर	-520
जन	-521
ास्त	-522
ोजना	-523
▁बढ़	-524
द्र	-525
▁जन	-526
▁ची	-527
▁ईमान	-528
चा	-529
▁पहु	-530
▁रसूल	-531
तन	-532
लय	-533
▁अस	-534
गार	-535
▁मो	-536
▁भारतीय	-537
टर	-538
ूम	-539
त्व	-540
▁हों	-541
▁ठ	-542
▁एवं	-543
▁खा	-544
दे	-545
▁'	-546
▁क्र	-547
वल	-548
हाय	-549
द्योग	-550
्ल	-551
▁दिखा	-552
▁राज्य	-553
िति	-554
टे	-555
ूं	-556
चे	-557
▁अब	-558
▁क्यों	-559
▁पूर्व	-560
▁विकास	-561
बी	-562
▁3	-563
व्य	-564
▁स्त	-565
▁उपयोग	-566
▁s	-567
काश	-568
ष्ठ	-569
▁उसकी	-570
▁व्या	-571
▁व्यक्ति	-572
मत	-573
मु	-574
ेज	-575
▁à	-576
िये	-577
▁लि	-578
▁प्रश	-579
▁भाग	-580
तः	-581
▁जाती	-582
▁मुझे	-583
धिक	-584
▁बन	-585
▁बार	-586
▁लगा	-587
▁हुई	-588
▁दोनों	-589
▁प्रदान	-590
वार	-591
ाली	-592
▁सेवा	-593
ाला	-594
▁चल	-595
पी	-596
सार	-597
▁कृ	-598
▁आधार	-599
▁जीवन	-600
▁तुम्हें	-601
on	-602
▁अभि	-603
▁जैसे	-604
▁वै	-605
▁सहाय	-606
▁श्री	-607
धा	-608
किन	-609
▁मौ	-610
▁ग्र	-611
शा	-612
शी	-613
कृत	-614
ित्र	-615
▁मुख	-616
फल	-617
▁बीच	-618
▁होते	-619
▁निय	-620
▁अपना	-621
यन	-622
▁खु	-623
▁उसने	-624
ेंगे	-625
▁रही	-626
▁लेकिन	-627
▁आव	-628
▁रब	-629
▁रु	-630
ोर्	-631
ताओं	-632
तु	-633
ेक	-634
ाइल	-635
ार्थ	-636
▁लिया	-637
ंस	-638
ोर	-639
▁देने	-640
▁विशेष	-641
ल्प	-642
हित	-643
िला	-644
क्रम	-645
▁शिक्ष	-646
▁यु	-647
▁बारे	-648
▁स्था	-649
ग़	-650
वाद	-651
▁मन	-652
▁सद	-653
▁अधिन	-654
▁विचार	-655
ज़ा	-656
▁बै	-657
ोप	-658
▁गा	-659
▁शु	-660
▁मूल	-661
▁न्या	-662
▁पैदा	-663
▁वाला	-664
ंभ	-665
▁ढ	-666
कारी	-667
तना	-668
▁निश्च	-669
्ड	-670
▁अल	-671
▁स्थान	-672
।"	-673
▁ऐसी	-674
▁लोक	-675
▁वास्त	-676
कृ	-677
▁ऑ	-678
लिए	-679
▁अधिनियम	-680
ti	-681
ठा	-682
षा	-683
▁आर	-684
▁समा	-685
▁मै	-686
षण	-687
▁आज	-688
निया	-689
▁माल	-690
▁स्प	-691
▁केवल	-692
▁हमारी	-693
युक्त	-694
▁मेरे	-695
▁प्रयोग	-696
्न	-697
तिक	-698
स्ट	-699
▁अथ	-700
ख्या	-701
▁आवश्य	-702
कता	-703
दों	-704
▁दृ	-705
▁उसी	-706
ून	-707
रों	-708
त्ता	-709
▁उत्त	-710
▁जाएगा	-711
me	-712
डी	-713
त्या	-714
लों	-715
वरण	-716
▁इसे	-717
▁करती	-718
▁ताकि	-719
▁सर्व	-720
वेश	-721
▁पि	-722
▁उपल	-723
बे	-724
ुट	-725
जू	-726
ोह	-727
चित	-728
▁हे	-729
क्षण	-730
न्तु	-731
▁अथवा	-732
▁पश्च	-733
▁इसमें	-734
▁अधिकार	-735
▁दर	-736
▁हूँ	-737
ज्ञान	-738
▁जाना	-739
बू	-740
हार	-741
▁कै	-742
▁उसका	-743
▁उपलब्	-744
▁योजना	-745
▁जिसमें	-746
▁डि	-747
▁पार	-748
in	-749
मे	-750
▁सो	-751
ियां	-752
▁विष	-753
▁क्योंकि	-754
▁तब	-755
ियाँ	-756
▁इसलिए	-757
▁सहायता	-758
▁n	-759
ुरु	-760
▁जिसे	-761
▁आस	-762
▁मेरी	-763
▁सबसे	-764
ेम	-765
यास	-766
▁प्रत्य	-767
▁मद	-768
निक	-769
▁डा	-770
मान्य	-771
▁चीज़	-772
▁जाते	-773
▁सकती	-774
▁उपलब्ध	-775
ताब	-776
▁बस	-777
▁पता	-778
▁उनका	-779
▁हमें	-780
▁जिन्ह	-781
▁संदेश	-782
इन	-783
गम	-784
णी	-785
र्ष	-786
श्व	-787
tion	-788
▁माम	-789
▁अर्थ	-790
▁देता	-791
▁बच्च	-792
▁उद्	-793
▁बल्	-794
▁वही	-795
▁उनसे	-796
▁उससे	-797
▁व्यव	-798
▁राष्ट्रीय	-799
ra	-800
ूह	-801
▁अम	-802
▁वाली	-803
▁महत्व	-804
यर	-805
▁5	-806
द्योगिक	-807
ल्ड	-808
ालय	-809
▁लो	-810
त्रा	-811
▁बैं	-812
▁महा	-813
क्रिया	-814
ुरू	-815
द्या	-816
▁सुर	-817
▁होना	-818
सं	-819
ात	-820
भाग	-821
र्क	-822
▁201	-823
▁स्ट	-824
▁बड़ी	-825
ेट	-826
ेह	-827
▁जर	-828
दर्श	-829
▁शाम	-830
तंत्र	-831
ैर	-832
▁4	-833
▁कंप	-834
▁बैठ	-835
▁विषय	-836
▁उत्पा	-837
▁स्थाप	-838
ट्ट	-839
न्ध	-840
र्य	-841
स्व	-842
▁दा	-843
▁पुन	-844
▁हाथ	-845
▁स्वी	-846
...	-847
▁अग	-848
▁200	-849
▁उच्च	-850
▁कर्म	-851
▁धारा	-852
▁सूची	-853
▁सामने	-854
▁शिक्षा	-855
रिक	-856
▁जु	-857
▁दौर	-858
नेवाल	-859
▁छोड़	-860
▁पहुँ	-861
▁मार्	-862
▁यहाँ	-863
▁दूसरे	-864
वाह	-865
▁तै	-866
वरदि	-867
▁डाल	-868
▁संप	-869
▁सदस	-870
▁इसका	-871
▁कहते	-872
▁प्रण	-873
▁स्वा	-874
▁परिवर्	-875
कट	-876
भव	-877
ोट	-878
मिक	-879
▁मू	-880
पत्र	-881
▁होंगे	-882
▁परवरदि	-883
तम	-884
ुक	-885
टना	-886
यार	-887
ष्टि	-888
▁बल्कि	-889
फी	-890
ंति	-891
▁आई	-892
▁भर	-893
▁अति	-894
▁कें	-895
भिन्न	-896
▁मंत्र	-897
▁परवरदिगार	-898
▁जल	-899
▁लगे	-900
▁लिख	-901
▁व्याप	-902
▁सूचना	-903
er	-904
ंश	-905
201	-906
क्ट	-907
▁वृ	-908
▁आदि	-909
▁याद	-910
▁योग	-911
स्थान	-912
▁शामिल	-913
▁सामान्य	-914
ंज	-915
▁शी	-916
कृति	-917
▁आया	-918
▁लिये	-919
िट	-920
▁किस	-921
▁गुण	-922
▁विर	-923
▁इससे	-924
▁करके	-925
▁पूरी	-926
▁बाहर	-927
▁उनमें	-928
▁करेगा	-929
▁मुख्य	-930
▁प्रभाव	-931
श्	-932
संद	-933
▁पं	-934
▁बो	-935
द्धि	-936
▁कभी	-937
▁बदल	-938
▁मदद	-939
▁सके	-940
▁सभा	-941
▁अच्छा	-942
▁शक्ति	-943
▁स्पष्ट	-944
मुख	-945
▁विभिन्न	-946
ंट	-947
भू	-948
यं	-949
▁t	-950
जार	-951
्रो	-952
▁कल	-953
ित्त	-954
▁कान	-955
▁बता	-956
▁लाभ	-957
▁बड़ा	-958
▁हेतु	-959
▁किताब	-960
▁फ़ाइल	-961
हत	-962
ष्य	-963
▁कई	-964
स्तु	-965
▁रंग	-966
▁हूं	-967
▁अंतर	-968
▁पूरा	-969
▁प्रौ	-970
▁प्रकाश	-971
▁स्थिति	-972
हन	-973
ियो	-974
▁इसी	-975
▁तैयार	-976
▁निर्माण	-977
एस	-978
शत	-979
सम	-980
मीन	-981
ासन	-982
▁आम	-983
▁ग़	-984
▁करा	-985
▁शब्	-986
▁अनुस	-987
▁अवसर	-988
▁होगी	-989
▁उसमें	-990
▁चाहते	-991
▁निर्धार	-992
जे	-993
▁‘	-994
ame	-995
▁अभ	-996
▁चि	-997
िष्ट	-998
▁उठा	-999
▁यही	-1000
▁हाल	-1001
▁भाषा	-1002
▁चाहता	-1003
▁जिसके	-1004
▁दौरान	-1005
▁मार्ग	-1006
आई	-1007
लि	-1008
▁रो	-1009
्यान	-1010
▁चुन	-1011
▁ज्ञ	-1012
▁रुप	-1013
▁जहां	-1014
es	-1015
ीक	-1016
▁१	-1017
वान	-1018
हरा	-1019
ालन	-1020
त्मक	-1021
▁अंग	-1022
▁अर्	-1023
▁पड़	-1024
▁भवन	-1025
▁उनको	-1026
▁शुरू	-1027
ूट	-1028
ज्य	-1029
बार	-1030
ोजन	-1031
ग्रह	-1032
▁बढ़ा	-1033
▁निश्चय	-1034
सि	-1035
तान	-1036
म्बर	-1037
▁ज़र	-1038
▁दिल	-1039
▁भेज	-1040
्यादा	-1041
▁देखा	-1042
▁तुम्हारा	-1043
▁प्रक्रिया	-1044
⁄4	-1045
▁ऋ	-1046
ंतु	-1047
ल्क	-1048
ामी	-1049
▁(1	-1050
▁कौ	-1051
▁पृ	-1052
▁रे	-1053
ध्यम	-1054
▁अने	-1055
▁गयी	-1056
▁चार	-1057
▁अधीन	-1058
▁पुस्त	-1059
▁व्यक्त	-1060
la	-1061
कर्	-1062
जिक	-1063
िता	-1064
बन्ध	-1065
र्या	-1066
ित्व	-1067
ोर्ट	-1068
▁तरफ	-1069
▁जाएँ	-1070
▁बड़े	-1071
▁पहुंच	-1072
▁न्याया	-1073
▁प्रबंध	-1074
▁करनेवाल	-1075
▁प्रतिशत	-1076
▁प्रत्येक	-1077
लो	-1078
ण्ड	-1079
रती	-1080
▁आए	-1081
▁नई	-1082
▁गये	-1083
▁चला	-1084
क्षित	-1085
▁सीमा	-1086
▁क्षेत्रों	-1087
▁प्रौद्योगिक	-1088
दम	-1089
रूप	-1090
हास	-1091
▁भूम	-1092
▁संग	-1093
▁स्क	-1094
न्द्र	-1095
स्तुत	-1096
▁नियम	-1097
▁महत्वपूर्ण	-1098
इट	-1099
टन	-1100
▁d	-1101
काल	-1102
द्व	-1103
▁शा	-1104
▁मार	-1105
▁आपको	-1106
▁बनाया	-1107
ंह	-1108
षि	-1109
हम	-1110
▁पद	-1111
▁भे	-1112
▁मर	-1113
▁लौ	-1114
ोल्ड	-1115
▁आगे	-1116
▁गिर	-1117
▁ब्र	-1118
▁रखा	-1119
▁निकल	-1120
▁परिण	-1121
द्यालय	-1122
▁संस्थान	-1123
▁स्वीकार	-1124
▁कार्यक्रम	-1125
जूद	-1126
यों	-1127
▁कठ	-1128
▁ते	-1129
▁अभी	-1130
▁त्र	-1131
▁दूर	-1132
▁अनुम	-1133
▁आदेश	-1134
▁देना	-1135
▁उत्तर	-1136
▁संख्या	-1137
pr	-1138
छे	-1139
पन	-1140
ोन	-1141
दर्	-1142
▁घर	-1143
▁वी	-1144
▁गति	-1145
▁जमा	-1146
▁पढ़	-1147
▁जारी	-1148
▁बन्द	-1149
▁जिसने	-1150
ॉल	-1151
▁झु	-1152
▁अलग	-1153
▁संर	-1154
▁खुदा	-1155
▁जनता	-1156
▁समूह	-1157
▁अनुसार	-1158
▁परिणाम	-1159
▁प्रमुख	-1160
▁वास्तव	-1161
▁संस्था	-1162
▁संबंधित	-1163
इस	-1164
और	-1165
धन	-1166
▁a	-1167
गें	-1168
लेख	-1169
▁मी	-1170
▁दें	-1171
▁सफल	-1172
▁अनेक	-1173
▁नीचे	-1174
▁मैंने	-1175
▁वित्त	-1176
▁प्रमाण	-1177
¤3	-1178
शि	-1179
क्स	-1180
नीय	-1181
▁डे	-1182
▁शै	-1183
¤3⁄4	-1184
▁अतः	-1185
▁नया	-1186
स्थित	-1187
▁अन्त	-1188
▁कृषि	-1189
▁पानी	-1190
▁प्रो	-1191
▁पूर्ण	-1192
▁स्वयं	-1193
▁करेंगे	-1194
▁नियंत्र	-1195
▁विश्वास	-1196
▁सुरक्षा	-1197
ic	-1198
ैन	-1199
ैस	-1200
मेल	-1201
म्प	-1202
वास	-1203
▁पिछ	-1204
▁वाय	-1205
▁काफी	-1206
▁प्रार	-1207
▁वस्तु	-1208
विद्यालय	-1209
▁स्वतंत्र	-1210
दू	-1211
्ले	-1212
▁मत	-1213
▁धरती	-1214
▁मानव	-1215
▁बनाने	-1216
▁उद्देश	-1217
▁प्रस्तुत	-1218
▁प्रौद्योगिकी	-1219
al	-1220
अप	-1221
उन	-1222
टक	-1223
धी	-1224
दाय	-1225
▁जग	-1226
▁भू	-1227
▁लेख	-1228
▁संघ	-1229
माजिक	-1230
▁अध्य	-1231
▁संस्	-1232
▁ज्ञान	-1233
▁विवरण	-1234
▁ज्यादा	-1235
▁C	-1236
ल्ल	-1237
▁चौ	-1238
▁ती	-1239
▁यू	-1240
.201	-1241
दारी	-1242
▁ठीक	-1243
तियों	-1244
तिहास	-1245
▁अत्य	-1246
▁आपके	-1247
▁बैंक	-1248
▁केंद्र	-1249
▁दुनिया	-1250
▁माध्यम	-1251
it	-1252
ाई	-1253
▁8	-1254
मता	-1255
ियन	-1256
▁सौ	-1257
विधा	-1258
्यता	-1259
▁तीन	-1260
▁समान	-1261
▁सिवा	-1262
▁हिस्	-1263
▁सामाजिक	-1264
▁परिवर्तन	-1265
▁विश्वविद्यालय	-1266
पि	-1267
ज़र	-1268
जों	-1269
प्त	-1270
स्या	-1271
▁कर्	-1272
▁शरी	-1273
ोल्डर	-1274
▁जबकि	-1275
▁मध्य	-1276
▁जिसका	-1277
▁विस्त	-1278
▁आवश्यक	-1279
▁प्रयास	-1280
्श	-1281
▁-	-1282
ख्त	-1283
ष्ण	-1284
▁गो	-1285
▁मज	-1286
वादी	-1287
▁निश	-1288
▁सुन	-1289
▁जैसा	-1290
▁लेकर	-1291
▁निकाल	-1292
▁प्रती	-1293
▁प्रेम	-1294
▁क्रिया	-1295
▁जिन्हें	-1296
भग	-1297
ेद	-1298
ोष	-1299
▁“	-1300
र्फ	-1301
डियो	-1302
▁खोज	-1303
▁गर्	-1304
▁जाओ	-1305
▁तरी	-1306
▁दर्	-1307
▁पुर	-1308
▁रोक	-1309
र्थिक	-1310
▁जोड़	-1311
▁पक्ष	-1312
▁विंड	-1313
▁होकर	-1314
▁मामले	-1315
▁विद्य	-1316
▁उद्योग	-1317
▁समस्या	-1318
or	-1319
ंख	-1320
कु	-1321
चि	-1322
धे	-1323
बल	-1324
्म	-1325
ran	-1326
ज़ी	-1327
▁आग	-1328
▁ऋण	-1329
▁पे	-1330
ल्ली	-1331
ृत्य	-1332
▁बरा	-1333
▁गुना	-1334
▁निस्	-1335
▁नीति	-1336
▁पीछे	-1337
▁रहते	-1338
▁वर्ग	-1339
▁स्तर	-1340
▁जानते	-1341
▁हिन्द	-1342
ष्ट्रीय	-1343
▁किन्तु	-1344
▁तुम्हारी	-1345
▁न्यायालय	-1346
दर	-1347
भर	-1348
सल	-1349
ूब	-1350
ंधी	-1351
ठला	-1352
तनी	-1353
्ला	-1354
▁टे	-1355
▁ली	-1356
▁शि	-1357
▁लाए	-1358
दिष्ट	-1359
▁दक्ष	-1360
▁सारे	-1361
▁अच्छे	-1362
▁दूसरी	-1363
▁ध्यान	-1364
▁सुविधा	-1365
ed	-1366
उस	-1367
डा	-1368
▁7	-1369
क्म	-1370
र्च	-1371
ज़ाब	-1372
त्मा	-1373
निर्	-1374
पन्न	-1375
वासी	-1376
वेदन	-1377
▁खंड	-1378
▁सार	-1379
▁आकार	-1380
▁आकाश	-1381
▁देते	-1382
▁धर्म	-1383
▁परिय	-1384
▁संवि	-1385
▁समर्थ	-1386
▁प्रधान	-1387
▁विशिष्ट	-1388
▁<	-1389
ंजी	-1390
मार	-1391
हरी	-1392
ेशन	-1393
▁डर	-1394
▁ऊपर	-1395
▁काल	-1396
▁चयन	-1397
▁पाठ	-1398
▁रिप	-1399
▁संस	-1400
क्ष्य	-1401
मंत्र	-1402
▁पत्र	-1403
▁मेरा	-1404
▁इनकार	-1405
▁ज़मीन	-1406
▁पर्या	-1407
▁अधिकारी	-1408
▁जानकारी	-1409
▁फ़ोल्डर	-1410
.0	-1411
ot	-1412
▁&	-1413
▁6	-1414
तें	-1415
यान	-1416
ेशा	-1417
▁एस	-1418
▁चे	-1419
▁शे	-1420
ग्री	-1421
तमान	-1422
र्गत	-1423
ानों	-1424
▁आने	-1425
▁खोल	-1426
▁नही	-1427
▁पूछ	-1428
▁बंग	-1429
▁बेह	-1430
▁मगर	-1431
▁अवधि	-1432
▁निम्	-1433
▁महान	-1434
▁यहां	-1435
▁लगभग	-1436
▁लेने	-1437
▁वहां	-1438
▁बराबर	-1439
▁आवश्यकता	-1440
op	-1441
¥	-1442
गू	-1443
ोस	-1444
भार	-1445
वों	-1446
स्क	-1447
्रम	-1448
▁गण	-1449
▁फर	-1450
▁बेश	-1451
कृतिक	-1452
▁चाहे	-1453
▁जिससे	-1454
▁झुठला	-1455
▁पृष्ठ	-1456
▁हुक्म	-1457
▁क्षमता	-1458
▁परियोजना	-1459
ab	-1460
कल	-1461
लग	-1462
शील	-1463
▁नए	-1464
▁कला	-1465
▁रोग	-1466
▁लड़	-1467
▁विन	-1468
▁सही	-1469
▁रखते	-1470
▁संगठ	-1471
▁गांधी	-1472
▁निम्न	-1473
▁सहयोग	-1474
▁अतिरिक	-1475
▁प्रदेश	-1476
▁वर्तमान	-1477
ht	-1478
ंब	-1479
जर	-1480
▁:	-1481
ंदर	-1482
विध	-1483
शोध	-1484
स्प	-1485
▁आध	-1486
▁बच	-1487
ट्टी	-1488
ोर्ड	-1489
▁अपे	-1490
▁कौन	-1491
▁जवा	-1492
▁सां	-1493
▁साल	-1494
हित्य	-1495
▁इसकी	-1496
▁चुके	-1497
▁जरूर	-1498
▁बिना	-1499
▁हाला	-1500
▁तुमसे	-1501
▁युद्ध	-1502
▁वालों	-1503
▁आर्थिक	-1504
▁उद्देश्य	-1505
▁निर्धारित	-1506
जो	-1507
▁”	-1508
पुर	-1509
मित	-1510
र्स	-1511
▁फै	-1512
▁बर	-1513
क्ता	-1514
▁जगह	-1515
▁मंद	-1516
▁मनु	-1517
▁पड़े	-1518
▁शब्द	-1519
▁परन्तु	-1520
▁वास्ते	-1521
▁प्रणाली	-1522
-1	-1523
चन	-1524
डे	-1525
लू	-1526
▁0	-1527
तार	-1528
न्म	-1529
पित	-1530
ूरी	-1531
्रै	-1532
▁कॉ	-1533
▁थो	-1534
▁रू	-1535
क्षर	-1536
च्छा	-1537
िश्त	-1538
▁कुल	-1539
▁कोश	-1540
▁वेब	-1541
संदेह	-1542
▁अमेर	-1543
▁एक्स	-1544
▁जाये	-1545
▁रखने	-1546
▁वर्ण	-1547
▁सिंह	-1548
▁दक्षि	-1549
▁मित्र	-1550
▁शीर्ष	-1551
▁समाप्त	-1552
▁व्यापार	-1553
▁अतिरिक्त	-1554
▁स्वतंत्रता	-1555
en	-1556
यो	-1557
लत	-1558
म्म	-1559
▁18	-1560
▁अर	-1561
▁घा	-1562
▁धन	-1563
बद्ध	-1564
ुद्ध	-1565
ृत्त	-1566
्रिय	-1567
▁शिक	-1568
पूर्व	-1569
▁बुरा	-1570
▁बेशक	-1571
▁लागू	-1572
▁महिला	-1573
▁सिर्फ	-1574
▁निर्देश	-1575
एम	-1576
गु	-1577
पाल	-1578
▁चा	-1579
ुरुष	-1580
ोजित	-1581
▁इन्	-1582
▁भाव	-1583
▁समु	-1584
भावना	-1585
स्तान	-1586
▁आत्म	-1587
▁उसको	-1588
▁कहने	-1589
▁श्रे	-1590
▁अच्छी	-1591
▁चित्र	-1592
▁देशों	-1593
▁निर्ण	-1594
▁निवेश	-1595
▁विदेश	-1596
▁प्राधिक	-1597
▁साहित्य	-1598
¤	-1599
चल	-1600
तक	-1601
प्	-1602
मह	-1603
▁#	-1604
ंगा	-1605
ंगे	-1606
ुओं	-1607
▁गी	-1608
▁तू	-1609
धारण	-1610
र्ति	-1611
▁अला	-1612
▁तौर	-1613
▁अग्र	-1614
▁चुका	-1615
▁रहने	-1616
▁समाज	-1617
▁कंपनी	-1618
▁जानता	-1619
▁बंगाल	-1620
▁बच्चे	-1621
▁बाजार	-1622
▁सदस्य	-1623
▁दिल्ली	-1624
▁प्रबंधन	-1625
▁रिपोर्ट	-1626
▁नियंत्रण	-1627
ील	-1628
▁S	-1629
▁२	-1630
ंबर	-1631
तुम	-1632
▁चिक	-1633
▁दिए	-1634
▁लाख	-1635
▁कहीं	-1636
▁देगा	-1637
▁मिले	-1638
मंत्री	-1639
▁अज़ाब	-1640
▁यातना	-1641
▁अनुसंध	-1642
▁परिवार	-1643
▁स्थापित	-1644
▁मंत्रालय	-1645
▁निस्संदेह	-1646
मन	-1647
▁I	-1648
▁P	-1649
ंतर	-1650
जरा	-1651
यें	-1652
▁लॉ	-1653
कारा	-1654
ान्त	-1655
िस्ट	-1656
ीकरण	-1657
▁कवि	-1658
▁जीव	-1659
▁पेश	-1660
▁माँ	-1661
▁वाप	-1662
▁शहर	-1663
स्थ्य	-1664
▁भेजा	-1665
▁तुमने	-1666
▁हमेशा	-1667
▁पुस्तक	-1668
▁विकल्प	-1669
▁अंतर्गत	-1670
▁प्रारंभ	-1671
▁व्यवस्था	-1672
),	-1673
¤°	-1674
आर	-1675
ुग	-1676
▁।	-1677
पाद	-1678
हरण	-1679
▁10	-1680
▁आद	-1681
▁छा	-1682
▁बल	-1683
▁लं	-1684
र्जी	-1685
▁ज़ि	-1686
▁परी	-1687
▁श्र	-1688
▁साफ	-1689
न्यास	-1690
▁घटना	-1691
▁पहली	-1692
▁वहाँ	-1693
▁सच्च	-1694
▁सत्य	-1695
▁त्रुट	-1696
▁न्याय	-1697
▁हमारा	-1698
▁हस्ता	-1699
▁आधारित	-1700
▁प्रस्ता	-1701
▁संयुक्त	-1702
▁सम्बन्ध	-1703
▁अनुसंधान	-1704
ँच	-1705
जि	-1706
ज्	-1707
मि	-1708
चान	-1709
बाद	-1710
▁भि	-1711
र्जा	-1712
ामीण	-1713
▁उदा	-1714
▁पत्	-1715
▁रात	-1716
▁संच	-1717
▁सर्	-1718
▁साह	-1719
▁जांच	-1720
▁वक्त	-1721
▁जाएगी	-1722
▁देखते	-1723
▁मूल्य	-1724
▁विभाग	-1725
▁दृष्टि	-1726
▁निर्णय	-1727
▁उत्पादन	-1728
▁निश्चित	-1729
▁प्रशिक्ष	-1730
दय	-1731
दु	-1732
सू	-1733
▁9	-1734
000	-1735
टों	-1736
यात	-1737
▁एन	-1738
▁खे	-1739
▁झू	-1740
▁फल	-1741
rans	-1742
ख़िर	-1743
द्धा	-1744
स्ती	-1745
▁कृप	-1746
▁पुल	-1747
▁यक़	-1748
▁राम	-1749
▁राह	-1750
वस्था	-1751
▁name	-1752
▁न्यू	-1753
▁फाइल	-1754
▁बदला	-1755
▁बनाए	-1756
▁मूसा	-1757
▁रखता	-1758
▁रचना	-1759
▁लेते	-1760
▁शरीर	-1761
ग़म्बर	-1762
▁निशान	-1763
▁परंतु	-1764
▁पिछले	-1765
▁बातों	-1766
▁दक्षिण	-1767
▁यात्रा	-1768
▁लक्ष्य	-1769
▁सक्रिय	-1770
▁ग्रामीण	-1771
▁स्थापना	-1772
44	-1773
ँह	-1774
घा	-1775
थम	-1776
फा	-1777
ौम	-1778
▁_	-1779
▁k	-1780
म्ब	-1781
र्इ	-1782
वाई	-1783
ारण	-1784
ैंड	-1785
▁जे	-1786
धारा	-1787
राने	-1788
▁क्ल	-1789
▁जल्	-1790
▁डाक	-1791
▁बहु	-1792
▁निष्	-1793
▁संके	-1794
▁सहित	-1795
▁स्रो	-1796
▁चिकित	-1797
▁पुरुष	-1798
▁संपर्क	-1799
▁स्वास्थ्य	-1800
झा	-1801
यक	-1802
▁M	-1803
फिर	-1804
मिल	-1805
ोषण	-1806
▁अफ	-1807
▁उठ	-1808
▁डॉ	-1809
▁मॉ	-1810
क्या	-1811
हन्न	-1812
▁आयु	-1813
▁खेल	-1814
▁वार	-1815
दर्शन	-1816
दारों	-1817
▁छोटे	-1818
▁तत्व	-1819
▁पाया	-1820
▁राशि	-1821
▁हिंद	-1822
ransla	-1823
tional	-1824
▁अनुभव	-1825
▁कृपया	-1826
▁मंदिर	-1827
▁सुधार	-1828
▁त्रुटि	-1829
▁बच्चों	-1830
▁मनुष्य	-1831
▁स्थानी	-1832
▁हिस्सा	-1833
▁उत्पन्न	-1834
▁प्रधानमंत्री	-1835
?"	-1836
नाथ	-1837
न्ट	-1838
ल्म	-1839
▁11	-1840
▁इं	-1841
▁नव	-1842
कल्प	-1843
▁निर	-1844
▁जन्म	-1845
▁जहाँ	-1846
▁माना	-1847
▁लगता	-1848
▁सुना	-1849
▁अलावा	-1850
▁पहुँच	-1851
▁बेहतर	-1852
▁मृत्य	-1853
▁मौजूद	-1854
▁स्थित	-1855
▁पश्चिम	-1856
▁प्रदर्श	-1857
▁वित्तीय	-1858
▁स्थानीय	-1859
▁जिन्होंने	-1860
an	-1861
el	-1862
om	-1863
एफ	-1864
यु	-1865
िब	-1866
००	-1867
लाल	-1868
ेंट	-1869
▁रि	-1870
....	-1871
▁अधि	-1872
▁अनि	-1873
▁तहत	-1874
▁तीस	-1875
▁बचा	-1876
▁बाल	-1877
▁सेट	-1878
▁हित	-1879
▁आरंभ	-1880
▁इस्त	-1881
▁दिशा	-1882
▁बैठक	-1883
▁मिला	-1884
▁संसा	-1885
▁समझा	-1886
▁आसमान	-1887
▁जरूरत	-1888
▁देखने	-1889
ज्ञानिक	-1890
▁अंग्रे	-1891
▁पहुँचा	-1892
▁वृद्धि	-1893
▁विज्ञान	-1894
▁प्रस्ताव	-1895
gm	-1896
is	-1897
¤¿	-1898
कम	-1899
गि	-1900
पु	-1901
रि	-1902
वस	-1903
▁%	-1904
ity	-1905
गति	-1906
पात	-1907
र्द	-1908
श्त	-1909
्टी	-1910
▁(2	-1911
▁25	-1912
▁आन	-1913
▁खो	-1914
▁डी	-1915
▁नौ	-1916
नांक	-1917
लाइन	-1918
ियान	-1919
▁kgm	-1920
▁उन्	-1921
▁उल्	-1922
▁खुल	-1923
▁बने	-1924
▁भाई	-1925
वृत्त	-1926
▁क़ौम	-1927
▁निकट	-1928
▁पुनः	-1929
▁समिति	-1930
▁इतिहास	-1931
▁उत्पाद	-1932
▁प्रवेश	-1933
▁मृत्यु	-1934
▁वर्षों	-1935
▁सम्मान	-1936
optional	-1937
▁transla	-1938
▁अपेक्षा	-1939
▁निर्दिष्ट	-1940
ly	-1941
ंथ	-1942
जय	-1943
▁c	-1944
दूस	-1945
वीं	-1946
▁20	-1947
▁टै	-1948
Name	-1949
शाली	-1950
▁इंड	-1951
▁गुम	-1952
▁गैर	-1953
▁यूर	-1954
▁लें	-1955
▁सन्	-1956
▁हटा	-1957
▁भूमि	-1958
▁मुँह	-1959
▁लागत	-1960
▁लिखा	-1961
▁विधि	-1962
▁आवेदन	-1963
▁करोड़	-1964
▁ज़रूर	-1965
▁रुपये	-1966
▁सर्वर	-1967
▁सहायक	-1968
▁अवस्था	-1969
▁दिनांक	-1970
▁सम्मेल	-1971
▁अमेरिका	-1972
▁संविधान	-1973
▁प्रमाणपत्र	-1974
गल	-1975
वत	-1976
ीप	-1977
44;	-1978
तने	-1979
राम	-1980
सान	-1981
ियर	-1982
▁''	-1983
▁छि	-1984
▁तौ	-1985
▁भय	-1986
ार्ड	-1987
▁बोल	-1988
▁लौट	-1989
▁सोच	-1990
कर्ता	-1991
निश्च	-1992
▁#44;	-1993
▁अंति	-1994
▁कम्प	-1995
▁जवाब	-1996
▁जिला	-1997
▁निजी	-1998
▁प्रय	-1999
▁राजा	-2000
▁शासन	-2001
▁कानून	-2002
▁गुनाह	-2003
▁चुनें	-2004
▁दिखाई	-2005
▁बोर्ड	-2006
▁संशोध	-2007
▁प्रगति	-2008
▁प्रश्न	-2009
▁भूमिका	-2010
▁मात्रा	-2011
▁मुखर्जी	-2012
▁विस्तार	-2013
▁वैज्ञानिक	-2014
¤	-2015
टल	-2016
फ्	-2017
रो	-2018
ोड	-2019
▁@	-2020
ंसा	-2021
द्द	-2022
राह	-2023
▁अह	-2024
▁कप	-2025
▁टी	-2026
इयों	-2027
क्षम	-2028
त्सा	-2029
भूति	-2030
शिया	-2031
ुनिक	-2032
▁199	-2033
▁आशा	-2034
▁छवि	-2035
▁थीं	-2036
▁देव	-2037
▁नेट	-2038
▁बंद	-2039
▁बिल	-2040
▁मना	-2041
▁रहो	-2042
▁शाय	-2043
▁इतना	-2044
▁दुर्	-2045
▁प्रस	-2046
▁भीतर	-2047
▁मांग	-2048
▁वापस	-2049
▁संगी	-2050
▁संसद	-2051
▁अंतिम	-2052
▁अधिका	-2053
▁उपकरण	-2054
▁दिनों	-2055
▁पहचान	-2056
▁पुलिस	-2057
▁मालूम	-2058
▁विंडो	-2059
▁इस्तेम	-2060
▁उदाहरण	-2061
▁सरकारी	-2062
▁निर्यात	-2063
▁प्रतिनि	-2064
▁संभावना	-2065
▁सदस्यों	-2066
▁सामग्री	-2067
▁प्रशिक्षण	-2068
इल	-2069
गो	-2070
घु	-2071
मक	-2072
शल	-2073
काम	-2074
ख्स	-2075
लाई	-2076
ल्स	-2077
श्र	-2078
सित	-2079
्सा	-2080
▁pr	-2081
▁गठ	-2082
▁ति	-2083
▁तु	-2084
गरिक	-2085
साइट	-2086
ूँगा	-2087
्राम	-2088
्रेस	-2089
▁खरी	-2090
▁सका	-2091
ख़ुदा	-2092
▁कैसे	-2093
▁दर्श	-2094
▁रखना	-2095
स्थिति	-2096
▁अत्या	-2097
▁ऊर्जा	-2098
▁राजनी	-2099
▁शुल्क	-2100
▁दिखाएँ	-2101
▁केन्द्र	-2102
▁राज्यों	-2103
▁व्यवहार	-2104
▁सम्मेलन	-2105
▁इस्तेमाल	-2106
▁हस्ताक्षर	-2107
▁व्यक्तियों	-2108
):	-2109
ob	-2110
एन	-2111
खी	-2112
धर	-2113
कला	-2114
कान	-2115
खित	-2116
तंक	-2117
फ्त	-2118
भूत	-2119
यां	-2120
रीब	-2121
वरी	-2122
ौती	-2123
▁12	-2124
▁पक	-2125
▁पथ	-2126
क़्त	-2127
चारी	-2128
ड़ाई	-2129
ताब्	-2130
वाले	-2131
▁(1)	-2132
▁195	-2133
▁आवा	-2134
▁कमी	-2135
▁चले	-2136
▁दया	-2137
▁दाय	-2138
▁फ़र	-2139
▁भवि	-2140
▁भुग	-2141
▁रखे	-2142
▁विप	-2143
दूसरे	-2144
्यूटर	-2145
▁असफल	-2146
▁चुना	-2147
▁जाति	-2148
▁प्रभ	-2149
▁लेखा	-2150
▁शख्स	-2151
▁शायद	-2152
▁समझौ	-2153
पूर्वक	-2154
▁अध्या	-2155
▁इनमें	-2156
▁जहन्न	-2157
▁तंत्र	-2158
▁यक़ीन	-2159
▁विरोध	-2160
▁शताब्	-2161
▁सार्व	-2162
▁स्कूल	-2163
▁नागरिक	-2164
▁भविष्य	-2165
▁भुगतान	-2166
▁समर्थन	-2167
▁समाधान	-2168
▁विचारों	-2169
//	-2170
at	-2171
¥	-2172
एक	-2173
ृह	-2174
्ब	-2175
▁A	-2176
गाह	-2177
जित	-2178
बूत	-2179
भाष	-2180
सिक	-2181
ापन	-2182
िकी	-2183
ेंस	-2184
▁कट	-2185
▁दल	-2186
▁पस	-2187
▁पो	-2188
▁पौ	-2189
▁बौ	-2190
▁री	-2191
क्का	-2192
क्षक	-2193
भावी	-2194
वेयर	-2195
श्वर	-2196
ालिम	-2197
▁पहा	-2198
न्त्र	-2199
▁आपने	-2200
▁खाते	-2201
▁गुणव	-2202
▁तकनी	-2203
▁पसंद	-2204
▁प्रे	-2205
▁समार	-2206
▁अवश्य	-2207
▁आयतों	-2208
▁केन्द	-2209
▁चयनित	-2210
▁प्रकट	-2211
▁प्रणब	-2212
▁प्रथम	-2213
▁भावना	-2214
▁भिन्न	-2215
▁संगठन	-2216
▁संगीत	-2217
▁अनुमति	-2218
▁आधुनिक	-2219
▁आयोजित	-2220
▁जाएँगे	-2221
▁संग्रह	-2222
▁निशानियाँ	-2223
ar	-2224
चर	-2225
मू	-2226
यल	-2227
सत	-2228
ैक	-2229
▁R	-2230
▁̧	-2231
eed	-2232
न्व	-2233
बान	-2234
म्भ	-2235
याँ	-2236
र्त	-2237
ृति	-2238
ोगे	-2239
▁'%	-2240
▁do	-2241
▁आँ	-2242
▁ऊँ	-2243
▁बज	-2244
त्ति	-2245
वर्क	-2246
वाही	-2247
▁not	-2248
▁कमा	-2249
▁दिख	-2250
▁पाक	-2251
▁रेल	-2252
▁लाल	-2253
▁शुभ	-2254
क्रमण	-2255
ल्पना	-2256
▁आतंक	-2257
▁आदमी	-2258
▁खिला	-2259
▁पूरे	-2260
▁जिनके	-2261
▁जिसकी	-2262
▁यूरोप	-2263
▁पदार्थ	-2264
▁संबंधी	-2265
▁समारोह	-2266
▁वेबसाइट	-2267
▁गुणवत्ता	-2268
▁चिकित्सा	-2269
▁प्रभावित	-2270
▁केन्द्रीय	-2271
▁प्राकृतिक	-2272
उट	-2273
ठी	-2274
ाब	-2275
ुप	-2276
▁+	-2277
▁D	-2278
▁T	-2279
▁̈	-2280
://	-2281
ंगी	-2282
ंचा	-2283
तित	-2284
न्स	-2285
स्म	-2286
िको	-2287
िना	-2288
्टर	-2289
▁दू	-2290
▁धी	-2291
▁वो	-2292
obab	-2293
ज़िल	-2294
म्मे	-2295
ुदाय	-2296
ैसला	-2297
▁अना	-2298
▁गलत	-2299
▁फिल	-2300
▁फेर	-2301
▁संत	-2302
न्हें	-2303
राज्य	-2304
सलमान	-2305
▁need	-2306
▁उचित	-2307
▁कांग	-2308
▁किये	-2309
▁गुरु	-2310
▁चलता	-2311
▁चुकी	-2312
▁युवा	-2313
▁रहता	-2314
▁वायु	-2315
▁तुमको	-2316
▁बातें	-2317
▁मिलता	-2318
▁मुक्त	-2319
▁विद्व	-2320
▁स्रोत	-2321
▁अध्ययन	-2322
▁उपधारा	-2323
▁ज़ालिम	-2324
▁योगदान	-2325
▁श्रेणी	-2326
▁सुनिश्च	-2327
▁निर्धारण	-2328
▁पर्यावरण	-2329
▁प्रोत्सा	-2330
▁वास्तविक	-2331
्राष्ट्रीय	-2332
▁translation	-2333
aà	-2334
फे	-2335
बह	-2336
मय	-2337
कुल	-2338
ड्ड	-2339
साय	-2340
▁26	-2341
▁झग	-2342
▁सत	-2343
City	-2344
अपने	-2345
क्शन	-2346
ज़ार	-2347
ज्ञा	-2348
द्रा	-2349
वाला	-2350
ियार	-2351
▁कहो	-2352
▁ख़ु	-2353
▁गां	-2354
▁तेल	-2355
▁नदी	-2356
▁बनी	-2357
▁मास	-2358
▁रखो	-2359
▁शेष	-2360
▁सात	-2361
▁सीख	-2362
▁हक़	-2363
▁हाँ	-2364
कारों	-2365
प्रिय	-2366
▁does	-2367
▁नंबर	-2368
▁बयान	-2369
▁बुला	-2370
▁मिली	-2371
▁रक्त	-2372
▁सेना	-2373
obably	-2374
▁कोर्इ	-2375
▁क्षमा	-2376
▁डिस्क	-2377
▁मिलने	-2378
▁संकेत	-2379
▁उल्लेख	-2380
▁मंत्री	-2381
▁यक़ीनन	-2382
▁विकसित	-2383
▁विनिर्	-2384
▁अधिकांश	-2385
▁नेटवर्क	-2386
▁संरक्षण	-2387
▁probably	-2388
▁करनेवाला	-2389
▁पैग़म्बर	-2390
▁प्रकाशित	-2391
▁सुनिश्चित	-2392
il	-2393
इड	-2394
कद	-2395
दृ	-2396
सन	-2397
ेप	-2398
ंकन	-2399
किल	-2400
ताल	-2401
राज	-2402
र्ट	-2403
स्ल	-2404
ानि	-2405
▁15	-2406
▁ऑफ	-2407
▁बढ	-2408
▁भौ	-2409
▁सच	-2410
जनिक	-2411
यामत	-2412
र्चा	-2413
वर्ष	-2414
्रीन	-2415
▁आपस	-2416
▁कने	-2417
▁जाय	-2418
▁रिक	-2419
त्त्व	-2420
श्विक	-2421
▁अगले	-2422
▁अनुर	-2423
▁उनपर	-2424
▁काफ़	-2425
▁खाता	-2426
▁जैसी	-2427
▁तारी	-2428
▁देती	-2429
▁बदले	-2430
▁विजय	-2431
▁सख्त	-2432
नेवाले	-2433
ोग्राम	-2434
▁किंतु	-2435
▁दस्ता	-2436
▁दूसरा	-2437
▁दृष्ट	-2438
▁मजबूत	-2439
▁संपाद	-2440
▁सफलता	-2441
▁सर्वो	-2442
▁अधिकतर	-2443
▁चाहिये	-2444
▁पश्चात	-2445
▁विदेशी	-2446
▁व्यापक	-2447
व्यवस्था	-2448
▁अध्यक्ष	-2449
▁प्रभावी	-2450
▁शताब्दी	-2451
राष्ट्रीय	-2452
▁सार्वजनिक	-2453
di	-2454
st	-2455
tp	-2456
शु	-2457
ज़े	-2458
ड़क	-2459
तरा	-2460
लिक	-2461
▁ht	-2462
▁उल	-2463
▁चर	-2464
▁दश	-2465
▁बख	-2466
ंपरा	-2467
जूदा	-2468
थमिक	-2469
दर्भ	-2470
वजूद	-2471
स्वी	-2472
ार्म	-2473
▁खुद	-2474
▁चैन	-2475
▁जित	-2476
▁दुख	-2477
▁प्ल	-2478
▁मही	-2479
▁माह	-2480
▁सिक	-2481
▁सिर	-2482
कालीन	-2483
त्रों	-2484
द्रीय	-2485
ार्थी	-2486
▁http	-2487
▁अनुप	-2488
▁अपील	-2489
▁ख़बर	-2490
▁जाँच	-2491
▁ट्रै	-2492
▁डाला	-2493
▁बाग़	-2494
▁मुद्	-2495
योक्ता	-2496
स्वरूप	-2497
▁ग्राह	-2498
▁तुमपर	-2499
▁पुरस्	-2500
▁संसार	-2501
▁मौजूदा	-2502
▁वीडियो	-2503
▁शब्दों	-2504
▁संदर्भ	-2505
▁निर्मित	-2506
▁विरुद्ध	-2507
▁कांग्रेस	-2508
▁प्राथमिक	-2509
et	-2510
थि	-2511
नु	-2512
बत	-2513
शय	-2514
सु	-2515
हि	-2516
ँकि	-2517
ंकि	-2518
ंडल	-2519
घ्र	-2520
पास	-2521
फ्ट	-2522
भाल	-2523
र्ग	-2524
र्ड	-2525
स्य	-2526
ोलन	-2527
्वी	-2528
▁वज	-2529
▁वर	-2530
राही	-2531
ल्ला	-2532
स्पर	-2533
ायों	-2534
ुत्व	-2535
▁अता	-2536
▁ईसा	-2537
▁कदम	-2538
▁खास	-2539
▁चीज	-2540
▁तत्	-2541
▁दशा	-2542
▁युग	-2543
▁विध	-2544
▁सित	-2545
▁हैः	-2546
लिखित	-2547
वर्ती	-2548
▁इतनी	-2549
▁उद्य	-2550
▁क़ुर	-2551
▁ठहरा	-2552
▁पद्ध	-2553
▁बाज़	-2554
▁भागी	-2555
▁लाने	-2556
▁विभा	-2557
▁संभव	-2558
नेवाला	-2559
▁आख़िर	-2560
▁ईश्वर	-2561
▁कोशिश	-2562
▁खाद्य	-2563
▁चर्चा	-2564
▁मालिक	-2565
▁शुक्र	-2566
▁अनुप्र	-2567
▁छोड़कर	-2568
▁तुममें	-2569
▁परंपरा	-2570
▁बन्दों	-2571
▁बावजूद	-2572
▁बैंकों	-2573
▁मुद्रा	-2574
▁हिन्दी	-2575
▁प्रकृति	-2576
nt	-2577
vi	-2578
णा	-2579
णि	-2580
तो	-2581
नर	-2582
पे	-2583
बु	-2584
रल	-2585
्प	-2586
जीव	-2587
देव	-2588
म्र	-2589
हरे	-2590
ेषण	-2591
▁1.	-2592
▁एम	-2593
▁ढा	-2594
▁हृ	-2595
ड़ों	-2596
न्दा	-2597
फ़ार	-2598
लग्न	-2599
ासिल	-2600
▁आते	-2601
▁कलक	-2602
▁झूठ	-2603
▁ध्व	-2604
▁पीठ	-2605
▁पेट	-2606
▁बाप	-2607
▁भली	-2608
▁मेल	-2609
▁रकम	-2610
▁रखी	-2611
▁लघु	-2612
▁वजह	-2613
▁सरक	-2614
द्यपि	-2615
वालों	-2616
▁क्रम	-2617
▁दिवस	-2618
▁पर्व	-2619
▁मिटा	-2620
▁आत्मा	-2621
▁तरीके	-2622
▁वार्ष	-2623
▁विवाह	-2624
▁शिकाय	-2625
चारियों	-2626
▁आकाशों	-2627
▁संकल्प	-2628
▁समुद्र	-2629
ार्थियों	-2630
▁मुसलमान	-2631
▁वैश्विक	-2632
▁औद्योगिक	-2633
▁प्रयुक्त	-2634
▁व्यक्तिगत	-2635
.1	-2636
ग्	-2637
थर	-2638
षद	-2639
▁B	-2640
▁E	-2641
▁p	-2642
▁̄	-2643
nic	-2644
ंगल	-2645
ढ़ी	-2646
बूल	-2647
बोध	-2648
लाम	-2649
ुता	-2650
्रॉ	-2651
▁17	-2652
▁कथ	-2653
▁गं	-2654
▁मश	-2655
▁वन	-2656
▁सृ	-2657
कर्ष	-2658
न्ना	-2659
मारी	-2660
मीटर	-2661
्याण	-2662
▁196	-2663
▁असम	-2664
▁आती	-2665
▁गैस	-2666
▁चाल	-2667
▁ढंग	-2668
▁नये	-2669
▁नसी	-2670
▁भंड	-2671
▁मोह	-2672
▁राय	-2673
▁लम्	-2674
▁संय	-2675
▁समृ	-2676
▁स्म	-2677
च्छेद	-2678
धिकार	-2679
वार्य	-2680
्यालय	-2681
▁अपरा	-2682
▁आयोग	-2683
▁इजरा	-2684
▁कहना	-2685
▁खर्च	-2686
▁घरों	-2687
▁छोटा	-2688
▁छोटी	-2689
▁डेटा	-2690
▁पाने	-2691
▁पिता	-2692
▁मेहर	-2693
▁विधे	-2694
▁वेतन	-2695
▁सकें	-2696
▁इच्छा	-2697
▁उपबंध	-2698
▁कुंजी	-2699
▁देंगे	-2700
▁देखें	-2701
▁निदेश	-2702
▁मानते	-2703
▁मिलकर	-2704
▁रक्षा	-2705
▁वर्णन	-2706
▁विमान	-2707
▁शांति	-2708
▁संक्ष	-2709
▁सक्षम	-2710
▁स्त्र	-2711
क्षेत्र	-2712
तिहासिक	-2713
▁अभिलेख	-2714
▁इन्हें	-2715
▁बुद्धि	-2716
▁सेवाओं	-2717
▁अत्यन्त	-2718
▁कलकत्ता	-2719
▁झुठलाया	-2720
▁दस्तावे	-2721
▁परीक्षा	-2722
▁हालाँकि	-2723
▁अनिवार्य	-2724
▁केंद्रीय	-2725
▁पर्याप्त	-2726
▁सुरक्षित	-2727
▁करनेवालों	-2728
▁अंतर्राष्ट्रीय	-2729
20	-2730
ऊण	-2731
झी	-2732
पक	-2733
लब	-2734
▁{	-2735
her	-2736
htm	-2737
गढ़	-2738
धाई	-2739
मिन	-2740
रान	-2741
रीय	-2742
र्न	-2743
वहन	-2744
हीन	-2745
िमी	-2746
ोरी	-2747
्ष्	-2748
▁इब	-2749
▁गि	-2750
▁टन	-2751
▁भग	-2752
,000	-2753
ंद्र	-2754
ऊण्श	-2755
किंग	-2756
गिज़	-2757
वधान	-2758
ाहिर	-2759
िकोण	-2760
▁आंद	-2761
▁इका	-2762
▁किन	-2763
▁छुट	-2764
▁तुल	-2765
▁दोष	-2766
▁नगर	-2767
▁पहल	-2768
▁पाल	-2769
▁पैर	-2770
▁रोज	-2771
▁सरल	-2772
्छ्ष्	-2773
▁अनुक	-2774
▁उसपर	-2775
▁कठिन	-2776
▁नियत	-2777
▁पंजी	-2778
▁फरमा	-2779
▁भोजन	-2780
▁रहें	-2781
▁रेखा	-2782
▁सलाह	-2783
▁सारा	-2784
▁हमसे	-2785
▁अफ्री	-2786
▁कराने	-2787
▁नसीहत	-2788
▁पूंजी	-2789
▁बनाएँ	-2790
▁मार्च	-2791
▁वायदा	-2792
▁विधान	-2793
▁शीघ्र	-2794
▁सत्ता	-2795
▁हासिल	-2796
▁अभिव्य	-2797
▁जाएंगे	-2798
▁नाज़िल	-2799
▁पहुंचा	-2800
▁प्रतिक	-2801
▁प्रतीक	-2802
▁मिट्टी	-2803
▁यद्यपि	-2804
▁समाचार	-2805
▁आतंकवाद	-2806
▁उपन्यास	-2807
▁उपयुक्त	-2808
▁नियुक्त	-2809
▁महात्मा	-2810
▁विस्तृत	-2811
ऊण्श्छ्ष्	-2812
▁पुरस्कार	-2813
▁लोकप्रिय	-2814
▁अनुप्रयोग	-2815
)।	-2816
le	-2817
¤2	-2818
कत	-2819
दो	-2820
बि	-2821
सव	-2822
ूद	-2823
ॉप	-2824
ंदा	-2825
खंड	-2826
खिल	-2827
जिए	-2828
तया	-2829
पुट	-2830
रार	-2831
सभा	-2832
्वर	-2833
▁13	-2834
▁14	-2835
▁16	-2836
▁30	-2837
▁ऑन	-2838
▁नर	-2839
▁शक	-2840
▁हद	-2841
▁१९	-2842
डिया	-2843
ध्या	-2844
न्दर	-2845
न्या	-2846
भाषा	-2847
रिया	-2848
ैतिक	-2849
▁अक्	-2850
▁आता	-2851
▁ऊंच	-2852
▁खूब	-2853
▁बर्	-2854
▁भूल	-2855
▁मंच	-2856
ल्लाह	-2857
▁कठोर	-2858
▁कानू	-2859
▁खेती	-2860
▁चुने	-2861
▁छिपा	-2862
▁पर्य	-2863
▁पांच	-2864
▁प्ले	-2865
▁बधाई	-2866
▁ब्रा	-2867
▁सबको	-2868
▁हालत	-2869
▁उपचार	-2870
▁काव्य	-2871
▁खुलती	-2872
▁गिरोह	-2873
▁पुकार	-2874
▁बढ़कर	-2875
▁बताया	-2876
▁बौद्ध	-2877
▁मैदान	-2878
▁विशाल	-2879
विधियों	-2880
▁उन्हीं	-2881
▁कल्याण	-2882
▁ज़ाहिर	-2883
▁जोड़ें	-2884
▁निर्भर	-2885
▁रहेंगे	-2886
▁संशोधन	-2887
▁समुदाय	-2888
▁जहन्नुम	-2889
▁प्रसन्न	-2890
▁विशेषता	-2891
▁कंप्यूटर	-2892
▁कार्यालय	-2893
▁प्रभुत्व	-2894
▁क्षेत्रीय	-2895
▁संस्थानों	-2896
▁निर्धारिती	-2897
▁प्राधिकारी	-2898
▁कार्यक्रमों	-2899
यह	-2900
ाक	-2901
ुन	-2902
ुस	-2903
▁३	-2904
ंता	-2905
अलग	-2906
ओगे	-2907
नतम	-2908
ब्र	-2909
भीर	-2910
भूम	-2911
मीर	-2912
लीफ	-2913
वोल	-2914
ेगा	-2915
ोने	-2916
▁अक	-2917
▁एल	-2918
▁एह	-2919
▁तथ	-2920
▁फि	-2921
▁बॉ	-2922
▁हथ	-2923
पादन	-2924
प्ता	-2925
ुमार	-2926
ूंगा	-2927
ेक्ट	-2928
▁अंक	-2929
▁इला	-2930
▁गाँ	-2931
▁गाय	-2932
▁जून	-2933
▁मुझ	-2934
जिस्ट	-2935
ज्ञात	-2936
िकाओं	-2937
िश्ते	-2938
्यूशन	-2939
▁आपका	-2940
▁खरीद	-2941
▁घोषण	-2942
▁निगम	-2943
▁पंजा	-2944
▁पड़ा	-2945
▁पार्	-2946
▁पालन	-2947
▁मुक़	-2948
▁रखें	-2949
▁वाता	-2950
▁संदे	-2951
▁सारी	-2952
▁इत्या	-2953
▁इस्ला	-2954
▁जरूरी	-2955
▁दृश्य	-2956
▁पुनर्	-2957
▁यंत्र	-2958
▁योग्य	-2959
▁लगाने	-2960
▁वाद्य	-2961
▁शास्त	-2962
▁संचार	-2963
▁इजरायल	-2964
▁पुराने	-2965
▁विंडों	-2966
▁संरचना	-2967
▁संसाधन	-2968
▁उपस्थित	-2969
▁पश्चिमी	-2970
▁स्क्रीन	-2971
▁अंग्रेजी	-2972
▁ऐतिहासिक	-2973
▁राजनीतिक	-2974
▁लोकतंत्र	-2975
▁संस्कृति	-2976
▁प्रोग्राम	-2977
▁अधिकारियों	-2978
▁अर्थव्यवस्था	-2979
-0	-2980
re	-2981
¤¤	-2982
फर	-2983
वै	-2984
▁O	-2985
▁U	-2986
▁w	-2987
एगा	-2988
करी	-2989
चीन	-2990
पों	-2991
फिक	-2992
बाई	-2993
बाह	-2994
मैं	-2995
ह्न	-2996
ात्	-2997
ानु	-2998
▁50	-2999
▁आठ	-3000
▁एफ	-3001
▁चू	-3002
▁सश	-3003
pres	-3004
कड़ी	-3005
क्टर	-3006
दायत	-3007
बाइल	-3008
भूमि	-3009
ॉन्ट	-3010
▁(19	-3011
▁आँख	-3012
▁आउट	-3013
▁उपा	-3014
▁कदा	-3015
▁खुश	-3016
▁गीत	-3017
▁चढ़	-3018
▁नमा	-3019
▁ब्ल	-3020
▁मिस	-3021
▁मुह	-3022
▁शोध	-3023
▁हवा	-3024
कृष्ट	-3025
क्रिय	-3026
तुम्ह	-3027
ल्कुल	-3028
▁आयात	-3029
▁इंटर	-3030
▁इनके	-3031
▁क़सम	-3032
▁तरफ़	-3033
▁दृढ़	-3034
▁धार्	-3035
▁नाटक	-3036
▁नेहर	-3037
▁बैठे	-3038
▁भारी	-3039
▁लेखक	-3040
▁व्यय	-3041
▁शेयर	-3042
▁शैली	-3043
▁सबके	-3044
▁सिक्	-3045
▁हजार	-3046
▁उत्तम	-3047
▁जल्दी	-3048
▁जिसको	-3049
▁दर्शा	-3050
▁महारा	-3051
▁सत्या	-3052
▁सांस्	-3053
▁हाथों	-3054
▁अत्यंत	-3055
▁आंदोलन	-3056
▁ऑनलाइन	-3057
▁कल्पना	-3058
▁क़यामत	-3059
▁जायेगा	-3060
▁नियमों	-3061
▁परस्पर	-3062
▁प्रशास	-3063
▁मामलों	-3064
▁विधेयक	-3065
▁किसानों	-3066
▁धार्मिक	-3067
▁संपत्ति	-3068
▁कर्मचारी	-3069
▁प्रतिनिध	-3070
▁प्रतिष्ठ	-3071
▁दृष्टिकोण	-3072
▁प्रदर्शित	-3073
▁गतिविधियों	-3074
▁अंतरराष्ट्रीय	-3075
as	-3076
¤1	-3077
औन	-3078
खर	-3079
नो	-3080
यण	-3081
ॉन	-3082
▁b	-3083
ंबई	-3084
ज़त	-3085
ताव	-3086
दित	-3087
फ़र	-3088
राब	-3089
लोड	-3090
विल	-3091
वीय	-3092
साथ	-3093
सों	-3094
हाद	-3095
ोजी	-3096
्ठा	-3097
▁(%	-3098
▁चम	-3099
▁पल	-3100
▁रौ	-3101
▁शो	-3102
▁हट	-3103
ment	-3104
ंखला	-3105
क्सी	-3106
बारा	-3107
मेंट	-3108
म्मद	-3109
स्टम	-3110
िप्त	-3111
ैनिक	-3112
▁100	-3113
▁194	-3114
▁अरब	-3115
▁आंक	-3116
▁इले	-3117
▁कथा	-3118
▁काग	-3119
▁कृत	-3120
▁चरण	-3121
▁जोर	-3122
▁टुक	-3123
▁तेज	-3124
▁दीन	-3125
▁पृथ	-3126
▁फाय	-3127
▁बाग	-3128
▁मस्	-3129
▁शर्	-3130
▁साइ	-3131
कामना	-3132
वर्तन	-3133
ष्ट्र	-3134
▁आपकी	-3135
▁करनी	-3136
▁काले	-3137
▁कुफ्	-3138
▁खुला	-3139
▁जल्द	-3140
▁जादू	-3141
▁परिच	-3142
▁मिशन	-3143
▁मौसम	-3144
▁रहती	-3145
▁रहना	-3146
▁रीति	-3147
▁लेना	-3148
▁विफल	-3149
▁विरा	-3150
▁सीधे	-3151
▁स्थल	-3152
दुनिया	-3153
द्धांत	-3154
▁अर्था	-3155
▁आदर्श	-3156
▁आरम्भ	-3157
▁एशिया	-3158
▁औरतों	-3159
▁काफिर	-3160
▁गंभीर	-3161
▁घोषणा	-3162
▁ज़रुर	-3163
▁जिनका	-3164
▁जीवित	-3165
▁तस्वी	-3166
▁द्वार	-3167
▁नमाज़	-3168
▁नेहरू	-3169
▁प्राय	-3170
▁प्रेर	-3171
▁महामह	-3172
▁सच्चे	-3173
▁समन्व	-3174
▁सिद्ध	-3175
कर्ताओं	-3176
▁अध्याय	-3177
▁तकनीकी	-3178
▁बढ़ावा	-3179
▁शीर्षक	-3180
▁स्थायी	-3181
▁स्वच्छ	-3182
▁स्वागत	-3183
▁स्वामी	-3184
▁हिदायत	-3185
▁अफ्रीका	-3186
▁कार्यों	-3187
▁नीतियों	-3188
▁न्यूनतम	-3189
▁बिल्कुल	-3190
▁महिलाओं	-3191
▁वस्तुओं	-3192
▁वातावरण	-3193
▁वार्षिक	-3194
▁विद्युत	-3195
▁हालांकि	-3196
▁अनुच्छेद	-3197
▁मार्गदर्शन	-3198
4)	-3199
ac	-3200
ee	-3201
ii	-3202
ou	-3203
एल	-3204
घन	-3205
डर	-3206
डि	-3207
तल	-3208
नन	-3209
पट	-3210
पै	-3211
ीब	-3212
ौल	-3213
▁F	-3214
जिट	-3215
ट्र	-3216
तौर	-3217
नेट	-3218
परि	-3219
फार	-3220
रेट	-3221
ष्क	-3222
ियत	-3223
▁अं	-3224
▁अश	-3225
▁एज	-3226
▁मस	-3227
▁लु	-3228
▁सज	-3229
▁सफ	-3230
▁सॉ	-3231
▁हल	-3232
-201	-3233
ंगिक	-3234
क्षी	-3235
धनों	-3236
सनीय	-3237
स्ते	-3238
▁(2)	-3239
▁197	-3240
▁अवि	-3241
▁एका	-3242
▁कूट	-3243
▁गृह	-3244
▁चेह	-3245
▁डाय	-3246
▁ताल	-3247
▁पति	-3248
▁पाए	-3249
▁बिक	-3250
▁मिन	-3251
▁यथा	-3252
▁वाह	-3253
▁सदन	-3254
▁सुख	-3255
चारिक	-3256
न्दगी	-3257
प्ताह	-3258
बाहरी	-3259
श्मीर	-3260
स्त्र	-3261
ृंखला	-3262
▁अप्र	-3263
▁अस्त	-3264
▁एवोल	-3265
▁करार	-3266
▁खुशी	-3267
▁गठित	-3268
▁ग्रह	-3269
▁चलते	-3270
▁धारण	-3271
▁निधि	-3272
▁पूछा	-3273
▁फिली	-3274
▁बख्श	-3275
▁भाषण	-3276
▁मज़ा	-3277
▁मानक	-3278
▁लेता	-3279
▁साझी	-3280
▁सीता	-3281
▁सुबह	-3282
▁स्वर	-3283
▁हृदय	-3284
्यान्व	-3285
▁अंतरण	-3286
▁अनुमो	-3287
▁उठाने	-3288
▁उद्घा	-3289
▁कठिना	-3290
▁ख़र्च	-3291
▁खिलाफ	-3292
▁जनवरी	-3293
▁दिलों	-3294
▁पत्थर	-3295
▁पारित	-3296
▁प्रदू	-3297
▁प्रसि	-3298
▁बनाते	-3299
▁बाहरी	-3300
▁विविध	-3301
▁व्याव	-3302
▁समझते	-3303
▁सर्वा	-3304
▁सामना	-3305
▁हत्या	-3306
नेवालों	-3307
▁अनुकूल	-3308
▁इलेक्ट	-3309
▁कहेंगे	-3310
▁जिम्मे	-3311
▁पद्धति	-3312
▁प्रचार	-3313
▁फ़ैसला	-3314
▁मोबाइल	-3315
▁विश्ले	-3316
▁शिकायत	-3317
▁संघर्ष	-3318
▁साधारण	-3319
▁हरगिज़	-3320
▁इत्यादि	-3321
▁दायित्व	-3322
▁प्रशासन	-3323
▁महत्त्व	-3324
▁महामहिम	-3325
▁संबंधों	-3326
▁संस्करण	-3327
▁सरकारों	-3328
▁अधिकारों	-3329
▁प्रयासों	-3330
▁एवोल्यूशन	-3331
▁कार्यान्व	-3332
▁निष्क्रिय	-3333
he	-3334
ol	-3335
अर	-3336
खे	-3337
गण	-3338
टि	-3339
पथ	-3340
पल	-3341
यत	-3342
वह	-3343
सब	-3344
हे	-3345
ैव	-3346
▁Z	-3347
ंडा	-3348
जनक	-3349
तृत	-3350
दास	-3351
दिन	-3352
दीय	-3353
नाम	-3354
बित	-3355
रज़	-3356
लें	-3357
वें	-3358
ुत्	-3359
्वा	-3360
▁आश	-3361
▁एच	-3362
▁जय	-3363
▁झा	-3364
▁फे	-3365
▁बू	-3366
▁मध	-3367
चलित	-3368
द्री	-3369
म्मी	-3370
र्वा	-3371
ालिब	-3372
ितीय	-3373
्यास	-3374
्राइ	-3375
्वाह	-3376
▁असा	-3377
▁इकट	-3378
▁उपभ	-3379
▁चली	-3380
▁ढूं	-3381
▁फोन	-3382
▁बजा	-3383
▁बिज	-3384
▁बोझ	-3385
▁लॉग	-3386
▁विल	-3387
▁सुल	-3388
तृत्व	-3389
दर्शी	-3390
दियों	-3391
भाषित	-3392
वान्व	-3393
ामर्श	-3394
्रांस	-3395
▁अद्य	-3396
▁अधिस	-3397
▁उन्न	-3398
▁उपाय	-3399
▁करीब	-3400
▁खाली	-3401
▁गवाह	-3402
▁गहरा	-3403
▁झगड़	-3404
▁डाउन	-3405
▁तमिल	-3406
▁तेरे	-3407
▁दिला	-3408
▁दीर्	-3409
▁धीरे	-3410
▁पेड़	-3411
▁प्रच	-3412
▁फ़िल	-3413
▁बनाई	-3414
▁ब्या	-3415
▁मानो	-3416
▁मीटर	-3417
▁मुकद	-3418
▁लोगो	-3419
▁सत्र	-3420
▁सहेज	-3421
▁साफ़	-3422
संख्या	-3423
▁अनुसू	-3424
▁अपराध	-3425
▁उद्यम	-3426
▁एकत्र	-3427
▁कटौती	-3428
▁खोलें	-3429
▁गुज़र	-3430
▁जानवर	-3431
▁जुड़े	-3432
▁तारीख	-3433
▁थोड़ा	-3434
▁देखता	-3435
▁परिषद	-3436
▁पात्र	-3437
▁बनाकर	-3438
▁बनाना	-3439
▁वर्षा	-3440
▁विवाद	-3441
▁सर्वे	-3442
▁सीमित	-3443
▁सुंदर	-3444
▁स्तंभ	-3445
▁हिंदू	-3446
क्तियों	-3447
विज्ञान	-3448
▁अधिकतम	-3449
▁इस्लाम	-3450
▁काफ़िर	-3451
▁जिनमें	-3452
▁नवान्व	-3453
▁निरंतर	-3454
▁बुनिया	-3455
▁रजिस्ट	-3456
▁लगातार	-3457
▁संलग्न	-3458
▁संविदा	-3459
▁सप्ताह	-3460
▁स्त्री	-3461
▁स्वरूप	-3462
कारात्मक	-3463
▁ईमानदार	-3464
▁कनेक्शन	-3465
▁गणराज्य	-3466
▁परामर्श	-3467
▁संपूर्ण	-3468
▁स्थानों	-3469
▁परिस्थित	-3470
▁भागीदारी	-3471
▁शुभकामना	-3472
▁सिद्धांत	-3473
▁निम्नलिखित	-3474
▁प्रोत्साहन	-3475
▁सांस्कृतिक	-3476
▁कर्मचारियों	-3477
▁विनिर्दिष्ट	-3478
▁परिणामस्वरूप	-3479
2,	-3480
3)	-3481
:-	-3482
of	-3483
आत	-3484
कू	-3485
डल	-3486
पह	-3487
यम	-3488
लम	-3489
शे	-3490
शो	-3491
िज	-3492
▁H	-3493
▁m	-3494
-19	-3495
ail	-3496
ent	-3497
ँति	-3498
कलन	-3499
कीय	-3500
कुछ	-3501
गमन	-3502
गैर	-3503
परी	-3504
पान	-3505
साह	-3506
स्फ	-3507
ालत	-3508
िनी	-3509
ियल	-3510
ोकन	-3511
▁27	-3512
▁अज	-3513
▁आइ	-3514
▁घट	-3515
▁चै	-3516
▁तय	-3517
▁दौ	-3518
▁पत	-3519
▁फी	-3520
▁मई	-3521
त्तर	-3522
धानी	-3523
मतौर	-3524
माने	-3525
वायु	-3526
ष्टा	-3527
ालित	-3528
िप्प	-3529
ेषित	-3530
ोषित	-3531
्रेड	-3532
▁198	-3533
▁अंश	-3534
▁अब्	-3535
▁क़ा	-3536
▁काट	-3537
▁गोल	-3538
▁गौर	-3539
▁ठिक	-3540
▁तभी	-3541
▁तुर	-3542
▁दबा	-3543
▁देर	-3544
▁द्र	-3545
▁परा	-3546
▁भ्र	-3547
▁लगी	-3548
▁लोड	-3549
▁शख़	-3550
▁सूर	-3551
▁होम	-3552
वित्र	-3553
श्किल	-3554
स्लिम	-3555
▁अगला	-3556
▁इनका	-3557
▁उम्र	-3558
▁खाना	-3559
▁खुली	-3560
▁खुले	-3561
▁जमीन	-3562
▁डाटा	-3563
▁ढूंढ	-3564
▁तर्क	-3565
▁तेजी	-3566
▁देवी	-3567
▁नामक	-3568
▁पकड़	-3569
▁परेश	-3570
▁पहला	-3571
▁फैला	-3572
▁बजाय	-3573
▁बुरी	-3574
▁मतलब	-3575
▁यूनि	-3576
▁लगते	-3577
▁लिखी	-3578
▁वाक़	-3579
▁संगम	-3580
अल्लाह	-3581
ड़ियों	-3582
िश्तों	-3583
▁अगस्त	-3584
▁अधिसू	-3585
▁आनन्द	-3586
▁कविता	-3587
▁कृष्ण	-3588
▁ग्रंथ	-3589
▁जिनको	-3590
▁तरीका	-3591
▁तुलना	-3592
▁निहित	-3593
▁पंजाब	-3594
▁पट्टी	-3595
▁प्रवि	-3596
▁बदलने	-3597
▁भगवान	-3598
▁मात्र	-3599
▁मोमिन	-3600
▁रहेगा	-3601
▁लगाया	-3602
▁लिखित	-3603
▁लेंगे	-3604
▁शिकार	-3605
▁समक्ष	-3606
▁सरकशी	-3607
▁इंडिया	-3608
▁ग्राहक	-3609
▁नियमित	-3610
▁पंक्ति	-3611
▁फ़ॉन्ट	-3612
▁बढ़ाने	-3613
▁बन्दगी	-3614
▁मिलियन	-3615
▁विनियम	-3616
▁सिस्टम	-3617
▁हथियार	-3618
........	-3619
▁अत्यधिक	-3620
▁उद्घाटन	-3621
▁नेतृत्व	-3622
▁मुद्दों	-3623
▁मुश्किल	-3624
▁मूल्यों	-3625
▁श्रेणीः	-3626
▁संपादित	-3627
▁उत्कृष्ट	-3628
▁प्राप्ति	-3629
▁विश्लेषण	-3630
▁समस्याओं	-3631
▁परिवर्तित	-3632
▁प्रत्यक्ष	-3633
▁प्रारंभिक	-3634
▁संक्षिप्त	-3635
▁सर्वेक्षण	-3636
▁साहित्यिक	-3637
▁निर्देशिका	-3638
th	-3639
आन	-3640
णु	-3641
मल	-3642
वृ	-3643
ूत	-3644
चीत	-3645
जात	-3646
टिल	-3647
त्न	-3648
दरत	-3649
माल	-3650
म्स	-3651
लीन	-3652
िफ़	-3653
्वे	-3654
▁21	-3655
▁औष	-3656
▁दस	-3657
▁फा	-3658
▁मल	-3659
अपनी	-3660
आईटी	-3661
एँगे	-3662
तरित	-3663
दाता	-3664
प्रे	-3665
मर्श	-3666
मानी	-3667
शाला	-3668
शासन	-3669
संस्	-3670
साफ़	-3671
ोबार	-3672
्रैल	-3673
▁अका	-3674
▁अदा	-3675
▁आंख	-3676
▁इंज	-3677
▁उड़	-3678
▁क़ु	-3679
▁कोड	-3680
▁कोल	-3681
▁घटा	-3682
▁टैब	-3683
▁तार	-3684
▁नहर	-3685
▁पाइ	-3686
▁फ्ल	-3687
▁वित	-3688
▁शक़	-3689
▁समी	-3690
▁हार	-3691
▁२००	-3692
आख़िर	-3693
क्ष्म	-3694
णिज्य	-3695
त्मिक	-3696
नियों	-3697
मात्र	-3698
राहीम	-3699
ोजीशन	-3700
्रिया	-3701
▁अंदर	-3702
▁अभिय	-3703
▁अल्प	-3704
▁अस्थ	-3705
▁आसान	-3706
▁कर्त	-3707
▁कुशल	-3708
▁खड़ा	-3709
▁खड़े	-3710
▁गंगा	-3711
▁गांव	-3712
▁जर्म	-3713
▁तिथि	-3714
▁दयाल	-3715
▁दर्द	-3716
▁दिये	-3717
▁दूरी	-3718
▁नज़र	-3719
▁निभा	-3720
▁पैरा	-3721
▁बहुम	-3722
▁रद्द	-3723
▁शुरु	-3724
▁स्ना	-3725
omment	-3726
वृत्ति	-3727
्रॉनिक	-3728
▁आमतौर	-3729
▁आयोजन	-3730
▁आसपास	-3731
▁आसानी	-3732
▁क्लिक	-3733
▁चुनाव	-3734
▁जवाहर	-3735
▁दर्शन	-3736
▁दोस्त	-3737
▁दोहरा	-3738
▁नृत्य	-3739
▁पोर्ट	-3740
▁बदलें	-3741
▁ब्याज	-3742
▁लकड़ी	-3743
▁लक्षण	-3744
▁शहरों	-3745
▁संग्र	-3746
▁साबित	-3747
▁सामान	-3748
▁स्थिर	-3749
▁अद्यतन	-3750
▁अनुसरण	-3751
▁अप्रैल	-3752
▁अवतरित	-3753
▁इकट्ठा	-3754
▁उपयोगी	-3755
▁कारबार	-3756
▁गिरफ्त	-3757
▁ठिकाना	-3758
▁तस्वीर	-3759
▁देखभाल	-3760
▁पूर्वा	-3761
▁पोजीशन	-3762
▁बातचीत	-3763
▁बिक्री	-3764
▁भाषाओं	-3765
▁मानसिक	-3766
▁सम्मिल	-3767
▁हिन्दू	-3768
▁इबराहीम	-3769
▁डाउनलोड	-3770
▁प्राचीन	-3771
▁फ़िल्टर	-3772
▁योग्यता	-3773
▁वाणिज्य	-3774
▁संस्कृत	-3775
▁प्रसिद्ध	-3776
▁व्याख्या	-3777
▁संस्थाओं	-3778
▁ईमानदारों	-3779
▁पृष्ठभूमि	-3780
▁प्रतीक्षा	-3781
▁प्रतिनिधित्व	-3782
-#	-3783
--	-3784
50	-3785
:%	-3786
>>	-3787
ur	-3788
us	-3789
आप	-3790
जल	-3791
जै	-3792
दल	-3793
भु	-3794
वक	-3795
वण	-3796
ुआ	-3797
▁G	-3798
▁N	-3799
▁५	-3800
ंका	-3801
ंटे	-3802
ंदु	-3803
कात	-3804
केट	-3805
गोल	-3806
जिस	-3807
णों	-3808
दिक	-3809
दूर	-3810
बंद	-3811
बूझ	-3812
माम	-3813
र्ज	-3814
विक	-3815
संग	-3816
ायी	-3817
िपि	-3818
ेंद	-3819
ोटो	-3820
ोपण	-3821
्यु	-3822
▁28	-3823
▁उत	-3824
▁तट	-3825
▁धा	-3826
▁धै	-3827
▁धो	-3828
▁मछ	-3829
▁रन	-3830
▁शौ	-3831
त्तम	-3832
नीति	-3833
बादी	-3834
म्मत	-3835
र्ती	-3836
स्ति	-3837
िक्स	-3838
ियोग	-3839
ून्य	-3840
ेंशन	-3841
्यूब	-3842
▁192	-3843
▁अके	-3844
▁अवै	-3845
▁आंत	-3846
▁आज़	-3847
▁आयी	-3848
▁आये	-3849
▁इंस	-3850
▁इस्	-3851
▁उतर	-3852
▁औला	-3853
▁कॉल	-3854
▁गोप	-3855
▁छिप	-3856
▁जहा	-3857
▁तला	-3858
▁दाह	-3859
▁नेक	-3860
▁परे	-3861
▁पेज	-3862
▁भला	-3863
▁मज़	-3864
▁माप	-3865
▁लाइ	-3866
▁विभ	-3867
ंचांग	-3868
क्षिक	-3869
भाँति	-3870
भावित	-3871
▁इतने	-3872
▁उतार	-3873
▁किरा	-3874
▁जाएं	-3875
▁तोड़	-3876
▁तौबा	-3877
▁नेता	-3878
▁प्रत	-3879
▁प्लग	-3880
▁बनने	-3881
▁बुरे	-3882
▁मिनट	-3883
▁लंबे	-3884
▁लाया	-3885
▁लिंक	-3886
▁वादा	-3887
▁शाखा	-3888
▁सजदा	-3889
▁साझा	-3890
▁हानि	-3891
▁अक्सर	-3892
▁आध्या	-3893
▁उठाया	-3894
▁कहानी	-3895
▁कार्र	-3896
▁कितनी	-3897
▁गुजरा	-3898
▁चिंता	-3899
▁चेहरे	-3900
▁टिप्प	-3901
▁डिजिट	-3902
▁तीसरे	-3903
▁देखकर	-3904
▁धैर्य	-3905
▁निवास	-3906
▁पत्नी	-3907
▁पीढ़ी	-3908
▁प्राण	-3909
▁बच्चा	-3910
▁बहुते	-3911
▁बिजली	-3912
▁ब्रिट	-3913
▁भौतिक	-3914
▁मस्जि	-3915
▁मामला	-3916
▁मिसाल	-3917
▁रिक्त	-3918
▁लड़ाई	-3919
▁शून्य	-3920
▁संदेह	-3921
▁समग्र	-3922
▁सिविल	-3923
▁स्क्र	-3924
▁स्मार	-3925
स्तियों	-3926
▁अनुरोध	-3927
▁अभियान	-3928
▁आख़िरत	-3929
▁आयुक्त	-3930
▁ग़ालिब	-3931
▁जलवायु	-3932
▁दीक्षा	-3933
▁दूसरों	-3934
▁निशानी	-3935
▁पवित्र	-3936
▁पूर्वी	-3937
▁प्रसार	-3938
▁मिलेगी	-3939
▁रास्ता	-3940
▁विभाजन	-3941
▁विषयों	-3942
▁संचालन	-3943
▁संसदीय	-3944
▁सहकारी	-3945
▁हिस्से	-3946
▁दिखायें	-3947
▁पश्चात्	-3948
▁प्रशंसा	-3949
▁प्रेरित	-3950
▁मेहरबान	-3951
▁संक्रमण	-3952
▁अत्याचार	-3953
▁उपयोक्ता	-3954
▁उपस्थिति	-3955
▁केंद्रित	-3956
▁विद्यमान	-3957
▁सम्मिलित	-3958
▁सर्वाधिक	-3959
▁सुविधाओं	-3960
▁नियंत्रित	-3961
▁विश्वसनीय	-3962
▁स्त्रियों	-3963
▁आध्यात्मिक	-3964
▁शुभकामनाएं	-3965
▁इलेक्ट्रॉनिक	-3966
▁महत्त्वपूर्ण	-3967
30	-3968
ce	-3969
mu	-3970
थी	-3971
लक	-3972
िफ	-3973
ॉम	-3974
▁L	-3975
▁६	-3976
▁–	-3977
ंदन	-3978
कभी	-3979
चें	-3980
फ्र	-3981
ब्ल	-3982
मोह	-3983
यदि	-3984
रेख	-3985
लोग	-3986
वली	-3987
सूस	-3988
ाले	-3989
ुमा	-3990
ुरी	-3991
ूदी	-3992
ोसा	-3993
्यक	-3994
▁24	-3995
▁29	-3996
▁31	-3997
▁40	-3998
▁to	-3999
▁आओ	-4000
▁एड	-4001
▁घे	-4002
▁तल	-4003
▁तस	-4004
▁नु	-4005
▁सभ	-4006
▁हँ	-4007
▁”-	-4008
ंख्य	-4009
ंचित	-4010
ंतरण	-4011
गाड़	-4012
त्री	-4013
न्दी	-4014
भारत	-4015
मार्	-4016
वंबर	-4017
वाना	-4018
वाली	-4019
ष्णु	-4020
ूंकि	-4021
ूद्ध	-4022
्याग	-4023
▁...	-4024
▁अंध	-4025
▁अवर	-4026
▁आदम	-4027
▁एक्	-4028
▁कही	-4029
▁चलो	-4030
▁टाइ	-4031
▁ट्र	-4032
▁ठोस	-4033
▁डेल	-4034
▁दशक	-4035
▁दूध	-4036
▁नजर	-4037
▁नवा	-4038
▁नाग	-4039
▁नाय	-4040
▁निः	-4041
▁नोट	-4042
▁बाँ	-4043
▁मनो	-4044
▁मां	-4045
▁रिज	-4046
▁शास	-4047
▁शिश	-4048
▁सचि	-4049
▁सिल	-4050
क्षेप	-4051
गारों	-4052
म्मीद	-4053
वर्धन	-4054
▁2000	-4055
▁2007	-4056
▁अभाव	-4057
▁अवैध	-4058
▁अस्प	-4059
▁आवाज	-4060
▁आश्व	-4061
▁उधार	-4062
▁औलाद	-4063
▁कहान	-4064
▁किलो	-4065
▁कोवि	-4066
▁कौशल	-4067
▁क्रा	-4068
▁खतरा	-4069
▁ख़ास	-4070
▁ख्या	-4071
▁गणना	-4072
▁गिरा	-4073
▁डाले	-4074
▁नवीन	-4075
▁निरा	-4076
▁पदों	-4077
▁परिक	-4078
▁पहलू	-4079
▁पारि	-4080
▁प्रि	-4081
▁बोली	-4082
▁बोले	-4083
▁भावी	-4084
▁मशीन	-4085
▁मांस	-4086
▁मुना	-4087
▁रौशन	-4088
▁लौटा	-4089
▁वहीं	-4090
▁विवे	-4091
▁शरीक	-4092
▁शारी	-4093
▁सदैव	-4094
▁सिखा	-4095
स्थायी	-4096
▁आयतें	-4097
▁आवाज़	-4098
▁इंजीन	-4099
▁उद्या	-4100
▁कदापि	-4101
▁कमांड	-4102
▁कार्ड	-4103
▁कितना	-4104
▁कितने	-4105
▁खोलने	-4106
▁गवाही	-4107
▁ग्रहण	-4108
▁ग्राम	-4109
▁चारों	-4110
▁चिह्न	-4111
▁जिनकी	-4112
▁ट्रैक	-4113
▁दीर्घ	-4114
▁दीवार	-4115
▁ध्वनि	-4116
▁नवंबर	-4117
▁पड़ता	-4118
▁पाठ्य	-4119
▁प्रजा	-4120
▁बीमार	-4121
▁ब्राह	-4122
▁भांति	-4123
▁मिलती	-4124
▁मिश्र	-4125
▁मुद्र	-4126
▁रेलवे	-4127
▁लड़के	-4128
▁विहित	-4129
▁संवाद	-4130
▁सिवाय	-4131
▁स्वतः	-4132
▁अनुपात	-4133
▁अनुमान	-4134
▁इन्कार	-4135
▁उच्चतम	-4136
▁कश्मीर	-4137
▁कानूनी	-4138
▁किनारे	-4139
▁कोशिका	-4140
▁निर्वा	-4141
▁निवासी	-4142
▁पंचांग	-4143
▁पक्षों	-4144
▁बीमारी	-4145
▁मानवता	-4146
▁मानवीय	-4147
▁मूल्या	-4148
▁रोजगार	-4149
▁विरासत	-4150
▁समझौता	-4151
▁समझौते	-4152
▁समन्वय	-4153
▁समृद्ध	-4154
▁दयालुता	-4155
▁परिपत्र	-4156
▁प्रचलित	-4157
▁प्रयोजन	-4158
▁प्रारूप	-4159
▁ब्रिटिश	-4160
▁मुस्लिम	-4161
▁विरूद्ध	-4162
▁व्यवसाय	-4163
▁शारीरिक	-4164
▁समुद्री	-4165
▁कार्रवाई	-4166
▁जनसंख्या	-4167
▁परिभाषित	-4168
▁प्रदर्शन	-4169
▁संसाधनों	-4170
▁सर्वोच्च	-4171
▁पैग़म्बरों	-4172
▁प्राथमिकता	-4173
''	-4174
.)	-4175
fo	-4176
id	-4177
te	-4178
घर	-4179
णन	-4180
मर	-4181
मो	-4182
यू	-4183
वट	-4184
ैम	-4185
▁/	-4186
200	-4187
jee	-4188
muk	-4189
prh	-4190
ंडी	-4191
ंभव	-4192
क़त	-4193
क़ल	-4194
जील	-4195
धीश	-4196
बरी	-4197
बाल	-4198
र्प	-4199
लती	-4200
शाह	-4201
साब	-4202
ह्य	-4203
िटे	-4204
ूबर	-4205
ूसु	-4206
▁23	-4207
▁80	-4208
▁अद	-4209
▁आख	-4210
▁आफ	-4211
▁औप	-4212
▁गौ	-4213
▁पट	-4214
▁मं	-4215
▁मृ	-4216
▁यौ	-4217
▁१५	-4218
▁‘‘	-4219
html	-4220
pran	-4221
ंध्र	-4222
ज़ोर	-4223
दायी	-4224
न्दु	-4225
पश्च	-4226
माणु	-4227
म्मू	-4228
िकेट	-4229
ीकृत	-4230
▁अहम	-4231
▁आजा	-4232
▁इरा	-4233
▁एंड	-4234
▁एकल	-4235
▁एल्	-4236
▁कहे	-4237
▁कीट	-4238
▁ग्ल	-4239
▁चीन	-4240
▁जंग	-4241
▁टैग	-4242
▁डरा	-4243
▁दुः	-4244
▁धार	-4245
▁पाई	-4246
▁पाद	-4247
▁बीज	-4248
▁बेच	-4249
▁बोस	-4250
▁भले	-4251
▁मोड	-4252
▁शरण	-4253
▁शिव	-4254
▁सब्	-4255
▁सेल	-4256
▁हिक	-4257
abmuk	-4258
कृष्ण	-4259
तावनी	-4260
भाविक	-4261
वियों	-4262
▁2012	-4263
▁आनंद	-4264
▁आवास	-4265
▁इकाई	-4266
▁ईमेल	-4267
▁उदार	-4268
▁उल्ल	-4269
▁क़दम	-4270
▁कीमत	-4271
▁खाने	-4272
▁गहरी	-4273
▁गेंद	-4274
▁ग्रे	-4275
▁घाटे	-4276
▁चैनल	-4277
▁जटिल	-4278
▁जिले	-4279
▁निरी	-4280
▁पत्त	-4281
▁पाकि	-4282
▁बाकी	-4283
▁बीमा	-4284
▁मकान	-4285
▁मुंह	-4286
▁मुला	-4287
▁विनय	-4288
▁शत्र	-4289
▁शिखर	-4290
▁सफेद	-4291
▁सराह	-4292
▁सवाल	-4293
▁साहस	-4294
▁सुझा	-4295
▁सोचा	-4296
▁हस्त	-4297
▁हैंः	-4298
herjee	-4299
प्रदाय	-4300
ार्थना	-4301
▁अस्वी	-4302
▁आकर्ष	-4303
▁आज़मा	-4304
▁आज्ञा	-4305
▁कामना	-4306
▁कार्ब	-4307
▁क्रोध	-4308
▁क्षति	-4309
▁गाँधी	-4310
▁गुप्त	-4311
▁चलाने	-4312
▁चाहती	-4313
▁चीजों	-4314
▁चूंकि	-4315
▁जम्मू	-4316
▁तुरंत	-4317
▁द्वीप	-4318
▁पढ़ने	-4319
▁पूज्य	-4320
▁बस्ती	-4321
▁भंडार	-4322
▁भागों	-4323
▁भेजने	-4324
▁मध्यम	-4325
▁महसूस	-4326
▁मुंबई	-4327
▁मौलिक	-4328
▁शुद्ध	-4329
▁हिसाब	-4330
वादियों	-4331
▁अनुवाद	-4332
▁अपनाया	-4333
▁इंडियन	-4334
▁उद्यान	-4335
▁कम्पनी	-4336
▁गुजरात	-4337
▁चुनौती	-4338
▁दिखाया	-4339
▁दोबारा	-4340
▁निकलने	-4341
▁पर्यटन	-4342
▁पार्टी	-4343
▁पूर्ति	-4344
▁बिगाड़	-4345
▁बिलकुल	-4346
▁मीडिया	-4347
▁मुकदमा	-4348
▁मूर्ति	-4349
▁रिजर्व	-4350
▁वर्गों	-4351
▁विडियो	-4352
▁सहेजें	-4353
▁साम्रा	-4354
▁सावधान	-4355
पैग़म्बर	-4356
▁एकमात्र	-4357
▁काफिरों	-4358
▁चेतावनी	-4359
▁ज़्यादा	-4360
▁पंजीकरण	-4361
▁मित्रता	-4362
▁संगठनों	-4363
▁संयंत्र	-4364
▁समीक्षा	-4365
pranabmuk	-4366
▁अधिसूचना	-4367
▁अस्तित्व	-4368
▁उद्योगों	-4369
▁कुफ्फ़ार	-4370
▁जवाहरलाल	-4371
▁ज़ालिमों	-4372
▁ज़िन्दगी	-4373
▁पुस्तिका	-4374
▁राजस्थान	-4375
▁पुस्तकालय	-4376
▁प्रसन्नता	-4377
▁प्रार्थना	-4378
▁स्वाभाविक	-4379
▁उद्देश्यों	-4380
▁प्रतिक्रिया	-4381
▁परिस्थितियों	-4382
▁प्रभुत्वशाली	-4383
pranabmukherjee	-4384
/-	-4385
ME	-4386
hi	-4387
os	-4388
ँग	-4389
ंव	-4390
अत	-4391
ईल	-4392
गन	-4393
जब	-4394
जु	-4395
टो	-4396
ट्	-4397
डु	-4398
दक	-4399
नल	-4400
षे	-4401
िच	-4402
ुड	-4403
ैल	-4404
ौफ	-4405
▁K	-4406
▁e	-4407
▁f	-4408
▁l	-4409
.09	-4410
ase	-4411
ंकर	-4412
ंटर	-4413
काब	-4414
खिम	-4415
ग्न	-4416
ज़ि	-4417
तीत	-4418
देन	-4419
धीन	-4420
धों	-4421
न्थ	-4422
बूद	-4423
मंच	-4424
मों	-4425
रित	-4426
रीत	-4427
र्र	-4428
लील	-4429
विश	-4430
शोथ	-4431
षित	-4432
समय	-4433
साम	-4434
ाइड	-4435
ेरत	-4436
ॉकि	-4437
ोंक	-4438
०००	-4439
▁आल	-4440
▁उभ	-4441
▁छह	-4442
▁जू	-4443
▁धु	-4444
▁पॉ	-4445
▁रण	-4446
▁वस	-4447
indi	-4448
info	-4449
ंग्ल	-4450
उनकी	-4451
उसके	-4452
क़ुर	-4453
ग़ैर	-4454
घटना	-4455
धारी	-4456
मंडल	-4457
म्मा	-4458
रेलू	-4459
वर्ड	-4460
विधि	-4461
श्रम	-4462
स्को	-4463
ॉल्ट	-4464
्यूल	-4465
▁आकर	-4466
▁आना	-4467
▁उभर	-4468
▁औसत	-4469
▁कब्	-4470
▁काउ	-4471
▁गईं	-4472
▁गढ़	-4473
▁चाय	-4474
▁चिप	-4475
▁छूट	-4476
▁टूट	-4477
▁दान	-4478
▁दुआ	-4479
▁नमू	-4480
▁नाथ	-4481
▁नान	-4482
▁नेअ	-4483
▁परम	-4484
▁भरे	-4485
▁यून	-4486
▁वंश	-4487
▁वकी	-4488
▁वैध	-4489
▁सजा	-4490
▁सदा	-4491
▁सद्	-4492
क़रीब	-4493
कीर्ण	-4494
ख्यात	-4495
चार्य	-4496
त्कार	-4497
द्रोह	-4498
द्वीप	-4499
फारिश	-4500
शास्त	-4501
सारिक	-4502
ियामत	-4503
▁अक्ष	-4504
▁आदान	-4505
▁आपसी	-4506
▁आरोप	-4507
▁आश्च	-4508
▁इमार	-4509
▁एकता	-4510
▁कक्ष	-4511
▁कहता	-4512
▁कहां	-4513
▁कॉपी	-4514
▁जनजा	-4515
▁जानी	-4516
▁जाया	-4517
▁डरते	-4518
▁ताला	-4519
▁तेरी	-4520
▁दरवा	-4521
▁देखो	-4522
▁देशी	-4523
▁दोनो	-4524
▁नक़ल	-4525
▁नष्ट	-4526
▁प्री	-4527
▁बारह	-4528
▁बाहम	-4529
▁बेटे	-4530
▁भेजे	-4531
▁माँग	-4532
▁मारे	-4533
▁मेहन	-4534
▁मैने	-4535
▁रोगी	-4536
▁लगती	-4537
▁लाइन	-4538
▁सज़ा	-4539
▁सब्र	-4540
▁साधन	-4541
ंत्रित	-4542
पालिका	-4543
प्रदान	-4544
्टवेयर	-4545
▁अपमान	-4546
▁अभिगम	-4547
▁आंध्र	-4548
▁आग्रह	-4549
▁कराया	-4550
▁करोगे	-4551
▁कामों	-4552
▁घोषित	-4553
▁चीज़े	-4554
▁चेतना	-4555
▁जितना	-4556
▁ट्यूब	-4557
▁डराने	-4558
▁त्याग	-4559
▁थोड़ी	-4560
▁थोड़े	-4561
▁दाखिल	-4562
▁नेपाल	-4563
▁पसन्द	-4564
▁पहाड़	-4565
▁प्रोट	-4566
▁फिरऔन	-4567
▁बदलाव	-4568
▁बनाये	-4569
▁ब्राउ	-4570
▁भरोसा	-4571
▁महीने	-4572
▁मुकाब	-4573
▁रोकने	-4574
▁वर्गी	-4575
▁विपणन	-4576
▁शख़्श	-4577
▁संबोध	-4578
▁सकेगा	-4579
▁समस्त	-4580
▁हिकमत	-4581
.09.201	-4582
▁आंतरिक	-4583
▁उत्साह	-4584
▁उम्मीद	-4585
▁क़ुरआन	-4586
▁क़ुरान	-4587
▁गांवों	-4588
▁गुमराह	-4589
▁चरित्र	-4590
▁डिजिटल	-4591
▁तत्वों	-4592
▁दिखाने	-4593
▁परमाणु	-4594
▁परिवहन	-4595
▁प्रभाग	-4596
▁प्रभार	-4597
▁प्रेरण	-4598
▁मस्जिद	-4599
▁मुक़ाब	-4600
▁विपरीत	-4601
▁शिक्षण	-4602
▁संध्या	-4603
▁सराहना	-4604
▁स्मृति	-4605
▁हालॉकि	-4606
न्द्रनाथ	-4607
▁आश्चर्य	-4608
▁परीक्षण	-4609
▁पुरुषों	-4610
▁प्रत्या	-4611
▁प्रबंधक	-4612
▁मान्यता	-4613
▁राजनीति	-4614
▁विन्यास	-4615
▁श्रद्धा	-4616
▁सिफारिश	-4617
▁करनेवाले	-4618
▁पुस्तकों	-4619
▁प्रतियोग	-4620
▁श्रृंखला	-4621
▁सम्बन्धी	-4622
▁सांसारिक	-4623
▁नवान्वेषण	-4624
▁न्यायाधीश	-4625
▁प्रतिनिधि	-4626
▁प्रतिबद्ध	-4627
▁सर्वोत्तम	-4628
▁अभिव्यक्ति	-4629
▁विद्यार्थियों	-4630
▁विश्वविद्यालयों	-4631
!"	-4632
.5	-4633
15	-4634
75	-4635
इश	-4636
खु	-4637
छा	-4638
ॉक	-4639
▁४	-4640
ele	-4641
uot	-4642
ंचे	-4643
काव	-4644
गर्	-4645
ग्ध	-4646
जोर	-4647
दती	-4648
धित	-4649
नाक	-4650
नाश	-4651
नाह	-4652
नीन	-4653
न्य	-4654
पार	-4655
भ्र	-4656
मति	-4657
मती	-4658
य्य	-4659
वंश	-4660
वां	-4661
ह्व	-4662
िने	-4663
▁2,	-4664
▁44	-4665
▁75	-4666
▁>>	-4667
▁in	-4668
▁उद	-4669
▁घो	-4670
▁छु	-4671
▁टॉ	-4672
▁दह	-4673
▁फॉ	-4674
▁लै	-4675
ंगों	-4676
ईमान	-4677
कटॉप	-4678
कतों	-4679
किसी	-4680
क्सा	-4681
जनों	-4682
जाइन	-4683
ड़कर	-4684
दृढ़	-4685
परिक	-4686
भाषण	-4687
माना	-4688
राइट	-4689
रेखा	-4690
वारण	-4691
वारी	-4692
ष्ठा	-4693
संबर	-4694
हेज़	-4695
ूहिक	-4696
ैण्ड	-4697
ॉर्ड	-4698
्यार	-4699
▁193	-4700
▁आपू	-4701
▁इंच	-4702
▁ऑफ़	-4703
▁औषध	-4704
▁क़ि	-4705
▁खान	-4706
▁खून	-4707
▁गंत	-4708
▁जला	-4709
▁ज़ु	-4710
▁जेल	-4711
▁दंड	-4712
▁दरम	-4713
▁दाम	-4714
▁निच	-4715
▁नूह	-4716
▁पंच	-4717
▁पहन	-4718
▁फ़ि	-4719
▁फूल	-4720
▁बचे	-4721
▁बजट	-4722
▁बजे	-4723
▁बोध	-4724
▁भेद	-4725
▁मर्	-4726
▁मला	-4727
▁मले	-4728
▁माइ	-4729
▁मिथ	-4730
▁मेन	-4731
▁रवी	-4732
▁लेन	-4733
▁शाह	-4734
▁सें	-4735
▁हरि	-4736
▁हां	-4737
etail	-4738
india	-4739
इसेंस	-4740
कार्य	-4741
क्यों	-4742
प्रभु	-4743
लोगों	-4744
सायिक	-4745
▁2010	-4746
▁2013	-4747
▁2017	-4748
▁आहार	-4749
▁इसको	-4750
▁उपभो	-4751
▁ऊँचा	-4752
▁ऊपरी	-4753
▁कष्ट	-4754
▁कहला	-4755
▁कागज	-4756
▁काला	-4757
▁खत्म	-4758
▁ग्री	-4759
▁जागर	-4760
▁डेस्	-4761
▁तथ्य	-4762
▁तमाम	-4763
▁तूने	-4764
▁दुःख	-4765
▁पड़ी	-4766
▁पढ़ा	-4767
▁पुरा	-4768
▁बंदर	-4769
▁बांस	-4770
▁बिता	-4771
▁भलाई	-4772
▁भाष्	-4773
▁भ्रम	-4774
▁मुर्	-4775
▁मोदी	-4776
▁राजन	-4777
▁वकील	-4778
▁शर्त	-4779
▁शहरी	-4780
▁श्रो	-4781
▁संकट	-4782
▁सचिव	-4783
▁समित	-4784
▁सम्प	-4785
▁सागर	-4786
▁सृजन	-4787
▁सौंप	-4788
▁हटकर	-4789
▁हराम	-4790
▁हलाल	-4791
दाताओं	-4792
निर्भर	-4793
नेवाली	-4794
विमर्श	-4795
ासंगिक	-4796
▁अक्षर	-4797
▁अन्तर	-4798
▁आबादी	-4799
▁आस्था	-4800
▁करेगी	-4801
▁कर्ता	-4802
▁किस्म	-4803
▁ख्याल	-4804
▁ग़रज़	-4805
▁घरेलू	-4806
▁चंद्र	-4807
▁जानकर	-4808
▁जिनसे	-4809
▁जुड़ा	-4810
▁जुलाई	-4811
▁जोखिम	-4812
▁तथापि	-4813
▁देवता	-4814
▁परिसर	-4815
▁पौधों	-4816
▁बचाने	-4817
▁बिंदु	-4818
▁बुराई	-4819
▁भक्ति	-4820
▁मासिक	-4821
▁रोज़ी	-4822
▁वृक्ष	-4823
▁समझता	-4824
▁सशक्त	-4825
▁होगें	-4826
शास्त्र	-4827
स्तिष्क	-4828
ानुभूति	-4829
▁अज्ञात	-4830
▁असमर्थ	-4831
▁आक्रमण	-4832
▁इन्सान	-4833
▁घटनाओं	-4834
▁जर्मनी	-4835
▁पड़ेगा	-4836
▁परहेज़	-4837
▁पहाड़ी	-4838
▁पुष्टि	-4839
▁पृथ्वी	-4840
▁प्रतीत	-4841
▁बख्शने	-4842
▁मददगार	-4843
▁महीनों	-4844
▁मिटाएँ	-4845
▁मुक्ति	-4846
▁रंगमंच	-4847
▁रसूलों	-4848
▁व्युत्	-4849
▁संबद्ध	-4850
▁सभ्यता	-4851
▁समानता	-4852
▁सुदृढ़	-4853
▁सेवाएं	-4854
▁अनक़रीब	-4855
▁अभिभाषण	-4856
▁अर्थात्	-4857
▁अस्पताल	-4858
▁इंटरनेट	-4859
▁कर्तव्य	-4860
▁छात्रों	-4861
▁ज़िन्दा	-4862
▁ज़िम्मे	-4863
▁दरमियान	-4864
▁दर्शाता	-4865
▁प्रतिभा	-4866
▁ब्राह्म	-4867
▁मित्रों	-4868
▁लाइसेंस	-4869
▁विद्वान	-4870
▁शैक्षिक	-4871
▁संभावित	-4872
▁सदस्यता	-4873
▁सितम्बर	-4874
▁अपेक्षित	-4875
▁कंपनियों	-4876
▁गिरफ्तार	-4877
▁डेस्कटॉप	-4878
▁दुर्घटना	-4879
▁नागरिकों	-4880
▁पदार्थों	-4881
▁बुनियादी	-4882
▁शक्तियों	-4883
▁सम्पूर्ण	-4884
▁सम्मानित	-4885
▁स्वीकृति	-4886
▁तत्वदर्शी	-4887
▁प्रयोक्ता	-4888
▁प्रशासनिक	-4889
▁प्राधिकार	-4890
▁प्रासंगिक	-4891
▁मुसलमानों	-4892
▁मूल्यांकन	-4893
▁सकारात्मक	-4894
▁आत्मनिर्भर	-4895
▁जिम्मेदारी	-4896
▁परियोजनाओं	-4897
▁व्यावसायिक	-4898
▁स्पष्टीकरण	-4899
▁प्रोत्साहित	-4900
).	-4901
,–	-4902
.3	-4903
0}	-4904
16	-4905
AN	-4906
ca	-4907
ia	-4908
iv	-4909
mp	-4910
ow	-4911
ww	-4912
चक	-4913
रु	-4914
सद	-4915
हो	-4916
ोश	-4917
’’	-4918
▁W	-4919
▁x	-4920
iii	-4921
ric	-4922
www	-4923
ंघन	-4924
आरए	-4925
कना	-4926
कने	-4927
कां	-4928
कें	-4929
क्य	-4930
जान	-4931
टका	-4932
ताप	-4933
दंड	-4934
पंथ	-4935
पना	-4936
बरद	-4937
बीह	-4938
बूर	-4939
बेह	-4940
बैक	-4941
बों	-4942
ब्द	-4943
रेत	-4944
सीय	-4945
सोस	-4946
हान	-4947
िगे	-4948
ीदा	-4949
ुरा	-4950
ैया	-4951
ोत्	-4952
्टे	-4953
्यो	-4954
▁()	-4955
▁22	-4956
▁35	-4957
▁</	-4958
▁आक	-4959
▁आब	-4960
▁चख	-4961
▁छू	-4962
▁डु	-4963
▁तं	-4964
▁नक	-4965
▁पश	-4966
▁फौ	-4967
)...	-4968
rele	-4969
ंजलि	-4970
ंतिक	-4971
काता	-4972
काशन	-4973
चेंज	-4974
च्छे	-4975
तकों	-4976
धर्म	-4977
नहीं	-4978
पहले	-4979
पीएस	-4980
मुझे	-4981
यंती	-4982
यरों	-4983
वर्ग	-4984
वानी	-4985
वाने	-4986
व्यव	-4987
शब्द	-4988
शोधन	-4989
सागर	-4990
ालों	-4991
िप्ट	-4992
▁अन्	-4993
▁अली	-4994
▁अवश	-4995
▁इजा	-4996
▁उदय	-4997
▁कोष	-4998
▁खिल	-4999
▁गठन	-5000
▁चोट	-5001
▁दवा	-5002
▁देय	-5003
▁नास	-5004
▁पलट	-5005
▁पशु	-5006
▁फें	-5007
▁बटन	-5008
▁मंड	-5009
▁मिट	-5010
▁मृत	-5011
▁रिस	-5012
▁लॉक	-5013
▁वचन	-5014
▁वरि	-5015
▁शोर	-5016
▁सदी	-5017
▁सहज	-5018
▁सैन	-5019
▁सौर	-5020
▁हरे	-5021
▁हल्	-5022
-2018	-5023
entof	-5024
press	-5025
ंतरित	-5026
अच्छा	-5027
अज़ाब	-5028
क़्ति	-5029
ग्रहण	-5030
चित्र	-5031
ज्ज़त	-5032
ड़िया	-5033
तुष्ट	-5034
दर्शक	-5035
निवेश	-5036
न्याय	-5037
प्रति	-5038
बोर्ड	-5039
भाग्य	-5040
मिनीन	-5041
र्थ्य	-5042
लीफोन	-5043
वलोकन	-5044
विचार	-5045
श्वास	-5046
ोजनों	-5047
▁2005	-5048
▁Name	-5049
▁अखिल	-5050
▁इसने	-5051
▁उठाए	-5052
▁उड़ा	-5053
▁उत्स	-5054
▁कमाई	-5055
▁कैसा	-5056
▁ख़ुद	-5057
▁ख़ूब	-5058
▁गर्इ	-5059
▁गौरव	-5060
▁ग्रा	-5061
▁घड़ी	-5062
▁जंगल	-5063
▁जनरल	-5064
▁जुड़	-5065
▁ट्रे	-5066
▁तेरा	-5067
▁दर्ज	-5068
▁दावे	-5069
▁दुखद	-5070
▁द्रव	-5071
▁धातु	-5072
▁निपट	-5073
▁पाँच	-5074
▁पाइप	-5075
▁पाते	-5076
▁पाना	-5077
▁मछली	-5078
▁माता	-5079
▁माने	-5080
▁मूर्	-5081
▁मौका	-5082
▁यूसु	-5083
▁रोका	-5084
▁लिखे	-5085
▁समझे	-5086
▁सहमत	-5087
▁हँसी	-5088
▁हमला	-5089
▁हार्	-5090
detail	-5091
presid	-5092
कल्पिक	-5093
क़ुरान	-5094
तन्त्र	-5095
नेवालो	-5096
फ़ॉल्ट	-5097
स्तानी	-5098
स्तीनी	-5099
्यादती	-5100
▁अपवाद	-5101
▁इनपुट	-5102
▁काफ़ी	-5103
▁कुमार	-5104
▁गीतों	-5105
▁जागरू	-5106
▁डालें	-5107
▁तकलीफ	-5108
▁दीजिए	-5109
▁दैनिक	-5110
▁नौकरी	-5111
▁न्यास	-5112
▁पर्वत	-5113
▁पुत्र	-5114
▁फ़रमा	-5115
▁फार्म	-5116
▁फैसला	-5117
▁बिहार	-5118
▁बुद्ध	-5119
▁माध्य	-5120
▁माबूद	-5121
▁मेहनत	-5122
▁लौटने	-5123
▁वंचित	-5124
▁वितरण	-5125
▁विनाश	-5126
▁संतुल	-5127
▁सरदार	-5128
▁सहमति	-5129
▁सुनकर	-5130
▁सुभाष	-5131
▁सूत्र	-5132
▁हिंसा	-5133
▁हितों	-5134
Comment	-5135
release	-5136
राष्ट्र	-5137
संस्करण	-5138
▁अग्रणी	-5139
▁अन्तिम	-5140
▁अभ्यास	-5141
▁उत्तरा	-5142
▁कनेक्ट	-5143
▁गंतव्य	-5144
▁छुट्टी	-5145
▁डिजाइन	-5146
▁दाहिने	-5147
▁दिसंबर	-5148
▁निदेशक	-5149
▁नेताओं	-5150
▁पहुंचे	-5151
▁पुराना	-5152
▁पैमाने	-5153
▁प्रतिर	-5154
▁प्रवाह	-5155
▁प्रायः	-5156
▁प्रेमच	-5157
▁बारगाह	-5158
▁बैठकों	-5159
▁भंडारण	-5160
▁मिश्रण	-5161
▁रास्ते	-5162
▁विनष्ट	-5163
▁विवरणी	-5164
▁शेयरों	-5165
▁संपादक	-5166
▁साक्षी	-5167
▁स्पर्श	-5168
▁स्वदेश	-5169
▁स्वस्थ	-5170
▁अनुपालन	-5171
▁अनुमोदन	-5172
▁आदमियों	-5173
▁क्रिकेट	-5174
▁गुनाहों	-5175
▁टेलीफोन	-5176
▁द्वितीय	-5177
▁निकायों	-5178
▁परिभाषा	-5179
▁प्रकाशन	-5180
▁प्रयत्न	-5181
▁बहुतेरे	-5182
▁मोमिनों	-5183
▁योजनाओं	-5184
▁राजधानी	-5185
▁संतुष्ट	-5186
▁संरक्षक	-5187
▁समाप्ति	-5188
▁समृद्धि	-5189
▁सामूहिक	-5190
▁सूक्ष्म	-5191
▁आमंत्रित	-5192
▁उत्पादों	-5193
▁कॉपीराइट	-5194
▁निर्वाचन	-5195
▁राज्यपाल	-5196
▁विशेषज्ञ	-5197
▁सुविधाएं	-5198
entofindia	-5199
▁उत्तरदायी	-5200
▁कम्प्यूटर	-5201
▁कार्यवाही	-5202
▁परिकल्पना	-5203
▁पाकिस्तान	-5204
▁पूर्ववर्ष	-5205
▁प्राधिकरण	-5206
▁फ़रिश्तों	-5207
▁रजिस्ट्री	-5208
▁शक्तिशाली	-5209
▁सहानुभूति	-5210
▁सामान्यतः	-5211
▁साम्राज्य	-5212
▁आवश्यकताओं	-5213
▁पूर्वावलोकन	-5214
▁प्रतियोगिता	-5215
▁वैज्ञानिकों	-5216
presidentofindia	-5217
.6	-5218
1,	-5219
10	-5220
19	-5221
5)	-5222
ri	-5223
sh	-5224
we	-5225
अब	-5226
उप	-5227
छो	-5228
ण्	-5229
थल	-5230
नत	-5231
बै	-5232
बो	-5233
लन	-5234
लर	-5235
शः	-5236
हल	-5237
हु	-5238
ेड	-5239
ॉँ	-5240
ोब	-5241
ोम	-5242
▁V	-5243
▁g	-5244
▁h	-5245
▁y	-5246
his	-5247
ing	-5248
ंजर	-5249
ंधन	-5250
अनु	-5251
उंड	-5252
क़ी	-5253
किस	-5254
कीन	-5255
कीर	-5256
घात	-5257
चरण	-5258
चलन	-5259
जाल	-5260
टाई	-5261
ठीक	-5262
ड़न	-5263
ढ़े	-5264
ण्य	-5265
दीक	-5266
नेह	-5267
पाई	-5268
फ़े	-5269
बिल	-5270
बेस	-5271
मगर	-5272
लीय	-5273
लेट	-5274
वधि	-5275
श्म	-5276
संख	-5277
साद	-5278
सीन	-5279
सेस	-5280
हाल	-5281
ानत	-5282
िकट	-5283
िकल	-5284
िक़	-5285
िरण	-5286
ीनी	-5287
ेंच	-5288
ोनि	-5289
्ता	-5290
्ते	-5291
्नि	-5292
▁"%	-5293
▁अत	-5294
▁इक	-5295
▁इम	-5296
▁ऑप	-5297
▁कच	-5298
▁खी	-5299
▁घु	-5300
▁जम	-5301
▁पढ	-5302
▁मक	-5303
¤1⁄4	-5304
ंसिल	-5305
काने	-5306
गामी	-5307
जीवन	-5308
ड़ना	-5309
ड़ित	-5310
डीएफ	-5311
तनों	-5312
दत्त	-5313
नाटक	-5314
प्पल	-5315
फ़्र	-5316
बड़ी	-5317
बादत	-5318
मतों	-5319
रीबी	-5320
र्पण	-5321
षदों	-5322
सीता	-5323
सूची	-5324
स्कर	-5325
ार्ज	-5326
ाहित	-5327
िक्र	-5328
ियाई	-5329
िश्र	-5330
ुमान	-5331
ूर्ण	-5332
▁(4)	-5333
▁the	-5334
▁अपश	-5335
▁आलो	-5336
▁उपर	-5337
▁एहद	-5338
▁केश	-5339
▁खाओ	-5340
▁खिस	-5341
▁गुर	-5342
▁घनि	-5343
▁घुस	-5344
▁जड़	-5345
▁टीम	-5346
▁डूब	-5347
▁तरल	-5348
▁ताप	-5349
▁नबी	-5350
▁नाप	-5351
▁नोड	-5352
▁पाप	-5353
▁पूर	-5354
▁पेय	-5355
▁फैल	-5356
▁फ्र	-5357
▁बडे	-5358
▁भरी	-5359
▁मीम	-5360
▁रेड	-5361
▁लाम	-5362
▁वास	-5363
▁विघ	-5364
▁शेख	-5365
▁शोक	-5366
▁हान	-5367
▁हुक	-5368
.2015	-5369
ंग्ला	-5370
कर्षण	-5371
कालिक	-5372
क्षीय	-5373
गोलिक	-5374
दृश्य	-5375
धारित	-5376
नीतिक	-5377
पुर्द	-5378
बन्धन	-5379
लियों	-5380
वक्ता	-5381
शीलता	-5382
ष्यों	-5383
▁2006	-5384
▁2008	-5385
▁2009	-5386
▁अकबर	-5387
▁अक्त	-5388
▁अगली	-5389
▁अभिन	-5390
▁अमरी	-5391
▁आएगा	-5392
▁आकलन	-5393
▁आजीव	-5394
▁आपात	-5395
▁आह्व	-5396
▁इसरा	-5397
▁उक्त	-5398
▁उतना	-5399
▁ऊंचे	-5400
▁कथित	-5401
▁कर्ण	-5402
▁कहाँ	-5403
▁कहें	-5404
▁किमी	-5405
▁कुर्	-5406
▁कृति	-5407
▁कॉन्	-5408
▁क्यू	-5409
▁खराब	-5410
▁गरीब	-5411
▁ग़ौर	-5412
▁घाटी	-5413
▁घेरे	-5414
▁चक्र	-5415
▁छुपा	-5416
▁ठहरे	-5417
▁देकर	-5418
▁नर्स	-5419
▁नारा	-5420
▁नीला	-5421
▁पट्ट	-5422
▁पाता	-5423
▁फोटो	-5424
▁बतौर	-5425
▁बनता	-5426
▁बनना	-5427
▁बरसा	-5428
▁बांध	-5429
▁बाबत	-5430
▁बायो	-5431
▁बारी	-5432
▁बेटा	-5433
▁मंडल	-5434
▁मुगल	-5435
▁यानी	-5436
▁रिया	-5437
▁रुपए	-5438
▁रूपा	-5439
▁लंबा	-5440
▁लंबी	-5441
▁लगने	-5442
▁लाते	-5443
▁लानत	-5444
▁लिंग	-5445
▁लेखन	-5446
▁लेगा	-5447
▁वार्	-5448
▁विनि	-5449
▁शादी	-5450
▁श्रम	-5451
▁सड़क	-5452
▁साइट	-5453
▁साहब	-5454
▁सीधी	-5455
▁हड्ड	-5456
▁हवाई	-5457
▁होगे	-5458
▁होनी	-5459
.2012,	-5460
क्षणिक	-5461
▁अक्षम	-5462
▁अग्नि	-5463
▁अन्दर	-5464
▁असंभव	-5465
▁आकृति	-5466
▁ऑडियो	-5467
▁औरतें	-5468
▁कुरान	-5469
▁क्रमा	-5470
▁गर्मी	-5471
▁चीजें	-5472
▁ज़बरद	-5473
▁ज़रिए	-5474
▁जाओगे	-5475
▁जायें	-5476
▁जोड़े	-5477
▁ड्राइ	-5478
▁ढांचे	-5479
▁देखना	-5480
▁नेत्र	-5481
▁नैतिक	-5482
▁पड़ने	-5483
▁परवाह	-5484
▁परिचय	-5485
▁पेंशन	-5486
▁बढ़ती	-5487
▁भर्ती	-5488
▁भेजें	-5489
▁मक्का	-5490
▁मानता	-5491
▁मिलते	-5492
▁युक्त	-5493
▁यूनिट	-5494
▁रोकते	-5495
▁रोगों	-5496
▁लिखने	-5497
▁विज्ञ	-5498
▁सीखने	-5499
▁सुझाव	-5500
▁सूर्य	-5501
▁सैन्य	-5502
▁स्टार	-5503
कांक्षा	-5504
र्युक्त	-5505
स्थापित	-5506
▁अनुचित	-5507
▁अनुदान	-5508
▁अनुरूप	-5509
▁अन्ततः	-5510
▁अवधारण	-5511
▁इस्पात	-5512
▁कठिनाई	-5513
▁कमज़ोर	-5514
▁करूँगा	-5515
▁कुफ़्र	-5516
▁चित्रण	-5517
▁चीज़ों	-5518
▁छोड़ें	-5519
▁जहन्नम	-5520
▁डिग्री	-5521
▁तथ्यों	-5522
▁नवम्बर	-5523
▁परेशान	-5524
▁पहुँचे	-5525
▁पुकारा	-5526
▁पुरानी	-5527
▁प्रतिल	-5528
▁प्रांत	-5529
▁फरमाबर	-5530
▁फ्रांस	-5531
▁मिलेगा	-5532
▁यक़ीनी	-5533
▁वरिष्ठ	-5534
▁विष्णु	-5535
▁शिक्षक	-5536
▁शुरुआत	-5537
▁समझाने	-5538
▁सीमाओं	-5539
▁अनुग्रह	-5540
▁अपशिष्ट	-5541
▁आकर्षित	-5542
▁आजीविका	-5543
▁आपूर्ति	-5544
▁आरक्षित	-5545
▁आसमानों	-5546
▁उन्होने	-5547
▁उल्लंघन	-5548
▁औपचारिक	-5549
▁कर्नाटक	-5550
▁कविताओं	-5551
▁कारोबार	-5552
▁खिलाड़ी	-5553
▁गतिविधि	-5554
▁गुमराही	-5555
▁चिकित्स	-5556
▁जानवरों	-5557
▁टिप्पणी	-5558
▁पासवर्ड	-5559
▁प्रदूषण	-5560
▁प्रेरणा	-5561
▁प्रोटोक	-5562
▁भौगोलिक	-5563
▁मोमिनीन	-5564
▁विद्रोह	-5565
▁विनियमन	-5566
▁श्रेष्ठ	-5567
▁संदेशों	-5568
▁संवर्धन	-5569
▁सत्यापन	-5570
▁सम्पर्क	-5571
▁साथियों	-5572
▁स्रोतों	-5573
▁हार्दिक	-5574
▁अन्तर्गत	-5575
▁झुठलाओगे	-5576
▁डिफ़ॉल्ट	-5577
▁दीक्षांत	-5578
▁निष्कर्ष	-5579
▁पैरामीटर	-5580
▁प्रतिबंध	-5581
▁प्रवर्तन	-5582
▁ब्राह्मण	-5583
▁राजनैतिक	-5584
▁लानेवालो	-5585
▁वर्गीकरण	-5586
▁वैकल्पिक	-5587
▁व्यापारी	-5588
▁दस्तावेज़	-5589
▁व्यवस्थित	-5590
▁संग्रहालय	-5591
▁उपलब्धियों	-5592
▁प्रसंस्करण	-5593
▁फिलीस्तीनी	-5594
▁विद्यार्थी	-5595
▁कार्यान्वयन	-5596
▁रवीन्द्रनाथ	-5597
▁सफलतापूर्वक	-5598
▁प्राप्तकर्ता	-5599
.4	-5600
12	-5601
ET	-5602
SL	-5603
ch	-5604
ंठ	-5605
ंर	-5606
अल	-5607
कस	-5608
डन	-5609
तू	-5610
तृ	-5611
पो	-5612
मै	-5613
लॉ	-5614
वश	-5615
सो	-5616
ाफ	-5617
ीस	-5618
ेन	-5619
ैत	-5620
▁,	-5621
01.	-5622
hat	-5623
ंटा	-5624
ंटी	-5625
ंसी	-5626
आउट	-5627
कथा	-5628
कोप	-5629
गरी	-5630
गित	-5631
ग्स	-5632
ज़ल	-5633
टरी	-5634
टित	-5635
डकर	-5636
ढ़ा	-5637
तरे	-5638
तिश	-5639
थित	-5640
दरा	-5641
बाब	-5642
बीर	-5643
भोग	-5644
मंड	-5645
मुच	-5646
लाभ	-5647
वही	-5648
वीर	-5649
व्र	-5650
शनल	-5651
सूर	-5652
सेट	-5653
हक़	-5654
ांत	-5655
ाये	-5656
िमा	-5657
ेंड	-5658
ेटी	-5659
ोरा	-5660
ोहे	-5661
्टा	-5662
्यौ	-5663
▁(&	-5664
▁1,	-5665
▁42	-5666
▁अख	-5667
▁अट	-5668
▁खज	-5669
▁गू	-5670
▁चट	-5671
▁टा	-5672
▁तम	-5673
▁पच	-5674
▁बम	-5675
▁भु	-5676
▁सउ	-5677
▁सन	-5678
▁सल	-5679
▁हक	-5680
_01.	-5681
ंकार	-5682
ंकित	-5683
ंचाई	-5684
ंटों	-5685
एससी	-5686
क्कर	-5687
ख्ते	-5688
चिका	-5689
ज़िर	-5690
जैसे	-5691
तरों	-5692
दाओं	-5693
दादा	-5694
दिरा	-5695
बंदी	-5696
ब्बे	-5697
मेरे	-5698
रारत	-5699
रेशन	-5700
र्चे	-5701
र्ज़	-5702
र्रर	-5703
लांग	-5704
लैंड	-5705
शाही	-5706
श्रय	-5707
ष्णव	-5708
संगत	-5709
समें	-5710
सियत	-5711
स्तर	-5712
स्से	-5713
हिता	-5714
ार्क	-5715
िटेन	-5716
ूल्य	-5717
ेंसी	-5718
्रीम	-5719
्रोल	-5720
▁(3)	-5721
▁189	-5722
▁अमल	-5723
▁अलब	-5724
▁आइए	-5725
▁आएँ	-5726
▁उपे	-5727
▁कड़	-5728
▁कथन	-5729
▁खबर	-5730
▁गेह	-5731
▁चमक	-5732
▁चरम	-5733
▁छाप	-5734
▁जन्	-5735
▁जाल	-5736
▁जैव	-5737
▁डिप	-5738
▁ड्र	-5739
▁ढेर	-5740
▁तना	-5741
▁तिर	-5742
▁दूँ	-5743
▁देन	-5744
▁नयी	-5745
▁पडे	-5746
▁परत	-5747
▁पुत	-5748
▁फौज	-5749
▁बचत	-5750
▁बहा	-5751
▁भूत	-5752
▁महल	-5753
▁मुश	-5754
▁मौत	-5755
▁यूँ	-5756
▁वहन	-5757
▁वेद	-5758
▁सकल	-5759
▁सज्	-5760
▁सटी	-5761
▁सड़	-5762
▁साध	-5763
ंपरिक	-5764
क्तता	-5765
ख्वाह	-5766
गुज़र	-5767
दोनों	-5768
परस्त	-5769
ब्लिक	-5770
र्पित	-5771
वस्तु	-5772
स्पति	-5773
स्पर्	-5774
ात्मक	-5775
ेश्वर	-5776
▁(199	-5777
▁1957	-5778
▁1961	-5779
▁2004	-5780
▁2014	-5781
▁अनाज	-5782
▁अपरि	-5783
▁अरबी	-5784
▁अर्ज	-5785
▁असंग	-5786
▁अहले	-5787
▁आईटी	-5788
▁आखिर	-5789
▁आगमन	-5790
▁आबंट	-5791
▁ईरान	-5792
▁कचरा	-5793
▁कच्च	-5794
▁कराए	-5795
▁क़ाय	-5796
▁खड़ी	-5797
▁खतरे	-5798
▁ख़ौफ	-5799
▁गर्भ	-5800
▁गर्म	-5801
▁गीता	-5802
▁गुज़	-5803
▁ग्लो	-5804
▁घंटे	-5805
▁घुमा	-5806
▁चलने	-5807
▁चाहो	-5808
▁चीनी	-5809
▁चुनौ	-5810
▁छत्त	-5811
▁जन्न	-5812
▁जहाज	-5813
▁ट्री	-5814
▁तलाश	-5815
▁तुर्	-5816
▁दलों	-5817
▁दावा	-5818
▁दिलच	-5819
▁दोषी	-5820
▁धन्य	-5821
▁नौकर	-5822
▁पिला	-5823
▁पैके	-5824
▁पैसा	-5825
▁फ़ाय	-5826
▁फ्री	-5827
▁फ्रे	-5828
▁बाधा	-5829
▁बाबू	-5830
▁मारा	-5831
▁मुहर	-5832
▁मुहा	-5833
▁याची	-5834
▁रहकर	-5835
▁राजी	-5836
▁लगाए	-5837
▁लाना	-5838
▁वादी	-5839
▁वैसा	-5840
▁शिशु	-5841
▁सबका	-5842
▁समेक	-5843
▁साझे	-5844
▁साथी	-5845
▁स्की	-5846
▁हाथी	-5847
कलापों	-5848
ग्रस्त	-5849
दुल्ला	-5850
धिकारी	-5851
फ़ारिश	-5852
मंत्रण	-5853
ियरिंग	-5854
ुस्तान	-5855
ोजेक्ट	-5856
▁अदालत	-5857
▁आँखों	-5858
▁इबादत	-5859
▁इमारत	-5860
▁एजेंस	-5861
▁कमजोर	-5862
▁क़ाबू	-5863
▁किसान	-5864
▁कोर्ट	-5865
▁ख़त्म	-5866
▁ख्वाह	-5867
▁गरीबी	-5868
▁गुणों	-5869
▁छोड़ा	-5870
▁जयंती	-5871
▁जुड़ी	-5872
▁डालते	-5873
▁तीव्र	-5874
▁तीसरी	-5875
▁दरबार	-5876
▁दिव्य	-5877
▁दूँगा	-5878
▁देगें	-5879
▁निकाह	-5880
▁पशुओं	-5881
▁पिछली	-5882
▁पैरवी	-5883
▁प्रथा	-5884
▁फरवरी	-5885
▁फिल्म	-5886
▁बढ़ने	-5887
▁बाध्य	-5888
▁बाह्य	-5889
▁मजदूर	-5890
▁मजबूर	-5891
▁माहौल	-5892
▁लड़की	-5893
▁वार्म	-5894
▁विभेद	-5895
▁शरारत	-5896
▁संपदा	-5897
▁संभाल	-5898
▁सचमुच	-5899
▁सच्चा	-5900
▁सभाओं	-5901
▁सीआरए	-5902
▁सुनता	-5903
▁सुनने	-5904
▁सॉफ्ट	-5905
▁हज़ार	-5906
▁हार्ड	-5907
क्ष्यों	-5908
वासियों	-5909
व्यवहार	-5910
▁अग्रिम	-5911
▁अर्पित	-5912
▁आंकड़ा	-5913
▁आह्वान	-5914
▁उत्तरी	-5915
▁क़िस्म	-5916
▁क़ुबूल	-5917
▁कार्बन	-5918
▁कुशलता	-5919
▁क्रमशः	-5920
▁घनिष्ठ	-5921
▁चौड़ाई	-5922
▁ज़ुल्म	-5923
▁जादूगर	-5924
▁जानबूझ	-5925
▁ताकतों	-5926
▁तुम्हे	-5927
▁निवारण	-5928
▁प्रौढ़	-5929
▁प्लगइन	-5930
▁बढ़ाकर	-5931
▁भाइयों	-5932
▁युक्ति	-5933
▁राजस्व	-5934
▁राजाओं	-5935
▁रिश्ते	-5936
▁वर्णित	-5937
▁वार्ता	-5938
▁विद्या	-5939
▁विरोधी	-5940
▁संपादन	-5941
▁संवेदन	-5942
▁सभापति	-5943
▁समाहित	-5944
▁सेटिंग	-5945
▁स्मारक	-5946
▁हजारों	-5947
▁हैसियत	-5948
तुम्हारे	-5949
▁अमेरिकी	-5950
▁अलबत्ता	-5951
▁अस्थायी	-5952
▁क़ियामत	-5953
▁कानूनों	-5954
▁कोलकाता	-5955
▁छुटकारा	-5956
▁दरगुज़र	-5957
▁पसंदीदा	-5958
▁प्रेषित	-5959
▁मंदिरों	-5960
▁महाराजा	-5961
▁मुकाबले	-5962
▁मोहम्मद	-5963
▁यूरोपीय	-5964
▁रूपरेखा	-5965
▁वाक़िफ़	-5966
▁विभाजित	-5967
▁विविधता	-5968
▁विशेषकर	-5969
▁शिक्षित	-5970
▁संचालित	-5971
▁संशोधित	-5972
▁समकालीन	-5973
▁सुपुर्द	-5974
▁अनुमोदित	-5975
▁असामान्य	-5976
▁एक्सचेंज	-5977
▁क्षमाशील	-5978
▁तंत्रिका	-5979
▁पारंपरिक	-5980
▁प्रकाशना	-5981
▁प्रदर्शक	-5982
▁प्रावधान	-5983
▁फलस्वरूप	-5984
▁मस्तिष्क	-5985
▁मुक़ाबले	-5986
▁वार्मिंग	-5987
▁सामर्थ्य	-5988
राष्ट्रपति	-5989
▁1961-2018	-5990
▁अत्याचारी	-5991
▁अधिकारिता	-5992
▁अपीलार्थी	-5993
▁केन्द्रों	-5994
▁जाननेवाला	-5995
▁पाठ्यक्रम	-5996
▁प्रदर्शनी	-5997
▁प्रयोजनों	-5998
▁विद्वानों	-5999
▁विनिर्माण	-6000
▁विशेषताएं	-6001
▁साफ्टवेयर	-6002
▁स्क्रिप्ट	-6003
▁प्रतिष्ठित	-6004
▁प्रतिस्पर्	-6005
▁प्रयोगशाला	-6006
▁व्यक्तित्व	-6007
▁सामान्यतया	-6008
,%	-6009
-2	-6010
-4	-6011
-9	-6012
13	-6013
60	-6014
IN	-6015
ON	-6016
RO	-6017
ct	-6018
ef	-6019
li	-6020
ru	-6021
ub	-6022
ँव	-6023
ंछ	-6024
आस	-6025
कई	-6026
चय	-6027
जत	-6028
ठे	-6029
ड्	-6030
पत	-6031
फॉ	-6032
रन	-6033
षक	-6034
िद	-6035
ृश	-6036
ोद	-6037
्द	-6038
▁v	-6039
▁०	-6040
▁८	-6041
.06	-6042
AME	-6043
rat	-6044
ंती	-6045
ंधे	-6046
ंसद	-6047
इंड	-6048
उंट	-6049
क़े	-6050
चाप	-6051
चेत	-6052
जरत	-6053
जाम	-6054
ट्स	-6055
ठित	-6056
तरी	-6057
निस	-6058
पूर	-6059
पेट	-6060
प्स	-6061
फ़ि	-6062
बरा	-6063
बात	-6064
भिक	-6065
मरा	-6066
यरी	-6067
राक	-6068
रात	-6069
रोज	-6070
लेज	-6071
लोक	-6072
विन	-6073
वेद	-6074
षेध	-6075
ष्प	-6076
संप	-6077
साइ	-6078
सील	-6079
हाई	-6080
ांक	-6081
ालू	-6082
िटी	-6083
िणी	-6084
िरी	-6085
ीयर	-6086
ूनी	-6087
ूमत	-6088
ेषक	-6089
ोलर	-6090
▁(0	-6091
▁1/	-6092
▁2.	-6093
▁3.	-6094
▁UR	-6095
▁or	-6096
▁उछ	-6097
▁ओड	-6098
▁नद	-6099
▁नम	-6100
▁पड	-6101
▁फट	-6102
▁व्	-6103
▁सै	-6104
-#-#	-6105
ंडित	-6106
ंदगी	-6107
आईसी	-6108
एनआर	-6109
क्की	-6110
क्के	-6111
गर्भ	-6112
गैरह	-6113
ग्रा	-6114
जीवी	-6115
टकों	-6116
तन्य	-6117
दायक	-6118
दूरी	-6119
न्ता	-6120
पंथी	-6121
परता	-6122
प्रद	-6123
प्रा	-6124
बन्द	-6125
ब्लू	-6126
मानत	-6127
माला	-6128
य्या	-6129
र्नल	-6130
लीफ़	-6131
वाणी	-6132
वेशन	-6133
व्या	-6134
शुदा	-6135
सीमा	-6136
सीसी	-6137
स्टर	-6138
हाउस	-6139
ारसी	-6140
िगेट	-6141
िन्त	-6142
िरता	-6143
ुतोष	-6144
ुरूष	-6145
ुसार	-6146
ैक्ट	-6147
ैसले	-6148
्नों	-6149
्वाल	-6150
▁com	-6151
▁असर	-6152
▁आँक	-6153
▁आख़	-6154
▁आमद	-6155
▁इंत	-6156
▁उठे	-6157
▁उधर	-6158
▁एयर	-6159
▁कैश	-6160
▁कोण	-6161
▁खनन	-6162
▁ख़ा	-6163
▁घाट	-6164
▁घाव	-6165
▁चित	-6166
▁चुप	-6167
▁चेक	-6168
▁छंद	-6169
▁जुल	-6170
▁जॉन	-6171
▁टोक	-6172
▁डिब	-6173
▁तबा	-6174
▁धूम	-6175
▁नकद	-6176
▁नरे	-6177
▁नवी	-6178
▁नाक	-6179
▁नार	-6180
▁नाश	-6181
▁नुक	-6182
▁नोक	-6183
▁पर्	-6184
▁पूँ	-6185
▁पॉप	-6186
▁पोत	-6187
▁बढा	-6188
▁बुल	-6189
▁बेस	-6190
▁भरा	-6191
▁मंज	-6192
▁मक़	-6193
▁मेम	-6194
▁मैन	-6195
▁मॉड	-6196
▁लाई	-6197
▁लोप	-6198
▁वाद	-6199
▁वाम	-6200
▁सकी	-6201
▁हड़	-6202
▁हरा	-6203
▁हाई	-6204
▁हिम	-6205
▁१९९	-6206
कीज़ा	-6207
क्तिक	-6208
क्राम	-6209
चालित	-6210
द्रास	-6211
न्हीं	-6212
परेशन	-6213
बंधित	-6214
मार्ग	-6215
म्परा	-6216
यंत्र	-6217
र्कता	-6218
वाहित	-6219
व्यों	-6220
शुल्क	-6221
स्ट्र	-6222
हमारे	-6223
हारिक	-6224
ुक्ति	-6225
ेंद्र	-6226
ोत्सव	-6227
▁1950	-6228
▁1997	-6229
▁2011	-6230
▁2016	-6231
▁अनदे	-6232
▁अपार	-6233
▁अष्ट	-6234
▁आईडी	-6235
▁आजाद	-6236
▁इच्छ	-6237
▁इम्त	-6238
▁इल्म	-6239
▁ईसाई	-6240
▁उतनी	-6241
▁उद्ध	-6242
▁उन्म	-6243
▁ऊंचा	-6244
▁एकदम	-6245
▁कट्ट	-6246
▁कड़ी	-6247
▁क़िब	-6248
▁कार्	-6249
▁किर्	-6250
▁किस्	-6251
▁कैसी	-6252
▁खण्ड	-6253
▁ख़ुश	-6254
▁खोला	-6255
▁गुजर	-6256
▁गुरू	-6257
▁गोली	-6258
▁चट्ट	-6259
▁चलती	-6260
▁चालू	-6261
▁चावल	-6262
▁चाहा	-6263
▁जरिए	-6264
▁ज़रा	-6265
▁जाकर	-6266
▁डाली	-6267
▁ड्यू	-6268
▁ताकत	-6269
▁तात्	-6270
▁तारा	-6271
▁त्वर	-6272
▁दिमा	-6273
▁देगी	-6274
▁द्वि	-6275
▁नकदी	-6276
▁नामः	-6277
▁नेकी	-6278
▁पड़ो	-6279
▁परदा	-6280
▁पांड	-6281
▁पीने	-6282
▁पूजा	-6283
▁प्ला	-6284
▁फलों	-6285
▁फ़िर	-6286
▁बढ़े	-6287
▁बनकर	-6288
▁बनते	-6289
▁बादल	-6290
▁बोला	-6291
▁ब्रै	-6292
▁भड़क	-6293
▁भरने	-6294
▁भेंट	-6295
▁मदों	-6296
▁मधुम	-6297
▁मरने	-6298
▁मर्द	-6299
▁मादा	-6300
▁मीम॰	-6301
▁मॉडल	-6302
▁मोटे	-6303
▁रखकर	-6304
▁रखती	-6305
▁रहित	-6306
▁राज़	-6307
▁राधा	-6308
▁राहत	-6309
▁रिज़	-6310
▁रेगि	-6311
▁लेती	-6312
▁वरन्	-6313
▁वरीय	-6314
▁संगत	-6315
▁समझो	-6316
▁समाय	-6317
▁सलाम	-6318
▁सिंध	-6319
▁सीडी	-6320
▁सुले	-6321
▁स्वप	-6322
▁हरित	-6323
▁होटल	-6324
ंत्रिक	-6325
आर्थिक	-6326
क़यामत	-6327
क्षकों	-6328
क्साइड	-6329
ध्यक्ष	-6330
नात्मक	-6331
प्रकाश	-6332
प्रदेश	-6333
भ्रष्ट	-6334
वृद्धि	-6335
संख्यक	-6336
ाधिकार	-6337
▁अकादे	-6338
▁आबंटन	-6339
▁इंसान	-6340
▁उत्सव	-6341
▁उन्नत	-6342
▁उपाधि	-6343
▁एप्पल	-6344
▁कपड़े	-6345
▁कमेटी	-6346
▁करेंः	-6347
▁कहावत	-6348
▁कीजिए	-6349
▁कीटना	-6350
▁खातों	-6351
▁खोजें	-6352
▁चक्कर	-6353
▁चलाया	-6354
▁चाहें	-6355
▁चेन्न	-6356
▁छात्र	-6357
▁जापान	-6358
▁जितनी	-6359
▁जिहाद	-6360
▁जीवों	-6361
▁तकनीक	-6362
▁तीसरा	-6363
▁तौरेत	-6364
▁दर्जे	-6365
▁दशकों	-6366
▁द्विप	-6367
▁धारणा	-6368
▁नमूने	-6369
▁नहरें	-6370
▁निगाह	-6371
▁नेशनल	-6372
▁पंडित	-6373
▁पड़ती	-6374
▁पड़ते	-6375
▁पीड़ा	-6376
▁पैकेज	-6377
▁फायदे	-6378
▁बग़ैर	-6379
▁बताता	-6380
▁बनाता	-6381
▁बोलते	-6382
▁भागने	-6383
▁महान्	-6384
▁मानों	-6385
▁यहूदी	-6386
▁यूसुफ	-6387
▁रवाना	-6388
▁लगाकर	-6389
▁लड़ने	-6390
▁लिखें	-6391
▁वापसी	-6392
▁विघटन	-6393
▁विधाय	-6394
▁विलोप	-6395
▁वृत्त	-6396
▁शत्रु	-6397
▁शान्त	-6398
▁शिष्य	-6399
▁शैतान	-6400
▁संकलन	-6401
▁संप्र	-6402
▁समापन	-6403
▁सारणी	-6404
▁सुनते	-6405
▁सुनाई	-6406
▁सैनिक	-6407
▁स्विच	-6408
▁होंगी	-6409
ंतिकारी	-6410
दायित्व	-6411
न्होंने	-6412
▁अतिमान	-6413
▁अधिकरण	-6414
▁अधिकृत	-6415
▁अन्यथा	-6416
▁अन्याय	-6417
▁अर्थात	-6418
▁अवज्ञा	-6419
▁अवसरों	-6420
▁आकर्षण	-6421
▁आशुतोष	-6422
▁इजाज़त	-6423
▁इज्ज़त	-6424
▁एकीकृत	-6425
▁क़समें	-6426
▁ग्रन्थ	-6427
▁ग्लोबल	-6428
▁चैतन्य	-6429
▁जोड़ने	-6430
▁ज्ञापन	-6431
▁टुकड़ा	-6432
▁टुकड़े	-6433
▁तत्काल	-6434
▁तत्त्व	-6435
▁तुर्की	-6436
▁दृढ़ता	-6437
▁नदियों	-6438
▁नवाचार	-6439
▁निकाले	-6440
▁निष्ठा	-6441
▁फ़िल्म	-6442
▁बढ़ाया	-6443
▁बादशाह	-6444
▁माइक्र	-6445
▁मुहैया	-6446
▁वस्तुत	-6447
▁विद्वत	-6448
▁वैष्णव	-6449
▁शर्तें	-6450
▁शर्तों	-6451
▁संहिता	-6452
▁सकेंगे	-6453
▁सच्चाई	-6454
▁सड़कों	-6455
▁सन्तान	-6456
▁समन्दर	-6457
▁सिंचाई	-6458
▁सेक्टर	-6459
▁स्टेशन	-6460
▁स्थगित	-6461
▁अक्तूबर	-6462
▁अनुभूति	-6463
▁अनुसूची	-6464
▁आश्वासन	-6465
▁उपकरणों	-6466
▁उपेक्षा	-6467
▁कूटशब्द	-6468
▁कोविन्द	-6469
▁गांधीजी	-6470
▁चाहूंगा	-6471
▁चाहेंगे	-6472
▁डेलिगेट	-6473
▁दक्षिणी	-6474
▁नर्सिंग	-6475
▁निकालने	-6476
▁परिश्रम	-6477
▁पाकीज़ा	-6478
▁पूर्णतः	-6479
▁प्रवासी	-6480
▁प्रस्तु	-6481
▁प्रान्त	-6482
▁फ़ाइलें	-6483
▁फ़ाइलों	-6484
▁बौद्धिक	-6485
▁ब्रिटेन	-6486
▁महामारी	-6487
▁मुलाकात	-6488
▁रिकार्ड	-6489
▁विकलांग	-6490
▁विभागों	-6491
▁विवेकान	-6492
▁शास्त्र	-6493
▁संकेतों	-6494
▁संबोधित	-6495
▁सतर्कता	-6496
▁समर्पित	-6497
▁सम्पन्न	-6498
▁सरपरस्त	-6499
▁सशस्त्र	-6500
▁उपभोक्ता	-6501
▁काफ़िरों	-6502
▁किलोमीटर	-6503
▁केंद्रों	-6504
▁ग्राहकों	-6505
▁चित्रकला	-6506
▁निमंत्रण	-6507
▁पक्षियों	-6508
▁परिवारों	-6509
▁प्रतिदान	-6510
▁प्रबन्धन	-6511
▁प्रश्नों	-6512
▁बस्तियों	-6513
▁मनुष्यों	-6514
▁मुक़र्रर	-6515
▁सिफ़ारिश	-6516
▁अंग्रेजों	-6517
▁अब्दुल्ला	-6518
▁अभिव्यक्त	-6519
▁ईमानवालों	-6520
▁उपर्युक्त	-6521
▁उल्लेखनीय	-6522
▁कठिनाइयों	-6523
▁कार्यकारी	-6524
▁निशानियों	-6525
▁प्रतिभूति	-6526
▁प्रतिवर्ष	-6527
▁प्रतिवादी	-6528
▁प्रविष्टि	-6529
▁प्रोजेक्ट	-6530
▁शास्त्रीय	-6531
▁संस्थापित	-6532
▁सम्बन्धित	-6533
▁सॉफ्टवेयर	-6534
▁हार्डवेयर	-6535
▁महाराष्ट्र	-6536
▁व्यावहारिक	-6537
▁व्युत्पन्न	-6538
▁इंजीनियरिंग	-6539
▁क्रांतिकारी	-6540
▁रजिस्ट्रीकृत	-6541
................	-6542
);	-6543
14	-6544
17	-6545
25	-6546
AR	-6547
AT	-6548
IC	-6549
ML	-6550
\\	-6551
ay	-6552
eg	-6553
ex	-6554
ey	-6555
ff	-6556
ge	-6557
mb	-6558
ng	-6559
nu	-6560
oo	-6561
un	-6562
ंघ	-6563
अन	-6564
कै	-6565
चु	-6566
तव	-6567
पय	-6568
पृ	-6569
फि	-6570
बन	-6571
रह	-6572
लभ	-6573
शै	-6574
सह	-6575
▁ष	-6576
.03	-6577
.04	-6578
.11	-6579
err	-6580
ice	-6581
ion	-6582
ist	-6583
ore	-6584
ँचा	-6585
ँचे	-6586
ंघा	-6587
ंपा	-6588
कंप	-6589
काय	-6590
किम	-6591
क्क	-6592
ख़ी	-6593
ज्ज	-6594
ठार	-6595
डेट	-6596
डों	-6597
णिक	-6598
तीं	-6599
थान	-6600
दाद	-6601
दाम	-6602
दिश	-6603
दुल	-6604
द्घ	-6605
ध्व	-6606
नाई	-6607
नेस	-6608
न्च	-6609
न्ड	-6610
परा	-6611
पाइ	-6612
पाट	-6613
पेश	-6614
फ़त	-6615
फ़ा	-6616
बली	-6617
बाज	-6618
बीच	-6619
भास	-6620
मेर	-6621
मैन	-6622
राव	-6623
रेब	-6624
लाइ	-6625
वाब	-6626
विस	-6627
शकर	-6628
शित	-6629
सन्	-6630
सम्	-6631
साई	-6632
िनल	-6633
िशा	-6634
ुखी	-6635
ूलन	-6636
ूली	-6637
ेयर	-6638
ोलो	-6639
्मा	-6640
▁33	-6641
▁48	-6642
▁85	-6643
▁re	-6644
▁इल	-6645
▁कू	-6646
▁खि	-6647
▁घन	-6648
▁छः	-6649
▁जॉ	-6650
▁झि	-6651
▁टो	-6652
▁डै	-6653
▁डो	-6654
▁दम	-6655
▁नल	-6656
▁पन	-6657
▁फु	-6658
▁बग	-6659
▁यथ	-6660
▁हॉ	-6661
▁हौ	-6662
▁२०	-6663
ella	-6664
onst	-6665
ंकृत	-6666
इयां	-6667
उसका	-6668
कलाप	-6669
खण्ड	-6670
खाने	-6671
चाने	-6672
ज़ख़	-6673
ज़ाम	-6674
टिंग	-6675
डिंग	-6676
डीपी	-6677
ड्डे	-6678
ताअत	-6679
तिपय	-6680
त्ते	-6681
दिता	-6682
द्दत	-6683
द्दा	-6684
धीरे	-6685
नाडु	-6686
न्तर	-6687
पानी	-6688
पूरा	-6689
प्रो	-6690
फ़िर	-6691
फिक़	-6692
बंधन	-6693
बंधी	-6694
ब्रे	-6695
मायण	-6696
माही	-6697
याबी	-6698
रचना	-6699
राबी	-6700
रिवा	-6701
रेटर	-6702
र्दू	-6703
र्मा	-6704
लाइड	-6705
लेखा	-6706
ल्लम	-6707
वसीय	-6708
वानि	-6709
व्यय	-6710
शनिक	-6711
शिंग	-6712
सायन	-6713
सीबत	-6714
सीयत	-6715
हारी	-6716
हाली	-6717
ारों	-6718
िकरण	-6719
ियरी	-6720
ीनों	-6721
ुम्ब	-6722
्राव	-6723
्रेट	-6724
▁115	-6725
▁अंड	-6726
▁अटक	-6727
▁अम्	-6728
▁असल	-6729
▁आमा	-6730
▁ईंट	-6731
▁उपज	-6732
▁एजे	-6733
▁ऑंख	-6734
▁कंट	-6735
▁कमल	-6736
▁करु	-6737
▁केस	-6738
▁कैं	-6739
▁कोर	-6740
▁क्य	-6741
▁खनि	-6742
▁ख्व	-6743
▁गहन	-6744
▁घटक	-6745
▁घेर	-6746
▁चिर	-6747
▁छोर	-6748
▁जगत	-6749
▁जीत	-6750
▁झील	-6751
▁ठहर	-6752
▁त्व	-6753
▁दली	-6754
▁दास	-6755
▁दिस	-6756
▁धूप	-6757
▁नज़	-6758
▁निम	-6759
▁पटल	-6760
▁पते	-6761
▁परस	-6762
▁पॉल	-6763
▁प्य	-6764
▁बसा	-6765
▁बहन	-6766
▁बेन	-6767
▁भंग	-6768
▁मरा	-6769
▁मसी	-6770
▁मेघ	-6771
▁मेट	-6772
▁मेह	-6773
▁रसी	-6774
▁रहम	-6775
▁लाओ	-6776
▁लिप	-6777
▁लूत	-6778
▁विय	-6779
▁वीर	-6780
▁सघन	-6781
▁सतत	-6782
▁सत्	-6783
▁समू	-6784
▁सरो	-6785
▁सहे	-6786
▁हमे	-6787
▁हला	-6788
▁हिल	-6789
ंदर्य	-6790
कार्ड	-6791
गरानी	-6792
च्छिक	-6793
जहन्न	-6794
ज्ञाप	-6795
तायात	-6796
थियों	-6797
दाश्त	-6798
दिग्ध	-6799
द्वार	-6800
धानिक	-6801
न्देह	-6802
पत्ति	-6803
पुरुष	-6804
पोर्ट	-6805
प्रथम	-6806
मुक्त	-6807
लीकरण	-6808
ल्कों	-6809
शिल्प	-6810
स्तीन	-6811
स्फोट	-6812
हमारी	-6813
िश्ता	-6814
ीसगढ़	-6815
ॉक्सी	-6816
▁1956	-6817
▁1999	-6818
▁2002	-6819
▁2019	-6820
▁2020	-6821
▁अंतः	-6822
▁अकार	-6823
▁अर्ध	-6824
▁आघात	-6825
▁आपसे	-6826
▁आमाल	-6827
▁आराम	-6828
▁इनको	-6829
▁इनसे	-6830
▁इलाज	-6831
▁इसपर	-6832
▁ईंधन	-6833
▁उभार	-6834
▁ऊँची	-6835
▁ऊंची	-6836
▁एमएस	-6837
▁एल्ग	-6838
▁कर्ज	-6839
▁किला	-6840
▁किले	-6841
▁केरल	-6842
▁क्रो	-6843
▁खजूर	-6844
▁खींच	-6845
▁गद्य	-6846
▁गुफा	-6847
▁गोया	-6848
▁गोला	-6849
▁चर्च	-6850
▁चलकर	-6851
▁जरुर	-6852
▁ज़ोर	-6853
▁झोंक	-6854
▁ड्रा	-6855
▁दायर	-6856
▁देखी	-6857
▁धारक	-6858
▁ध्वज	-6859
▁नस्ल	-6860
▁निधन	-6861
▁नेमत	-6862
▁पादप	-6863
▁फेरा	-6864
▁फैली	-6865
▁फ्लै	-6866
▁बंबई	-6867
▁बचपन	-6868
▁बाएँ	-6869
▁बाढ़	-6870
▁बीते	-6871
▁बेहद	-6872
▁भीड़	-6873
▁भेजी	-6874
▁मातृ	-6875
▁मीरा	-6876
▁मुख़	-6877
▁मोहन	-6878
▁म्यू	-6879
▁रचित	-6880
▁रानी	-6881
▁रूचि	-6882
▁लगाई	-6883
▁लशकर	-6884
▁लाएँ	-6885
▁लोहे	-6886
▁वैसे	-6887
▁शोषण	-6888
▁संकु	-6889
▁संगण	-6890
▁संचय	-6891
▁सउदी	-6892
▁सफ़र	-6893
▁समझी	-6894
▁सरकश	-6895
▁सहभा	-6896
▁सिरे	-6897
▁सीखा	-6898
▁स्वे	-6899
▁हरेक	-6900
▁हाइड	-6901
क्ताओं	-6902
तिक्रम	-6903
त्मकता	-6904
दराबाद	-6905
दृष्टि	-6906
धारकों	-6907
पत्रों	-6908
पश्चिम	-6909
पूर्ति	-6910
ब्रेरी	-6911
ुदायिक	-6912
▁अंततः	-6913
▁अकेले	-6914
▁अनधिक	-6915
▁अफसोस	-6916
▁अर्जन	-6917
▁अवकाश	-6918
▁आँखें	-6919
▁आमदनी	-6920
▁इंग्ल	-6921
▁इताअत	-6922
▁उठाना	-6923
▁उत्पी	-6924
▁उपदेश	-6925
▁उपभोग	-6926
▁ऊंचाई	-6927
▁ऊतकों	-6928
▁कट्टर	-6929
▁कतिपय	-6930
▁कपड़ा	-6931
▁कहेगा	-6932
▁क़रीब	-6933
▁क़ायम	-6934
▁कारगर	-6935
▁कालेज	-6936
▁कीटों	-6937
▁कुदरत	-6938
▁कुफ्र	-6939
▁कुबूल	-6940
▁खुदाई	-6941
▁खेतों	-6942
▁गर्भा	-6943
▁गहराई	-6944
▁ग्रीन	-6945
▁ज़कात	-6946
▁जानने	-6947
▁जितने	-6948
▁जैविक	-6949
▁जोड़ी	-6950
▁झगड़ा	-6951
▁झाड़ी	-6952
▁ढांचा	-6953
▁तसबीह	-6954
▁तीर्थ	-6955
▁दरिया	-6956
▁दुकान	-6957
▁निकले	-6958
▁निकास	-6959
▁निभाई	-6960
▁निरूप	-6961
▁नेअमत	-6962
▁पकड़ा	-6963
▁पढ़ें	-6964
▁परिपथ	-6965
▁पाओगे	-6966
▁पार्क	-6967
▁पुण्य	-6968
▁पुरूष	-6969
▁पूछने	-6970
▁पूछें	-6971
▁प्रिय	-6972
▁प्रेस	-6973
▁फ्रेम	-6974
▁बनायी	-6975
▁बहनों	-6976
▁ब्लॉक	-6977
▁भरपूर	-6978
▁भेजना	-6979
▁मानना	-6980
▁मारने	-6981
▁रखेगा	-6982
▁रहेगी	-6983
▁राजपू	-6984
▁राज़ी	-6985
▁रूपये	-6986
▁लंबाई	-6987
▁लम्बे	-6988
▁लाभों	-6989
▁लिखना	-6990
▁वगैरह	-6991
▁वसीयत	-6992
▁वारिस	-6993
▁विकृत	-6994
▁शिष्ट	-6995
▁संघीय	-6996
▁संदाय	-6997
▁सकताः	-6998
▁सच्ची	-6999
▁सम्भव	-7000
▁सूचित	-7001
▁स्मरण	-7002
▁हटाने	-7003
▁हरिया	-7004
▁हिंदी	-7005
▁होस्ट	-7006
क्तियां	-7007
दर्शिता	-7008
प्राप्त	-7009
फ़रमानी	-7010
विश्वास	-7011
ष्टाचार	-7012
ार्शनिक	-7013
िश्रमिक	-7014
▁अंतराल	-7015
▁अनुस्म	-7016
▁अन्तर्	-7017
▁अप्रिय	-7018
▁अर्जित	-7019
▁असंख्य	-7020
▁आईआईटी	-7021
▁आउटपुट	-7022
▁आख़ेरत	-7023
▁आचार्य	-7024
▁आलोचना	-7025
▁इच्छुक	-7026
▁इनसाफ़	-7027
▁इसराईल	-7028
▁उद्यमी	-7029
▁उपायों	-7030
▁एकाग्र	-7031
▁कदाचित	-7032
▁कीटनाश	-7033
▁कृतज्ञ	-7034
▁चीज़ें	-7035
▁ज़रूरत	-7036
▁जायेगी	-7037
▁जिन्ना	-7038
▁जोड़ना	-7039
▁ट्रांस	-7040
▁ढूंढने	-7041
▁तकलीफ़	-7042
▁तात्या	-7043
▁त्वरित	-7044
▁दयावान	-7045
▁दरवाजे	-7046
▁दिखाना	-7047
▁दिलाने	-7048
▁नज़दीक	-7049
▁नदियाँ	-7050
▁नारायण	-7051
▁निवेदन	-7052
▁नीतिगत	-7053
▁नुकसान	-7054
▁पीड़ित	-7055
▁पुनर्व	-7056
▁पूर्वो	-7057
▁प्रणाल	-7058
▁प्रलेख	-7059
▁बिन्दु	-7060
▁बैठकें	-7061
▁मद्रास	-7062
▁मरम्मत	-7063
▁मिटाना	-7064
▁मिलाकर	-7065
▁मुद्दे	-7066
▁याचिका	-7067
▁युवाओं	-7068
▁रामायण	-7069
▁रेडियो	-7070
▁लाएँगे	-7071
▁लेखकों	-7072
▁लैंगिक	-7073
▁लोकसभा	-7074
▁वरीयता	-7075
▁विकिरण	-7076
▁विनम्र	-7077
▁विनिमय	-7078
▁शाखाओं	-7079
▁शुरूआत	-7080
▁शृंखला	-7081
▁समावेश	-7082
▁सांख्य	-7083
▁सितंबर	-7084
▁सृष्टि	-7085
▁सेवानि	-7086
▁स्तरीय	-7087
▁स्तरों	-7088
▁स्वप्न	-7089
▁स्वर्ण	-7090
▁हाज़िर	-7091
▁हुकूमत	-7092
ellation	-7093
ंग्लादेश	-7094
प्रदायिक	-7095
▁अकादेमी	-7096
▁अनिवासी	-7097
▁अनुभवों	-7098
▁आधारभूत	-7099
▁इकाइयों	-7100
▁किताबें	-7101
▁कुफ्फार	-7102
▁कृत्यों	-7103
▁जायेंगे	-7104
▁त्रुटिः	-7105
▁देखेंगे	-7106
▁निकालते	-7107
▁निगरानी	-7108
▁नीतियां	-7109
▁पंजीकृत	-7110
▁परिषदों	-7111
▁पात्रों	-7112
▁पेट्रोल	-7113
▁प्रचालन	-7114
▁प्रतिफल	-7115
▁प्रतिबि	-7116
▁प्रशांत	-7117
▁बुनियाद	-7118
▁बैंकिंग	-7119
▁यातायात	-7120
▁रिज़र्व	-7121
▁वनस्पति	-7122
▁वस्तुतः	-7123
▁वायुयान	-7124
▁विदेशों	-7125
▁विस्फोट	-7126
▁संकीर्ण	-7127
▁संक्षेप	-7128
▁संग्रहण	-7129
▁संग्राम	-7130
▁सम्बद्ध	-7131
▁साक्ष्य	-7132
▁सुलेमान	-7133
▁सौंदर्य	-7134
▁स्वदेशी	-7135
▁स्वीकृत	-7136
▁अतिथियों	-7137
▁अधिग्रहण	-7138
▁अधिवक्ता	-7139
▁अनुसूचित	-7140
▁आकांक्षा	-7141
▁आस्तियों	-7142
▁उपलब्धता	-7143
▁कहानियाँ	-7144
▁जानबूझकर	-7145
▁तत्कालीन	-7146
▁दस्तावेज	-7147
▁नरेन्द्र	-7148
▁निःशुल्क	-7149
▁पथभ्रष्ट	-7150
▁परंपरागत	-7151
▁प्रतिकूल	-7152
▁प्रदेशों	-7153
▁प्रविष्ट	-7154
▁प्रेमचंद	-7155
▁प्रॉक्सी	-7156
▁ब्राउज़र	-7157
▁विकासशील	-7158
▁शिक्षकों	-7159
▁शैक्षणिक	-7160
▁सत्यापित	-7161
▁सद्भावना	-7162
▁समितियों	-7163
▁स्वचालित	-7164
▁हैदराबाद	-7165
▁translate	-7166
▁अध्यक्षता	-7167
▁क्षेत्रफल	-7168
▁छत्तीसगढ़	-7169
▁नकारात्मक	-7170
▁निर्देशों	-7171
▁पद्धतियों	-7172
▁पारिस्थित	-7173
▁प्रतिलिपि	-7174
▁प्रोटोकॉल	-7175
▁लाइब्रेरी	-7176
▁वाणिज्यिक	-7177
▁विवेकानंद	-7178
▁संवेदनशील	-7179
▁सामुदायिक	-7180
▁सिद्धान्त	-7181
▁सुपुर्दगी	-7182
▁हस्तक्षेप	-7183
▁अपेक्षाकृत	-7184
▁उत्कृष्टता	-7185
▁उपयोगकर्ता	-7186
▁कार्यालयों	-7187
▁दस्तावेजों	-7188
▁परिवर्तनों	-7189
▁पर्यावरणीय	-7190
▁भ्रष्टाचार	-7191
onstellation	-7192
▁कार्यपालिका	-7193
▁विशेषाधिकार	-7194
▁श्रद्धांजलि	-7195
▁उत्तरदायित्व	-7196
-8	-7197
.%	-7198
.9	-7199
18	-7200
22	-7201
39	-7202
56	-7203
68	-7204
70	-7205
80	-7206
AP	-7207
OM	-7208
af	-7209
ew	-7210
ig	-7211
nd	-7212
pe	-7213
ps	-7214
ut	-7215
¤	-7216
इफ	-7217
ईए	-7218
एच	-7219
कख	-7220
डू	-7221
णे	-7222
थे	-7223
दह	-7224
नज	-7225
पद	-7226
फु	-7227
फू	-7228
रद	-7229
रव	-7230
रस	-7231
रू	-7232
हद	-7233
है	-7234
िव	-7235
ोई	-7236
।-	-7237
१०	-7238
▁o	-7239
▁r	-7240
-11	-7241
.05	-7242
500	-7243
ers	-7244
erv	-7245
hel	-7246
ome	-7247
ont	-7248
ंदी	-7249
ंसक	-7250
आईओ	-7251
इसी	-7252
इस्	-7253
उजी	-7254
एमई	-7255
कोष	-7256
खिक	-7257
गरण	-7258
गिक	-7259
जपे	-7260
जुल	-7261
टने	-7262
टीय	-7263
डीए	-7264
ड्स	-7265
तको	-7266
तला	-7267
ताछ	-7268
तीस	-7269
त्ल	-7270
दीव	-7271
नया	-7272
पत्	-7273
फलक	-7274
फ़ी	-7275
भंग	-7276
भवी	-7277
भीत	-7278
भुत	-7279
महल	-7280
महा	-7281
माद	-7282
यता	-7283
याद	-7284
लित	-7285
लिन	-7286
लीस	-7287
ल्य	-7288
ल्ह	-7289
वात	-7290
वित	-7291
शनी	-7292
शास	-7293
शिप	-7294
शोर	-7295
ष्म	-7296
संघ	-7297
सरत	-7298
ाइन	-7299
ायन	-7300
ियस	-7301
ियॉ	-7302
ुलर	-7303
ुवा	-7304
ूबी	-7305
ोरम	-7306
ोरि	-7307
ोलॉ	-7308
ौरन	-7309
्ये	-7310
्रय	-7311
्रि	-7312
्रु	-7313
▁07	-7314
▁34	-7315
▁45	-7316
▁5.	-7317
▁60	-7318
▁64	-7319
▁90	-7320
▁CD	-7321
▁HT	-7322
▁II	-7323
▁it	-7324
▁अय	-7325
▁एर	-7326
▁ओं	-7327
▁ओल	-7328
▁घण	-7329
▁घि	-7330
▁टि	-7331
▁ठे	-7332
▁ढ़	-7333
▁थै	-7334
▁नज	-7335
▁मण	-7336
▁रम	-7337
▁लख	-7338
▁लड	-7339
▁वॉ	-7340
▁हू	-7341
▁१०	-7342
ener	-7343
olor	-7344
ंबित	-7345
आपको	-7346
उसकी	-7347
ऊंगा	-7348
कर्म	-7349
कहीं	-7350
क़ात	-7351
काएँ	-7352
काया	-7353
ख़लू	-7354
खुदा	-7355
गोया	-7356
चानक	-7357
चाना	-7358
ज़ों	-7359
णुओं	-7360
ण्डल	-7361
त्रि	-7362
द्दी	-7363
न्दे	-7364
पक्ष	-7365
पर्य	-7366
प्ति	-7367
प्ले	-7368
फाइल	-7369
फेसर	-7370
बड़े	-7371
बानी	-7372
बारी	-7373
बिया	-7374
बूती	-7375
ब्बा	-7376
भांश	-7377
यानि	-7378
यालम	-7379
रहित	-7380
रापन	-7381
राशि	-7382
रोहर	-7383
र्णय	-7384
र्मी	-7385
र्वक	-7386
र्वर	-7387
लिंग	-7388
वाया	-7389
विंद	-7390
शियन	-7391
श्मन	-7392
षंगी	-7393
सिंग	-7394
सिंह	-7395
सिडी	-7396
सेना	-7397
सेरो	-7398
स्का	-7399
हमने	-7400
हवीं	-7401
हायत	-7402
ायें	-7403
ारिज	-7404
ार्ट	-7405
िकार	-7406
िकुड	-7407
िदेश	-7408
िपुर	-7409
ियाद	-7410
ुरुप	-7411
ूँकि	-7412
ेरों	-7413
्ट्र	-7414
्तनत	-7415
्राट	-7416
्रेक	-7417
▁(10	-7418
▁190	-7419
▁{0}	-7420
▁अमन	-7421
▁अमर	-7422
▁अलं	-7423
▁अवय	-7424
▁अवल	-7425
▁आदर	-7426
▁आरा	-7427
▁आवि	-7428
▁उज़	-7429
▁ऊतक	-7430
▁एना	-7431
▁एम्	-7432
▁कमर	-7433
▁कम्	-7434
▁करम	-7435
▁काब	-7436
▁कोय	-7437
▁गिन	-7438
▁गुट	-7439
▁घाय	-7440
▁घुट	-7441
▁चश्	-7442
▁चाँ	-7443
▁चुक	-7444
▁चूक	-7445
▁जमी	-7446
▁जमे	-7447
▁जोड	-7448
▁झुक	-7449
▁झेल	-7450
▁ठाक	-7451
▁डरो	-7452
▁ढूँ	-7453
▁ढोल	-7454
▁तंग	-7455
▁तिल	-7456
▁दंत	-7457
▁दिश	-7458
▁दुर	-7459
▁दृश	-7460
▁धान	-7461
▁नकल	-7462
▁नक्	-7463
▁निध	-7464
▁निप	-7465
▁पोल	-7466
▁फुट	-7467
▁फूँ	-7468
▁फूट	-7469
▁फोक	-7470
▁बंध	-7471
▁बख़	-7472
▁बडा	-7473
▁बनो	-7474
▁बलि	-7475
▁बहस	-7476
▁बहि	-7477
▁बां	-7478
▁बिच	-7479
▁बिन	-7480
▁बीस	-7481
▁भूख	-7482
▁मत्	-7483
▁मरी	-7484
▁माय	-7485
▁मीन	-7486
▁मुअ	-7487
▁मेज	-7488
▁मैच	-7489
▁मॉँ	-7490
▁रंज	-7491
▁रघु	-7492
▁रिट	-7493
▁रुक	-7494
▁रूस	-7495
▁रेट	-7496
▁लार	-7497
▁लाह	-7498
▁वशी	-7499
▁वान	-7500
▁विज	-7501
▁वैय	-7502
▁शान	-7503
▁सको	-7504
▁सती	-7505
▁सरी	-7506
▁सल्	-7507
▁सहन	-7508
▁हकी	-7509
▁हेल	-7510
▁ह्य	-7511
.2014	-7512
ather	-7513
ction	-7514
error	-7515
उजीजी	-7516
क़रार	-7517
कुमार	-7518
क्टरी	-7519
ख्तों	-7520
चंद्र	-7521
चरिता	-7522
जपेयी	-7523
तिकला	-7524
तूतों	-7525
दाबाद	-7526
द्दीन	-7527
धिकरण	-7528
ध्याय	-7529
नीयता	-7530
पट्टी	-7531
पत्नी	-7532
पात्र	-7533
फ़िक़	-7534
फ़िगर	-7535
भक्ति	-7536
महिला	-7537
वास्त	-7538
विशेष	-7539
शक्ति	-7540
सूचना	-7541
होंने	-7542
ारिका	-7543
िपुरा	-7544
ेंट्स	-7545
ेशनों	-7546
्यारह	-7547
▁2003	-7548
▁2015	-7549
▁2018	-7550
▁अज़ी	-7551
▁अद्व	-7552
▁अन्व	-7553
▁अभ्य	-7554
▁अमान	-7555
▁अविल	-7556
▁आयकर	-7557
▁इनकी	-7558
▁इष्ट	-7559
▁इसमे	-7560
▁ईस्ट	-7561
▁उपयु	-7562
▁ऊँचे	-7563
▁एकड़	-7564
▁एण्ड	-7565
▁कमरे	-7566
▁कलाम	-7567
▁कश्त	-7568
▁क़ाब	-7569
▁कुशा	-7570
▁कृपा	-7571
▁क्लब	-7572
▁क्षे	-7573
▁गलती	-7574
▁गवर्	-7575
▁गहरे	-7576
▁गाँव	-7577
▁गिना	-7578
▁गुणा	-7579
▁गोरा	-7580
▁घुड़	-7581
▁चंडी	-7582
▁चन्द	-7583
▁चमत्	-7584
▁चार्	-7585
▁चेता	-7586
▁चौथा	-7587
▁छपाई	-7588
▁छिपी	-7589
▁छिपे	-7590
▁जुर्	-7591
▁ज्वर	-7592
▁झाड़	-7593
▁झूठा	-7594
▁झूठे	-7595
▁टर्म	-7596
▁डालर	-7597
▁तिरु	-7598
▁दबाव	-7599
▁दौड़	-7600
▁धोखा	-7601
▁ध्रु	-7602
▁नामा	-7603
▁पचास	-7604
▁पावर	-7605
▁पुरी	-7606
▁पूछे	-7607
▁पूछो	-7608
▁पेशी	-7609
▁पेशे	-7610
▁फर्क	-7611
▁फर्ज	-7612
▁फ़ोन	-7613
▁फैले	-7614
▁बचने	-7615
▁बचाव	-7616
▁बढ़ी	-7617
▁बर्फ	-7618
▁बाएं	-7619
▁बालक	-7620
▁बेख़	-7621
▁बेटी	-7622
▁बेपर	-7623
▁बैठा	-7624
▁ब्रह	-7625
▁भरें	-7626
▁भागे	-7627
▁मन्द	-7628
▁मरना	-7629
▁मरयम	-7630
▁मेटा	-7631
▁मेनू	-7632
▁मोटर	-7633
▁मोटी	-7634
▁यज्ञ	-7635
▁यहीं	-7636
▁यहूद	-7637
▁योनि	-7638
▁राज्	-7639
▁लंदन	-7640
▁लकीर	-7641
▁लाठी	-7642
▁लिपि	-7643
▁लेबल	-7644
▁लोका	-7645
▁वक्र	-7646
▁वर्क	-7647
▁विधा	-7648
▁विला	-7649
▁विषा	-7650
▁शांत	-7651
▁शासक	-7652
▁शाही	-7653
▁शोभा	-7654
▁शौहर	-7655
▁सकाः	-7656
▁सचेत	-7657
▁सटीक	-7658
▁सदृश	-7659
▁सबकी	-7660
▁सीधा	-7661
▁सुगम	-7662
▁सुल्	-7663
▁सूजन	-7664
▁सेंट	-7665
▁सोने	-7666
▁स्तन	-7667
▁स्या	-7668
▁हमको	-7669
▁हमपर	-7670
▁हुईं	-7671
▁होली	-7672
eneric	-7673
कात्मक	-7674
क्रामक	-7675
क्सीजन	-7676
गुज़ार	-7677
पीडीएफ	-7678
भारतीय	-7679
यात्रा	-7680
रेटिंग	-7681
स्फीयर	-7682
स्वामी	-7683
्योंकि	-7684
्रेडिट	-7685
▁अंगों	-7686
▁अंतर्	-7687
▁अगरचे	-7688
▁अगलों	-7689
▁अचानक	-7690
▁अधिनि	-7691
▁अनन्त	-7692
▁अनन्य	-7693
▁अनुया	-7694
▁अर्ज़	-7695
▁अलिफ़	-7696
▁अवरोध	-7697
▁असत्य	-7698
▁आजादी	-7699
▁इन्ते	-7700
▁ऊँचाई	-7701
▁एख्ते	-7702
▁एहसान	-7703
▁ओडिशा	-7704
▁औषधीय	-7705
▁कंपोज	-7706
▁कक्षा	-7707
▁कब्जे	-7708
▁क़त्ल	-7709
▁क़द्र	-7710
▁क़ब्ल	-7711
▁क़रार	-7712
▁कुष्ठ	-7713
▁कॉलेज	-7714
▁कोविड	-7715
▁क्लिप	-7716
▁ख़ुशी	-7717
▁ख्वाब	-7718
▁गर्दन	-7719
▁गुलाम	-7720
▁गेहूं	-7721
▁घण्टे	-7722
▁चिड़ी	-7723
▁चिन्ह	-7724
▁छिद्र	-7725
▁छोड़े	-7726
▁छोड़ो	-7727
▁जंगली	-7728
▁जन्मा	-7729
▁जयपुर	-7730
▁जरिये	-7731
▁जर्नल	-7732
▁ज़बान	-7733
▁जानें	-7734
▁जिसपर	-7735
▁जेम्स	-7736
▁जोड़ा	-7737
▁टेनिस	-7738
▁ट्रेड	-7739
▁ठहराए	-7740
▁डालना	-7741
▁डेयरी	-7742
▁तबाही	-7743
▁ताक़त	-7744
▁तालाब	-7745
▁दिमाग	-7746
▁धरोहर	-7747
▁नाभिक	-7748
▁निकाय	-7749
▁निर्द	-7750
▁पक्का	-7751
▁पट्टे	-7752
▁पढ़ते	-7753
▁परमिट	-7754
▁पश्चा	-7755
▁पालने	-7756
▁पुनरा	-7757
▁पूँजी	-7758
▁पोस्ट	-7759
▁प्लेट	-7760
▁बढ़ाई	-7761
▁बताना	-7762
▁बताये	-7763
▁बदलना	-7764
▁बनाएं	-7765
▁बन्दर	-7766
▁बागान	-7767
▁बुलाए	-7768
▁बुलाओ	-7769
▁बोलना	-7770
▁ब्रेक	-7771
▁भत्ता	-7772
▁भयभीत	-7773
▁भेजता	-7774
▁भ्रमण	-7775
▁मख़लू	-7776
▁मनाया	-7777
▁मर्या	-7778
▁माँगो	-7779
▁मान्य	-7780
▁मुझसे	-7781
▁मुल्क	-7782
▁युग्म	-7783
▁यौगिक	-7784
▁रद्दी	-7785
▁रहमान	-7786
▁रहस्य	-7787
▁रुपया	-7788
▁रूपों	-7789
▁रोकना	-7790
▁लम्बा	-7791
▁लम्बी	-7792
▁लिकुड	-7793
▁लॉन्च	-7794
▁लौटना	-7795
▁वर्मा	-7796
▁विकेट	-7797
▁विधिक	-7798
▁वीर्य	-7799
▁वृक्क	-7800
▁वृद्ध	-7801
▁व्यास	-7802
▁शुष्क	-7803
▁संचरण	-7804
▁संचित	-7805
▁संदेय	-7806
▁सदनों	-7807
▁समझकर	-7808
▁सांवि	-7809
▁साहसी	-7810
▁सीनों	-7811
▁सौंपा	-7812
▁स्टाक	-7813
▁स्ट्र	-7814
▁स्वाम	-7815
▁हटाएँ	-7816
▁हममें	-7817
▁हवाले	-7818
▁हालात	-7819
▁हिमाल	-7820
▁हुर्इ	-7821
आक्साइड	-7822
क्योंकि	-7823
तकोत्तर	-7824
त्तियों	-7825
त्रियों	-7826
निर्माण	-7827
बेहिश्त	-7828
मोहम्मद	-7829
स्ट्रेल	-7830
▁अंशदान	-7831
▁अग्रसर	-7832
▁अज्ञान	-7833
▁अनुभवी	-7834
▁अपराधी	-7835
▁अपूर्ण	-7836
▁अर्जुन	-7837
▁आंकड़े	-7838
▁आज्ञाप	-7839
▁इंदिरा	-7840
▁इसीलिए	-7841
▁एकीकरण	-7842
▁करूंगा	-7843
▁क़ुदरत	-7844
▁किराये	-7845
▁खासतौर	-7846
▁गिरावट	-7847
▁छिपाते	-7848
▁ज़रूरी	-7849
▁जिंदगी	-7850
▁ठहराया	-7851
▁ड्राइव	-7852
▁ढूंढें	-7853
▁तयशुदा	-7854
▁तरीक़े	-7855
▁तरीकों	-7856
▁ताकतवर	-7857
▁तारीख़	-7858
▁दिखाएं	-7859
▁दिखाते	-7860
▁दिखायी	-7861
▁दुर्लभ	-7862
▁नवीकरण	-7863
▁नवीनतम	-7864
▁निकटता	-7865
▁निर्धन	-7866
▁पत्रों	-7867
▁पब्लिक	-7868
▁परसतिश	-7869
▁परिचित	-7870
▁पहलुओं	-7871
▁प्रसंग	-7872
▁प्रेमी	-7873
▁प्रेषक	-7874
▁फोल्डर	-7875
▁बउजीजी	-7876
▁बढ़ाता	-7877
▁बाग़ात	-7878
▁बुलाने	-7879
▁बुलाया	-7880
▁भगवान्	-7881
▁भड़कती	-7882
▁मंत्रि	-7883
▁मलयालम	-7884
▁माँगता	-7885
▁मानकों	-7886
▁मानदंड	-7887
▁मामूली	-7888
▁मालदीव	-7889
▁मुड़कर	-7890
▁मुशरिक	-7891
▁यूरिया	-7892
▁रखेंगे	-7893
▁रात्रि	-7894
▁लम्बाई	-7895
▁वर्षीय	-7896
▁वस्त्र	-7897
▁वाशिंग	-7898
▁विस्था	-7899
▁संगठित	-7900
▁संतुलन	-7901
▁संदत्त	-7902
▁संपन्न	-7903
▁संबन्ध	-7904
▁सदियों	-7905
▁सन्देश	-7906
▁समर्थक	-7907
▁सम्राट	-7908
▁सर्वथा	-7909
▁सल्तनत	-7910
▁सहभागी	-7911
▁सिक्का	-7912
▁सुसंगत	-7913
▁सेनाओं	-7914
▁स्थाना	-7915
▁स्लाइड	-7916
▁हाइड्र	-7917
▁Comment	-7918
▁अनुषंगी	-7919
▁अरक्तता	-7920
▁अवधारणा	-7921
▁आक्रामक	-7922
▁इच्छाओं	-7923
▁उत्पादक	-7924
▁उपबंधों	-7925
▁एकत्रित	-7926
▁ऑफ़लाइन	-7927
▁करतूतों	-7928
▁किताबों	-7929
▁कूटनीति	-7930
▁क्रमांक	-7931
▁क्रांति	-7932
▁क्रिस्ट	-7933
▁क्रेडिट	-7934
▁खुशहाली	-7935
▁चंडीगढ़	-7936
▁जरूरतों	-7937
▁जाएँगें	-7938
▁ड्राफ्ट	-7939
▁दर्दनाक	-7940
▁दोहराया	-7941
▁धन्यवाद	-7942
▁निकालना	-7943
▁निरन्तर	-7944
▁निर्वहन	-7945
▁न्यायिक	-7946
▁पत्रिका	-7947
▁पात्रता	-7948
▁पार्श्व	-7949
▁बंदरगाह	-7950
▁बीवियों	-7951
▁मजदूरों	-7952
▁मध्यस्थ	-7953
▁मलेशिया	-7954
▁महोत्सव	-7955
▁मुख्यतः	-7956
▁मुहम्मद	-7957
▁राजपत्र	-7958
▁राजभाषा	-7959
▁रिकॉर्ड	-7960
▁वाजपेयी	-7961
▁विख्यात	-7962
▁व्याकरण	-7963
▁श्रीमती	-7964
▁समर्थित	-7965
▁सिक्किम	-7966
▁सुचरिता	-7967
▁स्क्रॉल	-7968
▁स्ट्रीम	-7969
▁स्वयंसे	-7970
▁हरियाणा	-7971
▁हिस्सों	-7972
▁अभिलेखों	-7973
▁अस्थिरता	-7974
▁अहमदाबाद	-7975
▁उत्कीर्ण	-7976
▁उपयोगिता	-7977
▁कहानियों	-7978
▁कोशिकाओं	-7979
▁चिकित्सक	-7980
▁ज़बरदस्त	-7981
▁ज़्यादती	-7982
▁जागरूकता	-7983
▁जानेवाले	-7984
▁ज्यादातर	-7985
▁तमिलनाडु	-7986
▁दार्शनिक	-7987
▁देनेवाला	-7988
▁नवान्वेष	-7989
▁निदेशालय	-7990
▁निरीक्षण	-7991
▁पहुँचाया	-7992
▁पुस्तकें	-7993
▁प्रतिदिन	-7994
▁प्रारम्भ	-7995
▁प्रोफेसर	-7996
▁फ़रिश्ते	-7997
▁ब्रैसेरो	-7998
▁भारतीयों	-7999
▁भूतपूर्व	-8000
▁महानिदेश	-8001
▁माध्यमिक	-8002
▁राजकुमार	-8003
▁राष्ट्री	-8004
▁लक्ष्यों	-8005
▁वार्षिकी	-8006
▁विज्ञापन	-8007
▁विद्यालय	-8008
▁विधायिका	-8009
▁शक्तियां	-8010
▁शिकायतों	-8011
▁संकल्पना	-8012
▁संक्रिया	-8013
▁संग्रहित	-8014
▁संरक्षित	-8015
▁साझेदारी	-8016
▁हिन्दुओं	-8017
▁अतिमानसिक	-8018
▁अभिवृद्धि	-8019
▁आवेदनपत्र	-8020
▁उत्तराखंड	-8021
▁एजेंसियों	-8022
▁कॉन्फ़िगर	-8023
▁क्रियान्व	-8024
▁चुनौतियों	-8025
▁प्रतिष्ठा	-8026
▁फरमाबरदार	-8027
▁फिलीस्तीन	-8028
▁यथास्थिति	-8029
▁संभावनाएं	-8030
▁सर्वप्रथम	-8031
▁साझीदारों	-8032
▁स्थितियों	-8033
▁क्लिपबोर्ड	-8034
▁द्विपक्षीय	-8035
▁न्यायालयों	-8036
▁पारिश्रमिक	-8037
▁पूर्ववर्ती	-8038
▁प्रजातियों	-8039
▁बायोस्फीयर	-8040
▁भविष्यवाणी	-8041
▁सिद्धांतों	-8042
▁हिंदुस्तान	-8043
▁कार्यान्वित	-8044
▁पारिस्थितिक	-8045
▁विश्वसनीयता	-8046
▁शरणार्थियों	-8047
▁स्नातकोत्तर	-8048
▁आत्मनिर्भरता	-8049
-3	-8050
-5	-8051
/4	-8052
3.	-8053
37	-8054
7,	-8055
73	-8056
85	-8057
9.	-8058
?-	-8059
AI	-8060
CS	-8061
DE	-8062
ER	-8063
IS	-8064
OP	-8065
OR	-8066
RE	-8067
SE	-8068
UC	-8069
ad	-8070
ck	-8071
eb	-8072
ev	-8073
ib	-8074
ox	-8075
¥	-8076
ँट	-8077
आव	-8078
ईन	-8079
ईश	-8080
ऑफ	-8081
ठन	-8082
डो	-8083
ढे	-8084
तौ	-8085
थन	-8086
धक	-8087
नस	-8088
बद	-8089
बम	-8090
बॉ	-8091
भे	-8092
मौ	-8093
यस	-8094
सफ	-8095
हब	-8096
हृ	-8097
हॉ	-8098
ेत	-8099
▁u	-8100
▁ः	-8101
-08	-8102
-10	-8103
.00	-8104
.01	-8105
.02	-8106
.07	-8107
.10	-8108
LIN	-8109
RAN	-8110
cap	-8111
cur	-8112
end	-8113
ext	-8114
ina	-8115
ind	-8116
lab	-8117
ope	-8118
orm	-8119
ort	-8120
tle	-8121
uth	-8122
{0}	-8123
ंतन	-8124
ंबू	-8125
ंबे	-8126
ंशी	-8127
ईएस	-8128
क़ु	-8129
काई	-8130
काए	-8131
कित	-8132
कूट	-8133
कूब	-8134
कोश	-8135
खना	-8136
खने	-8137
ख़ु	-8138
खार	-8139
खों	-8140
ख्व	-8141
गड़	-8142
ग़र	-8143
ग़ा	-8144
ग़े	-8145
गेह	-8146
गों	-8147
चका	-8148
चिक	-8149
चुर	-8150
जनन	-8151
ज़न	-8152
ज़ब	-8153
जीब	-8154
टकर	-8155
टकी	-8156
टाइ	-8157
टिक	-8158
डाक	-8159
तबा	-8160
थाम	-8161
थ्म	-8162
थ्य	-8163
दगी	-8164
दिर	-8165
दिल	-8166
दूत	-8167
देख	-8168
नगर	-8169
नान	-8170
नास	-8171
परक	-8172
पाए	-8173
पुत	-8174
फेस	-8175
फ्ल	-8176
बीन	-8177
बेल	-8178
बैठ	-8179
ब्ध	-8180
मात	-8181
मेट	-8182
मेन	-8183
मोर	-8184
यीं	-8185
रंग	-8186
राग	-8187
रिश	-8188
रीन	-8189
लाज	-8190
लाव	-8191
लेस	-8192
वती	-8193
वत्	-8194
वरे	-8195
वाँ	-8196
वाय	-8197
विड	-8198
वृत	-8199
शर्	-8200
शिश	-8201
सनी	-8202
समी	-8203
सर्	-8204
सिल	-8205
सूद	-8206
सेन	-8207
हीत	-8208
ाणु	-8209
ापू	-8210
ापे	-8211
िक्	-8212
ितु	-8213
िपल	-8214
िपी	-8215
िशन	-8216
ुति	-8217
ूणा	-8218
ूरा	-8219
ेंग	-8220
ैंक	-8221
ॉमस	-8222
ोंच	-8223
ोदय	-8224
ोधी	-8225
ोषक	-8226
▁00	-8227
▁01	-8228
▁02	-8229
▁1)	-8230
▁36	-8231
▁38	-8232
▁51	-8233
▁70	-8234
▁72	-8235
▁ID	-8236
▁of	-8237
▁ra	-8238
▁अँ	-8239
▁इश	-8240
▁ईस	-8241
▁उग	-8242
▁कब	-8243
▁खर	-8244
▁गल	-8245
▁गै	-8246
▁गॉ	-8247
▁चढ	-8248
▁छे	-8249
▁जौ	-8250
▁ड़	-8251
▁तह	-8252
▁तृ	-8253
▁दं	-8254
▁धम	-8255
▁नस	-8256
▁नै	-8257
▁नॉ	-8258
▁पग	-8259
▁बक	-8260
▁बछ	-8261
▁रॉ	-8262
▁वय	-8263
▁११	-8264
▁“%	-8265
ance	-8266
ania	-8267
menu	-8268
rain	-8269
rate	-8270
rica	-8271
ंगार	-8272
एफसी	-8273
किया	-8274
कीला	-8275
कुफ्	-8276
क्खी	-8277
क्षे	-8278
ख़िल	-8279
ख़ैर	-8280
खाड़	-8281
खाना	-8282
गमूल	-8283
गरीय	-8284
गाढ़	-8285
गानि	-8286
गारी	-8287
चक्र	-8288
चन्द	-8289
चारे	-8290
च्छद	-8291
च्यु	-8292
ज़ेए	-8293
जाने	-8294
जिसे	-8295
जूरी	-8296
झाना	-8297
टर्स	-8298
टाने	-8299
टीएम	-8300
ट्ठी	-8301
डेटा	-8302
णाली	-8303
ताकि	-8304
ताबे	-8305
थड़े	-8306
थरों	-8307
दिया	-8308
दिवस	-8309
दीक़	-8310
नाडा	-8311
नामा	-8312
निंग	-8313
नीचे	-8314
न्दन	-8315
न्ने	-8316
न्सी	-8317
पकों	-8318
पक्व	-8319
पट्ट	-8320
पसंद	-8321
पादक	-8322
पालन	-8323
पिता	-8324
पीछे	-8325
पोषण	-8326
प्पा	-8327
प्ला	-8328
फ़ते	-8329
फाइड	-8330
फ्री	-8331
बाकू	-8332
बाजी	-8333
बामा	-8334
ब्बत	-8335
भवती	-8336
मुना	-8337
मेरी	-8338
मोहन	-8339
म्बई	-8340
म्बे	-8341
यंकर	-8342
यकों	-8343
यारी	-8344
रांत	-8345
र्थी	-8346
र्फ़	-8347
लाया	-8348
लिया	-8349
ल्कि	-8350
ल्लू	-8351
ल्ले	-8352
वर्ण	-8353
वियत	-8354
वेदक	-8355
वेदी	-8356
शल्स	-8357
शीदा	-8358
श्री	-8359
श्रे	-8360
सल्ल	-8361
सिले	-8362
सूली	-8363
स्थल	-8364
स्पी	-8365
स्वा	-8366
स्सी	-8367
हमें	-8368
हाक़	-8369
हाला	-8370
ापित	-8371
ाम्ब	-8372
ास्य	-8373
िएटर	-8374
िलाफ	-8375
िलिक	-8376
ीर्ण	-8377
ुद्र	-8378
ेरिस	-8379
ैरिफ	-8380
ोंका	-8381
ोग्य	-8382
ोनें	-8383
ोरेट	-8384
ोष्ठ	-8385
्रिक	-8386
▁1.5	-8387
▁50%	-8388
▁500	-8389
▁अद्	-8390
▁अधी	-8391
▁अपन	-8392
▁असं	-8393
▁आंस	-8394
▁आर्	-8395
▁आवं	-8396
▁उगा	-8397
▁उथल	-8398
▁उलट	-8399
▁उषा	-8400
▁ऊँट	-8401
▁औरत	-8402
▁कंक	-8403
▁काँ	-8404
▁किर	-8405
▁किल	-8406
▁कीं	-8407
▁खाल	-8408
▁गंध	-8409
▁ग़ु	-8410
▁गुज	-8411
▁गोर	-8412
▁ग्न	-8413
▁घिर	-8414
▁घूम	-8415
▁घोल	-8416
▁चंद	-8417
▁चखा	-8418
▁चतु	-8419
▁चीख	-8420
▁चौक	-8421
▁जना	-8422
▁जरा	-8423
▁जूट	-8424
▁जेर	-8425
▁झुल	-8426
▁टाल	-8427
▁टिक	-8428
▁टूल	-8429
▁टेक	-8430
▁डिर	-8431
▁तस्	-8432
▁ताज	-8433
▁तुन	-8434
▁तौल	-8435
▁त्य	-8436
▁दमन	-8437
▁दाँ	-8438
▁धनु	-8439
▁नूर	-8440
▁पदा	-8441
▁पहे	-8442
▁पान	-8443
▁पाब	-8444
▁पिघ	-8445
▁पीछ	-8446
▁पीड	-8447
▁पूज	-8448
▁फसल	-8449
▁फाइ	-8450
▁फिट	-8451
▁फीस	-8452
▁बक्	-8453
▁बड़	-8454
▁बफर	-8455
▁बरस	-8456
▁बिट	-8457
▁बृह	-8458
▁बेट	-8459
▁भड़	-8460
▁भीम	-8461
▁भोज	-8462
▁मचा	-8463
▁माफ	-8464
▁मुल	-8465
▁रवै	-8466
▁रिए	-8467
▁रेख	-8468
▁रेश	-8469
▁रैम	-8470
▁लंग	-8471
▁लौह	-8472
▁वफा	-8473
▁वरन	-8474
▁वेश	-8475
▁वोल	-8476
▁व्र	-8477
▁शपथ	-8478
▁शैल	-8479
▁संब	-8480
▁सकत	-8481
▁सेन	-8482
▁सोम	-8483
▁हर्	-8484
▁हाइ	-8485
.2013	-8486
.2016	-8487
ation	-8488
ंक्शन	-8489
अच्छे	-8490
आईओएस	-8491
आधारी	-8492
आसमान	-8493
कर्मी	-8494
कार्ब	-8495
किताब	-8496
ख़बरी	-8497
ग़रज़	-8498
ग़ैरह	-8499
गाड़ी	-8500
गुनाह	-8501
चकांक	-8502
चिह्न	-8503
जिहाद	-8504
तमाला	-8505
तानुक	-8506
त्रिम	-8507
द्भूत	-8508
नागरी	-8509
न्तोष	-8510
न्नाथ	-8511
परिषद	-8512
पायों	-8513
पुतली	-8514
पेक्ष	-8515
प्राय	-8516
प्रार	-8517
प्रेत	-8518
फिक्स	-8519
फोर्ड	-8520
ब्रों	-8521
मावली	-8522
योजना	-8523
राधिक	-8524
र्जों	-8525
वधानी	-8526
वासीय	-8527
विष्ट	-8528
ष्कार	-8529
ष्ठान	-8530
संचार	-8531
संहार	-8532
स्थाई	-8533
स्मिक	-8534
स्यों	-8535
हीनता	-8536
ान्तर	-8537
ायत्त	-8538
ार्डन	-8539
ोजिनी	-8540
▁(200	-8541
▁1000	-8542
▁1948	-8543
▁1960	-8544
▁1992	-8545
▁1996	-8546
▁2001	-8547
▁Serv	-8548
▁what	-8549
▁अंधे	-8550
▁अकाद	-8551
▁अक्ट	-8552
▁अक्ल	-8553
▁अनंत	-8554
▁असुर	-8555
▁आएगी	-8556
▁आचरण	-8557
▁आचार	-8558
▁आयाम	-8559
▁आरेख	-8560
▁आर्य	-8561
▁उपनि	-8562
▁एसोस	-8563
▁एस्ट	-8564
▁औजार	-8565
▁औषधि	-8566
▁कम्ब	-8567
▁करवा	-8568
▁कराई	-8569
▁करूँ	-8570
▁करूं	-8571
▁कायम	-8572
▁कारक	-8573
▁कारा	-8574
▁कालि	-8575
▁किंग	-8576
▁किरण	-8577
▁केडी	-8578
▁केबल	-8579
▁कोटि	-8580
▁क्रय	-8581
▁क्री	-8582
▁क्ला	-8583
▁क्ले	-8584
▁ख़ाक	-8585
▁खेला	-8586
▁गुणक	-8587
▁गूगल	-8588
▁घटित	-8589
▁घाटा	-8590
▁चलना	-8591
▁चारा	-8592
▁चुरा	-8593
▁चोंच	-8594
▁जमाओ	-8595
▁जीता	-8596
▁जीवा	-8597
▁टाइप	-8598
▁टिकट	-8599
▁टीका	-8600
▁टेक्	-8601
▁टेबल	-8602
▁टेली	-8603
▁टॉगल	-8604
▁ट्रा	-8605
▁डरता	-8606
▁डालो	-8607
▁तंगी	-8608
▁तनाव	-8609
▁ताना	-8610
▁तुझे	-8611
▁त्रि	-8612
▁थॉमस	-8613
▁दलित	-8614
▁दलील	-8615
▁देनी	-8616
▁धोखे	-8617
▁नाते	-8618
▁नानक	-8619
▁नाना	-8620
▁निका	-8621
▁नींव	-8622
▁नौका	-8623
▁पटना	-8624
▁पढ़े	-8625
▁पतंग	-8626
▁पनाह	-8627
▁पाचन	-8628
▁पायी	-8629
▁पालि	-8630
▁पीना	-8631
▁पीले	-8632
▁पुष्	-8633
▁पूंछ	-8634
▁पूरक	-8635
▁पृथक	-8636
▁पैनल	-8637
▁पैसे	-8638
▁प्रक	-8639
▁प्लस	-8640
▁फर्म	-8641
▁फायर	-8642
▁फोलो	-8643
▁बढते	-8644
▁बन्ध	-8645
▁बस्त	-8646
▁बहुल	-8647
▁बाँध	-8648
▁बिछा	-8649
▁बीबी	-8650
▁भव्य	-8651
▁भावा	-8652
▁भुला	-8653
▁मंगल	-8654
▁मंडप	-8655
▁माउस	-8656
▁मानी	-8657
▁मुवा	-8658
▁मृतक	-8659
▁मेजर	-8660
▁मेवे	-8661
▁मॉन्	-8662
▁मोती	-8663
▁मौजि	-8664
▁यकीन	-8665
▁रहमत	-8666
▁रहीं	-8667
▁राजग	-8668
▁रावण	-8669
▁रुचि	-8670
▁रोज़	-8671
▁लटका	-8672
▁लटकी	-8673
▁लड़क	-8674
▁लड़े	-8675
▁लपेट	-8676
▁लाकर	-8677
▁लाम॰	-8678
▁लाये	-8679
▁लुढ़	-8680
▁लेटे	-8681
▁लौटे	-8682
▁वल्ल	-8683
▁वाकई	-8684
▁वाहन	-8685
▁वेदा	-8686
▁शराब	-8687
▁शल्य	-8688
▁श्या	-8689
▁श्वे	-8690
▁संकल	-8691
▁सतत्	-8692
▁सतीश	-8693
▁सदिश	-8694
▁सफाई	-8695
▁समूद	-8696
▁सवार	-8697
▁सांप	-8698
▁साइन	-8699
▁साहा	-8700
▁सिटी	-8701
▁सिने	-8702
▁सीसी	-8703
▁सुनी	-8704
▁सुलह	-8705
▁सूअर	-8706
▁सूरत	-8707
▁सेवन	-8708
▁स्पी	-8709
▁स्वै	-8710
▁हफ्त	-8711
▁हमास	-8712
▁हम्द	-8713
▁हलाक	-8714
▁हाउस	-8715
16_01.	-8716
action	-8717
कृष्णन	-8718
क्टरों	-8719
चन्द्र	-8720
जिसमें	-8721
ढ़ियों	-8722
त्राशय	-8723
नियामक	-8724
निश्चय	-8725
पतियों	-8726
प्रिया	-8727
बेहश्त	-8728
ब्ल्यू	-8729
माताओं	-8730
रीक्षा	-8731
सरकारी	-8732
साधारण	-8733
सायनिक	-8734
स्टिंग	-8735
ुदायों	-8736
ोरिथ्म	-8737
्यार्थ	-8738
▁2000-	-8739
▁2014)	-8740
▁अंकित	-8741
▁अंगूर	-8742
▁अकेला	-8743
▁अनुपम	-8744
▁अपनाई	-8745
▁अपितु	-8746
▁अभिया	-8747
▁अवतार	-8748
▁आंखों	-8749
▁आदतों	-8750
▁आशंका	-8751
▁आश्रय	-8752
▁इलाके	-8753
▁उड़ाई	-8754
▁उन्ही	-8755
▁उन्हे	-8756
▁उपखंड	-8757
▁उपहार	-8758
▁उर्दू	-8759
▁उर्वर	-8760
▁एक्से	-8761
▁एहकाम	-8762
▁औज़ार	-8763
▁कच्चे	-8764
▁कमीशन	-8765
▁कराती	-8766
▁कराते	-8767
▁क़्या	-8768
▁काबुल	-8769
▁किशोर	-8770
▁केलिए	-8771
▁क्रोए	-8772
▁क्षेञ	-8773
▁खतरों	-8774
▁ख़ुशन	-8775
▁खारिज	-8776
▁खासकर	-8777
▁खोजने	-8778
▁खोलना	-8779
▁ग़लती	-8780
▁ग्रेट	-8781
▁घड़कर	-8782
▁घराने	-8783
▁घोड़े	-8784
▁चढ़ने	-8785
▁चढ़ाई	-8786
▁चमड़े	-8787
▁चलाना	-8788
▁चलेगा	-8789
▁चार्ट	-8790
▁चूँकि	-8791
▁छिपाओ	-8792
▁जगहों	-8793
▁जन्नत	-8794
▁जमाअत	-8795
▁जमानत	-8796
▁जरुरत	-8797
▁जलाने	-8798
▁जायगा	-8799
▁जायज़	-8800
▁जीतना	-8801
▁जॉर्ज	-8802
▁ज्ञात	-8803
▁झुकाव	-8804
▁ठाकुर	-8805
▁ताज़ा	-8806
▁तीनों	-8807
▁दरख्त	-8808
▁दर्शक	-8809
▁दायाँ	-8810
▁दावों	-8811
▁दिखता	-8812
▁दिखाए	-8813
▁दुश्म	-8814
▁दूंगा	-8815
▁दोहरी	-8816
▁धारित	-8817
▁धूम्र	-8818
▁निंदा	-8819
▁निकला	-8820
▁पक्षी	-8821
▁पड़ना	-8822
▁पताका	-8823
▁पन्ना	-8824
▁पिछला	-8825
▁पूछते	-8826
▁पैकेट	-8827
▁पैरों	-8828
▁पॉपअप	-8829
▁प्राइ	-8830
▁प्राप	-8831
▁फायदा	-8832
▁फारसी	-8833
▁बताते	-8834
▁बदकार	-8835
▁बनाती	-8836
▁बन्दे	-8837
▁बल्ले	-8838
▁बहुधा	-8839
▁बहुमत	-8840
▁बेटों	-8841
▁भयंकर	-8842
▁भागवत	-8843
▁भारती	-8844
▁भूकंप	-8845
▁मंडली	-8846
▁मनाही	-8847
▁मरियम	-8848
▁मानने	-8849
▁मानें	-8850
▁मारते	-8851
▁मास्ट	-8852
▁मिलना	-8853
▁मिलान	-8854
▁मिलें	-8855
▁मुंशी	-8856
▁मुताब	-8857
▁मुफ्त	-8858
▁मूत्र	-8859
▁मौखिक	-8860
▁याकूब	-8861
▁रंगों	-8862
▁रीसेट	-8863
▁लगाते	-8864
▁लगेगा	-8865
▁लड़ते	-8866
▁लिखते	-8867
▁लीजिए	-8868
▁वसूली	-8869
▁वाक्य	-8870
▁शख़्स	-8871
▁शासित	-8872
▁शुभार	-8873
▁श्रील	-8874
▁संचयन	-8875
▁संजाल	-8876
▁संतान	-8877
▁संतोष	-8878
▁संभाग	-8879
▁सकेगी	-8880
▁समझने	-8881
▁सहारा	-8882
▁सांसद	-8883
▁सीखते	-8884
▁सुस्प	-8885
▁सृजित	-8886
▁सेंटर	-8887
▁सेक्स	-8888
▁सोचने	-8889
▁स्टाफ	-8890
▁स्टेट	-8891
▁स्तूप	-8892
▁स्थूल	-8893
▁स्नान	-8894
▁स्नेह	-8895
▁हकदार	-8896
Generic	-8897
weather	-8898
ख्तियार	-8899
तुम्हें	-8900
प्रणाली	-8901
भूतियों	-8902
मुसलमान	-8903
श्रेष्ठ	-8904
स्वार्थ	-8905
ापूर्वक	-8906
ेक्ट्री	-8907
▁अंतरित	-8908
▁अद्भुत	-8909
▁अनदेखी	-8910
▁अनुभाग	-8911
▁अपनाने	-8912
▁अभिलाभ	-8913
▁अमरीकी	-8914
▁अमेरिक	-8915
▁अर्द्ध	-8916
▁असमिया	-8917
▁अस्थाई	-8918
▁आँकड़ा	-8919
▁आसियान	-8920
▁इक़रार	-8921
▁इलाकों	-8922
▁इसहाक़	-8923
▁उच्चतर	-8924
▁उत्तेज	-8925
▁उत्सुक	-8926
▁उद्भूत	-8927
▁उन्नति	-8928
▁एजेंसी	-8929
▁ऑपरेशन	-8930
▁कंपोजर	-8931
▁करेंगी	-8932
▁कलाकार	-8933
▁कहलाती	-8934
▁क़ाबिल	-8935
▁क़िबले	-8936
▁काउंटर	-8937
▁कागजात	-8938
▁कानपुर	-8939
▁किताबे	-8940
▁कीमतों	-8941
▁केन्या	-8942
▁कौंसिल	-8943
▁खुल्लम	-8944
▁गवर्नर	-8945
▁ग्यारह	-8946
▁ग्रीवा	-8947
▁चेष्टा	-8948
▁जागरूक	-8949
▁जानकार	-8950
▁जोड़ते	-8951
▁जोरदार	-8952
▁झगड़ते	-8953
▁झिल्ली	-8954
▁टाइम्स	-8955
▁डेल्टा	-8956
▁ड्यूटी	-8957
▁तापमान	-8958
▁तिमाही	-8959
▁दाख़िल	-8960
▁दादाओं	-8961
▁दिखाता	-8962
▁दुबारा	-8963
▁दुश्मन	-8964
▁दूरस्थ	-8965
▁दोज़ख़	-8966
▁दोस्ती	-8967
▁निकलता	-8968
▁निकाली	-8969
▁निपटान	-8970
▁निराशा	-8971
▁निर्गम	-8972
▁निश्चल	-8973
▁निहायत	-8974
▁नीलामी	-8975
▁पड़ोसी	-8976
▁परिवेश	-8977
▁पहचाना	-8978
▁पिछड़ा	-8979
▁पुकारो	-8980
▁पेटेंट	-8981
▁प्रकोप	-8982
▁प्रचंड	-8983
▁प्रचुर	-8984
▁प्रताप	-8985
▁प्रिंट	-8986
▁प्रेरक	-8987
▁प्लेयर	-8988
▁फरमाया	-8989
▁फ़ायदा	-8990
▁फ़िरऔन	-8991
▁फैलाया	-8992
▁बाधाओं	-8993
▁बिलियन	-8994
▁भाषाएँ	-8995
▁भौतिकी	-8996
▁मणिपुर	-8997
▁मधुमेह	-8998
▁मर्दों	-8999
▁मिथ्या	-9000
▁मुअय्य	-9001
▁मुकदमे	-9002
▁मुख़्य	-9003
▁मुद्रण	-9004
▁मुसीबत	-9005
▁मोर्चे	-9006
▁यथार्थ	-9007
▁रचनाएं	-9008
▁रणनीति	-9009
▁लाभांश	-9010
▁वशीभूत	-9011
▁वाक़िफ	-9012
▁वाज़ेए	-9013
▁वास्तु	-9014
▁विकृति	-9015
▁विक्रे	-9016
▁वितरित	-9017
▁विभक्त	-9018
▁विमर्श	-9019
▁विमानन	-9020
▁व्यतीत	-9021
▁व्यर्थ	-9022
▁शान्ति	-9023
▁श्रमिक	-9024
▁संभवतः	-9025
▁समझाया	-9026
▁समर्पण	-9027
▁समूहों	-9028
▁समेकित	-9029
▁सम्मुख	-9030
▁सहयोगी	-9031
▁साइकिल	-9032
▁सारांश	-9033
▁सिखाया	-9034
▁सितारे	-9035
▁सीरिया	-9036
▁सेशल्स	-9037
▁सोवियत	-9038
▁स्थलों	-9039
▁स्थापन	-9040
▁स्वभाव	-9041
▁स्वरुप	-9042
▁हड़ताल	-9043
▁हिमालय	-9044
▁हिम्मत	-9045
तापूर्वक	-9046
▁2007-08	-9047
▁अक्टूबर	-9048
▁अधिवेशन	-9049
▁अपरिचित	-9050
▁अभिदाता	-9051
▁अभियोजन	-9052
▁अवरुद्ध	-9053
▁असाधारण	-9054
▁आज़माइश	-9055
▁इंटरफेस	-9056
▁इन्साफ़	-9057
▁उपलब्धि	-9058
▁एनआईओएस	-9059
▁काउंसिल	-9060
▁कामयाबी	-9061
▁कार्मिक	-9062
▁किन्हीं	-9063
▁किस्मों	-9064
▁कृत्रिम	-9065
▁ख्वाहिश	-9066
▁गंभीरता	-9067
▁गर्भवती	-9068
▁चार्ल्स	-9069
▁चिह्नित	-9070
▁चुनावों	-9071
▁जगन्नाथ	-9072
▁जनजातीय	-9073
▁झगड़ालू	-9074
▁तत्परता	-9075
▁दर्शकों	-9076
▁दिसम्बर	-9077
▁दीक्षित	-9078
▁दीवारों	-9079
▁निकोबार	-9080
▁निधियां	-9081
▁नियोजित	-9082
▁निर्दोष	-9083
▁निवृत्त	-9084
▁पत्थरों	-9085
▁परम्परा	-9086
▁परिचालन	-9087
▁परिपक्व	-9088
▁पहुँचने	-9089
▁पाबन्दी	-9090
▁पुकारते	-9091
▁पोतन्ना	-9092
▁प्रगाढ़	-9093
▁प्रतिमा	-9094
▁प्रदाता	-9095
▁फरिश्ते	-9096
▁बहुमुखी	-9097
▁बागवानी	-9098
▁बोर्डों	-9099
▁भागीदार	-9100
▁मर्यादा	-9101
▁महाभारत	-9102
▁महासागर	-9103
▁माइक्रो	-9104
▁मुद्रित	-9105
▁मैदानों	-9106
▁यूनिटों	-9107
▁रचनाकार	-9108
▁रणनीतिक	-9109
▁वर्गमूल	-9110
▁वस्तुएं	-9111
▁वातानुक	-9112
▁विलोपित	-9113
▁वैचारिक	-9114
▁संभालने	-9115
▁सब्सिडी	-9116
▁समझौतों	-9117
▁समाजवाद	-9118
▁सम्पादन	-9119
▁सरोजिनी	-9120
▁साझीदार	-9121
▁सिलसिले	-9122
▁सुंदरता	-9123
▁सूचकांक	-9124
▁सौभाग्य	-9125
▁स्थिरता	-9126
▁स्वाधीन	-9127
▁हिंदुओं	-9128
गानिस्तान	-9129
▁अग्रेषित	-9130
▁अनुज्ञात	-9131
▁अभिप्रेत	-9132
▁अभियुक्त	-9133
▁आतंकवादी	-9134
▁आस्ट्रेल	-9135
▁ईमानवाले	-9136
▁उत्पीड़न	-9137
▁उन्होनें	-9138
▁उपयुक़्त	-9139
▁ऑपरेटिंग	-9140
▁करनेवाली	-9141
▁क़्योंकि	-9142
▁कामगारों	-9143
▁कार्यकाल	-9144
▁कृतज्ञता	-9145
▁खुशख़बरी	-9146
▁जिन्होने	-9147
▁तात्पर्य	-9148
▁दिनांकित	-9149
▁दिलचस्पी	-9150
▁दूरसंचार	-9151
▁नियंत्रक	-9152
▁नियमावली	-9153
▁नियुक्ति	-9154
▁पहुंचाने	-9155
▁प्रतिरोध	-9156
▁प्रतिषेध	-9157
▁प्रदूषित	-9158
▁प्रमाणित	-9159
▁प्रवाहित	-9160
▁प्रवृत्त	-9161
▁फरिश्तों	-9162
▁बहुमूल्य	-9163
▁बुराइयों	-9164
▁रखनेवाला	-9165
▁रचनात्मक	-9166
▁रूपांतरण	-9167
▁वाशिंगटन	-9168
▁विनियामक	-9169
▁वैयक्तिक	-9170
▁शीर्षिका	-9171
▁समस्याएं	-9172
▁समुदायों	-9173
▁हड्डियों	-9174
पैग़म्बरों	-9175
▁अनुपस्थित	-9176
▁अनुस्मृति	-9177
▁असुरक्षित	-9178
▁इंजीनियरी	-9179
▁उद्यमियों	-9180
▁उपन्यासों	-9181
▁उपाध्यक्ष	-9182
▁कर्तव्यों	-9183
▁दुर्भाग्य	-9184
▁नाफ़रमानी	-9185
▁निर्देशित	-9186
▁पड़नेवाले	-9187
▁पर्वतमाला	-9188
▁प्रकाशनों	-9189
▁प्रवृत्ति	-9190
▁प्रोद्भूत	-9191
▁मध्यस्थता	-9192
▁मूर्तिकला	-9193
▁यात्रियों	-9194
▁रखनेवालों	-9195
▁रेगिस्तान	-9196
▁लानेवालों	-9197
▁विशिष्टता	-9198
▁विशेषताओं	-9199
▁व्यापारिक	-9200
▁श्रीकृष्ण	-9201
▁संभावनाओं	-9202
▁संव्यवहार	-9203
▁सत्याग्रह	-9204
▁स्त्रियाँ	-9205
▁स्वतन्त्र	-9206
▁स्वैच्छिक	-9207
▁हाइड्रोजन	-9208
GenericName	-9209
▁एल्गोरिथ्म	-9210
▁क्रियाकलाप	-9211
▁डिरेक्ट्री	-9212
▁परियोजनाएं	-9213
▁प्रणालियों	-9214
▁प्रतिबिम्ब	-9215
▁प्रभावशाली	-9216
▁बांग्लादेश	-9217
▁मंत्रालयों	-9218
▁मार्गदर्शक	-9219
▁कार्यकलापों	-9220
▁परहेज़गारों	-9221
▁प्रक्रियाओं	-9222
▁प्रतिबद्धता	-9223
▁प्रतीकात्मक	-9224
▁मुख्यमंत्री	-9225
▁सर्वश्रेष्ठ	-9226
▁हस्ताक्षरित	-9227
▁अत्याचारियों	-9228
▁उपयोगकर्ताओं	-9229
▁उपराष्ट्रपति	-9230
▁प्रतिनिधियों	-9231
▁प्रतिभूतियों	-9232
▁प्रतिस्पर्धा	-9233
▁प्रविष्टियों	-9234
▁राज्यक्षेत्र	-9235
▁विमानक्षेत्र	-9236
▁समाचारपत्रों	-9237
▁Constellation	-9238
)-	-9239
,-	-9240
.?	-9241
1)	-9242
11	-9243
23	-9244
4.	-9245
5,	-9246
55	-9247
7)	-9248
86	-9249
9,	-9250
BU	-9251
DA	-9252
PE	-9253
PS	-9254
SN	-9255
TE	-9256
\.	-9257
ea	-9258
em	-9259
ir	-9260
kd	-9261
kt	-9262
mi	-9263
og	-9264
ss	-9265
ul	-9266
um	-9267
ँक	-9268
ंए	-9269
अथ	-9270
आल	-9271
उथ	-9272
ऋण	-9273
एव	-9274
कक	-9275
कह	-9276
खख	-9277
झन	-9278
झू	-9279
टु	-9280
टू	-9281
डम	-9282
दद	-9283
धु	-9284
ध्	-9285
फत	-9286
मस	-9287
वम	-9288
वय	-9289
वॉ	-9290
व्	-9291
िड	-9292
ुद	-9293
ूण	-9294
ेय	-9295
ैब	-9296
ैश	-9297
ॉफ	-9298
”.	-9299
▁)	-9300
▁.	-9301
▁j	-9302
▁ि	-9303
▁’	-9304
-04	-9305
-07	-9306
-20	-9307
.12	-9308
.3;	-9309
012	-9310
DUC	-9311
IME	-9312
ORS	-9313
PRO	-9314
age	-9315
alb	-9316
and	-9317
ard	-9318
are	-9319
ars	-9320
ate	-9321
ect	-9322
key	-9323
lic	-9324
omp	-9325
ord	-9326
ory	-9327
rip	-9328
rom	-9329
tor	-9330
uer	-9331
ype	-9332
ंकी	-9333
ंगु	-9334
ंजा	-9335
ंडे	-9336
ंबा	-9337
अति	-9338
अर्	-9339
आईए	-9340
इरा	-9341
एगी	-9342
एसए	-9343
ऐसा	-9344
कड़	-9345
क़ा	-9346
कुस	-9347
केल	-9348
कोच	-9349
कोल	-9350
खनन	-9351
खबर	-9352
खरा	-9353
खले	-9354
ख़ा	-9355
गंध	-9356
गान	-9357
गाल	-9358
गीय	-9359
चाई	-9360
जबर	-9361
ज़ू	-9362
जिन	-9363
जेए	-9364
जेड	-9365
झाई	-9366
टिव	-9367
टुक	-9368
टेड	-9369
डाई	-9370
डाल	-9371
डिग	-9372
णीय	-9373
ण्ठ	-9374
तरम	-9375
तिज	-9376
तिन	-9377
थात	-9378
थिल	-9379
दाह	-9380
दीप	-9381
धरी	-9382
निय	-9383
निश	-9384
न्ग	-9385
पढ़	-9386
पहर	-9387
पाक	-9388
पीठ	-9389
प्ल	-9390
बरू	-9391
बिन	-9392
ब्स	-9393
भुज	-9394
रीश	-9395
रेल	-9396
रोक	-9397
लयन	-9398
लान	-9399
लास	-9400
लेश	-9401
लॉग	-9402
लोभ	-9403
वरा	-9404
शान	-9405
श्क	-9406
षाण	-9407
संक	-9408
सतन	-9409
समझ	-9410
समा	-9411
सही	-9412
सात	-9413
साफ	-9414
सास	-9415
सीब	-9416
सेल	-9417
सैन	-9418
हीद	-9419
हूर	-9420
हेल	-9421
ातक	-9422
ापर	-9423
ापा	-9424
ायर	-9425
ारत	-9426
ारस	-9427
ासा	-9428
ाहक	-9429
िली	-9430
ुगु	-9431
ूपी	-9432
ूरो	-9433
ेकर	-9434
ॉलर	-9435
ोटी	-9436
ोन्	-9437
ोपा	-9438
ोवा	-9439
।’’	-9440
▁(3	-9441
▁(8	-9442
▁1%	-9443
▁2/	-9444
▁3,	-9445
▁32	-9446
▁46	-9447
▁5,	-9448
▁7.	-9449
▁CO	-9450
▁In	-9451
▁KB	-9452
▁OF	-9453
▁RS	-9454
▁ex	-9455
▁is	-9456
▁on	-9457
▁us	-9458
▁इऋ	-9459
▁कन	-9460
▁कस	-9461
▁गे	-9462
▁टू	-9463
▁तप	-9464
▁तफ	-9465
▁दै	-9466
▁नट	-9467
▁फस	-9468
▁फू	-9469
▁भव	-9470
▁यश	-9471
▁रच	-9472
▁लय	-9473
▁सऋ	-9474
▁१३	-9475
▁१४	-9476
▁१६	-9477
▁१८	-9478
▁२५	-9479
▁२६	-9480
▁’’	-9481
-194	-9482
DUCT	-9483
NAME	-9484
SLAT	-9485
curr	-9486
efit	-9487
elsh	-9488
helf	-9489
kdes	-9490
lami	-9491
lath	-9492
ount	-9493
view	-9494
ंकडा	-9495
ंतीय	-9496
ंदों	-9497
ंपिक	-9498
ंशिक	-9499
ंहास	-9500
अथवा	-9501
आईडी	-9502
इयाँ	-9503
उनको	-9504
एसआई	-9505
एसटी	-9506
कक्ष	-9507
करार	-9508
क़ूब	-9509
काबा	-9510
कारे	-9511
कार्	-9512
ख़ास	-9513
खोरी	-9514
गंगा	-9515
गंबर	-9516
गम्य	-9517
ग़ाम	-9518
चालय	-9519
च्चय	-9520
जन्य	-9521
जवाब	-9522
जहाँ	-9523
ज़ील	-9524
जियम	-9525
जिये	-9526
जैसा	-9527
जोखा	-9528
जोरी	-9529
टर्न	-9530
टीके	-9531
ड़ते	-9532
डाउन	-9533
तनाम	-9534
तनीय	-9535
ताया	-9536
देखो	-9537
देवी	-9538
द्रव	-9539
द्वि	-9540
धाना	-9541
नातन	-9542
नायक	-9543
निजी	-9544
निस्	-9545
नेता	-9546
न्नी	-9547
न्हे	-9548
पद्ध	-9549
पाओं	-9550
पीएम	-9551
पीसी	-9552
पुथल	-9553
फ़ता	-9554
बलता	-9555
बहार	-9556
बहुत	-9557
बाज़	-9558
बूवत	-9559
ब्रू	-9560
ब्रो	-9561
भिन्	-9562
भूषण	-9563
मध्य	-9564
माचल	-9565
मिंग	-9566
मिशन	-9567
मुक़	-9568
मूसा	-9569
यातक	-9570
यानक	-9571
य्यर	-9572
रसूल	-9573
राहट	-9574
रिमा	-9575
रिशस	-9576
र्जन	-9577
र्दा	-9578
र्दे	-9579
र्नी	-9580
र्मर	-9581
र्शी	-9582
र्षक	-9583
लाने	-9584
लेशन	-9585
ल्पी	-9586
ल्लु	-9587
वकों	-9588
वरों	-9589
वाइस	-9590
वाहक	-9591
वाहा	-9592
विदा	-9593
वीसी	-9594
वृति	-9595
वेरी	-9596
शिला	-9597
श्कर	-9598
श्चा	-9599
श्ता	-9600
श्यल	-9601
श्ले	-9602
षकों	-9603
ष्मा	-9604
संभव	-9605
सेसर	-9606
स्बे	-9607
स्ली	-9608
स्वर	-9609
हराब	-9610
हार्	-9611
ान्स	-9612
ाराम	-9613
ार्इ	-9614
ाहक़	-9615
िएशन	-9616
िकोड	-9617
िखित	-9618
िटेड	-9619
ियमन	-9620
ियॉँ	-9621
ुकला	-9622
ुड़े	-9623
ूर्त	-9624
ेहान	-9625
ैतिज	-9626
ॉर्ट	-9627
ॉर्म	-9628
ोंके	-9629
ोकों	-9630
ोतरी	-9631
ोत्त	-9632
ोहित	-9633
▁(11	-9634
▁(5)	-9635
▁187	-9636
▁800	-9637
▁Off	-9638
▁POP	-9639
▁The	-9640
▁URI	-9641
▁URL	-9642
▁are	-9643
▁how	-9644
▁per	-9645
▁अंज	-9646
▁अंट	-9647
▁अचल	-9648
▁अटल	-9649
▁अपा	-9650
▁अफ़	-9651
▁अभा	-9652
▁अमी	-9653
▁अरु	-9654
▁अवन	-9655
▁अहं	-9656
▁अहा	-9657
▁अहि	-9658
▁आदत	-9659
▁आनु	-9660
▁आलू	-9661
▁आशय	-9662
▁इंग	-9663
▁उजा	-9664
▁ऋतु	-9665
▁एन्	-9666
▁एले	-9667
▁ओपन	-9668
▁कंठ	-9669
▁कंस	-9670
▁कबू	-9671
▁करन	-9672
▁कल्	-9673
▁क़ी	-9674
▁काय	-9675
▁किट	-9676
▁कोक	-9677
▁कोट	-9678
▁क्त	-9679
▁खडे	-9680
▁खतर	-9681
▁खपत	-9682
▁खाई	-9683
▁खाद	-9684
▁खाम	-9685
▁खौल	-9686
▁गड़	-9687
▁गद्	-9688
▁गान	-9689
▁गार	-9690
▁गिल	-9691
▁गूँ	-9692
▁गेट	-9693
▁गौड	-9694
▁घने	-9695
▁घास	-9696
▁चखो	-9697
▁चाइ	-9698
▁चूर	-9699
▁चैक	-9700
▁छठी	-9701
▁छान	-9702
▁छुप	-9703
▁छोड	-9704
▁जनक	-9705
▁जनन	-9706
▁ज़ा	-9707
▁जाह	-9708
▁जेन	-9709
▁जैन	-9710
▁ज्व	-9711
▁झार	-9712
▁टेल	-9713
▁डंप	-9714
▁डाई	-9715
▁डिज	-9716
▁ढका	-9717
▁ढाल	-9718
▁तदन	-9719
▁तमा	-9720
▁तान	-9721
▁ताब	-9722
▁तित	-9723
▁थाः	-9724
▁थोप	-9725
▁दार	-9726
▁देह	-9727
▁नाइ	-9728
▁नीम	-9729
▁नील	-9730
▁पंथ	-9731
▁फटा	-9732
▁फरी	-9733
▁फलन	-9734
▁फिन	-9735
▁फीट	-9736
▁फॉर	-9737
▁बगल	-9738
▁बदौ	-9739
▁बरी	-9740
▁बला	-9741
▁बसी	-9742
▁बसे	-9743
▁बही	-9744
▁बाज	-9745
▁बीत	-9746
▁भजन	-9747
▁मंग	-9748
▁मग़	-9749
▁मदन	-9750
▁मसल	-9751
▁मील	-9752
▁मुब	-9753
▁मूठ	-9754
▁मैथ	-9755
▁यहा	-9756
▁राइ	-9757
▁राख	-9758
▁रुए	-9759
▁रुस	-9760
▁रूख	-9761
▁रूट	-9762
▁रेग	-9763
▁रेज	-9764
▁रेत	-9765
▁रोड	-9766
▁लखन	-9767
▁लाय	-9768
▁लिम	-9769
▁लीग	-9770
▁लीन	-9771
▁लोन	-9772
▁वजन	-9773
▁वाइ	-9774
▁वाट	-9775
▁वुड	-9776
▁वें	-9777
▁शार	-9778
▁शिख	-9779
▁शिल	-9780
▁शेर	-9781
▁सतह	-9782
▁सला	-9783
▁सहि	-9784
▁साख	-9785
▁साठ	-9786
▁साय	-9787
▁सेक	-9788
▁सैर	-9789
▁हंस	-9790
▁हनन	-9791
▁हरज	-9792
▁हीन	-9793
▁हृद	-9794
▁हेर	-9795
▁होश	-9796
▁१९८	-9797
.2011	-9798
.2012	-9799
.2017	-9800
.2019	-9801
china	-9802
color	-9803
krain	-9804
label	-9805
sthis	-9806
uthor	-9807
virat	-9808
ंहासन	-9809
काकुल	-9810
कानेक	-9811
केतिक	-9812
केदार	-9813
ख़्या	-9814
गिर्द	-9815
चित्य	-9816
ज़मीन	-9817
ज़ाबे	-9818
जीवित	-9819
टरिंग	-9820
टीकरण	-9821
ड़काव	-9822
ड़ीसा	-9823
डियों	-9824
णियों	-9825
तकालय	-9826
तालों	-9827
तियाँ	-9828
देशों	-9829
धेरों	-9830
ध्वनि	-9831
नियां	-9832
निहित	-9833
नीकरण	-9834
नेरिक	-9835
न्तरण	-9836
परायण	-9837
पादित	-9838
पुस्त	-9839
पृष्ठ	-9840
प्रेर	-9841
फ़ाइल	-9842
बल्कि	-9843
बूझते	-9844
भ्रंश	-9845
मण्डल	-9846
मानंद	-9847
यार्क	-9848
युद्ध	-9849
योग्य	-9850
रिलिक	-9851
रिवाज	-9852
रेकीन	-9853
र्यात	-9854
लग्नक	-9855
लेंडर	-9856
वित्त	-9857
व्यास	-9858
शर्ते	-9859
शासित	-9860
श्तरी	-9861
ष्कृत	-9862
सभाओं	-9863
सूचित	-9864
सूत्र	-9865
स्मार	-9866
स्राव	-9867
स्वती	-9868
हमारा	-9869
ानिर्	-9870
ार्कट	-9871
ार्जन	-9872
ार्थक	-9873
ालनों	-9874
िकाएं	-9875
ितानी	-9876
िलिंग	-9877
िल्या	-9878
ुक़्त	-9879
ुत्फे	-9880
ेंगें	-9881
ोग्रा	-9882
ोलॉजी	-9883
्रावण	-9884
▁100%	-9885
▁1920	-9886
▁1922	-9887
▁1953	-9888
▁1971	-9889
▁1990	-9890
▁1994	-9891
▁HTML	-9892
▁NAME	-9893
▁TRAN	-9894
▁dist	-9895
▁अंको	-9896
▁अंडर	-9897
▁अंदा	-9898
▁अकसर	-9899
▁अजीब	-9900
▁अटकल	-9901
▁अठार	-9902
▁अडिग	-9903
▁अतएव	-9904
▁अतीत	-9905
▁अन्न	-9906
▁अपंग	-9907
▁अपसर	-9908
▁अमृत	-9909
▁अम्र	-9910
▁अव्य	-9911
▁असली	-9912
▁अहमद	-9913
▁आंखे	-9914
▁आंसू	-9915
▁आकडा	-9916
▁आगरा	-9917
▁आड़ा	-9918
▁आप्र	-9919
▁आभास	-9920
▁आलेख	-9921
▁आलोक	-9922
▁आवरण	-9923
▁इंजन	-9924
▁इर्द	-9925
▁ईलाज	-9926
▁उछाल	-9927
▁उठता	-9928
▁उपजा	-9929
▁उपास	-9930
▁उभरी	-9931
▁उलटा	-9932
▁उसमे	-9933
▁एजें	-9934
▁औसतन	-9935
▁कंपन	-9936
▁कतरा	-9937
▁कन्न	-9938
▁कब्र	-9939
▁कहाः	-9940
▁काबू	-9941
▁कुंड	-9942
▁कुरु	-9943
▁केशव	-9944
▁कैदी	-9945
▁कॉफी	-9946
▁कोने	-9947
▁कोमल	-9948
▁क्षण	-9949
▁खनिज	-9950
▁ख़ान	-9951
▁ख़ैर	-9952
▁खोली	-9953
▁गणेश	-9954
▁गयीं	-9955
▁गर्व	-9956
▁गायब	-9957
▁गोपन	-9958
▁घमंड	-9959
▁घातक	-9960
▁चर्म	-9961
▁चलाई	-9962
▁चाँद	-9963
▁चांद	-9964
▁चोरी	-9965
▁चौकी	-9966
▁चौथी	-9967
▁चौदह	-9968
▁छाया	-9969
▁जंतु	-9970
▁जड़ी	-9971
▁जनमत	-9972
▁जहान	-9973
▁ज़ूम	-9974
▁ज्या	-9975
▁झंडा	-9976
▁झूठी	-9977
▁टाउन	-9978
▁टैंक	-9979
▁ट्रॉ	-9980
▁डराओ	-9981
▁डीवी	-9982
▁डुबो	-9983
▁डॉलर	-9984
▁ड्रम	-9985
▁ढूँढ	-9986
▁तबदी	-9987
▁ताबे	-9988
▁तिलक	-9989
▁तुम्	-9990
▁तैना	-9991
▁त्यौ	-9992
▁दत्त	-9993
▁दरजे	-9994
▁दरार	-9995
▁दरों	-9996
▁दलाल	-9997
▁दहला	-9998
▁दांत	-9999
▁दादा	-10000
▁दुष्	-10001
▁देखे	-10002
▁देहा	-10003
▁दौरा	-10004
▁धीमी	-10005
▁नरेश	-10006
▁नवाब	-10007
▁नहरे	-10008
▁नासा	-10009
▁निवे	-10010
▁पढ़ी	-10011
▁पतला	-10012
▁पतली	-10013
▁पम्प	-10014
▁परित	-10015
▁परिर	-10016
▁परिल	-10017
▁पाँव	-10018
▁पिरा	-10019
▁पीएम	-10020
▁पीते	-10021
▁पुनर	-10022
▁पुरः	-10023
▁पुस्	-10024
▁पेशा	-10025
▁पोषण	-10026
▁पौधा	-10027
▁पौधे	-10028
▁प्या	-10029
▁फार्	-10030
▁फिरे	-10031
▁फेंक	-10032
▁फोकस	-10033
▁फौरन	-10034
▁बचकर	-10035
▁बचते	-10036
▁बचना	-10037
▁बनाव	-10038
▁बरकत	-10039
▁बाजू	-10040
▁बुढ़	-10041
▁बैंड	-10042
▁बौने	-10043
▁ब्रो	-10044
▁ब्लॉ	-10045
▁भट्ट	-10046
▁भण्ड	-10047
▁भरता	-10048
▁भूतल	-10049
▁भेड़	-10050
▁भ्रा	-10051
▁मनाए	-10052
▁मसख़	-10053
▁मसीह	-10054
▁माँस	-10055
▁माया	-10056
▁मारी	-10057
▁मुआव	-10058
▁मृदा	-10059
▁मेजब	-10060
▁मौके	-10061
▁म्यु	-10062
▁यक्ष	-10063
▁युसु	-10064
▁रबड़	-10065
▁रविश	-10066
▁रसीद	-10067
▁रसोई	-10068
▁राहे	-10069
▁रूपए	-10070
▁रोके	-10071
▁रोचक	-10072
▁रोपण	-10073
▁रोमा	-10074
▁लड़ो	-10075
▁लामा	-10076
▁लायक	-10077
▁वनों	-10078
▁वबाल	-10079
▁वरना	-10080
▁वसंत	-10081
▁वसूल	-10082
▁वाहक	-10083
▁विषम	-10084
▁व्यप	-10085
▁व्रत	-10086
▁शंकर	-10087
▁शर्म	-10088
▁शाला	-10089
▁शिला	-10090
▁शीशे	-10091
▁श्ले	-10092
▁संधि	-10093
▁संपु	-10094
▁सजदे	-10095
▁सबने	-10096
▁सबूत	-10097
▁समता	-10098
▁समेत	-10099
▁सर्क	-10100
▁साम्	-10101
▁सिया	-10102
▁सिले	-10103
▁सीखो	-10104
▁सुअर	-10105
▁सुपर	-10106
▁सूखी	-10107
▁सॉफ़	-10108
▁स्टी	-10109
▁स्टो	-10110
▁स्पे	-10111
▁स्वि	-10112
▁हलका	-10113
▁हांग	-10114
▁हिमन	-10115
▁हुये	-10116
▁हैंड	-10117
▁२००४	-10118
africa	-10119
enefit	-10120
keycap	-10121
अर्थात	-10122
आधारित	-10123
उन्हें	-10124
करियों	-10125
क्रमित	-10126
क्षरता	-10127
ग्राही	-10128
च्छेदन	-10129
जीलैंड	-10130
ज्ञानी	-10131
पचारिक	-10132
प्रधान	-10133
फ्रेंस	-10134
बन्दों	-10135
भागिता	-10136
मूर्ति	-10137
मेंटों	-10138
म्पाओं	-10139
यन्त्र	-10140
लोस्कर	-10141
वास्तव	-10142
वीक्षा	-10143
व्यापी	-10144
सन्देह	-10145
स्परिक	-10146
हिन्दी	-10147
ानांतर	-10148
ानियों	-10149
ुरुस्त	-10150
▁#-#-#	-10151
▁(1956	-10152
▁2015)	-10153
▁2017)	-10154
▁अंकुर	-10155
▁अकेली	-10156
▁अखबार	-10157
▁अतिथि	-10158
▁अधूरा	-10159
▁अन्धा	-10160
▁अभिनय	-10161
▁असबाब	-10162
▁अस्थि	-10163
▁आंशिक	-10164
▁आगामी	-10165
▁आच्छा	-10166
▁आयुर्	-10167
▁इंस्ट	-10168
▁इनसान	-10169
▁इबलीस	-10170
▁इरादा	-10171
▁इस्मा	-10172
▁उड़ान	-10173
▁उतारा	-10174
▁उतारी	-10175
▁उत्सा	-10176
▁उद्भव	-10177
▁उपवास	-10178
▁उपहास	-10179
▁उल्टी	-10180
▁एक्सट	-10181
▁एल्बम	-10182
▁ऑंकडा	-10183
▁ओबामा	-10184
▁कनाडा	-10185
▁क़बूल	-10186
▁कार्ल	-10187
▁कालीन	-10188
▁किराए	-10189
▁किसने	-10190
▁कुछेक	-10191
▁केडीई	-10192
▁कोयला	-10193
▁क्रूर	-10194
▁खाड़ी	-10195
▁खुराक	-10196
▁खुलना	-10197
▁खुलने	-10198
▁खेलते	-10199
▁गरिमा	-10200
▁गाड़ी	-10201
▁गुनेह	-10202
▁गुमान	-10203
▁गोपुर	-10204
▁ग्रुप	-10205
▁चाहने	-10206
▁चिंघा	-10207
▁चिकनी	-10208
▁चित्त	-10209
▁चुनता	-10210
▁चुनते	-10211
▁चुपके	-10212
▁चेहरा	-10213
▁चौधरी	-10214
▁छुट्ट	-10215
▁जरुरी	-10216
▁जवानी	-10217
▁जहाँन	-10218
▁जानना	-10219
▁जानों	-10220
▁जिलों	-10221
▁जीर्ण	-10222
▁जीवंत	-10223
▁जेहाद	-10224
▁झगड़े	-10225
▁झूठला	-10226
▁ट्राइ	-10227
▁डब्लू	-10228
▁डालकर	-10229
▁डेविड	-10230
▁तलाक़	-10231
▁तादाद	-10232
▁तारों	-10233
▁तृतीय	-10234
▁तोपों	-10235
▁त्वचा	-10236
▁दबाने	-10237
▁दार्ज	-10238
▁दिखती	-10239
▁दिखने	-10240
▁दिखाओ	-10241
▁दिलाओ	-10242
▁देखती	-10243
▁देतीं	-10244
▁दोपहर	-10245
▁धर्मा	-10246
▁नब्बे	-10247
▁नागाल	-10248
▁नायडू	-10249
▁नाहक़	-10250
▁निगेह	-10251
▁निचला	-10252
▁निचली	-10253
▁निदान	-10254
▁निराश	-10255
▁निस्प	-10256
▁नींबू	-10257
▁नोड्स	-10258
▁पंचाय	-10259
▁पकड़े	-10260
▁पढ़कर	-10261
▁पढ़ाई	-10262
▁पत्ता	-10263
▁पत्ती	-10264
▁परतों	-10265
▁पराजय	-10266
▁पार्ट	-10267
▁पीछला	-10268
▁पुराण	-10269
▁पूजते	-10270
▁पेयजल	-10271
▁पेरिस	-10272
▁पैमान	-10273
▁प्यार	-10274
▁प्रसव	-10275
▁फसलों	-10276
▁फिलीप	-10277
▁फीसदी	-10278
▁फेरकर	-10279
▁फैसले	-10280
▁फॉन्ट	-10281
▁बक्से	-10282
▁बजाएँ	-10283
▁बजाया	-10284
▁बढ़ता	-10285
▁बढावा	-10286
▁बताती	-10287
▁बनावट	-10288
▁बम्बई	-10289
▁बलराम	-10290
▁बायाँ	-10291
▁बिल्ड	-10292
▁बूढ़े	-10293
▁बेचने	-10294
▁बैठने	-10295
▁बॉक्स	-10296
▁भयानक	-10297
▁भाग्य	-10298
▁भूभाग	-10299
▁मंजूर	-10300
▁मनाते	-10301
▁मरतबा	-10302
▁मराठा	-10303
▁मलामत	-10304
▁मलाशय	-10305
▁मशहूर	-10306
▁माणिक	-10307
▁मारकर	-10308
▁मार्क	-10309
▁मूलतः	-10310
▁मैक्स	-10311
▁मोटाई	-10312
▁मोहलत	-10313
▁रक्षक	-10314
▁राक्ष	-10315
▁रास्त	-10316
▁रियास	-10317
▁रेखीय	-10318
▁रोकता	-10319
▁रोशनी	-10320
▁लगाना	-10321
▁लगेगी	-10322
▁लश्कर	-10323
▁लाखों	-10324
▁लार्ड	-10325
▁लाहौर	-10326
▁लेखों	-10327
▁लॉगइन	-10328
▁लॉगिन	-10329
▁लोकता	-10330
▁लौटाए	-10331
▁वाजेए	-10332
▁वाष्प	-10333
▁विजयी	-10334
▁विधवा	-10335
▁विफलः	-10336
▁वृंदा	-10337
▁वेल्स	-10338
▁वेस्ट	-10339
▁वैदिक	-10340
▁वैधता	-10341
▁वोल्ट	-10342
▁व्यंग	-10343
▁व्याज	-10344
▁शिविर	-10345
▁शेख़ी	-10346
▁श्वेत	-10347
▁संकाय	-10348
▁संभोग	-10349
▁संयोग	-10350
▁सख्ती	-10351
▁समझना	-10352
▁समानु	-10353
▁समेकन	-10354
▁सहारे	-10355
▁साकार	-10356
▁साधना	-10357
▁सालेह	-10358
▁सिंगा	-10359
▁सिंधु	-10360
▁सिरों	-10361
▁सुरंग	-10362
▁सोचना	-10363
▁सौंपी	-10364
▁स्कीम	-10365
▁स्कैन	-10366
▁स्कोप	-10367
▁स्थगन	-10368
▁स्थाई	-10369
▁स्पैम	-10370
▁हरिजन	-10371
▁हल्का	-10372
▁हल्के	-10373
▁हारून	-10374
▁हिजरत	-10375
▁हुसैन	-10376
PRODUCT	-10377
SLATORS	-10378
albania	-10379
जहन्नुम	-10380
त्तियां	-10381
त्वर्ती	-10382
धिकारिक	-10383
निर्यात	-10384
न्त्रित	-10385
भावस्था	-10386
र्याप्त	-10387
वाहियों	-10388
विनियमन	-10389
विन्यास	-10390
श्चात्य	-10391
श्वसनीय	-10392
सम्बन्ध	-10393
सामग्री	-10394
साहित्य	-10395
स्पर्शी	-10396
ाम्बिया	-10397
ुस्तानी	-10398
▁Office	-10399
▁अंकारा	-10400
▁अंधकार	-10401
▁अदृश्य	-10402
▁अनेकों	-10403
▁अन्तरा	-10404
▁अपनाते	-10405
▁अप्रति	-10406
▁अब्दुल	-10407
▁अभिभाव	-10408
▁अमरीका	-10409
▁अलंकरण	-10410
▁अलिफ़॰	-10411
▁अवलोकन	-10412
▁अविलंब	-10413
▁असफलता	-10414
▁अहंकार	-10415
▁आकर्षक	-10416
▁आदेशों	-10417
▁आपदाओं	-10418
▁आपरेशन	-10419
▁आयातित	-10420
▁आयुर्व	-10421
▁आरंभिक	-10422
▁आरोग्य	-10423
▁आवृत्त	-10424
▁इंतजार	-10425
▁इन्द्र	-10426
▁इन्हीं	-10427
▁इलैक्ट	-10428
▁उड़ीसा	-10429
▁उदयपुर	-10430
▁उद्धार	-10431
▁उद्धृत	-10432
▁उन्नयन	-10433
▁उन्माद	-10434
▁उपक्रम	-10435
▁उपग्रह	-10436
▁एनपीएस	-10437
▁एशियाई	-10438
▁ओलंपिक	-10439
▁औचित्य	-10440
▁कर्मों	-10441
▁कवियों	-10442
▁कहलाता	-10443
▁कहेगें	-10444
▁क़ादिर	-10445
▁कारकों	-10446
▁कारणों	-10447
▁कार्यो	-10448
▁कावेरी	-10449
▁किराया	-10450
▁कुशादा	-10451
▁खरीदने	-10452
▁ख़राबी	-10453
▁ख़िलाफ	-10454
▁ग़ुलाम	-10455
▁गुस्से	-10456
▁गोविंद	-10457
▁ग्रस्त	-10458
▁चन्द्र	-10459
▁चिन्ता	-10460
▁चिल्ला	-10461
▁चेतावन	-10462
▁चेन्नई	-10463
▁छवियों	-10464
▁छुपाएँ	-10465
▁जनजाति	-10466
▁जवाबदे	-10467
▁ज़रुरत	-10468
▁जांचें	-10469
▁जात्रा	-10470
▁जुड़ने	-10471
▁जोड़ता	-10472
▁झुठलाए	-10473
▁टिप्पण	-10474
▁ट्रस्ट	-10475
▁डाक्टर	-10476
▁ड्रग्स	-10477
▁तश्तरी	-10478
▁तसदीक़	-10479
▁तस्बीह	-10480
▁ताजमहल	-10481
▁तालिका	-10482
▁तेलुगु	-10483
▁तैयारी	-10484
▁दक्षता	-10485
▁दिवसीय	-10486
▁दुविधा	-10487
▁देखरेख	-10488
▁देखिये	-10489
▁देखेगा	-10490
▁देखोगे	-10491
▁धर्मों	-10492
▁धाराएं	-10493
▁नाटकों	-10494
▁निकलकर	-10495
▁निकलती	-10496
▁निकलना	-10497
▁निकासी	-10498
▁निन्दा	-10499
▁निरस्त	-10500
▁निर्बल	-10501
▁निवेशक	-10502
▁नुत्फे	-10503
▁पकड़ने	-10504
▁परिमाण	-10505
▁परिसंप	-10506
▁पर्यटक	-10507
▁पहचाने	-10508
▁पाठकों	-10509
▁पिछड़े	-10510
▁पितामह	-10511
▁पूछताछ	-10512
▁पूर्वक	-10513
▁पेड़ों	-10514
▁पैगंबर	-10515
▁पैटर्न	-10516
▁पोशीदा	-10517
▁प्रचलन	-10518
▁प्रजनन	-10519
▁प्रशंस	-10520
▁प्रसाद	-10521
▁प्राणी	-10522
▁प्रातः	-10523
▁प्रेषण	-10524
▁प्लगिन	-10525
▁फरमाता	-10526
▁बंगाली	-10527
▁बर्लिन	-10528
▁बलिदान	-10529
▁बशर्ते	-10530
▁बहुदेव	-10531
▁बाग़ों	-10532
▁बेपरवा	-10533
▁भेदभाव	-10534
▁मंज़िल	-10535
▁मंजूरी	-10536
▁मक़सूद	-10537
▁मजिस्ट	-10538
▁मत्स्य	-10539
▁मनपसंद	-10540
▁मशीनरी	-10541
▁मस्ज़ि	-10542
▁महत्वा	-10543
▁महानगर	-10544
▁महासभा	-10545
▁मुद्दा	-10546
▁मुर्दा	-10547
▁मूलभूत	-10548
▁मेट्रो	-10549
▁मेमोरी	-10550
▁मेहमान	-10551
▁मेहराब	-10552
▁मैत्री	-10553
▁मॉन्टे	-10554
▁मॉरिशस	-10555
▁याक़ूब	-10556
▁यूनियन	-10557
▁राजपूत	-10558
▁राज़्य	-10559
▁रिसालत	-10560
▁रोकथाम	-10561
▁लोथड़े	-10562
▁वग़ैरह	-10563
▁वर्तनी	-10564
▁वर्ल्ड	-10565
▁विक्रय	-10566
▁विधिवत	-10567
▁विवेचन	-10568
▁वृत्ता	-10569
▁वेदांत	-10570
▁शस्त्र	-10571
▁शानदार	-10572
▁श्रावण	-10573
▁संकुचन	-10574
▁संगणना	-10575
▁संबोधन	-10576
▁सत्कार	-10577
▁समीकरण	-10578
▁साक्षा	-10579
▁सातवीं	-10580
▁साधनों	-10581
▁सामग्र	-10582
▁सार्थक	-10583
▁साहसिक	-10584
▁सिनेमा	-10585
▁सिर्फ़	-10586
▁सुगमता	-10587
▁सुन्दर	-10588
▁सुशासन	-10589
▁सूरदास	-10590
▁सेलुलर	-10591
▁सौहार्	-10592
▁स्याही	-10593
▁स्वराज	-10594
▁स्वरों	-10595
▁स्वीडन	-10596
▁हफ्तों	-10597
▁हालिया	-10598
lathrate	-10599
कुफ्फ़ार	-10600
तुम्हारा	-10601
तुम्हारी	-10602
परिवर्तन	-10603
▁2006-07	-10604
▁अंग्रेज	-10605
▁अनुक्रम	-10606
▁अनुयायी	-10607
▁अन्वेषण	-10608
▁अपमानित	-10609
▁अफ्रीकी	-10610
▁अहिल्या	-10611
▁आकस्मिक	-10612
▁आखिरकार	-10613
▁आज़माईश	-10614
▁आदर्शों	-10615
▁आनेवाली	-10616
▁आपराधिक	-10617
▁इकाइयां	-10618
▁उच्चारण	-10619
▁उन्मूलन	-10620
▁एक्सेसे	-10621
▁ऑक्सीजन	-10622
▁कठपुतली	-10623
▁कड़ियाँ	-10624
▁कम्प्यू	-10625
▁कृतियों	-10626
▁क्यूंकि	-10627
▁गणतंत्र	-10628
▁गर्भाशय	-10629
▁गोलाकार	-10630
▁ग्रंथों	-10631
▁घरवालों	-10632
▁चिड़िया	-10633
▁चित्रों	-10634
▁चौपायों	-10635
▁छिड़काव	-10636
▁जन्मजात	-10637
▁जन्मदिन	-10638
▁जेनेरिक	-10639
▁झुठलाने	-10640
▁टर्मिनल	-10641
▁ट्रैफिक	-10642
▁ठेकेदार	-10643
▁तत्पश्च	-10644
▁तदनुसार	-10645
▁देवताओं	-10646
▁निकालता	-10647
▁निकालें	-10648
▁निमित्त	-10649
▁निम्नतर	-10650
▁निरूपित	-10651
▁निर्जीव	-10652
▁नेअमतों	-10653
▁परिप्रे	-10654
▁परिसीमा	-10655
▁परीक्षक	-10656
▁पर्वतीय	-10657
▁पहाड़ों	-10658
▁पहुँचता	-10659
▁पहुँचना	-10660
▁पूर्वान	-10661
▁प्रलेखन	-10662
▁प्रिंटर	-10663
▁बादशाही	-10664
▁बेटियाँ	-10665
▁मज़दूरी	-10666
▁मलेरिया	-10667
▁महिलाएं	-10668
▁मालिकों	-10669
▁मुकाबला	-10670
▁मुताबिक	-10671
▁मुर्दों	-10672
▁मॉड्यूल	-10673
▁मोतीलाल	-10674
▁यंत्रों	-10675
▁यूनिकोड	-10676
▁योजनाएं	-10677
▁रक्तचाप	-10678
▁रविशंकर	-10679
▁राजशाही	-10680
▁रेडियों	-10681
▁रोगियों	-10682
▁लाभप्रद	-10683
▁लिमिटेड	-10684
▁वामपंथी	-10685
▁विधियों	-10686
▁विपक्षी	-10687
▁वियतनाम	-10688
▁विलक्षण	-10689
▁विश्वभर	-10690
▁शुभारंभ	-10691
▁शुल्कों	-10692
▁शोकाकुल	-10693
▁संख़्या	-10694
▁संगोष्ठ	-10695
▁संतुलित	-10696
▁संदिग्ध	-10697
▁सदाबहार	-10698
▁समायोजन	-10699
▁समाशोधन	-10700
▁समुच्चय	-10701
▁सरस्वती	-10702
▁सिंहासन	-10703
▁सिकुड़े	-10704
▁सुधारों	-10705
▁सूचनाएं	-10706
▁सूचनाओं	-10707
▁स्कीमों	-10708
▁स्तंभों	-10709
▁स्मार्ट	-10710
▁हाथियों	-10711
▁हिमालयन	-10712
.09.2011,	-10713
viratlami	-10714
प्रक्रिया	-10715
मुसलमानों	-10716
▁अंटार्कट	-10717
▁अंतरिक्ष	-10718
▁अद्वितीय	-10719
▁अनापत्ति	-10720
▁अनुलग्नक	-10721
▁अनुष्ठान	-10722
▁अनेकानेक	-10723
▁अभिप्राय	-10724
▁अविश्वास	-10725
▁अस्वीकार	-10726
▁आच्छादित	-10727
▁इंग्लैंड	-10728
▁इन्होंने	-10729
▁इम्तेहान	-10730
▁उल्लिखित	-10731
▁एख्तेयार	-10732
▁एसोसिएशन	-10733
▁कथावस्तु	-10734
▁करनेवालो	-10735
▁कर्मियों	-10736
▁ख़ुशनूदी	-10737
▁गुनाहगार	-10738
▁चर्मपत्र	-10739
▁त्रिपुरा	-10740
▁दिशानिर्	-10741
▁देवनागरी	-10742
▁द्वितीयक	-10743
▁धूम्रपान	-10744
▁नवीकरणीय	-10745
▁नागरिकता	-10746
▁निर्यातक	-10747
▁निवृत्ती	-10748
▁निष्पक्ष	-10749
▁निष्पादन	-10750
▁परिणामों	-10751
▁परिदृश्य	-10752
▁परिपूर्ण	-10753
▁पहुँचाने	-10754
▁पूर्णतया	-10755
▁पूर्वजों	-10756
▁प्रख्यात	-10757
▁प्रशासित	-10758
▁प्रोफाइल	-10759
▁फ़रिश्ता	-10760
▁फ़ॉन्ट्स	-10761
▁बर्दाश्त	-10762
▁बल्लेबाज	-10763
▁भावात्मक	-10764
▁मतदाताओं	-10765
▁मसख़रापन	-10766
▁मानदंडों	-10767
▁मुनाफिक़	-10768
▁मूत्राशय	-10769
▁रहनेवाली	-10770
▁रहनेवाले	-10771
▁राजमार्ग	-10772
▁रासायनिक	-10773
▁रेखांकित	-10774
▁विधेयकों	-10775
▁शास्त्री	-10776
▁शुक्राणु	-10777
▁श्रीलंका	-10778
▁संशोधनों	-10779
▁संस्थाएं	-10780
▁समाजवादी	-10781
▁समानांतर	-10782
▁समायोजित	-10783
▁समारोहों	-10784
▁समुद्रों	-10785
▁सम्बंधित	-10786
▁सहभागिता	-10787
▁सांकेतिक	-10788
▁सांविधिक	-10789
▁साइरिलिक	-10790
▁सुस्पष्ट	-10791
▁स्टेशनों	-10792
▁स्वच्छता	-10793
▁स्वायत्त	-10794
▁स्वेच्छा	-10795
▁हथियारों	-10796
क्रियात्मक	-10797
▁#-#-#-#-#	-10798
▁whatsthis	-10799
▁अधिनियमित	-10800
▁अध्यापकों	-10801
▁अनुक्रिया	-10802
▁अपर्याप्त	-10803
▁अस्वीकृति	-10804
▁आज्ञाकारी	-10805
▁आज्ञापालन	-10806
▁इन्तेज़ार	-10807
▁उत्पादकता	-10808
▁कार्यशाला	-10809
▁कीटनाशकों	-10810
▁केन्द्रित	-10811
▁क्रोएशिया	-10812
▁गिरफ्तारी	-10813
▁ग्राफिक्स	-10814
▁ग्रीनहाउस	-10815
▁ज़बरदस्ती	-10816
▁जिम्मेदार	-10817
▁द्विआधारी	-10818
▁नवान्वेषी	-10819
▁निवासियों	-10820
▁निश्चिन्त	-10821
▁न्यूयार्क	-10822
▁पत्रकारों	-10823
▁परहेज़गार	-10824
▁परिचालनों	-10825
▁पारस्परिक	-10826
▁पाश्चात्य	-10827
▁प्रकटीकरण	-10828
▁प्रगतिशील	-10829
▁प्रतिभाओं	-10830
▁प्रदाताओं	-10831
▁प्रेमचन्द	-10832
▁प्रोफ़ाइल	-10833
▁बीमारियों	-10834
▁मंत्रियों	-10835
▁मख़लूक़ात	-10836
▁माननेवाले	-10837
▁मुनाफ़िक़	-10838
▁रक्तस्राव	-10839
▁लोकायुक्त	-10840
▁वास्तुकला	-10841
▁विचारधारा	-10842
▁व्याख्यान	-10843
▁शिष्टमंडल	-10844
▁श्रेणियों	-10845
▁संपरीक्षा	-10846
▁सम्प्रदाय	-10847
▁सम्बन्धों	-10848
▁सांख्यिकी	-10849
▁सुविधाजनक	-10850
▁स्वामित्व	-10851
▁हस्तांतरण	-10852
▁अनुकम्पाओं	-10853
▁अल्पसंख्यक	-10854
▁अविश्वसनीय	-10855
▁आकांक्षाओं	-10856
▁उपलब्धियां	-10857
▁कार्यवृत्त	-10858
▁किर्लोस्कर	-10859
▁गर्भावस्था	-10860
▁ज़िम्मेदार	-10861
▁दार्जिलिंग	-10862
▁निर्देशांक	-10863
▁निर्माताओं	-10864
▁पेट्रोलियम	-10865
▁प्रतिबंधों	-10866
▁प्रमाणीकरण	-10867
▁प्रशिक्षित	-10868
▁प्रस्तावित	-10869
▁प्रस्तावों	-10870
▁प्रायद्वीप	-10871
▁फरमाबरदारी	-10872
▁मजिस्ट्रेट	-10873
▁राधाकृष्णन	-10874
▁वाक़िफ़कार	-10875
▁वास्तविकता	-10876
▁विधानसभाओं	-10877
▁विशेषज्ञों	-10878
▁शताब्दियों	-10879
▁श्रीवास्तव	-10880
▁सॉफ़्टवेयर	-10881
▁TRANSLATORS	-10882
▁अन्यायपूर्ण	-10883
▁अफगानिस्तान	-10884
▁अर्थशास्त्र	-10885
▁आत्मविश्वास	-10886
▁आस्ट्रेलिया	-10887
▁कुरुक्षेत्र	-10888
▁क्षतिग्रस्त	-10889
▁न्यायाधिकरण	-10890
▁महाविद्यालय	-10891
▁लोकतांत्रिक	-10892
▁सांप्रदायिक	-10893
▁सेवानिवृत्त	-10894
▁आयुर्विज्ञान	-10895
▁कार्यवाहियों	-10896
▁पश्चात्वर्ती	-10897
▁प्रस्तुतिकरण	-10898
▁प्रौद्योगिकीय	-10899
▁फिलीस्तीनियों	-10900
▁इलेक्ट्रॉनिक्स	-10901
▁प्राप्तकर्ताओं	-10902
▁अन्तर्राष्ट्रीय	-10903
",	-10904
%)	-10905
)/	-10906
->	-10907
.-	-10908
./	-10909
04	-10910
06	-10911
07	-10912
09	-10913
28	-10914
2}	-10915
3,	-10916
31	-10917
33	-10918
34	-10919
35	-10920
36	-10921
4,	-10922
47	-10923
53	-10924
6,	-10925
62	-10926
72	-10927
8.	-10928
81	-10929
;.	-10930
AC	-10931
AK	-10932
AL	-10933
CD	-10934
GP	-10935
IT	-10936
MB	-10937
NG	-10938
NT	-10939
OS	-10940
RT	-10941
SB	-10942
TP	-10943
Tw	-10944
ah	-10945
ai	-10946
ci	-10947
cu	-10948
de	-10949
gs	-10950
if	-10951
lu	-10952
ov	-10953
pp	-10954
ro	-10955
sp	-10956
tr	-10957
¤¥	-10958
ँए	-10959
ँघ	-10960
आइ	-10961
आम	-10962
ईं	-10963
ईओ	-10964
उल	-10965
ऊद	-10966
एट	-10967
ऐं	-10968
कः	-10969
कन	-10970
कब	-10971
गं	-10972
गज	-10973
गै	-10974
घट	-10975
छि	-10976
जक	-10977
जग	-10978
जज	-10979
झल	-10980
ञ्	-10981
टस	-10982
डऋ	-10983
तख	-10984
तब	-10985
थै	-10986
थो	-10987
थ्	-10988
नम	-10989
पस	-10990
बख	-10991
भौ	-10992
मट	-10993
मॉ	-10994
रब	-10995
रम	-10996
लं	-10997
वो	-10998
शर	-10999
67	-11000
सप	-11001
सृ	-11002
हण	-11003
हू	-11004
िण	-11005
ुँ	-11006
ुए	-11007
ुष	-11008
ॅम	-11009
ेण	-11010
ॉस	-11011
ोव	-11012
ौं	-11013
ौक	-11014
०३	-11015
११	-11016
”,	-11017
▁;	-11018
-06	-11019
-09	-11020
-13	-11021
-14	-11022
-15	-11023
-16	-11024
.1)	-11025
.19	-11026
AIL	-11027
AND	-11028
DAV	-11029
ION	-11030
Imp	-11031
KCS	-11032
MAP	-11033
SEN	-11034
SET	-11035
aol	-11036
ark	-11037
ath	-11038
con	-11039
fri	-11040
hin	-11041
icr	-11042
imb	-11043
ire	-11044
ish	-11045
ism	-11046
ive	-11047
ket	-11048
nit	-11049
oin	-11050
ral	-11051
ron	-11052
ंचल	-11053
ंजन	-11054
ंतल	-11055
ंथन	-11056
ंदे	-11057
ंपे	-11058
ंबन	-11059
ंशा	-11060
अंत	-11061
अगर	-11062
अली	-11063
अल्	-11064
आती	-11065
इंग	-11066
ईआर	-11067
ईएफ	-11068
उदा	-11069
उलर	-11070
एक्	-11071
एफ़	-11072
एसओ	-11073
ऐसे	-11074
ओसी	-11075
करे	-11076
कसा	-11077
क़्	-11078
किट	-11079
कुण	-11080
कूउ	-11081
कॉम	-11082
कोड	-11083
कोस	-11084
क्ख	-11085
क्ल	-11086
खाव	-11087
खुद	-11088
ख्म	-11089
गना	-11090
गया	-11091
ग़ु	-11092
गिन	-11093
गुआ	-11094
गुण	-11095
ग्ण	-11096
चड़	-11097
चाँ	-11098
जना	-11099
ts	-11100
आज	-11101
ink	-11102
tic	-11103
इनस	-11104
जइफ	-11105
जरी	-11106
जला	-11107
जाई	-11108
जाज	-11109
जाप	-11110
जीए	-11111
जीर	-11112
ज्म	-11113
ज्र	-11114
ञ्च	-11115
टाव	-11116
टीन	-11117
टेक	-11118
ट्ठ	-11119
ट्य	-11120
डीओ	-11121
णसी	-11122
ण्व	-11123
तमी	-11124
ताई	-11125
तीम	-11126
तुब	-11127
तुल	-11128
तूर	-11129
थरी	-11130
दने	-11131
दया	-11132
दहा	-11133
दाब	-11134
दिस	-11135
दून	-11136
द्म	-11137
धिर	-11138
ध्र	-11139
नने	-11140
नाइ	-11141
नार	-11142
नीर	-11143
नोट	-11144
पचय	-11145
पटल	-11146
पड़	-11147
पने	-11148
पाठ	-11149
पिक	-11150
प्ट	-11151
फ़ल	-11152
फ़ु	-11153
फाइ	-11154
फिल	-11155
फुल	-11156
फेर	-11157
बंग	-11158
बकी	-11159
बढ़	-11160
बना	-11161
बरे	-11162
बाऊ	-11163
बाप	-11164
बाय	-11165
बुक	-11166
भंड	-11167
भरा	-11168
भोज	-11169
भ्य	-11170
मदद	-11171
मनी	-11172
मास	-11173
मिड	-11174
मिष	-11175
मुक	-11176
मुश	-11177
मुह	-11178
मेज	-11179
यची	-11180
याय	-11181
युग	-11182
राइ	-11183
राय	-11184
लते	-11185
लाप	-11186
लाफ	-11187
लाश	-11188
लिस	-11189
ल्ट	-11190
वना	-11191
वलय	-11192
वला	-11193
विच	-11194
विद	-11195
विष	-11196
वेग	-11197
वेज	-11198
वेट	-11199
ँस	-11200
षी	-11201
erm	-11202
esc	-11203
les	-11204
out	-11205
अभी	-11206
घोष	-11207
नीम	-11208
मिट	-11209
वेन	-11210
वेल	-11211
षद्	-11212
षेक	-11213
सज्	-11214
सला	-11215
सहन	-11216
सिड	-11217
सिब	-11218
सिव	-11219
सुन	-11220
सुर	-11221
सें	-11222
हरि	-11223
हीम	-11224
हें	-11225
़्य	-11226
ाता	-11227
ाफ़	-11228
ायक	-11229
िकर	-11230
िचे	-11231
िटन	-11232
िट्	-11233
िनस	-11234
िनि	-11235
िनो	-11236
िप्	-11237
िमय	-11238
िले	-11239
िवि	-11240
ीयत	-11241
ुंग	-11242
ुएं	-11243
ुम्	-11244
ुलन	-11245
ूढ़	-11246
ूपा	-11247
ूवत	-11248
ेमो	-11249
ैंट	-11250
ैंप	-11251
ैनी	-11252
ोगी	-11253
ोजक	-11254
ोड़	-11255
ोति	-11256
ोना	-11257
ोसे	-11258
ोहण	-11259
ोही	-11260
ौदा	-11261
ौफ़	-11262
ौमे	-11263
ौली	-11264
्चर	-11265
्चे	-11266
्नी	-11267
्बे	-11268
्रल	-11269
्रह	-11270
्वत	-11271
्वल	-11272
्हे	-11273
▁""	-11274
▁"#	-11275
▁"{	-11276
▁#1	-11277
▁(.	-11278
▁--	-11279
▁0.	-11280
▁04	-11281
▁08	-11282
▁09	-11283
▁2%	-11284
▁3-	-11285
▁4.	-11286
▁54	-11287
▁55	-11288
▁65	-11289
▁78	-11290
▁8,	-11291
▁AL	-11292
▁IP	-11293
▁Rs	-11294
▁TV	-11295
▁am	-11296
▁ed	-11297
▁le	-11298
▁st	-11299
im	-11300
आया	-11301
तता	-11302
फोन	-11303
▁ti	-11304
▁अच	-11305
▁आउ	-11306
▁आट	-11307
▁इज	-11308
▁एत	-11309
▁एथ	-11310
▁ऐब	-11311
▁ओज	-11312
▁ओह	-11313
▁कछ	-11314
▁कव	-11315
▁खं	-11316
▁गज	-11317
▁गढ	-11318
▁गत	-11319
▁घू	-11320
▁छल	-11321
▁छी	-11322
▁जज	-11323
▁ज्	-11324
▁झं	-11325
▁डू	-11326
▁ढी	-11327
▁तद	-11328
▁त्	-11329
▁थल	-11330
▁दफ	-11331
▁ध्	-11332
▁नं	-11333
▁नब	-11334
▁बट	-11335
▁भृ	-11336
▁मठ	-11337
▁यो	-11338
▁रत	-11339
▁रथ	-11340
▁रै	-11341
▁र्	-11342
▁लम	-11343
▁लू	-11344
▁शत	-11345
▁शव	-11346
▁शह	-11347
▁शू	-11348
▁षड	-11349
▁हज	-11350
▁हॅ	-11351
▁३१	-11352
2011	-11353
LINE	-11354
MAIL	-11355
REAK	-11356
able	-11357
abwe	-11358
ahoo	-11359
ardi	-11360
ateg	-11361
cast	-11362
here	-11363
ican	-11364
ject	-11365
radi	-11366
reat	-11367
rugs	-11368
ster	-11369
ting	-11370
word	-11371
{0}'	-11372
ंगीण	-11373
ंगुल	-11374
ंजित	-11375
ंटें	-11376
ंडों	-11377
ंदौर	-11378
ंबार	-11379
अन्य	-11380
अपना	-11381
अल्प	-11382
अवधि	-11383
आईवी	-11384
आरआई	-11385
आरसी	-11386
आलिम	-11387
इतना	-11388
इसके	-11389
इसोट	-11390
उत्त	-11391
उनसे	-11392
उससे	-11393
एंगे	-11394
एड्स	-11395
एनएफ	-11396
एनडी	-11397
एनबी	-11398
एमटी	-11399
कथित	-11400
कर्ण	-11401
क़ीन	-11402
क़ौम	-11403
काना	-11404
कानी	-11405
कीले	-11406
केतु	-11407
केरे	-11408
केले	-11409
कोटा	-11410
क्यू	-11411
क्ष्	-11412
खपुर	-11413
ख़्त	-11414
गड़ा	-11415
गणना	-11416
गणित	-11417
गण्य	-11418
गन्ध	-11419
ग़रज	-11420
गुना	-11421
ग्रो	-11422
चढ़ा	-11423
चरित	-11424
चीनी	-11425
च्चे	-11426
च्छर	-11427
छोटी	-11428
छोड़	-11429
जनरल	-11430
जवान	-11431
ज़गी	-11432
ज़रत	-11433
ज़ीर	-11434
जाति	-11435
जिकल	-11436
जोरम	-11437
ड़ाम	-11438
डीएम	-11439
डीबी	-11440
ड्डा	-11441
ढ़ों	-11442
ण्टी	-11443
ताना	-11444
तानी	-11445
तिथि	-11446
दन्त	-11447
दयता	-11448
दस्थ	-11449
दारण	-11450
दीमा	-11451
देशन	-11452
द्घि	-11453
द्वा	-11454
धरती	-11455
नाइट	-11456
नामी	-11457
निटी	-11458
निरी	-11459
नीला	-11460
न्टन	-11461
न्नत	-11462
न्वय	-11463
पाठी	-11464
पाया	-11465
पालक	-11466
पीजी	-11467
पुरी	-11468
पेशी	-11469
पोमक	-11470
प्रौ	-11471
फ़ेस	-11472
फाजत	-11473
फूज़	-11474
फ्ता	-11475
बंधक	-11476
बदार	-11477
बलों	-11478
बाइस	-11479
बाग़	-11480
बाबू	-11481
बिटी	-11482
बीएस	-11483
बैठक	-11484
भक्त	-11485
भद्र	-11486
भानी	-11487
भूषा	-11488
मरने	-11489
माता	-11490
मिला	-11491
मुखी	-11492
मेरा	-11493
मोचन	-11494
यमान	-11495
यहूद	-11496
यानत	-11497
यापन	-11498
यूसु	-11499
रखाव	-11500
रानी	-11501
रियल	-11502
रोटी	-11503
र्जर	-11504
र्तन	-11505
र्षि	-11506
लाइट	-11507
लाकर	-11508
लीला	-11509
ल्सन	-11510
वन्त	-11511
वरेज	-11512
वश्य	-11513
वांछ	-11514
वाक़	-11515
वाड़	-11516
वारत	-11517
वारा	-11518
वास्	-11519
विजन	-11520
विता	-11521
वियर	-11522
शक्त	-11523
शिरा	-11524
शिशु	-11525
शैली	-11526
शोरा	-11527
श्ती	-11528
ष्पक	-11529
संगी	-11530
सज़ा	-11531
सत्य	-11532
सर्ग	-11533
सहाय	-11534
साना	-11535
सुना	-11536
सोर्	-11537
स्की	-11538
स्टन	-11539
स्टी	-11540
स्य्	-11541
स्लो	-11542
हरान	-11543
हरों	-11544
हारण	-11545
ाधीन	-11546
ापुर	-11547
ाप्र	-11548
ामिन	-11549
ामील	-11550
ारित	-11551
ारूस	-11552
ार्ग	-11553
ालीस	-11554
ालेख	-11555
ास्ट	-11556
िकॉप	-11557
िगेड	-11558
िपटल	-11559
िप्य	-11560
िप्स	-11561
िरिक	-11562
िलास	-11563
िहान	-11564
ीकार	-11565
ीदार	-11566
ूसलम	-11567
ृश्य	-11568
ेंडर	-11569
ैक्त	-11570
ोग्र	-11571
ोत्र	-11572
ोपाल	-11573
ोरों	-11574
ोर्स	-11575
ोसिन	-11576
्टिन	-11577
्याय	-11578
्यिश	-11579
्युल	-11580
्वाइ	-11581
्शिस	-11582
▁'>>	-11583
▁(18	-11584
▁125	-11585
▁12:	-11586
▁179	-11587
▁2.5	-11588
▁300	-11589
▁350	-11590
▁8.6	-11591
▁Cal	-11592
▁Dev	-11593
▁For	-11594
▁RSA	-11595
▁and	-11596
▁but	-11597
▁che	-11598
▁con	-11599
▁fun	-11600
▁org	-11601
▁png	-11602
▁rep	-11603
▁see	-11604
▁अँग	-11605
▁अऑफ	-11606
▁अक़	-11607
▁अड़	-11608
▁अनल	-11609
▁अनौ	-11610
▁अरा	-11611
▁अवम	-11612
▁असद	-11613
▁असी	-11614
▁आड़	-11615
▁आधे	-11616
▁आन्	-11617
▁आरे	-11618
▁आली	-11619
▁इको	-11620
▁इधर	-11621
▁इना	-11622
▁इम्	-11623
▁इल्	-11624
▁ईधन	-11625
▁उपन	-11626
▁ऊंट	-11627
▁ऋषि	-11628
▁एंट	-11629
▁एमओ	-11630
▁एवी	-11631
▁ऐंठ	-11632
▁ऑटो	-11633
▁ओझल	-11634
▁ओथै	-11635
▁कंग	-11636
▁कंच	-11637
▁कनु	-11638
▁कप्	-11639
▁कवर	-11640
▁कसी	-11641
▁कां	-11642
▁काश	-11643
▁कूद	-11644
▁केच	-11645
▁कैन	-11646
▁कैम	-11647
▁कैर	-11648
▁कॉम	-11649
▁कोन	-11650
▁क्व	-11651
▁खंज	-11652
▁खां	-11653
▁खाए	-11654
▁खुर	-11655
▁खेत	-11656
▁खैर	-11657
▁गंग	-11658
▁गज़	-11659
▁गुल	-11660
▁गैल	-11661
▁गौण	-11662
▁घना	-11663
▁घनी	-11664
▁घोट	-11665
▁घोष	-11666
▁चंप	-11667
▁चिम	-11668
▁चीर	-11669
▁चैट	-11670
▁छपी	-11671
▁छेद	-11672
▁जगम	-11673
▁जगा	-11674
▁जार	-11675
▁जुआ	-11676
▁जुड	-11677
▁जैम	-11678
▁जोग	-11679
▁ज्ह	-11680
▁झलक	-11681
▁टूर	-11682
▁टेब	-11683
▁टॉम	-11684
▁ठान	-11685
▁डरे	-11686
▁डिफ	-11687
▁डिस	-11688
▁डील	-11689
▁डॉन	-11690
▁तने	-11691
▁तफ़	-11692
▁तम्	-11693
▁तरू	-11694
▁तर्	-11695
▁तवा	-11696
▁ताई	-11697
▁तीर	-11698
▁तूफ	-11699
▁तैर	-11700
▁तोड	-11701
▁थोक	-11702
▁दफा	-11703
▁दबे	-11704
▁दीं	-11705
▁दीप	-11706
▁दूत	-11707
▁दृढ	-11708
▁धनी	-11709
▁धमक	-11710
▁धीर	-11711
▁धुध	-11712
▁धूल	-11713
▁नगा	-11714
▁नती	-11715
▁नमक	-11716
▁नली	-11717
▁नशी	-11718
▁नीच	-11719
▁नें	-11720
▁पंक	-11721
▁पंख	-11722
▁पचह	-11723
▁पडा	-11724
▁पतन	-11725
▁पदक	-11726
▁पाउ	-11727
▁पाय	-11728
▁पीट	-11729
▁पोट	-11730
▁फलक	-11731
▁फिश	-11732
▁फुल	-11733
▁बगा	-11734
▁बचो	-11735
▁बच्	-11736
▁बडी	-11737
▁बढे	-11738
▁बरफ	-11739
▁बसव	-11740
▁बाघ	-11741
▁बाण	-11742
▁बाह	-11743
▁बिर	-11744
▁बुढ	-11745
▁बुध	-11746
▁बूँ	-11747
▁बूट	-11748
▁बेल	-11749
▁बॉल	-11750
▁बोर	-11751
▁बोह	-11752
▁ब्य	-11753
▁भगव	-11754
▁भया	-11755
▁मणी	-11756
▁मदर	-11757
▁मशी	-11758
▁मसा	-11759
▁मिश	-11760
▁मुज	-11761
▁मूर	-11762
▁मेड	-11763
▁मोट	-11764
▁मोर	-11765
▁यंग	-11766
▁यहॉ	-11767
▁यूट	-11768
▁यौन	-11769
▁रचा	-11770
▁रत्	-11771
▁रवि	-11772
▁रहन	-11773
▁रिश	-11774
▁रुख	-11775
▁रूए	-11776
▁रूम	-11777
▁रूल	-11778
▁रूह	-11779
▁रोट	-11780
▁रोप	-11781
▁रोह	-11782
▁लगो	-11783
▁लती	-11784
▁लवण	-11785
▁लहर	-11786
▁लीज	-11787
▁वाच	-11788
▁विच	-11789
▁वीं	-11790
▁वैन	-11791
▁शंक	-11792
▁शतक	-11793
▁शमन	-11794
▁शरद	-11795
▁शाल	-11796
▁शिर	-11797
▁शूर	-11798
▁शेल	-11799
▁शौक	-11800
▁श्ल	-11801
▁श्व	-11802
▁सबक	-11803
▁सीट	-11804
▁सुम	-11805
▁सूई	-11806
▁सूख	-11807
▁सूझ	-11808
▁सूट	-11809
▁सूप	-11810
▁सैल	-11811
▁हरी	-11812
▁हिच	-11813
▁हेम	-11814
▁ह्र	-11815
▁०००	-11816
-2013	-11817
.....	-11818
SENET	-11819
acity	-11820
count	-11821
endly	-11822
indow	-11823
ormat	-11824
ricts	-11825
title	-11826
ublic	-11827
ंगाना	-11828
ंजस्य	-11829
ंपेथी	-11830
ंसिपल	-11831
कताओं	-11832
काफिर	-11833
काव्य	-11834
किसान	-11835
कोषीय	-11836
क्रमक	-11837
क्रेट	-11838
क्रोश	-11839
ख़ाना	-11840
खानों	-11841
खास्त	-11842
ग्रंथ	-11843
ग्राम	-11844
चर्या	-11845
चित्त	-11846
चियों	-11847
ज़रुर	-11848
ज़रूर	-11849
ज़ाना	-11850
ज़ीलत	-11851
ज़ोरम	-11852
ज़ोरी	-11853
जागरण	-11854
जियों	-11855
जिसके	-11856
जुलकर	-11857
टरसन्	-11858
ट्रोप	-11859
तानों	-11860
तीकरण	-11861
तौरेत	-11862
त्तता	-11863
त्रिक	-11864
त्विक	-11865
दस्ता	-11866
दीप्त	-11867
दूसरी	-11868
देशित	-11869
देश्य	-11870
धर्मी	-11871
धियों	-11872
धिष्ठ	-11873
धुनिक	-11874
नयावी	-11875
नियाँ	-11876
न्दरी	-11877
न्नति	-11878
न्याक	-11879
पल्ली	-11880
पाइंट	-11881
प्रेस	-11882
प्लेट	-11883
फॉक्स	-11884
फ्टिन	-11885
फ्तार	-11886
बराबर	-11887
बॉक्स	-11888
भागों	-11889
भावान	-11890
मताओं	-11891
मर्रा	-11892
माणिक	-11893
मार्क	-11894
मिजाज	-11895
म्मिल	-11896
रूपता	-11897
र्गठन	-11898
र्गुम	-11899
र्चित	-11900
र्तिक	-11901
लनबैक	-11902
लिखने	-11903
लेकिन	-11904
ल्ड्र	-11905
ल्हों	-11906
वंशिक	-11907
वारिक	-11908
वाहिक	-11909
विकास	-11910
विदेश	-11911
विवरण	-11912
शियां	-11913
शीघ्र	-11914
शुद्ध	-11915
श्रित	-11916
ष्टमी	-11917
समिति	-11918
साइटी	-11919
सिर्फ	-11920
सेन्स	-11921
स्कूल	-11922
स्कों	-11923
स्तता	-11924
स्तुर	-11925
स्तूर	-11926
हमेशा	-11927
हादुर	-11928
हायपर	-11929
हिंदी	-11930
हेलना	-11931
ान्चे	-11932
ारिटी	-11933
ारोपण	-11934
ालाओं	-11935
िंग्स	-11936
िकल्प	-11937
िकागो	-11938
िकारक	-11939
िक्षा	-11940
िताओं	-11941
िपत्य	-11942
िब्यू	-11943
ियाना	-11944
िलाफ़	-11945
िलोकन	-11946
िश्रण	-11947
ुक्री	-11948
ुमारी	-11949
ुम्बई	-11950
ूणाकर	-11951
ोलनों	-11952
ोल्डन	-11953
्बेकि	-11954
्याभि	-11955
्यूलर	-11956
्रामक	-11957
्रेशन	-11958
्रेसी	-11959
्लाँट	-11960
्वच्छ	-11961
्वाहा	-11962
▁1700	-11963
▁1940	-11964
▁1942	-11965
▁1947	-11966
▁1959	-11967
▁1969	-11968
▁1970	-11969
▁1974	-11970
▁1977	-11971
▁1983	-11972
▁ESET	-11973
▁PKCS	-11974
▁cric	-11975
▁fore	-11976
▁pfri	-11977
▁text	-11978
▁time	-11979
▁tool	-11980
▁अंगू	-11981
▁अखंड	-11982
▁अजगर	-11983
▁अदाल	-11984
▁अधिर	-11985
▁अननु	-11986
▁अपेन	-11987
▁अभिल	-11988
▁अम्ब	-11989
▁अम्ल	-11990
▁अवगत	-11991
▁अवयव	-11992
▁अशोक	-11993
▁असंत	-11994
▁असत्	-11995
▁आंबे	-11996
▁आईआई	-11997
▁आईबी	-11998
▁आईसी	-11999
▁आगाह	-12000
▁आदिम	-12001
▁आपदा	-12002
▁आफिस	-12003
▁आबरू	-12004
▁आबाद	-12005
▁आमने	-12006
▁आयें	-12007
▁आवर्	-12008
▁आवश्	-12009
▁आवेद	-12010
▁आसाम	-12011
▁आस्ट	-12012
▁इंगल	-12013
▁इतरा	-12014
▁इराक	-12015
▁ईराक	-12016
▁ईसवी	-12017
▁उज्ज	-12018
▁उज्र	-12019
▁उठने	-12020
▁उठाई	-12021
▁उड्ड	-12022
▁उपशी	-12023
▁उबाऊ	-12024
▁उभरा	-12025
▁उलझन	-12026
▁ऋणों	-12027
▁एंटर	-12028
▁एक्ट	-12029
▁एसएच	-12030
▁ऑप्ट	-12031
▁कगार	-12032
▁कड़े	-12033
▁कपास	-12034
▁कबूल	-12035
▁कमान	-12036
▁करुँ	-12037
▁करोड	-12038
▁कसरत	-12039
▁कहती	-12040
▁क़लम	-12041
▁क़ान	-12042
▁कापी	-12043
▁किसे	-12044
▁कीटा	-12045
▁कीपर	-12046
▁कुंज	-12047
▁कुकर	-12048
▁कुन्	-12049
▁कॉलम	-12050
▁क्रे	-12051
▁क्वे	-12052
▁क्षय	-12053
▁खंजर	-12054
▁ख़री	-12055
▁ख़ून	-12056
▁खाकर	-12057
▁खिंच	-12058
▁गढ़ा	-12059
▁गणित	-12060
▁गर्त	-12061
▁ग़लत	-12062
▁गारे	-12063
▁गिने	-12064
▁गिरे	-12065
▁गुणन	-12066
▁गुदा	-12067
▁गुबर	-12068
▁गोबर	-12069
▁घटाई	-12070
▁घिरा	-12071
▁घिरे	-12072
▁घेरा	-12073
▁चकित	-12074
▁चलाए	-12075
▁चाबी	-12076
▁चालु	-12077
▁चाहत	-12078
▁चिड़	-12079
▁चिढ़	-12080
▁छड़ी	-12081
▁जकड़	-12082
▁जगत्	-12083
▁जतिन	-12084
▁जनसम	-12085
▁जबतक	-12086
▁जबरद	-12087
▁जमना	-12088
▁जलने	-12089
▁जिधर	-12090
▁जीते	-12091
▁जीना	-12092
▁जीने	-12093
▁जूते	-12094
▁झुके	-12095
▁झूले	-12096
▁टीवी	-12097
▁ट्यू	-12098
▁डरना	-12099
▁डिबग	-12100
▁डीपी	-12101
▁डेढ़	-12102
▁ड्रग	-12103
▁ढलान	-12104
▁ढ़ंग	-12105
▁तंबू	-12106
▁तटीय	-12107
▁तटों	-12108
▁तबाह	-12109
▁तलें	-12110
▁ताजा	-12111
▁ताड़	-12112
▁तेजा	-12113
▁थोपा	-12114
▁दंगे	-12115
▁दग़ा	-12116
▁दन्त	-12117
▁दर्प	-12118
▁दहेज	-12119
▁दाँत	-12120
▁दाऊद	-12121
▁दायी	-12122
▁दुरा	-12123
▁दोहन	-12124
▁द्यो	-12125
▁धिक्	-12126
▁धीमा	-12127
▁धुंध	-12128
▁नकली	-12129
▁नगरी	-12130
▁नग्न	-12131
▁नन्द	-12132
▁नरमी	-12133
▁नर्त	-12134
▁नाज़	-12135
▁नामए	-12136
▁नायर	-12137
▁नाली	-12138
▁नाशक	-12139
▁निता	-12140
▁नींद	-12141
▁नीलक	-12142
▁नेको	-12143
▁नोडल	-12144
▁पंखु	-12145
▁पटरी	-12146
▁पटेल	-12147
▁पठित	-12148
▁पढ़ो	-12149
▁पनीर	-12150
▁पब्ल	-12151
▁परले	-12152
▁पर्ल	-12153
▁पाएँ	-12154
▁पाकर	-12155
▁पाठक	-12156
▁पाये	-12157
▁पाला	-12158
▁पिंड	-12159
▁पीकर	-12160
▁पुंज	-12161
▁पुणे	-12162
▁पूरब	-12163
▁पोषक	-12164
▁पौंड	-12165
▁प्रर	-12166
▁फकीर	-12167
▁फज़ल	-12168
▁फरार	-12169
▁फरेब	-12170
▁फ़्र	-12171
▁फिल्	-12172
▁फूँक	-12173
▁फेरे	-12174
▁फोरम	-12175
▁फ्यू	-12176
▁फ्लश	-12177
▁बंजर	-12178
▁बंदू	-12179
▁बकरी	-12180
▁बगैर	-12181
▁बचता	-12182
▁बजाए	-12183
▁बतला	-12184
▁बदलव	-12185
▁बलों	-12186
▁बहका	-12187
▁बहती	-12188
▁बहरे	-12189
▁बहाव	-12190
▁बाजी	-12191
▁बाते	-12192
▁बापू	-12193
▁बिंद	-12194
▁बिठा	-12195
▁बियर	-12196
▁बीयर	-12197
▁बुआई	-12198
▁बुजु	-12199
▁बुना	-12200
▁बेहत	-12201
▁बैठी	-12202
▁ब्यौ	-12203
▁ब्रज	-12204
▁ब्ले	-12205
▁भक्त	-12206
▁भटका	-12207
▁भागा	-12208
▁भालू	-12209
▁भूजल	-12210
▁भूसी	-12211
▁मंचन	-12212
▁मंथन	-12213
▁मग्न	-12214
▁मज़े	-12215
▁मतान	-12216
▁मधुर	-12217
▁मरीज	-12218
▁मलिक	-12219
▁मसले	-12220
▁मस्त	-12221
▁माएल	-12222
▁मादक	-12223
▁मापन	-12224
▁माफी	-12225
▁मारो	-12226
▁मिथक	-12227
▁मिलन	-12228
▁मीठा	-12229
▁मुखौ	-12230
▁मूलत	-12231
▁मेला	-12232
▁मेले	-12233
▁मैना	-12234
▁मोटा	-12235
▁मोड़	-12236
▁मोलर	-12237
▁यादव	-12238
▁यानि	-12239
▁यूने	-12240
▁रखिए	-12241
▁रहिए	-12242
▁रामन	-12243
▁रिहा	-12244
▁रुपे	-12245
▁रूख़	-12246
▁रूजू	-12247
▁रूढ़	-12248
▁रूसी	-12249
▁रेजि	-12250
▁रेशा	-12251
▁रोते	-12252
▁रोने	-12253
▁लंका	-12254
▁लखनऊ	-12255
▁लड़ा	-12256
▁लाइफ	-12257
▁लाज़	-12258
▁लापर	-12259
▁लुभा	-12260
▁लेखे	-12261
▁लेबन	-12262
▁लैंड	-12263
▁लोकल	-12264
▁वंशज	-12265
▁वन्य	-12266
▁वाकि	-12267
▁वाजि	-12268
▁वाणी	-12269
▁वादक	-12270
▁वादे	-12271
▁वामन	-12272
▁वायर	-12273
▁वारा	-12274
▁वासी	-12275
▁वास्	-12276
▁विजन	-12277
▁विज़	-12278
▁विदा	-12279
▁वीणा	-12280
▁वैभव	-12281
▁वैसी	-12282
▁शंका	-12283
▁शमिल	-12284
▁श्रृ	-12285
▁संगृ	-12286
▁संवै	-12287
▁सकने	-12288
▁सचाई	-12289
▁सड़े	-12290
▁सतही	-12291
▁सन्त	-12292
▁सपाट	-12293
▁समतल	-12294
▁समयः	-12295
▁समीप	-12296
▁सरणी	-12297
▁सरों	-12298
▁सवाब	-12299
▁सस्प	-12300
▁सहसा	-12301
▁सांड	-12302
▁साउथ	-12303
▁सादा	-12304
▁साधक	-12305
▁सीढ़	-12306
▁सुखद	-12307
▁सुनो	-12308
▁सुलभ	-12309
▁सुवि	-12310
▁सूखे	-12311
▁सूरज	-12312
▁सूरा	-12313
▁सेमी	-12314
▁सैंड	-12315
▁सोचे	-12316
▁सोचो	-12317
▁सोता	-12318
▁सोना	-12319
▁सौदा	-12320
▁सौदे	-12321
▁स्टे	-12322
▁हजरत	-12323
▁हटना	-12324
▁हटाए	-12325
▁हमबि	-12326
▁हरकत	-12327
▁हर्ष	-12328
▁हलचल	-12329
▁हिरण	-12330
▁हिला	-12331
▁हीरा	-12332
▁हुज़	-12333
▁होल्	-12334
▁१०००	-12335
▁२००५	-12336
ctions	-12337
escrip	-12338
kraine	-12339
आउटपुट	-12340
आपरेशन	-12341
आलिमों	-12342
इंडिंग	-12343
इज्ज़त	-12344
इसोटोप	-12345
इस्लाम	-12346
उंडेशन	-12347
उदाहरण	-12348
कल्पित	-12349
क़ुदरत	-12350
कानूनी	-12351
काफ़िर	-12352
क्यांश	-12353
क्षमता	-12354
क्षारत	-12355
क्ष्मण	-12356
ग्राहक	-12357
चित्रण	-12358
च्युति	-12359
जबरुवा	-12360
जहन्नम	-12361
ज्योति	-12362
टुकड़े	-12363
ण्डेकर	-12364
तेन्दु	-12365
त्पादन	-12366
दिवसीय	-12367
द्रव्य	-12368
द्रोही	-12369
निवासी	-12370
नेग्रो	-12371
नेताओं	-12372
न्त्रण	-12373
पक्षीय	-12374
प्रभाव	-12375
प्रवाह	-12376
प्रसार	-12377
प्रेषण	-12378
फ़तेरा	-12379
फेक़ीन	-12380
फ्लुएं	-12381
बंधनों	-12382
बुद्धि	-12383
रोजगार	-12384
र्दस्त	-12385
र्नीचर	-12386
र्वेशन	-12387
वर्तित	-12388
वर्षीय	-12389
वादिता	-12390
वाहाटी	-12391
विष्टि	-12392
वृष्टि	-12393
श्लेषण	-12394
ष्णुता	-12395
संग्रह	-12396
संरचना	-12397
संहारक	-12398
सभापति	-12399
समन्वय	-12400
सीलदार	-12401
स्ट्री	-12402
स्थापन	-12403
स्मारक	-12404
हरादून	-12405
ानुसार	-12406
ान्तरण	-12407
ार्द्ध	-12408
िक्षित	-12409
ॉर्टकट	-12410
ोग्रॅम	-12411
ोत्तरी	-12412
्यकालन	-12413
्राहीम	-12414
्रोतों	-12415
▁'{0}'	-12416
▁(1992	-12417
▁07.02	-12418
▁2013)	-12419
▁2016)	-12420
▁2019)	-12421
▁BREAK	-12422
▁Welsh	-12423
▁अंकों	-12424
▁अंजाम	-12425
▁अंतरा	-12426
▁अंत्य	-12427
▁अकारत	-12428
▁अकारथ	-12429
▁अज़ीम	-12430
▁अड्डे	-12431
▁अधर्म	-12432
▁अनजान	-12433
▁अनपढ़	-12434
▁अनुपल	-12435
▁अनुमत	-12436
▁अन्तः	-12437
▁अपडेट	-12438
▁अपनाए	-12439
▁अपलोड	-12440
▁अपवर्	-12441
▁अपहरण	-12442
▁अभिनि	-12443
▁अभ्या	-12444
▁अम्मा	-12445
▁अय्यर	-12446
▁अल्फा	-12447
▁अवशेष	-12448
▁अवसान	-12449
▁अवांछ	-12450
▁अशक्त	-12451
▁असफ़ल	-12452
▁असह्य	-12453
▁अहसास	-12454
▁आंखें	-12455
▁आऊंगा	-12456
▁आकारः	-12457
▁आखिरी	-12458
▁आचारण	-12459
▁आमादा	-12460
▁आयातक	-12461
▁आवंटन	-12462
▁आवारा	-12463
▁आश्रम	-12464
▁आस्ति	-12465
▁इंगित	-12466
▁इंदौर	-12467
▁इऋल्म	-12468
▁इक्के	-12469
▁इख्ते	-12470
▁इजाजत	-12471
▁इराकी	-12472
▁इरादे	-12473
▁इशारा	-12474
▁ईस्वी	-12475
▁उखाड़	-12476
▁उजागर	-12477
▁उठाये	-12478
▁उतारे	-12479
▁उद्गम	-12480
▁उपजाऊ	-12481
▁उपमहा	-12482
▁उभरकर	-12483
▁उभरने	-12484
▁उम्मत	-12485
▁ऊंटों	-12486
▁एकसाथ	-12487
▁एटीके	-12488
▁एशियन	-12489
▁ऑंखें	-12490
▁कच्ची	-12491
▁कथाएं	-12492
▁कथाओं	-12493
▁कदीमा	-12494
▁कन्नड	-12495
▁कबूतर	-12496
▁करुणा	-12497
▁करेगे	-12498
▁कर्सर	-12499
▁कलाओं	-12500
▁कलिंग	-12501
▁क़ूवत	-12502
▁काटकर	-12503
▁काटना	-12504
▁काटने	-12505
▁कार्न	-12506
▁कार्प	-12507
▁किसकी	-12508
▁कीचड़	-12509
▁कुतुब	-12510
▁कुलीन	-12511
▁केदार	-12512
▁केसरी	-12513
▁कैंसर	-12514
▁कैमरा	-12515
▁कॉर्प	-12516
▁कोकून	-12517
▁कोर्स	-12518
▁कोष्ठ	-12519
▁क्रास	-12520
▁क्रैश	-12521
▁क्लास	-12522
▁क्षेप	-12523
▁खंडित	-12524
▁खंडों	-12525
▁खड्डे	-12526
▁खरीदा	-12527
▁खरीदी	-12528
▁खाँचा	-12529
▁खाएगा	-12530
▁खामोश	-12531
▁खिसका	-12532
▁खेलने	-12533
▁खोजना	-12534
▁गन्दी	-12535
▁गिनती	-12536
▁गिरने	-12537
▁गैसें	-12538
▁गोखले	-12539
▁गौडीय	-12540
▁ग्राफ	-12541
▁ग्रीक	-12542
▁ग्रेस	-12543
▁ग्वाल	-12544
▁घंटों	-12545
▁घटकों	-12546
▁घटाते	-12547
▁घड़ते	-12548
▁घुटने	-12549
▁चलाता	-12550
▁चलाते	-12551
▁चलाये	-12552
▁चहरों	-12553
▁चार्ज	-12554
▁चालीस	-12555
▁चालुक	-12556
▁चिंतन	-12557
▁चिप्स	-12558
▁चींटी	-12559
▁चुकता	-12560
▁चूर्ण	-12561
▁चैलें	-12562
▁चौड़ी	-12563
▁चौड़े	-12564
▁चौथाई	-12565
▁चौपाए	-12566
▁छांटा	-12567
▁छापें	-12568
▁छिन्न	-12569
▁जमाना	-12570
▁जमींद	-12571
▁जर्मन	-12572
▁ज़लील	-12573
▁जाग्र	-12574
▁जातीय	-12575
▁जार्ज	-12576
▁जिक्र	-12577
▁जिज्ञ	-12578
▁जॉनसन	-12579
▁ज्यों	-12580
▁ज्वार	-12581
▁ज्वाल	-12582
▁झोंका	-12583
▁टेक्न	-12584
▁टेस्ट	-12585
▁टैक्स	-12586
▁टैरिफ	-12587
▁ठहरने	-12588
▁डराना	-12589
▁डायरी	-12590
▁डालता	-12591
▁डालने	-12592
▁डिम्ब	-12593
▁डोमेन	-12594
▁तकिया	-12595
▁तामील	-12596
▁तुर्क	-12597
▁तुलसी	-12598
▁तौहीद	-12599
▁त्रास	-12600
▁थिएटर	-12601
▁दरख्व	-12602
▁दर्जन	-12603
▁दवाओं	-12604
▁दशाओं	-12605
▁दसवीं	-12606
▁दीवान	-12607
▁दुग्ध	-12608
▁दुरुप	-12609
▁दुष्ट	-12610
▁दुहरा	-12611
▁दूषित	-12612
▁दोषों	-12613
▁द्रुत	-12614
▁धक्का	-12615
▁धब्बे	-12616
▁नक्शे	-12617
▁नगरों	-12618
▁नमूना	-12619
▁नम्बर	-12620
▁नलिका	-12621
▁नाकाम	-12622
▁नाराज	-12623
▁निकली	-12624
▁निखार	-12625
▁निचले	-12626
▁निषेध	-12627
▁पट्टा	-12628
▁पढ़ता	-12629
▁पढ़ना	-12630
▁पत्रा	-12631
▁पन्नी	-12632
▁परजीव	-12633
▁पहनते	-12634
▁पहेली	-12635
▁पाउंड	-12636
▁पाषाण	-12637
▁पीड़क	-12638
▁पीडित	-12639
▁पुतली	-12640
▁पुश्त	-12641
▁पुष्ट	-12642
▁पृथक्	-12643
▁प्रखर	-12644
▁प्रबल	-12645
▁प्रभा	-12646
▁प्रया	-12647
▁प्रीम	-12648
▁प्रोप	-12649
▁फ़ज़ल	-12650
▁फ़ोटो	-12651
▁फूँका	-12652
▁फैक्ट	-12653
▁फॉर्म	-12654
▁फ्रंट	-12655
▁फ्लैग	-12656
▁बकवास	-12657
▁बखूबी	-12658
▁बछड़े	-12659
▁बड़ाई	-12660
▁बढ़ते	-12661
▁बताने	-12662
▁बदलकर	-12663
▁बदलते	-12664
▁बदौलत	-12665
▁बनेगी	-12666
▁बरबाद	-12667
▁बरहक़	-12668
▁बर्तन	-12669
▁बाधित	-12670
▁बायीं	-12671
▁बारिश	-12672
▁बालों	-12673
▁बिगड़	-12674
▁बिचौल	-12675
▁बुर्द	-12676
▁बेखबर	-12677
▁बैक्ट	-12678
▁बैटरी	-12679
▁बैठते	-12680
▁बैठना	-12681
▁बोलने	-12682
▁ब्लैक	-12683
▁भवनों	-12684
▁भागना	-12685
▁भागीर	-12686
▁भित्त	-12687
▁भूगोल	-12688
▁भूलें	-12689
▁भेजते	-12690
▁भ्रंश	-12691
▁भ्रूण	-12692
▁मकबरा	-12693
▁मच्छर	-12694
▁मजलिस	-12695
▁मज़हब	-12696
▁मतदान	-12697
▁मदिरा	-12698
▁मनाने	-12699
▁मल्टी	-12700
▁मशीयत	-12701
▁मसलों	-12702
▁मसीहा	-12703
▁महीना	-12704
▁महोदय	-12705
▁माइनस	-12706
▁मानवा	-12707
▁मारता	-12708
▁मारना	-12709
▁मास्क	-12710
▁मिटाई	-12711
▁मिस्र	-12712
▁मीनार	-12713
▁मुड़ा	-12714
▁मुन्त	-12715
▁मुहलत	-12716
▁मूर्ख	-12717
▁मूर्त	-12718
▁मेहता	-12719
▁मैसूर	-12720
▁मौसमी	-12721
▁यमुना	-12722
▁यार्ड	-12723
▁रस्सी	-12724
▁राजीव	-12725
▁राजेश	-12726
▁रियाय	-12727
▁रुग्ण	-12728
▁रूपया	-12729
▁रोककर	-12730
▁रोज़ा	-12731
▁लंबित	-12732
▁लगाएँ	-12733
▁लगाता	-12734
▁लन्दन	-12735
▁लाएगा	-12736
▁लुप्त	-12737
▁लौटकर	-12738
▁वायदे	-12739
▁विकार	-12740
▁विनोद	-12741
▁विराम	-12742
▁विलयन	-12743
▁विवेक	-12744
▁विसर्	-12745
▁विहार	-12746
▁वेदों	-12747
▁शब्दा	-12748
▁शर्ते	-12749
▁शारदा	-12750
▁शाश्व	-12751
▁शिर्क	-12752
▁शिल्प	-12753
▁शिश्न	-12754
▁श्रेय	-12755
▁संकोच	-12756
▁संगणक	-12757
▁संघटक	-12758
▁संतति	-12759
▁सकतीं	-12760
▁सज्जन	-12761
▁सब्जी	-12762
▁समझती	-12763
▁समूचे	-12764
▁सम्मे	-12765
▁सरलता	-12766
▁सरीही	-12767
▁सरोवर	-12768
▁सर्टि	-12769
▁सर्वि	-12770
▁सल्फर	-12771
▁सहदेव	-12772
▁सहेजा	-12773
▁साइंस	-12774
▁साइमन	-12775
▁सारंग	-12776
▁सिक्ख	-12777
▁सिन्ध	-12778
▁सीखना	-12779
▁सुनाए	-12780
▁सुलझा	-12781
▁सेकंड	-12782
▁सेचुर	-12783
▁सेन्ट	-12784
▁सोचता	-12785
▁सोचते	-12786
▁सोचें	-12787
▁स्कंध	-12788
▁स्टील	-12789
▁स्टेड	-12790
▁स्वर्	-12791
▁स्वाद	-12792
▁हकीकत	-12793
▁हज़रत	-12794
▁हटाया	-12795
▁हवाओं	-12796
▁हांला	-12797
▁हार्व	-12798
▁हालते	-12799
▁हिमनद	-12800
▁हुकुम	-12801
▁हेक्ट	-12802
ategory	-12803
imbabwe	-12804
ंत्रिकी	-12805
क़ियामत	-12806
काफिरों	-12807
क्षेपित	-12808
गुनाहों	-12809
डब्ल्यू	-12810
तापूर्ण	-12811
तिक्रमण	-12812
त्याशित	-12813
धिष्ठिर	-12814
निटरिंग	-12815
निवेशों	-12816
न्तुष्ट	-12817
परायणता	-12818
प्रकृति	-12819
प्रारंभ	-12820
महात्मा	-12821
मुस्लिम	-12822
राज्यों	-12823
र्जागरण	-12824
विधियां	-12825
शुद्धता	-12826
संस्कृत	-12827
सामान्य	-12828
ान्तरित	-12829
िकॉप्टर	-12830
िपीडिया	-12831
ुम्बकीय	-12832
ोल्डरों	-12833
्यात्मक	-12834
▁CalDAV	-12835
▁Server	-12836
▁USENET	-12837
▁inmenu	-12838
▁window	-12839
▁अंतर्व	-12840
▁अकाउंट	-12841
▁अग्रता	-12842
▁अधिष्ठ	-12843
▁अनदेखा	-12844
▁अनिष्ट	-12845
▁अनुकरण	-12846
▁अनुज्ञ	-12847
▁अनुबंध	-12848
▁अन्जाम	-12849
▁अपदस्थ	-12850
▁अपनाना	-12851
▁अपसरित	-12852
▁अभीष्ट	-12853
▁अमूर्त	-12854
▁अर्थों	-12855
▁अलंकृत	-12856
▁अलार्म	-12857
▁असंगति	-12858
▁अहिंसा	-12859
▁आक्षेप	-12860
▁आरोपों	-12861
▁आर्गुम	-12862
▁आर्द्र	-12863
▁आवागमन	-12864
▁इलायची	-12865
▁इसराइल	-12866
▁उत्तरः	-12867
▁उदहारण	-12868
▁उदारता	-12869
▁उदासीन	-12870
▁उपरांत	-12871
▁उपस्कर	-12872
▁उषाकाल	-12873
▁एंपेथी	-12874
▁एक्जइफ	-12875
▁एक्सेस	-12876
▁एचआईवी	-12877
▁एजेंडा	-12878
▁एनालॉग	-12879
▁एयरलाइ	-12880
▁ऑफलाइन	-12881
▁कंप्यू	-12882
▁कपड़ों	-12883
▁कप्तान	-12884
▁कमजोरी	-12885
▁करनेकी	-12886
▁करवाने	-12887
▁करेगें	-12888
▁कहलाते	-12889
▁क़दमों	-12890
▁क़समों	-12891
▁क़िबला	-12892
▁कामगार	-12893
▁किंग्स	-12894
▁किनारा	-12895
▁किस्सा	-12896
▁कीर्तन	-12897
▁कुत्ते	-12898
▁कुर्ता	-12899
▁कुलपति	-12900
▁कुल्लू	-12901
▁कैन्टन	-12902
▁क्रमिक	-12903
▁क्लबों	-12904
▁खतरनाक	-12905
▁खनिजों	-12906
▁खिलाफत	-12907
▁खुल्ला	-12908
▁खूबसूर	-12909
▁ख्याति	-12910
▁ख्वाहा	-12911
▁गंधर्व	-12912
▁गन्दगी	-12913
▁गुजरने	-12914
▁गुज़रे	-12915
▁गुफाओं	-12916
▁गुर्दे	-12917
▁गुस्ता	-12918
▁ग्रंथि	-12919
▁घटनाएँ	-12920
▁घायलों	-12921
▁घुमाएँ	-12922
▁चमकीला	-12923
▁चाहेगा	-12924
▁चित्रा	-12925
▁चुनेंः	-12926
▁चुनौति	-12927
▁जनगणना	-12928
▁जलधारा	-12929
▁जहाजों	-12930
▁ज़रुरी	-12931
▁ज़िक्र	-12932
▁जाँचें	-12933
▁जाएँगी	-12934
▁जापानी	-12935
▁जिलाता	-12936
▁जैसाकि	-12937
▁झगड़ने	-12938
▁ठहराते	-12939
▁डायस्प	-12940
▁डालेगा	-12941
▁डिजायन	-12942
▁डिवाइस	-12943
▁डीवीडी	-12944
▁डॉक्टर	-12945
▁तंबाकू	-12946
▁तख्तों	-12947
▁तन्त्र	-12948
▁तफ़सील	-12949
▁तमन्ना	-12950
▁तालमेल	-12951
▁तेहरान	-12952
▁त्योरी	-12953
▁त्रस्त	-12954
▁दलितों	-12955
▁दलीलों	-12956
▁दिखाती	-12957
▁दिलाना	-12958
▁दिलाया	-12959
▁दिशाओं	-12960
▁दीर्घा	-12961
▁दीवाने	-12962
▁धनराशि	-12963
▁ध्वस्त	-12964
▁नक्काश	-12965
▁नज़रें	-12966
▁नामकरण	-12967
▁नारियल	-12968
▁निकलते	-12969
▁निकाला	-12970
▁निपटना	-12971
▁निपटने	-12972
▁निबन्ध	-12973
▁निभाते	-12974
▁निभानी	-12975
▁नियोजन	-12976
▁निर्मल	-12977
▁निस्बत	-12978
▁नुबूवत	-12979
▁नेताजी	-12980
▁नेपोमक	-12981
▁नोकिया	-12982
▁पंजाबी	-12983
▁पक्षधर	-12984
▁पड़ेगी	-12985
▁परजीवी	-12986
▁परदाज़	-12987
▁परास्त	-12988
▁परिचार	-12989
▁पर्यवे	-12990
▁पहुँची	-12991
▁पहुँचो	-12992
▁पांडुल	-12993
▁पाएँगे	-12994
▁पादपों	-12995
▁पाबंदी	-12996
▁पुत्री	-12997
▁पेशेवर	-12998
▁पैग़ाम	-12999
▁पोर्टल	-13000
▁प्यारे	-13001
▁प्याले	-13002
▁प्रक्ष	-13003
▁प्रभाम	-13004
▁प्रलोभ	-13005
▁प्रिया	-13006
▁प्रोटे	-13007
▁फज़ीलत	-13008
▁फाइलों	-13009
▁फिटकार	-13010
▁फिल्टर	-13011
▁फैक्टर	-13012
▁बख़ूबी	-13013
▁बख्यिश	-13014
▁बढ़ाना	-13015
▁बढ़िया	-13016
▁बढ़ेगी	-13017
▁बढोतरी	-13018
▁बरबादी	-13019
▁बर्बाद	-13020
▁बहादुर	-13021
▁बहियों	-13022
▁बहुविध	-13023
▁बांटना	-13024
▁बाज़ार	-13025
▁बादलों	-13026
▁बिछाने	-13027
▁बिजनेस	-13028
▁बिस्तर	-13029
▁बुकिंग	-13030
▁बुलन्द	-13031
▁बेख़बर	-13032
▁बॉम्बे	-13033
▁बोहतान	-13034
▁ब्रह्म	-13035
▁मजदूरी	-13036
▁मज़बूत	-13037
▁मणीलाल	-13038
▁मतदाता	-13039
▁मन्त्र	-13040
▁महफूज़	-13041
▁महर्षि	-13042
▁महाप्र	-13043
▁मांगता	-13044
▁मांगते	-13045
▁माताओं	-13046
▁माननीय	-13047
▁मापदंड	-13048
▁मामलें	-13049
▁मिजोरम	-13050
▁मुक़्त	-13051
▁मुखिया	-13052
▁मुट्ठी	-13053
▁मुद्दत	-13054
▁मुनाफा	-13055
▁मुम्बई	-13056
▁मेजबान	-13057
▁मेन्यू	-13058
▁मोहतरम	-13059
▁मोहभंग	-13060
▁युसुफ़	-13061
▁यूसुफ़	-13062
▁योग़्य	-13063
▁रघुनाथ	-13064
▁रचनाओं	-13065
▁रफ्तार	-13066
▁रहूँगा	-13067
▁रहेगें	-13068
▁राक्षस	-13069
▁राजकीय	-13070
▁रायपुर	-13071
▁रिक्ति	-13072
▁रेटिंग	-13073
▁लॉगआउट	-13074
▁वर्षगा	-13075
▁वार्डन	-13076
▁विधायी	-13077
▁विभिन्	-13078
▁विराट्	-13079
▁विलोपन	-13080
▁विवरणः	-13081
▁वृक्का	-13082
▁वृद्घि	-13083
▁वृद्धा	-13084
▁व्यथित	-13085
▁व्यपगत	-13086
▁शक़्ति	-13087
▁शासकों	-13088
▁शास्ति	-13089
▁शिकागो	-13090
▁शिखरों	-13091
▁श्रद्ध	-13092
▁श्रव्य	-13093
▁श्रोणि	-13094
▁संकलित	-13095
▁संयोजन	-13096
▁सकूँगा	-13097
▁सटीकता	-13098
▁सत्रों	-13099
▁सद्दाम	-13100
▁सन्देह	-13101
▁समकक्ष	-13102
▁समझदार	-13103
▁समुचित	-13104
▁सरोकार	-13105
▁सर्किट	-13106
▁सर्विस	-13107
▁सहेजना	-13108
▁सिंगार	-13109
▁सिस्को	-13110
▁सींगों	-13111
▁सुनाते	-13112
▁सोमवार	-13113
▁स्तम्भ	-13114
▁स्नातक	-13115
▁स्नायु	-13116
▁स्वर्ग	-13117
▁स्विचन	-13118
▁हमलावर	-13119
▁हिब्रू	-13120
▁हिमाचल	-13121
▁हैमिंग	-13122
.06.2015	-13123
.09.2011	-13124
errorism	-13125
अनुसूचित	-13126
द्योगिकी	-13127
प्रदर्शक	-13128
फ्टिनेंट	-13129
म्प्लाँट	-13130
सोर्सिंग	-13131
ोपाध्याय	-13132
▁2000-01	-13133
▁2010-11	-13134
▁cricket	-13135
▁अँधेरों	-13136
▁अंगीकार	-13137
▁अकादमिक	-13138
▁अक्षरों	-13139
▁अगस्त्य	-13140
▁अज्ञानी	-13141
▁अनुकूलन	-13142
▁अनुज्ञा	-13143
▁अनुशासन	-13144
▁अनुसूचि	-13145
▁अभिभावक	-13146
▁अमेरिकन	-13147
▁अवशोषित	-13148
▁अवहेलना	-13149
▁असन्तोष	-13150
▁अस्वच्छ	-13151
▁आंबेडकर	-13152
▁आदिवासी	-13153
▁आधिपत्य	-13154
▁आप्रवास	-13155
▁आरम्भिक	-13156
▁आरास्ता	-13157
▁आवृत्ति	-13158
▁आश्वस्त	-13159
▁इफ़तेरा	-13160
▁इल्ज़ाम	-13161
▁इस्माईल	-13162
▁इस्लामी	-13163
▁उच्छेदन	-13164
▁उपनगरीय	-13165
▁एजेन्सी	-13166
▁एड़ियों	-13167
▁एमएसएमई	-13168
▁कक्षाओं	-13169
▁कमज़ोरी	-13170
▁करूणाकर	-13171
▁करेंगें	-13172
▁कलात्मक	-13173
▁कविताएँ	-13174
▁कहेंगें	-13175
▁क़ब्रों	-13176
▁कारखाने	-13177
▁कारागार	-13178
▁कालिदास	-13179
▁काश्मीर	-13180
▁किस्में	-13181
▁कुंजीपट	-13182
▁कैलनबैक	-13183
▁क्यक्ति	-13184
▁क्रुद्ध	-13185
▁क्षुद्र	-13186
▁क्षेञों	-13187
▁क्षैतिज	-13188
▁ख़ज़ाना	-13189
▁खिसकाएँ	-13190
▁गड़बड़ी	-13191
▁गणमान्य	-13192
▁गर्भपात	-13193
▁गिरोहों	-13194
▁गुरुदेव	-13195
▁गोरखपुर	-13196
▁घड़ियों	-13197
▁चिंघाड़	-13198
▁चोटियाँ	-13199
▁ज़िम्मा	-13200
▁जातियों	-13201
▁जिन्नात	-13202
▁जेरूसलम	-13203
▁ज्यादती	-13204
▁झुठलाते	-13205
▁ट्रेनों	-13206
▁डाटाबेस	-13207
▁डालेंगे	-13208
▁डेटाबेस	-13209
▁ड्राइवर	-13210
▁तकलीफों	-13211
▁तथाकथित	-13212
▁ताक़तवर	-13213
▁तीव्रता	-13214
▁तुम्हीं	-13215
▁त्यौहार	-13216
▁दरवाज़े	-13217
▁दर्शाने	-13218
▁दर्शाया	-13219
▁दिखाएगा	-13220
▁दुरुस्त	-13221
▁दृश्यों	-13222
▁दोहराने	-13223
▁द्वारों	-13224
▁धिक्कार	-13225
▁ध्रुवीय	-13226
▁नरेंद्र	-13227
▁नर्तकों	-13228
▁नाभिकीय	-13229
▁नामांकन	-13230
▁निःशक्त	-13231
▁निस्पृह	-13232
▁न्यूट्र	-13233
▁पचहत्तर	-13234
▁परिव्यय	-13235
▁परेशानी	-13236
▁पर्वतार	-13237
▁पहचानने	-13238
▁पहुँचती	-13239
▁पहुंचकर	-13240
▁पहुंचती	-13241
▁पहुंचने	-13242
▁पिरामिड	-13243
▁पुकारने	-13244
▁पुराणों	-13245
▁पुरूषों	-13246
▁पुरोहित	-13247
▁पुर्जों	-13248
▁पृष्ठों	-13249
▁पैटरसन्	-13250
▁पैदावार	-13251
▁प्रकाशक	-13252
▁प्रजाति	-13253
▁प्रदूषक	-13254
▁प्रपत्र	-13255
▁प्रशासक	-13256
▁प्रसारण	-13257
▁प्राणिक	-13258
▁प्रियंव	-13259
▁प्रेसिड	-13260
▁प्लेबैक	-13261
▁फर्नीचर	-13262
▁फ़ंक्शन	-13263
▁फ़रमाया	-13264
▁फिलीपीन	-13265
▁बकरियों	-13266
▁बख़्शिस	-13267
▁बनाएँगे	-13268
▁बनाएंगे	-13269
▁बहुलवाद	-13270
▁बारंबार	-13271
▁बुढ़ापे	-13272
▁बुद्धिम	-13273
▁बेशुमार	-13274
▁बेहिश्त	-13275
▁बोलियों	-13276
▁ब्रह्मा	-13277
▁ब्राजील	-13278
▁भंडारित	-13279
▁भण्डारण	-13280
▁भेजेंगे	-13281
▁भ्रांति	-13282
▁महाराणा	-13283
▁मांसपेश	-13284
▁मार्केट	-13285
▁मार्गों	-13286
▁मिज़ोरम	-13287
▁मिश्रित	-13288
▁मिसालें	-13289
▁मुअय्यन	-13290
▁मुल्कों	-13291
▁मुहावरा	-13292
▁मेजबानी	-13293
▁मेहरअली	-13294
▁मोड्यूल	-13295
▁मोहब्बत	-13296
▁यथासंभव	-13297
▁रहस्यों	-13298
▁रहेंगें	-13299
▁रोज़गार	-13300
▁लक्ष्मण	-13301
▁लेखांकन	-13302
▁लेखापरी	-13303
▁लेटेक्स	-13304
▁वचनबद्ध	-13305
▁वाक़िया	-13306
▁वाराणसी	-13307
▁विचित्र	-13308
▁विधियां	-13309
▁विवरणों	-13310
▁विशुद्ध	-13311
▁विश्राम	-13312
▁विषाक्त	-13313
▁वृंदावन	-13314
▁वेतनमान	-13315
▁वेशभूषा	-13316
▁वोल्टेज	-13317
▁व्यष्टि	-13318
▁व्यैक्त	-13319
▁शत्रुता	-13320
▁शब्दकोश	-13321
▁शिवसागर	-13322
▁शीघ्रता	-13323
▁शॉर्टकट	-13324
▁श्रीराम	-13325
▁षडयंत्र	-13326
▁संकुचित	-13327
▁संप्रती	-13328
▁संबन्धी	-13329
▁सज्जनों	-13330
▁समझदारी	-13331
▁समन्वित	-13332
▁सम्बंधी	-13333
▁सरदारों	-13334
▁सरलीकरण	-13335
▁सर्वज्ञ	-13336
▁सलाहकार	-13337
▁सल्फाइड	-13338
▁सस्पेंड	-13339
▁सापेक्ष	-13340
▁सावधानी	-13341
▁सिक्कों	-13342
▁सुल्तान	-13343
▁सूत्रकृ	-13344
▁सूत्रों	-13345
▁सैनिकों	-13346
▁सोसाइटी	-13347
▁सौहार्द	-13348
▁स्कूलों	-13349
▁स्तोत्र	-13350
▁स्थानिक	-13351
▁स्पेक्ट	-13352
▁स्वार्थ	-13353
.04.2012,	-13354
ईमानदारों	-13355
निर्धारित	-13356
स्तानियों	-13357
▁forecast	-13358
▁अत्याधिक	-13359
▁अधिकाधिक	-13360
▁अधिसूचित	-13361
▁अध्यात्म	-13362
▁अनुकूलता	-13363
▁अपमानजनक	-13364
▁अभिज्ञान	-13365
▁असफलताओं	-13366
▁अस्वीकृत	-13367
▁आंदोलनों	-13368
▁आउटबॉक्स	-13369
▁आधारशिला	-13370
▁आधिकारिक	-13371
▁आधुनिकता	-13372
▁आन्बोर्ड	-13373
▁आयुर्वेद	-13374
▁आविष्कार	-13375
▁इब्राहीम	-13376
▁इम्तिहान	-13377
▁ईमानदारी	-13378
▁उज़्बेकि	-13379
▁उपनिषदों	-13380
▁उपशीर्षक	-13381
▁एख्तियार	-13382
▁कनेक्टेड	-13383
▁कर्मचालय	-13384
▁कश्तियां	-13385
▁कारखानों	-13386
▁कोशिकाएं	-13387
▁क्रियाएं	-13388
▁क्रिस्टल	-13389
▁क्रिस्टो	-13390
▁क्षमताओं	-13391
▁क्षेत्रः	-13392
▁खड्डेमें	-13393
▁खाण्डेकर	-13394
▁गाम्बिया	-13395
▁गुनेहगार	-13396
▁गोपनीयता	-13397
▁ग्वालियर	-13398
▁चट्टानों	-13399
▁चित्रकार	-13400
▁जयप्रकाश	-13401
▁जादूगरों	-13402
▁जानेवाला	-13403
▁जानेवाली	-13404
▁जुर्माना	-13405
▁जुर्माने	-13406
▁टेलीविजन	-13407
▁ट्रैकिंग	-13408
▁तस्वीरों	-13409
▁तारामंडल	-13410
▁दग़ाबाज़	-13411
▁दुरुपयोग	-13412
▁दुश्मनों	-13413
▁देहरादून	-13414
▁नाशुक्री	-13415
▁निदेशकों	-13416
▁निरीक्षक	-13417
▁निर्णयों	-13418
▁निर्धनता	-13419
▁निवेदिता	-13420
▁पत्तियों	-13421
▁पत्नियों	-13422
▁परंपराओं	-13423
▁परिरक्षण	-13424
▁पर्यटकों	-13425
▁पहुंचाया	-13426
▁पहुंचेगी	-13427
▁पीढ़ियों	-13428
▁पुनर्गठन	-13429
▁पूर्णिमा	-13430
▁प्रतिद्व	-13431
▁प्रतियां	-13432
▁प्रतिवाद	-13433
▁प्रतिशोध	-13434
▁प्रबंधित	-13435
▁प्रभारित	-13436
▁प्रभार्य	-13437
▁प्रसंगों	-13438
▁प्रांतीय	-13439
▁प्रांतों	-13440
▁प्राप्ते	-13441
▁प्रोसेसर	-13442
▁प्रौढ़ता	-13443
▁फाउंडेशन	-13444
▁बरकतवाला	-13445
▁बलपूर्वक	-13446
▁बलात्कार	-13447
▁बस्तियाँ	-13448
▁बुराइयाँ	-13449
▁बेजबरुवा	-13450
▁ब्राज़ील	-13451
▁ब्रितानी	-13452
▁भारतीयता	-13453
▁मंज़िलें	-13454
▁मस्ज़िदे	-13455
▁महान्याय	-13456
▁माइक्रोस	-13457
▁मास्टर्स	-13458
▁मुक़ाबला	-13459
▁मुवाफिक़	-13460
▁मुशरिकों	-13461
▁यहूदियों	-13462
▁यांत्रिक	-13463
▁यूनेस्को	-13464
▁राजपूतों	-13465
▁राज्यसभा	-13466
▁रामकृष्ण	-13467
▁रियासतों	-13468
▁लापरवाही	-13469
▁वस्त्रों	-13470
▁वाक्यांश	-13471
▁विद्याधर	-13472
▁विनम्रता	-13473
▁विनियमित	-13474
▁व्यस्तता	-13475
▁शरणार्थी	-13476
▁शुक्रवार	-13477
▁शोभायमान	-13478
▁श्रोताओं	-13479
▁संक्रमित	-13480
▁संगमर्मर	-13481
▁संदर्भित	-13482
▁संपुष्टि	-13483
▁संप्रदाय	-13484
▁संप्रेषण	-13485
▁संविदाएं	-13486
▁समाधानों	-13487
▁समाविष्ट	-13488
▁समितियाँ	-13489
▁सम्भावना	-13490
▁साक्षरता	-13491
▁साझीदारी	-13492
▁साझीदारो	-13493
▁सामंजस्य	-13494
▁सिंगापुर	-13495
▁सूचीबद्ध	-13496
▁स्ट्रिंग	-13497
▁स्थापत्य	-13498
▁स्नातकों	-13499
▁स्पष्टतः	-13500
▁स्पष्टता	-13501
▁हरिद्वार	-13502
▁हेक्टेयर	-13503
▁होनेवाला	-13504
▁होनेवाले	-13505
escription	-13506
च्छापूर्वक	-13507
▁clathrate	-13508
▁districts	-13509
▁functions	-13510
▁pfriendly	-13511
▁अंग्रेज़ी	-13512
▁अंतड़ियों	-13513
▁अधिनिर्णय	-13514
▁अनुमतियाँ	-13515
▁अनुस्मारक	-13516
▁अनौपचारिक	-13517
▁अपराधियों	-13518
▁अपारदर्शी	-13519
▁आमन्त्रित	-13520
▁इन्फ्लुएं	-13521
▁उत्साहजनक	-13522
▁उम्मीदवार	-13523
▁एक्सटेंशन	-13524
▁कमजोरियों	-13525
▁कार्यदिवस	-13526
▁कार्यनीति	-13527
▁कुलपतियों	-13528
▁ग्यारहवें	-13529
▁चमत्कारों	-13530
▁चिरस्थायी	-13531
▁चेन्नम्मा	-13532
▁छुट्टियों	-13533
▁जनजातियों	-13534
▁ज़्यादातर	-13535
▁जीवद्रव्य	-13536
▁तात्कालिक	-13537
▁तुल्यकालन	-13538
▁दरख्वास्त	-13539
▁पंक्तियों	-13540
▁पंचवर्षीय	-13541
▁पत्रिकाओं	-13542
▁परजीवियों	-13543
▁परम्परागत	-13544
▁परिपक्वता	-13545
▁परिलक्षित	-13546
▁परिवर्धित	-13547
▁परिवीक्षा	-13548
▁परिस्थिति	-13549
▁पारिवारिक	-13550
▁पूर्वोक्त	-13551
▁प्रतिज्ञा	-13552
▁प्रतिवेदन	-13553
▁प्रत्यायन	-13554
▁प्रशंसनीय	-13555
▁प्राणियों	-13556
▁प्राधिकृत	-13557
▁प्रामाणिक	-13558
▁प्रेमियों	-13559
▁प्रोग्रॅम	-13560
▁प्रोटोकाल	-13561
▁फ़ोल्डरों	-13562
▁फायरफॉक्स	-13563
▁बढ़ोत्तरी	-13564
▁बहुसंख्यक	-13565
▁भारतेन्दु	-13566
▁भावनात्मक	-13567
▁भूविज्ञान	-13568
▁मनोवृत्ति	-13569
▁महानिदेशक	-13570
▁मुश्किलों	-13571
▁युधिष्ठिर	-13572
▁राष्ट्रों	-13573
▁रिपोर्टों	-13574
▁वाक़िफकार	-13575
▁वाच्यार्थ	-13576
▁वार्तालाप	-13577
▁विज्ञप्ति	-13578
▁वित्तपोषण	-13579
▁विधानमंडल	-13580
▁विनाशकारी	-13581
▁विस्तारित	-13582
▁विस्थापित	-13583
▁वृत्तान्त	-13584
▁वैचारिकता	-13585
▁व्यतिक्रम	-13586
▁व्यवहार्य	-13587
▁व्याकरणिक	-13588
▁संकेन्द्र	-13589
▁संयंत्रों	-13590
▁संवैधानिक	-13591
▁संस्थायें	-13592
▁सम्मेलनों	-13593
▁सहयोगियों	-13594
▁सिद्धांतो	-13595
▁सिफारिशों	-13596
▁सीमावर्ती	-13597
▁सुननेवाला	-13598
▁स्वयंसेवक	-13599
▁स्वयंसेवी	-13600
▁स्वाधीनता	-13601
▁स्वीकार्य	-13602
▁हस्तशिल्प	-13603
▁अनिवार्यतः	-13604
▁अस्वीकार्य	-13605
▁उदाहरणार्थ	-13606
▁उपभोक्ताओं	-13607
▁उपमहाद्वीप	-13608
▁कल्याणकारी	-13609
▁जन्माष्टमी	-13610
▁जिम्मेवारी	-13611
▁टिप्पणियाँ	-13612
▁डाईआक्साइड	-13613
▁दीर्घकालिक	-13614
▁निःस्वार्थ	-13615
▁निस्सन्देह	-13616
▁परिवर्तनीय	-13617
▁पाकिस्तानी	-13618
▁पारदर्शिता	-13619
▁पुनर्जागरण	-13620
▁पूर्वोत्तर	-13621
▁प्रतिभावान	-13622
▁प्रतिरक्षण	-13623
▁प्रत्यर्थी	-13624
▁प्रावधानों	-13625
▁फैक्टरियों	-13626
▁मध्यप्रदेश	-13627
▁मानवाधिकार	-13628
▁रिपोर्टिंग	-13629
▁रूपान्तरित	-13630
▁रेजिमेंटों	-13631
▁लेफ्टिनेंट	-13632
▁वातानुकूलन	-13633
▁वाद्ययंत्र	-13634
▁विकिपीडिया	-13635
▁विक्रेताओं	-13636
▁विशेषज्ञता	-13637
▁विश्वेश्वर	-13638
▁शांतिपूर्ण	-13639
▁शेयरधारकों	-13640
▁संपत्तियों	-13641
▁सामग्रियों	-13642
▁सुभाषचंद्र	-13643
▁स्थानांतरण	-13644
▁हेलिकॉप्टर	-13645
प्रौद्योगिकी	-13646
▁raviratlami	-13647
▁अंटार्कटिका	-13648
▁अनुप्रयोगों	-13649
▁अप्रत्याशित	-13650
▁अभिव्यक़्ति	-13651
▁आउटसोर्सिंग	-13652
▁आतंकवादियों	-13653
▁आर्गुमेंट्स	-13654
▁उधारकर्ताओं	-13655
▁केंद्रीयकृत	-13656
▁क्रियान्वयन	-13657
▁क्षतिपूर्ति	-13658
▁दुर्भाग्यवश	-13659
▁देशीराज्यों	-13660
▁न्यायपालिका	-13661
▁पुनरावृत्ति	-13662
▁पुनर्विलोकन	-13663
▁पूर्वानुमान	-13664
▁प्रतिपूर्ति	-13665
▁प्रत्यार्थी	-13666
▁मंत्रिपरिषद	-13667
▁वास्तुशिल्प	-13668
▁शास्त्रियों	-13669
▁शुक्रगुज़ार	-13670
▁संगोष्ठियों	-13671
▁साक्षात्कार	-13672
▁सिद्धान्तों	-13673
▁हिन्दुस्तान	-13674
▁अंतराष्ट्रीय	-13675
▁कारस्तानियों	-13676
▁कॉन्फ़िगरेशन	-13677
▁क्रियाकलापों	-13678
▁परिप्रेक्ष्य	-13679
▁परिस्थितियां	-13680
▁प्रतिवादियों	-13681
▁प्रतिस्थापित	-13682
▁साम्प्रदायिक	-13683
▁सेवानिवृत्ति	-13684
▁प्रौद्योगिकियों	-13685
-1.	-13686
-12	-13687
-17	-13688
-30	-13689
-60	-13690
-90	-13691
.4;	-13692
.9;	-13693
13.	-13694
39;	-13695
7,8	-13696
720	-13697
859	-13698
App	-13699
ll	-13700
BUT	-13701
DAP	-13702
DIS	-13703
Mac	-13704
OMM	-13705
POS	-13706
Twc	-13707
URE	-13708
ace	-13709
ack	-13710
act	-13711
arn	-13712
ays	-13713
cam	-13714
dim	-13715
dir	-13716
ens	-13717
gle	-13718
han	-13719
ian	-13720
iew	-13721
ile	-13722
ise	-13723
ite	-13724
las	-13725
lay	-13726
lot	-13727
nds	-13728
omb	-13729
oth	-13730
oun	-13731
pet	-13732
rib	-13733
rou	-13734
sto	-13735
tel	-13736
ten	-13737
tom	-13738
usr	-13739
vii	-13740
yle	-13741
¤.	-13742
अबु	-13743
एकल	-13744
एफओ	-13745
खलन	-13746
गणक	-13747
गलस	-13748
गृह	-13749
चिव	-13750
चिह	-13751
चुन	-13752
चुप	-13753
चॉफ	-13754
छाई	-13755
जगह	-13756
जिआ	-13757
जुब	-13758
डऋई	-13759
डरी	-13760
डसन	-13761
डिड	-13762
डे़	-13763
ड्ढ	-13764
ड्थ	-13765
तलब	-13766
दंर	-13767
दीर	-13768
धीय	-13769
नोड	-13770
पिछ	-13771
पुण	-13772
पुस	-13773
पेन	-13774
पैठ	-13775
पोष	-13776
फाँ	-13777
फेग	-13778
बदल	-13779
मरू	-13780
रघु	-13781
रणा	-13782
रमर	-13783
रिड	-13784
रुप	-13785
वग्	-13786
वुड	-13787
सृप	-13788
हील	-13789
ाणे	-13790
ृणा	-13791
ैषी	-13792
ोमो	-13793
▁6,	-13794
▁66	-13795
▁71	-13796
▁8.	-13797
▁87	-13798
▁CF	-13799
.08	-13800
aly	-13801
our	-13802
ued	-13803
उपन	-13804
चाय	-13805
तिर	-13806
निर	-13807
भली	-13808
भाई	-13809
▁CH	-13810
▁Do	-13811
▁ER	-13812
▁MM	-13813
▁Na	-13814
▁Or	-13815
▁PH	-13816
▁SA	-13817
▁SK	-13818
▁ST	-13819
▁St	-13820
▁ZZ	-13821
▁\\	-13822
▁be	-13823
▁ch	-13824
▁ev	-13825
▁me	-13826
▁ov	-13827
▁ph	-13828
▁ru	-13829
▁vc	-13830
▁टु	-13831
▁०२	-13832
▁२३	-13833
▁५२	-13834
▁६२	-13835
▁८२	-13836
-190	-13837
000°	-13838
1215	-13839
2002	-13840
4.19	-13841
Chin	-13842
Comp	-13843
DIST	-13844
Dire	-13845
ICOM	-13846
LINK	-13847
MIME	-13848
RORT	-13849
View	-13850
alog	-13851
back	-13852
bout	-13853
cier	-13854
cket	-13855
cups	-13856
eria	-13857
erly	-13858
esis	-13859
font	-13860
help	-13861
hort	-13862
ibli	-13863
ions	-13864
ktop	-13865
link	-13866
mail	-13867
mbps	-13868
oint	-13869
omin	-13870
osof	-13871
ouch	-13872
poth	-13873
puer	-13874
reen	-13875
roup	-13876
star	-13877
uery	-13878
uris	-13879
ँचाः	-13880
ंगेस	-13881
ंघने	-13882
ंघाई	-13883
ंजीर	-13884
ंबरी	-13885
ंबवत	-13886
आतंक	-13887
आपदा	-13888
आरएल	-13889
इन्स	-13890
उतरा	-13891
एनजी	-13892
एफआर	-13893
एफएस	-13894
कभार	-13895
कराव	-13896
कावट	-13897
कियर	-13898
कुंड	-13899
ैड	-13900
imp	-13901
ंडन	-13902
कोण	-13903
खाई	-13904
खान	-13905
खाब	-13906
जीन	-13907
जूल	-13908
तम्	-13909
दात	-13910
नाप	-13911
पीन	-13912
योज	-13913
शूल	-13914
ूलक	-13915
्लू	-13916
▁06	-13917
▁घम	-13918
▁छत	-13919
ंदरा	-13920
ंधों	-13921
अमेर	-13922
कूवर	-13923
कोहल	-13924
क्कल	-13925
क्चर	-13926
क्रे	-13927
क्षु	-13928
गठित	-13929
गरों	-13930
गिकी	-13931
गूढ़	-13932
गोचर	-13933
घाती	-13934
चनार	-13935
चिरा	-13936
चुअल	-13937
चुने	-13938
जरिम	-13939
जर्स	-13940
जिटल	-13941
जीनि	-13942
जुएट	-13943
जुला	-13944
जैसी	-13945
झूठी	-13946
झोंक	-13947
टककर	-13948
टिकट	-13949
टेक्	-13950
ट्रॉ	-13951
डीसी	-13952
डेनम	-13953
ड्ढा	-13954
ढ़ने	-13955
णक्य	-13956
तत्व	-13957
तबली	-13958
त्तन	-13959
दबंद	-13960
दलीय	-13961
दासु	-13962
दुर्	-13963
देखी	-13964
धपुर	-13965
धारक	-13966
धिनि	-13967
ध्वा	-13968
नकना	-13969
नसोल	-13970
नाथन	-13971
नियम	-13972
नीरव	-13973
नुत्	-13974
पकना	-13975
पथ्य	-13976
पर्व	-13977
पाथी	-13978
पैदा	-13979
पोषी	-13980
प्पी	-13981
फ़लत	-13982
फ़ीद	-13983
फ़ुह	-13984
फ़ेद	-13985
फेगस	-13986
फ्ते	-13987
बख्त	-13988
बख्श	-13989
बरील	-13990
बितर	-13991
बेतक	-13992
बोधन	-13993
ब्बि	-13994
भगृह	-13995
भारी	-13996
भ्रम	-13997
मल्ल	-13998
मांड	-13999
In	-14000
खल	-14001
ँहा	-14002
किच	-14003
दीम	-14004
रेक	-14005
रेस	-14006
ूपन	-14007
ेओं	-14008
▁1'	-14009
▁ईद	-14010
▁ऐं	-14011
▁लए	-14012
▁८६	-14013
इसकी	-14014
क़ाम	-14015
थाओं	-14016
दार्	-14017
पंजी	-14018
बाहे	-14019
मुँह	-14020
मूलक	-14021
म्बल	-14022
म्बा	-14023
म्मच	-14024
म्लर	-14025
म्सन	-14026
यर्स	-14027
यापक	-14028
रीबन	-14029
रुज्	-14030
रेली	-14031
रोखे	-14032
र्डर	-14033
र्रे	-14034
लपुर	-14035
लाना	-14036
लूचि	-14037
लोकल	-14038
ल्लै	-14039
वंदन	-14040
वणता	-14041
वाइड	-14042
व्वे	-14043
शांत	-14044
शायी	-14045
श्रु	-14046
श्ला	-14047
षाणु	-14048
ष्मन	-14049
सकता	-14050
सख्त	-14051
सचिव	-14052
सदक़	-14053
सफाई	-14054
सबका	-14055
समझा	-14056
सवसा	-14057
सवां	-14058
साधक	-14059
सिनी	-14060
सीआर	-14061
सीएफ	-14062
सेवक	-14063
हनों	-14064
हाइड	-14065
हानि	-14066
हिनी	-14067
हृदय	-14068
ापना	-14069
ामान	-14070
ायनर	-14071
ासिज	-14072
ासुर	-14073
िंदा	-14074
िदमत	-14075
िनार	-14076
िन्ट	-14077
ियाल	-14078
ियास	-14079
ियुग	-14080
िशनर	-14081
ुतों	-14082
ुत्त	-14083
ुदाभ	-14084
ुदीन	-14085
ुदेव	-14086
ुम्भ	-14087
ुरान	-14088
ेंचर	-14089
ेल्स	-14090
ैरात	-14091
ॉजिट	-14092
ॉफ्ट	-14093
ोड्स	-14094
ोबिन	-14095
ोलकर	-14096
ोलीन	-14097
ोल्स	-14098
ौकिक	-14099
-%	-14100
ैट	-14101
अतः	-14102
आजा	-14103
कली	-14104
कल्	-14105
गिर	-14106
नें	-14107
वेब	-14108
शाम	-14109
श्न	-14110
सेर	-14111
ाओं	-14112
ामय	-14113
ाहट	-14114
िरक	-14115
ोढ़	-14116
▁6.	-14117
▁SO	-14118
▁टख	-14119
▁हड	-14120
आजाद	-14121
क्रा	-14122
गिरि	-14123
ज्जा	-14124
ड़की	-14125
तटीय	-14126
पारी	-14127
विला	-14128
शुल्	-14129
हारे	-14130
िकेश	-14131
्टीट	-14132
▁(04	-14133
▁(22	-14134
▁1/%	-14135
▁1/2	-14136
▁10,	-14137
▁13.	-14138
▁139	-14139
▁14.	-14140
▁152	-14141
▁177	-14142
▁184	-14143
▁2.2	-14144
▁20,	-14145
▁206	-14146
▁23.	-14147
▁25%	-14148
▁250	-14149
▁254	-14150
▁27,	-14151
▁3).	-14152
▁48.	-14153
▁5.0	-14154
▁5.5	-14155
▁550	-14156
▁900	-14157
▁All	-14158
▁BAR	-14159
▁Goo	-14160
▁ISN	-14161
▁Ice	-14162
▁MAC	-14163
▁MSL	-14164
▁MSN	-14165
▁PGP	-14166
▁PNG	-14167
▁Ple	-14168
▁Res	-14169
▁SKE	-14170
▁amp	-14171
▁bet	-14172
▁dis	-14173
▁edu	-14174
▁fin	-14175
▁for	-14176
▁gas	-14177
▁gun	-14178
▁kde	-14179
▁key	-14180
▁mee	-14181
▁mon	-14182
▁php	-14183
▁war	-14184
▁अंप	-14185
▁अचर	-14186
▁अजय	-14187
▁अजस	-14188
▁अयो	-14189
▁आदी	-14190
▁आधी	-14191
▁आभा	-14192
▁आमे	-14193
▁आसन	-14194
▁इंफ	-14195
▁इख़	-14196
▁ईथर	-14197
▁उकल	-14198
▁उजब	-14199
ue	-14200
बस	-14201
रः	-14202
/81	-14203
lar	-14204
ँसा	-14205
ंगो	-14206
ईयू	-14207
उसी	-14208
कदा	-14209
केश	-14210
ज़ो	-14211
मूम	-14212
रूस	-14213
वलप	-14214
ारक	-14215
ेशी	-14216
▁po	-14217
▁गछ	-14218
▁लह	-14219
7,8,	-14220
ंजना	-14221
कोला	-14222
खुली	-14223
गारा	-14224
निधि	-14225
फ़ज़	-14226
बाशी	-14227
बोधक	-14228
राथन	-14229
र्टन	-14230
लिब्	-14231
लियम	-14232
वाकर	-14233
विनय	-14234
ोगिक	-14235
ोसिस	-14236
▁(01	-14237
▁उतऋ	-14238
▁ऊँघ	-14239
▁एंथ	-14240
▁एंव	-14241
▁एली	-14242
▁ऑफी	-14243
▁ऑयल	-14244
▁ओंठ	-14245
▁कढ़	-14246
▁कदर	-14247
▁कपट	-14248
▁कसौ	-14249
▁कुच	-14250
▁कुद	-14251
▁ख़़	-14252
▁गधे	-14253
▁गली	-14254
▁घुम	-14255
▁घों	-14256
▁चढा	-14257
▁चूत	-14258
▁जज्	-14259
▁जमू	-14260
▁जूझ	-14261
▁टाई	-14262
▁टेप	-14263
▁ट्व	-14264
▁ठुक	-14265
▁ठेस	-14266
▁डकै	-14267
▁डीड	-14268
▁डैश	-14269
▁तंद	-14270
▁तनु	-14271
▁तहस	-14272
▁ताम	-14273
▁तुझ	-14274
▁थाई	-14275
▁थाल	-14276
▁थेः	-14277
▁दाव	-14278
▁दौड	-14279
▁धक्	-14280
▁धमा	-14281
▁नफे	-14282
▁नरम	-14283
▁नृश	-14284
▁नोब	-14285
▁पटक	-14286
▁पथः	-14287
▁पना	-14288
▁पहर	-14289
▁पाओ	-14290
▁पात	-14291
▁पाव	-14292
▁पाश	-14293
▁पुछ	-14294
▁पॉम	-14295
▁पोड	-14296
▁पोस	-14297
▁फील	-14298
▁फुस	-14299
फट	-14300
गाओ	-14301
जनी	-14302
जास	-14303
पदा	-14304
माप	-14305
मीय	-14306
सिं	-14307
ासु	-14308
ुनी	-14309
ूंट	-14310
ौनी	-14311
्कर	-14312
्ली	-14313
▁1:	-14314
▁hy	-14315
▁ऐव	-14316
▁नृ	-14317
▁५५	-14318
ties	-14319
ंतुक	-14320
क़तन	-14321
खाता	-14322
गेशन	-14323
जीएस	-14324
तारा	-14325
दामा	-14326
माया	-14327
यानी	-14328
रीशस	-14329
लेवा	-14330
सुरी	-14331
िकीय	-14332
ीलों	-14333
ोक्ष	-14334
्त्व	-14335
्रमा	-14336
▁111	-14337
▁अनम	-14338
▁अले	-14339
▁एनी	-14340
▁केन	-14341
▁झूट	-14342
▁ड़ि	-14343
▁तरस	-14344
▁दिग	-14345
▁धाक	-14346
▁फेफ	-14347
▁फोस	-14348
▁बतख	-14349
▁बेध	-14350
▁भगो	-14351
▁भाष	-14352
▁भूप	-14353
▁भेट	-14354
▁भैं	-14355
▁मँग	-14356
▁मक्	-14357
▁मदी	-14358
▁मधऋ	-14359
▁मधु	-14360
▁मरू	-14361
▁मुर	-14362
▁मुव	-14363
▁मृद	-14364
▁मेर	-14365
▁यथो	-14366
▁रपट	-14367
▁रिच	-14368
▁रिफ	-14369
▁रूढ	-14370
▁रॉक	-14371
▁रॉय	-14372
▁रौब	-14373
▁ललक	-14374
▁लिन	-14375
▁लुध	-14376
▁लेग	-14377
▁लेट	-14378
▁वेग	-14379
▁शेड	-14380
▁श्म	-14381
▁षड़	-14382
▁सदर	-14383
▁सनी	-14384
▁सफा	-14385
▁सबब	-14386
▁सरस	-14387
▁सिन	-14388
▁सेम	-14389
▁सैक	-14390
▁हँस	-14391
▁हतो	-14392
▁हुइ	-14393
▁हुर	-14394
▁१८९	-14395
▁१९०	-14396
▁१९२	-14397
▁१९३	-14398
-2010	-14399
,4	-14400
AB	-14401
uf	-14402
est	-14403
कलक	-14404
खला	-14405
दाश	-14406
नली	-14407
फ़ो	-14408
भाऊ	-14409
मरण	-14410
राण	-14411
ल्श	-14412
िसी	-14413
ुल्	-14414
ोमा	-14415
▁Pi	-14416
▁सप	-14417
आधार	-14418
कारक	-14419
कुंच	-14420
ख्ता	-14421
बीमा	-14422
ल्दी	-14423
वारे	-14424
सारी	-14425
सेवा	-14426
ाफिल	-14427
ुमके	-14428
ैप्स	-14429
ोधित	-14430
्हें	-14431
▁उपय	-14432
▁ग़ै	-14433
▁दरा	-14434
▁दुक	-14435
▁निब	-14436
▁बका	-14437
▁बटा	-14438
▁बाई	-14439
▁मध्	-14440
▁मूक	-14441
▁वरा	-14442
35.00	-14443
47-19	-14444
DISTR	-14445
EMAIL	-14446
Short	-14447
alued	-14448
arsen	-14449
creen	-14450
ently	-14451
impli	-14452
ished	-14453
osoft	-14454
ottom	-14455
ource	-14456
rance	-14457
ransf	-14458
share	-14459
sions	-14460
state	-14461
yahoo	-14462
ंदोलन	-14463
अफ्री	-14464
आज्ञा	-14465
एफ़एस	-14466
एमर्इ	-14467
कथाओं	-14468
कहानी	-14469
क़सान	-14470
क़ौमे	-14471
क़्की	-14472
काकार	-14473
कानाथ	-14474
कुंतल	-14475
कुरान	-14476
क्टेड	-14477
क्षिण	-14478
क्सीन	-14479
ख़ोरी	-14480
खोलकर	-14481
गंधित	-14482
गोलीय	-14483
चक्का	-14484
चाँदी	-14485
चिअल्	-14486
ज़न्द	-14487
ज़ेरत	-14488
जिरीन	-14489
जीवों	-14490
जेल्स	-14491
जोहां	-14492
ज्जीन	-14493
ज्जुब	-14494
टडाउन	-14495
टलैंड	-14496
ट्रिक	-14497
ट्रॉन	-14498
डब्लू	-14499
.–	-14500
CC	-14501
\"	-14502
ऋय	-14503
नह	-14504
फै	-14505
बक	-14506
ीत	-14507
३८	-14508
▁ण	-14509
▁९	-14510
ईजी	-14511
खरी	-14512
नहस	-14513
पुन	-14514
वाइ	-14515
सीड	-14516
ेरि	-14517
ैंज	-14518
।--	-14519
▁(6	-14520
▁5:	-14521
▁वू	-14522
ंद्ध	-14523
इसका	-14524
कोमा	-14525
जामत	-14526
टेनर	-14527
ठिया	-14528
तापा	-14529
बरकत	-14530
बैठे	-14531
भीरा	-14532
राइड	-14533
विया	-14534
वीजन	-14535
शेयर	-14536
स्ला	-14537
िमोह	-14538
ुकता	-14539
▁110	-14540
▁कैस	-14541
▁जुट	-14542
▁नंद	-14543
▁नति	-14544
▁नस्	-14545
▁भान	-14546
▁मनी	-14547
▁रवा	-14548
▁लों	-14549
चयिता	-14550
ड़ापन	-14551
ड़ोने	-14552
ण्विक	-14553
तलड़ी	-14554
तलबंद	-14555
तविया	-14556
तापीय	-14557
ताबईन	-14558
तालवी	-14559
तावली	-14560
तावास	-14561
तितोष	-14562
तिथ्य	-14563
तुकला	-14564
तुमपर	-14565
त्नों	-14566
द्धार	-14567
धानाथ	-14568
नजंगा	-14569
नरशिप	-14570
नापुर	-14571
नुमान	-14572
न्टिक	-14573
न्नों	-14574
पिछले	-14575
पुत्र	-14576
फ़तेह	-14577
फ़ारे	-14578
फ़िरत	-14579
फार्म	-14580
फिकेट	-14581
फियों	-14582
बक्सा	-14583
बरमती	-14584
बराहट	-14585
बेडकर	-14586
भेदों	-14587
भ्यास	-14588
महारा	-14589
महिमा	-14590
माइंड	-14591
मार्च	-14592
मैंने	-14593
म्ब्र	-14594
यताओं	-14595
यानों	-14596
यापचय	-14597
यियों	-14598
युगीन	-14599
,.	-14600
:/	-14601
AO	-14602
MO	-14603
ND	-14604
OI	-14605
Us	-14606
br	-14607
oh	-14608
sb	-14609
एओ	-14610
तह	-14611
ूथ	-14612
ॉत	-14613
ohn	-14614
ंबल	-14615
इंट	-14616
इली	-14617
उसे	-14618
छें	-14619
जुट	-14620
दते	-14621
बास	-14622
भगत	-14623
याल	-14624
वंत	-14625
वीण	-14626
शीन	-14627
▁(5	-14628
▁91	-14629
▁MD	-14630
▁थक	-14631
▁नभ	-14632
न्दू	-14633
यनीय	-14634
र्ता	-14635
सीयस	-14636
▁120	-14637
▁15)	-14638
▁22,	-14639
▁ग़ल	-14640
▁दॉत	-14641
▁मोन	-14642
▁शैश	-14643
-1946	-14644
एँगें	-14645
यावधि	-14646
रबर्ड	-14647
रोसिन	-14648
र्रिब	-14649
लंकार	-14650
लड़ाई	-14651
लीग़े	-14652
लीवुड	-14653
वश्यक	-14654
वाड़ा	-14655
वाद्य	-14656
वायवी	-14657
विन्द	-14658
विलास	-14659
विहीन	-14660
वीरें	-14661
वेदना	-14662
शिथिल	-14663
शीतित	-14664
शैतान	-14665
षिद्ध	-14666
ष्णकट	-14667
संगति	-14668
संगीत	-14669
सच्चे	-14670
सदस्य	-14671
सबर्ग	-14672
सल्लत	-14673
साइक्	-14674
साज़ी	-14675
सामने	-14676
सायटी	-14677
सिंघा	-14678
स्करी	-14679
स्कुट	-14680
स्पिट	-14681
स्मात	-14682
हाबाद	-14683
हुक्म	-14684
होड़ा	-14685
ारण्य	-14686
ारायण	-14687
ालियन	-14688
ासकीय	-14689
ाहारी	-14690
िक्री	-14691
िटिकल	-14692
िट्जर	-14693
िबिया	-14694
िमयाँ	-14695
िमोमो	-14696
ियागर	-14697
ियानु	-14698
ियारत	-14699
,1	-14700
21	-14701
79	-14702
?1	-14703
IP	-14704
UL	-14705
WP	-14706
ag	-14707
ep	-14708
उद	-14709
एब	-14710
घू	-14711
१९	-14712
८०	-14713
”।	-14714
?14	-14715
ंपर	-14716
एका	-14717
काज	-14718
ग़ल	-14719
ज्ल	-14720
यती	-14721
यली	-14722
संर	-14723
सीई	-14724
ितल	-14725
ेगी	-14726
ोला	-14727
▁आड	-14728
▁उथ	-14729
▁ऐश	-14730
▁जं	-14731
▁दन	-14732
ंडवल	-14733
अंतर	-14734
क़्य	-14735
ठ्ठा	-14736
राते	-14737
र्सी	-14738
वैसा	-14739
ारें	-14740
ियें	-14741
ूलित	-14742
्नोल	-14743
्रीट	-14744
▁अौर	-14745
▁एसे	-14746
▁कोइ	-14747
▁छीन	-14748
▁ज़ब	-14749
▁रजा	-14750
▁सरा	-14751
▁सेः	-14752
ंपरित	-14753
नामों	-14754
र्णित	-14755
हार्य	-14756
हिंदु	-14757
िवादी	-14758
िविटी	-14759
िश्ती	-14760
िसालत	-14761
िस्टम	-14762
ीदांत	-14763
ीरिया	-14764
ुआरों	-14765
ुटिकल	-14766
ुत्वा	-14767
ुनातन	-14768
ुपयोग	-14769
ुपालन	-14770
ुमंडल	-14771
ेंबली	-14772
ैनिंग	-14773
ॉर्डन	-14774
ोमियम	-14775
ोरेंस	-14776
ोर्जे	-14777
ोलिटन	-14778
्नोलौ	-14779
्रानी	-14780
्वर्ट	-14781
०००००	-14782
▁"{0}	-14783
▁"{2}	-14784
▁#39;	-14785
▁(1),	-14786
▁...।	-14787
▁0.05	-14788
▁1400	-14789
▁1819	-14790
▁1886	-14791
▁1891	-14792
▁1896	-14793
▁1905	-14794
▁1918	-14795
▁1919	-14796
▁1921	-14797
▁1926	-14798
▁1928	-14799
)?	-14800
-'	-14801
63	-14802
CH	-14803
NE	-14804
ja	-14805
ke	-14806
ां	-14807
ॉट	-14808
ॉर	-14809
ौस	-14810
१८	-14811
आदम	-14812
ऊदी	-14813
एल्	-14814
दिह	-14815
मणि	-14816
सिन	-14817
ुमी	-14818
▁अॅ	-14819
▁ऑख	-14820
▁जठ	-14821
▁६६	-14822
CHAN	-14823
क्री	-14824
त्था	-14825
द्धी	-14826
विभा	-14827
स्ना	-14828
ुलता	-14829
ुलाई	-14830
▁काक	-14831
▁चने	-14832
▁छड़	-14833
▁लूप	-14834
▁विट	-14835
▁हदी	-14836
fonts	-14837
viron	-14838
खाद्य	-14839
चेहरा	-14840
ाइयों	-14841
ोजगार	-14842
▁1929	-14843
▁1934	-14844
▁1938	-14845
▁1939	-14846
▁1955	-14847
▁1962	-14848
▁1963	-14849
▁1968	-14850
▁1973	-14851
▁1980	-14852
▁1981	-14853
▁1986	-14854
▁1987	-14855
▁2022	-14856
▁264)	-14857
▁3000	-14858
▁6500	-14859
▁COMM	-14860
▁City	-14861
▁HTTP	-14862
▁IMAP	-14863
▁LDAP	-14864
▁Mail	-14865
▁Micr	-14866
▁Park	-14867
▁SASL	-14868
▁This	-14869
▁Unit	-14870
▁comp	-14871
▁mail	-14872
▁prop	-14873
▁some	-14874
▁type	-14875
▁अंकन	-14876
▁अंचल	-14877
▁अंबर	-14878
▁अगुआ	-14879
▁अचेत	-14880
▁अतंर	-14881
▁अतुल	-14882
▁अधड़	-14883
▁अधीर	-14884
▁अनवर	-14885
▁अनाथ	-14886
▁अफसर	-14887
▁अबतक	-14888
▁अबुल	-14889
▁अबोल	-14890
▁अब्र	-14891
▁अभूत	-14892
▁अमाप	-14893
▁अमीर	-14894
▁अमुक	-14895
▁अयोग	-14896
▁अलाउ	-14897
▁अवधी	-14898
▁असहि	-14899
-(	-14900
ँश	-14901
आद	-14902
एह	-14903
डक	-14904
नई	-14905
बट	-14906
सच	-14907
ोच	-14908
ोभ	-14909
”>	-14910
---	-14911
amp	-14912
ंसे	-14913
कती	-14914
दें	-14915
बता	-14916
राँ	-14917
ाान	-14918
ुलु	-14919
ूज़	-14920
्वन	-14921
▁(4	-14922
▁गय	-14923
ंतित	-14924
उच्च	-14925
टीआई	-14926
ताली	-14927
मंडप	-14928
रण्य	-14929
राला	-14930
स्सा	-14931
ूँगी	-14932
ेजें	-14933
्ाान	-14934
▁7/4	-14935
▁केल	-14936
▁ग्व	-14937
▁चिन	-14938
▁दाल	-14939
▁परह	-14940
▁बसु	-14941
▁मुक	-14942
▁समज	-14943
▁सिग	-14944
ंसीड़	-14945
एहकाम	-14946
दनसीब	-14947
▁अहोम	-14948
▁आईईए	-14949
▁आईकै	-14950
▁आपरि	-14951
▁आयीं	-14952
▁आलोच	-14953
▁आस्त	-14954
▁आहरण	-14955
▁इनाम	-14956
▁इसाई	-14957
▁इसाब	-14958
▁ईआईए	-14959
▁ईसरा	-14960
▁उठती	-14961
▁उठते	-14962
▁उड़न	-14963
▁उतने	-14964
▁उतरे	-14965
▁उथला	-14966
▁उबाल	-14967
▁उभयह	-14968
▁उम्म	-14969
▁उर्फ	-14970
▁उलटे	-14971
▁एंगल	-14972
▁एडवा	-14973
▁एडिस	-14974
▁एलेन	-14975
▁एसवी	-14976
▁ऐंड़	-14977
▁ऐज़े	-14978
▁ऐवज़	-14979
▁ऑफीस	-14980
▁ऑल्ट	-14981
▁ओजोन	-14982
▁ओपेन	-14983
▁औरते	-14984
▁कंदा	-14985
▁कंधे	-14986
▁कज़ी	-14987
▁कटाई	-14988
▁कटाव	-14989
▁कणों	-14990
▁कथान	-14991
▁कन्व	-14992
▁कन्स	-14993
▁कपूर	-14994
▁कपोल	-14995
▁कबाब	-14996
▁कब्ज	-14997
▁कसकर	-14998
▁क़ौल	-14999
IL	-15000
OO	-15001
co	-15002
ओर	-15003
गग	-15004
घि	-15005
५१	-15006
OOL	-15007
काइ	-15008
ठना	-15009
तीव	-15010
वति	-15011
विट	-15012
ान्	-15013
ौंग	-15014
्यत	-15015
▁2)	-15016
▁अछ	-15017
▁इट	-15018
▁झर	-15019
▁ढॉ	-15020
▁मट	-15021
xiii	-15022
बिंद	-15023
मानद	-15024
याना	-15025
व्यू	-15026
▁150	-15027
▁अजन	-15028
▁कबा	-15029
▁चिट	-15030
▁जलन	-15031
▁टंक	-15032
▁ढील	-15033
▁तरा	-15034
▁नर्	-15035
▁नाल	-15036
▁मोग	-15037
▁यार	-15038
▁सान	-15039
▁हीं	-15040
ंग्रो	-15041
परलोक	-15042
महत्व	-15043
रावती	-15044
लैण्ड	-15045
▁000°	-15046
▁अतीव	-15047
▁अवसा	-15048
▁एनको	-15049
▁कमोड	-15050
▁काँग	-15051
▁काबा	-15052
▁कारन	-15053
▁कीबा	-15054
▁कुटु	-15055
▁कूपन	-15056
▁कृषक	-15057
▁केले	-15058
▁कोन्	-15059
▁कोले	-15060
▁कोहन	-15061
▁क्यो	-15062
▁क्षी	-15063
▁क्षु	-15064
▁खगोल	-15065
▁ख़ता	-15066
▁खामी	-15067
▁खारी	-15068
▁खासी	-15069
▁खिलख	-15070
▁खोजे	-15071
▁खोना	-15072
▁गंवा	-15073
▁गढ़च	-15074
▁गयूम	-15075
▁ग़ैब	-15076
▁गायक	-15077
▁गायन	-15078
▁गारी	-15079
▁गिड़	-15080
▁गीगा	-15081
▁गॉधी	-15082
▁गोचर	-15083
▁गोदा	-15084
▁घंटा	-15085
▁घंटी	-15086
▁घटान	-15087
▁घिरी	-15088
▁घुसा	-15089
▁घृणा	-15090
▁घेघा	-15091
▁चंदा	-15092
▁चंपत	-15093
▁चखाए	-15094
▁चढ़ा	-15095
▁चढ़े	-15096
▁चयनक	-15097
▁चांग	-15098
▁चांड	-15099
-"	-15100
/0	-15101
74	-15102
tW	-15103
ँप	-15104
आश	-15105
एए	-15106
छौ	-15107
पश	-15108
भस	-15109
ुइ	-15110
असम	-15111
इसे	-15112
तिल	-15113
तुर	-15114
पिन	-15115
युत	-15116
संध	-15117
़्त	-15118
ैंग	-15119
ोंह	-15120
▁मख	-15121
केशन	-15122
गवर्	-15123
जारी	-15124
नमें	-15125
मस्त	-15126
स्पद	-15127
हतूत	-15128
ुमीन	-15129
ुलेट	-15130
ोपीय	-15131
▁अया	-15132
▁आगम	-15133
▁ऋणी	-15134
▁दाद	-15135
▁मरण	-15136
▁यया	-15137
इसलिए	-15138
कालित	-15139
गवर्न	-15140
चिन्ह	-15141
ढ़ापन	-15142
म्बार	-15143
रियों	-15144
र्ज़ा	-15145
ाप्रद	-15146
ोहारी	-15147
▁उपलइ	-15148
▁कराह	-15149
▁काका	-15150
▁केला	-15151
▁घायल	-15152
▁चतुर	-15153
▁चाचा	-15154
▁चारे	-15155
▁चालक	-15156
▁चेतन	-15157
▁चोटी	-15158
▁चौबी	-15159
▁छापा	-15160
▁छूती	-15161
▁छेड़	-15162
▁छोडे	-15163
▁जगहः	-15164
▁जडे़	-15165
▁जनती	-15166
▁जबरन	-15167
▁जब्त	-15168
▁जमघट	-15169
▁जलीय	-15170
▁ज़ैत	-15171
▁जाईए	-15172
▁जादा	-15173
▁जावक	-15174
▁जावा	-15175
▁जिल्	-15176
▁जेपी	-15177
▁जैकब	-15178
▁जोसफ	-15179
▁ज्ये	-15180
▁ज्यो	-15181
▁झुग्	-15182
▁टंकण	-15183
▁टाइम	-15184
▁टेक़	-15185
▁टेलि	-15186
▁टोपी	-15187
▁ठाणे	-15188
▁डकार	-15189
▁डगलस	-15190
▁डिपो	-15191
▁डुबा	-15192
▁डेमो	-15193
▁डेरि	-15194
▁डोरी	-15195
▁ड्रॉ	-15196
▁ढीला	-15197
▁तख्त	-15198
▁तनों	-15199
,"	-15200
."	-15201
27	-15202
FS	-15203
St	-15204
अफ	-15205
इए	-15206
उज	-15207
ऑं	-15208
कश	-15209
झौ	-15210
तऋ	-15211
तट	-15212
बौ	-15213
शह	-15214
ुओ	-15215
ौन	-15216
ठों	-15217
भों	-15218
लड़	-15219
वेत	-15220
सां	-15221
ेशक	-15222
ौरा	-15223
्टन	-15224
▁05	-15225
▁9.	-15226
▁GN	-15227
▁My	-15228
▁क्	-15229
▁हब	-15230
This	-15231
ड़ती	-15232
प्रि	-15233
बेरी	-15234
बेशक	-15235
ब्बी	-15236
मारे	-15237
ालिक	-15238
▁CCD	-15239
▁अगे	-15240
▁आयल	-15241
▁कबी	-15242
▁क़ो	-15243
▁पंप	-15244
▁बैर	-15245
▁मकर	-15246
▁महर	-15247
▁वंद	-15248
▁वेल	-15249
▁वेव	-15250
▁१९४	-15251
ध्यता	-15252
बरदार	-15253
बार्ड	-15254
बोधित	-15255
भिक्ष	-15256
लापुर	-15257
ूणाचल	-15258
▁आन्द	-15259
▁इस्ल	-15260
▁जुटा	-15261
▁तपाक	-15262
▁तमिष	-15263
▁तलाक	-15264
▁तापन	-15265
▁ताली	-15266
▁तितर	-15267
▁तुंग	-15268
▁तुनक	-15269
▁थाइल	-15270
▁थैले	-15271
▁थोडे	-15272
▁दंगा	-15273
▁दंडा	-15274
▁दंती	-15275
▁दफ़ा	-15276
▁दलीप	-15277
▁दशमल	-15278
▁दस्त	-15279
▁दहशत	-15280
▁दहाई	-15281
▁दाचि	-15282
▁दाता	-15283
▁दाना	-15284
▁दासी	-15285
▁दुखी	-15286
▁दूना	-15287
▁दूषण	-15288
▁देरी	-15289
▁दोमट	-15290
▁दौरे	-15291
▁धमकी	-15292
▁धम्म	-15293
▁धागा	-15294
▁धागे	-15295
▁धुएँ	-15296
▁धुऑं	-15297
▁धुरी	-15298
▁धोती	-15299
-6	-15300
-‘	-15301
ID	-15302
ud	-15303
ऑन	-15304
ओल	-15305
कॉ	-15306
चट	-15307
शौ	-15308
ART	-15309
इजा	-15310
केन	-15311
जाउ	-15312
दके	-15313
याब	-15314
रिय	-15315
हाज	-15316
िसा	-15317
▁दब	-15318
▁पछ	-15319
▁पठ	-15320
▁मऊ	-15321
▁शं	-15322
▁हं	-15323
आर्इ	-15324
जर्म	-15325
विंग	-15326
स्सन	-15327
ीनान	-15328
्यक्	-15329
▁अंह	-15330
▁आत्	-15331
▁कीम	-15332
▁जात	-15333
▁तोह	-15334
▁पतझ	-15335
▁पिल	-15336
▁भाज	-15337
▁मैप	-15338
▁लास	-15339
▁सफर	-15340
▁साई	-15341
िरौली	-15342
▁अटला	-15343
▁आभार	-15344
▁एमबी	-15345
▁कबीर	-15346
▁कहकर	-15347
▁कृमि	-15348
▁ख़ाल	-15349
▁देओल	-15350
▁ध्या	-15351
▁नकार	-15352
▁नफ़े	-15353
▁नम्र	-15354
▁नर्म	-15355
▁नवयु	-15356
▁नाएब	-15357
▁नायक	-15358
▁नाशु	-15359
▁निया	-15360
▁निरे	-15361
▁नीचा	-15362
▁नीदर	-15363
▁नीले	-15364
▁नुस्	-15365
▁नेअम	-15366
▁नेवि	-15367
▁पंखा	-15368
▁पंदर	-15369
▁पंसद	-15370
▁पटसन	-15371
▁पठार	-15372
▁पढाई	-15373
▁पद्म	-15374
▁पद्य	-15375
▁परवा	-15376
▁परिस	-15377
▁परों	-15378
▁पल्ल	-15379
▁पहरा	-15380
▁पाएं	-15381
▁पापा	-15382
▁पारा	-15383
▁पालक	-15384
▁पिंज	-15385
▁पिया	-15386
▁पीछा	-15387
▁पीतल	-15388
▁पूना	-15389
▁पेंच	-15390
▁पेजर	-15391
▁पेपर	-15392
▁पेसो	-15393
▁पॉलि	-15394
▁पोता	-15395
▁पौरा	-15396
▁फलेश	-15397
▁फसाद	-15398
▁फहरा	-15399
")	-15400
UE	-15401
hai	-15402
घ्य	-15403
चाल	-15404
चों	-15405
टेज	-15406
दली	-15407
नरी	-15408
पूण	-15409
याम	-15410
वाक	-15411
वैत	-15412
शेष	-15413
ोंग	-15414
ोंट	-15415
्डन	-15416
▁ww	-15417
▁उब	-15418
▁उम	-15419
▁उर	-15420
▁तन	-15421
▁नत	-15422
▁लब	-15423
▁वध	-15424
▁वश	-15425
ंकना	-15426
करों	-15427
चनों	-15428
फिंग	-15429
श्चय	-15430
हरना	-15431
ालतू	-15432
▁www	-15433
▁उनऋ	-15434
▁काद	-15435
▁जूल	-15436
▁तें	-15437
▁निल	-15438
▁पों	-15439
▁बिख	-15440
▁बें	-15441
▁लने	-15442
▁वोह	-15443
▁सुत	-15444
▁सेब	-15445
▁हैँ	-15446
▁हॉल	-15447
tions	-15448
इनमें	-15449
कोंडा	-15450
कोष्ठ	-15451
गिड़ा	-15452
ड़ाना	-15453
बाल्ट	-15454
भिमान	-15455
▁more	-15456
▁आइये	-15457
▁दिग्	-15458
▁फ़ीस	-15459
▁फिनल	-15460
▁फिरा	-15461
▁फिरो	-15462
▁फेरो	-15463
▁फोकल	-15464
▁फ्रै	-15465
▁फ्ला	-15466
▁बंदी	-15467
▁बंधन	-15468
▁बंधे	-15469
▁बंसी	-15470
▁बचें	-15471
▁बड़ै	-15472
▁बढकर	-15473
▁बताओ	-15474
▁बदतर	-15475
▁बदरू	-15476
▁बनाओ	-15477
▁बर्र	-15478
▁बलुआ	-15479
▁बल्क	-15480
▁बल्ब	-15481
▁बहके	-15482
▁बहरा	-15483
▁बहाल	-15484
▁बांट	-15485
▁बाइस	-15486
▁बाबा	-15487
▁बिछौ	-15488
▁बीजक	-15489
▁बीटा	-15490
▁बूंद	-15491
▁बूढे	-15492
▁बेतर	-15493
▁बैयत	-15494
▁बॉडी	-15495
▁बॉयर	-15496
▁बोझा	-15497
▁बौरा	-15498
▁ब्रश	-15499
.7	-15500
RW	-15501
ऐब	-15502
टम	-15503
डं	-15504
Web	-15505
ंकक	-15506
ऐसी	-15507
जता	-15508
धना	-15509
मूद	-15510
सना	-15511
ि्त	-15512
्य्	-15513
्वॉ	-15514
▁89	-15515
▁इर	-15516
▁टप	-15517
▁टर	-15518
▁रद	-15519
ग्नल	-15520
ज्या	-15521
डरों	-15522
बर्ट	-15523
बुरे	-15524
भाशय	-15525
लोत्	-15526
सन्न	-15527
हयोग	-15528
ुदास	-15529
▁''।	-15530
▁(02	-15531
▁(26	-15532
▁ईयर	-15533
▁कता	-15534
▁काई	-15535
▁किय	-15536
▁कैप	-15537
▁चेर	-15538
▁बान	-15539
▁बुर	-15540
▁भरत	-15541
▁भोग	-15542
▁मता	-15543
▁महँ	-15544
▁माई	-15545
उर्दू	-15546
गाकार	-15547
ताकार	-15548
फॉर्म	-15549
िट्य्	-15550
▁Cath	-15551
▁आत्य	-15552
▁उग्र	-15553
▁औरों	-15554
▁कड़ा	-15555
▁करों	-15556
▁गज़ब	-15557
▁डायर	-15558
▁डायल	-15559
▁दाएँ	-15560
▁पथरी	-15561
▁पहने	-15562
▁प्रग	-15563
▁ब्लू	-15564
▁भस्म	-15565
▁भुने	-15566
▁भूरी	-15567
▁भृंग	-15568
▁भेजो	-15569
▁मजूम	-15570
▁मद्ध	-15571
▁मनों	-15572
▁मरोड	-15573
▁मलहम	-15574
▁मलाई	-15575
▁मसलन	-15576
▁मसाह	-15577
▁महंत	-15578
▁माइम	-15579
▁माडल	-15580
▁मात्	-15581
▁माध्	-15582
▁मानस	-15583
▁मापी	-15584
▁माबू	-15585
▁मिसल	-15586
▁मुझी	-15587
▁मुरा	-15588
▁मृदु	-15589
▁मेडल	-15590
▁मैनह	-15591
▁मॉनी	-15592
▁मोचन	-15593
▁मोनो	-15594
▁यतीम	-15595
▁यत्न	-15596
▁यथाः	-15597
▁युगल	-15598
▁युवक	-15599
my	-15600
lob	-15601
घुम	-15602
छुप	-15603
जेस	-15604
टाप	-15605
तीन	-15606
तेह	-15607
ेंज	-15608
ोहन	-15609
▁("	-15610
▁MB	-15611
▁अइ	-15612
▁इत	-15613
▁ऐन	-15614
▁वल	-15615
▁शर	-15616
ring	-15617
ंध्य	-15618
अधिक	-15619
इससे	-15620
कारण	-15621
चनीय	-15622
तनगर	-15623
निकी	-15624
न्ही	-15625
भोगी	-15626
योजन	-15627
स्थि	-15628
ितना	-15629
िनान	-15630
ेंजर	-15631
▁234	-15632
▁करण	-15633
▁गला	-15634
▁धृत	-15635
▁भाप	-15636
▁यों	-15637
▁विह	-15638
lobal	-15639
एटीएम	-15640
योगैस	-15641
स्तरी	-15642
स्तार	-15643
ियमित	-15644
▁1892	-15645
▁कुएँ	-15646
▁ख़तर	-15647
▁टेढे	-15648
▁तनिक	-15649
▁तलों	-15650
▁फ्रा	-15651
▁बोतल	-15652
▁मेरु	-15653
▁यूनी	-15654
▁यूपी	-15655
▁यौवन	-15656
▁रंगा	-15657
▁रत्न	-15658
▁रबाब	-15659
▁रसों	-15660
▁रहूं	-15661
▁राइट	-15662
▁राजऋ	-15663
▁राष्	-15664
▁रियल	-15665
▁रूझू	-15666
▁रूपक	-15667
▁रूबी	-15668
▁रोजी	-15669
▁रोटी	-15670
▁रोमन	-15671
▁लड़ख	-15672
▁लतीफ	-15673
▁लम्प	-15674
▁लर्न	-15675
▁ललित	-15676
▁लाँए	-15677
▁लाती	-15678
▁लाला	-15679
▁लिवर	-15680
▁लीडर	-15681
▁लूला	-15682
▁लेंस	-15683
▁लेनी	-15684
▁लेबर	-15685
▁लेसे	-15686
▁लोगे	-15687
▁लौन्	-15688
▁वंशा	-15689
▁वकाल	-15690
▁वक्ष	-15691
▁वहॉँ	-15692
▁वातन	-15693
▁विंब	-15694
▁विजे	-15695
▁विदी	-15696
▁विषु	-15697
▁वीडर	-15698
▁वृषण	-15699
da	-15700
ऊं	-15701
कग	-15702
।'	-15703
):%	-15704
one	-15705
oss	-15706
ऑफ़	-15707
कहा	-15708
तीब	-15709
ध्द	-15710
नीस	-15711
लाओ	-15712
सड़	-15713
सती	-15714
ेपा	-15715
ktur	-15716
बरों	-15717
रोज़	-15718
िस्र	-15719
ुलकर	-15720
ोग्ल	-15721
▁आफ़	-15722
▁एडी	-15723
▁कों	-15724
▁खड़	-15725
▁चिं	-15726
▁छपा	-15727
▁जोन	-15728
▁पैं	-15729
▁फाल	-15730
▁भोल	-15731
▁मति	-15732
▁महज	-15733
▁मुन	-15734
Apple	-15735
मौजूद	-15736
लेख़ा	-15737
विवाह	-15738
्षेपा	-15739
▁6000	-15740
▁औपनि	-15741
▁कल्प	-15742
▁गाना	-15743
▁घाना	-15744
▁तारे	-15745
▁पर्ण	-15746
▁बढ़त	-15747
▁बैठो	-15748
▁भोलू	-15749
▁शंकु	-15750
▁शुऐब	-15751
▁शेखर	-15752
▁शोधक	-15753
▁संकर	-15754
▁संजय	-15755
▁संतो	-15756
▁संन्	-15757
▁संयु	-15758
▁संवा	-15759
▁संशय	-15760
▁सऊदी	-15761
▁सजाव	-15762
▁सजीव	-15763
▁सदका	-15764
▁सपना	-15765
▁सरली	-15766
▁सरवर	-15767
▁सर्ग	-15768
▁सर्च	-15769
▁सर्प	-15770
▁सल्ल	-15771
▁ससुर	-15772
▁सहने	-15773
▁सांग	-15774
▁सादे	-15775
▁सामा	-15776
▁साया	-15777
▁साये	-15778
▁सास्	-15779
▁सींग	-15780
▁सीईओ	-15781
▁सुने	-15782
▁सुरा	-15783
▁सुहा	-15784
▁सूँघ	-15785
▁सेतु	-15786
▁सेमा	-15787
▁सेवक	-15788
▁सेहत	-15789
▁सोची	-15790
▁सोलर	-15791
▁सोशल	-15792
▁स्ता	-15793
▁स्मी	-15794
▁स्लॉ	-15795
▁स्वय	-15796
▁हंसी	-15797
▁हक़ी	-15798
▁हडिड	-15799
िग	-15800
/12	-15801
day	-15802
urn	-15803
ंची	-15804
डकी	-15805
बरत	-15806
बरु	-15807
संच	-15808
ूरक	-15809
ूरि	-15810
ोशी	-15811
तामा	-15812
न्नू	-15813
फ़िल	-15814
ब्या	-15815
म्भव	-15816
लाफ़	-15817
सायल	-15818
सेफ़	-15819
ोड़ा	-15820
▁ज़े	-15821
▁तूर	-15822
▁फाँ	-15823
▁बैल	-15824
▁भैर	-15825
▁	-15826
ा	-15827
क	-15828
र	-15829
े	-15830
्	-15831
न	-15832
ि	-15833
स	-15834
त	-15835
ह	-15836
ं	-15837
ी	-15838
म	-15839
ो	-15840
य	-15841
प	-15842
ल	-15843
व	-15844
द	-15845
ज	-15846
ु	-15847
ग	-15848
ब	-15849
ै	-15850
अ	-15851
श	-15852
ए	-15853
च	-15854
उ	-15855
भ	-15856
ू	-15857
़	-15858
।	-15859
ट	-15860
,	-15861
थ	-15862
औ	-15863
ध	-15864
ख	-15865
ष	-15866
आ	-15867
ड	-15868
इ	-15869
ण	-15870
फ	-15871
(	-15872
)	-15873
.	-15874
ई	-15875
-	-15876
छ	-15877
ँ	-15878
1	-15879
ौ	-15880
0	-15881
ृ	-15882
ओ	-15883
ठ	-15884
2	-15885
घ	-15886
झ	-15887
e	-15888
ऐ	-15889
à	-15890
a	-15891
i	-15892
ढ	-15893
t	-15894
n	-15895
¤	-15896
ॉ	-15897
o	-15898
ः	-15899
"	-15900
s	-15901
9	-15902
4	-15903
r	-15904
3	-15905
/	-15906
5	-15907
?	-15908
l	-15909
'	-15910
ञ	-15911
m	-15912
%	-15913
;	-15914
6	-15915
8	-15916
7	-15917
:	-15918
p	-15919
ऊ	-15920
d	-15921
c	-15922
_	-15923
h	-15924
b	-15925
C	-15926
u	-15927
¥	-15928
‍	-15929
ऑ	-15930
०	-15931
!	-15932
y	-15933
ऋ	-15934
A	-15935
S	-15936
I	-15937
१	-15938
g	-15939
N	-15940
T	-15941
P	-15942
‘	-15943
f	-15944
R	-15945
E	-15946
k	-15947
w	-15948
M	-15949
>	-15950
’	-15951
”	-15952
O	-15953
D	-15954
⁄	-15955
v	-15956
L	-15957
२	-15958
#	-15959
&	-15960
“	-15961
<	-15962
	-15963
B	-15964
U	-15965
५	-15966
३	-15967
	-15968
°	-15969
९	-15970
F	-15971
x	-15972
	-15973
६	-15974
	-15975
¿	-15976
–	-15977
H	-15978
G	-15979
@	-15980
{	-15981
ॅ	-15982
८	-15983
}	-15984
V	-15985
̧	-15986
+	-15987
̈	-15988
Z	-15989
४	-15990
\	-15991
j	-15992
̄	-15993
॰	-15994
K	-15995
W	-15996
