<pad>	0
</s>	0
<unk>	0
,	-2.74542
.	-3.18752
▁ir	-3.73257
s	-3.99949
i	-4.11324
ų	-4.15602
▁kad	-4.39748
o	-4.41608
▁	-4.44292
ą	-4.76423
▁Europos	-5.01894
as	-5.02118
e	-5.02952
a	-5.04117
os	-5.10954
us	-5.18611
u	-5.20473
▁su	-5.20939
▁dėl	-5.24347
▁į	-5.26366
▁yra	-5.29646
▁-	-5.36641
ai	-5.51537
▁iš	-5.56891
▁tai	-5.57124
▁ne	-5.61882
)	-5.79417
▁(	-5.79429
▁pat	-5.8537
▁kaip	-5.86635
ti	-5.92278
▁taip	-5.95538
▁ši	-5.96064
▁ES	-6.0648
▁būtų	-6.06798
me	-6.06988
▁būti	-6.08381
▁už	-6.10693
į	-6.11937
▁m	-6.12682
▁labai	-6.1775
▁turi	-6.17819
▁savo	-6.19142
ės	-6.20074
ę	-6.21715
▁to	-6.221
▁buvo	-6.23066
▁tik	-6.23494
nt	-6.24102
▁apie	-6.2587
k	-6.2896
is	-6.31768
▁mūsų	-6.31903
m	-6.33369
▁Komisijos	-6.36042
▁be	-6.37407
▁nes	-6.40015
▁per	-6.40814
ė	-6.41624
▁pirmininke	-6.42188
▁bet	-6.45039
v	-6.48972
▁o	-6.49428
▁ar	-6.49709
▁dar	-6.50418
ais	-6.52504
▁kai	-6.53152
z	-6.5504
▁mes	-6.57385
▁bus	-6.57637
▁gali	-6.58785
▁turėt	-6.61338
p	-6.61728
▁jų	-6.62183
▁kurie	-6.62316
▁Tai	-6.65107
▁reikia	-6.66581
oje	-6.69446
▁Sąjungos	-6.70392
▁norėčiau	-6.70573
▁nuo	-6.70626
▁kuri	-6.70769
es	-6.70953
▁"	-6.70964
t	-6.724
:	-6.73414
▁vis	-6.74451
▁Parlamento	-6.77758
te	-6.78427
▁Todėl	-6.78741
ma	-6.81253
▁Komisija	-6.82511
b	-6.83472
▁turime	-6.83576
omis	-6.83745
▁darbo	-6.84813
▁jau	-6.85008
r	-6.85166
d	-6.86283
▁kurios	-6.87312
▁jos	-6.88556
n	-6.88747
▁narių	-6.88755
au	-6.90208
▁daug	-6.9051
ame	-6.91375
"	-6.93109
▁teisės	-6.94155
▁valstybės	-6.94664
ja	-6.94667
▁valstybių	-6.9476
ui	-6.95181
▁šį	-6.95263
ta	-6.96295
y	-6.96861
l	-6.97134
tų	-6.97458
▁prie	-6.97738
ių	-6.98368
▁pa	-6.98912
▁metu	-6.99762
ams	-6.99937
▁prieš	-7.00052
?	-7.00626
▁Tačiau	-7.00626
▁Ši	-7.01362
▁mums	-7.01918
si	-7.02011
▁šiuo	-7.02661
▁Pone	-7.0267
▁ypač	-7.03182
▁daugiau	-7.04285
in	-7.04519
ant	-7.05776
oms	-7.07713
▁užtikrinti	-7.08221
▁J	-7.08626
ž	-7.09102
▁tačiau	-7.10429
▁šios	-7.10982
▁nėra	-7.12389
▁siekiant	-7.1416
to	-7.14768
▁kuris	-7.1502
io	-7.15079
▁politikos	-7.15558
g	-7.16841
ųjų	-7.16867
▁todėl	-7.17345
li	-7.19425
mi	-7.19596
▁Be	-7.19914
▁mano	-7.20252
am	-7.20683
▁d	-7.21143
▁S	-7.21149
▁svarbu	-7.21368
▁A	-7.23272
▁šalių	-7.23795
▁Taip	-7.24672
▁aš	-7.25081
aus	-7.26699
▁ji	-7.26792
▁M	-7.27023
▁teisių	-7.27391
uose	-7.28899
▁B	-7.29292
▁manau	-7.29532
mas	-7.2958
▁tam	-7.30141
▁G	-7.302
;	-7.30365
▁po	-7.3045
▁Gerb	-7.31055
▁dabar	-7.318
ir	-7.32811
▁jis	-7.3335
▁narės	-7.34075
▁iki	-7.34185
▁Vis	-7.34594
al	-7.34662
▁ekonomikos	-7.34932
▁šio	-7.35097
▁P	-7.35513
▁visų	-7.35571
▁galima	-7.35753
▁Parlamentas	-7.36344
▁klausimas	-7.37406
▁srityje	-7.38129
P	-7.38196
▁bendradarbiavim	-7.38866
▁susijusi	-7.38912
▁K	-7.39357
▁visiška	-7.39386
imą	-7.39448
▁t	-7.40144
▁Tarybos	-7.41109
▁šiandien	-7.41109
▁kurį	-7.41621
▁Mes	-7.41642
imo	-7.41667
▁žmogaus	-7.4187
▁metų	-7.41878
š	-7.42014
ra	-7.42729
▁jie	-7.42956
▁kas	-7.43917
▁negali	-7.44464
▁arba	-7.44666
▁jo	-7.45159
▁kurių	-7.45554
ei	-7.46
▁ką	-7.4672
▁žmonių	-7.47752
▁Manau	-7.47788
▁pranešimą	-7.48165
ar	-7.48258
▁tarp	-7.48937
▁pagal	-7.51155
▁priemonių	-7.51476
▁Sąjunga	-7.5191
-	-7.51948
▁kuriuos	-7.52372
ri	-7.52958
iai	-7.5299
je	-7.53353
▁jei	-7.53575
▁raštu	-7.54004
▁šis	-7.54475
▁tiek	-7.5486
▁būtina	-7.54975
▁veiksmų	-7.56178
ėme	-7.56889
iu	-7.5697
ys	-7.57942
▁prekybos	-7.58401
imas	-7.58536
ko	-7.58817
▁jog	-7.58935
galėtų	-7.59545
▁pasakyti	-7.59719
▁toliau	-7.59784
▁at	-7.59835
en	-7.59921
▁rinkos	-7.60632
▁klausimu	-7.61157
▁proc	-7.61926
ose	-7.62378
▁klausimą	-7.62542
▁Norėčiau	-7.64421
▁energijos	-7.649
ms	-7.65251
re	-7.65628
ia	-7.66391
▁žemės	-7.66429
inės	-7.66791
▁Poni	-7.66855
ka	-7.66945
er	-7.67737
▁E	-7.68266
pa	-7.68309
▁Lisabono	-7.68827
▁kartą	-7.69321
dami	-7.69673
tas	-7.70304
▁T	-7.70598
▁klimato	-7.70827
▁kartu	-7.71356
▁nors	-7.71358
▁nei	-7.7192
na	-7.72069
▁apsaugos	-7.72569
▁atveju	-7.74672
▁kurią	-7.74744
▁nu	-7.74861
▁frakcijos	-7.75026
▁padėkoti	-7.75516
▁vardu	-7.7556
ek	-7.75733
el	-7.76249
▁Šiuo	-7.76444
▁pagrindini	-7.76451
osios	-7.76514
▁dėmesį	-7.76588
▁Aš	-7.76688
iau	-7.76805
▁svarbi	-7.76875
ni	-7.7688
▁dėlto	-7.77036
ik	-7.77186
▁pirma	-7.772
▁jūsų	-7.77374
▁kuria	-7.78443
▁viena	-7.7869
▁C	-7.79375
▁Kaip	-7.79393
▁R	-7.79512
▁Europoje	-7.79876
▁Pirmininke	-7.7994
▁padaryti	-7.80178
▁tuo	-7.80493
an	-7.80655
▁politiką	-7.80996
▁ponai	-7.81097
iems	-7.81309
gi	-7.81471
▁ūkio	-7.81561
▁imtis	-7.81565
▁pranešime	-7.81567
umo	-7.82231
▁priemones	-7.8295
mo	-7.83757
sime	-7.83953
f	-7.84146
mos	-7.84197
▁atžvilgiu	-7.84435
▁piliečių	-7.85139
ėje	-7.85146
▁Ne	-7.85177
▁Dėl	-7.85608
▁biudžeto	-7.8653
▁net	-7.87432
▁pateikti	-7.88129
▁politika	-7.88204
▁pasi	-7.88603
uot	-7.88655
▁priimti	-7.88679
▁svarbus	-7.88759
▁įgyvendinti	-7.8884
▁man	-7.89041
▁kitų	-7.89043
▁darbą	-7.89215
▁Turi	-7.89242
▁čia	-7.90202
▁Pa	-7.90349
▁mėn	-7.9046
▁Taryba	-7.90674
ijos	-7.91056
▁visiems	-7.91221
pv	-7.91573
▁maž	-7.91603
iškai	-7.9182
▁labiau	-7.92195
▁kur	-7.92558
la	-7.92838
▁Europa	-7.92936
▁vidaus	-7.92958
▁tikrai	-7.93226
▁nepa	-7.93279
▁Ar	-7.93586
▁jūs	-7.93938
ne	-7.94275
▁visos	-7.94414
▁vienas	-7.95111
▁aiškiai	-7.9516
ojo	-7.95255
uoti	-7.95522
▁turėtum	-7.95852
mą	-7.95909
inių	-7.9617
▁ponios	-7.96838
▁šia	-7.96972
c	-7.97103
2	-7.9776
lo	-7.98173
▁p	-7.98502
h	-7.98568
▁reikal	-7.98684
▁požiūriu	-7.98835
▁saugumo	-7.98847
ur	-7.98978
▁tikrųjų	-7.99541
▁jeigu	-7.99543
▁D	-7.99756
▁galimybę	-8.003
ūs	-8.00314
jo	-8.00363
on	-8.00385
▁galime	-8.00689
▁pasiekti	-8.01307
▁institucijos	-8.01565
▁siekiama	-8.01619
▁šiuos	-8.01727
▁finansų	-8.01919
▁sukurti	-8.01961
do	-8.01998
▁klausimus	-8.0227
at	-8.02554
tos	-8.02623
▁šioje	-8.0265
umą	-8.02769
▁ko	-8.02805
▁nariai	-8.02971
ėmis	-8.03159
▁laiko	-8.0358
▁sistemos	-8.03663
▁pabrėžti	-8.04439
▁vien	-8.04535
▁visi	-8.04872
DE	-8.05096
▁nustatyti	-8.05116
▁atsižvelgia	-8.05472
ems	-8.05551
ius	-8.05789
čiau	-8.05806
▁maisto	-8.05807
ing	-8.06172
▁transporto	-8.06794
tin	-8.07196
veik	-8.07363
ln	-8.0768
▁N	-8.07696
▁komiteto	-8.07996
išk	-8.08602
▁Sąjungoje	-8.08737
▁moterų	-8.08737
▁sveikatos	-8.08737
▁jums	-8.08744
▁žinoma	-8.08846
▁EUR	-8.08923
ūr	-8.08966
sta	-8.09264
▁įvairi	-8.09275
ak	-8.10075
▁nuomone	-8.10326
▁kuriuo	-8.10676
▁skirt	-8.10725
▁reiškia	-8.1107
dama	-8.11212
▁energetikos	-8.11757
ime	-8.11868
▁pasaulyje	-8.12525
▁įskaitant	-8.12525
T	-8.12571
▁krizės	-8.12866
da	-8.12962
▁plėtros	-8.133
▁šalies	-8.133
▁Mano	-8.13793
▁valstybėms	-8.14095
tar	-8.14629
▁Jei	-8.14634
▁laisv	-8.1464
▁Iš	-8.14919
▁nebuvo	-8.14923
ro	-8.14942
▁priemonės	-8.15539
▁šalys	-8.15811
L	-8.15848
▁valstybėse	-8.16246
▁V	-8.16709
le	-8.16751
▁Tarybai	-8.16992
▁neturi	-8.17219
▁šalims	-8.17269
▁pasiūlymą	-8.17332
or	-8.17475
ėja	-8.17487
▁juos	-8.17511
▁aplinkos	-8.1811
▁v	-8.1819
▁jį	-8.18272
▁Kita	-8.18687
▁kuriai	-8.18711
imu	-8.18859
▁Parlamente	-8.18932
▁L	-8.19518
▁šalyse	-8.19573
lai	-8.19882
▁kelia	-8.20249
▁ap	-8.20505
▁socialini	-8.20543
▁padėti	-8.20587
▁produktų	-8.20837
ty	-8.21378
▁kurio	-8.21478
▁metais	-8.21651
▁žmonės	-8.22249
ga	-8.22487
▁pateik	-8.22606
▁turės	-8.2266
aug	-8.22823
kai	-8.22905
▁paslaugų	-8.23104
▁srityse	-8.23163
▁kurioje	-8.2373
j	-8.23767
▁šiam	-8.2384
▁padėtį	-8.24027
▁direktyvos	-8.24055
ama	-8.2432
▁du	-8.24376
▁kitos	-8.24397
▁oro	-8.2444
▁pasaulio	-8.24835
▁problema	-8.24848
▁vieną	-8.25872
/	-8.26534
▁tokia	-8.26733
▁vietos	-8.26822
▁k	-8.26955
▁ją	-8.27395
▁euro	-8.27445
▁veiklos	-8.27491
▁spręsti	-8.27491
▁lygio	-8.27502
▁kuriose	-8.27701
▁F	-8.27786
usi	-8.27932
▁noriu	-8.28
il	-8.28176
ėjo	-8.28307
▁pagalbos	-8.28393
▁pranešimas	-8.28406
▁H	-8.28745
ęs	-8.28911
▁narys	-8.29167
▁išteklių	-8.29301
▁taisyklių	-8.2932
▁visuomenės	-8.29389
▁mokslini	-8.29664
čių	-8.2998
yb	-8.30045
▁Es	-8.30063
▁kelet	-8.30218
▁lėšų	-8.30218
▁šalis	-8.30218
▁pranešimo	-8.30235
▁Bendrijos	-8.3032
▁skatinti	-8.30338
▁teisę	-8.30393
▁jiems	-8.30438
▁I	-8.30631
▁ja	-8.30731
▁šie	-8.31181
▁Taigi	-8.31373
▁tiesų	-8.32523
▁suteikti	-8.32812
▁narėms	-8.33041
▁visa	-8.33241
▁norime	-8.33257
▁skirti	-8.33653
ėms	-8.33869
▁jūros	-8.33974
▁gyventojų	-8.33975
▁tikslas	-8.33975
▁sumažinti	-8.34224
rin	-8.34227
tume	-8.34289
▁bendrą	-8.34883
▁institucijų	-8.34936
▁mokesčių	-8.34936
▁ateityje	-8.34937
▁2009	-8.3494
▁piliečiams	-8.34947
▁dideli	-8.34975
▁kuriam	-8.35358
▁metus	-8.3537
ch	-8.35541
▁narėse	-8.35756
▁gerai	-8.35769
▁sistemą	-8.35907
▁vaidmenį	-8.35907
▁1	-8.35909
dži	-8.35957
▁kuo	-8.36124
▁mažiau	-8.36202
▁vėl	-8.36249
▁teises	-8.36477
oji	-8.36613
▁sk	-8.36731
▁lygmeniu	-8.36902
▁pritariu	-8.36923
▁didesn	-8.37438
▁priežiūros	-8.37881
▁susitarimas	-8.37887
▁rodo	-8.37887
tu	-8.37922
damas	-8.38372
▁kiek	-8.38552
▁vartotojų	-8.38877
▁būtent	-8.38878
▁aktų	-8.38879
▁susitarimo	-8.38889
kt	-8.3891
▁nary	-8.39049
▁re	-8.39138
▁didel	-8.39186
▁pastar	-8.39198
5	-8.39411
▁geriau	-8.39584
A	-8.39917
▁Balsav	-8.40151
▁O	-8.40247
no	-8.40458
ci	-8.40531
▁rezoliucijos	-8.40931
▁pirmiausia	-8.40952
▁visus	-8.41821
▁nori	-8.41935
▁žmonėms	-8.41938
▁reikėtų	-8.42094
▁įtraukti	-8.42173
ū	-8.42338
▁teis	-8.42372
▁Ji	-8.42864
▁darbuotojų	-8.43094
▁esame	-8.43289
▁dalis	-8.43299
inio	-8.43445
▁padėtis	-8.43508
▁kovos	-8.43622
E	-8.43663
ieji	-8.43836
▁vyksta	-8.43885
imui	-8.44049
▁esu	-8.44073
tai	-8.44085
▁susi	-8.44134
jų	-8.44243
▁De	-8.44259
▁teisin	-8.4432
iam	-8.447
▁tinkamai	-8.44708
mų	-8.44881
▁problemų	-8.45097
▁strategijos	-8.45099
▁paramos	-8.45102
▁kadangi	-8.4512
▁privalo	-8.4553
▁rinką	-8.45597
▁sistema	-8.45942
kl	-8.45949
nčios	-8.46117
▁dažnai	-8.46172
▁problemos	-8.46172
▁paramą	-8.46172
▁klausimų	-8.46179
var	-8.46184
▁tikiuosi	-8.46216
ol	-8.46439
▁sprendimus	-8.46697
▁Galiausiai	-8.4726
▁tikslų	-8.47261
▁sprendimo	-8.47264
▁pateikt	-8.47499
iant	-8.47746
esni	-8.48071
▁l	-8.48164
nčių	-8.48177
▁Kai	-8.48292
▁poveikį	-8.48358
FR	-8.48364
▁vieš	-8.48906
▁kuriomis	-8.49021
▁ž	-8.49032
▁gauti	-8.49106
tik	-8.49265
jai	-8.49303
▁kontrolės	-8.4953
▁dirbti	-8.49771
▁20	-8.50055
▁naujas	-8.50155
▁galimybes	-8.5031
▁Dabar	-8.50546
▁tyrimų	-8.50593
▁valdžios	-8.50593
▁dauguma	-8.50596
▁valdymo	-8.50598
▁kodėl	-8.50601
gu	-8.50645
▁piliečiai	-8.50807
0	-8.50876
▁pri	-8.50902
▁bendra	-8.50915
▁sąlygas	-8.5121
▁privalome	-8.51217
di	-8.51349
▁būsim	-8.51446
▁esmės	-8.51762
ntys	-8.51836
▁klausimais	-8.52072
ntis	-8.52107
uosius	-8.52254
▁sudaro	-8.52417
ina	-8.52737
▁pramonės	-8.52972
▁daryti	-8.53154
dar	-8.53608
".	-8.53814
▁galėtum	-8.54049
▁Lab	-8.54114
▁sprendimą	-8.54123
▁parlament	-8.54414
▁koki	-8.54583
umas	-8.5508
▁Man	-8.55202
▁problemas	-8.55378
▁atlikti	-8.55448
▁visą	-8.55604
iš	-8.55739
itin	-8.55787
tą	-8.55873
ju	-8.56086
▁dėmesio	-8.56408
▁pasiūlymas	-8.56408
▁pasinaudoti	-8.56412
▁krizę	-8.56526
▁kelią	-8.57108
▁Komisijai	-8.57395
raš	-8.5742
▁atkreipt	-8.5753
6	-8.57567
▁apsauga	-8.57679
▁tapt	-8.57711
▁kita	-8.57744
▁veiksming	-8.57774
▁Antra	-8.58257
▁parengti	-8.58302
▁didžiausi	-8.58359
▁balsavau	-8.58832
▁informacijos	-8.58832
vo	-8.5884
▁susitarimą	-8.58847
▁aiški	-8.58856
▁įmonių	-8.58873
▁naujų	-8.58974
4	-8.59335
et	-8.59406
ES	-8.59447
▁y	-8.59586
▁diskusijos	-8.59699
čio	-8.6008
▁toks	-8.60104
▁visada	-8.6011
▁EP	-8.60205
▁pradėti	-8.60673
▁siekti	-8.60729
va	-8.6107
▁padėties	-8.61519
▁tarptautin	-8.61564
8	-8.6162
▁3	-8.61666
cija	-8.61674
▁tikslus	-8.61939
S	-8.62194
ip	-8.6241
▁4	-8.62522
▁strategija	-8.62583
▁pagalbą	-8.62586
▁sprendimas	-8.62588
▁nebus	-8.626
▁gyvenimo	-8.6261
▁pakankamai	-8.62718
▁galimyb	-8.62732
▁padidinti	-8.62748
mis	-8.63162
▁finansinių	-8.63508
ly	-8.63548
▁nuolat	-8.63823
▁derybų	-8.63865
▁vietų	-8.63865
▁šalyje	-8.63865
▁gamyb	-8.63915
▁remti	-8.63933
▁užsienio	-8.63937
ky	-8.64151
inti	-8.64191
ją	-8.64227
▁taikyti	-8.64733
▁ta	-8.65065
▁vaikų	-8.65164
▁vystymosi	-8.65165
▁dalį	-8.65165
▁Mūsų	-8.65166
N	-8.65693
▁pasiūlymų	-8.66479
▁sutarties	-8.6648
▁regiono	-8.66481
ši	-8.66502
▁Per	-8.66661
▁skirta	-8.66876
▁toki	-8.67211
▁Ž	-8.67249
uoja	-8.67478
▁žingsnis	-8.67813
▁fondo	-8.67813
▁sektoriaus	-8.67814
▁2008	-8.67816
▁tvarkos	-8.67826
▁nesu	-8.6783
▁rezoliuciją	-8.67871
▁laikas	-8.68094
▁kaitos	-8.68113
▁šalimis	-8.68132
▁atsi	-8.68407
▁kol	-8.68586
▁sektoriuje	-8.69164
▁išorės	-8.69165
▁pasiūlymo	-8.69172
avo	-8.69267
žr	-8.69313
M	-8.69343
▁kalbėti	-8.69361
▁vertus	-8.69416
▁susijęs	-8.69549
▁išspręsti	-8.69585
▁Parlamentui	-8.69757
▁10	-8.69836
ąją	-8.69961
▁duomenų	-8.70534
▁veiklą	-8.70534
▁rasti	-8.70537
ume	-8.70564
▁sudėting	-8.70691
▁veikti	-8.70738
▁naują	-8.70769
▁Su	-8.70785
1	-8.71261
▁pas	-8.71319
▁priėm	-8.71709
ome	-8.71768
▁Vadov	-8.71919
▁padės	-8.71921
▁priežasčių	-8.71923
▁galbūt	-8.71928
▁būdu	-8.71939
▁dujų	-8.71961
▁rinkoje	-8.72017
▁tarptautini	-8.72024
▁laisvės	-8.72281
▁tą	-8.72318
▁padar	-8.72341
▁griežt	-8.72368
▁laikytis	-8.72499
7	-8.72592
▁kalba	-8.72838
▁kar	-8.72945
siu	-8.73093
▁sprendimų	-8.73333
▁Į	-8.73475
C	-8.73539
▁š	-8.73809
▁papildom	-8.739
▁diskusijas	-8.7432
▁klausimai	-8.74335
rod	-8.74386
▁JAV	-8.7476
▁Mums	-8.74761
▁klausimo	-8.74797
▁finansavimo	-8.74827
▁įmonės	-8.74844
▁5	-8.74954
▁keli	-8.74974
▁pritarti	-8.75
▁atlikt	-8.75086
▁neturėtų	-8.75104
▁g	-8.75228
avimo	-8.7531
gal	-8.75469
▁remiant	-8.75471
▁siek	-8.75627
9	-8.75634
▁susiję	-8.75797
▁tvar	-8.76007
▁Sąjungai	-8.76091
▁poveikio	-8.76209
▁nepaisant	-8.76209
▁programos	-8.76211
▁šiai	-8.76256
▁pakeisti	-8.76275
uk	-8.76276
▁ekonominės	-8.76306
▁jokių	-8.76349
▁tada	-8.76375
▁jame	-8.7663
▁svarbiausia	-8.76721
▁aišku	-8.77013
▁greičiau	-8.77078
▁direktyva	-8.77273
▁taikom	-8.77326
▁Pirma	-8.77383
▁kyla	-8.77444
▁abejo	-8.77668
▁nare	-8.77713
▁kokybės	-8.77757
U	-8.78153
ad	-8.78175
▁skirting	-8.78533
▁vykd	-8.78766
▁socialinė	-8.79082
▁strategiją	-8.79172
▁Europą	-8.79173
▁2010	-8.79175
▁atskir	-8.79231
▁nebūt	-8.79257
▁kovoti	-8.79306
▁matyti	-8.79316
▁mus	-8.79403
▁2	-8.79466
▁vertinu	-8.79473
▁tap	-8.79515
▁nauj	-8.79811
▁veikia	-8.79889
▁šiol	-8.79961
▁Tik	-8.79995
▁tas	-8.80091
▁viso	-8.80283
R	-8.80289
▁įgyvendin	-8.80348
▁Tikiuosi	-8.80694
▁gerb	-8.80963
▁tokios	-8.81033
▁saugos	-8.81088
▁ketina	-8.81137
▁ilg	-8.81253
▁Bet	-8.81354
▁frakcija	-8.81389
gr	-8.8143
lio	-8.81442
▁finansin	-8.81872
▁apima	-8.82104
▁apsaugą	-8.82226
▁rezultatų	-8.82226
▁000	-8.82226
▁nariams	-8.82231
▁Kalba	-8.82243
▁politinių	-8.82339
▁bendr	-8.82453
▁tarptautinės	-8.82474
imų	-8.82555
▁teikti	-8.82634
▁Nors	-8.82636
▁kaita	-8.82685
▁pasiek	-8.8273
▁bū	-8.82768
ba	-8.82781
▁kitą	-8.8284
ry	-8.83214
▁teigiam	-8.83273
ist	-8.83563
▁kokia	-8.83699
▁pastangas	-8.83788
▁anksčiau	-8.83789
▁nustatyt	-8.83825
▁sąlygos	-8.83964
▁atrodo	-8.83983
ėte	-8.84057
K	-8.84141
▁de	-8.84159
▁pači	-8.84822
▁At	-8.84847
▁vyriausyb	-8.84897
inę	-8.85026
V	-8.85035
▁daugyb	-8.85151
▁informacija	-8.85375
▁mlrd	-8.85376
▁naudos	-8.85376
▁protokolą	-8.85377
▁pinigų	-8.85377
D	-8.85439
▁pažangos	-8.85451
▁nuomonės	-8.85463
▁atsižvelgti	-8.85489
▁Viena	-8.8552
▁poziciją	-8.85584
▁nebe	-8.85654
▁kiekvien	-8.85683
dėti	-8.85724
iame	-8.85745
▁pritar	-8.86077
▁val	-8.86469
▁jam	-8.86657
ij	-8.86791
ut	-8.86842
▁dvi	-8.86897
joje	-8.86966
mon	-8.86974
▁bendros	-8.86976
▁informaciją	-8.86988
▁žmones	-8.86988
▁prieglobsčio	-8.86989
▁demokratijos	-8.86994
▁taisykles	-8.87029
▁pagerinti	-8.87032
▁dalyvauti	-8.87056
▁juo	-8.87066
▁galimybių	-8.87136
▁žinome	-8.87196
▁Dar	-8.87346
▁apsaugoti	-8.87361
▁ga	-8.87451
ver	-8.87479
▁vykdyti	-8.8763
ren	-8.87745
ac	-8.87835
▁patikim	-8.87863
▁laikotarpiu	-8.88432
▁tinkl	-8.88473
▁politin	-8.88514
▁sanglaudos	-8.88628
▁valstybes	-8.88715
▁tokių	-8.88899
▁centr	-8.89003
esn	-8.8918
yje	-8.8922
inis	-8.89334
▁sen	-8.90185
vert	-8.90194
▁derybas	-8.90294
▁diskusijų	-8.90294
▁Šiandien	-8.90294
▁taikymo	-8.90295
▁regionų	-8.90297
▁dalies	-8.90331
▁įgyvendinimo	-8.90359
▁nuomonę	-8.90385
▁pažangą	-8.90403
▁balsavimo	-8.90405
▁kelių	-8.90414
▁balsuoti	-8.90474
▁daugiausia	-8.907
3	-8.90724
▁asmenų	-8.90746
▁jus	-8.90883
▁n	-8.91091
▁patvirtinti	-8.91321
▁Europai	-8.91334
inį	-8.91371
▁dirba	-8.91514
▁pra	-8.91525
▁leisti	-8.91576
▁Žinom	-8.91993
IT	-8.92321
▁tenka	-8.92401
I	-8.9244
▁kaimo	-8.92491
G	-8.92516
asis	-8.92638
▁bendro	-8.92693
▁susiduria	-8.9347
du	-8.93705
▁Nepais	-8.9371
▁reikalavimus	-8.93714
eigu	-8.93733
▁finansinė	-8.93743
▁naudoti	-8.93751
▁partnerystės	-8.93899
▁galimybės	-8.93993
▁atitinkam	-8.94039
▁pagrindin	-8.94048
imus	-8.94103
▁siekia	-8.94127
uoju	-8.9472
▁nor	-8.9474
bu	-8.94957
▁taigi	-8.94983
▁veiksmingai	-8.95008
▁ten	-8.95438
nelyg	-8.9546
mės	-8.95466
▁Komisiją	-8.95468
▁komitete	-8.95468
▁išmetam	-8.95469
▁mastu	-8.95472
▁priemonėmis	-8.95506
mus	-8.95529
▁aptarti	-8.95686
▁direktyvą	-8.95695
▁nieko	-8.95812
▁laiką	-8.95947
Europos	-8.96068
amos	-8.96296
▁nacionalinių	-8.96502
turėtų	-8.96532
▁dabartin	-8.96625
▁tiesiog	-8.96789
tor	-8.96835
▁pačios	-8.96875
▁gero	-8.96998
▁stipr	-8.971
▁dalykas	-8.97254
▁partijos	-8.97254
▁pasveikinti	-8.97254
▁požiūrį	-8.97254
▁reglamento	-8.97254
▁reguliavimo	-8.97254
▁užimtumo	-8.97254
▁kultūros	-8.97254
▁tariant	-8.97255
▁parama	-8.97276
▁sutartį	-8.97296
▁veik	-8.97384
yti	-8.97692
▁rink	-8.97748
▁iniciatyva	-8.97759
▁pirmininkauja	-8.97801
H	-8.97867
kur	-8.97872
▁didžiul	-8.97991
▁plat	-8.98302
▁numatyta	-8.98452
▁daugelio	-8.98477
antis	-8.98571
čiai	-8.98784
▁naujo	-8.9893
▁komitetas	-8.99072
▁verslo	-8.99072
▁neigiam	-8.99073
▁veikla	-8.99076
▁Piet	-8.99077
▁galiausiai	-8.99079
▁įmonėms	-8.99084
▁sutartis	-8.99114
▁sek	-8.99155
▁gyvyb	-8.9924
tis	-8.99444
▁treči	-8.99519
▁aukščiausio	-8.9964
ūtent	-8.99719
▁gyvena	-8.99743
yra	-8.99756
▁norint	-8.99757
daug	-8.99934
trauk	-9.00063
▁pareng	-9.00298
▁Bendr	-9.00746
▁žino	-9.0086
O	-9.00888
▁Pritariu	-9.00924
▁atliekų	-9.00924
▁investicijų	-9.00924
▁problemą	-9.00924
▁Rusijos	-9.00924
▁Jungtini	-9.00947
▁svarbūs	-9.00954
▁taisyklės	-9.00995
▁kainų	-9.01077
▁pripažinti	-9.01123
▁JT	-9.01129
▁laikotarpi	-9.01146
▁Po	-9.01186
iniai	-9.012
▁demokratų	-9.01213
B	-9.0124
▁daro	-9.01266
▁taikoma	-9.01405
▁teising	-9.01579
▁tampa	-9.01586
▁6	-9.01619
▁pirm	-9.01782
▁Šios	-9.01968
▁atvir	-9.02039
kime	-9.02049
umu	-9.02053
kos	-9.02391
▁atitinka	-9.02395
▁Vidur	-9.02516
str	-9.02558
nu	-9.02584
▁paremti	-9.02621
▁įtrauk	-9.02623
ter	-9.02721
▁savaitę	-9.0281
▁sritis	-9.0281
▁žvejybos	-9.02811
▁neabejotina	-9.02811
▁regione	-9.02812
▁augimo	-9.02812
▁daugeli	-9.02926
▁panaikinti	-9.02961
▁Amerikos	-9.02972
▁esant	-9.03008
▁atvejais	-9.03047
▁joms	-9.03071
▁tinkam	-9.03075
ran	-9.03099
▁įmanoma	-9.03342
▁nares	-9.03374
▁tikras	-9.03464
▁atstov	-9.03917
▁fakt	-9.03953
ąsias	-9.03954
jame	-9.03965
▁sudaryti	-9.04068
der	-9.04171
dr	-9.0421
esnis	-9.0427
▁pareigas	-9.04288
▁nustatyta	-9.04305
▁tapo	-9.04473
▁Afrikos	-9.04733
▁sektorių	-9.04733
▁skaičius	-9.04734
▁suinteresuot	-9.04734
▁programą	-9.04735
▁2011	-9.04737
NL	-9.04776
▁turėjo	-9.04778
▁dviej	-9.04826
▁pasak	-9.04974
▁gerbiam	-9.05005
▁suteikta	-9.05068
▁pranešimu	-9.05166
iausi	-9.05323
▁suteikia	-9.05399
čia	-9.05496
▁negalima	-9.05589
inink	-9.05631
em	-9.05911
ami	-9.05952
ig	-9.06027
▁aktyv	-9.0615
▁išsi	-9.06165
▁skatin	-9.06321
▁priklauso	-9.0646
▁užkirst	-9.06525
iams	-9.0657
▁dalykų	-9.06694
▁vaidmuo	-9.06694
▁veiksmus	-9.06695
▁interesų	-9.06695
▁organizacijos	-9.06697
▁įveikti	-9.06698
▁mirties	-9.06723
▁kitaip	-9.06729
▁sąlygomis	-9.06733
ang	-9.06768
▁12	-9.06942
ke	-9.07128
▁kolegos	-9.07154
▁išvengti	-9.07248
▁privalom	-9.07459
▁rinka	-9.07804
▁naujos	-9.07921
kite	-9.08122
▁reikalauja	-9.08292
ino	-9.08295
iausia	-9.08391
▁jai	-9.08556
▁Reik	-9.0864
▁solidarumo	-9.08694
▁aktus	-9.08695
▁rinkimų	-9.08711
▁2020"	-9.08806
dav	-9.08896
kr	-9.09151
▁tvirtai	-9.09173
per	-9.09251
▁kriz	-9.09299
nų	-9.09377
▁pirmininko	-9.09551
Europa	-9.09559
▁ra	-9.09613
din	-9.09633
▁tokio	-9.09748
val	-9.10071
jant	-9.10079
▁8	-9.10091
usios	-9.10209
▁rengia	-9.10229
▁pak	-9.10299
už	-9.10366
▁link	-9.10532
ąjį	-9.10591
▁didesni	-9.10727
žemio	-9.10734
▁jūrų	-9.10735
▁naudojimo	-9.10735
▁projektą	-9.10736
▁sprendimai	-9.10737
▁zonos	-9.1074
▁reikalingas	-9.10756
▁susirūpinimą	-9.10766
▁paskutin	-9.10785
▁Jie	-9.10842
▁programa	-9.10964
▁palankiai	-9.11003
▁didelis	-9.11026
ap	-9.11027
▁puikiai	-9.11076
▁panaši	-9.11164
▁kitais	-9.11248
▁grupės	-9.11329
▁teisinga	-9.11329
▁padidin	-9.11355
▁Ka	-9.11377
ntiems	-9.11402
▁tokiu	-9.11919
▁pranešėjas	-9.1206
▁mišk	-9.12193
▁svarb	-9.122
▁vadov	-9.12246
▁visuomen	-9.12274
pl	-9.12499
nai	-9.12686
▁Atsižvelgia	-9.12818
▁atvejų	-9.12818
▁gyvūn	-9.12818
▁išlaidų	-9.12818
▁pastangų	-9.12818
▁keturi	-9.12819
▁požiūrio	-9.12819
▁neseniai	-9.12819
▁siekdami	-9.12885
inga	-9.12994
▁Pirmininko	-9.13278
▁siekdama	-9.13307
steb	-9.13346
▁kalbant	-9.13462
▁panaudot	-9.13573
▁gal	-9.13577
▁biudžetą	-9.13652
▁įsi	-9.14272
▁kiti	-9.14582
▁kitas	-9.14598
▁tuos	-9.14739
▁bendrosio	-9.14859
▁Turkijos	-9.14946
▁Vengrijos	-9.14946
▁kilmės	-9.14946
▁priežastis	-9.14946
▁reikalavimų	-9.14946
▁santykių	-9.14946
▁požiūris	-9.14947
▁rytoj	-9.14948
▁skaidrumo	-9.1496
▁esanči	-9.14966
▁padarinių	-9.15
▁dalimi	-9.15003
pač	-9.15011
▁sakant	-9.15018
▁gerinti	-9.15059
▁kit	-9.1523
▁leidim	-9.15365
imai	-9.15375
▁automobilių	-9.15446
▁priimt	-9.1555
▁negu	-9.15653
▁rezoliucija	-9.15755
▁Jūs	-9.15757
20	-9.15813
▁biudžet	-9.1589
čiu	-9.15892
▁ženkl	-9.16438
▁teikiama	-9.16448
▁sunku	-9.16709
▁poreiki	-9.16893
▁aptar	-9.16951
esnės	-9.1702
▁uost	-9.17066
▁Sąjungą	-9.1712
▁džiaugiuosi	-9.1712
▁vartojimo	-9.1712
▁etap	-9.1712
▁interesus	-9.1712
▁projekto	-9.17122
▁tokį	-9.17128
▁darbas	-9.17135
▁stiprinti	-9.17144
▁skiriama	-9.17274
▁kalbama	-9.17292
▁tikr	-9.17311
▁tikslai	-9.17454
▁procesą	-9.17634
▁tęsti	-9.17757
▁teisini	-9.1776
▁siūloma	-9.17815
and	-9.17858
▁svarbą	-9.18028
▁daugel	-9.18184
▁pasiūlymus	-9.18472
▁reikalinga	-9.18472
▁speciali	-9.18534
▁suteik	-9.18551
▁prezident	-9.18651
▁nepriklausom	-9.18685
▁siūlom	-9.18747
▁demokratini	-9.18936
▁praėjusi	-9.19023
pri	-9.19172
▁vienod	-9.19178
▁vyks	-9.19178
▁Prancūzijos	-9.19342
▁dėmesys	-9.19342
▁fondų	-9.19342
▁institucijoms	-9.19342
▁sistemų	-9.19342
▁sienų	-9.19342
▁skaičių	-9.19343
▁Šiaurė	-9.19343
▁užtikrinta	-9.19348
▁Pirmiausia	-9.19352
▁27	-9.19368
▁žuvininkystės	-9.19372
▁esam	-9.1941
▁tikrą	-9.19446
▁atsakomybės	-9.1945
▁reali	-9.19541
▁įvertinti	-9.1959
▁interneto	-9.19612
▁pavojing	-9.19662
▁procesas	-9.19751
▁sėkmingai	-9.19776
labiausiai	-9.1978
▁padaryta	-9.19785
▁įsitikinęs	-9.198
▁sustiprinti	-9.20048
▁užtikrinant	-9.20298
bo	-9.20637
▁kito	-9.20906
▁tikrų	-9.2096
▁vėliau	-9.21004
▁galės	-9.21273
go	-9.21284
vis	-9.21398
▁kalbėjo	-9.2151
▁išteklius	-9.21615
▁pavyko	-9.21615
▁pobūdžio	-9.21615
▁įsipareigojimų	-9.21615
▁2007	-9.21621
▁teisėkūros	-9.21621
▁atsakyti	-9.21635
▁nario	-9.21669
▁atstovai	-9.21696
▁straipsnio	-9.21706
▁teisingumo	-9.21707
▁Visi	-9.21707
▁suprasti	-9.21828
▁gru	-9.21847
▁tie	-9.2187
▁ekonomini	-9.21887
▁greitai	-9.21937
▁saug	-9.22094
▁Jungtinės	-9.22251
▁kiekvieno	-9.22297
▁pagrindą	-9.22447
mui	-9.22548
kart	-9.22647
▁vyriausybės	-9.22745
▁30	-9.22773
▁kurioms	-9.22811
ved	-9.22829
▁tokie	-9.22902
▁rimt	-9.22941
▁dr	-9.23095
▁pus	-9.23127
▁tvirt	-9.23165
▁paprast	-9.2333
▁kurti	-9.23415
čius	-9.23493
▁manome	-9.23498
▁geras	-9.23582
▁klaus	-9.236
▁žem	-9.23829
udito	-9.23934
▁integruot	-9.23941
▁kriterijus	-9.23941
▁moteris	-9.23941
▁principų	-9.23941
▁anglies	-9.23942
▁nerimą	-9.23944
▁pieno	-9.23955
▁visai	-9.23995
▁sprendžiant	-9.24005
▁Už	-9.24012
▁standartus	-9.24131
▁bendrai	-9.24152
yr	-9.24166
▁paminėti	-9.24254
▁finansini	-9.24267
▁didelį	-9.24449
▁pagrind	-9.2452
▁vandens	-9.24553
▁taikomos	-9.24598
▁sąlygų	-9.24607
▁Jos	-9.24796
▁naudinga	-9.24829
▁galim	-9.24932
▁metod	-9.24933
▁vadinam	-9.24945
F	-9.2506
▁Ir	-9.25211
▁laiku	-9.25243
▁pagrįst	-9.25307
▁įvertin	-9.25308
▁geresni	-9.25354
▁humanitarin	-9.25393
▁mažai	-9.25479
audo	-9.25634
▁pasiūl	-9.25914
odžio	-9.25922
▁tem	-9.25936
▁priemon	-9.26067
▁Barroso	-9.26322
▁Graikijos	-9.26322
▁Vakar	-9.26322
▁manymu	-9.26322
▁moterys	-9.26322
▁reaguoti	-9.26322
▁stebėti	-9.26322
▁švietimo	-9.26322
▁susitarimų	-9.26329
▁dieną	-9.26332
▁atsinaujinanči	-9.26334
▁tikslo	-9.26339
▁kalbos	-9.26341
lyčių	-9.26375
▁patiria	-9.26425
▁naudotis	-9.26513
adangi	-9.2653
▁kalbame	-9.26732
dien	-9.26777
▁planą	-9.26823
▁Ko	-9.26847
▁11	-9.26893
▁laisvę	-9.26932
▁parodyti	-9.26963
▁kolega	-9.27116
▁tema	-9.2726
gali	-9.2729
▁Š	-9.27322
nčią	-9.27401
ag	-9.27473
▁pozicija	-9.27478
▁CO	-9.27809
man	-9.27915
▁priemonė	-9.27994
▁perspektyv	-9.28125
aisiais	-9.28165
lin	-9.28214
▁sunki	-9.28406
▁neiš	-9.2851
▁2020	-9.28648
▁tolesni	-9.28681
▁14	-9.28695
▁padeda	-9.28708
▁MVĮ	-9.28761
▁dialogą	-9.28761
▁santykius	-9.28761
▁Šengen	-9.28761
▁omenyje	-9.28761
▁vizų	-9.28761
▁romų	-9.28761
▁pakeitimų	-9.28766
▁darbuotojams	-9.28776
▁regionuose	-9.28783
▁Taut	-9.28786
▁niekada	-9.28786
kla	-9.2893
▁2006	-9.28962
▁sau	-9.2898
▁pozicijos	-9.29063
▁tiekimo	-9.29106
▁galėsi	-9.29194
▁darbuotojai	-9.29221
vai	-9.2925
▁remia	-9.29585
▁susijusios	-9.29638
▁Šie	-9.29754
▁leis	-9.3016
ančių	-9.30267
▁puik	-9.30573
▁blog	-9.30591
inimo	-9.30642
nes	-9.30683
▁Pri	-9.30698
▁pramon	-9.30761
00	-9.30822
▁išmok	-9.30831
▁aukšt	-9.30918
▁pasiektas	-9.30926
▁Net	-9.31005
ausio	-9.3103
▁stipri	-9.31205
▁atvyk	-9.31227
▁Džiaugiuosi	-9.3126
▁birželio	-9.3126
▁pavyzdys	-9.3126
▁principo	-9.3126
▁sritį	-9.3126
▁vartotojams	-9.3126
▁rug	-9.31261
▁liep	-9.31261
▁privači	-9.31261
▁būdas	-9.31263
▁saugumą	-9.31295
ku	-9.31304
▁par	-9.31319
▁25	-9.31363
▁bendradarbiauti	-9.31377
▁atsakomybę	-9.31377
▁viską	-9.31396
▁valstyb	-9.31407
▁žinote	-9.31418
▁nauja	-9.31514
▁pačių	-9.31521
eiti	-9.31636
be	-9.31641
▁pagalba	-9.31666
▁pirmininkaujan	-9.31696
damos	-9.31748
usių	-9.31791
▁visuotin	-9.31834
ką	-9.31864
▁rengiant	-9.32313
▁atliekam	-9.32552
▁konflikt	-9.32593
▁aišk	-9.32734
▁atsaking	-9.32889
▁pripažin	-9.3289
▁Gali	-9.32956
kelia	-9.32975
▁La	-9.33017
tį	-9.33173
▁nacionaliniu	-9.3322
▁sukurta	-9.33224
kalb	-9.33331
▁koleg	-9.33369
ytų	-9.33627
▁pagrindu	-9.33687
▁pritaria	-9.33737
▁Prieš	-9.33816
▁organ	-9.33821
▁struktūrini	-9.33823
▁ilgalaiki	-9.33825
▁konkurencijos	-9.33825
▁rezultatai	-9.33825
▁tyrimus	-9.33825
▁akivaizdžiai	-9.33825
▁atsarg	-9.33825
▁ribų	-9.33825
▁minėt	-9.33826
▁nacionalini	-9.33829
▁pasaulin	-9.33837
▁Tuo	-9.3386
▁susitikimo	-9.33867
▁gyvenimą	-9.33883
▁nacionalinės	-9.33884
▁įgyvendinant	-9.3397
▁socialinę	-9.33972
▁deja	-9.33988
▁Buvo	-9.34028
dal	-9.34045
▁gr	-9.34079
▁gauna	-9.34093
▁sak	-9.34169
▁laukia	-9.34253
▁skatina	-9.34283
▁galutini	-9.34313
▁prisidėti	-9.3442
▁bi	-9.34483
▁pabrėžiama	-9.34532
▁pavyzdžiui	-9.34553
ingai	-9.34583
▁grup	-9.34608
▁tikra	-9.3465
▁sąžining	-9.34671
RO	-9.34851
▁koks	-9.34933
▁krize	-9.34987
▁taikos	-9.35154
▁gyven	-9.35206
▁daugeliu	-9.35265
kli	-9.35275
▁ekonomikai	-9.35353
▁pateikta	-9.35383
▁turint	-9.355
▁esama	-9.35696
ntį	-9.35834
▁rinkų	-9.36083
▁forma	-9.36451
▁administracin	-9.36456
▁amžiaus	-9.36456
▁apskritai	-9.36456
▁informuoti	-9.36456
▁integracijos	-9.36456
▁išlaidas	-9.36456
▁lėšas	-9.36456
▁priežasties	-9.36456
▁sektorius	-9.36456
▁sričių	-9.36456
▁priminti	-9.36456
▁Airijos	-9.36456
▁pasiūlymai	-9.36456
▁Rusija	-9.36457
▁partija	-9.36457
▁sutinku	-9.36457
▁mokymo	-9.36463
▁būtin	-9.36473
▁pakeitimą	-9.3648
▁susitikime	-9.36481
▁Rytų	-9.365
▁bendrovių	-9.36526
▁teisėms	-9.36537
▁balsavimą	-9.36581
▁aplinką	-9.36587
▁netgi	-9.36654
▁19	-9.3667
▁garant	-9.36702
▁gera	-9.36788
▁13	-9.3708
gen	-9.37141
▁atstovauja	-9.37179
▁pagrindas	-9.37208
▁veiksmai	-9.37221
▁tarptautiniu	-9.37233
▁proceso	-9.37343
▁diskusija	-9.3739
▁pateiktas	-9.3746
▁nusprend	-9.37569
site	-9.37668
▁9	-9.37738
▁min	-9.37796
▁registr	-9.37847
▁bendras	-9.38006
iniu	-9.38054
▁visapusišk	-9.38246
▁vakar	-9.38273
▁kelias	-9.38344
▁Kit	-9.38365
▁antr	-9.38456
▁gamin	-9.38497
▁svarbiausi	-9.38554
▁7	-9.38709
▁laikom	-9.38726
Plojimai	-9.39159
▁gynyb	-9.39159
▁pavojus	-9.39159
▁technologijų	-9.39159
▁žmonėmis	-9.39159
▁aplinkosaugos	-9.39159
▁savanorišk	-9.39159
▁privat	-9.3916
▁pakeitimai	-9.39163
▁priekį	-9.39164
▁imigracijos	-9.39172
▁kasdien	-9.39227
ciją	-9.39258
▁leidžia	-9.3927
▁teisingai	-9.39275
▁priėmimo	-9.39278
▁kokybę	-9.39305
▁kitomis	-9.3932
▁mažinti	-9.39355
▁technologijas	-9.39396
▁visom	-9.39453
nčia	-9.39455
▁teigiama	-9.39459
inant	-9.3973
▁Darbo	-9.39759
▁tek	-9.39896
▁efektyv	-9.39899
▁sav	-9.39935
nio	-9.39967
▁pačiu	-9.40188
▁Jau	-9.40238
pone	-9.40292
▁laivų	-9.40295
elyje	-9.40321
▁atsak	-9.40348
▁vertin	-9.40905
▁derin	-9.41028
▁geriausi	-9.4107
inius	-9.4109
▁teikiam	-9.41158
sis	-9.41248
▁didelė	-9.41256
▁numatyt	-9.41288
▁kreip	-9.41421
▁priimtas	-9.41448
▁karo	-9.41509
▁kr	-9.41606
savo	-9.41704
▁dešimt	-9.41934
▁2013	-9.41937
▁ekonomiką	-9.41937
▁konkret	-9.41937
▁kvalifikacij	-9.41937
▁lėšos	-9.41937
▁plėtoti	-9.41937
▁rizikos	-9.41937
▁sektoriui	-9.41937
▁taršos	-9.41937
▁ateities	-9.41937
▁projektas	-9.41938
▁konkrečių	-9.4194
▁Daug	-9.41942
▁mažinimo	-9.42005
▁paprašyti	-9.4202
▁žinių	-9.4203
▁U	-9.4205
▁raginama	-9.42113
▁suteikt	-9.42118
▁lygiu	-9.42138
▁mane	-9.4216
▁raginu	-9.42273
▁išlaikyti	-9.42289
▁tiems	-9.4233
▁skubiai	-9.42416
▁An	-9.42536
▁standartų	-9.42569
▁abiej	-9.42621
▁pareig	-9.42829
▁pirminink	-9.42857
▁pon	-9.43033
▁didžiausia	-9.43064
▁prekyba	-9.43093
▁ekonomika	-9.43115
▁užsi	-9.43168
▁palaik	-9.43195
▁svarbiausias	-9.43433
▁diskusijose	-9.43443
▁baigti	-9.43459
▁sumažin	-9.43494
ėtų	-9.43536
▁sveik	-9.43702
▁patys	-9.43835
▁leist	-9.43875
▁sunk	-9.43901
▁sukurt	-9.43923
▁derybos	-9.44133
▁pabrėž	-9.44155
▁nusikaltim	-9.44214
▁tinkamas	-9.44299
▁pasiekta	-9.44306
▁ginkl	-9.44382
▁demokratin	-9.44425
uojant	-9.4444
▁malonu	-9.44577
kia	-9.44593
ymo	-9.44687
▁galimybe	-9.44789
▁Biudžet	-9.44794
▁Taryboje	-9.44794
▁agentūros	-9.44794
▁aplinkybėmis	-9.44794
▁atidžiai	-9.44794
▁darbotvarkės	-9.44794
▁globalizacijos	-9.44794
▁paslaugas	-9.44794
▁rezultatus	-9.44794
▁PPE	-9.44794
▁reikšming	-9.44794
kryp	-9.448
▁susitarimai	-9.448
▁15	-9.44802
▁stabilumo	-9.44828
▁paaiškinti	-9.44845
▁tuomet	-9.44846
▁europin	-9.44847
▁kitiems	-9.44894
▁Pranešime	-9.4492
▁procedūros	-9.44992
▁politinės	-9.45167
▁pranešėjui	-9.45212
▁nenori	-9.45234
▁reikalaujama	-9.45399
▁dabartini	-9.45512
▁nuostatos	-9.45522
▁šeši	-9.45807
▁pranešėja	-9.45815
▁pažeidžiam	-9.45932
▁va	-9.46098
▁taikomas	-9.46145
▁sp	-9.46161
▁susitarimus	-9.46169
tinių	-9.4641
▁svarbiausių	-9.4651
▁jokios	-9.46597
▁nustat	-9.46714
▁patvirtino	-9.46724
▁išsami	-9.46786
▁parlamentin	-9.46789
▁suderint	-9.46861
▁Negalim	-9.46929
▁tų	-9.46976
▁visišk	-9.47142
▁kovojant	-9.47165
▁puiki	-9.47373
▁sudėtinga	-9.47396
ny	-9.47519
▁greit	-9.47664
▁dalykai	-9.47735
▁dialogo	-9.47735
▁duomenis	-9.47735
▁srities	-9.47735
▁sienos	-9.47735
▁sutartimi	-9.47736
▁aktai	-9.47737
▁finansavimą	-9.4774
▁glaudžia	-9.47742
▁tris	-9.47745
▁didinti	-9.47749
▁abejonių	-9.4775
▁40	-9.4778
▁socialist	-9.47793
▁Valstybės	-9.47825
▁bendrovės	-9.47874
▁sal	-9.47893
▁vertę	-9.47931
▁sukuria	-9.47975
amas	-9.48016
▁Diskusijos	-9.48028
▁laisvių	-9.4817
EL	-9.482
▁ant	-9.48245
▁nepriimtina	-9.4829
▁atlieka	-9.48348
▁aplinkai	-9.48389
▁pirmininkas	-9.48432
▁pakeitimus	-9.48587
▁biudžetas	-9.48657
▁50	-9.48682
▁vienos	-9.48737
▁mok	-9.48828
ge	-9.4901
▁tinkamą	-9.49073
▁tos	-9.49176
▁praš	-9.49493
▁nieka	-9.49541
tės	-9.49567
▁pro	-9.49581
J	-9.49583
inimas	-9.49654
▁ryt	-9.49784
▁sėkming	-9.49816
▁Mar	-9.49826
▁suma	-9.49852
EB	-9.50052
▁akivaizdu	-9.50086
▁pasiūlymu	-9.50278
vil	-9.5032
▁kokios	-9.50329
ystės	-9.50361
▁vienintel	-9.50546
▁Dėkoju	-9.50765
▁Kinija	-9.50765
▁Turkija	-9.50765
▁Vokietijos	-9.50765
▁darbotvarkę	-9.50765
▁pasirengę	-9.50765
▁rezultatas	-9.50765
▁šalį	-9.50766
▁įtakos	-9.50766
▁neturėtum	-9.50767
▁įvykdymo	-9.50768
▁tikslą	-9.50769
▁tikimės	-9.50771
▁pilietin	-9.50772
▁abejonės	-9.50774
▁taikant	-9.50778
▁masto	-9.5079
▁pranešėjo	-9.50791
▁saugumas	-9.50791
▁žodžio	-9.50796
▁sutelkt	-9.50808
▁Tur	-9.50823
▁patenkinti	-9.50853
▁iniciatyvos	-9.50963
▁To	-9.50975
ybę	-9.50992
nčio	-9.51024
▁trumpai	-9.51171
▁pavadin	-9.51199
▁kovo	-9.51203
▁žinoti	-9.51214
▁Koki	-9.51216
▁silpn	-9.51264
▁laik	-9.51286
▁pajėgum	-9.51554
▁prieinam	-9.51575
▁kitus	-9.51584
ck	-9.51738
▁padėt	-9.51784
▁nuostatas	-9.51933
ed	-9.52027
▁lygis	-9.52067
▁ekonomin	-9.52107
▁reformas	-9.52268
▁režim	-9.52677
▁atkreip	-9.52691
▁Gr	-9.52976
imti	-9.53018
▁geriausia	-9.53046
▁trump	-9.53155
▁vert	-9.53173
turi	-9.53183
ski	-9.53404
▁tikslais	-9.53426
▁patvirtinta	-9.53443
▁nurod	-9.53497
nd	-9.53525
▁eina	-9.53533
▁praneš	-9.53728
▁Kart	-9.5376
▁naudingas	-9.53795
▁pasiūlyt	-9.53807
▁Sutarties	-9.5389
▁liaudi	-9.5389
▁pensijų	-9.5389
▁plėtrą	-9.5389
▁reiting	-9.5389
▁santykiai	-9.5389
▁idėja	-9.5389
▁pradeda	-9.5389
▁pradžioje	-9.5389
▁vyko	-9.53891
▁mėnesius	-9.53891
▁mažumų	-9.53891
▁vyrų	-9.53891
▁pajamų	-9.53891
▁Kodėl	-9.53898
▁norėtume	-9.53901
▁Žemė	-9.53904
▁pakeitimas	-9.53914
▁paprasčiausia	-9.53916
▁bandym	-9.53961
▁pareikšti	-9.53973
▁skiriasi	-9.53991
▁ekonominę	-9.541
▁vietoje	-9.54111
džio	-9.54143
leisti	-9.54298
▁vidutini	-9.54302
▁muit	-9.54337
dyti	-9.54365
▁galėjo	-9.54464
▁nurodyta	-9.54479
▁nuomonei	-9.54599
▁prioritetus	-9.54654
▁suteiks	-9.54684
▁prast	-9.54909
▁atliko	-9.54928
▁pažanga	-9.54935
▁Ma	-9.55107
tvirtin	-9.5512
▁institucija	-9.55197
jos	-9.55266
▁priimant	-9.55384
▁didina	-9.55468
▁kova	-9.55522
▁panaudojim	-9.55597
▁sako	-9.55723
▁jokio	-9.55728
▁iškelt	-9.55848
▁galė	-9.55881
▁pareišk	-9.5591
▁pagrindinė	-9.55945
rd	-9.55992
▁naudojant	-9.56038
ybė	-9.56062
manau	-9.56077
vesti	-9.56086
inėje	-9.56184
iausiai	-9.56285
▁paskatin	-9.56289
▁politikai	-9.5629
▁Balsavim	-9.56401
▁ginč	-9.5645
▁kaimyn	-9.56457
▁pirmininkavim	-9.56512
▁supranta	-9.5654
▁naudojam	-9.56713
▁jaun	-9.56729
▁technini	-9.56803
met	-9.56817
▁Vien	-9.56879
▁vertinti	-9.5694
▁bausm	-9.56943
▁Balkan	-9.57116
▁ataskaita	-9.57116
▁ateitį	-9.57116
▁duomenys	-9.57116
▁konvencijos	-9.57116
▁naudojimą	-9.57116
▁nedelsiant	-9.57116
▁organizacijų	-9.57116
▁prekių	-9.57116
▁sandori	-9.57116
▁skurdu	-9.57116
▁sąjungos	-9.57116
▁reikės	-9.57116
▁reikalauti	-9.57117
▁vaikai	-9.57118
▁augimą	-9.57119
▁prekybą	-9.5712
▁pinigai	-9.5712
▁pareiškimai	-9.57127
▁Būtina	-9.57128
▁penki	-9.57129
▁Štai	-9.57148
▁Pagal	-9.57154
▁sunkumų	-9.57154
▁Vyriausyb	-9.57157
▁pasiraš	-9.57168
▁18	-9.57179
▁pagrindiniai	-9.57213
▁tiesiogiai	-9.57226
▁ka	-9.57282
▁kontrolę	-9.57293
▁politinio	-9.57316
▁lygį	-9.5734
▁palaikyti	-9.5735
▁šimt	-9.57353
▁paskelb	-9.57357
▁kandidat	-9.57376
▁sudaryt	-9.57387
▁įsipareigojimus	-9.574
▁iniciatyvą	-9.57406
▁pagaliau	-9.57465
▁sudary	-9.57709
▁išreikšti	-9.57871
▁ties	-9.57925
▁proga	-9.57938
▁keleivių	-9.57943
▁poreikius	-9.57975
eisingumo	-9.58138
▁projektus	-9.58206
ėjimo	-9.58346
▁principu	-9.58544
▁Trečia	-9.58602
▁sukelt	-9.58622
▁geresn	-9.58835
▁lyg	-9.58858
dėjo	-9.58899
▁strategin	-9.58994
ines	-9.59075
▁Kad	-9.5908
▁būtinas	-9.59081
▁transport	-9.59232
ajam	-9.59325
▁didėja	-9.59367
▁antra	-9.59374
▁stebi	-9.5981
▁pastat	-9.59931
lieka	-9.60018
avimas	-9.60113
▁minėjo	-9.60411
▁gebėjim	-9.60449
▁kryptimi	-9.60449
▁policijos	-9.60449
▁skurdo	-9.6045
▁Kinijos	-9.6045
▁pažymėti	-9.6045
▁eurų	-9.6045
▁zonoje	-9.6045
▁paketo	-9.60451
▁vaistų	-9.60458
▁draug	-9.6049
▁susitikimas	-9.60497
▁dėkoju	-9.60497
▁susitikimą	-9.60506
▁Nuo	-9.60541
▁finans	-9.60548
▁Parlamentą	-9.60618
▁Juod	-9.60664
▁mokėjim	-9.60683
iesiems	-9.60694
▁stiprina	-9.60758
▁ombudsmen	-9.60763
▁pasaulini	-9.60784
bū	-9.60792
▁pritariame	-9.60799
▁pastabas	-9.60808
riz	-9.60929
▁Nauj	-9.61054
▁aspektai	-9.6132
▁įvykiai	-9.6141
▁bendrų	-9.61459
nčius	-9.61509
▁standartai	-9.61511
▁asmens	-9.61536
▁pradėt	-9.61551
▁reform	-9.61576
bal	-9.6174
ven	-9.61744
▁siūl	-9.61759
▁lengva	-9.6176
▁klaid	-9.61938
▁kiekviena	-9.62109
▁apibrėžti	-9.6218
▁sutinka	-9.62312
▁kolegų	-9.62457
č	-9.62584
▁suderinti	-9.62591
bar	-9.62894
▁ekonominių	-9.62897
▁sąraš	-9.63027
mano	-9.63089
▁naudoja	-9.63222
istų	-9.63337
▁pareiga	-9.63598
esnę	-9.63794
▁globali	-9.63898
▁2012	-9.63898
▁Siekiant	-9.63898
▁ambicing	-9.63898
▁argument	-9.63898
▁dokumentų	-9.63898
▁konkurencija	-9.63898
▁medžiagų	-9.63898
▁naftos	-9.63898
▁nepaprastai	-9.63898
▁pasirengusi	-9.63898
▁principas	-9.63898
▁Egipt	-9.63898
▁sraut	-9.63898
▁nelegali	-9.63898
apkri	-9.63898
▁pradžių	-9.63898
▁vasar	-9.63901
▁pažad	-9.63907
▁bankų	-9.63907
▁finansuoti	-9.63934
▁valstybėje	-9.63984
▁gana	-9.63995
▁visuomenei	-9.64011
▁lygybės	-9.6405
▁grindžiama	-9.64065
ano	-9.64098
▁pirmas	-9.64103
▁skyr	-9.64122
▁kartai	-9.64136
▁procedūrą	-9.64144
▁vyriausybių	-9.64151
▁paklausti	-9.64162
▁stat	-9.64188
▁tarnybos	-9.6427
pil	-9.64273
▁dabartinės	-9.64296
▁aspektų	-9.643
▁socialin	-9.64313
▁nustatant	-9.64332
▁svarbios	-9.64339
▁procedūrų	-9.64351
▁atsisakyti	-9.64418
▁patyr	-9.64481
▁pateikiama	-9.6452
▁procese	-9.64524
▁smurto	-9.64533
▁baig	-9.64569
▁įmon	-9.64591
▁investuoti	-9.64767
▁profesini	-9.64843
▁griežtai	-9.64949
▁Pagrindini	-9.64986
▁palaiko	-9.65169
▁pabrėžia	-9.65416
▁neteisėt	-9.6546
vimo	-9.65511
▁pirmininkaujant	-9.65559
▁pats	-9.65574
▁narė	-9.65602
▁vietas	-9.65631
▁aukštos	-9.65795
▁išsaugot	-9.65908
▁vertinama	-9.65966
▁supaprastint	-9.65986
nis	-9.66006
▁numatyti	-9.66008
▁plėtra	-9.661
▁gerą	-9.66111
▁svarba	-9.66168
▁alternatyv	-9.66221
▁prival	-9.66277
▁Tam	-9.66314
▁naudojamas	-9.66321
▁gaut	-9.6635
▁aukščiausi	-9.66375
▁galioja	-9.66402
▁Kas	-9.66423
▁tekst	-9.66439
▁ribot	-9.66579
labai	-9.66636
omen	-9.6675
▁atstovų	-9.6676
▁galutin	-9.66791
▁susijusias	-9.66808
nių	-9.66857
▁var	-9.66995
▁programas	-9.67154
▁atnaujin	-9.67179
▁paklaus	-9.67197
und	-9.67321
ger	-9.67348
▁priimta	-9.67366
▁Italijo	-9.67412
nuo	-9.67418
kų	-9.67461
▁prioritetin	-9.67468
▁Ispanijos	-9.67469
▁Prancūzija	-9.67469
▁Respublikos	-9.67469
▁gyventojams	-9.67469
▁neįmanoma	-9.67469
▁pabaigos	-9.67469
▁priežiūrą	-9.67469
▁vartotojai	-9.67469
▁įvyko	-9.67469
▁žingsnį	-9.67469
▁demokratiją	-9.67469
▁keisti	-9.67469
▁viduje	-9.67469
▁dalyje	-9.67469
▁gerovės	-9.6747
▁pranešėjai	-9.67476
▁dienos	-9.67486
▁laikomasi	-9.67492
▁įsipareigojimą	-9.67539
ėjimas	-9.67556
▁valstybei	-9.67567
▁kampanij	-9.67585
▁kolegoms	-9.67585
▁žengti	-9.67621
▁grupių	-9.67628
▁or	-9.67666
▁straipsnis	-9.67691
▁socialinį	-9.67698
▁diena	-9.67754
▁aljanso	-9.67856
▁buvusi	-9.67903
▁elektros	-9.67925
▁atsižvelgiama	-9.68032
kšt	-9.68056
▁narius	-9.6811
▁palikti	-9.68119
▁proces	-9.68141
▁susitik	-9.68256
▁aspektus	-9.68282
▁užbaigti	-9.68286
▁nusi	-9.68294
▁eksporto	-9.68304
▁tikros	-9.68401
tro	-9.68494
▁svarbos	-9.6857
▁palanki	-9.68756
▁balsu	-9.68771
▁bendroj	-9.6894
▁pasiekt	-9.68952
▁panaikin	-9.68964
maž	-9.6907
▁rinkose	-9.69139
▁parod	-9.69204
▁prisideda	-9.69289
▁veikianči	-9.69342
▁pasiūlyti	-9.69415
▁mir	-9.69463
▁vienu	-9.69505
▁skiriam	-9.69538
▁suteikiama	-9.69591
▁nuomon	-9.69662
▁pirmąj	-9.69921
▁modeli	-9.69927
▁atsakym	-9.69928
▁pag	-9.70055
▁regioninė	-9.70064
▁saugi	-9.70296
▁branduolini	-9.70366
▁teikia	-9.7037
▁sulauk	-9.70378
▁tikriausi	-9.70495
▁kokiu	-9.70533
▁Toki	-9.71019
▁in	-9.71038
▁lygmen	-9.71115
▁nauding	-9.71142
mogaus	-9.71154
kivaizdu	-9.71165
albūt	-9.71167
▁agentūra	-9.71173
▁agentūrų	-9.71173
▁geguž	-9.71173
▁gyventojai	-9.71173
▁intensyv	-9.71173
▁pavyzdžių	-9.71173
▁poreikį	-9.71173
▁posėdyje	-9.71173
▁sukėl	-9.71173
▁vaidmens	-9.71173
▁Direktyv	-9.71173
▁Svarbu	-9.71173
▁išnaudoj	-9.71173
▁prieštarauja	-9.71173
▁šeimos	-9.71173
▁Ministr	-9.71173
▁trūksta	-9.71173
▁Privalom	-9.71173
▁kontrol	-9.71173
▁naujovių	-9.71173
▁programoje	-9.71173
▁pagamint	-9.71173
▁žinia	-9.71174
▁dešimtmeči	-9.71177
▁piet	-9.71178
▁išskirtin	-9.71178
▁valstybnar	-9.71179
▁akto	-9.71185
▁Iki	-9.71185
▁svarstyti	-9.71186
▁rinkimus	-9.71202
▁Balt	-9.71203
▁did	-9.71224
▁gaminių	-9.71334
▁tikisi	-9.71338
▁norėtų	-9.71352
▁dviem	-9.71353
▁sustabdyti	-9.71426
▁infrastruktūros	-9.71448
▁nežino	-9.71449
▁kartų	-9.71451
▁plačia	-9.71476
▁tikslu	-9.71479
▁susiet	-9.71538
▁kitoki	-9.71603
▁BŽ	-9.71609
▁politinį	-9.71689
▁šaliai	-9.71721
▁Ger	-9.71766
▁reformos	-9.71847
škai	-9.71859
▁išsam	-9.71933
sen	-9.71971
▁miest	-9.72004
▁derybose	-9.7204
▁sveikatai	-9.7211
▁nuolatin	-9.72116
alia	-9.72123
▁paaiškinim	-9.72125
sinaudo	-9.72156
▁dirbo	-9.72204
▁asmenin	-9.72253
▁galiojanči	-9.72499
davo	-9.72737
▁partner	-9.72765
kin	-9.72825
▁svarst	-9.731
nčias	-9.73115
▁vieta	-9.73116
▁atsižvelg	-9.73125
▁pareigūn	-9.73138
▁sprendimu	-9.73251
▁principus	-9.73338
▁rimtai	-9.73374
▁laiv	-9.73386
▁konkurencing	-9.73434
▁skiria	-9.73443
▁Parlamentu	-9.73474
▁bendradarbiauja	-9.73508
▁Teis	-9.73644
▁karto	-9.73668
▁posėdži	-9.73778
▁geros	-9.73825
▁plan	-9.74013
▁skatinama	-9.74015
tus	-9.74061
▁viening	-9.74175
ytoj	-9.74175
▁pirmą	-9.74304
▁veiksmingesn	-9.74413
▁kokyb	-9.74464
▁reikaling	-9.74523
iška	-9.7456
▁pakankam	-9.74605
▁gyvenanči	-9.74781
▁socialine	-9.74986
▁papild	-9.74997
▁Airijoje	-9.75019
▁Ashton	-9.75019
▁Izraelio	-9.75019
▁Rūmai	-9.75019
▁Tarybą	-9.75019
▁ataskaitą	-9.75019
▁fondas	-9.75019
▁labui	-9.75019
▁lyderi	-9.75019
▁netrukus	-9.75019
▁nuosavybės	-9.75019
▁pamiršti	-9.75019
▁prašymą	-9.75019
▁pusiausvyrą	-9.75019
▁reglamentą	-9.75019
▁stengtis	-9.75019
▁pavojų	-9.75019
▁pasiūlyme	-9.75019
▁vaikus	-9.75019
▁aviacijos	-9.7502
▁garantijų	-9.7502
▁patirtimi	-9.7502
▁pridėtin	-9.7502
▁maistu	-9.75021
▁mėnesį	-9.75021
▁trys	-9.75023
▁sutartyje	-9.75025
▁vyn	-9.75025
▁iškil	-9.75028
▁dienų	-9.7505
▁minut	-9.75057
CS	-9.75069
▁17	-9.75087
▁kompetencija	-9.75092
▁prisiimti	-9.75104
▁zona	-9.75119
▁šaltinių	-9.75122
▁lengviau	-9.75154
▁nutraukti	-9.75166
▁įgyvendinimą	-9.75173
▁pokyčių	-9.75182
▁paraginti	-9.75196
▁aspektas	-9.7521
▁sėkmės	-9.75211
▁tolesn	-9.75227
▁vienintelis	-9.75299
▁politiniai	-9.75304
▁priemonę	-9.75353
▁kultūrin	-9.75354
▁skirtos	-9.75358
▁pusės	-9.75374
▁sakyti	-9.75414
▁laikin	-9.75421
▁nepri	-9.75534
▁Tokia	-9.75698
sienio	-9.75711
▁pajėg	-9.75723
▁praėjus	-9.7576
▁lankst	-9.75853
▁br	-9.75888
▁akivaizd	-9.75899
▁nagrinėjam	-9.75902
▁daroma	-9.75948
▁nenu	-9.76015
▁kelio	-9.76096
▁balsavimas	-9.76243
50	-9.76322
▁didži	-9.76342
▁pateikia	-9.76455
leiskite	-9.76483
▁tinkama	-9.76505
▁kam	-9.76574
▁priversti	-9.76657
▁parengt	-9.7667
▁teise	-9.76672
jimo	-9.76752
▁turinči	-9.76838
▁konkrečiai	-9.7684
gy	-9.76857
▁tikiu	-9.77018
▁patik	-9.771
▁susitarimu	-9.77415
▁Tarptautini	-9.77487
iausių	-9.77497
migracijos	-9.77757
▁raginim	-9.77775
▁pagrindine	-9.77897
▁mat	-9.77921
▁nuolatini	-9.78147
ėtume	-9.78154
▁laisvai	-9.78194
avimu	-9.78262
▁visais	-9.78304
▁procedūra	-9.78306
▁likusi	-9.78346
iesi	-9.78385
▁pranešimui	-9.78413
▁joje	-9.78466
▁kelianči	-9.78488
avimą	-9.78521
▁sustabdy	-9.78755
▁kiekvienas	-9.78781
▁patvirtin	-9.78911
▁pasisak	-9.78926
▁vieno	-9.78966
▁Tarptautinė	-9.78991
▁dvej	-9.79017
▁Rumunijos	-9.79019
▁Valstijų	-9.79019
▁ataskaitos	-9.79019
▁draudimo	-9.79019
▁jėgos	-9.79019
▁kliūčių	-9.79019
▁ministrų	-9.79019
▁pacientų	-9.79019
▁pasirinkti	-9.79019
▁ryšių	-9.79019
▁susisiekim	-9.79019
▁tarnyba	-9.79019
▁Švedijos	-9.79019
▁fondai	-9.79019
▁narkotik	-9.79019
▁tyrimą	-9.79019
▁valiutos	-9.79019
▁teršalų	-9.79019
▁paketą	-9.7902
▁pabėgėlių	-9.7902
▁įtaką	-9.7902
▁Leiski	-9.7902
▁skirtumus	-9.79021
▁apsvarstyti	-9.79021
▁turizmo	-9.79021
▁prisitaikymo	-9.79023
▁prasme	-9.7903
▁teisėt	-9.79031
▁būdai	-9.79035
▁padėtyje	-9.79037
▁gamintojams	-9.7906
▁rūšių	-9.79069
▁teikimo	-9.79073
▁ginti	-9.79074
▁sparčiai	-9.7908
▁pokyčius	-9.79081
žia	-9.791
inta	-9.79123
▁būtinybę	-9.79161
▁kainos	-9.7917
▁trečiosiom	-9.79178
▁darbuotojus	-9.79182
bendruomen	-9.79192
▁minėjau	-9.79194
▁al	-9.79242
▁nedidel	-9.79256
▁kitoms	-9.79276
▁Li	-9.79329
▁kenčia	-9.79342
▁tarybos	-9.79382
▁skubi	-9.79432
▁nukreipt	-9.79439
▁iniciatyvas	-9.7948
▁Pirmininkas	-9.79512
osioms	-9.7953
jau	-9.79556
▁strategini	-9.79654
▁antai	-9.7968
▁Euro	-9.79692
▁teisinė	-9.79694
▁įgaliotin	-9.7976
▁ponia	-9.80035
▁dalių	-9.80085
▁nuostatų	-9.80129
▁atskirai	-9.80159
aktyviai	-9.80225
▁ragina	-9.80267
▁vienodai	-9.80271
▁geležinkelių	-9.8039
▁lauk	-9.80563
▁pagrįsta	-9.80666
▁esmin	-9.80784
▁parodė	-9.80813
▁regionin	-9.80956
SV	-9.80968
▁rimta	-9.80989
▁nuoširdžia	-9.81035
▁mechanizm	-9.81053
▁procedūras	-9.81171
▁baudžiam	-9.81231
▁demokratija	-9.81487
▁nar	-9.8166
▁krit	-9.8186
▁veiksminga	-9.819
▁toli	-9.8193
▁grėsm	-9.81942
krikščionių	-9.81962
▁skub	-9.81982
ner	-9.82005
▁ragin	-9.82016
▁situacija	-9.82077
▁tinklo	-9.82087
▁aukšto	-9.82195
▁sėkm	-9.8252
▁tvari	-9.82554
▁100	-9.8259
▁priklausom	-9.82653
▁atsisak	-9.82741
tyv	-9.82884
▁sukūr	-9.8301
▁gamyba	-9.8302
▁rūm	-9.83115
▁virš	-9.83177
▁Nori	-9.83179
trūk	-9.83184
▁Lenkijos	-9.83186
▁Portugalijos	-9.83186
▁Reglament	-9.83186
▁diskutuoti	-9.83186
▁inovacijų	-9.83186
▁ištekliai	-9.83186
▁organizacija	-9.83186
▁pagarbos	-9.83186
▁prioritetai	-9.83186
▁skaičiaus	-9.83186
▁specifin	-9.83186
▁sąskaita	-9.83186
▁terorizmu	-9.83186
▁tyrimai	-9.83186
▁užmokesčio	-9.83186
▁kūrimo	-9.83186
▁trijų	-9.83186
▁vizij	-9.83186
▁tikslams	-9.83186
▁žalos	-9.83187
▁savaime	-9.83187
▁elgtis	-9.83191
▁programų	-9.83193
▁Daugeli	-9.83194
▁banko	-9.83195
▁krovini	-9.83195
▁skund	-9.83213
▁kreiptis	-9.83213
▁asmenys	-9.83224
▁linij	-9.83226
▁pradin	-9.83237
▁valstybėmis	-9.83255
▁jaunimo	-9.83264
▁susirūpin	-9.83269
▁patirties	-9.83269
▁vertinimą	-9.83281
▁erdvės	-9.83288
▁tun	-9.83288
▁partnerių	-9.8331
PS	-9.83326
▁Visiška	-9.83327
▁Dabartin	-9.83362
▁susitarti	-9.83415
▁sto	-9.83441
▁kompromisas	-9.83488
▁pen	-9.83491
▁matome	-9.83506
▁op	-9.83625
▁ryžtingai	-9.83676
▁Komisare	-9.8368
▁produktus	-9.83703
▁paveik	-9.83735
▁kategorij	-9.83827
▁gyventi	-9.83863
rado	-9.83872
acijos	-9.83908
▁suprantama	-9.83939
▁frakcijų	-9.84019
▁grindžiam	-9.84069
▁kredito	-9.84124
▁Baigdamas	-9.84134
▁kiekį	-9.84145
▁padaryt	-9.84275
▁posėdžio	-9.84566
▁namų	-9.84589
▁gerų	-9.84702
nčioms	-9.8491
▁užduotis	-9.84963
▁plane	-9.85018
▁peln	-9.85111
▁nuosekl	-9.85144
▁mokykl	-9.85209
▁ba	-9.85427
iui	-9.85429
▁pasiūlymui	-9.85545
▁neteisėta	-9.85598
▁principai	-9.85622
▁vykdyt	-9.85647
▁atsakomyb	-9.85779
▁keliu	-9.8583
▁apribojim	-9.85986
▁leidžiama	-9.86124
▁sudar	-9.86133
dėl	-9.86224
▁pasakė	-9.8625
▁vertina	-9.86259
▁import	-9.8629
balsavimas	-9.86325
▁sąlyga	-9.86349
▁Didži	-9.86471
▁panaš	-9.86616
▁netinkam	-9.86647
▁susidar	-9.86838
▁karini	-9.86901
▁išeiti	-9.8698
▁papraš	-9.87029
▁šaltin	-9.87154
▁plači	-9.87185
▁moksl	-9.87188
▁reišk	-9.87197
▁žvej	-9.87234
▁balsavo	-9.87287
▁dalyvauja	-9.87301
▁palygint	-9.87389
eismo	-9.87444
žiūri	-9.87506
▁glaud	-9.87524
▁Ačiū	-9.87533
▁Bulgarijos	-9.87533
▁ankstyv	-9.87533
▁apibūdin	-9.87533
▁diskusiją	-9.87533
▁jėga	-9.87533
▁kompetencijo	-9.87533
▁kortel	-9.87533
▁kriterijų	-9.87533
▁moterims	-9.87533
▁nelaimių	-9.87533
▁pabaigoje	-9.87533
▁pasitikėjimą	-9.87533
▁problemomis	-9.87533
▁tebėra	-9.87533
▁vairuotoj	-9.87533
▁vykusi	-9.87533
▁šiltnami	-9.87533
▁nusipeln	-9.87534
▁teritorin	-9.87534
▁pasekmė	-9.87534
▁etnin	-9.87534
▁žemyn	-9.87537
▁Pastar	-9.8754
▁inter	-9.87541
▁kovą	-9.87542
▁rezoliucijoje	-9.8755
▁vykdymo	-9.87558
▁asmeniškai	-9.87561
▁valand	-9.87564
▁pakeitimo	-9.87573
▁lankstumo	-9.87579
▁menk	-9.87585
▁bendrov	-9.87588
▁konkrečiu	-9.87609
▁klas	-9.87627
▁nemaža	-9.87636
▁pramonei	-9.87654
▁teisėmis	-9.87687
▁žiniasklaidos	-9.87697
▁patent	-9.87735
▁pranašum	-9.87738
▁nuosekli	-9.87743
▁grėsmę	-9.87753
▁bandom	-9.87926
▁kompromisą	-9.87941
▁iššūkius	-9.87991
▁kaimynystė	-9.88045
▁užmojo	-9.88123
▁tvarka	-9.88151
▁rekomendacijas	-9.8817
▁siekiame	-9.882
▁nariui	-9.88202
▁organizuot	-9.8823
▁planas	-9.88259
▁prot	-9.88267
▁didesnis	-9.88276
▁ateinanči	-9.88279
▁Atsižvelgdama	-9.88312
▁angl	-9.884
▁kok	-9.8851
▁žuvų	-9.88516
▁lig	-9.88585
▁sąrašą	-9.88648
▁paskatint	-9.88665
▁pradėjo	-9.88743
▁16	-9.88781
▁naujai	-9.8879
▁tęs	-9.88793
pel	-9.88986
▁suvok	-9.89343
yčiau	-9.89429
▁principais	-9.89482
▁įtrauktas	-9.89508
▁siūlo	-9.89514
▁kovoj	-9.89823
▁perkelt	-9.89829
▁svarstym	-9.89936
▁kovai	-9.89942
▁rekomendacij	-9.89984
▁apsi	-9.90066
▁taut	-9.90119
▁tokias	-9.90251
▁ilgai	-9.90265
▁teik	-9.90328
▁įtraukta	-9.90399
▁patvirtina	-9.9049
▁numat	-9.90703
▁Kopenhago	-9.90748
▁sprendžiam	-9.90778
▁numatoma	-9.90831
▁pagrįstas	-9.90871
▁laikyti	-9.90906
▁verta	-9.90922
▁lemia	-9.90983
▁žali	-9.91127
▁ger	-9.91155
tumėte	-9.91182
▁pripažįsta	-9.91496
▁įgyvendinta	-9.91527
ėję	-9.91555
▁elektronini	-9.91693
▁kultūrini	-9.91711
žvelg	-9.91745
▁tarpvalstybini	-9.91747
▁naujoj	-9.9196
acional	-9.92068
▁Briuselyje	-9.92079
▁Finans	-9.92079
▁Graikija	-9.92079
▁Gruzijo	-9.92079
▁NATO	-9.92079
▁Rumunija	-9.92079
▁Serbijos	-9.92079
▁Sutinku	-9.92079
▁Vengrija	-9.92079
▁dokumentą	-9.92079
▁duomenimis	-9.92079
▁egzistuoja	-9.92079
▁funkcij	-9.92079
▁išvadas	-9.92079
▁kliūtis	-9.92079
▁opozicijo	-9.92079
▁sesijoje	-9.92079
▁smarkiai	-9.92079
▁vertybes	-9.92079
▁vykti	-9.92079
▁nauda	-9.92079
▁skaitmenin	-9.92079
▁fondu	-9.92079
▁pirmyn	-9.92079
▁esate	-9.92079
▁atkurti	-9.92079
▁norėjau	-9.92079
▁vaizd	-9.9208
▁sutarčių	-9.9208
▁balan	-9.9208
▁mėnesių	-9.9208
▁sužinoti	-9.9208
▁projektų	-9.92083
▁valdžia	-9.92083
▁konkrečios	-9.9209
▁kalbu	-9.92091
▁koordinavimo	-9.92097
▁skaidrumą	-9.92103
▁Vida	-9.92125
▁baigtos	-9.92125
▁2000	-9.92131
▁efektyvumą	-9.92135
▁500	-9.92141
▁Italijoje	-9.92152
▁panaikinimo	-9.92155
▁patenka	-9.92158
▁Baltarusijos	-9.92166
▁Teismo	-9.92177
▁suderin	-9.92212
AL	-9.92212
▁surengti	-9.92216
▁priemonėms	-9.92226
▁artimiausi	-9.92246
▁palaikau	-9.92252
▁pašalinti	-9.92293
▁prisidėjo	-9.92335
▁spal	-9.92367
▁tarpvalstybin	-9.92416
▁tiksliai	-9.92417
▁valstybę	-9.92455
▁įvykius	-9.92533
▁efektyvi	-9.92534
▁Kol	-9.9257
len	-9.92579
▁struktūros	-9.92612
▁branduolin	-9.92877
▁saugumui	-9.92918
▁persvarstyti	-9.92921
▁audito	-9.92963
▁esmini	-9.93053
▁įstatymų	-9.9309
▁grėsmė	-9.93111
▁nurodyti	-9.93223
esnį	-9.93273
▁išlikt	-9.93377
▁technin	-9.93465
▁dėkinga	-9.93474
▁neturime	-9.93479
▁ženklas	-9.93518
▁biologin	-9.9357
▁tiesiogin	-9.93628
▁metin	-9.93632
▁kilo	-9.93762
▁element	-9.93792
▁milijon	-9.93832
lėt	-9.93858
▁režimo	-9.93915
▁aptariam	-9.93977
▁produkt	-9.94007
▁turim	-9.94012
▁lygyb	-9.94174
▁reformų	-9.94187
▁parengtas	-9.942
▁pažangi	-9.9423
▁plėtrai	-9.9429
▁plenarin	-9.9455
▁mokyklos	-9.94571
▁išsakyt	-9.94646
▁kaltin	-9.94709
▁atvejus	-9.94848
▁teig	-9.94991
iškas	-9.95072
▁Gal	-9.95164
▁geležinkeli	-9.95227
▁išrinkt	-9.95353
▁pagrįsti	-9.95389
ide	-9.95529
▁vadovų	-9.95585
▁didele	-9.9559
▁sport	-9.95596
▁sistemas	-9.95673
▁ieško	-9.95713
nį	-9.958
▁abipusi	-9.95834
jimą	-9.95887
▁bendrąj	-9.96028
▁besivystanči	-9.96052
▁sunkiai	-9.96061
▁artim	-9.96219
▁regionini	-9.96364
▁sukelia	-9.96465
▁užtikrina	-9.96609
▁Vert	-9.9675
▁tarpusav	-9.96827
▁efekt	-9.96841
išskyrus	-9.96841
▁Aplinkos	-9.96841
▁Konstitucij	-9.96841
▁Ukraina	-9.96841
▁Valstijos	-9.96841
▁asignavim	-9.96841
▁deficit	-9.96841
▁deklaracij	-9.96841
▁dioksid	-9.96841
▁dokumentas	-9.96841
▁imtasi	-9.96841
▁kodeks	-9.96841
▁konkurenciją	-9.96841
▁kriterijai	-9.96841
▁prevencijos	-9.96841
▁principą	-9.96841
▁reikalavimai	-9.96841
▁subsidiarum	-9.96841
▁subsidij	-9.96841
▁verslinink	-9.96841
▁įgaliojimus	-9.96841
▁technologin	-9.96841
▁vaikams	-9.96841
▁išvados	-9.96841
▁nuostol	-9.96841
▁spaudimą	-9.96842
▁nuveikti	-9.96842
▁vyksianči	-9.96842
▁pinigus	-9.96843
▁pagarba	-9.96845
▁veng	-9.96854
▁norėdam	-9.96855
▁tarpusavyje	-9.96855
▁skaidrumas	-9.96856
▁kalbą	-9.9686
▁Kiekvien	-9.96862
▁baud	-9.96868
▁padarinius	-9.96871
▁pridurti	-9.96888
▁reikalavimas	-9.96891
▁buvau	-9.96893
▁viskas	-9.96893
▁Pagaliau	-9.96908
▁pašt	-9.96912
▁patvirtinimo	-9.96914
▁persvarstym	-9.96914
▁civilinės	-9.96914
▁visuomenėje	-9.96932
▁diskriminacija	-9.96932
▁atmet	-9.96994
▁įgyvendinimas	-9.97001
olog	-9.97008
▁prašau	-9.97011
▁valdymu	-9.97033
▁branduolinės	-9.97056
▁viešojo	-9.97056
▁ketinim	-9.97099
▁bausmės	-9.97151
▁Britanijos	-9.97169
▁sumažinta	-9.97263
▁Šį	-9.97289
▁visuomenę	-9.97313
▁smurtą	-9.97468
▁ypatingą	-9.97492
▁dalyvavo	-9.9756
▁priemone	-9.97575
▁minėta	-9.97599
▁ribos	-9.97618
▁tikėtis	-9.97648
▁kreditų	-9.97698
ekijo	-9.97698
▁Pirm	-9.97699
tųsi	-9.97756
▁neap	-9.97758
▁Al	-9.9781
▁nam	-9.97917
▁jais	-9.97926
▁nustatytos	-9.97975
▁žodžiais	-9.98028
▁Tok	-9.98054
▁sauga	-9.98199
▁sukelianči	-9.98268
▁verting	-9.98293
▁plano	-9.98298
▁rinkas	-9.98373
▁pati	-9.9843
▁ankstesni	-9.98497
▁užtikrinama	-9.9855
▁remiam	-9.98602
▁tvirtą	-9.98635
amb	-9.98692
▁nepakankam	-9.98857
▁21	-9.98864
▁EB	-9.98911
▁trukd	-9.9895
ėra	-9.98969
▁praeit	-9.99077
▁tikru	-9.99264
▁pereit	-9.99461
mokė	-9.99966
▁Pasauli	-10.0007
▁pirmojo	-10.0013
▁produktai	-10.0035
▁rėm	-10.0037
skyrimo	-10.0046
žino	-10.0056
▁padidėj	-10.0059
▁band	-10.0063
leido	-10.0064
▁išplėsti	-10.0064
diskusijos	-10.0065
ianti	-10.0079
▁palygin	-10.008
taip	-10.008
▁Mat	-10.0081
▁susitar	-10.0093
▁mėg	-10.0105
▁sujung	-10.0122
▁autori	-10.0131
▁Sav	-10.0144
▁grupe	-10.0147
▁pateisin	-10.0177
▁konsul	-10.0184
▁AKR	-10.0184
▁Portugalija	-10.0184
▁Rūmų	-10.0184
▁ačiū	-10.0184
▁dokumentai	-10.0184
▁iškėl	-10.0184
▁potencialą	-10.0184
▁prioritetų	-10.0184
▁ryšio	-10.0184
▁uždrausti	-10.0184
▁vietą	-10.0184
▁vystymąsi	-10.0184
▁ūkininkams	-10.0184
▁ūkininkų	-10.0184
▁BVP	-10.0184
▁partijų	-10.0184
▁Tunis	-10.0184
▁gaires	-10.0184
▁garb	-10.0184
▁užtikrinimo	-10.0184
▁pradžios	-10.0184
▁Ragin	-10.0184
▁pradžia	-10.0184
▁gavėj	-10.0184
▁žalą	-10.0184
▁judum	-10.0184
▁būdų	-10.0185
▁Europol	-10.0185
▁pažeidimų	-10.0185
▁saugoti	-10.0185
▁Remi	-10.0185
▁finansavimas	-10.0185
▁2004	-10.0186
▁jumis	-10.0186
▁pasakyta	-10.0186
▁fizin	-10.0186
▁pranešimų	-10.0187
▁pirkim	-10.0187
▁verčia	-10.0188
▁kalbų	-10.0188
▁narystės	-10.019
▁judėti	-10.0191
▁II	-10.0192
▁efektyvumo	-10.0192
▁manyti	-10.0195
▁Irak	-10.0196
▁pig	-10.0199
nku	-10.0205
▁nereikia	-10.0205
pirk	-10.0205
▁finansuojam	-10.0209
▁teismo	-10.0212
▁aspektą	-10.0216
▁subjekt	-10.0218
▁0,	-10.022
▁padariniai	-10.0222
▁specialist	-10.0225
▁sienas	-10.0229
▁statybos	-10.0235
nei	-10.0249
▁politinis	-10.0253
▁Jungtinėm	-10.0257
▁mažina	-10.0257
▁priimtina	-10.0263
tvarkyti	-10.0265
▁spaudo	-10.0267
▁demokratišk	-10.027
▁didžiuli	-10.0277
▁kuriant	-10.0278
▁praktini	-10.0278
▁Bū	-10.0279
▁priima	-10.0282
▁turto	-10.0285
▁naudojamos	-10.0287
▁nusikaltimus	-10.0288
▁Kosovo	-10.0291
ilės	-10.0303
▁kokybišk	-10.0309
▁planavim	-10.0312
▁sporto	-10.0317
▁perspektyvos	-10.0317
▁tūkstančių	-10.0338
▁paskelbti	-10.034
▁einanti	-10.034
▁ligų	-10.035
▁kokie	-10.036
▁stabil	-10.0373
pol	-10.039
▁demokratijai	-10.0393
▁lygi	-10.0393
▁humanitarinė	-10.0394
▁pavaduotojas	-10.0396
▁paprastai	-10.0397
▁ėmė	-10.0404
▁tikrov	-10.0412
▁pilietinė	-10.0427
▁Antras	-10.0429
▁keitim	-10.043
iuosi	-10.0436
▁aiškus	-10.045
▁leido	-10.0452
▁pamaty	-10.0475
▁įvairios	-10.0482
▁rodikli	-10.0486
▁institucijas	-10.0492
▁abi	-10.05
▁teritorij	-10.0503
▁neatsižvelgia	-10.0505
▁vykdom	-10.0506
▁paspartint	-10.0515
▁keičia	-10.0516
jį	-10.0525
▁apibrėžt	-10.0527
ininkų	-10.0528
▁rūpi	-10.053
▁užduoti	-10.0542
▁sustiprint	-10.0543
▁energetini	-10.0548
▁išspręst	-10.055
▁tūkstanči	-10.0551
buvo	-10.0562
inami	-10.0565
▁60	-10.0577
▁eksport	-10.0588
(	-10.0592
cijos	-10.0592
▁komercini	-10.0596
▁visam	-10.0606
▁sukčiavim	-10.0607
▁tėv	-10.0607
praneš	-10.0611
▁leid	-10.0629
▁patį	-10.0634
▁vadovaujant	-10.0634
spaud	-10.0642
▁teigiamai	-10.0646
▁Ties	-10.0646
▁religij	-10.0647
▁karin	-10.0656
▁taisykl	-10.0662
15	-10.0665
ieno	-10.0668
rodyti	-10.0674
▁patar	-10.0675
▁supras	-10.0687
dra	-10.0693
▁įtikin	-10.0696
▁pan	-10.0702
tabilumo	-10.0708
▁Kroatijos	-10.071
▁Lenkija	-10.071
▁Pakistano	-10.071
▁Pavyzdžiu	-10.071
▁Serbija	-10.071
▁Tūkstan	-10.071
▁deryboms	-10.071
▁fondą	-10.071
▁investicijas	-10.071
▁išlaidos	-10.071
▁koncepcij	-10.071
▁konstitucin	-10.071
▁konvencija	-10.071
▁laikotarpį	-10.071
▁naudą	-10.071
▁nepagrįst	-10.071
▁pasikeit	-10.071
▁pavyks	-10.071
▁pavyzdį	-10.071
▁penkeri	-10.071
▁ratifikavim	-10.071
▁seksualin	-10.071
▁skrydži	-10.071
▁solidarumą	-10.071
▁straipsnį	-10.071
▁subalansuot	-10.071
▁susipažint	-10.071
▁vertybių	-10.071
▁visuomet	-10.071
▁ūkis	-10.071
▁žurnalist	-10.071
▁stengia	-10.071
▁ketvirt	-10.071
▁balsų	-10.071
▁išplėt	-10.071
▁likti	-10.071
▁diskriminacijos	-10.0711
▁būdą	-10.0711
▁aukų	-10.0711
▁diplomatin	-10.0711
▁interesai	-10.0711
▁pardavim	-10.0711
▁naštą	-10.0711
▁tašk	-10.0711
▁liko	-10.0712
▁2005	-10.0712
▁dalyvavimas	-10.0713
▁vystymuisi	-10.0713
▁daugumos	-10.0713
▁pasitelk	-10.0714
▁išmetim	-10.0714
▁atneš	-10.0716
▁darbų	-10.0717
▁kitur	-10.0719
▁įtrauktos	-10.0721
▁praktiškai	-10.0721
▁pareiškimą	-10.0721
▁įgyt	-10.0723
▁nacionalinę	-10.0723
▁vertinimo	-10.0724
▁šak	-10.0726
▁partneriai	-10.0727
▁vidutinės	-10.073
▁diskutuojame	-10.073
▁asmenis	-10.0731
▁pirmininkui	-10.0731
▁struktūr	-10.0739
▁jaučia	-10.0741
▁kažk	-10.0744
▁sveikinu	-10.0745
▁rinkai	-10.0748
▁atkūrimo	-10.0748
▁apribo	-10.0753
▁įgyvendinama	-10.0753
▁suprantu	-10.0754
neš	-10.0754
▁politines	-10.0755
▁neleidžia	-10.0756
▁situaciją	-10.0757
▁įvairovės	-10.0758
▁netek	-10.0763
▁vyriausybė	-10.0763
▁paremt	-10.0765
▁žodini	-10.0766
SK	-10.0767
▁naujausi	-10.0771
▁internetu	-10.0773
▁remdam	-10.0773
antys	-10.0775
▁susiduriame	-10.0786
▁atitikt	-10.0791
▁turė	-10.0793
▁abie	-10.0793
▁kylanči	-10.0797
▁komitetui	-10.0798
▁teikėj	-10.0799
▁įstatymo	-10.0801
ėjus	-10.0804
▁vykstanči	-10.0811
ėjusi	-10.0811
▁nustatom	-10.0815
▁minim	-10.0831
▁puikus	-10.0836
▁ekonominiu	-10.0839
▁taiki	-10.0844
▁Pat	-10.085
▁įsigalioj	-10.0856
▁įvykių	-10.0856
yma	-10.0861
▁importo	-10.0864
▁darbui	-10.0867
nos	-10.0872
iniais	-10.0879
▁ekonomine	-10.0883
▁įvertinim	-10.0888
▁atsakinga	-10.0891
▁tautų	-10.0893
▁faktas	-10.0902
▁prireik	-10.0902
▁sąlyg	-10.0903
štai	-10.0908
▁metodą	-10.0908
▁atsakingos	-10.0921
▁atitik	-10.0921
gos	-10.093
▁pajėgų	-10.0931
▁atvirai	-10.0933
▁moka	-10.0938
▁tikslui	-10.0954
▁vidutin	-10.0984
▁nepakanka	-10.0988
▁iššūki	-10.0991
▁krizė	-10.101
▁pasiūlyta	-10.1013
usią	-10.1025
den	-10.1025
gauti	-10.1039
▁atlik	-10.1055
▁efektyvia	-10.1057
▁teritorijos	-10.1059
▁blok	-10.1061
gau	-10.1071
▁apimti	-10.1071
▁dvišal	-10.1085
▁projektu	-10.1087
leidžia	-10.1089
▁gerbti	-10.1098
▁vykdoma	-10.1119
▁pasaulinė	-10.112
▁Pirminink	-10.1123
tenka	-10.1139
Ž	-10.1139
Darbo	-10.1146
padėtis	-10.1148
▁Kal	-10.1149
▁gerin	-10.115
▁finansine	-10.1157
▁prog	-10.1162
▁pasirod	-10.1201
▁besivystančios	-10.1211
yl	-10.1226
▁reikiam	-10.1233
▁tiesiogini	-10.1245
▁reglamentu	-10.1247
spręs	-10.1251
skelb	-10.1255
▁baz	-10.1264
FI	-10.1265
▁nusikalstam	-10.1265
▁Brazilij	-10.1266
▁Japonijos	-10.1266
▁Socialist	-10.1266
▁Transport	-10.1266
▁apgailestauju	-10.1266
▁asmuo	-10.1266
▁dvidešimt	-10.1266
▁ekologišk	-10.1266
▁europiečių	-10.1266
▁intelektin	-10.1266
▁išgirsti	-10.1266
▁ministras	-10.1266
▁mokesčio	-10.1266
▁nesąžining	-10.1266
▁padėčiai	-10.1266
▁paslaugomis	-10.1266
▁pastabą	-10.1266
▁prioritetas	-10.1266
▁riziką	-10.1266
▁septyni	-10.1266
▁stebėtoj	-10.1266
▁taupym	-10.1266
▁terorizmo	-10.1266
▁universitet	-10.1266
▁žodį	-10.1266
▁Kipro	-10.1266
▁Nyderland	-10.1266
▁strategijoje	-10.1266
▁televizij	-10.1266
▁interesams	-10.1266
▁rizika	-10.1266
▁dvigub	-10.1266
▁gamtos	-10.1266
▁tarif	-10.1266
▁trūkumas	-10.1266
▁vyresn	-10.1266
▁ALDE	-10.1266
▁radikal	-10.1266
▁užtikrintų	-10.1266
▁poveikis	-10.1266
▁įvairovę	-10.1266
▁kalėjim	-10.1266
▁paketas	-10.1266
▁dažniausiai	-10.1266
▁mėnesiai	-10.1266
▁paverst	-10.1266
▁metams	-10.1266
▁Kanad	-10.1266
▁motyv	-10.1266
▁primygtin	-10.1266
▁projektai	-10.1267
▁patekti	-10.1267
▁finansavimu	-10.1267
▁pradės	-10.1267
▁likim	-10.1268
▁įsitikinusi	-10.1268
▁kalini	-10.1268
▁milžinišk	-10.1269
▁tvarką	-10.127
▁23	-10.1271
▁konstruktyv	-10.1272
▁24	-10.1273
▁26	-10.1274
▁pašalin	-10.1274
▁pranešėjams	-10.1276
▁mažinimas	-10.1278
▁erdvę	-10.128
▁dažniau	-10.1281
▁narėje	-10.1281
▁ilgiau	-10.1283
▁skatinimo	-10.1283
▁patirt	-10.1283
-20	-10.1284
▁apsaugo	-10.1285
▁nepamiršti	-10.1286
▁atgal	-10.1286
▁gamintojai	-10.1292
▁laikais	-10.1294
▁būst	-10.1297
▁naujosios	-10.1298
▁atėjo	-10.1299
▁vertės	-10.1305
▁įsteigti	-10.1307
▁ekonominį	-10.1308
▁baim	-10.1308
▁piliečius	-10.1309
▁asmen	-10.1309
▁Sch	-10.1311
▁pasirengim	-10.1311
▁vertiname	-10.1319
▁kiekio	-10.1322
▁tarpinink	-10.1325
usiems	-10.1328
▁religijos	-10.1334
▁Tiesa	-10.1337
▁pažeidžiamiausi	-10.1339
▁judėjimą	-10.134
▁Tad	-10.135
▁pareikalau	-10.1364
▁imigrantų	-10.1365
▁atsakymas	-10.137
▁judėjimo	-10.1371
▁san	-10.1376
▁apibrėžim	-10.1376
ginčyti	-10.1383
▁priešing	-10.1385
▁įvykusi	-10.1391
▁tekstą	-10.1406
▁kalt	-10.142
▁iššūkių	-10.1429
▁teisėj	-10.1436
▁Mal	-10.1448
▁žodžius	-10.1451
▁taikytin	-10.1457
▁visapusiška	-10.1459
▁parodo	-10.146
▁mieste	-10.1461
▁tikri	-10.1463
▁teigia	-10.1466
▁įvyki	-10.147
▁bendradarbiau	-10.1474
▁tiksli	-10.1474
▁ku	-10.1475
▁pavaduotoja	-10.1494
▁atsižvelgdama	-10.1515
telk	-10.1516
▁oficiali	-10.152
▁kaina	-10.152
▁ju	-10.1524
▁post	-10.1535
▁atitikti	-10.1536
▁Lo	-10.1562
▁patvirtint	-10.1568
▁vadovai	-10.1581
prieš	-10.1582
▁teisus	-10.1585
▁praeiti	-10.1586
▁mažin	-10.1587
▁nuostat	-10.1592
▁atsako	-10.1596
ėsime	-10.1598
▁dali	-10.1604
▁pagrįstai	-10.1605
▁prekybai	-10.1611
▁terorist	-10.1621
▁tinkamos	-10.1641
▁darbu	-10.1647
▁žodžiu	-10.1662
▁eil	-10.1665
▁apimt	-10.1671
▁pakeis	-10.1677
▁pavyzdžiu	-10.1686
▁išvengt	-10.1687
▁regionu	-10.1687
▁įvykdyt	-10.1692
▁vadovaujam	-10.1693
▁minimali	-10.1721
▁pasieni	-10.1723
▁Kosov	-10.1729
tampa	-10.174
▁komunikat	-10.1766
▁smulki	-10.1772
▁mažėja	-10.1783
▁kritikuo	-10.18
▁fi	-10.1807
▁paragin	-10.1827
▁kuro	-10.1835
▁vid	-10.1847
▁konstruktyvi	-10.1848
▁įsipareigo	-10.1849
precedent	-10.1853
▁vietov	-10.1854
▁objekt	-10.1854
▁Afrikoje	-10.1854
▁Raštišk	-10.1854
▁Ukrainos	-10.1854
▁anksto	-10.1854
▁ataskaitoje	-10.1854
▁dialoga	-10.1854
▁klausimams	-10.1854
▁milijard	-10.1854
▁naudojimu	-10.1854
▁nelaiming	-10.1854
▁pasaulis	-10.1854
▁paslaugos	-10.1854
▁praktika	-10.1854
▁prasidėjo	-10.1854
▁skurdą	-10.1854
▁straipsnyje	-10.1854
▁sąjunga	-10.1854
▁trūkumų	-10.1854
▁vertybėmis	-10.1854
▁įgaliojimai	-10.1854
▁Austrij	-10.1854
▁Libijos	-10.1854
▁atsidūr	-10.1854
▁ūkiu	-10.1854
▁žinią	-10.1854
▁žlug	-10.1854
▁skirtumai	-10.1854
▁lygmenimis	-10.1854
▁Bosnij	-10.1854
▁islam	-10.1854
▁motinyst	-10.1854
▁asmenims	-10.1854
▁komand	-10.1854
▁skirtumų	-10.1854
▁kanal	-10.1854
▁debat	-10.1854
▁Sveikin	-10.1854
▁bendruomenės	-10.1855
▁mumis	-10.1855
▁protokolo	-10.1855
▁Kong	-10.1855
▁regionai	-10.1855
▁reikalas	-10.1855
▁trej	-10.1856
▁žaisl	-10.1856
▁pritaikyti	-10.1856
▁laimė	-10.1856
▁Irano	-10.1856
▁pranešimai	-10.1856
▁šeima	-10.1857
▁stabilumą	-10.1858
▁pasisakyti	-10.1858
▁našta	-10.1859
▁kilus	-10.1859
▁konkurencingumą	-10.1859
▁išsiaiškinti	-10.186
▁konkurencingumo	-10.1861
▁gyvenime	-10.1862
▁neatitinka	-10.1862
▁mažiausiai	-10.1862
▁narėmis	-10.1862
▁papildomų	-10.1863
▁sudarymo	-10.1863
▁Pilieči	-10.1866
▁direktyvoje	-10.1866
▁nuspręsti	-10.1867
▁teismin	-10.1867
▁teritorijoje	-10.1869
▁22	-10.1869
▁saugom	-10.187
▁indėlį	-10.1873
▁priežiūra	-10.1873
▁kasmet	-10.1874
▁spekuliacij	-10.1876
ung	-10.1877
▁mažesni	-10.188
▁asociacijos	-10.1883
▁šaltinis	-10.1884
▁kontekste	-10.1885
tmeči	-10.1885
▁JK	-10.1887
encijos	-10.189
▁Ch	-10.189
▁paties	-10.189
▁geresnę	-10.1892
▁darbe	-10.1895
▁dalykus	-10.1896
▁perduoti	-10.1902
fin	-10.1903
▁svarstomas	-10.1906
teikti	-10.191
▁kelti	-10.1918
▁autorius	-10.1924
▁sutik	-10.1925
protest	-10.1932
▁tinkamo	-10.1935
▁paskirt	-10.1937
▁mechanizmus	-10.1938
▁ginkluot	-10.1941
▁reikalingos	-10.1951
▁padėtimi	-10.1954
▁iniciatyvų	-10.1954
iausios	-10.1956
kirt	-10.1959
▁gamintojų	-10.196
▁klaidos	-10.1967
▁svarstymą	-10.1972
LT	-10.1972
▁niek	-10.1977
▁teisė	-10.198
▁atsakymą	-10.1997
▁pateikiami	-10.201
▁besivystančiom	-10.2012
▁80	-10.2013
grįžti	-10.2018
▁uždaryti	-10.2018
▁politinius	-10.2018
▁įvesti	-10.2023
▁įvykdyti	-10.2029
▁teisėtai	-10.2043
▁skatinant	-10.2049
▁vidutinėm	-10.206
▁Sta	-10.2077
dirbti	-10.2081
niai	-10.2085
žiūrėti	-10.2092
▁jaunų	-10.2093
▁patikr	-10.2094
▁pakenk	-10.2108
▁istorini	-10.2109
▁reikalingi	-10.211
tvirt	-10.2113
▁miestų	-10.2115
▁išsaugo	-10.212
teikia	-10.2131
tuoja	-10.2135
▁gina	-10.2146
▁pozicij	-10.2156
▁truk	-10.2163
▁atid	-10.2176
▁naikin	-10.2179
nės	-10.2189
▁energetin	-10.2201
▁vykdomas	-10.2208
▁galo	-10.2215
▁priverst	-10.2216
▁atsakingas	-10.2232
ėsi	-10.2242
▁procent	-10.2243
▁gresia	-10.2255
▁priimtos	-10.2256
▁šešis	-10.2257
▁teikiant	-10.2259
konomikos	-10.2269
▁grįž	-10.2288
▁metai	-10.2296
▁būtinyb	-10.2318
▁keleivi	-10.2318
didel	-10.232
▁valstybė	-10.232
▁profesinė	-10.2331
▁turt	-10.2339
▁religin	-10.2345
▁visuotini	-10.2348
dinti	-10.2353
klių	-10.2363
▁užbaig	-10.2367
▁dirbančių	-10.2369
▁veiksmingiau	-10.2369
▁gimt	-10.238
▁poreikis	-10.2382
▁moksliniai	-10.2387
iškumo	-10.2387
▁reikalus	-10.2391
angl	-10.2403
▁ryžting	-10.2405
▁reforma	-10.2407
▁bendru	-10.2407
▁teisinių	-10.241
ysime	-10.2415
▁atitinkamai	-10.2417
nar	-10.2418
▁skaidr	-10.2418
▁nauji	-10.2418
▁statyb	-10.242
▁auga	-10.2426
▁dalyvau	-10.2432
deg	-10.2443
nę	-10.2447
▁nepra	-10.2454
▁profesin	-10.2455
▁užduo	-10.2456
▁geriausiai	-10.2456
▁kūryb	-10.246
▁nelygyb	-10.2461
▁200	-10.2475
▁padėk	-10.2479
▁ypating	-10.2479
▁Sudano	-10.2479
▁Vokietijoje	-10.2479
▁apgalvot	-10.2479
▁diskriminaciją	-10.2479
▁fiskalin	-10.2479
▁generalini	-10.2479
▁idėją	-10.2479
▁modelį	-10.2479
▁neatidėliotin	-10.2479
▁nepavyko	-10.2479
▁nereiškia	-10.2479
▁pagarbą	-10.2479
▁pasekmių	-10.2479
▁pastangos	-10.2479
▁pesticidų	-10.2479
▁priklausy	-10.2479
▁reglamentas	-10.2479
▁reguliuoti	-10.2479
▁savaites	-10.2479
▁sistemoje	-10.2479
▁įstaigų	-10.2479
▁ūkininkai	-10.2479
▁žaliavų	-10.2479
▁žmogišk	-10.2479
▁Belgijo	-10.2479
▁aukoms	-10.2479
▁priklausanči	-10.2479
▁tvarkymo	-10.2479
mobili	-10.2479
▁Airija	-10.2479
▁projektams	-10.2479
▁stebėjimo	-10.2479
▁nelaimės	-10.2479
▁atsidur	-10.2479
▁kilti	-10.2479
▁siunčia	-10.2479
▁atspindė	-10.2479
▁kontroliuoti	-10.2479
▁pašar	-10.2479
▁Azijos	-10.2479
▁vietovėse	-10.2479
▁paketu	-10.2479
▁pajamas	-10.2479
▁dalys	-10.2479
▁atsitikim	-10.248
▁krauj	-10.248
▁savarankiškai	-10.248
▁augimas	-10.248
▁elgesi	-10.248
▁bankas	-10.248
▁Neseni	-10.248
▁paraišk	-10.2481
▁palaikymo	-10.2481
izacijos	-10.2482
▁laimėjim	-10.2483
▁sugebėjo	-10.2483
▁įsipareigojo	-10.2483
▁rinkimai	-10.2483
▁kultūra	-10.2483
▁valdymas	-10.2485
▁konferencijos	-10.2486
▁degal	-10.2486
▁atvyksta	-10.2488
▁pareiškimas	-10.249
▁sakiau	-10.249
▁vertinimas	-10.2493
▁būdo	-10.2494
▁trečiosios	-10.2495
▁teismų	-10.2495
▁direktyv	-10.2496
▁veiksmingumą	-10.2497
▁suteikimo	-10.2497
▁trukmės	-10.2497
▁savinink	-10.2498
▁išnaudoti	-10.2501
▁valdyti	-10.2501
▁sakoma	-10.2502
▁seniai	-10.2503
traukti	-10.2505
▁mokėtojų	-10.2506
▁jomis	-10.2513
▁por	-10.2518
▁suvokti	-10.2518
▁kalbė	-10.2521
▁planuojam	-10.2523
▁geri	-10.2524
▁prisijungti	-10.2529
▁pusę	-10.2537
▁žinau	-10.2539
▁užtikrins	-10.2541
▁tikrinimo	-10.2543
▁pasakytina	-10.2544
▁trumpą	-10.2544
▁remdamasi	-10.2546
▁tonų	-10.2554
▁išlieka	-10.2555
▁linkme	-10.2556
▁įstatymą	-10.2556
▁kažkas	-10.2561
▁vadovautis	-10.2561
▁turėjome	-10.2562
all	-10.2568
▁laikau	-10.2574
▁pristatyt	-10.2588
▁tekste	-10.2599
▁ženg	-10.26
▁situacijos	-10.2609
▁sudarytos	-10.2611
▁bloga	-10.2613
veikimo	-10.2618
▁fa	-10.2627
▁save	-10.2633
▁operacijų	-10.2636
vystymo	-10.2638
▁Teisė	-10.264
▁patenkintas	-10.2641
▁mokslo	-10.2659
▁Or	-10.2659
▁krikščionių	-10.2668
▁užtikrinanči	-10.2673
▁nauju	-10.2673
▁užsiim	-10.2682
▁darbus	-10.2694
▁milijonų	-10.2698
▁apribojimų	-10.2714
▁deram	-10.2714
užtikrin	-10.2714
▁tokiais	-10.2716
▁civili	-10.2718
▁rimtą	-10.2724
▁išgyvena	-10.2732
▁ekonomines	-10.2737
▁produktais	-10.2748
▁didėjanči	-10.2748
▁Norint	-10.276
▁taryba	-10.2781
▁pakeitimu	-10.2784
▁klaidų	-10.2785
▁kin	-10.2787
▁konflikto	-10.2792
▁delegacij	-10.2811
▁sugebė	-10.2813
▁smurt	-10.2836
▁operacij	-10.2849
▁sistemai	-10.2852
hl	-10.2859
▁judėjim	-10.2865
▁palengvint	-10.2884
▁anti	-10.2887
tam	-10.2892
▁ankstesn	-10.2916
▁viešosio	-10.2941
▁valstybin	-10.2944
▁Jungtinė	-10.2951
▁išreiškia	-10.2953
▁įmanom	-10.2959
▁mažosio	-10.296
▁fakto	-10.2969
▁rem	-10.2972
UE	-10.2973
▁Jūsų	-10.2975
▁investuot	-10.2977
▁sveikata	-10.2977
▁sociali	-10.298
▁student	-10.2982
▁automobili	-10.2987
▁centrini	-10.2991
▁susijus	-10.2998
▁atsiranda	-10.2999
▁dera	-10.3003
▁parodyt	-10.3008
▁knyg	-10.301
▁Būt	-10.3019
Euro	-10.3021
Pirminink	-10.3024
mūsų	-10.303
Jungtin	-10.3039
▁pavojinga	-10.3048
ėjimą	-10.3049
▁mažesn	-10.305
▁vienodo	-10.3054
▁įgyvendindam	-10.306
SE	-10.3064
▁pozicijas	-10.3065
▁antras	-10.3068
▁gyv	-10.3078
▁nepriklausoma	-10.3079
inamas	-10.3081
▁veiklai	-10.3104
▁įtvirtinta	-10.311
▁Valstyb	-10.3125
▁neišvengiama	-10.3128
▁pakeit	-10.313
▁duot	-10.3131
▁laiky	-10.3133
▁neturting	-10.3135
▁Bendrij	-10.3136
bėg	-10.3139
▁pažym	-10.3143
▁moderni	-10.3146
▁Bulgarija	-10.3146
▁London	-10.3146
▁Strasbūre	-10.3146
▁Svarbiausia	-10.3146
▁Valstijomis	-10.3146
▁aplinkybes	-10.3146
▁aprūpinim	-10.3146
▁atvejis	-10.3146
▁atšauk	-10.3146
▁diskusijoje	-10.3146
▁dokumente	-10.3146
▁dokumento	-10.3146
▁energiją	-10.3146
▁istorijos	-10.3146
▁išankstini	-10.3146
▁jūroje	-10.3146
▁komentar	-10.3146
▁nepavyks	-10.3146
▁politikoje	-10.3146
▁praktikos	-10.3146
▁profesional	-10.3146
▁referendumo	-10.3146
▁ruoš	-10.3146
▁sričiai	-10.3146
▁įrengini	-10.3146
▁Komitet	-10.3146
▁administracij	-10.3146
▁aštuoni	-10.3146
▁bankinink	-10.3146
▁daugiašal	-10.3146
▁demografin	-10.3146
▁kūrimas	-10.3146
▁lyties	-10.3146
▁persekiojim	-10.3146
▁pranešėją	-10.3146
▁reikėjo	-10.3146
▁sudedam	-10.3146
▁švies	-10.3146
▁nedarbo	-10.3146
▁žaidim	-10.3146
▁Moldovo	-10.3146
▁veikloje	-10.3146
▁gyvuli	-10.3146
▁Žinau	-10.3146
▁vėž	-10.3146
▁statistini	-10.3146
▁detal	-10.3146
▁aktą	-10.3146
▁Moter	-10.3146
▁kalbomis	-10.3146
▁pirmenyb	-10.3146
▁gaila	-10.3146
▁įnaš	-10.3146
▁vard	-10.3146
▁mokėti	-10.3146
▁pažeidimai	-10.3147
▁Jums	-10.3147
▁pažeidimus	-10.3147
▁įdomu	-10.3147
▁Tema	-10.3147
▁atsitikti	-10.3147
▁valdom	-10.3148
▁Birmo	-10.3148
▁pasimokyti	-10.3149
▁tikėtina	-10.3149
▁kainą	-10.315
▁198	-10.3151
▁reikalavimą	-10.3152
RC	-10.3153
▁mokėtojai	-10.3153
▁Martin	-10.3154
▁matėme	-10.3155
▁mintis	-10.3156
▁galvoje	-10.3157
▁ištaisyti	-10.3158
sakysiu	-10.316
▁bendrijos	-10.3163
▁plėtoj	-10.3164
nėms	-10.3167
▁nuomonių	-10.3168
▁patobulinti	-10.3172
▁pakto	-10.3174
▁Pranešimas	-10.3179
▁reikšmė	-10.3182
▁įrangos	-10.3188
▁ME	-10.3193
▁daliai	-10.3194
▁palaikome	-10.3198
▁atnaujinti	-10.3199
▁Nor	-10.3199
▁pirmoj	-10.3199
▁skaidri	-10.32
▁įstatymus	-10.3201
▁papildyti	-10.3201
▁pramonę	-10.3202
▁administravimo	-10.3203
▁perdavimo	-10.3203
▁pranešti	-10.3207
▁svarstome	-10.3207
▁augal	-10.3207
▁parduoti	-10.3212
▁laukiame	-10.3214
▁įrodyti	-10.3214
▁esm	-10.3215
▁bendri	-10.3217
▁ribas	-10.3234
▁vyriausybę	-10.3234
▁teigiamas	-10.3241
▁elementas	-10.3244
bank	-10.3249
▁Viduri	-10.3253
▁procesus	-10.3256
▁uždar	-10.3257
▁išsamiai	-10.3257
▁kapitalo	-10.3264
▁susidomėjim	-10.3269
▁įprast	-10.3274
▁paskolų	-10.3278
▁tekstas	-10.3278
▁blogiau	-10.3281
▁išnagrinėti	-10.3289
▁mechanizmą	-10.3289
▁religini	-10.3292
▁iššūkiais	-10.3294
▁remiame	-10.3306
▁pripažinta	-10.3306
▁pritarta	-10.3307
▁liberali	-10.3307
▁suderintas	-10.3315
▁pakeitimui	-10.3326
▁jokiu	-10.3328
lyginti	-10.3335
▁milijonai	-10.3349
▁tarptautiniai	-10.335
▁jung	-10.3351
atsirado	-10.3359
TE	-10.339
▁proting	-10.3392
▁sutiko	-10.3398
alankiai	-10.3413
▁standart	-10.3414
▁Tarptautin	-10.3415
gt	-10.3421
▁atskirti	-10.3424
▁didžioj	-10.3429
▁laisves	-10.343
▁reguliuojam	-10.344
▁taryb	-10.3461
▁planu	-10.3462
▁didžiulis	-10.3481
▁oficial	-10.3482
▁pareigūnai	-10.3486
▁partnerė	-10.3492
▁vadinamąj	-10.3498
▁atkreipia	-10.35
▁nuoširdži	-10.3507
tyje	-10.3511
▁uždaryt	-10.3514
▁nuostata	-10.3514
▁dabartine	-10.3516
▁socialines	-10.3518
▁institucini	-10.3519
▁tikrovė	-10.354
▁vanden	-10.3566
▁vykdomos	-10.3578
▁nurodyt	-10.3593
▁pagalbin	-10.3598
sėd	-10.3603
▁patobulin	-10.3616
▁kompromisin	-10.3623
▁pirmini	-10.3638
▁platesni	-10.3641
▁veiksmais	-10.3651
▁vietose	-10.3675
▁dalyvaujant	-10.3678
▁galing	-10.3686
▁išreikšt	-10.3692
▁prisidėt	-10.3692
▁neteising	-10.37
▁žuv	-10.3703
▁trečia	-10.3725
▁kapital	-10.3735
silpn	-10.3741
▁sumažėj	-10.3742
▁paprasta	-10.3749
eticijų	-10.375
kalbant	-10.3766
šiuo	-10.3788
tenkina	-10.3797
▁Amerik	-10.3798
▁indėl	-10.3816
▁matom	-10.3822
▁įstatym	-10.3824
▁plėtoja	-10.3841
savarankišk	-10.386
▁Demokrat	-10.386
▁apkaltin	-10.386
▁privilegij	-10.386
2007-2013	-10.386
▁Australij	-10.386
▁Indijos	-10.386
▁Jugoslavij	-10.386
▁Libijoje	-10.386
▁Prancūzijoje	-10.386
▁Prezident	-10.386
▁Slovakijos	-10.386
▁atskaitomyb	-10.386
▁baronien	-10.386
▁drebėjim	-10.386
▁europiečiai	-10.386
▁ilgalaikė	-10.386
▁informacin	-10.386
▁inovacijas	-10.386
▁institucijomis	-10.386
▁jėgų	-10.386
▁lėktuv	-10.386
▁lūkesčius	-10.386
▁mobilum	-10.386
▁naudojimas	-10.386
▁parduodam	-10.386
▁pasekmes	-10.386
▁pažeist	-10.386
▁pobūdį	-10.386
▁popieri	-10.386
▁slapt	-10.386
▁sąvoka	-10.386
▁transatlantin	-10.386
▁trečdali	-10.386
▁triukšm	-10.386
▁veiksnys	-10.386
▁įstaigos	-10.386
▁ekosistem	-10.386
▁išvadų	-10.386
▁kenkia	-10.386
▁nemokam	-10.386
▁rinkėjų	-10.386
▁dydžio	-10.386
▁vietini	-10.386
pjū	-10.386
▁šeimų	-10.386
▁regionams	-10.386
▁naujoves	-10.386
▁surasti	-10.386
▁prieštaring	-10.386
▁Palaik	-10.386
▁reaguoja	-10.386
komunikacij	-10.386
▁ideal	-10.386
▁surinkt	-10.386
▁paskui	-10.386
▁ateitis	-10.386
▁prieigą	-10.386
▁ramsči	-10.386
▁žaling	-10.3861
▁kultūrą	-10.3861
▁aktas	-10.3861
▁sveikintina	-10.3861
▁tipo	-10.3861
▁kelionės	-10.3861
▁stojimo	-10.3861
▁pasisek	-10.3861
▁pagirti	-10.3861
▁priims	-10.3861
▁pastebim	-10.3861
▁Karalystėje	-10.3861
▁konferencijoje	-10.3862
▁skurdžiausi	-10.3862
▁prašyma	-10.3862
▁Aišku	-10.3862
▁patikrinti	-10.3862
▁politiškai	-10.3863
▁liberalizuo	-10.3863
▁išimtin	-10.3863
▁dalyvavimo	-10.3864
▁valdymą	-10.3864
▁imtų	-10.3864
▁sutartys	-10.3864
▁siekdamos	-10.3865
▁Žaliųjų	-10.3865
▁variant	-10.3865
▁PPO	-10.3865
▁auginim	-10.3866
▁kalbėtoj	-10.3866
▁šaltinius	-10.3867
▁balsuodam	-10.3868
prievarta	-10.3868
▁suderinimo	-10.3869
▁skolo	-10.387
▁gili	-10.3871
▁ribojim	-10.3871
▁rūmuose	-10.3873
▁Vertin	-10.3877
▁atsižvelgta	-10.3879
▁padėjo	-10.3882
▁rengti	-10.3886
▁įstojim	-10.3887
▁Daugum	-10.3887
▁Tikiu	-10.3889
▁pateikiam	-10.3889
▁stal	-10.3891
▁tad	-10.3891
▁nemat	-10.3895
▁naujovė	-10.39
▁krizių	-10.3903
▁Norime	-10.3907
▁ekologini	-10.3911
▁tarptautine	-10.3922
ykime	-10.3924
▁kiekvienai	-10.3924
▁nenorime	-10.3924
▁jungtin	-10.3928
▁misijos	-10.393
▁informavimo	-10.3931
▁perkėlimo	-10.3931
▁judėjimas	-10.3935
▁Van	-10.3939
▁įtvirtinti	-10.3943
▁neleisti	-10.3944
▁konferencija	-10.3953
▁kompromiso	-10.3958
▁kaitą	-10.3959
▁rekomendacijos	-10.3961
▁koordinuoti	-10.3966
▁peticij	-10.3972
fer	-10.3972
▁taiko	-10.3984
▁dokumentus	-10.3984
▁analiz	-10.3992
▁lygiai	-10.4009
uojamos	-10.402
▁minimal	-10.4035
▁studentų	-10.4039
▁parengta	-10.4052
▁norėjo	-10.4054
▁veikėj	-10.4055
demokratinės	-10.4065
▁svarstymo	-10.4068
▁išreišk	-10.4072
▁galėdama	-10.4073
▁metodas	-10.4073
▁regionui	-10.4074
▁Tokios	-10.4089
darysime	-10.4095
▁pripažįstama	-10.4098
▁planuot	-10.4103
▁vakarą	-10.4104
▁modelio	-10.4109
▁rekomendacijų	-10.4115
▁nepateik	-10.4118
▁teksto	-10.4121
▁sprendžia	-10.4132
▁numatom	-10.4138
▁viešai	-10.4146
▁Tokiu	-10.4147
▁svarbesn	-10.4152
būtų	-10.4152
▁pabrėžė	-10.4155
▁Rom	-10.4156
▁vaisi	-10.4162
▁supaprastin	-10.4163
▁planus	-10.4174
▁liga	-10.4176
▁esminis	-10.4203
▁atitinkanči	-10.4249
imasi	-10.425
▁pilieči	-10.4252
▁pakartotin	-10.4253
▁pagrindo	-10.4256
▁pamatini	-10.4266
▁žym	-10.427
▁perėjim	-10.4271
gėd	-10.4285
▁konkrečia	-10.429
▁panaudoja	-10.43
▁istorin	-10.4302
▁aptarta	-10.4309
▁palank	-10.4322
▁stabili	-10.433
▁vadin	-10.4331
▁Par	-10.4348
daryti	-10.435
kuria	-10.4363
▁paskelbt	-10.4374
▁žiaur	-10.4377
▁nepritar	-10.4378
▁reng	-10.4384
tines	-10.4386
▁dėking	-10.4394
▁pradėj	-10.442
▁delegacija	-10.4427
OS	-10.4431
▁paaiškina	-10.4436
▁žodžiai	-10.4438
▁prioritetu	-10.4439
▁šalimi	-10.4441
▁protinga	-10.4442
RON	-10.4442
▁naudojama	-10.4443
▁patenkinta	-10.4444
PSE	-10.4451
▁lygina	-10.4453
▁politiniu	-10.4466
▁galv	-10.4479
▁skirtingos	-10.4481
▁nepriimtin	-10.4484
▁turėdam	-10.4484
▁praktin	-10.4487
▁aukštesni	-10.4498
ėjome	-10.4498
valstyb	-10.4508
reikėtų	-10.451
problema	-10.451
dirba	-10.4511
apie	-10.4515
▁svarstom	-10.4522
▁pasmerkt	-10.4526
▁kovoja	-10.4532
▁reglamentuoja	-10.4551
▁70	-10.4566
▁nepamirš	-10.4602
▁Gazo	-10.4624
▁kurd	-10.4625
AS	-10.4628
▁įvyks	-10.4629
▁konkuruo	-10.4629
▁sušvelnin	-10.4629
▁Makedonijos	-10.4629
▁Palestino	-10.4629
▁Rumunijoje	-10.4629
▁Solidarum	-10.4629
▁Sutartį	-10.4629
▁agentūrą	-10.4629
▁aplinkybių	-10.4629
▁apčiuopiam	-10.4629
▁atostogų	-10.4629
▁bruož	-10.4629
▁dalyką	-10.4629
▁dialogu	-10.4629
▁farmaci	-10.4629
▁gyventojus	-10.4629
▁idėjų	-10.4629
▁ilgalaikį	-10.4629
▁investicijos	-10.4629
▁išpuolių	-10.4629
▁lėšomis	-10.4629
▁migrantų	-10.4629
▁monopoli	-10.4629
▁nepilnameči	-10.4629
▁pacientams	-10.4629
▁pamiršta	-10.4629
▁pasauliui	-10.4629
▁pasitikėjimo	-10.4629
▁paskirstymo	-10.4629
▁pavojaus	-10.4629
▁persekioja	-10.4629
▁priežastys	-10.4629
▁pusiausvyros	-10.4629
▁ryšius	-10.4629
▁sankcijas	-10.4629
▁sankcijų	-10.4629
▁solidarumas	-10.4629
▁stebėsenos	-10.4629
▁sąjunginink	-10.4629
▁tyrimams	-10.4629
▁vizit	-10.4629
▁žingsniu	-10.4629
skaityti	-10.4629
▁Lietuv	-10.4629
▁koncentra	-10.4629
▁organizavim	-10.4629
▁paplit	-10.4629
▁rašytin	-10.4629
▁reiškinys	-10.4629
▁stamb	-10.4629
▁tyrimo	-10.4629
▁forum	-10.4629
▁Tibet	-10.4629
▁reikšmę	-10.4629
▁savaičių	-10.4629
▁Prašau	-10.4629
▁dinamišk	-10.4629
▁kryptis	-10.4629
▁susigrąžin	-10.4629
▁nukentėjusi	-10.4629
▁naujovišk	-10.4629
▁Atrodo	-10.4629
▁pagalvoti	-10.4629
▁nesvarbu	-10.463
▁vaistai	-10.463
▁pereinam	-10.463
▁viršūn	-10.463
▁cikl	-10.463
▁vandenyn	-10.463
kirst	-10.463
▁mokestin	-10.463
▁žinios	-10.463
▁prašoma	-10.463
▁nesutarim	-10.463
▁atidėti	-10.463
▁regionas	-10.463
▁Siekdam	-10.463
▁elektrinės	-10.463
▁kultūrų	-10.463
▁turk	-10.463
▁pataisym	-10.463
▁patraukl	-10.4631
▁daugiamet	-10.4631
▁prielaid	-10.4631
▁uždavinys	-10.4631
6-0	-10.4632
▁išraišk	-10.4633
▁koordinavimą	-10.4633
▁ženklinimo	-10.4633
▁prašyti	-10.4633
▁dalyvavimą	-10.4633
▁bendrovėms	-10.4634
▁uždavinių	-10.4634
▁realyb	-10.4634
▁sunkumus	-10.4635
▁operatoria	-10.4635
▁sunkumai	-10.4636
▁Karalystės	-10.4637
▁taikydam	-10.4637
▁garantuoti	-10.464
▁31	-10.464
ekija	-10.4641
tynų	-10.4642
▁švar	-10.4642
▁griežtesni	-10.4642
▁protekcionizm	-10.4644
▁emisij	-10.4647
▁galimybėmis	-10.465
▁įdiegti	-10.4651
▁pokyčiai	-10.4651
▁turting	-10.4651
▁procesui	-10.4653
galiojimo	-10.4654
▁pasiekėme	-10.4657
▁patirtis	-10.4661
▁įmones	-10.4661
▁patirtį	-10.4661
▁sakau	-10.4662
▁trukm	-10.4663
▁vyriausybei	-10.4664
▁pastebėti	-10.4664
▁Praėjusi	-10.4665
▁metinės	-10.4665
▁draudžiama	-10.4666
▁sutikti	-10.4667
▁rezoliucijų	-10.4668
▁turinį	-10.467
▁apriboti	-10.467
▁kalbėjote	-10.4671
▁balsavome	-10.4674
pirmininkaujanči	-10.4674
▁internete	-10.4682
▁laukti	-10.4683
▁energija	-10.4684
tojų	-10.4685
▁teismas	-10.4686
/2010	-10.4687
▁atsisakym	-10.4691
▁apginti	-10.4692
▁nepakankamai	-10.4697
▁turinio	-10.4697
▁raginame	-10.4698
▁nagrinėti	-10.4702
▁potvynių	-10.4703
ėmės	-10.4703
▁įstatymas	-10.4704
▁reikalai	-10.4704
▁prisijung	-10.4706
▁trūkumus	-10.4716
▁gars	-10.4716
ginio	-10.4716
▁veda	-10.4723
žius	-10.4739
▁veiksniai	-10.4744
▁veiksnių	-10.4745
▁komunikatą	-10.4747
▁Afganistano	-10.4747
▁paveldo	-10.4747
▁smurtu	-10.4749
▁gir	-10.4753
▁netinkamas	-10.4756
▁teisėtos	-10.4758
▁struktūrą	-10.4758
avau	-10.4761
▁svarbiau	-10.4767
▁sumažėjo	-10.4768
tarsi	-10.477
ekonomikos	-10.4777
▁pagrindinėm	-10.4778
▁vadinamoj	-10.4784
▁pavaduotoj	-10.4788
▁pradėtas	-10.4789
▁siejama	-10.4803
▁baigtas	-10.4807
▁būtinybė	-10.4817
▁lemiam	-10.4822
▁padidėjo	-10.4827
▁Praneš	-10.4857
▁special	-10.4858
▁rėmė	-10.4863
▁frakcij	-10.4869
▁įprasta	-10.4873
▁biudžete	-10.4877
▁prezidentas	-10.4879
▁lėt	-10.4879
▁priimam	-10.4908
▁tinklus	-10.4917
▁keičiama	-10.4923
▁įstatymai	-10.4933
▁duoti	-10.4933
▁keliais	-10.4934
▁nepriklausomą	-10.4941
▁noras	-10.4941
▁vart	-10.4942
▁sulaikym	-10.4951
▁bad	-10.497
▁ignoruoja	-10.499
▁sugebėsi	-10.4999
09	-10.5005
▁institucin	-10.5011
įvair	-10.5017
▁pakartoti	-10.5021
Komisijos	-10.5022
iniams	-10.5024
▁turinčios	-10.5031
▁įsitikin	-10.5057
▁vieninga	-10.5073
▁pelno	-10.5082
čioji	-10.5118
UR	-10.5132
▁socialiniai	-10.5134
arba	-10.5136
▁išorini	-10.5163
▁nacionaline	-10.5164
▁atitinkamos	-10.5169
iojo	-10.5181
▁sąžininga	-10.5196
▁Pagrindin	-10.5198
▁kolektyvini	-10.5208
▁biurokrat	-10.521
▁tvirtina	-10.5223
▁platesn	-10.5224
▁grąžin	-10.5236
▁vykdomą	-10.5245
▁San	-10.5249
▁vartojam	-10.5252
zon	-10.5255
▁Baigdama	-10.5272
▁laisve	-10.5273
▁didėj	-10.5274
▁sieja	-10.5277
▁nutraukim	-10.5278
▁didesnė	-10.5289
▁paskol	-10.5299
▁įgyvendint	-10.5306
▁infrastruktūr	-10.5312
▁leidžiam	-10.5321
▁aplinka	-10.5327
▁Afganistan	-10.5336
▁paveld	-10.5336
KK	-10.5345
▁ypatinga	-10.5349
▁prisijungim	-10.5351
▁turėj	-10.5355
▁dirbanči	-10.5355
▁Diskusij	-10.5378
▁neteisinga	-10.5379
▁skelbiam	-10.5386
▁erdv	-10.5417
▁terš	-10.544
▁įvykd	-10.5446
▁svar	-10.5453
osėdžio	-10.546
▁makro	-10.5463
AIDS	-10.5463
skaičiav	-10.5463
▁Schulz	-10.5463
▁Stokholm	-10.5463
▁iškraip	-10.5463
▁prisiėm	-10.5463
nutraukkalbėtoją	-10.5463
▁Dunoj	-10.5463
▁EIB	-10.5463
▁Graikijoje	-10.5463
▁Hercegovin	-10.5463
▁Komisijoje	-10.5463
▁Kroatija	-10.5463
▁Meksik	-10.5463
▁Vokietija	-10.5463
▁apgailestauti	-10.5463
▁dalytis	-10.5463
▁darbotvarkėje	-10.5463
▁diskusijomis	-10.5463
▁dujotieki	-10.5463
▁gynėj	-10.5463
▁imigracija	-10.5463
▁investicijoms	-10.5463
▁istoriją	-10.5463
▁konvenciją	-10.5463
▁korupcija	-10.5463
▁lanksči	-10.5463
▁mokestis	-10.5463
▁nedelsdam	-10.5463
▁neramum	-10.5463
▁nesupranta	-10.5463
▁pacientai	-10.5463
▁prasideda	-10.5463
▁premij	-10.5463
▁reglamente	-10.5463
▁reguliavimą	-10.5463
▁siaubing	-10.5463
▁skurdas	-10.5463
▁smerkia	-10.5463
▁sritims	-10.5463
▁studij	-10.5463
▁supratimo	-10.5463
▁tarnybų	-10.5463
▁tarpinstitucin	-10.5463
▁termino	-10.5463
▁turbūt	-10.5463
▁vystyti	-10.5463
▁įgaliojimų	-10.5463
▁ūkių	-10.5463
▁PVM	-10.5463
▁išimčių	-10.5463
▁prašymų	-10.5463
▁sutrik	-10.5463
▁kvotų	-10.5463
▁kūrimą	-10.5463
▁apskait	-10.5463
▁Antroj	-10.5463
▁Pirmininkaujan	-10.5463
▁byla	-10.5463
▁signalas	-10.5463
▁vaistus	-10.5463
▁vertybės	-10.5463
▁derėtų	-10.5463
▁naudodam	-10.5463
▁nebėra	-10.5463
▁susirinkim	-10.5463
▁sutarčiai	-10.5463
EGF	-10.5463
▁Tikimės	-10.5463
▁skland	-10.5463
▁tariama	-10.5463
▁pajamos	-10.5463
▁paneig	-10.5463
▁telefon	-10.5463
▁Irane	-10.5463
▁rajon	-10.5463
▁projekte	-10.5463
▁konsultacijų	-10.5463
▁dvejop	-10.5463
▁atrank	-10.5463
SIS	-10.5463
▁praranda	-10.5463
▁real	-10.5463
▁gamtini	-10.5463
▁džiaugiamės	-10.5463
▁žodžių	-10.5464
▁technologijos	-10.5464
▁geneti	-10.5464
▁gaisr	-10.5464
sugeba	-10.5464
▁zoną	-10.5464
▁Nacionalin	-10.5464
▁nepalankiausi	-10.5464
▁pasisakym	-10.5464
▁mastą	-10.5465
▁balsuojama	-10.5465
▁pasirašyti	-10.5466
▁pažeidimas	-10.5467
▁išties	-10.5468
▁taisyklėmis	-10.5468
▁susitarime	-10.5469
▁nepritariu	-10.5469
▁Keli	-10.547
▁neįgal	-10.547
▁29	-10.5472
▁radi	-10.5473
▁atskirtimi	-10.5473
▁mokymą	-10.5474
▁patvirtinimas	-10.5474
▁naujien	-10.5474
▁salėje	-10.5474
▁kritika	-10.5475
DA	-10.5475
▁patvirtinimą	-10.5476
▁negalės	-10.5476
merio	-10.5476
▁mėsos	-10.5478
▁Teismas	-10.5479
▁sakėte	-10.5479
▁miestuose	-10.5479
▁Kopenhagoje	-10.548
▁sudarant	-10.5482
▁pateiksiu	-10.5482
▁Vaik	-10.5482
▁pirmiau	-10.5483
▁darbai	-10.5486
▁peržiūrėti	-10.5487
▁laipsniškai	-10.5487
▁tvarumo	-10.5488
▁Estij	-10.5489
▁indėlis	-10.5489
▁užima	-10.549
▁Pateik	-10.5494
▁tikimasi	-10.5495
▁ketin	-10.5498
▁baisi	-10.5498
▁įtikinti	-10.5508
▁pažiūr	-10.5509
▁atsakingai	-10.5509
▁kompetenting	-10.5512
▁balt	-10.5512
▁tęsiam	-10.5513
▁apmokestinimo	-10.5523
▁sutinkame	-10.5525
▁oficialiai	-10.5534
▁verslui	-10.5547
▁nutrauk	-10.5552
▁infrastruktūrą	-10.5552
▁nutraukta	-10.5555
▁pagrindinį	-10.5573
teisė	-10.5577
▁tautos	-10.5581
▁leidėj	-10.5587
▁daugumą	-10.5593
▁aiškinim	-10.5593
▁tvarios	-10.56
▁mechanizmas	-10.5605
▁panaikinta	-10.5629
▁sukčiavimu	-10.5632
▁surengta	-10.5632
▁tėvai	-10.5632
oliau	-10.5632
▁tiesa	-10.5638
▁sėkmingas	-10.566
▁planuoja	-10.5682
▁žiniasklaida	-10.5692
▁Sal	-10.5701
bor	-10.5702
▁rekomenduojam	-10.5718
▁būtinos	-10.5718
▁Negali	-10.5718
▁dvišaliu	-10.5725
▁dalyvaujanči	-10.5742
▁praras	-10.5755
▁sveikin	-10.5765
▁ieškot	-10.5785
SA	-10.5788
▁pažeidžia	-10.579
▁skyriu	-10.5792
▁dirb	-10.5794
tiksl	-10.5798
▁palengvin	-10.5803
TA	-10.5814
▁Br	-10.5831
▁teigini	-10.5831
▁aiškina	-10.5831
▁priešingu	-10.5834
▁rodikliai	-10.5835
▁patvirtintos	-10.5844
▁nesilaik	-10.5844
▁pažvelgt	-10.5848
▁nukreipta	-10.5857
▁įsitikinim	-10.5858
▁struktūra	-10.5875
reikia	-10.5882
▁kontroliuojam	-10.5982
▁atskiros	-10.5983
▁nacionalin	-10.5985
▁straipsniu	-10.6002
▁kredit	-10.6003
▁saugesn	-10.6005
▁grupė	-10.6014
▁tikslin	-10.6015
ėjimu	-10.6027
siųsti	-10.6078
▁laikant	-10.6084
ški	-10.6125
▁gamintoj	-10.6157
▁ligo	-10.6164
▁sureng	-10.6164
integracija	-10.6169
augumo	-10.6173
▁Tarp	-10.6184
▁grąžinim	-10.6195
▁išgyven	-10.6199
▁baigta	-10.6203
▁įsitikinę	-10.6206
▁saugumu	-10.6207
▁Atsižvelgdam	-10.6207
▁imigrant	-10.6209
▁persvarstyt	-10.6211
▁ligon	-10.6237
▁palikt	-10.6248
priklauso	-10.6251
priemon	-10.6252
▁sutart	-10.6253
▁užmoj	-10.6256
▁Nuolat	-10.6257
▁Komisar	-10.6262
▁reikš	-10.6283
▁valdy	-10.6284
▁kompromis	-10.6286
▁mažuma	-10.6292
▁vietoj	-10.6306
▁sritys	-10.6307
▁Britanij	-10.6308
▁neatsi	-10.6315
▁siekianči	-10.6322
▁užbaigt	-10.6325
▁Gra	-10.6327
▁situacij	-10.635
▁nustatoma	-10.6352
partneryst	-10.6354
▁rūš	-10.636
prekyb	-10.6369
▁diskrimin	-10.6371
▁Liberal	-10.6372
▁Slovėnijo	-10.6372
▁chartija	-10.6372
▁išdėstyti	-10.6372
▁konkurent	-10.6372
▁nereikaling	-10.6372
▁nerimauj	-10.6372
▁palestinieči	-10.6372
▁prieglobst	-10.6372
▁pusiausvyra	-10.6372
▁rezerv	-10.6372
▁trišal	-10.6372
▁Afrika	-10.6372
▁Islandij	-10.6372
▁Ispanijoje	-10.6372
▁Kankūn	-10.6372
▁Konvencij	-10.6372
▁Pramonės	-10.6372
▁Respublika	-10.6372
▁Rūmuose	-10.6372
▁Turkijoje	-10.6372
▁Venesuel	-10.6372
▁alkoholio	-10.6372
▁apytikri	-10.6372
▁atspindi	-10.6372
▁atvejį	-10.6372
▁dimensij	-10.6372
▁gydym	-10.6372
▁horizontal	-10.6372
▁individ	-10.6372
▁institut	-10.6372
▁išbandym	-10.6372
▁išsilavinim	-10.6372
▁jurisdikcij	-10.6372
▁kariuomen	-10.6372
▁ketvirtadienį	-10.6372
▁kontakt	-10.6372
▁lobist	-10.6372
▁migracija	-10.6372
▁nedarbas	-10.6372
▁neoficial	-10.6372
▁novatorišk	-10.6372
▁paminėjo	-10.6372
▁pasaulį	-10.6372
▁pasibaig	-10.6372
▁pasirinkimo	-10.6372
▁pasiryžim	-10.6372
▁paslaugoms	-10.6372
▁pastabų	-10.6372
▁pastangomis	-10.6372
▁piršt	-10.6372
▁prekės	-10.6372
▁prevenciją	-10.6372
▁redakcij	-10.6372
▁reglamentavimo	-10.6372
▁reklamos	-10.6372
▁represij	-10.6372
▁sektoriuose	-10.6372
▁tragišk	-10.6372
▁užmokest	-10.6372
▁valdysenos	-10.6372
▁verslą	-10.6372
▁vokieči	-10.6372
▁įsipareigojimas	-10.6372
▁įvaikinim	-10.6372
▁įvykti	-10.6372
▁Škotij	-10.6372
▁žodis	-10.6372
orientacij	-10.6372
▁Septint	-10.6372
▁mėlyn	-10.6372
▁skandal	-10.6372
▁statykl	-10.6372
▁taršą	-10.6372
▁užkerta	-10.6372
▁spektr	-10.6372
▁minučių	-10.6372
▁sesijos	-10.6372
▁tęsiasi	-10.6372
▁akmen	-10.6372
▁arabų	-10.6372
▁banan	-10.6372
▁gairės	-10.6372
▁Haičio	-10.6372
▁Atlant	-10.6372
▁laikymosi	-10.6372
▁nusikaltėl	-10.6372
▁atstum	-10.6372
▁spaudimo	-10.6372
TVF	-10.6372
▁grandinė	-10.6372
▁biuro	-10.6372
▁taikymas	-10.6372
▁Jemen	-10.6372
▁partnerystę	-10.6372
▁Stavr	-10.6372
▁žvejyba	-10.6372
▁laivyn	-10.6372
▁kūrimu	-10.6372
▁paskata	-10.6372
▁ištirti	-10.6372
▁keliauja	-10.6373
▁vyrai	-10.6373
▁bang	-10.6373
▁prasmės	-10.6373
teityje	-10.6373
▁Lank	-10.6373
▁negalėjo	-10.6373
▁pasitaik	-10.6373
▁užduotį	-10.6373
▁mažumos	-10.6373
▁spart	-10.6373
▁dešin	-10.6373
▁priklausomybę	-10.6374
▁kelionių	-10.6374
▁plot	-10.6374
▁nustatymo	-10.6375
▁tele	-10.6375
▁galvoja	-10.6375
▁nukentėjo	-10.6375
▁Priešingai	-10.6375
▁susitelk	-10.6376
▁įrodo	-10.6376
▁lenk	-10.6377
▁viduri	-10.6377
▁pažeidimo	-10.6377
▁įstot	-10.6377
▁atima	-10.6377
▁varom	-10.6379
nepriklausomybės	-10.6379
BG	-10.6379
▁nuspręsta	-10.6379
ohn	-10.638
▁trim	-10.6381
▁pasirūpinti	-10.6381
▁sutaupyti	-10.6381
▁savęs	-10.6382
▁ekonomiškai	-10.6382
ND	-10.6383
▁teikimas	-10.6383
▁balsuoj	-10.6385
▁normų	-10.6386
▁konferenciją	-10.6386
▁grupėms	-10.6386
▁skubiau	-10.6388
▁nuoroda	-10.6389
▁dvide	-10.6389
▁pasiektume	-10.6392
▁dvišalių	-10.6392
▁tobulinti	-10.6394
▁liks	-10.6394
▁pripažinimo	-10.6395
▁reikalavo	-10.6396
▁dalijim	-10.64
▁roj	-10.6402
▁nelygybę	-10.6403
▁veiksmingumo	-10.6404
▁įkurt	-10.6405
▁pasakėte	-10.6406
▁svarbesnis	-10.6406
mainų	-10.6406
▁referentas	-10.6409
▁pritarimo	-10.6409
▁patekim	-10.6411
the	-10.6413
▁gaminam	-10.6414
▁perdavimas	-10.6416
▁testavim	-10.6419
▁perkėlimas	-10.6422
matau	-10.6425
▁teigti	-10.6427
▁Juo	-10.6438
▁mažinant	-10.6439
▁elektroninė	-10.6453
fon	-10.6475
▁priešingai	-10.6479
▁norite	-10.6484
▁nuodugnia	-10.649
▁atlikus	-10.6496
▁pasmerk	-10.6496
▁smulk	-10.6502
▁įtraukiam	-10.6506
nčiam	-10.6507
▁reikalams	-10.6509
▁vyriausioj	-10.6517
▁pasauliniu	-10.6519
▁keliamas	-10.6526
▁pajėgos	-10.6528
▁patenkin	-10.6537
▁masini	-10.6539
▁sakė	-10.6557
▁operacijos	-10.656
▁vadovauja	-10.657
▁Sie	-10.6591
▁įsitrauk	-10.6601
▁iniciatyv	-10.6653
▁atliekant	-10.6665
▁faktai	-10.6678
▁mokslin	-10.6681
▁paminėta	-10.6684
▁tekstu	-10.6703
ert	-10.6705
▁apsaugot	-10.6706
▁moralin	-10.6706
▁ketinimai	-10.6708
▁skirstym	-10.6716
ėlių	-10.6718
▁remiu	-10.6729
▁apibrėžia	-10.6745
niam	-10.6754
▁planai	-10.6767
▁nviena	-10.6768
▁atrod	-10.6769
▁greičiausi	-10.6774
▁kritiška	-10.678
mokyti	-10.6808
PO	-10.6812
▁pagerin	-10.6814
▁plenariniam	-10.6834
▁paskelbė	-10.6841
▁buv	-10.6846
▁elementai	-10.6852
▁kalbėdam	-10.6869
▁keitimas	-10.6886
▁pakalbė	-10.6901
▁padidinta	-10.693
▁atstovavim	-10.6934
žvelgti	-10.6961
▁papildomai	-10.6968
▁pasinaudoja	-10.6984
▁CE	-10.7004
▁simboli	-10.7025
▁biologinė	-10.7043
▁ekonominiam	-10.7057
▁internet	-10.706
leidžiant	-10.7072
skiriant	-10.7078
krov	-10.7095
▁teigė	-10.7126
▁balsavimu	-10.7126
▁liberal	-10.7127
▁demokrat	-10.7146
10	-10.7148
▁Dal	-10.7153
▁išnagrinėt	-10.7179
▁komitetu	-10.7204
▁spekuli	-10.7204
▁organizuo	-10.7209
▁darbin	-10.7211
▁vyrauja	-10.7226
▁rat	-10.7243
kontrol	-10.725
Š	-10.7251
pagalba	-10.7252
ekonomin	-10.7253
sistema	-10.7253
▁viešąj	-10.7254
▁iššūkiai	-10.7257
11	-10.7261
umėte	-10.7263
▁žodin	-10.7265
▁aspektu	-10.7269
atsak	-10.727
▁miršta	-10.7272
▁asamblėj	-10.729
▁regioniniu	-10.73
▁konkurencin	-10.7305
greit	-10.7308
▁nagrinėja	-10.7311
▁įrang	-10.7313
steigti	-10.7318
▁meto	-10.7324
plėsti	-10.7333
region	-10.7337
▁donor	-10.7337
program	-10.7344
▁įdieg	-10.7344
formuoja	-10.7344
naudota	-10.7344
▁pareikš	-10.7344
▁pasiekia	-10.7349
grąž	-10.7352
įvairov	-10.7354
▁teror	-10.7354
▁aktyviau	-10.7358
▁nukentė	-10.7369
▁skurdži	-10.7369
sitiki	-10.737
tragedija	-10.7372
įspūdis	-10.7372
▁Albanij	-10.7372
▁Apskritai	-10.7372
▁Baltarusijoje	-10.7372
▁Italija	-10.7372
▁Kinijoje	-10.7372
▁Liuksemburg	-10.7372
▁OLAF	-10.7372
▁Portugalijoje	-10.7372
▁Rezoliucij	-10.7372
▁Sanglaudos	-10.7372
▁Susitarim	-10.7372
▁aktualu	-10.7372
▁biodegal	-10.7372
▁dalyviai	-10.7372
▁dalyvių	-10.7372
▁derėtis	-10.7372
▁diskusijoms	-10.7372
▁diskutavo	-10.7372
▁ekspertų	-10.7372
▁formos	-10.7372
▁formą	-10.7372
▁formų	-10.7372
▁gamykl	-10.7372
▁ilgalaike	-10.7372
▁interpret	-10.7372
▁keleri	-10.7372
▁kompensuo	-10.7372
▁konservatori	-10.7372
▁konsultacijos	-10.7372
▁ministrai	-10.7372
▁nesėkming	-10.7372
▁orientuot	-10.7372
▁pabaiga	-10.7372
▁padengti	-10.7372
▁padidės	-10.7372
▁pasiruošę	-10.7372
▁pasitikėjimas	-10.7372
▁pasiūlymams	-10.7372
▁pavyzdin	-10.7372
▁pavėluot	-10.7372
▁perdirbim	-10.7372
▁praktiką	-10.7372
▁prasidėjus	-10.7372
▁pražūting	-10.7372
▁prekėms	-10.7372
▁prevencija	-10.7372
▁problemoms	-10.7372
▁ratifikavo	-10.7372
▁ratifikuoti	-10.7372
▁rinkimams	-10.7372
▁sisteminga	-10.7372
▁sunkvežimi	-10.7372
▁susidoroti	-10.7372
▁svyravim	-10.7372
▁sąjungų	-10.7372
▁sąnaudas	-10.7372
▁tendencija	-10.7372
▁tradicini	-10.7372
▁tranzit	-10.7372
▁užsibrėž	-10.7372
▁vertybėms	-10.7372
▁vežėj	-10.7372
▁įgūdžius	-10.7372
▁įrodymų	-10.7372
▁įsipareigojimai	-10.7372
▁įžeidim	-10.7372
▁švietimas	-10.7372
▁Juodkalnij	-10.7372
▁Kubos	-10.7372
▁Moksl	-10.7372
▁PNR	-10.7372
▁Prekyb	-10.7372
▁Veiksm	-10.7372
▁atmosfer	-10.7372
▁konvergencij	-10.7372
▁kvotas	-10.7372
▁kvotos	-10.7372
▁ministru	-10.7372
▁nepageidaujam	-10.7372
▁neutrali	-10.7372
▁paskirstyt	-10.7372
▁radioaktyvi	-10.7372
▁steigi	-10.7372
▁vartojimą	-10.7372
▁šalutin	-10.7372
▁Dažn	-10.7372
▁ateičiai	-10.7372
▁aukomis	-10.7372
▁didinimą	-10.7372
▁dvasia	-10.7372
▁kapitalizm	-10.7372
▁logiška	-10.7372
▁posėdį	-10.7372
▁prasming	-10.7372
▁tyrimas	-10.7372
▁įsipareigojusi	-10.7372
▁atmesti	-10.7372
▁mažumoms	-10.7372
▁objektyv	-10.7372
▁Korėja	-10.7372
▁chemin	-10.7372
▁gynim	-10.7372
▁valdanči	-10.7372
▁vežim	-10.7372
▁avių	-10.7372
▁Deryb	-10.7372
▁apgaul	-10.7372
▁pagreitint	-10.7372
▁šiuolaikin	-10.7372
▁Kelet	-10.7372
▁komisar	-10.7372
▁nekalt	-10.7372
▁eurą	-10.7372
▁krypčių	-10.7372
▁imsis	-10.7372
▁taikymą	-10.7372
▁imamasi	-10.7372
▁reagavim	-10.7372
▁sakydama	-10.7372
▁gelbėjimo	-10.7372
▁mėnesio	-10.7372
▁kadenciją	-10.7372
▁mikro	-10.7372
▁Manuel	-10.7372
▁Nieka	-10.7372
▁atsitiko	-10.7372
▁Doho	-10.7372
▁bendruomenių	-10.7372
▁dirvožemi	-10.7372
▁švent	-10.7372
▁arenoje	-10.7372
▁sutarimą	-10.7372
▁jautri	-10.7372
▁kūn	-10.7372
▁suderinamum	-10.7372
▁prisitaikyti	-10.7372
sausumos	-10.7372
▁prieigos	-10.7372
▁Artim	-10.7373
▁pasinaudodam	-10.7373
▁krašt	-10.7373
▁Pritaria	-10.7373
▁statusą	-10.7373
vykdymą	-10.7374
▁viršutin	-10.7374
▁prašytoj	-10.7374
ronte	-10.7374
▁statuso	-10.7374
▁skaidrumu	-10.7374
▁2003	-10.7374
▁dingst	-10.7374
▁išimtis	-10.7374
▁vaidin	-10.7374
▁precedento	-10.7374
▁bijau	-10.7374
▁Kalbu	-10.7375
▁mandat	-10.7375
▁vaiko	-10.7375
▁pažymėjo	-10.7376
▁siūlyti	-10.7376
▁susitikimų	-10.7376
▁abu	-10.7377
▁dokumentuose	-10.7377
▁Brok	-10.7377
▁skyl	-10.7377
▁atsilieka	-10.7377
▁absurdiška	-10.7378
▁2002	-10.7378
▁atokiausi	-10.7378
konkurencingumui	-10.7378
▁197	-10.7379
▁nepripažįsta	-10.7379
▁paprašy	-10.7379
▁Api	-10.7379
▁supaprastinimo	-10.738
▁peržiūros	-10.738
▁pilietis	-10.7381
▁netikr	-10.7381
▁Nesu	-10.7382
▁išlaisvinti	-10.7382
▁kelyje	-10.7382
▁rinktis	-10.7382
▁baudžiamosios	-10.7383
▁pasirašiusi	-10.7383
▁Pasiūlym	-10.7384
▁atominės	-10.7384
▁formuoti	-10.7384
▁kaln	-10.7385
▁28	-10.7386
IF	-10.7386
▁laukiu	-10.7387
▁namuose	-10.7387
dalyvautų	-10.7387
▁jaunimas	-10.7389
▁pusėje	-10.739
▁teisingumą	-10.7391
▁nusto	-10.7391
▁sunaikin	-10.7392
asdešimt	-10.7392
▁prižiūrėti	-10.7392
▁susitarta	-10.7392
▁grįžta	-10.7393
▁atskirties	-10.7393
▁produktams	-10.7393
▁sutaria	-10.7393
▁įgij	-10.7393
▁prisiminti	-10.7394
SL	-10.7397
▁girdime	-10.7397
▁laivams	-10.7398
▁skatinimas	-10.7399
▁komisijos	-10.7399
▁Dvi	-10.74
▁analizę	-10.7401
▁lytin	-10.7401
▁geografini	-10.7402
▁esmę	-10.7402
▁pratęst	-10.7402
▁reikšti	-10.7404
▁Maž	-10.7406
▁uostuose	-10.7406
▁skyrių	-10.7408
▁minėjote	-10.7409
▁teismą	-10.741
▁bazę	-10.7411
▁Maist	-10.7416
▁eksploatavim	-10.7416
▁Kartais	-10.7425
▁jūrin	-10.7426
▁pirmininkavusi	-10.7429
▁veiktų	-10.7429
▁narį	-10.743
▁kandidatės	-10.7441
▁geresnės	-10.7441
▁deramai	-10.7442
▁leidimais	-10.7451
▁padedant	-10.7452
▁Dimas	-10.7454
▁75	-10.7462
▁apsirūpinim	-10.7463
▁Kur	-10.7472
▁netinkamai	-10.7474
▁lėm	-10.7484
▁sutarta	-10.7494
▁Il	-10.7496
▁sumažint	-10.7497
▁kompromisu	-10.75
▁geografinė	-10.7504
laikymas	-10.7513
▁pristaty	-10.752
▁abipus	-10.7579
▁knygos	-10.7583
▁pareiškimu	-10.7588
▁nuolaid	-10.7596
▁dalyvavusi	-10.761
▁vartoja	-10.7637
▁antrąj	-10.7658
▁išplėst	-10.7662
pritaikyt	-10.7666
▁atsižvelgdam	-10.7667
▁puoselė	-10.768
▁biurokratin	-10.7681
▁analizė	-10.7697
▁simbolin	-10.7731
ktyvi	-10.774
▁palankesn	-10.7764
▁ima	-10.7795
▁neatsižvelg	-10.7817
konkurencingumas	-10.7853
sprendžia	-10.7883
▁tokiom	-10.789
tinkama	-10.7913
ET	-10.7941
▁nvien	-10.8055
liktų	-10.806
30	-10.8124
142	-10.8128
▁palydov	-10.8132
▁atskirt	-10.8135
▁nariu	-10.8137
▁veiksni	-10.8155
▁keliam	-10.8157
▁teritorija	-10.8171
skirti	-10.8171
▁polit	-10.8178
▁delegacijo	-10.8194
▁pristat	-10.8213
/2008	-10.8215
▁pageidauja	-10.8256
▁audit	-10.8267
▁dokumentu	-10.8283
▁tikėti	-10.8291
dymas	-10.8299
▁duoda	-10.8317
▁šalia	-10.8319
▁iešk	-10.8328
▁pranešėju	-10.8344
daromos	-10.8345
kelti	-10.8347
▁aljans	-10.8359
pozicija	-10.8364
Į	-10.8364
sunki	-10.8364
BŽ	-10.8365
gauna	-10.8377
inėti	-10.8382
dymą	-10.8389
▁neketin	-10.8403
▁ekologin	-10.8403
▁199	-10.8405
▁struktūriniai	-10.8419
▁jokia	-10.8424
▁atsisakyt	-10.8424
duj	-10.8426
▁pažeid	-10.846
▁tiesia	-10.8462
protokol	-10.8466
pasieksime	-10.8468
▁absurd	-10.8476
uvininkystės	-10.8481
▁elektronin	-10.8482
▁formul	-10.8482
▁nepalanki	-10.8483
▁nevykd	-10.8483
▁Konstitucin	-10.8483
▁akademi	-10.8483
▁augintoj	-10.8483
▁infliacij	-10.8483
▁inicijuot	-10.8483
▁maksimal	-10.8483
▁naudotoj	-10.8483
▁nepajėg	-10.8483
▁nesugebėjo	-10.8483
▁prevencin	-10.8483
▁suplanuot	-10.8483
▁susitaikym	-10.8483
▁įpareigojim	-10.8483
išgirdau	-10.8483
mąstyti	-10.8483
▁Barnier	-10.8483
▁Barselono	-10.8483
▁Kalbėdam	-10.8483
▁Korėjos	-10.8483
▁Kultūr	-10.8483
▁Madagaskar	-10.8483
▁Pakistane	-10.8483
▁Paslaug	-10.8483
▁Problem	-10.8483
▁Rytuose	-10.8483
▁Slovakija	-10.8483
▁Strategij	-10.8483
▁Sutartis	-10.8483
▁Tajani	-10.8483
▁Teigiama	-10.8483
▁Ukrainoje	-10.8483
▁Vengrijoje	-10.8483
▁aktuali	-10.8483
▁amžiuje	-10.8483
▁apgailestauja	-10.8483
▁arešto	-10.8483
▁atlyginimu	-10.8483
▁deleguot	-10.8483
▁diagnoz	-10.8483
▁draudima	-10.8483
▁džiaugtis	-10.8483
▁girdėjome	-10.8483
▁ilgalaikę	-10.8483
▁imperialistin	-10.8483
▁investavim	-10.8483
▁iššūkį	-10.8483
▁kilmę	-10.8483
▁kliūtys	-10.8483
▁komitetą	-10.8483
▁kruopščia	-10.8483
▁liberalizavimo	-10.8483
▁licencij	-10.8483
▁medžiaga	-10.8483
▁ministre	-10.8483
▁mokestį	-10.8483
▁nenumatyt	-10.8483
▁nusiteikę	-10.8483
▁palaipsniui	-10.8483
▁palūkanų	-10.8483
▁pasidžiaugti	-10.8483
▁pasirengti	-10.8483
▁pasirinkimą	-10.8483
▁platform	-10.8483
▁prekes	-10.8483
▁prekiauja	-10.8483
▁referendumas	-10.8483
▁referendumą	-10.8483
▁rūpestį	-10.8483
▁slypi	-10.8483
▁sustiprins	-10.8483
▁suverenum	-10.8483
▁suvienyt	-10.8483
▁sąjungą	-10.8483
▁sąnaudos	-10.8483
▁taupyti	-10.8483
▁terminą	-10.8483
▁trečiadienį	-10.8483
▁uždrausta	-10.8483
▁užmegzt	-10.8483
▁viduryje	-10.8483
▁vyktų	-10.8483
▁įgūdžių	-10.8483
▁įpareigot	-10.8483
▁Švedija	-10.8483
▁Alzh	-10.8483
▁Rusijoje	-10.8483
▁atsitinka	-10.8483
▁bylos	-10.8483
▁palaikymą	-10.8483
▁susidurt	-10.8483
▁užteršt	-10.8483
▁lyderė	-10.8483
▁nešališk	-10.8483
▁plačiajuos	-10.8483
▁priimdama	-10.8483
▁prisimena	-10.8483
▁sieną	-10.8483
▁Tiesiog	-10.8483
▁darbininkų	-10.8483
▁moters	-10.8483
▁Klausim	-10.8483
▁žvejybą	-10.8483
siskolin	-10.8483
▁Suomij	-10.8483
▁politikų	-10.8483
▁reaktori	-10.8483
▁surinkim	-10.8483
stebėjau	-10.8483
▁mokymas	-10.8483
▁rūpesči	-10.8483
▁Inter	-10.8483
▁valdžią	-10.8483
▁klaidinanči	-10.8483
▁vertybini	-10.8483
▁balsuosime	-10.8483
▁matydama	-10.8483
▁nuostab	-10.8483
▁rūšies	-10.8483
plečia	-10.8483
prilygs	-10.8483
▁investuotojams	-10.8483
▁sumokėti	-10.8483
▁neatsaking	-10.8483
▁graž	-10.8483
▁sumažės	-10.8483
▁brangi	-10.8483
▁išdavimo	-10.8483
▁įteisin	-10.8483
▁žudym	-10.8483
▁galvoti	-10.8483
▁daikt	-10.8484
▁gavę	-10.8484
▁neveikia	-10.8484
▁trans	-10.8484
▁požiūriai	-10.8484
▁viza	-10.8484
▁aukos	-10.8484
staiga	-10.8484
▁tebe	-10.8484
▁vėliav	-10.8484
▁Regioninės	-10.8484
▁derybin	-10.8484
▁atsidavim	-10.8484
▁skurde	-10.8485
▁kalbėjau	-10.8485
atskleid	-10.8485
▁nusikalstamumu	-10.8485
▁kančias	-10.8486
▁bankai	-10.8486
▁didinimo	-10.8486
▁prašymo	-10.8486
▁Paskutini	-10.8486
▁buvęs	-10.8486
▁elgiam	-10.8487
▁elit	-10.8487
▁partneriams	-10.8487
▁susitvarkyti	-10.8488
▁biurokratijos	-10.8488
▁Gerbiamas	-10.8489
kties	-10.8489
▁pažeidimą	-10.8489
▁kartoju	-10.8489
▁Buvusi	-10.849
▁raid	-10.849
▁susitikimui	-10.849
▁žala	-10.849
▁grasin	-10.849
▁padėtume	-10.849
▁jaunimui	-10.8491
▁nurodoma	-10.8491
▁žengtas	-10.8492
▁apsisprendim	-10.8492
▁baudžiamojo	-10.8493
▁balsuojant	-10.8494
▁panaikintos	-10.8494
▁buvein	-10.8495
▁reikštų	-10.8495
▁būdinga	-10.8496
▁sugrįž	-10.8496
▁paktą	-10.8496
iečiai	-10.8497
▁susirūpinimas	-10.8498
▁sukūrimas	-10.8498
▁įsigaliojimo	-10.8498
▁abipusiškum	-10.8498
▁gerinimo	-10.8499
▁raginamos	-10.8499
▁susitarimuose	-10.8499
▁komunist	-10.85
▁sukūrimo	-10.85
▁Neturi	-10.8501
▁sukūrimą	-10.8501
▁neturtingiausi	-10.8502
▁pateisinama	-10.8503
▁atnaujinimo	-10.8503
Posėd	-10.8504
▁gerinant	-10.8505
▁35	-10.8505
▁nuostatomis	-10.8505
▁nepritariame	-10.8507
▁patikinti	-10.8507
▁kovojama	-10.8508
▁panaikinimas	-10.8508
▁sumažinimo	-10.8509
▁gavo	-10.8514
▁skirtumas	-10.8514
▁Kovo	-10.8515
▁grėsmių	-10.8517
▁pabrėžta	-10.8524
▁priėmimas	-10.8528
▁padarėme	-10.8529
▁klaidinga	-10.8531
▁priėmimą	-10.8537
▁pritariama	-10.8539
▁ribo	-10.8541
▁Tikra	-10.8551
▁pusių	-10.8563
▁atleidim	-10.8564
▁jausti	-10.8567
▁tvirtesni	-10.8568
▁Centrini	-10.8569
▁pakran	-10.8584
▁didėjant	-10.8627
▁pareiškė	-10.8629
▁pagerinta	-10.8629
▁vystomoj	-10.8637
vandenili	-10.8653
laukia	-10.8662
▁vieningo	-10.8663
▁pastatyt	-10.8678
▁praleist	-10.8683
▁atstovaujama	-10.8703
▁pageidaujam	-10.8715
▁šešėliniam	-10.8715
▁mirtin	-10.8716
▁Centrinė	-10.8733
naudoti	-10.8743
▁baigiam	-10.8751
▁lengv	-10.8765
▁Didžioj	-10.8767
uosiuos	-10.8774
▁auganči	-10.8775
▁pakeista	-10.8786
▁dabartiniam	-10.8802
Hamas	-10.8805
▁įvairiai	-10.8829
▁patobulinim	-10.8836
▁kolektyvin	-10.8839
▁prisiima	-10.8848
▁išrink	-10.8864
muni	-10.8868
ketinama	-10.8883
▁90	-10.8886
būtina	-10.8901
▁Pasaulin	-10.8902
▁vertim	-10.8916
kalbėti	-10.8921
▁priklausoma	-10.8922
▁praradim	-10.893
▁pasinaudoj	-10.8937
laikyti	-10.8942
▁apmokestin	-10.8969
▁procedūr	-10.897
ška	-10.8986
▁lengvat	-10.8994
▁žymia	-10.8995
▁Žali	-10.9011
▁kalbėsi	-10.9033
▁grąžint	-10.9048
prašome	-10.9057
▁aiškesn	-10.9101
▁įprastin	-10.9106
▁atgaivin	-10.9129
▁apibendrint	-10.9169
sakyti	-10.9172
▁pagerė	-10.9211
▁dalyvav	-10.9234
matysime	-10.9259
▁prisiim	-10.9307
rastas	-10.9336
▁būdama	-10.936
jungti	-10.9374
▁tobulin	-10.938
▁energeti	-10.9391
▁atkakl	-10.9398
▁nagrinė	-10.9461
▁Naujoj	-10.9505
▁teisėtum	-10.952
▁geografi	-10.9531
▁šešėl	-10.9534
▁kategori	-10.9535
▁perkėlim	-10.9539
karšt	-10.9547
▁artėja	-10.9568
▁panaudoj	-10.9582
daugiau	-10.9594
EN	-10.9602
žinau	-10.9612
not	-10.9612
▁tinka	-10.9612
plėtra	-10.9612
politika	-10.9614
nauja	-10.9616
mums	-10.9617
misijos	-10.9619
▁informavim	-10.962
19	-10.9628
▁nurodė	-10.9628
▁vyriausi	-10.9634
▁pristatym	-10.9634
▁kontekst	-10.9666
▁asociacij	-10.9669
▁sprend	-10.9673
▁Praėj	-10.9677
▁liūd	-10.9704
▁tikrinim	-10.9705
▁nuspręs	-10.9706
▁naš	-10.972
▁išsak	-10.9727
nergijos	-10.9728
▁produkci	-10.9732
▁elg	-10.9733
▁integrav	-10.9733
▁Ugand	-10.9733
▁Vykd	-10.9733
▁advokat	-10.9733
▁apsisaugo	-10.9733
▁apžvalg	-10.9733
▁autonomij	-10.9733
▁diktatūr	-10.9733
▁falsifik	-10.9733
▁kankinim	-10.9733
▁medicinin	-10.9733
▁modifikuot	-10.9733
▁neoliberal	-10.9733
▁pareikalavo	-10.9733
▁punktu	-10.9733
▁reguliar	-10.9733
▁revoliucij	-10.9733
▁stengė	-10.9733
▁uždraudim	-10.9733
▁žmogžudys	-10.9733
katastrofa	-10.9733
pasikartotų	-10.9733
sanglauda	-10.9733
užmiršti	-10.9733
▁Asamblėj	-10.9733
▁Belgija	-10.9733
▁Gvantanamo	-10.9733
▁Gvinėj	-10.9733
▁Kaukaz	-10.9733
▁Konkre	-10.9733
▁NVO	-10.9733
▁Respublikoje	-10.9733
▁Sarkozy	-10.9733
▁Strasbūro	-10.9733
▁Trumpa	-10.9733
▁Užimtumo	-10.9733
▁aplankyt	-10.9733
▁atžvilgiais	-10.9733
▁autobusų	-10.9733
▁cukraus	-10.9733
▁cunami	-10.9733
▁daržovių	-10.9733
▁dešimtmetyje	-10.9733
▁diegti	-10.9733
▁doleri	-10.9733
▁dydį	-10.9733
▁ekonomikoje	-10.9733
▁ekstremali	-10.9733
▁europietišk	-10.9733
▁gydytoj	-10.9733
▁imigraciją	-10.9733
▁incident	-10.9733
▁informavo	-10.9733
▁integraciją	-10.9733
▁intervencijos	-10.9733
▁istorijoje	-10.9733
▁išaiškinti	-10.9733
▁jėgom	-10.9733
▁klastojimu	-10.9733
▁koordinatori	-10.9733
▁koridori	-10.9733
▁kvalifikuot	-10.9733
▁mitybos	-10.9733
▁nedalyvauja	-10.9733
▁nevyriausybinių	-10.9733
▁neįtraukta	-10.9733
▁nuogąstavim	-10.9733
▁nuošalyje	-10.9733
▁nusistaty	-10.9733
▁nuvyk	-10.9733
▁nužudyt	-10.9733
▁organizacijoje	-10.9733
▁organizaciją	-10.9733
▁pavyzdžiai	-10.9733
▁penkiolika	-10.9733
▁prisidės	-10.9733
▁propaguoja	-10.9733
▁punktas	-10.9733
▁rasizm	-10.9733
▁reglamentų	-10.9733
▁ryšiai	-10.9733
▁ryšį	-10.9733
▁scenarij	-10.9733
▁serganči	-10.9733
▁solidarumu	-10.9733
▁statistikos	-10.9733
▁sudėtį	-10.9733
▁sukrėt	-10.9733
▁susitaikyti	-10.9733
▁suvereniteto	-10.9733
▁sąnaudų	-10.9733
▁tapatybė	-10.9733
▁trokšta	-10.9733
▁unikal	-10.9733
▁universal	-10.9733
▁vaidmeniu	-10.9733
▁vartotojus	-10.9733
▁veiksmams	-10.9733
▁vystymasis	-10.9733
▁Įgyvendin	-10.9733
▁įsikišim	-10.9733
▁įsikišti	-10.9733
▁švaisty	-10.9733
▁ūkininkavimo	-10.9733
▁Ženevo	-10.9733
▁ECB	-10.9733
▁Eurojust	-10.9733
▁Rompuy	-10.9733
▁Rusiją	-10.9733
▁aplinkybės	-10.9733
▁bylų	-10.9733
▁elgesys	-10.9733
▁griauna	-10.9733
▁metrų	-10.9733
▁pilietybės	-10.9733
▁ramstis	-10.9733
▁reakcija	-10.9733
▁rinkimuose	-10.9733
▁vairavimo	-10.9733
▁ūkį	-10.9733
Stream	-10.9733
▁Paryžiuje	-10.9733
▁Vietoj	-10.9733
▁gaivinim	-10.9733
▁jūra	-10.9733
▁ministro	-10.9733
▁pagyvenusi	-10.9733
▁prievartą	-10.9733
▁rizikuo	-10.9733
▁stichin	-10.9733
▁Didel	-10.9733
▁atskleidžia	-10.9733
▁atskleist	-10.9733
▁tenkinti	-10.9733
▁vizos	-10.9733
▁įsigalios	-10.9733
▁kalbėję	-10.9733
▁kryptį	-10.9733
▁strategijų	-10.9733
▁išliks	-10.9733
▁nusprendžiau	-10.9733
▁policija	-10.9733
▁gairių	-10.9733
▁sąmoningum	-10.9733
▁užtikrintos	-10.9733
▁normali	-10.9733
▁vienbalsiai	-10.9733
▁viltis	-10.9733
▁misija	-10.9733
▁stovyklos	-10.9733
▁gatvėse	-10.9733
▁užtikrinimas	-10.9733
▁trūkumą	-10.9733
▁apklaus	-10.9733
▁domina	-10.9733
▁kalbėjusi	-10.9733
▁atsakomybėn	-10.9733
▁primena	-10.9733
▁iškyla	-10.9733
▁įvedimas	-10.9733
▁Neabejotina	-10.9733
▁prieštaraut	-10.9733
▁atotrūk	-10.9733
▁sveikatą	-10.9733
žalojim	-10.9733
▁išmetanči	-10.9733
▁įtariam	-10.9733
▁atsirast	-10.9733
TDO	-10.9733
▁grįst	-10.9733
▁iškastini	-10.9733
▁nebalsuo	-10.9733
tovykl	-10.9733
▁dėka	-10.9733
▁neaiški	-10.9733
▁atmesta	-10.9733
▁raket	-10.9733
▁neturėjo	-10.9733
▁ribin	-10.9733
▁bendruomenes	-10.9733
▁savimi	-10.9734
▁potenciali	-10.9734
▁nuosav	-10.9734
▁pasirašyta	-10.9734
▁prieštaravim	-10.9734
▁kalboje	-10.9734
▁kils	-10.9734
▁vilk	-10.9734
▁etike	-10.9734
▁regioną	-10.9734
▁pilna	-10.9734
▁įtaka	-10.9734
▁išnyk	-10.9734
▁vartoti	-10.9735
▁ruožtu	-10.9735
▁1997	-10.9735
▁Tiek	-10.9735
▁Laisv	-10.9735
▁patikrinimo	-10.9735
▁stovi	-10.9735
▁atsakyta	-10.9736
▁keliauti	-10.9736
▁pokyčiams	-10.9736
▁Linki	-10.9736
▁2001	-10.9737
▁naštos	-10.9737
▁neturės	-10.9737
▁praeityje	-10.9737
▁Bank	-10.9737
▁koordinavimas	-10.9738
▁stokos	-10.9738
▁priedą	-10.9738
▁perženg	-10.9738
▁tikslinga	-10.9739
▁erdvėje	-10.9739
▁pareiškimų	-10.9739
▁reiškinio	-10.974
▁stiprinimo	-10.974
▁vargu	-10.9741
vengiama	-10.9742
▁aplinkoje	-10.9743
▁Gazoje	-10.9743
▁196	-10.9743
▁rinkinį	-10.9743
▁valios	-10.9744
▁Remdamasi	-10.9744
▁antroji	-10.9745
▁tikrinti	-10.9746
berg	-10.9749
▁protokola	-10.9749
▁stoka	-10.9749
▁patikimumas	-10.975
▁valdytoj	-10.975
▁pabėg	-10.9752
▁pramonėje	-10.9755
▁gyvenimas	-10.9759
▁pirmosios	-10.9764
▁tautin	-10.9766
▁normos	-10.9766
▁EPS	-10.9769
▁stabd	-10.977
▁vyksiant	-10.9771
▁žada	-10.9771
▁aky	-10.9776
▁veikimą	-10.978
ojams	-10.9789
▁išaugt	-10.9803
▁žū	-10.981
▁laikysi	-10.9812
▁įpareigojanči	-10.982
▁prisimin	-10.9833
▁malon	-10.9834
▁skelbia	-10.9857
▁eilė	-10.9859
▁Smulk	-10.9887
rengimo	-10.9891
▁įsteigta	-10.9899
▁artima	-10.9906
read	-10.9934
▁kelianti	-10.9937
▁gimtoj	-10.9942
▁pažang	-10.9946
▁panaikinimu	-10.9983
▁perskirstym	-10.9994
▁įsteig	-11.0009
▁suvokiam	-11.0011
▁moksliniam	-11.0043
▁komercin	-11.0062
▁atkaklia	-11.0081
buvimą	-11.0091
▁strateg	-11.0105
▁koordinuot	-11.0133
▁nepritaria	-11.0138
▁susidaryt	-11.0157
▁rengdam	-11.0196
▁išsiskyr	-11.0221
▁griežtesnė	-11.0236
▁apimančio	-11.0239
▁procentin	-11.0251
leidimo	-11.0266
▁aspekt	-11.0272
▁išorin	-11.0278
▁kontroliuoja	-11.0316
▁susilaiky	-11.0323
▁padirb	-11.0334
▁atgaivinim	-11.0375
▁ėm	-11.0378
▁paskelbim	-11.04
analizuo	-11.0409
svarb	-11.0413
▁nuoseklia	-11.0417
restruktūrizavim	-11.0472
▁Generalin	-11.0507
vėl	-11.0536
duodant	-11.0569
65	-11.058
▁tobul	-11.0583
naikinimas	-11.0591
▁civilin	-11.0594
▁nesilaiky	-11.0595
▁investuojam	-11.0604
▁tobulinim	-11.0617
▁politiniam	-11.062
▁darbuotoj	-11.0652
▁kaimynini	-11.0698
▁pastaroj	-11.0719
▁teikdam	-11.0818
naikinti	-11.0846
tvi	-11.0846
▁dedam	-11.0859
šaldy	-11.0911
▁pertvark	-11.0919
▁susitikt	-11.0941
Komisija	-11.0945
▁blogesn	-11.0954
▁vadovauti	-11.0969
▁riba	-11.0969
▁elektro	-11.097
▁atvejai	-11.0973
▁perdavim	-11.0978
vienas	-11.098
▁neturinči	-11.0983
▁įvest	-11.0993
▁gerąj	-11.1008
▁reglamentuojam	-11.101
▁pirmininkav	-11.1029
▁administravim	-11.1036
suprantu	-11.104
lengva	-11.104
2006	-11.1041
pasiūlymą	-11.1043
žemės	-11.1043
pirmą	-11.1044
susijusi	-11.1044
▁išleist	-11.105
konkreči	-11.1062
▁nekreip	-11.1074
▁įtvirtint	-11.1082
kenčia	-11.1097
irties	-11.1112
▁pratęs	-11.1117
▁laipsnišk	-11.1119
▁paaiškin	-11.1124
rūpinti	-11.1133
▁koordinav	-11.1144
▁būding	-11.1145
toriaus	-11.1146
▁greiči	-11.1151
▁operator	-11.1151
pasak	-11.116
▁džiaugia	-11.116
▁akcent	-11.1161
▁Nepriimtin	-11.1161
▁geopolitin	-11.1161
▁neįgyvendin	-11.1161
▁pasisteng	-11.1161
▁suformuo	-11.1161
piktnaudžiavimo	-11.1161
tereotip	-11.1161
▁2014	-11.1161
▁Apgailestauj	-11.1161
▁Azijoje	-11.1161
▁Barrot	-11.1161
▁Bendradarbiavim	-11.1161
▁Briuseli	-11.1161
▁Darbuotoj	-11.1161
▁Graikiją	-11.1161
▁Harbour	-11.1161
▁Indija	-11.1161
▁Japonija	-11.1161
▁Japonijoje	-11.1161
▁Kroatiją	-11.1161
▁Lynne	-11.1161
▁Mauritanij	-11.1161
▁McCreevy	-11.1161
▁Mokesči	-11.1161
▁Niujork	-11.1161
▁Rašytinia	-11.1161
▁Reform	-11.1161
▁Verhofstadt	-11.1161
▁Vėliau	-11.1161
▁ambasad	-11.1161
▁amerikieči	-11.1161
▁amžių	-11.1161
▁anksti	-11.1161
▁atkreipdėmesį	-11.1161
▁atostogas	-11.1161
▁atsiprašau	-11.1161
▁automatiškai	-11.1161
▁avarijų	-11.1161
▁besąlygiška	-11.1161
▁byloja	-11.1161
▁chartijos	-11.1161
▁chemikal	-11.1161
▁decentraliz	-11.1161
▁demonstracij	-11.1161
▁disbalans	-11.1161
▁dramatišk	-11.1161
▁draudimą	-11.1161
▁dvasią	-11.1161
▁elektrini	-11.1161
▁europiečiams	-11.1161
▁filosofij	-11.1161
▁fondams	-11.1161
▁informuota	-11.1161
▁išdėstyta	-11.1161
▁kalbėjusieji	-11.1161
▁ketveri	-11.1161
▁kišimasis	-11.1161
▁klestėjim	-11.1161
▁klimatui	-11.1161
▁kliūtimi	-11.1161
▁komitetų	-11.1161
▁kompensavim	-11.1161
▁kompetenciją	-11.1161
▁konstitucijos	-11.1161
▁korupcijos	-11.1161
▁kvieči	-11.1161
▁maršrut	-11.1161
▁medicino	-11.1161
▁medžiagos	-11.1161
▁neapykant	-11.1161
▁nebuvimas	-11.1161
▁nedarbą	-11.1161
▁nereikės	-11.1161
▁neįtikėtin	-11.1161
▁neįvyk	-11.1161
▁organizacijoms	-11.1161
▁paaiškėjo	-11.1161
▁paminėsiu	-11.1161
▁pavyktų	-11.1161
▁pragyvenim	-11.1161
▁priežastimi	-11.1161
▁punktą	-11.1161
▁punktų	-11.1161
▁referendumu	-11.1161
▁reglamentai	-11.1161
▁rūky	-11.1161
▁sesiją	-11.1161
▁skaičiui	-11.1161
▁sritimi	-11.1161
▁sugriežtint	-11.1161
▁susidūrėme	-11.1161
▁suvartojim	-11.1161
▁suvienij	-11.1161
▁sąsaj	-11.1161
▁sąveiką	-11.1161
▁sąvokos	-11.1161
▁technologijomis	-11.1161
▁terminai	-11.1161
▁tribunol	-11.1161
▁trūkumai	-11.1161
▁užimtumą	-11.1161
▁užuojautą	-11.1161
▁vietinės	-11.1161
▁vietoms	-11.1161
▁įtampą	-11.1161
▁Šveicarija	-11.1161
▁Šveicarijo	-11.1161
▁ūkyje	-11.1161
▁žingsnių	-11.1161
▁žmogus	-11.1161
Nabucco	-11.1161
nksčiau	-11.1161
▁Darfūr	-11.1161
▁Projekt	-11.1161
▁Reding	-11.1161
▁Taliban	-11.1161
▁apsilanky	-11.1161
▁apsunkina	-11.1161
▁atsiradus	-11.1161
▁diktatori	-11.1161
▁išbandyt	-11.1161
▁išlygų	-11.1161
▁komponent	-11.1161
▁mokesčiai	-11.1161
▁mokymus	-11.1161
▁moratorium	-11.1161
▁nafta	-11.1161
▁paslapt	-11.1161
▁pastabos	-11.1161
▁pastraip	-11.1161
▁susitikimuose	-11.1161
▁sąvartyn	-11.1161
▁terminu	-11.1161
▁įspėjimo	-11.1161
▁žaidyn	-11.1161
Georgi	-11.1161
▁GMO	-11.1161
▁adres	-11.1161
▁atidžiau	-11.1161
▁bedarbi	-11.1161
▁biurokratizm	-11.1161
▁klysta	-11.1161
▁konfidencial	-11.1161
▁mokesčius	-11.1161
▁nesutinku	-11.1161
▁nesėkmė	-11.1161
▁nutukim	-11.1161
▁paisoma	-11.1161
▁rankas	-11.1161
▁savaitės	-11.1161
▁sektoriai	-11.1161
▁sertifika	-11.1161
▁sesija	-11.1161
▁tyrime	-11.1161
▁šeimin	-11.1161
▁ŽIV	-11.1161
▁išlaikom	-11.1162
▁įsipareigoję	-11.1162
▁švelni	-11.1162
▁Osetij	-11.1162
▁autorė	-11.1162
▁misiją	-11.1162
▁valdžioje	-11.1162
▁elgesį	-11.1162
▁išpuoliai	-11.1162
▁ribą	-11.1162
▁skaudži	-11.1162
▁laivybos	-11.1162
▁saugojimo	-11.1162
▁sukels	-11.1162
▁balsas	-11.1162
▁spaudimui	-11.1162
▁užtikrintume	-11.1162
▁diplomatij	-11.1162
▁stabilumui	-11.1162
▁vandenyse	-11.1162
▁alyv	-11.1162
▁įkalint	-11.1162
▁keista	-11.1162
▁įranki	-11.1162
▁euras	-11.1162
▁Taivano	-11.1162
▁civilizacij	-11.1162
▁poveikiu	-11.1162
▁spaudimas	-11.1162
▁vilčių	-11.1162
▁Somal	-11.1162
▁prašymu	-11.1162
▁šalinink	-11.1162
▁netaikom	-11.1162
▁pamoka	-11.1162
▁Laikas	-11.1162
▁Balsuoj	-11.1162
▁Liban	-11.1162
▁parėm	-11.1162
otvarkė	-11.1162
▁stabilizavim	-11.1162
▁bendruomenei	-11.1162
▁išbris	-11.1162
▁skolą	-11.1162
EAC	-11.1162
▁auginti	-11.1162
▁atsakydama	-11.1162
▁gėdinga	-11.1162
▁legali	-11.1162
▁žaidėj	-11.1162
▁netikėt	-11.1162
▁sutarimas	-11.1162
▁drąsia	-11.1162
▁kaup	-11.1162
▁Nico	-11.1162
▁formuluotė	-11.1162
▁pakete	-11.1162
▁poilsi	-11.1162
▁išnagrinė	-11.1162
▁įsigyt	-11.1162
▁produkcijos	-11.1163
▁penkiasdešimt	-11.1163
▁pakrantės	-11.1163
▁kainomis	-11.1163
▁nutol	-11.1163
▁patikslin	-11.1163
▁senyv	-11.1163
▁Hans	-11.1163
▁įsipareigojimo	-11.1163
▁Danijo	-11.1163
▁Lyg	-11.1163
▁žvejoti	-11.1164
▁atsp	-11.1164
▁vienkartin	-11.1164
▁įvardyt	-11.1164
▁banką	-11.1164
▁mintimi	-11.1164
▁kosmos	-11.1164
▁1990	-11.1164
▁medien	-11.1164
▁girdėti	-11.1164
▁Turėdam	-11.1164
▁uždavinius	-11.1165
▁didinimas	-11.1165
▁delsim	-11.1165
▁manimi	-11.1165
▁baigėsi	-11.1165
▁deginim	-11.1165
▁priklausomybė	-11.1165
▁kaltinimai	-11.1165
▁paliekam	-11.1166
grįš	-11.1166
▁tolimoj	-11.1166
▁pajamom	-11.1166
▁nekantriai	-11.1166
▁širdi	-11.1166
▁ištikusi	-11.1167
Galileo	-11.1167
▁mąsta	-11.1167
ldymo	-11.1167
▁akis	-11.1167
▁uždaviniai	-11.1167
▁valdant	-11.1167
▁statyti	-11.1168
▁gatv	-11.1168
▁prižiūri	-11.1169
▁mintį	-11.117
▁auka	-11.1171
▁Viskas	-11.1171
išlyga	-11.1172
▁spręsdam	-11.1173
▁efektyvumas	-11.1173
▁verg	-11.1173
▁užtikrino	-11.1174
▁tarti	-11.1175
▁šiaurin	-11.1175
▁toną	-11.1175
įtvirtina	-11.1176
▁nepriim	-11.1179
▁Jungtine	-11.1181
▁metas	-11.1182
Peter	-11.1182
▁visuomenini	-11.1185
burg	-11.1185
▁Joki	-11.119
▁įrodė	-11.1192
▁liūdna	-11.1195
▁ribojam	-11.1199
▁uždarym	-11.1211
▁sugebėjim	-11.1217
▁pritrauk	-11.1222
▁Reikė	-11.1224
rauti	-11.1232
▁demping	-11.1242
▁įkait	-11.1244
Judu	-11.1249
umažin	-11.1251
1999	-11.1268
▁pakviest	-11.128
▁tikrinam	-11.1287
▁Žod	-11.1294
▁pavard	-11.1311
▁artėjanči	-11.1355
▁bandyt	-11.1363
▁tvirtinima	-11.137
etikos	-11.1381
▁sukurs	-11.1415
▁likus	-11.142
FD	-11.1443
▁tikrąj	-11.1486
▁atsirandanči	-11.1498
▁būdam	-11.1527
▁struktūrin	-11.1575
▁tikroj	-11.1638
▁didžiąj	-11.1638
▁skleist	-11.165
imbabvė	-11.166
▁žiaurum	-11.1665
▁laikydam	-11.1667
▁rytin	-11.1741
▁investuoja	-11.1751
▁pagerinim	-11.1787
▁norinči	-11.1806
▁pirmuosiu	-11.1814
▁apim	-11.1822
RE	-11.1881
▁juda	-11.19
▁pamatin	-11.1903
▁šalin	-11.1947
▁balsuot	-11.196
▁šalinim	-11.1978
▁joki	-11.2025
▁atstovaujanti	-11.2035
▁koordinuo	-11.2065
▁nenor	-11.2159
▁Pranešim	-11.2174
vijų	-11.2216
▁naudingum	-11.2234
▁netinka	-11.2266
▁naujajam	-11.228
▁žiniasklaid	-11.2302
▁Centr	-11.2327
▁pritaik	-11.2337
atsakomybuž	-11.2346
▁prarad	-11.2407
▁skatinanči	-11.2415
▁Parlament	-11.2416
▁patraukt	-11.2419
▁ateinančiu	-11.2529
▁nepaisy	-11.2553
▁aplink	-11.2555
▁rekomend	-11.2562
▁rekomenduoj	-11.2574
▁trūkumu	-11.2634
▁tarnybo	-11.2638
▁pastaba	-11.2638
▁ignoruo	-11.2642
▁verslu	-11.2655
▁parduot	-11.2657
▁išlaikyt	-11.266
garsėj	-11.2661
▁potvyni	-11.2664
nagrinėti	-11.2665
▁persvarst	-11.2673
pateik	-11.27
▁atkūrim	-11.2703
tiesiogin	-11.2704
socialin	-11.2704
energija	-11.2705
grup	-11.2706
▁matyt	-11.2708
finansų	-11.2709
didžiul	-11.271
▁partnerystė	-11.2712
▁Buv	-11.2739
▁referent	-11.2759
▁diskutuojam	-11.2762
tojimui	-11.2773
▁test	-11.2777
▁prižiūrė	-11.2794
kultūr	-11.2801
▁sąžin	-11.2804
▁žuvininkyst	-11.2808
vadovyb	-11.2808
▁atomin	-11.2808
▁prognozuo	-11.2821
▁atoki	-11.2821
sprendimą	-11.2821
▁Kiek	-11.2824
pinig	-11.2825
▁ruož	-11.2826
▁regis	-11.2826
▁diplom	-11.2826
▁tūkst	-11.2827
▁neabejo	-11.2827
▁pasikartoj	-11.2827
reikšmi	-11.2828
▁Apibendrin	-11.2828
▁įsidarbin	-11.2828
▁įsisavin	-11.2828
/2009	-11.2828
Ferrero	-11.2828
▁Leinen	-11.2828
▁akimirk	-11.2828
▁atsiprašy	-11.2828
▁nebaudžiam	-11.2828
▁skaitytuv	-11.2828
Bendit	-11.2828
Globalizacij	-11.2828
piktnaudžiauti	-11.2828
prieštarauju	-11.2828
▁Ankstesni	-11.2828
▁Atsakydama	-11.2828
▁Atsiprašau	-11.2828
▁Baltarusija	-11.2828
▁Berlyn	-11.2828
▁Branduolin	-11.2828
▁David	-11.2828
▁Korėjoje	-11.2828
▁Libija	-11.2828
▁Lukašenko	-11.2828
▁Michel	-11.2828
▁Nepakanka	-11.2828
▁Nikaragv	-11.2828
▁Oettinger	-11.2828
▁Paaiškinima	-11.2828
▁Program	-11.2828
▁Richard	-11.2828
▁Robert	-11.2828
▁SOLVIT	-11.2828
▁Sirijoje	-11.2828
▁Sprendim	-11.2828
▁Strasbūrą	-11.2828
▁Suprantu	-11.2828
▁Sutartyje	-11.2828
▁Turkiją	-11.2828
▁Valstijas	-11.2828
▁Vienintel	-11.2828
▁Vokietiją	-11.2828
▁aikštelė	-11.2828
▁akvakultūr	-11.2828
▁anaiptol	-11.2828
▁apgailėtin	-11.2828
▁aplinkybėms	-11.2828
▁atliekos	-11.2828
▁atsiliep	-11.2828
▁atstatym	-11.2828
▁besiformuojanči	-11.2828
▁bylą	-11.2828
▁centralizuot	-11.2828
▁departament	-11.2828
▁didžiuojuosi	-11.2828
▁diegimas	-11.2828
▁direktorat	-11.2828
▁diskutuojant	-11.2828
▁dominuojanči	-11.2828
▁ekspertai	-11.2828
▁epidemij	-11.2828
▁fundament	-11.2828
▁futbol	-11.2828
▁girdėjau	-11.2828
▁grandinę	-11.2828
▁gyvulininkystė	-11.2828
▁higienos	-11.2828
▁ideologij	-11.2828
▁imunitet	-11.2828
▁infekcij	-11.2828
▁instrument	-11.2828
▁izoliuot	-11.2828
▁išdėstytu	-11.2828
▁išryškin	-11.2828
▁išsaugojimas	-11.2828
▁išvystyt	-11.2828
▁kenksming	-11.2828
▁konstituciją	-11.2828
▁konvencijų	-11.2828
▁ksenofobij	-11.2828
▁kūdik	-11.2828
▁laiminga	-11.2828
▁liberalizavimas	-11.2828
▁liudininkai	-11.2828
▁medžiagomis	-11.2828
▁medžiagą	-11.2828
▁memorandum	-11.2828
▁mobilizuoti	-11.2828
▁musulmonų	-11.2828
▁muziko	-11.2828
▁neatskiriama	-11.2828
▁neatspindi	-11.2828
▁nedeklaruojam	-11.2828
▁neformal	-11.2828
▁neginčijam	-11.2828
▁nepasireng	-11.2828
▁nesusiję	-11.2828
▁netiesiogiai	-11.2828
▁olimpin	-11.2828
▁organizacijomis	-11.2828
▁organizacini	-11.2828
▁orientacin	-11.2828
▁orlaivi	-11.2828
▁pabėgėliams	-11.2828
▁pakeitimams	-11.2828
▁pakomentuoti	-11.2828
▁pasitikėjimu	-11.2828
▁pasitikėti	-11.2828
▁paskirstymas	-11.2828
▁pavirši	-11.2828
▁pervežim	-11.2828
▁pervirši	-11.2828
▁piratavim	-11.2828
▁pobūdis	-11.2828
▁popietę	-11.2828
▁prancūzų	-11.2828
▁prasidės	-11.2828
▁prekiauti	-11.2828
▁propagand	-11.2828
▁proporcingumo	-11.2828
▁rankose	-11.2828
▁reagavo	-11.2828
▁reglamentavimas	-11.2828
▁reguliavimas	-11.2828
▁romams	-11.2828
▁rudenį	-11.2828
▁rūpestis	-11.2828
▁sankcijos	-11.2828
▁santykiams	-11.2828
▁santykin	-11.2828
▁sektoriams	-11.2828
▁sekundžių	-11.2828
▁septyneri	-11.2828
▁sistemini	-11.2828
▁sistemoms	-11.2828
▁skalūn	-11.2828
▁slepia	-11.2828
▁sukaupt	-11.2828
▁sukilėli	-11.2828
▁suklastot	-11.2828
▁sumetimais	-11.2828
▁susilaikiau	-11.2828
▁susipažinę	-11.2828
▁sustiprino	-11.2828
▁sutrukdyt	-11.2828
▁suvaržym	-11.2828
▁tendencijos	-11.2828
▁tradicija	-11.2828
▁trisdešimt	-11.2828
▁troškim	-11.2828
▁užimtumas	-11.2828
▁užsitikrint	-11.2828
▁užuojautos	-11.2828
▁vakcin	-11.2828
▁vartojimas	-11.2828
▁verslas	-11.2828
▁vilties	-11.2828
▁visokeriop	-11.2828
▁įsivaizduoti	-11.2828
▁įstojus	-11.2828
▁įvyktų	-11.2828
▁žingsnio	-11.2828
kvepia	-11.2828
nepakeičia	-11.2828
▁Skaidrum	-11.2828
▁TBT	-11.2828
▁Tvirta	-11.2828
▁facto	-11.2828
▁gabenim	-11.2828
▁kolonijin	-11.2828
▁kompiuter	-11.2828
▁konsensus	-11.2828
▁krikščionišk	-11.2828
▁liečia	-11.2828
▁modernizuoti	-11.2828
▁nehumanišk	-11.2828
▁ramstį	-11.2828
▁reakciją	-11.2828
▁savivald	-11.2828
▁spraga	-11.2828
▁sustiprina	-11.2828
▁tarša	-11.2828
▁veterinar	-11.2828
▁žiniomis	-11.2828
▁Vieš	-11.2828
▁diegia	-11.2828
▁globalizuot	-11.2828
▁pablogė	-11.2828
▁rašoma	-11.2828
▁vienuolik	-11.2828
▁įspėt	-11.2828
▁bendrapilieči	-11.2828
▁kilimo	-11.2828
▁perdėta	-11.2828
▁vadyb	-11.2828
svetain	-11.2828
▁atidarym	-11.2828
▁brutali	-11.2828
▁elgiasi	-11.2828
▁išvien	-11.2828
▁kūrėj	-11.2828
▁nesutinka	-11.2828
▁partiją	-11.2828
▁beviz	-11.2828
▁prievartos	-11.2828
▁produktyv	-11.2828
▁psichi	-11.2828
▁signalą	-11.2828
▁emocin	-11.2828
▁gaivalin	-11.2828
▁mokytojų	-11.2828
▁nestebina	-11.2828
▁puola	-11.2828
EEĮ	-11.2828
▁lošim	-11.2828
▁pirmadienį	-11.2828
▁valiutų	-11.2828
▁drąsos	-11.2828
▁nedarbu	-11.2828
▁realistišk	-11.2828
▁dovan	-11.2828
▁nenuosekl	-11.2828
▁įvairūs	-11.2828
▁įvedimui	-11.2828
▁nustatymas	-11.2828
▁stiprinimą	-11.2828
▁tvarkarašči	-11.2828
▁bendruomenėms	-11.2828
▁atminti	-11.2828
Frakcij	-11.2828
▁plinta	-11.2828
▁nuteist	-11.2828
▁kertini	-11.2828
▁programoms	-11.2828
▁Sveikat	-11.2828
▁vaikyst	-11.2828
▁įkūrim	-11.2828
▁pasidalyt	-11.2828
▁trūkumo	-11.2828
▁pradžią	-11.2828
▁Svarst	-11.2828
▁valiuta	-11.2828
dizain	-11.2828
▁netoler	-11.2828
▁importuojam	-11.2828
▁kairieji	-11.2828
▁kainuoja	-11.2828
▁pensijos	-11.2828
▁gerovę	-11.2828
▁paliko	-11.2828
▁vyro	-11.2829
▁vaising	-11.2829
▁vykdymu	-11.2829
▁kėl	-11.2829
▁dešimtmetį	-11.2829
▁norėti	-11.2829
▁trap	-11.2829
kartosiu	-11.2829
▁diskriminacin	-11.2829
▁pastebėjo	-11.2829
▁orderi	-11.2829
▁pasenusi	-11.2829
▁vengrų	-11.2829
▁ugn	-11.2829
▁Thom	-11.2829
▁smog	-11.2829
▁paskirties	-11.2829
▁padidėt	-11.2829
rekord	-11.2829
▁susirinkusi	-11.2829
▁kerta	-11.2829
▁sutarimo	-11.2829
▁Galimyb	-11.2829
▁įdomia	-11.2829
▁traktuo	-11.2829
▁sueiga	-11.2829
▁kadencija	-11.2829
▁film	-11.2829
▁gimin	-11.2829
▁atsigavim	-11.2829
▁meninink	-11.2829
▁pador	-11.2829
▁elgsen	-11.2829
▁nuosavybę	-11.2829
▁juntam	-11.2829
▁protokole	-11.2829
▁reformuota	-11.283
▁nutiko	-11.283
▁įstaigas	-11.283
▁Pekin	-11.283
stumti	-11.283
▁papasako	-11.283
▁statusas	-11.283
pult	-11.283
▁virst	-11.2831
▁lemt	-11.2831
▁akte	-11.2832
▁Kyla	-11.2832
▁prieiga	-11.2833
▁primest	-11.2833
▁Didžiausi	-11.2833
▁nustatanči	-11.2834
▁sinergij	-11.2834
▁nepadarė	-11.2834
▁dujas	-11.2834
▁greta	-11.2835
▁įgyja	-11.2835
▁įeina	-11.2835
▁nerami	-11.2836
▁data	-11.2836
▁BLS	-11.2836
eber	-11.2836
▁maitin	-11.2837
vykdymas	-11.2838
▁atstovaut	-11.2844
▁dangu	-11.2844
▁neužtikrina	-11.2844
▁negav	-11.2849
uliuoti	-11.285
▁įtvirtinim	-11.2851
▁jaunuoli	-11.2853
▁audr	-11.2854
▁išleidžiam	-11.2854
▁konkrečiom	-11.2858
▁darydam	-11.2863
▁nagrinėjim	-11.2864
▁išduot	-11.2866
▁pakop	-11.2868
▁teršėj	-11.2876
sąmoningai	-11.2885
▁reglamentuot	-11.2889
▁augina	-11.2893
▁nurodym	-11.2897
▁priskirt	-11.2898
▁dosn	-11.2907
▁disk	-11.2927
▁sod	-11.293
▁išmokėt	-11.2932
▁persvarstom	-11.294
▁nepanaudot	-11.2948
svori	-11.2962
▁klestinči	-11.2973
▁balsavim	-11.2987
▁žymėjim	-11.2993
atsakomybė	-11.2999
▁trečiąj	-11.3028
kritikuoj	-11.3029
▁prieinamum	-11.3066
teikėme	-11.3084
kreipiama	-11.3135
▁rengini	-11.3228
▁Laim	-11.3291
remsime	-11.3316
sipriešin	-11.3317
▁Kopenhag	-11.3328
▁eilini	-11.3337
▁išsiųst	-11.3397
▁išeit	-11.3463
▁suvokim	-11.3474
▁nacionalinėm	-11.352
▁senėjim	-11.3581
▁Mold	-11.3603
▁teroristini	-11.3608
▁nukreip	-11.3683
keltų	-11.3795
▁apmokestinim	-11.3832
▁paminėt	-11.3866
▁atlikdam	-11.3872
▁reguliuoja	-11.3937
lankiai	-11.3998
7/200	-11.4067
▁įsteigim	-11.4086
▁moral	-11.4092
gyventi	-11.4097
imbabv	-11.4151
žiūrėta	-11.4163
▁paskyrim	-11.4193
sigaliojus	-11.4231
žodži	-11.4269
▁naująj	-11.4286
▁paskyr	-11.4291
▁techni	-11.4394
▁žinodam	-11.4408
▁trečioj	-11.442
engiant	-11.4506
▁kandida	-11.4513
▁vystom	-11.4544
▁tarptautinėm	-11.4617
ometr	-11.4622
▁siena	-11.4637
▁įsipareigojimu	-11.4639
▁technologija	-11.4639
▁apgint	-11.4656
▁perduot	-11.4659
kviesti	-11.466
▁įvairovė	-11.4673
žiūros	-11.4678
▁įpareigoja	-11.4685
virto	-11.4704
kompetenting	-11.4705
protinga	-11.4706
užduotis	-11.4707
pažanga	-11.4708
apsauga	-11.4709
padeda	-11.4709
bendra	-11.471
Parlamentas	-11.471
▁paband	-11.471
Parlamento	-11.471
galimyb	-11.4711
▁draudžia	-11.4728
▁šešėlini	-11.4731
obligacijų	-11.4757
▁sąmon	-11.4759
▁dažni	-11.4771
▁praktišk	-11.4786
projekt	-11.4788
▁Karalyst	-11.4803
formavimą	-11.4811
uoliai	-11.4811
▁atsinaujin	-11.4816
▁katal	-11.4819
▁Pasiūl	-11.4819
▁uždavin	-11.4821
▁nekantr	-11.4822
eisėkūros	-11.4822
▁Pasku	-11.4824
kompromi	-11.4826
elektrinė	-11.4826
▁prisitaik	-11.4826
nergetikos	-11.4827
patinga	-11.4827
savanori	-11.4828
▁avia	-11.4828
atsispindė	-11.4828
▁instancij	-11.4828
▁konserv	-11.4828
▁padrąsin	-11.4828
▁pamėgin	-11.4828
▁paukšči	-11.4828
▁suvienodin	-11.4828
7-02	-11.4828
Gazprom	-11.4828
Kapital	-11.4828
Ruijten	-11.4828
apatero	-11.4828
atlyginimo	-11.4828
atsispindi	-11.4828
gūdžiai	-11.4828
nekontroliuojam	-11.4828
įsipareigojimams	-11.4828
įspūdį	-11.4828
▁Azerbaidžan	-11.4828
▁Balsuodam	-11.4828
▁Briuselį	-11.4828
▁Bulgarijoje	-11.4828
▁Busuttil	-11.4828
▁Doyle	-11.4828
▁Duomenų	-11.4828
▁Elektro	-11.4828
▁Indijoje	-11.4828
▁Izraelį	-11.4828
▁Latvijoje	-11.4828
▁Lenkijoje	-11.4828
▁Lenkiją	-11.4828
▁Madeiro	-11.4828
▁Nepamirškime	-11.4828
▁OECD	-11.4828
▁Pabrėž	-11.4828
▁Prancūziją	-11.4828
▁Priemonės	-11.4828
▁Priežastis	-11.4828
▁Reikalauj	-11.4828
▁Socialinė	-11.4828
▁Vartotoj	-11.4828
▁Vengriją	-11.4828
▁Verheugen	-11.4828
▁agentūroms	-11.4828
▁aklavietės	-11.4828
▁apygard	-11.4828
▁ataskaitomis	-11.4828
▁atlyginimai	-11.4828
▁atsistatydin	-11.4828
▁atvejo	-11.4828
▁aukcion	-11.4828
▁avarija	-11.4828
▁baltyming	-11.4828
▁bažnyči	-11.4828
▁beprot	-11.4828
▁besiverčianči	-11.4828
▁dalyviams	-11.4828
▁dalyviu	-11.4828
▁darbdavių	-11.4828
▁demonstrantų	-11.4828
▁demonstruoja	-11.4828
▁derybomis	-11.4828
▁diegimo	-11.4828
▁diskutuosi	-11.4828
▁drabuži	-11.4828
▁dubliavim	-11.4828
▁dydis	-11.4828
▁funkcini	-11.4828
▁funkcionavim	-11.4828
▁genocid	-11.4828
▁hierarchij	-11.4828
▁integracin	-11.4828
▁išgirstas	-11.4828
▁išklausiau	-11.4828
▁iškreipt	-11.4828
▁išpuolis	-11.4828
▁išsiskiria	-11.4828
▁jėgą	-11.4828
▁kabotaž	-11.4828
▁kalendori	-11.4828
▁karjerą	-11.4828
▁katastrofų	-11.4828
▁kišimosi	-11.4828
▁komandiravimo	-11.4828
▁kompleksin	-11.4828
▁kompli	-11.4828
▁konstitucijoje	-11.4828
▁konsultuojamasi	-11.4828
▁kraštovaizdži	-11.4828
▁krypties	-11.4828
▁lankyti	-11.4828
▁lietuv	-11.4828
▁likvidum	-11.4828
▁ministrą	-11.4828
▁neapsiriboja	-11.4828
▁neatsiejama	-11.4828
▁nelaimę	-11.4828
▁nepagarb	-11.4828
▁neratifikav	-11.4828
▁nerūp	-11.4828
▁nesugebėjim	-11.4828
▁netoleruotina	-11.4828
▁nuosmukį	-11.4828
▁pabaigą	-11.4828
▁pademonstruot	-11.4828
▁pageidautina	-11.4828
▁pagelbė	-11.4828
▁pakeičiant	-11.4828
▁pasidalijimo	-11.4828
▁pasikartoti	-11.4828
▁persikėlim	-11.4828
▁plojimai	-11.4828
▁pozityv	-11.4828
▁požymi	-11.4828
▁prekėmis	-11.4828
▁principams	-11.4828
▁priskiriam	-11.4828
▁profesor	-11.4828
▁receptini	-11.4828
▁reglamentavimą	-11.4828
▁reguliavimu	-11.4828
▁riebalų	-11.4828
▁rinkliav	-11.4828
▁ruonių	-11.4828
▁santuokos	-11.4828
▁savaitgalį	-11.4828
▁savaitėmis	-11.4828
▁schema	-11.4828
▁sekretoriatu	-11.4828
▁seminar	-11.4828
▁sistemomis	-11.4828
▁skaičiumi	-11.4828
▁skeptišk	-11.4828
▁sluoksn	-11.4828
▁spragų	-11.4828
▁stygiaus	-11.4828
▁sumanymas	-11.4828
▁supratau	-11.4828
▁susiskaldym	-11.4828
▁tendencijų	-11.4828
▁terminas	-11.4828
▁toleruoti	-11.4828
▁tragedijos	-11.4828
▁užimtumui	-11.4828
▁užtruk	-11.4828
▁vartotojo	-11.4828
▁ypatum	-11.4828
▁įrodymai	-11.4828
▁įsigalioti	-11.4828
▁įtempt	-11.4828
▁įvažiavim	-11.4828
▁Švedijoje	-11.4828
▁šeimoms	-11.4828
▁švietimą	-11.4828
▁žvalgybos	-11.4828
klasifikavim	-11.4828
▁Nigerij	-11.4828
▁Paryži	-11.4828
▁Protokol	-11.4828
▁Rehn	-11.4828
▁antsvorio	-11.4828
▁aprėpt	-11.4828
▁apsispręsti	-11.4828
▁atšilimu	-11.4828
▁bakterij	-11.4828
▁demagogi	-11.4828
▁destabiliz	-11.4828
▁devyni	-11.4828
▁egzistav	-11.4828
▁emigra	-11.4828
▁energing	-11.4828
▁federalin	-11.4828
▁fragment	-11.4828
▁geostrategin	-11.4828
▁globėj	-11.4828
▁ignorav	-11.4828
▁išryškėj	-11.4828
▁jūrą	-11.4828
▁kankinam	-11.4828
▁katastrofišk	-11.4828
▁kištis	-11.4828
▁koeficient	-11.4828
▁konsoliduot	-11.4828
▁literatūr	-11.4828
▁lygmuo	-11.4828
▁maržos	-11.4828
▁mityba	-11.4828
▁mąstym	-11.4828
▁nemaloni	-11.4828
▁nestabili	-11.4828
▁nesėkme	-11.4828
▁nevienod	-11.4828
▁nusivylusi	-11.4828
▁pandemij	-11.4828
▁pasipiktin	-11.4828
▁pasiteisinim	-11.4828
▁pradėdam	-11.4828
▁pragmatišk	-11.4828
▁priklausant	-11.4828
▁suformuluot	-11.4828
▁totalitarin	-11.4828
▁traktori	-11.4828
▁užsienyje	-11.4828
▁valdysena	-11.4828
▁valdyseną	-11.4828
▁vystant	-11.4828
▁žaizd	-11.4828
Erasmus	-11.4828
orientavim	-11.4828
pasižymi	-11.4828
▁Aukščiausio	-11.4828
▁Parish	-11.4828
▁Praeit	-11.4828
▁Prašome	-11.4828
▁Saryusz	-11.4828
▁aktams	-11.4828
▁aktuose	-11.4828
▁asbest	-11.4828
▁biometrini	-11.4828
▁fiksuot	-11.4828
▁išklausysi	-11.4828
▁logistik	-11.4828
▁nacionalist	-11.4828
▁orderį	-11.4828
▁pieną	-11.4828
▁prasidėti	-11.4828
▁rinkėjams	-11.4828
▁Estrel	-11.4828
▁grūd	-11.4828
▁lavinim	-11.4828
▁palinkė	-11.4828
▁paverčia	-11.4828
▁sezon	-11.4828
▁susidūrus	-11.4828
▁tikėtasi	-11.4828
▁įlanko	-11.4828
▁švenči	-11.4828
intervencija	-11.4828
važiuoja	-11.4828
▁baugina	-11.4828
▁elgetavim	-11.4828
▁imper	-11.4828
▁lygiavert	-11.4828
▁nuvyl	-11.4828
▁pardavinė	-11.4828
▁suklaidint	-11.4828
aldner	-11.4828
▁basein	-11.4828
▁liudi	-11.4828
▁nepastebėt	-11.4828
▁pardavėj	-11.4828
▁skaičiavimus	-11.4828
▁užsienieči	-11.4828
▁žinut	-11.4828
▁nelaimes	-11.4828
▁nuramin	-11.4828
▁puslap	-11.4828
▁surenkam	-11.4828
▁sąveika	-11.4828
▁gavyb	-11.4828
▁gydyti	-11.4828
▁nuosavybe	-11.4828
▁renkam	-11.4828
▁BNP	-11.4828
▁apmokėjim	-11.4828
▁galvoju	-11.4828
▁grupuotės	-11.4828
▁smuk	-11.4828
▁tarnauja	-11.4828
▁įkalinim	-11.4828
▁Nenori	-11.4828
▁dirv	-11.4828
▁romai	-11.4828
▁įtaking	-11.4828
▁Klinz	-11.4828
▁abort	-11.4828
▁mainais	-11.4828
▁pasirašymas	-11.4828
▁ugdym	-11.4828
▁šnip	-11.4828
▁kareivi	-11.4828
okupacij	-11.4828
tvirkščiai	-11.4828
▁skaičiai	-11.4828
▁balsą	-11.4828
▁netiesa	-11.4828
▁Atitinkam	-11.4828
▁perversm	-11.4828
▁laikrašči	-11.4828
▁subtil	-11.4828
▁kultūroje	-11.4828
▁prigimt	-11.4828
▁nebaig	-11.4828
▁Garri	-11.4828
▁biuras	-11.4828
▁Visuomen	-11.4828
▁skolinim	-11.4828
▁užtikrinimą	-11.4828
▁bendruomenėje	-11.4828
▁siuntim	-11.4828
▁Lėš	-11.4828
▁mišri	-11.4828
gnikalni	-11.4828
▁neskatin	-11.4828
agysl	-11.4828
▁perduosi	-11.4828
▁išimties	-11.4829
▁akcentuojam	-11.4829
▁bankams	-11.4829
painiav	-11.4829
▁Kongres	-11.4829
▁stabilizuot	-11.4829
▁tvarumui	-11.4829
▁bėd	-11.4829
▁prievartavim	-11.4829
▁modernizavim	-11.4829
▁Iranas	-11.4829
▁ček	-11.4829
komunizm	-11.4829
▁bankui	-11.4829
provokuo	-11.4829
▁Diev	-11.4829
skaitysi	-11.4829
▁požiūrių	-11.4829
▁Tegu	-11.4829
▁narystę	-11.4829
▁nepaminėt	-11.4829
▁parašyt	-11.4829
▁stiprinimu	-11.4829
▁Plėtr	-11.4829
atleistų	-11.4829
▁šeimą	-11.4829
▁maistą	-11.4829
▁pasipriešinim	-11.4829
▁sostin	-11.4829
▁apėm	-11.4829
▁pasakydama	-11.4829
▁skolų	-11.4829
▁idėjom	-11.4829
▁tabak	-11.4829
▁Eurostat	-11.4829
▁skamba	-11.4829
▁dugn	-11.4829
▁prievol	-11.4829
▁vadovaudam	-11.4829
▁dingusi	-11.4829
▁bandydam	-11.483
▁tolimesn	-11.483
rambli	-11.483
▁kovotoj	-11.483
▁motina	-11.483
▁nesutaria	-11.483
▁metal	-11.483
▁nepatir	-11.483
▁nustatydam	-11.4831
▁šimtmeči	-11.4831
įrodinėj	-11.4831
▁tiria	-11.4831
▁Politin	-11.4831
▁palaikydam	-11.4831
aidymo	-11.4831
▁gamta	-11.4832
▁stebėjo	-11.4832
▁skyd	-11.4833
▁tuneli	-11.4833
▁įrašyt	-11.4833
▁nuotaik	-11.4834
▁sugrąžin	-11.4835
▁Jaunim	-11.4835
▁beprasm	-11.4835
▁atidedam	-11.4836
rognozuojama	-11.4837
▁Krant	-11.4837
Charti	-11.4838
▁tank	-11.4838
skaitė	-11.4838
▁Prašy	-11.484
▁Informacij	-11.4841
▁perkeliam	-11.4844
rdamo	-11.4844
▁užtikrindam	-11.4844
▁mėginama	-11.4846
▁Muit	-11.485
▁kosmet	-11.4853
pradėk	-11.4855
▁papildyt	-11.4868
▁eksploatacij	-11.4888
▁komun	-11.4896
▁kūrybiškum	-11.4896
▁sudaranči	-11.4897
▁euroobligacij	-11.49
▁padaugė	-11.4902
▁suskaid	-11.4908
▁nereaguo	-11.4923
▁Teismu	-11.4979
▁nusiųst	-11.498
Žinot	-11.5039
▁ūkin	-11.5054
▁nepastovum	-11.5069
▁nenorėj	-11.5072
siūlydama	-11.5078
▁pažeidžiamum	-11.5081
▁užkirs	-11.5084
▁Nuolatini	-11.51
laukėme	-11.5135
▁rūp	-11.5137
įšaldyt	-11.5207
▁nepaisydam	-11.5234
pataisa	-11.5287
▁neatitikim	-11.5296
▁laukianči	-11.5299
vadinti	-11.5304
▁įdarbinim	-11.5326
Nord	-11.5335
▁praėj	-11.5355
taisyti	-11.5404
▁atvėrim	-11.5442
patvirtinamas	-11.5469
tikėkit	-11.555
▁Būki	-11.5589
▁blokuo	-11.5663
▁paspartin	-11.5673
piktnaudžiaujama	-11.572
▁nevyriausybinė	-11.5742
▁priėjim	-11.5802
▁apibendrin	-11.5842
▁baudžiamąj	-11.5864
skirstymą	-11.5879
varstyt	-11.591
▁judė	-11.591
▁tęsim	-11.5957
▁ekstremist	-11.6037
▁piliet	-11.6053
▁Adam	-11.6092
lankiausi	-11.6129
▁Treči	-11.6134
▁perduoda	-11.6218
/2004	-11.6223
▁piktnaudžiauja	-11.6289
ngumo	-11.6371
uoselėjam	-11.6541
sakyta	-11.6606
▁grindžia	-11.6631
ystymosi	-11.6655
darytume	-11.6709
▁įdarbin	-11.6724
▁įvykus	-11.673
reikalauja	-11.6732
▁neatitik	-11.6759
▁neadekvat	-11.6792
▁išsiaiškin	-11.6818
▁įgaliot	-11.6828
pažįstu	-11.6892
apribot	-11.6942
▁nuodugn	-11.6984
▁nepastov	-11.7027
garantuo	-11.7034
▁pažiūrėt	-11.7037
▁klesti	-11.7106
vyriausiaja	-11.7111
▁demokratinėm	-11.7122
2010)	-11.7128
▁eksploat	-11.7134
▁dalyku	-11.7136
▁pašalinim	-11.7159
▁prisidėj	-11.7173
dempingo	-11.7182
▁leidžianči	-11.7182
▁pranaš	-11.7198
prisijungti	-11.7206
minėjau	-11.7208
sąlyga	-11.7208
diskusija	-11.7208
suprasti	-11.7209
dviej	-11.7209
finansavimo	-11.7209
Balsavim	-11.7213
treči	-11.7219
▁neveiksming	-11.7222
▁girdim	-11.7261
▁komisij	-11.7263
atitinka	-11.7282
mokymąsi	-11.7293
▁sparči	-11.7295
▁išlaisvin	-11.73
▁sutaupy	-11.73
▁pridur	-11.7301
norėtų	-11.7311
▁vystymui	-11.7316
prasmė	-11.7317
sustabd	-11.7321
▁nuošird	-11.7322
onkurencingumo	-11.7325
usirūpinimą	-11.7326
niciatyva	-11.7326
uoširdžia	-11.7327
▁apsvarst	-11.7327
▁laipsni	-11.7327
▁Neabejo	-11.7328
▁gelbė	-11.7328
▁signa	-11.7328
▁atsikraty	-11.7328
▁nenagrinė	-11.7328
ernobyl	-11.7328
ikimokyklin	-11.7328
populiar	-11.7328
▁apgyvendint	-11.7328
▁dirvožemį	-11.7328
▁pastūmė	-11.7328
▁punktai	-11.7328
▁sraigtasparni	-11.7328
EIVT	-11.7328
ERPF	-11.7328
Kalbėtoja	-11.7328
Miroslav	-11.7328
Pakistanui	-11.7328
apiplėš	-11.7328
aprėpia	-11.7328
bankrutavo	-11.7328
diversifikuot	-11.7328
invazij	-11.7328
konstrukcijos	-11.7328
navigacij	-11.7328
smūgį	-11.7328
▁Abchazij	-11.7328
▁Atkreipki	-11.7328
▁Audy	-11.7328
▁Baronien	-11.7328
▁Benazir	-11.7328
▁Berlusconi	-11.7328
▁Blokland	-11.7328
▁Budapešt	-11.7328
▁CŽV	-11.7328
▁Federacij	-11.7328
▁Frassoni	-11.7328
▁Geležinkeli	-11.7328
▁Griežt	-11.7328
▁Gualtieri	-11.7328
▁Helmut	-11.7328
▁Jordanij	-11.7328
▁Kaimyn	-11.7328
▁Kambodž	-11.7328
▁Magreb	-11.7328
▁Mianmar	-11.7328
▁Mitchell	-11.7328
▁Norvegija	-11.7328
▁Oficial	-11.7328
▁Reinfeldt	-11.7328
▁Rengdam	-11.7328
▁Sarajev	-11.7328
▁Seišeli	-11.7328
▁Siūlau	-11.7328
▁Slovakijoje	-11.7328
▁Socialini	-11.7328
▁Turkmėnij	-11.7328
▁USD	-11.7328
▁Vašington	-11.7328
▁Vyksta	-11.7328
▁angliavandenili	-11.7328
▁atlyginimą	-11.7328
▁atlyginimų	-11.7328
▁atsiradę	-11.7328
▁atvejams	-11.7328
▁atšilimas	-11.7328
▁azartini	-11.7328
▁aštuoneri	-11.7328
▁besikeičianči	-11.7328
▁biocid	-11.7328
▁budrūs	-11.7328
▁burbul	-11.7328
▁chartijoje	-11.7328
▁chartiją	-11.7328
▁cituoju	-11.7328
▁dalyko	-11.7328
▁derliaus	-11.7328
▁dešimči	-11.7328
▁dialoge	-11.7328
▁didžiuojamės	-11.7328
▁dykum	-11.7328
▁ekonomikoms	-11.7328
▁ekspertus	-11.7328
▁entuziasting	-11.7328
▁geranorišk	-11.7328
▁griežčiau	-11.7328
▁gvilden	-11.7328
▁homoseksual	-11.7328
▁ideologini	-11.7328
▁informuotum	-11.7328
▁iniciator	-11.7328
▁inicijuoja	-11.7328
▁inovacijos	-11.7328
▁instituciją	-11.7328
▁investavo	-11.7328
▁išankstinė	-11.7328
▁išdėstyto	-11.7328
▁išgirdome	-11.7328
▁išgirdę	-11.7328
▁išpuolius	-11.7328
▁išsilavinusi	-11.7328
▁išvykti	-11.7328
▁keblum	-11.7328
▁ketvirči	-11.7328
▁kibernetin	-11.7328
▁komitetams	-11.7328
▁kompensaciją	-11.7328
▁konsolidavim	-11.7328
▁konvencijoje	-11.7328
▁korporacij	-11.7328
▁krikščionyb	-11.7328
▁liberalizavimą	-11.7328
▁lygiateisiškum	-11.7328
▁lygiaverči	-11.7328
▁lėšoms	-11.7328
▁lūkesčių	-11.7328
▁ministerijos	-11.7328
▁mobilizavim	-11.7328
▁naftą	-11.7328
▁neapibrėžta	-11.7328
▁nedalyvavo	-11.7328
▁nepriklausanči	-11.7328
▁nesisteng	-11.7328
▁nesusipratim	-11.7328
▁nežmonišk	-11.7328
▁nuosmukio	-11.7328
▁nusistovėj	-11.7328
▁nusiteikusi	-11.7328
▁nuspėjam	-11.7328
▁pabėgėlius	-11.7328
▁pacientu	-11.7328
▁padėdami	-11.7328
▁padėjėj	-11.7328
▁palikimas	-11.7328
▁paruošt	-11.7328
▁pasikliauti	-11.7328
▁pasilikti	-11.7328
▁pasireikšt	-11.7328
▁pasireiškia	-11.7328
▁pasiruošusi	-11.7328
▁paskirstymu	-11.7328
▁pastangoms	-11.7328
▁pavidal	-11.7328
▁paviršutinišk	-11.7328
▁pažaboti	-11.7328
▁pertekliaus	-11.7328
▁piktnaudžiavimą	-11.7328
▁pornografij	-11.7328
▁prekiautoja	-11.7328
▁prerogatyv	-11.7328
▁principini	-11.7328
▁prognozes	-11.7328
▁protestuotoj	-11.7328
▁provokacij	-11.7328
▁ratifikuota	-11.7328
▁reakcijos	-11.7328
▁receptas	-11.7328
▁referendume	-11.7328
▁reikmėms	-11.7328
▁restoran	-11.7328
▁riziking	-11.7328
▁sanglaudą	-11.7328
▁santuokų	-11.7328
▁santykį	-11.7328
▁savitarpi	-11.7328
▁sektoriumi	-11.7328
▁slėpim	-11.7328
▁smerkti	-11.7328
▁smūgis	-11.7328
▁stažuot	-11.7328
▁steigėj	-11.7328
▁stimul	-11.7328
▁sudėtyje	-11.7328
▁supratome	-11.7328
▁susidūrim	-11.7328
▁suvaržyt	-11.7328
▁tarnybą	-11.7328
▁technologijoms	-11.7328
▁tendenciją	-11.7328
▁terorizmą	-11.7328
▁tinklalapyje	-11.7328
▁tradicijomis	-11.7328
▁tragediją	-11.7328
▁vystymusi	-11.7328
▁įpročiai	-11.7328
▁įrodymus	-11.7328
▁įsiklausyti	-11.7328
▁įvykę	-11.7328
▁šantažu	-11.7328
▁šeimoje	-11.7328
▁švietimui	-11.7328
▁ūkininkus	-11.7328
▁žinyn	-11.7328
deportacij	-11.7328
truput	-11.7328
▁Elmar	-11.7328
▁Panašu	-11.7328
▁Pasiekta	-11.7328
▁absoliuči	-11.7328
▁bejėgišk	-11.7328
▁cenzūr	-11.7328
▁darbininkai	-11.7328
▁dislokavim	-11.7328
▁etiketėse	-11.7328
▁gebanči	-11.7328
▁gimdym	-11.7328
▁homofobi	-11.7328
▁išlygą	-11.7328
▁konfrontacij	-11.7328
▁kvotą	-11.7328
▁laikymąsi	-11.7328
▁neliečiamum	-11.7328
▁nenorėčiau	-11.7328
▁nesuderinama	-11.7328
▁nesulauks	-11.7328
▁nuotėk	-11.7328
▁nusivylim	-11.7328
▁nustebino	-11.7328
▁padalijim	-11.7328
▁pakaitala	-11.7328
▁patikrinimai	-11.7328
▁peržiūrėjim	-11.7328
▁pragaišting	-11.7328
▁prasmę	-11.7328
▁prisimenu	-11.7328
▁problemišk	-11.7328
▁progreso	-11.7328
▁semestr	-11.7328
▁separatist	-11.7328
▁septint	-11.7328
▁specifikacij	-11.7328
▁suvereni	-11.7328
▁sužeistų	-11.7328
apyvarta	-11.7328
▁Albert	-11.7328
▁Jeruzal	-11.7328
▁formalum	-11.7328
▁laišką	-11.7328
▁nediskrimina	-11.7328
▁nenumatom	-11.7328
▁neribot	-11.7328
▁nustačius	-11.7328
▁pažeidinėja	-11.7328
▁sužinotumėte	-11.7328
▁tolerancij	-11.7328
Inovacij	-11.7328
▁atsiradim	-11.7328
▁pasyvi	-11.7328
▁Ataskait	-11.7328
▁Gucht	-11.7328
▁atstovauju	-11.7328
▁lankė	-11.7328
▁litr	-11.7328
▁nepasisek	-11.7328
▁nustatymą	-11.7328
▁privatizavim	-11.7328
▁replik	-11.7328
▁stiklin	-11.7328
▁sugalvot	-11.7328
▁vargš	-11.7328
ocialinatskirtis	-11.7328
▁devinta	-11.7328
▁streik	-11.7328
▁transliacij	-11.7328
▁užsakym	-11.7328
▁Faktas	-11.7328
▁agres	-11.7328
▁girdžiu	-11.7328
▁išaiškinim	-11.7328
▁mainams	-11.7328
▁rytdienos	-11.7328
▁skiep	-11.7328
▁valgyti	-11.7328
▁biliet	-11.7328
▁bomb	-11.7328
▁interviu	-11.7328
▁nesiekia	-11.7328
▁stebėjimą	-11.7328
▁priartin	-11.7328
▁įstaigom	-11.7328
▁ženklinimą	-11.7328
▁apsvarstyta	-11.7328
▁nutinka	-11.7328
▁sukilim	-11.7328
▁vizą	-11.7328
▁motorini	-11.7328
▁tušči	-11.7328
▁darželi	-11.7328
▁ispan	-11.7328
▁vynuog	-11.7328
drzej	-11.7328
kmark	-11.7328
vakarietišk	-11.7328
▁makroekonomini	-11.7328
▁pesimi	-11.7328
▁Antarkti	-11.7328
▁pažeidinėjim	-11.7328
▁sukarint	-11.7328
▁skaitom	-11.7328
▁atėmim	-11.7328
▁nykim	-11.7328
pmąstym	-11.7328
▁suirutė	-11.7328
▁tigru	-11.7328
▁eksportuotoj	-11.7328
▁informuojam	-11.7328
industri	-11.7328
▁importuojanči	-11.7328
▁nesuvoki	-11.7328
▁įdėta	-11.7328
▁paliksi	-11.7328
▁siūlymu	-11.7328
▁pastebėjim	-11.7328
▁išaiškėj	-11.7328
▁makroekonominė	-11.7329
▁Minsk	-11.7329
ttering	-11.7329
▁konsultavim	-11.7329
▁reklama	-11.7329
▁suburt	-11.7329
▁saugykl	-11.7329
▁rožin	-11.7329
▁skleidžiam	-11.7329
NNN	-11.7329
▁postūm	-11.7329
▁priderin	-11.7329
CITES	-11.7329
▁Tekst	-11.7329
VBP	-11.7329
▁skraid	-11.7329
▁dilem	-11.7329
▁pasiturinči	-11.7329
▁dogm	-11.7329
▁tarpkultūrin	-11.7329
Memor	-11.7329
▁2009-201	-11.7329
▁hekt	-11.7329
▁neminim	-11.7329
▁patogum	-11.7329
▁įvyksianči	-11.7329
▁santrauka	-11.7329
▁išvardyt	-11.7329
▁priartė	-11.733
▁pasikartojanči	-11.733
atgrasy	-11.733
išspręsime	-11.733
▁Norėdam	-11.733
EKP	-11.7331
nacionalizacij	-11.7331
bitum	-11.7331
rūpinasi	-11.7331
▁pakilt	-11.7333
▁Vadovaujan	-11.7335
▁atminim	-11.7335
▁vykdydam	-11.7336
▁skirdam	-11.7336
▁prižiūrėtoj	-11.7337
▁padėsianči	-11.7337
galvokime	-11.7338
pacituo	-11.734
▁paisym	-11.734
katalog	-11.7342
▁atitraukt	-11.7347
▁rūpinam	-11.7348
▁palaikyt	-11.7349
▁sužlugdyt	-11.7354
▁randam	-11.7361
▁nuosprendži	-11.7364
▁neišvengiam	-11.7406
▁laikinąj	-11.7407
▁pabandyt	-11.7417
▁donorystė	-11.7422
▁reikalaujanči	-11.7438
ažmenin	-11.7439
▁konstatuojamąj	-11.7453
asamblėja	-11.7551
▁apsigyven	-11.7557
registruotas	-11.7559
▁kriztur	-11.7675
▁laikytum	-11.77
registruotų	-11.7703
▁keliavim	-11.7793
▁gaminanči	-11.7835
kaltinink	-11.7841
▁vadovaujanči	-11.7924
▁pasakKomisij	-11.7996
▁Panaikin	-11.8021
▁apibrėž	-11.8093
▁straipsni	-11.8203
140	-11.8386
COP	-11.8563
▁išbrauk	-11.8609
▁General	-11.8662
▁ligoninė	-11.8668
▁suteikianči	-11.8674
▁viešuosiu	-11.8831
▁prisidedanči	-11.8872
pagerėtų	-11.8872
▁rezoliucij	-11.9046
reglamentuojama	-11.9048
▁mokinia	-11.9065
žaliosios	-11.9181
▁remianči	-11.9315
pasirodys	-11.9329
▁laisvoj	-11.9374
▁formuo	-11.9484
▁atvėr	-11.9651
veiksmingumu	-11.9663
pakenktų	-11.9804
užregistruot	-11.9883
▁nepakenk	-11.9951
▁susidomėj	-11.9982
derinimu	-11.9993
vyriausybinės	-12.0304
▁pokyči	-12.033
▁išsprend	-12.0355
▁socialdemokrat	-12.0379
▁mokėtoj	-12.0456
▁konstatuojam	-12.049
▁pastebėt	-12.049
reaguodam	-12.0494
frakcija	-12.0504
ampanijos	-12.0537
priežiūra	-12.054
efektyv	-12.0541
komercini	-12.0541
nustatant	-12.0542
siūlom	-12.0542
