<pad>	0
</s>	0
<unk>	0
¦	-1.31699
▁¦	-1.31724
▁.	-3.74988
ال	-4.03627
ا	-4.13942
ة	-4.14372
و	-4.49571
في	-4.87577
من	-4.9256
ي	-4.94782
وا	-4.95574
ه	-4.96393
ى	-5.00317
ت	-5.31482
ع	-5.36153
ّ	-5.36496
ك	-5.37602
ل	-5.40214
ب	-5.42352
ان	-5.4567
ون	-5.47158
لى	-5.51274
ف	-5.51523
الرب	-5.57256
ين	-5.65576
م	-5.85734
كل	-5.86618
لا	-5.89067
هم	-5.97263
ها	-6.02642
ن	-6.18156
الذي	-6.18912
ما	-6.27667
كم	-6.3712
لل	-6.42459
وال	-6.44082
قد	-6.44199
يا	-6.45119
اسرائيل	-6.45693
نا	-6.45718
د	-6.54381
هذا	-6.60926
ولا	-6.61391
الله	-6.61636
هو	-6.62419
لم	-6.64215
له	-6.68553
ذا	-6.71876
لي	-6.76533
الارض	-6.77285
التي	-6.80719
فقال	-6.88404
لان	-6.88718
ر	-6.88744
عن	-6.927
جميع	-6.92726
يضا	-6.9433
بيت	-6.97057
رب	-6.97393
بن	-6.97714
كان	-7.02387
ملك	-7.02724
اء	-7.03138
بال	-7.08216
الملك	-7.08739
وقال	-7.08981
انا	-7.12044
مع	-7.122
ني	-7.1248
قال	-7.1356
ذلك	-7.14395
واحد	-7.14637
بني	-7.15636
ذين	-7.20906
بل	-7.21482
اود	-7.23899
لانه	-7.24126
ثم	-7.27085
وي	-7.27109
ذه	-7.27909
كذا	-7.28516
به	-7.28787
لهم	-7.32837
عند	-7.32976
وكان	-7.33405
أ	-7.34007
يسو	-7.35294
س	-7.36588
حت	-7.38221
اليوم	-7.40034
عل	-7.4056
اذا	-7.41203
ته	-7.42249
ايام	-7.43937
الشعب	-7.44055
كما	-7.44547
ارض	-7.45733
هنا	-7.45811
ابن	-7.46129
امام	-7.46531
الم	-7.47746
بعد	-7.48011
وكل	-7.48318
يهو	-7.49063
وه	-7.50183
قائلا	-7.53123
وت	-7.53443
يكون	-7.55666
مدين	-7.56672
اور	-7.56785
عليه	-7.56893
انت	-7.58407
حسب	-7.59142
ق	-7.59155
شليم	-7.5982
ء	-7.6068
ص	-7.61643
موس	-7.61783
ومن	-7.61825
لك	-7.61855
ات	-7.63997
عشر	-7.64201
ج	-7.66891
انه	-7.67456
ليس	-7.68529
ولم	-7.69152
ام	-7.69344
واما	-7.69779
ولكن	-7.69796
يقول	-7.70869
بين	-7.72179
لكي	-7.72757
بنو	-7.74147
لكم	-7.74176
وفي	-7.74714
وع	-7.75495
كلام	-7.76986
او	-7.77217
يد	-7.77446
مت	-7.77957
ول	-7.80584
حين	-7.81168
ش	-7.81178
هي	-7.81207
مصر	-7.81894
ير	-7.8233
رجل	-7.83859
كثير	-7.84089
فا	-7.85587
ث	-7.85788
ار	-7.85931
شعب	-7.86808
اني	-7.88168
عمل	-7.88421
مئ	-7.92458
تك	-7.93412
ز	-7.93455
سن	-7.93955
تم	-7.94665
وان	-7.95165
اجل	-7.96513
وب	-7.97597
احد	-7.98114
يوم	-7.9829
يها	-7.99107
اذ	-7.99232
مثل	-8.00274
الآن	-8.01003
شي	-8.01277
تي	-8.01366
امم	-8.04742
ذهب	-8.0642
رجال	-8.07473
ح	-8.08373
وسط	-8.10033
سماء	-8.11382
نار	-8.11467
تهم	-8.12434
فت	-8.12971
بها	-8.13193
فيه	-8.14064
دم	-8.14904
خ	-8.15159
فلا	-8.15766
ولما	-8.16276
جاء	-8.16328
عظيم	-8.17038
ئ	-8.17717
قائل	-8.18155
ض	-8.18288
قبل	-8.18452
سمع	-8.18956
اله	-8.19007
اما	-8.20409
لاني	-8.20605
ثلاث	-8.21272
لاجل	-8.21558
كلم	-8.22297
ابي	-8.23032
معه	-8.23131
وم	-8.23198
انتم	-8.23378
ط	-8.24071
اليه	-8.24136
وهو	-8.24398
ؤل	-8.24805
الانسان	-8.25112
انسان	-8.25163
سيف	-8.25814
تكون	-8.25932
سبع	-8.26874
فان	-8.27897
غ	-8.30391
اي	-8.30645
ماء	-8.31707
هما	-8.31794
ور	-8.33302
شاو	-8.33691
فلما	-8.3391
الكاهن	-8.33998
غير	-8.3473
يعقوب	-8.35325
مسيح	-8.3593
عيني	-8.36289
امر	-8.36323
يت	-8.37038
قدس	-8.37068
تحت	-8.377
ست	-8.37746
آ	-8.38265
يس	-8.38754
جدا	-8.38813
ناك	-8.39749
البيت	-8.40014
واذا	-8.41021
حي	-8.41075
كنت	-8.41469
نحو	-8.42379
نحن	-8.43145
الرجل	-8.43486
صوت	-8.43672
الهك	-8.43833
البحر	-8.44503
علي	-8.44599
الشر	-8.44763
مر	-8.44871
رئيس	-8.44983
يق	-8.4564
لها	-8.46112
رؤساء	-8.46498
فلم	-8.46667
ولد	-8.46941
الكهن	-8.47077
هل	-8.4726
السيد	-8.47447
لانهم	-8.47697
جه	-8.48127
لنا	-8.48136
امرأ	-8.48728
قلب	-8.48993
وجه	-8.49455
اربع	-8.49631
صنع	-8.49808
وس	-8.50671
الابد	-8.513
نفسه	-8.51573
بابل	-8.52393
باب	-8.53379
يف	-8.53409
تكلم	-8.53553
هرون	-8.53834
كانوا	-8.54309
الناس	-8.55241
عليهم	-8.55376
شر	-8.55494
صار	-8.55626
فض	-8.56087
يم	-8.56798
رأ	-8.57477
سليمان	-8.57545
طريق	-8.58269
لما	-8.5952
تلك	-8.59839
ارسل	-8.60276
يين	-8.60578
غضب	-8.61086
نعم	-8.61443
مجد	-8.61693
وك	-8.61869
عليك	-8.62014
جبل	-8.62041
عنه	-8.62383
بعض	-8.62491
شعوب	-8.62564
آخر	-8.62776
مدن	-8.62816
حكم	-8.62945
بي	-8.63166
وهم	-8.63324
خمس	-8.63541
لجنود	-8.63604
ئذ	-8.63616
وقد	-8.63735
فاجاب	-8.64458
نفسي	-8.64499
فعل	-8.65165
روح	-8.65387
لد	-8.65473
خيم	-8.65687
وها	-8.65739
لت	-8.66372
كانت	-8.66604
مياه	-8.66634
يكن	-8.66939
سر	-8.67143
است	-8.67322
تها	-8.67394
الفلسطيني	-8.6785
هيم	-8.68397
لكن	-8.68556
فرع	-8.68635
عبر	-8.68677
سموات	-8.69304
قدام	-8.70244
اخ	-8.70408
وق	-8.70661
ابرا	-8.71498
غنم	-8.71738
بك	-8.72342
يده	-8.72419
ويكون	-8.72485
اسمه	-8.73418
فم	-8.74125
ذبيح	-8.74198
مكان	-8.74725
تقدم	-8.7484
ابنه	-8.7486
يدي	-8.7501
اسم	-8.75503
وراء	-8.76358
اقول	-8.76688
قول	-8.77121
السن	-8.77706
وجميع	-8.77948
خرج	-8.77984
شوع	-8.78025
عبد	-8.78585
وانا	-8.7885
فل	-8.78951
لانك	-8.79493
الي	-8.79721
سبط	-8.79812
الروح	-8.801
اذهب	-8.80448
راس	-8.8077
الحق	-8.81364
نفسك	-8.81651
موت	-8.81909
الاول	-8.82338
منه	-8.82357
البري	-8.83112
أمر	-8.83175
حيث	-8.83224
يسمع	-8.83444
فوق	-8.83859
حق	-8.84042
ئلا	-8.84143
اليك	-8.84224
ايمان	-8.84378
واخذ	-8.8442
تن	-8.84611
يأتي	-8.8504
قم	-8.86189
قو	-8.86262
تر	-8.86347
سلام	-8.86493
فن	-8.86619
سيدي	-8.87322
اكثر	-8.87376
انذا	-8.88249
لمسيح	-8.88472
قلوب	-8.89244
المذبح	-8.89643
دار	-8.89812
اولاد	-8.90051
قوم	-8.90194
مكتوب	-8.90477
آله	-8.90593
نفس	-8.90613
عبيد	-8.90915
لن	-8.91139
بيته	-8.91197
وش	-8.91855
جمع	-8.92573
خدم	-8.92744
معك	-8.93265
انك	-8.9335
اليهود	-8.94201
وعشر	-8.94562
وليس	-8.94687
اب	-8.95161
منهم	-8.95639
ثمر	-8.9566
اسمع	-8.95971
مس	-8.9616
ضرب	-8.96373
ثان	-8.96707
ود	-8.96973
ظ	-8.97117
خرب	-8.97794
قتل	-8.98512
الطريق	-8.98679
فرح	-8.98852
انبياء	-8.98997
أت	-8.99254
خير	-8.99285
حيا	-8.99304
موضع	-8.99735
تقول	-9.00294
نساء	-9.00538
ذ	-9.01124
صور	-9.01263
اردن	-9.01373
تابوت	-9.01497
وقت	-9.02359
الموت	-9.02396
وانت	-9.02714
كال	-9.02776
نحاس	-9.03028
يخرج	-9.03053
در	-9.03058
ولس	-9.03161
دخل	-9.03255
الشهر	-9.03326
حر	-9.03545
جعل	-9.04201
المرأ	-9.04269
لحم	-9.04636
العالم	-9.048
شيئا	-9.05062
اح	-9.0529
بيد	-9.05408
كثر	-9.0558
شيوخ	-9.0565
معي	-9.05866
خارج	-9.05872
الحقل	-9.05939
والآن	-9.06155
خطي	-9.06277
يش	-9.06723
بكر	-9.06833
قل	-9.06922
وح	-9.07011
تين	-9.07122
اللاوي	-9.07587
نجس	-9.07631
خمر	-9.07876
قليل	-9.08047
وسف	-9.08157
صعد	-9.08185
وعمل	-9.08506
الفا	-9.08599
افرايم	-9.09392
قام	-9.09824
باسم	-9.10405
بنيامين	-9.10621
اخذ	-9.10658
عز	-9.10666
كن	-9.10894
بر	-9.10901
را	-9.11025
كون	-9.11278
جر	-9.11329
النبي	-9.11485
كذلك	-9.11503
مد	-9.11542
وبنو	-9.11755
الف	-9.11842
قسم	-9.11869
موآب	-9.11955
عبدك	-9.12098
بكل	-9.12156
وصايا	-9.12163
يتكلم	-9.12312
وكانت	-9.12445
سيد	-9.12669
فكان	-9.13063
هيكل	-9.13223
ابيه	-9.13225
الثاني	-9.13587
منذ	-9.13877
تخم	-9.13892
وجاء	-9.14016
ملاك	-9.14264
حسن	-9.14335
قلبه	-9.14397
يدك	-9.14408
بنت	-9.1441
اخرج	-9.1444
سكان	-9.14492
خبز	-9.14851
الهكم	-9.14916
ملوك	-9.15028
صباح	-9.15069
وادي	-9.1511
وما	-9.15119
خطايا	-9.15357
انظر	-9.15515
بلا	-9.15607
اس	-9.15693
ذكر	-9.1622
جانب	-9.16391
خلاص	-9.16823
اد	-9.16935
الباب	-9.16945
الليل	-9.16979
اليكم	-9.1705
اق	-9.1723
حجار	-9.1738
جيش	-9.17766
ابني	-9.18114
از	-9.18145
يدخل	-9.18296
طرس	-9.18435
العظيم	-9.18624
قر	-9.18711
يعرف	-9.18895
تكم	-9.18925
يعمل	-9.19106
ذراع	-9.19491
وكلم	-9.19539
وذهب	-9.1959
لبني	-9.19618
وأ	-9.19698
قا	-9.19904
يعلم	-9.19919
الجبل	-9.20023
وجد	-9.2056
ريح	-9.20591
عليكم	-9.2109
اخر	-9.2171
الشمس	-9.21752
صهي	-9.21863
اجر	-9.21889
وبعد	-9.21897
اعط	-9.22131
فانه	-9.22199
لست	-9.22594
اشرار	-9.22865
بقي	-9.22982
نهار	-9.23076
وملك	-9.23488
شد	-9.23606
بت	-9.23827
الآب	-9.23891
وخمس	-9.23898
اياه	-9.23962
الناموس	-9.24133
قلت	-9.24263
لكل	-9.24437
عد	-9.24489
سار	-9.24764
انهم	-9.25166
اجتماع	-9.25402
عهد	-9.25684
حمل	-9.25998
قدم	-9.26283
عني	-9.26439
موئيل	-9.26551
الواحد	-9.27268
بيوت	-9.27343
الاخو	-9.27561
بري	-9.27589
الشرير	-9.27608
قطع	-9.28131
شريع	-9.28181
يموت	-9.28368
منس	-9.291
كرسي	-9.29354
تعب	-9.29473
الهي	-9.29556
نصيب	-9.29556
اصعد	-9.29708
اشور	-9.29759
وني	-9.29961
يوس	-9.30005
يل	-9.30179
خيل	-9.30346
بنات	-9.30443
مات	-9.30568
ارام	-9.30573
كسر	-9.30738
الفض	-9.31134
وثلاث	-9.31286
سأل	-9.31397
مقدس	-9.31452
دان	-9.31496
شق	-9.31849
رؤوس	-9.31879
آب	-9.32058
وجهه	-9.32164
وزن	-9.32236
يفعل	-9.32348
معهم	-9.32491
وز	-9.32594
كر	-9.32646
سكن	-9.32751
قلبك	-9.32792
وضع	-9.32895
صر	-9.33011
عر	-9.33155
رأيت	-9.33206
بهم	-9.33559
افعل	-9.3368
رجلا	-9.33725
شف	-9.33855
عدد	-9.33904
اخي	-9.34053
ارمي	-9.34106
ئيل	-9.3423
جز	-9.34354
طرح	-9.34429
معا	-9.34448
آلا	-9.34487
ولي	-9.34692
تعمل	-9.34703
عشير	-9.34859
طعام	-9.34934
رجع	-9.34989
وضرب	-9.35211
زمان	-9.35441
تلاميذه	-9.35591
زوج	-9.35617
فارسل	-9.35724
ولل	-9.358
فاخذ	-9.35884
عبيده	-9.3598
فر	-9.36022
وارسل	-9.36089
نزل	-9.36182
صالح	-9.36192
وجعل	-9.36345
فهم	-9.36387
حلف	-9.36575
دور	-9.36583
الثالث	-9.36637
سبت	-9.36754
سنين	-9.36846
عوض	-9.37019
فخرج	-9.37222
سي	-9.37294
يقتل	-9.37327
كثيرا	-9.37539
حل	-9.37586
ترك	-9.37605
خل	-9.3776
ليد	-9.37965
فهو	-9.37977
ابواب	-9.3805
مساء	-9.38236
كله	-9.38346
الذهب	-9.38494
يمين	-9.38604
سلطان	-9.3866
مح	-9.38707
قلبي	-9.38718
داخل	-9.38969
الجسد	-9.38977
فجاء	-9.39058
يرجع	-9.39065
اص	-9.39136
ملكوت	-9.39142
يصنع	-9.3915
محرق	-9.39419
اهل	-9.39797
آباء	-9.39863
ظل	-9.39904
حزقيا	-9.39911
قريب	-9.39968
فقالت	-9.40053
وص	-9.40186
قت	-9.4049
وج	-9.40699
بما	-9.40985
بعيد	-9.41001
اثم	-9.41021
تعلم	-9.41035
يونا	-9.41047
مسح	-9.41074
جن	-9.41207
لانكم	-9.41254
جلعاد	-9.41383
ثياب	-9.41468
حص	-9.41547
لوم	-9.41682
راسه	-9.41728
حد	-9.41746
آم	-9.41775
شعبه	-9.41835
ويل	-9.41879
سفر	-9.41913
ارجع	-9.42077
سمعت	-9.42092
حن	-9.42109
طي	-9.42197
الشمال	-9.42199
البر	-9.42221
ادوم	-9.42251
غر	-9.42361
امه	-9.42765
ونزل	-9.42791
حجر	-9.42825
خذ	-9.42884
سا	-9.429
أليس	-9.42922
تنا	-9.4336
ايل	-9.43434
الحرب	-9.43566
مل	-9.4365
حول	-9.43797
الجب	-9.43824
خاف	-9.44059
عيون	-9.44508
دائم	-9.44542
آبائه	-9.44671
نوح	-9.44839
طوب	-9.44999
يوجد	-9.45153
السابع	-9.45255
آبائ	-9.45616
جلد	-9.45624
ابنا	-9.46568
يقدر	-9.46774
اعدائ	-9.46788
قي	-9.47083
عين	-9.47093
أما	-9.47129
الجماع	-9.47272
ظهر	-9.47571
السامر	-9.47642
قص	-9.47747
مض	-9.47752
سب	-9.47857
يعطي	-9.47937
رحم	-9.48398
جماع	-9.48829
الق	-9.48952
حو	-9.48962
تسمع	-9.49003
هن	-9.49225
يجد	-9.49373
لبس	-9.49384
الساكن	-9.49631
يئيل	-9.49886
خبزا	-9.50008
نور	-9.50095
ؤ	-9.50197
بسبب	-9.50259
خبر	-9.50366
بشر	-9.50482
ظلم	-9.50501
اعمال	-9.50703
عرف	-9.50706
شا	-9.50755
سبي	-9.50836
عمله	-9.51079
اثنا	-9.51236
وصل	-9.5142
المحل	-9.51474
فقد	-9.51556
بان	-9.51701
تت	-9.51725
صل	-9.51729
فتح	-9.51865
انكم	-9.51899
اجعل	-9.52113
الامر	-9.52177
وعل	-9.52185
فرائض	-9.52247
وقل	-9.52264
سخط	-9.52315
ذبح	-9.52399
محب	-9.52674
يأكل	-9.52676
قب	-9.52717
قدر	-9.52745
النهر	-9.52976
ياء	-9.52976
مالك	-9.53161
السلام	-9.53224
كف	-9.53282
صب	-9.53386
تني	-9.53812
وط	-9.53888
اليهم	-9.5407
الدم	-9.54093
وخرج	-9.54107
يقولون	-9.54154
ميراث	-9.54279
ساكن	-9.54557
جب	-9.54622
تأكل	-9.54683
فاني	-9.5481
المدن	-9.55363
ابشا	-9.55382
دعو	-9.55389
يه	-9.55418
وخ	-9.55481
اجاب	-9.55602
وآب	-9.55616
بارك	-9.55646
اخبر	-9.55753
طلب	-9.55818
فقام	-9.55985
الجنوب	-9.56076
خوف	-9.56354
الوقت	-9.5637
معكم	-9.56532
جبال	-9.5668
وتكون	-9.56722
عاد	-9.56818
رق	-9.56882
دفع	-9.5693
قض	-9.56973
شاقل	-9.57213
مملك	-9.57283
واجعل	-9.5735
رسل	-9.57399
واربع	-9.57603
الخطي	-9.57603
خر	-9.57657
رت	-9.57729
جسد	-9.5779
اسمك	-9.57844
وجوه	-9.57951
واذ	-9.57972
يقوم	-9.58238
رد	-9.58405
وبين	-9.58481
مذبح	-9.5862
يربع	-9.58626
قضاء	-9.58793
انفس	-9.58835
عمون	-9.58994
شعر	-9.5926
قوي	-9.59374
شهد	-9.59452
آتي	-9.59499
زر	-9.59653
علم	-9.59942
وأت	-9.60044
فيكون	-9.60792
بط	-9.60824
سقط	-9.6112
الاثم	-9.61123
فعلت	-9.61382
يطلب	-9.61421
اموات	-9.61435
احكام	-9.61438
فق	-9.61485
هرب	-9.61667
فقط	-9.6194
قبر	-9.62121
شرق	-9.62138
اخت	-9.62346
جت	-9.62578
عرض	-9.62609
حزن	-9.62678
المصري	-9.62957
لبن	-9.62972
وهي	-9.62983
الحيا	-9.63025
كهن	-9.63049
يوحنا	-9.63068
وسبع	-9.63133
دين	-9.63133
امان	-9.63152
برك	-9.63165
وحده	-9.63463
مسكن	-9.63584
مرض	-9.63775
شبع	-9.63835
ميت	-9.63907
كتب	-9.64045
الحي	-9.64191
وث	-9.64293
جاد	-9.6441
واقام	-9.64423
تخرج	-9.64593
طرد	-9.64609
مبارك	-9.64931
تدخل	-9.6509
اسباط	-9.65157
خشب	-9.65343
عظم	-9.65354
الحكم	-9.65453
للملك	-9.65696
اثني	-9.65796
انفسهم	-9.6596
نصف	-9.66061
علين	-9.66067
اسحق	-9.66102
كرم	-9.66268
جعلت	-9.66534
اعلم	-9.66541
ثوب	-9.66759
صاحبه	-9.66825
تعد	-9.66842
اخطأ	-9.67305
الدهر	-9.67429
معرف	-9.67748
غش	-9.67757
خيرا	-9.67838
يز	-9.67932
بار	-9.67979
واخبر	-9.68211
حرب	-9.6824
حديد	-9.68331
ايليا	-9.68382
وانتم	-9.68412
امرأت	-9.68544
لنفسه	-9.68547
تعلمون	-9.6866
عينيه	-9.68669
جيد	-9.6917
مركبات	-9.69306
اذن	-9.69338
شرا	-9.69339
اسمي	-9.69413
تعرف	-9.69561
ومات	-9.69615
الظلم	-9.6962
امور	-9.6974
زيت	-9.69875
تكلمت	-9.6991
احب	-9.70201
كامل	-9.7031
مطر	-9.70349
تأتي	-9.70507
امامك	-9.70531
عام	-9.70648
وست	-9.70661
خلص	-9.7079
بحسب	-9.70827
كنعان	-9.70889
المقدس	-9.71084
فاط	-9.71175
كذب	-9.71183
مكانه	-9.71207
عظام	-9.71352
وصي	-9.71804
يحب	-9.71816
ثور	-9.71817
خزي	-9.71879
نير	-9.71893
بد	-9.72014
تلاميذ	-9.72016
بقر	-9.72027
عم	-9.7205
الرابع	-9.72081
جمهور	-9.72081
بئر	-9.72084
لجميع	-9.72399
لانها	-9.72419
اخوته	-9.7243
ايديهم	-9.72479
ملأ	-9.72542
رمل	-9.7255
عي	-9.72582
اذرع	-9.72603
لسان	-9.72799
اخو	-9.72846
ابا	-9.72972
واقف	-9.72977
قاد	-9.73001
والم	-9.73003
مقابل	-9.73112
يدع	-9.73202
شجر	-9.73613
زرع	-9.737
وصعد	-9.73725
مز	-9.73796
حفظ	-9.74038
وقف	-9.74133
سور	-9.7418
اعطيت	-9.74194
سم	-9.74204
سلا	-9.74248
شحم	-9.74377
فمن	-9.74527
اصر	-9.74542
صف	-9.74585
واعط	-9.74704
كنتم	-9.74733
المغن	-9.74824
يذهب	-9.7485
ضد	-9.74884
حواليه	-9.74996
ودعا	-9.75044
يتها	-9.75214
عبيدك	-9.75237
بعل	-9.75394
حلم	-9.75505
يسقط	-9.75606
حم	-9.75614
اذكر	-9.75741
ضيق	-9.75814
عصا	-9.75828
ودخل	-9.75871
قط	-9.75897
مش	-9.7626
داني	-9.76319
طول	-9.76339
عزر	-9.76423
رم	-9.769
اجتمع	-9.76974
نزع	-9.77031
وسجد	-9.77042
فلي	-9.77081
حضر	-9.77126
فس	-9.77165
شبه	-9.77167
المحرق	-9.77368
طاهر	-9.77392
سك	-9.774
موا	-9.77411
ووضع	-9.77495
غن	-9.77508
ليكن	-9.7751
سير	-9.77597
طرق	-9.77655
واسم	-9.77688
معل	-9.7774
تنبأ	-9.77744
الصد	-9.77847
ثماني	-9.7821
وبنات	-9.7831
اقداس	-9.78451
لح	-9.78538
الثلاث	-9.78576
الغرب	-9.78866
ليست	-9.79023
نج	-9.79218
تصير	-9.79262
ونها	-9.79282
ابدي	-9.79338
اسد	-9.79733
غط	-9.79812
نذر	-9.79834
اش	-9.7995
عنده	-9.80019
نسل	-9.80224
خراب	-9.80255
هلاك	-9.80322
ملكا	-9.80378
يصعد	-9.80453
المسكن	-9.80461
وعن	-9.80645
رأوبين	-9.80673
ارتحل	-9.80703
ووقف	-9.8073
صرت	-9.80916
عامل	-9.8119
ذراعا	-9.81252
تكن	-9.81505
انها	-9.81511
محل	-9.81631
خرجت	-9.81734
فذهب	-9.81832
يهلك	-9.82244
سل	-9.82289
امامه	-9.82348
نهاي	-9.82407
اط	-9.82425
تاكل	-9.82606
فرق	-9.8261
زن	-9.82713
سلم	-9.82822
داع	-9.82843
رام	-9.82991
عشائرهم	-9.83155
عود	-9.83477
هدي	-9.83583
ضل	-9.83831
ابو	-9.83867
عيد	-9.84032
حمي	-9.84053
خجل	-9.84254
ثيابه	-9.84284
يضع	-9.84329
تنظر	-9.84363
صرخ	-9.84417
فأت	-9.84521
صنعت	-9.84612
سكب	-9.84811
يهويا	-9.84822
حارب	-9.84875
فقلت	-9.84917
بغي	-9.84919
مست	-9.85238
آني	-9.85399
تصنع	-9.85416
بهائم	-9.85446
اطلب	-9.8552
جو	-9.8573
سحق	-9.85811
اعظم	-9.85816
شار	-9.85959
طلق	-9.86104
الكلم	-9.8616
ثبت	-9.86226
شرب	-9.86465
ربنا	-9.87008
بيده	-9.87048
آسا	-9.87159
تفعل	-9.87181
وبيت	-9.87204
فك	-9.87223
جديد	-9.87329
بنين	-9.87468
نظر	-9.875
الكلداني	-9.87594
رجاء	-9.87648
لبيت	-9.87662
طس	-9.87724
السبع	-9.87801
راح	-9.88007
يهوش	-9.88023
حا	-9.88085
فد	-9.88308
وبقي	-9.88544
الاله	-9.88805
البقر	-9.88867
تذكر	-9.88894
امين	-9.89028
سوا	-9.89091
فدعا	-9.89173
اولا	-9.89235
تدع	-9.89268
الآخر	-9.89389
ابيك	-9.89825
بون	-9.89864
يوآ	-9.89937
غل	-9.89957
ارد	-9.89977
اخيه	-9.90308
رض	-9.90647
وصنع	-9.90658
بأس	-9.90734
ائه	-9.90834
بكم	-9.91017
يقف	-9.91038
دعي	-9.91071
تأخذ	-9.91091
رفع	-9.91226
وجهك	-9.91227
يجعل	-9.91296
ونني	-9.91296
مدخل	-9.91314
شهر	-9.91432
فاذا	-9.91758
بصوت	-9.91794
مرتفعات	-9.9181
اصنع	-9.91872
وصار	-9.91917
بيتك	-9.91961
محرقات	-9.9206
فدخل	-9.92148
هاوي	-9.92179
يسلم	-9.9219
عنك	-9.92195
وحي	-9.92266
ارز	-9.9227
كاهن	-9.92288
ادخل	-9.92308
باطل	-9.92349
الاموري	-9.92367
المحب	-9.92442
الغد	-9.92446
نفوس	-9.92526
العلي	-9.92576
طا	-9.92597
ذبائح	-9.92629
خت	-9.92654
يديه	-9.927
حامل	-9.9285
نصب	-9.9295
ساق	-9.93161
غنيم	-9.93183
اول	-9.93234
ثق	-9.93274
الخير	-9.93294
يحفظ	-9.93466
غني	-9.9348
امير	-9.93683
شيطان	-9.93758
جئت	-9.9377
اعين	-9.93891
يثبت	-9.93952
فمه	-9.94102
بوق	-9.9413
دعا	-9.94324
فصح	-9.94394
سائر	-9.94395
بطل	-9.94515
عص	-9.94554
لموس	-9.94754
يعط	-9.94797
ايدي	-9.94837
حبرون	-9.95043
ميخا	-9.95046
وقتل	-9.95203
اخوت	-9.95213
اضطجع	-9.95213
يخبر	-9.95244
عثر	-9.95376
ارسلت	-9.95433
نهب	-9.95447
عرفت	-9.95535
اطلق	-9.95776
ارا	-9.95871
تموه	-9.95905
غريب	-9.95968
جاز	-9.96044
حقل	-9.96072
الكتب	-9.96158
اقوال	-9.96355
شم	-9.96419
آباؤ	-9.96554
ريحا	-9.96618
يقيم	-9.96673
صدق	-9.9681
هدم	-9.9688
كلمات	-9.96948
مشور	-9.96956
تعطي	-9.96959
قرع	-9.96984
باش	-9.97007
اعم	-9.97059
فني	-9.9712
طف	-9.97395
معنا	-9.97494
قيم	-9.97521
كنيس	-9.9756
دقيق	-9.97654
الجليل	-9.97654
سجن	-9.97766
طيور	-9.97803
جلب	-9.97818
بحر	-9.9787
حور	-9.97915
الشرق	-9.9811
سرور	-9.98143
هز	-9.98365
حراس	-9.98438
عجل	-9.98545
ابناء	-9.98749
روا	-9.98794
تخوم	-9.98795
تعال	-9.9884
لصوت	-9.98892
قضي	-9.99017
عالي	-9.99135
جمال	-9.99151
سكت	-9.99155
وجدت	-9.99178
ضعف	-9.99265
وجهي	-9.99272
بسط	-9.99379
ياتي	-9.994
فصعد	-9.9944
وعند	-9.9947
اقام	-9.99555
بث	-9.99584
السحاب	-9.99608
وانظر	-9.99684
خروج	-9.99717
الامور	-9.99869
غفر	-9.99887
يرفع	-9.99913
القت	-9.9995
حكماء	-9.99964
فتكون	-10.0001
بق	-10.0023
نسلك	-10.0032
دخول	-10.0034
قدامه	-10.0044
رؤيا	-10.0046
طل	-10.0046
بنيه	-10.0052
ومت	-10.0058
حمو	-10.006
صغير	-10.0064
اعرف	-10.0073
منظر	-10.0076
صرف	-10.0104
احفظ	-10.0111
كنا	-10.0111
ملائك	-10.0123
شاهد	-10.0125
تسبيح	-10.0171
عشب	-10.018
آمن	-10.0182
حاز	-10.0185
ارفع	-10.0188
تحفظ	-10.0189
الملوك	-10.0197
تقو	-10.0204
عبدي	-10.0205
قري	-10.021
دون	-10.0223
واللاوي	-10.0225
عينا	-10.0227
ظلام	-10.0247
مستقيم	-10.0247
حفر	-10.0248
تعط	-10.0251
واخوته	-10.0259
غرس	-10.0285
كس	-10.0294
مريم	-10.0305
شديد	-10.0319
فما	-10.0319
العهد	-10.0323
وهذا	-10.0323
عملت	-10.0325
رفض	-10.0329
تقل	-10.0343
ناموس	-10.0349
ياكل	-10.0357
ذنب	-10.0361
يأخذ	-10.0365
يح	-10.0368
نس	-10.0384
لاوي	-10.0387
غلام	-10.0394
داب	-10.0398
يوما	-10.0402
قيل	-10.0405
انجيل	-10.0409
شكر	-10.0414
تخف	-10.0421
المر	-10.0422
ورؤساء	-10.0422
الاربع	-10.0432
ذل	-10.0447
افكار	-10.0451
اراضي	-10.0453
بخور	-10.0455
مزم	-10.046
آيات	-10.0479
نقي	-10.0482
عابر	-10.0482
نق	-10.049
إ	-10.0516
جد	-10.0536
ورجع	-10.0546
فأ	-10.0548
بينهم	-10.0556
ذي	-10.056
اقيم	-10.0562
عندك	-10.0564
وقع	-10.0574
وعر	-10.0577
فضرب	-10.0582
اناس	-10.0589
صانع	-10.0596
مجمع	-10.0597
يسكن	-10.0602
الكنعاني	-10.0619
أف	-10.0631
تشدد	-10.0634
القديس	-10.0638
والذي	-10.0638
الجوع	-10.0643
ائيل	-10.0661
غز	-10.0679
دوا	-10.0705
تذهب	-10.0724
قدوس	-10.0736
فريض	-10.0738
وقالت	-10.0745
تاج	-10.0747
يقبل	-10.075
مسكين	-10.0751
عار	-10.0768
طالب	-10.077
فسد	-10.077
الكتاب	-10.0795
الخبز	-10.0801
عينه	-10.0811
الصالح	-10.0812
رحب	-10.0816
الكذب	-10.0869
اعطي	-10.0883
صلب	-10.0885
سريع	-10.0887
كور	-10.0898
ركب	-10.0903
خي	-10.0909
ردي	-10.091
تضع	-10.091
ثاني	-10.0912
برص	-10.0914
فصار	-10.0923
يصير	-10.0924
مما	-10.0932
سق	-10.0936
وعد	-10.0947
دعوا	-10.096
تسع	-10.0963
صخر	-10.0964
النور	-10.0968
فخ	-10.0974
شب	-10.0977
باد	-10.0977
قفر	-10.0979
شمعي	-10.0982
حاكم	-10.0982
عشائر	-10.1002
يرد	-10.1008
امي	-10.1012
آكل	-10.1015
اراد	-10.102
فه	-10.1023
يسر	-10.1026
اصاب	-10.1027
ترد	-10.1035
شكيم	-10.1036
تعليم	-10.1042
حنط	-10.1042
غدا	-10.1045
جبابر	-10.1047
فأخذ	-10.1059
حبل	-10.1059
برج	-10.1071
امك	-10.1098
اجمع	-10.1102
عهدا	-10.1108
وقلت	-10.1124
قرب	-10.1128
ولدت	-10.1131
يبق	-10.1133
طريقه	-10.1146
اليهودي	-10.1146
جبع	-10.1152
التراب	-10.1155
مرد	-10.1158
غسل	-10.1166
طرف	-10.1167
عبده	-10.1171
حيوان	-10.1175
ند	-10.1191
يؤمن	-10.1196
حز	-10.1198
كبر	-10.1206
بعضهم	-10.122
المجد	-10.1221
لئك	-10.1231
نهر	-10.1245
صراخ	-10.1246
رون	-10.1254
واصعد	-10.1254
يعل	-10.1256
ملكه	-10.1271
عظ	-10.1303
غضبه	-10.1307
الساع	-10.1308
فخر	-10.1314
حقا	-10.1315
ذو	-10.1321
جث	-10.1328
فات	-10.1334
اصل	-10.1335
خزائن	-10.134
رائح	-10.134
المعدود	-10.134
حائط	-10.1341
بطن	-10.1345
الصبي	-10.1346
قرض	-10.1347
جل	-10.137
تقي	-10.1372
فمات	-10.138
ففعل	-10.1387
السفين	-10.1401
ابوه	-10.1404
كرام	-10.1406
حث	-10.142
جالس	-10.1422
وير	-10.1432
مكر	-10.1443
ليكون	-10.1452
اخذت	-10.1457
كلهم	-10.1467
جند	-10.148
جموع	-10.1502
اختار	-10.1508
ليل	-10.151
رث	-10.1515
يشرب	-10.1516
نجسا	-10.1527
الفريسي	-10.1544
علمت	-10.1546
خمسين	-10.1548
طم	-10.1611
بالحق	-10.1611
رجليه	-10.1631
ومض	-10.1639
فسمع	-10.1651
طهر	-10.1654
ابنك	-10.167
يخطئ	-10.168
ورأ	-10.1684
رحمته	-10.1696
لوط	-10.1703
زم	-10.1706
خروف	-10.1708
نبي	-10.1713
الههم	-10.172
آخذ	-10.1747
هلم	-10.1752
شهاد	-10.1753
اتكلم	-10.1754
سين	-10.1809
الخامس	-10.1816
جوع	-10.182
حما	-10.1827
قرأ	-10.1836
سيده	-10.1836
حولي	-10.1849
مه	-10.185
رج	-10.1865
يونان	-10.1878
جم	-10.1879
وتصنع	-10.1886
انهار	-10.1889
وسار	-10.189
يترك	-10.1905
ترس	-10.1919
رجم	-10.1926
وحدث	-10.1927
بكلام	-10.1927
وسمع	-10.1935
قربان	-10.1963
حافظ	-10.1981
افواه	-10.1982
دمشق	-10.1991
شرك	-10.1994
ابد	-10.2001
افضل	-10.2005
حدث	-10.2013
ويجعل	-10.2017
فطير	-10.203
صاعدا	-10.2037
لستم	-10.2042
فتخر	-10.2048
فاخبر	-10.2066
كشف	-10.2066
عنهم	-10.2077
الصخر	-10.2078
بجانب	-10.2079
حمار	-10.2081
بنون	-10.2086
يضرب	-10.2091
اوص	-10.2109
فكر	-10.2125
عدا	-10.2133
واخرج	-10.2133
غلمان	-10.2151
مون	-10.2172
خاي	-10.2174
غي	-10.2175
الخارج	-10.2181
فكلم	-10.2187
عش	-10.2193
وراءه	-10.2197
رنم	-10.22
باع	-10.2222
رآه	-10.2243
يحمل	-10.2258
كتاب	-10.2258
عالم	-10.2261
بقو	-10.2266
لعام	-10.2274
يعطيك	-10.2277
اصنام	-10.2278
راسي	-10.2279
وعبد	-10.2283
تان	-10.2284
طر	-10.2285
ستر	-10.2299
صفا	-10.2301
وتكلم	-10.2302
ليشع	-10.2304
علام	-10.2306
يكلم	-10.2311
دهن	-10.2312
ونصف	-10.2314
دخلت	-10.2315
صير	-10.2324
فرغ	-10.2325
اصحاب	-10.2325
ويش	-10.233
رعا	-10.2332
جلس	-10.2337
ضع	-10.2342
تل	-10.235
حب	-10.2362
دفن	-10.2363
وبارك	-10.2368
نبوخذن	-10.2371
اسرع	-10.2375
تموت	-10.2385
يسير	-10.239
عصي	-10.2397
عدو	-10.2405
يطلبون	-10.2412
ركض	-10.2412
فنزل	-10.2414
تس	-10.242
صاحب	-10.2422
حسنا	-10.2423
صو	-10.2444
اكر	-10.2467
طرقه	-10.2468
العمل	-10.2471
اباه	-10.2476
يستطيع	-10.2489
اعداء	-10.2498
بالرب	-10.2507
رجس	-10.2517
راعي	-10.2525
وعبر	-10.2534
مرات	-10.2536
قوا	-10.2562
خارجا	-10.2576
يفهم	-10.2578
قاء	-10.2582
رعب	-10.2585
كبير	-10.2586
العدل	-10.261
احدا	-10.2617
كاس	-10.2619
الملاك	-10.2624
وعز	-10.2627
فيكم	-10.2628
الغريب	-10.2637
رك	-10.2643
خاصم	-10.2646
ساع	-10.265
فرس	-10.2652
يخلص	-10.2654
ابصر	-10.2657
دنس	-10.266
قرون	-10.2662
آذان	-10.2665
تجار	-10.2665
ضي	-10.2668
اصغ	-10.2695
اسماء	-10.2699
الباقي	-10.2699
ألعل	-10.2702
تبر	-10.2705
قوس	-10.2708
غيظ	-10.2718
ارضه	-10.2733
صدقي	-10.2736
يات	-10.274
الهه	-10.2757
اطين	-10.277
لأ	-10.2776
دينون	-10.2776
ثلث	-10.278
سبق	-10.2805
الجالس	-10.2805
تست	-10.2817
بيلا	-10.2824
يوب	-10.2825
عج	-10.2829
ويهو	-10.2832
تمثال	-10.2844
عمي	-10.2844
عور	-10.285
نبو	-10.2862
بسلام	-10.2863
خيام	-10.2872
فار	-10.2875
اقص	-10.2878
صح	-10.2881
قضا	-10.2886
وبن	-10.2892
اشت	-10.2894
يغ	-10.2904
فصل	-10.2907
يوشي	-10.2909
مضي	-10.2911
مسر	-10.2918
وحوش	-10.2935
روحي	-10.2957
جاري	-10.2964
واست	-10.2964
بجميع	-10.2965
فرجع	-10.2978
ممالك	-10.298
المعز	-10.2981
وبنيه	-10.2984
السبي	-10.2993
يصل	-10.3004
ضح	-10.3017
ذاك	-10.3021
تجد	-10.3022
رجاسات	-10.3025
أن	-10.3025
وحش	-10.3025
اكتب	-10.3034
الضيق	-10.3035
مشيئ	-10.304
فليس	-10.305
اسأل	-10.3054
عجائب	-10.3097
زل	-10.3105
المستقيم	-10.3108
الكبير	-10.3109
بالروح	-10.3114
تهلك	-10.315
رفعت	-10.316
اشع	-10.3163
سلك	-10.3164
وبك	-10.3177
ضم	-10.3188
رسلا	-10.3193
ويقول	-10.3202
نعلم	-10.3205
حصن	-10.3205
اقترب	-10.3212
نفتالي	-10.3212
تعجب	-10.3222
اجيال	-10.3222
تقدر	-10.3225
حاج	-10.3225
فمك	-10.3233
ومع	-10.3234
نظرت	-10.3239
كتان	-10.3244
ثورا	-10.3253
انزل	-10.3259
تحب	-10.3268
فتش	-10.3277
السور	-10.3281
صحيح	-10.3292
وولد	-10.3318
الجيل	-10.3323
ثقل	-10.3325
رجلي	-10.333
رفق	-10.3336
وئيل	-10.3337
تيم	-10.3339
تحي	-10.3346
بلاد	-10.3354
عطش	-10.3368
وسطك	-10.3376
لعن	-10.3378
تضرع	-10.3388
اللذ	-10.3391
لوقت	-10.3398
ارضك	-10.3399
يجلس	-10.3401
رائي	-10.3403
خبار	-10.3403
ألم	-10.3407
وجلس	-10.3408
فرز	-10.3409
اخوتهم	-10.3418
مواشي	-10.3426
شبك	-10.3429
الاخير	-10.3442
تثبت	-10.3451
بيع	-10.3453
ابتدأ	-10.3462
ترنم	-10.3463
حوله	-10.3465
وادخل	-10.3467
يسمعون	-10.3469
ارضهم	-10.3483
كروم	-10.3487
لانفس	-10.349
اهلك	-10.3494
قلع	-10.3499
الفهم	-10.3501
الحجر	-10.3501
مائد	-10.3503
ائم	-10.3504
كره	-10.3512
الكثير	-10.3523
صي	-10.3527
تجعل	-10.3533
طو	-10.3546
ترجع	-10.3562
سجد	-10.3572
اشجار	-10.3591
ثرو	-10.3592
خادم	-10.3594
القديم	-10.3595
ائر	-10.3598
اسفل	-10.3601
غطاء	-10.3606
رسول	-10.3614
يسجد	-10.3619
العدو	-10.3625
تمسك	-10.3625
اشير	-10.363
حشب	-10.3635
ينزل	-10.364
شيخ	-10.364
وسكن	-10.3648
رؤ	-10.365
اريد	-10.366
مخل	-10.368
اخوتك	-10.3693
وقام	-10.3703
لانفسهم	-10.3731
راي	-10.3733
تنجس	-10.3734
فارس	-10.3736
شعبا	-10.3742
كوش	-10.375
ائي	-10.376
سوف	-10.3763
ذري	-10.3785
مذابح	-10.3787
خائف	-10.3787
ثيران	-10.3787
مسرح	-10.3793
سدو	-10.3795
فتن	-10.3799
زبولون	-10.3799
فكانت	-10.3801
لامام	-10.3802
دوس	-10.3802
شهود	-10.3804
عزريا	-10.382
صادق	-10.3835
يفرح	-10.3838
كلامك	-10.3872
قدمي	-10.3885
الزيت	-10.3909
والي	-10.3917
احمد	-10.3926
وثق	-10.3937
تراب	-10.3965
صبر	-10.3978
ايادي	-10.3988
مملوء	-10.3988
هتاف	-10.3992
الصغير	-10.3996
شمعون	-10.4002
يعود	-10.4005
تغرب	-10.4013
البعل	-10.4013
فتقدم	-10.4016
قدامك	-10.4017
اجي	-10.4018
الشهاد	-10.403
راحي	-10.4038
آي	-10.4039
صوته	-10.4039
عرش	-10.4042
شوك	-10.4065
تتكلم	-10.4067
العر	-10.4074
فدي	-10.4078
وقود	-10.4081
جري	-10.4086
نجاس	-10.409
البار	-10.4093
سحاب	-10.4097
يأكلون	-10.41
فكي	-10.4102
قدسه	-10.4136
النعم	-10.4149
أر	-10.4152
خن	-10.4153
لج	-10.4155
غم	-10.4157
دمه	-10.4158
الغلام	-10.4182
مجده	-10.4192
صد	-10.4194
فوجد	-10.4194
ابواق	-10.4197
وعاش	-10.4201
قدير	-10.4203
رح	-10.4219
واعطي	-10.4227
اخترت	-10.4229
ينظر	-10.4235
عدم	-10.4241
يخز	-10.4244
ورفع	-10.4244
نون	-10.4253
اجد	-10.4258
زنا	-10.4262
عس	-10.4264
حرم	-10.4269
يفن	-10.427
غربا	-10.4274
يبصر	-10.4283
باطلا	-10.4283
جناح	-10.4295
الرحم	-10.4297
بدد	-10.43
بغض	-10.4307
قرن	-10.431
المس	-10.4315
اليمن	-10.4322
تراء	-10.4326
تحمل	-10.4331
ابيش	-10.4337
مرت	-10.4338
الوف	-10.434
مجي	-10.4346
بالاق	-10.4346
يذبح	-10.4358
امس	-10.4379
السفر	-10.4396
اجتاز	-10.44
الثامن	-10.44
يرسل	-10.4401
قف	-10.4409
سماعي	-10.4409
بغت	-10.4409
جبار	-10.4425
رحمتك	-10.443
سلاح	-10.4437
ساح	-10.4437
تشرب	-10.4442
اعطيك	-10.4446
تبرر	-10.4452
ائهم	-10.4455
قصر	-10.4456
خدام	-10.4457
يأتون	-10.4466
وابي	-10.4494
صلح	-10.4496
الضرب	-10.45
صيب	-10.4501
جلج	-10.4503
حيات	-10.4515
فضل	-10.4544
تمام	-10.4548
رمح	-10.4554
ومسارح	-10.456
الثور	-10.4562
حمد	-10.4565
جف	-10.4566
يدين	-10.4576
شرير	-10.4586
باق	-10.4588
عيش	-10.4591
اسمانجوني	-10.4612
هيرودس	-10.4612
ذنوب	-10.4612
بالحري	-10.4613
شبا	-10.4613
ملعون	-10.4614
آثام	-10.4614
قيصر	-10.4614
شمس	-10.4615
الجاهل	-10.4617
حيوانات	-10.4622
منحوت	-10.4623
اخاه	-10.4624
قصب	-10.4634
استقام	-10.4642
ألق	-10.4645
قادر	-10.4658
الداخلي	-10.4678
أب	-10.4689
زب	-10.47
والعشر	-10.4706
فعله	-10.4715
اضع	-10.4725
تعل	-10.4731
يسلك	-10.4733
دعوت	-10.4742
يبس	-10.4747
فحص	-10.4747
طير	-10.4749
حبيب	-10.475
سلب	-10.4752
صاعد	-10.4759
قوته	-10.4764
انسانا	-10.4766
حمق	-10.4766
يتم	-10.4768
بس	-10.4777
ونظر	-10.479
قائم	-10.4796
وجمع	-10.4799
وحين	-10.4801
قبله	-10.4805
يجب	-10.4824
قس	-10.4825
تطلب	-10.4829
قورح	-10.4832
ألسن	-10.4835
احسن	-10.4847
تؤمن	-10.4847
حارس	-10.4852
فهي	-10.4854
ارتفع	-10.4859
ويس	-10.4863
ألا	-10.4873
قاعد	-10.4874
لاسرائيل	-10.4876
يحل	-10.4886
وآخر	-10.4889
يقطع	-10.489
سمعنا	-10.4897
يعبر	-10.4908
يريد	-10.4909
مساكن	-10.4915
مرار	-10.4915
ذاهب	-10.4925
سود	-10.4941
نطق	-10.4942
سرا	-10.4946
اباد	-10.4957
ابينا	-10.4964
طيب	-10.4967
يحيا	-10.4973
التقدم	-10.4992
يطرد	-10.4997
لابرا	-10.5003
قاس	-10.5011
بدون	-10.5014
عارف	-10.5025
وبيد	-10.5025
ايم	-10.5025
خراف	-10.5042
تأديب	-10.5052
معروف	-10.5052
جدعون	-10.5052
طلع	-10.5056
منطق	-10.5058
تسقط	-10.5059
جميل	-10.5063
شغل	-10.5067
عوج	-10.5076
سام	-10.5076
كتبت	-10.5083
ابر	-10.5088
فلت	-10.5089
سيح	-10.5089
تريد	-10.5102
فاعط	-10.511
سيل	-10.5116
الفقير	-10.5118
الكاتب	-10.5119
اتخذ	-10.5122
ضحك	-10.5132
لتكن	-10.5135
حمير	-10.514
امامهم	-10.5143
واذهب	-10.5143
يطلق	-10.515
جبعون	-10.515
يلبس	-10.5152
كباش	-10.5154
بات	-10.5165
الاثني	-10.5186
يقر	-10.5188
يحارب	-10.5189
نت	-10.5192
زين	-10.5198
وامر	-10.5204
ملح	-10.5207
بشي	-10.5207
سبب	-10.5216
شفتي	-10.5219
طين	-10.5219
شمال	-10.522
حمام	-10.522
وخذ	-10.5223
نازل	-10.5224
تسكن	-10.5233
رجعت	-10.5239
اعد	-10.524
اعمد	-10.5246
مزمع	-10.5248
تعبد	-10.5254
وتجعل	-10.5256
افع	-10.5259
سفن	-10.5261
ناد	-10.5266
كبش	-10.5273
وار	-10.5276
السادس	-10.5279
مساكين	-10.5279
كبرياء	-10.528
ألي	-10.5287
تصعد	-10.5289
جسده	-10.5294
اوس	-10.5296
يحرق	-10.5299
جع	-10.5301
اسنان	-10.5302
سرير	-10.5305
شاء	-10.5306
الينا	-10.5325
اطفال	-10.5326
حس	-10.534
شمش	-10.5343
الحر	-10.5345
ترون	-10.5346
ائل	-10.535
سقي	-10.5351
يغسل	-10.5352
اشتر	-10.5357
المسكون	-10.536
سيا	-10.5362
تخافو	-10.5362
فاجتمع	-10.5365
حنن	-10.5368
زهر	-10.537
اثنتي	-10.5384
وبني	-10.5387
زكري	-10.5399
صبا	-10.5405
ياخذ	-10.5417
حفظت	-10.5418
فيض	-10.5461
الآتي	-10.5464
أتي	-10.5468
أخر	-10.5475
خفي	-10.5479
نوم	-10.5482
آت	-10.5483
الاشي	-10.5484
لملوك	-10.5494
جيوش	-10.5512
فتر	-10.5512
وقراه	-10.5514
سكر	-10.5528
نجا	-10.5532
بناء	-10.5536
وقطع	-10.5557
اللحم	-10.5562
صعدت	-10.5564
يعلمون	-10.5567
الراس	-10.5573
بدم	-10.5576
رخ	-10.5612
القدوس	-10.5612
يسأل	-10.5625
أعطي	-10.5626
لباس	-10.5626
ينزع	-10.5638
غلف	-10.5638
يعرفون	-10.5638
شيلو	-10.5648
نسي	-10.5653
تحر	-10.5656
نح	-10.5665
اذني	-10.5667
القائل	-10.5673
يحسن	-10.5681
الكرم	-10.5684
عمود	-10.5689
اسكن	-10.5692
سمعتم	-10.5692
يظهر	-10.5703
غبي	-10.5724
مبغضي	-10.5726
شهو	-10.5727
بهيم	-10.5739
لرجل	-10.5742
اغصان	-10.575
ناظر	-10.575
خضر	-10.5751
فطن	-10.5752
ضطهد	-10.5752
رئيسا	-10.5757
فراش	-10.5764
العاز	-10.5769
امصي	-10.5772
ساعد	-10.5775
تعظم	-10.5775
رواق	-10.5777
وغ	-10.5781
الارامي	-10.5781
وطلب	-10.5782
كلامه	-10.5791
سبا	-10.5793
جاع	-10.5793
اسر	-10.5796
ومعه	-10.5808
ربط	-10.5809
رسال	-10.5813
ومجد	-10.5816
خد	-10.5823
بارا	-10.5823
تعملون	-10.5825
اشهر	-10.5826
اكمل	-10.5839
العرب	-10.5843
أم	-10.5856
شدد	-10.5861
ويت	-10.5893
لهرون	-10.5904
سامع	-10.5911
اسوار	-10.5911
شك	-10.5912
ومر	-10.5922
يسار	-10.5924
تقدس	-10.5924
كلاهم	-10.5932
يكف	-10.5938
قمح	-10.5938
شقق	-10.5956
قيام	-10.5963
الابدي	-10.5974
ائس	-10.5986
مستدير	-10.5993
مخدع	-10.5994
انته	-10.5995
دخان	-10.5998
جثث	-10.6
قبور	-10.6001
سفك	-10.6003
قبض	-10.6005
المعرف	-10.6023
وهرب	-10.6029
البشر	-10.6038
حطب	-10.6042
وشا	-10.6047
طوله	-10.6064
وناد	-10.6065
شتا	-10.6067
قالت	-10.6067
اكلت	-10.6074
طلبت	-10.6076
حقول	-10.6077
واحرق	-10.608
لبنا	-10.6081
رأت	-10.6083
اترك	-10.6085
آه	-10.6086
حان	-10.6086
وفا	-10.6088
الحث	-10.609
العين	-10.6096
اوصيك	-10.6107
يبغض	-10.6108
رس	-10.6112
وكبش	-10.6116
وسقط	-10.6117
مغار	-10.612
أخذ	-10.6124
تأكلون	-10.6146
يهرب	-10.6182
ارسله	-10.619
اخيك	-10.6195
سهام	-10.62
فلن	-10.6206
يتبع	-10.6235
ليق	-10.6237
ئن	-10.6237
يجر	-10.6243
يختار	-10.6244
حكيم	-10.6252
كريم	-10.6254
سرق	-10.6261
انقذ	-10.6265
صادو	-10.6268
فصرخ	-10.627
رفيع	-10.6282
لابس	-10.6289
مديان	-10.6289
شهادات	-10.629
يجمع	-10.6293
شور	-10.6294
امسك	-10.6295
اكليل	-10.63
مجن	-10.6302
وبنوه	-10.6304
ختم	-10.6314
ختان	-10.6315
قربانه	-10.6317
يدعو	-10.6317
بلغ	-10.6324
ادع	-10.6324
اعدائك	-10.633
ورام	-10.6331
تبق	-10.6339
تألم	-10.6339
مثله	-10.6342
فخذ	-10.6344
تترك	-10.6347
حاد	-10.6361
مذ	-10.6362
يفتح	-10.6367
بدل	-10.637
الحكيم	-10.6379
قاتل	-10.6387
يموث	-10.6402
خب	-10.6402
متسلط	-10.6405
رمم	-10.641
ولو	-10.6412
يزيد	-10.6415
تعرفون	-10.6425
يعد	-10.6429
فمض	-10.6429
يخل	-10.6435
مذبحا	-10.6446
▁	-10.6453
قود	-10.6454
مراري	-10.6455
ويشرب	-10.6458
طار	-10.6474
بيتي	-10.6476
دود	-10.6488
البكر	-10.6488
ميل	-10.6496
تزعزع	-10.65
خطوات	-10.65
استيقظ	-10.65
العبراني	-10.6502
شريعت	-10.6502
ارواح	-10.6506
وشعب	-10.6507
تلد	-10.6511
نقض	-10.6521
وبال	-10.6525
حصد	-10.6526
فرأ	-10.6527
الرام	-10.6537
مرا	-10.6537
ابطال	-10.6539
جلال	-10.6543
يقدم	-10.6549
كتف	-10.6558
سهل	-10.6559
اقسم	-10.6564
وخمسين	-10.6571
وبر	-10.6573
اسلم	-10.6575
يعملون	-10.6581
وذبح	-10.6589
الغن	-10.6589
درج	-10.6598
باط	-10.6601
فهل	-10.661
يحملون	-10.6621
أس	-10.6629
الوحش	-10.6634
وسي	-10.6638
فهرب	-10.6638
يمسك	-10.664
مركب	-10.6643
رعد	-10.6644
بكلم	-10.6654
راكب	-10.6657
وطرح	-10.6661
صوم	-10.6685
وحمل	-10.6689
جرح	-10.669
يتنبأ	-10.6695
عسكر	-10.6696
واسحق	-10.6699
واثن	-10.6704
قيس	-10.6712
يشبع	-10.6715
انصرف	-10.6735
يبارك	-10.6748
ملتوت	-10.6763
تلميذ	-10.6763
ابوابك	-10.6766
عذراء	-10.6766
الاح	-10.6768
رماد	-10.6772
تعزي	-10.6776
امامكم	-10.6784
حض	-10.6798
بفرح	-10.68
تقطع	-10.6805
تسلك	-10.681
فانا	-10.6814
واتي	-10.6828
الولد	-10.6832
عبدا	-10.6833
قمر	-10.6839
لذ	-10.6839
صفح	-10.6843
مقت	-10.6849
انتظر	-10.6861
بنا	-10.6869
رؤوسهم	-10.6881
تحول	-10.6884
وعي	-10.6889
لمحارب	-10.6921
يلق	-10.6922
فسأل	-10.6928
بتهج	-10.693
كالب	-10.6932
مدينته	-10.6948
فسقط	-10.6952
الشجر	-10.6955
حلق	-10.6984
سمك	-10.699
لبهائم	-10.699
تقوم	-10.7007
تعود	-10.703
عير	-10.7031
محص	-10.7032
مسبوك	-10.7034
أمور	-10.7037
قياس	-10.704
احببت	-10.7043
عتيد	-10.705
خطيته	-10.7051
اعمالك	-10.7054
دهش	-10.7061
دائر	-10.7064
فاذ	-10.7065
زور	-10.7094
وغش	-10.7098
المطر	-10.7098
جواب	-10.7102
ورش	-10.7105
ذهاب	-10.7116
بنوه	-10.7121
ودفع	-10.7128
هتف	-10.7129
تقر	-10.713
خيان	-10.7133
يفت	-10.7149
عدل	-10.7151
يأت	-10.7161
ليعمل	-10.7164
حاشا	-10.717
وشرب	-10.7171
بيض	-10.7171
حضن	-10.7172
ودي	-10.7184
لهيب	-10.7186
يبيد	-10.7194
وابتدأ	-10.7195
حشو	-10.7202
الحصاد	-10.7208
يجي	-10.7212
معون	-10.7221
اتبع	-10.7223
حصون	-10.7224
ورد	-10.7228
بحد	-10.723
حام	-10.723
الرداء	-10.7236
عاي	-10.7246
اخطأت	-10.7246
وضعت	-10.7248
رش	-10.7253
جمر	-10.7259
عمق	-10.7261
واضع	-10.7261
مشت	-10.7261
القاتل	-10.7264
البد	-10.7267
ادوني	-10.7282
فتحت	-10.73
يزرعيل	-10.7311
حاضر	-10.7311
التاسع	-10.7311
عماليق	-10.7311
زلزل	-10.7312
وفر	-10.7315
زاوي	-10.7316
مراحم	-10.7316
ضارب	-10.732
يمكن	-10.7322
يدعون	-10.7323
يعطيه	-10.7325
رباب	-10.7327
شعير	-10.7331
عيب	-10.7331
تحرق	-10.7349
شل	-10.7371
وبيوت	-10.7375
سبوت	-10.7381
ويعقوب	-10.7386
وسكان	-10.7387
عاج	-10.739
الموجود	-10.7406
مشير	-10.741
ضايق	-10.7414
شلوم	-10.7414
يحكم	-10.7418
واور	-10.7427
اوثان	-10.7429
افرح	-10.7432
لله	-10.7433
لحما	-10.7443
يصرخ	-10.7445
سبحو	-10.745
المؤمن	-10.7458
العجل	-10.7462
بوص	-10.7464
متمرد	-10.7468
ولكل	-10.7472
راع	-10.7472
بره	-10.7473
ولول	-10.7486
واعطاه	-10.7512
وجع	-10.7518
نسله	-10.7521
جالسا	-10.7529
وأمر	-10.7534
الوصي	-10.7552
وابن	-10.7577
وحارب	-10.758
ورق	-10.7591
ثام	-10.7597
قبائل	-10.7598
جنوب	-10.7598
مولود	-10.76
وولدت	-10.7603
كاذب	-10.7606
وبأ	-10.7608
نجوم	-10.7609
الباق	-10.7617
وصرخ	-10.7619
يخرجون	-10.762
تواضع	-10.7621
شفي	-10.7627
عظماء	-10.7629
حسد	-10.7634
حياته	-10.7641
موني	-10.7644
ائك	-10.7647
جسدي	-10.7648
فوقف	-10.7648
اجلس	-10.7649
عناق	-10.7659
الفتا	-10.7669
قتلا	-10.7672
قطعت	-10.7674
وسمعت	-10.7689
ينقذ	-10.7696
يمينه	-10.7713
الخشب	-10.7723
ياكلون	-10.7726
بإ	-10.7732
دما	-10.774
برنا	-10.774
كلمهم	-10.7752
مختار	-10.7759
حمر	-10.7763
حال	-10.7763
اعطاه	-10.7767
ودفن	-10.7776
يذكر	-10.778
طرقك	-10.779
وزي	-10.7804
اوصيت	-10.7806
وتقدم	-10.7811
راق	-10.7811
ضربه	-10.7818
احي	-10.782
دماء	-10.7828
اتوا	-10.7839
جيل	-10.7839
واضطجع	-10.785
وذبائح	-10.7858
رأيتم	-10.7859
اؤه	-10.7866
حط	-10.7873
شرقي	-10.7876
شوارع	-10.7891
ضياعه	-10.7891
ترنيم	-10.7892
قطيع	-10.7892
اعاقب	-10.7894
حجاب	-10.7903
سعير	-10.7905
التفت	-10.7909
اطعم	-10.7911
اثر	-10.7914
جاب	-10.7914
تغي	-10.7916
جمل	-10.7919
جدلي	-10.7919
اخزي	-10.7921
فرات	-10.7922
حاف	-10.7924
اغلق	-10.7926
تأت	-10.7927
وصوت	-10.7929
فاخرج	-10.7941
امتع	-10.7949
نقم	-10.795
يهوآ	-10.7956
فش	-10.7967
لير	-10.7974
يخدمون	-10.7978
بيدك	-10.7984
اعينكم	-10.7987
تخبر	-10.7998
صبح	-10.8002
الصلا	-10.8012
للرجل	-10.8015
وامه	-10.8021
عشار	-10.8023
القرع	-10.8025
ترفع	-10.8025
ستريح	-10.8031
يعو	-10.8036
شفاه	-10.8043
حطم	-10.8047
رتب	-10.8056
بيدر	-10.8058
وثمان	-10.8063
صلا	-10.8087
سقطت	-10.8087
قائد	-10.8088
خلق	-10.8109
جعله	-10.8112
يناد	-10.8124
يحسب	-10.8131
لحرب	-10.8138
صلات	-10.8144
رجوع	-10.8145
شأ	-10.8149
يدفع	-10.8159
وليم	-10.8167
وملوك	-10.8176
ولكنه	-10.8188
تماثيل	-10.8194
احترز	-10.8194
ملآن	-10.8194
اقمت	-10.8196
يتسلط	-10.8196
يرث	-10.8197
ختن	-10.8199
الخروف	-10.8205
احباء	-10.8224
الواح	-10.8228
يروش	-10.8232
ليئ	-10.8246
تفرح	-10.8247
احسان	-10.8247
تجرب	-10.8248
قصور	-10.8251
اشرب	-10.8254
وكتب	-10.8254
اخذه	-10.8255
الجهال	-10.8257
وملأ	-10.8263
رديئ	-10.8265
رذل	-10.8266
فتعلم	-10.827
يشهد	-10.827
فولدت	-10.8279
اللعن	-10.8289
ثقيل	-10.8292
اعمالهم	-10.8307
زاني	-10.8307
حبيبي	-10.8309
ارن	-10.8324
النازل	-10.8332
زعج	-10.8333
نادي	-10.8333
يقين	-10.8346
أتيت	-10.8352
اعينهم	-10.8358
وبخ	-10.8375
الكبش	-10.8376
تسلط	-10.8379
مرسل	-10.8381
وعجائب	-10.8382
سحر	-10.8402
قطر	-10.8427
حير	-10.8428
حلقي	-10.8435
فضلا	-10.8438
ثيابهم	-10.8442
الزيتون	-10.8455
وراءهم	-10.846
خلع	-10.8461
وحان	-10.8471
سخ	-10.8471
اعماله	-10.8476
فاعلي	-10.8494
حذ	-10.85
مزق	-10.8502
ملجإ	-10.8506
لاحظ	-10.8508
تاه	-10.8509
تجس	-10.8509
قاضي	-10.8512
زق	-10.8512
قضبان	-10.8513
دفعهم	-10.8513
اساس	-10.8516
قهات	-10.8522
فاسمع	-10.8523
جاوب	-10.8529
مجان	-10.8538
حوالي	-10.8546
خطف	-10.8546
يجيب	-10.8551
تخل	-10.8552
لسبب	-10.8559
فنظر	-10.8561
ورأيت	-10.8567
شيب	-10.8571
فجر	-10.8572
الخراف	-10.8576
والفض	-10.8579
سراج	-10.8583
اماكن	-10.8591
رص	-10.8591
العمود	-10.8593
البواب	-10.8594
ورث	-10.8595
تمرد	-10.8604
قصد	-10.8606
ايديكم	-10.861
اقتن	-10.861
الحال	-10.8612
تاخذ	-10.8615
الاخر	-10.8617
يمشي	-10.8621
جور	-10.8625
تحفظون	-10.8627
يرض	-10.8628
كروب	-10.8628
وتقول	-10.8629
ووجد	-10.8636
الكروب	-10.8639
مئتي	-10.864
اتراس	-10.8643
حكيما	-10.8645
تفعلون	-10.8647
تبصر	-10.8647
راء	-10.8649
كيل	-10.8659
سعا	-10.866
بديا	-10.8669
واقفا	-10.8681
بقيت	-10.8682
سني	-10.8683
فرد	-10.869
زاد	-10.8714
لفرع	-10.8721
نبوخذ	-10.8726
احرق	-10.8728
راقب	-10.8731
وانقذ	-10.8731
اضرب	-10.8735
اتكل	-10.874
وتحت	-10.8743
وكسر	-10.8745
هيج	-10.8745
ورجاله	-10.8746
ظهرت	-10.8752
نفخ	-10.8754
حوري	-10.8758
وفرح	-10.8759
ربض	-10.8763
ائد	-10.8773
تقف	-10.8776
امتلأ	-10.8782
عرج	-10.8785
تقتل	-10.88
عيناي	-10.8812
مبغض	-10.8813
ارتفاع	-10.8824
الكو	-10.8829
اغاظ	-10.8829
اقاصي	-10.8829
عبودي	-10.8829
ثابت	-10.883
جراد	-10.8836
اثار	-10.8843
آبائك	-10.8851
حماق	-10.886
يزول	-10.8865
وقفت	-10.8866
معز	-10.8868
البرد	-10.8878
امتلأت	-10.8878
اخوك	-10.8885
تجي	-10.8886
وبقر	-10.8888
مار	-10.8898
تسجد	-10.8906
عاري	-10.8912
الرعا	-10.8913
عريان	-10.8918
نعرف	-10.892
وترك	-10.8937
تلف	-10.8947
تسل	-10.8956
فرائضه	-10.8958
واقطع	-10.8962
عنق	-10.8963
هيئ	-10.8966
خص	-10.8968
داد	-10.8971
اباك	-10.8971
هدد	-10.8972
سواري	-10.8981
سبيل	-10.9004
صحيحا	-10.9018
يكرم	-10.9029
وحل	-10.9035
وسل	-10.9039
لعل	-10.9055
ابوك	-10.9066
كملت	-10.9066
والحق	-10.9074
طه	-10.9075
يخدم	-10.9082
الخارجي	-10.9084
ارح	-10.9098
وسب	-10.9103
انزع	-10.9117
ابيض	-10.9135
العيد	-10.9144
حصر	-10.9146
لتكون	-10.9148
ويرد	-10.9148
دام	-10.916
الواقف	-10.9162
مضطجع	-10.9162
تذكار	-10.9162
تستطيع	-10.9162
العاشر	-10.9162
مفتوح	-10.9162
ضربات	-10.9163
امثال	-10.9165
ظاهر	-10.9166
عيلام	-10.9167
نذور	-10.9169
ضمير	-10.9171
اقامه	-10.918
تسم	-10.9183
مضايقي	-10.919
عراف	-10.919
حصل	-10.919
فارغ	-10.9191
ويأخذ	-10.9197
للقائه	-10.9201
اعطاني	-10.9214
توجد	-10.9222
ساقط	-10.9229
وتبع	-10.9232
طارد	-10.924
احتم	-10.9243
الردي	-10.925
مذنب	-10.9267
البرك	-10.927
عسل	-10.9279
تصل	-10.929
نصيبه	-10.9293
بهاء	-10.9294
سيس	-10.9299
خصيان	-10.9301
ناج	-10.9304
يهودي	-10.9318
لديك	-10.9326
الصي	-10.9327
اثمهم	-10.9341
صلاح	-10.9351
ضربت	-10.9361
فانك	-10.9371
عظمت	-10.9372
اثما	-10.9374
يكثر	-10.9378
ازار	-10.9379
دهري	-10.9383
يهود	-10.9385
تسمعون	-10.9387
فاعلم	-10.9388
اختي	-10.939
وثام	-10.9401
سرج	-10.9406
تمد	-10.9409
رأي	-10.9411
تبارك	-10.943
شاف	-10.9432
الصديق	-10.9438
الحقيق	-10.944
ارحمن	-10.9441
تشبع	-10.945
فعمل	-10.9463
يعثر	-10.9464
وخر	-10.9467
سافر	-10.9469
يفعلون	-10.9469
خطا	-10.9472
تقبل	-10.948
سوء	-10.9488
صمت	-10.949
خاطئ	-10.9507
رسائل	-10.9508
ترشيش	-10.9508
يؤخذ	-10.9509
الصانع	-10.9511
ذكور	-10.9511
احاط	-10.9519
وعرضه	-10.9531
قنا	-10.9537
يثر	-10.954
لآبائ	-10.954
فانهم	-10.9543
عمور	-10.9546
يدخلون	-10.9548
خصام	-10.9549
فوضع	-10.9554
الكروبي	-10.9562
رداء	-10.9564
ترت	-10.957
آنيته	-10.9571
ارتد	-10.958
الشرط	-10.9583
استراح	-10.9583
عوارض	-10.9584
ترع	-10.9585
الفلك	-10.9587
مهلك	-10.9592
الكاس	-10.9597
ويوقد	-10.9597
الخطا	-10.9607
سهر	-10.9608
الشق	-10.961
وتقدمته	-10.9621
داس	-10.9641
صدر	-10.9644
الاز	-10.965
واكثر	-10.9651
صرخت	-10.9651
طاع	-10.9663
قتلهم	-10.9689
حاش	-10.97
خاص	-10.9707
والآخر	-10.9727
فرحا	-10.9729
ايمانكم	-10.9739
فحين	-10.9739
تطلع	-10.9743
حبال	-10.9744
غرل	-10.9746
تعطون	-10.9749
اثمار	-10.975
فقل	-10.9772
مخاف	-10.9782
الكرام	-10.9796
صنا	-10.9805
قديسي	-10.9811
فمت	-10.9814
دفعه	-10.9816
بصر	-10.9817
قلبهم	-10.9828
بغضب	-10.9829
ولبني	-10.9848
تجمع	-10.9854
دموع	-10.9858
موضوع	-10.9864
خمير	-10.9865
اجناد	-10.9865
محيط	-10.9867
بعشا	-10.9868
تقويم	-10.9871
المدياني	-10.9876
مستعد	-10.9885
فريس	-10.9886
تعبير	-10.9887
صليب	-10.9888
سكوت	-10.9889
اصغر	-10.989
زارح	-10.9892
سخر	-10.9903
فانطلق	-10.9906
فرخ	-10.9908
اعداؤ	-10.9919
وخمر	-10.9928
وابنا	-10.9936
ويوحنا	-10.9937
آلهته	-10.9945
تطلبون	-10.9945
خدمته	-10.9946
اقطع	-10.996
تجاه	-10.9961
رأينا	-10.9973
يحد	-10.998
فاقام	-10.9982
وامسك	-10.9998
تطهر	-10.9999
مدح	-11.0002
خلف	-11.0007
يصعدون	-11.0011
افتح	-11.0022
الميت	-11.0022
بناه	-11.0032
الجديد	-11.0047
جيشه	-11.0048
كثرت	-11.0054
وامرأت	-11.0057
تنب	-11.0079
غلب	-11.0083
قطعه	-11.0086
تكمل	-11.0093
تجر	-11.0095
السمك	-11.0103
لصق	-11.0106
تقرب	-11.0107
شرور	-11.0111
زير	-11.0113
سيدك	-11.0121
لسنا	-11.0121
طريقك	-11.0124
يكرز	-11.0137
بنيهم	-11.014
عقب	-11.014
هللو	-11.0144
وياخذ	-11.0145
مبر	-11.0145
قامت	-11.0157
جسم	-11.016
ظن	-11.0181
تخدم	-11.0182
عادل	-11.0189
ضج	-11.0193
تمجد	-11.0198
امتك	-11.02
العصا	-11.0208
قراء	-11.021
خلاصك	-11.0217
وابنه	-11.0218
ميثاق	-11.0235
مكدوني	-11.0235
عصفور	-11.0235
خزف	-11.0238
البائس	-11.0238
زيتون	-11.0239
قاوم	-11.024
قواعد	-11.0245
عديم	-11.025
واسلم	-11.0252
يحرس	-11.0253
واسمع	-11.0261
يمد	-11.0261
مستحق	-11.0271
اعطيته	-11.0273
مطمئن	-11.028
فساد	-11.0281
حج	-11.0282
طويل	-11.0283
اللوح	-11.0287
انكسر	-11.0287
وحدك	-11.0303
تزرع	-11.0306
ثدي	-11.0309
الجند	-11.0309
اجنحته	-11.031
فأكل	-11.0319
وفرسان	-11.0324
وتيس	-11.0333
بوت	-11.0338
يذبحون	-11.034
ارتعد	-11.0343
واحكام	-11.0359
صرع	-11.036
ذوات	-11.0364
اثا	-11.0372
فرفع	-11.0374
المرتفع	-11.0378
حجي	-11.0383
مقدسا	-11.0385
وعلم	-11.0392
للذي	-11.0393
يرون	-11.0404
امتد	-11.0418
المركب	-11.0421
وقاس	-11.0434
اؤك	-11.0446
لقول	-11.0447
كنز	-11.045
اؤهم	-11.045
تاتي	-11.046
بنفس	-11.0467
وارجع	-11.0468
يشبه	-11.0495
مخاصم	-11.0497
قلتم	-11.0499
والفريسي	-11.0507
قرمز	-11.051
اليابس	-11.0516
مملكته	-11.0517
غمر	-11.0518
صادف	-11.0518
ابرار	-11.052
برئ	-11.0524
بكون	-11.0544
نمو	-11.0566
موعد	-11.059
قوتك	-11.0603
القري	-11.0606
برق	-11.0615
ابتد	-11.0619
يضطجع	-11.0619
مصنوع	-11.0619
اعضاء	-11.0619
مصاريع	-11.0619
يؤكل	-11.062
مجتمع	-11.062
انحدر	-11.0622
باكور	-11.0622
خاتم	-11.0623
تكفير	-11.0625
مرثا	-11.0628
وعسل	-11.063
اعتمد	-11.0634
الزاني	-11.0637
يرتد	-11.0645
للاوي	-11.0652
طبق	-11.0654
برد	-11.0655
عينك	-11.066
عذار	-11.066
وعاد	-11.0661
بحار	-11.0662
وزيت	-11.0663
صيح	-11.0664
صوف	-11.069
القائم	-11.0692
مرتفع	-11.0698
زبدي	-11.07
ينجي	-11.0722
شفتا	-11.0723
وجعله	-11.0724
ينظرون	-11.0725
وقرمز	-11.0734
نسى	-11.0741
بروح	-11.0746
سرت	-11.075
يابس	-11.0766
يغفر	-11.0769
حصاد	-11.0772
معصي	-11.0777
قريبك	-11.078
عوز	-11.0786
جاريت	-11.0813
تشت	-11.0815
فاعطاه	-11.0831
خيمت	-11.0841
جوف	-11.0842
قيود	-11.0852
ومش	-11.0878
احتمل	-11.0879
جبر	-11.0896
يضي	-11.0899
يسكنون	-11.0899
قوات	-11.09
حداث	-11.0904
عطيهم	-11.0911
فقير	-11.0919
القيام	-11.095
اخرجت	-11.0953
ابنته	-11.0956
واخي	-11.0958
يزرع	-11.0959
تفكر	-11.0964
ارجوان	-11.0967
اياك	-11.0981
يتنجس	-11.099
نسر	-11.0991
تحل	-11.0993
تسير	-11.0997
نبيا	-11.1001
اكرم	-11.1016
اجناسه	-11.1019
تطهير	-11.1019
نظير	-11.1019
ختبئ	-11.102
اسواق	-11.1021
الحادي	-11.1021
معاصي	-11.1023
نقل	-11.1025
ينبوع	-11.1025
مواليد	-11.1026
وارد	-11.1027
ينابيع	-11.1028
الصدر	-11.1033
حيرام	-11.1035
عطر	-11.1046
السنط	-11.1051
يؤت	-11.1052
نقش	-11.1053
وحدي	-11.1054
فداء	-11.1054
يمس	-11.1069
صيدون	-11.1075
بطنه	-11.1082
تأمل	-11.1083
ذبل	-11.1086
تبعه	-11.1096
خيش	-11.1103
مكروه	-11.1103
المنار	-11.1107
محفل	-11.1109
مسامع	-11.1111
فعلتم	-11.1112
يقضي	-11.1114
الباطل	-11.1121
قسي	-11.1131
السل	-11.1131
كلمتك	-11.114
سبل	-11.1143
يقتلون	-11.115
سارق	-11.1158
عتا	-11.1173
ؤدب	-11.1174
تبع	-11.1176
السف	-11.1176
وقائد	-11.1179
ظلما	-11.1183
اخته	-11.121
دبير	-11.1215
صيدا	-11.1216
مؤمن	-11.1224
نسم	-11.1229
تعز	-11.1246
حزم	-11.1263
حجب	-11.1269
فاعل	-11.1283
فسكن	-11.1295
سطح	-11.1304
حلفت	-11.1306
المتكلم	-11.1306
دفعت	-11.1313
رقص	-11.1315
تسب	-11.1316
جدي	-11.1318
وقدم	-11.1323
نبت	-11.1337
الطيب	-11.1339
اعطيه	-11.1342
وشمعي	-11.1346
واوقف	-11.1354
وحيد	-11.1354
سألوه	-11.1356
يضل	-11.1359
يتقدم	-11.1365
تذبح	-11.1395
لابيه	-11.1405
عقل	-11.1411
يحدث	-11.1421
فترس	-11.1424
ومل	-11.1431
ينتظر	-11.1436
اطراف	-11.1436
احشائ	-11.1436
تعيير	-11.1436
يرتفع	-11.1436
ممدود	-11.1437
واوص	-11.1437
جبروت	-11.1438
اشدود	-11.1439
يأخذون	-11.1441
صغار	-11.1441
عاصف	-11.1442
ثلج	-11.1446
اصعاد	-11.1446
وصاد	-11.1447
لحظ	-11.1447
ميعاد	-11.1447
حار	-11.1447
ضعيف	-11.1449
شهوات	-11.1452
احشاء	-11.1453
راسك	-11.1456
سيوف	-11.1458
اطياب	-11.1463
حاري	-11.1466
تمم	-11.1475
طهار	-11.1475
رهب	-11.1478
غدر	-11.148
القدر	-11.1482
مسكر	-11.1486
باسمه	-11.1505
غبار	-11.1505
وطرد	-11.1506
الموآبي	-11.1511
ربوات	-11.1513
اخوه	-11.1513
شفتيه	-11.152
حبس	-11.1526
تنزل	-11.1535
هوشع	-11.1555
وارجوان	-11.1556
اعمدته	-11.1599
تمش	-11.1608
رأيته	-11.1621
باس	-11.1625
ووضعه	-11.1653
صديق	-11.1654
يحمد	-11.1662
خصي	-11.1674
عدن	-11.1675
المخادع	-11.1689
المق	-11.1701
نقول	-11.1714
خصوم	-11.1717
يحفظون	-11.1723
عفر	-11.173
مريض	-11.1731
قوتي	-11.1734
اجنبي	-11.1734
ليأكل	-11.1743
زح	-11.1757
القان	-11.1757
تشته	-11.1758
شكو	-11.1763
مرع	-11.1772
تبيد	-11.1776
عقرون	-11.1784
فانكم	-11.1785
وتسع	-11.1792
نثن	-11.1798
عذب	-11.18
قتلت	-11.1803
فترك	-11.1822
نجاسته	-11.1841
يزن	-11.186
حروب	-11.186
غار	-11.1861
وكيل	-11.1862
ترض	-11.1865
شاطئ	-11.1871
السماوي	-11.1871
ملجأ	-11.1871
مختوم	-11.1871
مجامع	-11.1871
ابتهاج	-11.1872
تفسير	-11.1872
انطلق	-11.1877
ترص	-11.1878
اوقات	-11.1878
يقترب	-11.1879
عقاب	-11.1884
جاهل	-11.1891
ويط	-11.1898
فارص	-11.1899
اصوات	-11.1902
ركاب	-11.1905
لازم	-11.1908
زوايا	-11.1919
ماكير	-11.1919
يزاب	-11.192
بتدئ	-11.1923
فارق	-11.1924
خالق	-11.1925
افتقد	-11.1927
ادرك	-11.1927
شواق	-11.1928
فالتفت	-11.1932
مسوح	-11.1932
حصرون	-11.1934
الدهو	-11.1947
نجح	-11.1952
شوب	-11.1955
واليبوسي	-11.1955
كلاب	-11.1958
جود	-11.1962
قارب	-11.1963
زمجر	-11.1974
وبنايا	-11.1974
اصنامهم	-11.1976
فحدث	-11.1981
يرحم	-11.1995
يعزي	-11.1997
فمد	-11.1997
قدامهم	-11.1999
دعوه	-11.2
يباركك	-11.2003
فجعل	-11.2011
الاجنبي	-11.2012
الجزي	-11.2013
ساء	-11.2025
شيش	-11.2027
سمين	-11.2032
جرت	-11.2072
بخر	-11.2081
ثالث	-11.2086
شبان	-11.2089
أرسل	-11.2099
تظلم	-11.2102
تظهر	-11.2105
نهض	-11.2106
محبي	-11.2111
تكثر	-11.2114
تنطق	-11.2126
أعطيت	-11.2131
جاس	-11.2134
لشا	-11.2139
تدين	-11.2144
تنس	-11.2161
رشو	-11.2162
تزن	-11.2165
يغطي	-11.2175
منظره	-11.2178
جنس	-11.2187
مشي	-11.2195
لدن	-11.2197
فرش	-11.2205
كفر	-11.2208
رعو	-11.2221
تركت	-11.223
تشاور	-11.223
بلسان	-11.2231
اجنح	-11.2236
ذوي	-11.2272
التمس	-11.2273
صاحبك	-11.2276
كرز	-11.2288
عزيا	-11.2303
الكرمل	-11.2305
كلمته	-11.2309
بهج	-11.2324
تجاوز	-11.2325
شوشن	-11.2325
اقطاب	-11.2326
امتنع	-11.2326
رذيل	-11.2326
قميص	-11.2326
عجيب	-11.2326
افسس	-11.2327
مضجع	-11.2327
تذمر	-11.2327
اعترف	-11.2328
يشفق	-11.2332
ضأن	-11.2333
اصطف	-11.2333
اخضع	-11.2334
رياح	-11.2335
تذلل	-11.2335
درجات	-11.2337
جلوس	-11.2338
عزيز	-11.2338
ابغضت	-11.235
لآخر	-11.2351
مقدار	-11.2354
حلقت	-11.2358
متاع	-11.2363
حناني	-11.2367
وطي	-11.2381
الجزائ	-11.2388
منقذ	-11.2394
تظن	-11.2409
مادي	-11.2414
والقو	-11.2416
سوق	-11.2417
ربح	-11.2424
شاب	-11.2439
فناد	-11.2439
فجلس	-11.2439
بذل	-11.2439
ليصنع	-11.2447
فآمن	-11.2469
سلكت	-11.2472
قتلوه	-11.2475
ناحي	-11.2479
لآسا	-11.2505
الخف	-11.253
مختاري	-11.2534
صقل	-11.2534
غريبا	-11.2538
يفتخر	-11.2548
لاسل	-11.2549
ناحو	-11.2551
وزكري	-11.2554
يشاء	-11.2555
تخلص	-11.256
فخاف	-11.257
ارجلهم	-11.2572
مسكوه	-11.2574
صيد	-11.2586
فرض	-11.2594
اعطاهم	-11.26
فدفع	-11.2604
آلات	-11.2629
جزع	-11.2647
يقاوم	-11.265
استمع	-11.2674
عنقه	-11.2695
رفضت	-11.2697
صاف	-11.2701
سجف	-11.2705
تخت	-11.2714
ألست	-11.2724
ومئت	-11.2738
شاق	-11.2769
الازل	-11.2786
سكيب	-11.2799
لاستقبال	-11.2801
افتخار	-11.2801
منتظر	-11.2801
ابتلع	-11.2802
ضوء	-11.2803
عماسا	-11.2803
لعله	-11.2804
قبيح	-11.2805
ستجيب	-11.2806
واعطاهم	-11.2806
تلق	-11.2812
ابكار	-11.2812
اقسام	-11.2813
مسحه	-11.2815
بيوتهم	-11.2816
مختل	-11.2817
رحيم	-11.2818
يوبيل	-11.2822
يقتلوه	-11.2823
وقواعده	-11.2824
ليأخذ	-11.2825
يجتمع	-11.2834
يبتهج	-11.284
بستان	-11.2841
شتغل	-11.2851
اخيش	-11.2852
استجب	-11.2861
الأول	-11.288
يخافون	-11.2919
أخبر	-11.2922
اشتد	-11.2926
معصر	-11.2928
تعبت	-11.2929
نفعل	-11.2931
يرثون	-11.2931
بادر	-11.294
ينزلون	-11.2942
فعلم	-11.295
اياهم	-11.2965
جنده	-11.2971
برز	-11.2972
ستقر	-11.2977
اكلمك	-11.2979
زكي	-11.3
يقرب	-11.3
مخادع	-11.3005
واسع	-11.3026
يغلب	-11.3033
ذنبه	-11.3036
باعمال	-11.3064
يصدق	-11.3072
للقائ	-11.3076
حوشا	-11.3092
ولدته	-11.3096
وزنت	-11.3131
علمون	-11.3173
فحسن	-11.3179
يسبح	-11.3183
اثنتا	-11.3214
لينظر	-11.3217
خيط	-11.3222
رايت	-11.3227
ورائه	-11.3235
لطف	-11.3252
لبان	-11.3253
ابصرت	-11.3297
لناس	-11.3301
بواسط	-11.3301
عناثوث	-11.3301
صخور	-11.3301
توبيخ	-11.3301
اجساد	-11.3302
اخيتوف	-11.3302
يستطع	-11.3302
زقاق	-11.3303
يجازي	-11.3306
عجول	-11.3311
مقبول	-11.3312
جذب	-11.3313
صفوف	-11.3318
خطر	-11.3326
مخارجه	-11.3336
جمعهم	-11.3336
سنتين	-11.3339
شتم	-11.3339
فطلب	-11.3348
ضباب	-11.3348
اوتار	-11.3349
غور	-11.3353
صلوات	-11.3356
تخطئ	-11.3365
تغطي	-11.3368
لآبائك	-11.3371
عمري	-11.338
شهور	-11.338
يذل	-11.3383
فابتدأ	-11.3411
بالقرع	-11.3416
ينجح	-11.343
ديان	-11.3432
يظن	-11.3439
وانطلق	-11.3452
ساد	-11.3461
ليسمع	-11.348
لديه	-11.349
فنيهم	-11.3496
نينو	-11.3499
حورون	-11.3562
امتلك	-11.3563
روث	-11.3581
يكمل	-11.3583
يعلن	-11.3595
الكسل	-11.3604
خصم	-11.3604
انتظرت	-11.3633
يعطون	-11.3637
صوب	-11.3641
موجود	-11.3648
وقوف	-11.3663
كنائ	-11.3668
غض	-11.3719
يحزي	-11.3726
امته	-11.374
اهتف	-11.3744
نجني	-11.3787
نساؤ	-11.3807
سكبت	-11.3819
فتحي	-11.3821
اغتاظ	-11.3828
انطاكي	-11.3828
ضجيج	-11.3828
زوبع	-11.3829
مجيئه	-11.3829
خالص	-11.383
عطايا	-11.3831
تزيد	-11.3832
امراض	-11.3833
ودعت	-11.3834
سقوط	-11.3834
تضايق	-11.3838
فدفنو	-11.3843
تابع	-11.3844
حيطان	-11.3845
افود	-11.3846
طوفان	-11.3847
احلام	-11.3851
صعود	-11.3852
غصن	-11.3854
نثين	-11.3859
أري	-11.3875
العموني	-11.388
تدب	-11.3884
محتقر	-11.3891
وإل	-11.3892
صناع	-11.3904
اعطاكم	-11.3913
بجانبه	-11.3913
حصار	-11.3917
للبعل	-11.3923
فرسان	-11.3926
غلته	-11.3934
أسس	-11.3948
وعدلا	-11.3953
انتهر	-11.3954
للقت	-11.3954
حرث	-11.3958
وكي	-11.3959
ياكين	-11.396
سحب	-11.3964
خطيت	-11.3964
طعم	-11.3976
قرابين	-11.3977
ليخدمو	-11.4001
تبتهج	-11.4001
لليهود	-11.4004
ميك	-11.4015
مقيم	-11.404
نثني	-11.4044
كأن	-11.4056
تسلم	-11.4078
عرس	-11.408
بنايا	-11.4084
لعاز	-11.4085
تتبع	-11.4085
شاخ	-11.4126
عورته	-11.4132
ملابس	-11.4135
خفض	-11.4141
نعطي	-11.4151
نهدد	-11.4153
كهنوت	-11.4158
صفر	-11.4161
رعي	-11.4164
صفق	-11.4172
سوس	-11.419
يمنع	-11.4196
ريب	-11.4201
امسكت	-11.4205
قسمت	-11.4217
ابيجا	-11.425
اخز	-11.4269
تكشف	-11.4302
خلقت	-11.4334
مقفر	-11.4349
تقيم	-11.4359
سكائب	-11.4367
العط	-11.4371
اجتهاد	-11.4383
تمتلئ	-11.4383
الناصري	-11.4383
رؤسائه	-11.4383
يجتاز	-11.4383
تشفق	-11.4384
جحش	-11.4384
اقتحم	-11.4384
منتخب	-11.4385
ترتيب	-11.4386
يعاقب	-11.4386
للمرأ	-11.4387
راجع	-11.4389
طائر	-11.4391
معمودي	-11.4392
ارجو	-11.4396
حلقات	-11.4398
عاقر	-11.4399
يصغ	-11.4401
طبخ	-11.4405
دحرج	-11.4407
اشتعل	-11.441
مرحض	-11.4415
فأخبر	-11.4434
صارخ	-11.4437
فتيان	-11.4445
مائدت	-11.4453
اضطرب	-11.4459
تعقل	-11.4461
جوج	-11.4474
شارد	-11.448
دينار	-11.4483
عثل	-11.4491
انتقام	-11.4562
تزا	-11.4567
يقدمون	-11.4571
كهنته	-11.4575
ملائكته	-11.4591
اجيب	-11.4615
تهتم	-11.4621
خطيتهم	-11.463
غمس	-11.4633
ديار	-11.4666
رسم	-11.4669
لأكل	-11.4687
نجد	-11.4689
تبكي	-11.4693
وسج	-11.4708
قواد	-11.4727
ائت	-11.4737
تأس	-11.476
غاي	-11.4764
ضيقات	-11.477
اخاك	-11.4788
تنبت	-11.4803
كاتب	-11.481
تنهد	-11.4838
آمنت	-11.4847
اليبوسي	-11.4858
يخف	-11.4871
مقيد	-11.4896
لإي	-11.4934
المعط	-11.4947
اغتصاب	-11.4972
اكاذيب	-11.4972
عضائد	-11.4972
عروعير	-11.4972
اسبوع	-11.4972
اغنياء	-11.4972
موطئ	-11.4973
عاهد	-11.4975
تزول	-11.4975
غرفات	-11.4976
سابق	-11.4978
غلظ	-11.4978
جلود	-11.4979
امتحن	-11.4979
جرشون	-11.4981
اعتز	-11.4982
اضطراب	-11.4984
يرتحل	-11.4985
التقط	-11.4986
مربع	-11.4989
ضبط	-11.499
متني	-11.4999
قعي	-11.5006
تضرعات	-11.5007
اوجاع	-11.501
نغو	-11.5027
ارغ	-11.5029
اساف	-11.5039
ترتعد	-11.504
لتمتلك	-11.5043
شتري	-11.5064
ابراج	-11.5076
لبكرات	-11.5081
جفن	-11.5085
اوصاهم	-11.5087
لجج	-11.5108
تبرأ	-11.5126
طاق	-11.5137
دسم	-11.5146
نشيد	-11.5146
استحلف	-11.5151
توكلت	-11.5161
تقدمات	-11.5167
عربات	-11.5178
صوص	-11.5187
بروق	-11.5194
مجلس	-11.5228
تقع	-11.5229
اخوات	-11.5232
رعود	-11.5304
مواسم	-11.5311
عمام	-11.5313
ترجم	-11.5356
يؤد	-11.5371
صرو	-11.5492
نائم	-11.5504
شط	-11.5511
يدرك	-11.5547
اوصاه	-11.557
صاص	-11.557
انتقم	-11.5578
المستهزئ	-11.5597
ممتلئ	-11.5597
مخاوف	-11.5597
مضروب	-11.5597
ترتفع	-11.5597
غتصب	-11.5597
الطبيع	-11.5597
محراب	-11.5597
اختبأ	-11.5598
شدائد	-11.5599
طلاق	-11.5599
اضعاف	-11.5599
هدايا	-11.56
ياقوت	-11.5601
يحيئيل	-11.5602
عمرام	-11.5603
الهابط	-11.5603
يغلق	-11.5604
خلاف	-11.561
ترتعب	-11.5611
تآمر	-11.5612
رحوب	-11.5617
نتزع	-11.5619
قوائم	-11.5619
طالع	-11.5621
اعطاك	-11.5626
اوائل	-11.5629
الرمان	-11.5638
مسالك	-11.5639
امواج	-11.5645
سراري	-11.5646
ودفنوه	-11.5647
المشق	-11.566
هلكت	-11.5663
طفأ	-11.5728
المعم	-11.5767
تصنعه	-11.5799
داج	-11.5809
معطي	-11.5822
محبتك	-11.5824
يحيي	-11.5828
ستند	-11.5828
خوذ	-11.5853
يراه	-11.5872
فرقته	-11.5893
عتق	-11.5922
ايثام	-11.5924
تخس	-11.595
يحتقر	-11.5973
استار	-11.6022
حكام	-11.6027
وريم	-11.6074
جاهد	-11.6083
باطن	-11.6113
مفيبو	-11.6231
عذر	-11.6255
مخازن	-11.6263
تعاظم	-11.6263
الرفائي	-11.6263
مجتاز	-11.6263
فزعت	-11.6264
اغتسل	-11.6265
تؤكل	-11.6265
أذن	-11.6266
افعالهم	-11.6266
رقيب	-11.6266
العشاء	-11.6266
دبيب	-11.6267
نزول	-11.6267
تجتمع	-11.6267
يحتاج	-11.6268
اباطيل	-11.6269
حقويه	-11.6269
تجديف	-11.6274
خطب	-11.6274
وارتفاعه	-11.6275
غيور	-11.6276
اشفق	-11.628
القهاتي	-11.6285
مغرب	-11.6287
كبريت	-11.629
لاطفال	-11.6302
الفقر	-11.6309
مطروح	-11.6314
رماح	-11.6316
جوانب	-11.6321
ارجلكم	-11.6326
نزيل	-11.6327
يذوب	-11.6338
يتزوج	-11.6365
حريق	-11.6369
تمتد	-11.6371
مريب	-11.6382
السد	-11.6386
خطئ	-11.6386
مخط	-11.6391
جعلته	-11.6411
مسكون	-11.6419
نأخذ	-11.6423
انقذن	-11.6456
امتعته	-11.6472
كنوز	-11.6482
زجر	-11.6494
ستطاع	-11.6539
يشخ	-11.6542
الآك	-11.6542
اشبال	-11.657
قرص	-11.6595
لمعان	-11.6737
ظبي	-11.684
ورؤساؤ	-11.687
خزن	-11.6879
غربت	-11.6884
تارك	-11.6935
فلسطين	-11.6969
يستهزئ	-11.6977
ارتحش	-11.6977
اضطجاع	-11.6977
جاهر	-11.6978
تزداد	-11.6978
تلذذ	-11.6978
شرائع	-11.6978
مفلوج	-11.6978
ظهور	-11.6978
المتكبر	-11.6978
مربوط	-11.6978
شامخ	-11.6978
مؤخر	-11.6979
يحيط	-11.6979
خماس	-11.698
عقيق	-11.698
-	-12.285
ً	-12.4279
i	-12.7946
(	-13.0445
)	-13.0445
:	-13.3779
𐋇	-13.3779
1	-13.8779
2	-13.8779
[	-13.8779
]	-13.8779
h	-13.8779
o	-13.8779
t	-13.8779
ـ	-14.8778
.	-14.8779
*	-14.8779
5	-14.8779
6	-14.8779
j	-14.8779
m	-14.8779
n	-14.8779
y	-14.8779
ٍ	-14.8779
𐊣	-14.8779
𐊼	-14.8779
