<pad>	0
</s>	0
<unk>	0
▁¦	-0
्य	-1
्या	-2
▁क	-3
्र	-4
ार	-5
▁आ	-6
▁स	-7
ां	-8
ना	-9
▁प	-10
ात	-11
▁म	-12
र्	-13
हे	-14
ला	-15
▁अ	-16
▁व	-17
च्या	-18
क्	-19
▁त	-20
ले	-21
ही	-22
ण्या	-23
ल्या	-24
चा	-25
वा	-26
ती	-27
्ह	-28
रो	-29
ची	-30
िक	-31
▁द	-32
▁य	-33
▁.	-34
सा	-35
▁ज	-36
स्	-37
▁ह	-38
▁आहे	-39
ली	-40
ने	-41
ून	-42
णि	-43
रा	-44
ता	-45
ंत	-46
▁ल	-47
▁प्र	-48
▁न	-49
्ये	-50
मध	-51
णा	-52
मा	-53
कर	-54
ित	-55
क्ष	-56
▁अस	-57
चे	-58
का	-59
ठी	-60
▁कर	-61
्यां	-62
▁ब	-63
मध्ये	-64
वर	-65
▁आणि	-66
▁श	-67
नी	-68
प्र	-69
साठी	-70
▁,	-71
रोना	-72
▁को	-73
▁हो	-74
ते	-75
या	-76
▁र	-77
▁सं	-78
वि	-79
सं	-80
▁के	-81
पा	-82
झा	-83
ग्	-84
लं	-85
ंद	-86
ील	-87
आहे	-88
▁का	-89
व्ह	-90
मु	-91
▁या	-92
कार	-93
शी	-94
्ट	-95
▁उ	-96
▁ग	-97
के	-98
पर	-99
ेश	-100
ण्यात	-101
▁वि	-102
ुग्	-103
ुर	-104
णे	-105
हि	-106
िं	-107
ेत	-108
को	-109
ाय	-110
त्	-111
चं	-112
▁ए	-113
सी	-114
▁घ	-115
री	-116
लेल्या	-117
तात	-118
वी	-119
नि	-120
हो	-121
ळे	-122
नाही	-123
कड	-124
ान	-125
ाण	-126
भा	-127
▁वा	-128
ांनी	-129
▁रा	-130
▁दि	-131
▁झा	-132
ारी	-133
द्	-134
ष्ट	-135
आणि	-136
▁नि	-137
ांना	-138
की	-139
रोग	-140
मी	-141
ोक	-142
से	-143
▁ड	-144
ारा	-145
सि	-146
▁ट	-147
वे	-148
ार्	-149
स्थ	-150
▁कोरोना	-151
▁ला	-152
सर्	-153
▁त्या	-154
ुग्ण	-155
णी	-156
ऱ्या	-157
त्या	-158
मुळे	-159
बा	-160
जन	-161
▁जा	-162
ंत्र	-163
गा	-164
▁इ	-165
तर	-166
▁म्ह	-167
ण्यासाठी	-168
▁स्	-169
तो	-170
▁पर	-171
▁मा	-172
ांच्या	-173
ल्	-174
▁आहेत	-175
अस	-176
ंतर	-177
न्	-178
▁फ	-179
स्त	-180
शा	-181
▁सा	-182
तील	-183
्यात	-184
ुस	-185
ळा	-186
जे	-187
20	-188
▁नाही	-189
ांग	-190
िती	-191
रकार	-192
▁(	-193
टी	-194
हा	-195
19	-196
▁पा	-197
िंवा	-198
णार	-199
▁भ	-200
िल	-201
▁"	-202
रोग्य	-203
▁शक	-204
्रा	-205
ति	-206
जा	-207
▁राज	-208
पास	-209
्ही	-210
म्ह	-211
धी	-212
▁मु	-213
धिक	-214
क्र	-215
स्ट	-216
दि	-217
▁त्यां	-218
▁रुग्ण	-219
ातील	-220
▁ठ	-221
जी	-222
ळी	-223
्यंत	-224
नंतर	-225
ंट	-226
चार	-227
▁हे	-228
ांची	-229
ूर्	-230
▁ते	-231
ये	-232
▁ये	-233
▁दे	-234
ाणू	-235
▁ख	-236
षाणू	-237
पे	-238
▁सुर	-239
व्हि	-240
्यू	-241
करण	-242
वस	-243
क्षा	-244
कोरोना	-245
द्ध	-246
ण्याची	-247
▁चा	-248
ंद्र	-249
▁लोक	-250
▁उप	-251
णाऱ्या	-252
-19	-253
ऊन	-254
मे	-255
ंध	-256
ांमध्ये	-257
क्त	-258
ंब	-259
िट	-260
दी	-261
यो	-262
▁1	-263
ृत	-264
▁एक	-265
दा	-266
रे	-267
जार	-268
शि	-269
णं	-270
र्ष	-271
लय	-272
▁लस	-273
क्सि	-274
▁ऑ	-275
बत	-276
▁म्हण	-277
ताना	-278
▁पु	-279
ख्या	-280
▁सर्	-281
ज्	-282
देश	-283
गी	-284
▁लाग	-285
श्	-286
पर्यंत	-287
माण	-288
▁सरकार	-289
द्या	-290
ेल	-291
ंड	-292
ईल	-293
▁च	-294
▁'	-295
▁मो	-296
▁किंवा	-297
▁तर	-298
वार	-299
ष्ट्र	-300
ेव	-301
सर्ग	-302
तं	-303
मो	-304
हिती	-305
मान	-306
▁आरोग्य	-307
पासून	-308
क्ट	-309
बंध	-310
टा	-311
▁मह	-312
ुग्णा	-313
▁काही	-314
र्म	-315
▁परि	-316
ोन	-317
दे	-318
ांचा	-319
व्हिड	-320
रात	-321
▁कार	-322
▁डॉ	-323
▁सांग	-324
शक	-325
ायर	-326
▁यांनी	-327
▁ध	-328
▁ना	-329
र्थ	-330
▁वाढ	-331
डे	-332
मंत्र	-333
त्र	-334
▁असल्या	-335
▁तु	-336
डी	-337
ोल	-338
आहेत	-339
▁करण्यात	-340
कडा	-341
▁की	-342
▁कमी	-343
टे	-344
प्	-345
▁वे	-346
▁व्य	-347
गर	-348
पूर्	-349
▁देश	-350
सार	-351
क्ती	-352
्यु	-353
क्सिजन	-354
▁आप	-355
▁बा	-356
राज	-357
▁जात	-358
ब्	-359
▁सर्व	-360
क्षण	-361
▁असं	-362
▁लशी	-363
▁निर्	-364
नेक	-365
्यांना	-366
▁मि	-367
वारी	-368
वड	-369
स्थिती	-370
कडे	-371
ठा	-372
ॉकडा	-373
▁विषाणू	-374
▁केली	-375
▁ही	-376
्स	-377
्रे	-378
▁हा	-379
▁लसी	-380
िका	-381
द्य	-382
खा	-383
म्ही	-384
▁घे	-385
▁गे	-386
▁चाच	-387
व्य	-388
ायरस	-389
▁पण	-390
िया	-391
दल	-392
▁भार	-393
सो	-394
ूर	-395
भाग	-396
र्स	-397
▁अधिक	-398
गे	-399
ृत्यू	-400
िंग	-401
पु	-402
रुग्ण	-403
ात्र	-404
▁20	-405
थे	-406
ुसार	-407
ण्याचा	-408
▁𐊣	-409
तिक	-410
ाराष्ट्र	-411
ज्ञ	-412
कीय	-413
च्	-414
ढळ	-415
▁व्ह	-416
िल्ह	-417
ीय	-418
बाबत	-419
▁करोना	-420
्यक	-421
ुग्णालय	-422
▁आले	-423
▁माहिती	-424
मंत्री	-425
शन	-426
ल्यानंतर	-427
मि	-428
दर	-429
ण्यास	-430
▁लक्ष	-431
ांत	-432
ांवर	-433
▁क्	-434
व्ही	-435
▁होते	-436
सुर	-437
लोक	-438
वात	-439
▁करा	-440
▁शि	-441
पेक्षा	-442
ख्य	-443
ॉकडाऊन	-444
ोध	-445
▁सुरू	-446
णाम	-447
औष	-448
ंभ	-449
▁केले	-450
स्प	-451
नुसार	-452
▁:	-453
िय	-454
▁मार्	-455
▁¦1	-456
▁संसर्ग	-457
व्हा	-458
वश	-459
▁2	-460
यु	-461
मधील	-462
ध्य	-463
▁वापर	-464
▁स्थ	-465
ेड	-466
वश्यक	-467
औषध	-468
उप	-469
ाप	-470
एक	-471
लस	-472
ाला	-473
त्यां	-474
स्क	-475
वेश	-476
▁कोव्हिड	-477
दर्	-478
ध्या	-479
नं	-480
कडून	-481
पण	-482
▁C	-483
तु	-484
परि	-485
नो	-486
बी	-487
▁शा	-488
क्रम	-489
▁बंद	-490
जात	-491
▁घेत	-492
▁सु	-493
लाग	-494
म्हण	-495
खी	-496
सरकार	-497
सह	-498
यार	-499
▁केंद्र	-500
ठ्या	-501
टलं	-502
▁दिवस	-503
▁)	-504
▁उत्	-505
▁इतर	-506
▁ऑक्सिजन	-507
पी	-508
▁काम	-509
▁वर्ष	-510
लब्	-511
0¦	-512
किंवा	-513
वळ	-514
लब्ध	-515
्हे	-516
▁-	-517
ंबई	-518
ष्	-519
▁कु	-520
मह	-521
ंप	-522
क्के	-523
▁ज्या	-524
र्क	-525
▁अनेक	-526
ांसाठी	-527
ीर	-528
▁से	-529
ल्याचं	-530
▁आली	-531
▁हात	-532
काही	-533
▁आज	-534
ाणी	-535
आरोग्य	-536
वाढ	-537
णाले	-538
ओव्ही	-539
वं	-540
वत	-541
ाल	-542
ऱ्यां	-543
▁ने	-544
हिन	-545
▁ती	-546
▁केला	-547
▁होती	-548
▁असलेल्या	-549
▁एका	-550
गळ	-551
न्स	-552
▁जे	-553
▁दिस	-554
ांचे	-555
धार	-556
ोस	-557
▁प्रति	-558
▁दुस	-559
▁जास्त	-560
भार	-561
व्या	-562
▁करण्यासाठी	-563
सर	-564
प्रिल	-565
योग	-566
▁?	-567
▁काय	-568
डॉ	-569
लक्ष	-570
▁येत	-571
सर्गा	-572
▁काळ	-573
यांनी	-574
▁मृत्यू	-575
ण्याच्या	-576
ूग्	-577
वस्थ	-578
ष्टी	-579
क्टर	-580
धान	-581
सांग	-582
▁नो	-583
▁निय	-584
▁पो	-585
सु	-586
कमी	-587
▁आता	-588
्यता	-589
पो	-590
त्वा	-591
▁दु	-592
विक	-593
सीओव्ही	-594
▁प्रा	-595
निर्	-596
▁मान	-597
म्हाला	-598
▁पुर	-599
लेले	-600
विषाणू	-601
वाय	-602
वास	-603
▁यु	-604
▁आढळ	-605
▁रो	-606
▁सो	-607
▁झाला	-608
करण्यात	-609
लेली	-610
▁च्या	-611
▁महाराष्ट्र	-612
▁दा	-613
▁प्रमाण	-614
ल्याने	-615
विड	-616
▁झाली	-617
▁होता	-618
रि	-619
▁मध	-620
▁चाचणी	-621
वीन	-622
ैद्य	-623
▁रे	-624
पणे	-625
▁रुग्णालय	-626
ैकी	-627
मार्	-628
ातून	-629
VI	-630
OVI	-631
होत	-632
मक	-633
ैद्यकीय	-634
▁करत	-635
संख्या	-636
OVID	-637
हर	-638
▁व्यक्ती	-639
म्या	-640
िके	-641
▁होत	-642
पूर्ण	-643
▁दोन	-644
▁जिल्ह	-645
लशी	-646
बंद	-647
▁सांगित	-648
▁3	-649
चाच	-650
डा	-651
असं	-652
▁असे	-653
▁राह	-654
▁त्यांच्या	-655
लक	-656
शे	-657
▁नस	-658
घे	-659
▁कोण	-660
लो	-661
दु	-662
करणा	-663
िन	-664
लसी	-665
ंभीर	-666
असे	-667
शास	-668
ख्ये	-669
▁म्हणून	-670
▁व्हायरस	-671
▁गर	-672
▁लॉकडाऊन	-673
सेस	-674
co	-675
्यातील	-676
▁समा	-677
मच्या	-678
▁पूर्	-679
गरिक	-680
▁असेल	-681
▁COVID	-682
चीन	-683
केली	-684
वान	-685
▁औषध	-686
▁परिणाम	-687
▁झालेल्या	-688
ल्यास	-689
00	-690
हेर	-691
विध	-692
नु	-693
ूक	-694
ोग	-695
▁क्ष	-696
िम	-697
पुर	-698
▁संख्या	-699
ढे	-700
वर्ष	-701
▁करून	-702
काळ	-703
▁सम	-704
भाव	-705
िव्ह	-706
▁लसीकरण	-707
पाद	-708
लाव	-709
हान	-710
-19¦	-711
▁मार्च	-712
▁ठेव	-713
द्यार्थ	-714
▁यांच्या	-715
ास	-716
▁मिळ	-717
▁दिली	-718
णय	-719
▁टा	-720
▁असा	-721
▁5	-722
अधिक	-723
▁तयार	-724
बर	-725
लेला	-726
▁अशा	-727
▁उपचार	-728
सर्व	-729
िस	-730
▁परिस्थिती	-731
करा	-732
▁¦20	-733
▁दर	-734
▁उपलब्ध	-735
▁देण्यात	-736
शोध	-737
पैकी	-738
▁माग	-739
करे	-740
्री	-741
चित	-742
▁गो	-743
पूर	-744
द्दल	-745
्ल	-746
घट	-747
ठव	-748
ंदा	-749
ईन	-750
पर्क	-751
▁टक्के	-752
करोना	-753
क्स	-754
▁नोंद	-755
▁राज्य	-756
ात्	-757
ांचं	-758
ूग्ण	-759
▁थ	-760
▁म्हटलं	-761
वारे	-762
▁१	-763
▁त्यांना	-764
▁म्हणजे	-765
हात	-766
सोबत	-767
मडे	-768
म्यान	-769
भ्या	-770
▁आला	-771
▁आपल्या	-772
ुवात	-773
व्हायरस	-774
▁भाग	-775
▁मुंबई	-776
च्छ	-777
▁जो	-778
▁विक	-779
▁म्हणाले	-780
खील	-781
हीर	-782
▁मुख्य	-783
कोव्हिड	-784
्याय	-785
माहिती	-786
्हा	-787
गतिक	-788
त्त्वा	-789
धित	-790
▁केलं	-791
पाल	-792
▁त्यामुळे	-793
▁¦2	-794
साय	-795
पाय	-796
विष	-797
मडेसि	-798
बद्दल	-799
▁गेल्या	-800
संसर्ग	-801
आप	-802
प्रमा	-803
▁सार्	-804
▁पहि	-805
▁तो	-806
▁करणे	-807
▁सू	-808
▁रोग	-809
भरात	-810
भू	-811
िटल	-812
▁अशी	-813
वानगी	-814
कु	-815
▁तरी	-816
▁आजार	-817
दत	-818
ंना	-819
क्षित	-820
▁आम्ही	-821
▁राज्यात	-822
▁महिन	-823
▁हजार	-824
RS	-825
▁2020	-826
होते	-827
▁मात्र	-828
खल	-829
ण्याचे	-830
▁एप्रिल	-831
▁त्यांनी	-832
▁4	-833
ॉस्प	-834
न्हा	-835
ठवड	-836
वेळी	-837
काम	-838
मेर	-839
▁पे	-840
णारे	-841
फे	-842
वापर	-843
सुरू	-844
▁असून	-845
ंबर	-846
ोका	-847
▁बोल	-848
ज्या	-849
वरील	-850
मिक	-851
्रु	-852
▁चाचण्या	-853
ॉल	-854
प्प	-855
▁पड	-856
▁संसर्गा	-857
▁ठा	-858
▁सि	-859
निय	-860
र्ड	-861
भागा	-862
▁मुल	-863
ज्ज्ञ	-864
▁महा	-865
▁शकतो	-866
▁भारतात	-867
▁मोठ्या	-868
▁असल्याचं	-869
यत्	-870
▁होतं	-871
भर	-872
हु	-873
ूप	-874
▁स्प	-875
केंद्र	-876
▁कार्य	-877
ंचा	-878
पूर्वी	-879
."	-880
च्च	-881
टर	-882
▁कंप	-883
बंधित	-884
पड	-885
▁सांगतात	-886
लया	-887
िकाणी	-888
▁डि	-889
डि	-890
पत्र	-891
▁पुरव	-892
जि	-893
दर्भ	-894
▁ओ	-895
रोध	-896
▁जाण	-897
▁कर्म	-898
द्वारे	-899
▁सह	-900
परा	-901
▁लाख	-902
▁स्ट	-903
व्हॅ	-904
▁डॉक्टर	-905
उत्	-906
वली	-907
▁साथ	-908
ोट	-909
्यांनी	-910
▁सरकारने	-911
यत्न	-912
व्हे	-913
▁मध्ये	-914
▁शकतात	-915
▁सध्या	-916
ऑक्सिजन	-917
येत	-918
योज	-919
दिवस	-920
▁होऊ	-921
घेत	-922
ग्र	-923
▁डोस	-924
ॉस्पिटल	-925
अर	-926
▁जी	-927
▁धु	-928
▁श्	-929
▁येईल	-930
▁वैद्यकीय	-931
वर्	-932
म्	-933
अनेक	-934
ेत्र	-935
संख्ये	-936
▁मंत्र	-937
इतर	-938
मार	-939
▁आलं	-940
▁झाल्या	-941
श्न	-942
▁होतो	-943
▁आवश्यक	-944
ंच्या	-945
प्रति	-946
▁सांगितलं	-947
आज	-948
ंग	-949
ल्ली	-950
ीच्या	-951
प्रधान	-952
▁कोविड	-953
▁वेग	-954
दुस	-955
▁𐋇	-956
▁जग	-957
रण	-958
काय	-959
▁आण	-960
▁प्रकार	-961
▁लोकांना	-962
रोप	-963
द्धव	-964
प्रा	-965
5¦	-966
▁भा	-967
बीसी	-968
नात	-969
▁नवीन	-970
▁गंभीर	-971
विषय	-972
▁नागरिक	-973
ंटर	-974
र्ट	-975
िकल	-976
त्ये	-977
द्रे	-978
▁मे	-979
मान्य	-980
आली	-981
वलं	-982
खे	-983
दार	-984
केला	-985
एका	-986
दान	-987
करून	-988
ढा	-989
फार	-990
ंतप्रधान	-991
▁गरज	-992
जास्त	-993
▁मिळा	-994
ोष	-995
▁S	-996
मधून	-997
द्धती	-998
▁कारण	-999
▁२	-1000
▁अॅ	-1001
ंतु	-1002
संच	-1003
▁बी	-1004
▁महाराष्ट्रात	-1005
vi	-1006
भावी	-1007
वण्यात	-1008
प्रमाणे	-1009
ातळी	-1010
महाराष्ट्र	-1011
दिस	-1012
शेष	-1013
हून	-1014
▁मी	-1015
सित	-1016
जून	-1017
होती	-1018
▁समावेश	-1019
असलेल्या	-1020
आले	-1021
▁चीन	-1022
▁विद्यार्थ	-1023
जिल्ह	-1024
▁अँ	-1025
▁स्व	-1026
ैठ	-1027
ांब	-1028
ित्	-1029
र्चा	-1030
भ्यास	-1031
▁स्थिती	-1032
वजन	-1033
▁गा	-1034
▁शाळा	-1035
▁ह्या	-1036
▁निर्णय	-1037
-2	-1038
गो	-1039
क्षम	-1040
▁बदल	-1041
ंत्रण	-1042
वजनिक	-1043
▁शकते	-1044
नेवारी	-1045
▁गु	-1046
▁मास्क	-1047
ंची	-1048
▁करू	-1049
करण्यासाठी	-1050
आता	-1051
मुख	-1052
्याच्या	-1053
ॉझ	-1054
ेशन	-1055
मृत्यू	-1056
▁घट	-1057
▁नाहीत	-1058
▁6	-1059
र्ग	-1060
▁फे	-1061
▁ठर	-1062
्यांच्या	-1063
केले	-1064
सू	-1065
शासना	-1066
ष्ट्रा	-1067
▁ठाकरे	-1068
▁केल्या	-1069
▁दुसऱ्या	-1070
करणे	-1071
▁उत्पाद	-1072
ष्ट्रीय	-1073
वाई	-1074
चना	-1075
सम	-1076
वाह	-1077
प्रमाण	-1078
ष्ठ	-1079
ानिक	-1080
ात्मक	-1081
▁व्या	-1082
रुग्णालय	-1083
▁7	-1084
वाल	-1085
द्धा	-1086
ॉझिट	-1087
मुख्य	-1088
ुप	-1089
▁रि	-1090
ध्यम	-1091
▁झाले	-1092
▁पूर्ण	-1093
नस	-1094
जन्य	-1095
▁ति	-1096
▁रूग्ण	-1097
टु	-1098
ूण	-1099
ृती	-1100
▁प्रवा	-1101
Co	-1102
माग	-1103
▁चे	-1104
लॉकडाऊन	-1105
▁वाट	-1106
▁शक्यता	-1107
▁सुरुवात	-1108
vid	-1109
आढळ	-1110
▁डे	-1111
झाला	-1112
चाचणी	-1113
परिणाम	-1114
निट	-1115
मोर	-1116
झाली	-1117
▁संपर्क	-1118
▁आलेल्या	-1119
▁¦3	-1120
दर्भात	-1121
▁विचार	-1122
र्या	-1123
होता	-1124
▁आपण	-1125
▁जाहीर	-1126
ळख	-1127
जो	-1128
covid	-1129
वीर	-1130
व्यक्ती	-1131
दोन	-1132
▁बेड	-1133
कोण	-1134
राव	-1135
कल	-1136
बाधित	-1137
▁पाहि	-1138
गु	-1139
▁जागतिक	-1140
▁निर्बंध	-1141
▁महत्त्वा	-1142
ुन	-1143
त्यांच्या	-1144
▁मू	-1145
ीत	-1146
तरी	-1147
समा	-1148
करत	-1149
वले	-1150
व्र	-1151
▁परवानगी	-1152
योजन	-1153
▁म्हणतात	-1154
ायला	-1155
ांपासून	-1156
ठे	-1157
ॅन	-1158
▁8	-1159
▁असते	-1160
मिळ	-1161
गळ्या	-1162
▁पुढे	-1163
्यांमध्ये	-1164
▁केलेल्या	-1165
▁छ	-1166
▁पसर	-1167
▁करण्याची	-1168
4¦	-1169
म्हणून	-1170
ARS	-1171
कारक	-1172
निया	-1173
बाहेर	-1174
ुक	-1175
▁टे	-1176
ब्रु	-1177
▁चाल	-1178
सांगित	-1179
▁आजारा	-1180
▁तुम्हाला	-1181
▁व्हे	-1182
्फ	-1183
दरम्यान	-1184
ऱ्यांना	-1185
ट्र	-1186
▁खा	-1187
▁भर	-1188
▁मदत	-1189
▁आठवड	-1190
▁काळात	-1191
▁लक्षणे	-1192
होच	-1193
क्षणा	-1194
दाय	-1195
स्त्र	-1196
▁रुग्णा	-1197
▁निर्माण	-1198
झर	-1199
त्येक	-1200
लावधी	-1201
धा	-1202
णारी	-1203
▁जि	-1204
▁सी	-1205
▁योग	-1206
कार्य	-1207
तिकार	-1208
जर	-1209
▁परी	-1210
▁शोध	-1211
▁दिसून	-1212
▁बोलताना	-1213
आर	-1214
CoV	-1215
▁लागू	-1216
तीत	-1217
थील	-1218
ाच्या	-1219
▁अमेर	-1220
ब्रुवारी	-1221
▁रुग्णालयात	-1222
▁झ	-1223
न्ट	-1224
▁जाते	-1225
यांच्या	-1226
▁रेमडेसि	-1227
ंनी	-1228
वस्था	-1229
▁नमु	-1230
▁प्रसार	-1231
▁प्रमाणात	-1232
ार्थ	-1233
ंद्रा	-1234
▁रोजी	-1235
ॉझिटिव्ह	-1236
ाराष्ट्रा	-1237
बाब	-1238
▁कोटी	-1239
ंगा	-1240
विर	-1241
क्सिन	-1242
असेल	-1243
चि	-1244
र्श	-1245
▁उपाय	-1246
▁जाईल	-1247
विषयी	-1248
▁ऑफ	-1249
राज्य	-1250
▁पहिल्या	-1251
बो	-1252
ेट	-1253
िले	-1254
मुंबई	-1255
न्य	-1256
▁10	-1257
लसीकरण	-1258
ायो	-1259
त्यांना	-1260
झालेल्या	-1261
न्न	-1262
▁संस्थ	-1263
सारख्या	-1264
घड	-1265
भव	-1266
रोधी	-1267
▁SARS	-1268
▁दाखल	-1269
▁देशात	-1270
लगी	-1271
ल्प	-1272
ॅक्ट	-1273
युक्त	-1274
असल्या	-1275
▁कोणत्या	-1276
मार्च	-1277
जग	-1278
▁9	-1279
वसन	-1280
▁पत्र	-1281
▁रुग्णांची	-1282
सेच	-1283
गेल्या	-1284
▁मागणी	-1285
राज्यात	-1286
कारण	-1287
्रास	-1288
शिवाय	-1289
▁जर	-1290
▁अर्थ	-1291
प्रकार	-1292
▁प्रयत्न	-1293
▁काढ	-1294
▁वर्	-1295
अशा	-1296
ल्स	-1297
आम्ही	-1298
▁तपास	-1299
▁कंपनी	-1300
▁“	-1301
ठेव	-1302
न्ही	-1303
ायझर	-1304
परिस्थिती	-1305
rs	-1306
मू	-1307
▁गर्	-1308
आपल्या	-1309
लि	-1310
दिली	-1311
मल	-1312
▁शरी	-1313
▁हॉस्पिटल	-1314
वरून	-1315
तयार	-1316
▁ट्र	-1317
शय	-1318
टवड	-1319
ध्यक्ष	-1320
▁अति	-1321
▁देखील	-1322
▁योग्य	-1323
टुंब	-1324
निरी	-1325
ॉट	-1326
क्शन	-1327
▁वेळ	-1328
▁प्रश्न	-1329
वेग	-1330
एस	-1331
उपचार	-1332
▁धोका	-1333
▁काळजी	-1334
▁कोरोनाची	-1335
ल्ड	-1336
कडेव	-1337
गाने	-1338
स्टिट	-1339
कडेवारी	-1340
णारा	-1341
▁लाट	-1342
▁जन	-1343
सार्	-1344
र्मिती	-1345
▁पुरवठा	-1346
▁संक्रम	-1347
▁ग्रा	-1348
▁लसीकरणा	-1349
आय	-1350
ुफ	-1351
असा	-1352
देण्यात	-1353
▁अनु	-1354
▁इन्	-1355
▁तीन	-1356
उपलब्ध	-1357
▁मुख्यमंत्री	-1358
टक्के	-1359
र्थिक	-1360
प्ट	-1361
ोन्ही	-1362
▁पुन्हा	-1363
ात्री	-1364
चारा	-1365
त्यांनी	-1366
राह	-1367
चारी	-1368
ल्ला	-1369
म्हणजे	-1370
नेत	-1371
नोंद	-1372
▁नियम	-1373
▁उद्धव	-1374
क्रिया	-1375
पहि	-1376
▁महि	-1377
ण्याचं	-1378
ंज	-1379
ांशी	-1380
वण्यासाठी	-1381
साद	-1382
▁तेव्हा	-1383
म्हटलं	-1384
िर	-1385
▁इं	-1386
▁याचा	-1387
▁बीबीसी	-1388
▁करणाऱ्या	-1389
महा	-1390
वून	-1391
त्यामुळे	-1392
ड्र	-1393
ांश	-1394
णावर	-1395
फारस	-1396
▁मोदी	-1397
▁उद्रे	-1398
▁बाहेर	-1399
▁वापरा	-1400
▁क्षेत्र	-1401
एन	-1402
आला	-1403
शाळा	-1404
वाला	-1405
्युट	-1406
▁करता	-1407
▁यांना	-1408
घा	-1409
देशात	-1410
▁टेस्ट	-1411
म्हणाले	-1412
▁कर्मचा	-1413
▁पंतप्रधान	-1414
ंटा	-1415
ुफ्फ	-1416
ंमध्ये	-1417
▁असू	-1418
▁असताना	-1419
▁संबंधित	-1420
▁कोरोनाचा	-1421
नाच्या	-1422
मीण	-1423
ोपे	-1424
▁ताप	-1425
▁दिला	-1426
केलं	-1427
मात्र	-1428
मोठ्या	-1429
▁%	-1430
▁I	-1431
▁जवळ	-1432
▁भारत	-1433
▁संशोध	-1434
संसर्गा	-1435
ालया	-1436
आधी	-1437
लाख	-1438
▁वाह	-1439
▁किती	-1440
▁सार्स	-1441
▁दिल्ली	-1442
एप्रिल	-1443
त्व	-1444
▁आय	-1445
▁पाल	-1446
सध्या	-1447
▁येणार	-1448
▁अभ्यास	-1449
▁विकसित	-1450
उन	-1451
लीन	-1452
भारतात	-1453
▁बैठ	-1454
8¦	-1455
महिन	-1456
हजार	-1457
्यूट	-1458
20¦	-1459
अशी	-1460
काळी	-1461
ग्रस्त	-1462
▁‘	-1463
्रेन	-1464
▁खास	-1465
कोविड	-1466
▁विशेष	-1467
टली	-1468
आजार	-1469
संदर्भात	-1470
1¦	-1471
रिय	-1472
लिक	-1473
▁दिव	-1474
▁नव्ह	-1475
▁तुम्ही	-1476
▁असल्याचे	-1477
▁जानेवारी	-1478
वाद	-1479
अॅ	-1480
▁शह	-1481
▁क्र	-1482
▁जाऊ	-1483
▁तास	-1484
▁शहर	-1485
▁ठिकाणी	-1486
जिक	-1487
बोल	-1488
▁सेवा	-1489
ॉकडाउन	-1490
▁प्रमा	-1491
शिष्ट	-1492
बॉ	-1493
▁R	-1494
शील	-1495
▁घ्या	-1496
▁उत्तर	-1497
▁पातळी	-1498
▁सार्वजनिक	-1499
ीती	-1500
▁घरी	-1501
▁करतात	-1502
▁रुग्णांना	-1503
चाचण्या	-1504
धन	-1505
नला	-1506
साथ	-1507
▁कि	-1508
▁जण	-1509
▁टप्प	-1510
लगीकरण	-1511
▁भारता	-1512
▁होणार	-1513
▁शिक्षण	-1514
ोर	-1515
क्क	-1516
नाय	-1517
विद्या	-1518
कट	-1519
वाधिक	-1520
ँग	-1521
असून	-1522
▁स्वत	-1523
धु	-1524
▁वर	-1525
ंदाज	-1526
रोबर	-1527
▁पाह	-1528
▁डेटा	-1529
▁आढळून	-1530
2¦	-1531
कंप	-1532
मुल	-1533
वेत	-1534
▁आधी	-1535
देखील	-1536
▁महिन्यात	-1537
गपूर	-1538
▁इत	-1539
▁उच्च	-1540
▁राज्या	-1541
▁नियंत्रण	-1542
▁अड	-1543
वारंटा	-1544
▁तज्ज्ञ	-1545
चसीओव्ही	-1546
ळू	-1547
वय	-1548
शकतो	-1549
असल्याचं	-1550
कि	-1551
शल	-1552
होतं	-1553
▁बहु	-1554
▁होईल	-1555
डॉक्टर	-1556
▁पद्धती	-1557
▁स्पष्ट	-1558
जय	-1559
क्षे	-1560
व्हॅक्सिन	-1561
लॉ	-1562
यला	-1563
वाट	-1564
घटने	-1565
▁नये	-1566
▁आल्या	-1567
▁लक्षणं	-1568
ोषणा	-1569
▁मार्ग	-1570
▁संपूर्ण	-1571
▁यो	-1572
▁चर्चा	-1573
सरकारने	-1574
▁करण्या	-1575
▁जिल्हा	-1576
▁परीक्षा	-1577
▁प्रभावी	-1578
▁."	-1579
क्सी	-1580
रिक्त	-1581
तज्ज्ञ	-1582
सांगतात	-1583
वैद्यकीय	-1584
कालीन	-1585
▁तसंच	-1586
▁विविध	-1587
▁याबाबत	-1588
पुरव	-1589
▁¦2020¦	-1590
▁उद्	-1591
▁झालं	-1592
▁असतात	-1593
▁करण्यास	-1594
परी	-1595
बंदी	-1596
पोर्ट	-1597
मत	-1598
▁अह	-1599
कर्म	-1600
▁तुल	-1601
षण	-1602
ाऱ्यां	-1603
वारंटाईन	-1604
स्टिट्यूट	-1605
7¦	-1606
जवळ	-1607
जाण	-1608
सिंग	-1609
▁असतो	-1610
प्रतिकार	-1611
एम	-1612
फो	-1613
००	-1614
▁19	-1615
▁घाल	-1616
▁आहोत	-1617
अँ	-1618
सिक	-1619
▁आम	-1620
▁याची	-1621
▁दुसरी	-1622
▁प्रवास	-1623
मुख्यमंत्री	-1624
महाराष्ट्रात	-1625
श्व	-1626
ियन	-1627
थमिक	-1628
सेवा	-1629
गंभीर	-1630
ॅट	-1631
ृत्	-1632
▁लहान	-1633
मन	-1634
रोज	-1635
ीला	-1636
बॉडी	-1637
ृह	-1638
द्द	-1639
वकर	-1640
खाली	-1641
वसाय	-1642
शकतात	-1643
डोस	-1644
टेक	-1645
संब	-1646
दारी	-1647
▁ओळख	-1648
▁प्रतिबंध	-1649
होऊ	-1650
्राझ	-1651
▁मृत	-1652
▁गोष्टी	-1653
मास्क	-1654
रम	-1655
नवीन	-1656
येईल	-1657
ंटिले	-1658
धारित	-1659
आवश्यक	-1660
▁तीव्र	-1661
आण	-1662
निक	-1663
लोकांना	-1664
▁कॉ	-1665
▁प्रशासना	-1666
6¦	-1667
भाव्य	-1668
रेंद्र	-1669
आलं	-1670
▁दिले	-1671
झाल्या	-1672
▁पोहोच	-1673
ावर	-1674
होतो	-1675
चाल	-1676
टवडा	-1677
र्गत	-1678
▁एखा	-1679
▁मला	-1680
त्यंत	-1681
संस्थ	-1682
िकित्	-1683
▁घेतला	-1684
▁पर्यंत	-1685
सांगितलं	-1686
ांपेक्षा	-1687
त्यावश्यक	-1688
▁करण्याचा	-1689
गार	-1690
▁शे	-1691
▁पुढ	-1692
▁केसेस	-1693
कॉ	-1694
बल	-1695
तीय	-1696
दित	-1697
वणी	-1698
्लू	-1699
पुढे	-1700
मेंट	-1701
माजिक	-1702
▁ची	-1703
▁क्षम	-1704
सुद्धा	-1705
▁कालावधी	-1706
▁राज्यातील	-1707
्ड	-1708
▁सात	-1709
ित्या	-1710
ांकडून	-1711
ठिकाणी	-1712
सारा	-1713
▁विभागा	-1714
▁फेब्रुवारी	-1715
म्य	-1716
▁¦5	-1717
▁बन	-1718
स्थित	-1719
▁एकूण	-1720
नागरिक	-1721
त्य	-1722
पणा	-1723
भूत	-1724
काळात	-1725
तः	-1726
ॉड	-1727
थेट	-1728
सेल	-1729
▁अं	-1730
▁गेले	-1731
▁तुमच्या	-1732
▁दरम्यान	-1733
▁त्यानंतर	-1734
बदल	-1735
▁लागण	-1736
▁त्यात	-1737
बे	-1738
िकित्सा	-1739
▁खूप	-1740
▁दुका	-1741
▁प्रकरण	-1742
▁पॉझिटिव्ह	-1743
▁कोरोनाच्या	-1744
वला	-1745
मिळा	-1746
राष्ट्रीय	-1747
प्त	-1748
कल्प	-1749
ुहान	-1750
▁फक्त	-1751
▁लाटे	-1752
संपर्क	-1753
▁यासाठी	-1754
▁केंद्रा	-1755
▁असल्याने	-1756
गरज	-1757
खीम	-1758
▁वै	-1759
धारण	-1760
्याने	-1761
▁कार्या	-1762
▁प्रत्येक	-1763
वलंब	-1764
▁बो	-1765
▁सरकारी	-1766
▁केंद्रीय	-1767
▁त्याच्या	-1768
▁महाराष्ट्रा	-1769
ईट	-1770
ीन	-1771
ंच	-1772
ंधी	-1773
यारी	-1774
ंत्रणा	-1775
▁बेड्स	-1776
▁भागात	-1777
आपण	-1778
राठी	-1779
पालिके	-1780
करू	-1781
ट्ट	-1782
▁कुठ	-1783
▁पाठव	-1784
▁सामान्य	-1785
वडण	-1786
ह्या	-1787
जेक्शन	-1788
▁बस	-1789
याची	-1790
▁केवळ	-1791
याच्या	-1792
▁पाहिजे	-1793
▁होत्या	-1794
विद्यार्थ	-1795
काश	-1796
फ्र	-1797
ांड	-1798
▁अंत	-1799
▁देत	-1800
▁रोख	-1801
सेंबर	-1802
ूग्णा	-1803
▁द्या	-1804
शिक्षण	-1805
समावेश	-1806
▁जेव्हा	-1807
▁संख्ये	-1808
▁स्वच्छ	-1809
स्व	-1810
उत्पाद	-1811
निर्णय	-1812
तीन	-1813
▁50	-1814
▁चार	-1815
▁पाच	-1816
▁संर	-1817
▁जातो	-1818
▁तसेच	-1819
जण	-1820
ॅब	-1821
मराव	-1822
ुद्ध	-1823
योजना	-1824
बाद	-1825
र्च	-1826
शकते	-1827
▁साध	-1828
▁खासगी	-1829
▁श्वसन	-1830
रेमडेसि	-1831
▁रुग्णसंख्या	-1832
ेन	-1833
क्षक	-1834
दुर्	-1835
भूमी	-1836
ल्वे	-1837
ठाकरे	-1838
▁दिसत	-1839
केल्या	-1840
्यांची	-1841
▁असतील	-1842
▁गर्दी	-1843
▁व्यवस्थ	-1844
ठर	-1845
र्ज	-1846
दुसऱ्या	-1847
निर्माण	-1848
ूल	-1849
▁ठे	-1850
्यांचा	-1851
▁व्यक्त	-1852
▁कोणत्याही	-1853
लीस	-1854
ांक	-1855
दाहर	-1856
प्रवा	-1857
विचार	-1858
▁येऊ	-1859
नाहीत	-1860
माय	-1861
तूक	-1862
लंड	-1863
ळ्या	-1864
ौम्य	-1865
योगशा	-1866
श्चित	-1867
▁वाढत	-1868
जागतिक	-1869
▁त्रास	-1870
▁सूचना	-1871
▁लशीच्या	-1872
▁आकडेवारी	-1873
लाय	-1874
रूग्ण	-1875
▁जीव	-1876
▁परत	-1877
द्याप	-1878
▁घेऊन	-1879
▁मर्या	-1880
झ्या	-1881
विधा	-1882
ांमधील	-1883
विरोध	-1884
▁आदेश	-1885
▁गरजे	-1886
▁चांग	-1887
हित	-1888
संबंधी	-1889
सुरुवात	-1890
ांपर्यंत	-1891
अंत	-1892
कशी	-1893
वाघ	-1894
▁कड	-1895
ग्रा	-1896
तांश	-1897
न्या	-1898
क्रिय	-1899
शक्ती	-1900
▁अजून	-1901
▁आढळले	-1902
▁कुटुंब	-1903
▁उत्पादन	-1904
▁कर्मचारी	-1905
▁आर	-1906
योग्य	-1907
▁लागेल	-1908
▁दोन्ही	-1909
▁सुरक्षित	-1910
ूम	-1911
विन	-1912
दर्श	-1913
भागी	-1914
▁४	-1915
झाले	-1916
▁इंड	-1917
▁साब	-1918
▁शिफारस	-1919
sa	-1920
बेड	-1921
▁डो	-1922
टवाघ	-1923
याचा	-1924
▁योज	-1925
▁शक्य	-1926
ुफ्फुस	-1927
▁त्याचा	-1928
▁प्रमुख	-1929
जित	-1930
▁¦4	-1931
▁M	-1932
▁दूर	-1933
शक्यता	-1934
▁राजेश	-1935
▁सेंटर	-1936
▁करताना	-1937
▁प्रवेश	-1938
▁माध्यम	-1939
▁अधिकारी	-1940
खव	-1941
दृ	-1942
टेड	-1943
णाली	-1944
ैविक	-1945
भावित	-1946
ांपैकी	-1947
▁P	-1948
▁दिलेल्या	-1949
इत	-1950
द्र	-1951
चालक	-1952
क्षमता	-1953
आलेल्या	-1954
in	-1955
घर	-1956
▁३	-1957
,00	-1958
▁टी	-1959
समोर	-1960
▁बायो	-1961
भरातील	-1962
▁येणाऱ्या	-1963
▁सांगितले	-1964
तून	-1965
मला	-1966
जाहीर	-1967
3¦	-1968
हार	-1969
▁14	-1970
▁घेतली	-1971
संबंधित	-1972
निरीक्षण	-1973
▁ग्रामीण	-1974
ताप	-1975
ुकी	-1976
दाहरण	-1977
द्योग	-1978
यांना	-1979
योजित	-1980
रियंट	-1981
्यांवर	-1982
परवानगी	-1983
महत्त्वा	-1984
टक	-1985
ुल	-1986
▁कॅ	-1987
पालिका	-1988
▁येथील	-1989
▁आर्थिक	-1990
पाहि	-1991
बरोबर	-1992
प्रसार	-1993
श्च	-1994
नियम	-1995
तेवाई	-1996
▁आणखी	-1997
ांमुळे	-1998
▁करावी	-1999
▁नव्या	-2000
निर्बंध	-2001
▁आमच्या	-2002
▁स्थानिक	-2003
दर्शक	-2004
श्वास	-2005
आठवड	-2006
▁तिस	-2007
▁होण्याची	-2008
जू	-2009
ंचे	-2010
शिक	-2011
करता	-2012
प्टे	-2013
ान्स	-2014
िंता	-2015
िकास	-2016
ॅनिट	-2017
आजारा	-2018
मोनिया	-2019
तुम्हाला	-2020
▁A	-2021
पसर	-2022
▁बि	-2023
▁लि	-2024
▁नंतर	-2025
पद्धती	-2026
▁जाणार	-2027
पहिल्या	-2028
म्हणतात	-2029
▁रात्री	-2030
करण्याची	-2031
▁उद्रेका	-2032
असते	-2033
लक्षणे	-2034
क्षेत्र	-2035
घरी	-2036
▁ट्	-2037
क्रि	-2038
क्षि	-2039
▁पास	-2040
▁कामा	-2041
▁गेली	-2042
▁टोपे	-2043
▁पेशी	-2044
▁प्रो	-2045
केलेल्या	-2046
रुग्णालयात	-2047
sars	-2048
वायू	-2049
काळजी	-2050
कोरोनाची	-2051
▁W	-2052
मदत	-2053
▁बरे	-2054
▁निष्	-2055
▁पुणे	-2056
प्रमाणात	-2057
▁मंत्रालया	-2058
वेळ	-2059
दायक	-2060
मार्ग	-2061
▁15	-2062
▁पेक्षा	-2063
▁प्रदेश	-2064
▁घेण्यात	-2065
▁कार्यक्रम	-2066
▁राष्ट्रीय	-2067
▁माहितीनुसार	-2068
जीव	-2069
लाही	-2070
HO	-2071
पि	-2072
▁;	-2073
गदी	-2074
तोय	-2075
लये	-2076
कर्ष	-2077
्रिट	-2078
्रेस	-2079
▁न्यू	-2080
▁पालक	-2081
तेवाईक	-2082
▁अंदाज	-2083
▁¦9	-2084
दाखल	-2085
रुग्णा	-2086
एन्	-2087
तास	-2088
डिया	-2089
▁अन्य	-2090
ल्यावर	-2091
▁परंतु	-2092
▁नागपूर	-2093
▁प्रवाश	-2094
▁यामुळे	-2095
▁ऑक्सिजनची	-2096
ापन	-2097
िता	-2098
अमेर	-2099
अर्थ	-2100
क्षिण	-2101
भागात	-2102
वेगळ्या	-2103
फत	-2104
▁शास	-2105
दिसून	-2106
वर्षी	-2107
स्ट्र	-2108
जिल्हा	-2109
मधल्या	-2110
▁शहरात	-2111
बोलताना	-2112
▁पर्याय	-2113
▁लॉकडाउन	-2114
टो	-2115
बजा	-2116
त्ता	-2117
लागू	-2118
सामान्य	-2119
ra	-2120
नोम	-2121
▁ता	-2122
मारे	-2123
वाहन	-2124
▁फार	-2125
▁करणं	-2126
▁थांब	-2127
प्टेंबर	-2128
व्यवस्थ	-2129
▁जगभरात	-2130
रुग्णांची	-2131
▁सर्वाधिक	-2132
▁होणाऱ्या	-2133
▁एचसीओव्ही	-2134
पाट	-2135
जाते	-2136
म्यु	-2137
ऱ्याच	-2138
00¦	-2139
नमु	-2140
वीस	-2141
▁रुप	-2142
▁शकत	-2143
▁येथे	-2144
▁घोषणा	-2145
▁त्याच	-2146
कोणत्या	-2147
▁अमेरिके	-2148
▁पत्रकार	-2149
ंतू	-2150
शरी	-2151
ाचा	-2152
रोजी	-2153
लयीन	-2154
पूर्व	-2155
पुरवठा	-2156
ाणवायू	-2157
▁फो	-2158
कोटी	-2159
▁कधी	-2160
▁अंतर	-2161
▁जातं	-2162
▁साथी	-2163
लसीकरणा	-2164
▁उपचारा	-2165
▁सर्वात	-2166
▁आतापर्यंत	-2167
▁जिल्ह्यात	-2168
गर्	-2169
णाऱ्यां	-2170
ंवर	-2171
खरे	-2172
हीम	-2173
जाईल	-2174
▁त्याची	-2175
ऑफ	-2176
उपाय	-2177
सिद्ध	-2178
▁यात	-2179
▁साठी	-2180
▁सुरु	-2181
▁स्वर	-2182
▁बाधित	-2183
▁लक्षात	-2184
▁प्रतिसाद	-2185
काढ	-2186
ट्स	-2187
मतर	-2188
कारात्मक	-2189
यू	-2190
१९	-2191
▁टाळ	-2192
▁सहा	-2193
मागणी	-2194
▁भीती	-2195
▁असंही	-2196
▁त्यांची	-2197
▁कर्मचाऱ्यां	-2198
फॉ	-2199
अनु	-2200
सारखी	-2201
कीत	-2202
टले	-2203
▁चौ	-2204
▁थो	-2205
▁पार	-2206
▁विष	-2207
शलक्ष	-2208
संक्रम	-2209
िकित्सालयीन	-2210
तपास	-2211
सिटी	-2212
कंपनी	-2213
दय	-2214
अति	-2215
इन्	-2216
▁बात	-2217
▁मते	-2218
▁करते	-2219
▁करणार	-2220
प्रयत्न	-2221
▁प्रमाणावर	-2222
▁रुग्णालया	-2223
▁झाल्यानंतर	-2224
ॅक	-2225
चिव	-2226
देत	-2227
सात	-2228
ढावा	-2229
रिया	-2230
ल्को	-2231
ंसिंग	-2232
व्हान	-2233
पुन्हा	-2234
हॉस्पिटल	-2235
इन	-2236
▁12	-2237
▁30	-2238
धोका	-2239
▁संप	-2240
पातळी	-2241
▁वर्षा	-2242
▁विषाणूच्या	-2243
▁इन्स्टिट्यूट	-2244
ाने	-2245
क्सफ	-2246
णाने	-2247
स्तू	-2248
ोलिस	-2249
▁युके	-2250
बजावणी	-2251
▁लशीचा	-2252
क्सफर्ड	-2253
▁पुष्टी	-2254
▁असणाऱ्या	-2255
▁निर्मिती	-2256
मुक्त	-2257
मोदी	-2258
▁वाच	-2259
▁सोड	-2260
वापरा	-2261
सार्स	-2262
▁तपासणी	-2263
▁त्याला	-2264
▁मुंबईत	-2265
▁विषाणूचा	-2266
डो	-2267
पक	-2268
ांध	-2269
क्या	-2270
स्या	-2271
व्हिर	-2272
दिव	-2273
▁इटली	-2274
प्रश्न	-2275
▁सल्ला	-2276
▁तुटवडा	-2277
▁म्हटलंय	-2278
▁आपल्याला	-2279
लाट	-2280
श्र	-2281
▁५	-2282
नेट	-2283
लिन	-2284
▁कळ	-2285
▁घर	-2286
▁पी	-2287
टप्प	-2288
▁सगळ	-2289
▁रक्त	-2290
मरावती	-2291
ार्श्व	-2292
▁कोणती	-2293
▁यांचा	-2294
▁संघटने	-2295
मलबजावणी	-2296
ॅनिटायझर	-2297
▁प्राथमिक	-2298
▁व्हेंटिले	-2299
▁आरोग्यमंत्री	-2300
घटना	-2301
भारत	-2302
टेस्ट	-2303
निवार	-2304
पंतप्रधान	-2305
जप	-2306
तीने	-2307
▁अँटी	-2308
▁ठेवा	-2309
▁मोठा	-2310
▁यावर	-2311
▁एकत्र	-2312
▁अत्यंत	-2313
कोरोनाचा	-2314
▁एखाद्या	-2315
▁नरेंद्र	-2316
▁रेमडेसिवीर	-2317
डण	-2318
▁¦1¦	-2319
उद्धव	-2320
डणवीस	-2321
विष्ट	-2322
ारावी	-2323
ांवरील	-2324
CE	-2325
इं	-2326
घात	-2327
बात	-2328
वित	-2329
नाची	-2330
▁ड्र	-2331
▁दहा	-2332
▁शेव	-2333
▁साम	-2334
▁सार	-2335
कार्या	-2336
तुम्ही	-2337
▁क्षमता	-2338
▁मृत्यु	-2339
▁अध्यक्ष	-2340
▁असल्यास	-2341
▁लोकांच्या	-2342
▁क्वारंटाईन	-2343
),	-2344
्व	-2345
नीय	-2346
पार	-2347
▁मत	-2348
टर्स	-2349
▁मोठी	-2350
नायटेड	-2351
बीबीसी	-2352
▁करावा	-2353
▁लक्षण	-2354
▁शरीरात	-2355
निर्मिती	-2356
▁देशातील	-2357
तत	-2358
था	-2359
वू	-2360
महि	-2361
जनक	-2362
टीन	-2363
▁11	-2364
▁खोक	-2365
▁दुख	-2366
▁मेड	-2367
▁साय	-2368
उद्रे	-2369
▁चालू	-2370
▁लवकर	-2371
तेव्हा	-2372
दिल्ली	-2373
▁वेगाने	-2374
▁आम्हाला	-2375
▁संभाव्य	-2376
▁ज्यामध्ये	-2377
▁सरकारच्या	-2378
ँड	-2379
चणी	-2380
क्ता	-2381
विशेष	-2382
ंत्रज्ञ	-2383
कवा	-2384
बहु	-2385
▁शु	-2386
घ्या	-2387
▁थेट	-2388
▁बाब	-2389
▁मध्य	-2390
विकसित	-2391
सार्वजनिक	-2392
शह	-2393
शहर	-2394
ंक	-2395
दीप	-2396
▁मग	-2397
▁सिं	-2398
भारता	-2399
▁¦10¦	-2400
▁करतो	-2401
▁पक्ष	-2402
▁सोशल	-2403
भूमीवर	-2404
▁जोखीम	-2405
▁पूर्व	-2406
▁असलेले	-2407
▁तुलनेत	-2408
▁नोंदणी	-2409
▁स्पर्श	-2410
▁लोकांनी	-2411
▁अत्यावश्यक	-2412
हळू	-2413
संशोध	-2414
कर्मचा	-2415
प्रभावी	-2416
कर्	-2417
किती	-2418
वर्त	-2419
▁हाय	-2420
असताना	-2421
▁सामाजिक	-2422
चल	-2423
ुण	-2424
असू	-2425
ठोर	-2426
तेने	-2427
ळाशी	-2428
ांतर	-2429
िकेत	-2430
नलाईन	-2431
मुदाय	-2432
भ्यासा	-2433
वलंबून	-2434
्युटेशन	-2435
करणाऱ्या	-2436
on	-2437
हन	-2438
नव्ह	-2439
▁WHO	-2440
▁फाय	-2441
येणार	-2442
सारखे	-2443
▁तोंड	-2444
रोग्या	-2445
▁अहवाल	-2446
▁मराठी	-2447
▁जवळपास	-2448
जानेवारी	-2449
▁असल्याची	-2450
▁त्यासाठी	-2451
).	-2452
बि	-2453
उच्च	-2454
रुग्णांना	-2455
मद	-2456
रल	-2457
खास	-2458
र्न	-2459
ताही	-2460
▁¦19	-2461
▁छात	-2462
▁फ्र	-2463
मतरता	-2464
्रिटन	-2465
▁दिलं	-2466
▁समोर	-2467
अभ्यास	-2468
▁स्वतः	-2469
▁रूग्णा	-2470
▁इंजेक्शन	-2471
▁प्रक्रिया	-2472
▁लोकसंख्ये	-2473
▁रुग्णांच्या	-2474
ti	-2475
फा	-2476
बैठ	-2477
साध	-2478
यावर	-2479
स्पष्ट	-2480
ce	-2481
जरी	-2482
▁घात	-2483
▁लाव	-2484
▁तिथे	-2485
▁मधील	-2486
्यायला	-2487
▁तयारी	-2488
▁विरोध	-2489
▁संशोधन	-2490
ल्यामुळे	-2491
▁परिणामकारक	-2492
लग	-2493
ल्थ	-2494
डेटा	-2495
त्ती	-2496
मारी	-2497
पेक्षित	-2498
विण्यात	-2499
खान	-2500
यात	-2501
▁¦6	-2502
▁200	-2503
होणार	-2504
▁लाटेत	-2505
परीक्षा	-2506
विरोधात	-2507
असल्याचे	-2508
आम	-2509
शु	-2510
जाऊ	-2511
▁¦7	-2512
दिला	-2513
उत्तर	-2514
ण्यापूर्वी	-2515
ईड	-2516
भि	-2517
पाह	-2518
लेख	-2519
वीट	-2520
▁24	-2521
▁हि	-2522
वृत्	-2523
शासन	-2524
स्ता	-2525
ारंभ	-2526
ित्र	-2527
▁पाळ	-2528
मावली	-2529
▁आरोप	-2530
▁पालन	-2531
▁होऊन	-2532
ंत्रणे	-2533
▁निवडण	-2534
▁वुहान	-2535
स्ट्राझ	-2536
▁डिसेंबर	-2537
▁विलगीकरण	-2538
टन	-2539
२०	-2540
पुढ	-2541
रेट	-2542
दुसरी	-2543
विरोधी	-2544
टाळ	-2545
▁लढ	-2546
नाचा	-2547
लहान	-2548
स्वत	-2549
▁¦2¦	-2550
करतात	-2551
▁जबाब	-2552
▁आजारी	-2553
▁करावं	-2554
▁मंत्री	-2555
21	-2556
य़	-2557
खमी	-2558
नंद	-2559
कृती	-2560
पक्ष	-2561
लेशन	-2562
दाहरणार्थ	-2563
एच	-2564
तुल	-2565
वर्क	-2566
▁मॉड	-2567
मर्या	-2568
▁आंतर	-2569
▁आधार	-2570
▁पासून	-2571
▁युरोप	-2572
▁विमान	-2573
▁प्रयोगशा	-2574
▁लोकांमध्ये	-2575
▁हॉस्पिटलमध्ये	-2576
क्वे	-2577
रित्या	-2578
लक्षणं	-2579
राज्यातील	-2580
शनल	-2581
▁अप	-2582
▁चि	-2583
▁दृ	-2584
आढळून	-2585
याबाबत	-2586
▁जातात	-2587
▁पोलीस	-2588
▁भारतीय	-2589
स्त्रज्ञ	-2590
▁यामध्ये	-2591
▁घेण्यासाठी	-2592
▁विद्यार्थी	-2593
ंवार	-2594
प्रो	-2595
तल्या	-2596
दुर्भाव	-2597
नियंत्रण	-2598
प्रतिबंध	-2599
प्रत्येक	-2600
महिन्यात	-2601
▁ढ	-2602
उद्	-2603
घाल	-2604
मृत	-2605
▁यू	-2606
▁घटक	-2607
▁टाक	-2608
▁तुम	-2609
▁मंज	-2610
▁मात	-2611
▁2019	-2612
▁पुरा	-2613
▁फ्लू	-2614
क्रिये	-2615
▁टास्क	-2616
▁प्रकाश	-2617
▁रेल्वे	-2618
▁त्यांचे	-2619
▁मुलांना	-2620
▁संक्रमण	-2621
▁सुरक्षा	-2622
ho	-2623
अड	-2624
झी	-2625
थम	-2626
दस	-2627
ंचं	-2628
नाथ	-2629
ळेत	-2630
लयात	-2631
क्सीन	-2632
क्टर्स	-2633
वसायिक	-2634
ोक्यात	-2635
अह	-2636
सरी	-2637
ुरु	-2638
▁दी	-2639
होईल	-2640
▁जनते	-2641
▁टक्क	-2642
▁पवार	-2643
▁नमुने	-2644
▁वटवाघ	-2645
▁सकाळी	-2646
▁उपस्थित	-2647
▁प्रवासा	-2648
▁प्रसारा	-2649
▁प्रॅक्ट	-2650
▁फुफ्फुस	-2651
▁बहुतांश	-2652
▁अधिकाऱ्यां	-2653
नये	-2654
देशी	-2655
ळेल	-2656
सेव	-2657
▁18	-2658
▁वॉ	-2659
ंभमे	-2660
लेलं	-2661
शयित	-2662
ृष्ठ	-2663
▁खरे	-2664
▁वित	-2665
▁खाली	-2666
राज्या	-2667
लिनिकल	-2668
ार्मिक	-2669
▁आलेली	-2670
▁बाजार	-2671
▁सौम्य	-2672
संपूर्ण	-2673
▁अद्याप	-2674
▁कामगार	-2675
▁झालेली	-2676
ार्श्वभूमीवर	-2677
▁कोव्हॅक्सिन	-2678
▁कोरोनाग्रस्त	-2679
चर्चा	-2680
विविध	-2681
त्कालीन	-2682
रं	-2683
तसंच	-2684
शिया	-2685
श्ले	-2686
▁दाख	-2687
▁नका	-2688
▁बंध	-2689
▁रद्द	-2690
▁राहि	-2691
▁साठा	-2692
▁दुसरा	-2693
▁मानवी	-2694
▁लशीची	-2695
▁वाहतूक	-2696
▁टप्प्यात	-2697
▁देशांमध्ये	-2698
▁माध्यमातून	-2699
▁रोगप्रतिकार	-2700
थं	-2701
ोम	-2702
दरा	-2703
ायल	-2704
झालं	-2705
स्ती	-2706
ोटोक	-2707
असतात	-2708
र्मनी	-2709
ँग्रेस	-2710
करण्यास	-2711
▁६	-2712
वेल	-2713
िरी	-2714
▁जसे	-2715
माध्यम	-2716
▁दररोज	-2717
▁होतात	-2718
▁सुविधा	-2719
▁तिसऱ्या	-2720
▁करोनाच्या	-2721
नक	-2722
वै	-2723
असतो	-2724
सोबतच	-2725
..	-2726
CG	-2727
चन	-2728
आहोत	-2729
जाती	-2730
फक्त	-2731
रोक्	-2732
शक्य	-2733
साला	-2734
तीव्र	-2735
▁येते	-2736
▁वाढव	-2737
▁होणे	-2738
▁लशीचे	-2739
▁नियोजन	-2740
▁प्रतिक	-2741
▁माझ्या	-2742
▁मान्यता	-2743
ओळख	-2744
ेने	-2745
केसेस	-2746
बन	-2747
▁७	-2748
▁अश	-2749
▁मज	-2750
▁यश	-2751
▁जून	-2752
गोष्टी	-2753
प्रवास	-2754
▁श्वास	-2755
▁राहतील	-2756
त्याच्या	-2757
▁ज्यामुळे	-2758
▁संपर्कात	-2759
▁रुग्णांचा	-2760
▁केल्यानंतर	-2761
एखा	-2762
म्प	-2763
रोख	-2764
्रि	-2765
तिहा	-2766
नावर	-2767
ॉटेल	-2768
श्चिम	-2769
ासाठी	-2770
लोरोक्	-2771
ाची	-2772
िंक	-2773
िंड	-2774
▁कोड	-2775
एन्झा	-2776
▁कराय	-2777
▁चिंता	-2778
प्रशासना	-2779
▁प्रभावित	-2780
▁व्हेरियंट	-2781
कॅ	-2782
-2¦	-2783
,000	-2784
सरकारी	-2785
कालावधी	-2786
कोरोनाच्या	-2787
महाराष्ट्रा	-2788
अप	-2789
पद	-2790
ष्य	-2791
ुरी	-2792
ोनू	-2793
▁IC	-2794
च्छा	-2795
शारा	-2796
स्वी	-2797
ॅशनल	-2798
▁अर्	-2799
▁कशी	-2800
▁राख	-2801
कांनी	-2802
▁कंपन	-2803
▁खर्च	-2804
▁पाळी	-2805
▁वेळा	-2806
▁करावे	-2807
▁दिवशी	-2808
▁झालेला	-2809
▁झालेले	-2810
▁मिळाली	-2811
▁राजकीय	-2812
▁म्हणजेच	-2813
▁आवश्यकता	-2814
▁नागरिकांना	-2815
पाच	-2816
स्वर	-2817
▁¦5¦	-2818
व्हर्	-2819
स्थितीत	-2820
मंत्र्यांनी	-2821
▁N	-2822
▁¦8	-2823
▁घड	-2824
▁२०	-2825
ापित	-2826
▁कडक	-2827
▁बाल	-2828
▁माण	-2829
पोहोच	-2830
आर्थिक	-2831
नावाला	-2832
प्रकरण	-2833
▁लागली	-2834
▁सुद्धा	-2835
केंद्रीय	-2836
▁बायोटेक	-2837
▁सरकारला	-2838
▁नातेवाईक	-2839
▁मर्यादित	-2840
▁करण्याच्या	-2841
▁कोरोनाव्हायरस	-2842
al	-2843
णू	-2844
यन	-2845
ाळ	-2846
ैर	-2847
थाप	-2848
र्घ	-2849
सिस	-2850
दिले	-2851
निधी	-2852
नेते	-2853
बायो	-2854
ायरल	-2855
यासाठी	-2856
सोलेशन	-2857
करण्याचा	-2858
त्यानंतर	-2859
ic	-2860
te	-2861
कृत	-2862
पीठ	-2863
वेद	-2864
मध्य	-2865
याचे	-2866
कांना	-2867
धान्य	-2868
▁जिथे	-2869
▁बंदी	-2870
▁व्हॅ	-2871
▁डिस्ट	-2872
▁पुढील	-2873
▁दिवसात	-2874
▁बऱ्याच	-2875
▁आठवड्यात	-2876
▁करण्याचे	-2877
▁झाल्याचं	-2878
दू	-2879
त्रा	-2880
अंतर्गत	-2881
पॉझिटिव्ह	-2882
me	-2883
वढ	-2884
ँकर	-2885
एनए	-2886
जन्	-2887
▁पद	-2888
▁बे	-2889
ंट्र	-2890
कारी	-2891
थापि	-2892
पेशी	-2893
वासी	-2894
▁किं	-2895
बाजार	-2896
ांकडे	-2897
▁दर्श	-2898
साधारण	-2899
ांनाही	-2900
्यांचे	-2901
्येष्ठ	-2902
▁दक्षिण	-2903
▁पुण्यात	-2904
निरीक्षणा	-2905
▁व्यवस्था	-2906
▁क्षेत्रात	-2907
अं	-2908
बस	-2909
मग	-2910
ॉन	-2911
ानं	-2912
माना	-2913
लागण	-2914
क्रमा	-2915
विभागा	-2916
फेब्रुवारी	-2917
भे	-2918
गाव	-2919
फ्ल	-2920
▁16	-2921
एकूण	-2922
दुका	-2923
▁100	-2924
▁सां	-2925
▁मानव	-2926
▁योजना	-2927
▁संस्था	-2928
▁त्यांचा	-2929
▁प्राणवायू	-2930
▁संसर्गाचा	-2931
▁सांगण्यात	-2932
▁कर्मचाऱ्यांना	-2933
लट	-2934
तंय	-2935
संर	-2936
डीने	-2937
द्धी	-2938
ांतील	-2939
काच्या	-2940
णाच्या	-2941
वाच्या	-2942
ोटोकॉल	-2943
केंद्रा	-2944
तुमच्या	-2945
9¦	-2946
कुठ	-2947
रुप	-2948
▁ज्	-2949
▁फॉ	-2950
जंतु	-2951
ावरण	-2952
▁गृह	-2953
▁घेऊ	-2954
▁तात	-2955
▁याच	-2956
▁सीर	-2957
▁पुरे	-2958
▁वेळी	-2959
▁फोर्स	-2960
▁मोहीम	-2961
▁कोव्हि	-2962
▁पूर्वी	-2963
▁महत्वा	-2964
▁रिपोर्ट	-2965
▁सप्टेंबर	-2966
गत	-2967
खूप	-2968
केवळ	-2969
गेले	-2970
जैविक	-2971
बेड्स	-2972
एशन	-2973
ड्या	-2974
त्मक	-2975
लाटे	-2976
▁मूळ	-2977
▁शिक	-2978
▁अन्न	-2979
▁घरात	-2980
▁नमुन	-2981
आमच्या	-2982
जेव्हा	-2983
विवारी	-2984
▁खरेदी	-2985
▁यांची	-2986
निव्हर्	-2987
राबाहेर	-2988
स्थानिक	-2989
▁उद्रेक	-2990
▁करणारे	-2991
▁केलेली	-2992
▁त्याचे	-2993
असल्याने	-2994
ांपूर्वी	-2995
▁ज्यांना	-2996
▁महिन्या	-2997
▁पूर्णपणे	-2998
निव्हर्सिटी	-2999
ऐव	-3000
पान	-3001
राख	-3002
ऐवजी	-3003
आल्या	-3004
स्वच्छ	-3005
केट	-3006
▁घा	-3007
घेतला	-3008
▁वर्त	-3009
▁श्वस	-3010
करण्या	-3011
▁तरीही	-3012
▁वर्षी	-3013
▁असलेली	-3014
▁इंडिया	-3015
▁दशलक्ष	-3016
▁विरोधी	-3017
▁पातळीवर	-3018
▁महापालिके	-3019
▁संसर्गाची	-3020
रुग्णसंख्या	-3021
▁मार्गदर्शक	-3022
बळ	-3023
ंटे	-3024
ग्न	-3025
पाळ	-3026
िकन	-3027
बाणी	-3028
र्डा	-3029
ांसह	-3030
टिव्ह	-3031
त्याने	-3032
नासाठी	-3033
ल्कोहो	-3034
व्यवस्था	-3035
दुखी	-3036
पाठव	-3037
▁सापड	-3038
▁साबण	-3039
दोन्ही	-3040
रात्री	-3041
व्यक्त	-3042
▁वाढली	-3043
▁संसर्गजन्य	-3044
लर	-3045
ौर	-3046
इंड	-3047
गृह	-3048
नगर	-3049
प्रे	-3050
खासगी	-3051
शिल्ड	-3052
श्वसन	-3053
पाहिजे	-3054
होत्या	-3055
ोप	-3056
लेज	-3057
▁गट	-3058
करणं	-3059
पारी	-3060
शिंद	-3061
सीआर	-3062
ॉन्स	-3063
▁ज्ञ	-3064
▁वार	-3065
▁करुन	-3066
▁क्रम	-3067
▁नसेल	-3068
▁बैठक	-3069
कुटुंब	-3070
▁अधिका	-3071
▁आवाहन	-3072
▁पहिला	-3073
उत्पादन	-3074
▁अजूनही	-3075
▁आव्हान	-3076
▁यावेळी	-3077
आकडेवारी	-3078
्यांसाठी	-3079
▁विशिष्ट	-3080
▁असल्याचा	-3081
▁चिकित्सालयीन	-3082
कटा	-3083
ब्ल	-3084
मते	-3085
मात	-3086
जातो	-3087
तसेच	-3088
त्याच	-3089
क्षणिक	-3090
त्यक्ष	-3091
कोणत्याही	-3092
मंत्रालया	-3093
व्हॅक्सीन	-3094
▁ई	-3095
ोसि	-3096
मागे	-3097
योगा	-3098
रावर	-3099
▁अॅप	-3100
यांचा	-3101
▁2021	-3102
▁अगदी	-3103
▁संकट	-3104
▁आढावा	-3105
▁पोलिस	-3106
▁फायझर	-3107
▁वस्तू	-3108
▁दिल्या	-3109
▁विद्या	-3110
▁देशांनी	-3111
▁शहरातील	-3112
▁देण्यासाठी	-3113
यत	-3114
▁’	-3115
िलो	-3116
अजून	-3117
दिसत	-3118
असतील	-3119
गर्दी	-3120
हऱ्या	-3121
तिरिक्त	-3122
निश्चित	-3123
क्वेंसिंग	-3124
दूर	-3125
▁1.	-3126
▁अन	-3127
▁मन	-3128
स्को	-3129
▁¦3¦	-3130
▁उल्	-3131
▁देऊ	-3132
▁पाठ	-3133
▁प्ल	-3134
▁भूम	-3135
▁¦50¦	-3136
▁दावा	-3137
▁परिष	-3138
▁सोबत	-3139
▁आधारित	-3140
▁प्रणाली	-3141
▁नसलेल्या	-3142
▁अंमलबजावणी	-3143
▁करोनाबाधित	-3144
▁वेगवेगळ्या	-3145
▁सुरुवातीला	-3146
कधी	-3147
येऊ	-3148
पन्न	-3149
विकास	-3150
ोत	-3151
गोल	-3152
जसे	-3153
नाव	-3154
ोबर	-3155
ोरण	-3156
ोली	-3157
▁(1	-3158
योगट	-3159
वाढत	-3160
▁फोन	-3161
▁हवा	-3162
▁होम	-3163
त्रास	-3164
दाचित	-3165
सूचना	-3166
▁नेते	-3167
त्याचा	-3168
प्रमुख	-3169
लशीच्या	-3170
ैक्षणिक	-3171
▁गरजेचं	-3172
▁फडणवीस	-3173
कर्मचारी	-3174
जेपर्यंत	-3175
▁संरक्षण	-3176
▁नसल्याचं	-3177
▁संक्रमित	-3178
▁परिस्थितीत	-3179
▁संनिरीक्षण	-3180
▁रुग्णांमध्ये	-3181
-1	-3182
he	-3183
अन	-3184
तू	-3185
मज	-3186
करी	-3187
हाय	-3188
घेऊन	-3189
पुणे	-3190
फॉर्म	-3191
राजेश	-3192
वॉ	-3193
आदेश	-3194
गरजे	-3195
चांग	-3196
र्ना	-3197
▁गुण	-3198
▁नुक	-3199
स्थान	-3200
▁काळा	-3201
▁महिल	-3202
▁मुळे	-3203
▁व्ही	-3204
प्रदेश	-3205
▁विभाग	-3206
त्यांची	-3207
लॉकडाउन	-3208
▁करायला	-3209
▁सगळ्या	-3210
▁दिवसांत	-3211
▁विशेषतः	-3212
▁ऑक्सफर्ड	-3213
▁प्रतिकार	-3214
▁प्राण्या	-3215
▁व्यक्तीला	-3216
▁सॅनिटायझर	-3217
or	-3218
इड	-3219
ुमे	-3220
ंगाल	-3221
जूला	-3222
नशील	-3223
न्यू	-3224
ल्हे	-3225
ानगर	-3226
करावी	-3227
जन्सी	-3228
सायटी	-3229
ोट्या	-3230
ंट्रोल	-3231
ानुसार	-3232
ांनुसार	-3233
विलगीकरण	-3234
विद्यालये	-3235
NA	-3236
▁औ	-3237
टाक	-3238
▁सग	-3239
णाला	-3240
पुरा	-3241
▁ACE	-3242
▁कसं	-3243
▁सतत	-3244
आढळले	-3245
लागेल	-3246
▁जागा	-3247
▁बांध	-3248
▁येतो	-3249
▁सचिव	-3250
▁सिरम	-3251
▁सीरम	-3252
यामुळे	-3253
▁अडचणी	-3254
अधिकारी	-3255
ग्रामीण	-3256
▁मेडिकल	-3257
सुरक्षित	-3258
▁झाल्याचे	-3259
▁झाल्याने	-3260
▁निष्कर्ष	-3261
▁पद्धतीने	-3262
▁प्रकारच्या	-3263
▁संसर्गाच्या	-3264
वण	-3265
िश	-3266
पाठ	-3267
साब	-3268
कामा	-3269
यक्त	-3270
त्यात	-3271
यक्तिक	-3272
शिफारस	-3273
क्वारंटाईन	-3274
ईक	-3275
ट्	-3276
▁९	-3277
केत	-3278
चंड	-3279
टका	-3280
मूद	-3281
हीत	-3282
▁हृ	-3283
ट्टी	-3284
णाचा	-3285
पालक	-3286
लॉजी	-3287
वादी	-3288
ट्रिक	-3289
णीभूत	-3290
फेक्ट	-3291
लक्षण	-3292
वर्धन	-3293
ार्मा	-3294
▁होणं	-3295
क्टोबर	-3296
बरदारी	-3297
▁येतील	-3298
▁वाटतं	-3299
ण्यातील	-3300
निवार्य	-3301
प्रकारे	-3302
ल्कोहोल	-3303
▁म्हणणं	-3304
▁साधारण	-3305
▁सुमारे	-3306
▁निश्चित	-3307
▁यंत्रणा	-3308
▁कार्यालय	-3309
▁महत्त्वाचं	-3310
▁रोखण्यासाठी	-3311
लम	-3312
रोधक	-3313
▁¦4¦	-3314
सेंटर	-3315
करताना	-3316
कोरोनाव्हायरस	-3317
%)	-3318
▁८	-3319
मित	-3320
सहा	-3321
▁टन	-3322
▁पॅ	-3323
▁वय	-3324
▁हॅ	-3325
▁उघड	-3326
▁ताल	-3327
▁पुन	-3328
▁कठोर	-3329
▁कमीत	-3330
▁गेला	-3331
▁घेता	-3332
▁तात्	-3333
▁निका	-3334
▁भाजप	-3335
▁शकतं	-3336
प्रवेश	-3337
साठीची	-3338
▁आलेला	-3339
▁ज्यात	-3340
▁स्त्र	-3341
▁बैठकीत	-3342
▁होण्या	-3343
दिलेल्या	-3344
येणाऱ्या	-3345
▁अभ्यासा	-3346
▁अमरावती	-3347
▁अवलंबून	-3348
▁समाविष्ट	-3349
विषाणूच्या	-3350
▁व्यक्तींना	-3351
▁दिवसांपासून	-3352
थो	-3353
केल	-3354
राय	-3355
क्ष्	-3356
टोपे	-3357
दस्य	-3358
त्त्व	-3359
नव्या	-3360
णेकरून	-3361
न्सिंग	-3362
्राझील	-3363
गेटिव्ह	-3364
यश	-3365
परत	-3366
भरा	-3367
रिक	-3368
हमी	-3369
▁17	-3370
▁कच	-3371
▁मार	-3372
▁मोठ	-3373
▁वात	-3374
घेतली	-3375
लयाने	-3376
▁दुर्	-3377
▁बंधन	-3378
▁साठव	-3379
त्यावर	-3380
▁संबंध	-3381
वलेल्या	-3382
▁उद्योग	-3383
▁ऑनलाईन	-3384
▁कमतरता	-3385
▁समस्या	-3386
▁साथरोग	-3387
होण्याची	-3388
▁अँटीबॉडी	-3389
▁दुसरीकडे	-3390
▁बीबीसीशी	-3391
▁म्युटेशन	-3392
▁युनायटेड	-3393
्यांपर्यंत	-3394
▁प्रशासनाने	-3395
▁व्हायरसच्या	-3396
काला	-3397
साईट	-3398
खालील	-3399
येथील	-3400
शील्ड	-3401
आधारित	-3402
सांगितले	-3403
कार्यक्रम	-3404
जिल्ह्यात	-3405
जेन	-3406
मती	-3407
वंत	-3408
सिन	-3409
▁60	-3410
आणखी	-3411
चानक	-3412
नंती	-3413
ायचं	-3414
ृद्ध	-3415
▁नाव	-3416
▁विर	-3417
ंदाजे	-3418
जाणार	-3419
ेत्रा	-3420
▁केअर	-3421
▁मिळत	-3422
ल्यांक	-3423
ांबाबत	-3424
▁चौकशी	-3425
▁रुपये	-3426
▁हेल्थ	-3427
क्रवारी	-3428
▁कारवाई	-3429
▁ब्रिटन	-3430
▁भूमिका	-3431
▁म्हटले	-3432
▁लागणार	-3433
पाट्याने	-3434
▁याविषयी	-3435
▁ऑक्सिजनचा	-3436
▁रुग्णसंख्ये	-3437
रक	-3438
हॅ	-3439
बरे	-3440
अन्य	-3441
फ्लू	-3442
मीटर	-3443
तेय	-3444
म्ब	-3445
लंय	-3446
▁31	-3447
▁खे	-3448
▁टो	-3449
▁ले	-3450
नाला	-3451
साथी	-3452
ार्ड	-3453
▁201	-3454
▁जोड	-3455
▁फिर	-3456
▁वगळ	-3457
्यावर	-3458
▁एकाच	-3459
▁घटना	-3460
▁टीका	-3461
▁धुणे	-3462
▁वेळे	-3463
▁निदान	-3464
▁नव्हती	-3465
▁मूळाशी	-3466
▁संचालक	-3467
▁महत्त्वाची	-3468
▁रेमडेसिव्हिर	-3469
ंगळ	-3470
ंटी	-3471
ठीण	-3472
पात	-3473
गेली	-3474
जरात	-3475
हिमे	-3476
क्षता	-3477
रातील	-3478
रासरी	-3479
व्यात	-3480
्याला	-3481
ातल्या	-3482
ोसिएशन	-3483
प्राथमिक	-3484
साठीच्या	-3485
्यामध्ये	-3486
कोव्हॅक्सिन	-3487
गड	-3488
यं	-3489
्य़	-3490
▁40	-3491
▁आत	-3492
▁उड	-3493
▁खु	-3494
नाने	-3495
निष्	-3496
▁जेव	-3497
▁अजित	-3498
▁इंटर	-3499
▁न्यु	-3500
▁किमान	-3501
आम्हाला	-3502
▁आरोग्या	-3503
रेमडेसिवीर	-3504
▁रुग्णांवर	-3505
▁घेतल्यानंतर	-3506
बु	-3507
टीस	-3508
मंड	-3509
अंतर	-3510
फोर्स	-3511
शहरात	-3512
घेण्यात	-3513
माहितीनुसार	-3514
is	-3515
धि	-3516
CGP	-3517
ंडर	-3518
जगी	-3519
णीय	-3520
नास	-3521
वता	-3522
ॉजी	-3523
कवाड	-3524
जिकल	-3525
तुकी	-3526
फोर्	-3527
▁त्व	-3528
अंदाज	-3529
ग्लंड	-3530
लशीचा	-3531
▁आकडा	-3532
▁पाणी	-3533
▁स्वा	-3534
जगभरात	-3535
वेंद्र	-3536
साच्या	-3537
ायकवाड	-3538
▁अनुभव	-3539
▁चित्र	-3540
ज्ञानिक	-3541
व्हेंबर	-3542
▁घ्यावी	-3543
सर्वाधिक	-3544
▁प्रकारे	-3545
▁प्राप्त	-3546
▁मार्चला	-3547
▁वारंवार	-3548
▁सर्वांत	-3549
▁सीओव्ही	-3550
एचसीओव्ही	-3551
स्ट्राझेन	-3552
अत्यावश्यक	-3553
▁प्रादुर्भाव	-3554
हल	-3555
खोक	-3556
पती	-3557
गिरी	-3558
करणार	-3559
परंतु	-3560
यांची	-3561
ळ्यात	-3562
नागपूर	-3563
प्रवाश	-3564
अमेरिके	-3565
संभाव्य	-3566
सामाजिक	-3567
ऑक्सिजनची	-3568
DC	-3569
गण	-3570
पट	-3571
हक	-3572
म्स	-3573
सिं	-3574
▁25	-3575
▁जु	-3576
▁भेट	-3577
वेगळे	-3578
▁कायम	-3579
▁कुठे	-3580
▁जारी	-3581
पर्याय	-3582
सर्वात	-3583
▁ट्वीट	-3584
▁म्हणा	-3585
▁येतात	-3586
आपल्याला	-3587
▁चीनच्या	-3588
▁शिक्षणा	-3589
आतापर्यंत	-3590
▁चीनमध्ये	-3591
▁नियमावली	-3592
▁राज्याचे	-3593
▁होण्याचा	-3594
▁उदाहरणार्थ	-3595
▁रेमडेसिविर	-3596
चौ	-3597
गेच	-3598
प्स	-3599
लेय	-3600
संप	-3601
थांब	-3602
म्बो	-3603
रक्त	-3604
लाईन	-3605
वाळी	-3606
▁¦6¦	-3607
ानंतर	-3608
ुफ्फु	-3609
त्याची	-3610
पुष्टी	-3611
ha	-3612
कळ	-3613
दै	-3614
पन	-3615
ERS	-3616
RSC	-3617
who	-3618
याम	-3619
शकत	-3620
सोड	-3621
▁80	-3622
अँटी	-3623
याला	-3624
येथे	-3625
सुरु	-3626
▁अखे	-3627
▁जरी	-3628
▁नवा	-3629
घोषणा	-3630
▁असली	-3631
▁वृत्	-3632
त्याला	-3633
▁पहिली	-3634
▁पृष्ठ	-3635
▁विस्त	-3636
▁स्टेट	-3637
पत्रकार	-3638
▁धार्मिक	-3639
▁प्रसिद्ध	-3640
▁स्वच्छता	-3641
▁विषाणूजन्य	-3642
▁पार्श्वभूमीवर	-3643
इटली	-3644
जातं	-3645
तोंड	-3646
असंही	-3647
▁¦20¦	-3648
उपचारा	-3649
मृत्यु	-3650
शासकीय	-3651
प्रणाली	-3652
सल	-3653
ॉप	-3654
▁•	-3655
कोर	-3656
खळी	-3657
गरी	-3658
▁आग	-3659
▁कसा	-3660
▁कोर	-3661
▁ग्र	-3662
▁लढा	-3663
कीकडे	-3664
वुहान	-3665
▁अर्ज	-3666
▁एकदा	-3667
▁जंतू	-3668
लिफोर्	-3669
ल्याची	-3670
▁वर्षे	-3671
▁शरीरा	-3672
देशातील	-3673
यामध्ये	-3674
विरुद्ध	-3675
▁उद्देश	-3676
▁करोनाची	-3677
▁घेण्यास	-3678
▁पुढच्या	-3679
▁तंत्रज्ञ	-3680
▁प्रकाशित	-3681
▁भारतातील	-3682
▁साथीच्या	-3683
लिफोर्निया	-3684
▁कोरोनाबाधित	-3685
▁महाराष्ट्राला	-3686
डिओ	-3687
वर्षा	-3688
ण्याने	-3689
लक्षात	-3690
संचालक	-3691
नरेंद्र	-3692
प्रतिसाद	-3693
प्रमाणावर	-3694
कं	-3695
यी	-3696
...	-3697
दहा	-3698
वाच	-3699
▁(2	-3700
▁मद	-3701
भीती	-3702
▁RSC	-3703
▁नगर	-3704
▁पाट	-3705
▁समू	-3706
▁हळू	-3707
▁RCGP	-3708
▁असता	-3709
▁आलंय	-3710
▁जाऊन	-3711
▁अतिशय	-3712
▁खोकला	-3713
▁परिणा	-3714
▁मानवा	-3715
▁मिळेल	-3716
▁सिस्ट	-3717
▁आयुक्त	-3718
▁कुंभमे	-3719
▁केलेले	-3720
▁त्यावर	-3721
होणाऱ्या	-3722
▁महामारी	-3723
▁झाल्याची	-3724
▁ठेवण्यात	-3725
▁डॉक्टर्स	-3726
▁विषाणूची	-3727
कर्मचाऱ्यां	-3728
▁मुलांमध्ये	-3729
▁मंत्रालयाने	-3730
▁व्हेंटिलेटर	-3731
ँक	-3732
षा	-3733
निल	-3734
ब्द	-3735
ल्य	-3736
साम	-3737
ोत्	-3738
तेचे	-3739
ोषित	-3740
क्ष्म	-3741
ीबॉडी	-3742
संघटने	-3743
सर्गिक	-3744
टोक्यात	-3745
क्लोरोक्	-3746
0.	-3747
CR	-3748
▁लॉ	-3749
▁लो	-3750
मोठा	-3751
लवकर	-3752
श्वस	-3753
▁ICU	-3754
▁आयु	-3755
▁गाव	-3756
▁रेड	-3757
▁रोज	-3758
पत्रक	-3759
▁एकमे	-3760
▁ट्वि	-3761
▁सेवे	-3762
अत्यंत	-3763
तपासणी	-3764
तेच्या	-3765
▁जैविक	-3766
▁बातमी	-3767
▁लागला	-3768
▁जर्मनी	-3769
▁दृष्टी	-3770
▁मीडिया	-3771
विषाणूचा	-3772
▁कंपनीने	-3773
▁त्यावेळी	-3774
▁नसल्याने	-3775
झाल्यानंतर	-3776
▁व्हायरसचा	-3777
▁विद्यार्थ्यांना	-3778
टि	-3779
फाय	-3780
मेड	-3781
वणे	-3782
ज्ञान	-3783
सल्ला	-3784
जवळपास	-3785
इन्स्टिट्यूट	-3786
,"	-3787
२२	-3788
जेत	-3789
थळा	-3790
रेज	-3791
लेट	-3792
िकी	-3793
ोंड	-3794
▁23	-3795
▁28	-3796
▁कृ	-3797
▁द्	-3798
पालन	-3799
युके	-3800
वाणू	-3801
वेळा	-3802
ापना	-3803
▁जगा	-3804
▁निक	-3805
▁सल्	-3806
करिता	-3807
कोणती	-3808
ड्रोम	-3809
वाखान	-3810
्यकर्	-3811
▁आधीच	-3812
▁आफ्र	-3813
▁टाळा	-3814
▁मुद्	-3815
▁वाढू	-3816
पीसीआर	-3817
शरीरात	-3818
▁तुलना	-3819
▁पोस्ट	-3820
▁शिवाय	-3821
▁संवाद	-3822
▁हॉटेल	-3823
लोकांनी	-3824
ल्यांकन	-3825
ैसर्गिक	-3826
▁असलेला	-3827
▁दुकाने	-3828
▁पश्चिम	-3829
▁प्रदान	-3830
▁कोणतीही	-3831
▁लोकांची	-3832
▁स्ट्रेन	-3833
व्हेंटिले	-3834
▁अतिरिक्त	-3835
▁अपेक्षित	-3836
▁काँग्रेस	-3837
▁देण्याची	-3838
▁व्हायरसची	-3839
खर	-3840
नल	-3841
पॅ	-3842
▁!	-3843
जारी	-3844
मोठी	-3845
एकत्र	-3846
ज्ञात	-3847
निदान	-3848
ज्यामध्ये	-3849
en	-3850
कोड	-3851
पुट	-3852
माल	-3853
वाज	-3854
शेव	-3855
▁70	-3856
▁अव	-3857
▁नव	-3858
▁नाक	-3859
जिनोम	-3860
्रिया	-3861
▁¦30¦	-3862
▁असाल	-3863
▁शेवट	-3864
तुटवडा	-3865
▁इशारा	-3866
▁उपयोग	-3867
▁जातील	-3868
▁ज्ञात	-3869
▁महिला	-3870
▁समिती	-3871
▁सर्वे	-3872
म्हटलंय	-3873
वण्याचा	-3874
सुरक्षा	-3875
▁संशयित	-3876
▁सहभागी	-3877
▁कोणताही	-3878
▁देशभरात	-3879
▁प्रशासन	-3880
▁आल्यानंतर	-3881
▁राज्यांना	-3882
▁व्यावसायिक	-3883
▁शास्त्रज्ञ	-3884
es	-3885
डम	-3886
ुष	-3887
ूट	-3888
ace	-3889
ँडी	-3890
ंता	-3891
ंदू	-3892
कूल	-3893
दला	-3894
सगळ	-3895
करते	-3896
जिटल	-3897
पनीय	-3898
विना	-3899
सीयू	-3900
िकाण	-3901
ँडीडे	-3902
क्तात	-3903
चित्र	-3904
निवडण	-3905
ोंडवे	-3906
ंत्रित	-3907
धिकारी	-3908
श्लेषण	-3909
चारबंदी	-3910
असणाऱ्या	-3911
र्षवर्धन	-3912
रुग्णालया	-3913
लोकसंख्ये	-3914
व्यतिरिक्त	-3915
आरोग्यमंत्री	-3916
यक	-3917
ंका	-3918
जिओ	-3919
दुख	-3920
▁दू	-3921
▁बु	-3922
जबाब	-3923
ठेवा	-3924
▁एन्	-3925
▁राब	-3926
▁शाळ	-3927
विषयक	-3928
▁असतं	-3929
▁टँकर	-3930
▁तक्र	-3931
▁निरी	-3932
▁लिहि	-3933
▁वरील	-3934
▁सोनू	-3935
वाहतूक	-3936
▁तथापि	-3937
▁विकास	-3938
▁वेगळे	-3939
▁सुधार	-3940
एखाद्या	-3941
▁प्राणी	-3942
▁लागतील	-3943
▁ज्येष्ठ	-3944
▁प्रारंभ	-3945
▁असण्याची	-3946
▁जबाबदारी	-3947
▁जाणाऱ्या	-3948
▁संख्येने	-3949
▁आपत्कालीन	-3950
ॉय	-3951
िटी	-3952
ुका	-3953
विले	-3954
प्रथम	-3955
कोव्हि	-3956
दक्षता	-3957
अध्यक्ष	-3958
असल्यास	-3959
लोकांच्या	-3960
ht	-3961
डू	-3962
लद	-3963
ंडी	-3964
ंधळ	-3965
तिस	-3966
पीई	-3967
हील	-3968
ांट	-3969
ासह	-3970
▁दो	-3971
▁प्	-3972
वाची	-3973
वासा	-3974
सोशल	-3975
▁जिम	-3976
▁बाय	-3977
दिष्ट	-3978
लच्या	-3979
सौम्य	-3980
ेच्या	-3981
▁¦14¦	-3982
▁¦15¦	-3983
▁आपली	-3984
▁चुकी	-3985
▁लागत	-3986
नोंदणी	-3987
म्युनि	-3988
ल्याही	-3989
ळेबंदी	-3990
स्पर्श	-3991
▁रक्ता	-3992
▁सर्दी	-3993
▁सूचित	-3994
डिसेंबर	-3995
स्ट्रेल	-3996
▁खात्री	-3997
▁निर्देश	-3998
▁प्रकल्प	-3999
▁भागातील	-4000
▁वातावरण	-4001
▁आयसोलेशन	-4002
▁क्लिनिकल	-4003
▁जगभरातील	-4004
▁प्रोटोकॉल	-4005
▁नियंत्रणात	-4006
चूक	-4007
नाट	-4008
मेल	-4009
चालू	-4010
डीला	-4011
तिथे	-4012
बाबतीत	-4013
वेगाने	-4014
त्यांचे	-4015
सरकारच्या	-4016
HE	-4017
▁E	-4018
राम	-4019
ळीत	-4020
▁हु	-4021
रंगा	-4022
▁अँप	-4023
▁गां	-4024
▁नेम	-4025
▁पॉल	-4026
करावा	-4027
जोखीम	-4028
दररोज	-4029
युरोप	-4030
स्कार	-4031
▁आकडे	-4032
▁कोणी	-4033
▁तरुण	-4034
▁बाबी	-4035
▁याला	-4036
▁सहाय	-4037
ळाच्या	-4038
▁उद्भव	-4039
▁जोखमी	-4040
▁ट्रेन	-4041
▁नाशिक	-4042
▁पाटील	-4043
▁मध्यम	-4044
▁मिनिट	-4045
▁वृत्त	-4046
▁हाताळ	-4047
▁बाबतीत	-4048
▁शिक्षक	-4049
▁झाल्यास	-4050
▁त्यांचं	-4051
▁निवडणूक	-4052
▁संदर्भात	-4053
▁यांच्याशी	-4054
▁व्यवस्थापन	-4055
▁लसीकरणासाठी	-4056
▁संनिरीक्षणा	-4057
▁युनिव्हर्सिटी	-4058
पू	-4059
रु	-4060
ंदर	-4061
जोड	-4062
ताच	-4063
तेक	-4064
ब्र	-4065
षित	-4066
ोटो	-4067
करतो	-4068
क्का	-4069
क्की	-4070
तेही	-4071
द्धत	-4072
बाईल	-4073
र्जी	-4074
िसेस	-4075
्राव	-4076
ंसाठी	-4077
कोसिस	-4078
क्षेप	-4079
दर्शन	-4080
दिवशी	-4081
नंदिन	-4082
बसाईट	-4083
मानात	-4084
मायिक	-4085
स्वतः	-4086
असलेले	-4087
णीबाणी	-4088
तुलनेत	-4089
माझ्या	-4090
ायरिया	-4091
क्टिव्ह	-4092
योगटातील	-4093
रुग्णांच्या	-4094
मर	-4095
▁21	-4096
▁RT	-4097
▁एन	-4098
▁ग्	-4099
▁मॅ	-4100
▁वं	-4101
▁वस	-4102
▁१०	-4103
स्तर	-4104
▁¦7¦	-4105
▁इथे	-4106
▁इरा	-4107
▁वाज	-4108
तयारी	-4109
▁MERS	-4110
▁माजी	-4111
▁येतं	-4112
▁लांब	-4113
▁व्हा	-4114
▁सादर	-4115
ण्यावर	-4116
मुंबईत	-4117
संशोधन	-4118
▁आलेले	-4119
▁इतिहा	-4120
▁गोष्ट	-4121
▁शक्ती	-4122
नावश्यक	-4123
परिवर्त	-4124
पातळीवर	-4125
मध्येही	-4126
▁उपक्रम	-4127
▁देताना	-4128
▁देशांत	-4129
▁मानसिक	-4130
▁राहणार	-4131
▁सरकारनं	-4132
▁महापालिका	-4133
▁कोरोनामुळे	-4134
▁राज्याच्या	-4135
▁आंतरराष्ट्रीय	-4136
at	-4137
nd	-4138
मॅ	-4139
आधार	-4140
पुरे	-4141
सेवे	-4142
स्पि	-4143
अहवाल	-4144
दृष्ट	-4145
मराठी	-4146
विमान	-4147
असल्याची	-4148
करोनाच्या	-4149
खं	-4150
तम	-4151
▁U	-4152
ंडे	-4153
ंती	-4154
छात	-4155
थिन	-4156
रीस	-4157
ल्ट	-4158
सीन	-4159
ूकस	-4160
ूपा	-4161
ैसे	-4162
▁22	-4163
▁90	-4164
▁पू	-4165
▁फि	-4166
▁वी	-4167
▁सर	-4168
केअर	-4169
धानी	-4170
प्पा	-4171
लन्स	-4172
सेवक	-4173
ुमेह	-4174
▁¦8¦	-4175
▁अभि	-4176
▁ढकल	-4177
▁नेट	-4178
▁राय	-4179
पत्रं	-4180
पोलीस	-4181
वल्या	-4182
ारावर	-4183
▁आपले	-4184
▁मर्स	-4185
णासाठी	-4186
भारतीय	-4187
रूग्णा	-4188
्यांचं	-4189
▁चंद्र	-4190
▁मागील	-4191
▁प्रभाव	-4192
इंजेक्शन	-4193
मायकोसिस	-4194
▁करोनाचा	-4195
▁रविवारी	-4196
▁संयुक्त	-4197
प्रक्रिया	-4198
▁मृत्यूदर	-4199
▁सरकारकडून	-4200
▁जिल्ह्यातील	-4201
▁मार्चपर्यंत	-4202
ग्री	-4203
मुलांना	-4204
परिणामकारक	-4205
रोगप्रतिकार	-4206
वते	-4207
ेला	-4208
्डी	-4209
▁13	-4210
▁2.	-4211
▁Co	-4212
▁१५	-4213
▁२४	-4214
आंतर	-4215
▁आठव	-4216
आजारी	-4217
नॅशनल	-4218
पुढील	-4219
लाटेत	-4220
ाऱ्या	-4221
▁घेणं	-4222
▁नर्स	-4223
▁स्थग	-4224
वृत्ती	-4225
सुविधा	-4226
▁जाणवत	-4227
बहुतांश	-4228
▁अधिकृत	-4229
▁दुकानं	-4230
▁नाहीये	-4231
▁बोर्डा	-4232
▁समुदाय	-4233
त्यासाठी	-4234
प्रयोगशा	-4235
▁चेहऱ्या	-4236
▁सुरूवात	-4237
▁पुरवठ्या	-4238
▁घेतलेल्या	-4239
▁त्यामध्ये	-4240
▁प्राधान्य	-4241
▁सकारात्मक	-4242
▁उपचारासाठी	-4243
▁ठेवण्यासाठी	-4244
▁रुग्णांसाठी	-4245
▁सिक्वेंसिंग	-4246
▁रूग्णांमध्ये	-4247
गद	-4248
रळ	-4249
हच	-4250
ंदि	-4251
अर्	-4252
कडॉ	-4253
कॅन	-4254
थून	-4255
फोन	-4256
वयव	-4257
शीर	-4258
आरोप	-4259
क्ति	-4260
खरेख	-4261
टाने	-4262
त्सा	-4263
प्ता	-4264
प्पी	-4265
सादा	-4266
होऊन	-4267
िमंड	-4268
ंतागु	-4269
ंपैकी	-4270
कडॉऊन	-4271
जातात	-4272
रेटरी	-4273
व्हरी	-4274
▁¦19¦	-4275
राजकीय	-4276
प्राप्त	-4277
मान्यता	-4278
विशिष्ट	-4279
ुरुवारी	-4280
ॅटफॉर्म	-4281
कोरोनाग्रस्त	-4282
लढ	-4283
▁T	-4284
▁०	-4285
PCR	-4286
तुम	-4287
मंज	-4288
डीसी	-4289
ड्रॉ	-4290
दिलं	-4291
▁ताण	-4292
▁द्र	-4293
▁मंड	-4294
▁शेत	-4295
▁संब	-4296
करावं	-4297
मानवी	-4298
▁अद्य	-4299
▁ट्रे	-4300
▁देणे	-4301
▁लोकल	-4302
▁वाटत	-4303
प्रकाश	-4304
▁¦2019	-4305
▁आधारे	-4306
▁खालील	-4307
▁तालुक	-4308
▁वितरण	-4309
▁शेवटी	-4310
▁कदाचित	-4311
▁नव्हते	-4312
▁मिळाला	-4313
▁घ्यायला	-4314
▁प्रोटीन	-4315
▁फ्रान्स	-4316
▁यंत्रणे	-4317
▁राष्ट्र	-4318
▁वयाच्या	-4319
▁व्यवसाय	-4320
▁साबणाने	-4321
▁क्षेत्रातील	-4322
इम	-4323
रत	-4324
वल	-4325
▁–	-4326
अखे	-4327
जाग	-4328
मॉड	-4329
नाचे	-4330
मित्	-4331
वरही	-4332
सकाळी	-4333
मार्गा	-4334
्यायची	-4335
प्रसारा	-4336
विद्यालय	-4337
व्हेरियंट	-4338
लोकांमध्ये	-4339
हॉस्पिटलमध्ये	-4340
चर	-4341
पॉ	-4342
फि	-4343
ळं	-4344
ंबा	-4345
पेन	-4346
प्ल	-4347
▁),	-4348
▁आठ	-4349
▁मॉ	-4350
tion	-4351
ंदोल	-4352
गस्ट	-4353
घाडी	-4354
जंतू	-4355
मर्स	-4356
वहार	-4357
व्हल	-4358
स्टी	-4359
ांडे	-4360
ैदरा	-4361
▁किट	-4362
▁गैर	-4363
▁ठरू	-4364
▁डाय	-4365
▁रस्	-4366
सारखा	-4367
▁असले	-4368
▁कृती	-4369
▁गोळा	-4370
▁धोरण	-4371
▁न्या	-4372
▁मनात	-4373
▁मांड	-4374
▁संकल	-4375
▁स्वी	-4376
अद्याप	-4377
नियोजन	-4378
प्रतिक	-4379
▁घेतले	-4380
▁जाणून	-4381
▁पाहता	-4382
▁लागलं	-4383
▁संकटा	-4384
▁सामना	-4385
रंगाबाद	-4386
ल्हेवाट	-4387
ैदराबाद	-4388
▁अहवाला	-4389
▁महानगर	-4390
ात्कालीन	-4391
▁कंट्रोल	-4392
▁तातडीने	-4393
▁नेटवर्क	-4394
▁याबद्दल	-4395
▁सोसायटी	-4396
▁कोरोनाचे	-4397
▁घराबाहेर	-4398
घेण्यासाठी	-4399
विद्यार्थी	-4400
▁विद्यापीठ	-4401
▁व्हॅक्सिन	-4402
▁असल्यामुळे	-4403
▁महत्त्वाचे	-4404
▁वाजेपर्यंत	-4405
▁तज्ज्ञांच्या	-4406
▁रुग्णालयांमध्ये	-4407
ps	-4408
गल	-4409
जु	-4410
फ्ट	-4411
क्रो	-4412
टक्क	-4413
टास्क	-4414
दुसरा	-4415
लशीची	-4416
रेल्वे	-4417
संक्रमण	-4418
ण्याबाबत	-4419
संपर्कात	-4420
रीन	-4421
रेल	-4422
▁45	-4423
▁आई	-4424
काळा	-4425
पवार	-4426
राणा	-4427
▁कर्	-4428
▁समु	-4429
▁सुच	-4430
▁हवी	-4431
नमुने	-4432
वटवाघ	-4433
▁चिनी	-4434
▁नमूद	-4435
▁भरती	-4436
▁भागा	-4437
▁यूके	-4438
▁दहावी	-4439
▁दिवसा	-4440
▁दीर्घ	-4441
▁बंगाल	-4442
▁लागते	-4443
उपस्थित	-4444
प्रॅक्ट	-4445
फुफ्फुस	-4446
रिपोर्ट	-4447
▁द्वारे	-4448
▁प्रचंड	-4449
▁बारावी	-4450
▁हळूहळू	-4451
▁होणारा	-4452
▁कंपन्या	-4453
▁प्रवासी	-4454
▁मराठीशी	-4455
▁स्थितीत	-4456
▁अल्कोहोल	-4457
▁कारणीभूत	-4458
▁शैक्षणिक	-4459
▁सर्वांना	-4460
▁प्रत्यक्ष	-4461
संसर्गाच्या	-4462
▁महत्त्वाच्या	-4463
▁महाराष्ट्रातील	-4464
dc	-4465
एचओ	-4466
कसा	-4467
ण्ड	-4468
नेस	-4469
बाय	-4470
बाल	-4471
लॉक	-4472
सभा	-4473
ाना	-4474
▁..	-4475
काने	-4476
खर्च	-4477
पचार	-4478
ब्ये	-4479
वादा	-4480
सर्च	-4481
ांती	-4482
िन्स	-4483
ंव्हा	-4484
आलेली	-4485
धवारी	-4486
लशीचे	-4487
लीकडे	-4488
वायला	-4489
झालेली	-4490
टवड्या	-4491
निवारी	-4492
पुटनिक	-4493
ारीरिक	-4494
व्हायरल	-4495
रोगतज्ज्ञ	-4496
अधिकाऱ्यां	-4497
▁H	-4498
ग्ज	-4499
दाख	-4500
नका	-4501
याच	-4502
वणं	-4503
▁).	-4504
▁अभ	-4505
मानव	-4506
रद्द	-4507
राहि	-4508
संकट	-4509
साठा	-4510
▁अँड	-4511
▁आशा	-4512
▁निर	-4513
▁वाद	-4514
▁संच	-4515
▁समज	-4516
▁¦24¦	-4517
▁आमची	-4518
▁उभार	-4519
▁करेल	-4520
▁जनरल	-4521
▁पेपर	-4522
▁वर्ग	-4523
▁शकता	-4524
▁सूचन	-4525
मार्फत	-4526
ल्याचे	-4527
▁जिनोम	-4528
▁ठेवणे	-4529
▁नमुना	-4530
▁निर्ण	-4531
▁बैठकी	-4532
▁यांचे	-4533
▁लागले	-4534
▁सक्षम	-4535
▁सदस्य	-4536
▁स्वयं	-4537
▁होतील	-4538
बायोटेक	-4539
▁इतक्या	-4540
▁ट्रायल	-4541
▁प्रयोग	-4542
▁यापैकी	-4543
▁विक्री	-4544
▁संघटना	-4545
ज्यामुळे	-4546
टप्प्यात	-4547
मर्यादित	-4548
▁एकत्रित	-4549
▁प्रत्ये	-4550
▁ब्राझील	-4551
▁जेणेकरून	-4552
▁दिवसांचा	-4553
▁वैयक्तिक	-4554
देशांमध्ये	-4555
माध्यमातून	-4556
▁आजाराच्या	-4557
▁उपाययोजना	-4558
▁निगेटिव्ह	-4559
▁मुलांच्या	-4560
▁वापरासाठी	-4561
▁सध्याच्या	-4562
▁यासंदर्भात	-4563
▁महिन्याच्या	-4564
▁लॉकडाऊनच्या	-4565
▁रुग्णालयातील	-4566
गट	-4567
पं	-4568
पाप	-4569
सचिव	-4570
चिंता	-4571
होतात	-4572
तिसऱ्या	-4573
शो	-4574
▁/	-4575
किं	-4576
थिल	-4577
वटे	-4578
ुपा	-4579
ुलै	-4580
ेलो	-4581
▁डा	-4582
▁रण	-4583
▁शी	-4584
काचा	-4585
घरात	-4586
जगार	-4587
पीठा	-4588
शन्स	-4589
श्रय	-4590
होणे	-4591
ेशंट	-4592
▁PHE	-4593
▁झोन	-4594
▁पडू	-4595
▁बाळ	-4596
▁सेव	-4597
▁स्त	-4598
टुंबा	-4599
थल्या	-4600
नलाइन	-4601
लांतर	-4602
▁¦12¦	-4603
▁जगात	-4604
▁निधी	-4605
▁सद्य	-4606
▁स्टो	-4607
▁हृदय	-4608
रोलॉजी	-4609
ल्याचा	-4610
ुएन्झा	-4611
ॉस्पिट	-4612
▁अचानक	-4613
▁निकाल	-4614
▁रिक्त	-4615
▁वेळेत	-4616
▁साधला	-4617
ज्यांना	-4618
म्हणजेच	-4619
व्हॅक्स	-4620
▁अंदाजे	-4621
▁जणांना	-4622
▁नव्हता	-4623
▁न्याया	-4624
▁पोशिंद	-4625
▁विनंती	-4626
आवश्यकता	-4627
पूर्णपणे	-4628
ल्याच्या	-4629
्यापासून	-4630
▁ऑक्टोबर	-4631
▁केल्यास	-4632
▁खबरदारी	-4633
▁सारख्या	-4634
▁अनिवार्य	-4635
▁निर्जंतु	-4636
▁संघटनेने	-4637
▁केंद्राने	-4638
▁झपाट्याने	-4639
▁शुक्रवारी	-4640
▁मुख्यमंत्र	-4641
▁सामान्यपणे	-4642
▁राज्यांमध्ये	-4643
▁#	-4644
▁[	-4645
मधे	-4646
सां	-4647
विकार	-4648
ांतून	-4649
त्याचे	-4650
राहतील	-4651
संस्था	-4652
शिक्षणा	-4653
सरकारला	-4654
रुग्णांचा	-4655
संसर्गाची	-4656
करण्याच्या	-4657
केल्यानंतर	-4658
re	-4659
धर	-4660
घटक	-4661
जपा	-4662
वसा	-4663
समज	-4664
▁कौ	-4665
▁भे	-4666
▁१८	-4667
कराय	-4668
▁रेट	-4669
संबंध	-4670
▁असला	-4671
▁कठीण	-4672
▁जोशी	-4673
▁निवड	-4674
▁पर्य	-4675
▁मोफत	-4676
▁याचे	-4677
▁राहा	-4678
दृष्टी	-4679
नात्मक	-4680
व्हर्स	-4681
▁आयोगा	-4682
▁कॉलेज	-4683
▁फायदा	-4684
▁मासिक	-4685
▁सिद्ध	-4686
▁हजारो	-4687
राष्ट्र	-4688
्यासाठी	-4689
▁आयोजित	-4690
▁पुरावा	-4691
▁प्रचार	-4692
▁मोहिमे	-4693
▁शासकीय	-4694
▁होणारी	-4695
प्रभावित	-4696
सप्टेंबर	-4697
▁उत्पादक	-4698
▁वाढत्या	-4699
▁असोसिएशन	-4700
▁लावण्यात	-4701
▁प्रक्रिये	-4702
▁प्रॅक्टिस	-4703
▁न्यूमोनिया	-4704
▁वर्षांवरील	-4705
▁त्यांच्यावर	-4706
▁दिवसांपूर्वी	-4707
,6	-4708
cr	-4709
अश	-4710
कृ	-4711
घन	-4712
डन	-4713
णित	-4714
पौर	-4715
लाई	-4716
ाचे	-4717
ुरू	-4718
आधीच	-4719
कंपन	-4720
णाचे	-4721
प्पट	-4722
फ्यू	-4723
ब्बल	-4724
सिका	-4725
करावे	-4726
जिओटे	-4727
ज्यात	-4728
ब्यात	-4729
भावना	-4730
कामगार	-4731
क्सिया	-4732
झालेला	-4733
झालेले	-4734
दक्षिण	-4735
मिळाली	-4736
विस्तर	-4737
पुण्यात	-4738
कार्यालय	-4739
्यांपैकी	-4740
करमायकोसिस	-4741
नागरिकांना	-4742
gp	-4743
सत	-4744
अॅप	-4745
कडक	-4746
▁धर	-4747
▁पथ	-4748
▁भू	-4749
गेला	-4750
जनते	-4751
जिथे	-4752
राने	-4753
वेळे	-4754
▁उचल	-4755
▁काल	-4756
▁केस	-4757
▁चेन	-4758
▁जनु	-4759
▁सोम	-4760
फायझर	-4761
लागली	-4762
्याचे	-4763
▁इतकी	-4764
▁इमार	-4765
▁ठाणे	-4766
▁व्हि	-4767
▁समान	-4768
इंडिया	-4769
त्साहन	-4770
▁कारणं	-4771
▁कुमार	-4772
▁दुकान	-4773
▁नेहमी	-4774
▁राहुल	-4775
अमरावती	-4776
▁पुरावे	-4777
▁सरासरी	-4778
ऑक्सफर्ड	-4779
नातेवाईक	-4780
प्रमाणेच	-4781
▁अंतर्गत	-4782
▁इंग्लंड	-4783
▁गायकवाड	-4784
▁मर्यादा	-4785
▁मेट्रिक	-4786
▁संख्येत	-4787
▁सरकारची	-4788
▁होण्यास	-4789
क्षेत्रात	-4790
▁निरीक्षण	-4791
▁मुलांसाठी	-4792
▁डॉक्टरांना	-4793
▁डॉक्टरांनी	-4794
▁प्रवाशांना	-4795
▁भारतामध्ये	-4796
रेमडेसिव्हिर	-4797
▁रुग्णालयाच्या	-4798
अल	-4799
खु	-4800
▁”	-4801
राब	-4802
सोल	-4803
परिष	-4804
श्रु	-4805
सिरम	-4806
डिस्ट	-4807
वृत्त	-4808
सारखं	-4809
दिवसात	-4810
मेडिकल	-4811
शास्त्र	-4812
आठवड्यात	-4813
करण्याचे	-4814
झाल्याचं	-4815
50	-4816
MR	-4817
सळ	-4818
ोळ	-4819
▁ऐ	-4820
थेर	-4821
बेई	-4822
ल्ह	-4823
शान	-4824
ालय	-4825
ूरी	-4826
▁आध	-4827
▁गॅ	-4828
कडील	-4829
करुन	-4830
णाची	-4831
पाला	-4832
वतात	-4833
वाना	-4834
ायचे	-4835
िंडर	-4836
▁RNA	-4837
▁कसे	-4838
▁दंड	-4839
▁बरा	-4840
▁हवं	-4841
ंदिवस	-4842
ंमुळे	-4843
वेगळी	-4844
स्तीत	-4845
ॅनगोल	-4846
ेशन्स	-4847
▁आपला	-4848
▁औषधं	-4849
▁गर्भ	-4850
▁ठिका	-4851
▁निया	-4852
▁मुले	-4853
▁मोठं	-4854
▁यादी	-4855
▁लगेच	-4856
▁वर्ण	-4857
▁संधी	-4858
उद्रेक	-4859
पनीयता	-4860
ांसोबत	-4861
ेनमेंट	-4862
▁किंमत	-4863
▁खाजगी	-4864
▁झालाय	-4865
▁मानले	-4866
▁यांचं	-4867
▁विधान	-4868
▁वेगळी	-4869
▁शकतील	-4870
ंगळवारी	-4871
ईपर्यंत	-4872
यंत्रणा	-4873
▁अधिकार	-4874
▁गुजरात	-4875
▁फार्मा	-4876
▁मंजुरी	-4877
▁लशींचा	-4878
म्युनिटी	-4879
▁पाहायला	-4880
▁स्थापित	-4881
स्पिरेटरी	-4882
ॅनगोलिन्स	-4883
ॉस्पिटल्स	-4884
▁अमेरिकेत	-4885
▁एप्रिलला	-4886
▁मुंबईतील	-4887
▁नोव्हेंबर	-4888
▁वैज्ञानिक	-4889
कोव्हॅक्सीन	-4890
▁नागरिकांनी	-4891
▁विभागाच्या	-4892
क्सीक्लोरोक्	-4893
चिकित्सालयीन	-4894
श्वविद्यालये	-4895
▁कोव्हिशील्ड	-4896
pp	-4897
ऊत	-4898
बू	-4899
यर	-4900
िड	-4901
१५	-4902
लोड	-4903
सिल	-4904
अगदी	-4905
णारं	-4906
पाळी	-4907
ब्रे	-4908
ळावर	-4909
,000¦	-4910
विभाग	-4911
पदार्थ	-4912
व्यापी	-4913
त्यांचा	-4914
प्राणवायू	-4915
व्यक्तीला	-4916
संसर्गाचा	-4917
सांगण्यात	-4918
मार्गदर्शक	-4919
कर्मचाऱ्यांना	-4920
नॉ	-4921
फर	-4922
सग	-4923
▁G	-4924
-20	-4925
काल	-4926
घेऊ	-4927
▁27	-4928
▁डी	-4929
▁रु	-4930
काची	-4931
तीवर	-4932
माला	-4933
▁अधि	-4934
▁एवढ	-4935
▁कशा	-4936
▁कॅन	-4937
▁तत्	-4938
▁नवी	-4939
पुरात	-4940
मोहीम	-4941
र्सेस	-4942
▁किलो	-4943
▁घरीच	-4944
▁घेणे	-4945
▁नावा	-4946
▁येणं	-4947
▁शकेल	-4948
▁शहरा	-4949
▁संजय	-4950
▁हवेत	-4951
महत्वा	-4952
▁काढून	-4953
▁केलंय	-4954
▁कोविन	-4955
▁महिने	-4956
▁लशीचं	-4957
▁वाढला	-4958
▁संबोध	-4959
स्थापित	-4960
▁उल्लेख	-4961
▁कचऱ्या	-4962
▁जणांचा	-4963
▁नियमित	-4964
▁नियामक	-4965
▁येत्या	-4966
▁व्यापक	-4967
▁साथीचा	-4968
▁अमेरिका	-4969
▁उत्पन्न	-4970
▁दिल्लीत	-4971
▁क्षेत्रा	-4972
संसर्गजन्य	-4973
सुरुवातीला	-4974
▁त्यानुसार	-4975
▁दिल्यानंतर	-4976
▁अधिकाऱ्यांनी	-4977
▁कॅलिफोर्निया	-4978
na	-4979
ta	-4980
षी	-4981
२४	-4982
डीत	-4983
धीन	-4984
ब्ज	-4985
भीर	-4986
मंत	-4987
मूळ	-4988
लंब	-4989
ल्क	-4990
वढा	-4991
षिक	-4992
सेज	-4993
ेशा	-4994
अन्न	-4995
तीची	-4996
नमुन	-4997
मलात	-4998
शांक	-4999
स्टे	-5000
स्वा	-5001
िक्स	-5002
्येक	-5003
खरेदी	-5004
गापूर	-5005
ांहून	-5006
ायल्स	-5007
ॉटस्प	-5008
करणारे	-5009
केलेली	-5010
डीच्या	-5011
णालाही	-5012
ण्याला	-5013
द्यमान	-5014
बऱ्याच	-5015
यावेळी	-5016
सुमारे	-5017
ामध्ये	-5018
ित्येक	-5019
मरावतीत	-5020
वेदनशील	-5021
सेंदिवस	-5022
संक्रमित	-5023
साथीच्या	-5024
वाखान्यात	-5025
संनिरीक्षण	-5026
le	-5027
ma	-5028
देह	-5029
पिं	-5030
ीचे	-5031
▁एस	-5032
▁पं	-5033
पर्य	-5034
वरची	-5035
साधन	-5036
सीरम	-5037
▁अंश	-5038
▁अदर	-5039
▁नवे	-5040
▁पडत	-5041
▁फॉर	-5042
▁माल	-5043
▁रशि	-5044
▁वसई	-5045
▁संघ	-5046
▁हवे	-5047
COVID	-5048
तरीही	-5049
पोलिस	-5050
▁पैकी	-5051
▁मागे	-5052
▁मागो	-5053
▁याचं	-5054
▁शिंक	-5055
दशलक्ष	-5056
▁आव्हा	-5057
▁छातीत	-5058
▁पालघर	-5059
▁प्रथम	-5060
▁लशीला	-5061
प्रवासा	-5062
शहरातील	-5063
▁अर्थात	-5064
▁एकीकडे	-5065
▁गरजेचे	-5066
▁ग्रस्त	-5067
▁मागच्या	-5068
▁लोकांचा	-5069
महापालिके	-5070
सॅनिटायझर	-5071
▁देवेंद्र	-5072
▁विभागाचे	-5073
▁शरीरातील	-5074
रेमडेसिविर	-5075
शास्त्रज्ञ	-5076
▁म्हणाल्या	-5077
▁होण्यासाठी	-5078
▁कोव्हिडच्या	-5079
▁सुरुवातीच्या	-5080
.5	-5081
किन	-5082
वडे	-5083
शेत	-5084
संघ	-5085
सेट	-5086
काँग	-5087
येते	-5088
सापड	-5089
साबण	-5090
कुमार	-5091
बोर्ड	-5092
वाढली	-5093
असलेली	-5094
उद्योग	-5095
न्टिले	-5096
दृष्ट्या	-5097
पद्धतीने	-5098
वेगवेगळ्या	-5099
,1	-5100
,4	-5101
rc	-5102
फी	-5103
ुं	-5104
ौढ	-5105
ऊंड	-5106
किट	-5107
चिन	-5108
चून	-5109
नील	-5110
ॅमि	-5111
▁29	-5112
▁बघ	-5113
गुती	-5114
ग्नि	-5115
झेशन	-5116
नसेल	-5117
नायू	-5118
नाशक	-5119
बैठक	-5120
लंघन	-5121
वावी	-5122
स्टॉ	-5123
ापूर	-5124
ॉर्क	-5125
ोच्च	-5126
▁उपा	-5127
▁तित	-5128
आवाहन	-5129
चंद्र	-5130
पहिला	-5131
लेंडर	-5132
ॉझिटि	-5133
▁इतका	-5134
▁बिघड	-5135
▁मुखव	-5136
▁राहू	-5137
▁लढाई	-5138
▁हस्त	-5139
ंटलाईन	-5140
अजूनही	-5141
आव्हान	-5142
जागृती	-5143
ध्यापक	-5144
नेस्को	-5145
▁आलेलं	-5146
▁करतील	-5147
▁शोधून	-5148
▁सांगत	-5149
▁साखळी	-5150
दर्शनास	-5151
न्टॅक्ट	-5152
▁केलेला	-5153
▁कोरिया	-5154
▁फुफ्फु	-5155
▁बाजूला	-5156
▁मिळणार	-5157
▁वापरून	-5158
असल्याचा	-5159
क्लिनिकल	-5160
तंत्रज्ञ	-5161
▁प्रकरणे	-5162
▁वाहतुकी	-5163
▁विरुद्ध	-5164
▁विरोधात	-5165
▁व्यायाम	-5166
▁सूक्ष्म	-5167
ऑक्सिजनचा	-5168
णाऱ्यांना	-5169
धिकाऱ्यां	-5170
▁कार्यकर्	-5171
▁रुग्णाला	-5172
परिस्थितीत	-5173
्यांपेक्षा	-5174
▁कोव्हिशिल्ड	-5175
▁रूग्णांच्या	-5176
▁व्यक्तीच्या	-5177
▁व्हेंटिलेटर्स	-5178
ol	-5179
कण	-5180
थि	-5181
वध	-5182
सभ	-5183
१८	-5184
000	-5185
कले	-5186
ताल	-5187
होम	-5188
चिनी	-5189
तात्	-5190
भाजप	-5191
▁¦9¦	-5192
आढावा	-5193
वस्तू	-5194
स्टिक	-5195
▁¦11¦	-5196
तीच्या	-5197
संदर्भ	-5198
सगळ्या	-5199
देशांनी	-5200
प्रजाती	-5201
वण्याची	-5202
एऩ	-5203
उल्	-5204
नवा	-5205
भूम	-5206
▁26	-5207
▁खर	-5208
▁जय	-5209
▁दै	-5210
▁धा	-5211
▁री	-5212
▁हल	-5213
▁१९	-5214
ट्रे	-5215
दावा	-5216
मिशन	-5217
▁CDC	-5218
▁तोड	-5219
▁मूल	-5220
कोव्ह	-5221
सेप्ट	-5222
स्टेट	-5223
▁कक्ष	-5224
▁खोली	-5225
▁गेलं	-5226
▁म्यु	-5227
▁वितर	-5228
▁विषय	-5229
▁शब्द	-5230
▁शाळे	-5231
▁सीमा	-5232
प्रयोग	-5233
वरच्या	-5234
▁अडथळा	-5235
▁अश्या	-5236
▁असेही	-5237
▁गावात	-5238
▁घोषित	-5239
▁ठिकाण	-5240
आरोग्या	-5241
प्रोटीन	-5242
▁आयसीयू	-5243
▁कँडीडे	-5244
▁डिजिटल	-5245
▁रोगजनक	-5246
▁लागतात	-5247
▁शस्त्र	-5248
नसलेल्या	-5249
युनायटेड	-5250
▁अमेरिकन	-5251
▁परिणामी	-5252
▁प्रजाती	-5253
▁वैशिष्ट	-5254
▁आटोक्यात	-5255
▁केंद्रात	-5256
▁जाण्याची	-5257
▁त्यापैकी	-5258
▁नैसर्गिक	-5259
▁बंधनकारक	-5260
▁येण्याची	-5261
▁लशींच्या	-5262
अंमलबजावणी	-5263
करोनाबाधित	-5264
देण्यासाठी	-5265
प्रकारच्या	-5266
▁त्याशिवाय	-5267
▁पुण्यातील	-5268
▁रुग्णांचे	-5269
▁संचारबंदी	-5270
▁सर्वेक्षण	-5271
▁सातत्याने	-5272
▁उपचारांसाठी	-5273
▁उपमुख्यमंत्री	-5274
तन	-5275
मॉ	-5276
रॉ	-5277
हृ	-5278
ॉम	-5279
▁्	-5280
ंझा	-5281
कंद	-5282
कडो	-5283
दाब	-5284
भाल	-5285
मां	-5286
मेद	-5287
ळात	-5288
श्य	-5289
साइ	-5290
हिक	-5291
िमि	-5292
२२९	-5293
खाने	-5294
पिंड	-5295
मदेव	-5296
लीही	-5297
ल्पा	-5298
वरित	-5299
वावे	-5300
ायची	-5301
ारीख	-5302
िकित	-5303
ूपात	-5304
द्वार	-5305
लेक्ट	-5306
विनाश	-5307
ांत्र	-5308
गरजेचं	-5309
जरीवाल	-5310
जेंद्र	-5311
ध्यमिक	-5312
नानंतर	-5313
फडणवीस	-5314
साथरोग	-5315
स्तित्	-5316
िकित्स	-5317
लगीकरणा	-5318
संख्येत	-5319
संरक्षण	-5320
स्ट्रेन	-5321
ॉटस्पॉट	-5322
नसल्याचं	-5323
ष्परिणाम	-5324
महत्त्वाचं	-5325
विण्यासाठी	-5326
स्ट्रेलिया	-5327
रुग्णांमध्ये	-5328
महाराष्ट्राला	-5329
ड्रॉक्सीक्लोरोक्	-5330
ro	-5331
us	-5332
गृ	-5333
21¦	-5334
गुण	-5335
देऊ	-5336
लात	-5337
वगळ	-5338
हवा	-5339
्डा	-5340
▁%)	-5341
▁पट	-5342
▁पि	-5343
द्रा	-5344
धुणे	-5345
निका	-5346
ब्लू	-5347
महिल	-5348
वरुन	-5349
▁...	-5350
▁आखा	-5351
▁जलद	-5352
▁फेस	-5353
▁मनो	-5354
▁माय	-5355
▁लॅब	-5356
▁शिव	-5357
खोकला	-5358
दीर्घ	-5359
विरार	-5360
▁फटका	-5361
▁भविष	-5362
▁विका	-5363
करायला	-5364
संशयित	-5365
▁गोंधळ	-5366
▁जम्बो	-5367
▁ठेवून	-5368
▁नॅशनल	-5369
▁योजने	-5370
▁राहील	-5371
दिवसांत	-5372
विशेषतः	-5373
▁भोंडवे	-5374
▁मागोवा	-5375
▁रक्तात	-5376
▁वटवाघळ	-5377
▁विशेषत	-5378
▁सक्रिय	-5379
▁होताना	-5380
▁तात्पुर	-5381
▁याशिवाय	-5382
▁लक्षणीय	-5383
▁लोकांचं	-5384
▁स्टेट्स	-5385
▁स्वीकार	-5386
▁अभ्यासात	-5387
▁घेणाऱ्या	-5388
▁विभागाने	-5389
▁सिंड्रोम	-5390
▁प्रशिक्षण	-5391
▁हर्षवर्धन	-5392
▁आणण्यासाठी	-5393
▁सेंटरमध्ये	-5394
▁प्रतिक्रिया	-5395
.8	-5396
ct	-5397
इक	-5398
कच	-5399
शू	-5400
िओ	-5401
१०	-5402
कसं	-5403
लचा	-5404
सतत	-5405
सोम	-5406
इंटर	-5407
कांत	-5408
क्रा	-5409
जागा	-5410
बांध	-5411
येतो	-5412
अडचणी	-5413
ितीने	-5414
्यांत	-5415
ऑनलाईन	-5416
फ्ल्यु	-5417
मीडिया	-5418
झाल्याचे	-5419
झाल्याने	-5420
निष्कर्ष	-5421
न्टीबॉडी	-5422
प्राण्या	-5423
म्युटेशन	-5424
प्रशासनाने	-5425
राज्याच्या	-5426
ia	-5427
आग	-5428
ंटि	-5429
नेल	-5430
नॉल	-5431
सीई	-5432
▁35	-5433
▁नी	-5434
▁बॉ	-5435
त्री	-5436
द्यो	-5437
न्वय	-5438
व्हर	-5439
ष्णा	-5440
सरात	-5441
होणं	-5442
्रदय	-5443
२२९ई	-5444
▁गटा	-5445
▁दोघ	-5446
▁धोर	-5447
▁नको	-5448
▁मां	-5449
▁यां	-5450
जिस्ट	-5451
देशीर	-5452
ब्येत	-5453
येतील	-5454
वाटतं	-5455
हित्य	-5456
ॉन्सन	-5457
▁आकार	-5458
▁आलाय	-5459
▁एक्स	-5460
▁करीत	-5461
▁दाखव	-5462
▁देऊन	-5463
▁विजय	-5464
▁सगळी	-5465
ँगकाँग	-5466
ब्रिटन	-5467
मेदवार	-5468
म्हणणं	-5469
र्टाने	-5470
ल्कोहल	-5471
सिद्धी	-5472
ांनंतर	-5473
ार्थना	-5474
▁उपकरण	-5475
▁कोरडे	-5476
▁मान्य	-5477
डव्हर्स	-5478
ऱ्यांदा	-5479
ल्हापूर	-5480
ष्टीकरण	-5481
्युलन्स	-5482
▁आल्यास	-5483
▁इंडियन	-5484
▁इफेक्ट	-5485
▁छोट्या	-5486
▁द्यावी	-5487
▁मोबाईल	-5488
▁जबाबदार	-5489
▁वेबसाईट	-5490
▁व्हायरल	-5491
▁सामायिक	-5492
▁टाळेबंदी	-5493
▁देण्याचा	-5494
▁नियमांचं	-5495
▁स्वतंत्र	-5496
ण्यापेक्षा	-5497
▁करोनामुळे	-5498
▁पृष्ठभागा	-5499
▁प्रतिनिधी	-5500
▁वयोगटातील	-5501
रोखण्यासाठी	-5502
▁न्युमोनिया	-5503
▁शहरांमध्ये	-5504
ष्ट्राध्यक्ष	-5505
▁ऑक्सिजनच्या	-5506
▁अधिकाऱ्यांना	-5507
▁फेब्रुवारीला	-5508
▁रोगप्रतिकारक	-5509
▁वर्षांपेक्षा	-5510
▁प्रतिकारशक्ती	-5511
१३	-5512
उघड	-5513
उलट	-5514
गां	-5515
नेम	-5516
पुन	-5517
फिर	-5518
कठोर	-5519
कमीत	-5520
घेता	-5521
शकतं	-5522
आलेला	-5523
जातील	-5524
ट्वीट	-5525
नातून	-5526
वृद्ध	-5527
प्रचार	-5528
बैठकीत	-5529
वण्यास	-5530
अभ्यासा	-5531
अवलंबून	-5532
कोणताही	-5533
चीनच्या	-5534
समाविष्ट	-5535
उदाहरणार्थ	-5536
व्यक्तींना	-5537
दिवसांपासून	-5538
.'	-5539
it	-5540
आत	-5541
यस	-5542
लब	-5543
▁F	-5544
▁़	-5545
मोठ	-5546
सीज	-5547
ाता	-5548
▁फु	-5549
अजित	-5550
इतकी	-5551
बंधन	-5552
विका	-5553
साठव	-5554
▁आदी	-5555
▁उतर	-5556
▁उलट	-5557
▁दार	-5558
▁वाय	-5559
▁स्म	-5560
यंत्र	-5561
▁¦201	-5562
▁अखेर	-5563
▁औषधे	-5564
▁कुणी	-5565
▁देता	-5566
▁पसरत	-5567
▁बालक	-5568
▁वर्क	-5569
▁विकत	-5570
▁सोला	-5571
कमतरता	-5572
समस्या	-5573
▁¦100¦	-5574
▁अवलंब	-5575
▁आढळला	-5576
▁काहीच	-5577
▁ट्रॅक	-5578
▁ट्विट	-5579
▁देणार	-5580
▁पीपीई	-5581
▁पुरुष	-5582
▁लावला	-5583
मर्यादा	-5584
▁बहुतेक	-5585
▁मधुमेह	-5586
▁यशस्वी	-5587
▁याच्या	-5588
▁वेगानं	-5589
▁संदर्भ	-5590
अँटीबॉडी	-5591
दुसरीकडे	-5592
प्रसिद्ध	-5593
बीबीसीशी	-5594
▁आजाराची	-5595
▁आणीबाणी	-5596
▁प्रस्ता	-5597
▁बाजारात	-5598
▁लशीमुळे	-5599
▁उपाययोजन	-5600
▁जिल्ह्य़	-5601
▁देणाऱ्या	-5602
▁यापूर्वी	-5603
▁सरकारकडे	-5604
विषाणूजन्य	-5605
▁लॉकडाऊनची	-5606
▁लोकांसाठी	-5607
व्हायरसच्या	-5608
▁रूग्णालयात	-5609
▁विषाणूमुळे	-5610
▁सुरक्षितता	-5611
▁मिळवण्यासाठी	-5612
▁रुग्णालयांना	-5613
पल	-5614
ूळ	-5615
४३	-5616
६३	-5617
icu	-5618
चवड	-5619
टाई	-5620
डाय	-5621
डीए	-5622
न्ड	-5623
बाव	-5624
भ्र	-5625
य़ा	-5626
रीच	-5627
िको	-5628
िशन	-5629
ेचा	-5630
अर्स	-5631
औषधी	-5632
गामी	-5633
टाळा	-5634
ट्या	-5635
पाणी	-5636
भवती	-5637
मांड	-5638
मिळत	-5639
वणूक	-5640
आकृती	-5641
चौकशी	-5642
थेरपी	-5643
रुपये	-5644
रोसोल	-5645
वास्त	-5646
हेल्थ	-5647
िंचवड	-5648
्युटी	-5649
▁¦18¦	-5650
कारवाई	-5651
केदुखी	-5652
जीपाला	-5653
पचारिक	-5654
बाजूला	-5655
भूमिका	-5656
म्हटले	-5657
पापल्या	-5658
पुढच्या	-5659
ब्लूएचओ	-5660
याविषयी	-5661
लेक्ट्र	-5662
िकेच्या	-5663
ध्याकाळी	-5664
ed	-5665
नव	-5666
व्	-5667
िळ	-5668
▁D	-5669
डिट	-5670
भेट	-5671
शिं	-5672
समू	-5673
हरा	-5674
▁रॅ	-5675
एकाच	-5676
टीका	-5677
पट्ट	-5678
र्जा	-5679
▁घसा	-5680
▁पाय	-5681
▁पोट	-5682
▁मरण	-5683
▁रहि	-5684
अतिशय	-5685
यॉर्क	-5686
सामान	-5687
▁अवयव	-5688
▁आमचा	-5689
▁आरटी	-5690
▁एकही	-5691
▁कडून	-5692
▁कागद	-5693
▁केरळ	-5694
▁क्रि	-5695
▁पोहच	-5696
▁प्ला	-5697
▁बोलत	-5698
▁श्री	-5699
▁समूह	-5700
▁सेल्	-5701
कुंभमे	-5702
नव्हती	-5703
नियमित	-5704
मुख्या	-5705
मूळाशी	-5706
▁अंतिम	-5707
▁असणार	-5708
▁कॅनडा	-5709
▁डोसेस	-5710
▁नक्की	-5711
▁पक्षा	-5712
▁पद्धत	-5713
▁पावले	-5714
▁प्राय	-5715
▁वाटते	-5716
▁वाढता	-5717
▁शालेय	-5718
▁सोडून	-5719
▁आपत्ती	-5720
▁एजन्सी	-5721
▁करायची	-5722
▁घ्यावा	-5723
▁जनुकीय	-5724
▁दिवाळी	-5725
▁देखरेख	-5726
▁देशमुख	-5727
▁पुरेसा	-5728
▁प्लांट	-5729
▁यानंतर	-5730
▁वापरले	-5731
▁कोणतेही	-5732
▁गुंतागु	-5733
▁तक्रारी	-5734
▁त्यातील	-5735
▁दिवसाला	-5736
▁पाहिजेत	-5737
▁मॉडर्ना	-5738
▁यांनीही	-5739
▁लोकांचे	-5740
▁उद्दिष्ट	-5741
▁उपलब्धता	-5742
▁गुरुवारी	-5743
▁झाल्यावर	-5744
▁ठाकरेंनी	-5745
महत्त्वाची	-5746
▁कुठल्याही	-5747
▁प्रतिसादा	-5748
▁प्रावस्था	-5749
▁प्लॅटफॉर्म	-5750
▁अॅस्ट्राझेन	-5751
▁कोरोनाविषाणू	-5752
▁त्याचप्रमाणे	-5753
".	-5754
er	-5755
आयु	-5756
इथे	-5757
खंड	-5758
फिक	-5759
वतो	-5760
न्यु	-5761
प्या	-5762
याचं	-5763
वणार	-5764
जिबात	-5765
पहिली	-5766
विस्त	-5767
सिस्ट	-5768
▁¦60¦	-5769
जर्मनी	-5770
पासूनच	-5771
लागणार	-5772
संस्थे	-5773
▁¦2019¦	-5774
रुग्णांवर	-5775
घेतल्यानंतर	-5776
//	-5777
आठ	-5778
दो	-5779
वन	-5780
२५	-5781
htt	-5782
कंच	-5783
कात	-5784
जगा	-5785
थवा	-5786
बरा	-5787
सान	-5788
▁टॅ	-5789
▁पॉ	-5790
rcgp	-5791
अर्ज	-5792
आकडा	-5793
ड्रो	-5794
प्ती	-5795
प्पे	-5796
राठा	-5797
वाही	-5798
साचा	-5799
्रोत	-5800
▁खेळ	-5801
▁गमा	-5802
▁धोक	-5803
▁फरक	-5804
▁बरं	-5805
▁मोज	-5806
▁सभा	-5807
▁समस	-5808
ंगावर	-5809
ंटेन्	-5810
अनुभव	-5811
एनटेक	-5812
किमान	-5813
पोस्ट	-5814
फारशी	-5815
ब्लिक	-5816
भागीय	-5817
ल्याण	-5818
वर्षे	-5819
व्हीर	-5820
शिंदा	-5821
▁¦31¦	-5822
▁अग्र	-5823
▁अचूक	-5824
▁ऑफिस	-5825
▁करार	-5826
▁जेवण	-5827
▁पैसे	-5828
▁फोटो	-5829
▁मोठे	-5830
▁लूकस	-5831
▁वक्त	-5832
▁श्रे	-5833
▁सगळं	-5834
▁हानी	-5835
घ्यावी	-5836
निमित्	-5837
राच्या	-5838
वस्थेत	-5839
ांमधून	-5840
ांवरून	-5841
्यांशी	-5842
▁अंत्य	-5843
▁तंत्र	-5844
▁त्वचे	-5845
▁देतात	-5846
▁नाकार	-5847
▁संकेत	-5848
▁सर्वच	-5849
करोनाची	-5850
क्रांती	-5851
घेण्यास	-5852
णामध्ये	-5853
निर्देश	-5854
मार्चला	-5855
सर्वांत	-5856
▁¦2021¦	-5857
▁चांगला	-5858
▁ज्याला	-5859
▁तापमान	-5860
▁रेड्डी	-5861
▁सिस्टम	-5862
▁स्थगित	-5863
काँग्रेस	-5864
भारतातील	-5865
▁आजाराचा	-5866
▁क्रमांक	-5867
▁दैनंदिन	-5868
▁राजकारण	-5869
स्टिट्युट	-5870
स्तित्वात	-5871
▁घेण्याची	-5872
▁धोकादायक	-5873
▁प्रक्रिय	-5874
▁मृत्युदर	-5875
▁युरोपियन	-5876
▁रुग्णवाढ	-5877
▁संसर्गित	-5878
▁हैदराबाद	-5879
▁अतिदक्षता	-5880
▁अॅक्टिव्ह	-5881
▁लसीकरणाचा	-5882
कोरोनाबाधित	-5883
▁आपात्कालीन	-5884
▁त्यापेक्षा	-5885
▁धुण्याच्या	-5886
▁प्रतिजैविक	-5887
▁महत्त्वाचा	-5888
▁होण्याच्या	-5889
▁लसीकरणाच्या	-5890
▁जिल्हाधिकारी	-5891
▁आकडेवारीनुसार	-5892
एफ	-5893
पळ	-5894
भो	-5895
बुक	-5896
▁''	-5897
कायम	-5898
कुठे	-5899
नर्स	-5900
बिया	-5901
मासिक	-5902
म्हणा	-5903
येतात	-5904
संवाद	-5905
दिल्या	-5906
शिक्षक	-5907
निवडणूक	-5908
वारंवार	-5909
चीनमध्ये	-5910
नियमावली	-5911
राज्याचे	-5912
होण्याचा	-5913
ांद्वारे	-5914
प्रादुर्भाव	-5915
मंत्रालयाने	-5916
WI	-5917
उड	-5918
मट	-5919
लॅ	-5920
rsc	-5921
घटन	-5922
शाळ	-5923
▁अर	-5924
▁उभ	-5925
▁दौ	-5926
▁भौ	-5927
असली	-5928
इतके	-5929
भावा	-5930
माने	-5931
वावा	-5932
सोनू	-5933
▁एअर	-5934
▁सूद	-5935
जातीय	-5936
पृष्ठ	-5937
▁¦16¦	-5938
▁¦40¦	-5939
▁अमित	-5940
▁आयात	-5941
▁इराण	-5942
▁घाबर	-5943
▁देणं	-5944
▁धुवा	-5945
▁पडली	-5946
▁लाखो	-5947
▁साधन	-5948
प्राणी	-5949
संकल्प	-5950
▁आंदोल	-5951
▁आघाडी	-5952
▁निर्म	-5953
▁मॉडेल	-5954
▁याकडे	-5955
▁वर्गा	-5956
▁वृद्ध	-5957
▁सांगा	-5958
▁स्वॅब	-5959
धार्मिक	-5960
यंत्रणे	-5961
▁असणारे	-5962
▁आयुष्य	-5963
▁किराणा	-5964
▁कोडिंग	-5965
▁जास्ती	-5966
▁झालेलं	-5967
▁ट्रम्प	-5968
▁दिलासा	-5969
▁मिळालं	-5970
▁संकलित	-5971
▁स्वरुप	-5972
त्यावेळी	-5973
स्वच्छता	-5974
▁तात्काळ	-5975
▁महत्त्व	-5976
▁मोदींनी	-5977
▁म्हणूनच	-5978
▁लॉकडॉऊन	-5979
▁वर्तमान	-5980
▁शनिवारी	-5981
▁सरकारचा	-5982
▁स्वरूपा	-5983
▁ह्यांनी	-5984
व्हायरसचा	-5985
▁गेलेल्या	-5986
▁ट्रेसिंग	-5987
▁तुटवड्या	-5988
▁देशाच्या	-5989
▁प्रकारचे	-5990
▁विश्लेषण	-5991
▁नियंत्रित	-5992
▁मंत्रिमंड	-5993
▁मूल्यांकन	-5994
▁राहणाऱ्या	-5995
▁रूग्णांना	-5996
▁लोकसंख्या	-5997
▁विल्हेवाट	-5998
▁आरोग्यसेवा	-5999
▁झाल्यामुळे	-6000
▁बोर्डाच्या	-6001
▁श्वसनाच्या	-6002
▁कार्यक्षमता	-6003
▁प्रयोगशाळेत	-6004
पार्श्वभूमीवर	-6005
▁अमेरिकेमध्ये	-6006
,3	-6007
,8	-6008
,9	-6009
ar	-6010
of	-6011
ऊथ	-6012
यड	-6013
cdc	-6014
rna	-6015
कली	-6016
कून	-6017
केज	-6018
झर्	-6019
लढा	-6020
वेक	-6021
ारे	-6022
mers	-6023
एकदा	-6024
खभाल	-6025
तेचा	-6026
तेची	-6027
धिकर	-6028
पाईक	-6029
र्थन	-6030
ल्लक	-6031
विंद	-6032
स्टो	-6033
स्था	-6034
ारखे	-6035
https	-6036
रक्ता	-6037
रोघरी	-6038
लागार	-6039
वडेकर	-6040
वायचा	-6041
शासित	-6042
श्लेष	-6043
स्तान	-6044
हॉटेल	-6045
ामुळे	-6046
इफेक्ट	-6047
उद्देश	-6048
पक्षीय	-6049
पश्चिम	-6050
योगाने	-6051
व्याधी	-6052
व्हिटी	-6053
नामध्ये	-6054
भागातील	-6055
रिद्वार	-6056
लोकांची	-6057
िकित्सक	-6058
आयसोलेशन	-6059
प्रकाशित	-6060
विषाणूची	-6061
्यांकडून	-6062
्यांमधील	-6063
आपत्कालीन	-6064
विद्यापीठ	-6065
्यांपासून	-6066
ov	-6067
इल	-6068
गन	-6069
गटा	-6070
गती	-6071
नाक	-6072
पॉल	-6073
फोट	-6074
▁37	-6075
▁अऩ	-6076
▁डॅ	-6077
▁नॉ	-6078
असता	-6079
आलंय	-6080
जाऊन	-6081
तरुण	-6082
याने	-6083
यावत	-6084
सहाय	-6085
▁आगी	-6086
▁जमा	-6087
▁ठोस	-6088
▁तसा	-6089
▁रहा	-6090
इशारा	-6091
जोखमी	-6092
पत्रा	-6093
परिणा	-6094
मानवा	-6095
मिळेल	-6096
्ल्यु	-6097
▁असलं	-6098
▁कोरो	-6099
▁जपान	-6100
▁जागर	-6101
▁जुलै	-6102
▁तज्ञ	-6103
▁तृती	-6104
▁प्रे	-6105
▁मुला	-6106
▁यावी	-6107
▁विना	-6108
▁समजा	-6109
आयुक्त	-6110
केलेले	-6111
बारावी	-6112
▁ऑगस्ट	-6113
▁कार्ड	-6114
▁पसरला	-6115
▁पेशंट	-6116
▁प्राण	-6117
▁माहीत	-6118
▁युनिट	-6119
▁शिथिल	-6120
देशभरात	-6121
महामारी	-6122
▁इतिहास	-6123
▁त्याचं	-6124
▁दुपारी	-6125
▁नव्हतं	-6126
▁वापरणे	-6127
झाल्याची	-6128
ठेवण्यात	-6129
डॉक्टर्स	-6130
लावण्यात	-6131
▁आल्याचं	-6132
▁आल्याने	-6133
▁कुटुंबा	-6134
▁देशांना	-6135
▁बातम्या	-6136
▁विभागात	-6137
▁विश्वास	-6138
▁शारीरिक	-6139
▁औरंगाबाद	-6140
▁कालावधीत	-6141
▁छातीच्या	-6142
▁पूनावाला	-6143
▁प्रदेशात	-6144
▁विषाणूचे	-6145
▁संस्थेने	-6146
▁स्पुटनिक	-6147
मुलांमध्ये	-6148
▁पोलिसांनी	-6149
▁प्रयोगशाळ	-6150
▁युकेमध्ये	-6151
व्हेंटिलेटर	-6152
▁उत्परिवर्त	-6153
▁कार्यक्रमा	-6154
▁पहिल्यांदा	-6155
▁वर्षांच्या	-6156
▁डिस्टन्सिंग	-6157
▁प्रॅक्टिसेस	-6158
▁प्रतिबंधात्मक	-6159
▁लोकसंख्येच्या	-6160
95	-6161
झो	-6162
टॅ	-6163
अँड	-6164
ओसी	-6165
दिन	-6166
नार	-6167
न्म	-6168
एकमे	-6169
ट्वि	-6170
वर्ग	-6171
समान	-6172
सादर	-6173
बातमी	-6174
मध्यम	-6175
लागला	-6176
साधने	-6177
▁¦200	-6178
पुरावा	-6179
कंपनीने	-6180
वयाच्या	-6181
नसल्याने	-6182
प्रत्यक्ष	-6183
कोरोनामुळे	-6184
त्तापर्यंत	-6185
क्षेत्रातील	-6186
लॉकडाऊनच्या	-6187
रुग्णालयातील	-6188
विद्यार्थ्यांना	-6189
PE	-6190
as	-6191
ंस	-6192
गॅ	-6193
चण	-6194
तृ	-6195
WIN	-6196
pcr	-6197
एऩ्	-6198
ज्ज	-6199
डील	-6200
तुक	-6201
दात	-6202
पन्	-6203
रंट	-6204
सल्	-6205
ैला	-6206
आपली	-6207
आफ्र	-6208
चुकी	-6209
धर्म	-6210
नीती	-6211
मुखी	-6212
मुद्	-6213
रोदर	-6214
वाढू	-6215
सद्य	-6216
हाने	-6217
ाराज	-6218
ारित	-6219
ुसरण	-6220
ेडकर	-6221
ैलाव	-6222
्रिज	-6223
▁इथं	-6224
▁एक्	-6225
▁खाट	-6226
▁तणा	-6227
▁निघ	-6228
▁फंड	-6229
▁वरि	-6230
▁सेल	-6231
ंमधील	-6232
एऩ्झा	-6233
कीकरण	-6234
गोलिक	-6235
नातील	-6236
नाल्ड	-6237
नुष्य	-6238
पत्ती	-6239
प्रेस	-6240
मार्क	-6241
र्मिळ	-6242
सर्दी	-6243
हायला	-6244
ायलंड	-6245
▁अनुभ	-6246
▁अभाव	-6247
▁गुंत	-6248
▁धर्म	-6249
▁निम्	-6250
▁बसला	-6251
▁बाकी	-6252
▁बीटा	-6253
▁मजुर	-6254
▁माझा	-6255
▁माणस	-6256
▁मेडि	-6257
▁वार्	-6258
असलेला	-6259
छोट्या	-6260
दिवासी	-6261
दुकाने	-6262
पूर्वक	-6263
फार्मा	-6264
लीकडेच	-6265
शियाने	-6266
शूजन्य	-6267
सायनिक	-6268
▁आमदार	-6269
▁आश्रय	-6270
▁इच्छा	-6271
▁उद्या	-6272
▁केलाय	-6273
▁कोल्ड	-6274
▁घालणे	-6275
▁घेणार	-6276
▁घेतलं	-6277
▁टप्पा	-6278
▁टाळणे	-6279
▁तब्बल	-6280
▁तुमचा	-6281
▁तुमची	-6282
▁भाजपा	-6283
▁मिळते	-6284
▁मुंडे	-6285
▁लागतो	-6286
▁वगळता	-6287
▁वाढती	-6288
▁वास्त	-6289
▁वॉर्ड	-6290
▁शाळेत	-6291
कोणतीही	-6292
मुदायिक	-6293
रविवारी	-6294
▁औषधाचा	-6295
▁चांगली	-6296
▁तासांत	-6297
▁नुकसान	-6298
▁लक्ष्य	-6299
▁लिहिलं	-6300
▁वरिष्ठ	-6301
अतिरिक्त	-6302
अपेक्षित	-6303
देण्याची	-6304
मुख्याने	-6305
▁डायरिया	-6306
▁प्रकरणा	-6307
▁बुधवारी	-6308
▁भारताला	-6309
▁मुलांची	-6310
▁राजधानी	-6311
▁स्वरुपा	-6312
फ्लुएन्झा	-6313
व्हायरसची	-6314
▁उपस्थिती	-6315
▁क्लोरोक्	-6316
▁क्षमतेने	-6317
▁घेण्याचा	-6318
▁चिकित्सा	-6319
▁स्थलांतर	-6320
मुख्यमंत्र	-6321
▁आपल्याकडे	-6322
▁चाचणीसाठी	-6323
▁टक्केवारी	-6324
▁ठेवण्याची	-6325
▁मार्चच्या	-6326
जिल्ह्यातील	-6327
▁पालकमंत्री	-6328
▁प्रयोगशाळे	-6329
▁प्रोत्साहन	-6330
▁लढण्यासाठी	-6331
▁अर्थव्यवस्थ	-6332
▁सर्वसामान्य	-6333
.7	-6334
il	-6335
झु	-6336
ras	-6337
रीत	-6338
िकट	-6339
असाल	-6340
तायत	-6341
दावर	-6342
बर्ड	-6343
शेवट	-6344
अधिका	-6345
उपयोग	-6346
टाळून	-6347
ट्रेन	-6348
नाशिक	-6349
महिला	-6350
मिनिट	-6351
सर्वे	-6352
▁¦28¦	-6353
▁¦80¦	-6354
अधिकृत	-6355
प्रदान	-6356
सहभागी	-6357
उद्रेका	-6358
त्यांचं	-6359
प्रशासन	-6360
संस्कार	-6361
पुरवठ्या	-6362
आल्यानंतर	-6363
त्यामध्ये	-6364
राज्यांना	-6365
व्यावसायिक	-6366
लसीकरणासाठी	-6367
महाराष्ट्रातील	-6368
-3	-6369
IS	-6370
RT	-6371
oc	-6372
पथ	-6373
सन	-6374
ीव	-6375
१६	-6376
३०	-6377
५०	-6378
आशा	-6379
केस	-6380
▁(3	-6381
▁गण	-6382
▁जम	-6383
▁फा	-6384
▁बॅ	-6385
▁सॅ	-6386
▁१२	-6387
▁१३	-6388
▁३०	-6389
असतं	-6390
टँकर	-6391
तक्र	-6392
मारा	-6393
लग्न	-6394
लिहि	-6395
लोकल	-6396
श्री	-6397
▁आळा	-6398
▁कच्	-6399
▁जहा	-6400
▁तसं	-6401
▁दीड	-6402
▁बोट	-6403
▁सिल	-6404
इतिहा	-6405
तथापि	-6406
वितरण	-6407
सुधार	-6408
▁अध्य	-6409
▁आमचे	-6410
▁कचरा	-6411
▁चीनी	-6412
▁जाणं	-6413
▁निधन	-6414
▁बाळा	-6415
▁मलिक	-6416
▁मिळू	-6417
▁मीटर	-6418
▁मुलं	-6419
▁लग्न	-6420
▁शंका	-6421
▁सगळे	-6422
▁समाज	-6423
▁सुना	-6424
लागतील	-6425
हॅप्पी	-6426
▁आरएनए	-6427
▁एकमेक	-6428
▁काढला	-6429
▁ड्राय	-6430
▁नव्हे	-6431
▁पसरतो	-6432
▁मिळून	-6433
▁मुक्त	-6434
▁वाढले	-6435
▁होतोय	-6436
ज्येष्ठ	-6437
ट्रान्स	-6438
प्रारंभ	-6439
फ्रान्स	-6440
बातम्या	-6441
▁असूनही	-6442
▁आजच्या	-6443
▁कोणाला	-6444
▁क्रिया	-6445
▁ग्राहक	-6446
▁चांगलं	-6447
▁चांगले	-6448
▁जगातील	-6449
▁ज्याचा	-6450
▁दुप्पट	-6451
▁परिषदे	-6452
▁परीक्ष	-6453
▁महापौर	-6454
▁येणारे	-6455
▁रोजगार	-6456
▁लाटेचा	-6457
▁वापरता	-6458
▁होणारे	-6459
असण्याची	-6460
जबाबदारी	-6461
संख्येने	-6462
संस्थेने	-6463
▁अपेक्षा	-6464
▁कायद्या	-6465
▁कार्यरत	-6466
▁देण्यास	-6467
▁प्रमाणे	-6468
▁बांधकाम	-6469
▁बेड्सची	-6470
▁सर्व्हे	-6471
▁सहकार्य	-6472
▁सुरक्षे	-6473
ण्यामध्ये	-6474
सध्याच्या	-6475
▁कोरोनावर	-6476
▁गोपनीयता	-6477
▁चांगल्या	-6478
▁टेस्टिंग	-6479
▁दिवसभरात	-6480
▁दुर्लक्ष	-6481
▁दृष्टीने	-6482
▁निवडणुकी	-6483
▁राजस्थान	-6484
▁कोव्हिडची	-6485
▁नियंत्रणा	-6486
▁प्रतिबंधक	-6487
▁वापरण्यात	-6488
▁संसर्गाचे	-6489
▁अमेरिकेतील	-6490
▁नोंदवण्यात	-6491
▁पॅनगोलिन्स	-6492
▁प्रयोगशाळा	-6493
▁प्रशासनाला	-6494
▁प्रश्नांची	-6495
▁मिळालेल्या	-6496
▁हॉस्पिटल्स	-6497
▁तालुक्यातील	-6498
आंतरराष्ट्रीय	-6499
▁डॉक्टरांच्या	-6500
▁रुग्णसंख्येत	-6501
▁महापालिकेच्या	-6502
▁विश्वविद्यालये	-6503
,2	-6504
,5	-6505
.1	-6506
ac	-6507
iv	-6508
rt	-6509
ऊल	-6510
झे	-6511
झ्	-6512
डत	-6513
ढर	-6514
वृ	-6515
अभि	-6516
गैर	-6517
चाव	-6518
जना	-6519
जिम	-6520
तीच	-6521
बाळ	-6522
भाष	-6523
मकं	-6524
मकु	-6525
लँड	-6526
वक्	-6527
सिड	-6528
हाळ	-6529
हेब	-6530
िते	-6531
ौचा	-6532
कावर	-6533
जारा	-6534
झ्मा	-6535
ताने	-6536
न्टे	-6537
फकिन	-6538
मापन	-6539
मिनो	-6540
र्फे	-6541
लागत	-6542
लेही	-6543
वाजी	-6544
शांत	-6545
श्चर	-6546
सपास	-6547
स्कर	-6548
स्टर	-6549
ितली	-6550
ॉर्ट	-6551
ंटीले	-6552
क्रीय	-6553
त्रात	-6554
नावीर	-6555
नेटिक	-6556
मकुवत	-6557
मदनगर	-6558
मागील	-6559
यांचं	-6560
संकटा	-6561
सूचित	-6562
ार्सल	-6563
िश्यू	-6564
्यूमन	-6565
खात्री	-6566
जिओटेन	-6567
मध्येच	-6568
न्मार्क	-6569
प्रकल्प	-6570
याबद्दल	-6571
स्टॉरंट	-6572
ांबरोबर	-6573
जगभरातील	-6574
जाणाऱ्या	-6575
प्रोटोकॉल	-6576
सरकारकडून	-6577
नियंत्रणात	-6578
म्ब्युलन्स	-6579
कोव्हिशिल्ड	-6580
म्युकरमायकोसिस	-6581
SC	-6582
ge	-6583
जली	-6584
थ्र	-6585
वधी	-6586
वरच	-6587
▁,"	-6588
▁33	-6589
▁आख	-6590
▁इन	-6591
▁इम	-6592
▁झो	-6593
▁सै	-6594
▁११	-6595
अखेर	-6596
आकडे	-6597
कोणी	-6598
क्षी	-6599
बाबी	-6600
मधला	-6601
▁500	-6602
▁अन्	-6603
▁कॉल	-6604
▁खंड	-6605
▁ब्ल	-6606
▁शिर	-6607
उद्भव	-6608
गावात	-6609
दहावी	-6610
पाटील	-6611
हाताळ	-6612
▁¦25¦	-6613
▁आहात	-6614
▁इतके	-6615
▁डोळे	-6616
▁मल्ट	-6617
▁माझी	-6618
▁यंदा	-6619
▁येऊन	-6620
▁संशय	-6621
▁सेंट	-6622
▁२०२०	-6623
होण्या	-6624
▁गांधी	-6625
▁त्वचा	-6626
▁पाहून	-6627
▁वाढलं	-6628
▁सुविध	-6629
▁स्थान	-6630
▁स्पेन	-6631
▁हुबेई	-6632
झाल्यास	-6633
ऱ्यांनी	-6634
वातावरण	-6635
▁असंख्य	-6636
▁ऑनलाइन	-6637
▁करणारी	-6638
▁जनतेला	-6639
▁जेसिका	-6640
▁ठेवावं	-6641
▁दूरस्थ	-6642
▁पर्यटक	-6643
▁पुरेशा	-6644
▁प्रथिन	-6645
▁मंजूरी	-6646
▁मार्गा	-6647
▁मिळाले	-6648
▁मुद्दा	-6649
▁लशींना	-6650
▁संस्थे	-6651
क्षेत्रा	-6652
दृष्टीने	-6653
▁आजाराचे	-6654
▁कित्येक	-6655
▁ट्रान्स	-6656
▁ताब्यात	-6657
▁तीव्रता	-6658
▁विज्ञान	-6659
▁सगळ्यात	-6660
▁सर्जिकल	-6661
▁सविस्तर	-6662
▁सामग्री	-6663
▁सोमवारी	-6664
णाऱ्यांची	-6665
प्राधान्य	-6666
यांच्याशी	-6667
सकारात्मक	-6668
साधारणपणे	-6669
▁अनावश्यक	-6670
▁ट्रायल्स	-6671
▁दृष्टीको	-6672
▁पुनावाला	-6673
▁मंगळवारी	-6674
▁मंत्रालय	-6675
▁राज्याला	-6676
▁विद्यमान	-6677
▁विषाणूला	-6678
▁सिंगापूर	-6679
व्यवस्थापन	-6680
▁कार्यालया	-6681
▁जूनपर्यंत	-6682
▁पाठवण्यात	-6683
▁यांच्यावर	-6684
▁रक्ताच्या	-6685
संनिरीक्षणा	-6686
▁जानेवारीला	-6687
▁दवाखान्यात	-6688
▁मार्गदर्शन	-6689
▁विषाणूरोधी	-6690
▁कोरोनामुक्त	-6691
▁टाळण्यासाठी	-6692
▁महाविद्यालय	-6693
▁रुग्णांपैकी	-6694
▁रेस्पिरेटरी	-6695
युनिव्हर्सिटी	-6696
▁करण्यापूर्वी	-6697
▁वाढवण्यासाठी	-6698
▁जिल्ह्यांमध्ये	-6699
अभ	-6700
रॅ	-6701
इरा	-6702
कोळ	-6703
निर	-6704
पटी	-6705
फाई	-6706
ेवर	-6707
क्लो	-6708
घातक	-6709
निरा	-6710
माजी	-6711
येतं	-6712
रोगी	-6713
लांब	-6714
वारा	-6715
्सचा	-6716
आधारे	-6717
आलेले	-6718
गोष्ट	-6719
प्राय	-6720
प्रिय	-6721
युनिट	-6722
योजने	-6723
व्हेट	-6724
शेवटी	-6725
▁¦23¦	-6726
उपक्रम	-6727
देताना	-6728
मानसिक	-6729
राहणार	-6730
मागच्या	-6731
विश्वास	-6732
सरकारची	-6733
सरकारनं	-6734
पेक्षाही	-6735
महापालिका	-6736
वापरासाठी	-6737
डॉक्टरांनी	-6738
अॅस्ट्राझेन	-6739
62	-6740
फॅ	-6741
षे	-6742
phe	-6743
ंकर	-6744
ंदे	-6745
उंड	-6746
खित	-6747
जंट	-6748
झोन	-6749
ढकल	-6750
तेच	-6751
पिड	-6752
रस्	-6753
वरण	-6754
ष्ण	-6755
ह्य	-6756
ेडर	-6757
्टर	-6758
०००	-6759
▁टि	-6760
▁तै	-6761
▁वळ	-6762
▁वृ	-6763
▁हॉ	-6764
आपले	-6765
करणी	-6766
क्कम	-6767
चिवा	-6768
टीवर	-6769
डिला	-6770
तराख	-6771
तेवर	-6772
त्नी	-6773
द्रव	-6774
धोरण	-6775
नाचं	-6776
नामी	-6777
न्शन	-6778
भरती	-6779
मधली	-6780
र्चे	-6781
लोबल	-6782
वाचा	-6783
विधी	-6784
सेने	-6785
स्पर	-6786
ायचा	-6787
ेशाल	-6788
▁असो	-6789
▁गुठ	-6790
▁धुत	-6791
▁सूच	-6792
▁हृद	-6793
▁हेच	-6794
अॅक्ट	-6795
किन्स	-6796
टल्या	-6797
प्लिक	-6798
भीर्य	-6799
राविक	-6800
र्सना	-6801
सनशील	-6802
्यानं	-6803
▁ICMR	-6804
▁¦17¦	-6805
▁¦70¦	-6806
▁¦90¦	-6807
▁कल्प	-6808
▁कार्	-6809
▁चिंत	-6810
▁छाती	-6811
▁जाणे	-6812
▁थोडा	-6813
▁दिसू	-6814
▁द्रव	-6815
▁नकार	-6816
▁पाळत	-6817
▁शेती	-6818
▁सुपर	-6819
जणांना	-6820
तराखंड	-6821
तीसाठी	-6822
तेमुळे	-6823
द्यावर	-6824
द्योगा	-6825
न्याया	-6826
प्रभाव	-6827
विक्री	-6828
ाऱ्यात	-6829
्रिटिश	-6830
▁अग्नि	-6831
▁अनलॉक	-6832
▁जिवंत	-6833
▁तुमचे	-6834
▁परिषद	-6835
▁म्हणत	-6836
▁लसीचा	-6837
▁लसीचे	-6838
▁वाढते	-6839
▁सारखे	-6840
ऑक्टोबर	-6841
करोनाचा	-6842
खबरदारी	-6843
द्योगिक	-6844
प्ताहिक	-6845
संयुक्त	-6846
स्पॉन्स	-6847
ांत्रिक	-6848
▁उदाहरण	-6849
▁घरगुती	-6850
▁पाहिलं	-6851
▁पॉझिटि	-6852
▁प्रदीप	-6853
▁रिसर्च	-6854
▁वर्षीय	-6855
▁वापरला	-6856
▁सुरवात	-6857
अनिवार्य	-6858
निर्जंतु	-6859
मृत्यूदर	-6860
▁आधारावर	-6861
▁इतरांना	-6862
▁उल्लंघन	-6863
▁कर्फ्यू	-6864
▁जिल्ह्य	-6865
▁मार्केट	-6866
▁लशीसाठी	-6867
▁विस्तृत	-6868
▁व्यवहार	-6869
▁व्हीडिओ	-6870
▁सिलिंडर	-6871
▁कंट्रोलर	-6872
▁नावाच्या	-6873
▁मीडियावर	-6874
▁सर्वोच्च	-6875
वाजेपर्यंत	-6876
▁अँटीबॉडीज	-6877
▁कॉन्टॅक्ट	-6878
▁देशातल्या	-6879
▁नकारात्मक	-6880
▁निदर्शनास	-6881
▁फ्रंटलाईन	-6882
मार्चपर्यंत	-6883
▁कुटुंबातील	-6884
▁कोरोनावरील	-6885
▁जगभरातल्या	-6886
▁डिस्टंसिंग	-6887
▁दिवसेंदिवस	-6888
▁मानवामध्ये	-6889
▁विलगीकरणात	-6890
तज्ज्ञांच्या	-6891
▁एप्रिलपासून	-6892
▁कुंभमेळ्यात	-6893
▁कोव्हॅक्सीन	-6894
▁महानगरपालिका	-6895
▁शिक्षणमंत्री	-6896
▁कर्मचाऱ्यांनी	-6897
आई	-6898
एल	-6899
चो	-6900
फु	-6901
वॅ	-6902
६०	-6903
ona	-6904
आठव	-6905
दोष	-6906
बार	-6907
हवी	-6908
क्लि	-6909
घेणं	-6910
निवड	-6911
प्री	-6912
बद्ध	-6913
बोला	-6914
र्मल	-6915
स्थग	-6916
कॉलेज	-6917
जाणवत	-6918
तुलना	-6919
बंगाल	-6920
वण्या	-6921
स्वॅब	-6922
हजारो	-6923
िरकोळ	-6924
्याचा	-6925
दुकानं	-6926
देशांत	-6927
नाहीये	-6928
बोर्डा	-6929
शस्त्र	-6930
समुदाय	-6931
साथीचा	-6932
कंपन्या	-6933
चेहऱ्या	-6934
वाढत्या	-6935
सुरूवात	-6936
वैयक्तिक	-6937
शैक्षणिक	-6938
घेतलेल्या	-6939
नियंत्रित	-6940
रुग्णांचे	-6941
उपचारासाठी	-6942
ठेवण्यासाठी	-6943
रुग्णांसाठी	-6944
सिक्वेंसिंग	-6945
रूग्णांमध्ये	-6946
तळ	-6947
▁O	-6948
झेन	-6949
ताण	-6950
रेड	-6951
्लो	-6952
▁0.	-6953
▁EU	-6954
▁गड	-6955
▁़्	-6956
आरटी	-6957
कोरो	-6958
ठाणे	-6959
ळाची	-6960
वाटत	-6961
वाटे	-6962
्रुत	-6963
▁अंग	-6964
▁अटक	-6965
▁पिं	-6966
▁मोक	-6967
▁रंग	-6968
▁रिक	-6969
▁रूप	-6970
तालुक	-6971
ब्रेक	-6972
यांचे	-6973
सुविध	-6974
▁अनिल	-6975
▁अशाच	-6976
▁खरंच	-6977
▁खाटा	-6978
▁गेलो	-6979
▁तिथं	-6980
▁थकवा	-6981
▁प्रि	-6982
▁वाचा	-6983
▁शहरी	-6984
▁हंगा	-6985
▁हाती	-6986
इतक्या	-6987
कदाचित	-6988
नव्हते	-6989
प्रथिन	-6990
मिळाला	-6991
▁एखादा	-6992
▁घालून	-6993
▁जातोय	-6994
▁तारीख	-6995
▁तिसरी	-6996
▁धक्का	-6997
▁प्रती	-6998
▁प्रां	-6999
▁प्रौढ	-7000
▁फायदे	-7001
▁युद्ध	-7002
▁लावून	-7003
▁वंचित	-7004
▁वर्णन	-7005
▁वेगळा	-7006
▁शशांक	-7007
▁शेकडो	-7008
▁सहभाग	-7009
▁सामान	-7010
एकत्रित	-7011
घ्यायला	-7012
व्यवसाय	-7013
शिक्षित	-7014
साबणाने	-7015
▁अखेरीस	-7016
▁उत्तरं	-7017
▁ट्विटर	-7018
▁दिसतात	-7019
▁द्यावं	-7020
▁द्यावे	-7021
▁पदार्थ	-7022
▁पालिका	-7023
▁रामदेव	-7024
▁संशोधक	-7025
▁स्त्री	-7026
▁स्नायू	-7027
शरीरातील	-7028
▁केंद्रे	-7029
▁घ्यायची	-7030
▁जास्तीत	-7031
▁द्यायला	-7032
▁नसल्यास	-7033
▁नियोजित	-7034
▁भागातून	-7035
▁मध्यस्थ	-7036
▁लोकांवर	-7037
▁व्यक्ति	-7038
▁सरकारवर	-7039
आजाराच्या	-7040
▁अनेकांनी	-7041
▁कार्यस्थ	-7042
▁कुटुंबीय	-7043
▁केजरीवाल	-7044
▁चंद्रपूर	-7045
▁तपासण्या	-7046
▁धुण्याची	-7047
▁पक्षनेते	-7048
▁प्रारंभी	-7049
▁मृत्यूची	-7050
▁याठिकाणी	-7051
▁राज्यांत	-7052
▁वर्षभरात	-7053
▁वापरल्या	-7054
▁शेवटच्या	-7055
▁हॉटस्पॉट	-7056
▁होण्याचं	-7057
यासंदर्भात	-7058
▁कंपनीच्या	-7059
▁ज्यांच्या	-7060
▁पुरवठादार	-7061
▁प्रारंभिक	-7062
▁मृत्यूंची	-7063
▁रस्त्यावर	-7064
▁रुग्णालयं	-7065
▁व्यवस्थाप	-7066
▁समावेशासह	-7067
▁जाण्यासाठी	-7068
▁तज्ज्ञांनी	-7069
▁दुष्परिणाम	-7070
▁प्राध्यापक	-7071
▁रुग्णाच्या	-7072
▁गेल्यावर्षी	-7073
▁रुग्णालयाचे	-7074
▁शिक्षणाच्या	-7075
▁संसर्गामुळे	-7076
▁चाचण्यांमध्ये	-7077
अव	-7078
आध	-7079
टल	-7080
टू	-7081
डं	-7082
वह	-7083
षक	-7084
ंशी	-7085
खात	-7086
ज्य	-7087
ठरू	-7088
त्म	-7089
दीत	-7090
नको	-7091
नीज	-7092
पडू	-7093
यां	-7094
रूम	-7095
वाश	-7096
ांढ	-7097
ोलॉ	-7098
अद्य	-7099
असले	-7100
एचके	-7101
एनएल	-7102
काचे	-7103
क्सा	-7104
गोळा	-7105
ग्रह	-7106
तीला	-7107
दैवी	-7108
प्शन	-7109
मुले	-7110
यनीज	-7111
र्मा	-7112
ल्फा	-7113
संकल	-7114
सुपर	-7115
हृदय	-7116
िकोन	-7117
ृतिक	-7118
्डाण	-7119
्रिम	-7120
अभावी	-7121
ऊनलोड	-7122
गतीने	-7123
घेतले	-7124
च्छित	-7125
जाणून	-7126
योगटा	-7127
लचाली	-7128
लागलं	-7129
वक्ते	-7130
वर्ती	-7131
व्हाण	-7132
सामना	-7133
स्वीर	-7134
ाराजी	-7135
्याची	-7136
अहवाला	-7137
तेसाठी	-7138
पोशिंद	-7139
फुफ्फु	-7140
फेक्शन	-7141
महानगर	-7142
र्निंग	-7143
र्वरित	-7144
ऱ्यावर	-7145
शबोर्ड	-7146
कंट्रोल	-7147
चनात्मक	-7148
जबाबदार	-7149
तातडीने	-7150
नेटवर्क	-7151
सोसायटी	-7152
स्कृतिक	-7153
स्थापना	-7154
ाराच्या	-7155
ेशालिटी	-7156
्यांकडे	-7157
कोरोनाचे	-7158
घराबाहेर	-7159
नासंबंधी	-7160
न्समध्ये	-7161
पॉक्सिया	-7162
प्रतिनिधी	-7163
असल्यामुळे	-7164
महत्त्वाचे	-7165
रोग्याच्या	-7166
स्वीरित्या	-7167
फ्ल्युएन्झा	-7168
रुग्णालयांमध्ये	-7169
EE	-7170
गम	-7171
दम	-7172
▁B	-7173
CGI	-7174
फिल	-7175
वखव	-7176
समु	-7177
सरा	-7178
सुच	-7179
▁4.	-7180
▁48	-7181
▁एम	-7182
▁कं	-7183
▁टॉ	-7184
▁नऊ	-7185
▁लॅ	-7186
-19)	-7187
त्रू	-7188
देणे	-7189
नमूद	-7190
निदा	-7191
नेही	-7192
यूके	-7193
सायन	-7194
▁120	-7195
▁खात	-7196
▁टीम	-7197
▁पटी	-7198
▁फूट	-7199
▁भास	-7200
कालिक	-7201
दिवसा	-7202
पार्ट	-7203
पाहता	-7204
लागते	-7205
वताना	-7206
▁अवघड	-7207
▁असणं	-7208
▁असणे	-7209
▁आलीय	-7210
▁आवटे	-7211
▁खवखव	-7212
▁जावे	-7213
▁झांग	-7214
▁ठरेल	-7215
▁दुखत	-7216
▁परवड	-7217
▁पाकि	-7218
▁बदला	-7219
▁बराच	-7220
▁भूषण	-7221
▁मजूर	-7222
▁राऊत	-7223
▁विलग	-7224
▁सहका	-7225
▁स्टे	-7226
नियामक	-7227
प्रचंड	-7228
व्यापक	-7229
स्थापन	-7230
हळूहळू	-7231
होणारा	-7232
▁आयोजन	-7233
▁एखादी	-7234
▁खोलीत	-7235
▁जुनाट	-7236
▁झालंय	-7237
▁टोचून	-7238
▁दृष्ट	-7239
▁नुसार	-7240
▁पाहणी	-7241
▁प्रदू	-7242
▁बरोबर	-7243
▁मतदान	-7244
▁यंत्र	-7245
▁यातील	-7246
▁राहून	-7247
▁वाजता	-7248
▁संदीप	-7249
▁संपर्	-7250
▁समुदा	-7251
▁सेकंद	-7252
▁ह्रदय	-7253
उत्पादक	-7254
प्रवासी	-7255
फोर्सचे	-7256
मराठीशी	-7257
्टीबॉडी	-7258
▁इमारती	-7259
▁तब्येत	-7260
▁परदेशी	-7261
▁मदतीने	-7262
▁म्हणता	-7263
▁राहतात	-7264
अल्कोहोल	-7265
कारणीभूत	-7266
सर्वांना	-7267
▁अल्कोहल	-7268
▁आजाराला	-7269
▁आधीच्या	-7270
▁आवृत्ती	-7271
▁उमेदवार	-7272
▁कँडीडेट	-7273
▁कुठलीही	-7274
▁नमुन्या	-7275
▁नोंदवले	-7276
▁परिसरात	-7277
▁परीक्षे	-7278
▁बाजारपे	-7279
▁वापरकर्	-7280
▁वापराची	-7281
▁संरक्षक	-7282
▁साहित्य	-7283
▁सिलेंडर	-7284
▁सिस्टिम	-7285
▁सुधारणा	-7286
प्रक्रिये	-7287
▁अमरावतीत	-7288
▁करण्याचं	-7289
▁जनजागृती	-7290
▁पृष्ठभाग	-7291
▁प्रकारची	-7292
▁युनेस्को	-7293
▁वेगवेगळे	-7294
▁शकणाऱ्या	-7295
▁कोल्हापूर	-7296
▁प्रसिद्धी	-7297
▁प्रार्थना	-7298
▁संवेदनशील	-7299
▁सर्वप्रथम	-7300
▁डॉक्टरांची	-7301
▁नागरिकांची	-7302
▁प्रभावीपणा	-7303
▁संघटनेच्या	-7304
महत्त्वाच्या	-7305
▁ऑस्ट्रेलिया	-7306
▁कोरोनाविरोधी	-7307
▁टक्क्यांपर्यंत	-7308
▁राष्ट्राध्यक्ष	-7309
▁कर्मचाऱ्यांच्या	-7310
ळत	-7311
ैन	-7312
११	-7313
com	-7314
ओपी	-7315
कता	-7316
काऊ	-7317
चेन	-7318
जमा	-7319
यडस	-7320
रशि	-7321
वती	-7322
वयं	-7323
वरे	-7324
सूल	-7325
आमचा	-7326
आमची	-7327
उभार	-7328
करेल	-7329
क्री	-7330
जनरल	-7331
पेपर	-7332
मनात	-7333
मोहन	-7334
ळाचे	-7335
वाने	-7336
शकता	-7337
सामग	-7338
सावे	-7339
सूचन	-7340
कोर्ट	-7341
ठेवणे	-7342
दुकान	-7343
नमुना	-7344
निर्ण	-7345
नेहमी	-7346
बैठकी	-7347
माहीत	-7348
लागले	-7349
सक्षम	-7350
सदस्य	-7351
साहेब	-7352
स्वयं	-7353
होतील	-7354
▁¦22¦	-7355
ट्रायल	-7356
यापैकी	-7357
ळ्याला	-7358
संघटना	-7359
सरासरी	-7360
प्रत्ये	-7361
ब्राझील	-7362
मेट्रिक	-7363
सामग्री	-7364
जेणेकरून	-7365
दिवसांचा	-7366
उपाययोजना	-7367
निगेटिव्ह	-7368
प्रावस्था	-7369
मुलांच्या	-7370
संदर्भातील	-7371
सामान्यपणे	-7372
कोव्हिडच्या	-7373
महिन्याच्या	-7374
.6	-7375
BC	-7376
gi	-7377
ंथ	-7378
ऊस	-7379
डक	-7380
ूष	-7381
ेद	-7382
▁L	-7383
▁ऍ	-7384
ंडन	-7385
उपा	-7386
मसल	-7387
लिम	-7388
लेश	-7389
ळुं	-7390
ळून	-7391
िटर	-7392
▁3.	-7393
▁छो	-7394
▁थे	-7395
▁बद	-7396
▁१४	-7397
▁१६	-7398
htra	-7399
ंडीत	-7400
ंधरा	-7401
औषधं	-7402
क्चर	-7403
गर्भ	-7404
गोवा	-7405
ग्टन	-7406
चार्	-7407
च्चू	-7408
जगात	-7409
जीवी	-7410
टोका	-7411
तनित	-7412
नंदा	-7413
प्ला	-7414
ब्बर	-7415
रियल	-7416
र्गम	-7417
वावं	-7418
सेना	-7419
हीमे	-7420
ाचार	-7421
ातही	-7422
ुनिक	-7423
ोगिक	-7424
्येय	-7425
▁अस्	-7426
▁उभे	-7427
▁घसर	-7428
▁झोप	-7429
▁टाई	-7430
▁टिक	-7431
▁फिल	-7432
▁ब्र	-7433
▁सलग	-7434
haras	-7435
अचानक	-7436
किंमत	-7437
क्नॉल	-7438
क्रमक	-7439
खाजगी	-7440
णाहून	-7441
तंत्र	-7442
तावास	-7443
दित्य	-7444
निकाल	-7445
निर्म	-7446
मारास	-7447
मावेश	-7448
वेळेत	-7449
साखळी	-7450
साधला	-7451
सारणी	-7452
▁आनंद	-7453
▁आम्ल	-7454
▁आरंभ	-7455
▁क्ला	-7456
▁गावी	-7457
▁थोडी	-7458
▁दबाव	-7459
▁देतो	-7460
▁नवाब	-7461
▁नाईट	-7462
▁लंडन	-7463
▁वाटू	-7464
▁सावध	-7465
▁स्टॉ	-7466
ंब्रिज	-7467
अंदाजे	-7468
तेबाबत	-7469
नव्हता	-7470
मिळणार	-7471
रावरील	-7472
विनंती	-7473
श्चर्य	-7474
▁अर्धा	-7475
▁आठवडे	-7476
▁उड्डा	-7477
▁घातली	-7478
▁ठेवता	-7479
▁तेथील	-7480
▁दुखणे	-7481
▁नाहीय	-7482
▁पावलं	-7483
▁पुनर्	-7484
▁संदेश	-7485
▁स्कूल	-7486
▁स्पर्	-7487
▁हॅण्ड	-7488
ंपेक्षा	-7489
केल्यास	-7490
जातीयता	-7491
ल्यमापन	-7492
वणाऱ्या	-7493
वाहतुकी	-7494
शानभूमी	-7495
शिंग्टन	-7496
्फ्ल्यु	-7497
▁जॉन्सन	-7498
▁तक्रार	-7499
▁त्याने	-7500
▁नर्सेस	-7501
▁पिंपरी	-7502
▁मात्रा	-7503
▁मृतदेह	-7504
▁वर्षात	-7505
▁वापरली	-7506
▁समन्वय	-7507
▁सीडीसी	-7508
▁सुरळीत	-7509
▁सुश्रु	-7510
क्नॉलॉजी	-7511
ण्टीबॉडी	-7512
मुंबईतील	-7513
▁2019-20	-7514
▁असतानाच	-7515
▁इंटरनेट	-7516
▁औषधांचा	-7517
▁गर्भवती	-7518
▁त्यातून	-7519
▁धोक्यात	-7520
▁परिणामा	-7521
▁प्रतिमा	-7522
▁लसीच्या	-7523
▁वेगळ्या	-7524
▁शासनाने	-7525
▁सेवेतील	-7526
harashtra	-7527
केंद्राने	-7528
जिओटेनसीन	-7529
झपाट्याने	-7530
नोव्हेंबर	-7531
न्टेनमेंट	-7532
ल्यापासून	-7533
वैज्ञानिक	-7534
शुक्रवारी	-7535
▁आपापल्या	-7536
▁इलेक्ट्र	-7537
▁कचऱ्याची	-7538
▁डोकेदुखी	-7539
▁देण्याचं	-7540
▁प्रस्ताव	-7541
▁भाजीपाला	-7542
▁राजेंद्र	-7543
▁संरक्षित	-7544
▁हाँगकाँग	-7545
नागरिकांनी	-7546
▁इटलीमध्ये	-7547
▁केंद्रावर	-7548
▁निर्जंतुक	-7549
▁राज्यांनी	-7550
▁हस्तक्षेप	-7551
कोव्हिशील्ड	-7552
▁प्रकरणांची	-7553
▁भारतातल्या	-7554
▁संध्याकाळी	-7555
▁संशोधकांनी	-7556
▁स्पष्टीकरण	-7557
राज्यांमध्ये	-7558
▁अहवालानुसार	-7559
▁उद्रेकाच्या	-7560
▁घालण्यासाठी	-7561
▁महापालिकेने	-7562
▁राष्ट्रवादी	-7563
▁हॉस्पिटलच्या	-7564
do	-7565
कौ	-7566
१२	-7567
एवढ	-7568
कशा	-7569
खोल	-7570
तत्	-7571
मूल	-7572
यचे	-7573
रित	-7574
वीत	-7575
000¦	-7576
असला	-7577
कठीण	-7578
घरीच	-7579
घेणे	-7580
जोशी	-7581
प्ले	-7582
मोफत	-7583
राहा	-7584
आयोगा	-7585
कार्ड	-7586
कोविन	-7587
घोषित	-7588
प्रां	-7589
फायदा	-7590
▁¦21¦	-7591
▁¦45¦	-7592
अधिकार	-7593
आयोजित	-7594
मोहिमे	-7595
यशस्वी	-7596
रोगजनक	-7597
होणारी	-7598
निमित्त	-7599
स्तरावर	-7600
ांबद्दल	-7601
्समध्ये	-7602
असोसिएशन	-7603
संघटनेने	-7604
प्रॅक्टिस	-7605
न्यूमोनिया	-7606
वर्षांवरील	-7607
दिवसांपूर्वी	-7608
LI	-7609
मस	-7610
▁t	-7611
▁ऋ	-7612
://	-7613
ACE	-7614
अँप	-7615
उचल	-7616
जाब	-7617
जीत	-7618
डून	-7619
नवे	-7620
नाम	-7621
बोट	-7622
लंग	-7623
हुल	-7624
ान्	-7625
▁5.	-7626
▁II	-7627
▁एफ	-7628
▁कण	-7629
▁ली	-7630
▁२५	-7631
▁५०	-7632
SARS	-7633
इमार	-7634
मल्ट	-7635
माझी	-7636
शिंक	-7637
सेंट	-7638
सेल्	-7639
स्तन	-7640
▁CoV	-7641
▁कंट	-7642
▁कृत	-7643
▁गाड	-7644
▁जीन	-7645
▁थंड	-7646
▁बँक	-7647
▁बार	-7648
▁सोय	-7649
▁हजर	-7650
▁हीच	-7651
ईडलाई	-7652
कारणं	-7653
जम्बो	-7654
राहुल	-7655
व्हेल	-7656
▁अथवा	-7657
▁अब्ज	-7658
▁अशोक	-7659
▁आपलं	-7660
▁एकटे	-7661
▁कृषी	-7662
▁घटने	-7663
▁जंतु	-7664
▁जाता	-7665
▁डॉलर	-7666
▁तिला	-7667
▁द्रा	-7668
▁बरीच	-7669
▁बाळग	-7670
▁भरून	-7671
▁रिका	-7672
▁वाईट	-7673
▁विसर	-7674
▁सोयी	-7675
दिवाळी	-7676
पुरावे	-7677
बाबतची	-7678
यानंतर	-7679
ऱ्याला	-7680
स्ट्री	-7681
▁RTPCR	-7682
▁अँप्स	-7683
▁इम्यु	-7684
▁घडीला	-7685
▁चीनने	-7686
▁न्याय	-7687
▁प्रश्	-7688
▁बिहार	-7689
▁मंजूर	-7690
▁मध्या	-7691
▁मुद्द	-7692
▁मेसेज	-7693
▁यातून	-7694
▁राखणे	-7695
▁लागतं	-7696
▁समजून	-7697
▁सुरेश	-7698
▁स्थिर	-7699
इंग्लंड	-7700
गायकवाड	-7701
होण्यास	-7702
▁अंगावर	-7703
▁अंमलात	-7704
▁अजिबात	-7705
▁अनेकदा	-7706
▁अविनाश	-7707
▁आश्वास	-7708
▁कल्पना	-7709
▁काहीही	-7710
▁कृष्णा	-7711
▁जिवाणू	-7712
▁तिच्या	-7713
▁धारावी	-7714
▁निकामी	-7715
▁पाठवले	-7716
▁वर्षां	-7717
▁शेवटचा	-7718
▁सेल्सि	-7719
▁स्थापन	-7720
न्टिलेटर	-7721
▁उपयुक्त	-7722
▁कुठल्या	-7723
▁परिषदेत	-7724
▁भारताची	-7725
▁स्तरावर	-7726
▁स्वतःची	-7727
मुलांसाठी	-7728
▁अनेकांना	-7729
▁आजपर्यंत	-7730
▁औषधाच्या	-7731
▁केल्याने	-7732
▁ट्रॅकिंग	-7733
▁डब्लूएचओ	-7734
▁धुण्याचे	-7735
▁प्रकारचा	-7736
▁रुग्णाची	-7737
▁व्यापारी	-7738
▁सुरुवाती	-7739
▁होण्याचे	-7740
डॉक्टरांना	-7741
प्रवाशांना	-7742
भारतामध्ये	-7743
▁उद्रेकाला	-7744
▁एन्टीबॉडी	-7745
▁कार्यालयं	-7746
▁ठेवण्याचा	-7747
▁देशभरातील	-7748
▁निष्क्रिय	-7749
▁प्रतिपिंड	-7750
▁प्रवासावर	-7751
▁बैठकीनंतर	-7752
▁मुंबईच्या	-7753
▁रूग्णांचा	-7754
▁लसीकरणाला	-7755
▁लॉकडाऊनचा	-7756
▁वाढवण्यात	-7757
▁संस्थांनी	-7758
▁साधारणपणे	-7759
त्यांच्यावर	-7760
महाविद्यालय	-7761
▁इंजेक्शनचा	-7762
▁गुंतागुंती	-7763
▁झाल्याच्या	-7764
▁टप्प्यातील	-7765
▁तंत्रज्ञान	-7766
▁त्याचबरोबर	-7767
▁दुसऱ्यांदा	-7768
▁विद्यापीठा	-7769
सुरुवातीच्या	-7770
▁लोकांपर्यंत	-7771
▁सद्यस्थितीत	-7772
रुग्णालयाच्या	-7773
▁अर्थव्यवस्था	-7774
▁एप्रिलपर्यंत	-7775
▁नातेवाईकांना	-7776
▁प्रकरणांच्या	-7777
▁प्रशासनाच्या	-7778
78	-7779
an	-7780
ii	-7781
la	-7782
ub	-7783
ur	-7784
खो	-7785
जल	-7786
धो	-7787
रद	-7788
लभ	-7789
वच	-7790
हू	-7791
ाट	-7792
ूड	-7793
१४	-7794
ter	-7795
ंपर	-7796
ंसह	-7797
ःसं	-7798
एमए	-7799
कसे	-7800
खिल	-7801
चला	-7802
जरा	-7803
तूद	-7804
थळे	-7805
दंड	-7806
पडत	-7807
बूत	-7808
रिए	-7809
लीम	-7810
वढे	-7811
षार	-7812
▁	-7813
ा	-7814
¦	-7815
्	-7816
र	-7817
य	-7818
त	-7819
े	-7820
क	-7821
ी	-7822
स	-7823
ल	-7824
न	-7825
ं	-7826
ि	-7827
व	-7828
ह	-7829
म	-7830
च	-7831
ण	-7832
प	-7833
ो	-7834
आ	-7835
द	-7836
ग	-7837
ज	-7838
ु	-7839
.	-7840
ट	-7841
श	-7842
अ	-7843
ू	-7844
ध	-7845
ब	-7846
ड	-7847
,	-7848
ष	-7849
ळ	-7850
ठ	-7851
ख	-7852
भ	-7853
थ	-7854
उ	-7855
घ	-7856
ए	-7857
झ	-7858
ॉ	-7859
फ	-7860
-	-7861
0	-7862
1	-7863
ढ	-7864
2	-7865
इ	-7866
ई	-7867
ऱ	-7868
ॅ	-7869
ऊ	-7870
ृ	-7871
"	-7872
9	-7873
ै	-7874
)	-7875
(	-7876
ऑ	-7877
'	-7878
5	-7879
?	-7880
C	-7881
ओ	-7882
3	-7883
4	-7884
o	-7885
:	-7886
c	-7887
i	-7888
१	-7889
8	-7890
ँ	-7891
7	-7892
I	-7893
6	-7894
२	-7895
a	-7896
०	-7897
e	-7898
r	-7899
S	-7900
ञ	-7901
𐊣	-7902
𐊼	-7903
s	-7904
V	-7905
औ	-7906
R	-7907
छ	-7908
O	-7909
ौ	-7910
D	-7911
A	-7912
t	-7913
𐋇	-7914
d	-7915
n	-7916
v	-7917
%	-7918
४	-7919
३	-7920
५	-7921
ः	-7922
९	-7923
E	-7924
P	-7925
h	-7926
p	-7927
/	-7928
;	-7929
६	-7930
८	-7931
l	-7932
m	-7933
H	-7934
M	-7935
७	-7936
N	-7937
u	-7938
T	-7939
g	-7940
“	-7941
़	-7942
w	-7943
‘	-7944
’	-7945
W	-7946
!	-7947
U	-7948
G	-7949
b	-7950
f	-7951
y	-7952
ऐ	-7953
”	-7954
‍	-7955
ऩ	-7956
B	-7957
L	-7958
F	-7959
k	-7960
–	-7961
•	-7962
x	-7963
[	-7964
]	-7965
#	-7966
ऍ	-7967
K	-7968
$	-7969
ऋ	-7970
z	-7971
q	-7972
<	-7973
≥	-7974
j	-7975
Y	-7976
>	-7977
+	-7978
Q	-7979
Z	-7980
*	-7981
ॲ	-7982
X	-7983
_	-7984
×	-7985
J	-7986
α	-7987
=	-7988
β	-7989
ऎ	-7990
—	-7991
~	-7992
ß	-7993
γ	-7994
Å	-7995
å	-7996
