<pad>	0
</s>	0
<unk>	0
▁¦	-0
्य	-1
्या	-2
▁.	-3
्र	-4
ार	-5
ां	-6
ना	-7
ात	-8
र्	-9
हे	-10
ला	-11
▁,	-12
कर	-13
क्	-14
च्या	-15
वा	-16
आहे	-17
ले	-18
प्र	-19
ही	-20
का	-21
ण्या	-22
ल्या	-23
सा	-24
स्	-25
चा	-26
ती	-27
सं	-28
्ह	-29
ची	-30
वि	-31
मा	-32
के	-33
या	-34
रो	-35
आण	-36
ली	-37
ने	-38
को	-39
ून	-40
आणि	-41
ता	-42
हो	-43
मध	-44
अस	-45
त्या	-46
ंत	-47
रा	-48
नि	-49
्ये	-50
णा	-51
ते	-52
पा	-53
क्ष	-54
पर	-55
कार	-56
चे	-57
ठी	-58
मध्ये	-59
मु	-60
वर	-61
नी	-62
साठी	-63
ित	-64
दे	-65
व्ह	-66
िक	-67
रु	-68
दि	-69
जा	-70
झा	-71
ग्	-72
लं	-73
वे	-74
ील	-75
ंद	-76
शी	-77
तर	-78
कोरो	-79
कोरोना	-80
म्ह	-81
ये	-82
करण्या	-83
यां	-84
्ट	-85
की	-86
सर्	-87
हि	-88
बा	-89
हा	-90
सी	-91
रुग्	-92
णे	-93
तात	-94
सि	-95
त्	-96
सु	-97
चं	-98
ळे	-99
कड	-100
वी	-101
स्थ	-102
लेल्या	-103
ऱ्या	-104
आहेत	-105
नाही	-106
पु	-107
शा	-108
सर	-109
भा	-110
मी	-111
णी	-112
िं	-113
गा	-114
द्	-115
जे	-116
ष्ट	-117
से	-118
शक	-119
लो	-120
ज्या	-121
तो	-122
सां	-123
सार	-124
णार	-125
0¦	-126
त्यां	-127
ाय	-128
रोग	-129
वार	-130
▁𐊣	-131
णां	-132
▁¦2	-133
▁¦1	-134
कां	-135
मुळे	-136
मो	-137
ति	-138
घे	-139
न्	-140
ंत्र	-141
मि	-142
ारा	-143
जन	-144
दा	-145
रे	-146
त्र	-147
री	-148
ल्	-149
उप	-150
ंतर	-151
ण्यात	-152
शि	-153
एक	-154
पू	-155
देश	-156
गे	-157
स्ट	-158
▁"	-159
ळा	-160
यो	-161
तील	-162
किं	-163
विष	-164
क्र	-165
रू	-166
लस	-167
▁(	-168
दु	-169
म्हण	-170
जी	-171
टी	-172
पे	-173
▁)	-174
9¦	-175
आरोग	-176
सरकार	-177
व्य	-178
्यां	-179
मे	-180
पास	-181
किंवा	-182
वर्	-183
पण	-184
परि	-185
टा	-186
▁'	-187
टे	-188
ार्	-189
तु	-190
आरोग्य	-191
निर्	-192
काही	-193
चार	-194
नंतर	-195
स्त	-196
्ही	-197
णू	-198
जात	-199
लाग	-200
मान	-201
यांनी	-202
मह	-203
धी	-204
रि	-205
वाढ	-206
संसर्	-207
डॉ	-208
▁?	-209
ंद्र	-210
िल	-211
सांग	-212
ळी	-213
असल्या	-214
श्	-215
रात	-216
करण्यात	-217
कमी	-218
िती	-219
जार	-220
अध	-221
्यंत	-222
सो	-223
होत	-224
णाऱ्या	-225
बं	-226
लक्ष	-227
व्हि	-228
संख	-229
विषा	-230
धा	-231
खा	-232
डे	-233
राज्या	-234
पूर्	-235
ष्ट्र	-236
णं	-237
विषाणू	-238
सर्व	-239
भार	-240
लशी	-241
-1	-242
दी	-243
्यू	-244
द्या	-245
गर	-246
असे	-247
क्षा	-248
असं	-249
लोकां	-250
पर्यंत	-251
मंत्र	-252
लसी	-253
ऊन	-254
केली	-255
ण्यासाठी	-256
चाच	-257
प्रमा	-258
रुग्णां	-259
नु	-260
क्त	-261
ंब	-262
ज्	-263
लि	-264
-19¦	-265
ृत	-266
दिव	-267
क्सि	-268
co	-269
ठा	-270
बत	-271
ताना	-272
गी	-273
नो	-274
्यात	-275
यु	-276
लॉ	-277
पो	-278
ोना	-279
पासून	-280
केंद्र	-281
ंट	-282
िट	-283
स्थिती	-284
मार्	-285
ईल	-286
कोव्हि	-287
बंध	-288
ांना	-289
करोना	-290
ंड	-291
दर	-292
ातील	-293
माहि	-294
माहिती	-295
आले	-296
कडे	-297
वारी	-298
करण	-299
क्ट	-300
बंद	-301
प्रति	-302
्स	-303
रुग्णा	-304
द्ध	-305
होते	-306
▁:	-307
आप	-308
सुरू	-309
▁¦20	-310
डी	-311
मृत	-312
संसर्ग	-313
प्रा	-314
दो	-315
केले	-316
वर्ष	-317
कोव्हिड	-318
ठे	-319
महारा	-320
रुग्ण	-321
आम	-322
र्थ	-323
शन	-324
मुख	-325
वापर	-326
व्हाय	-327
बो	-328
प्	-329
महाराष्ट्र	-330
कु	-331
कडा	-332
ण्याची	-333
हात	-334
स्प	-335
स्था	-336
काम	-337
लय	-338
राज	-339
्यु	-340
ऑक्सि	-341
काळ	-342
ब्	-343
क्ती	-344
उत्	-345
व्हायर	-346
ऑक्सिजन	-347
बी	-348
ग्र	-349
इतर	-350
वड	-351
करा	-352
झाल्या	-353
अने	-354
घेत	-355
संख्या	-356
कर्	-357
▁𐋇	-358
मात	-359
5¦	-360
डि	-361
सह	-362
लॉकडा	-363
आली	-364
केला	-365
आढ	-366
शे	-367
निय	-368
द्य	-369
व्हा	-370
एका	-371
ज्ञ	-372
काय	-373
दल	-374
होती	-375
जास्त	-376
दिस	-377
असलेल्या	-378
महि	-379
व्हायरस	-380
निक	-381
मंत्री	-382
पेक्षा	-383
करण्यासाठी	-384
अनेक	-385
भाग	-386
ांच्या	-387
व्या	-388
गो	-389
मृत्यू	-390
आता	-391
थे	-392
नं	-393
्रे	-394
ंना	-395
व्ही	-396
िका	-397
प्रमाण	-398
▁-	-399
vi	-400
नुसार	-401
कीय	-402
परिणा	-403
तय	-404
नस	-405
च्	-406
तयार	-407
बाबत	-408
योग	-409
आज	-410
क्षण	-411
मधील	-412
आढळ	-413
करत	-414
झाला	-415
2¦	-416
दर्	-417
जिल	-418
जिल्ह	-419
ाला	-420
▁¦3	-421
झाली	-422
झाले	-423
ांनी	-424
होता	-425
चाचणी	-426
पी	-427
र्स	-428
भी	-429
covi	-430
टक्	-431
शो	-432
अधिक	-433
कं	-434
covid	-435
पूर्ण	-436
डो	-437
व्यक्ती	-438
वात	-439
दोन	-440
वै	-441
करून	-442
ांमध्ये	-443
ीय	-444
4¦	-445
त्यांच्या	-446
कोण	-447
ंग	-448
लॉकडाऊन	-449
श्य	-450
सांगित	-451
औष	-452
समा	-453
स्क	-454
स्व	-455
म्हट	-456
क्रम	-457
परिणाम	-458
म्हणून	-459
कडून	-460
यांच्या	-461
मिळ	-462
पड	-463
सू	-464
फे	-465
लाव	-466
लोक	-467
आजार	-468
विद्या	-469
जि	-470
वश्य	-471
घट	-472
असेल	-473
वश्यक	-474
राह	-475
ांची	-476
म्हणा	-477
▁¦202	-478
झालेल्या	-479
तं	-480
पुढ	-481
ध्या	-482
विक	-483
लसीकरण	-484
बे	-485
तरी	-486
पुर	-487
मुख्य	-488
प्रवा	-489
मार्च	-490
तुम	-491
जो	-492
वळ	-493
केल्या	-494
ठेव	-495
सम	-496
असा	-497
दिली	-498
गेल्या	-499
गत	-500
अशा	-501
करणे	-502
महा	-503
मोठ	-504
कार्य	-505
न्स	-506
माग	-507
परिस्थिती	-508
वं	-509
राज्य	-510
त्यांना	-511
वेग	-512
उपचार	-513
उपल	-514
शोध	-515
ब्ध	-516
्हे	-517
देण्यात	-518
मुंब	-519
उपलब्ध	-520
मुंबई	-521
आपल्या	-522
खी	-523
गु	-524
टक्के	-525
टो	-526
नोंद	-527
शक्य	-528
म्हणजे	-529
सीओ	-530
पत्र	-531
धार	-532
म्हटलं	-533
राज्यात	-534
ष्	-535
आला	-536
मात्र	-537
आम्ही	-538
डॉक्ट	-539
येत	-540
सीओव्ही	-541
rs	-542
म्हणाले	-543
क्षे	-544
त्यामुळे	-545
शास	-546
पहि	-547
केलं	-548
दुस	-549
ण्याचा	-550
त्यांनी	-551
ब्र	-552
पै	-553
संप	-554
कोवि	-555
शह	-556
व्हे	-557
8¦	-558
सुरु	-559
अशी	-560
घा	-561
महिन	-562
हजार	-563
संसर्गा	-564
एप्र	-565
एप्रिल	-566
वेश	-567
1¦	-568
हॉ	-569
महत्	-570
रुग्णालय	-571
वाय	-572
▁%	-573
औषध	-574
रूग्	-575
ष्टी	-576
चाचण्या	-577
अभ	-578
चाल	-579
ारी	-580
मोठ्या	-581
बोल	-582
भारतात	-583
असून	-584
00¦	-585
कि	-586
व्यव	-587
क्रि	-588
सध्या	-589
¦	-590
▁	-591
ा	-592
्	-593
र	-594
य	-595
त	-596
े	-597
क	-598
ी	-599
स	-600
ल	-601
न	-602
ं	-603
ि	-604
व	-605
ह	-606
म	-607
च	-608
ण	-609
प	-610
ो	-611
आ	-612
द	-613
ग	-614
ज	-615
ु	-616
.	-617
ट	-618
श	-619
अ	-620
ू	-621
ध	-622
ब	-623
ड	-624
,	-625
ष	-626
ळ	-627
ठ	-628
ख	-629
भ	-630
थ	-631
उ	-632
घ	-633
ए	-634
झ	-635
ॉ	-636
फ	-637
-	-638
0	-639
1	-640
ढ	-641
2	-642
इ	-643
ई	-644
ॅ	-645
ऱ	-646
ऊ	-647
ृ	-648
c	-649
"	-650
𐊣	-651
𐊼	-652
9	-653
ै	-654
i	-655
o	-656
)	-657
(	-658
ऑ	-659
'	-660
𐋇	-661
s	-662
r	-663
5	-664
?	-665
a	-666
ओ	-667
3	-668
4	-669
v	-670
e	-671
d	-672
:	-673
१	-674
8	-675
ँ	-676
7	-677
6	-678
२	-679
०	-680
ञ	-681
t	-682
n	-683
औ	-684
p	-685
छ	-686
h	-687
ौ	-688
m	-689
%	-690
४	-691
३	-692
५	-693
ः	-694
९	-695
l	-696
u	-697
/	-698
;	-699
g	-700
w	-701
६	-702
८	-703
७	-704
़	-705
b	-706
f	-707
“	-708
‘	-709
’	-710
!	-711
y	-712
ऐ	-713
”	-714
‍	-715
ऩ	-716
k	-717
x	-718
–	-719
•	-720
[	-721
]	-722
#	-723
ऍ	-724
$	-725
z	-726
ऋ	-727
q	-728
j	-729
<	-730
≥	-731
>	-732
+	-733
*	-734
ॲ	-735
_	-736
×	-737
α	-738
=	-739
β	-740
ऎ	-741
—	-742
~	-743
ß	-744
å	-745
γ	-746
