<pad>	0
</s>	0
<unk>	0
▁¦	-0
ti	-1
ai	-2
in	-3
os	-4
▁p	-5
ri	-6
au	-7
as	-8
ar	-9
ir	-10
si	-11
al	-12
▁k	-13
an	-14
en	-15
ei	-16
am	-17
▁s	-18
im	-19
▁𐋇	-20
▁t	-21
at	-22
▁,	-23
▁n	-24
ad	-25
om	-26
is	-27
es	-28
ro	-29
▁d	-30
us	-31
on	-32
▁v	-33
ki	-34
▁ir	-35
to	-36
ės	-37
▁.	-38
er	-39
li	-40
tin	-41
či	-42
▁b	-43
ek	-44
uri	-45
ra	-46
ij	-47
▁m	-48
st	-49
tų	-50
yb	-51
uo	-52
tik	-53
av	-54
▁su	-55
em	-56
iš	-57
ių	-58
um	-59
▁g	-60
uro	-61
eik	-62
oj	-63
ėl	-64
et	-65
ap	-66
▁r	-67
▁š	-68
urop	-69
▁j	-70
▁kad	-71
▁į	-72
cij	-73
ta	-74
or	-75
ur	-76
▁E	-77
aip	-78
ink	-79
arb	-80
ak	-81
aug	-82
ant	-83
ais	-84
ab	-85
▁pri	-86
uropos	-87
ži	-88
su	-89
el	-90
sij	-91
ėj	-92
end	-93
▁l	-94
pr	-95
ausi	-96
imo	-97
eg	-98
▁T	-99
▁pas	-100
yv	-101
už	-102
ali	-103
min	-104
▁at	-105
▁iš	-106
▁P	-107
omi	-108
aik	-109
▁kuri	-110
ie	-111
yra	-112
mo	-113
ag	-114
id	-115
pri	-116
▁-	-117
yti	-118
eis	-119
ėm	-120
ien	-121
oje	-122
eš	-123
kad	-124
rin	-125
▁ne	-126
gi	-127
dėl	-128
kai	-129
uos	-130
▁K	-131
un	-132
tas	-133
▁Europos	-134
aus	-135
▁bū	-136
▁ši	-137
čiau	-138
oli	-139
tar	-140
ui	-141
ini	-142
tr	-143
až	-144
▁ž	-145
me	-146
jų	-147
ama	-148
▁ap	-149
pas	-150
imą	-151
tai	-152
aud	-153
▁dėl	-154
te	-155
ok	-156
yk	-157
ym	-158
ci	-159
▁pat	-160
ne	-161
▁pr	-162
tu	-163
ame	-164
ūs	-165
inti	-166
ši	-167
alst	-168
usi	-169
lam	-170
▁už	-171
ing	-172
alstyb	-173
▁pro	-174
imas	-175
bū	-176
omisij	-177
vo	-178
▁tik	-179
ąj	-180
▁yra	-181
alim	-182
auj	-183
ung	-184
lamen	-185
irmin	-186
cijos	-187
kuri	-188
▁(	-189
irminink	-190
par	-191
▁S	-192
tis	-193
čių	-194
je	-195
eiki	-196
ys	-197
kl	-198
▁vis	-199
ams	-200
ko	-201
varb	-202
▁to	-203
▁si	-204
tą	-205
and	-206
avo	-207
eli	-208
ari	-209
sti	-210
ėtų	-211
ausim	-212
aneš	-213
▁𐊣	-214
ūr	-215
ąjung	-216
dži	-217
tos	-218
▁B	-219
omis	-220
abai	-221
ūsų	-222
▁tai	-223
europos	-224
veik	-225
uvo	-226
▁par	-227
20	-228
▁A	-229
▁kl	-230
▁f	-231
pa	-232
▁in	-233
yje	-234
alb	-235
ėti	-236
amas	-237
▁M	-238
jos	-239
il	-240
var	-241
▁pad	-242
pat	-243
ku	-244
rim	-245
inių	-246
ans	-247
ka	-248
esn	-249
ijos	-250
▁pag	-251
toj	-252
pro	-253
ami	-254
endr	-255
mon	-256
re	-257
oms	-258
tat	-259
yg	-260
▁turi	-261
uom	-262
irmininke	-263
▁teis	-264
lo	-265
▁Komisij	-266
eng	-267
anči	-268
umo	-269
▁valstyb	-270
ej	-271
vis	-272
dar	-273
kir	-274
ori	-275
uk	-276
ūl	-277
emon	-278
▁daug	-279
kur	-280
orė	-281
eig	-282
▁pasi	-283
ili	-284
ybos	-285
kos	-286
inės	-287
ems	-288
▁V	-289
▁kaip	-290
▁J	-291
io	-292
▁tur	-293
eki	-294
iu	-295
iau	-296
ekon	-297
auk	-298
olitik	-299
ekt	-300
aš	-301
gyv	-302
eikia	-303
orėčiau	-304
ov	-305
▁ki	-306
sl	-307
▁taip	-308
▁"	-309
▁per	-310
eikal	-311
ėms	-312
▁svarb	-313
amos	-314
▁klausim	-315
▁darb	-316
isi	-317
tikrin	-318
ul	-319
▁susi	-320
šk	-321
uoj	-322
▁veik	-323
gr	-324
▁N	-325
saug	-326
ed	-327
irm	-328
prend	-329
tum	-330
avimo	-331
tim	-332
žv	-333
ome	-334
▁Par	-335
▁kai	-336
raš	-337
one	-338
man	-339
vir	-340
▁nes	-341
inans	-342
uoti	-343
▁o	-344
pag	-345
▁kon	-346
▁G	-347
ank	-348
▁praneš	-349
▁D	-350
▁Sąjung	-351
▁Parlamen	-352
sak	-353
orm	-354
ter	-355
▁ES	-356
▁po	-357
▁būtų	-358
ios	-359
men	-360
vai	-361
▁būti	-362
ymo	-363
yst	-364
▁did	-365
▁Š	-366
vien	-367
oma	-368
taip	-369
ent	-370
ties	-371
▁re	-372
▁nar	-373
pad	-374
▁galim	-375
ums	-376
ver	-377
turi	-378
▁man	-379
acij	-380
▁pa	-381
ang	-382
teis	-383
als	-384
per	-385
rind	-386
▁ko	-387
ėjo	-388
▁labai	-389
▁šal	-390
▁vien	-391
▁savo	-392
uose	-393
do	-394
abar	-395
bl	-396
valstyb	-397
daug	-398
▁buvo	-399
▁tar	-400
og	-401
iz	-402
tur	-403
▁bendr	-404
iausi	-405
form	-406
ch	-407
cial	-408
▁apie	-409
gal	-410
tari	-411
ose	-412
pasi	-413
▁dar	-414
kaip	-415
tori	-416
ektyv	-417
riz	-418
imų	-419
po	-420
val	-421
komisij	-422
erb	-423
lyg	-424
▁pak	-425
vyk	-426
▁ar	-427
blem	-428
tina	-429
rei	-430
stitu	-431
▁laik	-432
▁mūsų	-433
ačiau	-434
pl	-435
uomen	-436
tus	-437
▁gal	-438
tume	-439
škai	-440
tink	-441
▁prie	-442
erg	-443
▁reg	-444
ime	-445
▁20	-446
▁L	-447
isku	-448
darb	-449
▁priemon	-450
▁pl	-451
gyvend	-452
ilie	-453
▁R	-454
oti	-455
tyje	-456
▁nari	-457
▁nuo	-458
stem	-459
▁)	-460
ški	-461
▁politik	-462
aid	-463
▁Komisijos	-464
etu	-465
ypa	-466
▁rink	-467
od	-468
ting	-469
ras	-470
ūros	-471
buvo	-472
ik	-473
nes	-474
▁ver	-475
rak	-476
gali	-477
ati	-478
▁pirmininke	-479
▁dal	-480
ūlym	-481
tinės	-482
laik	-483
▁ekon	-484
eri	-485
▁ti	-486
kon	-487
▁Tar	-488
sm	-489
būtų	-490
lik	-491
did	-492
ėmis	-493
du	-494
por	-495
▁gali	-496
▁bet	-497
tau	-498
dž	-499
žvel	-500
ocial	-501
energ	-502
▁Tai	-503
ustat	-504
svarb	-505
esi	-506
▁net	-507
imus	-508
praneš	-509
parlamen	-510
šal	-511
▁reikal	-512
inę	-513
paž	-514
ybės	-515
ėje	-516
susi	-517
sižvel	-518
ypač	-519
iskusij	-520
▁kar	-521
klausim	-522
inio	-523
tojų	-524
ėra	-525
tarp	-526
rė	-527
▁tarp	-528
ming	-529
sąjung	-530
pak	-531
umą	-532
▁mok	-533
▁finans	-534
iai	-535
▁mes	-536
tikrinti	-537
audoj	-538
tinių	-539
mes	-540
žin	-541
tarim	-542
ybę	-543
▁visi	-544
vej	-545
▁bus	-546
▁I	-547
▁pav	-548
▁proc	-549
tį	-550
▁1	-551
ėk	-552
uosi	-553
▁sri	-554
▁To	-555
ūk	-556
nar	-557
▁sieki	-558
acijos	-559
▁gyv	-560
▁ats	-561
labai	-562
ion	-563
mok	-564
eikti	-565
sių	-566
amą	-567
ateg	-568
cija	-569
yn	-570
būti	-571
▁jų	-572
▁sprend	-573
▁žmon	-574
adarb	-575
link	-576
▁jau	-577
ija	-578
▁es	-579
▁tr	-580
▁str	-581
inimo	-582
iki	-583
yri	-584
emok	-585
savo	-586
galim	-587
dami	-588
sn	-589
▁nauj	-590
der	-591
lių	-592
▁są	-593
ųjų	-594
tinti	-595
▁kalb	-596
sijusi	-597
kar	-598
▁vyk	-599
skai	-600
▁darbo	-601
ančių	-602
▁valstybės	-603
▁var	-604
trauk	-605
avimas	-606
▁kurie	-607
imu	-608
▁Sąjungos	-609
iudž	-610
bendr	-611
▁reikia	-612
ūri	-613
▁norėčiau	-614
imai	-615
bus	-616
▁pagrind	-617
sime	-618
amai	-619
mog	-620
kių	-621
▁me	-622
ciją	-623
tais	-624
▁taik	-625
inink	-626
čiai	-627
▁dir	-628
andien	-629
▁turėtų	-630
ež	-631
log	-632
ia	-633
▁pirm	-634
pirmininke	-635
kio	-636
str	-637
▁keli	-638
▁skir	-639
kel	-640
▁prieš	-641
mūsų	-642
▁¦20	-643
čia	-644
rink	-645
reg	-646
inis	-647
apie	-648
▁e	-649
rai	-650
eisių	-651
adarbi	-652
sp	-653
ektori	-654
nuo	-655
taik	-656
▁Parlamento	-657
ud	-658
maž	-659
▁paž	-660
▁Europ	-661
tek	-662
omikos	-663
aisv	-664
ojo	-665
anti	-666
▁Todėl	-667
ėtume	-668
cion	-669
amų	-670
avimą	-671
▁problem	-672
▁turime	-673
▁Komisija	-674
cijų	-675
▁ger	-676
dal	-677
▁kur	-678
▁saug	-679
▁ak	-680
imui	-681
arba	-682
pareig	-683
▁sistem	-684
inį	-685
ėme	-686
todėl	-687
auti	-688
priemon	-689
▁Ši	-690
▁Man	-691
▁padė	-692
eid	-693
▁rez	-694
nauj	-695
vie	-696
mogaus	-697
mės	-698
▁įgyvend	-699
▁maž	-700
skir	-701
▁įsi	-702
kol	-703
▁pilie	-704
▁kurios	-705
aul	-706
net	-707
▁as	-708
gan	-709
yba	-710
▁neg	-711
ęs	-712
▁gyven	-713
▁jos	-714
klaus	-715
▁tiksl	-716
tini	-717
bet	-718
oliu	-719
▁sut	-720
▁narių	-721
rėž	-722
iausia	-723
politik	-724
antis	-725
dama	-726
di	-727
tačiau	-728
▁dabar	-729
vi	-730
ką	-731
kia	-732
be	-733
ausiai	-734
ėg	-735
pav	-736
▁apsaug	-737
ato	-738
aišk	-739
komisijos	-740
ekti	-741
▁im	-742
nari	-743
▁val	-744
▁pasiūlym	-745
sta	-746
int	-747
rib	-748
emokra	-749
eb	-750
reip	-751
ors	-752
ęsti	-753
tro	-754
yta	-755
norėčiau	-756
žiūri	-757
rov	-758
la	-759
▁teisės	-760
▁valstybių	-761
▁jo	-762
kalb	-763
▁pal	-764
ji	-765
kiai	-766
▁gr	-767
▁energ	-768
aig	-769
▁šį	-770
ja	-771
▁ji	-772
▁institu	-773
inius	-774
eitim	-775
varst	-776
yriaus	-777
yse	-778
acion	-779
giant	-780
▁bals	-781
kri	-782
no	-783
tet	-784
umas	-785
▁šiuo	-786
inga	-787
stat	-788
osios	-789
virtin	-790
visi	-791
eto	-792
tab	-793
ukt	-794
ymą	-795
aiški	-796
▁Tačiau	-797
▁padar	-798
▁nustat	-799
▁atsak	-800
dė	-801
osi	-802
▁priim	-803
ry	-804
damas	-805
dir	-806
emės	-807
keli	-808
▁200	-809
▁Pone	-810
akyti	-811
finans	-812
rijos	-813
uv	-814
rag	-815
▁narės	-816
▁metu	-817
▁social	-818
▁ypač	-819
▁pon	-820
onos	-821
acional	-822
pirm	-823
dyti	-824
enk	-825
ves	-826
są	-827
reikal	-828
ėmes	-829
asi	-830
▁mums	-831
▁daugiau	-832
dr	-833
met	-834
pon	-835
ymas	-836
pap	-837
prieš	-838
▁poli	-839
kas	-840
smų	-841
sprend	-842
darbo	-843
sieki	-844
ist	-845
ep	-846
prie	-847
europ	-848
▁¦1	-849
adov	-850
raštu	-851
čio	-852
▁užtikrinti	-853
ykl	-854
organ	-855
bals	-856
▁žin	-857
jau	-858
yrim	-859
engti	-860
ystės	-861
zi	-862
eigu	-863
sming	-864
.,	-865
ada	-866
▁prad	-867
▁tačiau	-868
▁kom	-869
eigi	-870
dom	-871
šiuo	-872
▁kuris	-873
up	-874
▁pan	-875
proc	-876
eisti	-877
▁pap	-878
▁nėra	-879
jek	-880
atyv	-881
▁tikr	-882
▁region	-883
žmon	-884
▁der	-885
ina	-886
sri	-887
▁tam	-888
ekybos	-889
ūp	-890
▁mo	-891
aliz	-892
naud	-893
▁šio	-894
▁susijusi	-895
pal	-896
turime	-897
giu	-898
▁šios	-899
tijos	-900
▁politikos	-901
▁siekiant	-902
▁kriz	-903
0¦	-904
▁pab	-905
▁vie	-906
tvar	-907
porto	-908
▁bei	-909
eidži	-910
▁diskusij	-911
tov	-912
▁naud	-913
▁todėl	-914
duk	-915
reikia	-916
pręsti	-917
tam	-918
laug	-919
onės	-920
abej	-921
čius	-922
pagrind	-923
valstybės	-924
vz	-925
priim	-926
ėš	-927
lio	-928
gyven	-929
▁aš	-930
▁aplink	-931
▁skai	-932
▁nuom	-933
▁susitarim	-934
ven	-935
dabar	-936
▁mano	-937
ančios	-938
▁pirminink	-939
▁sutar	-940
▁strateg	-941
▁be	-942
sąjungos	-943
pan	-944
iudžeto	-945
eikš	-946
isab	-947
uli	-948
amin	-949
▁Taip	-950
yr	-951
▁kas	-952
koti	-953
vid	-954
elio	-955
elis	-956
turėtų	-957
▁svarbu	-958
iją	-959
kuren	-960
ultat	-961
▁li	-962
aukš	-963
iniai	-964
jo	-965
▁lyg	-966
ijoje	-967
manau	-968
▁pasir	-969
pareigoj	-970
▁inform	-971
uotoj	-972
organiz	-973
imato	-974
ėn	-975
emi	-976
▁Be	-977
tinio	-978
isabonos	-979
▁ati	-980
sid	-981
inimą	-982
veikat	-983
alies	-984
▁vid	-985
▁bendradarbi	-986
iek	-987
kurti	-988
▁Gerb	-989
▁šalių	-990
▁teisių	-991
kre	-992
▁komi	-993
rakcijos	-994
ytų	-995
inimas	-996
kurie	-997
avau	-998
ėmesį	-999
▁nori	-1000
▁sektori	-1001
problem	-1002
teres	-1003
yz	-1004
imt	-1005
teri	-1006
▁C	-1007
▁bend	-1008
ig	-1009
ėtr	-1010
žiūr	-1011
▁toki	-1012
parlamento	-1013
sižvelgiant	-1014
rez	-1015
umat	-1016
▁atvej	-1017
▁manau	-1018
▁sąlyg	-1019
▁ekonom	-1020
ines	-1021
▁te	-1022
teb	-1023
neg	-1024
padė	-1025
ūkio	-1026
žvil	-1027
bend	-1028
▁nuos	-1029
▁visų	-1030
ger	-1031
kal	-1032
liek	-1033
▁:	-1034
ner	-1035
▁jis	-1036
▁nei	-1037
▁iki	-1038
tipr	-1039
atsak	-1040
▁pateik	-1041
katin	-1042
ėja	-1043
įsi	-1044
▁sav	-1045
▁šių	-1046
▁laisv	-1047
džio	-1048
yriausyb	-1049
▁kol	-1050
cip	-1051
▁sus	-1052
ingas	-1053
▁tais	-1054
komisija	-1055
rodo	-1056
ją	-1057
pras	-1058
▁Vis	-1059
acija	-1060
įgyvend	-1061
šį	-1062
▁ly	-1063
kreip	-1064
▁tink	-1065
sistem	-1066
inici	-1067
▁ekonomikos	-1068
iet	-1069
▁met	-1070
▁tarptau	-1071
▁kiek	-1072
pilie	-1073
▁sp	-1074
joje	-1075
sižvelg	-1076
žvilgiu	-1077
aki	-1078
mano	-1079
iniciatyv	-1080
▁galimyb	-1081
▁sudar	-1082
▁Parlamentas	-1083
išk	-1084
ol	-1085
▁progr	-1086
▁klausimas	-1087
būt	-1088
tikos	-1089
▁galima	-1090
▁srityje	-1091
skait	-1092
institu	-1093
▁naudoj	-1094
ug	-1095
ats	-1096
kiri	-1097
tiksl	-1098
▁tiek	-1099
▁jie	-1100
▁2	-1101
lob	-1102
▁visiškai	-1103
ob	-1104
dymo	-1105
▁metų	-1106
ybai	-1107
ond	-1108
angi	-1109
įst	-1110
▁kurį	-1111
▁direktyv	-1112
rėžti	-1113
▁žmogaus	-1114
šių	-1115
iniu	-1116
▁kurių	-1117
pasiūlym	-1118
▁arba	-1119
▁šiandien	-1120
jai	-1121
mums	-1122
tinę	-1123
pone	-1124
▁Tarybos	-1125
▁požiūri	-1126
ingai	-1127
▁Mes	-1128
poli	-1129
▁pagal	-1130
ažn	-1131
tinis	-1132
liau	-1133
kurios	-1134
tariu	-1135
apsaug	-1136
▁pasaul	-1137
diskusij	-1138
sut	-1139
▁didži	-1140
▁prival	-1141
pirminink	-1142
gerb	-1143
abiau	-1144
vairi	-1145
aiškiai	-1146
gai	-1147
▁šią	-1148
▁min	-1149
▁¦200	-1150
▁atsi	-1151
narių	-1152
svarst	-1153
▁kov	-1154
▁rezoliu	-1155
▁Manau	-1156
▁laiko	-1157
▁žmonių	-1158
padar	-1159
social	-1160
▁demokra	-1161
mas	-1162
▁pranešimą	-1163
etą	-1164
▁ką	-1165
▁st	-1166
sien	-1167
tarti	-1168
priklaus	-1169
▁užtikrin	-1170
teisės	-1171
▁dalyv	-1172
auja	-1173
okum	-1174
aipsn	-1175
valstybių	-1176
▁priemonių	-1177
▁prin	-1178
▁įmon	-1179
▁šis	-1180
tinai	-1181
usij	-1182
fi	-1183
šios	-1184
ėjimo	-1185
nustat	-1186
laud	-1187
vaiz	-1188
▁toli	-1189
vertin	-1190
vyst	-1191
ino	-1192
inant	-1193
▁el	-1194
ansporto	-1195
kiu	-1196
▁sun	-1197
▁pagalb	-1198
eišk	-1199
tang	-1200
stų	-1201
▁plan	-1202
tinį	-1203
▁tvar	-1204
▁Sąjunga	-1205
ąją	-1206
omas	-1207
aisto	-1208
it	-1209
aciją	-1210
▁Ž	-1211
teto	-1212
aži	-1213
nų	-1214
kom	-1215
kie	-1216
slo	-1217
eks	-1218
papras	-1219
▁veiksmų	-1220
daugiau	-1221
▁visuomen	-1222
▁jei	-1223
▁raštu	-1224
▁?	-1225
aulio	-1226
riež	-1227
narės	-1228
▁nacional	-1229
▁vertin	-1230
škia	-1231
metu	-1232
kios	-1233
▁veikl	-1234
prad	-1235
andar	-1236
esio	-1237
sutar	-1238
region	-1239
veikatos	-1240
tikr	-1241
fer	-1242
irš	-1243
▁nu	-1244
iškai	-1245
trol	-1246
ūrin	-1247
▁jog	-1248
▁pasakyti	-1249
tę	-1250
ytas	-1251
▁dirb	-1252
▁sumaž	-1253
terų	-1254
▁toliau	-1255
laid	-1256
▁prekybos	-1257
▁pasiūl	-1258
esni	-1259
▁pakeitim	-1260
nel	-1261
tir	-1262
▁išs	-1263
▁tap	-1264
▁ry	-1265
vesti	-1266
ėjusi	-1267
ies	-1268
šis	-1269
kius	-1270
aliai	-1271
▁padėti	-1272
ūrų	-1273
▁žemės	-1274
▁di	-1275
ib	-1276
▁rinkos	-1277
užtikrinti	-1278
▁veiksming	-1279
▁proces	-1280
čiams	-1281
▁atei	-1282
▁viet	-1283
▁galėtų	-1284
▁klausimą	-1285
▁energijos	-1286
nėra	-1287
▁asmen	-1288
šio	-1289
siekiant	-1290
▁būtina	-1291
▁kok	-1292
džiai	-1293
fik	-1294
▁gam	-1295
▁produk	-1296
ens	-1297
oji	-1298
▁Pon	-1299
▁šalim	-1300
▁kuriuos	-1301
▁tyrim	-1302
ekonom	-1303
traukti	-1304
▁Norėčiau	-1305
dirb	-1306
▁.,	-1307
chno	-1308
likti	-1309
ėtros	-1310
chnolog	-1311
tui	-1312
mokes	-1313
▁nors	-1314
▁varto	-1315
katinti	-1316
skaitant	-1317
ate	-1318
pab	-1319
▁kel	-1320
naudoj	-1321
kuris	-1322
etikos	-1323
fektyv	-1324
00	-1325
jis	-1326
anty	-1327
anks	-1328
▁kurią	-1329
▁paslaug	-1330
tyv	-1331
ėjimą	-1332
susijusi	-1333
ran	-1334
emti	-1335
tvark	-1336
din	-1337
ingsn	-1338
bei	-1339
▁201	-1340
ragin	-1341
▁geri	-1342
politikos	-1343
audoti	-1344
omos	-1345
aisant	-1346
▁	-1347
i	-1348
¦	-1349
a	-1350
s	-1351
t	-1352
r	-1353
o	-1354
e	-1355
n	-1356
u	-1357
k	-1358
m	-1359
p	-1360
l	-1361
d	-1362
j	-1363
v	-1364
g	-1365
,	-1366
b	-1367
ų	-1368
y	-1369
ė	-1370
.	-1371
š	-1372
ą	-1373
ž	-1374
𐋇	-1375
į	-1376
ū	-1377
c	-1378
č	-1379
E	-1380
z	-1381
f	-1382
ę	-1383
P	-1384
T	-1385
0	-1386
-	-1387
S	-1388
K	-1389
2	-1390
(	-1391
)	-1392
B	-1393
A	-1394
𐊣	-1395
𐊼	-1396
1	-1397
h	-1398
"	-1399
M	-1400
V	-1401
D	-1402
N	-1403
J	-1404
R	-1405
G	-1406
L	-1407
Š	-1408
I	-1409
:	-1410
9	-1411
5	-1412
?	-1413
3	-1414
7	-1415
4	-1416
8	-1417
;	-1418
C	-1419
6	-1420
O	-1421
F	-1422
U	-1423
Ž	-1424
/	-1425
H	-1426
Į	-1427
w	-1428
!	-1429
Č	-1430
Y	-1431
W	-1432
x	-1433
é	-1434
%	-1435
q	-1436
á	-1437
'	-1438
ö	-1439
Z	-1440
X	-1441
Ū	-1442
è	-1443
í	-1444
ó	-1445
ü	-1446
+	-1447
ä	-1448
ş	-1449
ă	-1450
Q	-1451
[	-1452
&	-1453
]	-1454
ß	-1455
ń	-1456
ć	-1457
ø	-1458
ú	-1459
°	-1460
ķ	-1461
à	-1462
ê	-1463
ï	-1464
ň	-1465
ł	-1466
·	-1467
ý	-1468
ő	-1469
ţ	-1470
ż	-1471
ç	-1472
ñ	-1473
Ţ	-1474
Á	-1475
Ö	-1476
_	-1477
ò	-1478
ī	-1479
ľ	-1480
̨	-1481
έ	-1482
π	-1483
ρ	-1484
•	-1485
É	-1486
Í	-1487
Ó	-1488
Ő	-1489
Ř	-1490
ś	-1491
Ş	-1492
Υ	-1493
”	-1494
ř	-1495
υ	-1496
