<pad>	0
</s>	0
<unk>	0
¦	-1.29844
▁¦	-1.29868
▁.	-3.73133
ال	-4.11169
ة	-4.12517
ا	-4.17615
و	-4.64238
في	-4.86698
من	-4.92678
وا	-4.98787
ى	-5.00938
ه	-5.07082
ي	-5.1319
ّ	-5.34641
لى	-5.45418
ع	-5.47546
ان	-5.49232
ل	-5.49445
ك	-5.5012
ون	-5.5377
الرب	-5.55456
ب	-5.5965
ين	-5.65976
ت	-5.66027
ف	-5.69011
كل	-5.88068
لا	-5.91117
هم	-6.02645
م	-6.03963
ها	-6.05952
الذي	-6.16981
ن	-6.24555
ما	-6.2828
كم	-6.40506
اسرائيل	-6.44326
يا	-6.45159
قد	-6.45571
نا	-6.49649
لل	-6.51516
وال	-6.53315
هذا	-6.60448
الله	-6.60549
هو	-6.60904
ولا	-6.61269
لم	-6.65064
له	-6.69348
ذا	-6.7327
د	-6.7396
الارض	-6.75328
التي	-6.7956
فقال	-6.86598
لان	-6.8769
لي	-6.88294
جميع	-6.91163
عن	-6.92701
يضا	-6.92794
بيت	-6.96032
بن	-6.99229
كان	-7.02191
ر	-7.05961
ملك	-7.06739
الملك	-7.0675
وقال	-7.06982
رب	-7.08975
بال	-7.10057
اء	-7.10437
انا	-7.11095
قال	-7.11649
ذلك	-7.12622
واحد	-7.12745
ني	-7.14431
مع	-7.15869
ذين	-7.19832
بني	-7.22095
لانه	-7.22222
اود	-7.22528
بل	-7.22684
كذا	-7.26542
ثم	-7.2659
ذه	-7.27241
به	-7.29932
وكان	-7.3124
لهم	-7.31379
يسو	-7.32632
عند	-7.33307
اليوم	-7.38113
اذا	-7.39319
حت	-7.40171
الشعب	-7.4222
كما	-7.42956
هنا	-7.44119
امام	-7.44813
يهو	-7.47359
ايام	-7.47669
وكل	-7.48754
بعد	-7.49373
ارض	-7.49434
قائلا	-7.51249
ابن	-7.52581
عل	-7.54445
مدين	-7.5466
اور	-7.54883
عليه	-7.54914
يكون	-7.5598
انت	-7.57922
شليم	-7.58057
أ	-7.58244
وي	-7.58544
ء	-7.58924
ومن	-7.60002
موس	-7.60023
وه	-7.61517
حسب	-7.64056
ولم	-7.66498
عشر	-7.66535
انه	-7.67434
واما	-7.67535
ليس	-7.6755
لك	-7.69147
يقول	-7.70809
لكي	-7.7178
لكم	-7.71842
وفي	-7.72065
او	-7.72385
بنو	-7.72402
س	-7.73707
بين	-7.74682
ولكن	-7.75049
وت	-7.75425
ات	-7.76204
ق	-7.76323
كلام	-7.79247
مصر	-7.79975
حين	-7.80578
هي	-7.80864
ام	-7.82068
وع	-7.82767
ته	-7.83489
كثير	-7.86172
رجل	-7.89298
اني	-7.90589
شعب	-7.91738
سن	-7.91794
ص	-7.93671
يوم	-7.96284
الم	-7.96323
وان	-7.97767
يها	-7.97828
الآن	-7.99255
مئ	-7.99881
ول	-8.00179
يد	-8.00339
اذ	-8.01005
اجل	-8.01156
احد	-8.01619
مت	-8.02024
امم	-8.03595
ير	-8.04384
عمل	-8.04595
مثل	-8.0651
نار	-8.0885
رجال	-8.09172
سماء	-8.09544
ار	-8.09609
بها	-8.10552
فيه	-8.11168
اله	-8.12252
ذهب	-8.12955
وسط	-8.13288
ولما	-8.14238
جاء	-8.14641
ش	-8.14806
عظيم	-8.15309
فلا	-8.15535
شي	-8.16134
قائل	-8.16431
لاني	-8.18136
دم	-8.20893
اما	-8.20958
وهو	-8.21105
معه	-8.212
انتم	-8.21321
ثلاث	-8.21634
اليه	-8.21921
تك	-8.22352
فا	-8.22663
الانسان	-8.23166
سمع	-8.23294
انسان	-8.23442
تكون	-8.25202
سبع	-8.25229
لاجل	-8.2666
ؤل	-8.26984
تي	-8.27235
ماء	-8.29242
ابي	-8.30034
شاو	-8.30505
فان	-8.30728
الكاهن	-8.32024
فلما	-8.32081
وب	-8.32327
تم	-8.32737
كلم	-8.33355
يعقوب	-8.33627
سيف	-8.33717
عيني	-8.34562
جدا	-8.37084
ناك	-8.38001
البيت	-8.38232
واذا	-8.38478
غير	-8.38498
اي	-8.39118
تحت	-8.39817
قبل	-8.40252
نحو	-8.40825
الرجل	-8.4125
ز	-8.41817
الهك	-8.41886
نحن	-8.41933
علي	-8.42143
هما	-8.42947
قدس	-8.43117
رئيس	-8.43163
الشر	-8.43607
فلم	-8.44222
هل	-8.44494
امر	-8.44702
رؤساء	-8.448
الكهن	-8.45226
لها	-8.45266
كنت	-8.45442
السيد	-8.45528
ث	-8.45536
لانهم	-8.45592
آ	-8.45752
ح	-8.45923
تهم	-8.46006
لنا	-8.47285
امرأ	-8.48271
مسيح	-8.48571
وم	-8.49021
ج	-8.49079
البحر	-8.49122
الابد	-8.4946
قلب	-8.49578
نفسه	-8.49603
صوت	-8.50074
اربع	-8.50403
بابل	-8.5049
ست	-8.50512
ولد	-8.5183
وجه	-8.52346
هرون	-8.52607
كانوا	-8.53277
الناس	-8.53397
عليهم	-8.5343
صار	-8.53911
حي	-8.54281
سليمان	-8.5569
فت	-8.56102
طريق	-8.565
تكلم	-8.56814
ارسل	-8.58913
غضب	-8.59409
عليك	-8.60113
جبل	-8.60133
باب	-8.60182
تلك	-8.60484
بعض	-8.60661
شعوب	-8.60708
لما	-8.60828
عنه	-8.61178
آخر	-8.61295
ئذ	-8.61745
نفسي	-8.62503
جه	-8.62703
فاجاب	-8.62853
الي	-8.6317
ور	-8.6401
كانت	-8.64051
مياه	-8.64721
نعم	-8.6474
يكن	-8.64792
لد	-8.64955
وهم	-8.65075
رأ	-8.65166
يس	-8.65474
لمسيح	-8.65892
الفلسطيني	-8.65994
هيم	-8.66503
وقد	-8.67262
سموات	-8.67448
غ	-8.68046
قدام	-8.68405
فرع	-8.68746
خيم	-8.69116
مر	-8.69373
ابرا	-8.69614
ويكون	-8.70053
وها	-8.70105
مدن	-8.70241
فض	-8.71107
خمس	-8.71119
اسمه	-8.71343
ابنه	-8.72867
يده	-8.72882
لكن	-8.73227
خ	-8.73557
اقول	-8.73906
وراء	-8.74545
بك	-8.74897
بي	-8.74922
وجميع	-8.75102
وانا	-8.75196
شوع	-8.75497
السن	-8.75587
مكان	-8.75993
ط	-8.77138
لانك	-8.77216
فم	-8.77297
يف	-8.77464
يق	-8.77686
شر	-8.77713
الروح	-8.77841
منه	-8.77866
فل	-8.78055
صنع	-8.78637
يت	-8.78866
ذبيح	-8.78967
خرج	-8.79411
الحق	-8.79608
فعل	-8.79893
نفسك	-8.79939
وس	-8.80136
الاول	-8.80393
ض	-8.80499
روح	-8.80897
البري	-8.81004
تقدم	-8.81597
مجد	-8.8168
فوق	-8.8186
ئلا	-8.81934
اليك	-8.82358
عبد	-8.82484
ايمان	-8.82554
يين	-8.84253
اذهب	-8.84991
سيدي	-8.85321
اكثر	-8.8557
انذا	-8.86134
يسمع	-8.86551
غنم	-8.86802
قلوب	-8.87356
سبط	-8.87402
حكم	-8.87588
المذبح	-8.87745
يدي	-8.87852
دار	-8.88581
حيث	-8.89143
يم	-8.89422
أمر	-8.89603
عبيد	-8.90208
معك	-8.91028
اسم	-8.91199
واخذ	-8.91687
انك	-8.91751
وعشر	-8.9198
لت	-8.92422
اليهود	-8.92442
وليس	-8.92609
منهم	-8.9267
راس	-8.92831
عبر	-8.94104
لجنود	-8.94204
بيته	-8.94858
وك	-8.95807
سر	-8.9605
تها	-8.9633
الطريق	-8.96632
انبياء	-8.97141
موضع	-8.97398
خدم	-8.99098
اردن	-8.99514
فن	-8.99541
نفس	-8.99658
تابوت	-8.99659
الموت	-8.99684
وقت	-9.00099
قو	-9.0055
يأتي	-9.00757
قوم	-9.00923
نحاس	-9.0117
الشهر	-9.01423
موت	-9.01936
لن	-9.01993
المرأ	-9.02357
العالم	-9.02903
ثان	-9.03023
شيئا	-9.0321
معي	-9.03796
والآن	-9.03807
سلام	-9.03825
وانت	-9.0386
الحقل	-9.03974
خارج	-9.04077
اسمع	-9.04232
قول	-9.04807
خطي	-9.05198
صور	-9.05708
اللاوي	-9.05825
دخل	-9.05858
خمر	-9.06103
قليل	-9.06231
آله	-9.07268
تقول	-9.07283
وسف	-9.07458
افرايم	-9.07537
ولس	-9.07575
حيا	-9.07733
باسم	-9.08071
ئ	-9.08361
بنيامين	-9.08709
جمع	-9.08752
قم	-9.08788
نساء	-9.08861
كذلك	-9.08981
وكانت	-9.09505
النبي	-9.09536
فكان	-9.1007
موآب	-9.10091
عبدك	-9.10162
وصايا	-9.10231
مكتوب	-9.1047
اولاد	-9.10484
جعل	-9.10536
سيد	-9.10932
الف	-9.11633
الثاني	-9.1168
منذ	-9.11699
وجاء	-9.11725
هيكل	-9.11837
تخم	-9.12031
بنت	-9.12061
ثمر	-9.12072
حق	-9.12126
وعمل	-9.12452
قلبه	-9.12503
ملاك	-9.12523
وق	-9.12799
سكان	-9.12809
الهكم	-9.1293
صباح	-9.13194
وادي	-9.13225
ملوك	-9.13489
بكل	-9.13806
يخرج	-9.13826
ابني	-9.13851
اخذ	-9.14326
الباب	-9.14591
جانب	-9.1483
الليل	-9.14936
الفا	-9.1495
خلاص	-9.14978
اليكم	-9.15215
يدك	-9.15244
ود	-9.15781
تر	-9.15801
كون	-9.15904
جيش	-9.15963
ابيه	-9.16353
شيوخ	-9.16384
العظيم	-9.16421
طرس	-9.16422
كثر	-9.16881
اخ	-9.17063
وكلم	-9.17547
لبني	-9.17561
وبنو	-9.17868
بلا	-9.17906
الجبل	-9.17951
اخر	-9.18102
قام	-9.18173
است	-9.18175
وما	-9.18178
يتكلم	-9.18437
وذهب	-9.18649
ضرب	-9.18694
ريح	-9.18741
عليكم	-9.19147
كال	-9.19585
الشمس	-9.1972
صهي	-9.19974
خير	-9.2002
فانه	-9.20069
اح	-9.2007
وملك	-9.20463
اعط	-9.20746
اشرار	-9.21009
وخمس	-9.21597
انظر	-9.21747
ذكر	-9.22084
اياه	-9.22097
لرب	-9.22217
خبز	-9.22237
بيد	-9.22279
الناموس	-9.22315
قلت	-9.22421
لكل	-9.22476
تين	-9.22652
ئيل	-9.22751
عهد	-9.2317
الآب	-9.23345
اخرج	-9.23526
اجتماع	-9.23547
اخي	-9.23564
بقي	-9.2393
قسم	-9.23973
عز	-9.24385
الواحد	-9.24445
موئيل	-9.24738
يعرف	-9.24969
منس	-9.25487
الشرير	-9.25512
قتل	-9.25576
بيوت	-9.25614
يموت	-9.25793
الاخو	-9.2588
الهي	-9.25985
يعلم	-9.2655
يعمل	-9.26794
صعد	-9.26923
يدخل	-9.27039
نصيب	-9.27308
خطايا	-9.27408
بكر	-9.27425
كرسي	-9.2749
انهم	-9.27499
شريع	-9.2752
اشور	-9.27545
عني	-9.27756
الفض	-9.28598
بنات	-9.28627
نهار	-9.28725
وثلاث	-9.28899
يفعل	-9.29071
وجد	-9.29565
ذراع	-9.29636
وجهه	-9.2991
ولل	-9.29944
رؤوس	-9.30082
وبعد	-9.30589
فرح	-9.30804
قلبك	-9.30965
حسن	-9.31066
رجلا	-9.31138
تعمل	-9.31165
ارمي	-9.32142
بري	-9.3269
آب	-9.32734
طعام	-9.33045
وني	-9.33133
زمان	-9.33375
دان	-9.33528
عدد	-9.33649
فاخذ	-9.33701
تلاميذه	-9.33707
اب	-9.34258
تكم	-9.34365
سبت	-9.34563
الثالث	-9.34768
فهو	-9.34951
يش	-9.3496
سار	-9.35005
عوض	-9.35143
سنين	-9.35236
يوس	-9.356
أت	-9.35714
مات	-9.35734
الذهب	-9.35766
كثيرا	-9.35879
نجس	-9.35943
مساء	-9.3606
وش	-9.36078
وضع	-9.36149
قلبي	-9.36492
فقالت	-9.36514
سلطان	-9.36817
ملكوت	-9.36934
فجاء	-9.3699
داخل	-9.37138
ابواب	-9.37159
الجسد	-9.37173
يقتل	-9.37301
لحم	-9.37553
اهل	-9.37912
آباء	-9.38003
حزقيا	-9.38055
وارسل	-9.38092
قريب	-9.38116
مد	-9.38203
معا	-9.38423
خرب	-9.38465
بهم	-9.38726
تعلم	-9.38848
دور	-9.39086
لانكم	-9.39192
لست	-9.39261
راسه	-9.39361
قل	-9.39377
ولي	-9.39488
جلعاد	-9.39532
معهم	-9.39889
ارجع	-9.40059
الشمال	-9.4029
حجار	-9.40349
فارسل	-9.40391
خذ	-9.40408
آبائ	-9.40517
تن	-9.40609
خيل	-9.40689
حجر	-9.40844
أليس	-9.41178
الحرب	-9.41329
الجب	-9.42241
ونزل	-9.42301
قا	-9.42771
يوجد	-9.42957
وضرب	-9.4296
بما	-9.43121
زوج	-9.43249
ايل	-9.43361
السابع	-9.434
قر	-9.43461
لوم	-9.43531
ارام	-9.43666
فخرج	-9.43716
ابنا	-9.43939
عيون	-9.44134
وزن	-9.44168
كله	-9.44662
يقدر	-9.44685
سفر	-9.44715
آلا	-9.4476
الجماع	-9.45306
آبائه	-9.45342
أما	-9.45369
مقدس	-9.45412
امه	-9.45688
السامر	-9.45798
رحم	-9.45987
عشير	-9.4652
عد	-9.46638
فهم	-9.47043
رأيت	-9.47045
جماع	-9.47079
بت	-9.47641
الساكن	-9.47741
رجع	-9.47743
مس	-9.47769
نور	-9.47966
سمعت	-9.48107
ادوم	-9.48235
بسبب	-9.48375
خل	-9.48456
خبزا	-9.48643
وقل	-9.48688
عمله	-9.4904
الامر	-9.49372
البر	-9.49462
هن	-9.49472
طوب	-9.49488
اثنا	-9.49768
يصنع	-9.49912
صالح	-9.50048
ليد	-9.50226
اصعد	-9.50353
ويل	-9.50524
يأكل	-9.50838
وجعل	-9.50953
النهر	-9.51076
الدم	-9.51121
يمين	-9.51194
شف	-9.51319
فر	-9.51351
آم	-9.51354
كن	-9.51391
وعل	-9.51472
مالك	-9.51481
شعبه	-9.5182
اعمال	-9.51825
وخرج	-9.51899
اليهم	-9.51993
وص	-9.52436
فاني	-9.52464
المحل	-9.52528
المدن	-9.52719
ساكن	-9.52746
فقد	-9.52833
انكم	-9.5295
ذبح	-9.53032
ابشا	-9.53617
وأ	-9.53815
فقام	-9.5392
كف	-9.53936
يقولون	-9.54075
وتكون	-9.54214
الوقت	-9.54303
جبال	-9.5431
نوح	-9.54348
الجنوب	-9.54496
معكم	-9.54731
وآب	-9.55103
واربع	-9.55203
واذ	-9.55242
يونا	-9.55289
جلد	-9.55332
شاقل	-9.55361
الخطي	-9.55637
يربع	-9.5601
افعل	-9.5611
جسد	-9.56194
انفس	-9.56289
بعيد	-9.56515
سبي	-9.56789
قضاء	-9.56885
مذبح	-9.56894
تسمع	-9.57145
عمون	-9.57197
شعر	-9.57224
اسمك	-9.57431
بان	-9.57458
وهي	-9.57909
حلف	-9.57978
فيكون	-9.5829
قدم	-9.58414
نزل	-9.59222
بشر	-9.59383
اموات	-9.59608
وصل	-9.59679
احكام	-9.59734
شرق	-9.59834
السلام	-9.59894
فعلت	-9.59907
اد	-9.60184
جر	-9.60212
الحيا	-9.60468
حول	-9.60471
سقط	-9.60487
وسبع	-9.60693
مملك	-9.60731
وجوه	-9.60962
المصري	-9.60983
يوحنا	-9.6137
حر	-9.61461
تخرج	-9.61824
يقوم	-9.61897
واقام	-9.62203
الحي	-9.62533
تدخل	-9.62689
رسل	-9.62699
عين	-9.62739
مبارك	-9.62819
شق	-9.62901
اسحق	-9.63242
خشب	-9.63289
فرائض	-9.6329
اسباط	-9.63302
وخ	-9.63419
محرق	-9.63459
للملك	-9.63716
انفسهم	-9.64121
اثني	-9.64134
اعلم	-9.64171
نصف	-9.64189
علين	-9.64304
قص	-9.64359
سكن	-9.64369
اجعل	-9.64408
ثوب	-9.64418
سي	-9.64421
اق	-9.6461
سخط	-9.64672
از	-9.65248
كسر	-9.65254
دائم	-9.6557
فمن	-9.65673
رت	-9.65696
وانتم	-9.65704
يئيل	-9.65746
الدهر	-9.65758
بر	-9.6581
عبيده	-9.65849
اخطأ	-9.65914
وست	-9.66304
ظلم	-9.66338
ايليا	-9.66492
حديد	-9.66494
عينيه	-9.66528
لنفسه	-9.66571
قبر	-9.66891
اص	-9.67074
الظلم	-9.6711
را	-9.67272
ظل	-9.67293
تكلمت	-9.67329
شد	-9.67398
تعلمون	-9.67482
وج	-9.67603
ثياب	-9.67619
خوف	-9.67836
فقط	-9.68024
فاط	-9.68091
امور	-9.68107
الاثم	-9.68148
امامك	-9.6819
بحسب	-9.68279
تعرف	-9.6832
كذب	-9.68393
يطلب	-9.68439
بار	-9.68479
ياء	-9.68589
المقدس	-9.68615
تأتي	-9.68633
عام	-9.68807
اخو	-9.68986
عر	-9.69057
قدر	-9.69059
كنعان	-9.69152
جاد	-9.69265
ومات	-9.69274
اثم	-9.69392
لجميع	-9.69545
تنا	-9.69735
لانها	-9.69789
اعدائ	-9.69904
خزي	-9.70032
ترك	-9.7014
سب	-9.70148
وصي	-9.70189
تلاميذ	-9.70203
جمهور	-9.70226
بئر	-9.70227
اسمي	-9.70384
الرابع	-9.70426
اجر	-9.70527
قطع	-9.706
اخوته	-9.70605
سلا	-9.70816
اذرع	-9.70884
صر	-9.71005
نير	-9.71054
واقف	-9.71155
وصعد	-9.71356
يجد	-9.71695
الحكم	-9.71749
شجر	-9.71786
واعط	-9.7184
يعطي	-9.71856
برك	-9.72004
وقف	-9.72009
كهن	-9.72177
بقر	-9.72233
وأت	-9.72388
شحم	-9.72425
مض	-9.72486
يدع	-9.72641
زرع	-9.72644
ودعا	-9.72688
طول	-9.72787
كنتم	-9.72792
امان	-9.72984
رد	-9.73039
زيت	-9.73138
شرا	-9.73148
حواليه	-9.73174
عبيدك	-9.73316
علم	-9.73347
جعلت	-9.73366
غن	-9.73474
مل	-9.73558
ضيق	-9.73918
وحده	-9.74201
اذكر	-9.7429
مكانه	-9.74536
طرق	-9.74599
عرض	-9.75077
سك	-9.75104
شبه	-9.75204
شا	-9.75345
اخبر	-9.75454
ليكن	-9.75614
داني	-9.7564
مسكن	-9.75735
ليست	-9.75877
واسم	-9.75903
ووضع	-9.75912
المحرق	-9.7601
خيرا	-9.76169
وعن	-9.76174
الصد	-9.76201
اس	-9.76381
يتها	-9.76589
ملكا	-9.76614
وبين	-9.76767
حزن	-9.76924
نسل	-9.76991
الغرب	-9.77004
آتي	-9.77061
امرأت	-9.77286
اقداس	-9.77405
قت	-9.77727
جنود	-9.77865
المسكن	-9.77999
رام	-9.78195
خراب	-9.78284
تكن	-9.78345
جت	-9.78506
ابدي	-9.78586
ذراعا	-9.78751
تعب	-9.78963
ضد	-9.78966
تت	-9.79021
ووقف	-9.79173
عظم	-9.7927
تأكل	-9.79348
يرجع	-9.79395
لبس	-9.79707
امامه	-9.79753
عنده	-9.79976
ذ	-9.8027
نهاي	-9.80451
يذهب	-9.80481
مطر	-9.80893
صاحبه	-9.81168
عشائرهم	-9.81284
مركبات	-9.8152
عود	-9.81702
ملأ	-9.81781
انها	-9.81837
اطلب	-9.81926
رمل	-9.81959
يهويا	-9.8225
لبن	-9.82558
ثيابه	-9.82591
تصنع	-9.82722
وث	-9.82748
فقلت	-9.82843
جن	-9.82955
اعظم	-9.83426
خلص	-9.83458
ودخل	-9.83487
سور	-9.83545
تفعل	-9.83919
اجاب	-9.84245
وط	-9.84331
بغي	-9.84518
معل	-9.84572
ايديهم	-9.84581
لبيت	-9.85008
ثور	-9.85042
اولا	-9.85129
ربنا	-9.85171
بنين	-9.85211
آسا	-9.85324
فأت	-9.85447
السبع	-9.85464
وز	-9.856
رجاء	-9.85608
الاله	-9.85609
الكلداني	-9.85739
مقابل	-9.85783
ميت	-9.85797
داع	-9.8581
طس	-9.85976
حمل	-9.86036
ميراث	-9.86043
حلم	-9.86135
واجعل	-9.86189
محب	-9.86211
جديد	-9.86213
وبقي	-9.86563
يوآ	-9.87156
عظام	-9.87197
الآخر	-9.8722
تني	-9.87228
نظر	-9.87236
كرم	-9.87434
بيده	-9.87553
عرف	-9.87595
طلب	-9.87669
فدعا	-9.87716
مح	-9.87857
يه	-9.88303
حن	-9.88391
وبيت	-9.88622
بأس	-9.88653
تأخذ	-9.8874
بعل	-9.88877
وصنع	-9.88934
هاوي	-9.88948
بيتك	-9.88998
فاذا	-9.89001
وجهك	-9.891
بهائم	-9.89188
عزر	-9.89266
خر	-9.89273
خبر	-9.89382
وصار	-9.89427
صرت	-9.89543
حل	-9.8957
بصوت	-9.89587
حد	-9.89681
فدخل	-9.89682
شهر	-9.89717
ظهر	-9.89875
مرتفعات	-9.89914
ادخل	-9.89922
محل	-9.90106
محرقات	-9.90108
الثلاث	-9.90325
باطل	-9.90327
عصا	-9.90377
يحفظ	-9.90381
الكلم	-9.90386
رفع	-9.90455
نفوس	-9.90659
يثبت	-9.90751
فتح	-9.90816
ذبائح	-9.90933
حرب	-9.90967
الغد	-9.91069
اخوت	-9.91081
اعين	-9.91145
يديه	-9.91434
رق	-9.91537
بوق	-9.91556
عنك	-9.91646
ابيك	-9.91659
عيد	-9.9175
رأوبين	-9.91795
امير	-9.91797
حامل	-9.91829
معرف	-9.91861
شيطان	-9.91903
جئت	-9.91904
هلاك	-9.92165
سائر	-9.92306
لموس	-9.92397
فصح	-9.92399
ايدي	-9.92483
وح	-9.92598
ارتحل	-9.92862
احب	-9.92917
اسد	-9.92941
اقوال	-9.9303
حبرون	-9.93186
ميخا	-9.93187
اول	-9.93282
جيد	-9.93359
صنعت	-9.93379
حقل	-9.93472
فق	-9.93558
واخبر	-9.93889
فمه	-9.93924
فس	-9.94065
حو	-9.94066
حمي	-9.94313
صل	-9.94327
وسجد	-9.94441
بارك	-9.94544
حور	-9.94574
آباؤ	-9.94669
كلمات	-9.94854
فذهب	-9.949
المغن	-9.94932
غريب	-9.95073
ابا	-9.95137
مسح	-9.9532
كامل	-9.95345
دفع	-9.95557
رم	-9.95608
معنا	-9.95619
كنيس	-9.95656
شبع	-9.95685
وعند	-9.95696
نذر	-9.95749
وجدت	-9.95791
دقيق	-9.95798
الجليل	-9.95806
سجن	-9.95848
اخت	-9.95862
خرجت	-9.95876
طيور	-9.95902
باش	-9.95922
دعا	-9.95942
بكم	-9.95948
جمال	-9.96112
ياتي	-9.96273
ضعف	-9.96374
سرور	-9.96494
كر	-9.96576
وهذا	-9.96588
ريحا	-9.96593
وجهي	-9.96772
ثماني	-9.96773
يسلم	-9.96847
تخوم	-9.96957
والذي	-9.96982
يل	-9.97023
فلي	-9.97059
وانظر	-9.97257
يسقط	-9.97321
راح	-9.97356
فصعد	-9.97386
ابناء	-9.97403
ومت	-9.97704
السحاب	-9.97734
فتكون	-9.97739
بنيه	-9.97753
نسلك	-9.97782
اش	-9.97783
قط	-9.9783
حكماء	-9.97871
ارز	-9.97958
غفر	-9.981
منظر	-9.98159
لصوت	-9.98166
سأل	-9.98316
قدامه	-9.98344
زن	-9.98458
رؤيا	-9.98593
فما	-9.98595
وقتل	-9.98649
عشب	-9.98659
صغير	-9.98806
بحر	-9.98862
الامور	-9.98863
المر	-9.99098
جد	-9.9912
اط	-9.99145
قضي	-9.99302
قاد	-9.99343
شاهد	-9.99369
ملائك	-9.99451
يجعل	-9.99508
اقام	-9.99606
تعد	-9.99697
عبدي	-9.99814
تسبيح	-9.99857
داب	-9.99886
حاز	-9.99913
اجتمع	-9.99922
قيم	-9.99962
واللاوي	-9.99963
الملوك	-9.99982
آمن	-10.0012
ارفع	-10.0012
بث	-10.0014
تذكر	-10.0017
ظلام	-10.004
لاوي	-10.0046
مستقيم	-10.0059
مجمع	-10.0091
ذنب	-10.01
العهد	-10.0108
قيل	-10.011
يأخذ	-10.0121
نقي	-10.0136
شديد	-10.0142
يوما	-10.0148
تعط	-10.0151
ناموس	-10.0157
ورؤساء	-10.0161
آني	-10.0171
اعطيت	-10.0174
القت	-10.0177
نج	-10.0186
يسكن	-10.0192
عم	-10.0197
عار	-10.0216
انجيل	-10.0224
تخف	-10.0228
تنظر	-10.0231
غش	-10.0241
قب	-10.0242
صرف	-10.0252
افكار	-10.0265
اراضي	-10.0266
عابر	-10.0279
سل	-10.028
بخور	-10.0285
وقالت	-10.0287
آيات	-10.0294
قي	-10.0294
وقع	-10.0304
تذهب	-10.0304
يقبل	-10.0307
ورجع	-10.031
بينهم	-10.0311
عندك	-10.0375
اخيه	-10.0401
اناس	-10.0415
قري	-10.0419
صانع	-10.042
ارد	-10.0444
القديس	-10.0448
نهب	-10.0467
كنا	-10.0476
غر	-10.0485
مما	-10.0505
الجوع	-10.0507
حفظ	-10.0507
يقف	-10.0519
قدوس	-10.0519
الخبز	-10.0546
فريض	-10.0553
جب	-10.0559
يحب	-10.0581
إ	-10.0586
الصالح	-10.0586
دوا	-10.0591
حمو	-10.0593
يصعد	-10.0606
امي	-10.0611
رحب	-10.0613
ارسلت	-10.0615
الكتاب	-10.0619
اطلق	-10.0632
فه	-10.0646
وعد	-10.0651
الشرق	-10.0654
بد	-10.0656
حم	-10.0657
صب	-10.066
برص	-10.0672
ردي	-10.0681
مز	-10.0687
المجد	-10.069
سريع	-10.0701
مرض	-10.0704
سم	-10.0707
فصار	-10.0708
هدي	-10.0724
يعل	-10.073
حراس	-10.0732
دون	-10.0735
ولدت	-10.0754
ظ	-10.076
تسع	-10.0764
واخوته	-10.0765
ثاني	-10.0767
البقر	-10.0768
فني	-10.0775
قفر	-10.0777
النور	-10.0782
يخبر	-10.0785
الخير	-10.0804
عشائر	-10.0818
الكذب	-10.082
اضطجع	-10.0838
شكيم	-10.085
تعليم	-10.0854
جبابر	-10.086
مسكين	-10.0861
حنط	-10.0861
وقلت	-10.0863
اصل	-10.0886
غدا	-10.0896
حبل	-10.0905
عهدا	-10.0908
يسر	-10.0922
اليهودي	-10.0923
التراب	-10.093
عبده	-10.0931
شمعي	-10.0938
اعطي	-10.0944
غسل	-10.0953
خجل	-10.0966
يز	-10.0973
يبق	-10.0994
طريقه	-10.0998
نهر	-10.1003
مدخل	-10.1017
بعضهم	-10.1022
لئك	-10.103
جبع	-10.1035
والم	-10.1039
قرع	-10.1043
ذي	-10.1046
صراخ	-10.1053
بطن	-10.1083
واصعد	-10.1088
غضبه	-10.1093
ؤ	-10.1099
عرفت	-10.1101
الساع	-10.1114
مرد	-10.1118
فخر	-10.1122
هرب	-10.1123
فضرب	-10.113
ابوه	-10.1138
اذن	-10.1149
خزائن	-10.1154
المعدود	-10.1155
حائط	-10.1155
رائح	-10.1157
يؤمن	-10.1161
ففعل	-10.1163
سكب	-10.1188
نجسا	-10.1198
صف	-10.1201
ليكون	-10.1205
الق	-10.1212
السفين	-10.1214
جالس	-10.1218
لسان	-10.1226
الصبي	-10.1233
فمات	-10.1245
اصنع	-10.1252
ونها	-10.1258
هلم	-10.126
اصر	-10.1281
جز	-10.1287
كلهم	-10.1292
جموع	-10.1316
بالحق	-10.1325
دعوا	-10.1329
در	-10.1363
وعر	-10.138
علمت	-10.1389
دعي	-10.1397
الفريسي	-10.1398
فسمع	-10.142
عاد	-10.1432
اتكلم	-10.1436
رجليه	-10.1438
ركب	-10.1445
ابنك	-10.1455
عينا	-10.147
مشور	-10.1472
جاز	-10.1486
ائيل	-10.1492
يخطئ	-10.1492
رحمته	-10.1502
الههم	-10.1504
جوع	-10.1513
مزم	-10.1528
حقا	-10.1541
سا	-10.1567
قوي	-10.1589
سوا	-10.1593
تدع	-10.16
يهوش	-10.1609
ونني	-10.1618
انهار	-10.1619
وسار	-10.162
حولي	-10.1621
عجل	-10.1627
صدق	-10.1631
الخامس	-10.1631
بق	-10.1639
يقيم	-10.1642
يصير	-10.1648
سيده	-10.1657
بكلام	-10.1666
وتصنع	-10.1668
ياكل	-10.17
عالم	-10.1712
اجمع	-10.1713
وحدث	-10.1727
ذو	-10.1735
ومض	-10.1736
وسمع	-10.1744
قربان	-10.1745
بالرب	-10.1745
حدث	-10.1748
ورأ	-10.1757
ملكه	-10.176
لوط	-10.1761
يرفع	-10.1776
ويجعل	-10.1785
حافظ	-10.1795
افواه	-10.1796
دمشق	-10.1802
افضل	-10.1824
سين	-10.1828
الصخر	-10.1834
فطير	-10.184
ثبت	-10.1847
صاعدا	-10.1847
حص	-10.186
العلي	-10.1868
شرب	-10.1869
يحمل	-10.1871
بجانب	-10.188
طرح	-10.1883
ابو	-10.1885
الكتب	-10.1893
الاربع	-10.1908
فد	-10.1937
الخارج	-10.1948
غلمان	-10.1965
ليل	-10.1965
فاخبر	-10.1969
كاهن	-10.1971
خاي	-10.1974
طرد	-10.1975
وراءه	-10.1977
وعبد	-10.1989
يعط	-10.1993
رنم	-10.2002
شهد	-10.2007
وتكلم	-10.2021
تس	-10.2025
عنهم	-10.203
الاموري	-10.2039
يسير	-10.204
العمل	-10.2043
رآه	-10.205
ونصف	-10.2055
روا	-10.2057
بسط	-10.206
ليشع	-10.2063
لستم	-10.2071
يعطيك	-10.2076
واخرج	-10.2076
كتاب	-10.2089
تقي	-10.2102
دهن	-10.2114
اعرف	-10.2125
يهلك	-10.2128
علام	-10.2134
دفن	-10.2137
رض	-10.2146
فرق	-10.2147
تموت	-10.2147
نبوخذن	-10.2182
باع	-10.219
وبن	-10.2195
شكر	-10.2207
يطلبون	-10.2213
تصير	-10.2225
تان	-10.2235
تقو	-10.2238
وحي	-10.2251
يوب	-10.2258
وعز	-10.2264
صاحب	-10.2275
صدقي	-10.2277
مرات	-10.2284
حسنا	-10.2287
تشدد	-10.229
وعبر	-10.2303
يستطيع	-10.2311
قض	-10.2324
طرقه	-10.2351
شار	-10.2354
نصب	-10.236
يخلص	-10.2388
ساع	-10.2392
خارجا	-10.2395
مريم	-10.2397
الملاك	-10.2403
كبير	-10.2409
اراد	-10.2409
فكلم	-10.2415
اقيم	-10.2416
العدل	-10.2424
لو	-10.2424
برج	-10.2447
الهه	-10.2453
الغريب	-10.2455
يكلم	-10.2466
صلب	-10.2478
آذان	-10.2479
تجار	-10.2483
غيظ	-10.2489
دخول	-10.2493
جند	-10.2495
قرون	-10.25
رعب	-10.2501
دعو	-10.2513
ذاك	-10.2521
اسماء	-10.2524
عدا	-10.2526
يات	-10.2528
ألعل	-10.2531
نبي	-10.2539
عور	-10.2562
بجميع	-10.2565
الكنعاني	-10.2568
احدا	-10.2569
قوس	-10.2572
ثلث	-10.2589
اطين	-10.2603
رفض	-10.2606
بسلام	-10.2619
نبو	-10.262
الجالس	-10.2633
روحي	-10.2651
حب	-10.2653
يرد	-10.2657
بيلا	-10.2659
فيكم	-10.2678
ويقول	-10.2679
تجد	-10.2693
غنيم	-10.2694
يوشي	-10.2698
تمثال	-10.2699
شم	-10.2699
ممالك	-10.2711
فنزل	-10.2721
أف	-10.2721
الباقي	-10.2722
لعام	-10.2724
المحب	-10.2731
حصن	-10.2733
طا	-10.2734
وحوش	-10.2736
وحش	-10.2739
وبنيه	-10.2762
يشرب	-10.2763
فصل	-10.2763
فأ	-10.2764
السبي	-10.2771
فأخذ	-10.2775
رفعت	-10.2776
المعز	-10.2779
يضع	-10.278
دين	-10.2782
دينون	-10.2814
اللذ	-10.2824
جلب	-10.2826
شهاد	-10.2828
طاهر	-10.2841
ارضه	-10.2845
الضيق	-10.2847
تحب	-10.2853
اشع	-10.2857
كتان	-10.2861
ومع	-10.2874
بالروح	-10.289
ترس	-10.2898
فرجع	-10.2904
تهلك	-10.2911
الكبير	-10.2914
لأ	-10.2915
يصل	-10.2922
المستقيم	-10.2927
عجائب	-10.2927
ويهو	-10.2947
حاج	-10.2957
اجيال	-10.2961
كشف	-10.2973
تقدر	-10.2975
نعلم	-10.298
رسلا	-10.3
وولد	-10.3005
وئيل	-10.3007
عملت	-10.3019
مضي	-10.3026
اقترب	-10.3026
نفتالي	-10.3026
ساق	-10.3027
السور	-10.3037
صخر	-10.3049
ثقل	-10.3065
غل	-10.3077
والي	-10.3077
يجلس	-10.3078
صحيح	-10.3104
اباه	-10.3115
زر	-10.3117
عينه	-10.312
الجيل	-10.3122
الكثير	-10.3134
لوقت	-10.3138
بلاد	-10.3154
رجلي	-10.3155
بط	-10.3159
وجلس	-10.3161
تثبت	-10.3164
مست	-10.3173
ينزل	-10.3176
ايم	-10.3178
وسطك	-10.3185
خبار	-10.3187
حيوان	-10.3203
آكل	-10.3216
فرز	-10.3218
حضر	-10.3232
ترنم	-10.3241
تعال	-10.3242
نس	-10.3242
اختار	-10.3244
لانفس	-10.3245
الاخير	-10.325
تجعل	-10.3252
ذل	-10.3256
ارضك	-10.326
ثورا	-10.3271
ألم	-10.328
ارضهم	-10.3282
عظ	-10.3292
يسمعون	-10.3293
ترجع	-10.3301
الحجر	-10.3307
ابتدأ	-10.3312
دع	-10.3316
جم	-10.3317
موا	-10.3334
مائد	-10.3363
العدو	-10.3384
وادخل	-10.339
صو	-10.3397
شعبا	-10.3405
اشجار	-10.3405
طالب	-10.3405
خادم	-10.3408
تنبأ	-10.3413
اسفل	-10.3417
حشب	-10.3425
فكي	-10.3428
تموه	-10.3431
غطاء	-10.3433
اشير	-10.3436
تعطي	-10.3457
عالي	-10.3457
منك	-10.3458
القديم	-10.3478
اريد	-10.3494
اوص	-10.3505
فكانت	-10.3529
حا	-10.3535
فارس	-10.3535
لانفسهم	-10.3535
لامام	-10.3547
سوف	-10.355
سدو	-10.3554
وقام	-10.3554
ارا	-10.3563
مخل	-10.3589
ثيران	-10.3602
كتب	-10.3603
مذابح	-10.3611
زبولون	-10.3613
شهود	-10.3613
مسرح	-10.3614
قلع	-10.3633
فليس	-10.3641
صادق	-10.3648
احفظ	-10.3675
ابد	-10.3679
امس	-10.3688
كلامك	-10.3689
قدمي	-10.3697
راحي	-10.3705
آخذ	-10.3708
غلام	-10.3712
قضا	-10.3726
تتكلم	-10.3736
اخوتك	-10.3739
تضع	-10.3743
البعل	-10.3744
احمد	-10.3746
صبر	-10.3762
فتقدم	-10.3774
عرش	-10.3776
آي	-10.3786
يعود	-10.3792
الصغير	-10.3799
ايادي	-10.3802
مملوء	-10.3802
هتاف	-10.3804
سير	-10.3805
الشهاد	-10.3805
هدم	-10.3806
شمعون	-10.3811
بقو	-10.3828
قدامك	-10.3845
شوك	-10.3846
مش	-10.3848
يفن	-10.3849
وقود	-10.3862
اخذت	-10.3866
الغلام	-10.3876
البار	-10.3879
ثق	-10.3879
ائه	-10.3882
فتن	-10.3883
رفق	-10.3883
يأكلون	-10.3905
ضل	-10.3912
سحاب	-10.3917
اصنام	-10.3918
النعم	-10.3918
تعل	-10.3918
عدم	-10.3924
قاء	-10.3932
قدير	-10.3967
شرك	-10.3968
فات	-10.3979
حوله	-10.3993
راسي	-10.4
ابواق	-10.4012
وعاش	-10.4013
ينظر	-10.4015
فوجد	-10.4015
ابيش	-10.4021
حز	-10.4028
غي	-10.4067
الوف	-10.4067
خروف	-10.4073
يترك	-10.4075
باطلا	-10.4082
يبصر	-10.4086
اليمن	-10.4097
يرسل	-10.4112
الرحم	-10.4125
الضرب	-10.4128
رؤ	-10.4133
كس	-10.4133
ورفع	-10.4134
رعا	-10.4135
يدين	-10.4141
بالاق	-10.4149
طو	-10.4153
تحفظ	-10.4155
قرب	-10.4164
تحمل	-10.4171
صوته	-10.4182
جبار	-10.4187
خاف	-10.42
حارب	-10.4211
قصر	-10.4213
اجتاز	-10.4214
الثامن	-10.4214
بغت	-10.4218
قرض	-10.4229
رحمتك	-10.4241
مسر	-10.4244
سلاح	-10.4246
صير	-10.4251
خدام	-10.4267
جلج	-10.4278
يجب	-10.4279
مجده	-10.4283
رون	-10.4287
الثور	-10.4293
رمح	-10.4295
غربا	-10.4309
السفر	-10.4311
سماعي	-10.4318
سجد	-10.4338
اكتب	-10.4344
قصب	-10.4348
ومسارح	-10.4352
قدسه	-10.4352
قوته	-10.4363
وار	-10.4367
بطل	-10.4379
ابصر	-10.4393
خي	-10.4396
غز	-10.4404
يعبر	-10.4406
بون	-10.4415
سكت	-10.4418
فخ	-10.4419
هيرودس	-10.4426
ذنوب	-10.4427
بالحري	-10.4427
ملعون	-10.4428
آثام	-10.4428
قيصر	-10.4429
ويش	-10.4429
وجمع	-10.4436
فك	-10.4438
الجاهل	-10.4438
يحل	-10.444
بم	-10.4441
طر	-10.4445
حمد	-10.4461
طهر	-10.4467
صرخ	-10.4468
مجي	-10.4477
الداخلي	-10.4486
فرس	-10.4486
اخاه	-10.4492
حيوانات	-10.4499
طير	-10.45
يطلق	-10.4505
احسن	-10.4518
ألا	-10.4523
انسانا	-10.4535
والعشر	-10.4544
لاسرائيل	-10.4544
حمق	-10.4547
فضل	-10.4548
مون	-10.4556
فهي	-10.4564
جث	-10.4567
يلبس	-10.4573
عي	-10.4577
كور	-10.4577
صاعد	-10.4578
حما	-10.458
سحق	-10.4588
تطلب	-10.4589
سلب	-10.4596
قائم	-10.4596
ونظر	-10.4596
وآخر	-10.4599
تمسك	-10.4603
سبق	-10.4607
جو	-10.4618
راعي	-10.4619
فمك	-10.4626
راي	-10.4638
استقام	-10.4638
كرام	-10.4639
فرغ	-10.4639
حرم	-10.4644
وحين	-10.4644
طيب	-10.465
خمسين	-10.466
حارس	-10.4662
وبيد	-10.4671
وسكن	-10.4676
مرار	-10.4685
يحيا	-10.4693
صح	-10.4707
رث	-10.4709
ذاهب	-10.4724
مساكن	-10.4727
فكر	-10.4734
ابينا	-10.4738
وبك	-10.474
تسكن	-10.4744
نون	-10.4745
واذهب	-10.4759
تسقط	-10.476
عس	-10.4763
يأتون	-10.4766
فيض	-10.4774
عدو	-10.4782
غني	-10.4784
نظرت	-10.4786
ناد	-10.4798
لابرا	-10.4798
منطق	-10.4803
طين	-10.481
خراف	-10.4842
خروج	-10.4857
دخلت	-10.4863
تأديب	-10.4866
معروف	-10.4866
جدعون	-10.4867
صي	-10.4868
وامر	-10.487
عارف	-10.4871
جميل	-10.4871
شغل	-10.4876
سمعنا	-10.4879
ائي	-10.4888
تصعد	-10.4893
كتبت	-10.4895
تريد	-10.4909
تل	-10.4911
تيم	-10.4911
امامهم	-10.4914
وبارك	-10.4917
ضحك	-10.4921
سيح	-10.4922
الكاتب	-10.4928
الفقير	-10.494
حفر	-10.4945
كباش	-10.4956
حاكم	-10.4962
بدون	-10.4966
لتكن	-10.4972
الاثني	-10.4979
حث	-10.4983
وخذ	-10.4988
سبب	-10.4993
شاء	-10.4994
عش	-10.5007
اقص	-10.5012
سفن	-10.5022
لح	-10.5025
فلت	-10.5031
ذري	-10.5032
شمال	-10.5038
طرف	-10.5058
مزمع	-10.5058
أخر	-10.5066
دمه	-10.5078
تست	-10.5085
تاج	-10.509
جسده	-10.509
السادس	-10.5093
مساكين	-10.5093
الينا	-10.5094
كبرياء	-10.5094
زين	-10.5102
آت	-10.5102
يحرق	-10.5104
اللحم	-10.5108
زل	-10.511
ائس	-10.5111
كبش	-10.5119
يفهم	-10.5126
اباد	-10.5127
بشي	-10.5135
وبنات	-10.5136
نوم	-10.5138
فاجتمع	-10.515
نق	-10.515
ياخذ	-10.5153
المسكون	-10.5164
الآتي	-10.5166
الفهم	-10.5172
ليت	-10.5182
اعمد	-10.5187
سكر	-10.5189
يغسل	-10.5196
يظهر	-10.5197
لشعب	-10.5202
لج	-10.5205
فاعط	-10.5209
زكري	-10.5229
بناء	-10.523
شمش	-10.5243
فدي	-10.5252
المس	-10.5256
لملوك	-10.5265
ارتفع	-10.5273
مشيئ	-10.5279
طم	-10.528
اسرع	-10.5287
الاشي	-10.5289
وقطع	-10.53
رجس	-10.5305
عامل	-10.5316
جيوش	-10.5327
بيع	-10.5329
وقراه	-10.5341
اعداء	-10.5352
جي	-10.5353
اعم	-10.536
يحسن	-10.536
القائل	-10.5362
ثرو	-10.5363
طلبت	-10.5365
اذني	-10.5367
اصحاب	-10.5379
الكرم	-10.5381
صفا	-10.5389
غلف	-10.5393
يعرفون	-10.5403
القدوس	-10.5407
ضع	-10.5409
الراس	-10.5411
ألي	-10.5437
وبني	-10.545
لباس	-10.5452
تراب	-10.5454
شب	-10.5455
قالت	-10.5466
ستر	-10.5481
تاكل	-10.5482
بهيم	-10.5503
أن	-10.5504
عمود	-10.551
تعجب	-10.5521
يهرب	-10.5521
ربط	-10.5522
رسال	-10.5525
سقي	-10.5539
رئيسا	-10.5544
ساعد	-10.5545
يتم	-10.5548
باد	-10.555
مه	-10.5558
فطن	-10.5565
لبنا	-10.5567
لرجل	-10.5567
فراش	-10.5575
امصي	-10.5579
كبر	-10.558
رج	-10.5586
ومجد	-10.5586
الارامي	-10.5587
العر	-10.5595
المعرف	-10.5597
كلامه	-10.56
لبهائم	-10.5609
رأت	-10.5611
خفي	-10.5612
العرب	-10.5622
اثنتي	-10.5625
نجاس	-10.5628
اشهر	-10.5631
أب	-10.5649
خضر	-10.5651
الابدي	-10.5665
قمح	-10.5665
كلاهم	-10.5679
لهرون	-10.568
غط	-10.5689
دنس	-10.5691
يدعو	-10.5694
كاس	-10.5708
العين	-10.5727
اسوار	-10.5733
قيام	-10.5737
بنون	-10.5751
يعلمون	-10.5754
سفك	-10.5755
البشر	-10.5762
وهرب	-10.5764
طل	-10.5777
آه	-10.5792
بارا	-10.5797
ضح	-10.5804
وناد	-10.5806
اجد	-10.5808
مستدير	-10.5808
مخدع	-10.5808
جثث	-10.581
قبور	-10.5818
دخان	-10.5822
بيتي	-10.5825
قبض	-10.5832
شريعت	-10.5848
حطب	-10.585
طوله	-10.5856
زب	-10.5873
اخوتهم	-10.5881
وطلب	-10.5887
يتبع	-10.5888
عطش	-10.5889
وير	-10.5908
وكبش	-10.5915
اسر	-10.5917
بغض	-10.5925
اوصيك	-10.5925
وسقط	-10.5939
يفتح	-10.5941
واست	-10.5962
ارسله	-10.5975
انقذ	-10.5987
ختان	-10.6001
زم	-10.6003
اعدائك	-10.6009
يفرح	-10.6009
اخيك	-10.6031
قف	-10.6038
بدل	-10.6049
سهام	-10.6053
خيام	-10.6053
وبنوه	-10.6055
يعد	-10.6055
يختار	-10.6058
فصرخ	-10.6061
كريم	-10.6062
سيا	-10.6066
حكيم	-10.6067
يخل	-10.607
وغ	-10.6074
لابس	-10.6075
حمار	-10.6075
رفيع	-10.6085
اعد	-10.6088
شهادات	-10.6097
لله	-10.6099
عثر	-10.6101
تمام	-10.6103
البكر	-10.6103
مديان	-10.6105
ومعه	-10.6108
الابن	-10.6111
بلغ	-10.6111
قربانه	-10.6124
سبا	-10.6125
اكليل	-10.6134
تلد	-10.6155
الحكيم	-10.6164
عصي	-10.6173
رمم	-10.6175
واحرق	-10.6188
قاتل	-10.619
يجر	-10.6206
ويشرب	-10.6212
رح	-10.6216
سلم	-10.6217
تعرفون	-10.6217
نجا	-10.6229
حقول	-10.6229
لب	-10.6231
تقطع	-10.6236
ومر	-10.6238
مذبحا	-10.6247
شقق	-10.6247
مراري	-10.625
بات	-10.6254
صعدت	-10.6266
فانا	-10.6287
لعن	-10.6288
قيس	-10.6297
وبال	-10.6298
يتنبأ	-10.6299
يموث	-10.6299
مرا	-10.63
سرا	-10.6314
استيقظ	-10.6315
وخمسين	-10.6317
ارواح	-10.6318
الرام	-10.6323
حال	-10.6327
يزيد	-10.6331
ابطال	-10.6334
ولو	-10.6334
بكلم	-10.6334
دوس	-10.6334
فهل	-10.6339
وذبح	-10.6339
تحول	-10.6341
يمسك	-10.6346
احي	-10.6346
رعد	-10.6351
تبق	-10.6356
واثن	-10.6356
جناح	-10.637
يغ	-10.6379
فرأ	-10.6381
باط	-10.6387
واسحق	-10.64
يحملون	-10.6411
صوم	-10.6415
ترون	-10.6415
يشبع	-10.6415
فتش	-10.6424
رك	-10.6426
فمض	-10.6432
الوحش	-10.6437
الولد	-10.6439
العبراني	-10.6456
فهرب	-10.6459
صد	-10.6464
الام	-10.647
فاذ	-10.6475
قمر	-10.6498
بفرح	-10.6503
أر	-10.6508
تسلك	-10.651
التقدم	-10.6511
سهل	-10.6521
راكب	-10.6527
خد	-10.6536
ويس	-10.6548
قبله	-10.6556
ابوابك	-10.6573
قورح	-10.6575
ملتوت	-10.6578
يأت	-10.6578
امامكم	-10.658
عذراء	-10.6581
جلس	-10.6582
رباب	-10.6585
ورش	-10.6589
تأكلون	-10.6591
رماد	-10.6596
رجعت	-10.6599
اقسم	-10.6613
لحرب	-10.6614
فلن	-10.6631
جبعون	-10.6644
كالب	-10.6647
صفح	-10.6651
وابي	-10.6651
مدينته	-10.6653
عمي	-10.6662
سام	-10.6676
ورام	-10.6681
رؤوسهم	-10.6688
تشرب	-10.6693
جرح	-10.6696
ائم	-10.6726
ترد	-10.6727
عص	-10.673
واور	-10.6731
الشجر	-10.6736
غرس	-10.6749
عير	-10.6753
وضعت	-10.6759
تضرع	-10.676
وحمل	-10.6766
دعوت	-10.6767
واتي	-10.6771
تعود	-10.6784
انته	-10.6786
تحي	-10.6787
وغش	-10.6788
ودفع	-10.6794
اسلم	-10.6795
تقوم	-10.68
يعملون	-10.6808
كروم	-10.6812
فار	-10.6812
شهو	-10.6813
بنوه	-10.6817
جاب	-10.683
دهش	-10.6832
يقر	-10.6834
مسبوك	-10.6848
ليعمل	-10.6854
خطيته	-10.6854
شمس	-10.6854
قياس	-10.6857
احببت	-10.6858
يحكم	-10.6861
دائر	-10.6862
زور	-10.6865
بتهج	-10.6866
فسقط	-10.6878
سمعتم	-10.6885
ابر	-10.6891
اسأل	-10.6901
وسي	-10.6907
ذهاب	-10.691
تترك	-10.6911
البد	-10.6916
جواب	-10.6922
حاشا	-10.6924
بيض	-10.6925
لهيب	-10.6942
يكف	-10.6952
جل	-10.6954
الباق	-10.6967
اخطأت	-10.6967
ند	-10.6979
عيب	-10.6988
وابتدأ	-10.6995
اعمالك	-10.6998
عمق	-10.7
يصرخ	-10.7008
اهلك	-10.701
الحصاد	-10.7017
تعبد	-10.7021
مبغضي	-10.7023
وتجعل	-10.7028
ويعقوب	-10.7031
حنن	-10.7038
الرداء	-10.7044
بره	-10.705
صادو	-10.7051
القاتل	-10.7067
ادوني	-10.708
لملك	-10.7089
وبيوت	-10.709
مثله	-10.7091
وسكان	-10.7101
عبدا	-10.711
بدم	-10.711
يزرعيل	-10.7125
التاسع	-10.7126
عماليق	-10.7126
ائل	-10.7128
يدعون	-10.7129
مراحم	-10.713
وشعب	-10.713
يمكن	-10.7131
ضارب	-10.7131
ولكل	-10.7134
قطعت	-10.7134
شعير	-10.7142
وعي	-10.7144
الزيت	-10.7145
لحما	-10.7145
تحرق	-10.7147
نقض	-10.7149
اعطيك	-10.715
طلع	-10.7171
يضرب	-10.7173
سبوت	-10.7178
يح	-10.7186
الغن	-10.7188
مشير	-10.7191
بحد	-10.7197
شلوم	-10.7203
حصون	-10.721
الموجود	-10.7214
المئ	-10.7226
اوثان	-10.7232
وشرب	-10.7234
▁	-10.7237
ثام	-10.7251
ولول	-10.7255
شفي	-10.7257
صنعه	-10.7261
العجل	-10.7261
وحارب	-10.7262
وشا	-10.7264
المؤمن	-10.7266
واعطاه	-10.7311
فحص	-10.7315
جالسا	-10.7346
مرت	-10.7353
واعطي	-10.7355
رائي	-10.7356
اضع	-10.7364
وولدت	-10.7367
الوصي	-10.7379
بس	-10.7381
جسدي	-10.7386
قبائل	-10.7412
شل	-10.7414
نجوم	-10.7418
كاذب	-10.7418
ينقذ	-10.7419
صلح	-10.7421
عاج	-10.7426
شرير	-10.7427
جري	-10.7428
فوقف	-10.743
يمينه	-10.7431
حسد	-10.7434
نت	-10.7435
يسأل	-10.7436
عظماء	-10.744
وصرخ	-10.7441
تقل	-10.7441
وسمعت	-10.7443
وتقدم	-10.7448
ورد	-10.7449
تخافو	-10.7455
عاي	-10.7456
اوس	-10.746
شيلو	-10.7464
يذكر	-10.7472
وصوت	-10.7474
وبأ	-10.7474
بإ	-10.7475
فتحت	-10.7486
لمحارب	-10.7493
يحسب	-10.7512
اتبع	-10.7518
الخشب	-10.752
ياكلون	-10.7523
اصغ	-10.7524
تعظم	-10.7534
كوش	-10.7537
يدا	-10.7547
سمك	-10.7552
يطرد	-10.7555
ودفن	-10.756
قتلا	-10.7561
سبحو	-10.7564
انزل	-10.758
ويت	-10.7585
دما	-10.7587
يرث	-10.7593
اعطاه	-10.7604
شك	-10.7605
سقطت	-10.7608
وامه	-10.761
اسمانجوني	-10.7612
اوصيت	-10.7615
خن	-10.7619
جمل	-10.7624
سخ	-10.7624
تغي	-10.7628
وذبائح	-10.7635
لذ	-10.7638
جعله	-10.7643
عوج	-10.7648
بنا	-10.7664
يشهد	-10.7679
افرح	-10.7682
تفرح	-10.7686
العاز	-10.7696
ختم	-10.7704
شوارع	-10.7705
قطيع	-10.7706
ترنيم	-10.7707
اشتر	-10.7708
اخزي	-10.7713
حجاب	-10.7715
حط	-10.7718
سعير	-10.7722
فرات	-10.7727
ودي	-10.7727
نقم	-10.7735
فعله	-10.7739
صلا	-10.7742
دماء	-10.7744
امتع	-10.7746
وأمر	-10.7748
اطعم	-10.7759
صلات	-10.7761
القرع	-10.7761
طرقك	-10.7765
يهوآ	-10.7766
يجي	-10.7769
شفاه	-10.7769
بيدك	-10.7775
اكر	-10.7777
للرجل	-10.7781
صبح	-10.7787
يخدمون	-10.779
اعينكم	-10.7802
فتعلم	-10.7807
الخروف	-10.7821
كلمهم	-10.7822
بيدر	-10.7824
ائهم	-10.7832
فاخرج	-10.7839
ليئ	-10.7846
رص	-10.7847
قتله	-10.785
حلقي	-10.7853
جف	-10.7854
زهر	-10.786
رجم	-10.786
الصلا	-10.7862
جدلي	-10.7873
وابن	-10.7904
وملوك	-10.7906
وليم	-10.7911
قائد	-10.7915
صبا	-10.7917
الفتا	-10.7919
وكتب	-10.7922
يخرجون	-10.7923
رجوع	-10.7926
الشي	-10.7953
اللعن	-10.7954
تؤمن	-10.7955
ارن	-10.799
ورا	-10.7992
خلق	-10.7992
يتسلط	-10.7995
أتيت	-10.7998
رتب	-10.8003
خت	-10.8007
احترز	-10.8008
تماثيل	-10.8008
ملآن	-10.8008
أتي	-10.8012
النازل	-10.8015
قرن	-10.8027
يقين	-10.8027
الواح	-10.8029
احباء	-10.803
رديئ	-10.8043
احسان	-10.8052
يروش	-10.8056
حبيبي	-10.8058
الجهال	-10.8059
تجرب	-10.8059
يعطيه	-10.8062
وفا	-10.8068
ثقيل	-10.8072
فولدت	-10.8081
وثق	-10.8089
رأيتم	-10.8104
نفخ	-10.8113
زاني	-10.8121
وحان	-10.8123
اعمالهم	-10.8132
اخذه	-10.8151
اكمل	-10.8152
اعينهم	-10.8159
حوالي	-10.8168
وبخ	-10.8169
وعجائب	-10.817
حفظت	-10.8181
بقيت	-10.8193
حان	-10.8197
فضلا	-10.82
مزق	-10.8208
يونان	-10.8213
مرسل	-10.8221
واضطجع	-10.8221
ورأيت	-10.8227
فجر	-10.8231
الكبش	-10.8232
ضربت	-10.8243
تأت	-10.8244
فسأل	-10.8251
وراءهم	-10.8251
ولكنه	-10.8252
خلع	-10.8259
ورث	-10.826
عزريا	-10.8266
رخ	-10.8269
وتقول	-10.8276
والفض	-10.8278
حس	-10.8279
فاعلي	-10.828
اعماله	-10.8284
وتحت	-10.8285
زعج	-10.8286
الزيتون	-10.8287
سني	-10.8299
ثيابهم	-10.8308
شفتي	-10.8311
ملجإ	-10.8321
أم	-10.8321
يبارك	-10.8325
قهات	-10.8328
يقطع	-10.8331
وقفت	-10.8331
ووجد	-10.8334
هدد	-10.8336
لسبب	-10.8343
رجاسات	-10.8347
فاسمع	-10.8353
تسلط	-10.8353
زنا	-10.8353
يمشي	-10.8355
فرد	-10.8357
اتكل	-10.836
اصاب	-10.8369
ايامه	-10.837
سراج	-10.8376
حياته	-10.8377
هز	-10.8379
لاحظ	-10.8381
اكلت	-10.8382
راقب	-10.8387
اماكن	-10.8395
ضياعه	-10.8397
العمود	-10.8405
مار	-10.8413
قصد	-10.8418
ايديكم	-10.8424
حوري	-10.8424
الكروب	-10.8426
الخراف	-10.8428
وسب	-10.8429
مئتي	-10.843
تعملون	-10.8434
تفعلون	-10.845
اتوا	-10.8452
تسل	-10.8455
جيل	-10.8456
شيب	-10.8456
فش	-10.8466
لعل	-10.8469
تقف	-10.8475
يذبح	-10.8477
القو	-10.848
الاخر	-10.8488
زاد	-10.8488
اتراس	-10.8495
حكيما	-10.8496
وانقذ	-10.8505
واقفا	-10.8512
الحال	-10.8514
امين	-10.8535
كيل	-10.8543
الحر	-10.8546
معز	-10.8547
نبوخذ	-10.8549
وفرح	-10.8555
قوا	-10.8559
خائف	-10.8566
سلك	-10.8571
عرج	-10.8573
وارض	-10.8574
يجيب	-10.8577
نعرف	-10.8583
عنق	-10.8593
امتلأ	-10.861
هيج	-10.8613
مجان	-10.8613
العشر	-10.8622
تسجد	-10.8623
سيس	-10.8626
ادع	-10.8628
وبقر	-10.863
يسلك	-10.8638
الرعا	-10.8638
تقبل	-10.8642
اقاصي	-10.8644
عبودي	-10.8644
ثابت	-10.8644
سعا	-10.8646
جراد	-10.8647
واقطع	-10.865
لفرع	-10.8651
اثار	-10.8652
امسك	-10.8653
يخدم	-10.8653
نازل	-10.8655
سود	-10.8657
حصل	-10.866
حماق	-10.8663
يزول	-10.8664
شيخ	-10.8678
امتلأت	-10.8679
فخذ	-10.8682
يكرم	-10.8684
تخل	-10.8712
فكم	-10.8712
وكسر	-10.8725
اعمل	-10.8726
البرد	-10.8731
بديا	-10.8736
اخوك	-10.8746
راء	-10.8753
حصر	-10.8764
سبيل	-10.8779
سواري	-10.8795
طي	-10.8797
تقتل	-10.8816
دفعهم	-10.8818
يجمع	-10.8827
ناج	-10.8829
حاد	-10.8833
محص	-10.8834
صحيحا	-10.8835
العيد	-10.8836
اطفال	-10.884
ناظر	-10.8866
سرق	-10.8879
تجر	-10.889
يعثر	-10.8895
تجي	-10.8897
لتكون	-10.8899
خيمت	-10.8901
والحق	-10.8908
عاري	-10.8916
الواقف	-10.8917
ابيض	-10.8919
توجد	-10.8919
الخارجي	-10.8925
تحفظون	-10.8928
ويأخذ	-10.8929
ضم	-10.8935
ضربات	-10.8936
مكر	-10.8942
قنا	-10.8947
جلال	-10.8947
نزع	-10.8949
ليق	-10.8959
موني	-10.896
كملت	-10.8975
تذكار	-10.8977
مفتوح	-10.8977
العاشر	-10.8977
ظاهر	-10.8978
عيلام	-10.8981
ضمير	-10.8981
نذور	-10.8982
اثما	-10.8989
مضايقي	-10.8995
فارغ	-10.9
ضايق	-10.9
طه	-10.9001
آبائك	-10.9005
رأي	-10.901
مضطجع	-10.9015
تستطيع	-10.9017
عسل	-10.9023
ساقط	-10.9023
سيل	-10.9025
طارد	-10.9027
اسنان	-10.9029
المطر	-10.9031
فعمل	-10.9034
اقامه	-10.9042
خطا	-10.9052
وخر	-10.9056
عدل	-10.9057
امك	-10.9058
بهاء	-10.9064
اعطاني	-10.9066
تغرب	-10.9069
اقتن	-10.9074
الاخ	-10.9079
الردي	-10.908
وبر	-10.9091
يهودي	-10.9097
تشبع	-10.9105
تبن	-10.9113
الاح	-10.9115
وترك	-10.9116
ورجاله	-10.9121
خصيان	-10.9123
صلاح	-10.9131
سق	-10.9133
دود	-10.9144
عيناي	-10.9148
احتم	-10.9149
اثمهم	-10.9153
دام	-10.9155
شاف	-10.9159
غبي	-10.916
فاعلم	-10.9162
تسمعون	-10.9163
سرير	-10.9175
سرج	-10.9176
وثام	-10.9185
صرخت	-10.9186
ولك	-10.919
صمت	-10.9193
نصيبه	-10.92
امثال	-10.9203
نسي	-10.9208
النجس	-10.9209
لير	-10.922
لآبائ	-10.9221
اغصان	-10.9227
دهري	-10.9229
اقطع	-10.9234
خيان	-10.9235
فانهم	-10.9242
حشو	-10.9245
تجمع	-10.9248
يفعلون	-10.9258
الصديق	-10.927
اخترت	-10.9285
اتخذ	-10.929
الكاس	-10.9291
اؤه	-10.9293
ارح	-10.9295
حبال	-10.9297
الصانع	-10.9301
وفر	-10.9302
نح	-10.9318
يؤخذ	-10.9323
ذكور	-10.9324
ترشيش	-10.9325
رسائل	-10.9325
الكرام	-10.9329
احاط	-10.9329
فرحا	-10.9332
يريد	-10.9344
ارحمن	-10.9345
يعو	-10.9354
الشرط	-10.9354
خصام	-10.9355
الفرح	-10.9358
اترك	-10.9366
تصل	-10.9375
طاع	-10.9378
دت	-10.9381
رداء	-10.9386
الفلك	-10.9389
قاس	-10.9391
نطق	-10.9392
ائر	-10.9394
بوت	-10.9396
خطوات	-10.9396
فحين	-10.9399
صدر	-10.9399
أس	-10.9402
انتظر	-10.9407
واكثر	-10.9408
ثمن	-10.9408
مخاف	-10.9412
وتقدمته	-10.9412
تبارك	-10.942
الكروبي	-10.9423
الخطا	-10.9425
اجلس	-10.9434
ولاجل	-10.9436
عمور	-10.9441
قبلا	-10.9447
الشق	-10.9448
صنا	-10.9461
يثر	-10.9467
افتح	-10.947
بغضب	-10.9473
والآخر	-10.9475
اشرب	-10.9476
تعزي	-10.9479
فمت	-10.9491
ويرد	-10.9494
اثمار	-10.9499
الحسن	-10.9506
خب	-10.9511
وزي	-10.9522
الميت	-10.9526
لكلام	-10.953
تعطون	-10.9535
تخبر	-10.9547
ايمانكم	-10.9551
ترع	-10.9551
أعطي	-10.9553
ضي	-10.956
فرخ	-10.9565
قديسي	-10.9579
ملكي	-10.9579
تطهر	-10.9583
تواضع	-10.9586
يهود	-10.9589
قلبهم	-10.9589
يبغض	-10.9591
يص	-10.9601
يدخلون	-10.9619
وعرضه	-10.962
يسار	-10.9621
عيش	-10.9621
حام	-10.9622
مواشي	-10.9625
وخمر	-10.9631
يمد	-10.9631
وابنا	-10.9637
طار	-10.9637
دموع	-10.9639
مشت	-10.9656
ضربه	-10.9672
فتخر	-10.9675
موضوع	-10.9679
خمير	-10.9679
اجناد	-10.9679
تطلبون	-10.968
بعشا	-10.9681
تقويم	-10.9682
ولبني	-10.9684
المدياني	-10.9688
تعبير	-10.9689
ويوحنا	-10.9689
لص	-10.9691
مستعد	-10.9691
اصغر	-10.9692
يبني	-10.9693
صليب	-10.9694
زارح	-10.9696
سكوت	-10.9697
يحد	-10.9697
يرع	-10.9704
فانطلق	-10.971
تقرب	-10.9711
واخي	-10.9715
رس	-10.9715
وكال	-10.9724
برا	-10.9729
خلف	-10.9733
قطعه	-10.9737
فاقام	-10.974
تطلع	-10.9751
تجاه	-10.9755
تخدم	-10.9756
واسمع	-10.9763
يفت	-10.9768
قس	-10.9792
تكمل	-10.9792
رأينا	-10.9796
فب	-10.9798
هللو	-10.981
وثماني	-10.9814
جيشه	-10.9814
ظن	-10.9817
الجديد	-10.9819
قود	-10.9823
لصق	-10.9831
وابنه	-10.9839
يبيد	-10.9841
خاصم	-10.9846
وامسك	-10.9848
شرور	-10.9848
عقب	-10.9853
بعده	-10.9857
عادل	-10.9861
آنيته	-10.987
فاي	-10.9873
بدد	-10.9875
لآله	-10.9879
اجي	-10.9882
السمك	-10.9884
الحث	-10.9885
طريقك	-10.9891
جاع	-10.9897
بنيهم	-10.9901
وفعل	-10.9912
اضرب	-10.9924
يكرز	-10.9926
معون	-10.9927
قتلهم	-10.9931
حمام	-10.9934
سيدك	-10.9962
وحل	-10.9968
اعدائه	-10.9975
واسلم	-10.9976
روحه	-10.9982
اخرجت	-10.999
كثرت	-10.9995
ضطهد	-11.0005
حيات	-11.0006
وطرح	-11.0012
مبر	-11.0014
بش	-11.0026
لسنا	-11.0027
تزرع	-11.0028
المكتوب	-11.0028
خلاصك	-11.0028
تحر	-11.0031
مركب	-11.004
الجند	-11.0045
ميثاق	-11.0049
عصفور	-11.0049
مكدوني	-11.0049
خزف	-11.005
البائس	-11.0052
مقدسا	-11.0056
يصعدون	-11.0057
ولكني	-11.0066
مستحق	-11.007
وامرأت	-11.0074
وعلم	-11.0081
طويل	-11.0082
مطمئن	-11.0083
عديم	-11.0084
فساد	-11.0088
قواعد	-11.0092
ثدي	-11.0096
بناه	-11.0098
قاوم	-11.0102
بيني	-11.0105
اجنحته	-11.0106
واحكام	-11.0107
فأكل	-11.0113
ارتعد	-11.0114
بأ	-11.0116
برد	-11.0125
كنز	-11.0127
زيتون	-11.0128
وجعله	-11.0128
المركب	-11.0136
مدح	-11.0138
تمجد	-11.0139
آلهته	-11.0141
وزيت	-11.015
مخاصم	-11.0154
وقاس	-11.0158
ترت	-11.0159
امتك	-11.0161
بنفس	-11.0164
ذوات	-11.0166
قوتك	-11.0169
للذي	-11.0172
اللوح	-11.0174
برئ	-11.0175
لعمل	-11.0179
اسكن	-11.0181
وتيس	-11.0181
واضع	-11.0183
اباك	-11.0184
قلتم	-11.0191
وحسب	-11.0193
جمر	-11.0194
المرتفع	-11.0203
بكون	-11.0212
ساح	-11.0213
راق	-11.0216
حير	-11.0219
البرك	-11.0224
بنيك	-11.0228
يرون	-11.0236
ظهرت	-11.0255
ابرار	-11.0257
يشبه	-11.0258
موعد	-11.026
حجي	-11.0276
مملكته	-11.028
والفريسي	-11.0288
القدم	-11.0291
يحارب	-11.0294
فرفع	-11.0298
سه	-11.0299
ابوك	-11.0302
سبل	-11.0307
الدائم	-11.0317
اليابس	-11.0328
صادف	-11.0331
حضن	-11.0332
قرمز	-11.0338
جوف	-11.0355
صوف	-11.0357
ويخرج	-11.036
وعسل	-11.0365
تنجس	-11.0374
ويع	-11.0376
يمس	-11.0376
القري	-11.0377
يبس	-11.0398
وعاد	-11.0406
تج	-11.0409
معصي	-11.0415
عج	-11.0422
فوضع	-11.0427
ابتد	-11.0427
حصد	-11.0428
مصنوع	-11.0434
اعضاء	-11.0434
مصاريع	-11.0434
يؤكل	-11.0434
مجتمع	-11.0435
انحدر	-11.0435
خاتم	-11.0436
تكفير	-11.0437
مرثا	-11.044
تسير	-11.0442
اعتمد	-11.0445
للاوي	-11.0445
الزاني	-11.0445
يرتد	-11.0453
وارجع	-11.0457
طبق	-11.0457
بحار	-11.0465
تقر	-11.0468
عذار	-11.0471
برنا	-11.0484
ذهبت	-11.0488
يذبحون	-11.0491
غمر	-11.0496
جوا	-11.0506
وملأ	-11.0514
مرتفع	-11.0517
يتنجس	-11.0519
تمم	-11.0522
القائم	-11.0526
زبدي	-11.053
وقرمز	-11.0532
فهذا	-11.0534
تفكر	-11.0535
ينظرون	-11.0536
طلق	-11.0537
شرقي	-11.054
يسجد	-11.0546
اكرم	-11.0547
تمرد	-11.055
يغفر	-11.0556
نسر	-11.0564
تاتي	-11.0565
يابس	-11.057
جاريت	-11.0574
قريبك	-11.0575
اشت	-11.0579
اثر	-11.0584
حصاد	-11.0594
يضي	-11.0596
وسل	-11.0598
ابنته	-11.0609
مبغض	-11.0617
ينجي	-11.0622
مثلك	-11.0623
فاعطاه	-11.0624
داس	-11.0631
دفعت	-11.0631
تعز	-11.0632
افع	-11.0637
تحسب	-11.0643
طف	-11.0644
يضل	-11.065
وحدك	-11.065
خص	-11.0655
قيود	-11.0657
وارد	-11.066
صرع	-11.0673
يسكنون	-11.0673
يضطجع	-11.0673
بيدي	-11.0674
احتمل	-11.0678
يزرع	-11.069
تقدس	-11.0697
عينك	-11.0702
الخمس	-11.0708
زلزل	-11.072
فقير	-11.0731
وجع	-11.0733
وله	-11.0738
وقدم	-11.0748
راع	-11.0752
فتر	-11.0753
لحي	-11.0755
ومدن	-11.0758
تركت	-11.0763
موتا	-11.0767
خض	-11.0771
جدي	-11.0774
بصر	-11.0775
قوات	-11.0786
يقدم	-11.0786
جان	-11.0787
خدمته	-11.0787
عطر	-11.0793
القيام	-11.0794
ارجوان	-11.0796
اعبر	-11.0797
قسي	-11.0833
اجناسه	-11.0834
تطهير	-11.0834
نظير	-11.0834
ختبئ	-11.0834
الحادي	-11.0835
اسواق	-11.0835
الصدر	-11.0837
ينبوع	-11.0838
تزعزع	-11.0841
ينابيع	-11.0841
اياك	-11.0845
نسى	-11.0846
مواليد	-11.0846
حيرام	-11.0846
يؤت	-11.0847
يتقدم	-11.0849
اعطيه	-11.0851
نقش	-11.0851
فداء	-11.0857
فنظر	-11.0858
خيش	-11.0865
مكروه	-11.0871
فعلتم	-11.0871
تأمل	-11.0879
معاصي	-11.088
مسامع	-11.0883
بطنه	-11.0886
ولكنهم	-11.0888
صيدون	-11.0889
محفل	-11.0889
رقص	-11.0891
وكن	-11.0899
ذبل	-11.0903
اسما	-11.0909
يقضي	-11.0912
فرائضه	-11.0919
ضج	-11.0921
فث	-11.0928
فاعل	-11.0933
حزم	-11.0936
حجب	-11.0943
جور	-11.095
تذبح	-11.0952
السنط	-11.0969
اناء	-11.0969
انصرف	-11.097
وقائد	-11.0971
فقل	-11.0977
تنزل	-11.098
حذ	-11.0982
وعم	-11.0992
المنار	-11.1005
تألم	-11.1012
حرا	-11.1012
الباطل	-11.1021
الوسط	-11.1023
القدر	-11.1024
شفتا	-11.1026
قادر	-11.103
مجن	-11.1037
يناد	-11.1041
وحدي	-11.1042
اقبل	-11.1046
عقل	-11.1053
صيدا	-11.1054
ائد	-11.1054
حلفت	-11.1054
حلق	-11.1076
وحيد	-11.1081
سطح	-11.1089
وتر	-11.1095
واوص	-11.11
انكسر	-11.1104
وشمعي	-11.1109
الدين	-11.1118
قومه	-11.1118
تنس	-11.1122
تبيد	-11.1129
يدفع	-11.1131
جع	-11.1131
عطي	-11.1136
ائك	-11.1138
قراء	-11.1155
راسك	-11.1158
سامع	-11.116
واوقف	-11.1162
حاري	-11.1163
فانك	-11.1163
سهم	-11.1167
مؤمن	-11.1167
لابيه	-11.1168
زك	-11.1172
الطيب	-11.1173
باسمه	-11.118
مسكر	-11.1184
وسلام	-11.1185
حض	-11.1189
شكو	-11.119
فسكن	-11.1201
يحدث	-11.1201
تراء	-11.1204
تنب	-11.1207
وفض	-11.1211
شفتيه	-11.1212
ويأتي	-11.1212
ترض	-11.1212
فدع	-11.1214
خان	-11.1214
انزع	-11.1219
نبيا	-11.1223
للم	-11.1226
وصاد	-11.1233
اخوه	-11.1239
اصرخ	-11.1244
جبروت	-11.1245
ينتظر	-11.125
اطراف	-11.125
يرتفع	-11.1251
ممدود	-11.1251
رسول	-11.1252
تعيير	-11.1253
صغار	-11.1254
اصعاد	-11.1255
ثلج	-11.1255
ميعاد	-11.1255
اطياب	-11.1257
ضعيف	-11.1258
بلي	-11.1258
ورق	-11.1258
اشدود	-11.1259
شهوات	-11.127
احشاء	-11.127
نسله	-11.1272
احشائ	-11.1277
مريض	-11.1279
يحمد	-11.1285
شور	-11.1293
يأخذون	-11.1294
ربوات	-11.1298
غبار	-11.1298
فترس	-11.1299
وسم	-11.1302
وكثير	-11.1302
غدر	-11.1306
الموآبي	-11.1311
اعطيته	-11.1311
حبس	-11.1328
رواق	-11.1337
رجلك	-11.1343
الاز	-11.1347
يديك	-11.1348
ويرجع	-11.1349
عندهم	-11.135
اعي	-11.1351
وارجوان	-11.1353
سرع	-11.1359
يدهم	-11.1361
بروح	-11.1362
المتكلم	-11.1366
عدن	-11.1367
الطاهر	-11.1371
برجل	-11.1373
اعمدته	-11.1376
وطرد	-11.1376
دفعه	-11.1378
الخرب	-11.1381
تجس	-11.1388
خصي	-11.1396
عفر	-11.1402
نقول	-11.1403
باي	-11.1431
ووضعه	-11.1433
محبي	-11.1439
القان	-11.144
حبيب	-11.1449
ميل	-11.146
يلق	-11.1461
ظلما	-11.1462
نسم	-11.1464
وكيل	-11.1464
اخا	-11.1465
الاعم	-11.1466
رأيته	-11.1467
صديق	-11.1478
قتلت	-11.1479
عتا	-11.1481
قوتي	-11.1485
خصوم	-11.149
يحفظون	-11.1493
المخادع	-11.1498
رش	-11.1501
نادي	-11.1504
فانكم	-11.1513
قامت	-11.1519
باق	-11.1529
وقب	-11.1529
شيش	-11.1537
اجنبي	-11.1538
الكامل	-11.1541
ولن	-11.1541
لازم	-11.1543
تكثر	-11.1546
ليأكل	-11.1549
وكم	-11.1552
وتسع	-11.1553
تدين	-11.1555
لمحرق	-11.1555
وطي	-11.156
رذل	-11.1563
ملح	-11.1568
حروب	-11.1571
باني	-11.1574
واعمل	-11.1579
ادعو	-11.1581
عقرون	-11.16
انطلق	-11.16
تاخذ	-11.1601
تظهر	-11.1607
فمد	-11.161
بالله	-11.1615
لقول	-11.1628
أخذ	-11.163
كلاب	-11.1635
سأله	-11.164
جود	-11.1656
نثن	-11.1657
يزاب	-11.167
ثون	-11.1671
حمر	-11.1674
جاهل	-11.1675
تنطق	-11.1677
واضرب	-11.1678
اغاظ	-11.1683
شاطئ	-11.1685
السماوي	-11.1685
ملجأ	-11.1685
مختوم	-11.1685
ابتهاج	-11.1686
مجامع	-11.1686
عتب	-11.1687
اوقات	-11.169
يقترب	-11.169
عقاب	-11.1695
كلمه	-11.1697
يرحم	-11.1701
ادرك	-11.1704
فارص	-11.1704
اصوات	-11.1704
بتدئ	-11.1707
تظلم	-11.1708
هوشع	-11.1709
ركاب	-11.1709
تبني	-11.1711
خالق	-11.1712
رشو	-11.1716
صيب	-11.1716
زوايا	-11.1717
شواق	-11.1717
فالتفت	-11.1719
ترفع	-11.172
مسوح	-11.1724
افتقد	-11.1725
ترص	-11.1725
ماكير	-11.1725
فجعل	-11.1732
كلمتك	-11.1734
تزن	-11.1738
الخبر	-11.1741
الدهو	-11.1741
حصرون	-11.1743
اهرب	-11.1743
قارب	-11.1745
اثبت	-11.1752
بوص	-11.1754
باس	-11.1757
واليبوسي	-11.1758
تمد	-11.1766
اصنامهم	-11.1767
وبنايا	-11.1774
كانه	-11.1776
فحدث	-11.1779
قدامهم	-11.178
بخر	-11.1782
غار	-11.1787
الملح	-11.1789
تبرر	-11.1801
اكبر	-11.1807
يفتخر	-11.181
والبحر	-11.181
فارق	-11.181
زح	-11.1817
الجيد	-11.1818
وسلم	-11.1822
الاجنبي	-11.1841
العصا	-11.1845
الحبيب	-11.1858
فترك	-11.1865
وثمان	-11.1866
السل	-11.1873
سلكت	-11.1874
الجزي	-11.1875
التين	-11.1878
أرسل	-11.188
يغطي	-11.1887
الامين	-11.1888
اجلب	-11.1896
تخاف	-11.1898
عتيد	-11.19
ومل	-11.1906
ثالث	-11.1908
فتا	-11.1909
فرش	-11.1915
يقسم	-11.1918
كفر	-11.1923
حاف	-11.1924
يخز	-11.1925
لدن	-11.1928
بهج	-11.193
كلمت	-11.1936
متمرد	-11.1944
رفضت	-11.1952
وياخذ	-11.1957
حلقت	-11.1958
ذوي	-11.196
وشيوخ	-11.1964
هتف	-11.1968
تلف	-11.197
منحوت	-11.1973
سوق	-11.1977
شاب	-11.198
كرز	-11.1987
القادر	-11.1999
غريبا	-11.1999
تشاور	-11.2002
التفت	-11.2014
ذات	-11.2018
بغير	-11.202
شبا	-11.2024
لشا	-11.2027
خطاياك	-11.2037
مث	-11.2041
كلمته	-11.2042
لسبط	-11.2044
السف	-11.2051
فيقول	-11.2057
خطف	-11.2059
اجنح	-11.2071
بز	-11.2073
سمين	-11.2075
ساء	-11.2075
ربح	-11.2076
تحل	-11.2077
المسح	-11.2079
لآخر	-11.2079
أعطيت	-11.2082
صاحبك	-11.2089
يرض	-11.2096
فدفع	-11.2103
جاوب	-11.2114
تبصر	-11.2124
جلي	-11.2125
تاه	-11.2132
تسم	-11.2132
تجاوز	-11.214
شوشن	-11.214
اخته	-11.214
اقطاب	-11.214
مضجع	-11.2141
افسس	-11.2141
عجيب	-11.2141
تظن	-11.2141
اعترف	-11.2141
قميص	-11.2142
يباركك	-11.2143
ضأن	-11.2143
يشفق	-11.2143
علمون	-11.2145
جلوس	-11.2146
رياح	-11.2147
غرل	-11.2148
عزيز	-11.2149
احمل	-11.215
واسكن	-11.2151
تمش	-11.2153
تذلل	-11.2154
ابغضت	-11.2156
عزيا	-11.2162
مقدار	-11.2164
اخضع	-11.2164
حناني	-11.2165
بذل	-11.2166
متاع	-11.2169
اصطف	-11.2171
منظره	-11.2176
تذمر	-11.2176
زق	-11.2189
درجات	-11.2191
مادي	-11.2193
تخلص	-11.2197
منقذ	-11.2203
فجلس	-11.2203
وعرف	-11.2205
وغنم	-11.221
زير	-11.2212
للقائه	-11.2215
ويعمل	-11.2222
آلات	-11.2231
فناد	-11.2233
والقو	-11.2233
سيفه	-11.2234
اقمت	-11.2241
شأ	-11.2242
اتهم	-11.2243
اساس	-11.2249
فآمن	-11.226
فخاف	-11.226
يكثر	-11.2265
سرت	-11.2266
وحجار	-11.2268
جنوب	-11.2269
جزع	-11.227
ارتفاع	-11.2274
وقر	-11.2274
متسلط	-11.2276
الخف	-11.228
الجزائ	-11.2282
صقل	-11.2282
شوب	-11.2282
القوي	-11.2284
شدد	-11.2285
دعوه	-11.2288
الكرمل	-11.2288
لآسا	-11.2305
التاج	-11.2313
مقت	-11.2314
يشاء	-11.2319
ادفع	-11.2323
ناحي	-11.2325
وزكري	-11.2336
اقوي	-11.234
اموال	-11.2353
مختار	-11.2358
يعزي	-11.2364
اجلكم	-11.2368
ألست	-11.2369
تلق	-11.2376
مسكوه	-11.2376
ارجلهم	-11.2377
قاعد	-11.2394
ناحو	-11.2398
غم	-11.2411
والاموري	-11.2426
قولك	-11.2434
يقاوم	-11.2437
اعطاهم	-11.2442
ئن	-11.2443
تعبر	-11.2444
ليصنع	-11.2448
سجف	-11.2452
اسكب	-11.2453
والكتب	-11.2455
مشل	-11.2459
وقول	-11.2462
بعيدا	-11.2465
المرض	-11.2466
نفسا	-11.2472
استمع	-11.2476
اؤك	-11.2477
جرت	-11.2489
التمس	-11.2495
فملك	-11.2495
عنقه	-11.2498
ارضي	-11.2501
شاق	-11.251
وحق	-11.2516
اعاقب	-11.2517
اسمعي	-11.2522
تيس	-11.2528
الازل	-11.2528
وافعل	-11.253
حار	-11.2534
يبتهج	-11.2541
زرا	-11.2544
لحمه	-11.255
برز	-11.2553
كاهنا	-11.2554
تشت	-11.2557
حلو	-11.2557
اشتد	-11.2562
ارامل	-11.2572
شتم	-11.2576
امره	-11.2578
صاف	-11.2578
فعلم	-11.2587
نفعل	-11.259
اؤهم	-11.2591
قصور	-11.2598
واعطاهم	-11.2603
كره	-11.2606
المغار	-11.2614
افتخار	-11.2616
منتظر	-11.2616
لاستقبال	-11.2616
ضوء	-11.2616
عماسا	-11.2617
سكيب	-11.2618
نقص	-11.2619
اقسام	-11.2622
مختل	-11.2623
الشيخ	-11.2624
ابكار	-11.2624
رحيم	-11.2626
قرأ	-11.263
وزنت	-11.2631
يوبيل	-11.2632
تبع	-11.2632
ارتد	-11.2633
ليأخذ	-11.2634
وقواعده	-11.2635
بلسان	-11.2637
اظهر	-11.2641
يجتمع	-11.2642
لعله	-11.2643
شتغل	-11.2643
وعبيده	-11.265
استجب	-11.265
اختي	-11.2656
لحظ	-11.2664
بيوتهم	-11.2668
جنده	-11.2668
بستان	-11.2674
أخبر	-11.2675
متكئ	-11.2685
ومئت	-11.2692
الزن	-11.2693
آل	-11.2695
اشهد	-11.2703
بادر	-11.2706
أمرت	-11.2713
اخيش	-11.2714
يخافون	-11.2716
وحر	-11.2721
معصر	-11.2726
فرض	-11.2733
شبان	-11.2734
يرثون	-11.2738
رايت	-11.2739
وليد	-11.2739
اشد	-11.2744
ينزلون	-11.2746
صيد	-11.2746
جاري	-11.2746
احرق	-11.2746
لاحد	-11.2746
اياهم	-11.2749
يغلب	-11.2755
عسكر	-11.2756
باعمال	-11.2759
أمور	-11.2762
ازار	-11.2768
نقل	-11.2771
بفم	-11.2774
تعبت	-11.2774
توب	-11.2775
الكور	-11.278
ولدته	-11.2781
يلون	-11.2787
ابصرت	-11.2788
وانزل	-11.2792
ألق	-11.2797
يصدق	-11.28
فحسن	-11.2804
مقدسي	-11.281
مخادع	-11.2826
واسع	-11.2828
لاسم	-11.283
المل	-11.283
بقوا	-11.2839
صرو	-11.2843
الظالم	-11.2847
نبت	-11.2858
تخت	-11.2859
ايامك	-11.2862
عوارض	-11.2862
والثلاث	-11.2864
معين	-11.287
مشي	-11.2883
عجول	-11.2894
رعو	-11.2897
ورائه	-11.2899
ئي	-11.2902
ومش	-11.2909
الحمار	-11.2915
يذل	-11.2916
ويط	-11.2921
حوشا	-11.2922
يسبح	-11.2926
لناس	-11.293
وباب	-11.2939
اثا	-11.2943
مثال	-11.2955
واجتمع	-11.2966
اسلك	-11.2967
يمجد	-11.297
تغطي	-11.2971
ذنبه	-11.2973
هيئ	-11.2983
وتبع	-11.2987
المق	-11.2992
يقل	-11.3003
اسير	-11.3006
ويسقط	-11.3007
وفرائض	-11.3011
وكلاء	-11.3013
يقتلوه	-11.3014
ومد	-11.3015
ينجح	-11.3018
عشار	-11.3019
واكتب	-11.3025
الكو	-11.3026
ونساء	-11.3033
لينظر	-11.3034
عسر	-11.3034
تمت	-11.3037
شبك	-11.3042
ستقر	-11.3049
خيط	-11.3057
يكسر	-11.3058
قسمت	-11.3065
يقرب	-11.3071
سلمو	-11.3072
فست	-11.3076
وبينك	-11.3086
ولاد	-11.3089
صالحا	-11.3091
فطلب	-11.3095
زكي	-11.3095
تمس	-11.3096
وكي	-11.3114
بفض	-11.3115
بواسط	-11.3116
عناثوث	-11.3116
توبيخ	-11.3116
اجساد	-11.3116
يستطع	-11.3117
صخور	-11.3118
اخيتوف	-11.3118
زقاق	-11.3119
يجازي	-11.3119
بوش	-11.3121
مقبول	-11.3122
درج	-11.3122
وجر	-11.3123
صفوف	-11.3127
جذب	-11.3129
يسم	-11.313
ولحم	-11.3131
ربض	-11.3136
ضباب	-11.3139
غور	-11.3142
خطيت	-11.3144
ختن	-11.3147
سنتين	-11.3147
لحمي	-11.3159
خطر	-11.3162
تخطئ	-11.3163
مختاري	-11.3165
ومس	-11.3166
اوتار	-11.3166
شهور	-11.3172
اهتف	-11.3175
مغار	-11.3175
عمري	-11.3175
مخارجه	-11.3184
صلوات	-11.3184
الجاري	-11.3197
غرو	-11.32
يقتلون	-11.3204
فابتدأ	-11.3209
ساد	-11.321
حياتك	-11.321
بالقرع	-11.3212
فاضل	-11.323
اثمه	-11.323
يظن	-11.3231
وجعلت	-11.3233
وانطلق	-11.3235
غنمك	-11.3237
خائفي	-11.3238
المدعو	-11.3252
شتا	-11.3253
الأول	-11.3255
ويسجد	-11.3259
ورجال	-11.3259
لاسل	-11.326
والح	-11.3262
تاب	-11.3266
الحصين	-11.3269
فنيهم	-11.3284
واصغ	-11.329
نينو	-11.329
ليسمع	-11.3291
روث	-11.3293
اجري	-11.3294
مظل	-11.3296
واجمع	-11.3296
اطرد	-11.3305
يدب	-11.3309
لآبائك	-11.3315
حطم	-11.332
انتظرت	-11.332
ويذبح	-11.3321
الكسل	-11.3322
سافر	-11.3325
وحيث	-11.3327
فاست	-11.3329
بمثل	-11.3334
امتلك	-11.334
ذاته	-11.3343
كتف	-11.3345
يكمل	-11.3348
صوب	-11.335
مذ	-11.3355
يحزي	-11.3356
ويوقد	-11.336
نقطع	-11.3361
خصم	-11.3367
ينزع	-11.3371
حورون	-11.3378
الخل	-11.3378
خاص	-11.3385
الشبك	-11.3393
يعلن	-11.3403
لطف	-11.3405
غزا	-11.3407
غلب	-11.341
سكبت	-11.3415
ولست	-11.3416
مصف	-11.3422
اذنك	-11.3445
قطر	-11.3446
وكثر	-11.345
غلته	-11.3454
شاخ	-11.3464
افعله	-11.3464
غض	-11.3465
واعد	-11.3475
موجود	-11.3476
يعي	-11.3478
التلميذ	-11.3479
مرع	-11.3483
امسكت	-11.3492
ؤدب	-11.35
تضايق	-11.3503
وهدم	-11.3505
والمغن	-11.3511
يولد	-11.3518
حقك	-11.352
تتبع	-11.3524
اثنتا	-11.3528
تسب	-11.353
امته	-11.3534
يرجعون	-11.3534
نجني	-11.3537
امينا	-11.355
حرث	-11.3551
اكله	-11.3554
يعطون	-11.3555
بور	-11.3556
سوس	-11.3561
وتضع	-11.3566
موته	-11.357
والعاز	-11.3572
ديان	-11.3574
للقت	-11.3578
يخاف	-11.358
وحام	-11.3585
وقو	-11.3585
وآتي	-11.3587
والبس	-11.3588
عرس	-11.3599
وحكم	-11.3599
لبان	-11.361
طعم	-11.3611
وقوف	-11.3612
وحا	-11.3621
غد	-11.3621
ميراثه	-11.3631
اغتاظ	-11.3642
انطاكي	-11.3642
ضجيج	-11.3642
مجيئه	-11.3643
زوبع	-11.3643
خالص	-11.3643
قمت	-11.3644
عطايا	-11.3644
امراض	-11.3645
سقوط	-11.3645
ودعت	-11.3648
حيطان	-11.3652
لابن	-11.3653
فدفنو	-11.3654
البواب	-11.3655
افود	-11.3657
طوفان	-11.3657
احلام	-11.3659
غصن	-11.3661
امض	-11.3666
تزا	-11.3668
الحقيق	-11.3668
صعود	-11.3671
نثين	-11.3674
تضرب	-11.3679
مضت	-11.3681
العم	-11.3684
العموني	-11.3687
حصار	-11.3694
وإل	-11.3697
قضبان	-11.3698
تبتهج	-11.3698
تخرب	-11.3701
سالم	-11.3704
بجانبه	-11.3711
فرسان	-11.3711
محتقر	-11.3711
صناع	-11.3711
امد	-11.3711
والاربع	-11.3713
للبعل	-11.3715
يمينا	-11.3719
المحيط	-11.3721
تابع	-11.3722
اعطاكم	-11.3725
تشهد	-11.3738
ياكين	-11.3746
كهنوت	-11.3748
وبناتك	-11.3748
مسحه	-11.3749
انتهر	-11.3749
الدرج	-11.3766
سحب	-11.3766
أسس	-11.3768
امل	-11.3778
فسد	-11.3779
بسيف	-11.378
ليخدمو	-11.3784
واخذت	-11.3784
مكث	-11.3791
نثني	-11.3793
كدر	-11.3794
الزاوي	-11.3795
الحاضر	-11.3796
كأن	-11.3797
كروب	-11.3797
تزيد	-11.3802
وزنه	-11.3803
الجن	-11.3806
تلميذ	-11.3809
قرابين	-11.381
وعزريا	-11.3812
نمو	-11.3814
اقض	-11.3817
والزيت	-11.3822
لليهود	-11.3824
مقيم	-11.3825
قطعان	-11.3827
خفض	-11.3847
يمنع	-11.3848
أتون	-11.3857
سخر	-11.3861
بنايا	-11.3861
والس	-11.3867
ابيهم	-11.3871
عورته	-11.3873
جاس	-11.3873
يحبون	-11.388
فاصعد	-11.3892
وكرام	-11.3895
تسلم	-11.3898
صفق	-11.3906
لعبيده	-11.3907
درا	-11.3908
وجب	-11.3908
صفر	-11.3912
تعبه	-11.3917
فكل	-11.3917
واهلك	-11.3919
اخرجهم	-11.392
ويدخل	-11.3922
اسألك	-11.3927
اغني	-11.3931
ملابس	-11.3934
بمجد	-11.3945
خدمت	-11.3948
تقيم	-11.3953
محر	-11.3958
مج	-11.3959
ابيجا	-11.396
بنيت	-11.3963
تكشف	-11.3963
عظمت	-11.3973
ليذهب	-11.3973
هبط	-11.3979
مائدت	-11.398
قديم	-11.3989
فيرجع	-11.3989
فيأتي	-11.399
والحو	-11.399
تاكله	-11.4004
فتقول	-11.4012
ندم	-11.4017
وسأل	-11.4019
خلقت	-11.4021
يعيش	-11.4029
تدب	-11.4034
وثمر	-11.4036
ماتت	-11.4048
مقفر	-11.405
ميك	-11.4071
فقطع	-11.4086
والبقر	-11.4094
مجدك	-11.4094
فريس	-11.4097
وتد	-11.4099
باك	-11.4099
لكنه	-11.4104
ينجو	-11.4108
حمله	-11.4109
المتسلط	-11.4117
لاطفال	-11.412
نعطي	-11.413
العامل	-11.4131
بذراع	-11.4132
أري	-11.4137
الرواق	-11.4142
اخاف	-11.4151
يرفض	-11.4158
فاذهب	-11.4162
تنال	-11.4168
اجيب	-11.4169
سكائب	-11.4183
اصعدت	-11.4188
اجتهاد	-11.4198
تمتلئ	-11.4198
يجتاز	-11.4198
تشفق	-11.4198
جحش	-11.4198
اقتحم	-11.4198
احكم	-11.4198
منتخب	-11.4198
ترتيب	-11.4199
يعاقب	-11.42
طائر	-11.42
راجع	-11.4202
للمرأ	-11.4204
معمودي	-11.4205
حلقات	-11.4206
رسم	-11.4208
تعقل	-11.4209
عاقر	-11.4209
طبخ	-11.421
اشتعل	-11.4211
يبنون	-11.4211
دحرج	-11.4216
كهنته	-11.4218
يصنعون	-11.422
حصين	-11.4221
ومئ	-11.4223
للخير	-11.4226
يصغ	-11.4226
صارخ	-11.4228
وشد	-11.4234
الناصري	-11.4234
فتيان	-11.4235
جوج	-11.4237
فأخبر	-11.424
جزي	-11.424
حمير	-11.4241
دينار	-11.4242
الاس	-11.4246
اولادك	-11.4248
وشبع	-11.4249
شارد	-11.4253
عثل	-11.4254
ريب	-11.4258
استطيع	-11.426
اضطرب	-11.4271
يقع	-11.4274
فلست	-11.4274
تهد	-11.4276
كلمكم	-11.4278
اصابع	-11.4284
وتعال	-11.4292
رعي	-11.4294
ويضع	-11.4295
صين	-11.4296
يقدمون	-11.43
لأكل	-11.4301
تهتم	-11.4302
الصي	-11.4304
قبلي	-11.431
يرجم	-11.4324
فتحي	-11.4324
ليوس	-11.4325
ائت	-11.4329
ارجو	-11.4329
يساك	-11.433
حربا	-11.4343
مرحض	-11.435
فجمع	-11.4363
احص	-11.4367
انتقام	-11.4374
ملائكته	-11.4375
مولود	-11.4377
آمنت	-11.4386
ساري	-11.4387
اعطيتك	-11.4389
مثمر	-11.4393
وبعده	-11.4403
يظلم	-11.4407
تبكي	-11.4417
تحيا	-11.4418
اليوناني	-11.4426
خطيتهم	-11.4426
ليعط	-11.4435
رني	-11.4437
فاجعل	-11.4441
اجير	-11.4454
ديار	-11.4456
قتلوه	-11.4456
كبد	-11.4458
ينادي	-11.4458
تنهد	-11.4458
ازر	-11.4474
يعر	-11.4478
تنبت	-11.4478
الخمسين	-11.4484
نصنع	-11.4486
واخت	-11.4494
دس	-11.4498
قولي	-11.4501
الأس	-11.4507
قواد	-11.4518
الغم	-11.4519
يقض	-11.4523
الرائي	-11.4537
وتصير	-11.454
نجد	-11.4545
وبكل	-11.4547
ضيقات	-11.4548
غاي	-11.4558
نزلت	-11.4574
قاسي	-11.4577
العسكر	-11.4581
يخف	-11.4581
اللبن	-11.4584
الاع	-11.4585
الحو	-11.4586
ايف	-11.4588
المك	-11.4592
المولود	-11.4606
يغش	-11.4608
جنس	-11.4614
يسع	-11.4614
لسانه	-11.4617
حاضر	-11.4617
فخرجت	-11.4617
جسم	-11.4628
زاوي	-11.4628
كاتب	-11.4631
كسرت	-11.4639
ثر	-11.4645
السامع	-11.4661
مكره	-11.4664
عتبر	-11.4666
مقيد	-11.4672
اخز	-11.4678
اليبوسي	-11.469
اغلق	-11.4691
ؤمن	-11.4703
تبر	-11.4706
واخوتهم	-11.4718
ونهار	-11.4724
فافعل	-11.473
ويونا	-11.4734
تبعه	-11.4737
دخوله	-11.4738
اهان	-11.4742
قعي	-11.4757
واحفظ	-11.4768
نهدد	-11.4769
اغتصاب	-11.4786
اكاذيب	-11.4786
عضائد	-11.4786
عروعير	-11.4786
ابتلع	-11.4787
موطئ	-11.4787
اسبوع	-11.4787
غلظ	-11.4788
تزول	-11.4788
عاهد	-11.479
ضبط	-11.4791
امتحن	-11.4791
ترجم	-11.4793
وضربه	-11.4793
غرفات	-11.4793
التقط	-11.4794
يرتحل	-11.4795
اضطراب	-11.4796
اغنياء	-11.4796
جرشون	-11.4796
مربع	-11.4797
ارغ	-11.4803
طالبي	-11.4804
لبكرات	-11.4804
اوجاع	-11.4811
جلود	-11.4815
تأس	-11.4815
سابق	-11.4816
عريان	-11.4819
ترتعد	-11.4824
واقيم	-11.4835
جفن	-11.484
متني	-11.4842
تبرأ	-11.4844
محارب	-11.4844
ابراج	-11.4845
لتمتلك	-11.4852
قداس	-11.4854
شتري	-11.4855
راسا	-11.4855
يريدون	-11.4857
مبكر	-11.4869
المعط	-11.4871
اساف	-11.4872
رأف	-11.4878
لجج	-11.4882
طاق	-11.4883
وعدلا	-11.4883
واغلق	-11.4886
نسمع	-11.4893
يسلكون	-11.4894
وحم	-11.4896
لديك	-11.4897
اوصاهم	-11.4899
يفك	-11.4905
طرفي	-11.4906
فتصير	-11.4915
خري	-11.4915
لاخ	-11.4919
عطيهم	-11.4919
جمعهم	-11.492
ويهلك	-11.4921
وحد	-11.4925
توكلت	-11.4929
مجلس	-11.493
نشيد	-11.4935
فامر	-11.4945
مواسم	-11.4946
استحلف	-11.4947
تنزع	-11.4949
شط	-11.4952
بروق	-11.4959
تقع	-11.4963
وسج	-11.4965
سيكون	-11.4966
يلقي	-11.4966
قدسك	-11.4967
داد	-11.4971
عربات	-11.498
مكانهم	-11.4993
عجر	-11.4999
وكنت	-11.5003
وذبيح	-11.5007
القاضي	-11.5016
وشب	-11.5018
أفلا	-11.5023
اخوات	-11.5034
رؤسائه	-11.5048
اخف	-11.5057
الصف	-11.5059
دسم	-11.5072
السالك	-11.5072
رعود	-11.5075
يزن	-11.5077
يتبرر	-11.5086
تحارب	-11.5091
وتنبأ	-11.5096
أتت	-11.5098
واصنع	-11.511
الخر	-11.5112
التوب	-11.5115
يحضر	-11.5115
ثيابك	-11.5124
فاز	-11.5124
حملت	-11.5129
تبدد	-11.513
وبيته	-11.5137
هدر	-11.5139
يوقد	-11.5151
وسجدت	-11.5152
فيصير	-11.5154
المظال	-11.5155
صوص	-11.5162
لوحي	-11.5163
بيل	-11.517
ومعهم	-11.5173
حداث	-11.518
تدفع	-11.5183
وابيد	-11.5193
تضرعات	-11.5193
صاص	-11.5194
تصر	-11.5203
عناق	-11.5225
افسد	-11.5228
الأمور	-11.5235
وسق	-11.5235
الحمام	-11.5238
والمنا	-11.5238
وتضرع	-11.5239
وثياب	-11.5253
نائم	-11.5261
يدوس	-11.5265
تكسر	-11.5265
مكتوبا	-11.5269
يشق	-11.5273
وبناته	-11.5282
زد	-11.5286
ركض	-11.5286
نغو	-11.5287
وتحفظ	-11.5297
وأر	-11.5306
اصحابه	-11.5311
يوناني	-11.5315
اعرفه	-11.5317
الشرقي	-11.5325
انتقم	-11.5325
ترج	-11.5326
يتين	-11.5329
وسأله	-11.5338
ابوا	-11.5339
عمام	-11.5343
مهلك	-11.5344
وعملت	-11.5345
عاملي	-11.5346
الغنيم	-11.5352
يطهر	-11.5353
نعمان	-11.5359
فقر	-11.5361
اشته	-11.5362
المز	-11.5364
كرمي	-11.5367
وتأكل	-11.5371
وعظ	-11.5372
وبلا	-11.5377
سها	-11.5379
اوصاه	-11.5385
تمر	-11.5391
افتخر	-11.5391
رذيل	-11.5402
طلاق	-11.5404
باكور	-11.5409
ممتلئ	-11.5411
مخاوف	-11.5411
ترتفع	-11.5411
مضروب	-11.5412
اضعاف	-11.5413
ياقوت	-11.5413
هدايا	-11.5414
يحيئيل	-11.5414
يغلق	-11.5414
اختبأ	-11.5414
الطبيع	-11.5414
شدائد	-11.5415
محراب	-11.5416
غتصب	-11.542
خلاف	-11.5421
الهابط	-11.5422
رحوب	-11.5423
طالع	-11.5423
نتزع	-11.5423
ودخلت	-11.5423
ترتعب	-11.5424
عمرام	-11.5427
أخذت	-11.5429
قوائم	-11.5433
اكن	-11.5434
تقدمات	-11.5434
اوائل	-11.5436
الرمان	-11.5441
المشق	-11.5442
اعطاك	-11.5443
حاش	-11.5444
المدخل	-11.5445
يدرك	-11.5448
ودفنوه	-11.5458
طفأ	-11.5465
الغني	-11.5466
جنب	-11.5469
بطون	-11.547
سراري	-11.5478
مسالك	-11.548
مجنون	-11.548
وعرض	-11.5481
اعداؤ	-11.5493
اخترته	-11.5498
خيامهم	-11.5499
تاكلون	-11.5501
داج	-11.5507
يكتب	-11.5508
بسخط	-11.5511
يراه	-11.5511
وركض	-11.5511
المعم	-11.5516
ومريم	-11.5518
تقوا	-11.552
ينطق	-11.5523
يفسد	-11.5527
ليعلم	-11.5535
للشر	-11.5536
فاحفظ	-11.5538
ازق	-11.5538
فاكل	-11.5541
يمل	-11.5542
المنحوت	-11.5549
معثر	-11.5554
ترديدا	-11.556
العتيق	-11.556
تآمر	-11.5574
صك	-11.5586
ستند	-11.5587
معطي	-11.5588
سقف	-11.559
فانزل	-11.5591
واتخذ	-11.5596
مسير	-11.5597
العاد	-11.5601
فرقته	-11.5603
عظامه	-11.5604
تنظرون	-11.5604
للقائ	-11.5606
رهب	-11.5606
تصنعه	-11.5618
صرن	-11.5621
يتألم	-11.5621
ومحب	-11.5626
طعن	-11.5628
فخا	-11.5639
لوز	-11.5645
خوذ	-11.5645
الساح	-11.5646
وكروم	-11.5647
اعالي	-11.5649
اكلمك	-11.5652
باكر	-11.5652
لصاحبه	-11.5659
فنظرت	-11.5659
المستهزئ	-11.5666
آلام	-11.5668
امرأتي	-11.5669
هوشا	-11.5671
عتق	-11.5675
ينجس	-11.5677
استار	-11.5684
وخيل	-11.5686
وعينا	-11.5688
شبل	-11.5697
زمري	-11.5702
مذنب	-11.5716
وخاف	-11.572
تخاصم	-11.5725
يميل	-11.5729
فصنع	-11.5735
جيران	-11.5736
قاعدت	-11.5738
كنائ	-11.5747
سحقت	-11.5756
صوتك	-11.5761
متكلم	-11.5765
برق	-11.5774
تفن	-11.5781
وبسط	-11.5791
نهض	-11.5791
تعي	-11.5796
فعاد	-11.5805
يحتقر	-11.5815
لعاز	-11.582
وخبز	-11.5825
قاضي	-11.5826
ويقيم	-11.5835
حكام	-11.584
تصرخ	-11.5841
نوب	-11.5841
برخ	-11.5846
وشم	-11.5846
زيد	-11.5854
بحجار	-11.586
اجابهم	-11.5869
تدنس	-11.588
انواع	-11.5887
الفقر	-11.5895
تعثر	-11.5898
مذل	-11.5904
يشد	-11.5912
ويتكلم	-11.5929
اخاك	-11.5933
فلح	-11.5934
ومعرف	-11.5938
جاهد	-11.5939
وآني	-11.594
شهي	-11.5952
توجه	-11.5952
يحيي	-11.5953
جس	-11.596
التل	-11.5962
عذب	-11.5975
مقام	-11.5975
تخافي	-11.5982
احش	-11.5985
وفرسان	-11.5986
باطن	-11.5986
عوز	-11.5989
الفرق	-11.5989
نمر	-11.5993
يهدي	-11.5995
خروجك	-11.5999
العراف	-11.6015
وكون	-11.6022
نأخذ	-11.6028
لحمير	-11.6038
جير	-11.6043
وحول	-11.6044
يفتر	-11.6051
سيوف	-11.6053
ويصعد	-11.6061
يفتش	-11.6067
عذر	-11.607
جعلته	-11.6071
خطئ	-11.6076
مخازن	-11.6078
تعاظم	-11.6078
الرفائي	-11.6078
مجتاز	-11.6078
فزعت	-11.6078
تؤكل	-11.6079
البس	-11.6079
أذن	-11.6079
اغتسل	-11.6079
رقيب	-11.6079
افعالهم	-11.6079
يحتاج	-11.608
نزول	-11.608
اباطيل	-11.608
تجتمع	-11.608
العشاء	-11.608
دبيب	-11.6082
خطب	-11.6082
فحل	-11.6085
تجديف	-11.6086
قطف	-11.6087
مغرب	-11.6087
مسحت	-11.6089
اشفق	-11.6089
كبريت	-11.6092
القهاتي	-11.6094
غيور	-11.6094
بزر	-11.6102
رماح	-11.6108
بالخير	-11.611
نزيل	-11.6118
جوانب	-11.6121
ايثام	-11.6128
واكلت	-11.6129
مطروح	-11.6131
حريق	-11.6132
توف	-11.614
ارجلكم	-11.614
السحر	-11.6143
وارتفاعه	-11.6145
فانصرف	-11.6149
يتزوج	-11.6157
الطرف	-11.616
شباك	-11.616
صدم	-11.6162
اعداءك	-11.6165
مخط	-11.6169
واستراح	-11.6172
تمتد	-11.6177
عراف	-11.6181
حقويه	-11.6188
تاجر	-11.6188
ويطرح	-11.619
مدعو	-11.619
اجابه	-11.6193
مصيب	-11.6194
يقون	-11.6198
وبنوك	-11.6199
تفتخر	-11.6201
رتفعت	-11.621
بليت	-11.6212
وكف	-11.6216
وأتيا	-11.6219
كنوز	-11.6226
بعينه	-11.6228
انث	-11.6236
يبست	-11.6237
وجدنا	-11.624
سيما	-11.6241
وثور	-11.6241
امتعته	-11.6251
مئتا	-11.6255
وبوص	-11.6256
خروجه	-11.6264
ستطاع	-11.6268
خيرات	-11.6274
المذنب	-11.6276
يقطعون	-11.6277
احبه	-11.6286
اشبال	-11.6289
زجر	-11.6291
حج	-11.6292
الكوشي	-11.6301
زائ	-11.6308
صوتهم	-11.6308
فقتل	-11.6309
وفتح	-11.631
ويسمع	-11.6316
الرجس	-11.6317
خاطئ	-11.6322
لساني	-11.6329
حنك	-11.633
لتقدم	-11.6338
صوغ	-11.6338
السد	-11.6339
واجعلهم	-11.6343
ينكر	-11.635
الآكل	-11.636
السوء	-11.6361
رسولا	-11.6364
يتعب	-11.637
ميتا	-11.637
عميان	-11.6378
المختار	-11.6386
ابيكم	-11.64
وألق	-11.6401
يحاربون	-11.6404
كروبي	-11.641
يجده	-11.6415
واحب	-11.6416
السرير	-11.6421
تفرق	-11.6424
غربت	-11.6433
نسيت	-11.6438
نصبه	-11.6439
بعصا	-11.6441
لمعان	-11.6444
ئون	-11.6449
اسنانه	-11.6451
رمون	-11.6462
يخرب	-11.6464
يحاكم	-11.6464
صلف	-11.6466
عظمته	-11.6466
تحكم	-11.6467
وبات	-11.647
العتيد	-11.6477
جثت	-11.6478
الولاي	-11.6478
وشعبه	-11.6479
تحطم	-11.648
بالحكم	-11.648
الشفت	-11.6489
بالسلام	-11.6491
كرهت	-11.6492
خزن	-11.6492
مريب	-11.6502
سهر	-11.6505
يفهمون	-11.6507
قرص	-11.6509
بخير	-11.6513
مخوف	-11.6517
غوي	-11.6519
اسهر	-11.653
الخاطئ	-11.6536
الرسول	-11.6554
اخذتم	-11.6556
لديه	-11.6566
وأعطي	-11.6572
صاح	-11.6577
ألسن	-11.6579
قلق	-11.6582
غرست	-11.6591
العط	-11.6597
الحفر	-11.6599
بالبر	-11.6602
ومواشي	-11.6602
باقي	-11.6611
فعبر	-11.6614
ميراثك	-11.6615
طاهرا	-11.6617
السيل	-11.6618
يهتف	-11.6623
انقذن	-11.6626
عجلا	-11.6629
واجعلك	-11.6632
مقبل	-11.6641
حاشي	-11.6641
حلما	-11.6645
لود	-11.6651
دبير	-11.6651
منوح	-11.6667
ويضرب	-11.6669
كلتا	-11.6671
خنا	-11.6686
سوء	-11.6702
فقح	-11.6709
متنا	-11.6714
يشخ	-11.6724
تارك	-11.6729
تركه	-11.6738
شرع	-11.6738
ترسل	-11.6741
استراح	-11.6744
منضح	-11.6745
تتعب	-11.6745
سألوه	-11.6748
قير	-11.675
وظهر	-11.6757
ينقض	-11.6765
يفكر	-11.6768
لتسمع	-11.6775
خالف	-11.6776
عريانا	-11.6783
جبر	-11.6784
يضربون	-11.6785
فلسطين	-11.6785
جرشو	-11.6787
ظبي	-11.679
اضطجاع	-11.6792
ارتحش	-11.6792
تزداد	-11.6792
تلذذ	-11.6792
شرائع	-11.6792
ظهور	-11.6792
مفلوج	-11.6792
المتكبر	-11.6792
مربوط	-11.6792
يحيط	-11.6793
خماس	-11.6793
عقيق	-11.6793
متجرد	-11.6794
ملتوي	-11.6795
يزداد	-11.6796
رغيف	-11.6797
وحلف	-11.6798
احترق	-11.6798
انصاب	-11.6798
واخبرت	-11.6802
موائد	-11.6802
صدوقي	-11.6802
جاهر	-11.6805
وسكيبه	-11.6809
مسطار	-11.6811
يستهزئ	-11.6811
طمث	-11.6812
فخار	-11.6814
وريم	-11.6814
صبي	-11.6815
يتكل	-11.6816
العليا	-11.6818
البطم	-11.6818
شفط	-11.6821
الآك	-11.6823
وفير	-11.6825
وباركه	-11.683
جزاء	-11.6833
فراخ	-11.6833
فركض	-11.6833
جلده	-11.6834
يحرسون	-11.6837
امتد	-11.6837
يضعه	-11.6838
ادوات	-11.6838
تخس	-11.6839
ابون	-11.685
عميق	-11.6852
ينفع	-11.6853
ووضعوه	-11.6861
انصب	-11.6863
وسع	-11.6868
تعالي	-11.6869
تعر	-11.687
فتراء	-11.6874
سمعته	-11.6892
نتفع	-11.6892
عاملون	-11.6893
ويضعون	-11.6894
وتعطي	-11.6898
أول	-11.6908
فاسرع	-11.6909
للسكن	-11.691
مجر	-11.691
ظلف	-11.6911
بألسن	-11.6915
تتزعزع	-11.6915
ادين	-11.6915
عدوك	-11.6915
يطيع	-11.6917
تمنع	-11.6925
بركات	-11.6928
مشورت	-11.6928
واكب	-11.693
يرعون	-11.6931
شتر	-11.6939
باركك	-11.6939
يصر	-11.6941
هاجر	-11.6943
وينزع	-11.6946
سلط	-11.6948
المحبوب	-11.695
عزيئيل	-11.6953
وابيهو	-11.6953
مرضي	-11.6959
سألت	-11.6964
تدعون	-11.6965
يصلح	-11.6987
هدأ	-11.699
عشتا	-11.6994
وتبعه	-11.6994
فاسق	-11.6994
سوط	-11.7003
اشتريت	-11.7012
عصوا	-11.7012
فرأيت	-11.7014
اوصاك	-11.7021
قتني	-11.7028
وبناتهم	-11.7028
جرار	-11.7029
ياس	-11.7034
تشته	-11.7044
اثمك	-11.7047
يسحق	-11.7055
ليخز	-11.7061
واثق	-11.7062
فتيات	-11.7064
فرحي	-11.7076
ريس	-11.7082
جنوبي	-11.709
تائه	-11.7093
عادت	-11.7094
وامك	-11.7099
ابنتي	-11.71
صنعته	-11.7107
تفسيره	-11.7115
تنجست	-11.7117
وحفر	-11.7121
محم	-11.7123
يرفعون	-11.7125
اتيت	-11.7134
يفحص	-11.7136
مسكون	-11.7139
القرن	-11.7148
وخروف	-11.7149
ويفرح	-11.715
مسكنه	-11.7151
فرحت	-11.7155
وكس	-11.7165
هلكت	-11.7166
اخرجوه	-11.7171
مراؤ	-11.7182
فالق	-11.7182
فبكر	-11.7189
باركه	-11.7189
وساق	-11.7194
فتأكل	-11.7195
شفت	-11.7196
اخبرك	-11.7206
تدر	-11.7208
والكنعاني	-11.7213
فوح	-11.7213
محبتك	-11.722
تجلس	-11.7221
الحثي	-11.7221
ساقي	-11.7226
عباد	-11.7229
فانظر	-11.7229
واجلس	-11.7237
تنكر	-11.7241
المتمرد	-11.7243
تفهم	-11.7265
أصعد	-11.7267
ادب	-11.7269
ليرد	-11.7272
جهتك	-11.7302
خس	-11.7303
ليصعد	-11.7303
والفهم	-11.7306
قدرته	-11.731
مخلص	-11.731
يطرح	-11.7311
عطل	-11.7315
والمحب	-11.7317
يهلكون	-11.7325
يعرفوه	-11.7332
معلوم	-11.7333
عرفاء	-11.7333
ويقف	-11.7338
صخرت	-11.7341
العشار	-11.7346
معص	-11.7351
يذوب	-11.7358
وغط	-11.7358
حرف	-11.736
كرمل	-11.7363
رقب	-11.7374
امكث	-11.7377
تخز	-11.7379
طمع	-11.7379
تهرب	-11.7382
والحيوان	-11.7395
حولهم	-11.7414
يقود	-11.7423
سلمت	-11.7424
ببعل	-11.7432
واكمل	-11.7433
واشرب	-11.7434
ومركبات	-11.7443
اضطر	-11.7447
تمكن	-11.7449
اغبي	-11.745
أأن	-11.7457
واعطوه	-11.7461
لتخ	-11.7474
اعان	-11.748
قضبانه	-11.7485
كرني	-11.7487
نذرت	-11.7489
هربت	-11.749
اشكر	-11.7501
ذك	-11.7505
أسر	-11.751
مقابله	-11.7523
امتنع	-11.7526
زبول	-11.7528
اخبرت	-11.7532
طهار	-11.7533
يكفي	-11.7536
يستعبد	-11.7538
مؤخر	-11.7546
اولادهم	-11.7548
ألع	-11.756
صيح	-11.7561
مصابيح	-11.7561
مشايخ	-11.7561
مضاجع	-11.7561
اكتاف	-11.7561
رزز	-11.7561
يصهار	-11.7561
نذير	-11.7561
يائير	-11.7562
اشقلون	-11.7562
روماني	-11.7562
تنوح	-11.7562
زاغ	-11.7562
ركبتيه	-11.7562
السوسن	-11.7562
رومي	-11.7562
استماع	-11.7563
اصبع	-11.7563
محتاج	-11.7563
شألت	-11.7564
اليزرعيلي	-11.7564
اعياد	-11.7565
فكاك	-11.7565
ارجاس	-11.7566
اجاج	-11.7567
بصق	-11.7567
هدو	-11.7569
مجوس	-11.757
الجرشوني	-11.757
نفائس	-11.7574
الصحر	-11.7575
نحش	-11.7575
اوتاد	-11.7577
فانتهره	-11.7578
زمر	-11.758
شرفاء	-11.7582
يحيد	-11.7585
اصوله	-11.7589
الصيدوني	-11.7589
ذئ	-11.759
اضاء	-11.7591
احمر	-11.7591
راري	-11.7597
تحتمل	-11.7599
يفرغ	-11.7603
باسط	-11.7604
غراب	-11.7609
تواليد	-11.7609
رجز	-11.7611
ضرر	-11.7612
فتنزع	-11.7612
اشرف	-11.7617
وتقدس	-11.762
الند	-11.7622
عجين	-11.7622
يصيح	-11.7623
ومعس	-11.7623
تفهمون	-11.7625
تدرك	-11.7626
اتقيائ	-11.7628
حلي	-11.7629
بادت	-11.7629
تراءف	-11.763
عبور	-11.7631
يقرأ	-11.7637
خبث	-11.7638
يساره	-11.7644
ليعطي	-11.7644
فارسلت	-11.7644
جالب	-11.7647
المخرب	-11.765
وحفظ	-11.767
انتخب	-11.7671
وامتد	-11.7672
لوحا	-11.7674
انتقل	-11.7685
كتفي	-11.7688
اذنه	-11.7691
يخاصم	-11.7695
يخزون	-11.7701
تخش	-11.7701
وحمير	-11.7705
اتفق	-11.7705
حملان	-11.7707
بطش	-11.7708
فتنبأ	-11.7708
جوب	-11.7708
القادم	-11.7708
والبواب	-11.7726
واعاقب	-11.7726
وطن	-11.7729
ظالم	-11.7735
غرف	-11.7744
فاعطيك	-11.7744
تفلح	-11.7751
سهوا	-11.7754
رأوه	-11.7775
وقوي	-11.7775
وشدد	-11.7776
طردت	-11.7778
المهلك	-11.7778
اغصانه	-11.778
للقائهم	-11.7785
فكتب	-11.7793
والتقدم	-11.7794
ونزع	-11.7795
فتاكل	-11.7798
اجرته	-11.7803
الديك	-11.7822
تذ	-11.7823
بايديهم	-11.7825
جفت	-11.7831
نقب	-11.7832
واسمانجوني	-11.7832
نازلا	-11.7834
للبر	-11.7836
مقدم	-11.7837
فاران	-11.7838
ليسأل	-11.7838
تقطر	-11.7843
يحبه	-11.7846
فتقر	-11.785
بتاع	-11.7851
تبطل	-11.786
فذهبت	-11.786
السارق	-11.7862
ويهوش	-11.7865
امواج	-11.7869
ستريح	-11.7871
حماته	-11.7878
واقمت	-11.788
ويجمع	-11.7887
ولعن	-11.7888
الدب	-11.7893
تحلف	-11.7901
تحصد	-11.7904
تشق	-11.7906
يخبرون	-11.7906
وبرن	-11.7911
حنق	-11.7918
ليحي	-11.7931
فاسد	-11.7932
يحرس	-11.7936
طرحت	-11.794
ينبت	-11.7942
يطردون	-11.7944
داثا	-11.7944
كتفه	-11.795
عطشان	-11.7951
زبد	-11.7954
صلبوه	-11.7958
بالاثم	-11.7961
تتنجس	-11.7965
يبغضون	-11.7982
غرت	-11.7983
عملته	-11.7986
حصيد	-11.7988
يضم	-11.799
ثقب	-11.799
فحب	-11.7991
اضطجعت	-11.7994
انتصب	-11.8005
ضر	-11.8006
ونسله	-11.8008
محن	-11.8011
وآخذ	-11.8015
مسرع	-11.8023
سفين	-11.8025
وتشدد	-11.8032
قبح	-11.8038
طلبنا	-11.8041
وشبن	-11.8041
بالكلم	-11.8049
يبشر	-11.8061
جهن	-11.8069
سالك	-11.8074
سيط	-11.8076
تهدم	-11.8077
انهض	-11.8078
تركهم	-11.8087
وابصر	-11.8089
يبطل	-11.8091
فاس	-11.8093
خابو	-11.8116
أجر	-11.8119
قدور	-11.812
ابنتك	-11.8126
اهوال	-11.813
شكن	-11.8144
العاصف	-11.8149
رياء	-11.815
منعت	-11.817
يشمع	-11.8172
وضربوه	-11.8175
فطرح	-11.8177
منجل	-11.8184
ضياع	-11.8192
يعطين	-11.8194
دعاء	-11.8195
وحدهم	-11.8196
دخلتم	-11.8209
خزو	-11.8217
ويدفع	-11.8218
ساب	-11.8223
ليطلب	-11.8252
مجاز	-11.826
وحفظت	-11.8262
مخبر	-11.8262
يركض	-11.8266
نجاسته	-11.827
جلبت	-11.8272
تنح	-11.8273
اصم	-11.8283
أظهر	-11.8285
عملتم	-11.8305
انضم	-11.8308
يحلق	-11.8313
مواش	-11.8318
يختن	-11.8323
عطار	-11.8328
تركنا	-11.8346
تطرح	-11.8349
يستر	-11.8354
يمشو	-11.8354
ديم	-11.8356
لئي	-11.8366
ستجيب	-11.837
دعوتك	-11.8384
مخاض	-11.8395
احتياج	-11.8395
الزارع	-11.8395
الكائن	-11.8395
كتئب	-11.8395
مؤامر	-11.8395
شعائر	-11.8395
يعترف	-11.8395
أهوليب	-11.8395
انبيائه	-11.8395
مغلق	-11.8395
اسابيع	-11.8395
انتذار	-11.8395
ارتاع	-11.8395
يمتلئ	-11.8396
مملو	-11.8396
شغب	-11.8396
يدفنون	-11.8398
باصبعه	-11.8398
ففتح	-11.8399
هزأ	-11.8399
وارسلت	-11.84
اخائي	-11.8401
ائز	-11.8404
وصحن	-11.8404
تنكسر	-11.8406
النخل	-11.8406
فقدم	-11.8407
ازدر	-11.8409
استق	-11.841
اثيم	-11.8414
الجلعادي	-11.842
سارق	-11.8421
ينزعه	-11.8422
فراد	-11.8423
الزوان	-11.8427
حافر	-11.8428
انصت	-11.8428
اقصاء	-11.8429
شركاء	-11.8431
يعمد	-11.8433
ذئب	-11.8437
يجوز	-11.8443
الماشي	-11.8446
المسبي	-11.8448
بيومه	-11.8454
تيمان	-11.8458
فسألوه	-11.8459
رافع	-11.846
رجاؤ	-11.8467
ونساؤ	-11.8469
المتقد	-11.847
اتكأ	-11.8471
والصح	-11.8485
ذخر	-11.8487
للشرير	-11.8497
رجاساتهم	-11.8498
العصو	-11.8502
تقض	-11.8504
واعطيتهم	-11.8505
فعد	-11.8509
نأكل	-11.851
اعطيتهم	-11.8517
عزاء	-11.8518
يحجز	-11.8519
اراه	-11.8521
مستريح	-11.8523
المتجه	-11.8524
كعك	-11.8526
استحي	-11.8526
بمكر	-11.8527
حابر	-11.853
كوشي	-11.8531
احضرو	-11.8532
وفات	-11.8535
غيم	-11.8537
ماشيا	-11.854
الضال	-11.8541
تناول	-11.8544
تستر	-11.8553
ويقر	-11.8553
وأكل	-11.8556
رجائ	-11.8557
قصوره	-11.8559
اشراف	-11.8562
وعسا	-11.8563
منطلق	-11.8564
زمجر	-11.8565
ابغضه	-11.8568
صياح	-11.8572
ألقي	-11.8572
مربض	-11.8577
عرفتم	-11.858
يتركون	-11.858
يعوز	-11.858
ذوب	-11.8584
والتفت	-11.8586
الملق	-11.8598
غلامه	-11.8601
احرقه	-11.8614
تصب	-11.8619
القبيح	-11.8621
الاسرائيلي	-11.8621
فطرد	-11.8623
اعناق	-11.8624
يزهر	-11.8625
فارتحل	-11.8634
مشيئته	-11.8635
الموص	-11.8635
شربت	-11.8637
الهارب	-11.8637
صورته	-11.8639
فسق	-11.8644
نجح	-11.8652
عاصف	-11.8656
ليشرب	-11.8663
تراه	-11.8664
شارع	-11.8669
ختتن	-11.8675
مناظر	-11.8684
وفرسانه	-11.8685
قربت	-11.8689
مسارحه	-11.8702
لاخيه	-11.8702
عكس	-11.8702
ويبيد	-11.8714
سؤل	-11.8719
مراعي	-11.8732
تعش	-11.8738
وتشرب	-11.8746
متغرب	-11.8754
ليجعل	-11.8771
تؤمنو	-11.8793
يجدف	-11.8808
تضر	-11.8808
وتاخذ	-11.8815
لتحفظ	-11.8818
لاهلاك	-11.8819
اعما	-11.8821
فأخذت	-11.8824
جروح	-11.8836
حكمتك	-11.8836
واهب	-11.8836
وانزع	-11.8844
يعطيهم	-11.8856
شتت	-11.8857
تضي	-11.8859
اعداؤك	-11.8866
الإي	-11.8867
تطي	-11.8873
لامك	-11.8884
علما	-11.8891
سحر	-11.8892
تضل	-11.8895
يامين	-11.8896
اباكم	-11.8897
بصل	-11.89
يقدمه	-11.8908
عصيان	-11.8912
طفل	-11.8924
بناؤ	-11.8925
فاصنع	-11.8932
يويا	-11.8934
يحث	-11.8952
لياكل	-11.8963
مبغضين	-11.8974
تغرس	-11.8978
اذيال	-11.898
نافع	-11.8986
ذكرت	-11.8998
زيف	-11.9002
وانث	-11.9003
يتام	-11.9012
ستعلن	-11.9015
يؤدب	-11.9039
يبكي	-11.9046
وتغش	-11.9049
يكي	-11.9051
مذلت	-11.9068
مركبت	-11.9104
رجاساتك	-11.9115
تقرض	-11.9122
فكش	-11.9139
واولاده	-11.9142
زناه	-11.9143
عابد	-11.9146
يهتم	-11.9152
ددان	-11.9165
الضفا	-11.9199
تكره	-11.9213
رحض	-11.9216
تقس	-11.9217
الظه	-11.9238
يتعجب	-11.924
طمئن	-11.9245
يضر	-11.9245
كهذ	-11.925
يمكث	-11.9253
وقرأ	-11.9275
ؤوس	-11.9284
تفتح	-11.9288
حائ	-11.9296
اضطهاد	-11.9304
النطوفاتي	-11.9304
سطوح	-11.9304
صائغ	-11.9304
يخاطب	-11.9304
ويستحم	-11.9304
مباحث	-11.9304
جائع	-11.9304
استطع	-11.9304
تلتفت	-11.9304
تؤخذ	-11.9304
خزان	-11.9304
جارف	-11.9304
التصق	-11.9304
ملتهب	-11.9304
سؤال	-11.9305
وينضح	-11.9305
يخش	-11.9305
كافئ	-11.9305
ميلاد	-11.9306
مكتوم	-11.9307
وتشجع	-11.9307
بريئا	-11.9307
ويحرقون	-11.9308
الجلاد	-11.9309
موازين	-11.9309
خاضع	-11.9309
القيني	-11.9309
يمتحن	-11.9312
اختاره	-11.9312
الزمت	-11.9313
ملتمس	-11.9313
بكوري	-11.9313
مجامر	-11.9314
استأجر	-11.9315
بغوا	-11.9316
اباهم	-11.9317
اتعاب	-11.9318
جواري	-11.9319
رياس	-11.932
بذار	-11.932
شونم	-11.932
صندوق	-11.9321
رجعتم	-11.9323
ينطفئ	-11.9324
ساهر	-11.9324
يبرر	-11.9325
اخشاب	-11.9327
وسكائبه	-11.9329
جهاد	-11.9329
ينمو	-11.933
زروع	-11.9332
ترنح	-11.9332
شقوق	-11.9334
اليصا	-11.9335
كاسات	-11.9337
اغاني	-11.9339
فبهت	-11.9339
رفيق	-11.9341
مؤسس	-11.9342
رحوم	-11.9344
رفقائه	-11.9345
تزي	-11.9345
بنجاسته	-11.9348
قادم	-11.9349
بطهار	-11.935
نفذ	-11.9354
يلعن	-11.9357
موهب	-11.9358
اجازي	-11.9362
عاقبت	-11.9366
المتكل	-11.9367
تقلد	-11.9375
برقع	-11.9376
وإي	-11.9377
احذر	-11.9385
مفيبو	-11.9388
كريت	-11.9389
تنجح	-11.939
وأخذو	-11.9391
بالامان	-11.9392
جئن	-11.9393
ترفعون	-11.9398
حضرت	-11.9399
طحن	-11.94
الرأوبيني	-11.9405
ضاب	-11.9406
ينطلق	-11.9407
ينقذن	-11.9409
الغادر	-11.9412
غطت	-11.9414
مديون	-11.9421
يزمجر	-11.9423
يغيظون	-11.9428
وتخومه	-11.9428
طبي	-11.9429
فادي	-11.943
انفك	-11.9439
وباقي	-11.944
حجل	-11.944
رجموه	-11.9441
محبته	-11.9455
تجبر	-11.9457
نطح	-11.9459
فسكت	-11.946
ليحارب	-11.946
يرضي	-11.9461
ورؤساؤه	-11.9462
ومكث	-11.9467
سلامته	-11.9481
ليعبدو	-11.9489
فاتح	-11.9489
حتج	-11.9493
يتكئ	-11.95
حزين	-11.9501
تدبير	-11.9503
تميت	-11.9504
غرق	-11.952
يستريح	-11.9547
ليقل	-11.9551
آلهتك	-11.9556
حزنت	-11.9558
توجع	-11.9562
ليأتو	-11.9564
تزلزل	-11.9575
فصرت	-11.9582
ويكثر	-11.9602
مقاومي	-11.9606
غمس	-11.9618
يرذل	-11.962
وتعملون	-11.9622
باسمائه	-11.9626
كراسي	-11.9634
فتذكر	-11.9638
مطلق	-11.966
البلدا	-11.9669
ليسجد	-11.9672
صفني	-11.9679
ريئيل	-11.9689
تتنبأ	-11.97
درع	-11.9701
نائح	-11.9704
مملكتي	-11.971
ويرم	-11.9714
حدته	-11.9716
طوق	-11.9744
سكنت	-11.975
أتين	-11.9756
صاهر	-11.976
تعطيه	-11.9761
غناه	-11.9761
اردت	-11.9768
تفرس	-11.9769
معوج	-11.9771
قرعت	-11.9771
آمر	-11.98
أعط	-11.9811
استقبل	-11.9814
ابوكم	-11.9838
اختهم	-11.9847
جلاله	-11.985
يؤد	-11.9852
المتطه	-11.9858
يهيئ	-11.9862
برني	-11.9871
عشيرته	-11.9873
احدهم	-11.9874
مصعد	-11.9874
وجعلوه	-11.9874
بدمه	-11.9876
شهدت	-11.9881
اريك	-11.9894
تكتب	-11.99
طاب	-11.9905
يشعي	-11.9915
مواشيهم	-11.9927
اطفالهم	-11.9931
تذر	-11.9948
فاض	-11.9996
شبعت	-11.9999
ويدو	-12.0002
وتمتلك	-12.0007
يصومو	-12.0009
اعلن	-12.0023
وصلت	-12.0034
حضنه	-12.0037
عذاب	-12.0047
عبراني	-12.0064
عاقل	-12.0065
ترديد	-12.0082
خطواته	-12.0083
خرجتم	-12.0105
تشتهي	-12.0106
اساسا	-12.0107
حقوي	-12.0112
ديش	-12.0119
بواب	-12.0128
تملأ	-12.0148
ضاق	-12.0154
اتركك	-12.0162
دوث	-12.0167
نتفخ	-12.0171
فخذه	-12.0176
وقيد	-12.0177
يبرأ	-12.018
روس	-12.0211
علو	-12.0213
مطل	-12.0216
ارتج	-12.0225
تخجل	-12.0226
زيع	-12.0238
قامته	-12.0247
نطلب	-12.0252
فلطي	-12.0255
شريف	-12.03
يلتصق	-12.0304
مرفوض	-12.0304
المستكبر	-12.0304
خزام	-12.0304
ومقببه	-12.0304
تدشين	-12.0304
وظيف	-12.0304
متسربل	-12.0304
اعتكاف	-12.0304
اعضائ	-12.0304
افتكر	-12.0304
فاستجاب	-12.0304
ترصيع	-12.0304
زحزح	-12.0304
فاجبت	-12.0305
مستوطن	-12.0305
اقراط	-12.0306
ترتاع	-12.0306
يرحمئيل	-12.0307
تمتحن	-12.0307
تملق	-12.0307
سواقي	-12.0308
تنقذ	-12.0308
احرار	-12.0309
طشا	-12.0309
وحاصر	-12.0309
افسنتين	-12.031
والجادي	-12.0311
مقتدر	-12.0312
وبجانبهم	-12.0312
خبأت	-12.0313
يخضع	-12.0313
باكورات	-12.0314
اضرم	-12.0314
النعام	-12.0317
ويداه	-12.032
تقليد	-12.0321
حنوك	-12.0323
يترأف	-12.0323
قطاف	-12.0324
معاند	-12.0324
منتقم	-12.0325
وجبروته	-12.033
اصط	-12.0333
المنسحق	-12.0334
باغ	-12.0335
الفاجر	-12.0336
ليتغرب	-12.0338
مناطق	-12.0338
ويخجل	-12.0344
تحقق	-12.0345
تلمس	-12.0347
الادومي	-12.0353
ضغط	-12.0358
نشئ	-12.0359
تطيل	-12.0364
صباه	-12.0369
يلتمس	-12.0371
شريك	-12.0371
ابيعزر	-12.0372
قبيل	-12.0377
كليه	-12.0379
يتقدس	-12.0384
انتساب	-12.0386
ارتض	-12.0388
موثق	-12.0391
طرحهم	-12.0391
يطب	-12.0392
مغط	-12.0394
تقرأ	-12.0396
الألسن	-12.0399
رقيق	-12.0401
حدود	-12.0402
فريسي	-12.0409
مطرود	-12.041
سمعتموه	-12.0413
ليكهن	-12.0416
مكرهات	-12.0416
وقار	-12.0416
سريت	-12.0422
الحقيقي	-12.0425
شظ	-12.0426
موشي	-12.0427
مرتعد	-12.0431
تبرع	-12.0434
قرأت	-12.0442
استفان	-12.0442
يجاوب	-12.0445
واخبروه	-12.045
ارادته	-12.0461
بيتشمس	-12.0477
تحفن	-12.0482
تسرق	-12.0485
شمري	-12.0492
جناحيه	-12.0492
والقي	-12.0495
وابع	-12.0499
مجمر	-12.0505
يغرس	-12.053
ساجد	-12.0536
رافا	-12.0545
اسست	-12.0571
ستوجب	-12.0573
اصنامكم	-12.0576
متعظم	-12.059
استعد	-12.0593
ترش	-12.0594
رعم	-12.0607
عجبا	-12.061
يخطف	-12.0616
يزني	-12.0618
طلعت	-12.0625
السقا	-12.0642
اخش	-12.0679
يضايق	-12.0691
مواضع	-12.0704
يصيب	-12.0705
تيبس	-12.0712
اطرحو	-12.0714
تبصرون	-12.0726
تعزيت	-12.0735
يعب	-12.0742
جسمه	-12.0746
سعي	-12.0747
نزعت	-12.0756
وتمسح	-12.0765
فتات	-12.0769
مسافر	-12.0833
الحرا	-12.091
فبارك	-12.0922
لكونه	-12.0923
تفسير	-12.0923
تحرك	-12.0949
ارتفاعه	-12.0974
تموهم	-12.0976
طاف	-12.0987
يزد	-12.0989
تحف	-12.1003
مواجه	-12.102
بحث	-12.107
معونت	-12.1093
ترهب	-12.1107
تكئ	-12.1119
قبيح	-12.1127
عتيق	-12.1156
مظال	-12.1171
اذهان	-12.1177
تحير	-12.1191
تسكت	-12.1209
زبر	-12.1223
سبقت	-12.1231
محيط	-12.1247
ويوقده	-12.1249
مهد	-12.125
تمتلكه	-12.1253
سماع	-12.1256
سلوك	-12.1261
وطرحوه	-12.1298
تنط	-12.1323
هدب	-12.1331
مسلم	-12.1349
متجه	-12.1366
شتكي	-12.138
اسس	-12.1394
حداثت	-12.14
تسالونيكي	-12.1415
تنتظر	-12.1415
ذخائر	-12.1415
محفوظ	-12.1415
صنائع	-12.1415
اقتحام	-12.1415
خبيث	-12.1415
الخباز	-12.1415
خاطف	-12.1415
كورنث	-12.1415
تلتقط	-12.1415
يبتلع	-12.1415
اكتنف	-12.1415
حاذق	-12.1415
مغروس	-12.1415
مخترع	-12.1415
يستحق	-12.1415
اسكندر	-12.1416
ستغيث	-12.1416
مخيف	-12.1416
يتقون	-12.1416
رابض	-12.1416
ارتحال	-12.1416
رفوش	-12.1416
دفوف	-12.1417
ساكت	-12.1417
يبرح	-12.1417
يلهج	-12.1418
يختر	-12.1419
اسبح	-12.1419
يبيعون	-12.142
اهتمام	-12.142
تذم	-12.1421
وعوارضه	-12.1421
اصدقاء	-12.1421
يشتهي	-12.1421
كوكب	-12.1422
اختراع	-12.1424
رفاد	-12.1425
الوطني	-12.1426
تجهلو	-12.1428
تخضع	-12.1428
خدعت	-12.143
ازداد	-12.1431
الناهب	-12.1432
استهزأ	-12.1436
حادث	-12.1438
طلوع	-12.1438
قساو	-12.1441
المتوكل	-12.1441
تطلقه	-12.1441
وقاعدته	-12.1442
ضفر	-12.1442
واقع	-12.1445
دعيتم	-12.1447
جزائ	-12.1448
اعتزل	-12.1454
قترن	-12.1455
اسلح	-12.1457
يعبدون	-12.1458
حاسب	-12.146
تستجيب	-12.1464
واظب	-12.1465
وينهب	-12.1466
فامتنع	-12.1467
يلزم	-12.1468
ختطف	-12.1469
واطلقه	-12.1472
ويوز	-12.1475
ارتعب	-12.1482
مظلوم	-12.1483
مدبر	-12.1486
سيوفهم	-12.1488
حساب	-12.1491
تضطجع	-12.1496
واستدع	-12.1497
شارب	-12.1498
متوشا	-12.1505
نهلك	-12.151
صنم	-12.1511
عتد	-12.1517
مفسد	-12.1521
راسخ	-12.1526
للرض	-12.1528
تضطهد	-12.1529
لغلامه	-12.1533
اشتراه	-12.1537
شيث	-12.1538
افيق	-12.1548
أهول	-12.1551
ارتخ	-12.1552
مطرز	-12.1555
محبوسا	-12.1558
فداي	-12.1558
وهبت	-12.1562
محصول	-12.1566
يمامت	-12.1573
استشار	-12.1579
غلات	-12.1599
تفسد	-12.1602
أفليس	-12.1607
يتوبو	-12.1621
ليبارك	-12.1626
خاصته	-12.1627
غمد	-12.1628
منحوتات	-12.1635
اجرت	-12.165
حدق	-12.1653
نشف	-12.1654
حرس	-12.1656
تئن	-12.1659
معذب	-12.1662
رقاب	-12.1664
قدرت	-12.1684
اصابتن	-12.1685
مجاري	-12.1715
ختمر	-12.176
تبررت	-12.1762
خيار	-12.1772
وصري	-12.178
وذر	-12.1788
وأكلت	-12.1791
تتلف	-12.1795
طفق	-12.1798
اهر	-12.1803
الوالد	-12.182
أمسك	-12.183
صفير	-12.184
منحني	-12.1842
انتظرنا	-12.1853
فسج	-12.1875
رئي	-12.1876
مذم	-12.1885
قيش	-12.1889
احبائ	-12.1896
أرأيت	-12.1927
خور	-12.1928
وسكنت	-12.1956
يعج	-12.1964
لسانهم	-12.1978
لحوم	-12.1999
نكث	-12.2001
حياتهم	-12.2014
اوصان	-12.2036
آمرك	-12.2036
بعون	-12.2046
يجتر	-12.2049
وضعوه	-12.2072
فالج	-12.2087
الشت	-12.2123
مستهزئ	-12.2176
تمشي	-12.2187
ايثان	-12.219
ددهم	-12.2197
عدلام	-12.22
جزيل	-12.2209
غلبت	-12.2263
راكم	-12.2303
دهر	-12.2314
متمسك	-12.232
حظ	-12.2419
اصابته	-12.243
خفت	-12.2438
احتقرت	-12.2466
يسبون	-12.2496
حلاو	-12.2512
آبار	-12.2526
واخذوه	-12.2533
ورؤساؤ	-12.2545
عاصي	-12.2554
رؤساؤه	-12.2565
الناصر	-12.2588
وتجعله	-12.2604
اعتز	-12.2622
جوز	-12.263
العث	-12.2634
تابو	-12.2636
ويرش	-12.266
جشور	-12.2664
ننتظر	-12.2665
تسابيح	-12.2665
رفائع	-12.2665
مغفور	-12.2665
المنحدر	-12.2665
شنعار	-12.2665
وملؤه	-12.2665
مشتهيات	-12.2665
تفتكر	-12.2665
مغاير	-12.2665
مرسوم	-12.2665
مجتهد	-12.2665
مجيئك	-12.2665
خنزير	-12.2665
ترميم	-12.2665
بيلشاص	-12.2665
مرضوض	-12.2666
اضداد	-12.2666
مقادس	-12.2666
سلسلتي	-12.2666
اقراص	-12.2667
يلتفت	-12.2667
ارتداد	-12.2667
بواسير	-12.2668
ورقاق	-12.2668
الجاعل	-12.2668
ينتقم	-12.2668
مكايد	-12.2668
عثني	-12.2669
اطايب	-12.2669
فجار	-12.2669
نسائك	-12.2669
نسائهم	-12.2671
مصلوب	-12.2671
فامسكه	-12.2671
لاغاظت	-12.2672
ً	-12.4093
i	-12.776
(	-13.026
)	-13.026
𐋇	-13.3593
:	-13.3593
-	-13.8593
2	-13.8593
[	-13.8593
]	-13.8593
h	-13.8593
o	-13.8593
t	-13.8593
1	-13.8593
ـ	-14.8592
.	-14.8593
*	-14.8593
5	-14.8593
6	-14.8593
j	-14.8593
m	-14.8593
n	-14.8593
y	-14.8593
ٍ	-14.8593
𐊣	-14.8593
𐊼	-14.8593
