<pad>	0
</s>	0
<unk>	0
¦	-1.2501
▁¦	-1.4207
▁	-3.72002
a	-3.93747
𐋇	-4.1686
an	-4.52406
▁.	-4.5537
▁,	-4.60534
ar	-4.68145
agus	-4.842
dh	-5.00478
d	-5.08258
i	-5.13905
na	-5.1537
í	-5.15851
le	-5.18154
s	-5.23853
n	-5.23871
go	-5.29945
e	-5.39364
is	-5.49289
t	-5.51209
r	-5.53491
do	-5.57547
-	-5.6828
ag	-5.74098
il	-5.80631
ú	-5.9116
in	-5.92164
ithe	-5.99096
bh	-5.99456
covid	-6.09102
igh	-6.10028
tá	-6.12101
ir	-6.12963
-19¦	-6.15654
de	-6.16217
nó	-6.1872
▁’	-6.23536
mh	-6.25619
mar	-6.27517
ch	-6.28222
seo	-6.32286
anna	-6.33036
f	-6.3541
h	-6.44468
ó	-6.45393
tú	-6.4616
chun	-6.47498
eile	-6.50273
aoine	-6.50378
ach	-6.52246
má	-6.54582
c	-6.56512
g	-6.56727
sa	-6.56994
bhfuil	-6.58798
▁(	-6.61582
ta	-6.63352
cás	-6.69418
sé	-6.71323
íonn	-6.71819
m	-6.72565
ort	-6.75588
atá	-6.77603
b	-6.80002
ann	-6.80627
é	-6.82914
iad	-6.84158
eann	-6.88153
p	-6.93109
ná	-6.95197
as	-6.95239
féid	-6.95401
ní	-6.95872
faoi	-6.96059
cov	-6.96572
sin	-6.96593
▁)	-7.05084
duine	-7.06496
tar	-7.06868
víreas	-7.09159
íos	-7.10043
sláinte	-7.10322
la	-7.11568
aí	-7.1211
leis	-7.12422
adh	-7.15229
mó	-7.19554
u	-7.19904
aon	-7.20052
nach	-7.20405
o	-7.21943
aibh	-7.22105
nío	-7.23551
tear	-7.25172
uair	-7.2595
dhéana	-7.27228
al	-7.27561
bhí	-7.28582
sars	-7.29747
▁:	-7.31108
bás	-7.33277
vacsaín	-7.3369
ba	-7.33831
úsáid	-7.34104
th	-7.34117
l	-7.36814
eith	-7.39263
gach	-7.4
aghaidh	-7.41115
chur	-7.41223
rud	-7.41224
éis	-7.41347
hu	-7.41597
tuairiscío	-7.45234
lá	-7.47185
féin	-7.4802
ón	-7.49547
iú	-7.50701
idir	-7.51454
comharthaí	-7.52074
eadh	-7.52436
gur	-7.54192
fhéadfa	-7.54565
árta	-7.54567
duit	-7.55673
▁¦2020¦	-7.55676
ina	-7.56883
.	-7.57186
idh	-7.58592
roinnt	-7.59014
thug	-7.60125
den	-7.61283
chóir	-7.61987
trí	-7.62599
air	-7.64831
líon	-7.66627
tástáil	-7.67161
san	-7.67372
don	-7.67724
nn	-7.70145
á	-7.70534
nua	-7.71199
dói	-7.75508
mb	-7.76594
roimh	-7.77
isteach	-7.79161
irt	-7.79629
amach	-7.80375
mór	-7.80387
aíonn	-7.80822
fre	-7.83043
déan	-7.83072
leat	-7.83212
anacht	-7.83324
am	-7.85483
gan	-7.85558
te	-7.86296
sh	-7.86622
chomh	-7.87202
chuir	-7.87769
isin	-7.87928
-2¦	-7.89046
5¦	-7.90318
tha	-7.90432
fáil	-7.9079
mháin	-7.90997
sonra	-7.91072
chás	-7.9137
tástála	-7.91376
ráig	-7.92469
ionfhabhtaithe	-7.92972
aithe	-7.9298
coronavirus	-7.93458
ul	-7.94154
ionfhabht	-7.94851
eanna	-7.94886
gheall	-7.95591
1¦	-7.95755
chuig	-7.96167
fu	-7.97236
áirí	-7.97828
aonta	-7.98268
ard	-7.98653
,	-8.00548
teaghla	-8.01132
tír	-8.01899
im	-8.02065
tuga	-8.02755
linn	-8.0297
cé	-8.03255
áil	-8.03296
lámha	-8.03568
leor	-8.04319
íortha	-8.0603
réir	-8.06751
ne	-8.06928
náisiún	-8.07055
sín	-8.07723
mí	-8.08117
chuid	-8.08218
fháil	-8.08249
bhaile	-8.08255
dá	-8.08756
scaipea	-8.0885
aigh	-8.09275
fh	-8.0942
tinn	-8.10773
acu	-8.11359
gcás	-8.119
maidi	-8.12298
clúda	-8.12456
mura	-8.12593
gal	-8.1269
ospidé	-8.13232
measc	-8.13894
bei	-8.14192
dtí	-8.14507
eabhra	-8.14849
ra	-8.15168
vír	-8.15693
sna	-8.15716
▁-	-8.15769
y	-8.15847
dí	-8.15985
os	-8.16006
eamh	-8.16982
gh	-8.1712
aghaidhe	-8.17393
“	-8.19879
chéad	-8.20025
áin	-8.21056
ig	-8.22054
léir	-8.22182
each	-8.23319
acha	-8.23756
cur	-8.23847
cha	-8.24311
aip	-8.24667
aois	-8.24724
eanái	-8.249
pháist	-8.25277
othair	-8.2555
fógra	-8.25669
bhain	-8.26096
fuair	-8.26957
hiomláin	-8.27004
▁"	-8.27012
riospráid	-8.2774
7	-8.27799
ionad	-8.29009
eas	-8.29451
cuirea	-8.2956
fad	-8.29797
oibl	-8.30742
thabha	-8.30809
aol	-8.31622
cúram	-8.32555
hcov	-8.32922
bhfeidhm	-8.33116
▁¦2¦	-8.33774
faoin	-8.34142
áit	-8.34536
maith	-8.34673
bearta	-8.34772
▁;	-8.34835
eola	-8.35013
3¦	-8.35353
▁'	-8.35477
leo	-8.3558
siú	-8.36146
stái	-8.36721
leana	-8.37218
agat	-8.37552
scoile	-8.38632
seirbhís	-8.38731
chaithea	-8.40375
gá	-8.40853
neamh	-8.41276
leighis	-8.42131
co	-8.42575
uas	-8.43006
lean	-8.43012
wh	-8.43159
mbea	-8.43197
aibreá	-8.43839
thar	-8.4467
shampla	-8.44716
laghd	-8.44729
cuir	-8.45375
leibhé	-8.45607
níl	-8.46077
liú	-8.46086
teagmhá	-8.46157
dhochtúir	-8.46494
blia	-8.46497
iomlán	-8.46499
mhéad	-8.46662
1	-8.48267
riosca	-8.48304
ghala	-8.48391
▁¦10	-8.48428
srianta	-8.48445
síne	-8.4924
▁).	-8.49439
9¦	-8.50294
ceart	-8.51452
mbei	-8.51607
úil	-8.52171
comhairle	-8.52263
dhá	-8.52639
dearfach	-8.53149
w	-8.53777
rial	-8.53892
odh	-8.53914
2¦	-8.53941
lú	-8.54497
án	-8.54657
chéi	-8.55822
▁¦14	-8.55858
thástá	-8.55889
6¦	-8.56617
bia	-8.56618
cinn	-8.56886
4¦	-8.56972
v	-8.57405
othar	-8.57412
óstach	-8.57881
rialtas	-8.58036
luath	-8.59045
déana	-8.5905
tora	-8.59221
ceann	-8.59237
fó	-8.60191
beal	-8.60336
mhí	-8.60855
han	-8.61202
2	-8.61217
▁¦20	-8.61239
glao	-8.61302
orthaí	-8.61675
sóisial	-8.61985
fhógraío	-8.62382
ma	-8.62501
casacht	-8.63048
tarchur	-8.63352
srian	-8.65494
dúna	-8.6558
rón	-8.65634
bhféadfa	-8.65659
fhógair	-8.66263
chomhartha	-8.66282
um	-8.66989
fear	-8.67863
nd	-8.67933
tháin	-8.67956
aire	-8.68305
▁),	-8.68641
mhór	-8.6899
thuairisc	-8.69032
8	-8.69216
vacsaíní	-8.69586
mers	-8.69597
amhail	-8.69598
staidé	-8.69805
se	-8.69839
dt	-8.69918
minic	-8.70732
bhás	-8.70736
cosú	-8.70898
beag	-8.709
ph	-8.71595
oibre	-8.71692
cuairt	-8.7188
ghnáth	-8.71882
bhei	-8.71896
fhaigh	-8.71974
tioncha	-8.72115
seachtain	-8.72153
thart	-8.7221
céanna	-8.72287
roinn	-8.72664
wu	-8.73136
milliú	-8.73169
chosaint	-8.74221
ialtóg	-8.74223
có	-8.74301
scoil	-8.74368
oscailt	-8.76217
teagmhála	-8.76219
cheart	-8.76647
háir	-8.76821
rian	-8.76928
léin	-8.78282
omhain	-8.78397
anta	-8.78449
iarracht	-8.7909
smuig	-8.79127
paindéim	-8.79667
líne	-8.79683
obair	-8.80322
éal	-8.80885
dó	-8.811
thor	-8.81552
8¦	-8.81638
airde	-8.8228
taisteal	-8.82915
imh	-8.83002
ráta	-8.8324
me	-8.83547
▁¦11	-8.84283
lé	-8.84645
mbás	-8.84715
theas	-8.84877
coraintín	-8.8488
mid	-8.8506
taine	-8.852
láthair	-8.85487
fhéid	-8.85678
buna	-8.85917
cheann	-8.86126
on	-8.86284
leith	-8.86412
k	-8.8685
úirt	-8.87233
ion	-8.87502
ath	-8.87659
choróinvír	-8.88212
0¦	-8.88291
,000¦	-8.88585
fs	-8.89336
▁¦15	-8.89394
átha	-8.89447
aonrú	-8.89565
éil	-8.89825
comh	-8.90175
tús	-8.90312
ár	-8.90333
masc	-8.90561
lacha	-8.90688
▁¦24	-8.90779
fiabhra	-8.90926
laghad	-8.90926
taist	-8.90949
▁¦3	-8.91192
re	-8.91449
éagsúla	-8.91571
rinne	-8.9208
▁¦12	-8.92467
ainmh	-8.9256
nós	-8.92664
ic	-8.92769
sula	-8.92942
dearbha	-8.93409
measa	-8.93618
the	-8.93756
iompar	-8.93877
oibrithe	-8.93977
gcuid	-8.94232
choinneá	-8.9432
oideacha	-8.95257
teacht	-8.96043
imní	-8.96545
éigeandála	-8.96708
bharr	-8.96756
iodáil	-8.97539
dochtúir	-8.97626
laist	-8.97631
tabhair	-8.98233
mheas	-8.98513
acht	-8.99512
rtha	-8.99617
sampla	-8.99691
géar	-8.99705
imeachta	-9.00797
íocht	-9.00844
cabhr	-9.01147
▁¦2019	-9.01229
liath	-9.01295
bunúsach	-9.01678
ceal	-9.02076
coróin	-9.02135
cion	-9.02653
▁¦4¦	-9.03411
víreasach	-9.03412
lár	-9.0347
éine	-9.03587
it	-9.03989
0	-9.04261
déanta	-9.04263
cleachta	-9.04302
láithreach	-9.04379
cosc	-9.04419
rialtais	-9.04571
súil	-9.05003
rá	-9.05338
ama	-9.05975
imdhíonacht	-9.05996
dáileog	-9.06098
cona	-9.0632
bhaint	-9.06964
cuid	-9.071
ing	-9.07305
coinn	-9.07554
athr	-9.07575
meit	-9.07738
díreach	-9.07764
áirith	-9.07805
mhol	-9.07882
heamh	-9.08113
stá	-9.08328
onn	-9.08334
cr	-9.0865
tí	-9.08684
int	-9.08882
eipidéim	-9.08983
ró	-9.09238
druga	-9.09298
gc	-9.0974
eacha	-9.10042
dteagmhá	-9.10488
foláir	-9.11046
▁¦13	-9.11049
gcoinne	-9.11064
córas	-9.11139
thas	-9.113
fiú	-9.12038
cúis	-9.12638
ála	-9.12758
pian	-9.12861
baint	-9.12917
éifeachtach	-9.12918
deirea	-9.13157
agann	-9.13901
uine	-9.13935
próitéin	-9.13992
ionai	-9.14107
tréimhs	-9.14471
eagraíocht	-9.14472
dhiaidh	-9.14474
tábhachtach	-9.14516
glan	-9.14941
ce	-9.14942
4	-9.14966
mac	-9.15585
daonn	-9.15747
00¦	-9.15949
céim	-9.16125
méad	-9.16223
chloig	-9.16257
cúraim	-9.16257
óirí	-9.16274
chúis	-9.16277
faireacha	-9.16284
tapa	-9.1629
láimh	-9.16346
athair	-9.16385
chosc	-9.16394
cu	-9.16434
▁¦9	-9.16566
for	-9.16854
phoba	-9.18076
chomhairle	-9.18076
fhorbair	-9.18112
teast	-9.18154
poba	-9.18218
áitiú	-9.18491
▁¦22	-9.18614
haine	-9.18761
freastal	-9.19087
fra	-9.19597
dú	-9.19618
ghluaiseacht	-9.19927
cliniciú	-9.19954
riocht	-9.19991
mo	-9.20236
ge	-9.20305
chos	-9.20663
scar	-9.20686
ainn	-9.20924
fan	-9.21375
iúl	-9.21589
tharla	-9.2174
príomh	-9.21772
sraotharta	-9.21814
básmhaireacht	-9.21815
daonra	-9.21848
taobh	-9.2192
ol	-9.21976
bu	-9.22332
lua	-9.22841
dé	-9.23524
mhíoc	-9.23774
▁¦30	-9.23875
méid	-9.24082
ís	-9.24154
phe	-9.25091
choinne	-9.25094
caith	-9.25124
cóir	-9.25334
coiti	-9.25498
▁¦16	-9.25508
pearsanta	-9.25698
treala	-9.25698
fhág	-9.25698
breis	-9.25706
ord	-9.25869
nna	-9.26127
raí	-9.26342
eis	-9.26427
rinnea	-9.26446
cóireá	-9.26565
inn	-9.26609
chéim	-9.26904
▁¦23	-9.2768
íochta	-9.27768
ois	-9.28282
dara	-9.28504
uait	-9.28616
tr	-9.29022
éir	-9.29436
éadrom	-9.29738
fíneá	-9.29739
taighde	-9.29755
cosain	-9.29778
gnáth	-9.29802
ip	-9.30453
dtug	-9.30525
▁¦50	-9.3058
fuar	-9.30693
ur	-9.30719
li	-9.31495
shláinte	-9.31822
amhras	-9.31822
niúmói	-9.31824
thosa	-9.3186
airíonn	-9.31877
mol	-9.31934
údará	-9.32034
▁¦7	-9.32624
oisc	-9.32903
mhair	-9.33441
anála	-9.33741
▁%)	-9.33949
fhoir	-9.34043
eachas	-9.34093
fola	-9.34202
gartheagmhála	-9.34245
domhand	-9.34431
teach	-9.34611
oifig	-9.35503
sholáth	-9.35627
timpeall	-9.36123
míochain	-9.36125
▁¦18	-9.36151
▁¦19¦	-9.36256
diúltach	-9.36269
cheana	-9.36283
bhrí	-9.36507
riachtanach	-9.36584
▁¦26	-9.36641
deacracht	-9.36783
deimhn	-9.36833
speic	-9.38346
iaráin	-9.38451
cosant	-9.3865
bain	-9.39306
onair	-9.39982
ocht	-9.40099
▁¦200	-9.40134
ndearna	-9.40619
cdc	-9.40633
tu	-9.40681
garda	-9.40742
bpaindéim	-9.40824
astra	-9.40971
ze	-9.41009
sheachain	-9.41076
fás	-9.4112
nec	-9.41304
óstá	-9.41361
sí	-9.41619
aill	-9.41976
gala	-9.42034
chu	-9.42447
tógálach	-9.43026
aer	-9.43379
artha	-9.43436
tosa	-9.43777
aige	-9.4411
nár	-9.44114
leagan	-9.44165
mbail	-9.44929
ith	-9.44969
cead	-9.4503
fe	-9.45093
ráige	-9.45094
rianair	-9.45148
sábháilte	-9.45307
diagnóis	-9.45325
fíor	-9.45325
sábháilteacht	-9.45342
ollaig	-9.45353
áireamh	-9.45446
▁¦28	-9.45468
sp	-9.4562
aitheanta	-9.45686
róm	-9.46279
sion	-9.46515
deara	-9.46542
be	-9.46619
cho	-9.46956
cad	-9.47109
oir	-9.47256
cruinn	-9.47764
leanúnach	-9.47765
liosta	-9.47771
béite	-9.47793
gcéad	-9.47872
foir	-9.47874
cht	-9.48039
uimh	-9.48081
fhad	-9.48112
all	-9.48289
reath	-9.48338
▁¦17	-9.48419
únta	-9.48445
áite	-9.48696
éid	-9.48751
baile	-9.48987
es	-9.4931
mhain	-9.4977
clár	-9.49998
uisc	-9.50178
osú	-9.5024
pe	-9.50253
dhomhand	-9.50264
afraic	-9.50265
▁¦2021¦	-9.50271
labhair	-9.50282
5	-9.50424
eorpach	-9.5045
id	-9.5101
paindéime	-9.51363
rna	-9.51628
meán	-9.51756
spreag	-9.51836
6	-9.52191
oirea	-9.52242
cúig	-9.52363
to	-9.52371
óga	-9.52375
▁¦100	-9.52606
mui	-9.52658
siopadóireacht	-9.52828
chibear	-9.52828
suntasach	-9.52829
fios	-9.52833
altra	-9.52844
maisc	-9.52876
álta	-9.53
nigh	-9.53749
lo	-9.54055
irí	-9.54071
tuill	-9.5421
theast	-9.54358
inne	-9.54418
forba	-9.54504
mic	-9.5503
fo	-9.55053
aice	-9.55185
dromchla	-9.55459
saor	-9.5546
eacnamaíoch	-9.55461
chinnti	-9.55482
cineál	-9.55484
taire	-9.55502
níochá	-9.55593
shár	-9.55849
éigh	-9.55855
theann	-9.5669
eanta	-9.56907
faid	-9.57585
éireann	-9.57589
z	-9.57813
st	-9.58052
úsáide	-9.58113
phaindéim	-9.58162
siopa	-9.58162
nádúr	-9.58209
dócha	-9.58235
eithre	-9.5829
fhor	-9.58413
ine	-9.58697
hlat	-9.58916
hairío	-9.59017
lámh	-9.59883
fion	-9.59886
ige	-9.59983
rc	-9.60157
grúpa	-9.60407
éad	-9.60447
réamh	-9.60544
bith	-9.61074
rianaithe	-9.61085
eoir	-9.6153
fá	-9.61656
uiscint	-9.61879
brú	-9.62207
stair	-9.6248
daoin	-9.625
dáile	-9.62947
cair	-9.63224
om	-9.63555
▁¦27	-9.63667
oc	-9.63748
roghna	-9.63772
▁¦21	-9.63777
eitilt	-9.63797
anailís	-9.63797
uirth	-9.63799
dheirea	-9.63805
athoscailt	-9.63833
sláintiú	-9.63835
osta	-9.64035
hio	-9.64211
ve	-9.65412
9	-9.6552
bheala	-9.65637
lae	-9.66265
cinnte	-9.66629
monatóireacht	-9.66738
tromchúiseach	-9.66738
dheimhn	-9.66739
comparáid	-9.66739
íseal	-9.6674
antasubstaint	-9.66742
teocht	-9.66796
anaithnid	-9.6683
slaghdá	-9.66859
po	-9.66959
ríocht	-9.67044
ábhar	-9.67085
gcomh	-9.6712
ghrúpa	-9.67427
fhio	-9.67599
cúna	-9.68095
trialach	-9.68873
bun	-9.68926
frith	-9.69036
riachtana	-9.69096
x	-9.69102
tinnea	-9.69311
suíomh	-9.69769
cógais	-9.69769
idirmheánach	-9.6977
chlúda	-9.69771
dlúth	-9.69771
gcóna	-9.69809
soláthair	-9.69813
fhreagairt	-9.69835
stiú	-9.69889
toba	-9.69906
treoirlín	-9.70184
tarchuir	-9.70354
caoi	-9.71146
ollscoil	-9.71538
tóg	-9.71686
▁¦31	-9.71994
ligean	-9.72025
molta	-9.72035
rthóir	-9.72066
thógá	-9.72231
domhan	-9.72324
iseach	-9.72338
nochta	-9.72355
freagra	-9.7239
earra	-9.72457
chineál	-9.72894
giorra	-9.72894
acmhainn	-9.72894
shóis	-9.72898
uachtarán	-9.72898
teorainn	-9.72915
shocr	-9.72921
fianaise	-9.73119
trom	-9.73532
fóin	-9.7376
iarrai	-9.73845
che	-9.73936
bhfaigh	-9.73967
comhair	-9.74077
ísle	-9.74159
tic	-9.74199
ladh	-9.74201
aidh	-9.7443
faisnéis	-9.74683
leatha	-9.74776
iarr	-9.74923
gníomh	-9.75496
oibrí	-9.75617
ialta	-9.75722
éigin	-9.75976
con	-9.76006
faigh	-9.76087
theaghla	-9.7612
éigeantach	-9.7612
seachain	-9.7613
neamhriachtanach	-9.76153
india	-9.76288
slán	-9.76579
ól	-9.766
dlí	-9.76627
mhaol	-9.76966
43¦	-9.77032
iméad	-9.77191
dáta	-9.77345
40	-9.77829
dhearbha	-9.77957
he	-9.78043
iún	-9.78117
beo	-9.78179
saotharla	-9.7927
hiomlán	-9.79394
▁¦29	-9.79403
géanóm	-9.79453
eamhshiomptómach	-9.79453
ciall	-9.79456
speisialta	-9.79467
gceist	-9.79537
inneach	-9.79687
ghlana	-9.79706
coinne	-9.79814
aims	-9.79821
▁¦19	-9.80083
cill	-9.80155
óca	-9.80308
leath	-9.80436
seacht	-9.80538
uath	-9.8062
ndéanfa	-9.80632
tacaíocht	-9.80785
siúl	-9.80939
oin	-9.81434
aonad	-9.82041
earfach	-9.82546
so	-9.82672
thú	-9.82726
díobh	-9.82802
theagmhá	-9.82896
forleathan	-9.82902
229	-9.82904
réims	-9.82907
rialta	-9.82941
phoibl	-9.82978
rath	-9.83001
eo	-9.83107
úint	-9.83268
chóireá	-9.83385
ist	-9.8362
chtaí	-9.83931
gine	-9.84015
chumas	-9.84569
rialacha	-9.84577
iv	-9.84763
95¦	-9.85038
ithint	-9.8504
héir	-9.85298
48	-9.85417
bhf	-9.85624
gartheagmhá	-9.85847
seas	-9.85968
plean	-9.86043
3	-9.86208
rsc	-9.86426
institiúid	-9.86472
straitéis	-9.86472
folláin	-9.86473
chorp	-9.86473
figiú	-9.86473
aclaíocht	-9.86474
croí	-9.86474
dhéanta	-9.86501
ton	-9.87139
bpob	-9.87349
rogha	-9.87414
hionfhabht	-9.87573
cor	-9.8804
dianchúra	-9.88041
dhearbh	-9.88193
hír	-9.88366
oth	-9.88391
j	-9.88393
ainm	-9.88497
oibr	-9.89091
gp	-9.89152
gná	-9.89211
sláinteacha	-9.8941
bo	-9.89493
stop	-9.89565
shonra	-9.89702
freagair	-9.89794
íche	-9.90003
eachta	-9.90157
chóras	-9.90176
núiclé	-9.90176
q	-9.90176
scrúd	-9.90189
us	-9.90211
meiriceá	-9.90229
díol	-9.90254
pcr	-9.90412
fillea	-9.90444
buail	-9.90459
tin	-9.90713
fach	-9.90728
éasca	-9.90753
siar	-9.90771
sain	-9.90844
impl	-9.90995
nasc	-9.91103
70¦	-9.91806
lacht	-9.91892
▁¦60	-9.92015
lin	-9.92189
cóna	-9.92507
áise	-9.92578
cód	-9.92685
▁¦25¦	-9.93011
eorai	-9.93379
cuirfi	-9.93419
reacha	-9.93595
déanfai	-9.93679
sheirbhís	-9.94022
toirch	-9.94025
mhilliú	-9.94025
bhailiú	-9.94036
fachtóir	-9.94038
nuashonr	-9.94044
bhlia	-9.94105
bill	-9.9415
féach	-9.94155
▁."	-9.94176
ntana	-9.94199
63	-9.9429
mich	-9.94291
imeacht	-9.94425
oll	-9.94506
éann	-9.94537
báis	-9.95134
aireacht	-9.95303
amu	-9.95358
rainc	-9.95961
ineacht	-9.96338
pro	-9.96513
caithfi	-9.96704
ria	-9.96744
dhún	-9.96795
ainmn	-9.97131
eisío	-9.97501
éirí	-9.9772
eál	-9.97723
aoi	-9.97864
braisl	-9.97897
taispeán	-9.98022
bhfoir	-9.98026
tirim	-9.98029
meastachá	-9.98033
zónóiseach	-9.9804
brath	-9.98155
mall	-9.9826
scorna	-9.98368
breith	-9.98432
féadfai	-9.98551
mhar	-9.98618
óir	-9.98689
orm	-9.98788
héann	-9.9905
35	-9.99266
modh	-10.0005
bhia	-10.0007
éire	-10.0013
rochtain	-10.0038
cóireála	-10.0046
féideartha	-10.0051
láir	-10.0052
tor	-10.0092
ly	-10.0093
bunús	-10.01
bí	-10.0108
áis	-10.0132
luan	-10.0132
páist	-10.0135
teoran	-10.0163
caithea	-10.017
díot	-10.0212
rith	-10.0216
ghartheagmhála	-10.0219
$	-10.0219
johns	-10.0219
pfizer	-10.0219
sealadach	-10.0219
seicheamh	-10.0219
taifead	-10.0219
gallúnach	-10.0219
athbhreithni	-10.0219
scaipthe	-10.0221
chleachta	-10.0221
cathrach	-10.0227
méadaithe	-10.0232
gceanta	-10.0234
soláthra	-10.0249
agóid	-10.025
fág	-10.0251
lu	-10.0258
easp	-10.0279
dhúna	-10.0289
maol	-10.0301
par	-10.0306
fen	-10.0327
tair	-10.037
aisce	-10.0377
lann	-10.0413
tugt	-10.0417
cá	-10.0422
iste	-10.043
ste	-10.0462
oifigiú	-10.0465
fhógra	-10.0486
37	-10.0493
meast	-10.0528
lig	-10.0533
céad	-10.0538
moill	-10.0606
lán	-10.0611
rán	-10.0621
éifeachta	-10.0637
contae	-10.0647
[	-10.0654
athlastach	-10.0654
braoinín	-10.0654
láimhseáil	-10.0654
taiscuma	-10.0654
soiléir	-10.0654
measún	-10.0654
phríomh	-10.0655
póirt	-10.0657
seomra	-10.0657
imscrúd	-10.0658
torrach	-10.0663
cheal	-10.0678
haoine	-10.0678
ceanta	-10.0679
huaire	-10.0699
oidh	-10.0726
hom	-10.0729
eagla	-10.0746
frithdhú	-10.0765
theach	-10.0794
ola	-10.0802
tuarascá	-10.0848
char	-10.0856
▁¦80	-10.0864
ump	-10.0868
cún	-10.0912
nas	-10.0915
raitheann	-10.094
nithe	-10.0943
deimhnío	-10.0962
diai	-10.0974
gluaiseachta	-10.1025
éiri	-10.1036
far	-10.1047
cam	-10.1094
ché	-10.1103
íomhá	-10.1108
seapáin	-10.1108
téacs	-10.1108
▁”.	-10.1108
swab	-10.1108
hku	-10.1108
thaobh	-10.1108
spáinn	-10.1108
teachtaireacht	-10.1112
scotha	-10.1118
bhrolla	-10.1118
mblian	-10.1127
▁".	-10.1141
áiste	-10.1147
gníomhaíochta	-10.1158
gnó	-10.1158
cúrs	-10.116
scaip	-10.1175
mhic	-10.1188
aid	-10.1195
braithea	-10.1226
sheol	-10.1229
marga	-10.125
taí	-10.1271
íoc	-10.1272
neart	-10.1284
iom	-10.1297
ja	-10.1297
teiripe	-10.1316
úine	-10.1334
bhun	-10.1342
óil	-10.1354
pas	-10.1366
ionas	-10.1382
mná	-10.1401
rú	-10.1416
osca	-10.1425
ainne	-10.1425
ndéan	-10.1426
dír	-10.1455
ré	-10.1461
eagr	-10.1514
oiriún	-10.1578
éigeandá	-10.1578
&	-10.1584
astráil	-10.1584
chúrsa	-10.1584
coinníoll	-10.1584
críoch	-10.1585
gheo	-10.1589
criticiú	-10.1589
shuí	-10.159
▁]	-10.1591
chliniciú	-10.1593
bheag	-10.1594
shrian	-10.1601
coimeád	-10.1605
aoire	-10.161
laghdaithe	-10.1625
fhéadf	-10.1628
ite	-10.1639
scaga	-10.1648
ct	-10.165
tacú	-10.1668
páirt	-10.1691
úsáideoir	-10.1692
cathai	-10.1707
dtosa	-10.171
shin	-10.171
13	-10.1717
bua	-10.173
óid	-10.1739
23¦	-10.1759
domhna	-10.1764
ilse	-10.1768
un	-10.1769
thuai	-10.1784
tabharfa	-10.1808
sciathá	-10.1815
táirg	-10.1832
bhuna	-10.1837
bola	-10.1869
ghlac	-10.1872
leacht	-10.1885
ití	-10.1906
seach	-10.1936
mola	-10.1945
eachtaí	-10.2014
eol	-10.2079
rasaíl	-10.2084
plód	-10.2084
california	-10.2084
fhreagra	-10.2084
sóchá	-10.2085
cheada	-10.2085
leigheas	-10.2085
seans	-10.2087
rialachá	-10.2092
ghníomhaíocht	-10.21
tria	-10.21
ghearr	-10.2108
tuismitheoir	-10.2111
saotharlann	-10.2112
cuims	-10.2113
eacht	-10.2122
iompai	-10.2128
scamhóg	-10.2129
cúige	-10.2179
throm	-10.2181
gníomhach	-10.2182
ace	-10.2203
leithlis	-10.2222
othú	-10.223
cal	-10.2242
nolla	-10.2242
húsáid	-10.2261
thru	-10.227
eachtrach	-10.2271
nl	-10.2296
réit	-10.2307
▁¦38	-10.2364
sca	-10.238
dam	-10.2401
chúram	-10.2405
52	-10.2443
▁¦8¦	-10.2447
aimsío	-10.2449
▁.,	-10.25
sheola	-10.2504
aithnío	-10.2506
thu	-10.2509
víreolaíoch	-10.2539
cm	-10.254
gcaithf	-10.2578
uaire	-10.2594
oga	-10.2607
biontech	-10.2611
oimisiún	-10.2611
phróitéin	-10.2611
thaispeáin	-10.2611
▁%.	-10.2611
iomarca	-10.2611
téarna	-10.2611
bheatha	-10.2611
earmáin	-10.2611
cuairteoir	-10.2614
saorána	-10.2615
eán	-10.2616
dtagann	-10.2617
géarchéim	-10.2619
dhíol	-10.262
cp	-10.2626
cónaitheoir	-10.2628
nuacht	-10.2629
thit	-10.2632
gearr	-10.2636
foils	-10.2637
béil	-10.2657
bhrú	-10.2663
íoch	-10.2667
ontráil	-10.2686
rang	-10.2695
clainn	-10.2704
com	-10.271
idí	-10.2731
scaoilea	-10.2748
meánscoile	-10.2757
airí	-10.2778
47	-10.2794
45	-10.2806
iarrfa	-10.2807
lit	-10.2825
sár	-10.2839
anál	-10.2855
gar	-10.2901
meas	-10.2941
sonrach	-10.295
99	-10.2967
foirm	-10.3005
chill	-10.3069
úlacht	-10.3073
mé	-10.3095
ábhair	-10.3102
réigiú	-10.3103
pá	-10.3106
fheic	-10.3145
33	-10.3146
ceist	-10.316
dhíon	-10.3164
éabhlóid	-10.3166
chórais	-10.3166
limisté	-10.3166
▁”,	-10.3166
ainsealach	-10.3166
difríocht	-10.3166
núíosach	-10.3166
aicéit	-10.3166
chógais	-10.3166
modern	-10.3167
riarachá	-10.3167
tábla	-10.3167
aerála	-10.3169
spíc	-10.3169
chuga	-10.3172
shín	-10.3181
chruth	-10.3188
ball	-10.3189
theorann	-10.319
gné	-10.3194
dtiocfa	-10.3198
rabha	-10.32
seiceáil	-10.3215
gcéim	-10.3216
mrna	-10.3221
coite	-10.3238
nnel	-10.3242
vir	-10.3243
eamó	-10.3258
scr	-10.3265
glac	-10.3279
aoil	-10.3302
scrío	-10.3302
ionsaí	-10.3311
eipidéimeolaíoch	-10.3317
sl	-10.3319
eolaíoch	-10.3325
of	-10.3335
teicneolaíocht	-10.3338
cl	-10.3367
ghlaca	-10.3409
.30	-10.3417
20	-10.3435
tarl	-10.3456
pháirtí	-10.3464
vi	-10.3467
antai	-10.3479
gair	-10.3495
deac	-10.3498
éard	-10.3506
fhu	-10.352
phlean	-10.3521
fón	-10.3535
órt	-10.3551
65	-10.3554
lachtaí	-10.3577
nce	-10.358
beir	-10.3626
freaga	-10.3681
treoir	-10.3694
feabh	-10.3716
lín	-10.3723
bialann	-10.3748
réigiún	-10.3749
bronchi	-10.3755
leochaileach	-10.3755
pangolin	-10.3755
saoráid	-10.3755
iarmhairt	-10.3755
dochtúr	-10.3755
páirc	-10.3755
chiall	-10.3755
ullmhacht	-10.3755
cloí	-10.3755
aslonn	-10.3755
bhearta	-10.3756
coicís	-10.3758
smaoin	-10.3758
phataigineach	-10.3759
fhoils	-10.377
bhreith	-10.3771
ael	-10.3773
dóchú	-10.3774
tao	-10.3776
ngartheagmhá	-10.3777
sco	-10.3782
meácha	-10.3787
scaoil	-10.3788
39	-10.3808
gcoróin	-10.3814
chlár	-10.3815
léi	-10.3824
stopa	-10.3854
orda	-10.3854
raon	-10.3856
thair	-10.3879
.5	-10.3882
gcuirf	-10.3896
ndéant	-10.3897
78	-10.3904
pla	-10.3909
chaith	-10.3915
scriosa	-10.3944
su	-10.3953
teas	-10.3965
olog	-10.399
leathn	-10.4008
icu	-10.4012
plé	-10.4026
tis	-10.4049
ireacht	-10.4058
ius	-10.4086
dhír	-10.411
uala	-10.4116
scan	-10.4141
idirghabhá	-10.4145
agtha	-10.4207
fhó	-10.4208
30	-10.4227
cealla	-10.4237
tuairisc	-10.4241
fógraí	-10.426
ríomh	-10.4283
tru	-10.43
▁..	-10.4312
scamhóga	-10.4324
córa	-10.4344
eiceáil	-10.4345
laethú	-10.4372
chinnea	-10.4375
struchtúr	-10.438
aigéad	-10.438
naíoná	-10.438
áinliacht	-10.438
scála	-10.438
tráth	-10.438
aistriú	-10.438
leithead	-10.438
sraith	-10.438
paisinéir	-10.4382
maireachtá	-10.4382
fadtéarmach	-10.4382
eisiúin	-10.4383
saineola	-10.4384
gcoda	-10.4385
cheist	-10.4385
aipe	-10.4395
faí	-10.4395
ex	-10.4398
chuims	-10.4402
mbeal	-10.4403
ell	-10.4406
ceo	-10.4413
land	-10.4416
coláist	-10.4417
marfach	-10.4418
lte	-10.4424
bail	-10.4424
▁¦2.	-10.4426
cabhróid	-10.443
gcuirfea	-10.4436
orainn	-10.4436
oifige	-10.446
oici	-10.4465
aeráil	-10.4474
leanann	-10.4479
eartha	-10.4485
gabha	-10.449
cáine	-10.4493
10	-10.4498
ngrúpa	-10.4506
ck	-10.453
cáis	-10.454
col	-10.457
leithr	-10.4575
36	-10.459
dteast	-10.4606
olainn	-10.4611
44	-10.4623
spreaga	-10.463
50	-10.464
abhrach	-10.4671
ros	-10.4675
cos	-10.4681
bhfor	-10.4741
inte	-10.4757
éifeachtúlacht	-10.4763
01	-10.4765
mhaithe	-10.4781
tacaíochta	-10.4783
tuairiscí	-10.4799
57	-10.4802
chon	-10.4835
dearbhaío	-10.4854
agairt	-10.4907
ruthú	-10.4909
meá	-10.4929
shá	-10.4966
féadf	-10.4967
gov	-10.498
gast	-10.4981
soláth	-10.4991
fhéi	-10.501
sat	-10.5038
eachtain	-10.5046
ciarsú	-10.5046
choraintín	-10.5046
civet	-10.5046
iontaofa	-10.5046
prótaca	-10.5046
mheánoirth	-10.5046
creid	-10.5046
randamach	-10.5046
fheidhmeannach	-10.5046
osclaío	-10.5047
dhéanf	-10.5047
fadhb	-10.5047
fhoins	-10.5047
breoiteacht	-10.5047
cógas	-10.5048
fíochá	-10.5048
macasamhl	-10.5049
múinteoir	-10.5051
dhaonra	-10.5052
ceathr	-10.5053
aisc	-10.5053
tuairisciú	-10.5053
naidhme	-10.5054
alfa	-10.5055
post	-10.5065
earná	-10.5067
chlé	-10.5075
aidhm	-10.5078
bhfón	-10.5089
trácht	-10.5093
achas	-10.5095
ról	-10.5102
bean	-10.5102
ách	-10.5115
uile	-10.5118
cheanta	-10.5125
gu	-10.5199
ghabh	-10.5208
ry	-10.5211
gurb	-10.5225
lach	-10.5298
caithfe	-10.5314
tug	-10.5339
18¦	-10.5352
ollscoile	-10.5354
atos	-10.5367
loch	-10.5382
socr	-10.543
chóna	-10.5434
dearbh	-10.5437
tuarascála	-10.5446
tháirgea	-10.5461
orf	-10.5472
▁¦4,8	-10.5479
bhail	-10.5485
théa	-10.5533
caill	-10.5551
gl	-10.5577
tus	-10.5591
lag	-10.5598
cúl	-10.561
rúis	-10.5625
rem	-10.5628
oileá	-10.5629
páipé	-10.5663
long	-10.5697
21¦	-10.5698
séasúr	-10.573
choinn	-10.5734
rat	-10.5735
une	-10.5753
fhaisnéis	-10.5757
foghlaim	-10.576
dteistiméireacht	-10.576
enteri	-10.576
fhiabhra	-10.576
fhostóir	-10.576
géiniteach	-10.576
sceideal	-10.576
ceanada	-10.576
bhuail	-10.5761
eiseama	-10.5761
caighdeá	-10.5761
fhaireacha	-10.5762
atreor	-10.5763
leithreas	-10.5764
cothaith	-10.5766
bailiú	-10.5767
athmhol	-10.5767
luaite	-10.5768
caint	-10.5772
deich	-10.5773
blu	-10.5779
phian	-10.578
caite	-10.5781
matá	-10.5782
gcontae	-10.5786
cuimhn	-10.581
cumas	-10.5812
réi	-10.5815
thuas	-10.5836
ionann	-10.5845
itheoir	-10.5853
úrscé	-10.5855
leac	-10.5859
thaisteal	-10.586
páipéar	-10.586
glasá	-10.5867
foinse	-10.5891
eto	-10.5906
mair	-10.5918
thógálach	-10.5928
méar	-10.5944
líonra	-10.5979
tura	-10.5989
coróinvír	-10.6031
ndochtúir	-10.6035
ghabhálach	-10.6042
bainea	-10.6042
bhainist	-10.605
tóga	-10.6057
leathna	-10.6059
glaca	-10.6075
mio	-10.6081
éifeachtúlachta	-10.6088
cinnt	-10.6091
faisnéise	-10.6093
aireachta	-10.6114
eart	-10.6117
53	-10.612
eolaíochta	-10.6131
ghlas	-10.6162
oiliú	-10.6167
tion	-10.6182
haigh	-10.6195
polai	-10.6217
héifeacht	-10.6224
iscint	-10.6273
)	-10.6285
roghn	-10.6301
éim	-10.631
94	-10.632
41	-10.6332
ke	-10.6356
eras	-10.637
cuirfe	-10.6371
dian	-10.6377
frithvíreas	-10.6418
bó	-10.6449
eorpa	-10.6471
ianaise	-10.6473
fheidhm	-10.6497
bunscoile	-10.6499
racha	-10.6509
laeth	-10.652
hong	-10.652
thiocfa	-10.653
antashubstaint	-10.653
gréasá	-10.653
ocsaigin	-10.653
pangóil	-10.653
ullmhú	-10.653
ábalta	-10.653
€	-10.653
fliuch	-10.653
eitleá	-10.653
difriú	-10.653
phost	-10.653
lorg	-10.653
smacht	-10.653
buidé	-10.653
sinsear	-10.653
réasún	-10.653
guaise	-10.6531
alcól	-10.6534
spás	-10.6534
ráid	-10.6537
nasctha	-10.654
príomhoifig	-10.654
phríobháideach	-10.6544
dtreo	-10.6545
pataigineach	-10.6552
haipe	-10.6554
oibríochta	-10.6556
shú	-10.6557
lucht	-10.656
mian	-10.6564
chód	-10.6567
mbain	-10.6589
gasc	-10.6591
oiriúnach	-10.6596
scéim	-10.6604
gnótha	-10.6606
tras	-10.6606
éill	-10.6608
eaglais	-10.6609
tosaíocht	-10.6611
cheanga	-10.6639
comhpháirt	-10.6641
0,000	-10.6644
ineach	-10.6667
theacht	-10.6669
údar	-10.67
únaí	-10.6703
nochtadh	-10.6708
74	-10.6713
sholáthra	-10.6714
bog	-10.6717
bío	-10.6721
roinnte	-10.6731
treocht	-10.6742
ráite	-10.6762
pháirt	-10.6812
ipín	-10.6854
lon	-10.6866
fho	-10.6866
áilte	-10.6886
300	-10.6889
síneach	-10.6929
óna	-10.6942
cel	-10.696
haon	-10.6965
dtabharf	-10.6976
fhill	-10.6996
stoc	-10.7033
choi	-10.7035
tro	-10.7083
ser	-10.7144
ainaithnío	-10.7146
thaca	-10.7172
96¦	-10.728
62	-10.7288
ndeac	-10.7296
salach	-10.7322
tógála	-10.7338
chlinic	-10.7349
imdhíon	-10.7349
eiriceá	-10.7351
iúnta	-10.7354
ibé	-10.7356
▁¦1,0	-10.736
fhoghlaim	-10.7361
fheabhs	-10.7363
dhiagnóisi	-10.7363
innéacs	-10.7363
leabharlann	-10.7363
phylogenetic	-10.7363
tiomána	-10.7363
coisctheach	-10.7363
céatadá	-10.7363
oghluaiste	-10.7363
miondíol	-10.7363
cruthaío	-10.7363
toirmeasc	-10.7363
titim	-10.7363
luimn	-10.7363
thuras	-10.7363
iolrach	-10.7363
2012	-10.7364
díhiodráitiú	-10.7364
fhan	-10.7366
91	-10.7373
cumann	-10.7378
príomha	-10.7385
seachadta	-10.7385
antaigin	-10.7394
ontae	-10.7395
brusca	-10.7401
mhéadaithe	-10.7405
laethúil	-10.7408
iarrthóir	-10.741
phlé	-10.7455
ciníoch	-10.7472
abair	-10.7484
bhfuar	-10.7489
eabhrac	-10.7492
point	-10.7516
xi	-10.7528
ardaithe	-10.7538
lúb	-10.7542
héifeachtach	-10.7547
ghnó	-10.7564
adóir	-10.7568
lamh	-10.7573
díghalr	-10.7577
ifr	-10.7581
tac	-10.7584
bhall	-10.7588
próitéine	-10.7602
rthe	-10.7623
léan	-10.7635
leanfai	-10.7636
14	-10.7637
ibe	-10.7649
álacha	-10.7684
mhoill	-10.7719
coraintíní	-10.7767
ithíoch	-10.7823
mor	-10.7838
uillea	-10.7847
we	-10.785
ngal	-10.7851
éagsúlacht	-10.7876
88	-10.7879
tógfai	-10.7881
séireolaíoch	-10.7883
oibriú	-10.7905
ation	-10.7922
holo	-10.7924
uathú	-10.7932
feá	-10.7939
glaonn	-10.7951
ghl	-10.7967
cóid	-10.7975
oirse	-10.7989
teicneolaíochta	-10.7992
díghalrá	-10.8013
gcoi	-10.8018
breathnaío	-10.8037
staid	-10.8057
aerlín	-10.8064
feidhmeanna	-10.8088
míchuma	-10.8099
mhuin	-10.8102
saol	-10.8102
foins	-10.8111
thaisteala	-10.8148
margaí	-10.8151
75	-10.8171
uaidh	-10.8179
éadaí	-10.8182
cuma	-10.8206
iúltach	-10.821
náisiú	-10.8217
fisic	-10.8255
gcuir	-10.8263
cumarsáid	-10.8272
codlata	-10.8272
cytokine	-10.8272
cáithnín	-10.8272
gaillimh	-10.8272
láithreá	-10.8272
shroich	-10.8272
ndúnfa	-10.8272
droch	-10.8272
iontrála	-10.8272
cultúr	-10.8272
chógaslann	-10.8272
camel	-10.8272
sainmhín	-10.8272
glantach	-10.8273
foghlaimeoir	-10.8273
smaois	-10.8273
bhreis	-10.8273
físe	-10.8273
reiligiúnach	-10.8273
forbraío	-10.8275
aisghabhá	-10.8275
cluich	-10.8277
sheiceáil	-10.8278
feidhmiú	-10.8281
rté	-10.8281
dalta	-10.8281
chuairt	-10.8286
tóireacht	-10.8286
rbd	-10.8286
crua	-10.8288
fisiciú	-10.829
gnéas	-10.829
foirmiú	-10.8294
thairg	-10.8296
spéis	-10.8299
hiond	-10.83
maoini	-10.83
dheal	-10.8305
tagra	-10.8306
óimheas	-10.8307
ase	-10.8311
ghlao	-10.8318
memb	-10.8322
lárnach	-10.8322
suí	-10.8325
laid	-10.8332
fosta	-10.8333
gró	-10.8335
roim	-10.8344
thinn	-10.8348
gcúis	-10.8353
hse	-10.8356
▁¦55	-10.8377
féad	-10.8388
comhartha	-10.8413
freagraí	-10.8426
87	-10.8428
amhlai	-10.8433
frithvíreasach	-10.8438
ghá	-10.8469
sreabhá	-10.8471
gclúd	-10.8476
choir	-10.8479
áine	-10.8491
luas	-10.8494
fuinn	-10.853
79	-10.8538
víreolaíocht	-10.8562
ibu	-10.8579
wo	-10.8583
chinn	-10.8588
app	-10.8591
próise	-10.86
60	-10.8602
raid	-10.8618
oidea	-10.863
bótha	-10.8634
ham	-10.8638
clis	-10.8639
lio	-10.8645
tháirg	-10.8671
mhala	-10.8722
ghlasá	-10.8743
thuairiscí	-10.876
08	-10.8773
pór	-10.8832
hoifigi	-10.8835
▁¦25	-10.8837
chónaí	-10.888
kin	-10.889
▁¦4,6	-10.8944
chreid	-10.8957
ofen	-10.8966
bord	-10.8971
slabhra	-10.8982
mála	-10.8986
fhon	-10.9038
dhaonn	-10.9057
mhaith	-10.9088
iomp	-10.9111
boga	-10.9113
romla	-10.9118
glas	-10.9138
ionca	-10.914
ior	-10.9182
mill	-10.9228
tionsca	-10.9242
príobháideacha	-10.925
spleách	-10.927
▁¦5.	-10.927
▁¦4,9	-10.9272
dlúthpháirtíocht	-10.9272
+	-10.9272
amharclann	-10.9272
déileáil	-10.9272
foghlam	-10.9272
phróise	-10.9272
samplá	-10.9272
shaorána	-10.9272
óifein	-10.9272
eografach	-10.9272
plasma	-10.9272
sochraid	-10.9272
teoiric	-10.9272
prognóis	-10.9272
mheastachá	-10.9272
fhachtóir	-10.9272
brand	-10.9272
pailin	-10.9272
cheap	-10.9272
uirlis	-10.9273
láidr	-10.9273
brasaíle	-10.9273
ghloin	-10.9273
muc	-10.9273
thioncha	-10.9273
1,1	-10.9273
gloin	-10.9274
ceap	-10.9274
práinne	-10.9274
neamhspleách	-10.9274
cheadú	-10.9275
muint	-10.9275
réamhchúraim	-10.9275
iniúch	-10.9275
mheasún	-10.9277
treorach	-10.9278
seolfa	-10.928
leithli	-10.928
póilín	-10.928
ngall	-10.9281
corp	-10.9281
mheabhair	-10.9284
thábhachtach	-10.9288
tasc	-10.9289
aeriompa	-10.9289
medi	-10.9296
uachtarach	-10.9296
éilliú	-10.9298
tréith	-10.9299
bpáist	-10.9306
triú	-10.9306
athraitheach	-10.9308
fhorb	-10.9318
háise	-10.9319
léitheoir	-10.9321
araib	-10.9323
bhunús	-10.9324
shaol	-10.9329
singe	-10.933
príobháideachas	-10.933
shl	-10.9341
ghéanóm	-10.9344
dhear	-10.9344
jo	-10.935
isté	-10.9359
4,3	-10.9369
mama	-10.937
inni	-10.9372
teagla	-10.9373
huisc	-10.9375
gcion	-10.9386
thóg	-10.9391
iii	-10.9391
airgeada	-10.9394
fút	-10.9399
seachtainiú	-10.94
shonrach	-10.9403
uel	-10.9411
teorann	-10.9411
66	-10.9415
aisgha	-10.9418
caigh	-10.943
fhear	-10.9433
per	-10.9441
tuirse	-10.9444
eora	-10.9464
geall	-10.9472
itéir	-10.9473
aeir	-10.9478
aithne	-10.9478
feidhmeannach	-10.9484
▁¦4,5	-10.9487
hoile	-10.949
▁¦43	-10.9502
bainistíocht	-10.9514
92¦	-10.9517
comhch	-10.9537
oird	-10.9579
61	-10.9582
oilliú	-10.9599
scagthástá	-10.962
ko	-10.9627
chaill	-10.9631
56	-10.9648
▁¦3.	-10.965
mheabhra	-10.9651
ghinea	-10.9675
oscail	-10.9686
untas	-10.972
séireolaíocht	-10.9722
réige	-10.974
luain	-10.9791
thro	-10.9838
téarmaí	-10.9882
moil	-10.989
46	-10.9906
bhféadf	-10.9936
86	-10.9952
idirlí	-10.996
íreach	-10.9965
▁¦6.	-10.9977
68	-10.9984
ainmnío	-10.9992
scagthástála	-11.0008
ema	-11.0077
éasc	-11.0103
leab	-11.0136
;	-11.0136
páirtea	-11.0142
siltí	-11.0147
hathr	-11.019
déanach	-11.0199
gabh	-11.0228
64	-11.0255
gníomhaíocht	-11.0259
dháile	-11.0268
ithne	-11.0284
feidhm	-11.029
atáirg	-11.0299
ghéanó	-11.0304
▁¦4.	-11.0317
abhair	-11.0319
tiocfa	-11.0319
gníomhaireachta	-11.0346
tábhacht	-11.0356
huimh	-11.0377
iobúpr	-11.0381
breoite	-11.0382
81	-11.0382
theiripe	-11.0383
dhromchla	-11.0383
ghníomhaireacht	-11.0383
ghéiniteach	-11.0383
seineafó	-11.0383
sheomra	-11.0383
stéarói	-11.0383
taispeáin	-11.0383
≥	-11.0383
alpaca	-11.0383
ócáid	-11.0383
gastro	-11.0383
arlaimint	-11.0383
▁¦1,3	-11.0383
dtarló	-11.0383
fóill	-11.0383
news	-11.0383
ríthábhachtach	-11.0384
samhalt	-11.0384
ealaíon	-11.0384
strus	-11.0384
géine	-11.0384
gabhdóir	-11.0384
ghabhdóir	-11.0384
ghiniú	-11.0384
bliantú	-11.0385
shábháilteacht	-11.0385
iarrata	-11.0385
wash	-11.0385
brid	-11.0386
buaic	-11.0387
ophar	-11.0388
costa	-11.0388
fhreastala	-11.0392
82	-11.0394
ulaing	-11.0394
rolla	-11.0395
patrú	-11.0395
bhunú	-11.0397
príobháideacht	-11.0406
imdhíonta	-11.0406
luí	-11.0409
socró	-11.0412
cló	-11.0413
eagraithe	-11.0414
sput	-11.0432
rogh	-11.0433
éiginnte	-11.0435
deireanach	-11.0439
71	-11.0448
iúsca	-11.0448
alcó	-11.046
séasúrach	-11.0461
sráid	-11.0466
costas	-11.0467
chomhlíona	-11.0489
ghéar	-11.0505
athró	-11.0508
throi	-11.0514
▁¦196	-11.0523
réigiúnach	-11.0525
tosó	-11.0541
gcaithea	-11.0605
ens	-11.0676
déanf	-11.0687
siomptóm	-11.0741
67	-11.0813
siv	-11.0835
▁¦4,7	-11.0879
phleanáil	-11.0903
roid	-11.091
84¦	-11.0948
oiliúna	-11.0952
iocht	-11.0961
54	-11.0968
láriona	-11.1046
háite	-11.1073
mel	-11.1089
táirgea	-11.1103
34¦	-11.1112
lasta	-11.1148
tom	-11.1173
úlra	-11.1174
scaoilte	-11.1233
deacra	-11.1252
ngeal	-11.1393
eisia	-11.1395
ocra	-11.1426
sláint	-11.1453
scéal	-11.1489
27	-11.1498
bailío	-11.1526
ceacht	-11.1556
uismitheoir	-11.1565
corói	-11.1581
pataigin	-11.1597
éalainn	-11.1601
uachtar	-11.1602
seachad	-11.1606
cep	-11.161
fhreasta	-11.1624
athraithe	-11.1625
ullmha	-11.1632
sprioc	-11.1633
chaomhn	-11.1633
comhsheasmhach	-11.1633
digiteach	-11.1633
fadthéarmach	-11.1633
neamhghnácha	-11.1633
oilithr	-11.1633
staitisti	-11.1633
thaifead	-11.1633
threor	-11.1633
thromchúiseach	-11.1633
músae	-11.1633
scáileá	-11.1633
cathaoir	-11.1633
google	-11.1633
http	-11.1633
fiafr	-11.1633
pragh	-11.1633
pacáist	-11.1633
polaitiú	-11.1633
corónach	-11.1633
tuirc	-11.1634
dífhostaíocht	-11.1634
chónaitheoir	-11.1634
beatha	-11.1634
lóistí	-11.1634
chuairteoir	-11.1634
cónaitheach	-11.1634
delta	-11.1635
contúirt	-11.1635
cianfhoghla	-11.1635
olaiteoir	-11.1636
tharraing	-11.1637
eilge	-11.1637
ghníomhach	-11.1638
bolg	-11.1638
cothrom	-11.1639
dtuai	-11.1641
vót	-11.1641
ghlant	-11.1641
tuáill	-11.1643
fanfa	-11.1644
réamhscoile	-11.1645
cuideachta	-11.1646
fhail	-11.1647
foriomlán	-11.165
thaist	-11.1652
frí	-11.1654
cuarda	-11.1655
breathn	-11.1656
bhfanfa	-11.166
hipir	-11.166
teip	-11.1665
feidhmchlá	-11.1669
bholg	-11.1672
ardoideacha	-11.1672
mbraisl	-11.1675
asacht	-11.1679
pain	-11.1685
éara	-11.1685
omharc	-11.1687
iobr	-11.1693
tiomáint	-11.1702
staidr	-11.1703
reim	-11.1704
díobhálach	-11.1711
beta	-11.1715
orgán	-11.1725
lop	-11.1739
éifeacht	-11.1744
chúramóir	-11.1752
gcleachta	-11.1758
áileog	-11.1772
díghalrú	-11.1772
▁¦2,3	-11.1803
laois	-11.1819
luch	-11.1837
put	-11.1844
chrutha	-11.1853
▁¦59	-11.1869
dirghníomhaíocht	-11.1882
gairm	-11.189
eachtra	-11.1904
mbeart	-11.1912
sci	-11.1914
oid	-11.1961
cont	-11.1979
luach	-11.198
faighte	-11.1981
49	-11.1984
slabhr	-11.2058
imoibri	-11.2079
ndia	-11.2082
saíocht	-11.2095
comhla	-11.2103
carr	-11.2119
bunaío	-11.2125
draig	-11.2129
dúshlán	-11.2137
ovirus	-11.2155
rúise	-11.2174
éidearthacht	-11.2199
rochta	-11.2233
conair	-11.2323
éireo	-11.233
eicniú	-11.2347
aidrea	-11.2355
irseach	-11.2421
carna	-11.2634
iarth	-11.2636
ríofa	-11.2706
claon	-11.2751
scaipf	-11.279
sheacha	-11.281
cógaslanna	-11.2895
mbun	-11.2909
bagairt	-11.2917
íghalrú	-11.2953
orgá	-11.2958
leictreon	-11.2971
zho	-11.2981
tánaiste	-11.2996
bru	-11.2997
chúl	-11.3013
taith	-11.3015
clinic	-11.3024
oireachta	-11.3025
abhróid	-11.3026
oiriúnaithe	-11.3035
iomad	-11.3039
rraing	-11.3046
riticiú	-11.3048
caillte	-11.3054
óthach	-11.3057
substaint	-11.306
aidri	-11.3061
innealtóireacht	-11.3062
taidhleoireacht	-11.3062
dhigiteach	-11.3062
pictiúrlann	-11.3062
caifé	-11.3062
chothabhá	-11.3062
compord	-11.3062
eatramh	-11.3062
shoiléir	-11.3062
solúbthacht	-11.3062
teicníc	-11.3062
veicteoir	-11.3062
gheilleaga	-11.3062
polapróitéin	-11.3062
07.	-11.3062
mhiondíol	-11.3062
teilifís	-11.3062
oxford	-11.3062
fráma	-11.3062
fhoirmiú	-11.3062
oimpléasc	-11.3062
einsím	-11.3062
shlándá	-11.3062
fuinneog	-11.3062
▁¦4,4	-11.3062
íbhuntáist	-11.3062
chaighdeá	-11.3062
thrasn	-11.3062
threoir	-11.3062
dhifriú	-11.3062
stoirm	-11.3062
chúige	-11.3062
ollmharga	-11.3062
chruinnithe	-11.3062
feithic	-11.3062
uillinn	-11.3062
urlabhra	-11.3063
▁¦4.30	-11.3063
réagach	-11.3063
íocaíocht	-11.3063
cáilíocht	-11.3063
thoil	-11.3063
duán	-11.3063
choláist	-11.3064
samhra	-11.3064
fiche	-11.3064
iobúproif	-11.3065
ceolchoirme	-11.3065
nigéir	-11.3066
dhlúth	-11.3066
comhlachtaí	-11.3066
aerbheala	-11.3066
euro	-11.3067
comhdhúil	-11.3067
asho	-11.3068
tubaiste	-11.3068
iosr	-11.3068
rannpháirteach	-11.3068
cothromaíocht	-11.3068
braite	-11.3069
gharda	-11.3072
toirmisc	-11.3072
brisea	-11.3072
leantach	-11.3073
zhan	-11.3074
clóirí	-11.3079
súg	-11.3081
1.7	-11.3084
ionrach	-11.3084
▁¦1,000	-11.3085
chúna	-11.3088
veicteorach	-11.309
iomadú	-11.3091
mbialann	-11.3095
shiúl	-11.3096
banc	-11.3096
stoi	-11.3101
sualainn	-11.3103
reasach	-11.3104
mothú	-11.3104
bharnó	-11.3106
liom	-11.3106
éagsú	-11.3109
tionscada	-11.311
1,6	-11.3111
chomhord	-11.3111
téalainn	-11.3113
gníomhaireacht	-11.3114
méadrach	-11.3119
riara	-11.3119
face	-11.3122
oiriú	-11.3123
bhreathn	-11.3123
stóráil	-11.3123
ghaol	-11.3124
gly	-11.3124
scoir	-11.3125
phacáist	-11.3131
coga	-11.3137
mbunscoil	-11.3143
phlá	-11.3148
féar	-11.3158
onra	-11.3176
taom	-11.3176
ince	-11.318
uaslódála	-11.3183
prote	-11.3189
iac	-11.3205
ifn	-11.3299
uibh	-11.3311
iontach	-11.3341
chrai	-11.3356
uinchill	-11.3389
oirth	-11.3392
breatain	-11.3398
díhiodr	-11.3407
arman	-11.3413
aimín	-11.3451
pp	-11.3471
áracha	-11.354
▁¦51	-11.3554
aingea	-11.3556
mhant	-11.3567
16	-11.3604
nio	-11.3644
órsa	-11.3649
bhfaighfe	-11.3706
pleanáil	-11.373
téarma	-11.3752
fheidhmiú	-11.3856
foirgn	-11.3933
moo	-11.3942
▁¦250	-11.3966
05	-11.3976
use	-11.4019
lainn	-11.4062
cúramóir	-11.416
beart	-11.4174
chúraim	-11.421
hop	-11.4282
staim	-11.4293
mit	-11.438
▁¦34	-11.4421
éinte	-11.4431
sub	-11.4457
treo	-11.4472
halla	-11.45
iníocha	-11.4511
éarchéim	-11.4518
airgead	-11.4522
féa	-11.4582
uaslódá	-11.4588
eipidéimeola	-11.4594
eabhair	-11.4634
▁¦73	-11.4643
obla	-11.4646
phac	-11.4652
theoran	-11.4654
labhra	-11.4674
osclófa	-11.469
piri	-11.4718
úinteoir	-11.472
braithf	-11.4726
fhabht	-11.4728
chríochn	-11.4728
shruth	-11.4728
▁¦2,2	-11.4728
baictéar	-11.4728
ferret	-11.4728
thaispeán	-11.4728
tionscna	-11.4728
geilleaga	-11.4728
insteall	-11.4728
▁¦2019-20	-11.4728
itíop	-11.4728
máithreacha	-11.4728
stróc	-11.4728
▁¦2,4	-11.4728
bainisteoir	-11.4729
bruitín	-11.4729
gaolmhar	-11.4729
déantúsaíocht	-11.4729
fionnachta	-11.4729
serop	-11.4729
suíochá	-11.4729
tholg	-11.4729
feirme	-11.4729
thoirch	-11.4729
7,1	-11.4729
▁¦2,5	-11.4729
bhraite	-11.4729
eardchuma	-11.4729
dtuig	-11.4729
bacainn	-11.4729
chúins	-11.4729
ymp	-11.4729
▁¦4,1	-11.4729
oidhreacht	-11.4729
▁¦1.4	-11.4729
guang	-11.4729
trádá	-11.4729
ungáir	-11.4729
coronaviri	-11.4729
ionchóda	-11.4729
scíth	-11.4729
iompróir	-11.4729
frithghiniú	-11.473
consalacht	-11.473
suite	-11.473
bhronn	-11.473
ghairm	-11.4731
fecal	-11.4732
chathrach	-11.4732
lomba	-11.4733
deonach	-11.4733
triom	-11.4733
giniú	-11.4733
chúpl	-11.4736
paul	-11.4736
sainord	-11.4736
ollmhór	-11.4737
dtaca	-11.4737
tuairimí	-11.4739
cupá	-11.4741
mharga	-11.4742
liúchá	-11.4744
cóip	-11.4744
fhosta	-11.4746
gclinic	-11.4746
róimh	-11.4748
allmhair	-11.4749
dhéag	-11.4753
mise	-11.4753
chabhair	-11.476
oliti	-11.4761
nhs	-11.4775
time	-11.4775
oiriúnaitheach	-11.4777
▁¦2002	-11.4784
6,5	-11.48
tánaisteach	-11.4813
leictreonach	-11.4837
uineachá	-11.4842
aisleá	-11.4862
stail	-11.4864
866	-11.4872
ongó	-11.4878
ghnóth	-11.4903
vac	-11.4933
ballstá	-11.4962
98	-11.5005
uartha	-11.5049
alún	-11.5052
gluaiseacht	-11.5061
laghdói	-11.5147
bprói	-11.5184
eisiata	-11.5216
leanfa	-11.5223
bhfaighea	-11.5376
beagá	-11.5393
feist	-11.5447
0.1	-11.5448
imint	-11.5469
alára	-11.549
dtógfa	-11.5521
séala	-11.5542
mhui	-11.5721
diam	-11.5726
sciath	-11.5762
éigean	-11.5808
▁¦4,90	-11.5862
cíoch	-11.5978
comhord	-11.5991
athraío	-11.6055
bio	-11.6076
caillea	-11.6131
ealaí	-11.6153
meánscoil	-11.6183
hiodráiti	-11.6262
reatain	-11.6263
sreabh	-11.6282
5,000¦	-11.6386
ordaío	-11.6398
ileog	-11.6405
ceadaío	-11.6487
threa	-11.6526
reva	-11.6535
▁¦0.	-11.6544
uirb	-11.6561
tráchtá	-11.6579
iarrthó	-11.6615
iomáint	-11.6615
ceangla	-11.6631
oimeád	-11.6641
stór	-11.6642
chorói	-11.6657
íobhálach	-11.6662
éasúr	-11.6673
ualainn	-11.6677
fhreagair	-11.6681
reast	-11.6687
veicteora	-11.6688
thuaisc	-11.6709
iomláin	-11.6713
irmheánach	-11.6727
gearrthéarmach	-11.6728
gruagair	-11.6728
néareolaíoch	-11.6728
paiteolaíoch	-11.6728
#	-11.6728
anglaidéis	-11.6728
bolsonaro	-11.6728
ceangailte	-11.6728
ceimiceach	-11.6728
lymphocyt	-11.6728
phríosú	-11.6728
pionós	-11.6728
reáchtáil	-11.6728
riospróir	-11.6728
rouhani	-11.6728
shaotharlann	-11.6728
toghchá	-11.6728
áireofa	-11.6728
éimeagrafach	-11.6728
▁¦1,2	-11.6728
choinníoll	-11.6728
fiaclóir	-11.6728
iargúlta	-11.6728
pholaitiú	-11.6728
socrúchá	-11.6728
suaimhn	-11.6728
theicneolaíocht	-11.6728
éiceolaíoch	-11.6728
íoslódá	-11.6728
mhothúchá	-11.6728
plaicint	-11.6728
▁¦3,1	-11.6728
▁¦3,6	-11.6728
cheangla	-11.6729
peptid	-11.6729
múnla	-11.6729
ocsaineacht	-11.6729
thionsca	-11.6729
síochán	-11.6729
antaigín	-11.6729
lrti	-11.6729
prince	-11.6729
ribonucle	-11.6729
thráth	-11.6729
croith	-11.6729
mionsonra	-11.6729
cúlchist	-11.6729
cumhda	-11.6729
reachtaíocht	-11.6729
tharló	-11.6729
cispheil	-11.6729
diclo	-11.6729
seasmhach	-11.6729
chógas	-11.6729
toitín	-11.6729
3,8	-11.6729
ionchas	-11.6729
gcorróg	-11.6729
phearsan	-11.6729
bhearna	-11.6729
mhinic	-11.6729
míchompord	-11.673
amino	-11.673
way	-11.673
seilf	-11.673
fheist	-11.673
malart	-11.673
▁¦8.30	-11.673
logáil	-11.673
shábháilte	-11.673
chianfhoghla	-11.6731
bhainisteoir	-11.6731
impí	-11.6731
aici	-11.6731
nsaid	-11.6731
mhodhn	-11.6731
aeráid	-11.6731
impist	-11.6732
imoibríoch	-11.6732
céadfach	-11.6732
blúir	-11.6732
polar	-11.6732
fairsing	-11.6732
spórt	-11.6732
tionól	-11.6733
rúnda	-11.6733
comhionann	-11.6733
dífhost	-11.6733
deoch	-11.6733
zhe	-11.6734
modheolaíocht	-11.6734
dearca	-11.6735
intern	-11.6735
ionanál	-11.6736
comhlán	-11.6737
gaothair	-11.6738
bhuaic	-11.6739
mífhaisnéis	-11.6739
syn	-11.674
chomhpháirt	-11.674
gcamá	-11.6742
eachtranna	-11.6744
scagth	-11.6745
uter	-11.6746
mont	-11.6747
▁¦2018	-11.6748
thrí	-11.6748
conclúid	-11.6753
caillteana	-11.6754
sochaí	-11.6754
6,8	-11.6755
leithdháil	-11.6758
meall	-11.6758
eirse	-11.676
ghorta	-11.6765
paráid	-11.6774
réada	-11.6775
bhrisea	-11.6776
aicm	-11.6777
402	-11.678
dtitf	-11.6788
barda	-11.6802
acadú	-11.6809
9,8	-11.6815
leamhna	-11.6815
advi	-11.6819
gceanglaí	-11.6828
nsom	-11.6831
290	-11.6844
▁¦195	-11.6847
idirghníomhaío	-11.6851
ionadaíoch	-11.6853
▁¦400	-11.6886
gcógaslann	-11.6974
íceolaíoch	-11.6987
aigéin	-11.7003
dife	-11.7085
réamhchúra	-11.7087
gcéi	-11.7103
ott	-11.717
ector	-11.7175
chuma	-11.7209
chreidte	-11.7427
cosúlachta	-11.7446
cheath	-11.7508
bhlain	-11.7523
1,8	-11.7665
▁¦4,92	-11.7678
próis	-11.7694
crích	-11.7718
fhillea	-11.7741
head	-11.7778
bhfreastalaí	-11.778
mífheidhm	-11.7803
nder	-11.7822
oibríoch	-11.787
athnaío	-11.7986
teirip	-11.8045
4.5	-11.8047
ghabhá	-11.8224
sainaith	-11.8474
ghrúp	-11.8599
chabhra	-11.8635
romha	-11.8718
"	-11.8872
179	-11.8883
uimi	-11.895
gceall	-11.902
.1.	-11.9097
chomhbhr	-11.9106
ment	-11.9118
22,6	-11.9138
thábhacht	-11.9184
patr	-11.9204
ainéa	-11.9205
acasamhl	-11.9216
rannpháirt	-11.9217
luich	-11.9217
oicís	-11.9219
shábháil	-11.9223
▁¦3,5	-11.9227
▁¦3,9	-11.9228
sraoth	-11.9228
wiki	-11.9228
bricfe	-11.9228
heipitít	-11.9228
bhreoiteacht	-11.9228
cnáimhseacha	-11.9228
forlíontach	-11.9228
fóirdheon	-11.9228
gruaige	-11.9228
neamhshiméadrach	-11.9228
turasóireacht	-11.9228
turgnamhach	-11.9228
chomparáid	-11.9228
chumarsáid	-11.9228
conspóid	-11.9228
corticosteroid	-11.9228
dioplóma	-11.9228
eiceálacha	-11.9228
feicfi	-11.9228
fhíorú	-11.9228
gheimhr	-11.9228
interferon	-11.9228
leordhóthanach	-11.9228
léarscáil	-11.9228
murtall	-11.9228
mídhleathach	-11.9228
phrótaca	-11.9228
príosúnach	-11.9228
píolótach	-11.9228
tomagrafaíocht	-11.9228
trédhearcach	-11.9228
×	-11.9228
▁¦1890	-11.9228
infheistíocht	-11.9228
ioslam	-11.9228
monocl	-11.9228
scríbhinn	-11.9228
shuíochá	-11.9228
▁¦2,1	-11.9228
bonneaga	-11.9228
grianghraf	-11.9228
meaisín	-11.9228
oilimpeach	-11.9228
cairdiach	-11.9229
fíric	-11.9229
shuiteá	-11.9229
7,6	-11.9229
chumhacht	-11.9229
chríosta	-11.9229
mhonaróir	-11.9229
sceid	-11.9229
chroí	-11.9229
déthaobhach	-11.9229
dhúshlá	-11.9229
jiang	-11.9229
coibhneas	-11.9229
forbrói	-11.9229
creat	-11.9229
urlac	-11.9229
thomha	-11.9229
tuaslag	-11.9229
▁¦1.8	-11.9229
fhisic	-11.9229
imirce	-11.9229
aclaí	-11.9229
▁¦1.1	-11.9229
folc	-11.9229
thabharfa	-11.9229
dtimpeallacht	-11.9229
imeallach	-11.9229
claontacht	-11.9229
@	-12.2562
α	-12.2562
β	-12.2562
ã	-12.7562
|	-12.7562
£	-12.7562
°	-12.7562
γ	-12.7562
—	-12.7562
肺	-12.7562
武	-12.7562
ç	-12.7562
]	-13.7329
'	-13.7334
~	-13.7553
‘	-13.7554
?	-13.7555
–	-13.7556
”	-13.7557
/	-13.7558
%	-13.7559
:	-13.756
(	-13.7561
=	-13.7562
_	-13.7562
­	-13.7562
à	-13.7562
å	-13.7562
’	-13.7562
′	-13.7562
汉	-13.7562
漢	-13.7562
炎	-13.7562
