<pad>	0
</s>	0
<unk>	0
¦	-1.50154
▁¦	-1.5118
▁်	-2.22232
င	-3.51928
▁့	-3.82861
ည	-4.13233
▁့်	-4.43731
း	-4.45077
သ	-4.56886
ကို	-4.69414
▁၊	-4.69474
တော	-4.87915
က	-4.93633
တို	-5.07642
စ	-5.08578
▁၏။	-5.1609
နှ	-5.40979
▁	-5.44722
အ	-5.5042
မည	-5.52829
▁်၊	-5.54234
သော	-5.56793
▁။	-5.64134
ောင	-5.65789
သို	-5.66476
တ	-5.67493
သင	-5.67569
န	-5.68791
ခြ	-5.72801
္	-5.80773
ဖြ	-5.86014
▁်။	-5.92514
ယ	-5.96504
ကြ	-5.98047
ငါ	-5.98147
▁၍	-6.03717
လည	-6.06187
မ	-6.13073
▁၏	-6.16545
မူ	-6.19359
ပ	-6.27162
မြို	-6.27883
▁်၌	-6.29611
သူတို	-6.30756
ဘုရား	-6.39226
သခ	-6.42051
ဟု	-6.43879
ရ	-6.46501
▁၌	-6.47254
▁်၏	-6.47502
ကိုယ	-6.48651
ောက	-6.50551
ရှင	-6.52215
▁်၍	-6.52312
စေ	-6.53578
၎	-6.53968
သူ	-6.56997
ုပ	-6.57192
ဆ	-6.57309
ပြည	-6.59678
လိမ	-6.63292
ဉ	-6.67307
▁၍၊	-6.73174
းကို	-6.75767
ထို	-6.76014
တည	-6.76129
ထာဝရဘုရား	-6.77112
မိန	-6.78151
မြ	-6.79336
မှာ	-6.80942
အား	-6.82851
လျှ	-6.8385
▁်၍၊	-6.9086
▁့။	-6.91032
လျ	-6.91535
▁့်၊	-6.91866
လက	-6.91983
တွ	-6.94601
သား	-6.9574
အဘယ	-6.98767
▁်၏။	-7.00448
အကျွန	-7.03927
းငှါ	-7.04585
မှ	-7.05524
းတို	-7.07535
အကြော	-7.07941
ရှိ	-7.08658
လေ	-7.09505
ဇ	-7.09993
မင	-7.10532
ိမ	-7.1063
နေ	-7.11694
ရောက	-7.12133
လော	-7.12206
တတ	-7.13917
▁့၌	-7.1503
လင	-7.18909
သန	-7.25812
ချ	-7.26098
တိုင	-7.27011
ရှေ	-7.27431
ကား	-7.27888
ပါ	-7.30175
ငါတို	-7.33498
ကြော	-7.3535
ဘုရ	-7.35582
ရပ	-7.35865
ကျွန	-7.36834
နို	-7.37159
ရာ	-7.37396
အသက	-7.40082
ပေါ	-7.40714
ုတ	-7.40806
ဖန	-7.41288
▁့၊	-7.4176
အပေါ	-7.42458
▁့၏	-7.43869
ိတ	-7.44585
ထ	-7.45386
စိတ	-7.47178
ကဲ	-7.47472
ပြ	-7.4824
သွား	-7.50556
ပြန	-7.50637
သောအခါ	-7.51552
းသော	-7.52793
ပြု	-7.53034
ငါသ	-7.54431
လ	-7.55456
ဆို	-7.59049
ပေး	-7.59832
ထော	-7.6039
မူသ	-7.61059
သဖြ	-7.61258
ထွ	-7.6453
သက	-7.64851
ပြစ	-7.67056
လုပ	-7.67303
မိမိ	-7.67506
အတို	-7.67805
လူ	-7.69598
လာ	-7.70055
ဘက	-7.70231
လိုက	-7.7049
ဝ	-7.71083
မူသော	-7.7303
ုန	-7.73065
သောသူ	-7.74059
ဆော	-7.7406
သာ	-7.74902
ထိုသို	-7.75602
ကြလော	-7.76974
ကျ	-7.77047
းကင	-7.77394
ထာဝရဘုရားသ	-7.77838
ခေါ	-7.79128
မို	-7.79292
ရှိသော	-7.81786
နား	-7.82608
အစ	-7.82637
စီရ	-7.83165
းတော	-7.83473
လွှတ	-7.83929
စစ	-7.84193
ယောက	-7.84639
အားဖြ	-7.85808
မျ	-7.85938
တန	-7.87324
ဗ	-7.8779
သူသ	-7.88178
တောင	-7.89791
လှ	-7.91501
ပတ	-7.91777
ဝတ	-7.94597
တု	-7.95885
များ	-7.95986
ခဲ	-7.96928
ပူဇော	-7.98241
ဤ	-7.99349
သားတို	-7.99531
သေ	-7.99823
သတ	-8.00346
ဂု	-8.01525
လူတို	-8.02291
လုံး	-8.02317
အဘို	-8.02644
အမျိုး	-8.03122
ဥ	-8.03297
တပ	-8.03319
အော	-8.03684
ဒါဝိဒ	-8.04259
အမျိုးသား	-8.0453
မတ	-8.05577
အပြ	-8.06912
ထက	-8.07066
တင	-8.07237
▁့်။	-8.08155
ထိုအခါ	-8.08813
ျက	-8.10038
ဏ	-8.10195
မဟု	-8.10556
သိမ	-8.10754
မုန	-8.11163
ဒ	-8.11392
ှင	-8.11522
ခံ	-8.11844
ကယ	-8.13458
အမှု	-8.13647
းမူကား	-8.15034
တွေ	-8.15176
တယောက	-8.15578
ထံ	-8.15774
လွ	-8.16063
ပုရောဟ	-8.17056
ိုင	-8.17485
လမ	-8.18622
းနှ	-8.19043
ပြီးမှ	-8.20781
ွန	-8.21
ရန	-8.21244
ရကြ	-8.21462
ဘို	-8.21753
ကြွ	-8.23495
ခ	-8.25125
ဟ	-8.2529
ယူ	-8.26718
မြောက	-8.27619
အပ	-8.27746
စား	-8.28218
လယ	-8.28734
များကို	-8.29263
ိပ	-8.29537
တရား	-8.29596
ဃ	-8.29885
တိုက	-8.29939
သောသူတို	-8.29969
အဲ	-8.31615
ကြောက	-8.31621
အံ	-8.32633
ပြော	-8.33056
စာ	-8.34336
ယေရုရှ	-8.34685
အတူ	-8.35371
မက	-8.35877
ဣသရေလ	-8.36144
အဘ	-8.36564
ထား	-8.36661
ကာလ	-8.37055
သောကြ	-8.37135
မူပါ	-8.38403
ရက	-8.38838
ဘဲ	-8.39773
းကြီး	-8.39979
အလွ	-8.40078
ရေ	-8.40143
မေ	-8.40432
စပ	-8.40658
စကားကို	-8.40807
သောသူသ	-8.40916
ပြီ	-8.41107
ဣသရေလအမျိုး	-8.4114
းသို	-8.4121
ဝမ	-8.41599
ကျောက	-8.42152
ရှု	-8.4438
အချ	-8.44643
ပလ	-8.4476
းဟု	-8.4499
ကော	-8.45041
ရိုက	-8.45251
တကွ	-8.45459
ပျ	-8.45506
ရှိသ	-8.45646
အခွ	-8.45662
ဝိညာ	-8.45837
ထာဝရ	-8.45874
ရှိသမျှ	-8.45888
သစ	-8.46016
ရသော	-8.47369
မှစ	-8.47937
မှန	-8.48532
ယုဒ	-8.48548
ဘော	-8.48934
ဆက	-8.4911
းမ	-8.4988
ဣသရေလအမျိုးသား	-8.50588
ခန	-8.50935
ခုန	-8.51289
စွာ	-8.51465
အတွ	-8.52012
ချက	-8.52104
သကဲ	-8.52362
အို	-8.52367
အရာ	-8.52378
းသ	-8.52701
းဟူသော	-8.54276
ပရောဖ	-8.54285
းခြ	-8.54952
ဖျ	-8.55433
ဝန	-8.56507
ြိမ	-8.56711
ခံရ	-8.57814
မှတ	-8.57975
ထုတ	-8.58219
ဗို	-8.58267
ခရ	-8.59832
ကြီး	-8.60246
ပည	-8.60673
မီးရှို	-8.61214
တမန	-8.62135
အချိ	-8.62186
အရ	-8.62417
ပြီးလျ	-8.62536
ိန	-8.62911
မူကား	-8.63007
ကျေးဇူး	-8.63776
ထဲက	-8.64139
နှာ	-8.6525
ထဲ	-8.6562
မှီ	-8.66644
ကာ	-8.67785
မိမိတို	-8.68001
စကား	-8.68437
တိ	-8.68847
တာ	-8.68965
ချစ	-8.69344
နန	-8.69628
ကျိ	-8.69709
ပိုင	-8.69845
စွန	-8.71397
ထိုသူ	-8.71478
သိ	-8.71684
စုံ	-8.72036
ာ	-8.72423
ကြား	-8.72503
မရှိ	-8.72813
ပန	-8.72961
လူများ	-8.7336
ရှောက	-8.74554
နေရာ	-8.75202
ိမာန	-8.75239
ွတ	-8.75315
စရာ	-8.75505
မူပြီ	-8.76001
နာမ	-8.76026
အမျ	-8.76483
မြေ	-8.76592
ငံ	-8.77619
နေသော	-8.77662
နာ	-8.77725
နေကြ	-8.78215
ဘု	-8.79262
မျှ	-8.80287
ကွယ	-8.80368
းစေ	-8.80473
မြေကြီး	-8.80671
ဟူ	-8.80994
ရှိကြ	-8.81906
ထိုကြ	-8.82053
ီအစ	-8.82517
ယုံကြ	-8.82795
ဘ	-8.83156
ဆီး	-8.83253
ဟူမူကား	-8.84859
ဒုစ	-8.84886
ပြုသော	-8.84938
ယခု	-8.85534
နက	-8.85826
အမိန	-8.86544
းဖြ	-8.86613
လျှော	-8.86764
အမှုကို	-8.87653
အန	-8.8792
အမြ	-8.88604
ွယ	-8.89055
ထိုန	-8.89197
ယာကု	-8.89262
စီး	-8.8984
သမီး	-8.90117
ပစ	-8.90342
ချီးမွ	-8.91079
အခါ	-8.91215
ခပ	-8.92166
ကြပါ	-8.92475
ထာဝရဘုရားကို	-8.93339
ဘွ	-8.93968
လူမျိုး	-8.94936
ရှား	-8.95137
မစ	-8.9516
းရှိ	-8.95175
ကြပြီ	-8.96096
ခြေ	-8.967
သုံး	-8.9698
ျစ	-8.97159
ညှ	-8.9718
ရွံ	-8.98173
ဖွဲ	-8.98504
ရှက	-8.99278
းကြ	-8.99898
နွား	-9.00315
ကျမ	-9.01201
အာရု	-9.0264
ရွှေ	-9.02647
ပရိသတ	-9.02732
လန	-9.02733
အကျ	-9.03016
အလို	-9.03058
လူအပေါ	-9.03088
ယနေ	-9.03412
ဟော	-9.0354
ရွက	-9.03718
လျော	-9.04226
ရှာ	-9.04478
ရလိမ	-9.04556
ပျော	-9.04785
သွားကြ	-9.04857
ခံရသော	-9.05661
ခို	-9.05683
ရဲ	-9.06489
ထိုင	-9.06657
ပြေး	-9.08555
ွမ	-9.08585
တံခါး	-9.08786
ဝပ	-9.08814
သွ	-9.09368
ဧ	-9.09447
ခမ	-9.09824
အချို	-9.11286
ခိုး	-9.11422
ချိုင	-9.11495
ဆာန	-9.12031
အရှ	-9.12346
စာကို	-9.12984
ဦး	-9.13267
များတို	-9.1333
ရစ	-9.14208
အခြားသော	-9.14486
ရှိရာ	-9.14908
ထိုသူသ	-9.16057
ရုပ	-9.16295
တိရစ	-9.16481
သလော	-9.17076
ဆုတော	-9.17762
ဖိလိ	-9.18017
လေး	-9.18317
တက	-9.18631
မောရှေ	-9.19101
ဓမ	-9.19338
နှလုံး	-9.19816
ဒန	-9.19827
ရှ	-9.20271
ဘေး	-9.20308
းဆဲ	-9.2056
ချမ	-9.2065
မြော	-9.2104
ထိုအ	-9.21191
တပါး	-9.21481
တဲတော	-9.21744
ဆာ	-9.22359
လတံ	-9.22479
းချ	-9.22584
ထမ	-9.22722
အမြဲ	-9.22909
ရွာ	-9.22928
ကျန	-9.23101
မိ	-9.23181
ပြုကြ	-9.25173
းရဲ	-9.25469
သံ	-9.26146
းလျ	-9.26768
မဲ	-9.26938
မူလျှ	-9.27319
ဗာဗုလု	-9.27824
ယော	-9.28179
ညီ	-9.28396
ံ	-9.28447
မာ	-9.28593
အညီ	-9.29275
မုတ	-9.29497
မမူ	-9.29626
ဘွား	-9.2988
ဟောပြော	-9.2994
ျား	-9.29955
တပါးအမျိုးသား	-9.30098
ပါပြီ	-9.30989
းရ	-9.31187
ဆိုကြ	-9.31563
အာ	-9.31829
မိမိအ	-9.31883
မီး	-9.32755
ဆိုသ	-9.33205
နယ	-9.33222
လာကြ	-9.33282
မယား	-9.33987
ပို	-9.3434
ဲ	-9.34432
ပဋိညာ	-9.34589
ကျော	-9.34918
ထားတော	-9.35069
သူတပါး	-9.35269
းကပ	-9.35519
သောငှါ	-9.35865
ှုတ	-9.35966
သားတော	-9.36115
အထံ	-9.36332
ငွေ	-9.36392
းတူ	-9.36858
နားမ	-9.37125
ေခြ	-9.37409
ပညာ	-9.38279
စိမ	-9.38575
တရားကို	-9.38608
ရှောလမုန	-9.39117
ထာဝရဘုရားက	-9.39497
ငါနှ	-9.395
ခတ	-9.39506
ာဏ	-9.39552
ဘိုးဘေး	-9.39738
ကြံ	-9.39822
ယောသ	-9.40345
အကြ	-9.40577
ဗျာဒိ	-9.40663
သေတ	-9.40808
ပါသ	-9.41375
သူမျှ	-9.41488
တဆ	-9.41634
နံ	-9.41735
ယေရှုသ	-9.41857
ဆုံးမ	-9.421
ကန	-9.42238
ထာဝရဘုရားအား	-9.42573
တမ	-9.42852
ချော	-9.43209
ဖွ	-9.43354
မော	-9.43525
အက	-9.43612
ပြောဆို	-9.43731
မသိ	-9.44508
ထဲမှာ	-9.4494
ချီ	-9.44999
ချီးမြှ	-9.45063
ယေရှုခ	-9.45074
ရှောလု	-9.45129
သမျှသော	-9.4516
အမ	-9.45272
ကရုဏာ	-9.45885
ခြေအ	-9.45984
သေခံ	-9.46323
ပေ	-9.46497
ရာယ	-9.467
တူ	-9.46729
ရွှ	-9.46783
ီချ	-9.46846
မေး	-9.46858
မတရားသော	-9.47122
ခံရကြ	-9.47364
မြွ	-9.48022
ဆိုသော	-9.49126
သမျှ	-9.49272
နတ	-9.4929
ခွန	-9.4982
ယေရှုက	-9.4984
လို	-9.49962
အလျ	-9.50115
ဟုတ	-9.508
ယုဒလူ	-9.50853
လောက	-9.51434
အရာတို	-9.51555
ရိုး	-9.51563
းစွာ	-9.51672
ဩ	-9.52468
းသာ	-9.5291
ပါစေ	-9.53076
သူအပေါ	-9.5312
ရေတွ	-9.53151
▁့၍၊	-9.53153
ထားသော	-9.53439
နေရ	-9.5424
အဆွေအမျိုး	-9.54311
ဥယျ	-9.55696
ထပ	-9.56085
ငြ	-9.56514
-	-9.56786
ယာ	-9.569
းယူ	-9.57637
နိ	-9.57889
ဧဖရ	-9.58918
းမရှိ	-9.58922
မပြု	-9.59365
ထိ	-9.59901
အိုထာဝရဘုရား	-9.59916
ထိုက	-9.60588
းပေါ	-9.60738
းငှာ	-9.60976
လဲ	-9.61127
လူသ	-9.61367
ပုံ	-9.61641
နံန	-9.61875
များစွာသော	-9.62354
ခွ	-9.62472
အဆ	-9.62699
သားကား	-9.62736
မေးလျှ	-9.6286
အသီးအသီး	-9.6338
ဘမ	-9.63701
မောဘ	-9.63937
သိတ	-9.64331
မမြ	-9.64389
အမိ	-9.64394
ပုန	-9.64472
မပြတ	-9.64669
ဆုံး	-9.64762
ဤသူ	-9.64825
သေး	-9.65312
အရှေ	-9.65398
းကြီးပေး	-9.65572
တဲ	-9.65623
ဘုံ	-9.65934
လေပြီ	-9.6623
မျိုး	-9.66657
းတွ	-9.6671
ပြီဟု	-9.66882
ပေါက	-9.67067
အရာကို	-9.67132
ယေရှု	-9.67167
သောသူကို	-9.67239
ရှော	-9.67751
ဂလာ	-9.67816
မှူး	-9.6797
အလုံးစုံ	-9.67979
သောအရာ	-9.68042
အသံ	-9.68114
သူဖြ	-9.68353
အမျိုးအနွ	-9.68531
ဂလာရှိ	-9.68575
းသွား	-9.68733
ရွေး	-9.68871
ရေကို	-9.69352
မှတပါး	-9.69633
ရပါ	-9.69783
စိ	-9.6995
သနား	-9.70192
တိလူ	-9.70271
မွေ	-9.7096
ငိုကြွေး	-9.71027
ယောဟန	-9.71079
တကော	-9.71502
ငှက	-9.71608
ဆုံးသော	-9.71739
တစုံတ	-9.71956
သူရဲ	-9.7209
ဘဲနေ	-9.72143
လွှမ	-9.72235
ထိုနေ	-9.7225
မှား	-9.72546
မောရှေအား	-9.72633
ပြား	-9.72833
သုံးဆ	-9.729
သားသမီး	-9.73002
သောနေ	-9.73081
လုလ	-9.73086
လောဟု	-9.73506
လာသ	-9.73971
းလော	-9.74195
စီ	-9.7435
အထ	-9.74423
မောရှေသ	-9.74471
အကျိုး	-9.74656
ပြုလျှ	-9.74754
ကြားလျှ	-9.75428
းသက	-9.75914
ရှိပါ	-9.76063
ထမြောက	-9.76682
တကား	-9.76797
ထိုမှတပါး	-9.77213
ယာမိန	-9.77228
▁????????????	-9.77309
▁့်၍၊	-9.77652
ကြီးစွာသော	-9.77657
ကြသ	-9.77665
ဟူသော	-9.78174
းအားဖြ	-9.78225
အာဗြဟံ	-9.78878
လုံးကို	-9.78903
ဆွဲ	-9.79136
ထိုကာလ	-9.79302
စာရ	-9.79359
ဗက	-9.7956
ရာအရ	-9.79579
လာသော	-9.79726
အသရေ	-9.8004
မြေပေါ	-9.8013
ကပ	-9.80175
ဖုံး	-9.80392
းရာ	-9.80886
ယုဒရှ	-9.80953
သားအပေါ	-9.81114
ထိုသူကို	-9.81749
တရားတော	-9.81771
းလွ	-9.82467
းအ	-9.82788
သားဖြ	-9.8288
ဆိုရ	-9.83449
ဝှ	-9.83493
ဇာ	-9.83608
းမသ	-9.83622
အစရှိသော	-9.83809
?????????	-9.83871
ပွဲ	-9.83983
းမှ	-9.84103
ဟုဆို	-9.84411
ထိုအရ	-9.84726
စေသော	-9.84771
ရော	-9.85084
အသေ	-9.85217
းလျှ	-9.85533
သိုးသ	-9.85602
ဘူး	-9.85659
မှာထားတော	-9.85719
ဝို	-9.85722
သောအ	-9.85886
မိဿဟာယ	-9.85917
နှိုးဆော	-9.8592
ဥပု	-9.86015
းလေ	-9.86034
မပြော	-9.86077
သီး	-9.86219
ဆီ	-9.86345
ကြေးဝါ	-9.86534
ထူး	-9.86974
နှာကို	-9.8728
ွေးကြော	-9.87342
စပါး	-9.87741
ရှိသမျှကို	-9.87743
ဇိအုန	-9.8778
အလ	-9.88401
ခဏာ	-9.88442
စော	-9.8857
စု	-9.88585
ကြားပြော	-9.88767
ဖြေရာ	-9.88911
ရှစ	-9.89005
ပြုရ	-9.89257
ဘုရားသ	-9.89522
နှံ	-9.89564
စိုးရ	-9.89717
သောအမှု	-9.89749
မေတ	-9.89935
ဆီသို	-9.9004
ပြတော	-9.90143
ပွ	-9.90196
ကျေးဇူးပြု	-9.9039
အသီး	-9.90422
အမွေ	-9.90501
ကြွလာ	-9.90567
းဝေးရာ	-9.90612
အသွေး	-9.90759
ဆိုလေ	-9.90816
အကျိုးကို	-9.9096
းစာ	-9.9105
ဗတ	-9.91298
စိုး	-9.91425
မဖြ	-9.91501
သူနှ	-9.92143
ဖ	-9.92344
မေးမ	-9.92431
ကိုခေါ	-9.92462
ရွေ	-9.9271
ပြီးသော	-9.92986
ရိတ	-9.93027
ပြုပြ	-9.93263
ခုတ	-9.93379
းကား	-9.93554
ဖြေ	-9.93731
အသင	-9.93853
စက	-9.93893
တုံ	-9.94002
ဂြို	-9.94256
လု	-9.94529
ဝါကြွား	-9.94926
ယေရမိ	-9.94926
ပါသော	-9.94996
ဤသို	-9.95362
နားမှာ	-9.95901
ဟာ	-9.96213
းထဲ	-9.9643
းကြီးသ	-9.96467
ကြီးသော	-9.96784
သူင	-9.96903
လူသား	-9.97109
လွှဲ	-9.97252
ငါပေး	-9.97349
ြန	-9.97927
ဤအရ	-9.97978
ဋ	-9.98351
မူပါဟု	-9.98471
အဆွေ	-9.98921
ရထား	-9.98989
ဂိလဒ	-9.9905
စိုက	-9.99065
းတိမ	-10
အားကြီး	-10
းပ	-10.0022
ဂါ	-10.0039
တံခါးဝ	-10.0045
သွားသော	-10.0054
ပူ	-10.006
ကျူး	-10.0081
ယောရှု	-10.0108
မထ	-10.014
းများ	-10.0143
ဆရာ	-10.0212
လေဝိသားတို	-10.0244
မကျ	-10.0269
ရှိစေ	-10.0273
သဘော	-10.0276
ကူး	-10.0279
တေ	-10.028
ပါဟု	-10.0292
ပေါလု	-10.0319
ထားကြ	-10.0329
ိမိတ	-10.0351
းပါ	-10.0371
တရားသ	-10.0381
ငါးဆ	-10.039
ပြုစု	-10.0423
မဝ	-10.043
ယောရှ	-10.0436
ခွဲ	-10.0449
တရာ	-10.0472
ဝက	-10.0486
ဂ	-10.053
▁?????????	-10.0538
တိတ	-10.0544
ဍာ	-10.0557
အလုံးအရ	-10.0558
နော	-10.0559
သိမြ	-10.0561
ဒုက	-10.0573
အာရှုရိ	-10.0574
ကျွေး	-10.0584
ဘူးသော	-10.062
လောကီ	-10.0649
းဝေး	-10.0652
ဣသရေလလူ	-10.0681
းကျ	-10.069
အမှီပြု	-10.0698
မှားယွ	-10.0708
ကြံစ	-10.0711
ွက	-10.0718
လုယူ	-10.0732
ံတော	-10.0771
းဝ	-10.0772
ကွဲ	-10.0785
အားကြီးသော	-10.0788
ရသောအခွ	-10.0792
သိကြ	-10.0793
မနေ	-10.08
းမတို	-10.08
ပြီး	-10.0801
ဆိုး	-10.0806
သားကို	-10.0832
အမှုအရာ	-10.0834
ကွ	-10.0845
ဣဇာ	-10.0862
ဣ	-10.0901
ရိ	-10.0902
းနို	-10.0915
အကြီး	-10.0924
သောအရ	-10.0958
းသောသူ	-10.096
ဆဲ	-10.1008
ရှုတ	-10.1009
ကြီးမြ	-10.1016
းအရာ	-10.1031
ဦးမည	-10.1045
ဣသရေလအမျိုးကို	-10.1046
ကိုယူ	-10.105
အသွေးကို	-10.1077
ခါနာန	-10.1096
ဆီးတား	-10.1096
ဌာန	-10.1097
ကျပ	-10.11
မချ	-10.112
ဖါရော	-10.1176
အနားမှာ	-10.1179
ကိုမျှ	-10.118
ချို	-10.1199
အာမ	-10.121
ဘောဇ	-10.1218
အကြံ	-10.1221
အလျှ	-10.1226
အထဲ	-10.1227
သွားလော	-10.1243
ရှမာရိ	-10.1256
မမူပါ	-10.1267
ပညာရှိ	-10.1268
အနံ	-10.1287
စွဲ	-10.1291
အရိုး	-10.1302
ဂတိ	-10.132
လေးဆ	-10.1325
သလောဟု	-10.1333
ပု	-10.1353
တခု	-10.141
ေ	-10.1418
အခန	-10.145
ကျေးဇူးကို	-10.1496
ဟိတ	-10.1498
ဒါ	-10.1525
းတည	-10.1526
ငှါ	-10.1526
အနာ	-10.1529
ပါလော	-10.1532
တကျိ	-10.1546
သူကို	-10.1555
အမျိုးမျိုး	-10.1575
စိုးစံ	-10.1582
းတွား	-10.1583
တဝါ	-10.1613
အလိုရှိ	-10.1623
မခံ	-10.1644
ငါမြ	-10.1681
ဆံ	-10.1701
ကြဲ	-10.1702
ရွေးက	-10.1715
ရာဇ	-10.1738
ကုလားကာ	-10.1752
ကိုသာ	-10.1778
ငါမ	-10.1854
ရာသို	-10.1862
းသောသူတို	-10.1867
ယေ	-10.187
ဖတ	-10.1882
မလိုက	-10.1882
စုံစ	-10.1891
မထီ	-10.192
စမ	-10.1927
သောက	-10.1932
ချိုး	-10.1943
တုန	-10.1978
ပါစေသော	-10.1985
ကမ	-10.2016
စားစရာ	-10.2051
ခါး	-10.2065
ဗာ	-10.2077
အဆက	-10.208
ပြပ	-10.2088
ဒုတိယ	-10.2093
အရေဖျားလှီး	-10.2093
ဗာလ	-10.2106
ဥပဒ	-10.2121
ု	-10.2125
ထုံး	-10.2132
သွားလေ	-10.2175
စုံလ	-10.218
လေဝိသား	-10.2188
ဆုပ	-10.2189
မှုတ	-10.2193
စားပွဲ	-10.22
ဒေါ	-10.2204
ခံကြ	-10.2216
ဒိ	-10.2217
အသံကို	-10.2223
မြေမှ	-10.2225
မရ	-10.224
ငွေကို	-10.2265
နေတော	-10.2272
ကိုမြ	-10.2296
ငါသိ	-10.2332
သံကို	-10.2334
▁??????????	-10.2358
ရိပ	-10.2387
မပေး	-10.2401
ကြိုးစား	-10.2448
ဖာရော	-10.2449
ကြားရ	-10.2452
သုံးရက	-10.2455
ဝေး	-10.2456
နီး	-10.2492
ဆေး	-10.2505
ျာ	-10.2512
းကြလော	-10.2541
ယုဒအမျိုး	-10.2547
ပေးသော	-10.2571
????????????????	-10.2595
စားရ	-10.2608
သားရဲ	-10.2615
သေရ	-10.2641
တနေ	-10.2677
မတရားသောသူ	-10.2735
ရဟု	-10.2757
ဟာမ	-10.2763
မပျ	-10.2775
သောအမှုကို	-10.2792
သားများ	-10.2808
ချိ	-10.2808
အဝ	-10.2847
ပြောသော	-10.2849
ကိုးစား	-10.285
ကွပ	-10.2872
ကျက	-10.2887
အသေသ	-10.2939
တိမ	-10.295
များစွာ	-10.2982
ကာကို	-10.2998
▁????????	-10.3007
ဂဒ	-10.3011
မျိုးစေ	-10.3015
ိ	-10.3019
ပြတ	-10.3031
ဘုရားကို	-10.3077
းနှီး	-10.3095
ရှောလုသ	-10.3112
သေကြ	-10.3115
းစံ	-10.3128
ဆုတ	-10.3134
နီ	-10.3137
နေသ	-10.3137
ယောနသ	-10.3138
ဧသော	-10.3152
တထ	-10.3154
▁?????	-10.3161
းဆို	-10.3171
ဖလား	-10.3198
ဝေ	-10.3218
ဣသရေလရှ	-10.3227
မရှိသော	-10.3244
မာန	-10.3251
ကွာ	-10.3272
ဧဒုံ	-10.3275
သောသူအပေါ	-10.3295
နှလုံးကို	-10.3295
ငါပြု	-10.3313
▁??????????????	-10.333
မှာထား	-10.3332
ခါ	-10.3337
ပြောဆိုကြ	-10.334
စားသောက	-10.3358
▁???????????	-10.3397
စုဝေး	-10.34
တံပိုး	-10.3404
ပေတရု	-10.342
သားဦး	-10.3429
သိရကြ	-10.3433
သိပ	-10.3463
ပေးရ	-10.3467
းအမှု	-10.3468
းများကို	-10.3498
ရေးထား	-10.3502
မနှ	-10.3511
မီးဖြ	-10.3515
ူ	-10.3515
ဣသ	-10.3533
တံ	-10.3549
ဖာရိရှဲ	-10.3598
ယေရော	-10.3604
စားကြ	-10.3624
ရှုရိ	-10.3667
းစရာ	-10.3688
အာဏာ	-10.37
သူပြည	-10.3702
သောအရာကို	-10.3756
ပါလျ	-10.3768
အမျိုးကို	-10.3771
မြေကို	-10.3773
ရသ	-10.3774
မှူးမ	-10.3798
သိုးထ	-10.3799
စို	-10.3825
ခရီးသွား	-10.383
အာဟ	-10.3838
စေဟု	-10.384
သောလမ	-10.3845
အလိုငှါ	-10.3897
ဂေ	-10.39
ဝံ	-10.3924
ရေး	-10.3941
ဇော	-10.3942
အိုး	-10.3948
ဖြူ	-10.3967
သတိ	-10.401
းတန	-10.4014
ဗော	-10.4024
ငါပြော	-10.4039
စွာနေ	-10.4039
ကြိုး	-10.4043
ဆိုလျ	-10.4045
ခိုက	-10.4049
လိ	-10.4055
ယခုမှာ	-10.4065
ပြောကြ	-10.4104
ထားနှ	-10.4121
လှဲ	-10.4135
းလဲ	-10.4158
လျှာ	-10.4177
ယုဒအမျိုးသား	-10.4204
အနား	-10.4204
အခြား	-10.4205
းမိုး	-10.4208
ဆိုလျှ	-10.4215
ရှိရ	-10.4216
ဤအမှု	-10.424
ခာ	-10.4241
ဤလူမျိုး	-10.4241
ဘတ	-10.428
မူကြ	-10.4286
ခံယူ	-10.432
ဝေါ	-10.4336
ကျီ	-10.4339
အိုဘုရား	-10.434
လူအမျိုးမျိုး	-10.4344
သားမြေး	-10.4347
ဆုံးရှုံး	-10.4347
ရွေးန	-10.4368
ပေတ	-10.4368
များပြား	-10.4372
ရဲရ	-10.4397
လူကို	-10.4415
စာစ	-10.4434
ဟေ	-10.4444
တကားဟု	-10.4485
ရုဗ	-10.4487
အကြံရှိ	-10.4516
ညှိုး	-10.4517
းလူသား	-10.4526
ယွာဘ	-10.4542
ပဌမ	-10.4554
ရဲတို	-10.4572
ထားရ	-10.4573
မဆ	-10.4581
မရှိဘဲ	-10.4607
မှားသော	-10.462
ထံမှ	-10.4647
ရိုသေ	-10.4669
သားသ	-10.4724
နာမကို	-10.4725
အရာရှိ	-10.4744
းဘော	-10.4765
းစွာသော	-10.4771
လူစု	-10.4772
မွေး	-10.4785
သတိပြု	-10.4804
ပြုလျ	-10.481
သူရဲတို	-10.4821
ပေးသနား	-10.4822
နှလုံးသ	-10.4824
ပြေးကြ	-10.4849
ရာလမ	-10.4858
ကြက	-10.4877
ထုန	-10.4916
ကု	-10.4935
စုဝေးစေ	-10.4941
းဆီး	-10.4971
ယူသွား	-10.5023
းသောအရာ	-10.5037
ချယ	-10.5038
ဘိသိ	-10.5056
အစိုးရသော	-10.5059
ထားဘေး	-10.5065
ထားလျ	-10.5091
ငါအမှ	-10.5092
ဤအ	-10.5093
ွေးဆ	-10.511
ရှုံး	-10.5124
စေတနာ	-10.5131
းမကို	-10.5143
ီ	-10.5153
ဗိမ	-10.5166
မိက	-10.5166
းအကြော	-10.5168
းဝပ	-10.5176
ရေလ	-10.5181
အရေ	-10.5189
ရေသ	-10.519
းခံ	-10.5201
ရှိသောသူ	-10.5248
သမ	-10.5255
အများ	-10.5279
သောသူမူကား	-10.5279
ယေရှုကို	-10.5305
မယားကို	-10.531
စားသော	-10.531
အသီးကို	-10.5323
ဗေ	-10.5341
ရှားစေ	-10.537
အခြားတပါးသော	-10.537
လုံ	-10.5373
မိဘ	-10.5377
းမနှ	-10.5389
ရုံး	-10.5409
လွှ	-10.542
ကြသော	-10.5423
ဇိ	-10.5425
းတတ	-10.5427
ဖာ	-10.5437
ကေ	-10.5442
ခံသော	-10.547
မစား	-10.5484
ထသော	-10.5492
အဗရှလုံ	-10.5492
ကျွေးမွေး	-10.5493
နေဗု	-10.5497
ခဏ	-10.55
တံဆ	-10.5505
ပေါလုသ	-10.5545
ထာဝရဘုရားထံ	-10.5556
အဘသ	-10.5566
မြေကြီးကို	-10.5574
ပါပြီဟု	-10.5584
စုံသော	-10.5598
ို	-10.5599
မူသမျှ	-10.5601
အလိုက	-10.561
းသတ	-10.5663
မြဲ	-10.5665
ဧလိ	-10.5701
ဆိုးမ	-10.5736
ဂလာကို	-10.5737
ဿ	-10.5741
ဂါလိလဲ	-10.5741
မုဒ	-10.5741
အလိုအလျ	-10.5742
▁့၏။	-10.5742
ယှ	-10.5744
ဟန	-10.5745
စကားသ	-10.5793
မျှော	-10.5793
ရှလ	-10.5806
းထ	-10.5808
ထိုသူအပေါ	-10.5813
မျှမ	-10.5851
ုံ	-10.5855
မနာရှေ	-10.5858
အသီးသီး	-10.5869
မှီဝဲ	-10.5872
ာဗန	-10.5872
သောစကားကို	-10.5882
ဦးစွာ	-10.5888
ကြားမှာ	-10.5892
ဆုံးဖြ	-10.5894
မန	-10.5918
ခံသောသူ	-10.5923
တီး	-10.5927
သေသော	-10.5959
အစာ	-10.5985
အားပေး	-10.5986
ကွက	-10.5987
ဒံယေလ	-10.5996
ခံစေ	-10.6003
သွားရ	-10.6005
ရွံရှာ	-10.6008
အနှ	-10.6013
ခေရု	-10.6022
သမား	-10.6027
ပြုသ	-10.6045
မလာ	-10.6053
ချီသွား	-10.6088
ချေ	-10.6098
မူရာ	-10.6109
ဟေဗြ	-10.6125
ဆပ	-10.6134
မူစေသ	-10.6143
ဂေါ	-10.6145
ဆံပ	-10.6149
ရွံရှာဘ	-10.6153
ယေဟု	-10.6159
အစိုးရ	-10.6159
အစာကို	-10.6169
းရာဌာန	-10.6178
အမွေခံ	-10.6203
မသောက	-10.6224
သွေး	-10.6229
းရှိကြ	-10.6241
သေလ	-10.6242
သမျှကို	-10.625
ဟုဆိုသော	-10.6255
ဘာသာ	-10.6256
▁၌၊	-10.6259
လျှို	-10.6269
းအမှုကို	-10.6272
အဘိုး	-10.6272
မဆို	-10.629
နေရာအ	-10.6306
မူပြီဟု	-10.6325
ယုံ	-10.6356
ငါအပ	-10.6371
တံခါးတို	-10.6381
မစားရ	-10.6385
းပြု	-10.6396
တွန	-10.6399
လှံတံ	-10.6399
တစုံတခု	-10.642
ရှိမ	-10.6426
ယောရှုသ	-10.645
အနီး	-10.6455
ကြမ	-10.6456
လှံ	-10.6483
ခု	-10.6484
မြက	-10.6485
ထိုဘုရား	-10.6493
ေလ	-10.6497
ညဦး	-10.6529
သူကြီး	-10.6536
ရှိသမျှသော	-10.6557
မီးလ	-10.657
တဦး	-10.657
စေရ	-10.6581
ကိုသတ	-10.6596
ကွဲပြား	-10.6605
းရဲသား	-10.6627
မရှိရ	-10.6632
ထံမှာ	-10.6641
ဝါးက	-10.665
တုတ	-10.6659
ကြီးသူ	-10.666
အာရဇ	-10.6667
ရိုးကို	-10.6672
ခုနှ	-10.6685
သူန	-10.6705
ပေးကြ	-10.6707
းသာပေး	-10.6712
ာပေါ	-10.6713
စာရေး	-10.6719
ကိုပြု	-10.6725
ထားလေ	-10.6732
မုသာ	-10.6732
းမက	-10.6735
းထဲက	-10.6746
ပြောရ	-10.6752
အဘိမ	-10.6761
ထိုအမှုကို	-10.6775
ကြဟု	-10.6777
းအသရေ	-10.6794
သားနှ	-10.6809
ဤလောက	-10.6813
လေရာရာ	-10.6818
နေရကြ	-10.6847
လူဆိ	-10.6848
းပါး	-10.6857
ဓာ	-10.686
ထိုအမှု	-10.6881
ခိုလှုံ	-10.6882
ပြာ	-10.6899
မလွ	-10.6906
ဟုဆိုလျှ	-10.6917
ဆူး	-10.6919
ထိုအတူ	-10.6925
ဧလာဇာ	-10.6936
နေဇာ	-10.6942
လေဗန	-10.6943
ဖြိုဖ	-10.6945
သံလွ	-10.6953
ဂလာရှိကြ	-10.6978
ရှေခ	-10.6983
မခံရ	-10.6987
းရေ	-10.7006
ငံကို	-10.703
ဖဲ	-10.7035
ပညာကို	-10.704
စီးသော	-10.7047
ွေ	-10.708
တတိယ	-10.7089
အရေအ	-10.7095
ယခုမူကား	-10.7097
မှု	-10.7104
သု	-10.7114
းရဲသောသူ	-10.7117
အလျား	-10.7123
ပိုက	-10.7128
ဖော	-10.7158
လေဝိ	-10.7191
ရှိသမျှသ	-10.7194
းခြား	-10.7203
ငါကြား	-10.7205
ပဌနာ	-10.7223
မဟာ	-10.723
းစီးသူရဲ	-10.7232
▁်၌၊	-10.7232
သိန	-10.7248
မှည	-10.7249
ဗာလမ	-10.7261
သွေ	-10.7263
မစိုးရ	-10.7267
ိမှတ	-10.7283
တဆေး	-10.7286
အသရေကို	-10.7306
ယောဘ	-10.7329
ဟောပြောသော	-10.7342
ဆိုးသော	-10.737
မြှား	-10.7377
အာဗြံ	-10.7377
မိဒျ	-10.7377
ထိုမျှမက	-10.7377
တညီတည	-10.7377
ကုလားအု	-10.7381
သောသဘော	-10.7387
မူသောသူ	-10.7407
ဧဝံဂေလိတရားကို	-10.7428
မပြုရ	-10.7433
မပ	-10.7445
ခက	-10.7459
ဒေါသ	-10.7466
ရံ	-10.7477
အာခ	-10.7495
လူတယောက	-10.7498
ီးချ	-10.7507
လူအစုအဝေး	-10.7528
ပကတိ	-10.7528
ပေတရုသ	-10.7534
မျှမရှိ	-10.7535
ငါဆိုသ	-10.7567
သိုးစု	-10.7573
းသီး	-10.7575
နေရာချ	-10.7589
ဘောသ	-10.7593
ဤအမှုကို	-10.7594
အသေခံ	-10.7595
ဖုံးအ	-10.7598
မသတ	-10.7601
သဘောကို	-10.7617
ရွှေငွေ	-10.7626
ပြုပါ	-10.7663
ကျိုး	-10.7668
းမောတွေဝေ	-10.7678
းမြော	-10.7684
ျာဘက	-10.7685
ဗေသလ	-10.7697
မသွား	-10.7708
ရွာတို	-10.771
ဖျား	-10.7711
ကြပါပြီ	-10.7713
ထားကို	-10.7715
ညူးစေ	-10.772
တမျိုး	-10.7736
လူဆိုး	-10.7737
အထွ	-10.7739
ကြပါစေသော	-10.7774
ျာလ	-10.7781
ြိုင	-10.7784
များသော	-10.7784
ဘာ	-10.7787
မယ	-10.779
မထွ	-10.7792
စွဲလ	-10.7804
ဝါ	-10.7812
ပဋိ	-10.7831
ဧလိယ	-10.7843
ရှာကြ	-10.7846
သိုးနွား	-10.785
လူနှ	-10.7855
ဗာရ	-10.7869
မူပါစေသော	-10.7869
ဗာရှ	-10.7881
ကြာ	-10.7886
ပြုလေ	-10.7931
တုကို	-10.7936
ဒုတ	-10.7938
ဒေ	-10.7954
မထား	-10.797
ကိုချ	-10.7974
ပဲ	-10.799
တံခါးကို	-10.7992
နွှ	-10.7999
ဆာကို	-10.8
ကြားသောအခါ	-10.8003
အမျှ	-10.8013
အခက	-10.8025
အထဲက	-10.8027
ထိုအကြ	-10.8045
လပ	-10.8052
ကြွေး	-10.8095
ပြုသောသူ	-10.8095
ဝိ	-10.8116
ခါလဒဲ	-10.8117
အသားကို	-10.8118
းဟူ	-10.8132
သဘောရှိ	-10.8138
အသံနှ	-10.814
ပြုသောအမှု	-10.8156
ထားဖြ	-10.8159
ပွဲခံ	-10.8177
ညံ	-10.8185
းစား	-10.8186
ဘိုးဘေးများ	-10.821
းခရီး	-10.8217
ငါစေ	-10.8217
မပေါ	-10.8219
မလှ	-10.8219
ရှားသော	-10.8224
ဒကဲ	-10.8232
စေကြ	-10.824
တရားစ	-10.8249
ထိုစကားကို	-10.825
ဇေရ	-10.8268
မယုံကြ	-10.8295
မိဖုရား	-10.8308
▁့်၏။	-10.8308
ပိလတ	-10.8308
မာရိ	-10.8313
ဒရာ	-10.8313
ထရံ	-10.8315
းမံ	-10.8319
းထား	-10.8322
ရှုရိလူ	-10.8333
းမဲ	-10.8333
းကိုခံရ	-10.8393
အထူး	-10.8418
ငါဆော	-10.8439
တိုးပွား	-10.8459
ဆိုလိုသ	-10.8461
ယေရိခေါ	-10.8473
ရှေးကာလ	-10.8473
ခံလျ	-10.8477
အပြား	-10.8482
မရှိစေ	-10.8484
ရိမ	-10.8515
မောရှေက	-10.8517
ယခုတွ	-10.8534
မြေး	-10.8548
မသနား	-10.8564
မိသော	-10.8569
မာသော	-10.8576
မထော	-10.8596
ရာဇဝ	-10.86
ခွေး	-10.8613
စားရကြ	-10.8621
းဘေး	-10.8622
တုရု	-10.8643
တရ	-10.8654
နေလေ	-10.8678
ဟုဆိုလျ	-10.8679
ပုံသ	-10.8685
အဦး	-10.8694
ရေက	-10.8699
ပိ	-10.8703
အဆွေအမျိုးအ	-10.8705
မေးသော	-10.8732
တစုံတခုကို	-10.8758
းအခြား	-10.8782
စိကို	-10.8784
ဇာခရိ	-10.8808
းပြုဆရာ	-10.8809
နေပါ	-10.8809
ရှိလျ	-10.8809
ဒမာသ	-10.881
တရားသူကြီး	-10.8811
တူသော	-10.8837
အသား	-10.885
ပဌနာပြု	-10.8866
တူး	-10.8902
းနားမှာ	-10.8902
မတရားသ	-10.8912
သွားပြီး	-10.8926
တုလူ	-10.8951
ပြို	-10.8953
ရာကို	-10.8963
ျားသ	-10.8985
မယုံ	-10.8987
အိုင	-10.899
ကိုဆော	-10.8995
စပါးကို	-10.8997
မီးခ	-10.9001
းမရှိဘဲ	-10.9002
သောသူနှ	-10.9014
ရှိန	-10.9017
ယေရု	-10.9017
ကိုကား	-10.9061
လူများကို	-10.9072
ျားရ	-10.9092
သွားသောအခါ	-10.91
စုံစေ	-10.9105
ဆီဥ	-10.9122
မမှတ	-10.9148
လိုသော	-10.9152
ဦးချို	-10.9158
▁၏၊	-10.9159
နောဧ	-10.9163
ကြာမြ	-10.9169
ဆွေ	-10.9198
စကားဟူမူကာ	-10.9201
ဟိ	-10.9217
မြွေ	-10.923
ကြသလော	-10.9235
ရုန	-10.9236
အစေခံ	-10.9244
အနှံ	-10.9272
းရှိသ	-10.9275
အကြံအ	-10.9287
စရာရှိ	-10.9299
ငါပေးသော	-10.931
ပျို	-10.9311
အာဇ	-10.932
သောဒုံ	-10.9335
အာဗနာ	-10.9335
တိုးပွါး	-10.9335
းသာရ	-10.9347
အရာရာ	-10.935
မအော	-10.9353
းအလိုငှါ	-10.9354
းတမ	-10.9362
ခြေရ	-10.9375
ပရိ	-10.9378
သတိပေး	-10.938
ပျိုး	-10.9387
းသောအ	-10.9392
ဖက	-10.9415
ရောဗ	-10.9415
ညူးသော	-10.9423
မပြ	-10.9463
ပြုမိ	-10.9498
ရွှေစ	-10.951
အကြီးအကဲ	-10.9516
သေစေ	-10.9519
ရှိလော	-10.9523
အစာရှ	-10.9526
ဖြား	-10.9533
ရှမွေလ	-10.9536
ဌမ	-10.9543
ဩဇိ	-10.9556
းထံ	-10.9558
ခိုလှုံရာ	-10.9558
းချကြ	-10.9562
မီးခုံ	-10.9583
ဆိုးည	-10.9608
ပြုစေ	-10.9627
ငါးနှ	-10.9629
ထုံးစံ	-10.9631
ယောရှိ	-10.9641
ချကြ	-10.9645
လွှား	-10.9648
စုံဘ	-10.9657
လိပ	-10.9662
ဗေလ	-10.9665
မူလျ	-10.9681
မရှိပါ	-10.9682
အခါမ	-10.9686
နေသောသူ	-10.9713
မဖ	-10.9719
ကြုံ	-10.9739
မြေတ	-10.9752
▁???????	-10.977
လာပါ	-10.9773
နေလော	-10.9774
သီးကို	-10.9783
မကြား	-10.9786
းပွ	-10.9826
ပေးပါ	-10.9833
ထိမိ	-10.9841
မြဲမြံ	-10.9868
မသိမ	-10.9883
တလုံး	-10.9888
ဂိဒေါ	-10.9891
နွားထီး	-10.9891
တပါးတ	-10.9894
ဆုံးမဩဝါဒပေး	-10.9896
မာရ	-10.9904
မလျော	-10.9931
ရူပါရုံ	-10.9934
ရှားစွာ	-10.9938
ရေးထားလျ	-10.9942
အာသ	-10.9965
မှဆ	-10.9965
ခံရသ	-10.998
မှာရှိသော	-10.999
းအရာကို	-11.0016
ကိ	-11.0021
ချလျ	-11.0021
းအပေါ	-11.0021
နု	-11.0044
ယခုပ	-11.0051
ဟတ	-11.0059
သိသော	-11.0059
ယောန	-11.0066
ရှာဘ	-11.0068
သောအပြ	-11.0071
ကျို	-11.0072
ဣရှမေလ	-11.0082
ဟေဇကိ	-11.0086
လိုသောငှါ	-11.0087
လူပျို	-11.009
တစု	-11.0091
အာန	-11.0099
ငါပြ	-11.0104
သေးသော	-11.0105
သွားစေ	-11.0105
ကြိုးစားအား	-11.0106
ငါးရာ	-11.012
သွားကြလော	-11.0126
ကြားသိ	-11.0131
အမျိုးသ	-11.0132
သောအကျ	-11.0156
သွားလာ	-11.0161
ကောရ	-11.0204
နေရာကျ	-11.0222
သူမျှမ	-11.0222
မိမိနေရာ	-11.0253
ဗု	-11.0257
ပါးတို	-11.0269
စကားပြော	-11.0278
ရောနှော	-11.0279
ရာခေလ	-11.0281
အဆုံး	-11.0284
သောစကား	-11.0289
မသာ	-11.0305
းကိုခံ	-11.0323
အလိုမရှိ	-11.0358
တရားနှ	-11.0359
ပွဲကို	-11.0361
ထု	-11.0363
ထိတ	-11.0374
းတရား	-11.039
လေးရာ	-11.0393
မိမိသား	-11.0414
အိုဣသရေလအမျိုး	-11.0428
ခံရသောသူ	-11.0434
းခို	-11.0437
နှမြော	-11.0453
သုံးရာ	-11.0464
ငါဆို	-11.0471
ဟေလ	-11.0472
းပြီးမှ	-11.0474
အနာရောဂါ	-11.0475
ဟေရှာယ	-11.0479
ညဦးယံ	-11.0479
ေရုဒ	-11.0479
မဆော	-11.0481
မွှေးက	-11.0487
ထာဝရအ	-11.0488
အဘိ	-11.049
သောသူအား	-11.0523
းသောအခါ	-11.053
လှေ	-11.0546
အာဗြဟံသ	-11.0565
ွ	-11.0578
ပြောသ	-11.0638
နာသန	-11.0655
ရှာသော	-11.0666
းခုံ	-11.0676
ဤမျှ	-11.0681
ရှံဆု	-11.0683
မျှကာလ	-11.0685
ခြေကို	-11.0688
ဓ	-11.0694
ဆာတို	-11.0706
လူများအပေါ	-11.0733
တခါ	-11.0749
ခါးပ	-11.0749
ရှိပါသ	-11.0754
အားန	-11.076
ဖေါ	-11.0774
သွားပါ	-11.0778
သေသောသူ	-11.0784
ဆိုတော	-11.0799
းရာဌာနတော	-11.0809
သိရ	-11.081
ဇိဒ	-11.0812
ဖိ	-11.0818
မသိသော	-11.0819
မခံသော	-11.0829
နှမ	-11.088
အနာဂတ	-11.0891
ဇာဗုလ	-11.0891
ဇာတိပကတိ	-11.0891
စောစောထ	-11.0906
ချေး	-11.0909
ခြေန	-11.0923
များပြားစေ	-11.0924
ပြောလော	-11.0935
ဥပမာ	-11.0941
အကြံကို	-11.0955
ထားသ	-11.0957
ဟုဆိုသ	-11.0962
ဧလ	-11.0983
တယ	-11.0992
ထိုအရာ	-11.0998
မျိုးကို	-11.0998
ူးခြ	-11.102
မိတ	-11.104
ထုပ	-11.1049
အာမောရိ	-11.1053
မိမိနှ	-11.1056
းတရားကို	-11.1061
ဂိဗ	-11.1077
ဧသတာ	-11.1104
ဆီနှ	-11.1105
ပခုံး	-11.1105
ဂိဗာ	-11.1106
းဘိုး	-11.1123
သောအခွ	-11.1124
အဝေး	-11.115
ပြက	-11.1159
မပြုဘဲ	-11.1172
ြို	-11.1177
ညှိုးန	-11.118
ပြီးသ	-11.1181
နေစေ	-11.1202
းပေါက	-11.1237
းဝေးကြ	-11.1248
အမှုသ	-11.1259
ကြားသော	-11.1262
မပါသော	-11.127
ဗိ	-11.1271
ဆီကို	-11.1299
ပုရော	-11.131
ခေ	-11.1314
အလိုလို	-11.1327
လုန	-11.134
ကြပြီဟု	-11.1345
တကာ	-11.1359
ဗာလဘုရား	-11.1379
ာခေါ	-11.1386
ဂိ	-11.1391
ရူး	-11.1393
အားဆို	-11.1394
ဝေဒနာကို	-11.1403
ပြုမူသော	-11.1421
းရှော	-11.1429
ပါလေစေ	-11.1433
ညူး	-11.1435
မနေရ	-11.1436
ရွှေနှ	-11.1452
ရပြီ	-11.1456
ဟာရ	-11.1456
နှာပြု	-11.1458
ကူ	-11.1489
ရှိသေး	-11.1536
သားဘွား	-11.1537
ဧလျာ	-11.1542
စာတော	-11.1543
ယေရှဲ	-11.1544
▁့၌၊	-11.1545
ကွန	-11.1555
ဘီး	-11.1602
မရှ	-11.1603
စာဖြ	-11.1621
တာကို	-11.1624
ပျံ	-11.1644
စာနှ	-11.166
ထိုသူနှ	-11.1662
မသေ	-11.1662
ရာမှ	-11.169
းချက	-11.17
သောနော	-11.1705
အခြားသောသူ	-11.1709
မြှော	-11.1711
အတူရှိ	-11.1752
းဖျ	-11.176
နဲ	-11.1763
ဝေးသော	-11.1766
မိဇပါ	-11.1771
နူးည	-11.1771
းစာလာသ	-11.1773
ပြေ	-11.1795
ဖါ	-11.1847
တံခါးစ	-11.1851
ထိမ	-11.1858
မိလျှ	-11.1861
ဟေဇကိမ	-11.1872
ာဟတ	-11.1879
ပျိုသော	-11.1881
သူအိ	-11.19
ယာယ	-11.1902
ဆာရှိသမျှ	-11.1911
ထိုလူ	-11.1914
စကားနှ	-11.193
မိစ	-11.1931
လောကီသား	-11.1955
ရာမ	-11.1971
သိစေ	-11.1975
ဌာနတော	-11.1996
တရက	-11.1999
ဇေ	-11.2
မာတရား	-11.2001
ပြသော	-11.2004
ထူထ	-11.2016
နေလျ	-11.2021
ရွတ	-11.2022
သိုထား	-11.2023
လေးသော	-11.2026
လှူ	-11.2029
ကာဘို	-11.2033
မုသာစကားကို	-11.2036
စိက	-11.2043
ခြုံ	-11.2058
ကိုရှာ	-11.2064
ထားခြ	-11.2081
ခိ	-11.209
မြေကြီးတ	-11.2137
ငွေရ	-11.2158
ခုံ	-11.2167
ကာရ	-11.2172
သောကာလ	-11.2175
ရှောလုက	-11.2186
မယားနှ	-11.2193
ခြေစွ	-11.2199
မာစေ	-11.2208
မျှလ	-11.2223
မျို	-11.2227
ခိုးကြီး	-11.2232
ကြိုးနှ	-11.2236
မရဏာန	-11.2241
ရှာဖွေ	-11.2241
ဗေနာယ	-11.2241
ယေဇရေလ	-11.2241
အာဇရိ	-11.2244
မီးခိုး	-11.2254
ဗောဇ	-11.2259
မီးကို	-11.2274
အနာကို	-11.2284
ဟောရ	-11.2288
အသီးအနှံကို	-11.231
ပြုမိသော	-11.2311
လာပြီ	-11.2332
သူကိုမျှ	-11.2356
နေရစ	-11.241
သိလ	-11.2426
ထာဝရဘုရားပေး	-11.2429
မပြန	-11.2445
ရှိပါစေသော	-11.245
ရှေဘ	-11.2452
ရှာလ	-11.2458
သူများ	-11.2461
ဗာလက	-11.247
ငါပြန	-11.2482
ငံသား	-11.2484
ကိရယ	-11.2485
ရှေမာယ	-11.2485
ယောယကိ	-11.2486
အာခဇိ	-11.2486
ခရီးဦးကြိုပြု	-11.2487
ဩမဲ	-11.2491
အလိုရှိသ	-11.2495
ရှိမိ	-11.2564
စကားသံကို	-11.2568
ငါကြ	-11.2577
ဆွဲထား	-11.2585
မောရှေကို	-11.2586
စေပြီးမှ	-11.2594
ျားကို	-11.2603
မှုကို	-11.2615
ရေလအမျိုး	-11.263
ဝေဒနာ	-11.2642
မရှိကြ	-11.2688
စေပြီ	-11.2701
ပုပ	-11.2701
လေပြီတကား	-11.2702
ထားပြီ	-11.2722
ဩဝါဒ	-11.2734
ဟေရှ	-11.2737
အကြေး	-11.274
အသေခံရ	-11.2741
ကြေ	-11.2751
းအခွ	-11.2751
ဒူး	-11.2761
ဝစွာ	-11.2762
ဘိတ	-11.2771
စိရ	-11.2799
းကြီးကို	-11.2812
အသုံး	-11.2818
ဘဲနေကြ	-11.2819
မနာရှေအမျိုး	-11.2822
ဆူ	-11.2833
ရှို	-11.2839
သုံးကြ	-11.2841
ပြားကို	-11.2841
းဘိုးကို	-11.2848
မိမိဘုရား	-11.2851
ငါးထ	-11.2855
ောဟတ	-11.286
ပေးစား	-11.2862
ခိုးကို	-11.2866
အဟိမ	-11.2872
ဍာန	-11.29
ပေတရုက	-11.2919
ရှိသလော	-11.2923
မရှိဟု	-11.2923
ကုရှ	-11.2926
နှလုံးအ	-11.2959
ခါနနိလူ	-11.2992
မီးလျှံ	-11.2992
အာမဇိ	-11.2993
ထူ	-11.2998
ရေချိုး	-11.2999
ကြီးပွား	-11.302
မကယ	-11.3038
မမှီ	-11.3072
မှပြ	-11.308
အသီးအနှံ	-11.309
းသောအမှု	-11.3098
ဒရ	-11.3101
မအမှုကို	-11.3139
ပမာဏ	-11.3161
ခရာ	-11.3164
ခြေတို	-11.3168
ခံလေ	-11.3177
ချိုးဖ	-11.3192
အရာများကို	-11.3203
းသောအရာကို	-11.3216
ဝဲဘ	-11.3234
နူနာ	-11.3246
ဂိလဂါလ	-11.3255
မေရာရိ	-11.3255
ခွါ	-11.3255
အဆွေအမျိုးသူကြီး	-11.3256
းကိုခံရသော	-11.3257
တာရှ	-11.3261
ဗေရ	-11.327
သမီးသ	-11.3273
းအရ	-11.3293
အာမောရိလူ	-11.3318
ထွာ	-11.332
းဖူး	-11.3339
သောအထ	-11.3352
မှာထားသ	-11.3354
ခရီး	-11.3354
မြေသ	-11.336
သာမျိုး	-11.3384
စွာသော	-11.3388
သေဘေး	-11.3389
အဟိ	-11.3391
နဲသော	-11.3391
ဆု	-11.3402
ရု	-11.3425
ပြားနှ	-11.3466
တံပိုးမ	-11.347
ကာလကို	-11.3475
များပြားသော	-11.3505
ဇေဒကိ	-11.3513
ျှင	-11.3517
ဆွေးနွေး	-11.352
ဟာဒဒ	-11.3525
ချီလွှဲ	-11.3528
တံစို	-11.3542
ဆိုးသောသူ	-11.3572
ဧလိရှဲ	-11.3577
ပသခါပွဲကို	-11.3579
းရဲသော	-11.3583
ဘွားသော	-11.3583
ွှန	-11.3608
ပါတကား	-11.3609
ရအံ	-11.3612
ခွဲထား	-11.3614
ဘာအဆ	-11.3616
းသောကြ	-11.3629
အသွေးနှ	-11.3637
ဂါသ	-11.3652
မြေကြီးသ	-11.3665
မပြေ	-11.3669
းသောအကျ	-11.3679
မပြုကြ	-11.3686
အာဂ	-11.3695
ဧက	-11.37
ပြောဆိုသော	-11.376
ယောယဒ	-11.3765
စိနှ	-11.3776
သူတပါးကို	-11.3799
တွားတ	-11.38
ပိဿာ	-11.3803
နာရီ	-11.3803
ကျေး	-11.3803
သိနာတော	-11.3803
ပလွံ	-11.3804
အာဣ	-11.3806
ဟာနန	-11.381
ဥရိယ	-11.3812
တစုံတခုကိုမျှ	-11.3813
ရှိသောကြ	-11.3814
ဖို	-11.3819
ညံရာ	-11.382
တစုံတခုမျှ	-11.3821
ယွာဘသ	-11.3839
းတံပိုး	-11.3842
ကြားရသော	-11.3847
ကွဲပြားစေ	-11.3849
ဖုတ	-11.3861
မှာရှိသ	-11.3866
မသိဘဲ	-11.3881
းအရာသ	-11.3888
ရွာများ	-11.3888
းရိ	-11.3888
များကြ	-11.3891
အလှူ	-11.3904
လုယ	-11.3913
မယူ	-11.3924
းမာ	-11.395
အကြီးအ	-11.3967
နီးပြီ	-11.3968
နဿလိ	-11.3984
ဧလာ	-11.3985
သိုးထီး	-11.3986
ဧဝံဂေလိတရား	-11.3991
ခြားနား	-11.3993
မီးထဲ	-11.3998
မဟော	-11.4001
စွဲသော	-11.4016
အာရ	-11.4017
ရှာကြံ	-11.4024
ယူပြီးလ	-11.4037
ဦးညွ	-11.407
တသက	-11.408
မရွေ	-11.4085
မမေ	-11.4086
ငြူစူ	-11.4089
ဓေယူ	-11.409
ယောရံ	-11.409
အလံ	-11.4094
နာဇရ	-11.4098
စကားကိုနား	-11.412
ငွေနှ	-11.4122
ငါရေး	-11.414
ဆီးကြ	-11.4145
ဖိန	-11.4145
အာမလ	-11.4152
ပြုကြပြီ	-11.4154
သမီးကို	-11.4165
စားစရာကို	-11.4188
မြေကြီးသား	-11.4195
သောသူကား	-11.4196
ထိုမြေ	-11.4213
နေရသော	-11.4226
ထိုလူမျိုး	-11.4232
ပါစေဟု	-11.425
အမျိုးမျိုးသော	-11.4256
ဘေးလွ	-11.4265
လူအများ	-11.4279
စုံခြ	-11.4285
မလွှဲ	-11.4304
ဟောပြောကြ	-11.4304
အနိ	-11.431
ထိုသူက	-11.4316
များအပေါ	-11.4357
ပွါး	-11.4381
မုယော	-11.4383
ဟာဇေလ	-11.4383
တာရှု	-11.4417
ပေးလေ	-11.4425
အမှုမှာ	-11.4437
ကာမ	-11.4451
ရသောအချ	-11.4461
မသွားရ	-11.4474
အမဲသားကို	-11.4484
သောမြေ	-11.4491
မသိကြ	-11.4498
ကြံကြ	-11.451
ရှန	-11.4514
စရာမရှိ	-11.4529
ထိုစကား	-11.4541
တိဇံကို	-11.4565
မီးဖို	-11.4577
ဒု	-11.4592
ထကြ	-11.4595
ဝါး	-11.4645
ငွေအ	-11.4662
ပေါလုကို	-11.4668
စူးစ	-11.4674
ုံမက	-11.4675
ကာပြု	-11.4675
ဂေဒလိ	-11.4686
ပေရသိ	-11.4686
ဘိုးဘ	-11.4686
ဇာတိ	-11.4694
ဘဝ	-11.47
ကြိုးကို	-11.4714
ဖု	-11.473
းမျိုး	-11.4748
စာပျ	-11.4756
အမွေမြေ	-11.4767
ြ	-11.4796
မာတရားကို	-11.4816
လေးပါး	-11.4823
ပြာသောအ	-11.483
ရှမွေလသ	-11.4842
ထိုအမှုအရာ	-11.4857
းထဲမှာ	-11.4884
အာရှရပ	-11.4885
းရဲခံရ	-11.4886
ဧလိယသ	-11.4893
ိလူ	-11.4902
ရာကာလ	-11.4936
လွှဲသွား	-11.495
အလျားအ	-11.4952
သေလေ	-11.4959
းတဘ	-11.4961
မိမိအဘ	-11.4962
ပါရမီ	-11.4998
ကာဣန	-11.4998
စိုးသော	-11.5016
ဇေဒကိမ	-11.5017
ထိုသားကို	-11.5019
ဆာများကို	-11.5024
ပဌမလ	-11.5037
စာရေးတံပြု	-11.5046
မရှိသောသူ	-11.5047
းယူကြ	-11.5053
နေထွ	-11.5074
ဆီဥကို	-11.5075
လေးနှ	-11.5097
သူမူကား	-11.5098
မိလ	-11.5113
အပျို	-11.5114
ပြိုပ	-11.5124
ဆီးသော	-11.5158
အထုံး	-11.5174
လုယူသော	-11.5177
မပျော	-11.5195
ငါအလိုရှိ	-11.5206
ပြုရသော	-11.521
ငါးက	-11.5215
းပဌနာပြု	-11.5223
ငှါး	-11.5227
မသွ	-11.5227
စီးစေ	-11.5265
ကြားကြ	-11.5299
စောစော	-11.5301
ဗာနဗ	-11.5321
ထွေး	-11.5326
ယူရ	-11.5329
းလေသမျှ	-11.5341
ထားပြီး	-11.5345
အာသပ	-11.5356
သုံးပါး	-11.5384
ှတ	-11.5393
ဤပည	-11.5395
ဗေဒ	-11.5396
ညံလျ	-11.5406
သောအသံကို	-11.5441
းလွဲ	-11.5445
လောဘ	-11.5446
လူကြီး	-11.5468
နဂါး	-11.5472
အာမန	-11.5473
းအပြ	-11.5478
သုံးသော	-11.5489
ပညာရှိသော	-11.549
ဝဲ	-11.5491
းဆဲသော	-11.5494
အဘိယ	-11.5501
ထိုအပ	-11.5504
သိပါ	-11.5505
မိဘကို	-11.5526
တံခါးနားမှာ	-11.5533
ရှားလျ	-11.5535
အမျိုးမျိုးကို	-11.5541
လှူသော	-11.5545
အိုအ	-11.5557
ဘာသာစကား	-11.5568
အကြံပေး	-11.5582
အကျိုးန	-11.5588
ဆုံ	-11.5596
သတိရ	-11.563
လေဝိအမျိုး	-11.5636
အာဒ	-11.5647
ျားနှ	-11.565
အဒေါနိယ	-11.5654
အဗျာသာ	-11.5654
လှီး	-11.5655
ဧလံ	-11.5656
ဟိရံ	-11.5659
ညိုသော	-11.5662
သောသူမရှိ	-11.5676
ကြီးမား	-11.5687
မိမိမယား	-11.569
ငါမှာထား	-11.5699
လေပြီဟု	-11.5706
ဘူးသလော	-11.5709
လဆ	-11.5715
ဂတိထား	-11.5718
ာလမုန	-11.573
ဟုဆိုကြ	-11.5736
စာရာ	-11.5737
လုတ	-11.5738
ဧလိရှဲက	-11.574
မရှာ	-11.577
မူသောဘုရား	-11.5785
းမဖြ	-11.5791
စားလျ	-11.5817
လူသေ	-11.5822
မှာထားလေ	-11.5856
းကြီးမ	-11.5858
ွပ	-11.5875
ဒုန	-11.5876
အမဲသား	-11.5882
ိုက	-11.5889
ညီမ	-11.5903
ရေးထားသော	-11.5909
ဟေဗြဲ	-11.5943
ှုပ	-11.5945
သမျှအတ	-11.5959
လေအာ	-11.5964
ဖြူသော	-11.597
မအမှု	-11.5986
ထောမနာသီ	-11.5999
ဟိလခိ	-11.5999
ဒေသနာ	-11.5999
အမှိုက	-11.6
သိုးမွေး	-11.6
ခိုးအာနု	-11.6001
ဧဇရ	-11.6004
မပါဘဲ	-11.6004
ဣသခါ	-11.6016
တာမာ	-11.6017
ထားပြ	-11.6031
စာရှိသမျှကို	-11.6042
တယော	-11.6043
သားရေ	-11.6045
ပြောပါ	-11.6054
ယို	-11.6072
အာနု	-11.6084
နဲသောအရာ	-11.6098
တခုကို	-11.6099
စဖူး	-11.6101
မခံဘဲ	-11.6107
ပြုစုသော	-11.611
နှလုံးထဲ	-11.612
ယေလ	-11.6127
မှားပါပြီ	-11.6128
ရှမွေလက	-11.6137
မိမိညီ	-11.6141
ငါမူကား	-11.6154
နှလုံးနှ	-11.6163
အာလ	-11.6167
ပြုရကြ	-11.6185
မိမိခ	-11.6188
အမွေး	-11.6212
ငိုကြွေးကြ	-11.6217
းလွှား	-11.6225
ရူပါရုံကို	-11.6272
ကဲသာ	-11.6276
ယခုမှ	-11.6293
စကားများ	-11.6293
ပြောသောစကား	-11.6308
းသမား	-11.6332
▁-	-11.6339
စကားသံ	-11.6342
ဦးချ	-11.6346
လဲကြ	-11.6354
သမီးကညာ	-11.6356
ကြိုဆို	-11.6357
သူခိုး	-11.6357
ဗာရှာ	-11.6365
နေကြပါ	-11.6381
ဗေရိ	-11.6389
တပါးအမျိုး	-11.6392
ပြအိုး	-11.6408
ခါလဒဲလူ	-11.6424
ဒေါသအမ	-11.6441
ယေဗုသိလူ	-11.6448
မုသာကို	-11.6454
ဤအရာ	-11.6464
အမှုကိုပြု	-11.6471
းအာနု	-11.6478
သရဖူကို	-11.6479
သိုးထီးတ	-11.6486
မူပါစေ	-11.6487
ပြောလေ	-11.6496
စုံလျ	-11.6505
လုံကို	-11.6506
စာဂတိ	-11.6514
ခိုးရှ	-11.652
သံကြိုး	-11.655
ပညာရှိသောသူ	-11.6553
ကြီးသောအသံ	-11.6562
ျားပေါ	-11.6572
ဓာတ	-11.6574
နေစရာ	-11.6578
ထုလ	-11.6578
ကြူး	-11.6585
အာရှာ	-11.6587
ပြေးသွား	-11.6591
သရဖူ	-11.6601
မူသလော	-11.6602
မညှ	-11.6616
အမှုအလုံးစုံ	-11.663
ပြုသမျှ	-11.6648
ဖူး	-11.6667
ပြုသောသူတို	-11.6689
မေးကြ	-11.6699
စကားအ	-11.67
ဧဒ	-11.6702
နီသောအ	-11.6715
ကရမေလ	-11.6726
ဆာလံ	-11.6726
အာရွှေရု	-11.6726
ဂေရရှုံ	-11.6727
ရွှေလ	-11.673
မာခါ	-11.673
လိဗန	-11.6736
ခွာ	-11.6739
တခါမျှ	-11.6741
ပြောဆိုလျ	-11.6741
ပြိုလဲ	-11.6751
ဆုကျေးဇူး	-11.6752
ဆေးကြော	-11.6753
ရေဗ	-11.6755
ထိုခဏ	-11.6763
မှားသောအ	-11.6776
မူပါစေသောဟု	-11.6801
တရားစကားကို	-11.6804
ဘေးနှ	-11.6806
ဆာဆ	-11.6816
ကူးသွား	-11.6816
စာများကို	-11.6858
ဖေ	-11.6862
ရွေးယူ	-11.6866
မြုံ	-11.6866
ရုသ	-11.6871
ယေဖသ	-11.6874
ခံပြီးမှ	-11.6881
မာနကြီး	-11.689
မိကြ	-11.6897
စုဝေးကြ	-11.6906
ပါစေသောဟု	-11.6933
ဧလိရှဲသ	-11.6941
ပြောစရာ	-11.6982
ရိက	-11.699
ခစား	-11.7001
ဧဖ	-11.7018
ခုစီ	-11.7024
ခံရပါ	-11.705
မိပြီ	-11.7063
တောသားရဲ	-11.7071
ရှမ	-11.708
ခရီးသွားကြ	-11.7086
ဩဇ	-11.7092
ထူးခြားသော	-11.7111
ယုဘိလ	-11.7111
အသံဗလံ	-11.7111
အကဲအမှူး	-11.7111
ချွေးမ	-11.7111
ဟာဂရ	-11.7111
အဘိရှဲ	-11.7111
ဗေရရှေဘ	-11.7111
ဇုရ	-11.7113
ရောဂါ	-11.7114
တရားသောအမှု	-11.7118
ရကြပါ	-11.712
ယောသံ	-11.7132
နှလုံးထဲမှာ	-11.7134
မီးခဲ	-11.7151
စုံကြ	-11.7157
ဂါဇ	-11.7157
ဧန	-11.7162
တမလ	-11.7167
းကြီးထံ	-11.7175
သိုးဆ	-11.7182
အဆုံးတို	-11.72
သောငှာ	-11.7207
ဇေဘ	-11.7222
မကွာ	-11.7222
အကျိုးမရှိ	-11.7255
ပြုပြီ	-11.7263
အဝေးက	-11.7286
ထိုသိ	-11.7318
ဟေဇကိသ	-11.7326
အကျိုးရှိ	-11.7333
ရှိကြပါ	-11.7334
ဘဲလ	-11.7343
မူသောသူသ	-11.7353
ကြွသွား	-11.7404
သောသူများ	-11.7423
ငှာ	-11.7424
ယံ	-11.7431
နွားမ	-11.7459
ရှဲ	-11.7464
းမများ	-11.7468
ထားရာ	-11.749
ပြီးစီး	-11.7493
ကိလ	-11.7503
အစာအာဟာရ	-11.7511
မှီခိုရာ	-11.7511
မာသေယ	-11.7511
ဟာနနိ	-11.7512
ငွေဖလား	-11.7515
ဒြေ	-11.752
သိသရ	-11.7523
ဟဂ	-11.7526
သားသမီးများကို	-11.7531
လူကိုစေ	-11.7535
မေရှ	-11.7536
ညှိ	-11.7547
ကြပြီတကား	-11.7551
းသေးသော	-11.7555
ဇိဘ	-11.7555
ခံရသောအခါ	-11.7559
အမွေခံရသော	-11.7573
ဟာဇ	-11.7577
စားရသော	-11.758
ပေလ	-11.7586
းမစိုး	-11.7586
ဧဒုံပ	-11.7591
စိမြ	-11.7598
ရှာသောသူ	-11.7607
အမူအရာ	-11.7621
ဘာသာစကားကို	-11.7632
ဗေသ	-11.764
ပမာဏမပြု	-11.7657
အမွေခံရ	-11.7659
ခြားနားသော	-11.77
ဧလိယက	-11.7703
ဟိန	-11.7713
မိဘမရှိသောသူ	-11.7752
ိုငြ	-11.7753
ဆုကို	-11.7775
ပြုရပါ	-11.7784
စေပြီးလျ	-11.7813
းမိုးသော	-11.7848
ခံပါ	-11.7867
မပေးဘဲ	-11.7871
စီရှိ	-11.7913
စကားကိုကြားလျှ	-11.7914
ဂျုံ	-11.7922
မေရှုလံ	-11.7928
သူဌေး	-11.7928
ဇေရုယာ	-11.7928
အဦးသီးသော	-11.7928
သာသနာပလူ	-11.7929
ယာဗ	-11.7929
မရဏန	-11.793
ဧလျာဘ	-11.7931
မြေခွေး	-11.7942
အကာရှသား	-11.7948
ဒါရိ	-11.7957
ထားပါ	-11.7961
းနှီးသော	-11.7961
းဆိုပါ	-11.7963
အဟိယ	-11.7969
ဒဒ	-11.7973
အဓိ	-11.7994
ညီပေါ	-11.8004
ကြားရပြီ	-11.8007
လေးမျ	-11.8009
ချီလာ	-11.8014
စေဘဲ	-11.8018
သားမယား	-11.8018
အာရှ	-11.8024
မထိမ	-11.8032
အခကို	-11.8045
းခိုသော	-11.8048
အာမခံ	-11.805
ခိုးကြီးသော	-11.8069
တီ	-11.8085
ပြုလို	-11.8096
းဟုမေး	-11.8099
သွားရသော	-11.81
အဘထံ	-11.8135
ဧလိဖ	-11.815
ဆုံးစေ	-11.8155
သောသူရှိသမျှ	-11.817
နာဗ	-11.817
စကားအလုံးစုံ	-11.8189
နေရပါ	-11.8191
တရာနှ	-11.8206
နဖူး	-11.821
ပညာအတ	-11.8212
သွားကြပြီ	-11.8218
ဥဖ	-11.8231
သိုးတ	-11.8233
တိဇံ	-11.8244
ရေစီး	-11.8257
သာယာ	-11.8281
ုသိမ	-11.8285
းဆဲသောသူ	-11.83
မွှေ	-11.8332
ဂလာရှိစေသ	-11.8347
စားသောသူ	-11.8357
ဂေါမောရ	-11.8363
ရှေးဦးစွာ	-11.8363
ဟေဗာ	-11.8364
မကြာမ	-11.8367
ျားအပေါ	-11.8371
ရေဖိ	-11.8372
ဟေလသလူ	-11.8376
မေဒိ	-11.8376
နူနာစွဲ	-11.8378
လဲစရာ	-11.8378
လှေကား	-11.8378
မမူမှီ	-11.8386
မွေးဘွား	-11.8388
ဩဃ	-11.8388
ပြေစေ	-11.8394
ကြံပြုမူ	-11.8422
အမှီပြုလျ	-11.8423
အမှုများကို	-11.8433
မိမိလူမျိုး	-11.8448
ခိုလှုံသော	-11.8452
မငြ	-11.847
ပိန	-11.8483
အမွေခံရာ	-11.8484
ငါမှာထားသမျှ	-11.8494
လူတသ	-11.8504
သူအများ	-11.8507
မခံမယူ	-11.8514
မိမိဥ	-11.8517
ဍာတို	-11.8523
ထုံးစံရှိ	-11.8533
ငါချိုး	-11.8536
လဲလျ	-11.8544
ပါရစေဟု	-11.8558
ဤစကား	-11.8592
ဣသရေ	-11.8643
သုံးလ	-11.8648
လွှားသော	-11.8656
သွားပြီ	-11.8672
ထားပြီးမှ	-11.8723
ာရိမ	-11.8731
ခံစား	-11.8741
ရုံ	-11.8769
ွံ	-11.8777
နှာမှ	-11.8782
ဆုံးမဩဝါဒ	-11.8803
ယေခေါနိ	-11.8817
ဝေငှ	-11.8817
တိမောသေ	-11.8817
မာကေဒေါနိ	-11.8817
ယဟောရံ	-11.8817
ဧလကာန	-11.8817
လာဇရု	-11.8817
အရေဖျား	-11.8818
ကာလနာဘေး	-11.8818
ကူညီ	-11.8819
ရှုရှန	-11.8821
အာဗေလ	-11.8823
ဂျုံစပါး	-11.8823
ဂိဒ	-11.8823
ဤစကားကို	-11.8824
ကိရှ	-11.8825
လုယူဖျ	-11.8829
မှားစေသော	-11.8834
အာရှိ	-11.8854
မြဲမြံစေ	-11.8871
နောမိ	-11.8883
နာဗလ	-11.8883
ခြေထ	-11.8896
ပသခါပွဲ	-11.8898
အဘများ	-11.8907
ဝေးစွာ	-11.8923
ပရော	-11.894
သာယာသော	-11.8951
အားပြောဆို	-11.898
ဒဲ	-11.8997
သဘောဖြ	-11.9023
ယူလော	-11.9024
အိုထာဝရ	-11.9058
ဟာရှ	-11.9074
ပသခါ	-11.9114
ရောသော	-11.9118
ထိုသူအား	-11.9124
ဝစွာစားရ	-11.9165
ယောရှုအား	-11.9192
ထားသောသူ	-11.9252
ဝေးသောအရ	-11.9256
မခံန	-11.9281
အခြားသူ	-11.9283
မရိတ	-11.9283
ထိုပွဲ	-11.9288
ော	-11.9292
ကိလေသာ	-11.9293
မာခိရ	-11.9293
သာသနာ	-11.9293
ဩဗဒိ	-11.9294
အအူ	-11.9294
အာဒံ	-11.9295
တံခါးခုံ	-11.9296
သားဦးအပေါ	-11.9323
တေမန	-11.9324
အထီး	-11.9324
ပေးပါဟု	-11.9336
သံချ	-11.9353
ယောလ	-11.9358
းသောအကြံကို	-11.9366
လူသုံး	-11.937
အာခိ	-11.937
ဖေလ	-11.9374
အစေကို	-11.9413
ကွဲပြားလျ	-11.9423
မရော	-11.9424
ဓေ	-11.9441
ာမုတ	-11.9452
အခြားသို	-11.9457
မြေအသီးအနှံ	-11.9462
စပါးရ	-11.9474
ငါမှာထားသော	-11.9491
နေမန	-11.9511
အသရေရှိသော	-11.9553
အားကြီးသောသူ	-11.9557
ကျူ	-11.9577
ပါရစေ	-11.9595
မီးထွ	-11.9651
အားဆိုလျ	-11.9656
နားမှာရှိသော	-11.9658
ရွ	-11.9718
လေးရ	-11.9724
လူငါး	-11.9749
ကြံလေ	-11.9767
သားအကြီး	-11.9771
ပုဆိ	-11.978
းမြား	-11.9793
မေလခိ	-11.9793
အနီးအပါး	-11.9793
လာခိရှ	-11.9793
နိနေဝေ	-11.9793
အဟိကံ	-11.9793
မုရန	-11.9793
သလဲသီး	-11.9793
အမြီး	-11.9794
မြွေဆိုး	-11.9795
ဤစာ	-11.9797
ဣသမာ	-11.9798
ဂဲ	-11.9799
ဧဖာ	-11.98
ရှုံးစေ	-11.9806
လုံခြုံစွာ	-11.9816
ဂါလ	-11.9826
အရာကိုမျှ	-11.9841
လူအသီးအသီး	-11.9842
ွှတ	-11.9842
စကားတခ	-11.9849
ကာလနာ	-11.9854
အမိနဒ	-11.9868
မနာလိုသော	-11.989
ဟေရမ	-11.9896
အာရပ	-11.9923
တုများကို	-11.9939
တောဘိ	-11.9945
စာတရား	-11.9948
နဲရာ	-12.0052
ျ	-12.0063
ကြီးသောသူ	-12.0069
အရာရှိသမျှ	-12.0085
ျိုင	-12.0094
တိဇံကိုခံ	-12.0127
ေါ	-12.0233
ဂေရ	-12.025
မြှေး	-12.032
ဆူဖြိုး	-12.032
ဇေရုဗဗေလ	-12.032
ယေဇဗေလ	-12.032
ဟေဇရုံ	-12.032
ခြေဘဝါး	-12.032
ဖြိုချ	-12.032
အာသဟေလ	-12.032
သားရေဘူး	-12.032
ယဟောရှ	-12.0321
ဂေါဂ	-12.0321
မသေမှီ	-12.0324
ပညာသတိ	-12.0324
ပဌနာစကားကို	-12.0328
လူအကြီးအကဲ	-12.0333
စာရေးတံချ	-12.0335
ငြိုး	-12.0336
သုံးစုတစု	-12.034
ချုံ	-12.035
သူရဲသုံး	-12.0354
းမရွာ	-12.0358
ဟေမ	-12.0381
သားကိုဘွား	-12.0392
ဤသူကား	-12.0398
ဤအမှုအရာ	-12.041
ွေးမြေ	-12.0418
သူရဲများ	-12.0423
ကျိုးပ	-12.0424
ိကျွ	-12.046
အစာစား	-12.0462
းလှသော	-12.0473
ောနိ	-12.049
ာနော	-12.0498
သံကိုကြား	-12.0499
အရူး	-12.052
စီးလ	-12.0561
ငိုကြွေးလ	-12.0579
ေဖန	-12.0604
ဇေလ	-12.0613
ပြုသမျှသော	-12.0628
မာလ	-12.0651
ခေလ	-12.0671
မသွားဘဲ	-12.068
စားရာအ	-12.0703
ပညာတရား	-12.0713
ံအတ	-12.0736
ငါပေးပြီ	-12.0751
ပြီးစေ	-12.0782
ရထားများ	-12.082
ကာဒေရှ	-12.0875
ဂေဟာဇိ	-12.0875
တရံရောအခါ	-12.0875
ဩဗဒေဒုံ	-12.0875
ဟိဝိလူ	-12.0875
အဇုမပွဲ	-12.0875
လေဘွေ	-12.0875
တခြားစီ	-12.0875
အငြိုးထား	-12.0876
ကဲသရိ	-12.0876
ဩဇေလ	-12.0876
ဘထွေး	-12.0878
စီးပွါး	-12.0878
လူမျိုးတကာ	-12.0879
ဍာစိုး	-12.0879
ရွှေဖလား	-12.0882
အာရော	-12.0884
ကြားပြောလေ	-12.0891
မသိကြသလော	-12.0907
လူတရာ	-12.0914
းဟုမေးလျှ	-12.0918
ဟာနု	-12.0919
ဗိလ	-12.0924
အမွေခံရကြ	-12.0931
တရားဟော	-12.0931
မယူရ	-12.0932
ယောခ	-12.0945
ယောယဒသား	-12.0952
တဆူ	-12.0959
မိသောသူ	-12.0989
အာဇု	-12.1018
စီးပွား	-12.1031
ဩဗ	-12.104
အာရှာအမျိုး	-12.1112
ာကြက	-12.1118
ငါကလ	-12.1129
နေရာကျကြ	-12.1166
ဣသရေလအမျိုးအနွ	-12.1223
ောရှက	-12.1254
ဝဲလ	-12.1256
အများသော	-12.1271
တရားဆုံး	-12.1274
မနာရှေအမျိုးသား	-12.1304
စာရေးတံ	-12.1357
အဘိုးပြ	-12.1395
ပွား	-12.1407
ဖူးမြ	-12.141
မျေလ	-12.1414
ဇေဒက	-12.1454
ါ	-12.1461
သေချာစွာ	-12.1463
တုံးလုံးနေ	-12.1463
ဟာဒဒေဇာ	-12.1463
အဘိဂဲလ	-12.1463
နွေကာလ	-12.1463
ဆီမွှေး	-12.1463
ဩမရိ	-12.1463
ငြီး	-12.1463
အစေအပါး	-12.1464
ဒြု	-12.1464
သိုးခြံ	-12.1464
အာသလိ	-12.1464
ဆေးသမား	-12.1465
မှားမိသော	-12.1466
ိအဆွေအမျိုး	-12.1467
အာရံ	-12.1469
ကုရု	-12.1472
ကျူလုံး	-12.1472
အဦးဘွားသော	-12.1477
နွေး	-12.1479
လူတမျိုး	-12.1483
ခဏသာ	-12.1485
ဖေရဇိလူ	-12.1486
တိရဇ	-12.1503
အိုးထ	-12.1503
ချီကြွ	-12.1504
သဘောကျ	-12.1514
စားဘ	-12.1519
ာဒပ	-12.1524
စာရဲ	-12.1527
လေးခု	-12.1531
ယခုကာလ	-12.1548
လုယူရာ	-12.1567
ယုံမှား	-12.1572
ထိသောသူ	-12.1576
ရှုပြုစု	-12.159
ပြုလေသမျှ	-12.1606
စာဂတိထား	-12.1614
ပြုကြပါ	-12.1675
အဘအာဗြဟံ	-12.1725
ကြားပါစေ	-12.1731
ဆီမီး	-12.1747
ရွေးရ	-12.1796
အရာအလုံးစုံ	-12.1822
။	-12.1839
ယေဖ	-12.185
စုထား	-12.1863
ပွားများ	-12.1896
အာသမ	-12.1902
တီးလ	-12.2046
ထီး	-12.2047
ဇိဖ	-12.2086
ရုံမျှသာ	-12.2088
ခြိုးခြံစွာ	-12.2088
ရထားစီးသူရဲ	-12.2088
မုဆိုး	-12.2088
မာလခိ	-12.2089
ဆီရောသော	-12.2089
နာသနေလ	-12.2089
သီလ	-12.2089
ယေဟေလ	-12.209
အာမရံ	-12.209
အာနနိ	-12.2091
အာမရိ	-12.2092
ဆဲရေး	-12.2092
လူကလေး	-12.2097
စုဝေးစေပြီးလျ	-12.2099
တိဇံကိုပေး	-12.2104
မောရှ	-12.2104
အာရှတရ	-12.2106
ဧဒုံအမျိုးသား	-12.211
ဘူးပြီ	-12.2112
သူငှါး	-12.2124
သဘောတူ	-12.2124
ဇာဗဒ	-12.2131
ပြီးစီးစေ	-12.2135
အနာစွဲ	-12.2168
နေဇာမ	-12.2202
ဣရှဗ	-12.2283
နဿလိအမျိုး	-12.2324
မှာထားသမျှ	-12.2326
ခွံ	-12.2438
ငံအရ	-12.2568
အလိုရှိသမျှ	-12.2586
စုဝေးရာ	-12.2588
အခြာ	-12.2597
တခုတ	-12.2667
းအုံ	-12.2728
ဂြိ	-12.2755
ဒရာသဲလုံး	-12.2755
မိရိအံ	-12.2755
မေဖိဗောရှ	-12.2755
အဆီးအတား	-12.2755
ဣဇဟာ	-12.2755
ဒေနာရိ	-12.2755
မိခါလ	-12.2755
ဟာရှဘိ	-12.2755
ဇိကလ	-12.2755
ပေဂုရ	-12.2755
မာသတိရှိ	-12.2755
ိုယွ	-12.2755
ကျုံး	-12.2756
ဂေရရှု	-12.2757
မဆိုလို	-12.2759
ဗာနိ	-12.2761
ဝေးဝေး	-12.2761
ယေရိ	-12.2762
▁်၏၊	-12.2765
ဤအရာများကို	-12.2769
အစအဦး	-12.2773
လူတဦး	-12.2779
ဂလာစကားကို	-12.2787
ဣဗ	-12.2792
ဆီးကြို	-12.2808
ခွေ	-12.2866
လှေထဲ	-12.2869
ဟေဗြဲလူ	-12.2871
တဲများ	-12.2891
ငါးလုံး	-12.2908
မရဘဲ	-12.2933
မီးဖိုထဲ	-12.3005
ပြုဘူးသ	-12.302
ကြဲသောသူ	-12.3026
သာဆီ	-12.3075
ဝစွာစား	-12.3115
အမွေမခံ	-12.3133
ကပေရ	-12.3136
ဆိုးသောအမှု	-12.3182
ဘွားသောသား	-12.3245
ပြီဟုဆိုလျ	-12.3246
ခံစားရ	-12.3255
ဣရှ	-12.3258
တရားမှု	-12.3402
ဧဂလ	-12.3403
ရာဗရှာခ	-12.3469
အဟိသောဖေလ	-12.3469
ပုလွေ	-12.3469
ဧလျေဇာ	-12.3469
မနှမြောဘဲ	-12.3469
ဇိမရိ	-12.347
ပါရှုရ	-12.347
တိဇံဆရာ	-12.347
မဟာလိ	-12.3471
ဆရာသမား	-12.3472
ရတနာ	-12.3472
ဘာဦး	-12.3475
မသိဘူးသော	-12.3477
ဟာမော	-12.3479
အမှုမထား	-12.3484
မခံမှီ	-12.3485
ဌ	-12.404
ှ	-12.7257
၊	-12.7623
၏	-12.7899
ဍ	-12.809
ဠ	-12.8092
ဦ	-14.482
ဪ	-14.5271
?	-15.5265
၌	-15.5266
၍	-15.5267
့	-15.5268
ဈ	-15.5269
်	-15.5269
