<pad>	0
</s>	0
<unk>	0
▁¦	-0
ال	-1
▁ال	-2
▁و	-3
▁ا	-4
ان	-5
▁م	-6
▁ف	-7
▁ل	-8
▁ي	-9
وا	-10
▁.	-11
▁ب	-12
ين	-13
ون	-14
لا	-15
ما	-16
▁ع	-17
رب	-18
را	-19
ها	-20
هم	-21
كل	-22
نا	-23
▁في	-24
لك	-25
▁ت	-26
▁من	-27
ار	-28
يا	-29
ذا	-30
▁ق	-31
لي	-32
من	-33
▁ه	-34
▁ان	-35
في	-36
▁ك	-37
اب	-38
عل	-39
▁وا	-40
كم	-41
▁الم	-42
بي	-43
ول	-44
يل	-45
ام	-46
▁ح	-47
▁س	-48
رج	-49
▁الى	-50
ني	-51
ري	-52
▁الرب	-53
دا	-54
تي	-55
▁ج	-56
له	-57
مع	-58
مي	-59
قال	-60
▁وال	-61
ور	-62
ير	-63
قد	-64
▁ن	-65
وت	-66
ائ	-67
وم	-68
ذي	-69
اس	-70
▁كل	-71
هو	-72
▁عل	-73
▁اس	-74
ئيل	-75
▁لا	-76
يت	-77
يد	-78
الم	-79
وب	-80
وس	-81
يم	-82
▁ش	-83
عد	-84
▁على	-85
اء	-86
كان	-87
▁لان	-88
عب	-89
لم	-90
ذه	-91
رائيل	-92
ود	-93
▁خ	-94
وع	-95
مل	-96
حد	-97
يس	-98
ارض	-99
ته	-100
الى	-101
كون	-102
▁ص	-103
بن	-104
▁الس	-105
ية	-106
تم	-107
الرب	-108
▁ر	-109
▁قد	-110
ضا	-111
كن	-112
با	-113
▁عن	-114
ميع	-115
شر	-116
▁الذي	-117
على	-118
▁الي	-119
وال	-120
مة	-121
لب	-122
▁الا	-123
فس	-124
بر	-125
▁مع	-126
سب	-127
مر	-128
▁وي	-129
عة	-130
▁بن	-131
▁الش	-132
▁اسرائيل	-133
▁ث	-134
عا	-135
وح	-136
فا	-137
دي	-138
بل	-139
قول	-140
جل	-141
ذين	-142
عط	-143
يضا	-144
لان	-145
كر	-146
صر	-147
وق	-148
جد	-149
وه	-150
فر	-151
▁ار	-152
وي	-153
مس	-154
نة	-155
ذلك	-156
▁وت	-157
فت	-158
▁لل	-159
خل	-160
سي	-161
▁لي	-162
▁ولا	-163
▁الله	-164
▁اخ	-165
▁الج	-166
▁يس	-167
لام	-168
تى	-169
▁هو	-170
▁يا	-171
سل	-172
عن	-173
▁ما	-174
▁كان	-175
▁آ	-176
بح	-177
الا	-178
هر	-179
▁علي	-180
ذهب	-181
▁هذا	-182
مام	-183
▁له	-184
خذ	-185
ولا	-186
به	-187
▁أ	-188
ليم	-189
▁لم	-190
كلم	-191
▁الح	-192
رف	-193
نع	-194
انا	-195
قت	-196
الي	-197
دين	-198
قل	-199
▁فقال	-200
▁فا	-201
▁الارض	-202
الس	-203
▁التي	-204
▁اب	-205
وج	-206
ست	-207
يام	-208
بيت	-209
رة	-210
▁بال	-211
▁اله	-212
داود	-213
اد	-214
▁د	-215
▁ول	-216
كذا	-217
▁بيت	-218
بع	-219
▁الك	-220
اه	-221
هوذا	-222
اني	-223
خر	-224
▁ط	-225
▁وج	-226
▁غ	-227
سان	-228
قط	-229
ماء	-230
ضع	-231
الذي	-232
▁الع	-233
تك	-234
رجل	-235
▁وس	-236
▁ايضا	-237
▁ملك	-238
▁وقال	-239
▁انا	-240
الح	-241
يني	-242
خرج	-243
وك	-244
رق	-245
▁قائ	-246
عمل	-247
ملك	-248
▁الملك	-249
مه	-250
▁جميع	-251
▁وب	-252
الك	-253
▁لك	-254
لل	-255
ات	-256
▁الذين	-257
اله	-258
مت	-259
اسرائيل	-260
ظر	-261
آب	-262
ده	-263
ناك	-264
هذا	-265
وسى	-266
▁وكان	-267
الش	-268
حا	-269
ورش	-270
▁قال	-271
حت	-272
لكن	-273
دينة	-274
رع	-275
رك	-276
ورشليم	-277
رأ	-278
حم	-279
▁وان	-280
فل	-281
علم	-282
▁لانه	-283
بال	-284
كث	-285
سا	-286
وص	-287
▁بني	-288
بت	-289
▁ثم	-290
دم	-291
عم	-292
الج	-293
ساء	-294
فعل	-295
▁الخ	-296
▁ابن	-297
علي	-298
يق	-299
▁الب	-300
شي	-301
شا	-302
▁بل	-303
الله	-304
آن	-305
▁امام	-306
كت	-307
فع	-308
ثم	-309
هي	-310
▁فت	-311
زل	-312
▁عند	-313
رت	-314
دن	-315
يب	-316
لاث	-317
▁واحد	-318
▁به	-319
ليس	-320
طر	-321
ضرب	-322
▁يد	-323
▁الق	-324
ئة	-325
▁اليوم	-326
بني	-327
ينا	-328
▁وع	-329
▁هكذا	-330
جميع	-331
▁ارض	-332
▁ومن	-333
حب	-334
▁الن	-335
صعد	-336
حي	-337
يرة	-338
ريق	-339
حل	-340
ذبح	-341
▁لهم	-342
▁داود	-343
صنع	-344
يف	-345
▁الشعب	-346
▁وم	-347
خط	-348
▁انت	-349
▁ون	-350
وف	-351
لت	-352
اف	-353
ماذا	-354
▁يسوع	-355
سيح	-356
▁كما	-357
▁رب	-358
فقال	-359
راء	-360
وان	-361
▁وكل	-362
الارض	-363
قائ	-364
نت	-365
▁هذه	-366
يع	-367
يها	-368
قر	-369
التي	-370
▁رج	-371
▁ز	-372
وات	-373
▁قائلا	-374
جعل	-375
▁او	-376
▁الام	-377
هما	-378
قدس	-379
▁بعد	-380
▁الص	-381
واحد	-382
▁يع	-383
▁حتى	-384
طل	-385
يمة	-386
▁ليس	-387
يدي	-388
حة	-389
▁ذ	-390
اخ	-391
انسان	-392
نفس	-393
يش	-394
▁ذلك	-395
▁الف	-396
وش	-397
اع	-398
ثل	-399
▁يت	-400
▁يكون	-401
انه	-402
▁اذ	-403
جت	-404
▁كث	-405
▁الر	-406
وة	-407
▁اع	-408
▁يهوذا	-409
قام	-410
دخل	-411
ضة	-412
▁وفي	-413
▁نفس	-414
رون	-415
▁يقول	-416
حن	-417
قا	-418
عون	-419
راس	-420
ياء	-421
▁موسى	-422
▁اورشليم	-423
▁واما	-424
قي	-425
▁ام	-426
▁الت	-427
▁هناك	-428
▁ولم	-429
ابن	-430
ارج	-431
رية	-432
سمع	-433
لاء	-434
▁ولكن	-435
ايضا	-436
الب	-437
هد	-438
جر	-439
وقال	-440
لين	-441
أت	-442
عطي	-443
▁الغ	-444
الع	-445
▁وق	-446
▁انه	-447
طلب	-448
▁حسب	-449
▁هي	-450
الملك	-451
جاب	-452
▁ين	-453
▁بين	-454
حو	-455
ايا	-456
▁عشر	-457
حرق	-458
بة	-459
فظ	-460
بيد	-461
▁امر	-462
رجع	-463
حق	-464
▁النا	-465
يرا	-466
اهن	-467
ابل	-468
الذين	-469
▁لكي	-470
وخ	-471
▁اش	-472
▁بنو	-473
دة	-474
▁شي	-475
دع	-476
خت	-477
وضع	-478
▁وص	-479
▁لكم	-480
حسب	-481
سم	-482
وكان	-483
ارك	-484
تهم	-485
▁ابي	-486
كما	-487
أكل	-488
قوب	-489
عند	-490
اح	-491
ابد	-492
هنة	-493
ؤساء	-494
سط	-495
جس	-496
▁حين	-497
▁مصر	-498
ؤلاء	-499
تها	-500
لهم	-501
▁عظ	-502
ثلاث	-503
بز	-504
ربع	-505
لكم	-506
▁فان	-507
هذه	-508
▁وح	-509
وني	-510
▁بع	-511
هكذا	-512
▁عليه	-513
قدم	-514
سر	-515
انب	-516
▁نا	-517
▁با	-518
فن	-519
بك	-520
ئيس	-521
ليل	-522
أتي	-523
لانه	-524
▁فل	-525
مو	-526
▁ايام	-527
خبر	-528
▁سب	-529
▁لت	-530
مات	-531
بحر	-532
غض	-533
▁اذا	-534
▁سمع	-535
نين	-536
قتل	-537
خا	-538
▁رأ	-539
رام	-540
▁اح	-541
▁يش	-542
هود	-543
اج	-544
▁اما	-545
▁شا	-546
▁المدينة	-547
قة	-548
دائ	-549
او	-550
عبد	-551
وها	-552
امام	-553
طريق	-554
نم	-555
وكل	-556
ارسل	-557
بين	-558
رائ	-559
ارت	-560
زع	-561
بائ	-562
▁اني	-563
يه	-564
انت	-565
رس	-566
▁المسيح	-567
صل	-568
▁بها	-569
ياه	-570
أل	-571
▁للرب	-572
▁وخ	-573
لامي	-574
الث	-575
▁وش	-576
▁وسط	-577
رض	-578
بنو	-579
مك	-580
يسوع	-581
▁اجل	-582
▁الث	-583
اليوم	-584
▁يوم	-585
▁احد	-586
ولد	-587
صي	-588
نب	-589
لاك	-590
ارة	-591
الت	-592
الف	-593
أخذ	-594
وجد	-595
رد	-596
صف	-597
ومن	-598
هل	-599
عبي	-600
وته	-601
▁يق	-602
الن	-603
▁قلب	-604
الق	-605
جي	-606
عي	-607
اذ	-608
▁مئة	-609
رى	-610
▁رجل	-611
ضي	-612
بعد	-613
▁فلا	-614
الشعب	-615
الص	-616
لاوي	-617
بها	-618
▁وعلى	-619
وز	-620
قيا	-621
رأة	-622
كثر	-623
ليمان	-624
▁ولما	-625
ضط	-626
▁شعب	-627
▁فيه	-628
وفي	-629
راه	-630
رجال	-631
▁جاء	-632
▁عمل	-633
اث	-634
سك	-635
عظ	-636
▁وك	-637
▁السماء	-638
سكن	-639
نود	-640
▁بي	-641
▁ايها	-642
شعب	-643
▁عيني	-644
اش	-645
الخ	-646
روح	-647
▁وجه	-648
فرح	-649
▁لاني	-650
جمع	-651
عوب	-652
▁يم	-653
حفظ	-654
ائر	-655
الام	-656
قب	-657
▁عب	-658
قطع	-659
قائلا	-660
▁الشر	-661
جاء	-662
آخر	-663
ورة	-664
حتى	-665
ئذ	-666
عشر	-667
هناك	-668
سن	-669
فلسط	-670
▁قل	-671
▁هم	-672
▁اف	-673
▁حي	-674
يكون	-675
دون	-676
▁ات	-677
▁اق	-678
▁	-679
ا	-680
¦	-681
ل	-682
ي	-683
و	-684
م	-685
ن	-686
ر	-687
ب	-688
ه	-689
ع	-690
ت	-691
ك	-692
ف	-693
س	-694
د	-695
.	-696
ق	-697
ح	-698
ج	-699
ة	-700
ذ	-701
ش	-702
خ	-703
ى	-704
ص	-705
ط	-706
ض	-707
ئ	-708
ث	-709
ّ	-710
ز	-711
أ	-712
ء	-713
غ	-714
آ	-715
ظ	-716
ؤ	-717
إ	-718
*	-719
ـ	-720
-	-721
ً	-722
(	-723
)	-724
:	-725
I	-726
i	-727
1	-728
2	-729
[	-730
]	-731
h	-732
o	-733
t	-734
5	-735
6	-736
m	-737
n	-738
y	-739
ٍ	-740
𐋇	-741
J	-742
T	-743
j	-744
𐊣	-745
𐊼	-746
