<pad>	0
</s>	0
<unk>	0
▁the	-2.83934
,	-3.18441
.	-3.42974
▁of	-3.53106
▁to	-3.63473
▁and	-3.73933
▁in	-3.99557
s	-4.08476
▁a	-4.24776
▁that	-4.30748
▁is	-4.34685
▁for	-4.64278
▁I	-4.68132
ing	-4.68553
▁on	-4.81988
▁this	-4.94503
▁be	-4.9764
▁we	-4.97993
▁	-4.99458
▁are	-5.12158
▁European	-5.19061
▁it	-5.21264
▁with	-5.22071
▁have	-5.22786
▁not	-5.27193
▁The	-5.33327
▁as	-5.35546
ed	-5.40204
▁will	-5.48305
▁which	-5.50012
-	-5.50302
▁by	-5.51817
'	-5.54122
ly	-5.58998
▁-	-5.6368
▁has	-5.68269
▁also	-5.84468
▁an	-5.89719
▁would	-5.90088
▁(	-5.94222
▁all	-5.95777
)	-5.96551
▁at	-5.99363
▁Mr	-6.00631
▁Commission	-6.01109
▁from	-6.03012
d	-6.03848
▁our	-6.03952
▁President	-6.04233
▁should	-6.05543
▁We	-6.0671
▁EU	-6.06862
▁Member	-6.12189
▁must	-6.14012
▁but	-6.14322
▁Union	-6.16182
ir	-6.1909
▁you	-6.25335
▁States	-6.25529
y	-6.25579
▁been	-6.25658
▁report	-6.29078
▁Parliament	-6.29775
▁more	-6.30013
▁like	-6.31826
▁It	-6.33845
e	-6.34642
al	-6.34677
▁Europe	-6.35529
▁can	-6.35687
m	-6.35732
▁was	-6.37757
▁or	-6.39908
▁its	-6.42116
▁very	-6.42493
▁This	-6.43718
▁these	-6.4537
▁need	-6.49726
▁In	-6.49774
▁countries	-6.50976
▁do	-6.5199
▁who	-6.52895
▁us	-6.56613
▁one	-6.5759
▁there	-6.57774
:	-6.58802
▁people	-6.61068
▁important	-6.615
▁support	-6.6452
in	-6.65056
▁other	-6.65095
▁so	-6.65643
▁Council	-6.66946
▁time	-6.67046
▁new	-6.68815
▁they	-6.68998
▁about	-6.69046
▁policy	-6.69934
▁because	-6.76002
▁my	-6.76795
▁only	-6.77282
n	-6.78416
t	-6.82413
▁am	-6.83954
▁what	-6.86602
▁take	-6.86902
▁work	-6.87802
▁economic	-6.87883
▁make	-6.88284
▁out	-6.902
▁particular	-6.92226
▁between	-6.92449
▁rights	-6.93811
ose	-6.96161
a	-6.96698
▁no	-6.96761
▁into	-6.97257
▁up	-6.97318
▁th	-6.97508
▁now	-6.97509
er	-6.98941
▁such	-6.9939
▁S	-7.00095
▁market	-7.02115
▁some	-7.02812
▁if	-7.02858
▁therefore	-7.04046
?	-7.04297
▁think	-7.06349
▁when	-7.08406
▁financial	-7.092
r	-7.10164
▁A	-7.10641
▁energy	-7.11336
▁citizens	-7.11496
▁'	-7.13267
▁against	-7.14946
▁believe	-7.15184
▁many	-7.16322
▁political	-7.16799
▁country	-7.18632
▁were	-7.18663
▁social	-7.19471
p	-7.20066
es	-7.20452
▁than	-7.20671
▁order	-7.21567
▁However	-7.2306
▁made	-7.2398
▁say	-7.24274
▁being	-7.246
▁well	-7.24713
▁situation	-7.2508
▁see	-7.25208
▁crisis	-7.25212
;	-7.25517
▁Commissioner	-7.25835
▁them	-7.26248
▁first	-7.26706
▁development	-7.27313
▁today	-7.27553
▁fact	-7.29743
▁national	-7.30327
▁most	-7.30437
c	-7.30882
▁proposal	-7.30932
ies	-7.30967
▁way	-7.30974
▁debate	-7.31055
▁any	-7.31066
▁good	-7.31254
▁right	-7.3157
▁issue	-7.31723
l	-7.31752
▁human	-7.32251
▁measures	-7.35264
▁use	-7.35568
▁M	-7.36166
▁want	-7.36295
o	-7.36983
▁That	-7.37394
▁under	-7.39132
▁cannot	-7.3916
▁through	-7.3951
▁agreement	-7.39658
▁clear	-7.4007
▁Mada	-7.40598
▁years	-7.40608
▁future	-7.40958
▁vote	-7.41264
se	-7.41289
i	-7.41489
▁already	-7.41687
▁part	-7.4203
▁cooperation	-7.42421
▁international	-7.42422
▁world	-7.43157
▁even	-7.43222
▁area	-7.43723
▁here	-7.43999
▁un	-7.44033
▁point	-7.44156
▁ensure	-7.45542
▁budget	-7.45633
▁just	-7.45785
▁common	-7.4618
en	-7.46439
▁public	-7.46528
▁two	-7.46558
▁same	-7.46941
▁regard	-7.47172
▁where	-7.47325
▁level	-7.49623
▁question	-7.51208
▁both	-7.51273
ic	-7.51616
▁As	-7.51753
▁over	-7.53629
▁does	-7.5393
▁year	-7.54144
▁had	-7.54566
▁resolution	-7.54951
▁view	-7.54953
▁how	-7.5539
▁much	-7.55803
▁system	-7.55812
▁Committee	-7.56646
▁possible	-7.56646
▁could	-7.57928
▁put	-7.58013
▁Treaty	-7.58792
▁own	-7.5887
▁C	-7.58955
▁change	-7.59493
▁place	-7.5999
▁call	-7.60337
▁case	-7.60647
▁know	-7.60954
▁last	-7.60991
▁sector	-7.61542
able	-7.6173
▁protection	-7.61882
▁why	-7.62775
▁said	-7.63227
▁law	-7.63374
▁P	-7.63515
▁me	-7.63664
▁still	-7.63682
▁number	-7.64139
▁course	-7.64149
▁help	-7.65036
▁women	-7.65521
▁writing	-7.65636
▁hope	-7.65686
▁favour	-7.65935
▁end	-7.66066
▁result	-7.66182
▁voted	-7.66293
▁your	-7.66344
▁security	-7.66923
▁trade	-7.67872
▁respect	-7.69268
▁Group	-7.69304
▁able	-7.69876
▁information	-7.71257
▁too	-7.71392
▁Lisbon	-7.71743
ted	-7.7188
▁thank	-7.72094
▁role	-7.72736
▁climate	-7.73236
▁problem	-7.74089
▁including	-7.74751
▁areas	-7.74777
▁issues	-7.75288
▁agree	-7.75502
▁example	-7.75627
▁rapporteur	-7.75632
▁necessary	-7.75783
▁give	-7.76386
▁problems	-7.76965
▁continue	-7.77085
▁process	-7.77255
ation	-7.77513
▁gentlemen	-7.78378
te	-7.79115
st	-7.79275
or	-7.8021
▁E	-7.80354
▁better	-7.80512
▁global	-7.81146
▁There	-7.8151
▁his	-7.81602
▁action	-7.8215
ion	-7.82347
▁means	-7.82867
▁needs	-7.82924
▁For	-7.83864
b	-7.84298
▁legal	-7.84537
re	-7.84858
▁since	-7.84883
▁concern	-7.85059
u	-7.85649
▁progress	-7.86073
▁taken	-7.86356
▁welcome	-7.8639
ous	-7.86522
▁next	-7.86624
▁may	-7.86639
on	-7.86645
▁long	-7.86646
▁come	-7.86806
▁behalf	-7.87199
▁he	-7.87609
▁Presidency	-7.88358
▁look	-7.88404
▁re	-7.88557
▁again	-7.89489
▁directive	-7.90229
▁matter	-7.90231
▁without	-7.9028
▁then	-7.90468
▁Mrs	-7.90497
▁rules	-7.90665
g	-7.91112
▁strategy	-7.91317
▁however	-7.91929
▁If	-7.92213
▁B	-7.92717
▁adopted	-7.92736
ary	-7.92838
▁products	-7.92964
▁services	-7.93122
▁terms	-7.93212
▁regulation	-7.93298
ar	-7.93376
f	-7.93682
▁G	-7.9392
▁economy	-7.94366
▁whether	-7.94367
▁legislation	-7.94369
▁current	-7.94611
▁State	-7.95197
▁decision	-7.95197
▁negotiations	-7.95237
▁great	-7.96124
▁million	-7.96444
▁position	-7.96452
▁institutions	-7.96548
▁large	-7.96786
▁before	-7.96877
▁lad	-7.96923
▁further	-7.97511
▁Members	-7.97528
▁On	-7.97573
▁every	-7.98187
▁set	-7.9837
▁provide	-7.984
▁funds	-7.98625
▁high	-7.98978
▁health	-7.99265
▁food	-7.99448
▁EUR	-7.99946
▁main	-8.00107
h	-8.00356
▁after	-8.00411
▁increase	-8.00796
▁framework	-8.01421
▁dur	-8.01479
▁approach	-8.02007
▁What	-8.03434
▁working	-8.03657
▁conditions	-8.03729
ers	-8.03955
▁essential	-8.05496
▁resources	-8.05636
▁opinion	-8.07302
▁transport	-8.07587
▁different	-8.07596
▁Uni	-8.07634
▁find	-8.08035
▁importance	-8.08301
▁go	-8.08311
▁forward	-8.08522
▁towards	-8.09021
0	-8.09177
▁aim	-8.09374
▁used	-8.09436
ment	-8.0962
▁specific	-8.09714
▁authorities	-8.09731
▁given	-8.09904
ou	-8.10024
▁freedom	-8.10224
it	-8.10411
▁policies	-8.10454
▁opportunity	-8.10455
▁far	-8.11039
▁real	-8.11049
▁impact	-8.11184
▁third	-8.11208
▁proposals	-8.11247
▁present	-8.11455
▁effective	-8.11578
▁de	-8.11956
▁state	-8.12199
▁force	-8.12493
▁done	-8.12746
▁certain	-8.13022
DE	-8.13414
▁workers	-8.13524
▁environmental	-8.13911
▁access	-8.14118
▁Community	-8.14158
▁become	-8.1416
▁based	-8.14344
▁F	-8.14351
▁aid	-8.14763
▁deal	-8.1492
▁children	-8.15679
▁especially	-8.1568
▁attention	-8.15696
▁bring	-8.15809
▁allow	-8.1623
▁small	-8.16354
▁euro	-8.16478
▁account	-8.17067
▁fundamental	-8.17225
▁back	-8.17282
ive	-8.17289
▁society	-8.18007
▁implementation	-8.18036
▁quality	-8.18072
▁going	-8.18296
an	-8.18305
▁step	-8.18612
▁interests	-8.19169
2	-8.19338
P	-8.19391
▁research	-8.1955
▁subject	-8.19587
▁safety	-8.19589
▁did	-8.19621
▁making	-8.19765
▁second	-8.20001
▁basis	-8.20386
▁internal	-8.20387
▁each	-8.20389
▁whole	-8.20487
▁improve	-8.20919
▁region	-8.20958
▁fight	-8.21193
▁together	-8.21207
z	-8.21215
ro	-8.2156
▁addition	-8.22006
▁democratic	-8.23689
▁strong	-8.24106
▁serious	-8.24108
▁House	-8.24485
▁positive	-8.24485
▁free	-8.24549
▁less	-8.24853
▁democracy	-8.25325
▁power	-8.25326
▁responsibility	-8.2534
▁At	-8.2585
▁industry	-8.26173
▁three	-8.26173
▁proposed	-8.26319
▁really	-8.26633
ur	-8.2683
▁full	-8.26836
▁few	-8.27028
▁Therefore	-8.27028
▁combat	-8.27028
ce	-8.2714
▁ask	-8.27232
▁individual	-8.27926
▁greater	-8.28016
▁agreements	-8.28466
▁itself	-8.28759
el	-8.29113
S	-8.29399
▁while	-8.29636
▁reason	-8.29673
▁clearly	-8.29675
at	-8.30142
k	-8.30249
▁money	-8.30521
▁down	-8.30568
▁life	-8.30579
th	-8.31238
▁always	-8.31414
▁growth	-8.31421
ctually	-8.31628
▁strengthen	-8.31858
▁efforts	-8.32158
▁difficult	-8.32247
▁objectives	-8.32655
▁control	-8.32707
▁general	-8.32853
▁guarantee	-8.33109
▁major	-8.33204
▁something	-8.33225
▁vari	-8.3326
▁best	-8.33573
ance	-8.33666
▁standards	-8.337
est	-8.33713
▁single	-8.34145
▁pay	-8.3415
▁key	-8.34185
is	-8.34267
▁another	-8.3439
▁W	-8.34614
▁wish	-8.34993
▁play	-8.3502
▁dialogue	-8.35068
▁2009	-8.35101
▁among	-8.35142
et	-8.35174
▁programme	-8.35253
▁principle	-8.35257
▁consider	-8.35371
ra	-8.35809
▁Court	-8.36002
▁transparency	-8.36002
▁package	-8.36012
▁hand	-8.36124
▁risk	-8.36194
▁group	-8.36234
▁words	-8.36528
ting	-8.36533
▁get	-8.36961
▁recent	-8.3752
▁achieve	-8.37718
▁agricultural	-8.37898
▁act	-8.38104
▁establish	-8.38372
▁environment	-8.38667
▁R	-8.38793
▁rather	-8.38862
▁employment	-8.38863
▁once	-8.39789
▁companies	-8.3983
▁context	-8.3983
▁close	-8.40212
▁significant	-8.4043
▁data	-8.40811
▁regions	-8.40899
▁fully	-8.4111
▁Directive	-8.41801
%	-8.41995
▁concerned	-8.42602
▁compromise	-8.42801
▁Government	-8.42802
▁taking	-8.42803
▁create	-8.42869
▁commitment	-8.43134
il	-8.43498
us	-8.435
▁challenges	-8.43577
▁groups	-8.43587
▁due	-8.43851
▁regional	-8.44057
▁b	-8.44321
▁prevent	-8.44402
▁markets	-8.44604
▁hav	-8.44638
▁focus	-8.44774
▁concerns	-8.44795
▁poverty	-8.44831
▁least	-8.44836
▁relations	-8.4493
▁protect	-8.45333
▁often	-8.4539
▁principles	-8.45652
▁apply	-8.45864
▁management	-8.45873
▁amendment	-8.46274
ri	-8.46404
▁To	-8.46432
▁developing	-8.46463
▁start	-8.46621
▁activities	-8.46904
▁lack	-8.46908
▁amendments	-8.47544
T	-8.47705
▁qui	-8.48062
▁let	-8.48174
▁consumers	-8.4826
ern	-8.48294
▁Fund	-8.48373
▁labour	-8.4902
▁implement	-8.49598
▁results	-8.49643
▁decisions	-8.49751
▁require	-8.49969
▁extreme	-8.50096
▁2020	-8.50103
▁innovation	-8.50123
▁open	-8.50848
ity	-8.51185
▁lead	-8.5124
▁r	-8.51278
▁understand	-8.51333
▁They	-8.51419
▁states	-8.51469
▁solution	-8.517
▁costs	-8.52222
ent	-8.52273
fellow	-8.52282
▁available	-8.52287
▁draft	-8.52493
▁provided	-8.52694
▁cases	-8.53152
FR	-8.5332
▁competition	-8.53393
▁solidarity	-8.53395
▁majority	-8.53417
▁period	-8.53916
▁day	-8.54093
▁potential	-8.54124
▁success	-8.54506
▁With	-8.54516
▁Finally	-8.54516
▁legislative	-8.54519
▁indeed	-8.5452
▁sustainable	-8.54521
▁production	-8.54537
as	-8.54608
▁parties	-8.54724
▁involved	-8.54775
▁interest	-8.54857
ability	-8.54939
▁promote	-8.55401
▁tax	-8.5553
▁Russia	-8.55574
▁violence	-8.55653
▁plan	-8.55756
▁needed	-8.55768
▁form	-8.55775
▁jobs	-8.55825
▁following	-8.5612
▁initiative	-8.56396
▁enough	-8.56802
clear	-8.57283
▁project	-8.57451
▁express	-8.57468
▁contribute	-8.57933
▁draw	-8.57947
li	-8.58353
▁regarding	-8.58436
▁exist	-8.58591
▁text	-8.58602
le	-8.58735
▁systems	-8.59107
▁shall	-8.59143
▁education	-8.59146
▁relat	-8.59147
▁Let	-8.59187
▁consequences	-8.59435
▁T	-8.59729
▁remain	-8.59839
w	-8.60207
▁civil	-8.60312
▁responsible	-8.60332
▁simply	-8.60332
▁yet	-8.60333
4	-8.60797
ness	-8.60982
▁stress	-8.61077
um	-8.61449
▁keep	-8.61537
▁local	-8.61537
▁response	-8.61537
▁cultural	-8.61624
▁dis	-8.61735
▁values	-8.61865
▁meet	-8.61886
6	-8.62016
▁projects	-8.62072
▁reform	-8.62301
▁objective	-8.62305
▁government	-8.62389
▁encourage	-8.62508
ia	-8.62608
▁assistance	-8.62824
▁Rights	-8.6283
▁things	-8.62859
▁achieved	-8.63372
▁population	-8.63515
▁p	-8.63546
ite	-8.63551
▁m	-8.639
▁Affairs	-8.63991
▁aware	-8.64072
▁H	-8.642
▁enable	-8.64262
▁non	-8.64412
▁months	-8.64448
▁currently	-8.64745
▁10	-8.6494
▁nu	-8.65072
▁Second	-8.6524
ist	-8.65461
E	-8.65606
▁certainly	-8.65876
ve	-8.66067
▁mean	-8.66068
ial	-8.66172
▁share	-8.6626
▁sever	-8.66327
▁business	-8.66429
▁criteria	-8.66506
▁Development	-8.66507
▁external	-8.6651
▁joint	-8.66559
▁include	-8.67144
▁her	-8.67231
til	-8.67478
▁reasons	-8.67661
▁living	-8.67789
▁road	-8.67789
▁speak	-8.68019
▁meeting	-8.68361
▁consumer	-8.68718
▁adopt	-8.68959
▁cross	-8.69087
▁gas	-8.69161
▁2008	-8.69211
▁emissions	-8.69344
▁mentioned	-8.69436
▁points	-8.69695
ant	-8.69892
term	-8.69936
▁increasing	-8.70024
▁value	-8.70046
▁face	-8.70165
▁billion	-8.7041
▁De	-8.70805
▁Minutes	-8.71736
▁Thank	-8.71737
▁priorities	-8.71737
▁true	-8.71737
▁young	-8.71783
▁co	-8.71995
▁One	-8.72454
▁equal	-8.72686
▁regulations	-8.72726
▁application	-8.72731
▁move	-8.72808
▁priority	-8.73091
▁reduce	-8.73093
▁Turkey	-8.73111
▁pleased	-8.73158
ne	-8.73396
▁members	-8.74053
▁matters	-8.74208
▁questions	-8.74677
▁special	-8.74683
▁funding	-8.7502
ry	-8.75421
▁direct	-8.75499
▁benefit	-8.75576
▁discuss	-8.75814
▁absolute	-8.75846
▁agenda	-8.75846
▁little	-8.75846
ally	-8.76361
▁reduction	-8.76962
▁contribution	-8.76976
▁Agreement	-8.77255
▁illegal	-8.77255
▁opportunities	-8.77255
▁But	-8.77272
▁instruments	-8.77301
▁So	-8.77822
▁requirements	-8.779
▁show	-8.78328
▁medium	-8.78683
▁crucial	-8.78683
▁hard	-8.78692
▁above	-8.78799
▁longer	-8.78916
▁congratulate	-8.79025
▁seen	-8.79209
M	-8.79401
▁al	-8.79526
▁accept	-8.79621
▁idea	-8.79817
▁job	-8.79913
1	-8.7996
▁might	-8.80133
▁relevant	-8.80133
▁creation	-8.80138
▁1	-8.80267
ate	-8.80559
▁per	-8.8102
▁document	-8.81384
▁procedure	-8.81419
▁discussion	-8.8144
▁cohesion	-8.81603
▁respond	-8.81603
▁themselves	-8.81603
▁held	-8.81604
PL	-8.81622
▁vital	-8.81637
▁actions	-8.81689
▁2010	-8.81721
ge	-8.8209
▁represent	-8.82303
▁term	-8.82741
▁sure	-8.82747
ural	-8.82879
▁live	-8.82916
▁demand	-8.82986
▁Ireland	-8.83096
▁governance	-8.83106
▁V	-8.83289
▁elections	-8.83883
▁changes	-8.84352
up	-8.84394
C	-8.84423
▁Minister	-8.84445
▁relation	-8.84508
▁All	-8.84514
v	-8.84543
▁borders	-8.84584
▁water	-8.84611
▁enterprises	-8.84612
▁perhaps	-8.84615
▁financing	-8.84627
▁soon	-8.84858
▁increased	-8.85168
▁aspects	-8.85279
ish	-8.85457
▁provisions	-8.85647
▁final	-8.85772
▁carrie	-8.85792
▁waste	-8.85992
▁investment	-8.86027
▁found	-8.86101
▁ensuring	-8.86149
▁review	-8.86149
▁basic	-8.8615
▁g	-8.86321
▁pre	-8.86612
less	-8.87067
▁answer	-8.87101
▁experience	-8.87462
ES	-8.87708
▁ambitious	-8.87712
▁foreign	-8.87712
▁supply	-8.87712
▁maintain	-8.87723
nternational	-8.87756
▁000	-8.87799
▁procedures	-8.87934
▁agreed	-8.88455
most	-8.88617
▁programmes	-8.8898
I	-8.89037
ch	-8.89198
▁short	-8.89292
▁avoid	-8.89299
▁Republic	-8.893
▁culture	-8.89302
▁farmers	-8.89309
▁line	-8.89349
▁develop	-8.89489
▁benefits	-8.89626
▁ago	-8.8986
8	-8.90176
▁appropriate	-8.90518
▁others	-8.90561
▁item	-8.9083
5	-8.90836
▁conclusion	-8.90855
▁instrument	-8.90859
▁poor	-8.90906
humanitarian	-8.90912
▁Strategy	-8.90912
▁When	-8.90912
▁coordination	-8.90912
▁efficiency	-8.90912
▁voting	-8.90912
▁credit	-8.90913
▁leave	-8.90917
▁moment	-8.9092
▁L	-8.91035
▁address	-8.91136
▁Democrats	-8.91149
A	-8.91291
▁20	-8.91416
ck	-8.91646
▁solutions	-8.91775
▁asked	-8.91782
▁off	-8.91955
▁natural	-8.92167
am	-8.92216
ll	-8.92266
▁thing	-8.92355
▁Hungarian	-8.92552
▁death	-8.92552
▁technical	-8.92552
▁tell	-8.92552
▁six	-8.92554
▁reality	-8.92597
▁adoption	-8.92602
▁outside	-8.92633
▁week	-8.9268
▁fishing	-8.92949
▁5	-8.92954
▁origin	-8.9304
IT	-8.9326
▁organisations	-8.93504
▁field	-8.94169
▁enter	-8.9422
▁US	-8.94221
▁sitting	-8.94225
▁businesses	-8.94321
▁heard	-8.9441
im	-8.94446
▁No	-8.946
D	-8.94602
▁reached	-8.94606
▁monitoring	-8.94688
▁effectively	-8.95083
▁e	-8.95132
▁times	-8.95197
▁mention	-8.9547
▁sp	-8.95601
▁d	-8.9565
▁comes	-8.95806
▁Africa	-8.9584
▁kind	-8.95902
▁Convention	-8.95913
▁immigration	-8.95913
▁model	-8.95913
▁ourselves	-8.95913
▁providing	-8.95915
▁stability	-8.95917
▁committee	-8.95918
▁pressure	-8.95918
▁everyone	-8.95944
▁service	-8.95951
▁private	-8.95954
▁China	-8.95991
▁discrimination	-8.96003
ol	-8.96028
▁victims	-8.96279
▁border	-8.966
▁seems	-8.96633
▁50	-8.9692
▁4	-8.97262
▁peace	-8.97507
ond	-8.97518
▁reflect	-8.97596
▁Article	-8.97637
▁agriculture	-8.97637
▁South	-8.97661
▁practice	-8.97691
▁East	-8.97707
▁required	-8.98071
▁talk	-8.98501
▁partners	-8.98546
ence	-8.9878
ised	-8.99138
and	-8.99309
▁list	-8.99334
▁French	-8.99392
▁across	-8.99392
▁excellent	-8.99392
▁message	-8.99392
▁summit	-8.99392
▁mind	-8.99392
▁UN	-8.99397
▁carry	-8.99405
▁cost	-8.99544
▁Rule	-8.99654
▁namely	-8.99689
id	-8.99899
isation	-9.0004
ig	-9.00206
▁feel	-9.00234
border	-9.00491
▁age	-9.00727
▁calls	-9.0083
ad	-9.00855
▁stop	-9.01177
▁Greece	-9.01177
▁asylum	-9.01177
▁tomorrow	-9.01178
▁capacity	-9.01208
ill	-9.01332
▁Roma	-9.01431
▁And	-9.01441
▁total	-9.01762
▁along	-9.01942
▁Man	-9.02129
▁achiev	-9.02362
7	-9.02491
▁add	-9.02607
▁proper	-9.02614
▁prices	-9.02714
▁O	-9.02806
▁effects	-9.02809
▁Romania	-9.02879
▁low	-9.02902
▁defend	-9.0296
▁powers	-9.02976
▁Internet	-9.02995
▁broad	-9.02995
▁huge	-9.02995
▁around	-9.02996
▁strategic	-9.02997
▁integration	-9.03002
▁nothing	-9.0301
▁past	-9.03021
▁send	-9.03096
▁rule	-9.03166
▁12	-9.03241
▁con	-9.0325
to	-9.03528
▁talking	-9.03973
U	-9.04055
▁previous	-9.04459
▁request	-9.04528
▁parliamentar	-9.04554
▁balance	-9.04641
▁exchange	-9.04847
▁community	-9.0485
▁saying	-9.04888
▁throughout	-9.04904
▁motion	-9.05009
▁effect	-9.0501
▁took	-9.05029
om	-9.05686
tion	-9.05993
H	-9.06047
ese	-9.06049
▁men	-9.06162
▁colleagues	-9.06281
▁fair	-9.06301
▁war	-9.06449
▁recognise	-9.06501
▁t	-9.06539
▁though	-9.06579
one	-9.06611
▁Furthermore	-9.06734
▁possibility	-9.06734
▁rise	-9.06758
▁administrative	-9.06777
▁raised	-9.0704
▁doing	-9.0717
▁levels	-9.07176
▁thanks	-9.07469
▁implemented	-9.07543
▁offer	-9.07678
▁hold	-9.07814
▁D	-9.07825
▁reduc	-9.07837
▁extend	-9.08186
▁affect	-9.082
ten	-9.08524
▁four	-9.08646
▁turn	-9.08653
▁company	-9.08657
▁technologies	-9.08657
▁Bank	-9.08668
▁accession	-9.08808
▁MEPs	-9.08841
▁firm	-9.08868
▁bear	-9.08871
▁movement	-9.08922
▁measure	-9.08933
ter	-9.09076
▁closed	-9.09137
vi	-9.09157
▁expect	-9.09189
▁Ou	-9.09198
ise	-9.09708
▁supported	-9.09996
20	-9.10135
▁reach	-9.10185
▁J	-9.10248
▁limit	-9.10429
▁target	-9.10452
ul	-9.10588
▁communication	-9.10618
▁home	-9.10618
▁infrastructure	-9.10618
▁2011	-9.1062
▁June	-9.1062
▁partnership	-9.10623
▁stage	-9.10625
▁Sea	-9.10626
▁him	-9.1063
▁emphasise	-9.10727
▁completely	-9.10847
▁Firstly	-9.109
▁price	-9.10923
▁amount	-9.11002
▁reforms	-9.11356
▁sign	-9.1198
▁inter	-9.12057
▁pass	-9.12183
▁media	-9.12606
▁Human	-9.12618
▁Ukraine	-9.12618
▁remind	-9.12618
▁self	-9.12618
▁knowledge	-9.12618
▁never	-9.12618
NL	-9.12625
▁treatment	-9.12626
▁competitiveness	-9.12633
▁thus	-9.12813
▁conduct	-9.12817
▁active	-9.12915
▁effort	-9.1297
▁assessment	-9.13003
▁prepared	-9.13027
▁statement	-9.13042
▁cut	-9.13129
un	-9.13291
call	-9.13401
sion	-9.13553
▁initiatives	-9.13556
▁supporting	-9.13625
▁sources	-9.13819
coming	-9.13888
Office	-9.13949
▁11	-9.14172
▁targets	-9.14353
▁efficient	-9.14377
▁Serbia	-9.14659
▁applied	-9.14659
▁family	-9.14659
▁left	-9.14659
▁nature	-9.14659
▁regime	-9.14659
sized	-9.14662
▁fisheries	-9.14672
▁five	-9.14682
▁quickly	-9.14717
9	-9.14808
▁wide	-9.14874
▁received	-9.14903
out	-9.14914
ought	-9.15093
ily	-9.15173
ism	-9.15445
side	-9.15671
▁happen	-9.1573
▁presented	-9.15961
▁conclude	-9.16582
▁behind	-9.16742
▁convince	-9.16742
▁honour	-9.16742
▁minimum	-9.16742
▁Vice	-9.16742
▁lot	-9.16743
▁agencies	-9.16743
▁oil	-9.16754
▁committed	-9.16756
▁direction	-9.16803
▁conclusions	-9.16817
▁post	-9.16821
▁May	-9.16845
▁task	-9.17148
▁operation	-9.17155
▁care	-9.1716
▁governments	-9.17537
▁recently	-9.17579
▁representatives	-9.17594
▁read	-9.17775
▁coming	-9.17886
▁pro	-9.18501
▁decide	-9.18694
▁invest	-9.1883
▁Justice	-9.1887
▁damage	-9.1887
▁defence	-9.1887
▁instead	-9.1887
▁serve	-9.1887
▁type	-9.1887
▁trust	-9.1887
▁unacceptable	-9.18876
▁reference	-9.1888
▁Party	-9.18914
ble	-9.18991
▁consideration	-9.19121
▁included	-9.19275
ave	-9.19424
▁recommendations	-9.19705
▁travel	-9.19785
ot	-9.20015
co	-9.20084
▁mechanisms	-9.20261
L	-9.20284
▁car	-9.20616
▁urgent	-9.20668
▁leading	-9.20721
▁K	-9.20727
▁Centr	-9.20862
▁challenge	-9.20913
lthough	-9.2096
▁she	-9.2102
▁safe	-9.21035
▁mutual	-9.21044
▁half	-9.21044
▁voice	-9.21044
▁terrorism	-9.21046
▁participation	-9.21053
▁introduction	-9.21059
▁recovery	-9.21065
▁br	-9.21093
▁27	-9.21153
ag	-9.21177
▁desp	-9.21208
▁anti	-9.21271
▁visa	-9.21555
▁colleague	-9.21569
▁language	-9.21593
▁land	-9.21682
▁h	-9.21813
▁away	-9.21902
▁expressed	-9.21908
▁air	-9.22002
The	-9.22601
▁name	-9.22889
▁6	-9.22912
▁depend	-9.23233
▁burden	-9.23266
▁France	-9.23266
▁industrial	-9.23267
▁creating	-9.23267
▁structural	-9.2327
▁alone	-9.23287
▁highlight	-9.23339
bilateral	-9.23383
▁goods	-9.23445
▁session	-9.23465
▁goes	-9.23513
▁CO	-9.23562
▁decided	-9.23576
▁ban	-9.23578
▁8	-9.2359
RO	-9.23995
ors	-9.24236
▁highly	-9.24583
▁accord	-9.24601
▁allowed	-9.24603
▁goals	-9.24644
▁follow	-9.24707
▁fund	-9.24748
▁rest	-9.25068
▁Re	-9.25244
▁Czech	-9.25539
▁Regulation	-9.25539
▁Trade	-9.25539
▁extent	-9.25539
▁improving	-9.25539
▁light	-9.25539
▁military	-9.25539
▁renewable	-9.25539
▁justice	-9.25539
▁minorities	-9.25539
▁gender	-9.25546
▁North	-9.25547
▁dangerous	-9.25555
▁criminal	-9.25563
ard	-9.25655
▁2006	-9.25696
▁tabled	-9.25764
▁training	-9.25852
▁discussions	-9.25859
▁correct	-9.25902
▁caused	-9.25938
▁Nations	-9.26037
▁developed	-9.26234
▁includes	-9.26261
▁closely	-9.26429
▁remains	-9.26492
▁party	-9.26758
▁product	-9.26788
igh	-9.26797
▁giv	-9.269
▁fall	-9.27122
President	-9.27184
de	-9.27316
▁sea	-9.27357
▁return	-9.27399
▁9	-9.2761
▁reports	-9.27672
ts	-9.2784
▁Barroso	-9.27864
▁December	-9.27864
▁dimension	-9.27864
▁perspective	-9.27864
▁referendum	-9.27864
▁technology	-9.27864
▁sense	-9.27879
▁raise	-9.27891
etary	-9.27958
▁Mediterranean	-9.2797
▁difficulties	-9.28041
▁ever	-9.28131
▁upon	-9.28254
▁cause	-9.28365
▁patients	-9.2837
▁according	-9.28434
▁member	-9.2855
▁Do	-9.28695
▁involve	-9.28798
▁events	-9.28799
▁established	-9.28986
▁bank	-9.2936
▁entire	-9.29863
▁successful	-9.2988
promoting	-9.30245
▁Economic	-9.30245
▁Foreign	-9.30245
▁Partnership	-9.30245
▁confirm	-9.30245
▁independent	-9.30245
▁practical	-9.30245
▁remember	-9.30245
▁activity	-9.30245
▁facing	-9.30245
▁thousand	-9.30245
▁Schengen	-9.30271
▁Now	-9.30273
▁integrated	-9.30339
▁2007	-9.30341
na	-9.3039
▁growing	-9.30804
▁affected	-9.30857
▁doubt	-9.3096
▁conflict	-9.30969
▁3	-9.31847
European	-9.32009
▁statements	-9.3227
▁table	-9.32511
▁produce	-9.3257
▁practices	-9.32607
▁capital	-9.32674
▁Copenhagen	-9.32684
▁January	-9.32684
▁Nevertheless	-9.32684
▁attempt	-9.32684
▁bodies	-9.32684
▁history	-9.32684
▁negative	-9.32684
▁obtain	-9.32684
▁unemployment	-9.32684
▁ahead	-9.32684
▁easy	-9.32684
▁People	-9.32684
▁entry	-9.32685
▁green	-9.32685
▁trading	-9.32685
▁explain	-9.32685
▁early	-9.32686
▁everything	-9.32687
▁Today	-9.32694
▁competitive	-9.32709
▁office	-9.32735
▁unfortunately	-9.32736
▁content	-9.32835
▁7	-9.32981
▁shows	-9.33117
▁properly	-9.33196
▁person	-9.3328
▁hear	-9.33377
▁provision	-9.33495
▁differences	-9.33514
G	-9.33798
▁13	-9.33897
▁days	-9.33924
▁He	-9.33929
▁met	-9.34211
▁discussing	-9.34347
F	-9.34364
me	-9.34918
▁f	-9.34987
ta	-9.35127
3	-9.35176
▁comprehensive	-9.35184
▁genuine	-9.35184
▁rapid	-9.35184
▁regulator	-9.35184
▁religious	-9.35184
▁wrong	-9.35184
▁economies	-9.35187
▁Italy	-9.35202
▁introduce	-9.35269
ian	-9.35275
▁seek	-9.35298
▁Germany	-9.35354
▁signal	-9.35408
▁steps	-9.35519
▁balanced	-9.35627
▁increasingly	-9.35912
▁purpose	-9.36031
▁U	-9.36039
▁concept	-9.36407
ud	-9.36677
oreover	-9.37601
uch	-9.37727
▁Amendment	-9.37748
▁Auditors	-9.37748
▁concrete	-9.37748
▁mandate	-9.37748
▁mobility	-9.37748
▁probably	-9.37748
▁scope	-9.37748
Applause	-9.37749
▁scientific	-9.37749
▁forget	-9.37751
▁beginning	-9.37753
▁30	-9.37811
man	-9.37814
▁shown	-9.37953
ov	-9.38072
▁intended	-9.381
▁rightly	-9.38119
tic	-9.38147
▁aims	-9.38672
▁mechanism	-9.38681
▁Of	-9.38803
▁ten	-9.38809
▁join	-9.38833
▁cap	-9.38843
▁old	-9.38871
▁strongly	-9.38933
▁rate	-9.38956
▁w	-9.39631
▁grant	-9.39945
▁First	-9.40002
rime	-9.40181
▁transfer	-9.4028
▁visit	-9.40368
▁Alliance	-9.4038
▁Kosovo	-9.4038
▁Libya	-9.4038
▁Summit	-9.4038
▁police	-9.4038
▁similar	-9.4038
▁study	-9.4038
▁binding	-9.4038
▁Even	-9.40382
▁duty	-9.40384
▁precise	-9.40386
▁Socialist	-9.40388
x	-9.40402
▁weeks	-9.40436
▁specifically	-9.40439
▁setting	-9.40482
▁lives	-9.40701
▁finally	-9.41034
▁discussed	-9.41254
▁citizen	-9.41395
▁reading	-9.41559
▁comments	-9.41973
▁press	-9.4216
▁sectors	-9.42439
ied	-9.42559
▁secure	-9.42636
▁sufficient	-9.42691
▁personal	-9.42893
▁receive	-9.42916
▁Bulgaria	-9.42965
▁deep	-9.43026
▁Unfortunately	-9.43083
▁conference	-9.43083
▁record	-9.43083
▁sensitive	-9.43083
▁strict	-9.43083
▁vulnerable	-9.43083
▁supervision	-9.43084
aritime	-9.43084
▁How	-9.43085
▁safeguard	-9.43085
▁connection	-9.43086
▁stand	-9.43117
▁equality	-9.43129
▁fraud	-9.43149
▁consensus	-9.43155
▁expression	-9.43178
▁Portugal	-9.43192
▁linked	-9.43396
▁failed	-9.43419
▁higher	-9.43477
B	-9.4355
▁added	-9.4377
▁emerg	-9.43878
▁finance	-9.4388
▁improved	-9.43907
▁propose	-9.43978
▁nor	-9.44067
▁crime	-9.44162
ful	-9.44219
▁considered	-9.44432
ating	-9.44466
op	-9.4451
ure	-9.44766
▁goal	-9.44857
▁try	-9.45033
▁causes	-9.45093
V	-9.45153
▁Some	-9.45683
▁author	-9.45744
▁speech	-9.45781
▁Spanish	-9.4586
▁appeal	-9.4586
▁definition	-9.4586
▁domestic	-9.4586
▁guidelines	-9.4586
▁plenary	-9.4586
▁spirit	-9.4586
▁consumption	-9.45863
▁sport	-9.45864
▁Action	-9.45882
▁greatest	-9.4597
▁central	-9.45976
j	-9.45991
▁substantial	-9.46
▁Lad	-9.46174
▁SMEs	-9.46176
ince	-9.46208
▁represents	-9.4623
▁producers	-9.4629
O	-9.46293
ru	-9.46423
no	-9.46489
▁created	-9.46542
▁wanted	-9.46754
▁freedoms	-9.46767
▁banks	-9.46944
▁animal	-9.46993
▁disaster	-9.4701
▁network	-9.47011
▁source	-9.4702
▁comment	-9.47034
▁test	-9.47051
▁speaker	-9.47206
▁parts	-9.47416
ty	-9.47432
▁Co	-9.47454
rea	-9.47477
▁learn	-9.47775
▁inform	-9.47841
▁tackle	-9.47876
▁side	-9.47965
EC	-9.48026
▁building	-9.48034
▁German	-9.48594
▁Croatia	-9.48597
▁25	-9.48706
▁2013	-9.48717
▁Brussels	-9.48717
▁Market	-9.48717
▁clause	-9.48717
▁manner	-9.4872
▁constructive	-9.48723
▁failure	-9.48724
▁chance	-9.48731
▁income	-9.48732
▁overall	-9.48759
▁later	-9.48795
▁Although	-9.48828
▁prevention	-9.48832
ti	-9.48843
▁obviously	-9.48999
▁refer	-9.49063
▁recognised	-9.49089
▁19	-9.4924
▁faced	-9.49251
▁firstly	-9.49305
nd	-9.49363
▁limited	-9.49389
▁dealing	-9.49395
▁led	-9.49491
▁directly	-9.49509
▁addressed	-9.49532
our	-9.499
▁fuel	-9.49915
▁detail	-9.49943
▁contain	-9.49959
▁organisation	-9.49978
R	-9.50325
ff	-9.50472
▁forms	-9.50493
▁provides	-9.50506
▁topic	-9.5151
▁ca	-9.51587
▁An	-9.51597
▁demonstrate	-9.51598
▁urge	-9.51649
▁Belarus	-9.51649
▁Greek	-9.51659
▁Securit	-9.51659
▁Turkish	-9.51659
▁advantage	-9.51659
▁continuing	-9.51659
▁discharge	-9.51659
▁milk	-9.51659
▁opposition	-9.51659
▁regular	-9.51659
▁wait	-9.51659
▁zone	-9.5166
▁instance	-9.51661
▁influence	-9.51661
▁views	-9.5172
if	-9.51729
▁establishment	-9.51755
▁listen	-9.51758
ations	-9.52007
▁word	-9.52028
▁mission	-9.52279
▁Bo	-9.52342
▁forces	-9.52542
▁note	-9.52561
▁obligations	-9.52562
▁ground	-9.52944
▁export	-9.52961
erous	-9.52978
str	-9.52988
▁improvement	-9.53079
▁plans	-9.53087
▁elements	-9.53133
fter	-9.53299
▁advance	-9.53367
ual	-9.53368
ex	-9.53606
▁commitments	-9.53689
ward	-9.53864
making	-9.54066
▁exercise	-9.54233
▁child	-9.54688
▁regret	-9.54689
▁Constitution	-9.54689
▁Hungary	-9.54689
▁adequate	-9.54689
▁families	-9.54689
▁independence	-9.54689
▁18	-9.54719
▁commercial	-9.54722
▁migration	-9.5477
▁circumstances	-9.5477
▁annual	-9.54939
▁mark	-9.54952
▁materials	-9.55301
▁followed	-9.55307
▁happened	-9.55366
▁c	-9.55447
ie	-9.55636
led	-9.55859
N	-9.55875
nt	-9.55973
▁reduced	-9.55976
▁threat	-9.56037
▁contains	-9.56479
ut	-9.57218
▁trans	-9.57315
▁opening	-9.5737
he	-9.57394
▁base	-9.57633
pp	-9.57758
▁Agency	-9.57814
▁Poland	-9.57814
▁alternative	-9.57814
▁applies	-9.57814
▁diversity	-9.57814
▁enjoy	-9.57814
▁floor	-9.57814
▁intervention	-9.57814
▁professional	-9.57814
▁status	-9.57814
shadow	-9.57814
▁Agriculture	-9.57814
▁restrictions	-9.57814
▁flexibility	-9.57815
▁anything	-9.57816
▁fear	-9.5782
▁excessive	-9.57822
▁collective	-9.57824
▁transition	-9.57829
▁planning	-9.57832
▁Pakistan	-9.57848
▁associated	-9.57849
▁path	-9.57853
▁globalisation	-9.57893
▁compliance	-9.57966
▁came	-9.58045
▁ready	-9.58104
▁worked	-9.58242
▁institutional	-9.58343
▁Iran	-9.58403
rought	-9.58457
▁expected	-9.5856
▁rapporteurs	-9.58695
▁heart	-9.58789
▁interested	-9.59102
▁react	-9.59124
▁relationship	-9.59296
▁election	-9.59346
▁standard	-9.59362
▁partner	-9.59385
▁mis	-9.59411
▁payment	-9.59429
ory	-9.59461
▁disasters	-9.59718
▁networks	-9.59718
▁sides	-9.59719
▁crimes	-9.59773
ade	-9.59813
▁prepar	-9.59887
▁build	-9.60098
▁speaking	-9.60141
▁fulfil	-9.60177
▁Whil	-9.6029
▁complete	-9.60541
age	-9.60706
▁spoke	-9.60925
▁Ombudsman	-9.6104
▁September	-9.6104
▁Service	-9.6104
▁campaign	-9.6104
▁scheme	-9.6104
▁Why	-9.6104
▁gap	-9.6104
▁communities	-9.61041
▁electronic	-9.61041
▁Protection	-9.61042
▁big	-9.6106
▁rating	-9.61066
▁underline	-9.61072
▁confidence	-9.61075
▁either	-9.6112
▁helping	-9.61133
▁American	-9.61159
▁charge	-9.61195
▁considerable	-9.61216
▁useful	-9.61232
▁date	-9.61233
▁produced	-9.61509
▁passengers	-9.61522
▁medicines	-9.61545
▁suffering	-9.61775
▁Pa	-9.6189
os	-9.62029
▁stated	-9.62152
land	-9.62171
▁neighbour	-9.62636
▁worth	-9.62783
▁Mon	-9.6283
ling	-9.62932
▁monitor	-9.62956
mission	-9.63072
▁acts	-9.63569
▁fl	-9.63873
▁intend	-9.63925
▁initial	-9.63981
▁resolve	-9.64189
▁PPE	-9.64373
▁Strasbourg	-9.64373
▁World	-9.64373
▁delighted	-9.64373
▁fiscal	-9.64373
▁happy	-9.64373
▁negotiating	-9.64373
▁penalty	-9.64373
▁religion	-9.64373
▁primar	-9.64374
▁innovative	-9.64376
▁recognition	-9.64389
EL	-9.64401
olish	-9.64403
▁Japan	-9.64432
▁insist	-9.64461
ip	-9.64522
▁15	-9.64572
▁managed	-9.64705
▁debates	-9.64747
ug	-9.64774
▁covered	-9.6481
long	-9.64951
▁functioning	-9.65289
▁trying	-9.6552
▁situations	-9.65766
▁2	-9.65774
▁bi	-9.65828
▁facilitate	-9.65845
▁institution	-9.65953
▁prov	-9.65989
▁official	-9.661
▁pension	-9.66101
▁element	-9.66116
▁positions	-9.66658
va	-9.66692
▁function	-9.667
▁persons	-9.66712
▁risks	-9.67108
ach	-9.67269
▁consistent	-9.67434
▁immediate	-9.67439
▁starting	-9.67468
▁imp	-9.67526
▁Israel	-9.67536
▁realise	-9.67628
▁bad	-9.67654
▁adapt	-9.67701
▁govern	-9.67767
▁Euro	-9.6782
▁begin	-9.6782
▁Programme	-9.67821
▁analysis	-9.67821
▁distribution	-9.67821
▁exclusion	-9.67821
▁transparent	-9.67821
▁trafficking	-9.67822
▁July	-9.67822
▁Indeed	-9.67822
▁elected	-9.67823
▁else	-9.67823
▁Irish	-9.67824
▁staff	-9.67827
▁construction	-9.67828
▁liberalisation	-9.67832
▁proportion	-9.67834
▁referred	-9.67835
▁spent	-9.67863
▁Western	-9.67895
ton	-9.67896
▁resolutions	-9.6791
▁prove	-9.68003
▁la	-9.6802
▁investments	-9.6815
▁Ver	-9.68199
▁Georgia	-9.6829
▁po	-9.68364
▁num	-9.68366
▁urgently	-9.68432
▁violations	-9.68642
the	-9.68659
▁signed	-9.68711
▁learning	-9.68976
com	-9.69014
▁involv	-9.69099
▁cover	-9.69196
CS	-9.693
pt	-9.69366
har	-9.69401
▁seriously	-9.69433
▁imports	-9.69439
▁structures	-9.69499
▁attack	-9.69677
▁structure	-9.69683
▁school	-9.69713
cu	-9.7015
per	-9.70203
hol	-9.70315
related	-9.70492
ever	-9.70548
Christian	-9.70693
ingle	-9.70699
▁wants	-9.70817
▁suggest	-9.70882
range	-9.70926
be	-9.71144
▁late	-9.71324
▁modern	-9.7138
▁According	-9.71393
▁November	-9.71393
▁Procedure	-9.71393
▁Representative	-9.71393
▁drug	-9.71393
▁enormous	-9.71393
▁sexual	-9.71393
▁simple	-9.71393
▁Italian	-9.71393
▁leadership	-9.71397
▁minority	-9.71399
ritt	-9.714
responsibilities	-9.71403
▁17	-9.71424
▁critical	-9.71473
ng	-9.71482
▁treaty	-9.71482
▁India	-9.71495
▁profit	-9.71533
▁reasonable	-9.71616
▁designed	-9.71673
▁Russian	-9.71756
ine	-9.71962
▁tool	-9.72037
▁vehicles	-9.72118
▁former	-9.72318
▁significantly	-9.72811
way	-9.73025
▁continued	-9.73104
▁abuse	-9.73345
▁import	-9.73346
▁consultation	-9.7336
▁method	-9.73365
▁appear	-9.73382
▁requirement	-9.7351
▁tests	-9.73581
ph	-9.73618
▁fail	-9.7368
ber	-9.73961
lar	-9.74297
▁writ	-9.74345
▁Bar	-9.74384
put	-9.74496
▁guarantees	-9.74544
▁gain	-9.74619
▁endorse	-9.74851
▁Ro	-9.74891
▁plant	-9.74961
▁Swed	-9.75038
▁condemn	-9.75051
▁Ashton	-9.75097
▁Black	-9.75097
▁Chamber	-9.75097
▁Policy	-9.75097
▁Spain	-9.75097
▁inclusion	-9.75097
▁industries	-9.75097
▁promotion	-9.75097
▁spread	-9.75097
▁territory	-9.75097
▁delay	-9.75097
▁operate	-9.75097
▁near	-9.75098
▁terrorist	-9.75099
▁labelling	-9.75101
▁Korea	-9.75102
▁UK	-9.75103
▁evaluation	-9.75104
▁sustainability	-9.75104
▁earlier	-9.75105
▁March	-9.75106
▁explanation	-9.75106
▁paid	-9.75107
▁stable	-9.75108
▁overcome	-9.75118
▁revision	-9.75122
▁run	-9.75133
▁submitted	-9.75137
▁generation	-9.75138
▁space	-9.75163
▁exactly	-9.75176
▁via	-9.75179
▁fine	-9.75181
▁told	-9.75182
▁approved	-9.75248
spit	-9.75264
▁Or	-9.75267
▁lower	-9.75289
▁employees	-9.75326
▁organised	-9.75348
▁sanctions	-9.75391
▁carbon	-9.75399
▁statistics	-9.75453
▁barriers	-9.75456
▁vision	-9.75566
ide	-9.75599
▁processes	-9.75666
▁informed	-9.75699
▁transactions	-9.75718
▁body	-9.75742
ated	-9.76206
▁mon	-9.76221
rs	-9.76602
▁100	-9.76809
▁happening	-9.76811
▁lai	-9.76842
▁debt	-9.7719
▁condition	-9.77257
der	-9.77571
▁union	-9.77623
▁14	-9.7766
▁fish	-9.77727
▁parliament	-9.77782
▁Al	-9.77839
▁introduc	-9.77963
▁languages	-9.78038
▁visas	-9.78038
▁aspect	-9.78133
ative	-9.78203
▁happens	-9.78215
▁manage	-9.78452
▁obvious	-9.78563
raw	-9.78617
▁desire	-9.78695
▁solve	-9.78695
all	-9.7878
▁loss	-9.78863
▁rail	-9.78937
▁traffic	-9.78942
▁Energy	-9.78943
▁Environment	-9.78943
▁flexible	-9.78943
▁identify	-9.78943
▁impossible	-9.78943
▁ordinary	-9.78943
▁ratification	-9.78943
▁strategies	-9.78943
▁Baltic	-9.78943
▁crises	-9.78943
▁truly	-9.78943
▁planned	-9.78945
▁speed	-9.78945
▁seven	-9.78947
▁2012	-9.79039
▁effectiveness	-9.79041
▁weak	-9.79045
▁attitude	-9.79068
▁preparation	-9.79163
▁constitute	-9.79192
▁rejected	-9.79315
▁prepare	-9.79318
▁asking	-9.79342
▁La	-9.79344
▁ways	-9.79373
▁taxpayers	-9.79385
▁imposed	-9.79424
▁thought	-9.79432
▁demands	-9.79447
▁skills	-9.79447
▁scale	-9.79488
▁accounts	-9.79634
▁relate	-9.79676
▁introduced	-9.79787
▁Asia	-9.7994
▁equally	-9.8005
▁diseases	-9.80068
ang	-9.80197
▁budgets	-9.80596
▁link	-9.8074
ver	-9.81013
▁choice	-9.81205
▁centre	-9.81205
▁21	-9.81229
ning	-9.81451
▁rates	-9.81517
▁o	-9.81579
00	-9.82018
▁40	-9.82214
body	-9.82215
economic	-9.82262
based	-9.82268
▁Ma	-9.82271
▁directives	-9.82298
▁launch	-9.82474
go	-9.82786
▁count	-9.82845
▁exploit	-9.829
▁complex	-9.82921
▁Charter	-9.82943
▁Framework	-9.82943
▁NATO	-9.82943
▁Organisation	-9.82943
▁administration	-9.82943
▁continent	-9.82943
▁evidence	-9.82943
▁exclusive	-9.82943
▁myself	-9.82943
▁politics	-9.82943
▁truth	-9.82943
▁Third	-9.82943
▁encouraging	-9.82944
▁Gaza	-9.82944
▁push	-9.82945
▁audit	-9.82949
▁harmonisation	-9.82952
▁property	-9.82961
▁sort	-9.82975
▁awareness	-9.83003
▁judge	-9.83005
▁gone	-9.83068
▁African	-9.83216
▁Giv	-9.8327
▁impose	-9.83308
▁ship	-9.83336
eful	-9.83378
▁lies	-9.83482
▁ke	-9.83524
rain	-9.83524
▁seem	-9.83556
▁ex	-9.83756
▁known	-9.84069
▁leaders	-9.84093
old	-9.84418
▁finding	-9.84454
▁protected	-9.84823
▁appears	-9.84831
tally	-9.84848
▁tools	-9.84994
▁threats	-9.85192
ub	-9.85332
▁delegation	-9.85376
▁option	-9.85411
▁negotiation	-9.85422
▁representative	-9.85426
▁suffer	-9.85698
▁Ra	-9.85701
▁k	-9.85965
here	-9.86223
▁repeat	-9.86645
▁participate	-9.86807
▁fast	-9.87048
▁submit	-9.87063
▁custom	-9.87075
▁opt	-9.87099
undamental	-9.87101
▁British	-9.87109
▁Region	-9.87109
▁Women	-9.87109
▁afford	-9.87109
▁contrary	-9.87109
▁expenditure	-9.87109
▁observation	-9.87109
▁permanent	-9.87109
▁size	-9.87109
▁territorial	-9.87109
▁patent	-9.87109
▁break	-9.8711
▁worse	-9.8711
▁sometimes	-9.87111
▁reply	-9.87111
▁paragraph	-9.87112
▁coherent	-9.87113
▁equipment	-9.87114
▁paper	-9.87116
▁cl	-9.87122
▁arise	-9.87126
▁voluntary	-9.87147
▁Those	-9.87148
▁revenue	-9.87172
▁poorest	-9.87174
▁sound	-9.87228
▁liberal	-9.8726
▁taxation	-9.87269
▁gra	-9.87291
▁grat	-9.87295
ba	-9.87375
▁immigrants	-9.87442
▁aviation	-9.8746
▁mere	-9.87475
▁Ch	-9.87482
▁EC	-9.87653
▁v	-9.87663
▁accidents	-9.87738
▁decades	-9.87738
▁documents	-9.87746
▁appreciate	-9.87947
ev	-9.87979
▁passed	-9.88084
▁examples	-9.88334
▁accepted	-9.88466
▁factors	-9.88741
ue	-9.88905
▁welcomed	-9.89011
ast	-9.89024
▁attacks	-9.89156
▁details	-9.89607
▁recommendation	-9.8979
▁head	-9.89821
▁conflicts	-9.90136
ua	-9.90137
▁adopting	-9.90228
▁16	-9.90239
ple	-9.90463
▁i	-9.90526
▁operations	-9.90592
▁sc	-9.90691
debate	-9.90775
▁limits	-9.90837
ological	-9.90964
▁succeed	-9.90989
▁preventing	-9.91114
▁St	-9.91143
▁candidate	-9.91259
▁Portug	-9.91279
▁multi	-9.91295
▁America	-9.91343
▁Egypt	-9.91448
ivil	-9.91449
▁drive	-9.91456
▁maxim	-9.91457
que	-9.91457
▁February	-9.91457
▁Macedonia	-9.91457
▁currency	-9.91457
▁Pact	-9.91457
▁phase	-9.91457
▁yesterday	-9.91457
▁judicial	-9.91458
▁wonder	-9.91459
▁mother	-9.9146
▁hours	-9.91461
▁2005	-9.91472
▁pollution	-9.91478
▁sum	-9.91495
▁Hom	-9.9151
▁reaction	-9.91521
▁Chin	-9.9153
ture	-9.91532
▁feed	-9.9154
▁counter	-9.9156
▁CAP	-9.91566
ical	-9.91604
▁acceptable	-9.91611
▁unless	-9.91628
▁lay	-9.91697
▁replace	-9.91717
ka	-9.91733
▁generate	-9.91859
▁refugees	-9.91894
▁Slovakia	-9.919
▁immediately	-9.91944
▁Ministers	-9.91978
▁exceptional	-9.92017
▁entirely	-9.92166
▁ideas	-9.92204
ner	-9.92664
▁pa	-9.92879
▁formal	-9.92912
fi	-9.93092
sh	-9.93151
▁stressed	-9.93165
▁Le	-9.93305
▁generally	-9.93343
employed	-9.93797
part	-9.93814
ai	-9.93936
▁sta	-9.94225
▁check	-9.9426
▁speakers	-9.94264
▁block	-9.94421
▁amend	-9.94437
▁purposes	-9.94465
riv	-9.94513
▁month	-9.94519
▁original	-9.94641
▁laws	-9.94676
istic	-9.94819
of	-9.95001
▁intention	-9.95045
▁vi	-9.95138
Rule	-9.95317
▁com	-9.95364
▁normal	-9.95604
▁event	-9.95662
▁please	-9.95762
tor	-9.95764
▁individuals	-9.95806
▁sh	-9.95932
▁allocat	-9.95962
▁April	-9.96003
▁Assembly	-9.96003
▁October	-9.96003
▁Slovenia	-9.96003
▁association	-9.96003
▁correspond	-9.96003
▁deficit	-9.96003
▁enlargement	-9.96003
▁expense	-9.96003
▁facilities	-9.96003
▁macro	-9.96003
▁physical	-9.96003
▁tuna	-9.96003
▁unanimous	-9.96003
▁Kingdom	-9.96003
▁phenomenon	-9.96007
▁flood	-9.96009
▁New	-9.96011
▁agency	-9.96011
urban	-9.96013
▁assume	-9.96017
▁2.	-9.9602
▁2000	-9.96046
▁existence	-9.96052
▁Here	-9.96076
▁geographical	-9.9608
▁Lastly	-9.96262
▁carefully	-9.96267
sk	-9.96274
▁experts	-9.96287
▁opposed	-9.96299
▁sincere	-9.96325
▁stay	-9.96346
▁peaceful	-9.96358
▁tried	-9.96416
▁Can	-9.96531
▁severe	-9.96675
for	-9.96684
wo	-9.96686
▁successfully	-9.96756
ious	-9.96824
▁targeted	-9.97092
▁minutes	-9.97343
▁cooperate	-9.97386
▁meetings	-9.97515
▁pose	-9.97599
reby	-9.97636
fin	-9.97669
▁hearing	-9.97788
▁opinions	-9.97897
▁60	-9.98097
▁ch	-9.98448
▁payments	-9.98494
▁ba	-9.98562
bi	-9.98723
▁votes	-9.98933
ke	-9.98948
▁Green	-9.99036
ef	-9.99195
▁legally	-9.99218
▁du	-9.99498
▁actual	-9.99792
▁spend	-9.99813
▁grow	-9.99814
ake	-9.99821
K	-10.0004
house	-10.0005
vote	-10.0008
▁understanding	-10.0013
▁reject	-10.0026
▁assess	-10.0026
ha	-10.0053
▁determine	-10.0058
▁constitution	-10.0059
▁sub	-10.0062
▁proceed	-10.0075
olidarity	-10.0075
▁blue	-10.0076
▁identifi	-10.0076
▁beneficial	-10.0076
▁courage	-10.0076
▁digital	-10.0076
▁heavy	-10.0076
▁heritage	-10.0076
▁ratified	-10.0076
▁technological	-10.0076
▁degree	-10.0076
▁duties	-10.0076
▁slow	-10.0076
▁abolish	-10.0077
▁tourism	-10.0077
▁subsidiarity	-10.0077
▁wealth	-10.0077
▁performance	-10.0078
▁Afghanistan	-10.0078
▁speculation	-10.0079
▁save	-10.0079
▁realistic	-10.008
▁otherwise	-10.008
▁undertaken	-10.0081
ectual	-10.0082
▁interpretation	-10.0084
▁ethnic	-10.0085
▁ultimately	-10.0087
▁relative	-10.0088
▁emergency	-10.0091
tain	-10.0098
▁constantly	-10.0102
▁treated	-10.0105
und	-10.012
▁savings	-10.0123
wa	-10.0127
ification	-10.0134
ood	-10.0138
▁approval	-10.014
▁factor	-10.014
▁obstacles	-10.014
▁anyone	-10.0143
▁24	-10.0144
▁figures	-10.0149
▁students	-10.0157
▁allows	-10.0176
▁dem	-10.0198
▁Not	-10.0205
▁healthy	-10.0224
use	-10.0267
▁started	-10.0294
▁parliaments	-10.0295
▁diplomat	-10.0295
▁concentrate	-10.0302
▁officials	-10.0321
ught	-10.034
▁changed	-10.0353
▁compar	-10.0353
▁buildings	-10.0373
▁eye	-10.0403
▁difference	-10.0407
▁millions	-10.0413
▁examine	-10.0424
▁interesting	-10.0491
scale	-10.0507
point	-10.0508
ga	-10.0514
▁restrict	-10.0531
▁separate	-10.0537
ran	-10.056
bo	-10.0564
efore	-10.0574
▁committees	-10.0575
▁Conference	-10.0576
▁GDP	-10.0576
▁Investment	-10.0576
▁Moldova	-10.0576
▁Palestinian	-10.0576
▁Tunisia	-10.0576
▁abolition	-10.0576
▁advocate	-10.0576
▁ambition	-10.0576
▁appropriations	-10.0576
▁arrangements	-10.0576
▁destroy	-10.0576
▁easier	-10.0576
▁experiencing	-10.0576
▁radio	-10.0576
▁reiterate	-10.0576
▁sensible	-10.0576
▁ACP	-10.0576
▁chain	-10.0576
▁trend	-10.0576
▁divide	-10.0577
▁double	-10.0577
▁Transport	-10.0577
▁referring	-10.0577
▁rising	-10.0577
▁creative	-10.0577
▁intell	-10.0577
▁earn	-10.0577
▁lose	-10.0578
▁mix	-10.0578
▁proceedings	-10.0578
▁membership	-10.0578
driving	-10.0579
SK	-10.0579
AL	-10.058
▁Brazil	-10.0582
▁fel	-10.0583
▁accus	-10.0583
▁contribut	-10.0587
▁regulated	-10.059
▁2004	-10.0594
▁definitely	-10.0594
▁studies	-10.0599
eight	-10.0604
▁define	-10.061
ear	-10.0631
▁operators	-10.0635
▁card	-10.0635
▁wine	-10.0641
▁foundations	-10.0655
▁contributions	-10.0682
▁highlighted	-10.0682
▁N	-10.0682
▁users	-10.0701
▁nations	-10.0707
▁Dan	-10.0733
▁contacts	-10.0734
▁tri	-10.0736
▁importantly	-10.0745
▁intentions	-10.077
fer	-10.0783
▁strengthened	-10.0843
▁Budget	-10.0928
▁declaration	-10.0928
▁mistake	-10.0929
▁claim	-10.0929
▁competence	-10.0932
nother	-10.0958
▁emphasis	-10.096
▁works	-10.0974
▁tasks	-10.0999
▁hands	-10.1
▁propos	-10.1014
▁Mar	-10.1018
▁tan	-10.1019
▁controls	-10.1033
time	-10.1038
▁Every	-10.1043
▁thorough	-10.1063
▁negotiate	-10.1078
▁1.	-10.1083
▁interpret	-10.1094
▁danger	-10.1099
▁Control	-10.1103
▁Frontex	-10.1103
▁Instead	-10.1103
▁Safety	-10.1103
▁credibility	-10.1103
▁explicit	-10.1103
▁extensive	-10.1103
▁honest	-10.1103
▁legitimate	-10.1103
▁length	-10.1103
▁nevertheless	-10.1103
▁qualifications	-10.1103
▁revised	-10.1103
▁simplify	-10.1103
▁struggle	-10.1103
▁symbol	-10.1103
▁troops	-10.1103
▁unfair	-10.1103
▁witness	-10.1103
▁Health	-10.1103
▁Sudan	-10.1103
▁average	-10.1103
▁clean	-10.1103
▁Arab	-10.1103
▁System	-10.1103
▁neither	-10.1103
▁impress	-10.1103
▁Also	-10.1103
▁traditional	-10.1103
▁criticism	-10.1103
▁confront	-10.1103
▁eliminate	-10.1103
▁morning	-10.1103
▁Europol	-10.1103
▁healthcare	-10.1104
▁expand	-10.1104
▁Plan	-10.1104
▁enforcement	-10.1105
▁expectations	-10.1105
▁investors	-10.1106
▁assist	-10.1106
▁code	-10.1108
▁pure	-10.1108
▁Paris	-10.1109
▁20%	-10.111
▁considering	-10.1111
▁corruption	-10.1113
▁striv	-10.1115
▁worrying	-10.1121
▁spoken	-10.1122
▁board	-10.1124
▁Fro	-10.1126
▁farm	-10.1139
▁General	-10.1146
▁Com	-10.115
▁favourable	-10.1164
▁ha	-10.1178
▁concluded	-10.118
▁airports	-10.1183
▁deserves	-10.1183
▁hundreds	-10.1193
▁granted	-10.1197
▁red	-10.1204
▁spending	-10.121
do	-10.1211
ec	-10.1224
▁naturally	-10.1229
▁offered	-10.1235
▁engage	-10.1246
▁80	-10.1255
▁quotas	-10.1269
▁represented	-10.1272
▁Mo	-10.1277
day	-10.1318
▁ill	-10.1318
▁23	-10.1323
ier	-10.1352
▁ref	-10.1356
▁feeling	-10.1394
▁Di	-10.1395
▁man	-10.141
▁improvements	-10.1413
▁pr	-10.142
▁II	-10.1428
▁animals	-10.1433
po	-10.1436
▁pursu	-10.1441
▁Con	-10.1448
▁pillar	-10.1483
▁dispute	-10.1483
▁argument	-10.1484
▁creates	-10.1485
▁contact	-10.1486
▁quota	-10.1487
▁obligation	-10.1488
▁doubts	-10.1491
▁achievement	-10.1503
▁port	-10.1529
▁cuts	-10.1569
vision	-10.1587
▁Ca	-10.1588
W	-10.1589
▁deliver	-10.159
▁Christian	-10.1594
drawn	-10.1608
▁register	-10.1611
unt	-10.1612
▁brief	-10.162
▁dai	-10.1623
pol	-10.1628
▁assure	-10.1635
▁respected	-10.1635
iz	-10.1645
tlantic	-10.165
▁fo	-10.165
▁permit	-10.1654
▁manufactur	-10.1655
▁Social	-10.1657
xternal	-10.1657
▁fruit	-10.1657
▁Globalis	-10.1658
▁Cohesion	-10.1658
▁Cyprus	-10.1658
▁Research	-10.1658
▁elsewhere	-10.1658
▁female	-10.1658
▁latter	-10.1658
▁murder	-10.1658
▁percentage	-10.1658
▁piece	-10.1658
▁pipeline	-10.1658
▁presidency	-10.1658
▁radical	-10.1658
▁secret	-10.1658
▁surveillance	-10.1658
▁worst	-10.1658
▁Islam	-10.1658
▁leaving	-10.1658
▁predict	-10.1658
▁choose	-10.1658
▁protest	-10.1658
▁ALDE	-10.1658
▁moving	-10.1658
▁await	-10.1658
▁sharing	-10.1658
▁outcome	-10.1658
▁Freedom	-10.1659
▁sovereignty	-10.1659
▁perfect	-10.1659
▁Thus	-10.166
▁electricity	-10.166
▁sit	-10.166
▁proud	-10.1661
▁lend	-10.1661
▁Head	-10.1661
▁authority	-10.1663
men	-10.1663
▁investigation	-10.1663
▁exploitation	-10.1664
▁announced	-10.1665
▁playing	-10.1666
▁hit	-10.1666
▁intensive	-10.1668
▁sent	-10.1669
▁removed	-10.167
▁enhance	-10.1672
▁tempo	-10.1683
ooperation	-10.1686
▁More	-10.1691
▁enhanced	-10.1695
▁published	-10.17
stone	-10.1701
▁restricted	-10.171
▁amended	-10.1717
▁...	-10.172
▁repeated	-10.1721
▁Li	-10.1721
LT	-10.1721
▁sole	-10.1723
▁online	-10.1731
▁soil	-10.1732
▁historical	-10.1735
▁personally	-10.1743
iddle	-10.1744
5%	-10.1756
▁reinforce	-10.1762
▁emphasised	-10.178
▁youth	-10.1786
▁incident	-10.1798
FI	-10.1809
▁developments	-10.1835
ender	-10.1838
▁politically	-10.1857
▁Greens	-10.1865
active	-10.1866
▁coordinate	-10.1873
▁news	-10.1877
gen	-10.1885
▁plants	-10.1928
▁presen	-10.1932
▁environmentally	-10.1964
CO	-10.1967
ound	-10.2001
▁finances	-10.2019
coordinated	-10.2024
▁sets	-10.2028
ow	-10.205
▁court	-10.2072
▁disease	-10.2075
▁minute	-10.2102
▁knows	-10.2134
▁comply	-10.215
▁Mal	-10.2153
qui	-10.2177
institutional	-10.2177
▁Ko	-10.2184
▁recommend	-10.2194
▁design	-10.2201
▁warm	-10.2207
▁promise	-10.2222
▁talks	-10.2232
ior	-10.2238
▁200	-10.2242
▁mo	-10.2242
▁investigat	-10.2243
tructural	-10.2245
ollowing	-10.2246
▁label	-10.2246
▁occur	-10.2247
ographic	-10.2247
illennium	-10.2247
valuable	-10.2247
▁Austria	-10.2247
▁Liberties	-10.2247
▁affairs	-10.2247
▁dignity	-10.2247
▁foodstuffs	-10.2247
▁forgotten	-10.2247
▁glad	-10.2247
▁inequalities	-10.2247
▁lost	-10.2247
▁privacy	-10.2247
▁significance	-10.2247
▁unnecessary	-10.2247
▁welfare	-10.2247
▁Common	-10.2247
▁chosen	-10.2247
▁reliable	-10.2247
gible	-10.2247
▁Authority	-10.2247
▁persist	-10.2247
▁multilateral	-10.2247
▁societies	-10.2247
▁Congo	-10.2247
▁version	-10.2247
▁accompan	-10.2248
▁proof	-10.2248
saw	-10.2249
▁round	-10.2249
▁etc	-10.2249
▁yes	-10.2249
▁26	-10.225
▁Food	-10.225
▁sad	-10.2251
▁22	-10.2252
▁everybody	-10.2252
▁powerful	-10.2252
▁mid	-10.2253
▁latest	-10.2254
▁retain	-10.2255
mall	-10.2261
▁front	-10.2262
▁authorisation	-10.2268
▁mass	-10.2268
▁constitutional	-10.2269
den	-10.227
rary	-10.2285
▁wishes	-10.2298
▁answers	-10.2303
▁defined	-10.2306
mer	-10.2312
▁suffered	-10.2314
▁coal	-10.2329
▁airlines	-10.2348
▁farming	-10.2353
▁flows	-10.2358
▁returned	-10.2367
▁indicate	-10.2368
▁belong	-10.2374
▁heading	-10.2379
▁brings	-10.2385
▁went	-10.239
▁substances	-10.2391
▁Ha	-10.2392
▁Balkans	-10.2401
▁competences	-10.2444
▁friends	-10.2447
rmed	-10.2526
we	-10.2526
▁Ba	-10.2529
▁methods	-10.2531
▁di	-10.2539
▁secondly	-10.2542
▁West	-10.2548
▁holding	-10.255
▁pensions	-10.2551
aries	-10.2587
▁exports	-10.2596
▁demanding	-10.2637
▁proposes	-10.2639
ones	-10.2691
spect	-10.2719
▁highlights	-10.2719
▁Na	-10.273
▁tr	-10.2745
over	-10.2777
▁historic	-10.2786
initiative	-10.2803
▁caus	-10.2806
▁Iraq	-10.2822
▁offers	-10.2823
▁publish	-10.2825
▁observe	-10.2846
▁perform	-10.2869
rowth	-10.287
▁harm	-10.2871
▁Free	-10.2871
▁Bosnia	-10.2872
▁Britain	-10.2872
▁Fisheries	-10.2872
▁London	-10.2872
▁Thursday	-10.2872
▁advertising	-10.2872
▁applicable	-10.2872
▁behaviour	-10.2872
▁biodiversity	-10.2872
▁cheap	-10.2872
▁clarify	-10.2872
▁dramatic	-10.2872
▁dynamic	-10.2872
▁imbalance	-10.2872
▁neighbourhood	-10.2872
▁possibilities	-10.2872
▁species	-10.2872
▁storage	-10.2872
▁supplement	-10.2872
▁decent	-10.2872
▁detriment	-10.2872
▁dossier	-10.2872
▁terri	-10.2872
▁sorry	-10.2872
▁root	-10.2872
▁team	-10.2872
▁route	-10.2872
▁united	-10.2872
▁section	-10.2872
▁Like	-10.2872
ities	-10.2872
marine	-10.2872
▁harmful	-10.2872
▁Progress	-10.2872
▁infringement	-10.2872
▁prosperity	-10.2873
▁guid	-10.2873
▁south	-10.2873
▁east	-10.2874
▁oppose	-10.2874
▁biggest	-10.2874
▁Burma	-10.2874
▁suitable	-10.2875
▁manufacturers	-10.2875
DA	-10.2877
▁Leg	-10.2877
▁Act	-10.2879
▁involvement	-10.2881
▁outline	-10.2882
▁Dur	-10.2882
▁mine	-10.2885
▁attract	-10.289
rant	-10.2891
crea	-10.2893
▁War	-10.2897
▁rich	-10.2897
▁moral	-10.2899
▁restore	-10.2904
ca	-10.2911
▁socialist	-10.2912
▁warning	-10.2914
▁briefly	-10.2915
▁daily	-10.2915
▁taxes	-10.2917
ick	-10.2918
▁ongoing	-10.2924
▁forth	-10.2941
▁seat	-10.2953
▁errors	-10.2968
▁occasions	-10.2968
▁exceptions	-10.297
▁facts	-10.2974
▁warming	-10.2974
▁stocks	-10.2979
▁incentives	-10.2979
line	-10.2992
▁shared	-10.2997
▁bio	-10.3003
ement	-10.3011
▁j	-10.3028
▁contracts	-10.3037
▁failing	-10.3038
▁applications	-10.3043
cut	-10.305
▁answered	-10.3065
▁Christians	-10.3071
▁wording	-10.3078
▁claims	-10.3083
▁Financi	-10.3107
▁Dr	-10.312
▁populations	-10.3123
▁3.	-10.3127
▁mot	-10.3136
▁island	-10.3137
▁drafted	-10.3146
▁competen	-10.3158
▁unions	-10.3164
ster	-10.3208
▁increases	-10.3252
gre	-10.3282
▁rely	-10.3312
▁nation	-10.3344
▁Balkan	-10.3365
▁contract	-10.3366
▁wage	-10.3366
▁consequence	-10.3369
▁Are	-10.3387
djustment	-10.3389
▁enabl	-10.339
▁cars	-10.3391
▁forest	-10.3412
▁leader	-10.3426
▁amounts	-10.3446
ration	-10.3446
vo	-10.3456
tability	-10.3461
▁win	-10.3463
wide	-10.3467
level	-10.347
work	-10.3471
▁fat	-10.3472
lco	-10.3482
▁requests	-10.3484
surance	-10.3486
▁Un	-10.3489
▁decisive	-10.3498
▁careful	-10.3504
▁argue	-10.3509
▁Last	-10.351
▁release	-10.3513
▁train	-10.3518
▁class	-10.3524
EA	-10.3532
▁complement	-10.3534
▁prison	-10.3535
operating	-10.3537
ubject	-10.3537
▁micro	-10.3538
▁Petitions	-10.3538
▁boost	-10.3538
▁comparison	-10.3538
▁couple	-10.3538
▁credible	-10.3538
▁disposal	-10.3538
▁ecosystem	-10.3538
▁envisage	-10.3538
▁excuse	-10.3538
▁extension	-10.3538
▁necessity	-10.3538
▁ownership	-10.3538
▁politicians	-10.3538
▁president	-10.3538
▁residence	-10.3538
▁science	-10.3538
▁stakeholders	-10.3538
▁subsequent	-10.3538
▁supervisor	-10.3538
▁supposed	-10.3538
▁uniform	-10.3538
▁vocation	-10.3538
▁volume	-10.3538
▁whilst	-10.3538
▁absurd	-10.3538
▁changing	-10.3538
▁universal	-10.3538
▁image	-10.3538
▁shift	-10.3538
▁reveal	-10.3538
▁tonnes	-10.3538
limate	-10.3538
▁analyse	-10.3538
▁inspection	-10.3538
▁simplification	-10.3538
▁century	-10.3538
▁chapter	-10.3538
▁began	-10.3539
▁foster	-10.3539
▁urgency	-10.3539
▁Report	-10.3539
ulture	-10.3539
▁track	-10.3539
▁select	-10.3539
▁Paper	-10.354
▁sentence	-10.354
▁sold	-10.3541
▁tough	-10.3542
▁commit	-10.3543
▁devote	-10.3543
abour	-10.3543
her	-10.3543
▁civilian	-10.3543
atory	-10.3544
▁dependent	-10.3544
▁north	-10.3545
▁allocation	-10.3545
▁cutting	-10.3547
▁losses	-10.3552
nce	-10.3553
▁declared	-10.3556
▁speeches	-10.3558
formal	-10.3558
outh	-10.3563
▁ignore	-10.357
▁lines	-10.359
▁undermine	-10.359
▁foresee	-10.3591
▁complaints	-10.3593
▁stations	-10.363
▁resolved	-10.3635
ink	-10.3639
nity	-10.3649
▁correctly	-10.3654
▁pursuing	-10.3654
▁manager	-10.3658
▁Any	-10.3679
▁reductions	-10.3686
▁none	-10.3688
▁adjustment	-10.3691
▁cr	-10.37
▁requested	-10.3712
az	-10.3764
▁mistakes	-10.3764
▁eyes	-10.3777
▁le	-10.3796
▁pl	-10.3801
▁seeking	-10.3801
▁Ka	-10.3803
▁fa	-10.3807
▁toys	-10.3815
▁falling	-10.3824
▁options	-10.3826
▁choices	-10.3839
▁links	-10.384
▁texts	-10.3858
▁expecting	-10.3881
▁neighbours	-10.3901
▁Nor	-10.3914
1%	-10.3935
▁evening	-10.3936
▁addressing	-10.3948
▁notice	-10.3967
▁Funds	-10.397
ek	-10.3985
▁showing	-10.4008
▁substance	-10.4079
▁violation	-10.4081
▁impos	-10.4104
ona	-10.4136
ium	-10.4147
lain	-10.4155
▁organ	-10.4172
mark	-10.4173
ship	-10.4177
▁mobilis	-10.4177
by	-10.4178
▁debat	-10.4181
(	-10.4182
stock	-10.4184
2008	-10.4184
estimated	-10.4204
▁constant	-10.4214
corporate	-10.4221
▁respecting	-10.4238
▁exp	-10.4239
▁approve	-10.4242
ublic	-10.4243
▁sur	-10.4245
▁Inter	-10.4246
▁admit	-10.4248
▁prohibit	-10.4248
▁punish	-10.4249
▁settle	-10.425
erhaps	-10.4251
▁super	-10.4251
▁tele	-10.4252
▁Bas	-10.4252
▁acquis	-10.4253
▁neutral	-10.4253
▁principal	-10.4253
▁Agenda	-10.4253
▁Australia	-10.4253
▁Belgian	-10.4253
▁Netherlands	-10.4253
▁Protocol	-10.4253
▁Regard	-10.4253
▁blood	-10.4253
▁built	-10.4253
▁conservation	-10.4253
▁considerably	-10.4253
▁convergence	-10.4253
▁disappear	-10.4253
▁elderly	-10.4253
▁endeavour	-10.4253
▁hung	-10.4253
▁inhabitants	-10.4253
▁intervene	-10.4253
▁judgment	-10.4253
▁mandatory	-10.4253
▁notably	-10.4253
▁occupation	-10.4253
▁penalise	-10.4253
▁restructuring	-10.4253
▁spectrum	-10.4253
▁tragedy	-10.4253
▁watch	-10.4253
▁woman	-10.4253
▁arising	-10.4253
▁forecast	-10.4253
▁qualified	-10.4253
▁fishermen	-10.4253
▁destruction	-10.4253
▁geo	-10.4253
▁lessons	-10.4253
▁closing	-10.4253
▁absence	-10.4253
▁traditions	-10.4253
▁exert	-10.4253
▁execution	-10.4254
▁adhere	-10.4254
▁running	-10.4254
▁drivers	-10.4254
▁railway	-10.4255
▁Over	-10.4255
▁exemption	-10.4255
▁sphere	-10.4255
▁assert	-10.4255
▁approximate	-10.4255
▁shortage	-10.4256
▁Speci	-10.4256
▁40%	-10.4257
▁kinds	-10.4257
▁depart	-10.4258
▁medic	-10.4259
▁Canada	-10.4261
▁certainty	-10.4261
▁actors	-10.4261
▁bill	-10.4261
▁justified	-10.4262
▁gro	-10.4262
▁disadvantaged	-10.4264
▁WTO	-10.4266
▁city	-10.4267
▁whatever	-10.4275
▁transa	-10.4275
▁trial	-10.428
▁catch	-10.4281
▁determination	-10.4283
▁promised	-10.4283
▁harmonised	-10.4286
▁Lat	-10.4286
▁EP	-10.4291
▁meat	-10.4295
▁items	-10.4296
▁solved	-10.43
▁desired	-10.43
▁friendly	-10.4306
ncy	-10.4306
▁economically	-10.4309
▁realised	-10.4318
▁top	-10.4321
▁succeeded	-10.4331
▁badly	-10.4335
▁vessels	-10.4338
▁parents	-10.4338
▁suggested	-10.4349
▁weapons	-10.4351
respective	-10.4358
▁prospects	-10.4364
▁ma	-10.4381
rate	-10.4383
▁joined	-10.4385
▁efficiently	-10.4393
▁encouraged	-10.4403
▁previously	-10.4408
▁ministers	-10.4417
ending	-10.4452
▁31	-10.4478
▁declarations	-10.4496
▁checks	-10.4536
▁tra	-10.454
▁outer	-10.458
▁employ	-10.4597
▁prevented	-10.4597
▁exists	-10.4599
▁schools	-10.4617
▁covers	-10.4619
▁facilitat	-10.4678
▁dump	-10.4693
session	-10.4718
elect	-10.4774
stating	-10.4779
▁par	-10.4803
productive	-10.4825
▁follows	-10.4829
▁convention	-10.4846
▁minister	-10.4847
▁patient	-10.4852
▁victim	-10.4852
▁resource	-10.4853
▁Nation	-10.486
older	-10.4862
ube	-10.4871
tract	-10.4879
▁rais	-10.4886
▁assessments	-10.4904
oli	-10.4912
▁sell	-10.4925
▁movements	-10.4931
quality	-10.4947
precedent	-10.4951
what	-10.4954
▁motions	-10.4959
EU	-10.4961
▁treat	-10.4965
▁abandon	-10.4974
▁restor	-10.4997
UE	-10.4999
▁differ	-10.5019
▁initiat	-10.5019
▁extra	-10.5021
▁host	-10.5021
imbabwe	-10.5022
▁August	-10.5022
▁Consumer	-10.5022
▁EIB	-10.5022
▁Goals	-10.5022
▁Industry	-10.5022
▁Information	-10.5022
▁Obviously	-10.5022
▁Switzerland	-10.5022
▁VAT	-10.5022
▁blind	-10.5022
▁bureaucracy	-10.5022
▁collapse	-10.5022
▁complicated	-10.5022
▁discover	-10.5022
▁freight	-10.5022
▁hazardous	-10.5022
▁identity	-10.5022
▁inadequate	-10.5022
▁inclusive	-10.5022
▁jurisdiction	-10.5022
▁legitimacy	-10.5022
▁penalties	-10.5022
▁pharmaceutical	-10.5022
▁supplies	-10.5022
▁vegetables	-10.5022
▁volatility	-10.5022
▁Albania	-10.5022
▁accessible	-10.5022
▁ecological	-10.5022
▁lobby	-10.5022
▁regrettable	-10.5022
▁resident	-10.5022
load	-10.5022
▁convey	-10.5022
▁justify	-10.5022
▁Syria	-10.5022
▁birth	-10.5022
▁buy	-10.5022
▁occurred	-10.5022
▁entrepreneurs	-10.5022
▁below	-10.5022
▁Day	-10.5022
▁textile	-10.5022
▁translate	-10.5022
▁interference	-10.5022
upport	-10.5022
▁chemicals	-10.5022
▁mitigat	-10.5022
▁solid	-10.5022
▁drop	-10.5022
▁repression	-10.5023
▁foremost	-10.5023
uestion	-10.5023
▁proactive	-10.5023
nternal	-10.5024
▁beneficiaries	-10.5024
titude	-10.5024
NG	-10.5024
▁coast	-10.5025
▁deprived	-10.5025
▁extraordinar	-10.5025
▁massive	-10.5026
▁cities	-10.5026
▁Equality	-10.5026
▁30%	-10.5029
▁map	-10.503
▁obliged	-10.5031
▁fit	-10.5032
▁viable	-10.5033
▁weaken	-10.5034
▁Sweden	-10.5034
▁openness	-10.5036
▁Canc	-10.5037
▁deni	-10.5039
▁described	-10.5039
▁protectionism	-10.5042
▁surprised	-10.5043
ility	-10.5043
▁0.	-10.5045
▁logical	-10.5048
▁organise	-10.5051
▁indicator	-10.5053
▁candidates	-10.5058
▁ideal	-10.5064
▁banned	-10.5064
▁unity	-10.5066
▁location	-10.5071
▁channels	-10.5071
▁endorsed	-10.5075
iness	-10.5076
▁determined	-10.5076
▁Dat	-10.5077
▁migrants	-10.5086
▁pesticides	-10.5086
▁Israeli	-10.5087
▁registered	-10.5088
ues	-10.5091
▁fate	-10.5092
tergovernmental	-10.5112
▁publication	-10.5113
▁stepp	-10.5116
▁Liberals	-10.5128
▁journalists	-10.5128
▁Kar	-10.5155
▁eat	-10.5171
▁Sta	-10.5188
▁pursue	-10.5197
▁wages	-10.5228
▁courts	-10.5257
ather	-10.5272
▁achievements	-10.5272
▁Budgets	-10.5286
▁apart	-10.5287
▁pressing	-10.5309
▁joining	-10.5318
▁Je	-10.5332
▁Hav	-10.5343
▁delegations	-10.5359
▁opened	-10.5372
tive	-10.538
▁Pr	-10.5383
ix	-10.5386
ski	-10.5407
▁Pre	-10.5419
▁trouble	-10.5424
▁periods	-10.5457
umb	-10.5462
▁straight	-10.5464
▁grounds	-10.549
▁stands	-10.554
▁indicat	-10.5571
aj	-10.5608
hip	-10.5668
▁prefer	-10.5673
▁undertaking	-10.5678
▁vehicle	-10.5684
▁material	-10.5686
▁emission	-10.5689
▁stipulate	-10.569
governmental	-10.57
▁pollut	-10.5703
▁CE	-10.5714
ception	-10.5737
▁pan	-10.5737
2010	-10.5746
oto	-10.575
look	-10.5781
General	-10.5785
carbon	-10.5786
free	-10.5787
country	-10.5787
▁replac	-10.5806
▁arrest	-10.5807
rre	-10.5817
▁arrive	-10.583
fully	-10.583
▁collect	-10.5848
▁teach	-10.5852
▁Haiti	-10.5852
▁appoint	-10.5852
▁prior	-10.5853
▁systematic	-10.5853
▁chair	-10.5854
▁mater	-10.5855
▁equivalen	-10.5855
▁prompt	-10.5855
AIDS	-10.5855
compatible	-10.5855
▁Arctic	-10.5855
▁English	-10.5855
▁Estonia	-10.5855
▁NGOs	-10.5855
▁Obama	-10.5855
▁Resolution	-10.5855
▁Schulz	-10.5855
▁Stockholm	-10.5855
▁Tourism	-10.5855
▁afraid	-10.5855
▁anniversary	-10.5855
▁battle	-10.5855
▁compulsory	-10.5855
▁consistency	-10.5855
▁continuous	-10.5855
▁controvers	-10.5855
▁delicate	-10.5855
▁dioxi	-10.5855
▁earthquake	-10.5855
▁exacerbate	-10.5855
▁familiar	-10.5855
▁feature	-10.5855
▁frank	-10.5855
▁heavily	-10.5855
▁loans	-10.5855
▁prevail	-10.5855
▁procurement	-10.5855
▁rescue	-10.5855
▁satellite	-10.5855
▁solving	-10.5855
▁stabilis	-10.5855
▁stream	-10.5855
▁strike	-10.5855
▁transposition	-10.5855
▁virtu	-10.5855
▁website	-10.5855
▁whatsoever	-10.5855
▁Join	-10.5855
▁earth	-10.5855
▁towns	-10.5855
▁variety	-10.5855
▁attach	-10.5855
▁remit	-10.5855
▁room	-10.5855
▁shortcomings	-10.5855
▁ruling	-10.5855
▁housing	-10.5855
▁rape	-10.5855
ugoslav	-10.5855
▁misleading	-10.5855
▁spring	-10.5855
▁multiannual	-10.5856
▁Under	-10.5856
▁adver	-10.5856
▁stance	-10.5856
▁stake	-10.5856
▁concentration	-10.5856
▁demonstration	-10.5856
▁foot	-10.5857
▁detention	-10.5857
▁149	-10.5858
▁persecution	-10.5858
▁PSE	-10.5858
▁understood	-10.5859
▁deadline	-10.5859
▁employers	-10.5859
logue	-10.5859
▁transit	-10.586
▁instability	-10.586
▁overlook	-10.5861
▁Wall	-10.5861
▁eliminati	-10.5862
▁Lef	-10.5865
▁fourth	-10.5867
AS	-10.5867
▁dead	-10.587
▁satisfactory	-10.5871
▁planet	-10.5874
▁reflection	-10.5876
▁refused	-10.5878
▁fields	-10.5881
▁incorporated	-10.5883
rning	-10.5884
▁gradually	-10.5884
▁adaptation	-10.5885
▁threatened	-10.5886
▁wind	-10.5887
▁players	-10.5888
mar	-10.5896
▁humanity	-10.591
▁Romanian	-10.5911
ssil	-10.5926
▁Centre	-10.5928
▁reinforced	-10.5929
▁rac	-10.5932
nel	-10.5932
▁Ky	-10.5934
gue	-10.5938
▁demonstrated	-10.5943
▁mobilise	-10.5944
▁financed	-10.5956
▁components	-10.5956
▁launched	-10.5956
▁approaches	-10.596
▁Ac	-10.5962
▁smaller	-10.5963
▁handl	-10.5969
▁minors	-10.5987
ank	-10.5987
▁transferr	-10.5987
▁experienced	-10.5994
▁accelerate	-10.5994
▁complying	-10.5995
dom	-10.6028
▁fairly	-10.6035
▁ones	-10.6037
port	-10.6058
▁extended	-10.6069
ury	-10.6078
▁surely	-10.6084
▁guaranteed	-10.6095
▁29	-10.6105
aking	-10.6106
FP	-10.6121
▁pillars	-10.6128
▁arguments	-10.6128
right	-10.6149
▁Office	-10.616
▁bann	-10.6197
TA	-10.6213
une	-10.6231
▁centres	-10.6239
▁debts	-10.6255
ula	-10.6268
▁abuses	-10.6271
▁consultations	-10.6272
unch	-10.634
off	-10.6373
▁fuels	-10.6383
CC	-10.6397
ita	-10.6405
bling	-10.6418
▁provider	-10.6421
▁shoulder	-10.6426
owing	-10.6431
▁plu	-10.6434
rang	-10.6446
za	-10.6455
ham	-10.6468
▁gen	-10.6473
building	-10.6552
nts	-10.6581
▁margin	-10.6588
▁forum	-10.6592
▁debated	-10.6595
▁flow	-10.6606
▁defin	-10.6614
nth	-10.6625
▁ignor	-10.6639
▁firms	-10.6662
EN	-10.6674
▁Mos	-10.6685
direct	-10.6696
cultural	-10.6696
J	-10.6696
back	-10.6697
▁resolv	-10.67
▁handle	-10.6706
new	-10.6712
▁draftsm	-10.6713
▁surprise	-10.6739
▁declare	-10.6739
▁regulate	-10.674
▁refuse	-10.674
▁Part	-10.6745
▁strength	-10.6758
▁anticipat	-10.676
▁except	-10.676
▁speculat	-10.676
▁electric	-10.6762
petition	-10.6762
tradition	-10.6763
▁uncertain	-10.6763
losing	-10.6764
▁Because	-10.6764
▁Belgium	-10.6764
▁Mexico	-10.6764
▁Neighbourhood	-10.6764
▁Treaties	-10.6764
▁Venezuela	-10.6764
▁activists	-10.6764
▁article	-10.6764
▁artificial	-10.6764
▁broke	-10.6764
▁calculat	-10.6764
▁coherence	-10.6764
▁competitors	-10.6764
▁denounc	-10.6764
▁deploy	-10.6764
▁desirable	-10.6764
▁diverse	-10.6764
▁drink	-10.6764
▁earmark	-10.6764
▁encounter	-10.6764
▁estimates	-10.6764
▁eurozone	-10.6764
▁everywhere	-10.6764
▁evident	-10.6764
▁expensive	-10.6764
▁horizontal	-10.6764
▁immunity	-10.6764
▁implications	-10.6764
▁modified	-10.6764
▁newspaper	-10.6764
▁overwhelming	-10.6764
▁platform	-10.6764
▁pleasure	-10.6764
▁possibly	-10.6764
▁ratify	-10.6764
▁reconciliation	-10.6764
▁schedule	-10.6764
▁silence	-10.6764
▁stringent	-10.6764
▁suspect	-10.6764
▁swift	-10.6764
▁tape	-10.6764
▁tariff	-10.6764
▁tragic	-10.6764
▁tremendous	-10.6764
▁Dimas	-10.6764
▁Just	-10.6764
▁SIS	-10.6764
▁lift	-10.6764
▁pilot	-10.6764
▁Open	-10.6764
▁violate	-10.6764
▁stick	-10.6764
▁sheep	-10.6764
▁Iceland	-10.6764
▁Otherwise	-10.6764
▁redundan	-10.6764
▁Martin	-10.6764
▁Brok	-10.6764
▁2007-2013	-10.6764
▁merg	-10.6765
▁codecision	-10.6765
▁inequality	-10.6765
▁torture	-10.6765
▁cancer	-10.6765
▁opposite	-10.6765
▁recycl	-10.6766
▁Belarusian	-10.6767
▁bound	-10.6768
▁distortion	-10.6768
▁Herzegovina	-10.6768
▁lawyer	-10.6768
▁attractive	-10.6769
▁collection	-10.6769
▁prisoners	-10.6769
▁fill	-10.6769
▁universities	-10.6769
▁consequently	-10.677
gging	-10.6771
▁treaties	-10.6773
▁Institute	-10.6774
▁Mercosur	-10.6775
▁letter	-10.6775
▁prescription	-10.6776
▁apparently	-10.6777
▁Atlantic	-10.6779
liability	-10.678
▁violent	-10.6781
▁era	-10.6781
▁cooperating	-10.6783
▁deepen	-10.6785
▁Chair	-10.6787
arcel	-10.6789
▁patterns	-10.679
▁She	-10.6794
▁bus	-10.6795
▁shape	-10.6796
▁tighten	-10.6797
▁consult	-10.6799
▁moreover	-10.68
▁observed	-10.6801
▁Bulgarian	-10.6805
▁aspirations	-10.6807
▁havens	-10.6811
▁acknowledge	-10.6812
▁functional	-10.6814
▁Far	-10.6815
▁usual	-10.6816
▁habit	-10.6819
▁participat	-10.6828
▁combine	-10.6831
▁counterfeiting	-10.6834
▁recommended	-10.6839
▁reservations	-10.6841
▁representation	-10.6845
▁ignored	-10.6847
▁precedent	-10.6854
▁reserves	-10.6855
▁indicated	-10.6857
lingu	-10.6857
▁completed	-10.6876
▁selling	-10.6881
▁suggestions	-10.6892
▁sufficiently	-10.6902
▁house	-10.6905
▁margins	-10.6943
▁qua	-10.6965
tak	-10.6965
start	-10.6975
▁conventions	-10.6978
▁Whi	-10.6994
▁van	-10.7
▁Ga	-10.7005
▁enforce	-10.7014
▁forests	-10.703
▁plac	-10.7048
▁ports	-10.7063
▁disputes	-10.7064
▁199	-10.7081
▁compete	-10.7088
▁potentially	-10.71
▁ver	-10.7105
▁blocks	-10.7134
▁standing	-10.7173
▁compare	-10.7182
worthy	-10.7244
ron	-10.7275
4%	-10.7281
▁relationships	-10.7293
connected	-10.7316
▁ensured	-10.741
▁hid	-10.7445
▁satisf	-10.7453
mination	-10.746
ria	-10.7495
grad	-10.7531
6%	-10.7568
▁sale	-10.7587
▁incentive	-10.7591
▁hundred	-10.7592
▁student	-10.7592
▁airline	-10.7593
▁transaction	-10.7593
▁combin	-10.7616
▁produc	-10.7643
▁Slovak	-10.766
national	-10.7663
standing	-10.7676
▁stock	-10.7692
▁Tak	-10.7695
2006	-10.7696
emen	-10.7725
life	-10.773
year	-10.7738
▁stimul	-10.7739
▁legislat	-10.7739
gui	-10.7745
▁necessar	-10.7745
cor	-10.7749
▁Lithuania	-10.7752
matic	-10.7754
rew	-10.7754
cap	-10.7754
▁sustain	-10.7757
▁sen	-10.7757
▁medicin	-10.7757
▁suit	-10.7759
▁avail	-10.7759
▁compli	-10.7762
▁educat	-10.7762
▁valid	-10.7762
tribute	-10.7763
anagement	-10.7764
▁black	-10.7764
Cypriot	-10.7764
book	-10.7764
▁Asylum	-10.7764
▁Barnier	-10.7764
▁Business	-10.7764
▁Change	-10.7764
▁Decision	-10.7764
▁Employment	-10.7764
▁Lukashenko	-10.7764
▁Luxembourg	-10.7764
▁Nabucco	-10.7764
▁Naturally	-10.7764
▁OLAF	-10.7764
▁PNR	-10.7764
▁Secretary	-10.7764
▁Through	-10.7764
▁Wednesday	-10.7764
▁bureaucratic	-10.7764
▁disastrous	-10.7764
▁disparit	-10.7764
▁eligibility	-10.7764
▁engine	-10.7764
▁expansion	-10.7764
▁flights	-10.7764
▁fragment	-10.7764
▁genetic	-10.7764
▁imagine	-10.7764
▁imperative	-10.7764
▁imperialis	-10.7764
▁jeopardise	-10.7764
▁marriage	-10.7764
▁mobile	-10.7764
▁quarter	-10.7764
▁reaffirm	-10.7764
▁reconstruction	-10.7764
▁redress	-10.7764
▁registra	-10.7764
▁remote	-10.7764
▁removing	-10.7764
▁scenario	-10.7764
▁scientist	-10.7764
▁streets	-10.7764
▁subsidies	-10.7764
▁yourself	-10.7764
▁afternoon	-10.7764
▁neglect	-10.7764
▁utilise	-10.7764
▁yield	-10.7764
▁crops	-10.7764
▁imprison	-10.7764
▁renewed	-10.7764
▁resort	-10.7764
▁Clear	-10.7764
▁internet	-10.7764
▁blow	-10.7764
▁exceed	-10.7764
▁false	-10.7764
▁preserv	-10.7764
▁harsh	-10.7764
▁reverse	-10.7764
▁uphold	-10.7764
▁cease	-10.7764
▁begun	-10.7764
▁roll	-10.7764
▁consent	-10.7764
fresh	-10.7764
truck	-10.7764
ology	-10.7764
▁insult	-10.7764
▁closure	-10.7764
▁distinction	-10.7764
▁assets	-10.7765
▁airspace	-10.7765
▁Kurdish	-10.7765
▁rare	-10.7765
▁cycle	-10.7765
▁division	-10.7765
▁merit	-10.7765
▁rational	-10.7765
▁summer	-10.7765
▁deregulation	-10.7765
▁observers	-10.7765
▁petitions	-10.7765
▁Monday	-10.7765
▁compensation	-10.7766
▁fruitful	-10.7766
▁2003	-10.7766
▁attend	-10.7766
▁wall	-10.7767
▁Rome	-10.7767
▁decline	-10.7767
▁donor	-10.7767
▁flag	-10.7767
▁1990	-10.7768
▁park	-10.7768
issile	-10.7768
▁travelling	-10.7768
▁extremist	-10.7768
▁appointment	-10.7768
▁born	-10.7768
▁cul	-10.7768
▁28	-10.7769
▁capitalism	-10.7769
▁discipline	-10.7769
▁missing	-10.7769
▁mor	-10.777
▁Er	-10.777
IMF	-10.7771
▁Conce	-10.7771
iversification	-10.7773
▁whereby	-10.7773
▁entitled	-10.7773
▁worldwide	-10.7774
▁vary	-10.7774
▁outstanding	-10.7775
▁survival	-10.7775
tress	-10.7776
▁hence	-10.7777
came	-10.7777
▁bigge	-10.7778
▁distort	-10.7779
▁engagement	-10.7782
mposition	-10.7783
throw	-10.7784
▁satisfy	-10.7785
▁frequently	-10.7787
▁faster	-10.7789
▁stimulate	-10.779
▁surrounding	-10.779
▁fixed	-10.7792
log	-10.7793
▁expos	-10.7801
▁EGF	-10.7806
▁commissioner	-10.7807
▁controlled	-10.7808
▁seri	-10.7808
▁biofuels	-10.7812
▁constituents	-10.7812
▁negotiated	-10.7813
ko	-10.7815
▁noise	-10.7817
▁abandoned	-10.7827
▁presentation	-10.7827
▁Th	-10.783
▁fisher	-10.7839
▁combined	-10.784
▁thoroughly	-10.7841
▁delivered	-10.7852
going	-10.7857
▁assessed	-10.7867
CR	-10.787
▁Ben	-10.7872
▁consistently	-10.7883
▁withdrawn	-10.7885
▁initially	-10.7887
zh	-10.7896
▁fires	-10.7906
▁remarks	-10.7906
▁larger	-10.7912
ferred	-10.7939
▁sales	-10.7944
▁characterise	-10.7953
▁Ne	-10.7977
vast	-10.7977
▁undertakings	-10.7983
▁promoted	-10.7999
▁funded	-10.8012
15	-10.8015
▁appropriately	-10.8023
▁75	-10.8035
3%	-10.8042
▁obs	-10.8051
DG	-10.8056
▁tackl	-10.8075
▁artist	-10.8091
▁demanded	-10.8101
▁showed	-10.8118
▁formulate	-10.8353
▁compensate	-10.8401
▁Seve	-10.8418
▁Nu	-10.8465
▁issu	-10.847
▁seeker	-10.8482
lete	-10.8512
▁exception	-10.8561
▁reinforc	-10.857
30	-10.8586
tention	-10.8592
95	-10.8678
uz	-10.8684
▁minor	-10.8698
▁occasion	-10.8702
▁error	-10.8702
▁deserve	-10.8703
▁prospect	-10.8703
▁figure	-10.8703
▁accident	-10.8704
▁decade	-10.8704
▁airport	-10.8704
▁passenger	-10.8705
▁Democrat	-10.8707
▁rid	-10.872
▁medicine	-10.8726
pproval	-10.8728
▁prioritise	-10.8732
▁foundation	-10.8736
▁producer	-10.8758
IA	-10.8776
▁complet	-10.8782
fect	-10.8802
location	-10.8803
produc	-10.8804
amount	-10.8807
effective	-10.8807
political	-10.8807
2009	-10.8808
think	-10.8812
▁charg	-10.882
For	-10.8827
▁temp	-10.883
▁gradual	-10.8836
▁describe	-10.885
▁remove	-10.8851
▁consolidate	-10.8862
▁Cuba	-10.8863
▁acc	-10.8865
▁object	-10.8868
even	-10.8871
▁electora	-10.8871
▁delegat	-10.8871
▁disagree	-10.8872
▁excess	-10.8872
▁consist	-10.8873
hether	-10.8874
▁sovereign	-10.8874
▁interfere	-10.8875
▁smooth	-10.8875
▁stead	-10.8875
▁accurate	-10.8875
▁ethical	-10.8875
▁profound	-10.8875
▁reintegrati	-10.8875
▁surplus	-10.8875
▁twenty	-10.8875
▁typical	-10.8875
sceptic	-10.8875
visible	-10.8875
▁Association	-10.8875
▁Bureau	-10.8875
▁College	-10.8875
▁Conservative	-10.8875
▁Criminal	-10.8875
▁Declaration	-10.8875
▁Director	-10.8875
▁Dutch	-10.8875
▁Education	-10.8875
▁Geneva	-10.8875
▁Guinea	-10.8875
▁Latvia	-10.8875
▁Meanwhile	-10.8875
▁Memor	-10.8875
▁Reform	-10.8875
▁Tajani	-10.8875
▁Uganda	-10.8875
▁Ukrainian	-10.8875
▁applaud	-10.8875
▁assembly	-10.8875
▁broadband	-10.8875
▁ceiling	-10.8875
▁confident	-10.8875
▁conviction	-10.8875
▁deforestation	-10.8875
▁desperate	-10.8875
▁diminish	-10.8875
▁easily	-10.8875
▁facility	-10.8875
▁hinder	-10.8875
▁hospital	-10.8875
▁inhuman	-10.8875
▁innocent	-10.8875
▁intelligent	-10.8875
▁landscape	-10.8875
▁licence	-10.8875
▁lifestyle	-10.8875
▁logistic	-10.8875
▁monopolies	-10.8875
▁mountain	-10.8875
▁orientation	-10.8875
▁picture	-10.8875
▁precondition	-10.8875
▁pretext	-10.8875
▁protocol	-10.8875
▁reconcil	-10.8875
▁removal	-10.8875
▁statute	-10.8875
▁territories	-10.8875
▁weaknesses	-10.8875
▁zero	-10.8875
commerce	-10.8875
▁GSP	-10.8875
▁Hamas	-10.8875
▁Tax	-10.8875
▁alarming	-10.8875
▁communicate	-10.8875
▁shock	-10.8875
▁undoubtedly	-10.8875
▁unique	-10.8875
▁142)	-10.8875
▁rush	-10.8875
▁clarifie	-10.8875
▁insight	-10.8875
▁utmost	-10.8875
▁isolated	-10.8875
▁decrease	-10.8875
▁brutal	-10.8875
▁tensions	-10.8875
▁indications	-10.8875
▁banana	-10.8875
▁girl	-10.8875
ACTA	-10.8875
▁congratulations	-10.8875
▁elite	-10.8875
tolerable	-10.8875
▁arms	-10.8876
asmus	-10.8876
▁metres	-10.8876
▁timetable	-10.8876
▁burn	-10.8876
▁deny	-10.8876
▁shame	-10.8876
▁rigorous	-10.8876
▁eliminating	-10.8876
▁Chairman	-10.8876
▁luck	-10.8877
▁198	-10.8877
▁reciprocity	-10.8877
▁river	-10.8877
▁racism	-10.8877
▁passport	-10.8877
▁executive	-10.8877
▁units	-10.8877
▁gather	-10.8877
▁wake	-10.8877
▁EPA	-10.8878
▁Doha	-10.8878
▁sake	-10.8878
▁Workers	-10.8878
▁Chad	-10.8879
▁commodities	-10.8879
eimer	-10.8879
▁weight	-10.8879
▁settlement	-10.888
ND	-10.888
▁spare	-10.8881
▁2002	-10.8881
▁readmission	-10.8881
▁complexity	-10.8881
▁dependence	-10.8882
▁admitted	-10.8883
▁waiv	-10.8883
▁dictator	-10.8885
uate	-10.8885
▁permitted	-10.8885
▁update	-10.8885
▁ball	-10.8886
▁autonomy	-10.8886
▁150	-10.8886
▁deliberately	-10.8887
▁comparable	-10.8887
phone	-10.8889
▁cope	-10.889
▁unemployed	-10.8891
▁criticised	-10.8892
▁integral	-10.8895
▁pity	-10.8896
ella	-10.8898
▁recall	-10.8899
▁evaluate	-10.89
▁legislator	-10.8901
audi	-10.8903
▁accountability	-10.8906
▁preserve	-10.8907
▁deriv	-10.8907
▁arrived	-10.891
▁abstained	-10.8912
▁killed	-10.8914
▁Nord	-10.8917
▁delivery	-10.8917
▁released	-10.8919
acy	-10.8923
▁invit	-10.8925
▁dual	-10.8927
▁inflation	-10.8934
▁arrested	-10.894
▁2%	-10.8946
▁acknowledged	-10.8949
▁bit	-10.8952
▁Mus	-10.8956
pil	-10.8957
▁falsifi	-10.8963
▁doors	-10.8965
▁3%	-10.8965
▁infectio	-10.8965
▁assurance	-10.8966
▁focuses	-10.8969
▁fleets	-10.8993
▁seal	-10.9002
▁camps	-10.9014
▁lea	-10.9019
▁gained	-10.9026
▁authoris	-10.9032
▁monitored	-10.9044
▁rebuild	-10.9054
▁accordingly	-10.9075
redit	-10.9083
▁Br	-10.9086
▁moved	-10.9097
▁Gra	-10.9114
▁postpone	-10.9182
RE	-10.9193
▁Ni	-10.926
mag	-10.9373
lim	-10.9386
000	-10.9394
ava	-10.94
gle	-10.9519
GB	-10.9583
MO	-10.9603
xic	-10.9647
▁stra	-10.9737
▁cre	-10.9772
col	-10.9859
▁appreciat	-10.9868
▁unifi	-10.9898
▁manag	-10.9928
▁remark	-10.995
▁Liberal	-10.9951
▁journalist	-10.9951
▁weapon	-10.9951
down	-10.9951
▁obstacle	-10.9953
▁lie	-10.9955
▁station	-10.9956
▁suggestion	-10.9965
▁acknowledg	-10.9976
▁fire	-10.9983
▁pu	-10.9985
▁counterfeit	-11.0028
Europe	-11.0054
friendly	-11.0055
efficient	-11.0057
discrimination	-11.0062
▁skill	-11.0076
▁finish	-11.0077
▁cra	-11.0086
▁celebrat	-11.0094
▁withdraw	-11.0095
▁fee	-11.0103
▁threaten	-11.0104
▁quick	-11.0105
▁flee	-11.0113
▁undertake	-11.0114
▁harmonise	-11.0114
▁categor	-11.0118
▁universit	-11.0118
▁commend	-11.012
▁persecut	-11.0121
▁exempt	-11.0121
▁adjust	-11.0122
▁Tibet	-11.0122
▁prosper	-11.0123
eace	-11.0124
trategic	-11.0124
▁Work	-11.0124
guard	-11.0125
▁hydro	-11.0125
▁Trans	-11.0125
▁suspen	-11.0125
▁Fourth	-11.0125
▁Similar	-11.0125
▁simultaneous	-11.0125
▁sudden	-11.0125
ortunately	-11.0125
▁HIV	-11.0125
▁Particular	-11.0125
▁alleged	-11.0125
▁automo	-11.0125
▁distinguish	-11.0125
▁enshrin	-11.0125
▁manifest	-11.0125
▁resolute	-11.0125
▁unlike	-11.0125
Innovation	-11.0125
▁Caucasus	-11.0125
▁Certain	-11.0125
▁Children	-11.0125
▁Darfur	-11.0125
▁Eurojust	-11.0125
▁Galileo	-11.0125
▁Mauritania	-11.0125
▁Morocco	-11.0125
▁OECD	-11.0125
▁Olympic	-11.0125
▁Prize	-11.0125
▁Refugee	-11.0125
▁Rompuy	-11.0125
▁Sarkozy	-11.0125
▁Taiwan	-11.0125
▁Taliban	-11.0125
▁abroad	-11.0125
▁advice	-11.0125
▁apologise	-11.0125
▁aquaculture	-11.0125
▁blame	-11.0125
▁certification	-11.0125
▁clarity	-11.0125
▁collaboration	-11.0125
▁constraints	-11.0125
▁coordinator	-11.0125
▁copyright	-11.0125
▁corridor	-11.0125
▁dependency	-11.0125
▁diagnosis	-11.0125
▁dismantle	-11.0125
▁disregard	-11.0125
▁faith	-11.0125
▁guilt	-11.0125
▁household	-11.0125
▁inappropriate	-11.0125
▁incomplete	-11.0125
▁incredibl	-11.0125
▁livelihood	-11.0125
▁loophole	-11.0125
▁marginalised	-11.0125
▁minimis	-11.0125
▁parallel	-11.0125
▁persuade	-11.0125
▁programming	-11.0125
▁recital	-11.0125
▁regulating	-11.0125
▁remedy	-11.0125
▁scrutiny	-11.0125
▁shipyards	-11.0125
▁switch	-11.0125
▁synergies	-11.0125
▁tsunami	-11.0125
▁identification	-11.0125
▁soldiers	-11.0125
▁contamination	-11.0125
▁equipped	-11.0125
▁escape	-11.0125
▁film	-11.0125
▁storm	-11.0125
▁taught	-11.0125
▁Guant	-11.0125
▁Who	-11.0125
▁belief	-11.0125
▁distance	-11.0125
▁translation	-11.0125
dominant	-11.0125
▁seize	-11.0125
▁suspended	-11.0125
▁Time	-11.0125
▁offences	-11.0125
▁adult	-11.0126
▁dictatorship	-11.0126
▁secretariat	-11.0126
▁precaution	-11.0126
▁isolation	-11.0126
▁nine	-11.0126
loy	-11.0126
▁strange	-11.0126
▁deem	-11.0126
recast	-11.0126
▁automatically	-11.0126
▁Great	-11.0126
▁organis	-11.0126
▁intense	-11.0126
▁chairman	-11.0127
▁dying	-11.0127
▁1997	-11.0127
▁2015	-11.0127
namo	-11.0127
▁wound	-11.0127
▁composition	-11.0127
▁separation	-11.0128
▁grand	-11.0128
▁mental	-11.0128
▁systematically	-11.0128
▁extract	-11.0128
▁Mich	-11.0128
▁Tibetan	-11.0128
▁contradiction	-11.0128
▁2001	-11.0129
▁scandalous	-11.0129
▁atmosphere	-11.0129
ILO	-11.013
▁indig	-11.013
▁middle	-11.013
▁reactors	-11.013
▁197	-11.013
▁objection	-11.013
▁modernisation	-11.013
▁generous	-11.013
▁diet	-11.013
▁cent	-11.013
▁quantities	-11.0131
▁remarkable	-11.0131
nnouncement	-11.0131
▁punishment	-11.0131
▁nonetheless	-11.0131
▁realities	-11.0132
▁categories	-11.0132
▁hopefully	-11.0133
▁pace	-11.0134
▁195	-11.0134
▁eco	-11.0134
▁TV	-11.0135
▁fu	-11.0136
▁USA	-11.0137
▁disgraceful	-11.0137
▁Gold	-11.0137
bundl	-11.0138
incomprehensible	-11.0138
ould	-11.0139
▁rejection	-11.0139
▁ven	-11.0139
▁invite	-11.0139
▁civilisation	-11.014
▁continuation	-11.014
▁popular	-11.014
▁Lithuanian	-11.014
▁citizenship	-11.0141
▁justification	-11.0142
▁tolerance	-11.015
▁federal	-11.015
▁defenders	-11.0151
▁voters	-11.0155
▁celebrate	-11.0157
▁volunteering	-11.0159
▁Much	-11.016
▁influ	-11.0168
zk	-11.0169
▁assumption	-11.0172
▁finished	-11.0174
▁makers	-11.0176
SE	-11.0177
▁lu	-11.0179
▁assured	-11.0185
ork	-11.0186
▁consolidated	-11.019
▁fairer	-11.0194
▁consulted	-11.0196
▁formula	-11.0197
▁decisively	-11.0203
▁sooner	-11.0211
▁pledge	-11.022
▁died	-11.023
▁separately	-11.023
▁normally	-11.024
tar	-11.0251
▁quote	-11.0269
▁meant	-11.0293
Montenegro	-11.0315
▁career	-11.0335
▁secur	-11.0343
berg	-11.0347
generat	-11.0396
▁interconnect	-11.0419
▁Lu	-11.0434
▁won	-11.0441
▁mus	-11.0445
▁carrier	-11.0462
2%	-11.0511
▁challeng	-11.052
rious	-11.0521
▁bold	-11.0544
▁breach	-11.0603
05	-11.071
▁purchase	-11.0756
▁35	-11.0928
▁breache	-11.103
▁controll	-11.104
orrections	-11.1068
▁gener	-11.1097
lac	-11.1151
▁postpon	-11.1167
▁Ki	-11.1178
nyone	-11.12
▁art	-11.1285
27	-11.1299
▁accelerat	-11.1312
▁undermin	-11.1336
▁camp	-11.1376
▁Georgi	-11.1377
▁component	-11.1379
▁vessel	-11.138
▁operator	-11.1382
▁taxpayer	-11.1383
▁SME	-11.1383
▁parent	-11.1384
▁commun	-11.1407
llow	-11.1456
istan	-11.1458
▁receiv	-11.1466
minute	-11.1484
Mediterranean	-11.1485
took	-11.1485
compliance	-11.1489
democratic	-11.1491
sumption	-11.1499
▁logic	-11.1504
aki	-11.1506
▁abstain	-11.1506
but	-11.1512
▁slight	-11.1514
cow	-11.1514
▁aggre	-11.1516
▁procedur	-11.1529
▁disadvantage	-11.1529
stitute	-11.1537
▁Minist	-11.1541
cific	-11.1546
▁70	-11.1548
▁Access	-11.155
▁scandal	-11.155
educ	-11.1551
▁frame	-11.1554
7-02	-11.1554
Agricultur	-11.1554
▁Other	-11.1554
▁socio	-11.1554
▁night	-11.1554
▁unconditional	-11.1554
▁unilateral	-11.1554
Bendit	-11.1554
Sahara	-11.1554
metric	-11.1554
unreasonable	-11.1554
▁2014	-11.1554
▁2050	-11.1554
▁Communist	-11.1554
▁Consequently	-11.1554
▁Democracy	-11.1554
▁Federation	-11.1554
▁Instrument	-11.1554
▁Lynne	-11.1554
▁Madagascar	-11.1554
▁McCreevy	-11.1554
▁Measures	-11.1554
▁Network	-11.1554
▁Oettinger	-11.1554
▁Ossetia	-11.1554
▁Please	-11.1554
▁Product	-11.1554
▁SOLVIT	-11.1554
▁Society	-11.1554
▁Somalia	-11.1554
▁Stream	-11.1554
▁Verhofstadt	-11.1554
▁accommodat	-11.1554
▁anywhere	-11.1554
▁applicant	-11.1554
▁austerity	-11.1554
▁autumn	-11.1554
▁background	-11.1554
▁bacteri	-11.1554
▁blatant	-11.1554
▁capacities	-11.1554
▁catastrophe	-11.1554
▁catastrophic	-11.1554
▁childhood	-11.1554
▁clarification	-11.1554
▁concessions	-11.1554
▁condolence	-11.1554
▁contraven	-11.1554
▁coordinating	-11.1554
▁cruel	-11.1554
▁decentralis	-11.1554
▁definitive	-11.1554
▁democracies	-11.1554
▁derogation	-11.1554
▁disabilities	-11.1554
▁discourage	-11.1554
▁dominated	-11.1554
▁eligible	-11.1554
▁entail	-11.1554
▁flexicurity	-11.1554
▁frequency	-11.1554
▁frozen	-11.1554
▁hatred	-11.1554
▁hygiene	-11.1554
▁illustrate	-11.1554
▁immense	-11.1554
▁inconsistent	-11.1554
▁incorrect	-11.1554
▁interview	-11.1554
▁journey	-11.1554
▁liberties	-11.1554
▁nonsense	-11.1554
▁obligatory	-11.1554
▁occupie	-11.1554
▁oversight	-11.1554
▁perpetrated	-11.1554
▁pragmatic	-11.1554
▁privilege	-11.1554
▁proclaim	-11.1554
▁promising	-11.1554
▁reassure	-11.1554
▁recession	-11.1554
▁robust	-11.1554
▁sacrifice	-11.1554
▁screening	-11.1554
▁shield	-11.1554
▁slogan	-11.1554
▁smoking	-11.1554
▁subsidis	-11.1554
▁sugar	-11.1554
▁threshold	-11.1554
▁trialogue	-11.1554
▁unanimity	-11.1554
▁utilisation	-11.1554
▁vaccination	-11.1554
▁widespread	-11.1554
▁worried	-11.1554
▁Barrot	-11.1554
▁Strip	-11.1554
▁acquir	-11.1554
▁curb	-11.1554
▁dark	-11.1554
▁diplomacy	-11.1554
▁literally	-11.1554
▁piracy	-11.1554
▁premium	-11.1554
▁renewal	-11.1554
▁repair	-11.1554
▁shelter	-11.1554
▁summarise	-11.1554
▁surface	-11.1554
▁Border	-11.1554
▁Finland	-11.1554
▁bomb	-11.1554
▁conform	-11.1554
▁dream	-11.1554
▁modest	-11.1554
▁recruit	-11.1554
▁regain	-11.1554
▁compos	-11.1554
▁Life	-11.1554
▁smart	-11.1554
▁protein	-11.1554
▁overdue	-11.1554
oriented	-11.1554
▁stem	-11.1554
▁inquiry	-11.1554
▁Immigration	-11.1554
▁Prevent	-11.1554
▁alike	-11.1554
▁spell	-11.1554
▁dollar	-11.1554
▁Sak	-11.1554
tivation	-11.1554
▁story	-11.1554
▁scarce	-11.1554
▁Statu	-11.1554
▁entity	-11.1554
▁game	-11.1554
▁convert	-11.1554
▁shipping	-11.1554
ddiction	-11.1554
▁stopped	-11.1554
▁Eurogroup	-11.1554
▁characteristic	-11.1554
▁season	-11.1554
▁correlat	-11.1554
▁boundaries	-11.1554
▁demonstrators	-11.1554
▁abide	-11.1555
▁devastat	-11.1555
▁verification	-11.1555
▁allowances	-11.1555
▁acute	-11.1555
▁borrow	-11.1555
▁emotion	-11.1555
plication	-11.1555
▁Pole	-11.1555
▁telecom	-11.1555
▁1989	-11.1555
▁revolution	-11.1555
▁irresponsible	-11.1556
▁multiple	-11.1556
▁fifth	-11.1556
▁disseminat	-11.1556
▁donation	-11.1557
▁sick	-11.1557
opical	-11.1557
▁ECB	-11.1557
▁warn	-11.1557
▁halt	-11.1557
▁examination	-11.1557
▁rebel	-11.1558
▁forestry	-11.1558
▁disagreement	-11.1558
▁alleviate	-11.1558
▁fragile	-11.1558
▁owe	-11.1558
▁Iranian	-11.1558
entities	-11.1559
▁FTA	-11.1559
▁Pack	-11.156
▁electorate	-11.156
▁prejudice	-11.156
▁teachers	-11.156
▁discriminatory	-11.156
▁Berlin	-11.1561
▁reviv	-11.1562
▁transpos	-11.1563
stood	-11.1563
▁workplace	-11.1563
▁mediation	-11.1564
▁coll	-11.1564
▁bull	-11.1564
▁file	-11.1564
▁interim	-11.1565
▁assent	-11.1566
orium	-11.1567
▁customers	-11.1567
▁48	-11.1567
▁Vot	-11.1568
(5)	-11.1568
▁25%	-11.1568
▁upgrad	-11.1569
▁15%	-11.1569
▁incorporat	-11.157
▁confused	-11.1572
▁motivated	-11.1572
▁condemnation	-11.1572
▁Coh	-11.1573
▁reward	-11.1575
▁Recently	-11.1576
▁withdrawal	-11.1576
kakis	-11.1576
▁helpful	-11.1582
▁His	-11.1587
▁excluded	-11.1591
▁slightly	-11.1594
▁fallen	-11.1595
▁fulfilled	-11.1597
Casp	-11.1598
2010)	-11.1603
igation	-11.1603
▁mad	-11.1606
▁evaluated	-11.1614
▁argu	-11.1615
▁exclude	-11.1616
▁Croatian	-11.1618
▁researchers	-11.1623
▁topical	-11.1655
▁underestimate	-11.1656
▁undermined	-11.1661
▁Iraqi	-11.1673
▁Medi	-11.1694
verything	-11.1725
spire	-11.1736
ified	-11.1748
▁Ban	-11.1754
bert	-11.1763
▁exercis	-11.1785
mail	-11.1842
▁irregularit	-11.1889
hour	-11.1947
ection	-11.2014
▁32	-11.2103
▁Du	-11.2155
▁1.5	-11.2161
moon	-11.2193
ightened	-11.2232
ulation	-11.224
raftsman	-11.2258
▁196	-11.2319
bel	-11.2405
bor	-11.2412
11	-11.2465
09	-11.2471
▁heat	-11.2485
▁65	-11.2498
▁hop	-11.2592
▁45	-11.26
▁emergenc	-11.2688
63	-11.2703
▁engag	-11.2745
tries	-11.277
▁cit	-11.2862
owned	-11.2901
▁interact	-11.2909
▁requir	-11.2934
▁advise	-11.2937
IF	-11.2978
▁inspir	-11.3004
viation	-11.3039
▁saving	-11.3048
▁barrier	-11.3049
▁consul	-11.305
▁MEP	-11.3051
▁fleet	-11.3059
▁Fla	-11.3059
▁refugee	-11.3061
eau	-11.3073
mong	-11.3076
gainst	-11.3077
bove	-11.3083
nnual	-11.3084
ware	-11.3091
▁oppos	-11.3098
▁conclud	-11.31
▁integrat	-11.3118
▁decid	-11.3119
place	-11.3137
lateral	-11.3141
▁centralis	-11.3147
EGF	-11.3149
▁statistic	-11.3149
▁consolidat	-11.315
▁Nic	-11.315
determination	-11.315
catch	-11.315
▁harmonis	-11.3151
liberal	-11.3151
profit	-11.3151
month	-11.3151
2007	-11.3152
growing	-11.3152
people	-11.3153
board	-11.3155
▁shap	-11.3161
how	-11.3162
public	-11.3171
▁fix	-11.3175
rich	-11.3175
▁tim	-11.3179
▁frequent	-11.3181
▁ultimate	-11.3182
▁exact	-11.3182
▁unfortunate	-11.3183
judg	-11.3193
▁criticise	-11.3196
euro	-11.32
▁surviv	-11.3203
▁diversif	-11.3206
▁Scot	-11.3209
writ	-11.3209
▁recogni	-11.321
▁quantit	-11.3213
democrat	-11.3215
▁dedicat	-11.3216
▁contradict	-11.3216
ompanie	-11.3217
▁reciproc	-11.3218
▁resist	-11.3219
xplanation	-11.3219
stablish	-11.3219
ocuments	-11.3219
errorism	-11.3219
▁Afghan	-11.322
▁Franco	-11.3221
▁Ferrero	-11.3221
▁conscious	-11.3221
▁psych	-11.3221
ERDF	-11.3221
Together	-11.3221
signatories	-11.3221
▁Besides	-11.3221
▁Congress	-11.3221
▁Gaddafi	-11.3221
▁Harbour	-11.3221
▁John	-11.3221
▁Next	-11.3221
▁Nicaragua	-11.3221
▁School	-11.3221
▁Supervisor	-11.3221
▁Transparency	-11.3221
▁aircraft	-11.3221
▁auction	-11.3221
▁barbari	-11.3221
▁broadcasting	-11.3221
▁cells	-11.3221
▁cereal	-11.3221
▁circumvent	-11.3221
▁criterion	-11.3221
▁custody	-11.3221
▁deadlock	-11.3221
▁deplore	-11.3221
▁destination	-11.3221
▁devices	-11.3221
▁disappointed	-11.3221
▁displaced	-11.3221
▁display	-11.3221
▁divergen	-11.3221
▁enemy	-11.3221
▁enlarged	-11.3221
▁equity	-11.3221
▁frustrat	-11.3221
▁horror	-11.3221
▁husband	-11.3221
▁illusion	-11.3221
▁impunity	-11.3221
▁inevitable	-11.3221
▁ingredient	-11.3221
▁injuries	-11.3221
▁liberty	-11.3221
▁liquidity	-11.3221
▁manipulation	-11.3221
▁optimism	-11.3221
▁paradoxical	-11.3221
▁philosoph	-11.3221
▁prerequisite	-11.3221
▁prominent	-11.3221
▁recurr	-11.3221
▁rehabilitat	-11.3221
▁relief	-11.3221
▁scanners	-11.3221
▁sensitivit	-11.3221
▁slaughter	-11.3221
▁specified	-11.3221
▁sponsor	-11.3221
▁stereotypes	-11.3221
▁suppress	-11.3221
▁transformation	-11.3221
▁unavoidabl	-11.3221
▁unsustainable	-11.3221
▁unwanted	-11.3221
▁veterinar	-11.3221
▁vulnerability	-11.3221
▁wholehearted	-11.3221
▁xenophobia	-11.3221
▁cyber	-11.3221
▁distributed	-11.3221
▁echo	-11.3221
▁entrust	-11.3221
▁essence	-11.3221
▁exaggerat	-11.3221
▁exhaust	-11.3221
▁fingerprint	-11.3221
▁gesture	-11.3221
▁guardian	-11.3221
▁database	-11.3221
▁proportionality	-11.3221
▁Doyle	-11.3221
▁pact	-11.3221
▁summary	-11.3221
coupling	-11.3221
▁replie	-11.3221
▁Sometimes	-11.3221
▁enrich	-11.3221
▁killing	-11.3221
▁provocati	-11.3221
▁unjustified	-11.3221
▁David	-11.3221
▁nav	-11.3221
▁GMOs	-11.3221
▁obstruct	-11.3221
▁resettlement	-11.3221
▁embrac	-11.3221
▁Combat	-11.3221
▁Costa	-11.3221
▁Lanka	-11.3221
▁weekend	-11.3221
▁unrest	-11.3221
▁Fisc	-11.3221
▁ICT	-11.3221
▁profil	-11.3221
ailway	-11.3221
▁tolerate	-11.3221
▁Sky	-11.3221
▁alliance	-11.3221
▁contemp	-11.3221
▁soft	-11.3221
▁cofinancing	-11.3221
▁flagship	-11.3221
▁childcare	-11.3221
▁finger	-11.3221
▁tongue	-11.3221
Eurostat	-11.3221
▁Appe	-11.3221
▁colonial	-11.3221
▁multinational	-11.3221
▁tourist	-11.3222
▁praise	-11.3222
▁Kla	-11.3222
▁exposure	-11.3222
endency	-11.3222
▁renovation	-11.3222
▁pull	-11.3223
▁irre	-11.3223
▁resistance	-11.3223
▁Things	-11.3223
▁clever	-11.3223
▁shut	-11.3224
▁devis	-11.3224
▁Susta	-11.3224
▁capture	-11.3224
hould	-11.3224
▁Egyptian	-11.3224
▁awarded	-11.3225
▁outset	-11.3225
▁net	-11.3225
wise	-11.3225
▁Accession	-11.3226
▁Karas	-11.3226
comfort	-11.3226
▁corn	-11.3226
IMCO	-11.3226
▁Bali	-11.3226
▁cure	-11.3227
▁Haitian	-11.3227
▁pick	-11.3227
herent	-11.3228
▁commendable	-11.3228
▁limitations	-11.3229
▁anticipation	-11.3229
▁rectif	-11.3229
▁onwards	-11.3229
▁permission	-11.3229
▁hot	-11.323
▁coach	-11.323
▁fought	-11.323
▁victory	-11.323
▁drought	-11.323
▁facilitation	-11.3231
▁complementary	-11.3231
▁Reding	-11.3231
▁Scott	-11.3233
▁exit	-11.3235
▁ideology	-11.3236
beit	-11.3239
▁Cuban	-11.3239
SEC	-11.324
parliamentarians	-11.3243
interoperability	-11.3245
▁Jan	-11.3249
▁anyway	-11.3256
meter	-11.3259
▁oversee	-11.3275
▁Tur	-11.328
▁reserve	-11.3286
ET	-11.3289
▁integrate	-11.3295
nice	-11.3304
odu	-11.3305
▁emba	-11.3308
ania	-11.3345
▁grav	-11.341
hann	-11.3581
▁unjustifiabl	-11.3596
▁fulfill	-11.3659
▁examin	-11.3807
FD	-11.3842
▁elaborate	-11.402
assessment	-11.4024
AN	-11.4122
(2	-11.4452
▁friend	-11.4482
law	-11.4618
▁congratulat	-11.4709
▁infa	-11.4715
rosi	-11.4756
▁character	-11.4833
reserved	-11.4877
▁split	-11.4899
▁Jos	-11.4917
killed	-11.4952
ashing	-11.4969
▁quo	-11.4983
▁enhanc	-11.5029
▁reservation	-11.5045
▁migrant	-11.5046
▁pesticide	-11.5046
▁complaint	-11.5047
▁immigrant	-11.5049
▁sanction	-11.5049
▁substanti	-11.5111
▁balanc	-11.5132
▁commission	-11.5134
class	-11.515
2004	-11.5151
Russia	-11.5152
which	-11.5153
third	-11.5154
stay	-11.5155
mass	-11.5158
East	-11.5162
care	-11.5177
▁geographic	-11.5184
▁definite	-11.5187
funct	-11.5191
▁confuse	-11.5195
▁motivate	-11.5195
▁oblige	-11.5196
▁associate	-11.5196
▁autonom	-11.52
▁voluntar	-11.5201
▁recover	-11.5201
▁disgrace	-11.5202
▁dictat	-11.5202
netheless	-11.521
▁Burm	-11.5211
empor	-11.5211
▁consume	-11.5212
▁commodit	-11.5213
▁construct	-11.5214
▁tight	-11.5214
▁separati	-11.5216
▁explanat	-11.5217
▁migrat	-11.5217
▁infringe	-11.5217
▁Govern	-11.5218
evolution	-11.5218
equirements	-11.5218
ecovery	-11.5218
roviding	-11.5219
lexibility	-11.522
onciliation	-11.522
ounterfeiting	-11.522
ndustrial	-11.522
ntegrated	-11.522
contaminat	-11.522
empty	-11.522
▁feasib	-11.522
▁destabilis	-11.5221
▁narrow	-11.5221
Ruijten	-11.5221
WEEE	-11.5221
Waldner	-11.5221
apatero	-11.5221
censorship	-11.5221
ceptibl	-11.5221
lecommunications	-11.5221
▁Armenia	-11.5221
▁Azerbaijan	-11.5221
▁Beijing	-11.5221
▁Caribbean	-11.5221
▁Colombia	-11.5221
▁Communication	-11.5221
▁Communities	-11.5221
▁Delegation	-11.5221
▁Initiative	-11.5221
▁Klinz	-11.5221
▁Lebanon	-11.5221
▁Madeira	-11.5221
▁Madrid	-11.5221
▁Mechanism	-11.5221
▁Medicines	-11.5221
▁Nigeria	-11.5221
▁Operation	-11.5221
▁Process	-11.5221
▁Professor	-11.5221
▁REACH	-11.5221
▁Regrettably	-11.5221
▁Scheme	-11.5221
▁Schwab	-11.5221
▁Soviet	-11.5221
▁Tribunal	-11.5221
▁Turkmen	-11.5221
▁Verheugen	-11.5221
▁accessibility	-11.5221
▁accreditation	-11.5221
▁asbestos	-11.5221
▁charter	-11.5221
▁chronic	-11.5221
▁confidentiality	-11.5221
▁confusion	-11.5221
▁conscience	-11.5221
▁contrast	-11.5221
▁conversion	-11.5221
▁cornerstone	-11.5221
▁deficiencies	-11.5221
▁deliberation	-11.5221
▁dismantling	-11.5221
▁divorce	-11.5221
▁domain	-11.5221
▁downturn	-11.5221
▁drastic	-11.5221
▁dynamism	-11.5221
▁embark	-11.5221
▁emphatically	-11.5221
▁evasion	-11.5221
▁evolve	-11.5221
▁exemplary	-11.5221
▁femini	-11.5221
▁football	-11.5221
▁headquarters	-11.5221
▁herself	-11.5221
▁injustice	-11.5221
▁intelligence	-11.5221
▁magnificent	-11.5221
▁mortgage	-11.5221
▁mutilation	-11.5221
▁overview	-11.5221
▁parameters	-11.5221
▁perpetrator	-11.5221
▁populis	-11.5221
▁practise	-11.5221
▁propaganda	-11.5221
▁prosecuted	-11.5221
▁reconsider	-11.5221
▁reimburs	-11.5221
▁relaunch	-11.5221
▁relevance	-11.5221
▁repeal	-11.5221
▁ridiculous	-11.5221
▁scrutinis	-11.5221
▁secular	-11.5221
▁shopping	-11.5221
▁simplifi	-11.5221
▁subsidy	-11.5221
▁sympath	-11.5221
▁tonight	-11.5221
▁undeniabl	-11.5221
▁verdict	-11.5221
▁verify	-11.5221
▁volcan	-11.5221
ambiguous	-11.5221
▁Busuttil	-11.5221
▁DTP	-11.5221
▁Estrela	-11.5221
▁Gazprom	-11.5221
▁Sterckx	-11.5221
▁Thomsen	-11.5221
▁UKIP	-11.5221
▁accomplish	-11.5221
▁bottle	-11.5221
▁coincide	-11.5221
▁continual	-11.5221
▁corporation	-11.5221
▁demagog	-11.5221
▁deportation	-11.5221
▁desert	-11.5221
▁epidemic	-11.5221
▁experiment	-11.5221
▁explore	-11.5221
▁fashion	-11.5221
▁fifteen	-11.5221
▁harmonious	-11.5221
▁impartial	-11.5221
▁massacre	-11.5221
▁predecessor	-11.5221
▁premature	-11.5221
▁redundancies	-11.5221
▁resignation	-11.5221
▁survey	-11.5221
▁ticket	-11.5221
djourn	-11.5221
▁Annex	-11.5221
▁Blue	-11.5221
▁abortion	-11.5221
▁additive	-11.5221
▁conditionality	-11.5221
▁sentiment	-11.5221
▁Farmers	-11.5221
▁premise	-11.5221
▁sight	-11.5221
▁compel	-11.5221
▁Earth	-11.5221
▁Garri	-11.5221
▁Leinen	-11.5221
▁Rehn	-11.5221
iolo	-11.5221
▁align	-11.5221
▁fathers	-11.5221
▁stamp	-11.5221
▁salary	-11.5221
▁shales	-11.5221
▁deaf	-11.5221
▁greet	-11.5221
▁legac	-11.5221
▁neoliberal	-11.5221
▁Games	-11.5221
▁Lama	-11.5221
▁admir	-11.5221
▁Jord	-11.5221
▁invasion	-11.5221
▁anchor	-11.5221
▁divert	-11.5221
▁pandemic	-11.5221
▁Islands	-11.5221
▁inclin	-11.5221
fault	-11.5221
▁gift	-11.5221
▁Adam	-11.5221
▁cabotage	-11.5221
▁Catal	-11.5221
▁verified	-11.5221
▁Camp	-11.5221
▁sharp	-11.5221
EEAS	-11.5221
▁deteriorating	-11.5221
▁God	-11.5221
▁telephone	-11.5221
▁grip	-11.5221
▁scene	-11.5221
burg	-11.5221
▁vain	-11.5221
▁conciliation	-11.5221
▁pluralis	-11.5221
▁expertise	-11.5221
▁arbitrary	-11.5222
▁Stavr	-11.5222
▁Package	-11.5222
▁forgive	-11.5222
▁flaw	-11.5222
▁labor	-11.5222
▁derivative	-11.5222
▁Interior	-11.5222
▁redistribution	-11.5222
▁classification	-11.5222
▁Post	-11.5222
▁Hans	-11.5222
▁1979	-11.5222
▁plunge	-11.5223
▁uncertainty	-11.5223
▁hostage	-11.5223
▁kick	-11.5223
negotia	-11.5223
▁meaningful	-11.5223
▁pride	-11.5223
▁Marine	-11.5223
▁1998	-11.5224
▁intent	-11.5224
▁70%	-11.5224
▁unknown	-11.5224
▁alert	-11.5224
▁standpoint	-11.5224
▁winter	-11.5224
▁turnover	-11.5225
▁eventual	-11.5225
▁coverage	-11.5225
▁warrant	-11.5225
▁validity	-11.5225
▁drawback	-11.5225
▁hole	-11.5226
▁dedication	-11.5226
▁consolidation	-11.5226
▁Monti	-11.5226
▁0.4	-11.5226
▁distract	-11.5226
▁1980	-11.5227
▁confin	-11.5227
▁interconnection	-11.5227
▁gear	-11.5228
ENP	-11.5228
▁poll	-11.5229
▁Paul	-11.5229
▁Code	-11.5229
▁privatisation	-11.5229
▁Move	-11.5229
▁render	-11.5229
▁repute	-11.523
▁visitors	-11.523
▁detaine	-11.5232
▁37	-11.5233
▁tender	-11.5233
▁Round	-11.5233
▁incit	-11.5233
▁prohibition	-11.5234
▁dire	-11.5235
▁trace	-11.5236
anni	-11.524
▁page	-11.5243
▁sla	-11.5245
onym	-11.5247
▁dogma	-11.5248
ncies	-11.5278
specialists	-11.5282
▁subscribe	-11.5292
mplementation	-11.5332
▁impede	-11.5344
▁ideolog	-11.5451
shop	-11.5487
action	-11.5504
splitting	-11.5553
▁advis	-11.5577
admission	-11.5594
nche	-11.5686
▁compet	-11.5725
DR	-11.5741
FA	-11.5796
awful	-11.58
RA	-11.5802
▁satisfact	-11.586
Wol	-11.5964
dumping	-11.619
▁purchas	-11.6495
▁Financ	-11.6794
▁Stabili	-11.6877
▁basin	-11.6948
▁enforc	-11.7001
▁qualif	-11.7143
▁globalis	-11.7203
rror	-11.7368
▁Goo	-11.737
▁rough	-11.7382
▁demonstrat	-11.7491
ledged	-11.7521
▁evaluat	-11.7546
▁channel	-11.7546
▁expert	-11.7548
▁employee	-11.755
▁Right	-11.7552
ssistance	-11.7577
▁emb	-11.7591
2012	-11.7623
▁worry	-11.7626
▁determin	-11.763
signed	-11.7649
funded	-11.7649
Chair	-11.765
financed	-11.765
block	-11.7651
CAP	-11.7651
migration	-11.7652
group	-11.7652
German	-11.7652
fraud	-11.7652
balanced	-11.7652
accession	-11.7652
Africa	-11.7652
China	-11.7652
private	-11.7652
innovation	-11.7652
regional	-11.7652
focus	-11.7652
health	-11.7653
social	-11.7653
course	-11.7653
front	-11.7656
either	-11.7658
tepping	-11.7662
vide	-11.7667
▁concer	-11.768
▁Recent	-11.768
▁apparent	-11.7681
▁critic	-11.7684
gressive	-11.7686
▁totalitarian	-11.7688
ssentially	-11.769
▁refuge	-11.7694
▁entitle	-11.7695
▁justifie	-11.7698
▁welcom	-11.7704
disciplin	-11.7706
▁preceden	-11.7709
bric	-11.771
ompliance	-11.7713
▁execut	-11.7713
▁beneficiar	-11.7714
cycl	-11.7715
▁circu	-11.7716
▁corrupt	-11.7716
▁fift	-11.7717
▁equip	-11.7717
▁terror	-11.7718
▁retai	-11.7718
jection	-11.7718
apporteur	-11.7718
igorous	-11.7718
assenger	-11.7719
aragraph	-11.7719
onitoring	-11.7719
▁automatic	-11.7719
ndition	-11.7719
nterprises	-11.7719
structive	-11.7719
-2013	-11.772
losure	-11.772
hapter	-11.772
apital	-11.772
▁deteriorati	-11.772
iolence	-11.772
esterday	-11.772
ndoubtedly	-11.772
▁Guerre	-11.7721
▁slipp	-11.7721
▁wheel	-11.7721
Communism	-11.7721
EFSA	-11.7721
Gualtieri	-11.7721
Ivoire	-11.7721
Sheikh	-11.7721
aladministration	-11.7721
laude	-11.7721
misunderstanding	-11.7721
nevitably	-11.7721
oretical	-11.7721
pprenticeship	-11.7721
▁149(8)	-11.7721
▁Abkhazia	-11.7721
▁Amsterdam	-11.7721
▁Antarctic	-11.7721
▁Brown	-11.7721
▁Budapest	-11.7721
▁Cambodia	-11.7721
▁Citizens	-11.7721
▁Columbia	-11.7721
▁Corbett	-11.7721
▁Effect	-11.7721
▁England	-11.7721
▁Eurobonds	-11.7721
▁Frassoni	-11.7721
▁Further	-11.7721
▁George	-11.7721
▁Ghana	-11.7721
▁History	-11.7721
▁Honour	-11.7721
▁Jerusalem	-11.7721
▁Lampedusa	-11.7721
▁Look	-11.7721
▁Maghreb	-11.7721
▁Mobility	-11.7721
▁Nowadays	-11.7721
▁Organization	-11.7721
▁Pittsburgh	-11.7721
▁Poverty	-11.7721
▁Presidencies	-11.7721
▁Reinfeldt	-11.7721
▁Sarajevo	-11.7721
▁Schlyter	-11.7721
▁Seychelles	-11.7721
▁Tomorrow	-11.7721
▁Tuesday	-11.7721
▁Twenty	-11.7721
▁Ultimately	-11.7721
▁Vienna	-11.7721
▁Watson	-11.7721
▁absorb	-11.7721
▁acquisition	-11.7721
▁affirm	-11.7721
▁analysing	-11.7721
▁appalling	-11.7721
▁atrocities	-11.7721
▁attentive	-11.7721
▁bargaining	-11.7721
▁benchmarks	-11.7721
▁bottom	-11.7721
▁capabilities	-11.7721
▁centuries	-11.7721
▁chamber	-11.7721
▁chaos	-11.7721
▁choosing	-11.7721
▁church	-11.7721
▁clothes	-11.7721
▁cluster	-11.7721
▁combustion	-11.7721
▁compound	-11.7721
▁compris	-11.7721
▁conceiv	-11.7721
▁congestion	-11.7721
▁conservative	-11.7721
▁creativity	-11.7721
▁currencies	-11.7721
▁damaging	-11.7721
▁decimat	-11.7721
▁degradation	-11.7721
▁destiny	-11.7721
▁dignified	-11.7721
▁dilemma	-11.7721
▁drift	-11.7721
▁embarrass	-11.7721
▁enact	-11.7721
▁encompasse	-11.7721
▁episode	-11.7721
▁eradicate	-11.7721
▁eradicating	-11.7721
▁excellence	-11.7721
▁furthermore	-11.7721
▁globe	-11.7721
▁hierarchy	-11.7721
▁humiliati	-11.7721
▁hypocrisy	-11.7721
▁identical	-11.7721
▁incurred	-11.7721
▁indivisible	-11.7721
▁installations	-11.7721
▁intensify	-11.7721
▁kilometre	-11.7721
▁leakage	-11.7721
▁licensing	-11.7721
▁lodge	-11.7721
▁logging	-11.7721
▁machine	-11.7721
▁magnitude	-11.7721
▁mainstream	-11.7721
▁monopoly	-11.7721
▁nowadays	-11.7721
▁nutritio	-11.7721
▁obese	-11.7721
▁obesity	-11.7721
▁obstinacy	-11.7721
▁occupy	-11.7721
▁opponents	-11.7721
▁overhaul	-11.7721
▁petrol	-11.7721
▁phasing	-11.7721
▁pioneer	-11.7721
▁pornography	-11.7721
▁prerogatives	-11.7721
▁presidencies	-11.7721
▁proximity	-11.7721
▁prudent	-11.7721
▁recipient	-11.7721
▁remuneration	-11.7721
▁repercussions	-11.7721
▁responsibly	-11.7721
▁reunification	-11.7721
▁rivalry	-11.7721
▁rocket	-11.7721
▁satisfactorily	-11.7721
▁scourge	-11.7721
▁semester	-11.7721
▁slavery	-11.7721
▁specify	-11.7721
▁struggling	-11.7721
▁suffrage	-11.7721
▁supermarket	-11.7721
▁supplied	-11.7721
▁sweep	-11.7721
▁tachograph	-11.7721
▁tactic	-11.7721
▁techniques	-11.7721
▁temperature	-11.7721
▁transplantation	-11.7721
▁trigger	-11.7721
▁turmoil	-11.7721
▁undesirable	-11.7721
▁unlimited	-11.7721
▁upheld	-11.7721
▁vaccine	-11.7721
▁vacuum	-11.7721
▁villages	-11.7721
▁volatile	-11.7721
▁worthwhile	-11.7721
convenience	-11.7721
▁Berlusconi	-11.7721
▁Bhutto	-11.7721
▁Blair	-11.7721
▁Blokland	-11.7721
▁Coordinat	-11.7721
▁Current	-11.7721
▁DRC	-11.7721
▁Fraga	-11.7721
▁Frank	-11.7721
▁Institution	-11.7721
▁League	-11.7721
▁Marinescu	-11.7721
▁Mitchell	-11.7721
▁Serbs	-11.7721
▁Sunday	-11.7721
▁anxious	-11.7721
▁college	-11.7721
▁convenient	-11.7721
▁curtail	-11.7721
▁democratisation	-11.7721
▁detect	-11.7721
▁disturb	-11.7721
▁empower	-11.7721
▁glass	-11.7721
▁harvest	-11.7721
▁helicopter	-11.7721
▁homophobi	-11.7721
▁interdependenc	-11.7721
▁match	-11.7721
▁modification	-11.7721
▁overweight	-11.7721
▁prosecution	-11.7721
▁qualitative	-11.7721
▁repay	-11.7721
▁seminar	-11.7721
▁signatures	-11.7721
▁standstill	-11.7721
▁timeframe	-11.7721
▁traffickers	-11.7721
▁tunnel	-11.7721
▁unequivocal	-11.7721
rgentin	-11.7721
▁Tamil	-11.7721
▁bypass	-11.7721
▁cheese	-11.7721
▁chief	-11.7721
▁codification	-11.7721
▁discard	-11.7721
▁disrupt	-11.7721
▁erect	-11.7721
▁knees	-11.7721
▁overlap	-11.7721
▁reopen	-11.7721
▁search	-11.7721
▁vague	-11.7721
▁biocid	-11.7721
▁colour	-11.7721
▁eager	-11.7721
oslav	-11.7721
▁Kroes	-11.7721
▁computer	-11.7721
▁dementia	-11.7721
▁holistic	-11.7721
▁incinerat	-11.7721
▁Cross	-11.7721
▁Gucht	-11.7721
▁biogas	-11.7721
▁diesel	-11.7721
▁giant	-11.7721
▁uprising	-11.7721
▁Minsk	-11.7721
▁box	-11.7721
▁deleted	-11.7721
▁distant	-11.7721
▁march	-11.7721
▁Munic	-11.7721
▁doctor	-11.7721
junct	-11.7721
ndez	-11.7721
▁IPCC	-11.7721
▁mineral	-11.7721
▁preferences	-11.7721
▁redefin	-11.7721
▁polite	-11.7721
▁emit	-11.7721
DCI	-11.7721
▁electro	-11.7721
▁Flor	-11.7721
▁tiger	-11.7721
▁Training	-11.7721
▁outrage	-11.7721
ublin	-11.7721
▁Power	-11.7721
▁productivity	-11.7721
▁unstable	-11.7721
▁Audy	-11.7721
▁love	-11.7721
▁updating	-11.7721
▁corp	-11.7721
▁annex	-11.7721
▁litera	-11.7721
▁blackmail	-11.7721
▁Univers	-11.7721
▁wild	-11.7721
▁calm	-11.7721
▁terminal	-11.7721
▁wisely	-11.7721
believ	-11.7721
▁logo	-11.7721
▁pollutants	-11.7721
▁hydrocarbon	-11.7721
▁securities	-11.7721
▁annum	-11.7721
▁neo	-11.7721
▁grasp	-11.7721
▁hesitat	-11.7722
sighted	-11.7722
▁ruin	-11.7722
▁moderat	-11.7722
▁gay	-11.7722
ustom	-11.7722
undering	-11.7722
▁Hague	-11.7722
owski	-11.7722
CITES	-11.7722
▁retir	-11.7722
ttering	-11.7722
▁resume	-11.7722
hodo	-11.7723
▁cardio	-11.7723
▁Eliminat	-11.7723
▁Text	-11.7724
▁circulat	-11.7725
▁preci	-11.7725
rkov	-11.7727
visual	-11.7727
▁melt	-11.7728
burst	-11.7728
▁Abu	-11.7729
▁Eight	-11.7732
▁hect	-11.7736
▁underlie	-11.7737
▁absen	-11.7743
unctioning	-11.7757
▁Edit	-11.7794
▁possessi	-11.7805
fluent	-11.7849
master	-11.7899
elimina	-11.7966
communist	-11.7994
treat	-11.8005
▁prioritis	-11.8078
bridge	-11.8223
▁stipulat	-11.8279
▁connect	-11.8348
▁overcom	-11.8501
▁compensat	-11.8964
valuation	-11.92
▁concentrat	-11.9391
▁diploma	-11.9438
lav	-11.986
apped	-12.0051
ncidentally	-12.0138
▁irregular	-12.0239
specially	-12.0325
▁unbrid	-12.0394
▁conduc	-12.0673
eference	-12.0786
▁constitut	-12.0805
reported	-12.0822
bitant	-12.0828
▁Implement	-12.0856
▁biofuel	-12.0878
▁constituent	-12.0878
▁aspiration	-12.0879
flation	-12.0879
▁studie	-12.0882
▁integr	-12.0887
scribed	-12.0925
▁Authori	-12.0943
▁volunteer	-12.0956
▁surround	-12.0957
worth	-12.0978
known	-12.0978
federal	-12.0982
tolerance	-12.0982
distort	-12.0983
violent	-12.0983
satisfactory	-12.0983
space	-12.0984
WTO	-12.0984
resolved	-12.0984
commit	-12.0984
decision	-12.0984
intensive	-12.0984
corruption	-12.0984
examine	-12.0984
definitely	-12.0985
emergency	-12.0985
ethnic	-12.0985
school	-12.0985
Western	-12.0985
Georgia	-12.0985
Japan	-12.0985
competitive	-12.0985
language	-12.0985
affected	-12.0985
developed	-12.0986
capacity	-12.0986
Turkey	-12.0986
responsibility	-12.0986
together	-12.0986
regions	-12.0986
sector	-12.0986
crisis	-12.0986
energy	-12.0986
financial	-12.0986
common	-12.0986
▁announc	-12.0991
▁deliberate	-12.1014
▁victor	-12.1033
▁Travel	-12.1034
▁ratio	-12.1034
▁reasonabl	-12.1037
▁favourabl	-12.1037
▁earlie	-12.1045
▁innovat	-12.1047
ocratic	-12.1049
▁discriminat	-12.1049
▁renovat	-12.105
▁deregulat	-12.105
▁prescripti	-12.105
▁populat	-12.105
▁repressi	-12.105
▁phenomen	-12.105
▁ensu	-12.105
venues	-12.105
▁subsidiar	-12.1052
ultiannual	-12.1052
ersonally	-12.1052
▁arbitra	-12.1052
▁colon	-12.1052
xecutive	-12.1052
lectronic	-12.1052
▁Kurd	-12.1052
ecretariat	-12.1053
chemical	-12.1053
cientific	-12.1053
trengthen	-12.1053
orrow	-12.1053
nowledge	-12.1053
ountries	-12.1053
udicial	-12.1054
tivity	-12.1054
▁unjust	-12.1054
6-03	-12.1054
7-00	-12.1054
ignature	-12.1054
▁unwilling	-12.1054
SADC	-12.1054
Saxon	-12.1054
compatibility	-12.1054
diagnosed	-12.1054
drzejewska	-12.1054
ethanol	-12.1054
existent	-12.1054
incontrovertible	-12.1054
lasphemy	-12.1054
militarisation	-12.1054
pidla	-12.1054
rgensen	-12.1054
sufficiency	-12.1054
utocracy	-12.1054
▁Administration	-12.1054
▁Admitt	-12.1054
▁Ahtisaari	-12.1054
▁Albertini	-12.1054
▁Alexand	-12.1054
▁Algeria	-12.1054
▁Already	-12.1054
▁Bahrain	-12.1054
▁Batzeli	-12.1054
▁Buildings	-12.1054
▁Buzek	-12.1054
▁Chernobyl	-12.1054
▁Christmas	-12.1054
▁Crowley	-12.1054
▁EASA	-12.1054
▁Effort	-12.1054
▁Eurocontrol	-12.1054
▁Facility	-12.1054
▁Ferreira	-12.1054
▁Frattini	-12.1054
▁Friday	-12.1054
▁Gebhardt	-12.1054
▁Grabowska	-12.1054
▁Grosch	-12.1054
▁Guarantee	-12.1054
▁Guatemala	-12.1054
▁Guidelines	-12.1054
▁Helmut	-12.1054
▁Illegal	-12.1054
▁Juncker	-12.1054
▁Kallenbach	-12.1054
▁Kazakhstan	-12.1054
▁Kyrgyzstan	-12.1054
▁LDC	-12.1054
▁Lamassoure	-12.1054
▁Lechner	-12.1054
▁Liberadzki	-12.1054
▁Liechtenstein	-12.1054
▁Ljubljana	-12.1054
▁McGuinness	-12.1054
▁Medvedev	-12.1054
▁Mubarak	-12.1054
▁Mugabe	-12.1054
▁Papastamkos	-12.1054
▁Practice	-12.1054
▁Project	-12.1054
▁Regulator	-12.1054
▁Renewable	-12.1054
▁Roadmap	-12.1054
▁Saakashvili	-12.1054
▁Sacconi	-12.1054
▁Saturday	-12.1054
▁Scheele	-12.1054
▁Schmitt	-12.1054
▁Shalit	-12.1054
▁Singapore	-12.1054
▁Solana	-12.1054
▁Standard	-12.1054
▁Stevenson	-12.1054
▁Svensson	-12.1054
▁Swoboda	-12.1054
▁Tarabella	-12.1054
▁Technology	-12.1054
▁Transnistria	-12.1054
▁Unemployment	-12.1054
▁Vessel	-12.1054
▁Wogau	-12.1054
▁abducted	-12.1054
▁abilities	-12.1054
▁ambassador	-12.1054
▁architecture	-12.1054
▁assassination	-12.1054
▁authentic	-12.1054
▁branches	-12.1054
▁broadcasts	-12.1054
▁bubble	-12.1054
▁bureaucrats	-12.1054
▁cancelled	-12.1054
▁carcinogenic	-12.1054
▁cartels	-12.1054
▁cattle	-12.1054
▁certificate	-12.1054
▁cigarette	-12.1054
▁cohesive	-12.1054
▁communautaire	-12.1054
▁compassion	-12.1054
▁compatriot	-12.1054
▁complaining	-12.1054
q	-13.6054
