<pad>	0
</s>	0
<unk>	0
▁¦	-0
▁s	-1
st	-2
▁p	-3
▁𐋇	-4
▁j	-5
▁v	-6
ch	-7
▁,	-8
li	-9
▁n	-10
▁a	-11
ho	-12
te	-13
ov	-14
od	-15
▁k	-16
ou	-17
▁t	-18
▁m	-19
▁z	-20
by	-21
em	-22
ní	-23
ra	-24
ro	-25
ak	-26
ed	-27
▁d	-28
al	-29
ti	-30
ne	-31
▁je	-32
in	-33
na	-34
to	-35
še	-36
je	-37
ře	-38
il	-39
▁.	-40
že	-41
le	-42
▁o	-43
ce	-44
ud	-45
▁ne	-46
la	-47
▁po	-48
ři	-49
▁na	-50
rá	-51
ří	-52
▁se	-53
▁b	-54
ni	-55
▁A	-56
sp	-57
sk	-58
ně	-59
ého	-60
▁sv	-61
po	-62
no	-63
bo	-64
spod	-65
ko	-66
spodin	-67
se	-68
ví	-69
▁by	-70
mu	-71
ob	-72
ých	-73
▁u	-74
ji	-75
lo	-76
ter	-77
jí	-78
▁J	-79
en	-80
▁H	-81
dy	-82
do	-83
▁js	-84
lu	-85
▁I	-86
ám	-87
ru	-88
ka	-89
va	-90
el	-91
▁Ho	-92
za	-93
▁B	-94
yn	-95
▁i	-96
ude	-97
▁do	-98
▁P	-99
▁Hospodin	-100
sta	-101
ží	-102
dě	-103
sv	-104
▁za	-105
ým	-106
ci	-107
▁to	-108
lov	-109
ta	-110
▁vy	-111
▁pro	-112
vi	-113
▁od	-114
▁při	-115
▁jest	-116
ze	-117
vá	-118
řek	-119
▁jeho	-120
řed	-121
tě	-122
tí	-123
me	-124
ma	-125
da	-126
▁N	-127
ky	-128
▁S	-129
▁h	-130
ná	-131
vy	-132
ku	-133
▁kter	-134
▁č	-135
ova	-136
▁že	-137
sti	-138
cí	-139
vo	-140
mě	-141
vě	-142
▁pak	-143
▁T	-144
ha	-145
pro	-146
mi	-147
▁vše	-148
ší	-149
▁:	-150
dyž	-151
roz	-152
▁aby	-153
de	-154
js	-155
lé	-156
zra	-157
be	-158
sl	-159
řekl	-160
ve	-161
ové	-162
ako	-163
ži	-164
▁tak	-165
lid	-166
ovi	-167
né	-168
či	-169
ši	-170
▁K	-171
▁te	-172
ýž	-173
jich	-174
▁ob	-175
▁ji	-176
▁syn	-177
▁bude	-178
teří	-179
obě	-180
mo	-181
▁jsem	-182
▁M	-183
při	-184
pra	-185
če	-186
▁krá	-187
zrael	-188
▁Ne	-189
teříž	-190
▁st	-191
áš	-192
ím	-193
ůj	-194
hospodin	-195
▁zem	-196
vše	-197
ům	-198
▁ho	-199
nu	-200
▁Je	-201
éž	-202
ste	-203
▁své	-204
vé	-205
zal	-206
ká	-207
rd	-208
▁ně	-209
lí	-210
jest	-211
at	-212
kter	-213
▁ve	-214
čin	-215
bude	-216
lá	-217
co	-218
▁tě	-219
ny	-220
▁Bo	-221
sa	-222
ved	-223
▁mě	-224
▁před	-225
jeho	-226
ili	-227
▁vě	-228
rod	-229
▁D	-230
emu	-231
aby	-232
ské	-233
ství	-234
▁řekl	-235
▁;	-236
▁lid	-237
sí	-238
ný	-239
ale	-240
▁byl	-241
kr	-242
▁V	-243
šel	-244
▁jako	-245
nou	-246
ět	-247
▁všec	-248
tak	-249
▁E	-250
stu	-251
hl	-252
pak	-253
▁ch	-254
▁pra	-255
▁když	-256
cha	-257
▁jejich	-258
pa	-259
mé	-260
▁Z	-261
▁ná	-262
▁Izrael	-263
děl	-264
di	-265
ty	-266
ůh	-267
nebo	-268
žíš	-269
▁jed	-270
▁O	-271
▁roz	-272
tá	-273
vil	-274
▁ni	-275
▁mu	-276
udou	-277
du	-278
zi	-279
pov	-280
lik	-281
▁nebo	-282
ly	-283
syn	-284
▁kterýž	-285
alo	-286
lou	-287
▁kteříž	-288
žd	-289
tož	-290
ry	-291
krá	-292
▁ko	-293
pu	-294
dí	-295
an	-296
hu	-297
tr	-298
ník	-299
ště	-300
ád	-301
▁pod	-302
ri	-303
zem	-304
▁jsou	-305
ští	-306
▁tv	-307
jsem	-308
▁mne	-309
▁Nebo	-310
mí	-311
▁svého	-312
sto	-313
ním	-314
kou	-315
▁Pro	-316
luže	-317
lužeb	-318
což	-319
▁ka	-320
tv	-321
má	-322
ej	-323
án	-324
▁toho	-325
ských	-326
▁mo	-327
tu	-328
vu	-329
ného	-330
▁ale	-331
zd	-332
▁ani	-333
as	-334
oval	-335
▁ru	-336
sá	-337
ými	-338
bra	-339
▁?	-340
chá	-341
oj	-342
vid	-343
zá	-344
▁ten	-345
▁zá	-346
své	-347
byl	-348
bi	-349
▁Jo	-350
ck	-351
ův	-352
pe	-353
zí	-354
stí	-355
před	-356
ský	-357
▁jsi	-358
on	-359
▁me	-360
▁Bůh	-361
▁proti	-362
am	-363
▁kteréž	-364
▁jim	-365
▁země	-366
bu	-367
cho	-368
ského	-369
tom	-370
šli	-371
▁Po	-372
▁já	-373
když	-374
lově	-375
ilo	-376
hla	-377
ráž	-378
▁vám	-379
▁jemu	-380
stou	-381
dá	-382
▁ř	-383
▁zemi	-384
▁ty	-385
▁ú	-386
▁mlu	-387
▁pře	-388
val	-389
▁Da	-390
pl	-391
jed	-392
▁až	-393
▁také	-394
jako	-395
nám	-396
rou	-397
▁C	-398
ba	-399
pově	-400
▁pr	-401
▁dí	-402
▁ž	-403
▁pří	-404
▁kdo	-405
bě	-406
oud	-407
vedl	-408
zu	-409
▁tobě	-410
▁mí	-411
▁vá	-412
▁budou	-413
edy	-414
yna	-415
▁ti	-416
jící	-417
stě	-418
▁ví	-419
dali	-420
čí	-421
sly	-422
zalé	-423
kterýž	-424
▁praví	-425
sté	-426
ruzalé	-427
▁mi	-428
▁jej	-429
▁nad	-430
ckni	-431
šickni	-432
koli	-433
ovati	-434
▁Tedy	-435
jte	-436
ct	-437
re	-438
▁byli	-439
ných	-440
yp	-441
▁bra	-442
činil	-443
mlu	-444
▁tvé	-445
pá	-446
▁pa	-447
nost	-448
▁va	-449
pod	-450
▁dě	-451
ová	-452
▁Ale	-453
ovo	-454
teráž	-455
▁ot	-456
jejich	-457
▁král	-458
já	-459
izrael	-460
kteříž	-461
gyp	-462
neb	-463
▁mé	-464
▁svou	-465
▁sta	-466
nov	-467
▁slov	-468
▁vi	-469
▁domu	-470
pří	-471
stá	-472
▁ži	-473
▁služeb	-474
lení	-475
ruh	-476
vrá	-477
tří	-478
nosti	-479
su	-480
pí	-481
▁le	-482
▁každ	-483
bou	-484
vad	-485
ovali	-486
▁což	-487
▁dne	-488
▁poko	-489
udu	-490
eme	-491
jsou	-492
uje	-493
▁vš	-494
men	-495
▁svých	-496
všec	-497
▁hla	-498
▁ce	-499
lil	-500
akž	-501
▁má	-502
kdo	-503
▁L	-504
▁be	-505
jisté	-506
▁nem	-507
▁mno	-508
▁vás	-509
nem	-510
▁G	-511
oh	-512
stup	-513
tedy	-514
▁jmé	-515
▁sed	-516
▁obět	-517
▁tvá	-518
ar	-519
kázal	-520
▁David	-521
rdce	-522
▁všech	-523
▁(	-524
tel	-525
▁Boží	-526
proti	-527
▁du	-528
vr	-529
et	-530
ouž	-531
vám	-532
pr	-533
hro	-534
ten	-535
iáš	-536
▁sobě	-537
ot	-538
my	-539
▁jí	-540
mou	-541
stří	-542
▁dob	-543
▁bylo	-544
▁R	-545
▁kně	-546
▁Protož	-547
ali	-548
mne	-549
▁skr	-550
tek	-551
vý	-552
ani	-553
ků	-554
▁tu	-555
▁králov	-556
pře	-557
▁sm	-558
jíce	-559
svého	-560
▁člově	-561
▁Boha	-562
so	-563
žil	-564
svě	-565
▁lidu	-566
sil	-567
nad	-568
▁Sa	-569
▁mezi	-570
toho	-571
ctví	-572
té	-573
něm	-574
▁Jud	-575
▁F	-576
▁jste	-577
▁synů	-578
▁řek	-579
chu	-580
sla	-581
ců	-582
mno	-583
níci	-584
odí	-585
▁Moj	-586
bylo	-587
bí	-588
iti	-589
střed	-590
dal	-591
bý	-592
stoup	-593
▁těch	-594
kla	-595
jde	-596
sm	-597
▁velik	-598
▁můj	-599
▁všecky	-600
▁Jeruzalé	-601
led	-602
řel	-603
▁Já	-604
▁Ž	-605
áb	-606
ským	-607
▁Hospodinu	-608
▁dá	-609
dou	-610
▁té	-611
▁bý	-612
▁národ	-613
dob	-614
jsi	-615
um	-616
til	-617
▁synové	-618
▁tedy	-619
jo	-620
▁den	-621
▁svat	-622
kteréž	-623
vedli	-624
▁vz	-625
budou	-626
▁spra	-627
liže	-628
byli	-629
▁ra	-630
▁vo	-631
▁bez	-632
gypt	-633
▁nich	-634
dce	-635
▁ním	-636
bil	-637
lech	-638
▁Na	-639
▁mně	-640
▁Mojžíš	-641
jim	-642
▁on	-643
▁syna	-644
cháze	-645
▁jeden	-646
bůh	-647
▁oči	-648
jemu	-649
nž	-650
země	-651
pověděl	-652
sed	-653
řích	-654
▁její	-655
▁všickni	-656
▁kteráž	-657
▁dal	-658
níž	-659
▁či	-660
nil	-661
enství	-662
▁muž	-663
zo	-664
hled	-665
fa	-666
dne	-667
▁žád	-668
odil	-669
sy	-670
▁čin	-671
▁jsme	-672
ově	-673
také	-674
nal	-675
hromá	-676
až	-677
aj	-678
▁řka	-679
ěl	-680
nů	-681
praví	-682
▁Tak	-683
zemi	-684
řá	-685
vš	-686
ele	-687
▁mluvil	-688
stin	-689
slov	-690
▁skrze	-691
▁byla	-692
▁všecko	-693
▁něm	-694
nej	-695
▁Hospodina	-696
den	-697
▁jedno	-698
eli	-699
sou	-700
▁vod	-701
protož	-702
vili	-703
slal	-704
▁aniž	-705
▁svým	-706
br	-707
si	-708
stal	-709
▁U	-710
ned	-711
tra	-712
▁zajisté	-713
▁Ježíš	-714
▁krále	-715
▁něho	-716
▁nám	-717
ltá	-718
▁kra	-719
tvé	-720
pal	-721
tobě	-722
tý	-723
ská	-724
pě	-725
vali	-726
▁bo	-727
poko	-728
▁nebe	-729
▁oh	-730
zů	-731
znám	-732
ata	-733
▁š	-734
▁tvůj	-735
▁Aj	-736
vati	-737
ových	-738
▁srdce	-739
ovy	-740
jší	-741
▁sí	-742
▁proro	-743
▁učinil	-744
pět	-745
jej	-746
▁lo	-747
▁než	-748
ré	-749
ine	-750
▁To	-751
áše	-752
jin	-753
há	-754
▁čas	-755
▁vů	-756
liž	-757
ul	-758
daliž	-759
pou	-760
▁Ma	-761
edl	-762
tku	-763
král	-764
▁není	-765
spodine	-766
▁věci	-767
yní	-768
dli	-769
▁sedm	-770
▁jin	-771
srd	-772
žel	-773
▁jich	-774
im	-775
▁co	-776
▁Syn	-777
eled	-778
▁tebe	-779
vost	-780
boží	-781
ovu	-782
▁nás	-783
zy	-784
▁-	-785
cích	-786
▁budu	-787
▁svému	-788
služeb	-789
▁Od	-790
hou	-791
bož	-792
slou	-793
▁stra	-794
kol	-795
▁kdož	-796
každ	-797
stav	-798
pla	-799
jak	-800
ďte	-801
zna	-802
▁tam	-803
▁l	-804
▁sly	-805
▁milo	-806
ným	-807
ron	-808
▁tisí	-809
▁jakž	-810
▁nebude	-811
▁sto	-812
▁města	-813
dění	-814
kud	-815
▁ke	-816
▁svě	-817
slu	-818
boha	-819
lon	-820
▁aj	-821
svou	-822
řeč	-823
▁druh	-824
▁dva	-825
▁kterouž	-826
kem	-827
vod	-828
skému	-829
pů	-830
sob	-831
domu	-832
▁obě	-833
▁živo	-834
▁ta	-835
mně	-836
šk	-837
▁jméno	-838
desá	-839
ém	-840
▁ní	-841
sli	-842
ému	-843
▁ať	-844
▁nej	-845
▁stá	-846
▁králi	-847
chi	-848
děli	-849
▁usta	-850
▁více	-851
žto	-852
prav	-853
▁ro	-854
▁dce	-855
tvá	-856
čně	-857
činí	-858
sty	-859
bá	-860
▁tři	-861
jmé	-862
ila	-863
er	-864
svých	-865
▁každý	-866
táh	-867
tře	-868
▁bratří	-869
žeh	-870
▁prostřed	-871
ování	-872
žení	-873
▁tom	-874
kně	-875
spra	-876
tyři	-877
▁Když	-878
▁budeš	-879
zdvi	-880
▁již	-881
▁však	-882
šed	-883
▁no	-884
vadž	-885
tec	-886
dl	-887
vou	-888
elmi	-889
přá	-890
▁zla	-891
vás	-892
▁Egypt	-893
jem	-894
všech	-895
▁um	-896
ních	-897
▁mod	-898
tím	-899
šeho	-900
▁tomu	-901
viti	-902
▁de	-903
▁ma	-904
pat	-905
sva	-906
▁Kter	-907
řil	-908
alez	-909
pust	-910
éhož	-911
vosti	-912
▁Bohu	-913
žád	-914
▁Pá	-915
▁pokolení	-916
david	-917
▁r	-918
synové	-919
níka	-920
ložil	-921
chť	-922
vra	-923
čež	-924
hy	-925
tů	-926
vz	-927
vají	-928
▁Kri	-929
▁dědi	-930
▁slou	-931
sobě	-932
▁Vy	-933
▁ku	-934
muž	-935
šich	-936
▁pá	-937
něvadž	-938
obět	-939
synů	-940
tky	-941
stra	-942
nit	-943
▁ze	-944
níže	-945
kob	-946
ního	-947
▁Kdo	-948
žství	-949
▁pl	-950
▁nyní	-951
▁sil	-952
člově	-953
▁řkou	-954
što	-955
▁Š	-956
▁jenž	-957
▁nepo	-958
▁my	-959
▁učin	-960
▁poč	-961
▁Ka	-962
lal	-963
▁Pa	-964
▁budete	-965
ším	-966
níky	-967
králov	-968
▁Co	-969
národ	-970
▁abych	-971
mezi	-972
stech	-973
▁němu	-974
šť	-975
alomou	-976
▁vý	-977
mluvil	-978
▁hřích	-979
kra	-980
▁pe	-981
▁neu	-982
▁zástup	-983
lidu	-984
▁Be	-985
byla	-986
▁dům	-987
ilistin	-988
chom	-989
▁služebník	-990
bez	-991
▁ud	-992
▁shromá	-993
▁aneb	-994
▁stalo	-995
liko	-996
velik	-997
▁rou	-998
▁přišel	-999
obo	-1000
síce	-1001
▁mil	-1002
▁slu	-1003
▁hled	-1004
▁proto	-1005
tma	-1006
▁podlé	-1007
kl	-1008
šla	-1009
▁an	-1010
▁mého	-1011
jud	-1012
jste	-1013
▁Za	-1014
▁tebou	-1015
ala	-1016
čedl	-1017
▁býti	-1018
lého	-1019
všecky	-1020
▁otce	-1021
▁protož	-1022
ken	-1023
stý	-1024
skr	-1025
▁svá	-1026
▁muži	-1027
▁kníž	-1028
▁ruku	-1029
▁Potom	-1030
ven	-1031
kudž	-1032
▁Si	-1033
syna	-1034
▁oltá	-1035
moj	-1036
těch	-1037
▁Ř	-1038
▁Ži	-1039
▁svůj	-1040
byva	-1041
▁mnou	-1042
▁Hospodinova	-1043
chází	-1044
nější	-1045
▁měl	-1046
▁nimi	-1047
brž	-1048
ja	-1049
můj	-1050
káza	-1051
▁pou	-1052
▁všecken	-1053
srdenství	-1054
▁ned	-1055
▁ještě	-1056
▁řekli	-1057
tiž	-1058
▁tr	-1059
žíše	-1060
▁slovo	-1061
jeruzalé	-1062
▁království	-1063
▁sou	-1064
děla	-1065
▁nepra	-1066
všickni	-1067
kri	-1068
▁voj	-1069
oči	-1070
budeš	-1071
tého	-1072
stalo	-1073
nich	-1074
▁ode	-1075
▁syny	-1076
▁Hospodine	-1077
moc	-1078
▁svém	-1079
hně	-1080
nác	-1081
hospodinu	-1082
vů	-1083
▁místo	-1084
nice	-1085
žili	-1086
▁jak	-1087
dceti	-1088
dr	-1089
kon	-1090
▁neb	-1091
jeden	-1092
kteráž	-1093
▁slova	-1094
▁čeled	-1095
set	-1096
▁obrá	-1097
▁ruce	-1098
ují	-1099
▁soud	-1100
▁Le	-1101
▁oni	-1102
▁všelik	-1103
ede	-1104
▁Izra	-1105
▁zase	-1106
řka	-1107
aniž	-1108
▁Při	-1109
▁pravím	-1110
ůl	-1111
škvr	-1112
▁navrá	-1113
dež	-1114
kové	-1115
mení	-1116
dil	-1117
její	-1118
uch	-1119
ách	-1120
ůže	-1121
více	-1122
▁Izraelský	-1123
jsme	-1124
▁zů	-1125
pení	-1126
vého	-1127
▁ó	-1128
mojžíš	-1129
▁poslal	-1130
zení	-1131
braha	-1132
kdož	-1133
skrze	-1134
stane	-1135
hli	-1136
▁pov	-1137
všecko	-1138
▁abyste	-1139
působ	-1140
však	-1141
▁bu	-1142
vání	-1143
▁spo	-1144
▁vaše	-1145
▁podob	-1146
▁tvého	-1147
iž	-1148
pil	-1149
spo	-1150
vyš	-1151
voji	-1152
▁kněží	-1153
kona	-1154
sím	-1155
▁abys	-1156
zdra	-1157
sku	-1158
ke	-1159
zen	-1160
▁člověka	-1161
tam	-1162
▁mr	-1163
▁smr	-1164
▁moud	-1165
chod	-1166
▁ostří	-1167
▁tvých	-1168
chli	-1169
ovým	-1170
▁ře	-1171
▁Se	-1172
potom	-1173
tvých	-1174
▁věky	-1175
tili	-1176
jedno	-1177
proro	-1178
mil	-1179
zná	-1180
▁Eli	-1181
▁nic	-1182
▁slá	-1183
▁všecka	-1184
cem	-1185
▁brá	-1186
▁posta	-1187
▁spravedli	-1188
tele	-1189
jíti	-1190
fra	-1191
není	-1192
šení	-1193
kry	-1194
ati	-1195
▁jakož	-1196
▁oběti	-1197
▁Kterýž	-1198
plodil	-1199
lit	-1200
▁ci	-1201
▁svými	-1202
ara	-1203
šti	-1204
hem	-1205
měl	-1206
rak	-1207
tež	-1208
šil	-1209
hospodina	-1210
vím	-1211
▁rá	-1212
▁synům	-1213
▁sám	-1214
jdou	-1215
mého	-1216
prá	-1217
▁stří	-1218
▁toto	-1219
léta	-1220
▁uz	-1221
▁čtyři	-1222
zajisté	-1223
zali	-1224
alomoun	-1225
▁činí	-1226
rem	-1227
sem	-1228
▁pí	-1229
▁še	-1230
učinil	-1231
svým	-1232
▁sku	-1233
▁Izraelských	-1234
ina	-1235
zue	-1236
stoupil	-1237
▁Jest	-1238
▁muže	-1239
▁Zdaliž	-1240
▁spravedl	-1241
svob	-1242
krále	-1243
čem	-1244
▁ved	-1245
▁bezbož	-1246
dej	-1247
zef	-1248
jakž	-1249
ska	-1250
nce	-1251
ježíš	-1252
▁člověk	-1253
tem	-1254
dectví	-1255
než	-1256
sal	-1257
něho	-1258
▁Ty	-1259
budu	-1260
tři	-1261
srdce	-1262
▁velmi	-1263
rší	-1264
čení	-1265
níků	-1266
ýchod	-1267
▁rukou	-1268
eň	-1269
čné	-1270
▁ří	-1271
šlech	-1272
▁sebe	-1273
hře	-1274
živo	-1275
▁jednoho	-1276
lovi	-1277
nove	-1278
zla	-1279
čas	-1280
rost	-1281
tvůj	-1282
▁Ře	-1283
chem	-1284
▁man	-1285
loval	-1286
cen	-1287
▁Jákob	-1288
ech	-1289
▁přikázal	-1290
táhl	-1291
anov	-1292
▁let	-1293
▁duše	-1294
kři	-1295
▁smlou	-1296
uj	-1297
tev	-1298
ždění	-1299
▁vůkol	-1300
dům	-1301
nebe	-1302
milo	-1303
abylon	-1304
poví	-1305
▁ry	-1306
budete	-1307
▁Izraelští	-1308
skými	-1309
braham	-1310
▁mých	-1311
pustil	-1312
▁dědictví	-1313
pi	-1314
cové	-1315
▁šel	-1316
▁mou	-1317
liti	-1318
nech	-1319
),	-1320
věci	-1321
terak	-1322
šlechet	-1323
▁kr	-1324
telé	-1325
▁uči	-1326
▁nepřá	-1327
▁očima	-1328
▁tohoto	-1329
slyšel	-1330
prostřed	-1331
ab	-1332
us	-1333
kázaní	-1334
▁Takto	-1335
tud	-1336
klá	-1337
stře	-1338
▁dvě	-1339
▁ruky	-1340
▁též	-1341
stupu	-1342
▁domě	-1343
▁Panov	-1344
ejte	-1345
tebe	-1346
hé	-1347
ať	-1348
lů	-1349
řem	-1350
jméno	-1351
ádo	-1352
▁Filistin	-1353
zel	-1354
rý	-1355
nás	-1356
▁He	-1357
▁hně	-1358
▁spa	-1359
proto	-1360
▁žádného	-1361
slyše	-1362
nili	-1363
sled	-1364
▁srd	-1365
rozen	-1366
svému	-1367
usta	-1368
hyn	-1369
▁Leví	-1370
▁jísti	-1371
▁zástupů	-1372
plé	-1373
utí	-1374
druh	-1375
sko	-1376
▁neči	-1377
▁přišli	-1378
han	-1379
kterouž	-1380
návi	-1381
▁nim	-1382
▁vody	-1383
▁zápal	-1384
▁Mojžíšovi	-1385
dva	-1386
sse	-1387
města	-1388
přišel	-1389
již	-1390
tvr	-1391
nyní	-1392
hr	-1393
▁vámi	-1394
jal	-1395
lek	-1396
vní	-1397
nání	-1398
žen	-1399
▁pokoj	-1400
nové	-1401
každý	-1402
mod	-1403
▁tento	-1404
▁řkouce	-1405
chle	-1406
áme	-1407
vin	-1408
▁svět	-1409
▁množství	-1410
čil	-1411
ánku	-1412
bro	-1413
▁potom	-1414
▁oznám	-1415
pomí	-1416
▁lok	-1417
▁tím	-1418
▁učedl	-1419
sky	-1420
▁vší	-1421
puště	-1422
▁Fara	-1423
▁boj	-1424
▁prá	-1425
ad	-1426
ben	-1427
králi	-1428
▁vez	-1429
▁napl	-1430
oni	-1431
nitř	-1432
▁pět	-1433
▁nemo	-1434
▁činil	-1435
uz	-1436
▁Mo	-1437
mord	-1438
sáno	-1439
chiáš	-1440
bratří	-1441
che	-1442
zav	-1443
▁byd	-1444
▁všem	-1445
▁obyva	-1446
sení	-1447
▁mat	-1448
▁synu	-1449
▁vzal	-1450
▁viděl	-1451
▁veliké	-1452
▁Hospodinem	-1453
hav	-1454
▁Ti	-1455
rého	-1456
▁tře	-1457
▁zvě	-1458
sedm	-1459
▁zlé	-1460
▁Jestliže	-1461
těl	-1462
py	-1463
bud	-1464
jenž	-1465
▁noh	-1466
alá	-1467
pad	-1468
otce	-1469
he	-1470
lav	-1471
▁Ab	-1472
nácte	-1473
tých	-1474
lej	-1475
vida	-1476
▁ženy	-1477
nému	-1478
čkoli	-1479
desáte	-1480
▁něj	-1481
▁těm	-1482
▁nevy	-1483
▁prav	-1484
▁dobré	-1485
stro	-1486
vedu	-1487
nic	-1488
▁bá	-1489
▁vedlé	-1490
▁manžel	-1491
niam	-1492
man	-1493
vez	-1494
▁bych	-1495
▁tisíc	-1496
▁milosrdenství	-1497
aza	-1498
niž	-1499
zko	-1500
spravedl	-1501
hož	-1502
lak	-1503
▁mužů	-1504
▁pově	-1505
vej	-1506
čte	-1507
mon	-1508
raz	-1509
ždy	-1510
dělal	-1511
rán	-1512
aneb	-1513
lám	-1514
▁lí	-1515
bili	-1516
chvá	-1517
nepo	-1518
tomu	-1519
▁město	-1520
▁vin	-1521
▁kněz	-1522
syr	-1523
iv	-1524
▁buď	-1525
▁míti	-1526
obrá	-1527
jestliže	-1528
řkou	-1529
▁Abi	-1530
▁Panovník	-1531
doby	-1532
učin	-1533
▁Zá	-1534
▁posvě	-1535
toto	-1536
egypt	-1537
vyšší	-1538
slyš	-1539
▁Jeruzaléma	-1540
ňte	-1541
bohu	-1542
▁živ	-1543
▁požeh	-1544
▁knížata	-1545
ční	-1546
tové	-1547
▁Aby	-1548
▁naše	-1549
pos	-1550
ání	-1551
▁nalez	-1552
pokolení	-1553
gypta	-1554
▁zna	-1555
tru	-1556
▁pu	-1557
vení	-1558
▁Bože	-1559
▁koli	-1560
▁li	-1561
▁Jeruzalém	-1562
brá	-1563
klad	-1564
rov	-1565
slí	-1566
tech	-1567
abych	-1568
lem	-1569
▁Saul	-1570
▁každého	-1571
dědi	-1572
▁Což	-1573
stavě	-1574
▁měli	-1575
shromá	-1576
▁života	-1577
láz	-1578
síc	-1579
▁Bá	-1580
▁sa	-1581
navrá	-1582
▁Jeruzalémě	-1583
hod	-1584
cken	-1585
řili	-1586
▁dnů	-1587
▁hro	-1588
▁set	-1589
▁Žid	-1590
ejtma	-1591
▁byly	-1592
▁nevě	-1593
děv	-1594
ještě	-1595
pusti	-1596
▁Aron	-1597
▁Kristu	-1598
živ	-1599
▁Am	-1600
podob	-1601
▁bydli	-1602
ode	-1603
muži	-1604
▁boh	-1605
fraim	-1606
líče	-1607
nými	-1608
ostří	-1609
takto	-1610
niamin	-1611
chy	-1612
▁nežli	-1613
▁tvoji	-1614
▁všeho	-1615
šlo	-1616
jakož	-1617
soud	-1618
▁moc	-1619
▁chle	-1620
▁Egyptské	-1621
▁če	-1622
nese	-1623
▁Pán	-1624
▁zlo	-1625
voj	-1626
tvého	-1627
dám	-1628
kdy	-1629
cího	-1630
podlé	-1631
novení	-1632
▁jestliže	-1633
▁Hospodinovo	-1634
děti	-1635
▁nech	-1636
▁povo	-1637
▁vese	-1638
▁času	-1639
▁našeho	-1640
▁hlas	-1641
▁moře	-1642
sili	-1643
hra	-1644
smr	-1645
svá	-1646
čer	-1647
▁rod	-1648
▁hned	-1649
▁této	-1650
▁umřel	-1651
ké	-1652
kal	-1653
skou	-1654
řekli	-1655
hne	-1656
slá	-1657
hřích	-1658
or	-1659
▁By	-1660
dolí	-1661
němu	-1662
říví	-1663
▁kníže	-1664
lad	-1665
hati	-1666
noci	-1667
rozu	-1668
▁Že	-1669
▁věc	-1670
▁tělo	-1671
▁mnoho	-1672
▁tváři	-1673
▁vašich	-1674
odpověděl	-1675
ději	-1676
nasse	-1677
slovo	-1678
▁bys	-1679
▁moci	-1680
▁Řekl	-1681
zástup	-1682
▁Šalomoun	-1683
poč	-1684
hnu	-1685
kazu	-1686
▁Vše	-1687
▁naz	-1688
nalez	-1689
▁c	-1690
▁kla	-1691
▁sko	-1692
▁hoře	-1693
▁Jozue	-1694
▁podle	-1695
léb	-1696
tků	-1697
riáš	-1698
mluvy	-1699
hal	-1700
▁nebylo	-1701
vede	-1702
▁jehož	-1703
▁Izraele	-1704
mr	-1705
lili	-1706
mor	-1707
▁ja	-1708
▁ov	-1709
▁zd	-1710
kníž	-1711
ovoce	-1712
▁chrá	-1713
▁dnes	-1714
▁prchli	-1715
ga	-1716
býti	-1717
liť	-1718
▁odpo	-1719
▁vaši	-1720
▁měsíce	-1721
všecken	-1722
▁Bet	-1723
▁Jozef	-1724
▁kteréhož	-1725
▁vr	-1726
oltá	-1727
níku	-1728
vaše	-1729
ností	-1730
jícího	-1731
pravím	-1732
dla	-1733
▁On	-1734
▁Ot	-1735
slav	-1736
▁nepři	-1737
▁způsob	-1738
▁Odpověděl	-1739
lice	-1740
tebou	-1741
řin	-1742
▁věcí	-1743
▁příby	-1744
▁spolu	-1745
▁východ	-1746
nes	-1747
▁Mi	-1748
▁poškvr	-1749
nanej	-1750
hlé	-1751
ruku	-1752
▁Cha	-1753
▁přijde	-1754
▁dom	-1755
▁kni	-1756
kteří	-1757
▁chvá	-1758
▁totiž	-1759
vorozen	-1760
▁svědectví	-1761
kro	-1762
vět	-1763
viděl	-1764
lý	-1765
ješ	-1766
mnou	-1767
▁otec	-1768
rodila	-1769
▁Hospodinův	-1770
pomen	-1771
všelik	-1772
▁Me	-1773
svůj	-1774
spravedli	-1775
chová	-1776
hospodinova	-1777
alád	-1778
děte	-1779
▁půl	-1780
nepra	-1781
▁léta	-1782
▁tvou	-1783
▁tvář	-1784
hle	-1785
též	-1786
nimi	-1787
nebude	-1788
království	-1789
pokoj	-1790
▁Pane	-1791
▁přes	-1792
▁Babylon	-1793
▁Davidovi	-1794
▁shromáždění	-1795
nouti	-1796
krista	-1797
▁Abraham	-1798
pán	-1799
ziáš	-1800
▁žena	-1801
jících	-1802
▁žádný	-1803
▁mluviti	-1804
▁zplodil	-1805
▁Izraelského	-1806
slova	-1807
poslal	-1808
ona	-1809
syny	-1810
▁dvad	-1811
▁těla	-1812
▁místě	-1813
▁zlého	-1814
▁pozdvi	-1815
loží	-1816
zání	-1817
místo	-1818
níkům	-1819
rev	-1820
▁dcery	-1821
bývá	-1822
zdaliž	-1823
cky	-1824
tka	-1825
chov	-1826
žiti	-1827
▁poha	-1828
▁mluví	-1829
stoupili	-1830
▁odpověděl	-1831
uči	-1832
lati	-1833
▁Pe	-1834
▁Ten	-1835
▁neboť	-1836
▁smrti	-1837
▁poušti	-1838
▁příčin	-1839
hospodine	-1840
nici	-1841
▁Č	-1842
liká	-1843
svém	-1844
vese	-1845
▁trá	-1846
▁měst	-1847
▁všechněm	-1848
▁Ch	-1849
▁pla	-1850
▁půj	-1851
svobo	-1852
pouště	-1853
▁poněvadž	-1854
▁Izraelským	-1855
▁služebníci	-1856
kost	-1857
krát	-1858
ruce	-1859
žena	-1860
▁jménu	-1861
▁sebou	-1862
▁Pročež	-1863
▁odpově	-1864
cíti	-1865
muel	-1866
čeled	-1867
povída	-1868
▁bud	-1869
▁Proč	-1870
▁Synové	-1871
▁národy	-1872
iny	-1873
▁Jord	-1874
▁Moáb	-1875
▁kdež	-1876
hů	-1877
bor	-1878
mění	-1879
vel	-1880
mecí	-1881
▁řeč	-1882
▁nechť	-1883
▁nepravost	-1884
kání	-1885
zase	-1886
abyste	-1887
▁Pána	-1888
▁řekla	-1889
synu	-1890
kaz	-1891
tou	-1892
▁Ro	-1893
▁tá	-1894
▁hří	-1895
▁bývá	-1896
▁oheň	-1897
▁srdci	-1898
ceti	-1899
robo	-1900
cení	-1901
moud	-1902
▁pom	-1903
▁učině	-1904
▁nenávi	-1905
▁nešlechet	-1906
byd	-1907
cházel	-1908
▁kři	-1909
▁doby	-1910
▁prorok	-1911
▁obětovati	-1912
biti	-1913
váš	-1914
▁Te	-1915
izra	-1916
lali	-1917
▁ano	-1918
kněží	-1919
nasses	-1920
▁anděl	-1921
▁krajin	-1922
abys	-1923
oznám	-1924
▁duši	-1925
▁neod	-1926
▁přede	-1927
ají	-1928
nění	-1929
rách	-1930
▁Du	-1931
▁Sau	-1932
▁nez	-1933
▁otci	-1934
▁Zdali	-1935
▁lidem	-1936
▁stánku	-1937
▁Pak	-1938
▁pan	-1939
▁smil	-1940
▁tvým	-1941
remiáš	-1942
všecka	-1943
izraelský	-1944
buď	-1945
hel	-1946
kří	-1947
ění	-1948
slyší	-1949
▁ká	-1950
▁nade	-1951
▁otců	-1952
▁služ	-1953
▁šest	-1954
▁život	-1955
▁abychom	-1956
lep	-1957
▁poled	-1958
▁slyše	-1959
▁svaty	-1960
▁Ježíše	-1961
hdá	-1962
měli	-1963
posta	-1964
▁As	-1965
hdáž	-1966
mých	-1967
▁dám	-1968
vejte	-1969
▁poto	-1970
ložili	-1971
sloucha	-1972
▁Ve	-1973
▁hod	-1974
▁noci	-1975
▁dokudž	-1976
diti	-1977
niáš	-1978
láden	-1979
onovi	-1980
člověka	-1981
▁bí	-1982
nesl	-1983
▁Eze	-1984
▁jsa	-1985
▁otev	-1986
člověk	-1987
▁nádob	-1988
▁veliký	-1989
ada	-1990
čet	-1991
tvrd	-1992
ýchž	-1993
ělal	-1994
ření	-1995
cům	-1996
zte	-1997
nímu	-1998
▁Jako	-1999
▁opět	-2000
▁přij	-2001
▁hlasu	-2002
nec	-2003
vla	-2004
lka	-2005
▁váš	-2006
▁zje	-2007
synům	-2008
fi	-2009
sám	-2010
let	-2011
ďáb	-2012
mezí	-2013
▁mnoh	-2014
zvě	-2015
lici	-2016
náš	-2017
▁jazy	-2018
▁obra	-2019
▁kraloval	-2020
zej	-2021
věky	-2022
tně	-2023
▁chud	-2024
roboám	-2025
velmi	-2026
čeká	-2027
▁oko	-2028
stali	-2029
▁hory	-2030
▁vyhla	-2031
▁vyšel	-2032
▁Kteříž	-2033
▁přikázaní	-2034
zor	-2035
▁Sy	-2036
▁dve	-2037
neboť	-2038
oběti	-2039
▁krev	-2040
▁silný	-2041
jím	-2042
toť	-2043
měst	-2044
▁moji	-2045
▁loket	-2046
▁Božího	-2047
jdi	-2048
lijak	-2049
▁Ja	-2050
tekl	-2051
▁ješto	-2052
tal	-2053
nách	-2054
ýbrž	-2055
▁Aza	-2056
▁náš	-2057
▁osm	-2058
volil	-2059
čtyři	-2060
▁brány	-2061
▁dobře	-2062
▁nichž	-2063
▁toliko	-2064
svými	-2065
vzal	-2066
všem	-2067
ženy	-2068
▁takto	-2069
poslech	-2070
▁vysvob	-2071
muže	-2072
šedše	-2073
bezbož	-2074
▁hlavu	-2075
▁třetí	-2076
▁učiní	-2077
▁národů	-2078
hrd	-2079
pána	-2080
rosti	-2081
inu	-2082
ram	-2083
šili	-2084
konal	-2085
▁námi	-2086
▁ohav	-2087
▁říka	-2088
▁městě	-2089
▁straně	-2090
nim	-2091
ono	-2092
dím	-2093
hor	-2094
těm	-2095
▁dny	-2096
▁vla	-2097
požeh	-2098
▁chod	-2099
cím	-2100
van	-2101
loupe	-2102
krm	-2103
tan	-2104
▁šli	-2105
▁poma	-2106
▁stro	-2107
▁cesty	-2108
přikázal	-2109
▁smlouvu	-2110
izraelských	-2111
láš	-2112
neu	-2113
zdá	-2114
duše	-2115
nevě	-2116
hdy	-2117
náct	-2118
sebe	-2119
likéž	-2120
tosti	-2121
mecítma	-2122
▁Egypta	-2123
▁bratra	-2124
blí	-2125
řeli	-2126
tento	-2127
udy	-2128
bych	-2129
moci	-2130
▁úst	-2131
éře	-2132
blou	-2133
hned	-2134
vody	-2135
▁f	-2136
lič	-2137
dili	-2138
▁Jak	-2139
▁pán	-2140
▁ústa	-2141
laho	-2142
▁pole	-2143
▁vyso	-2144
jednoho	-2145
▁starší	-2146
▁spravedlnosti	-2147
rů	-2148
ano	-2149
klo	-2150
půj	-2151
svět	-2152
ujte	-2153
čiště	-2154
▁umře	-2155
▁chodí	-2156
douce	-2157
.)	-2158
▁Iza	-2159
rukou	-2160
▁neza	-2161
▁knížat	-2162
▁činiti	-2163
poněvadž	-2164
▁služebníka	-2165
▁spravedlnost	-2166
sť	-2167
rmou	-2168
kni	-2169
mej	-2170
▁Ná	-2171
osta	-2172
otec	-2173
▁dar	-2174
pravil	-2175
▁hejtma	-2176
▁shromážd	-2177
znal	-2178
fat	-2179
svěd	-2180
▁meč	-2181
žádný	-2182
▁Acha	-2183
▁němž	-2184
▁odtud	-2185
▁Efraim	-2186
▁druhého	-2187
▁Izraelské	-2188
vala	-2189
smlou	-2190
vůkol	-2191
▁e	-2192
▁St	-2193
▁vra	-2194
jákob	-2195
▁zabi	-2196
▁Bohem	-2197
žádného	-2198
▁tisíců	-2199
▁Beniamin	-2200
přišli	-2201
tej	-2202
▁Ta	-2203
▁cí	-2204
tely	-2205
trhl	-2206
▁dou	-2207
▁mám	-2208
jísti	-2209
panov	-2210
▁Kdož	-2211
▁deset	-2212
▁přebý	-2213
dědictví	-2214
bral	-2215
▁hoj	-2216
▁hor	-2217
▁mým	-2218
stého	-2219
▁osta	-2220
▁prod	-2221
▁vždy	-2222
▁jména	-2223
▁Izraeli	-2224
▁postavil	-2225
vající	-2226
víš	-2227
řev	-2228
▁Li	-2229
▁Vi	-2230
nemo	-2231
neči	-2232
niti	-2233
pustí	-2234
▁mají	-2235
▁znám	-2236
pročež	-2237
izraelští	-2238
šem	-2239
geli	-2240
mar	-2241
cech	-2242
hali	-2243
napl	-2244
vodí	-2245
vrať	-2246
▁Mlu	-2247
▁dní	-2248
▁věč	-2249
▁cestě	-2250
▁oblíče	-2251
▁prosím	-2252
▁učinili	-2253
hat	-2254
povo	-2255
nechť	-2256
nepřá	-2257
toliko	-2258
dvě	-2259
▁bě	-2260
▁dra	-2261
▁such	-2262
▁spasení	-2263
uji	-2264
vici	-2265
psáno	-2266
ruhlu	-2267
▁Lé	-2268
▁Syr	-2269
▁kro	-2270
očima	-2271
▁tuto	-2272
▁vidí	-2273
tohoto	-2274
▁bratr	-2275
▁všemu	-2276
patr	-2277
řů	-2278
rci	-2279
▁ole	-2280
▁naši	-2281
▁údolí	-2282
vangeli	-2283
lož	-2284
šího	-2285
nesli	-2286
stává	-2287
eze	-2288
nek	-2289
fara	-2290
lých	-2291
ruky	-2292
▁nes	-2293
▁prvé	-2294
veliké	-2295
▁dnech	-2296
▁pohled	-2297
▁Hospodinovy	-2298
ast	-2299
dar	-2300
émž	-2301
domě	-2302
řkouce	-2303
lahosla	-2304
▁tato	-2305
▁dříví	-2306
▁místa	-2307
▁učiním	-2308
▁vyvedl	-2309
▁řkoucí	-2310
dom	-2311
pan	-2312
▁Ji	-2313
volal	-2314
zápal	-2315
▁Amen	-2316
▁roucho	-2317
filistin	-2318
povídaje	-2319
vangelium	-2320
▁nepravosti	-2321
poj	-2322
leví	-2323
vnitř	-2324
soužení	-2325
odo	-2326
▁tru	-2327
umřel	-2328
▁Pakli	-2329
▁nebyl	-2330
▁zlata	-2331
▁roucha	-2332
▁úmluvy	-2333
át	-2334
zau	-2335
zák	-2336
řím	-2337
proč	-2338
zůstal	-2339
prv	-2340
mysl	-2341
▁rci	-2342
▁sva	-2343
▁vlá	-2344
▁Petr	-2345
▁nohy	-2346
▁vydá	-2347
zástupů	-2348
zpě	-2349
boj	-2350
acha	-2351
mích	-2352
▁díl	-2353
▁žeť	-2354
abylo	-2355
vičně	-2356
▁ruka	-2357
▁řeči	-2358
▁druhé	-2359
▁ovoce	-2360
cházeti	-2361
▁strany	-2362
mojžíšovi	-2363
▁nepřátel	-2364
dnů	-2365
jat	-2366
nevy	-2367
vští	-2368
služebník	-2369
es	-2370
▁dr	-2371
vámi	-2372
▁rov	-2373
▁Páně	-2374
▁sobo	-2375
▁kterak	-2376
▁národové	-2377
učedl	-2378
stoupí	-2379
zukrista	-2380
▁Ó	-2381
rát	-2382
trá	-2383
lože	-2384
▁sví	-2385
vedlé	-2386
▁Davida	-2387
▁cestou	-2388
staň	-2389
vráce	-2390
množství	-2391
lok	-2392
čen	-2393
cuje	-2394
▁kdy	-2395
▁stě	-2396
stinu	-2397
znali	-2398
▁bláz	-2399
▁sami	-2400
měsíce	-2401
▁Kananej	-2402
zlo	-2403
ěti	-2404
byly	-2405
obyva	-2406
bys	-2407
kům	-2408
vší	-2409
fari	-2410
▁sem	-2411
▁Duch	-2412
▁Jona	-2413
▁bliž	-2414
▁žádo	-2415
▁vojska	-2416
▁ustanovení	-2417
liv	-2418
edle	-2419
dobré	-2420
sluho	-2421
lovati	-2422
sáhl	-2423
▁pos	-2424
▁Achi	-2425
▁cestu	-2426
▁chléb	-2427
▁Hospodinovu	-2428
neš	-2429
něj	-2430
obře	-2431
▁[	-2432
▁]	-2433
▁Mu	-2434
chať	-2435
maří	-2436
hroma	-2437
▁duch	-2438
▁ohni	-2439
▁upří	-2440
hřešil	-2441
▁Galád	-2442
▁potře	-2443
▁slyšel	-2444
zlé	-2445
ském	-2446
aba	-2447
spa	-2448
▁da	-2449
ovou	-2450
titi	-2451
víte	-2452
▁Roz	-2453
▁cizo	-2454
▁mohl	-2455
milosrdenství	-2456
éla	-2457
bení	-2458
meni	-2459
mužů	-2460
pane	-2461
kosti	-2462
dlo	-2463
tné	-2464
▁byste	-2465
▁mečem	-2466
▁oblak	-2467
▁první	-2468
▁milost	-2469
▁čtyřidceti	-2470
hledá	-2471
hospodinem	-2472
▁Do	-2473
▁ská	-2474
▁skry	-2475
manžel	-2476
▁Neboť	-2477
▁Stalo	-2478
káže	-2479
vidí	-2480
tali	-2481
▁jde	-2482
ující	-2483
▁trou	-2484
▁tváří	-2485
lím	-2486
odě	-2487
zím	-2488
hlas	-2489
opět	-2490
výše	-2491
emene	-2492
louho	-2493
ramně	-2494
chodono	-2495
knížata	-2496
▁Ru	-2497
▁lá	-2498
bliž	-2499
▁Ano	-2500
▁kří	-2501
▁neo	-2502
▁oltáře	-2503
▁služebníky	-2504
fe	-2505
město	-2506
ceni	-2507
rubí	-2508
▁Sly	-2509
▁hou	-2510
▁mar	-2511
▁udě	-2512
▁Toto	-2513
▁stře	-2514
▁těmi	-2515
▁stane	-2516
▁uzdra	-2517
▁Kristus	-2518
alm	-2519
ol	-2520
yš	-2521
abi	-2522
iáše	-2523
▁Aro	-2524
posvě	-2525
▁všel	-2526
▁Proto	-2527
▁berán	-2528
▁dobro	-2529
▁vydal	-2530
uč	-2531
kli	-2532
ptý	-2533
tiv	-2534
moře	-2535
ámen	-2536
novil	-2537
pošto	-2538
tisíc	-2539
panovník	-2540
buchodono	-2541
ach	-2542
lam	-2543
naz	-2544
vně	-2545
aron	-2546
koná	-2547
▁hlu	-2548
▁kon	-2549
▁Joáb	-2550
▁jiné	-2551
▁moři	-2552
▁výso	-2553
odpově	-2554
▁odšel	-2555
každého	-2556
duch	-2557
kněz	-2558
lní	-2559
ném	-2560
kali	-2561
obra	-2562
psal	-2563
▁kou	-2564
nácti	-2565
▁odpla	-2566
▁slunce	-2567
kdež	-2568
šemu	-2569
ývá	-2570
řeči	-2571
táhli	-2572
▁Pánu	-2573
▁dílo	-2574
▁záko	-2575
▁ačkoli	-2576
▁ukázal	-2577
▁milosti	-2578
zeni	-2579
kníže	-2580
desáti	-2581
míti	-2582
dosti	-2583
▁Před	-2584
▁hova	-2585
melech	-2586
▁oltář	-2587
▁jsouce	-2588
▁prvorozen	-2589
hoj	-2590
dělá	-2591
vaje	-2592
farize	-2593
ký	-2594
pen	-2595
něni	-2596
odpo	-2597
teli	-2598
vuje	-2599
▁sli	-2600
nežli	-2601
sadil	-2602
▁lidé	-2603
▁skop	-2604
▁vším	-2605
přijde	-2606
▁počal	-2607
▁vnitř	-2608
cházeli	-2609
slyšeli	-2610
▁budeme	-2611
▁králem	-2612
▁přední	-2613
▁naproti	-2614
spí	-2615
uli	-2616
razil	-2617
jeruzaléma	-2618
drže	-2619
naše	-2620
ován	-2621
vláš	-2622
▁spá	-2623
totiž	-2624
▁něhož	-2625
▁Krista	-2626
▁chleba	-2627
▁někteří	-2628
▁znamení	-2629
▁Manasses	-2630
▁nejvyšší	-2631
díl	-2632
hří	-2633
nan	-2634
tyř	-2635
zan	-2636
ýmž	-2637
nila	-2638
které	-2639
činili	-2640
činutí	-2641
▁di	-2642
▁nak	-2643
▁očí	-2644
▁prv	-2645
▁boji	-2646
▁cizí	-2647
▁odej	-2648
▁Samuel	-2649
▁stříbr	-2650
▁Jeremiáš	-2651
bet	-2652
chrá	-2653
síců	-2654
▁Re	-2655
bože	-2656
tělo	-2657
zuje	-2658
▁pil	-2659
▁svr	-2660
dumej	-2661
▁símě	-2662
▁tyto	-2663
▁vzav	-2664
stanou	-2665
▁bydlil	-2666
▁modlit	-2667
▁všeliké	-2668
ced	-2669
šle	-2670
žid	-2671
saul	-2672
bydli	-2673
všeho	-2674
zdali	-2675
jeruzalém	-2676
hoře	-2677
▁Jed	-2678
▁hra	-2679
▁tre	-2680
▁utí	-2681
noční	-2682
▁ráno	-2683
▁stud	-2684
kázání	-2685
života	-2686
▁Ducha	-2687
▁ohněm	-2688
▁rozum	-2689
▁činili	-2690
▁svatyně	-2691
▁velikým	-2692
▁Izraelskému	-2693
dají	-2694
morej	-2695
čka	-2696
▁lé	-2697
děje	-2698
kati	-2699
▁Nad	-2700
▁potě	-2701
▁klaně	-2702
kteréhož	-2703
▁porodila	-2704
jehož	-2705
jeruzalémě	-2706
▁hu	-2707
▁su	-2708
monit	-2709
městí	-2710
▁Joza	-2711
▁krve	-2712
▁mému	-2713
▁poli	-2714
▁vini	-2715
▁přísa	-2716
▁stráž	-2717
▁všemi	-2718
stoupení	-2719
kristu	-2720
stavěl	-2721
nen	-2722
trh	-2723
▁Ni	-2724
▁ží	-2725
širo	-2726
▁níž	-2727
▁lidí	-2728
▁zemí	-2729
▁Assyr	-2730
▁mluvili	-2731
▁třidceti	-2732
spě	-2733
str	-2734
dati	-2735
dnes	-2736
lích	-2737
veno	-2738
ších	-2739
ovala	-2740
ového	-2741
solon	-2742
tvoji	-2743
bal	-2744
dra	-2745
rný	-2746
▁slav	-2747
▁rozmno	-2748
hlu	-2749
těla	-2750
pozdvi	-2751
mluviti	-2752
hna	-2753
žíši	-2754
▁hře	-2755
▁ďáb	-2756
▁žen	-2757
ducha	-2758
mnoho	-2759
nebylo	-2760
prchli	-2761
▁kamení	-2762
▁oltáři	-2763
▁dědičně	-2764
▁mrtvých	-2765
▁rozkázal	-2766
▁prostředku	-2767
meš	-2768
šte	-2769
ms	-2770
ěli	-2771
času	-2772
spolu	-2773
způsob	-2774
▁jedna	-2775
▁mnozí	-2776
▁Jordán	-2777
▁všecku	-2778
egyptské	-2779
▁nebudeš	-2780
▁učedlníci	-2781
mám	-2782
byče	-2783
hají	-2784
mene	-2785
tkem	-2786
chozí	-2787
hospodinovo	-2788
sen	-2789
smil	-2790
▁ona	-2791
▁uvedl	-2792
▁vysvobo	-2793
▁obětoval	-2794
umře	-2795
našeho	-2796
zky	-2797
čím	-2798
tila	-2799
▁plé	-2800
ješto	-2801
řství	-2802
▁nebi	-2803
▁píti	-2804
▁matky	-2805
▁tvému	-2806
▁pomezí	-2807
▁bydliti	-2808
▁Poněvadž	-2809
kam	-2810
ále	-2811
uješ	-2812
kru	-2813
ral	-2814
věc	-2815
řád	-2816
otci	-2817
pusť	-2818
této	-2819
▁pat	-2820
▁jíti	-2821
▁oble	-2822
▁poru	-2823
▁dnové	-2824
▁nepří	-2825
▁soudu	-2826
rk	-2827
ový	-2828
tní	-2829
rovi	-2830
tvým	-2831
říte	-2832
ženi	-2833
podle	-2834
tváři	-2835
hromaž	-2836
cházejí	-2837
jdu	-2838
jímá	-2839
▁Krá	-2840
▁vět	-2841
▁čer	-2842
▁hroz	-2843
vašich	-2844
▁ducha	-2845
▁psáno	-2846
▁otcové	-2847
▁viděli	-2848
▁Ezechiáš	-2849
▁Izraelem	-2850
šalomoun	-2851
cete	-2852
naný	-2853
tole	-2854
▁kde	-2855
▁hlad	-2856
▁mlad	-2857
▁žele	-2858
poškvr	-2859
▁Krist	-2860
▁Nechť	-2861
▁mnohé	-2862
▁zabil	-2863
pustili	-2864
▁letech	-2865
▁mláden	-2866
▁všelijak	-2867
iné	-2868
jen	-2869
jozue	-2870
nul	-2871
zma	-2872
jíma	-2873
pole	-2874
▁Jdi	-2875
▁blí	-2876
▁Synu	-2877
▁hněv	-2878
▁nemá	-2879
▁stál	-2880
▁smlouvy	-2881
služebníci	-2882
▁prchlivost	-2883
bů	-2884
ohli	-2885
valo	-2886
izraele	-2887
mat	-2888
emuž	-2889
vaši	-2890
stala	-2891
▁Otec	-2892
▁dává	-2893
▁udat	-2894
▁počtu	-2895
▁svaté	-2896
▁světa	-2897
▁svatých	-2898
▁čeledech	-2899
▁	-2900
¦	-2901
o	-2902
e	-2903
a	-2904
i	-2905
n	-2906
t	-2907
s	-2908
l	-2909
v	-2910
d	-2911
m	-2912
k	-2913
u	-2914
,	-2915
p	-2916
h	-2917
r	-2918
j	-2919
í	-2920
b	-2921
c	-2922
y	-2923
á	-2924
z	-2925
ž	-2926
ě	-2927
ř	-2928
é	-2929
š	-2930
.	-2931
𐋇	-2932
ý	-2933
č	-2934
ů	-2935
:	-2936
A	-2937
ť	-2938
J	-2939
H	-2940
;	-2941
I	-2942
B	-2943
P	-2944
N	-2945
S	-2946
?	-2947
T	-2948
K	-2949
f	-2950
M	-2951
D	-2952
g	-2953
V	-2954
E	-2955
Z	-2956
O	-2957
ň	-2958
ú	-2959
ď	-2960
-	-2961
C	-2962
L	-2963
G	-2964
(	-2965
)	-2966
R	-2967
F	-2968
Ž	-2969
ó	-2970
U	-2971
Š	-2972
Ř	-2973
!	-2974
Č	-2975
Ó	-2976
[	-2977
]	-2978
1	-2979
x	-2980
3	-2981
2	-2982
4	-2983
5	-2984
8	-2985
0	-2986
9	-2987
6	-2988
Ú	-2989
7	-2990
Ď	-2991
#	-2992
𐊣	-2993
𐊼	-2994
Í	-2995
Ý	-2996
