<pad>	0
</s>	0
<unk>	0
,	-2.86669
▁och	-3.39428
.	-3.64536
s	-4.05401
▁till	-4.25018
▁i	-4.26005
▁som	-4.43468
▁	-4.54107
▁att	-4.55923
▁han	-4.56727
▁de	-4.60967
;	-4.66105
▁för	-4.70309
▁så	-4.73174
h	-4.76718
a	-4.79346
:	-4.80973
t	-4.84917
▁skall	-4.86816
▁jag	-4.8848
▁det	-4.89908
▁Oc	-4.90077
▁en	-4.90797
▁på	-4.93577
en	-4.94296
▁icke	-4.95384
▁är	-5.00321
▁av	-5.00702
▁den	-5.03064
▁med	-5.0502
r	-5.10072
▁har	-5.12852
▁dem	-5.15254
▁honom	-5.16287
▁»	-5.17379
▁du	-5.18257
▁HERREN	-5.39492
▁I	-5.41397
n	-5.42541
▁mig	-5.43507
▁dig	-5.49612
▁sig	-5.49759
▁var	-5.51385
▁sade	-5.54253
de	-5.55934
.»	-5.58165
er	-5.58519
▁hade	-5.60666
▁eder	-5.61397
som	-5.66547
▁om	-5.68075
▁upp	-5.69904
▁hans	-5.71467
▁då	-5.74738
e	-5.76176
▁Men	-5.83319
▁sin	-5.83342
▁Gud	-5.85253
d	-5.8595
▁alla	-5.86658
▁över	-5.88287
▁åt	-5.9446
▁ett	-5.95099
▁från	-5.95319
▁din	-5.97064
na	-5.97312
▁min	-5.99722
▁nu	-6.00319
▁ut	-6.01945
▁man	-6.03227
▁efter	-6.06388
▁när	-6.09427
▁Då	-6.12296
▁skola	-6.14329
▁vad	-6.1493
▁ty	-6.18174
▁vi	-6.18923
▁hava	-6.19706
▁där	-6.2033
ar	-6.20466
g	-6.21874
▁men	-6.24652
et	-6.24659
▁son	-6.27773
▁mot	-6.28714
▁deras	-6.31259
▁barn	-6.31383
▁sina	-6.31773
k	-6.3205
?	-6.34386
▁vid	-6.35311
l	-6.35878
▁allt	-6.36011
▁detta	-6.365
▁HERRENS	-6.40213
v	-6.43005
o	-6.4314
▁oss	-6.43974
▁hus	-6.47454
▁ock	-6.49043
▁eller	-6.51162
▁Israels	-6.51166
▁Ty	-6.53786
▁vara	-6.53984
▁säger	-6.55323
▁mitt	-6.57857
▁folk	-6.59102
▁sitt	-6.59126
▁Så	-6.60297
▁fram	-6.6031
▁in	-6.61041
▁vill	-6.6119
▁göra	-6.61361
▁må	-6.61399
▁äro	-6.62511
▁skulle	-6.62544
▁komma	-6.63182
▁land	-6.64572
▁genom	-6.65107
▁bliva	-6.65392
▁dina	-6.65759
m	-6.66015
▁någon	-6.7017
▁se	-6.70381
▁ned	-6.72141
▁utan	-6.74068
▁under	-6.7498
▁voro	-6.75
▁dess	-6.78113
▁bort	-6.78935
f	-6.79433
it	-6.79715
▁konungen	-6.80452
▁konung	-6.80863
▁få	-6.81407
▁gå	-6.82464
▁hand	-6.84106
▁hon	-6.85388
▁folket	-6.86111
▁kom	-6.86425
▁ur	-6.86491
▁Han	-6.87117
▁hela	-6.87854
▁ord	-6.87986
i	-6.88728
▁skolen	-6.88827
▁ditt	-6.89591
▁inför	-6.90048
▁dag	-6.90797
▁andra	-6.93064
▁blev	-6.93702
▁ifrån	-6.93708
▁Israel	-6.94275
b	-6.94416
▁Guds	-6.95265
or	-6.95338
▁svarade	-6.95568
st	-6.95644
▁När	-6.96882
▁mina	-6.97811
▁tjänare	-6.98583
▁jorden	-6.98791
▁söner	-6.98952
an	-7.00126
▁ingen	-7.01698
▁ju	-7.01792
▁dessa	-7.02042
▁bland	-7.03423
▁David	-7.04622
▁giva	-7.04629
▁Jag	-7.04809
▁än	-7.06071
▁något	-7.0613
da	-7.06565
▁gick	-7.06655
▁Juda	-7.07285
▁låt	-7.0837
?»	-7.08387
▁sedan	-7.086
▁--	-7.09152
▁De	-7.09582
▁'	-7.10442
▁gjorde	-7.11539
as	-7.12386
▁Ja	-7.12433
el	-7.12983
▁kan	-7.1369
re	-7.13805
▁män	-7.14713
▁blivit	-7.14744
▁Jerusalem	-7.14857
▁kommer	-7.14934
▁namn	-7.15155
▁Jesus	-7.15496
▁henne	-7.16407
-	-7.16619
▁be	-7.17655
p	-7.19577
▁lät	-7.20191
▁mer	-7.20522
edra	-7.2146
▁säga	-7.2206
▁ej	-7.23874
▁Mose	-7.24048
▁tid	-7.24098
ade	-7.25266
ta	-7.2543
▁därför	-7.26203
▁Herren	-7.26295
▁två	-7.26784
▁får	-7.27347
▁gjort	-7.28398
▁själv	-7.28444
▁vår	-7.28892
la	-7.28972
!	-7.29593
j	-7.30831
▁här	-7.31342
å	-7.31557
▁ögon	-7.31835
y	-7.32509
än	-7.32883
▁denna	-7.33333
tt	-7.3463
▁landet	-7.35631
▁fader	-7.36502
es	-7.36674
▁hos	-7.36867
▁tillbaka	-7.37939
▁åter	-7.38114
▁Se	-7.39539
▁gav	-7.40139
▁år	-7.41135
▁låta	-7.41242
▁tog	-7.41588
▁s	-7.42991
▁himmelen	-7.43061
▁Om	-7.43077
▁huru	-7.43272
at	-7.43619
▁ja	-7.4373
▁Egypten	-7.43771
▁hundra	-7.44444
▁väl	-7.44674
▁dagen	-7.44856
ra	-7.45269
▁taga	-7.45553
▁haven	-7.45852
u	-7.45897
het	-7.46515
▁denne	-7.46619
▁k	-7.47017
▁ännu	-7.48729
▁gör	-7.48764
▁g	-7.49012
▁intet	-7.49791
ja	-7.5049
arna	-7.51111
▁kommit	-7.5143
om	-7.52005
'	-7.5218
▁ända	-7.52432
▁väg	-7.53486
▁höra	-7.53743
sk	-7.54029
▁rätt	-7.55036
▁liv	-7.55715
▁tusen	-7.56376
are	-7.56436
▁ansikte	-7.56825
▁bliver	-7.5701
▁hjärta	-7.57453
▁åstad	-7.58867
▁Den	-7.58877
▁S	-7.5994
▁Du	-7.60148
▁kunna	-7.60628
on	-7.6158
▁sju	-7.62085
▁stå	-7.62276
▁bröder	-7.62745
▁A	-7.63178
▁emot	-7.63716
▁många	-7.64266
▁skull	-7.64284
▁äta	-7.65112
▁staden	-7.65137
▁fick	-7.65285
▁stor	-7.65434
am	-7.65549
▁också	-7.66318
us	-7.66745
▁talade	-7.66789
▁omkring	-7.67154
▁kommo	-7.69716
▁hålla	-7.69836
▁o	-7.70605
▁dagar	-7.71154
▁kvar	-7.71272
▁lika	-7.71285
▁bo	-7.7294
Jag	-7.73066
▁går	-7.7422
▁hustru	-7.74395
al	-7.74858
▁mycket	-7.75044
▁tre	-7.75483
▁tala	-7.75818
▁måste	-7.76955
▁vatten	-7.77351
för	-7.77583
te	-7.77903
▁vilken	-7.78054
ka	-7.78196
▁såg	-7.7856
ande	-7.78892
▁människor	-7.79309
▁f	-7.79534
ens	-7.804
▁guld	-7.80432
▁döda	-7.80955
▁sagt	-7.81399
▁h	-7.81791
▁förde	-7.82395
▁all	-7.82637
▁tro	-7.83171
▁an	-7.83428
▁givit	-7.83698
nde	-7.84116
äck	-7.84537
un	-7.85255
ad	-7.85322
▁hörde	-7.86214
▁Sedan	-7.86678
▁nåd	-7.87249
▁stad	-7.87563
▁vare	-7.87674
▁B	-7.89034
ri	-7.8925
ga	-7.89376
▁broder	-7.89567
▁Därför	-7.89787
erna	-7.89982
▁hennes	-7.9047
▁stod	-7.9156
▁Därefter	-7.91899
▁stora	-7.92161
▁allenast	-7.92192
▁För	-7.9244
▁sände	-7.92854
▁eld	-7.93021
▁HERRE	-7.93036
▁dit	-7.93095
▁t	-7.93121
▁heller	-7.93802
▁b	-7.94245
▁städer	-7.9447
den	-7.95144
ning	-7.95425
▁vilka	-7.95467
▁samma	-7.96241
▁både	-7.96876
▁prästen	-7.97046
▁vilja	-7.97731
▁födde	-7.97883
▁våra	-7.97942
▁finnes	-7.98021
▁Aron	-7.9803
▁st	-7.98268
▁ville	-7.98385
im	-7.98479
else	-7.98656
▁blod	-7.98684
▁dock	-7.99171
▁vände	-7.99197
▁hör	-7.99812
▁fäder	-8.00957
▁Det	-8.01041
▁herre	-8.01254
▁sätt	-8.01424
▁röst	-8.0152
▁kunde	-8.01521
▁gott	-8.01819
▁plats	-8.02438
▁mun	-8.0332
ken	-8.03353
▁dö	-8.03379
lä	-8.036
▁själva	-8.03884
▁Saul	-8.04331
ing	-8.04331
.'	-8.04655
▁tron	-8.05061
▁huvud	-8.05208
▁svärd	-8.05271
▁händer	-8.05334
▁fast	-8.05348
▁bud	-8.05977
▁Kristus	-8.06392
ur	-8.06597
▁lag	-8.06706
▁varit	-8.06899
▁En	-8.07188
▁blevo	-8.07519
ot	-8.07597
▁H	-8.0793
▁gingo	-8.08038
▁nämligen	-8.08282
▁satte	-8.08905
▁heliga	-8.09866
▁stam	-8.09935
▁framför	-8.10072
▁Detta	-8.10204
▁sp	-8.10296
ma	-8.10951
▁E	-8.11831
▁veta	-8.12375
▁Jakob	-8.12419
▁havet	-8.12549
▁tag	-8.12729
nen	-8.1295
va	-8.13186
ut	-8.13755
▁rättfärdighet	-8.13886
▁annan	-8.14178
ig	-8.14271
is	-8.152
in	-8.15355
▁själ	-8.15394
▁T	-8.15957
▁giver	-8.16127
▁sk	-8.16199
öd	-8.16282
▁dotter	-8.16565
▁båda	-8.16911
▁ont	-8.16931
▁sidan	-8.17078
ul	-8.17494
▁bära	-8.17831
li	-8.17851
▁fått	-8.18232
ll	-8.18249
▁tiden	-8.18462
▁draga	-8.18605
▁vrede	-8.18837
jämte	-8.19518
▁silver	-8.19618
▁vet	-8.19834
ligt	-8.20268
rän	-8.20883
▁konungens	-8.21233
▁makt	-8.2186
▁undan	-8.21901
▁föra	-8.21904
▁ande	-8.22001
▁m	-8.22206
os	-8.22244
iga	-8.22455
▁synd	-8.22463
▁frågade	-8.22527
ns	-8.22773
▁G	-8.22785
▁mannen	-8.23529
▁onda	-8.23586
▁bröd	-8.23681
▁På	-8.23789
▁kläder	-8.24189
▁leva	-8.24446
▁Sebaot	-8.24474
liga	-8.24724
▁kraft	-8.24843
▁varandra	-8.24844
▁P	-8.24969
▁for	-8.25221
▁offra	-8.25569
▁drog	-8.25868
▁arvedel	-8.26737
▁verk	-8.26746
be	-8.26818
▁fem	-8.27117
▁människa	-8.2753
▁fyra	-8.27594
▁Där	-8.27932
▁slag	-8.28128
▁l	-8.29045
▁drag	-8.29124
▁frukt	-8.2923
»,	-8.29354
▁moder	-8.29403
▁lade	-8.29415
▁därefter	-8.29498
▁hem	-8.29663
gen	-8.29862
▁gärningar	-8.29916
dan	-8.30496
▁K	-8.30506
▁sådant	-8.30981
▁vägen	-8.31011
▁Var	-8.31147
▁öknen	-8.31434
sta	-8.31675
Vad	-8.32396
▁talat	-8.32464
ne	-8.32517
▁berg	-8.32665
▁Salomo	-8.32929
▁vidare	-8.33437
des	-8.33593
▁djur	-8.33673
ste	-8.34027
▁prästerna	-8.34442
▁strid	-8.34537
▁vem	-8.34739
▁hög	-8.34784
▁hit	-8.34927
▁fiender	-8.35272
▁lik	-8.35275
▁vända	-8.35399
▁huset	-8.35853
▁filistéerna	-8.35952
var	-8.36279
▁marken	-8.36303
▁döttrar	-8.36364
▁förbund	-8.36374
ren	-8.36447
▁före	-8.36661
▁sätta	-8.37325
▁sådan	-8.37352
▁tillsammans	-8.37635
Du	-8.37867
▁några	-8.38062
▁runt	-8.38063
▁står	-8.38103
▁härlighet	-8.38108
pp	-8.38296
▁p	-8.38497
▁glädje	-8.38925
▁alnar	-8.38981
▁död	-8.39322
▁mellan	-8.39355
▁sönder	-8.39355
▁hjärtan	-8.39446
nas	-8.39542
▁Babel	-8.3979
▁bjudit	-8.39816
▁länge	-8.40665
▁Davids	-8.41285
▁kallade	-8.41367
▁bodde	-8.41563
▁kött	-8.41725
▁döden	-8.41761
▁sak	-8.4184
▁mån	-8.41866
▁släkte	-8.41986
▁vin	-8.42036
▁lägga	-8.42331
▁tio	-8.42506
▁gudar	-8.42738
▁barns	-8.42848
Se	-8.42961
▁skaffa	-8.43338
▁altaret	-8.43755
▁satt	-8.43901
▁del	-8.44138
▁säd	-8.44245
▁rädda	-8.44296
!»	-8.44389
em	-8.45158
▁Josua	-8.4516
▁världen	-8.45203
▁Herre	-8.4531
▁Dessa	-8.45709
▁igen	-8.4594
lar	-8.46057
ter	-8.4623
▁rike	-8.46492
▁gång	-8.46529
▁leviterna	-8.46549
igt	-8.4659
▁släkt	-8.46748
▁ropade	-8.46777
ng	-8.46913
▁v	-8.4748
▁äldste	-8.47486
▁brännoffer	-8.47487
▁kvinna	-8.47728
Så	-8.48376
▁dricka	-8.4858
▁Ma	-8.48628
▁natten	-8.48895
▁tal	-8.49314
▁fötter	-8.49736
▁R	-8.49932
▁folken	-8.50267
▁gått	-8.50469
lig	-8.50904
▁Vad	-8.51157
▁kropp	-8.52174
▁fingo	-8.52306
▁därav	-8.52427
▁L	-8.52628
▁alltså	-8.52811
▁arbete	-8.52915
▁medan	-8.53398
▁Farao	-8.53553
ni	-8.53748
um	-8.53824
▁tjänst	-8.53979
▁Vi	-8.54043
▁Jordan	-8.54301
▁O	-8.5478
▁redan	-8.55362
▁därpå	-8.55391
▁månaden	-8.55471
▁låg	-8.55564
▁ära	-8.55692
▁fråga	-8.55938
▁råd	-8.56768
▁ske	-8.56894
▁första	-8.57245
▁ed	-8.57426
▁hört	-8.57729
▁konungar	-8.57882
▁förkunna	-8.57924
▁skam	-8.57994
▁därtill	-8.58034
S	-8.58087
▁goda	-8.5822
▁offer	-8.58756
▁tjugu	-8.58932
bland	-8.5894
▁högr	-8.59198
od	-8.59219
dra	-8.5928
▁ären	-8.59328
▁hjälp	-8.59894
▁frid	-8.59946
▁god	-8.60247
▁dom	-8.60304
▁sett	-8.60479
▁olycka	-8.61075
▁togo	-8.61198
låt	-8.61634
▁F	-8.61747
der	-8.6187
träd	-8.62137
▁ligger	-8.62159
▁tolv	-8.62159
▁alltid	-8.62276
▁därifrån	-8.62312
▁förut	-8.62498
▁hämta	-8.62568
▁sten	-8.6262
▁falla	-8.62729
▁Bet	-8.62823
▁slog	-8.6306
▁Si	-8.63099
▁faders	-8.63368
▁Nej	-8.63534
▁visa	-8.63559
▁föll	-8.64019
▁vandra	-8.64188
▁Jo	-8.64402
ord	-8.64768
▁Jesu	-8.64868
▁gammal	-8.64921
▁annat	-8.64927
▁lagen	-8.64993
▁säg	-8.65155
▁Be	-8.65345
▁Josef	-8.65426
▁känna	-8.65484
»	-8.65491
▁helig	-8.65755
väl	-8.65806
år	-8.65868
ol	-8.65999
▁bor	-8.66012
▁Abraham	-8.66039
▁besittning	-8.66078
▁olja	-8.66617
▁full	-8.66712
▁hop	-8.66717
kar	-8.6676
▁evinnerligen	-8.67188
▁talar	-8.67239
▁tagit	-8.67383
▁morgon	-8.67514
▁ser	-8.67663
▁sänt	-8.67765
▁förstånd	-8.67833
▁missgärning	-8.68131
Det	-8.68189
▁stodo	-8.68322
▁behag	-8.68341
▁levande	-8.68406
▁sex	-8.68584
▁lämna	-8.68631
ten	-8.68666
▁bet	-8.69747
▁kvinnor	-8.6977
håller	-8.69956
▁vägar	-8.69958
▁männen	-8.70183
▁ligga	-8.7037
▁syn	-8.70399
▁lever	-8.70687
▁Min	-8.70742
orna	-8.70762
▁vart	-8.70796
▁begynte	-8.70805
▁stadgar	-8.70935
yck	-8.70938
▁vishet	-8.71321
▁kärlek	-8.71408
▁tjäna	-8.71502
▁drogo	-8.7155
▁tecken	-8.71881
▁befallning	-8.71881
▁fara	-8.72001
▁le	-8.72445
gav	-8.73036
▁Paulus	-8.73089
▁kasta	-8.73236
ab	-8.73256
iten	-8.73257
▁slut	-8.73379
man	-8.73485
▁släkter	-8.73524
▁bygga	-8.73693
▁ro	-8.73807
▁synder	-8.73844
▁Ande	-8.74372
▁trettio	-8.74656
▁träd	-8.75061
▁ljus	-8.75275
▁Av	-8.75481
▁övriga	-8.75557
▁arm	-8.7606
▁utrota	-8.76176
▁våld	-8.76178
▁frälsning	-8.76203
▁Petrus	-8.76805
▁edert	-8.76884
M	-8.76992
▁judarna	-8.77025
lade	-8.77077
▁lärjungar	-8.77093
▁bön	-8.77796
▁ena	-8.77815
▁evig	-8.77836
▁berget	-8.77867
▁följde	-8.78056
▁räkna	-8.78075
▁andre	-8.78075
▁fanns	-8.78335
▁först	-8.78585
▁steg	-8.78722
▁fört	-8.7878
▁slå	-8.78843
fall	-8.7892
I	-8.7894
▁fyrtio	-8.79064
▁bär	-8.79593
▁sådana	-8.80045
▁Nu	-8.80504
▁nöd	-8.80622
▁Kristi	-8.80664
▁Manasse	-8.80664
▁hedningarna	-8.8077
äll	-8.81065
vis	-8.81186
bo	-8.81301
ras	-8.81344
▁länder	-8.81541
med	-8.81681
▁akta	-8.82248
▁finnas	-8.82285
mma	-8.82387
▁fördärva	-8.82399
▁tredje	-8.82633
▁förnimma	-8.82651
▁stället	-8.82754
▁Jeremia	-8.83322
▁lejon	-8.83322
▁vattnet	-8.83322
▁boskap	-8.83359
▁fri	-8.8336
▁däri	-8.83609
▁svara	-8.83671
Vi	-8.83725
▁profeten	-8.83877
▁lära	-8.84072
▁högtid	-8.84246
▁boning	-8.84268
▁Har	-8.84339
▁krig	-8.84389
▁Je	-8.84667
▁söka	-8.84678
▁far	-8.84883
▁frukta	-8.8493
▁femtio	-8.85352
enbarelsetältet	-8.85363
▁aldrig	-8.85364
▁fly	-8.85825
dom	-8.85976
▁lägra	-8.86052
rätt	-8.86507
len	-8.86514
▁Huru	-8.86681
▁koppar	-8.86747
▁furstar	-8.87025
Om	-8.87103
▁varda	-8.87164
ba	-8.87223
rna	-8.87237
▁lamm	-8.87446
▁hopp	-8.87522
▁ängel	-8.87595
nar	-8.87671
intill	-8.87761
▁Samuel	-8.8815
▁fullborda	-8.8815
▁Joab	-8.88172
▁höll	-8.88202
▁sända	-8.88318
bar	-8.88323
▁tillhör	-8.88381
▁finna	-8.88576
▁hår	-8.88924
▁mat	-8.89033
ika	-8.89033
▁bad	-8.89048
▁Låt	-8.89113
ligen	-8.89349
▁ren	-8.89629
ningen	-8.89844
▁vila	-8.8992
▁trädde	-8.9023
ifrån	-8.90403
▁helgedomen	-8.90757
▁stark	-8.90989
▁tempel	-8.91018
le	-8.91022
▁hette	-8.9175
▁kor	-8.91788
▁gud	-8.91862
▁stort	-8.92086
▁grund	-8.92483
▁Gilead	-8.92483
c	-8.92893
till	-8.93405
▁människorna	-8.94014
▁tänkte	-8.94017
▁Fader	-8.94166
▁därmed	-8.942
▁vore	-8.94278
▁kvinnan	-8.94335
'»	-8.94409
Varför	-8.94442
▁ställe	-8.94473
▁He	-8.94646
▁område	-8.94722
▁vittnesbörd	-8.94943
▁uppfyll	-8.95287
▁fot	-8.95587
▁byggde	-8.95673
▁Isak	-8.95675
▁välsigna	-8.95853
▁enda	-8.96003
▁Hiskia	-8.96243
▁nog	-8.96243
▁given	-8.96363
▁vän	-8.96369
▁sons	-8.96407
▁solen	-8.96529
▁oren	-8.96669
▁allasammans	-8.97012
▁förgås	-8.9702
▁Re	-8.97233
▁kommen	-8.97305
▁församlade	-8.97349
▁stannade	-8.97371
▁Varför	-8.97418
▁Me	-8.97582
▁portar	-8.97611
▁förgöra	-8.97802
▁Må	-8.98111
les	-8.98501
ets	-8.98544
▁egen	-8.98561
▁långt	-8.98563
▁bjöd	-8.98569
▁Baal	-8.9857
▁åker	-8.98575
▁Herrens	-8.98958
Låt	-8.99076
inna	-8.99192
▁lång	-8.99634
skap	-8.99652
Herre	-8.9988
ud	-9.0009
▁norr	-9.0015
▁Alla	-9.00151
▁Johannes	-9.00223
▁Hon	-9.00278
▁förstå	-9.00406
▁jord	-9.0057
▁sågo	-9.00719
▁penningar	-9.00769
men	-9.00814
▁samla	-9.0086
▁fall	-9.00945
▁läger	-9.00949
▁dog	-9.0095
▁öppna	-9.01126
▁lös	-9.01384
▁uppstå	-9.01619
▁utgjorde	-9.01756
▁rena	-9.01774
▁ting	-9.01888
ske	-9.01888
▁ställde	-9.01979
▁kär	-9.0208
dag	-9.02457
▁Jonatan	-9.02569
▁Dock	-9.02573
▁namnet	-9.03071
▁Mi	-9.03354
▁strax	-9.03389
ai	-9.03753
▁hustrur	-9.04096
▁Sion	-9.04196
▁spisoffer	-9.04215
▁sant	-9.0422
▁profeter	-9.04242
▁stammar	-9.04251
▁stenar	-9.04359
▁porten	-9.046
▁profeterna	-9.04606
▁Ab	-9.04616
▁svar	-9.05028
▁känner	-9.05048
▁eget	-9.05048
▁natt	-9.05088
stod	-9.0516
▁livet	-9.05472
del	-9.05511
▁akt	-9.05654
▁Fadern	-9.0567
▁skåda	-9.05889
▁fruktan	-9.05904
▁nästa	-9.05907
▁gören	-9.05964
▁sjunde	-9.06064
▁håll	-9.0609
red	-9.06337
▁Ad	-9.06375
Ha	-9.0671
▁föda	-9.06738
▁gråt	-9.06745
kså	-9.06754
▁gåvo	-9.06893
▁inne	-9.06974
▁Son	-9.07119
▁bar	-9.07149
▁syster	-9.07591
▁likväl	-9.07627
lighet	-9.07975
▁lär	-9.08129
▁gånger	-9.0834
▁rättfärdig	-9.08416
Var	-9.08451
▁regera	-9.08453
▁lov	-9.08714
ick	-9.09178
▁hästar	-9.0918
▁nära	-9.09205
▁Är	-9.09323
▁byte	-9.09381
▁sky	-9.09487
▁vårt	-9.09738
▁mått	-9.09833
▁Elia	-9.09935
▁fördärv	-9.09947
▁bevara	-9.10223
▁älska	-9.10236
▁bör	-9.10331
▁skrivet	-9.10386
▁rätta	-9.10497
▁läppar	-9.11085
▁lön	-9.11085
▁tillhopa	-9.11085
▁ben	-9.11237
▁floden	-9.11251
ningar	-9.11261
▁ark	-9.11293
iska	-9.11644
▁högt	-9.11872
▁främmande	-9.11977
▁egna	-9.11978
▁regn	-9.11978
▁levde	-9.11979
▁funnit	-9.12
tag	-9.1207
uk	-9.12331
▁kastade	-9.12696
▁sen	-9.12876
▁regeringsår	-9.12878
▁flydde	-9.12888
▁öde	-9.12939
▁Vem	-9.13031
kor	-9.13039
▁Eli	-9.1312
▁sida	-9.13349
▁altare	-9.13497
▁Moses	-9.1352
▁döma	-9.13671
▁tunga	-9.14105
je	-9.14304
▁sång	-9.14701
▁lägret	-9.14705
▁utmarker	-9.14705
▁hjord	-9.14706
▁bringa	-9.14799
▁Jakobs	-9.1494
▁skriv	-9.15287
▁rättfärdiga	-9.15306
sökte	-9.15331
ek	-9.15431
Min	-9.1554
▁trä	-9.15581
▁Absalom	-9.15631
▁större	-9.15631
▁bevisa	-9.15642
▁församling	-9.15646
▁allde	-9.15699
▁invånare	-9.15776
▁Asa	-9.16038
▁djup	-9.16222
▁inom	-9.16366
x	-9.16399
▁ogudaktiga	-9.16417
A	-9.16418
▁orätt	-9.16629
iel	-9.16632
▁sl	-9.17101
▁följ	-9.1712
▁älskade	-9.17173
',	-9.17371
▁siklar	-9.17509
▁finner	-9.17522
éerna	-9.17538
▁träl	-9.17579
▁bröto	-9.17699
▁Ne	-9.17746
▁fasta	-9.17865
▁bergen	-9.17919
▁platsen	-9.17946
▁orena	-9.17986
av	-9.18261
▁lägg	-9.18308
▁profetera	-9.18395
▁unga	-9.18397
▁människobarn	-9.18461
▁arbeta	-9.18461
▁vagnar	-9.18467
▁bak	-9.18507
▁lust	-9.18556
▁sitta	-9.18609
▁morgonen	-9.18876
▁stycke	-9.18961
▁församla	-9.19003
▁prisa	-9.19144
▁profet	-9.1917
▁El	-9.1925
▁predika	-9.19423
▁ytterligare	-9.19423
▁Ammon	-9.19423
▁led	-9.19425
▁straff	-9.19553
▁kunskap	-9.20394
▁lögn	-9.20394
▁försoning	-9.20394
▁fåglar	-9.20407
val	-9.20705
▁höllo	-9.20782
mar	-9.20963
▁familjer	-9.21068
▁hast	-9.21408
ställ	-9.21443
▁stanna	-9.22267
▁förgät	-9.22364
▁jämväl	-9.22364
▁Esau	-9.22365
▁barmhärtighet	-9.22387
sten	-9.22398
opp	-9.22452
▁styggelse	-9.22454
▁rättfärdige	-9.22614
▁rätter	-9.2269
pen	-9.22732
iternas	-9.22808
Gå	-9.23003
▁slagna	-9.23101
lå	-9.23122
▁frälst	-9.23172
F	-9.23298
▁Ke	-9.23324
▁skuld	-9.23362
▁drabba	-9.23364
▁fångenskap	-9.23364
▁tält	-9.24126
id	-9.24127
▁präster	-9.24307
▁bättre	-9.24374
verk	-9.24375
▁älskar	-9.24462
▁innan	-9.24469
▁kalla	-9.24721
▁aftonen	-9.2479
▁bok	-9.25204
gör	-9.25331
▁fäkreatur	-9.25395
▁otukt	-9.25395
▁evangelium	-9.25398
gång	-9.25879
▁köttet	-9.25918
▁lovat	-9.25923
▁Ve	-9.25932
▁lott	-9.25976
▁ropa	-9.26094
▁vingård	-9.26391
Vem	-9.26406
▁fjärran	-9.26426
▁mätta	-9.26426
▁vilket	-9.26426
▁likna	-9.26943
stånd	-9.27144
▁löfte	-9.27234
▁församlingen	-9.27387
För	-9.27449
▁mäktig	-9.27467
▁öron	-9.27467
▁gamla	-9.27467
▁kärl	-9.27513
▁fröjd	-9.27543
▁stiga	-9.27586
▁egyptierna	-9.27596
▁avgudar	-9.2765
▁red	-9.27658
▁N	-9.27917
▁Sela	-9.27937
▁giv	-9.2805
▁funnos	-9.28485
of	-9.28522
▁järn	-9.28524
▁lyfte	-9.28607
helst	-9.28676
▁å	-9.28707
▁bryta	-9.28827
ban	-9.29094
▁Samaria	-9.29584
▁förstör	-9.29584
▁seger	-9.29594
▁bord	-9.29596
▁ljud	-9.296
▁Mika	-9.29654
▁ny	-9.29757
▁Edom	-9.29856
▁ingången	-9.29908
▁träda	-9.30063
▁köp	-9.30304
▁slakta	-9.30361
▁sanning	-9.30549
▁Kanaan	-9.30659
▁Ahab	-9.3066
▁ändå	-9.30661
▁rop	-9.30868
▁pris	-9.30974
kri	-9.31034
▁dal	-9.31102
▁fött	-9.31329
▁året	-9.3135
▁ände	-9.31465
▁bred	-9.31673
▁öster	-9.31716
▁sorg	-9.31745
▁överlämna	-9.31828
▁domare	-9.3186
▁fatta	-9.31924
▁D	-9.31941
▁Till	-9.31987
▁Ar	-9.32131
räckte	-9.32155
▁Efraims	-9.32274
▁Vid	-9.32328
▁stäng	-9.32484
▁bäva	-9.32845
▁falsk	-9.32845
▁litet	-9.32845
▁stilla	-9.3286
▁Elisa	-9.32897
▁därvid	-9.32976
rat	-9.33193
väg	-9.33336
▁Sa	-9.334
ack	-9.33413
▁Sauls	-9.33624
▁lämnade	-9.33718
män	-9.33821
▁eljest	-9.33956
▁inbyggare	-9.33956
▁tabernaklet	-9.33956
▁hälft	-9.33957
▁starka	-9.34003
HERREN	-9.3401
▁stav	-9.34115
▁lagt	-9.34136
▁mur	-9.34242
eser	-9.34329
▁bliv	-9.34331
▁slogo	-9.34353
▁Moab	-9.34464
mon	-9.34558
▁ställa	-9.34671
▁elden	-9.34952
fat	-9.34999
▁åkalla	-9.35081
▁horn	-9.35086
▁rökelse	-9.35099
▁rikedom	-9.35115
▁varder	-9.35145
▁följande	-9.35168
▁skett	-9.35241
▁förbi	-9.35298
▁tacka	-9.35873
▁vakt	-9.35922
▁dör	-9.36131
▁Josafat	-9.36216
▁fäste	-9.36216
▁plåga	-9.36216
▁bedja	-9.36217
▁Na	-9.36276
▁ung	-9.36292
▁mantel	-9.36316
▁omtala	-9.36356
▁ogudaktige	-9.36371
▁Icke	-9.36643
gjorda	-9.36721
isk	-9.36915
».	-9.36964
▁mod	-9.37051
▁allena	-9.37288
▁handen	-9.37291
▁stycken	-9.37347
▁förtrösta	-9.37365
▁skön	-9.37365
▁förtryck	-9.37366
▁förkasta	-9.3743
▁striden	-9.37546
▁kunnen	-9.37572
▁stund	-9.37643
▁bröt	-9.38294
▁ute	-9.38379
skrift	-9.3851
▁Levi	-9.3853
▁dräpa	-9.38815
▁Frå	-9.38827
▁sägen	-9.38853
▁tänka	-9.39046
▁hören	-9.3906
▁Efraim	-9.39136
▁menigheten	-9.39208
▁syndat	-9.39311
▁förakta	-9.39567
▁snart	-9.39706
▁ondska	-9.39706
▁visste	-9.39708
▁Aser	-9.39743
▁hölj	-9.39749
▁port	-9.401
tid	-9.40149
▁krossa	-9.40472
▁hövdingar	-9.40576
▁vredes	-9.40853
iterna	-9.40885
▁bergsbygd	-9.40895
▁viljen	-9.40895
▁öga	-9.40895
▁förgården	-9.40895
▁skynda	-9.40896
▁resa	-9.40908
▁upprätta	-9.40938
▁tionde	-9.41003
Huru	-9.41026
▁gräns	-9.41382
▁sinne	-9.41479
▁rik	-9.41577
▁göm	-9.41669
▁Man	-9.41819
männen	-9.41831
▁fäders	-9.41979
▁Assyrien	-9.421
▁välbehaglig	-9.42287
▁Ingen	-9.42344
let	-9.42423
▁ät	-9.42568
far	-9.42572
kall	-9.42817
H	-9.42928
▁följa	-9.43198
▁vagn	-9.43312
▁fjärde	-9.4332
▁hov	-9.43325
▁förbanna	-9.43329
slut	-9.43396
▁förtär	-9.43427
▁Anden	-9.43451
▁mörker	-9.43472
▁därom	-9.43477
▁Benjamins	-9.43826
▁utför	-9.43897
▁hövding	-9.43921
▁hata	-9.43967
ub	-9.43991
▁Benjamin	-9.44044
▁fann	-9.44051
mak	-9.44125
▁arken	-9.44322
▁lida	-9.44502
▁längre	-9.44554
ägg	-9.44568
▁tåga	-9.44664
▁frälsa	-9.44755
▁förvisso	-9.44766
ker	-9.4505
▁främlingar	-9.4515
▁förlossa	-9.45804
▁sörj	-9.45804
▁öva	-9.45804
▁smäda	-9.45804
▁basun	-9.45804
▁väsende	-9.45806
▁mörkret	-9.45808
▁utom	-9.45832
▁träng	-9.45847
▁konungs	-9.45858
▁helga	-9.45893
▁föllo	-9.46172
▁Ell	-9.46208
tal	-9.463
▁faller	-9.46409
▁Med	-9.46873
▁borg	-9.46918
▁dräpte	-9.47017
yllen	-9.4707
▁haft	-9.4707
▁gjut	-9.4707
▁blygd	-9.47072
▁syndoffer	-9.47091
▁döds	-9.4712
▁präst	-9.47161
▁sidor	-9.47397
▁utanför	-9.47873
▁ringa	-9.47899
▁ru	-9.48121
Den	-9.48266
▁slår	-9.48313
ram	-9.48322
▁fängelse	-9.48352
▁nät	-9.48352
▁smälek	-9.48352
▁Alltså	-9.48353
▁fint	-9.48353
▁utvalt	-9.48354
▁Daniel	-9.48362
▁offrade	-9.48446
Tag	-9.48584
nvid	-9.4867
▁lärjungarna	-9.49056
▁gåvor	-9.49112
jär	-9.4923
▁blodet	-9.49236
▁sjuttio	-9.4931
▁grav	-9.49413
é	-9.49611
▁förstfödde	-9.49651
▁tillbedja	-9.49651
▁ihåg	-9.49651
▁tankar	-9.49651
▁buro	-9.49651
▁stöt	-9.49658
▁sanningen	-9.49784
▁Gad	-9.49798
▁plantera	-9.49842
▁murar	-9.49906
▁Et	-9.50073
ir	-9.50113
▁vittna	-9.50246
▁graven	-9.50403
De	-9.50537
rop	-9.50747
▁uppenbara	-9.50857
▁orda	-9.50858
▁berättade	-9.50966
Frukt	-9.50967
▁vandrade	-9.51011
ölj	-9.51046
▁nytt	-9.51057
▁hälsa	-9.51084
▁veten	-9.51225
▁Has	-9.514
▁Allt	-9.51522
▁Eftersom	-9.51587
▁höj	-9.5183
▁svärdet	-9.5206
eln	-9.52152
▁evärdlig	-9.523
▁jungfru	-9.523
▁upphör	-9.523
▁förbarma	-9.52307
▁strida	-9.52308
▁rent	-9.52467
B	-9.52512
▁fursten	-9.52725
på	-9.52949
▁Moabs	-9.53047
▁öppnade	-9.53352
▁förtära	-9.53532
▁Eleasar	-9.53651
▁beständigt	-9.53651
▁förbannelse	-9.53651
▁söker	-9.53651
▁välsignelse	-9.53651
▁förbliver	-9.53653
▁bi	-9.53859
▁redo	-9.53864
▁sal	-9.53891
▁bränna	-9.53901
gående	-9.54028
▁väldig	-9.54233
▁Faraos	-9.54321
bi	-9.5443
Kom	-9.54541
▁Tag	-9.54829
▁Gen	-9.54965
▁sjön	-9.55022
▁ofta	-9.55023
▁slaktoffer	-9.55023
▁vikt	-9.55104
▁Människosonen	-9.55133
ret	-9.55175
▁vänta	-9.55219
▁uppe	-9.5522
▁lyssna	-9.55408
▁illa	-9.55423
▁fisk	-9.55447
▁äter	-9.55452
▁skatt	-9.55544
▁övergiv	-9.55552
▁ljuset	-9.55635
▁fulla	-9.55667
▁hände	-9.55917
▁ti	-9.56145
▁människan	-9.56319
▁färd	-9.56364
offret	-9.56404
▁förskräckelse	-9.5641
▁förtörna	-9.5641
▁ovänner	-9.56411
▁Simon	-9.56433
▁vingar	-9.56434
▁begär	-9.56443
Han	-9.56526
▁Aram	-9.56528
▁Dan	-9.5653
▁evigt	-9.56744
▁tillhöra	-9.56947
▁moders	-9.57041
▁bestå	-9.57052
▁ene	-9.5722
▁So	-9.57301
ighet	-9.57418
▁ordet	-9.57567
▁fruktade	-9.57689
▁förråd	-9.57814
▁förtörnelse	-9.57818
▁skyldig	-9.57818
▁tillflykt	-9.57818
▁ditupp	-9.57818
▁ostrafflig	-9.57819
▁moln	-9.57819
▁bäcken	-9.5782
▁svag	-9.57824
▁skedde	-9.57838
▁ok	-9.57985
▁Betel	-9.5803
hål	-9.58069
gåvo	-9.58293
▁huvuden	-9.58306
▁fån	-9.58472
▁utföra	-9.58642
▁Job	-9.58831
▁lyd	-9.58838
▁mjöl	-9.58969
▁U	-9.59128
▁Hebron	-9.59247
▁föröka	-9.59247
▁hals	-9.59252
▁myckenhet	-9.59304
▁trodde	-9.59305
▁skara	-9.5932
▁ödmjuka	-9.59611
▁samt	-9.59864
▁hörn	-9.601
▁gränsen	-9.60109
▁klädd	-9.60519
▁styggelser	-9.60565
▁samman	-9.60618
▁hjältar	-9.60696
▁brev	-9.60697
▁jubel	-9.60698
kam	-9.608
▁storm	-9.60808
▁stig	-9.60831
▁tagen	-9.60946
▁Hören	-9.61369
▁helige	-9.61521
▁träffa	-9.61604
▁åto	-9.61685
▁undervisa	-9.61797
▁förståndig	-9.61821
Gån	-9.61915
▁visade	-9.62043
▁fröjda	-9.62059
▁dödsriket	-9.62167
▁synagog	-9.62167
▁öken	-9.62167
▁spjut	-9.62167
▁därinne	-9.62167
▁städerna	-9.62178
Giv	-9.62178
▁mark	-9.62386
▁tänker	-9.62467
K	-9.62545
Detta	-9.6279
▁blotta	-9.63028
▁klippa	-9.63185
▁skörd	-9.63305
▁havande	-9.63486
▁förra	-9.6349
▁berömm	-9.63624
)	-9.63659
▁hunger	-9.63659
▁störta	-9.63659
▁öra	-9.63659
▁Sikem	-9.63659
▁ödemark	-9.63659
▁gäller	-9.6366
▁viss	-9.63759
▁finge	-9.63762
▁Josefs	-9.63812
▁Joas	-9.63918
▁somliga	-9.64002
samma	-9.64195
▁kläd	-9.64218
▁välsignade	-9.64428
▁Denne	-9.64443
▁tjurar	-9.64534
▁skatter	-9.64607
▁ved	-9.64655
▁ropar	-9.64864
vänd	-9.65156
▁Abimelek	-9.65174
▁Libanon	-9.65174
▁skriftlärde	-9.65174
▁drickoffer	-9.65177
▁åsyn	-9.65184
▁torr	-9.65195
syn	-9.652
▁glädja	-9.65204
▁herde	-9.6522
▁vinträd	-9.65239
▁kaldéerna	-9.65289
Din	-9.6567
▁Hav	-9.65712
▁Här	-9.65714
▁helgedom	-9.65724
▁hjälpa	-9.65741
▁häng	-9.65773
larna	-9.65961
▁rör	-9.6606
gå	-9.66108
▁stadga	-9.66375
▁strö	-9.66712
▁driva	-9.66713
▁hungersnöd	-9.66713
▁vilse	-9.66714
▁fariséerna	-9.66732
▁skada	-9.66737
▁sändebud	-9.66748
tåg	-9.66768
▁Ahi	-9.66795
▁därigenom	-9.6682
▁född	-9.67443
ty	-9.67798
▁glada	-9.67922
lösa	-9.6798
▁hållen	-9.68056
▁Ki	-9.68071
?'	-9.68204
näst	-9.6824
▁styr	-9.68245
▁Galileen	-9.68275
▁Jeriko	-9.68275
▁araméerna	-9.68275
▁sköt	-9.68275
▁särskild	-9.68275
▁bedriv	-9.68275
▁frimodig	-9.68275
▁ålder	-9.68275
▁betryck	-9.68276
▁eldsoffer	-9.68276
▁lycka	-9.68277
▁Jehu	-9.68289
▁Hör	-9.68465
▁vandrar	-9.68716
D	-9.68731
Stå	-9.68786
föll	-9.6879
▁frambära	-9.68799
▁byar	-9.68818
▁synda	-9.68874
▁tom	-9.68881
▁vika	-9.6896
▁lågo	-9.6909
heten	-9.69144
▁bild	-9.69317
▁furste	-9.69358
▁inga	-9.69552
giva	-9.69823
▁gräs	-9.69863
▁tungomål	-9.69863
▁person	-9.69863
▁honung	-9.69866
▁fett	-9.69875
▁skepp	-9.69936
▁hjärtat	-9.70068
▁Sara	-9.70147
▁angrip	-9.70249
▁kände	-9.7038
▁träffade	-9.70479
▁små	-9.70553
utom	-9.70677
jor	-9.70887
▁judar	-9.70932
bud	-9.70944
▁tider	-9.71032
▁fånga	-9.71283
▁Sidkia	-9.71476
▁beskär	-9.71476
▁psalm	-9.71476
▁dryck	-9.71476
▁heter	-9.71521
dde	-9.71681
▁fångar	-9.7178
▁Lik	-9.71895
offer	-9.71995
▁sänder	-9.72037
bild	-9.72042
▁ogudaktigas	-9.72066
▁sjuk	-9.7209
mannen	-9.72117
▁vänd	-9.72155
▁konungarna	-9.72595
▁uppteckna	-9.72638
▁vädurar	-9.72762
▁ond	-9.73069
▁tackoffer	-9.73118
▁Abner	-9.73118
▁möda	-9.73122
▁bedrövelse	-9.73123
▁stånd	-9.73171
▁Abrahams	-9.73258
▁förrätta	-9.73279
efter	-9.73421
▁dödade	-9.73544
vil	-9.73698
▁skänker	-9.73733
▁Säg	-9.73735
▁översteprästen	-9.73741
▁inre	-9.73957
▁gången	-9.74056
få	-9.74462
lagt	-9.74498
▁Bileam	-9.74782
▁Damaskus	-9.74782
▁förvandla	-9.74782
▁Basan	-9.74782
▁pass	-9.74788
▁garn	-9.74791
tiden	-9.74791
▁Abram	-9.74798
▁förbliva	-9.748
▁ungdom	-9.74803
▁talrik	-9.74805
▁sov	-9.74807
▁begått	-9.74907
▁smorde	-9.74976
T	-9.75381
▁sluta	-9.75502
▁strömmar	-9.75567
▁folks	-9.75711
▁dräpt	-9.75773
▁människo	-9.75852
▁vittnesbördet	-9.75977
▁änglar	-9.76048
unnit	-9.76424
▁Mordokai	-9.76476
▁sannerligen	-9.76476
▁alltsammans	-9.76476
▁belägra	-9.76476
▁lukt	-9.76477
▁efa	-9.76477
▁Noa	-9.76483
▁vänner	-9.76485
▁ax	-9.76493
▁trofasthet	-9.76494
▁kroppen	-9.76552
▁Medan	-9.76661
lag	-9.76784
vid	-9.76838
▁Sannerligen	-9.77137
▁konungars	-9.77145
▁byggt	-9.77241
»;	-9.77589
▁kallas	-9.77709
▁Efter	-9.77851
V	-9.7799
▁vedergäll	-9.78018
▁likt	-9.78048
▁sextio	-9.78176
▁ångest	-9.78201
▁bruka	-9.78201
▁skog	-9.78212
▁hemsökelse	-9.78222
▁begå	-9.78324
▁nödga	-9.78336
▁frisk	-9.78452
▁övergivit	-9.78454
översteprästerna	-9.78478
▁beder	-9.78496
▁rov	-9.78663
▁himmel	-9.78671
▁vind	-9.78673
sak	-9.78898
satt	-9.78997
▁menighet	-9.79179
▁nå	-9.7919
▁muren	-9.79324
▁Nebukadnessar	-9.79955
▁sutto	-9.79955
▁törst	-9.79955
▁växa	-9.79955
▁oförnuft	-9.79955
▁Jojada	-9.79955
▁pest	-9.79962
▁gudsmannen	-9.79965
▁stänk	-9.79966
kammare	-9.79968
E	-9.79976
▁gossen	-9.80109
▁femte	-9.8016
▁räck	-9.80175
▁bygg	-9.80192
min	-9.80215
▁kroppar	-9.80352
▁lovade	-9.80491
ock	-9.80624
▁helt	-9.80704
▁döm	-9.8074
▁anden	-9.80784
▁behöv	-9.81143
▁höjden	-9.81223
▁syndare	-9.81403
▁fattiga	-9.81443
handa	-9.8147
▁lova	-9.81474
▁händerna	-9.81483
▁välde	-9.8151
▁begiv	-9.81512
slag	-9.81613
▁Allsmäktige	-9.81741
▁babyloni	-9.81741
▁försmäkta	-9.81741
▁hämnd	-9.81741
▁mätte	-9.81741
▁pröva	-9.81741
▁röva	-9.81741
▁sångmästaren	-9.81741
▁rycka	-9.81741
▁spillo	-9.81741
▁herdar	-9.81742
▁våg	-9.81743
▁fåfänglighet	-9.81747
skild	-9.81765
▁orent	-9.81791
▁funno	-9.818
▁vise	-9.81823
▁dörrar	-9.81847
▁bosatt	-9.81919
▁ditin	-9.81935
▁vinning	-9.82026
pi	-9.82217
▁V	-9.82227
▁månader	-9.82243
▁slagit	-9.8227
▁sabbaten	-9.82446
▁ställ	-9.82472
▁fruktar	-9.82516
▁foro	-9.8252
▁tror	-9.82606
▁höga	-9.82757
landet	-9.82788
▁nådig	-9.82865
jud	-9.82968
▁huvudmän	-9.83179
▁Sal	-9.83266
▁Pilatus	-9.83559
▁Sadok	-9.83559
▁gästabud	-9.83559
▁palats	-9.83559
▁småboskap	-9.83559
▁Josia	-9.83559
▁Laban	-9.83559
▁glöd	-9.83559
▁Ussi	-9.8356
▁Ester	-9.83564
▁flykt	-9.83567
▁klaga	-9.83571
▁gälla	-9.83613
▁synden	-9.83637
▁lidande	-9.83642
▁Jerobeam	-9.83642
▁liten	-9.83646
satte	-9.83696
▁vittne	-9.83773
ikt	-9.83839
▁Skulle	-9.83868
▁oför	-9.83931
▁omvänd	-9.83976
▁orter	-9.84126
▁brunn	-9.84332
Hör	-9.84332
lägga	-9.84345
▁komme	-9.84377
▁varar	-9.84412
▁befästa	-9.84453
▁gåva	-9.84719
▁tung	-9.84764
▁rot	-9.84806
▁huvudet	-9.84816
▁bjud	-9.84953
▁Di	-9.85205
▁slipp	-9.85411
▁högmod	-9.85411
▁brud	-9.85411
▁vackla	-9.85411
▁Maria	-9.85412
▁kring	-9.85413
▁övertäck	-9.85427
▁bund	-9.85431
▁upptändes	-9.85448
▁hemlighet	-9.85466
Drag	-9.85486
▁främling	-9.85666
▁häpnad	-9.85713
▁glad	-9.85841
ledes	-9.85878
par	-9.85922
▁tänk	-9.85968
▁Salomos	-9.85972
▁Kan	-9.85975
▁fullt	-9.86095
porten	-9.86163
▁hel	-9.86615
taga	-9.86682
▁trolös	-9.86817
sju	-9.86843
▁ängeln	-9.86897
sätta	-9.86914
Upp	-9.87145
▁förkunnade	-9.87177
▁linne	-9.87197
▁mycken	-9.87223
▁felfri	-9.87297
▁hednafolk	-9.87297
▁prov	-9.87297
▁Messias	-9.87298
▁bittida	-9.87298
▁ryttare	-9.87298
▁uppbygg	-9.87298
▁yngling	-9.87298
▁brist	-9.873
▁brännoffret	-9.87301
▁ovanpå	-9.87302
▁Tyrus	-9.87306
▁kalk	-9.87308
▁ofärd	-9.8733
går	-9.87418
▁trösta	-9.8747
hörande	-9.87476
▁samlade	-9.87517
▁fiende	-9.87599
▁hemsöka	-9.87955
Gud	-9.88163
▁Din	-9.88204
▁hatar	-9.8825
▁detsamma	-9.8826
▁spetälska	-9.88275
▁afton	-9.8843
▁vädur	-9.88569
▁värde	-9.88951
städes	-9.8922
▁främst	-9.89221
▁östra	-9.89221
▁överflöd	-9.89221
▁klok	-9.89221
▁kananéerna	-9.89221
▁båge	-9.89226
▁miss	-9.89238
pelare	-9.89259
▁Haman	-9.89319
▁förlåta	-9.89446
fi	-9.89463
▁sabbat	-9.89626
▁Rubens	-9.89933
▁råda	-9.89995
G	-9.9003
P	-9.90114
▁bröderna	-9.90217
▁bered	-9.9037
▁svår	-9.90386
▁helgat	-9.9045
lyft	-9.90682
▁gån	-9.90709
▁herres	-9.90988
▁rök	-9.91147
▁vitt	-9.91162
▁Rehabeam	-9.91181
▁drottning	-9.91181
▁grät	-9.91181
▁rygg	-9.91181
▁åsnor	-9.91181
▁betyder	-9.91181
▁Helige	-9.91182
▁gagn	-9.91183
▁reste	-9.91186
▁säng	-9.91193
▁därutöver	-9.91268
▁åtta	-9.9135
▁tak	-9.91364
▁rum	-9.91407
▁Ham	-9.91446
▁Gå	-9.91458
▁bästa	-9.91539
▁bjuder	-9.91588
R	-9.92109
plats	-9.9211
▁vänt	-9.92344
▁böj	-9.92355
▁sköld	-9.92372
torka	-9.92489
▁Beer	-9.92555
lät	-9.92575
▁ort	-9.92995
▁räddade	-9.93005
▁söder	-9.93153
▁dröm	-9.93156
▁stött	-9.93169
▁Högste	-9.93181
▁Naftali	-9.93181
▁Simeon	-9.93181
▁begrov	-9.93181
▁brutit	-9.93181
▁bättring	-9.93181
▁eländig	-9.93181
▁förskingra	-9.93181
▁ohelga	-9.93181
▁tjänstgöring	-9.93181
▁föremål	-9.93182
▁offereld	-9.93182
▁nej	-9.93185
▁åsna	-9.93192
▁skugga	-9.93192
▁beslut	-9.93195
Lova	-9.93198
▁Joram	-9.93211
▁oxe	-9.93238
▁avkomlingar	-9.93376
▁munnen	-9.93407
▁frågar	-9.93585
▁märke	-9.93588
▁gift	-9.93654
▁orm	-9.93743
▁ler	-9.93782
▁förmår	-9.93801
▁fattige	-9.93834
▁missgärningar	-9.93915
▁förmå	-9.94116
djur	-9.94152
abb	-9.94238
▁hugg	-9.94292
▁sy	-9.94919
▁vinna	-9.94971
▁besvär	-9.95222
▁dröj	-9.95222
▁fjorton	-9.95222
▁kvarleva	-9.95222
▁mankön	-9.95222
▁rykte	-9.95222
▁Åter	-9.95222
▁flera	-9.95222
▁fotstycken	-9.95223
▁Asarja	-9.95223
▁liknelse	-9.95223
▁plundra	-9.95224
▁strå	-9.95225
▁halv	-9.95227
▁tjänarinna	-9.95234
▁Sodom	-9.95244
▁kalv	-9.95248
▁snara	-9.95263
▁larm	-9.95265
▁dörren	-9.95275
▁budskap	-9.95305
▁Lot	-9.95362
▁klädnad	-9.95398
anför	-9.95521
Skall	-9.95536
▁upplyft	-9.95577
▁sista	-9.9563
▁trälar	-9.95776
▁ve	-9.95906
▁tjänade	-9.9596
bliv	-9.96205
land	-9.96226
▁givet	-9.96255
▁leda	-9.96321
▁vinden	-9.9645
▁furstarna	-9.9647
gick	-9.96806
▁hämtade	-9.96826
▁andar	-9.96862
▁frukten	-9.96961
▁fattig	-9.97041
kast	-9.97139
▁undfå	-9.9724
▁Ismael	-9.97305
▁bespotta	-9.97305
▁bröst	-9.97305
▁iakttaga	-9.97305
▁kameler	-9.97306
▁trampa	-9.97306
kol	-9.9731
▁Natan	-9.97313
▁offergåva	-9.97315
Kommen	-9.97328
▁begärelse	-9.97358
▁anställ	-9.97393
följde	-9.97429
▁Asaf	-9.97561
▁hav	-9.97653
▁rörde	-9.97878
▁överträdelser	-9.97956
▁hin	-9.98083
▁ljuvlig	-9.98164
Ack	-9.9835
stycke	-9.98477
▁ansikten	-9.9864
▁fattade	-9.98663
▁Dina	-9.98667
▁förstår	-9.99001
▁domar	-9.992
▁antal	-9.99309
▁Gibea	-9.99433
▁Rakel	-9.99433
▁drive	-9.99433
▁korsfäst	-9.99433
▁särskilt	-9.99433
▁oskyldig	-9.99433
▁skär	-9.99433
▁Än	-9.99433
▁ihop	-9.99433
▁utvalda	-9.99434
▁övermod	-9.99435
▁gator	-9.99459
▁korn	-9.99472
▁fria	-9.99571
▁Mo	-9.9958
▁Mitt	-9.99619
▁antalet	-9.99632
▁orenhet	-9.99677
▁vek	-9.99787
lydande	-9.99794
må	-9.99814
▁undervisade	-10
▁Gör	-10.001
▁di	-10.002
▁härom	-10.0024
▁skål	-10.0039
▁bereda	-10.0056
▁evigheter	-10.0068
▁lösa	-10.0069
▁sinnet	-10.0093
▁gripa	-10.0112
En	-10.0137
▁aln	-10.0137
▁stoft	-10.0141
▁Jerobeams	-10.0151
▁förbundet	-10.0155
▁gärna	-10.0161
▁israeliterna	-10.0161
▁ljusstaken	-10.0161
▁utgjuta	-10.0161
▁hövdingdöme	-10.0161
▁vålla	-10.0161
▁bitter	-10.0161
▁oxar	-10.0161
▁vederfar	-10.0162
▁rev	-10.0164
▁närmast	-10.0168
▁fred	-10.0172
▁fäll	-10.0175
▁stoftet	-10.0181
▁fallit	-10.0192
▁döpa	-10.021
▁Ut	-10.0226
▁köpa	-10.0233
▁sker	-10.0245
▁blind	-10.0247
▁heligt	-10.0252
▁blott	-10.0256
▁riken	-10.0259
▁igenom	-10.0268
tjänar	-10.0268
▁befäst	-10.0274
▁höjd	-10.0333
▁riket	-10.0363
▁vittnen	-10.0365
▁kerub	-10.0379
▁Gideon	-10.0383
▁Sebulon	-10.0383
▁förvärva	-10.0383
▁hydda	-10.0383
▁sjätte	-10.0383
▁äger	-10.0383
▁trakt	-10.0383
▁övermåttan	-10.0383
▁blick	-10.0383
▁krönika	-10.0383
▁Tänk	-10.0384
▁sjukdom	-10.0385
▁förströ	-10.0389
▁verkligen	-10.0391
▁Sions	-10.0409
▁höjderna	-10.0416
▁mjölk	-10.0426
▁dött	-10.0435
▁vingårdar	-10.044
▁tuktan	-10.0442
▁värdig	-10.0456
▁helgade	-10.0458
▁hållit	-10.0467
▁Seba	-10.0474
höll	-10.0503
Seba	-10.051
▁ordning	-10.0524
Må	-10.0527
▁altaren	-10.0539
▁inmönstrades	-10.0543
▁par	-10.0555
▁nya	-10.0559
gått	-10.0584
Konung	-10.0609
▁Herodes	-10.061
▁Isaskar	-10.061
▁templet	-10.061
▁Simei	-10.061
▁förbundsark	-10.061
▁förstling	-10.061
▁herrar	-10.061
▁velat	-10.061
▁berett	-10.061
▁konungshuset	-10.0611
falt	-10.0611
▁blås	-10.0612
▁mindre	-10.0612
▁band	-10.0614
▁Dag	-10.0615
▁styrka	-10.0617
▁täcke	-10.062
lopp	-10.0625
▁begynnelsen	-10.0635
▁brödet	-10.066
▁bind	-10.0668
▁klippan	-10.0684
▁tänder	-10.0695
▁främlingen	-10.0699
▁svårt	-10.0703
▁högg	-10.0722
▁överste	-10.0732
kärl	-10.0735
ödra	-10.0738
▁vred	-10.074
▁voren	-10.0747
▁amoréernas	-10.0761
▁länd	-10.077
▁und	-10.079
▁by	-10.0804
▁tjänar	-10.0807
▁visar	-10.0818
lek	-10.0841
Mästare	-10.0843
▁Balak	-10.0843
▁Sakarja	-10.0843
▁förbränna	-10.0843
▁förhärliga	-10.0843
▁mötes	-10.0843
▁snö	-10.0843
▁underdånig	-10.0843
▁åminnelse	-10.0843
▁tjugufem	-10.0843
▁tillfälle	-10.0843
▁strand	-10.0843
▁utbred	-10.0843
▁Judeen	-10.0843
▁bedrag	-10.0845
▁keruberna	-10.0847
▁judisk	-10.0849
▁arv	-10.085
▁orättfärdighet	-10.0857
▁riv	-10.0859
▁folkslag	-10.0862
▁bredd	-10.087
▁hoppas	-10.0875
▁röra	-10.0878
Bort	-10.0879
▁vakta	-10.088
▁pilar	-10.0888
▁bredvid	-10.0897
▁tältet	-10.0901
▁krossade	-10.0926
▁månad	-10.0967
▁dårar	-10.097
▁tukta	-10.0985
▁råder	-10.1018
klipp	-10.1081
▁Över	-10.1081
Lehem	-10.1081
▁Jisreel	-10.1081
▁alltjämt	-10.1081
▁bestämt	-10.1081
▁mörkblått	-10.1081
▁offerhöjder	-10.1081
▁ångra	-10.1081
▁Benaja	-10.1081
▁sträng	-10.1081
▁fastmer	-10.1081
▁kyss	-10.1081
▁tvist	-10.1082
samme	-10.1083
▁Isai	-10.1085
▁skona	-10.1085
brett	-10.1087
▁rikt	-10.1093
▁bock	-10.1125
lys	-10.1134
▁bedrövad	-10.1154
▁skapat	-10.1155
▁slöt	-10.1189
Nej	-10.1217
▁lotten	-10.1264
▁kärleken	-10.1277
▁ingång	-10.1284
▁invånar	-10.1286
▁ringar	-10.1293
▁tröst	-10.1302
farit	-10.1315
▁förfölja	-10.1316
▁Ahas	-10.132
llenast	-10.1324
▁Kirjat	-10.1325
▁Amasja	-10.1325
▁Jojakim	-10.1325
▁förgjorde	-10.1325
▁tillbehör	-10.1325
▁törne	-10.1325
▁vänstra	-10.1325
▁uppståndelse	-10.1325
▁vakna	-10.1325
▁undervisning	-10.1325
▁Semaja	-10.1325
▁tända	-10.1325
▁Mispa	-10.1325
▁Silo	-10.1325
Hadad	-10.1325
▁någonsin	-10.1326
▁Kora	-10.1327
▁skor	-10.1328
▁utskifta	-10.1333
▁jubla	-10.1335
▁utgå	-10.1336
▁plägade	-10.1357
▁begraven	-10.1376
▁förmana	-10.138
▁dalen	-10.1396
▁inmönstrade	-10.1404
▁ris	-10.1417
▁kvinnorna	-10.1462
städer	-10.1468
▁uppenbarat	-10.1474
▁kallar	-10.1475
▁väldiga	-10.1479
hålla	-10.1505
Amen	-10.1554
▁lärt	-10.1554
▁filisté	-10.1571
▁väster	-10.1572
dräkt	-10.1574
▁väv	-10.1574
▁Gilgal	-10.1575
▁drabanterna	-10.1575
▁hyddor	-10.1575
▁myndighet	-10.1575
▁släppa	-10.1575
▁sömn	-10.1575
▁tappra	-10.1575
▁utplåna	-10.1575
▁sucka	-10.1575
▁önska	-10.1575
▁krona	-10.1575
▁brände	-10.1575
▁fikonträd	-10.1576
▁grenar	-10.1577
▁överdrag	-10.1578
▁Seir	-10.1588
▁däremot	-10.1594
▁ätit	-10.1598
▁skickade	-10.1611
▁Gat	-10.162
▁Vänd	-10.1626
▁skilja	-10.1631
huset	-10.1633
▁bestämda	-10.1642
▁give	-10.1642
▁flytta	-10.1655
led	-10.1656
▁Rama	-10.1702
▁Ack	-10.1704
▁evighet	-10.1718
▁träden	-10.172
▁Sem	-10.1721
Allt	-10.1724
▁behålla	-10.1727
Be	-10.1736
▁slaktade	-10.1783
▁Ana	-10.1804
▁vete	-10.1821
▁hund	-10.1825
▁timme	-10.1826
▁lovsång	-10.1831
▁Jesaja	-10.1831
▁Midjan	-10.1831
▁Simson	-10.1831
▁föreskrivet	-10.1831
▁offergärd	-10.1831
▁burit	-10.1831
▁svek	-10.1831
▁Under	-10.1831
▁fläck	-10.1831
▁Uria	-10.1831
▁skrev	-10.1831
▁talenter	-10.1831
▁härskaror	-10.1832
▁skapa	-10.1832
▁Stor	-10.1832
▁tiondedel	-10.1834
▁förlåten	-10.1834
▁änden	-10.1837
▁härskara	-10.1838
▁husfolk	-10.1846
▁behöva	-10.1862
▁förakt	-10.1863
drevo	-10.1875
▁förvara	-10.1877
▁behöver	-10.1887
▁gensträviga	-10.1903
▁tjuren	-10.1908
▁armar	-10.1919
▁förtorka	-10.1951
▁uppenbarade	-10.1957
▁vinet	-10.1965
▁begärde	-10.1976
▁brunnen	-10.1984
▁Ram	-10.1988
emot	-10.2003
▁Stå	-10.2011
▁förskräckt	-10.2017
▁bese	-10.2017
samt	-10.2031
▁kallat	-10.2036
▁sol	-10.2036
▁bockar	-10.2051
▁själar	-10.2054
▁aktade	-10.2064
mmel	-10.2077
ryta	-10.2092
▁ihjäl	-10.2094
▁Hesbon	-10.2094
▁anklaga	-10.2094
▁begjut	-10.2094
▁bihustru	-10.2094
▁bådo	-10.2094
▁ungtjur	-10.2094
▁ädla	-10.2094
▁gudstjänst	-10.2094
▁överallt	-10.2094
▁känt	-10.2095
▁Konungen	-10.2096
▁Tala	-10.2096
▁källa	-10.2096
skurna	-10.2096
▁aska	-10.2097
▁Vår	-10.2097
▁skriften	-10.2099
▁röd	-10.2099
▁ogudaktighet	-10.2101
▁tredjedel	-10.2101
undrade	-10.2103
▁härefter	-10.2105
▁höjder	-10.2109
▁besinn	-10.2118
▁dömer	-10.2152
▁löften	-10.2154
▁ovän	-10.2159
▁amoréerna	-10.2188
▁nitälskan	-10.2202
▁efterfölj	-10.2211
▁översten	-10.2231
▁Sin	-10.2233
▁skörda	-10.2237
▁hugga	-10.2237
▁allting	-10.2249
▁grip	-10.2258
▁överträdelse	-10.2281
▁hedningar	-10.232
▁intog	-10.2348
▁övr	-10.2362
▁även	-10.2365
väpnade	-10.2365
▁Kaleb	-10.2365
▁gärd	-10.2365
▁konungadöme	-10.2365
▁kungör	-10.2365
▁upphöjd	-10.2365
▁äktenskapsbrott	-10.2365
▁betyga	-10.2365
▁anförare	-10.2365
▁vapen	-10.2365
▁skräck	-10.2365
▁femton	-10.2365
▁krets	-10.2365
▁Satan	-10.2365
▁Sinai	-10.2367
▁dy	-10.237
▁Ahasja	-10.2371
▁anslag	-10.2371
▁trygghet	-10.2372
▁Hamat	-10.2374
▁buk	-10.2376
▁växte	-10.2377
▁uttala	-10.2379
▁apostlarna	-10.2387
▁fog	-10.2401
byggnad	-10.2413
sätt	-10.2434
mått	-10.2436
▁drev	-10.2475
▁böner	-10.2485
▁bota	-10.2515
folk	-10.252
innes	-10.252
färd	-10.2527
Sannerligen	-10.2534
gjort	-10.2535
Denne	-10.254
▁visst	-10.2544
▁besatt	-10.2548
▁lyssnade	-10.2564
▁beläten	-10.2626
▁Gibeon	-10.2642
▁efoden	-10.2642
▁förskräcka	-10.2642
▁plötslig	-10.2642
▁svärdsegg	-10.2642
▁tjuv	-10.2642
▁tjänstekvinna	-10.2642
▁värn	-10.2642
▁övermäktig	-10.2642
▁Assur	-10.2642
▁längd	-10.2642
▁Merari	-10.2642
▁buga	-10.2642
▁blygas	-10.2642
▁lemmar	-10.2642
▁himlar	-10.2643
▁vänster	-10.2643
▁skaror	-10.2643
▁framgent	-10.2643
▁våd	-10.2643
▁utgöra	-10.2643
▁livklädnad	-10.2644
▁lysa	-10.265
▁Vidare	-10.2656
▁uppstod	-10.2665
▁läst	-10.2674
▁lustgård	-10.269
▁Ai	-10.2706
stående	-10.2719
uja	-10.2734
▁tack	-10.2737
▁kunnig	-10.275
▁böjde	-10.2759
▁därjämte	-10.2806
▁ovan	-10.2818
Säg	-10.282
Icke	-10.2821
När	-10.2821
▁stöd	-10.2822
såg	-10.2828
▁vista	-10.2833
▁sjuka	-10.285
hövitsmännen	-10.2865
dalen	-10.2866
▁flytt	-10.2869
▁häpna	-10.2881
jungen	-10.2887
▁svär	-10.2892
▁gläd	-10.2925
▁grön	-10.2926
▁Sydlandet	-10.2928
▁flickan	-10.2928
▁gräv	-10.2928
▁märkt	-10.2928
▁ryckte	-10.2928
▁tabernakel	-10.2928
▁yttre	-10.2928
▁trött	-10.2928
▁utkräv	-10.2928
▁åttonde	-10.2928
▁förklara	-10.2928
▁Sihon	-10.2928
▁utvalde	-10.2929
▁famn	-10.2929
▁visdom	-10.293
▁fromma	-10.293
▁brinnande	-10.2931
▁förneka	-10.2932
▁fågel	-10.2932
▁cederträ	-10.2938
▁stjärnorna	-10.2942
▁fältet	-10.2942
▁skria	-10.2942
▁hemsök	-10.2946
▁storligen	-10.2948
▁hemma	-10.2952
stodo	-10.2966
▁båten	-10.2976
▁mal	-10.2984
▁andarna	-10.2991
▁uppfylla	-10.3002
▁förskräckta	-10.302
▁djupet	-10.3035
▁begära	-10.3044
▁skjuta	-10.3087
igenom	-10.3094
▁fötterna	-10.312
▁trolösa	-10.3123
▁hud	-10.3168
▁börda	-10.3171
▁härlig	-10.3172
▁skicka	-10.318
▁pläga	-10.3183
▁korg	-10.3195
▁stena	-10.3199
▁avgud	-10.3205
▁orättfärdig	-10.3205
▁trygg	-10.3214
▁Ti	-10.3215
▁åttio	-10.3222
▁stolpar	-10.3222
▁årsgam	-10.3222
Välsigna	-10.3222
▁Filippus	-10.3222
▁Hilkia	-10.3222
▁förhäv	-10.3222
▁molnskyn	-10.3222
▁oomskurna	-10.3222
▁osyrade	-10.3222
▁rosenrö	-10.3222
▁vrång	-10.3222
▁ägodelar	-10.3222
▁vandel	-10.3222
▁ådrag	-10.3222
▁konst	-10.3222
▁tårar	-10.3222
▁bran	-10.3223
▁torn	-10.3223
▁Abia	-10.3225
▁Lea	-10.3226
▁lyste	-10.3226
▁teg	-10.3226
▁avund	-10.3228
▁ogärningsmän	-10.323
▁fordom	-10.3234
brot	-10.3234
▁härpå	-10.3237
▁uppstått	-10.3249
▁yttersta	-10.3249
▁vilddjuret	-10.3258
▁skrivit	-10.3259
▁sålde	-10.3265
under	-10.327
▁tjän	-10.3284
▁uttydning	-10.3294
▁Vilk	-10.3296
▁leder	-10.3353
▁fienden	-10.3357
▁ensam	-10.3361
▁härliga	-10.3367
▁väduren	-10.3388
▁blinda	-10.3407
▁riklig	-10.3411
Här	-10.3417
Nu	-10.3422
▁gensträvig	-10.3441
▁frälsar	-10.3454
▁begrava	-10.3457
▁mörk	-10.3486
▁Ju	-10.3515
▁barmhärtig	-10.3518
▁fåfäng	-10.3521
▁bly	-10.3525
▁Johanan	-10.3525
▁Nebukadressar	-10.3525
▁bedjen	-10.3525
▁efterkommande	-10.3525
▁förnämsta	-10.3525
▁förstfött	-10.3525
▁grotta	-10.3525
▁gräshoppor	-10.3525
▁moderlivet	-10.3525
▁nalkas	-10.3525
▁nionde	-10.3525
▁teckna	-10.3525
▁uppenbarelse	-10.3525
▁väktar	-10.3525
▁ägde	-10.3525
▁visserligen	-10.3525
▁hjul	-10.3525
▁fresta	-10.3525
▁frivillig	-10.3525
▁ugn	-10.3525
▁befallde	-10.3525
▁Kehat	-10.3525
▁brus	-10.3526
▁måltid	-10.3527
▁baner	-10.3527
▁grek	-10.3527
▁hindra	-10.3528
▁kanhända	-10.353
▁stadsport	-10.3535
▁förmer	-10.3539
▁härifrån	-10.3554
▁grepo	-10.3555
▁säll	-10.3562
▁bordet	-10.3585
▁stridsmän	-10.3592
▁härska	-10.3599
▁huden	-10.3601
▁upptecknade	-10.3615
▁krigsmän	-10.3619
inner	-10.3637
▁sköldar	-10.365
▁överstepräst	-10.3669
▁Sådan	-10.3669
tiotvå	-10.3689
▁otro	-10.3708
▁dyrbara	-10.3728
höjden	-10.373
▁bestämd	-10.3754
▁Hor	-10.3755
▁uträckt	-10.378
▁farisé	-10.3834
▁örn	-10.3838
▁Gedalja	-10.3838
▁Rebecka	-10.3838
▁bräder	-10.3838
▁djävulen	-10.3838
▁fylla	-10.3838
▁fästa	-10.3838
▁kämpa	-10.3838
▁lampor	-10.3838
▁ljungeld	-10.3838
▁möta	-10.3838
▁släppt	-10.3838
▁gröda	-10.3838
▁motståndare	-10.3838
▁ditned	-10.3838
▁stridbara	-10.3838
▁knän	-10.3838
▁sorgdräkt	-10.3839
▁fira	-10.3839
▁skäl	-10.3843
▁egendom	-10.3844
▁angår	-10.3845
▁lovligt	-10.3848
▁beslutit	-10.3856
▁fränder	-10.3866
girig	-10.3884
▁botade	-10.3884
▁älsk	-10.391
▁änglarna	-10.3918
kaka	-10.393
▁dyrbar	-10.3949
▁förhus	-10.3962
▁ring	-10.3999
▁värd	-10.4041
▁fånge	-10.4045
tiofem	-10.4057
▁pryd	-10.4134
▁anse	-10.4136
▁sjö	-10.416
▁Ahasveros	-10.416
▁Ytterligare	-10.416
▁aderton	-10.416
▁avfällighet	-10.416
▁avkomma	-10.416
▁bägare	-10.416
▁däröver	-10.416
▁fullkomlig	-10.416
▁längta	-10.416
▁purpurrött	-10.416
▁påskhögtid	-10.416
▁sköka	-10.416
▁svurit	-10.416
▁sälja	-10.416
▁tillbådo	-10.416
▁tillsyningsmän	-10.416
▁utväljer	-10.416
▁västra	-10.416
▁beståndande	-10.416
▁ständig	-10.416
▁stötesten	-10.416
▁krigsfolk	-10.416
▁moabit	-10.416
▁darra	-10.416
▁grann	-10.416
▁täckelse	-10.416
▁Sidon	-10.416
▁försynda	-10.4161
▁fruktansvärd	-10.4161
▁dyrka	-10.4161
▁sjunga	-10.4161
▁likaså	-10.4162
▁arter	-10.4162
▁raka	-10.4163
▁betala	-10.4165
▁gap	-10.4165
▁invig	-10.4168
▁österut	-10.4169
▁grop	-10.4175
▁last	-10.4181
▁förtälja	-10.4198
▁säck	-10.4264
▁lärjunge	-10.4285
lott	-10.44
▁lån	-10.4424
Följ	-10.4425
▁Do	-10.4443
Välan	-10.4465
▁Ebjatar	-10.4494
▁bekymmer	-10.4494
▁bönhör	-10.4494
▁dåraktig	-10.4494
▁dödsklagan	-10.4494
▁föräldrar	-10.4494
▁göt	-10.4494
▁hungrig	-10.4494
▁lögnaktig	-10.4494
▁sabbatsdagen	-10.4494
▁samvete	-10.4494
▁ståthållare	-10.4494
▁trumpet	-10.4494
▁yngre	-10.4494
▁fostr	-10.4494
▁vattna	-10.4494
▁Safan	-10.4494
▁Jefta	-10.4494
▁Obed	-10.4494
▁betyda	-10.4494
▁tillstadde	-10.4494
▁befallt	-10.4494
▁insikt	-10.4494
▁vanlig	-10.4495
▁skuldoffer	-10.4496
▁orenlighet	-10.4499
▁utropa	-10.45
▁Saba	-10.4501
▁berömmelse	-10.4501
▁redliga	-10.4503
▁sångarna	-10.4515
▁dricker	-10.4526
▁änkor	-10.4531
▁framgång	-10.4539
▁skapade	-10.4582
▁oro	-10.4621
▁sabbater	-10.4631
▁färdig	-10.4636
▁förbida	-10.4678
Gör	-10.473
▁upptänd	-10.4832
▁Lammet	-10.4838
▁brokig	-10.4838
▁löv	-10.4838
▁nymånad	-10.4838
▁räkning	-10.4838
▁säker	-10.4838
▁tacksägelse	-10.4838
▁ömka	-10.4838
▁öppet	-10.4838
▁räddning	-10.4838
▁åstunda	-10.4839
▁----	-10.4839
▁Hananja	-10.4839
allel	-10.4839
▁dårskap	-10.4839
▁förjaga	-10.4839
▁locka	-10.484
▁funne	-10.484
▁pant	-10.4841
▁tanke	-10.4842
▁begrav	-10.4844
▁döpt	-10.4845
▁dråpare	-10.4847
drivna	-10.4847
▁spåmän	-10.485
▁flyter	-10.4851
▁Ditt	-10.4852
▁vaka	-10.4852
▁skaka	-10.4855
given	-10.4867
▁häst	-10.4896
▁flyga	-10.4898
▁tillsade	-10.4905
▁meddela	-10.4922
summa	-10.4926
▁häl	-10.4948
▁gärning	-10.513
▁vilddjur	-10.5152
▁besök	-10.519
▁Tarsis	-10.5196
▁Barnabas	-10.5196
▁akacieträ	-10.5196
▁assyrisk	-10.5196
▁bespeja	-10.5196
▁delaktig	-10.5196
▁dubbel	-10.5196
▁faderlöse	-10.5196
▁förblev	-10.5196
▁förfärad	-10.5196
▁himmelriket	-10.5196
▁jämra	-10.5196
▁kryddor	-10.5196
▁lyckosam	-10.5196
▁plågor	-10.5196
▁uppsluka	-10.5196
▁växer	-10.5196
▁äkta	-10.5196
▁knorra	-10.5196
▁Baesa	-10.5196
▁elände	-10.5196
▁gamle	-10.5196
▁betänk	-10.5197
▁jebuséerna	-10.5197
▁Kades	-10.5197
▁drömmen	-10.5198
▁grönska	-10.5199
anska	-10.52
▁mängd	-10.5201
▁fördrag	-10.5203
▁skrivelse	-10.5209
▁sekreteraren	-10.5211
▁överdrog	-10.5212
▁förtäljde	-10.5214
▁intaga	-10.5224
▁Väl	-10.5227
▁lin	-10.523
▁Hur	-10.5232
▁synes	-10.5239
▁nit	-10.5245
▁fatt	-10.5265
▁fräls	-10.5276
slöto	-10.5399
▁bränn	-10.5413
lämna	-10.5431
▁känd	-10.5448
kommer	-10.5448
vikit	-10.5495
▁utstå	-10.551
Sua	-10.5522
ldrig	-10.5565
▁Amalek	-10.5566
▁Amnon	-10.5566
▁Häls	-10.5566
▁begynna	-10.5566
▁fyrfotadjur	-10.5566
▁hämna	-10.5566
▁härhövitsman	-10.5566
▁kedjor	-10.5566
▁omstörta	-10.5566
▁psaltare	-10.5566
▁upphöja	-10.5566
▁upphöjt	-10.5566
▁ögonblick	-10.5566
▁befäl	-10.5566
▁Sallum	-10.5566
▁nasir	-10.5566
sinnig	-10.5566
▁panna	-10.5566
▁anseende	-10.5566
▁pund	-10.5567
▁fångna	-10.5567
▁framåt	-10.5569
▁naken	-10.557
▁Samma	-10.5571
▁skändlighet	-10.5573
▁Soba	-10.5573
▁förföljare	-10.5579
▁härtill	-10.5601
▁väggen	-10.5621
▁avdelningar	-10.5649
▁heta	-10.5664
Hel	-10.5708
▁rad	-10.5721
▁strömma	-10.5773
▁gravar	-10.5799
O	-10.5829
broder	-10.5843
sex	-10.5846
▁pil	-10.5879
▁sänd	-10.5897
▁Bättre	-10.5951
▁Karmel	-10.5951
▁betjäna	-10.5951
▁drucko	-10.5951
▁fördenskull	-10.5951
▁jämn	-10.5951
▁lovsjunga	-10.5951
▁njurar	-10.5951
▁njuta	-10.5951
▁nådastolen	-10.5951
▁ofruktsam	-10.5951
▁ordspråk	-10.5951
▁stormvind	-10.5951
▁svärfader	-10.5951
▁vattnen	-10.5951
▁vederkvick	-10.5951
▁förmörka	-10.5951
▁hagel	-10.5951
▁handfyllning	-10.5951
▁hellre	-10.5951
▁Baruk	-10.5951
▁innersta	-10.5951
▁Tamar	-10.5951
▁legat	-10.5951
▁försåt	-10.5951
▁fördold	-10.5951
▁förstocka	-10.5951
▁syntes	-10.5951
▁tjugufyra	-10.5952
▁drömmar	-10.5953
▁Esra	-10.5953
▁förvilla	-10.5955
▁västerut	-10.5955
▁förlita	-10.5956
Skaff	-10.5957
▁brinn	-10.5958
▁budbärare	-10.5961
Intet	-10.5962
▁Elam	-10.5971
▁intogo	-10.5974
▁rening	-10.5988
▁behåll	-10.599
▁godhet	-10.5995
▁företag	-10.6113
▁vällukt	-10.6178
▁drick	-10.6185
▁frambär	-10.6216
ämne	-10.6235
Eftersom	-10.6243
lust	-10.6252
▁avdelning	-10.6263
Saliga	-10.6308
▁Malki	-10.6351
▁Mesullam	-10.6351
▁Pinehas	-10.6351
▁Samarien	-10.6351
▁bälte	-10.6351
▁helgedomssik	-10.6351
▁hjälte	-10.6351
▁misskund	-10.6351
▁spisoffret	-10.6351
▁Nasaret	-10.6351
▁kejsaren	-10.6351
▁plundring	-10.6351
▁äventyr	-10.6351
▁berättelse	-10.6351
▁stolta	-10.6351
▁uträcka	-10.6351
▁pelarna	-10.6351
▁Nebat	-10.6351
stift	-10.6351
▁Arnon	-10.6351
▁Seraja	-10.6351
▁skipa	-10.6351
▁heder	-10.6351
syssla	-10.6351
▁damm	-10.6351
▁Boas	-10.6351
▁betalning	-10.6351
▁förödelse	-10.6351
▁tackoffret	-10.6352
▁Nåd	-10.6352
▁hövitsmannen	-10.6353
▁hetta	-10.6354
▁hetiterna	-10.6358
▁svärja	-10.6359
▁ståndaktighet	-10.6369
▁församlingarna	-10.6375
▁bortförd	-10.64
löst	-10.6407
bryter	-10.6493
▁salig	-10.6499
▁förskjut	-10.6507
luktande	-10.6526
vänt	-10.6655
Frå	-10.666
▁sist	-10.67
▁fält	-10.6747
▁bedrev	-10.6749
▁räd	-10.6756
anhända	-10.6762
▁betesmark	-10.6767
▁söt	-10.6767
▁terebint	-10.6767
Folket	-10.6767
ngalunda	-10.6767
▁Darejaves	-10.6767
▁Joahas	-10.6767
▁Lakis	-10.6767
▁Serujas	-10.6767
▁Timoteus	-10.6767
▁bröllop	-10.6767
▁etiopier	-10.6767
▁förgrymmelse	-10.6767
▁förgäves	-10.6767
▁mild	-10.6767
▁smädelse	-10.6767
▁stjäl	-10.6767
▁tavlor	-10.6767
▁tecknet	-10.6767
▁tillräkna	-10.6767
▁tjugutvå	-10.6767
▁trångmål	-10.6767
▁upphäva	-10.6767
▁vandren	-10.6767
▁viftoffer	-10.6767
▁åkrar	-10.6767
▁örter	-10.6767
▁drack	-10.6767
▁försvinna	-10.6767
▁längs	-10.6767
▁Kores	-10.6767
▁tretton	-10.6767
▁sexton	-10.6768
▁himmelska	-10.6768
▁Jotam	-10.6768
▁fräck	-10.6768
▁siare	-10.6768
▁kränk	-10.6768
Håll	-10.6769
▁vilda	-10.6769
▁förmådde	-10.6769
▁Jabes	-10.6769
▁harpor	-10.6769
▁försvara	-10.677
▁torg	-10.677
▁feta	-10.6771
▁rådslag	-10.6772
▁vinner	-10.6772
Frid	-10.6778
▁bojor	-10.678
▁hemfall	-10.6784
▁aga	-10.6792
ffa	-10.6797
▁föreståndar	-10.6802
▁druvor	-10.6854
▁harpa	-10.6874
▁familj	-10.6901
▁bryt	-10.6929
▁understöd	-10.6969
givit	-10.6985
gåva	-10.6988
▁tände	-10.7043
▁fördärvlig	-10.7054
▁ikläd	-10.7068
erska	-10.7085
▁båt	-10.713
▁begynnelse	-10.7154
▁fikon	-10.72
Sätt	-10.7202
Träd	-10.7202
▁Ekron	-10.7202
▁Gomorra	-10.7202
▁Maaseja	-10.7202
▁arbets	-10.7202
▁dörrvaktarna	-10.7202
▁egyptisk	-10.7202
▁förhärja	-10.7202
▁hebreisk	-10.7202
▁hebré	-10.7202
▁osyrat	-10.7202
▁pelarhuvud	-10.7202
▁saktmod	-10.7202
▁sammalunda	-10.7202
▁tolfte	-10.7202
▁utgjutit	-10.7202
▁utseende	-10.7202
▁värre	-10.7202
▁ägare	-10.7202
▁ämbete	-10.7202
▁öppning	-10.7202
2	-10.7202
▁Jäm	-10.7202
▁granatäpple	-10.7202
▁killing	-10.7202
▁tillspillogiv	-10.7202
▁tjock	-10.7202
▁tröskel	-10.7202
▁flöda	-10.7202
▁förfärdiga	-10.7202
▁Frälsare	-10.7202
▁spetsen	-10.7202
▁grym	-10.7202
▁Hasael	-10.7202
▁framsida	-10.7202
▁Kain	-10.7202
▁kungjor	-10.7203
▁sanden	-10.7203
▁uppsikt	-10.7203
▁Given	-10.7204
▁utfärda	-10.7206
▁söderut	-10.7209
▁hörsamma	-10.7212
▁skägg	-10.7213
▁list	-10.7213
veck	-10.7215
▁undfått	-10.7217
▁dans	-10.7225
▁Mång	-10.7226
▁skinn	-10.7239
▁låd	-10.7267
▁dräp	-10.7296
Semes	-10.7395
hållit	-10.7441
illa	-10.7491
▁altar	-10.7522
fyra	-10.7548
gift	-10.7549
Där	-10.7549
Oc	-10.7551
gingo	-10.7551
Vilk	-10.7552
▁bäst	-10.7573
klädd	-10.7588
▁grep	-10.7612
▁ståndaktig	-10.7636
utöver	-10.7636
skaffen	-10.7657
▁Esaias	-10.7657
▁Macedonien	-10.7657
▁allraheligaste	-10.7657
▁anskaffa	-10.7657
▁antända	-10.7657
▁begrunda	-10.7657
▁blodskuld	-10.7657
▁bokrulle	-10.7657
▁ersättning	-10.7657
▁hungra	-10.7657
▁klagorop	-10.7657
▁näsa	-10.7657
▁omkull	-10.7657
▁perisséerna	-10.7657
▁silvret	-10.7657
▁smörjelseolja	-10.7657
▁sysslor	-10.7657
▁sålunda	-10.7657
▁tjänarinnor	-10.7657
▁Likaledes	-10.7657
▁Makir	-10.7657
▁Nabal	-10.7657
▁bakhåll	-10.7657
▁natur	-10.7657
▁glans	-10.7657
▁Amos	-10.7657
▁Susan	-10.7657
▁ammonit	-10.7657
▁tvag	-10.7657
▁grundvalar	-10.7657
▁miste	-10.7658
▁log	-10.7658
▁Gasa	-10.7658
▁elva	-10.7658
▁dold	-10.7658
▁kind	-10.766
▁svin	-10.766
▁skydd	-10.766
tvinna	-10.7661
▁bördig	-10.7661
▁smaka	-10.7661
▁rådslut	-10.7664
▁tjugutre	-10.7666
▁ull	-10.7669
▁duvor	-10.7673
▁olik	-10.7677
▁skänk	-10.7692
arbete	-10.7705
▁vedergällning	-10.7706
lydnad	-10.7714
▁tjur	-10.7715
▁uppmana	-10.7723
ärtes	-10.7806
▁slakt	-10.7874
ledning	-10.7888
▁konungslig	-10.7894
▁Ruben	-10.7956
▁sido	-10.8009
N	-10.8017
▁uttyd	-10.8022
skilja	-10.8024
bredvid	-10.8025
hövding	-10.8025
bröd	-10.8026
▁flod	-10.8042
▁egyptier	-10.8073
kläder	-10.8102
▁cypress	-10.8133
0	-10.8133
▁Gerson	-10.8133
▁Isebel	-10.8133
▁Persien	-10.8133
▁Serubbabel	-10.8133
▁amalekiterna	-10.8133
▁apostel	-10.8133
▁frågen	-10.8133
▁förvirring	-10.8133
▁genomborra	-10.8133
▁havsländer	-10.8133
▁häftig	-10.8133
▁häravdelning	-10.8133
▁klöv	-10.8133
▁middag	-10.8133
▁orättrådig	-10.8133
▁ouppsåtlig	-10.8133
▁publikan	-10.8133
▁purpur	-10.8133
▁påskalammet	-10.8133
▁rämna	-10.8133
▁sammankomst	-10.8133
▁skilje	-10.8133
▁smort	-10.8133
▁spärra	-10.8133
▁vanära	-10.8133
▁vapendragare	-10.8133
▁vånda	-10.8133
▁yngste	-10.8133
▁ypperst	-10.8133
▁äldre	-10.8133
▁arvslott	-10.8133
▁kunglig	-10.8133
▁oomskure	-10.8133
▁Hiram	-10.8133
▁årsgammal	-10.8133
▁Amasa	-10.8133
▁Nabot	-10.8133
▁Elkana	-10.8133
▁Geba	-10.8133
▁skända	-10.8133
▁Akis	-10.8133
▁Sisera	-10.8133
▁Timna	-10.8133
▁Itamar	-10.8133
▁ödelagd	-10.8133
▁omringa	-10.8133
▁framställde	-10.8133
▁bommar	-10.8133
▁svor	-10.8133
▁uppdrag	-10.8133
▁underbara	-10.8134
▁kuva	-10.8134
▁vifta	-10.8134
▁rycke	-10.8135
▁sprid	-10.8135
▁profetia	-10.8136
▁fåfängliga	-10.8137
▁hån	-10.8141
▁dånet	-10.815
bränt	-10.8151
▁undkomm	-10.8179
Tro	-10.8212
▁gudlös	-10.835
spill	-10.8359
▁nedgjord	-10.841
▁skjut	-10.8428
kunniga	-10.8441
▁orolig	-10.8455
körde	-10.8482
Till	-10.8525
HERRE	-10.8525
Edom	-10.8529
▁försök	-10.8593
▁ceder	-10.8615
▁skändlig	-10.8623
▁fönster	-10.8633
▁hedmark	-10.8633
▁tröskplats	-10.8633
Rätt	-10.8633
ammansvärjning	-10.8633
▁Ahitofel	-10.8633
▁Netanja	-10.8633
▁Nilfloden	-10.8633
▁Noomi	-10.8633
▁Obadja	-10.8633
▁Själv	-10.8633
▁drucken	-10.8633
▁druckit	-10.8633
▁druckna	-10.8633
▁elfte	-10.8633
▁fängsla	-10.8633
▁hivéerna	-10.8633
▁jämmer	-10.8633
▁levitisk	-10.8633
▁märka	-10.8633
▁plocka	-10.8633
▁surdeg	-10.8633
▁tidsålder	-10.8633
▁tillkommelse	-10.8633
▁vedermöda	-10.8633
▁åsninna	-10.8633
▁stappla	-10.8633
▁äktenskapsbryt	-10.8633
▁mutor	-10.8633
▁Nadab	-10.8633
▁omsorg	-10.8633
▁vredgas	-10.8633
▁gatan	-10.8633
▁lagbok	-10.8633
▁Maaka	-10.8633
▁håg	-10.8633
▁härskri	-10.8633
▁skicklig	-10.8634
▁ingenting	-10.8634
▁Ahikam	-10.8635
▁kost	-10.8637
▁varelser	-10.8637
seglade	-10.8639
▁köttslig	-10.8681
▁tukt	-10.8703
ordnade	-10.883
▁spetälsk	-10.8887
trogen	-10.8917
kommit	-10.9016
ehåll	-10.902
evad	-10.9036
märke	-10.9051
Vänd	-10.9051
Med	-10.9056
visso	-10.907
▁smord	-10.9097
▁hövitsman	-10.9156
▁välsigne	-10.9159
saltaret	-10.9159
▁Abisai	-10.9159
▁Antiokia	-10.9159
▁Asdod	-10.9159
▁Sammalunda	-10.9159
▁Suckot	-10.9159
▁benjaminit	-10.9159
▁cedrar	-10.9159
▁fyrfat	-10.9159
▁förfäran	-10.9159
▁hårdnacka	-10.9159
▁jordbävning	-10.9159
▁klagosång	-10.9159
▁kraftgärningar	-10.9159
▁lampa	-10.9159
▁livsfrukt	-10.9159
▁lugn	-10.9159
▁omskära	-10.9159
▁orygglig	-10.9159
▁palmer	-10.9159
▁smörjelse	-10.9159
▁systrar	-10.9159
▁sälje	-10.9159
▁tempelkamrar	-10.9159
▁tålamod	-10.9159
▁utgöt	-10.9159
▁kruka	-10.9159
▁strömmen	-10.9159
▁lidit	-10.9159
▁släppe	-10.9159
▁angrep	-10.9159
▁befria	-10.9159
▁Asien	-10.9159
▁trädgård	-10.9159
▁Simri	-10.9159
▁otrogna	-10.9159
▁förvissna	-10.9159
▁hårdhet	-10.9159
▁ostraffad	-10.9159
▁halm	-10.9159
▁Peres	-10.9159
▁lider	-10.916
▁landsmän	-10.916
▁hänt	-10.9161
▁upptagen	-10.9161
▁förrådshus	-10.9161
▁rinna	-10.9164
Stann	-10.9171
▁spela	-10.9175
prydnad	-10.9203
▁åligg	-10.9255
erskor	-10.9255
▁Gera	-10.9272
stängd	-10.9338
gårdarna	-10.9513
▁druv	-10.9599
Ingen	-10.9607
tjänst	-10.9607
Dessa	-10.9608
Sänd	-10.9609
▁besitt	-10.9685
växt	-10.9688
▁nittio	-10.9703
ugga	-10.9708
▁trofast	-10.9709
▁from	-10.9712
▁våldsam	-10.9713
Bär	-10.9715
blommor	-10.9715
tillrättavisning	-10.9715
utgjuter	-10.9715
▁Hesron	-10.9715
▁Kegila	-10.9715
▁Libna	-10.9715
▁Loven	-10.9715
▁Tobia	-10.9715
▁belägring	-10.9715
▁beröva	-10.9715
▁bestämmer	-10.9715
▁bröstskölden	-10.9715
▁fullkomna	-10.9715
▁fyllde	-10.9715
▁fördriva	-10.9715
▁glöm	-10.9715
▁högheligt	-10.9715
▁korteligen	-10.9715
▁kräldjur	-10.9715
▁landshövdingen	-10.9715
▁majestät	-10.9715
▁morgonrodnaden	-10.9715
▁möjligt	-10.9715
▁plöj	-10.9715
▁rådsherrar	-10.9715
▁röj	-10.9715
▁rötter	-10.9715
▁sannfärdig	-10.9715
▁sonhustru	-10.9715
▁svärmoder	-10.9715
▁tillbörligt	-10.9715
▁infria	-10.9715
▁Tirsa	-10.9715
▁förhänge	-10.9715
▁förnumm	-10.9715
▁hitupp	-10.9715
▁inbjud	-10.9715
▁krok	-10.9715
▁högeligen	-10.9715
▁försagd	-10.9715
▁glatt	-10.9715
▁koka	-10.9715
Jearim	-10.9715
▁skarp	-10.9715
▁Nahor	-10.9715
▁hetiten	-10.9715
▁ruiner	-10.9716
▁bekänne	-10.9716
▁avkastning	-10.9716
▁utsänd	-10.9716
▁Manoa	-10.9716
▁kiv	-10.9716
▁spira	-10.9717
▁fina	-10.9717
▁doppa	-10.9722
▁fru	-10.9728
▁Andr	-10.9742
▁penning	-10.9847
skålar	-10.9871
▁parti	-10.9912
Horon	-11.0058
▁nitälska	-11.0063
gudar	-11.014
▁begynt	-11.0183
kunnen	-11.0195
fråga	-11.0196
▁hövitsmän	-11.0197
huggna	-11.0259
Sake	-11.029
rått	-11.0299
▁gudsman	-11.03
▁evangeli	-11.0301
▁regering	-11.0303
▁Ahimelek	-11.0303
▁Bergsbygden	-11.0303
▁Cesarea	-11.0303
▁Eljasib	-11.0303
▁Etiopien	-11.0303
▁Hedmarken	-11.0303
▁Låglandet	-11.0303
▁blomster	-11.0303
▁dörrpost	-11.0303
▁exempel	-11.0303
▁förföljer	-11.0303
▁gasell	-11.0303
▁hankön	-11.0303
▁krukmakar	-11.0303
▁långmodig	-11.0303
▁mästare	-11.0303
▁mönstrade	-11.0303
▁omskärelse	-11.0303
▁skonsamhet	-11.0303
▁tordön	-11.0303
▁upphäve	-11.0303
▁uthärda	-11.0303
▁Atalja	-11.0303
▁Barak	-11.0303
▁avföda	-11.0303
▁bjälk	-11.0303
▁förlorat	-11.0303
▁inföding	-11.0303
▁skördetiden	-11.0303
▁utlova	-11.0303
faldig	-11.0303
▁Likaså	-11.0303
▁landshövdingar	-11.0303
▁tyckte	-11.0303
▁Horeb	-11.0303
▁rytande	-11.0303
▁Teman	-11.0303
▁böljor	-11.0303
▁knapp	-11.0303
▁frambur	-11.0303
▁orsak	-11.0303
▁getter	-11.0303
▁färdades	-11.0304
▁närmare	-11.0305
Ammi	-11.0305
Församl	-11.0306
krans	-11.0307
▁förmaning	-11.0308
▁försvunn	-11.0308
▁uträtta	-11.0322
▁förtjäna	-11.0324
▁beläte	-11.034
▁stann	-11.0706
drog	-11.0792
Skulle	-11.082
hjälp	-11.0821
stund	-11.0832
▁därovan	-11.0862
▁avkomling	-11.0867
▁apostlar	-11.0876
▁stjärnor	-11.0898
väsen	-11.0927
▁förskräcke	-11.0928
▁Nebusa	-11.0928
▁Efesus	-11.0928
▁Jefunne	-11.0928
▁Kapernaum	-11.0928
▁Mattanja	-11.0928
▁Nineve	-11.0928
▁avgrunden	-11.0928
▁beskydd	-11.0928
▁betrakta	-11.0928
▁bädd	-11.0928
▁frestelse	-11.0928
▁förbrutit	-11.0928
▁förföljelse	-11.0928
▁huvudbindel	-11.0928
▁insegel	-11.0928
▁landsflykt	-11.0928
▁lottkastning	-11.0928
▁nalkades	-11.0928
▁offren	-11.0928
▁oförgänglig	-11.0928
▁rubeniterna	-11.0928
▁styggelig	-11.0928
▁tillförsikt	-11.0928
▁vuxit	-11.0928
▁värt	-11.0928
▁Åklagaren	-11.0928
▁öppen	-11.0928
▁förtrampa	-11.0928
▁sikel	-11.0928
▁tempelsalen	-11.0928
▁Amarja	-11.0928
▁jubelåret	-11.0928
▁bekant	-11.0928
▁lyte	-11.0928
▁Anatot	-11.0928
▁boskapsdjur	-11.0928
▁flöde	-11.0928
▁Kvinn	-11.0928
▁hitned	-11.0928
▁besked	-11.0928
▁källor	-11.0928
▁närvaro	-11.0928
▁kakor	-11.0929
▁Eber	-11.0929
läglar	-11.0932
▁rand	-11.0933
▁rulle	-11.0943
Stig	-11.097
▁bistå	-11.1508
▁frände	-11.1533
▁ogärning	-11.1577
framt	-11.1594
Nego	-11.1595
▁Eljakim	-11.1595
▁Jedutun	-11.1595
▁Jonadab	-11.1595
▁Mirjam	-11.1595
▁Oljeberget	-11.1595
▁Sanherib	-11.1595
▁Vatten	-11.1595
▁bågar	-11.1595
▁cymbaler	-11.1595
▁enträget	-11.1595
▁fyrkant	-11.1595
▁förbjöd	-11.1595
▁förlossning	-11.1595
▁gestalt	-11.1595
▁gudsfruktan	-11.1595
▁hugnad	-11.1595
▁landsbygden	-11.1595
▁myrra	-11.1595
▁rafaéerna	-11.1595
▁rannsakning	-11.1595
▁sammansvur	-11.1595
▁skattkamrar	-11.1595
▁smycken	-11.1595
▁tillbedjen	-11.1595
▁trolova	-11.1595
▁trävirke	-11.1595
▁tvärstänger	-11.1595
▁undersök	-11.1595
▁vallfartssång	-11.1595
▁ädlingar	-11.1595
▁åsninnor	-11.1595
▁återhållsamhet	-11.1595
▁Ahimaas	-11.1595
▁Bilha	-11.1595
▁Hasabja	-11.1595
▁Hosea	-11.1595
▁Siklag	-11.1595
▁befann	-11.1595
▁förebrå	-11.1595
▁gissla	-11.1595
▁nämner	-11.1595
▁upphängd	-11.1595
▁förbrände	-11.1595
▁förvaltare	-11.1595
▁gemensam	-11.1595
▁Ahitub	-11.1595
▁fingrar	-11.1595
▁fördolt	-11.1595
▁endräktigt	-11.1595
▁snabba	-11.1595
▁uppegga	-11.1595
▁Elifas	-11.1595
▁svans	-11.1595
▁trettiotvå	-11.1595
▁sjutton	-11.1595
▁Merib	-11.1595
▁mottagit	-11.1595
▁romersk	-11.1595
▁kransar	-11.1595
▁sträcke	-11.1595
▁medbröder	-11.1595
▁Aroer	-11.1595
▁Gosen	-11.1595
▁huggorm	-11.1595
▁vävnad	-11.1596
▁Medien	-11.1596
▁telning	-11.1599
klätt	-11.16
trogne	-11.1602
Peor	-11.1613
▁krigshövitsmän	-11.1682
▁gömme	-11.1843
liggande	-11.1845
▁ogudaktig	-11.2043
▁bedröv	-11.2085
berget	-11.2202
skifta	-11.2284
▁krön	-11.2307
▁Oholiba	-11.2309
▁östanvind	-11.2309
▁björn	-11.2309
▁medborgar	-11.2309
▁oförfärad	-11.2309
▁utrannsaka	-11.2309
Präste	-11.2309
Skynd	-11.2309
flöt	-11.2309
▁Abigail	-11.2309
▁Artasasta	-11.2309
▁Efron	-11.2309
▁Eglon	-11.2309
▁Festus	-11.2309
▁Jerubbaal	-11.2309
▁Josabad	-11.2309
▁Netanel	-11.2309
▁behandla	-11.2309
▁bergfäste	-11.2309
▁drista	-11.2309
▁dödsskugga	-11.2309
▁fotapall	-11.2309
▁främja	-11.2309
▁fyllest	-11.2309
▁fyllt	-11.2309
▁fönstret	-11.2309
▁hänryckning	-11.2309
▁konstförfar	-11.2309
▁kvistar	-11.2309
▁ledsaga	-11.2309
▁luttra	-11.2309
▁lystnad	-11.2309
▁midjaniterna	-11.2309
▁nämna	-11.2309
▁olycks	-11.2309
▁omhängen	-11.2309
▁pliktig	-11.2309
▁skrymtare	-11.2309
▁strängaspel	-11.2309
▁svavel	-11.2309
▁tahasskinn	-11.2309
▁tillkommande	-11.2309
▁tillrättavisa	-11.2309
▁töcken	-11.2309
▁vandring	-11.2309
▁vinpress	-11.2309
▁Husai	-11.2309
▁anbefall	-11.2309
▁förlorade	-11.2309
▁klappa	-11.2309
▁pansar	-11.2309
▁slätten	-11.2309
▁Sadrak	-11.2309
▁förlidna	-11.2309
▁slockna	-11.2309
▁finnen	-11.2309
▁glänsa	-11.2309
▁tillsagt	-11.2309
▁Amram	-11.2309
▁bäckenställen	-11.2309
▁utsago	-11.2309
▁doft	-11.2309
▁samarit	-11.2309
bruten	-11.2309
▁Någ	-11.2309
▁brännoffersdjur	-11.2309
▁dörrvaktare	-11.2309
▁inrista	-11.2309
▁gaditerna	-11.2309
skifte	-11.2309
▁nederlag	-11.2309
▁Jorden	-11.2309
▁Ussa	-11.2309
▁Peka	-11.231
▁tumm	-11.231
▁använde	-11.231
▁vräng	-11.231
▁flytning	-11.2313
Rabbi	-11.2316
▁timmermän	-11.2328
▁linnekläde	-11.2363
▁maktlös	-11.2366
▁innehåll	-11.2386
Kall	-11.2505
▁silverskål	-11.253
skjuta	-11.2669
▁svik	-11.2698
U	-11.297
straff	-11.2971
David	-11.2971
bringan	-11.2997
▁gosse	-11.3009
▁tvärt	-11.3078
▁Amminadab	-11.3078
▁Askelon	-11.3078
▁Josadak	-11.3078
▁Mahanaim	-11.3078
▁Rättfärdig	-11.3078
▁arvsbesittning	-11.3078
▁barnaföderska	-11.3078
▁begagna	-11.3078
▁bekänna	-11.3078
▁förgänglig	-11.3078
▁höves	-11.3078
▁kehatiterna	-11.3078
▁konungatron	-11.3078
▁mellersta	-11.3078
▁midjanitisk	-11.3078
▁människohänder	-11.3078
▁mätsnöre	-11.3078
▁oförståndiga	-11.3078
▁ohörsamma	-11.3078
▁oskära	-11.3078
▁rannsaka	-11.3078
▁räkenskap	-11.3078
▁sadducéer	-11.3078
▁satraper	-11.3078
▁sidonierna	-11.3078
▁signetring	-11.3078
▁skrämm	-11.3078
▁skådebröden	-11.3078
▁syndoffersbock	-11.3078
▁tjuguåtta	-11.3078
▁tjänstgjorde	-11.3078
▁träldomshuset	-11.3078
▁uppskriv	-11.3078
▁vattenkällor	-11.3078
▁ynnest	-11.3078
▁ättföljd	-11.3078
▁öglor	-11.3078
Hjälp	-11.3078
gemenskap	-11.3078
kämpe	-11.3078
▁Abihu	-11.3078
▁arameisk	-11.3078
▁basunljud	-11.3078
▁bekymr	-11.3078
▁döljer	-11.3078
▁feber	-11.3078
▁paddor	-11.3078
▁planer	-11.3078
▁rådgivare	-11.3078
▁slunga	-11.3078
▁vackra	-11.3078
▁begabba	-11.3078
▁härstamma	-11.3078
▁rankor	-11.3078
▁trapp	-11.3078
▁Sefatja	-11.3078
▁sprang	-11.3078
▁domstol	-11.3078
▁Andreas	-11.3078
▁Jedaja	-11.3078
▁allestädes	-11.3078
▁betrodd	-11.3078
▁Ofir	-11.3078
▁köpenskap	-11.3078
▁Rekab	-11.3078
▁Jehiel	-11.3078
▁offergåvor	-11.3078
Vakna	-11.3078
▁mista	-11.3078
▁underhåll	-11.3078
▁uppkallat	-11.3078
▁Hermon	-11.3078
▁yppa	-11.3078
▁Titus	-11.3078
▁släpa	-11.3078
▁springa	-11.3078
▁arvinge	-11.3085
▁bördeman	-11.3088
Två	-11.3095
värdighet	-11.3229
fogade	-11.3275
giver	-11.3303
▁fördrev	-11.3466
▁hämt	-11.3469
▁förtälj	-11.3767
Israel	-11.3804
släkt	-11.3805
▁dråp	-11.3891
vkomlingar	-11.3911
▁Babylon	-11.3911
▁elfenben	-11.3911
▁misshandla	-11.3911
▁munskänk	-11.3911
▁safir	-11.3911
▁skyndsam	-11.3911
färgad	-11.3911
tecknen	-11.3911
▁Abinadab	-11.3911
▁Barsillai	-11.3911
▁Betania	-11.3911
▁Gehasi	-11.3911
▁Gehenna	-11.3911
▁Kidron	-11.3911
▁Lasarus	-11.3911
▁Maheli	-11.3911
▁Megiddo	-11.3911
▁Pashur	-11.3911
▁Rädd	-11.3911
▁Salmunna	-11.3911
▁Sebedeus	-11.3911
▁avskaffade	-11.3911
▁bedräglig	-11.3911
▁begynner	-11.3911
▁frossa	-11.3911
▁fängelsegården	-11.3911
▁förgängelse	-11.3911
▁förnämste	-11.3911
▁förskräcklig	-11.3911
▁gruvlig	-11.3911
▁håvor	-11.3911
▁högheliga	-11.3911
▁instrumenter	-11.3911
▁jordagods	-11.3911
▁konstvävnad	-11.3911
▁lyssnen	-11.3911
▁mörda	-11.3911
▁otillbörlig	-11.3911
▁prästadöme	-11.3911
▁sannskyldig	-11.3911
▁släktregister	-11.3911
▁snärja	-11.3911
▁stentavlor	-11.3911
▁ståthållarna	-11.3911
▁sväng	-11.3911
▁sväva	-11.3911
▁säcktyg	-11.3911
▁tillstädja	-11.3911
▁undfly	-11.3911
▁uppbära	-11.3911
▁vanvett	-11.3911
▁vilostad	-11.3911
▁våldsverkare	-11.3911
▁ymnig	-11.3911
6	-11.8182
1	-11.961
ó	-12.1277
9	-12.1277
Y	-12.1277
5	-12.3277
7	-12.3277
3	-12.3277
í	-12.5777
]	-13.411
8	-14.41
4	-14.4101
C	-14.4102
(	-14.4103
Ö	-14.4104
Å	-14.4105
Ä	-14.4106
L	-14.4107
J	-14.4108
ö	-14.4109
á	-14.411
ä	-14.411
