<pad>	0
</s>	0
<unk>	0
▁t	-0
in	-1
he	-2
▁a	-3
re	-4
on	-5
▁the	-6
at	-7
▁s	-8
en	-9
er	-10
▁c	-11
or	-12
▁o	-13
is	-14
ed	-15
▁w	-16
▁in	-17
es	-18
▁p	-19
an	-20
it	-21
▁of	-22
as	-23
al	-24
▁b	-25
▁f	-26
▁d	-27
ing	-28
▁h	-29
▁to	-30
ar	-31
nd	-32
ion	-33
ent	-34
ou	-35
ic	-36
▁m	-37
il	-38
ac	-39
om	-40
▁and	-41
ve	-42
▁be	-43
▁T	-44
▁th	-45
▁n	-46
le	-47
▁re	-48
id	-49
▁v	-50
ec	-51
▁C	-52
▁is	-53
▁M	-54
tr	-55
os	-56
▁l	-57
us	-58
ation	-59
ir	-60
▁A	-61
▁g	-62
▁e	-63
▁I	-64
▁S	-65
▁The	-66
ay	-67
ow	-68
▁st	-69
ot	-70
▁for	-71
ver	-72
ly	-73
ol	-74
ad	-75
▁on	-76
ur	-77
im	-78
ut	-79
oron	-80
ill	-81
ave	-82
▁are	-83
op	-84
ter	-85
acc	-86
accin	-87
orona	-88
ment	-89
▁vaccin	-90
ect	-91
ate	-92
et	-93
▁P	-94
▁that	-95
▁has	-96
um	-97
▁H	-98
▁pr	-99
▁al	-100
am	-101
oc	-102
▁have	-103
ati	-104
ce	-105
ith	-106
▁con	-107
th	-108
ig	-109
▁D	-110
▁an	-111
▁with	-112
▁B	-113
▁we	-114
ld	-115
un	-116
▁r	-117
od	-118
ak	-119
ch	-120
and	-121
st	-122
▁corona	-123
▁he	-124
rom	-125
▁1	-126
▁was	-127
est	-128
▁as	-129
ers	-130
ents	-131
▁will	-132
ul	-133
▁from	-134
▁W	-135
▁dis	-136
her	-137
iv	-138
fect	-139
▁2	-140
em	-141
ov	-142
▁wh	-143
ies	-144
ort	-145
▁y	-146
▁not	-147
▁pati	-148
▁R	-149
ain	-150
▁or	-151
▁go	-152
ore	-153
▁at	-154
▁sh	-155
ct	-156
if	-157
▁by	-158
se	-159
pp	-160
ab	-161
umb	-162
▁been	-163
ity	-164
ome	-165
ag	-166
▁it	-167
▁de	-168
▁sa	-169
▁patients	-170
oun	-171
▁ex	-172
res	-173
▁this	-174
irus	-175
▁vaccine	-176
▁ne	-177
▁su	-178
vern	-179
▁tr	-180
ial	-181
▁N	-182
vernment	-183
ive	-184
ess	-185
▁In	-186
el	-187
ople	-188
inis	-189
ase	-190
alth	-191
eople	-192
▁O	-193
▁com	-194
ia	-195
▁said	-196
▁inc	-197
▁U	-198
ant	-199
▁wor	-200
ould	-201
qu	-202
ions	-203
so	-204
▁res	-205
ren	-206
▁"	-207
art	-208
ud	-209
▁government	-210
▁(	-211
▁people	-212
pt	-213
ical	-214
▁Th	-215
ated	-216
har	-217
ther	-218
our	-219
▁also	-220
ict	-221
gen	-222
▁F	-223
act	-224
pit	-225
▁im	-226
▁state	-227
hi	-228
red	-229
▁infect	-230
own	-231
ovid	-232
19	-233
▁se	-234
▁numb	-235
port	-236
▁K	-237
ays	-238
iz	-239
▁us	-240
▁cl	-241
▁were	-242
pital	-243
▁ch	-244
▁G	-245
▁ad	-246
▁per	-247
▁virus	-248
▁He	-249
▁can	-250
▁af	-251
ary	-252
▁test	-253
ap	-254
trict	-255
ospital	-256
▁number	-257
▁u	-258
▁sp	-259
▁le	-260
end	-261
out	-262
igh	-263
▁ab	-264
cc	-265
-19	-266
ts	-267
▁Minis	-268
av	-269
▁coun	-270
▁20	-271
▁E	-272
ash	-273
▁Corona	-274
ock	-275
ge	-276
ous	-277
▁sy	-278
▁all	-279
▁Ind	-280
ast	-281
ear	-282
▁countr	-283
gh	-284
any	-285
ib	-286
▁should	-287
▁other	-288
▁work	-289
ard	-290
ime	-291
▁J	-292
▁health	-293
ans	-294
tra	-295
▁Minister	-296
ord	-297
ound	-298
ke	-299
ack	-300
▁there	-301
▁Ma	-302
ough	-303
▁had	-304
▁out	-305
xy	-306
are	-307
ue	-308
▁cent	-309
vel	-310
ose	-311
ail	-312
▁tak	-313
xygen	-314
▁cr	-315
ist	-316
reat	-317
▁hospital	-318
ID	-319
▁me	-320
og	-321
OV	-322
fic	-323
▁comp	-324
ost	-325
OVID	-326
ine	-327
▁app	-328
▁Mahar	-329
ure	-330
ator	-331
ashtra	-332
▁pl	-333
▁after	-334
▁Maharashtra	-335
▁oxygen	-336
▁who	-337
▁ag	-338
▁COVID	-339
▁pre	-340
▁India	-341
▁di	-342
▁V	-343
all	-344
00	-345
▁exp	-346
▁you	-347
▁cont	-348
▁incre	-349
▁Ch	-350
▁whe	-351
ond	-352
age	-353
ild	-354
orm	-355
uc	-356
▁Dr	-357
oV	-358
down	-359
▁hand	-360
▁L	-361
▁dec	-362
ockdown	-363
▁do	-364
ens	-365
ub	-366
able	-367
ance	-368
▁3	-369
ath	-370
▁It	-371
▁dise	-372
▁about	-373
ef	-374
ai	-375
▁more	-376
one	-377
ased	-378
ates	-379
ew	-380
ip	-381
▁This	-382
ile	-383
ases	-384
ong	-385
ide	-386
▁their	-387
▁Pr	-388
▁rec	-389
ations	-390
CoV	-391
▁lockdown	-392
▁than	-393
▁time	-394
arch	-395
nder	-396
▁But	-397
ever	-398
▁new	-399
uct	-400
ight	-401
pr	-402
▁so	-403
read	-404
▁no	-405
▁tw	-406
▁med	-407
▁ef	-408
RS	-409
▁5	-410
▁Wh	-411
ru	-412
▁infection	-413
▁under	-414
ep	-415
lic	-416
ob	-417
form	-418
ll	-419
▁some	-420
▁k	-421
iss	-422
ording	-423
▁	-424
e	-425
t	-426
a	-427
i	-428
o	-429
n	-430
s	-431
r	-432
h	-433
d	-434
l	-435
c	-436
u	-437
m	-438
p	-439
f	-440
g	-441
y	-442
v	-443
w	-444
.	-445
b	-446
,	-447
k	-448
C	-449
T	-450
I	-451
A	-452
S	-453
M	-454
0	-455
-	-456
1	-457
2	-458
D	-459
P	-460
x	-461
H	-462
R	-463
B	-464
'	-465
O	-466
V	-467
W	-468
9	-469
"	-470
N	-471
E	-472
j	-473
z	-474
U	-475
5	-476
4	-477
3	-478
q	-479
K	-480
)	-481
F	-482
(	-483
G	-484
?	-485
8	-486
6	-487
J	-488
7	-489
L	-490
:	-491
%	-492
;	-493
Y	-494
/	-495
Z	-496
