<pad>	0
</s>	0
<unk>	0
¦	-1.27494
▁¦	-1.68988
▁	-2.88533
𐋇	-3.25311
ˈ	-3.35116
▁̈	-3.82646
▁,	-4.05656
ˈ¦	-4.20079
▁.	-4.46042
comam	-4.47567
naj	-4.75119
an	-4.83414
tu	-4.93038
ebnaj	-4.95471
yin	-4.97104
k	-5.03803
ti	-5.26962
caw	-5.29859
ha	-5.30125
a	-5.30684
xin	-5.32836
yul	-5.50231
anma	-5.51473
e	-5.52116
hune	-5.61094
yu	-5.63581
dios	-5.69255
is	-5.71071
yet	-5.72319
tzet	-5.75932
tet	-5.76848
yeb	-5.7886
ay	-5.80408
n	-5.83365
c	-5.85848
mach	-5.99408
o	-6.01689
▁:	-6.05407
wal	-6.10498
to	-6.1132
ẍi	-6.1254
ta	-6.15952
isc	-6.18161
han	-6.22765
ul	-6.23432
haca	-6.23785
ch	-6.26742
mac	-6.36369
▁―	-6.37372
chi	-6.37902
jes	-6.40651
sat	-6.45812
yuto	-6.45824
yaj	-6.485
sunil	-6.49373
tato	-6.51566
isk	-6.52873
yuxin	-6.54338
yalni	-6.54521
al	-6.56485
con	-6.61408
ix	-6.63402
s	-6.63773
en	-6.64014
tx	-6.64649
tz	-6.65061
ya	-6.65146
i	-6.65631
hac	-6.658
ni	-6.66622
ab	-6.69926
on	-6.71346
in	-6.72392
ek	-6.72478
isba	-6.73394
ban	-6.73993
cat	-6.74306
u	-6.74389
hunt	-6.77183
yi	-6.78855
ob	-6.79702
no	-6.80693
y	-6.81422
te	-6.81622
p	-6.8259
bey	-6.83007
xa	-6.836
,	-6.8498
he	-6.88895
co	-6.89231
can	-6.89525
hunu	-6.90106
bay	-6.95721
jan	-6.97899
cristo	-6.98126
ú	-7.00521
tic	-7.0082
bal	-7.01894
chu	-7.01931
ye	-7.03018
¿	-7.05011
paxo	-7.10361
ulal	-7.11343
▁?	-7.15629
hex	-7.1706
chal	-7.19946
yal	-7.20792
inal	-7.21234
machi	-7.22538
xol	-7.23971
lahwi	-7.24889
ayco	-7.26428
oj	-7.26799
teyet	-7.29915
ma	-7.30496
nan	-7.32209
yoc	-7.32702
tzoti	-7.33877
watx	-7.3513
.	-7.37327
il	-7.38854
j	-7.38966
ec	-7.42668
wi	-7.43157
israel	-7.47072
yip	-7.51699
tan	-7.53849
lax	-7.55041
hey	-7.57954
yun	-7.58183
lan	-7.58367
ischejab	-7.60048
istx	-7.60376
ojan	-7.61544
cha	-7.62096
cano	-7.63764
mam	-7.65504
chin	-7.70313
matxa	-7.72241
”	-7.73105
we	-7.74778
otx	-7.76263
el	-7.784
tajil	-7.78698
ojal	-7.78804
isya	-7.78998
oc	-7.79303
niman	-7.81374
chiwal	-7.81583
ayic	-7.81925
iswi	-7.82064
hunun	-7.8222
ton	-7.85129
atan	-7.86837
▁;	-7.87284
ib	-7.87856
yatut	-7.89241
haxa	-7.89551
lo	-7.90301
mo	-7.90357
iswatx	-7.91027
yelapno	-7.91092
ca	-7.91882
ebix	-7.92525
heba	-7.92577
ablo	-7.92781
ilo	-7.93138
ah	-7.94149
hanin	-7.96966
bil	-7.97971
isto	-7.9896
ista	-7.98991
espíritu	-7.99552
ixim	-8.0082
je	-8.00827
yilni	-8.0158
yilal	-8.02532
yapni	-8.02633
ley	-8.03303
texol	-8.03924
chex	-8.06105
yahawil	-8.06786
ojab	-8.07429
maca	-8.08272
sata	-8.08428
é	-8.08479
cuywom	-8.08718
wa	-8.09277
yehi	-8.1016
munil	-8.11202
ayto	-8.11906
istz	-8.12504
chon	-8.12685
ahol	-8.12873
t	-8.15121
la	-8.15314
maẍto	-8.15975
jet	-8.16535
yaben	-8.16537
howal	-8.17349
és	-8.18096
che	-8.18101
wet	-8.19259
xaco	-8.20516
icham	-8.22356
isbi	-8.22612
¡	-8.23316
edr	-8.24906
‐	-8.24906
win	-8.25184
ic	-8.25489
santo	-8.25583
cuybanile	-8.25635
juẍta	-8.2646
xan	-8.26796
ju	-8.26858
hach	-8.27023
nabal	-8.2748
matzwalil	-8.27752
teyin	-8.27972
▁!	-8.28009
xahan	-8.28178
ja	-8.28267
wetan	-8.2853
chia	-8.28739
tom	-8.28887
choche	-8.29024
taj	-8.29615
anil	-8.29909
ayo	-8.30256
sa	-8.3083
yebpaxo	-8.31096
yinta	-8.32606
ismul	-8.34578
ismajul	-8.34617
ba	-8.35422
maẍ	-8.35586
pax	-8.35642
ángel	-8.35911
nich	-8.36508
lahan	-8.37229
hec	-8.37544
yel	-8.3776
le	-8.38444
waxa	-8.38825
as	-8.39062
janma	-8.39543
canoj	-8.39653
inan	-8.40472
apni	-8.40677
juan	-8.40928
ón	-8.4114
yeli	-8.41373
b	-8.4151
jin	-8.41798
ap	-8.42109
amben	-8.43134
babel	-8.44862
yalnipaxo	-8.44924
na	-8.45559
yechel	-8.4944
yuninal	-8.49896
hi	-8.51016
xil	-8.51123
chiwa	-8.51199
maẍtaj	-8.51394
ico	-8.51851
mi	-8.53712
wan	-8.54206
yec	-8.56115
anmahil	-8.563
yah	-8.56398
ej	-8.56939
r	-8.56991
om	-8.58426
paxoj	-8.58451
chiyij	-8.59211
quin	-8.59396
chiswatx	-8.59938
rus	-8.60664
ex	-8.61255
yahaw	-8.61711
me	-8.62101
sacerdote	-8.62393
tiempo	-8.62964
yanico	-8.6339
macta	-8.63852
chalni	-8.64416
colbanil	-8.64765
isnimanil	-8.64818
aypaxo	-8.65389
heyu	-8.65433
wanma	-8.65496
ham	-8.66996
inc	-8.6745
cam	-8.67556
coba	-8.67952
isti	-8.67961
anxa	-8.68699
inmam	-8.68744
chioc	-8.6893
ayoj	-8.69414
chiyu	-8.7021
hunelxa	-8.711
ho	-8.71514
lin	-8.71982
ist	-8.73602
cheyute	-8.74813
yum	-8.7526
rey	-8.76129
yay	-8.76289
chito	-8.76459
isyelal	-8.77473
f	-8.79495
jahawil	-8.79614
hun	-8.8036
wuẍtaj	-8.80397
yohta	-8.8069
camom	-8.81058
machojab	-8.81573
hunxa	-8.81753
camic	-8.82551
wuh	-8.82765
hal	-8.83926
xahanbal	-8.84137
go	-8.85055
ac	-8.87057
ayat	-8.87297
chico	-8.88612
w	-8.8864
cuywawom	-8.88951
lah	-8.89237
machoj	-8.89324
winaj	-8.89394
chala	-8.89481
ayical	-8.89554
quex	-8.91356
es	-8.91641
diosal	-8.91839
ule	-8.9395
cheyil	-8.94443
chute	-8.95181
chihul	-8.95814
coc	-8.96249
iscam	-8.96848
yoj	-8.9699
ehal	-8.97492
preso	-8.97687
istzotel	-8.98021
yaco	-8.98434
cheya	-8.98523
helanil	-8.99396
chiec	-9.00195
xinto	-9.00656
oji	-9.00908
hanic	-9.01548
anc	-9.01685
yeco	-9.0208
wanab	-9.02208
bar	-9.02399
tiempohal	-9.02483
ra	-9.03332
hunel	-9.03382
yo	-9.0365
fariseo	-9.03671
chitit	-9.03931
eb	-9.0395
camo	-9.04253
melyu	-9.06353
iloj	-9.06465
ebilcano	-9.06752
yan	-9.07294
chul	-9.07436
inti	-9.0807
hunuxa	-9.08206
chaco	-9.08838
ismi	-9.08891
tzujan	-9.08966
heya	-9.09811
nipaxo	-9.10096
culus	-9.10981
ayex	-9.11464
heyalni	-9.1199
lek	-9.12651
unin	-9.12797
chis	-9.12872
li	-9.1361
man	-9.142
yute	-9.14293
chic	-9.14404
ip	-9.16385
um	-9.16409
h	-9.16783
mar	-9.17093
lal	-9.1724
hul	-9.1775
am	-9.17943
toj	-9.17943
sic	-9.18094
soldado	-9.19897
chihalni	-9.20023
ayc	-9.20138
ría	-9.20291
tzalahilal	-9.20939
ocan	-9.21368
chisje	-9.21643
yixal	-9.22077
aybal	-9.22853
conimanil	-9.23091
em	-9.23841
beh	-9.23999
elo	-9.2418
istoholal	-9.24237
sim	-9.25265
juẍtaj	-9.25385
anico	-9.25532
chischah	-9.2589
yabe	-9.26281
aban	-9.26441
yijem	-9.2654
itz	-9.26722
bi	-9.27543
haba	-9.27731
pan	-9.27749
paxto	-9.27785
abr	-9.28193
wintaj	-9.28596
jichmam	-9.29711
yoche	-9.29838
nime	-9.29949
yichico	-9.30692
obal	-9.31911
tzujno	-9.32029
istiempohal	-9.32447
ulo	-9.33213
hanta	-9.3357
aco	-9.34072
niẍte	-9.34367
saj	-9.34707
ambe	-9.34973
oht	-9.35336
chiwoche	-9.35596
inalo	-9.35871
ayxa	-9.36214
ayicto	-9.36739
itzitz	-9.36798
yaw	-9.36898
chaẍ	-9.36931
chawal	-9.37016
gali	-9.38026
herod	-9.39275
huno	-9.39516
loj	-9.40223
m	-9.40468
l	-9.40585
lea	-9.40716
yuch	-9.4207
taxca	-9.42198
wilni	-9.42416
bilin	-9.42586
walni	-9.42715
mule	-9.43155
nahat	-9.43198
inba	-9.43486
at	-9.43608
nico	-9.43726
nino	-9.43755
tawin	-9.43903
mil	-9.44034
ilni	-9.44152
ulan	-9.44609
cancano	-9.44621
ayilo	-9.44753
uc	-9.4505
ispaj	-9.45286
í	-9.45734
chil	-9.45823
yulaj	-9.45919
chitzala	-9.46046
chiapni	-9.46262
jilni	-9.46282
án	-9.47284
col	-9.48281
capilla	-9.4856
cablah	-9.48587
hawu	-9.48958
xewi	-9.48974
potx	-9.49265
ebil	-9.49327
chejab	-9.49383
aycano	-9.49662
jalni	-9.49854
haw	-9.50187
ar	-9.50554
ano	-9.50698
yijni	-9.50911
g	-9.50939
ixnam	-9.5129
jacob	-9.51294
ilwe	-9.51386
chiya	-9.51955
halni	-9.5201
istohol	-9.52831
anni	-9.53021
chejbanile	-9.53082
chiel	-9.53165
cach	-9.53198
cheyal	-9.5344
yinito	-9.53463
chielico	-9.53911
si	-9.54067
johtaj	-9.54369
cheyaco	-9.54413
isbeybal	-9.54636
issaj	-9.54717
cheyala	-9.54755
yetbi	-9.55427
wohtaj	-9.55614
pila	-9.55638
yala	-9.55974
habil	-9.56007
ayojab	-9.57287
ech	-9.57485
chim	-9.58214
ji	-9.58346
majan	-9.59597
carta	-9.60073
tri	-9.60184
jos	-9.60191
mame	-9.60931
cachan	-9.61019
anayo	-9.61041
heyet	-9.61336
tit	-9.61398
ismay	-9.61836
chitz	-9.61872
chawa	-9.62287
wu	-9.62306
yil	-9.62339
ischahni	-9.62553
chip	-9.62884
un	-9.6301
ischuquil	-9.63401
munlawom	-9.63413
hum	-9.63461
abxubal	-9.64947
yila	-9.64961
ach	-9.65141
yetxa	-9.65211
ahto	-9.65272
hitzico	-9.65522
walex	-9.65578
nito	-9.65671
yawten	-9.65791
yalno	-9.66441
colwa	-9.66917
hawalni	-9.67165
coxol	-9.67748
chihallax	-9.67757
halbilcano	-9.67806
xiw	-9.68138
chitzotel	-9.68176
caj	-9.68213
isyijen	-9.6833
weco	-9.68856
alom	-9.69084
yabil	-9.69106
uil	-9.69538
ahan	-9.70413
apno	-9.70538
hay	-9.70657
xe	-9.70768
pa	-9.71075
paxico	-9.7114
cab	-9.71206
yunin	-9.71302
islahobal	-9.71679
iscab	-9.71786
aycan	-9.71982
chach	-9.72056
titna	-9.72506
ewan	-9.72985
jahno	-9.73427
tioẍ	-9.73429
roma	-9.73498
oxeb	-9.73746
len	-9.73776
quexchi	-9.73821
dea	-9.73894
ayayo	-9.74361
laxto	-9.7466
yichamil	-9.74679
chija	-9.75177
chiq	-9.75253
comon	-9.75584
hil	-9.75646
ahil	-9.76034
ispi	-9.76093
á	-9.76593
canilo	-9.76769
asi	-9.77095
insata	-9.77224
wej	-9.77347
chiyal	-9.77441
chabe	-9.77498
chisyije	-9.77601
heyehi	-9.77664
ispotx	-9.7785
chislo	-9.77895
yich	-9.78022
bilxa	-9.78358
tzotel	-9.78624
etaj	-9.78817
comul	-9.78885
ismeltzo	-9.79136
helan	-9.79654
wican	-9.79713
tohla	-9.8063
hujeb	-9.80778
trato	-9.80778
iscawil	-9.80791
ayinic	-9.80881
chiwalto	-9.81139
yij	-9.82096
etoj	-9.82239
q	-9.82328
nia	-9.826
eni	-9.82828
tohol	-9.83065
cuybanil	-9.83098
camoj	-9.83892
isn	-9.84225
baytet	-9.84398
munlah	-9.85051
itzitzbi	-9.85498
cosunil	-9.85592
isye	-9.85797
istit	-9.85811
ías	-9.86123
heyohta	-9.86137
machiswalil	-9.86314
alaxico	-9.86367
meẍa	-9.86654
enilo	-9.8717
laxi	-9.87266
isyeni	-9.87299
nu	-9.87393
mato	-9.87481
selel	-9.88032
isyenilo	-9.8841
israelo	-9.88448
tzotelo	-9.88611
ejholo	-9.88694
cua	-9.88709
cawxo	-9.88766
chitxumcha	-9.88796
ischejbanil	-9.88816
cuyni	-9.89115
?	-9.89322
chah	-9.89418
masan	-9.89456
chij	-9.8952
nayo	-9.89888
witz	-9.90038
ena	-9.90265
mulum	-9.90778
teyi	-9.90884
yintaj	-9.90948
anto	-9.9115
elax	-9.91223
islo	-9.91342
cheyabe	-9.92004
wip	-9.92121
chicawxi	-9.92154
octo	-9.92218
isch	-9.9289
chijil	-9.93043
ij	-9.93237
hallax	-9.93732
isma	-9.94036
heyanico	-9.94089
way	-9.94281
hawa	-9.94472
jex	-9.94501
ás	-9.94647
yalnicano	-9.9469
cuy	-9.94772
chalilo	-9.94965
berna	-9.95088
bé	-9.95222
chicolwa	-9.95316
tzab	-9.95488
muj	-9.95987
uxan	-9.96606
canico	-9.96657
chicam	-9.9699
yuẍta	-9.97089
chiitzitzbi	-9.97494
chimunla	-9.97566
elico	-9.97777
tzeh	-9.97884
nicano	-9.97986
chintoh	-9.98013
chawil	-9.98364
nilo	-9.98456
hajlo	-9.98516
tzen	-9.98526
aj	-9.98543
ical	-9.98561
chijal	-9.98602
que	-9.99103
johta	-9.99617
jehi	-9.99726
chiocnico	-9.99738
elip	-9.99753
payxa	-9.99813
cheyi	-9.99823
yanayto	-10.0014
einti	-10.0078
waben	-10.0081
heyijen	-10.0093
heyoc	-10.0115
halwe	-10.0133
xaj	-10.0179
cuar	-10.0192
chilahwi	-10.0227
ischah	-10.0292
oro	-10.0294
eho	-10.0318
umal	-10.0319
chintz	-10.0345
eloj	-10.035
how	-10.0358
elicoj	-10.0391
z	-10.042
circuncisión	-10.0428
joc	-10.0434
cheyoche	-10.0434
tzalaho	-10.0464
lomal	-10.0482
hin	-10.0486
etza	-10.0576
occano	-10.0596
meltzo	-10.0621
chexoc	-10.0651
cuywi	-10.0728
subchaho	-10.0728
say	-10.0752
techa	-10.0787
yahawilo	-10.0815
xi	-10.0825
isnani	-10.0876
erto	-10.0922
nabil	-10.0925
chijoche	-10.0928
wohta	-10.1046
iscuyni	-10.1063
nican	-10.109
laxcan	-10.1116
wec	-10.1118
chiay	-10.1122
txiquin	-10.1185
ilaxto	-10.1198
heyohtaj	-10.1208
bel	-10.1209
istxum	-10.1214
heye	-10.1251
islah	-10.1257
iscuywa	-10.1259
pas	-10.1261
canto	-10.1278
hechahni	-10.1339
egi	-10.1345
ui	-10.135
cay	-10.141
awtebil	-10.1441
icto	-10.1443
chichahni	-10.1454
nananta	-10.1472
ẍ	-10.1478
oco	-10.1479
naba	-10.1512
encano	-10.1531
istxumni	-10.162
chixiw	-10.1621
txahli	-10.1647
beybal	-10.167
huj	-10.1677
pulta	-10.1679
gobernador	-10.1712
vino	-10.1712
howeb	-10.1713
ischejabo	-10.1713
isbel	-10.1741
mas	-10.1781
isbis	-10.1815
sam	-10.1819
hawet	-10.1841
yeniloj	-10.1891
mu	-10.1908
wom	-10.1938
anciano	-10.199
chawute	-10.1992
ayexxaco	-10.1998
chinhul	-10.2003
yettax	-10.2012
pto	-10.2014
behal	-10.202
chiwil	-10.2023
istxahli	-10.2025
ischejni	-10.2027
machim	-10.2035
yawte	-10.2101
hinan	-10.2107
hon	-10.2117
hesunil	-10.2125
woc	-10.2151
isyije	-10.2172
anican	-10.2173
atil	-10.2177
aya	-10.219
yelti	-10.2208
issay	-10.2215
ichico	-10.2221
ajan	-10.2232
nahul	-10.2256
hemul	-10.2275
cutxanico	-10.2276
yilax	-10.2278
yox	-10.2372
▁?”	-10.2372
aben	-10.2374
inmunil	-10.2377
mohyi	-10.238
munla	-10.2381
tzala	-10.2429
ulla	-10.2434
yohtajo	-10.2457
yeh	-10.2458
iln	-10.2462
ocnico	-10.2471
yilalo	-10.2506
ín	-10.2558
ofrenda	-10.2569
espa	-10.2576
colni	-10.2604
laxo	-10.2609
conabal	-10.2647
iscolwa	-10.2664
chiyute	-10.2677
ro	-10.2701
itam	-10.2731
masant	-10.2762
walnic	-10.2787
toxa	-10.2851
cocolomal	-10.2872
quía	-10.2877
ojtam	-10.2878
nimanil	-10.2885
ispulta	-10.291
ichmam	-10.2928
wah	-10.2948
anex	-10.3012
tzabnico	-10.3048
or	-10.3085
hetxumni	-10.3104
intoh	-10.3125
ayach	-10.3131
isje	-10.3137
hewi	-10.3142
jahaw	-10.315
nazare	-10.3185
elías	-10.3191
chilo	-10.3202
japni	-10.3228
anayto	-10.3268
chicolo	-10.3272
into	-10.3324
walpaxo	-10.3334
chexxiw	-10.3334
anch	-10.3356
qui	-10.3381
yalnic	-10.3387
xu	-10.3403
eli	-10.35
ilcha	-10.3503
nimanile	-10.3513
chiaben	-10.353
heyila	-10.3533
chinapni	-10.354
ispe	-10.3555
yayc	-10.3557
iscolni	-10.3573
uh	-10.3591
nab	-10.3597
cachwa	-10.3634
yeto	-10.3668
wanoj	-10.3696
oya	-10.376
xiwcan	-10.377
so	-10.3787
moy	-10.3843
patr	-10.3844
coyijen	-10.3847
chijaco	-10.3865
poh	-10.3882
binaho	-10.3884
este	-10.3891
wohtajoj	-10.3893
ichamta	-10.3952
hebeybal	-10.3954
tim	-10.3958
eniloj	-10.3983
xew	-10.4025
coman	-10.4037
alaxicto	-10.4038
bejtzo	-10.4063
xaya	-10.4066
chiyo	-10.4098
jil	-10.4119
laxilo	-10.4147
haban	-10.4153
wacax	-10.4186
axep	-10.4186
chijute	-10.4186
xiwquil	-10.4186
camnaxa	-10.4189
canocan	-10.4204
cosat	-10.421
chintzala	-10.4214
laxayo	-10.4226
chican	-10.4229
chiyoche	-10.4243
chiah	-10.4265
isnu	-10.4276
cachni	-10.4282
yahto	-10.4298
yehico	-10.4307
tac	-10.4323
ismaj	-10.4328
chijala	-10.4351
yinican	-10.437
heyilni	-10.442
txumcha	-10.4427
chiwaco	-10.4476
buch	-10.4486
tajca	-10.4505
isaí	-10.4512
apax	-10.4532
iswa	-10.4539
capit	-10.4543
isbejnicano	-10.4565
alaxcan	-10.4565
watut	-10.4565
chicolcha	-10.4598
oteo	-10.4602
yallax	-10.4627
tro	-10.4656
zar	-10.4689
cheyije	-10.4706
yije	-10.4713
xahaw	-10.4716
za	-10.4741
bilcano	-10.4743
cheyay	-10.4759
chahni	-10.4777
heyabe	-10.481
beyc	-10.4837
inilo	-10.4884
capil	-10.4911
isxahan	-10.4912
istzabn	-10.4915
hawehi	-10.4916
cabeb	-10.4916
lto	-10.4918
wahil	-10.4944
maquex	-10.4946
oli	-10.4965
yilo	-10.4983
chayto	-10.5
alil	-10.5007
heyohtajo	-10.5014
haltebilcano	-10.5084
jabe	-10.5094
abayo	-10.5102
hawoc	-10.511
cochahni	-10.512
quinchi	-10.5139
mal	-10.5149
lá	-10.5154
camnaj	-10.5208
isway	-10.5227
selelo	-10.5274
itzitzb	-10.5281
unub	-10.5298
chicabcon	-10.5305
iscuyu	-10.5308
innimanil	-10.5314
issayni	-10.5316
wanico	-10.5358
yillax	-10.5361
belwi	-10.5361
iscawxican	-10.5372
tax	-10.538
iscawxi	-10.5412
gri	-10.5422
ochen	-10.5523
lom	-10.5567
chisc	-10.5614
bu	-10.5625
chichiwa	-10.5652
intz	-10.5652
jala	-10.5657
yalte	-10.5668
enico	-10.5681
yuẍtaj	-10.5698
axpon	-10.5698
ape	-10.57
chiwalcano	-10.5751
inchejab	-10.5752
hunix	-10.5777
chiwabe	-10.5778
yahcano	-10.5808
iscol	-10.5849
elapnoj	-10.5862
bo	-10.5889
cobeybal	-10.5895
lahico	-10.5916
yitzitzbi	-10.5933
yuninalo	-10.6023
nohna	-10.6044
alo	-10.6051
tam	-10.6058
ahwano	-10.6075
yetbiho	-10.6088
ispa	-10.6093
nanxa	-10.6105
sucal	-10.6115
inmul	-10.6116
ayexico	-10.6125
hulic	-10.6137
laxico	-10.6155
chicancano	-10.6168
ilchalo	-10.6192
lolo	-10.6193
tzalah	-10.6203
lena	-10.623
wabe	-10.6236
paxilo	-10.627
ohtabil	-10.6278
olo	-10.6282
bihoj	-10.6283
isbejcano	-10.6323
laba	-10.6323
chisye	-10.6326
tzoteli	-10.6338
aymi	-10.635
machipaxo	-10.6366
buchwa	-10.6376
ux	-10.6427
noh	-10.6445
chechah	-10.6479
hawoche	-10.6479
uilo	-10.648
coxahan	-10.6548
lemna	-10.6549
pujna	-10.6549
yechman	-10.6555
chiwute	-10.6562
ehojab	-10.6575
heyohtaxa	-10.6583
im	-10.6606
chitx	-10.6608
paxtoj	-10.6613
sila	-10.6617
eojab	-10.6641
istzoteli	-10.6643
xic	-10.6689
ixwi	-10.6691
chew	-10.6705
isbejtzo	-10.6713
quinhe	-10.6793
ub	-10.68
cheyila	-10.689
echma	-10.6891
tzabno	-10.6909
chicami	-10.6927
yilno	-10.6943
ahi	-10.6981
hajxam	-10.7004
itah	-10.7004
xwan	-10.7005
echmabil	-10.7007
chicochah	-10.7008
chiillax	-10.7011
ciento	-10.7014
lahanex	-10.7025
efes	-10.7037
ixobal	-10.706
yen	-10.7092
cheh	-10.7115
woj	-10.7124
maxaw	-10.7153
wahni	-10.7156
iptze	-10.7164
chiway	-10.7165
ajla	-10.722
ulojab	-10.7252
iscolcha	-10.7261
inito	-10.7284
yanican	-10.729
laxcano	-10.731
ahab	-10.7324
colchah	-10.7343
hawip	-10.7373
chiwalni	-10.7375
jila	-10.7377
quexwil	-10.7377
ispohni	-10.7379
chiw	-10.7387
ẍicano	-10.7395
wetbi	-10.7409
haquin	-10.7429
iscami	-10.7432
omal	-10.7446
testigo	-10.748
esare	-10.748
bitn	-10.748
cantil	-10.7498
istxam	-10.7506
uxni	-10.751
ebilxa	-10.7519
isbelwi	-10.7533
yohtaxa	-10.7546
ixli	-10.7547
majal	-10.7549
ishajni	-10.7554
cheyohta	-10.7571
tzelax	-10.7582
ismunla	-10.7584
acti	-10.7596
hetxumnilo	-10.7606
ispoh	-10.7612
cawxican	-10.7629
be	-10.7642
cap	-10.7655
txahl	-10.767
yalten	-10.77
chibe	-10.7744
haltebil	-10.7754
aldea	-10.7846
iscutxba	-10.785
yilwen	-10.7906
halbil	-10.7914
tzuj	-10.7936
iscutxban	-10.7941
chejn	-10.7956
cami	-10.7965
isyelo	-10.7972
chebej	-10.7976
chejbil	-10.798
jop	-10.7981
hecawil	-10.7982
iscayel	-10.7983
heyaben	-10.7984
tzujcha	-10.7985
yictabal	-10.7987
hamanil	-10.8002
ismachiswalil	-10.8067
waco	-10.8077
ijatz	-10.8078
mujlax	-10.8084
zaca	-10.8087
mari	-10.8102
quil	-10.8145
yitz	-10.8228
eq	-10.8287
chinoc	-10.836
ó	-10.8363
yilcha	-10.8472
fes	-10.8479
;	-10.8486
chelo	-10.8495
hawil	-10.85
chicoyije	-10.8501
melqui	-10.8506
bejwe	-10.8507
yehobal	-10.8508
telaj	-10.8509
yanipaxico	-10.8509
rub	-10.851
iscutxbanico	-10.851
opo	-10.851
issajbilo	-10.8511
jor	-10.8518
chietaxto	-10.8518
uslax	-10.8521
chabilxa	-10.8522
erna	-10.8532
istzala	-10.8532
chijabe	-10.8534
abewe	-10.854
romano	-10.8543
chiyiy	-10.8554
elcanico	-10.8606
ibcan	-10.8632
ehayo	-10.864
lahano	-10.8747
rco	-10.8755
chisna	-10.8759
hemam	-10.8771
heyip	-10.8791
ohcha	-10.8809
ego	-10.8813
oxel	-10.883
awten	-10.8846
nilto	-10.886
chejbanil	-10.8886
txah	-10.8971
inbi	-10.8992
laxic	-10.9009
x	-10.9013
jon	-10.9015
hawohtaj	-10.9039
canicoj	-10.904
banil	-10.905
ujbanic	-10.9064
utelax	-10.9068
cor	-10.9094
yor	-10.9104
chuman	-10.9142
chicotz	-10.9167
ismohyi	-10.9186
iwe	-10.9188
comunil	-10.9233
cotoh	-10.9236
hexahan	-10.9237
hecal	-10.9248
tzalacan	-10.9279
yilnito	-10.9325
siq	-10.9341
yelcan	-10.935
chiahilo	-10.9351
yahawo	-10.9418
rom	-10.9436
peta	-10.9445
ischej	-10.9466
heyil	-10.95
uninal	-10.9519
wute	-10.9537
isbej	-10.9624
hol	-10.9636
cotxumni	-10.965
tzumbe	-10.965
naweti	-10.9652
babilo	-10.9656
rro	-10.9675
yax	-10.9689
chitxahli	-10.9689
ischejnito	-10.97
chiwalpax	-10.9701
chexwa	-10.9727
utxba	-10.9747
plat	-10.9754
wul	-10.9781
isxe	-10.9848
chiscutxba	-10.9871
chisyelo	-10.9877
bawe	-10.9888
ishel	-10.9923
tar	-10.9948
mohyil	-10.9948
chisbej	-10.9989
colcha	-11.0003
chejni	-11.001
chilolax	-11.0049
mahul	-11.0051
haquex	-11.0054
gó	-11.0086
xico	-11.0107
chahwe	-11.0147
ismal	-11.0175
uba	-11.0251
txahlo	-11.0254
circuncidar	-11.0275
sello	-11.0275
yamigo	-11.0276
hetxahli	-11.03
chispoh	-11.0303
incarta	-11.0327
salom	-11.0331
inyije	-11.0341
walach	-11.038
sajb	-11.0385
igue	-11.0388
chiji	-11.0389
halno	-11.0395
sataj	-11.0427
paxic	-11.0461
cuywa	-11.0468
winajil	-11.0481
chinchej	-11.0495
chiyenilo	-11.0553
lahnico	-11.0592
istxumnilo	-11.061
techaho	-11.0634
iscuy	-11.0668
wepaxo	-11.0674
cia	-11.0681
yanab	-11.0703
initi	-11.0757
wuẍta	-11.077
zeb	-11.0807
peyab	-11.0891
yicta	-11.0931
andr	-11.0942
magdal	-11.0942
semana	-11.0942
ischejlaxto	-11.0942
titnajin	-11.0963
chinchahni	-11.0967
intzotel	-11.0967
wawte	-11.1009
isxu	-11.102
beta	-11.1025
ishuj	-11.1028
wuninal	-11.1054
bililo	-11.1078
istxah	-11.1104
jechma	-11.114
hojab	-11.1153
jilico	-11.1189
chejniti	-11.1274
ichamil	-11.1297
xam	-11.1329
chachoc	-11.1379
tzenilo	-11.1412
bilico	-11.147
chihuli	-11.1512
ria	-11.1537
chahlax	-11.1547
per	-11.1629
hawuẍta	-11.1652
subcha	-11.1655
ejbiyal	-11.1656
aceit	-11.1657
apolo	-11.166
corona	-11.1661
alcal	-11.1667
inchuquil	-11.1668
él	-11.1675
isbili	-11.1678
cotxahli	-11.1685
hawayto	-11.1702
ebilico	-11.1712
isnoh	-11.1715
corn	-11.1723
ilnilo	-11.1724
wecano	-11.174
paxcano	-11.1761
xaquex	-11.1762
ajna	-11.1769
hop	-11.1789
jip	-11.1875
hetxumu	-11.1934
lico	-11.1943
ajo	-11.1944
yilaxil	-11.1959
chahnicano	-11.2028
txahul	-11.2053
jaben	-11.2125
ischahnicano	-11.2205
isyenican	-11.222
monte	-11.2291
ajano	-11.2336
wahi	-11.2347
iro	-11.2369
helni	-11.2374
chuquil	-11.2394
chiilcha	-11.2421
yichebanil	-11.2425
bre	-11.2426
ijbalom	-11.2426
chahnayto	-11.2426
etaxto	-11.2426
tre	-11.2429
yictaj	-11.2433
chisma	-11.2437
ispixan	-11.2437
wejna	-11.2439
barr	-11.2445
jetbi	-11.2446
acto	-11.2472
calle	-11.2474
aynato	-11.2476
wanito	-11.2481
chimeltzo	-11.2482
hunex	-11.2498
heyuẍta	-11.2505
pra	-11.2521
cantoj	-11.2582
tzujanil	-11.2588
chisbal	-11.2599
ojlaxay	-11.2599
yijewe	-11.2607
chahi	-11.2639
inchahni	-11.2678
seleloj	-11.2737
henani	-11.2744
awtelax	-11.2853
bet	-11.2872
woche	-11.2897
colwah	-11.2902
caẍ	-11.2938
hechah	-11.3019
ispal	-11.3249
denario	-11.3259
txihn	-11.3265
chejaboj	-11.3265
chawabe	-11.3271
xuln	-11.3271
chietanto	-11.3272
toholojab	-11.3273
chexcolwa	-11.3278
estam	-11.328
chicuywa	-11.3283
wuten	-11.3286
canilto	-11.3294
quexwilno	-11.3307
sar	-11.3308
jintaj	-11.3343
chiwat	-11.3355
ishaj	-11.3449
ishunba	-11.355
cabcon	-11.3558
!	-11.3591
leg	-11.3604
heyohtajoj	-11.3607
hunlah	-11.3747
ishoy	-11.3851
joná	-11.3874
yinipax	-11.396
cheja	-11.405
cutxan	-11.4166
chiilaxilo	-11.4168
aret	-11.4168
salón	-11.4168
parti	-11.4171
witzitzbi	-11.4175
chinacha	-11.4183
pre	-11.4196
maxawal	-11.4203
saybil	-11.4219
cosataj	-11.4219
chintzotel	-11.422
joccano	-11.4223
comunlah	-11.4226
cocolcha	-11.4231
alaci	-11.4251
yiptzen	-11.4288
isyenipaxo	-11.4325
chijalt	-11.438
etalax	-11.4518
pajtzen	-11.4534
johtaxa	-11.4557
islow	-11.4585
bilxalo	-11.476
techahoj	-11.4765
camna	-11.4835
agr	-11.4843
pitni	-11.4861
irla	-11.4996
mohy	-11.5115
awte	-11.5145
cien	-11.515
subuta	-11.5168
bere	-11.5168
chijayto	-11.5185
alniloj	-11.5187
babito	-11.5189
pol	-11.5208
chejto	-11.5246
iwel	-11.5255
txumwe	-11.5339
walnit	-11.5344
chesay	-11.55
’	-11.7529
(	-12.0624
)	-12.0624
‘	-13.3451
v	-13.3452
“	-13.3453
―	-13.3454
:	-13.3455
d	-13.3456
ñ	-13.3457
̈	-13.3457
