<pad>	0
</s>	0
<unk>	0
▁¦	-0
ti	-1
ai	-2
in	-3
os	-4
▁p	-5
ri	-6
au	-7
as	-8
ar	-9
ir	-10
si	-11
al	-12
▁k	-13
an	-14
en	-15
ei	-16
am	-17
▁s	-18
im	-19
▁𐋇	-20
▁t	-21
at	-22
▁,	-23
▁n	-24
ad	-25
om	-26
is	-27
es	-28
ro	-29
▁d	-30
us	-31
on	-32
▁v	-33
ki	-34
▁ir	-35
to	-36
ės	-37
▁.	-38
er	-39
li	-40
tin	-41
či	-42
▁b	-43
ek	-44
uri	-45
ra	-46
ij	-47
▁m	-48
st	-49
tų	-50
yb	-51
uo	-52
tik	-53
av	-54
▁su	-55
em	-56
iš	-57
ių	-58
um	-59
▁g	-60
uro	-61
eik	-62
oj	-63
ėl	-64
et	-65
ap	-66
▁r	-67
▁š	-68
urop	-69
▁j	-70
▁kad	-71
▁į	-72
cij	-73
ta	-74
or	-75
ur	-76
▁E	-77
aip	-78
ink	-79
arb	-80
ak	-81
aug	-82
ant	-83
ais	-84
ab	-85
▁pri	-86
uropos	-87
ži	-88
su	-89
el	-90
sij	-91
ėj	-92
end	-93
▁l	-94
pr	-95
ausi	-96
imo	-97
eg	-98
▁T	-99
▁pas	-100
yv	-101
už	-102
ali	-103
min	-104
▁at	-105
▁iš	-106
▁P	-107
omi	-108
aik	-109
▁kuri	-110
ie	-111
yra	-112
mo	-113
ag	-114
id	-115
pri	-116
▁-	-117
yti	-118
eis	-119
ėm	-120
ien	-121
oje	-122
eš	-123
kad	-124
rin	-125
▁ne	-126
gi	-127
dėl	-128
kai	-129
uos	-130
▁K	-131
un	-132
tas	-133
▁Europos	-134
aus	-135
▁bū	-136
▁ši	-137
čiau	-138
oli	-139
tar	-140
ui	-141
ini	-142
tr	-143
až	-144
▁ž	-145
me	-146
jų	-147
ama	-148
▁ap	-149
pas	-150
imą	-151
tai	-152
aud	-153
▁dėl	-154
te	-155
ok	-156
yk	-157
ym	-158
ci	-159
▁pat	-160
ne	-161
▁pr	-162
tu	-163
ame	-164
ūs	-165
inti	-166
ši	-167
alst	-168
usi	-169
lam	-170
▁už	-171
ing	-172
alstyb	-173
▁pro	-174
imas	-175
bū	-176
omisij	-177
vo	-178
▁tik	-179
ąj	-180
▁yra	-181
alim	-182
auj	-183
ung	-184
lamen	-185
irmin	-186
cijos	-187
kuri	-188
▁(	-189
irminink	-190
par	-191
▁S	-192
tis	-193
čių	-194
je	-195
eiki	-196
ys	-197
kl	-198
▁vis	-199
ams	-200
ko	-201
varb	-202
▁to	-203
▁si	-204
tą	-205
and	-206
avo	-207
eli	-208
ari	-209
sti	-210
ėtų	-211
ausim	-212
aneš	-213
▁𐊣	-214
ūr	-215
ąjung	-216
dži	-217
tos	-218
▁B	-219
omis	-220
abai	-221
ūsų	-222
▁tai	-223
europos	-224
veik	-225
uvo	-226
▁par	-227
20	-228
▁A	-229
▁kl	-230
▁f	-231
pa	-232
▁in	-233
yje	-234
alb	-235
ėti	-236
amas	-237
▁M	-238
jos	-239
il	-240
var	-241
▁pad	-242
pat	-243
ku	-244
rim	-245
inių	-246
ans	-247
ka	-248
esn	-249
ijos	-250
▁pag	-251
toj	-252
pro	-253
ami	-254
endr	-255
mon	-256
re	-257
oms	-258
tat	-259
yg	-260
▁turi	-261
uom	-262
irmininke	-263
▁teis	-264
lo	-265
▁Komisij	-266
eng	-267
anči	-268
umo	-269
▁valstyb	-270
ej	-271
vis	-272
dar	-273
kir	-274
ori	-275
uk	-276
ūl	-277
emon	-278
▁daug	-279
kur	-280
orė	-281
eig	-282
▁pasi	-283
ili	-284
ybos	-285
kos	-286
inės	-287
ems	-288
▁V	-289
▁kaip	-290
▁J	-291
io	-292
▁tur	-293
eki	-294
iu	-295
iau	-296
ekon	-297
auk	-298
olitik	-299
ekt	-300
aš	-301
gyv	-302
eikia	-303
orėčiau	-304
ov	-305
▁ki	-306
sl	-307
▁taip	-308
▁"	-309
▁per	-310
eikal	-311
ėms	-312
▁svarb	-313
amos	-314
▁klausim	-315
▁darb	-316
isi	-317
tikrin	-318
ul	-319
▁susi	-320
šk	-321
uoj	-322
▁veik	-323
gr	-324
▁N	-325
saug	-326
ed	-327
irm	-328
prend	-329
tum	-330
avimo	-331
tim	-332
žv	-333
ome	-334
▁Par	-335
▁kai	-336
raš	-337
one	-338
man	-339
vir	-340
▁nes	-341
inans	-342
uoti	-343
▁o	-344
pag	-345
▁kon	-346
▁G	-347
ank	-348
▁praneš	-349
▁D	-350
▁Sąjung	-351
▁Parlamen	-352
sak	-353
orm	-354
ter	-355
▁ES	-356
▁po	-357
▁būtų	-358
ios	-359
men	-360
vai	-361
▁būti	-362
ymo	-363
yst	-364
▁did	-365
▁Š	-366
vien	-367
oma	-368
taip	-369
ent	-370
ties	-371
▁re	-372
▁nar	-373
pad	-374
▁galim	-375
ums	-376
ver	-377
turi	-378
▁man	-379
acij	-380
▁pa	-381
ang	-382
teis	-383
als	-384
per	-385
rind	-386
▁ko	-387
ėjo	-388
▁labai	-389
▁šal	-390
▁vien	-391
▁savo	-392
uose	-393
do	-394
abar	-395
bl	-396
valstyb	-397
daug	-398
▁buvo	-399
▁tar	-400
og	-401
iz	-402
tur	-403
▁bendr	-404
iausi	-405
form	-406
ch	-407
cial	-408
▁apie	-409
gal	-410
tari	-411
ose	-412
pasi	-413
▁dar	-414
kaip	-415
tori	-416
ektyv	-417
riz	-418
imų	-419
po	-420
val	-421
komisij	-422
erb	-423
lyg	-424
▁pak	-425
vyk	-426
▁ar	-427
blem	-428
tina	-429
rei	-430
stitu	-431
▁laik	-432
▁mūsų	-433
ačiau	-434
pl	-435
uomen	-436
tus	-437
▁gal	-438
tume	-439
škai	-440
tink	-441
▁prie	-442
erg	-443
▁reg	-444
ime	-445
▁20	-446
▁L	-447
isku	-448
darb	-449
▁priemon	-450
▁pl	-451
gyvend	-452
ilie	-453
▁R	-454
oti	-455
tyje	-456
▁nari	-457
▁nuo	-458
stem	-459
▁)	-460
ški	-461
▁politik	-462
aid	-463
▁Komisijos	-464
etu	-465
ypa	-466
▁rink	-467
od	-468
ting	-469
ras	-470
ūros	-471
buvo	-472
ik	-473
nes	-474
▁ver	-475
rak	-476
gali	-477
ati	-478
▁pirmininke	-479
▁dal	-480
ūlym	-481
tinės	-482
laik	-483
▁ekon	-484
eri	-485
▁ti	-486
kon	-487
▁Tar	-488
sm	-489
būtų	-490
lik	-491
did	-492
ėmis	-493
du	-494
por	-495
▁gali	-496
▁bet	-497
tau	-498
dž	-499
žvel	-500
ocial	-501
energ	-502
▁Tai	-503
ustat	-504
svarb	-505
esi	-506
▁net	-507
imus	-508
praneš	-509
parlamen	-510
šal	-511
▁reikal	-512
inę	-513
paž	-514
ybės	-515
ėje	-516
susi	-517
sižvel	-518
ypač	-519
iskusij	-520
▁kar	-521
klausim	-522
inio	-523
tojų	-524
ėra	-525
tarp	-526
rė	-527
▁tarp	-528
ming	-529
sąjung	-530
pak	-531
umą	-532
▁mok	-533
▁finans	-534
iai	-535
▁mes	-536
tikrinti	-537
audoj	-538
tinių	-539
mes	-540
žin	-541
tarim	-542
ybę	-543
▁visi	-544
vej	-545
▁bus	-546
▁I	-547
▁pav	-548
▁proc	-549
tį	-550
▁1	-551
ėk	-552
uosi	-553
▁sri	-554
▁To	-555
ūk	-556
nar	-557
▁sieki	-558
acijos	-559
▁gyv	-560
▁ats	-561
labai	-562
ion	-563
mok	-564
eikti	-565
sių	-566
amą	-567
ateg	-568
cija	-569
yn	-570
būti	-571
▁jų	-572
▁sprend	-573
▁žmon	-574
adarb	-575
link	-576
▁jau	-577
ija	-578
▁es	-579
▁tr	-580
▁str	-581
inimo	-582
iki	-583
yri	-584
emok	-585
savo	-586
galim	-587
dami	-588
sn	-589
▁nauj	-590
der	-591
lių	-592
▁są	-593
ųjų	-594
tinti	-595
▁kalb	-596
sijusi	-597
kar	-598
▁vyk	-599
skai	-600
▁darbo	-601
ančių	-602
▁valstybės	-603
▁var	-604
trauk	-605
avimas	-606
▁kurie	-607
imu	-608
▁Sąjungos	-609
iudž	-610
bendr	-611
▁reikia	-612
ūri	-613
▁norėčiau	-614
imai	-615
bus	-616
▁pagrind	-617
sime	-618
amai	-619
mog	-620
kių	-621
▁me	-622
ciją	-623
tais	-624
▁taik	-625
inink	-626
čiai	-627
▁dir	-628
andien	-629
▁turėtų	-630
ež	-631
log	-632
ia	-633
▁pirm	-634
pirmininke	-635
kio	-636
str	-637
▁keli	-638
▁skir	-639
kel	-640
▁prieš	-641
mūsų	-642
▁¦20	-643
čia	-644
rink	-645
reg	-646
inis	-647
apie	-648
▁e	-649
rai	-650
eisių	-651
adarbi	-652
sp	-653
ektori	-654
nuo	-655
taik	-656
▁Parlamento	-657
ud	-658
maž	-659
▁paž	-660
▁Europ	-661
tek	-662
omikos	-663
aisv	-664
ojo	-665
anti	-666
▁Todėl	-667
ėtume	-668
cion	-669
amų	-670
avimą	-671
▁problem	-672
▁turime	-673
▁Komisija	-674
cijų	-675
▁ger	-676
dal	-677
▁kur	-678
▁saug	-679
▁ak	-680
imui	-681
arba	-682
pareig	-683
▁sistem	-684
inį	-685
ėme	-686
todėl	-687
auti	-688
priemon	-689
▁Ši	-690
▁Man	-691
▁padė	-692
eid	-693
▁rez	-694
nauj	-695
vie	-696
mogaus	-697
mės	-698
▁įgyvend	-699
▁maž	-700
skir	-701
▁įsi	-702
kol	-703
▁pilie	-704
▁kurios	-705
aul	-706
net	-707
▁as	-708
gan	-709
yba	-710
▁neg	-711
ęs	-712
▁gyven	-713
▁jos	-714
klaus	-715
▁tiksl	-716
tini	-717
bet	-718
oliu	-719
▁sut	-720
▁narių	-721
rėž	-722
iausia	-723
politik	-724
antis	-725
dama	-726
di	-727
tačiau	-728
▁dabar	-729
vi	-730
ką	-731
kia	-732
be	-733
ausiai	-734
ėg	-735
pav	-736
▁apsaug	-737
ato	-738
aišk	-739
komisijos	-740
ekti	-741
▁im	-742
nari	-743
▁val	-744
▁pasiūlym	-745
sta	-746
int	-747
rib	-748
emokra	-749
eb	-750
reip	-751
ors	-752
ęsti	-753
tro	-754
yta	-755
norėčiau	-756
žiūri	-757
rov	-758
la	-759
▁teisės	-760
▁valstybių	-761
▁jo	-762
kalb	-763
▁pal	-764
ji	-765
kiai	-766
▁gr	-767
▁energ	-768
aig	-769
▁šį	-770
ja	-771
▁ji	-772
▁institu	-773
inius	-774
eitim	-775
varst	-776
yriaus	-777
yse	-778
acion	-779
giant	-780
▁bals	-781
kri	-782
no	-783
tet	-784
umas	-785
▁šiuo	-786
inga	-787
stat	-788
osios	-789
virtin	-790
visi	-791
eto	-792
tab	-793
ukt	-794
ymą	-795
aiški	-796
▁Tačiau	-797
▁padar	-798
▁nustat	-799
▁atsak	-800
dė	-801
osi	-802
▁priim	-803
ry	-804
damas	-805
dir	-806
emės	-807
keli	-808
▁200	-809
▁Pone	-810
akyti	-811
finans	-812
rijos	-813
uv	-814
rag	-815
▁narės	-816
▁metu	-817
▁social	-818
▁ypač	-819
▁pon	-820
onos	-821
acional	-822
pirm	-823
dyti	-824
enk	-825
ves	-826
są	-827
reikal	-828
ėmes	-829
asi	-830
▁mums	-831
▁daugiau	-832
dr	-833
met	-834
pon	-835
ymas	-836
pap	-837
prieš	-838
▁poli	-839
kas	-840
smų	-841
sprend	-842
darbo	-843
sieki	-844
ist	-845
ep	-846
prie	-847
europ	-848
▁¦1	-849
adov	-850
raštu	-851
čio	-852
▁užtikrinti	-853
ykl	-854
organ	-855
bals	-856
▁žin	-857
jau	-858
yrim	-859
engti	-860
ystės	-861
zi	-862
eigu	-863
sming	-864
.,	-865
ada	-866
▁prad	-867
▁tačiau	-868
▁kom	-869
eigi	-870
dom	-871
šiuo	-872
▁kuris	-873
up	-874
▁pan	-875
proc	-876
eisti	-877
▁pap	-878
▁nėra	-879
jek	-880
atyv	-881
▁tikr	-882
▁region	-883
žmon	-884
▁der	-885
ina	-886
sri	-887
▁tam	-888
ekybos	-889
ūp	-890
▁mo	-891
aliz	-892
naud	-893
▁šio	-894
▁susijusi	-895
pal	-896
turime	-897
giu	-898
▁šios	-899
tijos	-900
▁politikos	-901
▁siekiant	-902
▁kriz	-903
0¦	-904
▁pab	-905
▁vie	-906
tvar	-907
porto	-908
▁bei	-909
eidži	-910
▁diskusij	-911
tov	-912
▁naud	-913
▁todėl	-914
duk	-915
reikia	-916
pręsti	-917
tam	-918
laug	-919
onės	-920
abej	-921
čius	-922
pagrind	-923
valstybės	-924
vz	-925
priim	-926
ėš	-927
lio	-928
gyven	-929
▁aš	-930
▁aplink	-931
▁skai	-932
▁nuom	-933
▁susitarim	-934
ven	-935
dabar	-936
▁mano	-937
ančios	-938
▁pirminink	-939
▁sutar	-940
▁strateg	-941
▁be	-942
sąjungos	-943
pan	-944
iudžeto	-945
eikš	-946
isab	-947
uli	-948
amin	-949
▁Taip	-950
yr	-951
▁kas	-952
koti	-953
vid	-954
elio	-955
elis	-956
turėtų	-957
▁svarbu	-958
iją	-959
kuren	-960
ultat	-961
▁li	-962
aukš	-963
iniai	-964
jo	-965
▁lyg	-966
ijoje	-967
manau	-968
▁pasir	-969
pareigoj	-970
▁inform	-971
uotoj	-972
organiz	-973
imato	-974
ėn	-975
emi	-976
▁Be	-977
tinio	-978
isabonos	-979
▁ati	-980
sid	-981
inimą	-982
veikat	-983
alies	-984
▁vid	-985
▁bendradarbi	-986
iek	-987
kurti	-988
▁Gerb	-989
▁šalių	-990
▁teisių	-991
kre	-992
▁komi	-993
rakcijos	-994
ytų	-995
inimas	-996
kurie	-997
avau	-998
ėmesį	-999
▁nori	-1000
▁sektori	-1001
problem	-1002
teres	-1003
yz	-1004
imt	-1005
teri	-1006
▁C	-1007
▁bend	-1008
ig	-1009
ėtr	-1010
žiūr	-1011
▁toki	-1012
parlamento	-1013
sižvelgiant	-1014
rez	-1015
umat	-1016
▁atvej	-1017
▁manau	-1018
▁sąlyg	-1019
▁ekonom	-1020
ines	-1021
▁te	-1022
teb	-1023
neg	-1024
padė	-1025
ūkio	-1026
žvil	-1027
bend	-1028
▁nuos	-1029
▁visų	-1030
ger	-1031
kal	-1032
liek	-1033
▁:	-1034
ner	-1035
▁jis	-1036
▁nei	-1037
▁iki	-1038
tipr	-1039
atsak	-1040
▁pateik	-1041
katin	-1042
ėja	-1043
įsi	-1044
▁sav	-1045
▁šių	-1046
▁laisv	-1047
džio	-1048
yriausyb	-1049
▁kol	-1050
cip	-1051
▁sus	-1052
ingas	-1053
▁tais	-1054
komisija	-1055
rodo	-1056
ją	-1057
pras	-1058
▁Vis	-1059
acija	-1060
įgyvend	-1061
šį	-1062
▁ly	-1063
kreip	-1064
▁tink	-1065
sistem	-1066
inici	-1067
▁ekonomikos	-1068
iet	-1069
▁met	-1070
▁tarptau	-1071
▁kiek	-1072
pilie	-1073
▁sp	-1074
joje	-1075
sižvelg	-1076
žvilgiu	-1077
aki	-1078
mano	-1079
iniciatyv	-1080
▁galimyb	-1081
▁sudar	-1082
▁Parlamentas	-1083
išk	-1084
ol	-1085
▁progr	-1086
▁klausimas	-1087
būt	-1088
tikos	-1089
▁galima	-1090
▁srityje	-1091
skait	-1092
institu	-1093
▁naudoj	-1094
ug	-1095
ats	-1096
kiri	-1097
tiksl	-1098
▁tiek	-1099
▁jie	-1100
▁2	-1101
lob	-1102
▁visiškai	-1103
ob	-1104
dymo	-1105
▁metų	-1106
ybai	-1107
ond	-1108
angi	-1109
įst	-1110
▁kurį	-1111
▁direktyv	-1112
rėžti	-1113
▁žmogaus	-1114
šių	-1115
iniu	-1116
▁kurių	-1117
pasiūlym	-1118
▁arba	-1119
▁šiandien	-1120
jai	-1121
mums	-1122
tinę	-1123
pone	-1124
▁Tarybos	-1125
▁požiūri	-1126
ingai	-1127
▁Mes	-1128
poli	-1129
▁pagal	-1130
ažn	-1131
tinis	-1132
liau	-1133
kurios	-1134
tariu	-1135
apsaug	-1136
▁pasaul	-1137
diskusij	-1138
sut	-1139
▁didži	-1140
▁prival	-1141
pirminink	-1142
gerb	-1143
abiau	-1144
vairi	-1145
aiškiai	-1146
gai	-1147
▁šią	-1148
▁min	-1149
▁¦200	-1150
▁atsi	-1151
narių	-1152
svarst	-1153
▁kov	-1154
▁rezoliu	-1155
▁Manau	-1156
▁laiko	-1157
▁žmonių	-1158
padar	-1159
social	-1160
▁demokra	-1161
mas	-1162
▁pranešimą	-1163
etą	-1164
▁ką	-1165
▁st	-1166
sien	-1167
tarti	-1168
priklaus	-1169
▁užtikrin	-1170
teisės	-1171
▁dalyv	-1172
auja	-1173
okum	-1174
aipsn	-1175
valstybių	-1176
▁priemonių	-1177
▁prin	-1178
▁įmon	-1179
▁šis	-1180
tinai	-1181
usij	-1182
fi	-1183
šios	-1184
ėjimo	-1185
nustat	-1186
laud	-1187
vaiz	-1188
▁toli	-1189
vertin	-1190
vyst	-1191
ino	-1192
inant	-1193
▁el	-1194
ansporto	-1195
kiu	-1196
▁sun	-1197
▁pagalb	-1198
eišk	-1199
tang	-1200
stų	-1201
▁plan	-1202
tinį	-1203
▁tvar	-1204
▁Sąjunga	-1205
ąją	-1206
omas	-1207
aisto	-1208
it	-1209
aciją	-1210
▁Ž	-1211
teto	-1212
aži	-1213
nų	-1214
kom	-1215
kie	-1216
slo	-1217
eks	-1218
papras	-1219
▁veiksmų	-1220
daugiau	-1221
▁visuomen	-1222
▁jei	-1223
▁raštu	-1224
▁?	-1225
aulio	-1226
riež	-1227
narės	-1228
▁nacional	-1229
▁vertin	-1230
škia	-1231
metu	-1232
kios	-1233
▁veikl	-1234
prad	-1235
andar	-1236
esio	-1237
sutar	-1238
region	-1239
veikatos	-1240
tikr	-1241
fer	-1242
irš	-1243
▁nu	-1244
iškai	-1245
trol	-1246
ūrin	-1247
▁jog	-1248
▁pasakyti	-1249
tę	-1250
ytas	-1251
▁dirb	-1252
▁sumaž	-1253
terų	-1254
▁toliau	-1255
laid	-1256
▁prekybos	-1257
▁pasiūl	-1258
esni	-1259
▁pakeitim	-1260
nel	-1261
tir	-1262
▁išs	-1263
▁tap	-1264
▁ry	-1265
vesti	-1266
ėjusi	-1267
ies	-1268
šis	-1269
kius	-1270
aliai	-1271
▁padėti	-1272
ūrų	-1273
▁žemės	-1274
▁di	-1275
ib	-1276
▁rinkos	-1277
užtikrinti	-1278
▁veiksming	-1279
▁proces	-1280
čiams	-1281
▁atei	-1282
▁viet	-1283
▁galėtų	-1284
▁klausimą	-1285
▁energijos	-1286
nėra	-1287
▁asmen	-1288
šio	-1289
siekiant	-1290
▁būtina	-1291
▁kok	-1292
džiai	-1293
fik	-1294
▁gam	-1295
▁produk	-1296
ens	-1297
oji	-1298
▁Pon	-1299
▁šalim	-1300
▁kuriuos	-1301
▁tyrim	-1302
ekonom	-1303
traukti	-1304
▁Norėčiau	-1305
dirb	-1306
▁.,	-1307
chno	-1308
likti	-1309
ėtros	-1310
chnolog	-1311
tui	-1312
mokes	-1313
▁nors	-1314
▁varto	-1315
katinti	-1316
skaitant	-1317
ate	-1318
pab	-1319
▁kel	-1320
naudoj	-1321
kuris	-1322
etikos	-1323
fektyv	-1324
00	-1325
jis	-1326
anty	-1327
anks	-1328
▁kurią	-1329
▁paslaug	-1330
tyv	-1331
ėjimą	-1332
susijusi	-1333
ran	-1334
emti	-1335
tvark	-1336
din	-1337
ingsn	-1338
bei	-1339
▁201	-1340
ragin	-1341
▁geri	-1342
politikos	-1343
audoti	-1344
omos	-1345
aisant	-1346
aplink	-1347
▁kartą	-1348
kriz	-1349
cijas	-1350
▁rezultat	-1351
timi	-1352
▁nusi	-1353
tarptau	-1354
visų	-1355
▁apsaugos	-1356
ln	-1357
uje	-1358
▁Pri	-1359
svarbu	-1360
ūra	-1361
▁lėš	-1362
uoja	-1363
▁nel	-1364
▁Lisabonos	-1365
ly	-1366
▁aug	-1367
▁klimato	-1368
duo	-1369
jei	-1370
pasir	-1371
ub	-1372
▁reglamen	-1373
uotojų	-1374
▁organiz	-1375
▁vaid	-1376
▁didel	-1377
▁klausimu	-1378
baig	-1379
▁kri	-1380
galioj	-1381
▁susitik	-1382
tarimo	-1383
▁frakcijos	-1384
nori	-1385
strateg	-1386
jie	-1387
jėg	-1388
nuom	-1389
▁konkuren	-1390
šiandien	-1391
ekom	-1392
kiek	-1393
tyse	-1394
▁jūsų	-1395
žiūros	-1396
ekonomikos	-1397
▁il	-1398
laisv	-1399
inta	-1400
acijų	-1401
inform	-1402
susitarim	-1403
▁dėlto	-1404
rod	-1405
ingumo	-1406
žas	-1407
▁vaik	-1408
ytos	-1409
▁aukš	-1410
okumen	-1411
▁negali	-1412
ėsime	-1413
kelb	-1414
▁vyst	-1415
▁dėmesį	-1416
pateik	-1417
▁koleg	-1418
▁vardu	-1419
▁atveju	-1420
komi	-1421
ankst	-1422
sąlyg	-1423
tojams	-1424
▁projek	-1425
va	-1426
▁At	-1427
▁Aš	-1428
▁Ki	-1429
dav	-1430
▁sk	-1431
kite	-1432
nuos	-1433
timo	-1434
esnės	-1435
▁įvyk	-1436
siu	-1437
ėte	-1438
racijos	-1439
▁kartu	-1440
yl	-1441
bal	-1442
kijos	-1443
meniu	-1444
▁padid	-1445
▁ponai	-1446
umų	-1447
▁Kaip	-1448
askai	-1449
▁padėkoti	-1450
didži	-1451
bendradarbi	-1452
nei	-1453
▁Šiuo	-1454
▁Pirmininke	-1455
vienas	-1456
gų	-1457
ano	-1458
atsi	-1459
esnis	-1460
▁ūkio	-1461
teisių	-1462
▁Europoje	-1463
osė	-1464
sav	-1465
sus	-1466
eikėtų	-1467
gio	-1468
ingi	-1469
▁princip	-1470
▁ištek	-1471
▁patvirtin	-1472
▁nor	-1473
tojai	-1474
yklių	-1475
kiuosi	-1476
▁imtis	-1477
kub	-1478
vad	-1479
de	-1480
lt	-1481
▁An	-1482
▁sak	-1483
ytis	-1484
▁priežas	-1485
▁priemones	-1486
▁du	-1487
▁pozi	-1488
tner	-1489
▁mokes	-1490
▁F	-1491
onių	-1492
agrin	-1493
▁deryb	-1494
▁pasiek	-1495
▁atžvilgiu	-1496
▁pranešime	-1497
ult	-1498
▁pram	-1499
mą	-1500
sum	-1501
alog	-1502
inam	-1503
šalių	-1504
čios	-1505
sektori	-1506
▁biudžeto	-1507
abejo	-1508
esnio	-1509
akar	-1510
▁Ponia	-1511
▁numat	-1512
▁svarbus	-1513
▁politiką	-1514
▁iniciatyv	-1515
augi	-1516
ėjau	-1517
tinka	-1518
prival	-1519
aujų	-1520
rikos	-1521
▁suteik	-1522
visiškai	-1523
pek	-1524
agent	-1525
ūm	-1526
ūz	-1527
tre	-1528
▁pvz	-1529
ingos	-1530
žmogaus	-1531
▁padaryti	-1532
▁pranešėj	-1533
▁įsipareigoj	-1534
amo	-1535
▁ant	-1536
▁tuo	-1537
▁pirma	-1538
▁¦2	-1539
toje	-1540
▁Dėl	-1541
dalyv	-1542
sun	-1543
ten	-1544
ažnai	-1545
pagal	-1546
▁pateikti	-1547
mė	-1548
progr	-1549
direktyv	-1550
sk	-1551
usios	-1552
▁siek	-1553
▁palaik	-1554
menį	-1555
atvej	-1556
▁įgyvendinti	-1557
▁au	-1558
▁sm	-1559
ymosi	-1560
▁piliečių	-1561
tiesų	-1562
af	-1563
irūp	-1564
ančius	-1565
ez	-1566
▁;	-1567
engi	-1568
intas	-1569
▁netur	-1570
▁Taryba	-1571
▁čia	-1572
▁pavyz	-1573
▁duomen	-1574
parlamentas	-1575
tiek	-1576
▁praš	-1577
ac	-1578
aiš	-1579
ešimt	-1580
▁kitų	-1581
olidar	-1582
alų	-1583
etin	-1584
▁int	-1585
▁tre	-1586
▁Turi	-1587
▁grup	-1588
ėjimas	-1589
užtikrin	-1590
▁Ar	-1591
esiog	-1592
galima	-1593
akivaiz	-1594
▁grei	-1595
▁susij	-1596
▁pareig	-1597
▁pažang	-1598
šią	-1599
▁nep	-1600
antys	-1601
tinkl	-1602
eja	-1603
tinius	-1604
▁vadov	-1605
▁rei	-1606
▁darbą	-1607
demokra	-1608
tarybos	-1609
sudar	-1610
čiausi	-1611
ut	-1612
▁pra	-1613
▁moksl	-1614
▁turėtume	-1615
DE	-1616
ima	-1617
tuoj	-1618
voti	-1619
alime	-1620
džios	-1621
galimyb	-1622
interes	-1623
▁aplinkos	-1624
etas	-1625
liai	-1626
pasaul	-1627
cūz	-1628
▁mat	-1629
▁labiau	-1630
▁politika	-1631
nor	-1632
tent	-1633
▁vieš	-1634
pagalb	-1635
▁aiškiai	-1636
tuo	-1637
ūrą	-1638
tines	-1639
sienio	-1640
klausimas	-1641
▁H	-1642
uol	-1643
dien	-1644
▁priimti	-1645
▁visiems	-1646
didel	-1647
ekomend	-1648
▁vienas	-1649
dv	-1650
▁dr	-1651
▁ponios	-1652
▁proced	-1653
▁vidaus	-1654
▁įvairi	-1655
az	-1656
ąjį	-1657
▁rib	-1658
▁pripaž	-1659
ber	-1660
▁ner	-1661
▁teigi	-1662
ine	-1663
esnį	-1664
prin	-1665
▁tikrųjų	-1666
▁ab	-1667
viena	-1668
▁steb	-1669
srityje	-1670
pra	-1671
ved	-1672
laiko	-1673
rezoliu	-1674
▁U	-1675
metų	-1676
plan	-1677
▁konkre	-1678
žem	-1679
nors	-1680
promis	-1681
5¦	-1682
▁3	-1683
omų	-1684
ažiau	-1685
▁viena	-1686
▁Europa	-1687
lai	-1688
veikti	-1689
▁komitet	-1690
▁taisykl	-1691
oks	-1692
usių	-1693
▁finansų	-1694
▁O	-1695
atų	-1696
asis	-1697
kurių	-1698
žemės	-1699
▁Jung	-1700
tiniai	-1701
kurį	-1702
▁galimybę	-1703
jung	-1704
dėting	-1705
žmonių	-1706
▁atstov	-1707
▁galime	-1708
▁svarst	-1709
▁pasiekti	-1710
vy	-1711
▁jeigu	-1712
umu	-1713
nesi	-1714
▁Bend	-1715
ymų	-1716
pozi	-1717
▁mėn	-1718
▁kult	-1719
▁dalyk	-1720
umui	-1721
tiškai	-1722
požiūri	-1723
▁pastang	-1724
▁saugumo	-1725
pranešimą	-1726
ijai	-1727
praš	-1728
▁jūs	-1729
nacional	-1730
uma	-1731
ėkming	-1732
mę	-1733
ijų	-1734
▁niek	-1735
ingą	-1736
▁institucijos	-1737
ni	-1738
tra	-1739
ybą	-1740
tinas	-1741
▁Bals	-1742
kti	-1743
▁Tur	-1744
tiniu	-1745
▁atliek	-1746
UR	-1747
▁por	-1748
uosius	-1749
▁pavoj	-1750
priemonių	-1751
ryp	-1752
audži	-1753
nu	-1754
zon	-1755
įmon	-1756
veikį	-1757
▁priori	-1758
▁siekiama	-1759
▁klausimus	-1760
ėse	-1761
ėjome	-1762
▁svarbi	-1763
▁tikrai	-1764
▁priklaus	-1765
cen	-1766
atei	-1767
siek	-1768
▁stipr	-1769
sąjunga	-1770
visuomen	-1771
▁sukurti	-1772
▁pabrėžti	-1773
▁nustatyti	-1774
▁fond	-1775
tel	-1776
esnių	-1777
unk	-1778
▁¦201	-1779
būtina	-1780
iniais	-1781
▁šioje	-1782
tyb	-1783
iden	-1784
prant	-1785
▁papil	-1786
▁prisi	-1787
oju	-1788
lius	-1789
▁dien	-1790
▁lai	-1791
▁pras	-1792
▁pui	-1793
ankamai	-1794
▁skatin	-1795
▁sistemos	-1796
das	-1797
elių	-1798
klaid	-1799
▁jums	-1800
kreipti	-1801
▁interes	-1802
toti	-1803
▁suk	-1804
▁maisto	-1805
▁panaik	-1806
▁sveikatos	-1807
tokol	-1808
▁šiame	-1809
veiksmų	-1810
rėži	-1811
▁skiri	-1812
▁šiuos	-1813
▁standar	-1814
▁laikotarp	-1815
ani	-1816
9¦	-1817
▁nus	-1818
▁atskir	-1819
▁transporto	-1820
istų	-1821
rįst	-1822
▁biudž	-1823
7¦	-1824
yla	-1825
cijai	-1826
damos	-1827
ėmesio	-1828
ausia	-1829
▁nuostat	-1830
▁reikalav	-1831
jus	-1832
ymu	-1833
ūrim	-1834
pasiūl	-1835
trolės	-1836
augiuosi	-1837
▁požiūriu	-1838
▁Su	-1839
vaik	-1840
▁kil	-1841
toliau	-1842
urod	-1843
eikio	-1844
jeigu	-1845
anglaud	-1846
veiksming	-1847
▁komiteto	-1848
▁Sąjungoje	-1849
reikš	-1850
vadov	-1851
▁Pirm	-1852
ėjų	-1853
▁nen	-1854
▁gerb	-1855
tap	-1856
inama	-1857
inaudoti	-1858
na	-1859
auki	-1860
tose	-1861
uotų	-1862
▁suder	-1863
▁pirmininkauj	-1864
▁ge	-1865
▁EUR	-1866
rovės	-1867
▁inter	-1868
▁krizės	-1869
vyriausyb	-1870
elg	-1871
kov	-1872
nep	-1873
ordin	-1874
strukt	-1875
▁šalys	-1876
▁šalies	-1877
pakeitim	-1878
galėtų	-1879
▁pasak	-1880
▁neturi	-1881
▁nuomon	-1882
▁žinoma	-1883
virtinti	-1884
esnę	-1885
▁vai	-1886
esu	-1887
pet	-1888
sumaž	-1889
▁prek	-1890
iausiai	-1891
▁moterų	-1892
▁reform	-1893
▁priemonės	-1894
gam	-1895
džių	-1896
tojimo	-1897
▁priėm	-1898
▁atsižvelg	-1899
rand	-1900
energijos	-1901
▁įskaitant	-1902
ic	-1903
kr	-1904
▁Iš	-1905
▁žingsn	-1906
▁pasaulyje	-1907
▁mė	-1908
▁mas	-1909
lat	-1910
ėta	-1911
▁Bū	-1912
duri	-1913
engv	-1914
▁siūl	-1915
▁santy	-1916
▁nariai	-1917
▁valstybėms	-1918
jekt	-1919
imtis	-1920
▁remi	-1921
pasakyti	-1922
▁plėtros	-1923
▁vyriausyb	-1924
▁valstybėse	-1925
eno	-1926
pvz	-1927
padėti	-1928
▁griež	-1929
prekybos	-1930
▁Tarybai	-1931
▁technolog	-1932
▁atsižvelgiant	-1933
dis	-1934
▁jį	-1935
itin	-1936
ondo	-1937
▁5	-1938
tok	-1939
tom	-1940
ump	-1941
ėjus	-1942
pirma	-1943
jog	-1944
ančią	-1945
reglamen	-1946
kil	-1947
ymui	-1948
ančias	-1949
▁energetikos	-1950
vali	-1951
peten	-1952
▁kuriuo	-1953
▁efektyv	-1954
atsižvelgiant	-1955
kš	-1956
šū	-1957
amb	-1958
admin	-1959
kartu	-1960
produk	-1961
▁savai	-1962
▁šalims	-1963
▁atsakom	-1964
▁pasiūlymą	-1965
liū	-1966
vok	-1967
jame	-1968
orės	-1969
▁skur	-1970
krimin	-1971
uojant	-1972
usijos	-1973
▁įstat	-1974
▁šalyse	-1975
klausimą	-1976
▁ekonomi	-1977
sim	-1978
tomis	-1979
tuoti	-1980
8¦	-1981
oky	-1982
ėsi	-1983
neri	-1984
tyrim	-1985
▁tvir	-1986
rinkos	-1987
▁straipsn	-1988
del	-1989
jūsų	-1990
varto	-1991
▁reguli	-1992
dą	-1993
geri	-1994
ilij	-1995
▁jud	-1996
▁juos	-1997
▁pini	-1998
▁vykd	-1999
eikiama	-2000
▁veiksm	-2001
▁kiekvien	-2002
op	-2003
veikl	-2004
esij	-2005
asmen	-2006
kurią	-2007
▁kurio	-2008
ūkinink	-2009
administ	-2010
nusi	-2011
▁ragin	-2012
▁visos	-2013
paslaug	-2014
▁įtrauk	-2015
▁pareišk	-2016
▁išlaid	-2017
pranešime	-2018
▁h	-2019
nus	-2020
įvyk	-2021
▁strukt	-2022
▁pasaulio	-2023
▁nebuvo	-2024
▁Gali	-2025
▁Dabar	-2026
▁integ	-2027
▁parod	-2028
priklausom	-2029
eim	-2030
biudžeto	-2031
▁nuomone	-2032
▁reiškia	-2033
tija	-2034
▁oro	-2035
randuol	-2036
▁metais	-2037
▁dokumen	-2038
ininkystės	-2039
3¦	-2040
kuriuos	-2041
▁prisid	-2042
▁žmonės	-2043
rezultat	-2044
ge	-2045
giai	-2046
eniai	-2047
trukt	-2048
šalim	-2049
cijoms	-2050
dėmesį	-2051
spręsti	-2052
amus	-2053
enkl	-2054
▁vald	-2055
proces	-2056
▁parlamen	-2057
▁Parlamente	-2058
ird	-2059
vyr	-2060
eglob	-2061
manoma	-2062
pasiek	-2063
apsaugos	-2064
konkuren	-2065
▁mln	-2066
tinėje	-2067
".	-2068
olog	-2069
▁Šis	-2070
atori	-2071
palaik	-2072
muo	-2073
▁rim	-2074
▁stab	-2075
▁Turime	-2076
▁papras	-2077
▁kuriame	-2078
▁paslaugų	-2079
▁produktų	-2080
lėš	-2081
ron	-2082
anki	-2083
ausimo	-2084
▁kurioje	-2085
▁srityse	-2086
mi	-2087
tol	-2088
vaid	-2089
▁Pas	-2090
kartą	-2091
▁kurias	-2092
▁vietos	-2093
▁spręsti	-2094
oso	-2095
ponia	-2096
▁Taigi	-2097
▁šalis	-2098
lisabonos	-2099
viz	-2100
▁Af	-2101
▁ją	-2102
▁sien	-2103
negali	-2104
klimato	-2105
6¦	-2106
geb	-2107
istr	-2108
uota	-2109
feren	-2110
▁ataskai	-2111
▁kuriose	-2112
frakcijos	-2113
patvirtin	-2114
eda	-2115
eur	-2116
▁ek	-2117
autų	-2118
▁tek	-2119
▁atitink	-2120
▁Bendrijos	-2121
ekl	-2122
jūs	-2123
abaig	-2124
inėje	-2125
projek	-2126
atsižvelg	-2127
est	-2128
uot	-2129
cijoje	-2130
europa	-2131
▁vieną	-2132
▁pareng	-2133
anglaudos	-2134
myn	-2135
vil	-2136
čiu	-2137
▁tol	-2138
austi	-2139
iniams	-2140
pripaž	-2141
žinoma	-2142
▁direktyvos	-2143
elig	-2144
pram	-2145
▁noriu	-2146
▁teisę	-2147
oveikio	-2148
▁veiklos	-2149
▁pranešimo	-2150
▁taisyklių	-2151
2¦	-2152
ve	-2153
▁4	-2154
ūkst	-2155
amirš	-2156
deryb	-2157
ėkoju	-2158
▁padėtį	-2159
klausimu	-2160
▁Mano	-2161
▁euro	-2162
▁form	-2163
susitik	-2164
dį	-2165
mu	-2166
mat	-2167
intų	-2168
avimu	-2169
emokr	-2170
tuose	-2171
taikyti	-2172
▁ateityje	-2173
administra	-2174
ius	-2175
chan	-2176
duoti	-2177
anksčiau	-2178
enka	-2179
umun	-2180
dėlto	-2181
padid	-2182
riboj	-2183
▁2009	-2184
▁baig	-2185
ponios	-2186
▁skaidr	-2187
pranešėj	-2188
▁partner	-2189
▁skatinti	-2190
▁darbuotoj	-2191
▁pranešimas	-2192
eci	-2193
▁Ne	-2194
asti	-2195
pavyz	-2196
▁jiems	-2197
▁lygmeniu	-2198
▁svarbiausi	-2199
",	-2200
fes	-2201
ins	-2202
žių	-2203
▁Jei	-2204
aišku	-2205
pateikti	-2206
vencijos	-2207
ežas	-2208
ausių	-2209
džiui	-2210
ponai	-2211
▁išsi	-2212
▁prak	-2213
priežas	-2214
▁problema	-2215
tri	-2216
enki	-2217
uoju	-2218
šiame	-2219
chaniz	-2220
▁išteklių	-2221
▁pagalbos	-2222
▁suteikti	-2223
vieš	-2224
tinku	-2225
ankiai	-2226
▁agent	-2227
▁patir	-2228
▁tiesų	-2229
esivyst	-2230
▁narėse	-2231
▁skirti	-2232
piliečių	-2233
▁institucijų	-2234
stas	-2235
▁Bal	-2236
tomob	-2237
atveju	-2238
taryba	-2239
▁metus	-2240
▁dialog	-2241
pritariu	-2242
▁sumažinti	-2243
▁visuomenės	-2244
ote	-2245
yko	-2246
rati	-2247
▁dvi	-2248
darbą	-2249
koleg	-2250
▁Teis	-2251
▁žini	-2252
▁aspek	-2253
▁narėms	-2254
▁kuriais	-2255
įsipareigoj	-2256
▁priežiūros	-2257
elį	-2258
vardu	-2259
▁lėšų	-2260
anitar	-2261
▁atlik	-2262
aplinkos	-2263
europoje	-2264
priemones	-2265
▁piliečiams	-2266
dų	-2267
kėl	-2268
▁al	-2269
alių	-2270
▁lygio	-2271
jas	-2272
tokolą	-2273
vidaus	-2274
▁būtin	-2275
▁sistemą	-2276
▁gyventojų	-2277
▁pagrindinių	-2278
ruo	-2279
ąsi	-2280
ietų	-2281
ėtoj	-2282
princip	-2283
▁investi	-2284
▁viz	-2285
▁vėl	-2286
taigi	-2287
torin	-2288
▁visus	-2289
▁norime	-2290
▁reikalų	-2291
▁Pr	-2292
viet	-2293
▁kuo	-2294
tneri	-2295
▁narys	-2296
finansų	-2297
▁teises	-2298
politika	-2299
▁tikslas	-2300
▁mokesčių	-2301
įž	-2302
eiti	-2303
erdv	-2304
tiems	-2305
▁frak	-2306
▁šias	-2307
▁gerai	-2308
atžvilgiu	-2309
igracijos	-2310
▁vaidmenį	-2311
cent	-2312
grei	-2313
ital	-2314
▁Pag	-2315
nelyg	-2316
imtumo	-2317
▁patik	-2318
inei	-2319
pran	-2320
▁kal	-2321
numat	-2322
pažang	-2323
▁pažeid	-2324
padėkoti	-2325
žr	-2326
mus	-2327
▁fak	-2328
▁vad	-2329
▁aišk	-2330
▁sunk	-2331
▁naujų	-2332
▁visas	-2333
tomobili	-2334
umanitar	-2335
▁Pirminink	-2336
▁vartotojų	-2337
rd	-2338
bul	-2339
ito	-2340
ištek	-2341
skiri	-2342
duomen	-2343
eglobs	-2344
▁jūros	-2345
svarbus	-2346
▁bendrą	-2347
▁pritariu	-2348
įgyvendinti	-2349
mėn	-2350
nos	-2351
grup	-2352
antiems	-2353
▁pastar	-2354
▁is	-2355
▁nek	-2356
▁pager	-2357
▁būtent	-2358
turėtume	-2359
kok	-2360
▁19	-2361
▁žo	-2362
▁tri	-2363
▁šie	-2364
▁trūk	-2365
▁geriau	-2366
chn	-2367
uod	-2368
antį	-2369
▁pus	-2370
elyje	-2371
laikyti	-2372
▁padėtis	-2373
▁susitarimo	-2374
flik	-2375
kšči	-2376
toki	-2377
ymus	-2378
▁dži	-2379
džiag	-2380
šioje	-2381
▁žmonėms	-2382
▁susitarimas	-2383
lrd	-2384
rės	-2385
▁skub	-2386
▁stat	-2387
uojama	-2388
▁dalis	-2389
▁paramą	-2390
▁įsitik	-2391
▁paramos	-2392
1¦	-2393
▁Kar	-2394
▁dis	-2395
▁esu	-2396
netur	-2397
ausias	-2398
daryti	-2399
▁tinkl	-2400
diskusijos	-2401
oro	-2402
fras	-2403
iškų	-2404
kitų	-2405
▁nuk	-2406
suteik	-2407
spektyv	-2408
balsavau	-2409
politiką	-2410
ip	-2411
▁/	-2412
▁Vid	-2413
alima	-2414
▁aktų	-2415
eziden	-2416
konkre	-2417
▁kelia	-2418
▁sąlygas	-2419
▁problemų	-2420
▁rekomend	-2421
▁id	-2422
ione	-2423
imais	-2424
eidžia	-2425
proced	-2426
▁esame	-2427
▁reikš	-2428
▁dažnai	-2429
jį	-2430
toms	-2431
▁Kai	-2432
▁buv	-2433
▁mod	-2434
moksl	-2435
▁nesu	-2436
▁tokia	-2437
▁tinkamai	-2438
ūn	-2439
kult	-2440
vari	-2441
▁ter	-2442
alios	-2443
apusi	-2444
roriz	-2445
teigi	-2446
tugal	-2447
▁Vien	-2448
nagrin	-2449
▁kovos	-2450
▁mažiau	-2451
aiškinti	-2452
padaryti	-2453
▁tiesiog	-2454
▁susijusių	-2455
▁darbuotojų	-2456
ga	-2457
▁y	-2458
dys	-2459
amži	-2460
ančio	-2461
eglobsčio	-2462
frastrukt	-2463
▁sudėting	-2464
▁valdžios	-2465
▁rezoliucijos	-2466
4¦	-2467
cien	-2468
ausią	-2469
ensij	-2470
▁bank	-2471
▁nary	-2472
įvairi	-2473
lobaliz	-2474
▁pirmiausia	-2475
▁strategijos	-2476
eln	-2477
žiūrį	-2478
▁rodo	-2479
▁akivaiz	-2480
▁kompromis	-2481
uz	-2482
ingų	-2483
ąžin	-2484
tariame	-2485
▁turėti	-2486
▁konkurenc	-2487
buv	-2488
ema	-2489
gail	-2490
tingų	-2491
aujama	-2492
inamas	-2493
rancūz	-2494
▁reikėtų	-2495
olidarumo	-2496
būtent	-2497
labiau	-2498
▁minis	-2499
▁tyrimų	-2500
pasiekti	-2501
ūrimo	-2502
žemio	-2503
▁tari	-2504
▁žvej	-2505
galime	-2506
irties	-2507
priimti	-2508
▁klausimų	-2509
▁sprendimo	-2510
atas	-2511
steb	-2512
griež	-2513
inėms	-2514
ilijon	-2515
▁rinką	-2516
▁poveikį	-2517
▁Balsavau	-2518
veng	-2519
▁ket	-2520
▁nem	-2521
susij	-2522
saugumo	-2523
tikrųjų	-2524
visiems	-2525
galimybę	-2526
▁Prancūz	-2527
),	-2528
▁rem	-2529
ilumo	-2530
veikin	-2531
▁gamin	-2532
ančioms	-2533
komitet	-2534
tinkamai	-2535
▁kriteri	-2536
svarstyti	-2537
vų	-2538
entų	-2539
imti	-2540
niek	-2541
omen	-2542
▁posė	-2543
▁visą	-2544
▁gauti	-2545
▁bendro	-2546
▁kadangi	-2547
oja	-2548
pui	-2549
sur	-2550
tal	-2551
amie	-2552
giau	-2553
minti	-2554
viejų	-2555
acijas	-2556
▁pradėti	-2557
▁kuriomis	-2558
▁tikiuosi	-2559
yriausybės	-2560
FR	-2561
raf	-2562
uni	-2563
▁gar	-2564
▁europ	-2565
▁sistema	-2566
▁sustipr	-2567
▁problemas	-2568
▁sprendimus	-2569
ton	-2570
▁Ai	-2571
imis	-2572
▁Tik	-2573
▁paš	-2574
▁2020	-2575
▁Kalb	-2576
▁leid	-2577
▁teri	-2578
padėtis	-2579
taisykl	-2580
▁tikslų	-2581
emokratų	-2582
▁privalome	-2583
▁Galiausiai	-2584
rį	-2585
▁neį	-2586
▁šia	-2587
inėmis	-2588
tingai	-2589
veikinti	-2590
▁Komisijai	-2591
▁problemos	-2592
vejų	-2593
▁įst	-2594
aliau	-2595
prisi	-2596
▁abej	-2597
▁vand	-2598
anijos	-2599
atliek	-2600
galaik	-2601
▁kodėl	-2602
▁pramonės	-2603
fici	-2604
ijas	-2605
jums	-2606
remi	-2607
rindži	-2608
▁esmės	-2609
▁turės	-2610
pastang	-2611
ES	-2612
jam	-2613
▁EP	-2614
kaltim	-2615
▁klausimais	-2616
alon	-2617
juos	-2618
atskir	-2619
tikrai	-2620
tikiuosi	-2621
▁atlikti	-2622
transporto	-2623
erc	-2624
šie	-2625
dalyk	-2626
taikymo	-2627
▁daryti	-2628
▁darbotvark	-2629
lp	-2630
mių	-2631
sis	-2632
char	-2633
imės	-2634
umus	-2635
inami	-2636
pavoj	-2637
tokia	-2638
uotas	-2639
vieną	-2640
šiuos	-2641
▁Veng	-2642
▁aiški	-2643
▁galimybes	-2644
uvininkystės	-2645
ein	-2646
tės	-2647
inkl	-2648
pasak	-2649
▁meto	-2650
atstov	-2651
vertinti	-2652
nustatyti	-2653
res	-2654
okie	-2655
kelia	-2656
maisto	-2657
usiaus	-2658
siekiama	-2659
▁sėkming	-2660
irūpinimą	-2661
▁sprendimą	-2662
ec	-2663
vyn	-2664
band	-2665
▁Kon	-2666
▁riz	-2667
amasi	-2668
▁tarn	-2669
ratifik	-2670
sukurti	-2671
▁dėmesio	-2672
▁valdymo	-2673
▁atkreipti	-2674
institucijos	-2675
sul	-2676
inauj	-2677
inter	-2678
papil	-2679
▁band	-2680
▁teik	-2681
prasti	-2682
pasaulio	-2683
▁papildom	-2684
tras	-2685
ibrėž	-2686
vengti	-2687
▁krizę	-2688
▁pasis	-2689
▁neteis	-2690
▁kontrolės	-2691
nen	-2692
tys	-2693
inęs	-2694
▁Tarp	-2695
▁kelią	-2696
problema	-2697
▁pasirink	-2698
galiausiai	-2699
▁Č	-2700
aun	-2701
auju	-2702
iuro	-2703
▁lab	-2704
priori	-2705
▁aktyv	-2706
▁pajėg	-2707
▁pamin	-2708
▁sukur	-2709
sveikatos	-2710
adien	-2711
troli	-2712
▁Grai	-2713
▁vidu	-2714
inamos	-2715
▁nurod	-2716
atsakom	-2717
▁vertyb	-2718
▁koordin	-2719
▁pasinaudoti	-2720
kų	-2721
▁Į	-2722
fond	-2723
tvir	-2724
▁Bar	-2725
▁Žin	-2726
uotos	-2727
standar	-2728
▁vyksta	-2729
pabrėžti	-2730
pirmiausia	-2731
▁informacijos	-2732
eji	-2733
sto	-2734
gari	-2735
pekt	-2736
parod	-2737
suder	-2738
▁pati	-2739
skatin	-2740
▁vaikų	-2741
tvirtin	-2742
▁įmonių	-2743
▁susitarimą	-2744
ytą	-2745
tišk	-2746
trūk	-2747
vykd	-2748
▁grės	-2749
▁pavad	-2750
▁dirbti	-2751
sistemos	-2752
▁sutarties	-2753
pirmininkauj	-2754
žo	-2755
intos	-2756
▁Tiki	-2757
panaik	-2758
▁pramon	-2759
▁privalo	-2760
▁įtraukti	-2761
euro	-2762
siūl	-2763
▁plė	-2764
▁sub	-2765
gauti	-2766
kuria	-2767
ograf	-2768
▁kuria	-2769
eiskite	-2770
klausimus	-2771
▁aukščiausi	-2772
stab	-2773
▁lik	-2774
eistų	-2775
terys	-2776
visos	-2777
▁toks	-2778
▁vietų	-2779
▁naujas	-2780
▁šalyje	-2781
▁paskelb	-2782
▁sprendži	-2783
▁pasiūlymas	-2784
tojo	-2785
ėtis	-2786
▁jėg	-2787
▁šeš	-2788
▁Visi	-2789
▁Labai	-2790
nuostat	-2791
uržemio	-2792
▁sudaro	-2793
▁sąjung	-2794
▁visada	-2795
▁regiono	-2796
laikotarp	-2797
pasiūlymą	-2798
▁6	-2799
pus	-2800
elež	-2801
iliz	-2802
▁Val	-2803
avimui	-2804
moterų	-2805
neturi	-2806
▁ketin	-2807
▁nebus	-2808
inaujin	-2809
priemonės	-2810
▁balsavau	-2811
▁užsienio	-2812
▁prioritet	-2813
pub	-2814
neto	-2815
▁Kin	-2816
priėm	-2817
ėliau	-2818
ado	-2819
kan	-2820
alis	-2821
integ	-2822
uomet	-2823
įstat	-2824
ypating	-2825
▁taikyti	-2826
▁padėties	-2827
▁sprendimas	-2828
▁Parlamentui	-2829
gn	-2830
leid	-2831
prek	-2832
aktyv	-2833
šalys	-2834
▁2008	-2835
nuomon	-2836
ėkūros	-2837
reikalav	-2838
▁tvarkos	-2839
▁diskusijos	-2840
dus	-2841
etap	-2842
▁gai	-2843
▁jas	-2844
biudž	-2845
iniam	-2846
▁dalį	-2847
▁smur	-2848
reform	-2849
▁derybų	-2850
▁kaitos	-2851
požiūriu	-2852
▁pagalbą	-2853
technolog	-2854
▁galėtume	-2855
▁parengti	-2856
▁finansinių	-2857
jud	-2858
otis	-2859
noriu	-2860
krizės	-2861
tinėms	-2862
įtrauk	-2863
▁Jeigu	-2864
▁nepak	-2865
kadangi	-2866
▁siekti	-2867
▁atsisak	-2868
▁susiduri	-2869
pini	-2870
skri	-2871
ausio	-2872
▁itin	-2873
▁šiam	-2874
▁fondo	-2875
sąjungoje	-2876
▁gyvenimo	-2877
▁de	-2878
fika	-2879
teik	-2880
kirst	-2881
taria	-2882
▁Daug	-2883
▁Antra	-2884
▁inves	-2885
efektyv	-2886
komiteto	-2887
▁tikslus	-2888
sunk	-2889
tetų	-2890
▁Per	-2891
ysime	-2892
▁poky	-2893
▁vienod	-2894
ėjai	-2895
▁eks	-2896
angli	-2897
ėmesys	-2898
šalies	-2899
▁klaid	-2900
▁treči	-2901
▁pradži	-2902
▁veiklą	-2903
įskaitant	-2904
▁padidinti	-2905
▁piliečiai	-2906
▁vystymosi	-2907
▁sektoriaus	-2908
AV	-2909
aši	-2910
ėtas	-2911
▁mus	-2912
ydama	-2913
▁Vadov	-2914
▁laikas	-2915
▁vertus	-2916
pasaulyje	-2917
tomobilių	-2918
▁žingsnis	-2919
eti	-2920
plė	-2921
▁10	-2922
▁Ko	-2923
▁sek	-2924
▁vyr	-2925
▁zon	-2926
prisid	-2927
eležink	-2928
reiškia	-2929
▁galbūt	-2930
▁patenk	-2931
▁pakankamai	-2932
▁Y	-2933
dės	-2934
imi	-2935
irž	-2936
nek	-2937
▁Mūsų	-2938
▁reag	-2939
išlaid	-2940
veiksm	-2941
▁rasti	-2942
tarybai	-2943
▁bendra	-2944
▁pastab	-2945
▁pasireng	-2946
abejotinai	-2947
tė	-2948
eil	-2949
ūnų	-2950
▁tą	-2951
eliu	-2952
inys	-2953
▁bal	-2954
šalis	-2955
▁pali	-2956
▁kitos	-2957
plėtros	-2958
▁išorės	-2959
▁duomenų	-2960
▁susijęs	-2961
▁ūkinink	-2962
bar	-2963
▁įvy	-2964
aukia	-2965
eigti	-2966
inimu	-2967
rijoje	-2968
▁nelai	-2969
vietimo	-2970
valstybėse	-2971
▁sprendimų	-2972
gar	-2973
ėtos	-2974
▁Nep	-2975
▁žal	-2976
▁mies	-2977
reguli	-2978
žingsn	-2979
▁disku	-2980
▁spaud	-2981
▁ženkl	-2982
skritai	-2983
adarbiau	-2984
▁pabrėži	-2985
valstybėms	-2986
000	-2987
tiko	-2988
▁kor	-2989
dešimt	-2990
▁dauguma	-2991
bendrijos	-2992
▁klausimai	-2993
▁sektoriuje	-2994
▁rezoliuciją	-2995
egz	-2996
ąja	-2997
tiją	-2998
▁elg	-2999
santy	-3000
▁kryp	-3001
nariai	-3002
sijung	-3003
pareišk	-3004
▁keletą	-3005
čiausiai	-3006
▁pagrįst	-3007
▁laikytis	-3008
▁neturėtų	-3009
bendradarbiavimo	-3010
go	-3011
mai	-3012
nem	-3013
ška	-3014
alio	-3015
ikos	-3016
iška	-3017
skur	-3018
ymai	-3019
▁JAV	-3020
▁įta	-3021
dalis	-3022
stipr	-3023
čiųjų	-3024
ferend	-3025
nebuvo	-3026
▁išmet	-3027
amiršti	-3028
ekonomi	-3029
ateityje	-3030
▁skirtum	-3031
inč	-3032
oci	-3033
yme	-3034
reng	-3035
▁žem	-3036
avome	-3037
kiais	-3038
▁šeim	-3039
šalyse	-3040
▁teiki	-3041
▁nuolat	-3042
▁kompeten	-3043
▁programos	-3044
energetikos	-3045
pi	-3046
lav	-3047
prę	-3048
▁ci	-3049
ieno	-3050
umos	-3051
vald	-3052
savai	-3053
▁iššū	-3054
▁užsi	-3055
analiz	-3056
šalims	-3057
▁šalimis	-3058
nepaisant	-3059
▁Sąjungai	-3060
▁diskrimin	-3061
▁išspręsti	-3062
▁pasiūlymų	-3063
▁priežasčių	-3064
roje	-3065
iškas	-3066
kelti	-3067
yboje	-3068
▁2010	-3069
pastar	-3070
skirti	-3071
žmonės	-3072
▁Vokie	-3073
▁elekt	-3074
tinėmis	-3075
▁veikti	-3076
▁bendrov	-3077
▁diskusijas	-3078
rūp	-3079
amės	-3080
rimą	-3081
tiks	-3082
▁sen	-3083
▁tau	-3084
teris	-3085
kuriuo	-3086
ataskai	-3087
straipsn	-3088
▁rinkoje	-3089
▁klausimo	-3090
▁8	-3091
dur	-3092
eiv	-3093
sen	-3094
šir	-3095
ingo	-3096
▁paj	-3097
▁žod	-3098
▁neiš	-3099
▁oper	-3100
▁plat	-3101
▁įvai	-3102
leisti	-3103
▁atvir	-3104
▁dešimt	-3105
▁saugos	-3106
▁laisvės	-3107
▁pakeisti	-3108
▁mokslinių	-3109
pagrindinių	-3110
dvi	-3111
▁įg	-3112
aliu	-3113
antų	-3114
džiu	-3115
▁Esu	-3116
centr	-3117
džius	-3118
esnes	-3119
kodėl	-3120
kurio	-3121
vakar	-3122
būdžio	-3123
asklaid	-3124
beraliz	-3125
▁Praneš	-3126
▁Vadovų	-3127
▁Valsti	-3128
▁pabaig	-3129
▁kokybės	-3130
▁aplinkyb	-3131
▁branduol	-3132
▁poveikio	-3133
pranešimas	-3134
▁pasiūlymo	-3135
IT	-3136
20¦	-3137
hag	-3138
suk	-3139
tes	-3140
tyn	-3141
vėl	-3142
tams	-3143
vimo	-3144
▁Dar	-3145
▁tas	-3146
anori	-3147
▁situ	-3148
▁tada	-3149
svarbi	-3150
irželio	-3151
▁prieštar	-3152
parlamente	-3153
▁ekonominės	-3154
PL	-3155
arbo	-3156
▁Kad	-3157
būtin	-3158
etina	-3159
siais	-3160
ydami	-3161
▁Mums	-3162
kurias	-3163
pareng	-3164
racija	-3165
dokumen	-3166
paslaugų	-3167
▁projekt	-3168
ėgė	-3169
mens	-3170
prak	-3171
roso	-3172
usav	-3173
andid	-3174
aukti	-3175
▁galu	-3176
dirbti	-3177
ojimai	-3178
▁jokių	-3179
▁remti	-3180
omenyje	-3181
tiesiog	-3182
tiniais	-3183
▁¦2009¦	-3184
▁kalbėti	-3185
paprastin	-3186
privalome	-3187
▁administra	-3188
išs	-3189
imams	-3190
▁jame	-3191
▁šiol	-3192
▁naują	-3193
▁susiję	-3194
▁mechaniz	-3195
▁pritarti	-3196
▁socialinės	-3197
kuo	-3198
ektr	-3199
frak	-3200
land	-3201
liko	-3202
▁pla	-3203
patir	-3204
▁dujų	-3205
▁kita	-3206
adienį	-3207
▁išvad	-3208
▁relig	-3209
▁trans	-3210
nuomone	-3211
žiūrėti	-3212
▁matyti	-3213
▁princi	-3214
sižvelgi	-3215
▁poreiki	-3216
pranešimo	-3217
▁rezultatų	-3218
▁strategiją	-3219
▁finansavimo	-3220
žini	-3221
▁Jis	-3222
naujų	-3223
ančiai	-3224
engeno	-3225
ingumą	-3226
metais	-3227
omisar	-3228
vietos	-3229
amžiaus	-3230
partner	-3231
▁atrodo	-3232
▁naujov	-3233
▁greičiau	-3234
direktyvos	-3235
▁pastangas	-3236
ėd	-3237
fak	-3238
augos	-3239
enhag	-3240
uojami	-3241
anglies	-3242
engiant	-3243
sistema	-3244
▁Europą	-3245
▁kovoti	-3246
▁teikti	-3247
usiausvyr	-3248
▁teritori	-3249
▁nepaisant	-3250
mų	-3251
▁av	-3252
nesu	-3253
▁mai	-3254
atlik	-3255
▁viso	-3256
▁speci	-3257
kuriame	-3258
▁kaimyn	-3259
▁profes	-3260
▁Europai	-3261
▁Tarptau	-3262
sutarties	-3263
▁Tikiuosi	-3264
▁anksčiau	-3265
balsavimas	-3266
yd	-3267
lov	-3268
▁¦3	-3269
posė	-3270
▁Bet	-3271
▁Bri	-3272
esame	-3273
▁kliū	-3274
▁nesi	-3275
kurioje	-3276
▁žinome	-3277
▁partneri	-3278
le	-3279
rang	-3280
▁000	-3281
▁Ame	-3282
kitas	-3283
ąsias	-3284
▁Ital	-3285
▁kitą	-3286
ausios	-3287
norime	-3288
▁Sutar	-3289
▁nagrin	-3290
▁pinigų	-3291
▁derybas	-3292
▁negalime	-3293
priežiūros	-3294
▁galimybių	-3295
▁svarbiausia	-3296
lobalizacijos	-3297
▁7	-3298
dai	-3299
naš	-3300
tine	-3301
unik	-3302
ūras	-3303
▁Lib	-3304
jiems	-3305
tekst	-3306
▁apsi	-3307
▁truk	-3308
dažnai	-3309
saugoti	-3310
▁mėnesi	-3311
esiogiai	-3312
suteikti	-3313
▁apsauga	-3314
▁Šiandien	-3315
▁strategija	-3316
▁informaciją	-3317
▁dv	-3318
visas	-3319
▁erdv	-3320
vyksta	-3321
▁tokių	-3322
srityse	-3323
lygmeniu	-3324
pagalbos	-3325
▁suprant	-3326
▁vertinu	-3327
▁taisykles	-3328
kei	-3329
ket	-3330
čiū	-3331
▁".	-3332
tame	-3333
toks	-3334
teisę	-3335
zonos	-3336
iniame	-3337
kirsti	-3338
tumėte	-3339
uodžio	-3340
▁Rumun	-3341
kščionių	-3342
produktų	-3343
▁nariams	-3344
▁pasitik	-3345
sumažinti	-3346
taisyklių	-3347
▁besivyst	-3348
▁bendruomen	-3349
kin	-3350
rem	-3351
dėti	-3352
obul	-3353
tarn	-3354
gerai	-3355
umpai	-3356
kuriose	-3357
▁dalies	-3358
▁pritar	-3359
mokesčių	-3360
▁gamybos	-3361
▁sąlygos	-3362
adarbiauti	-3363
svarbiausi	-3364
visuomenės	-3365
▁dalyvauti	-3366
▁atsižvelgti	-3367
▁demokratijos	-3368
šia	-3369
išsi	-3370
reik	-3371
ytus	-3372
▁gyn	-3373
▁jam	-3374
rasti	-3375
▁kyla	-3376
▁mlrd	-3377
davimo	-3378
ininkų	-3379
pagrįst	-3380
▁papraš	-3381
▁bendros	-3382
▁apsaugoti	-3383
▁finansinės	-3384
mln	-3385
ota	-3386
alus	-3387
inči	-3388
redi	-3389
žiau	-3390
ecial	-3391
▁2007	-3392
▁tapti	-3393
▁versl	-3394
veiklos	-3395
▁naudos	-3396
▁žmones	-3397
▁didžiul	-3398
vartotojų	-3399
▁pažangos	-3400
▁protokolą	-3401
▁remiantis	-3402
▁valstybes	-3403
▁tarptautinės	-3404
lpn	-3405
ško	-3406
kita	-3407
koje	-3408
pens	-3409
lygio	-3410
ėjote	-3411
skaidr	-3412
vienod	-3413
sąlygas	-3414
užsienio	-3415
▁derybos	-3416
▁kuriems	-3417
▁poziciją	-3418
▁galimybės	-3419
▁informacija	-3420
).	-3421
šką	-3422
idži	-3423
kija	-3424
šias	-3425
čiais	-3426
▁tiks	-3427
bendrą	-3428
inimui	-3429
▁Kitas	-3430
▁atsir	-3431
▁kaimo	-3432
▁kreip	-3433
kalbant	-3434
skatinti	-3435
gyventojų	-3436
sprendimo	-3437
▁nuomonės	-3438
▁humanitar	-3439
▁politinių	-3440
institucijų	-3441
co	-3442
vat	-3443
▁mi	-3444
bank	-3445
vidu	-3446
žvej	-3447
▁pre	-3448
alimi	-3449
amųjų	-3450
intis	-3451
pasis	-3452
tinei	-3453
▁jaun	-3454
apital	-3455
narėse	-3456
padėtį	-3457
atitink	-3458
▁beveik	-3459
▁konflik	-3460
darbuotoj	-3461
▁balsuoti	-3462
▁pagerinti	-3463
▁perspektyv	-3464
lan	-3465
vež	-3466
▁sėk	-3467
antra	-3468
kovos	-3469
patik	-3470
▁Nors	-3471
▁būdu	-3472
pažeid	-3473
tingas	-3474
ydamas	-3475
▁ankst	-3476
▁tokios	-3477
▁medžiag	-3478
▁pateiki	-3479
▁regionų	-3480
▁įgyvendinimo	-3481
gą	-3482
200	-3483
gen	-3484
lėšų	-3485
skub	-3486
▁del	-3487
▁pam	-3488
▁rūp	-3489
mingi	-3490
pager	-3491
visus	-3492
yrimo	-3493
▁pakl	-3494
aujame	-3495
ančiais	-3496
investi	-3497
ortugal	-3498
▁apsaugą	-3499
▁įgalioj	-3500
▁Komisiją	-3501
piliečiams	-3502
▁susijusius	-3503
▁",	-3504
▁In	-3505
krai	-3506
riai	-3507
aspek	-3508
publi	-3509
baigti	-3510
narėms	-3511
▁esmin	-3512
▁kelių	-3513
▁techn	-3514
sistemą	-3515
▁leisti	-3516
išteklių	-3517
▁vykdyti	-3518
▁įvertin	-3519
▁frakcija	-3520
▁pažeidži	-3521
▁balsavimo	-3522
▁nepriklausom	-3523
▁prieglobsčio	-3524
bai	-3525
apsi	-3526
truk	-3527
ančia	-3528
ojant	-3529
dialog	-3530
eikšti	-3531
šalyje	-3532
gailest	-3533
tikslas	-3534
▁įmonės	-3535
▁nuomonę	-3536
▁požiūrį	-3537
ana	-3538
irk	-3539
mar	-3540
omb	-3541
usį	-3542
šos	-3543
dėst	-3544
tika	-3545
▁jus	-3546
entus	-3547
siant	-3548
galbūt	-3549
teises	-3550
▁plėtr	-3551
▁taigi	-3552
pradėti	-3553
žmonėms	-3554
kiekvien	-3555
problemų	-3556
vaidmenį	-3557
valdžios	-3558
▁taikymo	-3559
▁Nepaisant	-3560
▁sanglaudos	-3561
▁patvirtinti	-3562
rių	-3563
aktų	-3564
pati	-3565
▁¦1¦	-3566
ojimo	-3567
roati	-3568
tingi	-3569
▁link	-3570
kuriais	-3571
paramos	-3572
▁nebūtų	-3573
▁pažangą	-3574
▁direktyva	-3575
ims	-3576
omą	-3577
deri	-3578
▁Rūm	-3579
▁neb	-3580
▁uos	-3581
edant	-3582
iolog	-3583
jūros	-3584
metus	-3585
▁reik	-3586
geriau	-3587
paramą	-3588
▁Ukrai	-3589
▁kaita	-3590
▁padės	-3591
▁visuo	-3592
ininkai	-3593
▁Būtent	-3594
rekomend	-3595
konkurenc	-3596
darbuotojų	-3597
▁reikalavimus	-3598
kor	-3599
lap	-3600
zmo	-3601
umai	-3602
šiau	-3603
eklar	-3604
iurok	-3605
usija	-3606
▁bent	-3607
▁Šios	-3608
bendro	-3609
▁šiais	-3610
prancūz	-3611
pramonės	-3612
sprendži	-3613
▁Portugal	-3614
▁diskusijų	-3615
▁struktūrin	-3616
▁infrastrukt	-3617
▁priemonėmis	-3618
nuk	-3619
▁auk	-3620
narys	-3621
pajėg	-3622
leidži	-3623
▁glaud	-3624
▁laiką	-3625
▁turiu	-3626
reikėtų	-3627
▁paaišk	-3628
▁verslo	-3629
▁regione	-3630
▁teroriz	-3631
▁partijos	-3632
▁komitetas	-3633
susitarimas	-3634
fr	-3635
▁Ji	-3636
daro	-3637
emen	-3638
plės	-3639
ėjos	-3640
▁Isp	-3641
▁nare	-3642
▁aišku	-3643
▁nuola	-3644
reikalų	-3645
▁dalykas	-3646
▁užimtumo	-3647
susitarimo	-3648
▁galiausiai	-3649
▁Gr	-3650
▁ta	-3651
deja	-3652
visą	-3653
ūkis	-3654
▁bai	-3655
alonu	-3656
tojus	-3657
įsitik	-3658
▁neigi	-3659
struktyv	-3660
▁Afrikos	-3661
▁svarbūs	-3662
kompromis	-3663
▁komitete	-3664
▁konferen	-3665
▁sudaryti	-3666
▁partnerystės	-3667
bri	-3668
ono	-3669
pel	-3670
jans	-3671
joms	-3672
šiam	-3673
tikti	-3674
▁joms	-3675
osioms	-3676
tokios	-3677
turėti	-3678
cijomis	-3679
▁asmenų	-3680
▁veikla	-3681
▁Žinoma	-3682
sudėting	-3683
valifika	-3684
▁naudoti	-3685
▁tariant	-3686
▁problemą	-3687
▁visapusi	-3688
strategijos	-3689
▁reglamento	-3690
arg	-3691
lig	-3692
mer	-3693
angl	-3694
enar	-3695
vand	-3696
▁ten	-3697
veiki	-3698
▁blog	-3699
▁pone	-3700
mažiau	-3701
▁gerbi	-3702
▁kredi	-3703
▁mastu	-3704
▁nieko	-3705
▁pakei	-3706
▁vakar	-3707
naudoti	-3708
▁pacien	-3709
▁sustab	-3710
klausimų	-3711
▁milijon	-3712
▁vienint	-3713
paprastai	-3714
priimtina	-3715
▁pasveikinti	-3716
▁nacionalinių	-3717
NL	-3718
žal	-3719
inus	-3720
umis	-3721
▁rež	-3722
▁Deja	-3723
▁pasku	-3724
ategori	-3725
orėtume	-3726
negalime	-3727
▁įmonėms	-3728
▁pareigas	-3729
▁programą	-3730
▁demokratų	-3731
▁direktyvą	-3732
▁taisyklės	-3733
▁daugiausia	-3734
gir	-3735
ume	-3736
eral	-3737
ėtai	-3738
Europ	-3739
inusi	-3740
ektros	-3741
onijos	-3742
tyrimų	-3743
žinoti	-3744
▁sąžin	-3745
▁augimo	-3746
▁parama	-3747
▁priver	-3748
▁tikras	-3749
gyvenimo	-3750
▁grindži	-3751
▁įvairių	-3752
pozicijos	-3753
sprendimą	-3754
▁daugelis	-3755
▁skaičius	-3756
▁nusikaltim	-3757
▁veiksmingai	-3758
ybė	-3759
esti	-3760
rija	-3761
site	-3762
žinome	-3763
▁Prieš	-3764
▁artim	-3765
▁pasek	-3766
▁pažym	-3767
▁veiki	-3768
uojamos	-3769
▁sritis	-3770
▁¦2008¦	-3771
▁aptarti	-3772
▁atliekų	-3773
▁daugelio	-3774
▁reguliavimo	-3775
ind	-3776
lab	-3777
otų	-3778
ybe	-3779
▁JT	-3780
▁Už	-3781
ieji	-3782
žiai	-3783
▁kam	-3784
eivių	-3785
▁baus	-3786
amiesi	-3787
aujant	-3788
istano	-3789
pektus	-3790
▁aktus	-3791
▁nares	-3792
▁sugeb	-3793
papildom	-3794
▁Rusijos	-3795
▁sutartį	-3796
susijusių	-3797
▁sutartis	-3798
▁Jungtinių	-3799
rezoliucijos	-3800
RO	-3801
iui	-3802
okį	-3803
ruk	-3804
sek	-3805
tern	-3806
▁Ver	-3807
▁eur	-3808
▁sti	-3809
▁jūrų	-3810
▁tapo	-3811
naudos	-3812
pavyko	-3813
▁būsim	-3814
▁leidži	-3815
▁Kalbant	-3816
▁paremti	-3817
▁ratifik	-3818
▁skirtas	-3819
▁ilgalaik	-3820
▁preziden	-3821
▁%	-3822
kią	-3823
ugs	-3824
dalį	-3825
enos	-3826
kias	-3827
▁Jie	-3828
esnius	-3829
neteis	-3830
atlikti	-3831
poveikį	-3832
reikšti	-3833
tvarkos	-3834
▁atnauj	-3835
▁dalykų	-3836
▁norint	-3837
▁visoms	-3838
▁vykdom	-3839
▁ministr	-3840
▁kultūros	-3841
▁panaudoj	-3842
pirmininko	-3843
rūm	-3844
▁14	-3845
nary	-3846
▁	-3847
i	-3848
¦	-3849
a	-3850
s	-3851
t	-3852
r	-3853
o	-3854
e	-3855
n	-3856
u	-3857
k	-3858
m	-3859
p	-3860
l	-3861
d	-3862
j	-3863
v	-3864
g	-3865
,	-3866
b	-3867
ų	-3868
y	-3869
ė	-3870
.	-3871
š	-3872
ą	-3873
ž	-3874
𐋇	-3875
į	-3876
ū	-3877
c	-3878
č	-3879
E	-3880
z	-3881
f	-3882
ę	-3883
P	-3884
T	-3885
0	-3886
-	-3887
S	-3888
K	-3889
2	-3890
(	-3891
)	-3892
B	-3893
A	-3894
𐊣	-3895
𐊼	-3896
1	-3897
h	-3898
"	-3899
M	-3900
V	-3901
D	-3902
N	-3903
J	-3904
R	-3905
G	-3906
L	-3907
Š	-3908
I	-3909
:	-3910
9	-3911
5	-3912
?	-3913
3	-3914
7	-3915
4	-3916
8	-3917
;	-3918
C	-3919
6	-3920
O	-3921
F	-3922
U	-3923
Ž	-3924
/	-3925
H	-3926
Į	-3927
w	-3928
!	-3929
Č	-3930
Y	-3931
W	-3932
x	-3933
é	-3934
%	-3935
q	-3936
á	-3937
'	-3938
ö	-3939
Z	-3940
X	-3941
Ū	-3942
è	-3943
í	-3944
ó	-3945
ü	-3946
+	-3947
ä	-3948
ş	-3949
ă	-3950
Q	-3951
[	-3952
&	-3953
]	-3954
ß	-3955
ń	-3956
ć	-3957
ø	-3958
ú	-3959
°	-3960
ķ	-3961
à	-3962
ê	-3963
ï	-3964
ň	-3965
ł	-3966
·	-3967
ý	-3968
ő	-3969
ţ	-3970
ż	-3971
ç	-3972
ñ	-3973
Ţ	-3974
Á	-3975
Ö	-3976
_	-3977
ò	-3978
ī	-3979
ľ	-3980
̨	-3981
έ	-3982
π	-3983
ρ	-3984
•	-3985
É	-3986
Í	-3987
Ó	-3988
Ő	-3989
Ř	-3990
ś	-3991
Ş	-3992
Υ	-3993
”	-3994
ř	-3995
υ	-3996
