<pad>	0
</s>	0
<unk>	0
ို	-0
င်	-1
ော	-2
ည်	-3
ား	-4
ို့	-5
ကို	-6
က်	-7
င်း	-8
▁အ	-9
သည်	-10
သော	-11
▁သ	-12
န်	-13
ကြ	-14
တို့	-15
ရှ	-16
▁မ	-17
ော်	-18
င့်	-19
ပြ	-20
တော်	-21
တ်	-22
၏။	-23
▁ထ	-24
စ်	-25
နှ	-26
ယ်	-27
ုရ	-28
ပ်	-29
မျ	-30
မှ	-31
▁လ	-32
မ်	-33
▁င	-34
ည်း	-35
ဘုရ	-36
ောက်	-37
ဖြ	-38
မူ	-39
▁တ	-40
ခြ	-41
ိုး	-42
ီး	-43
▁ငါ	-44
ေး	-45
နှင့်	-46
ဘုရား	-47
မည်	-48
ကျ	-49
သို့	-50
ရှိ	-51
တော်မူ	-52
တို့သည်	-53
မြ	-54
သူ	-55
ခြင်း	-56
လျ	-57
▁ထို	-58
▁ယ	-59
▁သူ	-60
ုံ	-61
ိမ်	-62
▁စ	-63
ရာ	-64
ဟု	-65
ပါ	-66
ောင်	-67
ချ	-68
▁သင်	-69
ောင်း	-70
▁ပ	-71
ေါ	-72
တို့ကို	-73
▁န	-74
ွန်	-75
သား	-76
ဖြစ်	-77
ကား	-78
၍၊	-79
စေ	-80
မည်။	-81
ာဝ	-82
ာဝရ	-83
ုပ်	-84
▁ရ	-85
▁ပြ	-86
မျိုး	-87
ေ့	-88
ာဝရဘုရား	-89
လည်း	-90
ိုင်	-91
ိန်	-92
▁ဆ	-93
??	-94
▁ကို	-95
▁က	-96
▁ခ	-97
ကြ၏။	-98
ောင့်	-99
▁ထာဝရဘုရား	-100
သောသူ	-101
ပေါ	-102
ုံး	-103
အား	-104
ွား	-105
ခင်	-106
လျှ	-107
▁မြ	-108
လော	-109
မ်း	-110
သောအ	-111
ကျွန်	-112
ေလ	-113
ိမ့်	-114
မြို့	-115
ုန်	-116
ိတ်	-117
၎င်း	-118
တွ	-119
▁ကြ	-120
ခါ	-121
လျှင်	-122
ဲ့	-123
ိုက်	-124
▁ရှ	-125
မှာ	-126
▁ကိုယ်	-127
ဖြင့်	-128
အမျိုး	-129
လျက်	-130
သခင်	-131
▁ဘုရား	-132
လိမ့်	-133
ိမ	-134
များ	-135
ဉ်	-136
ကား၊	-137
ုတ်	-138
▁လူ	-139
ငှ	-140
▁အဘ	-141
ပြု	-142
ကြောင်း	-143
မျှ	-144
ကြီး	-145
ိုင်း	-146
▁ငါ့	-147
ပြည်	-148
၎င်း၊	-149
ငှါ	-150
လော့	-151
တော်မူ၏။	-152
လေ	-153
▁ကျ	-154
လျှင်၊	-155
သရ	-156
နေ	-157
ကြောင့်	-158
ွှ	-159
ကျွန်ုပ်	-160
လိမ့်မည်။	-161
ူး	-162
သက်	-163
ပြီ	-164
ခံ	-165
ိန့်	-166
▁ဣ	-167
ည်း။	-168
▁ဘုရားသခင်	-169
လူ	-170
????	-171
မှု	-172
ခြင်းငှါ	-173
သွား	-174
▁ဝ	-175
ဆို	-176
တွင်	-177
တော်ကို	-178
နှစ်	-179
▁အဘယ်	-180
ပေါင်း	-181
▁အကျွန်ုပ်	-182
ထား	-183
ွာ	-184
ိမိ	-185
▁သင်တို့	-186
ည့်	-187
▁ဗ	-188
▁ချ	-189
ရှင်	-190
လော့။	-191
လာ	-192
ရပ်	-193
လည်း၊	-194
အတ	-195
သရေလ	-196
ျက်	-197
▁မိမိ	-198
္တ	-199
ေရ	-200
ွက်	-201
▁သူတို့	-202
▁အာ	-203
ရား	-204
သော်	-205
လေ၏။	-206
ပေါ်	-207
▁ဣသရေလ	-208
တတ်	-209
လုံး	-210
▁ဒ	-211
တ္တ	-212
ဇ်	-213
ွေး	-214
▁ဘ	-215
ပါး	-216
န်း	-217
▁ဤ	-218
ပြီ။	-219
ပြစ်	-220
▁ဟ	-221
ပြီး	-222
ဲ့သို့	-223
ာလ	-224
ပေး	-225
သာ	-226
▁ထိုအ	-227
ဘုရင်	-228
နာ	-229
ံ့	-230
န့်	-231
ကဲ့သို့	-232
▁မိန့်	-233
နိုင်	-234
သောအခါ	-235
▁ကိုယ်တော်	-236
လင်	-237
ရှု	-238
▁ရှိ	-239
အပေါင်း	-240
မူကား၊	-241
▁ဖ	-242
သမျှ	-243
စာ	-244
စွာ	-245
▁သို့	-246
ထဲ	-247
ယောက်	-248
သဖြင့်	-249
ဝိ	-250
အမျိုးသား	-251
▁ကောင်း	-252
ခြင်းကို	-253
▁သည်	-254
ဘို့	-255
▁ဖြစ်	-256
ွေ	-257
▁နှ	-258
လျက်၊	-259
ခု	-260
ဟူ	-261
ဖန်	-262
ပြော	-263
ဒ်	-264
ွယ်	-265
က၊	-266
တိုင်	-267
▁မှ	-268
▁သား	-269
ွဲ	-270
▁ငါသည်	-271
▁ဧ	-272
▁ထိုသူ	-273
ညာ	-274
▁ပြု	-275
မည်ဟု	-276
နေ့	-277
လက်	-278
▁နေ	-279
ရှေ့	-280
▁ယဇ်	-281
မင်း	-282
စား	-283
အတိုင်း	-284
▁အလ	-285
ရင်	-286
သေ	-287
▁သော	-288
စ္	-289
ဘက်	-290
သိ	-291
စုံ	-292
သန	-293
ပင်	-294
▁သင့်	-295
ိန်း	-296
တည်း။	-297
တရား	-298
ထံ	-299
ရှင်း	-300
စဉ်	-301
▁သင်သည်	-302
▁သင်၏	-303
▁ည	-304
ရိ	-305
ရမည်။	-306
ထောင်	-307
▁အကြောင်း	-308
စကား	-309
ယူ	-310
▁သင်တို့သည်	-311
အောင်	-312
ပေါ်မှာ	-313
ုဒ	-314
ဘဲ	-315
▁မြေ	-316
▁သူတို့သည်	-317
စေခြင်းငှါ	-318
တော်မူသည်	-319
မြင်	-320
ိမ်း	-321
မရှိ	-322
▁လက်	-323
▁ခံ	-324
▁ထိုသို့	-325
▁ရောက်	-326
ကင်	-327
▁ယဇ်ပ	-328
▁အသက်	-329
သီး	-330
▁ဂ	-331
ွှတ်	-332
အကြောင်း	-333
သောအခါ၊	-334
ကြလော့။	-335
အားဖြင့်	-336
ေါ်	-337
▁မြို့	-338
မျက်	-339
တည်း	-340
ချင်း	-341
ငါ	-342
ျား	-343
ီရင်	-344
တော်မူသော	-345
ရှိ၏။	-346
င်္	-347
▁ထာဝရဘုရားသည်	-348
▁ယေ	-349
▁သူ၏	-350
ွင့်	-351
သဖြင့်၊	-352
ွင်း	-353
ပါ၏။	-354
ဦး	-355
ဆယ်	-356
ရှိသော	-357
ရဲ	-358
▁ယော	-359
▁အပြစ်	-360
▁အမ	-361
ဟုတ်	-362
▁လျ	-363
▁မီး	-364
ကြောင့်၊	-365
ရောက်	-366
များကို	-367
▁ယုဒ	-368
တို့အား	-369
နား	-370
ကလည်း၊	-371
လှ	-372
ကြလိမ့်မည်။	-373
ငယ်	-374
ရသော	-375
????????	-376
ပျ	-377
ပါ။	-378
ွတ်	-379
ရော	-380
▁နား	-381
အရာ	-382
ဇော်	-383
ဆောင်	-384
တော်၌	-385
▁ငါတို့	-386
▁ယေရ	-387
န့်ရှင်း	-388
ူဇော်	-389
ိန်းမ	-390
က္	-391
▁တဖန်	-392
ရှေ	-393
တိ	-394
ိပ်	-395
▁ကျွန်	-396
တပါး	-397
▁ဆို	-398
စ္စာ	-399
▁စိတ်	-400
ောဟ	-401
ထက်	-402
ါဝိ	-403
လော။	-404
ါဝိဒ်	-405
▁ပေး	-406
▁လျှ	-407
▁ကောင်းကင်	-408
▁ရှင်	-409
အလ	-410
▁မော	-411
တို့၏	-412
▁ထာဝရဘုရား၏	-413
ပြီးမှ	-414
မီး	-415
အရပ်	-416
အမှု	-417
▁ဖြ	-418
တော်သည်	-419
ပတ်	-420
ရ။	-421
▁သွား	-422
▁ထိုအခါ	-423
နည်း	-424
▁ပြန်	-425
သောသူသည်	-426
▁ဇ	-427
မိ	-428
မာ	-429
လိ	-430
ာန်	-431
တင်	-432
▁ရှင်ဘုရင်	-433
▁အမျိုး	-434
▁အို	-435
တို့နှင့်	-436
ညာဉ်	-437
်	-438
▁	-439
ာ	-440
ု	-441
ိ	-442
ေ	-443
း	-444
သ	-445
က	-446
င	-447
မ	-448
တ	-449
့	-450
ရ	-451
ြ	-452
အ	-453
ှ	-454
ည	-455
န	-456
လ	-457
ပ	-458
စ	-459
၊	-460
ျ	-461
ူ	-462
ခ	-463
။	-464
ါ	-465
ွ	-466
၏	-467
ထ	-468
ယ	-469
ဘ	-470
ံ	-471
ီ	-472
ဖ	-473
၍	-474
ဆ	-475
ဝ	-476
ဟ	-477
ဲ	-478
၌	-479
?	-480
္	-481
ဒ	-482
ဇ	-483
ဗ	-484
၎	-485
ဉ	-486
ဂ	-487
ဣ	-488
ဤ	-489
ဏ	-490
ဧ	-491
ဥ	-492
ဦ	-493
ဃ	-494
ဌ	-495
ဩ	-496
