<pad>	0
</s>	0
<unk>	0
¦	-1.4966
▁¦	-1.5068
▁်	-2.21729
င	-3.51712
▁့	-3.82358
ည	-4.12718
▁့်	-4.43227
း	-4.48269
သ	-4.59552
▁၊	-4.6897
ကို	-4.71755
တော	-4.88055
က	-4.93858
တို	-5.07269
စ	-5.08768
▁၏။	-5.15587
နှ	-5.43124
▁	-5.44079
မည	-5.52303
▁်၊	-5.5373
အ	-5.54109
သော	-5.61936
▁။	-5.63631
ောင	-5.64029
သို	-5.66093
သင	-5.67084
တ	-5.68264
န	-5.68814
ခြ	-5.72772
္	-5.8027
ဖြ	-5.87524
▁်။	-5.92011
ယ	-5.97342
ကြ	-6.02286
ငါ	-6.02841
▁၍	-6.03214
လည	-6.05783
▁၏	-6.16042
မူ	-6.19174
မ	-6.26588
မြို	-6.27344
ပ	-6.28
▁်၌	-6.29108
သူတို	-6.30534
ဘုရား	-6.3993
သခ	-6.41558
▁၌	-6.4675
▁်၏	-6.46999
ဟု	-6.47382
ကိုယ	-6.48126
ောက	-6.50647
▁်၍	-6.51809
ရှင	-6.51996
၎	-6.53465
ုပ	-6.56625
ရ	-6.56694
ဆ	-6.57961
သူ	-6.59213
ပြည	-6.59236
စေ	-6.6004
လိမ	-6.62884
ဉ	-6.66804
▁၍၊	-6.72671
တည	-6.76245
ထာဝရဘုရား	-6.76679
မိန	-6.77679
းကို	-6.78646
ထို	-6.78876
မြ	-6.79966
မှာ	-6.82507
လျှ	-6.84264
အား	-6.88554
▁်၍၊	-6.90357
▁့။	-6.90529
▁့်၊	-6.91363
လက	-6.9226
တွ	-6.94232
လျ	-6.96226
အဘယ	-6.98256
▁်၏။	-6.99945
အကျွန	-7.03416
သား	-7.04093
းငှါ	-7.04522
းတို	-7.06952
အကြော	-7.07497
မင	-7.09824
ရောက	-7.11635
မှ	-7.11655
ဇ	-7.11803
ိမ	-7.12104
လေ	-7.13137
လော	-7.14004
တတ	-7.14344
▁့၌	-7.14526
ရှိ	-7.15285
နေ	-7.1814
လင	-7.18448
သန	-7.25967
တိုင	-7.2648
ကား	-7.27436
ရှေ	-7.30204
ငါတို	-7.32877
ချ	-7.32883
ကြော	-7.34844
ဘုရ	-7.35077
ကျွန	-7.36342
ရပ	-7.36415
ပါ	-7.37275
အသက	-7.39578
ဖန	-7.41252
▁့၊	-7.41256
နို	-7.41328
ပေါ	-7.41771
ုတ	-7.42769
▁့၏	-7.43366
အပေါ	-7.43429
ိတ	-7.43833
ထ	-7.45848
စိတ	-7.46671
ရာ	-7.46793
ကဲ	-7.47067
ပြ	-7.49195
ပြန	-7.5023
သောအခါ	-7.51278
ငါသ	-7.53513
သွား	-7.5526
းသော	-7.56028
မူသ	-7.60394
ထော	-7.60582
ပြု	-7.6083
သဖြ	-7.60868
ဆို	-7.61103
ထွ	-7.64465
သက	-7.65149
လုပ	-7.67124
အတို	-7.68641
ပေး	-7.69073
ပြစ	-7.69422
လိုက	-7.70357
ဘက	-7.70635
မူသော	-7.72571
မိမိ	-7.73294
ဝ	-7.73938
ုန	-7.73986
ထိုသို	-7.75053
ဆော	-7.7645
ထာဝရဘုရားသ	-7.77255
လာ	-7.77333
းကင	-7.77734
ကြလော	-7.77741
ကျ	-7.78091
သောသူ	-7.79455
သာ	-7.79857
မို	-7.80117
ဗ	-7.8073
ခေါ	-7.81332
စီရ	-7.82659
အစ	-7.82678
းတော	-7.82685
လွှတ	-7.83421
စစ	-7.83725
လ	-7.84802
ရှိသော	-7.85306
အားဖြ	-7.85316
တန	-7.86844
လူ	-7.87042
မျ	-7.87339
သူသ	-7.87446
တောင	-7.8928
ယောက	-7.8943
ပတ	-7.91249
နား	-7.92567
ဝတ	-7.93953
လှ	-7.96505
ပူဇော	-7.97738
ခဲ	-7.97883
ျက	-7.9961
သတ	-7.99701
ဂု	-8.00639
သားတို	-8.01354
ဤ	-8.01501
အပြ	-8.02281
တပ	-8.02609
တု	-8.02989
အော	-8.03309
အဘို	-8.0346
ဒါဝိဒ	-8.03756
မတ	-8.05147
လူတို	-8.05335
တင	-8.06486
ှင	-8.07111
များ	-8.07203
▁့်။	-8.07652
ိုင	-8.08124
အမျိုးသား	-8.08165
တယောက	-8.08236
ထိုအခါ	-8.08309
လုံး	-8.09068
မဟု	-8.09205
ထက	-8.09962
ဥ	-8.09967
သေ	-8.1019
သိမ	-8.10458
မုန	-8.10962
ဏ	-8.11503
ကယ	-8.13014
းမူကား	-8.14574
တွေ	-8.14636
လွ	-8.15919
လမ	-8.16452
ပုရောဟ	-8.16548
ခံ	-8.18168
းနှ	-8.1822
အမျိုး	-8.18253
ွန	-8.20172
ထံ	-8.20778
ရန	-8.215
ဒ	-8.2177
ဘို	-8.21846
ပြီးမှ	-8.23345
အမှု	-8.23673
ကြွ	-8.26654
မြောက	-8.27271
လယ	-8.2839
ခ	-8.29299
အပ	-8.29535
ဃ	-8.299
ိပ	-8.30066
တိုက	-8.30795
အဲ	-8.31094
ကြောက	-8.31523
ရကြ	-8.31611
အံ	-8.321
များကို	-8.32131
ဟ	-8.32668
ယေရုရှ	-8.34181
သောသူတို	-8.34527
တရား	-8.369
မက	-8.37236
အတူ	-8.37868
မူပါ	-8.38003
ဣသရေလ	-8.38365
သောကြ	-8.39067
ယူ	-8.39087
အလွ	-8.39666
းသို	-8.40168
စပ	-8.4023
ပြော	-8.41357
ကျောက	-8.4164
ဝမ	-8.42047
ရက	-8.43606
မေ	-8.43775
းဟု	-8.44093
ပလ	-8.44135
အခွ	-8.44638
ထား	-8.44702
သစ	-8.44739
ရိုက	-8.44747
အချ	-8.4478
တကွ	-8.44956
ဝိညာ	-8.45334
စကားကို	-8.46111
ထာဝရ	-8.47234
အဘ	-8.47286
ဣသရေလအမျိုး	-8.47554
ကာလ	-8.47871
မှန	-8.47902
ဆက	-8.4839
းသ	-8.49474
သောသူသ	-8.49474
စား	-8.49855
ဣသရေလအမျိုးသား	-8.50304
ဘော	-8.50585
ရှိသ	-8.50824
အတွ	-8.51941
းခြ	-8.53342
းဟူသော	-8.53741
ပရောဖ	-8.53767
ယုဒ	-8.53942
ချက	-8.54035
းကြီး	-8.5478
ခုန	-8.55153
ရသော	-8.55268
ဝန	-8.55846
ဖျ	-8.55882
ဘဲ	-8.56084
ခန	-8.56085
ြိမ	-8.56264
ရှိသမျှ	-8.56676
သကဲ	-8.57014
ပျ	-8.57102
းမ	-8.5738
မှတ	-8.57383
ကော	-8.57424
စွာ	-8.57488
ထုတ	-8.57711
မှစ	-8.59574
ရှု	-8.59772
ခရ	-8.59808
အချိ	-8.60396
အရာ	-8.60561
မီးရှို	-8.60711
အရ	-8.60944
ပြီ	-8.61001
ရေ	-8.61299
ပြီးလျ	-8.616
တမန	-8.61637
မူကား	-8.61966
အို	-8.62093
ကျေးဇူး	-8.63162
ခံရ	-8.63194
ပည	-8.64543
စာ	-8.65769
မိမိတို	-8.67398
ကျိ	-8.6813
ချစ	-8.68682
ထိုသူ	-8.6946
နန	-8.69596
ပိုင	-8.69711
စွန	-8.70977
ပန	-8.72961
ထဲ	-8.73271
ထဲက	-8.738
ရှောက	-8.74032
လူများ	-8.74173
ိမာန	-8.74461
မူပြီ	-8.7594
ဘု	-8.76786
ွတ	-8.77156
နာမ	-8.78574
အမျ	-8.78716
စရာ	-8.78915
မြေ	-8.79596
စုံ	-8.79913
ကွယ	-8.79936
စကား	-8.80107
မှီ	-8.80308
မြေကြီး	-8.80327
ိန	-8.80513
ဟူ	-8.80851
ထိုကြ	-8.81189
နေသော	-8.81296
ကြား	-8.81604
ီအစ	-8.82055
ယုံကြ	-8.82292
ာ	-8.82647
ကြီး	-8.82655
ကာ	-8.83334
ဟူမူကား	-8.84056
ွယ	-8.84189
ဒုစ	-8.84369
သိ	-8.84767
းစေ	-8.85042
းဖြ	-8.85117
နေကြ	-8.85331
ယခု	-8.85382
အမိန	-8.85431
ရှိကြ	-8.8545
နှာ	-8.85721
တာ	-8.85748
နေရာ	-8.86022
အန	-8.86127
ဆီး	-8.86233
နက	-8.86378
ပြုသော	-8.86507
ထိုန	-8.88425
အမြ	-8.88567
ယာကု	-8.88719
လျှော	-8.89534
ပစ	-8.89889
အခါ	-8.89921
ဗို	-8.90054
မျှ	-8.90541
ချီးမွ	-8.90576
ခပ	-8.91645
ထာဝရဘုရားကို	-8.92625
မရှိ	-8.93052
ျစ	-8.93347
တိ	-8.9565
ငံ	-8.96033
စီး	-8.96229
ဘွ	-8.97041
ရွံ	-8.97658
မစ	-8.97758
းရှိ	-8.97868
ဖွဲ	-8.98002
အမှုကို	-8.98395
ရှက	-8.99459
ညှ	-8.99944
ရှား	-9.0002
ဘ	-9.00322
ကျမ	-9.00541
သမီး	-9.01447
လန	-9.02022
ပရိသတ	-9.02219
ပျော	-9.02374
ကြပါ	-9.02741
ယနေ	-9.0277
လူအပေါ	-9.03005
းကြ	-9.03336
လျော	-9.03457
ရလိမ	-9.04272
အာရု	-9.04783
ထိုင	-9.05103
သွားကြ	-9.0535
ရဲ	-9.06046
ကြပြီ	-9.06622
အလို	-9.07492
လူမျိုး	-9.08068
ွမ	-9.08075
ခမ	-9.08201
ဝပ	-9.08366
သုံး	-9.08464
အကျ	-9.0936
ရွက	-9.1
အရှ	-9.10339
ခို	-9.10621
အချို	-9.10759
ချိုင	-9.10813
ဆာန	-9.11329
သွ	-9.117
ရှိရာ	-9.13236
အခြားသော	-9.1381
ရှာ	-9.14693
တံခါး	-9.15253
ခိုး	-9.15361
ထိုသူသ	-9.15534
ရုပ	-9.15676
တိရစ	-9.15955
ခံရသော	-9.16132
သလော	-9.16286
ဆုတော	-9.17264
ဖိလိ	-9.1751
နာ	-9.17656
ရစ	-9.17809
မောရှေ	-9.18637
ဓမ	-9.18816
ရွှေ	-9.1901
တက	-9.19233
စာကို	-9.19765
ချမ	-9.20367
မြော	-9.20484
ထိုအ	-9.20543
တဲတော	-9.21236
လတံ	-9.21972
နှလုံး	-9.22065
များတို	-9.2214
ကျန	-9.22239
ထမ	-9.22454
ဒန	-9.22481
ဦး	-9.2434
ှုတ	-9.26552
ဘေး	-9.26562
းချ	-9.26639
မူလျှ	-9.26795
ဗာဗုလု	-9.27332
ညီ	-9.27595
ဟော	-9.27605
အမြဲ	-9.27682
းလျ	-9.27895
ေခြ	-9.29319
တပါးအမျိုးသား	-9.29582
းရဲ	-9.29858
မုတ	-9.31266
မိမိအ	-9.31404
းရ	-9.31915
မဲ	-9.32279
ဆိုသ	-9.32458
ယော	-9.32601
အညီ	-9.32674
တပါး	-9.32823
ဆာ	-9.33125
းဆဲ	-9.33146
ပြေး	-9.33766
ကျော	-9.34447
ဧ	-9.34891
သားတော	-9.34995
ထားတော	-9.35078
ပြုကြ	-9.35086
းကပ	-9.35237
သောငှါ	-9.35315
သူတပါး	-9.3549
ဘွား	-9.3554
နားမ	-9.35616
အထံ	-9.35769
ငွေ	-9.35771
းတူ	-9.36311
ပို	-9.36842
စိမ	-9.37903
နယ	-9.37928
ငါနှ	-9.38051
ပဋိညာ	-9.38584
ရှောလမုန	-9.38615
ထာဝရဘုရားက	-9.38948
ာဏ	-9.39043
လေး	-9.39045
ဘိုးဘေး	-9.39257
ခတ	-9.39446
ယောသ	-9.39765
သေတ	-9.39919
ဗျာဒိ	-9.40159
ခြေ	-9.40314
အမ	-9.40476
သူမျှ	-9.40482
တရားကို	-9.40534
တမ	-9.4061
ပါသ	-9.40632
ျား	-9.40754
ယေရှုသ	-9.41274
သံ	-9.41445
အက	-9.41623
ထာဝရဘုရားအား	-9.41991
မမူ	-9.4214
ဲ	-9.42437
နွား	-9.43004
ပါပြီ	-9.43494
အကြ	-9.43843
မယား	-9.43869
ကြံ	-9.44237
မော	-9.44311
လာကြ	-9.44387
ယေရှုခ	-9.44493
ချီးမြှ	-9.4456
ချီ	-9.45066
ရှ	-9.45493
ရွာ	-9.45895
တဆ	-9.45953
ရွှ	-9.46275
ရာယ	-9.46397
ီချ	-9.4645
ဆိုသော	-9.46981
ခြေအ	-9.47245
ကန	-9.47248
ဆိုကြ	-9.47564
မြွ	-9.48045
လောက	-9.48706
အလျ	-9.49002
ယေရှုက	-9.49288
နံ	-9.49505
ကရုဏာ	-9.49577
ခွန	-9.49636
ယုဒလူ	-9.49707
ဖွ	-9.50458
အရာတို	-9.50679
ချော	-9.50788
သူအပေါ	-9.51649
မေး	-9.52388
ရေတွ	-9.52546
သေခံ	-9.52614
▁့၍၊	-9.52649
ဆုံးမ	-9.53018
ဟုတ	-9.53142
နေရ	-9.53837
ခံရကြ	-9.54685
ဥယျ	-9.55133
ဩ	-9.55174
ငြ	-9.55851
ဟောပြော	-9.55924
ထပ	-9.56147
-	-9.5628
ရှောလု	-9.56897
းစွာ	-9.56922
ထဲမှာ	-9.5712
တူ	-9.57177
ပညာ	-9.57819
ပြောဆို	-9.57873
ဧဖရ	-9.58374
အဆွေအမျိုး	-9.58598
ပေ	-9.58921
မတရားသော	-9.59116
မာ	-9.59183
အိုထာဝရဘုရား	-9.59381
ထိုက	-9.59578
ံ	-9.59783
းပေါ	-9.60689
ရိုး	-9.6087
နံန	-9.61167
များစွာသော	-9.61911
းယူ	-9.61951
သမျှသော	-9.62052
းငှာ	-9.62182
မိ	-9.62371
မေးလျှ	-9.62404
ပါစေ	-9.62911
ခွ	-9.62981
ထားသော	-9.63109
လူသ	-9.63131
အသီးအသီး	-9.63316
ဘမ	-9.63539
သိတ	-9.63722
ပုန	-9.63844
ဤသူ	-9.63929
သမျှ	-9.64059
မပြု	-9.64192
မပြတ	-9.64218
အရှေ	-9.64594
တဲ	-9.65082
းကြီးပေး	-9.65308
လဲ	-9.65528
လေပြီ	-9.65783
းတွ	-9.65784
နတ	-9.66473
မျိုး	-9.66691
ထိ	-9.66781
မမြ	-9.66815
အဆ	-9.66933
တိလူ	-9.67337
ပေါက	-9.67717
သားကား	-9.67734
အမျိုးအနွ	-9.67869
ဂလာ	-9.67992
အရာကို	-9.6839
းသာ	-9.68433
မှတပါး	-9.69114
အလုံးစုံ	-9.70064
မွေ	-9.70378
ယောဟန	-9.70576
သူဖြ	-9.70613
ငှက	-9.71105
ရပါ	-9.71527
ရှော	-9.71651
လွှမ	-9.7172
အထ	-9.71721
ထိုနေ	-9.71779
ဘုံ	-9.71842
မောရှေအား	-9.7215
လုလ	-9.72657
းမရှိ	-9.7267
ယာ	-9.73077
ဆုံး	-9.73156
းလော	-9.73245
မောရှေသ	-9.7392
ိုလ	-9.74219
ယေရှု	-9.74489
းသက	-9.74974
ကြားလျှ	-9.75009
သုံးဆ	-9.75123
ပြုလျှ	-9.75384
သောသူကို	-9.75878
လောဟု	-9.75955
ဆုံးသော	-9.75974
မောဘ	-9.76248
မီး	-9.76292
ငိုကြွေး	-9.76366
ထမြောက	-9.76648
ယာမိန	-9.76704
ထိုမှတပါး	-9.76706
လို	-9.76926
▁့်၍၊	-9.77149
ကြီးစွာသော	-9.77152
သူရဲ	-9.77217
ရှိပါ	-9.7734
းအားဖြ	-9.77456
စာရ	-9.77672
ကပ	-9.78138
စိ	-9.7832
ထိုကာလ	-9.78766
ပြား	-9.78807
မြေပေါ	-9.79619
ဗက	-9.79989
သောနေ	-9.80093
သေး	-9.80186
ဂလာရှိ	-9.8037
ယုဒရှ	-9.80618
းရာ	-9.81052
တရားတော	-9.81072
ဘဲနေ	-9.81263
အလ	-9.81355
ထိုသူကို	-9.81443
းလွ	-9.81445
ရေကို	-9.81455
ဆိုရ	-9.82198
းမသ	-9.8248
ရာအရ	-9.82789
ဝှ	-9.82988
အစရှိသော	-9.83292
ဟူသော	-9.83409
းလျှ	-9.83466
သားအပေါ	-9.83533
ရွေး	-9.83565
ထိုအရ	-9.83763
ပုံ	-9.83843
ကြသ	-9.84159
တကော	-9.84515
လာသ	-9.84908
?????????	-9.8498
မှာထားတော	-9.85168
လုံးကို	-9.85222
မိဿဟာယ	-9.85414
နှိုးဆော	-9.85417
ဥပု	-9.85504
ဝို	-9.85777
းသွား	-9.85865
းလေ	-9.85928
လာသော	-9.86015
ကြေးဝါ	-9.86031
သားဖြ	-9.86139
သောအရာ	-9.86444
းမှ	-9.86501
အာဗြဟံ	-9.869
ွေးကြော	-9.87158
ဇိအုန	-9.87277
ပြီဟု	-9.87766
အမိ	-9.88132
သိုးသ	-9.88218
ရှစ	-9.8822
ဖြေရာ	-9.88241
ကြားပြော	-9.88294
ထူး	-9.88604
နှံ	-9.88888
တကား	-9.89171
မှူး	-9.89276
ဆီသို	-9.89505
ကျေးဇူးပြု	-9.89906
အကျိုး	-9.89923
းဝေးရာ	-9.90059
အာ	-9.90213
ဘုရားသ	-9.90727
အသေ	-9.90797
မသိ	-9.91201
မေတ	-9.913
ပြတော	-9.914
သားသမီး	-9.91534
ရှိသမျှကို	-9.91541
ဗတ	-9.91576
ဟုဆို	-9.91626
စီ	-9.91691
သူနှ	-9.91704
ပြုရ	-9.91998
ဆွဲ	-9.92127
စက	-9.92485
ပြီးသော	-9.92519
းကား	-9.92532
ပြုပြ	-9.92736
ခုတ	-9.92848
ံတော	-9.93222
တုံ	-9.93325
ပါသော	-9.9349
စော	-9.93501
ဂြို	-9.93753
အသံ	-9.93858
ကိုခေါ	-9.94347
သူင	-9.94514
စေသော	-9.94549
ဤသို	-9.94805
သောအမှု	-9.94826
လူသား	-9.94875
းအ	-9.95116
မဖြ	-9.95271
ဆီ	-9.95341
းကြီးသ	-9.95538
နားမှာ	-9.96061
းထဲ	-9.96121
နိ	-9.96359
ငါပေး	-9.96459
ဘူး	-9.96511
အသရေ	-9.96731
ကြွလာ	-9.97579
ြန	-9.97616
ဤအရ	-9.97802
ဋ	-9.97848
အကျိုးကို	-9.97923
မူပါဟု	-9.97997
းပ	-9.98192
ဂိလဒ	-9.98547
စိုက	-9.98592
မှား	-9.98931
းတိမ	-9.99391
ရွေ	-9.99507
အားကြီး	-9.99628
ဆိုလေ	-9.99659
ဟာ	-9.99779
စိုးရ	-9.99804
ကျူး	-10.003
နှာကို	-10.0034
ဖုံး	-10.0053
ရိတ	-10.0064
အသီး	-10.0077
မထ	-10.0114
သောအ	-10.0119
လေဝိသားတို	-10.019
မေးမ	-10.0285
မဝ	-10.0303
ရထား	-10.0309
တရားသ	-10.0349
းများ	-10.0376
ငါးဆ	-10.0399
ွက	-10.0403
ဝက	-10.0409
ခွဲ	-10.0424
ဖြေ	-10.0427
ပွဲ	-10.0434
တိတ	-10.0446
အာမ	-10.0476
▁?????????	-10.0487
သိမြ	-10.0503
ဣသရေလလူ	-10.0504
အလုံးအရ	-10.0508
ဒုက	-10.0517
အသင	-10.0528
ဇာ	-10.0537
းစာ	-10.0585
အဆွေ	-10.0601
းဝ	-10.0614
းကျ	-10.0656
မှားယွ	-10.0658
သီး	-10.0659
ိမိတ	-10.0672
အားကြီးသော	-10.0714
းမတို	-10.0725
းနို	-10.0732
ထားကြ	-10.0751
သားကို	-10.0754
ကြီးသော	-10.0777
သောအရ	-10.0777
ဣဇာ	-10.0812
ရသောအခွ	-10.0855
ကြံစ	-10.0877
ရှုတ	-10.0951
ကြီးမြ	-10.0953
ဦးမည	-10.0983
ကျပ	-10.1007
စပါး	-10.1018
သွားသော	-10.1029
ပူ	-10.1042
ခါနာန	-10.1046
ဆီးတား	-10.1046
းပါ	-10.1063
တရာ	-10.1105
အမှီပြု	-10.1115
ကွ	-10.1116
ဖါရော	-10.1125
အနားမှာ	-10.1125
ဘောဇ	-10.1166
အသွေးကို	-10.1171
အလျှ	-10.1178
သွားလော	-10.1182
မမူပါ	-10.1182
ရှမာရိ	-10.1206
ပညာရှိ	-10.1207
လေးဆ	-10.1262
ရော	-10.127
ဂတိ	-10.127
တံခါးဝ	-10.1276
ယောရှ	-10.1278
အာရှုရိ	-10.1288
ကူး	-10.1304
ဣသရေလအမျိုးကို	-10.1307
ပြီး	-10.1308
ဘူးသော	-10.134
းတည	-10.1347
ချိ	-10.1371
အနာ	-10.1428
အခန	-10.1436
သောက	-10.144
ဌာန	-10.1454
ချိုး	-10.1461
းသောသူ	-10.1466
ငှါ	-10.1502
သိကြ	-10.151
သူကို	-10.1517
စိုးစံ	-10.1532
အမျိုးမျိုး	-10.1538
တကျိ	-10.1544
လု	-10.1549
စိုး	-10.1552
တဝါ	-10.1555
ဆိုး	-10.156
တခု	-10.1563
ဆရာ	-10.1564
နော	-10.1568
ငါမြ	-10.1568
ဟိတ	-10.1576
သနား	-10.1605
မချ	-10.1615
ခဏာ	-10.1618
တစုံတ	-10.1651
လောကီ	-10.1664
ပြုစု	-10.168
ရှိစေ	-10.1686
ဖ	-10.1695
ဆဲ	-10.1702
အကြီး	-10.1745
ပွ	-10.1761
စုံစ	-10.1802
အမွေ	-10.1839
မပြော	-10.1853
မထီ	-10.1869
မလိုက	-10.1874
းအရာ	-10.1902
တုန	-10.1918
ကမ	-10.1921
စုံလ	-10.1945
ကွဲ	-10.1956
စားစရာ	-10.1977
သလောဟု	-10.198
လုယူ	-10.2005
သွားလေ	-10.2013
ဗာလ	-10.2022
ပြပ	-10.2029
အရေဖျားလှီး	-10.2042
ရာသို	-10.2053
ဥပဒ	-10.2061
ပါဟု	-10.2072
ပါလော	-10.208
ထုံး	-10.2084
အသံကို	-10.2124
းသောသူတို	-10.2126
ကုလားကာ	-10.2131
ဆုပ	-10.2132
စားပွဲ	-10.2144
မြေမှ	-10.2169
မနေ	-10.2176
ဝါကြွား	-10.218
မကျ	-10.2239
အဆက	-10.2243
▁??????????	-10.2308
အသွေး	-10.2338
ရွေးက	-10.2379
စမ	-10.238
ကိုမြ	-10.2388
ဖတ	-10.2389
ကြိုးစား	-10.2397
ငါသိ	-10.2397
ဖာရော	-10.2398
သုံးရက	-10.2404
းကြလော	-10.2435
ဆေး	-10.2463
ပေါလု	-10.2465
စားရ	-10.2468
????????????????	-10.2486
ငါမ	-10.2539
မတရားသောသူ	-10.2544
သားရဲ	-10.2556
တနေ	-10.2582
ဍာ	-10.2615
ကိုယူ	-10.2669
မပျ	-10.2738
ပြောသော	-10.2753
အထဲ	-10.2758
ယောရှု	-10.2771
အသေသ	-10.2813
ကွပ	-10.2822
ဘုရားကို	-10.283
ကာကို	-10.2861
မှုတ	-10.2881
နေသ	-10.2892
ကျက	-10.2907
သေကြ	-10.2923
ဂဒ	-10.293
များစွာ	-10.2945
ပြတ	-10.2955
▁????????	-10.2956
မျိုးစေ	-10.2964
အရိုး	-10.2973
ဂ	-10.298
လေဝိသား	-10.2984
နေတော	-10.299
ယေရမိ	-10.3021
ရှောလုသ	-10.3036
ဂါ	-10.3036
းနှီး	-10.3056
ချို	-10.3057
ေ	-10.3057
ကိုသာ	-10.3062
ဧသော	-10.3069
ဆုတ	-10.307
အမှုအရာ	-10.3076
ဣသရေလရှ	-10.3082
ပါစေသော	-10.3086
ဟာမ	-10.309
ခံကြ	-10.3129
ကျွေး	-10.314
ပေးသော	-10.32
မနှ	-10.3207
နှလုံးကို	-10.3222
ဧဒုံ	-10.3225
ရာဇ	-10.3228
▁?????	-10.3253
စားကြ	-10.3261
ပြောဆိုကြ	-10.3313
စားသောက	-10.3317
ငါပြု	-10.3339
မှူးမ	-10.3368
ငွေကို	-10.3369
သိပ	-10.3369
▁??????????????	-10.3389
သံကို	-10.3399
ပေတရု	-10.3413
သားဦး	-10.3421
သိရကြ	-10.3421
တံ	-10.3458
ပု	-10.3471
ယေရော	-10.3486
မပေး	-10.3498
ကိုမျှ	-10.3541
ဖာရိရှဲ	-10.3548
အကြံ	-10.355
မာန	-10.3636
ယောနသ	-10.3636
သူပြည	-10.3638
းစရာ	-10.3644
းအမှု	-10.3644
ရှုရိ	-10.3648
▁???????????	-10.365
အာဏာ	-10.365
းများကို	-10.3679
ပါလျ	-10.3715
အာဟ	-10.3732
ရဟု	-10.3738
သိုးထ	-10.3762
ကြားရ	-10.3763
နီး	-10.3776
တိမ	-10.3783
ခရီးသွား	-10.38
စို	-10.3828
းတန	-10.3837
သောလမ	-10.3847
▁????????????	-10.385
ဝံ	-10.3869
သောသူအပေါ	-10.387
လွှဲ	-10.3878
အမျိုးကို	-10.3894
ကျေးဇူးကို	-10.39
သောအရာကို	-10.3903
ဆိုလျ	-10.394
မြေကို	-10.3941
စွဲ	-10.3948
မရ	-10.3954
းဝေး	-10.3965
ခိုက	-10.3985
ဒါ	-10.3988
ယခုမှာ	-10.4014
ဣသ	-10.402
ရိပ	-10.403
ထားနှ	-10.403
ပြောကြ	-10.4053
ဆိုလျှ	-10.4058
ယုဒအမျိုးသား	-10.4072
အနံ	-10.4073
းလဲ	-10.4089
သားများ	-10.4103
ရေး	-10.4109
သဘော	-10.4128
းမိုး	-10.4141
အနား	-10.4143
မူကြ	-10.4183
ဘတ	-10.4198
ရှိရ	-10.4205
တံပိုး	-10.4209
လူကို	-10.4223
သမ	-10.4232
အိုဘုရား	-10.4278
လူအမျိုးမျိုး	-10.4282
ဝေါ	-10.4286
သားမြေး	-10.4296
ရွေးန	-10.4305
သေရ	-10.433
ဖြူ	-10.4335
ရဲရ	-10.434
ခံယူ	-10.4349
ိ	-10.4361
မှာထား	-10.4387
သားသ	-10.4401
ရိ	-10.4471
မီးဖြ	-10.4472
းလူသား	-10.4472
ပေတ	-10.4479
ရုဗ	-10.4483
ညှိုး	-10.4488
တေ	-10.4489
ပဌမ	-10.4497
းတွား	-10.4514
ရဲတို	-10.4527
သောအမှုကို	-10.4565
ဝေး	-10.4601
အဝ	-10.4625
ယုဒအမျိုး	-10.4657
းဘော	-10.4681
ပြေးကြ	-10.4691
သတိပြု	-10.4698
ယွာဘ	-10.472
အလိုက	-10.4752
သူရဲတို	-10.4763
ပေးသနား	-10.477
ဤအမှု	-10.4774
ထံမှ	-10.4798
နှလုံးသ	-10.4799
ငါပြော	-10.4813
ဒိ	-10.4817
ဤအ	-10.4834
▁?????????????	-10.4847
ထုန	-10.4848
ပြုလျ	-10.4853
စုဝေးစေ	-10.4882
းဆီး	-10.4882
ကြက	-10.4885
ွေးဆ	-10.4895
ကြဲ	-10.4902
ချယ	-10.4909
ယူသွား	-10.4919
ဆံ	-10.4954
းမကို	-10.4996
းအကြော	-10.4996
ဘိသိ	-10.5004
ထားဘေး	-10.5009
ကိုးစား	-10.5016
းဆို	-10.5017
ငါအမှ	-10.5023
မိက	-10.5065
စေတနာ	-10.5081
အလိုငှါ	-10.5086
းစံ	-10.5101
ဗိမ	-10.5105
းဝပ	-10.511
မှားသော	-10.5114
ထားရ	-10.5117
ရေသ	-10.512
စု	-10.5121
အသီးကို	-10.5157
မခံ	-10.5179
းခံ	-10.5203
ယေရှုကို	-10.5221
းစွာသော	-10.5225
ဖလား	-10.5227
မယားကို	-10.5232
စွာနေ	-10.5241
ယေ	-10.5247
ထားလျ	-10.5248
းတတ	-10.5251
လျှာ	-10.5256
စာစ	-10.526
းမနှ	-10.5295
ခံသော	-10.5301
ရှားစေ	-10.5313
လုံ	-10.5323
အခြားတပါးသော	-10.5325
မရှိဘဲ	-10.5352
ရုံး	-10.5356
းသောအရာ	-10.5361
တထ	-10.5364
ထသော	-10.5382
မရှိသော	-10.5384
အဘသ	-10.5393
ရသ	-10.5403
အလိုရှိ	-10.5435
စုဝေး	-10.5437
ကျွေးမွေး	-10.5442
လွှ	-10.5445
နေဗု	-10.5446
ခဏ	-10.5447
တံဆ	-10.5454
နာမကို	-10.5463
စုံသော	-10.5469
မစား	-10.5482
ထာဝရဘုရားထံ	-10.5501
မြေကြီးကို	-10.5501
ဗာ	-10.5516
ကြသော	-10.5523
စားသော	-10.5529
သောသူမူကား	-10.554
ဇော	-10.5544
းသတ	-10.5553
အနှ	-10.5558
လှဲ	-10.5577
ျာ	-10.5591
ဧလိ	-10.5593
ရှလ	-10.5642
ဆိုးမ	-10.5656
ဣ	-10.5661
ဂလာကို	-10.5678
▁့၏။	-10.5692
မုဒ	-10.5692
ယှ	-10.5692
ပေါလုသ	-10.5694
ပေးရ	-10.5702
အလိုအလျ	-10.5718
ဒေါ	-10.5723
မျှော	-10.574
ထိုသူအပေါ	-10.5763
းထ	-10.5779
ကြီးသူ	-10.579
ရှိသောသူ	-10.5802
ပြုသ	-10.5806
မနာရှေ	-10.5808
ကြားမှာ	-10.5853
ဆုံးဖြ	-10.5893
ာဗန	-10.5898
ဟန	-10.5903
စေဟု	-10.5949
ကွက	-10.5957
ခေရု	-10.5964
ရွံရှာ	-10.5966
နီ	-10.6002
ာပေါ	-10.6003
ကြမ	-10.6011
အားပေး	-10.6024
အစာကို	-10.6066
ဟေဗြ	-10.6074
အမွေခံ	-10.6083
ဆံပ	-10.6087
မူစေသ	-10.6092
ဆပ	-10.6096
ရွံရှာဘ	-10.61
းရှိကြ	-10.6114
အစိုးရ	-10.6115
းအမှုကို	-10.6116
ရှိမ	-10.6122
းပြု	-10.6137
မိဘ	-10.6142
အရေ	-10.6156
မဆို	-10.6165
မသောက	-10.6166
မဆ	-10.6183
▁၌၊	-10.6209
အစိုးရသော	-10.6233
ကွာ	-10.6241
ဒုတိယ	-10.6243
မူရာ	-10.6248
မူပြီဟု	-10.6252
ငါအပ	-10.6268
တံခါးတို	-10.629
လိ	-10.6321
ဟုဆိုသော	-10.6328
နေရာအ	-10.6333
စကားသ	-10.6337
တစုံ	-10.635
သွေး	-10.6353
အခြား	-10.6371
ဖဲ	-10.6374
တွန	-10.6385
မြက	-10.6386
ဖော	-10.6386
မီးလ	-10.639
အနီး	-10.6395
ညဦး	-10.6397
သူကြီး	-10.6399
ယောရှုသ	-10.644
ခံသောသူ	-10.6457
ရှိသမျှသော	-10.6491
းရဲသား	-10.651
ပါပြီဟု	-10.6513
ချေ	-10.6515
ခါး	-10.6521
ဝါးက	-10.6521
တုတ	-10.6523
ရာလမ	-10.6571
ခါ	-10.6575
းထဲက	-10.6576
သူန	-10.6578
ဤလူမျိုး	-10.6611
အာရဇ	-10.6616
ပေးကြ	-10.663
ခုနှ	-10.6632
မွေး	-10.6634
ထံမှာ	-10.6651
ရေးထား	-10.6659
ပြောရ	-10.6662
ခံစေ	-10.6671
စာရေး	-10.6675
သွားရ	-10.6682
းသာပေး	-10.6684
အဘိမ	-10.6693
သားနှ	-10.6697
သမား	-10.6702
ထိုအမှုကို	-10.6718
ဂေါ	-10.6751
နေရကြ	-10.6754
ဤလောက	-10.6763
ီးချ	-10.6764
မလွ	-10.6773
လူဆိ	-10.6791
ဂါလိလဲ	-10.6806
ဓာ	-10.6809
ဆူး	-10.681
ဟုဆိုလျှ	-10.6831
အရေအ	-10.6836
ရေလ	-10.6839
ထိုအမှု	-10.6853
မှည	-10.686
အကြံရှိ	-10.6864
ထိုအတူ	-10.6867
သံလွ	-10.6874
ခု	-10.6874
ငံကို	-10.6877
မန	-10.6878
ဧလာဇာ	-10.6886
သောစကားကို	-10.6888
နေဇာ	-10.6889
ဖြိုဖ	-10.6894
ကိုသတ	-10.6896
လေဗန	-10.6896
ဂလာရှိကြ	-10.6907
ို	-10.6913
ရှေခ	-10.692
ပညာကို	-10.6937
မပ	-10.6952
အာခ	-10.6993
းရဲသောသူ	-10.7004
အသီးသီး	-10.7032
ဘာသာ	-10.7033
ယခုမူကား	-10.7046
ဦးစွာ	-10.7054
အစာ	-10.707
ပိုက	-10.7096
ိမှတ	-10.7102
ရိုးကို	-10.7127
ရိုသေ	-10.7135
ျာလ	-10.7156
ထားလေ	-10.7175
အရာရှိ	-10.7177
ရှုံး	-10.7177
သွေ	-10.7179
▁်၌၊	-10.7182
မစိုးရ	-10.7195
ပဌနာ	-10.7201
ဗာလမ	-10.7205
မုသာ	-10.7222
တဆေး	-10.7235
ဝေ	-10.7239
ကြဟု	-10.7243
ယောဘ	-10.7274
သိန	-10.7297
းရာဌာန	-10.7325
မြှား	-10.7327
မိဒျ	-10.7327
တညီတည	-10.7327
ထိုမျှမက	-10.7328
ကုလားအု	-10.7331
ခက	-10.7336
သဘောကို	-10.7353
ဧဝံဂေလိတရားကို	-10.7377
ီ	-10.7422
းသီး	-10.7464
ဆုံးရှုံး	-10.7469
လူတယောက	-10.7476
လူအစုအဝေး	-10.7477
ပေတရုသ	-10.7479
မျှမရှိ	-10.7484
မသတ	-10.7493
အဘိုး	-10.7496
ငါဆိုသ	-10.7508
ဤအမှုကို	-10.7529
နေရာချ	-10.7533
ထားကို	-10.7543
ရွာတို	-10.759
အသေခံ	-10.7602
လေဝိ	-10.7602
းမောတွေဝေ	-10.7628
ျာဘက	-10.7633
တမျိုး	-10.7638
ဗေသလ	-10.7647
ညူးစေ	-10.7666
လူဆိုး	-10.768
မထွ	-10.7682
ဗေ	-10.7694
ရှာကြ	-10.7696
ြိုင	-10.7705
ကိုပြု	-10.7743
ရှိသမျှသ	-10.7773
ထိုအကြ	-10.7774
ပဋိ	-10.7781
ဧလိယ	-10.7796
မယ	-10.7807
ဗာရှ	-10.7814
အထွ	-10.7815
မူပါစေသော	-10.7816
သိုးနွား	-10.7823
စေကြ	-10.7827
ပြုသောသူ	-10.7853
ဖုံးအ	-10.7853
ပြာ	-10.787
ယုံ	-10.7877
တံခါးကို	-10.7889
မျှမ	-10.7897
အထဲက	-10.7907
ဆာကို	-10.7909
မှု	-10.7914
ဒုတ	-10.7917
စွဲလ	-10.7918
ဇိ	-10.7924
ကြွေး	-10.7945
ကြားသောအခါ	-10.7952
ငါစေ	-10.7967
းစား	-10.798
ရေက	-10.7994
သေသော	-10.8003
ပြုလေ	-10.8011
အခက	-10.8011
ကြပါစေသော	-10.8013
ေလ	-10.8024
မပေါ	-10.8029
မစားရ	-10.8055
းဟူ	-10.8064
အသားကို	-10.8065
ထားဖြ	-10.8077
မလှ	-10.8079
ခါလဒဲ	-10.8085
ကျီ	-10.809
ကြပါပြီ	-10.8097
လူစု	-10.8103
လူနှ	-10.8104
ဘိုးဘေးများ	-10.815
းခရီး	-10.8165
ကိုချ	-10.8168
မယုံကြ	-10.8219
းမဲ	-10.8229
မရှိရ	-10.8232
ဒရာ	-10.8244
▁့်၏။	-10.8258
ပိလတ	-10.8258
မာရိ	-10.8261
ထရံ	-10.8264
းမံ	-10.8265
ဒံယေလ	-10.8278
းမြော	-10.8289
ငါကြား	-10.8289
ရှိန	-10.8293
းရေ	-10.83
တုလူ	-10.8303
ရှုရိလူ	-10.8328
ငါဆော	-10.8338
သေလ	-10.8357
အထူး	-10.8361
အဗရှလုံ	-10.8362
ထိုစကားကို	-10.8366
းထား	-10.8377
းကိုခံရ	-10.8383
ယေရိခေါ	-10.8423
ချီသွား	-10.8423
မြဲ	-10.8434
မြေး	-10.8445
ပုံသ	-10.846
မောရှေက	-10.8465
တီး	-10.8481
ခံလျ	-10.8484
ယခုတွ	-10.8485
မှီဝဲ	-10.8487
းဘေး	-10.8502
မသနား	-10.8506
မသွား	-10.8508
ရာဇဝ	-10.8516
ရှိလျ	-10.8538
စားရကြ	-10.8548
းအသရေ	-10.857
ဆိုလိုသ	-10.8579
တုရု	-10.8588
တူသော	-10.8595
ူ	-10.8607
စေရ	-10.861
ဟုဆိုလျ	-10.8634
မေးသော	-10.8646
တရ	-10.8657
တစုံတခုကို	-10.8665
းစီးသူရဲ	-10.8669
အိုင	-10.8681
သမျှကို	-10.8681
တရားစ	-10.8687
စိကို	-10.87
အသရေကို	-10.8706
ဗော	-10.8706
းခြား	-10.874
မီးခ	-10.8746
အသား	-10.8754
အပြား	-10.8755
ဇာခရိ	-10.8758
းပြုဆရာ	-10.8758
တရားသူကြီး	-10.8763
ဒမာသ	-10.8772
စီးသော	-10.8774
တူး	-10.8777
ရှားသော	-10.8781
လေရာရာ	-10.8783
ဘောသ	-10.8803
ု	-10.8806
ခာ	-10.8818
နေပါ	-10.8831
းနားမှာ	-10.8863
ထိုဘုရား	-10.8883
သွားပြီး	-10.8889
အိုး	-10.8904
မယုံ	-10.893
ယေရု	-10.8948
တုကို	-10.9014
ဟောပြောသော	-10.902
တကားဟု	-10.9029
ျားရ	-10.9038
သွားသောအခါ	-10.9039
နေလေ	-10.904
ဆိုးသော	-10.9047
စုံစေ	-10.9048
ျားသ	-10.9059
ရာကို	-10.9073
ဆီဥ	-10.9077
မရှိစေ	-10.9083
တပါးတ	-10.9094
မူသမျှ	-10.9101
ဦးချို	-10.9108
▁၏၊	-10.9109
နောဧ	-10.9111
ကြာမြ	-10.9116
မအော	-10.9117
းရှိသ	-10.9122
ဆွေ	-10.913
ပြို	-10.9136
စုံဘ	-10.914
မလာ	-10.9144
းမရှိဘဲ	-10.9164
မြွေ	-10.918
အစေခံ	-10.9191
အနှံ	-10.9217
ပဲ	-10.9223
မမှတ	-10.9225
ပရိ	-10.9234
ဇေရ	-10.9238
အများ	-10.9258
ဟေ	-10.9264
ငါပေးသော	-10.9269
းအလိုငှါ	-10.9278
စပါးကို	-10.9278
သောဒုံ	-10.9284
တိုးပွါး	-10.9284
ခြေရ	-10.9286
းတမ	-10.9294
မဟာ	-10.9314
သတိပေး	-10.9314
အရာရာ	-10.9316
ဘာ	-10.9332
းမက	-10.9333
းထံ	-10.9348
းသောအ	-10.9372
ာခေါ	-10.9376
ရွှေစ	-10.9379
ကြသလော	-10.9381
စကားဟူမူကာ	-10.9394
လှံ	-10.9405
သေစေ	-10.9409
သတိ	-10.9415
မူသောသူ	-10.9419
ပျို	-10.9422
အကြီးအကဲ	-10.9466
ရောဗ	-10.9469
လူများကို	-10.9473
အစာရှ	-10.9474
မပြုရ	-10.9477
မသိမ	-10.9481
ရှမွေလ	-10.9487
လျှို	-10.9493
းချကြ	-10.9495
ကြိုး	-10.9508
ခိုလှုံရာ	-10.9511
ဒေါသ	-10.9513
ဖြား	-10.9513
သောသဘော	-10.9521
ယေဟု	-10.9523
ဆိုးည	-10.9528
မီးခုံ	-10.9539
အသံနှ	-10.9549
ငါးနှ	-10.9554
မူလျ	-10.9562
သဘောရှိ	-10.9573
အကြံအ	-10.9574
ကြာ	-10.9575
အာသ	-10.9588
လိပ	-10.9595
မာသော	-10.9606
ကိုကား	-10.9609
အခါမ	-10.9616
ခံရသ	-10.9628
လွှား	-10.963
နားတော	-10.9641
မရှိပါ	-10.9645
ချကြ	-10.9654
ထုံးစံ	-10.9664
မဖ	-10.9664
ကြုံ	-10.9671
သီးကို	-10.9677
းပွ	-10.9681
များပြား	-10.9691
▁???????	-10.9701
များသော	-10.9705
ရှိလော	-10.9717
သောသူနှ	-10.9727
တဦး	-10.9738
မာရ	-10.9747
ွေ	-10.9754
ကွဲပြား	-10.976
ထိမိ	-10.9783
သောအပြ	-10.9784
အမျှ	-10.9819
းအပေါ	-10.982
နေသောသူ	-10.9836
ရံ	-10.9838
မလျော	-10.9839
မတရားသ	-10.9847
မြေတ	-10.9849
မှဆ	-10.9852
ဆုံးမဩဝါဒပေး	-10.9852
မထား	-10.9863
မကြား	-10.9866
ရေးထားလျ	-10.9877
ရူပါရုံ	-10.9887
ချလျ	-10.991
သိသော	-10.9911
းအရာကို	-10.9912
လာပါ	-10.9915
နေလော	-10.996
ဂေ	-10.9964
ဟတ	-10.9977
ရှာဘ	-10.9983
ငါပြ	-10.9984
ယခုပ	-10.9999
တစု	-11.0015
ကျို	-11.0019
ဣရှမေလ	-11.0032
ဟေဇကိ	-11.0038
လူပျို	-11.0039
မှာရှိသော	-11.0043
ကြိုးစားအား	-11.0054
လိုသောငှါ	-11.0056
ဖျား	-11.0077
ကောရ	-11.0085
သွားစေ	-11.0089
သွားကြလော	-11.009
သောအကျ	-11.01
ပြုပါ	-11.0115
းတရား	-11.0117
သွားလာ	-11.0143
ပကတိ	-11.0156
မသာ	-11.0169
နေရာကျ	-11.018
အဆုံး	-11.02
ဝိ	-11.0227
ရောနှော	-11.0228
ရာခေလ	-11.023
အဆွေအမျိုးအ	-11.0235
မဆော	-11.0238
နှမ	-11.0239
ခါးပ	-11.0248
ခိုလှုံ	-11.0294
းခို	-11.0303
စကားပြော	-11.0303
ဝါ	-11.0342
းပြီးမှ	-11.0343
ခြေကို	-11.0346
အဦး	-11.0354
ရုန	-11.036
ထိတ	-11.036
အိုဣသရေလအမျိုး	-11.0374
းသောအခါ	-11.0376
ပြောသ	-11.0386
ရှေးကာလ	-11.0395
းကိုခံ	-11.0397
မိမိသား	-11.04
ထာဝရအ	-11.0404
မိမိနေရာ	-11.0421
ပွဲခံ	-11.0422
တရားနှ	-11.0423
ညဦးယံ	-11.0428
ေရုဒ	-11.0428
သိုးစု	-11.0432
မွှေးက	-11.0432
ရှာသော	-11.0461
ရိမ	-11.0461
နှမြော	-11.0467
အာဗြဟံသ	-11.0479
သူမျှမ	-11.0493
လှေ	-11.0503
နာသန	-11.0533
အမျိုးသ	-11.0536
အားန	-11.0542
ငါဆို	-11.0547
းပါး	-11.0553
အလျား	-11.0565
ပဌနာပြု	-11.0594
ဆာတို	-11.0611
ဤမျှ	-11.0617
မိသော	-11.0619
းခုံ	-11.063
မိဖုရား	-11.0632
ရှံဆု	-11.0632
ဂိဒေါ	-11.0641
မျှကာလ	-11.0677
ဆိုတော	-11.068
ဇိဒ	-11.069
လူများအပေါ	-11.0691
ဗာရ	-11.0701
မသိသော	-11.0701
သောစကား	-11.0735
ညံ	-11.0737
ဟုဆိုသ	-11.0738
လပ	-11.0741
းရာဌာနတော	-11.0744
ဖေါ	-11.0752
ပြုသောအမှု	-11.0794
ရှိပါသ	-11.0795
တိုးပွား	-11.0817
တယ	-11.0821
အာဗြံ	-11.0826
ပြုစေ	-11.0835
ဇာဗုလ	-11.0841
အနာဂတ	-11.0841
ဇာတိပကတိ	-11.0841
ထားသ	-11.0842
များပြားစေ	-11.0852
စောစောထ	-11.0855
ထိုအရာ	-11.0866
ပြောလော	-11.0872
ဥပမာ	-11.0893
မိမိနှ	-11.09
ဖာ	-11.0911
သေးသော	-11.0919
းတရားကို	-11.0971
ကြားသော	-11.0983
မိတ	-11.0995
အာမောရိ	-11.1003
မခံရ	-11.101
ထုပ	-11.1012
ပါးတို	-11.1017
ူးခြ	-11.1018
ဂိဗ	-11.1022
ဆီနှ	-11.1041
သောသူအား	-11.1052
ကိုဆော	-11.1055
ပခုံး	-11.1055
ဂိဗာ	-11.1055
ပြက	-11.1055
ဟုန	-11.1065
းဘိုး	-11.107
ဒကဲ	-11.1079
ညှိုးန	-11.1088
ဖက	-11.1097
းဝေးကြ	-11.1104
သုံးရာ	-11.1106
မပြ	-11.1116
မျိုးကို	-11.1127
မထော	-11.1129
တတိယ	-11.1144
စာတော	-11.1146
ပြီးသ	-11.1161
တစုံတခု	-11.1174
ပေးပါ	-11.118
အမှုသ	-11.1181
မသေ	-11.1182
ဆီကို	-11.1187
မရှ	-11.1188
းပေါက	-11.1212
ဗေလ	-11.122
းသာရ	-11.1259
ပုရော	-11.1269
အလိုလို	-11.1275
မပါသော	-11.1278
ရပြီ	-11.1278
ညူး	-11.1282
နု	-11.1287
တကာ	-11.1287
ရွှေနှ	-11.1331
ဗာလဘုရား	-11.1335
ယောန	-11.1337
းရှော	-11.1341
နေစေ	-11.1346
တာကို	-11.1356
စာနှ	-11.137
းမြ	-11.1403
ပိ	-11.1403
ကြပြီဟု	-11.141
တံပိုးမ	-11.1427
ဩဇိ	-11.143
ဿ	-11.1432
စာဖြ	-11.1435
သောအခွ	-11.145
သားဘွား	-11.1471
ဧလျာ	-11.1492
ယေရှဲ	-11.1493
▁့၌၊	-11.1495
သိရ	-11.1497
လိုသော	-11.1499
ကွန	-11.1509
လှံတံ	-11.1517
ဓ	-11.1525
းချက	-11.1536
မိစ	-11.1571
ခြေန	-11.1601
ထိုသူနှ	-11.161
းဖျ	-11.1643
မြှော	-11.166
ရွှေငွေ	-11.167
ရှိသေး	-11.1671
ကြစေ	-11.1675
သိစေ	-11.1691
အခြားသောသူ	-11.1695
လောကီသား	-11.1709
မိဇပါ	-11.172
နူးည	-11.172
စရာရှိ	-11.1728
ကာရ	-11.1737
ကိုပေး	-11.1749
လေးရာ	-11.1754
တံခါးစ	-11.1761
းစာလာသ	-11.1762
ခံရသောသူ	-11.1776
စိက	-11.1789
နဲ	-11.1793
ပြေ	-11.1813
ပြသော	-11.182
ပျိုသော	-11.1821
ဟေဇကိမ	-11.1822
ယာယ	-11.183
ဆာရှိသမျှ	-11.1843
လေးသော	-11.1845
ခွေး	-11.1846
ထိမ	-11.1855
ာဟတ	-11.1858
အတူရှိ	-11.1865
ထူထ	-11.188
မပြန	-11.1916
လှူ	-11.1917
ရာမ	-11.1921
သူအိ	-11.1925
ဌာနတော	-11.1936
ရွတ	-11.1948
ဧလ	-11.1978
ကာဘို	-11.1982
ပြုမိသော	-11.1982
ကိ	-11.1984
မာတရား	-11.1984
ကိုဆ	-11.1989
ငံသား	-11.1999
ခြုံ	-11.2008
အလိုရှိသ	-11.2016
မုသာစကားကို	-11.2018
မီးကို	-11.2023
သိုထား	-11.2051
ကျိုး	-11.2053
အားဆို	-11.2054
ငါကြ	-11.2077
မြေကြီးတ	-11.2083
ရှောလုက	-11.2085
ငွေရ	-11.2098
စကားနှ	-11.2103
ခုံ	-11.2106
မိလျှ	-11.2107
သိလ	-11.2115
ခြေစွ	-11.2121
ကိုရ	-11.2126
မယားနှ	-11.2132
သူများ	-11.2142
မာစေ	-11.2147
မျို	-11.2161
ဝေဒနာကို	-11.2161
ကေ	-11.2179
ွ	-11.2179
မရဏာန	-11.2191
ရှာဖွေ	-11.2191
ယေဇရေလ	-11.2191
အာဇရိ	-11.2193
သွားပါ	-11.2197
ဗောဇ	-11.2205
ခိုးကြီး	-11.221
သု	-11.2216
ထားခြ	-11.2222
အနာကို	-11.2225
အသီးအနှံကို	-11.2229
နေလျ	-11.2234
မခံသော	-11.2242
ငါဖြ	-11.2271
းရှိသမျှ	-11.23
ရှာလ	-11.2304
သောကာလ	-11.2327
ထာဝရဘုရားပေး	-11.2341
ချေး	-11.2342
ရာဖြ	-11.2346
ရှို	-11.2351
နေစ	-11.2366
ငါပြန	-11.2376
မှာရှိ	-11.2386
နေရစ	-11.2392
ုံ	-11.2399
စကားသံကို	-11.2399
ဗာလက	-11.2411
ရှေမာယ	-11.2435
ယောယကိ	-11.2435
အာခဇိ	-11.2435
ခရီးဦးကြိုပြု	-11.2437
ရှားစွာ	-11.2477
ျားကို	-11.2486
အနွ	-11.249
ဆွဲထား	-11.2494
သေသောသူ	-11.2496
းတု	-11.2498
မောရှေကို	-11.2519
ဖိ	-11.2519
ရှိမိ	-11.2525
ရာမှ	-11.2531
ကိုရှာ	-11.2541
မှုကို	-11.2556
ယောရှိ	-11.2587
းကြီးကို	-11.2595
ဘိတ	-11.2624
းအခွ	-11.2644
ဗေနာယ	-11.267
သောဥ	-11.2675
ပုပ	-11.2681
ဟေရှ	-11.2685
အကြေး	-11.2688
ဍာန	-11.2701
ထိုလူ	-11.2704
ြို	-11.2706
ဒူး	-11.2708
စိရ	-11.2717
ပေးစား	-11.2722
သုံးကြ	-11.2734
ောဟတ	-11.2748
းအခြား	-11.2752
မိမိဘုရား	-11.2758
ကုရှ	-11.2759
တရက	-11.2766
ပေတရုက	-11.2767
ခိုးကို	-11.2777
ငါးရာ	-11.2794
းဘိုးကို	-11.2795
ဒရ	-11.2798
ထားပြီ	-11.2813
အဟိမ	-11.2816
းအရ	-11.2857
နှလုံးအ	-11.2869
ခြေတို	-11.2877
ဗု	-11.2882
သောနော	-11.2895
မကယ	-11.29
ုံမက	-11.2939
မီးလျှံ	-11.2941
ညူးသော	-11.2942
အာမဇိ	-11.2942
မမှီ	-11.2943
ကြီးပွား	-11.2962
ျှင	-11.2986
အလိုမရှိ	-11.2996
ခါနနိလူ	-11.3002
ဧက	-11.3006
ဒေ	-11.3007
မအမှုကို	-11.301
ရှိပါစေသော	-11.3026
အာဗနာ	-11.3053
ငါပ	-11.3055
ရု	-11.307
ခရာ	-11.3093
နွားထီး	-11.3094
ငါးထ	-11.3098
ကာလကို	-11.3108
မရှိဟု	-11.3146
ခံလေ	-11.316
ပွဲကို	-11.3172
သမီးသ	-11.3182
ဝဲဘ	-11.3185
သားစ	-11.3186
နူနာ	-11.3194
စေပြီးမှ	-11.3195
ဂိလဂါလ	-11.3204
တာရှ	-11.3206
မှာထားသ	-11.3228
ကြိုးနှ	-11.3237
းဘဲ	-11.3242
းသောကြ	-11.3252
တလုံး	-11.3254
ခရီး	-11.3255
ထွာ	-11.3263
းသောသူသ	-11.3267
အာမောရိလူ	-11.3268
းသောအရာကို	-11.3268
းဖူး	-11.327
မှပြ	-11.3281
များပြားသော	-11.3288
မကြ	-11.3291
သေဘေး	-11.3293
အဟိ	-11.3317
အဆွေအမျိုးသူကြီး	-11.3323
သာမျိုး	-11.3328
းကိုခံရသော	-11.3329
အာရ	-11.3334
ဘီး	-11.3335
လေပြီတကား	-11.3337
နဲသော	-11.3344
ချသော	-11.339
ပြားနှ	-11.3392
ဇေ	-11.3402
ပြုမူသော	-11.3404
းနား	-11.3428
တခါ	-11.3432
ဘွားသော	-11.3442
ဇေဒကိ	-11.3467
ဆွေးနွေး	-11.3468
ဟာဒဒ	-11.3475
းရဲသော	-11.3481
မပြေ	-11.3482
ဂါသ	-11.3484
မြေသ	-11.35
လုန	-11.3501
သောအထ	-11.3515
ရအံ	-11.3523
ဧလိရှဲ	-11.3527
ပသခါပွဲကို	-11.3531
ဘာအဆ	-11.3552
ွှန	-11.3553
ခွဲထား	-11.3562
မီးထဲ	-11.3571
မြေကြီးသ	-11.3581
သူတပါးကို	-11.3599
ပြောဆိုသော	-11.361
သေသ	-11.3612
အာဇ	-11.3619
နိမ	-11.3624
းသောအကျ	-11.3627
အာဂ	-11.3642
ဘဲနေကြ	-11.3651
မသိဘဲ	-11.3664
ရာတို	-11.3666
းရိ	-11.367
နွားသ	-11.3673
မပြုကြ	-11.368
းဆိုကြ	-11.3684
စိနှ	-11.3699
လာပြီ	-11.37
ယောယဒ	-11.3711
စေပြီ	-11.3721
ကု	-11.3725
းမာ	-11.374
အကြံကို	-11.3743
တွားတ	-11.3748
းတံပိုး	-11.3752
နာရီ	-11.3752
ပိဿာ	-11.3752
ကျေး	-11.3753
သိနာတော	-11.3753
အာဣ	-11.3754
ပလွံ	-11.3754
အရာနှ	-11.3754
ဟာနန	-11.3759
တစုံတခုကိုမျှ	-11.3761
ဥရိယ	-11.3762
ဖို	-11.3768
နုန	-11.3779
မီးခိုး	-11.3783
ကွဲပြားစေ	-11.3784
အသွေးနှ	-11.3785
လူတ	-11.3793
ဖုတ	-11.3804
ရွာများ	-11.3837
ပျံ	-11.3838
လုယ	-11.384
ပြားကို	-11.384
အလှူ	-11.3854
တစုံတခုမျှ	-11.3867
းအရာသ	-11.3874
ဧလာ	-11.3886
အကြီးအ	-11.3898
ဦးညွ	-11.3906
နဿလိ	-11.3924
အနာရောဂါ	-11.3932
ခြားနား	-11.394
ဧဝံဂေလိတရား	-11.3944
ကြားရသော	-11.3958
ဟိ	-11.3963
အာန	-11.3985
သိုးထီး	-11.3986
တသက	-11.3994
ဟောရ	-11.401
မှသ	-11.4033
ယောရံ	-11.404
ဓေယူ	-11.404
နာဇရ	-11.4044
ရှေမ	-11.4046
ငွေနှ	-11.4054
ငါရေး	-11.4057
ဟောပြောကြ	-11.406
ဆီးကြ	-11.4061
မြေကြီးသား	-11.4064
စားခ	-11.4064
ဌမ	-11.4081
ဖိန	-11.4084
ထိုမြေ	-11.4133
မနေရ	-11.4137
စားစရာကို	-11.4144
မမေ	-11.4152
သောသူကား	-11.4168
မလွှဲ	-11.417
အနိ	-11.4183
ဖါ	-11.4188
စုံခြ	-11.4195
အမျိုးမျိုးသော	-11.4197
စွာသော	-11.42
ဘုရားအား	-11.4202
ဣသရေလအမျိုးသ	-11.4203
နေရသော	-11.4209
သေကို	-11.4216
ပါစေဟု	-11.4222
ဘေးလွ	-11.4231
ကြားသိ	-11.4238
များအပေါ	-11.4255
ဝါး	-11.4281
ထိုသူက	-11.4286
ပြုတ	-11.4289
အာမလ	-11.4306
းရှိသော	-11.4326
လူအများ	-11.433
ခွါ	-11.4333
ဟာဇေလ	-11.4333
အမှုမှာ	-11.4334
တာရှု	-11.4368
အသုံး	-11.4369
ပေးလေ	-11.4371
ချိုးဖ	-11.4387
စရာမရှိ	-11.4393
ယူပြီးလ	-11.4403
းသောအမှု	-11.4417
ရွှေလ	-11.4433
အမဲသားကို	-11.4433
မသိကြ	-11.445
ဂိ	-11.4451
သမီးကို	-11.4459
ထိုစကား	-11.4474
ဝေးသော	-11.4475
တိဇံကို	-11.4496
ထိုလူမျိုး	-11.4521
မီးဖို	-11.4537
နှာပြု	-11.4538
ဝေဒနာ	-11.4543
ပြုကြပြီ	-11.4547
မရွေ	-11.4548
ကာလက	-11.4573
ငွေအ	-11.4587
ကြံကြ	-11.4593
ထကြ	-11.46
ဘဝ	-11.4616
မရှိကြ	-11.4629
ကိရယ	-11.4635
ပေရသိ	-11.4635
စူးစ	-11.4659
စာပျ	-11.4684
းမျိုး	-11.4691
အမွေမြေ	-11.4697
းကြီးမ	-11.4705
မသွားရ	-11.4711
များကြ	-11.4711
းအပြ	-11.4713
စိုးသော	-11.4721
ဖု	-11.4728
ပြာသောအ	-11.4731
လေးပါး	-11.4744
ဗိ	-11.4753
မာတရားကို	-11.476
ပေါလုကို	-11.4767
ကာမ	-11.4784
ရှမွေလသ	-11.4788
းတဘ	-11.4797
ိုက	-11.4802
းထဲမှာ	-11.481
ရာကာလ	-11.4826
ဧလိယသ	-11.4837
ထိုအမှုအရာ	-11.4847
အာရှရပ	-11.486
သေလေ	-11.4871
စားတော	-11.4897
လေးနှ	-11.4941
ထုလ	-11.4947
ဇေဒကိမ	-11.4962
ထိုသားကို	-11.4967
ယွာဘသ	-11.4979
စာရေးတံပြု	-11.4996
နေထွ	-11.4997
လွှဲသွား	-11.4998
ယူရ	-11.5
ခြေသ	-11.5012
ဆီဥကို	-11.5014
သူကိုမျှ	-11.5016
ဆီးသော	-11.5037
ရှန	-11.5039
ဆာများကို	-11.5041
ရှိသောကြ	-11.5042
ပြိုပ	-11.5051
မိမိလူ	-11.5061
သူမူကား	-11.5079
ကူ	-11.508
ပါလေစေ	-11.5086
သောမြေ	-11.5095
မိမိအဘ	-11.5097
ငှါး	-11.5099
အထုံး	-11.5116
ငါးက	-11.5127
ငါအလိုရှိ	-11.5129
မသွ	-11.5131
မယူ	-11.5135
ဧသတာ	-11.5168
ကြားကြ	-11.5172
အဝေး	-11.5177
နွှ	-11.5183
လုယူသော	-11.5186
ှတ	-11.5189
စီးစေ	-11.5192
သိပါ	-11.5214
အားရ	-11.522
မရှိသ	-11.5235
နွားကို	-11.5244
ပြုရသော	-11.5244
စောစော	-11.5251
သုံးသော	-11.5264
ဩဝါဒ	-11.5265
ဗာနဗ	-11.527
ပါတကား	-11.5272
ထွေး	-11.5279
းဆဲသော	-11.528
းလေသမျှ	-11.5289
းလာ	-11.5293
ထားပြီး	-11.5297
အာသပ	-11.5305
ဗေဒ	-11.5333
ညံလျ	-11.5335
သုံးပါး	-11.5338
ဤပည	-11.534
ဝစွာ	-11.5353
ရသောအချ	-11.5358
းယူကြ	-11.536
ရေလအမျိုး	-11.5376
လူကြီး	-11.5377
အဘိယ	-11.5384
မျှလ	-11.5386
းလွဲ	-11.5387
ထု	-11.5402
သူအား	-11.5417
းရဲခံရ	-11.542
မိဘကို	-11.542
ဝဲ	-11.5424
ထိုအပ	-11.5435
ပညာရှိသော	-11.544
ရှားလျ	-11.5452
အကျိုးန	-11.5459
ရှမ	-11.5472
သတိရ	-11.5474
အမျိုးမျိုးကို	-11.5477
အိုအ	-11.5478
ျားနှ	-11.548
အကြံပေး	-11.5497
မတရား	-11.5497
ဟေရှာယ	-11.5498
သောအသံကို	-11.5499
တံခါးနားမှာ	-11.55
ပါးကို	-11.5503
မပျော	-11.5505
စားလျ	-11.5509
မနို	-11.5523
အသေခံရ	-11.5525
ဆုံ	-11.5532
လေပြီဟု	-11.5533
ရှိသလော	-11.5538
မိမိကို	-11.5549
းပြီ	-11.5562
လှူသော	-11.5565
အာနု	-11.5568
ရှေဘ	-11.5574
စာရာ	-11.5593
အမွေး	-11.5601
အဗျာသာ	-11.5604
အဒေါနိယ	-11.5604
ဧလံ	-11.5605
ဟိရံ	-11.5608
မိမိမယား	-11.561
းမိ	-11.5611
ညိုသော	-11.5611
ဘူးသလော	-11.5637
းမဖြ	-11.5638
ငါမှာထား	-11.5652
ဂတိထား	-11.5665
ပြောပါ	-11.5666
လုံးနှ	-11.5669
ာလမုန	-11.5679
ဗေရ	-11.5687
ဧလိရှဲက	-11.569
အသီးအနှံ	-11.569
ယခုမှ	-11.5696
အလှ	-11.5698
စာသ	-11.572
ရေးထားသော	-11.5729
သောအသံ	-11.573
မူသောဘုရား	-11.5736
ကြိုးကို	-11.574
သောသား	-11.5792
ဟုဆိုကြ	-11.5794
မရှာ	-11.5796
သောသူမရှိ	-11.5801
မှာထားလေ	-11.5803
ဘာသာစကား	-11.5804
ွပ	-11.5808
အာလ	-11.5811
အမဲသား	-11.5832
မပြုဘဲ	-11.5867
ဆူ	-11.5868
လေအာ	-11.5876
ယူကြ	-11.5881
ဖြူသော	-11.5883
သားရေ	-11.5907
အရာဖြ	-11.5919
သွားရာ	-11.5928
းစာကို	-11.5932
ညီမ	-11.5935
လုတ	-11.5937
ပျိုး	-11.5942
ဒေသနာ	-11.5949
အမှိုက	-11.595
သိုးမွေး	-11.595
ခိုးအာနု	-11.5951
ဧဇရ	-11.5951
အလံ	-11.5953
မပါဘဲ	-11.5954
ထောမနာသီ	-11.5954
ထားပြ	-11.5955
ဣသခါ	-11.5957
တယော	-11.5968
တခုကို	-11.5979
ှုပ	-11.5983
နေကြသ	-11.5986
တာမာ	-11.5993
အာဒ	-11.6006
မိမိညီ	-11.601
နှလုံးထဲ	-11.6023
စဖူး	-11.6033
စကားများ	-11.6051
စာရှိသမျှကို	-11.6052
မှားပါပြီ	-11.606
မိမိခ	-11.6062
ငါမူကား	-11.6083
းပဌနာပြု	-11.6086
ရှမွေလက	-11.6086
အဘိ	-11.6094
လဆ	-11.6105
ပုတ	-11.6111
းသမား	-11.6119
ငိုကြွေးကြ	-11.6128
နှလုံးနှ	-11.6134
ယူသော	-11.6158
းလွှား	-11.6167
ယို	-11.6169
ခိုးရှ	-11.6171
းသမျှ	-11.6178
ကဲသာ	-11.6211
းထက	-11.6212
ရူပါရုံကို	-11.6217
ပမာဏ	-11.6222
စွဲသော	-11.6224
ပြေးသွား	-11.6246
ပြုစုသော	-11.6258
းခေါ	-11.6261
ရေဗ	-11.6272
ဦးချ	-11.6289
▁-	-11.6291
ဗေရိ	-11.6294
စကားအ	-11.6296
သူခိုး	-11.6298
ရေချိုး	-11.6302
သွားစ	-11.6306
ဂေဒလိ	-11.6306
ကြိုဆို	-11.6306
သမီးကညာ	-11.6306
စကားသံ	-11.6307
ဗာရှာ	-11.6312
ပြောဆိုလျ	-11.6326
ခါလဒဲလူ	-11.6331
ပြုရကြ	-11.6332
တပါးအမျိုး	-11.6332
းရကြ	-11.6337
ငံသ	-11.6348
းသကဲ	-11.6357
သိုးထီးတ	-11.6371
မုသာကို	-11.6372
မီးသ	-11.6372
ချောက	-11.6373
အလျားအ	-11.6377
ဆာဆ	-11.6381
မဟော	-11.6386
ငါထား	-11.639
လောတ	-11.6391
ဤအရာ	-11.6397
ယေဗုသိလူ	-11.6398
ဒုန	-11.6413
မူပါစေ	-11.6414
ဒေါသအမ	-11.6415
သမျှအတ	-11.6423
းအာနု	-11.643
ဆု	-11.644
ဟောပြောသ	-11.644
လုံကို	-11.6444
မှာရှိသ	-11.6444
စာဂတိ	-11.6454
လဲကြ	-11.6461
ပညာရှိသောသူ	-11.6464
ငါရွေး	-11.6466
ကြီးသောအသံ	-11.6479
ကြူး	-11.6496
လူမျိုးကို	-11.6511
မညှ	-11.652
ဓာတ	-11.6523
အာရှာ	-11.6527
မူသလော	-11.6534
မအမှု	-11.6538
နေကြပါ	-11.6541
ငါထ	-11.6564
မေးကြ	-11.6567
ျားပေါ	-11.6574
ပြုကြသ	-11.658
ဆိုးသောသူ	-11.6581
နေစရာ	-11.6585
အာမန	-11.6595
မရှိသောသူ	-11.6602
ကြီးကို	-11.6609
လာကြသ	-11.6625
ပြုသောသူတို	-11.6625
ဒပ	-11.663
အမျိုးနှ	-11.6655
ပြောလေ	-11.6655
ကရမေလ	-11.6676
အာရွှေရု	-11.6676
မာခါ	-11.6678
ဆာလံ	-11.6678
တံစို	-11.6685
ခွာ	-11.6688
ဆုကျေးဇူး	-11.6691
စုံလျ	-11.6696
ပြိုလဲ	-11.6701
ဆေးကြော	-11.6703
ထိုခဏ	-11.6711
မှားသောအ	-11.6732
ှယ	-11.6734
မူပါစေသောဟု	-11.6744
ရသောသူ	-11.6759
ကူးသွား	-11.676
းခုန	-11.6776
ပြအိုး	-11.6779
ရုသ	-11.6787
စုဝေးကြ	-11.6793
ယေဖသ	-11.6823
ရိက	-11.6832
ဧဖ	-11.6836
နီးပြီ	-11.685
စာများကို	-11.6851
ုသိမ	-11.6866
မယားသ	-11.6879
ဧလိရှဲသ	-11.6889
အဘနှ	-11.6909
နွားမ	-11.6927
ထိုသိ	-11.6927
ခစား	-11.6931
ဘေးနှ	-11.6953
မလူ	-11.6956
အမှုကိုပြု	-11.6961
ခံရပါ	-11.6975
ဩဇ	-11.6975
ဧန	-11.6976
သံနှ	-11.6978
ငံတို	-11.6992
စုံကြ	-11.7006
ပြုပြီ	-11.7011
တောသားရဲ	-11.7018
ကြပါစေ	-11.7022
ယေရမိသ	-11.7027
ခရီးသွားကြ	-11.7032
လူက	-11.7036
မှစသော	-11.7042
မုယော	-11.7055
ရဗ	-11.7056
ယုဘိလ	-11.7061
အကဲအမှူး	-11.7061
အသံဗလံ	-11.7061
ချွေးမ	-11.7061
ဟာဂရ	-11.7061
အဘိရှဲ	-11.7061
ဗေရရှေဘ	-11.7061
ရောဂါ	-11.7062
ဩမဲ	-11.7067
ခံပြီးမှ	-11.7069
ယောသံ	-11.7077
နှလုံးထဲမှာ	-11.7082
ပညာသ	-11.7082
မီးခဲ	-11.7087
းကြီးထံ	-11.7088
ဂါဇ	-11.7094
တမလ	-11.7104
ထူးခြားသော	-11.7118
းကျေးဇူးကို	-11.7121
သိုးဆ	-11.7129
ခိ	-11.7132
းစီ	-11.7138
အကျိုးမရှိ	-11.7144
ယုဒသ	-11.7147
ငုံ	-11.715
အဆုံးတို	-11.7153
အရှု	-11.7173
ရွေးယူ	-11.7174
အဝေးက	-11.7178
ဘုရားထံ	-11.718
ကိုမသိ	-11.7181
မူသောသူသ	-11.7188
မိပြီ	-11.7192
အကျိုးရှိ	-11.7214
ရှာသောသူ	-11.7227
ဟာဇ	-11.726
မနာရှေအမျိုး	-11.7269
ဟေဇကိသ	-11.727
းရေကို	-11.7272
းမများ	-11.7274
မိကြ	-11.7275
းကြီးသော	-11.7286
ယံ	-11.7291
းသွားသော	-11.7297
ထားရာ	-11.7303
မှူးသ	-11.7303
းကိုမျှ	-11.7305
ထူ	-11.7308
ခဏာကို	-11.7319
ကြွသွား	-11.7335
ပြောစရာ	-11.7346
နီသောအ	-11.7351
စားရသော	-11.7354
စကားကိုနား	-11.7378
ဗေသ	-11.7397
မေရှ	-11.7397
ရှဲ	-11.7401
ကာလသ	-11.7411
ဇိဘ	-11.7412
ရကြပါ	-11.7413
မပါ	-11.7434
ကိလ	-11.7448
းရှိစေ	-11.7448
းသေးသော	-11.7448
အစာအာဟာရ	-11.7461
မှီခိုရာ	-11.7461
မာသေယ	-11.7461
ဟာနနိ	-11.7461
ဒြေ	-11.7464
ငွေဖလား	-11.7467
သိသရ	-11.747
ဟဂ	-11.7472
ပြီးစီး	-11.7482
လူကိုစေ	-11.7484
တပါးသ	-11.7485
အမွေခံရသော	-11.75
ခံရသောအခါ	-11.7501
နွားနှ	-11.7507
ရှုလျ	-11.7514
ဟာရ	-11.7517
သားသမီးများကို	-11.7531
နှာရ	-11.7537
စိမြ	-11.7539
ဧဒုံပ	-11.754
ရွှေကို	-11.7549
ပမာဏမပြု	-11.7551
ိုငြ	-11.7552
ဟိန	-11.7554
းမစိုး	-11.756
ဘာသာစကားကို	-11.7576
ဇာတိ	-11.7579
အမူအရာ	-11.7586
းစေသော	-11.7588
ထားပါ	-11.7592
စေဘဲ	-11.7607
သောအရာသ	-11.7619
သောသူများ	-11.7632
ခြားနားသော	-11.7643
မခံန	-11.7653
ဧလိယက	-11.7653
ခံပါ	-11.7659
အမှုစ	-11.7664
ခိုလှုံသော	-11.7666
ျားတို	-11.7668
ဆုကို	-11.7669
ပါစေသောဟု	-11.7674
းဝေးသော	-11.7679
မိဘမရှိသောသူ	-11.7701
ဟေလ	-11.7701
ကာပြု	-11.771
ပြုရပါ	-11.7729
မေရာရိ	-11.7746
သရဖူ	-11.7748
းကိုပြု	-11.7756
းရွက	-11.776
ခံရာ	-11.7761
သဘောနှ	-11.7764
မာသ	-11.7776
ယာဗ	-11.7792
စပါးရ	-11.7817
ကာသော	-11.7817
အမွေခံရ	-11.782
ဘယ	-11.7859
းနှီးသော	-11.7863
းမိုးသော	-11.7864
ဂျုံ	-11.7872
ပြုလို	-11.7873
သူဌေး	-11.7877
မေရှုလံ	-11.7877
အဦးသီးသော	-11.7877
ညှိ	-11.7878
သာသနာပလူ	-11.7878
မရဏန	-11.7879
ဧလျာဘ	-11.788
လှီး	-11.788
မြေခွေး	-11.7888
ဒဒ	-11.7896
ဒါရိ	-11.7896
အကာရှသား	-11.7897
အာရှ	-11.7901
းဆိုပါ	-11.7905
ကြားရပြီ	-11.7906
သားမယား	-11.7913
အဟိယ	-11.7918
သိုးတ	-11.792
ပေလ	-11.7928
နာဗ	-11.7937
အဓိ	-11.7943
လေးမျ	-11.7945
ချီလာ	-11.7949
အရာများကို	-11.7951
ညီပေါ	-11.7953
အသံသ	-11.797
ရိုးတို	-11.7972
သွားရသော	-11.7974
မထိမ	-11.7975
အာမခံ	-11.7976
ခိုးကြီးသော	-11.7982
သရဖူကို	-11.7985
းခိုသော	-11.7991
အခကို	-11.7998
ရှာကြံ	-11.8003
ဍာတို	-11.802
းဆဲသောသူ	-11.8029
အဘထံ	-11.8033
မရော	-11.8034
လေဝိအမျိုး	-11.8039
သူမှစ	-11.8045
နဂါး	-11.8048
ဘိုးဘ	-11.8064
စားသောသူ	-11.8072
တီ	-11.8075
းဟုမေး	-11.8076
ဖေ	-11.8076
ဆုံးစေ	-11.8076
ရှိကြပါ	-11.8091
သနားစ	-11.8093
သဘောသ	-11.8101
ပညာအတ	-11.8107
းအသင	-11.8119
သွားကြပြီ	-11.812
သောငှာ	-11.8121
တရာနှ	-11.8131
ဘဲလ	-11.8141
နဖူး	-11.8141
သာယာ	-11.8143
ဥဖ	-11.8153
ခြေဖြ	-11.8194
းဆဲကြ	-11.8194
တိဇံ	-11.8197
နေရာကို	-11.82
ခံရသောသူတို	-11.8233
နေရပါ	-11.8241
ိလူ	-11.8245
ဂလာရှိစေသ	-11.829
ဂေါမောရ	-11.8312
ဟေဗာ	-11.8313
ဒု	-11.8313
ဇုရ	-11.8313
ရှေးဦးစွာ	-11.8314
မကြာမ	-11.8316
ရေဖိ	-11.8319
ျားအပေါ	-11.8321
လဲစရာ	-11.8326
လှေကား	-11.8328
မမူမှီ	-11.833
ဩဃ	-11.8337
းလွှဲ	-11.834
မွေးဘွား	-11.834
သားများကို	-11.834
စကားကိုကြားလျှ	-11.834
ပြေစေ	-11.8342
မေဒိ	-11.835
ရေစီး	-11.8361
ကြံပြုမူ	-11.8361
းကြိုး	-11.8373
သောသူရှိသမျှ	-11.8394
အမျိုးမှ	-11.8395
သွားပြီ	-11.8404
သုံးလ	-11.8415
ပိန	-11.8418
ဟောက	-11.8429
ော	-11.8429
ငါမှာထားသမျှ	-11.843
မငြ	-11.8439
အမွေခံရာ	-11.8439
တိကို	-11.8441
လဲလျ	-11.8446
မိမိဥ	-11.8449
လေးရ	-11.8461
စေပြီးလျ	-11.8466
ငါချိုး	-11.8475
ကြီးရ	-11.8491
မိလ	-11.8491
လူမ	-11.8493
ငါနား	-11.8501
ရူး	-11.8502
ပါရစေဟု	-11.8507
ရွှေငွေကို	-11.8507
ာမုတ	-11.8509
လူသေ	-11.8532
လွှားသော	-11.8536
မိမိလူမျိုး	-11.8542
ဣသရေ	-11.8548
ပြောလျ	-11.8559
တာသ	-11.8561
လေးကို	-11.8568
ပြေးသော	-11.8589
းကြီးတော	-11.8591
မြဲမြံ	-11.8593
ရုံ	-11.8595
အမိသ	-11.8596
အဘိုးကို	-11.8616
ကြပြီတကား	-11.862
းကြီးနှ	-11.864
ခြေထ	-11.8643
ထားပြီးမှ	-11.8664
ဧကြ	-11.8675
ပဌမလ	-11.8681
ဟေလသလူ	-11.8682
အမှုများကို	-11.8683
သာစေ	-11.8685
ယေဟုသ	-11.8715
ွံ	-11.8724
ဆုံးမဩဝါဒ	-11.874
ဟေဗြဲ	-11.8749
အာရှိ	-11.8762
စားစေ	-11.8763
ပသခါပွဲ	-11.8764
မာကေဒေါနိ	-11.8767
ယေခေါနိ	-11.8767
ဝေငှ	-11.8767
တိမောသေ	-11.8767
ယဟောရံ	-11.8767
ဧလကာန	-11.8767
လာဇရု	-11.8767
အရေဖျား	-11.8767
ကာလနာဘေး	-11.8768
ကူညီ	-11.8768
ကိရှ	-11.8768
ရှုရှန	-11.877
အာဗေလ	-11.877
ဂိဒ	-11.8771
ဂျုံစပါး	-11.8773
အဘများ	-11.8774
လုယူဖျ	-11.8777
အမှီပြုလျ	-11.8783
ဖူး	-11.8784
မြဲမြံစေ	-11.8787
နေဝ	-11.8789
မှားစေသော	-11.8793
ကျီကို	-11.8797
ခံစား	-11.8798
မှလာ	-11.8816
နောမိ	-11.8823
နာဗလ	-11.8833
မခံမယူ	-11.8833
ဝေးစွာ	-11.8843
ပရော	-11.8856
ငါပည	-11.8857
နှာမှ	-11.8881
ကျိုးပ	-11.8898
ကြားလျ	-11.8903
သေလျ	-11.8905
ယေလ	-11.8908
သဘောဖြ	-11.8909
အားယူ	-11.8913
အခြားသူ	-11.8958
ငြူစူ	-11.8975
ရောသော	-11.8982
သာယာသော	-11.8985
အိုထာဝရ	-11.8987
အပျို	-11.8997
ကျွေးသော	-11.9005
ခြေနှ	-11.9024
မီးနှ	-11.903
ပြုမိ	-11.9032
ဒဲ	-11.9033
ရကြပြီ	-11.9036
းသောအကြံကို	-11.9043
သားသမီးကို	-11.9077
းမရှိသော	-11.9078
ကွဲပြားလျ	-11.9083
ကာလမှ	-11.9084
ဝစွာစားရ	-11.9092
ထိုသူအား	-11.9101
မကိုး	-11.9107
လူငါး	-11.9111
ထိုအမျိုး	-11.9112
ယောရှုက	-11.9127
းအရာရှိ	-11.914
ဤစကား	-11.9149
မနာ	-11.917
ရကြဟု	-11.9194
ဟုပြောဆို	-11.9202
ထုံးစံရှိ	-11.9209
ရှိဟု	-11.9211
တေရ	-11.9213
နေရာမှ	-11.9216
းစေရ	-11.9217
နီသော	-11.9236
ဤစကားကို	-11.9237
တာနှ	-11.924
တိအ	-11.9242
သာသနာ	-11.9243
ကိလေသာ	-11.9243
မာခိရ	-11.9243
ဩဗဒိ	-11.9243
အအူ	-11.9243
အာဒံ	-11.9244
သမီးနှ	-11.9245
တံခါးခုံ	-11.9245
တရားသောအမှု	-11.9255
တေမန	-11.9257
အာဇု	-11.9258
ပြီလော	-11.9261
သူအများ	-11.9262
ပေးလျ	-11.927
သားဦးအပေါ	-11.9273
အထီး	-11.9273
သံချ	-11.9279
ယောလ	-11.9287
ဖေလ	-11.9314
ထိုတရား	-11.9344
ဝါကြွားသော	-11.9347
အစေကို	-11.9347
ခေ	-11.9349
းကျိုး	-11.9361
အခြားသို	-11.9375
အားပြောဆို	-11.9381
ဓေ	-11.9389
ထားသောသူ	-11.9397
လူသုံး	-11.9399
နေမန	-11.9406
မြေအသီးအနှံ	-11.9411
ပေးပါဟု	-11.9416
ပွဲသ	-11.9419
ာရိမ	-11.9419
အဗရှလုံသ	-11.9422
ထိုပွဲ	-11.9428
ျ	-11.943
တဦးကို	-11.9435
ငါမှာထားသော	-11.9437
ရွာစေ	-11.9443
အမိကို	-11.9444
စာတရား	-11.9471
ကာဣန	-11.9492
နှာပ	-11.9497
ကျူ	-11.9508
လူတသ	-11.9512
မမူဟု	-11.9534
သောဘေး	-11.9541
ပါရစေ	-11.9543
အာခိ	-11.9549
ာနော	-11.9549
နွားတ	-11.9554
စီးလ	-11.9555
ယောရှုအား	-11.9567
းကြီးအား	-11.9574
ေဖန	-11.9575
လူမျ	-11.9581
မရိတ	-11.959
မီးထွ	-11.9592
အားကြီးသောသူ	-11.9594
ဂါလ	-11.9597
ရှိပြီ	-11.9598
အရာရှိသမျှ	-11.9605
နားမှာရှိသော	-11.9619
ညံရာ	-11.9623
ပေါလုက	-11.9644
ဟိလခိ	-11.9648
အမှုအရာကို	-11.9658
ဥတု	-11.9675
ဧဒ	-11.9676
ဝေးသောအရ	-11.9677
ကြံလေ	-11.9679
သေရက	-11.9684
ရွ	-11.9692
သားအကြီး	-11.9704
ချိုသော	-11.9706
ထိုစာ	-11.9708
အသရေရှိသော	-11.9712
လှံတံကို	-11.9717
စကားတခ	-11.9735
နိနေဝေ	-11.9743
မေလခိ	-11.9743
လာခိရှ	-11.9743
အနီးအပါး	-11.9743
သလဲသီး	-11.9743
အမြီး	-11.9743
မြွေဆိုး	-11.9745
မုရန	-11.9745
ပုဆိ	-11.9746
ဧဖာ	-11.9747
ဣသမာ	-11.975
မအပ	-11.9751
လောဘ	-11.976
လုံခြုံစွာ	-11.9764
သူမရှိ	-11.9773
အာဗြံသ	-11.9778
ကာလနာ	-11.978
လူအသီးအသီး	-11.9784
ခါးစ	-11.9791
အရာကိုမျှ	-11.9793
ရှုံးစေ	-11.9793
ဤစာ	-11.9793
ဟေရမ	-11.9801
ဤလူမျိုးကို	-11.9812
မခံဘဲ	-11.9815
စာချ	-11.9825
ကြီးသောသူ	-11.9827
အာရပ	-11.9832
မစပ	-11.9836
မကွာ	-11.9841
ပါးသော	-11.9846
းသမျှသော	-11.9859
ဍာကို	-11.9863
တောဘိ	-11.9891
ကျလျ	-11.9903
အဘက	-11.9904
မနာလိုသော	-11.9908
အသွေးဖြ	-11.9909
ခာကို	-11.9915
မူသောသူကို	-11.9922
အမှုအလုံးစုံ	-11.9946
ဟေမ	-11.9956
းအခြားသ	-11.9957
အားဆိုလျ	-11.9993
ငါလာသ	-11.9994
ွှတ	-11.9995
နဲရာ	-11.9997
ကလေး	-12
ငိုကြွေးလ	-12.0021
အထိ	-12.0067
တိဇံကိုခံ	-12.0082
မာလ	-12.0102
းအများ	-12.0102
အကြံရှိသ	-12.0109
ေါ	-12.0109
စီရှိ	-12.0114
ကြေ	-12.0121
ငှာ	-12.0123
ဖလားကို	-12.0132
မီးမ	-12.0141
ဟောပြောရ	-12.0162
ပေးပြီ	-12.0166
စာတို	-12.0173
းတီး	-12.0197
းသောအမှုကို	-12.0204
းသာစေ	-12.0214
ရေတို	-12.0253
ရသောနေ	-12.0255
ခြေဘဝါး	-12.0269
ဆူဖြိုး	-12.0269
ဇေရုဗဗေလ	-12.0269
ဟေဇရုံ	-12.0269
ယေဇဗေလ	-12.0269
ဖြိုချ	-12.0269
သားရေဘူး	-12.027
ယဟောရှ	-12.027
ဂေါဂ	-12.0271
းအသရေကို	-12.0271
မသေမှီ	-12.0273
းကိုသာ	-12.0273
အာသဟေလ	-12.0275
ငါမသိ	-12.0276
ပဌနာစကားကို	-12.0277
လူအကြီးအကဲ	-12.0281
သီးန	-12.0282
ငြိုး	-12.0283
ချုံ	-12.0284
စာရေးတံချ	-12.0285
ယုဒအမျိုးကို	-12.0288
အပွ	-12.0292
သူရဲများ	-12.0293
ပြုသမျှ	-12.0293
သုံးစုတစု	-12.0294
ဂေရရှုံ	-12.0298
သူရဲသုံး	-12.0302
ဇေလ	-12.0305
တုများကို	-12.031
အမွေကို	-12.0312
အထဲမှာ	-12.0331
သားကိုဘွား	-12.034
အများသော	-12.0343
ယူလော	-12.0346
ဤသူကား	-12.0348
ဂေရ	-12.035
ပြုသမျှသော	-12.0353
အသွေးသ	-12.0358
ွေးမြေ	-12.0364
အရူး	-12.0375
ဤအမှုအရာ	-12.0377
ကြပါဟု	-12.0378
ြ	-12.0381
သွားရကြ	-12.0383
မကြွ	-12.0386
လှံကို	-12.0388
နာကြ	-12.0405
အစာစား	-12.0416
းလှသော	-12.0422
ိကျွ	-12.0428
ရှောလုအား	-12.0429
သံကိုကြား	-12.045
ခေလ	-12.0459
တိရှိ	-12.0467
းစံနှ	-12.0476
ထိုဘုရားသ	-12.0484
ယေရမိကို	-12.0493
ပညာတရား	-12.0497
ငါးရ	-12.0497
ရှာရ	-12.0512
နာမဖြ	-12.0521
ာကြက	-12.0541
ဟာရှ	-12.0543
မသွားဘဲ	-12.0583
သမီးဖြ	-12.0583
တူကြ	-12.0598
ကြားရကြ	-12.0609
ထိုမျှ	-12.0611
အာတ	-12.0616
အနံတ	-12.0621
ခုစီ	-12.063
းပေ	-12.0631
ံအတ	-12.064
ဣရ	-12.064
းကိုယူ	-12.0657
ျိုင	-12.0663
ပြောစေ	-12.0663
လိဗန	-12.0667
ငါပေးပြီ	-12.0669
းမရွာ	-12.0676
အကျိ	-12.0678
ရေးထားသ	-12.0679
မှာနေသော	-12.068
ခါးကို	-12.069
စားရာအ	-12.0714
သုက	-12.0728
ကိုးစားသော	-12.0736
အမိနဒ	-12.0782
တရားစကားကို	-12.0795
ကြီးလှ	-12.0802
အမှုကိုဆ	-12.0807
ငါကလ	-12.0809
တခါမျှ	-12.0812
ရထားများ	-12.0819
အတူနေ	-12.0823
ကာဒေရှ	-12.0825
တရံရောအခါ	-12.0825
လေဘွေ	-12.0825
ဩဗဒေဒုံ	-12.0825
ဂေဟာဇိ	-12.0825
အဇုမပွဲ	-12.0825
တခြားစီ	-12.0825
ကဲသရိ	-12.0825
အငြိုးထား	-12.0825
ဩဇေလ	-12.0826
ဘထွေး	-12.0827
ဍာစိုး	-12.0827
လူမျိုးတကာ	-12.0828
အာရော	-12.0829
စီးပွါး	-12.0833
ရွှေဖလား	-12.0837
မယူရ	-12.0837
ကြားပြောလေ	-12.0842
ဟိဝိလူ	-12.0853
မသိကြသလော	-12.0854
ဗိလ	-12.0858
ဣသရေလအမျိုးအနွ	-12.0859
တရားဟော	-12.0866
းဟုမေးလျှ	-12.0868
ရဘဲ	-12.087
စားလော	-12.0872
လူတရာ	-12.0874
အမွေခံရကြ	-12.0875
တဆူ	-12.0885
မာနကြီး	-12.0888
ဂိတ	-12.0894
ပြုသောအမှုကို	-12.0904
စုဝေးသော	-12.0911
ရှားကြ	-12.0916
ယောခ	-12.092
ပြေးလေ	-12.0922
ကာယ	-12.0934
မတရားသောအမှုကို	-12.0941
မဖွ	-12.096
ရှုရ	-12.0961
ချီသွားကြ	-12.0963
တရားဆုံး	-12.0967
ဩဗ	-12.0972
မပြုစု	-12.0973
ပြီးစေ	-12.0986
သေသောန	-12.0996
အဘအား	-12.1002
အမှုများ	-12.1007
ခြေဆ	-12.1011
မဆရာ	-12.1022
သောအကြံ	-12.1026
ဆိုးသောသူတို	-12.1041
ဟာနု	-12.1052
အာရှာအမျိုး	-12.1067
အသရေပ	-12.107
စိုးရသော	-12.1077
တစုံတခုသော	-12.108
ငါဟောပြော	-12.1091
မနာရှေအမျိုးသား	-12.1102
နေရာကျကြ	-12.1108
စားဘ	-12.1108
ောရှက	-12.114
ရေများ	-12.115
အာဗနာသ	-12.1158
သေခံကြ	-12.1162
ဧလိဖ	-12.1163
မခံကြ	-12.1212
ဝဲလ	-12.1229
မထားသော	-12.1235
ဆိုကြသော	-12.1249
သနားသော	-12.1252
ိအဆွေအမျိုး	-12.1284
မျေလ	-12.1284
ိဒ	-12.1292
အဘိုးပြ	-12.1294
စာရေးတံ	-12.1305
ဖူးမြ	-12.1332
မိသောသူ	-12.1348
ထိသောသူ	-12.1378
ပွား	-12.138
းအဝ	-12.1385
စာရှိ	-12.1398
ယေဇ	-12.1402
ဇေဒက	-12.1404
အမျိုးသမီး	-12.141
သေချာစွာ	-12.1413
ဟာဒဒေဇာ	-12.1413
အဘိဂဲလ	-12.1413
တုံးလုံးနေ	-12.1413
နွေကာလ	-12.1413
ဩမရိ	-12.1413
ငြီး	-12.1413
သိုးခြံ	-12.1413
အစေအပါး	-12.1413
အာသလိ	-12.1414
ဆေးသမား	-12.1415
အာရံ	-12.1416
အဦးဘွားသော	-12.1425
နွေး	-12.1425
ကျူလုံး	-12.1426
ကုရု	-12.1431
ခဏသာ	-12.1434
ဖေရဇိလူ	-12.1435
လူတမျိုး	-12.1435
တိရဇ	-12.1437
အိုးထ	-12.1438
ချီကြွ	-12.1452
လူစုထဲက	-12.1454
ရွေးရ	-12.1459
မှားမိသော	-12.146
စာရဲ	-12.1461
အိုဣသရေလ	-12.1466
ဏာ	-12.1482
တံခါးဝမှာ	-12.1497
ယခုကာလ	-12.1506
ယုံမှား	-12.1506
မူသမျှအ	-12.1509
းပါရမီ	-12.1517
ရှုပြုစု	-12.1523
ဆံသော	-12.1524
ပြုလေသမျှ	-12.1539
သဘောကျ	-12.155
ကွာသော	-12.1557
နှာပြုသော	-12.1562
စာဂတိထား	-12.1565
ရှာဖ	-12.157
ဆံခြ	-12.1589
ညံရာအ	-12.1595
စိုးစေ	-12.16
ဟေရှာယသ	-12.1601
းသမျှကို	-12.1611
ပြုကြပါ	-12.1615
ဟုဆိုလေ	-12.1615
ဆီမီး	-12.1617
စုထား	-12.1617
တောခွေး	-12.1623
လုယူကြ	-12.1625
ကြားပါစေ	-12.1626
လုယူရာ	-12.1639
ပြုစား	-12.1642
ဗာရက	-12.1643
းမရှိရ	-12.1649
ဘွားစေ	-12.1662
စာစကား	-12.1687
အရာအလုံးစုံ	-12.1693
သိုးစုကို	-12.1693
ရေပေါ	-12.1707
ကေန	-12.1719
မပြုပါ	-12.1723
ငါဆုံးမ	-12.1758
လေးချ	-12.1779
။	-12.1782
ပွားများ	-12.179
လေးခု	-12.1792
ယေဖ	-12.1799
မပေးရ	-12.1809
လူဣသရေလအမျိုး	-12.182
ရွာသား	-12.1825
စာရှိသော	-12.1826
ဇိဖ	-12.1837
ကုသ	-12.1838
အာသမ	-12.1839
မြုံ	-12.184
ပြောသောစကား	-12.1853
ဧရ	-12.187
စာရှိသမျှ	-12.1877
ငါခံရသော	-12.1918
စားရာ	-12.1932
ကြီးမား	-12.1934
အမှုဆ	-12.1935
သူတစုံ	-12.1957
ဒံယေလကို	-12.1959
လူနာ	-12.1966
အဘအာဗြဟံ	-12.1966
ညူးသောန	-12.1971
ရသောကြ	-12.1975
ဒိန	-12.1996
ထီး	-12.1998
မမေးမ	-12.2008
းဝေးစေ	-12.2011
မနေန	-12.2034
ခြိုးခြံစွာ	-12.2038
ရထားစီးသူရဲ	-12.2038
ရုံမျှသာ	-12.2038
မာလခိ	-12.2038
သီလ	-12.2039
ဆီရောသော	-12.2039
နာသနေလ	-12.2039
အာနနိ	-12.2039
အာမရံ	-12.204
အာမရိ	-12.2041
ဆဲရေး	-12.2041
ယေဟေလ	-12.2042
မုဆိုး	-12.2046
စုဝေးစေပြီးလျ	-12.2049
မောရှ	-12.2049
အာရှတရ	-12.2055
ဧဒုံအမျိုးသား	-12.2059
ရောမ	-12.2071
သူငှါး	-12.2073
သဘောတူ	-12.2074
အထဲမှ	-12.2074
ဇာဗဒ	-12.2076
ပျိုးပ	-12.2076
းမအား	-12.2079
တိဇံကိုပေး	-12.2081
ပြီးစီးစေ	-12.2083
စကားအလုံးစုံ	-12.21
လူကလေး	-12.2102
ဘူးပြီ	-12.2103
စပါးပ	-12.2121
ဖယ	-12.2128
းမရှိကြ	-12.2133
နေဇာမ	-12.2136
အနာစွဲ	-12.215
ဟောရှေ	-12.2169
ကြစေဟု	-12.2182
အလျားနှ	-12.2183
ဣရှဗ	-12.2205
အမှုရှိသမျှ	-12.2218
ဣန	-12.2219
မှာထားသမျှ	-12.2227
ဧသတာသ	-12.2242
ခွံ	-12.2242
ဆာများ	-12.2244
ပြောသောစကားကို	-12.225
းကြစေ	-12.2269
ဒကဲသ	-12.2273
းအဝေး	-12.2274
စကားကြ	-12.2276
အာနသ	-12.2279
ပကတိအ	-12.2288
နဿလိအမျိုး	-12.2298
းမအပေါ	-12.2299
မရိပ	-12.2304
ဟေလသ	-12.2323
လာခဲ	-12.234
အလိုရှိကြ	-12.2343
မှားသောသူ	-12.2381
အလိုရှိသမျှ	-12.2398
ငံအရ	-12.242
ဦးရ	-12.2423
သိကြပါ	-12.2431
စုဝေးရာ	-12.2437
အမြဲနေ	-12.244
မု	-12.2452
ဆိုကြပါ	-12.2459
ကွဲပြားသော	-12.2463
မှာထားသော	-12.2504
တခုတ	-12.2535
အသနား	-12.2556
ပသခါ	-12.2566
ာဒပ	-12.2584
ပါရမီ	-12.2588
များပြားသ	-12.2593
ချီလွှဲ	-12.2607
နူနာစွဲ	-12.2615
ဟေဗြဲလူ	-12.2618
မပေးဘဲ	-12.2626
းအုံ	-12.2629
းရဲခံ	-12.2682
ပါတကားဟု	-12.2687
မသိရ	-12.2689
သောသဘောရှိ	-12.2692
ဆာမ	-12.2702
ဂြိ	-12.2705
မိရိအံ	-12.2705
မေဖိဗောရှ	-12.2705
ဣဇဟာ	-12.2705
အဟိကံ	-12.2705
မိခါလ	-12.2705
ဒရာသဲလုံး	-12.2705
ဇိကလ	-12.2705
ပေဂုရ	-12.2705
ဟာရှဘိ	-12.2705
ိုယွ	-12.2705
ကျုံး	-12.2705
ဂေရရှု	-12.2707
ယေရိ	-12.2707
ဗာနိ	-12.2707
ဝေးဝေး	-12.2708
▁်၏၊	-12.2715
ဤအရာများကို	-12.2715
းပါးသော	-12.2718
အစအဦး	-12.272
နဲသောအရာ	-12.2727
ဂလာစကားကို	-12.2735
ဟံ	-12.274
ဆီးကြို	-12.2741
မရဘဲ	-12.2754
မမူဘဲ	-12.2755
မဆိုလို	-12.2757
ယောယဒသား	-12.2767
ထုသော	-12.2783
ဟောလေ	-12.2783
ကြဲသော	-12.2791
ခွေ	-12.2791
လူတဦး	-12.28
လှေထဲ	-12.2809
တဲများ	-12.2818
ဆွဲချ	-12.2848
မေးလေ	-12.2858
မဝါကြွား	-12.286
စာမရှိ	-12.2861
အစိုး	-12.2867
တိတု	-12.2887
မာသတိရှိ	-12.2901
ငါးလုံး	-12.2902
အစရှိသ	-12.2903
ရသေး	-12.2911
နာယူ	-12.2915
စာများ	-12.2916
ခြေအပေါ	-12.2917
လုံးလုံး	-12.2924
အနာရောဂါကို	-12.293
မီးဖိုထဲ	-12.2931
ဂလာရှိပါ	-12.2933
တိအမျိုး	-12.2946
မကူး	-12.2956
ဇေဘ	-12.297
ဝစွာစား	-12.298
ကြဲသောသူ	-12.2986
အမိုး	-12.2992
သာဆီ	-12.2996
မယူဘဲ	-12.2996
နွားထီးတ	-12.2997
ခာက	-12.3007
ထားကြပြီ	-12.3014
ပြေးလာ	-12.3025
စရာရှိသ	-12.3029
အာဗြဟံအား	-12.303
ကပေရ	-12.3045
ဆိုလို	-12.3071
ဆိုးသောအမှု	-12.3071
စီးရာ	-12.3083
ညံသော	-12.3096
ဘောထဲ	-12.3127
နှာအရ	-12.3132
ဣဗ	-12.3151
ပါလေစေဟု	-12.3155
ပွါး	-12.3163
ပြောဆိုလေ	-12.3172
စုဝေးလ	-12.3179
ဘွားသောသား	-12.3184
ခံစားရ	-12.3202
စားချ	-12.3204
ဣရှ	-12.3216
သားမရှိ	-12.3259
ေရုဗ	-12.3278
ရူ	-12.3281
တရားမှု	-12.3318
းဆဲရ	-12.334
ဧဂလ	-12.3342
စေပြီဟု	-12.3351
တတိယအ	-12.3364
ပြီဟုဆိုလျ	-12.3378
ဧလျေဇာ	-12.3419
ရာဗရှာခ	-12.3419
အဟိသောဖေလ	-12.3419
မနှမြောဘဲ	-12.3419
ဆီမွှေး	-12.3419
ပုလွေ	-12.3419
ဇိမရိ	-12.3419
တိဇံဆရာ	-12.342
စွာနေကြ	-12.342
ရတနာ	-12.3421
ဆရာသမား	-12.3421
ဘာဦး	-12.3423
မသိဘူးသော	-12.3424
ဂဲ	-12.3425
ပါရှုရ	-12.3428
ဟာမော	-12.3428
အမြှေး	-12.3434
တီးလ	-12.3434
ဒုတိယလ	-12.3435
ဒုကဲ	-12.3437
အမှုမထား	-12.3437
တံခါးနား	-12.3452
ယေရှုထံ	-12.3457
သံကြိုး	-12.3464
သံကြိုးနှ	-12.3467
စာပြု	-12.3467
ဥရိ	-12.3468
အာဝ	-12.3481
မနာရှေအမျိုးတ	-12.3483
ဖာရ	-12.3484
ပုံပြ	-12.349
နေပူ	-12.3493
မှလွှဲ	-12.35
မခံမှီ	-12.3506
သိအမျိုး	-12.3513
ဆုံးလေ	-12.3517
တိလ	-12.3539
နဲသောအရာကို	-12.3541
းသာရကြ	-12.3558
အဘိန	-12.3569
ါ	-12.3571
ကြီးမားသော	-12.3571
းရွာစေ	-12.3598
မူသမျှသော	-12.3603
မာသောသူ	-12.3612
များထဲက	-12.3638
းအရာများကို	-12.3646
မုသာစကား	-12.3662
တခုမျှ	-12.3663
မျှသာ	-12.3671
စီးပွား	-12.3674
မဆိုဘဲ	-12.3677
မခံရကြ	-12.3684
မောဘအမျိုး	-12.3694
မပွဲ	-12.3695
မှီအော	-12.3695
းကြီးအပေါ	-12.3699
စာဂတိပြု	-12.37
နှာထား	-12.3701
ခဏာသ	-12.3707
ခါရ	-12.3729
အေ	-12.3731
မိဘမရှိသော	-12.3737
ဂေဗ	-12.3747
မပြုဘဲနေ	-12.3749
လောနိ	-12.375
မိမိအမျိုး	-12.3782
ပြီတကားဟု	-12.3801
ဒုတိယအ	-12.3807
ယောရှိသား	-12.383
သလောဟုမေး	-12.3832
မလျှော	-12.3832
ငြူစူသော	-12.3839
တရားစကား	-12.3853
ယေရှုရှ	-12.3859
အခြာ	-12.3864
မိမိအလို	-12.3887
ဟေလက	-12.389
ဧလိရှ	-12.3892
မကျရ	-12.3906
ကူမ	-12.391
ရွာမှ	-12.3922
စကားမပြော	-12.3935
းသောလူမျိုး	-12.3952
ပေးပါလော	-12.3967
လေဝိလူ	-12.3967
ဌ	-12.397
ဥပမာစကား	-12.3993
ဇောရ	-12.4009
းကိုမခံ	-12.4018
သူလျှို	-12.4026
ားယော	-12.4054
ခံစရာ	-12.4072
များပြားကြ	-12.4073
သားယောရှု	-12.409
သွားလေရာရာ	-12.409
ခြုံလ	-12.4132
ဆုံးရှုံးကြ	-12.4147
းမွှေး	-12.4149
ဒေါသအ	-12.4151
အကြံမ	-12.4154
တံဖျာ	-12.4157
မဟာန	-12.4163
ပြုဘူးသ	-12.417
ရေမရှိ	-12.4171
မိပါပြီ	-12.4188
နာသနိသား	-12.4188
ယေဒါယ	-12.4188
ဟာလေလုယ	-12.4188
ဗာသရှေဘ	-12.4188
ဩဖိရ	-12.4188
ဒွါဒသမ	-12.4188
တလုံးတဝတ	-12.4188
ဈာ	-12.4188
ဒသမလ	-12.4188
ရဟောဘ	-12.4188
အပျိုကညာ	-12.4188
အံသွားခဲ	-12.4188
ယောဇဗ	-12.4189
ရှေဖတိ	-12.4189
လှူဒါန	-12.4189
ယာဣရ	-12.419
ဧလိရှမာ	-12.419
တုရိယာမျိုး	-12.419
ယာဖက	-12.419
အရောန	-12.4191
အသီးကိုသီး	-12.4191
ယာဇာ	-12.4195
တစုံတခုမျှမရှိ	-12.4195
အမွေခံစရာ	-12.4199
နှိုး	-12.4199
နှာလွှဲ	-12.42
ပညာသတိ	-12.4211
သူရူး	-12.4214
စကားကိုပြော	-12.4215
ကြီးလှပါ	-12.4216
အမွေမခံ	-12.4225
နေဗော	-12.4226
အနာရောဂါစွဲ	-12.4226
သိုးငါး	-12.4227
ငါးခု	-12.4229
ကညာ	-12.4231
မတရားသောအမှု	-12.4233
လှဲချ	-12.4234
မရှိမှီ	-12.4241
တိုးပွားစေ	-12.4242
ကြီးပေး	-12.4249
ရွှေဒ	-12.4259
းသွားချ	-12.4279
မရိုမသေပြု	-12.4292
ယူပြီးမှ	-12.43
ောနိ	-12.4308
ပွဲခံရာ	-12.4314
ဤအကြ	-12.4318
မီးညှ	-12.4323
ဒိရှ	-12.4335
ဓိ	-12.4337
ရောမလူ	-12.4341
ငါးပါး	-12.4402
းတွားကြ	-12.441
မကြဲ	-12.4412
ဂေဇာမ	-12.4419
အမွေပေး	-12.4433
လုဒ	-12.444
လူနေရာ	-12.4466
လူမျိုးများ	-12.4469
သူမျှမသိ	-12.4488
မာစွာ	-12.45
မခံသောသူ	-12.4511
ပေးရသော	-12.4533
မဖြေ	-12.4538
နှာကိုထ	-12.4544
နှလုံးခ	-12.4545
အမှုကိုမျှ	-12.4565
လောကီန	-12.4573
ငါဟောပြောသော	-12.4606
လွဲစေ	-12.4623
မပြောဘဲ	-12.4638
ီးအချိ	-12.4652
ရွှေချ	-12.4661
စုတစု	-12.4677
ဤလူများ	-12.4682
ခြေမ	-12.4687
ရေထဲ	-12.4698
လိုသောသူ	-12.4704
ပဌနာပြုသော	-12.471
ဘုံမှ	-12.4728
အိုးက	-12.4733
မကြားမပြော	-12.4739
လာပြီဟု	-12.4834
ထောမနာ	-12.4847
မလာရ	-12.4862
ပုလ	-12.4879
အသရေရှိ	-12.4895
းစာလာ	-12.4922
ုံးရ	-12.4933
ကြိုးများ	-12.4936
ပြီတကား	-12.4941
အိုအဘ	-12.4977
ဇာရ	-12.4987
လုံခြုံ	-12.4988
စုထဲက	-12.5
ဣသခါအမျိုး	-12.5002
မကျိ	-12.5011
ကေဒေရှမ	-12.5022
အဒုလံ	-12.5022
ဈေး	-12.5022
ဗာဇိလဲ	-12.5022
အခြံအရံ	-12.5022
ဇိခရိ	-12.5022
တဟာရှသားရေ	-12.5022
ာခရိပ	-12.5022
နေဗုဇာရ	-12.5022
အဘိရံ	-12.5022
မှီခိုလ	-12.5023
အရှုကြွလာ	-12.5023
ကေဒါ	-12.5023
မဟာလိ	-12.5023
စုရုံး	-12.5024
အမွှေး	-12.5024
နံရံ	-12.5025
ပုလဲ	-12.5028
ဤအမှုအလုံးစုံ	-12.5032
ယောအာ	-12.5035
တေကော	-12.5036
မွှေ	-12.5038
ငံလုံးကို	-12.5042
တာဖုံး	-12.5043
ဟာရိမ	-12.5046
ဂေရာ	-12.5051
အဘိဟု	-12.5061
ထာဝရပဋိညာ	-12.5071
းငှါအလိုရှိ	-12.5072
ရှာကြံကြ	-12.5076
ကာမျှ	-12.5078
မြဲမြံသော	-12.5092
မြေအိုး	-12.5098
မှလာသော	-12.5099
ရှားစွာပြ	-12.5101
စူး	-12.5106
ငါအလိုမရှိ	-12.5108
ဆုံးရှုံးစေ	-12.5113
မစားရဟု	-12.5113
ယောရှသား	-12.5121
ထိုငွေကို	-12.513
မြဲရှိ	-12.5133
သေးသလော	-12.5134
မရိုသေ	-12.5142
ချီလွှဲသော	-12.5145
တပါးပါး	-12.5146
သားသမီးများ	-12.5146
လျား	-12.5147
ဆဌမ	-12.5153
ဒြုန	-12.5163
ဗေဇ	-12.5176
သားယောန	-12.5176
ဒုတိယသား	-12.5188
မပေးဘဲနေ	-12.5189
မစွဲ	-12.5202
တိအမျိုးသား	-12.5209
ဒေါရ	-12.523
ရှောလ	-12.5238
လိုသေး	-12.5254
ာပွ	-12.5272
မေရာရိသား	-12.5295
ကြီးသောအမှု	-12.5315
ပျိုးသော	-12.5332
ပြေးရသော	-12.5367
တခါတ	-12.5385
မှားပြီ	-12.539
ာဗော	-12.5398
စကားကိုကြား	-12.541
းစံသုံး	-12.5432
ပြေးသောသူ	-12.5439
ရှိနေစ	-12.5448
ကာဣနန	-12.5463
ရှုအာ	-12.5472
မသွားပါ	-12.5525
ပြုမိသ	-12.5527
ဆိုမိသော	-12.5541
းရံလ	-12.5545
ငါးရာရှိ	-12.5551
ဝေပေး	-12.5566
ဗနိ	-12.5585
ဘဲမနေန	-12.5595
ခံရကြပြီ	-12.5603
ပါပြီတကားဟု	-12.5619
မနာလို	-12.5635
အိုယုဒ	-12.5639
ရှိသလောဟု	-12.565
းတွားလ	-12.5665
းစွာအမ	-12.5701
းဝေးရာတဲ	-12.571
စွဲစေ	-12.573
ဟူသောစကား	-12.5772
ထိုအရာများ	-12.5778
သောအစေ	-12.5786
မသိန	-12.5792
ကာပြုရ	-12.5804
းမြား	-12.5821
အကျိုးကိုခံရ	-12.5826
ကုရ	-12.5862
ဂါများ	-12.5866
ဂလ	-12.5881
သုံးချ	-12.5882
မှားပါ	-12.5888
အစားအသ	-12.5905
ငါအော	-12.5928
ယေဒုသု	-12.5931
ဒေဗောရ	-12.5931
ဗေသနိရွာ	-12.5931
ဗေသွေလ	-12.5931
မာဂဒလမာရိ	-12.5931
အထူးထူးအပြားပြား	-12.5931
ဒေဗိရ	-12.5931
မြီးက	-12.5931
ရိဗလ	-12.5931
ဥပဒေသများ	-12.5931
အသီးမသီး	-12.5931
ရိုသေစွာပြု	-12.5931
ရှေလမိ	-12.5931
းမြားပေးစား	-12.5931
ယုပွေ	-12.5931
အာဗြံဟံ	-12.5931
ကာရာသား	-12.5931
ဗိလဟာ	-12.5931
ညှုး	-12.5932
တံထွေး	-12.5932
တဆေးမပါသော	-12.5932
ဧဟုဒ	-12.5932
တဝါလေးပါး	-12.5932
အာရှကေ	-12.5932
အထီးအမ	-12.5932
ချိုးကလေး	-12.5933
စုတေ	-12.5933
ကြီးပွါး	-12.5933
မိဖုရားဧသတာ	-12.5933
ခွဲဝေ	-12.5934
မိဿ	-12.5934
ဂတေ	-12.5934
ချေးငှါး	-12.5934
ဇေဘဟ	-12.5935
အကျိုးအလိုငှါ	-12.5935
အညီအမျှ	-12.5935
အာဒါ	-12.5935
မွှေးသော	-12.5937
ရှေလောမိ	-12.5938
အကြီးဆုံးသော	-12.5938
ပုံထား	-12.594
အကျိုးမဲ	-12.5945
ပြုဘိ	-12.5954
နွားစု	-12.5954
ယုံလ	-12.5954
ရေချိုးရ	-12.5963
မိခ	-12.5984
ရေဇိ	-12.5987
မယားစာရာ	-12.5989
ပြုဘူးသော	-12.5994
ကြွလာသောသူ	-12.5996
ဒေဒ	-12.5996
ဆီးမှီ	-12.5997
ခိုလှုံပါ	-12.5998
ဇာအတ	-12.6043
ကြားသိကြ	-12.6069
ပါပြီတကား	-12.6077
ရှေးကာလမှ	-12.6094
စီးသောရေ	-12.6103
ထောမနာပြု	-12.6121
ဘိသ	-12.6141
ဆုံးမသွ	-12.6142
နူက	-12.6152
အာဖ	-12.6181
မောဘအမျိုးသား	-12.6202
ျာနား	-12.6205
ဂျ	-12.6206
လောဘလ	-12.6207
ငါသွားရာ	-12.6218
စကားကိုနားမ	-12.6222
ပြုမိပါပြီ	-12.6228
ရွေလ	-12.624
ေမွေလ	-12.6259
ခုစီရှိ	-12.629
ခိုးယူ	-12.6296
အသေခံရသော	-12.6299
ပညာစကား	-12.6338
ခဝေဒနာ	-12.6344
မပြုရဟု	-12.6367
ာပြီးမှ	-12.6412
စွဲသောသူ	-12.6447
စုထဲ	-12.6481
သိလို	-12.6509
မြုံသော	-12.6525
ဟေဇ	-12.6556
ိအဆွေ	-12.6577
မပြောဘဲနေ	-12.6641
ရေလအမျိုးသား	-12.6665
ခွဲခ	-12.673
ဒေလ	-12.6741
အများရှိကြ	-12.6761
အပျိုမ	-12.6844
နေလိ	-12.6863
အိုးမြေ	-12.6876
သူကိုမျှမ	-12.6877
ဘဲမနေရ	-12.6884
ဒေါနိ	-12.689
စီးမှီ	-12.6893
ကုလား	-12.6894
အခြားတပါး	-12.6898
အာရှုရိလူ	-12.6904
မှားမိ	-12.6918
ခြားသော	-12.6918
ပါဒနာရံ	-12.6931
အဗေဒနေဂေါ	-12.6931
အဲသယောပိ	-12.6931
ဇေဖနိ	-12.6931
ဓေစွဲယူ	-12.6931
မသုရှလ	-12.6931
အစိုးတရပြု	-12.6931
အဗျေဇာ	-12.6931
အာဖာဇ	-12.6931
ကြေးနီ	-12.6931
ဇေဗေဒဲ	-12.6931
မေရိဘ	-12.6931
အနုမောဒနာ	-12.6931
ကာဒေရှဗာနာ	-12.6931
ဒေလိလ	-12.6931
တာအဖုံး	-12.6931
မံရေ	-12.6931
ယေရောဟံ	-12.6931
ဆိုးစွဲသောသူ	-12.6931
မပေးဘဲမနေ	-12.6931
အစုစု	-12.6932
မုသားစကားကို	-12.6932
စွတကား	-12.6934
သတိပညာ	-12.6935
မြဲမြံစွာ	-12.6935
ဇလောဖ	-12.6935
မီးမွေး	-12.6936
ဘူးသီး	-12.6937
မသိပါဟု	-12.6939
းကလေးကို	-12.694
ဗာနာ	-12.694
ချီလွှဲရာ	-12.694
ဝေမျှ	-12.6941
မုရှိ	-12.6944
ဆူဝ	-12.6945
ဟောရိ	-12.6945
ပမာဏပြု	-12.6946
ရွေးလို	-12.6947
လဲရှ	-12.6948
းမလျှာ	-12.695
ရာဇလှံတံ	-12.6964
တံစိုးကို	-12.6967
တာကရုဏာ	-12.6967
အစိုးမရ	-12.697
ဝေးပါစေသော	-12.6982
သူရဲတသ	-12.701
ပြောပြီဟု	-12.7038
တိုးပွားများပြား	-12.7055
အဆွေအမျိုးအသီး	-12.7068
လွဲသွား	-12.7069
ဇေရုယာသား	-12.7091
မျှမကြွ	-12.7104
ငါမသိဟု	-12.7142
ဧလု	-12.7164
မှီဝဲလ	-12.7193
စမလ	-12.7199
ပေးဝေ	-12.72
သုံးစု	-12.723
ဖာလ	-12.7249
ပဌမလတ	-12.7295
ငိုကြွေးသံ	-12.7303
အစိုးရသောမ	-12.7307
သတိမရှိသော	-12.7327
အလိုရှိလျ	-12.739
အိုးများ	-12.7391
လေဝိအမျိုးသား	-12.7434
းမကလ	-12.7445
ဘာလ	-12.7448
မခံဘဲနေ	-12.7451
အဦးပြု	-12.7497
ဆုလ	-12.7498
းစီးသူရဲများ	-12.7506
ပွဲကိုခံ	-12.751
ဩဇိသား	-12.7513
ဘိုးဘအဆွေအမျိုး	-12.7545
ခြေများ	-12.7552
စုထဲမှာ	-12.756
၊	-12.7563
လေဝိသားများ	-12.7652
တတိယသား	-12.7675
မအိ	-12.7712
ယေဗုသိ	-12.7749
တိမနတ	-12.7767
ဧရှ	-12.7813
တရားစကားကိုကြား	-12.7814
၏	-12.7841
ဆဲသောသူ	-12.7873
းရူးပ	-12.7929
အကာရှ	-12.7988
တခြား	-12.8023
ဒိဗ	-12.8025
အစုအဝေး	-12.8033
ရှောလုထံ	-12.8036
ဍ	-12.8039
ငါးစုတစုကို	-12.8042
းမမိဿံ	-12.8042
ခြံရံ	-12.8042
ဇေဗဒိ	-12.8042
ဒေသစာရီ	-12.8042
ရိနာစွဲသော	-12.8042
ဒေနာရိ	-12.8042
ရှာလသေလသား	-12.8042
နှဲခရာ	-12.8042
ယုရှ	-12.8042
သကေနေပွဲ	-12.8042
ဠ	-12.8042
ဣမေရ	-12.8042
ငြာစေ	-12.8042
တခုခုကို	-12.8042
တမြား	-12.8042
ယောဇဒ	-12.8042
ပိုးရွ	-12.8042
မရေရှ	-12.8042
တုဗလ	-12.8042
ဟေသအမျိုးသား	-12.8042
နာဇရိလူ	-12.8042
ယာခိန	-12.8042
ကယာဖ	-12.8042
လုနီးပြီ	-12.8043
အစွဲပြု	-12.8043
ပြုမိသမျှသော	-12.8044
ပြုမူသောအမှုအရာ	-12.8044
ပဌာနပြု	-12.8044
ကွာဝေး	-12.8044
နွှဲ	-12.8045
မာကု	-12.8045
တပိသာ	-12.8046
အသီးအခြား	-12.8046
အလျားအနံ	-12.8046
ဗေသောရု	-12.8046
ခြေသေသောသူ	-12.8047
ယေရှိမု	-12.8048
ဝစွာကျွေး	-12.8051
ဦးစွာမှ	-12.8053
မလာမှီ	-12.8054
းသာမရ	-12.8057
ဩဝါဒပေး	-12.8058
တံခါးမှူး	-12.8062
အမှီမပြု	-12.8066
လူအသီးသီး	-12.8075
တခါမျှမ	-12.8075
မေရော	-12.8084
ယေသာ	-12.8084
ေဇန	-12.8085
လူရို	-12.8131
နှာကိုဖုံး	-12.8148
းမြားဆ	-12.818
အာပေါလု	-12.8181
အဆီးအတားမရှိ	-12.8182
ါးကျပ	-12.8216
သဘောကော	-12.8243
မခံရဘဲ	-12.8251
ကုပရု	-12.8252
ဟိလခိသား	-12.8263
ဂလာရှိပါစေသော	-12.8276
ပျံတ	-12.8293
အသေမခံရ	-12.8296
အသိအ	-12.8297
မြဲမြံခ	-12.8337
အသီးအနှံများ	-12.8339
ေးသန	-12.8343
လိဗနိ	-12.8386
ပွါးများ	-12.844
မာနကြီးသောသူ	-12.8477
မှီဝဲသောသူ	-12.8499
အာဇလ	-12.8574
ှ	-13.1601
ဦ	-14.4708
ဪ	-14.522
?	-15.5215
၌	-15.5216
၍	-15.5217
့	-15.5218
ဈ	-15.5219
်	-15.5219
