<pad>	0
</s>	0
<unk>	0
▁Ꭰ	-0
▁Ꭴ	-1
▁Ꮎ	-2
ᏍᎩ	-3
ᏍᏗ	-4
▁Ꭲ	-5
▁ᎠᎴ	-6
▁ᎾᏍᎩ	-7
▁Ꭸ	-8
▁Ꮒ	-9
▁ᎨᏒ	-10
▁Ꮵ	-11
▁Ꭶ	-12
▁Ꮧ	-13
▁Ꭿ	-14
▁ᎯᎠ	-15
ᎵᏍ	-16
▁Ꮷ	-17
ᏅᎯ	-18
▁Ꮔ	-19
▁Ꭼ	-20
▁ᎢᏳ	-21
▁Ᏹ	-22
▁Ꭱ	-23
ᏗᏱ	-24
▁ᎤᏁ	-25
▁Ꮪ	-26
▁Ꭵ	-27
ᏓᏁ	-28
▁ᎠᏂ	-29
ᏓᏅ	-30
▁ᎤᏂ	-31
ᏍᎬ	-32
▁Ꮕ	-33
ᏍᎦ	-34
ᎯᏳ	-35
▁Ꭳ	-36
▁ᎥᏝ	-37
▁ᎨᏒᎢ	-38
ᏰᏃ	-39
ᏪᏎ	-40
ᎳᏅᎯ	-41
▁ᎤᎾ	-42
▁Ꮥ	-43
▁Ꮣ	-44
ᏍᏛ	-45
▁Ꭺ	-46
▁ᎤᏁᎳᏅᎯ	-47
ᏙᏗ	-48
▁ᏂᎦ	-49
ᏍᏗᏱ	-50
ᏤᎵ	-51
ᎬᏫ	-52
▁Ꭹ	-53
ᏍᎨ	-54
ᎬᏫᏳ	-55
ᎨᏒ	-56
ᏍᎩᏂ	-57
▁Ꮳ	-58
ᏓᎴ	-59
ᏎᏍᏗ	-60
▁ᎬᏩ	-61
ᎸᎩ	-62
ᏍᎪ	-63
▁ᏥᏌ	-64
ᏴᏫ	-65
ᎬᏩ	-66
ᏍᏓ	-67
▁ᎩᎶ	-68
▁ᎠᏎ	-69
▁ᎢᎦ	-70
ᎬᏫᏳᎯ	-71
ᏍᏉ	-72
ᏛᏁ	-73
ᏙᎯ	-74
▁ᎾᏍᏉ	-75
ᎸᎯ	-76
ᏔᏅ	-77
▁ᏴᏫ	-78
ᎴᎢ	-79
▁ᎬᏂ	-80
ᎦᏔ	-81
▁ᎾᏍᎩᏯ	-82
▁ᎠᏴ	-83
ᏍᏓᏁ	-84
▁ᎤᏪ	-85
ᏩᏛ	-86
▁Ꮻ	-87
ᎸᏉ	-88
▁Ꮏ	-89
ᏃᎮ	-90
▁ᎢᏥ	-91
ᏒᎩ	-92
ᎶᎯ	-93
▁ᎿᏉ	-94
▁ᎨᏎᏍᏗ	-95
▁ᎢᏣ	-96
ᏗᏳ	-97
▁ᎠᏥ	-98
ᏎᎢ	-99
ᏍᎨᏍᏗ	-100
ᎨᏒᎾ	-101
▁ᏥᎩ	-102
▁ᏂᎨᏒᎾ	-103
▁ᎤᎬᏫᏳᎯ	-104
▁ᏂᎯ	-105
ᏩᏗ	-106
ᏙᏗᏱ	-107
ᎲᎢ	-108
▁ᎠᏎᏃ	-109
▁ᎢᏳᏍᏗ	-110
ᎸᎢ	-111
ᎦᎵᏍ	-112
▁Ꭷ	-113
ᏣᏘ	-114
ᎶᏁ	-115
ᎧᎿ	-116
ᏁᎢ	-117
ᎸᏫ	-118
ᎮᏍᏗ	-119
▁ᎾᎿ	-120
ᎶᏁᏛ	-121
▁ᏄᏪᏎ	-122
ᎸᏫᏍᏓᏁ	-123
ᎳᏗ	-124
ᏍᏕ	-125
ᏄᎪ	-126
ᎯᏍᏗ	-127
ᏍᏆ	-128
▁ᎦᎶᏁᏛ	-129
▁ᎤᏲ	-130
▁ᎠᎩ	-131
ᏙᏓ	-132
ᏰᎸ	-133
▁ᏱᎩ	-134
▁Ꮤ	-135
▁ᏧᎾ	-136
▁ᏂᏚ	-137
ᏅᏛ	-138
ᏔᏅᎯ	-139
ᎱᏍᏗ	-140
▁ᎤᏤᎵ	-141
▁ᎠᎾ	-142
▁ᎪᎱᏍᏗ	-143
ᏰᎵ	-144
ᏍᎬᎢ	-145
ᎵᏍᏗ	-146
▁ᎠᏁ	-147
▁ᏅᏓ	-148
▁ᏂᎦᏛ	-149
▁ᎢᏨ	-150
▁Ꮽ	-151
ᏓᏙ	-152
▁ᎣᏍᏛ	-153
▁Ꮜ	-154
ᏓᏅᏙ	-155
▁ᎾᏍᎩᏃ	-156
▁ᎤᏩ	-157
▁ᎠᏆ	-158
▁ᎢᏳᏃ	-159
▁ᎢᏯ	-160
▁ᎦᏙ	-161
▁ᎤᎵ	-162
▁Ꮶ	-163
▁ᏗᎦ	-164
ᏓᎵ	-165
▁Ꮮ	-166
ᏂᎪ	-167
▁ᎠᏍᎦ	-168
▁ᏧᏂ	-169
ᏩᏗᏙᎯ	-170
ᎦᎵᏍᏙᏗ	-171
▁ᎿᏉᏃ	-172
▁ᎢᎬ	-173
ᎨᏳ	-174
ᏓᎴᏅᏛ	-175
ᏅᎩ	-176
▁ᎤᏙ	-177
▁ᏗᎧᎿ	-178
▁ᏗᏂ	-179
▁ᎦᎸ	-180
ᎦᏘ	-181
▁ᎤᏪᏥ	-182
▁ᎾᏂ	-183
ᏴᏛ	-184
▁ᏞᏍᏗ	-185
▁ᎡᎶᎯ	-186
▁ᎦᎸᏉ	-187
ᏅᏏ	-188
▁ᎤᏣᏘ	-189
ᏛᎦ	-190
▁ᎠᏏ	-191
▁ᎤᏩᏒ	-192
ᎴᎰ	-193
ᎶᏗ	-194
ᏒᎯ	-195
▁ᏂᎦᎥ	-196
▁ᎧᏃᎮ	-197
ᏗᎦᎵᏍᏙᏗ	-198
▁Ᏻ	-199
▁ᏚᏂ	-200
ᎷᏤ	-201
ᎲᎩ	-202
ᏒᎢ	-203
▁ᏄᏂ	-204
▁Ꮿ	-205
▁ᏂᏚᏪᏎ	-206
ᏅᎢ	-207
ᎪᎯ	-208
ᏓᏂ	-209
ᎵᏍᏓ	-210
▁ᎨᏥ	-211
▁ᏔᎵ	-212
ᏙᎥ	-213
▁ᎬᏂᎨᏒ	-214
ᎳᏫ	-215
ᏁᎸ	-216
▁ᎤᏙᎯᏳ	-217
▁ᎠᎦ	-218
▁ᎯᎠᏃ	-219
▁ᏅᏩ	-220
ᏳᎪ	-221
▁ᎢᏳᎵᏍ	-222
▁ᎠᏓᏅᏙ	-223
ᏴᎵ	-224
ᏍᏆᏂᎪ	-225
▁ᏄᏍᏛ	-226
▁ᎧᏃᎮᏛ	-227
▁ᎣᏏ	-228
▁ᎠᏥᎸ	-229
ᏨᎯ	-230
ᏙᎴᎰ	-231
▁ᎠᏓ	-232
▁ᎦᎸᏉᏗᏳ	-233
▁ᎤᏟ	-234
ᏗᏢ	-235
ᎬᎢ	-236
ᏲᎱ	-237
▁ᏰᎵ	-238
▁Ꮴ	-239
▁ᎾᎯᏳ	-240
▁ᏅᏗᎦᎵᏍᏙᏗ	-241
ᏓᏅᏖ	-242
ᏛᎢ	-243
▁ᎣᏏᏳ	-244
▁ᏗᎧᎿᏩᏛ	-245
ᏔᏂ	-246
ᏄᎪᏫ	-247
▁ᎪᎯ	-248
ᎵᏍᏓᏴ	-249
▁ᎢᏴᏛ	-250
▁ᎢᎬᏱ	-251
ᏍᏙᏗ	-252
▁ᎦᎸᎳᏗ	-253
ᎵᏍᏓᏁ	-254
ᎲᎾ	-255
ᎲᏍᎩ	-256
▁Ꮩ	-257
▁ᎤᏕ	-258
ᏩᏂ	-259
▁ᎢᎩ	-260
ᎨᏥ	-261
ᏔᏅᎩ	-262
ᎨᏍᏗ	-263
ᏪᏒᎩ	-264
▁ᎤᏅ	-265
▁ᎦᏚ	-266
▁ᎤᏙᎯᏳᎯ	-267
▁ᎾᏂᎥ	-268
▁ᏗᎧᎿᏩᏛᏍᏗ	-269
ᏐᎢ	-270
▁ᏚᎾ	-271
▁ᎠᏍᎦᏯ	-272
▁ᏌᏉ	-273
ᏂᎩ	-274
ᎦᏔᎭ	-275
ᎷᏨ	-276
ᏔᏁ	-277
ᏤᎵᎦ	-278
▁ᏱᎨ	-279
ᏍᎦᏅ	-280
▁ᎡᎯ	-281
▁ᎢᏤ	-282
▁ᎤᏬ	-283
▁ᏄᏪᏎᎢ	-284
ᎢᏍᏗᏱ	-285
▁ᎤᏤᎵᎦ	-286
ᏏᎵ	-287
▁Ꭽ	-288
▁Ꮘ	-289
ᏍᎨᎢ	-290
▁ᎤᏚ	-291
ᏍᎪᎢ	-292
▁ᏅᏓᏳ	-293
ᏍᏓᏩᏗᏙᎯ	-294
ᏍᎬᎩ	-295
▁ᏕᏥ	-296
ᏗᏍᎩ	-297
▁ᏂᎬ	-298
▁ᏄᎵᏍ	-299
ᏓᏙᎵᏍᏗ	-300
▁ᎢᏧ	-301
ᎮᎢ	-302
ᏍᏚ	-303
ᏕᎸ	-304
ᏳᏉ	-305
ᏛᎩ	-306
ᎯᏍᏗᏱ	-307
▁ᎡᏥ	-308
▁ᏍᎩ	-309
ᏳᎪᏛ	-310
▁ᎬᏂᏳᏉ	-311
ᏓᏍᏗ	-312
ᎢᏳ	-313
ᏁᎸᎯ	-314
▁ᏥᏌᏃ	-315
ᏅᏟ	-316
▁ᏕᏣ	-317
ᎨᏴ	-318
ᏕᎩ	-319
ᏧᏏ	-320
ᎪᎸ	-321
▁ᎢᏳᎵᏍᏙᏗᏱ	-322
ᏲᎵ	-323
ᏔᏁᎢ	-324
ᏪᎵ	-325
ᏴᎵᎨ	-326
▁Ꮭ	-327
▁ᏗᏥ	-328
ᏁᏗᏱ	-329
ᏲᎯ	-330
▁[	-331
ᏬᏂ	-332
▁ᏗᏣ	-333
▁ᎤᏂᏣᏘ	-334
▁ᎤᎵᏍ	-335
▁ᎤᏓ	-336
ᏁᏤ	-337
ᏕᏲ	-338
▁ᏕᎦ	-339
▁ᎨᏎᎢ	-340
ᏗᎦ	-341
▁ᎤᎬᏩ	-342
ᎾᏛ	-343
ᏟᎶ	-344
▁ᏥᏂ	-345
ᎵᏏ	-346
ᏗᎭ	-347
ᏲᏎ	-348
▁ᎪᎯᏳ	-349
▁ᎤᏃ	-350
▁ᎠᏁᎯ	-351
▁ᏂᏥ	-352
ᎵᏰ	-353
▁ᏚᏳᎪᏛ	-354
ᏓᏡ	-355
▁Ꮹ	-356
ᏉᎳ	-357
▁ᎦᎵ	-358
▁ᎠᏂᏧᏏ	-359
ᏪᎳ	-360
▁ᏂᏣ	-361
▁ᏥᎪ	-362
▁ᏧᏓᎴᏅᏛ	-363
ᎰᎢ	-364
▁ᎤᏛ	-365
▁ᏔᎵᏁ	-366
ᎬᏫᏳᏒ	-367
▁ᎬᏩᏍᏓᏩᏗᏙᎯ	-368
▁ᎢᏧᎳ	-369
ᎸᏗ	-370
▁ᏥᎨ	-371
ᎪᎲ	-372
▁ᏓᏂ	-373
▁ᏣᏂ	-374
▁ᎤᎬᏩᎵ	-375
ᏁᏗ	-376
▁ᏧᏪ	-377
ᏓᏗ	-378
ᏙᎵ	-379
▁Ꮸ	-380
▁ᎣᎩ	-381
▁ᏂᏨ	-382
▁ᎤᏓᏅ	-383
▁ᏉᎳ	-384
▁ᎢᏳᎾ	-385
▁ᎨᏒᎩ	-386
ᏛᏃ	-387
ᏍᎬᎾ	-388
ᏯᏅ	-389
ᎳᏫᎢᏍᏗᏱ	-390
▁ᎦᎪ	-391
▁ᏈᏓ	-392
ᏁᎶᏗ	-393
▁ᎤᎵᏂᎩ	-394
ᎧᎵ	-395
ᎵᏥ	-396
▁ᏂᎪᎯ	-397
ᏌᏛ	-398
ᏍᎪᎯ	-399
ᎵᏲ	-400
ᎾᏫ	-401
▁Ꮫ	-402
ᎮᎵ	-403
▁ᏂᏚᏪᏎᎴᎢ	-404
ᏁᎭ	-405
ᏙᎴᎰᏍᎩ	-406
ᏅᏏᏛ	-407
▁ᏄᎾ	-408
▁ᏄᏪᏒᎩ	-409
▁ᎠᎹ	-410
▁ᎬᏗ	-411
▁ᎦᏙᏃ	-412
ᏅᏏᏓᏍᏗ	-413
▁ᎤᏙᎯᏳᎯᏯ	-414
ᎢᏍᏗ	-415
▁ᎢᎨ	-416
▁ᎤᏁᏨ	-417
ᏄᏬ	-418
ᏍᏙᏗᏱ	-419
▁ᏄᏪᏎᎴᎢ	-420
▁Ᏼ	-421
▁ᎤᏰᎸ	-422
▁ᎤᎩ	-423
▁ᏝᏍᎪ	-424
ᏁᎵ	-425
▁ᏥᎷ	-426
ᏒᏃ	-427
▁Ꮡ	-428
▁ᏱᏥ	-429
▁ᎤᏲᎱ	-430
ᎦᏘᏯ	-431
▁ᎠᏂᏍᎦ	-432
ᎪᎢ	-433
ᏏᎵᎻ	-434
ᎴᏅ	-435
ᎥᎢ	-436
ᏍᏙ	-437
ᏯᏛ	-438
ᎬᎩ	-439
ᏂᏴ	-440
▁ᏦᎢ	-441
▁ᎢᏧᎳᎭ	-442
▁ᏥᎷᏏᎵᎻ	-443
ᏉᏃ	-444
▁ᎩᎳ	-445
▁ᏗᎬᏩ	-446
ᎦᎸ	-447
▁ᎢᏳᏩᏂ	-448
▁ᎪᎯᏳᏗ	-449
ᎫᏴ	-450
ᎵᏍᎪᎸ	-451
▁Ꮖ	-452
▁ᎡᏍᎦ	-453
▁ᏣᎬᏫᏳᎯ	-454
▁ᎡᏣ	-455
▁ᎣᎦ	-456
ᏂᎬ	-457
▁ᎠᎨᏴ	-458
▁ᏂᏚᏪᏎᎸᎩ	-459
▁ᏙᏓ	-460
▁ᎤᏅᏒ	-461
▁ᎬᏂᏛ	-462
ᏗᏔ	-463
ᏪᏎᎸᎩ	-464
▁ᎠᏰᎵ	-465
▁ᏅᏩᏓᎴ	-466
▁ᎢᏯᏂ	-467
▁ᎾᏍᎩᏰᏃ	-468
ᎲᏍᎦ	-469
▁ᏄᏪᏎᎸᎩ	-470
ᎬᎾ	-471
ᏩᏘ	-472
ᏍᎩᎾ	-473
▁ᏗᏓ	-474
▁ᎠᎦᏔ	-475
▁ᎤᏣ	-476
ᏃᎯᏳ	-477
▁ᎠᎦᏴᎵᎨ	-478
ᏦᎯᏳ	-479
ᏍᏔᏅᎯ	-480
ᏪᏎᎭ	-481
▁ᏕᎤ	-482
▁ᏂᎦᏗᏳ	-483
▁ᎤᏓᏙᎵᏍᏗ	-484
▁ᏗᎨ	-485
▁ᏥᏄ	-486
ᎳᎩ	-487
▁ᎠᏫ	-488
▁ᏥᏚ	-489
▁ᎠᏕᎸ	-490
▁ᎤᏍᏗ	-491
▁ᏧᏪᏥ	-492
▁ᏅᏗᎦᎵᏍᏙᏗᎭ	-493
ᏓᏂᎸ	-494
▁ᏓᎾ	-495
▁ᎤᎾᏓᏅ	-496
▁ᎢᎸ	-497
ᏍᏕᏍᏗ	-498
▁ᏂᎦᏪ	-499
▁ᏧᎾᏓᎴᏅᏛ	-500
ᏍᏔᏅ	-501
▁ᎾᏍᎩᏯᎢ	-502
ᎵᏥᏙ	-503
▁ᎦᏰ	-504
ᎾᏄᎪᏫ	-505
▁ᏂᎪᎯᎸ	-506
ᎪᎩ	-507
ᎰᏩ	-508
ᏁᎯ	-509
▁ᎣᏂ	-510
▁ᏅᎩ	-511
▁ᎢᏯᏂᏛ	-512
ᎸᏫᏍᏓᏁᏗ	-513
ᏓᏁᏗ	-514
ᏓᏅᏟ	-515
ᏪᏎᎢ	-516
▁ᎤᏇ	-517
▁ᏱᏗ	-518
ᏟᏴ	-519
ᎪᎵᏰ	-520
ᏚᎵᏍ	-521
ᏙᎢ	-522
ᏛᎾ	-523
ᏛᏁᏗ	-524
▁ᎾᎥ	-525
▁ᏗᎾ	-526
▁ᎤᏍᏆᏂᎪ	-527
ᏃᎯ	-528
ᏨᎩ	-529
ᎪᏩᏛ	-530
▁ᏗᎩ	-531
▁ᏱᎦ	-532
▁ᏱᏂ	-533
ᏗᏍᎨᏍᏗ	-534
ᏐᏅ	-535
ᏒᎾ	-536
▁Ꮓ	-537
▁Ꮟ	-538
ᏛᎦᏅ	-539
ᏓᎸ	-540
ᏁᎸᎩ	-541
▁ᎤᎶ	-542
▁ᎦᏓ	-543
ᏍᎦᏅᏨ	-544
▁ᎢᏓᎵ	-545
ᏃᏅ	-546
▁ᎥᏝᏰᏃ	-547
ᎵᏛ	-548
▁ᏫᏚ	-549
▁ᎠᏏᏴᏫ	-550
ᎲᎦ	-551
ᏉᏍᎩᏂ	-552
ᎸᏉᏗ	-553
▁ᎢᎦᎢ	-554
▁ᎪᏪᎵ	-555
ᏁᎴᎢ	-556
ᏓᎴᏅᎯ	-557
▁ᎬᏩᎦᏘᏯ	-558
ᏠᏱ	-559
▁Ꮑ	-560
▁ᎧᏁ	-561
▁ᏥᏳ	-562
ᎨᎢ	-563
ᏤᎢ	-564
ᏥᏯ	-565
ᎵᎮᎵ	-566
ᏍᏛᎾ	-567
ᏔᏲᏎ	-568
ᏖᎸ	-569
▁ᎡᏆ	-570
ᏁᎴ	-571
ᎵᏅᏟ	-572
ᎶᎯᏍᏗᏱ	-573
▁ᏧᎾᏁᎶᏗ	-574
ᎾᏰ	-575
ᏲᎯᏎ	-576
▁ᏭᏂ	-577
▁ᎩᎶᏃ	-578
ᏐᏢ	-579
▁ᎠᏓᏁ	-580
▁ᎠᏲᎱ	-581
ᏍᎩᏂᏃᏅ	-582
ᎫᎪ	-583
▁ᎨᏣ	-584
▁ᎠᏂᎦᏔ	-585
▁ᏄᎬᏫᏳᏒ	-586
▁ᎢᏗ	-587
ᎬᏩᎶᏗ	-588
ᏁᎳᏅᎯ	-589
▁ᏂᏨᏪᏎᎭ	-590
▁ᎢᏳᏩᏂᏌᏛ	-591
▁ᎣᏥ	-592
▁ᎤᏇᏓᎵ	-593
▁ᏗᎧᎿᏩᏗᏙᎯ	-594
ᎾᏝ	-595
ᏍᏕᎸ	-596
▁ᎠᏰ	-597
▁ᎠᏍᏓ	-598
▁ᎡᏍᎦᏉ	-599
ᏑᏰ	-600
ᎪᏩᏘ	-601
ᏗᏍᏗ	-602
ᏛᏅᎢ	-603
ᏓᏅᏛᎢ	-604
ᏛᏁᏗᏱ	-605
▁ᎢᏓᎵᏅᏟ	-606
▁ᏱᏣ	-607
ᏓᏙᎵᏍᏓᏁ	-608
▁Ꮉ	-609
▁ᎠᏰᎸ	-610
▁ᎤᏂᏣ	-611
▁ᏅᏩᏙᎯ	-612
ᏌᏯ	-613
▁Ꮠ	-614
ᏕᏍᏗ	-615
ᏙᎢᏛ	-616
▁ᎤᎦ	-617
▁ᏥᏕ	-618
▁ᎤᎾᏓ	-619
ᏉᎩ	-620
ᏁᎶᎯ	-621
▁ᎤᎵᏂᎩᏛ	-622
ᎵᏙ	-623
ᏰᏂ	-624
▁ᏅᏯ	-625
▁ᎠᏍᎪᎯ	-626
▁ᏱᎨᏎᏍᏗ	-627
ᎳᏏ	-628
ᏅᏎ	-629
ᏯᏫ	-630
▁ᎢᎬᏩ	-631
▁ᎤᏚᎩ	-632
▁ᎦᎵᏉᎩ	-633
ᎸᏫᏍᏓᏁᎯ	-634
▁ᏗᎦᎸᏫᏍᏓᏁᏗ	-635
ᎵᎪ	-636
▁ᎦᏁ	-637
▁ᎦᏚᎲ	-638
ᎷᎩ	-639
ᎺᎵ	-640
ᏚᎵ	-641
ᏆᎵᏏ	-642
▁ᎠᏂᏔ	-643
▁ᎡᏙᏓ	-644
ᏗᏍᎬ	-645
▁ᏔᎳ	-646
▁ᏱᏚ	-647
▁ᎠᎵᏍ	-648
▁ᎤᏕᎵᏛ	-649
ᎴᎯ	-650
ᏁᏨ	-651
ᏅᏃ	-652
ᏓᏕ	-653
ᎩᎵᏲ	-654
▁ᎨᎵ	-655
▁ᏗᎪ	-656
▁ᎢᏗᏢ	-657
ᎵᏍᏓᏁᏗ	-658
▁ᎤᎵᏍᏆ	-659
▁ᏧᏙᎢᏛ	-660
▁ᎠᏂᏍᎦᏯ	-661
▁ᏧᎬᏩᎶᏗ	-662
▁ᏅᏩᏙᎯᏯᏛ	-663
ᎨᏳᏗ	-664
ᏩᏗᏒ	-665
▁ᎢᎨᏎᏍᏗ	-666
▁ᏄᏂᏪᏒᎩ	-667
ᎸᎭ	-668
▁ᏂᏗ	-669
▁ᎤᏁᎳᎩ	-670
▁ᏄᏂᏪᏎᎢ	-671
ᎾᏛᏁ	-672
ᏓᏅᏛ	-673
▁ᏓᎦ	-674
ᏍᏔᏅᎩ	-675
▁ᎠᏏᏉ	-676
▁ᎤᎷᏨ	-677
▁ᎢᎬᏱᏱ	-678
▁ᎤᎾᏓᏅᏘ	-679
▁ᎠᎾᏙᎴᎰᏍᎩ	-680
ᏩᏕ	-681
ᏂᏙᎯ	-682
▁ᎠᏇ	-683
▁ᏰᎵᏉ	-684
ᏂᏙ	-685
▁ᎠᏗ	-686
ᎠᏁᎶᎯ	-687
▁ᎦᎸᎶ	-688
▁ᏔᎳᏚ	-689
ᎵᏍᏙᏗᏱ	-690
▁ᎢᏳᏰᏃ	-691
▁ᎯᎠᏰᏃ	-692
ᏕᎾ	-693
▁ᎠᏋ	-694
▁ᎨᏎ	-695
ᎦᏴᎵᎨ	-696
ᏓᏍᏗᏱ	-697
▁ᎢᎸᎯᏳ	-698
▁ᏗᏂᎧᎿ	-699
▁ᏚᎸᏫᏍᏓᏁ	-700
ᏪᏎᎴᎢ	-701
▁ᏗᎦᎳᏫᎢᏍᏗᏱ	-702
ᏂᏆ	-703
ᏠᎾ	-704
ᏪᏒ	-705
▁Ᏺ	-706
▁ᎠᏂᏔᎵ	-707
ᎡᎵ	-708
ᎥᎩ	-709
ᎦᏛ	-710
ᎭᎻ	-711
ᏁᎶ	-712
ᏎᎵ	-713
ᏧᏈ	-714
ᏎᎸᎯ	-715
▁ᎢᎦᏛ	-716
▁ᏌᏩᏂ	-717
▁ᎤᎾᏓᏡ	-718
▁ᏄᎵᏍᏔᏅ	-719
ᎷᏥ	-720
ᏚᎢ	-721
▁Ꮌ	-722
▁ᏓᏓ	-723
▁ᏥᎦ	-724
▁ᏱᏅ	-725
ᏕᎸᏙᏗ	-726
▁ᎡᎳᏗ	-727
▁ᎢᏏᎵ	-728
▁ᏄᏂᎬᏫᏳᏒ	-729
ᎾᏄᎪ	-730
▁ᏱᎰᏩ	-731
▁ᎡᏆᎭᎻ	-732
▁ᏅᏓᏳᏓᎴᏅᎯ	-733
ᎴᏗ	-734
ᎳᏗᏙ	-735
ᎴᏍᏗ	-736
▁ᎦᏓᎭ	-737
▁ᎨᎵᎵ	-738
▁ᏥᎨᏒ	-739
▁ᎠᏍᎦᏂ	-740
▁ᎤᏍᏆᏂᎪᏗ	-741
ᎨᎶᎯ	-742
ᏍᏔᏂ	-743
ᏛᏁᎸ	-744
▁ᎤᏥ	-745
ᎬᏫᏳᏌ	-746
ᎸᏉᏗᏳ	-747
ᏲᎱᏒᎯ	-748
▁ᏚᏙᎥ	-749
▁ᎢᎦᏤᎵ	-750
▁ᎤᎾᏤᎵ	-751
▁ᎠᏂᏆᎵᏏ	-752
▁ᎤᎾᏤᎵᎦ	-753
ᏌᏗ	-754
ᏙᏓᏆ	-755
▁ᎥᎩ	-756
▁ᎼᏏ	-757
▁ᏧᏓ	-758
ᏍᏓᏩᏛ	-759
▁ᎥᏝᏃ	-760
▁ᏂᎬᏩ	-761
▁ᏱᎨᏎᎢ	-762
▁ᏗᏂᎧᎿᏩᏗᏙᎯ	-763
ᏛᏅ	-764
ᏪᎭ	-765
ᎲᏍᎬ	-766
ᏍᎦᎢ	-767
▁ᎠᎪ	-768
▁ᎣᏣ	-769
ᎸᏃ	-770
▁Ꭾ	-771
ᎾᏓᎴ	-772
▁ᎪᏪ	-773
▁ᎢᏯᎦ	-774
▁ᎤᏂᏲ	-775
ᏓᏅᏖᏍᎬ	-776
▁ᎠᏙᎴᎰᏍᎩ	-777
ᎴᏃ	-778
▁Ꮨ	-779
ᏍᏛᎢ	-780
▁ᏕᎨ	-781
▁ᏫᏥ	-782
▁ᏗᎨᏥ	-783
ᏕᏲᎲᏍᎩ	-784
ᏗᎦᎳᏫᎢᏍᏗᏱ	-785
ᏁᏃ	-786
ᏫᏂ	-787
ᎵᏍᏙ	-788
ᏍᏔᏁ	-789
▁ᎨᎦ	-790
▁ᎬᎩ	-791
▁ᎠᏎᏉ	-792
▁ᎦᏙᎯ	-793
▁ᎢᏦᎯᏳ	-794
▁ᏂᎯᏍᎩᏂ	-795
ᏕᏘ	-796
ᎨᏳᎢ	-797
ᏍᎩᏃ	-798
ᏍᏆᎸ	-799
▁ᎠᏛ	-800
▁ᎾᎩ	-801
▁ᎤᎾᎵ	-802
▁ᎠᏲᎱᎯᏍᏗ	-803
ᎵᎩ	-804
ᎾᎦ	-805
ᎳᏍᏗ	-806
ᏲᏪᎳ	-807
ᏢᏔᏅᎯ	-808
▁ᎦᏬᏂ	-809
ᎵᏍᏓᏴᏗ	-810
▁ᏂᎦᏛᏃ	-811
▁ᏅᏓᎬᏩ	-812
ᎬᏫᏳᏌᏕᎩ	-813
ᎵᏍᏓᏴᏗᏱ	-814
ᎶᏂ	-815
▁Ꮗ	-816
ᎦᏔᎲ	-817
ᎾᏝᎢ	-818
ᏅᏒᎩ	-819
ᏓᎴᏒ	-820
ᏓᎵᎢ	-821
▁ᎠᏤ	-822
▁ᎡᏙ	-823
▁ᎤᏗ	-824
▁ᏗᏆ	-825
▁ᏱᏄ	-826
▁ᎢᏨᏒ	-827
▁ᎭᏫᏂ	-828
▁ᎾᎿᏃ	-829
▁ᎾᏂᏪ	-830
▁ᎢᏯᎦᏴᎵ	-831
ᎥᎾ	-832
ᎵᏱ	-833
ᏳᎳ	-834
▁Ꮀ	-835
▁ᎢᎾ	-836
▁ᏥᏥ	-837
▁ᏧᏁ	-838
ᎦᎵᏍᏓ	-839
▁ᏂᎬᏅ	-840
▁ᏄᏍᏗ	-841
▁ᎠᏍᎩᎾ	-842
▁ᎩᎳᏉᏃ	-843
ᏔᎳ	-844
ᎦᏙᎥ	-845
▁ᎺᎵ	-846
▁ᏂᏕ	-847
▁ᏓᏳ	-848
ᏁᎢᏍᏗ	-849
▁ᎤᏁᏤ	-850
▁ᎦᏳᎳ	-851
▁ᎾᏍᎩᏍᎩᏂ	-852
ᏁᎲ	-853
ᏌᎳ	-854
▁ᏕᏫ	-855
▁ᏱᏙ	-856
ᎵᏍᏔᏅ	-857
ᏍᏔᏁᎢ	-858
ᏓᏅᏓᏗ	-859
ᏗᏍᎬᎢ	-860
ᏩᏗᏒᎢ	-861
▁ᎤᏚᎵᏍ	-862
▁ᎠᏓᎨᏳᏗ	-863
▁ᎠᎦᏴᎵᎨᎢ	-864
▁ᎤᎵᏂᎩᏗᏳ	-865
ᎾᎢ	-866
ᏃᎩ	-867
ᏎᎭ	-868
▁ᏧᏬ	-869
▁ᎠᏃᎯᏳ	-870
▁ᎠᏍᏓᏯ	-871
ᏓᏛ	-872
ᏠᏯ	-873
ᏴᎯ	-874
▁ᎦᏥ	-875
▁ᏗᏃ	-876
▁ᏥᏯ	-877
ᏗᏔᏍᏗ	-878
▁ᎤᎵᏏ	-879
▁ᎤᎷᏤ	-880
▁ᎤᏙᏓ	-881
ᎲᏍᎨᏍᏗ	-882
▁ᎠᎾᎵᏅᏟ	-883
▁ᎤᏂᏍᏆᏂᎪ	-884
ᎦᎨ	-885
ᎰᎵ	-886
ᏂᏏ	-887
ᏐᏗ	-888
ᏏᏴᏫ	-889
▁ᏓᏥ	-890
▁ᎤᏠᏱ	-891
▁ᎤᏃᎯᏳ	-892
▁ᎠᏂᏍᎩᎾ	-893
ᏎᏗ	-894
ᏯᎢ	-895
ᏴᎩ	-896
▁	-897
Ꮝ	-898
Ꮧ	-899
Ꭰ	-900
Ꭹ	-901
Ꭲ	-902
Ꮎ	-903
Ꮒ	-904
Ꭿ	-905
Ꭴ	-906
Ꭶ	-907
,	-908
Ꮣ	-909
Ꮅ	-910
Ꮕ	-911
Ꭸ	-912
Ꮄ	-913
Ꮑ	-914
Ꮫ	-915
Ꮓ	-916
Ꮵ	-917
Ꮢ	-918
Ꭼ	-919
Ꮈ	-920
Ᏻ	-921
Ꮩ	-922
Ᏹ	-923
.	-924
Ꭺ	-925
Ꮞ	-926
Ꮹ	-927
Ꮻ	-928
Ꮙ	-929
;	-930
Ꮃ	-931
Ꮳ	-932
Ꮪ	-933
Ᏼ	-934
Ꮿ	-935
Ꮥ	-936
Ꮤ	-937
Ꮺ	-938
Ꮆ	-939
Ᏸ	-940
Ꮔ	-941
Ꭵ	-942
Ꮷ	-943
Ꭽ	-944
Ꮂ	-945
Ꮟ	-946
Ꮴ	-947
Ꭱ	-948
Ᏺ	-949
Ꮸ	-950
Ꮜ	-951
Ꭾ	-952
Ꮏ	-953
Ꮖ	-954
Ꮨ	-955
Ꮭ	-956
Ꭷ	-957
Ꭳ	-958
Ꮇ	-959
Ꮼ	-960
Ꮯ	-961
Ꮲ	-962
Ꮀ	-963
Ꮁ	-964
Ꮠ	-965
?	-966
Ꮶ	-967
-	-968
Ꮘ	-969
Ꮦ	-970
Ꮽ	-971
Ꭻ	-972
Ꮮ	-973
Ꮡ	-974
Ꮰ	-975
Ꮋ	-976
Ꮗ	-977
Ꮉ	-978
Ꮱ	-979
[	-980
Ꮊ	-981
]	-982
Ꮛ	-983
Ꮬ	-984
"	-985
!	-986
Ꮾ	-987
Ꮌ	-988
(	-989
)	-990
:	-991
'	-992
Ꮚ	-993
~	-994
Ꮍ	-995
\	-996
