<pad>	0
</s>	0
<unk>	0
,	-3.04979
᙮	-3.46312
▁	-3.70077
▁ᑕᔥ	-4.03805
▁ᑲᔦ	-4.05099
▁ᒦ	-4.23456
ᓐ	-4.59314
ᒡ	-4.60185
▁ᐁ	-4.64077
▁ᑳ	-4.67215
:	-4.70538
▁ᒋ	-4.73242
▁ᑳᐐᓐ	-4.73827
▁ᐃᐃ	-4.76594
ᑕᔥ	-4.94701
▁ᐃᑕᔥ	-4.97099
▁ᐁᑮ	-5.03216
▁ᓴ	-5.03986
▁ᐃᐃᒫ	-5.0647
ᓂ	-5.07633
ᒃ	-5.11004
▁ᑭᔐᒪᓂᑑ	-5.14895
▁ᐃᓂ	-5.16981
ᐙᒡ	-5.21841
▁ᑳᑮ	-5.2287
▁ᑲᑭᓇ	-5.30569
▁ᐊᐊ	-5.33229
▁ᑮ	-5.35647
▁ᐊᐲ	-5.36
▁ᑳᐃᔑ	-5.36203
▁ᒋᓴᔅ	-5.37106
▁ᐅᑮ	-5.38638
▁ᐃᑭ	-5.44766
▁ᐐᓐ	-5.44787
ᓂᒡ	-5.51507
▁ᐅ	-5.54472
▁ᐋᓃᔥ	-5.62636
▁ᐅᐅ	-5.66072
▁ᐊᐎᔭ	-5.66281
?	-5.68053
ᑳ	-5.69787
ᑯ	-5.69873
ᔥ	-5.72668
ᑭ	-5.7339
▁ᐁᔑ	-5.74477
ᑲ	-5.80378
ᐎ	-5.82019
▁ᑭᔐᒪᓂᑑᓐ	-5.8246
ᐗᒃ	-5.83368
!	-5.91032
▁ᑭ	-5.93022
▁ᑫᑰᓐ	-5.9533
ᓯ	-5.96063
▁ᐋᓃᓐ	-5.96735
▁ᑫ	-5.97162
▁ᑮᔥ	-5.98635
ᐱᓐ	-5.99301
ᐙ	-6.01208
ᓈ	-6.02587
▁ᑕ	-6.02685
ᒥ	-6.0377
ᕽ	-6.03775
ᑕ	-6.04551
▁X	-6.0619
▁ᑭᑲ	-6.06194
ᐱ	-6.07461
▁ᐃ	-6.08206
ᑎ	-6.11177
▁ᐃᑯ	-6.12467
ᔑ	-6.12831
ᒫ	-6.13257
▁ᒦᔥ	-6.13669
ᑖ	-6.13992
ᓇ	-6.14218
ᐃ	-6.15946
ᒻ	-6.18382
ᒋ	-6.19511
▁ᑖᐱᔥᑰ	-6.21501
ᔦᒃ	-6.21652
ᐞ	-6.21721
▁ᓂ	-6.22267
▁ᑮᓇᐙ	-6.22874
▁ᓃᓐ	-6.23815
ᓰ	-6.27169
ᐸ	-6.28801
▁ᐃᔑ	-6.30069
▁ᐋᔕ	-6.32809
▁ᐯᔑᒃ	-6.34192
▁ᐁᑕ	-6.34532
▁ᐅᑲ	-6.35653
▁ᒦᓇᐙ	-6.37972
▁ᐌᑎ	-6.38696
▁ᐊᑮᕽ	-6.38718
▁ᐐ	-6.41327
▁ᐃᓂᓂ	-6.41893
▁ᑳᑮᐃᔑ	-6.42969
▁ᐃᐌ	-6.44097
▁ᐁᐐ	-6.49362
ᐎᓐ	-6.5067
▁ᐃᒫ	-6.54097
ᔭᓐ	-6.54343
ᑌ	-6.55787
ᐌ	-6.57043
ᔅ	-6.57548
▁ᑫᑯ	-6.58022
ᒡ᙮	-6.58109
ᒪ	-6.58133
ᐊ	-6.59503
▁ᑭᒋ	-6.59514
▁ᓂᑮ	-6.59739
▁ᐅᒋ	-6.60011
▁ᑳᐅᒋ	-6.60445
▁ᐃᐃᐌ	-6.60586
▁ᐊ	-6.60984
ᑫ	-6.61015
▁ᑳᔑ	-6.63494
▁ᐁᑳ	-6.64906
▁ᐊᐌ	-6.65796
▁ᐅᔕ	-6.66776
▁ᐃᓇ	-6.68319
ᐗᓐ	-6.70417
▁ᒋᓴᓲᓐ	-6.70501
▁ᓅᑯᒻ	-6.71455
▁ᐄᑐᒃ	-6.71455
▁ᑌᐺ	-6.71485
ᔮᓐ	-6.71572
ᓀ	-6.71637
ᐅ	-6.71649
▁ᐯᔑᑾᓐ	-6.72468
ᐲ	-6.72566
▁ᑯᑕᒃ	-6.74088
ᓂᒡ᙮	-6.75449
▁ᑯ	-6.75795
▁ᔑᑾ	-6.7639
▁ᐋᐱᒋ	-6.76723
ᓄ	-6.76785
▁ᑮᓐ	-6.77862
ᐙᒡ᙮	-6.80469
▁ᑭᑮ	-6.80863
ᐗ	-6.82672
▁ᐅᐌ	-6.85539
ᐋ	-6.86133
▁ᐅᐅᒫ	-6.86261
▁ᑳᑎᐯᒋᑫᒡ	-6.86435
ᑮ	-6.87334
ᑑ	-6.88308
▁ᐱᑯ	-6.89948
▁ᐊᐌᓀ	-6.90587
▁ᐐᑫ	-6.91083
ᐙᓐ	-6.93256
▁ᓂᑲ	-6.93339
▁ᒫᐗᒡ	-6.95668
▁ᒥᓯᐌ	-6.97086
ᒀ	-6.97253
ᑾ	-6.97448
▁ᐊᐊᐌ	-6.98853
ᐸᓐ	-6.99336
ᐊᔮ	-7.00488
ᔮ	-7.01701
ᔮᕽ	-7.02445
▁ᐅᐅᐌ	-7.03123
▁ᑳᑮᐅᒋ	-7.03474
▁ᑮᐃᔑ	-7.04818
▁ᐁᑮᐃᔑ	-7.04825
ᓈᓐ	-7.05486
▁ᑕᑲ	-7.06174
ᓴ	-7.07092
▁ᑾᔭᒃ	-7.0734
ᒥᓐ	-7.07406
▁ᑳᐐ	-7.0821
▁ᑫᔮᐱ	-7.08728
▁ᓇᐗ	-7.08988
ᐹ	-7.09458
▁ᑫᐅᒋ	-7.09468
▁ᒋᐅᒋ	-7.09713
▁ᐌᒋ	-7.10203
ᓯᒃ	-7.11099
ᓭ	-7.11244
▁ᒨᔕᒃ	-7.12041
▁ᒣᒀ	-7.12213
ᔭᕽ	-7.12741
ᐯ	-7.12774
ᑴ	-7.13788
▁ᑮᐃᑭᑐ᙮	-7.14911
▁ᐗᐊ	-7.1503
▁ᑫᔑ	-7.15054
▁ᐅᑮᐃᓈᐞ᙮	-7.16151
▁ᐊᐎᔭᒃ	-7.1747
▁ᐃᓇᔥᑫ	-7.18
▁ᐆᑌᓈᕽ	-7.18934
▁ᓃᐱᐗᐞ	-7.19099
ᒦ	-7.19189
▁ᐌᑯᓀᓐ	-7.20312
ᓱ	-7.20612
▁ᑮᐃᑭᑐ	-7.23141
▁ᐊᐗᔑᒣ	-7.23235
ᑰ	-7.23762
ᔭ	-7.23988
▁ᑭᔐᒪᓂᑑᓐ᙮	-7.24386
ᐐ	-7.25176
ᓇᓐ	-7.25431
ᒃ᙮	-7.26015
ᐎᓂᕽ	-7.26044
▁ᐅᑮᐃᓈᓐ᙮	-7.27844
▁ᐋᓂᑕ	-7.28202
▁ᐅᓄ	-7.28281
▁ᑮᐊᓂ	-7.28843
▁ᐊᔮ	-7.30746
▁ᒪᔮ	-7.31109
▁ᐅᑭᑭᓄᐊᒪᐙᑲᓇᐞ	-7.3137
▁ᐯᒫᑎᓯᐙᒡ	-7.32302
▁ᐁᐃᔑ	-7.33773
ᑭᓐ	-7.33834
▁ᐱ	-7.34129
ᓵ	-7.35032
▁ᐊᐎᔭᓐ	-7.36319
ᑣ	-7.36634
▁ᓇ	-7.37924
ᓅ	-7.38177
▁ᐅᑯᓯᓴᓐ	-7.38233
ᔥᑭ	-7.38334
▁ᐊᐎᔭᐞ	-7.39339
ᓯᒀ	-7.39916
ᒧ	-7.41613
▁ᐁᐊᓂ	-7.41844
ᓃ	-7.42206
▁ᐯᒫᑎᓯᓂᒡ	-7.4224
ᔦᒃ᙮	-7.42271
▁ᐃᑴ	-7.42406
▁ᒥᓂᒃ	-7.42845
ᒋᑫ	-7.43629
▁ᐲᓂ	-7.44648
ᑐ	-7.4475
▁ᑆᓬ	-7.44771
▁ᑭᒋᑮᔑᑯᕽ	-7.44913
▁ᑳᐃᓈᒡ	-7.44943
▁ᐅᑯ	-7.45609
ᐗᐞ	-7.45782
▁ᒫ	-7.47528
ᓂᒃ	-7.47557
▁ᐸᑳ	-7.48316
▁ᐊᒦ	-7.48355
ᐙᐞ	-7.48804
▁ᒎᐗᒃ	-7.48867
▁ᑫᑰᓂᓂ	-7.48867
ᒫᒃ	-7.4913
▁ᐃᑭᑐ	-7.49349
ᒥᓐᒡ	-7.49447
ᒌ	-7.49675
▁ᑫᑰᓇᓐ	-7.50269
ᔕ	-7.5125
▁ᐃᓴ	-7.51335
▁ᐃᓇᑫ	-7.52021
▁ᑮᐅᒋ	-7.52765
ᐱᒫᑎᓯ	-7.53053
▁ᐋᑎ	-7.54042
▁ᑭᑖ	-7.54043
▁ᑎᓄ	-7.54705
ᑕᓐ	-7.55026
▁ᐲᑕᕒ	-7.55325
▁ᓂᑕᒻ	-7.55383
ᐗᒃ᙮	-7.55611
▁ᒋᐃᔑ	-7.55771
ᐌᓂᐗᒃ	-7.56772
ᐗᕽ	-7.57287
▁ᒋᓴᓲᓐ᙮	-7.58337
▁ᒉᕒᐆᓴᓬᐊᒥᕽ	-7.58346
ᓯᐌᒃ	-7.58571
▁ᑫᐐ	-7.5938
▁ᔐ	-7.60144
ᐎᓂᓂ	-7.61202
ᐌᐌᓂ	-7.61472
▁ᐅᑕᒑᑾᓐ	-7.63033
ᓰᓐ	-7.63138
▁ᑯᒫ	-7.65221
▁ᐅᑮᐃᔑ	-7.65437
▁ᒞᓐ	-7.65478
▁ᒋᑮ	-7.659
;	-7.67134
▁ᐹᓂᒫ	-7.67135
▁ᐃᐃᐌᓂ	-7.67258
▁ᒦᐃ	-7.67471
ᒣᒃ	-7.67546
ᑰᓐ	-7.67851
▁ᐃᓂᓂᐗᓐ	-7.67879
ᔥᑲ	-7.67897
ᓀᒃ	-7.68013
▁ᑳᑎᐯᒋᑫᓂᒡ	-7.68145
▁ᑳᑮᐱ	-7.68444
▁ᑳᐱ	-7.69843
ᑫᒃ	-7.69866
▁ᒪᒋ	-7.72182
▁ᐊᓂ	-7.72269
▁ᒦᓴ	-7.72367
▁ᐅᑌᐺᑕᒨᒃ	-7.72383
▁ᐐᓇᐙ	-7.73159
ᑭᒋ	-7.73647
ᑌᐺ	-7.73756
▁ᐅᓇᔓᐌᐎᓐ	-7.74525
ᐎᓇᓐ	-7.75745
ᓂᓂᒃ	-7.76599
ᐐᒋ	-7.76662
ᑕᐎ	-7.77553
▁ᑫᑮᓇᐙ	-7.77694
▁ᐋ	-7.77937
ᒨ	-7.78043
▁ᑮᐊᔮ	-7.7813
ᐋᒡ	-7.79253
▁ᐅᑮᐃᓈᐞ	-7.79257
▁ᐅᑮᐃᓈᓐ	-7.79387
ᒧᐙᒡ	-7.79828
ᑦ	-7.80501
ᔒ	-7.80506
▁ᐃᔑᒋᑫ	-7.80949
▁ᒎᐗᐞ	-7.81136
▁ᐃᓂᓂᐗᒃ	-7.81491
▁ᑫᐃᔑ	-7.81923
▁ᐅᑮᐃᑰᓐ᙮	-7.82245
ᓐ᙮	-7.82885
ᐌᒃ	-7.83032
▁ᓃᓇᐎᓐᑦ	-7.8441
▁ᐁᑮᐃᓈᒡ	-7.84411
ᔮᓐ᙮	-7.84928
▁ᐋᓇ	-7.85309
ᐳ	-7.85919
▁ᑳᑕᔑ	-7.86055
ᑭᐸᓐ	-7.86491
ᑎᓄᐎ	-7.86519
ᓯᓂᒃ	-7.87209
ᑯᒡ	-7.87391
ᓰᒻ	-7.87669
▁ᑲᑴ	-7.87717
▁ᓂᑖ	-7.87828
▁ᑖ	-7.88272
ᕒ	-7.88459
▁ᐋᓇᐐ	-7.88501
ᓈᑯᓯ	-7.8906
▁ᐯᐸᑳ	-7.89116
▁ᑮᓇᐎᓐᑦ	-7.89501
ᑕᕽ	-7.89959
▁ᑳᐊᔮᐙᒡ	-7.90132
▁ᐁᑮᐊᓂ	-7.90785
▁ᐅᑭᒋ	-7.90803
ᒥᓄ	-7.9105
ᒪᒋ	-7.91072
ᔖ	-7.91694
▁ᐅᑖ	-7.91918
▁ᑮᐌ	-7.92193
ᓰ᙮	-7.92221
ᓂᑯ	-7.92254
ᐙᐱ	-7.92287
ᑕᑯ	-7.92465
▁ᐅᑎ	-7.92719
▁ᐁᐱ	-7.92838
▁ᑭᑎᔑ	-7.93629
▁ᑮᐱ	-7.93743
▁ᒋᐱ	-7.94103
ᐎᓂ	-7.9514
ᑕᐌ	-7.95293
ᑴᓐ	-7.95931
▁ᒋᑆ	-7.96245
ᓅᑕ	-7.96416
ᓇᐃ	-7.9712
ᐴ	-7.97289
ᓰᐗᒃ	-7.97615
ᓃᔑᓐ	-7.97677
▁ᑳᑭᒋ	-7.97846
ᓂᕽ	-7.98111
ᒣ	-7.98355
ᑾᒃ	-7.98398
ᒪᐎ	-7.98605
ᑖᓐ	-7.98754
▁ᐊᑭ	-7.99039
ᐐᒌ	-7.99592
ᑕᔑ	-7.99921
ᐊᓄᑮ	-7.99939
ᓂᓂ	-8.00132
▁ᒨᓯᔅ	-8.00531
▁ᑲ	-8.00837
ᑕᒧᐙᒡ	-8.01012
▁ᓈ	-8.0125
ᐎᓐ᙮	-8.01536
▁ᑕᔑ	-8.01542
ᐗᓂ	-8.01608
ᑕᒪ	-8.02084
▁ᐱᒫᑎᓯᐎᓐ	-8.02171
▁ᐁᑮᐅᒋ	-8.02412
ᐅᒋ	-8.02662
ᑲᑴ	-8.02862
ᒪᔑ	-8.02878
▁ᒥᓍᒋᒧᐎᓐ	-8.03283
ᑕᒪᐙ	-8.03658
ᓈᐙ	-8.03791
ᕽ᙮	-8.04004
▁ᑌᐯᒋᑫᔭᓐ	-8.04092
▁ᔖᑰ	-8.04413
▁ᑳᐃ	-8.04888
ᓇᕽ	-8.04914
ᓃᕽ	-8.05809
ᑮᐅᑌᑌ	-8.06142
▁ᒣ	-8.06509
▁ᓂᑌᑌ	-8.06669
ᒥᓂᒡ	-8.06994
ᑑᒡ	-8.07544
ᑲᓐ	-8.08119
ᑳᓱ	-8.08554
ᐸᒥ	-8.0888
▁ᑭᒋᐅᑭᒫ	-8.09065
ᒫᒡ	-8.09125
▁ᐃᓂᐌᓂᐗᐞ	-8.09157
▁ᐃᓀᑖᑯᓯ	-8.09617
▁ᐃᓈᑯᓂᑫᐎᓐ	-8.10327
ᒫᓐ	-8.10667
▁ᐊᑮᕽ᙮	-8.11315
ᐤ	-8.11336
▁ᑫᐐᓇᐙ	-8.1162
ᒪᓐ	-8.11908
▁ᐊᔮᓂᒡ	-8.1195
▁ᑮᐃᔖ	-8.11952
ᑯᐸᓀᓐ	-8.12183
ᓰᒥᓐ	-8.12242
ᐙᒃ	-8.12775
▁ᐁᑮᐱ	-8.13449
▁ᐁᐅᒋ	-8.1391
ᓈᐱ	-8.14135
▁ᐯᔓ	-8.14276
▁ᐅᑕᒑᑯᓂ	-8.15076
▁ᐁᒐᓬ	-8.15598
▁ᑫᓃᓐ	-8.15612
▁ᐄᓴᓐ	-8.15617
▁ᐅᑕ	-8.15802
ᑯᐙ	-8.1607
▁ᑮᑭᒋ	-8.16191
▁ᐸᑮ	-8.17086
▁ᓃ	-8.17203
ᑕᒧ	-8.17373
▁ᑳᐃᔥᒀ	-8.17564
▁ᑭᑎ	-8.17797
▁ᐅᑮᐃᑰᐞ᙮	-8.17866
▁ᐱᓵᓐ	-8.18357
▁ᐁᑕᔑ	-8.18421
ᔭᓐ᙮	-8.18977
ᒫᒋ	-8.19218
ᑕᒥᓂᒡ	-8.19336
▁3	-8.19857
▁ᐸ	-8.2006
ᔦ	-8.20319
ᓍ	-8.2084
▁ᑫᑮ	-8.21134
▁ᐅᒫ	-8.21302
ᐲᐎ	-8.21307
▁2	-8.21355
▁ᑳᐃᑭᑐᒡ	-8.21481
ᓀᒀ	-8.21637
▁ᐅᑑ	-8.22607
▁ᑭᒋᒪᓯᓇᐃᑲᓐ	-8.22639
▁ᐅᑖᓈᕽ	-8.22647
▁ᐃᑴᐗᓐ	-8.23176
▁ᐯ	-8.23525
ᓵᑭᐃ	-8.23569
▁ᑭᒋᐊᓇᒥᐁᐎᑲᒥᑯᕽ	-8.2381
ᓂᓯᑐᑕ	-8.23894
ᒪᕽ	-8.24042
▁ᑭᑭᓄᐊᒪᐙᑲᓇᒃ	-8.24092
▁ᐃᓈ	-8.24179
ᓅᒋᑯ	-8.24325
▁ᐅᑭᑭᓄᐊᒫᑫ	-8.2445
▁ᒪ	-8.24457
ᓴᓐ	-8.24746
▁ᐁᑭᒋ	-8.24892
▁ᓇᑫ	-8.24975
ᓉ	-8.25087
▁ᑭᐐ	-8.2537
ᒪᒃ	-8.25489
▁ᐙ	-8.25626
ᑭᑭ	-8.26164
▁ᑕᑯ	-8.26289
ᓂᓂᒻ	-8.2648
▁ᐅᑮᐅᒋ	-8.26506
ᑰᔦᒃ	-8.26561
ᒻ᙮	-8.26748
ᑲᓂᐎ	-8.26757
▁ᒞᓇᓐ	-8.27089
▁ᐃᔑᐲᐃᑳᑌ	-8.27089
▁ᒦᒋᒻ	-8.27123
▁ᒫᒌ	-8.27329
▁ᑫᑳ	-8.27399
ᐃᔑ	-8.27445
ᐅᑎᓯ	-8.28865
▁ᐱᒫᑎᓯ	-8.29009
▁ᑮᐃᑭᑐᐗᒃ᙮	-8.29398
ᑲᔥᑭᑑ	-8.29811
▁ᑳᐅ	-8.29875
▁ᐃᔖ	-8.30231
▁ᐌ	-8.30241
ᐃᓇ	-8.30368
ᑎᐱ	-8.30374
ᐗᒡ	-8.3039
ᓯᐙᓐ	-8.30545
▁ᐃᓂᓂᐗᐞ	-8.30851
▁ᐹ	-8.31715
▁ᐅᑌᐺᑕᒨᐞ	-8.31762
▁ᑫᒋᓈᒡ	-8.31773
ᓯᓅᓐ	-8.32118
ᒦᓈ	-8.32309
ᒋᑳᑌᒃ	-8.32382
▁ᑮᔑᑲᓂᓂᒃ	-8.32576
ᑭᑭᓄᐊᒫᑫ	-8.32764
ᐃᐌ	-8.33368
ᓭᒃ	-8.3378
ᐸᑕ	-8.33799
ᒦᓈᒡ	-8.33824
ᓯᕽ	-8.33876
▁ᐋᓃ	-8.33899
▁ᑳᐃᑯᒡ	-8.34208
▁ᑳᑭᑭᓄᐊᒫᑫ	-8.34309
▁ᒥᓴᐙ	-8.34999
ᒥᑰ	-8.35146
▁ᐁᔑᓈᑾᒃ	-8.35234
ᑰᒻ	-8.357
ᑭᓯ	-8.35734
▁ᑳᓂᑖ	-8.36016
ᒪᑲᒃ	-8.36263
ᐐᒌᐙ	-8.3635
ᐙᐸᒫᒡ	-8.36637
ᐃᑎᓱ	-8.36962
▁ᐁᐲᒋ	-8.37174
ᔫ	-8.3723
▁ᑮᔑᒃ	-8.38071
▁ᐃᔥᐱᒥᕽ	-8.38345
▁ᓵᐃᒪᓐ	-8.38349
ᒨᔥᑭᓀ	-8.39278
ᓈᑾᓂᓂᒃ	-8.39776
▁ᐁᐸᕒᐊᐋᒻ	-8.40062
▁ᐋᓂᓐᑦ	-8.40062
▁ᒥᑖᔂᒃ	-8.40226
▁ᒥᓄ	-8.40419
▁ᑳᑕᔑᔦᒃ	-8.40847
ᒫᒪᐎ	-8.41113
▁ᓂᐐ	-8.41365
ᑑᓐ	-8.41417
▁ᐃᓂᐌᓂᐗᓐ	-8.41809
ᓈᐙᓐ	-8.41875
▁ᑳᐊᓂ	-8.42109
▁ᐁᐅ	-8.4223
▁ᐃᔥᒀᒡ	-8.4231
▁ᐅᑮᐃᑰᓐ	-8.42312
▁ᐅᒌ	-8.42764
ᑮᑭᑐ	-8.42841
ᓂᑭᓐ	-8.43115
ᐃᑯ	-8.43121
ᔮᕽ᙮	-8.43216
ᑫᓐ	-8.43597
ᑕᒪᐙᒡ	-8.43686
ᑳᐸᐎ	-8.43746
ᑯᓈᓐ	-8.43797
▁ᒋᐃᔑᒋᑫ	-8.43818
ᐃᔖ	-8.43933
ᐞ᙮	-8.44248
ᓈᓂᐗᕽ	-8.44524
▁ᐙᐸ	-8.44664
ᔑᓐ	-8.44713
ᓂᑖ	-8.44764
ᔐ	-8.44794
▁ᑭᔐᒪᓂᑑ᙮	-8.4503
ᑲᒀᑕᑭᐃ	-8.45125
ᑉ	-8.45394
▁ᒣᐎᔕ	-8.45397
▁ᒫᐐᓐ	-8.45399
▁ᐱᓵᓂ	-8.45768
ᑎᐯᓂᒥᑯ	-8.45929
ᓯᓄᒃ	-8.45958
▁ᐅᑮᐱ	-8.45991
ᓃᑳᓂ	-8.46339
▁ᒥ	-8.46443
ᓂᔑ	-8.46964
▁ᑎᐱᓇᐌ	-8.47229
▁ᐅᓵ	-8.47363
▁ᐅᔑ	-8.48052
ᒦᓂᑰ	-8.48277
▁ᓇᐃ	-8.48689
▁ᔔᓂᔮᓐ	-8.4875
ᓯᓂᓂᒃ	-8.49097
▁ᒪᒋᐊᒑᑾᐞ	-8.49118
▁ᑳᒎᐎᐎᓯᒀ	-8.4915
ᓇᑰᒃ	-8.49263
▁ᐯᕒᐊᓰᒃ	-8.49314
▁ᐁᑮᐃᑭᑐᒡ	-8.49361
ᓂᓂᑭᓐ	-8.49414
▁ᐆᑌᓇ	-8.4955
ᒋᑳᑌᓂᒃ	-8.49622
▁ᐅᐅᐌᓂ	-8.49654
▁ᔔᓂᔮ	-8.49719
ᑑᐙᒡ	-8.49929
ᓇᐌ	-8.49979
ᐃᑰ	-8.50012
▁ᐐᒋ	-8.50024
ᒥᒡ	-8.50593
ᓂᒥᓐᒡ	-8.51064
ᐙᐸᓐ	-8.51112
▁ᓂᐱ	-8.51479
ᔭᐄ	-8.51622
▁ᐲ	-8.51738
ᑫᒡ	-8.51811
ᓈᒡ	-8.51811
▁ᒋᓂ	-8.52038
▁ᒫᒑ	-8.52084
▁ᐁᐃ	-8.52201
ᓂᑖᐎᑭ	-8.52244
▁ᐐᐸ	-8.52414
ᐅᓇ	-8.52594
▁ᑌᐺᐎᓐ	-8.52634
ᒥᓂ	-8.5274
ᐯᔑᑯ	-8.52959
▁ᐹᐃᓬᐊᑦ	-8.52983
▁ᐋᐱᑎᕽ	-8.52983
ᔦᑭᐸᓐ	-8.53091
▁ᑭᐐᑕᒪᐎᓂᓂᒻ	-8.53107
▁ᐅᒋ᙮	-8.53395
ᑕᒣᒃ	-8.53724
ᑾᔭᑯ	-8.53944
ᒥᒋ	-8.54112
▁ᐃᑴᐗᒃ	-8.54164
ᓂᓐᒡ	-8.54442
ᑕᐙ	-8.54569
ᐐᑎᑫ	-8.54714
▁ᐲᑎᑫ	-8.5478
▁ᓂᑎᔑ	-8.54825
ᐱᓈ	-8.54904
ᑏ	-8.54946
▁ᐱᔑᔑᒃ	-8.54973
▁ᐅᓄᐌᓂᐗᓐ	-8.54973
ᐗᓐ᙮	-8.55139
▁ᐊᐙᒡ	-8.55144
ᑕᒫᓐ	-8.5516
ᓈᓂᒃ	-8.55263
ᐃᑯᒡ	-8.55549
▁ᐁᑕᓱ	-8.55947
ᑯᕽ	-8.5607
▁ᒋᐊ	-8.5609
ᔖᑰᒋ	-8.56384
ᒥᓂᑴ	-8.56469
ᑫᓂ	-8.56579
ᑳᑌ	-8.56626
ᑮᐌ	-8.56729
▁ᑕᐅᒋ	-8.56956
▁ᐅᒫᒫᓐ	-8.57053
ᑲᓇᓐ	-8.57057
▁ᓃᔣᓱ	-8.57299
ᐊᐱ	-8.5744
▁ᑳᐊ	-8.57576
▁ᐃᔑᓭᒃ	-8.57693
▁ᑳᐊᐲᒋ	-8.57699
ᓱᒡ	-8.57962
▁ᒋᐅ	-8.57975
ᐊᒀ	-8.58049
▁ᐁᓂ	-8.58051
▁ᐌᑯᓀ	-8.58054
ᒪᔥᑲᐎᓰ	-8.58121
ᑯᓂᒡ	-8.58627
ᑌᓂᒃ	-8.58855
▁ᐐᓯᓂ	-8.58918
ᒬ	-8.59076
▁ᒫᑭᔖ	-8.59077
▁ᒣᕒᐃ	-8.59085
▁7	-8.59117
▁ᑭᑑᒋ	-8.59281
ᑮᔗ	-8.59642
▁ᐁᑮᐃᑯᒡ	-8.59782
ᑎᐯᓂᒥ	-8.60703
ᐊᔨ	-8.60889
ᒧᒃ	-8.61
▁ᑆᓬᐊᓐ	-8.61215
▁ᑭᑑ	-8.61523
ᐃᑯᐙ	-8.61526
▁ᐁᑮᐊᐎ	-8.61661
ᐎᓂᐙᓐ	-8.61732
ᑰᒃ	-8.61789
▁ᒥᒋ	-8.61933
ᐊᑕᐌᑕ	-8.62199
▁ᑕᐃᔑ	-8.62961
ᒋᑫᐙᒡ	-8.62996
ᑎᐯᒋᑫ	-8.63413
ᑭᓐ᙮	-8.63492
▁ᒋᐐ	-8.63539
▁ᐊᐌᓀᓇ	-8.63603
ᐆ	-8.63926
ᔭᕽ᙮	-8.64092
ᑖᓈᐙ	-8.642
ᓂᔕᐅ	-8.64419
ᑰᔭᓐ	-8.64672
ᓈᑾᒃ	-8.64764
▁ᐁᔮ	-8.65068
ᐲᐃ	-8.65131
ᐋᐙᒡ	-8.65232
▁ᑫᒫ	-8.6524
▁ᐅᔥᑭ	-8.65554
▁ᒪᒋᐊᒑᑾᓐ	-8.65565
▁ᔑᒫᑲᓂᔕᒃ	-8.65565
▁ᐌᔫᓯᒥᓐᒡ	-8.65571
▁ᑲᓇᑫ	-8.65581
ᓇᐎ	-8.65612
▁ᒦᐃᐌ	-8.65652
▁ᓂᐳᐎᓐ	-8.65708
▁ᐙᓴ	-8.65722
ᓇᒃ	-8.65752
▁ᐆᑌᓈᕽ᙮	-8.65981
ᐙᐸᒫ	-8.66354
ᓅᓐ	-8.66378
▁ᑕᓱ	-8.66403
ᑲᒀᑕᑭᑑ	-8.66518
ᑎᕽ	-8.6699
ᒫᔑ	-8.67054
▁ᐃᑭᑐᒡ	-8.67513
ᓅᓂ	-8.67659
ᑰᐞ	-8.67764
▁ᐅᑎᑭᑐᐎᓐ	-8.67825
▁ᐱᒌᓇᒃ	-8.67825
▁ᑮᐃᑭᑐᐗᒃ	-8.68152
ᐁ	-8.68502
▁ᐊᐱ	-8.68884
ᐃᑣ	-8.69071
ᐙᐸᑕᒧᐙᒡ	-8.69273
ᐎᓂᐙ	-8.69294
ᑲᓂᓂ	-8.6933
▁ᐊᔮᐙᒡ	-8.69354
ᕒᐊ	-8.69383
ᑖᒻ	-8.69506
ᐎᒡ	-8.69714
ᒪᒋᑑᑕ	-8.69809
ᔓ	-8.69891
▁ᐅᑌᑌᓐ	-8.70137
▁ᓂᑎ	-8.70209
ᔭᔮ	-8.70382
ᑯᐸᓐ	-8.70953
▁ᑮᔑᑲᒃ	-8.71202
ᓐᒡ	-8.71441
ᒋᑲᓂᐎᒡ	-8.7157
▁ᑫᓂ	-8.71613
▁ᒋᐊᓂ	-8.7194
ᓈᓂᕽ	-8.71952
▁ᑳᐊᔮᒡ	-8.71962
ᐊᔮᐙᒡ	-8.72282
▁ᐯᒫᑎᓯᓂᒡ᙮	-8.72295
ᑎᒃ	-8.72326
▁ᐅᑎᔑ	-8.72383
ᐊᔮᒡ	-8.72498
ᐅᑖᐱᓂ	-8.725
▁ᐸᑴᔑᑲᓇᓐ	-8.72504
▁ᐗᐐᑫ	-8.72504
▁ᐊᐸᓀ	-8.72506
▁ᓂᐳᐎᓂᕽ	-8.72509
▁ᓂᑑᒋ	-8.72663
▁ᐁᐃᑭᑐᒡ	-8.72695
ᓰᐗᒃ᙮	-8.72729
▁ᒋᑕᔑ	-8.73377
ᒥᓄᒋᑫ	-8.73387
▁ᑭᔐᒪᓂᑑᕽ	-8.73396
ᑎᐙᒡ	-8.73426
ᓵᑭᐋ	-8.73571
▁ᑭᑕ	-8.73664
ᑭᑑ	-8.73703
ᓂᑎᓱ	-8.7384
ᒫᒥᑲᐎ	-8.7397
ᒫᒌ	-8.74024
▁ᒪᒋᑑᑕᒧᐎᓐ	-8.74152
ᓰᒻ᙮	-8.74258
ᓂᐳᒡ	-8.74743
ᐅᑖᐱᓈ	-8.74794
▁ᐊᓄᑮᐋᑲᓐ	-8.74929
▁ᐊᑮᓂ	-8.74934
▁ᐁᕒᐊᑦ	-8.74939
▁ᑳᑎᐯᓂᒥᓇᕽ	-8.7497
▁ᑳᐐᐃᔑ	-8.75046
▁ᐅᑯᓯᓯ	-8.75145
▁ᑭᑎᑳᓀᓴᓐ	-8.75161
ᑭᒫ	-8.75382
▁ᑌ	-8.76136
▁ᑳᑮᐃ	-8.76505
▁ᐃᔥᑯᑌ	-8.76849
ᐎᓂᐙᕽ	-8.76972
▁ᒋᐐᒋ	-8.77022
▁ᐸᑴᔑᑲᓐ	-8.77413
▁ᒎᓴᑉ	-8.77413
▁ᐁᒐᓬᐊᒃ	-8.77415
▁ᐅᐱᒫᑎᓯᐎᓐ	-8.77417
▁ᐊᒋᓇ	-8.77417
▁ᒎᑕᔅ	-8.77472
ᒦᓂᑰᐎᓯ	-8.77478
ᐗᓂᓂ	-8.7751
ᓯᒡ	-8.77628
ᐎᓂᕽ᙮	-8.77835
ᐙᐸᑕᕽ	-8.7801
ᓯᐗᕽ	-8.7804
ᑎᐸᓐ	-8.78143
▁ᑫᒋ	-8.7815
ᑕᒫᕽ	-8.78874
ᓭᓂᒃ	-8.78987
▁ᐅᑕᔮ	-8.7957
▁ᐐᐗᓐ	-8.79682
▁ᑫᐃᔑᒋᑫ	-8.7986
ᑸ	-8.79937
▁ᐲᑕᕒᐆᓐ	-8.79962
ᐱᒥᓂᔕᐅ	-8.79977
ᒋᑲᓂᐎ	-8.80095
ᐊᓇᒥᐋ	-8.80193
▁ᑭᑮᐃᔑ	-8.8021
ᐸᓐ᙮	-8.80213
▁ᐅᑮᐙᐸᒫ	-8.804
▁ᑭᒋᐊᓇᒥᐁᐎᑭᒫᒃ	-8.80409
ᐗᒀ	-8.80587
ᑲᐎ	-8.81095
ᑑᑕᒥᓂᒡ	-8.81202
ᔕᔒ	-8.81261
ᐊᑕ	-8.81376
ᐊᔮᔮᓐ	-8.81546
ᓈᑯᓯᒡ	-8.81563
ᐋᐞ	-8.81717
ᓅᒋ	-8.81756
ᒫᐞ	-8.8209
ᐃᕽ	-8.8228
ᐗᐞ᙮	-8.82337
▁ᐗ	-8.82462
ᒣᔥᑾᒡ	-8.82576
▁ᑭᓉᔥ	-8.82577
▁ᑳᒎᐎᐎᓯᓂᒃ	-8.82614
ᐸᑭᑎᓈ	-8.8263
▁ᐃᑯᒋ	-8.82923
ᐌᐱᓈ	-8.82963
▁ᑳᑎᐯᑕᕽ	-8.82984
ᓵᒥ	-8.83008
ᔑᓈᒻ	-8.83287
ᐊᐲ	-8.83432
ᐃᓇᑭ	-8.83494
▁ᑮᐃᔥᒀ	-8.83695
ᑳᕽ	-8.8392
▁ᑳᐃᔑᒋᑫ	-8.84107
ᑌᒃ	-8.84612
▁ᐃᔑᐊᔮ	-8.84626
▁ᑲᔥᑭᑑ	-8.84641
ᓰᓈᐙ	-8.84906
ᑭᑫᑕᒧ	-8.85063
ᑾᔭᒀᑎᓯ	-8.85081
▁ᐊᓈᒥ	-8.85218
▁ᒎᑏᔭ	-8.8526
ᑲᒥᒃ	-8.85499
ᑲᐌ	-8.85499
ᓰᐞ	-8.85575
▁ᔔᒥᓈᐳ	-8.85587
ᐐᒌᐎᑯᒡ	-8.85611
▁ᐁᑮᔑᑲᓂᓂᒃ	-8.85808
ᐙᕽ	-8.86025
ᐙᐙᒡ	-8.86777
ᐙᐸᒫᐙᒡ	-8.87062
ᑲᔥᑭᑑᒡ	-8.87197
ᐸᐹ	-8.87264
ᑎᐸᐊᒪᐙ	-8.87334
▁ᐃᓀᑖᑯᓯᒡ	-8.87406
▁ᒋᑕᑯ	-8.87687
ᑕᒫᓱ	-8.87904
ᒫᐗᒋᐃᑎᐙᒡ	-8.87951
ᔂ	-8.87991
ᓈᐙᒡ	-8.87992
ᓈᓈᑲᑕᐌᑕ	-8.88
▁ᑭᒋᑲᒦᕽ	-8.88019
▁ᐋᒋᑯ	-8.88026
ᑲᓇᐌ	-8.88076
▁ᑳᓂ	-8.88266
▁ᑖᑮ	-8.88342
ᓬᐃ	-8.88424
ᐅᑭᒫ	-8.88453
▁ᓃᒋ	-8.88465
▁ᐸᑭᑎᓈ	-8.88745
ᓂᑳᑌ	-8.88923
ᒥᑯᒡ	-8.88965
▁ᐸᑭᑎᓂ	-8.89078
ᑭᑭᓄᐊᒪᐙ	-8.89099
ᒋᑫᒡ	-8.89394
▁ᒪᒋᐊᔭᐋ	-8.8948
▁ᐁᔮᓂᒡ	-8.89832
ᐃᓀᓂᒥ	-8.89915
▁ᐯᔑᑯ	-8.89963
ᐊᐲᒋ	-8.8997
ᓇᒀ	-8.90094
▁ᐊᓇᒥᐁ	-8.90119
ᑎᐎᓐ	-8.90123
ᓅᑕᒧᐙᒡ	-8.90537
ᓇᑲᓈ	-8.90541
▁ᑳᐊᔮᓂᒡ	-8.9077
▁ᐊᓇᒥᐁᐎᑲᒥᑯᕽ	-8.90856
▁ᐅᑭᔐᐙᑎᓯᐎᓐ	-8.90856
▁ᐅᑎᔑᒋᑫᐎᓂ	-8.9087
▁ᐊᐴᔥᑫ	-8.9091
▁ᐊᓯᓐ	-8.90973
▁ᐅᑯᐌᓂᐗᒃ	-8.91086
ᔭᒥᓐᒡ	-8.91166
ᓬ	-8.91282
ᓯᓂᓂ	-8.91288
ᑎᐹᒋᒧ	-8.91342
ᒥᒃ	-8.91622
ᑾᓐ	-8.91664
ᓈᑯᓯᓂᒡ	-8.91742
ᓈᕽ	-8.91973
ᔮᐹᓐ	-8.91994
ᒫᒪᑳᒋ	-8.92222
ᐃᑯᐙᒡ	-8.92432
ᐐᒌᐙᒡ	-8.92624
ᐊᔮᓂᒃ	-8.9274
ᓈᑾᓂᓂ	-8.9276
▁ᐃᔑᓂᔕᐅ	-8.92877
▁ᐁᐃᔑᒋᑫ	-8.93207
▁ᒋᑲᑴ	-8.93214
▁ᑭᑲᐃᔑ	-8.93238
ᑭᑖ	-8.93283
ᑎᔦᒃ	-8.93496
ᒫᕽ	-8.9354
▁ᐙᑳᐃᑲᓂᕽ	-8.93778
▁ᐱᓇᒫ	-8.93778
▁ᐁᒐᓬᐊᓐ	-8.93792
▁ᑮᔑᑯᕽ	-8.93793
▁ᑌᐱᑦ	-8.9381
ᒨᒃ	-8.93838
▁ᑳᓬᐊᓬᐄᕽ	-8.939
▁ᐊᐤ	-8.9409
ᐱᒫᑎᓯᐙᒡ	-8.94176
▁ᓰ	-8.94365
ᐸᑭᑎᓂᑫ	-8.94649
▁ᒥᓂᑴ	-8.94836
▁ᐅᓵᐎ	-8.95067
ᐸᑫ	-8.95107
ᓅᑌᓭ	-8.9519
▁ᓂᑖᐎᑭ	-8.95268
ᑌᐺᑕᐙ	-8.9536
ᒦᑭᐌ	-8.95524
ᑖᑾᒃ	-8.95711
▁ᐲᔖ	-8.95716
ᓯᐙᐙᓐ	-8.96001
▁ᑮᐊ	-8.96522
ᒪᔥᑲᐎ	-8.96604
▁ᓂᑮᐃᔑ	-8.96632
▁ᑫᑮᐃᔑ	-8.96738
ᑖᒥᓐ	-8.96766
ᔔ	-8.96781
▁ᓃᒋᐅᑌᐺᑕᒨᒃ	-8.96783
▁ᐁᑮᐃᔖᒡ	-8.96801
ᑎᐱᓇᐌᐎᓯ	-8.96803
ᑭᔒᐌ	-8.96839
ᓬᐊ	-8.96911
▁ᓃᔣ	-8.96948
ᓂᔥᑳᑎᓯ	-8.97106
ᓅᑌ	-8.9722
ᐗᑭᒡ	-8.97221
ᓂᓇᑰᒃ	-8.97544
ᓅᑕᒣᒃ	-8.97604
▁ᑕᐱ	-8.97605
ᒣᒀ	-8.97643
ᑕᓄ	-8.97724
ᐊᔮᒃ	-8.97923
ᐱᒧᓭ	-8.98042
ᒦᓂᑯᒡ	-8.98127
ᒨᔥᑭᓀᔥᑳᑯ	-8.98182
▁ᓂᑑ	-8.9827
ᐊᓂᔖ	-8.98376
ᒥᓐ᙮	-8.98479
ᓯᒀ᙮	-8.98582
▁ᐅᑮᐃᓈᐙᓐ᙮	-8.98692
ᒪᑗ	-8.98941
▁ᑳᒪᒋ	-8.9903
▁ᑮᑕᔑ	-8.9916
ᐌᒀ	-8.99253
ᐱᐅᒌ	-8.99571
ᓈᓯᑲ	-8.99731
ᑲᑴᒋᒫ	-8.9988
▁ᒎᐎ	-8.99881
ᔩ	-8.99882
▁ᐅᑕᓄᑮᐋᑲᓇᐞ	-8.99884
▁ᐊᑾᒌᕽ	-8.99884
▁ᑲᔥᑭᐁᐎᓯᐎᓐ	-8.99884
▁ᒫᓇᒑᓂᔐᔅ	-8.99884
▁ᐃᔅᕒᐃᔭᓬᐊᒃ	-8.99885
▁ᔂᓬ	-8.99916
ᑕᒪᕽ	-8.99954
▁ᑮᐹᑏᓄᐗ	-9.00011
ᐃᑯᓈᓐ	-9.00206
▁ᑕᓂ	-9.00315
▁ᑳᑮᔑᑲᒃ	-9.00435
ᑎᓈ	-9.00482
ᑲᑭᑐ	-9.0063
ᑲᓅᑕᒪᐙᒡ	-9.00741
▁ᑲᓅᓈᐞ	-9.00766
ᓈᓐ᙮	-9.00836
▁ᒋᑭᒋ	-9.01106
▁ᐃᑭᑐᐎᓐ	-9.01129
▁ᓃᔑ	-9.01357
ᐐᑕᒫᑫ	-9.014
ᐃᓀᑖᑯᓯ	-9.01428
ᐐᒋᐃᐌ	-9.01668
ᐲᒋ	-9.01884
▁ᒋᔑ	-9.01974
▁ᐁᑮᒫᒌ	-9.02061
▁ᐊᑕ	-9.02256
▁ᐐᒌᐎ	-9.02308
ᒌᑫ	-9.02352
▁ᐊᔮᒡ	-9.02376
▁ᐁᑲᑴ	-9.02492
ᑰᔮᓐ	-9.02508
▁ᑮᒫᒌ	-9.02673
ᒥᓍᐸ	-9.02794
ᒥᓉ	-9.02958
ᐐᑕᒪᐎᓇᑰᒃ	-9.02998
▁ᐅᐙᑳᐃᑲᓂᓃᕽ	-9.03085
▁ᑫᑮᓇᐎᓐᑦ	-9.03085
ᑫᒀᓂᒃ	-9.03086
▁ᐋᔑᑌᔮᑎᑯᕽ	-9.0313
▁ᑭᑭᑫᑖᒻ	-9.03155
ᑭᒨᑎ	-9.03241
ᓯᐗᓐ	-9.03323
▁ᑭᑭ	-9.03405
▁ᑭᐱ	-9.03413
▁ᓂᑕᔮ	-9.03566
ᐅᒋᒋᓭᓂᒃ	-9.03607
ᓂᒃ᙮	-9.03612
ᓯᓂᒃ᙮	-9.03673
▁ᓂᓯᓐ	-9.03845
▁ᐃᓀᓂᒫ	-9.03864
▁ᓅ	-9.03974
ᓀᐱᒋ	-9.03981
ᑖᑾᓐ	-9.03992
ᒥᓴᐌ	-9.04097
ᑎᐯᓂᒫ	-9.04288
ᒋᑫᓂᒡ	-9.0431
▁ᓂᑮᐙᐸᒫ	-9.04424
ᑕᒫᑰ	-9.0445
ᑯᐙᓐ	-9.04486
ᐃᓀᒃ	-9.04529
ᑕᓐ᙮	-9.04658
ᐃᓐᒡ	-9.04924
ᓲ	-9.05165
ᐊᔮᔭᓐ	-9.0517
▁ᓃᑳ	-9.0525
ᒦᓂᓐᒡ	-9.05283
ᑲᓅᓈ	-9.05459
ᓇᓈ	-9.05771
▁ᐅᑭᒫ	-9.0582
ᒪᑲᓐ	-9.05886
ᐐᓯᓂᐙᒡ	-9.06018
▁ᒋᐲ	-9.06061
▁ᑲᓅᓈᒡ	-9.06118
▁ᒋᒥᓄ	-9.06233
ᐴᓀ	-9.06281
▁ᐊᐱᓅᒌᔕᓐ	-9.06391
,000	-9.06391
▁ᑲᕒᐄ	-9.06413
▁ᐃᓀᑖᑾᒃ	-9.06416
▁ᐲᑎᒃ	-9.06429
▁ᐅᓇᔓᐌᐎᓂᓂ	-9.06509
ᑰᐎᓐ	-9.06675
ᓂᓯᒥᓐᒡ	-9.06818
▁ᐱᒫᒋᐃᑰᐎ	-9.06818
ᐙᐸᑕᐃ	-9.06855
▁ᓂᑕ	-9.07032
ᐃᓀᑕ	-9.0716
ᑕᒧᒃ	-9.07169
▁ᐃᔑᓭ	-9.07352
ᐗᔦᔑ	-9.07437
▁ᑳᐅᒌᒡ	-9.07604
ᒫᐙᒡ	-9.07662
ᐴᓂ	-9.07671
ᐃᓀᑕᕽ	-9.07677
▁ᑲᓅ	-9.07679
ᔑᓈᑾᓂᓂᒃ	-9.07703
ᑑᑕᕽ	-9.07942
ᓇᑴ	-9.08354
▁ᑳᐃᔑᒋᑫᐙᒡ	-9.08439
▁ᑕᑯᔑᕽ	-9.08562
▁ᐅᒋᑕ	-9.08806
ᒪᒡ	-9.08813
▁ᑫᐃ	-9.08878
▁ᑳᒥᓄ	-9.08988
▁ᑭᑲᐅᒋ	-9.09512
▁ᐁᑮᐅ	-9.09566
ᒥᑯᔥᑳᑌᑕ	-9.09804
▁ᐁᐸᕒᐊᐋᒪᓐ	-9.0981
▁ᐃᓬᐋᐃᒐ	-9.0981
▁ᐊᒑᒃ	-9.0981
▁ᒨᓯᓲᓐ	-9.0981
▁ᒫᒪᑳᒋᒋᑫᐎᓇᓐ	-9.0981
ᑎᐹᒋᒫ	-9.0981
▁ᐁᒐᓬᐊᐞ	-9.09811
▁ᒣᑴᔭᐄ	-9.09819
▁ᐃᔑᓂᔕᐙᑲᓇᒃ	-9.09822
ᐐᑕᒪᐎ	-9.0986
ᓯᐗᒃ	-9.09898
▁ᐁᑮᐃᑭᑐᐙᒡ	-9.09931
ᒥᓄᐊᔮ	-9.10024
▁ᐅᑎᐯᒋᑫᐎᓐ	-9.10069
ᓄᕽ	-9.10095
ᐙᓐ᙮	-9.10114
▁ᓂᑮᐅᒋ	-9.10209
ᐃᑰᔦᒃ	-9.10356
▁ᐯᑭ	-9.1037
ᓀᑕ	-9.10533
ᑫᐙᒡ	-9.10607
▁ᑭᒋᐊᓇᒥᐁᐎᑭᒫ	-9.10738
ᓇᕽ᙮	-9.1076
ᓂᑯᒡ	-9.11026
ᐋᑯᓯ	-9.1104
▁ᐅᑯᓯᓯᒫ	-9.11045
▁ᐊᐎ	-9.11059
▁ᑌᐱ	-9.1108
ᑲᓂᕽ	-9.1117
ᑑᓂᒡ	-9.11189
ᑕᒫᑯᒡ	-9.11308
▁ᐸᐹ	-9.11943
▁ᑳᓵᑭ	-9.12108
ᑆ	-9.12458
▁ᑳᐃᔑᒋᑫᒡ	-9.12462
ᒥᓀᒃ	-9.12596
▁ᑭᑭᓄᐊᒫᑫ	-9.12613
ᒪᑲᑭᓐ	-9.12749
ᒫᓂᒡ	-9.12818
▁ᐊᓄᑮ	-9.12977
ᑕᓰᓐ	-9.13075
ᐃᓇᓄᑮ	-9.13278
▁ᐁᑎᐱᑲᓂᓂᒃ	-9.1335
▁ᐅᑎᓀᑕᒧᐎᓐ	-9.1335
▁ᐃᔅᕒᐃᔭᓬᐊᐞ	-9.1335
▁ᐅᕒᐆᒥᕽ	-9.13353
▁ᐃᔑᓂᔕᐙᑲᓇᐞ	-9.13354
▁ᑳᓵᑭᐃᓇᑰᒃ	-9.13368
ᑮᐌᐱᒫᑎᓯ	-9.13381
ᑲᔥᑭᑕᒫᓱ	-9.13422
ᐅᑭᒫᑲᑕ	-9.13448
▁ᒪᔥᑲᐎᓰᐎᓐ	-9.13462
▁ᑫᐱ	-9.13474
▁ᑮᐃᔑᒋᑫ	-9.13507
ᔭᔅ	-9.13531
▁ᐃᑭᑑᒪᑲᓐ	-9.13561
ᑕᐙᐙᒡ	-9.13637
▁ᐙᑳᐃᑲᓐ	-9.13671
ᒪᑲᓂᓂᒃ	-9.13684
ᐐᒌᐙᐙᒡ	-9.13759
▁ᑕᑭᒋ	-9.13794
ᔒᑫ	-9.13813
▁ᐃᐌᓂ	-9.13867
ᑑᔦᒃ	-9.14307
ᑕᓇᒥᐋ	-9.14423
▁ᐄ	-9.14478
▁ᒋᐊᐎ	-9.1466
▁ᑳᐱᒫᑎᓯᐙᒡ	-9.14674
▁ᑮᐃᑭᑐᐗᐞ᙮	-9.14736
▁ᒋᑮᐌ	-9.15071
▁ᐁᒥᒋ	-9.15172
ᑲᓅᓈᒡ	-9.15333
▁ᑳᐐᒋ	-9.15347
ᐋᓐ	-9.15378
ᐗᑭ	-9.16058
ᐐᑕᒫ	-9.16143
ᑯᓰᐙ	-9.16167
▁ᑫᑌ	-9.16427
▁ᐅᑮᐊᓂ	-9.16497
ᓂᐗᓐ	-9.16715
▁ᐱᒥ	-9.16798
ᐙᐸᑕᒣᒃ	-9.16882
ᒪᒥᔑ	-9.16924
ᒫᐗᒋᐃᑎᓂᒡ	-9.16978
▁ᐅᑑᑭᒫᒪᓐ	-9.1702
▁ᓂᑯᓯᔅ	-9.1702
▁12	-9.17021
▁ᐋᐱᑕ	-9.17027
▁ᓂᑯᒋ	-9.17051
▁ᑮᔑ	-9.17131
▁ᑎᐹᒋᒧᐎᓐ	-9.17262
▁ᐁᓈᓴᒦᓂᒡ	-9.17275
ᓂᓵᐙᒡ	-9.17334
▁ᑲᒀᑕᑭᑑ	-9.17345
ᔑᒡ	-9.17382
▁ᐁᐊᓉ	-9.17658
ᓯᑳ	-9.17788
▁ᐅᑮᒫᒌ	-9.1787
ᐊᓉᐱ	-9.17887
▁ᐃᓀᑖᑯᓯᐎᓐ	-9.17992
▁ᐙᐱ	-9.18003
▁ᑳᐊᔮᔦᒃ	-9.18192
ᒪᒀ	-9.18392
▁ᐁᐊᔮᒡ	-9.1865
ᓇᑰᒃ᙮	-9.18744
▁ᐅᑭᑭᓄᐊᒪᐙᑲᓇᐞ᙮	-9.18855
▁ᑮᐊᔮᐗᒃ	-9.18985
ᓰᒃ	-9.19073
ᐅᓇᐱ	-9.19859
▁ᐐᑕᒪᐎ	-9.20009
▁ᒦᐗ	-9.20568
ᓇᓈᑯᒫ	-9.20577
ᐸᑭᒌ	-9.20628
▁ᑮᐐ	-9.20746
ᓈᑾᑭᓐ	-9.20826
▁ᐅᑕᓄᑮᐋᑲᓇᓐ	-9.2083
▁ᑫᓃᓇᐎᓐᑦ	-9.2083
▁ᑳᐃᓇᑌᓂᒃ	-9.20844
▁ᐊᔮᒀᒥᓯᒃ	-9.20863
▁ᒌᒫᓂᕽ	-9.20902
ᑕᒧᐙ	-9.21001
ᓂᓯᓐᒡ	-9.21053
▁ᐃᑭᑐᐎᓇᓐ	-9.2107
ᑫᒋᓈᐅ	-9.21161
▁ᑭᑫᓂᒫ	-9.21194
ᑕᑯᔑᕽ	-9.21215
▁ᐁᔑᓈᑯᓯᒡ	-9.21333
▁ᓵᑭ	-9.21364
ᒪᓂ	-9.2138
▁ᑮᓯᔅ	-9.21552
ᒥᓇ	-9.21888
ᒪᑭᒡ	-9.21916
ᑭᑫᑕᒧᐙᒡ	-9.22024
ᓯᐌᒃ᙮	-9.22101
ᓭᓂ	-9.22146
ᒥᑣ	-9.22211
ᐌᓅᑎᓯ	-9.22235
ᓰᒥᓐ᙮	-9.22434
▁ᐅᑎᓈ	-9.22655
▁ᒪᒋᐊᔭᐋᓐ	-9.22768
▁ᑮᓂ	-9.22777
▁ᐃᔑᒋᑫᒡ	-9.22793
ᐊᔮᔦᒃ	-9.23153
ᒦᓂᓇᕽ	-9.23236
ᒋᑫᐎᓇᓐ	-9.23366
ᒥᓄᓭ	-9.23387
▁ᐁᑮᑭᒋ	-9.23527
▁ᐁᑲ	-9.23579
ᓂᔑᐌ	-9.23588
ᐙᐸᓂᓂᒃ	-9.23628
ᔕᔒᐱᑕ	-9.23706
▁ᐅᐐ	-9.23869
▁ᑳᑎᐯᒋᑫᓂᒡ᙮	-9.23976
▁ᓂᓱ	-9.23985
ᑲᓇ	-9.24125
ᒪᐤ	-9.24244
ᑖᐱᓇ	-9.24351
ᐱᓯᑕᐙ	-9.24418
▁ᑳᓇᑲ	-9.24573
ᑮᔑᒃ	-9.24617
▁ᐄᒋᐸᑮᕽ	-9.2479
▁ᐌᔩᑉ	-9.2479
▁ᐱᓬᐊᑉ	-9.2479
▁ᐁᔑᓂᑳᓱᓂᒡ	-9.24791
▁ᐅᐙᑳᐃᑲᓂᕽ	-9.24791
▁ᑳᐹᑏᓄᓂᒡ	-9.24794
▁ᓭᑕᓐ	-9.24812
▁ᓀ	-9.24831
▁ᐁᑮᐃᑭᑐᓂᒡ	-9.24909
ᑖᑯᒡ	-9.24954
▁ᐃᓀᑕᒧ	-9.24958
ᑫᒃ᙮	-9.24968
ᐅᓈ	-9.25135
ᑲᓇᐞ	-9.25153
ᐱᐊᑕ	-9.2535
ᓈᓂᐗᓂᓂᒃ	-9.25433
▁ᐁᓈᓴᒦᒡ	-9.25611
▁ᐁᓂᑯ	-9.25624
ᒥᓉᑕᒻ	-9.25636
▁ᐁᐋ	-9.25676
▁ᐅᐱᒫᑎᓰᒪᐞ	-9.257
▁ᔖᑯᐌ	-9.25704
ᐗᑭᐸᓐ	-9.25761
ᐹᑏᓄ	-9.25793
ᑎᐸᐊ	-9.25981
ᐊᕽ	-9.26017
ᓇᓐ᙮	-9.26093
ᒧᐌᒃ	-9.26144
ᕒᐃᔭ	-9.26153
▁ᑳᓬᐊᓬᐄᐎ	-9.26768
ᐃᓈᑯᓂᑫ	-9.26891
ᐱᒫᑎᓯᓂᒡ	-9.26977
ᐃᓈᑎᓯ	-9.27018
ᑕᔅ	-9.27026
ᐲᑎᑫ	-9.27138
▁ᒋᐱᒫᒋ	-9.27257
ᑑᑕᐙ	-9.27278
▁ᐁᐊ	-9.27447
▁ᐅᑕᓄᑮ	-9.27498
ᑌᑭᓐ	-9.27568
ᐃᔑᑮᔗ	-9.27753
▁ᔑᒫᑲᓂᔒᐎᑭᒫ	-9.2788
▁ᑳᓵᑭᐃ	-9.28035
▁ᐅᓃᑳᓂᓰ	-9.2812
ᐐᑾ	-9.28239
▁ᐁᑭ	-9.28612
ᑐᓀ	-9.2887
ᔛ	-9.28915
▁ᐋᐃᓭᔭ	-9.28915
▁ᐹᕒᓇᐸᔅ	-9.28915
▁ᓇᐃᓂᑏᐎᑲᒥᑯᕽ	-9.28915
▁ᑎᒪᑎ	-9.28915
▁ᑭᒋᐅᑭᒫᓐ	-9.28915
▁ᐃᔑᓈᑾᓐ	-9.28915
▁ᓰᑲᐊᑖᑫᐎᓂᓂ	-9.28916
▁ᐅᑎᐹᒋᒧᐎᓐ	-9.28917
▁ᐅᒪᔥᑲᐎᓰᐎᓐ	-9.28917
▁ᓂᑯᑎᕽ	-9.28918
ᑌᐺᔦᑖᑯᓯ	-9.28931
▁ᒥᑖᔑᓃᔑᓐ	-9.28936
▁ᑳᑮᐊᔮᓂᒡ	-9.29
▁ᐙᓭᔮ	-9.29034
ᓯᐎᓐ	-9.29068
ᑲᑖ	-9.29093
▁ᒋᐱᒫᒋᐃᐌᓂᒡ	-9.29095
▁ᐃᔖᒡ	-9.29121
▁ᑭᒋᐊᓇᒥᐁᐎᑭᒫᐞ	-9.29158
▁ᐃᔑᐌᐱᓯ	-9.29189
ᓇᑲᑕ	-9.2928
▁ᐅᑯᓯᓴᓐ᙮	-9.29457
ᑲᔥᑭᑑᔦᒃ	-9.29469
▁ᑳᐊᔮᓂᒡ᙮	-9.29506
ᐊᑖᐙᑫ	-9.29527
ᓂᑲᒧ	-9.29698
ᓯᐙᐙ	-9.29787
ᑲᑲᓅᓂ	-9.29855
▁ᐃᔥᑯᑌᕽ	-9.29866
ᑮᐗᓂᒧ	-9.30036
▁ᐅᑮᑲᑴ	-9.3027
ᐲᔖ	-9.30654
ᐃᒃ	-9.30878
▁ᑮᑎᓄᐎ	-9.30895
▁ᑲᓅᓈ	-9.30896
ᓯᑭᐸᓐ	-9.30905
▁ᑮᐲᑎᑫ	-9.31061
ᔭᐸᓐ	-9.31296
▁ᐁᔖ	-9.31501
ᑭᑫᑖᓐ	-9.31556
ᓃᐸ	-9.31593
▁ᑭᑮᐱ	-9.31618
▁ᐃᔥᒀ	-9.31654
ᐅᑯ	-9.3176
▁ᒥᓍᒋᒧᐎᓐ᙮	-9.31787
ᓯᒃ᙮	-9.31854
▁ᑭᑭᑫᓂᒥ	-9.31928
▁ᐱᒫᑎᓯᐎᓐ᙮	-9.3203
ᑖᓇᓐ	-9.32055
ᓯᑌ	-9.32077
▁ᑭᑕᔮ	-9.32162
ᓇᒧᐙᒡ	-9.32219
ᒋᑳᑌ	-9.32505
ᑕᑯᔑᓐ	-9.32511
ᓂᐸᓐ	-9.32664
ᒉ	-9.32796
ᑖᑯᓯᒡ	-9.32858
ᐃᒫ	-9.32882
ᐗᓂᓂᒃ	-9.32901
ᐃᑭᑐᔮᓐ	-9.32915
▁ᐅᓂᒌ	-9.32984
ᒥᓯ	-9.33081
ᒫᐙᓐ	-9.33087
ᓂᑳᑌᓂᒃ	-9.33119
ᑐᒃ	-9.33177
▁ᐅᐐᔭᐤ	-9.33216
▁ᑭᑌᐃᐙᕽ	-9.33216
▁ᓃᒥᑕᓇ	-9.33216
▁ᓵᑲᐃᑲᓃᕽ	-9.33216
▁ᒌᒥᔅ	-9.33216
▁ᑭᑎᓂᓂᓂᒻ	-9.33217
▁ᒧᔐ	-9.3322
▁ᑭᐴᔔᐃᑯᐙ	-9.33225
▁ᑌᐱᑎᕽ	-9.33239
▁ᐱᓵᓂᓯᐎᓐ	-9.33239
▁ᐋᓬᐃ	-9.33285
ᓀᒃ᙮	-9.33311
ᐐᑕᒪᐎᓂᓂᒻ	-9.33312
ᐃᓀᑕᒣᒃ	-9.33342
▁ᑭᑭᑫᑖᒥᓐ	-9.33355
▁ᑳᐅᓂᔑᔑ	-9.33376
▁ᐅᑮᓇᑴᑕᐙᐞ	-9.33446
▁ᓃᔮ	-9.33507
▁ᒫᒑᒡ	-9.33581
▁ᓈᓇᓐ	-9.33609
▁ᑳᐃᑭᑐᐙᒡ	-9.33617
▁1	-9.33631
▁ᓂᑭᑫᑖᓐ	-9.3366
ᓂᐳᓂᒡ	-9.33963
▁ᐅᐱ	-9.33972
ᓱᓂᒡ	-9.34012
ᑮᔑᑲ	-9.34086
▁ᑳᓅᑕᕽ	-9.3413
▁ᑮᓂᐳ	-9.34202
▁ᓃᐸᐎ	-9.34336
▁ᑳᑑᑕᕽ	-9.34382
▁ᐊᓉ	-9.34472
▁ᐃᓂᓃᐎ	-9.3452
ᑴᑕ	-9.34558
▁ᐁᑮᐐ	-9.34647
ᑌᐺᑕᒣᒃ	-9.34795
▁ᑭᑭᒋ	-9.349
ᐅᔑᑑ	-9.34904
ᐅᑖᐱᓇᕽ	-9.34967
▁ᑲᑴᑗ	-9.3516
▁ᒋᑎᐯᓂᒥᑯ	-9.35387
ᐙᐞ᙮	-9.35539
ᑑᑕᒧᐙᒡ	-9.35564
▁ᒋᐐᒋᐃ	-9.35578
▁ᑳᑕ	-9.35595
ᑾᐞ	-9.35656
▁ᐅᓇᔓᐌᐎᓐ᙮	-9.35772
▁ᒋᐃᑭᑐ	-9.35851
▁ᒪᔥᑲᐎ	-9.35894
▁ᓇᑴᑕ	-9.35895
ᐊᓇᒥᐋᐙᒡ	-9.35964
▁ᑳᑎᐯᒋᑫᒡ᙮	-9.36034
ᐊᐎ	-9.36055
ᑰᔭᕽ	-9.36414
▁ᐱᓯᑕ	-9.36506
ᐱᒥᐊᔮ	-9.36879
▁ᑳᐃᓈ	-9.36916
ᑑᑕᒫᓐ	-9.36974
ᓅᑕᕽ	-9.37047
▁ᔕᐌᑖᑯᓯ	-9.37215
ᓵᑭᒋ	-9.37428
▁ᑳᑮᐃᔑᒋᑫ	-9.37461
ᑭᑫᑖᓈᐙ	-9.37509
ᐌᐙᒡ	-9.3751
ᐱᔑᒀᑎᓯ	-9.37641
ᒐ	-9.37706
▁ᐃᔅᕒᐃᔭᓬ	-9.3771
▁ᐅᑯᓯᓴᐞ	-9.37711
▁ᐊᐱᓅᒌᔕᐞ	-9.37711
▁ᐊᒑᑾᓐ	-9.37711
▁ᐱᑾᑕᑲᒥᒃ	-9.37711
▁ᑭᒋᐊᓇᒥᐁᐎᑲᒥᒃ	-9.37711
ᓰᑲᐊᑖᑫ	-9.37711
▁ᐅᑎᐯᒋᑫᐎᓂᓂ	-9.37712
ᒪᔥᑲᐌᑖᑯᓯ	-9.37712
▁ᔔᓂᔮᓴᐞ	-9.37712
ᑎᐹᑯᓈ	-9.37712
▁ᒦᑲᓈᕽ	-9.37719
ᐊᐯᓂᒧᓄᑕ	-9.37719
▁ᐴᓯ	-9.37764
▁ᑳᐃᓂᓇᑰᒃ	-9.37765
▁ᑳᑎᐯᓂᒥᑯᐙᒡ	-9.37768
▁ᑫᑕᔑ	-9.37804
▁ᑳᐃᒋᑳᑌᒃ	-9.3781
ᑯᒡ᙮	-9.37826
ᑭᑫᑕᓰᓐ	-9.37867
ᒥᓂᒀ	-9.37948
ᑲᓇᐌᓂᒫ	-9.37979
ᐊᑲᒋ	-9.38039
▁ᑮᐃᓀᑕᒻ	-9.38103
ᕒᐋ	-9.38179
ᐱᒫᒋᐃᑰᐎ	-9.38425
▁ᑖᑭ	-9.38569
ᑲᓇᐌᓂᒥ	-9.38616
ᑎᐗᒃ	-9.3883
ᐗᑫ	-9.39032
ᐸᑭᔑ	-9.39156
ᐅᒋᒋᓭ	-9.3929
▁ᑎ	-9.39415
ᐙᐸᑕᐃᐌ	-9.39483
▁ᐯᐯᔑ	-9.39687
ᐌᒡ	-9.39786
ᒦᓂᒃ	-9.39924
ᓯᑑ	-9.39973
ᒥᓯᐌ	-9.40095
ᑲᓇᐌᑕ	-9.40111
ᐊᑖᐌ	-9.4013
ᐸᐹᒥ	-9.40171
▁ᑑᑕ	-9.40227
▁ᑎᐹᑯᓂ	-9.40235
ᑭᑭᔥᑲᐙ	-9.40244
▁ᒪᓂᑑ	-9.40474
▁ᐃᓀᑖ	-9.40503
ᐎᓐᒡ	-9.40573
ᒥᑰᐞ	-9.40753
ᓃᐎ	-9.40841
ᓂᓀᒃ	-9.40864
▁ᒋᑲ	-9.40936
ᓯᓐ	-9.41178
ᑲᔥᑭᒋᑫ	-9.41237
▁ᐐᒌᐙ	-9.41428
▁ᑭᒋᑮᔑᑯᕽ᙮	-9.41484
▁ᐁᓵᑭ	-9.41702
▁ᐐᔭᐎᒫ	-9.41906
ᐊᓇᒥᑑ	-9.42145
ᒥᓇᑰᒃ	-9.4221
▁4	-9.42292
ᑲᑮᑖᐎ	-9.42416
▁ᔑᒫᑲᓂᔕᐞ	-9.42418
▁ᑭᒋᐊᐱᐎᓂᕽ	-9.42418
▁ᑮᐅᒌ	-9.42418
▁ᑳᐐᒋᐅᑌᐺᑕᒨᒥᑰᔦᒃ	-9.42418
ᒪᒫᔒ	-9.42423
ᑎᐸᐊᒫᑰ	-9.42427
▁ᐊᓯᓃᓐ	-9.42432
ᑲᒥᑲᓂᓂᒃ	-9.42435
▁ᒥᑎᒃ	-9.42481
▁ᐊᔮᐗᒃ	-9.42515
▁ᐲᐙᐱ	-9.42526
▁ᓵᑭᐃᐌᐎᓐ	-9.42534
ᒪᑲᓅᓐ	-9.42538
▁ᐱᑾᒋᐊᔭᐋᐎᔕᓐ	-9.42541
▁ᐅᒪᒋᑑᑕᒧᐎᓂᐙᓐ	-9.4261
▁ᓇᑴᑕᒻ	-9.42682
▁ᑫᑑᑕ	-9.42731
▁ᑮᐅ	-9.42811
ᑖᑯᓯᐙᒡ	-9.42846
▁ᐊᓄᑮᐎᓐ	-9.42858
▁ᐆᑌᓇᐗᓐ	-9.42879
ᑮᔑᑲᓂᓂᒃ	-9.42898
▁ᐲᑑ	-9.43003
ᑫᐎᑭᒫ	-9.43046
▁ᐲᒋ	-9.43048
ᑯᓐ	-9.43064
▁ᐹᑏᓄᓂᒡ	-9.43241
▁ᐙᐹᐱᑯ	-9.43248
▁ᓂᑌᐺ	-9.43316
ᐊᔓᑕᒪᐙ	-9.43347
ᑌᐁ	-9.43439
ᓇᒪᑕᐱᒡ	-9.43552
▁ᔑᒫᑲᓂᔒᐎᑭᒫᓐ	-9.43616
ᑭᒋᐊᓇᒥᐁᐎᑭᒫᐎ	-9.4363
ᒪᒋᑑᑕᕽ	-9.43832
ᓃᑳᓀᑖᑯᓯᓂᒡ	-9.43847
ᓈᒻ	-9.4405
ᒧᐎᓐ	-9.44291
▁ᐅᑮᐃᑰᐞ	-9.44336
ᐃᐌᒡ	-9.44432
ᐅᔑᑑᒡ	-9.44486
ᒥᑰᔦᒃ	-9.4453
ᔑᕽ	-9.446
ᑲᓇᐙᐸᒫ	-9.44684
ᐸᑭᑎᓂᑎᓱ	-9.45095
ᑮᒨᒋ	-9.45254
▁ᓵᑭᒋ	-9.45272
▁ᓂᑲᐱ	-9.45314
ᒥᓈᓐ	-9.45365
▁ᒋᒥᓄᐊᔮ	-9.4552
ᐱᒫᒋᐋ	-9.45682
ᓃᔣᒋ	-9.4579
ᐃᔑᒋᑫᔮᓐ	-9.45923
ᓂᓂᐗᓐ	-9.46035
ᐋᒋ	-9.46036
▁ᒋᑎᐯ	-9.46103
▁ᑌᐺᐎᓐ᙮	-9.46125
▁ᑮᐃᑭᑐᐗᓐ	-9.46357
▁ᑮᒦᓈ	-9.46766
ᐙᓂᒡ	-9.46842
ᑮᐌᐱᒫᑎᓯᐋ	-9.46927
ᓂᐙᓐ	-9.4699
▁ᓂᓯ	-9.47131
ᓂᑖᐎᑭᒡ	-9.47221
ᐅᓇᔓᐙ	-9.47264
▁ᐅᓃᒑᓂᓴᐞ	-9.47357
▁ᐊᐱᓅᒌᔕᒃ	-9.47357
▁ᑳᓃᑳᓂᓯᐙᒡ	-9.47357
▁ᐆᑌᓇᐌᓯᕽ	-9.47357
▁ᓃᑳᓇᔭᐄ	-9.47357
▁ᐅᑎᓈᑯᓂᑫᐎᓐ	-9.47357
▁ᑭᑌᐺᑕᒧᐎᓂᐙ	-9.47357
▁ᓈᓈᑫ	-9.47358
ᓯᓄᑭᓐ	-9.47359
▁ᑌᐺᔦᑕᒧᐎᓐ	-9.47361
▁ᐊᑮᐎ	-9.47362
▁ᒌᒫᓐ	-9.47363
ᓯᓅᓇᓐ	-9.47371
▁ᐃᓀᑖᑾᓐ	-9.47373
▁ᐅᓇᔓᐌᐎᓂᕽ	-9.47377
▁ᑕᑯᔑᓅ	-9.47381
▁ᒫᒥᑲᐎᒃ	-9.47388
▁ᐅᐐᒋ	-9.47391
▁ᐌᐱᓂ	-9.47397
ᐅᔑᐲᐊᒪᐎᓇᑰᒃ	-9.474
ᐋᔩᒋ	-9.47425
▁ᐸᔦ	-9.47471
ᑯᓇᔦ	-9.47498
▁ᐅᐐᓱᐎᓂᓂ	-9.47505
▁ᑮᐸᓯᑸ	-9.4755
▁ᑲᓇᐌᑕ	-9.47563
ᓈᑾᓂᓂᑭᓐ	-9.47671
▁ᐅᓵᐙᐱᑯ	-9.47713
▁ᑳᐃᑭᑐᓂᒡ	-9.47716
▁ᑳᐃᔑᓂᑳᑌᒃ	-9.47844
ᓯᐙᕽ	-9.47847
ᐃᔖᔮᓐ	-9.47863
▁ᐲᓈ	-9.47864
ᐹᑏᓄᐙᒡ	-9.47889
▁ᐃᔑᓭᓂᒃ	-9.47934
ᑕᐙᐙᓐ	-9.48052
ᔕᐌᓂᒫᒡ	-9.48074
▁ᒋᑭᑫᑕᒣᒃ	-9.48169
▁ᓂᑮᐱ	-9.48249
▁ᐁᑮᐊ	-9.48307
ᓇᒪᑕᐱᓂᒡ	-9.4831
ᓈᑯᓂᑫ	-9.48446
ᒥᓈ	-9.48449
▁ᑳᐃᓇ	-9.48465
ᓰᑭᓇ	-9.48483
ᑮᑭᑐᒡ	-9.48541
ᐱᒫᑎᓯᔭᕽ	-9.48705
▁ᐱᐴᓐ	-9.48724
ᐯᑖ	-9.4874
▁ᑎᓄᐎ	-9.48844
▁ᑳᐐᑕᒪᐎᓇᑰᒃ	-9.48851
▁ᐃᓂᓃ	-9.48884
▁ᑭᒋᐊᓇᒥᐁᐎᑭᒫᓐ	-9.4921
ᓂᑳᑌᒃ	-9.49247
▁ᑳᑮᐃᑭᑐᒡ	-9.49352
▁ᑭᐐᒋ	-9.49357
▁ᐅᑮᐃᓈᐙᓐ	-9.49403
ᑫᓂᒡ	-9.49557
ᑯᓈᓂᒃ	-9.49584
ᒪᒋᒋᑫ	-9.49642
ᐃᔑᐌᐸᒃ	-9.49765
▁ᑳᒥᒋ	-9.49872
ᑯᓵ	-9.50006
ᑭᒋᐊᓄᑮ	-9.50262
▁ᑳᑮᑕᔑ	-9.5032
▁ᐁᑮᐊᑕ	-9.50488
▁ᒋᐋ	-9.50653
▁ᑭᒋᐅᑭᒫᒃ	-9.50659
ᐅᔑᒋᑳᑌᒃ	-9.50782
ᓂᔑᐗᓈᑎᓯ	-9.50829
ᓂᒪᒃ	-9.50857
▁ᐐᑕᒪᐙ	-9.50965
ᑎᐸᐊᒪ	-9.51009
▁ᒥᓄᐊᔮ	-9.51247
ᑎᔅ	-9.5139
ᒥᑯᐙ	-9.51549
▁ᒋᑎᐹᑯᓂ	-9.51629
▁ᓀᐱ	-9.51677
▁ᐊᑭ᙮	-9.51753
▁ᐌᐱᓈ	-9.52261
ᐲᑎᑲᓂ	-9.52347
▁ᑭᑌᐺ	-9.52354
ᓶ	-9.52453
▁ᐋᔑᑌᔮᑎᑯᕽ᙮	-9.52478
▁ᐸᓯᑸ	-9.52491
▁ᐌᓂᔑᔑ	-9.52533
▁ᐊᐱᓅᒌᔥ	-9.52552
▁ᐹᐃᓬᐊᑑᓐ	-9.52552
▁ᑳᐅᔫᓯᒥᓐᒡ	-9.52552
▁ᒉᑲᑉ	-9.52552
▁ᒌᒥᓴᓐ	-9.52552
▁ᐁᑎᔮᒃ	-9.52553
▁ᑳᐃᔑᓂᑳᓱᒡ	-9.52553
ᐲᑎᑲᓈ	-9.52553
▁ᐁᑮᐃᓈᐙᒡ	-9.52556
ᓂᑯᑣᒃ	-9.52556
ᓂᑭᓃᕽ	-9.52561
▁ᓈᓴᕒᐃᑎᕽ	-9.52562
▁ᐅᑑᓇᔓᐌᐎᓂᓂ	-9.52572
▁ᓃᔓ	-9.52618
▁ᐅᑕᒑᑾᓐ᙮	-9.5262
▁ᐁᐐᐅᒋ	-9.52645
ᔭᒥᑣ	-9.52648
ᐗᐙᓀᑕ	-9.52696
ᔒᑫᓂᒫ	-9.52739
ᐸᑭᑎᓇᕽ	-9.52772
▁ᑳᐊᔮ	-9.52803
ᐊᑯᓴᑲᐅ	-9.52902
ᐐᑕᒫᑰᔦᒃ	-9.52925
ᐸᑯᐲ	-9.5307
ᑲᓅᑕᒪᐙᐙᒡ	-9.531
ᐅᑯᓯᓯᒥ	-9.53135
▁ᒥᑖᓱ	-9.53199
ᑲᓅᑕᒪᐙ	-9.53267
ᒋᑲᓐ	-9.53352
ᑕᑾᑭ	-9.53384
ᓅᑕᒥᓂᒡ	-9.53561
▁ᐅᑖᐎᓂᕽ	-9.53567
▁ᐅᑮᐋ	-9.53609
ᐊᐌ	-9.5374
ᑮᔑᑲᒃ	-9.53923
▁ᐊᐯ	-9.5402
▁ᐃᔑᓈᑯᓯ	-9.5403
▁ᒪᒋᑑᑕᒧᐎᓐ᙮	-9.54265
ᑑᑕᒣᒃ	-9.5436
ᐊᓇᒥᐋᔦᒃ	-9.54363
▁ᐅᑯᓯᓯᒫᓐ	-9.54403
▁ᐁᑭᑭᔥᑲ	-9.54449
ᑕᒨᒃ	-9.54473
ᓯᑯ	-9.54683
▁ᐁᐅᒌ	-9.54685
ᐌᓅᑎᓯᒡ	-9.54799
▁ᓭᑭᓯ	-9.54818
ᐙᐸᓐ᙮	-9.54909
▁ᒋᒥᒋ	-9.55059
ᑭᒋᐅᑭᒫᐎ	-9.5509
ᓇᑭᒡ	-9.55094
ᐙᐸᑖᓐ	-9.55131
▁ᑮᒨᒋ	-9.55266
▁ᑳᑮᐃᔑᒋᑫᒡ	-9.55308
ᓭᑭᓯ	-9.55344
▁ᑳᐅᒌ	-9.55792
ᓰᓐ᙮	-9.55808
▁ᑮᐌᐱᒫᑎᓯ	-9.55818
ᑖᑾᓂᓂᒃ	-9.55867
▁ᒫᒑᓐ	-9.55893
ᓯᓄᒃ᙮	-9.56384
▁ᐸᑴᔑᑲᓂ	-9.56411
ᐱᒥᓂᔕ	-9.5642
ᐱᒧᓭᒡ	-9.56489
▁ᐅᔥᑭᓃᑭᑴ	-9.56531
▁ᑎᐹᒋᒧ	-9.56869
▁ᐁᑕᓱᐯᔑᑯ	-9.56922
ᒫᐗᑑᓈ	-9.56928
▁ᒋᐴᓂ	-9.56984
ᑌᐺᔦᓂᒫ	-9.56995
ᑯᓯᒃ	-9.57027
ᔕᓐ	-9.57281
▁ᐁᐐᐃᔑᒋᑫ	-9.5741
ᓂᓃᐎ	-9.57506
ᐃᑎᓱᒡ	-9.57544
ᑭᑫᑕᒣᒃ	-9.57575
▁ᐐᑾᑎ	-9.57585
ᐊᑭ	-9.57592
▁ᒋᒫᒌ	-9.57604
▁ᐃᓂᓂᐗᓐ᙮	-9.57644
ᑭᑫᑕᒫ	-9.57659
▁ᐸᑭᑎᓇ	-9.57727
ᑶ	-9.57965
▁ᑭᑎᔑᒋᑫ	-9.57979
▁ᑭᓇᑕᐌᓂᒥ	-9.58007
ᑲᑮᓇᐎᔥᑭ	-9.58033
▁ᐁᐃᑭᑐᐙᒡ	-9.58033
▁ᐅᑎᐹᒋᒧᐎᓂᓃᒪᐞ	-9.58033
▁ᐅᑎᐹᒋᒧᐎᓂᓃᒪᓐ	-9.58033
▁ᐅᓈᐯᒪᓐ	-9.58033
▁ᐅᔑᐲᐃᑲᓐ	-9.58033
▁ᑭᐸᐅᑏᐎᑲᒥᑯᕽ	-9.58033
▁ᑳᓃᑳᓂᓯᓂᒡ	-9.58033
▁ᓭᓴᕒᐄᔭ	-9.58033
▁ᒥᑕᑲᒥᒃ	-9.58033
▁ᐁᔑᓂᑳᓱᒡ	-9.58033
▁ᐁᔑᐲᐃᑳᑌᒃ	-9.58033
▁ᑳᐃᔑᐲᐃᑳᑌᒃ	-9.58033
▁ᐐᔭᐎᓂ	-9.58033
▁ᑭᑎᑳᓇᓐ	-9.58036
▁ᓇᔥᑫ	-9.58037
ᐎᓰ	-9.58041
ᐃᓀᑕᒻ	-9.58045
▁ᐁᑕᓱᑮᔑᒃ	-9.5806
▁ᑳᑮᐅᓈᐸᒫᒡ	-9.58064
ᐊᓇᒥᐁᑕᒪᐎ	-9.58072
▁ᓂᐴᔔᐋ	-9.58136
ᓈᑯᑑᒡ	-9.5814
▁ᐁᐃᔑᓭᓂᒃ	-9.58178
ᓈᓯᑲᐙ	-9.58236
ᒪᒋᑑᑕᒧ	-9.58241
▁ᑌᐺᒪᑲᓐ	-9.58243
ᐋᐸᑕᓂᓂ	-9.58269
▁ᑳᐊᔮᑭᓐ	-9.583
ᑲᓅᓂᑯᒡ	-9.58309
▁ᐁᐱᒥ	-9.58331
▁ᐁᐊᐞ	-9.584
ᐱᒥᐎᑑ	-9.58465
ᐊᑌᓂᒃ	-9.5847
ᐃᑯᓐ	-9.58484
ᒦᑴᒋᐌᓂᒫ	-9.58493
▁ᐋᓇᑮ	-9.58615
▁ᐲᑎᑫᒡ	-9.58775
▁ᑳᑎᐯᓂᒫᒡ	-9.58912
ᐐᑕᒫᑫᔮᓐ	-9.58916
ᐋᐸᑎᓯ	-9.58962
ᐅᓈᑯᓂ	-9.58984
ᑲᑴᒋᒫᐙᒡ	-9.59025
ᓂᐗᓂᓂᒃ	-9.59074
ᓂᔥᑳ	-9.59212
▁ᐊᔮᐎᓂᕽ	-9.5926
▁ᓵᑭᐃᑎ	-9.59292
▁ᐹᑏᓄ	-9.59362
ᑭᐱᒌ	-9.59664
▁ᐁᓅᑕᒧᐙᒡ	-9.59947
ᐊᔭᔮ	-9.5997
▁ᐴᔔ	-9.60241
ᑲᓇᒃ	-9.60284
ᒫᐗᒋ	-9.60383
ᓇᓈᑕ	-9.60552
▁ᐅᑎᑭᑐᐎᓂᓂ	-9.60558
ᓂᑣ	-9.60585
▁ᑳᓬᐊᓬᐄ	-9.60736
ᐎᓂᓃᕽ	-9.60739
▁ᐋᐸ	-9.6074
▁ᓂᑮᐃᒃ	-9.60763
ᐸᑭᑎᓇᒫ	-9.61022
ᐙᐸᒫᐙ	-9.61103
▁ᒫᒪᑳ	-9.61162
ᒋᐃᑯᒡ	-9.6126
ᑯᔥᑯ	-9.61285
ᐗᔭᐄ	-9.61657
▁ᐅᐌᓂ	-9.61709
00	-9.61757
ᐲᑎᑫᒡ	-9.61985
▁ᒦᐗᑭ	-9.62026
▁ᑭᑭᓄᐊᒫᑫᒡ	-9.62094
ᓯᔮᓐ	-9.62144
▁ᐁᑮᒫ	-9.62156
ᑕᒫᑯᓈᓐ	-9.6224
▁ᑭᐸ	-9.62347
ᑖᑯᓯᓰ	-9.62479
ᑑᑖᑯ	-9.62489
▁ᐐᑕᒪᐎᓇᑰᒃ	-9.62544
ᑭᐸᓐ᙮	-9.62611
ᐊᓇᒥᐁᑕᐙ	-9.62713
▁ᒋᑭᑭ	-9.62731
ᒪᑲᓯᓅᓐ	-9.62878
ᑮᕽ	-9.62912
▁ᑳᑎᐯᓂᒥ	-9.63071
▁ᐊᓇᒥᐁᐎᑭᒫ	-9.63173
▁ᐁᐙᐱ	-9.63212
ᓈᑲᒋᑑ	-9.63383
ᐸᑯᓭᓂᒥ	-9.63432
▁ᓂᑭᑫᓂᒫ	-9.63509
ᑫᓐ᙮	-9.63531
ᒣᑭᐸᓐ	-9.63569
ᑴᒋᒥ	-9.63585
▁ᒎᑕ	-9.63663
ᓇᒪᐙ	-9.63801
▁ᐅᑮᓇᑴᑕᐙᓐ	-9.63831
▁ᐌᔫᓯᒥᒥᓐᒡ	-9.63831
▁ᒪᓯᓇᐃᑲᓂᕽ	-9.63831
▁ᓂᑎᑭᑐᐎᓇᓐ	-9.63831
▁ᒣᕒᐄᓐ	-9.63832
▁ᐱᑾᒋᐊᔭᐋᐎᔥ	-9.63832
ᐱᒥᔑᓂᓂᒡ	-9.63833
▁ᒥᓂᓯᕽ	-9.63834
▁ᐅᒑᓂᒥᓯᒻ	-9.63834
▁ᐐᒋᑭᐌᔭᓐ	-9.63835
▁ᐌᒌᓂᒡ	-9.63837
ᓯᐎᑣ	-9.63839
ᓯᐙᓈᓐ	-9.63839
ᓬᐄ	-9.6384
ᐗᓀᓐ	-9.63845
ᑲᓅᒋᑫᑕᒪᐙ	-9.63847
▁ᐱᓯᑕᒧᒃ	-9.63856
▁ᒉᕒᐆᓴᓬᐊᒻ	-9.63874
▁ᐁᐃᓈᒡ	-9.63909
ᐃᓀᑕᒥᓂᒡ	-9.63926
▁ᑳᐱᒫᑎᓯᒡ	-9.6393
ᕒᐁ	-9.6393
▁–	-9.63947
ᑌᐱᓭ	-9.63951
ᐙᐸᒥᑯᒡ	-9.63968
ᑯᑖᒋ	-9.6397
▁ᒋᐃᔑᓭᓂᒃ	-9.6408
▁ᑎᐸᐃᑲᓐ	-9.64103
▁ᐃᓀᑖᑯᓯᓂᒡ	-9.64118
▁ᐁᐐᐃᔑ	-9.64129
ᒫᓀᑕᒧ	-9.64162
▁ᐲᒋᓂᔕᐅ	-9.6418
ᒥᑯᒡ᙮	-9.6419
▁ᐅᑮᐃᓈ	-9.64211
▁ᒥᑲ	-9.64277
▁ᑮᑮᐌ	-9.64294
▁ᐊᓇᒥᐁᐎᑭᒫᒃ	-9.64451
▁ᑳᑲᑴ	-9.64464
ᐐᒋᐋᒡ	-9.64589
ᐸᑳᓂ	-9.64595
▁ᓈᑫ	-9.64646
▁ᒋᓂᐳ	-9.64672
ᐃᑰᓐ	-9.64762
▁ᑎᐯᑖᑯᓯ	-9.6499
▁ᑳᓃᔣᒋ	-9.64992
ᐲᑎᑫᐙᒡ	-9.64994
▁ᒋᐃᔖ	-9.6508
▁ᐸᓯᑸᓐ	-9.65089
▁ᐃᑕᐙ	-9.65094
ᑎᓯᐙᒡ	-9.6523
▁ᑫᐃᔑᒋᑫᔮᓐ	-9.65243
▁ᑮᐃᓈ	-9.65257
▁ᐃᔑᐱᒫᑎᓯ	-9.65265
ᐃᓇᕽ	-9.65309
▁ᒋᐃᔖᒡ	-9.65339
ᓂᐹ	-9.65525
▁ᐃᓀᓂᑎᓱ	-9.65542
▁ᐁᒣᓐ᙮	-9.65583
ᐸᑑ	-9.65624
▁ᐁᔮᐙᒡ	-9.65875
▁ᐁᑌ	-9.65921
▁ᑳᒎᐎᐎ	-9.65947
▁ᒎᐗᐞ᙮	-9.65968
ᑳᓈᐙ	-9.66021
ᑭᑎᒫᑭᓯ	-9.66037
▁ᑲᔥᑭᑑᓰᓐ	-9.6607
▁ᒋᐃᔑᓭ	-9.66167
ᐋᓂᒡ	-9.66189
▁ᒫᐗᒋ	-9.66253
▁ᐁᐐᒋ	-9.66299
ᔨ	-9.66365
▁ᒫᒑᒃ	-9.66443
ᒋᑫᔦᒃ	-9.66486
▁ᐃᔑᒋᑫᔦᒃ	-9.66513
ᐊᓉ	-9.66541
ᓈᐞ	-9.66754
ᑳᕽ᙮	-9.66793
ᓯᐎᓐᒡ	-9.66878
ᑲᓅᓈᓐ	-9.66926
▁ᐃᓂᓃᕽ	-9.67014
▁ᐊᑖᐌ	-9.67058
▁ᑳᐊᔮᒃ	-9.67116
ᓇᒪᑕᐱ	-9.67197
ᓯᓅᓂᓂᒻ	-9.67304
▁ᑯᑕ	-9.67332
ᑲᑴᑗ	-9.6741
ᐃᑯᐙᓐ	-9.67491
ᒣᒃ᙮	-9.676
▁ᐁᑮᑕᔑ	-9.6786
▁ᐆᑌᓇ᙮	-9.67961
▁ᐱᑮᐌ	-9.68124
ᐱᒫᑎᓯᐙᒡ᙮	-9.68138
▁ᐃᓀᑕᕽ	-9.6814
▁ᑮᔖ	-9.6818
ᐐᐃᔖ	-9.68266
ᒋᑳᑌᓂᑭᓐ	-9.68763
▁ᐁᐸᐹ	-9.68816
▁ᒋᑲᔥᑭ	-9.68833
▁ᐱᒫᑎᓰ	-9.68861
▁ᐃᔑᒋᑫᒃ	-9.69053
ᓈᑲᑕᐌᑕ	-9.69083
ᓂᐳᐙᒡ	-9.6911
▁ᒪᔥᑯᓰ	-9.69244
ᒪᑲᓂᓂᑭᓐ	-9.69287
ᒋᑲᓂᐎᓂᒡ	-9.69291
▁ᑖᐅᓂᔑᔑ	-9.69353
ᓂᓂ᙮	-9.69539
▁ᐃᓈᒡ	-9.69739
ᐙᐸᒪᒃ	-9.69751
▁ᑭᑎᑫᐎᓂᓂ	-9.69762
ᕒᐄ	-9.69904
ᐅᑭᔐᒪᓂᑑᒥ	-9.69982
ᒫᓇᒑᓂᔑ	-9.69984
ᐅᒋᒌᑾᓃ	-9.69987
▁ᐁᐸᕒᐊᐋᒥ	-9.69987
▁ᑭᑑᔑᐲᐊᒪᐎᓂᓂᒻ	-9.69987
▁ᑭᑭᑫᑕᓰᒻ	-9.69987
▁ᑭᒋᐆᑌᓇ	-9.69987
▁ᑳᑮᐅᒌᒡ	-9.69987
ᐸᑭᓈᑫ	-9.69987
▁ᐊᑳᒥᕽ	-9.69987
▁ᐃᔥᒀᑌᒻ	-9.69987
▁ᒫᕒᑕ	-9.69987
▁ᒥᓂᒀᑲᓐ	-9.69988
▁ᑭᑭᓄᐊᒪᐙᑲᓐ	-9.69988
▁ᐅᑎᐯᒋᑫᐎᓂᕽ	-9.6999
▁ᐅᑮᐅᑖᐱᓈᓐ	-9.70001
▁ᑾᔭᒀᑎᓯᐎᓐ	-9.7001
ᒥᑖᒋ	-9.70022
▁ᒋᓈᓯᑲ	-9.70041
ᑲᑮᒀ	-9.70043
ᐊᑐᒥᓀᒃ	-9.70053
▁ᐁᕒᐊᑕᓐ	-9.70075
▁ᐁᑌᐺᑕ	-9.70098
ᑌᐺᔦᑕᒧ	-9.70116
▁ᐅᑑᓇᔓᐌᐎᓐ	-9.70177
▁ᑭᒋᑮᔑᒃ	-9.70206
ᓬᐋ	-9.70217
ᓂᓯᑣ	-9.70241
▁ᐅᑮᐊᑐᒫᐞ	-9.70243
▁ᒋᐲᑎᑫ	-9.70276
▁ᑳᐱᒥ	-9.70357
▁ᐅᐐᓱᐎᓐ	-9.70361
▁ᐃᔑᓈᑾᓂᓂ	-9.7039
▁ᒦᐗᓄᓄ	-9.70434
ᓇᐁᑕ	-9.70466
▁ᑭᑌᑌᐙ	-9.70499
▁ᐃᑴᐗᐞ	-9.70559
▁ᐆ	-9.70581
▁ᑭᑮᐅᒋ	-9.70582
▁ᐯᕒᐊᓰ	-9.70587
▁ᐅᑮᓈᓯᑲᐙ	-9.70589
▁ᑳᐅᓂᔑᔑᓂᓂᒃ	-9.70651
▁ᔕᐌᑖᑯᓯᐗᒃ	-9.70683
ᒨᓐ	-9.70711
▁ᑳᑮᐅᔑᑑᒡ	-9.70733
▁ᐐᑎᑫ	-9.70889
▁ᒪᓯᓇᐃᑲᓐ	-9.70923
ᐱᒥᓂᔕᐊ	-9.7093
▁ᐁᔑᒋᑫᐙᒡ	-9.70981
ᓂᓀᒀ	-9.71085
▁ᐁᑮᔑᑲᒃ	-9.71128
ᐊᑣ	-9.71144
▁ᑳᐹᑏᓄᐙᒡ	-9.71202
ᐊᔮᐗᒃ	-9.71234
▁ᐙᑳ	-9.71234
ᐁᒃ	-9.71266
ᑳᑌᒃ	-9.71367
▁ᐙᐸᕽ	-9.71437
▁ᑑᑕᐎ	-9.71554
ᔒᑫᓂᒥ	-9.71684
▁ᑎᐸᐃᑫ	-9.71746
ᐃᔑᓈᑾᒃ	-9.7175
▁ᐅᐱᒫᑎᓯᐎᓂ	-9.71828
ᑖᓈᐙᓐ	-9.71882
▁ᑭᑭᓄᐃᑫ	-9.71907
▁ᑲᑴᒋᒥᑯᒡ	-9.71958
ᑭᑌᒃ	-9.72042
ᒦᒋᒡ	-9.72126
ᒧᐗᒃ	-9.72215
0	-9.72224
▁ᐊᐎᔭᐞ᙮	-9.72302
▁ᐁᑮᑲᑴ	-9.72388
▁ᑮᓃᐸᐎ	-9.72389
ᑲᔥᑭᑑᓰᓈᐙ	-9.72397
ᒥᓄᑑᑕ	-9.72457
ᑎᐯᓂᒫᒡ	-9.72463
ᑭᑭᔥᑳ	-9.72537
▁ᑳᐐᐱ	-9.72583
ᐅᑖᐱᓈᒡ	-9.72698
ᑭᑌᓂᒫ	-9.72787
ᑭᑫᑕᕽ	-9.7306
ᓂᑯᐸᓀᓐ	-9.73075
ᓂᒥᓀᒃ	-9.73076
ᑭᑌᑖᑯ	-9.73135
ᒦᔑᒡ	-9.7333
▁ᑮᐲᔖ	-9.73335
ᑕᒥ	-9.73445
▁ᒋᑲᓇᐌ	-9.73507
▁ᐙᐸᑕᐃ	-9.73576
ᓂᔑᐗᓈᒋᐃ	-9.73646
ᒪᐎᓀᒃ	-9.73691
ᒦᓂᑣ	-9.73884
ᐎᒡ᙮	-9.73899
▁ᒪᔥᑲᐎᓰ	-9.7391
▁ᒋᐃᔑᐱᒫᑎᓯ	-9.74133
ᓬᐆ	-9.74168
ᒥᓍᐸᒥᑯ	-9.74267
ᐃᓈᓂᒡ	-9.74299
ᑕᑭᐸᓐ	-9.74413
▁ᐃᔑᓂᔕᐅᒡ	-9.74418
ᓀᒀ᙮	-9.74432
▁ᐁᑲᓇᐙᐸ	-9.74552
▁ᐁᒪᒋ	-9.74605
▁ᓅᑌᓭ	-9.74618
ᐅᔑᐋ	-9.74673
ᑕᓰᓈᐙ	-9.74738
▁ᔔᓂᔮᓐ᙮	-9.74823
ᑌᓂᒫ	-9.75095
ᑭᑌᓂᒥ	-9.7512
ᓈᓈᐙ	-9.7513
ᓂᓂᒻ᙮	-9.75148
▁ᒋᑮᐌᐱᒫᑎᓯ	-9.75397
▁ᓂᑲᐃᔑ	-9.75537
ᐸᑭᑌ	-9.75706
ᓈᓂᒡ	-9.75729
▁ᓂᑌᑌᓐ	-9.75845
ᐱᒫᑎᓯᔮᓐ	-9.75848
ᑲᑮᑖᐌ	-9.75857
▁ᑎᐸᐊᒪᐎ	-9.7589
ᐙᐸᒥᑯ	-9.75915
ᑌᓂᑭᓐ	-9.75938
ᑭᑫᑕᒨ	-9.7595
▁ᑭᑌᑌ	-9.76011
ᐐᓱᐎᓐ	-9.76086
ᓂᑯᐙᒡ	-9.76132
▁ᐁᒥᓄ	-9.76244
ᐴᓂᓭ	-9.76298
▁ᐅᒪᒋᑑᑕᒧᐎᓂ	-9.7637
▁ᒦᓂᑰᐎᓯ	-9.76384
▁ᓃᐎ	-9.76393
▁ᒥᑖᔑ	-9.76505
▁ᐅᑎᔑᓂᔕᐙᑲᓇᐞ	-9.76546
▁ᐱᓀᔒᔕᒃ	-9.76546
▁ᐱᓯᑕᐎᔑᒃ	-9.76546
▁ᑭᑭᔥᑭᑲᓇᓐ	-9.76546
▁ᑭᒋᐅᔑᐲᐃᑫᐎᓐ	-9.76546
▁ᑸᐎᓭᔅ	-9.76546
▁ᒞᕒᑕ	-9.76546
▁ᒪᒋᐊᒑᑾᒃ	-9.76546
▁ᒪᒋᐊᒑᒃ	-9.76546
▁ᓭᑲᕒᐋᔭ	-9.76546
ᓅᑌᔅᑲᑌ	-9.76546
▁ᑮᐙᒋᑴ	-9.76546
▁ᐅᑎᔑᒋᑫᐎᓐ	-9.76547
▁ᒪᒋᑑᑕᒧᐎᓇᓐ	-9.76547
▁ᑫᑫᑦ	-9.76548
▁ᓂᑯᑣᓱ	-9.76548
▁ᐅᑕᓇᒥᐋᐞ	-9.76548
▁ᐊᓯᓃᐞ	-9.7655
ᒪᓂᔑᑫ	-9.76554
ᒥᒋᓇᐌᓯ	-9.76556
▁ᓂᑮᓅᑕᐙ	-9.76556
ᐅᓈᑯᔑ	-9.76557
▁ᒋᐱᒫᒋᐃᐌᒡ	-9.76559
ᐗᓃᑫ	-9.7656
ᐸᓂᐅ	-9.76569
▁ᑭᑖᑮ	-9.76569
ᑕᒫᑯᐙ	-9.76581
▁ᑲᑴᒋᒫᒡ	-9.766
▁ᓂᑮᓅᑖ	-9.7663
▁ᑳᐃᔑᐊᔮᓂᒡ	-9.76631
ᐃᓀᑕᒫᓐ	-9.76641
▁ᐁᐃᔑᓂᑳᑌᓂᒃ	-9.76649
▁ᐅᑌᐺᑕᒨᐞ᙮	-9.76727
▁ᒥᒋᓃ	-9.76733
▁ᐊᓇᒥᐋᒡ	-9.76739
▁ᑮᐱᐅᒋ	-9.76758
▁ᐯᕒᐊᓰᐞ	-9.76774
▁ᒥᓯᐌᑲᒥᒃ	-9.76785
▁ᑴᑭ	-9.76792
▁ᐅᒪᔥᑲᐎᓰᐎᓂ	-9.76814
▁ᑳᐃᑭᑐᔭᓐ	-9.76818
▁ᓅᔅ	-9.76862
ᐸᔅ	-9.76913
▁ᒋᐊᑕ	-9.76959
ᔭᑭᐸᓐ	-9.77003
ᐊᔭᐄ	-9.77017
▁ᐐᑾᑎᐎᓐ	-9.77062
▁ᑫᐊᐲᒋ	-9.77172
ᑎᐹᑯᓂᐌ	-9.77172
▁ᐱᒫᑎᓯᒡ᙮	-9.7731
ᐸᑴ	-9.7741
▁ᒥᓴᐌ	-9.77518
ᐊᔮᒪᑲᒃ	-9.77538
ᐗᑣ	-9.77675
ᐸᑯᓭᓂᒫ	-9.7775
▁ᓂᓯᕽ	-9.7782
▁ᑭᒋᐊᓇᒥᐁᐎᑲᒥᑯᕽ᙮	-9.77852
▁ᑕᑯᔑᓂᓂᒡ	-9.77897
ᒪᐎᓐᒡ	-9.77901
▁ᒦᑲᓇ	-9.78049
ᐊᑕᐌᑕᕽ	-9.78145
▁ᒪᐎ	-9.78201
▁ᑳᑮᑭᑐ	-9.78381
▁ᑳᐅᒌᐙᒡ	-9.78505
▁ᐐᒌᐙᒡ	-9.78511
ᓇᑫ	-9.78574
ᒥᑭᓯ	-9.78578
ᒦᓂᑰᔦᒃ	-9.78655
▁ᐱᓈᓯᑲᐙ	-9.78738
ᑭᑫᓂᑎᓱ	-9.78821
▁ᐴᓂ	-9.78899
▁ᓂᓯᑐ	-9.78947
ᐊᑑ	-9.78949
ᐅᔥᑭ	-9.78964
▁ᐲᔖᓐ	-9.78991
▁ᐅᑕᒑᑯᓂ᙮	-9.79243
▁ᓂᓱᑮᔑ	-9.79273
ᑲᔥᑭᑑᔮᓐ	-9.79479
ᑕᔑᑕᒧᐙᒡ	-9.79529
▁ᒫᒪᐎ	-9.79567
ᔥᑳᑯᐙᒡ	-9.79589
ᑲᔥᑭᑑᓰᓐ	-9.79604
▁ᐱᒫᑎᓯᐎᓂᕽ	-9.79682
ᐃᑯᔦᒃ	-9.7974
ᓇᒥᓂᒡ	-9.79954
ᔑᐌᐸᓂᓂᒃ	-9.79994
ᐐᒌᐎᑯᐙᒡ	-9.80041
ᑕᔑᑕᕽ	-9.80085
ᑌᐺᑕᒧᐙᒡ	-9.80094
▁ᐊᓅ	-9.80098
ᐙᐸᑕᐋ	-9.80116
▁ᑳᑲᓇᐌ	-9.80272
ᐅᑖᐱᓇᒪᐙ	-9.80332
ᒋᑳᑌᐗᓐ	-9.80334
ᐃᑭᑐᓰ	-9.80354
▁ᐅᑎᑭᑐᐎᓂᓂ᙮	-9.80398
ᓂᓯᑐᑖ	-9.80495
ᐌᓂᐗᐞ	-9.80631
ᐙᓭᔮᒃ	-9.80706
ᐱᓈᓯᑳᑰᐞ	-9.8071
ᔑᔮᕽ	-9.81008
▁ᑫᑕ	-9.81173
▁ᐁᐙᐸ	-9.81391
ᐙᐸᑖᓈᐙ	-9.81515
ᑕᐸᓰ	-9.81556
ᒌᑫᑕᒧ	-9.81617
ᒫᒑᔮᓐ	-9.81774
ᑮᔖᒋ	-9.82056
▁ᐅᐱᒫᑎᓰᒪᐞ᙮	-9.82057
ᓂᑴᓐ	-9.82111
▁ᒋᐙᐱ	-9.8227
▁ᒫᒑᒡ᙮	-9.82316
ᐋᓂᑫ	-9.82809
ᑖᐙ	-9.82886
▁ᑭᒋᐅᑭᒫᐎ	-9.82925
ᑴᒡ	-9.82943
ᑲᐎᓭ	-9.83003
ᑭᒋᓂᑭᕽ	-9.83167
▁ᑕᐃᔑᓭ	-9.83365
ᐴᔥᑫ	-9.83431
▁ᐗᑭᒋ	-9.83456
ᐅᓃᒑᓂᓯ	-9.8351
ᒋᐱᒫᑎᓰ	-9.83513
ᓂᒫᐙᒡ	-9.83515
ᔣ	-9.83522
ᐅᐌ	-9.83537
▁ᐅᕒᐆ	-9.8356
▁ᐄᐸᕒᐆ	-9.83565
▁ᐅᑭᑭᔥᑭᑲᓇᓐ	-9.83565
▁ᐅᑾᔭᒀᑎᓰᒪᐞ	-9.83565
▁ᐅᓃᑭᐃᑰᐞ	-9.83565
▁ᐅᔕᐌᒋᑫᐎᓐ	-9.83565
▁ᐊᓄᑮᐋᑲᓇᓐ	-9.83565
▁ᐐᒋᑭᐌᔭᐞ	-9.83565
▁ᐱᓵᓀᑕᒧᐎᓐ	-9.83565
▁ᑫᐃᔥᒀᓭᓯᓄᒃ	-9.83565
ᑭᑭᓇᐙᑕᔕᑫᔣ	-9.83565
▁ᔕᔒᐯᑕᒧ	-9.83565
▁ᓃᑕᓇᒥᐋᒃ	-9.83566
▁ᑌᐺᑕᒧᐎᓂᕽ	-9.83566
▁ᐐᔭᐤ	-9.83566
▁ᑮᐃᓀᑕᒨᒃ	-9.83566
▁ᑳᒦᓂᓀᒃ	-9.83566
▁ᓰᐲᕽ	-9.83567
▁ᐊᔓᑕᒫᑫᒡ	-9.83567
ᓂᔣᓱ	-9.8357
▁ᑭᐱᒫᑎᓯᐎᓂᐙᕽ	-9.83571
▁ᐊᓯᓃᐎ	-9.83571
ᐐᑕᐱᒫ	-9.83575
▁ᐸᑭᑎᓈᓱᐎᓇᓐ	-9.83593
▁ᐐᑕᒪᐎᔑᓈᒻ	-9.83594
▁ᓂᐲᓂ	-9.83595
ᐅᐱᔥᑳ	-9.83596
▁ᑭᓇᑕᐌᓂᒥᓂᓂᒻ	-9.836
▁ᑮᐃᓀᑕᓰ	-9.83601
ᒪᔭᑭ	-9.83612
▁ᐁᔑᐊᔮᓂᒡ	-9.83617
ᓈᑾᓯᓂᓂ	-9.83623
ᔕᐌᓂᒥᓇᕽ	-9.83664
▁ᐁᐊᔮᓂᒡ	-9.83677
ᐊᒧ	-9.83686
▁ᐐᓀᑕ	-9.83689
▁ᓭᑭᓯᑫᒃ	-9.8375
▁ᒋᐙᐸᒥ	-9.83752
▁ᑕᒦᓈ	-9.83771
▁ᑭᑲᒦᓂᑯᐙ	-9.83792
▁ᑎᐹᑯᓂᑫᐎ	-9.83797
ᑭᐸᐅᑰᔮᓐ	-9.83843
▁ᐅᑮᐐᑕᒪᐙᐞ	-9.83854
▁ᑭᑭᔐᒪᓂᑑᒥᓈᓐ	-9.83876
▁ᑭᐸᑯᓭᓂᒥ	-9.83909
ᐅᑖᐱᓂᑳᑌ	-9.83952
▁ᑭᑭᑫᑖᓈᐙ	-9.8401
▁ᐃᓇᑭᒫ	-9.84033
ᐐᑕᒫᑫᒡ	-9.84062
ᐊᓐ	-9.84076
▁ᑳᐐᐅᒋ	-9.84087
▁ᒋᐃᔑᓈᑯᓯ	-9.8425
▁ᑲᑴᒋᒥ	-9.84299
▁ᐃᔑᓂᔕᐙᑲ	-9.84324
▁ᒋᑎᐯᑕᕽ	-9.84473
ᐋᐙᓐ	-9.84511
ᐅᒌᒪᑲᒃ	-9.84512
▁ᑳᐃᔑᐊᔮᔦᒃ	-9.84524
ᐊᔨᑎ	-9.8454
▁ᐅᑑᒋ	-9.84585
▁5	-9.84614
ᑑᓇᓐ	-9.84654
ᒋᑭᐌᔨ	-9.84718
ᐃᓇᑭᒥ	-9.84733
▁ᒫᔑ	-9.84782
▁ᐁᑭᑫᓂ	-9.84793
▁ᑑᑕᐙ	-9.84944
▁ᐯᔑᑾ	-9.84952
ᐱᓯᑖᑯ	-9.85006
▁ᒋᑑᑕᒫᓐ	-9.85021
▁ᐁᓅᑕᕽ	-9.85087
▁ᑭᔐᒪᓂᑑᓈᕽ	-9.85186
ᒪᑣ	-9.85217
▁ᑳᑮᐊᔮᐙᒡ	-9.85304
▁ᐊᔮᔦᒃ	-9.85343
ᒥᕽ	-9.85358
▁ᒋᐃᓇᓄᑮ	-9.85383
ᓀᑕᒨᒃ	-9.85392
▁ᓲᑭᑌᐁ	-9.85394
▁ᑳᐃᑭᑐᔮᓐ	-9.85411
▁ᒋᒥᓄᓭ	-9.85437
ᑌᐺᑕᕽ	-9.85547
ᐸᑭᑎᓇ	-9.85734
ᐌᐎᓐ	-9.85748
ᐯᔑᑾ	-9.8583
ᑯᐲ	-9.85832
▁ᑳᑮᓂᑖ	-9.85835
▁ᑳᑮᒫᒌ	-9.85879
ᓄᐙᒡ	-9.85985
▁ᑕᐱᒫᑎᓯ	-9.86097
▁ᒌᑫᑕ	-9.86135
ᓂᐙᕽ	-9.86242
ᑕᒪᐙᓂᒡ	-9.86385
ᓈᓂᓐ	-9.86426
ᓭᓯᒃ	-9.86486
ᓯᓂᓂᑭᓐ	-9.86593
ᕒᐃ	-9.86602
ᑮᐅᓀᓂᒫ	-9.86676
▁ᓅᑕ	-9.86695
ᐙᑯᐸᓀᓐ	-9.86746
▁ᓬᐃ	-9.86891
ᐴᓀᑕᒪᐙ	-9.86892
ᒫᒑᒡ	-9.87015
ᑑᓰᓐ	-9.8713
▁ᐃᔖᒃ	-9.87166
▁ᐋᐲ	-9.87229
ᐎᓂᓈᓐ	-9.87263
ᑑᓈᐙᓐ	-9.87267
ᑎᐹᑯᓂ	-9.87289
ᒪᐎᒡ	-9.87307
ᑑᑕᐎᓐᒡ	-9.87515
▁ᓵᑭᐃ	-9.8773
ᑕᑶᔑᕽ	-9.87788
▁ᑕᑯᔑᓐ	-9.87808
ᑕᒫᑯᐙᒡ	-9.87827
▁ᐃᔑᐌᐸᒃ	-9.87906
ᔑᒻ	-9.87921
ᓃᒥ	-9.87951
▁ᑭᒪᒋ	-9.87994
▁ᓰᑲᐊᑖᓱ	-9.87998
ᐅᑕᐌᒫ	-9.88301
ᑕᔑᒫ	-9.88358
▁ᑳᑮᐅᔑ	-9.88414
ᐄ	-9.88497
▁ᐃᔖᓐ	-9.88512
4	-9.88573
ᑖᑯᓰ	-9.88622
▁ᑫᑮᐅᒋ	-9.88649
ᐱᒥᓂᔕᐙᐙᒡ	-9.88661
ᐸᑭᑎᓇᒪᐙ	-9.8877
▁ᐱᒫᑎᓯᓂᒡ	-9.88778
▁ᐋᑯᓯ	-9.88838
▁ᒋᓇᐃᑕ	-9.89163
ᑎᐯᑕᕽ	-9.89255
▁ᐃᐃᐌᑎ	-9.89331
▁ᑲᑭᑐ	-9.89332
▁ᐊᑕᐌᓂ	-9.89346
ᐅᒋᒋᓭᒃ	-9.89413
ᑕᒫᑯ	-9.89489
ᔓᑕᒫᑫ	-9.89597
ᓇᑲᒋ	-9.89635
ᑲᔥᑭᐃᑯ	-9.89717
▁ᐐᑕᒫᑫ	-9.89832
▁ᐙᐃᔑ	-9.89919
ᔑᓄᐙᒡ	-9.89994
ᐅᑖᐱᓇᒫ	-9.90016
▁ᐃᓇᔥ	-9.90115
▁ᐅᑌᐺᑕᒨ	-9.90143
▁ᐃᓀᑖᑯᓯᐎᓐ᙮	-9.90225
▁ᓂᐹ	-9.90254
ᐅᑎᑕᕽ	-9.90298
▁ᐃᔑᐌᐱ	-9.90361
ᐊᑕᐙᐸᒥ	-9.90383
ᐐᒌᐌᒃ	-9.90414
▁ᐅᑎᐯᒋᑫᐎᓐ᙮	-9.90536
▁ᑳᑮᐃᑭᑐ	-9.90633
ᒦᓂᑯᐙ	-9.90635
ᓈᑲᒋᐃ	-9.90834
ᔑᑑᐙᒡ	-9.90879
▁ᐅᑮᑭᑫᓂᒫ	-9.90935
ᒥᓇᕽ	-9.90973
ᑎᐱᓭ	-9.91043
ᐐᓴᑫᑕ	-9.91051
ᐃᔥᐯᑖᑯᓯ	-9.91099
▁ᐐᒋᐋ	-9.91101
ᒥᑕᑎᒻ	-9.91109
ᑭᔐᐙᑎᓯ	-9.91111
ᑰᐹᓯᓈ	-9.91111
ᓇᒥᐁᐎᑲᒥ	-9.91114
ᐐᑕᓄᑮᒫ	-9.91115
ᐸᑾᒋᐱᑑ	-9.91115
▁ᐐᔭᐎᕽ	-9.91115
▁ᐸᑴᔑᑲᓇᐞ	-9.91115
▁ᑳᑮᐊᔓᑕᒫᑫᒡ	-9.91115
▁ᒎᓴᐴᓐ	-9.91115
▁ᒑᐸ	-9.91115
▁ᒫᓇᒑᓂᔕᐞ	-9.91115
▁ᑭᑯᓯᔅ	-9.91115
▁ᓂᑑᑭᒫᒻ	-9.91115
ᐌᓅᑕᓂᓂᒃ	-9.91116
▁ᓴᒣᕒᐃᔭ	-9.91116
▁ᑲᓅᓂᑰᓐ	-9.91116
▁ᐁᑭᑐᔦᒃ	-9.91116
▁ᑭᓀᐱᑰ	-9.91116
▁ᐁᐱᓴᔅ	-9.91116
▁ᐯᔑᒀ	-9.91116
ᓃᓵᑕᐌ	-9.91117
▁ᐅᑌᐃᕽ	-9.91117
▁ᐁᑭᑐᒡ	-9.91118
▁ᐌᒌᒃ	-9.91118
ᑮᐅᑎᑎᓈ	-9.91119
▁ᓂᑎᓀᑕᓰ	-9.91119
▁ᐊᔓᑕᒫᑎᐎᓐ	-9.9112
ᐗᔥᑴ	-9.9112
ᐊᐯᓂᒧ	-9.91121
▁ᑲᔥᑭᐋ	-9.91123
ᐃᓈᐸᒋᑑ	-9.91124
ᐃᔥᒀᓭᑭᓐ	-9.91125
▁ᐌᓅᑎᓯᐎᓐ	-9.91127
▁ᓂᐲᕽ	-9.91136
▁ᑳᐃᓇᑌᒃ	-9.91139
▁ᐁᑮᐃᔖᐙᒡ	-9.91145
ᐁᒀ	-9.91154
▁ᐁᑎᓄᐎᔮᓐ	-9.91174
▁ᑭᑭᑫᓂᒫ	-9.91202
ᑭᑫᑕᓰᓈᐙ	-9.91203
ᒥᓋ	-9.91211
▁ᑳᒎᐎᐎᓯᐌᒃ	-9.91212
▁ᒪᒫᔑ	-9.91221
▁ᐅᐐᓱᐎᓂᕽ	-9.91236
▁ᑳᐃᓂᓐᒡ	-9.91254
ᒫᒋᓭᒃ	-9.91263
ᓅᑳᑎᓯ	-9.91295
▁ᑳᒫᒪᐌᓄᓂᒡ	-9.91324
▁ᓇᑴᑕᐙᓐ	-9.91337
▁ᐅᑮᐃᔑᐎᓈ	-9.91354
▁ᑳᔕᐌ	-9.91362
▁ᐅᑌᐺᑕᒧᐎᓂᕽ	-9.9142
ᐃᔑᐎᓈᒡ	-9.91424
▁ᑳᐱᐅᒋ	-9.91435
▁ᑲᓇᐙᐸᒥ	-9.91462
▁ᑳᑕᓶᐙᓇᑭᓯᐙ	-9.91555
ᐃᔑᐲᐃᑫ	-9.91563
ᑲᓅᑕᒫᑯᒡ	-9.91584
▁ᒣᑴ	-9.91614
ᓇᓇᐊ	-9.91646
▁ᐗᑎᑾᓇᓐ	-9.91669
▁ᑲᑮᑖᐌᑕᒧᐎᓐ	-9.91669
▁ᑳᑮᐅᓈᐸ	-9.91696
ᑲᒀᑕᑭᐃᑣ	-9.91783
ᐙᐸᑕᒪᕽ	-9.91801
▁ᐅᑮᐊᐎ	-9.92008
ᓵᑭᐃᑎᔦᒃ	-9.9202
ᓴᓭᑳ	-9.92029
▁ᑌᐺᑕᒧᐎᓐ	-9.92038
▁ᓇᑴᑕᐙᒡ	-9.92083
ᐐᒌᐎᑯᐙ	-9.92146
▁ᐱᓯᑲᒧ	-9.92224
ᑭᑫᑕᒨᓈ	-9.92247
ᑭᑫᑕᒥᓂᒡ	-9.92264
▁ᓂᑭᒋ	-9.92314
▁ᑳᓂᐳᐙᒡ	-9.92318
ᔮᐸᒋᑑ	-9.92337
ᒥᓄᑑᑖᑫ	-9.92349
ᑖᑰᐞ	-9.92465
▁ᐅᑌᑌᒫ	-9.92493
▁ᐁᓀᑖᑯᓯ	-9.92534
▁ᐅᓃᑳᓂᓰᒃ	-9.92582
▁ᑳᑮᐐᒌᐎᑯᒡ	-9.92631
▁ᑳᑮᔑᑲᓂᓂᒃ	-9.92687
ᓃᔑ	-9.9269
▁ᑭᐱᒫᑎᓯᐎ	-9.92763
▁ᑳᓂᐳᓂᒡ	-9.92815
▁ᑮᐊᓅᑮ	-9.92887
ᒥᓉᑕᕽ	-9.92938
ᑭᑫᑕᒫᓐ	-9.92969
ᐯᔑᑯᒡ	-9.93045
▁ᑳᑮᐐᒋ	-9.93048
ᓂᓯᑕᐎᓇ	-9.93058
ᐐᓈᑎᓯ	-9.931
▁ᑖᐃ	-9.93116
ᐱᒧᓭᐙᒡ	-9.93132
▁ᐹᑏᓇᑎ	-9.93279
▁ᑲᒀᑕᑭ	-9.93343
▁ᑮᐊᔮᐗᓐ	-9.93359
▁ᑴᑳᑎᓯ	-9.93464
▁ᐁᓂᑖ	-9.93479
▁ᐁᒪᑗ	-9.93611
▁ᐁᑯ	-9.93871
ᑎᓯᐎᓂ	-9.93872
▁ᐁᓂᓇᑰᒃ	-9.93891
ᑳᓱᐙᒡ	-9.94
ᑎᓱᔦᒃ	-9.94001
▁ᑳᐊᔮᓂᒃ	-9.94028
▁ᑳᑮᐃᔑᒋᑫᓂᒡ	-9.94137
ᐗᓯ	-9.94301
▁ᐁᒫᒌ	-9.94307
▁ᑳᑮᐃᓇ	-9.94336
ᐅᑕᑳᓀᓯᒡ	-9.94366
▁ᐐᓂᑯ	-9.94666
▁ᐙᐃᔑᒋᑫ	-9.94843
ᒦᕽ	-9.9486
▁ᑳᑾᔭᑯ	-9.94906
ᐌᓂᒡ	-9.9498
▁ᑳᑭᑫ	-9.95138
ᐅᓂᔑᔑᓂᓂ	-9.95193
ᐐᐃᔑ	-9.95535
ᐱᒧᓭᓂᒡ	-9.95575
▁ᑫᐃᑭᑐ	-9.95584
ᐅᓈᐸᒫ	-9.95593
▁ᓂᑮᐃᒃ᙮	-9.95605
▁ᐁᔑᔭ	-9.95881
ᔫᓐ	-9.95974
ᑌᐺᑕᐙᐙᒡ	-9.96158
ᒦᑭᐙ	-9.96224
ᒫᒑᐙᒡ	-9.96287
▁ᑳᑮᒦᓂ	-9.96316
ᑑᒋᑳᑌ	-9.96554
ᓈᓯᑲᐙᒡ	-9.96558
▁ᒦᑭᐌ	-9.96692
ᑲᑴᒋᒥᑯᒡ	-9.96802
ᑴᑳᑎᓯ	-9.96803
ᐊᔮᒪᑲᓐ	-9.96813
ᑲᑭᓇ	-9.96846
▁ᓵᒥᓈ	-9.96962
ᑰᒥᓐ	-9.97093
ᔖᔖᑯᐌ	-9.97146
ᓈᑯᓂ	-9.97179
▁ᐁᐐᒌᐎ	-9.9733
▁ᐃᔑᒋᑫᐗᒃ	-9.97373
▁ᒋᐐᒌᐎ	-9.97459
▁ᑳᐸᐹ	-9.97523
ᑕᑫᓐ	-9.97675
ᐃᔑᓂᔕᐙᒡ	-9.97858
▁ᐯᒫᑎᓯ	-9.97901
ᐌᑖᑾᓂᓂᒃ	-9.98041
▁ᑳᑌᐺᔦᓂᒥ	-9.98228
ᓰᐗᐞ	-9.98267
ᒥᓍᐸᑕ	-9.9828
ᒪᔥᑲᐎᓰᓂᒡ	-9.98361
▁ᐅᑮᐃᔑᓂᔕᐙ	-9.98531
▁ᑲᔥᑮᑎᐱᑲ	-9.98608
ᑎᔭ	-9.98633
ᐅᓂᔑᔑᕽ	-9.98716
ᑕᓶᐙᓇᑭᓯ	-9.98791
ᐲᔖᓂᒡ	-9.98796
ᐋᐸᒋᑑᒡ	-9.9887
ᑮᒥᑲ	-9.98899
ᔥᑳᒃ	-9.98914
ᓀᓂᒫᒡ	-9.98915
ᑖᑾᓂᓂᑭᓐ	-9.98923
ᐃᓂᑣ	-9.98968
ᐲᑎᑫᔥᑳ	-9.98977
ᑯᑯ	-9.9905
ᑖᑾᑭᓐ	-9.99214
ᐅᓇᔓᐌ	-9.99227
ᐱᒫᑎᔅ	-9.99251
▁ᒎᑏᔮ	-9.99266
▁ᑭᒋᐆᑌᓈ	-9.99282
▁ᑳᐅᑌᐺᑕᒧᐎᓂ	-9.99282
ᐊᒸᒡ	-9.99282
▁ᐁᐃᔑᐲᐃᑳᑌᒃ	-9.99282
▁ᐃᓬᐃᓯᐸ	-9.99282
▁ᐅᑕᓇᒥᐁᐎᑲᒥᑯᓃᕽ	-9.99282
▁ᐅᑕᔭᐄᒥᓂ	-9.99282
▁ᐋᑲᕒᐃᐸ	-9.99282
▁ᐗᑭᒐᔭᐄ	-9.99282
▁ᐱᑾᒐᔭᐄ	-9.99282
▁ᐲᒐᔭᐄ	-9.99282
▁ᑭᑎᑳᓀᔅ	-9.99282
▁ᒫᓇᒑᓂᔕᒃ	-9.99282
▁ᓂᐐᔭᐎᕽ	-9.99282
▁ᓂᓯᒥᑕᓇ	-9.99282
▁ᔔᒥᓇᐞ	-9.99282
ᑾᔭᒀᑎᓰ	-9.99282
ᒥᑮᐙᐱᓀ	-9.99282
▁ᐅᑲᔥᑭᐁᐎᓯ	-9.99282
▁ᑳᑮᐅᒌᓂᒡ	-9.99282
▁ᓂᐐᔭᐤ	-9.99282
▁ᓂᑎᓄᐤ	-9.99282
ᑭᑫᒋᑳᑌᓯᓂᓂᒃ	-9.99282
▁ᐃᔅᕒᐃᔭᓬᐃᑳᕽ	-9.99282
▁ᐁᑕᕒᐆ	-9.99282
ᐱᓂᔅᑴ	-9.99282
ᒫᒋᓂᔕᐙ	-9.99283
ᑾᔮᒌ	-9.99283
▁ᐅᑕᔓᑕᒫᑫᐎᓐ	-9.99283
▁ᑳᑮᒦᔑᔭᓐ	-9.99283
ᓇᑭᔥᑲᐙ	-9.99283
▁ᑕᐃᑕᔅ	-9.99283
▁ᐅᑭᑭᓄᐊᒪᐙᑲᓇᓐ	-9.99283
▁ᐋᐃᓯᒃ	-9.99284
▁ᐃᓈᑯᓂᑫᐎᓇᓐ	-9.99284
▁ᑕᔭᕒ	-9.99284
▁ᐅᓂᔥᑳᑎᓯᐎᓐ	-9.99285
▁ᐃᓉᐎᓐ	-9.99285
▁ᐃᓈᑯᓂᑫᐎᓂᕽ	-9.99286
▁ᐁᓀᑕᒫᓐ	-9.99288
ᐸᓭᓂᒧ	-9.99288
▁ᐅᑕᓇᒥᐋᒃ	-9.99289
▁ᐙᓴᑯᓀᒋᑲᓐ	-9.9929
ᓃᐸᐎᐙᒡ	-9.9929
▁ᑳᐙᐱᓯᓂᒃ	-9.99292
ᒪᑕᐐ	-9.99294
▁ᑲᑴᒋᒫᐞ	-9.99296
ᐗᐌᔑ	-9.99298
▁ᐅᑮᐃᑯᐙᓐ᙮	-9.99304
ᐸᓃᓐ	-9.9931
▁ᑳᐋᑯᓯᓂᒡ	-9.99312
▁ᑭᒋᑲᒻ	-9.99313
▁ᑳᑮᐃᑭᑐᑯᐸᓀᓐ	-9.99315
ᐃᓍᓂᑎᓱᐙᒡ	-9.99318
▁ᒎᑕᓴᓐ	-9.99322
▁ᑕᑯᔑᓄᐙᒡ	-9.99325
ᓇᒥᐁᑕᐎᓐᒡ	-9.99326
ᒪᑲᑌ	-9.99327
▁ᓵᑭᐃᐌᐎᓂᕽ	-9.99329
▁ᑭᑎᓂᓐ	-9.99329
▁ᐙᐸᓄᕽ	-9.99336
▁ᐅᓇᔓᐌᐎᓇᓐ	-9.99368
▁ᒋᐸᐹ	-9.9937
ᑎᐸᐃᑲᓀᔮᓂᒃ	-9.9937
▁ᓇᑲᓈᒡ	-9.99409
▁ᑳᑕᓱ	-9.99432
▁ᐁᔑᑖᓂᒡ	-9.99437
ᕒᐃᔅ	-9.99445
ᐊᓄᑳᑕ	-9.9945
▁ᑳᓅ	-9.99489
ᐱᒥᓂᔕᐅᑯᒡ	-9.99495
▁ᓈᓯᑲᐎ	-9.99509
ᒨᒋᑫᑕ	-9.99564
▁ᐅᑌᒐᓬᐃᒪᐞ	-9.99576
ᐃᔑᐎᓈᐙᒡ	-9.99648
▁ᑭᑭᓄᐊᒫᑫᐎᓐ	-9.9967
ᒥᓴᐌᑕᒫᓐ	-9.99736
▁ᐅᑭᒋᓂᑭᕽ	-9.99753
ᒫᑫᓐ	-9.9978
▁ᑭᑭᑫᑖᓐ	-9.99791
ᓅᑖᑯᓯᒡ	-9.99863
ᓅᑖᑯᑑ	-9.99874
▁ᑳᑮᐃᔑᐲᐃᑫ	-9.99892
ᐐᓯᓂᓂᒡ	-9.99933
▁ᐁᑮᐋᐸᒋᑑᒡ	-9.99954
ᑭᑭᓄᐊᒫᑰ	-9.99967
▁ᐊᔮᓂᒃ	-10.0001
ᐅᑎᓯᓇᑰᒃ	-10.0003
▁ᑮᓭᑭᓯ	-10.0004
ᑕᔑᑕᒫᓐ	-10.0005
ᐱᒫᒋᐃᑣ	-10.0005
▁ᐃᔑᒋᑫᐎᓇᓐ	-10.0007
ᐱᑮᐌ	-10.0008
▁8	-10.001
▁ᐁᑭᑫᓂᒫ	-10.0011
▁ᐙᓭᔮᕽ	-10.0012
▁ᑲᑴᒋᒥᒃ	-10.0021
▁ᑳᒦᑭᐌᒡ	-10.0023
▁ᐁᔑᒋᑫᒡ	-10.0029
▁ᑫᐊᔮᒡ	-10.003
▁ᐗᓂᔥᑳᓐ	-10.0033
▁ᑳᑮᓂᐳᓂᒡ	-10.0033
▁ᐃᔑᓂᔕᐙ	-10.0033
ᐸᐸᑭᑌ	-10.0035
ᓈᓯᑲᐙᐙᒡ	-10.0036
▁ᐁᐅᒋᒋᓭᒃ	-10.0039
▁ᒋᐃᓈ	-10.0048
▁ᓇᐹ	-10.0055
▁ᔔᓂᔮᐎ	-10.0061
▁ᑳᒫᐗᒋ	-10.0065
▁ᒋᑭᑫᓂᒥ	-10.0066
ᔥᑳᑯᒡ	-10.0076
▁ᐁᐙᐸᒥᑯᒡ	-10.008
▁ᐅᑮᑮᐌ	-10.008
ᐐᑕᒫᑫᐙᒡ	-10.0103
▁ᑳᑮᐃᓂ	-10.0104
▁ᐃᓀᑖᑾᓂᓂᒃ	-10.0107
ᔮᑭᐸᓐ	-10.0108
ᑰᐹᑌᓂᒥ	-10.0108
▁ᑳᐱᒫᑎᓯᓂᒡ	-10.0123
▁ᑳᑮᐊᔮᒡ	-10.013
▁ᐁᔮᐎ	-10.0131
ᐎᓇᑰᒃ	-10.0132
▁ᒋᑑᑕᕽ	-10.0143
ᑑᑕᐎᑣ	-10.0145
▁ᐁᐊᔮᔦᒃ	-10.0147
▁ᑳᐙᐸᑕᒣᒃ	-10.0148
ᑲᓇᐌᑕᕽ	-10.0153
▁ᐅᒋᒋᓭ	-10.0164
▁ᐁᑮᓂᐳᒡ	-10.0167
▁ᑭᑫᑕ	-10.0169
ᑌᐺᑕᓰ	-10.0171
ᒋᑳᑌᓂ	-10.0176
ᐸᐲ	-10.0182
▁ᐃᔑᒋᑫᐙᒡ	-10.0183
ᓲᓐ	-10.0194
ᓂᔑᐗᓈᑎᓯᐙᒡ	-10.0205
▁ᐸᑭᑎᓇᒪᐙ	-10.0214
ᓂᑖᐎᑭᑑ	-10.0216
ᓇᓇᐃ	-10.024
ᐐᑕᒪᐙᐙᒡ	-10.0248
ᑲᓇᐙᐸᒫᒡ	-10.0248
▁ᑮᐃᔑᓭ	-10.0254
ᐊᔮᒀᒥᓯ	-10.0259
ᑭᑫᑖᒥᓐ	-10.0278
▁ᑳᐊᓄᑮ	-10.0306
▁ᐅᒋᒋᓭᒃ	-10.0314
ᑕᒪᐎᒃ	-10.032
ᓇᑴᑕᐙᐞ	-10.0333
ᐃᔑᓭᓯᓅᓐ	-10.0334
ᒥᓴᐌᒋᑫ	-10.0337
ᑲᓇᐌᑕᒧᐙᒡ	-10.0341
ᑭᑫᑕᒪᕽ	-10.0355
ᓭᒡ	-10.0356
▁ᐃᔑᐎ	-10.0362
ᑎᓯᐎᓐ	-10.0371
ᒣᒀᔥᑲ	-10.0389
ᑕᔑᒥᑰ	-10.0415
▁ᐅᒪᒋ	-10.0416
ᑯᓈᐙ	-10.0423
▁ᐁᐃᑯᒡ	-10.0429
ᐸᐃᑎ	-10.0445
▁ᑮᐲᔖᐗ	-10.0451
ᐙᐸᒥᑰᐞ	-10.0483
▁ᐸᑭᑎᓂᑎᓱ	-10.0483
ᐴᓂᑑ	-10.0494
ᐃᑯᔮᓐ	-10.0531
▁ᒫᒑᐙᒡ	-10.0551
ᐐᒋᑭᐌ	-10.0555
ᑎᐸᐃᑫ	-10.0565
ᐹᑏᓇᑎ	-10.0567
▁ᑑᑕᕽ	-10.0573
ᐱᐴᓐ	-10.0577
ᐅᓵᐎ	-10.0579
ᒦᑭᐌᒡ	-10.0587
▁ᑮᐃᑭᑐᐗᐞ	-10.0591
ᑭᒫᐎᒡ	-10.0592
▁ᓂᑮᑭᒋ	-10.0606
ᑲᑴᐃᔑ	-10.0611
ᒥᓇᐋ	-10.0611
ᑰᓰᒻ	-10.0626
▁ᑮᒫᒑ	-10.0664
▁ᑭᑎᑫ	-10.0707
ᑖᑯᔅ	-10.0722
▁ᐃᐌᑎ	-10.0728
ᐐᒋᑣ	-10.0729
ᑲᔥᑭᑑᐙᒡ	-10.0732
▁ᑳᐙᐸ	-10.0753
ᐳᐗᐞ	-10.0753
ᓃᐸᐎᒡ	-10.0757
ᑲᒀᑕᑫ	-10.0769
ᑭᓱᒡ	-10.077
▁ᐅᑌᒐᓬᐃᒪ	-10.0785
ᓂᓯᑰ	-10.0813
▁ᒎᓇ	-10.0818
ᐅᑳᐎᒥᓇᑲᔒ	-10.0818
ᑯᑖᓀᑖᑾᒃ	-10.0818
ᒪᐗᑎᓯ	-10.0818
ᓵᑲᐊᒻ	-10.0818
▁ᐁᐃᑭᑐᓂᒡ	-10.0818
▁ᐁᔑᐲᐃᑳᑌᓂᒃ	-10.0818
▁ᐅᑌᒐᓬᐃᒥᓂ	-10.0818
▁ᐅᑎᓀᑕᒧᐎᓂᐙ	-10.0818
▁ᐅᒥᔅᑸᒥ	-10.0818
▁ᐅᒥᔅᑸᒻ	-10.0818
▁ᐗᓇᑯᔕᒃ	-10.0818
▁ᑫᐴᓂᓭᓯᓂᓂᒃ᙮	-10.0818
▁ᑲᓇᐌᒋᑫᐎ	-10.0818
▁ᑳᐃᑭᑑᒪᑲᒃ	-10.0818
▁ᑳᐅᒋᑎᐯᑖᑯᓯᐙᒡ	-10.0818
▁ᒣᒥᑕᑫ	-10.0818
▁ᒥᓈᑾᐅᓐ	-10.0818
▁ᒥᔅᑸᓂ	-10.0818
▁ᓂᓃᒑᓂᓴᒃ	-10.0818
▁ᓂᓇᑕᐌᓂᒫ	-10.0818
▁ᓭᐸᑏ	-10.0818
▁ᓵᐃᓬᐊᓴᓐ	-10.0818
ᒥᑯᔥᑳᒋᐃ	-10.0818
▁ᐃᔥᒀᑌᒪᓐ	-10.0818
▁ᑭᑭᑭᓄᐊᒪᐙᑲᓇᒃ	-10.0818
▁ᒥᔅᑶ	-10.0818
ᐅᒻᐺᑲᒥᑭᓯ	-10.0818
▁ᐲᓬᐃᑭ	-10.0818
▁ᐋᓇᓈᔭᔅ	-10.0818
▁ᒪᓂᑑᑳᓇᒃ	-10.0818
▁ᓃᒋᑭᐌᔭᒃ	-10.0818
ᒪᔥᑲᐌᑕᒧ	-10.0818
ᓃᓇᒥᓯ	-10.0818
ᓵᑲᐊᕽ	-10.0818
▁ᐃᔅᑏᐱ	-10.0818
▁ᑳᐃᔑᓂᑳᓱᓂᒡ	-10.0818
ᐃᓈᐸᑕᓯᓅᓐ	-10.0818
▁ᐅᑎᐹᒋᒧᐎᓂᓂ	-10.0818
ᐋᐸᒋᑑᓐ	-10.0818
ᐐᑕᓄᑮᒥ	-10.0818
▁ᑾᔭᑾ	-10.0818
▁ᐊᓇᒥᐁᐎᑲᒥᒃ	-10.0818
▁ᓭᑕᓇᓐ	-10.0818
▁ᑌᒥᓂᒃ	-10.0818
▁ᐁᓀᑖᑾᓂᓂᒃ	-10.0818
ᐗᓂᔥᑴ	-10.0818
ᐸᑯᓭᓂᒧ	-10.0818
▁ᑲᐸᕒᓂᔭᒦᕽ	-10.0818
ᐲᑯᐱᑑ	-10.0818
▁ᑳᑎᐸᐃᑫᐃᐌ	-10.0818
ᑌᐺᔦᑕᕽ	-10.0818
ᑲᔥᑮᑮᐎᓐ	-10.0818
ᓇᐁᑕᒥᐋ	-10.0818
▁ᐋᑕᒻ	-10.0818
▁ᑳᒥᓍᐸᑕᕽ	-10.0818
▁ᑲᑴᒋᒫᐙᓐ	-10.0818
▁ᐃᔑᓂᑳᓱ	-10.0818
▁ᐊᐯᓂᒧᐎᓐ	-10.0819
▁ᐊᔕᐙᐱᒃ	-10.0819
▁ᐱᔑᑭ	-10.0819
▁ᑮᐃᑎᐗᒃ᙮	-10.0819
▁ᐅᑖᐱᓇᓐ	-10.0819
▁ᐅᒦᒦ	-10.0819
ᐅᓇᑭᒥ	-10.082
▁ᑳᑭᑎᒫᑭᓯᐙᒡ	-10.082
▁ᐱᔑᒀᑎᓯᐎᓐ	-10.082
▁ᑳᐃᔑᓈᑯᓯᐙᒡ	-10.0823
▁ᑭᒫᒫ	-10.0823
ᑭᑭᓄᐊᒫᑯᐙ	-10.0824
ᔥᑭᓃᑭ	-10.0826
ᑲᐊᑖ	-10.0827
▁ᐸᑭᓯᑭᓐ	-10.0828
▁ᒋᐱᒫᑎᓯᒡ	-10.0842
ᑳᓂᐎ	-10.0848
▁ᐁᐊᑕ	-10.0855
▁ᐅᑮᐙᐸᒫᐙᓐ	-10.0856
ᓵᑭᐁᒀ	-10.0863
ᐅᓈᑯᓈ	-10.0865
▁ᐅᓂᒌᕽ	-10.087
▁ᑭᑭᓄᐊᒪᐙᒡ	-10.0871
▁ᑫᐃᔑᓈᑾᒃ	-10.0875
▁ᑮᐱᑕᑯᔑ	-10.0878
▁ᐅᑲᐃᔑ	-10.0879
ᐲᒋᓂᔕᐙᒡ	-10.0883
▁ᑕᓯᓐ	-10.0884
ᑭᑫᑕᓯᒃ	-10.0886
ᒋᑳᑌᑭᓐ	-10.0887
▁ᐁᐐᐊᓂ	-10.0891
ᑲᔥᑮᑎᐱᑲᓂᓂᒃ	-10.0892
▁ᑳᑮᒦᔑᒡ	-10.0897
ᑕᒪᐎᓇᕽ	-10.09
▁ᐁᐐᑲᑴ	-10.0904
ᐅᒌᐙᒡ	-10.0906
▁ᐅᑖᑮ	-10.091
ᓇᑭᑣ	-10.0912
▁ᐅᑕᓄᑮᐎᓂᐙᓐ	-10.0916
▁ᐐᔭᐎᒫᕽ	-10.0917
▁ᑫᐃᑭᑐᔦᒃ	-10.0918
ᐅᒌᒪᑲᓂᓂ	-10.0919
ᑌᐱᓇᒧ	-10.0921
ᐸᑭᑎᓈᒡ	-10.0922
▁ᒋᓈᓈᑲᒋ	-10.0922
ᒥᓉᑕᒥᐃ	-10.0933
▁ᐅᑮᐃᔑᓂᔕᐙᓐ	-10.0933
ᐊᑕᐌᓂᒫᒡ	-10.0933
ᓭᐗᓐ	-10.0945
ᒋᑳᓱ	-10.0946
▁ᐹᒫ	-10.0957
ᐃᓀᑖᑯᓯᒡ	-10.097
ᔥᑳᒪᑲ	-10.0972
ᒥᓄᑑᑖ	-10.0975
ᑌᐺᑕᐌᒃ	-10.0987
ᐐᒌᐎᓂᓂᒻ	-10.0991
ᑌᐺᔦᓂᒫᒡ	-10.0991
▁ᒋᑑᑕᒧᐙᒡ	-10.1002
▁ᑳᑑᑕᒧᐙᒡ	-10.1014
ᐃᓀᓂᑎᓱ	-10.1017
▁ᑳᐃᔑᐊᔮᒡ	-10.1019
▁ᓵᐃᑕ	-10.1019
▁ᐃᓀᓂ	-10.1028
▁ᐅᒋᑕᑯ	-10.1036
ᐊᓂᐅᒋ	-10.1038
ᑮᓂᓯᑯ	-10.1046
ᑑᑕᐎᓀᒀ	-10.1051
▁ᐅᑯᓯᓯᓂ	-10.1053
▁ᐅᔥᑭᓃᑭᑴᓐ	-10.1071
▁ᑮᑮᐌᐱᒫᑎᓯ	-10.1075
ᓅᑌᓭᔦᒃ	-10.1084
ᐌᑴᓐ	-10.1088
▁ᐐᑕᒪᐙᒡ	-10.1097
ᐙᐸᑕᒥᓂᒡ	-10.1105
▁ᑳᑮᐃᑯᒡ	-10.1106
▁ᑭᒋᐅᑭᒫᐞ	-10.1107
ᐃᑰᐎᓯ	-10.1113
ᓵᒥᓈᒡ	-10.1139
▁ᐁᑮᒥᒋ	-10.1141
ᐃᔑᐌᐱᓯᐙᒡ	-10.1143
▁ᑳᐃᑯᐙᒡ	-10.1145
▁40	-10.1152
▁ᐸᑭᑎᓂᑰ	-10.1154
ᒥᑯᐙᒡ᙮	-10.1155
ᒪᓈᒋ	-10.1164
ᐸᑭᑎᓂᑳᑌ	-10.1171
▁ᐁᕒᐊ	-10.1196
▁ᒋᐊᔮᒡ	-10.1198
ᐸᑭᑎᓂᑰ	-10.1206
ᑲᒀᑕᑭᐋ	-10.1213
ᑎᐹᑐᑖ	-10.1242
▁ᒥᓉᑕ	-10.1261
▁ᑭᑫᓂᒥ	-10.1298
ᐸᓂᑯ	-10.1306
ᐃᔥᒀᓭᒃ	-10.1325
▁ᐯᒥ	-10.1333
▁ᒋᒦᒋ	-10.1337
ᐐᑲᑴ	-10.1338
ᐃᔥᐯᓂᑎᓱ	-10.1376
ᔖᑯᐌᐗᒃ	-10.1381
ᒋᒥᒥᓐᒡ	-10.1381
▁ᐃᓀᑖᑯᓯᐙᒡ	-10.1425
▁ᑑᑖ	-10.1431
ᑮᐌᓄᑕ	-10.1434
▁ᒋᒪᓈ	-10.1437
▁ᒫᒑᓂᒡ	-10.1452
ᐊᓵ	-10.146
ᒦᑳᓈ	-10.1488
▁ᐃᔖᐙᒡ	-10.1493
▁ᑳᓃᑳᓀᑖᑯᓯ	-10.1502
ᐅᑕᒥ	-10.1515
▁ᐁᓈᓴᒦ	-10.152
ᐙᐸᒫᓈᓐ	-10.1526
ᑎᔭᕽ	-10.1531
ᑑᓈᐙ	-10.1532
ᑕᔑᑌᓂᒃ	-10.1533
ᓲᑭᑌᐁ	-10.1541
▁ᔔᓂᔮᐗ	-10.1549
ᓃᔑᓂᒡ	-10.1567
▁ᐯᕒᐊ	-10.1572
▁ᑭᓵᑭ	-10.1572
▁ᐅᓇᔓᐌᐎ	-10.1639
ᐲᔖᔮᓐ	-10.1648
ᒋᑫᒪᑲᓂᓂ	-10.1648
ᔕᐌᓂᒫ	-10.1657
▁ᐗᓂᔥᑳ	-10.1675
ᒫᒦᓄ	-10.1678
▁ᐸᑭᑎᓈᒡ	-10.1685
ᐊᔮᓯᐌᒃ	-10.1691
▁ᐃᓀᑖᑾᓂᓂ	-10.1695
▁ᐌᐱᓇ	-10.1708
ᐊᔓᑕᒫᑎ	-10.1749
▁ᑳᑮᐊᓂ	-10.1752
ᑭᐸᐅᑰ	-10.1766
ᑕᐙᓯᐙᐙ	-10.1769
ᑕᓯᕽ	-10.1774
ᐅᓂᔑᔑᓂᓂᒃ	-10.1776
ᐙᓴᑯᓀ	-10.1776
ᒫᐗᒋᐃᑎᔦᒃ	-10.1785
ᒪᐙᐙ	-10.1785
▁ᐹᑏ	-10.179
▁ᓈᓴᕒᐃ	-10.1792
ᓇᓈᑯᒧ	-10.1793
▁ᓂᑖᐸᒋ	-10.1793
▁ᑮᐊᓇᒥᐋ	-10.1794
ᐱᔑᒀᒋᑴ	-10.1794
ᐸᔥᑴᑭᓄ	-10.1794
ᐅᒋᒌᑾᓇᐱ	-10.1794
ᐸᐹᐱᓯᔅᑫᑕ	-10.1794
ᓵᑲᐊᒥᓂᒡ	-10.1794
▁ᐁᐃᔑᓂᑳᓱᒡ	-10.1794
▁ᐅᐐᔭᐎᕽ	-10.1794
▁ᐅᑌᐃᐙᕽ	-10.1794
▁ᐅᑭᒋᐅᑭᒫᒥᐙᓐ	-10.1794
▁ᐅᒥᔅᑸᓂ	-10.1794
▁ᐊᓄᑮᐋᑲᓇᒃ	-10.1794
▁ᐋᓬᐃᑭᓵᑕᕒ	-10.1794
▁ᐯᑳᓂᓯᐙᒡ	-10.1794
▁ᐱᑾᑕᑲᒥᑳᕽ	-10.1794
▁ᐹᕒᓇᐸᓴᓐ	-10.1794
▁ᑫᓅᑕᒪᐙᐙᒡ	-10.1794
▁ᑭᑲᐐᒌᐎᑯᒻ	-10.1794
▁ᑭᒪᒋᑑᑕᒧᐎᓂᓈᓂᓐ	-10.1794
▁ᑳᐅᔥᑳᑎᓯ	-10.1794
▁ᑳᐅᔫᓯᒥᒥᓐᒡ	-10.1794
▁ᑳᐱᒫᒋᐃᓇᕽ	-10.1794
▁ᒌᑲᔭᐄ	-10.1794
▁ᓂᑭᔐᒪᓂᑑᒻ	-10.1794
▁ᓬᐋᓴᕒᐊᔅ	-10.1794
▁ᓵᐃᓬᐊᔅ	-10.1794
▁ᓵᑲᐃᑲᓐ	-10.1794
▁ᐯᑕᓬᐃᐁ	-10.1794
▁ᑭᒪᒋᑑᑕᒧᐎᓂᐙᓐ	-10.1794
▁ᓵᐃᒪᓇᓐ	-10.1794
▁ᔂᓬᐊᒪᓐ	-10.1794
▁ᐁᑭᑐᔮᓐ	-10.1794
▁ᐅᒥᓍᑎᓰ	-10.1794
▁ᐗᑸᕽ	-10.1794
▁ᑭᑫᑌᔭᐋᒥᓈᐸᓃᒃ	-10.1794
▁ᐁᑭᑑᒪᑲᒃ	-10.1794
▁ᔖᐗᓄ	-10.1794
ᒪᔥᑲᐎᑳᐸᐎᔦᒃ	-10.1794
▁ᑮᒋᐱᒫᑎᔅ	-10.1794
ᐅᑑᑌᓈᒥ	-10.1794
▁ᐅᓈᑯᔑᓂᓂᒃ	-10.1794
▁ᓂᑖᓇᑮ	-10.1794
▁ᑌᓄᐎ	-10.1794
ᑮᔖᐯᐎ	-10.1794
▁ᐊᐌᒋᑫᐎᓐ	-10.1794
▁ᐐᑕᓇᒥᐋᓐ	-10.1794
ᐊᐲᑌᑖᑾ	-10.1794
ᑭᓀᐱᑯ	-10.1794
ᑭᔐᐹᐗᑲᓂᓂᒃ	-10.1795
ᐸᔭᑌ	-10.1795
▁ᑭᑌᐺᔦᑕᒧᐎᓂᐙ	-10.1795
▁ᐊᓇᒥᐋᐎᓂᕽ	-10.1795
▁14	-10.1795
ᔖᑲᓱ	-10.1795
▁ᐅᐐᓱᐎᓂᓃᕽ	-10.1795
▁ᐁᔑᓈᑯᓯᐙᒡ	-10.1795
ᐋᓍᐸ	-10.1796
ᒥᓍᑎᓯ	-10.1796
ᔥᑳᓂᒃ	-10.1796
▁ᑳᑎᐯᑕᒥᓂᒡ	-10.1796
ᓰᑭᓈᓐ	-10.1797
▁ᑕᓱᑮᔑᒃ	-10.1798
▁ᐊᓇᒥᐋᐎᓐ	-10.1798
ᑌᐺᐎᓂᐎ	-10.1798
ᑭᑑᒪᑲᓂᓂᒃ	-10.1799
ᒪᑲᓯᓂᓂ	-10.1799
▁ᐅᑮᒥᑲᐙ	-10.1799
▁ᐱᑕᑯᔑᓂᓂᒡ	-10.18
ᐅᓃᒑᓂᓯᒥ	-10.18
▁ᐃᓂᓃᑳᕽ	-10.1801
▁ᓂᑮᐊᓂ	-10.1802
▁ᑭᑫᑕᒧᒃ	-10.1802
▁ᑲᑴᒋᒫᓐ	-10.1802
▁ᓭᑭᓯᑫᓐ	-10.1802
▁ᐁᐃᓈᐙᒡ	-10.1803
▁ᐁᑾᔭᒀᑎᓯᒡ	-10.1804
ᐊᓄᑮᑕᐙᒡ	-10.1804
▁ᓂᑎᓀᑕᒻ	-10.1805
▁ᑳᐃᔑᑖᓂᒡ	-10.1805
ᕒᐄᔭ	-10.1806
ᑯᑖᓀᓂᒫ	-10.181
▁ᑫᔭᐸ	-10.1811
▁ᑳᓵᑭᐋᒡ	-10.1812
▁ᓂᔑᑫ	-10.1814
▁ᓂᓯᑰ	-10.1816
▁ᑮᐃᔑᓂᑳᓱᐗᓐ	-10.1819
▁ᐙᐅᒋ	-10.182
▁ᑳᐯᐸᑳᓉᐙᓇᑭᓯ	-10.1821
▁ᒋᑮᐃᔑ	-10.1821
ᒥᓉᑕᒧᐙᒡ	-10.1822
▁ᑕᐃᔑᒋᑫ	-10.1822
▁ᑕᐹᑏᓄᐗ	-10.1823
▁ᐐᓀᑕᐙ	-10.1829
▁ᒥᑎᑯᕽ	-10.1829
ᐯᔑᒃ	-10.1833
ᔨᕽ	-10.1836
▁ᓃᒌ	-10.1836
▁ᑫᐃᔑᐌᐸᒃ	-10.1846
ᐸᒦᑕ	-10.1847
▁ᐅᐱᒫᑎᓰᒃ	-10.1852
ᑭᑫᑕᓯᒀ	-10.1854
▁ᓂᑮᐙᐸᑖᓐ	-10.1855
ᐐᑑᑲ	-10.1855
▁ᑮᒋᑭᐌᓯ	-10.1856
▁ᐱᐅᒋ	-10.1856
ᐊᓯᓃᒃ	-10.1857
▁ᑲᐯᔑ	-10.1857
▁ᑮᐊᓂᐅᒋ	-10.1862
ᐱᔭ	-10.1863
▁ᑭᐐᔭᐎᐙᓐ	-10.1867
▁ᑌᐺᔦᓂᒥ	-10.1867
ᐌᐱᓇᕽ	-10.187
ᐸᑭᔑᕽ	-10.187
▁ᐅᑮᑲᓅᓈᓐ	-10.1873
ᒥᓴᐌᑕᕽ	-10.1875
ᑭᑭᓄᐃᑫᐎᓇᓐ	-10.1876
ᑎᔭᔅ	-10.1876
ᐐᑎᑫᒫᒡ	-10.1877
ᐐᒋᐃᒃ	-10.1877
▁ᐅᑭᑫᑖᓐ	-10.1881
ᐸᑭᑕᐙ	-10.1884
▁ᐅᒦᑭᐌᐎ	-10.1884
ᑕᒪᓐ᙮	-10.1884
▁ᑌᐺᑕᒥᓂᒡ	-10.1886
▁ᑮᒥᓄᐊᔮ	-10.1891
▁ᒋᑌᐱᓇᒧ	-10.1894
▁ᓂᑖᑮ	-10.1902
ᒪᔥᑲᐙ	-10.1902
ᐱᒫᑎᓯᐎᓂᕽ	-10.1913
▁ᑳᑲᓇᐌᑕᕽ	-10.1915
▁ᒋᐃᔑᒋᑫᔦᒃ	-10.1919
▁ᐁᐐᒌᐌᒃ	-10.1925
▁ᐅᑲᐅᒋ	-10.1947
▁ᒋᑑᑕᒣᒃ	-10.1967
ᐊᓇᒥᐁᑕᐙᐙᒡ	-10.1977
▁ᐁᑮᑲᓅᓈᒡ	-10.1983
▁ᑳᐃᔑᓭᓂᒃ	-10.1989
ᑳᒋᑎᓈ	-10.1991
ᐅᑣ	-10.1992
▁ᑳᑮᐃᑭᑐᓂᒡ	-10.1994
ᐱᓀᓯᐗ	-10.1997
▁ᒦᓂᓐ	-10.1998
ᐃᔑᔭ	-10.2016
ᐐᒋᐋᐙᒡ	-10.2017
ᐌᓅᑎᓯᐙᒡ	-10.2024
▁ᐁᓂᐹ	-10.203
▁ᐅᓈᐯᒥ	-10.2037
ᐊᓯᓃ	-10.204
ᓴᓇᑭ	-10.2046
▁ᒋᐃᔖᓂᒡ	-10.2051
ᓰᐗᓐ	-10.2052
▁ᑮᒥᒋ	-10.2053
▁ᒋᐃᔖᐙᒡ	-10.2066
ᐅᒌᒪᑲᓐ	-10.2068
ᑕᑯᓇᕽ	-10.2073
▁ᑮᒫᒪᐎ	-10.2079
ᒪᑲᒫ	-10.2083
ᑎᓯᒡ	-10.2085
ᑲᑮᑖᐌᑕᕽ	-10.2091
▁ᐃᔖᐗᒃ	-10.2097
▁ᑫᑭᒋ	-10.2105
▁ᒋᐙᐸ	-10.211
▁ᒋᐐᒌᐎᑯᒡ	-10.214
ᐊᓄᑮᑕᐗ	-10.216
▁ᓯᓬ	-10.2173
ᓭᑕ	-10.2176
ᐊᔮᐗᕽ	-10.2204
ᐃᑎᐙᒡ	-10.2209
▁ᐱᒥᓂᔕᐙ	-10.2227
ᑭᑌᓂᒧ	-10.2228
ᑲᓅᓂᓇᑰᒃ	-10.2234
ᒫᒌᑑ	-10.2239
▁ᐃᔑᒫᒑ	-10.225
ᑑᑕᐎᓀᒃ	-10.2275
▁ᑳᐃᓀᓂ	-10.2283
ᓵᑭᒋᐌᐱᓈ	-10.2289
▁ᑭᑭᓄᐊᒪ	-10.2292
ᐙᐸᒋᑳᑌ	-10.2295
ᐃᓈᐸᑎᓯ	-10.2358
ᒥᓴᐌᑕᒧᐙᒡ	-10.2358
ᑑᑕᒻ	-10.2391
▁ᑳᑮᑭᒋ	-10.2418
▁ᐅᑌᐺᑕᒧᐎᓂ	-10.244
ᐅᔑᒋᑳᑌᓂᒃ	-10.2447
▁ᑳᐃᑭᑐ	-10.246
▁ᑕᐃᑭᑐ	-10.2508
ᑑᑕᐎᒃ	-10.2514
▁ᑭᑮᒦᓂᑯ	-10.2515
ᑭᑭᓇᐙᑕᔕᑫᔓᑰ	-10.2525
▁ᐁᒣᓐ	-10.2559
ᓅᑕᒪᐙᓂᒡ	-10.2575
ᑕᑯᓈ	-10.2581
ᑲᓅᓂᓀᒃ	-10.26
ᑾᓅᓐ	-10.2619
ᑎᐹᑯᓂᑫ	-10.262
ᐅᑭᒫᐌᑖᑯᓯ	-10.2623
ᑮᐊᓅᑮ	-10.2624
▁ᑳᑭᑫᓂᒫᓯ	-10.2627
ᑲᓅᓈᐞ	-10.264
ᑰᐹᑌᓂ	-10.2641
ᑑᑕᒪᕽ	-10.2654
ᐐᒌᐙᐞ	-10.2664
ᑲᓇᐌᑖ	-10.2669
ᑎᓱᔭᓐ	-10.2674
ᑕᒪᐎᓈᓐ	-10.2678
ᒪᒋᒥᓴᐌ	-10.2683
ᐅᑭᒫᐗᐱ	-10.2685
▁ᐅᑌᐺᑕᒧ	-10.2685
▁ᑳᑮᐃᓈᑯᓂ	-10.2731
▁ᐙᐐ	-10.2763
ᑮᐃᔑᓂᔕᐙ	-10.2766
ᐐᒋᐃᑰ	-10.2805
▁ᐆᑌᓈ	-10.2812
▁ᑭᑭᓇᐙ	-10.2817
ᓅᑖᑯᒡ	-10.2842
▁ᐸᑭᑎᓈᓱ	-10.2848
ᐙᐸᑕᒧᐙ	-10.2853
ᑭᒋᐅᑭᒫᐎᓂᒡ	-10.2856
ᓀᓂᒥᑯᒡ	-10.2859
ᐗᑮᕽ	-10.286
ᑖᑯᓯᔦᒃ	-10.2865
ᒨᒪᑲ	-10.2866
▁ᒫᓯᑑᓂ	-10.2866
ᓇᑰᑭᐸᓐ	-10.287
▁ᑎᒫᔅᑲ	-10.2873
ᐅᒑᓂᒣᑕ	-10.2876
ᐐᒋᐐᓯᓃᒫ	-10.2876
ᑭᓰᐲᑭᓯᑌ	-10.2876
ᓇᒪᑎᓂᑭᕽ	-10.2876
▁ᐃᔅᑫᕒᐃᔭᑦ	-10.2876
▁ᐅᐱᒫᒋᐃᐌ	-10.2876
▁ᐅᑌᔥᑲᓇᐞ	-10.2876
▁ᐅᑎᓈᑯᓂᑫᐎᓂᓂ	-10.2876
▁ᐅᑎᔑᓂᔕᐙᑲᓇᓐ	-10.2876
▁ᐅᑕᒑᑯᕽ	-10.2876
▁ᐅᑭᑭᔥᑭᑲᓂᓂ	-10.2876
▁ᐅᒥᓍᒋᒧᐎᓐ	-10.2876
▁ᐋᐃᓯᑰᓐ	-10.2876
▁ᐋᐌᒋᑲᓇᓐ	-10.2876
▁ᐙᐱᔥᑮᑭᓐ	-10.2876
▁ᐱᓬᐊᐴᓐ	-10.2876
▁ᐸᑭᑎᓈᓱᐎᓈᐱᑯᕽ	-10.2876
▁ᑕᔕᐌᑖᑯᓯ	-10.2876
▁ᑫᑎᒫᑭᓯᐙᒡ	-10.2876
▁ᑭᑎᑳᓈᑎᑯᑳᕽ	-10.2876
▁ᑭᑑᔑᐲᐊᒪᐎᓐ	-10.2876
▁ᑭᑕᓄᑮᐋᑲ	-10.2876
▁ᑰᑰᔕᐞ	-10.2876
▁ᑳᐅᑕᑳᓀᓯᔭᓐ	-10.2876
▁ᑳᑌᐺᑕᓯᒀ	-10.2876
▁ᒉᑲᐴᓐ	-10.2876
▁ᒥᓍᒋᒧᐎᓂᓂ	-10.2876
▁ᒥᔅᑸᕽ	-10.2876
▁ᓬᐋᓴᕒᐊᓴᓐ	-10.2876
▁ᓴᑭᓂᑫᓈ	-10.2876
▁ᓵᑭᒐᔭᐄ	-10.2876
▁ᔖᐳᔥᑳ	-10.2876
ᐐᑾᑎᐗᑲᒥᑭᓯ	-10.2876
ᒪᒫᒋᑾᐱᓱ	-10.2876
ᔕᔒᐯᑕᒣᒃ	-10.2876
ᔖᐾᐃ	-10.2876
▁ᐅᑎᔑᓂᑳᓱᐎᓂᓃᕽ	-10.2876
▁ᑫᑌᐃᓈᑎᓯᐎᓐ	-10.2876
ᐋᐸᒋᑑᓇᓐ	-10.2876
ᒥᓍᒋᐋ	-10.2876
▁ᒌᐯᑲᒥ	-10.2876
▁ᐃᑴᓭᓴᓐ	-10.2876
▁ᐅᑭᔐᐙᑎᓯᐎᓂᕽ	-10.2876
ᐊᔮᒀᒥᒥ	-10.2876
▁ᐯᕒᐊᓰᐎᓂᓂᐗᒃ	-10.2876
▁ᑫᓅᑕᒫᑯᒡ	-10.2876
▁ᐅᓂᔑᔑᓐ	-10.2876
▁ᒥᓋᑭᒥ	-10.2876
▁ᒥᑎᑰᓐ	-10.2876
▁ᑭᑭᓄᐊᒪᐙᑲᓇᐞ	-10.2876
▁ᓇᑴᑖᑯᒡ	-10.2876
ᐙᑳᐃᑫ	-10.2876
ᑕᐸᓭᑖᑯᓯ	-10.2876
▁ᑮᓅᑕᒨᒃ	-10.2876
ᑆᓇᐎᒋᑫ	-10.2876
▁ᑳᐃᓀᑕᒧᐙᒡ	-10.2876
▁ᑳᒥᑖᔑᓃᔑᓂᒡ	-10.2876
▁ᐅᑭᒫᐎᐎᓐ	-10.2876
▁ᐅᑕᐗᑳ	-10.2876
▁ᑑᐳᐎᓈᑯᕽ	-10.2876
▁ᐐᓯᓃ	-10.2876
▁ᒀᕒᐃ	-10.2876
ᐊᑮᐗᕽ	-10.2876
▁ᑳᓂᑖᐎᑭᑭᓐ	-10.2876
▁ᐅᑲᓅᑕᒫᑫ	-10.2876
▁ᐁᓀᑖᑾᒃ	-10.2876
▁ᐅᐐᔭᐎᓂ	-10.2876
▁ᑌᐺᔦᑕᒧᐎᓂᕽ	-10.2876
▁ᐁᓀᑕᒣᒃ	-10.2876
▁ᓅᑎᓐ	-10.2876
ᑲᓅᓂᑰᐞ	-10.2876
▁ᓂᐱᒫᑎᓯᐎᓐ	-10.2877
ᑌᐸᑫᑖᑯᓯ	-10.2877
▁ᑳᑎᐯᓂᒥᒥᓇᕽ	-10.2877
ᐊᔕᒫᒡ	-10.2877
ᑲᓅᓂᓂᓂᒻ	-10.2877
ᐯᐸᑳᓂᑮᔗ	-10.2877
ᐋᓇᐌᒋᑫ	-10.2877
▁ᑳᑕᓶᐙᓇᑭᓯᓂᒡ	-10.2878
▁ᑕᓱᐱᐴᓐ	-10.2878
▁ᒋᑎᐯᓂᒥᓀᒃ	-10.2878
ᓇᑳᔥᑲ	-10.2878
▁ᐁᓀᑕᕽ	-10.2878
▁ᓂᒫᒫ	-10.2879
▁ᑲᔥᑭᒫ	-10.2879
▁ᒣᓬᑭᓯᑌᑰᓐ	-10.2879
▁ᑭᒋᒪᓯᓇᐃᑲᓂᕽ	-10.2881
▁ᑸᐎᓭᓴᓐ᙮	-10.2881
▁ᐆᑌᓈᑳᕽ	-10.2882
ᒥᓉᑕᒣᒃ	-10.2883
▁ᐃᔥᒀᑌᒥᐗ	-10.2883
ᐱᓱᑫ	-10.2884
ᑸᓇᐎ	-10.2884
ᐃᔥᑯᓭ	-10.2884
ᔒᑫᓂᒥᓀᒀ	-10.2884
▁ᐊᓇᒥᐋᒃ	-10.2885
ᓍᓂᑎᓱ	-10.2885
▁ᐲᑕᕒᐊᓐ	-10.2887
ᔕᔒᐱᑕᒧᐙᒡ	-10.2888
▁ᓃᒋᑭᐌᓯ	-10.289
▁ᑰᓯᐙ	-10.289
▁ᑭᑎᑰᒃ	-10.2892
▁ᐁᐃᔑᓂᑳᑌᒃ	-10.2892
ᐐᑕᒫᑰᒻ	-10.2894
ᐃᑰᐞ	-10.2895
ᑭᑫᑖᑾᒃ	-10.2897
▁ᑕᔑᑕᒥᓂᒡ	-10.2904
▁ᑫᐃᔑᓭᒃ	-10.2906
▁ᐸᑭᓯ	-10.2907
ᐯᑲ	-10.2909
▁ᑳᐯᑭ	-10.2914
ᒋᑳᑌᓯᓅᓐ	-10.2914
▁ᑮᓇᑴᑕ	-10.2915
ᐙᐸᒥᔦᒃ	-10.2916
▁ᓅᐗ	-10.2916
▁ᑳᔑᐊᔮᔦᒃ	-10.2917
ᐋᐌᒋᑫ	-10.292
▁ᐅᑮᐃᓇᓵ	-10.2922
▁ᑭᐐᓱᐎᓐ	-10.2924
▁ᐅᑮᑲᓅᓈᐞ	-10.2924
▁ᐁᐃᔑᓭᒃ	-10.2925
ᐅᑭᑭᓄᐊᒪᐙᑲ	-10.2931
ᐊᓄᑮᒪᑲᒃ	-10.2933
ᐊᓄᑮᒪᑲᓂᓂᒃ	-10.2937
▁ᓂᑭᑫᓂᒫᓰ	-10.2938
ᓂᓯᑕᐎᓈ	-10.2938
▁ᐁᔑᐸᑯᓭᓂᒥ	-10.2939
▁ᐁᔑᒋᑫᔦᒃ	-10.2943
ᐐᑕᒪᐙᐞ	-10.2943
ᒥᓉᑖ	-10.2945
▁ᐃᔑᐌᐱᓯᐎᓐ	-10.2947
▁ᓃᐎᕽ	-10.2949
▁ᑕᓇᓈᑯᒫ	-10.295
ᐃᔑᐎᓂᓐᒡ	-10.2953
▁ᐁᓀᑖᑯᓯᐙᒡ	-10.2953
▁ᒋᐊᑕᐎ	-10.2955
ᐗᓯᓅᓐ	-10.2956
ᓂᒥᓂᓂᒻ	-10.296
ᐐᒌᐎᑰᐞ	-10.2961
▁ᑳᑮᐃᓂᑣ	-10.2964
ᓬᐁ	-10.2971
▁ᑮᐃᔑᓈᑯᓯ	-10.2974
▁ᐁᓅᑖᑯᒡ	-10.2976
▁ᐁᒦᑳ	-10.2976
ᑌᓯᓅᓐ	-10.2978
ᐊᔮᓯᒀ	-10.2999
▁ᑲᒀᑕᑭᑑᐎᓐ	-10.3
ᑲᓅᔑᒡ	-10.3
▁ᐁᔑᒋᑫᓂᒡ	-10.3002
▁ᑳᑮᐅᓈᐸᒥᑯ	-10.3005
▁ᓈᓯᑳᑯᒡ	-10.3013
ᐊᑯᓴᑲᐙᐙᒡ	-10.3032
▁ᐁᐅᒌᒪᑲᒃ	-10.3033
ᑌᐺᑕᓯᓂᒃ	-10.3036
ᓈᑕᒪᐎ	-10.304
▁ᐃᔑᐱᒫᑎᓯᒃ	-10.3041
▁ᒋᐅᑖᐱᓇ	-10.305
ᓅᑕᒫᓐ	-10.305
ᐅᒑᓂᒥᓯ	-10.3064
▁ᓂᑎᔑᒋᑫ	-10.3069
▁ᐅᑮᐸᑭᑎᓈ	-10.3076
▁ᐊᑐᒥ	-10.3077
ᐙᐸᑕᒫᓐ	-10.3084
ᒀ᙮	-10.3102
▁ᓂᑮᒥᑲᐙ	-10.3107
ᐙᓀᓐ	-10.3117
ᐃᔑᒋᑫᔦᑭᐸᓐ	-10.3122
▁ᐃᑭᑐᐗᒃ	-10.3134
ᓇᑲᓂᑯᒡ	-10.3137
ᒫᓀᑕᒥ	-10.3143
ᔨᔑᓭ	-10.3145
ᐅᒌᒪᑲᓂᓂᒃ	-10.3158
▁ᑳᑮᓇᑲ	-10.3162
▁ᐃᔑᒋᑫᐎᓐ	-10.3183
▁ᑎᐯᑖᑯᓯᓂᒡ	-10.3184
▁ᐁᔮᔦᒃ	-10.3194
ᔥᑳᑯᓈᐙ	-10.3205
▁ᑳᐅᒌᓂᒡ	-10.3212
ᒋᐸᑭᑎᓂ	-10.3227
▁ᐃᔑᐌᐸ	-10.3235
ᓈᑾᓯᓅᓐ	-10.324
▁ᐱᒫᒋᐃᑰᐎᓯ	-10.325
ᑭᐸᐊ	-10.3269
ᒌᑫᑕᒻ	-10.3292
ᐃᑎᐗᒃ	-10.3323
ᑕᒫᑫᒡ	-10.3334
ᐐᒌᐎᓀᒃ	-10.3338
▁ᐱᓈᓯᑳᑰ	-10.3341
ᓇᑲᔑ	-10.3343
▁ᑎᐯᑖᑯᓯᐙᒡ	-10.3352
ᐱᑕᑶᔑᕽ	-10.3381
ᐋᐸᒋᑑᐙᒡ	-10.3383
ᐴᔔᐋ	-10.345
▁ᓂᐙᑳᐃᑲ	-10.3461
ᐅᓂᔑᔑᓯᓅᓐ	-10.3481
ᓅᑖᓈᐙ	-10.3488
▁ᐁᓇᓄᑮ	-10.3497
▁ᒋᒥᓍᐸᒥ	-10.3503
▁ᐊᔮᒀᒥ	-10.3503
ᒥᑎᐸᓐ	-10.3514
ᐃᔑᓈᑯᓯᔮᕽ	-10.3524
ᐊᑖᐙ	-10.3529
▁ᒋᓂᔑᐗᓈᑕ	-10.3532
▁ᐅᑮᓅᑖ	-10.3549
▁ᑭᐱᑎ	-10.3567
ᐃᑭᑐᒡ	-10.357
ᐹᐱᓄᑕᐙ	-10.3571
ᐃᓇᓵ	-10.3582
▁ᒋᐃᓂ	-10.3594
▁ᒋᓵᑭ	-10.3597
▁ᐴᓀᑕᒪ	-10.3605
ᒥᓄᓈᑯᓯ	-10.3632
ᒫᔑᒥᑕᑎᒨ	-10.366
ᐃᔥᒀᓭᓂᒃ	-10.3672
▁ᑳᑎᐯᑕ	-10.3672
ᑲᓅᒋᑫᑕ	-10.369
ᓂᓵᒡ	-10.3702
ᐃᑳᑌᒃ	-10.3708
ᑲᒥᑲ	-10.3709
▁ᑭᑕᓇᒥ	-10.3712
ᐐᒌᐗᒀ	-10.3747
ᐸᓯᑸ	-10.3789
ᐎᓂᓈᓂᓐ	-10.379
ᐸᐸᔕᔐᐅ	-10.3809
▁ᑭᑮᓅᑖ	-10.3823
▁ᐱᒫᒋᐃ	-10.3824
▁ᑳᑮᑮᐌᐱᒫᑎᓯ	-10.3824
ᒋᔥᑳ	-10.3825
ᐃᔑᓈᑯ	-10.3826
▁ᓂᑮᐃᔑᒋᑫ	-10.3827
ᑕᑯᔑᓂᓂᒡ	-10.3829
▁ᒫᒌᔮᔑ	-10.3835
ᐱᓵᓂ	-10.3859
ᒦᓂᑯᓈ	-10.3873
▁ᐅᑭᑫᓂᒫ	-10.3877
ᐙᐸᒥᒃ	-10.3883
▁ᑾᔭᑯᒋᑫ	-10.3891
▁ᑳᑭᑭᔥᑳᑯ	-10.3906
▁ᑫᓂᔑᐗᓈᒋ	-10.4001
▁ᔔᒥᓂ	-10.4023
ᐺ	-10.4045
▁ᒥᑎᑯ	-10.4045
▁ᐊᔭᐋ	-10.4057
ᔐᒪᓂᑑ	-10.406
ᑭᑫᑖᒻ	-10.4063
ᑎᐸᐃᑲᓀᔮ	-10.4078
▁ᒋᐯᑭ	-10.4084
▁ᑫᐊᓂ	-10.4086
ᒋᒫᒥᑲᐎᔦᒃ	-10.4086
ᐸᔕᔐᐙ	-10.4088
ᓯᓄᐎ	-10.4089
9	-10.4089
ᐙᓭᔮᓂᒃ	-10.4089
ᐱᒫᑎᓰᔥᑳᑫᒪᑲ	-10.4089
ᐸᓯᑴᐱᓱ	-10.4089
ᑌᐱᓇᒫᓱ	-10.4089
ᑕᐱᔑᒧᓐ	-10.4089
ᒪᔥᑲᐌᑕᒣᒃ	-10.4089
ᓅᑕᔮᐹᑴ	-10.4089
ᓈᓂᒥᑕᓇ	-10.4089
▁ᐅᐐᑎᑫᒫᑲᓂᓂ	-10.4089
▁ᐅᐐᑎᑫᒫᑲᓇᓐ	-10.4089
▁ᐅᐐᔭᐎᐙᓐ	-10.4089
▁ᐅᑌᒐᓬᐃᒥᐙ	-10.4089
▁ᐅᑎᑭᑐᐎᓂᐙ	-10.4089
▁ᐅᑑᑭᒫᐎᐎᓐ	-10.4089
▁ᐅᑭᒋᐊᓇᒥᐁᐎᑲᒥᒃ	-10.4089
▁ᐅᑲᓇᐎᒫᓇᒑᓂᔑᐌ	-10.4089
▁ᐅᒋᑎᐯᑖᑯᓯ	-10.4089
▁ᐅᓇᑕᐌᓂᒫ	-10.4089
▁ᐊᑆᓬᐊᔅ	-10.4089
▁ᐊᔭᐋᐎᔕᒃ	-10.4089
▁ᐌᑕᑳᓀᓯ	-10.4089
▁ᐗᓇᑯᔕᐞ	-10.4089
▁ᐸᕒᐋᐸᔅ	-10.4089
▁ᐹᐱᓬᐊᓐ	-10.4089
▁ᑭᑫᑌᔭᐋᒥᓈᐸᓃᐞ	-10.4089
▁ᑭᑭᔐᑉ	-10.4089
▁ᑭᔥᑮᔑᑰᓐ	-10.4089
▁ᑮᐅᑯᓯᓯ	-10.4089
▁ᑮᐊᓂᒫᒑ	-10.4089
▁ᑳᐅᑕᑳᓀᓯᐙᒡ	-10.4089
▁ᑳᐸᒦᑖᑫᒡ	-10.4089
▁ᑳᑲᑮᐹᑎᓯ	-10.4089
▁ᒪᐎᓀᔥᑲᐙ	-10.4089
▁ᒪᒋᑫᑰᓇᓐ	-10.4089
▁ᒪᒋᑭᑎᑳᓇᓐ	-10.4089
▁ᒫᑲᑕᓬᐊᐎᑴ	-10.4089
▁ᓈᐯᐹᑲᐋᒀᓐ	-10.4089
▁ᓵᐃᐸᕒᐊᔅ	-10.4089
▁ᔑᒫᑲᓂᔕᓐ	-10.4089
▁ᔔᒥᓈᑎᒃ	-10.4089
ᐐᓴᑳᐱᓀ	-10.4089
ᓂᓱᑮᔑᑾᑳᒃ	-10.4089
▁ᐁᐃᔑᓂᑳᓱᓂᒡ	-10.4089
▁ᐁᓃᐸᐎᓂᒡ	-10.4089
▁ᐅᑕᔭᐄᒪᓐ	-10.4089
▁ᑣᒪᔅ	-10.4089
▁ᑭᒋᐊᓇᒥᐁᐸᒀᓀᑲᒥᑯ	-10.4089
▁ᑭᒋᒨᑯᒫ	-10.4089
▁ᑳᐃᔑᑎᐯᑖᑯᓯ	-10.4089
▁ᒋᓴᓱᕽ	-10.4089
▁ᒥᔑᐱᔑ	-10.4089
ᐅᔑᐲᐃᑳᑌᒃ	-10.4089
ᔑᐲᐊᒪᐤ	-10.4089
▁ᐁᑮᐃᔑᓂᑳᓱᒡ	-10.4089
▁ᐁᐱᓴᓯᕽ	-10.4089
▁ᑮᐅᒋᐅᔑᒋᑳᑌ	-10.4089
▁ᑮᑕᓇᒥᐋᓈᓂᒃ	-10.4089
▁ᒥᑎᑰᒃ	-10.4089
▁ᐅᑌᐺᔦᑕᒧᐎᓂᕽ	-10.4089
ᐊᑳᓰᓄ	-10.4089
ᓂᐴᒪᑲᒃ	-10.4089
ᓃᔥᑕᓇᔑᓃᐎ	-10.4089
▁ᐯᑕᓃᕽ	-10.4089
▁ᐸᐸᑭᑌᐙᐙᒡ	-10.4089
ᐙᐸᑕᒧᐗᕽ	-10.4089
ᒦᒋᓈᑳᑌᒃ	-10.4089
ᓇᒥᐁᐗᓄᑮ	-10.4089
▁ᑮᐗᓂᔥᑳ	-10.4089
ᑭᓰᓂᒌ	-10.4089
▁ᐁᑭᑐᐙᒡ	-10.4089
▁ᐊᐲᑌᑖᑯᓯᓰ	-10.4089
ᒪᒫᑳᔥᑳ	-10.4089
ᐃᔑᓂᔕᐗᒃ	-10.4089
ᑭᑭᔥᑲᐙᐗᓱ	-10.4089
▁ᐯᔑᑯᑎᐸᐃᑲ	-10.4089
▁ᑎᐱᑭᑮᓯᔅ	-10.4089
▁ᑭᒋᐊᐱᐎᓐ	-10.4089
▁ᑕᐃᓇᑭᒫ	-10.4089
▁ᑳᑮᐐᑕᒪᐙᒡ	-10.4089
▁ᒫᓯᑑᓂᔮᐗᑮᕽ	-10.4089
ᐱᒥᓂᔕᐃᑫ	-10.4089
ᑌᐺᔦᑕᒣᒃ	-10.4089
▁ᒪᒋᑑᑕᒧᐎᓂᕽ	-10.4089
▁ᑮᐃᑭᑑ	-10.4089
▁ᑕᑯᔑᓈᓐ	-10.4089
▁ᑭᔐᐙᑎᓯᐎᓐ	-10.4089
ᐲᐎᑌᐎ	-10.4089
▁ᑳᓵᑭᐊᒃ	-10.409
▁ᐁᐐᒌᐗᕽ	-10.409
▁ᑭᑎᑳᓈ	-10.409
ᐸᑫᐎᓂᑎ	-10.409
▁ᑭᐐᑕᒪᐎᓐ	-10.409
▁ᒥᑯᔥᑳᑌᑕᑫᒃ	-10.409
▁ᐁᓀᑕᒥᓂᒡ	-10.409
ᐱᒋᑯᓇᔦ	-10.409
▁ᐅᑎᒀᓐ	-10.409
▁ᐅᐱᒣᔭᐄ	-10.409
▁ᑳᐅᓈᐸᒫᒡ	-10.409
▁ᐅᑮᐅᔑᑑᓐ	-10.409
ᑭᔐᒪᓂᑑᐎ	-10.409
▁ᐁᑮᓇᓈᑯᒧᒡ	-10.4091
▁ᓂᑮᐃᓈᑉ	-10.4091
▁ᐸᑭᓯᓅᓐ	-10.4091
ᐹᑮᑭ	-10.4091
▁ᔖᑰᓱᒫ	-10.4091
▁ᐅᓂᐴ	-10.4092
▁ᒪᒋᒋᑫᐎᓐ	-10.4092
ᑕᒫᐹᓐ	-10.4092
ᐊᓄᑮᑕᐌᒃ	-10.4093
▁ᐁᑲᑭᑐᒡ	-10.4093
▁ᑳᑮᐃᔖᒡ	-10.4093
▁ᐁᑮᐊᐸᑭ	-10.4093
▁ᑮᐴᓯ	-10.4094
▁ᒋᒥᓄᐐᒌᐎᑯᒡ	-10.4095
▁ᐃᔑᓇᒧᐎ	-10.4095
▁ᐅᑮᒦᓈᓐ	-10.4095
▁ᑳᐅᓂᔑᔑᓂᓂᑭᓐ	-10.4095
▁ᑳᐊᔮᓂᑭᓐ	-10.4095
ᐋᐸᑕᒃ	-10.4098
ᓂᔥᑫᓂ	-10.4098
▁ᑎᐯᒋᑫᐎᓐ	-10.4099
▁ᐁᐅᑯᓯᓯᒥᑯ	-10.4099
▁ᑳᑎᐯᓂᒥᓀᒃ	-10.4101
▁ᐁᑭᑭᓄᐊᒫᑫᒡ	-10.4101
▁ᐱᒥᓂᔕᐅᑯᒡ᙮	-10.4101
▁ᒥᒋᐯᔑᑯ	-10.4101
▁ᐅᓄᐌᓂᐗᐞ	-10.4103
ᓈᑯᐃᑎᓱ	-10.4106
▁ᐊᓄᑮᐎᓇᓐ	-10.4106
ᐅᓀᑕᕽ	-10.4107
▁ᐅᐙᑳᐃᑲᓐ	-10.4108
▁ᓬᐄᐹᐃ	-10.4108
▁ᑮᔑᑲᓐ	-10.4109
▁ᑳᐅᓂᔑᔑᑭᓐ	-10.4109
▁ᐅᑮᐅᑎᓯᑯ	-10.411
▁ᑳᐃᓂᒥᓐᒡ	-10.4113
▁ᐱᑕᑯᔑᕽ	-10.4113
▁ᐁᑎᓄᐎᒡ	-10.4115
▁ᐅᑖᑯᓰᐞ	-10.4115
ᑭᑕᑭᒥ	-10.4116
ᓂᐴᑕᒪᐙ	-10.4117
ᑯᓵᐙᐞ	-10.4117
▁ᐸᑭᑎᓈᓱᐎᓂᕽ	-10.4118
ᐊᑕᐌᑕᒣᒃ	-10.4119
ᑕᑯᔑᓅᒪᑲ	-10.4119
▁ᓇᐃᑕᐎ	-10.412
ᒪᒥᔑᒥᑯᒡ	-10.4121
▁ᐅᑮᓅᑕᐙ	-10.4122
ᐊᑐᓀᐊ	-10.4123
ᐅᑎᓯᑯᒡ	-10.4124
▁ᐅᑭᒋᐊᓇᒥᐁᐎᑲᒥᑯ	-10.4128
▁ᐅᑕᔮᓰᓐ	-10.4129
ᑭᑫᒋᑳᑌᒃ	-10.413
▁ᑳᐅᑯᓯᓯ	-10.413
▁ᑳᐃᑕᕽ	-10.4133
▁ᐁᐱᒫᑎᓯᒡ	-10.4134
ᑭᑕᑭᒫ	-10.4136
ᒥᑳᓐ	-10.4137
ᐐᒋᐃᑯᓰ	-10.4137
▁ᑮᐃᓈᐱ	-10.4139
▁ᒌᑭ	-10.4139
ᑮᑮᐌᐱᒫᑎᓯᐃᓐᒡ	-10.4141
ᑑᑫᒃ	-10.4141
▁ᓂᐙᐸᑖᓐ	-10.4141
▁ᑳᑮᐊᑐᒫᒡ	-10.4141
ᑌᐺᑕᒻ	-10.4142
▁ᑳᑲᔥᑭᐁᐎᓯ	-10.4146
ᑭᑭᓇᐙᐸᒥ	-10.4146
▁ᑭᑎᑫᐎᓐ	-10.4148
ᑌᐱᓇᕽ	-10.4149
▁ᑮᒫᐗᒋᐃᑎᐗᒃ	-10.4152
ᒪᒉ	-10.4152
▁ᒦᒋᒥ	-10.4156
ᑑᑕᐌᒀ	-10.416
▁ᐃᔑᐱᒧᓭ	-10.4167
ᐅᑎᓇᕽ	-10.4169
ᐅᔑᐲᐃᑳᑌᓂᒃ	-10.4169
▁ᐁᐐᐊᑕ	-10.4172
▁ᑳᑮᐃᔑᓭᓂᒃ	-10.4174
ᑲᔥᑭᒋᑳᑌ	-10.4181
▁ᐁᔑᓂᑳᑌᓂᒃ	-10.4186
ᑲᒀᑕᑭᐋᐗᒃ	-10.4189
ᐐᐊᓂ	-10.4196
▁ᓵᑭᐃᐌ	-10.4196
▁ᓇᑲᓂ	-10.4207
ᐌᓅᑎᓯᔦᒃ	-10.4231
ᒦᓂᑰᔮᓐ	-10.4252
▁ᑕᒦᓈᐗᒃ	-10.4255
ᑭᒋᓅᑎ	-10.4256
ᐋᔕᐗᐊ	-10.4257
ᓂᑖᐎᑭᓅᓐ	-10.4265
ᔥᑳᑯᐙ	-10.4268
ᑮᐃᑭᑐᓂᑯᐸᓀᓐ	-10.427
ᐗᔦᔑᑫ	-10.4279
ᒦᓂᑰᔭᕽ	-10.4283
▁ᒦᔑᔑ	-10.4283
ᐅᓇᓯ	-10.4283
ᑌᐺᑕᓯᒃ	-10.4287
ᐙᐸᑕᒪᓐ	-10.4294
ᓂᐳᓰ	-10.4295
ᐗᓂᑭᑭᓄᐃᑫ	-10.431
▁ᓀᑖ	-10.4311
ᓂᔕᐅᑯᐙ	-10.4328
▁ᒋᓇᑲ	-10.4333
ᐅᑖᐱᓇᒧᐙᒡ	-10.4333
ᑕᓯᑭᓐ	-10.4338
ᐐᒌᐎᓇᑰᒃ	-10.4345
▁ᑫᐃᔑᓈᑯᓯ	-10.4359
ᑭᑫᓂᒥᑰᒃ	-10.4385
ᑎᐹᑯᓂᑲᓂᐎ	-10.4392
ᐐᑕᒪᐎᑣ	-10.44
ᐋᓈᓐ	-10.4434
ᐙᐸᒥᓇᑰᒃ	-10.4439
ᑭᑫᓂᒫᐙ	-10.4452
ᑲᒀᑕᑭᑑᔦᒃ	-10.4479
ᐊᑐᒫᒡ	-10.4502
ᐗᓂᒋᑫ	-10.4516
▁ᐙᐱᑲᓂ	-10.4531
ᐅᓈᐯᒥᒡ	-10.4532
ᑳᔖᓂ	-10.4555
▁ᐊᑕᐙᐸ	-10.4585
ᐋᓈᐙ	-10.4589
ᓵᑭᑑᒡ	-10.4622
ᑎᓱᐙᒡ	-10.4628
▁ᔕᐌᓂᒥ	-10.4635
ᒥᓄᐐᒌᐎ	-10.4636
ᑮᓯᔅ	-10.4654
▁ᐅᓈᐯᒥᒫ	-10.4658
ᑮᔑᓈᑯ	-10.4662
ᓃᐸᐎᐗᒃ	-10.4693
▁ᐅᑑᓇᔓᐌ	-10.4703
ᐴᓀᑕᒪᐎᓐ	-10.4704
▁ᑮᔖᑯᐌ	-10.4729
ᒥᑲᒧᐙ	-10.4782
▁ᐅᒪᒋᒋᑫᐎ	-10.4791
ᐙᐸᑖᒥᓐ	-10.4793
ᒋᔥᑲᐎ	-10.4803
ᐅᑌᑌᒫ	-10.483
ᐃᔑᒋᑫᓰᒥᓐ	-10.4852
ᐃᑾᒃ	-10.4862
ᐅᒋᒥᓄᓭ	-10.4889
▁ᑳᑎᐯᓂ	-10.4891
ᐐᒌᐎᑯᓂᒡ	-10.4915
ᑕᔑᑌᒃ	-10.4933
ᓃᑳᓂᔥᑲᐙ	-10.4942
ᑕᑯᔑᓄ	-10.4954
ᑌᐺᑕᒨᒃ	-10.4956
ᓇᒪᐎᑣ	-10.498
▁ᐯᐸ	-10.5009
ᐊᑌᒃ	-10.5026
ᑭᑭᔥᑳᑯᒡ	-10.506
ᑑᑕᐙᐙᒡ	-10.5082
▁ᑳᐊᐲᑌᑖᑯᓯ	-10.512
▁ᒋᐅᑖᐱᓇᒪ	-10.5137
▁ᒋᐱᓯᑕ	-10.5138
ᒥᓄᐃᔑᐌᐱᓯ	-10.5155
▁ᒋᑑᑕᐎ	-10.516
ᒫᔑᒋᑫ	-10.5162
▁ᓵᐃ	-10.5172
ᓈᑯᒋᑳᑌ	-10.5177
▁ᐅᑭᑎᑫ	-10.5182
▁ᐅᑑᑭᒫᒥ	-10.5185
▁ᑭᑌᓂ	-10.5211
ᐙᐹᐱᑯ	-10.5219
ᐙᑳᐃᑲᓂ	-10.5225
ᒋᑳᑌᓯᓂᓂ	-10.524
ᐸᒋᑑᓰᓐ	-10.5242
ᐃᔑᓈᑾᓯᓅᓐ	-10.5291
ᐊᑯᓴᑲᐙ	-10.5297
ᐅᓀᓂᒥ	-10.5326
ᓈᑎᓯᔦᒃ	-10.5337
▁ᑳᐃᓀᑖᑾ	-10.5351
ᐊᐸᐃᐌ	-10.5351
▁ᐁᒦᑴᒋᐌᓂ	-10.5351
▁ᑭᐐᔭᐎᐙ	-10.5365
ᐲᒋᓂᔕᐙ	-10.5367
▁ᑕᐅᒌ	-10.5371
▁ᐅᐱᒫᑎᓰ	-10.5384
▁ᐊᑯᓈ	-10.5389
ᐐᒌᑎᔭᕽ	-10.5402
ᑎᑳᑕᕽ	-10.5406
▁ᒋᐅᒌ	-10.5414
ᑮᐊᓇᒥᐁ	-10.5433
▁ᑮᐃᔑᓂᑳᓱ	-10.5433
ᑲᑴᑗᔦᒃ	-10.5448
▁ᓬᐄᐹ	-10.5449
ᓇᑭᒥᓐᒡ	-10.5462
▁ᑸᐎᓭᓴ	-10.5463
▁ᒣᓬᑭᓯᑌ	-10.5465
ᔒᐎᑖᑲ	-10.5466
ᐊᓈᒣᑖᑯᓯ	-10.5466
▁ᑲᐸᕒᓂᔭ	-10.5469
ᑫᑌᔭᐋᒥ	-10.547
▁ᓬᐁᔮᑎᓰ	-10.547
ᒌᑲᑲᒥᑭᓯ	-10.547
▁ᐸᕒᐃᓯᓬᐊ	-10.547
▁ᓂᑯᑣᓯᒥᑕᓇ	-10.547
ᐱᔑᒀᑎᓰ	-10.547
ᐹᐹᐗᐃᑫ	-10.547
ᑌᐺᔦᓂᒥᑰᐞ	-10.547
ᑭᔑᓱᐙᐱᓀ	-10.547
ᑲᔥᑮᑎᐱᑲᒃ	-10.547
ᒦᑴᒋᐌᓂᒥ	-10.547
ᒪᓯᓇᐊᒪᐙ	-10.547
ᓃᑳᓇᑭᓱ	-10.547
ᓰᑲᐊᑕᐎ	-10.547
ᓰᔮᐹᐗ	-10.547
ᓵᑲᐊᒧᐙᒡ	-10.547
ᔾ	-10.547
▁ᐁᐃᑭᑑᒪᑲᒃ	-10.547
▁ᐃᔥᑾᒋᑲᓇᓐ	-10.547
▁ᐅᐸᒦᑖᑫ	-10.547
▁ᐅᑎᓇᐌᒫᑲᓂ	-10.547
▁ᐊᑶᓬᐊ	-10.547
▁ᐊᒑᑯᕽ	-10.547
▁ᐊᒑᑾᒃ	-10.547
▁ᐊᓄᑮᐋᑲᓇᐞ	-10.547
▁ᐊᓇᒥᐁᐎᑲᒥᑯᑳᕽ	-10.547
▁ᐊᔭᐋᐎᔕᐞ	-10.547
▁ᐐᓂᓯᓴᓐ	-10.547
▁ᐗᓯᑖᐎᓭ	-10.547
▁ᐱᐁᓬᓯᐳᓬ	-10.547
▁ᑎᑎᐲᑭᓂᑲᓂ	-10.547
▁ᑭᐱᔥᑭᐗᓯᑲᓐ	-10.547
▁ᑭᑑᔑᐲᐊᒫᑰᒻ	-10.547
▁ᑭᒋᐅᓇᔓᐌᐎᑭᒫ	-10.547
▁ᑭᓅᔐᐞ	-10.547
▁ᑭᔥᑮᔑᑯᕽ	-10.547
▁ᑮᒫᒪᑳᑌᑕᒨᐞ	-10.547
▁ᑮᒫᒪᑳᑌᑕᒨᒃ	-10.547
▁ᑰᑰᔕᒃ	-10.547
▁ᑳᐃᓇᑭᒋᑳᓱᒡ	-10.547
▁ᑳᐃᔑᐲᐃᑳᑌᓂᒃ	-10.547
▁ᑳᐅᑴᓄᓂᒡ	-10.547
▁ᑳᐅᓅᑕᒫᐎᓂ	-10.547
▁ᑳᑌᓴᐱᒡ	-10.547
▁ᒋᐸᐹᒣᑕᓯ	-10.547
▁ᒣᓂᑲᓈᐱᒃ	-10.547
▁ᒥᑕᑎᒨᒃ	-10.547
▁ᒫᒪᑳᒋᒋᑫᐎᓐ	-10.547
▁ᓯᔮᑭᐃ	-10.547
▁ᐅᑌᐺᔦᑕᒧᐎᓂᐙᕽ	-10.547
▁ᐅᒌᒫᑲᓇᒃ	-10.547
▁ᐱᓬᐃᐹ	-10.547
▁ᑲᐯᑮᔑᒃ	-10.547
▁ᔂᑕᒻ	-10.547
▁ᐅᑌᑌᓂ	-10.547
▁ᐅᓵᑭᐃᐌᐎᓐ	-10.547
▁ᐌᑭᒫᐌᑖᑯᓯ	-10.547
▁ᐅᒪᒋᑑᑕᒨᒃ	-10.547
▁ᑭᑎᓀᑕᒧᐎᓂ	-10.547
▁ᑭᒪᒋᑑᑕᒧᐎᓇᓐ	-10.547
▁ᑰᓯᓈᓐ	-10.547
ᒪᑲᑗ	-10.547
▁ᐅᑭᔐᐙᑎᓯᐎᓂᓂ	-10.547
▁ᐯᔓᓈᑾᓐ	-10.547
▁ᑭᑎᓄᐤ	-10.547
▁ᐅᑎᒀᓂᕽ	-10.547
▁ᐐᒋᑭᐌᓯᐗᓐ	-10.547
▁ᑰᓂᑫ	-10.547
▁ᑳᑾᔭᑾ	-10.547
▁ᐅᒻᐺ	-10.547
▁ᓯᒥᔭᓐ	-10.547
ᒥᓍᑐᑌ	-10.547
▁ᓂᑎᑭᑦ	-10.547
ᐋᐸᒋᑑᔦᒃ	-10.547
ᒥᓍᑎᓰᔑᑑᔦᒃ	-10.547
▁ᐃᓀᑖᑾᑭᓐ	-10.547
ᐃᓀᑖᑾᓯᓅᓐ	-10.547
▁ᐁᓀᑕᒪᓐ	-10.547
▁ᐆᑌᓇᐌᔅ	-10.547
▁ᑭᑎᑳᓂᕽ	-10.547
▁ᑮᐗᔥᑴᐲ	-10.547
ᑕᔑᑕᒪᐎᓇᑰᒃ	-10.547
▁ᓯᑌᑳᐸᐎ	-10.547
ᑾᔮᒋᑕᒪ	-10.547
ᑾᐃᑲᓐ	-10.547
▁ᑫᐃᔥᒀᓭᓯᓂᓂᒃ	-10.547
▁ᑮᑕᓇᒥᐋᓈᓐ	-10.547
▁ᐃᔥᒀᑌᕽ	-10.547
ᐙᓭᔥᑲ	-10.547
ᑭᒋᐅᓈᑲᓂᕽ	-10.547
▁ᑮᐃᔑᐲᐃᑳᑌ	-10.547
▁ᔔᓂᔮᓴᒃ	-10.547
▁ᐃᔑᑮᔗᐎᓇᓐ	-10.547
▁ᐅᑭᑭᓄᐊᒪᐙᑲᓂᓂ	-10.547
ᐊᑐᒪᒀ	-10.547
ᐊᔨᔑᒋᑫ	-10.547
▁ᐁᑭᑐᓂᒡ	-10.547
▁ᐁᑮᐅᒌᒡ	-10.547
▁ᒫᕒᒃ	-10.547
ᓂᔕᐗᒀ	-10.547
▁ᐅᓯᑎᕽ	-10.547
ᓂᓵᐹᐌ	-10.547
▁ᐅᑕᑮᒥ	-10.547
▁ᑯᒋᐃᑰᐎ	-10.5471
ᐴᑯᓂᑳᑌ	-10.5471
ᑌᐺᔦᑕᒥᓂᒡ	-10.5471
▁ᐁᔑᓈᑯᓯᔦᒃ	-10.5471
▁ᐱᓯᑕᐎᒃ	-10.5471
▁ᐊᑕᐌᑖᑯᓯ	-10.5471
▁ᒥᓉᑕᒧᐎᓐ	-10.5471
▁ᑳᑮᐃᔑᓂᑳᓱ	-10.5471
▁ᐅᔥᑭᔔᒥᓈᐳ	-10.5471
▁ᐌᒌᒡ	-10.5471
▁ᐅᒫᒫᓂ	-10.5471
ᑮᐊᔓᑕᒫᑯ	-10.5471
ᐱᔅᑲᓀ	-10.5471
▁ᐃᔑᑮᔗᐎᓐ	-10.5471
▁ᐁᑮᐋᐸᒋᐋᒡ	-10.5471
▁ᑭᐱᒫᑎᓯᐎᓂᐙᓐ	-10.5472
▁ᒥᑖᔑᓃᐎ	-10.5472
▁ᐁᐋᐎᓂᒡ	-10.5472
▁ᐗᑭᑕ	-10.5472
▁ᐅᑮᐅᑖᐱᓈᓈᐙ	-10.5473
ᐐᐸᑲᒥᑳ	-10.5473
▁ᑲᑴᒋᒥᑰᐞ	-10.5473
ᒥᓂᒀᑲᓂᕽ	-10.5473
ᐅᓵᒦ	-10.5474
▁ᐅᑲᔥᑭᑑᓐ	-10.5474
▁ᐁᑮᓇᓈᑯᒫᒡ	-10.5474
ᐐᑕᒪᐤ	-10.5475
ᐴᓀᑕᒫᑰ	-10.5475
▁ᑲᑲᓅᓈᐞ	-10.5475
▁ᐅᓇᔓᐌᐎᑭᒫ	-10.5476
ᑎᓲᒪᑲ	-10.5476
ᐗᓂᔑᓄᐙᒡ	-10.5476
▁ᑮᐌᐱᒫᑎᔅ	-10.5477
▁ᐌᒌᒪᑲ	-10.5477
▁ᐅᑖᑲᔥᑭᑑᓰᓐ	-10.5478
▁ᑮᑮᔑᒋᑳᑌ	-10.5478
▁ᐁᑮᐊᓇᒥᐋᒡ	-10.5478
ᓯᓄᑭᐸᓐ	-10.5479
▁ᐁᑎᓄᐎᔦᒃ	-10.548
▁ᑲᑳᓱᒥ	-10.548
▁ᑳᐃᔑᒫᒫᐗᒋᐃᑎᓂᒡ᙮	-10.5481
▁ᒫᓯᑑᓂᔮ	-10.5481
ᐅᓀᑖᓐ	-10.5482
ᐲᐊᒫ	-10.5482
ᓇᓇᐊᓵ	-10.5482
▁ᓃᓀᑕ	-10.5483
▁ᐃᔑᐎᓂᒃ	-10.5484
▁ᐅᔥᑭᓃᑭᐗ	-10.5484
ᐃᓀᑕᒪᓐ	-10.5485
▁ᐁᔮᓂᑭᓐ	-10.5486
▁ᐗᓂᑑᑕ	-10.5487
ᐃᔑᓂᑳᒋᑲᓂᐎ	-10.549
ᑲᑳᓱᒫ	-10.549
▁ᐅᑖᓂᓴ	-10.549
▁ᑮᑕᑯᔑᓅ	-10.5491
ᐊᔨᓈᐱ	-10.5491
▁ᑭᑎᑫᐎᓂᕽ	-10.5493
ᐊᑕᐌᑕᒫᓐ	-10.5494
ᑮᒋᑯᔥ	-10.5495
▁ᑳᐃᑕᒫᓐ	-10.5495
▁ᐸᑲᒥ	-10.5496
▁ᐱᑾᑎᓈᕽ	-10.5499
ᑯᑖᓀᓂᒥ	-10.5502
▁ᐊᓈᒥᒥᓐᒡ	-10.5503
▁ᑭᒋᐎᓇ	-10.5503
ᐐᒋᑳᐸᐎᑖ	-10.5503
ᑲᓅᑕᒫᓱ	-10.5505
▁ᐐᑾᑎᐎᓂᕽ	-10.5508
▁ᓂᑕᔮᓰᓐ	-10.5509
ᐅᑎᑎᓂᑯ	-10.5511
ᓂᔑᐗᓈᒋᐋ	-10.5514
▁ᐸᑯᓭᓂᒥᑰ	-10.5515
▁ᐅᐱᒫᑎᓯᐎᓂᐙᓐ	-10.5516
ᐐᑕᒪᐎᓯᓅᓂᓂᒻ	-10.5516
▁ᑳᐅᒌᓂᒃ	-10.5517
ᐌᑖᑯᓯᒡ	-10.552
ᔕᐌᓂᒥᑯᐙ	-10.5524
ᐱᑾᑎᓈᓂᒃ	-10.5526
▁ᑭᑎᑫᐎᓂᓂᐗᐞ	-10.5531
▁ᑭᐐᒋᐅᑌᐺᑕᒨ	-10.554
ᒥᓂᑴᓰ	-10.5541
ᑾᔭᒀᑎᓯᐎᓂᕽ	-10.5548
ᐙᐸᑖᒻ	-10.555
ᒥᓉᑕᒥᓂᒡ	-10.5551
ᑯᓰᐞ᙮	-10.5552
▁ᒋᒥᑲ	-10.5553
▁ᐃᓇᑭᒥᑯ	-10.5557
▁ᓂᑮᐐᒌᐎ	-10.5561
ᑭᒋᐱᓱ	-10.5569
ᑮᓇᑲᓂᑯᓂ	-10.5578
ᐐᓴᑲ	-10.5593
ᑌᐊᐲᑌᑖᑯᓯᓰ	-10.5594
ᓂᓯᑎᐸᓐ	-10.5594
▁ᑳᑮᐊᔓᑕᒪ	-10.5596
▁ᑌᐱᓈ	-10.56
▁ᐅᑕᓄᑮᐎᓂᐙ	-10.5603
ᐱᒫᒋᐃᑰᐎᓯᔦᒃ	-10.5615
ᑑᑕᒧᒃ	-10.5623
ᑭᑫᓂᒪᒃ	-10.5628
ᐱᒫᒋᐃᒥᓐᒡ	-10.5636
ᐅᑎᓇᒧᐙᒡ	-10.5639
ᐯᑭᐃᑎᓱ	-10.5651
ᑮᐊᐸᑑ	-10.5666
ᐊᓇᒥᐁᐎ	-10.5678
▁ᑮᑭᐸ	-10.5679
ᑑᓂᐙᕽ	-10.568
▁ᐅᑕᓄᑮᐎᓐ	-10.5687
▁ᓂᑮᐃᓈ	-10.5702
▁ᑭᑎᔑᒋᑫᐎᓂᐙ	-10.5708
ᒪᒋᑑᑕᒣᒃ	-10.5718
ᑌᐺᑖᑯᒡ	-10.5722
ᐗᐱᐎᓂᕽ	-10.5729
ᐃᔑᒋᑫᓯᒃ	-10.573
▁ᐙᐱᑾ	-10.5764
▁ᐅᑕᔓᑕᒫ	-10.5772
ᐸᑫᓯᐎ	-10.5802
▁ᑳᓃᑳᓂᔥᑲ	-10.5812
ᓂᔑᐗᓈᒋᐃᐌ	-10.5853
ᑭᑭᓄᐃᑫᐙᒡ	-10.587
ᐙᓭᔮᓯ	-10.5886
ᑾᔭᑴᓂ	-10.5893
▁ᐅᑑᓂ	-10.5925
▁ᑭᑭᑫᓂᒥᑰ	-10.5928
ᑲᑴᒋᒥᓂᓂᒻ	-10.5934
▁ᓵᔭ	-10.5953
ᓀᑖᑯᓯᓂᒡ	-10.5953
▁ᐃᔑᓂᑳᓈ	-10.5958
ᐅᑖᐱᓇᒣᒃ	-10.5992
▁ᐊᑐᒫ	-10.6011
ᐐᒋᐃᑯᐙᒡ	-10.6038
ᐲᑯᓇᕽ	-10.6072
▁ᐁᑮᓇᓃᓵᓂ	-10.611
ᐋᑲᐗ	-10.6119
ᓂᔑᐗᓈᑕᒃ	-10.6138
▁ᑳᐃᓇᒧ	-10.6153
ᐐᓯᓂᐗᒃ	-10.6189
ᐃᔑᑖᐙᒡ	-10.6315
ᑮᐐᑕᒫᑰ	-10.6333
ᑭᐱᑎᓈ	-10.6366
ᓇᓃᓵᓂᓯ	-10.637
▁ᐁᐲᑯᓇ	-10.641
▁ᑭᒦᓂ	-10.6446
▁ᑳᑑᑕᐎ	-10.6472
ᑯᔥᑯᓭ	-10.6547
▁ᐁᑭᑭᔥᑳᑯ	-10.6555
ᐅᑕᓄᑮᐋᑲᓂᒥ	-10.6576
▁ᑭᐐᒌᐎ	-10.6582
ᑮᔑᑭ	-10.6598
▁ᐅᑮᐊᑐᒫ	-10.6643
ᓂᓯᑕᐎᓇᓰ	-10.6655
▁ᐸᑯᓭ	-10.666
ᑭᑭᔥᑲᕽ	-10.6664
▁ᓈᑯᑑ	-10.6675
ᐊᑐᒥᒃ	-10.6695
ᐱᒥᑌ	-10.67
ᑳᑌᓯᓂᓂ	-10.6705
▁ᑳᑲᑮᑖᐌᑕ	-10.6758
ᑭᔑᑌ	-10.6783
▁ᒋᑳᒋᑎ	-10.679
ᑭᑭᓇᐙᒋᐃ	-10.6796
ᒪᓯᓇᐃᑲᓐ	-10.6806
▁ᓭᓴᑰ	-10.6808
ᓃᐱᐗᐞ	-10.6825
5	-10.6826
▁ᑮᐅᔑᐲᐃᑳᑌ	-10.6883
▁ᑎᐹᑐ	-10.6891
ᐃᓈᓰᓐ	-10.6906
▁ᑭᑭᓄᐊᒫ	-10.6913
ᐃᔑᓂᔕᐅᓐ	-10.6919
▁ᒋᐅᑎᑕ	-10.6933
ᑲᑴᔖᑰᓱᑎ	-10.6957
▁ᑮᒋᑭᐌ	-10.6958
ᑮᐃᔑᐌᐱᓯ	-10.6969
▁ᐊᐸᑭ	-10.6975
▁ᐱᒫᑎᓯᐎᓂ	-10.6986
ᐃᓈᓴᒥᑳᐸᐎ	-10.6989
▁ᑳᑭᑭᓄᐊᒪᐎ	-10.7002
ᑌᐺᐗᓂᓂ	-10.7009
▁ᐅᔑᐲᐃᑫ	-10.701
ᐸᐃᐌᐗᒃ	-10.7014
▁ᐅᑲᑲᔥᑭᑑᓰ	-10.7028
▁ᑳᑮᐃᔥᒀ	-10.7035
▁ᓂᓵᑭ	-10.7039
ᐸᓀᓐ	-10.7041
▁ᓃᐱᐗ	-10.7053
▁ᓂᐐᒌᐎ	-10.7055
▁ᑲᔥᑮ	-10.7056
ᒫᐗᒋᐃᑎᐗᒃ	-10.7064
▁ᑭᐴᔔᐃ	-10.7069
ᑯᓰᓈᓐ	-10.707
ᐸᐃᑲᓐ	-10.7071
ᓯᐙᓈᓂᒃ	-10.7071
▁ᑌᓴᓬᐊᓇᐃ	-10.7071
▁ᐱᒀᐎᑲᓀ	-10.7072
ᒦᑴᒋᐎ	-10.7072
▁ᐌᑯᓯᓯᒥ	-10.7072
▁ᑰᐹᓯᓇᐙ	-10.7072
▁ᒐᕒᐆᐗ	-10.7072
▁ᓃᔣᓯᒥᑕᓇ	-10.7072
ᐅᑕᑳᓀᓯᓂᒡ	-10.7072
ᐊᑐᑕᒫᑫ	-10.7072
ᐸᒀᓀᑲᒥᑯᕽ	-10.7072
ᑌᓇᓂᐤ	-10.7072
ᑎᐹᒋᒥᒃ	-10.7072
ᑕᐸᓭᓂᑎᓱ	-10.7072
ᑕᑶᔑᓂᓂᒡ	-10.7072
ᑭᒋᐅᔑᐲᐃᑫᐎᓂᕽ	-10.7072
ᑯᑖᓀᓂᒣᒃ	-10.7072
ᒑᑭᓯᑳᑌ	-10.7072
ᒪᒋᑮᔣ	-10.7072
ᒫᒪᐐᓄᓂᒡ	-10.7072
ᓂᓂᑭᔥᑳ	-10.7072
ᓇᓃᓵᓀᑕ	-10.7072
ᔔᒥᓈᑎᑰ	-10.7072
▁ᐁᐃᓇᑭᒋᑳᓱᒡ	-10.7072
▁ᐃᔥᐸᑎᓈᓂᒃ	-10.7072
▁ᐅᐴᑖᒋᑲᓐ	-10.7072
▁ᐅᑎᓀᑕᒧᐎᓂᓂ	-10.7072
▁ᐅᑭᑭᔥᑭᑲᓂᐙᓐ	-10.7072
▁ᐅᑮᑲᓅᓂᑰᓐ	-10.7072
▁ᐅᑮᓇᑴᑖᑰᐞ	-10.7072
▁ᐅᑰᐹᓯᓈᑫᐎᓐ	-10.7072
▁ᐅᒪᓂᑑᒪᓐ	-10.7072
▁ᐅᓯᑎᓃᕽ	-10.7072
▁ᐅᔕᐌᒋᑫᐎᓂᕽ	-10.7072
▁ᐅᔥᑲᐱᓅᒌ	-10.7072
▁ᐊᐯᔪᒃ	-10.7072
▁ᐊᑫᔮᐗᑮᕽ	-10.7072
▁ᐊᒑᑯᐎ	-10.7072
▁ᐊᓈᒪᑲᒥᒃ	-10.7072
▁ᐊᔦᒀᒥ	-10.7072
▁ᐋᐃᑰᓂᔭ	-10.7072
▁ᐋᕒᑎᒪᔅ	-10.7072
▁ᐙᐱᔥᑮᑭᓅ	-10.7072
▁ᐯᔅᑕᓴᓐ	-10.7072
▁ᐲᑕᒪᐎᔑ	-10.7072
▁ᐸᐸᑴᐱᓈᒡ	-10.7072
▁ᐸᐹᒣᓂᒫ	-10.7072
▁ᐸᔑᐸᐃᑫᐎᑯᒫᓐ	-10.7072
▁ᑖᔥᑮᑭ	-10.7072
▁ᑫᒦᒋᐙᒡ᙮	-10.7072
▁ᑭᐐᔭᐎᓈᓂᕽ	-10.7072
▁ᑭᐲᐌᓰᒪᒃ	-10.7072
▁ᑭᐸᐅᑏᐎ	-10.7072
▁ᑭᑭᔐᒪᓂᑑᒻ	-10.7072
▁ᑮᐋᓉᑕᒻ	-10.7072
▁ᑲᐯᑎᐱᒃ	-10.7072
▁ᑲᓬᐁᔑᔭ	-10.7072
▁ᑳᐅᑭᒫᑲᑖᑫ	-10.7072
▁ᒀᕒᓃᓬᐃᔭᔅ	-10.7072
▁ᒋᒪᔥᑲᐌᑕᒥᓂᒡ	-10.7072
▁ᒥᓍᒋᒧᐎᓂᕽ	-10.7072
▁ᒪᓯᓇᐃᑲᓇᓐ	-10.7072
▁ᓂᑎᓀᑕᒧᐎᓂᕽ	-10.7072
▁ᓂᑎᔑᓂᑳᓱᐎᓂᕽ	-10.7072
▁ᓂᑑᔑᐲᐃᑲ	-10.7072
▁ᓂᑕᒑᑯ	-10.7072
▁ᓂᑕᓄᑮᐋᑲᓐ	-10.7072
▁ᓂᓇᑕᐌᑖᓐ	-10.7072
▁ᓬᐃᔅᑕᕒᐊ	-10.7072
▁ᓵᐃᒪᓅᓐ	-10.7072
▁ᔑᒫᑲᓂᔒᐎᑲᒥᑯᕽ	-10.7072
▁ᔑᒫᑲᓂᔥ	-10.7072
▁ᔔᒥᓈᑎᑯᕽ	-10.7072
ᑌᐺᔦᑕᒻ	-10.7072
▁ᐁᒥᑴᓂᒥ	-10.7072
▁ᐁᓈᒋᒥᓐᒡ	-10.7072
▁ᑌᐯᒋᑫᒡ	-10.7072
▁ᑭᑭᔥᑭᑲᓐ	-10.7072
▁ᑭᔕᐌᑖᑯᓯᒻ	-10.7072
▁ᓂᑎᑭᑐᓰ	-10.7072
ᐐᓯᓂᐎᓈᑎ	-10.7072
▁ᐅᑎᐯᒋᑫᐎᓂᓃᕽ	-10.7072
▁ᐗᑎᑾᓐ	-10.7072
▁ᓂᒫᓇᒑᓂᔑᒪᒃ	-10.7072
ᓰᑲᐊᑖᑰᔦᒃ	-10.7072
▁ᐱᓈᓯᑳᑯ	-10.7072
▁ᐴᑖᒋᑲ	-10.7072
▁ᑭᑎᓀᑖᒻ	-10.7072
▁ᓵᑭᒋᓂᔕᐙ	-10.7072
▁ᑌᐯᓂᒥ	-10.7072
▁ᑫᐴᓂᓭᓯᓄᒃ	-10.7072
▁ᑭᑌᑖᑯᓯᐎᓐ	-10.7072
▁ᑳᐐᓀᑖᑾᒃ	-10.7072
▁ᑳᐱᒥᓭᑭᓐ	-10.7072
ᐃᔥᐱᔥᑳ	-10.7072
ᓃᑳᓂᓂᔕᐙ	-10.7072
▁ᐅᑭᒫᐎᐎᓇᓐ	-10.7072
▁ᒥᔕᐗ	-10.7072
ᐅᑲᑮᑖᐌᑕᒧᐎᓂ	-10.7072
ᑮᐊᑐᒥᑯᒡ	-10.7072
▁ᐁᑮᐃᓀᑕᒧᐙᒡ	-10.7072
ᑭᐸᐅᒥᓐᒡ	-10.7072
ᑮᔥᑭᔑᑲᓐ	-10.7072
ᒋᐅᑌᐺᑕᒧ	-10.7072
▁ᐅᓵᑭᐃᐌᐎᓂ	-10.7072
▁ᒌᑭᐲᒃ	-10.7072
▁ᑭᑎᑭᑦ	-10.7072
▁ᑕᐃᔑᐌᐸᓐ	-10.7073
▁ᐅᑎᒀᓇᓐ	-10.7073
ᐊᑮᐗᓂᓂᒃ	-10.7073
▁ᐅᒪᒋᑑᑕᒧᐎᓐ	-10.7073
▁ᑮᐌᓂᔕᐙ	-10.7073
▁ᑭᑌᓂᒥᑾᒃ	-10.7073
▁ᑲᓇᐌᓂᑎᓱ	-10.7073
▁ᒋᒦᓂᓀᒃ	-10.7073
▁ᐗᑭᑕᑎᓐ	-10.7073
▁ᑳᐃᔑᑯᑖᓀᑖᑾᓂᓂᒃ	-10.7073
▁ᐃᑴᓭᔅ	-10.7073
▁ᓈᐱᔥᑭᑲ	-10.7073
ᐗᑎᑾᓂ	-10.7073
ᐙᐸᑕᓰᓐ	-10.7073
▁ᐌᒌᐙᒡ	-10.7073
▁ᐙᓴᑯᓀᒋᑲᓈ	-10.7073
ᒫᓀᑕᒻ	-10.7073
▁ᑕᐴᓀᑕᒪᐙᓰ	-10.7073
ᓈᓂᐗᑭᐸᓐ	-10.7073
▁ᐊᑕᐌᑕᒪᓐ	-10.7073
▁ᐃᓀᑕᑫᒃ	-10.7073
▁ᐅᒫᓇᒑᓂᔑᒪ	-10.7073
ᒨᔕᑭᓂᑫ	-10.7073
▁ᐱᒫᒋᐃᐌᐎᓐ	-10.7073
ᑕᑯᔑᓈᕽ	-10.7073
▁ᐋᐱᑖ	-10.7073
▁ᓂᑲᒧᓇᓐ	-10.7073
▁ᓂᔑᐌᑫᓐ	-10.7073
▁ᒪᐄᑲ	-10.7073
▁ᑲᑴᒋᐃᑰ	-10.7073
ᑭᑎᒫᑫᓂ	-10.7073
ᑲᑮᑭᒥ	-10.7074
ᒪᒐᑭ	-10.7074
▁ᒥᑯᔥᑳᑌᑕᒣᒃ	-10.7074
▁ᐅᑭᔐᒪᓂᑑᒥᐙᓐ	-10.7074
▁ᐅᓃᒑᓂᓯᐙᐞ	-10.7074
▁ᒦᔭᐤ	-10.7074
▁ᐁᑎᐯᓂᒥᓇᑰᒃ	-10.7074
▁ᓭᕒᐊ	-10.7074
▁ᓴᓇᑲᓂᓂ	-10.7074
▁ᐅᑮᐊᔕ	-10.7074
▁ᐁᐊᓄᑮᑕᐗᒃ	-10.7074
ᐃᓇᑲᒥᑲᒃ	-10.7074
▁ᒦᑴᒋᐌᓂᒫᑖ	-10.7074
ᒥᔕᑮ	-10.7074
▁ᑎᐹᑯᓂᑫᐎᑮᔑᑲᒃ	-10.7074
▁ᐅᑎᔑᓂᑳᓱᐎᓂᕽ	-10.7074
ᐊᓂᒥᑯᑖ	-10.7074
▁ᐙᑳᐃᑲᓂᓂ	-10.7074
▁ᑳᐅᑯᓯᓯᒥᑯᒡ	-10.7074
▁ᒋᑎᐱᓭᒃ	-10.7075
▁ᑳᒫᑭᓯ	-10.7075
▁ᑳᓃᔑᐙᒡ	-10.7075
▁ᐅᐱᒫᑎᓰᒥᓂ	-10.7075
▁ᐁᑮᐊᔮᐙᓯ	-10.7075
▁ᓂᔑᐗᓈᑎᓯᐎᓂᕽ	-10.7075
▁ᓂᒥᑲᒧᐙᓰ	-10.7075
ᐸᑕᑭᓱ	-10.7075
ᐅᑸᓄ	-10.7075
▁ᒌᑫᑕᒧᐎᓐ	-10.7075
▁ᓵᒥᓇᒪᐙ	-10.7075
▁ᐹᑏᓄᓈᓂᐗᓂᓂᒃ	-10.7076
▁ᒎᑏᔮᑳᕽ	-10.7076
▁ᒋᐅᒋᔥᑲᐎ	-10.7076
▁ᐁᐊᓇᒥᐋᔮᓐ	-10.7076
▁ᑳᐃᔥᐯᑖᑯᓯᒡ	-10.7076
▁ᐸᑭᑎᓂᑫᕽ	-10.7076
▁ᑎᒫᔅᑲᓯᕽ	-10.7076
ᐲᑎᑲᐙ	-10.7076
▁ᑳᑾᔭᑯᓈᑾᒃ	-10.7076
▁ᒫᓇᑎ	-10.7077
▁ᒋᐃᔑᐊᓈᒣᑖᑯᓯᓯ	-10.7077
ᑮᐃᔑᐊᔓᑕᒫᑫ	-10.7077
ᑆᑕᐐ	-10.7077
ᐸᐸᔕᔐᐅᓐᒡ	-10.7077
▁ᑳᑾᔭᑯᓈᑾᓂᓂᒃ	-10.7077
▁ᐐᓯᓃᒫᒡ	-10.7078
▁ᐗᑶ	-10.7078
▁ᒫᓇᒑᓂᔐᓴᓐ᙮	-10.7078
ᐱᒥᐗᓈ	-10.7079
▁ᑕᐲᑎᑫᓰ	-10.7079
▁ᐌᓂᔑᔑᓂᓂᑭᓐ	-10.7079
ᑭᑭᔥᑭᑫ	-10.7079
▁ᑳᑑᑕᐙᒡ	-10.708
▁ᐃᓀᒋᑲᓂᐎ	-10.708
ᑕᔑᒥᒥᓐᒡ	-10.708
▁ᑲᑴᒋᑎ	-10.708
ᑮᐅᔒᑖ	-10.708
▁ᒋᒥᓄᐐᒌᐙᒡ	-10.708
▁ᑳᒪᒋᑑᑕᒧᐙᒡ	-10.7081
▁ᒋᓂᔑᐗᓈᑎᓯᒡ	-10.7082
▁ᐁᐯᑭ	-10.7082
▁ᒉᓴ	-10.7082
▁ᒦᑭᐌᐎᓇᓐ	-10.7083
▁ᒌᑫᑕᒧᒃ	-10.7083
ᑮᑭᑑᑕᒪᐙ	-10.7083
▁ᐃᔒᑭ	-10.7083
ᐊᒧᓐᒡ	-10.7084
▁ᐅᑖᐎᓂᓃᕽ	-10.7084
▁ᑳᑮᐃᔥᒀᐱᒫᑎᓯᐙᒡ	-10.7084
▁ᑮᐱᑕᑯᔑᓅ	-10.7085
▁ᑎᐱᑭ	-10.7085
▁ᐅᑕᑖᐌ	-10.7085
▁ᐅᐱᒣ	-10.7086
▁ᓵᑭᒋᓂᔕᐊᒪᐙ	-10.7086
▁ᑳᑮᐃᓀᑕᒧ	-10.7086
▁ᐲᑯᓇ	-10.7087
▁ᐁᐊᓇᒥᐋᒡ	-10.7088
▁ᑳᐸᑭᑎᓇᒪᐎ	-10.7088
ᐸᑕᑭᑌ	-10.7089
▁ᐅᑖᐱᓂᒃ	-10.7091
ᓯᓄᐎᓇᑰᒃ	-10.7091
▁ᑳᑮᐃᓈᒡ	-10.7091
▁ᑕᑯᓂᑲᓇ	-10.7092
ᑎᐯᓂᑎᓱᐙᒡ	-10.7092
ᐐᒌᐗᑭᒡ	-10.7095
ᐐᑕᐱᒥ	-10.7096
▁ᒋᐸᑭᑎᓇᒪ	-10.7097
▁ᑳᑮᐅᓀᓂᒥᑯ	-10.7097
▁ᐐᓴᑫᑕᒧ	-10.7099
▁ᐁᐋᐎᒡ	-10.7099
▁ᑳᑮᐃᓂᒥᓐᒡ	-10.71
▁ᑳᑎᓄᐎᐙᒡ	-10.7101
▁ᒥᑖᐗ	-10.7101
▁ᑳᑭᐱ	-10.7103
ᑭᑭᓄᐊᒫᑯᒡ	-10.7103
▁ᐁᒥᑲ	-10.7103
ᐊᔓᑕᒫᑫᐎᓐ	-10.7115
▁ᑎᐯᒋᑫᓂᒡ	-10.7118
▁ᐁᐐᒌᐎᓇᕽ	-10.7119
▁ᑳᑎᐯᓂᒥᑯᒡ	-10.7122
ᐹᑭᑌᓇᒫ	-10.7127
ᐅᒋᒫᒌᑭ	-10.7127
ᑕᓱᐱᐴᓉ	-10.713
ᐙᐸᒥᑰᔭᓐ	-10.7133
ᐃᔑᐌᐱᓯᓂᒡ	-10.7135
▁ᐅᑮᐅᑖᐱᓈᐙ	-10.7147
ᒥᓉᑕᒧᒃ	-10.7148
ᐅᔑᐲᐃᑳᑌᓂ	-10.7156
▁ᑳᐃᔑᒫᒫᐗᒋᐃᑎ	-10.7156
▁ᑫᑌᑖᑯᓯ	-10.716
▁ᑲᒀᑕᑫᑕ	-10.7164
ᐌᐸᐃ	-10.7167
ᑎᐯᓂᒪᒀ	-10.7167
ᒫᓀᑕᒣᒃ	-10.7176
ᒥᑲᓰᓐ	-10.7188
ᒥᓴᐌᑕᒣᒃ	-10.719
▁ᐁᐲᑑ	-10.7191
▁ᑳᑭᑎᑳᑕ	-10.7199
▁ᑕᓂᔑᐗᓈᑕ	-10.7203
ᐊᔮᒀᒥᒫ	-10.7207
▁ᑭᑭᔥᑲᐙᓂ	-10.7212
▁ᑳᓃᑳᓃ	-10.7213
ᐙᐸᑕᒫᕽ	-10.7224
▁ᑳᐱᓯᓂ	-10.7226
ᑭᑫᑖᑾᓯᓅᓐ	-10.7227
ᐱᒫᒋᐃᓐᒡ	-10.723
ᒥᓄᐊᔮᐃᓐᒡ	-10.7234
ᐐᒌᐎᑰᓐ	-10.7241
▁ᓵᒥᓇ	-10.7243
▁ᐅᑎᔑᐊᔮᐎ	-10.7244
ᓃᑳᓀᑖᑯ	-10.7264
ᑑᑕᒣᑭᐸᓐ	-10.7265
▁ᒋᒦᓇ	-10.7266
ᐐᒋᔭᔮᒥ	-10.7277
ᐱᓯᑕᓯᒃ	-10.7277
ᑌᐺᑕᐗᕽ	-10.7302
ᑮᓇᓈᑐ	-10.7327
ᐃᔑᒋᑫᔮᐹᓐ	-10.734
▁ᐅᑌᐺᐎ	-10.736
ᑎᐸᐊᒫᑯ	-10.7372
ᒥᑴᑖ	-10.7386
▁ᓂᔑᐗᓈᒋᑑ	-10.7415
ᐊᓇᒥᐁᑕᒫ	-10.7416
ᐅᑑᑭᒫᒥᐙᓐ	-10.7418
ᐸᐹᐃᔖ	-10.7428
ᐯᑭᐋ	-10.7432
▁ᐃᓀᓂᒥᑰ	-10.7434
ᔔᓂᔮᒪᓐ	-10.7448
ᒪᑲᓂᓂᐗᓐ	-10.7459
ᑎᐯᑕᒫᓐ	-10.7483
▁ᒋᓇᑲᑕᒧᐙ	-10.7486
ᐊᑐᒫᐞ	-10.7496
▁ᐊᐱᓅᒌᔑ	-10.7496
ᑲᓅᓂᑰᔦᒃ	-10.7554
ᑭᑭᔥᑲᒣᒃ	-10.7577
ᐊᑐᒫᐙᐞ	-10.7591
ᑫᓂᒥᑯᒡ	-10.7664
ᑮᐃᓇᑭᒫ	-10.7677
▁ᐅᑮᐙᐸᑖ	-10.7685
▁ᓂᑎᓀᑖ	-10.7722
ᐐᒌᐎᑯᓈᐙ	-10.7761
ᓱᑮᓯᔅ	-10.7781
ᐙᓭᔥᑳ	-10.7784
ᐃᑭᑐᐙᑯᐸᓀᓐ	-10.7786
ᑭᑭᓇᐙᑕᔕᑫᔑᑲᓂᐎᒡ	-10.7806
▁ᐁᐹᐱᓄᑕ	-10.7812
ᒪᓂᑑᑳ	-10.7812
▁ᒋᐙᐸᒋᑳᑌᓂ	-10.7832
▁ᑳᐃᓈᒋᒥ	-10.7847
ᑲᓅᑖ	-10.7862
ᐃᑭᑐᔮᐹᓐ	-10.7901
ᓂᐳᒻ	-10.794
ᔕᐌᓂᒥᒃ	-10.7944
▁ᐁᑮᐃᑭᑐ	-10.7966
▁ᐁᑕᓱᐯᔑ	-10.7987
▁ᐁᔑᓈᑯᓯᔮ	-10.7992
ᑕᐎᓇᒪᐎ	-10.7994
▁ᑳᐋᓇᐌᓂᒥ	-10.7996
▁ᓂᑭᑫᑖ	-10.8002
ᑲᓅᔑ	-10.8013
ᐐᓯᓂᔦᒃ	-10.8021
ᐐᒌᐎᓈᓐ	-10.804
ᔖᑯᐌᒡ	-10.8217
▁ᑭᑎᒫᑭ	-10.8232
ᓂᔑᐗᓈᑕᓐ	-10.8295
ᔑᓈᑯᑑ	-10.8296
▁ᐱᑾᑎᓈ	-10.8325
ᐃᔑᓂᑳᓈᒡ	-10.8351
ᐃᔑᒋᑫᐙᐸᓐ	-10.8353
ᐋᒋᒋᑳᑌ	-10.8366
ᐃᔑᓈᑯᓯᔦᒃ	-10.8408
ᐎᑣᐸᓐ	-10.8414
ᐐᑑᑳᓱᔦᒃ	-10.8473
▁ᑭᑭᔥᑳᑯᓂ	-10.8512
▁ᓂᔑᐗᓈᒋ	-10.8515
▁ᓂᑭᑫᓂᒥ	-10.8535
ᐃᔑᒋᑫᐃᓐᒡ	-10.8649
▁ᑕᔑᒫᐙ	-10.8685
ᐃᔑᓂᑳᑌ	-10.8694
ᐐᒋᐊᔮᒪ	-10.8717
ᔔᒥᓈᐳ	-10.873
2	-10.8731
ᒥᑖᓱ	-10.8732
▁ᓈᓯᑳᑯ	-10.8734
ᓃᔣᓱ	-10.8735
ᐐᒋᐐᓯᓃᒥ	-10.8781
ᑕᔑᐐᓯᓂ	-10.8791
ᒫᒪᑳᑌᑕᒻ	-10.8823
ᑭᒋᐎᓈ	-10.8828
ᑕᒪᐎᓀᒀ	-10.8852
ᒋᐊᔭᐋᐎ	-10.887
▁ᐁᑮᐃᔥᒀ	-10.8871
ᑕᒫᑫᓂᒡ	-10.8883
ᔑᓅᒃ	-10.8891
▁ᐅᐐᓱᐎᓂ	-10.8892
▁ᑮᑌᐱ	-10.8892
ᑮᐋᐸᒋᐋ	-10.8906
ᐱᒫᒋᐃᐌᓂᒡ	-10.8908
ᐱᐴᓉ	-10.8913
▁ᐁᐊᓇᒥ	-10.8928
ᑭᑫᑕᒥᓂ	-10.893
ᔑᑖᓂᐗᓂᓂᒃ	-10.893
▁ᐁᐃᔥᒀ	-10.894
ᐅᔑᐲᐊᒪᐎ	-10.8943
▁ᒌᒫᓂ	-10.8943
▁ᐋᓉᑕ	-10.8943
▁ᐁᑮᐊᑐᒫ	-10.8944
ᐸᑲᒥᔥᑳᑯ	-10.8946
ᓂᔕᐊᒪᐙᒡ	-10.8965
ᑖᑯᓯᐗᒃ	-10.8965
▁ᐃᔑᓂᔕᐊᒪ	-10.8973
ᑎᓀᑕᒻ	-10.8974
▁ᒫᓇᒑᓂᔐᓴ	-10.8974
▁ᐙᑑᑕ	-10.8974
▁ᐌᔫᓯ	-10.8976
▁ᑭᐱᒫᑎᓰ	-10.8979
ᐐᑕᒫᑯᒡ	-10.8981
6	-10.8981
▁ᑳᒥᑖᔑ	-10.8981
▁ᓃᔥᑕᓇ	-10.8981
ᐅᒋᒌᑾᓇᐲᑖᑯᒡ	-10.8981
ᐅᔑᐲᐃᑳᑌᑭᓐ	-10.8981
ᐊᑕᐗᓄᑮ	-10.8981
ᐋᑾᑭᓱᓂᒡ	-10.8981
ᐯᑫᑖᑯᓯ	-10.8981
ᐸᐲᑾᑎᓈᓂᒃ	-10.8981
ᐸᑭᑕᓈᒧ	-10.8981
ᐹᐱᓄᑖᑫ	-10.8981
ᑌᐺᐗᑫᑕᒧᐎᓐ	-10.8981
ᑕᐸᓭᓂᒫ	-10.8981
ᑕᒑᑯᐙᐞ	-10.8981
ᑭᑎᑫᐗᑲᒥᑯᕽ	-10.8981
ᑲᔥᑭᐁᐎᓰᒪᑲ	-10.8981
ᒨᒀᐱᓀ	-10.8981
ᒪᑗᔮᐲᑭᐱᒋ	-10.8981
ᒪᒦᒀᓂᑎᓱᔮᓐ	-10.8981
ᒪᒫᒋᑾᐱᓈ	-10.8981
ᒪᓯᓇᐃᑲᓀᔅ	-10.8981
ᒶ	-10.8981
ᓂᔑᐗᓈᑕᑲᒥᑭᓯ	-10.8981
ᓇᑭᔥᑳᑰᓐ	-10.8981
ᔖᑴᓂᒧᓰ	-10.8981
▁ᐁᐃᑭᑐᔦᒃ	-10.8981
▁ᐁᐱᓈᓯᑳᑯᒡ	-10.8981
▁ᐃᔥᒀᑌᒥᕽ	-10.8981
▁ᐅᐱᓯᑲᓀᔅ	-10.8981
▁ᐅᐸᑴᔑᑲᓂᒪᓐ	-10.8981
▁ᐅᑌᐃᓃᕽ	-10.8981
▁ᐅᑌᑌᐙᓐ	-10.8981
▁ᐅᑎᐹᒋᒨᒃ	-10.8981
▁ᐅᑎᑭᑐᐎᓂᕽ	-10.8981
▁ᐅᑎᑭᑐᐎᓇᓐ	-10.8981
▁ᐅᑎᓇᐌᒫᑲᓇᐞ	-10.8981
▁ᐅᑑᓃᒑᓂᓯᒥ	-10.8981
▁ᐅᑮᐅᒻᐺᐋ	-10.8981
▁ᐅᑮᒨᒋᔥᑲᓐ	-10.8981
▁ᐅᑮᒫᒪᑳᓯᑖ	-10.8981
▁ᐅᒪᒋᑑᑕᒨᐞ	-10.8981
▁ᐅᓇᔓᐌᐎᑲᒥᑯᕽ	-10.8981
▁ᐅᓈᑲᑕᐌᑕᒧᐎᓂᐙ	-10.8981
▁ᐅᔥᑮᔑᑯᓃᕽ	-10.8981
▁ᐅᔥᑮᔑᑯᕽ	-10.8981
▁ᐅᔥᑮᔑᑰᓐ	-10.8981
▁ᐊᔭᐋᐎᔕᓐ	-10.8981
▁ᐋᐹᐱᑲᐃᑲ	-10.8981
▁ᐌᑭᒫᐙᑎᓯᓂᒡ	-10.8981
▁ᐱᑾᑕᑮᕽ	-10.8981
▁ᐸᐹᒣᓂᒥ	-10.8981
▁ᐸᑴᐱᓈᒡ	-10.8981
▁ᐸᔑᐸᐃᑫᐎᑯᒫᓇᓐ	-10.8981
▁ᐹᐱᓬᐊᓄᕽ	-10.8981
▁ᑎᒪᑏᓐ	-10.8981
▁ᑣᒪᓲᓐ	-10.8981
▁ᑫᑌᒪᓯᓇᐃᑲᓂᕽ	-10.8981
▁ᑫᑎᒫᑭᓯᓂᒡ	-10.8981
▁ᑫᒦᒋᔦᒃ	-10.8981
▁ᑭᐐᔭᐎᕽ	-10.8981
▁ᑭᐲᑭᓂᑲ	-10.8981
▁ᑭᑕᒑᑯᐙᕽ	-10.8981
▁ᑭᑭᒋᐅᑭᒫᒥᐙ	-10.8981
▁ᑭᒋᑫᑰᓇᓐ	-10.8981
▁ᑭᓵᑭᐃᐌᐎᓂᐙ	-10.8981
▁ᑮᑌᐺᑕᒨᐞ	-10.8981
▁ᑮᑰᔭᐞ	-10.8981
▁ᑰᐹᓯᓇᐎᔑ	-10.8981
▁ᑲᒀᓂᓴᑫᑖᑾᓐ	-10.8981
▁ᑲᓇᐌᒋᑫᐎᔑᒫᑲᓂᔕ	-10.8981
▁ᑳᐐᓴᑳᐸᓱᐌ	-10.8981
▁ᑳᑕᓶᐙᓇᑭᓈᑯᓯ	-10.8981
▁ᒀᕒᓃᓬᐃᔭᓴᓐ	-10.8981
▁ᒉᐃᕒᐊ	-10.8981
▁ᒑᔓᐙ	-10.8981
▁ᒥᓄᑲᒥᑳᒃ	-10.8981
▁ᒥᔅᑯᒥᓂᑫᓯ	-10.8981
▁ᒫᒪᑳᑌᑕᒨᒃ	-10.8981
▁ᒫᔑᒥᑕᑎᒨᓴᓐ᙮	-10.8981
▁ᓀᐗᒋᑮᔑ	-10.8981
▁ᓂᐱᒫᑎᓯᐎᓂᓈᓂᕽ	-10.8981
▁ᓂᑕᓇᒥᐁ	-10.8981
▁ᓂᑲᑏᒪᔅ	-10.8981
▁ᓵᒐᓰᒃ	-10.8981
ᐱᔑᒀᒋᒋᑫ	-10.8981
ᑭᑎᑳᓇᑲᒥᒃ	-10.8981
ᑮᓰᑲᐊᑕᐙ	-10.8981
ᑲᑴᒋᑲᔑᐌ	-10.8981
ᒫᒥᑴᓂᒥ	-10.8981
ᒶᓯᓇᐋ	-10.8981
▁ᐅᐱᒣᓇᐤ	-10.8981
▁ᐅᑎᓈᑯᓂᑫᐎᓇᓐ	-10.8981
▁ᐅᑭᔐᐙᑎᓯᐎᓂᓃᕽ	-10.8981
▁ᐅᔑᐲᐊᓐ	-10.8981
▁ᐊᓯᓃᑳᒃ	-10.8981
▁ᐋᔮᓂᑫ	-10.8981
▁ᐙᓴᑯᓀᒋᑲᓈᑎᑯᕽ	-10.8981
▁ᑭᐐᒋᐅᑌᐺᑕᒨᒥᐙᒃ	-10.8981
▁ᑭᑌᐃᐙᓐ	-10.8981
▁ᑭᑕᔮᒀᒥᒥ	-10.8981
▁ᑭᑲᐙᐸᒥᓰᒻ	-10.8981
▁ᑳᐅᔫᓯᒡ	-10.8981
▁ᒉᕒᐊᑯ	-10.8981
▁ᒎᒎᔖ	-10.8981
▁ᒪᓂᑑᑳᓇᐞ	-10.8981
▁ᓈᑫᔨᔥ	-10.8981
ᐊᓂᒥᑯᐸᓂᐅ	-10.8981
ᑎᐹᒋᑎᓱ	-10.8981
ᑲᒀᑕᑲᓄᑮ	-10.8981
ᑴᑮᓄᑕᐙ	-10.8981
ᒥᔕᑮᔮᓯᓄᒃ	-10.8981
ᔕᔒᐯᑕᕽ	-10.8981
▁ᐁᑎᐱᑲᒃ	-10.8981
▁ᐅᑮᒥᑲᓰᓈᐙ	-10.8981
▁ᐅᔥᑭᐊᔓᑕᒫᑎᐎᓐ	-10.8981
▁ᐱᒥᓂᔕᐅᔑᓐ᙮	-10.8981
▁ᑳᑎᐱᑲᒃ	-10.8981
▁ᑳᑑᑕᒪᓐ	-10.8981
▁ᒋᐯᔑᑴᑖᑯᓯ	-10.8981
▁ᒥᓈᑯᐅ	-10.8981
▁ᒦᑴᒋᐌᑕ	-10.8981
▁ᓂᑎᐹᒋᒧᐎᓂᓈᓐ	-10.8981
ᐊᔫᑾᐱ	-10.8981
ᐸᑫᒋᑲᓂᕽ	-10.8981
ᑲᔥᑮᑎᐱᑭᓯ	-10.8981
ᒨᔥᑭᓇᑑ	-10.8981
ᓃᑳᓃᑕᒫᑫ	-10.8981
ᓯᐙᐹᓐ	-10.8981
▁ᑳᑕᓱᐯᔑᑯᔦᒃ	-10.8981
▁ᒋᓈᓯᑳᑯ	-10.8981
ᐃᔑᓈᑾᑭᐸᓐ	-10.8981
ᐋᓇᐌᓂᒥᑯᒡ	-10.8981
▁ᐅᑕᓇᒥᐋᐎᓂᐙᕽ	-10.8981
▁ᐅᑖᐱᓇᒧᒃ	-10.8981
▁ᑭᑑᑭᒫᐎ	-10.8981
ᐅᔑᐲᐃᑳᓱᐙᒡ	-10.8981
ᐊᔨᔑᑮᔗ	-10.8981
▁ᑭᑎᑭᑐᐎᓂ	-10.8981
ᑎᐹᒋᒥᒥᓐᒡ	-10.8981
ᒥᔕᑳᐙᒡ	-10.8981
ᑭᑭᓄᐎᓈ	-10.8981
ᑯᑖᐎᑭ	-10.8981
▁ᑮᒋᑭᐌᔭᒃ	-10.8981
ᑲᓅᑕᒪᐌᒃ	-10.8981
▁ᐅᒪᒋᑑᑕᒧᐎᓇᓐ	-10.8981
▁ᑎᐹᑯᓂᑎᐎᓂᕽ	-10.8981
▁ᑫᐃᓈᒋᒥ	-10.8981
▁ᑳᐅᒋᑎᐯᑖᑾ	-10.8981
ᐋᐸᒋᑑᓈᐙ	-10.8982
ᑎᐹᑐᑕᒫ	-10.8982
ᓂᐴᒪᑲᑭᓐ	-10.8982
ᓂᓯᑖᐎ	-10.8982
ᒥᑖᔑᓃᔓ	-10.8982
▁ᐁᑭᑐᕽ	-10.8982
▁ᑎᐱᑲᒃ	-10.8982
ᑲᓂᔒᒥ	-10.8982
▁ᑳᑮᐅᑫᑌᔭᐋᒥ	-10.8982
ᑕᐎᓇᒫᑰ	-10.8982
ᒥᑖᔑᓃᔑᐙᒡ	-10.8982
▁ᐱᓈᓯᑲᐎ	-10.8982
▁ᐁᑮᒥᓄᐊᔮᐋᒡ	-10.8982
▁ᑫᔖᑰᒋᑣ	-10.8982
ᐯᑳᐹᐗ	-10.8982
▁ᐁᑭᑐᔭᓐ	-10.8982
▁ᐅᔥᑭᐱᒫᑎᓯᐎᓐ	-10.8982
▁ᐅᔥᑲᔭᐄ	-10.8982
▁ᑳᐊᑳᓭᑖᑯᓯᐙᒡ	-10.8982
▁ᑳᒦᑳᓂ	-10.8982
▁ᐁᐯᔓᓈᑾ	-10.8982
▁ᐁᑌᐺᒪᑲᓂᓂᒃ	-10.8982
ᒪᒫᑕᐎᒋᑫ	-10.8982
▁ᓂᑌᐃᕽ	-10.8982
▁ᐁᐃᓀᑕᒧᐙᒡ	-10.8982
▁ᐅᑮᑌᐺᔦᓂᒫᐙᓐ	-10.8982
▁ᐐᓱᐎᓇᓐ	-10.8982
▁ᑕᐃᓀᑕᓰ	-10.8982
▁ᑮᓯᓲᓐ	-10.8982
ᐃᓈᐱᓀᓂᒡ	-10.8982
▁ᑳᓂᑖᐃᔑᒋᑫ	-10.8982
ᐅᓈᐱᑭᓯ	-10.8982
ᐙᑳᐃᑲᓇᓐ	-10.8982
▁ᐅᑲᓇᐌᒋᑫ	-10.8982
▁ᓂᓯᑐᑕᒧᐎᓐ	-10.8982
ᐋᔮᔐᑕ	-10.8982
▁ᑮᒋᑯᓇᔦ	-10.8982
ᓇᓃᓵᓀᑖ	-10.8982
▁ᐊᓂᑮᐌᓐ	-10.8982
ᑲᑲᔦᓂ	-10.8982
ᑮᔑᑑᔮᓐ	-10.8982
▁ᑳᑲᑴᓇᑳᔥᑲᐙ	-10.8982
▁ᓂᑎᐹᒋᒧᐎᓐ	-10.8982
ᐸᑭᔑᓅᒃ	-10.8982
ᐊᓇᒥᐁᑕᐎᒥᓐᒡ	-10.8982
60	-10.8982
▁ᐁᐋᐎᔮᓐ	-10.8982
▁ᐅᑖᑯᓰᒃ	-10.8982
▁ᑎᑭᑲ	-10.8982
▁ᑳᐅᑭᒫᐌᑖᑯᓯᓂᒡ	-10.8982
ᑭᑫᑕᒨᔑᐌ	-10.8982
ᐙᓴᑯᓀᒋᑲᓂᐙᓐ	-10.8982
ᐲᑎᑲᑑ	-10.8982
▁ᐸᑭᑎᓂᑫᐎᓇᓐ	-10.8982
▁ᑳᑭᑕᑭᑌ	-10.8982
▁ᓂᑮᐙᐸᑕᐃᒃ	-10.8982
ᒨᑯᓀ	-10.8982
▁ᓈᓯᑳᑰ	-10.8982
ᐊᔕᐙᐱ	-10.8982
ᐊᑕᐌᑖᓈᐙ	-10.8983
▁ᓂᑕᐌᒫ	-10.8983
▁ᔖᑰᓱᑖᑯᓯ	-10.8983
ᐴᓀᑕᒪᐎᑣ	-10.8983
▁ᐅᐲᐌᓰᒥᓂ	-10.8983
▁ᒋᐱᒥᓂᔕᐅᒡ᙮	-10.8983
▁ᑕᓂᐳᓰ᙮	-10.8983
▁ᑮᑳᑎᐎᓐ	-10.8983
ᑎᒀᓀ	-10.8983
▁ᐁᒦᑭᐌᔦᒃ	-10.8983
ᐐᒋᐊᔮᒫᒡ	-10.8983
▁ᑭᑭᑯᓇᔦᓯ	-10.8983
ᐸᑭᓀᒃ	-10.8983
ᑲᑮᑭᒫ	-10.8983
ᐊᓄᑮᑕᐗᑭᒡ	-10.8983
▁ᒫᔑᒥᑕᑎᒻ	-10.8983
ᐅᑎᓇᓰᓐ	-10.8983
▁ᑌᓴᓬᐊᓇᐃᑳᕽ	-10.8983
ᐃᔑᒋᑳᓂᐗ	-10.8983
▁ᐅᔒᑖ	-10.8983
ᐅᑎᓯᑯᒻ	-10.8983
ᐊᒀᐸᑌ	-10.8984
ᓈᐯᒻ	-10.8984
ᒪᓂᐱᑑ	-10.8984
▁ᑳᐱᔑᒀᑎᓯᐙᒡ	-10.8984
▁ᐁᓀᑕᒧᐙᒡ	-10.8984
ᐃᓈᓴᒪ	-10.8984
▁ᐱᒥᑌᓂ	-10.8984
▁ᑭᑭᑫᓂᒫᓯᐙᐙ	-10.8984
ᐋᐸᒋᐋᓐ	-10.8984
▁ᐃᔅᑌ	-10.8984
▁ᓂᐯᐎᓂᕽ	-10.8984
▁ᐅᑮᓇᑲᑖ	-10.8984
ᐴᓀᒋᑳᑌᑭᓐ	-10.8984
ᐅᑎᑎᓂᑰ	-10.8984
▁ᐁᑎᓄᐎᔭᓐ	-10.8984
▁ᐅᓂᑖᐎᑭᑑᓰ	-10.8984
▁ᐅᓯᑕᓐ	-10.8985
ᐙᐸᒥᑰᒃ	-10.8985
ᐗᔦᔑᒥᐌ	-10.8985
▁ᑕᐱᒫᒋᐋ᙮	-10.8985
▁ᐱᒫᒋᐋᐞ	-10.8985
ᓂᐳᔦᒃ	-10.8986
▁ᒋᑴᑳᑎᓯᓂᒡ	-10.8986
ᐴᑖᒋᑫ	-10.8986
▁ᒋᐲᔖᔦᒃ	-10.8986
▁ᑮᐗᓂᒧᐎᓐ	-10.8986
▁ᔒᐹ	-10.8986
▁ᑭᑎᓀᑕᓰ	-10.8986
▁ᐁᑮᑭᑐᓂᒡ	-10.8986
ᐊᐯᓂᒧᓄᑖ	-10.8986
▁ᑳᒋᑎᓂ	-10.8987
ᐃᔑᐎᓂᑰᒻ	-10.8987
▁ᑭᔒᑲᓅᓈ	-10.8987
▁ᔒᐎᑖᑲᓐ	-10.8987
ᒥᓍᐸᒫᓰ	-10.8987
ᐅᑎᓯᑯᔦᒃ	-10.8987
ᑌᐹᐸ	-10.8987
ᑭᑎᑳᓱᓂᒡ	-10.8988
▁ᑳᑭᑎᒫᑭᓯᒡ	-10.8988
ᑮᓈᑯᓰ	-10.8988
▁ᑳᐃᔖᐙᒡ	-10.8988
▁ᐅᑎᓯᓀᒃ	-10.8988
ᐊᔭᐋᐎᔥ	-10.8988
▁ᐁᑭᔒᐌᒡ	-10.8988
▁ᐅᐐᔮᓯ	-10.8989
▁ᐊᓇᒥᐋᔮᓐ	-10.8989
▁ᑳᐃᓀᑖᑯᓯᐙᒡ	-10.8989
▁ᑮᑌᐐᓯᓂ	-10.899
ᑮᑎᐸᐅ	-10.899
ᑲᓇᐌᓂᒥᑯᐙᒡ	-10.899
▁ᒪᔥᑯᓯ	-10.8992
▁ᑳᔒᑫᓂᒥᑯ	-10.8993
▁ᑫᐃᓈᑯ	-10.8993
▁ᒋᑎᓄᐎᔮᓐ	-10.8993
▁ᑳᔑᐊᔮᓂᒡ	-10.8994
▁ᑭᑫᑕᒧᐎᓐ	-10.8995
▁ᐁᑮᐃᔖᓂᒡ	-10.8996
▁ᑲᓇᐌᓂᒫᐙᒡ	-10.8996
ᑭᑭᓇᐙᒋᒋᑲᓐ	-10.8996
ᐊᔕᒥᑰ	-10.8996
▁ᑳᐃᓈᑎᓯᒡ	-10.9001
ᐸᐹᒧᓭ	-10.9003
ᑭᒋᐐᑎᑫᓂᒡ	-10.9005
ᑭᑭᔥᑳᑯᓂᒡ	-10.9006
▁ᐅᐱᔑᒀᑎᓯᐎᓂ	-10.9006
▁ᑌᐐᓯᓂ	-10.9007
▁ᒥᓄᐊᓄᑮᐎ	-10.9011
ᑭᓰᐲ	-10.9013
ᔑᒥᓍᐸᑕᕽ᙮	-10.9013
▁ᐊᐌᑴᓇ	-10.9015
ᑮᐲᑕᒪᐙ	-10.9015
ᐅᑌᓂᑎ	-10.9017
▁ᒋᐅᓇᔓᐙᓂ	-10.902
ᐐᓴᑭ	-10.9021
ᐐᓯᓂᓯᒀ	-10.9022
ᓇᑲᔥ	-10.9025
▁ᑭᒋᒥᑎ	-10.9026
▁ᑳᑮᐅᑯᓯᓯ	-10.9028
▁ᑮᓇᒪᑕᐱᐗ	-10.9033
▁ᑾᔮᒋᑑ	-10.9033
ᐊᓄᑮᐋᑲᓂ	-10.9034
ᑎᐹᒋᒥᓐᒡ	-10.9035
▁ᐸᒥᐃᑯ	-10.9039
ᐊᓅᓈᒡ	-10.9039
ᔕᐌᓂᒥᑯᓈᓐ	-10.9043
ᐊᑕᐌᑖᑾ	-10.9045
▁ᐲᐎᑌ	-10.9045
▁ᐁᑮᓇᐃᑕ	-10.9047
ᐗᔦᔑᑎᓱ	-10.9047
▁ᑳᑮᐊᐎᐃ	-10.9048
▁ᓂᑭᑭᓄᐊᒫᑫᐎ	-10.9051
ᑭᔑᐹ	-10.9051
ᓀᑳᒥ	-10.9053
▁ᒋᔖᑰᒋᐊ	-10.9057
ᐃᓈᐱᐙᒡ	-10.9059
▁ᒋᐅᑎᓇ	-10.906
ᒪᒦᒀᓂᑎᓱᐙᒡ	-10.9061
▁ᑭᑲᐃᓈ	-10.9062
▁ᓂᐳᐎ	-10.9077
▁ᒋᐴᓀᑕᒫ	-10.908
▁ᐅᔔᓂᔮᒥ	-10.9082
ᑌᐱᓇᒣᒃ	-10.9083
▁ᐃᓀᑕᓰ	-10.9086
▁ᒥᓄᐐᒌᑎ	-10.909
ᑭᑫᑕᓯᐌᒃ	-10.909
▁ᐸᑭᒌᑫ	-10.9097
ᑭᑫᑖᑾᓐ	-10.91
ᑮᔑᑑᓐ	-10.91
ᐐᐎᐙᐞ	-10.9102
ᑕᒪᐎᑣ	-10.9105
▁ᐁᐸᓬ	-10.9108
▁ᓵᑭᐋᐙ	-10.9109
ᑰᔦᑭᐸᓐ	-10.9112
▁ᐁᐲᐋ	-10.9112
ᑭᑫᑕᒪᓐ	-10.9114
▁ᑫᐃᔑᓭᐙ	-10.9118
▁ᑮᓂᔑᐗᓈ	-10.9128
ᑭᓂᑲᐎ	-10.9137
▁ᑳᑮᓅᑕᐙ	-10.9147
ᐃᔑᐌᐸᑭᓐ	-10.9188
▁ᐐᐎᒫ	-10.9194
ᑎᓇᐌᒫᑲᓇᒃ	-10.9211
▁ᐅᑎᔑᓈᑯᓯᐎ	-10.9242
ᑑᓇᔓᐌᐎᓂᐙ	-10.9246
▁ᑮᑮᔑ	-10.9246
ᐅᔑᒋᑳᑌᑭᓐ	-10.9252
ᔥᑳᑯᓯᒃ	-10.9281
ᑮᐐᒋᑭᐌᑎ	-10.9284
ᓃᑳᓂᔥᑲᒥᓂᒡ	-10.929
▁ᐁᑮᓅᑕᐙ	-10.9304
ᓰᑭᓭ	-10.9309
ᐱᓯᑕᒧᐙᒡ	-10.9317
ᑕᐱᓇᐎ	-10.9327
▁ᑮᐅᑕᑳᓀᓯ	-10.9352
▁ᑭᑭᑭᔥᑳᑯ	-10.9363
ᐐᑑᑳᓱᐙᒡ	-10.9374
ᑾᔭᑯᒋᑫᐎᓐ	-10.9389
ᐊᑰᑌᓂ	-10.9391
ᑎᐯᑕᒧᐙᒡ	-10.9418
ᐋᐸᒋᑑᔮᓐ	-10.9419
ᐅᒌᑳᑰ	-10.9434
ᒦᓂᓂᓂᒻ	-10.9449
ᐃᓍᑌ	-10.9454
▁ᐁᓂᑖᑯᓯ	-10.9471
▁ᐁᐊᔓ	-10.9473
▁ᑫᓂᔑᐗᓈᑕ	-10.9475
ᑭᑫᓂᒫᓯᐙᐙᓐ	-10.95
ᐊᐲᑌᑖᑯᓯᓯᒃ	-10.9501
ᓈᒋᐐᑯᐱ	-10.9527
ᐸᑴᔑᑲᓂᐎ	-10.9544
▁ᑳᑮᐙᐸᒪ	-10.9552
ᑖᓂᑫ	-10.9687
ᐅᔑᑕᒪᐎ	-10.9699
ᔖᑯᐌᐗᐞ	-10.9715
ᓂᐯᐎ	-10.9719
▁ᑫᐋᐸᒋᑑ	-10.9724
ᐅᒋᑾᔭᑾᑭᒥ	-10.9727
ᐸᑭᑎᓂᑣ	-10.9729
ᐙᐸᒥᑰᔦᒃ	-10.9741
ᑌᐺᑕᒧᐎᓐ	-10.989
▁ᐁᐐᓂᓵ	-10.99
▁ᐁᐊᓇᒥᐁᑮᔑᑲ	-10.9959
ᓂᑖᐎᑭᒋᑫᒪᑲ	-10.9974
▁ᐋᐸᒋᑖ	-11.008
▁ᑳᐅᑌᑌ	-11.0123
ᒥᓴᐌᓂᒥ	-11.0125
ᑯᓂᑲᓂᐎᒡ	-11.0137
▁ᑭᑮᓂᐳ	-11.015
ᑎᐸᐙ	-11.0219
ᐸᐹᒥᓯᐎᓂ	-11.0224
▁ᑲᑮᑴ	-11.025
▁ᐁᐸᑭᑎ	-11.0281
▁ᐅᑮᐙᐸᑕ	-11.0285
▁ᐁᐅᑌᐺᑕᒧᐎᓂ	-11.0364
ᐱᒋᑲᓂᐎᓂ	-11.0411
ᑭᑫᓂᒥᔦᒃ	-11.0499
▁ᑲᓅᓂᑯᐙ	-11.0514
▁ᑲᑴᔖᑰᓱ	-11.0526
ᓀᓂᑎᓱᓰ	-11.0566
ᑌᐺᔦᓂᒪᒃ	-11.0591
ᐐᐐᑑᑳᓱ	-11.0603
ᐃᑭᑐᔦᑭᐸᓐ	-11.0627
▁ᐁᑾᔭᑴ	-11.0628
ᐙᐸᒥᓀᒀ	-11.0643
▁ᑳᐱᓯᑕᐎ	-11.0685
▁ᑳᐋᐸᒋᑑ	-11.0709
▁ᒋᑎᐹᒋᒥ	-11.0752
ᑎᐱᑑᑕ	-11.0769
ᐃᔑᐱᒫᑎᓯᔦᒃ	-11.0837
▁ᐁᓈᑯᑑ	-11.0849
ᑕᓀᑖᑯᓯ	-11.0871
▁ᔖᑰᓱᒥ	-11.0882
ᒫᒪᑳᑌᑕᒧ	-11.0914
ᐅᒑᓂᒥ	-11.0916
ᑮᐃᓇᒃ	-11.0926
ᔑᐌᐱᓯᔦᒃ᙮	-11.0995
▁ᑭᑎᓇᐌᒫᑲ	-11.106
▁ᓂᔑᐗᓈᒋᒋᑳᑌ	-11.1065
8	-11.109
1	-11.1091
ᐅᑖᐱᓇᒥᓂ	-11.1091
ᑭᑎᑳᓀᓴᓐ	-11.1093
ᒥᑖᔂᒃ	-11.1094
ᐸᔑᐸᐃᑫᐎᑯᒫᓂ	-11.1132
▁ᐃᓈᑯᓂᑰ	-11.1136
▁ᐁᔑᐊᑕᐌᓂ	-11.1139
▁ᓂᑫᒋᓈ	-11.1142
ᑎᐯᑖᑯᓯᒥᓐ	-11.1172
▁ᒫᐗᑑ	-11.1203
▁ᓂᑮᐊᑕᐌ	-11.1208
▁ᐁᑮᐅᔑᐲᐊ	-11.1214
▁ᑎᐸᐃᑲ	-11.1224
▁ᑭᑭᔐᒪᓂᑑᒥᓈ	-11.123
ᓂᔑᐗᓈᑕᓂᓂ	-11.126
ᐊᓇᒥᐁᐎᑲᒥᑯᓂ	-11.1263
ᐅᒋᑭᑫᒋᑳᑌ	-11.127
ᑗ	-11.1276
ᑭᑫᓂᒥᑯᐙ	-11.1278
ᓈᑎᓯᓂᒡ	-11.1288
ᐊᓇᒥᒋᑳᑌ	-11.1299
ᑲᒥᑳᓂᒃ	-11.1304
ᐱᒫᑎᓰᒪᐞ	-11.1306
▁ᓃᒋᑭᐌ	-11.131
ᒋᑌᐺᑕᒨ	-11.1311
ᐃᓀᑖᑾᓂᓂᒃ	-11.1312
▁ᑭᓇᑕᐌᑖ	-11.1315
ᓀᓂᒫᓰ	-11.133
ᔑᐸᒦᑖᑫ	-11.134
ᐅᔥᑭᐅᔑ	-11.1341
ᐅᐲᐌᓰᒥ	-11.1341
▁ᑳᐃᔑᑭᑭᓄᐊ	-11.1342
▁ᑳᒥᓍᑎᓰ	-11.1342
▁ᑳᐃᔑᐅᔑᐲ	-11.1342
▁ᑎᑎᐲᑭ	-11.1343
ᐹᑲᐋᒀᓐ	-11.1343
▁ᐃᔑᑭᑭᓄᐃᑫ	-11.1343
▁ᐅᑑᔑᐲᐃᑲᓂ	-11.1343
▁ᐅᒦᒋᒥᒥ	-11.1343
▁ᑎᔦᐺᔦᓂ	-11.1343
▁ᑲᒀᓂᓴ	-11.1343
▁ᒋᓵᑭᒋᓂᔕᐙ	-11.1343
▁ᒌᒫᓃᐎ	-11.1343
▁ᓂᒥᔅᑸ	-11.1343
▁ᓰᓯᐹᑾ	-11.1343
ᐃᓈᓴᒥᑳᐸᐐᑕᐙ	-11.1343
ᐊᑰᒋᓂᓂᒡ	-11.1343
ᐊᔮᒪᑲᓯᓄᒃ	-11.1343
ᐋᔕᐎᔥᑳᐙᒡ	-11.1343
ᐐᒋᒥᓉᑕᒨᒥ	-11.1343
ᐗᓇᑯᔕᓐ	-11.1343
ᐙᐱᔥᑳᓂᐗᓐ	-11.1343
ᐙᓰᑴᓱᒡ	-11.1343
ᐯᔑᑴᐙᓇᑭᓯ	-11.1343
ᐱᓵᓀᑕᒧᐎᓂ	-11.1343
ᐲᐎᑌᐌᑖᑯᓯ	-11.1343
ᐴᓃᓴᑖᑯ	-11.1343
ᐴᔔᐁᒀ	-11.1343
ᐸᒀᓀᑲᒥᒃ	-11.1343
ᐸᒥᓇᒧᐃ	-11.1343
ᐹᐱᓄᑕᐎ	-11.1343
ᐹᐹᐎᓯᑌᔑᒨᓄ	-11.1343
ᐹᑭᑌᓇᒪᐙ	-11.1343
ᑎᐹᑐᑕᕽ	-11.1343
ᑎᐹᒋᒥᑯᐙ	-11.1343
ᑎᐹᒋᒥᑰᐎᓐ	-11.1343
ᑭᑎᑳᓇᑲᒥᑯᕽ	-11.1343
ᑭᑫᑖᑯᑑᒡ	-11.1343
ᑭᑭᓄᐊᒪᐎᓂᓂᒻ	-11.1343
ᑭᑳᓄᒀᓀ	-11.1343
ᑭᒋᐴᑖᒋᑲᓐ	-11.1343
ᑮᐊᒸᐙᒡ	-11.1343
ᑲᑮᐹᒋᒋᑫ	-11.1343
ᑲᓇᐙᐸᒪ	-11.1343
ᒑᑭᓱᑣ	-11.1343
ᒥᑖᔀᔑᓃᔑ	-11.1343
ᒥᑯᔥᑳᓱ	-11.1343
ᒥᒋᒪᐱᓂᑯ	-11.1343
ᒥᒑᐱᑭᓯ	-11.1343
ᒥᓈᑾᐅᓂᓂ	-11.1343
ᒦᑳᑎᓈᓂᐗᓂᓂᒃ	-11.1343
ᒪᔥᑲᐌᑕᒪᕽ	-11.1343
ᒫᓇᒑᓂᔐᓯ	-11.1343
ᓂᑖᐎᑭᓈᐗᓱᒡ	-11.1343
ᓇᓈᑐᓇᐎᒻ	-11.1343
ᔀ	-11.1343
ᔕᔒᐯᓂᒫᐞ	-11.1343
▁ᐁᑮᐐᒋᐊᔮᒥᑰᔦᒃ	-11.1343
▁ᐁᑮᓃᒫᑾᐊ	-11.1343
▁ᐁᑲᑮᐹᑕᓂᓂᒃ	-11.1343
▁ᐁᓈᓴᒪᐱᓂᒡ	-11.1343
▁ᐃᓬᐋᔭᑭ	-11.1343
▁ᐃᔑᐐᔮᓯᐎ	-11.1343
▁ᐃᔑᐴᔔᐃᑎᒃ᙮	-11.1343
▁ᐅᐲᐌᓰᒪ	-11.1343
▁ᐅᑎᐹᒋᒨᐞ	-11.1343
▁ᐅᑕᒑᑯᓃᕽ	-11.1343
▁ᐅᑕᔭᐄᒥᐙᓐ	-11.1343
▁ᐅᑖᔑᑌᔮᑎᑯᒪᓐ	-11.1343
▁ᐅᑫᑌᐃᓈᑎᓯᐎ	-11.1343
▁ᐅᑭᑎᑳᓂ	-11.1343
▁ᐅᑮᐐᑕᒪᐙᐙᐞ	-11.1343
▁ᐅᑮᐙᑎᓰᑴ	-11.1343
▁ᐅᑮᒨᒋᔥᒃ	-11.1343
▁ᐅᑮᒪᓈᒋᐋᓰ	-11.1343
▁ᐅᑲᒨᓇᐋ	-11.1343
▁ᐅᑲᔥᑮᑮᐎᓂᐙᓐ	-11.1343
▁ᐅᑲᔥᑮᑮᐎᓂᓂ	-11.1343
▁ᐅᑳᐎᒥᓇᑭᔒ	-11.1343
▁ᐅᑳᑭᑲᓂᐙᕽ	-11.1343
▁ᐅᑾᔭᒀᑎᔅ	-11.1343
▁ᐅᒥᓴᑖᕽ	-11.1343
▁ᐅᒥᔅᑶ	-11.1343
▁ᐅᒪᒑᑎ	-11.1343
▁ᐅᒪᓯᓇᐃᑲᓂ	-11.1343
▁ᐊᐗᑳᓇᒃ	-11.1343
▁ᐊᑲᐙᑌᐃ	-11.1343
▁ᐊᒀᒀᐱᑭ	-11.1343
▁ᐊᔮᒀᒥᓰᑲᑕ	-11.1343
▁ᐋᐸᒋᑑᒃ	-11.1343
▁ᐋᓬᐱᔭᓴᓐ	-11.1343
▁ᐋᔩᒋᑳᐸᐎᒃ	-11.1343
▁ᐐᑯᐲᒪᑲᑰᓐ	-11.1343
▁ᐐᑾᑫᔮᓐ	-11.1343
▁ᐐᔭᐎᐙᓐ	-11.1343
▁ᐗᓂᔑᓂᓂᒡ	-11.1343
▁ᐙᐱᔥᑮᑭᓄᕽ	-11.1343
▁ᐯᔑᑴᑖᑯᓯ	-11.1343
▁ᐱᒫᒋᐃᑎᓱᓐ	-11.1343
▁ᐱᔑᑮᓴᓐ	-11.1343
▁ᐲᑖᐸᓂᓂᒃ	-11.1343
▁ᐲᑴᑕᒧᐎᓐ	-11.1343
▁ᐲᓯᐴᒋᑲᓇᓯᓃᓐ	-11.1343
▁ᐸᑲᒫᔑᒥᓐ	-11.1343
▁ᐸᑲᒫᔑᔮᕽ	-11.1343
▁ᐸᑴᔑᑲᓂᑳᓀᓴᐞ	-11.1343
▁ᐸᓰᑴᑲᓈᒥᒃ	-11.1343
▁ᐸᕒᐋᐸᓴᓐ	-11.1343
▁ᐹᐱᓬᐃᔭ	-11.1343
▁ᑎᐸᐃᑫᐎᔔᓂᔮᓐ	-11.1343
▁ᑎᐹᑯᓂᑫᐎᑲᒥᑯᕽ	-11.1343
▁ᑕᔂᐱᒃ	-11.1343
▁ᑕᔭᑕᐃᕒᐊ	-11.1343
▁ᑭᐹᑾᐅᑏᐎᑲᒥᑯᕽ	-11.1343
▁ᑭᑌᐃᓈᓂᕽ	-11.1343
▁ᑭᑌᐺᑕᒧᐎᓂᓈᓂᕽ	-11.1343
▁ᑭᑎᑫᐗᑮᓂ	-11.1343
▁ᑭᑎᑭᑐᒻ	-11.1343
▁ᑭᑎᓀᑕᒧᐎᓐ	-11.1343
▁ᑭᑎᓀᑖᑯᓯᒻ	-11.1343
▁ᑭᑑᐱᒫᒋᐃᐌᒥᓈᓐ	-11.1343
▁ᑭᑑᒋᑎᐯᑖᑯᓯᒻ	-11.1343
▁ᑭᑑᓇᔓᐌᐎᓂᓈ	-11.1343
▁ᑭᑫᑌᐃᓈᑎᓯᐎᓂᐙ	-11.1343
▁ᑭᑫᑌᔭᐋᒥᐙᐸᓃᒃ	-11.1343
▁ᑭᑭᓇᐙᒋᒋᑫᐎᓇᓐ	-11.1343
▁ᑭᒋᐗᒋᐤ	-11.1343
▁ᑭᓃᒑᓂᓯᐙᒃ	-11.1343
▁ᑭᓈᐯᒥᐙᒃ	-11.1343
▁ᑮᑭᒋᒫᒪᑳᑌᑕᒨᒃ	-11.1343
▁ᑮᑴᑭᑳᐸᐎ	-11.1343
▁ᑮᓰᑲᐊᑖᓱᐗ	-11.1343
▁ᑯᔥᒀᐙᑌᑕᒧᐎᓐ	-11.1343
▁ᑳᐃᔑᐎᔑᐌᒪᑲ	-11.1343
▁ᑳᐃᔑᑲᓅᑕᒪᐎᓐᒡ	-11.1343
▁ᑳᐃᔥᑯᑌᐗ	-11.1343
▁ᑳᐊᑳᔒᔑ	-11.1343
▁ᑳᐐᑕᓄᑮᒪ	-11.1343
▁ᑳᐯᐸᑳᓇᑎ	-11.1343
▁ᑳᑎᐯᑖᑯᓯᐙᒡ	-11.1343
▁ᑳᑮᐊᔓᑕᒫᑫᓂᒡ	-11.1343
▁ᑳᑮᓂᐳᓂᐸᓐ	-11.1343
▁ᑳᓂᔥᑫᓂᒥᒀ	-11.1343
▁ᑳᓈᑾᓯᓄᑭᓐ	-11.1343
▁ᑳᓴᓰᑭᓯᒡ	-11.1343
▁ᑴᔭᒀᑎᓯᓂᒡ	-11.1343
▁ᒋᐅᑎᓵᐸ	-11.1343
▁ᒋᑑᑕᒧᐌᒃ	-11.1343
▁ᒋᓵᑭᐃᑎᔭᑭᐸᓐ	-11.1343
▁ᒌᐸᔾ	-11.1343
▁ᒌᒫᓀᔅ	-11.1343
▁ᒥᑕᑎᒨᐞ	-11.1343
▁ᒥᑕᑲᒥᑯᕽ	-11.1343
▁ᓀᐗᑕᑎ	-11.1343
▁ᓂᐱᒫᑎᓰᒪᒃ	-11.1343
▁ᓂᐸᑯᓭᑖ	-11.1343
▁ᓂᑮᑲᓅᓂᒃ	-11.1343
▁ᓂᑲᐅᔑᐲᐊᒧᐙ	-11.1343
▁ᓂᔔᓂᔮᒻ	-11.1343
▁ᓇᑖᓂᔭᓬᐊᓐ	-11.1343
▁ᓯᕒᐊᐸᐸᓬ	-11.1343
▁ᓵᑮᔭᔅ	-11.1343
▁ᓵᒐᓰᐞ	-11.1343
▁ᔑᔮᓬᑏᔭᓬ	-11.1343
ᐊᔨᔑᐌᐸ	-11.1343
ᐱᒶᓯᓇᐃ	-11.1343
ᐴᓀᑕᒪᐎᓀᒃ	-11.1343
ᒪᒫᑖᐎᒋᑫ	-11.1343
ᓅᑌᐐᒥᓂᑴ	-11.1343
ᓇᓈᑐᓂᑫ	-11.1343
ᓵᑲᐊᒨᒪᑲ	-11.1343
▁ᐁᐐᐙᐸᒫᐗᓱ	-11.1343
▁ᐁᑎᓄᐗᕽ	-11.1343
▁ᐁᑭᑫᓂᒥᓯᐗᓐ	-11.1343
▁ᐁᑮᓂᐳᐸᓐ	-11.1343
▁ᐁᔖᑯᐌᓂᒡ	-11.1343
▁ᐃᓈᐸᑕᓯᓂᓂ	-11.1343
▁ᐅᐙᑳᐃᑲᓂᓂ᙮	-11.1343
▁ᐅᑎᒀᓂᐙᕽ	-11.1343
▁ᐅᑕᓄᑮᐋᑲᓂᓂ	-11.1343
▁ᐅᑖᔑᑌᔮᑎᑯᒥ	-11.1343
▁ᐅᑭᑭᔥᑳᑯᓰᓐ	-11.1343
▁ᐊᓴᐲᓐ	-11.1343
▁ᐙᓭᒋᑲᓈᐱ	-11.1343
▁ᐯᕒᐆ	-11.1343
▁ᐯᕒᐊᓰᐎᓂᓂᐗᐞ	-11.1343
▁ᑌᐯᒋᑫᓂᒡ	-11.1343
▁ᑭᑕᓄᑮᐎᓂᐙ	-11.1343
▁ᑭᑮᐋᐸᐅᑯ	-11.1343
▁ᑲᒀᑕᑭᐃᐌᐎᓇᓐ	-11.1343
▁ᑳᓇᐁᑕᒥᐃ	-11.1343
▁ᒋᐊᓈᒥᒥᓀ	-11.1343
▁ᒋᒥᓄᐐᒌᐗᕽ	-11.1343
▁ᓴᑳᐹᓇᓐ	-11.1343
▁ᓵᐃᕒᐄᓂ	-11.1343
▁ᔔᒥᓈᐴ	-11.1343
▁ᔖᑲᓯᒥᑕᓇᔑ	-11.1343
ᐊᑑᐹᓂᕽ	-11.1343
ᐙᓄᒀᓐ	-11.1343
ᐸᑴᔑᑲᓂᑳᓇᐞ	-11.1343
ᑮᐊᑐᒥᑯᐙ	-11.1343
ᑾᔮᑕᑌ	-11.1343
ᔕᐌᑖᑯᔅ	-11.1343
▁ᐁᑮᒪᒫᒋᑯ	-11.1343
▁ᐅᐙᓭᓯᐎ	-11.1343
▁ᐅᑮᐅᑎᓵ	-11.1343
▁ᐅᑮᐅᒋᒌᑾᓃᑕᐙᐙᓐ	-11.1343
▁ᐅᑮᓇᑲᓂᑰ	-11.1343
▁ᐅᔫᓯᒫ	-11.1343
▁ᐊᔓᑕᒫᑯᒡ	-11.1343
▁ᐱᒫᔕᑳᒣ	-11.1343
▁ᐱᓃᔑᔭ	-11.1343
▁ᐹᕒᑖᓬᐊᒥ	-11.1343
▁ᑭᑕᐯᓂᒧᐎᓂᓈᓐ	-11.1343
▁ᑭᑫᑌᔭᐋᒥᐙᒃ	-11.1343
▁ᑭᑫᒋᑳᑌᓯᓄ	-11.1343
▁ᑮᑰᔭᒃ	-11.1343
▁ᑳᐃᔑᓇᑴᑕᐙᒡ	-11.1343
▁ᒋᐯᑳᑎᓯ	-11.1343
▁ᓵᓬᒪ	-11.1343
ᑌᐺᔦᑕᒪᓐ	-11.1343
ᒥᓯᑌᔥᑳᒪᑲ	-11.1343
ᓈᐸᑕᒧᐎᓂᕽ	-11.1343
▁ᐅᑎᓈᑯᓂᑫᐎᓂᕽ	-11.1343
▁ᐅᓂᐳᐎᓐ	-11.1343
▁ᐊᑯᓴᑲᐅᑰᒫ	-11.1343
▁ᐋᐌᒋᑲᓂ	-11.1343
▁ᐋᐌᒋᑲᓐ	-11.1343
▁ᑫᑌᐃᓈᑯᓂᑫᐎᓐ	-11.1343
▁ᑭᑫᑖᓱ	-11.1343
▁ᑮᓯᓱᕽ	-11.1343
▁ᑲᒀᑕᑫᑖᑯᓯᔦᒃ	-11.1343
ᑖᓱᐎᑲᒥᑯᕽ᙮	-11.1343
ᑯᔥᑴᑕᒨ	-11.1343
▁ᐅᑮᓈᑯᓰᑕᐙ	-11.1343
▁ᑲᑲᓅᓂᑎᓂᒡ	-11.1343
ᐐᐅᔑᓯᑑ	-11.1343
ᐱᒥᑌᓴᐱ	-11.1343
ᓇᓈᑐᓀᐅ	-11.1343
ᔖᐳᔥᑲ	-11.1343
▁ᑳᑮᐃᔑᐲᐃᑳᑌᒃ	-11.1343
ᐙᐙᑌᓭ	-11.1343
ᓇᓈᑯᒥᒃ	-11.1343
▁ᐅᑮᐃᔑᐎᓂᑰᓐ	-11.1343
▁ᐅᓯᑯᓴᓐ	-11.1343
▁ᑲᓇᐌᓂᒻ	-11.1343
▁ᑳᐹᔥᑭᓀ	-11.1343
▁ᓂᐴᒪᑲᓐ	-11.1343
ᐗᓇᑯᔥ	-11.1343
ᐸᐃᑳᑫ	-11.1343
ᑭᑭᔥᑭᑲᓂᕽ	-11.1343
ᒥᔕᑳᐗᒃ	-11.1343
▁ᒫᑕᑖᔭ	-11.1343
ᐋᐸᒋᑑᑫᒃ	-11.1343
ᑲᑳᓱᒥᓂᓂᒻ	-11.1343
▁ᐅᒥᓉᑖᓈᐙ	-11.1343
▁ᑲᓇᐸᒡ	-11.1343
▁ᒣᓬᑳ	-11.1343
ᑭᐲᑲᐃᑲ	-11.1343
▁ᐁᐅᓃᒑᓂᓯᒥᓇᕽ	-11.1343
ᒣᓂᔐᑕ	-11.1343
▁ᐌᑭᒫᐎ	-11.1343
▁ᐃᔑᐲᐊᓐ	-11.1343
ᐊᑐᒥᓇᕽ	-11.1343
ᔖᑯᐙᓈᒡ	-11.1343
▁ᐁᑮᐗᐙᓀᑕᒥᓂᒡ	-11.1343
▁ᑭᒫᒥᑲᐎᓰᒻ	-11.1343
▁ᑳᑮᐊᔓᑕᒪᐎᓇᕽ	-11.1343
▁ᑭᐙᑳᐃᑲᓂᕽ	-11.1343
▁ᓂᑮᐊᔮᒥᓐ᙮	-11.1343
▁ᐊᑳᓭᑖᑾ	-11.1343
▁ᑲᑮᑖᐎᓯᐎᓐ	-11.1343
▁ᐐᑾᑎᓈᓂᐗᓂᓂᒃ᙮	-11.1343
ᑲᑳᒋᐋ	-11.1343
ᒦᓂᒥᓇᕽ	-11.1343
▁ᐅᑮᐊᓅᓈ	-11.1343
▁ᐅᑮᐊᔮᒀᒥᒫᐞ	-11.1343
▁ᑭᐐᐎᐙᒃ	-11.1343
ᑲᑮᐹᓯ	-11.1343
▁ᑭᑌᐺᔦᑕᒧᐎᓐ	-11.1343
ᐸᑲᒫᓂᒪ	-11.1343
▁ᐙᓴᑯᓀᒋᑲᓇᓐ	-11.1343
▁ᑭᑖᐱᑯᕽ	-11.1343
▁ᓴᑲᑲᑭ	-11.1343
▁ᑕᐃᔑᐱᒫᑎᓯᐗᒃ	-11.1343
ᐊᔓᑕᒫᑰ	-11.1343
▁ᐊᒥᓇᑖ	-11.1343
ᐅᑌᑎᔮᓐ	-11.1343
ᐐᑎᑫᐋᓯᒃ	-11.1343
▁ᐌᒌᔦᒃ	-11.1343
ᐙᐐᒋᐃᑎ	-11.1343
ᑌᓇᓂᐎ	-11.1343
▁ᒫᑲᑕᓬ	-11.1343
ᔮᐸᒋᐋ	-11.1343
▁ᐁᑮᐅᒋᑲᐙᐱ	-11.1343
▁ᑮᒫᒌᐊᓇᒥᐁᐙᑎᓯ	-11.1343
▁ᑮᐃᔑᓇᑴᑕ	-11.1343
▁ᑕᑯᐱᓱ	-11.1343
ᒧᔥᑭᓀ	-11.1343
▁ᐊᔓᑕᒫᑎᐎᓂᓂ	-11.1343
ᓂᓯᑖᐌᑕᓰ	-11.1343
▁ᑭᑭᓄᐊᒫᑎᐎᓂᐙ	-11.1343
▁ᑯᐹᑌᓂ	-11.1343
▁ᓂᒦᑴᒋᐎᐋ	-11.1343
▁ᔒᑫᓂᒥᑯᐙ	-11.1343
▁ᓈᓯᑳᒃ	-11.1343
ᐅᑖᐱᓇᓰᓈᐙ	-11.1343
▁ᐌᑌᑌ	-11.1343
▁ᐅᑮᑲᑴᒋᒫᐙᓐ	-11.1343
ᔕᑳᒣ	-11.1343
▁ᑭᑌᐃᕽ	-11.1343
ᑭᑎᒫᑭᓈᑫ	-11.1343
▁ᐱᒥᓂᔕᐅᑰᐞ	-11.1343
ᐋᔩᑌᑕ	-11.1343
▁ᑮᐸᑭᑌᐙ	-11.1343
ᐊᔕᐙᐸᑕᒪᕽ	-11.1343
▁ᐐᐱᒋᑳᑌᓂᒃ	-11.1343
▁ᑳᐅᓃᒑᓂᓯᒥᑯᒡ	-11.1343
▁ᒋᑮᒦᒋ	-11.1343
▁ᐅᓃᒑᓂᓯᒫᒃ	-11.1343
▁ᒋᐸᑭᑎᓈᓱ	-11.1343
▁ᑕᓂᐳᓰᐗᒃ	-11.1343
▁ᒋᓂᓯᑐᑕᒧᐙᒡ	-11.1343
▁ᐅᑮᓵᑭᑑ	-11.1343
▁ᐅᒌᒫᓂᐙ	-11.1343
▁ᐱᑾᒋ	-11.1343
ᐙᑎᑯᕽ	-11.1343
▁ᑮᐸᑭᑎᓈᓱ	-11.1343
ᓲᑫᑖᑯᓯ	-11.1343
▁ᒪᓂᑑᑳᓇᓐ	-11.1343
▁ᑭᓂᓯᑐᑕᓰᒻ	-11.1343
ᐋᐸᐅᑰ	-11.1343
▁ᓈᓯᐲ	-11.1343
ᓂᓴᑭᒡ	-11.1343
▁ᐁᐊᐱᒧ	-11.1343
▁ᓂᑮᓇᑲᑖ	-11.1343
ᓵᑭᒋᐎᓈᒡ	-11.1344
ᐐᑕᒪᐌᒀ	-11.1344
▁ᑳᐃᔑᐐᐸᑲᒥᑳᒃ	-11.1344
ᑭᑫᓂᒪᒡ	-11.1344
▁ᑳᑎᓄᐗ	-11.1344
ᐋᐌᒋᑳ	-11.1344
▁ᐅᑌᐺᔦᑕᒧᐎᓐ	-11.1344
ᐐᒋᐃᓂᓂᒻ	-11.1344
▁ᓴᒣᕒᐃᔮᐎᓂᓂᐗ	-11.1344
▁ᐊᔑᔥᑭ	-11.1344
▁ᓂᑎᓇᑭ	-11.1344
ᒥᓈᓂᐞ	-11.1344
▁ᑳᐌᓅᒋ	-11.1344
▁ᑭᑮᐃᑰᒻ	-11.1344
ᓂᐳᐎᓂᓃᕽ	-11.1344
ᑮᑮᐌᐱᒫᑎᓯᐃᒥᓐᒡ	-11.1344
ᑰᐹᓯᓈᑯᓯ	-11.1344
▁ᐅᑲᑮᑖᐎᓯᐎ	-11.1344
ᑮᒪᒋᑑᑕᒥᓂᒡ᙮	-11.1344
▁ᒦᓂᑰᐎᓇᓐ	-11.1344
ᑕᐸᓭᑖᑾ	-11.1344
▁ᐐᒌᐎᑯᒻ	-11.1344
▁ᐅᓈᑯᑑ	-11.1344
ᐸᐸᑭᑌᐅᑰ	-11.1344
▁ᑳᑮᐙᐱᓯᓂᒃ	-11.1344
ᑌᐺᑕᐎᓯᐌᒃ	-11.1345
▁ᐁᑲᔥᑭᐋ	-11.1345
▁ᐁᓀᑕᒧᐗ	-11.1345
ᐐᒋᐱᒫᑎᓰᒥ	-11.1345
ᑎᓄᐗᓅᓐ	-11.1345
▁ᑫᒥᓂᑴᔦᒃ	-11.1345
▁ᑭᐸᐙᑲᓇ	-11.1345
▁ᓂᐳᔮᓐ	-11.1345
ᐅᒌᒥᑾᒃ	-11.1345
▁ᐅᑎᓇᑭ	-11.1345
▁ᑳᑭᑖᑎᓯ	-11.1346
ᐊᓇᒥᐁᑕᐌᒃ	-11.1346
ᐊᐗᓱᒡ	-11.1346
▁ᒋᐸᒥᐃᑯ	-11.1346
▁ᐅᐙᑳᐃᑲᓂᐙ	-11.1346
ᐹᑭᓭᓂ	-11.1346
ᑖᐱᑕᐎ	-11.1347
ᑭᑐᒋᑫ	-11.1347
ᐅᒥᑮᐎ	-11.1347
ᐊᔫᑯ	-11.1347
▁ᐁᓂᓱᑎᐸᐃᑲᓀᔮ	-11.1348
▁ᓃᑳᓀᑖᑾ	-11.1348
▁ᓅᓯᓈ	-11.1348
▁ᒪᒋᑑᑕᒧᐃᑯ	-11.1349
▁ᑭᑎᓀᓂᒥ	-11.1351
ᑭᑫᒋᑲᓂᐎ	-11.1351
ᐱᔑᒧᓂ	-11.1351
▁ᑳᒪᔥᑲᐎᑌᐺᑕ	-11.1352
▁ᐯᒋᒪ	-11.1352
▁ᐅᑮᐐᑎᑫᒫ	-11.1353
▁ᑳᑮᐸᑭᑎᓇᒪᐎ	-11.1353
ᐐᒋᐃᓯᒃ	-11.1353
ᐊᔓᑕᒫᑫᔭᓐ	-11.1353
ᑳᒋᒋᐋᐙ	-11.1354
▁ᐲᑕᒪᐙᐙ	-11.1354
ᔥᑯᓯᐗ	-11.1355
ᐃᔑᑲᐯᔑ	-11.1355
▁ᒋᒥᓉᑕᒪ	-11.1355
ᑌᐺᑕᐎᔦᒃ	-11.1357
▁ᐅᑎᔑᑮᔗᐎᓂ	-11.1357
▁ᑮᐌᑎᓄ	-11.1357
ᐙᐸᒥᓇᑰᑭᐸᓐ	-11.1358
▁ᐊᐲᑌᑖᑾᓯᓅ	-11.1358
ᐃᑭᑐᐎᓐᒡ᙮	-11.1358
ᐃᔥᐸᑭ	-11.1359
ᑕᔑᑕᒧᐗᒃ	-11.136
ᐊᔭᐱ	-11.1361
▁ᑮᒫᒋᓭᓂ	-11.1361
ᑲᑴᒋᒣᒃ	-11.1362
ᑲᑴᐗᓈ	-11.1365
ᑭᑭᓄᐊᒪᐎᓇᑰᒃ	-11.1366
▁ᑮᒫᓀᑕᒨ	-11.1366
ᑕᑶᔑᓄ	-11.1366
ᐙᓭᓈᑾ	-11.1367
▁ᐅᒫᒫᒫ	-11.1367
ᔑᓂᑳᓂᓐᒡ	-11.1368
▁ᐅᑮᐅᓇᑑ	-11.137
▁ᑕᑕᑯᔑᓅ	-11.1374
▁ᑳᔑᐊᑕᐌᓂᒥ	-11.1374
ᐅᒌᐱᑳ	-11.1375
ᐃᔥᒀᓭᓯᓂᓂ	-11.1379
ᐱᒫᒋᐃᑰᔭᕽ	-11.1384
ᐙᓴᑯᓀᒋᑲ	-11.1388
ᐅᒋᑫᒋᓈᐅᔭᕽ	-11.1389
ᑮᔑᑳᒃ	-11.1389
ᑭᑎᑳᑌᓂᑭᓐ	-11.1391
ᑭᑫᓂᒫᓯᐎᓐᒡ	-11.1394
▁ᐴᓀᑕᒪᐎᔑ	-11.1394
ᐃᓈᑲᒥ	-11.1398
ᐊᐗᑳᓂ	-11.1402
▁ᐃᓇᑭᒥᑰ	-11.1414
ᓀᐊᒧᐙᒡ	-11.1419
ᐯᑭᐃᑰᐎᓯ	-11.1421
ᐎᓂᓃᒪᐞ	-11.1423
▁ᒋᐅᔑᑕᒪ	-11.1424
ᐃᓈᐗᒃ᙮	-11.1446
ᒪᔥᑲᐙᑎᓯ	-11.1446
ᐱᒫᑎᓰᐋᓐ	-11.1451
ᒦᓂᑯᓰᓐ	-11.1455
ᐌᐱᓂᑳᑌᒃ	-11.1455
ᑲᓅᓇᒀ	-11.1456
ᓂᓱᑮᔑᑲᒃ	-11.1461
▁ᑮᓃᔣᒋᐗ	-11.1461
ᐃᔑᓂᑫᓂ	-11.1463
▁ᐲᑎᑲᓂᑰ	-11.1467
ᐐᐱᑕᑯᔑᕽ	-11.1474
ᔑᒥᐌᐙᒡ	-11.1481
ᐃᔑᓭᔮᓐ	-11.1482
ᐊᔫᓵ	-11.1483
ᑮᐃᔥᒀᐱᒫᑎᓯᓂᒡ	-11.1486
▁ᐅᓲᐎ	-11.1487
ᑮᔑᓈᑾᒃ	-11.149
▁ᑮᐃᓀᑖᑯᓯᐗ	-11.1509
ᐊᑐᒥᓐᒡ	-11.1515
ᓈᑲᒋᐋᒡ	-11.1534
ᐃᓈᔑᔮᕽ	-11.1539
ᐃᓈᐱᔦᒃ	-11.154
ᓇᐃᑕᒧᐌᒃ	-11.1544
ᑮᑮᐌᐃᔖ	-11.1556
▁ᒨᔕᑭ	-11.1572
ᐙᑳᔥᑳᑯ	-11.1597
▁ᑳᐐᒋᐐᓯᓃ	-11.1602
▁ᐃᑭᑑᒪᑲ	-11.1647
▁ᒫᒌᐸᐃᐌ	-11.1661
ᒫᒦᓄᐸᔕᔐ	-11.1663
ᑮᐃᔑᓇᒻ	-11.1663
▁ᐅᑲᒦᓂᑯ	-11.1665
ᑲᑴᒋᒥᓈᓐ	-11.1667
▁ᑮᐅᔑᒋᑳᑌ	-11.1671
ᑌᐺᔦᓂᒥᑯᒡ	-11.168
ᐃᑭᑐᔮᕽ	-11.1705
ᒋᑳᑌᑯᐸᓀ	-11.1751
ᐃᔑᒋᑫᓯᒀ	-11.1756
ᑑᑕᐎᔮᕽ	-11.177
▁ᑳᑌᐺᒪᑲ	-11.1776
ᓈᑯᑕᒪᐙ	-11.1789
▁ᐅᑭᒋᒪᔥᑲᐎᓰᐎ	-11.1805
ᐊᑲᒋᐌᑖᑾ	-11.1809
ᑭᑫᓂᒪᕽ	-11.1865
ᑎᐸᐊᒪᐎᑣ	-11.1869
ᓂᐳᓯᒃ	-11.1884
ᑮᔥᑲᑕ	-11.1888
ᐐᒌᐎᓀᒀ	-11.1908
ᑎᐹᑐᑕᒧᐙ	-11.1935
ᐃᓈᑴᓐ	-11.196
ᐱᓯᑕᒥᓂᒡ	-11.1984
ᓀᑖᑾᓅᓐ	-11.2019
ᐋᓇᐌᓂᒥᒥᓐᒡ	-11.2032
ᐱᒥᐐᒌᐎ	-11.2054
ᐱᑾᑎᓈᒃ	-11.2075
▁ᒋᑭᑭᓇᐙᑕᔕᑫᔓ	-11.2098
▁ᐅᑮᓂᓯᑐ	-11.2112
ᑭᑎᑫᐎᓇᓐ	-11.2115
ᔕᔒᐱᑕᐙᐙ	-11.2144
▁ᐁᑌᐺᔦᓂᒪ	-11.2155
ᒦᒋᓂᒡ᙮	-11.219
ᑮᒦᔑ	-11.2197
ᐱᒪᒧ	-11.226
ᑲᓅᓂᑯᐙᒡ	-11.2296
▁ᒋᑭᑫᑕᒧᐗ	-11.2299
▁ᒋᐅᒋᑎᐯᑖᑯᓯ	-11.2352
ᐃᓀᑖᒥᓐ	-11.2375
ᑭᑫᓂᒫᓯᐌᒃ	-11.24
ᑑᓇᔓᐌᐎᓇᓐ	-11.2411
ᑲᑴᒋᒥᔭᓐ	-11.2418
ᓇᐃᑕᐌᒃ	-11.2435
▁ᐁᑮᑌᐱᓇ	-11.245
ᑭᑫᓂᒥᓯᓅᓂᓂᒻ	-11.246
ᓰᑲᐊᑖᓱᒡ	-11.248
▁ᐁᐅᑕᑳᓀᓯ	-11.2487
ᑎᐹᒋᒥᑯᒡ	-11.2514
ᐅᔒᒣᔑᒫᐎ	-11.2554
ᑲᑮᑴᐙᒡ	-11.2569
ᐐᒌᐎᔦᒃ	-11.2607
ᔑᓈᑯᓯᔮᕽ	-11.2609
ᐸᑳᓀᓂ	-11.2615
ᐅᐸᐹᒥᓯᐎ	-11.263
▁ᑭᓰᓯᐸ	-11.2653
▁ᐁᑮᑲᒀᑕᑭ	-11.2659
▁ᒋᓈᑯᑑ	-11.2669
ᐋᐸᒋᑖᐗ	-11.2788
ᐗᔦᔑᒥᑯ	-11.2803
▁ᓂᑮᐙᐸᑖ	-11.2823
ᔥᑳᑯᓰᓐ	-11.283
▁ᐅᑭᑫᑖᓱ	-11.2837
ᐙᑳᐃᑲᓐ	-11.2853
ᑭᓰᓯᐸᑑ	-11.289
▁ᐁᑎᐹᑐ	-11.2904
▁ᑫᐅᒋᑭᑫᑕᒪ	-11.2915
▁ᒋᓵᑭᒋᐌᐱ	-11.2992
▁ᐅᔒᒣᔑᒫ	-11.2993
▁ᑭᑭᓇᐙᑕᔕᑫᔓ	-11.302
▁ᑮᐅᒋᓅᑖᑾ	-11.3068
ᒎᐎᐎᓯᒃ	-11.3103
▁ᒪᒍᑌᐌᐱ	-11.3124
▁ᑮᒥᓉᑕᒨ	-11.319
ᒨᔕᑭᓇ	-11.3191
ᐱᓯᑕᒣᒃ	-11.3207
ᐃᔑᓭᑭᓐ	-11.3254
ᐃᔑᒋᑫᓯᐙᓐ	-11.3369
ᐊᓇᒥᐁᐎᑭᒫᐎᐙᒡ	-11.3466
ᓅᑖᑾᓂᓂ	-11.3515
▁ᒋᐅᒋᐐᓯᓂ	-11.3536
ᑕᑭᑌᓂ	-11.3579
▁ᑳᑲᒀᑕᑭ	-11.3594
ᐊᐱᓅᒌᔑᐎ	-11.3608
ᐱᒥᐎᓈᒡ	-11.3631
▁ᑳᑾᔭᑴᑖᑯᓯ	-11.3635
▁ᐯᑳᑎᓯ	-11.3657
▁ᑖᐃᔑᓈᑾ	-11.3793
ᐅᑕᑳᓀᓯ᙮	-11.383
▁ᑳᑮᐅᑎᓇ	-11.3924
ᒥᑲᐙᓰ	-11.3955
▁ᐅᑖᐱᓇᒧᐙ	-11.3956
ᒪᒦᒀᓂᑎᓱᓰ	-11.3963
ᑎᐹᑐᑌ	-11.4083
ᑕᐌᓂᒥᑯ	-11.4182
ᑌᐺᔦᓂᒥᑯᓰ	-11.4183
ᓈᓈᑲᒋᐋ	-11.4183
ᐗᑎᑾᓇᓐ	-11.4185
ᑲᑮᑖᐌᑕᒧᐎᓐ	-11.4186
ᒦᐗᓄᓄ	-11.4187
ᐅᓵᐙᐱᑯ	-11.4187
3	-11.4189
ᐊᓇᒥᐁᐎᑭᒫᐎᓂᒡ	-11.4209
ᐐᐐᓯᓂ	-11.4228
▁ᐃᔥᐯᓂ	-11.4241
ᐅᒋᑎᐯᑖᑯᓯᔦᒃ	-11.4273
ᓂᔕᐊᒪᐎᓂᓂᒻ	-11.4294
ᔔᓂᔮᒥᐙ	-11.4297
ᔖᑯᐙᓂᑯᒡ	-11.4315
▁ᐃᔑᑭᑭᓄᐊᒪ	-11.4318
ᒪᔥᑲᐌᑖᑾᓂᓂ	-11.4325
ᑭᑖᐸᒋᑑ	-11.4327
ᑎᐹᒋᒧᐎᓂᓃ	-11.433
ᐃᔑᐌᐱᓂᑳᑌ	-11.4336
ᐯᐸᑳᓉᐙᓇᑭᓯ	-11.4341
ᒫᒪᐌᓄᓂᒡ	-11.4342
ᓅᑖᑳᓂᐗ	-11.4357
ᐃᔑᒋᑫᐗᕽ	-11.4368
▁ᑳᑭᑎᑳᑌ	-11.4375
ᐋᔩᒋᐊᔓᑕᒫ	-11.4391
ᓋ	-11.4393
▁ᑭᒋᑮᔑᑯ	-11.441
▁ᑳᐃᔑᐊᑕᐌᓂᒥ	-11.4411
▁ᒉᕒᐆᓴᓬᐊ	-11.4411
▁ᓴᒣᕒᐃᔮ	-11.442
ᐲᐊᒪᐎᓇᑰᒃ	-11.4424
ᐌᑖᑯᓯᒻ	-11.4426
ᐐᒌᐎᓯᓄ	-11.443
ᑴᒋᐌᑖᑯᓯ	-11.4434
ᒫᑕᐆᓈ	-11.4434
▁ᐅᑎᔑᓂᑳᓱᐎ	-11.4434
ᒞ	-11.4435
ᑌᐃᓀᓂ	-11.4436
ᔥᒀᑌᒥᐗ	-11.4437
▁ᑳᓂᔑᐗᓈᒋ	-11.4437
ᐁᔖᐙᑎᓯ	-11.4438
ᑖᓱᐎᑲᒥ	-11.4438
▁ᒋᐸᑕᑯᔥᑳᑯ	-11.4438
ᐅᒋᔥᑲᐗᐊᒫ	-11.4438
ᐅᔾᐆᓯ	-11.4438
ᒥᓴᐎᓈᑫ	-11.4438
ᒪᐗᑎᔑᐌ	-11.4438
▁ᐅᑕᐱᓅᒌᔑᒥ	-11.4438
▁ᐸᑭᑖᐲᑭ	-11.4438
▁ᑫᒪᓂᔑᑳᑌ	-11.4438
▁ᑭᑕᐲᑌᑖᑯᓯ	-11.4438
▁ᑭᑮᐊᔕᒥ	-11.4438
▁ᑮᐌᐱᒫᑎᓰ	-11.4438
▁ᑳᐃᔑᑲᒀᑕᑭᓭᔮ	-11.4438
▁ᓂᑕᐱᓅᒌᔑ	-11.4438
▁ᓂᑮᐋᐸᒋ	-11.4438
▁ᓂᔥᑮᔑᑯ	-11.4438
)	-11.4438
ᐅᑖᓂᒪᓂᓂᒃ	-11.4438
ᐅᒑᓂᒪᑲᒥ	-11.4438
ᐅᒨᑕᔮᐱᑯᕽ	-11.4438
ᐅᓂᔑᔑᓐ᙮	-11.4438
ᐅᓈᑲᑕᐌᒋᑲᓂ	-11.4438
ᐅᔑᐲᐊᒥᓂᒡ	-11.4438
ᐅᔫᓯᒥᑯᒡ	-11.4438
ᐊᐗᔑᒣᐌᑖᑾᓂᓂ	-11.4438
ᐊᑐᑕᒪᐎ	-11.4438
ᐊᑕᐙᐸᒣᒃ	-11.4438
ᐊᑯᓴᑲᐃᑲᓂᐎᒡ	-11.4438
ᐊᑳᓴᑌᔮ	-11.4438
ᐊᓃᐲᔑᐎ	-11.4438
ᐊᓇᒥᐁᐙᑎᓯᒡ	-11.4438
ᐋᐸᒋᑑᒥᓐ	-11.4438
ᐋᐸᒋᒋᑲᓇᓐ	-11.4438
ᐋᓇᐌᓂᒫᒡ	-11.4438
ᐌᐱᓇᒣᒃ	-11.4438
ᐐᒋᐅᑕᑳᓀᓰ	-11.4438
ᐐᒋᐱᒫᑎᓰᒫᓈᓐ	-11.4438
ᐗᑫᐎᑭᑖᓱ	-11.4438
ᐗᓯᔀᓂ	-11.4438
ᐙᓵᑯᓇᐌ	-11.4438
ᐱᐅᒋᓈᔑᔥᑳ	-11.4438
ᐱᓵᓀᑕᒧᐃ	-11.4438
ᐱᔑᑮᓴᐞ	-11.4438
ᐲᑖᓂᑳᓀᓭ	-11.4438
ᐴᓀᑕᒫᑎᒃ	-11.4438
ᑎᐯᑖᓱᐎᓇᓐ᙮	-11.4438
ᑎᑎᐯᔩᑭᓂ	-11.4438
ᑕᐸᓴᑲᒥᑳ	-11.4438
ᑕᒀᑲᒥᓂᑳᑌ	-11.4438
ᑕᓇᓄᑮᓂᒡ	-11.4438
ᑕᔑᑕᒫᑎᓂᒡ	-11.4438
ᑫᒋᓈᐁᓂ	-11.4438
ᑭᑫᑖᑾᓯᓂᓂ	-11.4438
ᑭᑭᓇᐙᑕᔕᑫᔑᑲᓂᐎᐙᒡ	-11.4438
ᑭᑭᓇᐙᒋᐲᐅᑣ	-11.4438
ᑭᑭᓇᐙᓯᓈᑾ	-11.4438
ᑭᒋᐊᔭᐋᒥᐙᐸᓃ	-11.4438
ᑯᔥᑾᑲᒥᑭᓭ	-11.4438
ᑲᑮᐹᒋᑮᔗ	-11.4438
ᑲᑮᓇᐎᔥᑳᒋ	-11.4438
ᑲᑳᓍᐲᑲᐊᔐ	-11.4438
ᑴᑭᑳᐸᐎᒡ	-11.4438
ᒣᔥᑾᑑᓂᑫᓂᒡ	-11.4438
ᒥᑲᓰᓇᓐ᙮	-11.4438
ᒥᓋᑭᓱᐎᓐ	-11.4438
ᒨᑭᒋᐗᑭᓐ	-11.4438
ᒪᑲᑌᒥᔅᑴᑲᓂᓂᒃ	-11.4438
ᒪᓯᓇᐃᑫᐎ	-11.4438
ᒪᔥᑲᐌᑕᕽ	-11.4438
ᒪᔥᑲᐗᓄᑮ	-11.4438
ᒪᔥᑲᐙᑲᒥᓂᓂᒃ	-11.4438
ᒫᑕᓄᑮᔮᓐ	-11.4438
ᒫᒥᑲᐙᓱ	-11.4438
ᒫᒦᑳᑎᓈᓂᐗᕽ	-11.4438
ᓀᓈᐎᓇᒪ	-11.4438
ᓂᐴᒪᑲᓯᓄᒃ	-11.4438
ᓂᑖᐎᑭᓈᐗᓱᓂᒡ᙮	-11.4438
ᓂᔑᐗᓈᒋᑑᔮᓐ	-11.4438
ᓃᑳᓀᓂᑎᓱᐎᓐ	-11.4438
ᓃᔓᑮᔑᑾᑳ	-11.4438
ᓇᑭᔥᑯᑖᑎᐗᒃ	-11.4438
ᓈᑕᐃᐲᒡ	-11.4438
ᓯᓇᐊᒪᐗᒡ	-11.4438
ᓰᑲᐊᑖᑰᐎᓯ	-11.4438
ᓲᑭᑳᐸᐎᔦᒃ	-11.4438
ᓴᑲᐅᓈᑎᒃ	-11.4438
ᓵᑭᒋᐌᐱᓂᑲᓂᐎ	-11.4438
ᓵᓰᑲᐅᑯ	-11.4438
ᔔᓂᔮᐗᔑᐙ	-11.4438
▁ᐁᐃᑭᑐᔭᓐ	-11.4438
▁ᐁᐃᑭᑐᕽ	-11.4438
▁ᐁᐅᐱᓯᑲᓂᐎᓯᒃ	-11.4438
▁ᐁᑎᓄᐙᑎᑯ	-11.4438
▁ᐁᑮᐃᔑᐲᐃᑳᑌᓂᒃ	-11.4438
▁ᐁᑮᐅᑕᐗᑳᓂᒥᑯᔦᒃ	-11.4438
▁ᐁᑮᐅᓈᐸᒥᑯᒡ	-11.4438
▁ᐁᑲᑮᐹᑌᑖᑾᓂᓂ	-11.4438
▁ᐁᑲᑮᑴᓂᒡ	-11.4438
▁ᐁᒥᔅᑯᓯᒡ	-11.4438
▁ᐁᒪᑲᑌᒥᔅᒀ	-11.4438
▁ᐁᓇᒥᐁᐙᑎᓯ	-11.4438
▁ᐁᓇᔓᐌᓂᒡ	-11.4438
▁ᐃᔅᑲᐃᐹ	-11.4438
▁ᐃᔥᐱᒦᑲᑌ	-11.4438
▁ᐅᐐᒋᐅᑌᐺᑕᒨ	-11.4438
▁ᐅᐐᒋᑖᒫᑲᓇᐞ	-11.4438
▁ᐅᑎᐹᑯᓂᑫᐎᑲᒥᑯᕽ	-11.4438
▁ᐅᑎᒀᓂᑫᑲᓂᑳᕽ	-11.4438
▁ᐅᑎᒀᓂᒫ	-11.4438
▁ᐅᑎᓇᐌᒫᑲᓇᓐ	-11.4438
▁ᐅᑑᓇᔓᐌᐎᓂᓃᒥ	-11.4438
▁ᐅᑕᐃᐹᓐ	-11.4438
▁ᐅᑕᑭᑖᓱᐎᓂᓂ	-11.4438
▁ᐅᑕᓄᑮᐊᑲᓇᐞ	-11.4438
▁ᐅᑭᑭᓄᐃᑫᐎᓂ	-11.4438
▁ᐅᑭᒋᐊᓇᒥᐁᐎᑭᒫᒥᐙᐞ	-11.4438
▁ᐅᑮᐐᐴᓂᑑᓰᓈᐙ	-11.4438
▁ᐅᑮᒥᓍᐸᒥᑰᓐ	-11.4438
▁ᐅᑮᒨᒋᔥᑲᐞ	-11.4438
▁ᐅᑮᒫᒪᑳᓯᑕ	-11.4438
▁ᐅᑮᓇᑴᑖᑰᓐ	-11.4438
▁ᐅᑮᓈᑯᓰᑲᑕᐙ	-11.4438
▁ᐅᑮᔑᑲᓄᒻ	-11.4438
▁ᐅᒦᑲᓈᒻ	-11.4438
▁ᐅᒪᑲᑗᔥᑲᒃ	-11.4438
▁ᐅᒪᓂᑑᑳᓂᑰᒋᑲᓂᓂ	-11.4438
▁ᐅᒫᐗᒋᐋᑲᓇᐞ	-11.4438
▁ᐅᔔᒥᓈᐴ	-11.4438
▁ᐅᔥᑮᔑᑯᓂ	-11.4438
▁ᐊᐹᐃᒐ	-11.4438
▁ᐊᓀᓯᑆᕒᐊ	-11.4438
▁ᐋᑰᐱᓱ	-11.4438
▁ᐋᔑᑌᔮᑎᑰ	-11.4438
▁ᐌᓈᑯᔑᓂᓂᒃ	-11.4438
▁ᐗᑭᒋᓂᐲᕽ	-11.4438
▁ᐙᐹᑲᒣᑕᒧᒃ	-11.4438
▁ᐯᑎᒀᔅ	-11.4438
▁ᐯᓬᐊᒨᓐ	-11.4438
▁ᐯᕒᓇᐃᓯ	-11.4438
▁ᐱᐅᔑᓯᑑ	-11.4438
▁ᐱᑕᐊᓈᐙᒡ	-11.4438
▁ᐱᑕᑶᔑᓂᓐ	-11.4438
▁ᐱᓀᔒᔕᐞ	-11.4438
▁ᐴᓯᑖᓱᓇᓐ	-11.4438
▁ᐸᑲᒫᑲᓇᓐ	-11.4438
▁ᐸᔥᑴᐗᔥ	-11.4438
▁ᐸᕒᐃᒋᔭ	-11.4438
▁ᑎᐱᑲᓄᕽ	-11.4438
▁ᑕᐃᔥᒀᓭᓯᓅᓇᓐ	-11.4438
▁ᑕᐃᔥᒀᓭᓯᓅᓐ	-11.4438
▁ᑕᐊᐲᒋᐅᓂᔑᔑᐌᒋᑲᓂᐎ	-11.4438
▁ᑕᐴᓀᑕᒪᐙᑲᓂᐎ᙮	-11.4438
▁ᑕᑯᓭᒀᓇᓐ	-11.4438
▁ᑕᓇᑖᐌᕽ	-11.4438
▁ᑫᐐᒌᐎᓇᑰᑭᐸᓐ	-11.4438
▁ᑭᐐᔭᐎᓈᓂᓐ	-11.4438
▁ᑭᐙᐎᔐᓂᒥ	-11.4438
▁ᑭᐱᔥᑭᐗᓯᑲᓇᓐ	-11.4438
▁ᑭᑌᐃᓈᓂᓐ	-11.4438
▁ᑭᑌᐱᓇᓰᒻ	-11.4438
▁ᑭᑌᐺᑕᒧᐎᓂᓈᓐ	-11.4438
▁ᑭᑌᐺᔦᓂᒥ	-11.4438
▁ᑭᑎᑭᑐᐎᓐ᙮	-11.4438
▁ᑭᑑᑭᒫᒥᐙ	-11.4438
▁ᑭᑕᒑᑯᓈᓂ	-11.4438
▁ᑭᑫᑌᐃᓈᑎᓯᐎᓂᓈ	-11.4438
▁ᑭᑫᑌᐱᒫᑎᓯᐎᓂᐙ	-11.4438
▁ᑭᑭᒋᐊᓇᒥᐁᐎᑭᒫᒥᓈᓐ	-11.4438
▁ᑭᑭᓇᐙᐸᒋᑲᓐ	-11.4438
▁ᑭᑭᓇᐙᒋᒋᑲᓇᓐ	-11.4438
▁ᑭᑭᔐᒪᓂᑑᒥᐙ	-11.4438
▁ᑭᑮᐃᓂᓂᓂᒻ᙮	-11.4438
▁ᑭᑲᐐᒌᐎᑯᒥᓐ	-11.4438
▁ᑭᒋᐊᓇᒥᐁᐸᒀᓀᑲᒥᒃ	-11.4438
▁ᑭᒋᐴᑖᒋᑲᓂᕽ	-11.4438
▁ᑭᒋᐹᐎᑎᒃ	-11.4438
▁ᑭᓅᔐᒃ	-11.4438
▁ᑭᓅᔐᓴᐞ	-11.4438
▁ᑭᓇᑕᐌᓂᒫᓯᐙᓈ	-11.4438
▁ᑭᔔᓂᔮᒻ	-11.4438
▁ᑭᔥᑮᔑᑯᐙᓐ	-11.4438
▁ᑮᐙᓯᑌᓂᐗᓐ	-11.4438
▁ᑮᒋᐅᑌᐺᑕᒨᒥᐙᒃ	-11.4438
▁ᑮᔑᑾᑳᓂᒃ	-11.4438
▁ᑳᐃᔑᐌᐱᓯᒡ	-11.4438
▁ᑳᐅᑕᐗᑳ	-11.4438
▁ᑳᐅᒋᒥᒋᒥᔥᑳ	-11.4438
▁ᑳᐅᓈᐸᒥᑯᒡ	-11.4438
▁ᑳᐅᓈᐸᒥᓐᒡ	-11.4438
▁ᑳᐊᒑᑯᐌᑖ	-11.4438
▁ᑳᐊᒑᑴᑖᑯᓯᓂ	-11.4438
▁ᑳᐊᒑᑴᑖᑾᒃ	-11.4438
▁ᑳᐋᑾᑭᑌ	-11.4438
▁ᑳᐐᒦᓇᒀᐸᓐ᙮	-11.4438
▁ᑳᐗᓂᔑᓂᓂᒡ	-11.4438
▁ᑳᐯᑳᑲᒥᒃ	-11.4438
▁ᑳᐱᒥᐗᓀᐸᐃᑯᐙᒡ	-11.4438
▁ᑳᐸᑭᑌᐅᒃ	-11.4438
▁ᑳᑌᐺᔦᑖᑾᒃ	-11.4438
▁ᑳᑌᓴᐱᐙᒡ	-11.4438
▁ᑳᑕᓇᑖᐌᕽ	-11.4438
▁ᑳᑭᑭᓇᐙᒋ	-11.4438
▁ᑳᑮᐅᒌᓂᒃ	-11.4438
▁ᑳᑮᐅᒫᒫᒡ	-11.4438
▁ᑳᑮᑭᑫᒋᑳᑌᓯᓄᒃ	-11.4438
▁ᑳᒦᒋᓈᑳᑌᓂᒃ	-11.4438
▁ᑳᒪᓂᑑᑫᐙᒡ	-11.4438
▁ᑳᒫᒪᐌᓄᐙᒡ	-11.4438
▁ᑳᒫᒪᐎᒪᒑᑎᓯᒡ	-11.4438
▁ᑳᒫᓈᑕᒃ᙮	-11.4438
▁ᑳᔑᑎᐯᑖᑯᓯ	-11.4438
▁ᒉᕒᐊᒫᔭ	-11.4438
▁ᒋᐅᐱᑭᔦᒃ	-11.4438
▁ᒋᐅᑎᔑᓂᔕᐙᑲᓂᒥᒡ	-11.4438
▁ᒋᐊᔕᒥᑣᐸᓐ	-11.4438
▁ᒋᐋᐸᐊᒧᐗ	-11.4438
▁ᒋᐐᓯᓂᔭᓐ	-11.4438
▁ᒋᑎᐹᑐᑕᒪ	-11.4438
▁ᒋᑭᑭᓇᐙᒋ	-11.4438
▁ᒐᕒᐆᐱᒪ	-11.4438
▁ᒦᑭᓱᒫᐙᒡ	-11.4438
▁ᒪᓂᒎᔕ	-11.4438
▁ᒪᔥᑲᐌᑕᓐ	-11.4438
▁ᒫᒪᑳᑌᑕᒨᐞ	-11.4438
▁ᓂᐐᑕᓄᑮᒫᑲᓂᓈᓐ	-11.4438
▁ᓂᐐᒋᐅᑌᐺᑕᒨ	-11.4438
▁ᓂᐯᐎᓈᑯᕽ	-11.4438
▁ᓂᑌᐃᓈᓂᓐ	-11.4438
▁ᓂᑌᐃᓈᓂᕽ	-11.4438
▁ᓂᑎᑭᑐᒥᓐ	-11.4438
▁ᓂᑕᓄᑮᐎᓐ	-11.4438
▁ᓂᑭᒋᐊᔭᐋᒥᓈ	-11.4438
▁ᓂᒥᔅᑶ	-11.4438
▁ᓇᐃᓂᑏᐎᑲᒥᑰᓐ	-11.4438
▁ᓇᑴᑕᐎᔑᒃ	-11.4438
▁ᓈᐱᑕᓬᐋᐃ	-11.4438
▁ᓭᐱᔪᓬᐊᓐ	-11.4438
▁ᓯᓬᐆᐗ	-11.4438
▁ᓰᑲᐊᑖᑰᔮᓐ	-11.4438
▁ᓵᑲᐃᑲᓂᑳᓀᔅ	-11.4438
▁ᓵᓵᑭᒋᓂᔕᐙ	-11.4438
▁ᔂᑕᒦᕽ	-11.4438
▁ᔖᐳᓂᑲ	-11.4438
ᐃᔥᐹᐸᑌ	-11.4438
ᐊᑖᐌᐎᑲᒥᑯᑫ	-11.4438
ᐋᒀᑎᓰᑲᑕ	-11.4438
ᐐᒋᑳᐸᐐᑕᐙ	-11.4438
ᐐᓴᑳᐱᓇᓂ	-11.4438
ᐗᓇᔥᑴ	-11.4438
ᐸᓯᑶᒋᓭ	-11.4438
ᐸᔕᔐᐃᑲ	-11.4438
ᑭᑭᓇᐙᒋᐋ	-11.4438
ᑮᐅᒋᒌᑾᓇᐲᑕ	-11.4438
ᑮᔫᑕᒥᑰ	-11.4438
ᒉᑭᐲᓈ	-11.4438
ᒋᑯᓇᔮ	-11.4438
ᒥᑖᔀᔑᓃᔓ	-11.4438
ᒥᓍᒋᒥᑯ	-11.4438
ᒪᒌᐗᑮ	-11.4438
ᓃᑳᓈᒋᒧ	-11.4438
ᓃᓵᒪᒋᐌ	-11.4438
ᓅᑌᐃᔥᒀᐱᒫᑎᓯ	-11.4438
ᓅᑖᑎᓯᓂᒃ	-11.4438
ᓈᑕᑳᒣ	-11.4438
▁ᐁᐅᒋᑎᐯᑖᑯᓯᓯ	-11.4438
▁ᐁᑕᐌᑕᒪᓐ	-11.4438
▁ᐁᑮᐊᐱᒧᒡ	-11.4438
▁ᐁᑲᐗᔅᑲᑌ	-11.4438
▁ᐁᑾᔮᒋ	-11.4438
▁ᐁᒪᒑᑎᓯ	-11.4438
▁ᐁᔑᑌᐺᔦᑕᒫ	-11.4438
▁ᐁᔑᒥᓴᐌᑕᒨᒪᑲ	-11.4438
▁ᐁᕒᐃᔮᐸᑲ	-11.4438
▁ᐄᓬᐋᐃ	-11.4438
▁ᐅᑆᓇᐎᑑ	-11.4438
▁ᐅᑑᐱᓯᑲ	-11.4438
▁ᐅᑖᓇᐌᓂᒫ	-11.4438
▁ᐅᑭᔐᒪᓂᑑᐙᑎᓯᐎ	-11.4438
▁ᐊᓯᓃᑳᓂᒃ	-11.4438
▁ᐋᔮᔐᓂᑎ	-11.4438
▁ᐌᒌᒪᑲᓄᑴᓐ	-11.4438
▁ᐱᒣᑕᑫᓐ	-11.4438
▁ᐲᑎᑲᔑ	-11.4438
▁ᑏᒪᔅ	-11.4438
▁ᑕᐱᓯᑕᒻ	-11.4438
▁ᑫᓀᓴᕒᐃ	-11.4438
▁ᑭᑌᐺᔦᑕᒧᐎᓂᓈᓐ	-11.4438
▁ᑭᑑᓃᒑᓂᓯᒥᑯ	-11.4438
▁ᑭᑕᐯᓂᒧᓄ	-11.4438
▁ᑭᑖᐸᑫᐎᓂᑯ	-11.4438
▁ᑭᑮᐃᔑᓰᑲᐊᑖ	-11.4438
▁ᑭᒋᐅᔑᐲᐃᑲ	-11.4438
▁ᑭᒋᑮᔑᑰ	-11.4438
▁ᑭᓃᑳᓂᓰᒥ	-11.4438
▁ᑮᓅᑖᑎᓰᐗ	-11.4438
▁ᑯᑖᓀᑕᒧ	-11.4438
▁ᑳᐅᑌᑌᒫᐎᓂᒡ	-11.4438
▁ᑳᐅᓈᐯᒥᓯ	-11.4438
▁ᑳᐊᒑᑯᐗ	-11.4438
▁ᑳᐱᓈᓯᑲᐎᒡ	-11.4438
▁ᑳᑭᑎᑫᒡ	-11.4438
▁ᑳᑮᐃᔑᐊᔓᑕᒪᐎ	-11.4438
▁ᑳᑮᐅᔑᐲᐊᕽ	-11.4438
▁ᑳᑲᒀᓂᓴᑫᑖᑾ	-11.4438
▁ᑳᔮᓇᐌᑖᑯᓯ	-11.4438
▁ᑴᑭᑳᐸᐎᑕᐙ	-11.4438
▁ᒋᒪᒫᒋᑾᐱᓂ	-11.4438
▁ᒋᓰᑲᐊᑖᑯ	-11.4438
▁ᒋᓰᑲᐊᑖᓱ	-11.4438
▁ᒫᐃᓬᐄᑕ	-11.4438
▁ᓂᑑᔑᐲᐊᒪᐙ	-11.4438
▁ᓂᑭᔐᒪᓂᑑᒥ	-11.4438
▁ᓃᑕᓇᒥᐋᓈᓂᒃ	-11.4438
▁ᓃᓵᐲᑭᓂ	-11.4438
▁ᓵᒐᓰᐎᓂᓂᐗ	-11.4438
▁ᓵᔨᒪ	-11.4438
▁ᔔᒥᓈᐳᐗᔕᓐ	-11.4438
ᐃᔑᐅᐐᔭᐎ	-11.4438
ᐅᔑᐲᐊᒫᑰᓰ	-11.4438
ᐋᐱᔅᑯᓂ	-11.4438
ᐋᔩᑕᐱ	-11.4438
ᒥᑯᔥᑳᒋᐋ	-11.4438
▁ᐁᐋᐸᒋᑑᓯ	-11.4438
▁ᐁᐙᓯᑌᒃ	-11.4438
▁ᐃᔑᓂᑳᓂᑰ	-11.4438
▁ᐃᔥᐯᑖᑾᓂᓂ	-11.4438
▁ᐅᓀᓯᒪ	-11.4438
▁ᐐᐱᑎᐙᓐ	-11.4438
▁ᐸᑭᑎᓐ	-11.4438
▁ᑫᐴᓂᐊᔮᓯᓂᓂ	-11.4438
▁ᑮᒥᔅᑸ	-11.4438
▁ᑳᐅᒌᓱᐌᐎᓂ	-11.4438
▁ᒋᒧᔐᔮᐸᒋᑳᑌ	-11.4438
▁ᒌᒫᓇᓐ	-11.4438
ᑫᑌᐊᔭᐋᒥ	-11.4438
ᓈᓈᑲᒋᐃᑎᓱ	-11.4438
▁ᐅᒋᑎᐯᑖᑾ	-11.4438
▁ᐊᐌᓀᓂᐎᔭᓐ	-11.4438
▁ᐙᐸᑕᐃᑰᐎᓯ	-11.4438
▁ᑌᐱᑎᑳᕽ	-11.4438
▁ᒋᑭᐱᔥᑲ	-11.4438
▁ᒥᓄᒫᓯᑲ	-11.4438
▁ᓂᑫᑌᔭᐋᒥᓈᐸ	-11.4438
▁ᓃᑕᓇᒥᐋᓈᓐ	-11.4438
ᑲᑴᑲᔥᑭᒥ	-11.4438
▁ᐃᔅᕒᐃᔭᓬᐃᓂᓂᐗ	-11.4438
▁ᐅᓈᓈᑲᑕᐌᑕᒧᐎᓂ	-11.4438
▁ᐆᑌᓈᐎᑭᒫ	-11.4438
▁ᐹᐃᓬᐄ	-11.4438
▁ᑭᓇᓈᑯᒥ	-11.4438
▁ᑮᒨᒋᔥᑮᐎᓂ	-11.4438
▁ᑳᔑᑭᑫᓂᒥ	-11.4438
▁ᓂᑮᐙᐸᒥᒫ	-11.4438
▁ᓰᑲᐊᑕᐙ	-11.4438
▁ᓰᑲᐊᑖᑯᐙ	-11.4438
▁ᓴᑭᓂᑫᓂ	-11.4438
ᒣᓂᑲᓂ	-11.4438
▁ᐁᓈᐱᓀᓂᒡ	-11.4438
▁ᒋᐱᒥᐎᑕᒪᐙ	-11.4438
▁ᓵᑲᑮ	-11.4438
ᐃᔑᐌᐱᓯᔮᓐ	-11.4438
ᐸᐹᑲᑮᑴ	-11.4438
ᓴᓰᒀᓈᐙᒡ	-11.4438
▁ᐁᑲᑲᓅᓂᑎᓂᒡ	-11.4438
▁ᐸᐹᒣᑕᑫ	-11.4438
▁ᒥᓯᑌᔥᑳᓂ	-11.4438
▁ᓵᒐᓰᐗ	-11.4438
ᐱᒪᓄᑮ	-11.4438
▁ᑳᓃᑳᓂᓰᑲ	-11.4438
▁ᓇᓈᐱᓇᐙᑫ	-11.4438
ᐊᓄᑲᐗᒃ	-11.4438
ᐊᔦᑯᓯ	-11.4438
ᑭᑎᑳᓀᓯ	-11.4438
▁ᐁᐐᓂᓯᑯᒡ	-11.4438
▁ᐁᔥᐯᑖᑯᓯ	-11.4438
▁ᐅᓈᑯᓇ	-11.4438
▁ᓂᑲᑮᑴᐎᓂ	-11.4438
ᑮᑫᔩᑲ	-11.4438
▁ᒋᑌᐱᓂᑯ	-11.4438
ᑮᒫᓀᑖᒻ	-11.4438
ᔑᑌᓴᐱᒡ	-11.4438
ᒥᔅᑴᑭ	-11.4438
▁ᐅᒥᓴᐌᑕᒧᐎ	-11.4438
▁ᑭᑮᓂᓵᐙ	-11.4438
ᓈᐗᑴᒃ	-11.4438
▁ᐅᑑᑭᒫᐗᐱᐎᓂ	-11.4438
ᒨᔥᑭᓀᔥᑳᑰ	-11.4438
ᐃᓈᐸᑕᓯᓄᒃ	-11.4438
ᐅᐸᑫᐎᓯᐎ	-11.4438
ᐊᑾᓇᐃᑳᑌ	-11.4438
ᑮᔖᑴᓂᒧ	-11.4438
ᒋᒌᒫᓂᕽ	-11.4438
▁ᑲᓬᐋᑎᔭ	-11.4438
▁ᓵᕒᑎ	-11.4438
ᐋᓇᐌᓂᑎᓱ	-11.4438
▁ᑳᐅᐐᒋᑭᐌᑎ	-11.4438
ᐋᐱᑕᑮᔑᑲ	-11.4438
ᒥᓴᐌᑕᒧᐎᓇᓐ	-11.4438
ᑮᐊᓇᒥᐁᐙᑎᓯ	-11.4438
▁ᒣᔥᑲᐌᑖᑯᓯ	-11.4438
ᐐᓃᑳᓀᑖᑯᓯᒡ	-11.4438
ᐸᑭᑎᓂᑳᑳᓂ	-11.4438
ᒋᑎᐹᒋᒪ	-11.4438
ᐅᑎᔑᐌᒪᑲᓂᓂᑭᓐ	-11.4438
ᑯᑖᓀᑖᑾᓂᓂ	-11.4438
▁ᑭᑫᑌᔭᐋᒥᓈᐸ	-11.4438
▁ᑮᐃᓂᑖᑾ	-11.4438
ᑮᔥᑳᔭᐙ	-11.4438
ᐐᒋᐅᒌᒫᑲ	-11.4438
▁ᑕᒥᓉᑕᒨ	-11.4438
ᐃᔑᓂᑳᓂᑯᒡ	-11.4438
ᒫᒪᑳᑌᑖᑾ	-11.4438
ᒪᔥᑲᐎᑌᐁᐋ	-11.4438
ᔭᑌᓈᑾᓐ	-11.4438
ᔮᓇᐌᓂᒫᐙ	-11.4438
ᐅᒋᐱᓱᑫᔑᕽ	-11.4439
▁ᑲᓇᐙᐸᑕᒧ	-11.4439
▁ᒋᑑᑕᒧᐗ	-11.4439
▁ᑫᑮᐹᑎᓯ	-11.4439
▁ᒋᐸᐹᒥᑕᓯ	-11.4439
▁ᑳᑑᑕᐗ	-11.4439
▁ᒋᐅᒋᑭᑫᓂᒥ	-11.4439
ᑮᐅᑎᑖᔑ	-11.4439
ᒥᓉᑕᒥᐋ	-11.4439
▁ᐅᑮᓇᑴᑕᐙᐙ	-11.4439
ᑭᐱᔥᑲᐎ	-11.4439
ᑫᓂᒥᑯᓰᒃ	-11.4439
ᑮᐱᑕᐊᓈ	-11.4439
ᐲᒋᓂᔕᐗ	-11.444
▁ᑮᓅᑖᑯᓯ	-11.444
ᐗᓃᑫᓄᑕᒧ	-11.444
ᑑᑕᐎᔭᒥᑣ᙮	-11.444
ᒥᔕᑳᒡ	-11.444
ᐱᒥᐎᓈᐙᒡ	-11.444
ᐃᔑᓂᔕᐊᒪᐎᓀᒃ	-11.444
ᑭᑲᑴᒋᒥᑰ	-11.4441
▁ᑭᒋᐸᐸᑭᓀ	-11.4441
ᐅᒌᑳᑯᐙ	-11.4441
▁ᑳᑮᐅᒋᒥᓉᑕᒫ	-11.4441
ᐲᑎᑳᑯ	-11.4441
ᑮᐃᓇᔓᐌ	-11.4441
▁ᒋᐸᐹᑾᒋᐱᑑ	-11.4441
▁ᒋᒫᒫᑕᐆ	-11.4442
▁ᐁᔑᑭᑫᓂᒥ	-11.4443
▁ᑳᐃᔑᑖᓂᐗ	-11.4443
▁ᐁᑑᑕᒧᐗ	-11.4443
ᐯᑭᐃᑰᔭᓐ	-11.4443
ᐸᐹᒣᑕᓰ	-11.4444
ᑭᑎᑳᓈᑎᒃ᙮	-11.4444
ᐐᓯᓂᓈᓂᐗᓂᓂᒃ᙮	-11.4446
ᒥᒋᐯᔑᑾᓂᓂ	-11.4446
ᓇᑕᐌᑖᑯᔅ	-11.4446
▁ᑳᑖᓄᑕ	-11.4446
▁ᒋᐋᐸᒋᐃ	-11.4446
ᔮᐸᑎᓯ	-11.4447
ᐃᔑᐎᓂᑰᔦᒃ	-11.4447
ᔑᑌᐺᑕᒪᓐ	-11.4447
ᐗᓂᔑᒥᑯ	-11.4448
ᑮᐅᓇᑭᒥᑯᒡ	-11.4448
ᐱᒫᒋᐃᑰᔭᓐ	-11.4449
▁ᒋᑮᔑᑑᔦ	-11.445
▁ᑎᐹᒋᒧᐎᓂᓂᐗ	-11.4451
▁ᑳᑕᓱᐃᔑᓈᑯᓯ	-11.4453
▁ᑎᐯᑖᑾ	-11.4453
ᓴᒣᕒᐃᔮᐎᑴ	-11.4453
ᑮᐃᔑᔕᐌᑖᑯᓯ	-11.4454
▁ᒪᒥᔑᒫᐙ	-11.4456
ᓀᑖᑯᑑᓐ	-11.4456
ᐊᑕᐌᓂᒥᔭᓐ	-11.4457
ᓃᑳᓂᓰᑲᑕᐙ	-11.4458
▁ᑳᑕᓀᑖᑾ	-11.446
▁ᐁᓃᑳᓀ	-11.4462
ᑭᑭᓄᐊᒪᐗᑣ	-11.4465
ᐅᒋᑭᑫᑖᑾᓂᓂ	-11.4466
▁ᑲᓇᐌᑖᑯᓯ	-11.4472
▁ᑳᓂᔑᐗᓈᒋᐃᐌᒪᑲ	-11.4474
ᐐᑑᑕᒪᓐ	-11.4474
ᔥᑳᑯᓰᓈᐙ	-11.4476
ᐋᓇᐌᓂᒫᐙᒡ	-11.4479
ᐆᑌᓈᐗᓂᓂᒃ	-11.448
ᐸᑲᑲᒥᑳ	-11.4482
ᓇᑕᐌᑖᑯᓯ	-11.4485
ᐊᔕᑎᓱ	-11.4487
ᔔᒥᓂᑭᑎᑫᐎᓂᕽ	-11.449
ᒦᑴᒋᐌᑕᒣᒃ	-11.4491
ᐊᓇᒥᐁᑕᐗᑭᒡ	-11.4492
ᐅᓶᐌᐱ	-11.4505
▁ᐁᐐᓂᔑᐗᓈᒋ	-11.4507
ᑭᑭᓄᐊᒪᐗᒀ	-11.4508
ᐃᓈᔑᒥᓐ	-11.4516
ᐋᓉᑕᒪᓐ	-11.4517
▁ᑮᓅᑖᑳᓂ	-11.4519
ᐅᒋᐯᑭᐃ	-11.4523
ᐸᑭᑎᓈᓱᓈᓂᐗᓂᓂᒃ	-11.4528
ᑮᐅᒋᓃᓯ	-11.453
ᑮᐃᔑᓈᑾᓅ	-11.4535
ᑮᐅᓀᓂᒥᑯᐙ	-11.4536
▁ᐁᑮᐊᔮᓯᐙ	-11.455
ᐃᔥᒀᐃᔑᓭ	-11.4552
ᑖᐸᒋᑑᓰᒥᓐ	-11.4553
▁ᑫᑌᐊᔓᑕᒫ	-11.4555
ᐐᒌᐎᔑᒃ	-11.4555
▁ᑳᒪᔥᑲᐌᑖᑾ	-11.4555
ᑭᑭᓄᐊᒪᐎᓈ	-11.4556
ᑭᑎᑫᐗᑮᕽ	-11.4558
ᐲᑯᔥᑳ	-11.456
ᑭᑭᓇᐙᐸᑕ	-11.456
▁ᐅᐐᐋᐸᒋᐋ	-11.456
ᐅᔑᐲᐃᑫᐎᓇᓐ	-11.4569
▁ᐗᑭᒋᐙᑳᐃᑲ	-11.457
▁ᔔᒥᓂᑭᑎᑫᐎ	-11.4574
ᑾᔮᒋᑕᒫᓱ	-11.4579
ᑭᑭᓇᐙᑕᔕᑫᔓᓐᒡ	-11.458
ᒪᒉᑖᑯᓯ	-11.4589
▁ᑳᑮᐊᔨᑑᑕ	-11.4591
ᐊᑕᐌᓂᒥᓇᑰᒃ	-11.4594
▁ᑳᐊᓇᒥᐁᑕ	-11.4601
ᑮᑮᔖᒋᐅᓀᓂ	-11.4603
ᓇᓈᑕᐙᐸᒣᒃ	-11.4607
ᔕᐌᓂᒥᑰᓐ	-11.4615
ᑮᐅᔑᐲᐊᒫᓐ	-11.4617
▁ᐁᓇᓈᑕᐙᐸ	-11.4646
ᑯᑖᓀᑖᑯᓯ	-11.466
ᐊᔭᐋᐎᒡ	-11.4668
ᓂᔑᐗᓈᒋᒋᑳᑌᒃ	-11.4686
ᐲᐊᒪᐎᓈᓐ	-11.469
ᑮᑭᒋᒫᒪᑳᑌᑕᒻ	-11.4717
ᐅᑭᑫᑕᒫᐎᓂ	-11.473
ᐅᑌᑌᔭᕽ	-11.4738
▁ᑳᐊᔨᔑᑖ	-11.4743
ᑭᑫᓂᒥᒻ	-11.475
ᐴᔔᐃᑯᒡ	-11.4831
ᓈᑎᓯᓯᒀ	-11.4845
ᑌᓂᒥᑯᓯᒃ	-11.4886
ᐸᑭᑎᓂᑲᓂᐎ	-11.489
ᒥᓄᔥᑳᑯ	-11.4991
ᑮᐃᔑᐙᐸᒥ	-11.4993
▁ᑮᑲᒀᑕᑭ	-11.5008
ᓭᓴᑰᒋ	-11.5012
ᐅᒋᑎᐯᑖᑯᓯᓂᒡ᙮	-11.503
▁ᐁᒫᒪᑳᑌᑕ	-11.5053
ᐸᑭᑎᓂᓐᒡ	-11.5062
▁ᐅᑮᒦᓂ	-11.5065
▁ᐅᑮᑭᑫᑖ	-11.5122
▁ᑳᐱᐅᑕᑳᓀᓯ	-11.5136
ᐃᓈᑯᓂᑰᔭᓐ	-11.5136
ᐅᒌᐱᑯ	-11.516
ᐃᔑᒋᑫᐋ	-11.5176
▁ᑭᑎᔑᑎᐯᑖᑯᓯ	-11.5186
ᒫᒌᔮᔑᒥᓐ	-11.5195
ᑎᐹᒋᒥᔭᓐ	-11.5202
ᐊᑕᐌᓂᒥᓀ	-11.5238
ᐯᑳᑎᓯᒃ	-11.5295
▁ᑫᐱᒥᐎᓈ	-11.5315
ᐋᓇᐌᓂᒥᑣ	-11.5356
ᑭᒋᐊᓇᒥᐁᐎᑭᒫᐤ	-11.5361
▁ᐁᐐᒫᐗᑑ	-11.5389
ᐱᓯᑕᐎᔦᒃ	-11.541
▁ᒫᒨᔕᑭ	-11.551
▁ᑳᓵᑭᐐᒌᐗ	-11.5539
▁ᒋᐃᔑᐐᑑᑳᓱ	-11.5811
.	-11.8938
x	-11.8938
–	-12.7023
7	-12.7026
(	-12.7262
ᔡ	-12.7263
ᒍ	-12.7264
ᐾ	-12.7265
ᒸ	-12.7266
ᔪ	-12.7267
ᔗ	-12.7268
X	-12.7269
ᒎ	-12.727
[	-12.7271
u	-12.7271
"	-12.7271
/	-12.7271
]	-12.7271
a	-12.7271
~	-12.7271
ᐧ	-12.7271
ᐼ	-12.7271
ᑡ	-12.7271
ᒒ	-12.7271
Z	-12.7271
ᒑ	-12.7271
