<pad>	0
</s>	0
<unk>	0
¦	-1.3059
▁¦	-1.65423
▁	-3.16898
𐋇	-3.55798
e	-3.68207
a	-3.90511
i	-3.90653
o	-4.08899
▁,	-4.18409
di	-4.44239
re	-4.89159
la	-4.99957
il	-5.01329
n	-5.27803
ri	-5.29052
in	-5.29734
le	-5.3148
si	-5.39031
l	-5.39746
che	-5.4092
de	-5.44258
te	-5.45373
no	-5.47311
▁'	-5.47485
per	-5.49008
s	-5.49834
r	-5.55543
ma	-5.62905
ti	-5.6369
to	-5.68953
con	-5.69262
gli	-5.71772
se	-5.73648
g	-5.74551
▁:	-5.74983
da	-5.75093
non	-5.78499
c	-5.79131
p	-5.84449
vi	-5.85234
un	-5.90449
è	-5.92011
mi	-5.92801
al	-5.94044
ro	-5.95064
del	-5.95248
signore	-5.96056
ra	-5.9616
ci	-5.9697
li	-5.98649
ò	-6.00484
lo	-6.00622
sa	-6.02974
ne	-6.06566
me	-6.13553
f	-6.14162
vo	-6.17395
é	-6.17872
ta	-6.19862
ca	-6.20938
▁;	-6.23184
u	-6.24429
«	-6.28089
na	-6.30605
t	-6.32638
loro	-6.33599
ve	-6.38082
d	-6.38798
va	-6.395
b	-6.4239
m	-6.43838
▁.	-6.4589
suo	-6.4952
chi	-6.50653
ce	-6.53515
tu	-6.54127
ni	-6.54897
so	-6.55303
su	-6.56537
ha	-6.58283
co	-6.58825
dio	-6.62455
ato	-6.62637
tutt	-6.63662
perch	-6.65506
io	-6.70622
rà	-6.72902
come	-6.73975
sta	-6.74064
era	-6.75296
do	-6.76248
mo	-6.76664
nel	-6.77547
della	-6.78105
▁»	-6.79836
rono	-6.81812
fi	-6.87282
pa	-6.89303
tuo	-6.8972
po	-6.91165
fa	-6.91808
sono	-6.93092
pi	-6.9428
ge	-6.94294
rò	-6.95029
pre	-6.97435
ranno	-6.97842
à	-6.97939
ndo	-6.98208
una	-6.99217
tra	-7.01106
disse	-7.03009
ver	-7.03542
figli	-7.04677
ar	-7.04969
sc	-7.06662
ba	-7.0898
be	-7.09105
pro	-7.09967
nell	-7.10677
z	-7.12407
sse	-7.14285
fu	-7.15224
bi	-7.15787
figlio	-7.16211
alla	-7.17913
tà	-7.19073
gio	-7.2244
dell	-7.22515
ì	-7.2384
tto	-7.25288
sua	-7.25308
quest	-7.25481
lui	-7.2704
cu	-7.27582
giorn	-7.28074
dal	-7.28281
nti	-7.28597
zi	-7.28735
mio	-7.29697
egli	-7.30195
par	-7.30782
nte	-7.31549
ggi	-7.32717
ad	-7.33044
giu	-7.34514
av	-7.35987
ga	-7.37405
zione	-7.37532
aveva	-7.37861
quand	-7.38217
israel	-7.3869
quell	-7.39324
sto	-7.43961
van	-7.43992
questo	-7.44853
rai	-7.45786
padr	-7.46798
popolo	-7.47462
tti	-7.48053
sti	-7.50149
ste	-7.50426
st	-7.50595
nza	-7.51219
ho	-7.516
go	-7.51946
cor	-7.528
dice	-7.52946
vostr	-7.5406
contro	-7.55031
anche	-7.5621
allor	-7.58884
im	-7.59457
zza	-7.60045
osì	-7.60272
que	-7.60405
terra	-7.60522
dall	-7.60745
acc	-7.62059
ab	-7.62132
ru	-7.62527
uom	-7.62767
and	-7.63285
sul	-7.6349
sarà	-7.63643
far	-7.63676
amo	-7.64295
paes	-7.66357
tua	-7.66601
za	-7.66633
tutto	-7.67017
qual	-7.67226
mia	-7.67458
cci	-7.67952
sso	-7.68623
col	-7.69224
v	-7.69866
città	-7.7174
-	-7.72583
ora	-7.73305
casa	-7.74139
parol	-7.74418
ed	-7.76136
quant	-7.77022
erà	-7.77824
ai	-7.79185
rete	-7.7956
essi	-7.80582
vanti	-7.80766
for	-7.80863
car	-7.81386
all	-7.8195
vent	-7.83288
ecco	-7.83399
tre	-7.84211
mos	-7.84325
ogni	-7.84465
▁?	-7.84973
bo	-7.85066
nostr	-7.86782
tta	-7.86927
iù	-7.87071
nta	-7.87134
sce	-7.87474
porta	-7.87659
poi	-7.87667
david	-7.89113
com	-7.89742
ava	-7.89994
ù	-7.90421
du	-7.90832
one	-7.91606
fatto	-7.92569
zz	-7.92987
pu	-7.93857
fer	-7.95275
k	-7.95332
sull	-7.9568
uomin	-7.96052
bene	-7.9711
torn	-7.97213
fra	-7.98671
esù	-7.98881
due	-8.00238
alle	-8.03276
mie	-8.034
vers	-8.03429
secondo	-8.04661
fratell	-8.05402
mezzo	-8.06158
mano	-8.06482
lu	-8.08771
sol	-8.08835
fece	-8.09024
mu	-8.09884
sacerdot	-8.10112
mani	-8.11035
han	-8.11063
occhi	-8.11971
fatti	-8.12
fino	-8.14438
rispose	-8.14473
giuda	-8.1589
vita	-8.16354
poich	-8.17721
dun	-8.17898
mor	-8.18318
pen	-8.18664
molt	-8.18752
usci	-8.18971
sor	-8.19188
uto	-8.19597
mand	-8.19635
zion	-8.1992
cuor	-8.19959
gerusalemm	-8.20132
pass	-8.20193
▁!»	-8.20257
servi	-8.21175
quel	-8.21338
trov	-8.21798
comp	-8.22223
ch	-8.22249
entr	-8.24079
israelit	-8.25805
tempi	-8.25849
prese	-8.26247
essa	-8.27113
can	-8.27536
spe	-8.27718
ascolt	-8.31688
anno	-8.33379
ciel	-8.33608
mort	-8.33846
qui	-8.34209
mento	-8.3424
grande	-8.35724
segn	-8.35758
mess	-8.36423
cosa	-8.36559
ebbe	-8.36656
spi	-8.36768
dove	-8.37494
mentr	-8.38116
nessun	-8.38453
gia	-8.38873
mont	-8.38939
guar	-8.38943
pot	-8.38994
dopo	-8.3944
parte	-8.40204
port	-8.42737
peccat	-8.44435
anni	-8.44523
stato	-8.44608
camp	-8.45044
ordin	-8.45109
dett	-8.4523
mente	-8.45289
batt	-8.4559
regn	-8.46684
egitt	-8.47522
ghe	-8.47613
▁?»	-8.49617
stess	-8.49668
parla	-8.50236
▁».	-8.50355
capi	-8.50803
cento	-8.50981
ancor	-8.5119
prende	-8.51493
spirit	-8.52454
cose	-8.53026
mette	-8.53888
salv	-8.53998
donn	-8.54174
venne	-8.54238
chiam	-8.54469
tempo	-8.54931
capo	-8.55138
gett	-8.55369
mmo	-8.55622
là	-8.55641
pur	-8.56799
gran	-8.57012
fede	-8.57626
trib	-8.57876
bu	-8.58365
segui	-8.58502
semp	-8.58998
crist	-8.59529
forse	-8.60886
legge	-8.6147
por	-8.61795
posto	-8.62144
sotto	-8.63358
sopra	-8.63367
gener	-8.63918
pian	-8.64998
alcun	-8.65216
dov	-8.68036
gua	-8.68177
esercit	-8.68645
comand	-8.68698
mangia	-8.68849
avet	-8.6895
sion	-8.69241
menti	-8.69571
fuoc	-8.7052
sette	-8.71961
colp	-8.73034
pien	-8.73475
giustizia	-8.74236
altri	-8.74678
senz	-8.7472
presso	-8.7515
altro	-8.75401
lontan	-8.75621
pietr	-8.76507
luogo	-8.76609
ghi	-8.7747
sacrifici	-8.77483
servo	-8.77954
vesti	-8.78104
altar	-8.7903
empi	-8.80062
grid	-8.80149
sangu	-8.80159
spad	-8.8097
qua	-8.81105
dur	-8.81133
essere	-8.81248
propri	-8.81304
terr	-8.82274
venut	-8.82726
saul	-8.83415
vicin	-8.83584
tanto	-8.83983
vien	-8.8666
scende	-8.86944
prima	-8.87225
assi	-8.88401
nemic	-8.89447
giust	-8.90819
famigli	-8.91142
pes	-8.91179
volta	-8.91403
costru	-8.91895
liber	-8.92963
scritt	-8.93002
insiem	-8.93471
gloria	-8.93691
seppe	-8.9474
popol	-8.95262
cammin	-8.96046
bocca	-8.96048
acqua	-8.96318
giacobb	-8.96577
desert	-8.96585
mond	-8.97013
abbiam	-8.99092
invec	-8.99131
ossa	-9.00102
cerca	-9.00136
lascia	-9.00397
abita	-9.00844
moglie	-9.01864
cinque	-9.02062
aronn	-9.02926
conosce	-9.03212
tenda	-9.04992
buon	-9.05179
lavor	-9.05817
nott	-9.05974
inter	-9.06444
acque	-9.09208
offert	-9.09345
schiav	-9.09992
angel	-9.10313
quattro	-9.1056
faccia	-9.10581
nuov	-9.10884
ssim	-9.11091
nulla	-9.11175
cess	-9.11198
santo	-9.11839
bell	-9.11848
.	-9.1309
causa	-9.13364
present	-9.14726
profeti	-9.14943
alleanz	-9.15115
argent	-9.15908
dimora	-9.1606
abram	-9.16347
spos	-9.16448
babiloni	-9.18195
grazia	-9.18526
salomon	-9.18859
▁?».	-9.19548
madre	-9.19915
guerr	-9.21557
termin	-9.21614
olocaust	-9.22243
comuni	-9.22613
finch	-9.22937
bestia	-9.22943
anim	-9.23116
filiste	-9.23282
abbia	-9.23538
numero	-9.25745
h	-9.49048
,	-9.85037
"	-10.8958
q	-10.9132
(	-11.9761
»	-12.1762
:	-12.4083
j	-12.7534
;	-12.8353
9	-12.8784
’	-13.0212
?	-13.3449
]	-15.47
0	-15.4701
8	-15.4702
7	-15.4703
5	-15.4704
4	-15.4705
3	-15.4706
)	-15.4707
2	-15.4708
6	-15.4709
1	-15.471
!	-15.4711
'	-15.4712
}	-15.4712
