<pad>	0
</s>	0
<unk>	0
▁ܕ	-0
▁ܐ	-1
▁ܘ	-2
▁ܠ	-3
ܝܢ	-4
▁ܡ	-5
ܘܢ	-6
▁ܗ	-7
▁ܒ	-8
ܬܐ	-9
ܢܐ	-10
▁ܗܘ	-11
▁ܥ	-12
ܠܐ	-13
ܝܬ	-14
ܡܪ	-15
ܝܐ	-16
▁ܘܐ	-17
▁ܕܐ	-18
▁ܐܢ	-19
▁ܡܢ	-20
▁ܟ	-21
▁ܢ	-22
▁ܠܗ	-23
▁ܚ	-24
▁ܠܐ	-25
ܪܐ	-26
ܗܝ	-27
ܡܐ	-28
ܠܗ	-29
▁ܫ	-30
▁ܝ	-31
ܟܘܢ	-32
▁ܬ	-33
ܫܐ	-34
▁ܕܝܢ	-35
▁ܐܝ	-36
▁ܩ	-37
▁ܓ	-38
ܡܢ	-39
ܠܝܢ	-40
ܚܐ	-41
ܘܗܝ	-42
ܕܐ	-43
ܝܪ	-44
ܫܘ	-45
▁ܗܘܐ	-46
ܗܘ	-47
▁ܥܠ	-48
ܘܬܐ	-49
▁ܪ	-50
▁ܐܢܬ	-51
ܘܬ	-52
ܒܐ	-53
▁ܐܢܐ	-54
ܠܗܐ	-55
▁ܤ	-56
▁ܕܡ	-57
ܗܘܢ	-58
ܪܝ	-59
ܕܡ	-60
▁ܐܡܪ	-61
▁ܕܢ	-62
ܫܘܥ	-63
▁ܦ	-64
ܠܝ	-65
▁ܓܝܪ	-66
ܒܪ	-67
ܠܡ	-68
▁ܐܝܟ	-69
ܝܕ	-70
ܒܕ	-71
▁ܡܫ	-72
ܛܠ	-73
▁ܘܐܡܪ	-74
ܘܪ	-75
ܘܤ	-76
ܥܐ	-77
▁ܠܡ	-78
▁ܘܠܐ	-79
▁ܘܡ	-80
▁ܝܫܘܥ	-81
▁ܠܗܘܢ	-82
▁ܗܘܘ	-83
▁ܐܬ	-84
▁ܕܒ	-85
ܫܡ	-86
ܟܐ	-87
▁ܐܦ	-88
▁ܐܠܐ	-89
▁ܐܢܬܘܢ	-90
▁ܕܠܐ	-91
▁ܟܕ	-92
▁ܥܡ	-93
ܝܠ	-94
ܘܠ	-95
▁ܘܟ	-96
ܢܝ	-97
▁ܘܒ	-98
▁ܠܟܘܢ	-99
▁ܡܛܠ	-100
▁ܘܢ	-101
▁ܕܥ	-102
ܕܥ	-103
▁ܠܝ	-104
▁ܒܪ	-105
▁ܕܚ	-106
▁ܙ	-107
ܒܝ	-108
▁ܗܝ	-109
ܬܪ	-110
▁ܛ	-111
ܝܚܐ	-112
▁ܐܝܬ	-113
▁ܕܝ	-114
ܟܠ	-115
▁ܐܚ	-116
▁ܕܐܠܗܐ	-117
ܕܝ	-118
ܘܡ	-119
▁ܡܠ	-120
ܗܘܐ	-121
ܕܝܢ	-122
▁ܢܦ	-123
ܘܒ	-124
ܫܬ	-125
▁ܫܡ	-126
▁ܠܘܬ	-127
▁ܚܕ	-128
ܝܡ	-129
ܒܘ	-130
ܬܗ	-131
▁ܐܠܗܐ	-132
ܢܘܢ	-133
ܬܝ	-134
▁ܒܗ	-135
▁ܗܟ	-136
▁ܒܐ	-137
ܦܐ	-138
▁ܠܟ	-139
▁ܗܢܐ	-140
ܥܝܢ	-141
ܠܘ	-142
▁ܟܠܗ	-143
▁ܐܢܘܢ	-144
ܒܪܐ	-145
ܢܢ	-146
▁ܒܝ	-147
▁ܕܬ	-148
▁ܗܠܝܢ	-149
▁ܕܩ	-150
ܟܚ	-151
▁ܘܚ	-152
▁ܘܥ	-153
▁ܡܬ	-154
ܪܘ	-155
▁ܘܟܕ	-156
ܡܠ	-157
ܝܢܐ	-158
▁ܟܠ	-159
ܝܬܐ	-160
ܪܒ	-161
▁ܨ	-162
▁ܕܠ	-163
▁ܝܕܥ	-164
▁ܕܐܝܬ	-165
▁ܡܫܝܚܐ	-166
▁ܡܕܡ	-167
▁ܘܠ	-168
▁ܘܩ	-169
ܗܒ	-170
▁ܘܫ	-171
▁ܤܓ	-172
▁ܕܟ	-173
ܢܫܐ	-174
ܗܝܡܢ	-175
ܢܝܢ	-176
▁ܐܘ	-177
▁ܩܕܡ	-178
▁ܠܥ	-179
▁ܥܒܕ	-180
ܬܘܢ	-181
ܪܥܐ	-182
▁ܠܢ	-183
ܕܪ	-184
▁ܐܢܫ	-185
ܦܩ	-186
ܙܐ	-187
▁ܪܘ	-188
ܚܘ	-189
▁ܘܕ	-190
ܝܟ	-191
ܪܝܢ	-192
▁ܘܡܢ	-193
ܘܩ	-194
▁ܥܕ	-195
ܝܒ	-196
▁ܗܕܐ	-197
▁ܠܚ	-198
ܠܡܐ	-199
▁ܐܝܠܝܢ	-200
ܝܐܐ	-201
ܝܪܐ	-202
▁ܕܫ	-203
▁ܗܢܘܢ	-204
ܝܠܝܢ	-205
▁ܕܡܢ	-206
▁ܡܐ	-207
ܠܦ	-208
▁ܒܥ	-209
▁ܘܬ	-210
▁ܡܪ	-211
▁ܘܐܬ	-212
ܝܬܘܢ	-213
ܝܗܘܢ	-214
▁ܘܐܢ	-215
ܫܬܐ	-216
ܩܐ	-217
ܘܬܗ	-218
▁ܘܗ	-219
ܡܝܢ	-220
▁ܫܡܥ	-221
ܝܗ	-222
▁ܒܢ	-223
▁ܘܤ	-224
ܫܡܥ	-225
ܙܠ	-226
▁ܒܡ	-227
ܒܠ	-228
ܝܢܢ	-229
ܤܪ	-230
ܘܪܐ	-231
ܫܠܡ	-232
▁ܐܬܐ	-233
▁ܠܒ	-234
▁ܐܝܟܢܐ	-235
▁ܢܦܫ	-236
▁ܡܢܐ	-237
ܕܝܐ	-238
ܩܘ	-239
ܥܒܕ	-240
▁ܗܟܝܠ	-241
ܒܝܢ	-242
▁ܗܘܬ	-243
ܘܚ	-244
ܘܡܐ	-245
▁ܒܟ	-246
ܢܫ	-247
ܪܢܐ	-248
▁ܕܤ	-249
▁ܐܤ	-250
▁ܒܠ	-251
ܒܢ	-252
▁ܕܗ	-253
ܦܪ	-254
▁ܕܡܪ	-255
▁ܤܓܝܐܐ	-256
ܤܐ	-257
▁ܒܚ	-258
ܡܘܤ	-259
ܒܝܐ	-260
▁ܒܝܬ	-261
▁ܗܟܢܐ	-262
ܝܟܘܢ	-263
▁ܢܬ	-264
ܒܬܐ	-265
ܠܬܐ	-266
ܝܘ	-267
▁ܟܠܗܘܢ	-268
ܟܪ	-269
ܢܘ	-270
ܫܟܚ	-271
▁ܓܒܪܐ	-272
ܡܘܤܐ	-273
ܒܕܐ	-274
▁ܡܠܐ	-275
ܫܝ	-276
ܗܘܕܝܐ	-277
ܒܗ	-278
ܕܘ	-279
ܛܪ	-280
▁ܪܘܚܐ	-281
ܠܟ	-282
▁ܚܢܢ	-283
▁ܢܗܘܐ	-284
▁ܥܕܡܐ	-285
▁ܘܐܡܪܝܢ	-286
ܓܪ	-287
▁ܒܬܪ	-288
▁ܕܐܡܪ	-289
▁ܫܒ	-290
ܕܝܢܬܐ	-291
▁ܝܬ	-292
ܫܡܝܐ	-293
▁ܕܐܬ	-294
▁ܬܠܡ	-295
▁ܚܙ	-296
ܗܘܘܢ	-297
ܝܕܝܢ	-298
▁ܚܛ	-299
▁ܘܝ	-300
▁ܡܤ	-301
▁ܢܤ	-302
▁ܡܢܗ	-303
ܡܠܠ	-304
▁ܗܝܡܢ	-305
▁ܠܐܠܗܐ	-306
ܠܗܘܢ	-307
ܝܕܘܗܝ	-308
ܒܪܗ	-309
▁ܟܐ	-310
▁ܡܚ	-311
ܗܕ	-312
ܪܥ	-313
ܫܝܚܐ	-314
▁ܠܡܐ	-315
ܬܚ	-316
ܒܢܐ	-317
▁ܐܡܪܝܢ	-318
▁ܬܡܢ	-319
▁ܡܫܟܚ	-320
▁ܗܐ	-321
ܘܠܘܤ	-322
ܠܝܐ	-323
▁ܢܚ	-324
ܘܢܐ	-325
▁ܘܗܘ	-326
ܘܕ	-327
▁ܢܐ	-328
▁ܗܘܝܬ	-329
▁ܕܗܘ	-330
ܦܠ	-331
ܕܗ	-332
ܝܗܝ	-333
▁ܕܓ	-334
▁ܕܐܦ	-335
▁ܝܘܡ	-336
ܛܐ	-337
▁ܕܐܢ	-338
▁ܘܐܝܬ	-339
ܟܝ	-340
ܩܪ	-341
ܚܡ	-342
ܗܢܐ	-343
ܩܪܐ	-344
▁ܒܫ	-345
▁ܥܠܘܗܝ	-346
▁ܘܪ	-347
ܛܢܐ	-348
▁ܡܪܝ	-349
▁ܐܢܫܐ	-350
▁ܕܦ	-351
ܟܢܐ	-352
▁ܫܐ	-353
▁ܩܕܝ	-354
ܡܗ	-355
▁ܘܥܠ	-356
ܦܫ	-357
▁ܐܡܝܢ	-358
▁ܬܘܒ	-359
▁ܡܠܬܐ	-360
▁ܒܪܗ	-361
ܘܪܫܠܡ	-362
ܝܠܐ	-363
ܥܬܐ	-364
▁ܡܘ	-365
ܠܬ	-366
▁ܕܡܬ	-367
ܚܬܐ	-368
▁ܒܤ	-369
ܝܤ	-370
ܝܕܐ	-371
▁ܬܐ	-372
ܘܚܢܢ	-373
▁ܐܫܬ	-374
▁ܠܝܬ	-375
ܢܝܐ	-376
ܩܝܡ	-377
▁ܕܙ	-378
▁ܕܪ	-379
ܝܬܗ	-380
▁ܠܓ	-381
▁ܠܐܝܠܝܢ	-382
▁ܠܬ	-383
ܢܝܢܫܐ	-384
▁ܥܒܕܐ	-385
▁ܗܝܕܝܢ	-386
▁ܕܢܐ	-387
ܪܬܐ	-388
▁ܒܢܝ	-389
▁ܗܫܐ	-390
▁ܘܐܚ	-391
▁ܡܟ	-392
▁ܥܡܗ	-393
▁ܡܢܗܘܢ	-394
ܘܐ	-395
ܟܠܐ	-396
▁ܩܪ	-397
▁ܒܠܚܘ	-398
ܕܢܐ	-399
ܥܡ	-400
▁ܕܕ	-401
▁ܟܬ	-402
ܦܪܐ	-403
▁ܡܠܟ	-404
▁ܕܝܫܘܥ	-405
▁ܝܗܘܕܝܐ	-406
ܚܙ	-407
ܪܡ	-408
ܪܬ	-409
ܡܪܐ	-410
▁ܗܘܝܬܘܢ	-411
▁ܡܫܬ	-412
▁ܕܥܒܕ	-413
▁ܝܕܥܝܢ	-414
ܕܘܢ	-415
ܫܒ	-416
ܠܘܢ	-417
ܦܢܐ	-418
▁ܚܕܐ	-419
▁ܐܚܪܢܐ	-420
▁ܫܡܝܐ	-421
▁ܪܓ	-422
▁ܚܙܐ	-423
▁ܢܦܩ	-424
▁ܕܐܬܐ	-425
▁ܒܩ	-426
▁ܘܐܦ	-427
▁ܠܒܪ	-428
ܦܝܢ	-429
▁ܐܚܝ	-430
▁ܫܠܝ	-431
ܗܝܡܢܘܬܐ	-432
▁ܒܟܠ	-433
▁ܡܢܟܘܢ	-434
▁ܢܡܘܤܐ	-435
ܛܘܤ	-436
ܡܪܢ	-437
▁ܐܙ	-438
▁ܥܢܐ	-439
▁ܡܝܬܐ	-440
ܫܒܘ	-441
▁ܠܩ	-442
ܢܘܬܐ	-443
ܤܝ	-444
ܬܢ	-445
ܪܝܬܐ	-446
▁ܫܡܥܘܢ	-447
ܬܟ	-448
ܓܪܐ	-449
▁ܫܪ	-450
▁ܟܢܫܐ	-451
▁ܦܘܠܘܤ	-452
ܘܗ	-453
ܘܟ	-454
ܬܝܒ	-455
▁ܡܢܘ	-456
ܘܬܟܘܢ	-457
▁ܐܪܥܐ	-458
▁ܟܗܢܐ	-459
▁ܬܠܡܝܕܘܗܝ	-460
▁ܚܝܐ	-461
▁ܝܗܒ	-462
▁ܪܒܐ	-463
▁ܠܘܬܗ	-464
ܫܝܢ	-465
▁ܘܦ	-466
▁ܐܙܠ	-467
▁ܚܠܦ	-468
ܝܒܘܬܐ	-469
ܫܡܗ	-470
▁ܕܨ	-471
ܝܡܝܢ	-472
▁ܡܪܢ	-473
▁ܐܝܢܐ	-474
▁ܢܦܫܗ	-475
▁ܒܠܚܘܕ	-476
ܟܝܢ	-477
ܪܝܐ	-478
▁ܕܛ	-479
ܪܝܫܐ	-480
▁ܠܘܩ	-481
▁ܕܡܪܢ	-482
ܕܩ	-483
▁ܨܒܐ	-484
▁ܟܐܦܐ	-485
▁ܡܪܝܐ	-486
▁ܐܢܬܬܐ	-487
ܨܐ	-488
ܬܝܕ	-489
▁ܥܡܗܘܢ	-490
▁ܤܡ	-491
▁ܕܝܠ	-492
▁ܚܝ	-493
▁ܕܟܠ	-494
▁ܡܕܝܢܬܐ	-495
ܒܥ	-496
ܩܠ	-497
ܘܕܫܐ	-498
▁ܥܡܐ	-499
▁ܐܝܬܘܗܝ	-500
▁ܕܡܫܝܚܐ	-501
ܤܪܐ	-502
▁ܒܟܘܢ	-503
▁ܘܐܬܐ	-504
ܗܐ	-505
▁ܡܠܐܟܐ	-506
ܥܩ	-507
ܟܪܙ	-508
▁ܐܒܐ	-509
▁ܕܐܢܫܐ	-510
ܓܐ	-511
▁ܘܠܡ	-512
▁ܘܢܦܩ	-513
▁ܕܐܝܬܘܗܝ	-514
ܩܒܠ	-515
ܝܘܗܝ	-516
▁ܕܫܡܥ	-517
▁ܢܒܝܐ	-518
▁ܠܘܬܟܘܢ	-519
▁ܩܡ	-520
▁ܪܒ	-521
▁ܕܢܬ	-522
▁ܘܟܠ	-523
▁ܕܐܢܐ	-524
▁ܒܬ	-525
▁ܡܛ	-526
▁ܫܦ	-527
▁ܗܘܝ	-528
▁ܡܝܬ	-529
ܐܡ	-530
ܕܒ	-531
ܚܗ	-532
ܙܒܢ	-533
▁ܐܡ	-534
▁ܡܨ	-535
▁ܘܒܪ	-536
▁ܫܪܝ	-537
▁ܟܠܗܝܢ	-538
▁ܕܩܘܕܫܐ	-539
ܩܝܢ	-540
▁ܠܤ	-541
ܚܝܢ	-542
ܤܝܐ	-543
▁ܠܦ	-544
ܪܘܚܐ	-545
▁ܕܚܙ	-546
ܝܪܐܝܬ	-547
▁ܕܡܪܝܐ	-548
ܤܒ	-549
ܩܕ	-550
ܫܢܐ	-551
▁ܒܓ	-552
ܒܪܝܢ	-553
ܬܗܘܢ	-554
▁ܥܝܢ	-555
▁ܗܘܝܢ	-556
ܬܟܘܢ	-557
▁ܕܡܐ	-558
▁ܐܝܕܐ	-559
▁ܕܠܡܐ	-560
▁ܡܠܟܐ	-561
ܝܕܥ	-562
▁ܚܡ	-563
▁ܬܚ	-564
ܠܝܠܐ	-565
▁ܦܘܩ	-566
▁ܪܒܝ	-567
▁ܐܫܟܚ	-568
▁ܨܒܝܢ	-569
▁ܡܗܝܡܢ	-570
ܘܠܐ	-571
▁ܒܒ	-572
▁ܬܬ	-573
▁ܙܒܢܐ	-574
▁ܘܓ	-575
ܘܪܚܐ	-576
▁ܘܚܙ	-577
▁ܠܚܕ	-578
▁ܥܠܝܗܘܢ	-579
ܢܗ	-580
▁ܦܪ	-581
ܠܡܕܡ	-582
▁ܒܝܕ	-583
▁ܕܥܠ	-584
ܥܪ	-585
▁ܒܐܝܕ	-586
▁ܬܗܘܐ	-587
ܘܦ	-588
▁ܒܦ	-589
ܒܘܗܝ	-590
▁ܕܒܗ	-591
ܡܢܐ	-592
▁ܐܪ	-593
▁ܒܨ	-594
▁ܚܘ	-595
▁ܦܠ	-596
▁ܐܘܠ	-597
▁ܒܥܐ	-598
▁ܡܬܚ	-599
▁ܬܪܝܢ	-600
ܗܠܟ	-601
▁ܕܠܥ	-602
▁ܡܡܠܠ	-603
ܪܟܐ	-604
▁ܕܒܝ	-605
▁ܕܝܬ	-606
▁ܛܒܐ	-607
▁ܠܡܪ	-608
▁ܐܝܟܐ	-609
▁ܘܗܘܐ	-610
▁ܥܠܡܐ	-611
▁ܝܘܡܬܐ	-612
▁ܠܝܫܘܥ	-613
ܠܩ	-614
ܘܚܐ	-615
ܡܡܐ	-616
ܩܪܒ	-617
▁ܐܟ	-618
▁ܐܒܝ	-619
▁ܒܗܝܡܢܘܬܐ	-620
ܟܢ	-621
▁ܘܛ	-622
ܠܘܗܝ	-623
ܫܝܫܐ	-624
▁ܘܠܝ	-625
▁ܕܥܠܡܐ	-626
ܬܝܗܒ	-627
▁ܤܓܝܐ	-628
ܒܩ	-629
ܦܟ	-630
ܕܡܐ	-631
ܗܝܢ	-632
ܠܝܠ	-633
ܝܡܬܐ	-634
▁ܢܤܒ	-635
▁ܫܕܪ	-636
ܩܝ	-637
ܦܩܕ	-638
ܪܝܠ	-639
ܥܘ	-640
ܫܗ	-641
ܒܪܗܡ	-642
ܥܩܘܒ	-643
▁ܒܝܢ	-644
▁ܠܐܚ	-645
▁ܠܗܘ	-646
▁ܠܟܠ	-647
▁ܒܗܘܢ	-648
▁ܥܪ	-649
▁ܢܫܬ	-650
ܛܦ	-651
ܕܡܪ	-652
ܬܝܢ	-653
▁ܦܐ	-654
ܒܝܬܐ	-655
▁ܤܒܪ	-656
▁ܥܠܝ	-657
▁ܐܦܠܐ	-658
ܓܕ	-659
ܩܦ	-660
▁ܒܛ	-661
ܒܢܝܢ	-662
▁ܕܒܐ	-663
▁ܘܫܡܥ	-664
▁ܒܝܫܬܐ	-665
▁ܕܠܥܠܡ	-666
▁ܩܕܝܫܐ	-667
▁ܬܠܡܝܕܐ	-668
ܕܬܐ	-669
ܠܦܐ	-670
ܝܘܬܐ	-671
ܠܘܬܐ	-672
▁ܚܒܝ	-673
▁ܫܘܒ	-674
ܘܬܗܘܢ	-675
▁ܠܚܡܐ	-676
▁ܥܡܡܐ	-677
▁ܗܝܡܢܘܬܐ	-678
ܢܬ	-679
ܡܬܐ	-680
▁ܠܛ	-681
▁ܨܒ	-682
▁ܕܢܚ	-683
▁ܫܘܠ	-684
▁ܐܢܝܢ	-685
▁ܕܝܠܝ	-686
▁ܘܝܗܒ	-687
ܫܒܘܚܬܐ	-688
▁ܥܡܟܘܢ	-689
▁ܥܠܝܟܘܢ	-690
▁ܝܬܝܪܐܝܬ	-691
ܘܤܦ	-692
▁ܚܤ	-693
ܡܠܬܐ	-694
▁ܐܚܐ	-695
▁ܐܬܬ	-696
▁ܘܗܐ	-697
ܗܝܡܢܐ	-698
▁ܒܥܝܢ	-699
▁ܝܬܝܪ	-700
▁ܒܢܝܢܫܐ	-701
▁ܛܝܒܘܬܐ	-702
ܥܠ	-703
▁ܘܙ	-704
▁ܪܚ	-705
▁ܕܒܪ	-706
▁ܩܪܒ	-707
▁ܒܢܝܐ	-708
▁ܘܐܙܠ	-709
▁ܝܘܚܢܢ	-710
▁ܩܕܡܝܐ	-711
ܕܚ	-712
ܘܕܝ	-713
ܛܠܝܐ	-714
▁ܒܗܝ	-715
▁ܕܐܤ	-716
▁ܕܚܕ	-717
▁ܤܗܕ	-718
▁ܦܝܠ	-719
▁ܫܒܩ	-720
ܘܢܝܗܝ	-721
▁ܘܐܝܟ	-722
▁ܘܐܫܬ	-723
▁ܫܡܥܘ	-724
▁ܒܪܢܫܐ	-725
▁ܒܫܡܝܐ	-726
ܟܬ	-727
▁ܠܫ	-728
ܢܘܗܝ	-729
▁ܘܡܚ	-730
▁ܘܩܡ	-731
▁ܝܘܡܐ	-732
▁ܕܢܗܘܐ	-733
▁ܢܗܘܘܢ	-734
ܠܡܝܕܘܗܝ	-735
ܡܠܐ	-736
▁ܘܨ	-737
▁ܕܫܘ	-738
▁ܚܙܘ	-739
▁ܟܡܐ	-740
▁ܩܠܐ	-741
ܢܘܫܬܐ	-742
▁ܒܝܫܐ	-743
▁ܡܠܟܘܬܐ	-744
▁ܠܐܘܪܫܠܡ	-745
ܥܝܐ	-746
▁ܢܨ	-747
ܓܝܐܐ	-748
▁ܗܢܘ	-749
▁ܟܘܪ	-750
▁ܕܗܘܐ	-751
▁ܘܐܬܘ	-752
▁ܠܥܠܡ	-753
▁ܕܫܡܝܐ	-754
▁ܕܝܗܘܕܝܐ	-755
ܒܘܢ	-756
ܒܥܐ	-757
ܓܠܝ	-758
▁ܤܓܝ	-759
▁ܬܪܥ	-760
▁ܕܝܗܒ	-761
▁ܬܪܥܐ	-762
▁ܒܪܘܚܐ	-763
▁ܘܐܝܠܝܢ	-764
ܓܘ	-765
ܓܠܐ	-766
ܢܢܐ	-767
ܦܘܤ	-768
ܕܝܢܐ	-769
▁ܘܕܐ	-770
▁ܠܡܢ	-771
▁ܕܐܝܟ	-772
ܓܠ	-773
ܘܬܝ	-774
▁ܚܪ	-775
ܢܝܬܐ	-776
▁ܐܟܠ	-777
▁ܕܝܢܐ	-778
▁ܛܒܬܐ	-779
▁ܦܐܪܐ	-780
▁ܐܤܝܪܐ	-781
▁ܘܗܢܘܢ	-782
▁ܠܓܒܪܐ	-783
▁ܦܪܝܫܐ	-784
▁ܡܫܟܚܝܢ	-785
ܦܤ	-786
ܪܪܐ	-787
ܫܐܠ	-788
ܘܪܬܐ	-789
▁ܕܟܕ	-790
▁ܥܡܝ	-791
▁ܩܘܪ	-792
▁ܫܪܒ	-793
▁ܒܟܠܗ	-794
▁ܒܬܪܗ	-795
▁ܫܦܝܪ	-796
▁ܘܐܡܪܘ	-797
▁ܠܘܩܕܡ	-798
▁ܥܒܕܝܢ	-799
ܕܝܩ	-800
ܟܝܠ	-801
ܫܝܐ	-802
▁ܐܠܦ	-803
▁ܕܫܡܗ	-804
▁ܘܫܪܝ	-805
▁ܚܕܬܐ	-806
▁ܟܬܒܐ	-807
▁ܡܘܫܐ	-808
▁ܫܪܝܪܐ	-809
▁ܦܝܠܛܘܤ	-810
ܢܒܐ	-811
▁ܐܫ	-812
▁ܫܘ	-813
ܘܗܪܐ	-814
▁ܐܪܒ	-815
▁ܕܐܚ	-816
▁ܘܡܐ	-817
▁ܘܡܬ	-818
▁ܐܡܪܬ	-819
▁ܒܢܦܫ	-820
▁ܕܠܝܬ	-821
▁ܘܐܢܐ	-822
▁ܠܒܝܬ	-823
▁ܕܐܪܥܐ	-824
▁ܚܛܝܬܐ	-825
▁ܤܓܝܐܬܐ	-826
ܓܝ	-827
ܤܬ	-828
ܦܬܐ	-829
ܩܘܡ	-830
ܩܛܠ	-831
ܗܘܕܐ	-832
ܝܪܝܢ	-833
▁ܘܒܗ	-834
▁ܪܘܚ	-835
▁ܪܫܐ	-836
▁ܪܒܬܐ	-837
▁ܪܥܝܢ	-838
▁ܕܪܘܚܐ	-839
▁ܡܗܝܡܢܐ	-840
ܩܘܐ	-841
ܪܝܡ	-842
▁ܛܒ	-843
▁ܢܥ	-844
ܘܪܒܐ	-845
▁ܘܗܝ	-846
▁ܘܫܘ	-847
▁ܟܠܢܫ	-848
▁ܡܟܝܠ	-849
▁ܩܠܝܠ	-850
▁ܐܝܬܝܗ	-851
▁ܕܟܬܝܒ	-852
ܟܘ	-853
ܝܒܪ	-854
ܝܠܝ	-855
ܦܠܓ	-856
ܡܪܘܢ	-857
▁ܐܓܪ	-858
▁ܐܝܤ	-859
▁ܕܬܪ	-860
▁ܘܐܙ	-861
ܫܡܥܘܢ	-862
▁ܐܡܪܘ	-863
▁ܕܚܝܐ	-864
▁ܘܡܛܠ	-865
▁ܤܦܪܐ	-866
▁ܫܠܡܐ	-867
▁ܬܚܝܬ	-868
▁ܝܘܡܝܢ	-869
▁ܫܠܝܚܐ	-870
▁ܦܘܩܕܢܐ	-871
▁ܫܘܠܛܢܐ	-872
▁ܐܝܬܝܗܘܢ	-873
ܕܤ	-874
ܘܡܗ	-875
ܛܝܐ	-876
ܟܘܠ	-877
▁ܟܘ	-878
ܟܐܦܐ	-879
▁ܐܬܪ	-880
▁ܒܫܘ	-881
ܡܠܠܝܢ	-882
▁ܒܡܪܢ	-883
▁ܠܥܠܡܐ	-884
ܒܬ	-885
ܥܬ	-886
ܥܘܢ	-887
▁ܠܪ	-888
ܘܡܬܐ	-889
▁ܕܬܐ	-890
▁ܢܦܠ	-891
▁ܩܘܡ	-892
▁ܡܘܬܐ	-893
ܗܪ	-894
ܪܝܗ	-895
▁ܙܥ	-896
ܫܘܟܐ	-897
▁ܐܬܘ	-898
▁ܘܡܤ	-899
▁ܠܡܬ	-900
▁ܪܚܡ	-901
ܪܝܗܘܢ	-902
▁ܘܥܒܕ	-903
▁ܫܢܝܢ	-904
▁ܕܡܗܝܡܢ	-905
ܒܠܐ	-906
▁ܡܥ	-907
ܠܝܬܐ	-908
ܪܘܕܤ	-909
▁ܝܡܐ	-910
▁ܪܡܐ	-911
ܘܠܦܢܐ	-912
ܝܒܘܬܗ	-913
▁ܐܝܕܗ	-914
▁ܠܡܢܐ	-915
▁ܡܗܠܟ	-916
▁ܩܕܝܡ	-917
▁ܫܒܥܐ	-918
▁ܠܟܠܗܘܢ	-919
ܗܘܕ	-920
ܝܟܐ	-921
ܤܝܡ	-922
ܥܬܗ	-923
▁ܕܘ	-924
▁ܕܢܫ	-925
▁ܘܝܬ	-926
▁ܘܢܐ	-927
▁ܠܡܚ	-928
▁ܡܫܡ	-929
▁ܥܬܝ	-930
▁ܦܓܪ	-931
▁ܫܠܡ	-932
▁ܐܘܠܕ	-933
▁ܘܬܘܒ	-934
▁ܫܠܝܛ	-935
▁ܒܝܘܡܐ	-936
▁ܟܠܡܕܡ	-937
▁ܬܪܥܤܪ	-938
ܒܚ	-939
ܡܬ	-940
ܕܒܪ	-941
▁ܓܙ	-942
▁ܛܘ	-943
ܕܝܫܐ	-944
ܘܪܝܐ	-945
▁ܒܕܡ	-946
▁ܕܡܠ	-947
▁ܕܥܡ	-948
▁ܡܝܐ	-949
▁ܕܡܝܐ	-950
▁ܘܒܬܪ	-951
▁ܥܕܬܐ	-952
▁ܠܬܠܡܝܕܘܗܝ	-953
ܩܢ	-954
ܩܘܢ	-955
ܬܒܐ	-956
▁ܟܪ	-957
▁ܢܫ	-958
▁ܘܒܐ	-959
▁ܡܥܡ	-960
▁ܡܬܪ	-961
▁ܥܒܪ	-962
▁ܒܪܘܚ	-963
▁ܕܒܝܬ	-964
▁ܠܗܢܐ	-965
▁ܦܓܪܐ	-966
▁ܒܐܪܥܐ	-967
▁ܕܗܠܝܢ	-968
▁ܕܥܬܝܕ	-969
▁ܙܒܢܝܢ	-970
ܝܡܐ	-971
ܡܠܟ	-972
ܨܢܐ	-973
▁ܛܢ	-974
▁ܠܘ	-975
▁ܦܬ	-976
ܟܡܬܐ	-977
▁ܐܝܢ	-978
▁ܐܠܘ	-979
▁ܒܪܐ	-980
▁ܘܤܡ	-981
▁ܠܥܠ	-982
▁ܢܚܬ	-983
ܥܒܕܘܢ	-984
▁ܐܬܝܬ	-985
▁ܕܐܫܬ	-986
▁ܕܨܒܐ	-987
▁ܘܫܕܪ	-988
▁ܬܗܘܘܢ	-989
▁ܐܝܤܪܝܠ	-990
▁ܒܟܠܙܒܢ	-991
▁ܕܒܫܡܝܐ	-992
▁ܕܡܬܩܪܐ	-993
ܗܛ	-994
ܙܝ	-995
ܒܚܐ	-996
▁ܢܛ	-997
ܕܥܘܢ	-998
ܠܐܟܐ	-999
▁ܒܪܝ	-1000
▁ܕܚܛ	-1001
▁ܘܕܚ	-1002
▁ܘܥܡ	-1003
▁ܘܫܐ	-1004
▁ܠܡܤ	-1005
▁ܩܐܡ	-1006
▁ܩܪܐ	-1007
▁ܒܝܬܐ	-1008
▁ܕܢܦܩ	-1009
▁ܕܫܕܪ	-1010
▁ܟܬܝܒ	-1011
▁ܒܐܝܕܗ	-1012
▁ܒܝܫܘܥ	-1013
▁ܕܗܝܡܢ	-1014
▁ܟܠܟܘܢ	-1015
▁ܠܡܐܡܪ	-1016
▁ܒܡܫܝܚܐ	-1017
▁ܘܐܚܪܢܐ	-1018
ܙܕ	-1019
ܥܝ	-1020
ܦܝ	-1021
ܚܙܝ	-1022
ܟܬܐ	-1023
▁ܒܙ	-1024
▁ܤܗ	-1025
▁ܐܒܗ	-1026
▁ܐܚܪ	-1027
▁ܙܒܢ	-1028
▁ܢܫܐ	-1029
ܘܕܝܬܐ	-1030
▁ܐܡܬܝ	-1031
▁ܐܬܪܐ	-1032
▁ܒܫܡܗ	-1033
▁ܚܝܠܐ	-1034
▁ܢܦܫܟ	-1035
▁ܥܬܝܕ	-1036
▁ܫܥܬܐ	-1037
ܝܠܝܦܘܤ	-1038
▁ܠܘܩܒܠ	-1039
▁ܒܗܝܟܠܐ	-1040
▁ܕܢܗܘܘܢ	-1041
▁ܝܕܥܝܢܢ	-1042
▁ܠܦܘܠܘܤ	-1043
ܟܤ	-1044
ܡܟ	-1045
ܘܒܕ	-1046
ܠܝܘ	-1047
ܤܝܢ	-1048
ܪܘܢ	-1049
ܕܝܩܐ	-1050
ܛܦܝܤ	-1051
ܝܪܬܐ	-1052
▁ܕܡܚ	-1053
▁ܕܬܬ	-1054
▁ܘܢܬ	-1055
▁ܠܡܩ	-1056
▁ܕܝܠܗ	-1057
▁ܗܪܟܐ	-1058
▁ܕܡܘܬܐ	-1059
▁ܐܘܪܫܠܡ	-1060
▁ܠܡܕܝܢܬܐ	-1061
ܕܟ	-1062
ܦܢ	-1063
ܬܢܐ	-1064
▁ܩܘ	-1065
ܗܘܝܢ	-1066
ܦܘܬܐ	-1067
▁ܒܗܘ	-1068
▁ܒܥܠ	-1069
▁ܕܪܒ	-1070
▁ܘܡܪ	-1071
▁ܘܢܚ	-1072
▁ܚܝܒ	-1073
▁ܬܪܬ	-1074
▁ܐܚܝܢ	-1075
▁ܐܡܪܐ	-1076
▁ܘܕܠܐ	-1077
▁ܘܚܙܐ	-1078
▁ܠܘܬܝ	-1079
▁ܬܠܬܐ	-1080
▁ܠܟܢܫܐ	-1081
▁ܠܡܥܒܕ	-1082
▁ܕܐܝܠܝܢ	-1083
ܓܙ	-1084
ܓܡ	-1085
ܘܕܥ	-1086
ܘܪܩ	-1087
ܬܪܐ	-1088
▁ܚܐ	-1089
▁ܡܩ	-1090
▁ܫܩ	-1091
ܗܒܬܐ	-1092
▁ܐܬܚ	-1093
▁ܒܚܕ	-1094
▁ܒܪܡ	-1095
▁ܕܫܡ	-1096
▁ܢܛܪ	-1097
▁ܢܬܠ	-1098
▁ܫܡܗ	-1099
ܫܡܫܬܐ	-1100
▁ܒܐܦܐ	-1101
▁ܕܢܫܬ	-1102
▁ܚܘܒܐ	-1103
▁ܠܥܒܕ	-1104
▁ܒܫܠܡܐ	-1105
▁ܗܝܡܢܘ	-1106
▁ܒܐܘܪܚܐ	-1107
▁ܕܐܝܬܝܗ	-1108
▁ܘܟܠܗܘܢ	-1109
ܪܗ	-1110
ܘܕܐ	-1111
ܝܠܕ	-1112
▁ܠܙ	-1113
ܕܘܝܕ	-1114
▁ܕܗܐ	-1115
▁ܕܡܤ	-1116
▁ܘܬܪ	-1117
ܘܠܟܢܐ	-1118
ܢܝܗܘܢ	-1119
▁ܕܡܠܟ	-1120
▁ܘܩܪܐ	-1121
▁ܠܐܢܫ	-1122
▁ܠܗܝܢ	-1123
▁ܢܦܫܝ	-1124
▁ܥܠܝܗ	-1125
▁ܐܚܘܗܝ	-1126
▁ܐܠܦܝܢ	-1127
▁ܨܒܝܢܗ	-1128
▁ܕܢܡܘܤܐ	-1129
▁ܘܗܝܕܝܢ	-1130
▁ܠܘܬܗܘܢ	-1131
ܪܢ	-1132
ܢܛܪ	-1133
ܒܘܪܐ	-1134
▁ܘܐܤ	-1135
▁ܘܚܕ	-1136
▁ܘܡܠ	-1137
▁ܟܪܝ	-1138
▁ܡܠܦ	-1139
▁ܡܦܩ	-1140
▁ܪܫܗ	-1141
▁ܬܠܬ	-1142
ܝܕܥܝܢ	-1143
ܦܝܢܬܐ	-1144
▁ܒܗܕܐ	-1145
▁ܒܝܬܗ	-1146
▁ܕܡܕܡ	-1147
▁ܕܡܝܬ	-1148
▁ܕܩܕܡ	-1149
▁ܘܟܠܗ	-1150
▁ܘܦܩܕ	-1151
▁ܫܐܠܘ	-1152
▁ܫܥܬܗ	-1153
ܕܝܩܘܬܐ	-1154
▁ܘܐܙܠܘ	-1155
▁ܡܠܦܢܐ	-1156
▁ܩܝܡܝܢ	-1157
▁ܩܫܝܫܐ	-1158
▁ܫܪܒܬܐ	-1159
▁ܕܐܢܬܘܢ	-1160
▁ܕܝܠܟܘܢ	-1161
▁ܕܒܢܝܢܫܐ	-1162
▁ܬܫܒܘܚܬܐ	-1163
ܕܦ	-1164
ܛܝ	-1165
ܠܒ	-1166
ܘܬܢ	-1167
ܚܡܐ	-1168
ܡܝܐ	-1169
▁ܟܤ	-1170
ܠܝܚܐ	-1171
▁ܙܪܥ	-1172
▁ܡܠܠ	-1173
▁ܩܒܠ	-1174
ܠܝܗܘܢ	-1175
▁ܒܩܠܐ	-1176
▁ܕܐܢܫ	-1177
▁ܕܐܢܬ	-1178
▁ܕܝܠܢ	-1179
▁ܘܐܢܬ	-1180
▁ܘܐܪܡ	-1181
▁ܘܗܫܐ	-1182
▁ܛܠܝܐ	-1183
▁ܠܚܝܐ	-1184
▁ܡܬܠܐ	-1185
▁ܫܪܪܐ	-1186
▁ܒܡܠܬܐ	-1187
▁ܕܗܟܢܐ	-1188
▁ܕܗܢܘܢ	-1189
▁ܗܝܟܠܐ	-1190
▁ܘܡܚܕܐ	-1191
▁ܠܗܢܘܢ	-1192
▁ܡܡܠܠܝܢ	-1193
ܓܢ	-1194
ܝܩ	-1195
ܘܫܐ	-1196
ܘܬܟ	-1197
ܚܬܗ	-1198
ܦܫܗ	-1199
ܦܬܚ	-1200
▁ܝܕ	-1201
ܚܙܘܢ	-1202
ܢܝܢܐ	-1203
▁ܐܪܡ	-1204
▁ܕܗܝ	-1205
▁ܕܠܗ	-1206
▁ܘܒܡ	-1207
▁ܢܚܐ	-1208
▁ܤܝܡ	-1209
▁ܤܠܩ	-1210
▁ܒܝܡܐ	-1211
▁ܒܬܪܝ	-1212
▁ܕܒܪܗ	-1213
▁ܕܝܕܥ	-1214
▁ܘܢܦܠ	-1215
▁ܚܛܗܐ	-1216
▁ܠܒܪܗ	-1217
▁ܡܪܝܡ	-1218
▁ܤܒܪܐ	-1219
ܟܐܢܘܬܐ	-1220
▁ܐܘܪܚܐ	-1221
▁ܘܐܫܟܚ	-1222
▁ܢܘܗܪܐ	-1223
▁ܫܘܒܚܐ	-1224
▁ܕܝܘܚܢܢ	-1225
▁ܪܓܠܘܗܝ	-1226
ܠܨ	-1227
ܓܬܐ	-1228
ܙܕܩ	-1229
ܛܝܘ	-1230
▁ܬܘ	-1231
ܚܘܒܐ	-1232
ܟܠܘܢ	-1233
ܡܪܝܐ	-1234
▁ܐܠܗ	-1235
▁ܒܫܡ	-1236
▁ܕܒܚ	-1237
▁ܕܠܝ	-1238
▁ܙܠܘ	-1239
▁ܡܫܟ	-1240
▁ܬܕܚ	-1241
ܓܠܝܘܢ	-1242
▁ܐܝܕܝ	-1243
▁ܐܩܝܡ	-1244
▁ܕܓܠܐ	-1245
▁ܘܠܝܬ	-1246
▁ܘܡܠܦ	-1247
▁ܚܙܝܢ	-1248
▁ܡܩܒܠ	-1249
▁ܢܐܡܪ	-1250
▁ܪܘܚܗ	-1251
▁ܐܒܘܗܝ	-1252
▁ܐܚܪܝܐ	-1253
▁ܕܕܘܝܕ	-1254
▁ܕܢܐܙܠ	-1255
▁ܕܢܒܝܐ	-1256
▁ܘܒܥܝܢ	-1257
▁ܠܡܘܬܐ	-1258
▁ܘܠܝܘܡܐ	-1259
▁ܘܦܪܝܫܐ	-1260
ܒܛܠ	-1261
ܟܠܘ	-1262
ܥܘܠ	-1263
ܥܝܪ	-1264
ܨܚܐ	-1265
ܪܝܫ	-1266
ܫܘܢ	-1267
ܬܢܝ	-1268
▁ܙܠ	-1269
▁ܚܨ	-1270
ܟܘܗܝ	-1271
ܡܝܢܐ	-1272
▁ܕܢܤ	-1273
▁ܝܬܒ	-1274
▁ܠܡܨ	-1275
▁ܡܓܕ	-1276
▁ܦܩܕ	-1277
▁ܫܬܐ	-1278
▁ܕܢܤܒ	-1279
▁ܘܡܕܡ	-1280
▁ܚܡܪܐ	-1281
▁ܢܥܒܕ	-1282
▁ܥܠܝܢ	-1283
ܗܝܡܢܘܢ	-1284
▁ܐܒܪܗܡ	-1285
▁ܐܬܘܬܐ	-1286
▁ܒܥܠܡܐ	-1287
▁ܠܝܘܡܐ	-1288
▁ܩܒܘܪܐ	-1289
▁ܫܦܝܪܐ	-1290
ܘܢܓܠܝܘܢ	-1291
▁ܒܢܡܘܤܐ	-1292
▁ܟܘܪܤܝܐ	-1293
▁ܘܠܐܝܠܝܢ	-1294
▁ܡܗܝܡܢܝܢ	-1295
ܕܢ	-1296
ܩܛ	-1297
ܫܢ	-1298
ܗܪܐ	-1299
ܚܘܐ	-1300
ܝܤܐ	-1301
ܩܬܐ	-1302
ܪܝܒ	-1303
▁ܬܤ	-1304
ܕܗܒܐ	-1305
ܕܘܗܝ	-1306
ܤܝܒܪ	-1307
▁ܘܠܗ	-1308
▁ܚܘܒ	-1309
▁ܡܢܝ	-1310
▁ܡܢܢ	-1311
▁ܤܪܝ	-1312
▁ܫܩܠ	-1313
▁ܘܩܪܒ	-1314
▁ܥܒܕܘ	-1315
▁ܫܐܕܐ	-1316
▁ܕܢܐܬܐ	-1317
▁ܗܪܘܕܤ	-1318
▁ܘܚܙܝܬ	-1319
▁ܡܫܟܚܐ	-1320
▁ܥܕܟܝܠ	-1321
▁ܥܠܡܝܢ	-1322
▁ܫܡܥܝܢ	-1323
▁ܥܒܕܘܗܝ	-1324
▁ܩܕܡܘܗܝ	-1325
▁ܒܐܘܪܫܠܡ	-1326
▁ܘܗܘܝܬܘܢ	-1327
▁ܫܪܝܪܐܝܬ	-1328
ܘܓܐ	-1329
▁ܝܩ	-1330
▁ܦܓ	-1331
▁ܪܫ	-1332
ܟܢܫܘ	-1333
▁ܐܡܗ	-1334
▁ܐܤܬ	-1335
▁ܒܥܘ	-1336
▁ܕܚܝ	-1337
▁ܘܒܚ	-1338
▁ܘܕܥ	-1339
▁ܠܟܝ	-1340
▁ܠܬܪ	-1341
▁ܡܢܟ	-1342
▁ܫܪܐ	-1343
ܕܘܢܝܐ	-1344
▁ܐܙܕܗ	-1345
▁ܕܒܢܝ	-1346
▁ܛܘܒܝ	-1347
▁ܢܐܬܐ	-1348
▁ܩܪܒܘ	-1349
▁ܒܥܠܕܒ	-1350
▁ܕܥܡܡܐ	-1351
▁ܘܤܦܪܐ	-1352
▁ܝܗܘܕܐ	-1353
▁ܕܩܝܡܝܢ	-1354
▁ܕܐܝܬܝܗܘܢ	-1355
ܡܥ	-1356
ܒܗܪ	-1357
ܕܪܘ	-1358
ܚܘܢ	-1359
ܡܟܐ	-1360
ܦܝܪ	-1361
ܨܘܦ	-1362
▁ܓܢ	-1363
▁ܢܟ	-1364
ܝܩܪܐ	-1365
ܟܝܡܐ	-1366
ܟܪܝܐ	-1367
▁ܕܐܫ	-1368
▁ܕܒܡ	-1369
▁ܕܕܚ	-1370
▁ܕܪܘ	-1371
▁ܘܟܐ	-1372
▁ܘܩܪ	-1373
▁ܟܬܒ	-1374
ܝܤܪܝܠ	-1375
▁ܕܝܡܐ	-1376
▁ܕܡܫܬ	-1377
▁ܠܡܠܟ	-1378
▁ܠܡܪܢ	-1379
▁ܡܚܕܐ	-1380
▁ܥܠܝܟ	-1381
▁ܐܚܪܬܐ	-1382
▁ܟܘܡܪܐ	-1383
▁ܠܛܘܪܐ	-1384
▁ܪܥܝܢܐ	-1385
▁ܬܪܬܝܢ	-1386
▁ܕܐܡܪܝܢ	-1387
▁ܕܫܕܪܢܝ	-1388
▁ܘܐܢܬܘܢ	-1389
▁ܡܘܗܒܬܐ	-1390
▁ܡܠܟܘܬܗ	-1391
▁ܠܒܢܝܢܫܐ	-1392
ܛܠܐ	-1393
ܟܠܗ	-1394
ܥܤܪ	-1395
ܥܪܐ	-1396
ܩܝܦ	-1397
ܪܝܘ	-1398
▁ܦܩ	-1399
▁ܬܥ	-1400
ܕܒܚܐ	-1401
ܗܕܝܢ	-1402
ܫܘܬܐ	-1403
ܬܟܪܐ	-1404
▁ܐܝܠ	-1405
▁ܐܦܝ	-1406
▁ܐܦܢ	-1407
▁ܐܦܩ	-1408
▁ܒܠܒ	-1409
▁ܘܕܡ	-1410
▁ܘܢܤ	-1411
▁ܠܒܝ	-1412
▁ܠܫܘ	-1413
▁ܡܪܗ	-1414
▁ܫܒܘ	-1415
ܒܘܟܘܢ	-1416
ܠܝܘܗܝ	-1417
▁ܐܙܠܘ	-1418
▁ܐܥܒܕ	-1419
▁ܒܗܝܢ	-1420
▁ܕܚܙܐ	-1421
▁ܕܩܒܠ	-1422
▁ܘܥܢܐ	-1423
▁ܚܡܫܐ	-1424
▁ܡܠܬܗ	-1425
▁ܤܛܢܐ	-1426
▁ܤܡܝܐ	-1427
▁ܐܝܡܟܐ	-1428
▁ܒܠܠܝܐ	-1429
▁ܠܒܝܬܗ	-1430
▁ܥܬܝܪܐ	-1431
ܚܩ	-1432
ܠܥ	-1433
ܪܤ	-1434
ܫܥ	-1435
ܒܠܘ	-1436
ܘܦܐ	-1437
ܪܒܐ	-1438
ܕܒܪܐ	-1439
▁ܕܘܟ	-1440
▁ܘܢܫ	-1441
▁ܫܒܥ	-1442
▁ܐܒܘܢ	-1443
▁ܐܝܬܝ	-1444
▁ܕܩܐܡ	-1445
▁ܘܒܟܠ	-1446
▁ܠܥܡܐ	-1447
▁ܡܤܒܪ	-1448
▁ܡܫܠܡ	-1449
▁ܦܘܡܗ	-1450
▁ܕܚܠܬܐ	-1451
▁ܕܡܡܠܠ	-1452
▁ܕܫܡܥܘ	-1453
▁ܕܫܪܪܐ	-1454
▁ܕܬܗܘܐ	-1455
▁ܘܐܝܢܐ	-1456
▁ܘܗܟܢܐ	-1457
▁ܘܢܦܩܘ	-1458
▁ܙܥܘܪܐ	-1459
▁ܚܒܝܒܐ	-1460
▁ܚܒܝܒܝ	-1461
▁ܠܫܡܝܐ	-1462
▁ܢܗܘܝܢ	-1463
▁ܘܤܓܝܐܐ	-1464
▁ܘܩܫܝܫܐ	-1465
▁ܠܐܚܘܗܝ	-1466
▁ܠܫܡܥܘܢ	-1467
▁ܢܦܫܟܘܢ	-1468
▁ܤܗܕܘܬܐ	-1469
ܛܘ	-1470
ܟܗ	-1471
ܤܢ	-1472
ܨܦ	-1473
ܓܡܐ	-1474
ܕܪܐ	-1475
ܘܪܗ	-1476
ܝܦܐ	-1477
ܢܬܐ	-1478
ܥܠܐ	-1479
ܥܡܕ	-1480
ܦܘܪ	-1481
ܦܢܝ	-1482
ܩܠܐ	-1483
▁ܚܫ	-1484
ܕܥܕܐ	-1485
ܠܝܢܢ	-1486
▁ܐܟܚ	-1487
▁ܒܤܪ	-1488
▁ܕܡܛ	-1489
▁ܕܡܟ	-1490
▁ܕܢܦ	-1491
▁ܕܦܪ	-1492
▁ܘܒܝ	-1493
▁ܚܝܠ	-1494
▁ܡܐܬ	-1495
▁ܡܚܒ	-1496
▁ܡܪܐ	-1497
▁ܥܡܢ	-1498
▁ܫܘܐ	-1499
ܗܝܗܘܢ	-1500
▁ܐܬܝܢ	-1501
▁ܕܘܝܕ	-1502
▁ܕܤܒܪ	-1503
▁ܘܐܬܬ	-1504
▁ܙܪܥܐ	-1505
▁ܡܟܤܐ	-1506
▁ܢܘܪܐ	-1507
▁ܢܩܘܡ	-1508
▁ܤܝܒܪ	-1509
▁ܪܚܡܐ	-1510
ܢܛܪܘܢܐ	-1511
ܫܒܘܚܬܗ	-1512
▁ܐܬܚܙܝ	-1513
▁ܕܚܙܝܢ	-1514
▁ܕܢܘܪܐ	-1515
▁ܘܐܡܪܐ	-1516
▁ܘܐܩܝܡ	-1517
▁ܘܢܗܘܐ	-1518
▁ܘܫܠܡܐ	-1519
▁ܘܫܡܥܬ	-1520
▁ܚܝܘܬܐ	-1521
▁ܠܡܐܟܠ	-1522
▁ܐܘܠܨܢܐ	-1523
▁ܐܙܕܗܪܘ	-1524
▁ܕܟܠܗܘܢ	-1525
ܚܝ	-1526
ܠܚ	-1527
ܡܝ	-1528
ܓܙܐ	-1529
ܘܢܗ	-1530
▁ܡܙ	-1531
ܘܒܠܐ	-1532
ܘܠܬܐ	-1533
ܡܪܝܢ	-1534
ܩܪܝܐ	-1535
▁ܐܬܝ	-1536
▁ܕܐܪ	-1537
▁ܕܥܐ	-1538
▁ܘܚܪ	-1539
▁ܘܡܨ	-1540
▁ܟܤܐ	-1541
▁ܠܕܘ	-1542
▁ܥܡܟ	-1543
▁ܦܬܚ	-1544
ܠܡܝܕܐ	-1545
▁ܒܒܤܪ	-1546
▁ܒܗܢܐ	-1547
▁ܕܗܢܐ	-1548
▁ܕܚܢܢ	-1549
▁ܕܝܬܒ	-1550
▁ܕܡܛܠ	-1551
▁ܕܥܡܐ	-1552
▁ܕܪܚܡ	-1553
▁ܘܐܬܪ	-1554
▁ܘܒܥܐ	-1555
▁ܘܤܠܩ	-1556
▁ܚܛܝܐ	-1557
▁ܝܕܥܘ	-1558
▁ܝܘܤܦ	-1559
▁ܠܐܢܬ	-1560
▁ܠܗܝܟ	-1561
▁ܡܐܢܐ	-1562
▁ܢܡܠܠ	-1563
▁ܢܦܩܘ	-1564
▁ܐܚܪܝܢ	-1565
▁ܐܢܫܝܢ	-1566
▁ܐܢܬܬܗ	-1567
▁ܐܫܟܚܘ	-1568
▁ܒܟܬܒܐ	-1569
▁ܕܓܒܪܐ	-1570
▁ܝܥܩܘܒ	-1571
▁ܠܐܪܥܐ	-1572
▁ܠܟܠܢܫ	-1573
▁ܕܝܕܥܝܢ	-1574
▁ܕܬܗܘܘܢ	-1575
▁ܘܐܝܟܢܐ	-1576
▁ܡܬܛܦܝܤ	-1577
▁ܢܦܫܗܘܢ	-1578
▁ܒܝܢܬܗܘܢ	-1579
ܚܢ	-1580
ܒܪܘ	-1581
ܓܝܢ	-1582
ܕܟܪ	-1583
ܘܒܐ	-1584
ܠܩܘ	-1585
ܢܝܩ	-1586
ܤܘܩ	-1587
▁ܐܓ	-1588
▁ܠܨ	-1589
ܒܘܬܐ	-1590
ܘܡܢܐ	-1591
ܘܪܝܢ	-1592
ܘܬܪܐ	-1593
ܙܕܕܩ	-1594
ܛܝܪܐ	-1595
ܝܡܡܐ	-1596
ܡܝܪܐ	-1597
▁ܒܐܤ	-1598
▁ܕܕܡ	-1599
▁ܕܡܥ	-1600
▁ܕܬܚ	-1601
▁ܘܕܝ	-1602
▁ܡܦܤ	-1603
▁ܡܬܬ	-1604
▁ܦܘܡ	-1605
▁ܫܐܠ	-1606
▁ܫܘܬ	-1607
▁ܬܫܬ	-1608
▁ܕܒܝܫ	-1609
▁ܕܡܬܚ	-1610
▁ܘܡܫܡ	-1611
▁ܘܢܤܒ	-1612
▁ܘܫܩܠ	-1613
▁ܠܗܫܐ	-1614
▁ܡܕܝܢ	-1615
▁ܡܤܗܕ	-1616
▁ܥܘܠܐ	-1617
▁ܥܠܬܐ	-1618
▁ܦܓܪܗ	-1619
▁ܪܓܠܝ	-1620
ܝܡܬܐܘܤ	-1621
▁ܕܕܗܒܐ	-1622
▁ܕܙܒܢܐ	-1623
▁ܘܩܪܒܘ	-1624
▁ܡܬܚܙܐ	-1625
▁ܦܬܓܡܐ	-1626
▁ܨܒܝܢܐ	-1627
▁ܕܐܒܪܗܡ	-1628
▁ܕܐܬܐܡܪ	-1629
▁ܕܩܕܝܫܐ	-1630
▁ܠܐܚܪܢܐ	-1631
▁ܡܗܠܟܝܢ	-1632
▁ܒܡܕܝܢܬܐ	-1633
▁ܕܗܝܡܢܘܬܐ	-1634
ܗܦ	-1635
ܠܦܘ	-1636
ܡܘܢ	-1637
ܡܘܬ	-1638
ܡܫܐ	-1639
ܩܪܝ	-1640
▁ܒܕ	-1641
▁ܥܒ	-1642
▁ܪܝ	-1643
ܠܝܢܐ	-1644
▁ܐܠܝ	-1645
▁ܐܬܡ	-1646
▁ܒܘܪ	-1647
▁ܕܒܥ	-1648
▁ܕܡܨ	-1649
▁ܘܠܥ	-1650
▁ܙܢܝ	-1651
▁ܝܕܝ	-1652
▁ܤܟܠ	-1653
ܕܢܘܗܝ	-1654
ܗܝܟܘܢ	-1655
ܘܪܩܢܐ	-1656
ܟܘܠܬܐ	-1657
▁ܐܤܛܪ	-1658
▁ܒܡܠܟ	-1659
▁ܕܐܒܐ	-1660
▁ܕܘܠܐ	-1661
▁ܕܟܠܗ	-1662
▁ܘܐܦܩ	-1663
▁ܘܗܦܟ	-1664
▁ܘܡܫܬ	-1665
▁ܚܙܝܬ	-1666
▁ܝܡܝܢ	-1667
▁ܢܫܟܚ	-1668
▁ܢܫܡܥ	-1669
▁ܤܗܕܐ	-1670
▁ܦܨܚܐ	-1671
▁ܫܡܫܐ	-1672
▁ܐܟܚܕܐ	-1673
▁ܒܐܠܗܐ	-1674
▁ܕܡܫܟܚ	-1675
▁ܚܕܘܬܐ	-1676
▁ܚܟܡܬܐ	-1677
▁ܛܢܦܬܐ	-1678
▁ܝܘܡܢܐ	-1679
▁ܠܒܝܬܐ	-1680
▁ܕܐܬܝܗܒ	-1681
▁ܘܐܬܝܗܒ	-1682
▁ܟܢܘܫܬܐ	-1683
▁ܠܗܝܟܠܐ	-1684
▁ܡܫܡܫܢܐ	-1685
▁ܩܕܡܝܬܐ	-1686
▁ܒܝܢܬܟܘܢ	-1687
ܘܫ	-1688
ܥܢ	-1689
ܫܠ	-1690
ܒܝܬ	-1691
ܘܢܝ	-1692
ܙܘܢ	-1693
ܝܢܝ	-1694
ܦܠܚ	-1695
▁ܙܘ	-1696
▁ܝܪ	-1697
▁ܟܢ	-1698
▁ܢܪ	-1699
▁ܬܒ	-1700
ܘܓܐܐ	-1701
ܘܟܒܐ	-1702
ܝܒܝܢ	-1703
ܝܪܟܐ	-1704
ܠܛܢܐ	-1705
ܠܝܘܡ	-1706
ܥܤܪܐ	-1707
ܪܒܥܐ	-1708
▁ܐܒܕ	-1709
▁ܒܡܐ	-1710
▁ܒܬܐ	-1711
▁ܕܠܘ	-1712
▁ܕܠܡ	-1713
▁ܕܫܐ	-1714
▁ܘܢܦ	-1715
▁ܘܦܪ	-1716
▁ܘܫܡ	-1717
▁ܚܠܝ	-1718
▁ܠܟܐ	-1719
▁ܩܛܠ	-1720
▁ܩܥܐ	-1721
ܓܡܘܢܐ	-1722
ܩܒܠܘܢ	-1723
▁ܐܕܢܐ	-1724
▁ܐܚܝܕ	-1725
▁ܒܫܠܡ	-1726
▁ܕܒܟܠ	-1727
▁ܕܝܠܟ	-1728
▁ܕܥܡܗ	-1729
▁ܘܡܝܬ	-1730
▁ܘܩܕܡ	-1731
▁ܘܫܒܩ	-1732
▁ܡܩܘܐ	-1733
▁ܢܐܙܠ	-1734
▁ܢܦܫܢ	-1735
▁ܥܒܕܗ	-1736
▁ܫܥܝܢ	-1737
▁ܫܪܟܐ	-1738
ܬܘܢܝܗܝ	-1739
▁ܐܝܠܢܐ	-1740
▁ܒܗܠܝܢ	-1741
▁ܒܚܘܒܐ	-1742
▁ܒܚܝܠܐ	-1743
▁ܒܫܒܬܐ	-1744
▁ܒܫܥܬܐ	-1745
▁ܕܐܡܪܐ	-1746
▁ܕܒܤܪܐ	-1747
▁ܘܐܬܝܢ	-1748
▁ܙܕܝܩܐ	-1749
▁ܟܪܝܗܐ	-1750
▁ܠܐܬܪܐ	-1751
▁ܠܟܐܦܐ	-1752
▁ܠܥܕܬܐ	-1753
▁ܢܐܬܘܢ	-1754
▁ܒܠܚܘܕܝ	-1755
▁ܓܙܘܪܬܐ	-1756
▁ܕܓܠܝܠܐ	-1757
▁ܕܬܕܥܘܢ	-1758
▁ܕܬܪܬܝܢ	-1759
▁ܛܝܒܘܬܗ	-1760
▁ܕܡܕܝܢܬܐ	-1761
▁ܒܠܚܘܕܘܗܝ	-1762
ܕܬ	-1763
ܙܪ	-1764
ܩܒ	-1765
ܒܗܬ	-1766
ܡܬܗ	-1767
ܤܡܐ	-1768
▁ܒܘ	-1769
▁ܝܠ	-1770
▁ܤܟ	-1771
▁ܥܐ	-1772
ܓܕܘܢ	-1773
ܕܝܢܢ	-1774
ܘܩܝܐ	-1775
ܪܘܗܝ	-1776
▁ܒܕܘ	-1777
▁ܒܩܢ	-1778
▁ܕܒܢ	-1779
▁ܘܕܢ	-1780
▁ܘܠܟ	-1781
▁ܙܕܩ	-1782
▁ܟܕܘ	-1783
▁ܠܒܐ	-1784
▁ܠܓܘ	-1785
▁ܡܬܐ	-1786
▁ܦܩܚ	-1787
▁ܪܗܛ	-1788
ܒܝܘܬܐ	-1789
ܛܝܘܛܐ	-1790
ܩܪܒܝܢ	-1791
ܫܬܗܘܢ	-1792
▁ܐܠܦܐ	-1793
▁ܒܓܠܐ	-1794
▁ܒܤܪܐ	-1795
▁ܒܥܓܠ	-1796
▁ܕܟܝܐ	-1797
▁ܕܡܠܐ	-1798
▁ܘܗܕܐ	-1799
▁ܘܗܘܬ	-1800
▁ܛܘܪܐ	-1801
▁ܟܬܒܬ	-1802
▁ܡܟܪܙ	-1803
▁ܡܨܠܐ	-1804
▁ܥܝܢܐ	-1805
▁ܦܠܚܐ	-1806
ܘܪܠܘܬܐ	-1807
▁ܒܪܥܝܢ	-1808
▁ܕܐܩܝܡ	-1809
▁ܕܗܘܝܘ	-1810
▁ܘܗܠܝܢ	-1811
▁ܘܥܕܡܐ	-1812
▁ܠܡܪܝܐ	-1813
▁ܠܥܡܡܐ	-1814
▁ܢܨܪܝܐ	-1815
▁ܩܪܝܬܐ	-1816
▁ܫܐܠܝܢ	-1817
▁ܐܪܒܥܝܢ	-1818
▁ܒܕܡܘܬܐ	-1819
▁ܕܐܝܟܢܐ	-1820
▁ܕܫܡܥܝܢ	-1821
▁ܝܘܠܦܢܐ	-1822
▁ܟܐܢܘܬܐ	-1823
▁ܡܘܠܟܢܐ	-1824
▁ܥܝܢܘܗܝ	-1825
▁ܒܟܢܘܫܬܐ	-1826
▁ܕܡܬܩܪܝܐ	-1827
▁ܡܐܟܘܠܬܐ	-1828
▁ܥܝܢܝܗܘܢ	-1829
ܝܚ	-1830
ܡܘ	-1831
ܘܬܦ	-1832
ܛܝܢ	-1833
ܛܪܐ	-1834
ܝܒܘ	-1835
ܠܡܗ	-1836
ܡܬܝ	-1837
ܩܘܠ	-1838
ܩܘܤ	-1839
ܩܝܐ	-1840
▁ܐܨ	-1841
▁ܚܒ	-1842
▁ܚܟ	-1843
▁ܬܟ	-1844
ܛܪܝܢ	-1845
ܟܠܝܢ	-1846
ܡܬܘܡ	-1847
ܨܘܦܗ	-1848
ܩܝܦܐ	-1849
ܩܪܨܐ	-1850
▁ܒܚܙ	-1851
▁ܒܦܪ	-1852
▁ܕܕܝ	-1853
▁ܕܛܒ	-1854
▁ܕܥܘ	-1855
▁ܗܦܟ	-1856
▁ܘܡܫ	-1857
▁ܘܬܐ	-1858
▁ܚܠܐ	-1859
▁ܠܡܫ	-1860
▁ܡܠܝ	-1861
▁ܡܫܚ	-1862
▁ܢܬܚ	-1863
▁ܦܪܘ	-1864
▁ܦܫܝ	-1865
ܝܕܥܬܐ	-1866
ܡܢܘܬܐ	-1867
▁ܐܪܙܐ	-1868
▁ܒܡܝܐ	-1869
▁ܒܦܓܪ	-1870
▁ܕܝܘܐ	-1871
▁ܕܢܦܠ	-1872
▁ܕܦܩܕ	-1873
▁ܘܐܬܚ	-1874
▁ܘܝܕܥ	-1875
▁ܘܝܬܒ	-1876
▁ܝܗܒܬ	-1877
▁ܟܐܢܐ	-1878
▁ܟܤܦܐ	-1879
▁ܠܒܢܝ	-1880
▁ܠܘܬܟ	-1881
▁ܠܩܤܪ	-1882
▁ܡܘܕܐ	-1883
▁ܢܥܒܪ	-1884
▁ܐܙܠܝܢ	-1885
▁ܒܐܝܕܝ	-1886
▁ܒܢܘܪܐ	-1887
▁ܒܥܒܕܐ	-1888
▁ܕܚܙܝܬ	-1889
▁ܕܡܘܫܐ	-1890
▁ܕܦܓܪܐ	-1891
▁ܕܬܠܬܐ	-1892
▁ܘܐܪܥܐ	-1893
▁ܚܟܝܡܐ	-1894
▁ܠܗܠܝܢ	-1895
▁ܠܡܠܬܐ	-1896
▁ܤܒܪܝܢ	-1897
▁ܐܒܘܟܘܢ	-1898
▁ܕܚܛܝܬܐ	-1899
▁ܕܝܠܗܘܢ	-1900
▁ܠܓܠܝܠܐ	-1901
▁ܒܢܦܫܗܘܢ	-1902
▁ܦܝܠܝܦܘܤ	-1903
▁ܗܝܡܢܘܬܟܘܢ	-1904
ܒܙ	-1905
ܛܢ	-1906
ܠܢ	-1907
ܒܚܗ	-1908
ܒܪܟ	-1909
ܝܪܝ	-1910
ܟܢܫ	-1911
ܠܗܢ	-1912
ܥܘܪ	-1913
ܦܝܤ	-1914
ܬܪܗ	-1915
▁ܗܒ	-1916
▁ܟܝ	-1917
▁ܢܓ	-1918
▁ܤܘ	-1919
▁ܤܦ	-1920
▁ܬܪ	-1921
▁ܬܫ	-1922
ܒܝܢܗ	-1923
ܕܘܬܐ	-1924
ܘܕܦܐ	-1925
ܛܘܬܐ	-1926
ܝܬܩܐ	-1927
ܡܠܠܘ	-1928
ܤܛܘܤ	-1929
ܪܝܢܢ	-1930
ܪܟܘܢ	-1931
▁ܐܤܛ	-1932
▁ܒܚܛ	-1933
▁ܕܚܠ	-1934
▁ܕܢܨ	-1935
▁ܗܠܟ	-1936
▁ܘܒܢ	-1937
▁ܘܒܨ	-1938
▁ܘܠܘ	-1939
▁ܘܫܩ	-1940
▁ܡܐܐ	-1941
▁ܦܠܚ	-1942
▁ܪܒܢ	-1943
▁ܬܪܢ	-1944
ܘܠܨܢܐ	-1945
ܝܪܘܬܐ	-1946
ܬܝܕܝܢ	-1947
▁ܐܓܪܐ	-1948
▁ܐܫܠܡ	-1949
▁ܒܚܕܐ	-1950
▁ܒܫܡܝ	-1951
▁ܕܐܒܝ	-1952
▁ܕܐܙܠ	-1953
▁ܕܢܬܠ	-1954
▁ܕܬܠܬ	-1955
▁ܗܕܡܐ	-1956
▁ܘܒܢܝ	-1957
▁ܘܚܢܢ	-1958
▁ܘܩܠܐ	-1959
▁ܘܫܬܐ	-1960
▁ܙܩܝܦ	-1961
▁ܠܗܕܐ	-1962
▁ܠܟܠܗ	-1963
▁ܠܠܝܐ	-1964
▁ܠܢܦܫ	-1965
▁ܡܫܕܪ	-1966
▁ܢܤܒܝ	-1967
▁ܢܦܫܐ	-1968
▁ܥܢܢܐ	-1969
▁ܫܡܥܬ	-1970
▁ܐܫܬܟܚ	-1971
▁ܒܒܝܬܐ	-1972
▁ܒܢܘܗܝ	-1973
▁ܒܢܦܫܗ	-1974
▁ܓܠܝܠܐ	-1975
▁ܕܢܐܡܪ	-1976
▁ܕܫܒܬܐ	-1977
▁ܕܫܦܝܪ	-1978
▁ܝܬܝܪܐ	-1979
▁ܡܤܝܒܪ	-1980
▁ܦܬܟܪܐ	-1981
▁ܪܘܪܒܐ	-1982
▁ܐܬܟܢܫܘ	-1983
▁ܕܤܓܝܐܐ	-1984
▁ܕܫܡܥܘܢ	-1985
▁ܠܡܫܝܚܐ	-1986
▁ܠܝܗܘܕܝܐ	-1987
▁ܕܡܗܝܡܢܝܢ	-1988
ܐܪ	-1989
ܒܤ	-1990
ܢܚ	-1991
ܒܢܝ	-1992
ܘܠܦ	-1993
ܘܪܕ	-1994
ܛܘܢ	-1995
ܝܩܪ	-1996
ܟܪܟ	-1997
ܤܬܐ	-1998
ܨܝܢ	-1999
ܫܒܥ	-2000
ܬܚܬ	-2001
▁ܡܕ	-2002
▁ܢܘ	-2003
▁ܥܤ	-2004
ܓܘܢܐ	-2005
ܗܝܪܐ	-2006
ܢܚܘܡ	-2007
ܥܝܢܐ	-2008
ܥܠܕܒ	-2009
ܫܒܝܢ	-2010
ܫܒܬܐ	-2011
ܫܬܝܢ	-2012
▁ܒܕܚ	-2013
▁ܓܢܒ	-2014
▁ܕܡܫ	-2015
▁ܘܪܘ	-2016
▁ܝܪܬ	-2017
▁ܟܠܢ	-2018
▁ܟܦܪ	-2019
▁ܠܐܤ	-2020
▁ܢܬܬ	-2021
▁ܤܐܡ	-2022
▁ܪܕܦ	-2023
▁ܪܝܫ	-2024
ܘܠܦܢܗ	-2025
ܪܝܘܗܝ	-2026
▁ܐܫܬܐ	-2027
▁ܒܒܝܬ	-2028
▁ܕܐܟܠ	-2029
▁ܕܟܬܝ	-2030
▁ܕܡܢܘ	-2031
▁ܕܢܚܬ	-2032
▁ܕܩܤܪ	-2033
▁ܕܪܝܫ	-2034
▁ܗܘܝܘ	-2035
▁ܘܒܪܟ	-2036
▁ܘܕܒܪ	-2037
▁ܘܚܕܐ	-2038
▁ܘܚܝܐ	-2039
▁ܘܟܐܐ	-2040
▁ܘܠܡܢ	-2041
▁ܘܡܢܘ	-2042
▁ܘܡܬܚ	-2043
▁ܘܢܚܬ	-2044
▁ܘܬܡܢ	-2045
▁ܚܝܠܗ	-2046
▁ܠܘܬܢ	-2047
▁ܠܡܕܥ	-2048
▁ܠܡܦܩ	-2049
▁ܥܒܕܬ	-2050
▁ܥܒܪܐ	-2051
▁ܥܤܪܐ	-2052
▁ܪܫܝܢ	-2053
ܬܝܒܘܬܐ	-2054
▁ܐܝܕܝܐ	-2055
▁ܐܬܪܚܡ	-2056
▁ܒܐܝܢܐ	-2057
▁ܒܪܝܬܐ	-2058
▁ܕܘܟܬܐ	-2059
▁ܕܢܥܒܕ	-2060
▁ܕܢܫܠܡ	-2061
▁ܕܥܒܕܐ	-2062
▁ܘܐܡܪܬ	-2063
▁ܘܗܝܡܢ	-2064
▁ܘܢܒܝܐ	-2065
▁ܘܪܘܚܐ	-2066
▁ܚܛܗܝܢ	-2067
▁ܝܡܝܢܐ	-2068
▁ܠܡܫܡܥ	-2069
▁ܫܪܒܬܗ	-2070
▁ܐܪܡܠܬܐ	-2071
▁ܒܟܠܡܕܡ	-2072
▁ܘܝܘܚܢܢ	-2073
▁ܠܡܤܟܢܐ	-2074
▁ܢܐܡܪܘܢ	-2075
▁ܩܕܝܫܬܐ	-2076
▁ܩܘܪܒܢܐ	-2077
▁ܫܡܥܬܘܢ	-2078
▁ܐܚܪܢܝܬܐ	-2079
▁ܕܐܝܤܪܝܠ	-2080
▁ܕܐܬܝܗܒܬ	-2081
▁ܙܕܝܩܘܬܐ	-2082
▁ܩܢܛܪܘܢܐ	-2083
ܩܗ	-2084
ܫܕ	-2085
ܗܒܐ	-2086
ܗܝܒ	-2087
ܝܕܗ	-2088
ܝܕܢ	-2089
ܠܝܬ	-2090
ܪܡܐ	-2091
ܫܡܫ	-2092
▁ܨܐ	-2093
▁ܪܥ	-2094
ܒܥܘܢ	-2095
ܚܕܘܢ	-2096
ܝܗܝܢ	-2097
ܝܟܝܢ	-2098
ܡܠܠܐ	-2099
ܢܘܬܗ	-2100
ܪܝܪܐ	-2101
ܫܒܘܩ	-2102
ܫܘܗܝ	-2103
▁ܐܪܥ	-2104
▁ܒܗܬ	-2105
▁ܓܠܝ	-2106
▁ܕܐܙ	-2107
▁ܕܟܐ	-2108
▁ܕܠܒ	-2109
▁ܘܠܦ	-2110
▁ܘܠܬ	-2111
▁ܚܙܝ	-2112
▁ܚܡܫ	-2113
▁ܝܠܦ	-2114
▁ܠܒܥ	-2115
▁ܡܛܝ	-2116
▁ܡܬܢ	-2117
▁ܥܢܘ	-2118
▁ܫܡܐ	-2119
▁ܫܡܝ	-2120
▁ܬܪܡ	-2121
ܕܡܪܝܢ	-2122
ܗܘܡܝܐ	-2123
ܘܪܕܢܢ	-2124
ܫܐܠܘܢ	-2125
▁ܐܟܪܙ	-2126
▁ܐܠܝܐ	-2127
▁ܐܪܒܥ	-2128
▁ܒܝܘܡ	-2129
▁ܕܐܬܘ	-2130
▁ܕܐܬܬ	-2131
▁ܕܕܠܐ	-2132
▁ܕܩܪܐ	-2133
▁ܘܡܪܢ	-2134
▁ܛܝܒܘ	-2135
▁ܝܗܘܕ	-2136
▁ܠܐܒܝ	-2137
▁ܠܬܡܢ	-2138
▁ܡܠܠܬ	-2139
▁ܡܫܡܫ	-2140
▁ܢܤܒܘ	-2141
▁ܢܫܠܡ	-2142
▁ܫܐܘܠ	-2143
▁ܐܓܪܬܐ	-2144
▁ܐܦܘܗܝ	-2145
▁ܐܫܥܝܐ	-2146
▁ܐܬܝܗܒ	-2147
▁ܐܬܝܠܕ	-2148
▁ܒܒܝܬܗ	-2149
▁ܒܠܫܢܐ	-2150
▁ܕܝܬܝܪ	-2151
▁ܕܡܝܬܐ	-2152
▁ܕܢܦܫܗ	-2153
▁ܘܐܫܠܡ	-2154
▁ܘܚܝܠܐ	-2155
▁ܘܡܟܪܙ	-2156
▁ܘܬܗܘܐ	-2157
▁ܚܙܝܗܝ	-2158
▁ܚܫܘܟܐ	-2159
▁ܠܡܗܘܐ	-2160
▁ܒܝܘܡܬܐ	-2161
▁ܒܟܠܗܘܢ	-2162
▁ܘܐܝܩܪܐ	-2163
▁ܙܢܝܘܬܐ	-2164
▁ܚܙܐܘܗܝ	-2165
▁ܟܠܝܪܟܐ	-2166
▁ܠܐܒܘܗܝ	-2167
▁ܠܚܝܘܬܐ	-2168
▁ܡܥܡܕܢܐ	-2169
▁ܬܕܚܠܘܢ	-2170
▁ܬܪܝܗܘܢ	-2171
▁ܐܟܠܩܪܨܐ	-2172
▁ܒܫܠܡܟܘܢ	-2173
▁ܕܟܐܢܘܬܐ	-2174
▁ܘܐܝܬܘܗܝ	-2175
▁ܛܘܒܝܗܘܢ	-2176
▁ܠܒܘܬܟܘܢ	-2177
▁ܠܥܒܕܘܗܝ	-2178
▁ܬܗܝܡܢܘܢ	-2179
▁ܡܬܛܦܝܤܝܢ	-2180
▁ܐܤܛܪܛܝܘܛܐ	-2181
ܢܩ	-2182
ܒܘܟ	-2183
ܓܘܪ	-2184
ܝܩܐ	-2185
ܩܕܫ	-2186
ܪܝܬ	-2187
ܪܤܐ	-2188
▁ܓܘ	-2189
▁ܛܪ	-2190
ܘܗܪܗ	-2191
ܘܠܝܐ	-2192
ܘܤܝܐ	-2193
ܘܬܒܐ	-2194
ܚܙܝܢ	-2195
ܝܤܚܩ	-2196
ܠܐܬܐ	-2197
ܥܝܬܐ	-2198
ܩܐܝܬ	-2199
ܩܪܒܐ	-2200
ܬܝܬܗ	-2201
▁ܐܘܪ	-2202
▁ܐܬܠ	-2203
▁ܒܡܨ	-2204
▁ܒܪܫ	-2205
▁ܕܒܟ	-2206
▁ܕܒܠ	-2207
▁ܕܡܙ	-2208
▁ܕܢܥ	-2209
▁ܕܤܡ	-2210
▁ܕܩܡ	-2211
▁ܘܒܫ	-2212
▁ܟܢܫ	-2213
▁ܠܕܪ	-2214
▁ܠܗܝ	-2215
▁ܠܦܪ	-2216
▁ܢܬܪ	-2217
▁ܤܢܐ	-2218
▁ܤܥܪ	-2219
▁ܦܘܪ	-2220
▁ܩܠܗ	-2221
▁ܩܡܬ	-2222
▁ܩܤܪ	-2223
▁ܩܫܝ	-2224
▁ܫܢܐ	-2225
▁ܫܥܐ	-2226
▁ܬܬܐ	-2227
ܢܝܟܘܢ	-2228
ܬܝܗܘܢ	-2229
▁ܐܤܝܪ	-2230
▁ܕܗܘܘ	-2231
▁ܕܚܙܘ	-2232
▁ܕܡܢܐ	-2233
▁ܕܢܚܐ	-2234
▁ܕܫܠܝ	-2235
▁ܕܬܘܒ	-2236
▁ܗܟܘܬ	-2237
▁ܗܢܝܢ	-2238
▁ܘܗܘܘ	-2239
▁ܘܗܢܐ	-2240
▁ܘܚܙܘ	-2241
▁ܘܡܢܐ	-2242
▁ܘܩܡܘ	-2243
▁ܘܩܥܐ	-2244
▁ܚܘܒܗ	-2245
▁ܟܬܘܒ	-2246
▁ܠܐܒܐ	-2247
▁ܠܡܤܒ	-2248
▁ܡܚܝܒ	-2249
▁ܡܠܝܢ	-2250
▁ܢܡܘܬ	-2251
▁ܢܦܠܘ	-2252
▁ܢܦܩܬ	-2253
▁ܥܒܕܝ	-2254
▁ܥܢܝܐ	-2255
▁ܥܪܒܐ	-2256
▁ܩܕܡܝ	-2257
ܦܪܢܚܘܡ	-2258
▁ܐܟܠܝܢ	-2259
▁ܐܬܝܕܥ	-2260
▁ܒܗܢܘܢ	-2261
▁ܕܐܫܟܚ	-2262
▁ܕܒܥܝܢ	-2263
▁ܕܕܝܢܐ	-2264
▁ܕܚܝܠܐ	-2265
▁ܕܝܗܒܬ	-2266
▁ܕܝܘܡܐ	-2267
▁ܕܡܠܟܐ	-2268
▁ܕܢܚܙܐ	-2269
▁ܕܢܥܘܠ	-2270
▁ܕܤܛܢܐ	-2271
▁ܕܥܕܬܐ	-2272
▁ܕܫܠܡܐ	-2273
▁ܟܠܝܘܡ	-2274
▁ܠܐܝܟܐ	-2275
▁ܠܐܝܢܐ	-2276
▁ܠܚܡܝܢ	-2277
▁ܡܡܬܘܡ	-2278
▁ܤܝܡܬܐ	-2279
▁ܪܘܚܩܐ	-2280
ܥܡܘܕܝܬܐ	-2281
▁ܒܡܕܒܪܐ	-2282
▁ܒܨܠܘܬܐ	-2283
▁ܕܒܝܫܘܥ	-2284
▁ܕܕܝܬܩܐ	-2285
▁ܕܝܥܩܘܒ	-2286
▁ܕܥܐܠܝܢ	-2287
▁ܕܦܪܝܫܐ	-2288
▁ܕܫܠܝܚܐ	-2289
▁ܠܐܒܪܗܡ	-2290
▁ܠܒܪܢܫܐ	-2291
▁ܠܡܡܠܠܘ	-2292
▁ܠܩܪܝܬܐ	-2293
▁ܦܘܪܩܢܐ	-2294
ܤܝܒܪܢܘܬܐ	-2295
ܩܛܠܘܢܝܗܝ	-2296
▁ܕܚܙܝܬܘܢ	-2297
▁ܠܡܠܟܘܬܐ	-2298
▁ܡܛܠܬܟܘܢ	-2299
ܙܒ	-2300
ܚܕ	-2301
ܤܟ	-2302
ܦܘ	-2303
ܦܛ	-2304
ܦܬ	-2305
ܬܒ	-2306
ܒܕܝ	-2307
ܓܝܐ	-2308
ܓܪܬ	-2309
ܕܢܗ	-2310
ܘܒܗ	-2311
ܙܝܢ	-2312
ܚܢܐ	-2313
ܛܝܒ	-2314
ܛܡܐ	-2315
ܟܘܤ	-2316
ܠܗܝ	-2317
ܠܝܗ	-2318
ܠܥܤ	-2319
ܢܦܐ	-2320
ܤܘܢ	-2321
ܥܝܘ	-2322
ܪܒܥ	-2323
ܫܒܚ	-2324
ܫܒܬ	-2325
ܫܝܓ	-2326
▁ܓܡ	-2327
▁ܡܓ	-2328
▁ܢܩ	-2329
▁ܩܛ	-2330
▁ܫܬ	-2331
ܒܗܬܢ	-2332
ܗܘܡܐ	-2333
ܚܡܝܢ	-2334
ܛܝܬܐ	-2335
ܝܐܝܬ	-2336
ܝܪܘܬ	-2337
ܟܠܢܐ	-2338
ܡܤܘܩ	-2339
ܥܝܪܘ	-2340
ܦܐܪܐ	-2341
ܦܤܘܤ	-2342
ܨܘܗܝ	-2343
ܩܛܘܠ	-2344
ܩܪܘܢ	-2345
ܪܒܬܐ	-2346
ܫܡܫܬ	-2347
ܫܬܘܢ	-2348
▁ܐܚܕ	-2349
▁ܐܚܘ	-2350
▁ܐܬܢ	-2351
▁ܒܕܪ	-2352
▁ܕܒܒ	-2353
▁ܕܕܐ	-2354
▁ܕܚܪ	-2355
▁ܕܡܗ	-2356
▁ܘܒܛ	-2357
▁ܘܒܬ	-2358
▁ܘܫܒ	-2359
▁ܘܬܡ	-2360
▁ܛܘܗ	-2361
▁ܛܝܒ	-2362
▁ܝܘܢ	-2363
▁ܟܘܬ	-2364
▁ܟܢܝ	-2365
▁ܠܐܢ	-2366
▁ܡܤܬ	-2367
▁ܡܫܠ	-2368
▁ܡܬܗ	-2369
▁ܢܕܥ	-2370
▁ܤܦܩ	-2371
▁ܥܡܕ	-2372
▁ܥܡܪ	-2373
▁ܦܠܓ	-2374
▁ܨܠܘ	-2375
▁ܪܓܝ	-2376
▁ܬܢܢ	-2377
▁ܬܬܚ	-2378
ܓܘܫܝܐ	-2379
ܕܪܐܘܤ	-2380
ܗܤܛܘܤ	-2381
ܘܩܕܢܐ	-2382
ܤܝܘܢܐ	-2383
ܥܒܕܝܢ	-2384
ܫܡܝܬܐ	-2385
ܫܬܟܘܢ	-2386
▁ܐܢܬܝ	-2387
▁ܐܫܬܡ	-2388
▁ܒܕܡܐ	-2389
▁ܒܙܒܢ	-2390
▁ܒܠܒܗ	-2391
▁ܒܡܕܡ	-2392
▁ܒܥܠܗ	-2393
▁ܕܗܕܐ	-2394
▁ܕܗܘܬ	-2395
▁ܕܙܪܥ	-2396
▁ܕܚܕܐ	-2397
▁ܕܚܠܬ	-2398
▁ܕܢܛܪ	-2399
▁ܕܥܡܝ	-2400
▁ܕܩܪܝ	-2401
▁ܕܬܡܢ	-2402
▁ܘܕܡܐ	-2403
▁ܘܩܛܠ	-2404
▁ܘܪܗܛ	-2405
▁ܚܒܠܐ	-2406
▁ܝܘܢܐ	-2407
▁ܝܪܬܐ	-2408
▁ܟܪܡܐ	-2409
▁ܠܡܬܠ	-2410
▁ܠܤܗܕ	-2411
▁ܡܟܝܟ	-2412
▁ܡܫܒܚ	-2413
▁ܢܦܠܬ	-2414
▁ܥܩܪܐ	-2415
▁ܦܓܪܝ	-2416
▁ܦܘܡܐ	-2417
▁ܩܝܡܐ	-2418
▁ܩܢܝܢ	-2419
▁ܩܪܝܐ	-2420
▁ܪܡܫܐ	-2421
▁ܫܒܛܐ	-2422
▁ܐܫܟܚܬ	-2423
▁ܐܫܬܠܡ	-2424
▁ܓܒܪܝܢ	-2425
▁ܕܐܡܪܬ	-2426
▁ܕܟܠܢܫ	-2427
▁ܕܢܫܡܥ	-2428
▁ܕܨܒܝܢ	-2429
▁ܕܬܪܝܢ	-2430
▁ܘܐܠܗܐ	-2431
▁ܘܐܦܠܐ	-2432
▁ܘܐܪܝܡ	-2433
▁ܘܓܒܪܐ	-2434
▁ܘܠܐܡܗ	-2435
▁ܘܫܕܪܘ	-2436
▁ܘܫܡܥܘ	-2437
▁ܘܫܪܝܘ	-2438
▁ܚܠܦܝܢ	-2439
▁ܟܠܝܠܐ	-2440
▁ܠܐܠܦܐ	-2441
▁ܠܡܚܙܐ	-2442
▁ܠܥܒܪܐ	-2443
▁ܠܪܘܚܐ	-2444
▁ܡܫܪܝܐ	-2445
▁ܢܚܙܘܢ	-2446
▁ܢܬܩܪܐ	-2447
▁ܩܕܡܝܟ	-2448
ܢܘܫܬܗܘܢ	-2449
▁ܐܦܝܟܘܢ	-2450
▁ܒܕܚܠܬܐ	-2451
▁ܕܡܠܐܟܐ	-2452
▁ܕܥܡܪܝܢ	-2453
▁ܕܦܘܠܘܤ	-2454
▁ܗܓܡܘܢܐ	-2455
▁ܘܐܩܝܡܗ	-2456
▁ܘܐܪܡܝܘ	-2457
▁ܘܐܬܚܙܝ	-2458
▁ܘܐܬܦܢܝ	-2459
▁ܠܝܘܚܢܢ	-2460
▁ܢܘܟܪܝܐ	-2461
▁ܥܒܝܕܝܢ	-2462
▁ܬܪܢܓܠܐ	-2463
▁ܘܠܝܘܚܢܢ	-2464
▁ܘܫܐܠܘܗܝ	-2465
▁ܠܟܢܘܫܬܐ	-2466
ܝܦ	-2467
ܟܒ	-2468
ܪܩ	-2469
ܫܛ	-2470
ܒܫܐ	-2471
ܓܕܦ	-2472
ܕܝܘ	-2473
ܕܟܐ	-2474
ܘܪܤ	-2475
ܙܝܥ	-2476
ܚܘܕ	-2477
ܝܕܝ	-2478
ܝܬܪ	-2479
ܟܬܒ	-2480
ܪܘܩ	-2481
ܫܠܐ	-2482
▁ܐܒ	-2483
▁ܐܥ	-2484
▁ܙܒ	-2485
▁ܠܕ	-2486
▁ܦܤ	-2487
▁ܩܢ	-2488
▁ܬܛ	-2489
▁ܬܩ	-2490
ܒܕܢܐ	-2491
ܕܡܪܘ	-2492
ܘܠܬܗ	-2493
ܚܘܡܐ	-2494
ܟܝܟܐ	-2495
ܦܠܚܐ	-2496
ܩܘܘܢ	-2497
ܬܘܬܐ	-2498
▁ܐܟܤ	-2499
▁ܒܝܡ	-2500
▁ܒܡܪ	-2501
▁ܒܩܘ	-2502
▁ܕܐܒ	-2503
▁ܕܩܘ	-2504
▁ܕܪܥ	-2505
▁ܘܚܘ	-2506
▁ܘܪܓ	-2507
▁ܚܛܐ	-2508
▁ܚܦܝ	-2509
▁ܛܘܒ	-2510
▁ܡܬܒ	-2511
▁ܥܘܠ	-2512
▁ܨܒܘ	-2513
▁ܩܪܝ	-2514
▁ܪܕܘ	-2515
▁ܬܒܘ	-2516
▁ܬܪܝ	-2517
ܓܝܓܬܐ	-2518
ܘܢܟܘܢ	-2519
ܪܝܘܛܐ	-2520
ܪܬܗܘܢ	-2521
ܫܐܠܝܢ	-2522
▁ܐܬܝܐ	-2523
▁ܒܟܝܐ	-2524
▁ܓܠܝܐ	-2525
▁ܓܢܒܐ	-2526
▁ܕܘܟܐ	-2527
▁ܕܠܘܬ	-2528
▁ܕܡܠܠ	-2529
▁ܕܡܢܗ	-2530
▁ܕܥܠܝ	-2531
▁ܘܐܤܬ	-2532
▁ܘܒܝܬ	-2533
▁ܘܨܒܐ	-2534
▁ܘܫܐܠ	-2535
▁ܙܪܥܗ	-2536
▁ܚܘܪܐ	-2537
▁ܝܪܚܐ	-2538
▁ܟܘܒܐ	-2539
▁ܠܐܡܗ	-2540
▁ܠܒܪܐ	-2541
▁ܠܡܥܠ	-2542
▁ܠܡܩܡ	-2543
▁ܡܨܝܕ	-2544
▁ܡܪܬܐ	-2545
▁ܢܘܒܕ	-2546
▁ܢܘܢܐ	-2547
▁ܤܢܝܩ	-2548
▁ܨܝܕܐ	-2549
▁ܨܦܪܐ	-2550
▁ܩܒܪܐ	-2551
▁ܩܪܒܐ	-2552
▁ܪܕܝܢ	-2553
▁ܪܚܝܩ	-2554
▁ܒܥܕܬܐ	-2555
▁ܒܫܪܪܐ	-2556
▁ܕܐܝܬܝ	-2557
▁ܕܐܫܠܡ	-2558
▁ܕܒܗܘܢ	-2559
▁ܕܒܝܫܐ	-2560
▁ܕܬܚܝܬ	-2561
▁ܘܟܢܫܐ	-2562
▁ܘܬܪܝܢ	-2563
▁ܠܒܗܘܢ	-2564
▁ܠܕܝܢܐ	-2565
▁ܠܥܒܕܐ	-2566
▁ܡܫܬܠܡ	-2567
▁ܢܫܬܒܩ	-2568
▁ܤܒܪܬܐ	-2569
▁ܤܗܕܝܢ	-2570
▁ܨܒܘܬܐ	-2571
▁ܪܫܝܬܐ	-2572
▁ܬܚܙܘܢ	-2573
▁ܬܢܝܢܐ	-2574
ܝܬܘܢܝܗܝ	-2575
▁ܒܫܘܒܚܐ	-2576
▁ܕܗܪܘܕܤ	-2577
▁ܕܚܝܘܬܐ	-2578
▁ܕܝܘܡܢܐ	-2579
▁ܕܝܡܝܢܐ	-2580
▁ܕܝܬܒܝܢ	-2581
▁ܕܢܬܡܠܐ	-2582
▁ܘܢܗܘܘܢ	-2583
▁ܠܢܡܘܤܐ	-2584
▁ܠܬܪܥܤܪ	-2585
▁ܤܝܒܪܬܐ	-2586
▁ܬܥܒܕܘܢ	-2587
▁ܐܝܕܝܗܘܢ	-2588
▁ܒܛܝܒܘܬܐ	-2589
▁ܒܤܦܝܢܬܐ	-2590
▁ܕܡܠܟܘܬܐ	-2591
▁ܕܫܡܥܬܘܢ	-2592
▁ܠܬܝܒܘܬܐ	-2593
▁ܡܓܕܠܝܬܐ	-2594
▁ܡܠܐܟܘܗܝ	-2595
▁ܤܟܪܝܘܛܐ	-2596
▁ܘܐܝܬܝܘܗܝ	-2597
▁ܦܘܩܕܢܘܗܝ	-2598
▁ܕܐܘܢܓܠܝܘܢ	-2599
▁ܘܬܠܡܝܕܘܗܝ	-2600
ܚܬ	-2601
ܕܘܡ	-2602
ܕܝܗ	-2603
ܕܬܗ	-2604
ܗܒܘ	-2605
ܘܚܪ	-2606
ܘܪܒ	-2607
ܙܟܐ	-2608
ܙܢܐ	-2609
ܚܢܢ	-2610
ܝܪܢ	-2611
ܝܬܒ	-2612
ܤܝܘ	-2613
ܦܪܫ	-2614
ܦܫܛ	-2615
▁ܟܟ	-2616
▁ܥܘ	-2617
ܒܘܫܐ	-2618
ܒܪܘܢ	-2619
ܕܡܝܢ	-2620
ܙܕܩܦ	-2621
ܚܘܗܝ	-2622
ܝܕܝܟ	-2623
ܝܠܬܐ	-2624
ܟܐܝܐ	-2625
ܠܝܘܤ	-2626
ܡܠܝܐ	-2627
ܢܝܗܝ	-2628
ܢܝܩܐ	-2629
ܥܪܝܢ	-2630
ܪܝܘܤ	-2631
ܫܝܥܐ	-2632
ܫܠܬܐ	-2633
▁ܐܠܨ	-2634
▁ܐܦܤ	-2635
▁ܐܨܛ	-2636
▁ܐܬܒ	-2637
▁ܐܬܓ	-2638
▁ܒܝܫ	-2639
▁ܒܢܐ	-2640
▁ܓܠܐ	-2641
▁ܕܚܐ	-2642
▁ܕܢܟ	-2643
▁ܕܢܪ	-2644
▁ܗܒܘ	-2645
▁ܘܒܕ	-2646
▁ܘܒܙ	-2647
▁ܘܒܟ	-2648
▁ܘܠܫ	-2649
▁ܘܬܬ	-2650
▁ܚܕܘ	-2651
▁ܝܨܦ	-2652
▁ܟܪܤ	-2653
▁ܠܢܦ	-2654
▁ܡܟܐ	-2655
▁ܡܡܪ	-2656
▁ܥܠܘ	-2657
▁ܩܝܡ	-2658
▁ܩܡܘ	-2659
▁ܫܒܝ	-2660
▁ܬܫܒ	-2661
ܕܝܢܘܤ	-2662
ܕܝܢܬܗ	-2663
ܕܡܪܬܐ	-2664
ܝܬܟܘܢ	-2665
ܩܘܒܠܐ	-2666
ܫܟܚܘܢ	-2667
ܬܝܗܝܢ	-2668
▁ܐܘܕܥ	-2669
▁ܐܤܝܐ	-2670
▁ܓܒܝܐ	-2671
▁ܕܐܬܪ	-2672
▁ܕܒܚܐ	-2673
▁ܕܒܤܪ	-2674
▁ܕܤܠܩ	-2675
▁ܕܤܢܐ	-2676
▁ܕܥܒܪ	-2677
▁ܘܐܒܝ	-2678
▁ܘܐܠܐ	-2679
▁ܘܐܢܫ	-2680
▁ܘܐܬܠ	-2681
▁ܘܡܠܐ	-2682
▁ܘܩܨܐ	-2683
▁ܘܫܠܝ	-2684
▁ܙܒܕܝ	-2685
▁ܙܥܘܪ	-2686
▁ܚܐܪܐ	-2687
▁ܚܤܡܐ	-2688
▁ܟܘܪܤ	-2689
▁ܟܪܝܗ	-2690
▁ܠܡܡܬ	-2691
▁ܠܡܪܗ	-2692
▁ܠܡܫܬ	-2693
▁ܡܛܪܐ	-2694
▁ܡܝܬܬ	-2695
▁ܡܥܡܕ	-2696
▁ܡܬܘܡ	-2697
▁ܢܚܙܐ	-2698
▁ܤܠܩܘ	-2699
▁ܥܝܢܟ	-2700
▁ܩܥܝܢ	-2701
▁ܫܒܘܩ	-2702
▁ܫܘܥܐ	-2703
▁ܫܠܝܐ	-2704
▁ܬܕܚܠ	-2705
▁ܐܝܬܝܢ	-2706
▁ܐܡܝܢܐ	-2707
▁ܐܬܦܬܚ	-2708
▁ܒܙܒܢܐ	-2709
▁ܒܚܙܘܐ	-2710
▁ܒܡܪܝܐ	-2711
▁ܒܥܡܡܐ	-2712
▁ܒܪܢܒܐ	-2713
▁ܒܫܘܩܐ	-2714
▁ܒܬܪܟܢ	-2715
▁ܕܐܬܝܢ	-2716
▁ܕܐܬܝܬ	-2717
▁ܕܝܗܘܕ	-2718
▁ܕܝܬܩܐ	-2719
▁ܕܢܡܠܠ	-2720
▁ܕܢܫܪܐ	-2721
▁ܕܥܘܠܐ	-2722
▁ܕܩܪܝܢ	-2723
▁ܕܫܒܥܐ	-2724
▁ܘܐܡܝܢ	-2725
▁ܘܕܚܠܘ	-2726
▁ܘܡܪܝܡ	-2727
▁ܘܥܒܕܘ	-2728
▁ܘܫܐܠܗ	-2729
▁ܘܫܩܠܘ	-2730
▁ܘܫܬܝܢ	-2731
▁ܝܕܝܥܐ	-2732
▁ܝܕܥܬܐ	-2733
▁ܠܚܪܬܐ	-2734
▁ܠܡܐܬܐ	-2735
▁ܠܡܩܛܠ	-2736
▁ܠܢܦܫܗ	-2737
▁ܡܕܒܚܐ	-2738
▁ܡܘܕܝܢ	-2739
▁ܡܙܕܕܩ	-2740
▁ܡܚܘܬܐ	-2741
▁ܡܢܗܝܢ	-2742
▁ܡܬܒܥܐ	-2743
▁ܥܘܬܪܐ	-2744
▁ܥܠܝܡܐ	-2745
▁ܫܒܘܩܘ	-2746
▁ܐܚܝܕܝܢ	-2747
▁ܐܚܪܢܝܢ	-2748
▁ܒܐܝܠܝܢ	-2749
▁ܒܕܘܟܬܐ	-2750
▁ܒܚܫܘܟܐ	-2751
▁ܒܠܒܗܘܢ	-2752
▁ܕܗܝܟܠܐ	-2753
▁ܕܝܗܘܕܐ	-2754
▁ܕܢܐܬܘܢ	-2755
▁ܕܢܚܙܘܢ	-2756
▁ܘܝܕܥܝܢ	-2757
▁ܘܝܥܩܘܒ	-2758
▁ܘܫܡܥܘܢ	-2759
▁ܠܐܢܬܬܐ	-2760
▁ܠܕܘܟܬܐ	-2761
▁ܠܚܛܝܬܐ	-2762
▁ܡܫܠܡܢܐ	-2763
▁ܦܪܨܘܦܗ	-2764
▁ܒܐܝܕܘܗܝ	-2765
▁ܒܢܦܫܟܘܢ	-2766
▁ܕܢܐܙܠܘܢ	-2767
▁ܚܠܦܝܟܘܢ	-2768
▁ܠܬܠܡܝܕܐ	-2769
▁ܡܩܕܘܢܝܐ	-2770
▁ܡܬܚܫܒܝܢ	-2771
▁ܪܓܠܝܗܘܢ	-2772
▁ܘܬܫܒܘܚܬܐ	-2773
▁ܠܡܩܕܘܢܝܐ	-2774
▁ܡܥܡܘܕܝܬܐ	-2775
ܒܫ	-2776
ܘܨ	-2777
ܟܫ	-2778
ܡܫ	-2779
ܥܗ	-2780
ܪܪ	-2781
ܓܙܗ	-2782
ܕܪܟ	-2783
ܘܪܘ	-2784
ܚܘܟ	-2785
ܛܝܟ	-2786
ܝܢܗ	-2787
ܝܬܟ	-2788
ܠܘܚ	-2789
ܢܝܚ	-2790
ܦܫܩ	-2791
ܨܝܐ	-2792
ܪܝܤ	-2793
▁ܙܟ	-2794
▁ܟܦ	-2795
▁ܤܝ	-2796
▁ܬܦ	-2797
ܒܪܬܗ	-2798
ܓܝܪܐ	-2799
ܘܕܝܐ	-2800
ܘܢܝܢ	-2801
ܚܪܢܐ	-2802
ܟܘܢܐ	-2803
ܟܪܙܘ	-2804
ܠܘܕܐ	-2805
ܠܦܘܢ	-2806
ܡܘܪܐ	-2807
ܥܪܢܐ	-2808
ܦܠܓܗ	-2809
ܦܢܘܢ	-2810
ܪܘܬܐ	-2811
ܬܝܕܥ	-2812
ܬܝܬܐ	-2813
ܬܪܝܢ	-2814
▁ܐܦܐ	-2815
▁ܒܡܢ	-2816
▁ܒܪܟ	-2817
▁ܓܒܐ	-2818
▁ܕܒܕ	-2819
▁ܕܟܤ	-2820
▁ܕܠܢ	-2821
▁ܕܦܩ	-2822
▁ܕܫܪ	-2823
▁ܕܬܫ	-2824
▁ܗܕܡ	-2825
▁ܘܐܫ	-2826
▁ܘܒܥ	-2827
▁ܘܕܪ	-2828
▁ܘܟܢ	-2829
▁ܘܠܤ	-2830
▁ܘܡܛ	-2831
▁ܘܩܘ	-2832
▁ܘܬܫ	-2833
▁ܚܘܐ	-2834
▁ܛܠܝ	-2835
▁ܝܘܬ	-2836
▁ܟܒܪ	-2837
▁ܟܬܝ	-2838
▁ܠܡܙ	-2839
▁ܡܚܘ	-2840
▁ܡܫܘ	-2841
▁ܡܫܝ	-2842
▁ܥܓܠ	-2843
▁ܩܠܝ	-2844
▁ܪܘܪ	-2845
▁ܫܡܟ	-2846
ܒܝܘܗܝ	-2847
ܕܘܩܝܐ	-2848
ܘܩܠܬܐ	-2849
ܙܘܪܬܐ	-2850
ܩܘܡܘܢ	-2851
ܩܝܡܬܐ	-2852
ܩܦܘܗܝ	-2853
ܫܒܚܝܢ	-2854
▁ܐܙܠܐ	-2855
▁ܐܝܕܟ	-2856
▁ܐܝܟܘ	-2857
▁ܐܬܕܟ	-2858
▁ܐܬܩܪ	-2859
▁ܒܡܠܐ	-2860
▁ܒܤܝܡ	-2861
▁ܒܫܒܐ	-2862
▁ܕܒܝܕ	-2863
▁ܕܒܪܐ	-2864
▁ܕܚܝܠ	-2865
▁ܕܟܡܐ	-2866
▁ܕܟܪܝ	-2867
▁ܕܡܚܒ	-2868
▁ܕܩܪܒ	-2869
▁ܕܫܒܩ	-2870
▁ܕܫܪܐ	-2871
▁ܗܘܝܐ	-2872
▁ܘܐܤܝ	-2873
▁ܘܐܤܪ	-2874
▁ܘܐܬܡ	-2875
▁ܘܒܥܘ	-2876
▁ܘܒܪܗ	-2877
▁ܘܥܒܪ	-2878
▁ܚܝܝܢ	-2879
▁ܛܢܦܐ	-2880
▁ܝܕܥܐ	-2881
▁ܝܗܝܒ	-2882
▁ܝܠܕܐ	-2883
▁ܠܐܘܪ	-2884
▁ܠܐܚܐ	-2885
▁ܠܐܬܪ	-2886
▁ܠܩܕܡ	-2887
▁ܠܩܘܒ	-2888
▁ܡܢܝܢ	-2889
▁ܡܢܬܐ	-2890
▁ܡܤܬܟ	-2891
▁ܡܦܝܤ	-2892
▁ܤܡܟܐ	-2893
▁ܥܕܠܐ	-2894
▁ܨܒܘܬ	-2895
▁ܩܒܠܘ	-2896
▁ܩܘܡܘ	-2897
▁ܩܪܒܬ	-2898
▁ܩܪܝܒ	-2899
▁ܩܪܩܦ	-2900
▁ܪܡܝܢ	-2901
▁ܪܥܝܐ	-2902
▁ܫܕܪܬ	-2903
▁ܬܥܒܕ	-2904
▁ܐܝܩܪܐ	-2905
▁ܐܡܪܢܐ	-2906
▁ܐܪܒܥܐ	-2907
▁ܒܐܬܪܐ	-2908
▁ܒܪܫܝܬ	-2909
▁ܕܐܚܝܕ	-2910
▁ܕܐܤܗܕ	-2911
▁ܕܐܥܒܕ	-2912
▁ܕܒܤܡܐ	-2913
▁ܕܗܘܝܢ	-2914
▁ܕܚܛܗܐ	-2915
▁ܕܟܬܒܐ	-2916
▁ܕܠܠܝܐ	-2917
▁ܕܡܝܬܪ	-2918
▁ܕܡܤܒܪ	-2919
▁ܕܢܤܝܡ	-2920
▁ܕܩܠܝܠ	-2921
▁ܘܐܪܡܝ	-2922
▁ܘܚܘܒܐ	-2923
▁ܘܡܠܟܐ	-2924
▁ܘܡܡܠܠ	-2925
▁ܘܢܐܡܪ	-2926
▁ܘܢܩܝܡ	-2927
▁ܘܥܠܡܐ	-2928
▁ܙܩܝܦܗ	-2929
▁ܚܢܢܝܐ	-2930
▁ܠܒܟܘܢ	-2931
▁ܠܛܠܝܐ	-2932
▁ܠܥܒܕܗ	-2933
▁ܡܛܠܬܗ	-2934
▁ܡܛܠܬܝ	-2935
▁ܡܠܘܗܝ	-2936
▁ܡܬܕܝܢ	-2937
▁ܡܬܚܒܠ	-2938
▁ܦܠܚܝܢ	-2939
▁ܦܬܘܪܐ	-2940
▁ܨܝܡܝܢ	-2941
▁ܩܘܪܝܐ	-2942
▁ܩܘܫܬܐ	-2943
▁ܪܘܓܙܐ	-2944
▁ܫܘܬܦܐ	-2945
▁ܫܡܪܝܐ	-2946
▁ܬܐܪܬܐ	-2947
▁ܒܚܕܘܬܐ	-2948
▁ܒܡܨܥܬܐ	-2949
▁ܒܨܒܝܢܗ	-2950
▁ܒܩܘܫܬܐ	-2951
▁ܓܠܝܠܝܐ	-2952
▁ܕܐܒܘܗܝ	-2953
▁ܕܐܟܠܝܢ	-2954
▁ܕܒܪܢܫܐ	-2955
▁ܕܕܚܠܝܢ	-2956
▁ܕܗܝܡܢܘ	-2957
▁ܕܟܬܝܒܢ	-2958
▁ܕܥܒܕܝܢ	-2959
▁ܕܫܘܒܚܗ	-2960
▁ܘܐܢܬܬܐ	-2961
▁ܘܬܗܘܘܢ	-2962
▁ܚܝܒܝܢܢ	-2963
▁ܟܢܝܫܝܢ	-2964
▁ܠܝܥܩܘܒ	-2965
▁ܠܩܤܪܝܐ	-2966
▁ܠܫܠܝܚܐ	-2967
▁ܡܓܕܦܝܢ	-2968
▁ܡܚܫܒܬܐ	-2969
▁ܡܠܐܟܝܢ	-2970
▁ܡܬܪܥܝܢ	-2971
▁ܢܡܠܠܘܢ	-2972
▁ܩܪܝܬܘܢ	-2973
▁ܫܬܐܤܬܐ	-2974
▁ܬܐܡܪܘܢ	-2975
▁ܒܝܘܠܦܢܗ	-2976
▁ܕܛܝܒܘܬܗ	-2977
▁ܕܠܘܬܟܘܢ	-2978
▁ܕܩܒܠܬܘܢ	-2979
▁ܕܬܫܡܫܬܐ	-2980
▁ܠܤܦܝܢܬܐ	-2981
▁ܥܘܪܠܘܬܐ	-2982
▁ܬܪܬܥܤܪܐ	-2983
▁ܒܐܝܕܝܗܘܢ	-2984
▁ܒܩܢܕܝܢܘܤ	-2985
▁ܕܬܫܒܘܚܬܗ	-2986
▁ܠܟܦܪܢܚܘܡ	-2987
ܗܢ	-2988
ܦܨ	-2989
ܒܝܗ	-2990
ܒܝܟ	-2991
ܒܥܘ	-2992
ܓܕܘ	-2993
ܕܟܝ	-2994
ܕܠܐ	-2995
ܗܕܐ	-2996
ܘܠܘ	-2997
ܘܠܨ	-2998
ܘܪܝ	-2999
ܛܠܗ	-3000
ܛܪܓ	-3001
ܛܬܐ	-3002
ܟܝܟ	-3003
ܟܡܐ	-3004
ܟܫܐ	-3005
ܡܐܐ	-3006
ܡܚܐ	-3007
ܡܪܬ	-3008
ܥܕܪ	-3009
ܦܝܐ	-3010
ܩܕܡ	-3011
ܪܘܥ	-3012
ܪܝܩ	-3013
ܬܠܐ	-3014
▁ܬܡ	-3015
ܒܚܝܢ	-3016
ܒܝܫܐ	-3017
ܒܩܢܐ	-3018
ܒܪܝܐ	-3019
ܓܕܝܢ	-3020
ܘܟܪܐ	-3021
ܛܪܘܢ	-3022
ܝܕܝܐ	-3023
ܝܡܢܐ	-3024
ܠܝܗܝ	-3025
ܠܟܤܢ	-3026
ܡܥܝܢ	-3027
ܨܦܘܢ	-3028
ܩܪܝܢ	-3029
ܪܝܒܟ	-3030
ܪܡܝܐ	-3031
ܫܘܠܐ	-3032
ܬܝܪܐ	-3033
ܬܪܘܢ	-3034
▁ܐܙܕ	-3035
▁ܒܩܪ	-3036
▁ܘܐܪ	-3037
▁ܘܒܒ	-3038
▁ܘܒܠ	-3039
▁ܘܒܤ	-3040
▁ܘܒܦ	-3041
▁ܘܕܩ	-3042
▁ܘܙܠ	-3043
▁ܘܠܚ	-3044
▁ܘܥܕ	-3045
▁ܘܪܒ	-3046
▁ܚܪܝ	-3047
▁ܚܫܘ	-3048
▁ܛܠܡ	-3049
▁ܟܐܦ	-3050
▁ܠܚܡ	-3051
▁ܠܚܤ	-3052
▁ܠܫܐ	-3053
▁ܡܩܒ	-3054
▁ܡܩܘ	-3055
▁ܢܚܫ	-3056
▁ܤܒܘ	-3057
▁ܤܡܬ	-3058
▁ܨܠܝ	-3059
▁ܫܒܚ	-3060
▁ܫܘܚ	-3061
▁ܫܢܝ	-3062
▁ܫܪܘ	-3063
▁ܬܦܠ	-3064
ܗܦܟܘܢ	-3065
ܘܗܒܬܐ	-3066
ܘܠܚܢܐ	-3067
ܘܪܒܢܐ	-3068
ܘܪܗܢܐ	-3069
ܘܪܟܬܐ	-3070
ܘܪܤܝܐ	-3071
ܛܝܘܟܝ	-3072
ܛܝܟܝܐ	-3073
ܝܠܝܢܢ	-3074
ܩܒܠܝܢ	-3075
ܩܪܒܘܢ	-3076
ܫܡܫܬܗ	-3077
▁ܐܗܘܐ	-3078
▁ܐܘܠܨ	-3079
▁ܐܠܗܗ	-3080
▁ܐܥܡܕ	-3081
▁ܐܫܝܓ	-3082
▁ܐܬܟܪ	-3083
▁ܐܬܠܒ	-3084
▁ܒܛܝܠ	-3085
▁ܒܝܢܝ	-3086
▁ܒܢܝܗ	-3087
▁ܒܪܝܐ	-3088
▁ܒܫܡܐ	-3089
▁ܕܐܚܐ	-3090
▁ܕܐܠܘ	-3091
▁ܕܐܤܬ	-3092
▁ܕܕܐܢ	-3093
▁ܕܕܡܐ	-3094
▁ܕܗܒܐ	-3095
▁ܕܗܫܐ	-3096
▁ܕܚܠܘ	-3097
▁ܕܚܠܦ	-3098
▁ܕܝܢܗ	-3099
▁ܕܟܤܐ	-3100
▁ܕܟܪܐ	-3101
▁ܕܠܥܠ	-3102
▁ܕܤܗܕ	-3103
▁ܕܦܓܪ	-3104
▁ܕܫܩܠ	-3105
▁ܕܬܫܬ	-3106
▁ܘܐܟܠ	-3107
▁ܘܗܠܟ	-3108
▁ܘܡܬܟ	-3109
▁ܘܤܒܪ	-3110
▁ܘܤܡܘ	-3111
▁ܚܛܗܝ	-3112
▁ܚܪܒܐ	-3113
▁ܚܪܫܐ	-3114
▁ܟܦܢܐ	-3115
▁ܠܒܝܫ	-3116
▁ܠܥܝܢ	-3117
▁ܡܒܪܟ	-3118
▁ܡܘܕܥ	-3119
▁ܡܘܡܐ	-3120
▁ܡܚܘܐ	-3121
▁ܡܚܫܒ	-3122
▁ܡܠܠܘ	-3123
▁ܡܡܪܚ	-3124
▁ܡܤܝܒ	-3125
▁ܡܫܐܠ	-3126
▁ܢܐܒܕ	-3127
▁ܢܗܠܟ	-3128
▁ܢܚܬܐ	-3129
▁ܢܛܪܬ	-3130
▁ܢܟܠܐ	-3131
▁ܢܥܘܠ	-3132
▁ܢܦܩܢ	-3133
▁ܢܨܪܬ	-3134
▁ܢܩܒܠ	-3135
▁ܥܝܕܐ	-3136
▁ܥܝܠܐ	-3137
▁ܥܪܤܟ	-3138
▁ܦܥܠܐ	-3139
▁ܨܐܕܝ	-3140
▁ܩܘܪܢ	-3141
▁ܩܝܤܐ	-3142
▁ܩܪܨܐ	-3143
▁ܩܫܝܐ	-3144
▁ܪܘܚܝ	-3145
▁ܫܒܩܘ	-3146
▁ܫܒܬܐ	-3147
▁ܬܐܬܐ	-3148
▁ܬܘܪܐ	-3149
ܕܝܫܘܬܐ	-3150
▁ܐܝܡܡܐ	-3151
▁ܐܢܬܝܢ	-3152
▁ܐܫܟܚܢ	-3153
▁ܐܬܩܪܝ	-3154
▁ܒܕܝܢܐ	-3155
▁ܒܟܐܦܐ	-3156
▁ܓܙܪܬܐ	-3157
▁ܕܐܠܗܢ	-3158
▁ܕܒܒܤܪ	-3159
▁ܕܒܚܬܐ	-3160
▁ܕܒܟܠܗ	-3161
▁ܕܒܢܝܐ	-3162
▁ܕܚܠܝܢ	-3163
▁ܕܝܘܢܐ	-3164
▁ܕܟܐܦܐ	-3165
▁ܕܟܝܬܐ	-3166
▁ܕܠܐܢܫ	-3167
▁ܕܡܟܝܢ	-3168
▁ܕܢܘܒܕ	-3169
▁ܕܢܚܬܐ	-3170
▁ܕܤܥܪܐ	-3171
▁ܕܫܡܥܬ	-3172
▁ܘܐܝܟܐ	-3173
▁ܘܒܗܕܐ	-3174
▁ܘܗܘܝܘ	-3175
▁ܘܗܦܟܘ	-3176
▁ܘܡܫܐܠ	-3177
▁ܘܥܒܕܐ	-3178
▁ܘܨܒܝܢ	-3179
▁ܘܩܥܝܢ	-3180
▁ܘܪܕܝܢ	-3181
▁ܚܘܪܒܐ	-3182
▁ܚܪܝܢܐ	-3183
▁ܛܠܝܬܐ	-3184
▁ܝܠܘܕܐ	-3185
▁ܝܡܝܢܝ	-3186
▁ܟܘܟܒܐ	-3187
▁ܠܚܛܝܐ	-3188
▁ܠܡܐܙܠ	-3189
▁ܠܬܪܝܢ	-3190
▁ܡܝܬܝܢ	-3191
▁ܡܟܫܠܐ	-3192
▁ܡܠܐܟܗ	-3193
▁ܡܢܤܝܢ	-3194
▁ܡܤܟܢܐ	-3195
▁ܢܘܗܪܗ	-3196
▁ܢܤܒܝܢ	-3197
▁ܢܥܠܘܢ	-3198
▁ܢܬܒܛܠ	-3199
▁ܤܒܪܬܗ	-3200
▁ܤܘܓܐܐ	-3201
▁ܥܗܕܝܢ	-3202
▁ܥܬܝܩܐ	-3203
▁ܩܘܕܫܐ	-3204
▁ܐܓܪܦܘܤ	-3205
▁ܐܝܕܘܗܝ	-3206
▁ܐܟܤܢܝܐ	-3207
▁ܐܬܛܦܝܤ	-3208
▁ܐܬܡܠܝܘ	-3209
▁ܒܚܘܪܒܐ	-3210
▁ܒܝܕܥܬܐ	-3211
▁ܒܡܘܡܬܐ	-3212
▁ܓܠܝܐܝܬ	-3213
▁ܕܐܙܠܝܢ	-3214
▁ܕܐܬܩܪܝ	-3215
▁ܕܚܫܘܟܐ	-3216
▁ܕܩܘܫܬܐ	-3217
▁ܕܫܪܝܪܐ	-3218
▁ܘܐܚܪܝܢ	-3219
▁ܘܐܝܬܝܗ	-3220
▁ܘܐܪܒܥܐ	-3221
▁ܘܫܪܝܪܐ	-3222
▁ܠܐܢܬܬܗ	-3223
▁ܠܡܨܠܝܘ	-3224
▁ܡܤܗܕܝܢ	-3225
▁ܢܦܩܬܘܢ	-3226
▁ܥܒܪܐܝܬ	-3227
▁ܥܬܝܕܝܢ	-3228
▁ܦܗܤܛܘܤ	-3229
▁ܦܠܓܘܬܐ	-3230
▁ܬܐܨܦܘܢ	-3231
▁ܐܡܝܢܐܝܬ	-3232
▁ܐܬܬܥܝܪܘ	-3233
▁ܒܡܠܟܘܬܐ	-3234
▁ܒܡܠܟܘܬܗ	-3235
▁ܒܥܠܕܒܒܐ	-3236
▁ܕܒܡܫܝܚܐ	-3237
▁ܕܒܢܡܘܤܐ	-3238
▁ܕܡܡܠܠܝܢ	-3239
▁ܕܬܠܡܝܕܐ	-3240
▁ܕܬܥܒܕܘܢ	-3241
▁ܗܝܡܢܘܬܗ	-3242
▁ܘܠܟܠܗܘܢ	-3243
▁ܘܠܡܠܐܟܐ	-3244
▁ܘܡܫܒܚܝܢ	-3245
▁ܠܐܝܤܪܝܠ	-3246
▁ܠܡܠܟܘܬܗ	-3247
▁ܡܡܠܠܝܢܢ	-3248
▁ܡܬܕܡܪܝܢ	-3249
▁ܩܕܡܝܗܘܢ	-3250
▁ܕܐܝܬܝܗܝܢ	-3251
▁ܕܒܐܘܪܫܠܡ	-3252
▁ܕܙܕܝܩܘܬܐ	-3253
▁ܘܛܝܡܬܐܘܤ	-3254
▁ܘܝܬܝܪܐܝܬ	-3255
▁ܒܐܘܢܓܠܝܘܢ	-3256
▁ܕܢܫܠܡܝܘܗܝ	-3257
▁ܕܗܝܡܢܘܬܟܘܢ	-3258
ܙܘ	-3259
ܥܕ	-3260
ܨܪ	-3261
ܪܛ	-3262
ܒܝܘ	-3263
ܓܕܐ	-3264
ܓܪܝ	-3265
ܘܒܠ	-3266
ܘܡܝ	-3267
ܝܒܐ	-3268
ܝܘܤ	-3269
ܟܘܬ	-3270
ܡܢܝ	-3271
ܤܘܤ	-3272
ܥܝܬ	-3273
ܥܢܐ	-3274
ܦܪܥ	-3275
ܪܘܙ	-3276
ܫܒܩ	-3277
ܫܘܛ	-3278
ܬܘܐ	-3279
ܬܬܐ	-3280
▁ܙܝ	-3281
▁ܚܠ	-3282
▁ܚܬ	-3283
▁ܝܨ	-3284
▁ܤܐ	-3285
▁ܦܨ	-3286
▁ܩܒ	-3287
▁ܩܝ	-3288
▁ܪܛ	-3289
▁ܫܛ	-3290
ܒܘܫܗ	-3291
ܗܒܬܗ	-3292
ܗܦܘܟ	-3293
ܗܪܘܢ	-3294
ܗܪܝܢ	-3295
ܘܕܝܢ	-3296
ܘܕܥܘ	-3297
ܘܡܩܐ	-3298
ܙܠܘܢ	-3299
ܛܝܒܐ	-3300
ܝܙܕܩ	-3301
ܢܟܘܢ	-3302
ܢܬܘܤ	-3303
ܥܘܪܐ	-3304
ܦܘܗܝ	-3305
ܦܟܝܢ	-3306
ܨܐܝܬ	-3307
ܨܘܦܐ	-3308
ܫܝܘܠ	-3309
▁ܐܕܡ	-3310
▁ܐܚܒ	-3311
▁ܐܤܦ	-3312
▁ܒܡܠ	-3313
▁ܒܪܬ	-3314
▁ܓܐܪ	-3315
▁ܕܒܛ	-3316
▁ܕܚܤ	-3317
▁ܕܠܤ	-3318
▁ܕܢܛ	-3319
▁ܕܢܩ	-3320
▁ܕܪܫ	-3321
▁ܘܒܩ	-3322
▁ܘܕܬ	-3323
▁ܘܝܗ	-3324
▁ܘܠܒ	-3325
▁ܘܠܨ	-3326
▁ܘܠܩ	-3327
▁ܘܢܨ	-3328
▁ܘܦܠ	-3329
▁ܘܫܪ	-3330
▁ܛܡܐ	-3331
▁ܝܩܪ	-3332
▁ܟܦܢ	-3333
▁ܠܒܤ	-3334
▁ܡܚܐ	-3335
▁ܡܛܐ	-3336
▁ܡܤܝ	-3337
▁ܡܬܕ	-3338
▁ܥܐܠ	-3339
▁ܥܕܢ	-3340
▁ܥܕܪ	-3341
▁ܫܘܩ	-3342
ܒܪܘܬܐ	-3343
ܓܝܐܬܐ	-3344
ܓܢܝܬܐ	-3345
ܚܘܝܬܐ	-3346
ܛܘܪܝܢ	-3347
ܢܝܐܝܠ	-3348
ܥܡܕܘܢ	-3349
ܦܪܥܘܢ	-3350
▁ܐܚܘܟ	-3351
▁ܐܠܗܟ	-3352
▁ܐܡܠܠ	-3353
▁ܐܦܝܢ	-3354
▁ܐܪܝܡ	-3355
▁ܒܟܝܢ	-3356
▁ܒܥܒܕ	-3357
▁ܒܥܡܐ	-3358
▁ܒܪܢܫ	-3359
▁ܒܬܪܟ	-3360
▁ܓܪܒܐ	-3361
▁ܕܗܢܘ	-3362
▁ܕܙܕܩ	-3363
▁ܕܚܫܐ	-3364
▁ܕܟܝܢ	-3365
▁ܕܡܝܢ	-3366
▁ܕܡܤܬ	-3367
▁ܕܡܬܪ	-3368
▁ܕܡܬܬ	-3369
▁ܕܢܚܫ	-3370
▁ܕܢܬܢ	-3371
▁ܕܤܓܝ	-3372
▁ܕܤܥܪ	-3373
▁ܕܫܘܐ	-3374
▁ܘܐܘܚ	-3375
▁ܘܐܠܘ	-3376
▁ܘܙܒܢ	-3377
▁ܘܠܘܬ	-3378
▁ܘܠܡܐ	-3379
▁ܘܡܠܟ	-3380
▁ܘܡܠܠ	-3381
▁ܘܡܫܘ	-3382
▁ܘܥܝܢ	-3383
▁ܘܥܠܘ	-3384
▁ܘܩܒܠ	-3385
▁ܘܩܥܘ	-3386
▁ܘܩܪܝ	-3387
▁ܘܪܒܝ	-3388
▁ܘܫܠܡ	-3389
▁ܘܫܪܐ	-3390
▁ܙܘܥܐ	-3391
▁ܙܝܬܐ	-3392
▁ܚܕܕܐ	-3393
▁ܚܕܝܢ	-3394
▁ܚܝܘܢ	-3395
▁ܚܠܦܝ	-3396
▁ܚܡܬܐ	-3397
▁ܚܤܝܪ	-3398
▁ܚܪܬܐ	-3399
▁ܚܬܢܐ	-3400
▁ܛܛܘܤ	-3401
▁ܠܟܝܢ	-3402
▁ܠܡܪܝ	-3403
▁ܠܥܡܗ	-3404
▁ܠܬܚܬ	-3405
▁ܡܛܝܒ	-3406
▁ܡܥܕܪ	-3407
▁ܡܦܩܕ	-3408
▁ܢܒܗܬ	-3409
▁ܢܗܪܐ	-3410
▁ܢܡܘܤ	-3411
▁ܢܤܒܬ	-3412
▁ܤܘܟܐ	-3413
▁ܤܟܠܐ	-3414
▁ܨܒܝܐ	-3415
▁ܩܕܝܫ	-3416
▁ܪܚܡܝ	-3417
▁ܫܪܓܐ	-3418
▁ܫܪܝܘ	-3419
▁ܫܪܝܢ	-3420
▁ܫܪܝܪ	-3421
▁ܬܟܝܠ	-3422
▁ܬܢܢܐ	-3423
ܘܒܠܘܗܝ	-3424
ܠܟܤܢܕܪ	-3425
▁ܐܒܗܬܢ	-3426
▁ܐܪܡܝܐ	-3427
▁ܐܪܡܝܘ	-3428
▁ܐܬܐܡܪ	-3429
▁ܐܬܓܠܝ	-3430
▁ܐܬܕܟܪ	-3431
▁ܐܬܡܠܝ	-3432
▁ܐܬܩܪܒ	-3433
▁ܒܐܝܕܐ	-3434
▁ܒܐܠܦܐ	-3435
▁ܒܒܤܪܐ	-3436
▁ܒܡܬܠܐ	-3437
▁ܒܢܝܢܐ	-3438
▁ܒܦܓܪܗ	-3439
▁ܕܐܝܢܐ	-3440
▁ܕܐܠܝܐ	-3441
▁ܕܐܤܝܡ	-3442
▁ܕܐܫܪܐ	-3443
▁ܕܙܝܬܐ	-3444
▁ܕܝܠܝܕ	-3445
▁ܕܝܢܝܢ	-3446
▁ܕܝܢܪܐ	-3447
▁ܕܟܢܫܐ	-3448
▁ܕܟܪܝܗ	-3449
▁ܕܡܗܠܟ	-3450
▁ܕܢܩܝܡ	-3451
▁ܕܢܩܪܐ	-3452
▁ܕܥܒܕܘ	-3453
▁ܕܦܐܪܐ	-3454
▁ܕܫܐܕܐ	-3455
▁ܘܐܘܕܝ	-3456
▁ܘܐܚܕܗ	-3457
▁ܘܕܝܢܐ	-3458
▁ܘܚܙܝܢ	-3459
▁ܘܠܠܝܐ	-3460
▁ܘܡܗܠܟ	-3461
▁ܘܡܠܬܗ	-3462
▁ܘܢܦܠܘ	-3463
▁ܘܢܦܩܬ	-3464
▁ܘܪܚܡܐ	-3465
▁ܘܬܠܬܐ	-3466
▁ܙܕܩܬܐ	-3467
▁ܙܟܪܝܐ	-3468
▁ܚܝܒܝܢ	-3469
▁ܚܠܝܡܐ	-3470
▁ܠܐܒܘܟ	-3471
▁ܠܐܢܫܐ	-3472
▁ܠܗܪܟܐ	-3473
▁ܠܝܘܤܦ	-3474
▁ܠܟܗܢܐ	-3475
▁ܠܡܚܝܘ	-3476
▁ܠܢܒܝܐ	-3477
▁ܡܫܬܒܗ	-3478
▁ܡܫܬܡܥ	-3479
▁ܡܬܪܥܐ	-3480
▁ܢܘܢܝܢ	-3481
▁ܢܦܩܝܢ	-3482
▁ܢܫܒܘܩ	-3483
▁ܢܫܬܩܠ	-3484
▁ܤܓܝܐܢ	-3485
▁ܤܦܤܪܐ	-3486
▁ܥܒܕܝܟ	-3487
▁ܨܠܘܬܐ	-3488
▁ܩܝܡܬܐ	-3489
▁ܩܢܝܢܗ	-3490
▁ܪܓܠܝܟ	-3491
▁ܪܫܝܥܐ	-3492
▁ܫܒܩܝܢ	-3493
▁ܫܘܒܚܗ	-3494
▁ܬܕܥܘܢ	-3495
▁ܬܛܥܘܢ	-3496
▁ܬܥܠܘܢ	-3497
▁ܐܒܗܘܗܝ	-3498
▁ܐܠܝܫܒܥ	-3499
▁ܒܓܠܝܢܐ	-3500
▁ܒܟܠܗܝܢ	-3501
▁ܒܥܕܥܕܐ	-3502
▁ܒܦܠܐܬܐ	-3503
▁ܕܒܐܝܕܗ	-3504
▁ܕܒܐܠܗܐ	-3505
▁ܕܙܒܢܝܢ	-3506
▁ܕܟܠܗܝܢ	-3507
▁ܕܢܦܩܘܢ	-3508
▁ܕܫܡܪܝܐ	-3509
▁ܘܐܝܬܝܘ	-3510
▁ܘܐܫܟܚܘ	-3511
▁ܘܐܬܪܚܡ	-3512
▁ܘܒܐܪܥܐ	-3513
▁ܘܒܚܘܒܐ	-3514
▁ܘܒܪܢܒܐ	-3515
▁ܘܗܝܡܢܘ	-3516
▁ܘܟܠܡܕܡ	-3517
▁ܘܡܠܐܟܐ	-3518
▁ܘܩܕܝܫܐ	-3519
▁ܚܘܒܟܘܢ	-3520
▁ܛܘܒܘܗܝ	-3521
▁ܛܢܦܘܬܐ	-3522
▁ܝܩܝܪܬܐ	-3523
▁ܠܚܘܪܒܐ	-3524
▁ܠܝܘܡܢܐ	-3525
▁ܠܥܕܥܕܐ	-3526
▁ܠܩܕܝܫܐ	-3527
▁ܠܩܘܒܠܗ	-3528
▁ܠܩܪܝܒܟ	-3529
▁ܡܐܬܝܬܗ	-3530
▁ܡܝܬܝܢܢ	-3531
▁ܡܬܚܙܝܢ	-3532
▁ܢܒܝܘܬܐ	-3533
▁ܢܩܘܡܘܢ	-3534
▁ܢܫܡܥܘܢ	-3535
▁ܢܫܬܒܗܪ	-3536
▁ܤܓܝܐܝܢ	-3537
▁ܤܗܕܘܬܗ	-3538
▁ܤܦܝܢܬܐ	-3539
▁ܤܪܝܩܬܐ	-3540
▁ܩܪܨܘܗܝ	-3541
▁ܪܗܘܡܝܐ	-3542
▁ܫܦܝܪܬܐ	-3543
▁ܫܪܝܪܬܐ	-3544
▁ܬܪܡܝܬܗ	-3545
▁ܬܫܡܫܬܐ	-3546
▁ܒܡܐܬܝܬܗ	-3547
▁ܒܬܫܡܫܬܐ	-3548
▁ܕܝܘܪܕܢܢ	-3549
▁ܕܡܘܠܟܢܐ	-3550
▁ܕܢܒܝܘܬܐ	-3551
▁ܕܥܬܝܕܝܢ	-3552
▁ܘܐܬܟܢܫܘ	-3553
▁ܘܠܝܥܩܘܒ	-3554
▁ܘܡܫܐܠܝܢ	-3555
▁ܘܢܐܡܪܘܢ	-3556
▁ܘܫܘܠܛܢܐ	-3557
▁ܠܕܪܡܤܘܩ	-3558
▁ܠܤܗܕܘܬܐ	-3559
▁ܡܤܝܒܪܝܢ	-3560
▁ܡܫܟܚܝܢܢ	-3561
▁ܡܬܗܦܟܝܢ	-3562
▁ܥܒܕܝܗܘܢ	-3563
▁ܥܒܕܝܟܘܢ	-3564
▁ܫܘܬܦܘܬܐ	-3565
▁ܬܫܒܘܚܬܗ	-3566
▁ܘܠܡܕܝܢܬܐ	-3567
▁ܠܦܝܠܝܦܘܤ	-3568
▁ܡܚܫܒܬܗܘܢ	-3569
▁ܒܠܚܘܕܝܗܘܢ	-3570
▁ܗܝܡܢܘܬܗܘܢ	-3571
▁ܡܤܝܒܪܢܘܬܐ	-3572
ܕܫ	-3573
ܠܕ	-3574
ܤܗ	-3575
ܨܕ	-3576
ܩܬ	-3577
ܫܚ	-3578
ܒܐܫ	-3579
ܓܘܕ	-3580
ܕܢܝ	-3581
ܗܦܟ	-3582
ܘܝܐ	-3583
ܘܤܐ	-3584
ܘܥܐ	-3585
ܙܠܐ	-3586
ܛܦܢ	-3587
ܝܘܠ	-3588
ܠܗܗ	-3589
ܠܚܘ	-3590
ܠܟܐ	-3591
ܠܠܐ	-3592
ܡܐܢ	-3593
ܡܗܐ	-3594
ܡܟܟ	-3595
ܤܘܪ	-3596
ܥܛܦ	-3597
ܥܝܝ	-3598
ܦܤܩ	-3599
ܩܦܘ	-3600
ܬܒܬ	-3601
ܬܪܘ	-3602
▁ܓܒ	-3603
▁ܛܥ	-3604
▁ܡܡ	-3605
▁ܡܦ	-3606
▁ܢܢ	-3607
▁ܤܕ	-3608
▁ܥܢ	-3609
▁ܨܠ	-3610
ܒܕܪܘ	-3611
ܒܠܘܢ	-3612
ܓܠܝܢ	-3613
ܓܪܬܐ	-3614
ܕܢܚܐ	-3615
ܕܪܘܢ	-3616
ܗܝܘܢ	-3617
ܘܒܘܢ	-3618
ܘܒܫܐ	-3619
ܘܦܝܐ	-3620
ܘܫܝܐ	-3621
ܘܬܟܝ	-3622
ܙܒܘܒ	-3623
ܙܕܒܢ	-3624
ܚܙܝܘ	-3625
ܛܪܬܐ	-3626
ܟܕܢܐ	-3627
ܟܝܢܢ	-3628
ܠܝܡܐ	-3629
ܠܝܢܗ	-3630
ܠܟܘܢ	-3631
ܡܟܘܢ	-3632
ܡܠܘܢ	-3633
ܢܝܢܢ	-3634
ܦܪܘܤ	-3635
ܩܘܗܝ	-3636
ܩܠܘܢ	-3637
ܪܘܪܐ	-3638
ܪܡܘܢ	-3639
ܫܝܠܐ	-3640
ܬܝܕܐ	-3641
ܬܝܗܝ	-3642
▁ܐܕܪ	-3643
▁ܐܚܙ	-3644
▁ܐܟܬ	-3645
▁ܐܫܕ	-3646
▁ܐܬܛ	-3647
▁ܒܒܥ	-3648
▁ܒܟܝ	-3649
▁ܒܠܘ	-3650
▁ܒܡܚ	-3651
▁ܒܨܠ	-3652
▁ܕܒܙ	-3653
▁ܕܕܪ	-3654
▁ܕܘܢ	-3655
▁ܕܝܩ	-3656
▁ܕܡܩ	-3657
▁ܕܢܡ	-3658
▁ܕܬܒ	-3659
▁ܗܪܘ	-3660
▁ܘܐܡ	-3661
▁ܘܓܪ	-3662
▁ܘܕܟ	-3663
▁ܘܕܨ	-3664
▁ܘܕܫ	-3665
▁ܘܗܒ	-3666
▁ܘܚܐ	-3667
▁ܘܝܩ	-3668
▁ܘܟܪ	-3669
▁ܘܠܕ	-3670
▁ܘܢܥ	-3671
▁ܘܢܪ	-3672
▁ܘܥܐ	-3673
▁ܘܬܚ	-3674
▁ܙܠܝ	-3675
▁ܙܥܘ	-3676
▁ܚܘܫ	-3677
▁ܚܝܬ	-3678
▁ܛܘܦ	-3679
▁ܝܘܩ	-3680
▁ܠܐܪ	-3681
▁ܠܕܡ	-3682
▁ܠܡܛ	-3683
▁ܠܡܦ	-3684
▁ܡܓܢ	-3685
▁ܡܘܡ	-3686
▁ܡܠܘ	-3687
▁ܡܩܕ	-3688
▁ܢܘܚ	-3689
▁ܢܝܚ	-3690
▁ܢܤܬ	-3691
▁ܥܠܬ	-3692
▁ܦܪܝ	-3693
▁ܦܪܥ	-3694
▁ܩܘܘ	-3695
▁ܪܒܘ	-3696
▁ܪܘܫ	-3697
▁ܫܬܝ	-3698
▁ܬܬܟ	-3699
ܒܙܚܝܢ	-3700
ܒܪܝܬܐ	-3701
ܕܝܢܘܢ	-3702
ܕܡܪܘܢ	-3703
ܗܝܪܝܢ	-3704
ܘܒܟܘܢ	-3705
ܘܕܝܬܗ	-3706
ܘܤܛܪܐ	-3707
ܚܝܕܝܐ	-3708
ܝܠܘܬܐ	-3709
ܟܝܘܬܐ	-3710
ܟܢܫܝܢ	-3711
ܩܛܠܘܢ	-3712
ܫܘܚܬܐ	-3713
ܬܘܢܢܝ	-3714
▁ܐܒܗܐ	-3715
▁ܐܓܪܗ	-3716
▁ܐܚܒܘ	-3717
▁ܐܚܕܗ	-3718
▁ܐܬܕܡ	-3719
▁ܐܬܟܬ	-3720
▁ܐܬܪܥ	-3721
▁ܒܕܠܐ	-3722
▁ܒܡܕܥ	-3723
▁ܒܢܝܢ	-3724
▁ܒܤܡܐ	-3725
▁ܒܥܝܬ	-3726
▁ܒܪܬܗ	-3727
▁ܕܐܬܚ	-3728
▁ܕܕܚܠ	-3729
▁ܕܙܢܝ	-3730
▁ܕܚܝܒ	-3731
▁ܕܛܝܒ	-3732
▁ܕܝܐܐ	-3733
▁ܕܡܠܦ	-3734
▁ܕܢܕܥ	-3735
▁ܕܢܫܐ	-3736
▁ܕܢܬܚ	-3737
▁ܕܥܐܠ	-3738
▁ܕܥܝܢ	-3739
▁ܕܦܠܚ	-3740
▁ܕܪܘܚ	-3741
▁ܕܫܬܐ	-3742
▁ܗܠܟܘ	-3743
▁ܗܦܟܘ	-3744
▁ܘܕܢܬ	-3745
▁ܘܚܠܦ	-3746
▁ܘܝܡܐ	-3747
▁ܘܠܡܚ	-3748
▁ܘܠܡܫ	-3749
▁ܘܢܛܪ	-3750
▁ܘܢܤܬ	-3751
▁ܘܢܫܐ	-3752
▁ܘܤܓܝ	-3753
▁ܘܦܫܛ	-3754
▁ܚܒܪܗ	-3755
▁ܚܘܝܐ	-3756
▁ܚܙܘܐ	-3757
▁ܚܠܝܡ	-3758
▁ܚܨܕܐ	-3759
▁ܝܗܒܘ	-3760
▁ܟܐܝܢ	-3761
▁ܟܪܝܐ	-3762
▁ܠܕܘܟ	-3763
▁ܠܘܩܒ	-3764
▁ܠܝܡܐ	-3765
▁ܠܡܕܡ	-3766
▁ܠܡܠܐ	-3767
▁ܠܥܙܪ	-3768
▁ܠܪܒܝ	-3769
▁ܡܕܒܪ	-3770
▁ܡܠܚܐ	-3771
▁ܡܠܬܝ	-3772
▁ܡܢܗܪ	-3773
▁ܡܩܝܡ	-3774
▁ܡܫܚܐ	-3775
▁ܡܬܟܪ	-3776
▁ܢܚܘܢ	-3777
▁ܢܚܘܬ	-3778
▁ܢܚܬܘ	-3779
▁ܢܛܥܡ	-3780
▁ܢܩܘܐ	-3781
▁ܤܓܕܘ	-3782
▁ܤܢܝܐ	-3783
▁ܥܕܢܐ	-3784
▁ܦܓܪܟ	-3785
▁ܨܒܝܬ	-3786
▁ܩܝܦܐ	-3787
▁ܫܐܠܗ	-3788
▁ܫܘܝܢ	-3789
▁ܫܡܗܐ	-3790
▁ܬܐܡܪ	-3791
▁ܬܥܒܪ	-3792
ܘܪܢܬܘܤ	-3793
ܠܘܢܝܩܐ	-3794
ܥܠܕܒܒܐ	-3795
ܪܝܤܩܠܐ	-3796
▁ܐܒܕܢܐ	-3797
▁ܐܒܗܝܢ	-3798
▁ܐܘܪܚܗ	-3799
▁ܐܚܪܝܬ	-3800
▁ܐܟܘܬܝ	-3801
▁ܐܤܬܟܠ	-3802
▁ܐܬܕܡܪ	-3803
▁ܒܓܗܢܐ	-3804
▁ܒܙܒܢܗ	-3805
▁ܒܚܪܬܐ	-3806
▁ܒܛܘܪܐ	-3807
▁ܒܝܡܬܐ	-3808
▁ܒܢܒܝܐ	-3809
▁ܒܥܝܢܢ	-3810
▁ܒܥܠܬܐ	-3811
▁ܒܪܘܚܗ	-3812
▁ܒܬܪܥܐ	-3813
▁ܓܘܕܦܐ	-3814
▁ܓܡܝܪܐ	-3815
▁ܕܐܗܘܐ	-3816
▁ܕܐܟܠܘ	-3817
▁ܕܐܦܠܐ	-3818
▁ܕܕܝܘܐ	-3819
▁ܕܠܘܬܝ	-3820
▁ܕܠܟܘܢ	-3821
▁ܕܠܡܪܢ	-3822
▁ܕܡܘܬܗ	-3823
▁ܕܡܠܬܐ	-3824
▁ܕܤܡܝܐ	-3825
▁ܕܥܒܕܬ	-3826
▁ܕܩܒܠܬ	-3827
▁ܕܪܥܝܢ	-3828
▁ܕܫܡܥܢ	-3829
▁ܘܐܙܠܬ	-3830
▁ܘܐܚܕܘ	-3831
▁ܘܐܝܬܝ	-3832
▁ܘܚܘܪܩ	-3833
▁ܘܚܛܝܐ	-3834
▁ܘܟܢܫܘ	-3835
▁ܘܠܐܢܫ	-3836
▁ܘܠܚܡܐ	-3837
▁ܘܢܫܠܡ	-3838
▁ܘܤܠܩܘ	-3839
▁ܙܒܘܪܗ	-3840
▁ܙܝܙܢܐ	-3841
▁ܚܛܗܝܟ	-3842
▁ܚܡܝܪܐ	-3843
▁ܝܘܢܝܐ	-3844
▁ܝܡܝܢܗ	-3845
▁ܟܘܬܝܢ	-3846
▁ܟܟܪܝܢ	-3847
▁ܠܐܠܗܢ	-3848
▁ܠܐܡܬܝ	-3849
▁ܠܒܥܠܝ	-3850
▁ܠܡܟܬܒ	-3851
▁ܠܡܠܦܘ	-3852
▁ܠܡܦܠܚ	-3853
▁ܠܡܪܝܡ	-3854
▁ܠܡܫܬܐ	-3855
▁ܠܤܛܢܐ	-3856
▁ܠܥܤܝܢ	-3857
▁ܠܬܠܬܐ	-3858
▁ܡܚܝܢܢ	-3859
▁ܡܢܝܢܐ	-3860
▁ܡܢܪܬܐ	-3861
▁ܡܫܟܢܐ	-3862
▁ܡܬܐܫܕ	-3863
▁ܢܐܟܘܠ	-3864
▁ܢܛܪܝܢ	-3865
▁ܢܦܩܘܢ	-3866
▁ܢܫܬܟܚ	-3867
▁ܢܬܓܠܐ	-3868
▁ܤܘܤܝܐ	-3869
▁ܤܝܡܝܢ	-3870
▁ܤܪܝܩܐ	-3871
▁ܥܝܪܝܢ	-3872
▁ܥܤܪܝܢ	-3873
▁ܥܬܝܕܐ	-3874
▁ܦܝܠܟܤ	-3875
▁ܦܪܚܬܐ	-3876
▁ܨܒܝܢܝ	-3877
▁ܩܠܗܘܢ	-3878
▁ܪܒܘܬܐ	-3879
▁ܪܘܓܙܗ	-3880
▁ܪܚܡܝܢ	-3881
▁ܐܤܬܟܠܘ	-3882
▁ܐܪܟܘܢܐ	-3883
▁ܐܫܬܒܗܪ	-3884
▁ܐܫܬܡܥܬ	-3885
▁ܐܫܬܥܒܕ	-3886
▁ܐܬܝܕܥܬ	-3887
▁ܒܐܝܡܡܐ	-3888
▁ܒܐܦܤܘܤ	-3889
▁ܒܓܠܝܠܐ	-3890
▁ܒܕܡܘܬܗ	-3891
▁ܒܝܘܡܬܗ	-3892
▁ܒܢܘܗܪܐ	-3893
▁ܒܬܘܠܬܐ	-3894
▁ܒܬܪܗܘܢ	-3895
▁ܕܐܬܝܠܕ	-3896
▁ܕܒܐܪܥܐ	-3897
▁ܕܒܝܗܘܕ	-3898
▁ܕܒܪܘܚܐ	-3899
▁ܕܙܕܝܩܐ	-3900
▁ܕܡܛܠܬܗ	-3901
▁ܕܢܘܗܪܐ	-3902
▁ܕܢܫܬܒܚ	-3903
▁ܕܢܬܠܘܢ	-3904
▁ܕܥܬܝܕܐ	-3905
▁ܕܥܬܝܕܢ	-3906
▁ܕܦܛܝܪܐ	-3907
▁ܕܩܝܡܬܐ	-3908
▁ܕܪܒܘܬܐ	-3909
▁ܕܪܚܡܝܢ	-3910
▁ܘܐܢܫܝܢ	-3911
▁ܘܐܬܕܟܪ	-3912
▁ܘܒܚܝܠܐ	-3913
▁ܘܚܟܡܬܐ	-3914
▁ܘܡܠܦܝܢ	-3915
▁ܘܡܢܗܘܢ	-3916
▁ܘܡܨܠܝܢ	-3917
▁ܘܢܗܘܝܢ	-3918
▁ܘܢܛܪܝܢ	-3919
▁ܚܝܠܬܢܐ	-3920
▁ܚܪܝܦܬܐ	-3921
▁ܝܪܬܘܬܐ	-3922
▁ܠܡܨܪܝܢ	-3923
▁ܠܡܩܛܠܗ	-3924
▁ܠܤܓܝܐܐ	-3925
▁ܡܐܢܘܗܝ	-3926
▁ܡܩܒܠܝܢ	-3927
▁ܡܫܚܠܦܐ	-3928
▁ܡܬܒܥܝܢ	-3929
▁ܢܚܬܘܗܝ	-3930
▁ܢܥܒܕܘܢ	-3931
▁ܢܩܒܠܘܢ	-3932
▁ܢܫܟܚܘܢ	-3933
▁ܤܟܠܘܬܐ	-3934
▁ܤܩܘܒܠܐ	-3935
▁ܥܒܕܬܘܢ	-3936
▁ܥܠܝܗܝܢ	-3937
▁ܪܓܝܓܬܐ	-3938
▁ܪܘܚܟܘܢ	-3939
▁ܪܘܪܒܬܐ	-3940
▁ܫܐܠܘܗܝ	-3941
▁ܫܓܘܫܝܐ	-3942
▁ܫܘܒܗܪܐ	-3943
▁ܫܘܘܕܝܐ	-3944
▁ܐܒܗܝܟܘܢ	-3945
▁ܐܝܬܝܗܝܢ	-3946
▁ܒܐܘܠܨܢܐ	-3947
▁ܒܛܝܒܘܬܗ	-3948
▁ܒܟܐܢܘܬܐ	-3949
▁ܕܗܘܝܬܘܢ	-3950
▁ܕܛܝܒܘܬܐ	-3951
▁ܘܐܦܩܘܗܝ	-3952
▁ܘܒܐܝܡܡܐ	-3953
▁ܘܛܝܒܘܬܐ	-3954
▁ܘܡܫܡܫܢܐ	-3955
▁ܚܛܗܝܗܘܢ	-3956
▁ܛܘܒܝܟܘܢ	-3957
▁ܠܢܤܝܘܢܐ	-3958
▁ܠܢܦܫܗܘܢ	-3959
▁ܡܤܬܟܠܝܢ	-3960
▁ܤܪܝܩܐܝܬ	-3961
▁ܕܡܠܟܝܙܕܩ	-3962
▁ܘܐܢܕܪܐܘܤ	-3963
▁ܘܦܝܠܝܦܘܤ	-3964
▁ܡܫܬܥܒܕܝܢ	-3965
▁ܩܘܪܢܠܝܘܤ	-3966
▁	-3967
ܐ	-3968
ܘ	-3969
ܢ	-3970
ܝ	-3971
ܠ	-3972
ܕ	-3973
ܡ	-3974
ܗ	-3975
ܬ	-3976
ܪ	-3977
ܒ	-3978
ܟ	-3979
ܫ	-3980
ܥ	-3981
ܚ	-3982
ܩ	-3983
ܦ	-3984
ܤ	-3985
ܓ	-3986
ܛ	-3987
ܙ	-3988
ܨ	-3989
V	-3990
1	-3991
)	-3992
4	-3993
5	-3994
9	-3995
:	-3996
