<pad>	0
</s>	0
<unk>	0
▁s	-0
de	-1
▁h	-2
en	-3
▁o	-4
ll	-5
▁f	-6
an	-7
ch	-8
ar	-9
▁de	-10
er	-11
▁och	-12
▁t	-13
▁m	-14
▁d	-15
tt	-16
om	-17
▁v	-18
in	-19
ör	-20
är	-21
▁a	-22
▁b	-23
ig	-24
▁i	-25
ill	-26
on	-27
ade	-28
▁för	-29
▁sk	-30
▁g	-31
ag	-32
▁k	-33
ck	-34
▁till	-35
▁l	-36
st	-37
▁han	-38
et	-39
▁e	-40
ra	-41
än	-42
na	-43
▁u	-44
or	-45
ed	-46
▁som	-47
▁p	-48
▁j	-49
el	-50
der	-51
▁H	-52
▁n	-53
▁att	-54
▁så	-55
all	-56
▁st	-57
un	-58
▁är	-59
▁O	-60
ing	-61
▁en	-62
ån	-63
▁den	-64
▁D	-65
▁skall	-66
da	-67
▁det	-68
▁jag	-69
▁I	-70
cke	-71
▁J	-72
▁Och	-73
▁på	-74
ol	-75
▁av	-76
▁r	-77
▁vi	-78
▁icke	-79
pp	-80
▁var	-81
iv	-82
▁hon	-83
▁S	-84
ER	-85
RE	-86
ERRE	-87
▁med	-88
▁HERRE	-89
it	-90
sa	-91
▁HERREN	-92
▁all	-93
ud	-94
▁har	-95
▁M	-96
▁ö	-97
kt	-98
äl	-99
▁bl	-100
sk	-101
▁dem	-102
▁honom	-103
åt	-104
▁»	-105
▁du	-106
av	-107
▁fr	-108
ad	-109
es	-110
▁ut	-111
ft	-112
us	-113
äg	-114
▁G	-115
al	-116
▁sin	-117
▁upp	-118
and	-119
ot	-120
as	-121
ver	-122
▁där	-123
itt	-124
am	-125
år	-126
den	-127
▁mig	-128
▁kom	-129
▁om	-130
ung	-131
at	-132
▁in	-133
ss	-134
▁sig	-135
▁dig	-136
▁A	-137
id	-138
åg	-139
rä	-140
▁sade	-141
▁din	-142
▁eder	-143
▁Gud	-144
.»	-145
▁över	-146
▁hade	-147
för	-148
els	-149
▁hans	-150
▁min	-151
em	-152
fter	-153
▁åt	-154
som	-155
ro	-156
▁komm	-157
lig	-158
are	-159
re	-160
▁skol	-161
▁då	-162
ur	-163
onung	-164
▁hav	-165
▁be	-166
tta	-167
ka	-168
▁konung	-169
olk	-170
▁alla	-171
▁Men	-172
ning	-173
os	-174
▁man	-175
änn	-176
▁folk	-177
ort	-178
▁bliv	-179
▁E	-180
ull	-181
▁ett	-182
▁från	-183
sra	-184
erna	-185
ande	-186
▁såsom	-187
mm	-188
het	-189
▁nu	-190
▁Isra	-191
ff	-192
▁när	-193
ev	-194
▁br	-195
▁säg	-196
▁efter	-197
ri	-198
ätt	-199
▁någ	-200
▁sj	-201
▁sl	-202
var	-203
▁bar	-204
ram	-205
ller	-206
▁T	-207
äm	-208
▁allt	-209
öra	-210
arna	-211
▁Då	-212
▁un	-213
ja	-214
▁hel	-215
▁skola	-216
▁vad	-217
ik	-218
▁ty	-219
▁tj	-220
il	-221
▁N	-222
ång	-223
▁men	-224
ön	-225
ens	-226
öd	-227
▁dag	-228
▁hava	-229
od	-230
▁barn	-231
▁son	-232
▁ock	-233
ne	-234
▁vid	-235
ras	-236
▁an	-237
ta	-238
▁än	-239
▁må	-240
yn	-241
▁fram	-242
▁mot	-243
▁B	-244
▁giv	-245
▁or	-246
▁sina	-247
▁hus	-248
▁deras	-249
▁hö	-250
▁skull	-251
att	-252
og	-253
isk	-254
▁se	-255
▁detta	-256
▁vill	-257
ick	-258
iga	-259
▁vil	-260
▁HERRENS	-261
▁gj	-262
▁tal	-263
ab	-264
ste	-265
▁oss	-266
▁tjän	-267
fr	-268
ärd	-269
edan	-270
ld	-271
enom	-272
yck	-273
▁dö	-274
▁gå	-275
ak	-276
▁Israels	-277
▁Ty	-278
▁eller	-279
▁sitt	-280
▁K	-281
▁få	-282
ast	-283
dra	-284
▁under	-285
▁vara	-286
inn	-287
▁låt	-288
▁säger	-289
ut	-290
äd	-291
andra	-292
▁mitt	-293
▁Så	-294
▁na	-295
▁land	-296
▁V	-297
▁F	-298
yg	-299
te	-300
▁vor	-301
▁å	-302
▁äro	-303
▁själ	-304
▁hj	-305
från	-306
▁här	-307
▁genom	-308
▁göra	-309
▁dina	-310
▁tr	-311
▁skulle	-312
▁bliva	-313
uda	-314
▁blev	-315
▁komma	-316
äng	-317
ader	-318
äll	-319
äder	-320
▁någon	-321
nen	-322
▁utan	-323
amm	-324
▁hu	-325
is	-326
ingen	-327
ans	-328
▁rätt	-329
ffer	-330
ken	-331
▁svar	-332
▁männ	-333
ska	-334
dan	-335
▁ar	-336
▁ned	-337
ät	-338
ukt	-339
▁fö	-340
▁voro	-341
▁sön	-342
eb	-343
orde	-344
▁Jer	-345
aga	-346
▁hen	-347
▁först	-348
▁bort	-349
▁dess	-350
ga	-351
▁Her	-352
▁hör	-353
▁väl	-354
avid	-355
▁hand	-356
del	-357
else	-358
▁konungen	-359
▁David	-360
ott	-361
va	-362
▁jor	-363
im	-364
▁dr	-365
▁ord	-366
sal	-367
▁beg	-368
▁syn	-369
▁förb	-370
äkt	-371
▁kun	-372
▁folket	-373
▁människ	-374
▁ur	-375
▁ber	-376
ssa	-377
▁skolen	-378
åd	-379
äst	-380
▁ju	-381
▁ditt	-382
▁P	-383
ände	-384
op	-385
gon	-386
ighet	-387
▁inför	-388
åll	-389
▁Guds	-390
▁hela	-391
▁Där	-392
ose	-393
ren	-394
▁väg	-395
▁Jes	-396
▁ifrån	-397
ann	-398
▁De	-399
imm	-400
▁svarade	-401
▁sv	-402
▁mina	-403
▁andra	-404
mn	-405
räst	-406
▁Israel	-407
▁När	-408
▁Han	-409
▁pl	-410
lj	-411
▁jorden	-412
▁söner	-413
ligen	-414
▁ingen	-415
▁dessa	-416
ul	-417
så	-418
akt	-419
▁L	-420
--	-421
str	-422
▁namn	-423
▁brö	-424
▁Jag	-425
▁bland	-426
▁fört	-427
▁kl	-428
pt	-429
▁fl	-430
▁kan	-431
▁--	-432
▁något	-433
▁tillb	-434
io	-435
▁int	-436
▁tv	-437
▁gick	-438
▁lev	-439
▁Jo	-440
▁hög	-441
si	-442
ara	-443
aden	-444
▁Juda	-445
?»	-446
▁fader	-447
eg	-448
▁sedan	-449
▁sp	-450
▁'	-451
färd	-452
kte	-453
inna	-454
▁lik	-455
offer	-456
▁tjänare	-457
▁bo	-458
▁giva	-459
▁hjär	-460
det	-461
änder	-462
▁gjorde	-463
ia	-464
nes	-465
▁Jeru	-466
sam	-467
uru	-468
éerna	-469
salem	-470
▁vår	-471
sm	-472
ring	-473
▁män	-474
andet	-475
und	-476
▁blivit	-477
▁kommer	-478
▁Jerusalem	-479
▁tog	-480
▁Jesus	-481
nar	-482
ygg	-483
▁präst	-484
▁henne	-485
▁Ab	-486
▁år	-487
▁mer	-488
igt	-489
▁läg	-490
ob	-491
▁edra	-492
ov	-493
ats	-494
rof	-495
gy	-496
gypt	-497
skap	-498
▁tid	-499
la	-500
äck	-501
immel	-502
▁ej	-503
▁säga	-504
▁on	-505
▁gör	-506
aka	-507
▁får	-508
efter	-509
ek	-510
▁frukt	-511
▁liv	-512
▁därför	-513
rö	-514
▁Mose	-515
▁himmel	-516
▁Ja	-517
▁trä	-518
▁ögon	-519
▁Herren	-520
▁lät	-521
▁al	-522
▁gjort	-523
▁ev	-524
▁förg	-525
▁själv	-526
▁R	-527
ker	-528
▁denna	-529
nade	-530
▁sju	-531
▁vet	-532
▁två	-533
rar	-534
gen	-535
ända	-536
rofet	-537
▁åter	-538
▁vatt	-539
▁gr	-540
▁håll	-541
▁landet	-542
▁stad	-543
ist	-544
ju	-545
ock	-546
▁hos	-547
▁sådan	-548
des	-549
undra	-550
▁tillbaka	-551
▁tre	-552
▁bå	-553
▁profet	-554
ära	-555
orna	-556
ningar	-557
▁gav	-558
▁rättfärd	-559
▁låta	-560
eh	-561
▁kv	-562
aren	-563
samm	-564
▁sm	-565
▁rö	-566
▁släkt	-567
nat	-568
▁Om	-569
stad	-570
▁lag	-571
▁stor	-572
iterna	-573
▁Egypt	-574
hö	-575
ärl	-576
▁dagen	-577
▁hundra	-578
ets	-579
▁äl	-580
aul	-581
yr	-582
▁ja	-583
▁Den	-584
▁haven	-585
▁he	-586
liga	-587
ånga	-588
▁huru	-589
▁myck	-590
▁bes	-591
▁ansi	-592
ord	-593
▁vå	-594
ännu	-595
▁ännu	-596
ron	-597
▁taga	-598
yd	-599
▁her	-600
▁tag	-601
▁vis	-602
▁intet	-603
ug	-604
▁hustr	-605
usen	-606
▁såg	-607
▁El	-608
▁kommit	-609
lighet	-610
sl	-611
ött	-612
riv	-613
nad	-614
▁bröder	-615
ligt	-616
▁fråg	-617
▁lö	-618
▁ställ	-619
▁ä	-620
lar	-621
ingo	-622
rist	-623
▁gl	-624
▁huv	-625
opp	-626
uld	-627
▁satt	-628
▁samm	-629
▁tusen	-630
rog	-631
▁Se	-632
▁bliver	-633
ej	-634
ter	-635
▁bet	-636
▁dit	-637
▁omk	-638
pa	-639
▁em	-640
▁höra	-641
▁stod	-642
▁åstad	-643
jur	-644
▁hem	-645
▁berg	-646
▁denne	-647
iss	-648
▁Du	-649
agt	-650
▁kr	-651
▁vin	-652
▁kvar	-653
▁sö	-654
▁förd	-655
▁fem	-656
▁sto	-657
unn	-658
ling	-659
se	-660
ige	-661
ält	-662
▁ti	-663
rade	-664
▁ända	-665
▁str	-666
▁full	-667
▁emot	-668
▁staden	-669
est	-670
▁kall	-671
▁fick	-672
▁många	-673
▁död	-674
▁gud	-675
▁ansikte	-676
▁rik	-677
▁också	-678
ånd	-679
▁mån	-680
▁förl	-681
▁omkring	-682
▁Krist	-683
▁kunna	-684
▁talade	-685
ika	-686
▁rop	-687
änd	-688
▁bef	-689
▁finn	-690
▁hjärta	-691
bar	-692
▁kro	-693
▁fast	-694
▁försam	-695
ätta	-696
ma	-697
▁kommo	-698
.'	-699
ster	-700
▁himmelen	-701
mar	-702
▁går	-703
▁allen	-704
▁ol	-705
▁jäm	-706
▁äta	-707
▁vatten	-708
▁stå	-709
▁synd	-710
ien	-711
nan	-712
▁eftersom	-713
bet	-714
ret	-715
Jag	-716
▁eld	-717
▁tro	-718
▁fäder	-719
▁plats	-720
sammans	-721
▁mycket	-722
▁bj	-723
▁lär	-724
▁dagar	-725
▁fall	-726
▁hålla	-727
räck	-728
▁städer	-729
▁bro	-730
▁föd	-731
ytt	-732
ades	-733
oder	-734
▁utg	-735
▁drog	-736
▁sände	-737
änt	-738
▁Jak	-739
▁vitt	-740
▁sid	-741
je	-742
▁måste	-743
▁människor	-744
▁Saul	-745
dom	-746
▁förs	-747
▁bed	-748
▁förde	-749
▁slag	-750
ib	-751
▁ska	-752
▁sagt	-753
▁Jakob	-754
trä	-755
▁offer	-756
▁döda	-757
▁ly	-758
▁tala	-759
▁huvud	-760
▁givit	-761
▁fräl	-762
▁läng	-763
▁nåd	-764
ers	-765
▁Seb	-766
▁alt	-767
ger	-768
▁All	-769
eder	-770
▁Sal	-771
▁hustru	-772
kl	-773
▁best	-774
▁gång	-775
▁mun	-776
▁Sedan	-777
▁hennes	-778
sen	-779
väl	-780
▁För	-781
yll	-782
▁og	-783
▁blod	-784
bl	-785
▁vare	-786
jung	-787
▁tillh	-788
▁bud	-789
▁guld	-790
▁händer	-791
ons	-792
▁helg	-793
▁broder	-794
ack	-795
▁Därför	-796
yra	-797
▁off	-798
erligen	-799
▁stora	-800
▁Därefter	-801
▁näm	-802
▁vre	-803
▁allenast	-804
▁oren	-805
▁uppen	-806
öj	-807
▁lov	-808
▁hörde	-809
sta	-810
kom	-811
▁Ah	-812
▁sten	-813
▁heller	-814
▁lig	-815
▁följ	-816
▁ren	-817
rätt	-818
▁moder	-819
äk	-820
▁svärd	-821
dens	-822
▁reg	-823
▁våra	-824
▁hjärt	-825
▁kvinn	-826
▁samma	-827
▁arv	-828
▁förv	-829
ir	-830
▁både	-831
▁ville	-832
um	-833
▁Aron	-834
▁sätt	-835
▁finnes	-836
på	-837
▁Det	-838
rick	-839
▁Var	-840
▁tän	-841
net	-842
ifrån	-843
▁dock	-844
▁prästen	-845
ått	-846
▁vilja	-847
▁kött	-848
▁dom	-849
sig	-850
tio	-851
▁vilken	-852
ida	-853
edom	-854
ärningar	-855
ett	-856
▁vä	-857
▁fien	-858
▁gott	-859
▁uppenbar	-860
▁fur	-861
▁fött	-862
▁själva	-863
öt	-864
▁kunde	-865
gel	-866
änna	-867
▁san	-868
▁port	-869
▁and	-870
▁röst	-871
till	-872
lade	-873
▁natt	-874
▁drick	-875
▁häm	-876
▁herre	-877
▁Egypten	-878
ars	-879
▁föra	-880
▁lj	-881
▁arbet	-882
▁varit	-883
fö	-884
▁sil	-885
isa	-886
▁An	-887
ål	-888
ark	-889
▁Kristus	-890
öm	-891
▁tron	-892
▁blevo	-893
▁kropp	-894
erk	-895
▁sam	-896
▁tjug	-897
▁försk	-898
▁En	-899
▁gingo	-900
red	-901
▁nämligen	-902
eck	-903
udakt	-904
agen	-905
▁räd	-906
▁höv	-907
orgon	-908
otter	-909
▁Detta	-910
▁bränn	-911
▁framför	-912
▁ogudakt	-913
sten	-914
▁förk	-915
▁stam	-916
uk	-917
▁kärl	-918
igen	-919
▁vilka	-920
raft	-921
▁akt	-922
▁Salom	-923
ub	-924
▁gläd	-925
▁veta	-926
▁födde	-927
▁strid	-928
edel	-929
▁rättfärdighet	-930
▁ande	-931
▁morgon	-932
▁konungens	-933
sb	-934
▁verk	-935
▁U	-936
▁Seba	-937
▁silver	-938
era	-939
jär	-940
ven	-941
▁go	-942
▁fatt	-943
▁kast	-944
▁begyn	-945
▁heliga	-946
▁finna	-947
▁giver	-948
▁välsig	-949
éernas	-950
▁ont	-951
▁makt	-952
▁sidan	-953
ilist	-954
▁miss	-955
▁satte	-956
▁fördär	-957
▁hed	-958
▁dotter	-959
org	-960
▁fått	-961
alt	-962
▁bygg	-963
▁hjäl	-964
ningen	-965
▁annan	-966
▁skriv	-967
▁Jos	-968
▁Sam	-969
▁dött	-970
▁träd	-971
▁förm	-972
▁tiden	-973
dar	-974
vid	-975
äpp	-976
▁högt	-977
▁kraft	-978
▁filist	-979
»,	-980
ell	-981
ham	-982
ile	-983
tal	-984
onde	-985
▁förbund	-986
▁beh	-987
▁Bet	-988
▁draga	-989
▁Fara	-990
▁frågade	-991
▁läm	-992
▁båda	-993
▁älsk	-994
▁jämte	-995
aret	-996
▁slog	-997
▁vrede	-998
▁Egyptens	-999
sar	-1000
iten	-1001
ingar	-1002
▁onda	-1003
▁bära	-1004
▁kläder	-1005
▁lärjung	-1006
nas	-1007
▁På	-1008
▁del	-1009
ua	-1010
ipp	-1011
▁öpp	-1012
▁förr	-1013
▁undan	-1014
▁Sebaot	-1015
▁far	-1016
▁ing	-1017
▁funn	-1018
star	-1019
ycka	-1020
▁jud	-1021
▁vän	-1022
▁fång	-1023
▁havet	-1024
▁uppst	-1025
▁arvedel	-1026
pel	-1027
▁ök	-1028
▁hit	-1029
▁föll	-1030
ina	-1031
▁låg	-1032
▁varandra	-1033
▁drä	-1034
▁fyra	-1035
▁leva	-1036
▁ljus	-1037
abb	-1038
▁Man	-1039
dat	-1040
ellan	-1041
ärning	-1042
▁mannen	-1043
här	-1044
jut	-1045
▁sex	-1046
▁förn	-1047
▁barns	-1048
▁därefter	-1049
onen	-1050
▁vägen	-1051
änner	-1052
▁Fader	-1053
▁sådant	-1054
fl	-1055
udit	-1056
unt	-1057
▁vände	-1058
▁Ben	-1059
▁mör	-1060
▁råd	-1061
ännen	-1062
giv	-1063
▁Sim	-1064
▁dör	-1065
▁främ	-1066
▁lång	-1067
▁likas	-1068
▁talat	-1069
▁tjugu	-1070
osef	-1071
ttio	-1072
▁lade	-1073
oning	-1074
▁bröd	-1075
▁ske	-1076
▁befall	-1077
▁vidare	-1078
▁gärningar	-1079
Vad	-1080
gar	-1081
med	-1082
▁höj	-1083
raham	-1084
▁djur	-1085
▁höll	-1086
▁Josef	-1087
▁förkun	-1088
tte	-1089
vo	-1090
▁eg	-1091
▁prästerna	-1092
▁Bab	-1093
▁vem	-1094
▁äld	-1095
▁öknen	-1096
▁Davids	-1097
▁Salomo	-1098
essa	-1099
▁ära	-1100
▁låtit	-1101
▁vända	-1102
▁sönder	-1103
▁fiender	-1104
▁tjänst	-1105
ias	-1106
▁el	-1107
▁ov	-1108
ästa	-1109
örd	-1110
▁fann	-1111
▁ären	-1112
▁Abraham	-1113
▁öv	-1114
▁står	-1115
▁vilk	-1116
▁förut	-1117
▁döttrar	-1118
▁skaff	-1119
▁tack	-1120
▁tillsammans	-1121
gå	-1122
▁runt	-1123
▁några	-1124
▁härlighet	-1125
stra	-1126
▁fly	-1127
▁for	-1128
Du	-1129
ah	-1130
▁teck	-1131
liv	-1132
▁Si	-1133
arnas	-1134
▁alnar	-1135
▁mellan	-1136
Var	-1137
▁fyr	-1138
▁bjudit	-1139
ser	-1140
▁skö	-1141
▁helgedom	-1142
▁människa	-1143
pen	-1144
▁tung	-1145
▁offra	-1146
▁slakt	-1147
▁brännoffer	-1148
▁bod	-1149
▁stra	-1150
▁förstånd	-1151
sh	-1152
jas	-1153
▁sätta	-1154
▁bön	-1155
▁drag	-1156
▁bodde	-1157
▁reger	-1158
▁länge	-1159
▁missg	-1160
▁krig	-1161
ust	-1162
▁sak	-1163
▁igen	-1164
▁stör	-1165
▁Ef	-1166
▁tem	-1167
pl	-1168
rus	-1169
▁Isa	-1170
▁mur	-1171
▁värl	-1172
▁likasom	-1173
▁Dessa	-1174
åller	-1175
rå	-1176
res	-1177
ordan	-1178
▁leviterna	-1179
▁veder	-1180
▁ena	-1181
▁tio	-1182
▁ropade	-1183
atan	-1184
▁hövd	-1185
kall	-1186
▁grä	-1187
▁lägga	-1188
▁kvinna	-1189
ok	-1190
▁ås	-1191
elser	-1192
▁dricka	-1193
▁Josua	-1194
Så	-1195
ng	-1196
rig	-1197
▁Vad	-1198
▁tol	-1199
▁gått	-1200
!»	-1201
ård	-1202
ömm	-1203
▁le	-1204
▁Babel	-1205
▁låter	-1206
▁medan	-1207
▁äldste	-1208
▁hjärtan	-1209
kar	-1210
▁fot	-1211
ältet	-1212
▁fötter	-1213
ana	-1214
jorde	-1215
jam	-1216
oab	-1217
ämm	-1218
ende	-1219
hel	-1220
ycken	-1221
▁därav	-1222
▁fingo	-1223
jen	-1224
jer	-1225
sman	-1226
▁orätt	-1227
▁alltså	-1228
▁natten	-1229
▁bor	-1230
▁vart	-1231
▁fräls	-1232
▁släkte	-1233
äv	-1234
das	-1235
▁ät	-1236
▁förskräck	-1237
Se	-1238
▁sy	-1239
▁kal	-1240
▁altaret	-1241
iel	-1242
vis	-1243
▁by	-1244
▁god	-1245
▁döden	-1246
▁gudar	-1247
fta	-1248
iska	-1249
▁pri	-1250
▁skri	-1251
▁Farao	-1252
▁därpå	-1253
▁redan	-1254
▁första	-1255
▁månaden	-1256
▁inv	-1257
men	-1258
▁dra	-1259
▁utr	-1260
▁hört	-1261
▁besitt	-1262
▁vittnes	-1263
åda	-1264
▁rike	-1265
▁huset	-1266
▁ängel	-1267
▁överste	-1268
sp	-1269
▁red	-1270
▁trö	-1271
▁faders	-1272
▁skam	-1273
▁därtill	-1274
▁jordens	-1275
▁kallade	-1276
▁vittnesb	-1277
sö	-1278
fyll	-1279
▁räk	-1280
▁bröt	-1281
▁goda	-1282
▁häl	-1283
▁mar	-1284
ammal	-1285
▁konungar	-1286
edje	-1287
▁kor	-1288
▁utv	-1289
▁ytt	-1290
jamin	-1291
ås	-1292
rev	-1293
▁säd	-1294
▁vag	-1295
▁sett	-1296
▁edert	-1297
▁tredje	-1298
ningarna	-1299
ti	-1300
fte	-1301
höv	-1302
ygga	-1303
elsen	-1304
▁Efra	-1305
enskap	-1306
▁tillhör	-1307
lö	-1308
▁hop	-1309
▁hopp	-1310
▁stygg	-1311
▁äg	-1312
▁ung	-1313
▁hung	-1314
▁stri	-1315
▁folken	-1316
elset	-1317
▁tolv	-1318
▁vand	-1319
lingen	-1320
▁falla	-1321
▁alltid	-1322
▁ligger	-1323
▁därifrån	-1324
▁Herre	-1325
▁Jordan	-1326
off	-1327
uel	-1328
▁ör	-1329
▁Nej	-1330
bland	-1331
▁togo	-1332
▁helig	-1333
▁hjälp	-1334
▁marken	-1335
▁fördärv	-1336
ela	-1337
håll	-1338
▁ser	-1339
▁svär	-1340
▁våld	-1341
▁högra	-1342
arn	-1343
▁gra	-1344
öl	-1345
oden	-1346
▁nöd	-1347
▁fjär	-1348
▁annat	-1349
▁lever	-1350
bb	-1351
ikt	-1352
följ	-1353
▁slut	-1354
▁känna	-1355
▁talar	-1356
▁glädje	-1357
ärde	-1358
▁sång	-1359
▁visa	-1360
▁Efraim	-1361
fall	-1362
ften	-1363
▁övr	-1364
nelse	-1365
innerligen	-1366
▁Ä	-1367
▁ih	-1368
▁fråga	-1369
▁tagit	-1370
▁förlåt	-1371
▁tjänar	-1372
▁evinnerligen	-1373
▁inb	-1374
▁sänt	-1375
▁stodo	-1376
▁ibland	-1377
▁vandra	-1378
höj	-1379
ost	-1380
▁Av	-1381
anna	-1382
skil	-1383
▁före	-1384
▁kärlek	-1385
▁levande	-1386
Det	-1387
aal	-1388
rag	-1389
▁avg	-1390
▁led	-1391
▁lej	-1392
▁boskap	-1393
▁håller	-1394
▁tempel	-1395
esa	-1396
▁bär	-1397
▁världen	-1398
vor	-1399
▁Fr	-1400
▁ny	-1401
ldrig	-1402
▁kvinnor	-1403
sd	-1404
▁tager	-1405
skar	-1406
smän	-1407
▁Jon	-1408
▁fam	-1409
▁gammal	-1410
▁synder	-1411
▁vishet	-1412
▁besittning	-1413
ant	-1414
eam	-1415
▁sol	-1416
oppar	-1417
ställ	-1418
▁frid	-1419
▁sabb	-1420
▁spis	-1421
▁drogo	-1422
▁ligga	-1423
▁tecken	-1424
▁missgärning	-1425
▁kö	-1426
▁ot	-1427
ryck	-1428
▁Pet	-1429
▁hal	-1430
▁träl	-1431
▁ving	-1432
▁begynte	-1433
uck	-1434
ören	-1435
aulus	-1436
▁bred	-1437
lingar	-1438
▁Paulus	-1439
▁stadgar	-1440
lja	-1441
▁Moab	-1442
▁fröj	-1443
▁jord	-1444
▁sons	-1445
mod	-1446
▁Joh	-1447
▁Benjamin	-1448
▁fara	-1449
▁utrot	-1450
▁vägar	-1451
▁lagen	-1452
▁uppfyll	-1453
▁St	-1454
visa	-1455
▁lika	-1456
▁männen	-1457
▁övriga	-1458
▁släkter	-1459
röv	-1460
▁egen	-1461
▁Petrus	-1462
ädur	-1463
▁fanns	-1464
▁förnimm	-1465
jän	-1466
▁pen	-1467
▁förh	-1468
ligare	-1469
▁Jerem	-1470
▁följde	-1471
äp	-1472
folk	-1473
▁und	-1474
präst	-1475
▁steg	-1476
▁lärjungar	-1477
upp	-1478
▁hat	-1479
▁oför	-1480
▁sjun	-1481
▁upph	-1482
▁intill	-1483
▁sådana	-1484
▁förbliv	-1485
▁aft	-1486
▁Ande	-1487
▁skatt	-1488
▁ytter	-1489
▁berget	-1490
annerligen	-1491
fat	-1492
▁Allt	-1493
▁Jesu	-1494
▁grän	-1495
▁Manas	-1496
▁behag	-1497
▁utför	-1498
▁Kristi	-1499
▁finnas	-1500
▁länder	-1501
inga	-1502
▁sky	-1503
▁lott	-1504
▁hemsö	-1505
▁frälsning	-1506
umm	-1507
▁bätt	-1508
▁stället	-1509
▁rättfärdig	-1510
▁överstepräst	-1511
▁ed	-1512
uden	-1513
▁Neb	-1514
▁utt	-1515
offret	-1516
▁fastän	-1517
arm	-1518
ygd	-1519
▁barm	-1520
▁invån	-1521
iternas	-1522
▁förnimma	-1523
',	-1524
rens	-1525
▁rädda	-1526
▁bel	-1527
▁söka	-1528
▁bygga	-1529
▁hämta	-1530
▁varda	-1531
▁vädur	-1532
▁förtör	-1533
▁koppar	-1534
▁olycka	-1535
rott	-1536
▁tor	-1537
▁öde	-1538
ilead	-1539
▁döds	-1540
▁aldrig	-1541
▁uppenbarelset	-1542
aft	-1543
rik	-1544
dade	-1545
▁ben	-1546
▁slå	-1547
larna	-1548
igenom	-1549
▁vattnet	-1550
▁himmelens	-1551
mer	-1552
ran	-1553
kten	-1554
ydde	-1555
▁Huru	-1556
▁häst	-1557
▁olja	-1558
▁strö	-1559
▁fullb	-1560
▁profeten	-1561
▁profeter	-1562
▁Am	-1563
▁däri	-1564
▁kläd	-1565
▁lamm	-1566
annade	-1567
▁menighet	-1568
Om	-1569
▁Låt	-1570
▁bry	-1571
▁dju	-1572
ången	-1573
▁Joab	-1574
▁uppt	-1575
▁andre	-1576
▁stort	-1577
▁sända	-1578
▁arbete	-1579
▁övergiv	-1580
föd	-1581
▁Amm	-1582
▁Asa	-1583
▁frukta	-1584
▁furstar	-1585
▁väx	-1586
samma	-1587
▁egypt	-1588
▁Herrens	-1589
▁befallning	-1590
gn	-1591
jäl	-1592
▁In	-1593
älla	-1594
▁fåg	-1595
▁klipp	-1596
▁filistéerna	-1597
ärn	-1598
härt	-1599
▁lju	-1600
▁driv	-1601
▁mörk	-1602
▁tjäna	-1603
▁Har	-1604
▁hette	-1605
▁förrän	-1606
▁trädde	-1607
▁het	-1608
annes	-1609
▁Gilead	-1610
▁trettio	-1611
▁människorna	-1612
ner	-1613
träd	-1614
örde	-1615
▁rök	-1616
▁snar	-1617
▁vakt	-1618
▁Samuel	-1619
ry	-1620
man	-1621
aria	-1622
inne	-1623
▁dal	-1624
▁enda	-1625
▁nära	-1626
▁Efter	-1627
▁lejon	-1628
▁stamm	-1629
▁boning	-1630
▁därmed	-1631
▁skaffa	-1632
▁barmhärt	-1633
De	-1634
vär	-1635
▁sn	-1636
amla	-1637
▁mat	-1638
äckte	-1639
▁områ	-1640
▁vore	-1641
▁träff	-1642
▁berätt	-1643
Her	-1644
bär	-1645
▁ond	-1646
▁Hisk	-1647
▁Isak	-1648
Varför	-1649
▁begär	-1650
▁given	-1651
▁tänkte	-1652
▁Jeremia	-1653
▁hedningarna	-1654
▁nog	-1655
marker	-1656
▁Varför	-1657
▁vittnesbörd	-1658
jöl	-1659
ssy	-1660
▁ro	-1661
bara	-1662
▁nor	-1663
aberna	-1664
▁öster	-1665
▁femtio	-1666
▁förgås	-1667
▁kommen	-1668
▁allasammans	-1669
▁kn	-1670
skur	-1671
slag	-1672
▁Hans	-1673
▁förö	-1674
▁mätt	-1675
▁långt	-1676
▁fyrtio	-1677
▁stannade	-1678
▁Vid	-1679
▁hug	-1680
▁sen	-1681
▁Baal	-1682
▁åker	-1683
▁slags	-1684
sår	-1685
▁ry	-1686
unda	-1687
▁dår	-1688
▁fri	-1689
▁bjöd	-1690
▁tjur	-1691
▁församlade	-1692
ef	-1693
Låt	-1694
app	-1695
int	-1696
opa	-1697
oses	-1698
▁Eli	-1699
▁Ham	-1700
▁Hon	-1701
▁ang	-1702
▁sågo	-1703
▁famil	-1704
▁byggde	-1705
▁Johannes	-1706
▁regering	-1707
▁församling	-1708
▁Nu	-1709
▁arm	-1710
▁dog	-1711
derna	-1712
▁evig	-1713
▁sorg	-1714
▁läger	-1715
▁varför	-1716
▁Manasse	-1717
▁taberna	-1718
ke	-1719
ada	-1720
len	-1721
över	-1722
▁hår	-1723
ierna	-1724
önstr	-1725
▁Alla	-1726
▁inne	-1727
▁förakt	-1728
▁sabbat	-1729
▁hustrur	-1730
▁utgjorde	-1731
ala	-1732
rat	-1733
▁Esa	-1734
▁sik	-1735
▁Dock	-1736
▁lust	-1737
▁Moses	-1738
▁gören	-1739
▁mycken	-1740
▁namnet	-1741
▁judarna	-1742
▁helgedomen	-1743
▁mark	-1744
▁strax	-1745
▁hövding	-1746
.'»	-1747
åga	-1748
▁förf	-1749
▁lyss	-1750
▁sant	-1751
▁grund	-1752
▁förfölj	-1753
▁konungs	-1754
▁spisoffer	-1755
▁profeterna	-1756
läm	-1757
ydd	-1758
▁Vi	-1759
▁yn	-1760
▁gen	-1761
▁Josa	-1762
▁eget	-1763
▁uppl	-1764
▁vårt	-1765
▁Fadern	-1766
▁känner	-1767
▁ställe	-1768
▁ställde	-1769
▁c	-1770
ama	-1771
▁Sk	-1772
fäng	-1773
delse	-1774
▁Sion	-1775
▁lära	-1776
▁stark	-1777
▁område	-1778
▁sjunde	-1779
ckså	-1780
▁mär	-1781
▁tör	-1782
▁bäck	-1783
▁ting	-1784
▁svara	-1785
ämmande	-1786
vå	-1787
eln	-1788
ild	-1789
▁am	-1790
▁bek	-1791
▁jub	-1792
deles	-1793
rätta	-1794
ssyri	-1795
▁gråt	-1796
▁skuld	-1797
▁likväl	-1798
▁syster	-1799
sg	-1800
▁Må	-1801
uset	-1802
angel	-1803
▁läpp	-1804
▁bevar	-1805
▁sitta	-1806
▁solen	-1807
▁Jerusalems	-1808
▁ef	-1809
juta	-1810
äcka	-1811
▁mjöl	-1812
▁evangel	-1813
▁förkunna	-1814
▁människob	-1815
Vi	-1816
Den	-1817
▁bu	-1818
erub	-1819
illa	-1820
utit	-1821
ycke	-1822
▁Dan	-1823
▁äng	-1824
▁skap	-1825
▁skyn	-1826
▁väld	-1827
▁rätta	-1828
▁Jakobs	-1829
▁bedröv	-1830
▁bestäm	-1831
▁tionde	-1832
▁varken	-1833
▁skrivet	-1834
uv	-1835
▁blo	-1836
ändigt	-1837
▁Hiskia	-1838
▁gånger	-1839
▁fruktan	-1840
▁tillhopa	-1841
ind	-1842
rip	-1843
▁Vem	-1844
▁ark	-1845
anter	-1846
smäkt	-1847
▁egna	-1848
▁funnit	-1849
▁kvinnan	-1850
▁överträ	-1851
▁evangeli	-1852
▁främmande	-1853
pte	-1854
utt	-1855
teck	-1856
äste	-1857
▁bad	-1858
▁sär	-1859
▁fäng	-1860
▁star	-1861
▁begav	-1862
▁särskil	-1863
▁regeringsår	-1864
dd	-1865
öda	-1866
salom	-1867
äller	-1868
▁sida	-1869
▁Såsom	-1870
▁levde	-1871
▁flydde	-1872
▁fåfäng	-1873
ea	-1874
gas	-1875
jor	-1876
kia	-1877
män	-1878
▁bak	-1879
▁tan	-1880
HERRE	-1881
▁Ahas	-1882
▁Joja	-1883
▁dörr	-1884
▁välb	-1885
smännen	-1886
▁altare	-1887
▁lägret	-1888
▁skrift	-1889
▁alldeles	-1890
▁syndoffer	-1891
kast	-1892
▁ens	-1893
▁lön	-1894
▁bitt	-1895
▁gåvo	-1896
▁inom	-1897
▁stenar	-1898
▁större	-1899
▁Absalom	-1900
▁sanning	-1901
▁utmarker	-1902
änk	-1903
elek	-1904
▁Min	-1905
▁bör	-1906
▁yng	-1907
▁tukt	-1908
landet	-1909
▁platsen	-1910
▁dyr	-1911
▁pred	-1912
▁finner	-1913
▁förtrö	-1914
▁invånare	-1915
kor	-1916
akar	-1917
jort	-1918
▁mol	-1919
obeam	-1920
▁Också	-1921
▁siklar	-1922
▁strömm	-1923
▁välbeh	-1924
▁förgöra	-1925
▁ogudaktiga	-1926
fly	-1927
lat	-1928
▁besk	-1929
▁föda	-1930
▁vila	-1931
▁skick	-1932
▁floden	-1933
▁högtid	-1934
▁porten	-1935
▁straff	-1936
▁Jonatan	-1937
▁kastade	-1938
▁stammar	-1939
▁älskade	-1940
▁ytterligare	-1941
post	-1942
▁ång	-1943
ården	-1944
▁trol	-1945
▁begra	-1946
▁Ammons	-1947
▁förviss	-1948
▁kunskap	-1949
▁människobarn	-1950
St	-1951
kv	-1952
aja	-1953
far	-1954
fäll	-1955
▁kär	-1956
▁lit	-1957
▁små	-1958
unden	-1959
▁djup	-1960
▁hast	-1961
▁mant	-1962
▁pris	-1963
▁tält	-1964
▁avgud	-1965
▁förbr	-1966
▁överm	-1967
▁portar	-1968
▁Å	-1969
mju	-1970
par	-1971
edde	-1972
reat	-1973
▁Mes	-1974
Herre	-1975
▁skil	-1976
▁bröto	-1977
▁tills	-1978
smannen	-1979
▁jämväl	-1980
▁rätter	-1981
▁samman	-1982
▁Jerobeam	-1983
▁förstföd	-1984
▁morgonen	-1985
▁barmhärtighet	-1986
ift	-1987
▁änd	-1988
reatur	-1989
▁inbygg	-1990
▁uppstå	-1991
äkreatur	-1992
▁undervis	-1993
▁försoning	-1994
▁penningar	-1995
▁fångenskap	-1996
▁filistéernas	-1997
Gå	-1998
▁Ar	-1999
▁ox	-2000
asun	-2001
kade	-2002
▁hor	-2003
▁tunga	-2004
▁handen	-2005
▁slagna	-2006
Ja	-2007
räv	-2008
uta	-2009
änga	-2010
▁Sid	-2011
▁van	-2012
ljest	-2013
▁Kana	-2014
▁besl	-2015
▁döma	-2016
▁just	-2017
▁läto	-2018
▁lögn	-2019
▁väst	-2020
▁lovat	-2021
▁otukt	-2022
▁läppar	-2023
▁fäkreatur	-2024
▁evangelium	-2025
oa	-2026
▁bok	-2027
▁hämt	-2028
▁mäkt	-2029
▁ovan	-2030
▁uppv	-2031
▁avkom	-2032
▁faris	-2033
▁berömm	-2034
▁vilket	-2035
▁fjärran	-2036
▁präster	-2037
▁styggelse	-2038
Vem	-2039
lag	-2040
lev	-2041
▁ra	-2042
▁Är	-2043
▁öd	-2044
asar	-2045
dels	-2046
▁Sela	-2047
▁Sime	-2048
▁mått	-2049
▁Arons	-2050
▁Sauls	-2051
▁fasta	-2052
▁funnos	-2053
▁aftonen	-2054
▁egyptierna	-2055
▁Ö	-2056
Min	-2057
iden	-2058
ädes	-2059
▁Lib	-2060
▁Sik	-2061
▁fal	-2062
▁uppb	-2063
▁vänt	-2064
▁ände	-2065
straff	-2066
▁höllo	-2067
▁innan	-2068
▁träda	-2069
▁åkall	-2070
▁bergen	-2071
▁bättre	-2072
▁förstå	-2073
▁hästar	-2074
▁stanna	-2075
▁förbann	-2076
tid	-2077
▁Lik	-2078
▁ene	-2079
▁Edom	-2080
▁sjuk	-2081
▁viss	-2082
ännisk	-2083
▁antal	-2084
▁därom	-2085
▁köttet	-2086
▁vagnar	-2087
▁uppteck	-2088
▁välbehag	-2089
läg	-2090
tes	-2091
ista	-2092
ukad	-2093
▁Med	-2094
▁pel	-2095
frukt	-2096
srael	-2097
▁Ahab	-2098
▁lagt	-2099
▁ändå	-2100
▁basun	-2101
▁gamla	-2102
▁seger	-2103
▁fullbor	-2104
▁ingången	-2105
».	-2106
För	-2107
fem	-2108
ora	-2109
äda	-2110
dets	-2111
▁Sem	-2112
▁inm	-2113
▁kam	-2114
▁Till	-2115
▁behö	-2116
▁klag	-2117
▁styr	-2118
▁stoft	-2119
▁ostraff	-2120
▁tillbed	-2121
▁överläm	-2122
nu	-2123
sky	-2124
▁Ma	-2125
eras	-2126
▁Hel	-2127
satte	-2128
▁psal	-2129
▁litet	-2130
▁omtal	-2131
▁släpp	-2132
▁därvid	-2133
▁stycken	-2134
▁regerade	-2135
▁ogudaktig	-2136
▁församlingen	-2137
of	-2138
ass	-2139
jäm	-2140
oka	-2141
ria	-2142
drag	-2143
mark	-2144
▁Gib	-2145
▁häp	-2146
▁stö	-2147
▁utb	-2148
▁vär	-2149
flykt	-2150
▁smäl	-2151
▁stav	-2152
▁kasta	-2153
▁eljest	-2154
▁Nebukad	-2155
▁lägrade	-2156
▁lämnade	-2157
▁tabernakl	-2158
kas	-2159
eser	-2160
iske	-2161
verk	-2162
▁Lev	-2163
▁äkt	-2164
▁bord	-2165
▁byte	-2166
▁unga	-2167
HERREN	-2168
männen	-2169
▁elden	-2170
▁skett	-2171
▁fäders	-2172
▁Efraims	-2173
▁rikedom	-2174
▁följande	-2175
▁fördärva	-2176
ulle	-2177
▁gre	-2178
riket	-2179
▁Icke	-2180
▁bety	-2181
imelek	-2182
▁bryta	-2183
▁drabb	-2184
▁hören	-2185
▁kerub	-2186
▁slogo	-2187
▁sökte	-2188
▁trolö	-2189
▁dragit	-2190
▁israel	-2191
▁inbyggare	-2192
▁Be	-2193
edes	-2194
komm	-2195
▁ill	-2196
▁pal	-2197
hövit	-2198
stånd	-2199
▁amor	-2200
▁norr	-2201
▁ropa	-2202
▁druck	-2203
▁sägen	-2204
▁ödmju	-2205
▁allena	-2206
▁kunnen	-2207
▁syndat	-2208
▁älskar	-2209
▁planter	-2210
▁tillika	-2211
▁vingård	-2212
nor	-2213
rov	-2214
lder	-2215
räkt	-2216
▁hov	-2217
▁besp	-2218
▁fyll	-2219
▁goss	-2220
▁järn	-2221
▁moln	-2222
▁stig	-2223
▁stol	-2224
▁tänka	-2225
▁utval	-2226
▁vredes	-2227
▁evighet	-2228
▁vilkens	-2229
▁människors	-2230
ap	-2231
jan	-2232
jat	-2233
oss	-2234
äva	-2235
éer	-2236
örj	-2237
urit	-2238
▁aram	-2239
▁året	-2240
▁bedja	-2241
▁jubel	-2242
▁snart	-2243
▁väsen	-2244
▁inmönstr	-2245
gång	-2246
rakt	-2247
▁akta	-2248
▁orda	-2249
▁blott	-2250
▁lämna	-2251
▁nästa	-2252
▁bergsb	-2253
▁bäcken	-2254
▁ställa	-2255
▁viljen	-2256
▁visste	-2257
▁familjer	-2258
ört	-2259
udet	-2260
▁lovs	-2261
▁skar	-2262
▁stån	-2263
▁öron	-2264
▁Ingen	-2265
▁hjord	-2266
▁stäng	-2267
▁Assyri	-2268
▁domare	-2269
änniskos	-2270
▁rå	-2271
Huru	-2272
anja	-2273
▁Ele	-2274
▁kung	-2275
▁utom	-2276
▁arken	-2277
▁beläg	-2278
▁följa	-2279
▁fjärde	-2280
▁mörker	-2281
▁hälften	-2282
▁striden	-2283
hu	-2284
lon	-2285
ors	-2286
▁Heb	-2287
▁ute	-2288
naden	-2289
änker	-2290
▁gäst	-2291
▁kors	-2292
▁lida	-2293
▁påsk	-2294
▁dräpa	-2295
▁sköld	-2296
▁längre	-2297
▁stycke	-2298
▁Samaria	-2299
▁förvisso	-2300
▁rättfärdiga	-2301
Kom	-2302
ene	-2303
ova	-2304
▁Ad	-2305
mäst	-2306
▁Jeh	-2307
▁bock	-2308
▁rena	-2309
▁undf	-2310
▁vars	-2311
▁föllo	-2312
▁faller	-2313
▁vederg	-2314
▁vänder	-2315
▁Josafat	-2316
▁Assyrien	-2317
▁rättfärdige	-2318
kön	-2319
▁sål	-2320
▁uts	-2321
▁haft	-2322
▁slår	-2323
▁framb	-2324
▁hjält	-2325
▁tillst	-2326
▁Kanaans	-2327
▁offrade	-2328
▁utanför	-2329
▁Benjamins	-2330
ena	-2331
ten	-2332
ötte	-2333
▁Gal	-2334
▁Reh	-2335
▁Son	-2336
▁bot	-2337
▁tåg	-2338
▁fint	-2339
▁Eller	-2340
▁veten	-2341
▁älska	-2342
▁öppna	-2343
stycken	-2344
▁Alltså	-2345
▁blodet	-2346
▁fåglar	-2347
▁förhär	-2348
▁förtär	-2349
▁utvalt	-2350
▁avgudar	-2351
▁y	-2352
eba	-2353
eda	-2354
ugg	-2355
aken	-2356
▁Gad	-2357
▁buro	-2358
▁färd	-2359
▁ihåg	-2360
▁trof	-2361
▁apost	-2362
▁såväl	-2363
▁Faraos	-2364
▁drager	-2365
▁starka	-2366
▁strida	-2367
▁orättfärd	-2368
dde	-2369
gör	-2370
▁Jis	-2371
▁båg	-2372
▁mod	-2373
▁Från	-2374
▁jung	-2375
▁kald	-2376
▁pers	-2377
▁rent	-2378
▁Moabs	-2379
▁härsk	-2380
▁kalla	-2381
▁lands	-2382
▁graven	-2383
▁räckte	-2384
▁smälek	-2385
▁varder	-2386
▁rökelse	-2387
▁sjuttio	-2388
▁Eftersom	-2389
Fr	-2390
sv	-2391
bud	-2392
samt	-2393
▁öga	-2394
anden	-2395
helst	-2396
orten	-2397
▁fett	-2398
▁fing	-2399
▁pläg	-2400
▁spet	-2401
yllene	-2402
▁evärd	-2403
▁livet	-2404
▁Daniel	-2405
▁jungfr	-2406
▁sitter	-2407
▁öppnade	-2408
▁vandrade	-2409
▁Människos	-2410
▁berättade	-2411
▁menigheten	-2412
tti	-2413
▁Ve	-2414
iter	-2415
omål	-2416
rött	-2417
▁lid	-2418
sträv	-2419
ändes	-2420
▁Mina	-2421
▁redo	-2422
▁regn	-2423
▁sjön	-2424
▁skör	-2425
▁Elisa	-2426
▁blygd	-2427
▁folks	-2428
▁invid	-2429
▁skåda	-2430
▁söker	-2431
▁bevisa	-2432
▁dräpte	-2433
▁frälsa	-2434
▁tankar	-2435
▁gyllene	-2436
▁trofast	-2437
▁förbliver	-2438
▁tillbedja	-2439
▁beständigt	-2440
asa	-2441
▁Eb	-2442
▁ok	-2443
agog	-2444
▁Ber	-2445
▁Rub	-2446
yddor	-2447
▁nytt	-2448
▁resa	-2449
▁svår	-2450
▁äter	-2451
▁evigt	-2452
▁fulla	-2453
▁hövit	-2454
▁stiga	-2455
▁söder	-2456
▁förvar	-2457
▁moders	-2458
▁främling	-2459
▁välsigna	-2460
▁slaktoffer	-2461
▁lärjungarna	-2462
seg	-2463
kläd	-2464
satt	-2465
▁åto	-2466
▁Aram	-2467
▁ofta	-2468
▁vack	-2469
delser	-2470
▁förra	-2471
▁olyck	-2472
▁stjär	-2473
▁varar	-2474
▁dennes	-2475
▁spetäl	-2476
▁upphöj	-2477
▁fursten	-2478
▁skriftl	-2479
▁gensträv	-2480
▁offerhöj	-2481
▁ogudaktige	-2482
ims	-2483
ske	-2484
ikon	-2485
ldig	-2486
omma	-2487
▁Job	-2488
▁Sil	-2489
▁Levi	-2490
▁hölj	-2491
▁plåg	-2492
▁ryck	-2493
aledes	-2494
▁Liban	-2495
▁lyfte	-2496
▁prisa	-2497
▁spill	-2498
▁tagen	-2499
▁ditupp	-2500
▁förtäl	-2501
▁predik	-2502
▁skedde	-2503
▁stilla	-2504
▁utgjut	-2505
▁folkets	-2506
▁fruktade	-2507
▁tillhöra	-2508
bo	-2509
ög	-2510
▁re	-2511
änkt	-2512
▁Mer	-2513
▁Sad	-2514
▁fel	-2515
▁lam	-2516
▁nit	-2517
skriv	-2518
unnit	-2519
▁fisk	-2520
▁Anden	-2521
▁Genom	-2522
▁ringa	-2523
▁sidor	-2524
▁Hebron	-2525
▁Josefs	-2526
▁bränna	-2527
▁gränsen	-2528
▁somliga	-2529
▁svärdet	-2530
▁tjänares	-2531
▁myckenhet	-2532
▁tillflykt	-2533
▁tabernaklet	-2534
af	-2535
br	-2536
uka	-2537
ådo	-2538
inda	-2539
ydda	-2540
▁Bas	-2541
▁Ett	-2542
▁gat	-2543
▁omv	-2544
▁pil	-2545
▁illa	-2546
▁värd	-2547
soffer	-2548
▁Betel	-2549
▁Hören	-2550
▁kanan	-2551
▁Galile	-2552
▁bringa	-2553
▁förgät	-2554
▁helige	-2555
▁krossa	-2556
▁huvuden	-2557
▁mörkret	-2558
▁förstfödde	-2559
▁(	-2560
▁os	-2561
emot	-2562
ylon	-2563
▁fån	-2564
▁rör	-2565
▁sal	-2566
▁brev	-2567
▁grav	-2568
▁sutt	-2569
▁vagn	-2570
▁öken	-2571
▁därut	-2572
▁gåvor	-2573
▁spjut	-2574
▁tänker	-2575
▁uträck	-2576
▁visade	-2577
▁därinne	-2578
▁havande	-2579
▁landets	-2580
▁synagog	-2581
▁städerna	-2582
le	-2583
eld	-2584
▁ax	-2585
agar	-2586
skan	-2587
▁Kan	-2588
▁Ser	-2589
▁göm	-2590
Detta	-2591
unnen	-2592
▁Joas	-2593
▁Judas	-2594
▁Sikem	-2595
▁låten	-2596
▁ropar	-2597
▁övert	-2598
▁gäller	-2599
▁klippa	-2600
mästaren	-2601
▁förtryck	-2602
▁hövdingar	-2603
▁välsignade	-2604
▁förtörnelse	-2605
?'	-2606
ym	-2607
Är	-2608
gat	-2609
ägg	-2610
▁Hav	-2611
▁Här	-2612
▁rov	-2613
inner	-2614
plats	-2615
rarna	-2616
gående	-2617
▁Denne	-2618
▁bröst	-2619
▁ordet	-2620
▁talen	-2621
▁hunger	-2622
▁mantel	-2623
▁utrota	-2624
▁väster	-2625
▁hungers	-2626
▁Abimelek	-2627
▁drickoffer	-2628
Han	-2629
dre	-2630
per	-2631
slut	-2632
▁Hes	-2633
▁bju	-2634
▁Esau	-2635
▁blyg	-2636
▁ohel	-2637
▁vikt	-2638
▁åsyn	-2639
▁orena	-2640
▁hållen	-2641
▁ljuset	-2642
▁hungersn	-2643
▁därigenom	-2644
▁profetera	-2645
▁Människosonen	-2646
iva	-2647
sma	-2648
anda	-2649
imod	-2650
änka	-2651
▁Hör	-2652
▁kon	-2653
ernas	-2654
▁Elia	-2655
▁horn	-2656
▁vika	-2657
▁Jerik	-2658
▁krigs	-2659
▁storm	-2660
▁stund	-2661
▁tider	-2662
▁vildd	-2663
▁ålder	-2664
▁bedriv	-2665
▁frimod	-2666
▁ljusst	-2667
▁sänder	-2668
▁underl	-2669
▁utföra	-2670
▁betryck	-2671
▁vandrar	-2672
▁Abrahams	-2673
▁angående	-2674
▁eldsoffer	-2675
ton	-2676
aner	-2677
föll	-2678
lada	-2679
▁Bar	-2680
▁böj	-2681
stjän	-2682
äcker	-2683
▁hämn	-2684
▁tapp	-2685
▁Simon	-2686
▁borde	-2687
▁furst	-2688
▁hände	-2689
▁intog	-2690
▁skepp	-2691
▁trösk	-2692
▁varen	-2693
▁Konung	-2694
▁behåll	-2695
▁hemsök	-2696
▁honung	-2697
▁ondska	-2698
▁Eleasar	-2699
▁fördriv	-2700
▁Galileen	-2701
▁tungomål	-2702
▁ogudaktigas	-2703
ölj	-2704
▁As	-2705
▁nå	-2706
ehem	-2707
gåva	-2708
lösa	-2709
raga	-2710
▁Mis	-2711
dräkt	-2712
▁inga	-2713
▁skon	-2714
▁glada	-2715
▁heter	-2716
▁kring	-2717
▁kross	-2718
▁murar	-2719
▁stånd	-2720
▁vilse	-2721
▁förråd	-2722
▁gången	-2723
▁trodde	-2724
▁förvand	-2725
▁omtalade	-2726
▁vilddjur	-2727
▁bergsbygd	-2728
▁förgården	-2729
▁konungars	-2730
▁sanningen	-2731
▁skriftlärde	-2732
ses	-2733
▁va	-2734
▁ve	-2735
ktet	-2736
rett	-2737
äckt	-2738
▁Säg	-2739
▁mid	-2740
▁pur	-2741
amask	-2742
hända	-2743
ileam	-2744
▁Mika	-2745
▁borg	-2746
▁lyck	-2747
▁vred	-2748
▁även	-2749
▁ödel	-2750
▁kamel	-2751
▁kände	-2752
▁trygg	-2753
▁hjälpa	-2754
▁vingar	-2755
▁fängelse	-2756
▁församla	-2757
▁tackoffer	-2758
▁äktenskap	-2759
▁främlingar	-2760
▁vittnesbör	-2761
▁förskräckelse	-2762
»;	-2763
éen	-2764
▁äd	-2765
aktt	-2766
iven	-2767
otvå	-2768
örja	-2769
▁hin	-2770
▁nät	-2771
ygden	-2772
▁Aser	-2773
▁drab	-2774
▁likt	-2775
shuset	-2776
▁Abram	-2777
▁Deras	-2778
▁fikon	-2779
▁judar	-2780
amaskus	-2781
▁Bileam	-2782
▁begått	-2783
▁förfär	-2784
▁kallas	-2785
▁någons	-2786
▁smorde	-2787
▁ungdom	-2788
▁förtära	-2789
▁förutom	-2790
▁väsende	-2791
▁Damaskus	-2792
▁styggelser	-2793
tar	-2794
äld	-2795
öja	-2796
jord	-2797
▁Pil	-2798
▁döm	-2799
▁par	-2800
▁säl	-2801
▁öra	-2802
▁Mord	-2803
▁häng	-2804
▁lukt	-2805
▁lågo	-2806
▁mans	-2807
▁näst	-2808
▁skön	-2809
▁Medan	-2810
▁byggt	-2811
▁flytt	-2812
▁psalm	-2813
▁furste	-2814
▁sträck	-2815
▁änglar	-2816
▁Mordoka	-2817
▁förbliva	-2818
▁människan	-2819
▁trofasthet	-2820
▁Sannerligen	-2821
▁alltsammans	-2822
▁sannerligen	-2823
tan	-2824
▁sä	-2825
ares	-2826
nuft	-2827
tare	-2828
▁Mah	-2829
▁båt	-2830
▁efa	-2831
▁mål	-2832
▁oom	-2833
▁sår	-2834
tiden	-2835
▁Sara	-2836
▁rytt	-2837
▁skog	-2838
▁tror	-2839
▁beder	-2840
▁drömm	-2841
▁fröjd	-2842
▁försv	-2843
▁gräns	-2844
▁muren	-2845
▁upply	-2846
▁förnäm	-2847
▁slakta	-2848
▁ångest	-2849
▁Salomos	-2850
▁förloss	-2851
▁oomskur	-2852
▁skatter	-2853
▁övergivit	-2854
döm	-2855
hög	-2856
las	-2857
ckes	-2858
sias	-2859
▁rot	-2860
falla	-2861
▁Asar	-2862
▁helt	-2863
▁hörn	-2864
▁krön	-2865
▁pest	-2866
▁utsk	-2867
▁växa	-2868
▁årsg	-2869
boskap	-2870
eligen	-2871
samhet	-2872
ändiga	-2873
▁anden	-2874
▁femte	-2875
▁linne	-2876
▁orent	-2877
▁sutto	-2878
▁tacka	-2879
▁vapen	-2880
▁herres	-2881
▁lovade	-2882
▁fruktar	-2883
▁markens	-2884
▁evärdlig	-2885
▁frambära	-2886
▁händerna	-2887
▁oförnuft	-2888
▁undervisa	-2889
▁Nebukadnes	-2890
▁välsignelse	-2891
▁äktenskapsb	-2892
bon	-2893
äta	-2894
▁Ob	-2895
atus	-2896
gade	-2897
sikt	-2898
öden	-2899
▁Uss	-2900
▁Väl	-2901
▁bab	-2902
▁gån	-2903
densk	-2904
hustr	-2905
orden	-2906
▁begå	-2907
▁foro	-2908
▁höga	-2909
▁ljuv	-2910
▁slöt	-2911
▁timm	-2912
ästare	-2913
▁Rehab	-2914
▁ditin	-2915
▁förbi	-2916
▁givas	-2917
▁nitäl	-2918
▁höjden	-2919
▁slagit	-2920
▁spillo	-2921
▁sätter	-2922
denskull	-2923
▁babylon	-2924
▁månader	-2925
▁Allsmäkt	-2926
▁försmäkt	-2927
▁skyndade	-2928
▁fåfänglighet	-2929
▁sångmästaren	-2930
po	-2931
avl	-2932
eon	-2933
ier	-2934
kat	-2935
por	-2936
elat	-2937
emål	-2938
▁Lab	-2939
▁byar	-2940
▁glad	-2941
▁gräs	-2942
▁hård	-2943
▁inre	-2944
▁pass	-2945
▁Abner	-2946
▁Ester	-2947
▁Sadok	-2948
▁Sakar	-2949
▁afton	-2950
▁borta	-2951
▁ceder	-2952
▁funno	-2953
▁hedna	-2954
▁herde	-2955
▁liten	-2956
▁löfte	-2957
▁mätte	-2958
▁bliven	-2959
▁gästab	-2960
▁tjurar	-2961
▁vänner	-2962
▁Pilatus	-2963
▁hjärtat	-2964
▁skänker	-2965
▁vinning	-2966
▁Mordokai	-2967
▁sabbaten	-2968
▁träffade	-2969
▁småboskap	-2970
▁upptecknat	-2971
▁babyloniske	-2972
eus	-2973
omm	-2974
▁Din	-2975
▁garn	-2976
▁täck	-2977
▁väll	-2978
▁dräpt	-2979
▁iaktt	-2980
▁mätta	-2981
▁orter	-2982
▁slipp	-2983
▁fattig	-2984
▁palats	-2985
▁stötte	-2986
▁vilkas	-2987
▁ängeln	-2988
▁fattiga	-2989
▁huvudet	-2990
▁händers	-2991
▁förbunds	-2992
▁dödsriket	-2993
▁hemlighet	-2994
▁upptändes	-2995
▁förkunnade	-2996
tr	-2997
ts	-2998
ude	-2999
▁bi	-3000
▁ma	-3001
hövd	-3002
ifta	-3003
revo	-3004
vakt	-3005
▁Hög	-3006
▁Mik	-3007
▁heb	-3008
yning	-3009
▁kort	-3010
▁prov	-3011
▁råda	-3012
▁åtta	-3013
nelsen	-3014
▁Basan	-3015
▁Tyrus	-3016
▁anför	-3017
▁avdel	-3018
▁hatar	-3019
▁komme	-3020
▁månad	-3021
▁nådig	-3022
ställde	-3023
▁Jeriko	-3024
▁försyn	-3025
▁förvär	-3026
▁ovanpå	-3027
▁sextio	-3028
▁överfl	-3029
▁Messias	-3030
▁bittida	-3031
▁kroppen	-3032
▁ovänner	-3033
▁detsamma	-3034
▁upprätta	-3035
▁araméerna	-3036
▁hednafolk	-3037
▁tjänstgör	-3038
▁fariséerna	-3039
▁brännoffret	-3040
Gud	-3041
Stå	-3042
kan	-3043
ned	-3044
pur	-3045
rop	-3046
ynd	-3047
▁Gi	-3048
alek	-3049
dakt	-3050
land	-3051
minn	-3052
ängd	-3053
▁Hor	-3054
▁vak	-3055
annsa	-3056
årdar	-3057
▁fäst	-3058
▁glöd	-3059
▁hata	-3060
▁tram	-3061
seende	-3062
ttonde	-3063
▁Jojak	-3064
▁driva	-3065
▁fullt	-3066
▁förel	-3067
▁plund	-3068
▁sinne	-3069
▁skada	-3070
▁uppeh	-3071
▁östra	-3072
▁Rubens	-3073
▁avfäll	-3074
▁beskär	-3075
▁helgat	-3076
▁högmod	-3077
▁offerg	-3078
▁purpur	-3079
▁trälar	-3080
▁Libanon	-3081
▁befästa	-3082
▁fullkom	-3083
▁kroppar	-3084
▁ansikten	-3085
▁bröderna	-3086
▁bedrövelse	-3087
▁gudsmannen	-3088
▁Nebukadnessar	-3089
stå	-3090
fäst	-3091
osen	-3092
ossa	-3093
skri	-3094
ådde	-3095
▁Gil	-3096
▁Kir	-3097
▁Nah	-3098
▁gag	-3099
aftal	-3100
handa	-3101
▁Jehu	-3102
▁gjut	-3103
▁skor	-3104
▁ståt	-3105
▁säng	-3106
▁Maria	-3107
▁Sebul	-3108
▁bästa	-3109
▁drott	-3110
▁fåren	-3111
▁föras	-3112
▁skara	-3113
▁skänd	-3114
▁Sidkia	-3115
▁bevara	-3116
▁bjuder	-3117
▁frågar	-3118
▁förbar	-3119
▁glädja	-3120
▁husets	-3121
▁betyder	-3122
▁förkast	-3123
▁hemsöka	-3124
▁kvarlev	-3125
▁vädurar	-3126
▁Rehabeam	-3127
▁försking	-3128
▁sändebud	-3129
▁därutöver	-3130
All	-3131
Gån	-3132
ams	-3133
fär	-3134
ira	-3135
odom	-3136
stod	-3137
ärna	-3138
▁Kal	-3139
▁Tag	-3140
▁ant	-3141
▁nej	-3142
▁skå	-3143
▁tra	-3144
▁våg	-3145
innor	-3146
skaff	-3147
▁fort	-3148
▁larm	-3149
▁samt	-3150
▁ungt	-3151
itiska	-3152
▁Joram	-3153
▁bevis	-3154
▁dryck	-3155
▁farit	-3156
▁ihjäl	-3157
▁ofärd	-3158
▁reste	-3159
▁räkna	-3160
▁vinna	-3161
▁Naftal	-3162
▁Skulle	-3163
▁brutit	-3164
▁dödade	-3165
▁föddes	-3166
▁förmår	-3167
▁frukten	-3168
▁föremål	-3169
▁ryttare	-3170
▁räddade	-3171
▁skyldig	-3172
▁offereld	-3173
▁tillhörande	-3174
▁missgärningar	-3175
ymm	-3176
▁vr	-3177
adöm	-3178
agit	-3179
klag	-3180
ovad	-3181
stol	-3182
▁möt	-3183
▁nal	-3184
nader	-3185
▁Beer	-3186
▁Gads	-3187
▁brud	-3188
▁grät	-3189
▁gåva	-3190
▁lova	-3191
▁lösa	-3192
▁mott	-3193
▁oliv	-3194
▁vind	-3195
▁Åter	-3196
▁Sodom	-3197
▁fjort	-3198
▁flera	-3199
▁givet	-3200
▁sista	-3201
▁sjung	-3202
▁barnen	-3203
▁dörren	-3204
▁fiende	-3205
▁lägger	-3206
▁mankön	-3207
▁söners	-3208
▁berömma	-3209
▁budskap	-3210
▁tjänste	-3211
▁enlighet	-3212
▁fotstycken	-3213
▁konungarna	-3214
▁översteprästen	-3215
▁C	-3216
kel	-3217
oas	-3218
tet	-3219
▁Na	-3220
▁Un	-3221
atta	-3222
fyra	-3223
skär	-3224
stan	-3225
äten	-3226
▁Abi	-3227
▁Fil	-3228
▁Rak	-3229
▁Sab	-3230
▁Tim	-3231
▁brä	-3232
▁utk	-3233
▁Asaf	-3234
▁Isma	-3235
▁ford	-3236
▁född	-3237
▁gren	-3238
▁möda	-3239
▁ring	-3240
▁sker	-3241
▁vist	-3242
ammare	-3243
ydande	-3244
▁åsnor	-3245
▁överd	-3246
innande	-3247
▁gossen	-3248
▁munnen	-3249
▁mörkbl	-3250
▁synden	-3251
▁tretti	-3252
kommande	-3253
▁bestånd	-3254
▁dottern	-3255
▁förstod	-3256
▁förstår	-3257
▁hämtade	-3258
▁uppstån	-3259
▁vällukt	-3260
▁eländiga	-3261
▁iakttaga	-3262
▁övermått	-3263
▁likaledes	-3264
▁spetälska	-3265
▁tjänarinna	-3266
▁avkomlingar	-3267
▁välbehaglig	-3268
Sk	-3269
Ack	-3270
Din	-3271
▁ön	-3272
alak	-3273
amar	-3274
ocka	-3275
ätte	-3276
▁Has	-3277
▁Per	-3278
▁grö	-3279
▁lem	-3280
▁lös	-3281
▁ägo	-3282
dagen	-3283
följa	-3284
norna	-3285
ycket	-3286
änden	-3287
▁Dina	-3288
▁Mitt	-3289
▁gods	-3290
▁grip	-3291
▁hugg	-3292
▁ihop	-3293
▁kron	-3294
▁osky	-3295
▁uppe	-3296
▁vänd	-3297
▁våll	-3298
alunda	-3299
▁Laban	-3300
▁Sions	-3301
▁behöv	-3302
▁bestå	-3303
▁brunn	-3304
▁dödas	-3305
▁frest	-3306
▁härom	-3307
▁rörde	-3308
▁samla	-3309
▁träng	-3310
▁tröst	-3311
▁välde	-3312
▁besvär	-3313
▁fångar	-3314
▁förbun	-3315
▁förgör	-3316
▁heligt	-3317
▁livets	-3318
▁sinnet	-3319
▁sträng	-3320
▁vittne	-3321
▁antalet	-3322
▁härskar	-3323
▁orenhet	-3324
▁samlade	-3325
▁tjänade	-3326
▁ödemark	-3327
▁bättring	-3328
▁strömmar	-3329
▁ståndakt	-3330
▁särskilt	-3331
▁varifrån	-3332
▁världens	-3333
▁överflöd	-3334
▁Jerobeams	-3335
▁undervisade	-3336
for	-3337
kam	-3338
ots	-3339
sel	-3340
▁hä	-3341
▁pr	-3342
ider	-3343
ripa	-3344
skyn	-3345
ugga	-3346
ukta	-3347
ulen	-3348
▁aln	-3349
▁olj	-3350
▁omg	-3351
▁prö	-3352
▁rev	-3353
▁vek	-3354
▁väv	-3355
ister	-3356
sdjur	-3357
under	-3358
▁Gide	-3359
▁Matt	-3360
▁Sina	-3361
▁dröm	-3362
▁fred	-3363
▁hals	-3364
▁utpl	-3365
mannen	-3366
▁flick	-3367
▁fäste	-3368
▁gärna	-3369
▁riken	-3370
▁smörj	-3371
▁talri	-3372
▁beslut	-3373
▁fallit	-3374
▁igenom	-3375
▁lyssna	-3376
▁mäktig	-3377
▁tjugut	-3378
▁vinden	-3379
▁hjärtas	-3380
▁stoftet	-3381
▁upprätt	-3382
▁övermod	-3383
▁ogärning	-3384
▁vederfar	-3385
▁tjänstekv	-3386
▁hövdingdöm	-3387
Tag	-3388
gal	-3389
åra	-3390
adad	-3391
ebus	-3392
odes	-3393
▁Sel	-3394
▁nya	-3395
annad	-3396
ätten	-3397
▁Hasa	-3398
▁fria	-3399
▁livs	-3400
▁äger	-3401
▁blick	-3402
▁föret	-3403
▁namns	-3404
▁plåga	-3405
▁synda	-3406
▁Helige	-3407
▁bereda	-3408
▁frälst	-3409
▁förund	-3410
▁häpnad	-3411
▁hållit	-3412
▁drabant	-3413
▁fattige	-3414
▁förlåta	-3415
▁sjukdom	-3416
▁syndare	-3417
▁fienders	-3418
▁föreskriv	-3419
▁verkligen	-3420
▁hungersnöd	-3421
▁övermåttan	-3422
▁inmönstrades	-3423
hör	-3424
▁Än	-3425
anat	-3426
eken	-3427
falt	-3428
▁Ass	-3429
▁Kom	-3430
▁Noa	-3431
▁tak	-3432
fader	-3433
heten	-3434
jämte	-3435
▁högg	-3436
▁vise	-3437
estånd	-3438
▁andar	-3439
▁hydda	-3440
▁mjölk	-3441
▁stört	-3442
▁svårt	-3443
▁templ	-3444
▁törst	-3445
▁utväl	-3446
▁velat	-3447
▁voren	-3448
▁angrip	-3449
▁barnet	-3450
▁berett	-3451
▁mindre	-3452
▁nödgas	-3453
▁tänder	-3454
▁varmed	-3455
▁Herodes	-3456
▁Naftali	-3457
▁altaren	-3458
▁helgade	-3459
▁skullen	-3460
▁gästabud	-3461
▁ståthåll	-3462
▁amoréernas	-3463
▁främlingen	-3464
▁ljusstaken	-3465
▁Allsmäktige	-3466
▁underlydande	-3467
oh	-3468
åp	-3469
dån	-3470
eja	-3471
eta	-3472
get	-3473
irs	-3474
pet	-3475
ssl	-3476
▁lä	-3477
▁si	-3478
Seba	-3479
allt	-3480
tter	-3481
▁Nab	-3482
▁Sih	-3483
▁köp	-3484
▁lyd	-3485
innan	-3486
sligt	-3487
änkte	-3488
▁Jude	-3489
▁Sera	-3490
▁grön	-3491
▁lätt	-3492
▁mynd	-3493
▁närm	-3494
▁rikt	-3495
▁sken	-3496
▁torr	-3497
ansvär	-3498
marken	-3499
▁Balak	-3500
▁konst	-3501
▁ljung	-3502
▁mötes	-3503
▁riket	-3504
▁råder	-3505
▁åminn	-3506
▁Asarja	-3507
▁hoppas	-3508
▁person	-3509
▁bespott	-3510
▁bredvid	-3511
▁klippan	-3512
▁krönika	-3513
▁sabbats	-3514
▁utgjuta	-3515
▁vinträd	-3516
▁tillfäll	-3517
▁tjugufem	-3518
▁underdån	-3519
▁furstarna	-3520
▁förföljde	-3521
▁offergåva	-3522
▁begynnelsen	-3523
▁orättfärdighet	-3524
En	-3525
sn	-3526
eka	-3527
ila	-3528
son	-3529
säg	-3530
▁Ak	-3531
▁Ba	-3532
▁Gå	-3533
▁ky	-3534
▁mö	-3535
eber	-3536
jämt	-3537
▁Vil	-3538
▁blå	-3539
▁bäv	-3540
▁hag	-3541
▁him	-3542
▁löv	-3543
▁spå	-3544
▁utl	-3545
Lehem	-3546
ammet	-3547
▁Amas	-3548
▁gäll	-3549
▁skål	-3550
▁suck	-3551
▁Över	-3552
▁Jisre	-3553
▁Natan	-3554
▁visar	-3555
▁Gideon	-3556
▁förman	-3557
▁förord	-3558
▁ingång	-3559
▁skapat	-3560
▁slippa	-3561
▁bestämt	-3562
▁bosatte	-3563
▁utvalda	-3564
▁alltjämt	-3565
▁höjderna	-3566
▁krossade	-3567
▁mörkblått	-3568
▁offergärd	-3569
▁huvudmännen	-3570
▁israeliterna	-3571
ks	-3572
öv	-3573
Nej	-3574
Väl	-3575
bas	-3576
ror	-3577
vet	-3578
▁äm	-3579
ahas	-3580
ehör	-3581
fria	-3582
nens	-3583
omer	-3584
sken	-3585
▁Saf	-3586
▁fog	-3587
▁mis	-3588
enast	-3589
komst	-3590
satta	-3591
▁band	-3592
▁blom	-3593
▁båge	-3594
▁lärt	-3595
elsens	-3596
▁Gibea	-3597
▁Haman	-3598
▁bakom	-3599
▁helga	-3600
▁lycka	-3601
▁missh	-3602
▁tända	-3603
▁upphö	-3604
▁Kirjat	-3605
▁dragen	-3606
▁enligt	-3607
▁fördol	-3608
▁höjder	-3609
▁kallar	-3610
▁lotten	-3611
▁sjätte	-3612
▁tuktan	-3613
▁fastmer	-3614
▁plägade	-3615
▁templet	-3616
▁väldiga	-3617
▁vänstra	-3618
▁begraven	-3619
▁någonsin	-3620
▁förbränna	-3621
▁förgjorde	-3622
▁invånarna	-3623
▁kvinnorna	-3624
▁tillbehör	-3625
▁åminnelse	-3626
Må	-3627
add	-3628
lös	-3629
rad	-3630
råd	-3631
idan	-3632
sför	-3633
▁Ack	-3634
▁Mid	-3635
▁Ram	-3636
▁smä	-3637
▁tår	-3638
▁Jesa	-3639
▁köpa	-3640
▁löft	-3641
▁rädd	-3642
▁svag	-3643
▁ätit	-3644
▁fören	-3645
▁förka	-3646
▁rycka	-3647
▁sluta	-3648
▁Filipp	-3649
▁Gilgal	-3650
▁havets	-3651
▁tappra	-3652
▁tältet	-3653
▁tågade	-3654
▁bortför	-3655
▁däremot	-3656
▁förstör	-3657
▁gjordes	-3658
▁bestämda	-3659
▁förrätta	-3660
▁allahanda	-3661
▁myndighet	-3662
▁inmönstrade	-3663
▁överträdelser	-3664
ai	-3665
ain	-3666
fot	-3667
räk	-3668
▁nä	-3669
▁ob	-3670
agda	-3671
ager	-3672
orda	-3673
▁Ada	-3674
▁Kor	-3675
▁dån	-3676
▁fär	-3677
▁käm	-3678
delar	-3679
delen	-3680
shopp	-3681
▁alls	-3682
▁bild	-3683
▁bäva	-3684
▁kunn	-3685
▁lägg	-3686
▁skåd	-3687
▁svek	-3688
porten	-3689
▁Rakel	-3690
▁Under	-3691
▁armar	-3692
▁burit	-3693
▁fläck	-3694
▁Benaja	-3695
▁Judeen	-3696
▁familj	-3697
▁förtor	-3698
▁kallat	-3699
▁löften	-3700
▁räknas	-3701
▁rätten	-3702
▁styrka	-3703
▁Sakarja	-3704
▁arbetet	-3705
▁behöver	-3706
▁husfolk	-3707
▁uppbygg	-3708
▁uppstod	-3709
▁vittnen	-3710
▁Allenast	-3711
▁förlåten	-3712
▁skaffade	-3713
▁skickade	-3714
▁landshövd	-3715
▁kananéerna	-3716
▁uppenbarat	-3717
▁föreskrivet	-3718
▁gensträviga	-3719
▁undervisning	-3720
ita	-3721
mål	-3722
rym	-3723
råk	-3724
uns	-3725
bete	-3726
ehas	-3727
gäng	-3728
kret	-3729
pade	-3730
unna	-3731
▁Gat	-3732
▁Ged	-3733
▁Lot	-3734
▁Sib	-3735
▁bon	-3736
▁dar	-3737
▁döp	-3738
▁hän	-3739
▁tom	-3740
▁vit	-3741
▁väp	-3742
▁ypp	-3743
▁ätt	-3744
jorda	-3745
livet	-3746
ragen	-3747
ämmer	-3748
▁Silo	-3749
▁bådo	-3750
▁börd	-3751
▁korn	-3752
▁känt	-3753
▁leda	-3754
▁rygg	-3755
▁smäd	-3756
▁Samar	-3757
▁Simei	-3758
▁aktar	-3759
▁betyg	-3760
▁dömer	-3761
▁envar	-3762
▁flykt	-3763
▁jebus	-3764
▁likna	-3765
▁vinet	-3766
▁Ismael	-3767
▁avguda	-3768
▁avskil	-3769
▁begjut	-3770
▁behöva	-3771
▁drabba	-3772
▁fattas	-3773
▁främst	-3774
▁fröjda	-3775
▁herrar	-3776
▁hyddor	-3777
▁tronen	-3778
▁upplåt	-3779
▁allting	-3780
▁bihustr	-3781
▁fattade	-3782
▁ungtjur	-3783
▁gräshopp	-3784
▁gudstjän	-3785
▁huvudmän	-3786
▁härefter	-3787
▁överallt	-3788
▁översten	-3789
▁keruberna	-3790
▁tillfälle	-3791
▁vingårdar	-3792
▁tillsyning	-3793
▁drabanterna	-3794
▁ogudaktighet	-3795
Giv	-3796
dag	-3797
räd	-3798
tur	-3799
urs	-3800
usa	-3801
▁er	-3802
▁fo	-3803
▁lu	-3804
anan	-3805
fött	-3806
iels	-3807
mnen	-3808
pres	-3809
stes	-3810
ödde	-3811
▁Jab	-3812
▁Net	-3813
▁Sin	-3814
▁ked	-3815
darna	-3816
ionde	-3817
ornas	-3818
▁Tala	-3819
▁dröj	-3820
▁halv	-3821
▁kalk	-3822
▁ädla	-3823
kreter	-3824
▁Kaleb	-3825
▁Mispa	-3826
▁altar	-3827
▁dalen	-3828
▁förne	-3829
▁gälla	-3830
▁hämnd	-3831
▁krets	-3832
▁undfå	-3833
▁Jesaja	-3834
▁anslag	-3835
▁brände	-3836
▁skräck	-3837
▁släppa	-3838
▁träden	-3839
▁vittna	-3840
▁begärde	-3841
▁behålla	-3842
▁folkens	-3843
▁hjältar	-3844
▁omvända	-3845
▁anförare	-3846
▁dörrvakt	-3847
▁förbarma	-3848
▁förlossa	-3849
▁sekreter	-3850
▁talenter	-3851
▁amoréerna	-3852
▁hedningar	-3853
▁smörjelse	-3854
▁särskilda	-3855
▁fullbordas	-3856
▁konungadöm	-3857
▁förbundsark	-3858
▁välluktande	-3859
▁konungshuset	-3860
▁äktenskapsbrott	-3861
iet	-3862
its	-3863
Allt	-3864
gent	-3865
rets	-3866
segg	-3867
▁Jed	-3868
▁avv	-3869
▁gul	-3870
▁leg	-3871
▁res	-3872
▁vån	-3873
Denne	-3874
annen	-3875
dalen	-3876
yrade	-3877
▁Adon	-3878
▁Rama	-3879
▁dubb	-3880
▁flyg	-3881
▁hund	-3882
▁plöt	-3883
▁väkt	-3884
▁värn	-3885
▁åsna	-3886
▁Esaus	-3887
▁Merar	-3888
▁Varen	-3889
▁fånga	-3890
▁göras	-3891
▁hugga	-3892
▁klädd	-3893
▁lustg	-3894
▁sjuka	-3895
▁uttyd	-3896
▁visst	-3897
▁värde	-3898
▁Amasja	-3899
▁Hesbon	-3900
▁Semaja	-3901
▁Simson	-3902
▁Vidare	-3903
▁arbeta	-3904
▁blygas	-3905
▁omskur	-3906
▁själar	-3907
▁åkalla	-3908
ydlandet	-3909
▁Gileads	-3910
▁försvar	-3911
▁förtälj	-3912
▁gärning	-3913
▁liknade	-3914
▁livkläd	-3915
▁tillred	-3916
▁utrotas	-3917
▁vänster	-3918
▁	-3919
a	-3920
e	-3921
n	-3922
r	-3923
t	-3924
s	-3925
d	-3926
l	-3927
o	-3928
i	-3929
m	-3930
h	-3931
g	-3932
k	-3933
v	-3934
ä	-3935
u	-3936
f	-3937
å	-3938
c	-3939
,	-3940
ö	-3941
b	-3942
p	-3943
.	-3944
j	-3945
E	-3946
y	-3947
R	-3948
H	-3949
»	-3950
;	-3951
S	-3952
D	-3953
N	-3954
O	-3955
:	-3956
J	-3957
I	-3958
M	-3959
G	-3960
A	-3961
?	-3962
-	-3963
T	-3964
V	-3965
B	-3966
'	-3967
F	-3968
K	-3969
L	-3970
P	-3971
é	-3972
!	-3973
x	-3974
U	-3975
Ä	-3976
Å	-3977
Ö	-3978
(	-3979
)	-3980
C	-3981
Y	-3982
2	-3983
0	-3984
4	-3985
6	-3986
1	-3987
8	-3988
9	-3989
ó	-3990
3	-3991
5	-3992
7	-3993
í	-3994
]	-3995
á	-3996
