<pad>	0
</s>	0
<unk>	0
,	-2.9904
▁ᎠᎴ	-3.68154
.	-3.70648
▁ᎾᏍᎩ	-3.9056
Ꮓ	-4.01685
;	-4.10624
▁Ꭴ	-4.19303
Ꭹ	-4.31125
Ꮅ	-4.34654
Ꭲ	-4.35706
Ꮫ	-4.40577
Ꮣ	-4.44405
Ꮒ	-4.52121
Ꮎ	-4.52822
▁Ꭰ	-4.53571
Ꮧ	-4.57007
▁ᎯᎠ	-4.60132
Ꭶ	-4.63127
Ꮕ	-4.67759
▁	-4.70466
▁ᎨᏒ	-4.76651
Ꮈ	-4.8889
Ꭿ	-4.88929
ᏍᏗ	-4.89372
Ꮑ	-4.97606
Ꭽ	-4.99028
Ꮙ	-5.02658
Ꮵ	-5.03785
Ꮩ	-5.07762
Ꭺ	-5.11939
Ꮿ	-5.15046
▁ᎥᏝ	-5.19643
▁ᎨᏒᎢ	-5.23164
Ꭼ	-5.26076
▁Ꮷ	-5.29148
ᏰᏃ	-5.29502
▁Ꮧ	-5.32948
Ꮟ	-5.34746
▁ᎤᏁᎳᏅᎯ	-5.35478
Ꮢ	-5.36361
▁Ꭶ	-5.36796
Ꭸ	-5.39158
Ᏹ	-5.40395
▁Ꮎ	-5.44032
Ꮹ	-5.47116
Ᏺ	-5.47175
▁ᎤᏂ	-5.47677
Ᏸ	-5.5222
ᏍᎩ	-5.52783
Ᏼ	-5.53663
Ꮥ	-5.53695
Ꮃ	-5.53797
Ꮆ	-5.54766
▁Ꮵ	-5.56052
Ꮳ	-5.57045
Ꮄ	-5.57472
Ꮺ	-5.60503
Ꮂ	-5.60971
Ꭾ	-5.61211
▁Ꮪ	-5.61308
▁ᎠᏂ	-5.62161
Ꮞ	-5.6359
Ꮻ	-5.64264
Ꭵ	-5.66077
Ᏻ	-5.66868
▁Ꮣ	-5.69595
ᏍᏓ	-5.70021
?	-5.72149
ᏍᎩᏂ	-5.72175
▁ᎩᎶ	-5.73577
Ꮤ	-5.78511
Ꮲ	-5.79498
ᏍᎦ	-5.81863
▁ᎾᏍᏉ	-5.81893
▁ᏴᏫ	-5.83884
▁Ꮳ	-5.84368
Ꮸ	-5.84919
▁Ꭲ	-5.85679
Ꮴ	-5.86001
▁ᏥᏌ	-5.86783
ᏗᏱ	-5.87014
▁Ꭱ	-5.89328
▁ᎠᏴ	-5.9122
-	-5.92553
Ꮨ	-5.93021
▁ᎢᏥ	-5.93795
▁ᎤᎾ	-5.94072
▁ᎨᏎᏍᏗ	-5.94795
▁ᎬᏩ	-5.96538
▁Ᏹ	-5.97013
Ꮇ	-5.9751
ᏍᏗᏱ	-5.98644
Ꮖ	-5.98939
▁ᏂᎨᏒᎾ	-6.01839
▁ᎤᎬᏫᏳᎯ	-6.02277
▁ᏥᎩ	-6.0369
Ꮜ	-6.03742
▁ᏂᎯ	-6.04722
▁ᎾᏍᎩᏯ	-6.06894
Ꮪ	-6.08448
Ꮼ	-6.08924
▁ᎢᏳᏍᏗ	-6.09152
▁ᎠᏎᏃ	-6.09188
▁Ꮔ	-6.12579
▁ᎢᏳ	-6.14195
▁Ꮻ	-6.14341
▁ᎾᎿ	-6.16949
ᏍᎪ	-6.19771
▁Ꭼ	-6.19992
▁ᎦᎶᏁᏛ	-6.21167
ᎯᏳ	-6.21467
▁ᎢᎦ	-6.21826
▁ᎢᏣ	-6.23518
▁Ꮥ	-6.24435
▁ᏱᎩ	-6.25248
ᏤᎵ	-6.27103
Ꮠ	-6.28304
▁ᎠᎩ	-6.29229
Ꭱ	-6.31702
Ꭷ	-6.32651
▁ᎪᎱᏍᏗ	-6.32736
ᏍᏛ	-6.35051
ᏍᎨᏍᏗ	-6.36257
▁ᏂᎦᏛ	-6.36584
ᏰᎸ	-6.3863
Ꮔ	-6.40935
▁ᎣᏍᏛ	-6.42398
ᏁᎸ	-6.42712
ᏍᎬ	-6.43407
Ꮦ	-6.44695
Ꭰ	-6.46828
ᏅᎯ	-6.46836
ᏓᏅ	-6.47972
▁ᎠᏆ	-6.48002
▁ᎢᏨ	-6.48193
▁ᎢᏳᏃ	-6.49009
▁Ꮒ	-6.49471
ᏍᏆ	-6.5083
Ꮀ	-6.54065
▁ᎿᏉᏃ	-6.55285
▁ᎤᏲ	-6.56287
ᏁᎢ	-6.57019
ᏍᎬᎢ	-6.59819
▁Ꭿ	-6.60411
▁ᎤᏪᏥ	-6.62075
▁ᏞᏍᏗ	-6.62201
▁ᎤᏪ	-6.62357
▁ᎡᎶᎯ	-6.62471
▁Ꭸ	-6.63523
▁Ꭵ	-6.6369
ᏓᎴ	-6.63765
ᏎᎢ	-6.64796
▁ᎤᏣᏘ	-6.64903
ᏒᎩ	-6.65322
▁ᎤᏩᏒ	-6.66019
ᏔᏅᎯ	-6.67383
Ꮶ	-6.68469
▁ᎠᏥ	-6.68714
ᎮᏍᏗ	-6.69569
▁ᎾᏍᎩᏃ	-6.69823
ᏅᎩ	-6.69921
▁Ꮽ	-6.70154
Ꮏ	-6.70158
▁ᏂᎦᎥ	-6.70446
Ꮘ	-6.7342
▁ᎿᏉ	-6.73721
ᏁᏗᏱ	-6.74064
▁Ᏻ	-6.74522
▁ᎦᏙ	-6.74967
Ꭻ	-6.75739
ᎸᎩ	-6.76867
ᎸᎯ	-6.77015
▁ᎠᏥᎸ	-6.77533
ᎬᏩ	-6.77744
▁ᎠᎾ	-6.78395
▁Ꮿ	-6.78808
ᏩᏛ	-6.79062
▁Ꮕ	-6.79378
▁Ꭳ	-6.80102
▁ᎬᏂᎨᏒ	-6.80193
▁ᎤᏓ	-6.81071
ᎲᎢ	-6.82829
▁ᏚᏂ	-6.83225
ᏁᎸᎯ	-6.83548
▁ᎠᏓᏅᏙ	-6.84284
▁ᏄᏍᏛ	-6.84443
▁ᎪᎯ	-6.84956
▁ᏗᏂ	-6.852
▁ᎧᏃᎮᏛ	-6.85606
▁ᎠᏓ	-6.8578
ᏄᎪ	-6.86314
ᏁᏗ	-6.86951
▁ᎦᎸᏉᏗᏳ	-6.87268
ᏙᎵ	-6.87483
Ꮡ	-6.87922
▁ᎤᏁ	-6.88018
▁Ꮶ	-6.88209
▁ᎦᎸᎳᏗ	-6.88823
▁ᏧᎾ	-6.89979
▁ᎤᏟ	-6.90366
▁Ꮴ	-6.91116
▁ᎾᎯᏳ	-6.91835
▁ᎣᏏᏳ	-6.91992
▁ᏗᎧᎿᏩᏛᏍᏗ	-6.92709
▁ᎢᏴᏛ	-6.93446
ᏙᏗ	-6.93841
Ꮯ	-6.94915
Ꭴ	-6.95279
▁Ꮩ	-6.95325
▁ᏧᏂ	-6.95464
Ꮰ	-6.95919
Ꮝ	-6.96231
ᏁᎵ	-6.97309
ᏍᏙᏗ	-7.00002
▁ᎠᏎ	-7.00336
▁ᎯᎠᏃ	-7.00656
ᏁᎯ	-7.00715
▁ᎾᏂᎥ	-7.00987
▁ᎡᎯ	-7.01271
▁ᎢᎩ	-7.01347
ᏅᎢ	-7.01625
▁ᎠᏍᎦᏯ	-7.02567
ᏁᎭ	-7.02754
ᏔᏅ	-7.03133
▁ᎢᏯ	-7.03275
ᎦᏔᎭ	-7.03381
▁ᏌᏉ	-7.03653
ᏍᏚ	-7.04021
ᎦᏘ	-7.04045
ᎯᏍᏗ	-7.04179
▁ᏗᎦ	-7.05262
Ꮗ	-7.05772
ᏍᎪᎢ	-7.05912
▁ᏄᏪᏎᎢ	-7.0702
Ꮷ	-7.07927
▁ᎤᏤᎵᎦ	-7.08361
ᏚᎵ	-7.08715
ᏍᎨ	-7.09608
ᎴᎢ	-7.0962
▁ᎨᏥ	-7.10563
ᏍᏙ	-7.11063
ᎦᏔᎲ	-7.11207
ᏨᎯ	-7.11623
▁ᎤᏬ	-7.12484
ᎦᎵ	-7.13129
ᎲᎩ	-7.13152
▁ᎬᏂᏳᏉ	-7.13904
ᎸᎢ	-7.13966
▁ᏂᎦ	-7.14013
ᏒᎢ	-7.14106
▁ᎤᎵ	-7.152
ᎵᏍᏓ	-7.15507
▁ᏍᎩ	-7.15659
ᏙᏓ	-7.15694
▁ᎤᏤᎵ	-7.16129
▁Ꭺ	-7.16432
▁ᎡᏥ	-7.17072
ᏍᏕ	-7.17663
ᎪᎲ	-7.18108
ᏍᎨᎢ	-7.19396
▁ᎢᏳᎵᏍᏙᏗᏱ	-7.194
ᏲᎱ	-7.19844
ᏍᏙᏗᏱ	-7.20543
▁ᏕᏥ	-7.20611
▁ᏗᎨ	-7.21
ᎨᏍᏗ	-7.21236
ᎦᏴᎵᎨ	-7.21779
▁ᏚᎾ	-7.21938
▁ᏰᎵ	-7.2204
ᏛᎦ	-7.22343
▁ᏚᏳᎪᏛ	-7.22746
ᏪᎳ	-7.23183
ᎴᏅ	-7.23507
▁ᏥᏌᏃ	-7.23968
▁[	-7.24217
ᎮᎢ	-7.24218
ᏲᎵ	-7.24227
ᏁᎲ	-7.24295
ᎢᏳ	-7.24672
]	-7.25209
▁Ꮹ	-7.25342
▁ᏗᏣ	-7.2636
▁ᎤᏂᏣᏘ	-7.26723
▁ᏗᏥ	-7.27204
▁ᏂᎬ	-7.28004
ᏒᎯ	-7.28576
Ꮋ	-7.28763
ᏍᏕᎸ	-7.28938
ᏗᎭ	-7.29286
▁ᎨᏎᎢ	-7.29562
▁ᏕᏣ	-7.3039
▁ᏕᎦ	-7.30689
ᏂᎸ	-7.30786
ᏍᏔᏅ	-7.33172
ᎢᏍᏗ	-7.3336
▁Ꭽ	-7.33499
ᏗᏍᎬ	-7.3358
▁ᎠᏁᎯ	-7.34007
▁ᏂᏥ	-7.34505
Ꮱ	-7.34598
ᎵᏍᏙᏗ	-7.34717
▁ᏔᎵᏁ	-7.34789
▁ᎠᏂᏧᏏ	-7.35167
ᏲᏎ	-7.35631
▁ᏧᏓᎴᏅᏛ	-7.36273
▁ᏂᏣ	-7.36638
ᏓᏅᏛ	-7.37124
ᏍᎬᎾ	-7.37465
▁ᎬᏩᏍᏓᏩᏗᏙᎯ	-7.37478
ᏙᎯ	-7.37546
ᎯᏍᏗᏱ	-7.38178
▁ᎤᎬᏩᎵ	-7.3971
ᎰᎢ	-7.39846
ᎬᎢ	-7.40071
▁ᏥᎪ	-7.40425
▁ᏄᎾ	-7.42332
▁ᏣᏂ	-7.42585
▁ᎢᏤ	-7.42591
▁ᏉᎳ	-7.43231
ᎷᏨ	-7.43685
ᏁᎴ	-7.44176
ᏲᎯ	-7.44357
ᏍᎬᎩ	-7.4437
▁ᎣᎩ	-7.45122
▁ᏓᏂ	-7.4585
▁ᎤᎾᏓ	-7.46128
ᏁᎸᎩ	-7.46216
▁ᏈᏓ	-7.46244
▁ᎤᏁᏨ	-7.46477
ᎳᏫ	-7.46549
ᏁᎮᏍᏗ	-7.46934
ᏗᏍᎩ	-7.47575
ᏄᏬ	-7.48987
▁ᏂᏚ	-7.50477
▁ᎦᎪ	-7.50631
▁ᏂᎪᎯᎸ	-7.50633
▁Ᏼ	-7.50799
▁ᏂᏚᏪᏎᎴᎢ	-7.50875
▁ᎠᎦ	-7.5099
ᎲᎾ	-7.51059
ᏁᎴᎢ	-7.51526
ᏛᎩ	-7.51552
ᎲᏍᎩ	-7.51713
ᏅᏏᏓᏍᏗ	-7.51923
ᎳᏗ	-7.51957
ᎦᏛ	-7.52021
▁ᏄᏪᏒᎩ	-7.52404
▁ᎪᎯᏳᏗ	-7.53266
▁ᎠᎹ	-7.53374
▁ᎤᏙᎯᏳᎯᏯ	-7.53639
▁ᏅᏓ	-7.54206
▁ᏄᏪᏎᎴᎢ	-7.54985
▁ᏥᏂ	-7.55856
▁ᏝᏍᎪ	-7.55909
▁ᎦᏙᏃ	-7.56654
ᏓᏅᏙ	-7.57191
▁ᎬᏗ	-7.57441
ᏯᏅ	-7.57859
ᏁᎸᎢ	-7.58241
ᎧᎿ	-7.59094
▁Ꮸ	-7.59624
Ꮭ	-7.59873
▁ᏱᏥ	-7.60559
▁ᏥᎷᏏᎵᎻ	-7.6077
▁ᎢᏧᎳᎭ	-7.60772
▁ᎢᎬᏱ	-7.61454
▁ᎣᎦ	-7.61635
▁ᎤᏅᏒ	-7.61927
Ꮮ	-7.62197
▁ᎠᏏ	-7.62446
▁ᏗᎬᏩ	-7.62653
ᏐᏅ	-7.62671
▁ᏔᎵ	-7.63491
▁ᏦᎢ	-7.63577
▁ᏣᎬᏫᏳᎯ	-7.64395
▁ᎨᏒᎩ	-7.64663
ᏪᏎᎸ	-7.65317
▁ᎤᏕ	-7.65635
▁ᎡᏣ	-7.65869
ᏤᎢ	-7.66118
▁ᎡᏍᎦ	-7.66134
▁ᏂᏚᏪᏎᎸᎩ	-7.66633
▁ᎠᎨᏴ	-7.66673
ᏙᏗᏱ	-7.66948
▁ᎬᏂᏛ	-7.66968
▁ᎢᎦᏛ	-7.67326
ᏗᏍᎨᏍᏗ	-7.6795
▁Ꮫ	-7.68142
▁ᏅᏩᏓᎴ	-7.68155
▁ᎠᏰᎵ	-7.68273
▁ᏱᏂ	-7.68776
ᏔᏂ	-7.68781
▁ᏄᏪᏎᎸᎩ	-7.69701
▁ᎦᏚ	-7.69842
▁ᎠᏰᎸ	-7.70057
▁ᎢᎬ	-7.70928
Ꭳ	-7.71163
▁ᏙᏓ	-7.71568
▁ᎦᏚᎲ	-7.71959
ᎶᏗ	-7.73021
▁ᏂᎦᏗᏳ	-7.73673
▁ᏕᎤ	-7.741
ᏔᏁ	-7.74114
▁Ꮡ	-7.74146
▁ᎤᏓᏙᎵᏍᏗ	-7.74166
ᎾᏄᎪᏫ	-7.7428
▁ᎠᏕᎸ	-7.74552
ᏛᎾ	-7.74673
▁ᏅᏗᎦᎵᏍᏙᏗᎭ	-7.75299
▁ᏧᏪᏥ	-7.75327
▁ᏥᏄ	-7.7566
ᎪᎢ	-7.76438
▁ᏱᏗ	-7.76857
▁ᏧᎾᏓᎴᏅᏛ	-7.76959
▁Ꭷ	-7.77255
ᏕᏲ	-7.77619
▁ᏭᏂ	-7.77773
ᏟᎶᏍ	-7.77875
ᏍᏕᏍᏗ	-7.78547
ᏁᎲᎢ	-7.79057
ᎵᏏ	-7.79197
▁ᎢᏯᏂᏛ	-7.7953
▁Ꮟ	-7.80262
ᏍᏔᏅᎯ	-7.80318
▁ᎾᎥ	-7.8068
Ꮉ	-7.81906
▁ᎤᎾᎵ	-7.81907
▁ᏥᏚ	-7.82128
▁ᎣᏂ	-7.82479
ᏅᏎ	-7.82493
ᏕᎩ	-7.82882
▁ᏄᎵᏍᏔᏅ	-7.83051
ᏍᏔᏂ	-7.83087
▁ᎬᏂ	-7.84024
ᎫᏴ	-7.84127
▁ᏓᎾ	-7.84162
ᏁᎳ	-7.84667
▁ᎾᏍᎩᏯᎢ	-7.85643
ᏁᏟᏴ	-7.85707
ᏓᏙᎵᏍᏗ	-7.85928
▁ᏱᎦ	-7.85933
▁ᏅᎩ	-7.86308
▁ᎠᏏᏴᏫ	-7.86617
ᎵᏍᏓᏴᏗ	-7.87067
ᏎᏍᏗ	-7.87107
▁ᏫᏚ	-7.87489
▁ᎪᏪᎵ	-7.87552
ᏁᏨ	-7.87663
ᎶᏒ	-7.87867
ᏍᏓᏴ	-7.8799
▁ᎠᏫ	-7.88646
▁ᎤᏙᎯᏳᎯ	-7.89225
▁ᎩᎳᏉ	-7.8942
▁ᎬᏩᎦᏘᏯ	-7.89423
ᏁᎳᏅᎯ	-7.90008
▁ᎢᏗ	-7.90506
▁ᏗᏓ	-7.91208
ᏠᏱ	-7.91537
ᏉᏍᎩᏂ	-7.92164
▁ᎠᏏᏉ	-7.92315
▁Ꮜ	-7.92432
"	-7.93285
▁ᏧᎾᏁᎶᏗ	-7.93286
ᎲᏍᎦ	-7.93344
ᏍᎩᏂᏃᏅ	-7.9446
▁ᎤᏲᎱᏒ	-7.9544
ᏔᏅᎩ	-7.95708
▁ᎢᎦᎢ	-7.95731
▁ᎢᏣᏓ	-7.95919
!	-7.96285
▁ᏄᎬᏫᏳᏒ	-7.96285
▁ᎢᏳᏩᏂᏌᏛ	-7.97305
▁ᏂᏨᏪᏎᎭ	-7.97305
▁ᎤᏇᏓᎵ	-7.97306
▁ᎠᎵ	-7.97487
▁ᎨᏣ	-7.97768
▁ᏗᎧᎿᏩᏗᏙᎯ	-7.98336
▁Ꮀ	-7.98957
ᎪᏩᏛᏗ	-7.99351
Ꮬ	-7.99378
▁ᎤᎵᏂᎩᏛ	-7.99378
▁ᎢᏓᎵᏅᏟ	-8.0043
▁ᎣᏥ	-8.00459
▁ᏗᎦᎸᏫᏍᏓᏁᏗ	-8.00504
▁ᏅᏓᏳ	-8.00911
ᏩᏗᏒ	-8.02959
▁ᏱᏣ	-8.04507
ᏛᏁᏗ	-8.04943
ᎨᏳᎯ	-8.0515
ᏅᏟ	-8.0521
▁ᎢᎦᏤᎵ	-8.05991
▁ᏱᎨᏎᏍᏗ	-8.06181
▁ᎢᏧ	-8.0665
Ꮾ	-8.0699
▁ᎦᎵᏉᎩ	-8.06992
▁ᏥᏕ	-8.07113
▁ᎤᏚᎩ	-8.07136
▁ᏅᏯ	-8.0812
▁ᎤᏍᏆᏂᎪᏗ	-8.08908
Ꮁ	-8.09132
▁ᏅᏩᏙᎯᏯᏛ	-8.09276
▁ᎤᏕᎵᏛ	-8.09303
▁ᎢᎬᏩ	-8.09338
▁ᎡᏙᏓ	-8.10067
Ꮽ	-8.10719
▁ᏂᏗ	-8.10952
▁ᏧᎬᏩᎶᏗ	-8.11616
▁ᏧᏙᎢᏛ	-8.11617
▁ᎠᏂᏍᎦᏯ	-8.11637
▁ᎢᏗᏢ	-8.12031
▁ᎤᎷᏨ	-8.12311
▁ᏄᏂᏪᏒᎩ	-8.12806
▁ᎢᎨᏎᏍᏗ	-8.12807
ᎠᏁᎶᎯ	-8.1281
ᏅᏏᏛ	-8.12938
ᏅᏒᎩ	-8.12959
▁ᏄᏂᏪᏎᎢ	-8.1401
▁ᎤᏁᎳᎩ	-8.14058
ᏎᎴ	-8.14187
ᏍᏔᏅᎩ	-8.14965
▁ᏥᎨ	-8.15213
▁ᎠᎾᏙᎴᎰᏍᎩ	-8.1523
ᏙᎴᎰᏒ	-8.1523
▁ᎤᎾᏓᏅᏘ	-8.15239
ᎵᏍᎪᎸᏓ	-8.15246
ᏁᏤᎸ	-8.15384
ᎷᏤᎸ	-8.15546
▁ᏱᏚ	-8.15563
▁ᎢᎬᏱᏱ	-8.1601
▁ᎠᏁᎲ	-8.16887
ᎦᎵᏍᏓ	-8.17089
▁ᏰᎵᏉ	-8.17196
▁ᏔᎳᏚ	-8.17715
ᏄᎪᏨ	-8.17858
▁ᎨᏎ	-8.18608
▁ᏅᏗᎦᎵᏍᏙᏗᏍᎨ	-8.1898
▁ᎢᎸᎯᏳ	-8.19001
▁ᏄᎵᏍᏔᏁ	-8.19121
ᏫᏒ	-8.19623
ᎾᏝᎢ	-8.20357
▁ᏗᎦᎳᏫᎢᏍᏗᏱ	-8.21051
▁ᎠᏂᏔᎵ	-8.21616
▁ᎢᏳᏰᏃ	-8.2169
ᏍᏔᏁ	-8.22182
ᎸᏫᏍᏓᏁᏗ	-8.22792
▁ᏌᏩᏂ	-8.22883
ᎵᏍᏕᎸᏙᏗ	-8.22946
▁ᎡᎳᏗ	-8.23495
ᏔᏁᎢ	-8.24006
▁ᏄᏂᎬᏫᏳᏒ	-8.2421
ᎦᏙᎥᎯᏍᏗ	-8.24214
▁ᎤᎾᏛᎦᏅ	-8.24263
▁ᎢᏏᎵ	-8.24279
ᏍᏗᏍᎨᏍᏗ	-8.24745
ᏬᏂᎯᏍᏗ	-8.25426
▁ᎡᏆᎭᎻ	-8.25562
▁ᏅᏓᏳᏓᎴᏅᎯ	-8.25562
▁ᏱᎰᏩ	-8.25568
ᏅᎦᎸ	-8.25633
▁ᎨᎵᎵ	-8.25649
▁ᏥᎨᏐ	-8.25785
ᏍᏔᏁᎢ	-8.26093
▁ᎠᏍᎦᏂ	-8.27067
▁ᎦᏓᎭ	-8.27079
ᎸᏉᏙᏗ	-8.27514
ᎧᏁ	-8.27633
ᎸᏉᏗᏳ	-8.27888
▁ᎠᏂᏆᎵᏏ	-8.28322
▁ᎤᎾᏤᎵᎦ	-8.28341
ᏕᏘᏴ	-8.28344
▁ᏚᏙᎥ	-8.28352
ᎨᎶᎯ	-8.28374
▁ᎼᏏ	-8.29729
▁ᏗᏂᎧᎿᏩᏗᏙᎯ	-8.29729
▁ᎤᎾᏓᏡᎬ	-8.29732
ᎬᏫᏳᏌᏕ	-8.29736
▁ᏱᎨᏎᎢ	-8.30423
ᎾᏄᎪᏫᏎ	-8.30532
▁ᏂᏨ	-8.31529
ᏌᎳ	-8.31868
▁ᎠᏙᎴᎰᏍᎩ	-8.32607
▁Ꮉ	-8.3263
ᏗᎦᎳᏫᎢᏍᏗᏱ	-8.3318
ᎬᏫᏳ	-8.34078
▁ᎠᏲᎱᎯᏍᏗ	-8.34095
ᎡᎸ	-8.35091
ᏬᏂᏍᎬ	-8.37458
▁ᎤᏛᏅ	-8.37848
ᎧᎵᎢ	-8.38797
▁ᎠᏓᏁᎸ	-8.40143
▁ᎢᏯᎦᏴᎵ	-8.40186
ᏩᏛᎲ	-8.4143
ᏃᎮᏍᎬ	-8.41613
ᏘᏂᏙᎯ	-8.41787
▁ᎠᏍᎩᎾ	-8.41981
▁ᎧᏁ	-8.42877
▁ᎠᏓᎨᏳᏗ	-8.43386
▁ᎺᎵ	-8.4339
▁ᎦᏳᎳ	-8.43416
▁ᎤᎵᏂᎩᏗᏳ	-8.45025
▁ᏂᎬᎾᏛ	-8.45068
ᏯᏅᎲ	-8.45209
▁ᎧᏁᎬ	-8.45421
▁ᎢᎾᎨ	-8.46761
▁ᎠᏍᏓᏯ	-8.46791
ᏂᏗᏳ	-8.48108
▁ᎠᎾᎵᏅᏟ	-8.4839
ᏍᏓᏩᏗᏙᎯ	-8.49851
▁ᎠᏂᏍᎩᎾ	-8.5019
ᏂᎪᎯ	-8.5079
ᏏᏴᏫᎭ	-8.51866
▁ᎨᏐᎢ	-8.51882
▁ᎠᏃᎯᏳᎲᏍᎩ	-8.53651
▁ᏆᎴᏗ	-8.53653
▁ᎦᎶᎯᏍᏗᏱ	-8.53657
ᎦᏔᎮ	-8.53732
▁ᏄᏪᏒ	-8.54187
ᏕᏯᏙ	-8.54441
▁ᏅᏩᎾᏓᎴ	-8.55469
▁ᏧᏂᏲᎱᏒᎯ	-8.5547
▁ᏥᏳᎯ	-8.55523
▁ᏂᎦᏪᏍᎬ	-8.5553
▁ᎪᏪᎸ	-8.55545
ᏚᎸᏫᏍᏓᏁ	-8.55917
▁ᎤᏙᎯᏳ	-8.56675
▁ᎢᏤᎲ	-8.56864
▁ᎦᏰᎪᎩ	-8.57322
▁ᎠᏂᎨᏴ	-8.57357
▁ᏐᎢ	-8.57435
▁ᎨᏥᏅᏏᏛ	-8.57453
▁ᏥᎨᏒᎩ	-8.57546
ᏁᏤᎴ	-8.57678
▁ᎤᎷᏤ	-8.57779
▁ᏗᏃᏪᎵᏍᎩ	-8.59208
▁ᏒᏃᏱ	-8.5921
▁ᎢᎬᏱᏗᏢ	-8.59216
▁ᎤᏓᏅᏘ	-8.59258
▁ᏄᏓᎴᏒ	-8.61143
ᏑᏰᏛ	-8.61159
ᎵᏃᎮ	-8.61516
ᎦᏔᎯ	-8.62138
▁ᎠᏋᏒ	-8.63092
▁ᎩᎦᎨ	-8.63095
▁ᎤᏤᎵᎪᎯ	-8.63113
▁ᏥᎨᏎᎢ	-8.63329
▁ᎠᎺᏉᎯ	-8.65092
▁ᎤᎾᏙᏓᏆᏍᎬ	-8.65092
▁ᎤᏂᎬᏫᏳᎯ	-8.65096
▁ᎤᏓᏅᏖ	-8.65124
▁ᏕᎨᏥ	-8.65125
▁ᎡᎶᏛ	-8.65168
▁ᎢᏳᎾᏍᏗ	-8.65192
▁ᎤᏓᎵᎢ	-8.65218
▁ᎤᏂᎷᏤ	-8.65587
▁ᏔᏕᏲᎲᏍᎩ	-8.67133
ᏠᎾᏍᏗ	-8.67178
▁ᎤᏰᎸᏛ	-8.67317
▁ᎩᎬ	-8.67494
ᏥᎤᏍᏕᏎ	-8.69216
▁ᎡᎺᏅ	-8.69217
▁ᎠᏍᎪᎯ	-8.69315
▁ᎧᏃᎮ	-8.69929
ᏪᏎᎴᎢ	-8.71083
)	-8.71344
▁ᏅᏗᎦᎵᏍᏙᏗᏍᎬ	-8.71344
▁ᎢᎪᎯᏛ	-8.71345
ᏲᎯᏎᎸ	-8.71467
▁ᎤᏛᎦᏅ	-8.71542
ᎵᎮᎵᏍᏗ	-8.72863
ᎳᏏᏕᏂ	-8.73518
ᏙᎴᎰᎯᏍᏗ	-8.73519
▁ᎤᏂᏍᎦᏅᏨ	-8.7352
▁ᎢᎸᎯᏢ	-8.73524
ᎠᏗᏔᏍᏗ	-8.73602
ᏍᏆᏂᎪᏗ	-8.74227
▁ᏅᏓᎬᏩᏓᎴᏅᏛ	-8.7574
▁ᎠᏂᏐᎢ	-8.75798
ᏗᏔᏍ	-8.76234
▁ᎦᏍᎩᎸ	-8.78364
ᎷᏤᏗᏱ	-8.79146
▁ᎢᏳᏟᎶᏛ	-8.80338
▁ᎢᏣᎵᏍᏓᏁᏗ	-8.80353
▁ᎦᎸᏉᏗ	-8.82378
▁ᏧᏂᎸᏫᏍᏓᏁᎯ	-8.82719
▁ᎠᏍᎪᎯᏧᏈ	-8.82719
ᎴᎯᏐᏗ	-8.8272
ᏓᏅᏓᏗᏍᏗ	-8.82788
▁ᏄᏪᏎᎴ	-8.83858
ᎦᏅᎯᏛ	-8.84271
▁ᏅᏓᎦᎵᏍᏙᏗᏍᎬᎩ	-8.85158
▁ᎤᎵᏍᏆᎸᏗ	-8.85158
▁ᏈᎵᎩ	-8.85159
▁ᎠᏇᏥ	-8.852
▁ᏡᎬ	-8.85231
▁ᎠᎦᏔᎲᎢ	-8.85239
ᏍᎦᎢᎮ	-8.8541
▁ᎠᏂᏯᏫᏍᎩ	-8.87658
▁ᏗᏓᏍᏚᏗᏱ	-8.87659
ᎵᏰᎢᎶ	-8.87664
▁ᎤᏂᏣᏖ	-8.87677
▁ᎢᎸᏍᎩ	-8.87721
ᎾᏰᎯᏍᏗ	-8.88095
▁ᏫᎾᏍᏛᎾ	-8.90222
▁ᎠᏓᏅᏖᏍᎬ	-8.90223
▁ᏗᎫᎪᏙᏗ	-8.90224
ᏓᎶᏂᎨ	-8.90257
ᎵᏍᎪᎸᏔᏅᎯ	-8.92635
▁ᎢᏳᎾᏛᏁᏗ	-8.92878
ᏍᏕᎵᏍᎩ	-8.92884
▁ᏚᎸᏫᏍᏓᏁᎲ	-8.92925
▁ᏄᏛᏁᎸ	-8.9326
▁ᏱᎨᏎ	-8.93518
▁ᎤᎷᎯᏍᏗ	-8.95062
▁ᏖᎸᎳᏗ	-8.95556
ᎵᏍᏆᏗᏍᎩ	-8.95582
ᎫᎪᏓ	-8.9562
ᎸᏫᏍᏓᏁᎭ	-8.97547
▁ᎭᏫᏂᏗᏢ	-8.98334
▁ᏠᎨᏏ	-8.98334
▁ᏗᎾᏓᏅᏟ	-8.98335
▁ᎤᏃᏕᎾ	-8.98343
▁ᏧᏂᎾᏫ	-8.98365
ᏓᏂᎸᎢᏍᏗ	-8.98371
ᏕᎶᏆ	-8.98372
▁ᏂᏚᏳᎪᏛᎾ	-9.01191
▁ᎢᏦᎯᏳᏒ	-9.01191
▁ᎾᏂᏪᏍᎨᎢ	-9.01192
▁ᎤᏍᎦᏅᏨ	-9.01201
▁ᎠᏤᎵᏍᏛ	-9.01221
ᏅᏏᏙᎯ	-9.01235
▁ᎤᏂᏍᏆᏂᎪᏎ	-9.04133
ᏗᎦᏅᏌᏗ	-9.04134
▁ᎢᏨᎨᏳᎢ	-9.04134
▁ᏎᏓᏂ	-9.04136
ᎨᏳᏎᏍᏗ	-9.04138
▁ᏥᏂᎬᏅ	-9.04156
Ꮊ	-9.39569
:	-9.74939
'	-10.5373
~	-11.6301
Ꮍ	-12.1301
Ꮚ	-13.1297
(	-13.1298
Ꮌ	-13.1299
Ꮛ	-13.13
[	-13.1301
\	-13.1301
