<pad>	0
</s>	0
<unk>	0
▁	-2.54443
s	-3.12492
e	-3.63521
▁the	-3.81806
.	-3.88146
,	-3.90987
t	-3.93621
o	-4.17515
d	-4.19326
p	-4.22097
▁to	-4.35879
▁of	-4.37966
▁and	-4.40566
ing	-4.40838
a	-4.4244
c	-4.48692
ed	-4.55365
▁a	-4.57957
n	-4.6058
▁in	-4.62229
y	-4.63812
u	-4.77945
m	-4.81223
ar	-4.90409
h	-4.96056
er	-4.96278
i	-4.98457
f	-5.00309
▁s	-5.0897
in	-5.0917
g	-5.09298
al	-5.14494
or	-5.14766
r	-5.1493
-	-5.1518
▁c	-5.16472
ly	-5.31712
re	-5.32144
k	-5.33547
l	-5.34241
b	-5.34866
▁for	-5.35113
▁you	-5.38814
w	-5.40935
en	-5.40937
le	-5.48249
▁f	-5.4898
an	-5.4986
▁with	-5.51688
▁your	-5.5181
▁m	-5.52561
▁on	-5.53066
▁h	-5.53516
▁be	-5.55768
on	-5.58009
at	-5.58113
-19	-5.59011
▁covid	-5.60804
▁or	-5.61492
es	-5.62022
▁The	-5.62335
▁re	-5.64976
▁is	-5.65026
▁b	-5.67638
se	-5.68371
is	-5.72364
▁are	-5.73327
▁w	-5.73919
it	-5.77896
ic	-5.78007
▁that	-5.7892
ro	-5.80751
ri	-5.84729
ent	-5.84806
▁as	-5.8546
▁have	-5.87679
v	-5.88345
ation	-5.8952
0	-5.90408
th	-5.91777
▁cases	-5.92109
ir	-5.93328
st	-5.94382
▁A	-5.95524
as	-5.96752
▁1	-5.96831
▁from	-5.97184
il	-5.98295
ch	-5.99291
ol	-6.00409
cov	-6.01591
ur	-6.04177
)	-6.04842
▁(	-6.05262
lo	-6.06338
▁g	-6.08216
▁not	-6.08314
▁were	-6.09612
1	-6.11847
us	-6.1518
▁de	-6.15309
te	-6.16901
ve	-6.1873
▁2	-6.18868
and	-6.22798
3	-6.23217
ad	-6.2325
ive	-6.23352
9	-6.23872
ter	-6.24282
2	-6.24572
om	-6.25405
ra	-6.26217
▁do	-6.26568
tion	-6.28569
6	-6.29257
id	-6.29277
4	-6.29298
ac	-6.29314
8	-6.29794
▁can	-6.3031
el	-6.30672
▁test	-6.3136
ce	-6.33977
▁will	-6.35069
5	-6.36238
la	-6.36298
▁virus	-6.3724
7	-6.38015
▁people	-6.38797
▁was	-6.3885
▁by	-6.3898
▁it	-6.41479
▁st	-6.42023
ne	-6.42182
ion	-6.43104
▁at	-6.43487
un	-6.45541
out	-6.45696
▁other	-6.45984
ity	-6.46034
ul	-6.47056
ct	-6.47251
▁p	-6.47313
ate	-6.47928
▁I	-6.48075
'	-6.48259
ers	-6.48514
am	-6.4912
▁no	-6.49269
▁con	-6.49522
▁health	-6.52896
et	-6.53102
▁who	-6.54071
▁com	-6.55884
▁has	-6.58487
▁if	-6.58678
li	-6.59458
▁an	-6.59704
▁ex	-6.60095
▁ma	-6.62277
▁been	-6.64557
▁deaths	-6.65193
▁C	-6.65239
▁reported	-6.66383
▁pro	-6.67646
▁may	-6.68199
ide	-6.68673
age	-6.69246
ng	-6.71402
tra	-6.71721
mo	-6.71935
x	-6.72634
ment	-6.72757
end	-6.74972
:	-6.75069
our	-6.76808
ig	-6.77291
▁symptoms	-6.77641
▁tr	-6.78117
▁app	-6.78145
ell	-6.80293
▁You	-6.82079
▁vaccine	-6.82382
ver	-6.82788
▁contact	-6.84223
▁pa	-6.84477
▁sars	-6.86381
im	-6.87637
▁un	-6.88018
uch	-6.89785
ial	-6.90156
act	-6.90421
▁me	-6.90929
▁disease	-6.90932
ck	-6.91787
z	-6.91947
▁v	-6.94001
▁more	-6.94108
▁4	-6.94215
j	-6.94746
▁number	-6.94979
day	-6.96629
▁coronavirus	-6.96887
▁3	-6.97029
est	-6.97632
qu	-6.98185
▁should	-6.98488
▁2020	-6.99198
▁pre	-6.99384
▁this	-6.99645
ph	-7.0026
▁use	-7.01173
ab	-7.01836
ical	-7.02021
▁march	-7.02125
vi	-7.0234
ight	-7.02896
able	-7.03038
▁all	-7.03649
ther	-7.03794
▁work	-7.03989
ies	-7.05391
ry	-7.05444
ous	-7.06049
▁also	-7.08644
▁In	-7.0869
tic	-7.10664
▁infection	-7.12628
▁di	-7.12938
▁dis	-7.12977
if	-7.13754
▁On	-7.14284
notified	-7.15123
iv	-7.15302
for	-7.15988
ia	-7.16303
ance	-7.16847
ence	-7.17262
▁outbreak	-7.18115
▁than	-7.18242
ine	-7.1838
-2	-7.19162
▁countries	-7.19425
▁about	-7.19451
▁It	-7.19762
ated	-7.20301
▁further	-7.20309
▁time	-7.20317
ould	-7.2035
▁spread	-7.20752
▁high	-7.20757
▁po	-7.22186
um	-7.22827
▁This	-7.2392
all	-7.24033
▁need	-7.24153
"	-7.2449
▁face	-7.26793
▁5	-7.26815
▁home	-7.27715
▁20	-7.28068
▁which	-7.28146
▁when	-7.28163
▁state	-7.28193
▁total	-7.28356
▁school	-7.28627
▁close	-7.28659
▁li	-7.29029
▁person	-7.29129
ach	-7.30514
had	-7.30876
way	-7.31821
▁"	-7.32941
▁over	-7.33265
▁new	-7.3418
▁pandemic	-7.34584
▁after	-7.35121
▁per	-7.35946
▁risk	-7.37183
▁patients	-7.3823
H	-7.40375
▁public	-7.40375
▁under	-7.40397
▁some	-7.40462
▁get	-7.42941
▁confirmed	-7.43122
▁first	-7.4313
▁go	-7.43565
ill	-7.44052
ru	-7.4449
sure	-7.4468
▁up	-7.45381
ian	-7.46209
▁child	-7.46516
ize	-7.47067
▁travel	-7.47683
▁data	-7.47693
▁china	-7.48858
▁any	-7.49027
▁human	-7.49449
▁sever	-7.49574
▁care	-7.4977
▁bring	-7.53126
▁government	-7.53689
▁including	-7.5431
▁imp	-7.54545
▁but	-7.55051
▁hospital	-7.56834
▁cover	-7.57265
ities	-7.57418
▁case	-7.57744
▁protect	-7.58123
▁result	-7.59424
due	-7.61073
line	-7.61151
▁february	-7.6141
▁10	-7.61584
▁days	-7.62747
▁service	-7.62757
▁stay	-7.62804
▁mask	-7.62826
▁world	-7.64122
▁cause	-7.66923
▁help	-7.66936
▁effect	-7.67619
▁two	-7.67641
▁unit	-7.67704
▁ju	-7.68104
▁part	-7.68336
▁follow	-7.69777
;	-7.70507
▁those	-7.71987
▁january	-7.72729
▁how	-7.72798
▁respirator	-7.73481
▁positive	-7.73481
▁call	-7.7538
▁previously	-7.76547
▁most	-7.76689
▁available	-7.77328
▁develop	-7.77328
▁even	-7.77453
like	-7.77622
▁dur	-7.78007
▁know	-7.80516
▁infected	-7.81329
▁week	-7.81331
▁medical	-7.81344
▁include	-7.82148
▁system	-7.83808
many	-7.86329
▁transmission	-7.8635
▁between	-7.87213
▁illness	-7.87217
▁host	-7.87277
▁possible	-7.88082
▁take	-7.88085
▁advice	-7.88959
▁april	-7.90738
ness	-7.91659
▁million	-7.92548
▁children	-7.92559
,000	-7.93465
▁place	-7.93486
▁visit	-7.94397
▁provide	-7.94398
ology	-7.95327
▁safe	-7.95343
▁recommend	-7.97221
▁treatment	-7.97221
▁restrictions	-7.97227
▁relat	-7.98891
▁prevent	-7.99159
▁country	-7.9916
▁response	-8.00134
▁social	-8.00134
▁ireland	-8.01124
▁receive	-8.01129
▁announced	-8.02124
▁long	-8.02196
▁affect	-8.04154
▁through	-8.04154
▁control	-8.04154
▁death	-8.06056
▁measures	-8.06227
▁while	-8.06227
▁level	-8.06228
count	-8.0836
▁centre	-8.08376
▁sign	-8.08379
▁show	-8.0942
▁before	-8.12745
▁anti	-8.146
▁every	-8.14985
▁cough	-8.16125
▁information	-8.16125
▁group	-8.16125
▁someone	-8.16152
▁increase	-8.17288
▁same	-8.1743
▁quarantine	-8.18464
▁where	-8.18467
▁community	-8.19655
▁immun	-8.19655
▁national	-8.19659
▁restrict	-8.22072
▁against	-8.22079
▁emergency	-8.23314
▁direct	-8.23317
viral	-8.23417
▁second	-8.24564
▁wuhan	-8.24564
▁education	-8.27112
▁large	-8.27113
▁require	-8.27113
▁protein	-8.27119
resident	-8.27128
▁early	-8.27141
▁share	-8.27148
▁fever	-8.27166
▁plan	-8.27169
▁When	-8.2841
▁students	-8.2841
▁contain	-8.28411
▁flu	-8.298
▁report	-8.29954
▁conditions	-8.31059
▁europe	-8.31059
▁support	-8.32411
▁phone	-8.32417
▁detect	-8.32418
▁italy	-8.32502
▁found	-8.33781
▁doctor	-8.33789
▁limit	-8.3379
▁clean	-8.3383
▁breath	-8.3517
▁reduce	-8.3517
▁issued	-8.35176
▁what	-8.35238
▁sample	-8.36578
▁least	-8.36591
inister	-8.36598
▁important	-8.38006
▁surveillance	-8.39456
▁keep	-8.39457
▁movements	-8.40926
▁population	-8.42419
▁chinese	-8.42419
▁2019	-8.4242
▁healthcare	-8.42421
?	-8.43934
▁estimate	-8.43935
▁appointment	-8.45472
▁immediate	-8.45472
▁avoid	-8.45473
▁years	-8.45475
essential	-8.45476
▁animal	-8.45478
isolate	-8.4671
ccording	-8.48622
▁closures	-8.48622
▁remain	-8.48623
▁drug	-8.48625
▁collect	-8.50235
lockdown	-8.51874
though	-8.51874
▁global	-8.51875
▁However	-8.53541
í	-8.71941
q	-9.64246
C	-11.0344
’	-12.1168
V	-12.1169
U	-12.117
G	-12.1171
–	-12.1172
N	-12.1173
L	-12.1174
/	-12.1175
E	-12.1176
R	-12.1177
F	-12.1178
B	-12.1179
%	-12.118
M	-12.1181
P	-12.1182
D	-12.1183
Y	-12.1184
I	-12.1185
W	-12.1185
O	-12.1186
S	-12.1187
(	-12.1188
A	-12.1189
T	-12.1189
