<pad>	0
</s>	0
<unk>	0
▁p	-0
ti	-1
ai	-2
ri	-3
os	-4
▁k	-5
▁s	-6
in	-7
au	-8
as	-9
▁t	-10
ar	-11
ir	-12
al	-13
▁n	-14
is	-15
im	-16
an	-17
en	-18
▁d	-19
am	-20
us	-21
▁v	-22
▁ir	-23
ei	-24
at	-25
▁b	-26
ad	-27
om	-28
ij	-29
es	-30
▁m	-31
ro	-32
ių	-33
on	-34
ės	-35
ek	-36
▁g	-37
tin	-38
oj	-39
er	-40
uri	-41
li	-42
ra	-43
▁š	-44
▁su	-45
▁į	-46
▁j	-47
▁kad	-48
eik	-49
▁pa	-50
tų	-51
▁E	-52
tik	-53
▁pri	-54
či	-55
iš	-56
▁r	-57
yb	-58
▁ne	-59
aus	-60
▁a	-61
em	-62
▁l	-63
um	-64
st	-65
uo	-66
▁pas	-67
▁T	-68
av	-69
uro	-70
ėl	-71
et	-72
▁iš	-73
▁at	-74
▁P	-75
rin	-76
▁tai	-77
▁kuri	-78
urop	-79
ki	-80
ijos	-81
▁Europ	-82
or	-83
aug	-84
arb	-85
ta	-86
▁K	-87
ant	-88
to	-89
▁ši	-90
ur	-91
▁Europos	-92
▁bū	-93
ži	-94
imo	-95
ėj	-96
el	-97
end	-98
▁y	-99
ais	-100
▁ap	-101
id	-102
▁ž	-103
▁vis	-104
eis	-105
omis	-106
yv	-107
▁gal	-108
▁pat	-109
už	-110
▁dėl	-111
gi	-112
▁pr	-113
▁pro	-114
▁tik	-115
▁už	-116
▁po	-117
▁kai	-118
ie	-119
ink	-120
ab	-121
min	-122
▁to	-123
oje	-124
ym	-125
ien	-126
▁yra	-127
yti	-128
▁S	-129
cij	-130
ėm	-131
eš	-132
▁-	-133
usi	-134
tu	-135
ak	-136
ok	-137
un	-138
aik	-139
iek	-140
▁val	-141
čiau	-142
uos	-143
si	-144
tas	-145
imą	-146
io	-147
▁re	-148
▁in	-149
▁teis	-150
ia	-151
pr	-152
imas	-153
tr	-154
▁sk	-155
yk	-156
▁sv	-157
▁A	-158
▁B	-159
▁pir	-160
ui	-161
ama	-162
▁turi	-163
laus	-164
aud	-165
▁par	-166
ci	-167
▁f	-168
▁pad	-169
▁M	-170
gal	-171
ūs	-172
lam	-173
▁Komis	-174
styb	-175
auj	-176
▁reik	-177
ing	-178
te	-179
ame	-180
tis	-181
vo	-182
lamen	-183
rim	-184
ąj	-185
▁(	-186
ung	-187
od	-188
▁valstyb	-189
ys	-190
čių	-191
cijos	-192
minink	-193
il	-194
toj	-195
ams	-196
▁daug	-197
▁J	-198
ik	-199
inti	-200
▁šal	-201
iu	-202
▁V	-203
▁sav	-204
až	-205
▁veik	-206
▁kaip	-207
▁klaus	-208
▁nes	-209
je	-210
kai	-211
▁taip	-212
tar	-213
▁svarb	-214
▁bend	-215
ari	-216
▁lab	-217
▁poli	-218
iai	-219
and	-220
▁per	-221
tą	-222
ėtų	-223
aneš	-224
▁N	-225
ime	-226
ija	-227
ąjung	-228
og	-229
ūsų	-230
ūr	-231
▁Par	-232
sti	-233
▁o	-234
▁D	-235
▁darb	-236
uvo	-237
▁Parlamen	-238
▁tur	-239
▁Tai	-240
▁praneš	-241
▁ES	-242
▁Sąjung	-243
tos	-244
▁did	-245
ov	-246
ans	-247
ėti	-248
▁kon	-249
▁2	-250
▁būti	-251
amas	-252
▁pirminink	-253
esn	-254
▁nar	-255
yje	-256
▁G	-257
▁būtų	-258
▁sus	-259
ol	-260
▁Š	-261
▁ats	-262
dži	-263
tat	-264
▁nor	-265
▁pasi	-266
yg	-267
▁man	-268
▁pag	-269
iau	-270
jų	-271
uom	-272
me	-273
▁savo	-274
▁nep	-275
umo	-276
mon	-277
eli	-278
eg	-279
▁ek	-280
▁vien	-281
▁labai	-282
ami	-283
▁apie	-284
inių	-285
ios	-286
oms	-287
▁buvo	-288
tai	-289
▁ki	-290
eng	-291
rink	-292
ej	-293
▁dar	-294
▁dal	-295
anči	-296
▁bendr	-297
sl	-298
▁siek	-299
uk	-300
▁susi	-301
ūl	-302
▁tar	-303
ems	-304
emon	-305
šk	-306
ties	-307
ačiau	-308
▁R	-309
ul	-310
▁pak	-311
▁galim	-312
tim	-313
auk	-314
▁laik	-315
▁ar	-316
ybos	-317
▁prie	-318
ius	-319
eig	-320
▁met	-321
onom	-322
▁mūsų	-323
iz	-324
ėčiau	-325
▁priemon	-326
▁tr	-327
ist	-328
▁įv	-329
ank	-330
▁pl	-331
alb	-332
tink	-333
▁politik	-334
▁20	-335
▁nuo	-336
▁Komisijos	-337
inės	-338
ekt	-339
▁L	-340
ed	-341
tikrin	-342
amos	-343
▁Tar	-344
pa	-345
aid	-346
▁nari	-347
▁spr	-348
ėms	-349
iaus	-350
▁ekonom	-351
avimo	-352
tum	-353
▁ver	-354
▁pirmininke	-355
ome	-356
uoti	-357
▁rink	-358
oti	-359
men	-360
▁I	-361
raš	-362
one	-363
oma	-364
inans	-365
▁veiks	-366
ori	-367
ili	-368
vir	-369
▁nauj	-370
▁bet	-371
▁mok	-372
▁proc	-373
▁užtikrin	-374
als	-375
imų	-376
cial	-377
▁kom	-378
▁bus	-379
▁aps	-380
▁finans	-381
ap	-382
▁gr	-383
▁mes	-384
orm	-385
isk	-386
▁kar	-387
jos	-388
▁naud	-389
žv	-390
acij	-391
yst	-392
ent	-393
▁net	-394
▁sri	-395
▁tarp	-396
ang	-397
▁pasiūl	-398
▁es	-399
ums	-400
rind	-401
▁1	-402
▁reikal	-403
▁gyv	-404
ymo	-405
▁pav	-406
ėjo	-407
odėl	-408
eri	-409
bl	-410
▁str	-411
▁są	-412
▁sprend	-413
▁žmon	-414
abar	-415
ter	-416
▁"	-417
ch	-418
var	-419
ėk	-420
▁skir	-421
▁tikr	-422
riz	-423
▁nus	-424
▁var	-425
▁sud	-426
▁kurios	-427
uoj	-428
▁pateik	-429
▁vyk	-430
▁kalb	-431
▁jų	-432
gyv	-433
▁gali	-434
▁pagrind	-435
▁jau	-436
▁reikia	-437
lik	-438
imus	-439
▁so	-440
gr	-441
▁pagal	-442
▁kurie	-443
▁norėčiau	-444
▁valstybės	-445
tarim	-446
imu	-447
▁Sąjungos	-448
▁taik	-449
ektyv	-450
▁sieki	-451
▁dir	-452
blem	-453
oki	-454
form	-455
▁prieš	-456
uomen	-457
▁darbo	-458
istem	-459
tus	-460
tyje	-461
eči	-462
tori	-463
▁ger	-464
▁galimyb	-465
stitu	-466
iškai	-467
erg	-468
uose	-469
enk	-470
▁pirm	-471
kur	-472
▁Komisija	-473
ini	-474
gyvend	-475
tume	-476
▁problem	-477
▁sistem	-478
▁ak	-479
▁susij	-480
▁pal	-481
▁sut	-482
ting	-483
▁turėtų	-484
ag	-485
▁Parlamento	-486
▁saug	-487
▁tiksl	-488
▁disk	-489
▁as	-490
tina	-491
val	-492
▁jos	-493
▁Todėl	-494
▁įgyvend	-495
▁e	-496
▁pili	-497
▁kur	-498
▁turime	-499
▁ypa	-500
▁toki	-501
it	-502
▁apsaug	-503
▁me	-504
ški	-505
rak	-506
ūros	-507
▁bals	-508
ėmis	-509
umą	-510
▁maž	-511
kr	-512
▁paž	-513
veik	-514
tinės	-515
eto	-516
▁įsi	-517
ies	-518
išk	-519
▁rez	-520
do	-521
▁Ši	-522
▁en	-523
▁atv	-524
▁Man	-525
▁keli	-526
▁dabar	-527
▁gyven	-528
▁narių	-529
ose	-530
žvel	-531
▁social	-532
▁susitarim	-533
▁institu	-534
▁ti	-535
▁šį	-536
▁pasiūlym	-537
▁energ	-538
▁im	-539
lyg	-540
▁pon	-541
▁valstybių	-542
▁atsi	-543
▁ji	-544
▁šiuo	-545
▁atsak	-546
tį	-547
▁regi	-548
▁Tačiau	-549
ūk	-550
atin	-551
▁ekonomik	-552
▁Pir	-553
yn	-554
tojų	-555
imai	-556
▁ypač	-557
▁nei	-558
▁teisės	-559
ėra	-560
por	-561
▁200	-562
▁ai	-563
▁i	-564
▁pasau	-565
▁nustat	-566
dž	-567
oli	-568
aip	-569
▁užtikrinti	-570
▁metu	-571
tinių	-572
▁suteik	-573
amą	-574
▁neb	-575
▁tačiau	-576
▁Pone	-577
▁Taryb	-578
▁žin	-579
dami	-580
▁sek	-581
dėl	-582
ming	-583
▁tink	-584
▁pab	-585
ųjų	-586
cija	-587
▁išs	-588
▁daugiau	-589
▁veiksm	-590
▁narės	-591
inę	-592
▁prek	-593
iet	-594
▁reg	-595
ėje	-596
ateg	-597
▁priim	-598
inio	-599
▁pasiek	-600
▁min	-601
pras	-602
ybės	-603
acijos	-604
▁mums	-605
▁prad	-606
erb	-607
iją	-608
ančių	-609
du	-610
▁tam	-611
▁bei	-612
▁pasak	-613
rik	-614
aš	-615
rė	-616
par	-617
▁pask	-618
erin	-619
tari	-620
adarb	-621
link	-622
▁kuris	-623
▁region	-624
ud	-625
.,	-626
▁šios	-627
ykl	-628
tau	-629
▁negal	-630
▁Vis	-631
▁bendradarb	-632
▁politikos	-633
▁te	-634
▁nėra	-635
▁kriz	-636
riaus	-637
trauk	-638
virtin	-639
mog	-640
ob	-641
emok	-642
▁aš	-643
▁kl	-644
inimo	-645
▁be	-646
imui	-647
▁siekiant	-648
▁lyg	-649
inink	-650
ojo	-651
iudž	-652
▁diskus	-653
aisv	-654
▁todėl	-655
▁strateg	-656
▁aplink	-657
ėmes	-658
aig	-659
ęs	-660
▁vy	-661
ėtume	-662
amų	-663
▁pan	-664
▁sąlyg	-665
▁kiek	-666
ėn	-667
▁gam	-668
sn	-669
▁sutar	-670
▁ati	-671
▁inform	-672
žiū	-673
arba	-674
▁mano	-675
▁teisių	-676
tab	-677
▁dėmes	-678
liau	-679
▁žmog	-680
amai	-681
cijų	-682
avimą	-683
▁Taip	-684
ijoje	-685
avimas	-686
ciją	-687
▁ties	-688
▁kas	-689
▁sum	-690
▁atvej	-691
▁nuom	-692
▁biudž	-693
▁kel	-694
andien	-695
▁visi	-696
▁sektori	-697
▁Nor	-698
▁demok	-699
▁žem	-700
▁nuos	-701
▁laisv	-702
▁Gerb	-703
▁vid	-704
▁tiek	-705
▁padar	-706
▁atsižvel	-707
uv	-708
▁progr	-709
▁šalių	-710
▁svarbu	-711
▁srityje	-712
anti	-713
▁bendradarbi	-714
▁manau	-715
▁C	-716
uosi	-717
cion	-718
auti	-719
antis	-720
▁visų	-721
▁Be	-722
▁ko	-723
▁iki	-724
▁jie	-725
▁ab	-726
aniz	-727
eid	-728
▁ly	-729
ečių	-730
▁šio	-731
▁tais	-732
▁sp	-733
▁viet	-734
vark	-735
▁arba	-736
eitim	-737
▁sveik	-738
▁ekonomikos	-739
▁teik	-740
▁frak	-741
ėme	-742
▁dv	-743
▁Parlamentas	-744
iausia	-745
▁plė	-746
▁komit	-747
▁mo	-748
▁didel	-749
▁or	-750
▁Pirminink	-751
▁si	-752
ėg	-753
▁prival	-754
ymą	-755
asi	-756
mės	-757
▁kol	-758
▁tarptau	-759
yta	-760
yrim	-761
▁jis	-762
▁der	-763
rov	-764
mo	-765
▁naudoj	-766
▁kurių	-767
▁sudar	-768
▁li	-769
▁padė	-770
▁veikl	-771
ęsti	-772
▁auk	-773
▁rem	-774
▁na	-775
▁žmogaus	-776
▁galima	-777
rib	-778
▁šių	-779
inis	-780
▁mėn	-781
damas	-782
▁metų	-783
ub	-784
ukt	-785
ausi	-786
žiūri	-787
ež	-788
rėž	-789
▁klausimas	-790
vien	-791
▁vykd	-792
tek	-793
oliu	-794
▁išl	-795
ūki	-796
▁st	-797
osios	-798
▁Tarybos	-799
▁raš	-800
▁vie	-801
▁priemonių	-802
▁suk	-803
▁direktyv	-804
▁ką	-805
cional	-806
▁dalyv	-807
▁skatin	-808
inį	-809
▁kurį	-810
▁taisykl	-811
▁požiūri	-812
eip	-813
umas	-814
▁jei	-815
giant	-816
yse	-817
▁žmonių	-818
ato	-819
▁įmon	-820
čia	-821
▁didži	-822
▁vad	-823
cip	-824
▁demokra	-825
▁visiškai	-826
atyv	-827
▁laiko	-828
avo	-829
▁pranešimą	-830
▁Mes	-831
▁proj	-832
▁inter	-833
▁veiksmų	-834
ymas	-835
osi	-836
tip	-837
inga	-838
▁prin	-839
▁princip	-840
dama	-841
▁šią	-842
up	-843
▁ry	-844
▁Sąjunga	-845
ada	-846
▁susijusi	-847
▁įgyvendin	-848
▁patvirtin	-849
sp	-850
▁sun	-851
▁įvai	-852
▁Manau	-853
▁pasakyti	-854
tn	-855
▁vertin	-856
ijai	-857
inius	-858
tijos	-859
▁pasaul	-860
lio	-861
pareig	-862
▁šis	-863
▁vyriaus	-864
▁trans	-865
▁įst	-866
▁proces	-867
▁visuomen	-868
▁galėtų	-869
▁jo	-870
▁pasir	-871
00	-872
rag	-873
▁el	-874
▁ned	-875
rijos	-876
▁Ž	-877
kir	-878
ystės	-879
tro	-880
▁pakeitim	-881
paž	-882
▁pris	-883
onos	-884
▁rezoliu	-885
▁energijos	-886
ves	-887
▁toliau	-888
ep	-889
ybę	-890
eigu	-891
▁org	-892
porto	-893
▁atei	-894
▁vald	-895
▁raštu	-896
iausiai	-897
▁pap	-898
▁šiandien	-899
čiai	-900
▁pagalb	-901
▁plan	-902
▁kr	-903
aist	-904
▁prod	-905
▁politin	-906
▁aiški	-907
▁kov	-908
▁pilieči	-909
ijų	-910
▁apsaugos	-911
eisti	-912
▁nacional	-913
ytų	-914
sta	-915
▁asmen	-916
uli	-917
engti	-918
▁dirb	-919
▁aug	-920
▁tyrim	-921
▁Pon	-922
▁varto	-923
▁tap	-924
▁nors	-925
▁žemės	-926
▁kok	-927
▁sumaž	-928
laug	-929
teb	-930
olog	-931
▁Pr	-932
vz	-933
▁sukur	-934
ib	-935
yl	-936
▁padėti	-937
▁konkur	-938
▁sveikat	-939
ici	-940
avau	-941
▁atlik	-942
▁koki	-943
▁pranešėj	-944
▁fon	-945
aliz	-946
▁Pri	-947
chn	-948
ūp	-949
▁įtrauk	-950
utin	-951
žin	-952
▁vaid	-953
eb	-954
▁Aš	-955
arin	-956
onės	-957
usių	-958
▁reglamen	-959
▁prekybos	-960
tais	-961
▁įvyk	-962
▁užd	-963
eidži	-964
zi	-965
▁rei	-966
▁sak	-967
▁paslaug	-968
▁didesn	-969
▁Norėčiau	-970
▁tok	-971
▁veiksming	-972
kiai	-973
giu	-974
ultat	-975
▁ūki	-976
aišk	-977
▁nu	-978
▁klausimą	-979
▁rinkos	-980
▁Taryba	-981
▁kartu	-982
pareigoj	-983
ėš	-984
ig	-985
▁būtina	-986
▁techn	-987
▁jog	-988
▁dalyk	-989
▁rezultat	-990
tiprin	-991
ja	-992
vai	-993
▁nori	-994
kait	-995
omas	-996
man	-997
▁atveju	-998
acija	-999
▁organiz	-1000
ina	-1001
▁pam	-1002
ančios	-1003
▁projek	-1004
▁il	-1005
▁Europoje	-1006
▁Dėl	-1007
ines	-1008
čio	-1009
▁darbuo	-1010
▁ponai	-1011
iais	-1012
▁dr	-1013
▁jūsų	-1014
▁inves	-1015
▁moksl	-1016
▁padėk	-1017
ver	-1018
isab	-1019
▁poveik	-1020
▁nusi	-1021
▁kuriuos	-1022
▁tuo	-1023
▁klim	-1024
▁produk	-1025
iuosi	-1026
▁pram	-1027
▁klausimu	-1028
▁konkuren	-1029
▁atst	-1030
▁geri	-1031
elio	-1032
ens	-1033
ėjimo	-1034
▁pritari	-1035
▁num	-1036
▁Lisab	-1037
▁kurią	-1038
yz	-1039
▁ištek	-1040
▁kartą	-1041
ingas	-1042
etas	-1043
etą	-1044
▁pati	-1045
žas	-1046
▁Kaip	-1047
▁aukš	-1048
kiri	-1049
▁201	-1050
▁inici	-1051
▁lėš	-1052
▁skai	-1053
▁vardu	-1054
klaus	-1055
▁svarbus	-1056
▁susid	-1057
▁iniciatyv	-1058
▁nel	-1059
ug	-1060
▁dėmesį	-1061
▁praš	-1062
▁dėlto	-1063
▁plėtr	-1064
▁Lisabonos	-1065
▁grei	-1066
▁pvz	-1067
▁Bend	-1068
tojams	-1069
▁priežas	-1070
▁vaik	-1071
▁F	-1072
▁susitik	-1073
▁vyst	-1074
▁partn	-1075
▁pasiekti	-1076
▁klimato	-1077
▁tarptautin	-1078
▁maist	-1079
▁du	-1080
▁išv	-1081
▁mokes	-1082
▁konkr	-1083
▁Ar	-1084
▁pabrėž	-1085
▁pirma	-1086
▁Ponia	-1087
tent	-1088
▁duomen	-1089
▁padid	-1090
▁biudžeto	-1091
▁ūkio	-1092
rod	-1093
▁kitų	-1094
▁šalim	-1095
▁no	-1096
▁padėkoti	-1097
eigi	-1098
▁koleg	-1099
▁piliečių	-1100
▁įsipareigoj	-1101
▁An	-1102
ven	-1103
imt	-1104
etin	-1105
▁frakcijos	-1106
▁Turi	-1107
▁Pirmininke	-1108
▁Ki	-1109
ingai	-1110
▁siūl	-1111
bū	-1112
▁pripaž	-1113
čius	-1114
▁galimybę	-1115
▁H	-1116
▁būtin	-1117
tikos	-1118
▁imtis	-1119
▁asp	-1120
žiūr	-1121
▁numat	-1122
DE	-1123
▁kain	-1124
▁priemones	-1125
▁proced	-1126
▁tikrųjų	-1127
omos	-1128
▁di	-1129
▁sm	-1130
esi	-1131
žvil	-1132
iniai	-1133
▁atžvil	-1134
20	-1135
▁Šiuo	-1136
▁past	-1137
ima	-1138
▁ponios	-1139
▁atstov	-1140
▁kontro	-1141
aipsn	-1142
tarp	-1143
▁lygmen	-1144
tuoj	-1145
tui	-1146
▁labiau	-1147
inimą	-1148
▁Gal	-1149
▁pavyz	-1150
▁grup	-1151
▁palaik	-1152
auja	-1153
▁pastang	-1154
▁politiką	-1155
▁sant	-1156
▁ml	-1157
▁rag	-1158
▁vadov	-1159
▁paj	-1160
imais	-1161
omi	-1162
lių	-1163
▁aišk	-1164
▁įvairi	-1165
▁au	-1166
▁ant	-1167
▁saugumo	-1168
rodo	-1169
laud	-1170
fik	-1171
▁tvark	-1172
▁lygi	-1173
tel	-1174
▁svar	-1175
▁įgyvendinti	-1176
▁At	-1177
liek	-1178
škia	-1179
▁moter	-1180
▁atžvilgiu	-1181
kal	-1182
džio	-1183
▁kri	-1184
▁pra	-1185
angi	-1186
▁įs	-1187
▁3	-1188
▁pateikti	-1189
ain	-1190
▁finansų	-1191
ult	-1192
▁pranešime	-1193
lės	-1194
▁U	-1195
▁rib	-1196
▁niek	-1197
▁vieš	-1198
ažn	-1199
iam	-1200
▁jeigu	-1201
▁atitink	-1202
ino	-1203
▁būd	-1204
mok	-1205
šal	-1206
▁darbą	-1207
▁transporto	-1208
aži	-1209
aciją	-1210
iniu	-1211
▁kiekvien	-1212
tojai	-1213
▁sveikatos	-1214
ild	-1215
elb	-1216
▁pozi	-1217
▁aiškiai	-1218
▁svarst	-1219
umen	-1220
sime	-1221
▁nepri	-1222
▁por	-1223
▁čia	-1224
▁ank	-1225
▁Jung	-1226
▁pavoj	-1227
▁teigi	-1228
▁Bals	-1229
▁abej	-1230
▁dok	-1231
šti	-1232
▁padaryti	-1233
▁mat	-1234
▁žod	-1235
▁neturi	-1236
▁vidaus	-1237
tok	-1238
▁šioje	-1239
▁šv	-1240
▁pažang	-1241
▁krizės	-1242
▁pareig	-1243
▁Iš	-1244
▁priklaus	-1245
▁aplinkos	-1246
ioj	-1247
▁vaidmen	-1248
▁laikotarp	-1249
▁parod	-1250
▁vert	-1251
ez	-1252
▁tek	-1253
▁atsižvelg	-1254
▁Rus	-1255
▁galime	-1256
▁gri	-1257
▁valdži	-1258
▁nuostat	-1259
▁priemonės	-1260
erinti	-1261
▁vienas	-1262
▁sukurti	-1263
▁sunk	-1264
isak	-1265
kreip	-1266
▁Tur	-1267
▁steb	-1268
▁ef	-1269
▁Gr	-1270
eišk	-1271
andar	-1272
▁skiri	-1273
▁deryb	-1274
▁politika	-1275
▁priimti	-1276
audoti	-1277
vaiz	-1278
▁Europa	-1279
▁pui	-1280
ytas	-1281
inimas	-1282
rij	-1283
▁siekiama	-1284
gai	-1285
įst	-1286
▁konf	-1287
▁išlaid	-1288
▁negali	-1289
▁maisto	-1290
▁visiems	-1291
ūrim	-1292
▁nustatyti	-1293
kl	-1294
tinai	-1295
▁sistemos	-1296
▁netur	-1297
▁standar	-1298
▁turėtume	-1299
ut	-1300
▁kil	-1301
▁gerb	-1302
▁komp	-1303
dar	-1304
▁jūs	-1305
▁ner	-1306
▁pasaulio	-1307
▁jums	-1308
ijas	-1309
▁tiesio	-1310
▁ge	-1311
▁O	-1312
cijas	-1313
▁dažn	-1314
▁lai	-1315
▁Sąjungoje	-1316
lob	-1317
▁viena	-1318
ėja	-1319
▁požiūriu	-1320
egal	-1321
▁maži	-1322
▁mas	-1323
▁užs	-1324
▁interes	-1325
škai	-1326
▁nuol	-1327
▁komiteto	-1328
▁šiame	-1329
ertin	-1330
din	-1331
▁pabrėžti	-1332
žiaug	-1333
yr	-1334
▁fond	-1335
▁pini	-1336
met	-1337
▁Af	-1338
ienio	-1339
▁Su	-1340
▁technolog	-1341
▁c	-1342
tarti	-1343
▁klausimus	-1344
ali	-1345
▁dien	-1346
▁op	-1347
▁rim	-1348
▁tikrai	-1349
gų	-1350
▁skaid	-1351
▁reiškia	-1352
rime	-1353
ūn	-1354
▁priori	-1355
▁atkreip	-1356
▁reform	-1357
▁inte	-1358
▁pači	-1359
ėsime	-1360
tyv	-1361
▁Pirm	-1362
▁straipsn	-1363
▁papild	-1364
žiūros	-1365
▁reikalav	-1366
▁nen	-1367
▁institucijos	-1368
▁turin	-1369
▁Dabar	-1370
▁neį	-1371
▁svarbi	-1372
ūrų	-1373
▁sudė	-1374
▁poreik	-1375
▁jį	-1376
kaitant	-1377
▁sėk	-1378
▁stab	-1379
▁įstat	-1380
UR	-1381
▁Bū	-1382
▁metus	-1383
▁kuriuo	-1384
▁nuro	-1385
▁kurias	-1386
▁šalyse	-1387
omų	-1388
acijų	-1389
▁atsakom	-1390
▁prisid	-1391
▁atliek	-1392
▁ūk	-1393
engv	-1394
▁vyriausyb	-1395
ingsn	-1396
▁valstybėse	-1397
▁energe	-1398
▁kurioje	-1399
ris	-1400
unk	-1401
ąją	-1402
▁br	-1403
▁savai	-1404
▁Pas	-1405
▁pagr	-1406
▁Tarybai	-1407
▁žingsn	-1408
ati	-1409
▁nuomon	-1410
▁kurio	-1411
▁šiuos	-1412
ingumo	-1413
▁padėtį	-1414
▁teises	-1415
auki	-1416
▁Taigi	-1417
racijos	-1418
dyti	-1419
▁atsižvelgiant	-1420
riklaus	-1421
".	-1422
▁šalies	-1423
▁5	-1424
▁juos	-1425
▁tvir	-1426
▁įskaitant	-1427
▁rek	-1428
▁dokumen	-1429
▁visuomenės	-1430
rikos	-1431
▁institucijų	-1432
akar	-1433
▁nariai	-1434
▁nuomone	-1435
ėjimą	-1436
ėte	-1437
▁griež	-1438
su	-1439
▁h	-1440
▁reguli	-1441
▁remi	-1442
▁patik	-1443
ras	-1444
▁žmonės	-1445
▁šalis	-1446
▁Parlamente	-1447
uol	-1448
▁pasin	-1449
▁plėtros	-1450
▁Turime	-1451
▁Bal	-1452
yba	-1453
ingi	-1454
taik	-1455
▁efektyv	-1456
▁pareišk	-1457
▁jud	-1458
▁visos	-1459
▁valstybėms	-1460
oji	-1461
varst	-1462
▁šalys	-1463
▁diskusijos	-1464
▁bank	-1465
kivaiz	-1466
▁sistemą	-1467
▁kal	-1468
▁priėm	-1469
op	-1470
gent	-1471
▁investi	-1472
▁EUR	-1473
▁nek	-1474
▁aspek	-1475
▁kult	-1476
ymu	-1477
▁spręsti	-1478
▁pasiūlymą	-1479
▁mėnes	-1480
▁pers	-1481
▁jiems	-1482
▁nusikal	-1483
agrin	-1484
▁žv	-1485
▁ateityje	-1486
umų	-1487
▁kovo	-1488
▁žinoma	-1489
ūrin	-1490
▁panaik	-1491
uje	-1492
▁Val	-1493
▁pos	-1494
▁leis	-1495
▁pras	-1496
▁ragin	-1497
▁versl	-1498
▁nuk	-1499
▁įvertin	-1500
▁skur	-1501
▁pasaulyje	-1502
▁lygmeniu	-1503
▁ją	-1504
▁pranešimo	-1505
ytis	-1506
▁strukt	-1507
tvark	-1508
ėd	-1509
▁suteikti	-1510
yd	-1511
ano	-1512
tra	-1513
anc	-1514
▁papras	-1515
▁teisę	-1516
yp	-1517
▁priežiūros	-1518
▁svarbiaus	-1519
▁nebuvo	-1520
▁sub	-1521
džiai	-1522
▁stiprin	-1523
▁moterų	-1524
▁nepriklaus	-1525
▁apib	-1526
istr	-1527
▁daugel	-1528
▁dalis	-1529
▁lygio	-1530
▁būtent	-1531
▁pirmininkauj	-1532
▁metais	-1533
▁kitos	-1534
ūm	-1535
▁skatinti	-1536
▁srit	-1537
▁Jei	-1538
▁al	-1539
ytos	-1540
▁Šis	-1541
▁partner	-1542
▁pirmiausia	-1543
▁atas	-1544
iej	-1545
iden	-1546
▁prak	-1547
▁pastar	-1548
▁4	-1549
aisant	-1550
pl	-1551
▁Kin	-1552
▁valdžios	-1553
▁energetikos	-1554
▁Bendrijos	-1555
▁geresn	-1556
▁vaidmenį	-1557
▁jaun	-1558
amo	-1559
▁tikslas	-1560
ėjusi	-1561
▁taisyklių	-1562
▁pranešimas	-1563
liai	-1564
▁atskir	-1565
alog	-1566
▁sąlygas	-1567
▁veiklos	-1568
▁dabartin	-1569
tak	-1570
▁kuriame	-1571
▁joki	-1572
lo	-1573
▁išr	-1574
▁pareng	-1575
yki	-1576
▁agent	-1577
Europ	-1578
▁form	-1579
▁skirti	-1580
▁aut	-1581
▁vėl	-1582
čiaus	-1583
audoj	-1584
▁gar	-1585
audži	-1586
▁ad	-1587
antys	-1588
timi	-1589
ančius	-1590
",	-1591
▁trūk	-1592
mas	-1593
▁susitarimo	-1594
▁noriu	-1595
▁prisi	-1596
ūrą	-1597
▁Mano	-1598
▁esu	-1599
▁am	-1600
engi	-1601
oju	-1602
▁kuo	-1603
▁tol	-1604
▁baig	-1605
▁problema	-1606
▁skaidr	-1607
▁buv	-1608
▁pritariu	-1609
ate	-1610
str	-1611
▁narys	-1612
▁problemų	-1613
▁lik	-1614
▁šie	-1615
asis	-1616
▁gerai	-1617
▁sumažinti	-1618
▁narėse	-1619
▁vietos	-1620
▁nary	-1621
sižvel	-1622
prend	-1623
ūra	-1624
ąjį	-1625
tiškai	-1626
▁vieną	-1627
tokol	-1628
ėjome	-1629
▁pagalbos	-1630
▁narėms	-1631
▁daugum	-1632
▁tau	-1633
ic	-1634
▁paslaugų	-1635
ūz	-1636
▁išteklių	-1637
▁teiki	-1638
▁piliečiams	-1639
ymų	-1640
timo	-1641
eja	-1642
tij	-1643
ingos	-1644
▁šalims	-1645
▁išsi	-1646
▁mln	-1647
ėjau	-1648
▁soli	-1649
▁ryš	-1650
▁paramos	-1651
az	-1652
▁privalo	-1653
▁produktų	-1654
abai	-1655
manoma	-1656
eln	-1657
▁teri	-1658
▁darbuotojų	-1659
▁Žin	-1660
▁oro	-1661
▁mil	-1662
▁vartotojų	-1663
▁kit	-1664
taip	-1665
▁skub	-1666
▁bendrą	-1667
▁dialog	-1668
▁konkurenc	-1669
▁perd	-1670
▁tiesų	-1671
tinio	-1672
anglaud	-1673
ump	-1674
▁konkreči	-1675
▁norime	-1676
pręsti	-1677
▁paramą	-1678
inam	-1679
uoja	-1680
▁direktyvos	-1681
irūp	-1682
▁kons	-1683
▁kuriais	-1684
▁lėšų	-1685
▁išn	-1686
▁aktyv	-1687
▁spe	-1688
▁is	-1689
mę	-1690
▁2009	-1691
ine	-1692
▁mod	-1693
▁tero	-1694
▁įgal	-1695
▁stat	-1696
▁aktų	-1697
▁neat	-1698
▁geriau	-1699
▁perk	-1700
ko	-1701
▁Kalb	-1702
▁kuriose	-1703
irš	-1704
▁Turk	-1705
▁sudėting	-1706
ėjimas	-1707
cijai	-1708
▁protokol	-1709
▁kelia	-1710
uosius	-1711
▁sien	-1712
▁mokesčių	-1713
ac	-1714
▁visus	-1715
▁priv	-1716
▁daryti	-1717
AV	-1718
▁solidar	-1719
yla	-1720
▁atlikti	-1721
▁turėti	-1722
log	-1723
▁srityse	-1724
▁tiesiog	-1725
▁tarn	-1726
▁band	-1727
▁Ai	-1728
▁pok	-1729
▁pradėti	-1730
▁bendrov	-1731
▁visas	-1732
▁neg	-1733
▁pus	-1734
▁įsitik	-1735
▁mažiau	-1736
▁Balsavau	-1737
▁klausimų	-1738
▁parlamen	-1739
ancūz	-1740
▁gauti	-1741
▁dažnai	-1742
▁poveikį	-1743
▁sprendimą	-1744
▁sistema	-1745
▁pramonės	-1746
lius	-1747
▁esmės	-1748
▁pakank	-1749
▁skirting	-1750
▁z	-1751
▁Teis	-1752
▁nurod	-1753
▁pažeid	-1754
atų	-1755
▁nepak	-1756
▁bendro	-1757
ėsi	-1758
inant	-1759
▁patir	-1760
ordin	-1761
iems	-1762
uotų	-1763
▁duomenų	-1764
prant	-1765
▁pagrindinių	-1766
usios	-1767
▁padarin	-1768
tišk	-1769
▁ras	-1770
▁padėtis	-1771
▁gyventojų	-1772
▁švie	-1773
▁naujų	-1774
rizik	-1775
▁Ir	-1776
▁Vien	-1777
omend	-1778
▁vand	-1779
ymosi	-1780
ingą	-1781
▁valdymo	-1782
▁reikalų	-1783
▁žmonėms	-1784
▁19	-1785
▁ter	-1786
▁pamin	-1787
▁tyrimų	-1788
▁užsienio	-1789
▁koordin	-1790
▁džiaug	-1791
▁JAV	-1792
▁esame	-1793
▁žodži	-1794
▁problemas	-1795
▁tari	-1796
▁deš	-1797
▁leid	-1798
gn	-1799
▁pramon	-1800
▁išk	-1801
▁sprendimo	-1802
▁balsavau	-1803
▁informacijos	-1804
▁strategijos	-1805
aun	-1806
▁susitarimą	-1807
▁Komisijai	-1808
umui	-1809
kite	-1810
▁rizik	-1811
rimin	-1812
▁reikėtų	-1813
tarin	-1814
▁reikš	-1815
▁dėk	-1816
▁akivaiz	-1817
onių	-1818
▁še	-1819
▁ket	-1820
▁įtak	-1821
▁siekti	-1822
▁gamin	-1823
▁žvej	-1824
▁jūros	-1825
▁kodėl	-1826
▁tinkamai	-1827
▁ataskai	-1828
▁euro	-1829
▁Vid	-1830
▁įmonių	-1831
▁viz	-1832
▁taikyti	-1833
istra	-1834
▁įtraukti	-1835
ete	-1836
▁šias	-1837
▁admin	-1838
▁europ	-1839
eno	-1840
sid	-1841
mą	-1842
▁rekomend	-1843
▁kuria	-1844
▁turės	-1845
uod	-1846
▁rinką	-1847
arbo	-1848
▁tikiuosi	-1849
promis	-1850
▁tikslų	-1851
▁sutarties	-1852
▁klausimais	-1853
▁fak	-1854
▁žini	-1855
▁įd	-1856
▁bi	-1857
▁suderin	-1858
▁treči	-1859
▁išš	-1860
▁ci	-1861
▁savait	-1862
kri	-1863
▁žal	-1864
▁šia	-1865
ias	-1866
ėta	-1867
▁žuv	-1868
▁paaišk	-1869
▁et	-1870
▁neteis	-1871
▁Parlamentui	-1872
▁privalome	-1873
ančias	-1874
▁nebū	-1875
umu	-1876
esnis	-1877
esti	-1878
▁vienod	-1879
▁Tik	-1880
▁atkreipti	-1881
▁socialinės	-1882
enka	-1883
▁tekst	-1884
▁Tr	-1885
▁sanglaud	-1886
▁sprendži	-1887
▁Kar	-1888
eikia	-1889
▁regiono	-1890
ėjus	-1891
▁atvir	-1892
sčiau	-1893
▁vartoj	-1894
▁Prancūz	-1895
tal	-1896
▁id	-1897
eziden	-1898
▁Kai	-1899
▁toks	-1900
▁tem	-1901
▁paskelb	-1902
▁ūkinink	-1903
▁išd	-1904
▁priorit	-1905
laik	-1906
anduol	-1907
▁mech	-1908
▁de	-1909
▁stabil	-1910
est	-1911
▁Nep	-1912
tuose	-1913
▁sprendimas	-1914
iki	-1915
▁visą	-1916
▁vietų	-1917
▁sustiprin	-1918
▁kompromis	-1919
eniai	-1920
▁prof	-1921
▁būs	-1922
▁2008	-1923
▁poky	-1924
▁mechaniz	-1925
▁Pa	-1926
ančią	-1927
autų	-1928
▁intern	-1929
▁ketin	-1930
▁metod	-1931
eda	-1932
▁2020	-1933
okių	-1934
▁atsisak	-1935
▁Galiausiai	-1936
▁jėg	-1937
),	-1938
abej	-1939
▁pajėg	-1940
rėži	-1941
siu	-1942
▁dėmesio	-1943
▁šiam	-1944
ėse	-1945
▁rodo	-1946
tinę	-1947
▁nepa	-1948
▁galėtume	-1949
▁vaikų	-1950
▁leidži	-1951
trukt	-1952
pri	-1953
▁kuriomis	-1954
▁šalyje	-1955
okie	-1956
▁nebus	-1957
▁visk	-1958
▁šiol	-1959
▁darbotvark	-1960
tinis	-1961
▁pinigų	-1962
▁integ	-1963
▁sektoriaus	-1964
FR	-1965
▁Vad	-1966
▁ženk	-1967
▁pasinaudoti	-1968
cijoje	-1969
▁pasirink	-1970
▁Mūsų	-1971
▁susirūp	-1972
▁mir	-1973
▁6	-1974
▁problemos	-1975
▁dalies	-1976
▁besi	-1977
▁susijusių	-1978
▁gai	-1979
ėjų	-1980
▁vyksta	-1981
iniais	-1982
▁kaim	-1983
▁mus	-1984
amus	-1985
▁visada	-1986
▁inf	-1987
▁8	-1988
▁vyr	-1989
▁sug	-1990
uota	-1991
erd	-1992
▁ilgal	-1993
eten	-1994
▁dvi	-1995
▁kryp	-1996
▁pasitik	-1997
▁tokių	-1998
▁lank	-1999
▁branduol	-2000
▁pabaig	-2001
▁išlaik	-2002
iant	-2003
vyst	-2004
atori	-2005
▁susiję	-2006
▁pavad	-2007
▁įt	-2008
▁sprendimus	-2009
▁administra	-2010
▁nepas	-2011
▁itin	-2012
▁programos	-2013
▁plat	-2014
▁Mums	-2015
▁tokia	-2016
▁milij	-2017
ird	-2018
žių	-2019
omob	-2020
oso	-2021
iame	-2022
▁special	-2023
▁Labai	-2024
▁Kad	-2025
▁Kon	-2026
iejų	-2027
usijos	-2028
ito	-2029
iniams	-2030
▁vertyb	-2031
▁veikti	-2032
imės	-2033
eikti	-2034
iams	-2035
PL	-2036
▁kovos	-2037
uoju	-2038
▁susitarimas	-2039
▁Daug	-2040
▁galimybes	-2041
▁piliečiai	-2042
▁dirbti	-2043
▁saugos	-2044
esnės	-2045
▁Bar	-2046
▁elg	-2047
▁grės	-2048
ūd	-2049
▁Per	-2050
▁laiv	-2051
▁demokratijos	-2052
▁nelai	-2053
▁rezoliucijos	-2054
▁Graik	-2055
▁tikslus	-2056
ber	-2057
▁susiduri	-2058
anijos	-2059
ėtis	-2060
▁žingsnis	-2061
▁pastangas	-2062
toti	-2063
▁sėkming	-2064
istų	-2065
būt	-2066
▁Šiandien	-2067
inta	-2068
▁Tiki	-2069
▁šeš	-2070
ybą	-2071
lų	-2072
tinti	-2073
ES	-2074
▁kli	-2075
▁teritori	-2076
lig	-2077
▁glob	-2078
▁krite	-2079
ins	-2080
▁naują	-2081
uot	-2082
ininkystės	-2083
▁diskrimin	-2084
tija	-2085
▁Ap	-2086
intas	-2087
▁kiti	-2088
▁ministr	-2089
▁negalime	-2090
▁kaimyn	-2091
▁anksčiau	-2092
▁rež	-2093
▁kaitos	-2094
▁keletą	-2095
▁tada	-2096
▁laikytis	-2097
▁parem	-2098
yko	-2099
▁Tarp	-2100
▁pradži	-2101
▁jas	-2102
▁lengv	-2103
▁automob	-2104
▁trump	-2105
kti	-2106
▁EP	-2107
▁žino	-2108
▁kovoti	-2109
alų	-2110
▁Nors	-2111
▁Vadov	-2112
▁apsaugoti	-2113
▁ta	-2114
▁pagrįst	-2115
orės	-2116
▁finansinių	-2117
▁krizę	-2118
▁mote	-2119
▁spaud	-2120
▁konflik	-2121
džiui	-2122
ią	-2123
varb	-2124
eikšti	-2125
▁Atsižvel	-2126
▁veiklą	-2127
▁Jeigu	-2128
mu	-2129
ūš	-2130
fer	-2131
ausias	-2132
▁mies	-2133
▁tvarkos	-2134
ani	-2135
▁kelią	-2136
▁In	-2137
▁kadangi	-2138
▁10	-2139
▁kompeten	-2140
▁fondo	-2141
▁7	-2142
žem	-2143
▁smur	-2144
▁vyriausybės	-2145
▁finansavimo	-2146
▁Antra	-2147
▁žinome	-2148
▁padėties	-2149
▁neiš	-2150
muo	-2151
▁2010	-2152
iama	-2153
eiv	-2154
▁aprib	-2155
▁dauguma	-2156
▁problemą	-2157
▁nesu	-2158
▁pastab	-2159
▁patenk	-2160
▁išspręsti	-2161
▁bendros	-2162
▁sprendimų	-2163
aj	-2164
▁vė	-2165
000	-2166
▁kontrolės	-2167
▁laikas	-2168
▁pre	-2169
giai	-2170
▁didžiul	-2171
ymus	-2172
▁susijęs	-2173
▁galimybės	-2174
▁Sutar	-2175
▁galimybių	-2176
▁pasireng	-2177
▁Sąjungai	-2178
▁Praneš	-2179
▁klausimai	-2180
▁mokslinių	-2181
avimu	-2182
sias	-2183
▁derybų	-2184
yra	-2185
▁gyvenimo	-2186
esp	-2187
▁apim	-2188
▁sudaro	-2189
▁2007	-2190
▁Rusijos	-2191
esnio	-2192
▁Ne	-2193
uojama	-2194
▁nuolat	-2195
omą	-2196
▁pagalbą	-2197
ieji	-2198
▁pavyzd	-2199
▁klausimo	-2200
▁taisykles	-2201
papras	-2202
▁padidinti	-2203
▁kor	-2204
▁kyla	-2205
rint	-2206
▁prieštar	-2207
▁kūrim	-2208
rės	-2209
▁dujų	-2210
▁ankst	-2211
ektus	-2212
▁panaš	-2213
▁pasiūlymas	-2214
cijoms	-2215
▁greičiau	-2216
▁priežasčių	-2217
▁strategiją	-2218
▁Valsti	-2219
▁vertus	-2220
vari	-2221
▁vykdyti	-2222
▁nepakank	-2223
▁partneri	-2224
▁neabej	-2225
tojus	-2226
▁gamybos	-2227
▁pasiraš	-2228
▁nagrin	-2229
▁Vadovų	-2230
▁ra	-2231
uomet	-2232
▁klaid	-2233
▁išsaug	-2234
fi	-2235
▁pasveik	-2236
▁įgyvendinimo	-2237
▁bendruomen	-2238
nauj	-2239
▁medži	-2240
▁ch	-2241
▁pone	-2242
▁rinkoje	-2243
ingų	-2244
▁beveik	-2245
IT	-2246
uojant	-2247
▁dalį	-2248
anų	-2249
▁tokios	-2250
šči	-2251
yriaus	-2252
▁Afrikos	-2253
entr	-2254
▁Ame	-2255
▁pažeidži	-2256
▁aplinkyb	-2257
apus	-2258
▁pabrėži	-2259
▁rezoliuciją	-2260
▁ilg	-2261
▁suprant	-2262
▁parengti	-2263
tinku	-2264
▁Jis	-2265
▁santyki	-2266
▁sąjung	-2267
▁įmanoma	-2268
▁kalbėti	-2269
▁om	-2270
▁skirtum	-2271
▁besivyst	-2272
▁pakeisti	-2273
▁naudo	-2274
▁atsižvelgti	-2275
▁rūp	-2276
▁neturėtų	-2277
▁Bri	-2278
▁apibrėž	-2279
▁vystymosi	-2280
▁Europą	-2281
uz	-2282
imtumo	-2283
▁Vokie	-2284
▁sanglaudos	-2285
▁supras	-2286
▁Žinoma	-2287
▁abi	-2288
▁tvar	-2289
▁naujas	-2290
▁papraš	-2291
eiti	-2292
▁teikti	-2293
esnių	-2294
▁išvad	-2295
▁esmin	-2296
▁sektoriuje	-2297
200	-2298
ana	-2299
▁išp	-2300
▁paskir	-2301
intel	-2302
▁pobū	-2303
▁Komisiją	-2304
ron	-2305
▁puik	-2306
▁rasti	-2307
kiau	-2308
▁jokių	-2309
igracijos	-2310
▁oper	-2311
▁nebūtų	-2312
stat	-2313
▁įvykd	-2314
▁bendra	-2315
▁nem	-2316
▁regione	-2317
▁reag	-2318
▁profes	-2319
▁sur	-2320
▁invest	-2321
).	-2322
▁truk	-2323
▁apsaugą	-2324
unik	-2325
▁atsir	-2326
▁turiu	-2327
▁Ital	-2328
umun	-2329
▁erd	-2330
▁frakcija	-2331
inei	-2332
ilių	-2333
▁informaciją	-2334
igr	-2335
▁remiantis	-2336
ard	-2337
▁elekt	-2338
amp	-2339
▁regionų	-2340
▁persp	-2341
▁pritar	-2342
▁valstybes	-2343
dė	-2344
▁laisvės	-2345
rd	-2346
ančio	-2347
▁000	-2348
▁dalyvauti	-2349
▁paklaus	-2350
▁erdv	-2351
▁poveikio	-2352
▁link	-2353
▁Būtent	-2354
gail	-2355
torin	-2356
▁pagerinti	-2357
▁išmet	-2358
▁nutrauk	-2359
▁Tikiuosi	-2360
▁palan	-2361
▁rūš	-2362
▁išorės	-2363
ietų	-2364
▁gin	-2365
uotos	-2366
▁teroriz	-2367
▁direktyva	-2368
▁tą	-2369
▁Veng	-2370
▁ženkl	-2371
ūkst	-2372
▁sen	-2373
▁ypating	-2374
▁Šv	-2375
išką	-2376
▁Esu	-2377
varstyti	-2378
▁Prieš	-2379
▁galioj	-2380
▁medžiag	-2381
vok	-2382
▁rod	-2383
estin	-2384
▁rezultatų	-2385
▁paskatin	-2386
▁pasiūlymus	-2387
▁supapras	-2388
▁ekonominės	-2389
▁įvairių	-2390
▁situ	-2391
▁dalykas	-2392
▁preziden	-2393
▁būdu	-2394
▁augimo	-2395
▁kliū	-2396
▁kuriems	-2397
▁an	-2398
▁Ji	-2399
▁greitai	-2400
▁šalimis	-2401
ekl	-2402
▁įgalioj	-2403
joje	-2404
rastrukt	-2405
▁įmonėms	-2406
▁teisė	-2407
▁pakankamai	-2408
▁protokolą	-2409
nel	-2410
tifik	-2411
▁atrodo	-2412
▁sudaryti	-2413
▁pasiūlymo	-2414
▁įg	-2415
tinį	-2416
▁kelių	-2417
▁neigi	-2418
▁remti	-2419
▁Dar	-2420
▁jam	-2421
imos	-2422
atas	-2423
▁diskusijas	-2424
ficial	-2425
▁tapti	-2426
▁mlrd	-2427
▁galutin	-2428
▁sąlygomis	-2429
▁sl	-2430
▁Europai	-2431
ifik	-2432
▁pasveikinti	-2433
▁Kitas	-2434
▁diskusijų	-2435
▁infrastrukt	-2436
▁įrod	-2437
re	-2438
▁tų	-2439
▁visa	-2440
imams	-2441
▁kitą	-2442
imi	-2443
▁paskutin	-2444
antį	-2445
klaid	-2446
inėmis	-2447
apit	-2448
▁procesą	-2449
▁9	-2450
ausia	-2451
▁kita	-2452
raf	-2453
▁baus	-2454
acijas	-2455
▁bent	-2456
▁virš	-2457
ind	-2458
žemio	-2459
▁Toki	-2460
▁neabejo	-2461
▁priklauso	-2462
▁Rūm	-2463
▁nepaisant	-2464
▁galbūt	-2465
▁informacija	-2466
eikal	-2467
uotas	-2468
▁pritarti	-2469
ejų	-2470
▁ang	-2471
antiems	-2472
tariu	-2473
▁priver	-2474
rindži	-2475
avimui	-2476
▁visapus	-2477
▁sąžin	-2478
esnį	-2479
▁apsauga	-2480
▁žinias	-2481
čiausi	-2482
krain	-2483
▁nusikaltim	-2484
elti	-2485
alo	-2486
▁jai	-2487
▁sritis	-2488
▁tarptautinės	-2489
▁Rumun	-2490
▁civ	-2491
▁hum	-2492
▁milijon	-2493
▁tas	-2494
inėms	-2495
▁abejo	-2496
intų	-2497
▁tapo	-2498
▁visoje	-2499
▁nuomonės	-2500
amasi	-2501
▁sąlygos	-2502
▁Lenk	-2503
▁dešimt	-2504
iešk	-2505
▁Deja	-2506
isi	-2507
▁išlaidų	-2508
džių	-2509
▁Pal	-2510
ydami	-2511
įž	-2512
▁Ukrain	-2513
ga	-2514
pro	-2515
iškų	-2516
reip	-2517
▁gink	-2518
▁verslo	-2519
▁nuomonę	-2520
baig	-2521
espub	-2522
▁asmenų	-2523
alis	-2524
imis	-2525
▁pusi	-2526
ev	-2527
▁Kalbant	-2528
▁džiaugiuosi	-2529
mes	-2530
▁karin	-2531
vencijos	-2532
▁Vakar	-2533
anitarin	-2534
alių	-2535
▁europie	-2536
▁kokybės	-2537
▁leisti	-2538
▁balsavimo	-2539
▁tiks	-2540
▁politinių	-2541
▁derybos	-2542
▁amži	-2543
▁pasik	-2544
elis	-2545
ein	-2546
▁eur	-2547
▁kurti	-2548
▁perspektyv	-2549
▁kriterij	-2550
▁patvirtinti	-2551
▁kitas	-2552
iui	-2553
tinas	-2554
▁naš	-2555
▁Isp	-2556
▁visuo	-2557
▁gyn	-2558
▁lauki	-2559
▁Tarptau	-2560
▁kapit	-2561
ysime	-2562
umus	-2563
▁švietimo	-2564
▁jame	-2565
▁PP	-2566
▁Jie	-2567
▁grindži	-2568
RO	-2569
▁nepriim	-2570
ausių	-2571
▁labiausiai	-2572
▁kaimo	-2573
▁naudoti	-2574
▁rinkimų	-2575
▁įmonės	-2576
▁strategija	-2577
inėje	-2578
▁skirtas	-2579
▁keleiv	-2580
▁Jungtinių	-2581
▁šiais	-2582
▁jus	-2583
▁Už	-2584
▁nerim	-2585
valstyb	-2586
▁aktus	-2587
▁poziciją	-2588
▁sutartis	-2589
▁Pagal	-2590
▁skaičius	-2591
▁pats	-2592
tojo	-2593
nelyg	-2594
▁nieko	-2595
inu	-2596
▁ilgalaik	-2597
iamas	-2598
▁etap	-2599
▁prieg	-2600
▁įr	-2601
▁programą	-2602
▁komitetas	-2603
▁vienintel	-2604
iliz	-2605
avome	-2606
land	-2607
lov	-2608
▁atnauj	-2609
▁naudos	-2610
▁padės	-2611
▁sutik	-2612
▁užimtumo	-2613
eren	-2614
▁nepriklausom	-2615
▁del	-2616
ojimai	-2617
▁liber	-2618
▁laiką	-2619
▁svarbūs	-2620
imti	-2621
mų	-2622
▁iešk	-2623
▁viso	-2624
▁svarbų	-2625
▁Bet	-2626
▁nare	-2627
▁globaliz	-2628
▁investicijų	-2629
▁centr	-2630
▁gyvyb	-2631
▁relig	-2632
▁Al	-2633
tys	-2634
▁balsuoti	-2635
giau	-2636
▁vidutin	-2637
▁neseniai	-2638
▁joms	-2639
ausv	-2640
iskusijos	-2641
espublik	-2642
▁draud	-2643
▁konferen	-2644
▁kalbant	-2645
▁veikla	-2646
▁svarbiausia	-2647
▁Šios	-2648
▁primin	-2649
▁stiprinti	-2650
▁neabejotinai	-2651
▁kaita	-2652
rijų	-2653
▁dviejų	-2654
▁tariant	-2655
▁vertinu	-2656
▁Did	-2657
▁galiausiai	-2658
▁išg	-2659
▁pareigas	-2660
▁įvertinti	-2661
▁Svarb	-2662
▁sustab	-2663
▁naujos	-2664
daug	-2665
▁pripažinti	-2666
bul	-2667
▁santyk	-2668
▁proceso	-2669
riai	-2670
▁14	-2671
▁reglamento	-2672
▁atvejais	-2673
elių	-2674
iškas	-2675
▁gyvūn	-2676
ančioms	-2677
▁Amerikos	-2678
ėjai	-2679
▁naujov	-2680
irb	-2681
▁kitaip	-2682
tines	-2683
▁teig	-2684
▁tokio	-2685
▁gero	-2686
Europos	-2687
rikšči	-2688
▁reguliavimo	-2689
▁zon	-2690
ėdami	-2691
▁užkir	-2692
▁mastu	-2693
▁pažangą	-2694
▁sutartį	-2695
▁direktyvą	-2696
▁aukščiausi	-2697
▁konkurencing	-2698
▁technologijų	-2699
zra	-2700
iška	-2701
▁reikalauj	-2702
uoš	-2703
▁pusiausv	-2704
rių	-2705
▁eks	-2706
▁kreip	-2707
▁partijos	-2708
▁aišku	-2709
▁kalbama	-2710
▁pasiūlymų	-2711
tugal	-2712
▁laikotarpiu	-2713
ikos	-2714
▁pašal	-2715
inama	-2716
▁punk	-2717
▁pens	-2718
ausiai	-2719
▁humanitarin	-2720
▁paminėti	-2721
▁saugumą	-2722
▁sti	-2723
▁JT	-2724
▁eksp	-2725
▁veiksmus	-2726
▁pasisak	-2727
▁prieglob	-2728
▁sąraš	-2729
▁išvengti	-2730
PT	-2731
▁demokr	-2732
▁sąlygų	-2733
▁taikymo	-2734
▁politikai	-2735
▁kovoj	-2736
▁naudotis	-2737
▁politinės	-2738
▁Izra	-2739
▁išmok	-2740
▁taigi	-2741
inter	-2742
▁nares	-2743
sak	-2744
▁daro	-2745
▁partnerystės	-2746
ograf	-2747
▁atitik	-2748
▁pasek	-2749
▁daugiausia	-2750
▁skol	-2751
rijoje	-2752
▁garanti	-2753
▁būdas	-2754
▁istori	-2755
▁subsid	-2756
▁glaud	-2757
ytą	-2758
▁Sąjungą	-2759
▁siekia	-2760
▁blog	-2761
▁tinkl	-2762
▁kontroli	-2763
tam	-2764
▁struktūrin	-2765
alon	-2766
enki	-2767
▁prioritet	-2768
▁turėjo	-2769
▁socialinių	-2770
▁derybas	-2771
žr	-2772
▁galės	-2773
▁pažym	-2774
▁pernelyg	-2775
tern	-2776
ymui	-2777
inauj	-2778
▁Por	-2779
rovės	-2780
tinka	-2781
▁vakar	-2782
▁pirmininko	-2783
▁žmones	-2784
▁šiai	-2785
▁įsigal	-2786
damos	-2787
▁negu	-2788
▁kokia	-2789
▁nuolatin	-2790
ne	-2791
▁naujo	-2792
iauti	-2793
▁integr	-2794
▁vanden	-2795
▁veiksn	-2796
▁priemonėmis	-2797
▁uždav	-2798
interes	-2799
esni	-2800
▁vartojimo	-2801
eliu	-2802
▁vartotojams	-2803
ijung	-2804
▁Slov	-2805
▁Jungtinės	-2806
▁žiniasklaid	-2807
kritai	-2808
elež	-2809
▁automobilių	-2810
▁žvejybos	-2811
tika	-2812
▁bio	-2813
▁daugelis	-2814
▁jūrų	-2815
▁rytoj	-2816
▁skirta	-2817
▁įgyvendinant	-2818
▁nariams	-2819
oriu	-2820
▁inov	-2821
▁tikras	-2822
ąžin	-2823
▁visai	-2824
▁dėkoju	-2825
tyn	-2826
▁kito	-2827
▁požiūr	-2828
▁teisėk	-2829
▁pagrindinis	-2830
▁12	-2831
▁kolegos	-2832
▁pavyzdžiui	-2833
tinius	-2834
▁Net	-2835
▁juo	-2836
▁matyti	-2837
▁užsi	-2838
▁kainų	-2839
▁rinka	-2840
▁sugeb	-2841
▁dėmesys	-2842
▁netgi	-2843
▁Respublik	-2844
▁parama	-2845
▁požiūrį	-2846
▁organizacijos	-2847
ybė	-2848
esnę	-2849
▁pot	-2850
mių	-2851
emen	-2852
iniam	-2853
▁pažangos	-2854
▁svarbą	-2855
pn	-2856
uodžio	-2857
▁Rusija	-2858
ėst	-2859
tiją	-2860
▁Nepaisant	-2861
▁suprasti	-2862
▁suinteres	-2863
▁bal	-2864
▁prar	-2865
uržemio	-2866
▁ateities	-2867
▁biuro	-2868
▁vietov	-2869
▁tikrų	-2870
▁taisyklės	-2871
▁iniciatyva	-2872
▁nacionalinių	-2873
inaujin	-2874
▁Airijos	-2875
▁artim	-2876
▁Portugal	-2877
▁panaikinti	-2878
▁refer	-2879
▁Siek	-2880
▁15	-2881
tetų	-2882
▁Rytų	-2883
▁aukščiausiojo	-2884
▁neati	-2885
▁užduo	-2886
▁pačios	-2887
sčio	-2888
▁tampa	-2889
▁Šiau	-2890
▁didinti	-2891
▁pla	-2892
▁Kinijos	-2893
engiant	-2894
▁kelias	-2895
ydamas	-2896
▁požiūrio	-2897
▁galiu	-2898
erc	-2899
▁Viduržemio	-2900
ąja	-2901
▁ekolog	-2902
▁savaitę	-2903
▁vadovauj	-2904
▁reikalavimus	-2905
ane	-2906
▁sutel	-2907
▁požiūris	-2908
▁pakar	-2909
▁negalima	-2910
▁pristat	-2911
tojas	-2912
ymai	-2913
tiniai	-2914
▁susijusius	-2915
▁Kadangi	-2916
▁susijusios	-2917
▁vai	-2918
▁teisingumo	-2919
▁paremti	-2920
▁uos	-2921
mė	-2922
enos	-2923
▁apgail	-2924
tumėte	-2925
▁lyd	-2926
▁pobūdžio	-2927
Europa	-2928
▁gelež	-2929
▁iššūki	-2930
lav	-2931
ausią	-2932
iršti	-2933
▁penk	-2934
▁kalbame	-2935
▁vaidmuo	-2936
▁pard	-2937
▁nedel	-2938
▁finansinės	-2939
▁sektorių	-2940
▁patek	-2941
▁Baltar	-2942
▁sta	-2943
ininkų	-2944
▁paslaugas	-2945
ėtas	-2946
▁norint	-2947
▁įveikti	-2948
▁gaun	-2949
▁panaudoj	-2950
ado	-2951
▁bai	-2952
▁peln	-2953
▁kred	-2954
▁Šiaurės	-2955
inęs	-2956
▁procesas	-2957
▁pagrindas	-2958
▁praei	-2959
aukti	-2960
ienį	-2961
▁grupės	-2962
▁pranešėjas	-2963
elg	-2964
▁ten	-2965
antų	-2966
▁tobul	-2967
▁Lib	-2968
▁dalykų	-2969
ern	-2970
auju	-2971
▁veiksmingai	-2972
▁tenka	-2973
▁darbas	-2974
▁keturi	-2975
ieg	-2976
▁pasteb	-2977
▁gruodžio	-2978
▁posė	-2979
▁vais	-2980
▁atsinaujin	-2981
▁palyg	-2982
▁priežasties	-2983
▁pien	-2984
▁patikrin	-2985
▁demokratų	-2986
▁Pirma	-2987
▁saus	-2988
▁oficial	-2989
rija	-2990
▁tūkst	-2991
eikš	-2992
▁sienų	-2993
▁lig	-2994
▁žuvininkystės	-2995
▁padarinių	-2996
▁prisijung	-2997
▁kalba	-2998
▁viską	-2999
▁mirties	-3000
▁Pag	-3001
▁nusprend	-3002
▁fondų	-3003
▁baudži	-3004
▁teisėkūros	-3005
▁deleg	-3006
▁bendrosios	-3007
▁didelį	-3008
▁ryž	-3009
▁atsakomybę	-3010
ūras	-3011
▁sričių	-3012
▁solidarumo	-3013
▁neap	-3014
▁tris	-3015
▁minėjo	-3016
čiausiai	-3017
iacijos	-3018
▁geležink	-3019
▁susiduria	-3020
▁pastangų	-3021
▁atk	-3022
▁pabėg	-3023
▁nukent	-3024
und	-3025
▁nepapras	-3026
gyven	-3027
▁įtvirtin	-3028
▁interesus	-3029
▁išsam	-3030
▁Ties	-3031
▁vyks	-3032
▁išlaikyti	-3033
▁reng	-3034
▁Pritariu	-3035
▁priežastis	-3036
etina	-3037
▁Šved	-3038
▁pačių	-3039
▁naudojimo	-3040
▁sustiprinti	-3041
▁pop	-3042
ims	-3043
▁stip	-3044
▁programa	-3045
▁Re	-3046
▁lem	-3047
▁ratifik	-3048
▁iniciatyvos	-3049
oc	-3050
▁taikoma	-3051
amb	-3052
▁palengv	-3053
▁sukeli	-3054
▁išdėst	-3055
▁Pirmininko	-3056
▁išteklius	-3057
ton	-3058
▁sektorius	-3059
▁Pirmiausia	-3060
▁sank	-3061
▁naudinga	-3062
▁prieglobsčio	-3063
▁27	-3064
▁sunki	-3065
eiči	-3066
▁bendradarbiauti	-3067
vis	-3068
truk	-3069
▁Ek	-3070
▁patiri	-3071
▁real	-3072
▁Vakarų	-3073
▁apima	-3074
▁kontrol	-3075
▁nukreip	-3076
▁administrac	-3077
oks	-3078
▁įsp	-3079
ingo	-3080
▁palik	-3081
▁As	-3082
▁tel	-3083
▁priek	-3084
▁pavojus	-3085
lies	-3086
▁laisvę	-3087
▁užm	-3088
▁sakant	-3089
▁komitete	-3090
roj	-3091
▁tvari	-3092
▁veiksmai	-3093
uktyv	-3094
▁išim	-3095
ulg	-3096
valifik	-3097
audo	-3098
▁aplinkai	-3099
▁standartus	-3100
▁Negal	-3101
kra	-3102
▁konkurencijos	-3103
▁Pak	-3104
▁mokykl	-3105
▁prisitaik	-3106
▁niekada	-3107
▁atsar	-3108
▁Turkijos	-3109
▁jokios	-3110
▁manome	-3111
▁visose	-3112
▁pagrindu	-3113
raus	-3114
▁tema	-3115
▁suteikia	-3116
▁nepat	-3117
▁gana	-3118
ančiai	-3119
▁veikia	-3120
▁pakeitimų	-3121
Pl	-3122
ąs	-3123
▁med	-3124
irž	-3125
ternatyv	-3126
ykiai	-3127
▁tokį	-3128
▁posėd	-3129
▁įsteig	-3130
▁planą	-3131
▁lankst	-3132
▁aptarti	-3133
▁program	-3134
▁priimtas	-3135
▁deja	-3136
▁susirūpinimą	-3137
aup	-3138
▁vil	-3139
alio	-3140
▁netink	-3141
▁kultūros	-3142
▁ob	-3143
▁biudžetą	-3144
▁reikalinga	-3145
usav	-3146
▁Atsižvelgiant	-3147
ją	-3148
▁impor	-3149
yno	-3150
aisiais	-3151
▁tikrą	-3152
▁Jos	-3153
▁santykių	-3154
▁pavaduo	-3155
▁sistemų	-3156
▁prisidėti	-3157
erk	-3158
▁šiek	-3159
timą	-3160
▁Barr	-3161
tov	-3162
yriausyb	-3163
▁standartų	-3164
▁2006	-3165
▁MV	-3166
ėjimų	-3167
▁pusiausvyr	-3168
▁draug	-3169
ybai	-3170
▁tos	-3171
inamas	-3172
▁palankiai	-3173
▁Po	-3174
tingai	-3175
▁Pietų	-3176
▁išlaidas	-3177
▁Šeng	-3178
▁tvirtai	-3179
▁amžiaus	-3180
▁Treči	-3181
▁santykius	-3182
▁siekdami	-3183
inys	-3184
▁spar	-3185
cien	-3186
▁skaidrumo	-3187
▁didelių	-3188
▁Nes	-3189
Plojimai	-3190
▁socialinę	-3191
▁priminti	-3192
▁Visi	-3193
▁tiesiogiai	-3194
▁sąs	-3195
▁Šie	-3196
cijomis	-3197
žiūrėti	-3198
▁pateiktas	-3199
▁susitikime	-3200
▁rengi	-3201
▁tikslą	-3202
▁vėliau	-3203
▁Barroso	-3204
▁interesų	-3205
▁susitarimų	-3206
tingi	-3207
so	-3208
▁kilmės	-3209
201	-3210
▁parag	-3211
ulgari	-3212
▁tarpusav	-3213
▁panaudoti	-3214
EB	-3215
▁vizų	-3216
egz	-3217
▁Jūs	-3218
▁institucijoms	-3219
kio	-3220
▁galėsime	-3221
▁pacien	-3222
▁30	-3223
/200	-3224
▁atvejų	-3225
▁visame	-3226
▁didesnį	-3227
▁didelis	-3228
▁ginč	-3229
▁romų	-3230
▁atlyg	-3231
▁konsul	-3232
ėlių	-3233
▁pasid	-3234
▁reikalavimų	-3235
▁įsipareigojimų	-3236
▁kada	-3237
ėdamas	-3238
▁Pagrind	-3239
▁integra	-3240
ečiųjų	-3241
▁atsakyti	-3242
▁Šiame	-3243
▁bendras	-3244
▁tiekimo	-3245
▁trad	-3246
▁rad	-3247
▁tinkamas	-3248
NL	-3249
po	-3250
▁kitose	-3251
erius	-3252
ert	-3253
▁antr	-3254
▁Reikia	-3255
imb	-3256
▁kitais	-3257
iami	-3258
▁naf	-3259
▁byl	-3260
▁parodyti	-3261
▁biurokra	-3262
▁anglies	-3263
▁Šengeno	-3264
▁daugelio	-3265
▁transpor	-3266
tingų	-3267
▁alternatyv	-3268
▁srities	-3269
igra	-3270
▁vykst	-3271
▁atsakomybės	-3272
▁padėtų	-3273
▁komunik	-3274
▁tie	-3275
▁kurioms	-3276
▁trečiųjų	-3277
▁globalizacijos	-3278
▁apmok	-3279
▁Bulgari	-3280
▁projektą	-3281
▁teisingai	-3282
▁masto	-3283
▁tokie	-3284
▁kuriai	-3285
▁pagalba	-3286
▁pritaik	-3287
▁atitinka	-3288
▁2011	-3289
▁tuos	-3290
▁skubiai	-3291
▁nuoš	-3292
adienį	-3293
▁nepal	-3294
▁pagrį	-3295
▁atliekų	-3296
eti	-3297
▁Kro	-3298
▁pagarb	-3299
▁kitus	-3300
▁grįž	-3301
▁atsid	-3302
▁nerimą	-3303
▁pastaruosius	-3304
lai	-3305
▁ketina	-3306
▁steng	-3307
▁suteikta	-3308
ąsias	-3309
▁taikos	-3310
▁užbaig	-3311
▁teisinės	-3312
▁sul	-3313
ydama	-3314
usį	-3315
la	-3316
▁pirmininkas	-3317
▁analiz	-3318
▁puikiai	-3319
▁pavyzdys	-3320
▁supaprastin	-3321
▁moterys	-3322
▁integracijos	-3323
▁sunku	-3324
žiau	-3325
entrin	-3326
rims	-3327
▁malon	-3328
▁žmonėmis	-3329
▁pakeitimus	-3330
aro	-3331
elį	-3332
▁nemaž	-3333
▁Pasau	-3334
▁liberaliz	-3335
eral	-3336
andid	-3337
enh	-3338
▁11	-3339
▁Prancūzijos	-3340
▁lygį	-3341
▁teisėms	-3342
▁geb	-3343
▁rimtai	-3344
▁tinkamą	-3345
▁omen	-3346
▁reikalingas	-3347
▁birž	-3348
▁garant	-3349
▁apriboj	-3350
▁įtakos	-3351
▁pavyko	-3352
▁termin	-3353
▁apsvarstyti	-3354
▁ekonomiką	-3355
etui	-3356
▁galv	-3357
▁tiems	-3358
▁procedūros	-3359
▁mis	-3360
▁elges	-3361
▁mažai	-3362
▁tokiu	-3363
siant	-3364
▁taikomos	-3365
▁projekto	-3366
▁sprendžiant	-3367
ėjos	-3368
▁šil	-3369
▁tikslai	-3370
▁valiu	-3371
▁statis	-3372
▁sutinku	-3373
▁Gruz	-3374
▁rizikos	-3375
▁apskritai	-3376
▁nelegal	-3377
▁Kop	-3378
▁žinote	-3379
pas	-3380
▁nepam	-3381
▁gird	-3382
▁svarbios	-3383
▁skirtų	-3384
▁numatyta	-3385
▁pieno	-3386
▁atl	-3387
▁dialogą	-3388
▁įsipareigojimus	-3389
▁dieną	-3390
▁kvalifik	-3391
▁pasiūlyti	-3392
▁rezultatus	-3393
▁priva	-3394
▁vienos	-3395
▁visoms	-3396
enhag	-3397
▁veiki	-3398
▁kandid	-3399
anda	-3400
▁Visų	-3401
▁autori	-3402
▁koks	-3403
▁diskusijose	-3404
▁agentūros	-3405
▁tarš	-3406
▁nuosav	-3407
▁atvyk	-3408
amųjų	-3409
▁įtaką	-3410
▁referend	-3411
▁laikom	-3412
▁Kopenhag	-3413
▁Valstyb	-3414
▁padaryta	-3415
▁pozicijos	-3416
uotą	-3417
▁kuriuose	-3418
▁puiki	-3419
▁stipr	-3420
▁tikslo	-3421
▁turėsime	-3422
▁palaikyti	-3423
roje	-3424
ėjas	-3425
▁balsavimą	-3426
▁straipsnio	-3427
jai	-3428
▁įpras	-3429
imuose	-3430
▁taikomas	-3431
ektr	-3432
obul	-3433
▁aplinkosaug	-3434
etu	-3435
▁av	-3436
▁principo	-3437
▁didėj	-3438
▁CO	-3439
urin	-3440
▁Parlamentą	-3441
▁darbuotojams	-3442
▁kompens	-3443
▁zonos	-3444
giama	-3445
inimu	-3446
▁gyvenimą	-3447
zmo	-3448
▁Es	-3449
▁rinkų	-3450
▁didelę	-3451
▁vandens	-3452
eji	-3453
gan	-3454
▁tęsti	-3455
trauki	-3456
▁vietas	-3457
▁suderinti	-3458
▁tė	-3459
uni	-3460
anaš	-3461
osioms	-3462
▁geras	-3463
▁nuostatas	-3464
▁užim	-3465
▁prasid	-3466
mus	-3467
▁Noriu	-3468
kil	-3469
▁išnagrin	-3470
▁paprašyti	-3471
▁užtikrinant	-3472
▁em	-3473
▁lėšas	-3474
▁Jungtin	-3475
▁tyrimus	-3476
▁atid	-3477
▁perkėl	-3478
▁Ind	-3479
▁teisinga	-3480
▁omenyje	-3481
▁aplinkybėmis	-3482
omus	-3483
▁tikra	-3484
▁tokią	-3485
▁visais	-3486
▁Kita	-3487
stituc	-3488
▁įsitikinęs	-3489
ytus	-3490
▁užkirsti	-3491
▁ekonomikai	-3492
alai	-3493
▁pastat	-3494
▁moteris	-3495
▁ses	-3496
▁Az	-3497
▁nario	-3498
▁Pra	-3499
▁iššūk	-3500
▁sėkmingai	-3501
▁kaž	-3502
anori	-3503
▁įstaig	-3504
▁tarptautinių	-3505
▁patobul	-3506
▁Vokietijos	-3507
▁kuriam	-3508
▁Aud	-3509
▁patys	-3510
▁Mar	-3511
▁skirtos	-3512
▁priemonė	-3513
tuoja	-3514
▁viešųjų	-3515
▁būtinas	-3516
eklar	-3517
▁nusikalst	-3518
▁atsitik	-3519
žio	-3520
usio	-3521
edant	-3522
▁kalbėjo	-3523
▁laiku	-3524
▁pareikšti	-3525
erv	-3526
▁vidu	-3527
ininkai	-3528
▁Ekonom	-3529
▁atidžiai	-3530
inamos	-3531
ument	-3532
▁mažinti	-3533
čiū	-3534
čios	-3535
▁sukūrim	-3536
▁Ponios	-3537
alus	-3538
▁egz	-3539
▁dviš	-3540
▁teršal	-3541
ry	-3542
ybe	-3543
▁Karal	-3544
▁disku	-3545
▁apsi	-3546
▁pagrindą	-3547
savo	-3548
▁aptari	-3549
▁taps	-3550
▁skurd	-3551
▁gerokai	-3552
ąž	-3553
▁atsp	-3554
▁teb	-3555
▁konkrečių	-3556
▁elemen	-3557
▁prisim	-3558
▁lin	-3559
▁prekių	-3560
iško	-3561
▁Brius	-3562
▁taikant	-3563
tras	-3564
▁25	-3565
▁Nr	-3566
▁amb	-3567
▁prekyba	-3568
▁Dėk	-3569
▁Nauj	-3570
▁priėmimo	-3571
▁finansavimą	-3572
umis	-3573
▁pamat	-3574
▁principų	-3575
▁projektas	-3576
▁minim	-3577
EL	-3578
▁skaičių	-3579
▁gerin	-3580
▁šiose	-3581
▁kartais	-3582
▁nauja	-3583
▁manymu	-3584
▁ribų	-3585
▁išsaugoti	-3586
▁išlik	-3587
▁didelės	-3588
▁svarbiausių	-3589
pač	-3590
▁gen	-3591
▁augimą	-3592
▁priekį	-3593
tiniu	-3594
▁mane	-3595
▁įstatymų	-3596
naud	-3597
vyn	-3598
anas	-3599
▁skait	-3600
▁Nuo	-3601
▁rengiant	-3602
▁Darbo	-3603
▁kamp	-3604
▁sil	-3605
aliai	-3606
▁dideli	-3607
▁pavojų	-3608
irektyv	-3609
▁raginu	-3610
▁pripažįst	-3611
▁Pranešime	-3612
▁skurdo	-3613
▁programas	-3614
▁pranešimui	-3615
..	-3616
▁199	-3617
▁kainos	-3618
▁Taryboje	-3619
▁nedelsiant	-3620
▁Tuo	-3621
tams	-3622
site	-3623
▁patvirtino	-3624
▁gim	-3625
▁plėtrą	-3626
▁tikimės	-3627
▁procedūrą	-3628
igrantų	-3629
▁patais	-3630
▁paklausti	-3631
▁nepav	-3632
atą	-3633
▁funk	-3634
lug	-3635
▁kultūrin	-3636
▁lygiu	-3637
▁birželio	-3638
▁pirk	-3639
▁Didži	-3640
▁reikės	-3641
▁terorizmu	-3642
▁Serb	-3643
▁uždar	-3644
▁aspektus	-3645
erių	-3646
▁kvo	-3647
▁kokių	-3648
ąst	-3649
▁straipsnis	-3650
▁taptų	-3651
▁nuostatų	-3652
▁indėl	-3653
▁lyčių	-3654
▁pareiškimai	-3655
▁ėm	-3656
uojami	-3657
▁mėnesius	-3658
asiūl	-3659
▁char	-3660
▁vyriausybių	-3661
čiu	-3662
mos	-3663
▁konstr	-3664
▁13	-3665
▁poreikius	-3666
▁Prival	-3667
▁priemonę	-3668
▁silpn	-3669
▁daugelį	-3670
▁nepaprastai	-3671
▁mob	-3672
▁stabilumo	-3673
▁Ch	-3674
stas	-3675
▁dem	-3676
ganist	-3677
omo	-3678
▁susitarimus	-3679
inami	-3680
▁ketvir	-3681
▁išreikšti	-3682
iamos	-3683
▁socialinio	-3684
tomis	-3685
▁sal	-3686
▁puikų	-3687
▁Dėkoju	-3688
▁nuošir	-3689
▁reikalauja	-3690
▁lėšos	-3691
▁biudžetas	-3692
▁esama	-3693
▁interneto	-3694
▁šalį	-3695
▁nuostatos	-3696
▁rezultatas	-3697
▁gyd	-3698
▁vež	-3699
▁valstybėje	-3700
prę	-3701
intos	-3702
▁imigracijos	-3703
▁tvirtin	-3704
unis	-3705
▁gyvūnų	-3706
▁rodik	-3707
▁teigiama	-3708
▁Graikijos	-3709
▁nustatyta	-3710
▁svarbiausias	-3711
▁aplinką	-3712
▁pradžių	-3713
▁abejonių	-3714
▁tarpvalstyb	-3715
▁nev	-3716
▁prid	-3717
▁sup	-3718
▁abip	-3719
▁neuž	-3720
▁reaguoti	-3721
▁praėjusi	-3722
▁nežin	-3723
▁principą	-3724
rikščionių	-3725
▁pritaria	-3726
▁pinig	-3727
oja	-3728
▁Balk	-3729
▁kartų	-3730
▁sritį	-3731
▁stu	-3732
▁Audito	-3733
▁pasiektas	-3734
eks	-3735
▁projektų	-3736
▁sand	-3737
▁taup	-3738
▁esant	-3739
▁kokios	-3740
▁naftos	-3741
▁institucijas	-3742
anta	-3743
▁susitikimo	-3744
▁laivų	-3745
▁valstybėmis	-3746
▁nuosek	-3747
▁pokyčių	-3748
enarin	-3749
▁reišk	-3750
▁įgalio	-3751
ojimo	-3752
▁joje	-3753
▁principas	-3754
▁susijusias	-3755
▁Tautų	-3756
▁status	-3757
▁žiniasklaidos	-3758
žiai	-3759
▁vas	-3760
▁Afganist	-3761
▁pakeitimą	-3762
kurti	-3763
▁Džiaug	-3764
▁lygis	-3765
AT	-3766
▁18	-3767
▁laim	-3768
▁mokė	-3769
▁ekonomika	-3770
▁įgyvendinimą	-3771
▁konven	-3772
▁Vengrijos	-3773
anija	-3774
▁pasiūlymai	-3775
▁partneryst	-3776
▁lap	-3777
▁sužin	-3778
▁plataus	-3779
▁svarbių	-3780
▁rūm	-3781
▁ateitį	-3782
▁naujus	-3783
▁paskirst	-3784
▁Pat	-3785
uojamas	-3786
▁išb	-3787
▁Vienas	-3788
▁lygybės	-3789
aujant	-3790
▁išrink	-3791
rų	-3792
tame	-3793
esnes	-3794
▁rug	-3795
▁sunkumų	-3796
▁regionuose	-3797
▁laikin	-3798
▁neteisė	-3799
▁rezoliucijoje	-3800
jek	-3801
▁išsak	-3802
▁aspektų	-3803
▁ori	-3804
▁pilie	-3805
▁įsitikin	-3806
oz	-3807
▁ja	-3808
▁grupių	-3809
eil	-3810
vimo	-3811
ugeb	-3812
mokes	-3813
▁atsis	-3814
▁šeimos	-3815
▁kalbos	-3816
▁Direktyv	-3817
prieš	-3818
▁karo	-3819
encial	-3820
na	-3821
stų	-3822
▁aptar	-3823
esnius	-3824
▁aktyviai	-3825
anki	-3826
▁bes	-3827
▁dirba	-3828
▁mokymo	-3829
▁konstruktyv	-3830
urti	-3831
▁pažad	-3832
▁medžiagų	-3833
pag	-3834
▁kriterijus	-3835
▁Italijos	-3836
▁laikomasi	-3837
▁persvarst	-3838
nyg	-3839
eliui	-3840
▁Svarbu	-3841
▁kritik	-3842
rovę	-3843
▁pareigūn	-3844
amu	-3845
uojamos	-3846
▁keleivių	-3847
▁Kinija	-3848
▁pagerin	-3849
▁PPE	-3850
▁pagaliau	-3851
yks	-3852
▁gerinti	-3853
▁akivaizdu	-3854
ęsi	-3855
▁paaiškinti	-3856
▁50	-3857
▁sausio	-3858
▁potencial	-3859
▁gav	-3860
▁smul	-3861
▁elektron	-3862
▁diskutuoj	-3863
▁bendrai	-3864
▁pagrindinės	-3865
▁mažumų	-3866
▁sprendimai	-3867
▁pasm	-3868
go	-3869
▁eurų	-3870
▁prieig	-3871
toms	-3872
▁mui	-3873
▁viskas	-3874
▁Štai	-3875
uodami	-3876
▁2020"	-3877
▁plėtoj	-3878
▁tokius	-3879
▁pranešėjui	-3880
▁knyg	-3881
▁siekdama	-3882
▁pagrindin	-3883
etų	-3884
▁gyvena	-3885
▁tuomet	-3886
▁principus	-3887
raz	-3888
▁civil	-3889
▁kelis	-3890
▁mėnesių	-3891
▁teikiama	-3892
▁pradžioje	-3893
teis	-3894
▁plenarin	-3895
▁vertinimo	-3896
▁atein	-3897
▁bendrų	-3898
▁nuveik	-3899
ono	-3900
audies	-3901
▁visuomenei	-3902
▁Rem	-3903
.)	-3904
▁Juod	-3905
▁elektr	-3906
▁savanori	-3907
kričio	-3908
▁plėtoti	-3909
▁stebėti	-3910
tumą	-3911
inimui	-3912
▁vienu	-3913
▁sau	-3914
ėjams	-3915
▁netruk	-3916
▁procese	-3917
▁antra	-3918
▁jokio	-3919
▁teršalų	-3920
▁reformos	-3921
▁mėg	-3922
▁uni	-3923
ategori	-3924
▁įtik	-3925
▁palyginti	-3926
▁paprasčiausiai	-3927
▁apg	-3928
▁apr	-3929
jans	-3930
▁valstybn	-3931
▁neįmanoma	-3932
eguž	-3933
▁diskut	-3934
▁Pirmininkas	-3935
▁vienintelis	-3936
▁pažanga	-3937
▁laikotarpį	-3938
▁laikotarpio	-3939
▁pozicija	-3940
▁rezoliucija	-3941
▁žinoti	-3942
▁abejonės	-3943
▁ekonominę	-3944
vid	-3945
▁informuoti	-3946
▁nacionalinės	-3947
▁projektus	-3948
ozi	-3949
▁sistemas	-3950
▁ekonominių	-3951
old	-3952
▁skirtą	-3953
▁užmokes	-3954
▁programų	-3955
▁pranešimu	-3956
entų	-3957
▁sąskai	-3958
▁bendrovės	-3959
▁pajamų	-3960
▁veiksmin	-3961
ach	-3962
▁įvyko	-3963
▁dalykus	-3964
zd	-3965
▁šiuose	-3966
uok	-3967
timas	-3968
▁nagrinėj	-3969
tol	-3970
▁kokyb	-3971
sis	-3972
▁eis	-3973
▁tęs	-3974
ausios	-3975
▁ekspor	-3976
▁sąnaud	-3977
dien	-3978
▁tikėtis	-3979
▁reglamentą	-3980
SV	-3981
tabil	-3982
▁dvej	-3983
ysiu	-3984
▁kategori	-3985
ario	-3986
▁Pro	-3987
žiūrą	-3988
▁atš	-3989
▁Kiek	-3990
▁Pakist	-3991
▁konsulta	-3992
urio	-3993
▁paš	-3994
elyje	-3995
ančiais	-3996
▁prat	-3997
▁draudimo	-3998
▁aljans	-3999
▁duomenis	-4000
▁Atsižvelg	-4001
▁finansuoti	-4002
▁vyrų	-4003
▁Afrik	-4004
▁mak	-4005
▁neturime	-4006
▁sveikatai	-4007
▁dipl	-4008
▁tikri	-4009
tė	-4010
žiūra	-4011
egužės	-4012
▁kitiems	-4013
▁skiriama	-4014
▁tikrin	-4015
▁aspektas	-4016
▁išaug	-4017
▁Sutarties	-4018
▁arg	-4019
▁reak	-4020
▁patikim	-4021
bud	-4022
▁asmens	-4023
▁apgailest	-4024
▁gyventojams	-4025
▁skelb	-4026
jas	-4027
▁preven	-4028
▁Pvz	-4029
akiau	-4030
▁pakeis	-4031
▁Diskusijos	-4032
▁pakeitimai	-4033
voti	-4034
▁No	-4035
▁privat	-4036
porc	-4037
▁dienos	-4038
▁univer	-4039
▁bendrovių	-4040
▁asoc	-4041
▁pageid	-4042
▁stebės	-4043
▁elektrin	-4044
▁moterims	-4045
smen	-4046
▁narė	-4047
▁Būtina	-4048
▁Džiaugiuosi	-4049
budsmen	-4050
osiomis	-4051
▁stud	-4052
▁kitomis	-4053
iųjų	-4054
▁aktai	-4055
▁sektoriui	-4056
umai	-4057
▁paskol	-4058
▁nesugeb	-4059
▁Privalome	-4060
▁ginkl	-4061
▁ginti	-4062
eglamen	-4063
▁kiekį	-4064
▁šiems	-4065
▁kovojant	-4066
▁atsisakyti	-4067
cid	-4068
ijoms	-4069
▁prim	-4070
▁pabaigos	-4071
art	-4072
▁nedid	-4073
▁siūloma	-4074
▁didesnio	-4075
vie	-4076
▁kova	-4077
▁Lenkijos	-4078
▁kapitalo	-4079
▁tarnybos	-4080
▁reikšming	-4081
▁pačiu	-4082
liu	-4083
▁finansinę	-4084
▁Ash	-4085
▁sukuri	-4086
▁pateikta	-4087
▁ein	-4088
ėp	-4089
alans	-4090
iškos	-4091
▁nepad	-4092
▁sukėl	-4093
▁smurto	-4094
▁Mo	-4095
▁vartotojai	-4096
▁visapusiškai	-4097
▁Baig	-4098
▁vaidmens	-4099
▁rezultatai	-4100
▁Jau	-4101
timis	-4102
▁konc	-4103
▁stengi	-4104
▁šaltinių	-4105
▁paskatinti	-4106
▁pasitikėjimą	-4107
▁daroma	-4108
▁sr	-4109
▁krov	-4110
▁niekas	-4111
▁kryptimi	-4112
▁aud	-4113
amumo	-4114
▁minė	-4115
▁deklar	-4116
▁Bendr	-4117
▁naudingas	-4118
▁lapkričio	-4119
▁bankų	-4120
▁teikia	-4121
▁laisvių	-4122
▁vadinam	-4123
le	-4124
pat	-4125
▁įk	-4126
avimų	-4127
▁daugelyje	-4128
▁įn	-4129
▁miškų	-4130
▁opozi	-4131
▁Izraelio	-4132
▁priklausom	-4133
ymąsi	-4134
▁pabaigoje	-4135
▁solidarumą	-4136
▁atstovai	-4137
ekuli	-4138
HU	-4139
▁mažinimo	-4140
VP	-4141
▁pik	-4142
tiški	-4143
▁žaid	-4144
iniame	-4145
▁šioms	-4146
▁diskusija	-4147
▁trag	-4148
▁organizacijų	-4149
▁biolog	-4150
ėjusių	-4151
▁parodė	-4152
▁režimo	-4153
▁naudojimą	-4154
▁dabartinės	-4155
atina	-4156
...	-4157
amės	-4158
▁keiči	-4159
▁kaltin	-4160
tinga	-4161
▁išskir	-4162
▁Siekiant	-4163
▁išlaidos	-4164
ytume	-4165
▁kažk	-4166
▁Kodėl	-4167
bals	-4168
onų	-4169
ančiomis	-4170
encijos	-4171
▁Trečia	-4172
eiskite	-4173
▁daugyb	-4174
▁ponia	-4175
▁gegužės	-4176
▁demokratiją	-4177
arank	-4178
▁proga	-4179
ančiose	-4180
▁kokybę	-4181
▁aukščiaus	-4182
▁produktus	-4183
▁paketo	-4184
yž	-4185
▁gera	-4186
▁kuriant	-4187
▁teising	-4188
▁agentūrų	-4189
▁migracijos	-4190
▁jung	-4191
▁vieno	-4192
▁Akivaiz	-4193
▁patenkinti	-4194
▁Ashton	-4195
▁pranešėja	-4196
▁kūr	-4197
▁investuoti	-4198
▁įvyki	-4199
▁tokias	-4200
▁aplinkosaugos	-4201
▁išpl	-4202
▁vykdant	-4203
▁griežtai	-4204
▁Ab	-4205
▁elektros	-4206
▁eksper	-4207
▁poreikį	-4208
▁žodžio	-4209
▁taikomi	-4210
▁pasiekta	-4211
▁komerc	-4212
▁teismo	-4213
tir	-4214
▁baz	-4215
▁dvid	-4216
▁malonu	-4217
▁derin	-4218
tuoti	-4219
▁gerą	-4220
▁dalimi	-4221
▁kolegų	-4222
▁išplės	-4223
▁iniciatyvą	-4224
tiz	-4225
▁17	-4226
▁leistų	-4227
lok	-4228
▁16	-4229
▁sandori	-4230
▁atstovauj	-4231
▁sustabdyti	-4232
▁rūšių	-4233
▁fondas	-4234
▁būdų	-4235
▁modern	-4236
▁kod	-4237
▁spalio	-4238
▁numatyti	-4239
gip	-4240
jose	-4241
▁Sch	-4242
▁prekybą	-4243
apon	-4244
▁didesnis	-4245
▁pirmen	-4246
▁prasme	-4247
tens	-4248
▁klas	-4249
▁bendroj	-4250
▁darbotvarkės	-4251
▁prašau	-4252
▁Respublikos	-4253
▁vyko	-4254
ektams	-4255
▁teisėmis	-4256
▁prisiimti	-4257
▁pakeitimas	-4258
inos	-4259
▁plano	-4260
SE	-4261
esnė	-4262
ymuisi	-4263
eiškia	-4264
▁dešimtme	-4265
▁politinę	-4266
▁neatsižvel	-4267
▁vietoje	-4268
▁aktu	-4269
▁ilgai	-4270
▁tikros	-4271
▁infrastruktūros	-4272
tini	-4273
▁smar	-4274
▁nemažai	-4275
▁Teisingumo	-4276
ATO	-4277
▁tikiu	-4278
▁savarank	-4279
▁sukurta	-4280
▁derybose	-4281
peln	-4282
▁2013	-4283
▁keitim	-4284
▁trūksta	-4285
▁pašalinti	-4286
▁įsigalioj	-4287
▁rūpes	-4288
▁šiomis	-4289
eka	-4290
▁namų	-4291
▁liaudies	-4292
▁procedūra	-4293
▁skirtingų	-4294
▁procedūras	-4295
▁susitikimas	-4296
▁plėtra	-4297
▁rėm	-4298
▁ribo	-4299
▁kūrimo	-4300
▁reformų	-4301
▁turizmo	-4302
▁stoj	-4303
▁šeim	-4304
▁suvok	-4305
▁judėjimo	-4306
tarimą	-4307
▁Turkija	-4308
▁spekuli	-4309
▁politinio	-4310
ešimt	-4311
ūroje	-4312
▁Kan	-4313
▁politinį	-4314
umi	-4315
▁grėsmę	-4316
▁erdvės	-4317
▁supr	-4318
▁ryšių	-4319
▁geležinkelių	-4320
▁įved	-4321
▁Kartu	-4322
▁mokslo	-4323
▁nariui	-4324
▁Akivaizdu	-4325
▁ombudsmen	-4326
▁gyventojai	-4327
uož	-4328
emokra	-4329
irminink	-4330
▁piliečius	-4331
▁sudėtinga	-4332
▁tarpusavio	-4333
ančia	-4334
▁sulaik	-4335
▁instituc	-4336
▁nuoširdžiai	-4337
osto	-4338
▁nepriimtina	-4339
atv	-4340
▁BŽ	-4341
▁EC	-4342
orin	-4343
▁Tam	-4344
▁artimiaus	-4345
acijai	-4346
▁sukči	-4347
▁institucija	-4348
▁stipri	-4349
▁tinkama	-4350
▁skiriasi	-4351
▁pabėgėlių	-4352
▁paraginti	-4353
▁įgyvendinimas	-4354
▁žym	-4355
▁duomenys	-4356
▁dokumentų	-4357
▁pagrindines	-4358
▁sako	-4359
▁išsami	-4360
▁vertinti	-4361
▁teritorin	-4362
▁abs	-4363
▁kyl	-4364
rauk	-4365
▁branduolinės	-4366
▁trijų	-4367
tuv	-4368
čiais	-4369
▁kalbą	-4370
▁planas	-4371
▁pirmą	-4372
▁uždraus	-4373
▁leiskite	-4374
▁pritariame	-4375
erio	-4376
▁Japon	-4377
▁nepais	-4378
▁Brit	-4379
▁sukel	-4380
ūt	-4381
▁jais	-4382
▁Slovak	-4383
▁pasirod	-4384
ėdama	-4385
adėtis	-4386
tensyv	-4387
▁skatina	-4388
▁pasiūlyme	-4389
▁mažum	-4390
▁suver	-4391
▁pasiūlymui	-4392
kiu	-4393
iln	-4394
▁II	-4395
▁Balsavimas	-4396
are	-4397
▁Si	-4398
sėjo	-4399
▁atsarg	-4400
▁paketą	-4401
▁susitar	-4402
▁Ukrainos	-4403
▁Egip	-4404
▁Biudž	-4405
▁korup	-4406
▁įrang	-4407
▁padėtyje	-4408
▁ūkininkams	-4409
inimų	-4410
▁kari	-4411
▁siūlo	-4412
▁kiekvieną	-4413
▁skiriamas	-4414
▁žlug	-4415
ekijos	-4416
▁skaidrumą	-4417
▁įsik	-4418
▁paver	-4419
▁Pasaulio	-4420
▁ban	-4421
▁istorin	-4422
▁pareiga	-4423
▁pakeitimo	-4424
mi	-4425
▁tarybos	-4426
▁poveikis	-4427
▁pastangos	-4428
CS	-4429
▁galimybe	-4430
▁atlieka	-4431
▁jaunimo	-4432
▁netrukus	-4433
▁reikalauti	-4434
▁drąs	-4435
inimai	-4436
▁produkt	-4437
▁asmenims	-4438
etai	-4439
tine	-4440
▁NATO	-4441
▁rank	-4442
▁neman	-4443
▁pastabas	-4444
▁Parlamentu	-4445
eiks	-4446
▁padeda	-4447
▁Sud	-4448
ekonom	-4449
▁leidžia	-4450
▁Baltarus	-4451
▁prioritetų	-4452
ėtoj	-4453
usius	-4454
▁labui	-4455
▁saugumas	-4456
eido	-4457
▁Kor	-4458
▁pasitel	-4459
▁pilietin	-4460
ėjimu	-4461
▁plėtrai	-4462
▁ataskaitą	-4463
▁atsakomyb	-4464
▁def	-4465
▁matome	-4466
▁ataskaitos	-4467
▁neturėtume	-4468
-201	-4469
▁tiesa	-4470
▁baigtos	-4471
▁posėdyje	-4472
▁simb	-4473
▁žali	-4474
▁Viena	-4475
▁dialogo	-4476
▁negaliu	-4477
urn	-4478
▁Turiu	-4479
▁kasdien	-4480
ef	-4481
▁gair	-4482
mogaus	-4483
▁norėtų	-4484
▁pateis	-4485
▁sustabd	-4486
▁raginama	-4487
▁policijos	-4488
cen	-4489
alios	-4490
▁trys	-4491
▁valand	-4492
▁tikslais	-4493
▁svarbos	-4494
▁kontroliuoti	-4495
▁motin	-4496
▁laipsn	-4497
▁Ispanijos	-4498
kime	-4499
igrant	-4500
traukti	-4501
▁atosto	-4502
▁įvesti	-4503
▁kandidat	-4504
▁darbotvarkę	-4505
▁darbuotojai	-4506
▁Irano	-4507
▁kliūtis	-4508
▁prieštarauja	-4509
▁konkurencingumą	-4510
▁valdymą	-4511
lieka	-4512
▁Belg	-4513
▁dalyje	-4514
lank	-4515
▁Kol	-4516
▁atliko	-4517
▁išnaudoj	-4518
jung	-4519
▁komis	-4520
▁spaudimą	-4521
▁diskusiją	-4522
▁papildomų	-4523
▁ekonominio	-4524
▁Raš	-4525
riausiai	-4526
ingus	-4527
▁asmenys	-4528
▁gyventi	-4529
▁100	-4530
▁kovą	-4531
▁mėnesį	-4532
▁narėmis	-4533
ond	-4534
▁pranaš	-4535
imosi	-4536
vys	-4537
▁40	-4538
▁jaus	-4539
aujame	-4540
▁sąlyga	-4541
ėję	-4542
▁Kas	-4543
▁palaikau	-4544
▁tend	-4545
▁išgir	-4546
▁praėjus	-4547
▁So	-4548
tingas	-4549
▁pažeidimų	-4550
▁Airijoje	-4551
▁Leiskite	-4552
▁patirties	-4553
ijo	-4554
▁įsipareig	-4555
▁pusiausvyrą	-4556
džiu	-4557
sual	-4558
▁Šioje	-4559
lams	-4560
▁mor	-4561
▁priversti	-4562
▁konkrečiai	-4563
iantis	-4564
▁įvykdymo	-4565
▁etn	-4566
▁kolegoms	-4567
▁prioritetas	-4568
▁Buvo	-4569
▁patį	-4570
▁pensijų	-4571
▁kontrolę	-4572
diskusijos	-4573
▁užtikrintų	-4574
▁susis	-4575
▁didelio	-4576
▁Valstijų	-4577
▁Visiškai	-4578
▁Irak	-4579
▁diploma	-4580
▁energiją	-4581
▁2012	-4582
▁šaliai	-4583
▁suveren	-4584
▁keis	-4585
▁iškel	-4586
▁pradėjo	-4587
trof	-4588
▁2005	-4589
▁liep	-4590
usiems	-4591
▁aprūp	-4592
▁keletas	-4593
▁politinis	-4594
▁vystymuisi	-4595
iar	-4596
▁Jo	-4597
▁duomenimis	-4598
▁PPO	-4599
▁teritorijoje	-4600
albūt	-4601
▁akivaizdžiai	-4602
razil	-4603
▁narius	-4604
atastrof	-4605
▁atsižvelgiama	-4606
amio	-4607
usią	-4608
▁kredi	-4609
imasi	-4610
▁apsis	-4611
damiesi	-4612
▁užduotis	-4613
izmo	-4614
▁laukia	-4615
▁prisitaikymo	-4616
▁nesi	-4617
acijoms	-4618
▁Galbūt	-4619
bend	-4620
▁metai	-4621
▁reglamentas	-4622
▁reikalaujama	-4623
enčia	-4624
▁lauk	-4625
▁žinių	-4626
▁stabilumą	-4627
kš	-4628
tarimo	-4629
▁pusės	-4630
▁defici	-4631
▁užtikrinta	-4632
▁reikalavimai	-4633
▁banko	-4634
▁daugia	-4635
▁vykdoma	-4636
▁sutelkti	-4637
SK	-4638
rio	-4639
tnaudži	-4640
▁sureng	-4641
▁dis	-4642
▁skurdu	-4643
▁atstovų	-4644
▁centrin	-4645
▁svarstyti	-4646
▁visuomenę	-4647
▁kitoms	-4648
▁pabrėžiama	-4649
iškumo	-4650
▁Negalime	-4651
▁sky	-4652
▁kokią	-4653
▁surin	-4654
▁vaistų	-4655
▁mokslinius	-4656
▁įdieg	-4657
▁tarnyb	-4658
▁susitikimą	-4659
tasi	-4660
▁atskl	-4661
▁griežt	-4662
ojoje	-4663
▁ryšius	-4664
▁Valstybės	-4665
▁tarptautiniu	-4666
▁Pav	-4667
▁gynybos	-4668
▁Brazil	-4669
▁dokument	-4670
▁nurodyti	-4671
▁inovacijų	-4672
eikėtų	-4673
▁pažymėti	-4674
▁priemonėms	-4675
▁sep	-4676
iname	-4677
vysči	-4678
▁Mold	-4679
▁pakr	-4680
▁stov	-4681
▁dienų	-4682
uop	-4683
▁didesnę	-4684
▁Baltijos	-4685
▁pagrindų	-4686
▁Ką	-4687
tinėje	-4688
▁atkūrim	-4689
▁suteiks	-4690
▁norėtume	-4691
▁Rumunijos	-4692
▁laisvosios	-4693
lan	-4694
Komis	-4695
▁Slovėn	-4696
▁narėje	-4697
▁nedarb	-4698
▁persek	-4699
did	-4700
▁remia	-4701
▁praktik	-4702
▁ypatingą	-4703
▁efek	-4704
▁jėgos	-4705
▁Biudžeto	-4706
etori	-4707
▁kolektyv	-4708
▁didžiausią	-4709
omai	-4710
kyr	-4711
▁prot	-4712
▁supra	-4713
▁patiria	-4714
▁pranešėjai	-4715
di	-4716
▁šim	-4717
čiams	-4718
▁egzis	-4719
▁aviacijos	-4720
ilaik	-4721
▁irgi	-4722
▁taršos	-4723
▁nesąžin	-4724
per	-4725
▁akto	-4726
kius	-4727
▁dviem	-4728
▁nutraukti	-4729
▁pranešėją	-4730
▁įvykių	-4731
▁pranešėjo	-4732
išku	-4733
▁balsuos	-4734
tės	-4735
▁žinau	-4736
▁Reglamen	-4737
▁atsižvelgta	-4738
▁konkret	-4739
▁frakcijų	-4740
he	-4741
▁Tarybą	-4742
▁pramonei	-4743
▁įsipareigojimą	-4744
pręs	-4745
▁žiau	-4746
▁intensyv	-4747
▁pagrįstas	-4748
▁ide	-4749
▁trumpai	-4750
▁pateiktų	-4751
omu	-4752
▁viduje	-4753
▁rin	-4754
▁prezidento	-4755
▁konvencijos	-4756
▁eismo	-4757
▁vaikai	-4758
▁smarkiai	-4759
mui	-4760
iški	-4761
▁Aus	-4762
▁pinigus	-4763
▁sutarčių	-4764
džius	-4765
▁posėdžio	-4766
▁kiekvienas	-4767
alyv	-4768
▁Minis	-4769
▁technologijas	-4770
sim	-4771
▁tėv	-4772
liais	-4773
▁rugsėjo	-4774
▁tri	-4775
▁vertybes	-4776
▁vertybių	-4777
▁piktnaudži	-4778
▁gerovės	-4779
▁institucijomis	-4780
▁Sar	-4781
igracija	-4782
▁netik	-4783
▁padarinius	-4784
▁pranešėjams	-4785
▁Šio	-4786
▁rinkai	-4787
▁visomis	-4788
▁politikoje	-4789
vin	-4790
toje	-4791
▁penki	-4792
▁įpareigoj	-4793
▁dy	-4794
tnamio	-4795
▁naudojant	-4796
intis	-4797
▁ilgalai	-4798
▁teigiamai	-4799
▁įtrauktas	-4800
uojame	-4801
▁skaiči	-4802
▁šešėl	-4803
uotis	-4804
amosios	-4805
▁neveik	-4806
▁Rag	-4807
umais	-4808
žvelg	-4809
▁kokį	-4810
▁pasakė	-4811
▁reglament	-4812
tumo	-4813
▁sėkmės	-4814
▁gyvybiškai	-4815
▁didėja	-4816
▁milijonų	-4817
jame	-4818
▁iššūkius	-4819
▁valstybei	-4820
ėtina	-4821
▁vari	-4822
▁geograf	-4823
▁reformas	-4824
▁eiti	-4825
▁rinkas	-4826
oksid	-4827
yčiau	-4828
anijoje	-4829
▁pasiūlymu	-4830
osn	-4831
▁atmet	-4832
kaitoje	-4833
▁nacionaliniu	-4834
▁Kitaip	-4835
▁nepakankamai	-4836
▁eil	-4837
andžio	-4838
▁tarif	-4839
balsavimas	-4840
▁procedūrų	-4841
▁patvirtinimo	-4842
▁Iki	-4843
eidžia	-4844
▁struktūrinių	-4845
▁tvarka	-4846
▁balsavo	-4847
kia	-4848
▁neišs	-4849
▁pirmąjį	-4850
▁katastrof	-4851
▁Ekonomikos	-4852
▁dik	-4853
▁Žem	-4854
▁pamiršti	-4855
▁surengti	-4856
ota	-4857
igub	-4858
uotojų	-4859
▁užmojo	-4860
▁regionams	-4861
▁veiksmingą	-4862
FI	-4863
ietuv	-4864
▁pridė	-4865
▁pavyzdį	-4866
▁šiltnamio	-4867
gnoz	-4868
vaizd	-4869
▁aukų	-4870
▁perduoti	-4871
▁sąjungos	-4872
ingu	-4873
ėsiu	-4874
tiems	-4875
tabilumo	-4876
▁gaminių	-4877
imok	-4878
▁sąvok	-4879
aiškinti	-4880
▁subsidiar	-4881
ijomis	-4882
odami	-4883
▁ėmėsi	-4884
▁paties	-4885
▁Balkanų	-4886
▁laisvai	-4887
▁išnagrinėti	-4888
▁dalykai	-4889
▁universi	-4890
▁užbaigti	-4891
▁valstybnar	-4892
▁atspind	-4893
▁daugeliu	-4894
▁lengviau	-4895
▁stengtis	-4896
▁balsavimas	-4897
ančiųjų	-4898
▁Ry	-4899
kaiči	-4900
▁galėjo	-4901
▁ištekliai	-4902
ėją	-4903
▁Šį	-4904
anks	-4905
▁bendrąją	-4906
▁išsivysči	-4907
▁nustatytas	-4908
inėse	-4909
▁reklam	-4910
▁užtikrintas	-4911
sik	-4912
atos	-4913
blema	-4914
yrimo	-4915
▁pokyčius	-4916
▁finansavimas	-4917
mai	-4918
▁BVP	-4919
▁kairi	-4920
▁susitarti	-4921
▁AL	-4922
▁Jūsų	-4923
▁Lietuv	-4924
aros	-4925
▁registr	-4926
▁energetin	-4927
▁supaprastinti	-4928
▁nepakanka	-4929
alą	-4930
▁nvien	-4931
ininkams	-4932
▁santykiai	-4933
▁efektyvumo	-4934
▁maždaug	-4935
▁pasidal	-4936
▁sveikinu	-4937
▁priežiūrą	-4938
▁kaimynystės	-4939
▁gerbti	-4940
▁nepalanki	-4941
▁partnerių	-4942
ūrai	-4943
▁ekstr	-4944
▁didžiausia	-4945
▁mažiausiai	-4946
toja	-4947
▁pli	-4948
▁atkurti	-4949
▁principu	-4950
▁naudojimas	-4951
▁Mal	-4952
▁suvar	-4953
▁atsakingas	-4954
▁Tunis	-4955
▁Pasiūl	-4956
ako	-4957
ytojų	-4958
▁garantijų	-4959
▁sutartyje	-4960
tiną	-4961
▁demon	-4962
▁dokumentą	-4963
▁Savo	-4964
▁teroris	-4965
▁nereikia	-4966
▁dom	-4967
▁Rūmų	-4968
▁aiškus	-4969
▁elgtis	-4970
▁kliūčių	-4971
▁prevencijos	-4972
▁vietą	-4973
▁siekiame	-4974
▁pirmininkavimo	-4975
ich	-4976
▁eksporto	-4977
▁sign	-4978
▁Klaus	-4979
▁riboj	-4980
▁ūkininkų	-4981
▁laikosi	-4982
▁bendruomenės	-4983
ančiu	-4984
▁naudą	-4985
▁naujosios	-4986
▁nuosavybės	-4987
▁Gaz	-4988
tijoje	-4989
▁įtrauki	-4990
▁savanorišk	-4991
▁Social	-4992
▁atsakymą	-4993
▁persekioj	-4994
▁nuv	-4995
▁tradic	-4996
▁baudžiam	-4997
▁glaudžiai	-4998
▁2004	-4999
▁patvirtintas	-5000
▁išpuo	-5001
▁sienos	-5002
▁iniciatyvų	-5003
▁21	-5004
▁ALDE	-5005
▁nesėk	-5006
▁propag	-5007
▁aljanso	-5008
▁stabiliz	-5009
▁investicijas	-5010
uoto	-5011
▁kiš	-5012
▁speci	-5013
ėtumėte	-5014
▁suform	-5015
▁didesnės	-5016
ign	-5017
▁maistu	-5018
▁susipaž	-5019
atai	-5020
gres	-5021
dav	-5022
▁pasiryž	-5023
▁informac	-5024
▁susidūr	-5025
▁daugumos	-5026
▁dabartinę	-5027
▁nesilaik	-5028
iskal	-5029
▁aštu	-5030
▁naik	-5031
▁ambic	-5032
▁kiekio	-5033
▁pažangi	-5034
▁valstybę	-5035
▁diskriminacija	-5036
lim	-5037
tijai	-5038
▁efektą	-5039
▁nedarbo	-5040
iuose	-5041
▁liepos	-5042
▁Palestin	-5043
▁reglamentuoj	-5044
▁sugr	-5045
▁vaist	-5046
▁prezidentas	-5047
▁minėjau	-5048
▁balsavome	-5049
▁įtraukta	-5050
▁patekti	-5051
▁priimta	-5052
▁tikriausiai	-5053
angl	-5054
▁Ačiū	-5055
▁priorite	-5056
▁susiduriame	-5057
▁Portugalijos	-5058
▁bar	-5059
mesti	-5060
▁milžin	-5061
▁suvien	-5062
▁tekstą	-5063
▁žalos	-5064
▁galite	-5065
▁daugybę	-5066
▁Baltarusijos	-5067
šv	-5068
▁krize	-5069
▁metams	-5070
▁strategijoje	-5071
▁žud	-5072
entas	-5073
inimus	-5074
▁dalyvauja	-5075
▁To	-5076
ced	-5077
▁buvau	-5078
tiniais	-5079
▁dioksid	-5080
▁susisiek	-5081
iamą	-5082
▁suž	-5083
▁prievar	-5084
▁rinkimus	-5085
▁socialinį	-5086
▁susitarimai	-5087
kalb	-5088
▁imtasi	-5089
▁vertės	-5090
▁obj	-5091
▁sakyti	-5092
Pirminink	-5093
▁standartai	-5094
▁Toks	-5095
▁ginklų	-5096
▁aukštos	-5097
▁pinigai	-5098
▁pagrindo	-5099
▁Žmogaus	-5100
▁sutartimi	-5101
▁patyr	-5102
▁palank	-5103
▁kiekvienos	-5104
▁kam	-5105
▁turint	-5106
▁savaime	-5107
▁įvykdyti	-5108
▁balandžio	-5109
▁apmokestin	-5110
liav	-5111
▁žais	-5112
ėjimus	-5113
▁minut	-5114
▁nuosekl	-5115
▁naudojami	-5116
las	-5117
▁veikimo	-5118
▁būtinybę	-5119
▁asmeniškai	-5120
▁vertinimą	-5121
▁koordinavimo	-5122
▁kompromisą	-5123
▁šak	-5124
▁Pastar	-5125
▁iniciatyvas	-5126
iųsti	-5127
▁kilo	-5128
▁žemyn	-5129
▁kontek	-5130
▁regioninės	-5131
▁demokratija	-5132
▁pagrindiniai	-5133
Darbo	-5134
▁keliu	-5135
ygtinai	-5136
tinos	-5137
▁EI	-5138
▁sąrašą	-5139
▁kiekviena	-5140
▁praktiškai	-5141
▁darn	-5142
finans	-5143
▁pirmin	-5144
▁suprantu	-5145
▁straipsnį	-5146
▁gra	-5147
▁tenden	-5148
▁lygmens	-5149
▁pirmasis	-5150
▁suteikiama	-5151
LE	-5152
▁žurn	-5153
▁atvirai	-5154
▁ug	-5155
rašau	-5156
▁kalbų	-5157
▁Kiekvien	-5158
▁nereikal	-5159
▁įgaliojimus	-5160
▁Švedijos	-5161
▁persvarstyti	-5162
asti	-5163
▁išme	-5164
▁medic	-5165
▁ketiname	-5166
▁visuomet	-5167
▁komitetui	-5168
▁Karalystės	-5169
▁gau	-5170
▁siau	-5171
▁balsų	-5172
▁keisti	-5173
▁nustatytos	-5174
▁didžiausias	-5175
▁nuosto	-5176
▁pagrįsta	-5177
▁pareikal	-5178
▁prir	-5179
▁pakenk	-5180
▁vaikams	-5181
▁dalyvauj	-5182
▁prioritetus	-5183
▁ketvirt	-5184
▁tenk	-5185
▁Sveik	-5186
▁lieka	-5187
▁neįgal	-5188
▁Kopenhagos	-5189
▁mon	-5190
dėlio	-5191
kyrus	-5192
▁įman	-5193
▁įmones	-5194
▁palengvinti	-5195
▁JK	-5196
▁nelaimių	-5197
▁pateiktą	-5198
▁pasirinkti	-5199
▁išgyven	-5200
ovos	-5201
telek	-5202
▁garb	-5203
▁Žemės	-5204
▁atsakingi	-5205
▁skaičiaus	-5206
▁kaina	-5207
▁kovai	-5208
▁paslaugos	-5209
▁automobili	-5210
rai	-5211
siai	-5212
▁kokie	-5213
▁Pagaliau	-5214
▁susilaik	-5215
▁valiutos	-5216
▁apibrėžti	-5217
tųsi	-5218
ūkes	-5219
▁nuž	-5220
▁Vidurio	-5221
▁gamintojų	-5222
▁patirtimi	-5223
▁sistemoje	-5224
alas	-5225
▁pasinaud	-5226
trūk	-5227
▁Tokia	-5228
▁rengti	-5229
▁kompetencijos	-5230
▁nenori	-5231
▁tikisi	-5232
▁reitingų	-5233
▁įstatymo	-5234
▁vidutinės	-5235
▁socialistų	-5236
▁diktat	-5237
▁išvadas	-5238
▁Turėtume	-5239
osovo	-5240
▁gaus	-5241
▁išreikš	-5242
▁saugumui	-5243
▁programoje	-5244
▁septyn	-5245
▁poreikis	-5246
▁įvairovės	-5247
▁pakarto	-5248
▁naujovių	-5249
▁priimant	-5250
ah	-5251
▁kalbu	-5252
▁lūkes	-5253
▁skund	-5254
▁vaikus	-5255
▁pateiks	-5256
▁demograf	-5257
▁pasakyta	-5258
▁socialin	-5259
▁vietovėse	-5260
▁pagrindinius	-5261
oh	-5262
▁kokiu	-5263
▁žaliav	-5264
▁argumen	-5265
▁Kom	-5266
▁savi	-5267
▁500	-5268
▁Pili	-5269
▁tęsi	-5270
▁nesus	-5271
▁ieškoti	-5272
▁teisinę	-5273
▁tyrimai	-5274
▁svarbius	-5275
▁skatinimo	-5276
▁ataskaitoje	-5277
50	-5278
▁Kos	-5279
retori	-5280
▁pasis	-5281
▁diskriminacijos	-5282
▁Jame	-5283
▁pagam	-5284
▁reikšmę	-5285
▁vair	-5286
▁Kosovo	-5287
▁sakiau	-5288
▁paprastai	-5289
▁pasirengę	-5290
gą	-5291
▁grąž	-5292
▁ministras	-5293
▁pasaulinės	-5294
usias	-5295
▁narko	-5296
▁kūrimą	-5297
▁augimas	-5298
tariame	-5299
▁kolega	-5300
▁ekstrem	-5301
▁partija	-5302
▁narystės	-5303
▁pasaulinio	-5304
▁gamybą	-5305
▁teksti	-5306
▁žingsnį	-5307
▁tikslams	-5308
▁naudojamos	-5309
▁diskusijoje	-5310
▁paslaugomis	-5311
▁subsidiarumo	-5312
▁konkurencingumo	-5313
įsta	-5314
žval	-5315
▁duoti	-5316
▁vertę	-5317
rikščion	-5318
▁aspektą	-5319
▁akivaizd	-5320
jam	-5321
uma	-5322
olid	-5323
tinų	-5324
avimus	-5325
erland	-5326
▁sporto	-5327
▁nusipeln	-5328
▁leidžiama	-5329
linkos	-5330
▁seksual	-5331
▁kontekst	-5332
arų	-5333
bus	-5334
▁mintis	-5335
▁Preziden	-5336
▁parengtas	-5337
gia	-5338
mei	-5339
▁Lo	-5340
▁fondą	-5341
▁neats	-5342
▁neturin	-5343
▁paskelbti	-5344
▁priešingai	-5345
otų	-5346
▁narei	-5347
▁moderniz	-5348
▁Prancūzija	-5349
liams	-5350
▁kredito	-5351
▁dioksido	-5352
▁nustatytų	-5353
▁parlamento	-5354
▁tarptautinę	-5355
▁60	-5356
▁daugeliui	-5357
▁veiksminga	-5358
▁veiksmingiau	-5359
inasi	-5360
▁asign	-5361
▁subalans	-5362
▁išmetamųjų	-5363
▁Stras	-5364
▁krizė	-5365
▁sulauk	-5366
▁valdys	-5367
inus	-5368
▁Mak	-5369
ingumą	-5370
▁esate	-5371
ėjimui	-5372
▁Trans	-5373
▁nužud	-5374
▁kortel	-5375
▁art	-5376
▁Euro	-5377
▁avari	-5378
▁intelek	-5379
▁tarptautinio	-5380
▁PV	-5381
▁mar	-5382
▁pere	-5383
▁palaiko	-5384
▁vystymąsi	-5385
▁Kroati	-5386
▁daugiašal	-5387
▁srau	-5388
ši	-5389
ėtos	-5390
▁nam	-5391
▁tradi	-5392
▁nelaimės	-5393
▁operatori	-5394
▁23	-5395
▁ign	-5396
▁jumis	-5397
acijomis	-5398
▁Briuselyje	-5399
▁europiečių	-5400
▁lo	-5401
mečio	-5402
▁žalą	-5403
▁žuvų	-5404
damasi	-5405
▁Sutinku	-5406
aną	-5407
▁įnaš	-5408
ankiai	-5409
▁tikrov	-5410
▁efektyvumą	-5411
ema	-5412
▁dėti	-5413
▁vasario	-5414
▁šiuolaik	-5415
▁gamintojams	-5416
▁problemomis	-5417
alu	-5418
tri	-5419
inte	-5420
sming	-5421
▁vyksi	-5422
▁išanks	-5423
▁Tiesą	-5424
▁rimtų	-5425
▁teikimo	-5426
▁ženklas	-5427
▁sukeliančių	-5428
LT	-5429
liui	-5430
▁pai	-5431
▁įstatymus	-5432
▁vos	-5433
bendr	-5434
▁emis	-5435
▁atvejis	-5436
▁nuveikti	-5437
main	-5438
▁paspar	-5439
▁reikalingos	-5440
eld	-5441
iojo	-5442
▁padėčiai	-5443
▁atgal	-5444
▁verta	-5445
▁dvišal	-5446
▁pradžios	-5447
▁nustatant	-5448
▁įvairiose	-5449
▁baigti	-5450
▁grįžti	-5451
▁išveng	-5452
▁miestų	-5453
▁ragina	-5454
▁žodžius	-5455
▁nepamiršti	-5456
▁įvykiai	-5457
▁narkotik	-5458
▁skirtumus	-5459
▁planus	-5460
▁tvirtą	-5461
▁peržiūrėti	-5462
▁konkurenciją	-5463
ytina	-5464
▁abiejų	-5465
▁subjek	-5466
▁nuspręsti	-5467
▁skatinant	-5468
▁atnaujinti	-5469
tims	-5470
▁Kal	-5471
ečiai	-5472
▁blok	-5473
yto	-5474
▁išsamiai	-5475
▁skaitmen	-5476
▁pažeidimus	-5477
▁for	-5478
yderland	-5479
▁konsolid	-5480
▁kreiptis	-5481
▁objektyv	-5482
▁pasirengusi	-5483
uoda	-5484
▁linkme	-5485
▁svarstymą	-5486
co	-5487
lis	-5488
▁veng	-5489
▁paded	-5490
▁pirmyn	-5491
▁įsikiš	-5492
▁pagarbą	-5493
▁sužinoti	-5494
TE	-5495
irk	-5496
▁iškil	-5497
IS	-5498
pu	-5499
▁Koki	-5500
▁atėjo	-5501
▁teise	-5502
tekcion	-5503
▁vertina	-5504
▁viešojo	-5505
▁rinkimai	-5506
▁konflikto	-5507
edon	-5508
acijoje	-5509
▁tekstilės	-5510
▁dalyvavimą	-5511
ektais	-5512
▁konserv	-5513
▁nusikalstam	-5514
▁0	-5515
▁tyrimą	-5516
▁laikantis	-5517
▁konkrečius	-5518
▁elgi	-5519
▁politinius	-5520
▁suprantama	-5521
▁likti	-5522
▁koncep	-5523
▁tikslu	-5524
▁paketas	-5525
▁susitarimu	-5526
▁skl	-5527
▁nurodyta	-5528
▁Baigdamas	-5529
krikščionių	-5530
▁prisijungti	-5531
,5	-5532
int	-5533
tingą	-5534
▁siun	-5535
albėti	-5536
▁ištir	-5537
▁prašymą	-5538
▁perkelti	-5539
▁sutarčiai	-5540
▁fiz	-5541
▁dydžio	-5542
▁proporc	-5543
▁teigiamas	-5544
▁kampan	-5545
▁sutikti	-5546
▁pranešimų	-5547
▁įž	-5548
▁Ger	-5549
▁Ver	-5550
▁naštą	-5551
▁vykdo	-5552
▁tinklo	-5553
▁tekstas	-5554
▁teisinio	-5555
▁Hai	-5556
▁Susi	-5557
▁norm	-5558
▁palanki	-5559
▁teisinį	-5560
KR	-5561
▁gamtos	-5562
▁laikyti	-5563
▁Tarptautinės	-5564
▁humanitarinės	-5565
▁įspūd	-5566
▁galios	-5567
▁agentūra	-5568
tojais	-5569
▁abipus	-5570
▁tvarką	-5571
▁rinkose	-5572
▁Nyderland	-5573
▁primygtinai	-5574
eną	-5575
eder	-5576
▁Nėra	-5577
▁darbu	-5578
▁miesto	-5579
▁Vyriaus	-5580
▁stojimo	-5581
▁krovinių	-5582
-0	-5583
ero	-5584
▁kuro	-5585
▁pral	-5586
▁nusiv	-5587
▁specif	-5588
▁produktai	-5589
iomis	-5590
▁pagrindinį	-5591
▁užmokesčio	-5592
▁esančių	-5593
▁kompromisas	-5594
arto	-5595
▁įvykius	-5596
▁prisidėjo	-5597
▁socialinius	-5598
▁chem	-5599
▁atver	-5600
tinkame	-5601
▁kenčia	-5602
▁teismų	-5603
▁tiksliai	-5604
▁pasitikėjimo	-5605
tijų	-5606
▁atsig	-5607
▁tautų	-5608
iniuose	-5609
▁kitoje	-5610
▁Ministr	-5611
▁Palestinos	-5612
▁pastaraisiais	-5613
ambl	-5614
▁popie	-5615
▁kartus	-5616
▁ekonominį	-5617
▁didžiausių	-5618
gion	-5619
▁išorin	-5620
▁neties	-5621
▁bausmės	-5622
▁pacientų	-5623
▁principais	-5624
▁asociacijos	-5625
blog	-5626
ikro	-5627
▁susil	-5628
▁tinklų	-5629
▁vadovai	-5630
▁Afrikoje	-5631
anto	-5632
▁gerų	-5633
▁stok	-5634
▁sugri	-5635
▁darbdav	-5636
▁panaudo	-5637
▁rekomendacijas	-5638
uis	-5639
▁Raštiški	-5640
▁makro	-5641
▁dialogas	-5642
▁raginame	-5643
▁mechanizmą	-5644
▁palikti	-5645
▁atitiktų	-5646
▁mokėjimų	-5647
▁numatytas	-5648
ord	-5649
▁slap	-5650
sienio	-5651
yzdžiui	-5652
▁principai	-5653
atijos	-5654
▁sumok	-5655
▁Aplinkos	-5656
▁dokumentas	-5657
▁Ark	-5658
▁jauči	-5659
▁gamyba	-5660
▁pagarbos	-5661
ier	-5662
tynų	-5663
istai	-5664
▁skyr	-5665
audami	-5666
▁kriterijų	-5667
▁sektoriuose	-5668
▁būsim	-5669
▁kainas	-5670
▁nuorod	-5671
▁išsilav	-5672
▁įsitikinusi	-5673
▁PVM	-5674
elaid	-5675
▁sujung	-5676
▁žengti	-5677
▁neišven	-5678
▁veiklai	-5679
▁prieinam	-5680
▁teigiamą	-5681
▁darbuotojus	-5682
nes	-5683
▁80	-5684
▁Nem	-5685
▁sutelk	-5686
▁laikais	-5687
▁Bulgarijos	-5688
▁Visa	-5689
▁aukšt	-5690
▁vieta	-5691
▁aspektai	-5692
▁diskutuojame	-5693
▁Ank	-5694
▁Artim	-5695
▁grand	-5696
▁pavyks	-5697
ėjęs	-5698
▁log	-5699
▁vard	-5700
▁bendrijos	-5701
▁spręs	-5702
▁aukšto	-5703
▁įgū	-5704
tumas	-5705
▁nepasiek	-5706
▁valdymas	-5707
▁direktyvoje	-5708
ru	-5709
dymo	-5710
▁toli	-5711
▁netaik	-5712
▁importo	-5713
▁aukščiausio	-5714
▁atr	-5715
istro	-5716
▁Rūmai	-5717
▁mokėti	-5718
▁varg	-5719
▁Makedon	-5720
▁plačiai	-5721
▁savaites	-5722
▁religijos	-5723
▁Sach	-5724
▁dešim	-5725
▁protekcion	-5726
▁veiksmingas	-5727
tarimas	-5728
▁klaidų	-5729
▁atkūrimo	-5730
▁netek	-5731
▁įtrauktos	-5732
augumo	-5733
▁tikrus	-5734
alią	-5735
▁ilgą	-5736
▁ruož	-5737
▁užuot	-5738
▁gaires	-5739
▁žodžių	-5740
žym	-5741
▁jėga	-5742
▁Žinau	-5743
▁Gruzijos	-5744
▁investicijos	-5745
ena	-5746
▁blo	-5747
▁vir	-5748
jomis	-5749
▁Kosov	-5750
▁nesud	-5751
▁minėta	-5752
▁atliktą	-5753
▁konstitu	-5754
▁Kroatijos	-5755
▁tūkstančių	-5756
▁technologijos	-5757
tųjų	-5758
tojui	-5759
virtina	-5760
▁kasmet	-5761
▁pranešimus	-5762
▁kelti	-5763
▁pajamas	-5764
▁Britanijos	-5765
▁riziką	-5766
▁pasiekėme	-5767
▁geriausias	-5768
ėjote	-5769
ume	-5770
▁išsprę	-5771
▁pilietinės	-5772
▁save	-5773
▁radik	-5774
▁general	-5775
▁pertvark	-5776
teik	-5777
atlan	-5778
▁Aust	-5779
▁atgai	-5780
▁išplėsti	-5781
▁imigrantų	-5782
▁socialines	-5783
aiš	-5784
opol	-5785
▁ligų	-5786
▁pagarba	-5787
▁užtikrina	-5788
▁atitinkamų	-5789
▁tab	-5790
▁lankstumo	-5791
▁ūkininkai	-5792
▁tro	-5793
iamų	-5794
esticid	-5795
▁svarba	-5796
▁pereiti	-5797
▁sukelia	-5798
▁dalyvavo	-5799
▁pareiškimą	-5800
▁projektams	-5801
eč	-5802
onien	-5803
▁geros	-5804
▁išskyrus	-5805
▁neigiamą	-5806
tinei	-5807
▁Pask	-5808
▁gale	-5809
▁aiškią	-5810
▁prisideda	-5811
▁reikalavimas	-5812
▁Vyriausyb	-5813
atūr	-5814
amomis	-5815
▁partijų	-5816
▁Stabilumo	-5817
ite	-5818
▁24	-5819
ymasis	-5820
▁gauna	-5821
▁tapat	-5822
▁išlieka	-5823
▁pokyčiai	-5824
▁sunkumus	-5825
▁ribos	-5826
▁nereiškia	-5827
▁patenkintas	-5828
▁Šių	-5829
▁main	-5830
▁Galiu	-5831
▁perdirb	-5832
▁nuomonei	-5833
poli	-5834
▁anti	-5835
▁judėti	-5836
▁struktūros	-5837
▁vidutinėms	-5838
▁pama	-5839
▁žinia	-5840
▁Teismo	-5841
▁darome	-5842
▁mokesčio	-5843
▁suteiktų	-5844
ajai	-5845
ioji	-5846
uris	-5847
▁gėd	-5848
▁res	-5849
tosios	-5850
uodama	-5851
▁pradžia	-5852
▁mažosioms	-5853
▁reikalingi	-5854
▁nusikaltimų	-5855
▁parodo	-5856
▁tebėra	-5857
▁norėjau	-5858
▁veiksnys	-5859
els	-5860
▁Ko	-5861
▁dvas	-5862
ausius	-5863
▁įdarb	-5864
▁vadovų	-5865
▁tikslui	-5866
ge	-5867
▁skirtumų	-5868
▁apgailestauju	-5869
urd	-5870
▁Bosn	-5871
▁asmuo	-5872
▁gerbiam	-5873
▁trukmės	-5874
▁nukentėjusi	-5875
ba	-5876
rius	-5877
▁Laik	-5878
▁kenki	-5879
▁vykti	-5880
▁dvigub	-5881
▁organų	-5882
▁priemone	-5883
▁palaikymo	-5884
▁sekretori	-5885
▁Pavyzdžiui	-5886
▁dalyvavimas	-5887
▁įraš	-5888
▁atgaiv	-5889
▁krikščion	-5890
▁perkėlimo	-5891
▁egzistuoja	-5892
▁straipsnyje	-5893
▁Bir	-5894
▁lob	-5895
▁indėlį	-5896
▁privači	-5897
▁susijusią	-5898
ėlyn	-5899
▁toler	-5900
▁elgesio	-5901
▁sunkiai	-5902
ūre	-5903
▁ignor	-5904
▁uostų	-5905
▁atsidūr	-5906
▁priimtų	-5907
▁prielaid	-5908
▁vienodas	-5909
▁dalyvavimo	-5910
▁užtikrinimo	-5911
eguli	-5912
▁baud	-5913
▁siej	-5914
▁naryst	-5915
▁teksto	-5916
▁atskirų	-5917
▁susidar	-5918
▁išgirsti	-5919
▁teisinių	-5920
erkti	-5921
▁jūroje	-5922
ald	-5923
ento	-5924
turi	-5925
▁Tib	-5926
egalų	-5927
▁kvie	-5928
▁pasist	-5929
▁potvyn	-5930
▁teisiškai	-5931
▁prisiminti	-5932
ade	-5933
ybių	-5934
▁šiau	-5935
▁sukūr	-5936
▁nedalyv	-5937
▁nusivyl	-5938
▁įgaliojimų	-5939
anga	-5940
▁fiskal	-5941
▁konkurencija	-5942
prasm	-5943
▁interesams	-5944
▁nekalb	-5945
▁teigia	-5946
▁tobulinti	-5947
tiko	-5948
amais	-5949
▁Remiantis	-5950
▁pakartoti	-5951
."	-5952
▁lais	-5953
▁Manome	-5954
▁atmesti	-5955
▁pritaikyti	-5956
uš	-5957
▁suma	-5958
▁tiesą	-5959
▁milijard	-5960
▁mokėtojų	-5961
▁pasiruoš	-5962
▁sunaik	-5963
▁patrauk	-5964
▁ekonominius	-5965
▁Tiesa	-5966
▁149	-5967
▁įreng	-5968
tinėmis	-5969
▁teismin	-5970
▁trūkumų	-5971
▁augin	-5972
▁pelno	-5973
▁Italijoje	-5974
▁situaciją	-5975
yme	-5976
loat	-5977
iosios	-5978
▁Moter	-5979
mano	-5980
▁rams	-5981
▁sveikatą	-5982
▁mokesčius	-5983
▁organizacija	-5984
PS	-5985
pagal	-5986
▁ateičiai	-5987
▁ekonomin	-5988
▁ataskaita	-5989
labai	-5990
▁išreišk	-5991
▁Komisare	-5992
lus	-5993
▁vidutinių	-5994
▁visuomenėje	-5995
▁pavaduotojas	-5996
sk	-5997
▁kank	-5998
▁sąmon	-5999
▁paveik	-6000
▁tyrimo	-6001
▁valdžia	-6002
▁Ket	-6003
▁teko	-6004
ektori	-6005
▁vienodai	-6006
▁ryžtingai	-6007
oro	-6008
▁Kub	-6009
▁Esame	-6010
▁nesut	-6011
▁puikus	-6012
▁svarbiu	-6013
▁bendrovėms	-6014
▁atitinkamai	-6015
ystėje	-6016
▁gyvul	-6017
▁suras	-6018
▁žinią	-6019
▁taikymą	-6020
▁žmogišk	-6021
▁susisiekimo	-6022
▁veiksmingumą	-6023
saug	-6024
ūriz	-6025
▁PSE	-6026
entus	-6027
▁Atsak	-6028
▁turite	-6029
▁sparčiai	-6030
▁internete	-6031
▁konfliktų	-6032
▁vyn	-6033
uosel	-6034
▁ligos	-6035
▁pobūd	-6036
▁demokratinės	-6037
ėmės	-6038
▁moral	-6039
▁steig	-6040
▁naudojama	-6041
▁užtikrins	-6042
iškus	-6043
▁bais	-6044
▁tašk	-6045
▁žodį	-6046
▁faktas	-6047
▁pesticid	-6048
▁priežiūra	-6049
▁koordinuoti	-6050
▁krizei	-6051
▁žodžiu	-6052
▁vykdymo	-6053
▁sumažėjo	-6054
▁besivystančioms	-6055
▁dyd	-6056
▁red	-6057
rijai	-6058
▁formul	-6059
▁eksploat	-6060
iog	-6061
alaik	-6062
iskus	-6063
▁Lotynų	-6064
▁valdyti	-6065
▁sandorių	-6066
▁situacija	-6067
viz	-6068
▁lyderi	-6069
▁leidimų	-6070
▁statybos	-6071
▁AKR	-6072
▁infrastruktūrą	-6073
koh	-6074
virš	-6075
▁Str	-6076
▁serg	-6077
▁forma	-6078
▁Graikija	-6079
esniu	-6080
▁orient	-6081
▁iškelti	-6082
▁tose	-6083
▁sprag	-6084
▁padėjo	-6085
▁pranešti	-6086
▁sankcijų	-6087
anui	-6088
▁sritys	-6089
▁nemanau	-6090
▁tvaraus	-6091
▁nepavyko	-6092
▁pavojaus	-6093
▁En	-6094
▁galo	-6095
▁mąst	-6096
▁dalyką	-6097
▁iššūkis	-6098
▁pasmerk	-6099
▁Konstitu	-6100
▁Serbijos	-6101
▁savaičių	-6102
omet	-6103
▁baigi	-6104
▁ekspertų	-6105
▁Le	-6106
▁iškėl	-6107
▁pirmas	-6108
▁rūšies	-6109
▁pasekmes	-6110
▁gamintojai	-6111
bur	-6112
▁Du	-6113
▁areš	-6114
▁aiškų	-6115
▁internetu	-6116
▁vyriausybę	-6117
▁patvirtinta	-6118
CO	-6119
▁imp	-6120
▁būdą	-6121
▁komand	-6122
▁surink	-6123
▁prisiim	-6124
▁pereinam	-6125
▁socialine	-6126
▁konferencijos	-6127
▁Alb	-6128
▁islam	-6129
▁patirtį	-6130
▁tarnyba	-6131
▁migrantų	-6132
▁įsteigti	-6133
▁civilinės	-6134
▁pirmenybę	-6135
▁pateikiama	-6136
▁besivystančių	-6137
eit	-6138
▁Niek	-6139
▁etape	-6140
padėtis	-6141
▁dvejus	-6142
▁modelį	-6143
▁tyrimams	-6144
rab	-6145
roji	-6146
▁nelyg	-6147
▁visam	-6148
▁faktiškai	-6149
▁don	-6150
styti	-6151
▁gais	-6152
▁traged	-6153
▁pamok	-6154
▁teigiamų	-6155
ros	-6156
vež	-6157
▁skry	-6158
▁dalių	-6159
▁Mok	-6160
iečių	-6161
ančiam	-6162
▁natūr	-6163
▁išklaus	-6164
▁reformą	-6165
voliu	-6166
▁erdvę	-6167
▁kūryb	-6168
▁dirbančių	-6169
▁numatytos	-6170
▁terorizmo	-6171
▁neatidėlio	-6172
zy	-6173
▁gab	-6174
ėtoją	-6175
▁Vert	-6176
▁dieg	-6177
▁mumis	-6178
▁dinam	-6179
▁rimta	-6180
▁teikiant	-6181
yboje	-6182
▁darbų	-6183
▁pasekmių	-6184
▁tokiomis	-6185
ryp	-6186
ykd	-6187
omojo	-6188
▁Būtų	-6189
▁Viet	-6190
▁menk	-6191
▁nepro	-6192
▁suman	-6193
▁turto	-6194
▁grindžiama	-6195
aujama	-6196
eticijų	-6197
▁ministrų	-6198
▁tinkamos	-6199
▁stebėjimo	-6200
▁grindžiamas	-6201
▁panaikinimo	-6202
▁nepagr	-6203
▁piliet	-6204
▁trečiosios	-6205
EN	-6206
▁2000	-6207
▁aktas	-6208
▁platin	-6209
▁tokiais	-6210
▁Palankiai	-6211
erim	-6212
▁lėk	-6213
▁Antr	-6214
▁Priešingai	-6215
amiems	-6216
▁padal	-6217
▁Strasb	-6218
aliųjų	-6219
esiems	-6220
▁Raginu	-6221
▁draudži	-6222
▁Kinijoje	-6223
▁Valstijos	-6224
▁uždrausti	-6225
▁branduolinių	-6226
▁jomis	-6227
▁būtinos	-6228
▁pastabų	-6229
▁susidom	-6230
▁Daugelis	-6231
▁vertiname	-6232
▁susitarime	-6233
tiška	-6234
▁alkoh	-6235
▁galėčiau	-6236
▁Na	-6237
iamės	-6238
oslav	-6239
▁mikro	-6240
▁vaizd	-6241
▁bankas	-6242
stra	-6243
umat	-6244
ustat	-6245
▁nauji	-6246
▁pablog	-6247
▁spaudos	-6248
▁partneriais	-6249
▁pusiausvyros	-6250
ukš	-6251
▁paraš	-6252
▁smulk	-6253
▁tikro	-6254
▁sąveik	-6255
▁kontekste	-6256
rūs	-6257
pres	-6258
tino	-6259
▁Ber	-6260
▁Mat	-6261
mingi	-6262
▁gelb	-6263
▁trej	-6264
▁dirvo	-6265
▁pried	-6266
▁būtume	-6267
▁pradedant	-6268
▁vak	-6269
-2013	-6270
▁vieni	-6271
▁grąžin	-6272
▁praktika	-6273
▁pridurti	-6274
▁sudarytos	-6275
▁perspektyvos	-6276
amoms	-6277
▁kvotų	-6278
▁nenor	-6279
▁Finans	-6280
problema	-6281
▁pavyzdžių	-6282
▁pasinaudoj	-6283
▁apd	-6284
▁anksto	-6285
▁pajėgų	-6286
▁importuoj	-6287
▁finansinio	-6288
▁De	-6289
iausi	-6290
▁Kanad	-6291
▁sutaup	-6292
▁taupymo	-6293
▁vykdomas	-6294
▁neatitinka	-6295
▁rekomendacijos	-6296
▁Aišku	-6297
▁darbe	-6298
▁integraciją	-6299
▁trečiosiomis	-6300
arą	-6301
alaus	-6302
▁metodą	-6303
▁prognoz	-6304
▁padėtimi	-6305
▁neišvengi	-6306
▁Kopenhagoje	-6307
▁Or	-6308
▁Azijos	-6309
▁mažųjų	-6310
▁klausimui	-6311
▁diskutuoti	-6312
tuos	-6313
yksta	-6314
ezoliu	-6315
▁nepag	-6316
▁puosel	-6317
▁bendrus	-6318
▁išnaudoti	-6319
▁korupcija	-6320
▁naudojasi	-6321
▁atoki	-6322
▁papli	-6323
▁Arkties	-6324
▁atsakinga	-6325
▁kiekvieno	-6326
▁nacionalinę	-6327
▁smer	-6328
▁Visos	-6329
▁Juodosios	-6330
ask	-6331
▁atim	-6332
▁išties	-6333
▁reikalus	-6334
▁įtikinti	-6335
▁įtvirtinti	-6336
▁administravimo	-6337
neš	-6338
▁Isl	-6339
▁aktą	-6340
▁įsig	-6341
prantu	-6342
▁krizių	-6343
▁sienas	-6344
antmečio	-6345
▁pakalbėti	-6346
▁sankcijas	-6347
▁šiandienos	-6348
dugn	-6349
▁Pos	-6350
▁pabėgė	-6351
▁laikoma	-6352
▁svarbią	-6353
▁regionai	-6354
ata	-6355
eviz	-6356
žvelgti	-6357
▁Sprend	-6358
▁numatoma	-6359
▁patvirtina	-6360
jer	-6361
▁abiem	-6362
▁Ispanija	-6363
▁einantis	-6364
▁imigrant	-6365
▁įsivaizd	-6366
▁galimybėmis	-6367
▁idėja	-6368
▁turinčių	-6369
ąlyg	-6370
▁ryšio	-6371
▁ištais	-6372
▁nedaug	-6373
▁nacionalinius	-6374
gas	-6375
▁kaden	-6376
▁Teisės	-6377
▁stovykl	-6378
▁apsaugai	-6379
▁teisinis	-6380
▁universit	-6381
eiški	-6382
▁išlyg	-6383
ugoslav	-6384
▁pramonę	-6385
▁įvairias	-6386
▁pavyzdžiu	-6387
▁perdavimo	-6388
▁sudėtingas	-6389
ho	-6390
aul	-6391
▁tad	-6392
▁protes	-6393
▁skaidri	-6394
vyriausyb	-6395
▁sistemai	-6396
▁kainą	-6397
▁praktikos	-6398
▁uždavinys	-6399
▁EIB	-6400
▁Šia	-6401
▁nedar	-6402
▁įveik	-6403
▁skurdą	-6404
▁atsakas	-6405
▁Užsienio	-6406
▁susijusį	-6407
▁tarpusavyje	-6408
olio	-6409
insime	-6410
▁mobil	-6411
▁nemok	-6412
▁saugą	-6413
Pirmininkas	-6414
▁nacionalines	-6415
▁išei	-6416
▁Vidaus	-6417
▁seniai	-6418
truktūriz	-6419
▁atsiranda	-6420
▁atsakingos	-6421
▁dokumentai	-6422
▁opozicijos	-6423
▁vadovaujantis	-6424
▁žr	-6425
etus	-6426
uotojai	-6427
▁smurtą	-6428
▁Centrin	-6429
▁atitikti	-6430
▁gyvenime	-6431
▁šaltinis	-6432
▁atsakymas	-6433
▁pasiprieš	-6434
▁struktūrą	-6435
▁Kr	-6436
▁kraš	-6437
▁atmes	-6438
▁lėšomis	-6439
▁visišką	-6440
▁dokumento	-6441
▁pareiškimas	-6442
▁pripažinimo	-6443
▁Fr	-6444
▁donor	-6445
▁atskirai	-6446
pus	-6447
dešimt	-6448
▁Tūkst	-6449
▁būdus	-6450
▁susipažinti	-6451
▁būst	-6452
▁peržiūr	-6453
▁Jugoslav	-6454
▁regionas	-6455
▁politines	-6456
ojimas	-6457
▁išsamų	-6458
▁kiekis	-6459
▁padidėjo	-6460
▁taikymas	-6461
esion	-6462
▁mažų	-6463
▁gautų	-6464
iskrimin	-6465
▁gyvenančių	-6466
▁Jų	-6467
▁ruoš	-6468
▁geresnės	-6469
▁klausimams	-6470
▁22	-6471
kaln	-6472
▁nusikaltimus	-6473
▁įsipareigojimas	-6474
bal	-6475
▁užp	-6476
šveln	-6477
▁galioja	-6478
▁pagrįsti	-6479
rob	-6480
ioti	-6481
uojau	-6482
uodamas	-6483
▁kokias	-6484
▁esminis	-6485
▁mechanizmas	-6486
▁išsiaiškinti	-6487
▁Aps	-6488
▁rizika	-6489
▁sutiko	-6490
▁daugiam	-6491
▁neatsak	-6492
▁pateiktus	-6493
▁politiniu	-6494
▁sprendimu	-6495
▁pasirinkimo	-6496
▁EB	-6497
ariai	-6498
▁pagir	-6499
▁nuodugn	-6500
▁paversti	-6501
▁reikalas	-6502
▁įvairovę	-6503
▁oficialiai	-6504
▁skaidrumas	-6505
ALE	-6506
sich	-6507
▁ord	-6508
▁karto	-6509
▁didžiulį	-6510
▁konstituc	-6511
olo	-6512
▁ok	-6513
▁Tada	-6514
ienyje	-6515
▁redak	-6516
▁režimas	-6517
▁švietimą	-6518
▁prem	-6519
▁darbui	-6520
▁Žinome	-6521
▁Pagrindinių	-6522
▁akc	-6523
▁energija	-6524
▁teisingas	-6525
▁naudojamas	-6526
▁pasirašyti	-6527
▁Sk	-6528
▁Verts	-6529
▁palūk	-6530
▁atostogų	-6531
▁susirink	-6532
▁dažniausiai	-6533
praneš	-6534
▁sakau	-6535
▁neaišk	-6536
▁asmenis	-6537
▁papildomą	-6538
▁aplinkybes	-6539
▁prioritetai	-6540
▁ačiū	-6541
▁Island	-6542
▁patobulinti	-6543
▁restruktūriz	-6544
no	-6545
intume	-6546
▁antai	-6547
▁stebėsenos	-6548
▁El	-6549
iasi	-6550
entro	-6551
▁suvo	-6552
▁vaiko	-6553
▁vidur	-6554
▁taryba	-6555
▁Indijos	-6556
▁reikėjo	-6557
▁bendroji	-6558
va	-6559
ečd	-6560
mūsų	-6561
▁zonoje	-6562
▁/	-6563
eistų	-6564
aiškos	-6565
▁buvusi	-6566
▁kovoje	-6567
▁ateitis	-6568
▁konsult	-6569
▁nurodoma	-6570
▁susitaik	-6571
▁savarankiškai	-6572
▁užk	-6573
▁kokius	-6574
▁Saugumo	-6575
▁Ukraina	-6576
▁iššūkių	-6577
▁baronien	-6578
▁pasaulis	-6579
▁finansines	-6580
gos	-6581
▁26	-6582
ioms	-6583
omunik	-6584
▁Pirmasis	-6585
▁regionui	-6586
▁komun	-6587
▁Norime	-6588
▁Norint	-6589
▁primen	-6590
▁pasimok	-6591
▁viešosios	-6592
▁laikotarpis	-6593
▁mechanizmus	-6594
nai	-6595
▁lemia	-6596
▁naujai	-6597
▁metodas	-6598
▁punktas	-6599
▁praeityje	-6600
▁siekdamos	-6601
▁reglamentavimo	-6602
elia	-6603
metį	-6604
▁praras	-6605
▁sakoma	-6606
▁geriausia	-6607
▁efektyviai	-6608
kozy	-6609
▁Herc	-6610
▁Latv	-6611
▁grėsm	-6612
▁protokolo	-6613
▁And	-6614
▁tun	-6615
eista	-6616
engvai	-6617
▁geresnį	-6618
▁nuomonių	-6619
tiškas	-6620
▁dirbo	-6621
▁apriboti	-6622
▁trūkumas	-6623
▁veiksmais	-6624
▁lygmenimis	-6625
imbab	-6626
▁spor	-6627
indami	-6628
tinėms	-6629
▁atrod	-6630
▁ilgiau	-6631
▁rūmuose	-6632
▁televiz	-6633
▁laikomas	-6634
▁nuostata	-6635
▁pasauliui	-6636
▁europiečiai	-6637
tap	-6638
▁Br	-6639
▁Atro	-6640
▁liūd	-6641
▁galių	-6642
▁lygiai	-6643
▁Sarkozy	-6644
▁ištirti	-6645
▁tinkami	-6646
▁istorijos	-6647
▁projektai	-6648
▁mechanizmo	-6649
▁Afganistano	-6650
▁besivystančiose	-6651
▁Buv	-6652
amumą	-6653
▁sukelti	-6654
▁daugybės	-6655
▁procesui	-6656
▁užimtumą	-6657
▁Pranešimas	-6658
ėt	-6659
vald	-6660
yven	-6661
▁norą	-6662
▁faktą	-6663
▁kitur	-6664
▁Rūmuose	-6665
▁mažumos	-6666
▁suvokti	-6667
▁žodžiais	-6668
▁motinystės	-6669
cinės	-6670
ijimo	-6671
▁pakto	-6672
▁derėtų	-6673
▁galutinį	-6674
▁prieštarin	-6675
ma	-6676
rist	-6677
▁mom	-6678
▁ram	-6679
▁atom	-6680
▁lengva	-6681
▁finansin	-6682
▁suteiktas	-6683
▁konferencijoje	-6684
zon	-6685
esia	-6686
ulio	-6687
ytik	-6688
▁iškr	-6689
olidar	-6690
▁kruop	-6691
▁leido	-6692
▁psich	-6693
▁apibūd	-6694
▁išaugo	-6695
▁išband	-6696
▁Demokra	-6697
▁ankstyv	-6698
▁pirmojo	-6699
▁vertinimas	-6700
anau	-6701
ausio	-6702
▁pusę	-6703
▁geresnio	-6704
▁renk	-6705
▁veid	-6706
▁trečd	-6707
▁atsirad	-6708
▁saugoti	-6709
▁interesai	-6710
▁suteikiant	-6711
jau	-6712
▁nusis	-6713
▁atliktas	-6714
▁produktams	-6715
▁ženklinimo	-6716
▁Poli	-6717
amasis	-6718
endrin	-6719
▁kalbė	-6720
▁brangi	-6721
▁kartos	-6722
▁perkel	-6723
▁galimas	-6724
▁laikomi	-6725
▁tinkamų	-6726
▁Komisijoje	-6727
▁informavimo	-6728
▁krikščionių	-6729
Par	-6730
inų	-6731
kon	-6732
▁TV	-6733
▁ac	-6734
▁nub	-6735
ėjimai	-6736
▁nebuv	-6737
▁populi	-6738
▁Tikimės	-6739
▁geresnę	-6740
▁lengvai	-6741
cinių	-6742
▁kokio	-6743
▁person	-6744
▁Moldovos	-6745
▁Rumunija	-6746
▁profesion	-6747
▁komen	-6748
▁rimtas	-6749
▁turėjome	-6750
▁geriausiai	-6751
▁panaudojimo	-6752
▁sch	-6753
imbabv	-6754
▁vienam	-6755
▁dažniau	-6756
.-	-6757
ell	-6758
ešim	-6759
▁Atl	-6760
▁dreb	-6761
▁toms	-6762
alizmo	-6763
▁leidimo	-6764
▁bendrojo	-6765
▁nuosekli	-6766
▁Vokietijoje	-6767
▁artėj	-6768
▁pager	-6769
▁gresia	-6770
▁būtinyb	-6771
▁išvados	-6772
▁vietose	-6773
▁dėkingas	-6774
▁nustatymo	-6775
▁preced	-6776
▁poreikių	-6777
▁veiksmingos	-6778
inome	-6779
▁ištik	-6780
▁mažas	-6781
▁tekste	-6782
▁veikloje	-6783
žu	-6784
čią	-6785
▁kelio	-6786
▁apžval	-6787
▁atstat	-6788
▁žodžiai	-6789
Komisijos	-6790
▁daugiamet	-6791
▁duj	-6792
▁jaunų	-6793
▁Paskutin	-6794
▁didžioji	-6795
▁išmetamų	-6796
▁pasienio	-6797
▁apribojimų	-6798
mėn	-6799
lika	-6800
divid	-6801
▁lyti	-6802
▁motyv	-6803
▁vakarą	-6804
▁autorius	-6805
▁vykdomos	-6806
▁skirtumai	-6807
▁Šią	-6808
▁medien	-6809
▁mobiliz	-6810
▁turinio	-6811
▁nusipelno	-6812
▁pasmerkti	-6813
▁konservatori	-6814
riją	-6815
▁Energ	-6816
▁taiką	-6817
▁šeimų	-6818
entuoti	-6819
ausiomis	-6820
▁individ	-6821
▁visuose	-6822
▁naudingi	-6823
▁prekybai	-6824
▁garantuoti	-6825
ER	-6826
▁iz	-6827
▁dži	-6828
ymais	-6829
kaitom	-6830
▁atsako	-6831
▁privers	-6832
▁užduoti	-6833
kalbėtoją	-6834
▁sveikata	-6835
▁nukentėjo	-6836
▁finansinius	-6837
autis	-6838
▁aiškios	-6839
▁kryptis	-6840
▁Graikijoje	-6841
▁gyventojus	-6842
▁Prancūzijoje	-6843
GF	-6844
vi	-6845
▁men	-6846
▁atvejus	-6847
▁prasidėjo	-6848
▁partnerystę	-6849
▁pačią	-6850
zo	-6851
iškumą	-6852
tingos	-6853
instituc	-6854
▁aplinka	-6855
▁augimui	-6856
▁bendruomenių	-6857
▁Atsižvelgdamas	-6858
kaitos	-6859
▁diena	-6860
▁Juodkaln	-6861
▁solidarumas	-6862
ks	-6863
▁deb	-6864
edarb	-6865
tišką	-6866
▁dienas	-6867
▁pagrįstą	-6868
▁teikiamos	-6869
▁situacijos	-6870
aras	-6871
▁ded	-6872
▁kitoki	-6873
▁išlikti	-6874
▁pasirūp	-6875
▁prieigą	-6876
▁nagrinėti	-6877
eic	-6878
lap	-6879
▁28	-6880
ausiu	-6881
▁mėlyn	-6882
▁pasit	-6883
▁teisus	-6884
▁sušveln	-6885
▁įstatymą	-6886
▁kriterijai	-6887
riki	-6888
tali	-6889
▁neno	-6890
▁grupėms	-6891
▁brang	-6892
▁dideles	-6893
▁revoliu	-6894
▁Transporto	-6895
▁politiniai	-6896
emp	-6897
▁štai	-6898
▁simbol	-6899
št	-6900
net	-6901
▁Sm	-6902
▁mės	-6903
Parlamen	-6904
▁sveikin	-6905
▁tinkamo	-6906
▁atsirado	-6907
▁įvairius	-6908
▁dokumente	-6909
▁dokumentus	-6910
▁ombudsmeno	-6911
▁potencialą	-6912
▁Tūkstantmečio	-6913
tur	-6914
ybų	-6915
terš	-6916
▁bud	-6917
▁laišk	-6918
ančiame	-6919
iesiems	-6920
tacijos	-6921
▁viešai	-6922
▁paskolų	-6923
▁apsvarst	-6924
▁valdysenos	-6925
▁delegacijos	-6926
ote	-6927
▁galin	-6928
▁skiria	-6929
▁smulki	-6930
▁Libijos	-6931
▁kalboje	-6932
▁Piliečių	-6933
▁Vengrija	-6934
▁Ang	-6935
eštar	-6936
▁ruožtu	-6937
▁autonom	-6938
▁transli	-6939
▁komentar	-6940
▁svarstome	-6941
VO	-6942
▁31	-6943
gąst	-6944
▁Tema	-6945
▁liud	-6946
uotojams	-6947
▁projekte	-6948
▁imigracija	-6949
▁diskusijoms	-6950
pir	-6951
icij	-6952
▁Pad	-6953
▁auto	-6954
▁Žmon	-6955
laikiau	-6956
▁sudarytų	-6957
▁kiekvienam	-6958
ulmon	-6959
varbu	-6960
▁sakė	-6961
istema	-6962
▁valios	-6963
▁tokioms	-6964
▁svarbiau	-6965
▁patikrinti	-6966
▁biur	-6967
avimai	-6968
▁trauk	-6969
▁fondai	-6970
uosiuose	-6971
▁naujųjų	-6972
▁prašome	-6973
▁prašyti	-6974
▁sudarymo	-6975
▁Pakistano	-6976
▁pabrėžia	-6977
▁skiriant	-6978
▁profesinių	-6979
▁pažeidžiami	-6980
▁užtikrinama	-6981
▁neatsižvelgiant	-6982
raud	-6983
▁Mek	-6984
▁Jums	-6985
▁ūkiui	-6986
▁žmogus	-6987
▁tarptautinėje	-6988
ėsti	-6989
▁muitų	-6990
▁aktais	-6991
▁metodus	-6992
▁mokestį	-6993
▁surasti	-6994
▁sukūrimo	-6995
▁Slovakijos	-6996
▁piliečiais	-6997
▁Pram	-6998
▁aukoms	-6999
▁judumo	-7000
▁mieste	-7001
▁pažiūr	-7002
▁žaliavų	-7003
▁atitinkamos	-7004
▁Atrodo	-7005
▁inicij	-7006
▁skolos	-7007
▁apginti	-7008
▁teroristų	-7009
▁balsuosime	-7010
ner	-7011
▁70	-7012
otiek	-7013
taria	-7014
▁test	-7015
▁susilpn	-7016
▁vietovių	-7017
▁penkerius	-7018
▁peržiūros	-7019
▁atsižvelgdami	-7020
ystę	-7021
▁det	-7022
ajame	-7023
kiant	-7024
▁tarpu	-7025
▁pirkimų	-7026
▁kairiųjų	-7027
vies	-7028
▁įrangos	-7029
▁konkrečias	-7030
▁narį	-7031
▁įkal	-7032
▁atkak	-7033
▁gerov	-7034
▁nauda	-7035
▁naudoja	-7036
▁privati	-7037
ten	-7038
▁esamų	-7039
▁lyder	-7040
▁tvarų	-7041
▁šešių	-7042
▁Ketvir	-7043
▁bankai	-7044
▁būdais	-7045
▁monopol	-7046
▁pastatų	-7047
▁susitel	-7048
▁pagrįstai	-7049
jį	-7050
inai	-7051
▁Eur	-7052
▁pie	-7053
eicari	-7054
▁gerovę	-7055
▁reiški	-7056
▁modelio	-7057
▁reikštų	-7058
▁teisėtai	-7059
▁pesticidų	-7060
▁pasauliniu	-7061
avus	-7062
otas	-7063
▁kos	-7064
▁ribas	-7065
tiniams	-7066
▁galutinis	-7067
▁biologinės	-7068
▁padariniai	-7069
rima	-7070
▁daugi	-7071
▁našta	-7072
▁matėme	-7073
▁kreditų	-7074
▁valstybė	-7075
▁milijonai	-7076
▁pavojingų	-7077
▁Rumunijoje	-7078
ojimą	-7079
ykime	-7080
▁įvairov	-7081
▁Žaliųjų	-7082
▁reguliuoti	-7083
▁vartotojus	-7084
ats	-7085
inas	-7086
tose	-7087
avusi	-7088
▁atšil	-7089
▁nemat	-7090
▁repres	-7091
▁Rytuose	-7092
▁nuostab	-7093
▁pažeidimo	-7094
uel	-7095
toju	-7096
▁siaub	-7097
▁reforma	-7098
▁remdamiesi	-7099
▁paspartinti	-7100
arm	-7101
stos	-7102
▁pais	-7103
▁prag	-7104
▁ūkis	-7105
▁jokiu	-7106
▁kilti	-7107
▁susitarimui	-7108
▁humanitarinę	-7109
būtų	-7110
▁Bus	-7111
▁lėm	-7112
▁laikui	-7113
▁nukryp	-7114
▁pasaulį	-7115
▁produktais	-7116
▁liberalizavimo	-7117
UE	-7118
▁šešis	-7119
▁ideolog	-7120
▁Neseniai	-7121
▁kadencijos	-7122
▁papildomos	-7123
▁savęs	-7124
ininkas	-7125
▁augalų	-7126
▁centro	-7127
▁galimų	-7128
▁patirtis	-7129
▁reikšmės	-7130
▁sunkumais	-7131
▁kompromiso	-7132
▁(1	-7133
egov	-7134
▁liko	-7135
▁tolim	-7136
▁gairių	-7137
▁tokiai	-7138
▁Afganistane	-7139
▁vyriausybei	-7140
▁įgyvendinta	-7141
AF	-7142
▁1,	-7143
amojo	-7144
▁skland	-7145
▁skatinama	-7146
▁Jungtinėse	-7147
ieti	-7148
ysis	-7149
▁orien	-7150
▁Teismas	-7151
▁įstaigų	-7152
▁Hercegov	-7153
▁patvirtinimas	-7154
inč	-7155
▁Ob	-7156
▁198	-7157
uotai	-7158
▁tipo	-7159
▁įvyks	-7160
▁vienoje	-7161
▁Lenkijoje	-7162
▁judėjimas	-7163
▁reikalavimą	-7164
▁teritorijos	-7165
▁demokratinių	-7166
šį	-7167
ašal	-7168
aktyv	-7169
▁Apie	-7170
▁Indija	-7171
▁naštos	-7172
▁Kroatija	-7173
▁atskaitom	-7174
▁29	-7175
▁sam	-7176
europ	-7177
▁išmokų	-7178
▁nuogąst	-7179
▁tolesnių	-7180
▁vertybės	-7181
anu	-7182
ūdin	-7183
▁gaben	-7184
▁imasi	-7185
▁atspindi	-7186
▁Šveicari	-7187
▁kariuomen	-7188
jū	-7189
imin	-7190
ėdis	-7191
ydamos	-7192
▁skamb	-7193
▁apytik	-7194
▁atskirti	-7195
▁dujotiek	-7196
▁kiekvienoje	-7197
▁apmokestinimo	-7198
▁tarptautinius	-7199
NG	-7200
Pos	-7201
▁Dun	-7202
▁buvę	-7203
▁neįv	-7204
▁gaila	-7205
▁Meksik	-7206
▁kenkia	-7207
▁tabako	-7208
▁nenorime	-7209
▁moksliniams	-7210
▁Som	-7211
▁siūlau	-7212
▁gaminti	-7213
▁verslui	-7214
▁įvairios	-7215
▁NVO	-7216
atsak	-7217
▁mand	-7218
▁ženg	-7219
▁vengti	-7220
▁trūkumus	-7221
▁aspektais	-7222
▁nereikėtų	-7223
▁gerbiamieji	-7224
tiką	-7225
▁gili	-7226
▁lanks	-7227
▁stebė	-7228
▁atidar	-7229
▁tvarios	-7230
▁supranta	-7231
▁pasisakyti	-7232
▁socialinis	-7233
▁įgyvendinama	-7234
ka	-7235
▁GUE	-7236
▁Sus	-7237
▁bendri	-7238
▁indėlis	-7239
▁naujoji	-7240
▁nepasit	-7241
▁skurdži	-7242
▁svarbaus	-7243
▁patikinti	-7244
▁politiškai	-7245
▁fil	-7246
▁liga	-7247
▁raid	-7248
▁Schul	-7249
▁švies	-7250
▁remiame	-7251
▁Švedija	-7252
▁pagalvoti	-7253
▁veiksmingumo	-7254
vad	-7255
▁Sp	-7256
kaid	-7257
uotųjų	-7258
▁Šiais	-7259
▁užuojau	-7260
▁vienodą	-7261
▁geresnių	-7262
▁direktyvų	-7263
▁skatinamas	-7264
▁trumpalaik	-7265
▁ketvirtadienį	-7266
austi	-7267
galvo	-7268
▁2003	-7269
▁marš	-7270
▁nepr	-7271
tiniam	-7272
▁klest	-7273
▁tikru	-7274
▁žurnal	-7275
▁ankstesn	-7276
▁pradėtas	-7277
▁nustatytus	-7278
▁nusikalstamumu	-7279
▁Paž	-7280
▁stai	-7281
▁įgyti	-7282
▁Nemanau	-7283
▁pareigą	-7284
▁pareikš	-7285
▁statusą	-7286
▁pateiktos	-7287
▁dabartinių	-7288
▁vertybėmis	-7289
izmas	-7290
▁būna	-7291
eityje	-7292
▁kaitą	-7293
▁Airija	-7294
▁Amerik	-7295
▁linijų	-7296
iskusija	-7297
▁nusiteik	-7298
▁priežastys	-7299
▁problemoms	-7300
▁vadovautis	-7301
▁tarptautinį	-7302
otos	-7303
▁2002	-7304
▁Kipro	-7305
▁buvome	-7306
▁kultūrą	-7307
▁pajėgos	-7308
NTE	-7309
toji	-7310
vesti	-7311
▁Tikiu	-7312
▁idėją	-7313
▁tvirt	-7314
▁sukuria	-7315
▁mažinant	-7316
▁direktori	-7317
hol	-7318
pind	-7319
▁šird	-7320
▁lėktuv	-7321
▁atidėti	-7322
▁nariais	-7323
▁nenumat	-7324
▁didžiuli	-7325
▁pripažino	-7326
▁sukūrimas	-7327
▁sutinkame	-7328
igi	-7329
apie	-7330
▁Antro	-7331
▁galią	-7332
▁rimtą	-7333
▁didele	-7334
▁nedels	-7335
▁baigtas	-7336
▁Japonijos	-7337
▁konvenciją	-7338
▁prisitaikyti	-7339
ijau	-7340
iršta	-7341
uotus	-7342
▁fondus	-7343
▁išaišk	-7344
▁pobūdį	-7345
▁teigti	-7346
▁referendumo	-7347
▁įgaliojimai	-7348
ova	-7349
▁atg	-7350
alius	-7351
▁Gazos	-7352
▁darbus	-7353
▁tolesn	-7354
▁atliekant	-7355
▁skirtingas	-7356
30	-7357
af	-7358
NGL	-7359
sus	-7360
eneral	-7361
▁izoli	-7362
▁sumos	-7363
▁leista	-7364
▁būtinai	-7365
▁dideliu	-7366
▁regioną	-7367
▁įdiegti	-7368
▁politikų	-7369
▁partneriai	-7370
▁posėdį	-7371
▁verčia	-7372
▁pozicijas	-7373
▁apsisprend	-7374
▁transatlan	-7375
▁laikotarpiui	-7376
▁nacionalinio	-7377
DA	-7378
▁abu	-7379
aukaz	-7380
▁ding	-7381
▁gavo	-7382
▁užme	-7383
▁vyno	-7384
▁Tokiu	-7385
▁formų	-7386
▁planų	-7387
oficial	-7388
igraciją	-7389
▁derėtis	-7390
▁vandenyno	-7391
▁sukčiavimu	-7392
▁institucijose	-7393
limp	-7394
▁atneš	-7395
▁minti	-7396
▁rezerv	-7397
▁režimą	-7398
▁aukomis	-7399
▁svarstymo	-7400
▁ištekliais	-7401
▁pateikiami	-7402
▁skatinimas	-7403
▁kolegas	-7404
▁modelis	-7405
▁sritims	-7406
učių	-7407
▁praded	-7408
▁kultūrų	-7409
▁stabili	-7410
▁biudžete	-7411
▁istoriją	-7412
▁musulmon	-7413
▁vykstant	-7414
▁pastaruoju	-7415
ET	-7416
▁Tau	-7417
▁moka	-7418
▁piet	-7419
▁bando	-7420
▁absurd	-7421
▁asocia	-7422
▁kruopš	-7423
▁manyti	-7424
▁valdžią	-7425
ančiosios	-7426
▁deryboms	-7427
▁profesinio	-7428
▁bedarb	-7429
▁turbūt	-7430
▁keliais	-7431
▁nedarbas	-7432
▁poreikio	-7433
▁racional	-7434
eta	-7435
sel	-7436
uotu	-7437
▁norin	-7438
▁būtini	-7439
alizuoti	-7440
▁kūrimas	-7441
▁trūkumo	-7442
▁Rusijoje	-7443
▁produkto	-7444
▁ekonominiu	-7445
▁pripažįstama	-7446
ved	-7447
▁Cas	-7448
▁toje	-7449
mingas	-7450
▁Dunoj	-7451
▁netol	-7452
▁kodeks	-7453
▁didžiulis	-7454
ile	-7455
usiųjų	-7456
▁Kaukaz	-7457
▁šalimi	-7458
▁iškraip	-7459
▁sąjunga	-7460
▁didinant	-7461
▁didinimo	-7462
▁papildyti	-7463
▁konkrečios	-7464
▁ateinančius	-7465
▁taisyklėmis	-7466
▁įsipareigojo	-7467
etos	-7468
▁nul	-7469
ankos	-7470
ykite	-7471
ančioje	-7472
priemon	-7473
▁apimti	-7474
▁tautos	-7475
ekomunik	-7476
▁regionus	-7477
▁Strasbūre	-7478
BG	-7479
utr	-7480
laid	-7481
▁Pab	-7482
▁aštuon	-7483
▁civiliz	-7484
▁paraišk	-7485
▁atleisti	-7486
▁elementų	-7487
▁prieigos	-7488
▁Direktyvos	-7489
▁papildomas	-7490
▁ekonomiškai	-7491
ck	-7492
▁kan	-7493
▁Siūl	-7494
▁teks	-7495
▁būsimą	-7496
▁nusikaltė	-7497
▁techninių	-7498
▁nepiln	-7499
▁teikiamas	-7500
▁veiksmams	-7501
▁atitinkamas	-7502
▁pirmininkui	-7503
▁suinteresuotos	-7504
gen	-7505
kar	-7506
2010	-7507
rojo	-7508
ėrim	-7509
▁varž	-7510
Posėdis	-7511
iausias	-7512
▁išlaisv	-7513
▁namuose	-7514
▁nedidel	-7515
▁nepadar	-7516
▁veiksnių	-7517
▁elementas	-7518
▁nediskrimin	-7519
▁diskriminaciją	-7520
▁ri	-7521
klos	-7522
▁rytą	-7523
▁Pasaul	-7524
▁drauge	-7525
▁absoliu	-7526
▁sudarys	-7527
▁judėjimą	-7528
▁Doh	-7529
mingų	-7530
▁Lond	-7531
▁pirš	-7532
▁ryšį	-7533
▁rūpi	-7534
ytojai	-7535
▁blogi	-7536
▁trukd	-7537
▁paband	-7538
▁tinkam	-7539
▁esminių	-7540
▁Sveikinu	-7541
▁keliauti	-7542
▁teisingą	-7543
▁narkotikų	-7544
▁neteisėtai	-7545
▁darbotvarkėje	-7546
ūno	-7547
▁Pap	-7548
▁auga	-7549
▁įlank	-7550
▁paliek	-7551
▁pasibaig	-7552
▁sukurtas	-7553
▁susidari	-7554
▁operacijų	-7555
▁stengiasi	-7556
▁elektrinių	-7557
▁paskutinis	-7558
ėkime	-7559
▁išmin	-7560
▁formos	-7561
▁maršru	-7562
▁taikomų	-7563
▁pasitelk	-7564
.00	-7565
dik	-7566
▁2015	-7567
damasis	-7568
▁Moterų	-7569
▁būtinų	-7570
▁galimą	-7571
▁lyties	-7572
▁sugrįž	-7573
▁vykusi	-7574
▁misijos	-7575
▁pabaiga	-7576
▁patenka	-7577
▁skubiau	-7578
▁įrodymų	-7579
▁palestin	-7580
▁prisidės	-7581
▁pritarta	-7582
se	-7583
ygi	-7584
▁dav	-7585
▁kenk	-7586
▁pain	-7587
▁telef	-7588
▁automa	-7589
▁norėjo	-7590
▁Rezoliu	-7591
▁atverti	-7592
▁pranešimai	-7593
kilo	-7594
▁grupę	-7595
▁infli	-7596
▁interven	-7597
▁medicinos	-7598
▁praėjusią	-7599
▁90	-7600
umos	-7601
▁Liu	-7602
▁loš	-7603
▁Irane	-7604
▁nesuk	-7605
▁organ	-7606
▁pliur	-7607
▁Galime	-7608
▁apsunk	-7609
▁požiūriui	-7610
▁Brazilijos	-7611
▁Jungtinėmis	-7612
▁kompetencija	-7613
▁koordinavimą	-7614
nei	-7615
ąsi	-7616
▁gil	-7617
utinės	-7618
▁palaikome	-7619
▁statistikos	-7620
▁pagrindinėms	-7621
▁Sav	-7622
ėsite	-7623
▁Esti	-7624
inkime	-7625
▁lygių	-7626
▁Šiomis	-7627
▁parengta	-7628
▁veiksmingi	-7629
▁intelektinės	-7630
▁kompetenciją	-7631
▁rekomendacijų	-7632
▁įsipareigojimai	-7633
ektor	-7634
▁atsip	-7635
▁Apgail	-7636
▁kažkas	-7637
▁veiktų	-7638
▁apsirib	-7639
▁smurtas	-7640
▁vienodo	-7641
▁mažinimas	-7642
▁skirtingos	-7643
-1	-7644
kos	-7645
▁rūk	-7646
▁vežimo	-7647
▁tarnybų	-7648
▁mokymosi	-7649
▁Apskritai	-7650
▁pramonėje	-7651
▁svarstomas	-7652
▁įsipareigojimo	-7653
alias	-7654
▁šeimoms	-7655
▁neteisinga	-7656
▁pono	-7657
▁gamykl	-7658
▁projektui	-7659
▁reikalaujame	-7660
▁Van	-7661
rimis	-7662
torių	-7663
orizon	-7664
▁Solidar	-7665
▁tokiose	-7666
▁reklamos	-7667
▁siekdamas	-7668
▁skiriamos	-7669
▁pranešėjos	-7670
▁stiprinant	-7671
▁sąžiningai	-7672
▁Pagrindinis	-7673
▁Pl	-7674
▁kelios	-7675
▁laisvą	-7676
▁maksim	-7677
▁pavien	-7678
▁Sutartį	-7679
▁keturių	-7680
▁individu	-7681
▁praktiką	-7682
▁pareigūnų	-7683
▁sanglaudą	-7684
▁atsižvelgdama	-7685
pid	-7686
ileg	-7687
ganiz	-7688
▁Balkan	-7689
▁Kanados	-7690
▁autobus	-7691
▁autorių	-7692
▁reikšti	-7693
▁išvengta	-7694
▁jaunimas	-7695
▁pragyven	-7696
▁išdėstyti	-7697
▁pastarųjų	-7698
▁Jugoslavijos	-7699
▁Tad	-7700
▁ser	-7701
etais	-7702
odama	-7703
▁remiu	-7704
▁Antroj	-7705
▁aktuose	-7706
▁Pramonės	-7707
▁sąskaita	-7708
▁chartijos	-7709
▁girdėjome	-7710
▁strategijas	-7711
enu	-7712
▁ECB	-7713
▁FRO	-7714
ronte	-7715
▁FRONTE	-7716
▁asambl	-7717
▁laukti	-7718
▁prarad	-7719
▁vykdomi	-7720
▁demonstra	-7721
▁nesuderin	-7722
▁privataus	-7723
▁susijusio	-7724
▁įstatymas	-7725
▁makroekonom	-7726
▁rezoliucijų	-7727
lėp	-7728
▁1.	-7729
▁įves	-7730
tokhol	-7731
yrimas	-7732
▁konstat	-7733
▁pakrant	-7734
▁įpareig	-7735
anglaudos	-7736
▁sudarant	-7737
▁socialinei	-7738
eina	-7739
▁Irako	-7740
▁Kalbu	-7741
▁mastą	-7742
▁optim	-7743
▁stich	-7744
▁taiko	-7745
▁įdomu	-7746
▁Region	-7747
▁Antrasis	-7748
▁ataskaitas	-7749
pak	-7750
raukti	-7751
▁Kongo	-7752
▁prireik	-7753
▁vystyti	-7754
▁ketinama	-7755
▁rezultatą	-7756
▁Gu	-7757
▁Maž	-7758
▁atidė	-7759
▁užmoj	-7760
▁Prašau	-7761
▁turinči	-7762
▁naujoves	-7763
▁nepritariu	-7764
▁investicijoms	-7765
▁kvalifikacijos	-7766
▁schem	-7767
▁atitinkamą	-7768
▁ekonomines	-7769
▁nepriklausomai	-7770
bų	-7771
atu	-7772
ėtai	-7773
▁Rom	-7774
/2008	-7775
eidimo	-7776
ininkus	-7777
▁Sudano	-7778
▁švaist	-7779
▁pirmoji	-7780
▁skurdas	-7781
▁jaunimui	-7782
▁atstovais	-7783
▁delegacija	-7784
▁telekomunik	-7785
ityv	-7786
▁cuk	-7787
ėdžio	-7788
▁atmin	-7789
▁trišal	-7790
▁turinį	-7791
▁atsiras	-7792
▁Belgijos	-7793
▁pagrįstos	-7794
▁suderinimo	-7795
▁kompetencijai	-7796
▁2.	-7797
▁Mc	-7798
▁ved	-7799
angos	-7800
▁pagrei	-7801
▁bendrųjų	-7802
▁paslaugoms	-7803
▁reglamentų	-7804
tęs	-7805
yži	-7806
auna	-7807
▁vers	-7808
tariau	-7809
▁esamą	-7810
▁imsis	-7811
▁nepan	-7812
▁Reikal	-7813
▁tinklą	-7814
▁Atlanto	-7815
▁didžiulę	-7816
▁platform	-7817
▁Respublika	-7818
▁ratifikavimo	-7819
SL	-7820
ybes	-7821
žmon	-7822
▁objek	-7823
ančioji	-7824
▁sutrik	-7825
▁pareigų	-7826
▁skirtus	-7827
▁sutinka	-7828
▁priėmimą	-7829
▁garantijos	-7830
▁stiprinimo	-7831
ybei	-7832
▁sukr	-7833
▁trak	-7834
ultūros	-7835
▁kalbas	-7836
▁apibūdin	-7837
▁parlamentų	-7838
▁pripažįsta	-7839
▁patvirtinimą	-7840
rus	-7841
▁kitu	-7842
usioms	-7843
▁agres	-7844
▁skand	-7845
▁būsime	-7846
▁gydymo	-7847
▁Stokhol	-7848
▁istorija	-7849
▁privileg	-7850
▁Vokietija	-7851
▁pritarimą	-7852
▁Socialistų	-7853
▁neužtikrin	-7854
▁rinkimuose	-7855
▁standartiz	-7856
AS	-7857
▁Liber	-7858
▁prašo	-7859
▁Schulz	-7860
▁siekis	-7861
▁pradėta	-7862
▁Sutartis	-7863
▁Užimtumo	-7864
▁atsispind	-7865
▁medžiagos	-7866
▁ministrai	-7867
▁socialiniu	-7868
▁svarbiausi	-7869
▁pusiausvyra	-7870
uc	-7871
emokr	-7872
▁ekos	-7873
▁patar	-7874
▁likvid	-7875
▁Reikėtų	-7876
▁atvykti	-7877
▁tikrais	-7878
▁tvarumo	-7879
▁negalėjo	-7880
▁vidutinio	-7881
▁švietimas	-7882
▁apibendrin	-7883
▁suprantame	-7884
▁Portugalija	-7885
ian	-7886
nuo	-7887
▁300	-7888
▁Gerai	-7889
▁trumpą	-7890
▁Padėtis	-7891
▁pajamos	-7892
▁prašoma	-7893
▁palūkanų	-7894
▁susiklos	-7895
▁žiniomis	-7896
▁gi	-7897
▁sos	-7898
▁kultūra	-7899
▁Posėdžio	-7900
▁atsakymo	-7901
▁priimtos	-7902
▁valstybe	-7903
▁pažeidžiamos	-7904
verg	-7905
vers	-7906
▁pamatyti	-7907
▁priskiri	-7908
▁nuosekliai	-7909
tauti	-7910
▁cikl	-7911
▁Ankst	-7912
▁tyrimas	-7913
▁gamtinių	-7914
▁ministro	-7915
▁tvarkymo	-7916
▁susilaikiau	-7917
▁kėl	-7918
▁rašy	-7919
▁žuvo	-7920
▁	-7921
i	-7922
a	-7923
s	-7924
t	-7925
r	-7926
o	-7927
e	-7928
n	-7929
u	-7930
k	-7931
m	-7932
p	-7933
l	-7934
d	-7935
v	-7936
j	-7937
g	-7938
,	-7939
b	-7940
ų	-7941
y	-7942
ė	-7943
.	-7944
š	-7945
ą	-7946
ž	-7947
į	-7948
ū	-7949
c	-7950
č	-7951
E	-7952
T	-7953
P	-7954
z	-7955
S	-7956
f	-7957
K	-7958
ę	-7959
0	-7960
-	-7961
A	-7962
B	-7963
M	-7964
V	-7965
2	-7966
(	-7967
)	-7968
D	-7969
N	-7970
J	-7971
R	-7972
"	-7973
G	-7974
1	-7975
h	-7976
L	-7977
Š	-7978
I	-7979
:	-7980
C	-7981
?	-7982
9	-7983
O	-7984
5	-7985
F	-7986
3	-7987
U	-7988
8	-7989
;	-7990
7	-7991
4	-7992
Ž	-7993
6	-7994
H	-7995
/	-7996
