<pad>	0
</s>	0
<unk>	0
▁¦	-0
ال	-1
▁.	-2
ان	-3
وا	-4
لا	-5
ين	-6
من	-7
في	-8
ون	-9
ما	-10
ار	-11
عل	-12
رب	-13
لك	-14
هم	-15
ها	-16
را	-17
كل	-18
يا	-19
الم	-20
اب	-21
ذا	-22
ول	-23
نا	-24
الى	-25
لي	-26
اس	-27
الرب	-28
بي	-29
ام	-30
قد	-31
مع	-32
له	-33
وت	-34
بن	-35
وال	-36
كم	-37
على	-38
ير	-39
يل	-40
هو	-41
قال	-42
الذ	-43
وم	-44
لان	-45
يع	-46
ور	-47
وس	-48
يد	-49
كان	-50
رج	-51
يم	-52
وب	-53
عن	-54
يس	-55
ائ	-56
تي	-57
الس	-58
لم	-59
وع	-60
عد	-61
وي	-62
الي	-63
اخ	-64
ئيل	-65
ود	-66
اء	-67
الش	-68
الذي	-69
اي	-70
عب	-71
ارض	-72
يق	-73
وج	-74
حد	-75
ولا	-76
الا	-77
ته	-78
رائيل	-79
ذه	-80
ية	-81
تم	-82
اسرائيل	-83
فا	-84
وق	-85
كن	-86
لل	-87
مل	-88
بر	-89
بع	-90
الج	-91
بل	-92
دا	-93
الح	-94
كون	-95
وح	-96
به	-97
الله	-98
با	-99
فر	-100
فت	-101
الك	-102
يت	-103
بيت	-104
انا	-105
شر	-106
فس	-107
هذا	-108
قل	-109
علي	-110
اله	-111
ميع	-112
ضا	-113
وه	-114
يح	-115
لام	-116
اد	-117
صر	-118
اما	-119
فقال	-120
الارض	-121
مس	-122
مر	-123
التي	-124
اع	-125
ملك	-126
الع	-127
كلم	-128
كر	-129
اج	-130
سب	-131
ني	-132
طر	-133
بني	-134
حت	-135
جميع	-136
قائ	-137
اه	-138
ثم	-139
ايضا	-140
ذلك	-141
نة	-142
واحد	-143
سل	-144
بح	-145
وقال	-146
اني	-147
ات	-148
نع	-149
وان	-150
الملك	-151
خل	-152
يب	-153
رأ	-154
اق	-155
هوذا	-156
بال	-157
كث	-158
الذين	-159
وص	-160
تر	-161
عند	-162
وك	-163
وكان	-164
ايا	-165
هر	-166
اف	-167
مت	-168
يف	-169
اح	-170
ابن	-171
الخ	-172
لانه	-173
مة	-174
فل	-175
ليم	-176
جل	-177
دين	-178
امام	-179
طل	-180
ذهب	-181
الن	-182
جد	-183
شي	-184
وخ	-185
ماء	-186
انه	-187
فع	-188
ست	-189
داود	-190
آب	-191
كذا	-192
دي	-193
هي	-194
ضع	-195
خر	-196
لهم	-197
نفس	-198
الق	-199
هنا	-200
الب	-201
المس	-202
كما	-203
لكن	-204
موس	-205
انت	-206
هكذا	-207
اليوم	-208
سان	-209
ومن	-210
دم	-211
يه	-212
ليس	-213
الر	-214
وكل	-215
او	-216
يش	-217
رجل	-218
تع	-219
وش	-220
خذ	-221
الشعب	-222
تق	-223
رف	-224
هذه	-225
اذ	-226
رة	-227
يسوع	-228
بت	-229
اص	-230
نح	-231
تح	-232
بين	-233
الص	-234
بعد	-235
ظر	-236
قائلا	-237
الام	-238
اسم	-239
خرج	-240
حتى	-241
ورش	-242
كت	-243
عين	-244
لكم	-245
تل	-246
اش	-247
آن	-248
قط	-249
علم	-250
بنو	-251
يكون	-252
وفي	-253
دينة	-254
سمع	-255
قر	-256
الف	-257
ورشليم	-258
بيد	-259
تك	-260
شا	-261
حم	-262
يهوذا	-263
واما	-264
وف	-265
يقول	-266
انسان	-267
لت	-268
الث	-269
طي	-270
ماذا	-271
موسى	-272
هناك	-273
اورشليم	-274
عشر	-275
الت	-276
قدس	-277
ولكن	-278
صنع	-279
رق	-280
بك	-281
الغ	-282
مد	-283
حسب	-284
ولم	-285
يين	-286
باب	-287
يمة	-288
تن	-289
جعل	-290
لكي	-291
بها	-292
ورا	-293
مح	-294
لاث	-295
حين	-296
يرة	-297
سر	-298
عظ	-299
حي	-300
عة	-301
ضرب	-302
ئة	-303
عا	-304
أت	-305
عون	-306
يدي	-307
خط	-308
وات	-309
زل	-310
مي	-311
عليه	-312
ساء	-313
فعل	-314
مصر	-315
عمل	-316
جر	-317
فان	-318
شعب	-319
طريق	-320
ذبح	-321
جاء	-322
ثلاث	-323
راس	-324
ايام	-325
اث	-326
بة	-327
ولد	-328
جس	-329
ارج	-330
الشر	-331
يام	-332
النا	-333
وار	-334
اذا	-335
مث	-336
احد	-337
المدينة	-338
حق	-339
عم	-340
وجه	-341
فن	-342
تد	-343
واق	-344
بس	-345
غض	-346
يون	-347
تخ	-348
المسيح	-349
وسط	-350
وضع	-351
ينا	-352
بار	-353
الآن	-354
هد	-355
صعد	-356
لين	-357
وز	-358
صوت	-359
بعة	-360
تها	-361
رؤ	-362
هما	-363
اجل	-364
يوم	-365
عبد	-366
يك	-367
رع	-368
ضة	-369
ياء	-370
للرب	-371
شع	-372
رأة	-373
الاب	-374
وة	-375
فيه	-376
لاء	-377
سم	-378
قدم	-379
فلا	-380
ارسل	-381
كلام	-382
سن	-383
سنة	-384
مئة	-385
الد	-386
بق	-387
فق	-388
وجد	-389
آخر	-390
اعد	-391
حة	-392
هل	-393
مات	-394
وعلى	-395
ولما	-396
بز	-397
طين	-398
از	-399
السماء	-400
أل	-401
طلب	-402
عط	-403
لاني	-404
اهن	-405
ايها	-406
مو	-407
معه	-408
الار	-409
تكلم	-410
غن	-411
والم	-412
يأ	-413
تهم	-414
فظ	-415
دن	-416
صار	-417
البر	-418
الجن	-419
رجال	-420
حل	-421
قوب	-422
بحر	-423
يخ	-424
انب	-425
غير	-426
الامم	-427
ليل	-428
هنة	-429
الانسان	-430
قدام	-431
ارة	-432
تس	-433
يرا	-434
شاول	-435
تكون	-436
وها	-437
وهو	-438
ؤلاء	-439
انتم	-440
جت	-441
دخل	-442
رك	-443
دع	-444
اخذ	-445
بنا	-446
صل	-447
تأ	-448
جع	-449
قول	-450
ئيس	-451
جدا	-452
مثل	-453
واذا	-454
عش	-455
سا	-456
يعقوب	-457
قي	-458
اليه	-459
الكاهن	-460
وث	-461
فرح	-462
البيت	-463
واخ	-464
جاب	-465
كثر	-466
لها	-467
فيها	-468
اض	-469
شيء	-470
اعط	-471
قائلين	-472
هود	-473
كنت	-474
عز	-475
قت	-476
نفسه	-477
رس	-478
لذلك	-479
لاجل	-480
لاوي	-481
وقت	-482
وقد	-483
فلما	-484
روح	-485
الهك	-486
امر	-487
للم	-488
تحت	-489
وراء	-490
الابد	-491
طع	-492
رون	-493
وهم	-494
هؤلاء	-495
ذرا	-496
وما	-497
كانت	-498
وانا	-499
السيد	-500
جن	-501
مخ	-502
ابي	-503
آبائ	-504
رئيس	-505
اك	-506
كلمة	-507
الرجل	-508
الحق	-509
لانهم	-510
مال	-511
سك	-512
الز	-513
فلم	-514
لاك	-515
كثير	-516
دة	-517
تلك	-518
نب	-519
قب	-520
قيا	-521
وني	-522
البحر	-523
الل	-524
كانوا	-525
لنا	-526
نص	-527
عبيد	-528
جه	-529
قبل	-530
يده	-531
قلب	-532
سي	-533
خمس	-534
رجع	-535
بد	-536
نار	-537
فم	-538
ائر	-539
فلس	-540
نحو	-541
ليمان	-542
قة	-543
وط	-544
رائ	-545
ونه	-546
الكهنة	-547
صد	-548
منه	-549
ياه	-550
الناس	-551
جمع	-552
واس	-553
امرأة	-554
بابل	-555
سليمان	-556
السم	-557
لماذا	-558
اط	-559
يكن	-560
ذب	-561
عليك	-562
عبر	-563
فلسطين	-564
غر	-565
عليهم	-566
ورة	-567
عر	-568
وأ	-569
الجنود	-570
يز	-571
فاجاب	-572
ئذ	-573
تش	-574
انك	-575
وته	-576
راه	-577
يسمع	-578
لما	-579
الايام	-580
كثيرة	-581
حن	-582
واب	-583
يهو	-584
فرعون	-585
الاخ	-586
جبل	-587
بيحة	-588
نفسي	-589
بعض	-590
خبز	-591
ويكون	-592
يوس	-593
جي	-594
فد	-595
رؤساء	-596
مق	-597
الفلسطين	-598
يمان	-599
وجميع	-600
عنه	-601
فوق	-602
الهي	-603
حينئذ	-604
رت	-605
حيا	-606
مش	-607
فين	-608
نحن	-609
لامي	-610
واحدة	-611
حز	-612
هب	-613
است	-614
غل	-615
نم	-616
ذكر	-617
السموات	-618
حرق	-619
مكان	-620
اكل	-621
عام	-622
معي	-623
رى	-624
غي	-625
لئ	-626
اولا	-627
بلا	-628
طلق	-629
عيني	-630
السيف	-631
اليهود	-632
زع	-633
عشرة	-634
ده	-635
عاد	-636
لانك	-637
ماع	-638
مجد	-639
اسمه	-640
آله	-641
المن	-642
عليها	-643
زم	-644
راهيم	-645
فضة	-646
تت	-647
وبين	-648
ارا	-649
نس	-650
مرا	-651
وحد	-652
الاول	-653
شب	-654
عي	-655
كة	-656
هان	-657
تاب	-658
تين	-659
قلت	-660
اخرج	-661
انية	-662
ئا	-663
قدر	-664
ابنه	-665
هرون	-666
عه	-667
فك	-668
كام	-669
اة	-670
ظلم	-671
الكلام	-672
رح	-673
خارج	-674
الروح	-675
ذبيحة	-676
لة	-677
منا	-678
سد	-679
فأ	-680
واخذ	-681
¦	-682
▁	-683
ا	-684
ل	-685
ي	-686
و	-687
م	-688
ن	-689
ر	-690
ب	-691
ه	-692
ع	-693
ت	-694
ك	-695
ف	-696
س	-697
د	-698
.	-699
ق	-700
ح	-701
ج	-702
ة	-703
ذ	-704
ش	-705
خ	-706
ى	-707
ص	-708
ط	-709
ض	-710
ئ	-711
ث	-712
ّ	-713
ز	-714
أ	-715
ء	-716
غ	-717
آ	-718
ظ	-719
ؤ	-720
إ	-721
*	-722
ـ	-723
-	-724
ً	-725
i	-726
(	-727
)	-728
:	-729
𐋇	-730
1	-731
2	-732
[	-733
]	-734
h	-735
o	-736
t	-737
5	-738
6	-739
j	-740
m	-741
n	-742
y	-743
ٍ	-744
𐊣	-745
𐊼	-746
