<pad>	0
</s>	0
<unk>	0
,	-2.5817
▁ja	-3.35336
.	-3.53187
n	-4.06553
a	-4.38302
▁on	-4.46582
:	-4.56308
▁Ja	-4.68709
▁hän	-4.74292
t	-4.75388
;	-4.83167
▁"	-5.02842
▁minä	-5.05875
▁niin	-5.10379
▁oli	-5.14804
▁hänen	-5.15834
▁	-5.16894
si	-5.24367
▁he	-5.26952
▁Herra	-5.28558
i	-5.31749
▁joka	-5.39932
▁ei	-5.41172
in	-5.41421
en	-5.52556
▁että	-5.52615
▁sen	-5.52675
▁minun	-5.55379
▁se	-5.56438
▁sinun	-5.56633
vat	-5.57727
▁sanoi	-5.64935
ä	-5.6643
▁Mutta	-5.71654
nsa	-5.72393
▁jotka	-5.81285
sta	-5.81393
▁sinä	-5.8497
▁sillä	-5.88588
an	-5.89018
▁kaikki	-5.89557
▁kun	-5.89694
lle	-5.90331
ni	-5.90394
▁heidän	-5.92089
".	-5.93494
▁Herran	-5.98563
kä	-5.99365
▁ovat	-6.01569
kuin	-6.01645
e	-6.03067
▁ole	-6.03332
u	-6.04169
▁Niin	-6.05165
ksi	-6.05654
▁te	-6.06966
mme	-6.07473
ta	-6.08539
s	-6.10677
▁mutta	-6.12176
▁ne	-6.13677
."	-6.21085
?	-6.25337
▁olen	-6.25659
▁hänelle	-6.26737
ko	-6.26844
▁kuin	-6.27798
kin	-6.28942
lla	-6.31612
▁Sillä	-6.32235
o	-6.35376
▁olivat	-6.36158
▁tuli	-6.37988
▁teidän	-6.39537
nne	-6.4039
▁vastaan	-6.40932
▁hänet	-6.41094
ssa	-6.42619
ja	-6.44509
r	-6.45823
▁mitä	-6.46486
▁Jumala	-6.47642
▁häntä	-6.48449
vät	-6.48869
▁Israelin	-6.51151
tte	-6.52831
▁jonk	-6.5394
▁sitä	-6.54601
▁heille	-6.54732
-	-6.55704
nsä	-6.55947
sa	-6.57841
▁Hän	-6.58633
▁Jumalan	-6.58701
et	-6.59254
l	-6.61093
▁`	-6.62966
ille	-6.64293
▁me	-6.64507
▁poika	-6.64553
▁sanoo	-6.64905
▁kuningas	-6.68148
h	-6.70922
▁pois	-6.71022
▁tämä	-6.72029
tu	-6.72232
▁olet	-6.72384
y	-6.74077
▁maan	-6.74316
neet	-6.74417
▁jos	-6.74637
▁minulle	-6.75022
▁heidät	-6.76108
tä	-6.76492
▁meidän	-6.76614
▁minua	-6.76905
ka	-6.77392
na	-6.78725
maan	-6.80497
▁päivänä	-6.80671
nut	-6.81792
▁vaan	-6.82065
va	-6.86274
kaa	-6.86937
ista	-6.87292
▁jo	-6.87972
▁-	-6.90844
▁kuninkaan	-6.91012
▁koko	-6.91479
▁Minä	-6.92148
▁teille	-6.93243
▁Kun	-6.93292
!	-6.93625
▁sinua	-6.94112
stä	-6.95883
?"	-6.95917
▁heitä	-6.9651
än	-6.96541
v	-6.96965
▁tai	-6.97109
▁eivät	-6.99098
▁sinulle	-6.99608
▁Silloin	-7.00493
▁en	-7.00795
▁katso	-7.02337
▁minut	-7.04233
kö	-7.07652
p	-7.08057
isi	-7.10155
▁tämän	-7.10185
▁siitä	-7.10338
pa	-7.1151
▁tulee	-7.11663
▁näin	-7.12322
el	-7.14204
▁mukaan	-7.14359
is	-7.15194
▁myös	-7.15733
▁nyt	-7.1574
▁edessä	-7.16964
▁vastasi	-7.17164
▁kansa	-7.1808
k	-7.18163
on	-7.19576
▁asti	-7.1967
ten	-7.21006
lta	-7.21411
▁vielä	-7.2201
▁mikä	-7.23197
▁meni	-7.24039
▁kaiken	-7.24177
▁maahan	-7.24944
▁tähden	-7.2573
▁voi	-7.26881
▁Juudan	-7.2737
▁kanssa	-7.28041
ty	-7.28273
▁sekä	-7.29858
llä	-7.30299
▁He	-7.30546
▁sanoen	-7.30607
te	-7.31907
▁siihen	-7.32455
us	-7.33765
▁sinut	-7.34427
▁saa	-7.34523
ke	-7.3541
▁tehnyt	-7.36005
ne	-7.3609
illa	-7.36172
▁niiden	-7.36187
re	-7.36456
aan	-7.37331
▁otti	-7.38344
▁sanoivat	-7.38523
to	-7.38865
▁mies	-7.39803
▁kautta	-7.39921
▁olkoon	-7.40643
sti	-7.41019
▁ollut	-7.41197
▁sitten	-7.41585
▁luo	-7.41599
▁Daavid	-7.41703
▁siellä	-7.42735
ti	-7.42798
ia	-7.42932
▁Jeesus	-7.43079
▁olette	-7.44287
at	-7.44546
▁enää	-7.45104
b	-7.4521
▁teitä	-7.45827
koon	-7.46209
ssä	-7.46572
la	-7.46772
ki	-7.47041
li	-7.4715
▁maa	-7.47305
▁teki	-7.4762
▁kaksi	-7.48337
▁antoi	-7.4873
m	-7.48844
▁Sitten	-7.49329
▁Jos	-7.49971
▁koska	-7.50472
▁niitä	-7.50775
▁oleva	-7.50909
▁nämä	-7.51418
ku	-7.52305
tta	-7.53132
nyt	-7.53192
ita	-7.54199
▁siis	-7.54648
▁Herraa	-7.56164
▁ettei	-7.56212
▁et	-7.56665
▁mitään	-7.57121
iden	-7.57551
▁Herralle	-7.57844
▁Katso	-7.58411
▁antaa	-7.58517
▁maassa	-7.58683
▁siinä	-7.59071
▁pojan	-7.59295
▁itse	-7.59345
▁tullut	-7.59752
▁Daavidin	-7.61455
▁kansan	-7.62432
mi	-7.6252
▁olisi	-7.64053
▁antanut	-7.64451
inen	-7.64718
it	-7.65416
vi	-7.65653
ri	-7.66111
▁annan	-7.66593
iin	-7.6676
▁pappi	-7.67309
▁ette	-7.67853
▁Mooses	-7.67869
▁älä	-7.6811
▁Sentähden	-7.68383
▁tuo	-7.69473
▁vie	-7.69691
▁puhui	-7.69763
Minä	-7.69812
g	-7.69856
▁tulivat	-7.70278
▁käy	-7.70554
▁Se	-7.706
kseen	-7.70983
▁Sinä	-7.71371
▁kolme	-7.71903
▁sana	-7.72574
▁aina	-7.72724
▁ennen	-7.72917
tti	-7.73473
ma	-7.73552
`.	-7.73623
▁Näi	-7.73966
▁jota	-7.7412
ihin	-7.74279
▁olemme	-7.75022
▁eteen	-7.75105
se	-7.75539
▁suuri	-7.75567
ansa	-7.75602
ö	-7.76069
issa	-7.76377
kää	-7.77402
▁seitsemän	-7.77666
▁silloin	-7.77784
▁lähti	-7.78041
vä	-7.78881
▁syö	-7.80087
▁kuinka	-7.81137
j	-7.81422
de	-7.81979
iksi	-7.82047
▁Egyptin	-7.82673
▁miehet	-7.83784
▁sinne	-7.83799
▁paljon	-7.84264
▁Ei	-7.85468
nä	-7.85738
▁päälle	-7.85961
▁kaikkien	-7.86561
▁vaimo	-7.87943
▁tykö	-7.88022
jen	-7.88315
▁A	-7.88438
ivat	-7.89486
▁sano	-7.8963
▁pojat	-7.89712
d	-7.89869
▁miestä	-7.90616
▁älkää	-7.90642
▁a	-7.91162
▁päällä	-7.91326
▁ha	-7.91689
▁meille	-7.91738
▁maasta	-7.92426
▁takaisin	-7.92532
▁toinen	-7.92554
nen	-7.92713
jä	-7.93278
▁näki	-7.93318
▁kukaan	-7.93425
▁pi	-7.94324
▁lähetti	-7.94634
▁Israel	-7.94652
aa	-7.95111
▁lu	-7.95314
▁tekee	-7.95437
▁tulevat	-7.95905
▁yli	-7.96971
▁nousi	-7.9812
▁usko	-7.9851
▁teidät	-7.98764
im	-7.98878
as	-7.98928
ttu	-7.99073
▁ulos	-7.99443
un	-7.99582
er	-7.99667
▁alas	-7.99958
▁eivätkä	-8.00133
pu	-8.003
uu	-8.004
istä	-8.00964
▁Jumalaa	-8.01096
▁Jeesuksen	-8.01508
▁tee	-8.01608
▁ko	-8.02221
!"	-8.02233
ot	-8.02403
▁teen	-8.02582
▁päivä	-8.03662
kaan	-8.03827
▁kanssaan	-8.03905
f	-8.04127
▁K	-8.04162
mään	-8.04176
▁meitä	-8.04415
ttä	-8.04709
▁la	-8.04815
Katso	-8.04837
▁isänsä	-8.05148
▁jälkeen	-8.05223
▁minkä	-8.0567
▁p	-8.05887
▁Jumalasi	-8.06166
▁ka	-8.06185
▁juo	-8.06279
ha	-8.06627
▁sanon	-8.07001
▁puhunut	-8.07331
▁joku	-8.07413
▁yksi	-8.08266
pi	-8.09187
▁joita	-8.09723
han	-8.09901
▁pa	-8.10193
esi	-8.10327
▁toisen	-8.10684
Herra	-8.10798
me	-8.10819
▁tule	-8.1114
▁temppelin	-8.11202
▁ku	-8.12311
jo	-8.12351
▁älköön	-8.12529
▁ma	-8.12567
▁Tämä	-8.12608
▁nimi	-8.13042
▁vaikka	-8.13329
▁sentähden	-8.13338
▁vei	-8.14057
▁va	-8.14437
▁kaupungin	-8.14489
ar	-8.14928
toista	-8.15064
▁ta	-8.15158
▁miehen	-8.15732
▁maata	-8.15892
▁Moosekselle	-8.16096
▁israelilaiset	-8.16102
il	-8.16217
▁pahaa	-8.16436
▁päin	-8.16609
▁tehdä	-8.16793
mä	-8.17519
▁Sebaot	-8.17663
▁vuotta	-8.17727
kseni	-8.17837
▁hyvä	-8.17969
▁taivaan	-8.18532
▁L	-8.18594
▁vain	-8.18792
▁Älä	-8.18814
van	-8.19245
▁Me	-8.19479
▁ilo	-8.19998
▁lain	-8.20458
▁P	-8.20554
▁Kristuksen	-8.20614
▁ota	-8.20696
ut	-8.2078
▁tuhatta	-8.2086
nes	-8.20989
▁jossa	-8.20999
sä	-8.21098
▁tähän	-8.2146
▁kuka	-8.21718
▁kuninkaaksi	-8.21888
▁ra	-8.22178
da	-8.22579
▁kaikkia	-8.22595
▁sille	-8.22628
ksensa	-8.23003
▁tänä	-8.23071
▁tätä	-8.23176
▁suku	-8.2364
▁vanha	-8.23771
▁poikansa	-8.23921
▁syntyi	-8.24052
kka	-8.24127
le	-8.24239
▁menivät	-8.2446
iä	-8.2487
▁oma	-8.24884
▁niistä	-8.24918
▁iankaikkisesti	-8.25377
▁kansalle	-8.25442
▁Te	-8.25584
▁kiinni	-8.25814
▁lähtivät	-8.26045
▁Saul	-8.26056
▁anna	-8.26133
▁kuninkaalle	-8.26246
▁nä	-8.26517
▁jolla	-8.26522
▁palvelija	-8.26624
▁Jerusalemin	-8.27265
or	-8.27983
▁tehneet	-8.28042
al	-8.28309
▁kuuli	-8.28321
▁käski	-8.28496
▁pyhä	-8.28576
▁kansaa	-8.28654
▁mene	-8.28732
▁päivää	-8.29049
ensa	-8.29906
▁viisi	-8.29936
▁puhu	-8.29955
▁tietä	-8.30237
▁ve	-8.30324
▁saakka	-8.30404
▁muuta	-8.3053
▁kätensä	-8.308
▁sanan	-8.31274
▁varten	-8.31336
▁Sen	-8.31444
▁osa	-8.31774
taan	-8.32044
koot	-8.32415
▁sanonut	-8.32415
ilta	-8.32513
▁pää	-8.32624
▁profeetta	-8.33939
▁S	-8.3445
▁enkeli	-8.34636
▁jää	-8.34655
▁Nämä	-8.34669
elle	-8.35027
▁käsi	-8.35608
▁päästä	-8.35625
sen	-8.35797
▁neljä	-8.35917
taa	-8.36452
lu	-8.36527
Mitä	-8.36537
▁pitää	-8.36558
▁hänellä	-8.36664
kään	-8.36691
▁verta	-8.36917
▁meidät	-8.37052
▁kaikille	-8.37072
▁keskellä	-8.37233
▁syntiä	-8.37457
▁kuule	-8.37735
essa	-8.3794
▁jokainen	-8.38028
▁ki	-8.38399
▁H	-8.38832
▁hä	-8.38845
▁ke	-8.39067
▁heistä	-8.39313
▁kymmenen	-8.39409
ella	-8.39501
▁kaikesta	-8.3969
▁emme	-8.39995
ynnä	-8.40117
ul	-8.40545
▁samoin	-8.40605
▁Jerusalemiin	-8.41119
▁hyvää	-8.41177
▁vai	-8.41224
▁pane	-8.41245
▁jälkeläisiä	-8.41621
eli	-8.42042
pä	-8.42064
▁pu	-8.42288
▁kukin	-8.42398
▁sielu	-8.42693
▁taas	-8.42718
itten	-8.42735
do	-8.42832
▁vuoden	-8.42961
▁pelkää	-8.43034
neen	-8.43138
isen	-8.43147
▁kunnia	-8.4329
▁missä	-8.43623
oja	-8.44925
hd	-8.45588
▁var	-8.45699
ina	-8.45834
▁ylös	-8.4586
▁israelilaisten	-8.45866
massa	-8.45921
▁häneen	-8.45928
illä	-8.46018
hän	-8.46152
▁sanat	-8.46582
▁tunne	-8.46584
▁isä	-8.46649
ttava	-8.46672
▁muu	-8.46846
▁hänestä	-8.47031
▁Salomo	-8.47155
mu	-8.47291
▁nähdä	-8.47505
K	-8.47605
▁häneltä	-8.47691
▁le	-8.4804
he	-8.48303
▁sieltä	-8.48617
▁käskenyt	-8.48628
▁Jerusalemissa	-8.48628
▁Älkää	-8.48826
▁elää	-8.48882
▁vi	-8.48945
▁kutsui	-8.48963
teen	-8.49009
uksen	-8.49139
▁pani	-8.49176
▁kor	-8.49207
▁käsiin	-8.49222
▁Baabelin	-8.4927
ettu	-8.4961
▁Jaakobin	-8.49625
▁Jaakob	-8.4971
▁tulla	-8.50007
▁hi	-8.50406
▁hyvin	-8.50654
▁olleet	-8.50867
▁kauan	-8.50868
▁ottaa	-8.50879
köön	-8.51725
▁sata	-8.51765
▁kyynärää	-8.52034
kun	-8.5216
itä	-8.52215
▁leipää	-8.5223
▁suuren	-8.52244
tettu	-8.52256
ksesi	-8.52359
sten	-8.52362
▁tässä	-8.52593
▁olla	-8.52732
`,	-8.52848
▁ainoastaan	-8.53183
▁tu	-8.5359
▁kaksikymmentä	-8.53774
▁E	-8.53954
▁Joka	-8.54152
▁teistä	-8.5416
ro	-8.54193
▁tekivät	-8.54201
tele	-8.54298
masta	-8.54321
llis	-8.54521
uh	-8.54964
▁puolella	-8.55103
▁Jumalalle	-8.55394
▁aja	-8.55617
",	-8.55678
▁viha	-8.55695
ltä	-8.55887
ur	-8.56014
▁tuleva	-8.56059
▁kaikista	-8.5615
▁Kaikki	-8.56174
▁kohtaan	-8.56337
kse	-8.56538
▁aikaan	-8.56574
▁kansani	-8.56704
▁tulleet	-8.56771
▁vettä	-8.56776
▁veljensä	-8.56809
▁tytär	-8.57001
usta	-8.57062
▁käskyn	-8.57225
matta	-8.57452
iset	-8.57609
▁puolesta	-8.57686
▁tulen	-8.57834
tava	-8.5805
▁teillä	-8.58223
isin	-8.58385
▁s	-8.58895
▁sai	-8.58992
▁tietää	-8.59069
▁kanssansa	-8.5917
▁Pietari	-8.5918
▁ihminen	-8.5918
▁kohti	-8.592
▁kaupunkiin	-8.59225
▁josta	-8.59274
ään	-8.5929
▁päivän	-8.59704
▁niille	-8.59813
▁uhri	-8.60012
tiin	-8.6003
▁ase	-8.60236
▁heimo	-8.60511
ttaa	-8.6078
▁yhden	-8.61055
▁syödä	-8.61076
▁meren	-8.61106
▁Mitä	-8.61408
▁asetti	-8.61508
▁etsi	-8.6158
▁sa	-8.61652
▁anteeksi	-8.61688
▁minusta	-8.61688
▁tänne	-8.61694
▁Jumalamme	-8.61746
▁puu	-8.61792
▁aika	-8.61817
▁henki	-8.61893
▁Joosua	-8.62229
Jos	-8.62452
yy	-8.62898
asi	-8.63117
▁paha	-8.63333
▁saanut	-8.63383
▁kivi	-8.63404
ksen	-8.63526
▁oikea	-8.63541
▁silmissä	-8.64157
▁synti	-8.64605
▁toi	-8.6477
mm	-8.65014
▁kansat	-8.65187
▁luota	-8.65228
▁mu	-8.65333
▁liha	-8.65426
▁yhdessä	-8.65573
▁pysyy	-8.65675
▁kanssasi	-8.65694
▁saavat	-8.65793
▁si	-8.6607
▁kansojen	-8.66234
asta	-8.66413
▁alla	-8.66506
▁astu	-8.66527
man	-8.66642
issä	-8.66806
am	-8.6685
▁Sinun	-8.66891
▁kaikkea	-8.66903
▁ky	-8.66913
▁julista	-8.6694
▁ihmisten	-8.6761
ttää	-8.67661
▁kuningasta	-8.6799
▁kulta	-8.6815
kan	-8.6816
▁täynnä	-8.68249
▁Aaron	-8.68339
tse	-8.68415
▁kuitenkin	-8.68488
mpi	-8.68571
▁kaupunkia	-8.68677
▁kuoli	-8.68735
▁e	-8.68793
jan	-8.68879
▁kaksitoista	-8.69025
▁edestä	-8.69048
tui	-8.69275
▁papit	-8.69613
sivat	-8.6969
▁huusi	-8.69923
▁alttarin	-8.70019
▁joukko	-8.70128
▁vir	-8.70399
staan	-8.70553
▁O	-8.71015
▁lähettänyt	-8.7102
tin	-8.71072
▁vasta	-8.71087
▁tulisi	-8.71151
▁Jordanin	-8.71161
▁aikaa	-8.71215
▁Poika	-8.71408
Me	-8.7168
▁mennä	-8.71707
seen	-8.71712
▁pala	-8.71744
▁palvelijasi	-8.71828
▁kysyi	-8.72063
▁tie	-8.72185
▁kal	-8.72203
▁tiedä	-8.72263
▁nimen	-8.72267
ää	-8.72316
▁toivo	-8.72498
▁Ha	-8.72502
essaan	-8.7253
essä	-8.72699
▁astui	-8.72817
▁itsensä	-8.72844
lleen	-8.72996
Ei	-8.73008
▁Ne	-8.73083
▁jälleen	-8.7311
▁kuullut	-8.73114
▁päivinä	-8.73122
▁laki	-8.73135
▁jona	-8.7326
Sinä	-8.7326
▁miehiä	-8.7327
set	-8.73445
▁enemmän	-8.73824
▁jälkeläiset	-8.73824
▁ketään	-8.73837
▁erämaassa	-8.73856
▁luoksensa	-8.73969
▁elä	-8.74104
jat	-8.74128
▁nähnyt	-8.74543
▁asukkaat	-8.74554
▁vaimon	-8.74587
▁turva	-8.74744
ellä	-8.74819
voi	-8.74984
▁Aaronin	-8.75029
▁ylen	-8.7521
▁Saulin	-8.75285
ud	-8.75323
▁tuomio	-8.75792
▁määrä	-8.75841
▁V	-8.75932
▁liikkeelle	-8.75998
Näi	-8.76161
▁Minun	-8.76288
▁Voi	-8.76295
▁pelastu	-8.76439
▁kutsu	-8.76571
▁liiton	-8.76739
▁tykönsä	-8.7708
▁asu	-8.77089
▁temppeliin	-8.77097
▁yhtä	-8.77316
ksenne	-8.77322
▁saisi	-8.77414
▁noi	-8.77554
▁Mooseksen	-8.77585
▁l	-8.77623
▁Ke	-8.77953
▁Paavali	-8.77984
etaan	-8.78277
▁häpeä	-8.78351
▁pelasta	-8.78516
▁pysy	-8.78548
min	-8.78646
▁muista	-8.78678
▁muut	-8.78918
▁kuulleet	-8.78972
mista	-8.79383
▁Si	-8.79556
uksi	-8.79622
▁korva	-8.79863
▁kaupunki	-8.80407
P	-8.80652
▁Joosef	-8.80671
▁kuulla	-8.80703
ol	-8.80808
▁Daavidille	-8.81023
▁al	-8.81091
▁Jumalanne	-8.81307
itte	-8.81963
▁niihin	-8.82042
▁suu	-8.82095
estä	-8.8224
▁myöskin	-8.82248
ksemme	-8.82732
ivät	-8.82763
▁minulla	-8.82819
▁joukossa	-8.82819
▁leeviläiset	-8.82858
▁laske	-8.82943
po	-8.82983
rr	-8.83448
malla	-8.83548
▁sinulla	-8.83606
▁sydämensä	-8.8362
den	-8.83649
▁aikana	-8.83825
tettiin	-8.83864
▁Kuka	-8.84103
▁kirjoitettu	-8.84281
▁Miksi	-8.84339
▁herra	-8.84589
uutta	-8.84598
▁istui	-8.84701
▁T	-8.84773
▁talo	-8.84829
▁faraon	-8.84867
▁istu	-8.84893
▁johon	-8.85009
ile	-8.85219
▁kulki	-8.85248
▁saat	-8.85336
▁vesi	-8.85339
▁oman	-8.85451
▁raja	-8.85647
▁Kristus	-8.85762
▁voima	-8.86132
▁kallio	-8.86265
▁sieluni	-8.86443
▁kanta	-8.86449
esta	-8.86563
▁heillä	-8.86785
▁minulta	-8.86819
▁lyö	-8.8684
▁olevan	-8.8694
änsä	-8.87304
▁korkea	-8.87316
▁Juuda	-8.87319
▁alttari	-8.87333
▁molemmat	-8.87639
▁monta	-8.8764
▁väkevä	-8.8764
▁viisikymmentä	-8.8765
▁herrani	-8.87931
▁kärsi	-8.88086
▁Beet	-8.882
utta	-8.88723
Älä	-8.88726
Mene	-8.88924
▁etteivät	-8.89094
▁elämän	-8.89138
▁tästä	-8.89303
ik	-8.89391
ineen	-8.89412
A	-8.89565
▁valta	-8.896
▁Samuel	-8.89674
▁Eikö	-8.8973
▁sota	-8.90038
▁neljäkymmentä	-8.9015
os	-8.90242
takaa	-8.90251
▁sanovat	-8.90336
▁kysy	-8.90346
▁Jumalani	-8.90681
▁hopea	-8.90682
▁takaa	-8.90952
▁sy	-8.91158
▁ihmiset	-8.9122
▁silmä	-8.91261
▁En	-8.91537
▁taivaasta	-8.91841
▁pakanain	-8.91843
▁kultaa	-8.91951
▁filistealaist	-8.92016
S	-8.92043
▁pidä	-8.92069
▁näkivät	-8.92252
▁kanssani	-8.92448
▁puoleen	-8.92572
▁Israelia	-8.9288
▁puolelle	-8.92959
▁vä	-8.92964
▁kasva	-8.93004
oo	-8.93032
▁Mi	-8.9304
▁neuvo	-8.93225
rin	-8.93369
ys	-8.93553
▁lapsia	-8.93696
em	-8.93814
▁ihmisen	-8.93934
▁Kuinka	-8.93939
▁jalka	-8.94111
▁miekka	-8.94222
llinen	-8.94298
▁sinusta	-8.94451
?`	-8.94567
▁Isä	-8.94716
▁rii	-8.94855
▁k	-8.94979
▁poikia	-8.95073
▁seiso	-8.95182
llaan	-8.95225
▁halu	-8.95237
▁pojalle	-8.95336
▁tietämään	-8.95397
▁väli	-8.95465
▁Assurin	-8.95492
▁elämä	-8.95696
▁vastasivat	-8.95849
toa	-8.95957
▁hal	-8.96147
een	-8.96437
Se	-8.96504
▁maja	-8.96532
▁lapset	-8.96588
▁toista	-8.96796
▁veljet	-8.96865
▁lähtee	-8.96953
▁valtakunta	-8.97054
▁olkoot	-8.97164
▁puhe	-8.97221
▁totta	-8.97237
▁N	-8.97552
▁Jo	-8.97842
▁loppu	-8.98
▁vaiva	-8.98052
▁paikkaan	-8.98365
▁esiin	-8.98386
▁asia	-8.98507
▁perintöosa	-8.98507
Miksi	-8.98515
▁käsistä	-8.98866
ll	-8.98971
▁Be	-8.99074
▁kuo	-8.99118
▁kävi	-8.99316
Tämä	-8.99324
.`	-8.99477
▁hallitsi	-8.99554
▁hu	-8.99624
▁Je	-8.99634
▁kuningasten	-8.99752
▁sydän	-8.99768
▁so	-8.99866
▁tahi	-8.99909
▁On	-8.99912
▁kaikessa	-9.0001
▁kuusi	-9.00189
▁vihaa	-9.00189
▁kuole	-9.0037
imme	-9.00413
▁kaste	-9.00721
▁näet	-9.00748
▁israelilaisille	-9.00816
▁tapahtui	-9.00816
▁kolmekymmentä	-9.00838
▁Aabraham	-9.01209
ettiin	-9.01481
▁rakasta	-9.01651
mättä	-9.01692
▁ottanut	-9.0177
▁jumalia	-9.0179
▁muita	-9.0184
stansa	-9.01865
tunut	-9.01931
▁kii	-9.01973
▁piti	-9.02079
▁veivät	-9.02162
▁menee	-9.02301
▁I	-9.02371
isiin	-9.02379
▁isäni	-9.02471
▁ruhtinas	-9.02631
▁lähde	-9.02706
▁löi	-9.02715
▁meillä	-9.02944
▁Herralta	-9.02976
▁tulette	-9.03127
lloin	-9.03289
▁ruumii	-9.03375
▁jotakin	-9.03397
ee	-9.03446
▁salli	-9.03563
▁eli	-9.03624
▁miekan	-9.03673
▁päivään	-9.03705
▁juhla	-9.03748
▁äitinsä	-9.03767
▁sisälle	-9.03788
▁armo	-9.03903
▁hopeata	-9.03949
uus	-9.04011
▁o	-9.04066
▁rauha	-9.04097
▁Va	-9.04125
▁puhuu	-9.04171
▁jäi	-9.04235
▁surmasi	-9.04348
sin	-9.04398
my	-9.04456
▁keskuudessa	-9.04476
mise	-9.04571
▁ymmärtä	-9.04642
▁tälle	-9.0466
▁Elia	-9.04675
▁kyllä	-9.04755
▁Israelissa	-9.04775
▁vanno	-9.04866
▁pitkä	-9.0487
eksi	-9.05183
▁valo	-9.05361
▁pakkosiirtolais	-9.05624
▁isiensä	-9.05631
elin	-9.05673
▁nimensä	-9.05755
▁temppelissä	-9.05814
▁poikani	-9.05822
▁Mooabin	-9.05848
hu	-9.06014
eni	-9.06297
nnut	-9.06423
▁tien	-9.06451
ensä	-9.06621
▁nimeltä	-9.0663
▁nouse	-9.06681
▁Kosk	-9.06759
tut	-9.06831
▁nousee	-9.0686
▁temppeli	-9.06878
▁pal	-9.06895
▁arvo	-9.06901
▁palasi	-9.07045
▁ru	-9.07148
▁nosti	-9.07238
ske	-9.07415
▁nosta	-9.07498
▁kuollut	-9.07615
▁eräs	-9.07615
▁Egyptistä	-9.07638
▁tekoja	-9.07691
▁pyhi	-9.07701
▁Gileadin	-9.07778
`."	-9.07823
llensa	-9.08023
▁kar	-9.0805
▁tekevät	-9.08105
▁alle	-9.08118
En	-9.08235
uuteen	-9.08381
▁luona	-9.08478
▁nähneet	-9.08625
▁tehtävä	-9.08625
▁ettekä	-9.08637
▁tutki	-9.08643
▁synnytti	-9.08653
▁As	-9.08687
▁Hiskia	-9.08928
▁vastaa	-9.09167
▁toivat	-9.09219
asti	-9.09396
kkaa	-9.09436
▁uhraa	-9.09532
▁saatte	-9.0956
tetty	-9.09658
▁työ	-9.09831
▁kuva	-9.09841
▁sama	-9.09885
▁peri	-9.09911
lin	-9.09921
▁päämiehet	-9.10004
ani	-9.10146
pää	-9.10312
▁kan	-9.10369
▁lihaa	-9.1048
▁maailman	-9.10604
hti	-9.10621
▁isäsi	-9.10648
▁Myös	-9.10676
▁laidunmaineen	-9.10676
▁yhä	-9.10676
▁kumarta	-9.10676
▁juuri	-9.10679
▁kaupungit	-9.10727
▁väki	-9.10844
kööt	-9.11088
▁asuivat	-9.11094
▁muuri	-9.11237
▁kimppuun	-9.11573
▁kuukaude	-9.11718
▁ääntä	-9.1172
▁totisesti	-9.11727
mies	-9.11831
kuu	-9.11863
▁pan	-9.12012
udu	-9.12078
▁malja	-9.12115
▁seisoi	-9.1215
ät	-9.1218
▁kauhistu	-9.12401
▁kuulivat	-9.12625
▁köyhä	-9.12764
▁hylkää	-9.1277
▁ikinä	-9.1277
▁kerran	-9.1277
▁kuninkaat	-9.12805
uta	-9.12859
▁sanoa	-9.12898
itse	-9.12993
▁viiniä	-9.13059
▁mistä	-9.1306
▁Efraimin	-9.13112
uden	-9.13233
aivan	-9.13264
▁kirjoit	-9.13479
▁riemu	-9.13521
hi	-9.13572
▁D	-9.13765
▁Henki	-9.13841
▁itsellesi	-9.13841
▁kaivo	-9.13998
py	-9.14116
▁vaimonsa	-9.1414
▁tahdo	-9.14249
▁kulkivat	-9.14344
maa	-9.14448
▁tekemään	-9.14503
▁Pyhä	-9.14668
▁vyö	-9.14901
▁eksy	-9.14909
▁sinulta	-9.14909
▁sukukunnasta	-9.14909
▁kertaa	-9.14914
▁na	-9.15003
▁näitä	-9.15027
▁farao	-9.15083
▁hänessä	-9.15187
tkaa	-9.15222
ju	-9.15292
▁vihollis	-9.15333
▁mur	-9.1544
▁asuu	-9.15453
ksensä	-9.15529
▁hyväksi	-9.15533
▁poikaa	-9.15582
assa	-9.15676
▁asui	-9.15847
▁teet	-9.15871
aika	-9.159
▁mihin	-9.15995
▁leijona	-9.15996
▁kuoliaaksi	-9.15997
▁vedet	-9.16
▁oikeuden	-9.16003
▁vaatteensa	-9.16031
▁juutalaiset	-9.16048
▁nuo	-9.1606
▁kuulu	-9.16148
▁poikien	-9.16153
▁vanhurskas	-9.16167
▁h	-9.1617
▁lihan	-9.16243
▁sanoja	-9.16276
▁suuret	-9.16591
▁armon	-9.16616
▁Joonatan	-9.16636
▁arkin	-9.16643
▁asettui	-9.16654
▁aamu	-9.16739
via	-9.16768
▁asuvat	-9.16829
aksi	-9.17024
▁vanhimmat	-9.17095
▁oikeutta	-9.17118
▁lähellä	-9.17138
▁Kuningas	-9.17194
▁oikein	-9.17202
eet	-9.17336
ad	-9.17643
▁palvele	-9.17707
▁voisi	-9.17724
▁Ma	-9.17727
▁tahdon	-9.1776
▁palvelijansa	-9.17916
▁panen	-9.18001
▁ympärillä	-9.18147
eita	-9.18176
▁hallitusvuotena	-9.18207
▁kätesi	-9.18208
▁toiset	-9.18236
▁yöllä	-9.18272
▁sor	-9.18304
▁häpeään	-9.18357
▁palkka	-9.18392
▁pakoon	-9.18418
▁Jooab	-9.18733
uuden	-9.18742
päivä	-9.18752
▁lähetän	-9.18785
ssaan	-9.18917
▁kuoleman	-9.18996
▁seuraa	-9.19048
▁virsi	-9.19069
▁veren	-9.19322
▁kaupungissa	-9.1933
▁tapahtunut	-9.1933
▁jätti	-9.19331
▁pilvi	-9.19332
▁annetaan	-9.1938
▁Ka	-9.19428
▁myy	-9.19447
▁pelastaa	-9.19591
lut	-9.19643
▁rukoili	-9.19725
▁edellä	-9.1978
▁yksin	-9.1983
ran	-9.19962
▁Joosefin	-9.20003
▁ystävä	-9.20087
`	-9.20331
▁El	-9.20441
▁palvelijat	-9.20458
▁kahden	-9.20461
▁Joosafat	-9.20466
▁täällä	-9.20466
▁Ihmisen	-9.20467
ton	-9.20728
▁kaikkiaan	-9.20825
oh	-9.20838
▁tiedän	-9.20965
mmi	-9.21032
eseen	-9.21253
▁jumala	-9.21259
isia	-9.21466
▁paikassa	-9.21616
▁filistealaiset	-9.21659
▁tuomitse	-9.21858
▁puoli	-9.21861
▁sanoin	-9.22117
▁todistaja	-9.22142
▁yö	-9.22157
▁Aabrahamin	-9.22177
Niin	-9.22206
▁joutui	-9.22228
▁vähän	-9.22524
▁uhrat	-9.22611
▁miesten	-9.22762
▁Kristuksessa	-9.22779
▁kädestä	-9.22779
▁sauva	-9.22788
▁erämaahan	-9.22788
▁kätte	-9.22804
▁pe	-9.23099
▁pääse	-9.23195
▁pään	-9.23273
ttanut	-9.23309
▁Ki	-9.23393
isten	-9.23414
minen	-9.23527
▁tuhat	-9.23717
▁taloon	-9.23761
▁kädessä	-9.23853
▁kaupungista	-9.23955
▁miehelle	-9.23955
▁itsellensä	-9.23957
▁pelto	-9.23957
kki	-9.23959
▁juoda	-9.24045
▁tahtoo	-9.24106
▁sijaansa	-9.24108
▁heittä	-9.24299
▁Heidä	-9.243
emme	-9.24337
▁Maa	-9.24542
▁kansasi	-9.24578
▁iho	-9.25094
▁tapa	-9.25096
▁pyhäkkö	-9.25124
▁Ar	-9.25126
▁uhrasi	-9.25145
▁näkee	-9.25146
▁Kanaani	-9.25146
▁kanssanne	-9.25151
▁toiselle	-9.25154
▁sivu	-9.2517
uksia	-9.25182
▁päällikkö	-9.25218
▁kato	-9.25317
ilaiset	-9.25335
▁polt	-9.254
▁Sela	-9.25431
▁tuhon	-9.25491
▁palvelijoita	-9.25706
▁jolle	-9.25707
tanut	-9.25745
▁ikään	-9.25798
▁ettet	-9.25889
▁sanaa	-9.25906
▁surmaa	-9.25921
▁rakensi	-9.25968
tetaan	-9.2621
▁ylitse	-9.26268
llisesti	-9.26346
▁vuorelle	-9.26396
▁Jumalansa	-9.26517
▁todista	-9.26537
▁veri	-9.26588
▁asua	-9.26712
▁heiltä	-9.26791
▁päivät	-9.26888
▁rakastaa	-9.26964
yt	-9.27102
▁velje	-9.27123
ttiin	-9.27291
▁kokoon	-9.27377
aitsi	-9.2754
oista	-9.27541
▁poikasi	-9.27575
▁vuoren	-9.27577
▁Manassen	-9.27577
▁öljyä	-9.27825
▁Pa	-9.2791
▁sydämeni	-9.27942
▁monet	-9.28038
▁esi	-9.28055
▁Israelille	-9.28071
▁seassa	-9.2812
▁J	-9.28171
jia	-9.28344
▁vanh	-9.28491
▁vaivaa	-9.28501
▁kaike	-9.28521
oissa	-9.28537
▁lauma	-9.28579
▁nimeä	-9.28591
▁esikois	-9.28682
▁vaski	-9.28746
▁kasvoi	-9.28771
▁rupesi	-9.28804
▁saastainen	-9.28805
▁kauhu	-9.28806
▁papin	-9.28807
▁vihan	-9.28814
▁auringon	-9.28902
▁miele	-9.28939
▁Vai	-9.28981
▁kova	-9.2909
▁lapsi	-9.29573
▁jalo	-9.29609
▁saivat	-9.29658
▁vuo	-9.29782
laisia	-9.29964
▁kolmantena	-9.30054
▁tehkää	-9.30062
▁miksi	-9.30087
▁lähtenyt	-9.30089
▁vanhurskauden	-9.30094
tään	-9.30173
alle	-9.3027
▁kohta	-9.30295
▁asumuksen	-9.30357
▁Saa	-9.30394
▁ilmestysmajan	-9.30398
▁riko	-9.30519
▁näe	-9.30558
▁ruhtinaat	-9.30689
▁omaksi	-9.30732
▁polttouhri	-9.30795
▁Absalom	-9.30857
▁näky	-9.30972
▁antoivat	-9.31146
jät	-9.31231
▁mennyt	-9.31336
▁karitsa	-9.31338
▁juutalaisten	-9.31354
▁menemään	-9.31411
▁puhun	-9.31455
▁Egyptiin	-9.31461
▁Salomon	-9.31488
▁joutuu	-9.31524
▁kirjoitettuna	-9.31536
▁kuolema	-9.31547
▁suusta	-9.31571
▁nuori	-9.31634
▁puut	-9.31725
▁Ni	-9.31781
▁val	-9.31795
▁ilman	-9.31896
▁palaja	-9.31961
▁Tä	-9.32021
Kuka	-9.32029
ojen	-9.32092
ttivat	-9.32096
▁tyttäriä	-9.32109
▁kuitenk	-9.32147
▁raha	-9.32182
▁oppi	-9.32602
▁Daniel	-9.32602
▁käteni	-9.32602
▁kaksisataa	-9.32602
▁paasto	-9.32603
▁kuluttua	-9.32603
▁jätä	-9.32613
▁vaa	-9.32815
▁lupa	-9.32894
▁suo	-9.32896
▁surma	-9.33048
▁Totisesti	-9.33054
▁asettuivat	-9.33082
▁sisään	-9.33237
▁ruoka	-9.33294
utensa	-9.33402
misen	-9.33538
laiset	-9.33674
▁puhtaa	-9.3368
yn	-9.33813
▁tavara	-9.33904
▁kaikissa	-9.33918
▁muutamat	-9.33923
tesi	-9.33989
▁itselleen	-9.34001
▁pannut	-9.3408
▁eri	-9.34446
▁työtä	-9.34464
vän	-9.34977
▁seurakunnan	-9.35213
▁perhekunta	-9.35219
▁niillä	-9.35221
▁tehty	-9.35221
▁leiriytyivät	-9.35223
▁oven	-9.35229
▁silmät	-9.35268
▁portin	-9.35351
▁vuotena	-9.35378
▁Herrassa	-9.35423
▁pahat	-9.35436
▁silmänsä	-9.35439
▁syy	-9.35525
Menkää	-9.35983
▁koske	-9.36021
▁palvelijani	-9.36061
▁viini	-9.36118
▁maailma	-9.36176
▁hedelmä	-9.36181
▁panivat	-9.36184
puu	-9.36197
▁valmista	-9.36236
itsemänkymmentä	-9.36281
▁r	-9.36341
▁seurakunta	-9.36523
▁miekalla	-9.3655
▁itke	-9.36552
▁nainen	-9.36652
▁nousivat	-9.3676
▁paimen	-9.36816
▁etsivät	-9.36881
▁alue	-9.36907
dä	-9.36951
▁kääntyi	-9.37065
▁sotaan	-9.37069
▁kuiva	-9.37127
oit	-9.37166
▁portti	-9.37241
▁täyttä	-9.37329
kaamme	-9.37355
▁saaneet	-9.37456
isiä	-9.37458
▁soti	-9.37522
Missä	-9.37636
tar	-9.37726
oihin	-9.37894
1	-9.37901
▁annettu	-9.37902
▁kirja	-9.37903
ttaisi	-9.37933
▁syntynyt	-9.37951
▁toisi	-9.38002
▁kier	-9.38007
▁joudu	-9.38038
▁tuomit	-9.38116
▁Miika	-9.3812
▁Älköön	-9.38149
▁huoneen	-9.38186
▁opetta	-9.38187
kseksi	-9.38203
▁Benjaminin	-9.38229
▁omaa	-9.38381
tyy	-9.38411
▁Tämän	-9.38496
▁vuosi	-9.3852
inä	-9.38528
▁kuulee	-9.3857
isitte	-9.38623
miehi	-9.38667
din	-9.38683
▁tahto	-9.38735
▁tuon	-9.38747
Te	-9.38792
uko	-9.38895
▁vuori	-9.38902
mmat	-9.38914
▁Elisa	-9.38932
▁kasvojen	-9.39012
▁mukana	-9.39089
▁vaunu	-9.39101
▁jokaisen	-9.39105
On	-9.39202
▁Hengen	-9.39271
▁profeetat	-9.39271
▁orja	-9.39272
▁täytyy	-9.39284
▁jälkeensä	-9.39387
ele	-9.39532
▁etten	-9.39672
eser	-9.39715
▁tulessa	-9.39859
▁pahan	-9.39997
▁edessäsi	-9.40046
Hän	-9.40151
▁leipä	-9.40228
▁ahdist	-9.40251
▁tomu	-9.40622
▁yhteen	-9.40635
▁rukoile	-9.40641
▁Eleasar	-9.4066
▁aurinko	-9.4066
▁tyhmä	-9.4066
▁ajatteli	-9.40663
▁jäljelle	-9.40668
▁voimalla	-9.407
lleni	-9.40792
▁ylistä	-9.40836
▁rauta	-9.40929
▁ihmis	-9.41023
tko	-9.41069
▁välillä	-9.41077
▁lakia	-9.41107
▁leirin	-9.41351
▁sanotte	-9.41423
▁huusivat	-9.41439
▁suurell	-9.41486
▁vala	-9.41595
▁Efraim	-9.41612
ossa	-9.4176
▁hengen	-9.41786
äsi	-9.41792
▁suuria	-9.41795
▁Ole	-9.41798
▁iloitse	-9.41865
▁minuun	-9.42069
▁huuto	-9.42072
▁ääni	-9.42087
▁Jerusalemista	-9.42162
▁Vielä	-9.42179
▁asumaan	-9.42281
alla	-9.4237
▁tulet	-9.42373
▁lahja	-9.42607
▁opetuslapsi	-9.4268
▁sil	-9.42709
▁tunt	-9.42739
▁Baal	-9.42803
V	-9.4291
▁Jeremia	-9.42917
llansa	-9.43026
▁hyvän	-9.43065
▁menesty	-9.43232
▁mieli	-9.4326
▁lankesi	-9.43497
▁yltympäri	-9.43497
▁katselmuksessa	-9.43498
▁tuska	-9.43509
▁puhua	-9.43521
kas	-9.43541
▁sijaan	-9.43625
▁kotiinsa	-9.43626
▁söivät	-9.4364
▁kuussa	-9.43646
▁saavu	-9.43707
"	-9.43772
▁luokseni	-9.43789
▁huomaa	-9.43871
isivat	-9.43928
▁Re	-9.43952
▁tekoje	-9.4399
tettava	-9.44
▁heimon	-9.44209
▁silmie	-9.44252
▁Eivät	-9.44286
Minun	-9.44373
▁lii	-9.44618
viksi	-9.44639
iltä	-9.44767
▁luja	-9.44794
▁uskon	-9.449
▁taistelu	-9.44908
▁väijy	-9.44946
▁sydämestä	-9.44946
▁kovin	-9.44952
▁tulkoon	-9.44966
▁puhdista	-9.4497
▁taisteluun	-9.44985
▁ilmoitti	-9.44989
▁käydä	-9.44998
iseksi	-9.45066
▁sanot	-9.4507
nneet	-9.45085
▁rauhassa	-9.45192
▁kasvoje	-9.45222
san	-9.45271
▁kuolee	-9.45329
▁menen	-9.45345
▁runsa	-9.45419
▁vero	-9.45428
▁äiti	-9.45431
▁veljesi	-9.45585
ssani	-9.45783
▁hankki	-9.45808
Kuinka	-9.45843
▁itki	-9.46275
▁laakso	-9.46334
▁annoin	-9.46417
▁sankari	-9.46417
▁sinuun	-9.46417
▁milloin	-9.46418
▁kylvä	-9.46421
▁parempi	-9.46428
▁himo	-9.46481
tävä	-9.46523
▁olkaa	-9.46682
▁joutuvat	-9.46713
▁alttarilla	-9.4677
▁kaval	-9.46819
▁Siionin	-9.46823
mmin	-9.46938
▁avaa	-9.46957
▁kestä	-9.47318
Älkää	-9.47336
▁paikka	-9.47384
▁ihme	-9.4747
▁vaelsi	-9.47524
▁ennusta	-9.47525
▁kulje	-9.47576
tuhatta	-9.47671
ilainen	-9.4772
▁miekkaan	-9.47724
▁edessäni	-9.47761
▁pyhät	-9.47766
▁loi	-9.4777
▁ol	-9.47807
▁Abimelek	-9.4791
▁Siihen	-9.4791
▁kaukana	-9.4791
▁sotajoukko	-9.4791
▁alkaen	-9.4791
▁puolelta	-9.47959
▁U	-9.48011
▁valmis	-9.4802
▁antakaa	-9.48052
yksi	-9.48232
▁peto	-9.48242
▁tykönä	-9.48317
Puhu	-9.48374
▁olemaan	-9.48404
▁makaa	-9.48434
▁väärä	-9.48657
▁synty	-9.48667
oilla	-9.48815
osta	-9.49043
▁moni	-9.49138
▁autio	-9.49155
▁M	-9.49344
▁vääryyttä	-9.49425
▁ottamaan	-9.49425
▁valinnut	-9.49425
▁seitsemäntenä	-9.4945
läis	-9.49515
kea	-9.49615
▁Saara	-9.49691
vien	-9.49848
▁avasi	-9.49873
▁hävit	-9.499
▁nime	-9.50131
▁äänen	-9.50301
ttänyt	-9.50357
▁avu	-9.50357
Nouse	-9.50383
▁henkeä	-9.50529
▁nuore	-9.50543
be	-9.5068
▁tiesi	-9.50808
▁rikka	-9.5082
▁tuomari	-9.50828
▁hajo	-9.50853
▁söi	-9.50894
ilaisten	-9.50907
▁peljästy	-9.50947
▁tarvitse	-9.50963
▁vuorella	-9.50963
▁siunaa	-9.50964
ssään	-9.50966
▁vaella	-9.51055
▁kohtaa	-9.51121
▁valli	-9.51149
▁ensin	-9.51241
akseen	-9.51376
▁karja	-9.51397
ttoma	-9.51401
▁ryöstä	-9.51537
▁koskaan	-9.51656
▁syövät	-9.51815
▁saira	-9.51979
▁elävä	-9.52032
▁kahdeksan	-9.52034
▁veljiä	-9.52206
▁omaan	-9.52216
väis	-9.52352
]	-9.52519
▁luvannut	-9.52526
▁niissä	-9.5253
▁vanhurskautta	-9.52538
▁sokea	-9.52544
▁asettanut	-9.52551
▁naisen	-9.52596
▁olko	-9.52616
▁eteensä	-9.52693
▁hullu	-9.52766
▁mukanaan	-9.52873
ven	-9.52968
orin	-9.52986
▁veljeni	-9.53134
oita	-9.5316
▁tuhoa	-9.53164
▁valit	-9.53196
▁ovi	-9.53324
idän	-9.53327
";	-9.53408
▁tieltä	-9.53446
▁rauhan	-9.53624
▁odotta	-9.53648
▁arkki	-9.53648
▁pääsi	-9.53665
▁synny	-9.53813
▁sala	-9.53827
▁puhdas	-9.5387
▁nimeni	-9.53921
▁jälkeläisten	-9.54105
▁Sidkia	-9.54113
▁halveksi	-9.54113
▁tapahtuu	-9.54113
▁eläimet	-9.54113
▁sovituksen	-9.54113
▁läpi	-9.54113
▁kammio	-9.54116
▁kolmen	-9.54118
▁suurempi	-9.54132
▁lupauksen	-9.54155
▁suuresti	-9.54169
▁poltti	-9.54229
▁har	-9.54315
▁voit	-9.54316
▁Aaronille	-9.54426
▁käynyt	-9.5446
mat	-9.54484
▁päivästä	-9.54548
▁sekaan	-9.54564
▁sija	-9.54631
▁Anna	-9.54643
▁vahvista	-9.54645
stani	-9.54673
▁kuu	-9.54714
▁kanssamme	-9.54741
▁Jerusalem	-9.54868
▁noudatta	-9.54962
▁sydämen	-9.55138
▁osan	-9.55242
▁anti	-9.55287
▁etelä	-9.55509
▁kieltä	-9.55687
▁lamppu	-9.55725
▁Mordokai	-9.55726
▁varhain	-9.55727
▁tavalla	-9.55747
▁hehku	-9.55754
▁Arami	-9.55757
▁saada	-9.55768
▁vilja	-9.5579
▁varjo	-9.55818
▁Johannes	-9.55825
▁yksikään	-9.55833
▁pelo	-9.55856
▁valhe	-9.55914
▁vaino	-9.55914
▁Ku	-9.56032
mistä	-9.56152
▁ajan	-9.56171
▁päänsä	-9.56255
▁Ti	-9.56286
▁nimesi	-9.56289
▁lähettivät	-9.56499
insa	-9.56686
▁pilkkaa	-9.5674
▁silmäsi	-9.56746
Totisesti	-9.5679
hin	-9.56822
▁ruokauhri	-9.56912
▁uhrilahja	-9.56992
▁tekisi	-9.57082
▁peit	-9.57184
▁lunasta	-9.57189
▁vuote	-9.57241
▁Abner	-9.57365
▁Abram	-9.57365
▁uhreja	-9.57365
▁Jeehu	-9.57366
▁paljasta	-9.57366
▁tahansa	-9.57366
▁pilve	-9.57366
▁jäljellä	-9.57372
▁ottaneet	-9.57375
▁nälkä	-9.57376
▁käänny	-9.57445
▁ah	-9.57458
▁lisäksi	-9.57477
toon	-9.57524
▁palvelemaan	-9.57531
mia	-9.5761
▁aamulla	-9.57639
▁jäljessä	-9.57732
▁Jumalalta	-9.57994
yttä	-9.58035
▁päällensä	-9.58167
▁teette	-9.58192
▁Siion	-9.58421
▁metsän	-9.58446
Voi	-9.5847
▁vihansa	-9.58477
▁voinut	-9.58483
▁teot	-9.58528
▁öljy	-9.58593
▁pes	-9.58657
llään	-9.58766
uhri	-9.58865
lainen	-9.58965
▁Jeesuksessa	-9.59032
▁lampaita	-9.59032
▁sääli	-9.59032
▁kädellä	-9.59032
▁vaeltaa	-9.59032
▁vihki	-9.59032
▁annettiin	-9.59032
▁sarve	-9.59032
▁joukosta	-9.59033
▁kättä	-9.59043
▁kauris	-9.59046
▁asettu	-9.59065
▁ihmisiä	-9.59066
▁ottakoon	-9.59082
▁tosi	-9.5909
▁palvelijoille	-9.59192
▁ensimmäisenä	-9.59212
▁valvo	-9.59266
▁autioksi	-9.59293
▁polttouhriksi	-9.59346
▁kotiin	-9.59403
▁surmat	-9.59438
▁näkevät	-9.59453
▁saastutta	-9.59539
▁kauhistus	-9.59602
▁talon	-9.59614
▁minäkin	-9.59623
ttakoon	-9.5963
▁meistä	-9.59678
▁lausui	-9.59688
▁ajat	-9.597
▁oikealle	-9.59751
dan	-9.5977
▁jonkun	-9.59852
▁käsky	-9.59984
▁auta	-9.60277
▁tyköni	-9.60615
▁kuul	-9.60633
▁sisar	-9.60661
▁Manasse	-9.60716
Ihmislapsi	-9.60727
▁ihmislapsi	-9.60727
▁vaellukse	-9.60727
▁Laaban	-9.60727
▁henkensä	-9.60727
▁kuusisataa	-9.60727
▁leivän	-9.60727
▁kuolleista	-9.60727
▁pyhäkössä	-9.60727
▁osta	-9.60778
▁äänellä	-9.60789
▁sopi	-9.60792
▁jumalattomi	-9.60804
▁talossa	-9.60811
▁pelko	-9.60821
▁itään	-9.60823
▁valke	-9.60846
▁säk	-9.61256
▁silmäni	-9.61297
▁nai	-9.61478
▁armonsa	-9.61538
▁ruhtinaa	-9.6158
ukset	-9.61625
▁olisivat	-9.61684
▁puhuivat	-9.61754
▁lähesty	-9.61844
▁muukalais	-9.61851
M	-9.61892
▁kiusa	-9.62013
▁huom	-9.62048
▁kai	-9.62051
▁tahtoi	-9.62124
lan	-9.62182
Tä	-9.62215
▁Veis	-9.62245
▁heti	-9.62255
rot	-9.6242
▁Nebukadnessar	-9.62451
▁horju	-9.62451
▁Samoi	-9.62451
▁sydämesi	-9.62451
▁peljätkö	-9.62451
▁keskelle	-9.62451
▁suloise	-9.62455
▁ojensi	-9.62459
▁tekonsa	-9.62474
takoon	-9.62489
▁veden	-9.62509
▁valtakunnan	-9.62533
▁Job	-9.62563
▁noudata	-9.62574
▁näistä	-9.62583
▁valtakuntaa	-9.62602
▁muisto	-9.62653
▁tuoda	-9.62654
▁pieni	-9.6281
▁lo	-9.62833
▁mielessä	-9.63058
▁lasten	-9.63088
▁sukukuntaa	-9.63144
▁isämme	-9.63193
▁vihastui	-9.63384
▁hävitän	-9.63399
▁Iisak	-9.63611
▁kiittä	-9.63633
`"	-9.63784
maton	-9.63798
▁saastu	-9.63807
▁Abi	-9.6387
▁lähe	-9.63915
▁ympäri	-9.63932
▁suure	-9.64017
▁vartioi	-9.64184
▁vangit	-9.64205
▁kohden	-9.64206
▁taivaat	-9.64206
▁pitävät	-9.64207
▁jauhoja	-9.64208
▁ohitse	-9.64213
▁haudattiin	-9.64219
▁heitti	-9.64225
▁teltta	-9.64244
kar	-9.64245
▁Eesau	-9.64246
▁mullikka	-9.64257
▁epä	-9.64264
ettakoon	-9.64268
▁lie	-9.64343
▁vaati	-9.64358
enne	-9.64388
▁syntiuhriksi	-9.64426
▁sanotaan	-9.64438
▁siltä	-9.6444
▁Et	-9.64494
ker	-9.6455
▁teoista	-9.64552
laisen	-9.64584
▁Jaakobille	-9.64623
▁eikö	-9.64761
▁meri	-9.64922
▁nimeen	-9.64976
ssasi	-9.64992
▁kunniaksi	-9.65003
▁Vaan	-9.65015
▁leik	-9.651
▁tekevä	-9.65125
▁neuvoa	-9.65127
▁tuho	-9.65247
Tule	-9.6541
▁tuolla	-9.65493
viä	-9.65561
▁Sano	-9.65616
ydy	-9.65818
▁kulke	-9.65835
▁saata	-9.65845
ttäkää	-9.65891
anin	-9.65919
Sinun	-9.6594
▁kätke	-9.65991
▁Eufrat	-9.65991
▁kolmas	-9.65991
▁minussa	-9.65991
▁sinussa	-9.65991
▁Pilatu	-9.65991
njohtaja	-9.65991
▁kullalla	-9.65993
▁Maria	-9.65996
▁mukaansa	-9.66005
▁riemuitse	-9.6601
▁huoneeseen	-9.66014
▁kaikilla	-9.66027
▁seuraavana	-9.66065
▁miehensä	-9.66119
▁sanani	-9.66244
▁kuolemalla	-9.66277
ottavat	-9.66282
Siitä	-9.66569
▁maksa	-9.66678
▁apu	-9.66696
▁lampaa	-9.66935
▁tykönne	-9.66992
▁kantaa	-9.67012
ara	-9.67109
▁lausu	-9.67111
tetään	-9.67221
uuri	-9.67275
E	-9.67347
▁rukoukse	-9.67523
▁sanoma	-9.67568
▁velji	-9.6761
▁perhe	-9.67699
▁löydä	-9.67809
▁siunasi	-9.67809
▁nukku	-9.67809
▁Ester	-9.6781
▁käännä	-9.67811
▁viisautta	-9.67815
▁vieraa	-9.67832
▁seura	-9.67864
▁lähettä	-9.67869
▁lahjoja	-9.67889
▁opetuslapsensa	-9.67917
▁tahtonut	-9.67958
▁seurasi	-9.67962
▁hanki	-9.68026
▁jäänyt	-9.68029
▁kulkee	-9.68053
▁Kuule	-9.68085
▁laulu	-9.68085
▁Haaman	-9.68087
▁Kuulkaa	-9.68102
▁kunnian	-9.68211
tavaksi	-9.68238
▁puhumaan	-9.68254
▁käänty	-9.68462
▁Raam	-9.68556
▁jumalattomat	-9.68557
▁tyttären	-9.68596
telee	-9.68789
kymmentä	-9.68828
▁mikään	-9.68989
tuksi	-9.69018
▁Sikemi	-9.69044
▁ajoi	-9.69061
▁murhee	-9.69071
Anna	-9.6909
llisen	-9.69145
Kun	-9.69218
▁pakeni	-9.69278
Mikä	-9.69324
▁lapsille	-9.69324
▁ääne	-9.69448
▁poikki	-9.69661
▁ymmärrä	-9.69661
▁noussut	-9.69661
▁pitali	-9.69662
▁miehille	-9.69664
▁kuusikymmentä	-9.69673
▁kaupunkeihin	-9.6971
▁yhtäkään	-9.69723
▁Jerusalemia	-9.69738
▁muiden	-9.69811
▁une	-9.69838
▁äänensä	-9.6984
▁tiellä	-9.69843
▁lepoon	-9.69915
▁leiriin	-9.69974
▁Nyt	-9.69981
▁valtaistuimella	-9.7002
▁Herramme	-9.70113
▁tuota	-9.70205
▁luokseen	-9.70251
▁linnut	-9.70265
▁profeettain	-9.70356
▁hedelmää	-9.70378
lke	-9.70396
▁B	-9.70401
▁seisoivat	-9.70428
nkymmenen	-9.70576
▁saattaa	-9.70679
▁menet	-9.70683
▁puro	-9.70705
▁sukukunta	-9.70809
lon	-9.70963
jälkeen	-9.70975
▁Kuu	-9.70996
▁riita	-9.71
▁polve	-9.71004
▁R	-9.71075
▁Benjamin	-9.7109
▁vaarin	-9.71221
▁vuodatta	-9.71323
▁syntiuhri	-9.71331
▁aasi	-9.71413
▁meno	-9.71451
▁ainoa	-9.71495
▁yhdeksän	-9.71543
▁israelilaisia	-9.71548
▁kolmesataa	-9.71548
▁rakentaa	-9.71548
▁ruoho	-9.71548
▁tehtiin	-9.71551
▁Muista	-9.71554
▁Siellä	-9.71589
▁kaupunkeja	-9.71631
▁kuulkaa	-9.71667
▁päästi	-9.71793
▁joutu	-9.71823
▁keskuudessanne	-9.71877
▁lähettää	-9.71927
▁luoksesi	-9.71941
▁Jerobeamin	-9.71991
▁kaatui	-9.72013
▁viisas	-9.72087
mman	-9.72116
▁Tee	-9.72192
▁linnan	-9.72196
▁temppeliä	-9.72276
▁onnettomuuden	-9.7237
▁paljo	-9.72397
▁tulella	-9.7246
▁suunsa	-9.72465
▁liitto	-9.72714
▁varoit	-9.72781
▁Nooa	-9.72876
▁jano	-9.72921
▁Jordan	-9.73015
mittaa	-9.73025
▁kedo	-9.73099
▁kansansa	-9.73105
▁raava	-9.73116
▁ilmesty	-9.73177
▁ala	-9.73233
▁syyttä	-9.73234
▁rake	-9.73283
▁huonee	-9.73322
Mi	-9.7344
▁karitsaa	-9.73444
▁Rehabeam	-9.73471
▁amorilaisten	-9.73471
▁palvelusta	-9.73471
▁teurasuhri	-9.73471
▁vankeuteen	-9.73471
▁taivaassa	-9.73471
▁neljäsataa	-9.73471
▁synnin	-9.73471
▁kuolleet	-9.73472
▁jäsen	-9.73472
▁mereen	-9.73477
▁makasi	-9.73478
▁totuuden	-9.73481
▁kaup	-9.73483
▁alkoi	-9.73484
▁itä	-9.73503
▁toiseen	-9.73522
▁jalkoje	-9.73525
!`	-9.73528
llista	-9.73556
▁lähteneet	-9.73589
▁itseänsä	-9.73596
▁nimessä	-9.73748
▁kyynärän	-9.73766
▁tiedät	-9.73852
▁kenen	-9.73932
▁kysyivät	-9.73933
▁oikealla	-9.7402
kel	-9.7407
▁päämies	-9.74096
▁vapaut	-9.74106
▁vara	-9.74286
▁lähte	-9.74368
ettava	-9.74678
uudesta	-9.74814
▁vanhurska	-9.74861
▁kes	-9.74864
▁Jerobeam	-9.74973
kuun	-9.75
▁säily	-9.75123
▁rakenna	-9.75131
▁pyysi	-9.75278
▁heihin	-9.75366
▁armahda	-9.75432
▁rannalla	-9.75432
▁Jooram	-9.75435
▁itsellenne	-9.75436
▁juomauhri	-9.75436
▁vahva	-9.75449
▁kaula	-9.7545
▁ihmeitä	-9.7546
▁ympärille	-9.75467
▁leske	-9.75474
▁huomasi	-9.75484
▁sovi	-9.755
▁toimitta	-9.7552
▁uusi	-9.7553
▁yllä	-9.75596
▁Aabrahamille	-9.75711
▁lähteä	-9.75784
▁pakenivat	-9.75841
▁egyptiläis	-9.75865
▁pappien	-9.75887
He	-9.75995
ltaan	-9.76091
ville	-9.76258
▁palaa	-9.76295
▁matka	-9.76296
▁Ra	-9.76511
▁sanansa	-9.76593
▁saarna	-9.7663
ron	-9.76711
du	-9.76742
▁oikean	-9.76761
▁Ana	-9.76812
▁Pel	-9.76852
Tuo	-9.76854
Jumala	-9.76859
ssansa	-9.76925
ön	-9.77012
▁hukku	-9.77049
▁Mooab	-9.77098
▁pian	-9.77309
▁oikeus	-9.77428
▁Gibea	-9.77432
▁hyljät	-9.77432
▁säädöksi	-9.77432
▁pyytä	-9.77432
▁tarkoin	-9.77433
▁tullessaan	-9.77441
▁leeviläisten	-9.77489
▁tulevan	-9.77495
▁Soo	-9.77495
▁jumalaton	-9.775
▁millä	-9.77508
▁päältä	-9.77518
▁Autua	-9.77532
mässä	-9.77534
▁ilmestyi	-9.77555
ettävä	-9.77584
▁saman	-9.77695
▁kutsunut	-9.77736
▁oinasta	-9.77748
▁ajattele	-9.77784
▁kertoi	-9.77785
▁paikkaa	-9.77857
▁Iisakin	-9.77959
▁tot	-9.77989
▁sato	-9.78101
▁metsä	-9.78148
▁hautaan	-9.78211
▁valtasi	-9.78253
▁annat	-9.78295
▁pyhittä	-9.78373
▁palatsi	-9.78478
▁rauhaa	-9.78534
▁täyt	-9.78547
lliset	-9.78572
▁kerto	-9.78683
▁saatta	-9.78685
▁kaatu	-9.78687
▁suru	-9.78794
onsa	-9.7889
huone	-9.7893
▁teit	-9.79015
▁Simon	-9.79021
▁iankaikki	-9.79028
▁toimi	-9.79185
▁katsomaan	-9.79199
▁kuului	-9.79251
päin	-9.79255
▁koti	-9.79377
▁joista	-9.79384
▁Moosesta	-9.79404
mästä	-9.7947
▁aterioi	-9.79472
▁haureutta	-9.79473
▁kompastu	-9.79473
▁ymmärrykse	-9.79473
▁Raakel	-9.79473
▁polvi	-9.79473
▁paikan	-9.79474
▁kurja	-9.79478
▁tappaa	-9.79486
▁ammonilaisten	-9.79486
▁käteensä	-9.79489
▁saapui	-9.79501
▁Egyptissä	-9.79501
▁pakanat	-9.79523
▁päähän	-9.79537
▁loppuun	-9.79559
▁kukista	-9.7964
▁raskaaksi	-9.79701
▁koskee	-9.79844
T	-9.79852
▁voiton	-9.79869
▁Ahabin	-9.79896
▁rasva	-9.79911
mällä	-9.79914
▁kirjoita	-9.79966
▁ylpe	-9.79996
▁faraolle	-9.8
▁nous	-9.80026
▁vihollisten	-9.80098
kerta	-9.80186
▁rukoil	-9.80293
▁puolen	-9.80355
▁kuuluva	-9.8054
▁kuolemaan	-9.80829
▁aut	-9.80928
▁Ota	-9.8093
▁voineet	-9.80974
▁sukua	-9.81056
▁saatana	-9.81127
▁muka	-9.81298
rah	-9.81302
▁jättä	-9.81321
▁uskoo	-9.81365
stus	-9.81377
▁hedelmän	-9.81507
▁kerro	-9.81547
▁Beetlehem	-9.81556
▁keskeltä	-9.81556
▁nähdessään	-9.81556
▁suvusta	-9.81556
▁kasvoja	-9.81556
▁viisisataa	-9.81556
▁Asarja	-9.81556
▁kuivu	-9.81556
▁tuntemaan	-9.81556
▁nähden	-9.81556
▁hävittää	-9.81557
▁ehkä	-9.81557
▁ottakaa	-9.81557
▁pitäkää	-9.81557
▁kiroa	-9.81558
▁sammu	-9.8156
▁iltaan	-9.81567
▁Baabeliin	-9.81596
▁fariseukset	-9.81608
▁kutsutaan	-9.81631
▁polveutu	-9.81705
▁kedolla	-9.81755
▁yötä	-9.81773
▁valkoisi	-9.81813
▁saattanut	-9.81816
▁erään	-9.81824
▁neljän	-9.81831
▁tulta	-9.81847
▁istut	-9.81849
▁opetuslapset	-9.81881
▁ajatukse	-9.81995
▁vaari	-9.82032
▁kestää	-9.82051
▁kuun	-9.82062
▁sito	-9.82073
▁evankeliumia	-9.82166
▁menköö	-9.8221
▁Israelista	-9.82248
▁viinitarha	-9.82308
ttaneet	-9.82388
▁Samarian	-9.82396
▁muurin	-9.82421
▁esipihan	-9.82507
▁suoja	-9.82622
var	-9.82626
▁lohdutta	-9.8264
▁henge	-9.82642
▁päällikö	-9.82804
▁kuninka	-9.82819
▁isän	-9.82841
▁palveli	-9.82991
▁ilmoitta	-9.83054
▁Jis	-9.83145
▁kosta	-9.83171
▁käyvät	-9.8321
▁Edom	-9.83227
▁jumalattoma	-9.83237
Ota	-9.83268
▁Jumalasta	-9.8333
llasi	-9.83342
kaksi	-9.8335
▁m	-9.83439
▁raskaa	-9.83451
▁vapaa	-9.83473
▁sulke	-9.83532
▁Suu	-9.83597
▁kadu	-9.83656
▁Ismael	-9.83683
▁järve	-9.83683
▁kasvonsa	-9.83683
▁kolmanne	-9.83683
▁suvun	-9.83683
▁tyynni	-9.83683
▁älkööt	-9.83683
▁ovelle	-9.83684
▁sekeliä	-9.83684
▁vartija	-9.83686
▁tällä	-9.83692
▁ääreen	-9.83695
▁vetten	-9.83698
▁viisaus	-9.83717
▁myöten	-9.83724
▁naiset	-9.83746
▁pyhän	-9.83792
▁murha	-9.83794
▁merkki	-9.83806
▁sapattina	-9.83814
▁kääntyy	-9.83821
empi	-9.8383
▁kaupungeissa	-9.8384
▁ihmistä	-9.83866
▁Jokainen	-9.83868
▁jouse	-9.83872
▁sellaista	-9.83902
▁vihamiehe	-9.83957
▁teiltä	-9.84037
▁tekin	-9.84195
▁lapsen	-9.84249
▁tekoa	-9.84379
▁tiedämme	-9.84395
▁isänne	-9.84418
▁teissä	-9.84485
dessä	-9.84557
▁palasivat	-9.84573
▁lampaat	-9.84718
▁kumartui	-9.84743
ttävät	-9.84814
▁sanokaa	-9.84872
mis	-9.85178
▁ahdista	-9.85185
▁varust	-9.85255
▁tykösi	-9.85322
▁laski	-9.85473
▁kokosi	-9.85577
▁saastaise	-9.85679
▁omat	-9.85831
▁tunnuste	-9.85854
▁Johanneksen	-9.85857
▁polttouhreja	-9.85857
▁kansoja	-9.85857
▁kruunu	-9.85857
▁kaltainen	-9.85858
▁vuoret	-9.85859
▁Loot	-9.85859
▁kantoi	-9.85868
▁ojenta	-9.85899
▁valloitti	-9.85909
▁kuulin	-9.86012
▁rakasti	-9.86021
▁saadakse	-9.86155
▁tuokoo	-9.8619
▁kaltais	-9.86202
utui	-9.86241
stään	-9.8636
▁tar	-9.86371
▁karkoit	-9.86382
▁Leevin	-9.8642
▁ylimmäisen	-9.86432
▁istuva	-9.86554
▁täytä	-9.86605
▁vaipu	-9.86608
▁itsesi	-9.86612
▁enkelin	-9.86635
Ha	-9.86688
▁kirje	-9.86732
▁viimeise	-9.86747
nessä	-9.87015
▁nimet	-9.87106
essään	-9.87179
▁juokse	-9.87254
▁varma	-9.87266
▁sur	-9.87273
ttävä	-9.873
▁maalle	-9.87323
▁kiven	-9.87346
▁töi	-9.87617
▁Ahab	-9.87621
▁rikko	-9.87652
▁seinä	-9.8773
mar	-9.87914
▁kaikkiin	-9.87943
▁sapatti	-9.87943
▁valtaan	-9.87944
▁puhut	-9.87947
▁korvi	-9.88045
▁Gideon	-9.8808
▁kaldealaisten	-9.8808
▁kirkkaus	-9.8808
▁käärme	-9.8808
▁synagooga	-9.8808
▁lestyj	-9.8808
▁annoit	-9.8808
▁kasvot	-9.8808
▁kerrottavaa	-9.8808
▁olleita	-9.8808
▁pitänyt	-9.8808
▁elinaika	-9.8808
▁lopet	-9.88081
▁palvelijattare	-9.88082
▁itseänne	-9.88086
▁ylimmäinen	-9.88094
▁taivasten	-9.88135
▁Kuitenkin	-9.88168
▁kieli	-9.88219
▁unhotta	-9.8824
▁kiitosta	-9.88261
imin	-9.8829
▁kokoontuivat	-9.88344
▁veli	-9.88363
kivi	-9.88414
▁menkää	-9.88442
▁päällyst	-9.88452
▁myöskään	-9.88455
▁näette	-9.88512
▁tiedätte	-9.88634
▁laskeutu	-9.88735
miseksi	-9.8895
▁ruumiinsa	-9.8898
▁täytty	-9.88996
kymmenente	-9.89127
▁uuden	-9.89251
▁vailla	-9.89256
▁vaimoa	-9.89272
▁tuoksu	-9.8938
miehet	-9.89452
▁huudan	-9.89453
▁johdat	-9.89491
▁juoksi	-9.89558
▁mone	-9.89576
▁jumal	-9.89608
.`"	-9.8964
▁kymmen	-9.89784
▁korjasi	-9.89792
▁kaunis	-9.89909
käämme	-9.89911
▁elävän	-9.89952
▁teura	-9.90094
▁Damasko	-9.90271
uudessa	-9.90289
▁rankaise	-9.90333
▁ensimmäinen	-9.90352
▁taivaaseen	-9.90352
▁käskynhaltija	-9.90353
▁rikkomukse	-9.90353
▁paranta	-9.90355
▁tila	-9.9036
▁täyteen	-9.90368
▁toteen	-9.9037
▁työn	-9.90399
▁viereen	-9.90405
▁opetti	-9.90416
▁palvelijoi	-9.90443
▁tuhan	-9.90481
▁ylle	-9.90485
kke	-9.90502
▁suurta	-9.90546
▁paina	-9.90596
▁tulle	-9.90662
▁voitti	-9.90682
▁lapsensa	-9.90695
▁kansasta	-9.90763
▁yönä	-9.90769
▁Ad	-9.9077
▁Jeremialle	-9.90798
▁muille	-9.90825
▁katseli	-9.90842
mattomi	-9.90912
▁menevät	-9.91134
▁tekemä	-9.91148
▁katsele	-9.91149
▁antakoo	-9.91201
▁käske	-9.9125
▁kuljet	-9.91277
▁harjoitta	-9.91334
▁soi	-9.91338
▁vetä	-9.91352
▁sisä	-9.91352
misensa	-9.91432
eista	-9.91443
▁kunniaa	-9.91521
▁rakkaa	-9.91522
▁hir	-9.91535
▁sanomaan	-9.91574
▁Eeli	-9.91588
Ole	-9.91675
▁nousevat	-9.91694
▁lait	-9.91747
▁kerubi	-9.91797
▁pesköö	-9.92
isiksi	-9.92016
▁antama	-9.92038
▁lopun	-9.92048
▁jälke	-9.92056
▁olimme	-9.92197
▁vihassa	-9.92364
▁köyh	-9.92558
▁j	-9.92577
▁lisää	-9.92656
▁kurit	-9.92677
2	-9.92678
▁Juudea	-9.92678
▁Naatan	-9.92678
▁Sakarja	-9.92678
▁hyljännyt	-9.92678
▁hyödy	-9.92678
▁jälkeläisille	-9.92678
▁keskuudesta	-9.92678
▁Kirjat	-9.92678
▁Siimei	-9.92678
▁henkeni	-9.92678
▁syvyyde	-9.92679
▁lintu	-9.92682
▁onnettomuus	-9.92682
▁neljäntenä	-9.92683
▁niitten	-9.92685
▁ilmoitettiin	-9.92688
▁suosio	-9.92692
▁keskenään	-9.92696
▁lau	-9.92711
▁rakkaus	-9.92721
▁alttiiksi	-9.92726
▁saalista	-9.92753
▁turmio	-9.92756
▁itseäsi	-9.92781
▁ilmoittanut	-9.92808
▁kirjoitti	-9.92851
▁pantu	-9.92955
▁antaisi	-9.93061
etuksi	-9.93088
▁linna	-9.93106
▁syökö	-9.93166
▁Baalak	-9.93167
▁lopu	-9.93193
▁seurasivat	-9.93196
▁laupeuden	-9.93322
▁Aasa	-9.93323
mon	-9.93356
▁Saulille	-9.93384
▁luki	-9.93641
▁Ette	-9.93657
▁väkivaltaa	-9.93682
▁arpa	-9.93785
▁erämaan	-9.93919
▁kiviä	-9.93994
▁alttarille	-9.94196
tetut	-9.94209
▁vähä	-9.9423
▁aseta	-9.94262
▁käyn	-9.94278
▁edessään	-9.94294
▁tarttu	-9.94378
▁pako	-9.94427
▁tarttui	-9.94432
▁lepo	-9.94456
jumala	-9.94468
R	-9.94483
▁pidät	-9.94566
▁kiitä	-9.94587
Joka	-9.94597
tön	-9.94602
▁kukk	-9.94619
▁rakas	-9.94736
▁salaa	-9.94749
▁vihani	-9.94755
▁pyhien	-9.94823
▁pelkäsi	-9.94904
akin	-9.94911
laisten	-9.94957
▁joutuisi	-9.9499
▁Eesaun	-9.95003
▁henkivartija	-9.95059
▁Amasja	-9.95059
▁syttyi	-9.95059
▁ainoatakaan	-9.95059
▁merkit	-9.95059
▁huomenna	-9.9506
▁lankea	-9.9506
▁Benaja	-9.95061
▁Pojan	-9.95061
▁kullasta	-9.95062
▁savu	-9.95062
▁väsy	-9.95065
▁paula	-9.95073
▁veljiensä	-9.95075
▁tarkasta	-9.95079
▁jumalien	-9.95083
▁muutamia	-9.95099
▁eteenpäin	-9.95111
▁koi	-9.95149
▁täytti	-9.95161
tensä	-9.95172
▁egyptiläiset	-9.95227
▁viiden	-9.9523
▁vankila	-9.95248
▁huku	-9.95252
▁omasta	-9.95337
▁unhota	-9.95371
▁valalla	-9.95393
▁liittoni	-9.95416
▁rauhaan	-9.95444
utti	-9.95468
▁kaatuvat	-9.95512
▁pyydä	-9.9562
▁odot	-9.95664
▁matkaa	-9.95684
▁pello	-9.95741
▁Tuo	-9.95756
▁töitä	-9.95801
▁murhe	-9.95871
▁nimeäsi	-9.9612
▁suitsu	-9.96182
▁huoka	-9.96195
▁Isäni	-9.96259
iva	-9.96279
H	-9.96307
▁muoto	-9.96342
▁tapasi	-9.96443
▁huone	-9.96452
▁ilmoittaa	-9.96511
▁hy	-9.96582
▁pelastuksen	-9.96702
iseen	-9.96737
isesti	-9.96785
mmaksi	-9.96879
▁vihasi	-9.96889
▁kuulevat	-9.96931
▁suussa	-9.96988
▁Bileam	-9.97034
kasv	-9.97121
onin	-9.97193
eitä	-9.97309
▁apua	-9.97439
▁noudattaa	-9.97463
▁yön	-9.97469
▁hyökkää	-9.97498
▁kiiruusti	-9.97498
▁voideltu	-9.97498
▁huutavat	-9.97498
▁Aasafin	-9.97498
▁esikoinen	-9.97498
▁täysi	-9.97498
▁tulkaa	-9.97499
▁vaatteet	-9.97499
▁Semaja	-9.975
▁miten	-9.97503
▁iloitsi	-9.97504
▁synnyttänyt	-9.9751
▁ääressä	-9.97514
▁vedessä	-9.97526
▁häväisty	-9.97546
▁otettu	-9.97555
▁annettava	-9.97562
▁asettaa	-9.97578
▁iso	-9.9763
▁Herraan	-9.9763
▁luku	-9.97664
▁pyhää	-9.97858
▁virran	-9.97975
▁levittä	-9.97987
▁määrää	-9.9804
▁samall	-9.98115
▁polttouhrin	-9.98155
▁samaa	-9.98211
▁ristiinnaulit	-9.98242
▁kohotta	-9.98435
▁palvelukse	-9.98487
▁rakastavat	-9.98507
▁ruokaa	-9.98643
▁väen	-9.98676
▁pilkka	-9.98815
iitetty	-9.98834
▁huoneessa	-9.98846
▁apostoli	-9.99113
▁tuokaa	-9.99215
▁kas	-9.99241
selle	-9.99278
misesta	-9.99321
Sano	-9.9936
L	-9.99425
▁vaimoksi	-9.99447
▁puhuvat	-9.99572
▁kenenkä	-9.99628
▁Jumalaasi	-9.99686
▁teihin	-9.99712
Eikö	-9.99728
hun	-9.99896
▁raunio	-9.99956
▁terve	-9.99974
▁haudat	-9.99979
▁ratsu	-9.99993
▁kaupungeista	-9.99998
▁kirjuri	-9.99998
▁maaherra	-9.99998
▁muukalainen	-9.99998
▁ylipapit	-9.99998
▁tunnusta	-9.99998
▁Ahasja	-9.99998
▁rakentanut	-9.99998
▁sukujensa	-9.99998
▁vastustaja	-9.99999
▁puutarha	-9.99999
▁peittää	-9.99999
▁kuorma	-10
▁väisty	-10
▁näyttä	-10.0001
▁tuhannen	-10.0005
▁alati	-10.0009
▁tyttärensä	-10.0016
▁opeta	-10.0016
▁sellais	-10.0018
Jo	-10.0021
rai	-10.0021
isessa	-10.0022
täköön	-10.0036
▁istuu	-10.0037
▁hajotta	-10.0041
ttomaksi	-10.0048
ittivät	-10.0055
▁maansa	-10.0064
▁joukkoon	-10.0064
▁erotta	-10.0072
▁härkä	-10.0077
▁Edomin	-10.0079
miehiä	-10.0082
▁ruumiin	-10.0093
lee	-10.0094
▁joissa	-10.0101
▁armoa	-10.0103
▁julist	-10.0114
▁peljättävä	-10.0117
▁laskeutui	-10.0118
▁virta	-10.0119
mitta	-10.0124
▁Es	-10.0124
▁käsin	-10.0127
▁Salomolle	-10.0128
▁Pois	-10.0138
▁hautaa	-10.0138
▁asian	-10.0174
▁kiitän	-10.0185
▁voimaa	-10.0189
▁Baabel	-10.0195
▁jumalattoman	-10.0207
▁valitsi	-10.0207
▁Assur	-10.0211
päivänä	-10.0221
▁Sinu	-10.0228
▁tyhjä	-10.0232
▁varustettu	-10.0242
▁äär	-10.0248
▁silmäin	-10.0249
▁kesken	-10.0253
▁parannu	-10.0254
▁Simson	-10.0256
▁jälkeläisistä	-10.0256
▁nöyryy	-10.0256
▁sukukunnan	-10.0256
▁tapahtuva	-10.0256
▁tyttö	-10.0256
▁ulkopuolelle	-10.0256
▁irti	-10.0256
▁orjattare	-10.0256
▁kauas	-10.0256
▁ihana	-10.0256
▁pukeutu	-10.0256
▁Jesaja	-10.0256
▁mittasi	-10.0257
▁paikoilleen	-10.0257
▁muutoin	-10.0257
▁risti	-10.0257
▁sivuvaimo	-10.0257
▁kuullen	-10.0257
▁kahdenkymmenen	-10.0257
▁suostu	-10.0257
▁filistealaisia	-10.0261
▁ymmärrystä	-10.0262
▁alusta	-10.0263
▁sulje	-10.0264
▁kääntä	-10.0265
▁nuole	-10.0266
▁mainit	-10.0267
angen	-10.0268
▁sadan	-10.0275
▁vihollisia	-10.0276
▁Kaa	-10.0277
▁päässä	-10.0282
▁suuressa	-10.0283
▁kaikkine	-10.0284
▁matkalle	-10.0292
▁kohtalo	-10.0295
▁uni	-10.03
▁leveä	-10.03
▁palvelivat	-10.0303
▁perintömaa	-10.0308
▁kirjaan	-10.0314
▁matkalla	-10.0316
▁viisaa	-10.0318
▁kuuluu	-10.0319
▁voimasta	-10.0324
▁puheen	-10.0324
ahin	-10.0326
▁palvelijalle	-10.0327
▁Paavalin	-10.0338
matto	-10.0341
▁Baalin	-10.0341
isivät	-10.0343
▁iankaikkisen	-10.035
▁sotajoukon	-10.0355
▁toimitti	-10.036
▁Mah	-10.0381
▁asun	-10.0382
▁talonsa	-10.0387
▁kiele	-10.0396
▁kävisi	-10.0417
osasto	-10.042
▁sielunsa	-10.0422
▁paljoa	-10.0428
yys	-10.0428
▁Ta	-10.0442
taessa	-10.045
▁teurasta	-10.0476
▁sortu	-10.0481
paikka	-10.0492
▁osaa	-10.0508
▁osoitta	-10.0508
▁pylvä	-10.051
▁tuulen	-10.0516
▁kukistu	-10.0516
▁Hesbon	-10.0519
▁kasvosi	-10.0519
▁löytänyt	-10.0519
▁profeettoja	-10.0519
▁pöytä	-10.0519
▁vaeltavat	-10.0519
▁viikunapuu	-10.0519
▁säästä	-10.0519
▁pelasti	-10.0519
▁tarpee	-10.0519
▁usein	-10.0519
▁taivaissa	-10.0519
▁leski	-10.0519
▁puhutteli	-10.0519
▁ulkopuolella	-10.052
▁toivon	-10.052
▁joukon	-10.052
▁rukous	-10.052
▁otsa	-10.052
▁vallassa	-10.0521
▁runsaasti	-10.0522
▁Siinai	-10.0522
▁asukkaita	-10.0522
▁pyhitetty	-10.0523
▁auttaa	-10.0523
▁heikko	-10.0524
▁kuninkaita	-10.0526
▁jättänyt	-10.0526
▁ellei	-10.0527
▁kaikkinaisi	-10.0527
▁kirjanoppineet	-10.0528
▁leeviläisille	-10.0532
▁puettu	-10.0533
▁sanasi	-10.0534
▁sotimaan	-10.0542
▁veljelle	-10.0543
▁otan	-10.055
▁rakenn	-10.055
▁menneet	-10.0551
▁suureksi	-10.0557
▁suuni	-10.0562
▁evankeliumin	-10.0563
nnan	-10.0571
▁palvelijallesi	-10.0575
▁vienyt	-10.0577
eltä	-10.0597
▁väh	-10.0597
▁Pyhän	-10.0601
▁kanna	-10.0612
▁Daavidia	-10.0613
▁päiviä	-10.0617
▁Uuria	-10.0623
▁kasvaa	-10.0637
▁ajaa	-10.0661
▁vaimoja	-10.0664
▁karkoitta	-10.0666
Ja	-10.0672
▁tahdot	-10.0672
of	-10.0672
▁sula	-10.0678
▁vahvistu	-10.0683
▁oinas	-10.0686
▁viisauden	-10.0688
▁Yl	-10.069
▁linnu	-10.0702
▁katsokaa	-10.0705
▁tark	-10.0707
puoli	-10.0708
uista	-10.0712
▁tottele	-10.0713
▁alueen	-10.0713
▁Joo	-10.0723
▁vannoi	-10.0728
▁os	-10.0732
kymmenen	-10.074
▁oikeu	-10.0747
▁laiva	-10.0747
▁perintöosaa	-10.0752
▁tielle	-10.0761
▁tuonela	-10.0761
▁päätä	-10.0763
▁aarte	-10.0775
▁suun	-10.0776
▁mielellä	-10.0781
▁todistukse	-10.0788
▁urho	-10.0789
▁tehkö	-10.079
▁hoviherra	-10.079
▁hyljänneet	-10.079
▁profeetoi	-10.079
▁syntivelka	-10.079
▁vääryyde	-10.079
▁asuinsija	-10.079
▁seitsemänsataa	-10.079
▁kumarsi	-10.079
▁hunaja	-10.079
▁nuoruude	-10.079
▁tuuli	-10.079
▁käden	-10.079
▁pahuude	-10.079
▁osoita	-10.0791
▁liitty	-10.0791
▁aikakirjas	-10.0791
▁viinipuu	-10.0792
▁kullan	-10.0792
▁käänsi	-10.0792
▁kuluttaa	-10.0793
▁suuhun	-10.0795
▁vainio	-10.0796
▁eloon	-10.0798
▁vanhurskaus	-10.0799
▁valkeus	-10.08
▁sydämenne	-10.0801
▁hävitti	-10.0804
▁puole	-10.0804
▁laula	-10.0805
▁sukupolvesta	-10.0805
▁Seba	-10.0807
▁oinaan	-10.0808
▁kalut	-10.081
▁sukupolveen	-10.081
▁tuotiin	-10.0811
▁alku	-10.0811
▁kunnioitta	-10.0812
▁leikkaa	-10.0814
▁turhaan	-10.0817
▁käskyjäni	-10.0817
▁voiman	-10.0819
▁omista	-10.0819
▁saastaiseksi	-10.0819
▁olevi	-10.0824
▁avuksi	-10.0832
▁korvat	-10.0833
tenä	-10.0842
▁kirjan	-10.0858
▁täyttää	-10.0861
▁tuomion	-10.0868
▁tyttäret	-10.0868
▁ensimmäise	-10.0887
▁jalkansa	-10.0895
▁siemene	-10.09
▁pohjoi	-10.09
▁herransa	-10.0905
▁toisena	-10.0915
▁luut	-10.0921
▁viisaude	-10.0922
▁ikuise	-10.0932
▁kasta	-10.0935
syt	-10.0953
ram	-10.0959
▁painoi	-10.096
▁kulkea	-10.0982
▁suori	-10.0983
▁jumalan	-10.0985
▁sydämessä	-10.0989
▁itsenne	-10.0995
▁Mene	-10.1004
▁perus	-10.1011
urska	-10.1017
▁edes	-10.1018
▁Gilead	-10.1022
▁virka	-10.1029
▁leeviläis	-10.1029
▁hevos	-10.1033
▁täyde	-10.1034
▁neuvon	-10.1034
▁vaate	-10.1034
▁ollessa	-10.1038
▁elän	-10.1052
▁Kaaleb	-10.1067
▁kerskaa	-10.1067
▁parhaa	-10.1067
▁seurakunnalle	-10.1067
▁sukukunnalta	-10.1067
▁suvuittain	-10.1067
▁talenttia	-10.1067
▁eefa	-10.1067
▁syrjä	-10.1067
▁vastapäätä	-10.1067
▁Karitsa	-10.1067
▁kuoltava	-10.1067
▁ovet	-10.1067
▁Jisreel	-10.1068
▁papille	-10.1068
▁verkko	-10.1068
▁onnettomuutta	-10.1068
▁Leea	-10.1068
▁valtaa	-10.1069
▁öljypuu	-10.1069
▁parta	-10.107
▁otetaan	-10.1071
▁nopeasti	-10.1071
▁armollinen	-10.1071
▁herätti	-10.1074
▁pakan	-10.1077
▁valhetta	-10.1077
▁Sil	-10.1077
▁uskollinen	-10.1078
▁öljyllä	-10.1079
▁itku	-10.1081
▁entise	-10.1084
▁kulkemaan	-10.1085
▁tuottaa	-10.1089
▁ympärinsä	-10.1091
▁eläisi	-10.1097
▁veljilleen	-10.1102
▁Sebaotin	-10.1102
▁sekelin	-10.111
▁aramilaise	-10.1113
▁vuodata	-10.1117
▁karjaa	-10.112
▁äitini	-10.1122
▁Jeremian	-10.1127
▁Oli	-10.1127
▁arv	-10.1135
▁käsissä	-10.1135
▁sanansaattajat	-10.1146
▁luovu	-10.1154
▁alta	-10.1154
▁pari	-10.1157
▁pahoi	-10.1163
ira	-10.117
▁Nouse	-10.1174
▁huuda	-10.1179
▁kaupunkinsa	-10.1191
▁Niinpä	-10.1199
▁selkään	-10.12
▁opetuslapsille	-10.1202
▁piiri	-10.1203
▁suur	-10.1204
▁silmien	-10.1204
valla	-10.121
▁käskyt	-10.1213
▁muun	-10.1216
▁käskyä	-10.122
▁aiko	-10.1222
sit	-10.123
ellen	-10.1233
▁toimittakoo	-10.1239
miehen	-10.1242
▁Isän	-10.1247
▁vihastu	-10.1249
▁Ahi	-10.1257
▁puhdistu	-10.1259
▁käskyjä	-10.1262
▁pahoin	-10.1264
▁kukkula	-10.1265
▁Hiskian	-10.1267
inensa	-10.1269
▁vanhurskaute	-10.1269
▁Tah	-10.1275
▁kahdeksankymmen	-10.1287
▁erot	-10.1287
Vie	-10.1298
vut	-10.1315
▁ryhtyi	-10.133
▁asetu	-10.1337
▁ulko	-10.134
▁viljaa	-10.1342
▁ympärileikkaama	-10.1347
▁kahdes	-10.1347
▁edelleen	-10.1353
▁kilpe	-10.1353
▁perhekunnittain	-10.1353
▁Viisa	-10.1353
▁epäjumali	-10.1353
▁ovella	-10.1353
▁poikkea	-10.1353
▁riivaaja	-10.1353
▁vihmo	-10.1353
▁polku	-10.1353
▁vaatteita	-10.1353
▁halpana	-10.1353
▁korkeude	-10.1353
▁kiroukse	-10.1353
▁viitta	-10.1354
▁pellava	-10.1354
▁pyhäkön	-10.1354
▁halaja	-10.1354
▁Siilo	-10.1355
▁aikoi	-10.1355
▁seitsemäs	-10.1356
▁Seiri	-10.1356
▁näytti	-10.1357
▁vainaja	-10.1358
▁pyhäkköön	-10.1358
▁Jooah	-10.136
▁sorme	-10.1362
▁myi	-10.1363
▁sydämessään	-10.1364
▁vatsa	-10.1365
▁itselleni	-10.1365
▁sanottiin	-10.1366
▁hevoset	-10.1368
▁luvun	-10.1371
▁muuttu	-10.1381
▁kotka	-10.1382
▁pojilleen	-10.1385
▁riistä	-10.1385
▁syömään	-10.1387
▁uskosta	-10.1389
▁hama	-10.1393
issaan	-10.1399
`?	-10.1402
▁anta	-10.1404
▁opettaa	-10.1407
har	-10.1412
▁perusta	-10.1414
▁tein	-10.1415
▁polveen	-10.1416
▁päivi	-10.142
▁esille	-10.1421
▁suola	-10.1444
isesta	-10.1446
▁korkealle	-10.1452
▁elo	-10.1455
▁hyvänsä	-10.1461
▁arki	-10.1474
▁valtaistuimen	-10.1475
▁Jerikon	-10.1484
▁karjan	-10.1495
▁istuivat	-10.1508
▁majan	-10.1509
▁näytä	-10.1535
▁koot	-10.1538
▁saan	-10.1539
▁ruumis	-10.1539
▁mieleen	-10.1548
kansa	-10.1548
▁henkiin	-10.1565
utuu	-10.1566
▁asetan	-10.1569
▁varas	-10.1571
▁pakene	-10.1584
▁tapp	-10.1589
▁kuolisi	-10.1591
▁uskossa	-10.1599
▁juutalais	-10.1605
▁luola	-10.1616
▁yhteysuhri	-10.1623
▁kunnioit	-10.1625
▁kive	-10.1632
▁ava	-10.164
▁ateria	-10.1647
▁Beerseba	-10.1647
▁Hilkia	-10.1647
▁jalopeura	-10.1647
▁kohdalle	-10.1647
▁kuukautta	-10.1647
▁purppuranpunais	-10.1647
▁kädet	-10.1647
▁palvella	-10.1647
▁perkele	-10.1647
▁ympäröi	-10.1647
▁säädetty	-10.1647
▁mieltä	-10.1647
▁vanhinten	-10.1647
▁sarvi	-10.1647
▁papeille	-10.1648
▁lupaus	-10.1649
▁lante	-10.165
▁Hamati	-10.1651
▁häviä	-10.1651
▁päättänyt	-10.1652
▁kyynel	-10.1653
▁lepää	-10.1653
▁juutalaisia	-10.1654
Tehkää	-10.166
▁vasemmalle	-10.1661
▁laaksoon	-10.1663
▁pelkäsivät	-10.1666
▁omiksi	-10.1668
▁pese	-10.1671
▁ollessaan	-10.168
▁vannonut	-10.1681
▁vaiti	-10.1685
▁edellänsä	-10.1685
▁voittaa	-10.1688
▁korjaa	-10.1694
▁aro	-10.1697
▁käsiisi	-10.17
▁aasin	-10.1703
▁leiri	-10.1709
▁tuleen	-10.1714
▁laissa	-10.1715
▁molempi	-10.1718
▁pui	-10.172
▁vuorille	-10.1726
▁kirkkauden	-10.1751
▁perintöosansa	-10.1756
▁Joosualle	-10.1778
▁mah	-10.1779
▁ilmoitan	-10.1814
▁tapaa	-10.1815
▁leiriyty	-10.1822
▁nostaa	-10.1823
▁hyvi	-10.1824
▁muisti	-10.1827
▁kaikkialla	-10.1851
▁tyttäre	-10.1853
▁Joosuan	-10.1863
mansa	-10.1864
▁opet	-10.1866
▁kansaani	-10.1868
▁ilmoit	-10.187
▁korja	-10.1874
▁Val	-10.1875
▁voimassa	-10.1884
▁veisaa	-10.1885
▁perä	-10.1886
▁liia	-10.1904
nee	-10.1913
▁teemme	-10.1913
▁turha	-10.192
hdu	-10.1926
▁kiitos	-10.1926
ettaisiin	-10.1926
▁laitume	-10.1932
▁haltuun	-10.1936
Oi	-10.194
▁Libanon	-10.1944
▁mielisty	-10.1945
▁vahingo	-10.195
▁Sebuloni	-10.195
▁Siidon	-10.195
▁kansoille	-10.195
▁kuningatar	-10.195
▁laupeutta	-10.195
▁pimeyden	-10.195
▁pimeys	-10.195
▁rohkea	-10.195
▁vapahta	-10.195
▁Joohanan	-10.195
▁riensi	-10.195
▁maitoa	-10.195
▁reuna	-10.195
▁kaunii	-10.195
▁liikku	-10.195
▁iäti	-10.1951
▁kohtu	-10.1951
▁mullikan	-10.1951
▁jokaiselle	-10.1951
▁viidentenä	-10.1951
▁kotona	-10.1951
▁tappaja	-10.1951
▁valtakunnassa	-10.1951
▁kaltaiseksi	-10.1952
▁pohjoiseen	-10.1952
▁todistuksen	-10.1952
▁sisarensa	-10.1955
▁vuoristoon	-10.1955
▁vuodatti	-10.1956
▁setri	-10.1956
▁sido	-10.1959
▁syötävä	-10.1959
▁omaksesi	-10.1964
▁koira	-10.1966
▁rikkonut	-10.1966
▁etsimään	-10.1966
▁käsiinsä	-10.1966
▁tiennyt	-10.1968
▁herät	-10.1968
▁kuolleit	-10.197
sydäm	-10.1972
▁tultuaan	-10.1975
▁itseään	-10.1977
▁valmistanut	-10.1978
▁valmisti	-10.1978
▁sanovan	-10.198
▁ikä	-10.1985
▁kaatuu	-10.1986
▁Aak	-10.1988
▁kääntyivät	-10.1988
▁vihi	-10.1992
▁pelastanut	-10.1996
▁juoma	-10.1999
▁viinin	-10.2005
▁syönyt	-10.201
▁vanhurskaan	-10.2012
▁kohtasi	-10.2017
jille	-10.2019
▁voittivat	-10.2019
▁tahdotte	-10.202
▁itseni	-10.2029
▁Noo	-10.2039
▁puhdist	-10.2042
▁Sy	-10.2051
▁valan	-10.2052
▁uskoneet	-10.2062
▁kuolevat	-10.2078
▁sanoneet	-10.208
▁Joonatanin	-10.208
▁heimolle	-10.2087
▁Menkää	-10.2089
▁vuode	-10.2094
▁käsken	-10.2099
▁tuoneet	-10.21
▁väärin	-10.2106
▁kostan	-10.2122
▁siemen	-10.2123
▁Ain	-10.2127
▁olitte	-10.2129
Et	-10.213
▁omin	-10.2137
alainen	-10.2154
▁päiväksi	-10.2159
▁sanansaattaja	-10.2175
▁pur	-10.2175
▁verho	-10.2185
▁kuulet	-10.2203
Tulkaa	-10.2205
Älköön	-10.2205
pyhä	-10.2222
▁tappoi	-10.2224
▁Har	-10.2226
▁julisti	-10.2226
▁pue	-10.2229
▁pysyvä	-10.2235
▁Daan	-10.2237
joita	-10.2239
▁vanki	-10.2244
▁vihollisen	-10.2247
▁tulo	-10.2255
▁vallan	-10.2257
3	-10.2262
▁kahta	-10.2263
▁Oobed	-10.2263
▁Nebukadressar	-10.2263
▁löytää	-10.2263
▁nälänhätä	-10.2263
▁puhalsi	-10.2263
▁suitsuketta	-10.2263
▁ylhäis	-10.2263
▁ehtoo	-10.2263
▁vuorelta	-10.2263
▁Merari	-10.2263
▁pitämään	-10.2263
▁ikuinen	-10.2263
▁Usko	-10.2263
▁härän	-10.2263
▁huoli	-10.2263
▁ilmi	-10.2263
▁säädös	-10.2263
▁toteutu	-10.2263
▁kahdentena	-10.2263
▁kielsi	-10.2263
▁Etelä	-10.2263
▁saattoi	-10.2264
▁huono	-10.2264
▁punnit	-10.2264
▁vieressä	-10.2265
▁tuntee	-10.2266
▁terällä	-10.2266
▁ottaisi	-10.2266
▁luule	-10.2266
▁pystytti	-10.2266
▁sidottu	-10.2266
▁kutsuttiin	-10.2267
▁kanaanilaiset	-10.2268
▁per	-10.227
▁nuort	-10.2272
▁vihollisesi	-10.2272
▁vanhurskaat	-10.2274
▁kansaansa	-10.2277
▁aio	-10.228
▁kulma	-10.2282
▁Baasanin	-10.2283
puhta	-10.2288
abb	-10.2292
▁temppelistä	-10.2294
▁salassa	-10.2295
▁Jooas	-10.2297
▁menette	-10.2304
udella	-10.2307
▁palvelijain	-10.2311
▁Abia	-10.2318
▁unen	-10.2319
▁puhtaaksi	-10.2321
miseen	-10.2321
▁tarkkaa	-10.2326
O	-10.2326
▁viime	-10.2328
▁turvassa	-10.2335
▁jääneet	-10.2342
▁kaik	-10.2344
▁Olkoon	-10.2347
▁puhuneet	-10.2348
▁maista	-10.2352
▁saakoon	-10.2367
▁ilmaise	-10.238
▁vitsa	-10.239
▁haava	-10.2402
▁veljen	-10.2407
▁seurat	-10.2409
▁sairas	-10.241
▁kallista	-10.2411
▁saaliin	-10.2416
▁saalii	-10.2427
▁Jumalaanne	-10.2429
▁tytärtä	-10.2441
▁luonut	-10.245
▁Juudaa	-10.2451
▁kallis	-10.2459
eluja	-10.2506
▁varasta	-10.2507
▁asut	-10.2516
▁painon	-10.2518
virran	-10.2528
▁rasvan	-10.2533
▁Saadok	-10.2539
▁kokoontui	-10.2552
▁taivas	-10.2554
▁siiv	-10.2574
imen	-10.2575
ltansa	-10.258
▁oksa	-10.2583
)	-10.2585
▁Herodes	-10.2585
▁Kaikkivaltias	-10.2585
▁julki	-10.2585
▁midianilais	-10.2585
▁orjantappura	-10.2585
▁otollinen	-10.2585
▁sotaurho	-10.2585
▁sukukuntien	-10.2585
▁säätänyt	-10.2585
▁tähtenne	-10.2585
▁hetkellä	-10.2585
▁kohosi	-10.2585
▁murehti	-10.2585
▁häpäise	-10.2585
▁rangaistakoon	-10.2585
▁huutaa	-10.2585
▁haavoi	-10.2586
▁leveys	-10.2586
▁vuonna	-10.2586
▁Neba	-10.2586
▁muinais	-10.2586
▁tervehti	-10.2587
▁oikeuksia	-10.2587
▁ammonilaiset	-10.2589
▁nälä	-10.2589
▁raunioiksi	-10.2591
▁perheen	-10.2591
kojen	-10.2592
▁vuotaa	-10.2592
▁asumus	-10.2593
▁kuolleen	-10.2593
▁myrsky	-10.2594
▁isäänsä	-10.2594
▁kuohu	-10.2594
▁omaksenne	-10.2597
▁pasunaan	-10.2606
▁korkeasti	-10.261
▁valittu	-10.2611
▁lähtevät	-10.2611
▁esipihaan	-10.2611
▁torni	-10.2615
▁asera	-10.2617
▁tuonelaan	-10.2622
▁maailmassa	-10.2626
▁ryöst	-10.2627
▁Libanonin	-10.2635
ikoi	-10.264
▁iloitsee	-10.2641
▁pitki	-10.2645
▁päivällä	-10.2649
▁teetti	-10.2651
▁ajoivat	-10.2654
▁lähelle	-10.2654
▁syntinsä	-10.2658
▁Juudassa	-10.2661
kymmenes	-10.2662
▁Jeesusta	-10.2666
▁tehdään	-10.2668
▁oikeassa	-10.2669
▁perintöosaksi	-10.2671
▁näen	-10.268
▁Naftalin	-10.2681
▁lähestyi	-10.2701
▁koetel	-10.2702
▁Jooabin	-10.2721
▁päälliköt	-10.2721
▁tietoa	-10.2726
▁hengessä	-10.2728
▁tuomaan	-10.2733
▁Joojadan	-10.274
▁oikeamielis	-10.2743
▁voimansa	-10.2747
▁huolen	-10.2769
▁lähetä	-10.2769
▁lahjan	-10.2773
▁kirkas	-10.2774
uksesta	-10.2781
▁pohj	-10.2781
▁Tai	-10.2789
▁kokoan	-10.2794
▁kappale	-10.281
▁kaista	-10.2811
▁Een	-10.2815
▁jakoi	-10.2816
▁suusi	-10.2818
▁pelastukse	-10.2826
▁uhrikukkula	-10.2828
▁omia	-10.2832
▁samana	-10.2837
▁Eela	-10.284
▁suojaa	-10.2845
▁elämään	-10.2852
palvelija	-10.2857
B	-10.2861
▁Ah	-10.2862
▁Al	-10.2865
▁Gibeoni	-10.2868
▁ensimmäis	-10.2869
▁vaimot	-10.2877
▁Oi	-10.2883
▁toisia	-10.2897
koja	-10.2903
▁löysi	-10.2903
▁surmattu	-10.2915
▁hämmästy	-10.2917
Opettaja	-10.2919
▁Tervehdy	-10.2919
▁jäännökse	-10.2919
▁kohdata	-10.2919
▁liitonarkki	-10.2919
▁rypäle	-10.2919
▁tasango	-10.2919
▁Ebjatar	-10.2919
▁länteen	-10.2919
▁nuhteli	-10.2919
▁pyrki	-10.2919
▁repäisi	-10.2919
▁hedelmiä	-10.2919
▁vedellä	-10.2919
▁vikauhri	-10.2919
▁kohdusta	-10.2919
▁turhi	-10.2919
▁vetäyty	-10.2919
▁Jefta	-10.2919
▁auttaja	-10.2919
▁kullakin	-10.2919
▁riippu	-10.2919
▁Nuun	-10.2919
▁määrännyt	-10.2919
▁yhtenä	-10.2919
▁putosi	-10.292
▁avio	-10.292
▁Sooba	-10.292
▁valtia	-10.292
▁korotti	-10.292
▁viedä	-10.292
▁omi	-10.2922
▁kahl	-10.2925
▁hyötyä	-10.2927
▁Jooaan	-10.2927
irottu	-10.2928
▁ulottu	-10.2929
▁pappeja	-10.293
▁erikseen	-10.2931
kkoja	-10.2932
ttäköön	-10.2939
▁kääntyneet	-10.294
▁taivasta	-10.2945
▁iankaikkiseen	-10.2949
▁ihmisille	-10.2951
▁hetki	-10.2955
▁täydellis	-10.2956
▁sallinut	-10.2958
▁Joona	-10.2959
▁tappoivat	-10.296
▁vuorilla	-10.2964
▁mahtava	-10.2965
▁ikeen	-10.2971
▁toimita	-10.2975
▁jumalat	-10.2976
Emme	-10.2978
▁palvelijaisi	-10.2984
▁joille	-10.2986
▁keski	-10.2989
▁lohdutukse	-10.299
▁tuomitsee	-10.299
▁Pu	-10.299
teko	-10.2995
▁vertaista	-10.2996
neinä	-10.3017
työ	-10.3017
▁pelkäävät	-10.3019
▁valheen	-10.3021
▁polttakoo	-10.3025
▁saamme	-10.3026
▁kuulette	-10.3028
▁Par	-10.3037
▁tiedon	-10.3042
▁palata	-10.3045
▁ahdistus	-10.3054
▁Tyyron	-10.3061
▁tuonut	-10.3078
▁lähtien	-10.3086
▁vääri	-10.3089
▁armosi	-10.3109
▁talosta	-10.3113
▁Mikä	-10.3115
▁tieto	-10.3122
J	-10.3127
ukselle	-10.3132
▁pais	-10.3146
▁päämiehen	-10.3156
▁toimittaa	-10.3162
▁valloitta	-10.3163
▁maasi	-10.3165
▁kuolemaa	-10.3166
▁rinna	-10.3168
▁näkevä	-10.3176
▁suitsutus	-10.3179
▁yhty	-10.3183
▁unhot	-10.3193
▁uskoa	-10.3197
▁herättä	-10.3198
puolen	-10.3206
▁syntisi	-10.3209
▁lohdut	-10.3211
▁ikuisi	-10.3211
▁eteeni	-10.3212
▁lyön	-10.3225
▁perintö	-10.3227
▁lisä	-10.3244
▁jumalaa	-10.3246
▁päätty	-10.3252
▁Ussia	-10.3252
▁maanpiirin	-10.3252
▁edessänsä	-10.3253
▁vahvist	-10.3259
▁käteen	-10.3262
▁sapatin	-10.3263
0	-10.3264
Nouskaa	-10.3264
▁Hengessä	-10.3264
▁miehestä	-10.3264
▁noutamaan	-10.3264
▁sukukunnat	-10.3264
▁tähdet	-10.3264
▁tähtensä	-10.3264
▁kaukaise	-10.3264
▁kehoita	-10.3264
▁pikkukarja	-10.3264
▁tunkeutu	-10.3264
▁Hananja	-10.3264
▁hävitetään	-10.3264
▁kylineen	-10.3264
▁puhalta	-10.3264
▁suvut	-10.3264
▁Persia	-10.3264
▁herjaa	-10.3264
Lähde	-10.3264
▁kannettava	-10.3264
▁puolust	-10.3264
▁laittoi	-10.3264
▁eteesi	-10.3264
▁kymmenykset	-10.3264
▁Amnon	-10.3264
▁tytärkaupungit	-10.3264
▁Koorah	-10.3264
Salli	-10.3264
▁pitäisi	-10.3264
▁epäjumala	-10.3264
▁takana	-10.3264
▁villi	-10.3265
▁menehty	-10.3265
▁kenellekään	-10.3266
▁inho	-10.3267
▁elävien	-10.3267
▁herralleni	-10.3268
▁seurakuntaa	-10.3271
▁levitti	-10.3273
▁ilmestysmajassa	-10.3273
▁viedään	-10.3274
▁kiellä	-10.3275
▁niska	-10.3279
▁seisovan	-10.3279
▁käskyjänsä	-10.3281
▁tunsi	-10.3287
▁pyysivät	-10.3291
▁puhetta	-10.3293
▁Olka	-10.3297
▁asuva	-10.33
▁uhraamaan	-10.3302
▁hyviä	-10.3305
Kenen	-10.3307
▁rakkaani	-10.3308
▁pelastus	-10.3309
▁kirjoitus	-10.331
▁ruokauhrin	-10.3311
▁kimppuunsa	-10.3312
▁näyttää	-10.3312
▁Ottakaa	-10.3314
▁kedolle	-10.3314
▁kirjassa	-10.3317
▁raavasta	-10.3319
▁jäivät	-10.332
▁toimeen	-10.3321
▁opettaja	-10.3322
▁Joosefille	-10.3325
▁Asseri	-10.3326
▁päästää	-10.3326
▁jalat	-10.3327
llisia	-10.3327
▁hukkuvat	-10.3331
▁petosta	-10.3335
▁kuninkaallise	-10.3346
ttaman	-10.3352
kymmene	-10.3357
▁linnassa	-10.3358
▁oksi	-10.3358
▁keskellänsä	-10.3366
▁Tule	-10.3379
▁pyörä	-10.3382
▁kivet	-10.3385
▁Toise	-10.3387
▁peitä	-10.3389
▁syvä	-10.34
ttaviksi	-10.3408
▁ratk	-10.3409
▁tekijä	-10.341
kunta	-10.3413
▁ilolla	-10.3419
▁Joosian	-10.3423
▁päällysmieh	-10.3426
▁rikas	-10.3444
▁taidollis	-10.3474
▁viinitarhan	-10.3492
▁asiaa	-10.351
▁paimenta	-10.3514
▁nälkään	-10.3532
▁syntien	-10.3538
▁päämiesten	-10.3539
▁kauttansa	-10.3541
▁enne	-10.3545
▁siunauksen	-10.356
▁tulisivat	-10.3562
Nyt	-10.3563
Kuulkaa	-10.3563
laakso	-10.3563
▁hävitä	-10.3572
▁yhdeks	-10.3576
▁kukist	-10.3599
▁hedelmät	-10.3604
▁hylkäsi	-10.3605
▁ruua	-10.3608
euraavana	-10.3619
▁ottako	-10.362
▁kelpaa	-10.362
▁viivy	-10.3621
pellavalangoista	-10.3621
▁Baesa	-10.3621
▁Jeesua	-10.3621
▁Sallum	-10.3621
▁aivoituks	-10.3621
▁kansakunnat	-10.3621
▁langoista	-10.3621
▁ovenvartija	-10.3621
▁turhuutta	-10.3621
▁hyökkäsi	-10.3621
▁ikkuna	-10.3621
▁äidin	-10.3621
▁pohjoisesta	-10.3621
▁paransi	-10.3621
▁väkeä	-10.3621
▁puolta	-10.3621
▁nimittäin	-10.3621
▁vaskea	-10.3621
▁pituus	-10.3621
▁tavoin	-10.3621
▁kullekin	-10.3621
▁hiekka	-10.3621
▁pahuute	-10.3621
▁jumalankuva	-10.3621
▁totuudessa	-10.3622
▁sellainen	-10.3622
▁rakkautta	-10.3622
▁tehdy	-10.3622
Päästä	-10.3622
▁Kaike	-10.3623
▁nautti	-10.3623
▁minne	-10.3623
▁polu	-10.3623
▁hoita	-10.3623
▁revi	-10.3624
▁paljaa	-10.3624
▁autua	-10.3625
▁päähänsä	-10.3626
▁kymmenentuhatta	-10.3626
▁alueelle	-10.3628
▁noja	-10.3628
▁palmu	-10.3629
▁ympärileikkaa	-10.3629
▁Isältä	-10.3629
▁Serah	-10.363
▁vieras	-10.363
▁teurasti	-10.363
▁haara	-10.3631
▁kaduilla	-10.3632
▁Esra	-10.3635
▁veteen	-10.3637
▁karkoittanut	-10.3637
▁vasten	-10.364
Minull	-10.3641
▁joutunut	-10.3642
▁joutuneet	-10.3644
▁rikkoo	-10.3649
▁rukoilemaan	-10.365
▁kädessään	-10.3652
Tulkoo	-10.3656
lek	-10.3656
▁Ruubenin	-10.3657
▁rangaist	-10.3657
▁leirissä	-10.3657
▁hauta	-10.366
▁antautu	-10.366
Rauha	-10.3663
▁uskoivat	-10.3663
▁Suuri	-10.3664
▁aamuna	-10.3666
▁ylistän	-10.367
▁puhdasta	-10.3676
▁kaikella	-10.3678
▁kuolla	-10.3693
▁veljille	-10.3695
▁muuria	-10.37
▁maailmaan	-10.3704
▁tänään	-10.3707
▁vaelsivat	-10.3715
▁valloit	-10.3717
▁polttouhria	-10.3719
▁ihmeellis	-10.3722
▁Iisain	-10.3728
▁laista	-10.3732
▁koston	-10.3737
▁kutsuu	-10.374
▁ystäv	-10.3743
▁Kiis	-10.3745
▁erämaa	-10.3745
lyt	-10.3748
▁pyhiä	-10.3749
▁antavat	-10.3751
▁Absalomin	-10.3754
▁kaata	-10.3754
▁äitisi	-10.3755
▁kerubit	-10.3758
▁syökää	-10.3759
evä	-10.3764
▁rakka	-10.3779
▁poista	-10.3782
Sanokaa	-10.3792
▁suuremma	-10.3793
▁Katsokaa	-10.3796
▁tyköä	-10.3815
▁Joojada	-10.3816
▁paino	-10.3833
▁Jumalaansa	-10.3845
▁saatan	-10.3862
▁armahta	-10.389
▁Aasan	-10.3892
▁filistealais	-10.3894
▁kummall	-10.3898
▁tuomita	-10.3898
▁tarkoit	-10.3907
▁lukumäärän	-10.3915
▁pojille	-10.3916
▁siirty	-10.3926
kirja	-10.3933
▁turmion	-10.394
▁tultua	-10.3961
▁armosta	-10.3986
▁pimeä	-10.3987
▁pasunan	-10.3989
▁syökse	-10.399
▁edeltä	-10.399
▁Vanhurskaa	-10.3991
▁aarrekammio	-10.3991
▁edustalle	-10.3991
▁mielisuosio	-10.3991
▁opetuslasten	-10.3991
▁portissa	-10.3991
▁sotarintaan	-10.3991
▁täältä	-10.3991
▁kuivettu	-10.3991
▁mietti	-10.3991
▁portto	-10.3991
▁sukupolvi	-10.3991
▁vanhurskaudessa	-10.3991
▁ymmärsi	-10.3991
▁Henkeä	-10.3991
▁selässä	-10.3991
▁synneistä	-10.3991
▁aasintamma	-10.3991
▁ankara	-10.3991
▁kahdeksantena	-10.3991
▁avoin	-10.3991
▁iloiten	-10.3992
▁totuus	-10.3993
▁Armo	-10.3993
▁kirjoittanut	-10.3995
▁kasvoillensa	-10.3995
▁silmin	-10.3995
▁Sana	-10.4003
▁sateen	-10.4004
Olet	-10.4007
▁valitsee	-10.4007
▁Koo	-10.4009
ttämään	-10.4011
▁viittä	-10.4014
▁ilmestyy	-10.4014
▁Samariaan	-10.4018
▁viinistä	-10.4019
▁ryhty	-10.4022
▁tahtoneet	-10.4024
▁Antakaa	-10.4032
▁vaadi	-10.4032
▁maihin	-10.4035
▁mielensä	-10.4035
▁selittä	-10.4036
▁Midianin	-10.4041
▁Daanin	-10.4046
▁veljenne	-10.4052
▁kulutt	-10.4056
▁Tulkaa	-10.4061
▁kertoivat	-10.4071
isee	-10.4079
▁Kar	-10.4081
▁ilmoita	-10.409
▁nouda	-10.4095
▁hengestä	-10.4104
▁ilma	-10.4107
vina	-10.4117
▁Beeteli	-10.412
▁Sodoman	-10.4122
▁Bi	-10.4132
▁puita	-10.4138
▁omassa	-10.4143
▁vannoen	-10.415
▁siten	-10.4162
▁esipiha	-10.417
▁käsiksi	-10.4176
▁Taa	-10.4177
▁arpaa	-10.4194
▁Joosia	-10.4202
▁Jeriko	-10.4205
▁kirjeen	-10.4222
▁kostaa	-10.4222
▁tietäisi	-10.4234
▁Seitsemän	-10.4235
▁pahasta	-10.4239
▁suuta	-10.4241
▁ensimmäisen	-10.4242
▁vapautta	-10.4258
▁maksaa	-10.4258
▁pellon	-10.4266
sekelin	-10.4294
▁heissä	-10.4297
Isä	-10.432
▁seuraava	-10.4325
▁neljäs	-10.4326
▁erää	-10.4326
▁antako	-10.4335
▁antava	-10.4336
▁menkö	-10.4353
▁Goo	-10.4374
▁lähimmä	-10.4376
9	-10.4376
▁etiopialai	-10.4376
▁ikävöi	-10.4376
▁kohdannut	-10.4376
▁portit	-10.4376
▁suvulle	-10.4376
▁uhrikukkuloi	-10.4376
▁Baaruk	-10.4376
▁Seruja	-10.4376
▁keisari	-10.4376
▁rakkaudessa	-10.4376
▁siirtä	-10.4376
▁Aahas	-10.4376
▁vuorten	-10.4376
▁poimi	-10.4376
▁tunteneet	-10.4376
▁reväis	-10.4376
▁kykene	-10.4376
▁rakentava	-10.4376
▁viaton	-10.4376
▁paikalle	-10.4376
▁Kehati	-10.4376
▁murskaa	-10.4376
▁Taamar	-10.4376
▁kahtakymmentä	-10.4376
▁Jootam	-10.4376
▁mukaisesti	-10.4377
▁ohja	-10.4377
▁tehköön	-10.4377
▁muukalaisena	-10.4377
▁setripuu	-10.4377
▁katsee	-10.4377
▁ensiksi	-10.438
▁kokonaan	-10.4381
▁kasvoilleen	-10.4381
▁velka	-10.4381
▁naisia	-10.4382
▁luopu	-10.4382
▁Teidän	-10.4382
▁pantiin	-10.4383
▁tekosi	-10.4384
▁teettänyt	-10.4384
▁Hall	-10.4384
▁hävitys	-10.4385
▁käskyjen	-10.4385
▁polttaa	-10.4386
▁kieltänyt	-10.4389
▁nuhteeton	-10.439
▁majoi	-10.439
▁voiteli	-10.439
▁hakkaa	-10.439
▁Samariassa	-10.4391
▁täyttänyt	-10.4392
▁askelee	-10.4392
▁antaneet	-10.4392
▁karkoitti	-10.4392
▁Bil	-10.4396
mitan	-10.4397
▁elossa	-10.4398
▁panna	-10.44
▁etelään	-10.4401
▁palvelijainsa	-10.4402
▁asettunut	-10.4402
▁voittanut	-10.4402
▁eläinten	-10.4405
▁hankkinut	-10.4406
▁tyttäri	-10.4413
▁päämiehe	-10.4414
▁Gaadin	-10.4419
▁seisomaan	-10.4426
▁ruokauhriksi	-10.4433
▁sanokoon	-10.445
Ihmis	-10.4456
▁yöksi	-10.4457
▁uhrilahjana	-10.4466
▁uhrikukkulat	-10.448
▁soitta	-10.4491
▁Too	-10.4502
▁rakensivat	-10.4502
▁hankkii	-10.4509
▁lampun	-10.4512
▁idän	-10.452
▁vitsaus	-10.453
▁tuoksuva	-10.4544
▁rikoksen	-10.4546
▁kokoaa	-10.4553
▁puolestani	-10.4563
▁käyneet	-10.4564
▁tasa	-10.4568
▁siksi	-10.4573
▁kuritta	-10.4593
▁Isaskari	-10.4594
▁pääni	-10.4602
▁vihamiehi	-10.4607
▁valitu	-10.4625
▁onnettomuude	-10.4636
▁laste	-10.4653
▁ylpeä	-10.4669
▁Vaik	-10.4671
▁lapse	-10.4694
▁kohota	-10.4701
▁Kau	-10.4716
Ottakaa	-10.4717
▁julistaa	-10.4718
Nämä	-10.4718
Kosk	-10.4719
▁vuodat	-10.4721
▁kaitse	-10.4724
▁maahansa	-10.4733
▁mielettöm	-10.4739
▁Mispa	-10.4745
▁ruhtinai	-10.475
▁siunat	-10.4757
▁pysty	-10.476
▁hampa	-10.4769
▁kenelle	-10.4774
▁sääd	-10.4775
▁särje	-10.4776
▁Benhadad	-10.4776
▁Korkeimman	-10.4776
▁Mesullam	-10.4776
▁hebrealais	-10.4776
▁juhli	-10.4776
▁kasvoni	-10.4776
▁kimppuusi	-10.4776
▁kirjakäärö	-10.4776
▁nuorukainen	-10.4776
▁pakanakansat	-10.4776
▁pojista	-10.4776
▁profeetan	-10.4776
▁puhkesi	-10.4776
▁Aabel	-10.4776
▁asukasten	-10.4776
▁hivviläis	-10.4776
▁kapinoi	-10.4776
▁kyyhkys	-10.4776
▁laidun	-10.4776
▁nöyrty	-10.4776
▁kansoista	-10.4776
▁tempaa	-10.4776
▁kokoontuneet	-10.4776
▁torvi	-10.4776
vastoin	-10.4776
▁arvioi	-10.4776
▁punasinisistä	-10.4776
▁virrat	-10.4776
▁hurskaa	-10.4776
▁parantu	-10.4776
▁vastata	-10.4776
▁ojenna	-10.4776
▁huudon	-10.4777
▁Hadad	-10.4777
▁kääri	-10.4778
▁Arnon	-10.4778
▁hovi	-10.4778
▁sytyttä	-10.4778
▁Booas	-10.4778
▁totuutta	-10.4779
▁semmois	-10.478
▁päämiehiä	-10.478
▁lammasten	-10.4781
▁piiritti	-10.4782
▁voimallinen	-10.4782
▁virittä	-10.4789
▁otin	-10.4789
▁haju	-10.479
▁nuorukais	-10.4791
▁Noomi	-10.4793
▁ulkona	-10.4795
▁toimittamaan	-10.4799
▁käskystä	-10.4799
▁toimittanut	-10.48
▁omaksensa	-10.4801
▁Koko	-10.4806
▁ihmiselle	-10.4806
▁lapsenne	-10.4806
▁erämaasta	-10.481
▁pojillensa	-10.4812
▁tyhjäksi	-10.4813
▁tartu	-10.4815
▁vaunut	-10.4815
jesi	-10.4815
▁soitti	-10.4818
▁poiki	-10.4835
▁pahoja	-10.4836
▁säilyttä	-10.484
▁vään	-10.484
▁rukoukseni	-10.484
▁jättää	-10.4845
▁laskivat	-10.4848
▁Sama	-10.485
▁veti	-10.485
▁pisti	-10.4854
▁kaikkinaist	-10.4857
▁avulla	-10.4868
▁näkijä	-10.4872
▁kosketti	-10.4872
▁tiensä	-10.4872
▁välille	-10.4905
▁kappalee	-10.4908
▁palvelevat	-10.4918
▁pysyi	-10.492
▁Egypti	-10.4921
▁viipy	-10.4923
▁toisensa	-10.4932
▁aseti	-10.4933
▁Juudasta	-10.495
▁kärsiä	-10.4951
▁huole	-10.4958
▁osu	-10.4967
▁rahat	-10.4976
▁porttie	-10.4977
▁pettä	-10.4986
▁vastu	-10.4988
▁mal	-10.4996
▁luonasi	-10.4998
▁peljättä	-10.4998
▁Adonia	-10.5011
▁Tyyro	-10.5017
▁nu	-10.5041
▁olisitte	-10.5054
▁taitava	-10.5058
▁juopu	-10.5059
lev	-10.5067
▁sanomme	-10.509
▁jälj	-10.5094
▁istutta	-10.5095
uudella	-10.5119
Minkätähden	-10.5134
vaimo	-10.5139
▁Gaad	-10.5146
▁ohi	-10.5148
▁Juudaan	-10.5155
▁rahaa	-10.516
▁myö	-10.5163
▁viisa	-10.5166
▁varjele	-10.5168
▁nuhtee	-10.5177
▁keihä	-10.5182
▁katkera	-10.5186
läinen	-10.5191
▁turmele	-10.5192
▁Gassa	-10.5192
▁Iisebel	-10.5192
▁amorilaiset	-10.5192
▁hävitettäköön	-10.5192
▁kuukautena	-10.5192
▁pimeydessä	-10.5192
▁ravituiksi	-10.5192
▁ryhdy	-10.5192
▁salaliito	-10.5192
▁todisti	-10.5192
▁vaeltaneet	-10.5192
▁ylhäältä	-10.5192
▁isillenne	-10.5192
▁järkky	-10.5192
▁kasukan	-10.5192
▁synnistä	-10.5192
▁neitsyt	-10.5192
▁pauhina	-10.5192
▁päätökse	-10.5192
▁julke	-10.5192
▁heittäyty	-10.5192
▁sisälmy	-10.5192
▁huipu	-10.5192
▁nuhtele	-10.5192
▁synnit	-10.5192
▁kiivastu	-10.5193
▁kaukaa	-10.5193
▁nuhde	-10.5193
▁miniä	-10.5193
▁paennut	-10.5193
▁heitetään	-10.5193
▁koolle	-10.5193
▁koettele	-10.5193
▁vereen	-10.5194
▁ampu	-10.5194
▁nousta	-10.5194
▁terveeksi	-10.5194
▁Raamoti	-10.5194
▁yhdestä	-10.5195
▁Aromaa	-10.5195
▁huorin	-10.5196
▁rankaisematta	-10.5196
▁kuritusta	-10.5196
▁sisältä	-10.5196
▁surmannut	-10.5197
▁Moo	-10.5197
▁synnyttää	-10.5197
▁Abisai	-10.5198
▁pystyttänyt	-10.5198
▁tarjo	-10.5198
▁pystyssä	-10.5198
▁mielistynyt	-10.52
▁ääriin	-10.5201
▁sovitus	-10.5201
▁palkan	-10.5201
huudo	-10.5201
▁etupuol	-10.5202
▁näkemään	-10.5202
▁huonetta	-10.5202
▁luopunut	-10.5205
▁raavaita	-10.5205
▁painoinen	-10.5205
▁kolmetuhatta	-10.5205
▁palautta	-10.5207
▁puhuessaan	-10.5208
▁siementä	-10.521
▁anoi	-10.5212
▁toisianne	-10.5215
▁rikkoneet	-10.5215
▁opi	-10.5215
▁aikoja	-10.5217
▁juurelle	-10.5217
▁vuoristossa	-10.5218
▁raato	-10.5222
▁Iisakille	-10.5225
▁nuoli	-10.5227
▁yhteysuhriksi	-10.5227
▁kääntyvät	-10.5228
▁puno	-10.5231
▁ympärillään	-10.5233
▁eteis	-10.524
▁vapaaksi	-10.524
▁Jooabille	-10.5243
▁Beeteliin	-10.5244
▁käskynsä	-10.5249
▁lapsesi	-10.5249
▁Saadokin	-10.5253
▁työnsä	-10.5258
▁puuta	-10.5262
▁mieliksi	-10.5264
▁rukoilee	-10.527
kutakin	-10.5283
▁laaj	-10.5288
▁Amen	-10.5289
▁kuulemaan	-10.5289
▁kuulisi	-10.5299
▁synk	-10.53
▁sitoi	-10.5309
▁rukoilevat	-10.5313
▁sotivat	-10.5315
▁syyllis	-10.5329
▁jalkani	-10.5333
▁opetuks	-10.5336
▁johdatt	-10.5342
▁joivat	-10.5344
▁syntyivät	-10.535
▁sul	-10.5355
▁päivien	-10.5359
▁saarnaa	-10.5364
▁juomaan	-10.5368
▁vihaavat	-10.5374
▁halki	-10.5387
▁pääsisi	-10.5392
▁pysyvät	-10.54
▁Samaria	-10.5405
▁väärää	-10.5409
▁Isää	-10.5411
arempi	-10.5414
▁kirjanoppine	-10.5426
▁evankeliumi	-10.5429
▁vaimolle	-10.5434
▁kuolivat	-10.5438
▁perässä	-10.5446
▁toiste	-10.5477
▁kuljetti	-10.5496
▁egyptiläist	-10.55
▁Jumalaamme	-10.5503
▁riisu	-10.552
laisille	-10.5524
▁hätä	-10.5525
▁elävät	-10.5529
▁petollis	-10.5529
▁poikaansa	-10.5563
▁Puu	-10.5566
Amen	-10.5569
laulu	-10.557
▁johta	-10.5571
▁valtaistuime	-10.5591
▁todistus	-10.5602
▁vaatteen	-10.5615
▁tahra	-10.5621
inoastaan	-10.5623
▁helakanpunaisi	-10.5624
▁sydämeen	-10.5624
▁leivo	-10.5627
▁punasini	-10.5627
▁taisteli	-10.5627
▁väkevyyte	-10.5627
▁Etiopia	-10.5627
▁Galilean	-10.5627
▁Gomorra	-10.5627
▁akasiapuusta	-10.5627
▁kohdalta	-10.5627
▁kohoaa	-10.5627
▁laupias	-10.5627
▁osastoittain	-10.5627
▁osoitti	-10.5627
▁otollista	-10.5627
▁perissiläis	-10.5627
▁porton	-10.5627
▁purppura	-10.5627
▁päässeet	-10.5627
▁rohkais	-10.5627
▁vanhimmille	-10.5627
▁Hiiram	-10.5627
▁Serubbaabel	-10.5627
▁heräjä	-10.5627
▁rannalle	-10.5627
▁vaeltanut	-10.5627
▁hävittänyt	-10.5627
▁siipie	-10.5627
▁sodassa	-10.5627
▁annetut	-10.5627
▁kahteen	-10.5627
▁lännen	-10.5627
▁siunaus	-10.5627
▁lehmä	-10.5627
▁kyllin	-10.5627
▁karkelo	-10.5627
▁Karmel	-10.5627
▁sotaväen	-10.5627
▁Maaseja	-10.5627
▁sydämet	-10.5627
▁varrella	-10.5627
▁koski	-10.5627
▁isiemme	-10.5627
▁kalusto	-10.5627
▁pitäneet	-10.5627
▁kodissa	-10.5627
▁sisäpuolella	-10.5627
▁uudestaan	-10.5627
▁Palvel	-10.5628
▁silmiä	-10.5628
▁miehistä	-10.5628
▁Hasael	-10.5628
▁pienet	-10.5628
▁katselmus	-10.5628
▁taulu	-10.5628
▁neuvosto	-10.5628
▁pudist	-10.5629
▁lakkaamatta	-10.5629
▁hajotan	-10.5629
▁keskenänsä	-10.563
▁ammonilaisia	-10.563
▁harhail	-10.563
▁rikkomus	-10.563
▁kanaanilaisten	-10.5631
▁peljästyivät	-10.5632
▁Toinen	-10.5632
▁tunnetuksi	-10.5633
▁rivi	-10.5633
▁lyödä	-10.5633
▁taistelemaan	-10.5636
▁napis	-10.5638
▁autioiksi	-10.5639
▁ilmestynyt	-10.564
▁hetken	-10.564
▁isälleen	-10.5641
▁paljous	-10.5643
▁uskollisesti	-10.5645
mattomat	-10.5646
kaltaista	-10.5646
▁kaupunkien	-10.5646
▁odotti	-10.5647
▁Tar	-10.565
▁isien	-10.565
▁sattu	-10.5666
▁annetta	-10.5668
▁Hyvä	-10.5671
▁johti	-10.5673
▁turmiota	-10.5673
▁luoksenne	-10.5678
▁luoksemme	-10.5682
▁hoitaja	-10.5682
▁voitele	-10.5683
▁nimeänsä	-10.5684
▁kuuden	-10.5689
▁liittoa	-10.5693
Siinä	-10.5698
▁laaksossa	-10.5699
▁esine	-10.5701
▁lammasta	-10.5701
▁tyttäresi	-10.5706
▁henkeäni	-10.571
▁Bileamin	-10.5711
▁oina	-10.5712
▁kiveä	-10.5715
▁Sitä	-10.5718
▁seisoo	-10.5719
▁neljään	-10.5721
▁kansastansa	-10.5732
▁vamma	-10.5742
▁ennustavat	-10.5743
adar	-10.5746
▁Am	-10.5748
▁korottaa	-10.575
▁minkään	-10.5754
▁naista	-10.5755
▁tulemaan	-10.5759
▁hallitseva	-10.5765
lliseksi	-10.5775
▁armahtaa	-10.5781
▁valtaistuimelle	-10.5782
▁viisaat	-10.5785
▁lähtekää	-10.5787
▁miekkansa	-10.5799
▁luopui	-10.5799
▁turvaan	-10.5817
▁asettakoo	-10.582
▁Kansa	-10.5822
Sebu	-10.5825
▁kielellä	-10.5828
▁edelläsi	-10.5841
▁Kain	-10.5841
▁saava	-10.5851
▁Samuelin	-10.5875
Mihin	-10.5883
▁enkelille	-10.5887
▁kokous	-10.5889
▁Ham	-10.5901
Nuo	-10.5906
▁sotajouko	-10.5907
▁eläin	-10.5909
▁saamaan	-10.5914
▁Olet	-10.5921
▁jolta	-10.5933
ttömäksi	-10.5936
▁omalla	-10.5963
▁armossa	-10.5973
imiin	-10.5982
Käy	-10.5985
▁etsii	-10.5988
▁pidett	-10.6014
▁kirjoitukse	-10.6017
▁pelastuisi	-10.6021
▁koota	-10.6025
▁mielestä	-10.6027
▁Joojakim	-10.6035
▁Simeon	-10.6035
▁Ruuben	-10.6035
▁kaune	-10.6043
▁Ahia	-10.6059
▁nisu	-10.6066
▁jebusilais	-10.6067
Ette	-10.6072
▁mooabilai	-10.608
▁näkemä	-10.608
▁kerskaukse	-10.6082
▁väärintekijä	-10.6082
▁Kaislamere	-10.6082
▁Makedonia	-10.6082
▁ainiaaksi	-10.6082
▁ainiaan	-10.6082
▁armoistuime	-10.6082
▁happamattoman	-10.6082
▁hiilipannu	-10.6082
▁hiljaa	-10.6082
▁hyvänhajuis	-10.6082
▁jäännös	-10.6082
▁kerrat	-10.6082
▁korennot	-10.6082
▁kuukausi	-10.6082
▁löytäneet	-10.6082
▁pakanakansoj	-10.6082
▁perhekuntien	-10.6082
▁seurakunnassa	-10.6082
▁taholta	-10.6082
▁ylösnousemukse	-10.6082
▁langet	-10.6082
▁työhön	-10.6082
▁vaatteisiin	-10.6082
▁valmiiksi	-10.6082
▁verso	-10.6082
▁vihoitta	-10.6082
▁vikapää	-10.6082
▁kulunut	-10.6082
▁viides	-10.6082
▁kaikkeen	-10.6082
▁Oog	-10.6082
▁verellä	-10.6082
▁huolta	-10.6082
▁pyhäköstä	-10.6082
▁uskottomat	-10.6082
▁vihitty	-10.6082
▁toisella	-10.6082
▁paikasta	-10.6082
▁orpo	-10.6082
▁Ruut	-10.6082
▁suuteli	-10.6082
▁pätsi	-10.6082
▁tuomarei	-10.6082
▁pidot	-10.6082
▁Siisera	-10.6082
▁isällensä	-10.6082
▁Maakir	-10.6082
▁jyvä	-10.6082
Tiedä	-10.6082
▁Esaia	-10.6082
▁kirous	-10.6082
▁lukuisa	-10.6082
▁pohjoispuol	-10.6082
kymmentäneljä	-10.6082
▁Amasa	-10.6082
▁tunnustekoja	-10.6082
▁saastaista	-10.6082
▁repi	-10.6083
▁uutis	-10.6083
▁kauhistuksia	-10.6083
▁varustetu	-10.6083
▁rakkauden	-10.6083
▁kätki	-10.6083
▁voidellut	-10.6084
▁fariseusten	-10.6084
▁korotta	-10.6085
▁kaikilta	-10.6085
▁hävittämään	-10.6086
▁kumo	-10.6087
▁lähetin	-10.6087
▁isienne	-10.6089
vartijoi	-10.6089
▁lähtemään	-10.6089
▁tuule	-10.6089
▁kahdeksantoista	-10.609
▁pylväiden	-10.6091
▁vaikea	-10.6091
▁yhteensä	-10.6091
▁merkkinä	-10.6092
▁hallitsemaan	-10.6092
▁sekoit	-10.6092
▁perustus	-10.6094
▁makea	-10.6095
▁lakkaa	-10.6096
▁luopuneet	-10.6096
▁vastauksen	-10.6097
▁kuulkoon	-10.6098
▁vallannut	-10.6098
▁uskoton	-10.6098
▁vanhemmat	-10.6109
Tee	-10.6109
▁laitumella	-10.611
▁neljätoista	-10.611
▁jumalille	-10.611
▁tuntevat	-10.6113
▁Minkä	-10.6116
▁muukalaiset	-10.6119
▁painu	-10.612
▁Jerusalemille	-10.6121
▁henkeänsä	-10.6126
▁saatua	-10.6132
▁ylitsensä	-10.6138
▁ajoiksi	-10.6142
▁pakenevat	-10.6143
▁nimessäni	-10.6151
▁ympärileikat	-10.6154
▁Gedaljan	-10.6161
▁mistään	-10.6169
▁vanhurskautesi	-10.617
▁Juudas	-10.6172
▁kulkevat	-10.6182
▁Simonin	-10.6187
▁johonkin	-10.6193
▁nälkää	-10.6194
viini	-10.6212
▁tahtovat	-10.6214
▁kukkulat	-10.6225
▁vanhempia	-10.6226
▁mittaa	-10.6228
▁käskysi	-10.623
▁apostolit	-10.6246
▁rukoilivat	-10.6252
▁kupe	-10.6252
▁Poikani	-10.6275
kymmenvuotisi	-10.6295
▁ääneni	-10.6307
▁kalliolle	-10.6312
▁tuhota	-10.6323
▁taakse	-10.6331
▁laji	-10.6333
▁poisti	-10.636
▁tiedo	-10.6398
loon	-10.6409
Varo	-10.6425
▁yhtyi	-10.6426
tonna	-10.6451
päämiehet	-10.6479
▁voitto	-10.6481
▁juure	-10.6488
Kuule	-10.65
▁Gilgali	-10.6511
▁Pyhää	-10.6518
▁nuorukaisen	-10.6522
▁käsivarte	-10.6524
▁pasuna	-10.6529
jien	-10.6539
tettäköön	-10.6547
▁rutto	-10.6551
▁pankoo	-10.6554
mätön	-10.6556
4	-10.6557
▁rinta	-10.6557
▁Iitamar	-10.6558
askaretta	-10.6558
▁Jeesukselle	-10.6558
▁ahdistuksessa	-10.6558
▁esiripun	-10.6558
▁leeviläinen	-10.6558
▁lohikäärme	-10.6558
▁molemmi	-10.6558
▁orjuude	-10.6558
▁profetoi	-10.6558
▁sotapäällikö	-10.6558
▁sukukunnista	-10.6558
▁todistuksi	-10.6558
▁tähtesi	-10.6558
▁uppiniskais	-10.6558
▁vangiksi	-10.6558
▁vapaaehtoise	-10.6558
▁virheettömä	-10.6558
▁voiteluöljy	-10.6558
▁äkisti	-10.6558
▁isillensä	-10.6558
▁lähdit	-10.6558
▁nääntyvä	-10.6558
▁perustukset	-10.6558
▁syöksy	-10.6558
▁ymmärtäväinen	-10.6558
▁Laakii	-10.6558
▁ennusti	-10.6558
▁hajaantu	-10.6558
▁tavoittele	-10.6558
▁muodo	-10.6558
▁suoraan	-10.6558
▁talteen	-10.6558
▁vaivannäkö	-10.6558
▁näyssä	-10.6558
▁auttamaan	-10.6558
▁kyllästy	-10.6558
▁Jaabekse	-10.6558
▁keskenänne	-10.6558
▁pedon	-10.6558
▁kokoontuvat	-10.6558
▁neuvonantaja	-10.6558
▁lisääntyi	-10.6558
▁rukouksi	-10.6558
▁paikalla	-10.6558
▁häpyä	-10.6558
▁naura	-10.6558
▁seitsemää	-10.6558
▁enkelei	-10.6558
▁huilu	-10.6558
▁Kuninkaan	-10.6559
▁Elkana	-10.6559
▁sotapäällikkö	-10.6559
▁mentävä	-10.6559
▁mitkä	-10.6559
▁määrätty	-10.6559
▁ohra	-10.6559
▁tuntea	-10.656
▁vapisi	-10.656
▁asukka	-10.656
▁venheeseen	-10.656
▁unta	-10.656
▁Sieltä	-10.6561
▁harras	-10.6561
▁öljyyn	-10.6561
▁peitti	-10.6562
▁kauhistukseksi	-10.6562
▁äitiänsä	-10.6563
▁To	-10.6564
▁peittävä	-10.6564
▁muukalaisina	-10.6566
▁hopeasekeliä	-10.6569
▁verensä	-10.657
▁kuluttava	-10.6572
▁Bar	-10.6572
▁Filippus	-10.6573
▁kielillä	-10.6573
▁puhumasta	-10.6579
Istu	-10.658
▁uhka	-10.6581
▁kutsuttu	-10.6581
▁ilmestysmajaan	-10.6582
▁jousi	-10.6584
▁kaiketi	-10.6584
▁kielensä	-10.6585
▁sade	-10.6586
▁Eliab	-10.6588
▁ruuaksi	-10.659
▁valkoi	-10.6595
▁vietiin	-10.6596
▁yle	-10.6598
▁oltu	-10.6599
▁lauda	-10.6599
▁juureen	-10.6599
▁kukkuloilla	-10.6603
▁vakaa	-10.6604
▁Simeonin	-10.6607
▁tieltänne	-10.661
▁isäntä	-10.6611
▁esikoiset	-10.6614
▁vaimojen	-10.6622
▁välitä	-10.6626
▁rikos	-10.663
▁haureudessa	-10.6634
▁levit	-10.6634
▁arvossa	-10.6641
▁luonanne	-10.6641
▁tuke	-10.6641
▁viholliseni	-10.6642
▁sotavaunut	-10.6643
▁tyttärien	-10.6645
▁kukkuloi	-10.6647
▁sanottu	-10.6649
▁käskyjäsi	-10.665
▁vuoksi	-10.6652
▁tallaa	-10.6652
▁missään	-10.6653
▁elämänsä	-10.6655
▁asutte	-10.6668
▁karva	-10.6668
▁pelastaja	-10.6669
▁valtaansa	-10.6677
▁senkaltais	-10.6678
▁käyvä	-10.6686
▁Kuin	-10.6687
▁sanojani	-10.6688
▁monien	-10.6691
▁suulla	-10.6692
▁puhuttele	-10.6694
▁arkkiin	-10.6701
▁tottelemattom	-10.6703
▁Kristusta	-10.6706
▁luonaan	-10.6711
▁tieltäsi	-10.6725
▁keskellänne	-10.6727
▁tyttäreni	-10.6737
▁suoritta	-10.6746
▁mettä	-10.6746
▁Jooel	-10.6756
▁oleskeli	-10.676
▁pysähtyi	-10.6761
▁saattaisi	-10.6765
▁lapsiansa	-10.6767
▁voittoa	-10.6767
▁kuolemasta	-10.6773
▁ratsasta	-10.6787
▁seurassa	-10.6792
▁ryösti	-10.6794
▁rikastu	-10.68
tetyt	-10.6807
▁voimani	-10.6824
▁kirkkaude	-10.6828
▁iankaikkise	-10.6832
▁nouseva	-10.6846
▁harjoit	-10.6855
▁vuoteen	-10.6858
▁viipyi	-10.6876
▁lampu	-10.6882
▁Sodoma	-10.6882
▁yht	-10.6894
▁ihmise	-10.6902
▁kiitti	-10.6928
▁sotavaunu	-10.6948
▁majassa	-10.6971
▁käsivarre	-10.6981
▁vuoristo	-10.6989
lahja	-10.7
määrä	-10.7
▁Haam	-10.7009
▁vasemmall	-10.7034
▁kysel	-10.7035
▁ulottui	-10.7042
▁kylä	-10.705
▁Pal	-10.7054
▁pystyttä	-10.7057
▁Nasaret	-10.7058
▁nuoruute	-10.7058
▁Naadab	-10.7058
▁Obadja	-10.7058
▁ahdingo	-10.7058
▁edustalla	-10.7058
▁hädässä	-10.7058
▁jylinä	-10.7058
▁kumarra	-10.7058
▁loukkaa	-10.7058
▁mieheen	-10.7058
▁muinoin	-10.7058
▁palvelkaa	-10.7058
▁piiloutu	-10.7058
▁pylväänpää	-10.7058
▁siunannut	-10.7058
▁synagoogissa	-10.7058
▁tapahtua	-10.7058
▁tiedustel	-10.7058
▁valmiina	-10.7058
▁Ahitofel	-10.7058
▁pahantekijä	-10.7058
▁puhkea	-10.7058
▁Naema	-10.7058
▁Seraja	-10.7058
▁kuluneet	-10.7058
▁pakanoille	-10.7058
▁tiettäväksi	-10.7058
▁Saba	-10.7058
▁hävittäjä	-10.7058
▁Timna	-10.7058
▁uudis	-10.7058
▁tuntenut	-10.7058
▁ylistivät	-10.7058
▁ruoko	-10.7058
▁Aamon	-10.7058
▁tähti	-10.7058
▁lentävä	-10.7058
▁sotakuntois	-10.7058
▁kenkään	-10.7058
▁häväistä	-10.7058
▁levisi	-10.7058
▁auttoi	-10.7058
▁palvelijattari	-10.7058
▁isiesi	-10.7059
▁väkevi	-10.7059
▁viidenkymmenen	-10.7059
▁Suusani	-10.7059
▁iski	-10.7059
▁vaikutta	-10.706
▁arvalla	-10.706
▁Muut	-10.706
▁merta	-10.706
▁hautasivat	-10.7061
▁tulkoot	-10.7061
▁pidetä	-10.7062
▁paremm	-10.7062
▁rikkautta	-10.7063
ykset	-10.7063
▁tili	-10.7063
▁miehenpuoli	-10.7063
▁katsella	-10.7063
▁syntymän	-10.7064
▁sulki	-10.7066
▁ahdistuksen	-10.7066
▁otettiin	-10.7066
▁avukseni	-10.7067
▁vuohi	-10.7068
▁hevosia	-10.707
▁Siionissa	-10.7072
▁siunattu	-10.7074
▁päättyy	-10.7076
▁kiivauteni	-10.7081
▁juutalaisille	-10.7081
▁uhratkoon	-10.7084
▁aarteet	-10.7085
▁varjelee	-10.7087
▁noudattakaa	-10.7092
▁Siihonin	-10.7095
▁syystä	-10.7096
▁rikkaa	-10.7101
▁sanottava	-10.7102
▁laita	-10.7103
▁syytä	-10.7108
▁Joojakimin	-10.7109
▁viattom	-10.7111
▁tuhosi	-10.7111
▁uskottu	-10.7112
▁itkivät	-10.7112
▁riivaajia	-10.7114
▁rakastanut	-10.7121
▁Minkätähden	-10.7129
▁asunto	-10.713
▁kysyy	-10.7131
Juo	-10.7133
▁nimeksi	-10.7138
▁lihassa	-10.7142
▁Kaik	-10.7144
▁liittonsa	-10.7148
▁vietti	-10.7151
▁ahdistaja	-10.7155
▁sydämessäsi	-10.7157
▁kaunista	-10.7157
▁osti	-10.717
dad	-10.7178
▁etsitte	-10.7183
▁näkyi	-10.7186
▁terävä	-10.7187
▁karjansa	-10.7196
▁puolestanne	-10.7203
▁heettiläise	-10.7218
▁kipu	-10.7231
▁onnea	-10.7236
▁kokosivat	-10.7236
▁muuttui	-10.7237
▁valitus	-10.725
▁kuuntele	-10.7258
patsaat	-10.7268
▁ruumiini	-10.7315
▁palatsiin	-10.7316
▁jääköö	-10.7332
▁syököö	-10.7337
▁hedelmällise	-10.7342
▁selkä	-10.7346
▁näyt	-10.7358
▁peite	-10.7358
▁taivaalli	-10.738
▁venhe	-10.7383
▁hallitse	-10.7383
▁kuudes	-10.739
sadan	-10.7422
▁luokse	-10.7441
▁alis	-10.7443
tauti	-10.7448
tähden	-10.7484
▁veisata	-10.7489
▁haureude	-10.7501
▁sukupolve	-10.7513
Antakaa	-10.7526
▁Hebron	-10.7528
▁keihäs	-10.7557
▁pappe	-10.7565
▁ymmärrys	-10.7572
▁nopea	-10.7579
5	-10.7584
Lähtekää	-10.7584
▁Galileaan	-10.7584
▁Hengellä	-10.7584
▁Korkein	-10.7584
▁Kristukseen	-10.7584
▁Vanhurskas	-10.7584
▁Ylistäkää	-10.7584
▁aseenkantaja	-10.7584
▁esikartano	-10.7584
▁kadonnut	-10.7584
▁kelvottoma	-10.7584
▁kuninkuuden	-10.7584
▁maksoi	-10.7584
▁munuais	-10.7584
▁naapuri	-10.7584
▁pakanakansain	-10.7584
▁palvelleet	-10.7584
▁pauhaava	-10.7584
▁poikkesi	-10.7584
▁purjehti	-10.7584
▁todella	-10.7584
▁valtaistuin	-10.7584
▁vohla	-10.7584
▁väkijuoma	-10.7584
▁Naahor	-10.7584
▁Rakkaani	-10.7584
▁hävityksen	-10.7584
▁jälki	-10.7584
▁kuihtu	-10.7584
▁publikaani	-10.7584
▁rakentaja	-10.7584
▁Alankomaa	-10.7584
▁huulet	-10.7584
▁ihastu	-10.7584
▁murskasi	-10.7584
▁selityksen	-10.7584
▁sydämellä	-10.7584
▁Aadam	-10.7584
▁pyyhi	-10.7584
▁pääsiäistä	-10.7584
▁hävitetty	-10.7584
▁irsta	-10.7584
▁kilpi	-10.7584
▁kuninkuute	-10.7584
▁tulvi	-10.7584
▁Asdod	-10.7584
▁levon	-10.7584
▁Simri	-10.7584
▁rikki	-10.7584
▁selitys	-10.7584
▁tuulta	-10.7584
▁Haasor	-10.7584
▁tekemistä	-10.7585
▁gaadilaiset	-10.7585
▁Ahasveroksen	-10.7585
▁puoliso	-10.7585
▁linno	-10.7585
▁onnistu	-10.7585
▁hakkasi	-10.7585
▁hurskas	-10.7586
▁tällais	-10.7586
▁Aika	-10.7586
Jearim	-10.7586
▁täydelliseksi	-10.7587
▁pappeina	-10.7587
▁äärestä	-10.7587
▁illalla	-10.7587
▁itseäni	-10.7588
▁tori	-10.7588
▁Hanna	-10.7588
▁rakennettu	-10.7588
▁sisareni	-10.7589
▁lähettilä	-10.759
▁valtakunnat	-10.759
▁kuninkaasta	-10.7591
▁veljeänsä	-10.7591
▁Suo	-10.7591
▁pimeässä	-10.7593
▁isälleni	-10.7593
▁kumpik	-10.7594
▁vastannut	-10.7595
▁käskyistä	-10.7595
▁ihmettelivät	-10.7596
▁lihava	-10.7596
▁ihmisistä	-10.7597
▁asukkaille	-10.7599
▁rakentamaan	-10.76
▁perästä	-10.7602
▁jaksa	-10.7603
▁hieno	-10.7603
Miehet	-10.7604
▁kysymään	-10.7605
iläisten	-10.7606
▁hevosten	-10.7606
▁hallitusmiehe	-10.7607
▁laskettu	-10.7609
▁pyhitti	-10.7609
▁ruumiissa	-10.761
▁rukoilkaa	-10.7611
▁Siunat	-10.7611
▁päätänsä	-10.7614
▁parissa	-10.7616
▁käsivartensa	-10.7622
▁lyönyt	-10.7622
▁saaliiksi	-10.7625
▁laskekoon	-10.7625
▁pannaan	-10.7627
▁syntyneet	-10.7627
▁Hebronin	-10.7631
`?"	-10.7632
▁uhratkaa	-10.7634
▁meiltä	-10.7635
▁tietäkää	-10.7636
▁pettää	-10.7638
▁Jumalattoma	-10.7639
▁kalat	-10.7639
▁luolaan	-10.7641
▁palvelijoiksi	-10.7649
▁vanhurskautensa	-10.765
▁oikeutee	-10.7652
▁valtaistuimensa	-10.7652
▁puhuttu	-10.7656
▁karkoitan	-10.766
▁istumaan	-10.7661
▁uskollise	-10.7667
▁kivistä	-10.7667
▁sairasta	-10.7667
▁silmissään	-10.767
▁rakastatte	-10.7671
▁välillämme	-10.7676
▁lahjaksi	-10.7676
▁siirtyi	-10.7677
▁taloja	-10.7695
▁vitsaukse	-10.77
▁save	-10.7701
▁linnaan	-10.7701
▁Isänne	-10.7703
▁tahdomme	-10.7704
▁pidätte	-10.7704
▁kaiva	-10.7713
▁riisui	-10.772
▁Eelami	-10.7723
▁otetu	-10.7726
▁asiassa	-10.7731
▁toimittako	-10.7733
▁riida	-10.7734
▁rinnalla	-10.7735
▁vannotu	-10.7739
▁Jok	-10.7748
alai	-10.7755
▁väkivalta	-10.777
▁hallitsija	-10.7776
Tänä	-10.7779
▁ruumista	-10.7783
▁Siis	-10.7791
▁viekää	-10.7804
▁pilkkaaja	-10.7804
ihisi	-10.7816
▁pankaa	-10.7817
▁kirkasta	-10.782
▁pilkkasi	-10.7829
▁salama	-10.7838
▁omikse	-10.7841
▁kumartu	-10.7864
▁piirittä	-10.7865
▁katsel	-10.7884
▁sotamiehe	-10.7892
▁tarttuma	-10.7896
▁käsillä	-10.7901
▁seinäpatsa	-10.7911
▁Uuri	-10.7923
▁näit	-10.7927
aikoina	-10.7948
▁sairastava	-10.8002
▁opetuslapse	-10.8019
▁syntie	-10.8051
▁ikee	-10.8053
Vaik	-10.8081
portin	-10.8082
▁rangaistuks	-10.8082
▁fariseuks	-10.8126
▁site	-10.8126
▁taistele	-10.8134
▁turvallise	-10.8134
iläiset	-10.8136
Erä	-10.8138
Ä	-10.814
▁Ensimmäis	-10.814
▁Ekroni	-10.814
▁Geba	-10.814
▁Jeesukseen	-10.814
▁Kegila	-10.814
▁Libna	-10.814
▁Maanoah	-10.814
▁Mesopotamia	-10.814
▁Netanjan	-10.814
▁aaseja	-10.814
▁haureute	-10.814
▁iljettäv	-10.814
▁johdolla	-10.814
▁juutalainen	-10.814
▁jälkeläisensä	-10.814
▁kaiverr	-10.814
▁kerralla	-10.814
▁kuningattare	-10.814
▁leiviskää	-10.814
▁myrkky	-10.814
▁perinnöksi	-10.814
▁savenvalaja	-10.814
▁suistu	-10.814
▁syntejä	-10.814
▁säädökset	-10.814
▁tyhmi	-10.814
▁tyrmisty	-10.814
▁tähteeksi	-10.814
▁vaippansa	-10.814
▁vaivannäö	-10.814
▁viinitarhoja	-10.814
Lähetä	-10.814
▁Tobia	-10.814
▁kansanjouko	-10.814
▁lävistä	-10.814
▁niskoitteli	-10.814
▁havaitsi	-10.814
▁ruhjo	-10.814
Hooron	-10.814
▁alttare	-10.814
▁vaskesta	-10.814
▁epäusko	-10.814
▁kohdussa	-10.814
▁Tirsa	-10.814
▁Neljä	-10.814
▁raskas	-10.814
▁anniksi	-10.814
▁vasikan	-10.814
▁henkesi	-10.814
▁kaatoi	-10.814
▁Omri	-10.814
▁kuunteli	-10.814
▁toisessa	-10.814
▁levy	-10.814
▁särke	-10.814
▁toisesta	-10.814
▁kymmenennestä	-10.814
▁Kaadekse	-10.814
▁sortaja	-10.814
▁kaurii	-10.814
▁sapatinpäivänä	-10.814
▁loisto	-10.8141
▁kieltäyty	-10.8141
▁ymmärtäväise	-10.8141
▁ruubenilaiset	-10.8141
▁kourist	-10.8141
▁kalliit	-10.8141
▁loistaa	-10.8142
▁ihmislast	-10.8142
▁kirottu	-10.8142
▁katoavat	-10.8142
▁toistamiseen	-10.8142
▁hämmästyivät	-10.8142
▁jälkeläiste	-10.8142
virrasta	-10.8143
▁mitat	-10.8143
▁himoitse	-10.8144
▁näöltään	-10.8145
▁Aasia	-10.8146
▁leeviläisiä	-10.8146
pyhää	-10.8146
▁hauto	-10.8147
▁yksinänsä	-10.8148
▁sanottuaan	-10.8148
▁Vaimo	-10.8148
▁valettu	-10.8149
▁saastaisi	-10.815
▁virkaansa	-10.815
▁Niinive	-10.815
▁omaisuutensa	-10.815
▁amalekilaiset	-10.8151
▁vähäinen	-10.8152
▁lukea	-10.8155
▁tomuun	-10.8156
▁kääntynyt	-10.8157
▁pimen	-10.8157
▁vaunujen	-10.8157
▁vavis	-10.8158
▁aamuun	-10.816
▁sisu	-10.8161
▁muukalaisia	-10.8162
▁luettiin	-10.8162
▁Baabelista	-10.8164
▁osoittanut	-10.8164
▁hylkäsivät	-10.8164
▁hallitsee	-10.8166
▁vertauksen	-10.8167
▁taistell	-10.8169
▁ilmoittamaan	-10.817
▁kaikkinaise	-10.8175
▁vuodattanut	-10.8175
▁tapo	-10.8176
▁Seem	-10.818
▁lopussa	-10.818
▁vihollisensa	-10.818
▁järjest	-10.8182
▁Mispaan	-10.8183
▁polttava	-10.8186
▁ruhtinasten	-10.8188
▁muuttuu	-10.8188
▁Egyptiä	-10.8189
▁tuomarina	-10.8191
▁Gilgaliin	-10.8195
▁seuraamaan	-10.8198
▁keitä	-10.8201
▁vieläpä	-10.8224
▁johtaja	-10.8227
▁vaimokseen	-10.8227
▁Saulia	-10.8227
▁synnyttävä	-10.8228
▁sydäntä	-10.8231
▁raasta	-10.8231
▁rajana	-10.8239
▁vannoo	-10.8244
▁ylistystä	-10.8246
▁valitse	-10.8298
▁puki	-10.8305
▁työssä	-10.8342
▁Millo	-10.8348
▁pito	-10.8388
▁rakennus	-10.842
▁tuotti	-10.8476
Sinu	-10.8507
▁kupee	-10.8512
▁Pii	-10.8521
▁valitukse	-10.8529
▁kosto	-10.8537
▁härkää	-10.8545
▁Iisai	-10.8553
▁Naftali	-10.8553
▁julistakoo	-10.8578
isuudessa	-10.8582
ttelevat	-10.8594
▁koitu	-10.8603
▁osuut	-10.8606
▁ylistys	-10.8616
▁puku	-10.8633
▁Miikal	-10.8634
alttarin	-10.8654
▁toime	-10.8662
Hyvä	-10.867
Edomin	-10.867
Pois	-10.8677
▁lippu	-10.8703
▁keit	-10.8704
▁kultaise	-10.8713
▁tulko	-10.8717
▁Ahimelek	-10.8728
▁Eljasib	-10.8728
▁Abigail	-10.8728
▁Ahikamin	-10.8728
▁Galileasta	-10.8728
▁Hoorebi	-10.8728
▁Hoosea	-10.8728
▁Jeesukselta	-10.8728
▁Timoteus	-10.8728
▁alamaiset	-10.8728
▁jälkeläisesi	-10.8728
▁lahjoit	-10.8728
▁lähimmäisensä	-10.8728
▁läsnä	-10.8728
▁nöyrä	-10.8728
▁palvellut	-10.8728
▁paratiisi	-10.8728
▁porteissa	-10.8728
▁porteista	-10.8728
▁rakkaudesta	-10.8728
▁rupea	-10.8728
▁syynalaiseksi	-10.8728
▁tähteet	-10.8728
▁valhettelija	-10.8728
▁valtasuuruu	-10.8728
▁vihollinen	-10.8728
Efeso	-10.8728
▁Atalja	-10.8728
▁Kolme	-10.8728
▁kaikkeinpyhimmä	-10.8728
▁rankaisi	-10.8728
▁ruoski	-10.8728
▁siidonilais	-10.8728
▁harppu	-10.8728
▁pelkäisi	-10.8728
▁ylipappi	-10.8728
▁Amalek	-10.8728
▁Kesarea	-10.8728
▁lakastu	-10.8728
▁ympäristö	-10.8728
▁Hesron	-10.8728
▁Luoja	-10.8728
▁valmiit	-10.8728
▁katoavais	-10.8728
▁pove	-10.8728
▁Idän	-10.8728
▁jumalankuvi	-10.8728
Kutsu	-10.8728
▁kapina	-10.8728
▁sijoitt	-10.8728
▁Aahaa	-10.8728
▁järjestykse	-10.8728
▁Minulle	-10.8728
▁veistety	-10.8728
▁kuuliaiset	-10.8728
▁sadanpäämies	-10.8728
▁verestä	-10.8728
▁yläsal	-10.8728
▁vuohen	-10.8728
▁peura	-10.8728
▁helpo	-10.8728
▁pojasta	-10.8729
▁Heeman	-10.8729
▁pitalitauti	-10.8729
▁täytyi	-10.8729
▁onnettomuuteen	-10.8729
▁pitkämielinen	-10.8729
▁huulilla	-10.8729
▁kurji	-10.8729
▁laumo	-10.8729
▁vaipan	-10.873
▁viskaa	-10.873
▁benjaminilaisia	-10.8731
▁aramilaisia	-10.8731
▁syylliseksi	-10.8731
▁seuranneet	-10.8731
▁hedelmätön	-10.8731
▁iske	-10.8731
▁asuvaiset	-10.8731
▁liekki	-10.8731
▁anasta	-10.8732
▁leili	-10.8732
▁lähetetty	-10.8732
▁parannuksen	-10.8732
▁Hebronissa	-10.8733
▁tuhka	-10.8733
▁Hebroniin	-10.8734
▁eläviksi	-10.8735
▁parhai	-10.8735
▁varhais	-10.8736
▁halkais	-10.8736
▁kutsutut	-10.8739
▁jäädä	-10.8739
▁viidennen	-10.8739
▁peräti	-10.8741
▁näyn	-10.8743
▁totinen	-10.8743
▁polttama	-10.8745
▁näkyjä	-10.8746
Saa	-10.8747
▁Kiittäkää	-10.8748
▁nuorukaiset	-10.8749
▁purkaa	-10.8749
▁korviisi	-10.8752
▁varteen	-10.8752
▁tuottanut	-10.8753
▁vapisevat	-10.8753
▁löysivät	-10.8756
▁todistusta	-10.8763
▁rikoksensa	-10.8763
▁Saafanin	-10.8764
▁Näiden	-10.8765
▁vuoristosta	-10.8765
▁kuninkaille	-10.8766
▁ruhtinaita	-10.8767
▁noudattanut	-10.8772
▁avata	-10.8772
▁pakenee	-10.8778
▁suonut	-10.8781
▁viettele	-10.8783
▁käskee	-10.8792
▁paimenet	-10.8793
▁omissa	-10.8793
▁lunastaja	-10.8794
Seura	-10.8807
▁kouku	-10.8809
▁Ussiel	-10.8812
▁Iir	-10.8816
▁käsivarrella	-10.882
▁jokapäiväise	-10.8821
▁tekemästä	-10.8827
▁veisat	-10.8873
▁muistut	-10.8874
▁Elisama	-10.8881
ittain	-10.8886
▁uskottomi	-10.8903
▁kadot	-10.8906
▁paise	-10.8937
▁tehtäviä	-10.895
▁muutti	-10.8967
▁todistaji	-10.8968
▁viimeisi	-10.8969
▁Kel	-10.8974
Pane	-10.8997
arvoinen	-10.9013
▁ilmestysmaja	-10.9131
▁keihästä	-10.914
▁sukuluettelo	-10.9174
▁laupeude	-10.9178
Syö	-10.918
▁jumalanpalvelu	-10.9193
maljan	-10.9214
puolella	-10.9251
Kuningas	-10.9295
Sentähden	-10.9296
▁Siihon	-10.9306
▁valtakunn	-10.9311
virta	-10.9317
▁kiivaute	-10.9325
▁veljistä	-10.9338
▁lik	-10.9346
torni	-10.935
▁ylä	-10.9352
▁Vuor	-10.9353
▁Kapernaum	-10.9353
▁lyhte	-10.9353
▁taivaanvahvuu	-10.9353
▁Jefunne	-10.9353
▁Rabsake	-10.9353
▁Sukkoti	-10.9353
▁happamaton	-10.9353
▁haureelli	-10.9353
▁heilutus	-10.9353
▁henkilöön	-10.9353
▁kahdelle	-10.9353
▁katselmuksen	-10.9353
▁kirkkautensa	-10.9353
▁kiukku	-10.9353
▁koorahilais	-10.9353
▁kypressi	-10.9353
▁luottamus	-10.9353
▁lähimmäisesi	-10.9353
▁neitsyen	-10.9353
▁portille	-10.9353
▁portista	-10.9353
▁raavaskarja	-10.9353
▁sanansaattajia	-10.9353
▁seisahtui	-10.9353
▁seitsemäksi	-10.9353
▁siipensä	-10.9353
▁särky	-10.9353
▁tiukku	-10.9353
▁täytäntöön	-10.9353
▁vartiosto	-10.9353
▁väkevyys	-10.9353
▁vääryys	-10.9353
▁yhdellä	-10.9353
▁ylhäällä	-10.9353
▁ylvästel	-10.9353
▁ympärysverhot	-10.9353
▁Baarak	-10.9353
▁Kaldea	-10.9353
▁Malkia	-10.9353
▁Mattanja	-10.9353
▁Siiba	-10.9353
▁Vapahtaja	-10.9353
▁hävinneet	-10.9353
▁kudottu	-10.9353
▁raivo	-10.9353
▁kuullessaan	-10.9353
▁rientä	-10.9353
▁tervehdyks	-10.9353
▁Elifa	-10.9353
▁jylis	-10.9353
▁linnoitti	-10.9353
▁henkäys	-10.9353
▁kehatilais	-10.9353
▁kengä	-10.9353
▁merkitsee	-10.9353
▁korkeus	-10.9353
▁polje	-10.9353
▁väkivallan	-10.9353
▁Amarja	-10.9353
▁denari	-10.9353
▁kauppiaa	-10.9353
▁Regu	-10.9353
▁paranna	-10.9353
▁köysi	-10.9353
▁haudan	-10.9353
▁parasta	-10.9353
▁viljel	-10.9353
▁vereksi	-10.9353
▁Hanok	-10.9353
▁kasukka	-10.9353
▁riemuitkaa	-10.9353
▁puuttuu	-10.9353
▁Samma	-10.9353
▁tulva	-10.9353
viikuna	-10.9353
▁riemuitsi	-10.9353
▁Rooma	-10.9353
▁alussa	-10.9353
▁rauke	-10.9354
▁kertomus	-10.9354
▁koolla	-10.9354
mistään	-10.9354
▁Leeviläis	-10.9354
▁kohina	-10.9354
▁Hoori	-10.9354
▁edeltäpäin	-10.9354
▁lähi	-10.9354
▁vallasta	-10.9354
▁yhdeksäntenä	-10.9355
▁kyps	-10.9355
▁vasikka	-10.9355
▁luuni	-10.9355
▁Boo	-10.9355
▁mooabilaiset	-10.9355
▁sotakelpoisia	-10.9355
opea	-10.9355
▁tappio	-10.9356
▁johdattanut	-10.9356
▁aramilaisten	-10.9356
▁poltettakoon	-10.9357
▁tora	-10.9357
▁veisaajat	-10.9357
▁valkeuden	-10.9357
▁opetusta	-10.9358
▁edomilaiset	-10.9358
▁sodan	-10.9358
Rakasta	-10.9359
▁korota	-10.9359
▁lähteköön	-10.936
▁ympäriltä	-10.936
▁sadetta	-10.936
▁Asael	-10.9361
▁leviä	-10.9362
▁herättänyt	-10.9363
▁teroit	-10.9364
rkeä	-10.9364
▁sirot	-10.9365
▁kuume	-10.9366
▁johdattaa	-10.9369
▁hevosilla	-10.9369
▁vapisee	-10.937
▁ryöstö	-10.937
▁vanhurskaita	-10.9371
▁isäntänsä	-10.9372
▁näimme	-10.9373
▁saarta	-10.9373
▁sotavaunuja	-10.9374
▁leiristä	-10.9374
▁herätän	-10.9375
▁ohu	-10.9376
▁nisuja	-10.9376
▁peittivät	-10.9376
ttomia	-10.9377
Palaja	-10.9377
▁Filippukse	-10.938
▁siivet	-10.9381
▁punais	-10.9383
▁haltuunsa	-10.9384
▁sadanpäämiehe	-10.9384
▁tulossa	-10.9387
▁vuodessa	-10.9388
▁köyhille	-10.939
▁Ennen	-10.9392
▁varustettuja	-10.9394
▁Siionista	-10.9395
▁välissä	-10.9396
▁ostamaan	-10.9397
▁vahvistanut	-10.9399
▁yksitoista	-10.9405
▁kirkkaudessa	-10.9422
▁Veisat	-10.943
▁jännittä	-10.9435
▁pyhitety	-10.9441
▁vuoro	-10.9456
▁siunaukse	-10.9461
▁puvu	-10.9461
▁Siini	-10.9466
▁Naabali	-10.9469
▁poltto	-10.9475
▁muukalaist	-10.949
▁kuuro	-10.9493
▁paisu	-10.9533
Pitä	-10.9572
▁nuoremma	-10.9586
▁venhee	-10.9597
▁otit	-10.9624
nnolla	-10.9633
▁saastutti	-10.9633
▁lähettämä	-10.9661
▁vuoteessa	-10.9719
varasto	-10.9753
▁pyör	-10.9791
▁vieköö	-10.9795
▁tutkistele	-10.9803
ttomuus	-10.9814
▁Leevi	-10.9845
▁Ilo	-10.9879
▁kohot	-10.9887
I	-10.9959
▁terä	-10.9966
▁hallitus	-10.9972
▁jokapäiväis	-10.9989
▁anneta	-10.9991
▁askel	-10.9994
Jää	-11.0002
▁aukeni	-11.002
▁pellavavaatte	-11.002
▁vihoitti	-11.002
Artahsasta	-11.002
▁Aamoksen	-11.002
▁Abednego	-11.002
▁Ennustus	-11.002
▁Hasabja	-11.002
▁Joonadab	-11.002
▁Kaikkivaltiaan	-11.002
▁Matkalaulu	-11.002
▁Nebusaradan	-11.002
▁asuinpaika	-11.002
▁ikiajoista	-11.002
▁kaldealaiset	-11.002
▁kerubeja	-11.002
▁kolmanteen	-11.002
▁kylvö	-11.002
▁lammaslauma	-11.002
▁lampaista	-11.002
▁levoton	-11.002
▁mahdollista	-11.002
▁mittanuora	-11.002
▁ohdakke	-11.002
▁ohria	-11.002
▁ojennetu	-11.002
▁pimeyteen	-11.002
▁pirskoitta	-11.002
▁sekoitettuna	-11.002
▁teurasuhreja	-11.002
▁uppiniskainen	-11.002
▁vangeiksi	-11.002
▁vanhurskaudeksi	-11.002
▁yhteysuhreja	-11.002
Filistea	-11.002
▁Geser	-11.002
▁Haagar	-11.002
▁Mirjam	-11.002
▁Pekah	-11.002
▁Sanherib	-11.002
▁anoppi	-11.002
▁avionrikkoja	-11.002
▁hahmo	-11.002
▁happamattomi	-11.002
▁kehoitta	-11.002
▁kuoltua	-11.002
▁löydett	-11.002
▁mykkä	-11.002
▁palveltava	-11.002
▁pojanpojan	-11.002
▁sananlasku	-11.002
▁saviastia	-11.002
▁sekoitettuja	-11.002
▁turmeltu	-11.002
▁umpeen	-11.002
▁vapahda	-11.002
▁Ahitub	-11.002
▁huoju	-11.002
▁hämminki	-11.002
▁kahdeksansataa	-11.002
▁katoamattom	-11.002
▁kirve	-11.002
▁kätenne	-11.002
▁linnoitukse	-11.002
▁pelkkä	-11.002
▁pyydystä	-11.002
▁kuultuaan	-11.002
▁vieraita	-11.002
▁Elieser	-11.002
▁huulten	-11.002
▁lampunjalk	-11.002
▁sotahuudon	-11.002
▁totelleet	-11.002
▁kiivaus	-11.002
▁taidokka	-11.002
▁poikkitanko	-11.002
▁väkensä	-11.002
▁oikeudet	-11.002
▁toiselta	-11.002
▁Rabba	-11.002
määrin	-11.002
▁Refa	-11.002
▁kastoi	-11.002
mpänä	-11.002
▁palautan	-11.002
▁itsekukin	-11.002
▁väkevämmä	-11.002
▁voidaan	-11.002
▁murskat	-11.002
▁silmille	-11.002
▁edellis	-11.002
▁heräsi	-11.002
▁iloitkaa	-11.002
▁merestä	-11.002
▁levätä	-11.002
▁niiltä	-11.002
▁tältä	-11.002
▁murheelliseksi	-11.0021
▁vävy	-11.0021
▁Kastaja	-11.0021
▁bat	-11.0021
▁tehden	-11.0021
3]	-11.0021
▁ellette	-11.0021
▁sairaana	-11.0022
▁merkin	-11.0022
▁tarkasti	-11.0023
▁avannut	-11.0023
▁täydellinen	-11.0023
▁eläimen	-11.0023
▁parku	-11.0024
▁vanhurskaaksi	-11.0024
▁toisiinsa	-11.0025
▁helmaan	-11.0025
▁pylväitä	-11.0025
▁hukuttaa	-11.0025
Käske	-11.0025
▁Mone	-11.0025
▁vihollistesi	-11.0026
▁heettiläisten	-11.0026
▁Nosta	-11.0027
▁raatele	-11.0027
▁voidell	-11.0028
▁Vih	-11.0029
▁virheetöntä	-11.0029
▁siunatkoon	-11.003
▁istuutui	-11.003
▁neljätuhatta	-11.0031
▁hampaat	-11.0032
▁isääsi	-11.0032
▁ainoakaan	-11.0033
▁kylään	-11.0034
▁pidättää	-11.0034
▁naisten	-11.0035
▁palkit	-11.0036
▁ensimmäisessä	-11.0038
▁sellaisia	-11.0039
▁katko	-11.0039
▁jebusilaiset	-11.0041
▁maanpiiri	-11.0041
▁ylistäkää	-11.0041
▁perhettä	-11.0042
▁kaltaisia	-11.0043
▁Damaskoon	-11.0044
▁rantaa	-11.0044
▁Suure	-11.0046
▁vihastunut	-11.0047
utukoo	-11.0049
▁sydämessänsä	-11.0056
▁rasitta	-11.0059
▁lähetit	-11.0063
▁muuttaa	-11.007
▁eteläpuol	-11.0079
▁tyttäristä	-11.0095
▁taikina	-11.0102
▁paloi	-11.0112
▁vaara	-11.0113
▁peseytyköö	-11.0118
telleet	-11.013
▁tappava	-11.0143
▁osallisi	-11.0154
▁Paha	-11.0185
▁Geerson	-11.0202
▁teurastakoo	-11.0227
▁suuntaa	-11.0249
▁kuritukse	-11.026
▁keihään	-11.0304
uksella	-11.0355
▁nimellä	-11.0389
▁nuku	-11.0396
tunno	-11.0468
▁alaston	-11.0503
▁seitsenhaarai	-11.0591
Ojen	-11.0602
▁lammas	-11.0602
▁oleskel	-11.0623
kiveä	-11.0674
merkki	-11.0676
Vielä	-11.0676
juhla	-11.0677
Olka	-11.0678
▁järje	-11.0679
▁Baasan	-11.0683
▁näitte	-11.0702
tietä	-11.0705
▁ihmetteli	-11.0718
▁häväistyksen	-11.0719
▁amalekilais	-11.072
▁pöyd	-11.0723
▁ruubenilai	-11.0732
mielinen	-11.0733
▁Eljakim	-11.0734
▁Jerubbaal	-11.0734
▁Mefiboset	-11.0734
▁Naaboti	-11.0734
▁Oholiba	-11.0734
▁Pashur	-11.0734
▁Rehob	-11.0734
▁aamurusko	-11.0734
▁balsami	-11.0734
▁efraimilais	-11.0734
▁ojennettu	-11.0734
▁tarvitsi	-11.0734
▁varastohuone	-11.0734
▁vilppiä	-11.0734
▁Barnabaa	-11.0734
▁Barnabas	-11.0734
▁Daarejaveksen	-11.0734
▁Efron	-11.0734
▁Kristukselta	-11.0734
▁alhaalla	-11.0734
▁gaselli	-11.0734
▁granaattiomeni	-11.0734
▁härkiä	-11.0734
▁ilahutta	-11.0734
▁ilosanoman	-11.0734
▁juoksu	-11.0734
▁jyviä	-11.0734
▁kirkkautta	-11.0734
▁kohdalla	-11.0734
▁käteesi	-11.0734
▁laupeus	-11.0734
▁läsnäollessa	-11.0734
▁mieheksi	-11.0734
▁miehinensä	-11.0734
▁mirha	-11.0734
▁portteja	-11.0734
▁pöyhke	-11.0734
▁rakentaneet	-11.0734
▁riemuhuuto	-11.0734
▁riennä	-11.0734
▁sinetillä	-11.0734
▁sisemmä	-11.0734
▁sivelköö	-11.0734
▁sukukunnalle	-11.0734
▁sukulunastaja	-11.0734
▁tyhjin	-11.0734
▁tästedes	-11.0734
▁ulompaa	-11.0734
▁uskalta	-11.0734
▁vahinkoa	-11.0734
▁valittajaiset	-11.0734
▁Älkööt	-11.0734
▁äkkiä	-11.0734
▁Eedeni	-11.0734
▁Henkeni	-11.0734
▁hieho	-11.0734
▁häijy	-11.0734
▁kadotukseen	-11.0734
▁kanteleilla	-11.0734
▁kiiruht	-11.0734
▁siirsi	-11.0734
▁sydämemme	-11.0734
▁säkkeihin	-11.0734
▁vakoilemaan	-11.0734
▁Ahimaas	-11.0734
▁Huusai	-11.0734
▁juhta	-11.0734
▁lunastus	-11.0734
▁ravinnoksi	-11.0734
▁toteutta	-11.0734
▁hyvyyde	-11.0734
▁lähimmäistäsi	-11.0734
▁ravitse	-11.0734
▁sikiö	-11.0734
▁yhtäkkiä	-11.0734
▁Netanel	-11.0734
▁kaitsija	-11.0734
▁kirjoitetut	-11.0734
▁liitonarkin	-11.0734
▁maakuntaan	-11.0734
▁ammenta	-11.0734
▁isillesi	-11.0734
▁ylkä	-11.0734
▁lakannut	-11.0734
▁neuvotteli	-11.0734
▁polke	-11.0734
▁tehtäköön	-11.0734
▁Kahden	-11.0734
▁orjia	-11.0734
▁Jehiel	-11.0734
▁Peda	-11.0734
▁tytön	-11.0734
▁liepee	-11.0734
yydestä	-11.0734
▁asioita	-11.0734
▁keskeen	-11.0734
▁polttaneet	-11.0734
▁muisteta	-11.0734
▁Miekka	-11.0734
▁yläpuolella	-11.0734
▁Hasar	-11.0734
▁tappanut	-11.0734
▁Ehkä	-11.0734
▁kauppaa	-11.0734
▁suojel	-11.0734
▁salamoi	-11.0734
▁yksinkertais	-11.0734
▁osastonsa	-11.0734
▁raukeavat	-11.0734
▁uskollisuude	-11.0735
▁Amram	-11.0735
▁pesästä	-11.0735
▁työvero	-11.0735
Rabbi	-11.0735
▁jalkoja	-11.0735
▁Gooseni	-11.0735
▁puhdistettava	-11.0735
▁takia	-11.0736
▁Eeber	-11.0736
▁pystyyn	-11.0736
▁kieto	-11.0736
▁itsellemme	-11.0736
▁alaisiksi	-11.0736
▁vainoavat	-11.0736
▁ajel	-11.0736
▁kiitoksen	-11.0736
▁kyntä	-11.0737
▁veljienne	-11.0737
▁kadottaa	-11.0737
▁auttanut	-11.0738
▁lähdettävä	-11.0738
▁paljouden	-11.0738
▁Baani	-11.0739
droni	-11.0739
▁tekonne	-11.0739
▁voimalliset	-11.0739
▁osastossa	-11.0739
▁helakanpunais	-11.074
▁kuunnell	-11.074
▁asettaneet	-11.0741
▁hopeamalja	-11.0741
▁liikut	-11.0741
▁benjaminilaiset	-11.0741
▁surmattakoon	-11.0741
▁Teeman	-11.0742
▁pidettiin	-11.0742
aukot	-11.0743
▁ruton	-11.0743
▁viisaita	-11.0744
▁tappaaksensa	-11.0744
▁perheelle	-11.0744
▁pöydän	-11.0744
▁vainooja	-11.0745
▁katkerasti	-11.0745
▁koskettaa	-11.0745
▁Beetelissä	-11.0745
▁ruttoon	-11.0746
▁Maakan	-11.0746
▁voidakse	-11.0747
ättömiä	-11.0748
▁sisaresi	-11.0748
▁palannut	-11.0749
▁kahdesti	-11.0751
▁mihinkään	-11.0751
▁puske	-11.0751
▁tuski	-11.0752
▁itsestään	-11.0752
▁tietämättä	-11.0754
▁Rii	-11.0754
▁laittom	-11.0755
▁almu	-11.0755
▁erotti	-11.0756
▁vaivoi	-11.0761
▁koriste	-11.0762
▁palatkoo	-11.0767
▁avara	-11.0773
▁veisatkaa	-11.0779
▁Rik	-11.078
Astukaa	-11.0783
▁ketkä	-11.0786
▁enempää	-11.0789
▁karhu	-11.0802
▁määräykse	-11.0812
▁vaal	-11.0819
▁kiittäkää	-11.0821
▁kuljettava	-11.0824
▁tietoon	-11.083
▁sukulaise	-11.0849
▁kaitseva	-11.086
▁onnellise	-11.0866
▁menestyisit	-11.0877
▁voimallisi	-11.0878
▁seitsenhaaraise	-11.0879
▁lukumäärä	-11.0886
▁harmaa	-11.0916
▁kiusaukse	-11.0926
▁asumuks	-11.1009
▁into	-11.1033
▁rakennutt	-11.105
▁Isaskar	-11.1071
Mui	-11.1073
▁väkivaltaise	-11.1114
lause	-11.1128
▁viiniköynnökse	-11.1151
Elä	-11.1217
yhdeksänkymmentä	-11.1259
▁häpeällise	-11.1259
▁vanhempi	-11.1262
huuli	-11.1272
▁Olkoo	-11.1332
▁ylimmä	-11.1335
▁kuninkaalli	-11.1399
▁onnettom	-11.141
kaupungeissa	-11.1445
U	-11.1446
kaupunki	-11.1446
lapset	-11.1446
Daavid	-11.1446
▁kuudenne	-11.1446
liitto	-11.1447
kaikki	-11.1448
töitä	-11.1448
Mutta	-11.1453
päämies	-11.1454
▁Saafan	-11.1456
▁Miehe	-11.1474
▁saalis	-11.1491
▁Riemu	-11.1502
▁Abinadab	-11.1503
▁Amminadab	-11.1503
▁Geersom	-11.1503
▁kyykäärme	-11.1503
▁lempe	-11.1503
▁vanhurskaudesta	-11.1503
▁Debir	-11.1503
▁Eglon	-11.1503
▁Etelämaahan	-11.1503
▁Geehasi	-11.1503
▁Herodeksen	-11.1503
▁Joosabad	-11.1503
▁Meedia	-11.1503
▁Piinehas	-11.1503
▁Rebekka	-11.1503
▁Sefatja	-11.1503
▁[5	-11.1503
▁apostolei	-11.1503
▁erehdyksestä	-11.1503
▁hajuaineita	-11.1503
▁heilutuksen	-11.1503
▁heinäsirkkoja	-11.1503
▁hurmoksiin	-11.1503
▁ilmaissut	-11.1503
▁juomanlaskija	-11.1503
▁juomauhreja	-11.1503
▁kaukaisi	-11.1503
▁kohoava	-11.1503
▁kuninkuus	-11.1503
▁lampaitte	-11.1503
▁levinnyt	-11.1503
▁matkusti	-11.1503
▁miehellä	-11.1503
▁mietevirsi	-11.1503
▁naarasleijona	-11.1503
▁nuhteettomasti	-11.1503
▁nöyri	-11.1503
▁peljätkää	-11.1503
▁pilkkopimeä	-11.1503
▁rangaiskoo	-11.1503
▁ristikkokoriste	-11.1503
▁ryöväri	-11.1503
▁saapuvilla	-11.1503
▁salaisuus	-11.1503
▁setripuita	-11.1503
▁säikäh	-11.1503
▁toreilla	-11.1503
▁tunnusti	-11.1503
▁ulkokullatut	-11.1503
▁vaikutuksesta	-11.1503
▁vastedes	-11.1503
▁viinikuurna	-11.1503
▁viinitarhuri	-11.1503
▁vuodenvanhaa	-11.1503
▁ylösnousemus	-11.1503
▁aavikkosu	-11.1503
▁hallituksen	-11.1503
▁huulensa	-11.1503
▁jisreeliläi	-11.1503
▁jumalattomuude	-11.1503
▁metsäkyyhkys	-11.1503
▁paksu	-11.1503
▁riemuitkoot	-11.1503
▁sinetöi	-11.1503
▁synnissä	-11.1503
▁tempasi	-11.1503
▁uskollisuutta	-11.1503
▁verenkostaja	-11.1503
▁ympärileikkauks	-11.1503
Ilmoit	-11.1503
▁appe	-11.1503
▁hetkestä	-11.1503
▁hyökät	-11.1503
▁päässyt	-11.1503
▁kotoisin	-11.1503
▁lupauksesi	-11.1503
▁näyttäyty	-11.1503
▁ylenkatse	-11.1503
▁Askelon	-11.1503
▁sinetti	-11.1503
▁pätevä	-11.1503
▁vapaiksi	-11.1503
▁Jedaja	-11.1503
▁nurja	-11.1503
▁sytytä	-11.1503
▁mannaa	-11.1503
▁aalto	-11.1503
▁hartioi	-11.1503
▁poikinensa	-11.1503
▁näänny	-11.1503
▁ohella	-11.1503
▁pituinen	-11.1503
▁kuudentena	-11.1503
▁lepäsi	-11.1503
▁Neerin	-11.1503
▁Raamattu	-11.1503
▁saastaisuude	-11.1503
▁hallussa	-11.1503
▁kimpus	-11.1503
▁vuorta	-11.1503
▁kätketty	-11.1503
▁hiljais	-11.1503
▁riemuiten	-11.1504
▁nauru	-11.1504
▁kaadu	-11.1504
▁usea	-11.1504
▁joukolle	-11.1504
▁vaikene	-11.1504
▁salvat	-11.1504
▁parane	-11.1504
▁yltä	-11.1504
▁mentyä	-11.1504
▁yrtt	-11.1504
▁lakkasi	-11.1505
▁olentojen	-11.1505
▁outo	-11.1505
▁muistele	-11.1505
▁esikuv	-11.1506
▁koonnut	-11.1506
▁hopeavati	-11.1506
nomin	-11.1506
▁kerrottiin	-11.1507
▁vuodatettu	-11.1507
▁lähtekööt	-11.1508
▁rakennetaan	-11.1508
▁Baasanissa	-11.1508
▁ollen	-11.1508
▁perikato	-11.1508
▁sydämeensä	-11.1508
▁vyöry	-11.1509
▁sotavaunujen	-11.151
▁kiroil	-11.151
▁nimiini	-11.1511
▁puhdistautu	-11.1511
▁ylöspäin	-11.1512
▁selitti	-11.1512
▁vartioitse	-11.1513
▁Rimmoni	-11.1514
▁hävittävä	-11.1515
▁hillitse	-11.1517
▁voimakkaa	-11.1518
▁kärsimän	-11.1519
▁ruvet	-11.152
▁Abihu	-11.152
▁harjoitti	-11.1521
▁imett	-11.1524
▁samankaltai	-11.1531
▁katuj	-11.1533
osadak	-11.1538
▁sorra	-11.1539
ddai	-11.1556
▁Noudattak	-11.1559
▁kätkö	-11.1575
▁tuhotakse	-11.1579
Taivas	-11.1596
▁jätett	-11.1632
▁millai	-11.1749
▁tutkistel	-11.1762
ttomina	-11.1804
▁päällys	-11.1808
▁taivaallise	-11.1815
antaja	-11.1846
kaksikymmenvuoti	-11.195
▁iljetykse	-11.1965
▁tehtävi	-11.2026
▁heettiläis	-11.2063
seitsemäntuhatta	-11.2093
Kunnioit	-11.2096
▁aikoje	-11.2126
▁Asser	-11.2185
▁pitkämielis	-11.219
▁peseyty	-11.2214
▁pahoj	-11.2215
▁totise	-11.2242
▁Ussi	-11.2246
▁eläessä	-11.2273
Israel	-11.2279
Minkä	-11.228
vero	-11.2286
leipä	-11.2299
▁kanaanilais	-11.2314
▁virheetön	-11.2324
▁inhotta	-11.2328
ppeja	-11.2333
▁neljännes	-11.2334
▁Iisboset	-11.2336
▁auringonnousu	-11.2336
▁Babylon	-11.2336
▁Häpeä	-11.2336
▁granaattiomena	-11.2336
▁huoneenhaltija	-11.2336
▁nuhtelu	-11.2336
▁paljastettu	-11.2336
▁palvelustehtävä	-11.2336
▁profeetanoppila	-11.2336
▁roukkio	-11.2336
▁torju	-11.2336
▁viininkorjuu	-11.2336
▁vilpittömä	-11.2336
aikkeinpyhimpään	-11.2336
▁Batseba	-11.2336
▁Gaal	-11.2336
▁Hermoni	-11.2336
▁Huuram	-11.2336
▁Kääntykää	-11.2336
▁Magdaleena	-11.2336
▁Megiddo	-11.2336
▁Salmunna	-11.2336
▁Sebedeuksen	-11.2336
▁Yhtä	-11.2336
▁aallot	-11.2336
▁armahtavainen	-11.2336
▁haudalle	-11.2336
▁huomenaamuna	-11.2336
▁hyvyyttä	-11.2336
▁häväissyt	-11.2336
▁israelilaisista	-11.2336
▁kamelien	-11.2336
▁kansakuntien	-11.2336
▁katsahti	-11.2336
▁kultakuppi	-11.2336
▁käännettynä	-11.2336
▁maakunnassa	-11.2336
▁maanjäristys	-11.2336
▁mahdotonta	-11.2336
▁manasselais	-11.2336
▁merkiksi	-11.2336
▁miehesi	-11.2336
▁mielui	-11.2336
▁naapurei	-11.2336
▁notkist	-11.2336
▁omatunto	-11.2336
▁paatumukse	-11.2336
▁pasunoihin	-11.2336
▁rajuilma	-11.2336
▁ruovo	-11.2336
▁salaisuuden	-11.2336
▁simeonilais	-11.2336
▁synkeyde	-11.2336
▁syvyyteen	-11.2336
▁tapahtukoon	-11.2336
▁tähteni	-11.2336
▁vaeltaisi	-11.2336
▁viheriä	-11.2336
▁vyöttäyty	-11.2336
▁ylenkatso	-11.2336
▁ylenpalttisesti	-11.2336
▁ärjyy	-11.2336
▁Antiokiaan	-11.2336
▁Hullu	-11.2336
▁Iddo	-11.2336
▁Mahanaimi	-11.2336
▁ansainnut	-11.2336
▁kauhistavi	-11.2336
▁kärsivällisyyde	-11.2336
▁maakunnan	-11.2336
▁siunaisi	-11.2336
▁tuulispää	-11.2336
▁verivela	-11.2336
▁yksimielisesti	-11.2336
▁asetuksiasi	-11.2336
▁kaksinkertaise	-11.2336
▁luvallista	-11.2336
▁useampia	-11.2336
▁Ornan	-11.2336
▁hankkee	-11.2336
▁lujina	-11.2336
▁vaeltakaa	-11.2336
▁Barsillai	-11.2336
▁ehye	-11.2336
▁tultiin	-11.2336
▁valetun	-11.2336
▁anotte	-11.2337
▁vaatteissa	-11.2337
▁vihkiyty	-11.2337
▁viivyttele	-11.2337
▁käsivarsi	-11.2337
▁pituiset	-11.2337
▁peittänyt	-11.2337
Terve	-11.2337
▁paikkakunna	-11.2337
▁Ebed	-11.2337
▁harhaan	-11.2337
▁kamelin	-11.2337
▁Paljon	-11.2337
▁pääsiäinen	-11.2337
▁taivaisiin	-11.2337
▁Betania	-11.2337
▁kuuluttakaa	-11.2337
▁näkyviin	-11.2337
▁Siif	-11.2337
▁ohessa	-11.2337
▁haltija	-11.2337
▁oikeuteni	-11.2337
▁kuluttanut	-11.2337
▁kuurna	-11.2337
▁aihe	-11.2337
▁Sikri	-11.2337
▁anomisen	-11.2337
▁Tarsiin	-11.2337
▁istuimella	-11.2337
▁joukot	-11.2337
▁vesiastia	-11.2337
▁itsestänne	-11.2337
▁Aksa	-11.2337
▁ammu	-11.2337
▁kultarengasta	-11.2337
▁kukkaro	-11.2338
▁pidettävä	-11.2338
▁otollise	-11.2338
4]	-11.2338
▁Nebo	-11.2338
▁ratsumiehiä	-11.2338
karsikko	-11.2338
▁huolehti	-11.2339
▁tullessansa	-11.2339
▁viiko	-11.2339
▁lehvi	-11.2339
▁Baana	-11.2339
▁koetukse	-11.234
▁valtakunnasta	-11.234
▁alaiseksi	-11.234
▁Simea	-11.234
▁Beria	-11.2341
▁pylväät	-11.2341
▁poikineen	-11.2341
▁paeta	-11.2342
▁ylpeys	-11.2342
▁orjatar	-11.2342
▁Aija	-11.2343
▁uuni	-11.2344
▁kokonansa	-11.2346
▁kasvoihin	-11.2346
▁tammen	-11.2346
▁ramp	-11.2347
▁hävet	-11.2347
▁meteli	-11.2356
▁Seela	-11.2357
▁valhettele	-11.2359
Väki	-11.2362
▁keeniläi	-11.2373
▁iloitko	-11.2377
▁viisaute	-11.2383
uudet	-11.2385
▁kannel	-11.2388
▁pakolai	-11.239
▁sokais	-11.2403
▁hekuma	-11.2415
▁hinta	-11.2428
eberi	-11.2429
▁survo	-11.2436
▁koste	-11.2476
ettäisiin	-11.2507
▁riemuvuote	-11.2583
▁antimaa	-11.2621
▁Sikem	-11.2629
Arba	-11.265
▁leiriytyköö	-11.2702
uutena	-11.2711
▁kahdeksa	-11.2823
▁muist	-11.2907
▁pitäköö	-11.2908
▁kumma	-11.291
▁väkivaltaist	-11.2994
▁tiettäv	-11.3121
▁kuuliaisuu	-11.3125
oukut	-11.3127
benjaminilaisten	-11.3181
▁vapise	-11.3183
päällikkö	-11.3187
luvun	-11.3188
Mooab	-11.3188
Johannes	-11.3188
viittä	-11.3188
Kaikki	-11.3188
▁hillit	-11.323
arhain	-11.3237
▁neuvotel	-11.3242
▁Ahasvero	-11.3244
▁sireeninnahk	-11.3246
▁[1	-11.3246
6	-11.3246
▁ahkeroi	-11.3246
▁geersonilais	-11.3246
▁kaksois	-11.3246
▁karitsoita	-11.3246
▁kelvolli	-11.3246
▁kelvoton	-11.3246
▁kiivaudessa	-11.3246
▁kurjuutta	-11.3246
▁lähdimme	-11.3246
▁löydetä	-11.3246
▁niskoittele	-11.3246
▁ripusta	-11.3246
▁sisimpään	-11.3246
▁sivukammio	-11.3246
▁yhdelle	-11.3246
▁ylenpalttis	-11.3246
Ensimmäinen	-11.3246
Huomenna	-11.3246
Rukoilkaa	-11.3246
▁Agrippa	-11.3246
▁Gatin	-11.3246
▁Haggai	-11.3246
▁Heräjä	-11.3246
▁Iskariot	-11.3246
▁Jeesuksesta	-11.3246
▁Jegiel	-11.3246
▁Niilivirra	-11.3246
▁Rebekan	-11.3246
▁Tyhmä	-11.3246
▁[6	-11.3246
▁ammonilainen	-11.3246
▁aviorikokse	-11.3246
▁esirippu	-11.3246
▁filistealainen	-11.3246
▁hevonen	-11.3246
▁hoitoon	-11.3246
▁huuleni	-11.3246
▁idästä	-11.3246
▁ikiajoiksi	-11.3246
▁itkuvirsi	-11.3246
▁juurta	-11.3246
▁koetteli	-11.3246
▁käskynhaltijoi	-11.3246
▁lankeemukse	-11.3246
▁lisääntyä	-11.3246
▁miellytt	-11.3246
▁murehdi	-11.3246
▁murheellisiksi	-11.3246
▁musersi	-11.3246
▁muserta	-11.3246
▁niskureita	-11.3246
▁niskuri	-11.3246
▁näkyleivät	-11.3246
▁peruuttamaton	-11.3246
▁pilkku	-11.3246
▁poikenneet	-11.3246
▁poiket	-11.3246
▁pyyhki	-11.3246
▁rohkeutta	-11.3246
▁rosvo	-11.3246
▁seppele	-11.3246
▁sirppi	-11.3246
▁sovelias	-11.3246
▁tiili	-11.3246
▁tähystäjä	-11.3246
▁valkeudessa	-11.3246
▁vanhempansa	-11.3246
▁vankeudessa	-11.3246
▁vankeudesta	-11.3246
▁vapaaehtoisi	-11.3246
▁varjelkoon	-11.3246
▁yljä	-11.3246
▁Diibon	-11.3246
▁Meriba	-11.3246
▁Oofiri	-11.3246
▁Sippor	-11.3246
▁hengissä	-11.3246
▁kauhistava	-11.3246
▁keskimmäi	-11.3246
▁kuluessa	-11.3246
▁meluisa	-11.3246
▁naimisiin	-11.3246
▁suljettuna	-11.3246
▁synnyttäjä	-11.3246
▁vaikeroi	-11.3246
▁vaippaan	-11.3246
▁valtikka	-11.3246
▁viinitarhoi	-11.3246
▁Dedan	-11.3246
▁Lemek	-11.3246
▁hyppi	-11.3246
▁jalkamiestä	-11.3246
▁länsipuol	-11.3246
▁suitsukkeen	-11.3246
▁suloinen	-11.3246
▁viheltä	-11.3246
kilvet	-11.3246
▁kilju	-11.3246
▁polki	-11.3246
▁vaiheilla	-11.3246
▁Jaafet	-11.3246
▁Väär	-11.3246
▁hedelmistä	-11.3246
▁isillemme	-11.3246
▁pääsiäisen	-11.3246
▁sotaväki	-11.3246
▁hinnasta	-11.3246
▁huutaen	-11.3246
▁kaluineen	-11.3246
▁pohjoisessa	-11.3246
▁ylistyksen	-11.3246
▁lähdettyä	-11.3246
▁netofalai	-11.3246
▁varjeli	-11.3246
▁Kerran	-11.3246
▁näköinen	-11.3246
▁rietta	-11.3246
▁kaatuneita	-11.3246
▁nahasta	-11.3246
▁portai	-11.3246
▁uskollisuute	-11.3246
▁julmi	-11.3246
▁vaeltama	-11.3246
▁Elihu	-11.3246
▁nähty	-11.3246
▁villiaasi	-11.3246
▁Haanun	-11.3246
▁peitetty	-11.3246
▁lukeneet	-11.3246
▁näkönsä	-11.3246
▁riutu	-11.3246
▁kulku	-11.3246
▁lilja	-11.3246
▁tavattiin	-11.3246
▁keskenämme	-11.3246
▁huulilta	-11.3246
▁pöydässä	-11.3246
▁kahtia	-11.3246
▁ilme	-11.3246
▁renkaa	-11.3246
▁talve	-11.3246
▁hopearaha	-11.3246
▁kuninkaalta	-11.3246
▁vasken	-11.3246
▁ihani	-11.3246
▁eteinen	-11.3246
▁huostaan	-11.3246
▁hiljaisuudessa	-11.3246
▁laiska	-11.3246
▁Haaran	-11.3246
▁Milka	-11.3246
▁tavataan	-11.3247
▁jalustoineen	-11.3247
▁talutta	-11.3247
▁itsestäni	-11.3247
▁odotamme	-11.3247
▁nauha	-11.3247
▁urhoollis	-11.3247
▁Mikmaa	-11.3247
▁vanhurskaudella	-11.3247
▁kaunistukse	-11.3248
▁kisko	-11.3248
▁kakku	-11.3248
Julista	-11.3248
▁alueelta	-11.3248
▁tulemukse	-11.3248
▁paikoill	-11.3248
▁raiska	-11.3249
▁karkasi	-11.3249
▁kylmä	-11.3249
hedelm	-11.3249
▁herjat	-11.3249
▁ihokkaan	-11.3249
▁virtoje	-11.325
▁etumai	-11.3252
▁Hanani	-11.3253
▁petty	-11.3254
▁Kauhu	-11.3256
rintaliha	-11.3256
▁rehellis	-11.3258
▁upot	-11.3258
▁tallat	-11.3258
▁hoht	-11.326
▁varsink	-11.3263
▁heilutt	-11.3265
Kuole	-11.3271
Laske	-11.3271
piirr	-11.3278
▁asujattom	-11.3278
▁yhdeksäs	-11.328
▁paljai	-11.3281
▁loistava	-11.3289
ebar	-11.3309
▁telinee	-11.3316
▁selvi	-11.3325
▁heikkoude	-11.3331
▁seutu	-11.3338
surmattujen	-11.3362
▁Adoni	-11.3665
▁milt	-11.37
laji	-11.3732
▁huokauks	-11.3813
▁surmatakse	-11.3817
▁pysähty	-11.3822
▁onyks	-11.3834
▁ikuis	-11.3878
▁Gedalja	-11.4069
▁nost	-11.4167
empään	-11.4168
▁vähäise	-11.4171
eläinten	-11.4187
Saul	-11.4189
▁ylimmäise	-11.4189
seppä	-11.419
▁vierit	-11.4208
muotoista	-11.4215
▁rakentama	-11.4215
Rimmon	-11.4231
tömän	-11.4241
▁gaadilai	-11.4244
▁Temppeli	-11.4244
▁Öljy	-11.4245
▁Ammihud	-11.4246
▁Jeroham	-11.4246
▁urotöistä	-11.4246
▁Gerari	-11.4246
▁Melkisedek	-11.4246
▁satuloi	-11.4246
Barnea	-11.4246
Beltsassar	-11.4246
▁Berekja	-11.4246
▁Daagoni	-11.4246
▁Debora	-11.4246
▁Eehud	-11.4246
▁Festus	-11.4246
▁Gatiin	-11.4246
▁Hengestä	-11.4246
▁Kooreksen	-11.4246
▁Nahson	-11.4246
▁Neerian	-11.4246
▁Pereksen	-11.4246
▁Sanballat	-11.4246
▁Sefanja	-11.4246
▁Selemja	-11.4246
▁Vanhurskau	-11.4246
▁Ystävä	-11.4246
▁akkuna	-11.4246
▁arabialai	-11.4246
▁baaleja	-11.4246
▁etunenässä	-11.4246
▁gatilaise	-11.4246
▁halveksu	-11.4246
▁havainnut	-11.4246
▁hurmoksissa	-11.4246
▁iltahämärässä	-11.4246
▁israelilaisilta	-11.4246
▁jälkeläistä	-11.4246
▁järky	-11.4246
▁jäähyväis	-11.4246
▁kahlauspaik	-11.4246
▁kansleri	-11.4246
▁kaupungeille	-11.4246
▁kaupungille	-11.4246
▁kelvottomi	-11.4246
▁kenelläkään	-11.4246
▁kirjanoppinut	-11.4246
▁kirkkauteen	-11.4246
▁kiviroukkio	-11.4246
▁koiruoho	-11.4246
▁koristepienat	-11.4246
▁kukkalehtineen	-11.4246
▁kurjuuden	-11.4246
▁kurkku	-11.4246
▁kylvetään	-11.4246
▁käveli	-11.4246
▁lahjoista	-11.4246
▁lahjuksia	-11.4246
▁leveyden	-11.4246
▁levolle	-11.4246
▁lyijy	-11.4246
▁maapalsta	-11.4246
▁matkusta	-11.4246
▁mieluummin	-11.4246
▁monilukuis	-11.4246
▁neitsyet	-11.4246
▁ovea	-11.4246
▁paadutti	-11.4246
▁pelastetu	-11.4246
▁pimeydestä	-11.4246
▁refalais	-11.4246
▁ripusti	-11.4246
▁safiiri	-11.4246
▁salaisuudet	-11.4246
▁seurakunnille	-11.4246
▁suinkaan	-11.4246
▁syntiuhrimullik	-11.4246
▁syyhelmä	-11.4246
▁syynalaisiksi	-11.4246
▁toveri	-11.4246
▁tyhmyy	-11.4246
▁työnteettäj	-11.4246
▁vaunusoturi	-11.4246
▁viiniköynnös	-11.4246
▁Efrat	-11.4246
▁Muukalai	-11.4246
▁[4	-11.4246
▁juhlakokous	-11.4246
▁juurtu	-11.4246
▁kahdella	-11.4246
▁kalleimma	-11.4246
▁kintereillä	-11.4246
▁kumpaa	-11.4246
▁nähtensä	-11.4246
▁närkästy	-11.4246
▁pilvenpatsa	-11.4246
▁tapahtuma	-11.4246
▁uhannut	-11.4246
▁yhteyde	-11.4246
▁yllyttä	-11.4246
▁Afek	-11.4246
▁Joppe	-11.4246
▁ennustuks	-11.4246
▁huuhto	-11.4246
▁hyökänn	-11.4246
▁johdosta	-11.4246
▁myöhemmi	-11.4246
▁nielais	-11.4246
▁nyök	-11.4246
▁nääntyy	-11.4246
▁pimeyttä	-11.4246
▁pyhyyde	-11.4246
▁vankeja	-11.4246
▁kiivaile	-11.4246
▁murtautu	-11.4246
▁sadanpäämiehi	-11.4246
▁tekeyty	-11.4246
▁yhdy	-11.4246
▁Koores	-11.4246
▁nousseet	-11.4246
▁omantunnon	-11.4246
▁höyste	-11.4246
▁päämiehille	-11.4246
kulmiin	-11.4246
▁Mamre	-11.4246
▁Naaha	-11.4246
▁huutakaa	-11.4246
▁härät	-11.4246
▁sydämelle	-11.4246
▁eläimille	-11.4246
▁lammiko	-11.4246
▁lehdet	-11.4246
▁pyhittäyty	-11.4246
▁Hoosa	-11.4246
▁perustuksen	-11.4246
▁miehiltä	-11.4246
▁yhdistety	-11.4246
▁taivaalla	-11.4246
▁Pidä	-11.4246
▁hakattu	-11.4246
▁ikiaiko	-11.4246
▁kivittivät	-11.4246
▁tuhassa	-11.4246
▁Tuonela	-11.4246
▁lampunjala	-11.4246
▁sotilas	-11.4246
▁puhalla	-11.4246
▁turviin	-11.4246
▁Joojakin	-11.4246
▁gaadilaisille	-11.4246
▁Vuoristo	-11.4246
▁pedot	-11.4246
▁Salma	-11.4246
▁vastustaji	-11.4246
▁hallita	-11.4246
uhreihin	-11.4246
▁Nasaretilaise	-11.4246
▁Martta	-11.4246
▁isännälle	-11.4246
▁langa	-11.4246
▁riiteli	-11.4246
▁vaikkei	-11.4246
▁kaisla	-11.4246
▁rangaistava	-11.4246
▁jalkoihi	-11.4246
▁jänte	-11.4246
▁Akaia	-11.4246
▁yhteise	-11.4246
▁tappaneet	-11.4246
▁Sekanja	-11.4246
▁uupu	-11.4246
▁matala	-11.4246
▁säär	-11.4246
▁rinte	-11.4247
▁vanhinta	-11.4247
▁imettävä	-11.4247
▁Jetro	-11.4247
Kirjoita	-11.4247
▁Kiir	-11.4247
▁naisille	-11.4247
▁Immeri	-11.4247
▁pitäen	-11.4247
▁tekoihin	-11.4248
▁välttäm	-11.4248
vasikat	-11.4248
▁isku	-11.4248
▁luopio	-11.4248
▁Betuel	-11.4248
▁kuninkaamme	-11.4248
▁hakatu	-11.4248
▁hukutan	-11.4249
▁Kenaan	-11.4249
▁veressä	-11.4249
▁ympärileikattuj	-11.4249
Aaveni	-11.4249
▁viitan	-11.4249
▁oikeuksien	-11.4249
dullami	-11.4249
▁aike	-11.4249
▁kerää	-11.425
▁vavistus	-11.425
▁nauti	-11.425
▁Taivaa	-11.4251
▁kärsimys	-11.4251
▁hävittämä	-11.4251
▁Heber	-11.4253
▁Sora	-11.4253
▁jumalattomuute	-11.4253
▁vaihta	-11.4254
▁kaadet	-11.4255
▁hajalle	-11.4257
▁Kurit	-11.4258
▁veisasi	-11.426
▁ravinn	-11.4263
▁kaarne	-11.4264
▁peittämä	-11.428
▁tuoree	-11.4288
▁katto	-11.4294
Mies	-11.4305
▁nykyise	-11.431
▁linko	-11.4341
▁sodi	-11.4363
▁tapaust	-11.4396
▁kankaas	-11.4398
▁virtaava	-11.44
▁puimatantereell	-11.4435
▁lapsettom	-11.4516
suitsutusalttari	-11.4548
kulkijat	-11.4593
▁kultasep	-11.4604
rakennuksen	-11.4662
▁kokoukse	-11.4689
▁maallisi	-11.4819
Kirj	-11.484
▁vanhukse	-11.4857
puhee	-11.4921
tetusta	-11.4939
▁syötäkö	-11.501
▁kyynärä	-11.5016
nuora	-11.5113
▁Moosekse	-11.5156
Kaiken	-11.5172
ysykää	-11.5173
▁halkoj	-11.518
▁leve	-11.518
palveluksessa	-11.5183
▁vaivaise	-11.52
kaupungit	-11.5224
▁jännit	-11.5228
▁riivaaji	-11.5228
▁maksakoo	-11.5265
Nouda	-11.5275
Siunat	-11.5298
Autua	-11.5299
palvelijoita	-11.5299
kivet	-11.5299
Baal	-11.5299
Jeesus	-11.5299
▁valio	-11.5307
▁hengellise	-11.5309
▁Kuitenk	-11.5311
▁ammonilais	-11.5328
▁alttii	-11.5337
▁näöltä	-11.5346
vaipune	-11.5354
▁Arpaksad	-11.5357
▁Besalel	-11.5357
▁Feeliks	-11.5357
▁Johanneksel	-11.5357
▁Keedari	-11.5357
▁Ruhtina	-11.5357
▁Sakkur	-11.5357
▁Tuubal	-11.5357
▁hoomer	-11.5357
▁kivijumalia	-11.5357
▁kumpaise	-11.5357
▁käärelakki	-11.5357
▁lehtimajanjuhla	-11.5357
▁perinnökse	-11.5357
▁perinnön	-11.5357
▁sävyis	-11.5357
itsenkertaisesti	-11.5357
▁Eljoenai	-11.5357
▁Geera	-11.5357
▁Joobab	-11.5357
▁Kristukseksi	-11.5357
▁Kristuksesta	-11.5357
▁Lapsukaise	-11.5357
▁Lähellä	-11.5357
▁Niilivirta	-11.5357
▁Paaranin	-11.5357
▁Suolamer	-11.5357
▁Uhra	-11.5357
▁Valittakaa	-11.5357
▁aikaisemmi	-11.5357
▁erinomai	-11.5357
▁havaittiin	-11.5357
▁heettiläinen	-11.5357
▁heinäsirkat	-11.5357
▁houkka	-11.5357
▁huuhdot	-11.5357
▁irroitet	-11.5357
▁juovuksissa	-11.5357
▁jälkikorjuu	-11.5357
▁kahdeksi	-11.5357
▁kameleja	-11.5357
▁kansanheimo	-11.5357
▁kattilat	-11.5357
▁kehoitti	-11.5357
▁kerskata	-11.5357
▁kirkkauteni	-11.5357
▁kivitaulua	-11.5357
▁kätilövaimo	-11.5357
▁kävelevä	-11.5357
▁leipoja	-11.5357
▁lyhyt	-11.5357
▁meedialai	-11.5357
▁miekalle	-11.5357
▁miekasta	-11.5357
▁orjiksi	-11.5357
▁papinvirka	-11.5357
▁pihtipiel	-11.5357
▁porteilla	-11.5357
▁profetia	-11.5357
▁pyhyyteni	-11.5357
▁pyyntö	-11.5357
▁raadeltu	-11.5357
▁ratsumiestä	-11.5357
▁ravintoa	-11.5357
▁rohkeude	-11.5357
▁silmänräpäykse	-11.5357
▁taampana	-11.5357
▁tapahtuneet	-11.5357
▁teltoissa	-11.5357
▁totuutesi	-11.5357
▁tuomioistuime	-11.5357
▁tupsu	-11.5357
▁tyhjiin	-11.5357
▁tähkäpäitä	-11.5357
▁valiomiestä	-11.5357
▁valittajaisia	-11.5357
▁vedenpaisumus	-11.5357
▁vihdoin	-11.5357
▁viikunoita	-11.5357
▁viinitarhurei	-11.5357
▁vähemmän	-11.5357
▁ylpisty	-11.5357
▁yltäkyllin	-11.5357
▁äidinkohdun	-11.5357
Heeferi	-11.5357
▁Etelämaassa	-11.5357
▁Henkensä	-11.5357
▁Makkeda	-11.5357
▁Tarsiiseen	-11.5357
▁armaani	-11.5357
▁elinpäivi	-11.5357
▁gileadilai	-11.5357
▁hyljit	-11.5357
▁hyvityksen	-11.5357
▁hävyn	-11.5357
▁lähimmäistänsä	-11.5357
▁peukalo	-11.5357
▁purjehd	-11.5357
▁ravituksi	-11.5357
▁ryntäsi	-11.5357
▁sydämeltä	-11.5357
▁syyttömän	-11.5357
▁tietäjähenki	-11.5357
▁tilaisuutta	-11.5357
▁vakoilemassa	-11.5357
▁viskasi	-11.5357
▁yksimielis	-11.5357
▁yllytti	-11.5357
▁Vuod	-11.5357
▁harpuilla	-11.5357
▁hädästä	-11.5357
▁murskaksi	-11.5357
▁naaras	-11.5357
▁ovesta	-11.5357
▁temppelisalin	-11.5357
▁Jekonja	-11.5357
▁Raafa	-11.5357
▁lahjus	-11.5357
▁päästyä	-11.5357
▁synneissä	-11.5357
▁säästi	-11.5357
▁toisaalle	-11.5357
▁vapahti	-11.5357
2:1	-11.5357
▁Penuel	-11.5357
▁kuollessaan	-11.5357
▁lapiot	-11.5357
▁synniksi	-11.5357
▁synnyinmaa	-11.5357
▁vahingoittaa	-11.5357
▁äsken	-11.5357
▁Sebadja	-11.5357
▁tyly	-11.5357
▁täytetty	-11.5357
▁sinetin	-11.5357
▁vertauksilla	-11.5357
▁pahuus	-11.5357
▁puutteessa	-11.5357
▁kavahtakaa	-11.5357
▁valetut	-11.5357
▁ylistetty	-11.5357
▁aarre	-11.5357
▁kiivastuksessa	-11.5357
▁laiho	-11.5357
▁väijyksissä	-11.5357
▁parannet	-11.5357
▁ryöstetty	-11.5357
▁kylvi	-11.5357
▁Palatkaa	-11.5357
▁Haarimi	-11.5357
▁sadosta	-11.5357
▁viskat	-11.5357
▁Elisabet	-11.5357
▁lautoja	-11.5357
▁rikokset	-11.5357
▁särjetty	-11.5357
▁uudin	-11.5357
▁kävell	-11.5357
▁rakentakaa	-11.5357
▁vuoresta	-11.5357
▁evästä	-11.5357
▁lukenut	-11.5357
▁saapunut	-11.5357
▁kohdun	-11.5357
▁manteli	-11.5357
▁Öljymäell	-11.5357
▁Jib	-11.5357
▁ruubenilaisille	-11.5357
▁kudotu	-11.5357
▁jalustat	-11.5357
▁kuolinpäivä	-11.5357
▁Pohja	-11.5357
▁hukkaan	-11.5357
Tyttäre	-11.5357
▁Oonan	-11.5357
▁riidellä	-11.5357
▁hopeakalu	-11.5357
▁tehkööt	-11.5357
▁herjaus	-11.5357
▁päälaen	-11.5357
▁valinneet	-11.5357
▁puhtaude	-11.5357
▁Sebna	-11.5357
▁käskysana	-11.5357
▁hoiti	-11.5357
▁arpaosa	-11.5357
▁asettakaa	-11.5357
▁alhaise	-11.5358
▁piilot	-11.5358
▁Käykää	-11.5358
▁päivänmatka	-11.5358
▁pauhu	-11.5358
▁kasvit	-11.5358
▁taidolla	-11.5359
Oikein	-11.5359
▁kului	-11.5359
▁Ruo	-11.5361
▁Sooari	-11.5362
▁Viholli	-11.5363
▁noustessa	-11.5364
▁Horma	-11.5364
▁Viini	-11.5364
kumpu	-11.5365
Surma	-11.5366
▁jalustaa	-11.5367
▁yhteysuhriteura	-11.537
▁korkeill	-11.5372
Kyllä	-11.5374
▁Mesek	-11.5374
Paetkaa	-11.5378
▁Odot	-11.5379
▁turvautu	-11.5381
▁korkuis	-11.5386
▁hallitusvuo	-11.5388
▁Pojall	-11.5388
ihokasta	-11.5402
▁lippukunt	-11.5405
▁vakuutt	-11.5416
▁ies	-11.5425
▁peittäköö	-11.5447
▁vakoil	-11.5489
▁saddukeuks	-11.5505
▁kantakoo	-11.5507
sadall	-11.5508
▁poltettav	-11.5515
▁paennee	-11.5536
▁Sellais	-11.5614
okaise	-11.5642
▁Seitsemä	-11.5685
▁opettaji	-11.5687
sukuluetteloihin	-11.569
▁verhoutu	-11.5691
Ylistet	-11.5796
▁rukoilkoo	-11.5937
▁suits	-11.5963
▁valhetell	-11.6015
tekijöitä	-11.608
▁vaatekappale	-11.612
▁naisell	-11.6181
Kysy	-11.6191
olttouhrialttari	-11.621
▁riitautu	-11.6226
▁yhdist	-11.6288
▁mulli	-11.6378
▁Jokaise	-11.6391
▁rautaise	-11.6395
▁Midiani	-11.6431
▁hoitakoo	-11.6443
▁jumalaapelkääv	-11.6478
▁tunteva	-11.6518
Olkoon	-11.6549
kaupunkeja	-11.6549
lahjoja	-11.6549
Aabraham	-11.6549
Juuda	-11.6549
utetuiksi	-11.6558
▁heimolais	-11.6569
▁samo	-11.6576
▁fariseus	-11.6599
nties	-11.6604
▁papeil	-11.6604
▁jalusto	-11.6605
▁[39:3	-11.6607
▁paluumatka	-11.6607
▁Abdon	-11.6607
▁Agag	-11.6607
▁Akkub	-11.6607
▁Belsassar	-11.6607
▁Jerahmeel	-11.6607
▁Kadmiel	-11.6607
▁Kolmanne	-11.6607
▁Mahalalel	-11.6607
▁Moloki	-11.6607
▁Profeetta	-11.6607
▁Raahab	-11.6607
▁aukko	-11.6607
▁gibeonilai	-11.6607
▁hautakammio	-11.6607
▁holho	-11.6607
▁kivenhakkaaji	-11.6607
▁peljäty	-11.6607
▁perinnäissääntö	-11.6607
▁rintahaarnisk	-11.6607
▁ryöstöretke	-11.6607
▁sapatteina	-11.6607
▁vedenpaisumukse	-11.6607
Semeksen	-11.6607
kielisoittimilla	-11.6607
▁Aroerista	-11.6607
▁Daarejaves	-11.6607
▁Eebal	-11.6607
▁Elifelet	-11.6607
▁Gilboa	-11.6607
▁Haggi	-11.6607
▁Juutalais	-11.6607
▁Kilikia	-11.6607
▁Mattitja	-11.6607
▁Menahem	-11.6607
▁Nehemia	-11.6607
▁Oikeamielis	-11.6607
▁Piinehaan	-11.6607
▁Sabdi	-11.6607
▁Sadraki	-11.6607
▁Salmon	-11.6607
▁Seerebja	-11.6607
▁alhaalta	-11.6607
▁ammoisi	-11.6607
▁astinlauda	-11.6607
▁edemmäksi	-11.6607
▁emäntä	-11.6607
▁esinahka	-11.6607
▁gesurilais	-11.6607
▁havaittaisi	-11.6607
▁havaittu	-11.6607
▁hebrealainen	-11.6607
▁hirsipuuhun	-11.6607
▁hävinnyt	-11.6607
▁idässä	-11.6607
▁jäljennö	-11.6607
▁kalleudet	-11.6607
▁kallisarvoisi	-11.6607
▁kansanjoukko	-11.6607
▁katkeroi	-11.6607
▁kerskatko	-11.6607
▁kiroussanaksi	-11.6607
▁kreikkalaisia	-11.6607
▁kuljimme	-11.6607
▁kuljin	-11.6607
▁kultakaluja	-11.6607
▁kuvapatsasta	-11.6607
▁kyyhkysenpoikaa	-11.6607
▁köydet	-11.6607
▁laiminlyö	-11.6607
▁laupeutensa	-11.6607
▁lehtimajoissa	-11.6607
▁leivällä	-11.6607
▁leivästä	-11.6607
▁lähdin	-11.6607
▁läheisyydessä	-11.6607
▁läksy	-11.6607
▁lännestä	-11.6607
▁lävisti	-11.6607
▁maksanlisäkkeen	-11.6607
▁matalammalta	-11.6607
▁merensaaret	-11.6607
▁mieheltä	-11.6607
▁miehenpuolet	-11.6607
▁miekoilla	-11.6607
▁märehti	-11.6607
▁nasiiri	-11.6607
▁nuppu	-11.6607
▁olkakappale	-11.6607
▁orvolle	-11.6607
▁pauhatessa	-11.6607
▁peltopalsta	-11.6607
▁perintöosiksi	-11.6607
▁porrasta	-11.6607
▁portilla	-11.6607
▁poskelle	-11.6607
▁puimatantereen	-11.6607
▁pääsiäislammas	-11.6607
▁rappeutunutta	-11.6607
▁repäise	-11.6607
▁rintakilpi	-11.6607
▁rintakilve	-11.6607
▁rypälemehu	-11.6607
▁saastaisuus	-11.6607
▁sadekuuro	-11.6607
▁seitsemälle	-11.6607
▁siirrä	-11.6607
▁sisäänkäytävä	-11.6607
▁sitoumukse	-11.6607
▁sotaväkensä	-11.6607
▁suurempaa	-11.6607
▁suvussa	-11.6607
▁sydämeesi	-11.6607
▁syntivelan	-11.6607
▁tavoitteli	-11.6607
▁todiste	-11.6607
▁tähkäpäätä	-11.6607
▁uudelleen	-11.6607
▁vaihteessa	-11.6607
▁vakoojia	-11.6607
▁valkeudeksi	-11.6607
▁vanhemmille	-11.6607
▁vaskikahleisiin	-11.6607
▁vaskirummu	-11.6607
▁verroin	-11.6607
▁vesilähtee	-11.6607
▁ylemmäksi	-11.6607
▁yltäkylläisyy	-11.6607
▁ympärileikkaus	-11.6607
Tappuah	-11.6607
▁Bosra	-11.6607
▁Päivä	-11.6607
▁Saabad	-11.6607
▁huulesi	-11.6607
▁härkien	-11.6607
▁hävitetyt	-11.6607
▁ismaelilai	-11.6607
▁kiitokseksi	-11.6607
▁kukoistaa	-11.6607
▁leimaht	-11.6607
▁lähtö	-11.6607
▁rauhoit	-11.6607
▁sankarei	-11.6607
▁syvyys	-11.6607
▁turmell	-11.6607
▁vaskirumpu	-11.6607
▁viheriöi	-11.6607
▁virkatover	-11.6607
▁ylty	-11.6607
▁Miisael	-11.6607
▁Pisga	-11.6607
▁Syyria	-11.6607
▁orjuute	-11.6607
▁pauloja	-11.6607
▁rohjenn	-11.6607
▁tyydyttä	-11.6607
▁vangin	-11.6607
▁Saafat	-11.6607
▁ihmeellinen	-11.6607
▁karvoja	-11.6607
▁lantio	-11.6607
▁miekkamiestä	-11.6607
▁siunatuiksi	-11.6607
▁synnyttäneet	-11.6607
▁talenti	-11.6607
▁Arauna	-11.6607
▁hylki	-11.6607
▁kahleissa	-11.6607
▁kilven	-11.6607
▁leveälti	-11.6607
▁luonnosta	-11.6607
▁tapettiin	-11.6607
▁valkeuteen	-11.6607
▁häpeällistä	-11.6607
▁sytytti	-11.6607
▁vaatteesi	-11.6607
▁merarilais	-11.6607
▁murheellisena	-11.6607
▁vaivoja	-11.6607
▁Jumalattomi	-11.6607
▁Rehum	-11.6607
▁Tuomas	-11.6607
▁elävinä	-11.6607
▁orjattari	-11.6607
▁haihtu	-11.6607
▁luvusta	-11.6607
▁luonnolli	-11.6607
▁poltetut	-11.6607
▁vaatteiden	-11.6607
▁Ofra	-11.6607
▁elonleikkuu	-11.6607
▁pahastui	-11.6607
▁Edrei	-11.6607
▁henkenne	-11.6607
▁osastojen	-11.6607
▁ruoste	-11.6607
▁teljet	-11.6607
▁vesipuro	-11.6607
Aurinko	-11.6607
▁nähkää	-11.6607
▁rutolla	-11.6607
▁Asarel	-11.6607
▁Tuskin	-11.6607
▁kannattavat	-11.6607
▁päätös	-11.6607
▁Kuuntele	-11.6607
▁säädety	-11.6607
▁soturi	-11.6607
▁alaisina	-11.6607
▁Maaresa	-11.6607
▁Pyhi	-11.6607
olmikymmenvuotis	-11.6607
▁sorretu	-11.6607
▁asioista	-11.6607
▁pojalla	-11.6607
▁uuvu	-11.6607
▁Eelon	-11.6607
▁tasoit	-11.6607
▁ympärileikkautt	-11.6607
▁Sibon	-11.6607
▁totteli	-11.6607
▁suunemilai	-11.6607
▁pöydästä	-11.6608
▁kerät	-11.6608
▁tavaroi	-11.6608
▁Etsikää	-11.6608
▁Muusi	-11.6608
▁kidasta	-11.6609
▁oksenta	-11.6609
▁lihavuude	-11.6609
▁kylissä	-11.6609
▁pienimmä	-11.6609
▁avartu	-11.661
▁ylpeyte	-11.661
▁taivutta	-11.661
▁ansio	-11.661
▁viekoittel	-11.6611
▁lannist	-11.6611
npitäjä	-11.6611
▁Sered	-11.6611
lehteen	-11.6612
▁pyhitykse	-11.6613
▁pyydyks	-11.6614
voidetta	-11.6615
▁ohimo	-11.6619
▁valkais	-11.662
▁tarvinn	-11.6622
Lyö	-11.6626
Toimit	-11.6646
▁hartaas	-11.6665
▁vaskialttari	-11.6671
abib	-11.668
▁turvakaupungi	-11.6691
pelkääväinen	-11.6743
▁sulkeutu	-11.6746
▁ohikulkij	-11.6795
Kenelle	-11.6805
▁iankaikkisest	-11.6826
▁avautu	-11.6837
Vyöt	-11.6844
esineihin	-11.6862
▁jumalisuude	-11.6879
Valmista	-11.6901
▁veisaaji	-11.6969
varustukset	-11.7186
asumuksessa	-11.7189
▁varoitukse	-11.7255
▁kirjaell	-11.7337
▁kääntyköö	-11.7538
vuotena	-11.7555
mielisyys	-11.7573
▁pyyd	-11.7694
▁Naabal	-11.7764
▁aramilais	-11.7775
Libanonilla	-11.7837
▁vanhemma	-11.7948
vuorelle	-11.7978
sydän	-11.7978
vuori	-11.7978
uhriteuraan	-11.7981
▁hyöty	-11.8
▁yhteys	-11.8017
polttouhr	-11.8032
rengasta	-11.8033
▁hiuskarva	-11.8035
▁Gedor	-11.8035
▁Nöyr	-11.8035
▁kutsuviera	-11.8035
▁luulevaisuu	-11.8035
▁neitsyy	-11.8035
▁palvelustehtävi	-11.8035
▁punastu	-11.8035
▁puronotkoi	-11.8035
▁vesilähtei	-11.8035
▁vuokra	-11.8035
Lähettäkää	-11.8035
karsikot	-11.8035
korppikotka	-11.8035
kymbaaleilla	-11.8035
kärsivällisyyttä	-11.8035
orjantappuroista	-11.8035
teurastettaviksi	-11.8035
▁Ahinoam	-11.8035
▁Arabia	-11.8035
▁Asmavet	-11.8035
▁Diison	-11.8035
▁Gesuri	-11.8035
▁Jabbok	-11.8035
▁Jerimot	-11.8035
▁Kahdeksantena	-11.8035
▁Kahdes	-11.8035
▁Kohottakaa	-11.8035
▁Kolmantena	-11.8035
▁Loppu	-11.8035
▁Merajot	-11.8035
▁Oorebi	-11.8035
▁Peres	-11.8035
▁Sakarias	-11.8035
▁Selofhadin	-11.8035
▁Stefanuksen	-11.8035
▁astetta	-11.8035
▁asunnoksi	-11.8035
▁aukealle	-11.8035
▁benjaminilainen	-11.8035
▁edustalta	-11.8035
▁egyptiläinen	-11.8035
▁eristety	-11.8035
▁helvettiin	-11.8035
▁hopeajalustaa	-11.8035
▁huudetaan	-11.8035
▁ikivanha	-11.8035
▁ilkityö	-11.8035
▁ilkkuen	-11.8035
▁irtautu	-11.8035
▁isoonvarpaaseen	-11.8035
▁itätuulen	-11.8035
▁kadehdi	-11.8035
▁kaikenkaltaisi	-11.8035
▁karjaeläimet	-11.8035
▁kerskai	-11.8035
▁keskuuteenne	-11.8035
▁kiihoitta	-11.8035
▁kirove	-11.8035
▁kohteli	-11.8035
▁krysoliitti	-11.8035
▁kylvettiin	-11.8035
▁kyyhkynen	-11.8035
▁laidassa	-11.8035
▁lunastusmaksu	-11.8035
▁lunnaiksi	-11.8035
▁lävitse	-11.8035
▁menetellyt	-11.8035
▁metsäeläime	-11.8035
▁miehuu	-11.8035
▁morsian	-11.8035
▁myllyn	-11.8035
▁niskoitellut	-11.8035
▁nouti	-11.8035
▁opetuslasta	-11.8035
▁orjantappuroita	-11.8035
▁orjina	-11.8035
▁orvon	-11.8035
▁oviaukko	-11.8035
▁paikaltansa	-11.8035
▁pakanakansois	-11.8035
▁paljastetu	-11.8035
▁papeiksi	-11.8035
▁pääsiäisuhr	-11.8035
▁renkaisiin	-11.8035
▁rikkaudesta	-11.8035
▁rohkeute	-11.8035
▁rouhensi	-11.8035
▁siipeä	-11.8035
▁silmillään	-11.8035
▁sinettisormukse	-11.8035
▁sotahuuto	-11.8035
▁suurimpaan	-11.8035
▁suvuista	-11.8035
▁sydämiänne	-11.8035
▁syvyyksiin	-11.8035
▁taholla	-11.8035
▁tavoittelua	-11.8035
▁todeksi	-11.8035
▁tunnustukse	-11.8035
▁tyydytä	-11.8035
▁tähtemme	-11.8035
▁tähteä	-11.8035
▁uhreista	-11.8035
▁urospuole	-11.8035
▁uutimen	-11.8035
▁valitushuuto	-11.8035
▁vasikoita	-11.8035
▁voittajana	-11.8035
▁vuorilinnaan	-11.8035
▁väkevyyden	-11.8035
▁yksinäisyyteen	-11.8035
▁ylipapeil	-11.8035
▁ylistykseksi	-11.8035
▁yläpuolelle	-11.8035
▁Beetsaida	-11.8035
▁Binnui	-11.8035
▁Delaja	-11.8035
▁Joojarib	-11.8035
▁Korkea	-11.8035
▁Malluk	-11.8035
▁Neljäntenä	-11.8035
▁Väkevä	-11.8035
▁haudasta	-11.8035
▁haudoista	-11.8035
▁houka	-11.8035
▁irroitta	-11.8035
▁julkisesti	-11.8035
▁keskusteli	-11.8035
▁kiitosvirsi	-11.8035
▁lauloi	-11.8035
▁leikkuuväe	-11.8035
▁ohdake	-11.8035
▁olkapää	-11.8035
▁peljätä	-11.8035
▁perintöomaisuu	-11.8035
▁pojanpoika	-11.8035
▁raittiit	-11.8035
▁sammakoita	-11.8035
▁sebulonilai	-11.8035
▁syyhyn	-11.8035
▁säiky	-11.8035
▁särki	-11.8035
▁särpi	-11.8035
▁tulisoihtu	-11.8035
▁ulkokultaisuu	-11.8035
▁uskottomuute	-11.8035
▁vartionpi	-11.8035
▁vaskijalusto	-11.8035
▁ylimykset	-11.8035
▁ylätasango	-11.8035
Hogla	-11.8035
▁Abiramin	-11.8035
▁Delila	-11.8035
▁Herodi	-11.8035
▁Kedeksen	-11.8035
▁anakilaist	-11.8035
▁helmiä	-11.8035
▁häviön	-11.8035
▁kahleisiin	-11.8035
▁kauppakirj	-11.8035
▁kiivaasti	-11.8035
▁kolkutta	-11.8035
▁lähimmäistään	-11.8035
▁neliskulmai	-11.8035
▁niittää	-11.8035
▁oveen	-11.8035
▁paadutta	-11.8035
▁perillisiä	-11.8035
▁pikemmin	-11.8035
▁porttieteisen	-11.8035
▁rakkautesi	-11.8035
▁rikkaudet	-11.8035
▁rintakilpe	-11.8035
▁ryöstettäväksi	-11.8035
▁seurustel	-11.8035
▁sovitukseksi	-11.8035
▁todet	-11.8035
▁uskollisuus	-11.8035
▁karmelilai	-11.8035
▁kääriyty	-11.8035
▁paikoissa	-11.8035
▁vihoihin	-11.8035
▁Otniel	-11.8035
▁Sineari	-11.8035
▁Turha	-11.8035
▁vanhimpa	-11.8035
Abarimi	-11.8035
▁asujatar	-11.8035
▁hallinnut	-11.8035
▁laivoj	-11.8035
▁liekissä	-11.8035
Vahvista	-11.8035
▁ajettu	-11.8035
▁linnoituksi	-11.8035
▁mielty	-11.8035
▁raskaut	-11.8035
▁samarialais	-11.8035
▁siirret	-11.8035
▁Beerot	-11.8035
▁anomaan	-11.8035
leikkautti	-11.8035
▁Nahal	-11.8035
▁raskait	-11.8035
▁Eetami	-11.8035
▁Jaabini	-11.8035
Pohjois	-11.8035
anettelijan	-11.8035
palvelijatartasi	-11.8035
▁Goomer	-11.8035
▁Jahasiel	-11.8035
▁Dood	-11.8035
▁yritti	-11.8035
▁pahemmi	-11.8035
▁Aijaloni	-11.8035
▁ratsumiesten	-11.8036
ntiokia	-11.8036
runsaudessa	-11.8036
▁katsellessa	-11.8036
▁luopumukse	-11.8036
▁kittiläis	-11.8036
▁puhjenn	-11.8036
▁Jered	-11.8036
▁herroi	-11.8036
hämmästyksissään	-11.8037
▁vavistukse	-11.8037
▁järis	-11.8037
▁Arjok	-11.8038
▁kuolevaise	-11.8039
▁yksinäise	-11.804
▁pahemp	-11.8041
▁ihmiskätt	-11.8041
▁luopumus	-11.8043
▁Taanak	-11.8046
▁Puhal	-11.8052
▁serahilais	-11.8052
▁tuhosirk	-11.8053
▁teemanilai	-11.8054
▁miespuol	-11.8054
▁paetkoo	-11.8054
mppelipalvelijat	-11.8056
▁vieraill	-11.8061
Varmaan	-11.8063
▁polttouhriteura	-11.8072
▁hopeasekeli	-11.8094
virtoja	-11.8103
▁tahall	-11.8104
▁benjaminilais	-11.8119
▁murhamieh	-11.8145
▁kauneude	-11.8165
▁talletet	-11.8172
kyynäräinen	-11.8201
▁Onnelli	-11.8219
▁lepopaik	-11.8257
▁Gibeon	-11.8268
Osoit	-11.827
Iloitse	-11.837
ettyjä	-11.8382
ääntyneenä	-11.8398
tarkoitukse	-11.8407
▁kivittäköö	-11.8408
▁yhdistett	-11.8415
varustuksia	-11.8994
▁iljety	-11.9049
▁ristiinnauli	-11.9172
Kumpi	-11.9188
▁pakopaik	-11.9286
▁vanhurskaall	-11.9344
▁oikei	-11.953
▁armaht	-11.957
Z	-14.2525
Ö	-14.2526
7	-14.2527
8	-14.2528
(	-14.2529
[	-14.253
F	-14.2531
Y	-14.2532
G	-14.2533
D	-14.2534
/	-14.2535
N	-14.2535
