<pad>	0
</s>	0
<unk>	0
▁¦	-0
▁Ꭰ	-1
▁Ꭴ	-2
▁Ꮎ	-3
ᏍᎩ	-4
ᏍᏗ	-5
▁Ꭲ	-6
▁ᎠᎴ	-7
▁,	-8
▁ᎾᏍᎩ	-9
▁Ꭸ	-10
ꮝꭹ	-11
▁Ꮒ	-12
ꮝꮧ	-13
▁ᎨᏒ	-14
▁𐊣	-15
▁Ꮵ	-16
▁Ꭶ	-17
▁Ꮧ	-18
ꭰꮄ	-19
▁Ꭿ	-20
▁.	-21
ꮎꮝꭹ	-22
▁ᎯᎠ	-23
ᎵᏍ	-24
▁Ꮷ	-25
ꭸꮢ	-26
ᏅᎯ	-27
▁Ꮔ	-28
▁Ꭼ	-29
▁;	-30
▁ᎢᏳ	-31
▁Ᏹ	-32
▁Ꭱ	-33
ᏗᏱ	-34
▁ᎤᏁ	-35
▁Ꮪ	-36
▁Ꭵ	-37
ᏓᏁ	-38
▁ᎠᏂ	-39
ᏓᏅ	-40
▁ᎤᏂ	-41
ᏍᎬ	-42
▁Ꮕ	-43
ᏍᎦ	-44
ᎯᏳ	-45
▁Ꭳ	-46
▁ᎥᏝ	-47
ꭿꭰ	-48
▁ᎨᏒᎢ	-49
ꮅꮝ	-50
ᏰᏃ	-51
ᏪᏎ	-52
ᎳᏅᎯ	-53
▁ᎤᎾ	-54
▁Ꮥ	-55
▁Ꮣ	-56
ᏍᏛ	-57
▁Ꭺ	-58
▁ᎤᏁᎳᏅᎯ	-59
ꮕꭿ	-60
ᏙᏗ	-61
▁ᏂᎦ	-62
ꭲᏻ	-63
ᏍᏗᏱ	-64
ᏤᎵ	-65
ᎬᏫ	-66
▁Ꭹ	-67
ᏍᎨ	-68
ᎬᏫᏳ	-69
ᎨᏒ	-70
ᏍᎩᏂ	-71
▁Ꮳ	-72
ᏓᎴ	-73
ꮧᏹ	-74
ᏎᏍᏗ	-75
▁ᎬᏩ	-76
ꭴꮑ	-77
ᎸᎩ	-78
ᏍᎪ	-79
▁ᏥᏌ	-80
ᏴᏫ	-81
ꭼꮹ	-82
ᎬᏩ	-83
ᏍᏓ	-84
▁ᎩᎶ	-85
▁ᎠᏎ	-86
▁ᎢᎦ	-87
ᎬᏫᏳᎯ	-88
ᏍᏉ	-89
ꮒꭶ	-90
ᏛᏁ	-91
ꮣꮑ	-92
ᏙᎯ	-93
▁ᎾᏍᏉ	-94
ꮣꮕ	-95
ᎸᎯ	-96
ꭴꮒ	-97
ᏔᏅ	-98
▁ᏴᏫ	-99
ꮝꭼ	-100
ᎴᎢ	-101
▁ᎬᏂ	-102
ᎦᏔ	-103
ꭿᏻ	-104
▁ᎾᏍᎩᏯ	-105
ꮝꭶ	-106
ꭸꮢꭲ	-107
ꭵꮭ	-108
▁ᎠᏴ	-109
ᏍᏓᏁ	-110
▁ᎤᏪ	-111
ᏩᏛ	-112
▁Ꮻ	-113
ꭰꮒ	-114
ᎸᏉ	-115
▁Ꮏ	-116
ꭴꮎ	-117
ᏸꮓ	-118
ᏃᎮ	-119
ꮺꮞ	-120
ꮃꮕꭿ	-121
▁ᎢᏥ	-122
ᏒᎩ	-123
ᎶᎯ	-124
▁ᎿᏉ	-125
▁ᎨᏎᏍᏗ	-126
▁ᎢᏣ	-127
ᏗᏳ	-128
▁ᎠᏥ	-129
ᏎᎢ	-130
ꭸꮞ	-131
ᏍᎨᏍᏗ	-132
ᎨᏒᎾ	-133
▁ᏥᎩ	-134
▁ᏂᎨᏒᎾ	-135
▁ᎤᎬᏫᏳᎯ	-136
ꮝꮫ	-137
ꭴꮑꮃꮕꭿ	-138
▁ᏂᎯ	-139
ᏩᏗ	-140
ᏙᏗᏱ	-141
ᎲᎢ	-142
▁ᎠᏎᏃ	-143
▁ᎢᏳᏍᏗ	-144
ꮩꮧ	-145
ᎸᎢ	-146
ꮝꮧᏹ	-147
ᎦᎵᏍ	-148
▁Ꭷ	-149
ᏣᏘ	-150
ᎶᏁ	-151
ꮴꮅ	-152
ᎧᎿ	-153
ᏁᎢ	-154
ᎸᏫ	-155
ꭼꮻ	-156
ꮝꭸ	-157
ᎮᏍᏗ	-158
▁ᎾᎿ	-159
ꭼꮻᏻ	-160
ᎶᏁᏛ	-161
▁ᏄᏪᏎ	-162
ᎸᏫᏍᏓᏁ	-163
ᎳᏗ	-164
ᏍᏕ	-165
ᏄᎪ	-166
ᎯᏍᏗ	-167
ᏍᏆ	-168
ꮣꮄ	-169
▁ᎦᎶᏁᏛ	-170
▁ᎤᏲ	-171
ꮝꭹꮒ	-172
▁ᎠᎩ	-173
ᏙᏓ	-174
ᏰᎸ	-175
▁ᏱᎩ	-176
▁Ꮤ	-177
ꭶꮈ	-178
▁ᏧᎾ	-179
▁ᏂᏚ	-180
ᏅᏛ	-181
ᏔᏅᎯ	-182
ꮵꮜ	-183
ᎱᏍᏗ	-184
▁ᎤᏤᎵ	-185
ꮈꭹ	-186
▁ᎠᎾ	-187
ꮝꭺ	-188
ꮒꭸꮢ	-189
▁ᎪᎱᏍᏗ	-190
ᏼꮻ	-191
ᏰᎵ	-192
ᏍᎬᎢ	-193
ᎵᏍᏗ	-194
ꭹꮆ	-195
▁ᎠᏁ	-196
▁ᏅᏓ	-197
▁ᏂᎦᏛ	-198
▁ᎢᏨ	-199
▁Ꮽ	-200
▁?	-201
ꭰꮞ	-202
ꭸꮞꮝꮧ	-203
ᏓᏙ	-204
▁ᎣᏍᏛ	-205
ꮧꭶ	-206
ꮝꮣ	-207
▁Ꮜ	-208
ꭲꭶ	-209
ᏓᏅᏙ	-210
▁ᎾᏍᎩᏃ	-211
▁ᎤᏩ	-212
ꭼꮻᏻꭿ	-213
▁ᎠᏆ	-214
▁ᎢᏳᏃ	-215
▁ᎢᏯ	-216
▁ᎦᏙ	-217
ꮝꮙ	-218
▁ᎤᎵ	-219
ꮫꮑ	-220
▁Ꮶ	-221
▁ᏗᎦ	-222
ᏓᎵ	-223
▁Ꮮ	-224
ꮩꭿ	-225
ᏂᎪ	-226
ꮎꮝꮙ	-227
▁ᎠᏍᎦ	-228
▁ᏧᏂ	-229
ꮤꮕ	-230
ᏩᏗᏙᎯ	-231
ꮈꭿ	-232
ᎦᎵᏍᏙᏗ	-233
▁ᎿᏉᏃ	-234
ꮄꭲ	-235
▁ᎢᎬ	-236
ᎨᏳ	-237
ᏓᎴᏅᏛ	-238
ꮎꮝꭹꮿ	-239
ᏅᎩ	-240
▁ᎤᏙ	-241
ꮒꭿ	-242
ꭴꮺ	-243
ꭰᏼ	-244
ꮝꮣꮑ	-245
▁ᏗᎧᎿ	-246
ꮵꭹ	-247
▁ᏗᏂ	-248
▁ᎦᎸ	-249
ᎦᏘ	-250
ꮹꮫ	-251
▁ᎤᏪᏥ	-252
▁ᎾᏂ	-253
ꮓꭾ	-254
ᏴᏛ	-255
▁ᏞᏍᏗ	-256
▁ᎡᎶᎯ	-257
▁ᎦᎸᏉ	-258
ꮏꮙ	-259
ꮢꭹ	-260
ᏅᏏ	-261
ꮆꭿ	-262
▁-	-263
▁ᎤᏣᏘ	-264
ᏛᎦ	-265
ꭲꮳ	-266
ꭲꮵ	-267
▁ᎠᏏ	-268
▁ᎤᏩᏒ	-269
ᎴᎰ	-270
ꮧᏻ	-271
ꭰꮵ	-272
ᎶᏗ	-273
ꮝꭸꮝꮧ	-274
ᏒᎯ	-275
▁ᏂᎦᎥ	-276
▁ᎧᏃᎮ	-277
ꮒꭸꮢꮎ	-278
ꭴꭼꮻᏻꭿ	-279
ᏗᎦᎵᏍᏙᏗ	-280
▁Ᏻ	-281
▁ᏚᏂ	-282
ᎷᏤ	-283
ᎲᎩ	-284
ᏒᎢ	-285
▁ᏄᏂ	-286
▁Ꮿ	-287
ꮹꮧ	-288
ꭲᏻꮝꮧ	-289
ꭶꮆ	-290
▁ᏂᏚᏪᏎ	-291
ᏅᎢ	-292
ꭺꭿ	-293
ᎪᎯ	-294
ᏓᏂ	-295
ᎵᏍᏓ	-296
ꮩꮧᏹ	-297
ꮂꭲ	-298
ꭰꮞꮓ	-299
▁ᎨᏥ	-300
▁ᏔᎵ	-301
ᏙᎥ	-302
ꭶꮤ	-303
▁ᎬᏂᎨᏒ	-304
ᎳᏫ	-305
ᏁᎸ	-306
▁ᎤᏙᎯᏳ	-307
ꮈꭲ	-308
▁ᎠᎦ	-309
ꮳꮨ	-310
ꮔꮺꮞ	-311
▁ᎯᎠᏃ	-312
▁ᏅᏩ	-313
ᏳᎪ	-314
▁ᎢᏳᎵᏍ	-315
▁[	-316
▁ᎠᏓᏅᏙ	-317
ᏴᎵ	-318
ꭷꮏ	-319
ᏍᏆᏂᎪ	-320
▁ᏄᏍᏛ	-321
ꮕꮫ	-322
ꮑꭲ	-323
▁ᎧᏃᎮᏛ	-324
ꮑꮫ	-325
ꭾꮝꮧ	-326
ꭶꮩ	-327
▁ᎣᏏ	-328
▁ᎠᏥᎸ	-329
ᏨᎯ	-330
ꮎꮏ	-331
ᏙᎴᎰ	-332
▁ᎠᏓ	-333
▁ᎦᎸᏉᏗᏳ	-334
ꮻꮝꮣꮑ	-335
ꭰꭹ	-336
▁ᎤᏟ	-337
ꭴᏺ	-338
ꭶꮆꮑꮫ	-339
ᏗᏢ	-340
ꮃꮧ	-341
ꮝꮥ	-342
ᎬᎢ	-343
ꮔꭺ	-344
ᏲᎱ	-345
ꭸꮵ	-346
ꮕꮣ	-347
ꭰꮑ	-348
ꮝꮖ	-349
▁ᏰᎵ	-350
▁Ꮴ	-351
ꮒꮪ	-352
▁ᎾᎯᏳ	-353
▁ᏅᏗᎦᎵᏍᏙᏗ	-354
ᏹꭹ	-355
ᏓᏅᏖ	-356
ꮷꮎ	-357
ᏛᎢ	-358
▁ᎣᏏᏳ	-359
ᏸꮈ	-360
ꮩꮣ	-361
▁ᏗᎧᎿᏩᏛ	-362
ᏔᏂ	-363
ᏄᎪᏫ	-364
▁ᎪᎯ	-365
ᎵᏍᏓᏴ	-366
▁ᎢᏴᏛ	-367
▁ᎢᎬᏱ	-368
ꭼꮒ	-369
ᏍᏙᏗ	-370
▁ᎦᎸᎳᏗ	-371
ᎵᏍᏓᏁ	-372
ᎲᎾ	-373
ᎲᏍᎩ	-374
▁Ꮩ	-375
▁ᎤᏕ	-376
ᏩᏂ	-377
▁ᎢᎩ	-378
ꮤꮕꭿ	-379
ᎨᏥ	-380
ᏔᏅᎩ	-381
ꮁꮝꮧ	-382
ᎨᏍᏗ	-383
ꭴꮴꮅ	-384
ᏪᏒᎩ	-385
▁ᎤᏅ	-386
▁ᎦᏚ	-387
▁ᎤᏙᎯᏳᎯ	-388
ꮕꭹ	-389
ꮅꮝꮩꮧ	-390
ꭰꮎ	-391
▁ᎾᏂᎥ	-392
ꭺꮁꮝꮧ	-393
▁ᏗᎧᎿᏩᏛᏍᏗ	-394
ᏐᎢ	-395
▁ᏚᎾ	-396
▁ᎠᏍᎦᏯ	-397
ᏸꮅ	-398
▁ᏌᏉ	-399
ꮣꮒ	-400
ᏂᎩ	-401
ᎦᏔᎭ	-402
ꮝꭼꭲ	-403
ᎷᏨ	-404
ᏔᏁ	-405
ꮅꮝꮧ	-406
ᏤᎵᎦ	-407
▁ᏱᎨ	-408
ꭿꮝꮧ	-409
ꮒꭶꮫ	-410
ᏍᎦᏅ	-411
▁ᎡᎯ	-412
▁ᎢᏤ	-413
▁ᎤᏬ	-414
▁ᏄᏪᏎᎢ	-415
ᎢᏍᏗᏱ	-416
▁ᎤᏤᎵᎦ	-417
ᏏᎵ	-418
▁Ꭽ	-419
▁Ꮘ	-420
ᏍᎨᎢ	-421
▁ᎤᏚ	-422
ᏍᎪᎢ	-423
ꮈꮻꮝꮣꮑ	-424
▁ᏅᏓᏳ	-425
ᏍᏓᏩᏗᏙᎯ	-426
ꭲꮸ	-427
ᏍᎬᎩ	-428
▁ᏕᏥ	-429
ᏗᏍᎩ	-430
▁ᏂᎬ	-431
▁ᏄᎵᏍ	-432
ᏓᏙᎵᏍᏗ	-433
ꭳꮝꮫ	-434
▁ᎢᏧ	-435
ᎮᎢ	-436
ꮣꮩ	-437
ᏍᏚ	-438
ᏕᎸ	-439
ᏳᏉ	-440
ᏛᎩ	-441
ᎯᏍᏗᏱ	-442
▁ᎡᏥ	-443
▁ᏍᎩ	-444
ꮎꮝꭹꮓ	-445
ꮣꮕꮩ	-446
ꭴꮹ	-447
ᏳᎪᏛ	-448
▁ᎬᏂᏳᏉ	-449
ꭴꮅ	-450
ᏓᏍᏗ	-451
ꭰꮖ	-452
ᎢᏳ	-453
ꭲꮿ	-454
ꭲᏻꮓ	-455
ꮣꮅ	-456
ᏁᎸᎯ	-457
▁ᏥᏌᏃ	-458
ᏅᏟ	-459
ꭴꮩ	-460
▁ᏕᏣ	-461
ꭰꮝꭶ	-462
ᎨᏴ	-463
ᏕᎩ	-464
ᏧᏏ	-465
ᎪᎸ	-466
▁ᎢᏳᎵᏍᏙᏗᏱ	-467
ᏲᎵ	-468
ꮒꭼ	-469
ᏔᏁᎢ	-470
ᏪᎵ	-471
ᏴᎵᎨ	-472
ꭶꮈꮙ	-473
▁Ꮭ	-474
▁ᏗᏥ	-475
ꮹꮧꮩꭿ	-476
ᏁᏗᏱ	-477
ꮏꮙꮓ	-478
ꮅꮝꮣ	-479
ᏲᎯ	-480
ꮷꮒ	-481
ꭲꭼ	-482
ꭸᏻ	-483
ꮮꮝꮧ	-484
ꮣꮄꮕꮫ	-485
ᏬᏂ	-486
ꮤꮅ	-487
▁ᏗᏣ	-488
▁ᎤᏂᏣᏘ	-489
▁ᎤᎵᏍ	-490
ꮧꭷꮏ	-491
▁ᎤᏓ	-492
ᏁᏤ	-493
ᏕᏲ	-494
▁ᏕᎦ	-495
ꮎꮒ	-496
▁ᎨᏎᎢ	-497
ᏗᎦ	-498
▁ᎤᎬᏩ	-499
ᎾᏛ	-500
ꮪꮒ	-501
ꮧꮒ	-502
ᏟᎶ	-503
▁ᏥᏂ	-504
ᎵᏏ	-505
ᏗᎭ	-506
ᏲᏎ	-507
ꭴꮺꮵ	-508
ꭰꮟ	-509
▁ᎪᎯᏳ	-510
ᏼꮫ	-511
ꭱꮆꭿ	-512
▁ᎤᏃ	-513
▁ᎠᏁᎯ	-514
ꮒꭺ	-515
ꮕꮟ	-516
▁ᏂᏥ	-517
ᎵᏰ	-518
ꭴꮳꮨ	-519
▁ᏚᏳᎪᏛ	-520
ᏓᏡ	-521
▁Ꮹ	-522
ꮞꭲ	-523
ꭰꮵꮈ	-524
ᏉᎳ	-525
ꮫꭶ	-526
▁ᎦᎵ	-527
▁ᎠᏂᏧᏏ	-528
ꮕꮹ	-529
ꭴꮹꮢ	-530
ꮄꮀ	-531
ᏪᎳ	-532
▁ᏂᏣ	-533
▁ᏥᎪ	-534
ꭷꮓꭾ	-535
▁ᏧᏓᎴᏅᏛ	-536
ᎰᎢ	-537
▁ᎤᏛ	-538
▁ᏔᎵᏁ	-539
ᎬᏫᏳᏒ	-540
ꮧꭶꮅꮝꮩꮧ	-541
▁ᎬᏩᏍᏓᏩᏗᏙᎯ	-542
ꮒꭶꭵ	-543
▁ᎢᏧᎳ	-544
ᎸᏗ	-545
▁ᏥᎨ	-546
ᎪᎲ	-547
ꮢꭿ	-548
▁ᏓᏂ	-549
▁ᏣᏂ	-550
▁ᎤᎬᏩᎵ	-551
ᏁᏗ	-552
▁ᏧᏪ	-553
ᏓᏗ	-554
ᏙᎵ	-555
ꮔꮒ	-556
ꮒꮪꮺꮞ	-557
▁Ꮸ	-558
ꮇꮴ	-559
ꭶꮪ	-560
ꮂꭹ	-561
ꮆꮧ	-562
ꮢꭲ	-563
▁ᎣᎩ	-564
▁ᏂᏨ	-565
▁ᎤᏓᏅ	-566
▁ᏉᎳ	-567
▁ᎢᏳᎾ	-568
▁ᎨᏒᎩ	-569
ᏛᏃ	-570
ꭶꮨ	-571
ᏍᎬᎾ	-572
ꭸꮞꭲ	-573
ꮕꮧꭶꮅꮝꮩꮧ	-574
ᏯᏅ	-575
ᎳᏫᎢᏍᏗᏱ	-576
ꮕꭲ	-577
▁ᎦᎪ	-578
▁ᏈᏓ	-579
ᏁᎶᏗ	-580
▁ᎤᎵᏂᎩ	-581
ᎧᎵ	-582
ᎵᏥ	-583
▁ᏂᎪᎯ	-584
ᏌᏛ	-585
ᏍᎪᎯ	-586
ᎵᏲ	-587
ᎾᏫ	-588
▁Ꮫ	-589
ꭼꮒꭸꮢ	-590
ꮃꮻ	-591
ꮑꮈ	-592
ᎮᎵ	-593
ᏻꭺ	-594
ꭴꮩꭿᏻ	-595
▁ᏂᏚᏪᏎᎴᎢ	-596
ᏁᎭ	-597
ᏙᎴᎰᏍᎩ	-598
ꭿꭰꮓ	-599
ꮔꮝꮫ	-600
ᏅᏏᏛ	-601
▁ᏄᎾ	-602
ꭰꮣꮕꮩ	-603
▁ᏄᏪᏒᎩ	-604
▁ᎠᎹ	-605
▁ᎬᏗ	-606
▁ᎦᏙᏃ	-607
ꮅꮝꮣꮑ	-608
ᏅᏏᏓᏍᏗ	-609
▁ᎤᏙᎯᏳᎯᏯ	-610
ᏼꮅ	-611
ꭰꮣ	-612
ꭷꮓꭾꮫ	-613
ᎢᏍᏗ	-614
▁ᎢᎨ	-615
▁ᎤᏁᏨ	-616
ꮝꮖꮒꭺ	-617
ᏄᏬ	-618
ᏍᏙᏗᏱ	-619
▁ᏄᏪᏎᎴᎢ	-620
ꭳꮟ	-621
▁Ᏼ	-622
▁ᎤᏰᎸ	-623
ꭶꮈꮙꮧᏻ	-624
ꭴꮯ	-625
ꭶꮅ	-626
▁ᎤᎩ	-627
▁ᏝᏍᎪ	-628
ᏁᎵ	-629
ꮸꭿ	-630
▁ᏥᎷ	-631
ꭺꮺ	-632
ꮅꮝꮩꮧᏹ	-633
ᏒᏃ	-634
▁Ꮡ	-635
▁ᏱᏥ	-636
▁ᎤᏲᎱ	-637
ꮎꭿᏻ	-638
ꮧꮲ	-639
ᎦᏘᏯ	-640
ꮩꮄꮀ	-641
▁ᎠᏂᏍᎦ	-642
ᎪᎢ	-643
ᏏᎵᎻ	-644
ꮅꮝꮣᏼ	-645
ꮪꮎ	-646
ᎴᏅ	-647
ᏺꮁ	-648
ᎥᎢ	-649
ᏍᏙ	-650
ᏯᏛ	-651
ᎬᎩ	-652
ᏂᏴ	-653
ꭼꭲ	-654
▁ᏦᎢ	-655
ꮣꮕꮦ	-656
▁ᎢᏧᎳᎭ	-657
▁ᏥᎷᏏᎵᎻ	-658
ᏉᏃ	-659
ꮈꮙ	-660
ꮫꭲ	-661
▁ᎩᎳ	-662
ꭳꮟᏻ	-663
▁ᏗᎬᏩ	-664
ꮧꭷꮏꮹꮫ	-665
ꮔꭺꮻ	-666
ꭶꮈꮃꮧ	-667
ᎦᎸ	-668
ꭲᏼꮫ	-669
ꭲꭼᏹ	-670
▁ᎢᏳᏩᏂ	-671
▁ᎪᎯᏳᏗ	-672
ᎫᏴ	-673
ꮝꮩꮧ	-674
ᎵᏍᎪᎸ	-675
▁Ꮖ	-676
ꭱꭿ	-677
▁ᎡᏍᎦ	-678
▁ᏣᎬᏫᏳᎯ	-679
ꮤꮒ	-680
▁ᎡᏣ	-681
▁ᎣᎦ	-682
ꮂꮝꭹ	-683
ꭴꮥ	-684
ꮂꮎ	-685
ᏂᎬ	-686
▁ᎠᎨᏴ	-687
▁ᏂᏚᏪᏎᎸᎩ	-688
ꭴꮕ	-689
ꮧꮵ	-690
▁ᏙᏓ	-691
▁ᎤᏅᏒ	-692
▁ᎬᏂᏛ	-693
ᏗᏔ	-694
ꭲꭹ	-695
ꮔꮅꮝ	-696
ꮤꮕꭹ	-697
ᏪᏎᎸᎩ	-698
▁ᎠᏰᎵ	-699
ꮔꮺꮞꭲ	-700
▁ᏅᏩᏓᎴ	-701
ꭸꮝꮧ	-702
▁ᎢᏯᏂ	-703
▁ᎾᏍᎩᏰᏃ	-704
ꭰꭶ	-705
ꮎꮒꭵ	-706
ᎲᏍᎦ	-707
ꮧꮝꭹ	-708
ꮺꮢꭹ	-709
ꭴꮩꭿᏻꭿ	-710
▁ᏄᏪᏎᎸᎩ	-711
ꭰꮝꭶꮿ	-712
ᎬᎾ	-713
ᏩᏘ	-714
ᏍᎩᎾ	-715
▁ᏗᏓ	-716
▁ᎠᎦᏔ	-717
ꮧꭷꮏꮹꮫꮝꮧ	-718
ꮥꮳ	-719
ꮥꮵ	-720
▁ᎤᏣ	-721
ꮜꮙ	-722
ꮠꭲ	-723
ᏃᎯᏳ	-724
▁ᎠᎦᏴᎵᎨ	-725
ᏦᎯᏳ	-726
ᏍᏔᏅᎯ	-727
ꮒꭹ	-728
ᏪᏎᎭ	-729
▁ᏕᎤ	-730
▁ᏂᎦᏗᏳ	-731
▁ᎤᏓᏙᎵᏍᏗ	-732
ꮤꮑ	-733
ꭲꮴ	-734
ꮇꮸ	-735
▁ᏗᎨ	-736
▁ᏥᏄ	-737
ꮹꮒ	-738
ᎳᎩ	-739
ꭴꮼ	-740
▁ᎠᏫ	-741
▁ᏥᏚ	-742
▁ᎠᏕᎸ	-743
▁ᎤᏍᏗ	-744
▁ᏧᏪᏥ	-745
▁ᏅᏗᎦᎵᏍᏙᏗᎭ	-746
ꮵꭺ	-747
ᏓᏂᎸ	-748
▁ᏓᎾ	-749
ꮝꭶꮕ	-750
ꮴꮅꭶ	-751
▁ᎤᎾᏓᏅ	-752
ꭴꮪ	-753
ꮥꭹ	-754
ꮧꮳ	-755
▁ᎢᎸ	-756
ꮪᏻꭺ	-757
ᏍᏕᏍᏗ	-758
▁ᏂᎦᏪ	-759
ꭲꮝꮧᏹ	-760
ꭴꮴꮅꭶ	-761
▁ᏧᎾᏓᎴᏅᏛ	-762
ꮟꮅ	-763
ᏍᏔᏅ	-764
ꮝꭸꭲ	-765
▁ᎾᏍᎩᏯᎢ	-766
ꮝꭺꭲ	-767
ꭼꮹꮝꮣ	-768
ꮒꮳ	-769
ᎵᏥᏙ	-770
▁ᎦᏰ	-771
ꮕꮣᏻ	-772
ᎾᏄᎪᏫ	-773
▁ᏂᎪᎯᎸ	-774
ꮝꭼꭹ	-775
ᎪᎩ	-776
ᎰᏩ	-777
ᏁᎯ	-778
▁ᎣᏂ	-779
▁ᏅᎩ	-780
▁ᎢᏯᏂᏛ	-781
ᎸᏫᏍᏓᏁᏗ	-782
ꭲꮷ	-783
ᏓᏁᏗ	-784
ᏓᏅᏟ	-785
ᏪᏎᎢ	-786
▁ᎤᏇ	-787
▁ᏱᏗ	-788
ꮣꮩꮅꮝꮧ	-789
ᏟᏴ	-790
ꭾꭲ	-791
ᎪᎵᏰ	-792
ᏚᎵᏍ	-793
ꭼꮒᏻ	-794
ꮅꮝꭺ	-795
ꮥꮈ	-796
ꮣꮝꮧ	-797
ᏙᎢ	-798
ᏛᎾ	-799
ᏛᏁᏗ	-800
▁ᎾᎥ	-801
▁ᏗᎾ	-802
▁ᎤᏍᏆᏂᎪ	-803
ꭸꮢꭹ	-804
ꭼꮒᏻꮙ	-805
ᏃᎯ	-806
ᏨᎩ	-807
ᎪᏩᏛ	-808
▁ᏗᎩ	-809
▁ᏱᎦ	-810
▁ᏱᏂ	-811
ᏗᏍᎨᏍᏗ	-812
ᏐᏅ	-813
ᏒᎾ	-814
▁Ꮓ	-815
▁Ꮟ	-816
ꮝꮪ	-817
ᏛᎦᏅ	-818
ꭱꮵ	-819
ᏓᎸ	-820
ꮷꮟ	-821
ᏁᎸᎩ	-822
▁ᎤᎶ	-823
▁ᎦᏓ	-824
ᏍᎦᏅᏨ	-825
▁ᎢᏓᎵ	-826
ꮵꮜꮓ	-827
ᏃᏅ	-828
▁ᎥᏝᏰᏃ	-829
ᎵᏛ	-830
ꮕꮯ	-831
▁ᏫᏚ	-832
ꮑꮈꭿ	-833
▁ᎠᏏᏴᏫ	-834
ᎲᎦ	-835
ᏺꭿ	-836
ꭺꭿᏻ	-837
ᏉᏍᎩᏂ	-838
ꭸᏼ	-839
ꭶꮤꭽ	-840
ꭼꮧ	-841
ᎸᏉᏗ	-842
ꭼꮹꮅ	-843
▁ᎢᎦᎢ	-844
▁ᎪᏪᎵ	-845
ꭲᏻꮅꮝꮩꮧᏹ	-846
ᏁᎴᎢ	-847
ꮤꮑꭲ	-848
ᏓᎴᏅᎯ	-849
▁ᎬᏩᎦᏘᏯ	-850
ᏺꮅ	-851
ꮒꭺꭿ	-852
ᏠᏱ	-853
▁Ꮑ	-854
▁ᎧᏁ	-855
▁ᏥᏳ	-856
ᎨᎢ	-857
ᏤᎢ	-858
ᏥᏯ	-859
ᎵᎮᎵ	-860
ᏍᏛᎾ	-861
ᏔᏲᏎ	-862
ᏼꮅꭸ	-863
ꭼꭹ	-864
ꮑꮧᏹ	-865
ᏖᎸ	-866
▁ᎡᏆ	-867
ᏁᎴ	-868
ᎵᏅᏟ	-869
ꭲᏻꮎ	-870
ᎶᎯᏍᏗᏱ	-871
▁ᏧᎾᏁᎶᏗ	-872
ᎾᏰ	-873
ᏲᎯᏎ	-874
▁ᏭᏂ	-875
▁ᎩᎶᏃ	-876
ꮒꮵ	-877
ᏐᏢ	-878
▁ᎠᏓᏁ	-879
▁ᎠᏲᎱ	-880
ᏍᎩᏂᏃᏅ	-881
ꮫꭹ	-882
ꮫꮎ	-883
ᎫᎪ	-884
ꮔꮎ	-885
▁ᎨᏣ	-886
ꭴꮒꮳꮨ	-887
▁ᎠᏂᎦᏔ	-888
▁ᏄᎬᏫᏳᏒ	-889
ꭴꮣ	-890
▁ᎢᏗ	-891
ᎬᏩᎶᏗ	-892
ᏁᎳᏅᎯ	-893
▁ᏂᏨᏪᏎᎭ	-894
▁ᎢᏳᏩᏂᏌᏛ	-895
ꮥᏺ	-896
ꮑꮴ	-897
▁ᎣᏥ	-898
▁ᎤᏇᏓᎵ	-899
▁ᏗᎧᎿᏩᏗᏙᎯ	-900
ꮒꮸ	-901
ᎾᏝ	-902
ᏍᏕᎸ	-903
▁ᎠᏰ	-904
▁ᎠᏍᏓ	-905
▁ᎡᏍᎦᏉ	-906
ꮯꮆ	-907
ᏑᏰ	-908
ꭴꮓ	-909
ꮥꭶ	-910
ᎪᏩᏘ	-911
ᏗᏍᏗ	-912
ᏛᏅᎢ	-913
ꭰꮑꭿ	-914
ᏓᏅᏛᎢ	-915
ᏛᏁᏗᏱ	-916
▁ᎢᏓᎵᏅᏟ	-917
ꭿꮝꮧᏹ	-918
ꮅꮝꭺꮈ	-919
▁ᏱᏣ	-920
ꮪᏻꭺꮫ	-921
ᏓᏙᎵᏍᏓᏁ	-922
ᏺꮞ	-923
ꮣꮱ	-924
▁Ꮉ	-925
▁ᎠᏰᎸ	-926
▁ᎤᏂᏣ	-927
▁ᏅᏩᏙᎯ	-928
ᏌᏯ	-929
▁Ꮠ	-930
ꭳꭹ	-931
ꮅꮟ	-932
ꮩꭵ	-933
ᏕᏍᏗ	-934
ᏙᎢᏛ	-935
▁ᎤᎦ	-936
▁ᏥᏕ	-937
▁ᎤᎾᏓ	-938
ꮅᏸ	-939
ꮙꮃ	-940
ꭰꮒꮷꮟ	-941
ᏉᎩ	-942
ᏁᎶᎯ	-943
▁ᎤᎵᏂᎩᏛ	-944
ꮣꮎ	-945
ꭲꮷꮃ	-946
ᎵᏙ	-947
ᏰᏂ	-948
▁ᏅᏯ	-949
ꮤꮅꮑ	-950
▁ᎠᏍᎪᎯ	-951
ꮷꮣꮄꮕꮫ	-952
▁ᏱᎨᏎᏍᏗ	-953
ꮀꭲ	-954
ꮑꮧ	-955
ꮫꮓ	-956
ꭼꮹꮝꮣꮹꮧꮩꭿ	-957
ᎳᏏ	-958
ᏅᏎ	-959
ᏯᏫ	-960
ꮎꭵ	-961
▁ᎢᎬᏩ	-962
▁ᎤᏚᎩ	-963
ꭼꮻᏻꮢ	-964
▁ᎦᎵᏉᎩ	-965
ᎸᏫᏍᏓᏁᎯ	-966
▁ᏗᎦᎸᏫᏍᏓᏁᏗ	-967
ᎵᎪ	-968
▁ᎦᏁ	-969
▁ᎦᏚᎲ	-970
ꭺꮂ	-971
ᎷᎩ	-972
ᎺᎵ	-973
ᏚᎵ	-974
ꮷꮺ	-975
ᏆᎵᏏ	-976
▁ᎠᏂᏔ	-977
▁ᎡᏙᏓ	-978
ꭴꭼꮹꮅ	-979
ꮈꮧ	-980
ꮵꮩ	-981
ꭴꮣꮕ	-982
ꮵꮿ	-983
ᏗᏍᎬ	-984
▁ᏔᎳ	-985
▁ᏱᏚ	-986
▁ᎠᎵᏍ	-987
▁ᎤᏕᎵᏛ	-988
ꮳꮒ	-989
ᎴᎯ	-990
ᏁᏨ	-991
ᏅᏃ	-992
ᏓᏕ	-993
ꮧꮎ	-994
ᎩᎵᏲ	-995
▁ᎨᎵ	-996
▁ᏗᎪ	-997
▁ᎢᏗᏢ	-998
ᎵᏍᏓᏁᏗ	-999
▁ᎤᎵᏍᏆ	-1000
▁ᏧᏙᎢᏛ	-1001
▁ᎠᏂᏍᎦᏯ	-1002
▁ᏧᎬᏩᎶᏗ	-1003
▁ᏅᏩᏙᎯᏯᏛ	-1004
ꮔꮼ	-1005
ꭴꮅꮝ	-1006
ᎨᏳᏗ	-1007
ᏩᏗᏒ	-1008
▁ᎢᎨᏎᏍᏗ	-1009
▁ᏄᏂᏪᏒᎩ	-1010
ᎸᎭ	-1011
ꭸꭶ	-1012
ꭸꮳ	-1013
ꮘꮣ	-1014
ꮵꮇ	-1015
▁ᏂᏗ	-1016
ꮝꭼꮎ	-1017
▁ᎤᏁᎳᎩ	-1018
▁ᏄᏂᏪᏎᎢ	-1019
ꭷꮅ	-1020
ꮃꮻꭲꮝꮧᏹ	-1021
ꮧꭽ	-1022
ᎾᏛᏁ	-1023
ᏓᏅᏛ	-1024
▁ᏓᎦ	-1025
ᏍᏔᏅᎩ	-1026
▁ᎠᏏᏉ	-1027
▁ᎤᎷᏨ	-1028
▁ᎢᎬᏱᏱ	-1029
▁ᎤᎾᏓᏅᏘ	-1030
▁ᎠᎾᏙᎴᎰᏍᎩ	-1031
ꭲꮝꮧ	-1032
ᏩᏕ	-1033
ꭶꭺ	-1034
ᏂᏙᎯ	-1035
▁ᎠᏇ	-1036
ꮑꮆꮧ	-1037
▁ᏰᎵᏉ	-1038
ꭴꮅꮒꭹ	-1039
ᏂᏙ	-1040
▁ᎠᏗ	-1041
ᎠᏁᎶᎯ	-1042
▁ᎦᎸᎶ	-1043
▁ᏔᎳᏚ	-1044
ᎵᏍᏙᏗᏱ	-1045
▁ᎢᏳᏰᏃ	-1046
▁ᎯᎠᏰᏃ	-1047
ꭾꮅ	-1048
ꮅᏺ	-1049
ꮎꮻ	-1050
ꮜꮫ	-1051
ꮝꭺꭿ	-1052
ᏕᎾ	-1053
▁ᎠᏋ	-1054
▁ᎨᏎ	-1055
ꭰꮒꭶ	-1056
ᎦᏴᎵᎨ	-1057
ᏓᏍᏗᏱ	-1058
ꮔꮺꮢꭹ	-1059
▁ᎢᎸᎯᏳ	-1060
▁ᏗᏂᎧᎿ	-1061
ꮒꮪꮺꮞꮄꭲ	-1062
▁ᏚᎸᏫᏍᏓᏁ	-1063
ꭰꮉ	-1064
ꭴꮑꮸ	-1065
ᏪᏎᎴᎢ	-1066
▁ᏗᎦᎳᏫᎢᏍᏗᏱ	-1067
ꭶꮩꮓ	-1068
ꮩꮄꮀꮝꭹ	-1069
ᏂᏆ	-1070
ᏠᎾ	-1071
ᏪᏒ	-1072
▁"	-1073
▁Ᏺ	-1074
ꮑꭽ	-1075
ꮕꮟꮫ	-1076
▁ᎠᏂᏔᎵ	-1077
ꭷꮑ	-1078
ꮔꮺꮞꮄꭲ	-1079
ᎡᎵ	-1080
ᎥᎩ	-1081
ᎦᏛ	-1082
ᎭᎻ	-1083
ᏁᎶ	-1084
ᏎᎵ	-1085
ᏧᏈ	-1086
ᏎᎸᎯ	-1087
▁ᎢᎦᏛ	-1088
▁ᏌᏩᏂ	-1089
▁ᎤᎾᏓᏡ	-1090
ꮕꮟꮣꮝꮧ	-1091
▁ᏄᎵᏍᏔᏅ	-1092
ꭴꮩꭿᏻꭿꮿ	-1093
ꮕꮧꭶꮅꮝꮩꮧꭽ	-1094
ꭴꭹ	-1095
ꮿꮫ	-1096
ꮒꭶꮺ	-1097
ᎷᏥ	-1098
ᏚᎢ	-1099
▁Ꮌ	-1100
▁ᏓᏓ	-1101
▁ᏥᎦ	-1102
▁ᏱᏅ	-1103
ꮧꭼꮹ	-1104
ᏕᎸᏙᏗ	-1105
▁ᎡᎳᏗ	-1106
▁ᎢᏏᎵ	-1107
ꮝꮩꮧᏹ	-1108
▁ᏄᏂᎬᏫᏳᏒ	-1109
ꭹꮃ	-1110
ꮩꮅ	-1111
ꭴᏸꮈ	-1112
ꮑꮅ	-1113
ꮤꮃ	-1114
ꮶꭲ	-1115
ᎾᏄᎪ	-1116
ꭴᏺꮁ	-1117
ꮧꮝꮧ	-1118
ꮭꮝꭺ	-1119
ꮶꭿᏻ	-1120
▁ᏱᎰᏩ	-1121
▁ᎡᏆᎭᎻ	-1122
▁ᏅᏓᏳᏓᎴᏅᎯ	-1123
ᏹꭶ	-1124
ᎴᏗ	-1125
ꮢꮓ	-1126
ᎳᏗᏙ	-1127
ᎴᏍᏗ	-1128
▁ᎦᏓᎭ	-1129
▁ᎨᎵᎵ	-1130
▁ᏥᎨᏒ	-1131
▁ᎠᏍᎦᏂ	-1132
▁ᎤᏍᏆᏂᎪᏗ	-1133
ꮧꭶꮃꮻꭲꮝꮧᏹ	-1134
ꭰꮒꮝꭶ	-1135
ꭲꮷꮃꭽ	-1136
▁(	-1137
ᎨᎶᎯ	-1138
ᏍᏔᏂ	-1139
ᏛᏁᎸ	-1140
▁ᎤᏥ	-1141
ꮟꮅꮋ	-1142
ᎬᏫᏳᏌ	-1143
ᎸᏉᏗᏳ	-1144
ᏲᎱᏒᎯ	-1145
▁ᏚᏙᎥ	-1146
▁ᎢᎦᏤᎵ	-1147
▁ᎤᎾᏤᎵ	-1148
▁ᎠᏂᏆᎵᏏ	-1149
▁ᎤᎾᏤᎵᎦ	-1150
ꭴꮫ	-1151
ᏌᏗ	-1152
ꮝꮩ	-1153
ꮧꮤ	-1154
ᏙᏓᏆ	-1155
▁ᎥᎩ	-1156
▁ᎼᏏ	-1157
▁ᏧᏓ	-1158
ᏍᏓᏩᏛ	-1159
▁ᎥᏝᏃ	-1160
▁ᏂᎬᏩ	-1161
ꭺꭿᏻꮧ	-1162
▁ᏱᎨᏎᎢ	-1163
ꮵꮇꮟꮅꮋ	-1164
▁ᏗᏂᎧᎿᏩᏗᏙᎯ	-1165
ꮄꮕ	-1166
ꮝꭹꮎ	-1167
ᏛᏅ	-1168
ᏪᎭ	-1169
ꮙꮓ	-1170
ꮿꮕ	-1171
ᎲᏍᎬ	-1172
ᏍᎦᎢ	-1173
▁ᎠᎪ	-1174
▁ᎣᏣ	-1175
ꮞꮝꮧ	-1176
ꭱꮳ	-1177
ᎸᏃ	-1178
▁]	-1179
▁Ꭾ	-1180
ᎾᏓᎴ	-1181
▁ᎪᏪ	-1182
▁ᎢᏯᎦ	-1183
▁ᎤᏂᏲ	-1184
ꭲᏻꮹꮒ	-1185
ᏓᏅᏖᏍᎬ	-1186
ꮒꮪꮺꮞꮈꭹ	-1187
▁ᎠᏙᎴᎰᏍᎩ	-1188
ꭵꭹ	-1189
ꭻᏼ	-1190
ꮒᏼ	-1191
ᎴᏃ	-1192
▁Ꮨ	-1193
ꮧꮣ	-1194
ᏍᏛᎢ	-1195
▁ᏕᎨ	-1196
▁ᏫᏥ	-1197
ꭱꮝꭶ	-1198
▁ᏗᎨᏥ	-1199
ᏕᏲᎲᏍᎩ	-1200
ꮳꭼꮻᏻꭿ	-1201
ᏗᎦᎳᏫᎢᏍᏗᏱ	-1202
ꭼꮎ	-1203
ꭼꮒꮫ	-1204
ᏁᏃ	-1205
ᏫᏂ	-1206
ᎵᏍᏙ	-1207
ᏍᏔᏁ	-1208
▁ᎨᎦ	-1209
▁ᎬᎩ	-1210
ꭰꭸᏼ	-1211
ꭴꮕꮢ	-1212
▁ᎠᏎᏉ	-1213
▁ᎦᏙᎯ	-1214
▁ᎢᏦᎯᏳ	-1215
▁ᏂᎯᏍᎩᏂ	-1216
ᏕᏘ	-1217
ꭶꮣ	-1218
ꭺꭲ	-1219
ꮧꭹ	-1220
ᎨᏳᎢ	-1221
ᏍᎩᏃ	-1222
ᏍᏆᎸ	-1223
▁ᎠᏛ	-1224
▁ᎾᎩ	-1225
ꭰᏸꮅ	-1226
ꭰꭶꮤ	-1227
▁ᎤᎾᎵ	-1228
ꮕꮹꮣꮄ	-1229
ꮎꮝꭹᏸꮓ	-1230
▁ᎠᏲᎱᎯᏍᏗ	-1231
ꭶᏸ	-1232
ꭶꮎ	-1233
ꭺꭹ	-1234
ꭺꮲ	-1235
ꮃꭹ	-1236
ꮔꮺꮞꮈꭹ	-1237
ᎵᎩ	-1238
ᎾᎦ	-1239
ꭲꮈ	-1240
ᎳᏍᏗ	-1241
ᏲᏪᎳ	-1242
ꭰꮥꮈ	-1243
ꭲꮿꮒ	-1244
ᏢᏔᏅᎯ	-1245
▁ᎦᏬᏂ	-1246
ᎵᏍᏓᏴᏗ	-1247
▁ᏂᎦᏛᏃ	-1248
▁ᏅᏓᎬᏩ	-1249
ᎬᏫᏳᏌᏕᎩ	-1250
ᎵᏍᏓᏴᏗᏱ	-1251
ꭲꮫ	-1252
ꮹꮨ	-1253
ꮂꮝꭶ	-1254
ꮣꮒꮈ	-1255
ᎶᏂ	-1256
▁Ꮗ	-1257
ꮼꮒ	-1258
ᎦᏔᎲ	-1259
ᎾᏝᎢ	-1260
ᏅᏒᎩ	-1261
ᏓᎴᏒ	-1262
ᏓᎵᎢ	-1263
▁ᎠᏤ	-1264
▁ᎡᏙ	-1265
▁ᎤᏗ	-1266
▁ᏗᏆ	-1267
▁ᏱᏄ	-1268
▁ᎢᏨᏒ	-1269
▁ᎭᏫᏂ	-1270
▁ᎾᎿᏃ	-1271
▁ᎾᏂᏪ	-1272
▁ᎢᏯᎦᏴᎵ	-1273
ꭴꮳ	-1274
ꭴꮝꮧ	-1275
ᎥᎾ	-1276
ᎵᏱ	-1277
ᏳᎳ	-1278
ᏹꮵ	-1279
▁Ꮀ	-1280
ꮕꮓ	-1281
▁ᎢᎾ	-1282
▁ᏥᏥ	-1283
▁ᏧᏁ	-1284
ᎦᎵᏍᏓ	-1285
▁ᏂᎬᏅ	-1286
▁ᏄᏍᏗ	-1287
▁ᎠᏍᎩᎾ	-1288
▁ᎩᎳᏉᏃ	-1289
ꭰꭶᏼꮅꭸ	-1290
ꮎꮫ	-1291
ꮓꭿᏻ	-1292
ꮝꮤꮕꭿ	-1293
ᏔᎳ	-1294
ᎦᏙᎥ	-1295
▁ᎺᎵ	-1296
▁ᏂᏕ	-1297
▁ᏓᏳ	-1298
ꮺꮞꭽ	-1299
ᏁᎢᏍᏗ	-1300
▁ᎤᏁᏤ	-1301
▁ᎦᏳᎳ	-1302
ꮒꭶꮧᏻ	-1303
ꮺꮞꮈꭹ	-1304
ꭴꮣꮩꮅꮝꮧ	-1305
▁ᎾᏍᎩᏍᎩᏂ	-1306
ꭰꮻ	-1307
ꮧꮝꭸꮝꮧ	-1308
▁	-1309
¦	-1310
Ꮝ	-1311
Ꮧ	-1312
Ꭰ	-1313
,	-1314
Ꭹ	-1315
Ꭲ	-1316
Ꮎ	-1317
ꮝ	-1318
Ꮒ	-1319
Ꭿ	-1320
Ꭴ	-1321
Ꭶ	-1322
Ꮣ	-1323
ꮧ	-1324
Ꮅ	-1325
Ꮕ	-1326
Ꭸ	-1327
ꭰ	-1328
Ꮄ	-1329
Ꮑ	-1330
Ꮫ	-1331
ꭹ	-1332
.	-1333
ꭲ	-1334
Ꮓ	-1335
Ꮵ	-1336
ꮎ	-1337
Ꮢ	-1338
Ꭼ	-1339
ꮒ	-1340
Ꮈ	-1341
Ᏻ	-1342
ꭿ	-1343
ꭴ	-1344
Ꮩ	-1345
ꭶ	-1346
Ᏹ	-1347
;	-1348
Ꭺ	-1349
ꮣ	-1350
ꮅ	-1351
ꮕ	-1352
ꭸ	-1353
Ꮞ	-1354
Ꮹ	-1355
ꮄ	-1356
ꮑ	-1357
ꮫ	-1358
Ꮻ	-1359
Ꮙ	-1360
ꮓ	-1361
ꮵ	-1362
ꮢ	-1363
Ꮃ	-1364
ꭼ	-1365
Ꮳ	-1366
Ꮪ	-1367
Ᏼ	-1368
Ꮿ	-1369
Ꮥ	-1370
ꮈ	-1371
Ꮤ	-1372
ᏻ	-1373
Ꮺ	-1374
𐊣	-1375
𐊼	-1376
Ꮆ	-1377
ꮩ	-1378
Ᏸ	-1379
Ꮔ	-1380
Ꭵ	-1381
Ꮷ	-1382
ᏹ	-1383
Ꭽ	-1384
Ꮂ	-1385
Ꮟ	-1386
ꭺ	-1387
Ꮴ	-1388
ꮞ	-1389
Ꭱ	-1390
ꮹ	-1391
Ᏺ	-1392
ꮻ	-1393
Ꮸ	-1394
ꮙ	-1395
Ꮜ	-1396
Ꭾ	-1397
Ꮏ	-1398
ꮃ	-1399
ꮳ	-1400
ꮪ	-1401
Ꮖ	-1402
ᏼ	-1403
ꮿ	-1404
ꮥ	-1405
ꮤ	-1406
ꮺ	-1407
Ꮨ	-1408
ꮆ	-1409
ᏸ	-1410
Ꮭ	-1411
ꮔ	-1412
ꭵ	-1413
Ꭷ	-1414
ꮷ	-1415
ꭽ	-1416
ꮂ	-1417
Ꭳ	-1418
ꮟ	-1419
ꮴ	-1420
ꭱ	-1421
ᏺ	-1422
?	-1423
Ꮇ	-1424
ꮸ	-1425
Ꮼ	-1426
ꮜ	-1427
ꭾ	-1428
Ꮯ	-1429
ꮏ	-1430
Ꮲ	-1431
-	-1432
ꮖ	-1433
Ꮀ	-1434
Ꮁ	-1435
ꮨ	-1436
Ꮠ	-1437
ꮭ	-1438
ꭷ	-1439
ꭳ	-1440
Ꮶ	-1441
ꮇ	-1442
Ꮘ	-1443
Ꮦ	-1444
ꮼ	-1445
ꮯ	-1446
ꮲ	-1447
Ꮽ	-1448
Ꭻ	-1449
Ꮮ	-1450
ꮀ	-1451
ꮁ	-1452
ꮠ	-1453
Ꮡ	-1454
Ꮰ	-1455
Ꮋ	-1456
ꮶ	-1457
Ꮗ	-1458
Ꮉ	-1459
Ꮱ	-1460
ꮘ	-1461
ꮦ	-1462
[	-1463
]	-1464
ꮽ	-1465
ꭻ	-1466
ꮮ	-1467
ꮡ	-1468
ꮰ	-1469
ꮋ	-1470
Ꮊ	-1471
ꮗ	-1472
ꮉ	-1473
ꮱ	-1474
Ꮛ	-1475
"	-1476
!	-1477
Ꮬ	-1478
ꮊ	-1479
Ꮾ	-1480
Ꮌ	-1481
ꮛ	-1482
(	-1483
)	-1484
ꮬ	-1485
ꮾ	-1486
ꮌ	-1487
:	-1488
𐋇	-1489
'	-1490
Ꮚ	-1491
~	-1492
ꮚ	-1493
Ꮍ	-1494
\	-1495
ꮍ	-1496
