<pad>	0
</s>	0
<unk>	0
▁ᐃ	-0
▁ᑳ	-1
▁ᐅ	-2
▁ᐁ	-3
▁ᐊ	-4
▁ᑭ	-5
ᑕᔥ	-6
▁ᑲ	-7
▁ᒋ	-8
▁ᑮ	-9
▁ᒦ	-10
ᐙᒡ	-11
▁ᑕᔥ	-12
▁ᑲᔦ	-13
ᐃᔑ	-14
▁ᐃᐃ	-15
▁ᑫ	-16
ᐐᓐ	-17
ᓂᒡ	-18
▁ᐋ	-19
ᓐ᙮	-20
▁ᓂ	-21
ᓂᓂ	-22
▁ᐁᑮ	-23
▁ᑳᑮ	-24
▁ᐅᑮ	-25
ᓂᑑ	-26
ᒪᓂᑑ	-27
ᔐᒪᓂᑑ	-28
▁ᑭᔐᒪᓂᑑ	-29
ᐎᓐ	-30
▁ᑳᐐᓐ	-31
ᒋᑫ	-32
ᒃ᙮	-33
ᑎᓯ	-34
ᐅᒋ	-35
ᑯᓯ	-36
▁ᐃᑕᔥ	-37
▁ᒦᑕᔥ	-38
▁ᓴ	-39
ᑭᑐ	-40
▁ᑕ	-41
▁ᐯ	-42
▁ᐱ	-43
▁ᐃᓂ	-44
▁ᒋᓴ	-45
▁ᐋᓃ	-46
▁ᐐ	-47
▁ᐃᐃᒫ	-48
ᐗᒃ	-49
▁ᑳᐃᔑ	-50
ᐎᓂ	-51
ᐎᔭ	-52
ᓇᐙ	-53
▁ᐊᐊ	-54
ᑌᐺ	-55
▁ᐅᐅ	-56
▁ᒥ	-57
▁ᓃ	-58
ᑕᒧ	-59
▁ᐊᐎᔭ	-60
ᐊᔮ	-61
▁ᐃᔑ	-62
▁ᐌ	-63
ᑭᓇ	-64
ᐃᓈ	-65
ᒡ᙮	-66
▁ᑲᑭᓇ	-67
ᒫᑎᓯ	-68
▁ᐊᐲ	-69
ᕽ᙮	-70
▁ᑭᒋ	-71
ᑎᐯ	-72
▁ᒋᓴᔅ	-73
▁ᐁᔑ	-74
ᔦᒃ	-75
ᐌᓂ	-76
ᑕᒪ	-77
▁ᐃᑭ	-78
▁ᒫ	-79
ᐙᐸ	-80
▁ᐐᓐ	-81
ᐃᑭᑐ	-82
ᓇᓐ	-83
▁ᐸ	-84
▁ᒪ	-85
ᓂᒃ	-86
ᑳᑌ	-87
▁ᑫᑰ	-88
ᐙᓐ	-89
ᑕᒫ	-90
ᓇᒥ	-91
ᔥᑭ	-92
ᓂᒥ	-93
▁ᐋᓃᔥ	-94
ᑭᒋ	-95
ᑖᑯᓯ	-96
ᑲᓂ	-97
ᑭᑭ	-98
▁ᐯᔑ	-99
ᑖᐱ	-100
▁ᑯ	-101
ᐗᐞ	-102
ᑭᒫ	-103
ᓂᒡ᙮	-104
ᑯᒡ	-105
ᒥᓐ	-106
ᐗᓐ	-107
ᑭᑫ	-108
▁ᓇ	-109
ᑲᓇ	-110
▁ᐲ	-111
ᓄᐊ	-112
ᐙᒡ᙮	-113
▁ᑭᔐᒪᓂᑑᓐ	-114
▁ᐃᓂᓂ	-115
▁ᐃᓇ	-116
▁ᑭᑲ	-117
ᓂᓂᒃ	-118
ᔥᐱ	-119
ᒋᐃ	-120
ᔮᓐ	-121
ᓬᐊ	-122
▁ᐁᑕ	-123
ᑲᒥ	-124
▁ᐁᐐ	-125
▁ᓂᑮ	-126
ᐞ᙮	-127
▁ᐅᑮᐃᓈ	-128
▁ᐋᓃᓐ	-129
▁ᐊᐌ	-130
▁ᐅᑕ	-131
▁ᑳᑎᐯ	-132
ᔥᑲ	-133
ᐊᓂ	-134
ᐸᓐ	-135
ᑾᓐ	-136
▁ᑫᑰᓐ	-137
ᔥᐱᓐ	-138
▁ᑮᔥᐱᓐ	-139
ᐱᒫᑎᓯ	-140
▁ᐅᑎ	-141
ᓄᑮ	-142
ᒪᑲ	-143
ᓂᒫ	-144
▁ᐃᑯ	-145
▁X	-146
ᑭᑎ	-147
▁ᑎ	-148
ᓇᒥᐁ	-149
ᓈᓐ	-150
ᑕᕽ	-151
▁ᐊᑮ	-152
ᒋᑑ	-153
ᓂᔕ	-154
▁ᒦᔥ	-155
ᔭᓐ	-156
ᑭᓐ	-157
ᓀᓐ	-158
▁ᑮᐃᑭᑐ	-159
ᑯᓂ	-160
ᐎᓂᓂ	-161
▁ᐅᑲ	-162
▁ᑳᑮᐃᔑ	-163
▁ᑌᐺ	-164
ᔥᑳ	-165
▁ᒣ	-166
ᐎᓂᕽ	-167
ᐗᒡ	-168
▁ᑳᐃ	-169
ᔥᑰ	-170
ᑕᒨ	-171
▁ᑳᐅ	-172
▁ᒎ	-173
ᑭᑭᓄᐊ	-174
▁ᑖᐱ	-175
▁ᑭᑎ	-176
▁ᑖᐱᔥᑰ	-177
▁ᑮᓇᐙ	-178
▁ᓅ	-179
▁ᐅᒋ	-180
ᑲᓐ	-181
▁ᐗ	-182
▁ᓃᓐ	-183
▁ᐃᓀ	-184
ᐎᓐ᙮	-185
ᒪᐙ	-186
ᓯᐌ	-187
▁ᑳᐐ	-188
ᑯᕽ	-189
ᑾᔭ	-190
ᑮᔑ	-191
▁ᐋᔕ	-192
▁ᐊᔮ	-193
▁ᐄ	-194
ᓂᔑ	-195
ᓂᓯ	-196
▁ᓵ	-197
▁ᐯᔑᒃ	-198
▁ᑭᑮ	-199
▁ᒋᓴᓲ	-200
ᑕᔑ	-201
▁ᑳᑎᐯᒋᑫ	-202
▁ᔑ	-203
▁ᒦᓇᐙ	-204
ᓈᒡ	-205
▁ᐌᑎ	-206
ᓴᓐ	-207
▁ᐙ	-208
ᐃᑰ	-209
ᓈᑾ	-210
▁ᑭᑭ	-211
▁ᐃᐌ	-212
ᑭᓯ	-213
▁ᐊᑮᕽ	-214
ᑕᐙ	-215
▁ᐹ	-216
ᐆᑌ	-217
ᒣᒃ	-218
ᓇᒥᐁᐎ	-219
ᑕᒥ	-220
ᓈᐙ	-221
ᕒᐊ	-222
ᐎᓯ	-223
ᑕᒧᐙᒡ	-224
▁ᐋᐱ	-225
ᒋᑳᑌ	-226
▁ᑳᐅᒋ	-227
ᐐᒌ	-228
ᓇᑰ	-229
▁ᐆᑌ	-230
▁ᐯᒫᑎᓯ	-231
ᑕᒻ	-232
▁ᑳᔑ	-233
ᑲᓅ	-234
▁ᐃᒫ	-235
ᐱᒫ	-236
ᔥᒀ	-237
▁ᒨ	-238
ᑎᓱ	-239
ᑖᑾ	-240
▁ᐃᐃᐌ	-241
ᑕᐌ	-242
▁ᑫᑯ	-243
ᒥᓄ	-244
▁ᓈ	-245
ᑲᑴ	-246
ᐃᔑᒋᑫ	-247
ᐗᒃ᙮	-248
▁ᐅᔕ	-249
▁ᐁᑳ	-250
ᑭᐃ	-251
ᑯᒻ	-252
ᓇᔓ	-253
ᓂᑯ	-254
ᑕᐎ	-255
ᒋᒧ	-256
ᓈᕽ	-257
ᑐᒃ	-258
ᐲᐃ	-259
ᑕᒃ	-260
ᑳᓱ	-261
ᔦᒃ᙮	-262
ᓈᑯᓯ	-263
ᐎᓇᓐ	-264
▁ᑳᐊᔮ	-265
ᒋᐊ	-266
▁ᓅᑯᒻ	-267
▁ᓂᑲ	-268
ᔕᒃ	-269
▁ᐯᔑᑾᓐ	-270
ᓇᔓᐌ	-271
▁ᐄᑐᒃ	-272
▁ᐅᑯᓯ	-273
ᓰᓐ	-274
ᓀᒃ	-275
▁ᒋᓴᓲᓐ	-276
ᒥᓐᒡ	-277
▁ᐃᑴ	-278
▁ᑮᓐ	-279
▁ᑯᑕᒃ	-280
ᑌᑌ	-281
ᕒᐃ	-282
ᑌᐺᑕᒨ	-283
▁ᑮᐃᔑ	-284
ᒫᑫ	-285
▁ᔑᑾ	-286
ᑎᑫ	-287
▁ᐋᐱᒋ	-288
ᔑᑲ	-289
▁ᑌ	-290
ᒫᒡ	-291
ᓇᐃ	-292
ᑯᔑ	-293
ᑯᐙ	-294
ᑕᒪᐎ	-295
ᒪᐙᑲᓇ	-296
▁ᐅᑭᑭᓄᐊ	-297
ᔥᑫ	-298
ᑕᒣᒃ	-299
ᓂᑰ	-300
ᓯᒃ	-301
ᕒᐆ	-302
ᑲᔥᑭ	-303
ᑭᐸᓐ	-304
ᔮᕽ	-305
ᓇᑰᒃ	-306
▁ᑭᒋᐊ	-307
ᐅᔑ	-308
ᐃᔖ	-309
ᓇᕽ	-310
ᓐᒡ	-311
ᐎᓂᐙ	-312
▁ᑾᔭ	-313
ᓈᓂ	-314
▁ᐅᐌ	-315
▁ᐁᐃᔑ	-316
ᓇᐌ	-317
ᐃᓀ	-318
▁ᐅᐅᒫ	-319
▁ᔔ	-320
▁ᑳᐊ	-321
▁᙮	-322
ᔥᑲᐎ	-323
ᐱᓯ	-324
ᔭᕽ	-325
ᑕᒪᐙ	-326
ᓇᒥᐋ	-327
ᒪᐎ	-328
ᐃᓈᒡ	-329
▁ᐃᑭᑐ	-330
ᒥᑰ	-331
ᑳᓐ	-332
ᓂᑖ	-333
▁ᑫᑮ	-334
ᒥᕽ	-335
ᐗᕽ	-336
ᑖᓐ	-337
ᐎᓐᑦ	-338
▁ᐱᑯ	-339
▁ᑲᑴ	-340
▁ᑳᑎᐯᒋᑫᒡ	-341
▁ᐐᑳ	-342
▁ᐐᑫ	-343
▁ᒥᓯᐌ	-344
ᐅᑭᒫ	-345
▁ᐅᑮᐃᑰ	-346
ᓇᐎᓐᑦ	-347
▁ᐅᑕᒑ	-348
ᐐᒋ	-349
ᒪᓐ	-350
▁ᒋᐅᒋ	-351
ᐱᒥ	-352
ᑎᓰ	-353
▁ᐁᑮᐃᔑ	-354
▁ᐁᐊ	-355
ᓃᑳ	-356
▁ᐋᓂ	-357
▁ᐌᑯ	-358
▁ᒫᐗᒡ	-359
ᒀᑕ	-360
▁ᒋᐃᔑ	-361
ᒻ᙮	-362
ᓈᑯ	-363
ᑭᑑ	-364
▁ᐊᐊᐌ	-365
ᔮᐱ	-366
▁ᐅᑖ	-367
▁ᐱᒫᑎᓯ	-368
ᓂᐳ	-369
▁ᐅᓄ	-370
▁ᑭᑫ	-371
▁ᑳᑮᐅᒋ	-372
ᑲᓂᐎ	-373
ᑕᒥᓂᒡ	-374
ᓅᓐ	-375
▁ᐃᔑᒋᑫ	-376
ᑮᐌ	-377
ᐸᑭᑎ	-378
ᑯᓂᑫ	-379
▁ᑫᐅᒋ	-380
▁ᑕᑲ	-381
▁ᐅᑑ	-382
▁ᐅᐅᐌ	-383
ᓃᕽ	-384
ᑕᒫᑫ	-385
▁ᓂᑎ	-386
▁ᐅᓇᔓᐌ	-387
▁ᑭᒋᐊᓇᒥᐁᐎ	-388
ᑕᓐ	-389
ᔭᐄ	-390
▁ᐋᓇ	-391
▁ᐙᐸ	-392
▁ᐊᐌᓀᓐ	-393
▁ᒋᐊ	-394
ᒋᒥ	-395
▁ᐃᓈ	-396
▁ᑲᔦ᙮	-397
▁ᒉ	-398
▁ᑾᔭᒃ	-399
▁ᓇᐗᒡ	-400
ᑕᓰ	-401
ᑭᐌ	-402
ᓬᐃ	-403
▁ᐸᑭᑎ	-404
▁ᑫᔮᐱ	-405
ᑭᑌ	-406
ᒫᓐ	-407
▁ᒣᒀ	-408
ᓯᒀ	-409
▁ᑆ	-410
ᔮᓐ᙮	-411
▁ᐌᒋ	-412
▁ᑭᔐᒪᓂᑑᓐ᙮	-413
▁ᑮᐃᑭᑐ᙮	-414
ᐋᐸ	-415
ᐱᐗᐞ	-416
▁ᑖ	-417
▁ᐅᑌᐺᑕᒨ	-418
ᔭᐋ	-419
▁ᒞ	-420
ᐸᐎ	-421
ᐗᔑ	-422
ᓂᒃ᙮	-423
▁ᐅᑮᐃᓈᐞ᙮	-424
ᐋᒡ	-425
▁ᐁᐅ	-426
▁ᐗᐊ	-427
▁ᑲᓅ	-428
▁ᒨᔕᒃ	-429
▁ᑭᑭᓄᐊ	-430
▁ᑫᔑ	-431
ᐲᒋ	-432
ᒥᑯ	-433
ᓄᐎ	-434
ᐗᓈ	-435
ᐸᐃ	-436
ᐲᐃᑳᑌ	-437
▁ᐅᑭᑭᓄᐊᒪᐙᑲᓇ	-438
ᔑᓐ	-439
ᑕᒧᐎᓐ	-440
▁ᐁᑮᐊ	-441
▁ᑮᐊᓂ	-442
▁ᐃᓇᔥᑫ	-443
ᐃᓇ	-444
ᒫᒌ	-445
▁ᒪᒋᐊ	-446
▁ᓃᐱᐗᐞ	-447
▁ᑭᒋᑮᔑ	-448
ᑲᐊ	-449
▁ᐌᑯᓀᓐ	-450
▁ᒌ	-451
ᐗᔑᒣ	-452
▁ᑭᐐ	-453
▁ᔖ	-454
ᑕᒫᓐ	-455
ᑎᐹ	-456
ᓈᓯ	-457
ᓭᒃ	-458
ᒪᒋᑑ	-459
▁ᒦᐃ	-460
ᐙᐱ	-461
ᑳᐃ	-462
▁ᐆᑌᓈᕽ	-463
▁ᐊᐗᔑᒣ	-464
ᐯᔑ	-465
▁ᐅᐐ	-466
▁ᐅᑯ	-467
ᒥᓂ	-468
ᑌᐺᔦ	-469
ᓂᑎᓱ	-470
ᓂᔕᐙ	-471
▁ᐁᐸ	-472
▁ᐊᐎᔭᒃ	-473
▁ᒋᐅ	-474
ᓂᑳᓱ	-475
▁ᐲᑕ	-476
ᐐᒌᐎ	-477
ᓂᔕᐅ	-478
▁ᐃᓀᑖᑯᓯ	-479
▁ᐅᑮᐃᓈᓐ᙮	-480
▁ᑳᑮᐅ	-481
ᒫᑲᓂ	-482
▁ᐁᒐ	-483
▁ᔔᓂ	-484
▁ᐋᓂᑕ	-485
ᑲᓇᓐ	-486
▁ᓂᑖ	-487
ᒫᒃ	-488
▁ᒋᐐ	-489
▁ᑳᑕᔑ	-490
ᑎᕽ	-491
ᑏᓄ	-492
ᓄᑮᐋ	-493
ᓂᓂᒃ᙮	-494
ᐃᑯ	-495
ᑰᓐ	-496
ᑑᒡ	-497
ᓂᑳᑌ	-498
▁ᐱᓵ	-499
▁ᑮᐅ	-500
▁ᒪᔮ	-501
ᒥᑲ	-502
▁ᓭ	-503
ᑎᐱ	-504
ᐙᐞ	-505
▁ᑭᑭᑫ	-506
ᐃᑭᑐᒡ	-507
ᑳᓀ	-508
ᓂᔥ	-509
ᐌᓂᐗᒃ	-510
▁ᐅᑭᑭᓄᐊᒪᐙᑲᓇᐞ	-511
ᒪᒋ	-512
ᓴᓬᐊ	-513
▁ᑮᐅᒋ	-514
▁ᑭᑖ	-515
ᑲᒥᑯᕽ	-516
▁ᐅᑮᐃᔑ	-517
▁ᐁᐱ	-518
▁ᑭᑑ	-519
▁ᐊᐎᔭᓐ	-520
ᓯᓄ	-521
ᓇᓐ᙮	-522
ᓯᓇᐃ	-523
ᑫᒃ	-524
ᓵᑭᐃ	-525
ᐗᓐ᙮	-526
ᓂᑫ	-527
▁ᑫᐃᔑ	-528
ᒥᓍ	-529
▁ᐅᒫ	-530
▁ᑳᐱ	-531
ᐌᒃ	-532
ᓯᓂ	-533
▁ᐁᐊᓂ	-534
ᓈᐸ	-535
▁ᐊᐎᔭᐞ	-536
▁ᐅᑯᓯᓴᓐ	-537
▁ᐯᒫᑎᓯᐙᒡ	-538
ᓂᒧ	-539
ᐱᒫᒋᐃ	-540
ᑭᓐ᙮	-541
▁ᐅᑎᔑ	-542
▁ᑭᒋᐅᑭᒫ	-543
ᑖᑯ	-544
ᒋᑯ	-545
ᓯᐌᒃ	-546
▁ᑮᐊᔮ	-547
▁ᑲᔥᑭ	-548
▁ᒉᕒᐆ	-549
▁ᒉᕒᐆᓴᓬᐊ	-550
ᒦᓂ	-551
ᓯᐙ	-552
ᔑᒃ	-553
▁ᒫᒑ	-554
ᔥᑲᐎᓰ	-555
ᓇᑲ	-556
ᑲᓂᕽ	-557
▁ᑆᓬ	-558
▁ᒋᑮ	-559
▁ᐅᑭᒋ	-560
▁ᑳᑮᐊ	-561
▁ᐯᒫᑎᓯᓂᒡ	-562
ᓈᑲ	-563
ᔥᑯ	-564
▁ᐊᒦ	-565
ᕒᐃᔭ	-566
▁ᑮᐊ	-567
ᐹᒋᒧ	-568
▁ᑳᐃᓈᒡ	-569
▁ᐊᐱ	-570
▁ᑭᒋᑮᔑᑯᕽ	-571
ᓭᓂᒃ	-572
▁ᓂᓯ	-573
▁ᐲᓂᔥ	-574
▁ᑫᑰᓂᓂ	-575
▁ᒥᑖ	-576
ᐸᐊ	-577
▁ᒥᓍ	-578
ᐌᑖᑯᓯ	-579
ᑎᐯᒋᑫ	-580
ᒪᑲᒃ	-581
▁ᐃᓴ	-582
▁ᐃᔖ	-583
▁ᒋᓴᓲᓐ᙮	-584
ᓯᔅ	-585
ᓈᑾᒃ	-586
▁ᐃᓇᑫ	-587
ᒫᐗ	-588
ᓵᑭ	-589
▁ᐃᔥᒀ	-590
▁ᐸᑳᓐ	-591
▁ᒎᐗᒃ	-592
▁ᒥᓂᒃ	-593
ᑯᕽ᙮	-594
▁ᑎᓄ	-595
ᑎᐯᓂᒥ	-596
ᒋᐋ	-597
ᐌᓂᒥ	-598
ᑯᐙᒡ	-599
▁ᐸᑴ	-600
ᑕᒪᐙᒡ	-601
▁ᐃᓂᐌᓂ	-602
▁ᑫᑰᓇᓐ	-603
ᔭᐎ	-604
▁ᓰ	-605
ᐸᓐ᙮	-606
ᑕᑯᔑ	-607
▁ᐋᑎ	-608
▁ᑭᑕ	-609
▁ᑮᐌ	-610
ᐌᐱ	-611
ᐲᐊ	-612
ᓂᔑᔑ	-613
▁ᐲᑕᕒ	-614
▁ᓂᑕᒻ	-615
▁ᐃᐃᐌᓂ	-616
ᑎᓄᐎ	-617
ᑲᒥᒃ	-618
▁ᔑᒫᑲᓂ	-619
ᓀᒀ	-620
ᐙᐸᒫ	-621
▁ᐊᐲᒡ	-622
▁ᐃᑭᐌᓂᐗᒃ	-623
▁ᐁᓈ	-624
ᒎᐎ	-625
ᐅᑖᐱ	-626
ᓯᓅᓐ	-627
▁ᐃᔅ	-628
▁ᑕᔑ	-629
▁ᑮᐱ	-630
ᑲᔥᑭᑑ	-631
ᑭᑭᓄᐊᒫᑫ	-632
▁ᔐ	-633
ᓈᐙᓐ	-634
▁ᒪᒋᐊᒑ	-635
ᔫᓯ	-636
▁ᐊᓂ	-637
ᓂᔑᐗᓈ	-638
ᑳᓂ	-639
▁ᐁᔮ	-640
ᑾᒃ	-641
▁ᐴ	-642
▁ᑳᑮᐱ	-643
ᐙᑎᓯ	-644
▁ᐐᒌ	-645
▁ᓵᐃ	-646
ᓂᓂᑭᓐ	-647
ᓰ᙮	-648
ᑲᒀᑕ	-649
ᒋᐃᑎ	-650
▁ᐱᒫ	-651
ᓇᒧ	-652
ᐃᔥᒀ	-653
▁ᓂᐳ	-654
ᐎᓂᕽ᙮	-655
ᒥᒋ	-656
ᒀᑎᓯ	-657
▁ᑯᒫ	-658
▁ᒥᓄ	-659
▁ᐌᐌᓂ	-660
▁ᔐᒫᒃ	-661
▁ᒥᓍᒋᒧ	-662
ᐱᒫᑎᓰ	-663
▁ᐁᐊᔮ	-664
▁ᑳᒎᐎ	-665
ᑲᑮ	-666
ᐹᑏᓄ	-667
ᑖᓈᐙ	-668
▁ᒎᐗᐞ	-669
▁ᐅᑕᒑᑾᓐ	-670
ᒥᓈ	-671
ᓅᒌ	-672
▁ᐹᓂᒫ	-673
ᑯᐸ	-674
ᑴᓐ	-675
ᒥᓉ	-676
ᓇᒪ	-677
▁ᑑ	-678
ᒥᑯᒡ	-679
▁ᑭᑎᔑ	-680
ᐎᑭ	-681
ᓃᓐ	-682
ᒦᓂᑰ	-683
▁ᒞᓐ	-684
ᓇᑭ	-685
ᓬᐄ	-686
ᑖᑾᒃ	-687
▁ᐅᔑ	-688
▁ᒦᓴ	-689
ᑕᑯ	-690
▁ᐱᑾ	-691
▁ᑮᔑᑲ	-692
▁ᒪᒋᑑ	-693
▁ᐃᓂᓂᐗᓐ	-694
▁ᒉᕒᐆᓴᓬᐊᒥᕽ	-695
▁ᑭᒋᐊᓇᒥᐁᐎᑭᒫ	-696
ᐃᓂ	-697
ᒪᒃ	-698
ᑲᓇᐞ	-699
▁ᑳᑎᐯᒋᑫᓂᒡ	-700
ᑖᐌ	-701
ᓇᒃ	-702
ᓇᒑ	-703
▁ᑫᐐᓐ	-704
ᓈᐞ	-705
ᔭᓐ᙮	-706
▁ᐐᓇᐙ	-707
ᑎᐯᑖᑯᓯ	-708
ᐸᐹ	-709
ᑑᓐ	-710
ᓰᒻ	-711
ᓈᐙᒡ	-712
▁ᐁᓀ	-713
ᐎᓂᐙᓐ	-714
ᒋᑲᓂᐎ	-715
ᒋᒋᑫ	-716
▁ᑳᐃᔑᒋᑫ	-717
ᑎᒃ	-718
▁ᐊᓯ	-719
ᐙᑳᐃ	-720
▁ᐅᓵ	-721
▁ᐯᐸ	-722
▁ᑫᒋ	-723
ᐎᓂᓂᒻ	-724
ᒫᒪ	-725
ᓴᐌ	-726
ᑕᐙᒡ	-727
ᔥᑳᑯ	-728
▁ᐱᔑ	-729
▁ᓂᑑ	-730
▁ᑕᑯᔑ	-731
▁ᐁᑮᐅᒋ	-732
▁ᑫᑮᓇᐙ	-733
▁ᐅᓇᔓᐌᐎᓐ	-734
ᑌᐱ	-735
ᔕᔒ	-736
ᑕᒧᒃ	-737
▁ᑌᐯ	-738
▁ᑎᐱ	-739
▁ᐯᕒᐊ	-740
▁ᔔᓂᔮ	-741
▁ᐅᑌᐺᑕᒨᒃ	-742
ᐲᑎᑫ	-743
▁ᐊᑭ	-744
▁ᐱᓯ	-745
▁ᒋᐱ	-746
▁ᔖᑰ	-747
ᒪᓯᓇᐃ	-748
▁ᐁᐅᒋ	-749
▁ᐃᓈᑯᓂᑫ	-750
ᑖᑫ	-751
ᓇᐎ	-752
ᑰᔦᒃ	-753
ᓂᓂᒻ	-754
ᓇᐙᐸ	-755
▁ᐅᔥᑭ	-756
▁ᑳᑎᐯᓂᒥ	-757
▁ᐅᑮᐃᑰᓐ᙮	-758
ᓰᒃ	-759
▁ᑳᑕ	-760
▁ᐁᒐᓬᐊ	-761
ᐙᒃ	-762
ᑖᒻ	-763
ᓇᒫ	-764
ᔥᑮ	-765
ᕒᐊᐋ	-766
▁ᐅᑌ	-767
▁ᐱᒥ	-768
ᒋᑳᑌᒃ	-769
▁ᐁᐸᕒᐊᐋ	-770
▁ᐅᑮᐃᓈᐞ	-771
▁ᐅᑮᐃᓈᓐ	-772
▁ᑭᔐᒪᓂᑑ᙮	-773
ᑮᔗ	-774
▁ᓂᐐ	-775
▁ᓇᑴ	-776
▁ᐅᑮᐊ	-777
ᓯᕽ	-778
▁ᒫᒪ	-779
▁ᓂᑕ	-780
▁ᑳᑭᒋ	-781
ᒪᔥᑲᐎᓰ	-782
▁ᓃᓇᐎᓐᑦ	-783
ᑕᒪᓐ	-784
ᑲᓇᐌ	-785
ᐌᒡ	-786
ᐸᑭ	-787
ᓀᐱ	-788
ᓈᓯᑲ	-789
▁ᐐᒋ	-790
▁ᑌᐱ	-791
▁ᓃᔑᓐ	-792
▁ᐁᑮᐊᓂ	-793
ᒥᑕ	-794
ᒥᔅ	-795
▁ᑫᐐ	-796
▁ᓂᑯ	-797
ᐎᓂᓂ᙮	-798
▁ᐊᐱᓅᒌ	-799
ᒫᐙᒡ	-800
ᔥᑭᓀ	-801
▁ᐁᑕᓱ	-802
▁ᐃᔅᕒᐃᔭ	-803
ᐎᒡ	-804
ᑯᓭ	-805
ᒀᒥ	-806
ᑕᒨᒃ	-807
ᑳᐸᐎ	-808
ᓰᐗᒃ	-809
▁ᒋᑑ	-810
▁ᒪᒋ	-811
ᑌᐺᑕᒧ	-812
ᑭᑫᓂᒫ	-813
ᑲᓂᓂᒃ	-814
▁ᑮᑭᒋ	-815
▁ᑳᓃᑳ	-816
▁ᓂᑌᑌ	-817
▁ᐅᑎᑭᑐ	-818
▁ᑮᓇᐎᓐᑦ	-819
ᒫᐞ	-820
ᕒᐄ	-821
ᑯᒡ᙮	-822
▁ᓃᒋ	-823
▁ᓃᔣ	-824
ᓈᑾᓂᓂᒃ	-825
ᑰᐞ	-826
ᓂᕽ	-827
ᐎᓐᒡ	-828
▁ᒋᒥᓄ	-829
▁ᐋᓇᐐᓐ	-830
▁ᐃᓂᓂᐗᒃ	-831
ᓃᒑ	-832
▁ᐅᑭ	-833
▁ᑌᐯᒋᑫ	-834
▁ᐊᓇᒥᐁᐎ	-835
▁ᑳᒎᐎᐎᓯ	-836
ᑳᕽ	-837
ᐃᑯᒡ	-838
ᑖᒥᓐ	-839
▁ᒋᑆ	-840
▁ᑲᒀᑕ	-841
▁ᑳᐅᒌ	-842
ᑫᓐ	-843
ᓇᑴ	-844
ᓈᐱ	-845
ᐙᐸᒥ	-846
ᓈᓐ᙮	-847
▁ᐁᓂ	-848
▁ᐅᒌ	-849
▁ᑳᑑ	-850
▁ᐁᑮᐱ	-851
▁ᐊᑮᕽ᙮	-852
▁ᑳᐃᑭᑐ	-853
▁ᐁᑮᐃᓈᒡ	-854
ᐎᔕ	-855
ᒫᒑ	-856
ᐙᓐ᙮	-857
ᓂᒫᒡ	-858
▁ᐁᑕᔑ	-859
ᐅᒌ	-860
ᒪᐞ	-861
ᐎᑭᒫ	-862
ᑌᓂᒃ	-863
ᓈᓂᒃ	-864
ᓯᓂᒃ	-865
ᐌᐱᓯ	-866
▁ᒪᔑ	-867
ᐋᐸᒋᑑ	-868
ᑯᐸᓀᓐ	-869
▁ᐸᑴᔑ	-870
▁ᐅᑎᐯᒋᑫ	-871
▁ᐅᑕᒑᑯᓂ	-872
ᐙᐸᑕ	-873
▁ᑮᔑ	-874
▁ᑳᓂᑖ	-875
▁ᐯᐸᑳᓐ	-876
ᒧᓭ	-877
ᐊᔮᒡ	-878
▁ᒨᓯᔅ	-879
ᐌᐸ	-880
ᐗᐞ᙮	-881
ᐗᓂᓂᒃ	-882
▁ᐊᐌᓀ	-883
ᐌᓅ	-884
ᒦᒋ	-885
ᒥᓍᐸ	-886
ᒥᓐ᙮	-887
▁ᐅᓈ	-888
▁ᑎᐹ	-889
▁ᑳᒪ	-890
▁ᐁᐐᒌ	-891
▁ᐁᑭᒋ	-892
▁ᐆᑌᓇ	-893
ᓅᑌ	-894
▁ᑰ	-895
ᑕᕽ᙮	-896
ᓴᓐ᙮	-897
▁ᑭᑌ	-898
▁ᒦᐗ	-899
▁ᒫᒌ	-900
▁ᒋᑭᑫ	-901
▁ᐅᑯᓯᓯ	-902
ᑮᐌᐱᒫᑎᓯ	-903
▁ᑳᐊᔮᐙᒡ	-904
ᒦᓈ	-905
▁ᐊᒑ	-906
▁ᐯᔓ	-907
ᐎᓂᐙᕽ	-908
▁ᐅᑎᐹᒋᒧ	-909
▁ᐱᒫᑎᓯᐎᓐ	-910
▁ᑌᐯᒋᑫᔭᓐ	-911
ᐲᐎ	-912
ᑕᒣ	-913
ᑕᔅ	-914
ᑖᓱ	-915
ᓈᒻ	-916
ᔑᓃ	-917
ᔒᑫ	-918
ᐙᐙᒡ	-919
ᑕᐌᓂ	-920
ᒋᐃᑰ	-921
ᒪᑲᓐ	-922
ᓂᑭᓐ	-923
ᓇᑰᒃ᙮	-924
▁ᑲᑴᒋ	-925
ᐅᑌᐺᑕᒨ	-926
ᒫᐗᒋᐃᑎ	-927
▁ᒥᓍᒋᒧᐎᓐ	-928
ᐃᑫ	-929
ᑌᒃ	-930
ᑕᐱ	-931
ᑾᑎ	-932
ᑕᐙᐙᒡ	-933
ᒥᓐᒡ᙮	-934
ᔓᑕᒫᑫ	-935
▁ᑕᐃᔑ	-936
▁ᒫᓇᒑ	-937
▁ᔖᑰᒡ	-938
▁ᑳᐃᔥᒀ	-939
▁ᑭᒋᒪᓯᓇᐃ	-940
ᓬᐋ	-941
ᓂᔥᑳ	-942
▁ᐃᔑᓂᔕᐙ	-943
▁ᐃᓂᐌᓂᐗᐞ	-944
ᐴᓂ	-945
ᑭᒡ	-946
ᑕᒫᓱ	-947
ᓂᓯᑐ	-948
▁ᑲᓇ	-949
▁ᒦᒋ	-950
ᓬᐊᓬᐄ	-951
▁ᐁᐙᐸ	-952
▁ᐲᑎᑫ	-953
ᒪᐙᑲᓇᒃ	-954
ᓂᑭ	-955
ᓯᓅ	-956
ᐎᓂᓃ	-957
ᑕᒪᕽ	-958
ᑖᑯᓯᒡ	-959
ᑭᑭᓇᐙ	-960
ᔐᐙᑎᓯ	-961
▁ᑌᐺᔦ	-962
▁ᑮᐃᔖ	-963
ᒪᒋᑑᑕᒧ	-964
▁ᑫᐐᓇᐙ	-965
ᐴᔔ	-966
ᑖᑯᒡ	-967
ᑭᒫᐎ	-968
ᒥᑲᐎ	-969
▁ᓵᑭᐃ	-970
▁ᐅᐙᑳᐃ	-971
▁ᐅᑮᐅᒋ	-972
▁ᑳᓬᐊᓬᐄ	-973
▁ᒋᐃᔑᒋᑫ	-974
ᐹᐱ	-975
ᓯᓄᒃ	-976
ᔥᑯᑌ	-977
▁ᐙᓴ	-978
▁ᐁᓈᓴ	-979
▁ᐊᓄᑮᐋ	-980
▁ᑮᐅᑌᑌ	-981
ᐅᑎ	-982
ᑲᒃ	-983
ᒫᒋ	-984
ᐃᑎᓱ	-985
ᐊᓄᑮ	-986
ᑯᓯᓯ	-987
ᑲᑴᒋ	-988
ᑲᓂᓂ	-989
ᓃᑳᓂ	-990
ᔮᕽ᙮	-991
▁ᐙᑳᐃ	-992
ᐸᐅ	-993
ᑌᔮ	-994
ᑣ᙮	-995
ᑴᒋ	-996
▁ᐸᑮ	-997
▁ᐹᐃ	-998
▁ᒋᒪ	-999
▁ᒥᓂ	-1000
▁ᑭᑎᑫ	-1001
▁ᐅᑮᐃᑰᐞ᙮	-1002
ᑯᓰ	-1003
ᑲᐃ	-1004
ᐙᐸᓐ	-1005
ᓐᒡ᙮	-1006
ᓯᓂᓂ	-1007
ᐎᓂᓃᕽ	-1008
▁ᐁᒐᓬ	-1009
▁ᐄᓴᓐ	-1010
▁ᐅᑖᐱ	-1011
▁ᐱᓵᓐ	-1012
▁ᑫᓃᓐ	-1013
▁ᑳᐃᓇ	-1014
ᑕᒪᐎᓂᓂᒻ	-1015
▁ᐁᑮᐃᑭᑐ	-1016
ᓈᓱ	-1017
▁3	-1018
ᓇᕽ᙮	-1019
▁ᒋᓂ	-1020
ᒨᔥᑭᓀ	-1021
▁ᐊᓇᒥᐋ	-1022
▁ᐊᔮᓂᒡ	-1023
ᐙᕽ	-1024
▁2	-1025
ᐐᒋᐃ	-1026
ᐯᔑᑯ	-1027
ᒦᑭᐌ	-1028
ᓀᑕᒧ	-1029
▁ᐁᓅ	-1030
ᐎᓇᓐ᙮	-1031
▁ᐹᐃᓬᐊ	-1032
ᑯᐌ	-1033
ᔖᑰ	-1034
ᐃᑯᐙ	-1035
ᐲᐃᑫ	-1036
ᑎᐸᐊ	-1037
▁ᑲᑮ	-1038
ᐊᔮᓂᒡ	-1039
▁ᑳᐱᒫᑎᓯ	-1040
ᐲᔖ	-1041
ᓃᑭ	-1042
ᓈᑫ	-1043
ᑮᔑᒃ	-1044
ᒫᒪᐎ	-1045
ᓃᐸᐎ	-1046
ᓈᕽ᙮	-1047
▁ᑫᑳ	-1048
▁ᒥᒋ	-1049
▁ᓂᔑ	-1050
▁ᓇᑫ	-1051
▁ᐁᑌᐺ	-1052
▁ᐅᑌᑌ	-1053
▁ᒦᐗᓐ	-1054
ᑲᒥᑯᕽ᙮	-1055
▁ᐅᐱᒫᑎᓯ	-1056
▁ᐅᑭᑭᓄᐊᒫᑫ	-1057
ᐴᓀ	-1058
ᐴᓐ	-1059
ᑰᒃ	-1060
ᓂᑎ	-1061
ᓴᐞ	-1062
ᐯᓂᒧ	-1063
ᑖᑾᓐ	-1064
▁ᑕᓱ	-1065
▁ᒫᓄ	-1066
ᓈᑲᑕᐌ	-1067
▁ᐃᔥᐱ	-1068
▁ᓰᑲᐊ	-1069
ᑖᑾᓂᓂᒃ	-1070
ᑮᕽ	-1071
ᓐᑦ	-1072
ᔂᒃ	-1073
▁ᔕ	-1074
ᒧᐙᒡ	-1075
ᑳᒋᒋᑫ	-1076
▁ᐁᕒᐊ	-1077
▁ᐌᔫᓯ	-1078
ᒪᑲᓂᓂᒃ	-1079
▁ᐃᔥᑯᑌ	-1080
▁ᐅᑖᓈᕽ	-1081
▁ᒋᓴᔅ᙮	-1082
▁ᐃᔑᐲᐃᑳᑌ	-1083
▁ᐃᓈᑯᓂᑫᐎᓐ	-1084
▁ᑮᐃᑭᑐᐗᒃ᙮	-1085
▁ᑭᒋᒪᓯᓇᐃᑲᓐ	-1086
▁ᑭᒋᐊᓇᒥᐁᐎᑲᒥᑯᕽ	-1087
ᐊᑕ	-1088
ᐙᓭ	-1089
ᒋᓭ	-1090
ᓂᒻ	-1091
ᔭᔮ	-1092
ᐎᓂᒡ	-1093
ᑕᑳᓀ	-1094
ᑯᓈᓐ	-1095
ᑲᓇᒃ	-1096
ᓇᓈᑯ	-1097
ᓬᐊᓐ	-1098
▁ᐌᒌ	-1099
▁ᒋᐸ	-1100
▁ᒥᓴ	-1101
ᓂᑖᐎᑭ	-1102
▁ᐁᑭᑐ	-1103
▁ᐊᓄᑮ	-1104
▁ᑳᐃᓀ	-1105
▁ᒋᐱᒫᒋᐃ	-1106
ᐙᓇ	-1107
ᒀ᙮	-1108
ᓯᑸ	-1109
ᔮᐹ	-1110
ᐸᒋᑑ	-1111
ᓉᐲᐎ	-1112
ᓰᒥᓐ	-1113
ᔭᕽ᙮	-1114
▁ᑭᐱ	-1115
ᑭᓯᐙᒡ	-1116
▁ᐅᐐᓱ	-1117
▁ᑮᐃᓀ	-1118
▁ᐁᔑᒋᑫ	-1119
▁ᐅᑕᓄᑮᐋ	-1120
▁ᑫᐃᔑᒋᑫ	-1121
ᓂ᙮	-1122
ᔑᒡ	-1123
ᑑᐙᒡ	-1124
ᑾᔭᑯ	-1125
ᓂᓂᒡ	-1126
▁ᑕᑯ	-1127
▁ᑳᓅ	-1128
▁ᐅᑮᐱ	-1129
▁ᑳᐐᒋ	-1130
▁ᔔᒥᓈ	-1131
ᑕᒧᐙᒡ᙮	-1132
▁ᐊᓇᒥᐁ	-1133
▁ᑳᐃᑭᑐᒡ	-1134
▁ᒪᒋᐊᒑᑾ	-1135
▁ᑭᑭᓄᐊᒪᐙᑲᓇᒃ	-1136
ᑏᐎ	-1137
ᑕᐗ	-1138
ᔑᕽ	-1139
ᔥᑾ	-1140
ᔭᔅ	-1141
ᐸᐃᑫ	-1142
ᑌᔮᑎ	-1143
ᑕᐙᓐ	-1144
▁ᐁᐋ	-1145
▁ᓈᓯ	-1146
ᑭᑫᓂᒥ	-1147
ᔑᑌᔮᑎ	-1148
▁ᐅᒋ᙮	-1149
ᑕᒥᓂᒡ᙮	-1150
▁ᐁᓈᓴᒦ	-1151
▁ᑫᒋᓈᒡ	-1152
▁ᐅᐱᒫᑎᓰ	-1153
▁ᑳᑭᑭᓄᐊᒫᑫ	-1154
ᓂᒌ	-1155
ᓄᕽ	-1156
ᓈᒥ	-1157
ᔮᒃ	-1158
▁ᑴ	-1159
ᐃᔖᒡ	-1160
ᓯᐙᓐ	-1161
ᔕᔒᐯ	-1162
▁ᐊᐸ	-1163
▁ᐙᐱ	-1164
▁ᐁᑮᐅ	-1165
▁ᑭᑎᑳ	-1166
ᑕᒪᐙᐙᒡ	-1167
▁ᑲᔥᑭᑑ	-1168
ᑕᒪᐎᓇᑰᒃ	-1169
▁ᐁᔑᓈᑾᒃ	-1170
▁ᒪᒋᐊᔭᐋ	-1171
▁ᐅᑌᐺᑕᒨᐞ	-1172
ᑯᓀ	-1173
ᑲᐎ	-1174
ᒦᕽ	-1175
▁1	-1176
ᑳᑎᓯ	-1177
ᒥᓴᐌ	-1178
ᓀᒃ᙮	-1179
▁ᑕᐅᒋ	-1180
▁ᑳᐃᓈ	-1181
▁ᑳᑌᐺ	-1182
▁ᒥᓴᐙ	-1183
▁ᓂᑎᔑ	-1184
ᑖᑯᓯᓂᒡ	-1185
▁ᑳᐃᑯᒡ	-1186
▁ᐃᔅᕒᐃᔭᓬᐊ	-1187
ᑭᓱ	-1188
ᑲᓀ	-1189
ᒥᒡ	-1190
ᓂᒪ	-1191
ᔭᐤ	-1192
ᑕᒫᕽ	-1193
ᒦᓈᒡ	-1194
ᑕᑳᓀᓯ	-1195
ᑕᒣᒃ᙮	-1196
ᐲᐃᑳᑌᒃ	-1197
▁ᑎᐱᓇᐌ	-1198
▁ᓵᐃᒪᓐ	-1199
▁ᐁᔑᓈᑯᓯ	-1200
▁ᑭᑭᓄᐊᒫᑫ	-1201
▁ᑳᑮᐃᔑᒋᑫ	-1202
ᑯᑖ	-1203
ᒫᔑ	-1204
ᓴᑲ	-1205
ᔕᑫ	-1206
ᒦᓂᑯ	-1207
▁ᐁᑲ	-1208
▁ᐲᔖ	-1209
▁ᑫᑌ	-1210
▁ᑳᐋ	-1211
ᑕᓇᒥᐋ	-1212
ᑭᐸᓐ᙮	-1213
ᑭᑭᔥᑲ	-1214
▁ᑳᐊᓂ	-1215
▁ᒞᓇᓐ	-1216
▁ᒦᐗᒃ	-1217
▁ᒦᒋᒻ	-1218
▁ᐅᓄᐌᓂ	-1219
▁ᐋᓂᓐᑦ	-1220
▁ᒥᑖᔂᒃ	-1221
▁ᐃᓂᓂᐗᐞ	-1222
ᐱᓱ	-1223
ᓰᐞ	-1224
ᐗᕽ᙮	-1225
ᓂᔕᐊ	-1226
ᓈᓂᒡ	-1227
▁ᐅᐱ	-1228
ᓃᒑᓂᓯ	-1229
ᔦᑭᐸᓐ	-1230
▁ᐁᐲᒋ	-1231
▁ᑲᓇᐌ	-1232
▁ᑳᐃᓂ	-1233
▁ᐁᑮᐃᓈ	-1234
▁ᐅᑎᔑᒋᑫ	-1235
ᑰᒻ	-1236
ᓂᑳ	-1237
ᐁᐎᓯ	-1238
ᑎᐙᒡ	-1239
ᑕᐙᐞ	-1240
ᑕᓰᓐ	-1241
ᑲᓐ᙮	-1242
ᔥᑲᐌ	-1243
▁ᐐᐸ	-1244
ᒪᑲᓂᓂ	-1245
ᓈᑾᓂᓂ	-1246
ᓯᓂᓂᒃ	-1247
▁ᐃᔥᐱᒥᕽ	-1248
▁ᐁᐸᕒᐊᐋᒻ	-1249
▁ᐃᓂᐌᓂᐗᓐ	-1250
▁ᐅᑭᔐᐙᑎᓯ	-1251
ᒥᒃ	-1252
ᓃᐎ	-1253
ᔦᔑ	-1254
ᑎᐎᓐ	-1255
ᑕᓯᒀ	-1256
ᒥᓂᑴ	-1257
ᓰᓈᐙ	-1258
▁ᐁᑑ	-1259
▁ᐌᐱ	-1260
▁ᒎᑏ	-1261
ᑕᒫᑯᒡ	-1262
▁ᐐᒌᐎ	-1263
▁ᒣᐎᔕ	-1264
▁ᒫᐐᓐ	-1265
▁ᐃᑴᐗᓐ	-1266
▁ᐅᐅᐌᓂ	-1267
▁ᐅᑮᓇᑴ	-1268
▁ᑭᑎᑳᓀ	-1269
▁ᑳᓵᑭᐃ	-1270
▁ᐅᑮᐃᑰᓐ	-1271
▁ᑳᑮᐃᑭᑐ	-1272
ᓂᔐ	-1273
ᔥᑴ	-1274
ᐎᔭᓐ	-1275
ᐐᓯᓂ	-1276
ᒋᑲᓐ	-1277
ᒥᑕᓇ	-1278
ᓄᐃᑫ	-1279
ᓄᐙᒡ	-1280
ᔭᐋᒥ	-1281
▁ᐁᑭ	-1282
▁ᐸᐹ	-1283
ᓇᒪᑕᐱ	-1284
▁ᐁᐱᒥ	-1285
▁ᐐᔭᐎ	-1286
▁ᑮᔑᒃ	-1287
▁ᑳᐱᒥ	-1288
ᐎᓂᐙᓐ᙮	-1289
ᑕᒧᐎᓂᕽ	-1290
ᒋᑳᑌᓂᒃ	-1291
▁ᐁᐃᑭᑐ	-1292
▁ᐃᔥᒀᒡ	-1293
▁ᑳᐅᓂᔑᔑ	-1294
ᐗᒀ	-1295
ᒫᓀ	-1296
ᐌᐎᓐ	-1297
ᒫᐙᓐ	-1298
ᓈᓯᑳ	-1299
▁ᐁᒪ	-1300
▁ᐙᓭ	-1301
▁ᑭᓇ	-1302
▁ᒎᓴ	-1303
▁ᐁᑮᔑᑲ	-1304
▁ᐊᐱᓅᒌᔕ	-1305
▁ᐋᔑᑌᔮᑎ	-1306
ᑎᔅ	-1307
▁ᓯ	-1308
▁ᔂ	-1309
ᐅᑎᓯ	-1310
ᐋᐙᒡ	-1311
ᐌᓂᒡ	-1312
ᑕᔕᑫ	-1313
ᓈᑾᓐ	-1314
▁ᑳᒥ	-1315
▁ᓂᑭᑫ	-1316
ᑖᑯᓯᐙᒡ	-1317
▁ᔔᓂᔮᓐ	-1318
▁ᐯᕒᐊᓰᒃ	-1319
▁ᔑᒫᑲᓂᔒ	-1320
ᒨᒋ	-1321
ᓇᐊ	-1322
ᔅᑲ	-1323
ᔥᐯ	-1324
▁ᓀ	-1325
ᔥᑮᔑ	-1326
▁ᓂᐱ	-1327
▁ᓂᓱ	-1328
ᑎᓯᐎᓐ	-1329
ᓂᒥᓐᒡ	-1330
▁ᐅᑎᓈ	-1331
▁ᐊᐙᒡ	-1332
▁ᐹᑏᓄ	-1333
▁ᑭᑑᒋ	-1334
▁ᑭᒋᑲ	-1335
ᐊᓇᒥᐁᐎ	-1336
ᑕᒧᐎᓐ᙮	-1337
▁ᐃᔥᒀᑌ	-1338
▁ᐋᐱᑎᕽ	-1339
▁ᐱᓵᓂᑯ	-1340
▁ᑳᑮᐅᔑ	-1341
▁ᒋᐸᑭᑎ	-1342
▁ᐆᑌᓈᕽ᙮	-1343
▁ᐹᐃᓬᐊᑦ	-1344
ᑖᐙ	-1345
ᑭᔖ	-1346
ᐸᑯᓭ	-1347
ᓰᑲᐊ	-1348
▁	-1349
ᓂ	-1350
ᐃ	-1351
ᓐ	-1352
ᑭ	-1353
ᑕ	-1354
ᒋ	-1355
ᑮ	-1356
ᑳ	-1357
ᐅ	-1358
ᐊ	-1359
ᑲ	-1360
ᒡ	-1361
ᒃ	-1362
ᔥ	-1363
ᔑ	-1364
ᐙ	-1365
᙮	-1366
ᓇ	-1367
ᐎ	-1368
,	-1369
ᐁ	-1370
ᒫ	-1371
ᑯ	-1372
ᑫ	-1373
ᓯ	-1374
ᒥ	-1375
ᑎ	-1376
ᐱ	-1377
ᐌ	-1378
ᒪ	-1379
ᐐ	-1380
ᓈ	-1381
ᕽ	-1382
ᐗ	-1383
ᒦ	-1384
ᐸ	-1385
ᔦ	-1386
ᐋ	-1387
ᑑ	-1388
ᑌ	-1389
ᑖ	-1390
ᓴ	-1391
ᓃ	-1392
ᔮ	-1393
ᔭ	-1394
ᑰ	-1395
ᐯ	-1396
ᓀ	-1397
ᐲ	-1398
ᐞ	-1399
ᓄ	-1400
ᑾ	-1401
ᔐ	-1402
ᓰ	-1403
ᑐ	-1404
ᔅ	-1405
ᓅ	-1406
ᔕ	-1407
ᒧ	-1408
ᒻ	-1409
ᒀ	-1410
:	-1411
ᑴ	-1412
ᒌ	-1413
ᐹ	-1414
ᓱ	-1415
ᓭ	-1416
ᒣ	-1417
ᓵ	-1418
ᓬ	-1419
ᕒ	-1420
ᐺ	-1421
ᒨ	-1422
ᒑ	-1423
ᔖ	-1424
ᐄ	-1425
?	-1426
ᐆ	-1427
ᔓ	-1428
!	-1429
ᒎ	-1430
ᐴ	-1431
X	-1432
ᑦ	-1433
ᓲ	-1434
ᑣ	-1435
ᐳ	-1436
ᔒ	-1437
ᔔ	-1438
ᓉ	-1439
ᑏ	-1440
ᓍ	-1441
ᒐ	-1442
ᑆ	-1443
ᐤ	-1444
ᒉ	-1445
ᑸ	-1446
ᒞ	-1447
ᔫ	-1448
ᔣ	-1449
ᑉ	-1450
ᔨ	-1451
0	-1452
ᔂ	-1453
ᔗ	-1454
;	-1455
ᑗ	-1456
ᔩ	-1457
2	-1458
ᑶ	-1459
3	-1460
ᓶ	-1461
1	-1462
ᔪ	-1463
4	-1464
7	-1465
ᒬ	-1466
ᒸ	-1467
ᓋ	-1468
ᐾ	-1469
ᔛ	-1470
ᒶ	-1471
5	-1472
ᒍ	-1473
–	-1474
8	-1475
ᔀ	-1476
ᔾ	-1477
6	-1478
9	-1479
ᔡ	-1480
(	-1481
)	-1482
.	-1483
x	-1484
"	-1485
/	-1486
Z	-1487
[	-1488
]	-1489
a	-1490
u	-1491
~	-1492
ᐧ	-1493
ᐼ	-1494
ᑡ	-1495
ᒒ	-1496
