<pad>	0
</s>	0
<unk>	0
¦	-1.24148
▁¦	-1.59646
▁	-3.17016
𐋇	-3.60722
▁,	-3.9499
o	-3.96228
s	-4.04858
ch	-4.27701
i	-4.57939
▁.	-4.73341
en	-4.77263
t	-4.80433
de	-4.81349
a	-5.13944
för	-5.15449
till	-5.21218
som	-5.26115
han	-5.26974
r	-5.31439
n	-5.34656
l	-5.43787
om	-5.52108
så	-5.54964
att	-5.55601
d	-5.58784
er	-5.67523
▁;	-5.74669
det	-5.76599
är	-5.80263
jag	-5.80347
g	-5.80517
den	-5.82459
k	-5.88365
▁:	-5.89239
på	-5.91638
av	-5.93217
skall	-5.942
icke	-6.0081
herren	-6.02351
med	-6.0353
hon	-6.04005
𐊣	-6.09221
𐊼	-6.09222
ar	-6.11382
du	-6.12384
f	-6.12909
e	-6.14682
var	-6.16135
har	-6.16737
m	-6.18386
▁»	-6.20477
dem	-6.22759
b	-6.24076
p	-6.25498
då	-6.25898
men	-6.30793
na	-6.36402
h	-6.41929
upp	-6.44165
dig	-6.45097
it	-6.48463
ö	-6.48619
ut	-6.49604
där	-6.50345
be	-6.50358
mig	-6.50833
eder	-6.53008
än	-6.5504
sig	-6.57049
et	-6.586
sade	-6.58742
st	-6.58818
från	-6.59829
vi	-6.59849
ty	-6.61612
an	-6.62914
ta	-6.63108
över	-6.64312
▁.»	-6.66457
v	-6.66916
hade	-6.6905
gud	-6.7331
när	-6.76506
da	-6.78144
nu	-6.7867
alla	-6.79593
in	-6.79672
ja	-6.80112
efter	-6.80192
sk	-6.81514
åt	-6.81728
ett	-6.82033
se	-6.82845
y	-6.86465
sin	-6.87023
man	-6.89178
ra	-6.9463
ock	-6.95169
min	-6.95399
u	-6.96484
el	-6.98482
vad	-6.99824
re	-7.00381
din	-7.01798
or	-7.0226
israel	-7.0529
son	-7.07244
må	-7.07521
å	-7.11821
vid	-7.11838
allt	-7.1388
ka	-7.18729
barn	-7.19154
te	-7.20306
as	-7.20704
j	-7.20778
hava	-7.23152
ur	-7.23414
komm	-7.24417
ju	-7.26358
mot	-7.28679
ga	-7.29827
eller	-7.3194
fram	-7.32816
dera	-7.36032
sina	-7.36957
lig	-7.37062
folk	-7.3761
ord	-7.38047
gå	-7.38571
oss	-7.40708
vara	-7.43132
le	-7.43902
hus	-7.4516
la	-7.45336
sa	-7.4687
kola	-7.48306
få	-7.48696
ma	-7.49405
konung	-7.49424
ha	-7.50484
are	-7.50602
äger	-7.51027
am	-7.55094
göra	-7.55219
vor	-7.55933
skol	-7.55947
bliv	-7.56019
genom	-7.56372
edan	-7.56406
under	-7.56466
ning	-7.57545
sitt	-7.58536
tt	-7.59599
mitt	-7.60935
vill	-7.61027
br	-7.61537
här	-7.62581
konungen	-7.62876
▁'	-7.62947
land	-7.63269
arna	-7.63559
tta	-7.64989
ande	-7.65627
skulle	-7.65735
väl	-7.66846
dina	-7.68509
kom	-7.68899
bliva	-7.69527
komma	-7.69953
blev	-7.71217
ba	-7.72244
år	-7.72792
utan	-7.73317
es	-7.74789
ned	-7.74928
stå	-7.74959
tid	-7.75224
någon	-7.75256
andra	-7.7535
het	-7.75738
låt	-7.77242
ingen	-7.77751
kan	-7.78916
ing	-7.79112
äro	-7.80971
bort	-7.81168
hör	-7.82207
mer	-7.83762
henne	-7.83983
pa	-7.84315
dess	-7.84805
stor	-7.85092
fader	-7.85773
hand	-7.85916
dessa	-7.86982
david	-7.89083
guds	-7.89278
dag	-7.89687
ej	-7.89908
else	-7.90078
folket	-7.90141
bland	-7.9025
herre	-7.9088
ste	-7.91127
väg	-7.92133
män	-7.92319
därför	-7.93019
hela	-7.93116
bo	-7.93291
ditt	-7.9447
at	-7.95282
mina	-7.95383
själv	-7.96637
hög	-7.97457
sta	-7.97534
gjorde	-7.97745
inför	-7.99305
giva	-8.00037
jorden	-8.01395
dö	-8.01627
jesu	-8.02331
svarade	-8.03155
tjänare	-8.03294
il	-8.03777
juda	-8.04169
ll	-8.04203
all	-8.04694
va	-8.04782
sju	-8.05115
jo	-8.05128
tala	-8.0525
söner	-8.05402
erna	-8.0589
dom	-8.06915
ska	-8.0825
ig	-8.08279
namn	-8.08287
vår	-8.08705
lag	-8.09097
tog	-8.09713
gick	-8.09755
ända	-8.09919
lät	-8.10121
gör	-8.10892
rätt	-8.10901
far	-8.11857
offer	-8.12005
us	-8.12318
tro	-8.12411
vin	-8.12989
någo	-8.13528
ick	-8.13705
▁--	-8.13813
träd	-8.15074
gen	-8.16481
mose	-8.17662
-	-8.1788
ung	-8.18039
▁?»	-8.18597
huru	-8.18957
tag	-8.19568
synd	-8.19681
hjärta	-8.19921
ne	-8.20469
liv	-8.20999
åter	-8.21291
två	-8.21745
jerusalem	-8.2225
ighet	-8.23184
je	-8.23192
edra	-8.23647
tio	-8.24071
akt	-8.25576
un	-8.25644
landet	-8.26547
ren	-8.27907
säga	-8.27991
gav	-8.28402
kunna	-8.28779
stad	-8.29173
gjort	-8.29847
får	-8.31696
stod	-8.32178
liga	-8.32184
går	-8.32603
taga	-8.3368
mar	-8.33873
ögon	-8.35488
und	-8.35659
följ	-8.36484
vän	-8.36824
im	-8.36836
me	-8.37508
dagen	-8.37568
lik	-8.37713
låta	-8.37909
denna	-8.38067
hos	-8.38328
denne	-8.3859
▁!	-8.38694
sådan	-8.39103
fri	-8.39595
c	-8.40138
red	-8.40487
profet	-8.4222
samma	-8.42469
gång	-8.42698
ken	-8.44014
tal	-8.44795
höra	-8.44813
del	-8.44879
ge	-8.45131
bar	-8.45154
tillbaka	-8.4608
håll	-8.46331
bet	-8.46775
rop	-8.47191
haven	-8.47366
sök	-8.47371
hustru	-8.48468
bygg	-8.48629
himmelen	-8.4895
kalla	-8.49531
äck	-8.49585
hem	-8.50444
kor	-8.50578
hop	-8.50981
fem	-8.51085
hundra	-8.51578
egypten	-8.5191
lika	-8.52244
bud	-8.52868
stånd	-8.52914
intet	-8.53264
mycke	-8.53847
ära	-8.54165
ansikte	-8.55131
gar	-8.55355
sam	-8.55515
död	-8.55518
sten	-8.55781
nad	-8.5679
x	-8.56932
berg	-8.56945
talade	-8.57245
lar	-8.57525
huvud	-8.57572
slag	-8.57658
fast	-8.57928
bröder	-8.5803
vär	-8.58186
såg	-8.5819
emot	-8.58761
éerna	-8.58826
hålla	-8.58888
människor	-8.59222
eld	-8.59431
kring	-8.59897
dit	-8.60193
ske	-8.60202
giv	-8.60347
tre	-8.60802
skull	-8.60929
tusen	-8.61545
fråga	-8.61901
iga	-8.6232
räck	-8.63593
först	-8.63858
ack	-8.63951
sak	-8.65048
tänk	-8.65924
vet	-8.66035
råd	-8.66212
åstad	-8.67123
visa	-8.67598
plats	-8.67981
många	-8.67983
sände	-8.68487
staden	-8.68527
akta	-8.68548
nåd	-8.68976
fall	-8.69189
um	-8.6949
lade	-8.6974
dagar	-8.70226
agt	-8.70376
ve	-8.70469
allena	-8.70576
finne	-8.70766
kvar	-8.70966
strid	-8.71576
givit	-8.71962
ställ	-8.72125
kar	-8.72388
höj	-8.72616
svärd	-8.7387
skap	-8.74265
sammans	-8.74319
blod	-8.74706
drog	-8.75084
syn	-8.75199
vatten	-8.75325
rike	-8.75426
stam	-8.75735
städer	-8.75928
döda	-8.76326
altare	-8.77426
inne	-8.77624
van	-8.7775
▁.'	-8.78696
frukt	-8.78929
vilken	-8.78943
lös	-8.7908
röst	-8.79086
fäder	-8.80262
vem	-8.80268
drag	-8.81686
god	-8.82386
rätta	-8.82484
fly	-8.83416
frukta	-8.83426
djur	-8.83434
hörde	-8.83963
måste	-8.84248
älska	-8.84331
före	-8.8438
födde	-8.84491
samla	-8.84724
yck	-8.85292
bor	-8.85431
saul	-8.85961
stra	-8.8727
prästen	-8.87361
slut	-8.87636
guld	-8.87854
verk	-8.87882
sätt	-8.87989
tiden	-8.88003
bära	-8.88145
jakob	-8.88572
vare	-8.89119
mun	-8.89438
låg	-8.8949
satte	-8.89994
broder	-8.90762
kvinna	-8.90775
mannen	-8.90793
händer	-8.93001
våra	-8.9345
tjäna	-8.93454
ryck	-8.93536
idan	-8.93963
kasta	-8.94881
full	-8.95291
for	-8.95398
vände	-8.95876
pet	-8.96007
moder	-8.96062
lämna	-8.96326
bjud	-8.96924
helig	-8.97507
iterna	-8.97583
rik	-8.97606
sky	-8.99177
känn	-8.99782
vrede	-8.99809
vilja	-9.0004
rättfärdig	-9.00533
kött	-9.0058
skriv	-9.00851
jämt	-9.0112
tjänst	-9.0112
vilka	-9.01124
både	-9.01417
orna	-9.02122
aron	-9.03369
ville	-9.03416
draga	-9.03494
stör	-9.03854
bröd	-9.04792
huset	-9.05427
rättfärdighet	-9.05629
viss	-9.05745
tron	-9.07071
heliga	-9.07349
männen	-9.07614
själ	-9.07727
offra	-9.07893
gott	-9.07921
människa	-9.09068
kunde	-9.09087
förbund	-9.09367
gingo	-9.09407
rus	-9.09752
nnerlig	-9.10282
föd	-9.11499
makt	-9.12444
öv	-9.12582
nämlig	-9.12677
släkte	-9.12867
kropp	-9.12985
vandra	-9.13179
föll	-9.13601
havet	-9.13698
fång	-9.1404
kristus	-9.14237
leva	-9.14238
ängel	-9.14446
tjugu	-9.14532
giver	-9.15439
lott	-9.15537
evig	-9.16255
stycke	-9.16266
finna	-9.16809
gått	-9.16857
hel	-9.17341
prästerna	-9.17404
vända	-9.1769
fyra	-9.17704
annan	-9.17726
kraft	-9.18024
morgon	-9.18024
dotter	-9.19664
släkt	-9.20107
båda	-9.20314
veta	-9.20658
ont	-9.2074
salomo	-9.21309
fördärv	-9.215
kläder	-9.21583
gärningar	-9.21979
silver	-9.2232
ljus	-9.22745
sex	-9.2287
fyll	-9.23333
kläd	-9.23394
driv	-9.23712
hjälp	-9.24704
sätta	-9.24852
grav	-9.24988
höll	-9.25051
sång	-9.2516
lova	-9.2542
rädda	-9.25746
marken	-9.26165
undan	-9.26299
fing	-9.26499
mod	-9.28218
lång	-9.2822
slog	-9.28584
lägga	-9.28809
skaffa	-9.28943
slå	-9.29267
onda	-9.3087
hövding	-9.32608
sebaot	-9.32608
ställe	-9.32711
behag	-9.33009
mörk	-9.33359
▁»,	-9.3389
människo	-9.34392
arvedel	-9.34877
mellan	-9.37198
öknen	-9.372
babel	-9.37202
fann	-9.37214
församling	-9.37984
lov	-9.3997
färd	-9.40234
filistéerna	-9.40379
lärjungar	-9.40379
josef	-9.4038
abi	-9.41095
glädje	-9.4119
någ	-9.4133
abraham	-9.41598
hämta	-9.41598
bör	-9.42071
döttrar	-9.4242
fiender	-9.4242
fot	-9.42925
sönder	-9.43248
stanna	-9.43358
fötter	-9.43925
stark	-9.43953
härlighet	-9.44084
länge	-9.44093
runt	-9.45362
gåvo	-9.46304
bön	-9.46667
alnar	-9.47063
välsigna	-9.47072
krig	-9.47076
kvinnor	-9.47495
helga	-9.47805
präst	-9.4836
helgedom	-9.48366
brännoffer	-9.48366
boskap	-9.4845
bedj	-9.48479
världen	-9.48808
bodde	-9.49715
arbete	-9.49855
missgärning	-9.51027
vagn	-9.51537
nöd	-9.52266
josua	-9.52841
leviterna	-9.52841
▁!»	-9.53318
kärlek	-9.54224
natten	-9.54452
äldste	-9.55156
furstar	-9.56098
dricka	-9.56098
grund	-9.56592
straff	-9.57528
lamm	-9.57675
pris	-9.58091
olja	-9.58145
lyft	-9.58492
öppna	-9.58975
mäktig	-9.59463
lägra	-9.59953
moab	-9.60448
olv	-9.60536
gammal	-9.60941
,	-9.60995
begär	-9.61486
räkna	-9.61938
våld	-9.61939
jordan	-9.62442
grip	-9.62446
månaden	-9.6245
kunn	-9.62461
dörr	-9.6298
bröt	-9.63465
tredje	-9.63965
vittnesbörd	-9.6551
skrift	-9.66031
app	-9.66335
besittning	-9.66555
fjär	-9.67089
läng	-9.67113
rör	-9.6805
andre	-9.68392
träl	-9.68677
é	-9.69182
främling	-9.69755
trettio	-9.69756
ytter	-9.69758
annat	-9.70216
efraim	-9.70298
järn	-9.70369
lever	-9.7085
köp	-9.70973
stöt	-9.71311
benjamin	-9.71394
länder	-9.71397
vishet	-9.7252
sorg	-9.72649
tempel	-9.73623
lägg	-9.73824
levande	-9.74765
sabbat	-9.75327
»	-9.75592
tecken	-9.75902
ldrig	-9.7648
judarna	-9.76487
innan	-9.76926
styggelse	-9.77646
sanning	-9.77676
begynte	-9.78826
ogudaktiga	-9.78826
krist	-9.7939
fröjd	-9.79422
befallning	-9.79422
sion	-9.80652
lust	-9.80749
frälsning	-9.81229
utval	-9.81233
sido	-9.82156
norr	-9.82347
kön	-9.82458
vattnet	-9.8307
fyrtio	-9.8369
koppar	-9.8369
övriga	-9.83691
utrota	-9.83692
hedningarna	-9.84315
hugg	-9.84945
skuld	-9.84945
vädur	-9.85577
gräns	-9.85578
baal	-9.86262
fattig	-9.86406
bjöd	-9.875
uppenbara	-9.87501
klipp	-9.88803
träffa	-9.88803
manasse	-9.88805
djup	-9.88977
afton	-9.89461
bestäm	-9.89461
lejon	-9.90126
trösta	-9.90628
förnimma	-9.9079
skörd	-9.90811
område	-9.91227
invånar	-9.91461
jeremia	-9.91461
träng	-9.91756
spisoff	-9.92143
furste	-9.92215
uppenbarelsetält	-9.92817
penningar	-9.92818
krossa	-9.92819
flykt	-9.92826
gilead	-9.93502
samuel	-9.94887
rygg	-9.94888
häng	-9.953
fullborda	-9.95586
vingård	-9.95593
'	-10.3146
;	-10.3236
)	-10.718
2	-11.8016
0	-11.8947
:	-12.6204
!	-12.8565
6	-12.8996
1	-13.0424
9	-13.2091
ó	-13.2091
3	-13.4091
5	-13.4091
7	-13.4091
í	-13.6591
]	-14.4924
8	-15.4919
4	-15.492
(	-15.4921
?	-15.4922
.	-15.4923
á	-15.4924
ä	-15.4924
