<pad>	0
</s>	0
<unk>	0
¦	-1.20188
▁¦	-1.6414
▁	-2.9269
𐋇	-3.28359
▁,	-3.50809
ja	-3.97584
▁.	-4.45964
n	-4.48806
t	-5.1504
a	-5.15359
on	-5.27763
hän	-5.49193
▁:	-5.50141
si	-5.59498
niin	-5.68262
▁;	-5.76072
minä	-5.76931
en	-5.86516
vat	-5.87611
ni	-5.91687
▁"	-5.94459
nsa	-5.96876
hänen	-6.03979
he	-6.06552
oli	-6.07614
herra	-6.11786
mutta	-6.12772
lle	-6.18033
ksi	-6.19215
in	-6.19358
se	-6.21077
sta	-6.21856
joka	-6.22847
i	-6.23179
sillä	-6.29508
sen	-6.29891
kuin	-6.36379
sanoi	-6.39542
ssa	-6.40321
että	-6.40825
minun	-6.42125
an	-6.42366
sinun	-6.43269
nsä	-6.46747
ei	-6.47938
kun	-6.5303
te	-6.54379
ä	-6.55603
sinä	-6.57955
kaikki	-6.58393
ne	-6.60626
maan	-6.63376
nyt	-6.64122
nut	-6.66242
ta	-6.66582
vät	-6.6669
mme	-6.72054
jotka	-6.73173
s	-6.73196
heidän	-6.81081
▁".	-6.8631
herran	-6.86726
nne	-6.88717
lla	-6.90153
ovat	-6.91388
mitä	-6.92355
ole	-6.93228
neet	-6.93666
jumala	-6.97818
sa	-6.97998
kin	-6.98759
än	-7.03345
israeli	-7.10938
▁."	-7.1362
olen	-7.15285
jos	-7.17797
hänelle	-7.18445
▁?	-7.1961
me	-7.20097
e	-7.2194
katso	-7.26119
ko	-7.27621
olivat	-7.27935
u	-7.2822
tuli	-7.2976
teidän	-7.29794
hänet	-7.31717
kanssa	-7.31851
vastaan	-7.33327
kaa	-7.33806
tämä	-7.34111
sano	-7.34985
poika	-7.3774
na	-7.39748
häntä	-7.39865
tte	-7.40185
jumalan	-7.40345
jonk	-7.41886
kuningas	-7.42565
nen	-7.43334
sitä	-7.438
heille	-7.46545
▁`	-7.47725
eivät	-7.4905
näin	-7.52357
eikä	-7.52954
stä	-7.5302
silloin	-7.54924
-	-7.57091
sanoo	-7.5721
olet	-7.58099
tu	-7.61007
kä	-7.62618
vaan	-7.63888
pois	-7.64041
et	-7.64406
meidän	-7.647
minulle	-7.65545
lta	-7.67038
heidät	-7.67895
sitten	-7.68319
minua	-7.68727
päivänä	-7.6923
ille	-7.71656
▁-	-7.72103
myös	-7.74404
kansa	-7.75018
edessä	-7.77173
voi	-7.77297
jo	-7.77453
meni	-7.78783
teh	-7.79886
kuninkaan	-7.82618
koko	-7.82861
va	-7.82946
puhu	-7.83427
teille	-7.84031
saa	-7.85564
sinua	-7.85592
tai	-7.86854
▁!	-7.86951
heitä	-7.87936
▁?"	-7.88489
tä	-7.89068
tämän	-7.89666
sinulle	-7.91013
vastasi	-7.93934
älä	-7.94235
siitä	-7.94944
k	-7.95166
minut	-7.96033
y	-7.96114
mikä	-7.96573
jerusalemi	-7.98882
mukaan	-7.99161
kuka	-7.99164
vielä	-7.99481
asti	-8.00863
maahan	-8.02518
tulee	-8.02668
koon	-8.03756
o	-8.03923
nämä	-8.04181
isi	-8.04574
sti	-8.04896
tähden	-8.08368
ette	-8.08697
sentähden	-8.09296
inen	-8.09511
ssä	-8.09922
koska	-8.10007
llä	-8.1172
kaiken	-8.12267
siihen	-8.13051
ten	-8.14922
maa	-8.14993
tykö	-8.15419
mään	-8.16035
l	-8.16788
pa	-8.18026
juudan	-8.18469
mies	-8.18849
kautta	-8.19492
daavid	-8.19708
sekä	-8.21066
h	-8.2147
otti	-8.22279
älkää	-8.22458
m	-8.22645
ista	-8.23352
r	-8.23715
itse	-8.23789
sä	-8.24042
olkoon	-8.24733
kaksi	-8.24815
niiden	-8.25186
siellä	-8.25412
kö	-8.25485
ettei	-8.2582
vaimo	-8.26244
antoi	-8.26263
päivä	-8.26897
sinut	-8.27006
jeesus	-8.28041
kaiki	-8.28305
nä	-8.28841
re	-8.30111
ka	-8.30249
tta	-8.30793
vä	-8.31714
kuinka	-8.31779
luo	-8.32009
ke	-8.3228
v	-8.32522
ha	-8.33392
ollut	-8.33752
pojan	-8.33783
aan	-8.34075
olette	-8.34216
teki	-8.34352
teitä	-8.35658
kansan	-8.35733
enää	-8.36675
tuo	-8.37202
un	-8.37349
herraa	-8.38683
teen	-8.38725
eteen	-8.38762
herralle	-8.39359
sana	-8.39766
vi	-8.40004
jota	-8.40751
tule	-8.4138
siis	-8.41683
kse	-8.41785
niitä	-8.41791
mene	-8.42268
ihin	-8.42859
kään	-8.43668
ki	-8.4404
oleva	-8.44384
ku	-8.44559
olisi	-8.45445
tuhat	-8.45513
kää	-8.45874
to	-8.45925
laisten	-8.45996
siinä	-8.46177
maassa	-8.47151
ut	-8.47707
mooses	-8.48511
d	-8.49439
asu	-8.4947
tee	-8.49683
jumalaa	-8.5055
seitsemän	-8.50772
tti	-8.5111
kolme	-8.51258
puhui	-8.51772
ma	-8.51851
tullut	-8.52101
kaike	-8.52343
antaa	-8.52534
käte	-8.52751
us	-8.53723
yksi	-8.54094
ty	-8.54537
ra	-8.54617
miehet	-8.56113
antanut	-8.56365
la	-8.56962
suuri	-8.56979
toista	-8.57079
pappi	-8.57139
annan	-8.57182
li	-8.58134
minu	-8.58147
ivat	-8.58426
käy	-8.59437
pe	-8.59628
b	-8.59878
päälle	-8.60378
aina	-8.60397
ennen	-8.60625
pyhä	-8.61218
le	-8.61478
daavidi	-8.61756
näki	-8.61898
kseen	-8.61976
lu	-8.62218
tulivat	-8.62506
lähti	-8.62574
moosekse	-8.627
olemme	-8.63949
tietä	-8.64193
toi	-8.64839
kristukse	-8.65535
▁`.	-8.65535
hyvä	-8.65642
tiin	-8.66183
nousi	-8.68232
lähetti	-8.6845
luokse	-8.68623
ti	-8.69169
jälkeen	-8.69323
päin	-8.69595
kuuli	-8.70599
el	-8.70607
älköön	-8.7063
jen	-8.70841
syö	-8.71155
illa	-8.71653
miestä	-8.71823
minkä	-8.72214
sielu	-8.72578
paljon	-8.72887
kuule	-8.73061
miksi	-8.73372
itselle	-8.73636
anna	-8.73948
it	-8.74193
ota	-8.74444
at	-8.74606
kaupunki	-8.74886
sinne	-8.7547
toinen	-8.75564
egyptin	-8.75684
vei	-8.76135
ri	-8.78131
g	-8.78513
kaan	-8.80158
vai	-8.80283
taan	-8.80843
kuninkaa	-8.81011
silmä	-8.81101
pojat	-8.81679
sataa	-8.81901
iden	-8.82216
ita	-8.82231
israel	-8.82616
maasta	-8.82875
takaisin	-8.83846
päällä	-8.83878
meille	-8.84046
yli	-8.84556
velje	-8.85085
pu	-8.85688
vaikka	-8.85759
ttu	-8.87181
kaikkia	-8.87498
tekee	-8.87687
tulevat	-8.87796
vie	-8.87913
neljä	-8.87937
joita	-8.88206
tava	-8.88952
hi	-8.89093
usko	-8.89155
salomo	-8.89331
de	-8.89486
etsi	-8.89553
suu	-8.89598
alas	-8.89845
teidät	-8.89997
sydäme	-8.90041
oma	-8.90323
palvelija	-8.90395
je	-8.91011
emme	-8.91031
ulos	-8.91166
kuu	-8.91247
kivi	-8.91377
missä	-8.91527
toisen	-8.917
p	-8.92032
pi	-8.92358
sinu	-8.92646
seen	-8.92795
ansa	-8.93327
f	-8.93593
iksi	-8.93673
jeesuksen	-8.93899
käske	-8.94097
meitä	-8.94122
kansaa	-8.94263
viha	-8.94468
miehen	-8.94734
▁!"	-8.94785
vain	-8.95059
viisi	-8.95399
tiedä	-8.95544
isänsä	-8.95623
esi	-8.95751
kymmenen	-8.95916
jää	-8.95962
van	-8.9599
pää	-8.96293
sebaot	-8.96572
juo	-8.96581
kuitenk	-8.96908
farao	-8.97266
mi	-8.97699
joku	-8.9879
hu	-8.98793
oikea	-8.99614
pä	-9.00658
ilo	-9.00891
kuoli	-9.02036
jä	-9.0206
temppelin	-9.02665
pane	-9.03169
ia	-9.03226
saul	-9.03527
sanon	-9.03592
henki	-9.0374
sille	-9.04107
kaupungin	-9.04161
eli	-9.04295
pani	-9.0465
maata	-9.04852
vuott	-9.05028
kunnia	-9.05458
israelilaiset	-9.05948
syntyi	-9.06676
lain	-9.06684
koot	-9.0669
poikansa	-9.06882
armo	-9.07014
nimi	-9.07068
keskellä	-9.07079
samoin	-9.07464
alla	-9.07785
pahaa	-9.08168
tehdä	-9.08502
lähte	-9.08562
jolla	-9.08909
ineen	-9.0905
tänä	-9.09192
taivaan	-9.09484
ji	-9.09536
tähän	-9.09597
tätä	-9.10829
enkeli	-9.10948
jossa	-9.11404
ttä	-9.12423
sanan	-9.12522
jaakobi	-9.13424
erämaa	-9.13848
kutsu	-9.14476
päästä	-9.15205
totisest	-9.15275
pelkää	-9.15775
kka	-9.15914
ho	-9.16271
kansalle	-9.16776
isä	-9.16891
päivää	-9.17135
tunte	-9.17317
ot	-9.17378
otta	-9.17999
vasta	-9.18447
lähtivät	-9.186
kulki	-9.18705
eltä	-9.18717
matta	-9.18869
ar	-9.18949
kuninkaalle	-9.1913
sai	-9.19159
eikö	-9.19171
lainen	-9.19202
joosua	-9.19267
iankaikkisest	-9.19373
köön	-9.19474
kohtaa	-9.19522
hänellä	-9.20254
istu	-9.20518
käski	-9.21077
huusi	-9.21083
profeetta	-9.21251
uhri	-9.21564
vanha	-9.2171
da	-9.22107
tässä	-9.23031
suku	-9.23348
kukin	-9.23573
varten	-9.23859
näh	-9.2398
kunne	-9.24201
heimo	-9.24508
vuoden	-9.24591
olla	-9.24648
nouse	-9.24939
han	-9.2514
astu	-9.25215
puolesta	-9.2526
kuul	-9.25329
sanonut	-9.25672
kirjoitettu	-9.25736
yhtä	-9.25871
ettiin	-9.25884
mistä	-9.26007
heistä	-9.26542
ään	-9.26547
essä	-9.26611
ihmisen	-9.27055
aika	-9.27374
issä	-9.27392
vanno	-9.27528
ylös	-9.27663
pitää	-9.27801
jalka	-9.2789
rauha	-9.28289
taas	-9.28319
as	-9.28369
syntiä	-9.28816
tulla	-9.29498
meidät	-9.29629
po	-9.3002
muuta	-9.30116
sieltä	-9.30547
ltä	-9.30739
su	-9.30811
suure	-9.3089
pitä	-9.3107
pelasta	-9.31107
ynnä	-9.31828
liha	-9.3189
itten	-9.3229
istä	-9.32365
kiinni	-9.32467
kuole	-9.32593
ainoastaan	-9.33167
enkä	-9.33444
synti	-9.33633
hyvää	-9.33814
be	-9.3382
vesi	-9.33828
jälkeläisiä	-9.34199
puolella	-9.34288
kysyi	-9.3431
aa	-9.34352
illä	-9.34557
hänestä	-9.34871
issa	-9.35289
muista	-9.35603
kaksikymmentä	-9.35776
var	-9.35911
er	-9.36497
miehiä	-9.36832
tar	-9.37014
osa	-9.37039
neen	-9.37077
tunne	-9.37086
juuda	-9.37245
käänty	-9.37398
asui	-9.37597
sanat	-9.37839
mu	-9.3785
talo	-9.3786
kaikke	-9.37903
massa	-9.38145
häneen	-9.38183
jordani	-9.38298
hyvin	-9.38348
kaua	-9.38367
tahto	-9.38704
puu	-9.38806
ottaa	-9.39072
lo	-9.39402
ympäri	-9.39427
akka	-9.39564
iistä	-9.39629
päivän	-9.39701
essa	-9.39717
ksensa	-9.39974
elää	-9.40119
ttiin	-9.40148
leipää	-9.4016
itä	-9.40167
tie	-9.40175
käsiin	-9.40259
isin	-9.40576
den	-9.40617
jälkeläise	-9.40831
jaakob	-9.40884
set	-9.41617
kutsui	-9.41688
▁`,	-9.41758
ollee	-9.41823
nime	-9.41964
ruumii	-9.42018
lyö	-9.42165
ihmi	-9.42305
baabelin	-9.42335
muu	-9.42793
edellä	-9.4288
päämiehe	-9.4299
teistä	-9.4315
suuren	-9.43296
masta	-9.43365
palvele	-9.43444
eet	-9.43951
vettä	-9.44187
tytär	-9.44322
teko	-9.44324
jumalalle	-9.44385
kyynärää	-9.4462
teillä	-9.44764
silmissä	-9.45169
ve	-9.45179
paavali	-9.45193
▁",	-9.45211
kulta	-9.4532
sauli	-9.45348
aikaan	-9.4557
saat	-9.45704
perintöosa	-9.45761
al	-9.46042
kysy	-9.46211
tulen	-9.46413
egypti	-9.46447
tekivät	-9.46728
tulisi	-9.46801
ru	-9.47228
kaupunkiin	-9.47428
ö	-9.4787
il	-9.47974
asettui	-9.48916
ksen	-9.49195
tulleet	-9.49322
alttarin	-9.49377
iin	-9.49545
veljensä	-9.49608
tänne	-9.49615
luona	-9.49638
nähdä	-9.49703
ttava	-9.49738
verta	-9.49844
koi	-9.50178
josta	-9.50313
salli	-9.50568
meren	-9.50686
alle	-9.51204
pietari	-9.51758
kansat	-9.51973
kan	-9.52145
raja	-9.52179
henke	-9.52441
tekevä	-9.52443
tuleva	-9.52458
käskyn	-9.52549
mpi	-9.52801
kallio	-9.53005
aaron	-9.53049
käsky	-9.53094
isie	-9.5318
miekka	-9.53428
onko	-9.53451
aikana	-9.53476
isäni	-9.53514
asetti	-9.53636
edestä	-9.53774
suvu	-9.53784
sata	-9.53849
korkea	-9.54234
iltä	-9.54249
anteeksi	-9.54266
paha	-9.54579
yhden	-9.54902
keskuudessa	-9.54903
käsi	-9.54943
polttouhri	-9.55015
tuomio	-9.55069
papit	-9.55097
uksen	-9.5531
hopea	-9.55395
kansoje	-9.55544
palvelijasi	-9.5562
voima	-9.56179
joukko	-9.56243
saanut	-9.56255
koht	-9.56854
tyttäre	-9.56929
tien	-9.56996
ah	-9.57018
ro	-9.57299
saavat	-9.57482
vaimon	-9.57485
yhdessä	-9.57492
manasse	-9.57494
menkää	-9.57494
luota	-9.5781
kar	-9.57902
ihmisten	-9.58177
pysyy	-9.58179
takaa	-9.58195
malla	-9.58606
sten	-9.58774
lähde	-9.58904
joilla	-9.58968
toivo	-9.59078
minulla	-9.5909
astui	-9.59301
ylen	-9.59396
jeremia	-9.59478
päivinä	-9.59485
kaksitoista	-9.59552
kerra	-9.59599
laiset	-9.59711
laki	-9.59761
kuningasta	-9.59965
ketä	-9.60042
kristus	-9.6015
mieli	-9.60167
täynnä	-9.60201
ina	-9.60712
rakenta	-9.60798
palasi	-9.60984
ilta	-9.61288
seisoi	-9.61419
häpeä	-9.61464
ilmestysmaja	-9.61506
johon	-9.61507
ensa	-9.61748
nimen	-9.619
jälle	-9.62097
tul	-9.62317
hengen	-9.62339
kai	-9.62806
nimeä	-9.62874
kanta	-9.62985
muut	-9.63044
mooabi	-9.63055
tapahtu	-9.63136
turva	-9.63141
asukkaa	-9.63149
jäi	-9.63163
julista	-9.6353
juhla	-9.63575
lähettänyt	-9.63575
samuel	-9.63577
kuullu	-9.63601
molemm	-9.63626
seiso	-9.63676
jona	-9.63689
aikaa	-9.63761
työ	-9.63761
itsensä	-9.6389
mise	-9.64029
enemmän	-9.64077
seuraa	-9.64201
väki	-9.64398
sivat	-9.64626
mone	-9.6467
tietää	-9.6476
valta	-9.64765
leeviläise	-9.65015
aaronin	-9.65053
man	-9.65254
joosef	-9.65254
istui	-9.65568
voit	-9.65746
kuusi	-9.65926
rakasta	-9.66211
tettu	-9.66286
sinulla	-9.66613
oi	-9.66675
itseä	-9.66875
kaupungi	-9.6731
staan	-9.67382
lleen	-9.67383
tästä	-9.67448
karitsa	-9.67621
taistelu	-9.67846
lähetä	-9.67878
vaattee	-9.67988
lapset	-9.68164
ylistä	-9.68166
or	-9.68167
sota	-9.68385
toimitta	-9.68556
liikkeelle	-9.68576
mukana	-9.68628
kasvo	-9.68781
lapsia	-9.68812
liiton	-9.68829
mä	-9.68961
ju	-9.6923
henkeä	-9.6925
söi	-9.69369
tin	-9.69473
temppeliin	-9.69485
laske	-9.69505
puolelle	-9.69726
rin	-9.70251
mo	-9.70273
saastai	-9.703
osta	-9.70324
nosta	-9.70362
gileadi	-9.70444
elämä	-9.70595
asia	-9.70719
samaria	-9.70847
alttari	-9.71076
ensä	-9.71434
uhraa	-9.71677
muuri	-9.71819
vihaa	-9.71826
assuri	-9.71902
vihollise	-9.71929
tuu	-9.72068
aabrahami	-9.72125
pelastu	-9.72295
oman	-9.72645
heillä	-9.72651
taa	-9.72688
tut	-9.73028
ssaan	-9.73094
daavidille	-9.73144
monta	-9.7317
mihin	-9.73177
vaa	-9.73293
jeesukse	-9.73484
joukossa	-9.73595
kuulla	-9.73606
kuullee	-9.73608
pysy	-9.73698
etkä	-9.73805
hallitsi	-9.74198
puoli	-9.74399
ruhtinas	-9.74489
vanhurskaude	-9.74549
beet	-9.7459
siioni	-9.7461
ly	-9.74637
elin	-9.74746
väkevä	-9.75087
lai	-9.75197
laakso	-9.75229
saisi	-9.7525
syödä	-9.7537
korva	-9.75557
mista	-9.75814
autio	-9.75815
ttaa	-9.76149
olevan	-9.76624
so	-9.76817
viisikymmentä	-9.76983
essaan	-9.77116
pään	-9.77209
olkoot	-9.77272
tahi	-9.77297
soti	-9.77424
äiti	-9.77766
opetuslapse	-9.77777
oppi	-9.77783
neljäkymmentä	-9.77783
käskyjä	-9.77793
poikaa	-9.77895
ol	-9.78061
mennä	-9.78114
luu	-9.78195
ys	-9.7839
uu	-9.78541
jumalani	-9.78749
liitto	-9.78794
llis	-9.78833
asetta	-9.78899
sekeli	-9.79411
taivaasta	-9.79594
pidä	-9.79846
neuvo	-9.79959
sukukunna	-9.80142
laisille	-9.80315
elämän	-9.80422
paikkaan	-9.80425
filistealaist	-9.81054
miehe	-9.8112
tähte	-9.81289
lä	-9.81392
määrä	-9.81406
her	-9.81483
elia	-9.81605
hankki	-9.81883
kultaa	-9.82028
aabraham	-9.82077
taivaa	-9.82101
vaelta	-9.82299
iho	-9.82523
kulke	-9.82551
lähtee	-9.82559
kauka	-9.82586
pojalle	-9.82726
noin	-9.8275
ittain	-9.82841
ruokauhri	-9.82976
ihmiset	-9.83011
eri	-9.83103
hti	-9.83187
jumalattoma	-9.83309
meillä	-9.83552
pakanain	-9.83564
poikia	-9.83564
jumalia	-9.8357
ihmislapsi	-9.83655
kas	-9.83891
vanhurskas	-9.83986
mere	-9.8453
miesten	-9.84675
pala	-9.84716
valmista	-9.85098
antakaa	-9.85141
löi	-9.85304
mättä	-9.85315
portin	-9.85345
ad	-9.85496
loi	-9.85509
sama	-9.85565
sy	-9.85659
joosefi	-9.85811
yt	-9.85827
jättä	-9.8584
isäsi	-9.86071
sydän	-9.86168
ga	-9.86269
tehkää	-9.86318
noudatta	-9.86633
een	-9.8678
kanaani	-9.8686
par	-9.87038
kulutt	-9.87079
totta	-9.87323
menee	-9.87341
kuulu	-9.87359
ilmoitta	-9.8749
teet	-9.87533
▁?`	-9.87913
nuo	-9.87913
kädessä	-9.87935
ympärillä	-9.87984
kyllä	-9.8805
ken	-9.8828
päivään	-9.8835
ee	-9.88351
elä	-9.88515
puoleen	-9.88571
näet	-9.88667
loppu	-9.88744
ivät	-9.88799
laidunma	-9.88805
syntiuhri	-9.88897
akse	-9.88914
virsi	-9.88954
tetty	-9.89116
kolmen	-9.89455
porti	-9.89482
väli	-9.89514
maailma	-9.89561
juuri	-9.89712
▁.`	-9.89723
herralta	-9.89955
filistealaise	-9.90084
valtakunta	-9.90321
rakensi	-9.90619
lopu	-9.90638
usta	-9.90658
muita	-9.9069
käsistä	-9.90695
rukoile	-9.90731
ääntä	-9.90768
olkaa	-9.90769
esiin	-9.90992
juutalaise	-9.91143
via	-9.91264
rukoili	-9.91281
kävi	-9.91377
ylitse	-9.91539
iloitse	-9.91603
im	-9.9162
kuva	-9.91963
har	-9.91967
llaan	-9.92077
ottakaa	-9.92267
täyttä	-9.92337
laisia	-9.92392
löytä	-9.92459
iä	-9.92485
kaatu	-9.92496
lahja	-9.92497
piti	-9.92528
eräs	-9.92656
vaski	-9.92706
kor	-9.93184
palveli	-9.93356
esipiha	-9.93396
kolmekymmentä	-9.93403
pitkä	-9.93421
vastaa	-9.93454
miekan	-9.9372
suo	-9.93906
tapahtui	-9.94073
tälle	-9.94098
palvelijat	-9.94355
näitä	-9.94408
yö	-9.94451
kulla	-9.94612
omakse	-9.94777
yöllä	-9.94842
peto	-9.94848
temppeli	-9.95131
kärsi	-9.95138
kääntyi	-9.95229
äänen	-9.95277
autta	-9.95282
tieltä	-9.95345
hopeata	-9.9548
iset	-9.95586
tulette	-9.95725
ua	-9.95996
toiset	-9.96298
sisälle	-9.96348
äitinsä	-9.9644
tele	-9.96551
elle	-9.96748
kimppuun	-9.96875
sydämessä	-9.96935
tehtävä	-9.97232
nimeltä	-9.9724
tekoja	-9.97562
sivu	-9.97564
kuolema	-9.97622
valo	-9.97742
koo	-9.98124
pakkosiirtolais	-9.98202
yhteen	-9.98207
ilmesty	-9.98216
aivan	-9.98255
temppelissä	-9.98285
viiniä	-9.98332
jooab	-9.98345
nousee	-9.98356
nosti	-9.98485
lihaa	-9.98501
vedet	-9.98511
nimensä	-9.98523
pyhi	-9.98557
ajoi	-9.98956
köyhä	-9.99086
saatta	-9.9921
egyptistä	-9.99283
paljo	-9.99606
kuun	-9.99735
ttää	-10.0002
hävittä	-10.001
es	-10.0019
kammio	-10.0019
oikein	-10.0019
▁`."	-10.0019
israelissa	-10.002
lähellä	-10.0021
kuollee	-10.0023
kuollut	-10.003
vien	-10.007
edomi	-10.0077
aaksi	-10.0086
kaste	-10.0088
veren	-10.0109
kuukaude	-10.012
vanhimma	-10.012
kumarta	-10.012
eesau	-10.012
kyl	-10.0121
synnytti	-10.0121
yhä	-10.0124
sijaan	-10.016
etelä	-10.0175
lloin	-10.0185
maailman	-10.0192
aamu	-10.0202
iankaikkise	-10.0206
:	-10.0207
miele	-10.021
hiskia	-10.0211
tutki	-10.0219
osasto	-10.0222
armon	-10.0227
pelto	-10.0231
nuun	-10.0237
yön	-10.0237
kalu	-10.0271
syy	-10.0275
seurasi	-10.0276
imme	-10.0291
hin	-10.0303
mar	-10.0315
parempi	-10.0325
raskaa	-10.0325
laulu	-10.0328
alka	-10.0329
isille	-10.0329
udu	-10.0334
ön	-10.0345
sydämen	-10.0348
kertaa	-10.0349
vel	-10.0351
ajan	-10.0356
voisi	-10.039
omi	-10.0413
turmio	-10.043
hylkää	-10.043
leijona	-10.043
ennusta	-10.043
tahdon	-10.0433
vir	-10.0442
keskenä	-10.0453
ikinä	-10.0455
valtakunna	-10.049
kal	-10.0505
jokaise	-10.0512
kuninkaat	-10.0523
karja	-10.0523
kahden	-10.0533
päällikkö	-10.0534
oikeutt	-10.0535
vaelsi	-10.0535
rakkaa	-10.0535
eksy	-10.0535
lihan	-10.0538
isen	-10.0539
sauva	-10.0543
oikeuden	-10.057
isän	-10.0571
ruhtinaat	-10.0572
kasva	-10.0577
kaupungissa	-10.0584
efraimin	-10.059
paikka	-10.0596
uuden	-10.0597
luja	-10.0601
sisare	-10.0601
lauma	-10.0627
nnut	-10.0632
jolle	-10.0632
ylt	-10.0642
sukupolve	-10.0642
palvelijoita	-10.0643
kieltä	-10.0646
pilvi	-10.0649
päätä	-10.0651
ettet	-10.0651
tekemään	-10.0664
uskon	-10.0667
vähä	-10.0669
huuto	-10.0686
kuoleman	-10.0709
puhdas	-10.0749
kauhu	-10.0749
täällä	-10.0749
palaja	-10.076
viini	-10.0763
min	-10.0768
suuret	-10.0769
sukukunnasta	-10.0775
tulkoon	-10.078
am	-10.0784
nnetaan	-10.0789
huuta	-10.0799
asettu	-10.0823
palvelijansa	-10.0833
tahdo	-10.0833
jia	-10.084
kohta	-10.0854
taloon	-10.0855
veljie	-10.0857
arkin	-10.0858
luopu	-10.0859
linnu	-10.088
ensimmäisen	-10.0884
val	-10.0893
puhee	-10.0906
misen	-10.0908
ihmis	-10.093
[	-10.0967
asuu	-10.0974
välillä	-10.0985
joonatan	-10.1008
äiden	-10.1028
kirja	-10.1036
papin	-10.1037
mat	-10.1054
sanoa	-10.106
polve	-10.1069
peit	-10.1077
hallitusvuotena	-10.1079
synnyttä	-10.1084
baabeli	-10.1088
ikään	-10.109
sanaa	-10.1092
paikassa	-10.1095
vuorelle	-10.1097
sanoja	-10.1124
joutui	-10.1139
katselmukse	-10.1191
näkevä	-10.1193
pelastaa	-10.1197
poikasi	-10.1214
ttävä	-10.1214
maja	-10.122
opetta	-10.1232
itki	-10.1255
baal	-10.1257
öljy	-10.1261
siksi	-10.1266
minen	-10.1268
vihan	-10.1278
rikko	-10.1299
äkee	-10.1306
paika	-10.1307
kiitä	-10.1314
miehelle	-10.1314
hävitä	-10.1339
jätti	-10.135
pakoon	-10.1356
kulu	-10.1386
ystävä	-10.1393
kahdeksan	-10.1404
kel	-10.1411
juutalaist	-10.1418
pilkkaa	-10.1419
kolmantena	-10.1419
vahvista	-10.1419
pojille	-10.1419
toiselle	-10.142
huoneen	-10.1424
miehille	-10.1425
tahtoo	-10.1426
todista	-10.1431
tuomitse	-10.1441
kaupungista	-10.1458
arkki	-10.1459
saman	-10.1468
pyhän	-10.1468
todistaja	-10.1491
orja	-10.1491
pohjoise	-10.1492
jätä	-10.151
surmaa	-10.1529
kädestä	-10.1536
huuda	-10.1536
sisään	-10.1539
myy	-10.155
muutama	-10.1551
häpeää	-10.1562
lapsi	-10.1576
jouko	-10.1577
olin	-10.1594
uhrat	-10.1602
ensimmäi	-10.1606
vuotena	-10.1608
portti	-10.1615
kätte	-10.1615
ruoka	-10.164
kasta	-10.1646
pyhäkkö	-10.1652
tuhon	-10.1654
sala	-10.1661
hä	-10.1681
rauhaa	-10.1697
pääse	-10.1704
vaivaa	-10.1717
utti	-10.1721
työtä	-10.1728
himo	-10.174
mukse	-10.1744
j	-10.1758
ran	-10.177
seuraavana	-10.1772
uhrasi	-10.1772
heitti	-10.1773
nuori	-10.1791
pahan	-10.1794
kaivo	-10.1828
elävä	-10.183
tanut	-10.1862
mma	-10.1863
rakastaa	-10.187
pahat	-10.1882
osan	-10.1884
palvelijalle	-10.189
päällikö	-10.1892
tyhmä	-10.1893
mennyt	-10.1896
veri	-10.1898
auringon	-10.19
uh	-10.1902
hallitse	-10.1908
öljyä	-10.1908
sel	-10.1908
eläimet	-10.1916
kasvoje	-10.1919
hal	-10.1979
vuosi	-10.1981
per	-10.1992
ilmoit	-10.2005
vuore	-10.2006
näky	-10.2013
lunasta	-10.2015
asumuksen	-10.2015
din	-10.2016
rasva	-10.202
seassa	-10.2021
isää	-10.2023
täyte	-10.2026
vyö	-10.2051
leeviläisi	-10.2088
ainen	-10.2102
astia	-10.2103
tuomit	-10.2129
ilman	-10.2137
pyysi	-10.2138
rupesi	-10.2138
vero	-10.214
leiriytyi	-10.2145
riemu	-10.2145
kova	-10.2147
voitti	-10.2167
joutuu	-10.2196
saata	-10.2223
katsokaa	-10.2225
isälle	-10.2232
arvo	-10.2248
uhreja	-10.2255
aurinko	-10.2263
rukoukse	-10.2263
merkki	-10.2263
malja	-10.2263
vallan	-10.2266
korkeu	-10.2267
mmin	-10.2275
saastaise	-10.2288
kokoa	-10.23
vanhurskaa	-10.2301
voimalla	-10.2316
suusta	-10.232
rii	-10.2338
kotiin	-10.2361
hukku	-10.2365
abi	-10.2368
puhtaa	-10.2369
isiin	-10.2387
tyttäriä	-10.239
väijy	-10.239
pait	-10.24
leipä	-10.2402
kieli	-10.2403
ääni	-10.2404
hauda	-10.2412
ella	-10.2412
tään	-10.2415
tomu	-10.2432
seurakunnan	-10.2443
sal	-10.2445
tapa	-10.2447
omaa	-10.2458
täytyy	-10.247
rukoil	-10.2473
jalo	-10.2479
puhun	-10.248
vuoren	-10.2491
tullessa	-10.2503
galilea	-10.2518
perhekunta	-10.2518
paasto	-10.2518
suoja	-10.2519
tarkoi	-10.2522
pakene	-10.2528
kuiva	-10.2529
etu	-10.2531
sanokaa	-10.255
onnettomuude	-10.2552
omaan	-10.2591
moni	-10.2611
synty	-10.2625
valin	-10.2627
soi	-10.264
peri	-10.2647
viinitarha	-10.2648
annettu	-10.2649
bi	-10.265
miekalla	-10.2653
auta	-10.2654
poltta	-10.2658
kööt	-10.266
syntynyt	-10.2661
kenen	-10.2684
vuodatta	-10.2686
tuon	-10.2692
vuotee	-10.2696
matka	-10.2699
viisaude	-10.27
ääre	-10.2709
jokaisen	-10.2713
pannu	-10.2719
mittaa	-10.2721
hetke	-10.2738
vuoristo	-10.2751
isitte	-10.2763
silmät	-10.2769
pelkäsi	-10.2781
anti	-10.2795
leske	-10.2803
kertoi	-10.2814
rah	-10.2824
hyvän	-10.2828
erä	-10.2832
alta	-10.2836
tuksi	-10.2852
sela	-10.2863
tehty	-10.2868
näe	-10.2878
rauta	-10.2879
my	-10.2892
seurakunta	-10.2898
kaamme	-10.2899
seitsemäntenä	-10.2913
herrassa	-10.2915
tuska	-10.2931
rannall	-10.2939
sotaan	-10.2942
kki	-10.2944
vanhurskaute	-10.2945
itke	-10.2945
mai	-10.2947
kuulee	-10.295
itte	-10.2967
opetuslapsi	-10.2973
pyhää	-10.2975
väärä	-10.2978
lakia	-10.2986
vere	-10.2992
meri	-10.2995
eser	-10.3002
puhe	-10.3008
mia	-10.301
valvo	-10.3027
eitsemänkymmentä	-10.3027
hedelmä	-10.3036
palvelijai	-10.3047
kerubi	-10.3048
sanansaattaja	-10.3048
siltä	-10.3051
joudu	-10.3053
lah	-10.3059
heittä	-10.306
elisa	-10.3073
nimessä	-10.3081
vara	-10.3094
isivat	-10.3119
benjaminin	-10.3129
suuria	-10.3129
halu	-10.3153
puolelta	-10.316
kestä	-10.3171
ottakoo	-10.3177
laski	-10.3183
evankeliumi	-10.3183
puhdista	-10.3184
johannes	-10.3185
profeetat	-10.3196
kaltaise	-10.3202
kokoontui	-10.3208
änsä	-10.3211
kokoontu	-10.3217
metsä	-10.3224
virran	-10.3231
inä	-10.3234
jät	-10.3241
puut	-10.3243
naise	-10.3252
isia	-10.3281
puolen	-10.3285
leirin	-10.3285
tulet	-10.3297
utta	-10.3306
ajatteli	-10.3324
kansoi	-10.3326
jauho	-10.3328
alttarilla	-10.3332
huomaa	-10.3337
pello	-10.3342
kylvä	-10.3349
ker	-10.335
kirkkaude	-10.337
hoita	-10.3383
veli	-10.3384
iisaki	-10.339
menen	-10.3395
sanot	-10.3404
menesty	-10.3421
avaa	-10.346
1	-10.3465
varhain	-10.3465
tyhjä	-10.3465
otolli	-10.3466
vapaa	-10.347
lau	-10.3475
sanotte	-10.3477
vän	-10.3502
uutta	-10.3514
kii	-10.3533
ottamaan	-10.3561
kovin	-10.3581
haudat	-10.3583
estä	-10.3593
luvan	-10.3594
lat	-10.3599
lankesi	-10.3607
sovitukse	-10.3608
joutuvat	-10.3617
sotavaunu	-10.3618
sydämestä	-10.3632
joi	-10.3636
uksia	-10.3637
kansasta	-10.364
isten	-10.366
surma	-10.3668
huonee	-10.3681
ed	-10.3681
len	-10.3684
heimon	-10.3693
talon	-10.3704
rikokse	-10.3708
lapsen	-10.3714
ab	-10.3731
ahdista	-10.3752
sankari	-10.3752
veljiä	-10.3752
käydä	-10.3752
viholliste	-10.3756
ilmoitti	-10.3756
viisaa	-10.3772
veljesi	-10.3778
silmie	-10.3789
miekkaan	-10.38
makaa	-10.3806
omin	-10.3808
ensin	-10.3817
vuori	-10.3822
juutalaisi	-10.3823
juoda	-10.3832
uuteen	-10.3832
puro	-10.3832
tavara	-10.3838
dan	-10.3846
mis	-10.3848
eita	-10.3866
naisen	-10.3868
ell	-10.3869
nuore	-10.3876
perhee	-10.3877
rankaise	-10.3899
tuhoa	-10.39
siunaa	-10.3901
sotajoukko	-10.3902
jäljelle	-10.3912
yksin	-10.3921
vaiva	-10.3935
etkö	-10.3937
valmis	-10.3942
poikien	-10.3943
rauhan	-10.3951
puhua	-10.3968
karkoitta	-10.3972
pappien	-10.3975
avasi	-10.3977
rai	-10.3981
katoa	-10.3985
itään	-10.3986
don	-10.3991
odotta	-10.4004
viisas	-10.4004
käänny	-10.4012
antava	-10.4026
nouss	-10.4032
koske	-10.4032
jumalalta	-10.4044
jumalattomi	-10.4049
ryöstä	-10.4053
lti	-10.406
vuorella	-10.4061
milloin	-10.407
varo	-10.4072
beeteli	-10.4072
kasvoi	-10.4076
palkka	-10.4077
tykönä	-10.408
vala	-10.4085
tappa	-10.4106
jerusalem	-10.411
tiesi	-10.4159
nähnee	-10.4161
kaltai	-10.4165
kiele	-10.4169
riita	-10.4172
olemaan	-10.4174
lupa	-10.4187
ainoa	-10.4191
joista	-10.4193
sarve	-10.42
juure	-10.42
veljille	-10.42
sokea	-10.42
äistä	-10.4201
isänne	-10.422
kauhistu	-10.4227
tultua	-10.4235
isämme	-10.4243
ahabi	-10.425
sekaan	-10.4266
kotii	-10.4268
pelko	-10.4281
vääryyt	-10.4284
metsän	-10.4305
menet	-10.4317
absalom	-10.4324
palvelusta	-10.4326
riko	-10.4332
käsii	-10.4333
syyttä	-10.434
ehkä	-10.4354
tarvitse	-10.4354
pilve	-10.4355
vanhurskautta	-10.4362
surmasi	-10.4367
lisäk	-10.4369
aamulla	-10.4369
autua	-10.4374
tosi	-10.4374
ala	-10.4377
millä	-10.4379
olko	-10.438
huoneeseen	-10.4382
maksa	-10.4411
miin	-10.4418
iisak	-10.4419
syövät	-10.4426
vilja	-10.4445
kymmenente	-10.4455
tomuu	-10.4495
vaske	-10.451
▁";	-10.4511
tekisi	-10.4511
annettiin	-10.4516
hehku	-10.4518
israelilais	-10.4523
luke	-10.4525
amorilais	-10.4526
kauhistus	-10.4527
hebroni	-10.453
totuude	-10.4538
uskolli	-10.455
ltaan	-10.4554
tunut	-10.4557
lähe	-10.4574
neljän	-10.458
ettava	-10.4583
arpa	-10.4593
kokosi	-10.4597
etee	-10.4608
tuolla	-10.4609
ilmoita	-10.4616
jälkeläisten	-10.4616
paljasta	-10.4616
kasvoille	-10.4633
ovi	-10.4644
isiä	-10.4647
tyttären	-10.4647
simon	-10.4656
sidkia	-10.4669
halveksi	-10.4669
poltti	-10.4669
älkööt	-10.4669
lahjoja	-10.4669
saastutta	-10.4669
palvelijoille	-10.4669
jeriko	-10.4671
suurempi	-10.4671
läpi	-10.4672
toisia	-10.4676
tapahtuu	-10.4685
meistä	-10.469
viisau	-10.4694
tahan	-10.4702
kaval	-10.4709
joukosta	-10.4713
mattoma	-10.472
kirjoita	-10.4722
käännä	-10.4726
asua	-10.4731
ano	-10.4739
sijaa	-10.4746
käynyt	-10.4755
oista	-10.4761
talossa	-10.4761
vieraa	-10.4762
laisen	-10.4775
veisaa	-10.4778
esikoise	-10.4781
etaan	-10.4809
miika	-10.4811
oven	-10.4827
heti	-10.4828
lamppu	-10.483
jeehu	-10.483
mordokai	-10.483
tappoi	-10.483
apostoli	-10.483
kenelle	-10.4831
mmat	-10.4835
pitäkää	-10.4837
elävi	-10.4839
jumalaton	-10.4841
surmat	-10.4847
lasten	-10.4848
tetään	-10.4874
tuokaa	-10.4915
tuomari	-10.4919
uhrilahja	-10.494
saar	-10.4948
varjo	-10.4981
leevi	-10.4983
vaunu	-10.4988
damasko	-10.4994
kaupunkeja	-10.4994
lampaita	-10.4994
vaellukse	-10.4994
kolmas	-10.4994
luvu	-10.4995
ihmisiä	-10.4995
veden	-10.4997
ydy	-10.5011
mullikka	-10.5012
sotajouko	-10.5012
sadan	-10.5013
jäljessä	-10.5015
uusi	-10.5024
ris	-10.5032
tuaan	-10.5034
mus	-10.5046
kulje	-10.505
joosafat	-10.5092
olisivat	-10.5109
os	-10.5125
kasvojen	-10.5132
lausui	-10.5143
kättä	-10.5152
valtaa	-10.5155
valhe	-10.5156
vih	-10.5159
vartija	-10.516
pyhäkössä	-10.5161
kädellä	-10.5161
tyyro	-10.5162
kuusisataa	-10.5164
hengessä	-10.5167
laupeude	-10.5181
huone	-10.5189
kaupungeissa	-10.5197
kerro	-10.5197
leivän	-10.5206
valtakuntaa	-10.5216
teette	-10.5234
annoi	-10.5249
mielessä	-10.5262
hyvi	-10.528
muutami	-10.533
yhteysuhri	-10.533
kaupunkeihin	-10.533
laaban	-10.533
muisto	-10.533
nebukadnessar	-10.533
viedä	-10.5331
äänellä	-10.5331
valmii	-10.5332
osoitta	-10.5332
levo	-10.5333
kuolleista	-10.5334
saada	-10.5334
vihki	-10.5338
lähesty	-10.534
teoista	-10.5346
vaati	-10.5354
vaeltaa	-10.5358
jäljell	-10.5364
kätee	-10.5383
pylvä	-10.5389
ruhtinaa	-10.5392
suloise	-10.5397
merki	-10.5398
kohde	-10.5418
yhdeksän	-10.5427
tiedät	-10.5429
opettaja	-10.5446
enne	-10.5447
vartioi	-10.5451
taivaat	-10.5452
vett	-10.5463
mah	-10.5463
paikkaa	-10.5466
ammonilais	-10.547
sukukuntaa	-10.5478
iltaan	-10.5485
papei	-10.5496
meno	-10.55
joojada	-10.5503
teltta	-10.5503
pieni	-10.551
keskelle	-10.5511
tuoda	-10.5512
neuvoa	-10.5519
ojensi	-10.5533
veisuu	-10.554
vihastui	-10.5575
suun	-10.5584
daniel	-10.5591
valkeu	-10.5603
egyptiläise	-10.5619
maria	-10.566
llään	-10.5663
pyhittä	-10.5664
lais	-10.567
sanoma	-10.567
aluee	-10.5673
esikoi	-10.5677
oikeus	-10.5678
murha	-10.5678
ohitse	-10.5678
baasani	-10.5678
nopea	-10.5678
mielisty	-10.5678
kuusikymmentä	-10.5679
eläimi	-10.568
patsaa	-10.5681
ihme	-10.5689
miten	-10.5694
sikemi	-10.5698
sydämesi	-10.5702
hanki	-10.5702
kiittä	-10.5711
horju	-10.5712
käyn	-10.5713
miseen	-10.5716
kosta	-10.5725
annat	-10.5735
ymmärtä	-10.5735
omat	-10.5746
nai	-10.5747
amen	-10.5758
erään	-10.5758
palaa	-10.576
kiiru	-10.5765
luku	-10.5779
profeettain	-10.5787
pelo	-10.581
lampaa	-10.5817
hevose	-10.5832
vis	-10.584
luola	-10.5841
alkoi	-10.5853
pui	-10.5855
eufrat	-10.5857
huomenna	-10.5857
vankeute	-10.5857
varustettu	-10.5857
ymmärrä	-10.5857
lähimmäise	-10.5857
ester	-10.5857
eefa	-10.5857
nähdessä	-10.5858
kantaa	-10.5858
njohtaja	-10.586
viisautta	-10.586
muiden	-10.5862
ruoho	-10.5863
kulkee	-10.5873
papi	-10.588
aramin	-10.5888
rakenna	-10.5891
taivais	-10.5899
hoo	-10.5909
nimeen	-10.5924
jäänyt	-10.5925
lee	-10.5934
sopi	-10.5935
miseksi	-10.5945
pian	-10.5947
lausu	-10.5948
tila	-10.5956
dessa	-10.5963
joissa	-10.5964
lapse	-10.5974
yn	-10.5981
ajat	-10.5988
päämies	-10.5988
tetaan	-10.5992
päähän	-10.5996
pakeni	-10.601
ylimmäi	-10.6019
iankaikki	-10.6028
ove	-10.603
kirjoitta	-10.6036
ssään	-10.6037
pitali	-10.6039
armahda	-10.6039
siunasi	-10.6039
kolmanne	-10.6039
töitä	-10.6039
joosia	-10.6041
tuuli	-10.6045
haaman	-10.6046
tuota	-10.6048
loppuu	-10.6051
löydä	-10.6053
saattaa	-10.6054
leiri	-10.6055
israelilaisia	-10.6056
hedelmää	-10.6063
oihin	-10.6077
lapsille	-10.6081
linnan	-10.6081
turvaa	-10.6082
avio	-10.6099
aaroni	-10.6118
usti	-10.6131
laista	-10.6134
kiven	-10.6147
paa	-10.6193
muukalai	-10.6201
kerto	-10.6206
hdu	-10.6208
vier	-10.621
aasi	-10.6211
tekoa	-10.6211
muukalaise	-10.6214
jalkoje	-10.6224
naftali	-10.6224
poikki	-10.6224
▁!`	-10.6224
tuonela	-10.6224
viä	-10.6229
tiellä	-10.6236
valtaistuimella	-10.6243
saatana	-10.6244
leiriin	-10.6247
uus	-10.6248
jerobeami	-10.6249
tyy	-10.6255
akin	-10.6257
vil	-10.6259
avoin	-10.6261
lepoon	-10.6263
joihin	-10.6263
tiedo	-10.6283
tahtoi	-10.6312
esta	-10.6322
maton	-10.6323
vaarin	-10.6325
apu	-10.6356
vaipu	-10.6358
kurja	-10.6369
hy	-10.6377
varma	-10.6398
hullu	-10.6409
teurasuhri	-10.6413
pellava	-10.6413
lähettää	-10.6413
leeviläisten	-10.6413
päästi	-10.643
heihin	-10.6435
sukukunta	-10.644
näkö	-10.6441
temppeliä	-10.6441
työn	-10.6451
tiedätte	-10.6463
oita	-10.6467
jumal	-10.6474
peljästy	-10.6508
kedoll	-10.6513
virka	-10.6521
peljätkö	-10.6537
vuode	-10.654
ulko	-10.6552
kaatui	-10.6583
llisest	-10.6584
sammu	-10.6596
fariseukse	-10.6605
rehabeam	-10.6605
aterioi	-10.6605
makasi	-10.6605
alttii	-10.6605
sääli	-10.6605
toiseen	-10.6616
lline	-10.6617
sukua	-10.6621
ajattele	-10.6622
mässä	-10.6625
erot	-10.6626
nälkä	-10.6647
kasvot	-10.6649
itseänsä	-10.6652
heitet	-10.6653
kyynärän	-10.6653
nooa	-10.6659
synnin	-10.6661
huule	-10.6663
aiset	-10.6672
kimppuu	-10.6674
daani	-10.6677
raama	-10.6678
rr	-10.6692
aseta	-10.6699
antama	-10.6715
suola	-10.6723
vanhurskaan	-10.6726
vihastu	-10.6726
sellaist	-10.6731
kukista	-10.6739
jerobeam	-10.6774
vasemma	-10.6779
yötä	-10.6783
valtaan	-10.6783
muuttu	-10.6794
gibea	-10.6801
pakanat	-10.6801
huomasi	-10.6801
kameli	-10.6801
täytä	-10.6801
juomauhri	-10.6802
kerrottava	-10.6802
ihmeitä	-10.6802
urho	-10.6802
vahva	-10.6803
piiri	-10.6806
tulevan	-10.6807
suru	-10.6807
määrän	-10.6808
lupauksen	-10.681
saan	-10.6811
muurin	-10.6815
nukku	-10.6821
ihmistä	-10.6827
saalii	-10.6827
pakenivat	-10.6832
menköö	-10.6847
istuva	-10.6853
huku	-10.6856
kirjoit	-10.6857
lähteä	-10.6872
kuljet	-10.6879
polvi	-10.6883
muukalaisi	-10.6888
kunnian	-10.689
kauris	-10.6894
väen	-10.6901
olevi	-10.6902
efraim	-10.6916
ympärille	-10.6918
saarna	-10.6926
jano	-10.6941
otettu	-10.6942
kala	-10.6963
yksinä	-10.6975
maalle	-10.6978
kirot	-10.6994
valtasi	-10.6996
ilmestyi	-10.6998
ymmärrykse	-10.7001
myrsky	-10.7001
kompastu	-10.7001
neljäntenä	-10.7001
pako	-10.7002
opetti	-10.7003
ruua	-10.7004
monin	-10.7006
päältä	-10.7007
koskee	-10.7011
jouse	-10.7012
hedelmän	-10.7013
saadakse	-10.7014
oikean	-10.7017
olimme	-10.7024
huudo	-10.7025
jumalasta	-10.7026
johanneksen	-10.7035
kuului	-10.7041
kymmentä	-10.7045
raha	-10.7046
tällä	-10.7052
onnettomuu	-10.7052
juokse	-10.7055
yllä	-10.7057
riemuit	-10.7058
too	-10.7063
rakentaa	-10.7088
uden	-10.7096
myöt	-10.7099
vuota	-10.7115
juoksi	-10.712
joille	-10.7127
benjamini	-10.7132
kato	-10.7133
hautaan	-10.7143
jälkee	-10.7161
baalin	-10.7171
murska	-10.7176
palatsi	-10.7179
ihmise	-10.7183
noo	-10.7187
suitsu	-10.7198
pimeyde	-10.7202
oilla	-10.7204
kruunu	-10.7205
lohdutta	-10.7205
pöydä	-10.7205
haureutta	-10.7205
pakanakansa	-10.7205
sodoma	-10.7205
leveä	-10.7205
kätke	-10.7205
haltuun	-10.7206
herraan	-10.7207
päätty	-10.7215
sukujen	-10.7226
kestää	-10.7227
paina	-10.7231
soda	-10.7233
tappaa	-10.7237
valkoisi	-10.7238
vaino	-10.7248
teihin	-10.7254
viimeise	-10.7268
teissä	-10.7271
dessä	-10.7277
viholli	-10.7302
sanansa	-10.7312
kuolemaan	-10.7313
ruumiin	-10.7313
kiroa	-10.7319
risti	-10.7322
tulo	-10.7324
nuorukai	-10.7334
pääsi	-10.7343
kokoon	-10.7347
palk	-10.735
vaimoa	-10.7354
kat	-10.7358
voiton	-10.7363
kunniaa	-10.7383
väisty	-10.7392
löysi	-10.7413
järve	-10.7413
oikeute	-10.7413
rakkaus	-10.7413
asarja	-10.7413
keskeltä	-10.7414
kadu	-10.7414
kaup	-10.7417
ajatukse	-10.7419
kutsutaan	-10.7421
polveutu	-10.7429
näy	-10.7432
kirjan	-10.7432
ylimmäisen	-10.7436
hävittää	-10.7443
pilka	-10.7449
teiltä	-10.7463
saapui	-10.7469
lampaat	-10.7482
matkaa	-10.7482
tekijä	-10.7486
näette	-10.7496
vangit	-10.7501
suvusta	-10.7504
muka	-10.7507
unhotta	-10.751
päällyst	-10.7512
vaari	-10.7516
yynni	-10.753
juudaa	-10.7532
poista	-10.7535
gaadi	-10.7538
eeli	-10.7542
alati	-10.7555
ojenta	-10.7559
ymmärtäväi	-10.7567
otan	-10.7573
varjele	-10.7578
ovelle	-10.7587
kaunis	-10.7603
antaisi	-10.7606
kirkkau	-10.7607
omasta	-10.7612
sapatti	-10.7619
viettä	-10.7621
kuol	-10.7624
sulke	-10.7625
paikoille	-10.7626
paula	-10.7626
aamun	-10.7628
valitse	-10.7632
herättä	-10.7632
sapattina	-10.7633
onhan	-10.7634
asukkai	-10.7637
ellä	-10.7641
paimen	-10.7645
ensimmäise	-10.7657
tuoksu	-10.7659
kenenkä	-10.7663
terve	-10.7664
ähden	-10.7664
seinä	-10.767
perä	-10.7687
kumartui	-10.7688
kohotta	-10.7693
tulta	-10.7695
säätä	-10.7705
voiman	-10.7721
tamme	-10.7729
pyydä	-10.773
lasta	-10.774
aro	-10.7751
kuuluva	-10.776
sito	-10.7814
beetlehemi	-10.7831
kain	-10.7833
oissa	-10.7836
pystyttä	-10.7843
gideon	-10.7843
hylkäsi	-10.7843
valloitti	-10.7843
avukse	-10.7844
kansoja	-10.7844
palvelijattare	-10.7844
▁.`"	-10.7844
polttouhreja	-10.7844
käskynhaltija	-10.7844
tuokoo	-10.7844
pimeä	-10.7845
saalista	-10.7848
rakasti	-10.7851
mman	-10.7851
puita	-10.7852
itsesi	-10.7853
halpa	-10.7854
yttä	-10.7863
voitto	-10.7867
vihassa	-10.7882
midiani	-10.7885
linna	-10.7885
mitta	-10.7886
kantoi	-10.7894
näkemä	-10.7894
alttarille	-10.7899
huoneessa	-10.7902
opeta	-10.7909
vihamiehe	-10.7916
sato	-10.7917
osaa	-10.7921
ristiinnaulit	-10.7927
nuorukaise	-10.7927
teit	-10.7928
ainoata	-10.7929
annoit	-10.7929
enkelin	-10.7931
seba	-10.7939
iisai	-10.7961
määrää	-10.7964
kasvoja	-10.7966
vetä	-10.7973
iseksi	-10.7978
otetaan	-10.7978
tieto	-10.7989
laste	-10.8008
uskoi	-10.8017
telee	-10.8021
vaatteet	-10.8023
kaista	-10.804
johta	-10.8063
3	-10.8066
lestyj	-10.8066
synagooga	-10.8066
täytty	-10.8066
vapise	-10.8066
sairaa	-10.8066
hajotta	-10.8067
ollessaan	-10.807
korjasi	-10.8071
olleit	-10.8072
suuhu	-10.8074
ihana	-10.8075
kiitosta	-10.8075
panna	-10.8079
kirjat	-10.8079
kanna	-10.8085
laskeutu	-10.8086
filistealaisi	-10.8092
painoi	-10.8099
savu	-10.81
liia	-10.8101
siimei	-10.8102
muille	-10.8104
lapsensa	-10.8113
leik	-10.8114
rinta	-10.812
mästä	-10.8125
luotta	-10.8128
väkivaltaa	-10.8133
elävän	-10.8139
du	-10.8139
korotta	-10.8146
vaate	-10.8152
ohi	-10.8157
kohot	-10.8157
antako	-10.817
vaella	-10.8172
katseli	-10.8172
ahab	-10.8173
soo	-10.8176
istuu	-10.8184
pedo	-10.8195
asian	-10.8201
".	-10.8211
katsele	-10.8214
istuime	-10.824
luki	-10.8241
tekemä	-10.8258
jooabi	-10.8263
vanhurskau	-10.8273
vanhaa	-10.8275
ilmi	-10.8285
tahdot	-10.8286
raunio	-10.8292
kesken	-10.8293
hyökkää	-10.8293
hedelmi	-10.8293
juudea	-10.8293
pöytä	-10.8293
jumalien	-10.8293
ainiaa	-10.8294
rikkomukse	-10.8294
pesköö	-10.8294
edeltä	-10.8295
henkivartija	-10.8295
voideltu	-10.8295
viereen	-10.8296
ottavat	-10.8296
haara	-10.8299
saara	-10.83
suurta	-10.8301
vankila	-10.8305
ajaa	-10.8313
toteen	-10.8317
valhett	-10.8321
uskollise	-10.8323
isäntä	-10.8325
harjoitta	-10.833
levat	-10.8333
absalomi	-10.8338
syvyyde	-10.8341
baalak	-10.8345
kuulle	-10.8349
ellei	-10.8371
hallit	-10.8378
vuo	-10.8382
siemene	-10.8384
kol	-10.84
koti	-10.841
tuulen	-10.8411
turhaa	-10.8417
llista	-10.8418
toimi	-10.8427
vangi	-10.843
härkä	-10.843
paranta	-10.8434
pyhien	-10.8439
idän	-10.8453
nousevat	-10.846
kukkula	-10.8465
tarttu	-10.8468
suurell	-10.8472
leh	-10.8478
ruokaa	-10.848
aisia	-10.8481
totuu	-10.8497
lupaukse	-10.8517
kedo	-10.8523
tyttö	-10.8526
keskuudesta	-10.8526
lankea	-10.8526
2	-10.8526
4	-10.8526
naatan	-10.8526
perhekunn	-10.8526
hyljännyt	-10.8526
jälkeläisille	-10.8526
syökö	-10.8526
tarkasta	-10.8527
kirjoitti	-10.8528
pantu	-10.8533
mispa	-10.8533
päässä	-10.8544
taivas	-10.8548
erämaan	-10.855
asetet	-10.8552
aikoi	-10.8555
eleasar	-10.8555
oinas	-10.8559
pari	-10.8565
pääsiäi	-10.8568
ttömä	-10.8592
arki	-10.8593
jumalattoman	-10.8605
halua	-10.8615
loista	-10.8617
ulkopuole	-10.8621
tarttui	-10.8625
peljättävä	-10.8632
joutuisi	-10.8635
kaitse	-10.8635
elinaika	-10.8636
päättä	-10.8642
kedon	-10.8645
sade	-10.8645
kukistu	-10.865
misesta	-10.8653
salaa	-10.8657
noudata	-10.8664
unhota	-10.8669
llisen	-10.867
job	-10.8678
kur	-10.8697
hautaa	-10.8697
amin	-10.8704
pilatu	-10.8711
tapasi	-10.872
hilja	-10.8721
rake	-10.8745
pidät	-10.8751
vahingo	-10.8764
täytti	-10.8764
amasja	-10.8764
valtia	-10.8764
kehati	-10.8764
muutoin	-10.8764
aasafi	-10.8764
suostu	-10.8764
benaja	-10.8765
annettava	-10.8767
reuna	-10.8767
tekojen	-10.8769
oina	-10.877
rakas	-10.877
hakat	-10.8774
väsy	-10.8775
lähtekää	-10.8776
ottaisi	-10.8782
torni	-10.879
näyttä	-10.8795
ylä	-10.881
sakarja	-10.881
taivast	-10.8812
kallista	-10.8824
lliset	-10.8833
tuhannen	-10.8835
asetu	-10.8837
syttyi	-10.8845
omista	-10.8847
laula	-10.8848
virta	-10.8852
johdatta	-10.8855
apua	-10.8857
lke	-10.8858
seurat	-10.886
rakastavat	-10.886
ylle	-10.8874
ram	-10.8876
abimelek	-10.8879
voimalli	-10.8887
alusta	-10.8892
johdat	-10.8895
taido	-10.8897
nisu	-10.8908
suussa	-10.8927
vihasi	-10.8934
llainen	-10.8942
aikakirja	-10.895
viikunapuu	-10.8954
kive	-10.8955
joukkoon	-10.8957
kyn	-10.8959
riemuitse	-10.8971
valitta	-10.8973
odota	-10.8978
oinaan	-10.8978
kaldealais	-10.898
otin	-10.8982
seura	-10.8983
imin	-10.8987
erotta	-10.8988
kseksi	-10.9005
puhdistu	-10.9008
vahvistu	-10.9008
sebuloni	-10.9008
kuorma	-10.9008
iloitsi	-10.9008
osoita	-10.9008
taistele	-10.9008
täysi	-10.9009
tarpee	-10.901
nous	-10.9011
seitsemäs	-10.9013
ylipapit	-10.9013
siilo	-10.9016
säädöksiä	-10.9025
irti	-10.9026
toisille	-10.9028
milla	-10.903
utui	-10.903
siunattu	-10.9031
vainio	-10.9035
surmasivat	-10.9055
llisia	-10.9065
kappale	-10.9085
mui	-10.9086
venhee	-10.9087
murhe	-10.9087
istuivat	-10.9105
aasa	-10.9115
ttoma	-10.9119
polttouhrin	-10.9123
musta	-10.9132
taisiin	-10.9142
lie	-10.9151
pyytä	-10.9156
säily	-10.9159
kunnioitta	-10.9162
keen	-10.9163
noudattaa	-10.9166
vuodata	-10.9176
lisäänty	-10.9182
ahin	-10.9186
kuta	-10.9193
lepo	-10.9204
syvyy	-10.9205
eela	-10.9206
haava	-10.9207
uni	-10.9214
ahdistukse	-10.9215
ammo	-10.9215
teurasta	-10.9219
puun	-10.9221
ilmoittaa	-10.9225
toisena	-10.9227
veljeä	-10.9229
valtaistuime	-10.9229
laskeutui	-10.9236
armoa	-10.9243
tunnusteko	-10.9258
kirjuri	-10.9258
profeettoja	-10.9258
gibeoni	-10.9258
simson	-10.9258
gilgali	-10.9258
puutarha	-10.9258
valitsi	-10.9258
ahasja	-10.9258
merari	-10.9258
kallii	-10.9258
ihmeelli	-10.9258
pyhitetty	-10.9259
kymmene	-10.9259
ymmärrystä	-10.926
kahdenkymmenen	-10.9261
miehistä	-10.9261
vastustaja	-10.9263
peittää	-10.9269
alha	-10.9269
pidett	-10.9269
ulkopuolella	-10.927
käsivarte	-10.9274
kaupungeista	-10.9275
pukeutu	-10.9277
vapau	-10.9278
käden	-10.9281
pelastuksen	-10.9283
suuni	-10.9284
korvii	-10.9288
nouskaa	-10.9299
muun	-10.9299
vääryyde	-10.93
panee	-10.9307
avan	-10.9309
tein	-10.9319
muoto	-10.932
erää	-10.9326
perintömaa	-10.9327
äköön	-10.936
pasunaa	-10.936
panti	-10.9366
käsin	-10.9374
uuri	-10.938
kasvaa	-10.9398
antakoo	-10.9404
kauhistukse	-10.9408
abner	-10.941
poikie	-10.9439
maljan	-10.9439
kkiä	-10.944
tuomion	-10.9447
ovet	-10.9448
voimasta	-10.9451
halle	-10.9454
pel	-10.9458
uskoo	-10.9461
omia	-10.9463
mie	-10.9463
essään	-10.9463
asettaa	-10.9479
samaa	-10.9506
silmäin	-10.9507
heikko	-10.9507
isältä	-10.9507
edelleen	-10.9514
julki	-10.9514
orjattare	-10.9514
jälkeläisistä	-10.9514
profeetoi	-10.9514
talentti	-10.9514
säästä	-10.9514
liitty	-10.9514
sortu	-10.9515
vihollisia	-10.9515
sorme	-10.9515
jesaja	-10.9515
karjan	-10.9515
toimitti	-10.9517
hunaja	-10.9517
kirjanoppineet	-10.9517
kohtalo	-10.9519
öljyllä	-10.9521
maito	-10.9522
iso	-10.9522
abram	-10.953
aasin	-10.9532
palvelukse	-10.9533
mainit	-10.9544
majan	-10.9544
entise	-10.9545
kuolemall	-10.9547
matkalle	-10.9557
päiviä	-10.9557
eloon	-10.9557
semaja	-10.956
matkalla	-10.9562
mittasi	-10.9565
ääri	-10.9568
mal	-10.9569
kauas	-10.9572
kahta	-10.9578
mooab	-10.958
mennee	-10.9583
suurest	-10.9585
alku	-10.9586
äti	-10.9599
viimei	-10.9609
uhka	-10.9611
sula	-10.9612
nimelle	-10.9614
käsissä	-10.9618
kävisi	-10.9622
kullall	-10.9625
ruhtina	-10.963
viljaa	-10.9634
ojenna	-10.9634
tuleen	-10.965
korvat	-10.9659
voimaa	-10.967
siemen	-10.9671
perintöosaa	-10.9678
kirjaa	-10.9682
perintö	-10.9685
kokona	-10.9688
tielle	-10.969
kirkkaute	-10.971
sivuvaimo	-10.971
edes	-10.9721
valtaistuimen	-10.973
viiden	-10.9732
uuria	-10.9735
yhty	-10.9737
efraimi	-10.975
usein	-10.9762
päivi	-10.9773
levittä	-10.9775
syrjä	-10.9777
vaatteita	-10.9777
verkko	-10.9777
puhutteli	-10.9777
viittä	-10.9777
kahdentena	-10.9777
leski	-10.9777
alaisi	-10.9777
sorta	-10.9777
rukous	-10.9777
puettu	-10.9777
parhaa	-10.9778
kuninkaita	-10.9778
vaippa	-10.9778
vallassa	-10.9779
katkera	-10.9779
pelasti	-10.9781
todistukse	-10.9788
kuuden	-10.9795
kuulet	-10.9797
korjaa	-10.9802
kaikkinaisi	-10.9803
hetki	-10.9803
siinai	-10.9807
koira	-10.9814
eläisi	-10.9831
valli	-10.9835
öljypuu	-10.9838
sellaise	-10.9851
pur	-10.9858
tunnusta	-10.9864
vaeltavat	-10.9868
ikuise	-10.9868
otsa	-10.9871
sanottu	-10.9896
valkeude	-10.99
enkö	-10.9901
mielellä	-10.9911
seurakunna	-10.9913
lintu	-10.9921
opetuslapsille	-10.9926
elän	-10.9928
laitume	-10.9955
avuksi	-10.9959
veljelle	-10.9964
karjaa	-10.9973
ympärileikkaamat	-10.9985
voittaa	-10.9995
verho	-11.0008
kymmenennes	-11.0011
kuri	-11.0013
auttaa	-11.0016
hama	-11.0023
aiko	-11.0029
ollessa	-11.0031
kaikkine	-11.0034
tottele	-11.0046
hyljänn	-11.0047
sekoitettu	-11.0047
perustukse	-11.0047
poikkea	-11.0047
polku	-11.0047
vaatteisiin	-11.0047
nouta	-11.0047
riivaaja	-11.0047
kumarsi	-11.0047
heräjä	-11.0048
pyhäkön	-11.0048
asuinsija	-11.0048
palmu	-11.0048
syntivelka	-11.0048
köyhi	-11.0049
hävitti	-11.0049
hengestä	-11.005
evankeliumin	-11.005
kiittäkää	-11.0051
sido	-11.0051
asera	-11.0052
kaunii	-11.0053
kuluttaa	-11.0053
kiveä	-11.0054
peitti	-11.0054
näytä	-11.0056
levät	-11.006
syökää	-11.0069
pahuude	-11.007
tahdotte	-11.0078
tehkö	-11.0083
pelastukse	-11.0085
auk	-11.0086
täyttää	-11.009
aramilaise	-11.009
armolli	-11.0092
alue	-11.0095
siion	-11.0096
nostaa	-11.01
toivon	-11.0102
kullan	-11.0104
seiri	-11.0105
kivet	-11.0112
suosio	-11.0138
kirjassa	-11.0161
simeoni	-11.0162
kutsutti	-11.0167
luut	-11.0189
hoviherra	-11.0239
ilmaise	-11.0241
maaherra	-11.0243
päämiehiä	-11.0253
silmien	-11.0255
pese	-11.0256
täydelli	-11.0259
kulma	-11.0264
tuotta	-11.0265
seet	-11.0268
joo	-11.0286
tapahtuva	-11.029
palvelijaa	-11.0308
leikkaa	-11.0312
vannoi	-11.0312
mullika	-11.0322
sarvi	-11.0324
uppiniskai	-11.0325
molempi	-11.0325
viidentenä	-11.0325
kiivaute	-11.0325
kerskaa	-11.0325
tervehti	-11.0326
viinitarho	-11.0326
kyynel	-11.0326
perusta	-11.0326
herätti	-11.0327
ateria	-11.0327
näytti	-11.0328
eläinten	-11.0328
suitsuke	-11.0328
viinipuu	-11.0329
onnettomuutta	-11.0329
siipi	-11.0333
mieltä	-11.0334
vaiti	-11.0342
seurakunnalle	-11.0347
kotka	-11.0348
hiskian	-11.0356
kulkea	-11.0358
vuorille	-11.0366
soitta	-11.0366
neuvon	-11.037
riistä	-11.0376
selkään	-11.0379
tulle	-11.0381
toimita	-11.0382
kielellä	-11.0386
naha	-11.0394
kuivu	-11.0406
noja	-11.0411
päämiesten	-11.0421
taakse	-11.0433
asseri	-11.0434
ryhtyi	-11.0436
käskyä	-11.0441
uudesta	-11.0447
nöyr	-11.0449
ilaiset	-11.0458
käyvä	-11.0459
ruubeni	-11.046
pii	-11.046
pahoin	-11.0462
peljästyi	-11.0468
murheellise	-11.0475
syntien	-11.0477
rikkau	-11.0483
itseni	-11.0494
uskosta	-11.0501
jooaa	-11.0513
uskossa	-11.0532
vitsa	-11.0536
juoma	-11.0539
keski	-11.054
nuole	-11.0541
kilpe	-11.0559
käänsi	-11.0564
oksa	-11.0567
tuottaa	-11.0568
keit	-11.0572
runsaast	-11.0572
kohtasi	-11.0575
detta	-11.058
vihmo	-11.0594
siunat	-11.0597
rutto	-11.0608
ravit	-11.061
vanhinten	-11.0611
tyhji	-11.0611
pappeja	-11.0611
koorahi	-11.0611
kädet	-11.0611
tarkkaa	-11.0611
epäjumali	-11.0611
viitta	-11.0611
rangaistako	-11.0612
laupeutta	-11.0612
uskottoma	-11.0613
pyhäkköön	-11.0613
▁`?	-11.0613
aartee	-11.0614
etelää	-11.0616
lisää	-11.0618
kohdat	-11.0619
persia	-11.0621
lepää	-11.0625
opettaa	-11.0626
vuorilla	-11.0631
maista	-11.0635
ravitu	-11.0638
kiiva	-11.064
kiroukse	-11.0643
syömään	-11.0646
kauhistuksi	-11.065
halaja	-11.0662
laaksossa	-11.0673
runsaa	-11.0679
iitetty	-11.0687
epäjumala	-11.0693
opet	-11.07
karitsan	-11.0701
sateen	-11.0704
tapaa	-11.0705
väärin	-11.0705
täydellise	-11.0709
minne	-11.071
maasi	-11.0725
lupaus	-11.073
vainaja	-11.0735
asioi	-11.0736
hamati	-11.074
viinin	-11.0741
turha	-11.0746
näkisi	-11.076
laissa	-11.076
rahaa	-11.0765
henkiin	-11.0771
asetan	-11.0781
abia	-11.0784
unta	-11.0785
myi	-11.0786
esille	-11.08
taessa	-11.0801
teemme	-11.0808
ruumis	-11.0808
kokous	-11.0823
puku	-11.0838
vasten	-11.0843
uhrikukkula	-11.0847
rikas	-11.085
annetu	-11.0859
kymmen	-11.0865
rällä	-11.0883
todistuksen	-11.0893
heilut	-11.0899
pohjois	-11.0903
sang	-11.0904
puimatantere	-11.0905
pyörä	-11.0905
rohkea	-11.0905
beerseba	-11.0905
hilkia	-11.0905
julisti	-11.0905
kuningatar	-11.0905
saavutta	-11.0905
säädetty	-11.0905
ylhäi	-11.0905
kahdeksantena	-11.0905
puhalta	-11.0905
jalopeura	-11.0905
puvu	-11.0905
häviä	-11.0906
kohdalle	-11.0906
hakkaa	-11.0906
pohja	-11.0906
varasto	-11.0909
muisti	-11.0909
säkki	-11.0911
huono	-11.0917
mukaise	-11.0918
kaltaista	-11.093
kahdeksankymmen	-11.094
bileam	-11.0949
paikasta	-11.0958
vieras	-11.0977
kanaanilaise	-11.0979
kuolisi	-11.0985
siidoni	-11.0993
kiro	-11.1001
voimassa	-11.1006
oinast	-11.1013
iir	-11.1017
parannu	-11.1022
kil	-11.1049
paimene	-11.1069
lahjan	-11.1077
joonatani	-11.1096
sydäm	-11.1101
palvella	-11.1104
synnyt	-11.1131
alueen	-11.1132
kuolleit	-11.1146
eläime	-11.115
kori	-11.1166
saaliin	-11.117
väkeä	-11.1175
pysyvä	-11.1176
ruubenilais	-11.1179
asukast	-11.1189
mahtava	-11.1191
kulle	-11.1191
härän	-11.1193
lähestyi	-11.1194
vastust	-11.1206
valan	-11.1207
ihmetteli	-11.1208
pyrki	-11.1208
säädös	-11.1208
kymmenykse	-11.1208
liikku	-11.1208
orjantappura	-11.1208
pimeys	-11.1208
portto	-11.1208
vanhimmi	-11.1208
julistet	-11.1208
vuonna	-11.1208
joohanan	-11.1208
toteutu	-11.1208
kotona	-11.1209
siive	-11.1209
vuodatti	-11.1209
syötävä	-11.1209
riensi	-11.1209
koriste	-11.121
tahol	-11.1212
vuoti	-11.1215
tuna	-11.1215
kuritus	-11.1217
valmisti	-11.1219
korkeasti	-11.1224
mert	-11.1237
rikkonut	-11.1242
uuti	-11.1249
profeetan	-11.1256
vietä	-11.1266
tänään	-11.1279
issaan	-11.1284
puolta	-11.1285
vaimot	-11.1289
kaldea	-11.129
kirjoitus	-11.129
tietoa	-11.129
katsell	-11.1322
käyttä	-11.1331
sisar	-11.1332
valtakunnassa	-11.1341
leea	-11.1361
arpaa	-11.1362
isaskari	-11.1385
vanki	-11.1391
ympärileikka	-11.1395
huoli	-11.1406
menette	-11.1409
ppa	-11.1422
kymmenes	-11.1423
nais	-11.1434
osakse	-11.1437
ojen	-11.1446
painon	-11.1476
unen	-11.1488
egyptiläist	-11.15
kostan	-11.1502
saamme	-11.1518
sulje	-11.1518
taulu	-11.1519
jisreeli	-11.152
oobed	-11.152
purppura	-11.1521
pystytti	-11.1521
säädökse	-11.1521
ehtoo	-11.1521
gedalja	-11.1521
häpäise	-11.1521
korkeimma	-11.1521
murehti	-11.1521
tähdet	-11.1521
kuohu	-11.1521
semmoi	-11.1521
valittu	-11.1521
pituus	-11.1521
puhalsi	-11.1521
porto	-11.1521
esirip	-11.1521
kielsi	-11.1521
nälänhätä	-11.1521
länteen	-11.1521
lähimmäistä	-11.1521
punnit	-11.1521
voidellu	-11.1521
hävitetä	-11.1521
rikkaa	-11.1521
sotaurho	-11.1522
raunioiksi	-11.1522
sidottu	-11.1523
jooas	-11.1525
jalusta	-11.1528
toveri	-11.1531
saattoi	-11.1531
vuorelta	-11.1533
aasan	-11.1535
temppelistä	-11.1539
pyhitä	-11.154
ihmisille	-11.1541
miehestä	-11.1541
murhee	-11.1546
pitki	-11.155
vaipa	-11.1552
kaula	-11.1556
hajota	-11.1557
vieressä	-11.1564
uskoa	-11.1567
puhtaaksi	-11.1573
hinna	-11.1578
pylvää	-11.1586
suusi	-11.1588
lampun	-11.1592
tytärtä	-11.1595
neljäs	-11.1597
tappaja	-11.1604
ensiksi	-11.1613
ruut	-11.1621
tehköö	-11.1628
paikalle	-11.1632
saastaisuu	-11.1633
varjel	-11.1635
varasta	-11.1638
laji	-11.165
ohe	-11.1657
sotarin	-11.1659
pelastus	-11.1689
ikuisi	-11.1692
huutaa	-11.1694
gati	-11.1694
näen	-11.1696
vihi	-11.1702
jok	-11.1703
kirkas	-11.1703
ikeen	-11.1709
muukalaisen	-11.1716
uudella	-11.1717
elämään	-11.1722
peittä	-11.175
valall	-11.1757
kiitos	-11.1783
äitiä	-11.1791
rahan	-11.1795
bileami	-11.1795
ossa	-11.1798
laiva	-11.1806
loo	-11.182
ettakoo	-11.1821
gaadilais	-11.183
kukkuloi	-11.1833
vapaht	-11.1839
hauta	-11.1842
neitsye	-11.1843
vikauhri	-11.1843
(	-11.1843
herodes	-11.1843
leveys	-11.1843
sukukuntien	-11.1843
ovenvartija	-11.1844
kohosi	-11.1844
kakku	-11.1844
toimeen	-11.1844
kaikkivaltias	-11.1846
selittä	-11.1848
puhetta	-11.1851
veisatkaa	-11.1851
pankaa	-11.1853
kumpi	-11.1854
tekoje	-11.1854
syödäkse	-11.1854
koston	-11.1862
booa	-11.1862
voimallise	-11.1864
tuomitsee	-11.1864
lauda	-11.1866
nahka	-11.1874
muinais	-11.1876
asiaa	-11.1877
teetti	-11.1881
lähelle	-11.1887
kylli	-11.1895
huolen	-11.1916
jälk	-11.1926
kohdann	-11.1932
peitä	-11.1933
libanonin	-11.1939
karkoita	-11.1945
oikeuksia	-11.1949
etiopia	-11.1966
tehdäkse	-11.1977
syvä	-11.1979
näkijä	-11.1981
hyväkse	-11.1982
surmattu	-11.1985
oikeassa	-11.1994
asiassa	-11.201
vetäyty	-11.2036
kir	-11.2045
kehoita	-11.2048
huul	-11.2051
rinna	-11.2094
hedelmät	-11.2098
häväisty	-11.2099
neba	-11.2106
suitsutus	-11.2113
punasinisi	-11.2129
täyde	-11.2144
eläin	-11.2146
verra	-11.2157
kohdusta	-11.2165
hyödy	-11.2167
varas	-11.2173
esra	-11.2173
lango	-11.2174
jäännökse	-11.2176
ahdistus	-11.2176
keisari	-11.2176
riivaaji	-11.2176
yhtenä	-11.2176
lohdutukse	-11.2176
nuhteli	-11.2176
rakkautta	-11.2176
valloitta	-11.2176
repäisi	-11.2176
kiertä	-11.2176
jefta	-11.2177
riippu	-11.2177
turhi	-11.2177
maakunna	-11.2177
kansakunna	-11.2177
menehty	-11.2177
huorin	-11.2178
kilve	-11.2178
hesboni	-11.2178
liitonarkki	-11.2178
rebek	-11.2179
hyötyä	-11.218
putosi	-11.218
maanpiirin	-11.2181
vasika	-11.2183
pikkukarja	-11.2184
hengellä	-11.2184
korotti	-11.2186
▁)	-11.2187
hävitettä	-11.2191
vertaista	-11.2192
suora	-11.2193
viinistä	-11.2194
peljät	-11.2195
pitui	-11.2199
opi	-11.2203
hevosi	-11.2208
ylisti	-11.2212
seurakuntaa	-11.2214
ussia	-11.2215
herjaa	-11.2215
eteise	-11.2217
rikkaude	-11.222
kuolemaa	-11.2221
vasto	-11.2222
tuski	-11.2225
tellut	-11.2226
palata	-11.2227
taitava	-11.223
virrat	-11.2233
vallitse	-11.2235
valheen	-11.2235
kirjeen	-11.2236
syntisi	-11.2241
ismael	-11.2242
asael	-11.226
talosta	-11.227
kirous	-11.2273
paljas	-11.2288
pitäisi	-11.2291
oksen	-11.2295
omassa	-11.2303
päähä	-11.2311
ulottu	-11.2322
raava	-11.2336
joona	-11.2336
pahoi	-11.2339
sanova	-11.2367
nälkään	-11.2374
tyköä	-11.2374
esti	-11.2375
kes	-11.2382
sydämee	-11.2384
kappalee	-11.2412
vääri	-11.2412
nouda	-11.2425
rikkoo	-11.2426
pysyi	-11.244
sytty	-11.2444
mällä	-11.2448
palvelus	-11.245
jumalankuva	-11.2457
jooram	-11.247
eleasari	-11.2477
mieka	-11.2482
loot	-11.2487
kiis	-11.2491
asumus	-11.2493
aikoja	-11.2499
villa	-11.2503
puuta	-11.2507
äidin	-11.2509
asukkait	-11.251
annetta	-11.2513
sapatin	-11.2517
puke	-11.2521
tunkeutu	-11.2521
puolusta	-11.2521
hiekka	-11.2521
ruoko	-11.2521
0	-11.2521
ikkuna	-11.2521
laittoi	-11.2521
paljaa	-11.2521
tehdy	-11.2522
vuorten	-11.2523
sukupolvi	-11.2523
nimittäi	-11.2523
amnon	-11.2523
levitti	-11.2524
pellavalang	-11.2524
hananja	-11.2524
kummall	-11.2524
kaduilla	-11.2524
vuoto	-11.2524
kiellä	-11.2525
kannettava	-11.2526
valitus	-11.2527
kahleis	-11.2528
seisovan	-11.253
asunno	-11.2531
siihoni	-11.2531
iloite	-11.2532
hätä	-11.2533
polu	-11.2534
poissa	-11.2535
syökse	-11.2536
takana	-11.2536
näyttää	-11.2543
linnassa	-11.2545
käykää	-11.2552
maihin	-11.2557
keitä	-11.2559
taivasta	-11.2566
polttouhria	-11.2566
istutta	-11.2574
siunauksen	-11.2574
tunsi	-11.258
kaukaise	-11.2581
kaltaisia	-11.259
samma	-11.2592
tytärkaupung	-11.2603
kuninkaallise	-11.2605
joutunut	-11.2612
pien	-11.2624
päästää	-11.2631
sisäpuolell	-11.2646
paimenta	-11.2648
ääree	-11.265
aahas	-11.2653
luovu	-11.2663
,	-11.2663
vina	-11.2682
bil	-11.2682
sattu	-11.2686
virra	-11.2707
isest	-11.2729
uudessa	-11.2731
syyllise	-11.2738
etuksi	-11.2746
oikeude	-11.2758
teitte	-11.2766
vapautta	-11.277
uudestaan	-11.2778
leiriyty	-11.2778
köy	-11.2786
setri	-11.2795
vaivan	-11.2797
kallis	-11.2799
sairas	-11.2802
kukist	-11.2805
rahat	-11.2811
ttaman	-11.2819
kohoa	-11.282
heettiläis	-11.2824
käsiä	-11.2836
yhdeks	-11.2861
poikine	-11.2878
8	-11.2878
hyökkäsi	-11.2878
jeesua	-11.2878
joutuneet	-11.2878
rakkaute	-11.2878
tervehdys	-11.2878
teurasti	-11.2878
viivy	-11.2878
ylpeä	-11.2878
äidille	-11.2878
baesa	-11.2878
purppuranpunaisi	-11.2878
seitsenhaarai	-11.2878
aasintamma	-11.2878
pojista	-11.2878
paransi	-11.2879
sooba	-11.2879
sallum	-11.2879
hiin	-11.2881
puhtai	-11.2881
mietti	-11.2881
antautu	-11.2882
käytävä	-11.2882
hopeasekeli	-11.2882
suloi	-11.2882
tuule	-11.2883
pettä	-11.2885
hampaa	-11.2893
tähti	-11.2894
väke	-11.2895
kuolla	-11.2898
leirissä	-11.2902
paino	-11.2907
karva	-11.2909
totuudessa	-11.2918
alueelle	-11.2922
pasunan	-11.2933
polttakoo	-11.2934
tartu	-11.2945
nuhteettom	-11.2947
saadoki	-11.2951
pahuute	-11.2952
vuoristossa	-11.2956
tuomita	-11.296
rypäle	-11.2965
riisu	-11.2966
palan	-11.2968
kaksikymmenvuoti	-11.2972
suuremma	-11.3001
haas	-11.3001
kohtu	-11.3018
mieleen	-11.3027
joosafati	-11.303
siirty	-11.3031
ulkona	-11.3032
saarnaa	-11.3042
elossa	-11.3044
paho	-11.3051
parta	-11.3053
hengelli	-11.3054
kuritta	-11.3058
pahasta	-11.3059
tuha	-11.3062
valke	-11.3064
mana	-11.3073
tempaa	-11.3074
saakoo	-11.3082
juudas	-11.3086
kuuntele	-11.3086
valitu	-11.3093
kuulkoo	-11.3103
itsestän	-11.3104
toimittako	-11.3107
hallitus	-11.3109
maksaa	-11.3113
tasango	-11.3117
käsittä	-11.3124
säilyttä	-11.3141
kostaa	-11.3149
liittoa	-11.3152
armosta	-11.3158
paist	-11.3167
saadok	-11.3174
ismaeli	-11.3177
raakel	-11.3181
suuta	-11.3197
turhuut	-11.3198
lukumäärän	-11.3214
vaunut	-11.3216
kana	-11.3219
seuran	-11.3236
aamo	-11.324
jyvä	-11.3246
murta	-11.3248
virheetön	-11.3249
aivoitukse	-11.3249
kreikkalai	-11.3249
kuivettu	-11.3249
lippu	-11.3249
makedonia	-11.3249
nuhteeton	-11.3249
näöltä	-11.3249
opetuslasten	-11.3249
palvelkaa	-11.3249
päätökse	-11.3249
rakkaudessa	-11.3249
synneistä	-11.3249
ymmärsi	-11.3249
juhli	-11.3249
kasukan	-11.3249
keihää	-11.3249
perinnöks	-11.3249
leiviskä	-11.3249
ohja	-11.3249
vankeude	-11.3249
iloitkaa	-11.3249
aarrekammio	-11.3249
selässä	-11.3249
laupia	-11.3249
silmin	-11.3249
kahtakymmentä	-11.3249
leili	-11.325
mielisuosio	-11.325
hävitys	-11.325
palvelijoiks	-11.3251
torvi	-11.3252
äältä	-11.3255
edustalle	-11.3255
vapahtaja	-11.3255
harha	-11.3259
goo	-11.326
asuvais	-11.3263
muodo	-11.3264
kumo	-11.3264
voitele	-11.3266
veti	-11.3267
käskyjen	-11.327
uhrilahjana	-11.3283
pisti	-11.3285
vaadi	-11.3291
suori	-11.3292
erikse	-11.3294
ankara	-11.3296
taviks	-11.3314
saba	-11.3324
nuoli	-11.3324
viekää	-11.3343
nöyrty	-11.3347
naista	-11.3348
virkaan	-11.3354
vääryy	-11.3358
yöksi	-11.3378
ammonilaise	-11.3378
ahia	-11.3379
vanhurskaudessa	-11.3385
ovell	-11.3392
laita	-11.3404
unhot	-11.3412
niska	-11.3412
autioi	-11.3427
tietäisi	-11.3434
poikaansa	-11.3449
synni	-11.3458
omalla	-11.346
ammonilaisi	-11.3469
adonia	-11.3475
ryhty	-11.3487
orjuu	-11.3521
hurska	-11.3523
käärme	-11.3525
tuhanne	-11.3531
teurastet	-11.3543
iske	-11.3552
päivien	-11.3571
katsee	-11.358
menkö	-11.3611
kirje	-11.3613
mitan	-11.3618
oogi	-11.362
baaruk	-11.3633
kapinoi	-11.3633
neitsyt	-11.3633
tyttärie	-11.3633
yhdestä	-11.3633
askelee	-11.3633
kykene	-11.3633
langet	-11.3633
rohkais	-11.3633
siirtä	-11.3633
sukuluettelo	-11.3633
akasiapuu	-11.3633
benhadad	-11.3633
poltetta	-11.3633
viides	-11.3633
ikiajoi	-11.3633
askare	-11.3634
särje	-11.3634
virittä	-11.3634
raato	-11.3634
jootam	-11.3636
seruja	-11.3636
karkoitti	-11.3636
lammasten	-11.3638
jousi	-11.3639
huonetta	-11.3639
jumalille	-11.3643
kuuro	-11.3643
poimi	-11.3643
nuhde	-11.3644
rabba	-11.3651
voiteli	-11.3652
kirjoitukse	-11.3682
melek	-11.3684
jäsen	-11.3686
valittajais	-11.369
tavaraa	-11.3691
vanhurska	-11.3698
tällais	-11.3703
karkoit	-11.3712
vitsaus	-11.3712
kerä	-11.3712
uhrikukkulat	-11.3713
ikui	-11.372
helakanpunaisi	-11.372
isästä	-11.3726
häväistykse	-11.3727
korvi	-11.373
aseti	-11.3735
alaise	-11.375
ruto	-11.3752
noomi	-11.3759
suvulle	-11.3765
paikalla	-11.3771
hovi	-11.3774
egyptiläisi	-11.378
esikois	-11.3799
herät	-11.3803
iski	-11.3806
auko	-11.3818
maailmaa	-11.3827
punais	-11.3835
abimeleki	-11.3842
antaakse	-11.3843
missa	-11.3851
voida	-11.3857
velka	-11.3859
avulla	-11.3872
hautasi	-11.3874
hämmästyi	-11.39
viipy	-11.3922
tettävä	-11.3935
polttaa	-11.3939
joojakimi	-11.3944
ylhääl	-11.3953
puolet	-11.3966
tuoksuva	-11.3972
hävit	-11.3987
ampu	-11.3995
vamma	-11.401
bar	-11.4011
taivaall	-11.4016
palvelle	-11.4023
vavist	-11.4028
kirjanoppine	-11.4029
aabel	-11.4033
kirjakäärö	-11.4033
pauhina	-11.4033
ratsasta	-11.4033
taisteli	-11.4033
5	-11.4033
leivo	-11.4033
mesullam	-11.4033
puhkesi	-11.4033
korkein	-11.4033
pyhyy	-11.4033
huipu	-11.4033
kalusto	-11.4033
sytyttä	-11.4034
kiitokse	-11.4034
karkelo	-11.4034
rimmon	-11.4034
putoa	-11.4034
parantu	-11.4034
näänty	-11.4034
kelpaa	-11.4034
sinetti	-11.4034
lännen	-11.4034
siipe	-11.4035
ryhdy	-11.4035
linnoitt	-11.4035
raavaita	-11.4035
pätsi	-11.4036
vuohi	-11.4036
koettele	-11.4036
tiettävä	-11.4037
piiritti	-11.4038
totuutta	-11.4038
toimittakoo	-11.4039
varustukse	-11.4039
kosketti	-11.4039
renkaa	-11.4039
arnon	-11.404
setripuu	-11.4042
pääni	-11.4043
järkky	-11.4044
refa	-11.4044
muutta	-11.4054
orin	-11.4054
aahaa	-11.4064
palkan	-11.4068
rukoilee	-11.4068
käskystä	-11.4069
elivät	-11.4087
murskaa	-11.4091
kärsiä	-11.4096
ahdistuksessa	-11.4103
uista	-11.4103
hyljät	-11.4108
aukko	-11.4115
neeri	-11.4115
kuultua	-11.4122
välille	-11.413
bat	-11.4153
käärmee	-11.4159
porttie	-11.4161
ettaisiin	-11.4171
ylistett	-11.4209
ilmais	-11.4222
onnettomuute	-11.4226
danieli	-11.4238
pilkka	-11.4247
ostet	-11.4252
tuomarin	-11.4253
vastata	-11.4253
peljättä	-11.427
yyde	-11.4276
miehi	-11.428
hurskaa	-11.4282
petolli	-11.4288
tsee	-11.429
moo	-11.4303
surmannu	-11.4307
ajalla	-11.4312
kuudes	-11.4319
halki	-11.4324
suur	-11.4341
kuunnel	-11.4346
kyli	-11.4352
kerta	-11.4357
majaan	-11.436
julistaa	-11.4372
ylpey	-11.4372
nousta	-11.4374
häpeälli	-11.438
raavast	-11.4391
libanoni	-11.4397
jumalattomuu	-11.4397
härki	-11.44
ympärileikat	-11.4408
kirjee	-11.4409
saapu	-11.4422
saava	-11.4425
autuaa	-11.4442
varrella	-11.4449
loukka	-11.445
tuonelaa	-11.445
ryöstet	-11.445
iisebel	-11.445
kuukautena	-11.445
orjantappuroi	-11.445
profetoi	-11.445
pystyssä	-11.445
raukea	-11.445
serubbaabel	-11.445
todisti	-11.445
turmele	-11.445
hurmoksi	-11.445
piineha	-11.445
sisälmy	-11.445
kauneu	-11.445
terveeksi	-11.445
timoteu	-11.445
raamoti	-11.445
sebu	-11.445
valio	-11.445
siunaus	-11.445
runsaude	-11.445
pudist	-11.4451
kaurii	-11.4451
heittäyty	-11.4451
vakoilema	-11.4451
lehmä	-11.4451
vuoro	-11.4451
sovitus	-11.4451
hävinn	-11.4452
palautta	-11.4452
valetu	-11.4452
nuhtele	-11.4453
itku	-11.4453
seitsemää	-11.4453
kantelei	-11.4453
huusa	-11.4454
hapan	-11.4454
turvallise	-11.4456
synnistä	-11.4456
abisai	-11.4456
pimeydessä	-11.4457
miniä	-11.4457
siementä	-11.4457
rivi	-11.4457
aikoina	-11.446
appe	-11.446
lakan	-11.4465
palkkaa	-11.4467
sisältä	-11.447
puhuessaan	-11.4472
kosketta	-11.4472
mitkä	-11.4472
mielestä	-11.4473
äressä	-11.4481
salaisuude	-11.4489
nuoruudesta	-11.4497
perhe	-11.4498
kukka	-11.4498
synnyttää	-11.4506
synnit	-11.4515
pistä	-11.4529
rikos	-11.4529
pääsisi	-11.4532
pankoo	-11.4533
varust	-11.455
leivä	-11.4555
kuljetti	-11.4556
perässä	-11.4579
virtaa	-11.4583
toiste	-11.4588
hämmästy	-11.4591
salaliito	-11.4603
pysyvät	-11.4605
juopu	-11.4612
puuhun	-11.4614
läisten	-11.4616
abneri	-11.4622
gassa	-11.4641
pasun	-11.4645
asee	-11.4654
vesa	-11.4661
kid	-11.4665
väärää	-11.4671
valkea	-11.4679
sellaisi	-11.4703
levit	-11.4712
vereen	-11.4713
viero	-11.4762
tunnetu	-11.477
totin	-11.4789
häpy	-11.4798
haam	-11.4828
kohdalta	-11.4834
kaulaa	-11.4836
lyödä	-11.4859
todistus	-11.4861
kyyhky	-11.4862
rakenn	-11.4863
juutalai	-11.4864
pakanoi	-11.4865
täytyi	-11.4867
kylä	-11.4869
ympäröi	-11.4871
hevo	-11.4883
gomorra	-11.4885
happamattoman	-11.4885
jäännös	-11.4885
korennot	-11.4885
perissiläis	-11.4885
päässeet	-11.4885
ruoski	-11.4885
ryösti	-11.4885
hiiram	-11.4885
osoitti	-11.4885
ylösnousemukse	-11.4885
kahteen	-11.4885
omaisuude	-11.4885
omaisuuten	-11.4885
saafani	-11.4885
sanansaattaji	-11.4885
juurt	-11.4885
alamaise	-11.4885
neuvosto	-11.4885
hirsi	-11.4885
koski	-11.4885
silmiä	-11.4885
syyttömä	-11.4886
aartei	-11.4886
makea	-11.4886
kenellä	-11.4886
naema	-11.4886
sotaväen	-11.4886
armoistuime	-11.4887
odotti	-11.4888
tytö	-11.4889
oleskeli	-11.4889
huolt	-11.4889
kyyhkysen	-11.489
pidot	-11.489
vaikea	-11.489
pienet	-11.4891
hulluu	-11.4893
kadotukse	-11.4893
verellä	-11.4894
toisiin	-11.4896
kunnioita	-11.4897
niskur	-11.4898
kukkuloilla	-11.4898
maaseja	-11.4898
pojasta	-11.4899
väkevyyte	-11.49
orpo	-11.4903
lähdi	-11.4903
johti	-11.4905
seisoo	-11.4906
kiivaude	-11.4908
vapahd	-11.4908
opetukse	-11.4915
jokapäiväi	-11.4916
syntyneet	-11.4918
kaiketi	-11.4919
pidättä	-11.4922
katselmus	-11.4924
polta	-11.4928
reväis	-11.4931
armahtaa	-11.4937
ratsu	-11.4957
kohoaa	-11.4958
kuulutta	-11.4965
valtaistuimelle	-11.4971
lammas	-11.4978
kodissa	-11.498
napis	-11.4985
eelami	-11.4986
rikkomus	-11.4998
kukkulat	-11.4998
neljään	-11.5012
pil	-11.5017
leikat	-11.5017
lakkaa	-11.5026
pelastuisi	-11.5029
viisait	-11.5041
minkään	-11.5043
palvell	-11.5049
yhtyi	-11.5111
jotta	-11.5114
vaimojen	-11.5116
linnaan	-11.5122
vaellat	-11.5137
baali	-11.5148
parannukse	-11.516
ruuben	-11.5163
merkitse	-11.5164
pitkämieli	-11.5171
jälkeläi	-11.5185
lakkaamat	-11.5195
kyynärä	-11.5202
poisti	-11.5207
kipu	-11.5232
lammasta	-11.5237
äkist	-11.5246
uotiin	-11.5268
loistaa	-11.5269
anoi	-11.5282
salaisuu	-11.5298
valkoi	-11.5303
abrami	-11.5311
leikkaamattomi	-11.5325
tuhota	-11.5326
poistu	-11.5338
lammiko	-11.5339
asdodi	-11.5339
hävitetty	-11.5339
kerskaukse	-11.5339
kuukausi	-11.5339
lohikäärme	-11.5339
meedia	-11.5339
perustus	-11.5339
roukkio	-11.5339
toisella	-11.5339
työhön	-11.5339
vihoitta	-11.5339
6	-11.5339
ahdisti	-11.5339
geba	-11.5339
pakanakansoj	-11.5339
perhekuntien	-11.5339
vanhemmat	-11.5339
vihitty	-11.5339
vikapää	-11.5339
hävitykse	-11.5339
lunastus	-11.5339
pyhäköstä	-11.5339
lukuisa	-11.5339
naabot	-11.5339
rukouksi	-11.534
tuomarei	-11.534
naura	-11.534
suuteli	-11.534
hiilipannu	-11.534
hyvänhajuis	-11.534
määrätty	-11.534
väärintekijä	-11.534
varustetu	-11.534
suusani	-11.534
ennusti	-11.534
verso	-11.534
fariseusten	-11.5341
siisera	-11.5341
lähetin	-11.5342
hädässä	-11.5342
heiko	-11.5343
uskoton	-11.5344
kiivastukse	-11.5346
vastauksen	-11.5347
kahdeksantoista	-11.5347
esaia	-11.5348
harras	-11.5349
kahdesta	-11.5352
amasa	-11.5352
suoritta	-11.5353
kaislamere	-11.5363
painu	-11.5364
etsikää	-11.537
murheelli	-11.5372
katkais	-11.5376
olenno	-11.5378
ahasverokse	-11.5382
nälän	-11.5386
aiot	-11.5393
perilli	-11.5403
kuninkuude	-11.5405
vanhempia	-11.5406
kätki	-11.5406
välittä	-11.5408
joorami	-11.5409
uhratkaa	-11.5411
orvo	-11.5415
majassa	-11.5416
hanna	-11.5424
työssä	-11.5429
piirittä	-11.5435
kaaleb	-11.5437
ääneni	-11.5439
pito	-11.544
raakeli	-11.5446
vuote	-11.5454
perkele	-11.5455
viskaa	-11.5468
uhratkoo	-11.5473
anneta	-11.5483
mentävä	-11.5484
hoori	-11.5492
tunnust	-11.553
villi	-11.5551
puuttu	-11.5565
benjaminilaise	-11.5579
assur	-11.5592
saattaisi	-11.5594
kaikkinaist	-11.5608
suulla	-11.561
repi	-11.5619
otetu	-11.5623
tulkoo	-11.5643
laskekoo	-11.5668
arvolli	-11.567
hävittäjä	-11.5676
raavaa	-11.568
mätön	-11.5682
luopui	-11.5686
puki	-11.5696
muotois	-11.5706
benjamin	-11.5708
syököö	-11.5709
istuta	-11.5733
rooma	-11.576
amorilaise	-11.5769
kohd	-11.5773
sovi	-11.5792
johdo	-11.5805
ymmärrys	-11.5812
hädä	-11.5813
puhdistet	-11.5814
tuhosi	-11.5815
todistuksi	-11.5816
vartiosto	-11.5816
voiteluöljy	-11.5816
ylistykse	-11.5816
filippus	-11.5816
kumarra	-11.5816
leeviläinen	-11.5816
neuvonantaja	-11.5816
ravinno	-11.5816
efeso	-11.5816
kadonnut	-11.5816
kyllästy	-11.5816
tiedustel	-11.5816
nuoruute	-11.5816
hajaantu	-11.5816
kamele	-11.5816
laakii	-11.5816
huilu	-11.5816
ohra	-11.5816
jaabekse	-11.5816
talteen	-11.5816
enkelei	-11.5816
valloitet	-11.5816
kyen	-11.5816
timna	-11.5816
vihollisista	-11.5816
toisessa	-11.5816
maksu	-11.5816
vapisi	-11.5817
syöksy	-11.5817
tunnusteo	-11.5817
lentävä	-11.5817
sukukunnista	-11.5817
vallasta	-11.5818
palatkaa	-11.5818
sotapäällikö	-11.5818
sotapäällikkö	-11.5818
elkana	-11.5819
vaivannäkö	-11.5821
näyssä	-11.5823
kiitti	-11.5823
puhuttele	-11.5824
serahi	-11.5826
siunann	-11.5828
haju	-11.5831
kansakunti	-11.5831
tietääkse	-11.5835
kutsuttu	-11.5835
välitä	-11.5838
yksinkertai	-11.5841
rangaistus	-11.5844
oltu	-11.5845
eliab	-11.5849
järjest	-11.5857
kuluttava	-11.5861
tili	-11.5863
kurita	-11.5867
kaunista	-11.587
selkä	-11.5874
haureudessa	-11.5875
taudi	-11.5879
arvossa	-11.5881
riida	-11.5884
muukalaist	-11.5884
ylenpalttise	-11.5893
pysähtyi	-11.5896
häpyä	-11.5911
amalekilaise	-11.5912
orjuude	-11.5916
asettakoo	-11.5921
virheettömä	-11.5933
miehine	-11.5937
auttoi	-11.5946
vapaaehtoise	-11.595
viipyi	-11.5951
setripui	-11.5952
mennäkse	-11.5964
seurassa	-11.5972
hää	-11.5986
onnea	-11.5987
kunnioit	-11.5991
rikastu	-11.5998
kuolemasta	-11.5999
tuke	-11.6003
jooel	-11.6007
aromaa	-11.6033
lauta	-11.6051
noudatat	-11.6065
kirkasta	-11.607
jebusilaise	-11.6074
korjat	-11.6083
jääköö	-11.6084
ulottui	-11.6099
näkyi	-11.6099
syylli	-11.611
kaiva	-11.6118
karmeli	-11.612
rakentava	-11.6123
lieki	-11.6123
viisa	-11.6176
armahta	-11.6185
kuninka	-11.6198
osti	-11.6204
lampu	-11.6205
mättömä	-11.6206
irsta	-11.6209
kasvatta	-11.6213
tervehdykse	-11.6216
tallaa	-11.6218
keihäs	-11.623
tunno	-11.6231
tarttuma	-11.6261
kehoit	-11.6267
vaunuihin	-11.6285
nouseva	-11.6285
vanhurskait	-11.6289
käsivarre	-11.629
alalla	-11.6297
kahdes	-11.6301
siunatkoo	-11.6304
järk	-11.6307
tuulta	-11.6312
hyvyy	-11.6314
ihastu	-11.6316
7	-11.6316
jylinä	-11.6316
ahdingo	-11.6316
ahitofel	-11.6316
apostole	-11.6316
kavahta	-11.6316
naadab	-11.6316
obadja	-11.6316
pirskoit	-11.6316
publikaani	-11.6316
purjehti	-11.6316
pyyhi	-11.6316
synagoogissa	-11.6316
henkilö	-11.6316
puhkea	-11.6316
sulki	-11.6316
kapina	-11.6316
rakennettu	-11.6316
tekemistä	-11.6316
vieraita	-11.6316
alankomaa	-11.6316
muistet	-11.6316
mursi	-11.6316
vasikka	-11.6316
levisi	-11.6316
pidetä	-11.6316
▁`;	-11.6316
vaikutta	-11.6316
hevosten	-11.6316
netanja	-11.6316
pahantekijä	-11.6317
simri	-11.6317
kirjoitetu	-11.6317
väkijuoma	-11.6317
syntymän	-11.6317
raskas	-11.6317
uudis	-11.6317
viidenkymmenen	-11.6318
hesron	-11.6318
pinna	-11.6319
kallisarvoi	-11.6319
piiloutu	-11.6321
kaade	-11.6321
terävä	-11.6321
lopeta	-11.6323
miehenpuoli	-11.6325
arvall	-11.6325
pylväänpää	-11.6325
taivut	-11.6327
pö	-11.6327
raivo	-11.6329
sotakuntois	-11.6331
mitat	-11.6332
laskettu	-11.6333
syytä	-11.6335
häväiss	-11.6336
semekse	-11.6337
aksa	-11.6337
tulvi	-11.6338
uskottu	-11.6338
pakanoille	-11.634
vyötä	-11.634
syystä	-11.6342
vietti	-11.6348
asunto	-11.6353
sora	-11.6365
korota	-11.6368
suuruu	-11.6375
paenn	-11.6375
sanottava	-11.6377
palatsiin	-11.6382
aramilaisi	-11.6382
puhuttu	-11.6393
veisata	-11.6407
piha	-11.641
edustall	-11.6423
armahtavai	-11.6427
asuakse	-11.6428
bai	-11.6429
hedelmällise	-11.6431
lumi	-11.6434
henge	-11.6436
levin	-11.644
muuttui	-11.6441
jälje	-11.6448
kuullessa	-11.6452
anasta	-11.6461
ymmärtäväise	-11.6461
väkevi	-11.6464
riemuitkaa	-11.6465
piilo	-11.6468
nöyrä	-11.6472
muistut	-11.6493
häväistä	-11.6499
omikse	-11.6503
isällä	-11.6508
odot	-11.6517
sairasta	-11.6536
pilkkasi	-11.6548
aikoje	-11.6591
harjoit	-11.6603
siirtyi	-11.6621
edom	-11.6622
umm	-11.6664
hurskas	-11.6666
jooah	-11.6673
arvioi	-11.6705
saatua	-11.6708
kastetta	-11.6715
näit	-11.6723
yläpuolell	-11.6752
keske	-11.6764
saarai	-11.6775
haureude	-11.6777
riisui	-11.6779
väkevyy	-11.678
läiset	-11.6784
kilpi	-11.6785
tauti	-11.6807
poltto	-11.6812
kosto	-11.6812
tehtäviä	-11.6814
tavoittele	-11.6819
sydäntä	-11.6831
raasta	-11.6834
ahikami	-11.6842
antiokia	-11.6842
aseenkantaja	-11.6842
ennustus	-11.6842
juoksu	-11.6842
kulji	-11.6842
maksoi	-11.6842
omaisuutta	-11.6842
pappeina	-11.6842
pauhaava	-11.6842
poikkesi	-11.6842
selityksen	-11.6842
tekijöi	-11.6842
vohla	-11.6842
alttare	-11.6842
esikartano	-11.6842
kelvottoma	-11.6842
kuihtu	-11.6842
kynnykse	-11.6842
morsiame	-11.6842
tyrmisty	-11.6842
jännittä	-11.6842
järjestykse	-11.6842
naapuri	-11.6842
munuais	-11.6842
soturi	-11.6842
libna	-11.6842
selitys	-11.6842
varhais	-11.6842
▁`?"	-11.6842
valtaistuin	-11.6842
ekroni	-11.6842
naahor	-11.6842
temppelisali	-11.6842
riennä	-11.6842
ihokkaa	-11.6843
hedelmätön	-11.6843
hakkasi	-11.6843
yöpy	-11.6843
haanan	-11.6843
kukkaro	-11.6843
maakiri	-11.6843
hebrea	-11.6843
kupee	-11.6844
aaseja	-11.6845
niinive	-11.6845
ruhtinaita	-11.6845
kouku	-11.6846
suljettu	-11.6846
puoliso	-11.6847
edelli	-11.6847
rikki	-11.6848
ensimmäisessä	-11.685
käskyistä	-11.685
huomat	-11.6851
todella	-11.6852
pyhitti	-11.6853
perästä	-11.6855
luuli	-11.6856
hauto	-11.6857
jaksa	-11.6857
taikina	-11.6857
näkyvi	-11.686
vanho	-11.6861
saapuvill	-11.6866
luji	-11.6866
hieno	-11.6866
paloi	-11.687
sovitta	-11.6872
pettää	-11.6874
vitsaukse	-11.6884
hallin	-11.6885
johdatt	-11.6886
rakennukse	-11.6886
ymmärtää	-11.6886
emän	-11.6887
parissa	-11.6887
riemuitkoo	-11.6888
syömä	-11.689
rakastatte	-11.6892
laiska	-11.6893
kuninkuute	-11.6897
vaunujen	-11.6901
dad	-11.6902
tahdomme	-11.6903
punasini	-11.6918
rinnalla	-11.6928
aida	-11.6933
rakennus	-11.6935
nasaretilai	-11.6937
karvo	-11.6953
ahtaa	-11.6956
viikuna	-11.696
seinää	-11.6972
lantei	-11.6977
kulkiessa	-11.6983
julistakaa	-11.6989
äärii	-11.6997
isuudessa	-11.7006
väkivalta	-11.7007
ruumista	-11.7021
salama	-11.7055
valitukse	-11.7063
hum	-11.7069
hallitusmiehe	-11.7081
jumalankuvi	-11.7092
jebusilais	-11.7103
lihava	-11.711
laitta	-11.711
ajet	-11.7112
mooabilaise	-11.7115
kaurist	-11.7134
pidätte	-11.7137
hebrealai	-11.7138
kasukka	-11.7179
simeon	-11.7181
etiopialai	-11.7186
onnistu	-11.7194
herätä	-11.7204
lake	-11.7226
syötäkö	-11.7228
amaleki	-11.7235
kumartu	-11.7235
kuninkuu	-11.7266
kultaise	-11.7272
liito	-11.7285
heettiläise	-11.7298
sairastava	-11.73
astukaa	-11.7314
ratsumiehi	-11.7314
ihmislast	-11.7315
baabel	-11.7324
kaupungei	-11.7325
ikee	-11.7345
ehty	-11.7347
aramilaist	-11.7372
julistakoo	-11.7384
peura	-11.7397
keskuuteen	-11.7397
kuningattare	-11.7397
niskoitteli	-11.7397
9	-11.7397
haureute	-11.7397
havaitsi	-11.7397
kegila	-11.7397
kiukku	-11.7397
naabali	-11.7397
porteissa	-11.7397
savenvalaja	-11.7397
syntejä	-11.7397
uskottomi	-11.7397
mesopotamia	-11.7397
lävistä	-11.7397
särke	-11.7397
vaivannäö	-11.7397
valettu	-11.7397
sisemmä	-11.7397
loisto	-11.7398
kuunteli	-11.7398
tirsa	-11.7398
ylvästel	-11.7398
epäusko	-11.7398
omri	-11.7398
kohdussa	-11.7398
tobia	-11.7398
kudo	-11.7398
tyhmi	-11.7398
maanoah	-11.7399
toisesta	-11.7399
kourist	-11.7399
riittää	-11.74
kieltäyty	-11.74
huulilla	-11.7401
tuhansi	-11.7402
seem	-11.7402
palauta	-11.7403
vertauksen	-11.7405
varteen	-11.7405
sapatinpäivänä	-11.7405
hajotet	-11.7406
heittäkää	-11.7407
taistell	-11.7407
syynalaise	-11.7409
johdolla	-11.741
teroit	-11.741
rangaistukse	-11.7411
tähteeksi	-11.7411
himoitse	-11.7411
ussiel	-11.7411
luettiin	-11.7419
verestä	-11.742
palvelukseen	-11.742
käsivarrella	-11.7427
ylistystä	-11.7428
kaiverr	-11.7431
rahalla	-11.7433
nääntyvä	-11.7442
kurji	-11.7449
miete	-11.745
ympärileikattu	-11.7455
peittävä	-11.7456
seasta	-11.7458
härkää	-11.7465
synk	-11.7469
totise	-11.747
turhuu	-11.7474
kadotta	-11.749
mpaan	-11.7491
vaikene	-11.7494
laivo	-11.7496
tulva	-11.7507
tode	-11.7514
vuodatett	-11.752
sairau	-11.7524
ystävällis	-11.753
vapautu	-11.7536
jokapäiväise	-11.7543
todistaji	-11.7562
lisääntyi	-11.7572
olentoj	-11.7573
jälkeläiste	-11.759
laitumell	-11.7593
sydämellä	-11.7618
ebjatari	-11.7621
rikkaute	-11.7627
paatu	-11.7651
gaad	-11.7663
sotahuu	-11.7665
kokoukse	-11.7669
benjaminilaisi	-11.7671
lopetta	-11.7672
vieköö	-11.7682
kaadekse	-11.7687
miikal	-11.7718
itätuul	-11.7724
kärsivällisyy	-11.7741
oikeuksi	-11.7793
uskoisi	-11.7797
otit	-11.7797
sotila	-11.7801
mielee	-11.7811
miehellä	-11.7818
nebukadressar	-11.7823
sadanpäämies	-11.7839
isku	-11.7863
ronin	-11.7888
leviä	-11.7927
järje	-11.7935
läsnä	-11.7959
lähdit	-11.796
pikku	-11.7972
kulmi	-11.7984
ättömi	-11.7986
kerube	-11.7986
sotakelpoisi	-11.7986
kypressi	-11.7986
ruovo	-11.7986
veistety	-11.7986
ahdistuksi	-11.7986
enempää	-11.7986
harppu	-11.7986
paratiisi	-11.7986
porteista	-11.7986
rabbi	-11.7986
veljistä	-11.7986
vilppi	-11.7986
ympäristö	-11.7986
ympärysverhot	-11.7986
äytäntöön	-11.7986
abigail	-11.7986
eljasib	-11.7986
hankkee	-11.7986
joutua	-11.7986
kauppiaa	-11.7986
kuoppaan	-11.7986
rakkaudesta	-11.7986
rosvo	-11.7986
hajuainei	-11.7986
kesarea	-11.7986
mahdollis	-11.7986
vaikutukse	-11.7986
huokail	-11.7986
häviö	-11.7986
johto	-11.7986
yhdeksäntenä	-11.7986
ainokai	-11.7986
jearimi	-11.7986
rankaisi	-11.7986
jäädä	-11.7986
polje	-11.7986
pelkäisi	-11.7986
valhettelija	-11.7986
kaikkivaltiaan	-11.7986
torve	-11.7986
kreet	-11.7986
kerskat	-11.7986
happamaton	-11.7986
yksimielise	-11.7986
pitalitauti	-11.7986
rupea	-11.7986
kengä	-11.7986
atalja	-11.7986
kiusaa	-11.7986
lakastu	-11.7986
vuohen	-11.7986
liekki	-11.7987
henkäys	-11.7987
aroeri	-11.7988
lähetetty	-11.7988
lyhy	-11.7988
ylkä	-11.7988
arabia	-11.7988
hadad	-11.7988
varoitta	-11.7989
sadanpäämiehe	-11.7989
uorta	-11.7989
peljätkää	-11.7989
katoavais	-11.799
hanok	-11.799
hoosea	-11.7991
kuninkaille	-11.7991
halkais	-11.7991
alaston	-11.7992
seutu	-11.7992
velho	-11.7992
valita	-11.7996
puuttuu	-11.7998
tekemästä	-11.8
viidennen	-11.8001
purkaa	-11.8001
naara	-11.8002
näimme	-11.8003
sork	-11.8003
lisät	-11.8004
rehelli	-11.8005
pilkkana	-11.8009
kutsutut	-11.8009
sijoitt	-11.8009
leposija	-11.8011
tavoittel	-11.8012
daarejavekse	-11.8014
havaitt	-11.8015
iloita	-11.8016
anomise	-11.8016
sure	-11.8017
todistusta	-11.8019
paisu	-11.8021
viettele	-11.8021
kuvapatsa	-11.8028
muutti	-11.803
hevosilla	-11.8033
runsas	-11.804
agri	-11.8049
hillitse	-11.8054
täyty	-11.8057
paranna	-11.8078
veisat	-11.8084
keihästä	-11.8088
pimeyte	-11.8094
laupeute	-11.8096
kaikkeinpyhimmä	-11.8097
näkylei	-11.81
joojakim	-11.8121
päällysmiehe	-11.8124
puolee	-11.8153
nähdäkse	-11.8202
korkui	-11.8207
vertaus	-11.8212
näkyj	-11.8219
tunti	-11.8219
kiir	-11.8234
puno	-11.8236
ebed	-11.8238
elisama	-11.8241
äväksi	-11.8246
katsel	-11.8251
vallall	-11.8255
kuuliaise	-11.8261
yhdeksänkymmen	-11.8271
sotamiehe	-11.8275
ratsumiehe	-11.8283
juodakse	-11.8285
katko	-11.8307
astukoo	-11.8311
riutu	-11.8326
jobi	-11.8331
pove	-11.834
kuvia	-11.8344
venhe	-11.8395
hetkell	-11.8398
laupeu	-11.8418
ahda	-11.8425
nuku	-11.8433
kiinnitet	-11.8454
tiukku	-11.8465
aike	-11.8478
valaise	-11.8502
siunaukse	-11.8514
kaldealaise	-11.8514
toisin	-11.8515
ikävöi	-11.8535
sineti	-11.8601
iljetykse	-11.8611
kuukautis	-11.8611
käännetty	-11.8611
ryöstö	-11.8611
baarak	-11.8611
filippukse	-11.8611
huomenaamu	-11.8611
häpäisi	-11.8611
jefunne	-11.8611
kahdelle	-11.8611
kurjuude	-11.8611
kylvö	-11.8611
linnoitukse	-11.8611
rabsake	-11.8611
seitsemäksi	-11.8611
tästedes	-11.8611
yhdellä	-11.8611
haagar	-11.8611
hahmo	-11.8611
haureelli	-11.8611
mykkä	-11.8611
rehob	-11.8611
seisahtui	-11.8611
taivaanvahvuu	-11.8611
umpeen	-11.8611
kiusasi	-11.8611
saastutti	-11.8611
kuopa	-11.8611
pyhitety	-11.8611
raavaskarja	-11.8611
vangei	-11.8611
kuudentena	-11.8611
siiba	-11.8611
laudoi	-11.8611
vaarna	-11.8611
yläsali	-11.8611
verko	-11.8611
virvoita	-11.8611
sukkoti	-11.8611
vahinko	-11.8611
itsestään	-11.8611
rientä	-11.8611
lähettämä	-11.8611
joosaba	-11.8611
pappeu	-11.8611
malkia	-11.8611
sikiö	-11.8611
julkea	-11.8611
vaihta	-11.8611
huokaa	-11.8611
jehiel	-11.8611
särky	-11.8611
kuritukse	-11.8611
vedä	-11.8611
totelle	-11.8612
opetusta	-11.8612
paetkaa	-11.8612
pelkkä	-11.8612
amram	-11.8612
arkail	-11.8612
kudottu	-11.8612
kohina	-11.8613
parasta	-11.8613
elifa	-11.8613
hajoa	-11.8614
denari	-11.8614
surmattako	-11.8614
kirve	-11.8615
kiivaus	-11.8615
edomilaiset	-11.8615
aukeni	-11.8616
eeber	-11.8618
amarja	-11.8618
tarkat	-11.8618
seppä	-11.8621
toreill	-11.8621
kyps	-11.8622
ympäriltä	-11.8622
tappio	-11.8622
väestä	-11.8622
lantee	-11.8622
paimenten	-11.8624
kastoi	-11.8625
lähteköön	-11.8627
korsk	-11.8628
määräty	-11.8629
riemuitsee	-11.8631
tukki	-11.8635
bbe	-11.8637
luottamus	-11.8637
lakeude	-11.8638
muure	-11.8641
kertomus	-11.8641
parku	-11.8647
huulten	-11.8653
väkivaltaise	-11.8654
geersonilais	-11.8654
kateu	-11.8662
heilutus	-11.8663
ajatell	-11.8673
painoin	-11.8681
vasemmall	-11.8683
vainoava	-11.8693
paljou	-11.8726
aamokse	-11.8732
nuoremma	-11.8735
ylhääll	-11.874
vertauksi	-11.8751
riidel	-11.8763
arvio	-11.8778
rintakilp	-11.8803
paljoude	-11.8806
looti	-11.8807
jooahaa	-11.884
kylää	-11.8857
rukoilema	-11.889
vertaise	-11.8924
kehoitta	-11.8928
ratsumiest	-11.8939
synny	-11.8944
lehvä	-11.895
uksesta	-11.8953
kansanjouko	-11.899
pahoj	-11.8994
kaivoi	-11.9004
ard	-11.9012
arami	-11.9043
suri	-11.9086
vapaaehtoi	-11.9091
pahuu	-11.9102
kaalebi	-11.9135
puid	-11.9141
siini	-11.9146
johannekse	-11.9163
hria	-11.9201
kerit	-11.9201
tutkistele	-11.9223
hoiti	-11.9273
uorten	-11.9276
yhdist	-11.9277
aavikkosu	-11.9277
abednego	-11.9277
artahsasta	-11.9277
gesuri	-11.9277
granaattiomeni	-11.9277
happamattomi	-11.9277
hasabja	-11.9277
herodekse	-11.9277
häijy	-11.9277
hämminki	-11.9277
joonadab	-11.9277
kolmanteen	-11.9277
lähettäkää	-11.9277
mefiboset	-11.9277
mittanuora	-11.9277
myrkky	-11.9277
nebusaradan	-11.9277
pystyy	-11.9277
pääsiäislampaa	-11.9277
sananlasku	-11.9277
sanherib	-11.9277
teurasuhreja	-11.9277
tyttäristä	-11.9277
vihoitti	-11.9277
ylimykse	-11.9277
huoju	-11.9277
lampaista	-11.9277
löyty	-11.9277
palveltava	-11.9277
poikkitanko	-11.9277
turmeltu	-11.9277
fariseuksi	-11.9277
mahdoton	-11.9277
sadrak	-11.9277
ulkokullatu	-11.9277
miellyt	-11.9277
saviastia	-11.9277
aamurusko	-11.9277
tarkasti	-11.9277
mirha	-11.9277
mirjam	-11.9277
hampai	-11.9277
väkevämmä	-11.9277
luotettava	-11.9277
määräykse	-11.9277
pyhittäyty	-11.9278
yhteysuhreja	-11.9278
kääntää	-11.9278
silmille	-11.9278
juhta	-11.9278
hävitety	-11.9278
toiselta	-11.9278
vainooja	-11.9278
pyydystä	-11.9278
▁?`"	-11.9278
oikeamielise	-11.9278
meesak	-11.9278
murtu	-11.9278
lammaslauma	-11.9278
perekse	-11.9278
heräsi	-11.9279
pekah	-11.9279
epäpyhä	-11.9279
ammenta	-11.9279
hirmu	-11.9279
viattoma	-11.9279
ylimmä	-11.9279
helmaan	-11.9279
koura	-11.9279
kiusat	-11.9279
palvelijoista	-11.928
ojennetu	-11.928
taidokka	-11.928
perhettä	-11.928
vuorta	-11.928
rasitta	-11.928
paulo	-11.928
istuutui	-11.928
merensaar	-11.9281
vävy	-11.9281
lähetit	-11.9281
hukuttaa	-11.9281
vihollisille	-11.9282
kieto	-11.9283
happa	-11.9283
lähtekööt	-11.9283
elieser	-11.9284
raatele	-11.9284
yhteis	-11.9286
maakuntaa	-11.9286
porteill	-11.9287
jumalista	-11.9287
syntiset	-11.929
jäntee	-11.9294
hooroni	-11.9294
väelle	-11.9295
puuttees	-11.9304
lauto	-11.9306
ylistysvir	-11.9317
juomauhre	-11.932
härä	-11.9322
kyntä	-11.9324
langa	-11.9326
kuoltua	-11.9343
rakenneta	-11.9346
taamari	-11.9353
peseytyköö	-11.9353
jumalattomuude	-11.9364
riitele	-11.9373
kohdalla	-11.9383
teurastakoo	-11.9384
surmatu	-11.9386
ukselle	-11.9393
puitte	-11.9404
ylpeyde	-11.9405
osallisi	-11.9417
nebukadressari	-11.9466
ruhjo	-11.9468
vartioitse	-11.9486
määr	-11.9488
menestyisit	-11.9496
vuorilinna	-11.9505
oksia	-11.9512
ammonilai	-11.9522
jäsene	-11.9535
pohjoispuol	-11.9538
perintöos	-11.9578
sirot	-11.9583
kokoontunee	-11.9603
liitonarki	-11.9623
outo	-11.9634
sorto	-11.9648
synnyttäjä	-11.9663
miikael	-11.9679
ymmärtäisi	-11.9691
kiinnittä	-11.9709
näitte	-11.9754
säilytett	-11.9755
kuivuu	-11.9783
profeeta	-11.9817
piir	-11.9831
suistu	-11.9835
sukukunn	-11.9883
vanhempi	-11.9887
tora	-11.9894
avun	-11.9897
nuoruude	-11.9911
taamar	-11.9916
hyljäty	-11.9932
etelämaa	-11.9941
geerson	-11.9942
boo	-11.995
rikkonee	-11.9958
jyviä	-11.9965
suojel	-11.9969
saalis	-11.9984
yhdy	-11.9989
heinäsirkkoj	-11.9992
useampi	-11.9992
gaselli	-11.9992
kiusaukse	-11.9992
rangaiskoo	-11.9992
vanhimpi	-11.9992
nasiiri	-11.9992
oholiba	-11.9992
ojennettu	-11.9992
ravinto	-11.9992
ryöväri	-11.9992
sireeninnah	-11.9992
tarvitsi	-11.9992
vahvisti	-11.9992
vilpittömä	-11.9992
balsami	-11.9992
barnabas	-11.9992
geera	-11.9992
geersom	-11.9992
hyökät	-11.9992
ilahutta	-11.9992
kapernaumi	-11.9992
kelvoton	-11.9992
portteja	-11.9992
reekabi	-11.9992
selemja	-11.9992
säkkeihin	-11.9992
neuvotteli	-11.9992
pashur	-11.9992
tyhjen	-11.9992
eljakim	-11.9992
toteutta	-11.9992
ahimaas	-11.9992
hieho	-11.9992
kihla	-11.9992
levyi	-11.9992
verenkostaja	-11.9992
kaitsija	-11.9992
merkitty	-11.9992
ulompaa	-11.9992
nauru	-11.9992
nurja	-11.9992
aallo	-11.9992
liikut	-11.9992
puske	-11.9992
kukko	-11.9992
viiniköynnökse	-11.9992
kukoista	-11.9992
sormuks	-11.9992
sukulunastaja	-11.9992
jalkoja	-11.9992
siirsi	-11.9992
ilosanoman	-11.9992
mentyä	-11.9992
matelija	-11.9992
ovenvartijoi	-11.9992
hasar	-11.9992
muistele	-11.9992
efron	-11.9992
uskalta	-11.9992
kyykäärme	-11.9992
jisreeliläi	-11.9992
liepee	-11.9992
netanel	-11.9992
lahjuks	-11.9992
karsiko	-11.9992
pilkku	-11.9993
itkuvirsi	-11.9993
kauppaa	-11.9993
käädy	-11.9993
erehdykses	-11.9993
miehiltä	-11.9993
anakilais	-11.9993
uhrikukkuloilla	-11.9993
kuivi	-11.9994
lilja	-11.9994
sivelköö	-11.9994
puhdistettava	-11.9994
luulee	-11.9994
kahdesti	-11.9994
riemuhuuto	-11.9994
eedeni	-11.9994
takia	-11.9994
polke	-11.9994
pojalla	-11.9995
lähettävä	-11.9995
kivitaulu	-11.9995
hyljätty	-11.9995
kärsimän	-11.9995
työvero	-11.9996
surmattujen	-11.9996
lähin	-11.9996
orjia	-11.9996
yrtti	-11.9997
peruuttamat	-11.9997
oobab	-11.9997
baani	-11.9999
ollen	-11.9999
kirkkautta	-12.0001
mahli	-12.0001
sairai	-12.0002
rukoilla	-12.0003
almu	-12.0003
varoita	-12.0004
salamoi	-12.0004
palatkoo	-12.0006
karhu	-12.0006
yhdeksäs	-12.0007
gooseni	-12.0007
haasori	-12.0008
kuljettava	-12.0009
hopeamalja	-12.0009
mennessä	-12.0011
harpu	-12.0012
hyödylli	-12.0012
tuhotakse	-12.0016
läsnäollessa	-12.0024
arba	-12.0026
sinetillä	-12.0041
sinetöi	-12.0043
hävet	-12.0057
lukumäärä	-12.0064
nebo	-12.0065
udella	-12.0078
hivviläise	-12.0092
sukulaise	-12.011
lännes	-12.012
hermoni	-12.0139
pilatukse	-12.0157
virvoitta	-12.017
tappaaksen	-12.0174
?	-12.0202
neljännes	-12.0218
viime	-12.0246
osallise	-12.0249
rakennutt	-12.027
arvoise	-12.0304
pylväit	-12.0321
kahl	-12.0322
katke	-12.0323
jalustoine	-12.033
miehenpuole	-12.0378
pyyd	-12.0392
toril	-12.0396
voidakse	-12.0403
luovutta	-12.0449
avusta	-12.0529
eläessä	-12.0537
ammu	-12.0553
pääskö	-12.0579
adoni	-12.0591
viiko	-12.0602
appi	-12.0606
kadot	-12.0627
ihani	-12.0642
hebron	-12.0659
linno	-12.0665
tottelemattom	-12.067
ylistys	-12.0672
peseyty	-12.0673
milloinka	-12.0674
patsas	-12.0712
lapsettom	-12.0736
koste	-12.0742
ssyt	-12.0759
päässyt	-12.076
kuurna	-12.0761
vihkiyty	-12.0761
hämär	-12.0761
ristikkokoriste	-12.0761
velvollis	-12.0761
äidistä	-12.0761
abinadab	-12.0761
ahimeleki	-12.0761
amminadab	-12.0761
geehasi	-12.0761
jedutuni	-12.0761
juomanlaskija	-12.0761
juovuksi	-12.0761
matkusti	-12.0761
mielettömyy	-12.0761
naarasleijona	-12.0761
pilkkopimeä	-12.0761
sefatja	-12.0761
tempasi	-12.0761
uskollisuutta	-12.0761
vahvistet	-12.0761
vanhempa	-12.0761
vastedes	-12.0761
viinitarhuri	-12.0761
babylon	-12.0761
joutukoo	-12.0761
lampaitte	-12.0761
nöyryyttä	-12.0761
ripustet	-12.0761
säikäh	-12.0761
vaatteissa	-12.0761
ahkeroi	-12.0761
andrea	-12.0761
hoitoon	-12.0761
jishar	-12.0761
satraap	-12.0761
kimpus	-12.0761
sytytä	-12.0761
viikunoi	-12.0761
viritti	-12.0761
paksu	-12.0761
hyvitykse	-12.0761
kätketty	-12.0761
hallussa	-12.0761
viheriä	-12.0761
vyöry	-12.0761
sorra	-12.0761
ylösnousemus	-12.0761
lepäsi	-12.0761
kulku	-12.0761
öljymäe	-12.0761
selitti	-12.0761
poikenn	-12.0761
oorebi	-12.0761
satuloi	-12.0761
viinikuurna	-12.0761
asetuksia	-12.0761
kultarengas	-12.0761
jedaja	-12.0761
aadami	-12.0761
paremma	-12.0762
survo	-12.0762
oikeamielist	-12.0762
polteta	-12.0762
lakkasi	-12.0762
vankeja	-12.0762
naimisi	-12.0762
iddo	-12.0762
hopeavati	-12.0762
valtakunti	-12.0762
näyttäyty	-12.0762
perikato	-12.0762
kattila	-12.0762
ärjyy	-12.0762
mannaa	-12.0763
lahjoista	-12.0763
autuute	-12.0763
puhdistautu	-12.0764
näänny	-12.0764
kantelee	-12.0764
voimakkaa	-12.0765
tuulispää	-12.0765
harjoitti	-12.0767
mateleva	-12.0767
aalto	-12.0767
raamattu	-12.0767
vapaik	-12.0768
parane	-12.0769
abihu	-12.0769
vyöttäyty	-12.077
ruvet	-12.077
sokei	-12.0771
osadak	-12.0772
orjiks	-12.0778
meteli	-12.0778
pätevä	-12.0783
köyde	-12.079
metsäkyyhkys	-12.0794
kertaise	-12.0813
katto	-12.0816
samankaltai	-12.0817
väkevyyde	-12.0825
tutkistel	-12.0826
haavoitt	-12.0844
sokais	-12.0876
ylenkatse	-12.0899
hiljaisuude	-12.0906
peori	-12.0915
hajalla	-12.0924
hartaa	-12.0933
taivaallise	-12.0965
vuoteesee	-12.0992
sotaväke	-12.1011
kärsivällisyyde	-12.1094
aakis	-12.1121
lintuj	-12.1146
kiroil	-12.1147
käyköö	-12.1147
kyy	-12.1159
jalusto	-12.1211
ebjatar	-12.1264
pitäköö	-12.1281
kuninkaall	-12.1328
viikko	-12.1343
perkelee	-12.1383
rypäleit	-12.1391
kaikkeinpyhim	-12.1437
yljä	-12.1504
tapahtuko	-12.1536
kaisla	-12.1551
kodi	-12.1578
kiivastu	-12.1582
lähimmä	-12.1593
haltija	-12.1594
auringonnousu	-12.1594
granaattiomena	-12.1594
huuram	-12.1594
karsikko	-12.1594
kymbaale	-12.1594
poiket	-12.1594
pöyhkei	-12.1594
tähystäjä	-12.1594
viivyttele	-12.1594
yhteyde	-12.1594
ahitubi	-12.1594
iisboset	-12.1594
iltahämärä	-12.1594
kaksinkertaise	-12.1594
katsahti	-12.1594
kauhistavi	-12.1594
kultakuppi	-12.1594
kurjuute	-12.1594
lapsukaise	-12.1594
lähtö	-12.1594
maanjäristys	-12.1594
magdaleena	-12.1594
mahanaimi	-12.1594
naapurei	-12.1594
nuhtelu	-12.1594
pakanakansoi	-12.1594
pystytä	-12.1594
salmunna	-12.1594
teurastu	-12.1594
valtikka	-12.1594
viininkorjuu	-12.1594
barsillai	-12.1594
haudois	-12.1594
helpomp	-12.1594
huolehti	-12.1594
keihäi	-12.1594
siklagi	-12.1594
niskoitell	-12.1594
rajuilma	-12.1594
ruoste	-12.1594
varoitti	-12.1594
betania	-12.1594
ripusta	-12.1594
siunaisi	-12.1594
käsivarsi	-12.1594
notkist	-12.1594
helvet	-12.1594
poske	-12.1594
paikkakunna	-12.1594
saastuta	-12.1594
ryöstettävä	-12.1594
harhaile	-12.1594
rauda	-12.1595
tiili	-12.1595
valhettele	-12.1595
huoneenhaltija	-12.1595
luopio	-12.1595
batseba	-12.1595
verivela	-12.1595
paatumukse	-12.1595
noiden	-12.1595
silmillä	-12.1595
megiddo	-12.1595
ngissä	-12.1595
pidettävä	-12.1595
puoleise	-12.1595
palvelustehtävä	-12.1595
tarsiin	-12.1596
jäseniä	-12.1596
omatunto	-12.1596
geseri	-12.1596
paljastettu	-12.1596
hyvyyttä	-12.1596
kilju	-12.1596
pilvenpatsa	-12.1597
koetukse	-12.1597
rangaistav	-12.1597
paarani	-12.1597
mielui	-12.1598
koiruoho	-12.1598
nauha	-12.1598
osui	-12.1598
goomer	-12.1599
ehye	-12.1599
sikri	-12.16
baana	-12.1601
addai	-12.1601
päälae	-12.1603
paeta	-12.1604
kaatuneit	-12.1606
heltee	-12.1607
hekuma	-12.1615
koetta	-12.1618
ympäröivä	-12.1621
anias	-12.1627
länsipuol	-12.163
lääk	-12.1633
hanani	-12.1635
halkoj	-12.1639
kuuliaisuu	-12.1645
luvall	-12.1648
kulmakive	-12.1651
iloise	-12.1654
varustuksi	-12.166
naul	-12.1666
ihanuu	-12.1676
kannel	-12.1677
synkeyde	-12.169
pysyköö	-12.1695
pakolai	-12.1701
ympärileikkaukse	-12.1706
palkkalaise	-12.1714
kahlee	-12.1718
telinee	-12.1719
kiitosvir	-12.1719
otteli	-12.175
kankaas	-12.1762
ontuva	-12.177
suitsutusalttari	-12.1778
varustee	-12.1789
leiriytyköö	-12.1792
päällysmiehi	-12.1803
kaltaisiks	-12.1808
suink	-12.1812
heettiläi	-12.1881
midianilaise	-12.1917
väkivaltaist	-12.1918
ukkuu	-12.1927
riemuvuote	-12.1949
pyytämä	-12.195
aio	-12.1951
isaskar	-12.1976
tunto	-12.1984
rakkai	-12.2007
havainn	-12.2034
erroin	-12.2038
leipi	-12.2127
häväis	-12.2131
tähtee	-12.2222
omantun	-12.2233
helakanpunais	-12.2297
kaluine	-12.2305
nuhteettomast	-12.2326
vadi	-12.2353
hivviläis	-12.2375
onyks	-12.241
voittaisi	-12.2413
rangaist	-12.2419
löyd	-12.2432
muihi	-12.2453
syynalais	-12.2484
vaiheill	-12.2489
kauhistava	-12.2503
apollo	-12.2503
idästä	-12.2503
kaksois	-12.2503
lehtimajo	-12.2503
selofhadi	-12.2503
syyhelmä	-12.2503
tyhmyy	-12.2503
yhdelle	-12.2503
berekja	-12.2503
daagoni	-12.2503
diibon	-12.2503
egloni	-12.2503
haggai	-12.2503
heinäsirka	-12.2503
iskariot	-12.2503
jegiel	-12.2503
kahdeksas	-12.2503
karitsoita	-12.2503
kelvolli	-12.2503
kurjuutta	-12.2503
kurkku	-12.2503
käskynhaltijoi	-12.2503
lankeemukse	-12.2503
lasarus	-12.2503
lähdettyä	-12.2503
löydetty	-12.2503
niilivirra	-12.2503
niilivirta	-12.2503
oofiri	-12.2503
peräyty	-12.2503
pyyhki	-12.2503
rohkeutta	-12.2503
seppele	-12.2503
sippor	-12.2503
sirppi	-12.2503
sisimpään	-12.2503
säiliö	-12.2503
viiniköynnös	-12.2503
hyppi	-12.2503
keskimmäi	-12.2503
lohdutus	-12.2503
meluisa	-12.2503
murehdi	-12.2503
niskoittele	-12.2503
pauhat	-12.2503
ukkosenjylinä	-12.2503
elintarpei	-12.2503
jaafet	-12.2503
kierrel	-12.2503
leveyde	-12.2503
musersi	-12.2503
vaikeroi	-12.2503
vähemmä	-12.2503
debiri	-12.2503
maksanlisäk	-12.2503
porras	-12.2503
ribla	-12.2503
sovelias	-12.2503
särjetty	-12.2503
ylimyksi	-12.2503
heemani	-12.2503
koetella	-12.2503
sakaria	-12.2503
peitetty	-12.2503
töissä	-12.2503
kirkkaa	-12.2503
koetteli	-12.2503
köyhyy	-12.2503
korento	-12.2503
uskollisuute	-12.2503
myydä	-12.2503
talve	-12.2503
tuhoutu	-12.2503
elatukse	-12.2504
haanun	-12.2504
heeferi	-12.2504
kaunistukse	-12.2504
löydetä	-12.2504
milka	-12.2504
palvelijatarta	-12.2504
paljai	-12.2504
koristepien	-12.2504
virtoje	-12.2504
huostaan	-12.2504
muserta	-12.2504
oikeamielisi	-12.2504
rankkasa	-12.2504
karkasi	-12.2504
seurakunnill	-12.2504
oviauko	-12.2504
peljänn	-12.2504
ylpeit	-12.2505
ylemp	-12.2505
hoorebill	-12.2505
talutta	-12.2505
pantti	-12.2505
hiili	-12.2505
peruste	-12.2505
aviorikokse	-12.2505
kivijumalain	-12.2505
meriba	-12.2505
raiska	-12.2505
riistaa	-12.2505
sorro	-12.2505
kylvetä	-12.2505
arvele	-12.2506
monilukuis	-12.2506
riiteli	-12.2506
tarvita	-12.2506
varsink	-12.2507
hoomer	-12.2509
villiaasi	-12.251
kytk	-12.2511
asujattom	-12.2515
katsast	-12.2518
portai	-12.2518
petty	-12.2519
harrani	-12.2519
kupeis	-12.2522
raavaitte	-12.2524
heikkoude	-12.253
äidinkohdu	-12.2538
lemek	-12.2539
kisko	-12.2545
neuvotel	-12.2566
lehdet	-12.2569
päällys	-12.257
sodi	-12.2577
sovitet	-12.2585
osuude	-12.2588
lentää	-12.2609
ikävöitse	-12.2616
nälkäise	-12.2661
vaivaise	-12.2677
teurastettav	-12.2727
uhriteuraan	-12.2729
evästä	-12.2731
jordan	-12.2762
pitkämielisyy	-12.2864
upot	-12.2867
voidel	-12.2871
leeviläis	-12.2926
gilead	-12.2964
filistealai	-12.2979
hillit	-12.3
altis	-12.3065
raak	-12.3069
asser	-12.3109
libanon	-12.3122
tilaisuu	-12.3134
kuuliaisi	-12.3154
vuodat	-12.3162
vähäise	-12.3185
siidonilais	-12.3199
nasareti	-12.3321
egyptiläi	-12.3328
pimeyt	-12.3331
pysähty	-12.3333
liika	-12.3362
vaivaist	-12.3377
torju	-12.3414
kukkaleh	-12.3432
millo	-12.3482
töid	-12.3487
ylvä	-12.3498
tähkäpä	-12.3502
elifele	-12.3503
halveksu	-12.3503
hyökänn	-12.3503
kalleimma	-12.3503
maapalsta	-12.3503
närkästy	-12.3503
tekeyty	-12.3503
urotöistä	-12.3503
ammihud	-12.3503
barnabaan	-12.3503
beltsassar	-12.3503
debora	-12.3503
efrata	-12.3503
etunenässä	-12.3503
festus	-12.3503
gerari	-12.3503
hadareseri	-12.3503
hammasten	-12.3503
iljettävyy	-12.3503
jeroham	-12.3503
kahdella	-12.3503
kansleri	-12.3503
kelvottomi	-12.3503
kirjanoppinut	-12.3503
kätilövaimo	-12.3503
lehtimajanjuhla	-12.3503
lunastukse	-12.3503
melkisedek	-12.3503
nykyise	-12.3503
ohdakkei	-12.3503
paadutti	-12.3503
poltetu	-12.3503
pyyntö	-12.3503
päästyä	-12.3503
safiiri	-12.3503
sanballat	-12.3503
sealtieli	-12.3503
taidollisuude	-12.3503
tuubal	-12.3503
vihdoin	-12.3503
adullami	-12.3503
askeloni	-12.3503
lyijy	-12.3503
myöhemmi	-12.3503
vaikkei	-12.3503
yllyttä	-12.3503
jalkoihin	-12.3503
joutuma	-12.3503
lähettäisi	-12.3503
raafa	-12.3503
ripusti	-12.3503
sefanja	-12.3503
joppe	-12.3503
mieletön	-12.3503
nahson	-12.3503
höyste	-12.3503
päätös	-12.3503
seitsenkertai	-12.3503
vanhukse	-12.3503
mamre	-12.3503
varuilla	-12.3503
matkusta	-12.3503
yhdistety	-12.3503
hukkaan	-12.3503
eehud	-12.3503
puhalla	-12.3503
taabori	-12.3503
soitto	-12.3503
taampa	-12.3503
yhdentenä	-12.3503
kahlauspaik	-12.3503
akkuna	-12.3503
jetro	-12.3503
pyri	-12.3503
hamori	-12.3504
isännälle	-12.3504
työnteettäj	-12.3504
huuhto	-12.3504
silmistä	-12.3504
veljine	-12.3504
koetti	-12.3504
pilkullis	-12.3504
ruoki	-12.3504
turviin	-12.3504
punonnais	-12.3504
havaitse	-12.3504
kiivaile	-12.3504
nielais	-12.3504
lapio	-12.3504
lampunjala	-12.3505
viitan	-12.3505
kedekse	-12.3505
palvelijoine	-12.3505
töitte	-12.3505
barnea	-12.3505
murtautu	-12.3505
kärsimys	-12.3505
kaifa	-12.3506
sylissä	-12.3506
lahjus	-12.3506
jäähyväis	-12.3506
tähkäpäät	-12.3507
aaveni	-12.3507
hellit	-12.3507
koetelt	-12.3507
päähinee	-12.3508
imettävä	-12.3508
kangas	-12.3509
heber	-12.3511
ikiaiko	-12.3517
tuoree	-12.3517
vakooj	-12.3521
ihmetel	-12.3554
maakunti	-12.3566
voittanee	-12.3572
tapaust	-12.3575
gatilaise	-12.3596
verhoutu	-12.3654
valkais	-12.3658
kumpaa	-12.3678
sadall	-12.3683
kaarne	-12.3686
kuollei	-12.3712
peittäköö	-12.3756
ähkää	-12.376
ruuku	-12.3772
valjast	-12.3777
rautaise	-12.38
sadanpäämiehi	-12.3803
siifi	-12.3865
kiittäköö	-12.3888
tasangoll	-12.3889
karmel	-12.3917
"	-12.3924
aarre	-12.3939
hebrealaist	-12.3995
etupuol	-12.4077
huojenn	-12.4133
tasais	-12.4304
etupuolell	-12.4309
maatil	-12.4317
maallisi	-12.4322
otettako	-12.447
säädöksi	-12.453
joutuva	-12.4556
filistea	-12.4571
äsken	-12.4579
fariseus	-12.4611
ilkku	-12.4613
eefer	-12.4614
kärsivällis	-12.4614
inhottavi	-12.4614
nuppu	-12.4614
profetia	-12.4614
rohkeude	-12.4614
2:1	-12.4614
haggi	-12.4614
hyljit	-12.4614
irroitet	-12.4614
jäljennö	-12.4614
kumpaise	-12.4614
käärelakki	-12.4614
leijoni	-12.4614
leukaluu	-12.4614
liinavaattee	-12.4614
maaherro	-12.4614
makkeda	-12.4614
perinnön	-12.4614
raadeltu	-12.4614
stefanu	-12.4614
teltoissa	-12.4614
tessalonika	-12.4614
ylpisty	-12.4614
ystäville	-12.4614
aikaisemmi	-12.4614
aleksand	-12.4614
arpaksad	-12.4614
edemmä	-12.4614
eljoenai	-12.4614
haavoitettu	-12.4614
huudeta	-12.4614
hävyn	-12.4614
jälkikorjuu	-12.4614
kahdeksi	-12.4614
kornelius	-12.4614
matalamm	-12.4614
palvelijattaria	-12.4614
puolue	-12.4614
ryntäsi	-12.4614
silmänräpäykse	-12.4614
uhrikukkuloita	-12.4614
valtasuuruute	-12.4614
vedenpaisumus	-12.4614
viinitarhurei	-12.4614
ylemmä	-12.4614
yllytti	-12.4614
▁¦39:3	-12.4614
huuhdot	-12.4614
kumpu	-12.4614
kärsimykse	-12.4614
paikoissa	-12.4614
peukalo	-12.4614
poltettu	-12.4614
puhtaude	-12.4614
synneissä	-12.4614
ulevaisuus	-12.4614
yltäkyll	-12.4614
ystäviä	-12.4614
feeliks	-12.4614
haihtu	-12.4614
houkka	-12.4614
palmik	-12.4614
purjehd	-12.4614
seinäpatsais	-12.4614
toimitettava	-12.4614
yltäkylläisyy	-12.4614
asmavet	-12.4614
jumalaapelkääväi	-12.4614
paikoista	-12.4614
sadosta	-12.4614
herkeä	-12.4614
hajotti	-12.4614
jekonja	-12.4614
nenärenkaa	-12.4614
sakkur	-12.4614
elisabet	-12.4614
penuel	-12.4614
besalel	-12.4614
haarimi	-12.4615
kävelevä	-12.4615
lähettilää	-12.4615
hapatus	-12.4615
kiristy	-12.4615
astarte	-12.4615
täytetty	-12.4615
erinomai	-12.4615
karkoitettu	-12.4615
doori	-12.4615
sebadja	-12.4615
lampunjalkaa	-12.4615
suurempa	-12.4615
pauhu	-12.4615
pääsiäislammas	-12.4615
vaihtee	-12.4615
haaruk	-12.4615
kielisoittimi	-12.4615
sairastui	-12.4615
ukkose	-12.4615
viskasi	-12.4615
virkosi	-12.4615
kätkeyty	-12.4615
vasikoi	-12.4615
pienimmä	-12.4615
loukkaantu	-12.4615
sooari	-12.4615
renkais	-12.4616
noituu	-12.4616
sydämii	-12.4616
soofa	-12.4616
syyria	-12.4616
noustessa	-12.4617
korkeill	-12.4617
kasvit	-12.4618
synnyinmaa	-12.4618
aukeall	-12.4618
manteli	-12.4618
vastakkai	-12.4618
tupsu	-12.4619
riitautu	-12.4619
turvautu	-12.4621
maakunnis	-12.4621
kävell	-12.4621
pihka	-12.4622
talenti	-12.4623
pituude	-12.4625
pisto	-12.4628
avautu	-12.4628
yhteysuhriteura	-12.463
kurittom	-12.4631
horma	-12.4636
lähettiläi	-12.4642
uhrann	-12.4656
ofra	-12.4665
eudet	-12.468
hakema	-12.4719
vietell	-12.4735
kuori	-12.4738
joukkoine	-12.4738
huomann	-12.4775
vuodateta	-12.4791
rapp	-12.4815
viidennes	-12.4867
runnel	-12.4892
vakuutt	-12.4896
saddukeuks	-12.4929
polttouhrei	-12.4957
voittaj	-12.5013
jälj	-12.5017
eeloni	-12.5041
eteläpuol	-12.51
midianilaisi	-12.5153
kääntyköö	-12.5177
sumuksessa	-12.5344
villihär	-12.537
iläisiä	-12.5433
uhreihin	-12.5489
yhtäläi	-12.5495
syntiuhrimullik	-12.5738
ahasvero	-12.5744
ylistäköö	-12.5745
maist	-12.5758
ahdettu	-12.5796
daarejave	-12.5803
isyyteen	-12.5805
valhetell	-12.5807
kanaanilaisi	-12.581
.	-13.2875
!	-13.2909
`	-14.1115
;	-14.1216
)	-15.1274
z	-15.1792
/	-15.1793
]	-15.1793
