<pad>	0
</s>	0
<unk>	0
¦	-1.40077
▁¦	-1.43447
▁.	-4.16746
▁,	-4.73054
त	-4.95686
े	-5.00956
ा	-5.11737
न	-5.13492
ी	-5.16567
ं	-5.18084
आहे	-5.20181
क	-5.22594
ल	-5.25151
च्या	-5.30673
आणि	-5.37079
स	-5.45272
र	-5.45539
व	-5.5155
ला	-5.54469
या	-5.54977
▁	-5.6923
चा	-5.70355
च	-5.71576
वा	-5.73476
म	-5.74036
य	-5.7496
ची	-5.77057
ही	-5.87697
ने	-5.96778
अ	-5.98361
ो	-5.98854
ट	-5.99475
मध्ये	-6.0259
चे	-6.04878
ात	-6.07539
ज	-6.09462
ना	-6.10144
प	-6.13702
त्या	-6.17708
ू	-6.2122
द	-6.21266
ड	-6.21378
कोरोना	-6.24607
ग	-6.26568
ब	-6.28767
्या	-6.28912
ह	-6.32789
ते	-6.33431
का	-6.33593
आहेत	-6.38422
ले	-6.39007
-	-6.43581
आ	-6.44317
वर	-6.44851
ील	-6.47883
ता	-6.48413
ित	-6.51373
श	-6.52835
𐊣	-6.53283
𐊼	-6.53283
नाही	-6.54233
ळ	-6.54936
वि	-6.56003
सा	-6.5731
ली	-6.57385
पा	-6.58645
हे	-6.62053
प्र	-6.63295
हा	-6.63371
्	-6.63707
ून	-6.6444
ण	-6.64677
साठी	-6.69546
रा	-6.69565
मा	-6.70166
ल्या	-6.70378
चं	-6.71353
फ	-6.72466
ध	-6.75235
र्	-6.75709
ु	-6.79353
▁"	-6.80888
पण	-6.80922
की	-6.81196
किं	-6.82979
▁(	-6.83001
सं	-6.83011
लस	-6.83339
शी	-6.8353
तर	-6.84558
▁)	-6.85895
𐋇	-6.87159
्य	-6.89711
▁'	-6.91695
ख	-6.92113
ि	-6.92518
आरोग्य	-6.94102
री	-6.94437
इ	-6.94603
एक	-6.95546
काही	-6.95823
िक	-6.96764
यांनी	-6.97687
मुळे	-7.00663
▁?	-7.01161
ती	-7.01752
नि	-7.02562
थ	-7.03021
करण्यात	-7.05579
कमी	-7.059
क्	-7.0673
ई	-7.11694
विषाणू	-7.12888
1	-7.1368
ाच्या	-7.14151
शकत	-7.17192
असं	-7.17643
केली	-7.18671
रि	-7.18678
-19	-7.19421
सर्व	-7.20615
वे	-7.21193
ज्या	-7.2258
होत	-7.23642
ॅ	-7.24543
2	-7.27153
दा	-7.27379
वापर	-7.27762
स्	-7.28591
पासून	-7.28705
ंड	-7.29481
लं	-7.30321
णे	-7.30816
मान	-7.30824
के	-7.31994
वाढ	-7.32225
करोना	-7.32531
उ	-7.32681
पर्यंत	-7.32872
व्ह	-7.33076
येत	-7.33569
माहिती	-7.34827
आले	-7.35256
सरकार	-7.36475
करण्या	-7.37808
करत	-7.37952
होते	-7.39829
को	-7.40205
से	-7.40369
▁:	-7.40545
रो	-7.41039
भ	-7.4136
सुरू	-7.41639
संसर्ग	-7.42446
ष	-7.42461
काम	-7.42643
वी	-7.42728
केले	-7.42967
कोव्हिड	-7.4303
ाला	-7.43515
सि	-7.43806
रुग्ण	-7.44393
ांना	-7.44761
.	-7.44814
राज्य	-7.44978
डॉ	-7.45012
जे	-7.45016
्स	-7.45347
लशी	-7.45885
7	-7.46018
जा	-7.46276
e	-7.46307
नी	-7.46693
i	-7.47147
बंद	-7.47574
क्ष	-7.47862
a	-7.48651
स्ट	-7.48962
r	-7.49097
ए	-7.50486
लि	-7.50636
लसीकरण	-7.51093
कार	-7.51262
मिळ	-7.5206
ाय	-7.52402
ंग	-7.53051
रुग्णां	-7.53496
ऑक्सिजन	-7.53512
जात	-7.5439
टी	-7.54589
जास्त	-7.54641
इतर	-7.54972
ातील	-7.55014
अनेक	-7.56521
बा	-7.56752
ठ	-7.57038
नंतर	-7.58297
8	-7.5893
होती	-7.58949
१	-7.59097
4	-7.59171
आली	-7.59732
होता	-7.6026
ण्यासाठी	-7.60584
सह	-7.61114
अधिक	-7.62122
कडे	-7.62162
केला	-7.62294
हात	-7.62361
एका	-7.62644
रे	-7.63103
असलेल्या	-7.63593
व्हायरस	-7.6366
c	-7.63798
t	-7.64178
पेक्षा	-7.6505
काय	-7.65224
तो	-7.65647
ाने	-7.65895
शि	-7.66077
करण्यासाठी	-7.66494
शा	-7.66722
s	-7.67523
मृत्यू	-7.67702
मी	-7.67741
गा	-7.67995
दर	-7.68831
कर	-7.69513
नुसार	-7.69696
झ	-7.70181
9	-7.70411
3	-7.70462
ावर	-7.70562
जी	-7.70616
२	-7.70758
देश	-7.70963
उपचार	-7.71184
ाचा	-7.71303
अस	-7.71531
▁-	-7.72767
तील	-7.73033
ंना	-7.73107
ाची	-7.73159
तयार	-7.73451
केंद्र	-7.73648
6	-7.73879
न्	-7.74099
झाला	-7.74599
ासाठी	-7.74708
झाल्या	-7.75533
झाली	-7.75593
ांमध्ये	-7.7568
डि	-7.76026
प्रति	-7.76053
ांनी	-7.76076
सी	-7.76097
चाचणी	-7.76119
प्	-7.76133
सु	-7.76902
covid	-7.7789
णार	-7.7815
मे	-7.78603
०	-7.78643
राज्यात	-7.78742
व्यक्ती	-7.79091
दोन	-7.79499
डी	-7.79589
करून	-7.80394
खा	-7.80769
आजार	-7.81115
त्यांच्या	-7.81306
लॉकडाऊन	-7.81325
कारण	-7.81335
रोग	-7.82363
संख्या	-7.82701
औषध	-7.82774
यांच्या	-7.83413
म्हणून	-7.83883
ण्यात	-7.83922
असे	-7.84064
लोकां	-7.84507
कडून	-7.846
ांची	-7.84815
घा	-7.8525
दिवस	-7.85756
पर	-7.86964
असेल	-7.87951
मधील	-7.88093
त्	-7.88202
क्त	-7.88517
अशा	-7.89165
झालेल्या	-7.89198
भर	-7.89291
ति	-7.90121
ै	-7.90126
कि	-7.91029
पुर	-7.91594
मार्च	-7.91714
ांच्या	-7.91823
पड	-7.92204
ब्	-7.92507
परिणाम	-7.92629
त्यांना	-7.92953
िंग	-7.93042
दिली	-7.93091
गेल्या	-7.9328
नं	-7.93468
आता	-7.93728
घ	-7.93738
तरी	-7.94125
लोक	-7.94146
यु	-7.94677
परिस्थिती	-7.94967
भा	-7.95003
p	-7.96128
पे	-7.96137
होऊ	-7.96143
देण्यात	-7.96631
उपलब्ध	-7.971
त्र	-7.97285
णं	-7.97643
v	-7.97825
बाबत	-7.97907
णाऱ्या	-7.98216
5¦	-7.98248
टक्के	-7.98311
हि	-7.98552
o	-7.98751
म्हणजे	-7.99568
ीत	-7.99577
शाळा	-7.99665
म्हटलं	-8.00279
मात्र	-8.0066
जर	-8.00764
जि	-8.00843
व्या	-8.01906
आम्ही	-8.02034
करणे	-8.02071
केल्या	-8.02223
5	-8.02237
म्हणाले	-8.02541
आला	-8.02962
त्यांनी	-8.0309
न्स	-8.03125
त्यामुळे	-8.03631
जन	-8.03653
केलं	-8.03714
असा	-8.03747
ओ	-8.03819
हजार	-8.03833
स्व	-8.0396
n	-8.0402
ांत	-8.04498
ंचा	-8.05354
लक्षण	-8.05425
धा	-8.0547
वेळ	-8.05669
मु	-8.05836
णी	-8.05981
,	-8.06353
टे	-8.0641
एप्रिल	-8.07223
अशी	-8.07568
मि	-8.07652
असल्याच	-8.07853
घेत	-8.07992
▁¦2020	-8.08025
र्स	-8.0824
स्त	-8.08999
मोठ्या	-8.09257
आढळ	-8.09806
डोस	-8.10216
ाचे	-8.104
ट्र	-8.10881
ह्या	-8.11067
टि	-8.11355
असून	-8.1153
सध्या	-8.12138
्यात	-8.12675
महाराष्ट्रात	-8.12697
लक्ष	-8.12719
४	-8.13828
भाग	-8.14071
प्रकार	-8.14099
असल्याचं	-8.14141
घट	-8.14161
co	-8.14741
स्थिती	-8.14801
पी	-8.14937
होतं	-8.15223
कु	-8.15379
देशात	-8.15555
भारतात	-8.15702
पो	-8.15907
लो	-8.16127
▁."	-8.16191
झाले	-8.16507
येई	-8.17013
म्	-8.1715
महाराष्ट्र	-8.17305
सांगता	-8.17447
स्थ	-8.17447
m	-8.17596
लाख	-8.17868
राज	-8.17921
करा	-8.18142
दिले	-8.18537
पैकी	-8.18785
ंनी	-8.18839
सरकारने	-8.19079
टा	-8.19232
३	-8.19385
कोविड	-8.19686
वैद्यकीय	-8.19988
पूर्ण	-8.20181
निर्णय	-8.20336
दी	-8.20418
0¦	-8.20519
ठेव	-8.20804
प्रसार	-8.20916
ेल	-8.21152
प्रमाण	-8.21649
बदल	-8.22497
ण्याची	-8.22747
५	-8.2306
आवश्यक	-8.23442
आलं	-8.23793
सांगितलं	-8.24001
्यु	-8.24139
वाट	-8.24205
ढ	-8.24229
ंची	-8.24293
होतो	-8.24371
गरज	-8.24409
गु	-8.24535
सोबत	-8.2464
गंभीर	-8.2495
ौ	-8.25269
लोकांना	-8.2529
ायला	-8.25502
ठर	-8.2559
नवीन	-8.25917
ंच्या	-8.26197
h	-8.26553
ंद	-8.2674
d	-8.26877
ृ	-8.27711
दिवसां	-8.28071
मास्क	-8.28185
ँ	-8.28503
आपल्या	-8.28555
ण्याच	-8.2902
माग	-8.29394
संसर्गा	-8.29544
होणार	-8.30192
णा	-8.30343
दुसऱ्या	-8.30507
मुलां	-8.30534
प्रवास	-8.30557
मोठ	-8.30595
मदत	-8.3062
मो	-8.30779
ंट	-8.30811
वरील	-8.30826
l	-8.31182
काळ	-8.31417
द्वार	-8.31522
संपर्क	-8.31861
समावेश	-8.32213
शे	-8.3232
चीन	-8.32434
डे	-8.32434
वेळी	-8.3261
वर्	-8.33229
होण्या	-8.33533
पत्र	-8.33837
गेल	-8.3421
देख	-8.3428
2¦	-8.34405
करू	-8.34446
ामध्ये	-8.34632
्ट	-8.35396
कार्य	-8.35465
शिक्षण	-8.35681
मुंबई	-8.35731
्र	-8.36172
ऊ	-8.3633
पूर्वी	-8.36364
ल्यानंतर	-8.37085
ांचा	-8.37432
रुग्णालयात	-8.37467
घ्या	-8.37629
शकते	-8.37683
सीओव्ही	-8.37827
ठाकरे	-8.3819
आल्या	-8.38632
जो	-8.3868
ेस	-8.38689
आज	-8.38801
लेल्या	-8.39056
ग्	-8.39187
बद्दल	-8.39285
द्या	-8.39309
घर	-8.39815
आठवड	-8.40021
ांवर	-8.40044
बो	-8.40199
विचार	-8.40546
पुढे	-8.40764
आपण	-8.40814
नाहीत	-8.41421
अॅ	-8.41441
काळात	-8.41616
दरम्यान	-8.41887
3¦	-8.42676
उप	-8.42964
शोध	-8.43025
ेश	-8.4336
विषय	-8.43415
शक्यता	-8.43491
चार	-8.43666
मन	-8.4392
दु	-8.44133
रण	-8.4414
जागतिक	-8.44173
कल	-8.44206
रु	-8.44459
/	-8.44947
आलेल्या	-8.451
जाहीर	-8.45339
कोण	-8.45388
ठा	-8.45519
बि	-8.45868
गो	-8.45943
निर्माण	-8.46119
६	-8.46119
तीन	-8.46336
सेवा	-8.46356
येथ	-8.46916
नोंद	-8.47019
निर्बंध	-8.47304
डॉक्टर	-8.47679
परवानगी	-8.47703
पसर	-8.47731
बाहेर	-8.48105
्यू	-8.48191
बाधित	-8.48505
मुख्यमंत्र	-8.48605
ग्र	-8.48832
येणार	-8.48912
आधी	-8.48913
म्हणतात	-8.48927
लागत	-8.49193
ांसाठी	-8.49596
टो	-8.49663
असते	-8.49699
असलेल	-8.49744
प्रमाणात	-8.49809
फे	-8.50108
sars	-8.50127
तुम्हाला	-8.50127
हॉस्पिटल	-8.50127
केलेल्या	-8.50158
लसी	-8.50355
▁¦10	-8.50598
पु	-8.50613
महत्त्वाच	-8.50774
ंमध्ये	-8.50974
जाऊ	-8.51015
लाटे	-8.51187
लागू	-8.51393
चाचण्या	-8.51463
८	-8.51777
ऑ	-8.51833
यांना	-8.52076
संच	-8.52167
ीय	-8.52345
पि	-8.52455
डा	-8.52481
भारत	-8.52818
करणार	-8.53139
दिसून	-8.53955
तात	-8.54103
अमेरिक	-8.54303
दाखल	-8.54309
पहिल्या	-8.54731
प्रयत्न	-8.5516
बोलता	-8.55315
प्रश्न	-8.55591
योग्य	-8.55685
जाई	-8.55833
काढ	-8.55838
रोजी	-8.55855
कोटी	-8.56635
मंत्री	-8.56907
श्वसन	-8.57334
जाते	-8.57554
साध	-8.57747
शक	-8.57837
ठिकाणी	-8.57961
अर्थ	-8.58218
आजारा	-8.58272
कोणत्या	-8.58456
वाढत	-8.59557
काळजी	-8.59618
ताप	-8.59771
मागणी	-8.60051
ांचे	-8.60241
एन	-8.60446
याचा	-8.6055
दिसत	-8.60799
-2	-8.60828
ऑफ	-8.60851
▁;	-8.60968
र्ड	-8.61008
तून	-8.61231
कंपनी	-8.6137
म्हण	-8.61617
करणाऱ्या	-8.61921
योग	-8.61993
नियंत्रण	-8.62095
पुरवठा	-8.6229
धोका	-8.623
संबंधित	-8.62402
विभागा	-8.62711
विकस	-8.62796
कोरोनाची	-8.62906
0	-8.63666
असताना	-8.63741
प्रमाणे	-8.64235
महा	-8.64301
आधार	-8.64633
धु	-8.64701
उत्पादन	-8.651
पुन्हा	-8.651
मधून	-8.6558
▁¦20	-8.65732
भागात	-8.66049
तु	-8.66164
करता	-8.66318
मला	-8.66456
भाव	-8.66468
सामान्य	-8.66983
रुग्णालय	-8.67044
हून	-8.67515
फि	-8.67991
उद्धव	-8.67992
झा	-8.68012
पाळ	-8.68183
मोदी	-8.68525
वर्ष	-8.68549
टेस्ट	-8.68595
00	-8.6865
परीक्षा	-8.68976
स्पष्ट	-8.68985
राज्या	-8.69106
घरी	-8.69446
प्रत्येक	-8.6947
बीबीसी	-8.6947
मार्ग	-8.69478
नागरिकां	-8.69608
तेव्हा	-8.6962
पंतप्रधान	-8.69967
नसल्या	-8.69986
टाळ	-8.70222
९	-8.70416
पद्धती	-8.70467
सार्स	-8.7074
द्ध	-8.70805
योज	-8.7088
दार	-8.70949
ेशन	-8.7136
जीव	-8.71669
देशां	-8.71771
नाव	-8.71901
u	-8.71982
गेले	-8.72185
दिल्ली	-8.72492
रक्त	-8.72543
ातून	-8.72644
असू	-8.72953
दिला	-8.7301
महिन्या	-8.73179
तुम्ही	-8.73521
एस	-8.73567
किती	-8.73766
रूग्णां	-8.73853
सर्	-8.73976
विशेष	-8.74039
साथी	-8.74045
सुरुवात	-8.74047
वाद	-8.74349
▁¦19	-8.74614
वय	-8.74693
आर	-8.74699
बैठक	-8.75083
टप्प्या	-8.75083
होई	-8.75086
ड्र	-8.75233
त्व	-8.75247
सार्वजनिक	-8.7561
जानेवारी	-8.7561
ताना	-8.75876
आय	-8.75972
उत्तर	-8.76054
कर्मचाऱ्यां	-8.76139
डेटा	-8.762
संख्य	-8.76205
सूचना	-8.76366
याची	-8.76484
श्र	-8.76544
नव्हत	-8.77256
उच्च	-8.77743
रुग्णांना	-8.77829
लागण	-8.78095
ेंद्र	-8.78284
शिवाय	-8.78831
पाठव	-8.78892
प्रतिबंध	-8.79373
महिन्यात	-8.79859
७	-8.79923
वेगळ	-8.79924
नियम	-8.80075
विद्यार्थ्यां	-8.80475
प्रभावी	-8.80476
राष्ट्रीय	-8.80486
लहान	-8.8061
याबाबत	-8.80925
पूर	-8.81278
करतात	-8.81379
गाव	-8.81739
घेण्या	-8.82058
बी	-8.8208
नये	-8.82362
कॅ	-8.82564
मध्य	-8.83239
वर्षां	-8.83249
पाहिजे	-8.83285
ात्मक	-8.83485
शहरात	-8.83498
g	-8.83821
संदर्भात	-8.83858
मते	-8.83874
लक्षणं	-8.84017
संपूर्ण	-8.84641
पॉझिटिव्ह	-8.85009
चर्चा	-8.85018
झालेल	-8.8517
ुद्धा	-8.85426
वर्षी	-8.85648
साम	-8.85821
पोहोच	-8.86175
ओळख	-8.86175
विविध	-8.86177
असतात	-8.86253
झालं	-8.86261
ठेवण्या	-8.86454
नमुन	-8.86548
श्वास	-8.86763
50¦	-8.87035
जगभरात	-8.87355
असतो	-8.87507
स्ट्र	-8.87877
निर्	-8.87903
अंदाज	-8.87951
अभ्यास	-8.88289
व्यक्त	-8.88418
करण्यास	-8.88526
कुटुंब	-8.88549
खाली	-8.88593
भारता	-8.88596
b	-8.89151
तीव्र	-8.89152
बस	-8.892
ार्थ	-8.89831
स्त्र	-8.90086
संबंध	-8.90218
गोष्टी	-8.90367
येऊ	-8.90371
ावं	-8.90444
घड	-8.90446
वर्षा	-8.91602
पूर्व	-8.91662
दुख	-8.91816
सारख्या	-8.92214
केसेस	-8.92221
आपल	-8.92235
क्रम	-8.92321
ियन	-8.92425
बोल	-8.9248
स्प	-8.93079
उपाय	-8.93154
व्हा	-8.93266
कालावधी	-8.93473
समोर	-8.93479
जोख	-8.93784
ंवर	-8.94158
घेतला	-8.94416
यासाठी	-8.94444
मंत्रालय	-8.94743
जिल्ह्यात	-8.94787
ट्स	-8.94798
ष्ट	-8.94904
प्रशासना	-8.9493
आढळले	-8.95014
पक्ष	-8.95032
जिल्ह्य	-8.9534
राहत	-8.95752
फेब्रुवारी	-8.96029
अंतर	-8.96046
देत	-8.96333
एकूण	-8.9668
त्यानंतर	-8.96867
तुमच्या	-8.97444
फार	-8.97645
मर्याद	-8.97991
केंद्रीय	-8.98066
दुकान	-8.98067
जाणार	-8.9821
सरकारी	-8.98231
जाण	-8.98528
खूप	-8.98656
कार्यक्रम	-8.98677
क्षेत्र	-8.98781
होण	-8.99261
रुग्णालया	-8.99285
f	-8.99319
असल्याने	-8.9932
अनु	-8.99326
बेड्स	-9.00036
पाच	-9.00485
ेवळ	-9.00557
सेच	-9.00584
र्ट	-9.0084
मुल	-9.00947
लढ	-9.01113
परि	-9.01417
ांचं	-9.01526
प्रयोग	-9.01542
त्रास	-9.01965
सेंटर	-9.02039
जेव्हा	-9.02099
शिक	-9.02235
शहर	-9.02282
दूर	-9.02285
सुरक्षित	-9.0272
▁“	-9.02724
स्वच्छ	-9.02747
परत	-9.02759
डॉक्टरां	-9.02761
गृह	-9.02881
ण्यास	-9.02995
ीकरण	-9.03206
केंद्रा	-9.03215
जिल्हा	-9.03415
प्रतिसाद	-9.03419
संशोधन	-9.03422
शक्य	-9.03429
रुग्णसंख्या	-9.03612
मधल	-9.03729
खासगी	-9.04114
जवळ	-9.04125
्व	-9.04524
सांगितले	-9.04818
सगळ्या	-9.04819
संक्रमण	-9.04819
अहवाल	-9.04821
रात्री	-9.04821
मुख्य	-9.05055
जातो	-9.05486
गर्दी	-9.05528
संस्था	-9.05553
तंत्र	-9.05555
२०	-9.05688
असतील	-9.05697
धुण्या	-9.05821
आण	-9.05881
वश्यक	-9.06083
आकडेवारी	-9.06242
निर्मिती	-9.06242
मूळ	-9.0625
दिस	-9.0634
सेल	-9.0646
w	-9.06962
शरीरात	-9.07225
देण्याच	-9.07302
वरून	-9.07533
आर्थिक	-9.07686
दोन्ही	-9.07687
उद्	-9.07817
छ	-9.0841
येणाऱ्या	-9.08422
अजून	-9.08423
घेऊन	-9.08744
जणां	-9.08938
एम	-9.0901
कर्मचारी	-9.09151
शिफारस	-9.09151
आदेश	-9.09241
प्रमुख	-9.09892
कार्यालय	-9.09894
▁¦12	-9.10121
लशीच्या	-9.10212
स्थानिक	-9.10702
आमच्या	-9.10821
दिल्या	-9.10861
मुंबईत	-9.11283
साबण	-9.11402
वेगान	-9.11563
समज	-9.11944
अधिकारी	-9.1215
▁¦14	-9.12236
प्रदेश	-9.12373
▁¦30	-9.12711
करताना	-9.1336
ग्रामीण	-9.1368
प्रवेश	-9.1369
क्षमता	-9.13696
विलगीकरण	-9.14456
करावी	-9.14622
घेतली	-9.15657
चाचण्यां	-9.15867
तज्ज्ञ	-9.15978
पुणे	-9.16155
▁¦15	-9.16811
कंपन्या	-9.16818
थांब	-9.16818
आणखी	-9.16818
सल्ला	-9.16821
▁‘	-9.16838
घेण	-9.16979
राम	-9.17079
ल्ल	-9.1727
होण्याची	-9.17548
▁’	-9.17627
टोपे	-9.17693
नव्या	-9.17931
गरजेच	-9.18252
पॅ	-9.18309
लॉकडाउन	-9.18424
उपस्थित	-9.18879
शक्ती	-9.19242
कधी	-9.19273
संकट	-9.19296
बरे	-9.19347
देण	-9.19791
बरोबर	-9.20057
पर्याय	-9.20216
तः	-9.20483
त्यांची	-9.2065
गेली	-9.20826
व्यवस्था	-9.20873
होणाऱ्या	-9.20885
बाजार	-9.20889
महिला	-9.20897
अन्य	-9.20902
संनिरीक्षण	-9.20927
यांचा	-9.20978
परंत	-9.21244
कृती	-9.21347
करणं	-9.21753
प्रमाणावर	-9.21861
घेण्यात	-9.21967
नागपूर	-9.22558
सर्वाधि	-9.22558
घोषणा	-9.22576
असणाऱ्या	-9.22708
in	-9.22744
बाब	-9.23136
क्षेत्रात	-9.23347
एचसीओव्ही	-9.23405
उद्रेका	-9.23447
द्द	-9.23867
प्रकरण	-9.24227
च्छ	-9.24227
दुसरी	-9.24313
बेड	-9.25088
who	-9.25121
तुलने	-9.25124
विकास	-9.25152
पत्रकार	-9.25267
विमान	-9.25287
आतापर्यंत	-9.25369
योजना	-9.25711
स्थाप	-9.25738
नगर	-9.26205
लशीं	-9.26742
राख	-9.26776
सुरु	-9.2695
सोड	-9.27111
दिव	-9.27287
युके	-9.27374
िष्ट	-9.27601
क्वारंटाईन	-9.27753
दाखव	-9.27892
प्राण	-9.28046
देशा	-9.28156
आमच	-9.28387
रुपय	-9.28411
भीती	-9.28651
प्रक्रिया	-9.28749
भार	-9.28773
ल्प	-9.28986
प्राथमिक	-9.29547
विरोधी	-9.29547
सुविधा	-9.29548
पुष्टी	-9.29622
आपल्याला	-9.29724
रूग्ण	-9.29872
टाक	-9.3026
रेमडेसिवीर	-9.30456
विरोधात	-9.30456
स्पर्श	-9.30457
भूत	-9.30477
झाल्यानंतर	-9.30743
़	-9.30841
व्हि	-9.30886
पुण्यात	-9.31036
ट्रेन	-9.31161
इन्स्टिट्यूट	-9.31373
इटली	-9.31377
नागरिक	-9.3204
आम्हाला	-9.32299
संघटने	-9.323
प्रवाशां	-9.32301
तपासणी	-9.3232
मृत्यु	-9.33234
अत्यं	-9.33234
संभाव्य	-9.33234
नसत	-9.33319
▁¦11	-9.33405
नियोजन	-9.33848
तुटवडा	-9.34177
वृत्त	-9.34178
ंतर्गत	-9.34178
संस्थे	-9.34179
तज्ज्ञां	-9.34233
थेट	-9.34267
इन्	-9.3435
कोणती	-9.34407
दुर्	-9.34469
सुरक्षा	-9.34946
सामाजिक	-9.3513
▁!	-9.35144
ॅक्स	-9.35229
मेंट	-9.35291
एकत्र	-9.35518
वर्ग	-9.35984
इंजेक्शन	-9.36091
ज्ञान	-9.36091
हळू	-9.36103
लवकर	-9.36107
शेवट	-9.36145
एखाद्या	-9.36195
चालू	-9.36257
तोंड	-9.3651
अध्यक्ष	-9.37062
असल्यास	-9.37065
देऊ	-9.37066
▁¦24	-9.37156
ल्ड	-9.37162
सोश	-9.37732
आव्हान	-9.38064
लोकांनी	-9.38508
फ्लू	-9.39032
अवलंब	-9.39033
जवळपास	-9.39033
पालन	-9.39087
जन्य	-9.39376
वुहान	-9.40032
खर्च	-9.40057
देता	-9.40394
पातळी	-9.40633
नोंदणी	-9.40834
ace	-9.41043
लोकसंख्ये	-9.41043
कोव्हॅक्सिन	-9.41076
देव	-9.41803
येण्या	-9.41812
वाहतूक	-9.42063
y	-9.42063
निदान	-9.42101
१९	-9.42167
पातळीवर	-9.42479
ांशी	-9.42743
मराठी	-9.43094
साधारण	-9.43095
तिथे	-9.43097
स्वतः	-9.43136
प्रकरणां	-9.43136
ग्रस्त	-9.4315
भारतीय	-9.43237
कृत	-9.43766
'	-9.43796
डिसेंबर	-9.44136
परिणामकारक	-9.44137
दिलं	-9.44137
छाती	-9.44144
अमरावती	-9.45188
निश्चित	-9.46252
सौम्य	-9.46252
बहुतांश	-9.46252
युरोप	-9.46255
भाजप	-9.46305
करावे	-9.46533
िटी	-9.46782
रेल्वे	-9.47327
व्हेंटिलेटर	-9.47327
उदाहरण	-9.47327
फोर्स	-9.47328
आरोप	-9.47349
त्यांचे	-9.47366
चिन	-9.48039
▁¦200	-9.48257
माध्यम	-9.48398
▁¦2019	-9.48414
पोलीस	-9.48417
आंतर	-9.48427
करावं	-9.4851
मुक्त	-9.4858
टास्क	-9.49516
बहु	-9.49518
थोड	-9.49609
▁¦18	-9.49642
स्थान	-9.49962
सांगत	-9.50184
विद्यार्थी	-9.50624
दररोज	-9.50625
माझ्या	-9.50626
कामगार	-9.50626
सचिव	-9.50626
मोहीम	-9.50639
घेण्यासाठी	-9.50874
अभ्यासा	-9.51109
तासां	-9.51531
जबाबदार	-9.51748
बायोटेक	-9.51749
सकाळी	-9.51756
तुमच	-9.51922
राष्ट्र	-9.52844
जैविक	-9.52884
अद्याप	-9.52886
अभि	-9.52886
सांगण्या	-9.52948
पवार	-9.52969
दुसरा	-9.54035
अनुभव	-9.5404
क्रिये	-9.54047
मान्यता	-9.5413
घेतले	-9.54446
क्रिया	-9.54991
तिसऱ्या	-9.55196
”	-9.55196
माध्यमातून	-9.55214
जगात	-9.55955
व्हेरियंट	-9.56373
प्रणाली	-9.56374
राजकीय	-9.56375
आपत्	-9.56375
चित्र	-9.56376
अन्न	-9.56392
राहिल	-9.56402
असल	-9.57061
लावल	-9.57262
पुढील	-9.57563
उद्योग	-9.57593
यंत्रणा	-9.58069
▁¦40	-9.58092
चिंता	-9.58768
सुमार	-9.58844
वाढवण्या	-9.59317
उद्रेक	-9.59927
प्रसिद्ध	-9.59988
प्रभावित	-9.59988
संचालक	-9.59988
टक्क्यां	-9.59989
समस्या	-9.59989
कडक	-9.60074
जाण्या	-9.60311
आरोग्यमंत्र	-9.60398
करायच	-9.61066
शाळेत	-9.61223
मिळाली	-9.61229
निधी	-9.61232
फोन	-9.61301
▁¦16	-9.61347
ः	-9.61774
लावण्या	-9.62068
,000	-9.62472
दक्षिण	-9.62472
रिपोर्ट	-9.62472
संरक्षण	-9.62472
धोरण	-9.62474
लागली	-9.62488
gp	-9.62549
फायद	-9.62574
▁¦60	-9.63114
‍	-9.63738
विशिष्ट	-9.63738
उघड	-9.63882
"	-9.6441
सप्टेंबर	-9.6502
आवाहन	-9.6502
जिथे	-9.65023
अँप	-9.65048
सारखी	-9.65063
लागणार	-9.65078
संसर्गजन्य	-9.65098
भेट	-9.65166
प्राणवायू	-9.66319
सूच	-9.6643
घेऊ	-9.67045
महापालिके	-9.67635
मार्गदर्शक	-9.67635
सॅनिटायझर	-9.67635
चिकित्सालय	-9.67635
उपाययोजना	-9.67655
पाहिल	-9.68021
बऱ्याच	-9.68968
▁%)	-9.68968
खरेदी	-9.68968
दशलक्ष	-9.68969
आढाव	-9.6897
कमतरत	-9.68976
देशभरात	-9.68995
▁¦100	-9.69151
ांमुळे	-9.6918
ठिकाण	-9.69745
फायझर	-9.70319
करुन	-9.70336
वितरण	-9.70338
अर्ज	-9.70422
सोप	-9.70499
राहण्या	-9.70676
मुख्यमंत्र्यां	-9.70894
विद्यापीठ	-9.71689
महत्वाच	-9.71689
जंतू	-9.71691
अगदी	-9.71692
ज्ञात	-9.7172
मुद्द	-9.71742
परिषद	-9.71785
गर्भ	-9.72187
वापरण्या	-9.72622
ऑक्सफर्ड	-9.73078
प्राप्त	-9.73078
▁¦2021	-9.73078
वस्तू	-9.73082
पहिला	-9.73083
सुरुवातीला	-9.73087
सिरम	-9.73092
द्रव	-9.7312
तपास	-9.73796
जिनोम	-9.74487
प्रॅक्टिस	-9.74487
वेगवेगळ्या	-9.74487
अधिकाऱ्यांन	-9.74487
मेडिकल	-9.74487
स्वरूप	-9.74487
संक्रमित	-9.74487
दर्शव	-9.74488
सीरम	-9.74499
प्रादुर्भाव	-9.75915
अंमलबजावणी	-9.75915
म्युटेशन	-9.75915
ट्वीट	-9.75915
नसलेल्या	-9.75925
बायो	-9.75925
व्यवस्थापन	-9.75933
ांमधील	-9.76161
सारखे	-9.77193
फडणवीस	-9.77364
वटवाघळ	-9.77364
समुदाय	-9.77365
अखेर	-9.77367
ट्रायल	-9.77368
बाजू	-9.7737
बांध	-9.77371
शरीरा	-9.78301
क्लिनिक	-9.78835
रेमडेसिव्हिर	-9.78835
युनायटे	-9.78835
सर्वां	-9.78957
फुफ्फुस	-9.79294
अडचणी	-9.80328
निष्कर्ष	-9.80328
ॅक्ट	-9.80892
हॉटेल	-9.81843
कठोर	-9.81843
साथरोग	-9.81844
एवढ	-9.81844
इंटर	-9.81859
साठव	-9.81859
वगळ	-9.81863
य़ा	-9.8273
लागल्या	-9.82734
ऑनलाईन	-9.83381
शासकीय	-9.83381
हृदय	-9.83381
पोलिसां	-9.83382
मिनिट	-9.83391
समाव	-9.83391
पुण्या	-9.83917
अँटीबॉडी	-9.84944
ब्रिटन	-9.84944
भूमिका	-9.84944
रेमडेसिविर	-9.84944
k	-9.84944
सदस्य	-9.84946
सुधार	-9.84947
चौकशी	-9.86531
म्हटले	-9.86531
हेल्थ	-9.86531
पोशिंद	-9.86531
रुग्णसंख्ये	-9.86532
कारवाई	-9.86534
प्रशासन	-9.87798
महाविद्यालय	-9.88144
व्यवस्थे	-9.88144
संशयित	-9.88144
विरुद्ध	-9.88144
रूग्णालय	-9.88144
कुठे	-9.88146
प्रथम	-9.88151
▁...	-9.88154
अजित	-9.88172
देणार	-9.88237
आणण्या	-9.89157
नियमां	-9.89426
icu	-9.89783
प्राधान्य	-9.89783
खोकला	-9.89783
टँकर	-9.89784
प्रकल्प	-9.89785
समाज	-9.90374
घालण्या	-9.90464
शासना	-9.9133
शास्त्रज्ञ	-9.9145
पार्श्वभूमीवर	-9.9145
आकडा	-9.91453
आयोगा	-9.91531
शहरां	-9.92166
फुफ्फुसां	-9.92617
अतिशय	-9.93145
नियमावली	-9.93145
वारंवार	-9.93145
पुढच्या	-9.93145
निष्	-9.93146
राहणार	-9.93147
पहिली	-9.93147
मीडिया	-9.93147
उद्भव	-9.93149
प्राण्यां	-9.93206
ठेवाव	-9.93391
धार्मिक	-9.94869
व्यवसाय	-9.94869
व्यावसायिक	-9.94869
कुंभमेळ	-9.94869
प्रोटीन	-9.94869
rsc	-9.94869
वातावरण	-9.94869
वृद्ध	-9.94869
चंद्र	-9.94871
रविवार	-9.94875
लागले	-9.95234
खोल	-9.95539
एखाद	-9.96467
mers	-9.96623
पश्चिम	-9.96623
प्रोटोकॉल	-9.96623
जर्मनी	-9.96623
पृष्ठभाग	-9.96623
सोनू	-9.96624
समूह	-9.96624
नमुन्यां	-9.96694
दुसरीकड	-9.98298
पुरवठ्या	-9.98409
काँग्रेस	-9.98409
rna	-9.98409
महामारी	-9.98409
शिक्षक	-9.98415
जाणवत	-9.98449
पाण्या	-9.98503
नोंदवल	-10.001
महिन	-10.0016
ट्विट	-10.0023
बातमी	-10.0024
नॅश	-10.0024
हाताळ	-10.0024
गैर	-10.0025
कोरड	-10.0044
तिरिक्त	-10.0061
मिळालेल	-10.0065
सापडल	-10.0198
व्हॅक्सिन	-10.0202
अपेक्षित	-10.0208
आफ्रिक	-10.0208
निवडणूक	-10.0208
शुक्रवार	-10.0208
फ्रान्स	-10.0208
इशारा	-10.0208
समिती	-10.0208
तरुण	-10.0212
कोरोनाग्रस्तां	-10.0212
उपकरण	-10.0292
सांगा	-10.0371
मंत्र्यां	-10.039
उत्पन्न	-10.0397
उत्पादक	-10.0397
प्रारंभ	-10.0397
अडथळ	-10.0397
आयसोलेशन	-10.0397
व्हायरल	-10.0397
cdc	-10.0397
जिल्हाधिका	-10.0397
सहभागी	-10.0397
खात्री	-10.0397
पालकां	-10.0399
थापि	-10.0575
ज्येष्ठ	-10.0589
कुठल्या	-10.0589
दीर्घ	-10.0589
तक्रार	-10.0589
उत्त	-10.0628
तपासण्या	-10.0732
प्रथिन	-10.0785
धोक्या	-10.0785
अधिकृत	-10.0785
घोष	-10.0981
इतिहास	-10.0985
युनिव्हर्सिटी	-10.0985
ऩ	-10.0985
यशस्वी	-10.0985
हर्ष	-10.0985
चुकीच	-10.0986
अल्कोहोल	-10.1189
सकारात्मक	-10.1189
ऐवजी	-10.1189
बोर्डा	-10.1191
राहू	-10.1236
निरीक्षण	-10.1386
अनिवार्य	-10.1397
झपाट्यान	-10.1397
पीसीआर	-10.1397
phe	-10.1397
क्रमांक	-10.1397
बारावी	-10.1397
शनिवार	-10.1397
तातडीन	-10.1406
मिळवण्या	-10.1546
प्रत्यक्ष	-10.161
विश्लेषण	-10.161
सिक्वेंसिंग	-10.161
ञ	-10.2272
)	-10.3208
x	-10.3242
ऐ	-10.3498
औ	-10.3498
–	-10.3498
•	-10.3761
;	-10.4275
[	-10.5505
]	-10.5505
#	-10.6505
ऍ	-10.6862
$	-10.98
z	-11.03
ऋ	-11.03
q	-11.1382
:	-11.3942
(	-11.4711
j	-11.4745
<	-11.7487
≥	-11.7487
>	-11.8598
‘	-11.9814
+	-11.9848
ॲ	-12.2944
*	-12.2944
!	-12.491
’	-12.741
_	-12.7444
×	-12.7444
α	-13.0777
“	-13.5744
=	-13.5777
β	-13.5777
ऎ	-13.5777
—	-13.5777
?	-14.5746
%	-14.5775
ऱ	-14.5776
~	-14.5777
ß	-14.5777
å	-14.5777
γ	-14.5777
ॉ	-14.5777
