<pad>	0
</s>	0
<unk>	0
▁	-2.64213
၊	-3.77131
ကို	-3.86033
သည်	-4.10407
သော	-4.18511
၍	-4.67908
နှင့်	-4.73854
မ	-5.03902
၌	-5.08213
၍၊	-5.21166
ရ	-5.30098
၏	-5.35047
တို့ကို	-5.37852
ကြ၏။	-5.38464
▁မ	-5.39662
▁အ	-5.41829
▁ငါ	-5.44258
တို့သည်	-5.44707
်	-5.55805
အ	-5.61953
၏။	-5.67136
ကြ	-5.73846
▁ထို	-5.77943
သား	-5.83507
လေ၏။	-5.86193
တော်	-5.88089
ခြင်း	-5.90978
▁ထာဝရဘုရား	-5.96426
း	-5.99654
သို့	-6.02626
စေ	-6.05931
လ	-6.06348
▁သူတို့	-6.09846
ရာ	-6.12439
က	-6.12536
▁သင်တို့	-6.144
▁လူ	-6.16238
တော်မူ၏။	-6.16962
▁မိမိ	-6.17013
▁ငါ့	-6.18693
အား	-6.18911
တ	-6.19978
ရှိ	-6.2112
မှ	-6.2627
လျက်	-6.26907
လျက်၊	-6.27843
ဖြစ်	-6.27894
သ	-6.28167
တို့	-6.29439
သောသူ	-6.29678
▁ငါသည်	-6.30515
တော်မူ	-6.33003
▁သင်သည်	-6.33348
လျှင်၊	-6.34566
လည်း	-6.39721
▁သင်တို့သည်	-6.3985
။	-6.41221
▁ဘုရားသခင်	-6.41336
များ	-6.41653
▁အကျွန်ုပ်	-6.42301
▁သူတို့သည်	-6.44553
ရမည်။	-6.45083
▁ကိုယ်	-6.46103
ကြလော့။	-6.46395
ပြု	-6.46774
▁သူ	-6.47806
က၊	-6.51608
▁ထာဝရဘုရားသည်	-6.52027
လော့။	-6.528
▁သင်၏	-6.52833
သဖြင့်၊	-6.54796
ကဲ့သို့	-6.55928
နေ	-6.56698
▁ပြု	-6.57817
▁သူ၏	-6.57957
လျှင်	-6.60063
မည်။	-6.60554
ခြင်းကို	-6.60937
တွင်	-6.61126
လိမ့်မည်။	-6.61623
စား	-6.63307
ပါ	-6.63764
▁နေ	-6.64176
များကို	-6.64985
▁တ	-6.65216
ပေး	-6.65403
ဗ	-6.66175
▁ထိုသို့	-6.66634
▁တဖန်	-6.67239
သွား	-6.68288
အားဖြင့်	-6.68488
ကြလိမ့်မည်။	-6.68621
▁ထာဝရဘုရား၏	-6.70268
သောအခါ၊	-6.70812
က်	-6.71281
ခြင်းငှါ	-6.71688
▁ထိုအခါ	-6.72092
မြို့	-6.72773
ပင်	-6.73058
့	-6.76314
ထား	-6.77339
ု	-6.7796
▁ဤ	-6.79068
▁ငါတို့	-6.79704
ဟု	-6.79751
ရ။	-6.80746
ကလည်း၊	-6.80864
▁ရောက်	-6.81657
▁မိန့်တော်မူ၏။	-6.81939
ာ	-6.82629
ဖြစ်၏။	-6.82968
▁အကြောင်းမူကား၊	-6.84329
▁မိန့်တော်မူ	-6.8438
ကို၎င်း၊	-6.84723
ံ	-6.85965
ပြီ။	-6.85991
▁ဘုရား	-6.86111
ုတ်	-6.87407
ဇ	-6.87845
တတ်၏။	-6.88181
ယ	-6.88341
▁ငါ့ကို	-6.89278
▁ကိုယ်တော်	-6.899
စေခြင်းငှါ	-6.90059
▁သူသည်	-6.91308
သောကြောင့်၊	-6.91739
သိ	-6.91927
▁သင်	-6.92209
▁ဘုရားသခင်၏	-6.92495
ရသော	-6.93122
တော်မူသော	-6.93125
ဒ	-6.93329
သာ	-6.93404
ရှ	-6.94256
ရှိ၏။	-6.94841
▁သင့်	-6.95472
ခြင်း၊	-6.95627
သူ	-6.96809
သောသူသည်	-6.9721
ို	-6.97517
၎င်း၊	-6.97941
လာ	-6.98015
ိ	-6.9863
မည်ဟု	-6.99094
▁သား	-6.99556
▁ရှင်ဘုရင်	-7.00373
မိ	-7.01404
နိုင်	-7.02281
မြင်	-7.02682
နာ	-7.03067
▁အပြစ်	-7.03251
တို့အား	-7.03427
န	-7.03956
ငါ	-7.03983
▁ရှိ	-7.04283
ကြီး	-7.05768
ဘဲ	-7.05802
အဘို့	-7.07497
လူ	-7.0824
▁သေ	-7.08338
ပါ၏။	-7.08897
တော်ကို	-7.09493
သောအခါ	-7.10306
ထဲက	-7.1056
ပ	-7.10613
ကိုလည်း	-7.10622
မင်း	-7.11026
နှစ်	-7.11205
▁ယဇ်ပုရောဟိတ်	-7.1177
ကား၊	-7.11994
ခံ	-7.12687
▁သွား	-7.13061
ဖ	-7.1307
▁အလွန်	-7.13088
သည်ကား၊	-7.13316
▁သူတို့ကို	-7.13839
အမျိုး	-7.13895
တတ်	-7.14738
သည်လည်း	-7.14743
▁မြို့	-7.14998
▁ဣသရေလအမျိုးသား	-7.15345
ချ	-7.15449
သော်လည်း၊	-7.15505
ခ	-7.15732
ဘ	-7.16212
▁အဘယ်သို့	-7.16683
ပြီးမှ၊	-7.16992
▁ထာဝရ	-7.17435
ပ်	-7.17997
▁သင့်ကို	-7.18178
ရောက်	-7.1893
မှာ	-7.18985
င်	-7.19159
ပြီးလျှင်၊	-7.19293
ပေါ်မှာ	-7.19774
တ်	-7.20652
စွာ	-7.20708
▁အို	-7.21174
သေ	-7.22188
န်	-7.22285
စ	-7.22543
မူကား၊	-7.23298
ဖြင့်	-7.24409
ထံသို့	-7.24491
မည်	-7.2465
မျှ	-7.25394
သတည်း။	-7.25737
အဘ	-7.25925
ဆို	-7.25974
▁ဖြစ်	-7.26837
▁ရေ	-7.27097
မ်း	-7.27206
▁ငါတို့သည်	-7.27658
ကား	-7.28086
▁ဣသရေလ	-7.28092
ပြ	-7.28104
တို့၌	-7.28282
လိုက်	-7.28363
▁ပေး	-7.28783
မှစ၍	-7.29154
ရှေ့မှာ	-7.29317
တို့၏	-7.29863
ဲ	-7.30068
စရာ	-7.30653
တည်း။	-7.30702
ရှိသော	-7.31315
င်း	-7.32119
ထ	-7.32199
တည်း	-7.32281
လက်	-7.32563
▁ကိုယ်တော်သည်	-7.32651
▁ငါ၏	-7.32721
တည်းဟူသော	-7.32884
ဆ	-7.33547
ပြည်	-7.33784
တော်မူပါ။	-7.33811
ရိ	-7.33856
၎င်း	-7.35265
▁အသက်	-7.35529
▁ခံရ	-7.367
ဝ	-7.36901
ကြောင့်	-7.38198
▁စိတ်	-7.38838
တောင်	-7.38969
▁ယေရုရှလင်မြို့	-7.39196
ဦး	-7.39368
ငယ်	-7.39606
▁သိ	-7.40915
ရေ	-7.41458
▁အဘယ်	-7.42036
▁သတ်	-7.42143
ဆောင်	-7.42625
ရ၏။	-7.42753
▁ကောင်းကင်	-7.43764
▁ပြော	-7.43885
တတ်သော	-7.4402
ကြား	-7.44059
▁သူ့	-7.4417
တရား	-7.44361
သဖြင့်	-7.44592
သည်အတိုင်း၊	-7.4485
နိ	-7.4515
သောသူ၊	-7.45361
ုံ	-7.45666
ဂ	-7.4593
ပြန်	-7.46002
ေ	-7.46195
▁ဆို	-7.4634
▁မြင်	-7.47018
▁မိမိတို့	-7.47065
▁လက်	-7.4731
▁တည်	-7.47341
စကားကို	-7.47524
တိုင်အောင်	-7.47834
ယူ	-7.47907
ပြော	-7.48082
▁မြေ	-7.48297
လေ	-7.48299
စု	-7.48777
သနည်း။	-7.49177
တည်	-7.49497
ထဲသို့	-7.49776
ဝင်	-7.49888
▁အာ	-7.49893
▁ဒါဝိဒ်	-7.50151
▁အမှု	-7.50161
ဘို့	-7.50985
▁စီရင်	-7.51252
သောကြောင့်	-7.51436
ထက်	-7.51912
▁ကိုယ်တော်ကို	-7.52272
ထာဝရဘုရား	-7.52379
ရှင်ဘုရင်	-7.5262
သည်ဟု	-7.5277
▁ကောင်း	-7.53189
▁မိန်းမ	-7.53207
▁ဘုရားသခင်သည်	-7.53956
▁ပ	-7.54103
လှ	-7.54289
▁သင်တို့ကို	-7.54309
ကြပြီ။	-7.54533
▁နားထောင်	-7.54649
ုန်	-7.54744
စကား	-7.54887
မှီ	-7.55005
တို့နှင့်	-7.55122
▁ထိုသူ	-7.55873
စောင့်	-7.55901
၏သား	-7.56082
▁မီး	-7.56879
▁ပရောဖက်	-7.5697
▁စား	-7.57082
စေခြင်းငှါ၊	-7.57428
တွေ့	-7.57855
▁ခံ	-7.58097
နှင့်တကွ	-7.58216
တို့တွင်	-7.58305
▁အဘယ်ကြောင့်	-7.58867
ကျွန်	-7.58897
ကောင်း	-7.58903
▁လိုက်	-7.59224
▁ထား	-7.59297
အပေါင်းတို့သည်	-7.59337
လုပ်	-7.59463
ကြောင်းကို	-7.59467
▁လာ	-7.59471
စီရင်	-7.60072
မြို့၊	-7.60223
ွ	-7.61139
မြ	-7.61145
▁ဣသရေလအမျိုး	-7.61939
▁ယခု	-7.62325
▁အဘယ်သူ	-7.62406
▁တရား	-7.62878
▁အကျွန်ုပ်တို့	-7.62995
ိမ်	-7.63135
လိ	-7.63157
နေ့	-7.633
▁သိုး	-7.63962
▁သူ့ကို	-7.64368
ဘုရား	-7.64389
ကျ	-7.64497
သလော။	-7.64716
ည်	-7.64773
နေရာ	-7.64827
▁ကျောက်	-7.6497
▁ကိုယ်တော်၏	-7.652
ညီ	-7.65301
▁ကျွန်	-7.65404
လို	-7.6588
▁ထာဝရဘုရားကို	-7.65937
ရှာ	-7.66088
မရှိ	-7.66362
▁အဘ	-7.66494
သနည်းဟု	-7.66516
လော့ဟု	-7.66729
သောသူတို့သည်	-7.66741
သည်အတိုင်း	-7.67234
ကြ။	-7.67586
ပြီးမှ	-7.67597
ပါ။	-7.67819
မရှိ။	-7.6955
အတိုင်း	-7.70109
ကို၎င်း	-7.70226
▁နောက်တဖန်	-7.70543
လုံး	-7.70842
များ၊	-7.71757
ကုန်	-7.7188
တိ	-7.72275
ရက်	-7.73214
▁အသက်ရှင်	-7.73734
တော်မူပြီ။	-7.74034
နှုတ်	-7.74088
အာ	-7.74244
တိုင်	-7.74566
အမှုကို	-7.74875
▁အကြောင်း	-7.7503
ဆုံး	-7.75395
မှတ်	-7.75465
အပေါ်မှာ	-7.75663
သကဲ့သို့	-7.76316
▁အကျွန်ုပ်သည်	-7.76784
ရော	-7.76921
ကာလ	-7.77053
▁ကြား	-7.77153
အရာ	-7.77804
လွန်	-7.77821
▁အကျွန်ုပ်ကို	-7.78078
မြေ	-7.78296
▁မြေကြီး	-7.78542
ပေါ်	-7.78673
သည်ကို	-7.79295
နှင့်အတူ	-7.79392
တိုက်	-7.79508
▁အမျိုး	-7.79778
နည်း	-7.79816
ချက်	-7.80148
▁ဘ	-7.80196
▁သခင်	-7.8029
သင့်	-7.80317
အမှု	-7.80634
လိမ့်မည်ဟု	-7.8067
▁ထိုသူသည်	-7.81086
သည်ဖြစ်၍၊	-7.81268
▁စောင့်	-7.81576
အပ်	-7.81866
▁ဧ	-7.81977
သခင်	-7.8198
ထွက်	-7.81998
အရပ်	-7.82118
ရှိသမျှ	-7.822
ဇာ	-7.82321
▁သင်တို့၏	-7.82484
ည	-7.82572
တင်	-7.82593
ောင်	-7.83089
အရာ၌	-7.83122
▁ပြ	-7.83124
ရလိမ့်မည်။	-7.83198
သတ်	-7.83202
ရကြမည်။	-7.83269
▁ဝင်	-7.83323
▁ပြည့်စုံ	-7.8336
▁နွား	-7.83439
ယ်	-7.83564
အတွက်	-7.83834
စိတ်	-7.84221
▁ငွေ	-7.84853
▁မည်။	-7.84952
သမီး	-7.85003
မည်အကြောင်း၊	-7.85108
▁ပူဇော်	-7.85208
ဟူမူကား၊	-7.85711
▁မူ	-7.86047
▁ထိုသူတို့သည်	-7.86128
▁သန့်ရှင်းသော	-7.86199
ခံရ	-7.86206
အမျိုးသား	-7.87105
မာ	-7.87261
တံခါး	-7.87643
ကိုယ်	-7.87689
▁ရှာ	-7.87746
▁လူမျိုး	-7.87982
▁အခြားသော	-7.88217
▁ဆောင်ခဲ့	-7.883
အပေါင်းတို့ကို	-7.88543
▁ယာကုပ်	-7.88591
တိုင်း	-7.88665
▁ယုဒ	-7.89111
▁မျက်နှာ	-7.89234
အိမ်	-7.89644
တဘက်၌	-7.89695
ဘုရားသခင်	-7.90239
▁သူတို့၏	-7.90392
သင်	-7.90519
▁တွေ့	-7.90788
▁သန့်ရှင်း	-7.90902
ရှင်	-7.90905
မြတ်	-7.91106
ဆိုင်	-7.91115
▁တိုက်	-7.91269
ဟ	-7.91593
ကြပါ၏။	-7.91679
ဖြစ်သော	-7.91944
▁မောရှေ	-7.92086
လေး	-7.92204
သစ်	-7.92213
သုံး	-7.92256
နှစ်ယောက်	-7.92262
ရှေ့တော်၌	-7.92287
▁တဲတော်	-7.92353
အပေါင်းတို့	-7.92476
▁သူတပါး	-7.9263
▁ထိုကြောင့်	-7.92702
▁လျှောက်	-7.92981
▁ထွက်	-7.92999
▁အဘယ်သူမျှ	-7.93198
▁ရွှေ	-7.93319
အပေါင်း	-7.9335
နား	-7.93473
လမ်း	-7.93583
လော	-7.93736
အပြစ်	-7.93977
ယော	-7.94002
▁ကျွန်တော်	-7.94306
ပြီဟု	-7.94402
▁သို့ဖြစ်၍	-7.94715
ချစ်	-7.94924
▁ဖျက်ဆီး	-7.95058
▁ပူဇော်သက္ကာ	-7.95087
မျိုး	-7.95719
▁တောင်	-7.95928
သော်၊	-7.96232
▁စကား	-7.9632
▁ယနေ့	-7.96405
▁အိမ်	-7.96853
န်း	-7.9694
သော်လည်း	-7.96953
ိတ်	-7.96957
လျက်နေ	-7.96983
တပ်	-7.97043
မင်းကြီး	-7.97123
▁ဟု	-7.97139
▁သ	-7.97199
▁လုပ်	-7.97287
သားတို့သည်	-7.97771
▁ရှောလု	-7.97829
ခြင်းသို့	-7.97891
ဘူး	-7.98056
▁တော	-7.98122
ော်	-7.98455
ချုပ်	-7.98657
▁ဟောပြော	-7.99034
လက်မှ	-7.99068
▁မိ	-7.99188
မြင့်	-7.99326
▁ပညာ	-7.99579
မြို့သို့	-7.99596
မ္မ	-7.99735
ပျက်	-7.99859
▁ကာလ	-7.99958
▁တပါးအမျိုးသား	-7.99986
အချိန်	-8.00128
မိန်းမ	-8.00325
ုပ်	-8.00342
ထဲမှာ	-8.00416
▁ပြစ်မှား	-8.00866
ကြနှင့်။	-8.01113
▁အရာ	-8.01165
ပါပြီ။	-8.01551
▁ချီးမွမ်း	-8.02051
▁ဝမ်းမြောက်	-8.02157
ပြုသော	-8.02293
နှင့်။	-8.02393
▁အစဉ်	-8.02422
ခဲ့	-8.02725
ဘဲနေ	-8.0275
ကျင့်	-8.03035
ရန်	-8.03096
ဖြစ်၍၊	-8.03398
သကဲ့သို့၊	-8.03453
မယား	-8.04048
▁ပြေး	-8.04202
သမျှသော	-8.04277
▁ရန်သူ	-8.04525
အသက်	-8.04545
▁ယဇ်ပလ္လင်	-8.04599
အောင်	-8.0471
ပြီး	-8.04954
ခေါ်	-8.05186
မည်အကြောင်း	-8.05361
သမျှ	-8.05454
▁ကြည့်ရှု	-8.05476
ရမည်	-8.05608
မက်	-8.05648
▁စိတ်နှလုံး	-8.05783
▁ဘုရားသခင်ကို	-8.05852
ဖြစ်စေ၊	-8.06034
▁နှုတ်	-8.06171
လွှတ်	-8.06582
▁သို့ရာတွင်	-8.06732
ူး	-8.06866
▁လူများ	-8.06902
အုပ်	-8.07039
ောက်	-8.07511
▁စစ်တိုက်	-8.07767
ြ	-8.0781
ော	-8.07865
▁ထ	-8.08019
▁ထင်ရှား	-8.08031
▁အိမ်တော်	-8.0825
▁ခေါ်	-8.08415
ဆက်	-8.08573
▁အား	-8.08797
▁ကျွန်ုပ်	-8.09128
နားမှာ	-8.09594
▁ရှေ့တော်၌	-8.0982
လျှောက်	-8.10004
ရကြ၏။	-8.10235
▁ထာဝရဘုရားအား	-8.10323
▁ဗိမာန်တော်	-8.10406
▁သို့သော်လည်း	-8.10553
▁အရှင်ထာဝရဘုရား	-8.10769
▁ဆုတောင်း	-8.10853
သွား၍	-8.10949
ပွဲ	-8.10957
ကောင်	-8.11102
▁နာ	-8.11424
▁တိရစ္ဆာန်	-8.11596
သက်	-8.11696
စီး	-8.12202
ဧ	-8.12403
ပြည်၌	-8.12408
ပါဟု	-8.12476
ရှိသမျှတို့ကို	-8.12532
ရွာ	-8.12646
▁အပ်	-8.12663
နှ	-8.12699
တတ်ကြ၏။	-8.12807
မှန်	-8.129
▁တပ်	-8.12937
▁မင်း	-8.12943
သံ	-8.13132
▁ယောသပ်	-8.13622
ခါ	-8.13797
▁ဆုံးမ	-8.13808
▁ကျ	-8.14263
စီ	-8.14407
ပေါင်း	-8.14448
စွဲ	-8.14518
လည်း၊	-8.15131
ဟော	-8.15226
ှ	-8.15278
အံ့	-8.15459
ကာ	-8.15462
▁ကောင်းကင်တမန်	-8.1548
နှစ်ဆယ်	-8.15598
▁ကျင့်	-8.15827
ခြင်းငှါ၊	-8.15863
ဥစ္စာ	-8.15941
ချင်း	-8.15945
ရှေ့	-8.16129
အချို့	-8.16193
ကြွ	-8.16268
▁တယောက်	-8.16388
သီး	-8.1639
▁ယေရှုသည်	-8.1673
ဖွင့်	-8.16786
ကျောက်	-8.17173
▁သူငယ်	-8.17217
▁ယောက်ျား	-8.17251
▁ယေ	-8.17335
▁စကားကို	-8.17374
ခြေ	-8.17382
▁လွှတ်	-8.17701
▁ပင်လယ်	-8.17967
နိုင်ငံ	-8.18343
မဟုတ်	-8.18404
ပါမည်။	-8.18432
ား	-8.1854
လိမ့်	-8.18652
ပြင်	-8.18701
▁မေး	-8.18912
ပျို	-8.19022
▁ချစ်	-8.19065
သောသူတို့ကို	-8.19287
ွေ	-8.19427
မျက်နှာ	-8.19659
▁ယဇ်	-8.19684
တွင်၊	-8.19799
အံ့သောငှါ	-8.19954
▁စေလွှတ်	-8.19959
မသိ	-8.19972
ပြု၍	-8.2003
▁ကိုယ်ကို	-8.20032
▁ဟော	-8.20053
▁လမ်း	-8.20119
ဟူ၍	-8.20181
ခွက်	-8.20462
အရပ်၌	-8.20624
▁ခမည်းတော်	-8.20706
▁မီးရှို့	-8.20724
သောအရာ	-8.20853
သောသူတို့	-8.20894
ငါး	-8.20944
▁နား	-8.21325
နေသော	-8.21827
▁ညှဉ်းဆဲ	-8.21862
သူတို့	-8.21919
ွန်	-8.22146
ခြင်းနှင့်	-8.22164
ျ	-8.22236
ဖြစ်ကြ၏။	-8.2241
ပြည်သို့	-8.22542
ဒ်	-8.22692
ထင်	-8.22936
▁ပြန်	-8.23042
▁အောက်မေ့	-8.23114
မြို့၌	-8.23121
▁ပြည်	-8.23271
▁ကြောက်ရွံ့	-8.23407
▁ခန့်ထား	-8.23524
ဆို၏။	-8.23582
စဉ်	-8.237
လျက်ရှိ	-8.23812
▁ဆောင်	-8.24055
တော	-8.24149
ဖြတ်	-8.24166
၌ရှိသော	-8.24243
အပြစ်ကို	-8.24326
▁ရှောလမုန်	-8.24399
▁မုန့်	-8.24713
တူ	-8.24795
▁ဒါဝိဒ်သည်	-8.24848
▁မူ၏။	-8.25194
▁ခ	-8.25273
▁အကျွန်ုပ်၏	-8.25463
▁အာဗြဟံ	-8.25629
▁သာ၍	-8.25987
လူတို့	-8.26321
င	-8.26474
▁အဲဂုတ္တုပြည်	-8.26543
မွေး	-8.26579
သောက်	-8.26604
▁ကိုယ်တိုင်	-8.26605
ဘက်၌	-8.26626
မူကား	-8.26858
▁မိုဃ်းကောင်းကင်	-8.2707
အလို	-8.27169
ရှေ့၌	-8.27253
▁ချ	-8.27334
▁ဥစ္စာ	-8.27375
▁အာရုန်	-8.27515
၌၎င်း၊	-8.27579
္	-8.27604
တဆယ်	-8.27767
▁စ	-8.27873
သားတို့	-8.27918
▁မိုဃ်း	-8.27967
▁တံခါး	-8.2801
▁ထွက်သွား	-8.28043
▁အိုထာဝရဘုရား၊	-8.28096
သည်လည်း၊	-8.28407
ဝေး	-8.28521
ပေါက်	-8.28616
ကြလော့ဟု	-8.28832
ခြင်းရှိ	-8.28887
စာ	-8.28908
လာ၍	-8.2891
ခုနစ်	-8.29143
မခံ	-8.29365
▁ငါ့အား	-8.29457
ကြိုး	-8.29473
အရှင်	-8.29548
တခု	-8.29801
စေ့	-8.3
စေမည်။	-8.30058
▁အကယ်စင်စစ်	-8.30107
▁ဣသရေလအမျိုး၏	-8.30189
နယ်	-8.30222
ေလ	-8.30302
ဖျက်ဆီး	-8.30362
လက်သို့	-8.30578
▁ထိုကြောင့်၊	-8.30605
▁နှစ်	-8.3081
တော်မမူ	-8.30967
ပယ်	-8.3107
လျက်ရှိ၏။	-8.31247
ဆိုး	-8.31504
▁သုံး	-8.31531
▁ခပ်သိမ်းသော	-8.31678
တန်ဆာ	-8.31718
မပြု	-8.31871
▁နန်းတော်	-8.32193
ပိုင်	-8.32306
ပါသည်ဟု	-8.32531
▁ယုဒပြည်	-8.32593
ရကြလိမ့်မည်။	-8.32658
စ်	-8.32668
ီ	-8.32727
▁မြော်လင့်	-8.3275
ဘက်	-8.3281
▁ပေါလု	-8.32814
ဏ္	-8.3295
▁သင်၏ဘုရားသခင်	-8.3299
သက်သေ	-8.33165
စရာဘို့	-8.33417
▁သို့မဟုတ်	-8.33478
ကြည့်	-8.33737
▁အကျိုး	-8.33895
ထောက်	-8.33898
မိန့်တော်မူ	-8.33913
ရမည်ဟု	-8.33995
မှတပါး	-8.33995
တ္တ	-8.34363
ပြား	-8.3438
နိုင်သော	-8.34497
လွှဲ	-8.34744
ိညာဉ်	-8.34825
▁အရင်	-8.34969
ဒိ	-8.34981
▁ခြေ	-8.34998
ယူ၍	-8.35038
ခံရသော	-8.35049
▁ကယ်တင်	-8.35216
တော်သည်	-8.35229
▁က	-8.35279
ရှက်	-8.35436
တောင်း	-8.35617
ယာ	-8.357
▁မတရားသော	-8.35839
ခင်ပွန်း	-8.35868
▁လိမ့်မည်။	-8.35882
ပါး	-8.3639
ဝတ်	-8.3644
ဟိ	-8.36674
ပုံ	-8.36777
▁ထိုသူတို့	-8.3687
တယောက်	-8.36899
ဆွဲ	-8.36971
▁လေး	-8.37054
နာမ	-8.37101
▁သစ္စာ	-8.37325
တော်မူမည်။	-8.37341
▁တော်	-8.37381
▁ထိုမိန်းမ	-8.37398
စေလွှတ်	-8.37573
ဘေး	-8.37824
▁၏။	-8.37828
လေပြီ။	-8.37873
တော်မူ၍၊	-8.37904
လာ၍၊	-8.37925
▁ညီအစ်ကို	-8.37964
▁သင်၌	-8.38002
▁ဆီ	-8.38195
▁ပြန်ပြော	-8.38377
သောသူကို	-8.3841
သန့်ရှင်း	-8.38413
ီး	-8.38642
▁ထိုနောက်	-8.38717
▁ဆင်းရဲ	-8.38815
▁ငါတို့ကို	-8.38918
ပြီ	-8.39144
ဆယ်	-8.39154
▁မှတ်	-8.39242
ချောင်း	-8.39295
ဘဲ၊	-8.39548
လက်၌	-8.39705
▁ပေတရု	-8.39715
▁အစဉ်အမြဲ	-8.39721
တို့သည်လည်း	-8.39929
ရှိသမျှကို	-8.39947
ူ	-8.3999
ရာအရပ်	-8.40029
ပြစ်မှား	-8.40133
တကောင်	-8.4016
▁မသိ	-8.40189
ဖွဲ့	-8.4027
▁ထုတ်	-8.40412
▁မယား	-8.40559
တပါး	-8.40621
▁ကျွန်မ	-8.40743
ပတ်လုံး	-8.40894
▁တက်	-8.40935
ကဲ့သို့၎င်း၊	-8.40936
ရကြ။	-8.4102
စက်	-8.41186
▁ယော	-8.41311
▁မီးရှို့ရာယဇ်	-8.41682
လွတ်	-8.41706
လု	-8.41716
▁လေ	-8.42019
တို့၊	-8.42102
ဖြစ်တော်မူ၏။	-8.42114
မိုက်	-8.42233
တို့ကို၎င်း၊	-8.42256
ည်း	-8.42422
▁သင်တို့အား	-8.42527
▁ကြ	-8.42624
ဘွယ်	-8.4264
▁သားတော်	-8.4282
▁အမျိုးသား	-8.42921
စည်း	-8.43105
ကင်ဗိုလ်ခြေအရှင်	-8.43324
▁အတိုင်း	-8.43623
?????????	-8.43988
▁ယာ	-8.44014
ဒါဝိဒ်	-8.44056
▁အရပ်	-8.44155
ချိန်	-8.44306
မရှိ၊	-8.44382
သွင်း	-8.44606
နည်း။	-8.4461
တရားကို	-8.44786
▁မေ	-8.44891
စေ။	-8.44938
▁ဗာဗုလုန်	-8.45045
▁ထိုင်	-8.45081
▁ပြင်ဆင်	-8.45102
ပြီးလျှင်	-8.45148
ိုင်း	-8.45149
ခဲ	-8.45288
အသက်ကို	-8.45293
ငြိမ်း	-8.45605
စစ်	-8.45829
ထိ	-8.45878
ပလ္လင်	-8.46034
▁တင်	-8.46035
▁ယုဒရှင်ဘုရင်	-8.46171
▁လုပ်ကြံ	-8.46283
တရာ	-8.4629
▁ပြောဆို	-8.46295
▁အချင်းချင်း	-8.4632
▁ရှေ	-8.46359
အိမ်သို့	-8.46364
ပန်း	-8.46421
▁အဲဂုတ္တု	-8.46639
အစရှိသော	-8.46681
▁ယုံကြည်ခြင်း	-8.46685
▁များစွာသော	-8.46702
အလယ်၌	-8.46747
▁လေဝိသား	-8.46754
အရပ်သို့	-8.47012
▁ယုံကြည်	-8.47159
▁သွား၍	-8.47164
▁ဂိ	-8.47282
▁လောကီ	-8.47285
▁ပရိသတ်	-8.47624
▁သဘော	-8.47637
မီး	-8.47797
ရှု	-8.47869
▁မျက်စိ	-8.47963
▁နောက်	-8.47967
▁အောင်	-8.48047
▁ကောင်းကြီးပေး	-8.48061
▁ဘိုးဘေးတို့	-8.48106
▁ပညတ်တရား	-8.4816
စေ၍၊	-8.48225
နောက်	-8.48381
▁မင်းကြီး	-8.48388
မုန့်	-8.48429
လူတို့သည်	-8.48445
ဘွား	-8.48508
▁သံ	-8.4854
ဝန်	-8.48547
ပေ	-8.4885
များနှင့်	-8.4903
ပါစေ။	-8.49053
ရှိသမျှတို့သည်	-8.49119
ဂါ	-8.4915
▁လည်း	-8.49218
▁မခံ	-8.49479
ခရိုင်	-8.49537
မျက်စိ	-8.4964
ပွင့်	-8.49723
▁ထိုသို့သော	-8.49762
ပတ်	-8.49794
ဟာ	-8.49948
နောက်သို့	-8.50188
ရဟု	-8.50233
အိုး	-8.50288
လှည့်	-8.50299
အပေါ်သို့	-8.50348
▁မြင်း	-8.5035
▁မောရှေသည်	-8.50626
ဥစ္စာကို	-8.50665
▁သူတို့အား	-8.50748
▁သို့သော်လည်း၊	-8.50828
▁လုယူ	-8.50897
သလောဟု	-8.51088
ဆရာ	-8.51189
လူအပေါင်းတို့သည်	-8.5123
▁ဝန်ခံ	-8.51304
ပူဇော်	-8.51477
▁တောင်း	-8.51522
▁ခရစ်တော်	-8.51601
▁မြည်း	-8.51616
ပြည်ကို	-8.517
▁ထိုမြို့	-8.51802
ကာလ၌	-8.5208
▁ကောင်းသော	-8.52311
သိုး	-8.5232
ွန်း	-8.52356
ေး	-8.52572
လောက်	-8.52576
▁အသီး	-8.52642
ရစ်	-8.52667
▁မောရှေအား	-8.52699
ခတ်	-8.52705
▁ဗိုလ်	-8.5271
▁ချီးမြှောက်	-8.52829
ဖြေ	-8.52861
▁အသံ	-8.52912
မှီတိုင်အောင်	-8.5305
▁ယေရှု	-8.53072
ဖြစ်စေ	-8.53623
▁မြစ်	-8.5365
▁မစင်ကြယ်	-8.53661
▁အဝတ်	-8.53709
▁န	-8.53712
▁ဘေး	-8.53797
ဆိုလျှင်၊	-8.53893
▁စာ	-8.5391
▁ဟေ	-8.54019
သန်	-8.54276
မိန့်တော်မူ၏။	-8.54316
ထိုင်	-8.54374
ရိုး	-8.54396
▁စစ်	-8.54467
နိုင်။	-8.54482
သို့ရောက်	-8.54544
ဆောင်ခဲ့	-8.54553
▁သို့	-8.54635
များတို့သည်	-8.54666
ရွက်	-8.54718
လင်း	-8.54745
နှင့်အညီ	-8.5478
၏ဘုရားသခင်	-8.54781
အစ်ကို	-8.54878
သည်မဟုတ်။	-8.54893
လဲ	-8.54933
▁ပါ	-8.55011
▁သောက်	-8.55021
▁ကြွေးကြော်	-8.55098
▁သတိ	-8.55199
▁ထိုသူကို	-8.55239
ရပ်	-8.55246
မနေ	-8.55259
▁မပြု	-8.55363
▁တပည့်တော်တို့	-8.55483
▁သိမ်းယူ	-8.55631
အလုံးစုံတို့ကို	-8.55664
▁ဝတ်	-8.55671
ထင်ရှား	-8.55686
▁ဣ	-8.55741
မြောက်	-8.55905
လင်	-8.55973
အကြောင်းကို	-8.56114
▁ဆောင်ရွက်	-8.56176
စေတော်မူ၏။	-8.56411
▁ထာဝရဘုရားမိန့်	-8.56431
သောအမှု	-8.56506
ွယ်	-8.56666
▁ယူ၍	-8.56703
ဒေ	-8.5674
ဖုံး	-8.56776
▁အုပ်စိုး	-8.56933
နီး	-8.57018
တို့က၊	-8.57045
ညီအစ်ကို	-8.57096
▁ကြောက်	-8.57101
မြင်လျှင်၊	-8.57207
ဟူ၍၎င်း၊	-8.57264
အိမ်၌	-8.57307
▁နားမထောင်	-8.57505
အရာကို	-8.57521
▁သို့ဖြစ်၍၊	-8.57842
လူ၊	-8.57988
ရိတ်	-8.5801
ကြာ	-8.5802
ညစ်ညူး	-8.58021
▁သိုးသငယ်	-8.58047
▁ယောရှု	-8.58054
မရှိဘဲ	-8.58279
ဒေါ	-8.58366
တော်၌	-8.58386
ပြေး	-8.58446
မပြော	-8.58455
သောသူဖြစ်	-8.58516
▁ဗေ	-8.58678
▁စောင့်ရှောက်	-8.58816
▁ဧဖရိမ်	-8.59087
▁ဥာဏ်	-8.59215
▁ပြန်လာ	-8.59375
▁ကျေးဇူးတော်	-8.59517
မေး	-8.59576
▁အဲဂုတ္တုပြည်မှ	-8.59721
တော်မူသဖြင့်၊	-8.59824
ကျေးဇူး	-8.59829
▁သင်တို့၌	-8.59969
ရှိရာသို့	-8.60097
ဖလား	-8.60159
▁အသီးအသီး	-8.60437
သိမ်း	-8.6045
လူမျိုး	-8.60491
▁သခင်ဘုရား	-8.60531
ဖြစ်သတည်း။	-8.60538
ခေါင်း	-8.60856
အဆွေ	-8.61007
များစွာ	-8.61055
▁ကျိန်ဆို	-8.61181
စုံ	-8.6122
စေသော	-8.61291
သားကား	-8.61297
▁ပညာရှိ	-8.61371
▁ကိုးကွယ်	-8.61516
အမည်ရှိသော	-8.61524
▁အတူ	-8.61526
ချင်	-8.61609
▁ဒုစရိုက်ကို	-8.61632
▁ဆင်း	-8.61788
▁အချိန်	-8.61803
▁သင်တို့တွင်	-8.62028
မူ	-8.62034
အဆွေအမျိုး	-8.62178
▁ပျက်စီး	-8.62275
တို့ကိုလည်း	-8.62307
သုံးဆယ်	-8.62321
စိတ်နှလုံး	-8.6243
တော်မမူ။	-8.62465
ပစ်	-8.62613
▁ဒုစရိုက်	-8.62632
ကပ်	-8.62644
ရှိ၍၊	-8.62649
ငွေ	-8.62739
ဇိ	-8.62842
ခြောက်	-8.62989
▁စည်းဝေး	-8.63137
ပျောက်	-8.63149
အကြီး	-8.63255
သောသူ၏	-8.63276
ဖာ	-8.63391
▁အခွင့်	-8.6343
ပိ	-8.63478
ခေါ်၍	-8.63543
▁ဗာ	-8.6363
အားကြီး	-8.63683
တံ	-8.63689
▁ဤသို့	-8.63778
▁ဖြစ်၏။	-8.63831
ယဇ်	-8.63937
ထ၍	-8.64002
တဘက်	-8.64029
▁သနား	-8.64195
▁မင်္ဂလာရှိ	-8.64205
ရကြ	-8.64208
ဗိုလ်ခြေ	-8.64272
▁နှုတ်ကပတ်တော်	-8.64321
▁ထ၍	-8.64424
▁အော်ဟစ်	-8.64563
သဘော	-8.6459
တေ	-8.64895
လိုက်၍	-8.65173
▁တောင်းပန်	-8.65313
▁ခြင်္သေ့	-8.6536
▁ကိုယ်တော်ကျွန်	-8.65378
▁ရောက်လာ	-8.65426
▁ကြီးစွာသော	-8.65552
ထွက်၍	-8.65591
မြို့ရွာ	-8.65629
မည်နည်း။	-8.65697
▁ကြေးဝါ	-8.65811
စင်	-8.65831
▁ထောင်	-8.65877
ထက်သာ၍	-8.65917
▁ငါမ	-8.65944
ဝိညာဉ်	-8.65984
စေ၏။	-8.66174
ဝယ်	-8.6619
▁နှစ်သက်	-8.66243
▁မှောင်မိုက်	-8.66303
ပြန်၍	-8.66511
သမား	-8.66544
အတွင်း	-8.66819
စဉ်တွင်၊	-8.66955
▁နေရာ	-8.66983
သေး	-8.67595
ဒန်	-8.67745
ငါးဆယ်	-8.68156
ပညတ်	-8.68248
အသီး	-8.68326
ောင်း	-8.68344
▁ဖ	-8.68374
▁စပျစ်ရည်	-8.68406
လိမ့်မည်	-8.68412
နက်	-8.68521
▁သွင်း	-8.6858
▁ကဲ့ရဲ့	-8.68623
အမျိုးအနွယ်	-8.68653
တထောင်	-8.68762
နေ၏။	-8.68777
▁နှလုံး	-8.68795
သူအပေါင်းတို့သည်	-8.68924
တဲ	-8.69106
▁တော၌	-8.69143
▁ဘုရားသခင့်	-8.69158
▁အမှုကို	-8.6921
▁ညီအစ်ကိုတို့	-8.69337
တန်ခိုး	-8.69454
▁အရှင်	-8.69485
▁ယောဟန်	-8.69529
ပြည်၊	-8.69552
ကြဲ	-8.69591
▁အထက်က	-8.69613
အကျိုးကို	-8.69615
မြည်	-8.69678
▁ဣသရေလရှင်ဘုရင်	-8.69736
▁ယော်ဒန်မြစ်	-8.69812
▁ခေါင်း	-8.69886
▁ရှိသော	-8.70097
▁မှာထား	-8.70146
▁ဆို၏။	-8.70369
သွား၍၊	-8.7047
▁ဆယ်	-8.70576
▁နေကြ၏။	-8.7061
▁အမျက်တော်	-8.70668
▁ကျေးဇူးပြု	-8.70719
တော်မူခြင်း	-8.70776
▁မှာ	-8.70889
ခွဲ	-8.70933
▁ရွှင်လန်း	-8.70974
▁ငါ့စကားကို	-8.71006
▁လွတ်	-8.71063
▁ယေရှုကလည်း၊	-8.7119
▁ဣသ	-8.71229
▁နိုင်ငံတော်	-8.71271
▁ဧလ	-8.71303
စဉ်၊	-8.71306
အပေါ်၌	-8.71577
ဝေ	-8.71703
ကျိန်	-8.71713
▁ထိုအရပ်၌	-8.71743
ခိုင်ခံ့	-8.71774
တပည့်	-8.71781
အလုံးအရင်း	-8.71805
မဟုတ်။	-8.71873
ဗာ	-8.71908
ပေါ်သို့	-8.71968
ကြွင်း	-8.72102
▁ငါ့သား	-8.72141
ါ	-8.72192
တန်	-8.72228
▁အိပ်	-8.72244
ကိုမျှ	-8.7234
အနားမှာ	-8.72363
▁ထမြောက်	-8.724
ရှိကြ၏။	-8.72401
အမျိုးသား၊	-8.72451
▁မကောင်းသော	-8.72458
သော်၎င်း၊	-8.72466
▁ဖြောင့်မတ်သောသူ	-8.72491
ပြည့်စုံ	-8.72582
ရဲ	-8.72584
▁ယဇ်ပူဇော်	-8.72616
တော်မူပါဟု	-8.72641
▁ယေရုရှလင်မြို့၌	-8.7269
▁စင်ကြယ်	-8.72704
▁ဟာ	-8.73188
ထဲ၌	-8.73215
မတ်	-8.73338
အကြောင်း	-8.73483
ကွာ	-8.73591
▁ရုပ်တု	-8.73773
သင်တို့	-8.7382
စေနှင့်။	-8.73866
မြို့သား	-8.73876
▁စပါး	-8.73891
▁ငိုကြွေး	-8.73903
ခု	-8.73931
အများ	-8.74131
မင်္ဂလာ	-8.74163
ရှစ်	-8.74327
အသံကို	-8.74353
▁သက်သေခံ	-8.74411
အမျိုးသားတို့သည်	-8.74624
တော်မူလျှင်၊	-8.7469
▁လက်တော်	-8.74695
▁ဝိညာဉ်တော်	-8.74701
▁ဖြောင့်မတ်ခြင်း	-8.74742
▁အသွေး	-8.74821
ပါ၏ဟု	-8.74832
ဏ	-8.74884
နှောင့်ရှက်	-8.74943
နေ့၌	-8.74968
▁ချမ်းသာ	-8.7502
▁ကြားပြော	-8.75107
▁ရာ	-8.75144
အခန်း	-8.75154
စေဟု	-8.75187
▁ယူ	-8.75191
▁ဝ	-8.75293
ကန်	-8.75441
▁အလျင်အမြန်	-8.75509
ကြောင်း	-8.75588
▁နာမတော်	-8.75651
ပြည့်	-8.75709
ဖြူ	-8.75744
ဖြစ်သည်ဟု	-8.75744
▁ထိုအ	-8.75844
တယောက်သည်	-8.75957
▁ရှိ၏။	-8.76028
လတံ့သော	-8.76044
သော်	-8.76073
▁ကျေးဇူး	-8.7608
ဘုန်း	-8.76117
▁ရထား	-8.76192
မျက်နှာကို	-8.76239
▁အနာ	-8.76375
ငါ့	-8.76497
ရင်း	-8.76649
▁ထိုမှတပါး၊	-8.76752
▁?????????	-8.76775
▁အာရ	-8.76948
ပါစေသော။	-8.76977
▁နှင်ထုတ်	-8.7698
ွင်း	-8.77006
ဆေး	-8.77076
အခွင့်	-8.77095
မဟုတ်၊	-8.77107
ဟေ	-8.77257
ရှုံး	-8.77351
၏ဟု	-8.77465
သာ၍	-8.77481
ဖြစ်၍	-8.77538
▁ငါ၌	-8.77612
▁လူများတို့သည်	-8.77651
တော်မူသည်ကား၊	-8.77662
ပူဇော်သက္ကာ	-8.77693
ရှိရာ	-8.77935
အရိုး	-8.77936
နည်းဟု	-8.78071
▁မင်္ဂလာ	-8.78099
▁ယေရမိ	-8.78183
တကျိပ်	-8.78198
လှူ	-8.7826
▁အလင်း	-8.78345
သားတို့ကို	-8.78391
▁မြေပေါ်မှာ	-8.7848
ကြလိမ့်မည်ဟု	-8.78501
▁ဖိလိတ္တိလူတို့	-8.78613
▁နေရ	-8.78625
တောင်ပေါ်မှာ	-8.78665
▁ကြောင့်၊	-8.78839
ဆီသို့	-8.78915
စေခြင်းငှါ၎င်း၊	-8.78963
အမည်ဖြင့်	-8.79077
▁ဆိုကြ၏။	-8.79261
အကျင့်	-8.79393
▁ချဉ်းကပ်	-8.79548
နားထောင်	-8.79612
သနား	-8.7968
ဟောပြော	-8.79723
အစဉ်	-8.79784
▁ဆင့်ဆို	-8.80121
▁ဆိတ်	-8.80143
▁ဆောင်သွား	-8.80145
▁မာ	-8.80198
▁အထံတော်သို့	-8.80306
▁စုဝေး	-8.80341
▁ဘော်ပြ	-8.80492
▁သင်္ဂြိုဟ်	-8.80502
▁ကြောင့်	-8.80507
စေတော်မူ	-8.80518
ဖျက်	-8.80527
ကျွေး	-8.80642
နင်း	-8.80679
▁မိုဃ်းတိမ်	-8.80688
ပတ်လည်၌	-8.80819
အောက်၌	-8.80915
အမျိုးမျိုး	-8.81034
နှင့်၎င်း၊	-8.81126
တက်	-8.81166
ဘူးသော	-8.81173
▁ပညတ်	-8.8121
▁ပြည်သား	-8.81244
နွား	-8.81413
ယောက်ျား	-8.81422
ဗျာဒိတ်	-8.81434
▁သမီး	-8.81547
ကြဟု	-8.81586
▁မြေကြီးပေါ်မှာ	-8.81745
▁ထာဝရဘုရားကလည်း၊	-8.81784
ဘိုးဘေး	-8.81903
ထံတော်သို့	-8.81911
လုပ်သော	-8.81988
▁သင်နှင့်	-8.82156
▁လူသည်	-8.82275
▁ကျေးဇူးတော်ကို	-8.82322
▁တပါး	-8.82343
လွင်ပြင်	-8.82384
▁ပရိသတ်စည်းဝေးရာ	-8.82392
ပို့	-8.82444
ရှိသည်အတိုင်း	-8.82483
ဝင်၍	-8.82499
နှလုံး	-8.8256
ရှောင်	-8.82581
▁သီချင်းဆို	-8.82591
ကု	-8.82705
ကိုယူ၍	-8.82745
ဆီ	-8.82807
မြို့နှင့်	-8.82822
▁သေတ္တာတော်	-8.82871
ဖြစ်ကြောင်းကို	-8.83108
▁ထိုသခင်	-8.8323
ကိုးကွယ်	-8.83282
ပေးတော်မူ	-8.83284
ဝမ်းမြောက်	-8.83297
▁အကြောင်း၊	-8.8333
နှင့်ပြည့်စုံ	-8.83367
▁ထာဝရဘုရားက၊	-8.83389
လမ်းသို့	-8.83636
ထုတ်	-8.83715
ထားသော	-8.83781
ဆိုသော်၊	-8.83798
န့်	-8.83866
▁အခြား	-8.83913
▁ပြန်သွား	-8.8392
လူတို့ကို	-8.84034
နန်းစံ	-8.84116
ဩဝါဒ	-8.84116
ရွံရှာ	-8.84128
▁လယ်	-8.84153
ချီးမွမ်း	-8.84202
ရွေး	-8.84217
တော်မူလိမ့်မည်။	-8.84479
ဲ့	-8.84546
▁ပယ်ရှင်း	-8.84555
ထူး	-8.84695
▁ဘွားမြင်	-8.84759
▁လဲ	-8.84789
ယေ	-8.84887
▁ကြည့်	-8.84944
▁ထိုပြည်	-8.84996
သွေးဆောင်	-8.85019
င့်	-8.85093
အချို့တို့သည်	-8.85289
▁ထိုနောက်မှ	-8.85299
▁အရှေ့	-8.85307
▁မုသာ	-8.85368
▁မဟုတ်လော။	-8.85468
ဖြစ်ပါ၏။	-8.85492
▁လော့။	-8.85495
စရာအကြောင်း	-8.85586
▁ဣသရေလအမျိုးကို	-8.85598
▁ဘုရား၏	-8.85639
▁ဘောဇဉ်	-8.85685
▁အလိုရှိ	-8.85699
▁အထက်	-8.85787
▁တန်ဆာ	-8.85819
▁ပဌမ	-8.85878
ကြလျှင်၊	-8.85897
▁သားသမီး	-8.85973
▁ဝမ်း	-8.86017
ဟုဆို	-8.86151
▁ပွဲ	-8.86297
▁အမွေ	-8.86332
▁စစ်သူရဲ	-8.86531
▁ရွေး	-8.86622
ကြည့်ရှု	-8.86632
ဘွယ်သော	-8.86706
ဘုရား၊	-8.86762
▁??????????	-8.86771
▁အချင်း	-8.86807
ခြင်းအားဖြင့်	-8.869
▁စီရင်တော်မူ	-8.86911
▁အကြံ	-8.86919
????????????????	-8.86963
▁မေးမြန်း	-8.87116
▁ဘုန်း	-8.87135
▁ဖြစ်၍၊	-8.8717
▁အမိ	-8.87182
ုန်မြို့	-8.87204
ရေး	-8.87301
▁ဝတ်ပြု	-8.87331
နှင့်ဆိုင်သော	-8.87377
▁ငါး	-8.87463
ခရီး	-8.87599
▁လူအပေါင်းတို့	-8.87643
▁တည်ဆောက်	-8.87718
▁ဗျာဒိတ်တော်	-8.87772
ဖိ	-8.87873
▁ထိုနည်းတူ	-8.87922
ဖူး	-8.8797
ရုပ်တု	-8.88103
သံကို	-8.88116
▁ထမ်း	-8.88196
ကဲ့သို့၎င်း	-8.88277
▁ဗင်္ယာမိန်	-8.88388
ခိုး	-8.88447
မင်းကြီးသည်	-8.88478
▁ရေးထား	-8.88514
ထမ်း	-8.88546
မိမိ	-8.88547
▁စီး	-8.88567
▁ဒုတိယ	-8.88581
ကြလိမ့်	-8.88631
▁သင်္ဘော	-8.88761
မော	-8.88781
▁ဝိညာဉ်	-8.88781
ထံ၌	-8.88811
▁အကျင့်	-8.88846
▁ခံရသော	-8.88898
ဟူသော	-8.8891
▁အသရေ	-8.88979
ကွယ်	-8.88993
ပရောဖက်	-8.89006
တို	-8.89065
လေ့	-8.89192
မြို့မှ	-8.89197
အလုံးစုံ	-8.89209
အိမ်တော်	-8.89403
ျာ	-8.89489
▁ကယ်တင်တော်မူ	-8.89618
ရှေ	-8.89633
အစာ	-8.89647
▁အခါ၊	-8.89674
နေ့ရက်	-8.89739
အခါ	-8.89756
▁ဟ	-8.89843
ဘိ	-8.89859
▁ချီ	-8.8994
နှင့်တကွ၊	-8.89954
▁ဥပုသ်နေ့	-8.89997
စဉ်တွင်	-8.90217
ကြားလျှင်၊	-8.90217
စေခြင်းငှာ	-8.90226
▁ဝါကြွား	-8.9023
ပါမည်ဟု	-8.90234
▁ရှုရိ	-8.90424
▁ချက်ခြင်း	-8.90482
လတံ့။	-8.90484
ပြု၍၊	-8.90492
▁ဧလိယ	-8.9052
မြစ်	-8.90539
ခြင်းအမှု	-8.9058
▁ငါ့ထံသို့	-8.90584
▁နာမတော်ကို	-8.90627
ဆိတ်ညံ	-8.90776
လက်ကို	-8.90795
ကျယ်	-8.9082
▁ထိုကာလ၌	-8.90889
▁ဗာဗုလုန်မြို့	-8.90976
အဝတ်	-8.91041
▁ဤအမှု	-8.91045
ကြပါ	-8.9109
▁ပြင်	-8.91126
▁ရှင်ဘုရင်သည်	-8.91137
ကြောက်	-8.91272
ဖြောင့်	-8.91342
ထည့်	-8.9136
ဆန်	-8.91432
▁နံနက်	-8.91442
▁မြို့ရိုး	-8.91472
ွဲ	-8.91648
▁မောဘ	-8.91725
▁ယေရှုခရစ်	-8.91825
▁ဘုရားသည်	-8.91852
ပေ၏။	-8.91889
▁နေ့ရက်	-8.91912
သည်မဟုတ်လော။	-8.91923
အောက်	-8.91926
▁နှိုးဆော်	-8.92141
ချွတ်	-8.92303
လျော့	-8.92323
ရှိသမျှတို့	-8.92342
▁ဖြောင့်မတ်	-8.92455
ရှေ့တော်	-8.92484
▁လူတို့သည်	-8.92545
▁မာန	-8.9255
▁နှိမ့်ချ	-8.92594
▁ပေးတော်မူ	-8.92607
မျိုးစေ့	-8.92613
ပေးတော်မူသော	-8.92804
ခက်	-8.92842
သောအရာကို	-8.92933
နှစ်ပါး	-8.92936
ထဲ	-8.92996
ဆိုလျက်၊	-8.93105
▁ကင်းလွတ်	-8.93178
▁အချည်းနှီး	-8.93254
တရှောက်လုံး	-8.93255
ရင်	-8.93282
▁ယုဒလူ	-8.93435
▁ရပ်နေ	-8.93662
ထံ	-8.93772
ထာဝရ	-8.93873
ဆင်	-8.93974
ငှက်	-8.94084
ရမည်အကြောင်း၊	-8.94102
▁လက်ျာ	-8.94135
▁သန့်ရှင်းစေ	-8.94135
ကြောင့်၊	-8.94177
▁သူ၏သား	-8.94199
စိုးစံ	-8.94206
▁ဂေ	-8.94249
▁ကရုဏာတော်	-8.94305
နံ	-8.94348
▁တရားစီရင်	-8.94417
သည်တိုင်အောင်	-8.94499
▁ဖြစ်ကြ၏။	-8.9472
ရန်သူ	-8.94841
ပု	-8.94869
သောအမှုကို	-8.95077
ရှိသည်ဟု	-8.9513
ဟူ	-8.95165
▁များပြား	-8.9517
▁ရှမွေလ	-8.95187
အမည်	-8.9521
▁ခရီးသွား	-8.95235
လ၊	-8.95242
▁ဗက်	-8.95269
အချိန်၌	-8.953
▁ယုဒအမျိုး	-8.95398
▁ကြီး	-8.95414
မည်လော။	-8.95447
ပေါ်၌	-8.95467
▁ပြုတော်မူ	-8.95546
အလိုတော်	-8.95603
မေးလျှင်၊	-8.95669
▁ဆက်	-8.95721
▁သို့ရာတွင်၊	-8.9594
ဆင်းရဲ	-8.95972
▁ဇိ	-8.95981
ဖန်	-8.96006
လုံးကို	-8.9607
မည်နည်းဟု	-8.96099
တတ်။	-8.962
ဝိုင်း	-8.96224
အမြစ်	-8.96329
တယောက်မျှ	-8.96347
အောက်မေ့	-8.96397
ဘော်	-8.96429
ကျန်ကြွင်း	-8.96459
▁သန့်ရှင်းရာဌာန	-8.96616
▁ကရုဏာ	-8.96638
▁သူရဲ	-8.96966
မှု	-8.97005
တ္တိ	-8.97006
ဒဏ်	-8.97133
▁ဧလိ	-8.97146
ပညာ	-8.97264
▁သိမ်းသွား	-8.9745
▁မစ	-8.97533
▁ဥ	-8.97602
▁ခုနစ်	-8.97671
▁ရှိကြ၏။	-8.97693
သောစိတ်နှင့်	-8.97834
စပ်	-8.9787
ကျင်	-8.97871
ရှိသည်ကို	-8.97918
ထပ်	-8.98113
▁အဘိုး	-8.98158
အမျက်	-8.98163
▁မေးလျှောက်	-8.98229
▁အသေခံ	-8.98334
ကလည်း	-8.98402
အမျိုးသားတို့	-8.98463
▁အဘယ်သူသည်	-8.98533
တယောက်ကို	-8.98554
▁တော်ကို	-8.98566
စောင်	-8.98572
ကြသနည်း။	-8.98681
▁မြောက်	-8.98802
စာကို	-8.98835
▁ခရစ်တော်၏	-8.98931
ဌာန	-8.98947
မလိုက်	-8.99058
▁အကြင်သူသည်	-8.99169
▁ဒဏ်ခတ်	-8.99182
သောသူတို့၏	-8.992
တို့ကို၎င်း	-8.99214
▁????????????	-8.99263
▁မိန့်တော်	-8.99364
ကယ်	-8.99433
▁အတောင်	-8.99462
▁ငါပြု	-8.99599
▁စွန့်	-8.99797
ခန့်ထား	-8.99977
အကျင့်ကို	-9.00058
ခိုက်	-9.00191
▁ဝေး	-9.00193
ထိန်း	-9.00197
▁ညီ	-9.00342
ယုဒ	-9.00375
လာသော	-9.00412
ပြေ	-9.00482
အဝတ်ကို	-9.00618
▁အမှုတော်	-9.00798
▁အမိန့်တော်ကို	-9.00973
▁တစုံတခု	-9.00976
လည်	-9.01032
တာ	-9.01035
▁????????	-9.0104
ဣ	-9.01112
▁ကြွလာ	-9.0118
တော်မူသည်ကို	-9.01209
ကေ	-9.01222
သည်နှင့်အညီ၊	-9.01279
အသံ	-9.01351
▁မိဘ	-9.01479
အကျိုး	-9.01531
အကျွန်ုပ်	-9.01554
ပြတ်	-9.01642
ပြင်သို့	-9.01969
တို့မှ	-9.02036
▁ယ	-9.0204
▁တန်ခိုး	-9.02072
အနား	-9.02183
▁ကယ်နှုတ်	-9.02294
▁ပြုပြင်	-9.02414
▁ပစ်	-9.02556
▁ကာ	-9.02563
တို့နှင့်အတူ	-9.02614
▁မှာထားတော်မူ	-9.02681
ဆိတ်	-9.02721
တို့အဘို့	-9.02808
ဆင်း	-9.02887
▁စိုးရိမ်	-9.03176
ဝါ	-9.03193
ဆက်ဆံ	-9.03314
▁နန်းထိုင်	-9.03314
▁တပြည်လုံး	-9.03314
က္က	-9.03332
မရှိသော	-9.03401
ချီ	-9.0341
▁ယွာဘ	-9.03444
▁တရားသဖြင့်	-9.03575
▁လာ၍	-9.03687
အမျိုး၊	-9.03692
▁မှားယွင်း	-9.03839
▁နားလည်	-9.04026
ကြစေ။	-9.04078
ပိုင်း	-9.0409
သောစကားကို	-9.04239
▁ငှါ	-9.04288
ပြည်မှ	-9.04317
လျှာ	-9.04377
▁တိုင်အောင်	-9.04401
▁ပုံ	-9.04432
ရဲတိုက်	-9.04435
နီ	-9.04489
▁ဆီးတား	-9.04669
▁ယခုမှာ	-9.04691
အမိန့်တော်	-9.04736
▁သွန်သင်	-9.0479
▁လွန်ကျူး	-9.04829
▁အမှုတော်ကို	-9.0484
▁တူ	-9.04925
ဆုံးမ	-9.05024
တံခါးဝ	-9.05033
▁တာ	-9.05113
▁???????????	-9.05158
▁သိတင်း	-9.05295
ဘာသာ	-9.05338
▁အစဉ်မပြတ်	-9.05479
တန်တိုင်း	-9.05508
ဖြစ်လိမ့်မည်။	-9.05509
တတ်သောသူ	-9.05519
နှမ	-9.05602
ပေါင်းဘော်	-9.05678
သမျှတို့ကို	-9.05781
▁ကား၊	-9.05895
▁ရန်သူတို့	-9.05925
▁ပယ်	-9.05974
သား၊	-9.05974
အိမ်ကို	-9.06077
ခြင်းငှါ၎င်း၊	-9.06215
ကိုသာ	-9.06266
▁အဆွေအမျိုး	-9.06381
▁အာသ	-9.06462
ပဌနာ	-9.0647
▁ဖိလိတ္တိ	-9.06484
နံ့သာ	-9.06538
▁ကျမ်းစာ	-9.06539
▁ဤသူ	-9.06583
လူများ	-9.06594
ထံမှ	-9.06651
ပေတည်း။	-9.0666
ပြုစု	-9.06662
မယူ	-9.06732
စာရင်း	-9.06771
၌နေသော	-9.06781
ကြွတော်မူ	-9.06936
ခြင်းငှာ	-9.06947
ရှိပါ၏။	-9.07065
ညှဉ်းဆဲ	-9.07218
▁ဣဇာက်	-9.07365
နိုင်အောင်	-9.07411
▁သူ၌	-9.07516
▁ဂိလဒ်ပြည်	-9.07638
▁ငါပြော	-9.07707
▁အဲဂုတ္တုပြည်၌	-9.07735
▁ဤလူမျိုး	-9.07815
ဝိညာဉ်တော်	-9.07828
▁သင့်အား	-9.08009
ပေး၏။	-9.0802
▁တပည့်တော်	-9.08116
ထွန်း	-9.08151
▁စုံစမ်း	-9.0827
▁အတွင်း	-9.08288
▁မရှိ	-9.08297
▁ယဇ်ပုရောဟိတ်သည်	-9.08298
▁မြည်တမ်း	-9.08386
▁ကျန်ကြွင်းသော	-9.08432
▁အခွင့်ကို	-9.08599
▁ပုန်ကန်	-9.08639
▁ရောင်း	-9.08641
▁ဥယျာဉ်	-9.08683
ဖျား	-9.08749
▁စစ်ချီ	-9.08771
ဟာန	-9.0886
ပြီးသော	-9.08863
များတို့ကို	-9.089
▁အာဇ	-9.08903
တမျိုး	-9.08928
အမိ	-9.09016
ဖြစ်သည်ကို	-9.09101
သူငယ်	-9.09126
ရမည်အကြောင်း	-9.0914
▁ကျွန်ခံ	-9.09206
လက်ခံ	-9.09234
▁ဗာလ	-9.0925
▁ဖန်ဆင်း	-9.09257
▁အပေါင်းတို့	-9.09268
▁ငါနှင့်	-9.09455
▁မတရားသောသူ	-9.09556
ဗေလ	-9.09579
ခြင်းသို့ရောက်	-9.09599
နည်းတူ	-9.09619
▁မုန်း	-9.09681
မြဲ	-9.09689
▁နှုတ်ဆက်	-9.0981
ညွတ်	-9.09873
▁မြေမှုန့်	-9.09873
▁အကုန်အစင်	-9.09873
အရိပ်	-9.09888
ပေါ်ထွန်း	-9.09915
ညှိ	-9.09933
လမ်းကို	-9.09977
ဆီဥ	-9.10039
▁ပိတ်	-9.10068
ရှိသောသူ	-9.10143
ပါပြီဟု	-9.10146
အပြစ်ကြောင့်	-9.1019
လော့	-9.10192
▁ရိုက်	-9.10231
▁စွန့်ပစ်	-9.10246
လုပ်၍	-9.1028
▁ထိုအမှု	-9.10344
လောင်း	-9.10379
▁ရှောက်သွား	-9.10403
သေး၏။	-9.10416
ဖောက်	-9.10521
နည်းဟူမူကား၊	-9.10638
မည်ကို	-9.10797
▁အဘိ	-9.10804
ရေကို	-9.10948
ဒုက္ခ	-9.11003
▁အချင်းလူသား၊	-9.11009
▁ကြီးသော	-9.11015
လှည့်လည်	-9.11032
အသက်ရှင်	-9.11059
▁ကောက်	-9.11064
▁သခင်၊	-9.11103
သောစကား	-9.11172
လာ၏။	-9.11345
သမျှအတိုင်း	-9.11393
▁လူအသက်ကို	-9.11445
ဆပ်	-9.1146
ရှောက်	-9.11492
▁ပညတ်တော်	-9.1165
ယေရှု	-9.11756
တဦး	-9.12013
တိရစ္ဆာန်	-9.12109
၌လည်း	-9.12182
▁ကိုယ်ကိုကိုယ်	-9.12268
လျက်ရှိသော	-9.12286
တည်းဟူသော၊	-9.1229
▁အရှင်မင်းကြီး	-9.12349
ကျိုး	-9.12468
အပေါ်	-9.12512
အကြောင်းအရာ	-9.12554
ရှိ၍	-9.12559
ခွ	-9.12662
▁စည်းစိမ်	-9.12784
▁သူတို့၌	-9.12886
▁အရေဖျားလှီး	-9.12897
▁လုလင်	-9.12942
▁ကိုင်	-9.12993
ခြ	-9.13015
▁ဝန်	-9.13019
▁ငါကြား	-9.13076
▁ဤသူတို့သည်	-9.13283
▁မှန်	-9.13317
ထမ်းဘိုး	-9.13321
ခန်း	-9.13369
▁စုဝေးစေ	-9.1342
လောဟု	-9.13423
ညဉ့်	-9.13443
တစုံတခု	-9.13446
▁စားသောက်	-9.13486
▁တိုင်	-9.13508
▁ဖျက်	-9.13518
ဇေ	-9.13531
တို့နှင့်တကွ	-9.13631
သို့သွား၍	-9.13816
▁မေတ္တာ	-9.13816
ဆောက်	-9.13886
ရှိတော်မူ	-9.13922
ငြိမ်	-9.14247
▁အဆင်း	-9.14363
တစုံတယောက်	-9.14371
သုံးယောက်	-9.14414
▁ယေရောဗောင်	-9.14498
▁ဖာရောဘုရင်	-9.14498
▁အာဟပ်	-9.14498
▁ပြုစု	-9.14514
ပေးသော	-9.14516
▁ဤသူသည်	-9.1454
ပြောင်းလဲ	-9.14604
ပြောဆို	-9.1471
မုန်း	-9.14724
အဘယ်သို့	-9.14811
ေါ	-9.15062
▁၎င်း၊	-9.15107
ဖြစ်ကြ	-9.15154
ကြသောအခါ၊	-9.15218
နှစ်ကောင်	-9.15251
▁အတိုင်း၊	-9.15316
ခိုင်မာ	-9.15357
▁ကူး	-9.15471
တွင်း	-9.15496
▁မမြင်	-9.155
သင်၏	-9.15513
▁ညဉ့်	-9.15549
▁အပြစ်တင်	-9.1559
▁ထောက်	-9.15643
▁ယောနသန်	-9.15688
ကျွမ်း	-9.15689
လည်ပင်း	-9.15691
နိုး	-9.15695
လွှင့်	-9.15696
မှာထား	-9.15731
▁အမှန်	-9.15772
စပျစ်သီး	-9.15848
▁ငှက်	-9.15865
▁ယနေ့တိုင်အောင်	-9.15875
ဘို့ရာ	-9.15894
ရွေ့	-9.15969
▁ရှောလုသည်	-9.16035
▁ကင်း	-9.16058
များပြား	-9.16077
စွန့်	-9.1622
မှစ၍၊	-9.16295
မင်းသည်	-9.16368
▁မိုက်သောသူ	-9.1641
▁ဒါဝိဒ်၏	-9.16429
▁လည်း၊	-9.16493
ရေတွင်း	-9.16629
ကူး	-9.16837
မန်	-9.16873
▁အာမောရိ	-9.16893
တဘက်တချက်	-9.16893
▁သို့ပြုလျှင်	-9.1691
▁အုပ်	-9.16934
▁သိုးထိန်း	-9.16952
▁ရပ်	-9.17008
▁စားပွဲ	-9.17072
▁မြို့နယ်	-9.17102
မဖြစ်	-9.17181
▁ထိုအရာ	-9.17182
လုလင်	-9.17327
ဟံ	-9.17358
ဦးမည်။	-9.17694
ခြင်းကိုခံရ	-9.17743
▁ပျောက်	-9.17755
စိတ်ဝိညာဉ်	-9.17776
သောအပြစ်	-9.17813
▁အမိန့်တော်	-9.1788
ကြကုန်အံ့။	-9.18113
ခေါ်ဝေါ်	-9.18113
▁ငြိမ်သက်ခြင်း	-9.18113
အမှုအရာ	-9.18116
▁ဆင့်ဆိုရမည်မှာ၊	-9.1812
▁ပယ်ရှား	-9.18175
သက်သက်	-9.18202
ခြင်းအကြောင်း	-9.18239
▁ယုံ	-9.18289
▁သားရဲ	-9.183
▁မိန့်	-9.18425
အိပ်	-9.18473
သောသူတို့အား	-9.18474
▁ယုဒအမျိုးသား	-9.18522
▁အသင်းတော်	-9.18581
ထို	-9.1868
▁မတွေ့	-9.18725
သူရဲ	-9.18925
▁ထာဝရဘုရားအဘို့	-9.18957
▁လူအမျိုးမျိုး	-9.18977
ထိုက်	-9.19047
အစွမ်းသတ္တိ	-9.19347
▁နို့	-9.19347
▁အခြားတပါးသော	-9.19349
တော်မမူပါနှင့်။	-9.19365
▁တဲ	-9.19401
▁အိပ်မက်	-9.19402
▁တိုင်ပင်	-9.19513
▁ဆင်ခြင်	-9.19561
▁?????????????	-9.19582
သည်ကို၎င်း၊	-9.19645
▁ဇေ	-9.19702
သောအရာတို့ကို	-9.19787
▁ထိုစကားကို	-9.19886
ကျပ်	-9.19904
ရိုက်	-9.19941
နှင်ထုတ်	-9.19945
▁ကော	-9.19955
ရှိလျှင်၊	-9.20152
နှစ်သက်	-9.20175
သမျှကို	-9.20295
▁ချိုင့်	-9.20296
▁သာ	-9.20365
▁အရပ်ရပ်	-9.20413
တော်နှင့်	-9.20494
ဟောင်း	-9.20509
▁ပို့ဆောင်	-9.20603
▁ထို့ကြောင့်	-9.20605
▁ဧလိရှဲ	-9.20607
▁ကြီးမြတ်	-9.20669
▁ယေရှုက	-9.20678
▁ထားဘေး	-9.20732
စီရင်ထုံးဖွဲ့	-9.20764
ကြိုးစား	-9.20815
▁ဆုံး	-9.20837
ရာ၊	-9.20857
▁သိမြင်	-9.20865
ခုတ်	-9.20917
▁ခါနာန်ပြည်	-9.20926
▁မရောက်	-9.21071
ဥ	-9.21085
▁ထိုနေ့၌	-9.21102
မှူး	-9.21149
သောစိတ်	-9.21222
အလင်း	-9.21224
အထွ	-9.21225
▁သားဦး	-9.21306
▁ပြန်၍	-9.2146
▁အမျက်ထွက်	-9.2147
▁ရေတွက်	-9.21618
▁မဟာ	-9.21661
▁အသက်ကြီး	-9.21754
သတို့သမီး	-9.21826
မှီဝဲ	-9.21863
▁မနာရှေ	-9.21867
သိုထား	-9.21903
▁ကုလားကာ	-9.21928
သွန်းလောင်း	-9.21959
လှုပ်	-9.22037
လေသော်၊	-9.22105
▁လမ်း၌	-9.22163
စမ်း	-9.22295
▁ဖြစ်သတည်း။	-9.22431
▁အမွေခံ	-9.22496
တယောက်တည်း	-9.22498
▁ရှုတ်ချ	-9.22498
ရွှေ	-9.22543
အသီးအသီး	-9.22684
နှစ်တွင်	-9.22716
အသံနှင့်	-9.2291
▁လျှောက်လေ၏။	-9.22979
▁ရှင်ဘုရင်၏	-9.22996
▁လျှောက်ဆို	-9.23037
ခြင်းရှိ၏။	-9.23051
ဖြန့်	-9.23078
မရှိရ။	-9.23113
▁အနံ	-9.23121
ဒံယေလ	-9.23145
▁သတ္တမ	-9.23146
▁ကျိန်ဆဲ	-9.23146
▁သမုတ်	-9.23148
▁သစ်ပင်	-9.23176
ယောရှဖတ်	-9.23184
သို့၎င်း၊	-9.23211
▁မထီမဲ့မြင်ပြု	-9.23405
▁ညည်းတွား	-9.23788
▁သတိပြု	-9.23872
▁စိုက်	-9.23883
▁ဂတိတော်	-9.23948
▁မောဘပြည်	-9.24016
▁သင်္ချိုင်း	-9.2402
နှိမ့်ချ	-9.24043
စာရေး	-9.24073
ကိုယ်တော်	-9.24098
▁ချိုး	-9.24199
▁ပြည့်	-9.24249
▁စုံလင်	-9.24272
ထုံးစံ	-9.24444
▁ရဲရင့်	-9.24444
ဆံပင်	-9.24444
အစဉ်အဆက်	-9.24445
▁ခွန်အားကြီး	-9.24447
အရှိန်	-9.24473
လျက်နေ၏။	-9.24477
နိုင်ငံတော်	-9.24482
မိုး	-9.24507
ခန္	-9.24546
▁ထိုမင်း	-9.24618
▁တရားတော်	-9.24628
ထံမှာ	-9.24677
▁သူအပေါင်းတို့	-9.24705
ပြု၏။	-9.24732
▁မှာလိုက်	-9.24823
သားတော်	-9.24856
ပြပ်ဝပ်	-9.24914
▁ခွန်အား	-9.24988
သည်ဖြစ်၍	-9.25004
မသေ	-9.2507
နေ့တွင်	-9.25231
ပေါင်းကား	-9.25274
န္	-9.25387
ခန့်	-9.25406
▁ရှု	-9.25633
▁ပြင်းစွာ	-9.25677
တောင်းပန်	-9.25699
ပျော်မွေ့	-9.2576
▁ကယ်လွှတ်	-9.25789
▁ချည်နှောင်	-9.2583
▁ငါသည်လည်း	-9.25844
▁ပြောဆို၏။	-9.25874
▁အိပ်ပျော်	-9.25926
နှုတ်ကပတ်တော်သည်	-9.2593
▁ဤအရပ်၌	-9.25936
ဘက်သို့	-9.25953
မျှော်	-9.26072
▁ငါ၏လူ	-9.26228
▁လူတို့ကို	-9.26281
ဖြစ်စေခြင်းငှါ	-9.26319
နု	-9.26326
▁ဖြစ်စေ	-9.2639
▁လင်	-9.26466
ထိုက်သော	-9.26587
ပူ	-9.26595
▁အမိန့်	-9.26641
ဇော	-9.26719
အကြံ	-9.26745
▁အမ္မုန်	-9.26821
▁နောင်	-9.26836
▁အာန	-9.2687
မည်လောဟု	-9.26965
မြဲမြံ	-9.27093
သခင်ယေရှုခရစ်	-9.27093
▁အကြင်	-9.27103
▁ဖြောင့်မတ်သော	-9.27122
ကြသလော။	-9.27149
▁ရွေးနှုတ်	-9.27163
လှံတံ	-9.27183
▁ဧသော	-9.27201
သို့သွား	-9.27274
ချင်သော	-9.27302
▁အမျိုးအနွယ်	-9.27336
▁အနှစ်	-9.27344
ရွေးကောက်	-9.27631
▁အမြဲ	-9.27662
▁ဤမြို့	-9.27953
စိမ်း	-9.27958
ဟန်	-9.27964
▁အသေသတ်ခြင်းကို	-9.28194
အသွေး	-9.28213
▁မောရှေနှင့်	-9.28254
ဤ	-9.283
▁အမှီပြု၍	-9.283
▁လူသား	-9.28311
▁သိမ်း	-9.28364
လက်ဝါးကပ်တိုင်	-9.28444
အကြီးအကဲ	-9.28444
▁ရှေ့ဦးစွာ	-9.28444
▁သမုဒ္ဒရာ	-9.28444
ပကတိ	-9.2845
▁ဆုံးရှုံး	-9.28467
ပျက်စီးခြင်းသို့	-9.28559
▁ရှောင်	-9.28563
မြေကြီး	-9.28609
▁ဆင်းသက်သော	-9.28747
ဝမ်း	-9.28777
ဘုရားသခင်၏	-9.28923
နန်း	-9.2893
သားအပေါင်းတို့	-9.28936
သွား၏။	-9.28973
▁ယူသွား	-9.28979
▁ဆိုလေ၏။	-9.29032
ရသောအခွင့်	-9.29095
▁ယုဒလူတို့	-9.2921
ခါး	-9.29238
▁ကြားရ	-9.29394
လောင်	-9.29411
▁ကြံစည်	-9.2948
▁ငြိမ်ဝပ်စွာ	-9.29593
ပါလော့။	-9.29626
▁အဝတ်ကို	-9.29643
▁ကွဲပြား	-9.29685
ဘုရင်	-9.29761
မှည့်	-9.29795
▁သွန်း	-9.29799
လှန်	-9.29803
▁သုတ်သင်ပယ်ရှင်း	-9.29814
တင့်တယ်	-9.29814
နေဗုခဒ်နေဇာ	-9.29814
▁ဧည့်သည်	-9.29814
▁ရှင်းရှင်း	-9.29814
ထား၍	-9.2982
ဒုစရိုက်	-9.29832
▁ကျွန်တော်တို့	-9.29835
တို့ရှေ့မှာ	-9.29842
မပြတ်	-9.29873
▁စားစရာ	-9.29937
▁သည်းခံ	-9.29965
▁ငါ့ရှေ့မှာ	-9.29972
ခုံ	-9.29985
▁နေ့	-9.30053
လျက်ရှိကြ၏။	-9.30111
နှင့်သူ၏	-9.30138
သောအားဖြင့်	-9.30151
ကွဲ	-9.30228
▁ကြွင်းသော	-9.30292
ပါလျက်	-9.30383
မျက်	-9.30403
ခြင်းအမှုကို	-9.30656
▁လေဝိ	-9.30745
ကြသည်ကို	-9.30794
အကောင်	-9.30808
▁နတ်ဆိုး	-9.30851
▁ခရစ်တော်သည်	-9.30923
ကျန်	-9.30948
▁ဂေါ	-9.30968
▁ဘုရားကို	-9.31086
လက္ခဏာ	-9.31201
▁မုတ်ဆိုးမ	-9.31203
▁အဗရှလုံ	-9.31203
▁ရှေး	-9.31229
စ္စ	-9.31257
ချီးမြှောက်	-9.31288
ပိုက်	-9.31313
လျောက်	-9.31341
အရေအတွက်	-9.31492
▁အလျှင်းမ	-9.31531
▁အမှုအရာ	-9.31604
လက်နက်	-9.31608
▁ငါမှာထား	-9.31735
▁ဝင်စား	-9.31837
▁တောင်ပေါ်	-9.32069
ကြွလာ	-9.3216
မထား	-9.32309
▁အာဏာ	-9.32369
မပျက်	-9.32399
သောနေ့၌	-9.32497
တဝက်	-9.3255
▁နေကြ	-9.32574
ကျိပ်	-9.32583
▁အာဗြံ	-9.32611
ငတ်မွတ်	-9.32611
တိုးပွား	-9.32611
အပေါင်းအဘော်	-9.32612
▁လက်နက်	-9.32623
နှင်	-9.32626
▁ထိုအတူ	-9.3266
▁နိုင်ငံ	-9.32662
▁သူကို	-9.32678
တပါးတည်း	-9.32693
နှစ်ရာ	-9.32723
▁တုန်လှုပ်	-9.32741
▁ဘုန်းကြီး	-9.32759
▁ပေါင်း	-9.32801
▁အမိန့်တော်ရှိ	-9.32807
လက်ထက်	-9.32817
ချေ	-9.32856
▁မိမိလူ	-9.32864
ပျက်စီး	-9.32871
▁တန်ခိုးတော်	-9.32879
▁ရှမာရိမြို့	-9.33051
လေးဆယ်	-9.33072
▁ဟေဇကိ	-9.33127
တော်မူသည်ဟု	-9.33149
ချေး	-9.33395
▁ထိုသူ၏	-9.3342
▁ထိုသူတို့ကို	-9.33429
▁အားကြီးသော	-9.33485
ကလေး	-9.33573
ပတ်လည်	-9.336
▁ငါတို့၏	-9.33756
ခေါ	-9.33767
ရေလ	-9.33778
▁ရောက်သောအခါ၊	-9.33804
▁အံ့ဩ	-9.33862
▁နက်နဲ	-9.33903
ဆူ	-9.33939
▁မှူးမတ်	-9.33958
▁ငြိမ်ဝပ်	-9.33966
▁အပေါင်းတို့သည်	-9.33974
တံပိုး	-9.3404
ညှိုးငယ်	-9.3404
လှုပ်ရှား	-9.3404
▁ဤလောက	-9.34041
လက်ရုံး	-9.34041
▁ဤရွေ့ကား	-9.34043
▁စေ့စေ့	-9.34045
▁ဘုန်းတော်	-9.34064
ပြေး၍	-9.34083
လုံ	-9.34085
▁မီးလောင်	-9.34097
▁သက်ရောက်	-9.34141
▁အရေ	-9.34142
▁အိုဘုရားသခင်	-9.34144
တကောင်၊	-9.34159
မြေး	-9.34211
စိုးရိမ်	-9.34226
စွန်း	-9.3425
▁ခိုလှုံ	-9.34273
သည်ဖြစ်စေ၊	-9.34285
နားမလည်	-9.34298
▁သေတ္တာ	-9.34329
န္န	-9.34355
▁ထိုအရပ်	-9.34407
▁လျ	-9.3449
▁ထိုအမှုကို	-9.34532
ထောင့်	-9.34533
စပါး	-9.34745
မ္မအမှု	-9.34861
▁မော	-9.34905
အလယ်	-9.35013
▁လောင်	-9.35077
▁ပေးတော်မူ၏။	-9.35112
လယ်	-9.3524
▁ထိုသို့ပြု	-9.35308
▁ဣသရေလအမျိုး၌	-9.35312
မာရိ	-9.35322
▁ရေကို	-9.35439
နှိပ်စက်	-9.35489
အင်တုံ	-9.35489
နွမ်း	-9.3549
သောသဘော	-9.35493
အနည်းငယ်	-9.35502
▁ထိုလူ	-9.35509
ခြုံ	-9.35563
▁ပြန်လျှောက်	-9.35599
လ္လ	-9.35716
▁စပျစ်ဥယျာဉ်	-9.35724
▁ဒုစရိုက်အပြစ်	-9.35921
▁အစိုးရ	-9.35971
▁ရှောက်	-9.3606
အခွင့်နှင့်	-9.36108
▁ဆေး	-9.36152
▁မြင်ရ	-9.36156
ရိမ်	-9.36261
ထိုး	-9.36375
ရောက်သောအခါ၊	-9.36392
ဒေါသ	-9.36402
▁အခွင့်ရှိ	-9.36544
▁ခေါ်၍၊	-9.36549
▁ထွက်လာ	-9.36627
▁သက်သာ	-9.36637
အဝင်	-9.36796
မသွား	-9.368
ကြပါစေသော။	-9.36856
ခြင်းကိုခံ	-9.36896
▁အဲဂုတ္တုလူတို့	-9.36922
ဆည်းကပ်	-9.3696
ဘေးဥပဒ်	-9.3696
မြှား	-9.3696
ဖြိုဖျက်	-9.3696
▁အခွန်	-9.36963
▁ယေရုရှလင်	-9.36973
▁မယ်တော်	-9.36978
အရွယ်	-9.36988
▁ဂုဏ်အသရေ	-9.37042
ချိုင့်	-9.3706
ငိုကြွေးမြည်တမ်း	-9.37091
ဣသရေလ	-9.37137
▁ထားနှင့်	-9.37183
အောက်မှာ	-9.37285
ပိုင်သော	-9.3734
ယာကုပ်	-9.37348
ကြပါပြီ။	-9.37392
ချိုး	-9.37412
ဆဲ	-9.37469
▁ပရောဖက်ပြု	-9.37478
ဥာဏ်	-9.37489
သီချင်း	-9.37493
တစု	-9.37537
ကယ်တင်	-9.37554
▁လွှတ်လိုက်	-9.3778
▁လည်	-9.3779
▁အသေကောင်	-9.37812
▁အမျိုးသားချင်း	-9.37865
ဗိမာန်	-9.37876
▁ပြန်ပြော၏။	-9.37919
▁ဟူသော	-9.38082
ကိုခေါ်၍၊	-9.3813
ိညာဉ်တရား	-9.38146
များတို့	-9.38174
▁ငါပေး	-9.38174
▁ထွက်၍	-9.38274
ဝတ်ကို	-9.38282
▁မြွက်ဆို	-9.38339
ပြာ	-9.38444
လူအစုအဝေး	-9.38452
▁တံပိုးမှုတ်	-9.38452
▁ဖါရောဘုရင်	-9.38452
▁ကြွယ်ဝ	-9.38452
နှမြော	-9.38453
▁မုန့်ညက်	-9.38453
▁ချို	-9.38541
▁သုံးရက်	-9.38593
ထိပ်	-9.38609
▁ပလ္လင်	-9.38656
ဘက်မှာ	-9.38675
▁သမ္မာတရား	-9.38688
▁ဗိမာန်တော်၌	-9.38706
▁အဦး	-9.38879
▁တမန်	-9.39001
▁ပြည်သူပြည်သား	-9.3903
▁ချီသွား	-9.39035
မျက်မှောက်၌	-9.39045
နိုင်သနည်း။	-9.39051
▁အရာကို	-9.39082
စိုက်	-9.39106
အာရှုရိရှင်ဘုရင်	-9.39127
ရာ၌	-9.39168
ယဇ်ပလ္လင်ပေါ်မှာ	-9.39176
မီးရှို့	-9.3923
▁အစိုးရသော	-9.39322
▁ထိုမြို့၌	-9.39358
ဟူ၍၎င်း	-9.39371
ခင်	-9.39401
သေးသော	-9.39452
ကြည့်ရှု၍	-9.39536
ဘွားသော	-9.39552
စည်းစိမ်	-9.39697
၌ပါသော	-9.39709
အရောင်	-9.39845
အိုင်	-9.39853
▁အောက်	-9.39879
ပြန်လျှင်၊	-9.3992
▁သူတို့နှင့်	-9.39956
မိန်းမောတွေဝေ	-9.39967
▁နံ့သာပေါင်းကို	-9.39968
▁မိဒျန်	-9.39968
▁တတိယ	-9.39968
▁အပြစ်ကို	-9.39979
▁လှည့်စား	-9.39989
▁အသွေးကို	-9.40193
သန္	-9.40215
▁ယောရှုသည်	-9.40241
▁စေလွှတ်တော်မူ	-9.40416
▁စေလွှတ်၍၊	-9.40459
▁ဆင်းရဲသား	-9.40475
ပြောင်း	-9.40612
မလာ	-9.40638
မင်း၏	-9.40645
ကူ	-9.40709
မောရှေ	-9.40729
ပယ်ရှင်း	-9.40767
▁လွှမ်းမိုး	-9.40901
တမန်	-9.40919
▁ဆောက်	-9.40942
▁ရှ	-9.4095
ကိုယ်တိုင်	-9.41014
▁မိန်းမသည်	-9.41128
▁ခြောက်	-9.41151
သောစိတ်ရှိ	-9.41157
▁အမျက်	-9.41157
▁တပ်ချ	-9.41231
၌၎င်း	-9.4125
▁ပေးလိုက်	-9.41292
▁အလျား	-9.41498
အကြွင်းမဲ့	-9.41506
▁ထိုမျှမက	-9.41506
စို့	-9.41507
နှင့်စပ်ဆိုင်	-9.41507
လျင်	-9.41566
▁ခါး	-9.41625
စွဲလမ်း	-9.41634
လျက်ပင်	-9.41689
▁ပြင်းစွာသော	-9.41802
ခုနစ်ဆယ်	-9.4182
▁ဒဏ်	-9.41909
▁ဖြစ်လိမ့်မည်။	-9.41913
ချမ်းသာ	-9.42081
▁ထိုမင်းသည်	-9.42162
တန်း	-9.42188
ပါစေ	-9.42319
▁ဆင်းရဲသောသူ	-9.42345
မလုပ်	-9.42391
အသရေ	-9.42412
သိတင်း	-9.42433
▁လူတိုင်း	-9.4252
ွေလ	-9.42647
အသက်ကြီးသူ	-9.42696
▁ဝိညာဉ်တော်သည်	-9.42774
▁ငါ့ကျွန်	-9.4279
▁ယေရှုကို	-9.42944
တော်မူသောအခါ၊	-9.42981
လက်ထက်၌	-9.43026
ျဉ်း	-9.43035
▁ဘိသိက်	-9.43068
ဝံ့	-9.43069
▁ကျွေးမွေး	-9.43072
အဆွေအမျိုးအလိုက်	-9.43074
▁တရားကို	-9.4308
▁မီးရှို့ရာ	-9.43082
နောက်တော်သို့	-9.43088
ဆင်ခြင်	-9.4309
ရှင်း	-9.43303
▁ကိုးစား	-9.4333
မဆို	-9.43376
ချက်တို့ကို	-9.43488
▁မကြောက်	-9.43595
မရောက်မှီ	-9.43596
▁ကယ်	-9.43685
▁သီချင်း	-9.437
▁ကာလပတ်လုံး	-9.43755
ခေါင်းပေါ်မှာ	-9.43913
ရာတွင်	-9.4403
လုပ်ကြံ	-9.44105
▁အိမ်နီးချင်း	-9.44146
ပြင်ဆင်	-9.44149
ငါ့ကို	-9.44407
ထွက်သွား	-9.44464
▁လှေ	-9.44484
▁ကျေးဇူးကို	-9.44624
ငြင်း	-9.44644
အကြံအစည်	-9.44656
▁မြင်းစီးသူရဲ	-9.44656
အနာရောဂါ	-9.44656
▁စာရေးတံ	-9.44657
▁အဘိမလက်	-9.44657
ပါစေနှင့်။	-9.44701
▁တွင်း	-9.44704
တိုင်တည်၍	-9.44738
▁ဧဝံဂေလိတရားကို	-9.44767
ထွေး	-9.44786
စကားဟူမူကား၊	-9.44798
ရာသို့	-9.44838
သောနောက်၊	-9.44845
အမွေ	-9.44863
▁ကောင်းကြီး	-9.44891
▁သတ္တဝါ	-9.44908
▁သိမှတ်	-9.45032
ထု	-9.45162
▁ဤအရပ်	-9.4528
▁အပင်	-9.45289
သားမြေး	-9.45343
▁ဗာလမ်	-9.45347
ဖြစ်လေ၏။	-9.45475
▁အာရှုရိ	-9.45559
▁မသွား	-9.45607
ပို	-9.45629
လျော	-9.45729
▁ငါမြင်	-9.45733
▁နိမိတ်လက္ခဏာ	-9.45754
စစ်ကြော	-9.45807
အော်ဟစ်	-9.45825
ဆုတောင်း	-9.45827
▁အပ်နှံ	-9.45872
▁အသက်ကြီးသူတို့	-9.45899
▁ယာကုပ်အမျိုး	-9.4604
ပေါ	-9.46141
နှုတ်ကပတ်	-9.46149
▁ဒါ	-9.46218
▁ဘုန်းအသရေ	-9.46284
ထရံ	-9.46287
နှင့်တူ၏။	-9.46296
ငှါး	-9.46297
▁ယေရု	-9.46312
လှည့်၍	-9.46332
▁ဆန့်	-9.4636
လိမ့်မည်နည်း။	-9.46389
▁သခင်သည်	-9.46477
တော်မူကြောင်းကို	-9.46478
ကြပြီဟု	-9.46482
▁အရပ်၌	-9.46545
▁ကိ	-9.46554
အထဲ၌	-9.4657
ပေးလိုက်	-9.46589
ကိုင်လျက်	-9.46606
ယဇ်ပလ္လင်	-9.46637
သေး။	-9.46644
▁ရောက်ကြ၏။	-9.46648
▁ကောင်းကင်ဘုံ၌	-9.46661
▁စစ်ကြော	-9.46683
ဒု	-9.46708
ထား၏။	-9.46747
စေတော်မူပါ။	-9.46811
▁ကောင်းကင်ဘုံ	-9.46862
ဆီး	-9.46972
ရထား	-9.47118
▁ငါတို့၌	-9.47198
▁နေရာကျ	-9.47199
▁ရိုသေ	-9.47327
▁နားထောင်ကြလော့။	-9.47373
▁ဤအမှုကို	-9.47392
▁မမူ	-9.47423
ရသောအခွင့်ကို	-9.47434
▁ကွပ်မျက်	-9.47627
အခြား	-9.47639
▁မိမိကျွန်	-9.47642
သတ္တဝါ	-9.47648
ရှာ၍	-9.47698
သွေ့ခြောက်	-9.47908
▁ကုလားအုပ်	-9.47908
ဥပမာ	-9.47908
ပြန်၏။	-9.4791
လျှင်၎င်း၊	-9.47917
▁ငါသိ၏။	-9.47927
▁ညဉ့်အခါ	-9.47928
▁တပ်မှူး	-9.4795
▁အသီးသီး	-9.47987
▁နောင်တရ	-9.48141
အသားကို	-9.48208
▁ဣသရေလလူ	-9.48217
အရှင်ဘုရားသခင်	-9.4828
▁ဘမ်းဆီး	-9.48366
ကြသည်ဟု	-9.48528
မြွက်ဆို	-9.48551
▁ငါနှင့်အတူ	-9.48633
▁ပူဇော်ရမည်။	-9.48753
▁နှုတ်ဆောင်	-9.48816
သောသူဖြစ်၏။	-9.48859
▁ခံယူ	-9.48925
▁မြို့သား	-9.48931
▁မိမိလက်	-9.49008
ပေါလု	-9.49183
ငှာ	-9.49309
▁မြေကြီးကို	-9.49326
ရောက်စေ	-9.4936
မြော်လင့်	-9.49365
သစ္စာ	-9.49365
ကဲ့ရဲ့	-9.49367
▁ပြုရမည်။	-9.49414
ပြုသောအမှု	-9.49447
▁အဘယ်မှာ	-9.49486
▁မေ့လျော့	-9.49539
ကြည့်၍	-9.49552
ခြားနား	-9.49575
မွေ့လျော်	-9.49575
အင်္ကျီ	-9.49575
▁ပိတ်ချော	-9.49575
▁မော်ဒကဲ	-9.49575
အပိုင်းအခြား	-9.49575
တ်မြို့	-9.49605
▁သို့ဖြစ်လျှင်	-9.49607
အခ	-9.49612
▁လူသားသည်	-9.49714
▁ဝှက်ထား	-9.49717
▁သေခြင်း	-9.49737
တကာတို့	-9.49749
▁မဝင်	-9.49757
ကောင်း၏။	-9.49784
ပြန်ပြော	-9.49799
အထဲက	-9.49914
နှင့်၎င်း	-9.50152
▁ခေါ်တော်မူ	-9.50281
မြွက်	-9.50293
တော်မူသည်အတိုင်း	-9.50323
▁ခံရမည်။	-9.50329
▁ယခုမူကား	-9.50421
▁အသက်ကို	-9.50542
▁စကားတော်ကို	-9.50566
▁တိတ်ဆိတ်စွာ	-9.50842
အလျှင်း	-9.50993
ရှိရမည်။	-9.51081
ွား	-9.51135
ဗိုလ်	-9.51175
သည်ထက်	-9.51205
လေရာရာ၌	-9.5127
▁ဧလာဇာ	-9.5127
ရှိသော်	-9.5127
▁နေ့တိုင်း	-9.51338
အမှု၌	-9.51339
ဆောင်ရွက်	-9.5134
▁ဟာမ	-9.51403
စေတနာစိတ်	-9.51415
▁ဝစွာ	-9.51479
ဆန့်	-9.51521
ကြပါ။	-9.51527
အရပ်ရပ်တို့	-9.51731
▁မြင့်သောအရပ်	-9.51766
ရပ်နေ	-9.51861
ပါနှင့်။	-9.51878
သင်တို့သည်	-9.51881
▁မိမိသား	-9.51892
တော်မူပြီဟု	-9.51908
▁ကြည့်ရှုလော့။	-9.51929
မတတ်နိုင်	-9.51963
သောအားဖြင့်၊	-9.52127
▁ယခုတွင်	-9.52299
အတောင်	-9.52375
▁ငါတို့အား	-9.52408
▁ဖန်ဆင်းတော်မူ	-9.5252
▁လူများတို့	-9.52603
▁ငါစေလွှတ်	-9.52658
▁အာရှ	-9.52856
▁အာရုန်နှင့်	-9.52905
ယုံကြည်ခြင်း	-9.52914
ဝပ်	-9.5293
အင်္ဂါ	-9.52994
▁အရှက်ကွဲ	-9.52994
▁တကွ	-9.52996
ဗ္ဗ	-9.52999
အပြစ်ဖြေရာ	-9.53008
ခြောက်ဆယ်	-9.53121
▁အကျွန်ုပ်တို့၏	-9.53131
▁မတည်	-9.53161
လွ	-9.53191
ရှိသနည်း။	-9.53217
▁အဘယ်အရာ	-9.53267
▁ယေဟု	-9.53447
လမ်းဖြင့်	-9.53612
▁ရှေးကာလ	-9.53773
▁တမန်တော်တို့	-9.53855
▁ပြုကြ၏။	-9.53877
အလိုငှါ	-9.53882
▁လောက	-9.53908
အကြောင်းကြောင့်	-9.53943
ပ္ပ	-9.54111
အလိုသို့	-9.54165
▁သခင်ဘုရား၏	-9.54207
▁??????????????	-9.54234
▁စပျစ်ရည်ကို	-9.54373
▁အားဖြင့်	-9.54409
▁ခေရုဗိမ်	-9.54628
မဝင်	-9.54681
▁ထောက်၍	-9.547
ဆိုးညစ်	-9.54748
ပျားရည်	-9.54748
ပတ်ဝန်းကျင်	-9.54748
ပိုင်းခြား	-9.54748
▁အမဲသား	-9.54748
ဦးချို	-9.54749
တော့။	-9.54749
ပါစေသောဟု	-9.54759
ဟာယယဇ်	-9.54765
ဟာယဖွဲ့	-9.5477
▁ပြည်တန်ဆာ	-9.54858
▁တည်းခို	-9.54876
ကင်းလွတ်	-9.54922
ကွဲပြား	-9.54945
▁အဘ၏	-9.54972
▁ယုဒလူတို့သည်	-9.55228
▁အမှုတို့ကို	-9.55337
သားဖြစ်သော	-9.55343
▁လူများတို့အား	-9.5537
▁ဧဒုံ	-9.55382
သောသူအပေါင်းတို့	-9.55495
▁မှန်သော	-9.55546
ရှေ့သို့	-9.55546
တော၌	-9.55572
▁သူသည်လည်း	-9.55783
▁တမန်တော်	-9.561
ကျိန်ဆို	-9.5629
▁?????	-9.56342
▁ဒါဝိဒ်ကို	-9.56364
▁နေသော	-9.56374
▁စိတ်ရှိ	-9.56376
ယုံကြည်	-9.56426
မည်သည်ကား	-9.56511
ရူပါရုံ	-9.56533
တိုးပွါး	-9.56534
▁မိက္ခာ	-9.56534
▁ကျင်လည်	-9.56535
ဖြစ်၏ဟု	-9.56563
ဖတ်	-9.56581
သည်ရှိသော်၊	-9.56593
▁လမ်းခရီး	-9.56594
နိုင်ကြ။	-9.56629
အစေခံ	-9.56639
များကိုလည်း	-9.56651
▁သစ်သား	-9.56653
▁တတ်နိုင်	-9.56674
ရွှင်လန်း	-9.56678
▁နေရာချ	-9.56771
ရောင်း	-9.56777
▁ယောဘ	-9.56807
နှိုးဆော်	-9.56841
အရပ်မှ	-9.56843
▁စိတ်ပျက်	-9.56848
လှဲ	-9.57047
▁သခင်၏	-9.57089
တပါး၊	-9.57092
ရုံ	-9.57112
▁ထားဖြင့်	-9.57148
ပြုပြင်	-9.57185
▁ငါအပ်	-9.573
ရောက်လာ	-9.57329
▁ယူခဲ့	-9.57659
▁ဧဒုံပြည်	-9.57694
ခြင်းအလိုငှါ	-9.57846
▁သင်၏သား	-9.5785
ဒ္ဒ	-9.57862
ရကြလိမ့်မည်ဟု	-9.57989
ဖန်ဆင်း	-9.58017
အကြံကို	-9.581
▁ထိုပြည်၌	-9.58186
သရဖူ	-9.58352
▁ပိလတ်မင်း	-9.58352
▁မတရားသဖြင့်	-9.58354
▁ကိုက်စား	-9.58355
▁အသက်ရှင်တော်မူ	-9.58411
▁ပဌနာပြု	-9.58462
▁ထပ်၍	-9.58475
▁ငါ့ခမည်းတော်	-9.58501
လဲ၍	-9.58504
တခါ	-9.58508
▁တန်ခိုးကြီး	-9.58521
အိပ်ရာ	-9.58538
အရှေ့ဘက်	-9.58595
▁ယောက်	-9.58723
▁မိမိအဝတ်ကို	-9.58738
▁ရောက်လိမ့်မည်။	-9.58774
▁???????	-9.58776
ယဇ်ပုရောဟိတ်	-9.58784
သားကား၊	-9.58786
ကြံစည်	-9.58798
ယဇ်ပုရောဟိတ်မင်း	-9.58935
▁ဝမ်းမြောက်ခြင်း	-9.58984
အဘယ်သူ	-9.59066
ခံထိုက်	-9.59304
မျက်မှောက်	-9.59472
ချဉ်းကပ်	-9.59489
ရမည်နည်း။	-9.59543
နှစ်ခု	-9.59722
▁အလိုတော်ရှိ	-9.59957
▁အာဒ	-9.59982
▁ခံရလိမ့်မည်။	-9.59996
ဘော်ပြ	-9.60018
▁လေဝိသားတို့သည်	-9.60191
ယစ်မူး	-9.60204
ချိုးဖဲ့	-9.60204
ဖြန်း	-9.60204
▁ငြင်းပယ်	-9.60206
ယောယဒ	-9.60208
နိုင်ရာ။	-9.60209
ကြသော်၊	-9.60216
▁အပြည်ပြည်	-9.60244
▁ခုနစ်ရက်	-9.60276
အလောင်း	-9.60402
မဲ့	-9.60411
▁ငါ၏နာမ	-9.6044
မြင်း	-9.60453
ပေးမည်။	-9.60505
ပြင်မှာ	-9.60517
အနီးသို့	-9.60518
ဖါ	-9.60556
ဟာယ	-9.60579
သားတို့တွင်	-9.60642
ရလိမ့်မည်ဟု	-9.60792
▁မကြား	-9.60829
▁ထိုမှတပါး	-9.60836
▁ပြည်တော်	-9.60888
ကြော	-9.60927
စုဝေး	-9.61018
အလွန်	-9.6102
ကြောင်းကို၎င်း၊	-9.61226
▁သိတင်းကြား	-9.61235
အသွေးကို	-9.61304
တည်၏။	-9.61515
ပါမည်	-9.61613
တသောင်း	-9.61853
ကျော့ကွင်း	-9.62091
▁အမြင့်ဆုံးသော	-9.62091
စေသတည်းဟု	-9.62091
ထောင်လွှား	-9.62091
ပြည်သားတို့	-9.62122
သည်နည်းတူ၊	-9.62156
▁ခဏ	-9.62167
▁ရွှေငွေ	-9.62188
ရေး၍	-9.62189
ရမည်လော။	-9.62217
▁ရန်သူတို့ကို	-9.62232
နွယ်	-9.62396
အနောက်ဘက်	-9.62567
ပါလိမ့်မည်။	-9.62589
ပါလော့ဟု	-9.62601
▁မီးဖြင့်	-9.62639
မြို့မှာ	-9.62786
တရက်	-9.62837
လွှမ်းမိုး	-9.62839
▁ဂတိ	-9.62845
▁နက်ဖြန်နေ့၌	-9.6291
▁ယေရှုခရစ်၏	-9.63061
ဖြောင့်မတ်	-9.63096
▁ငါပေးသော	-9.63118
အမျိုးသားတို့ကို	-9.63208
အရပ်တို့၌	-9.63264
▁သင်တို့သိ	-9.63352
▁မြင့်သော	-9.63473
ခဲ့ပြီ။	-9.63522
▁အမွေခံရ	-9.63561
▁နားမထောင်ဘဲ	-9.6364
စဉ်အခါ၊	-9.63951
တကားဟု	-9.63991
ပွါး	-9.64014
လိုသောငှါ	-9.64014
▁နူနာ	-9.64014
▁ရန်ဘက်ပြု	-9.64014
▁သစ္စာဂတိ	-9.64014
▁အခါမလည်	-9.64014
ကျော်စော	-9.64014
▁တရားသူကြီး	-9.64014
▁နောဧ	-9.64015
▁စပ်ဆိုင်	-9.64019
▁ထင်မှတ်	-9.64026
တစုံ	-9.6412
▁ဆုတ်	-9.64145
အမျိုးသားချင်း	-9.64533
မ္မလူ	-9.64616
နှောင်	-9.64659
အဘယ်	-9.64708
▁အဘယ်သို့ပြု	-9.64765
တက်၍	-9.64814
▁ချမ်းသာပေး	-9.64969
▁ထိုဘုရား	-9.65096
▁အသီးအနှံ	-9.65158
ဆိုသည်အတိုင်း၊	-9.6523
▁အခွင့်ပေး	-9.65431
▁မွတ်သိပ်	-9.65974
ကြကုန်အံ့ဟု	-9.65975
နှံ့ပြား	-9.65975
ဖုံးလွှမ်း	-9.65975
▁စတုတ္ထ	-9.65975
▁စားခန်းချကြ၏။	-9.65975
▁ရည်မှတ်၍	-9.65975
▁အနိုင်အထက်	-9.65975
ရောနှော	-9.65975
▁အိုဣသရေလအမျိုး	-9.66056
သွားရာလမ်း	-9.66061
▁ဖြောင့်မတ်စွာ	-9.66137
▁အစာကို	-9.66221
▁???????????????	-9.66335
▁ဆိုလို	-9.66452
▁အရာတို့ကို	-9.66496
သုံးရာ	-9.66519
တော်မူမည်	-9.66626
စာတန်	-9.66651
▁ထူးဆန်းသော	-9.66714
▁လျှောက်ကြ၏။	-9.66794
▁ကျမ်းစာလာ	-9.66837
▁ဣသရေလလူတို့သည်	-9.67054
ရှောလမုန်	-9.67055
▁လျှောက်လျှင်၊	-9.6707
သွေး	-9.67097
▁ဖာရိရှဲတို့	-9.67217
ဝန်ခံ	-9.6732
လက်ဖြင့်	-9.67354
ပြန်လာ	-9.67496
ခိုလှုံရာ	-9.67717
အဆင်း	-9.67749
▁နောက်မှ	-9.6787
ယောက္ခမ	-9.67974
လှည့်ဖြား	-9.67975
▁ဆူးပင်	-9.67975
▁တကျွန်းတနိုင်ငံ	-9.67975
▁ပသခါပွဲ	-9.67976
▁စင်စစ်	-9.67979
▁ရှိမုန်	-9.6798
အပြစ်ဖြေခြင်းကို	-9.6798
ထံတော်မှ	-9.67984
မင်္ဂလာရှိ	-9.67985
▁တိုင်းနိုင်ငံ	-9.67986
▁ရွှေစင်	-9.68078
▁သိုးနွား	-9.68093
▁လိုက်ကြ၏။	-9.6811
▁မူပါ။	-9.68279
▁ငါတို့ဘုရားသခင်	-9.68425
၏သမီး	-9.68617
▁အနက်	-9.68997
▁အရှင်ဘုရား	-9.69106
ဂဒ်	-9.69122
ကျော်	-9.69135
သွန်သင်	-9.69224
မေးမြန်း	-9.69225
ကြောက်ရွံ့	-9.6923
တော်မူသနည်း။	-9.69269
▁မြို့တံခါး	-9.69276
နဲ	-9.6929
▁မင်းသား	-9.69327
▁ငါစီရင်	-9.69371
မည့်	-9.6963
ပေါင်	-9.69859
သနည်း	-9.69861
လေးရာ	-9.69883
ကျမ်းစာ	-9.69896
▁လှံ	-9.69941
▁ဆိုးသော	-9.69951
တဖန်	-9.69981
▁ဇာခရိ	-9.70015
▁မွှေးကြိုင်	-9.70015
▁ရောဗောင်	-9.70015
▁ဖါရောမင်း	-9.70015
▁အနတ္တ	-9.70017
နှုတ်ခမ်း	-9.70018
▁တယောက်ကိုတယောက်	-9.70021
ငြင်းခုံ	-9.70027
▁ဦးခေါင်း	-9.70028
တော်မူထသော၊	-9.70033
မြို့တိုင်အောင်	-9.70043
ကာလပတ်လုံး	-9.70053
▁တရားစရပ်	-9.7006
▁နောက်ဆုံး	-9.70172
▁စကားတော်	-9.70194
▁အမျက်ထွက်၍	-9.70285
ပြောဆို၏။	-9.70295
ျေလ	-9.70447
ဝါး	-9.70508
▁ပလ္လင်တော်	-9.70689
▁ငါ့နာမ	-9.70807
▁ကယ်တင်ခြင်း	-9.71071
နှစ်နှစ်	-9.7126
မရှိဟု	-9.71318
စပျစ်ရည်	-9.71447
စွန့်ပစ်	-9.71475
▁ယု	-9.7155
▁??????	-9.71698
▁ပြောဆိုကြ၏။	-9.717
စေတော်မူမည်။	-9.71842
ဆင့်ဆို	-9.7188
ဣသရေလအမျိုး	-9.71961
ဖြစ်စေမည်။	-9.72012
ဆင့်	-9.72015
▁ဣသရေလလူတို့	-9.72071
ထိတ်လန့်	-9.72099
အနွှယ်	-9.72099
▁ရှလင်မြို့	-9.72101
ပြစ်	-9.72151
တော်မူစေသတည်း။	-9.72162
အရပ်ရပ်သို့	-9.722
ိရှဲ	-9.72292
▁သစ္စာစောင့်	-9.72305
▁စင်ကြယ်စေ	-9.72305
နောက်၌	-9.72318
▁ကင်	-9.72341
အရပ်ရပ်၌	-9.72395
အနက်ကို	-9.72397
▁ဣသရေလပြည်	-9.72541
▁ထင်း	-9.72586
ဗေရ	-9.7273
မထွက်	-9.72835
အပေါင်းတို့အား	-9.7316
စင်ကြယ်	-9.73173
▁ဂဒ်အမျိုး	-9.73285
▁ဇိအုန်တောင်	-9.73322
ကြ၏ဟု	-9.73327
ွေ့	-9.7333
▁အနောက်	-9.73336
▁အာရုန်၏	-9.73366
▁အခြားသောသူ	-9.73435
▁တင်ထား	-9.73511
အုပ်စိုး	-9.73722
▁သင်တို့နှင့်အတူ	-9.7381
▁ဇိအုန်မြို့	-9.73827
▁မေထုန်	-9.73838
▁အပ်တော်မူ	-9.73853
▁လုပ်လေ၏။	-9.73953
ာန်	-9.74053
▁တည်စေ	-9.74069
လွှ	-9.74103
▁ကိုယ်အဘို့	-9.74142
▁ဆင်းရဲခြင်း	-9.74172
တံဆိပ်	-9.74225
▁ရှံဆုန်	-9.74226
အိမ်သူအိမ်သား	-9.74226
▁နွားထီး	-9.74226
မှီခို	-9.74227
စွမ်း	-9.74228
ပခုံး	-9.74228
▁ဖုံးအုပ်	-9.74233
▁ခုနစ်ရက်ပတ်လုံး	-9.74252
ပြုမူသော	-9.74266
▁အသက်ချမ်းသာ	-9.74321
အမည်ရှိ၏။	-9.74464
တော်မူသည်ဖြစ်၍၊	-9.74467
ခြောက်ရာ	-9.74491
▁လုပ်ဆောင်	-9.74617
▁ထင်ရှားစွာ	-9.7464
ကျောင်း	-9.74663
▁မြွက်ဆို၏။	-9.74763
ရုပ်	-9.74806
▁ဟေဗြုန်မြို့	-9.74946
▁သင်တို့အဘို့	-9.74963
အမွေခံ	-9.74975
▁ပရိသတ်အပေါင်း	-9.75142
▁ယခုပင်	-9.7524
▁ဤမည်သော	-9.75262
မသိ။	-9.75417
▁ရွေးကောက်တော်မူ	-9.75527
ပါသနည်း။	-9.75709
▁ရှမာရိ	-9.75748
▁သူတို့သည်လည်း	-9.75776
ဗတ်	-9.7588
အမြတ်	-9.75945
ပြည်သား၊	-9.75955
ဌ	-9.76144
ကိုးစား	-9.76225
ပျဉ်ပြား	-9.764
အမှန်ဆိုသည်ကား၊	-9.764
▁ဇာဗုလုန်	-9.764
▁ရာခေလ	-9.764
▁ရုပ်တုဆင်းတု	-9.764
▁ဆိတ်သငယ်	-9.764
▁ညဦးယံ	-9.764
▁အာဗနာ	-9.76401
▁အစာရှောင်	-9.76403
▁အာမလက်	-9.76405
တောင့်တ	-9.76416
နောင်တ	-9.76429
စပ်ကြား	-9.76454
▁ရှိမောင်	-9.76507
▁ဗိမာန်တော်သို့	-9.76702
▁ကျိန်းဝပ်တော်မူ	-9.76728
ချိုင့်၌	-9.768
အမ္မုန်အမျိုးသား	-9.76853
▁မြစ်ရေ	-9.76862
▁အထံတော်၌	-9.7687
▁ကဲ့ရဲ့ခြင်း	-9.77085
လက်ျာ	-9.77096
ိမ်မြို့	-9.77117
ပညတ်တရား	-9.77121
နိုင်သလော။	-9.77149
▁လက်ဝဲ	-9.77313
▁ပေးသနားတော်မူ	-9.77402
အတွင်း၌	-9.7741
▁ယေရိခေါမြို့	-9.77473
▁စိတ်တော်	-9.7768
မြေတွင်း	-9.77745
▁ဟစ်ကြော်	-9.77779
စည်းဝေးရာ	-9.77994
ထံတော်၌	-9.78197
ရှိသည်ဖြစ်၍၊	-9.78341
တုန်လှုပ်	-9.78418
▁ဒမာသက်မြို့	-9.78622
▁ဣရှမေလ	-9.78622
▁ဂိဒေါင်	-9.78623
▁အထပ်ထပ်	-9.78623
▁ဧသတာ	-9.78623
ပျံ	-9.78625
ယေရှဲ	-9.78626
▁အလိုလို	-9.7864
တွင်းထဲသို့	-9.78672
▁ရောက်လာ၍၊	-9.78708
▁ငါဆိုသည်ကား	-9.78812
▁သားဘွား	-9.78848
▁ဗာလဘုရား	-9.7888
▁နှုတ်ယူ	-9.78942
▁သေခြင်းမှ	-9.79037
ညှဉ်းဆဲခြင်း	-9.79228
▁သင်တိုင်း	-9.79315
▁မိမိနေရာ	-9.79334
ဇေဒကိ	-9.79348
▁ခပ်သိမ်း	-9.79418
▁ဖိလိတ္တိလူ	-9.79816
▁ဒဏ်ပေး	-9.80114
နေ့ရက်ကာလ	-9.80213
▁ခပ်သိမ်းသောအရာ	-9.80412
မောင်	-9.80552
ရှေ့မှ	-9.80651
လေသမျှ	-9.80802
အစဉ်အမြဲ	-9.80869
ကောင်းကင်တမန်	-9.80876
ပရိသတ်	-9.80876
▁ဂျုံ	-9.80895
▁ဟေရုဒ်	-9.80895
▁အထူးသဖြင့်	-9.80896
▁လာဗန်	-9.80896
▁ဇိဒုန်	-9.80903
ရက်မြောက်သောနေ့၌	-9.80904
▁မြေကြီးစွန်း	-9.80964
▁မီးခုံ	-9.80986
▁အားထုတ်	-9.81022
▁ဟိတ်	-9.81024
▁ဟာမန်	-9.8103
အနန္တတန်ခိုးရှင်	-9.81035
▁ဤအရာ	-9.81125
▁ဆိုးသောသူ	-9.81144
▁ကျမ်း	-9.81169
လေးပါး	-9.81185
▁သိမ်းသွားခြင်း	-9.81206
မှန်လျှင်	-9.81493
▁ငါ့ဝိညာဉ်	-9.81553
တော်မူပါစေသော။	-9.81613
▁သင်နှင့်အတူ	-9.81667
ငါးနှစ်	-9.81719
စကားသံကို	-9.8172
▁ကြံ	-9.81775
ဂုဏ်တော်ကို	-9.81796
အားဖြင့်၎င်း၊	-9.8181
မလွတ်	-9.81889
သောကြောင့်၎င်း၊	-9.81907
အမျိုးမျိုးတို့	-9.8203
▁ရှက်ကြောက်ခြင်း	-9.82278
▁ဆောင်း	-9.82333
▁သက်သေခံတော်မူ	-9.82348
▁ကိုယ်တော်၏လူ	-9.82425
တံခါးဝ၌	-9.82673
မြို့ရိုး	-9.82787
▁နက်ဖြန်နေ့	-9.82842
ကျိန်းဝပ်	-9.82871
▁သူတို့နှင့်အတူ	-9.82977
သိမ်းယူ	-9.82993
▁ဇေရ	-9.83048
ဖြောင့်မတ်ခြင်း	-9.83099
ရွံ	-9.83126
ပြီတကား။	-9.83129
▁အကြံရှိ	-9.8314
ပရိယာယ်	-9.83221
▁ဤမျှလောက်	-9.83221
▁မျက်စိကန်း	-9.83221
▁တဖန်တုံ	-9.83224
▁ဂိဗာမြို့	-9.83224
▁ဟိတ္တိ	-9.83225
တော့ဟု	-9.83235
▁သံတမန်	-9.83256
▁သက်သေခံချက်	-9.83344
ဥယျာဉ်	-9.83354
အလိုအလျောက်	-9.83365
▁ယဇ်ကောင်	-9.83385
မှူးမတ်	-9.83387
မှပြောင်း၍	-9.83411
ကျေးဇူးတော်ကို	-9.83466
▁မိဖုရား	-9.83468
▁ရှိသမျှသော	-9.83499
အရင်	-9.83523
စေမည်အကြောင်း	-9.83617
ယခု	-9.83672
ခဲ့ပြီးသော	-9.83697
▁တိတ်ဆိတ်စွာနေ	-9.83812
▁မယုံကြည်	-9.83885
▁ဂါလိလဲပြည်	-9.83992
▁ကြားသိ	-9.84077
ရေးထား	-9.84154
စကားအားဖြင့်	-9.84182
▁ဤစကား	-9.84224
▁စုံဘက်	-9.8427
ပါစေဟု	-9.84472
တတ်ပါ၏။	-9.84474
ချီးမွမ်းကြလော့။	-9.84508
▁ထိုနေ့ရက်	-9.84762
ကျော	-9.84772
▁စမ်းရေ	-9.85012
ထဲသို့ဝင်၍	-9.85031
▁အပြစ်ဖြေရာယဇ်	-9.85208
▁ထိုအရပ်မှ	-9.85235
မှာထားတော်မူ	-9.85404
ပမာဏ	-9.85561
နိမ်	-9.85581
မြှောက်	-9.85602
▁ကြိုးစားအားထုတ်	-9.85602
▁ဟေဗြဲ	-9.85602
▁ဩဇိ	-9.85602
မွှေ	-9.85602
ရှာဖွေ	-9.85603
ဗောဇ	-9.85607
▁ကွယ်ကာ	-9.85607
▁ရန်တွေ့	-9.85624
▁သွန်းလောင်းရာ	-9.85631
ပေါက်ဘော်	-9.85665
▁ဆက်ဆက်	-9.85692
စဉ်အခါ	-9.85747
▁ဒါဝိဒ်မင်းကြီး	-9.85924
စားစရာဘို့	-9.85957
▁အားနည်း	-9.85978
စုံလင်	-9.85988
▁အသေသတ်	-9.86049
▁တစုံတယောက်သောသူ	-9.86128
ပြုသကဲ့သို့	-9.8613
နှုတ်ဆက်	-9.86182
ဝေဒနာကို	-9.86241
ကြောက်မက်ဘွယ်သော	-9.86266
ရပ်လျက်၊	-9.86334
လုယူ	-9.86441
▁ကိုယ်တော်တိုင်	-9.86447
▁ဖာရိရှဲ	-9.86513
ရကြမည်ဟု	-9.86566
▁ရှက်ကြောက်	-9.8658
မရှိပါ။	-9.86661
သင်္ချိုင်းတွင်း	-9.86867
တို့ရှိရာသို့	-9.87113
▁ထိုင်နေ	-9.87326
ှက်	-9.87451
ကျောက်ပြား	-9.87543
▁အံ့ဘွယ်သော	-9.87951
မြို့သားတို့သည်	-9.87977
ယှဉ်	-9.88004
ပညတ္တိကျမ်း	-9.8804
▁ဇာတိပကတိ	-9.88041
▁ယဇ်ပုရော	-9.88041
▁ရွေးချယ်	-9.88041
လျှို	-9.88041
▁ထိမိ၍	-9.88041
အာခဇိ	-9.88042
▁ရှေခင်မြို့	-9.88043
▁ကွယ်ပျောက်	-9.88044
ဘုံဗိမာန်	-9.88051
▁မစားရ။	-9.88055
ရှေမာယ	-9.88057
▁မေးတော်မူလျှင်၊	-9.88136
▁မုသာစကားကို	-9.88204
▁ကြိုးစား၍	-9.88248
▁ခမည်းတော်အရာ၌	-9.8826
▁အပြစ်ဒဏ်	-9.88268
▁ကြားလျှောက်	-9.8832
▁ရှော	-9.884
▁ဝိုင်း၍	-9.88503
▁ဗေသလမြို့	-9.88509
ဝါကြွား	-9.88557
ရေတွက်	-9.88578
ငိုကြွေး	-9.88592
▁ငါမြင်၏။	-9.88604
သေတ္တာ	-9.88618
▁ဆန့်ကျင်ဘက်ပြု	-9.88671
▁ခုနစ်နှစ်	-9.88705
▁ထိုအကြောင်းအရာ	-9.8871
စရပ်	-9.888
▁ယောရှ	-9.88882
▁ငါ၏လူတို့	-9.8889
▁မီးရှို့ရမည်။	-9.88924
▁ရုဗင်အမျိုး	-9.89
▁ယခုမှစ၍	-9.89022
▁လယ်ပြင်	-9.89294
ကြားမှာ	-9.89303
သဏ္	-9.89342
အမျက်ထွက်	-9.89364
ငါးယောက်	-9.89522
▁ရုဗင်	-9.89567
▁ဗတ္တိဇံကို	-9.89698
အလိုမရှိ	-9.89972
မပြုဘဲ	-9.90023
▁အမျက်တော်ထွက်	-9.90177
မျို	-9.90317
လျှော	-9.90393
ဗေဒ	-9.90409
ဧဝံဂေလိတရား	-9.90456
ရှို့	-9.9053
ရမည်မှာ၊	-9.90536
ဆွေးနွေး	-9.90541
သဏ္ဌာန်	-9.90541
▁စာရင်းဝင်	-9.90557
▁ရွံရှာဘွယ်	-9.90603
ပုန်းရှောင်	-9.90644
▁ဆု	-9.90837
ပါသည်တကား။	-9.9087
အဲဂုတ္တုပြည်သို့	-9.90886
▁တောင်မျက်နှာ	-9.90912
▁ဣသရေလနိုင်ငံ	-9.90933
ခမည်းတော်	-9.91045
အလုပ်ကို	-9.91138
▁ကျိန်ခြင်း	-9.91204
စစ်သူရဲ	-9.91304
▁ငါပေးမည်။	-9.91389
ထမြောက်	-9.91428
▁ကြက်	-9.91642
▁ဂုဏ်	-9.9166
လတံ့	-9.91858
▁ကုရှ	-9.91975
ဘွားမြင်	-9.92184
နှစ်လုံး	-9.9235
▁ခါနာန်	-9.92429
▁သက်သေဖြစ်	-9.92495
အဘို့အလိုငှါ	-9.92503
▁အဘယ်မျှ	-9.9264
▁စပျစ်	-9.92754
စွန့်၍	-9.92869
▁ညဦး	-9.93083
▁ကောဟတ်	-9.93105
▁ဟုတ်မှန်	-9.93105
ကြီးပွား	-9.93105
▁အမင်္ဂလာရှိကြ၏။	-9.93108
▁ညဦးတိုင်အောင်	-9.93162
▁နှင်း	-9.93166
▁စစ်ကြောစီရင်	-9.9319
▁ဣသခါ	-9.93206
စပ်ကြားမှာ	-9.93208
ရွှေ့	-9.93224
▁ဗိုလ်ခြေအရှင်	-9.93242
▁မီးခိုး	-9.93259
ခြံ	-9.93344
▁တံခါးစောင့်	-9.93409
ပါမည်အကြောင်း	-9.9367
▁ဘိုးဘေးများ	-9.93672
▁ယခုတိုင်အောင်	-9.93683
မြည်တမ်း	-9.93723
ပညာရှိ	-9.93804
▁သစ္စာတော်	-9.93833
ပြုမိသော	-9.93945
သောင်းနှစ်ထောင်	-9.93982
ရိုသေ	-9.94033
ကြီးစွာသော	-9.94071
နားလည်	-9.94126
နှစ်ဘက်	-9.94368
ကြပါလိမ့်မည်။	-9.94376
ပင်လယ်	-9.94466
အပြစ်တင်	-9.94482
တပည့်တော်တို့အား	-9.94569
တို့၌၎င်း၊	-9.94626
▁ရေလအမျိုး	-9.94639
▁မတရားသောသူတို့	-9.947
▁ပြပ်ဝပ်လျက်	-9.94785
▁မြို့ထဲသို့	-9.95063
ထံသို့သွား၍	-9.95226
▁ကျင့်သောသူ	-9.95279
တုရ	-9.95315
▁မနာရှေအမျိုး	-9.95595
ကိုင်သော	-9.95631
▁ပုရောဟိတ်	-9.95736
▁မရဏာနိုင်ငံ	-9.95736
စပျစ်နွယ်ပင်	-9.95736
▁တုရုမြို့	-9.95737
္ဌမ	-9.95737
▁ခုတ်လှဲ	-9.95737
အဆွေအမျိုးသူကြီး	-9.95739
▁တကား။	-9.9574
ခွါ	-9.95774
▁မှည့်လေ၏။	-9.95775
▁ဆက်ကပ်	-9.95796
သည်မှန်လျှင်၊	-9.958
▁မြောက်မျက်နှာ	-9.95879
တစုံတယောက်မျှ	-9.95916
▁ဘာသာစကား	-9.96026
ကြနှင့်ဟု	-9.96091
▁စကားပြော	-9.96201
ခြင်	-9.9625
ရသောအချိန်	-9.96527
ဆိုသတည်း။	-9.96855
ကောင်းကင်	-9.96871
ခရစ်တော်	-9.96885
အသေကောင်	-9.9689
ကရုဏာ	-9.96892
စုံစမ်း	-9.96928
ခွဲထား	-9.96958
အဘယ်ကြောင့်	-9.96992
ထွာ	-9.97316
အမည်ကား	-9.97613
တော်မူ၏ဟု	-9.97821
မဟုတ်လော။	-9.98061
ခုနစ်ယောက်	-9.98093
အိမ်ထောင်	-9.98171
ကိုယ်အလိုအလျောက်	-9.98272
လှိုင်းတံပိုး	-9.98439
▁ဖိလိပ္ပု	-9.98439
ကမ္ဘာ	-9.98439
▁အပြစ်မပါသော	-9.98439
မိဇပါမြို့	-9.9844
▁မေရာရိ	-9.9844
▁ခွေး	-9.98443
▁စိရ	-9.98447
▁ချဉ်း	-9.98478
▁ခါးပန်း	-9.9848
▁ပယ်ဖြတ်	-9.98518
▁သန့်ရှင်းခြင်း	-9.98616
▁အဘယ်သူကိုမျှ	-9.98633
▁ပြန်ပေး	-9.9874
▁ကောင်းမြတ်	-9.98905
▁ယုတ်	-9.99003
▁မင်းပြု	-9.99129
▁မိမိတို့နေရာ	-9.9915
▁လယ်လုပ်	-9.995
သင်တို့ရှိရာသို့	-9.99635
အတတ်ကို	-9.99672
▁လောတ	-9.99763
ညည်းတွား	-9.99827
ရှုတ်ချ	-9.99829
မှားယွင်း	-9.99831
▁သမ္မာ	-10.0078
ကိုင်၍	-10.0079
▁နံနက်အချိန်	-10.0097
▁ခါနနိလူ	-10.0122
▁မြေတပြင်လုံး	-10.0122
▁ဟေရှဘုန်	-10.0122
▁သက္ကာ	-10.0122
ဥရိယ	-10.0122
မြစ်တား	-10.0122
ထံတော်က	-10.0122
▁ပြီးစီး	-10.0123
▁လျှော်	-10.0125
နှင့်အမျှ	-10.0127
▁ဝတ်ဆင်	-10.0128
▁ချီလွှဲ	-10.013
▁အရာရာ၌	-10.013
▁သခင်ယေရှု	-10.0133
▁ရှုရိရှင်ဘုရင်	-10.0138
▁အံ့ဩဘွယ်	-10.0157
▁ငါ၏လူမျိုး	-10.0157
တစုံတခုကိုမျှ	-10.0162
ရှိပါစေသော။	-10.0188
▁တိုက်ယူ	-10.021
▁သူတယောက်	-10.0236
ထိုသူ	-10.0258
ဘယ်မျှကာလပတ်လုံး	-10.0268
နေရာအရပ်	-10.0269
မြောက်ဘက်	-10.0281
မေတ္တာ	-10.0286
ရှောလု	-10.0286
လွန်ကျူး	-10.0286
ခွန်အား	-10.0288
ဥပုသ်နေ့	-10.0294
အတွက်ကြောင့်	-10.0301
▁ဟေဇကိမင်း	-10.0305
မိုဃ်းရွာ	-10.0333
▁ချည်	-10.0333
လူဆိုး	-10.0333
နှစ်သောင်း	-10.0335
ဗိမာန်တော်	-10.0369
ဗင်္ယာမိန်အမျိုး	-10.0381
ခင်းကျင်း	-10.0407
ပြင်းထန်	-10.0407
မြေကြီးတပြင်လုံး	-10.0407
▁ကမ္ဘာအဆက်ဆက်	-10.0407
▁စောစော	-10.0407
▁မာရ်နတ်	-10.0407
▁အာမင်။	-10.0407
ငြူစူ	-10.0407
လျှို့ဝှက်	-10.0407
▁ကျန်းမာ	-10.0407
▁ရေငတ်	-10.0407
ဆွတ်	-10.0407
ချစ်ခြင်းမေတ္တာ	-10.0407
▁တံဆိပ်ခတ်	-10.0408
▁ဟေလသ	-10.0408
▁လျောက်ပတ်	-10.0408
▁အမင်္ဂလာရှိ၏။	-10.0408
▁ကြွေး	-10.0408
▁ထိုသိတင်းကို	-10.0409
နောက်မှာ	-10.041
▁နှုတ်ကပတ်တရား	-10.041
ရှင်းလင်း	-10.0411
သုံးဆောင်	-10.0416
▁မျက်နှာပြု	-10.0416
မပေး။	-10.0419
လတံ့ဟု	-10.042
သည်နောက်၊	-10.0426
အလံ	-10.0433
အစ်မ	-10.0434
▁လျှောက်သော်၊	-10.0439
ချက်ဟူမူကား၊	-10.0445
▁နတ်	-10.0457
▁တဆယ်နှစ်	-10.0463
▁ရိုက်ထား	-10.0469
▁ငြိမ်ဝပ်စွာနေ	-10.0469
▁လေဗနုန်	-10.0475
▁ကယ်တင်ခြင်းသို့	-10.0477
▁????	-10.0485
▁ပစ်ထား	-10.0513
အနံ့	-10.0557
ကျိန်ဆိုခြင်းကို	-10.0569
▁ဤသူတို့	-10.0571
ဖြောင့်မတ်ရာသို့	-10.0596
ကျမ်းပြုဆရာ	-10.0598
ကောင်းကြီးပေး	-10.0601
▁သိုးထီး	-10.0673
သုံးထောင်	-10.07
မျက်ရည်	-10.0701
ထောမနာ	-10.0702
မှဆင်းသက်သော	-10.0702
▁စွန်ပလွံ	-10.0702
▁ကယ်မသနား	-10.0702
သည်သာမက၊	-10.0702
▁ဗေနာယ	-10.0702
▁မုယော	-10.0702
▁နံ့သာမျိုး	-10.0702
ရေခပ်	-10.0703
အာရုန်	-10.0703
ပြီတကားဟု	-10.0705
▁လိမ်း	-10.0707
▁စစ်မှု	-10.0708
▁ဆွဲထား	-10.0712
▁ထောင်ထဲမှာ	-10.0715
▁ငါပေးမည်ဟု	-10.0722
ကြသည်တကား။	-10.0724
▁စိတ်သဘော	-10.0729
▁အမျိုးမျိုးသော	-10.074
▁ယုဒပြည်သူ	-10.0762
ကြီးမင်္ဂလာကို	-10.0791
▁ဟစ်	-10.0798
ပစပ်	-10.0822
▁ရှေဘ	-10.0875
ညံ့	-10.0889
ပူပန်ခြင်း	-10.0905
ဘမ်းဆီး	-10.092
ဆီးတား	-10.0921
အမှုမှာ	-10.0974
ဗတ္တိဇံ	-10.0979
ထူးခြား	-10.1005
▁ယောယကိမ်	-10.1005
▁လျင်မြန်	-10.1005
▁ကြောက်လန့်	-10.1005
အကြီးအငယ်	-10.1005
▁ရှာကြံ	-10.1005
▁သင်္ဘောသဖန်းပင်	-10.1005
▁ငွေရတတ်	-10.1016
▁လုပ်ကျွေး	-10.1019
▁ရေချိုး	-10.102
▁မိုဃ်းသီး	-10.1022
▁အဝတ်တန်ဆာ	-10.1024
▁ယောက်ျားမိန်းမ	-10.1029
စေနှင့်ဟု	-10.1033
▁ညစ်ညူးခြင်း	-10.1047
▁ထိုသားကို	-10.1111
▁သံလွင်	-10.1171
▁ဧဖရိမ်အမျိုး	-10.1179
▁ယော်ဒန်မြစ်တဘက်	-10.1193
သောအခွင့်ကို	-10.1218
▁ခုနှစ်	-10.1241
သင်္ဘော	-10.1255
သင်္ချိုင်း	-10.1255
▁ချိန်းချက်သော	-10.1317
▁ပြာသောအထည်	-10.1317
▁ယေဇရေလမြို့	-10.1317
▁အကြည့်အရှု	-10.1317
▁အစာခေါင်းပါး	-10.1317
လေ့ကျက်	-10.1317
▁ပေရသိ	-10.1317
ရွံ့ရှာဘွယ်	-10.1317
▁ဝမ်းနည်းခြင်း	-10.1318
▁အကယ်၍	-10.1318
ကောင်းမွန်	-10.1319
▁အနှစ်လေးဆယ်	-10.1319
သူမည်သည်ကား၊	-10.1322
▁ဥာဏ်ပညာ	-10.1323
▁တာရှု	-10.1324
▁တောင်ထိပ်	-10.1326
▁အသက်ပျိုသော	-10.1328
▁ဘေးလွတ်	-10.1329
▁ဘီး	-10.1344
▁ရွှေတန်ဆာ	-10.135
▁ထိုသို့ပြုလျှင်	-10.1362
ခံတွင်း	-10.1467
လိမ့်မည်လော။	-10.1534
တန်ဆာရှိသမျှ	-10.1541
▁တောင်ဘက်	-10.1569
▁နက်ဖြန်	-10.1569
ကိုယ်စား	-10.157
အမွေဥစ္စာ	-10.1585
▁ဖြည်	-10.1591
ပြင်းစွာ	-10.1598
အိပ်ပျော်	-10.1599
ယွာဘ	-10.1599
▁ဘိုးဘ	-10.1632
အညစ်အကြေး	-10.164
ထိမ်းမြား	-10.164
▁နေ့ညဉ့်မပြတ်	-10.164
▁ပဥ္စမ	-10.164
▁လက်စသတ်	-10.164
ဗာနဗ	-10.164
▁သူ့မယားကို	-10.1641
ဆုတောင်းပဌနာပြု	-10.1641
▁အဘယ်မျှလောက်	-10.1642
▁ဝိုင်းထား	-10.1647
▁စပါးရိတ်	-10.1648
▁ခြေနင်း	-10.165
▁အံ့ဘွယ်သောအမှု	-10.1654
▁အားလျော့	-10.1656
▁အသစ်သော	-10.1662
လက်ျာဘက်၌	-10.1695
သုံးပါး	-10.1704
စစ်တိုက်ခြင်းငှါ	-10.1724
သည်းခံ	-10.1726
မည်အကြံ	-10.1736
တိုက်မြစ်	-10.1764
မိုဃ်းလင်း	-10.1785
ခုတင်	-10.1843
နှစ်ထောင်	-10.186
တရု	-10.1885
▁မချဉ်း	-10.1886
▁မောရှေကလည်း	-10.194
ဂုဏ်အသရေ	-10.1955
ချည်နှောင်	-10.1956
ကုလားကာ	-10.1956
ပယ်ရှား	-10.1956
▁တဆေးမဲ့	-10.1973
ရင်ခွင်	-10.1973
▁စူးစမ်း	-10.1973
▁မွမ်းမံ	-10.1973
▁ဧကန်အမှန်	-10.1973
▁တွားတတ်သော	-10.1973
▁တသက်လုံး	-10.1973
▁အာရှရပင်	-10.1973
ကိုအမှီပြု၍	-10.1973
▁အာမဇိ	-10.1973
▁ငါ့ဆီသို့ရောက်	-10.1973
▁ဗာလက်မင်း	-10.1973
ပသခါ	-10.1974
▁အလုပ်လုပ်	-10.1975
▁လင်ပန်း	-10.1979
မင်းကြီးတပါး၊	-10.198
▁ရေးထားလျက်ရှိ၏။	-10.1983
▁သစ္စာပျက်	-10.1995
ကြီးမား	-10.1997
ဖြည့်	-10.2025
ပြစ်ဖြေရာယဇ်ဘို့	-10.2029
သားသမီးတို့သည်	-10.2107
▁ဇိအုန်	-10.2171
▁လေဗနုန်တောင်	-10.2236
ခပ်သိမ်းတို့	-10.2246
▁ထိုသို့ဆိုသော်	-10.2291
ခိုလှုံ	-10.2306
ပါတကား။	-10.2318
ပျင်းရိ	-10.2318
▁ကာဣန	-10.2318
မိစ္ဆာ	-10.2318
မွန်းတည့်	-10.2318
ဟိလခိ	-10.2318
အာမနုန်	-10.2318
▁တညဉ့်လုံး	-10.2318
ပါလေစေ။	-10.2318
မွတ်သိပ်ခြင်းဘေး	-10.2318
ဖို့	-10.2318
▁ရွှေလင်းတ	-10.2318
▁ရွံ့	-10.2319
ပါနှင့်ဟု	-10.2322
▁ငို	-10.2323
နှင့်ယှဉ်သော	-10.2323
▁မီးဖြင့်ပြုသော	-10.2324
မေ့လျော့	-10.2325
▁စာရင်းယူ	-10.2325
ဇိအုန်သတို့သမီး	-10.2329
▁လေဝိအမျိုး	-10.2352
▁အချုပ်ခံ	-10.2355
ရုသ	-10.2395
သက်သာခြင်း	-10.2403
မှစသော	-10.2415
▁ဗာရှန်	-10.2424
အရပ်ဌာန	-10.2435
▁ပညတ်တော်တို့	-10.2575
မြို့သူမြို့သား	-10.2632
ယေရုရှလင်မြို့	-10.2672
မိုဃ်းသက်မုန်	-10.2675
▁ဂိလဂါလမြို့	-10.2675
▁မောင်းသောအထည်	-10.2675
ချယ်လှယ်	-10.2675
ရောင်ခြည်	-10.2675
▁ကာမဂုဏ်	-10.2675
ကျော့မိ	-10.2675
အမှိုက်	-10.2675
▁ဒုက္ခဆင်းရဲ	-10.2675
ရာမုတ်မြို့	-10.2676
▁ကောင်းမွန်စွာ	-10.2676
နှင့်အလျောက်	-10.2676
▁လှည်း	-10.2677
▁နေ့အချိန်၌	-10.268
▁လျှောက်ကြသော်၊	-10.2683
▁ထုလုပ်	-10.2684
လေပြီတကား။	-10.2689
▁လျော်	-10.269
▁ရာမမြို့	-10.2696
မေရ	-10.2702
အစိုးရ	-10.271
▁သိုးထီးတကောင်	-10.271
အရည်	-10.2711
ပုန်ကန်	-10.2711
နားမထောင်	-10.2712
သိုးသငယ်	-10.2712
လေဝိသားတို့	-10.2713
အရေဖျားလှီးခြင်း	-10.2808
▁အဘယ်မည်သော	-10.287
▁ဗာရှန်ပြည်	-10.2932
▁စောင့်မတော်မူ	-10.2974
▁ခါလဒဲလူတို့	-10.3045
▁ချောင်းမြောင်း	-10.3045
▁ချော့မော့	-10.3045
▁လျှော်တေအဝတ်ကို	-10.3045
တန်ခိုးအာနုဘော်	-10.3045
ဘုန်းအာနုဘော်	-10.3045
အခက်အလက်	-10.3045
▁စက်ဆုပ်ရွံ့ရှာ	-10.3045
▁လုယက်	-10.3045
▁ရက်ကန်း	-10.3045
▁ကာဒေရှ	-10.3045
ကျယ်ဝန်း	-10.3045
ပြီလော။	-10.3045
▁စစ်သူကြီး	-10.3045
▁နဂါး	-10.3045
ကုန်သွယ်	-10.3045
ပြိုလဲ	-10.3046
▁ဂါသမြို့	-10.3046
▁မဟုတ်လောဟု	-10.3046
ဗာရုတ်	-10.3048
သည့်အတိုင်း	-10.3048
▁ကန့်လန့်ကျင်	-10.3049
မိန့်မြွက်တော်မူ	-10.305
▁သားမြေးတို့	-10.3051
ကျေးလက်	-10.3052
▁ရှိလောမြို့	-10.3053
သွားသောလမ်း	-10.3074
အသီးအနှံကို	-10.3081
ခြင်းကျေးဇူးကို	-10.3104
အာဏာ	-10.311
ကွပ်မျက်	-10.311
အကျွန်ုပ်အသက်ကို	-10.3118
▁နှစ်သိမ့်စေ	-10.3156
▁အာဣမြို့	-10.3173
မမြင်ရ။	-10.3223
▁လူဆိုးတို့	-10.326
လေးထောင်	-10.3291
▁ကြောက်မက်ဘွယ်	-10.3323
ခုနစ်ထောင်	-10.3428
▁အဗျာသာ	-10.343
စိမ့်သောငှါ	-10.343
မိတ်ဆွေ	-10.343
ရိက္ခာ	-10.343
▁ကိုယ်ရံတော်မှူး	-10.343
▁ငါအမှန်အကန်ဆို	-10.343
▁ဒိုင်းလွှား	-10.343
▁နီသောအထည်	-10.343
ချွေးမ	-10.343
▁လမ်းလွဲ	-10.343
နာဇရက်မြို့	-10.343
▁အရှက်ခွဲ	-10.343
▁လွင့်	-10.343
ရပါမည်နည်း။	-10.3431
ပါသည်တကားဟု	-10.3432
▁သားယောက်ျားကို	-10.3432
ဝတ်လုံကို	-10.3437
ခြင်းအခွင့်ကို	-10.3443
ခိုင်ခံ့သောမြို့	-10.3446
▁ဂုဏ်ကျေးဇူးတော်	-10.3471
လူအပေါင်းတို့အား	-10.35
သင်္ဂြိုဟ်	-10.3514
ယောသပ်	-10.3515
အပ်နှံ	-10.3526
ဣဇာက်	-10.3528
သောသူမည်သည်ကား	-10.3624
ဖန်ဆင်းတော်မူသော	-10.3676
▁ဟေဗြုန်	-10.3695
သင်္ဘောသဖန်း	-10.3829
ကောက်နယ်တလင်း	-10.383
ဗင်္ဟာဒဒ်	-10.383
▁အပြစ်တင်ခွင့်	-10.383
▁ကဲသာဘုရင်	-10.383
▁ပင်ပန်းစွာ	-10.383
နှာခေါင်း	-10.383
▁မိုက်မဲ	-10.383
▁မစိုးရိမ်နှင့်။	-10.383
▁ကိရယ	-10.383
▁ငွေအခွက်	-10.383
▁ယေဖသ	-10.383
▁ဗျာဒိတ်ရူပါရုံ	-10.383
▁ငြင်းဆန်	-10.383
▁ဆန်စပါး	-10.383
▁ရှိဟုန်	-10.383
▁လက်ျာလက်တော်	-10.383
မာသေယ	-10.3831
သာသနာ	-10.3831
▁တခါမျှ	-10.3831
▁အလျားအတောင်	-10.3832
▁အငယ်ဆုံးသော	-10.3832
▁လိဗန	-10.3833
▁လောဘ	-10.3836
▁လွှဲသွား	-10.3871
▁ယောရှိမင်း	-10.3917
▁ခိုင်မာစေ	-10.3944
နိမိတ်လက္ခဏာ	-10.3961
အိမ်နီးချင်း	-10.3961
ပူပန်	-10.3963
မှောင်မိုက်	-10.3964
▁ကျမ်းပြုဆရာတို့	-10.3973
ခြေရင်း၌	-10.3993
▁အဝေးက	-10.4023
▁ဇေဒကိမင်း	-10.4111
မိန်းမစိုး	-10.4247
သပိတ်ပင်	-10.4247
▁ကြည်ညိုသော	-10.4247
▁ပြတင်းပေါက်	-10.4247
▁ဖိနဟတ်	-10.4247
▁ဗေရရှေဘ	-10.4247
▁လောဗန်	-10.4247
▁သောငှါ	-10.4247
တီးမှုတ်	-10.4247
မြှုပ်	-10.4247
▁ဟာဇေလ	-10.4247
▁တောသားရဲ	-10.4247
▁ထိုကာလအခါ	-10.4247
ဧလျာဘ	-10.4247
▁လိမ္မာသော	-10.4247
▁လွတ်လပ်	-10.4247
သူဌေး	-10.4247
▁ငါအလိုရှိ၏။	-10.4247
▁အဟိယ	-10.4247
▁မျက်ရည်ကျ	-10.4247
▁မိဘမရှိသောသူ	-10.4248
▁ဧဒုံပင်လယ်	-10.4248
▁အပိုင်ပေး	-10.4262
ဆုကျေးဇူး	-10.4275
▁ဒေါသအမျက်	-10.4279
ယောက်တည်း။	-10.4281
မပါဘဲ	-10.4426
သံလွင်ပင်	-10.4433
နှစ်ကြိမ်	-10.4447
လက်ဝဲဘက်	-10.4499
▁သူ့နောက်မှ	-10.4563
သည်တကား။	-10.459
▁အမှီပြု	-10.4631
▁ပုန်း	-10.4665
ယုဒရှကာရုတ်	-10.4681
▁မြေခွေး	-10.4681
ကြော်ငြာ	-10.4681
ပြညွှန်	-10.4681
အပေါင်းအသင်း	-10.4681
▁ဆည်းဖူး	-10.4681
▁တနေ့ခြင်းတွင်	-10.4681
▁မေရှုလံ	-10.4681
▁အမှတ်တမဲ့	-10.4681
▁အာရွှေရု	-10.4681
တိုင်းအပြည်ပြည်	-10.4681
▁ဂေရရှုံ	-10.4681
▁အက္ခရာတင်	-10.4681
▁တရားဆုံးဖြတ်	-10.4681
▁အပိုင်းပိုင်း	-10.4681
▁အဦးသီးသော	-10.4682
▁ကျပ်ကျပ်	-10.4682
ရပါမည်နည်းဟု	-10.4682
ပါရစေဟု	-10.4682
▁ယောရံ	-10.4682
▁ခန်းခြောက်	-10.4682
ကြိမ်လုံး	-10.4682
▁ဟာဂရ	-10.4683
နာဗုတ်	-10.4683
▁သိသရ	-10.4697
အရာမှာ၊	-10.4701
သို့မရောက်	-10.4827
ရှိစေသတည်း။	-10.4872
သောင်းငါးထောင်	-10.4931
ဟစ်ခေါ်	-10.5003
▁ဗေသလ	-10.5049
ဆုကို	-10.51
▁သောဒုံမြို့	-10.511
▁ကျောက်ခဲနှင့်	-10.5112
ဝေငှ	-10.5136
▁လာဇရု	-10.5136
ယဟောရံ	-10.5136
▁ထူထပ်သော	-10.5136
▁အကဲအမှူး	-10.5136
ကျင့်ကြံပြုမူ	-10.5136
တိမောသေ	-10.5136
▁ဂေဒလိ	-10.5136
▁တတ်စွမ်းနိုင်	-10.5136
ရည်ဆောင်၍	-10.5136
▁အမှန်ခံရမည်။	-10.5136
▁ကိုယ်ဝန်ဆောင်	-10.5136
▁မြို့ဝန်မင်း	-10.5136
▁ကျော်နင်း	-10.5136
▁အထီး	-10.5136
▁သင်းအုပ်	-10.5136
ကာလနာဘေး	-10.5136
▁ကျန်ရစ်	-10.5136
▁ဝေဖန်	-10.5136
▁အထုံးအဖွဲ့တော်	-10.5137
တခွန်း	-10.5137
ကြိမ်မြောက်အောင်	-10.5137
နောမိ	-10.5141
မိန့်တော်အတိုင်း	-10.5291
မတွေ့။	-10.5382
သန့်ရှင်းရာဌာန	-10.5393
ကြွေးကြော်	-10.5394
▁မထီမဲ့မြင်	-10.5515
ိဖုရား	-10.5561
နံနက်စောစော	-10.5612
ဖေါက်ပြန်	-10.5612
▁ကျပ်တည်းစွာ	-10.5612
▁ကြဉ်ရှောင်	-10.5612
▁ခြေစွပ်	-10.5612
▁ထိုခဏခြင်းတွင်	-10.5612
▁ထိုနေ့ခြင်းတွင်	-10.5612
▁နိစ္စထာဝရ	-10.5612
▁ယုဘိလနှစ်	-10.5612
▁အကျပ်တော်အလိုက်	-10.5612
▁အာမင်ဟု	-10.5612
▁ဥဖရတ်မြစ်	-10.5612
လျှက်	-10.5612
မှောက်လှန်	-10.5612
▁ရှေးဦးစွာ	-10.5612
▁ဧလကာန	-10.5612
▁နုန်၏သား	-10.5612
▁ခေါ်ဘိတ်	-10.5612
▁အိုဘုရားရှင်	-10.5612
▁မင်းအရာရှိ	-10.5612
▁နံနက်စောစောထ၍	-10.5612
▁နာဗလ	-10.5613
အရာကြွင်းလေသမျှ	-10.5613
▁လက်ကိုဆန့်	-10.5613
▁အာမုတ်	-10.5614
▁ပမာဏမပြု	-10.562
ဥတု	-10.5621
အမှီပြုလျက်	-10.5723
ဗင်္ယာမိန်ခရိုင်	-10.576
သောင်းလေးထောင်	-10.5898
ပြည်သူပြည်သား	-10.591
အသင်းတော်	-10.5919
ခြင်္သေ့	-10.592
အချင်းချင်း	-10.5921
အဲဂုတ္တု	-10.5921
နှစ်သိမ့်	-10.5964
ဆယ်ဘို့တဘို့ကို	-10.6006
ာယ၊	-10.6009
▁နိမိတ်	-10.6111
ငံ့လင့်	-10.6112
အနီးအပါး	-10.6112
▁သက္ကရာဇ်	-10.6112
ပုဆိန်	-10.6112
ရွှံ့	-10.6112
▁ငါချစ်ရာသခင်	-10.6112
▁မာကေဒေါနိ	-10.6112
▁သာသနာပလူတို့	-10.6112
▁အိုးကင်း	-10.6112
္ဌာန်	-10.6112
မြိန်	-10.6112
ကြစို့။	-10.6112
ယောင်ဆောင်	-10.6112
▁ရုပ်သိမ်း	-10.6112
▁ဒသမ	-10.6112
▁အထည်	-10.6113
တညီတည်း	-10.6113
အမြီး	-10.6114
ဆယ်ရှစ်နှစ်	-10.6131
ဩ	-12.0752
ဃ	-12.0753
ဦ	-12.0754
ဉ	-12.0755
၎	-12.0756
?	-12.0757
