<pad>	0
</s>	0
<unk>	0
▁	-3.40569
,	-3.45249
ᓂ	-3.86632
᙮	-3.94104
ᒡ	-4.40835
▁ᑕᔥ	-4.44495
▁ᑲᔦ	-4.45377
ᓐ	-4.50344
▁ᒦ	-4.52731
ᓯ	-4.5305
▁ᑳ	-4.5488
ᒥ	-4.55129
ᑭ	-4.56686
ᑕ	-4.60456
ᓈ	-4.61606
ᑲ	-4.62658
▁ᐁ	-4.63785
ᑯ	-4.67622
ᓇ	-4.68702
▁ᒋ	-4.69668
ᒃ	-4.72153
ᒫ	-4.75104
ᐙ	-4.76363
▁ᐅ	-4.76504
ᐱ	-4.77542
ᑎ	-4.78512
ᐙᒡ	-4.80285
ᒋ	-4.81529
ᔑ	-4.8218
ᐎ	-4.88157
ᑖ	-4.92584
ᐸ	-4.9264
ᐃ	-4.96378
▁ᑮ	-4.98105
ᑫ	-4.98729
ᑳ	-5.0143
▁ᐁᑮ	-5.05351
:	-5.10807
ᐊ	-5.12643
▁ᑳᐐᓐ	-5.14175
ᓂᒡ	-5.15795
▁ᐃᐃ	-5.16713
ᕽ	-5.19332
▁ᑳᑮ	-5.24133
ᑑ	-5.26845
▁ᐅᑮ	-5.27156
ᐌ	-5.29846
ᒪ	-5.31576
ᑌ	-5.32625
ᔥ	-5.34535
ᑕᔥ	-5.34986
▁ᐃᑕᔥ	-5.37403
ᓀ	-5.40419
▁ᓴ	-5.4195
ᐗ	-5.4501
▁ᐃᐃᒫ	-5.47609
▁ᑭᔐᒪᓂᑑ	-5.47733
▁ᐊ	-5.48106
ᐎᓐ	-5.49643
ᐅ	-5.49656
▁ᑳᐃᔑ	-5.5129
▁ᑭ	-5.513
▁ᐃᓂ	-5.5216
▁ᓂ	-5.54868
ᓰ	-5.5489
ᐋ	-5.57362
ᑮ	-5.61156
▁ᑲᑭᓇ	-5.70819
ᒻ	-5.71524
ᑾ	-5.72195
▁ᐊᐊ	-5.73895
▁ᐊᐲ	-5.75139
ᒋᑫ	-5.7645
▁ᒋᓴᔅ	-5.77377
ᓅ	-5.78545
▁ᑫ	-5.79801
ᒀ	-5.79877
ᔭ	-5.80453
ᐲ	-5.81007
ᓱ	-5.81718
▁ᐁᔑ	-5.81992
ᐗᒃ	-5.82337
▁ᐃᑭ	-5.82809
▁ᑕ	-5.84929
▁ᐐᓐ	-5.8562
ᔅ	-5.87493
ᓄ	-5.88146
ᔦᒃ	-5.91769
ᓭ	-5.93306
ᐹ	-5.94851
ᒌ	-5.9545
ᐊᔮ	-5.95657
ᐞ	-5.95787
ᔮ	-5.99379
ᑴ	-6.01578
▁ᐃ	-6.02463
▁ᐋᓃᔥ	-6.02884
ᓴ	-6.03211
ᓃ	-6.03424
▁ᐐ	-6.03436
ᒡ᙮	-6.0358
▁ᐃᔑ	-6.04682
▁ᐊᐎᔭ	-6.05278
ᓵ	-6.06397
▁ᐅᐅ	-6.06786
?	-6.08322
ᑐ	-6.14049
ᒦ	-6.14655
ᐯ	-6.1529
ᑰ	-6.17463
ᔕ	-6.181
ᓐ᙮	-6.2121
ᐐ	-6.21966
▁ᑭᔐᒪᓂᑑᓐ	-6.24286
▁ᑭᑲ	-6.28362
!	-6.31301
ᐙᓐ	-6.35264
▁ᑫᑰᓐ	-6.35675
ᐗᓐ	-6.3617
ᑭᒋ	-6.36462
▁ᐋᓃᓐ	-6.36912
▁ᓂᑮ	-6.38208
ᐱᒫᑎᓯ	-6.39234
▁ᑮᔥ	-6.39811
ᐅᒋ	-6.40232
▁ᐱ	-6.40845
ᐎᓂᕽ	-6.42192
ᔭᓐ	-6.42498
ᔮᓐ	-6.42542
ᐱᓐ	-6.42618
ᐴ	-6.44148
ᑕᒧ	-6.45026
▁X	-6.4646
▁ᐁᑕ	-6.4734
ᐃᔑ	-6.47525
▁ᐃᑯ	-6.48704
ᑌᐺ	-6.48834
ᓂᒡ᙮	-6.492
ᒃ᙮	-6.51487
ᑣ	-6.516
ᐙᒡ᙮	-6.52337
ᒧ	-6.53413
▁ᐁᐐ	-6.5433
▁ᑭᒋ	-6.55297
▁ᒦᔥ	-6.5536
▁ᑳᑮᐃᔑ	-6.58167
▁ᐅᑲ	-6.61324
ᐐᒌ	-6.61666
▁ᑖᐱᔥᑰ	-6.6177
▁ᐊᑮᕽ	-6.6257
▁ᑮᓇᐙ	-6.63183
ᔥᑭ	-6.6353
▁ᓃᓐ	-6.65142
ᑭᓐ	-6.6547
▁ᐋ	-6.65874
ᒥᓄ	-6.6627
▁ᐃᐃᐌ	-6.67536
ᐳ	-6.68409
▁ᑌᐺ	-6.69477
ᐸᓐ	-6.69943
ᐐᒋ	-6.70648
▁ᓃ	-6.71746
▁ᐋᔕ	-6.72036
▁ᐃᓂᓂ	-6.72515
ᐎᓂ	-6.73364
▁ᐯᔑᒃ	-6.74414
ᑕᕽ	-6.77219
▁ᑭᑮ	-6.7787
▁ᐃᐌ	-6.77872
▁ᒦᓇᐙ	-6.78311
ᒨ	-6.78581
ᑳᑌ	-6.78748
▁ᐅᒋ	-6.79469
ᓈᓐ	-6.79514
▁ᐌᑎ	-6.79554
ᐃᔖ	-6.82363
ᕒ	-6.82598
ᔒ	-6.8269
ᑫᓂ	-6.8287
▁ᑳᐃ	-6.83274
▁ᐊᔮ	-6.83653
ᐗᐞ	-6.84472
ᒥᓐᒡ	-6.85364
ᕽ᙮	-6.86159
▁ᐸ	-6.86943
ᑾᒃ	-6.8754
ᔖ	-6.88187
ᔥᑲ	-6.88856
ᒪᐎ	-6.90293
ᓂᓂᒃ	-6.91561
ᓇᓐ	-6.92979
▁ᑳᐅᒋ	-6.93026
▁ᒥ	-6.93642
▁ᐃᓇ	-6.94111
ᑕᐌ	-6.96091
ᑕᔑ	-6.96092
▁ᐃᒫ	-6.96211
ᐎᓂᓂ	-6.96247
ᑕᒧᐙᒡ	-6.98057
▁ᑮᐃᑭᑐ	-6.98315
ᑲᓐ	-6.99907
▁ᑫᑯ	-7.00699
▁ᑭᑭ	-7.01541
▁ᑳᐐ	-7.01566
▁ᐅᔕ	-7.01621
▁ᑳᔑ	-7.02032
ᓇᑰᒃ	-7.02297
ᔮᕽ	-7.02951
ᐎᓇᓐ	-7.03037
▁ᑲ	-7.03047
▁ᐊᐌ	-7.03331
ᐁ	-7.03383
▁ᒪ	-7.03797
ᓀᒃ	-7.04222
ᑭᐸᓐ	-7.04243
ᓯᒃ	-7.0444
ᑕᐙ	-7.04897
ᑕᒪ	-7.05334
ᓈᑯᓯ	-7.05651
▁ᑭᑎ	-7.06456
ᒣ	-7.06703
ᐎᓐ᙮	-7.06741
ᑲᑴ	-7.0685
ᑳᓱ	-7.07503
ᔦ	-7.08018
ᔭᕽ	-7.08665
▁ᑮᐃᔑ	-7.08966
ᑭᓯ	-7.09139
ᔐ	-7.0919
▁ᐁᑳ	-7.09693
ᑭᑭ	-7.09695
ᒥᓐ	-7.09701
ᓂᑯ	-7.09826
ᓰᓐ	-7.10794
ᐙᐞ	-7.11373
▁ᐄᑐᒃ	-7.11724
▁ᓅᑯᒻ	-7.11724
▁ᒋᓴᓲᓐ	-7.11998
▁ᐁᐃᔑ	-7.12127
▁ᒋᐃᔑ	-7.12293
ᓂᒃ	-7.12686
▁ᐯᔑᑾᓐ	-7.12691
▁ᓂᑲ	-7.13279
▁ᐊᐌᓀ	-7.1385
▁ᑯᑕᒃ	-7.14335
ᑕᒣᒃ	-7.14787
ᑭᒫ	-7.14952
▁ᐃᑴ	-7.15141
ᐃᑯ	-7.16086
▁ᔑᑾ	-7.16767
▁ᐋᐱᒋ	-7.17005
▁ᐅᑎ	-7.1854
▁ᑳᑎᐯᒋᑫᒡ	-7.18711
ᓯᒀ	-7.19233
▁ᑳᐅ	-7.19512
ᐙᐸᒫ	-7.19826
▁ᓇ	-7.20522
▁ᑯ	-7.20731
ᐃᐌ	-7.21287
ᒫᒋ	-7.2153
ᓇᕽ	-7.22214
▁ᒫ	-7.22321
▁ᐅᐅᐌ	-7.2345
▁ᑮᓐ	-7.2421
ᐗᒃ᙮	-7.24512
▁ᐲ	-7.24667
ᐊᓄᑮ	-7.24814
ᑯᒡ	-7.24842
▁ᐅᐌ	-7.24889
ᑕᐎ	-7.26549
ᔦᒃ᙮	-7.2708
▁ᐁᑮᐃᔑ	-7.28026
ᒫᒌ	-7.28126
ᓇᐃ	-7.28154
▁ᐅᐅᒫ	-7.28709
▁ᐌ	-7.28748
ᑭᑭᓄᐊᒫᑫ	-7.29205
▁ᐃᑭᑐ	-7.30253
ᐲᐃ	-7.30694
ᓬ	-7.31029
▁ᒥᓯᐌ	-7.31145
▁ᑳᐊ	-7.31206
ᓉ	-7.31369
ᐙᐱ	-7.31424
ᑲᔥᑭᑑ	-7.31558
▁ᐱᑯ	-7.32679
▁ᐐᑫ	-7.33689
ᑕᒥᓂᒡ	-7.34409
ᓂᔑ	-7.35136
ᐆ	-7.35512
▁ᒫᐗᒡ	-7.35929
ᐤ	-7.36741
ᒫᒡ	-7.3706
ᐗᕽ	-7.38246
ᑲᓇᐌ	-7.38251
▁ᐆᑌᓈᕽ	-7.38402
▁ᒋᐅᒋ	-7.38651
ᐗᓂ	-7.39048
▁ᐯ	-7.3979
▁ᓈ	-7.40162
ᑰᓐ	-7.40574
▁ᐊᐊᐌ	-7.41037
▁ᑳᑮᐅᒋ	-7.41148
▁ᐃᔑᒋᑫ	-7.41823
▁ᑫᐅᒋ	-7.42521
ᑕᒪᐙ	-7.43091
ᔭᐄ	-7.4381
ᑯᕽ	-7.43858
ᓂᓂᒻ	-7.43962
▁ᒣ	-7.44441
ᑕᑯ	-7.44702
▁ᐁᑭ	-7.45054
ᓈᒡ	-7.45541
▁ᑕᑲ	-7.45552
ᔓ	-7.46626
ᔔ	-7.47146
ᐃᓀᑕ	-7.4737
▁ᑾᔭᒃ	-7.4761
▁ᓇᐗ	-7.47945
▁ᐅᑕ	-7.48105
▁ᐌᒋ	-7.48543
▁ᑫᔮᐱ	-7.49009
ᒥᑰ	-7.49284
▁ᐙ	-7.50232
ᒥᑯᒡ	-7.50642
ᓵᑭᐃ	-7.51098
▁ᑫᐃᔑ	-7.51353
▁ᒣᒀ	-7.51694
ᑕᒫᓐ	-7.52079
▁ᒋᐊ	-7.52107
▁ᒨᔕᒃ	-7.52311
ᒪᓐ	-7.53876
ᑲᓇᓐ	-7.54745
ᓬᐊ	-7.54926
ᕒᐃ	-7.55198
▁ᐗᐊ	-7.55399
▁ᑮᐃᑭᑐ᙮	-7.55758
▁ᐅᑮᐃᓈᐞ᙮	-7.55772
ᓯᓂᒃ	-7.56082
ᓯᐌᒃ	-7.56839
ᐸᒥ	-7.57037
▁ᐅᑭᑭᓄᐊᒪᐙᑲᓇᐞ	-7.57244
▁ᑮᐊᓂ	-7.57413
▁ᑫᔑ	-7.57805
▁ᑆᓬ	-7.57806
▁ᓂᑎ	-7.57957
▁ᐯᒫᑎᓯᓂᒡ	-7.5826
▁ᐃᓇᔥᑫ	-7.58267
ᓰᒻ	-7.58722
ᓍ	-7.58747
ᓅᑕ	-7.59118
▁ᓃᐱᐗᐞ	-7.59289
ᐐᑕᒪᐎ	-7.59799
ᓂᑎᓱ	-7.5991
ᑕᓐ	-7.6015
▁ᐌᑯᓀᓐ	-7.60325
▁ᐊᐎᔭᒃ	-7.60527
▁ᑳᐱ	-7.60764
ᑏ	-7.60847
▁ᑭᔐᒪᓂᑑᓐ᙮	-7.60959
▁ᑲᑴ	-7.61526
ᓴᓐ	-7.61529
ᐄ	-7.61599
ᒪᒋ	-7.6179
ᓯᓅᓐ	-7.6231
▁ᐊᐗᔑᒣ	-7.62433
ᒋᑳᑌ	-7.62484
ᐃᑯᒡ	-7.63047
ᑰᐞ	-7.63748
▁ᐅᑯᓯᓴᓐ	-7.64587
ᐲᑎᑫ	-7.64746
ᑎᓄᐎ	-7.64968
▁ᐲᑕᕒ	-7.6514
ᒣᒃ	-7.65646
ᔣ	-7.65681
▁ᐃᓀᑖᑯᓯ	-7.66144
▁ᐅᑯ	-7.66582
ᒥᒋ	-7.67185
▁ᐅᑮᐃᓈᓐ᙮	-7.67384
ᑦ	-7.67906
▁ᐁᐅ	-7.68318
▁ᔔᓂᔮ	-7.68476
▁ᐁᒐᓬ	-7.68506
▁ᐋᓂᑕ	-7.68534
▁ᐅᓄ	-7.68647
▁ᒋᐱ	-7.68813
ᓬᐃ	-7.68888
ᑌᓂᒃ	-7.69088
ᐞ᙮	-7.69128
ᒪᑲᒃ	-7.69279
ᐋᒡ	-7.69406
ᑮᐌ	-7.69767
ᐸᐹ	-7.69848
ᒧᐙᒡ	-7.70976
ᔮᓐ᙮	-7.71012
ᐹᑏᓄ	-7.71341
▁ᐁᐱ	-7.71362
▁ᐊᐎᔭᐞ	-7.71661
ᑎᐱ	-7.71862
▁ᑭᒋᑮᔑᑯᕽ	-7.71924
▁ᒪᔮ	-7.71926
ᓈᑾᓂᓂ	-7.71998
▁ᑳᑕᔑ	-7.72108
▁ᐯᒫᑎᓯᐙᒡ	-7.72511
ᑲᓅᓈ	-7.7272
ᑖᓐ	-7.72918
ᓃᑳᓂ	-7.72944
ᐌᓂᐗᒃ	-7.73778
ᐊᔮᒡ	-7.73825
ᓈᑯᓂ	-7.73826
ᑲᓂᓂ	-7.74444
ᑰᔦᒃ	-7.75364
ᐎᓂᐙᓐ	-7.75565
▁ᐁᐊ	-7.75678
▁ᐅᐐ	-7.75744
ᐃᑰ	-7.76121
ᓭᒃ	-7.76502
ᒫᒃ	-7.76765
▁ᐁᐃ	-7.76851
ᑫᒃ	-7.77044
ᓈᐙᓐ	-7.77833
▁ᐅᑑ	-7.78028
ᒥᓉ	-7.78206
▁ᐙᐸ	-7.78237
ᕒᐊ	-7.78255
▁ᐅᑮᐃᑰᓐ	-7.78629
▁ᐊᐎᔭᓐ	-7.7872
ᑲᓇᐞ	-7.79004
▁ᑭᑖ	-7.79173
ᐅᑭᒫ	-7.79632
ᐊᓇᒥᐋ	-7.79857
▁ᒋᐅ	-7.80147
▁ᒋᑮ	-7.80555
ᐌᒃ	-7.80752
▁ᑮᐅᒋ	-7.80811
ᑸ	-7.81091
▁ᐁᐊᓂ	-7.81701
ᐸᑭᑎᓈ	-7.81777
▁ᐅᑖ	-7.81987
▁ᐅᑎᔑ	-7.82784
ᔫ	-7.83064
▁ᑭᒋᐅᑭᒫ	-7.83221
▁ᒥᓂᒃ	-7.83456
▁ᒪᒋ	-7.83647
ᓃᕽ	-7.85012
▁ᒫᒑ	-7.85047
ᓂᑖᐎᑭ	-7.85065
ᑲᒥᒃ	-7.8522
▁ᑳᐃᓈᒡ	-7.85267
ᒦᓈ	-7.85434
ᑆ	-7.85644
ᑎᐹᒋᒧ	-7.85718
ᒪᔥᑲᐎᓰ	-7.86039
ᑮᔑᒃ	-7.86202
ᑎᐯᒋᑫ	-7.87146
▁ᐸᑳ	-7.88649
▁ᑮᐊᔮ	-7.88684
▁ᐊᒦ	-7.88827
▁ᐅᑭᒋ	-7.89111
▁ᐅᑕᒑᑾᓐ	-7.89136
▁ᒎᐗᒃ	-7.89136
▁ᑫᑰᓂᓂ	-7.89137
▁ᑳᑎᐯᒋᑫᓂᒡ	-7.89161
▁ᐲᓂ	-7.89341
ᓭᓂᒃ	-7.90335
▁ᑕᑯ	-7.90381
▁ᑫᑰᓇᓐ	-7.9054
▁ᑎᓄ	-7.91063
ᐯᔑᑯ	-7.9146
ᑉ	-7.91958
▁ᐃᔥᒀ	-7.92687
▁ᐅᑮᐃᔑ	-7.92743
▁ᐃᓴ	-7.92993
▁ᑭᑑ	-7.93194
▁ᑭᐐ	-7.93717
▁ᐃᓇᑫ	-7.93836
▁ᐃᓂᓂᐗᓐ	-7.94072
ᑮᔑᑲᓂᓂᒃ	-7.94141
ᓂᓂᑭᓐ	-7.94501
▁ᓂᑕᒻ	-7.95644
▁ᒋᓴᓲᓐ᙮	-7.95711
ᑎᐯᓂᒥ	-7.96165
ᓰᐗᒃ	-7.96377
ᓂᔕᐅ	-7.96707
ᓀᒀ	-7.97236
ᓯᓂᓂ	-7.97404
▁ᐋᑎ	-7.97504
ᑯᐸᓀᓐ	-7.97857
ᑖᓈᐙ	-7.98021
▁ᐅᓇᔓᐌᐎᓐ	-7.98261
ᑖᐱᓇ	-7.98304
▁ᒉᕒᐆᓴᓬᐊᒥᕽ	-7.98615
ᐱᒥᓂᔕ	-7.9907
ᓃᔑᓐ	-8.0097
▁ᐋᓇ	-8.01058
▁ᑫᐐ	-8.01105
ᐌᐌᓂ	-8.02514
ᒋᑳᑌᒃ	-8.02662
ᑮᔑᑲᒃ	-8.02676
ᑎᐸᐊ	-8.02784
ᒪᒋᑑᑕᒧ	-8.02888
ᑯᓈᓐ	-8.02899
ᒋᑲᓂᐎ	-8.03287
ᑲᓂᐎ	-8.05545
▁ᑳᒎᐎᐎ	-8.05747
▁ᒞᓐ	-8.05754
ᒐ	-8.0652
▁ᒎᐗᐞ	-8.06572
ᐙᑳᐃᑲᓂ	-8.06578
ᐲᔖ	-8.06639
ᓰᒥᓐ	-8.07042
;	-8.07403
▁ᐹᓂᒫ	-8.07408
▁ᑯᒫ	-8.07809
▁ᑫᑮ	-8.07887
▁ᑭᑎᔑ	-8.08038
▁ᑲᓅ	-8.08897
ᑎᐹᑯᓂ	-8.09094
▁ᐆᑌᓇ	-8.09941
ᒥᓴᐌ	-8.10014
ᑭᑭᓄᐊᒪᐙ	-8.108
▁ᑭᒋᐊᓇᒥᐁᐎᑭᒫ	-8.10801
▁ᓵᑭ	-8.11713
ᓯᓄᒃ	-8.11994
▁ᐅᑌᐺᑕᒨᒃ	-8.12545
▁ᐅᑕᓄᑮ	-8.12546
ᑮᐌᐱᒫᑎᓯ	-8.13037
▁ᐐᓇᐙ	-8.13492
ᓈᓂᒃ	-8.14252
ᓂᓐᒡ	-8.1471
ᐃᑎᓱ	-8.14726
ᐸᑭᑎᓇ	-8.15227
ᑗ	-8.16123
ᑎᐯᓂᒥᑯ	-8.17269
▁ᑫᑮᓇᐙ	-8.17971
▁ᐱᒫᑎᓯᐎᓐ	-8.18252
ᒪᒋᑑᑕ	-8.18499
ᑲᓂᕽ	-8.18802
▁ᒥᓍᒋᒧᐎᓐ	-8.18895
ᐎᓂᐙᕽ	-8.18968
ᒪᑲᓐ	-8.19262
ᑕᒪᐙᒡ	-8.19463
ᑳᐸᐎ	-8.19651
▁ᐅᑮᐃᓈᐞ	-8.20722
▁ᐅᑮᐃᓈᓐ	-8.20737
ᑕᓇᒥᐋ	-8.20791
ᐐᑎᑫ	-8.21677
▁ᐃᓀᑖ	-8.2178
ᑲᐊᑖ	-8.21954
ᔩ	-8.22714
▁ᐃᓂᓂᐗᒃ	-8.22971
2	-8.23692
▁ᔖᑰ	-8.23901
▁ᐁᑮᐊᓂ	-8.23995
ᐊᔨ	-8.24097
ᑲᑴᒋᒫ	-8.24356
▁ᓃᓇᐎᓐᑦ	-8.2468
▁ᐯᐸᑳ	-8.24692
▁ᐁᑮᐃᓈᒡ	-8.24694
ᓰᓈᐙ	-8.24838
▁ᐅᑯᓯᓯ	-8.26236
ᑕᒨᒃ	-8.26375
ᓇᒥᐁᐎᑲᒥ	-8.266
ᔂ	-8.27703
ᒥᓂᑴ	-8.28142
ᐅᑎᓯ	-8.2827
▁ᐃᔅᕒᐃᔭᓬ	-8.28731
▁ᐯᕒᐊᓰ	-8.28732
▁ᐋᓇᐐ	-8.28765
ᐊᓇᒥᐁᐎ	-8.29265
▁ᑮᓇᐎᓐᑦ	-8.2977
▁ᓂᑌᑌ	-8.29813
▁ᑳᐊᔮᐙᒡ	-8.2999
ᒦᓂᑰ	-8.30084
ᐅᒋᒋᓭ	-8.31386
ᑮᑭᑐ	-8.31855
ᓂᓯᑐᑕ	-8.32686
ᐐᑕᒫᑫ	-8.33561
▁ᑳᐅᒌ	-8.34917
ᒉ	-8.35133
ᒥᓍᐸ	-8.35188
ᑲᒀᑕᑭᑑ	-8.37362
ᑶ	-8.37362
▁ᐅᑕᒑᑯᓂ	-8.37362
ᐎᓂᓃᕽ	-8.37615
▁ᐅᓇᔓᐌᐎ	-8.37887
ᒦᑭᐌ	-8.38332
▁ᐃᔑᓂᔕᐙ	-8.38498
ᑾᔭᑯ	-8.38535
ᑖᑯᓯᒡ	-8.3924
▁ᒨᓯᔅ	-8.40801
ᐅᑖᐱᓈ	-8.4125
▁ᓇᑴᑕ	-8.43009
ᑮᐅᑌᑌ	-8.43171
ᐱᒧᓭ	-8.43241
▁ᑌᐯᒋᑫᔭᓐ	-8.44361
▁ᑭᒋᐊᓇᒥᐁᐎᑲᒥᑯᕽ	-8.44361
ᒪᑲᓂᓂᒃ	-8.44408
▁ᐯᔓ	-8.45763
ᔐᒪᓂᑑ	-8.46368
ᔓᑕᒫᑫ	-8.46808
ᑌᐺᔦᑕᒧ	-8.46845
ᑲᒀᑕᑭᐃ	-8.48055
▁ᑳᐃᔥᒀ	-8.48062
ᐐᑕᒫ	-8.4838
ᒋᑳᑌᓂᒃ	-8.48459
▁ᐃᓂᐌᓂᐗᐞ	-8.49316
ᑭᑫᑕᒧ	-8.49393
▁ᑑᑕ	-8.50078
▁ᐃᓈᑯᓂᑫᐎᓐ	-8.50594
▁ᐅᑌᐺᑕᒨᐞ	-8.50594
▁ᐱᓵᓂ	-8.50775
ᑭᔐᐙᑎᓯ	-8.51888
▁ᑫᐐᓇᐙ	-8.51902
ᑖᑾᓂᓂᒃ	-8.52287
ᑖᑯᓯᐙᒡ	-8.52785
ᐅᔑᑑ	-8.53061
▁ᑳᓬᐊᓬᐄ	-8.532
ᒫᐗᒋ	-8.53473
ᐌᓅᑎᓯ	-8.54531
ᐙᐸᑕᐃ	-8.54828
3	-8.55876
▁ᐄᓴᓐ	-8.5588
ᒫᒥᑲᐎ	-8.55892
▁ᑫᓃᓐ	-8.55931
ᐊᓯᓃ	-8.56084
▁ᐅᑮᐃᑰᐞ᙮	-8.57242
ᓯᐙᐙ	-8.57711
ᒪᔥᑲᐎ	-8.5802
ᓲ	-8.58625
▁ᐱᓵᓐ	-8.58652
▁ᐸᑭᑎᓂ	-8.59817
ᑭᑫᑖᓐ	-8.60175
ᑾᔭᒀᑎᓯ	-8.61452
▁ᑳᐃᑭᑐᒡ	-8.61452
ᐐᒋᑭᐌ	-8.61501
▁ᐱᓯᑕ	-8.62188
▁ᑭᒋᒪᓯᓇᐃᑲᓐ	-8.62896
▁ᐅᑖᓈᕽ	-8.62916
ᑲᓅᑕᒪᐙ	-8.63398
▁ᑭᑭᓄᐊᒪᐙᑲᓇᒃ	-8.64361
ᐱᒫᒋᐃᑰᐎ	-8.64365
ᐐᒌᐎᑯᒡ	-8.64368
ᓅᒋᑯ	-8.64493
ᑕᑯᔑᕽ	-8.6466
ᐌᐱᓈ	-8.64762
ᐊᑕᐌᑕ	-8.65257
▁ᑳᑮᐃᑭᑐ	-8.66982
0	-8.67358
▁ᐃᔥᑯᑌ	-8.67358
▁ᒞᓇᓐ	-8.67359
▁ᐃᔑᐲᐃᑳᑌ	-8.67359
▁ᒦᒋᒻ	-8.67529
ᑕᒫᑯᒡ	-8.67694
ᑎᐯᓂᒫ	-8.689
ᑎᐯᑕᕽ	-8.68904
▁ᐊᓇᒥᐁ	-8.70017
1	-8.70447
ᐸᓯᑸ	-8.70514
ᑕᒫᕽ	-8.71716
▁ᑫᒋᓈᒡ	-8.7204
ᓇᒪᑕᐱ	-8.73642
ᓈᓂᐗᕽ	-8.73726
ᓵᑭᐋ	-8.74221
ᐅᑖᐱᓂ	-8.74883
▁ᒪᒋᐊᔭᐋ	-8.75267
ᒨᔥᑭᓀ	-8.75276
▁ᒥᓴᐙ	-8.75306
ᑭᑭᔥᑳ	-8.75451
▁ᒪᒋᑑᑕᒧᐎᓐ	-8.77057
ᓅᑌᓭ	-8.77089
▁ᐃᔥᐱᒥᕽ	-8.78615
▁ᓵᐃᒪᓐ	-8.78615
▁ᑳᐅᓂᔑᔑ	-8.78618
ᔖᑰᒋ	-8.80023
▁ᐁᐸᕒᐊᐋᒻ	-8.80331
▁ᒥᑖᔂᒃ	-8.80331
▁ᐋᓂᓐᑦ	-8.80332
▁ᐃᓂᐌᓂᐗᓐ	-8.82079
ᐃᓈᑎᓯ	-8.83889
ᔨ	-8.84918
ᐃᓀᑖᑯᓯ	-8.85353
4	-8.85666
▁ᒣᐎᔕ	-8.85673
ᒦᓂᑰᐎᓯ	-8.85681
▁ᒫᐐᓐ	-8.85687
▁ᑎᐱᓇᐌ	-8.87472
ᑮᒨᒋ	-8.89013
▁ᐁᑮᐃᑭᑐᒡ	-8.89387
▁ᒪᒋᐊᒑᑾᐞ	-8.89387
ᑲᑮᑖᐌ	-8.89392
ᐗᔦᔑ	-8.89408
ᐊᐯᓂᒧ	-8.91304
ᐃᓀᓂᒥ	-8.92223
ᑖᑯᓯᓰ	-8.93239
▁ᐹᐃᓬᐊᑦ	-8.93252
▁ᐋᐱᑎᕽ	-8.93253
▁ᑭᐐᑕᒪᐎᓂᓂᒻ	-8.93253
▁ᐋᔑᑌᔮᑎᑯᕽ	-8.95243
▁ᐅᓄᐌᓂᐗᓐ	-8.95243
▁ᐱᔑᔑᒃ	-8.95244
7	-8.97273
▁ᐅᑑᓇᔓᐌ	-8.97273
ᒬ	-8.99346
▁ᒫᑭᔖ	-8.99355
ᐸᑯᓭᓂᒥ	-9.01464
ᐙᓴᑯᓀ	-9.03627
▁ᐌᔫᓯᒥᓐᒡ	-9.05834
▁ᒪᒋᐊᒑᑾᓐ	-9.05834
ᐺ	-9.24993
ᓶ	-9.37053
ᓋ	-9.53619
ᔛ	-9.69184
ᒶ	-9.77981
5	-9.87626
ᒞ	-9.98252
–	-9.98302
8	-10.1026
ᔀ	-10.2383
ᔾ	-10.2383
6	-10.5821
9	-10.8116
)	-11.8465
.	-12.2965
x	-12.2965
(	-13.1289
ᔡ	-13.129
ᒍ	-13.1291
ᐾ	-13.1292
ᒸ	-13.1293
ᔪ	-13.1294
ᔗ	-13.1295
X	-13.1296
ᒎ	-13.1297
ᐼ	-13.1298
ᒒ	-13.1298
"	-13.1298
/	-13.1298
Z	-13.1298
[	-13.1298
]	-13.1298
a	-13.1298
u	-13.1298
~	-13.1298
ᐧ	-13.1298
ᑡ	-13.1298
ᒑ	-13.1298
