<pad>	0
</s>	0
<unk>	0
¦	-1.3191
▁¦	-1.51153
▁,	-3.51876
▁	-3.72691
𐊼	-4.09691
𐊣	-4.09691
ꭲ	-4.14939
ꭰꮄ	-4.20333
▁.	-4.24137
ꮎꮝꭹ	-4.45052
ꮓ	-4.56917
▁;	-4.63587
ꭹ	-4.81337
ꭿꭰ	-5.1348
ᏹ	-5.20144
ꭸꮢ	-5.21092
ꮧ	-5.36507
ꭿ	-5.3838
ꭽ	-5.54815
ꮎ	-5.61715
ꭵꮭ	-5.729
ꭸꮢꭲ	-5.74212
ᏸꮓ	-5.75696
ꮫ	-5.85361
ꭴꮑꮃꮕꭿ	-5.89382
ꭴ	-5.90041
ꭶ	-5.9513
ꭰ	-5.96504
ꮵ	-6.03019
ꮙ	-6.11561
ꮒ	-6.2333
▁?	-6.24833
ꭸꮞꮝꮧ	-6.2564
ꮣ	-6.28789
ꭰꮞ	-6.34315
ꮵꮜ	-6.37161
ᏼꮻ	-6.38668
ꭹꮆ	-6.38848
ꮎꮝꮙ	-6.39199
ꭰᏼ	-6.42192
ꮎꮝꭹꮿ	-6.4376
ꮏꮙ	-6.46606
ᏻ	-6.4897
ꮕ	-6.5052
ꮝꮧ	-6.50776
-	-6.51121
ꮒꭿ	-6.52275
ꮝꭹꮒ	-6.52344
ꮵꭹ	-6.52579
ꮒꭸꮢꮎ	-6.54127
ꭴꭼꮻᏻꭿ	-6.5472
ꭲᏻꮝꮧ	-6.57918
ꮧᏹ	-6.58816
ꮿ	-6.59873
ꮷ	-6.62323
ꮟ	-6.63018
ꮳ	-6.65543
ꮎꮏ	-6.69658
ꭶꮆꮑꮫ	-6.71307
ꮅ	-6.73305
ᏹꭹ	-6.78401
ꭺꮁꮝꮧ	-6.84523
ꮒꭶꮫ	-6.8671
ꭴꮒ	-6.87381
ꮻ	-6.88221
ꭼ	-6.88345
ꮪ	-6.93704
ꭲᏻ	-6.93954
ꭳꮝꮫ	-6.94223
ꮝꭹ	-6.94279
ꮈ	-6.95748
ꮥ	-6.98498
ꭸ	-6.98878
ꭰꮒ	-6.98889
ꭲᏻꮓ	-6.99962
ꭲꭶ	-7.00655
ꭼꮹ	-7.04303
ꭶꮩ	-7.07681
ꮑ	-7.08688
ꮎꮝꭹꮓ	-7.09835
ꮮꮝꮧ	-7.12374
ꭾꮝꮧ	-7.13855
ꭴꮺꮵ	-7.14116
ꭱꮆꭿ	-7.14782
ꮄ	-7.15688
ꭴᏺ	-7.17395
ꮝꭺ	-7.19771
ᏼ	-7.20035
ꮞ	-7.20128
ꮢ	-7.2152
ꭱ	-7.23216
ꭺ	-7.23998
ꭴꮳꮨ	-7.26723
ꮒꭶꭵ	-7.29155
ꭲꮵ	-7.31334
ᏺ	-7.31789
ꭸꮝꮧ	-7.33319
ꮔꮝꮫ	-7.3474
ꮴ	-7.3524
ꮨ	-7.35249
ꭼꮒꭸꮢ	-7.36025
ꭾ	-7.36522
ꭷꮓꭾꮫ	-7.36684
ꮔ	-7.37807
ꮩ	-7.3809
ꭴꮹꮢ	-7.38243
ꭶꮈꮙꮧᏻ	-7.38372
ꮝꭸꮝꮧ	-7.38726
ꭰꮣꮕꮩ	-7.39911
ꭸꮞ	-7.41893
ꮔꮺꮞ	-7.42197
ꭶꮈꮃꮧ	-7.42753
ꮂ	-7.43687
ꭳꮟᏻ	-7.44575
ꮧꭷꮏꮹꮫꮝꮧ	-7.44578
ꭿꭰꮓ	-7.44705
ꭰꮵꮈ	-7.45544
ꭺꭿ	-7.46051
ꭲᏼꮫ	-7.46141
ꮈꭿ	-7.49857
ꮎꭿᏻ	-7.50164
ꭱꭿ	-7.50584
ꮕꭹ	-7.50605
ꮹ	-7.50721
ꭴꮯ	-7.51661
ᏸꮅ	-7.51834
ꭲᏻꮅꮝꮩꮧ	-7.52309
ꮤ	-7.52945
ꮸ	-7.53152
ꭰꮝꭶꮿ	-7.53216
ꮤꮕꭿ	-7.54302
ꭳ	-7.54465
ꮈꭹ	-7.55326
ꭴꮎ	-7.55988
ꭰꭹ	-7.57044
ꮝꮧᏹ	-7.58547
ꭵ	-7.58576
ꭴꮴꮅꭶ	-7.5984
ꮄꭲ	-7.62786
ꮎꮒꭵ	-7.63153
ꭴꮴꮅ	-7.65271
ꭼꮒᏻꮙ	-7.65591
ꮔꮺꮢ	-7.69956
ꮵꮜꮓ	-7.72205
ꮜꮙ	-7.72765
ꮪᏻꭺꮫ	-7.7387
ꮝꭶ	-7.7417
ꮃ	-7.75404
ꮼ	-7.76315
ꮕꭿ	-7.76354
[	-7.76791
ꮪꮒ	-7.77457
ꭴꮒꮳꮨ	-7.79304
ꮩꮧᏹ	-7.81072
ꮢꭹ	-7.82129
ꮩꮧ	-7.8314
ꭰꮑꭿ	-7.83566
ꮶ	-7.83911
ꮒꮪꮺꮞꮄ	-7.84712
ꮔꮺꮞꮄ	-7.8483
ꭰꮖ	-7.84926
ꮜ	-7.85471
ꮤꮅꮑ	-7.86265
ꭺꭲ	-7.86382
ꮙꮃ	-7.87012
ꭰꮒꮷꮟ	-7.87209
ꮀ	-7.88112
ꮝꮫ	-7.88705
ꮷꮣꮄꮕꮫ	-7.88897
ꮲ	-7.8907
ꭼꮹꮝꮣꮹꮧꮩꭿ	-7.8943
ꮑꭲ	-7.90344
ꮆ	-7.9041
ꭴꭼꮹꮅ	-7.92248
ᏸ	-7.93111
ꮖ	-7.93642
ꮂꭲ	-7.95332
ꮘꮣ	-7.96726
ꮽ	-7.99886
ꮧꭽ	-8.00166
ꭲꮸ	-8.01504
ꮳꮒ	-8.01698
ꮝꭼꭲ	-8.03129
ꭶꭺ	-8.03552
ꮕꮧꭶꮅꮝꮩꮧꭽ	-8.05872
ꭴꮩꭿᏻꭿꮿ	-8.05903
ꭶꮪ	-8.06468
ꮝꮣ	-8.06812
ꮭꮝꭺ	-8.08463
ꮷꮎ	-8.08793
ꭺꭿᏻꮧ	-8.09039
ꮷꮒ	-8.09479
ꮧꭶꮃꮻꭲꮝꮧᏹ	-8.09849
ꮒꮪꮺꮞꮈ	-8.10057
ꭲꮷꮃꭽ	-8.10645
ꮵꮇꮟꮅꮋ	-8.12635
ꮒꭺꭿꮈ	-8.12739
ꭲꭼᏹ	-8.12814
ꭳꭹ	-8.13406
ꮠ	-8.14481
ꭼꭹ	-8.1502
ꭰꮉ	-8.15053
ꭼꮒ	-8.15761
ꭼꮒꮫ	-8.15793
ꭰꮟ	-8.16842
ꮳꭼꮻᏻꭿ	-8.16978
▁]	-8.16979
ꭶꮪꮂ	-8.17794
ꭴꮑꮸ	-8.18029
ꮧꮒ	-8.18047
ꭰꭸᏼ	-8.18496
ꭲꭶꮫ	-8.18544
ꮕꮹꮣꮄ	-8.19966
ꭻ	-8.2049
ꭰᏸꮅ	-8.21459
ꭼꭲ	-8.21959
ꮤꮅ	-8.22113
ꮔꮅꮝꮤꮕ	-8.22354
ꭲꮿꮒ	-8.22507
ꭼꮧ	-8.22598
ꮀꭲ	-8.22983
ꮵꭺ	-8.23089
ꭱꮝꭶ	-8.23753
ꭲꮳ	-8.23932
ꭰꮣ	-8.24655
ꭷ	-8.25232
ꮣꮒ	-8.25349
ꭰꮥꮈ	-8.25428
ꭴꮣꮩꮅꮝꮧ	-8.25443
ꭴꮣ	-8.25549
ꭴꮕꮢ	-8.25616
ꮔꮺꮞꮈ	-8.25639
ꮎꭵ	-8.26092
ꮒꭶꮧᏻ	-8.26244
ꭰꮵ	-8.26269
ꮤꮕ	-8.27307
ꮺ	-8.27923
ꮷꮺꮵ	-8.27936
ꮧꭶ	-8.28511
ꮭ	-8.28524
ꭴꮺ	-8.28541
ꮷꮎꮣꮄꮕꮫ	-8.28712
ꭱꮵ	-8.29839
ꭶꮅ	-8.30452
ꮤꮑ	-8.33516
ꮑꮧᏹ	-8.3479
ꮑꮈ	-8.35047
ꮒꮸꮺꮞ	-8.37392
ꮂꭹ	-8.37761
ᏹꭸꮞ	-8.38933
ꭲᏻꮹꮒꮜ	-8.39231
ꭰꮑꮂ	-8.39503
ꭰꮟᏼꮻ	-8.39612
ꮩꭿ	-8.40412
ꭿꮝꮧᏹ	-8.4073
ꭼꮹꭶꮨꮿ	-8.41079
ꭴꮩꭿᏻꭿ	-8.41962
ꮧꮝꭸꮝꮧ	-8.42007
ꭴꮝꮧ	-8.42075
ꭹꮃꮙ	-8.42089
ꮢꭿ	-8.42431
ꭶꮨ	-8.43358
ꮔꮒꮺꮞ	-8.43921
ꭰꮟꮙ	-8.44203
ꭲꭹ	-8.44327
ꮷꮎꮑꮆꮧ	-8.44888
ꮥꮵ	-8.44922
ꮕꮣ	-8.45375
ꮩꮣ	-8.45602
ꮙꮝꭹꮒ	-8.45947
ꭲꮴ	-8.46199
ꮵꭶꮤꭽ	-8.46311
ꮓꮕ	-8.46464
ꮷꮴꮅ	-8.46886
ꭲꭶꭲ	-8.48066
ꮷꮩ	-8.48348
ꮝꭼ	-8.48652
ꭴꮗꮣꮅ	-8.48859
ꮔꭼꮻᏻꮢ	-8.48859
ꮧꭷꮏꮹꮧꮩꭿ	-8.48859
ꮡ	-8.49638
ꮔꮒꮺꮢ	-8.49881
ꭴꮇꮸ	-8.51045
ꭰᏸꮈ	-8.51435
ꮧꭶꮈꮻꮝꮣꮑꮧ	-8.51955
ꭴꮅꮒꭹꮫ	-8.52008
ꮇ	-8.52086
ꮶꭲ	-8.52445
ꭿᏻ	-8.52496
ꭲꮣꮅꮕꮯ	-8.53082
ꮝꮪ	-8.53154
ꮹꮫ	-8.54336
ꮕꮿ	-8.5473
ꮯ	-8.55208
ꭰꮻ	-8.55241
ꮑꮈꭿ	-8.55554
ꭹꮆꮓ	-8.55567
ꮪꮎ	-8.57351
ꭲꭶꮴꮅ	-8.57359
ꭸꮳ	-8.57765
ꮝꭸ	-8.58823
ꭳꮒ	-8.5912
ꮠꭲ	-8.59442
ꮒꭼ	-8.59983
ꭱꮳ	-8.60186
ꭴꮪꭹ	-8.60242
ꭲꮫ	-8.609
ꭸꭲ	-8.61051
ꮔꮅꮝꮤꮑ	-8.61433
ꭴꮥꮅꮫ	-8.61851
ꮕꮹꮩꭿꮿꮫ	-8.61855
ꮷꭼꮹꮆꮧ	-8.61866
ꭱꮩꮣ	-8.61936
ꮫꮎ	-8.62001
ꭲꮧꮲ	-8.62216
ꭺꮺꮅ	-8.62542
ꮞꮝꮧ	-8.63548
ꮧꮝꭹ	-8.63887
ꮕꮧꭶꮅꮝꮩꮧꮝꭸ	-8.63938
ꮦ	-8.64079
ꭰꮒꮝꭶꮿ	-8.64245
ꮒꭶ	-8.64306
ꭶꮣꭽ	-8.64466
ꭰꮑꮆ	-8.64813
ꮑꮄ	-8.64866
ꮂꭶ	-8.65079
ᏸꮅꮙ	-8.66101
ꭴꮑꮃꭹ	-8.66704
ꭸꮠꭲ	-8.67079
ꭵꭹ	-8.67243
ꭰꮎꮩꮄꮀꮝꭹ	-8.67804
ꮪꮩꭵ	-8.67819
ꭴꮅ	-8.6784
ꭴꮎꮣꮕꮨ	-8.67902
ꮧꮳ	-8.68015
ꮔꮝꮧ	-8.68114
ꮝꮩꮧ	-8.68196
ꭸꮵ	-8.68768
ꭲꭼᏹᏹ	-8.6877
ꭺꮺꮃ	-8.69108
ꮈꭲ	-8.69146
ꮤꮕꭹ	-8.69445
ꭶꮅꮙꭹ	-8.69996
ꮤꮃꮪ	-8.70318
ꮕꮣᏻꮣꮄꮕ	-8.70418
ꮧꮵ	-8.71411
ꭲꮈꭿᏻ	-8.71565
ꮝꮖ	-8.71622
ꭰꮒꮤꮅ	-8.74292
ꮵꭸꮞ	-8.74692
ꮝꭸꭲ	-8.75233
ꭰꮎ	-8.75381
ꭱꮖꭽꮋ	-8.75451
ꮜꮹꮒ	-8.75461
ꮸꭿ	-8.75477
ꭱꮃꮧ	-8.75582
ᏹꮀꮹ	-8.75751
ꮑꭽ	-8.76036
ꭲꮟꮅ	-8.76197
ꮔꮒꭼꮻᏻꮢ	-8.76785
ꮥꮝꮧ	-8.77711
ꭸꮅꮅ	-8.78172
ꭰꮝꭶꮒ	-8.78198
ꭰꭶꮤꮂ	-8.78662
ꭶꮑꮈ	-8.79183
ꮑꮅ	-8.79355
ꭴꮝꮖꮒꭺꮧ	-8.79485
ꮌꮟ	-8.79525
ꭼꮎ	-8.79589
ꮝ	-8.79613
ꭴꮎꮴꮅꭶ	-8.79685
ꮂꮎ	-8.80296
ꭰꮒꮖꮅꮟ	-8.80912
ꭴꮎꮣꮱꭼ	-8.80939
ꭸꮆꭿ	-8.80954
ꭶꮣ	-8.80979
ꭰꭶ	-8.80979
ꮰ	-8.81109
ꭴꮕ	-8.81325
ꮏ	-8.82109
ꮢꭲ	-8.82275
ꮧꮒꭷꮏꮹꮧꮩꭿ	-8.82303
ꭰꮩꮄꮀꮝꭹ	-8.82319
ᏹꭶ	-8.82524
ꮉ	-8.82991
ꮕꮫ	-8.83149
ꮩꮅ	-8.8351
ꭶꮩꭿ	-8.84141
ꮢꮎ	-8.85161
ꮥꭶ	-8.85602
ꮒꭼꮕ	-8.85626
ꭰꮞꮙ	-8.85923
ꮵꭸꮠ	-8.86469
ꭰᏺꮁꭿꮝꮧ	-8.86652
ꭼꮹꮒ	-8.87067
ꭷꮑ	-8.8733
ꮥꮻ	-8.87583
ꭴꭺꮂ	-8.8773
ꭳꭶ	-8.87833
ꮥᏺꮂꮝꭹ	-8.88089
ꭰꮣꮑꮈ	-8.88594
ꭱꮅ	-8.88603
ꮔꮼ	-8.88693
ꮘ	-8.88698
ꮝꮥ	-8.88723
ꭷꮑꭼ	-8.89079
ꮥꮳ	-8.89228
ꮤꮒ	-8.89468
ꭰꭶᏼꮅꭸ	-8.89645
ꭲꮸꮢ	-8.89735
ꮨꮒꮩ	-8.90049
ꭹꭼ	-8.90115
ꮑꭿ	-8.90697
ꭴᏺꮁꮢ	-8.90796
ꮊꮅ	-8.9118
ꭺꮺꮈ	-8.91226
ꭴꮑ	-8.91248
"	-8.9129
ꭴꮫꮕ	-8.91862
ꮵꭸꮢ	-8.9201
ꮝꭼꮎ	-8.92327
ꭲᏻꮝꭹꮒ	-8.92749
ꭲꮿꭶᏼꮅ	-8.9276
ꮋ	-8.92912
ꮥꭹ	-8.93221
ꭰꮝꭹꮎ	-8.94357
ꮕꮟꮣꮝꮧ	-8.94365
ꮝꮤꮕ	-8.94384
ꮥꭿ	-8.95894
ꭶᏻꮃ	-8.95962
ꭰꮣꭸᏻꮧ	-8.95969
ꮑꮃꮕꭿ	-8.96196
ꭴꮎꮫꭶꮕ	-8.9713
ꭴꮵ	-8.9719
ꮧꭼꮹ	-8.97242
ꮒꮳ	-8.97302
ꮒꭼꮎꮫ	-8.97602
ꭲᏻꮎꮝꮧ	-8.97604
ꭴꮅꮒꭹꮧᏻ	-8.97641
ꮗ	-8.98059
ꭴꮩꮣ	-8.98112
ꮧꮣ	-8.98377
ꮝꮩꮧᏹ	-8.9898
ꭲꮴꮂ	-8.99015
ꭰꮝꮣꮿ	-8.99317
ꭰꭶᏼꮅꭸꭲ	-8.99342
ꭲꮎꭸ	-8.99462
ꭱꮂ	-8.99679
ꮑꮈꭹ	-8.99747
ꮣꮄ	-9.00057
ꭰꮎꮅꮕꮯ	-9.00962
ꭰꮖꮴꮅ	-9.0098
ᏺꭿ	-9.01055
ꮣꮕ	-9.01115
ꭶꮆꭿꮝꮧᏹ	-9.01186
ᏹꮵ	-9.01485
ꮵꮪ	-9.0179
ꮝꮩ	-9.01944
ꭿꮝꮧ	-9.02557
ꭰꮒꮝꭹꮎ	-9.02688
ꭴꮰᏹ	-9.02853
ꮔꭺ	-9.03061
ꮫꭹ	-9.03619
ꮸꮢ	-9.03879
ꭼꮧꮝꭼ	-9.04025
ꮧꮝꭼ	-9.04132
ꭸꮵꮕꮟꮫ	-9.04455
ꮒꮵꭵ	-9.04487
ꮴꭲ	-9.0455
ꮑꭾꮝꮧ	-9.0464
ꭴꮑꮴ	-9.05642
ꮖꮄꮧ	-9.06229
ꭰꮓꭿᏻꮂꮝꭹ	-9.06278
ꭰꮫ	-9.06279
ꭹꭶꭸ	-9.06357
ꮵᏻꭿ	-9.06653
ꮒꭶꮺꮝꭼ	-9.07317
ꮕꮩ	-9.07457
ꮱꭼ	-9.07633
ꭰꭹꮎ	-9.07867
ꮕꮹꮎꮣꮄ	-9.08044
ꮷꮒᏺꮁꮢꭿ	-9.08044
ꮎꮝꭹꮝꭹꮒ	-9.0862
ꭿꮝꭹ	-9.08843
ꮣꮅ	-9.09077
ꮝꭼꭹ	-9.09159
ꭶᏸꭺꭹ	-9.09928
ꭰꮒꭸᏼ	-9.09933
ꮣꮑꮧ	-9.10043
ꭴꮹ	-9.10564
ꭶꮤꮂ	-9.10689
ꮧꮓꮺꮅꮝꭹ	-9.11783
ꭲꭼᏹꮧꮲ	-9.11795
ꮢꮓᏹ	-9.11821
ꮣꮎ	-9.11867
ꮯꮆꮫ	-9.11878
ꮒꭶꮅꮝꮧ	-9.12531
ꭶꮈꮆꭲ	-9.12635
ꭲꮿ	-9.12653
ꮧꮎ	-9.12704
ꭴꮒᏺ	-9.12939
ꮒꮩ	-9.13519
ꭰꮵꮈꮙꮧ	-9.13606
ꮔꮣꮄꮢ	-9.13717
ꭰꮒꭶꮤꮂ	-9.13801
ꮣᏻ	-9.13992
ꮣꮒꮈ	-9.14256
ꮳꮑ	-9.14405
ꭶꮈ	-9.14655
ꭸꮠ	-9.14677
ꭶꮈꮙꮧ	-9.15039
ꮑꮧ	-9.15477
ꮕꮟꮫ	-9.15545
ꭴꮣꮕꮨ	-9.15684
ꮝꭶꮿ	-9.15876
ꭵꭵ	-9.15904
ꭴꮴꮅꭺꭿ	-9.16158
ꮒꮵ	-9.1619
ꮵꮩ	-9.16472
ꮅꮝꮣ	-9.1707
ꭴꮎꮴꮅ	-9.17485
ꭰꮊꮙꭿ	-9.17667
ꭴꮎꮩꮣꮖꮝꭼ	-9.17667
ꭴꮣꮅꭲ	-9.17676
ꭴꮎꮣ	-9.17685
ꭱꮆꮫ	-9.17686
ꭴꮒꭼꮻᏻꭿ	-9.17689
ꮒꭶꮺ	-9.17805
ꮶꭲꮑ	-9.18197
ꮝꮤꮒ	-9.18209
ꮁ	-9.1825
ꭴᏺꭲᏻ	-9.1841
ꮵᏻ	-9.1871
ꮂꮟ	-9.18999
ꮜꮧ	-9.1907
ꭰꮧ	-9.19689
ꭱꮊ	-9.1972
ꭴᏸꮈꮫ	-9.19794
ꭰᏺꮅ	-9.19839
ꮪꮅ	-9.20475
ꮈꭽ	-9.20678
ꮵꮥ	-9.2128
ꮵꮿ	-9.21758
(	-9.21791
ꮪꮎꮣꮕꮫ	-9.21843
ᏹꮳ	-9.21956
ꮕꮧꭶꮅꮝꮩꮧꮝꭼ	-9.21999
ꭶꮤꭽ	-9.22709
ꮳꮣ	-9.23539
ꭴꮫꭶꮕ	-9.23964
ꭴꮠꮕ	-9.24145
ꭰꮧꮤꮝꮧ	-9.24292
ᏸꮈ	-9.24608
ꭲꮈꭿꮲ	-9.26096
ꮕꮣꭶꮅꮝꮩꮧꮝꭼ	-9.2611
ꭴꮒꮝꭶꮕꮸ	-9.26142
ꮝꮣꮹꮧꮩꭿ	-9.26149
ꮕꮣᏻ	-9.26443
ꭶᏸ	-9.26659
ꮕꮣꭼꮹꮣꮄꮕ	-9.26875
ꮣꮕꮩ	-9.27325
ꭲꮝꮧ	-9.27456
ꮎꮭꭲ	-9.27624
ꮷꮧᏹ	-9.28083
ꮣꭶ	-9.28193
ꭶꮝꭹꮈ	-9.2823
ꮆꭿ	-9.28279
ꮷꮒꮈꮻꮝꮣꮑꭿ	-9.28314
ꭼꮻᏻꮜꮥꭹ	-9.28411
ꭰꮒꮠꭲ	-9.28506
ꭱꭽ	-9.28894
ꭼꮹꮎ	-9.2893
ꭲꭺꭿ	-9.29104
ꮣꮄꮕꮫ	-9.29542
ꭲꭼꮑ	-9.29695
ꮝꭶꭹ	-9.29763
ꮔꮝꮥ	-9.30227
ꭴꮒꮇꮴ	-9.30363
ᏸꮒ	-9.30369
ꭲꮳꮅꮝꮣꮑꮧ	-9.30601
ꮱ	-9.30679
ꭹꮃ	-9.31704
ꮒꮪ	-9.32011
ꮄꮝꮧ	-9.32162
ꮧꭶꮕ	-9.32279
ꮅꮝꮥꮈꮩꮧ	-9.32605
ꭰꭶꮩꭵꭿꮝꮧ	-9.32957
ꭱꮧ	-9.33372
ꮕꮢꭹ	-9.33424
ꮝꮤꮑ	-9.33454
ꮥꮳꮣ	-9.33492
ꮒꮧ	-9.3393
ꭺꮹꮫꮧᏹ	-9.33947
ꭼꮕ	-9.34043
ꮿꮒ	-9.34235
ꭻᏼ	-9.34244
ꭰꮅ	-9.34575
ꭴꮎꮅ	-9.34656
ꭰꮝꭺꭿꮷꮘ	-9.35297
ꭰꮗꮵ	-9.3546
ꮎꮝꮙꮝꭹꮒ	-9.35764
ꮪꮣ	-9.35837
ꮵᏸꮈ	-9.35912
ꭶꮅꮝꮩꮣ	-9.36352
ꮸꭹ	-9.36406
ꮕꭿꮫ	-9.36453
ꭶꮫ	-9.36598
ꭼꮓ	-9.36838
ꮀꮹ	-9.37423
ꭴꮑꮃꮕꭿꮝꭹꮒ	-9.3765
ꮅꮟ	-9.37679
ꭴꮅꮝꮖꮈꮧ	-9.37733
ꮎꮒꮺꮝꭸ	-9.37746
ꮴꮂ	-9.37992
ꭴꮣꮕꮩ	-9.3813
ꮑꮂ	-9.38168
ꮔꮎ	-9.38192
ꮷꮣ	-9.38204
ꮘꮅꭹ	-9.3821
ꭹꮆꮝꭹꮒ	-9.38233
ꮝꭹꮿ	-9.38283
ꮹꮫꮂ	-9.38596
ꮤꮄ	-9.38876
ꭱꮝꮧ	-9.39042
ꮜꮙꮙ	-9.39633
ꮳꮴꮅꭶ	-9.3969
ꭲꮷꮃ	-9.39851
ꮝꮤꮕꭿ	-9.39886
ꭴꮇꮴ	-9.39969
ꭴꮥ	-9.40199
ꮩꮅꮝꮧ	-9.40229
ꮧꮣꮝꮪꮧᏹ	-9.40233
ꮔꮫꮑꮈ	-9.4024
ꮫꭶ	-9.40246
ꭲꮈꮝꭹ	-9.40263
ꭴꮫ	-9.40283
ꮥꮳꮣꮕꮫ	-9.40308
ꮺꮞ	-9.40319
ꭰꮒꮿꮻꮝꭹ	-9.40349
ꭿꮿ	-9.40414
ꮬ	-9.40473
ꮪꮈꮻꮝꮣꮑꮂ	-9.40551
ꮵꮋ	-9.40617
ꮑꮴꮈ	-9.41144
ꮒꮸ	-9.41239
ꮒꮣ	-9.41337
ꮥꮸ	-9.41341
ꮇꮴ	-9.42627
ꮑꮆ	-9.42687
ꭷꮕ	-9.42688
ꮻꮎꮝꮫꮎ	-9.42797
ꮧꮒᏺꮅ	-9.42815
ꭰꮣꮕꮦꮝꭼ	-9.42831
ꭺꮲꮤꮕꭿ	-9.4284
ꮣꮝꮧᏹ	-9.43132
ꭰꮎꮣ	-9.43305
ꮿꭹ	-9.43309
ꭴꮇꭿꮝꮧ	-9.43494
ꮠꮕ	-9.43506
ꭶꮤꮂꮎ	-9.4351
ꮧꭻꭺꮩꮧ	-9.43746
ꮕꭲ	-9.43822
ꭸꭶ	-9.44028
ꮥꭸ	-9.44101
ꭰꮅꮝꮣᏼꮧ	-9.44153
ꮒꮵꮺ	-9.44228
ꮎꮓ	-9.45085
ꮝꮧꮝꭹ	-9.45101
ꭳꮵ	-9.45195
ꮝꮣꮹꮥ	-9.45262
ꭾꮎ	-9.45388
ꮰꭸꮟ	-9.45428
ꮥꭼ	-9.45631
ꭴꮒꭺꮂ	-9.45788
ꭴᏸꮈꮧ	-9.45954
ꮧꮝꭺ	-9.45971
ꭲᏻꮎꮫꮑꮧ	-9.46023
ꮽꮒ	-9.46271
ꮕꭶꮈ	-9.46609
ᏺꭿꮞꮈ	-9.46651
ꭽꮲ	-9.47333
▁."	-9.47968
ꮦꮈꮃꮧ	-9.48131
ꭴꮓꮥꮎ	-9.48133
ꭴꮥꮑꮄ	-9.48154
ꭰꮝꭺꭿ	-9.4817
ᏼꭼ	-9.48202
ꮈꮙꮧ	-9.48872
ꮅꭺ	-9.49177
ꮮ	-9.49314
ꭰꮛꮢ	-9.49934
ꮷꮟ	-9.50065
ꭺꮅ	-9.50449
ꮫꮑꮧ	-9.50496
ꮷꮓ	-9.50577
ꮷꮒꮎꮻ	-9.50912
ꭽꮻꮒꮧꮲ	-9.50974
ꭴꮩꮄꮀꮢ	-9.50998
ꮧꮎꮣꮕꮯ	-9.51138
ꮻꮪ	-9.51288
ꮆꮢ	-9.5132
ꮰᏹ	-9.5137
ꭲꮶꭿᏻꮢ	-9.51824
ꮾ	-9.51876
ꮷꮅ	-9.51935
ꭱꭾ	-9.52258
ꮜꮒ	-9.52272
ᏻꮒ	-9.52411
ꭶꮫꭶ	-9.52752
ꭶꮨꮿ	-9.52759
ꮩꮫ	-9.52778
ꭴꮳꮨꮒ	-9.52784
ꭲꮳꮣ	-9.52906
ꭼꮩꮧ	-9.53074
ꮧꭼꮹꮒ	-9.53145
ꮟꮜ	-9.53204
ꭴꮲ	-9.53459
ꮧꭸꮵ	-9.53465
ꭰꮿ	-9.53508
ᏺꮞ	-9.5376
ꭰꮴꮅꮝꮫ	-9.53766
ꮒꮪᏻꭺꮫꮎ	-9.53771
ꮒꮖꮨ	-9.53776
ꭴꮳꮤꮕꭿ	-9.53782
ꭴꮒꮇꮸ	-9.53837
ꭴꮝꭶꮕꮸ	-9.53939
ꭴꮪꮅꮝꭼ	-9.53975
ꭲꮎꮫ	-9.53997
ꮶꮹ	-9.54066
ꮫꭿ	-9.54105
ꮧꭼ	-9.54251
ꭴꮼ	-9.54369
ꮧꮳꮣ	-9.54416
ꭴᏺꮁꮢꭿ	-9.54647
ꮵꭶ	-9.54735
ꮒꭶꮅꮝꮣ	-9.54792
ᏼꭹ	-9.55246
ꮣᏺ	-9.55299
ꮣꮵ	-9.55926
ꮣꮃ	-9.56528
ꮝꮥꮈꮧᏹ	-9.56627
ꭴꮒꮝꮖꮒꭺꮞ	-9.56707
ꭲꮸꭸᏻꭲ	-9.56707
ꭰꮒꮝꭶꮎ	-9.56802
ꮞꮣꮒ	-9.56996
ꭼꭶ	-9.57191
ꮵꮒꭼꮕ	-9.57204
ᏺꮞꭽ	-9.57301
ꭷꮒ	-9.57483
ꭴꮆ	-9.57551
ꮒꭺ	-9.57608
ꮫꮒ	-9.57877
ꮴꮵ	-9.57891
ᏹꮣ	-9.58297
ꭱꭲ	-9.58841
ꭰꮝꭶꮎ	-9.58958
ꮞꭽ	-9.59039
ꮒꮳꮫꮑ	-9.59339
ꭷꮅꭲ	-9.59555
ꮣꮆꮒꭸ	-9.59709
ꭴꭹꮸꮫ	-9.59737
ꮕꭼꮹꮺꮞꮈ	-9.59738
ꭲᏻꮎꮅꮝꮣꮑꮧ	-9.59747
ꮧꮅꮝꮣᏼꮧᏹ	-9.59871
ꭲᏻꮹꮑ	-9.59907
ꮥꮅ	-9.6001
ꮿꮫ	-9.60061
ᏺꮁꭿ	-9.60085
ꭴꭶꮤ	-9.60305
ꭷꮅ	-9.60327
ꭵꮣ	-9.60546
ᏼꮻꮙ	-9.60786
ꮕꮅ	-9.6079
ꭰᏸꮈꭲ	-9.61438
ꭶꮵꮿ	-9.61528
ꮇꭹ	-9.61747
ꮻꮞ	-9.61747
ꭰꮂ	-9.61813
ꮒꭸ	-9.61991
ᏹꮧ	-9.62184
ꭴꮹꮢꮙ	-9.62248
ꮥꮨᏼꮫ	-9.62264
ꮕꮓ	-9.62375
ꭴꮒꮳꮦ	-9.62703
ꮣꮑꮹꮧꮢ	-9.62862
ꭰꮀꮅ	-9.62864
ꮪꮄꮕ	-9.62879
ꭲꮃꮿ	-9.62883
ᏼꭸ	-9.6289
ꭲꮳꮫꮑꮧᏹ	-9.6289
ꭴꭷꮅꮸꭿ	-9.6303
ꮷꮣꮟ	-9.63041
ꮝꮧꮝꭸꮝꮧ	-9.63355
ꭴꮒꮑꮸ	-9.63401
ꭰꮔꮼ	-9.63412
ꮑꮆꮧ	-9.63557
ꮷꮺ	-9.63628
ꮣꮣ	-9.63686
ꮴꮈ	-9.63833
ꭴꮫꮎ	-9.64167
ꮅꮝꮩꮧ	-9.64534
ꭸꮃꮝꮧ	-9.64569
ꮥꭴ	-9.64663
ꭸꮵꮈꮙ	-9.64713
ꮒꭼꮹꮺꮞꮄ	-9.64847
ꮎꮅ	-9.64917
ᏸꭽ	-9.65213
ꮝꮥꮝꮧ	-9.65834
𐋇	-9.66088
ꮥꭴꮩꭵ	-9.66088
ꭴꮄꮕꭾ	-9.66125
▁,]	-9.66148
ꮧꮵꮎꮻ	-9.66187
ꭶꮇꮸꭽ	-9.6626
ꭱꮖ	-9.66499
ꭶꮈꮙꮩꮧ	-9.66568
ꭹꮩꮣ	-9.6661
ꮃꮻꭹ	-9.66622
ꮞꮅ	-9.66678
ꮹꭶ	-9.66683
ꮄꭿꮠꮧ	-9.66733
ꮵꮔꮝꮧ	-9.66741
ꮜꮃ	-9.6698
ꮕꮢ	-9.67187
ꭶꮤ	-9.67233
ꭶꮆ	-9.67433
ꭲᏻꮺ	-9.67486
ꮆꮔꭾ	-9.67547
ꮝꮖꮒꭺꮧ	-9.67658
ꭲꭼꮹ	-9.67802
ꮵꭸᏻꭲ	-9.67824
ꮝꮖꮫ	-9.67956
ꭺꮲ	-9.6822
ꮹꮫꭾ	-9.68241
ꭸꮃ	-9.68681
ꮞꮧ	-9.68717
ꮅꮓꭾ	-9.68896
ꮅꮝꮧ	-9.69176
ꭴꮢ	-9.69182
ꭰᏸꮃꮝꮧ	-9.69422
ꮧꮖꮴꮅ	-9.69422
ꮓꮘꮟ	-9.69425
ꭴꮅꮟꭼ	-9.69426
ꮣꮣꮕꮯ	-9.69426
ꭱꮃꮺ	-9.69431
ꮳꮵ	-9.69469
ꭴꮤꮃꮼꭿꮝꮧ	-9.69475
ꭼꮹꮇꮴꮈ	-9.69485
ꭰꮒꮟᏼꮻꭽ	-9.69506
ꭴꮎꮔꭺꮻꮢ	-9.69593
ꭴꮯꭿᏻ	-9.69603
ꮎꭹ	-9.69839
ᏹꮸ	-9.69871
ꮴꭾ	-9.70174
ꮕꮎ	-9.70269
ꮑꮀ	-9.70765
ꭸꮫ	-9.71287
ꭰꮣꮑ	-9.71526
ꮥꭺ	-9.7194
ꭷꮓꭾ	-9.71989
ꭲꮵꭶꮤꭽ	-9.72012
ꭿꮫ	-9.72112
ꮎꮒ	-9.72307
ᏺꭹ	-9.72556
ꮫꮑꮅ	-9.72656
ꭴꮺꮕ	-9.7286
ꮣꮣꮏꮹꮝꮫ	-9.7287
ꮔꮅꮝꮤꮒꮩꮈ	-9.7287
ꮩᏹꮧꮲ	-9.7287
ꭴꭶꮅꮝꮧ	-9.72872
ꮎꭹꮺꮞꮈ	-9.72876
ꭳꮣꮈ	-9.72877
ꮕꮣᏻꮆꮢ	-9.72884
ꭰꮳꮧ	-9.72896
ꮎꮝꭶꮕꮎ	-9.7297
ꭲᏻꮹꮒꮠꮧ	-9.72987
ꭴꮔꭺꮸ	-9.73016
ꭽꮻꮒ	-9.73149
ꮒꮺ	-9.73195
ꭴꮒᏸꮈ	-9.73466
ꭴꭹꭼ	-9.73547
ꭶꮼꮒꮝꭼ	-9.73652
ꭶꮼꮒꭿꮝꮧ	-9.73682
ꮥꭲ	-9.73743
ꮕꮞ	-9.73978
ꮴꮳ	-9.74101
ꮒꭼꮑ	-9.74107
ꭺꮺꮅꭿ	-9.74293
ꮕꮧ	-9.7433
ꮻꮵ	-9.74437
ꭱꮧᏹ	-9.74669
ꮂꮝꭹ	-9.74849
ꭶꮈꮆ	-9.75023
ꮎꮔꭺꮻꮞ	-9.75117
ꮂꮝꭶ	-9.75154
ꮻꮢ	-9.75204
ꮔꮒ	-9.75447
ꭺꭹ	-9.76125
ꮖꮒꮖ	-9.76442
ꮧꭹꭶᏼꮅꭸ	-9.76443
ꮧꮕꮓꮫ	-9.76443
ꮷꮒꮲꭹ	-9.76443
ꮔꮓꭿᏻ	-9.76444
ꮥꭸꮵ	-9.76578
ꭴꮅꮝꮖꮧꮝꮧ	-9.76581
ꭶꮇꮵ	-9.76665
ꮞꮈꭿ	-9.76727
ᏹꮪ	-9.76828
ꮔꮹ	-9.769
ꭲꮝꮧᏹ	-9.7707
ꮹꮝꮫ	-9.77235
ꮵꮑ	-9.77369
ꮧꭸꭶꮑꮆ	-9.77375
ꭲꮕ	-9.77466
ꮎꮫꮏꮥ	-9.77514
ꮝꮥꮈ	-9.77589
ꮔꮎꮣ	-9.77666
ꮪꮺ	-9.77778
ᏸꮈꭽ	-9.77811
ꭶꮫꭼ	-9.78118
ᏼꭶ	-9.78611
ꮒꭶꭵꮙ	-9.78721
ꮿꮕ	-9.79016
ꭾꮈ	-9.7903
ꮆꮧ	-9.79127
ꮑꮃ	-9.79682
ᏹꮧꮵ	-9.79794
ꮥꮎ	-9.79913
ꮟᏼꮻꭽ	-9.80067
ꮪꮎꮣꮱꮹꮧꮢ	-9.80145
ꭴꮅꮝꮘꮧ	-9.80145
ꮣꮖꮩꭵ	-9.80145
ꭲꮿꮫꮑꭿ	-9.80151
ꭲꮴꮿꮤ	-9.80153
ꮠꮘꮅ	-9.80171
ꭲꮸᏺꮞꭽ	-9.80188
ꮔꮎꮝꮫ	-9.80255
ꮎꮞꮅꮧ	-9.80256
ꭲꮿꮫꮑꮧ	-9.80321
ꮪꮑꮴꮄ	-9.80333
ꭰꮵꮕꮟꮣꮝꮧ	-9.80363
ꮠꮃ	-9.80369
ꮝꮣᏹ	-9.80549
ꮿꮝꮧ	-9.80573
ꮎꮝꭹꮿꮙ	-9.80642
ꮎꮎꮫꮑꮂ	-9.80922
ꮪᏻꭺꮧ	-9.81065
ꮪꮈꮻꮝꮣꮑꮈ	-9.81235
ꮧᏸꮈ	-9.81243
ꭵꮟ	-9.813
ꮴꮅ	-9.81344
ꮑꮝꮧ	-9.8147
ꭺꮂ	-9.81871
ꭸᏻꭿ	-9.81952
ꮑꮯᏼ	-9.82082
ꮪꮎꮣ	-9.82443
ꮎꮒꭵꮙ	-9.82584
ꮈꮙꮧᏻ	-9.82649
ꮎꮙ	-9.82784
ꭼꮖ	-9.8343
ꮽꮆꮞ	-9.83991
ꮴꭶꮘ	-9.83992
ꮷꮈꮻꮝꮣꮑꭿ	-9.83992
ꭲꮵꮘᏹ	-9.83992
ꭴꮥꮿꮩꮧ	-9.83995
ꭲᏻꮅꮝꮣꮑꮧ	-9.83998
ꭺꮳꮄ	-9.84002
ꭴꮎꮩꮄꮀꮢ	-9.84017
ꮃꮝꮣꮈ	-9.84064
ꮧꭸꮻ	-9.84094
ꭰꮖꮣꮕꮩ	-9.84138
ꭲꭶꭶꮫ	-9.8415
ꭼꮹꮝꮣꮹꮫ	-9.84177
ꭰꮖꮫꭶꮕꭹ	-9.84205
ꭼꮒꮧᏻ	-9.84221
ꭲꮵꮩꮣ	-9.84276
ꮕᏺꭿ	-9.84338
ꮣꮖ	-9.84356
ᏺꮅ	-9.84491
ꭰꮒꭺꭲ	-9.84703
ꮎꮝꭹꮙ	-9.84824
ꮈꮻꮝꮣꮑ	-9.84955
ꮕꮣᏻꮅꮝꮩꮤꮕ	-9.8501
ꭰꭲꮢ	-9.85071
ꮝꭺꭿ	-9.85169
ꭴꮓꮄ	-9.85282
ꭲᏻꮎꮅꮝ	-9.85417
ꭰꮓ	-9.85484
ꮴꭿ	-9.85492
ꮪꮈꮻꮝꮣꮑ	-9.85727
ꭱꭿꮝꮧ	-9.85756
ꮅꭾꮅ	-9.85791
ꮵꮝꮖ	-9.8583
ᏺꮟ	-9.86095
ꮕꭶ	-9.8624
ꮵꮒꭶꮺ	-9.86304
ꮩꭾ	-9.86492
ꭷꮏ	-9.86641
ꮳꮴꮅ	-9.8727
ꮒꮩꮈ	-9.87306
ꮅꭾꮅꮝꮧ	-9.87403
ꭷꮓꭿᏸꭹ	-9.87991
ꮕꮫꭹꮕꮟꮫ	-9.87996
ꭴꮼᏸꮒ	-9.88004
ꮕꮧꭶꮅꮝꮩꮧꮝꭺ	-9.88055
ꭴꮒꮼꮒꭿꮝꮧ	-9.88085
ꮘꮅ	-9.88095
ꮿꮕꮂ	-9.88105
ꭺꮲꮕꭿ	-9.88173
ꭴꮣꮕꮦ	-9.88317
ꭰᏺꭹ	-9.88329
ꮽꮇꮴ	-9.88415
ꭷꮑꭲꮝꮧ	-9.88464
ꭰꮅꮝꮖꮧꮝ	-9.88604
ꭴꮕꮟꮣꮝꮧ	-9.88699
ꮑꮈꭲ	-9.88854
ꭿꭰꮝꭹꮒ	-9.89018
ꭵꭶ	-9.89232
ꮪꮈ	-9.90109
ꮩꭽ	-9.90557
ꭴꮈ	-9.90582
ꮵꮑꭼ	-9.90757
ꮔꮈ	-9.90797
ꭲꮵꭶꮤ	-9.90804
ꭴꮩꭿᏻ	-9.90823
ꮗꮅ	-9.91265
ꮵꮵ	-9.91395
ꮳꮣꮕꮫ	-9.91637
ꭰꭹᏸꮈ	-9.91894
ꭹꮅᏺꭲꮝꮧ	-9.91929
ꮥꮆꮖ	-9.91944
ꭲꮳꮅ	-9.91966
ꮰꮎꮝꮧ	-9.92138
ꭶꮿꮇ	-9.9217
ꭴꮺꮏꭲ	-9.92181
ꮽꮆꮢ	-9.92215
ꮧꮣꮄꮒꮝꭼ	-9.9225
ꮝꮖꮈ	-9.92285
ꮪꮒꮈꮻꮝꮣꮑꮂ	-9.92409
ꮈꮙꮩꮧ	-9.92441
ꮻꮧ	-9.92497
ꮫꮏꮥ	-9.92523
ꮳꮨ	-9.92568
ꭴꮑꭼ	-9.92702
ꮔꮹꮑꮈ	-9.92713
ꭸᏻꭿᏻ	-9.9301
ᏸꭿ	-9.93066
ꮈꮎ	-9.93094
ꮩꭾꮝꮧ	-9.93257
ꮝꭶꮕꭲꮝꮧ	-9.93388
ꮪꮓ	-9.93457
ꭰꭹꮅ	-9.93661
ꮧꭺ	-9.93759
ꭴꮣꮕꮢ	-9.93786
ꭴꮣꮕꮦꮈ	-9.93826
ꭲꮵᏸꮈ	-9.94077
ꮷꮄ	-9.94121
ꭶꮕꮕ	-9.9417
ꮧꭸ	-9.94213
ꮯꮜ	-9.9457
ꭺꮅᏸꮧ	-9.95191
ꮵꮻ	-9.95443
ꭲꭶꮺ	-9.95569
ᏼꮫ	-9.96147
ꭲᏻꮣꮄ	-9.96153
ꮪꮼ	-9.96204
ꮅꮝꭺꮈꮤꮕꭿ	-9.96256
ꭲꮳꮴꮅ	-9.96262
ꮥꮕ	-9.96435
ꮕꮝꮧᏹ	-9.9648
ꮉꮟꮩꮒ	-9.96506
ꮣꮥᏺꮂꮝꭼ	-9.96506
ꭴꮳꮄꮝꮧ	-9.96506
ꮕꭶꮝꭺꭿ	-9.96512
ꮝꭶꭲꭾꮝꮧ	-9.96517
ꭼꮹꮪꮻꮫ	-9.96519
ꮷꮒꮈꮻꮝꮣꮑꮧ	-9.96528
ꮡᏸꮫ	-9.96542
ꮷꮎꮴꮅ	-9.96545
ꭰꭶꮨꮟꮧꮲ	-9.96572
ꮎꮒꮺꮝꭼ	-9.96599
ꭸꮵꮕꮟꮣꮝꮧ	-9.96619
ꭴꮩꭿᏻꮢ	-9.96628
ꮧꮥᏺꮧ	-9.96629
ꮧꮉꮧ	-9.96844
ꮮꭶ	-9.9693
ꭰꮝꭶ	-9.96961
ꮿꭵ	-9.97025
ꭴꮑꮸꭹ	-9.97048
ꮩꮄ	-9.97088
ꮇꮸ	-9.972
ꮣꮒꮈꭲꮝꮧ	-9.97219
ꮔꭺꮻꮝ	-9.97438
ꭰꭷꮅꭲ	-9.97444
ꮟꮖ	-9.97518
ꮒꮧᏻ	-9.97614
ꮑꮓ	-9.97764
ꭰꮒꮕ	-9.97804
ꭶꮜ	-9.97887
ꮑꮸ	-9.97929
ꮿꮕꮫ	-9.97984
ꭶꮅꮝꮣꮧꮝ	-9.98428
ꮷꮹ	-9.98995
ꭰꮵꮈᏹ	-9.99019
ꭱꭹ	-9.99322
ꮃꮕꭿ	-9.9954
ꮑꮂꮎ	-9.99599
ꮎꮫꮑꭾ	-9.99606
ꮣꮎꮣ	-9.9964
ꮒꭶꮺꮝꭸ	-9.99763
ꭰꮝꮣᏹ	-9.9986
ꮹꮧꮢ	-10.0009
ꮝꭶꮕꮸ	-10.0018
ꮔꮣ	-10.002
ꮩꭹ	-10.004
ꭶꮩꭸ	-10.0046
ꭲꮳꮣꮩꮅꮝꮧ	-10.0058
ꮝꮖꮒꭺꮩꮧᏹ	-10.0062
ꮞꮄ	-10.0075
ꮒꮪꭹꮸꮒꮢ	-10.0105
ꭵꮝꭹ	-10.0106
ꭴꮆꭹꮈ	-10.0106
ꭰꮒꭹꮟ	-10.0107
ꮽꮇꮸ	-10.0109
ꭴᏺꮁꮞ	-10.011
ꮷꮈꮻꮝꮣꮑꮧ	-10.0113
▁--	-10.0117
ꮜꮊꮅ	-10.0117
ꭰꮣꮕꮣꮧꮝꮧ	-10.0119
ꭴꮎꮴꮅꭺꭿ	-10.0119
ꮡꮎꮄ	-10.0133
ꭴꮣꮕꮫ	-10.0156
ꭶꮹꮢ	-10.0164
ꭺꮧᏹ	-10.0173
ꮎꮖ	-10.0195
ꮣꮄꮕ	-10.0203
ꮞꭾ	-10.0205
ᏸꭲ	-10.0208
ꭸꮅ	-10.0214
ꮪꭶ	-10.0231
ꮵꭺꭵ	-10.0243
ꮶꭿᏻ	-10.0309
ꭴᏸꮈꮕ	-10.0324
ꮿꮖ	-10.0337
ꮕꮯ	-10.0365
ꭶꮎꮔꭺ	-10.0365
ꭶꮩꮅ	-10.0379
ꮽꮎ	-10.0393
ꮵꭸ	-10.0411
ꮣꭼ	-10.0428
ꮧꮸ	-10.0442
ꮧꮲ	-10.0453
ꮧꮎꮣ	-10.0457
ꮻꮣ	-10.0469
ꮻꮝꮧ	-10.0476
ꭶꮩꭼ	-10.0481
ꭸꮒ	-10.0491
ꭰꮑ	-10.05
ꭺꭿᏻ	-10.0501
ꮷꮎꮣ	-10.0512
ꮜꮫ	-10.0525
ꮎꮔꭺꮻꮞꮈ	-10.0526
ꮥꭼꮹ	-10.0529
ꮲꮧ	-10.053
ꮑꭾ	-10.0538
ꮵꮝ	-10.0548
ᏼꮅ	-10.0552
ꮩꭶ	-10.0563
ꮼꭿ	-10.0575
ꭳꮳꮅꮕꮯ	-10.0581
ꭷꮃꮹꮧꮢ	-10.0581
ꮥꭸꮜꮧꮢ	-10.0581
ꮥꮳꮩꭵ	-10.0581
ꭴꮥꮀꭿꮝꮧ	-10.0582
ꭴꭷꮫ	-10.0582
ꭼꮹꮇꮴꮄ	-10.0583
ꭲꮧꭶꮤꭽ	-10.0583
ꭲꮜꮿ	-10.0583
ꭱꮩꮂ	-10.0583
ꮣꮰꭿꮝꮫ	-10.0585
ꮸꮧꮣꮄꮂꮝ	-10.0586
ꮸꮝꭹꮓ	-10.0588
ꭲᏻꮕꮑꮧ	-10.0593
ꭰꮦꮅꮩ	-10.0596
ꮥꮵꮈꮻꮝꮣꮑꮂ	-10.0597
ꮧꭶꮩꮅ	-10.0598
ꭰꮵꭶꮨꮧꮝꮧ	-10.0605
ꭴꮅꭾꮅꮝꮧ	-10.0615
ꮥꭽ	-10.0615
ꮥꮿꮩ	-10.0615
ꭴꮪꮅꮝꭸ	-10.0616
ꭱꮘꮜ	-10.0621
ꮣᏸ	-10.0625
ꮃꮑ	-10.0647
ꭸᏼ	-10.0651
ꮥꮀ	-10.0652
ꭺꭿꮝꭹꮒ	-10.0729
ꭵꮭꮝꭹꮒ	-10.0753
ꮝꮥꮈꮧ	-10.0755
ꮺꮃ	-10.0757
ꭴꮎꮅꮝꮣᏼꮧ	-10.0765
ꮇꭶ	-10.0767
ꮒꭼꮹꮺꮞ	-10.0769
ꮒꮈ	-10.079
ꮕꮧꭶꮅꮝꮩꮧ	-10.0794
ꮷꮑ	-10.0819
ꮩꮅꮸ	-10.0825
ꮑꭼ	-10.0862
ꮫꮕꭲꮝ	-10.087
ꮎꭿᏻꮙ	-10.0877
ꮔꮅ	-10.0885
ꮷꮎꮝꮧ	-10.0893
ꮝꭹꮓ	-10.093
ꭶꮑ	-10.0934
ꭴꮓꭿᏻꮕ	-10.0948
ꭴꮩ	-10.0964
ꭸᏻꮧ	-10.0965
ꮅꮝꮣᏼꮂ	-10.0975
ꭴꮎꮰꮎꮝ	-10.098
ꮝꮥꮅ	-10.0984
ꮇꮴꮈ	-10.101
ꭺꮩꮧ	-10.1019
ꭰꮖꮪꮅ	-10.1024
ꮪꮣꮄꮝꮩꮧ	-10.1034
ꮅꮒꭹꮫ	-10.1054
ꭺꮹꮫꮧ	-10.1061
ꮝꮥꮅꮝꭹ	-10.1067
ꮄꭿꮜꮕ	-10.1072
ꮡꮎꮣꮱꭹ	-10.1081
ꭴꮅꮟꭹ	-10.1082
ꮔꮒꭼꮻᏻꮜꮥꭹ	-10.1083
ꮆꮋ	-10.1083
ꭴꮅꮑꮸ	-10.1084
ꭴᏺꮁꭿꮝꮧ	-10.1085
ꮒꮧꭵ	-10.1094
ꭰᏺꮁꮝ	-10.1096
ꭴꮺꮕꮞ	-10.1096
ꭰꮝꭺꮅ	-10.11
ꮧꮣꮄꮂꮝ	-10.1105
ꮪꮒꮈꮻꮝꮣꮑꮈ	-10.1109
ꭴꮹꮢꭿᏻ	-10.1113
ꭴᏸꭿ	-10.1116
ꮣꮑꭿ	-10.1117
ꭴꮺꮨ	-10.1121
ꭺꭿᏻꮂꮝꭹ	-10.1128
ꮻꭼꮹ	-10.113
ꮒꮜ	-10.1131
ꮶꭹ	-10.1138
ꭰꮅꮝꮥꮈꮩꮧ	-10.1139
ꮵꮑꭶ	-10.114
ꭴꮒꭹꮢ	-10.115
ꮣꮿꭲ	-10.1168
ꮒꮥ	-10.1183
ꮳꮣꮕꮦ	-10.121
ꮣꮑꮈ	-10.1215
ꮅꭶ	-10.1217
ꮲꮘꮝ	-10.1243
ꭲꮝ	-10.1246
ꭱꮈ	-10.1254
ꭰꭹꮟ	-10.1257
ꮅꮝꭺꮈꮣ	-10.126
ꭴꮼꮈ	-10.1277
ꮹꮫꮧᏹ	-10.1337
ꭳꮒᏹ	-10.1344
ꮣꮫꮑ	-10.1368
ꭲꮳꮪꮅ	-10.1377
ꮄꮓ	-10.1385
ꮣꮩꮅꮝꮣꮑ	-10.1403
ᏼꮣ	-10.1418
ꭴꮿ	-10.143
ꭴꮼꮲꮕ	-10.1433
ꮯꮆꮝꮧ	-10.1449
ꮹꮒ	-10.1471
ꮧꭸꭶ	-10.1517
ꮧꭶꮪꮂ	-10.1559
ᏸꮳ	-10.1563
ꮵꮔꮺꮞ	-10.1575
ꮃꭸꮿꮫ	-10.1608
ꮔꮫꮑꮄ	-10.1608
ꭴꮝꮖꮈꮂ	-10.1608
ꭴꮑꮲꮤꮕ	-10.1608
ꭴꮪꮈꮧ	-10.1608
ꮔꮎꮫꮕ	-10.1608
ꭴꮎꮣꮴꮅꮫ	-10.1608
ꮒꭼꮞꮂ	-10.1608
ꭱꮟᏹ	-10.1609
ꭱꮟꭹ	-10.161
ꭶꮅꮶꮥ	-10.1613
ꭺꭿꮧᏻ	-10.1618
ꮸꮣ	-10.1624
ꭴꮆꮠꮕ	-10.1632
ꮧꮝꭸꭲ	-10.1639
ꭴꮎꮑꮃꭹ	-10.1643
ꭴꮒꮳꮫꭹ	-10.1656
ꭴꮥꮕ	-10.1669
ꭴꮒꮑ	-10.1686
ꭰꮒꮒ	-10.1704
ꮻꮸᏺꮺꮃ	-10.1722
ꮒꮳꮫꮑꮈ	-10.1731
ꭴꮒꮳꮤ	-10.1734
ꭴꮎꮫꮑ	-10.1758
ꮮꭹ	-10.1771
ꭺꮅᏸꮝ	-10.1792
ᏹꭼ	-10.1815
ꭸᏻꭽ	-10.1831
ꮪꭹ	-10.1846
ꮩꭲ	-10.1848
ꮣꭲꮕ	-10.1882
ꮔꮺ	-10.1886
ꮒꮳꮫꮑꮂ	-10.1905
ꮆꭿꮝꮧᏹ	-10.1919
ꭲꮳꮫ	-10.1947
ꮈꮙꮩꮧᏹ	-10.1969
ꮦꮝꮧ	-10.1971
ꮳꮒꮓ	-10.199
ꭶꮑꮃ	-10.201
ꮻꮒ	-10.2014
ꮧᏻ	-10.2023
ꮈꮻꮝꮣ	-10.203
ꮅꮇ	-10.2033
ꭹꮅ	-10.2033
ꮷꮑꮴ	-10.2038
ꮑꮢ	-10.2044
ꮫꮑꮂ	-10.2048
ꮡꮅ	-10.2072
ꭺꮅᏸꭵ	-10.2095
ꮶꭿᏻꮂꮝ	-10.2115
ꮹꮎ	-10.2116
ꭶꮩꭵ	-10.2118
ꮅꮝꭺꮈꮩꮧ	-10.2136
ꮝꭶꮈ	-10.2138
ꮷꮘ	-10.2153
ꮏꭵ	-10.2155
ꭴꮗꮣꮈ	-10.2163
ꮕꮷꮅꮝꮩꮤꮕ	-10.2163
ꮧꮯꮆꮝꮤꮕꭿ	-10.2163
ꭴꮒꮓꮥꮎ	-10.2163
ꮔꮎꮫꮑꮈ	-10.2164
ꮪꮃꮝꭼ	-10.2164
ꭴꮅꭾꮅꮸ	-10.2164
ꭲꮳꮅꮕꮯ	-10.2164
ꮽꮒꮆꮞ	-10.2166
ꮪꭷꮏꮕ	-10.2167
ꭰꭻᏼꮩ	-10.2168
ꭼꮹꮯꮝꮧ	-10.2168
ꮷꮃꮟꮥꮒ	-10.2168
ꭰꭹꮑꮸ	-10.2171
ᏻꭺꮣꮑ	-10.2172
ᏹꮩ	-10.2172
ꭰꮒꭶꮤꭿ	-10.2173
ꭱꭶ	-10.2174
ꭴꮒᏼꮝꮧ	-10.2181
ꮒꮟ	-10.2183
ꭶꮣꮕꮦꮝꭼ	-10.2185
ꮪꮑꮴꮈ	-10.2186
ꮎᏸꮝꭼꮎ	-10.2194
ꮧꮳꮣꮕꮩ	-10.2199
ꮩꮄꮫ	-10.2201
ꭶᏺꮅ	-10.2208
ꭺꮃ	-10.2219
ꮪꮕꮞ	-10.2223
ꭴꮄꮕ	-10.2239
ꮺꭽ	-10.2265
ꭿꮞꮧᏹ	-10.2281
ꮻꭼ	-10.2287
ꭶꮤꭿ	-10.2319
ꮣꮏꮹ	-10.2324
ꭳꮟ	-10.234
ꮾꮣ	-10.2366
ꮧꭶꮈꮙꮧ	-10.2382
ꮴꮃꮧꮩꭾꮝꮧ	-10.2387
ꮓꮑꮄ	-10.241
ꮣꮡꮿ	-10.2486
ꮝꮣꮑꮧ	-10.2492
ꮥꭸꮝꮧ	-10.2494
ꮷꮕ	-10.2501
ꮵꮺꮞꮈ	-10.2501
ꭴꮺꮇꮕ	-10.2507
ꮎꮣꮕꮯ	-10.2508
ꮎꮕꮑ	-10.2513
ꭵꭿ	-10.253
ꮒꮻ	-10.2533
ꭲꮳꮅꮝ	-10.254
ꭶᏸꮵ	-10.2562
ᏹꮅꮩ	-10.2601
ꭰꮗ	-10.2605
ꮏꮥ	-10.2605
ꮻꮿ	-10.2608
ꮝꭶꮕꮴ	-10.2624
ꭶꮤꮀ	-10.2626
ꭴꮕꮢꮙ	-10.2628
ꮵꭼ	-10.2646
ꮩꮣꭶ	-10.265
ꮅꮝꭺꮈꮣꮑꮈ	-10.265
ꮰꮿꮝꮧ	-10.2657
ꮃꮻꮞ	-10.2659
ꮵꮳ	-10.2669
ꮵᏸ	-10.2675
ꭼꮻᏻ	-10.2679
ꭴꭼꮻᏻ	-10.2702
ꮴꮃ	-10.2718
ꮡꮣꮅ	-10.2721
ꮕꮤ	-10.2726
ꭲꮶꭿᏻ	-10.2733
ꮺꮞꮈ	-10.2739
ꮑꭻꮵꮫ	-10.2741
ꭰꮰꮑꮧ	-10.2751
ꭰꮪꭲꮝꮫ	-10.2751
ꭼꮹꮫꮫꮑ	-10.2751
ꮡꮣꮄꭹ	-10.2751
ꮧꮒꭸꮻ	-10.2752
ꭴꮔꭺꮴ	-10.2752
ꭴꮫꮫꮑ	-10.2752
ꮎꮔꭺꮻꮟ	-10.2752
ꭰꮎꮣꮕꮦꮝꭼ	-10.2752
ꭴꮑꮇꮕ	-10.2752
ꭲꮿꮎꮫꮑ	-10.2752
ꭴꮎꮻᏹ	-10.2752
ꮽᏼꮄ	-10.2753
ꮎꭼꮑꮈ	-10.2753
ꮧꮒꮟꮧ	-10.2755
ꮧꮒꭶꮩꮅ	-10.2755
ꮕꮣꮣ	-10.2756
▁.]	-10.2757
ꭲꮵꮝꭶꮕꮸ	-10.2761
ꮅꮣꮝꮧ	-10.2763
ꮪꮄꮑ	-10.2771
ꭰꮒꮿ	-10.2773
ꮅᏸꭲꮆꭿꮝꮧ	-10.278
ꭰꭺꮞ	-10.2781
ꮷꮑꮵ	-10.2783
ꭰꭹꮅᏺꭲꮝꮧ	-10.2789
ꮷꮳ	-10.2802
ꮤꮃ	-10.2804
ꭰꮒꮩꮎꭵ	-10.2804
ꭴꭺ	-10.2814
ꭰꮒꮑꭼ	-10.2834
ꭴꮎꮫꮕ	-10.2839
ꭲꭼꮢ	-10.2843
ꮻꮳ	-10.2845
ꭰꮑꮩꮂ	-10.2847
ꮲꮕ	-10.285
ꮇꮴꮧ	-10.2856
ꮎꮔꭺꮻꮝ	-10.2857
ꭵꮮꮝꮧ	-10.2872
ꭺꮹꮫ	-10.2878
ꮧꮵᏸꮈ	-10.288
ꭰꮣꮩꮅꮝꮧ	-10.2949
ꮝꮧꮝꭼ	-10.2964
ꮵꭺꭸ	-10.2967
ꮄꮒ	-10.2967
ꮶꭿᏻꮢ	-10.3004
ꮔꭶ	-10.3016
ꭴꮑꮕ	-10.3045
ꮸꮑꮅ	-10.3055
ꮪᏺ	-10.3095
ꮄꮕꮂ	-10.31
ꭰꮒꮑ	-10.3106
ꮕꮣꭶꮅꮝꮩ	-10.3107
ꮪꮑ	-10.3119
ꭴꮕꮞ	-10.312
ꭰꭶꮤ	-10.3121
ꮪꭺ	-10.3123
ꮰꭰ	-10.3163
ꮿꮕꮩ	-10.3185
ꮣꭹꮈꮻꮝꮣꮑ	-10.3211
ꭲꭹꮝꮥꮅꮝ	-10.3222
ꮵꮕꮟꮣꮝꮧ	-10.3229
ꮕꮹ	-10.3232
ꮞꮈꭹ	-10.3232
ꭳꮳ	-10.3258
ꮧꭸꮢ	-10.3284
ᏺꮁꮢ	-10.3285
ꭿᏸ	-10.3308
ꮒꮼꮒꮝ	-10.3351
ꭲꮸꮿ	-10.3361
ꮉꮧ	-10.3362
ꮤᏺꮞꮄ	-10.3367
ꮵꭴꮝꮥꮞ	-10.3376
ꮔꮣꮅꮣꮝꮫꮎ	-10.3376
ꭰꮁꮝꮥꮝꮧ	-10.3376
ꭼꭽꮇᏼ	-10.3376
ꮥꮉꮝꭶ	-10.3376
ꮒꮪꮹꮑꮈ	-10.3376
ꭰꮒꮼꮒꮝꭼ	-10.3377
ꭸꮖꮒ	-10.3377
ꮟꮜꮅᏹ	-10.3377
ꭰꭺꮔ	-10.3377
ꭰꮒꮻꮕ	-10.3378
ꮻꮪꮿꮕꮂ	-10.3378
ꮷꮎꮫꮠꮕꭿ	-10.3378
ꭲꮃꭺ	-10.3378
ꮎꮔꭺꮻꮢ	-10.3378
ꮤꮇꭹꮝ	-10.3378
ꮽᏼꮈ	-10.3379
ꮧꮷꭺ	-10.338
▁;]	-10.338
ꭶꮦꮓ	-10.3387
ꮧꮵᏺꮅ	-10.3389
ꭴꮎᏸꭿꮝꮧ	-10.3391
ꭰꮕꮧꮝꭼ	-10.3392
ꭴꮑꭻꮵꮫ	-10.3406
ꮧꮵꮈꮻꮝꮣꮑ	-10.3413
ꮟꮣꮑꮈ	-10.3415
ꮹꮨꮝ	-10.3417
ꮣꮕꭶꮈꮫ	-10.3419
ꮯᏼ	-10.3421
ꮃꮟ	-10.3426
ꮵꮣꮒ	-10.3431
ꭼꮹꭺꮂ	-10.3432
ꮽꮒꮇꮴ	-10.3438
ꮺꮞꮅ	-10.3442
ꭰꮵꮓꭾꮝꭼ	-10.3477
ꭵꮨ	-10.3478
ꭰꭼꮧꮝꭼ	-10.348
ꮧꮝꮧᏹ	-10.3506
ꮫꮤꮒ	-10.3508
ꮡᏼ	-10.3509
ꭱꭾꮝꮧ	-10.3515
ꭰꮑꭽ	-10.3558
ꭸꮵꮝꮥꮈꮧ	-10.358
ꭰꮑꭾ	-10.358
ꭴꮫꮑ	-10.3585
ꭺꮲꮢ	-10.3622
ꮝꮥꮈꭿꮩ	-10.3635
ᏹꮕꭶ	-10.3641
ꮅꮝꭼꮎ	-10.3645
ꮔꭺꮻꮢ	-10.3663
ꭱꮩꭾ	-10.3671
ꮔꭺꭲ	-10.3672
ꮫꮑꮧᏹ	-10.3689
ꭴꮄ	-10.3692
ᏺꮅꮈ	-10.3703
ꮥꮀꭿꮝ	-10.371
ꮞꭾꮝꮧ	-10.373
ꭴꮎꮅꭺ	-10.3735
ꭶꮆꮔꭾ	-10.3744
ꭲꮝꮫ	-10.3755
ꮈꮙꮤꮕ	-10.3765
ꮅꮩꭿ	-10.3769
ꭰꮎꮫ	-10.3774
ꮆꮠꮕ	-10.3779
ꮝꮨ	-10.3779
ꮩꭿᏹ	-10.3782
ꭲꮵꮿꮻꮝ	-10.3851
ꭼꮺ	-10.3852
ꮧꮝꭸ	-10.3854
ꮴꮅꮞ	-10.3874
ꮔꮫꮕ	-10.3885
ꮒꮳꮫꮕ	-10.3891
ꭲꭸ	-10.3907
ꭿꭶꮤꭽ	-10.3922
ꭴꮣꮕ	-10.3937
ꭴꮆꮢ	-10.3937
ꭶꮤꭾ	-10.394
ꭰꮒꮓꭾ	-10.3944
ꮵꭺꮹꮨ	-10.3945
ꮵꮹꮫꮂ	-10.3948
ꭰꮝꮪ	-10.3954
ꭸᏻꮢ	-10.3955
ꮒꭺꭿꮈꮎ	-10.3968
ꭴᏸꮈ	-10.3986
ꮝꮣᏼ	-10.3991
ꮬꮟꮫꭱ	-10.3994
ꮵꭺꮹꮫ	-10.3996
ꮜꮅ	-10.4003
ꭲꭼꮹꮅꮝ	-10.4012
ꮸᏸꮃꮧꮩ	-10.4015
ꮃꮋ	-10.4016
ꭰꮎꮫꭹꮝ	-10.4022
ꮆꮟ	-10.4036
ꮔꮬꮟꮫꮢꮎ	-10.4043
ꮣꮯꮆꮝꮫ	-10.4043
ꮥꭶꮪꮹꮧꮢ	-10.4043
ꭴꮎꮄꮕꭾ	-10.4043
ꮧꮝꮣꮣꮕꮯ	-10.4043
ꮪꮣꮥꮻꮢ	-10.4043
ꭱꮙꭿᏻ	-10.4043
ꮜᏹꮃ	-10.4043
ꭰꮤꮄꮢ	-10.4044
ꮕꮣᏻꮒꮆ	-10.4044
ꮫꮝꮖꮈꭿ	-10.4044
ꭲꮿꮖꮫꮑꮧ	-10.4045
ꭴꮺꮩꮈ	-10.4045
ꮔꮢꮈ	-10.4049
ꭰꮅꮝꮪꮆ	-10.4051
ꮃꮟꮃ	-10.4051
ꭶꮕꭼ	-10.4053
ꭴꮑꮕꮞ	-10.4054
ꮕꮣᏻꮎꮅꮝꭺꮈꮤ	-10.4055
ꭶꮅꭱꮅ	-10.4056
ꭴꮳꮫ	-10.4056
ꮧꭸꮵꭴꮝꮥꮞꮈꭿ	-10.4058
ꭴꮺꮅꭿꮝꮧ	-10.4061
ꭴꮝꮪꭲꮢ	-10.4061
ꮼꮑꮧꮝ	-10.4066
ꮳꮕ	-10.407
ꮝꮥꮅꮝꭼ	-10.4072
ꭰꮑꮩꭿ	-10.4073
ꭶꮨꮄ	-10.4073
ꭴᏼꮈ	-10.4076
ꭶꮎᏸꭿꮝꮧ	-10.4078
ꮶꮣꮒ	-10.4078
ꮥꮱꭼ	-10.4079
ꭲꮸꮤ	-10.4083
ꭰꮝꭶꮕꮸ	-10.4083
ꭴꮪꮅ	-10.4084
ꭰꮅꮝꭺꮈꮤꮕꭿ	-10.4085
ᏻꮞꮝꮧ	-10.4091
ꭼꮝꭶ	-10.4093
ꭻᏼꭱꮧ	-10.4105
ꭲꭼꮑꮧ	-10.4108
ꮡꮆ	-10.4113
ꭴꮝꮖꮒꭺꮧᏻ	-10.4123
ꭴꮼꮅ	-10.4137
ꮔꭺꮸ	-10.4144
ꮧꮣꮼꮝ	-10.4154
ꮧꮴꮵ	-10.4156
ꮪꮎꮅ	-10.4156
ꮷꮒᏺ	-10.4163
ꮣꮣꮑꮈ	-10.4164
ꮝꮙ	-10.4164
ꭷꮈ	-10.4172
ꭹꮒᏼ	-10.4189
ꭲꮵᏼ	-10.42
ꭲꮵꭺꮹꮨ	-10.4211
ꭱꮈꭹ	-10.4218
ꮕꮝꮣ	-10.4223
ꭲꮳꮕ	-10.4255
ꮒꮈꭹ	-10.4264
ꭰꮛꮢꮙ	-10.4286
ᏺꭿꮞꮄ	-10.4319
ꮎꭵꮒ	-10.4338
ᏸꮈꮧ	-10.4345
ꮻꮩ	-10.4351
ꭰꮣꮕꮩꮝꭹꮒ	-10.4356
ꭴꮑꮅ	-10.4357
ꮪꮓꮈ	-10.4394
ꮪꮩ	-10.44
ꭲꭹꮑꮈ	-10.4403
ꭴꮓꭾꮈ	-10.443
ꭴꮑꮸꭿ	-10.4437
ꮷꮢ	-10.4466
ꮆꮈ	-10.4484
ꮨꮓꮈ	-10.4485
ꭰꭼ	-10.4492
ꮑꮳ	-10.4498
ᏹꮩꭶ	-10.4551
ᏻꭺꮧ	-10.4581
ꭰꮑꮩꭾ	-10.4614
ꭼꮕꭲ	-10.4618
ꮣꮳ	-10.4619
ꭲꮵꮤᏺ	-10.4631
ꮧꮳꮴꮅ	-10.4635
ꮩꮳ	-10.4647
ꭴꮎꮥ	-10.4677
ꭼꮹꮣ	-10.4692
ꭶᏼꮅꭸ	-10.4703
ꮶꭶ	-10.4708
ꮡᏸꮢ	-10.4708
ꮝꭶꭲꮂꮎ	-10.4719
ꮓꭾꮝꭹ	-10.4735
ꮖꮅꮟ	-10.4744
ꭰꮒꮜꮪꮟ	-10.4757
ꭴꮜꭿꮈ	-10.4757
ꮻꮸꮇꮴꮧ	-10.4757
ꭴꮒꮗꮣꮈ	-10.4757
ꮪꮎꮩꭵ	-10.4757
ꮼꭹꮇꮸ	-10.4757
ꭴꮎꮪꮅꮝꭼ	-10.4757
ꮳꮤꭶ	-10.4758
ꮷꮓꮡꮆ	-10.4758
ꮫᏻꭸꮧ	-10.4759
ꮶꭿᏻꮞꮝꮧ	-10.476
ꮱꮤꮒ	-10.4762
ꭲꭹꮝꭶꮕꮸ	-10.4763
ꭰꮑꮲ	-10.4764
ꭴꮎꮃꮕꭿ	-10.4766
ꮆꮠꮒ	-10.4767
ꮣꮅꮑꭿ	-10.4767
ꮧꮒᏸꮈ	-10.4767
ꭴᏼꮝꮧ	-10.4768
ꮪꮒᏺ	-10.4769
ꮹꮎꭶꮃ	-10.477
ꭰꮣᏸꮝꭹ	-10.477
ꭰꮣᏺꮑ	-10.4771
ꮣꮰ	-10.4774
ꮷꮣꮕꮫ	-10.4775
ꭰꮸꮝꮩꮧ	-10.4777
ꮃꮝꮣ	-10.4778
ꭴꮎꮫꭶꮑ	-10.4779
ꭷꮓꭾꮝꭹ	-10.4781
ꭴꮕꮟꮩꭿ	-10.4784
ꮵꮒꮳꮫꮕ	-10.4785
ꮹꭻꮧ	-10.4794
ꮣꮻꮢ	-10.4801
ꭳꮵꭶꮤꭽ	-10.4801
ꭲꮷꮹꮑ	-10.4806
ꮣꮫꭹ	-10.4818
ꮒꭺꭾ	-10.4819
ꭰꮣᏸ	-10.4821
ꮵꮑꮈ	-10.4824
ꮔꭺꮻꮞ	-10.483
ꭴꭶꮎ	-10.4832
ꭰꮫꮕꭲꮝ	-10.4837
ꭶꮎꮔꭺꮻꮝꭺ	-10.4841
ꮣꮋ	-10.4844
ꭰꮖꮪꮅꮝꭼ	-10.4862
ᏺꮂꮝꭹ	-10.4866
ꮄꮒꮣꮝꮧ	-10.4867
ꮓꭾꮧ	-10.4883
ꮅꮵꮩꮑ	-10.4885
ꮧꮑꮂ	-10.492
ꮅꮝꮣᏼꮂꮝꭼ	-10.4942
ꮼꮒꭿꮝꮧ	-10.4943
ꮣꭹꮈꮻꮝꮣꮑꮂ	-10.4951
ꭴꮑꮴꮄ	-10.4954
ꭲᏻꮫꮑ	-10.4967
ꮝꮖꮒꭺꮤꮕ	-10.4968
ꭴꮎꮫꭶꮕꭿ	-10.4974
ꮣꮞꭺꭹꮝ	-10.4976
ꮴꮅꭿꮝ	-10.4997
ꮩꭹꮿ	-10.5019
ꮫꮒꮟ	-10.502
ꮝꭺꮅ	-10.5034
ꮪꭺꮂ	-10.504
ꮝꮣꮑꮈ	-10.504
ꭷꮎ	-10.5045
ꮣꮸ	-10.5051
ꭶꮩꭵꮢ	-10.5055
ꭷꮓꭾꮝꭼ	-10.5056
ꮓꭾꮝꭼ	-10.5069
ꭴꮎꮕ	-10.5082
ꮣꮑꮂ	-10.5084
ꭻꮣꮄ	-10.5088
ꮕꭲꮝꮧ	-10.5091
ꮩꭼ	-10.5113
ꮒꭸꮞ	-10.5129
ᏼꮃ	-10.5138
ꭲᏻꮫꮑꮧ	-10.5199
ᏺꮺꮃ	-10.5208
ꮳꮪꮅꮝꭼ	-10.5214
ꭲᏻꮅꮝ	-10.5229
ꮵꭹꮅᏺ	-10.5243
ꮵꮇꭹ	-10.5243
ꮶꮎ	-10.5284
ꮳꮅꭾꮅ	-10.533
ꭲꮵꮿ	-10.5337
ꭲꮴꮅ	-10.5351
ꮧꮤꮂ	-10.536
ᏺꮝꮧ	-10.5406
ꮪꮑꮄ	-10.5409
ꮴꮘ	-10.5416
ꮢꭶꮈ	-10.5438
ꭰꮒꮩꮎ	-10.5439
ꮳꭲꮢ	-10.5443
ꮷᏺ	-10.5445
ꮨꮿ	-10.5469
ꭸꮵꮫ	-10.5475
ꮅꮝꮖꮧꮝ	-10.551
ꮵꮎꮭꭵꮎ	-10.5512
ꭻꭺꮣ	-10.552
ꮣꮒꮈꮸꭿ	-10.5525
ꭰꭶꮨꮟ	-10.5526
ꭰꮒꭶꮤꮏꭲ	-10.5527
ꮕꮣꭶꮅꮝꮤꮒ	-10.5527
ꭴꮝꮖꮈꭿꮧ	-10.5527
ꭶꮓꮝꭹꮝꭹ	-10.5527
ꮥꭶꮃꮻꭵ	-10.5527
ꭴꮬꮕꮫ	-10.5527
ꮪꮣꮨꮎꭵ	-10.5527
ꭰꮧꮢꮝꮧ	-10.5527
ꮧꮒꮀꮅ	-10.5527
ꭰꮯꮝꮫ	-10.5527
ꮥꭴꮄꮤꮕ	-10.5527
ꭴꮪꭲꮝꮤꮕ	-10.5527
ꭴꮹꭸꮻ	-10.5527
ꮜꮩꮒ	-10.5527
ꮵꮅꭵꮒ	-10.5527
ꭴꮺꮝꭹꮈ	-10.5527
ꮠꮲꭲꮝꮩꮧ	-10.5527
ꮎꭹꮺꮢ	-10.5528
ꮽꮒꮇꮸ	-10.5528
ꮷꮒꮃꮻꭲꮝꮧᏹ	-10.5528
ꮎꭶꭵ	-10.5528
ꭶꮜꮿꮝꮧꮥꭹ	-10.5528
ꮻꮵꭶꮫ	-10.5529
ꮥꮿꮤꮑ	-10.553
ꭰꮎꭲꮢ	-10.5532
ꮒꮥꭼꮑ	-10.5532
ꮒꭼꮺꮞ	-10.5533
ꭰꮅꮵꮩ	-10.5534
ꭴꭹꮈ	-10.5535
ꭴꭺꭾ	-10.5536
ꭰꮵꮎꮭꭲ	-10.5536
ꮥꭸꮵᏸꮈ	-10.5541
ꮷꭶᏼꮅꭸ	-10.5541
ꮗꮝꮣ	-10.5542
ꭴꮎꮅꮝꮥꮈꮩꮧ	-10.5545
ꭰꮎꮣꮩꮅꮝꮣꮑ	-10.5549
ꮳꮎꮻ	-10.5551
ꭴꮅꮒꭼꭼ	-10.5553
ꭱꮒꮧ	-10.5555
ꭰꮹꮎꭶꮃ	-10.5555
ꭸꮵꮑꮈ	-10.5556
ꮳᏺ	-10.5559
ꮣꮣꮟ	-10.556
ꭼᏼ	-10.5565
ꮒᏼꭾ	-10.5568
ꭰꮖꮅꮟ	-10.5569
ꭶꮈꮙ	-10.5572
ꭴꮅꮰꮿꮝ	-10.5572
ꮒꭺꮂ	-10.5574
ꭸꮵᏸꮈ	-10.5576
ꭼꮼꭿᏻꮂꮝ	-10.5586
ꮳꮪꮅ	-10.5586
ꭴꭸᏻꭿ	-10.5594
ꮆꮫ	-10.56
ꮳꭶꮈ	-10.5601
ꮧꭶꮅꮝꮩꮧꭽ	-10.5604
ꮷꮣꮄ	-10.561
ꮒꮸꮑ	-10.5615
ꮴꮝꮩ	-10.5617
ꮪꮯꮆꮝꮣꮑꮄ	-10.5622
ꮩꮄꮀꭿꮝꮧ	-10.5622
ꮣꮕꭶꮈ	-10.5627
ꭴꮎꮭꭲ	-10.5629
ꮥꭶꮪꮂ	-10.5631
ꮴꮩꮂ	-10.5653
ꭴꮺꮇꮑ	-10.5676
ꭴꮿꮕ	-10.5683
ꮧꮴꮂ	-10.5689
ꭲꮳꮰꮎꮝ	-10.5695
ꭶꭷꮂ	-10.5699
ꮫꭶꮑ	-10.5708
ꮣꮕꮫ	-10.5712
ꮒᏼꮂꭹ	-10.572
ꮖꮣꮄꮕ	-10.5733
ꭵꮣꮈ	-10.5749
ꭶꮑꮂ	-10.5752
ꮳꮅꮝꮣꮑ	-10.5754
ꭴꮎꮣꮕꮦ	-10.5769
ꮏꮹꮫ	-10.5791
ᏼꮂ	-10.5808
ꭺꮤꮕ	-10.5817
ꮣꭼꮑꮅ	-10.5819
ꮑꮆꮩꮧ	-10.5835
ꮒꮟꮂꮝ	-10.5835
ꮒꭼꮑꮂ	-10.5843
ꮧꭷꮓꭹꮝꮧ	-10.5861
ꭴꮄꮕꮂ	-10.5881
ꭸꮵꮑꮧ	-10.5891
ꮕꮼꮧ	-10.5892
ꭰꮵꮝꮥꮈꮧ	-10.5898
ꭴꮹꮢꮝꭹꮒ	-10.5898
ꭴꮝꮫ	-10.5931
ꭴꮼꮄ	-10.5936
ꭴꮣꮡ	-10.5946
ꮻꮔ	-10.5947
ꭲꮴꮎ	-10.5956
ꭰꮎꮅꭾꮅ	-10.5965
ꭴꮑꮃ	-10.5993
ꮫꮕꭲꮝꮣꮑ	-10.5994
ꮔꮕ	-10.6003
ꮱꮧꮝꭹ	-10.6006
ꮣꮒꮈꭸꮝꮧ	-10.6017
ꭼꮼꭿᏻꮕ	-10.6017
ꮧꭼꮹꮎ	-10.6018
ꭸꮵꮝꭶ	-10.6019
ꭾꮅ	-10.603
ꮟꮃ	-10.6032
ꭶꮅꮝꮤꮕ	-10.6047
ꮕꮣꮥ	-10.6052
ꮕꮟꮩꭿ	-10.6057
ꮅᏻ	-10.6062
ꭳꭼ	-10.6066
ꮫꮑꭿ	-10.6116
ꮵꭺꮅᏸ	-10.6131
ꭰꮎꮅ	-10.6144
ꭶꮃꮧ	-10.6156
ꮣꮕꮤ	-10.6173
ꮒᏼꭿ	-10.6175
ꮧꮶ	-10.6175
ꭰꮉᏹ	-10.6182
ꮧꭷꮓ	-10.6201
ꮏꮫꮑ	-10.6216
ꭴꮇ	-10.6221
ꮷꮎꮄꭿꮠ	-10.6223
ꭰꮝ	-10.6239
ꮳꭶꮜꮿꮝ	-10.625
ꮇꮸꭽ	-10.6253
ꮥꮳꮈꮻꮝꮣꮑ	-10.6266
ꭷꮅꮸꭿ	-10.6267
ꮝꮥꮈꭿ	-10.628
ꮣꮸꮿ	-10.6289
ꭵꭿꮝꮧ	-10.6294
ꮅꮝꭶꮝꮩꮧ	-10.6294
ꮵꮓꭾꮝꭼ	-10.6308
ꮩꮄꮀꮢ	-10.6323
ꭰꮑꮃ	-10.6323
ꭰꮙꭿᏻ	-10.6328
ꮦꮅꮩ	-10.6334
ᏹꮩꭸ	-10.6334
ꭼꭺꮹꮫꮧ	-10.6335
ꮥꮨᏼ	-10.6336
ꮓꮑꮅ	-10.635
ꭰꮎꮅꮵꮩꮂꮝ	-10.636
ꭰꮥꮢꮂꮝ	-10.636
ꭶꭻꮝꮫꮧ	-10.636
ꮧꮎꮣꮒᏹꮝꭹ	-10.636
ꮧꮡꮲꮫ	-10.636
ꮩꮷꮎꮣꮕꮫ	-10.636
ꮷꮣꮥꮢꮫ	-10.636
ꭰꮵꭴꮝꮥꮞꮈꭿ	-10.636
ꮖꮃꮖ	-10.636
ꮷꮼᏸꮒ	-10.636
ꮿꮓꭹᏻ	-10.636
ꭰꮅꮵꮩꮂꮝꭸ	-10.636
ꮪꮈꮜꮫ	-10.6361
ꮽꮣꭺꮎꮫ	-10.6361
ꭸꭶꮡᏸꮫ	-10.6362
ꭱꮃꮒꭼ	-10.6362
ꭴꮑꮙꮸ	-10.6362
ꮣꮒꮃꮻꭵ	-10.6363
ꭰᏸꮂ	-10.6363
ꭴꮳꮦ	-10.6363
ꮒꮵꭶꮤꮂꮎ	-10.6364
ꭴꮎꮫꭺꮧ	-10.6364
ꭴꮆꮢꮝꮤꮕꭿ	-10.6365
ꭸꮩꮂ	-10.6366
ꮅꮒꭼꭼ	-10.6366
ꮪꮒꮲꭼ	-10.6366
ꭳꮣꮕꮫ	-10.6366
ꮻꮪꮿꮕꭾ	-10.6366
ꮳꭶꮯꮆꮝ	-10.6366
ꭼꮼꮞ	-10.6368
ꭷꮑꮸꭿ	-10.637
ꭵꭹꮕꮟꮫ	-10.6371
ꭼꮒꭸꮢꭲᏻ	-10.6372
ꭴꮒꮔꭺꮸ	-10.6374
ꭴꮎꮩꮄꮀꭿꮝ	-10.6375
ꮑꮝꭸꮂ	-10.6376
ꭱꮩꭽ	-10.6376
ꭴꮣꮕꮞ	-10.6377
ꮪꮄꭿꮜꮕ	-10.6377
ꭲꮳꮫꭶꮕꭿ	-10.6379
ꮔꭺꮹ	-10.638
ꭴꮎꮔꭺꭲꮝꮧ	-10.6381
ꮑꭲꮝꮤꮑ	-10.6391
ꮎꮔꭺꮻꮞꮅ	-10.6391
ꭰᏺꮁꮢ	-10.6396
ꮝꮧꮝꭸꭲ	-10.6397
ꭴꮺꮇ	-10.6399
ꭴꮓꭿᏻ	-10.6401
ꭴꮏꭵ	-10.6403
ꮒꮸꮑꮈ	-10.6404
ꭴꮒꮓꭾꮈꭿ	-10.6404
ꭰꭹꭺꮂꭹ	-10.6406
ᏺꮝꮫ	-10.6409
ꮝꮣꮹꮧꮢ	-10.641
ꭲꮳꮣꮕꮨ	-10.6411
ꭴꮓꭿᏻꮢ	-10.6413
ꮑꮯᏼꮞ	-10.6418
ꮒꮪꮕ	-10.6421
ꮩꮣꮵ	-10.6423
ꭳꭼꮢ	-10.6424
ꭼꮝꭺꮈꮑ	-10.644
ꭰꮬ	-10.6452
ꮥꮵᏺꮅ	-10.6453
ꮥꭼꮹꮒ	-10.6456
ꭴꮹꮫꮂ	-10.6462
ꮕꮹꮝꮧ	-10.6463
ꭺꭿᏻꮂꮝ	-10.6469
ꮳꮩꮣ	-10.6478
ꮝꭹꮑ	-10.6479
ꭺꮅᏸꮝꭼ	-10.6484
ꮵꭹꮅᏺꭼ	-10.6484
ᏹꭸ	-10.649
ꮣꮒꮈꮴ	-10.6499
ꮩꮣᏻ	-10.6508
ꮉꮅ	-10.6513
ꮎꭶꮫ	-10.6514
ꭶꮅꮶꮫꭲ	-10.6514
ꮥꮳꮈꮻꮝꮣꮑꮂ	-10.6519
ꭴꮔꮼ	-10.6528
ꮝꮣꮿ	-10.6533
ꮒꭸꮵꮺꮞ	-10.6543
ꭴᏸꮈꮑ	-10.6549
ꮑꭲꮝꮣꮑ	-10.6549
ꮵꮓꭾ	-10.6553
ᏺꮁꮟ	-10.6554
ꮻꮪꮎ	-10.6559
ꭰꮩꮄꮀ	-10.6564
ꭴꮼꭿᏻ	-10.6579
ꭴꭹꮢ	-10.6599
ꮇꮆ	-10.6611
ꮵꮴ	-10.6613
ꭲꮵꮝꮖꮒꭺ	-10.6633
ꮩꮕ	-10.6636
ꮎꮫꭶ	-10.6661
ꭴꮫꭺꮧ	-10.6662
ꭲꭼꮹꮑꮧ	-10.6682
ꭹꭸᏻꭿᏻ	-10.6685
ꮼꮃ	-10.6693
ꮖꮅ	-10.6701
ꭼꮹꮝꮣꮹꮧ	-10.6717
ꮣꮑꮀ	-10.6731
ꮝꮪꭲꮝꮧ	-10.6782
ᏸꮈꮕ	-10.6797
ꮳꮩꮄꮀ	-10.6817
ꭺꭿᏻꮧꮝꭹ	-10.6819
ꭵꮵꭺ	-10.6851
ꭺꮂꭹ	-10.6852
ꮕꮣꭼꮹ	-10.686
ꮎꮎꮫꮑ	-10.6873
ꮶꮵ	-10.6893
ꭰꭹꮓꭾ	-10.6913
ꮫꮫꮂꮝ	-10.6927
ꮧꮸꮒꮧ	-10.6943
ꮤꮕꮎ	-10.6955
ꮵꮿꭵ	-10.6993
ꮥꭶꮕ	-10.6997
ꭸꮵꮑ	-10.702
ꮝꭹᏺ	-10.7024
ꮕꮣᏻꮅꮝꮩ	-10.7041
ꭲꮸᏺꮺꮃꮑ	-10.7041
ꭲꮿꮝ	-10.7057
ꮅꮝꮤꮑ	-10.7058
ꮧꮤꮝꮧ	-10.7058
ꭴꮣꭸᏻ	-10.7063
ꮵᏺꮟ	-10.7066
ꮽꮆꭿꮝꮧ	-10.7097
ꭴꮹꮤꮕ	-10.71
ꮵꮝꭶꮎ	-10.7113
ᏺꮁꮝ	-10.7126
ꮵꮝꮥꮈ	-10.7129
ꭶꮅꮶꮫ	-10.7131
ꭸꮃꮝꮩꮧ	-10.7134
ꮵꮇꮵ	-10.7157
ꭸꮵꮿꮕ	-10.7188
ꭰꮻꮢ	-10.7195
ꭴꮒꮳꮫ	-10.721
ꮣꮕꮼꮧ	-10.722
ꭴꮒꮓꭾꮈ	-10.7221
ꭱꮎ	-10.7228
ꮝꭹꭸᏻ	-10.7228
ꮪꮣꮄꮝ	-10.7244
ꭺꮅꮝꮧ	-10.7252
ꮌ	-10.7256
ꭰꮻꮝꭹ	-10.7262
ꭴꮳꮤ	-10.7266
ꭴꮔꮼꮝ	-10.7266
ꮣꮕꭱꮈ	-10.7267
ꮩꮣꭸ	-10.7267
ꮅꮝꮩꮤꮕ	-10.7269
ꭰꭸᏻꮳ	-10.7269
ꭱꮒꮎꮿ	-10.7269
ꭶꮓꮈꭵꮝꭼ	-10.7269
ꮥꭸꭶꮸꮝꮧꮝꭼ	-10.7269
ꮷꮹꭻꮤꮕꮢ	-10.7269
ꭰꮒꮝꭶꭲꭾ	-10.7269
ꭱꭹꮅꮘ	-10.7269
ꮨꮏꮻꮫ	-10.7269
ꭴꮒꮝꮖꮒꭺꮢ	-10.7269
ꭴꭹꮸꮕ	-10.7269
ꭰꮟꮎꮜꮒ	-10.7269
ꮔꮎꮣꮄꮢ	-10.7269
ꭰꮴꮇꭹ	-10.7269
ꮤꮇꮳ	-10.7269
ꮒꮳꮫꮏꮥꭼ	-10.7269
ꭶꭼꮹꮠꮲ	-10.7269
ꮝꮙꮅᏹ	-10.7269
ꭲꮸꮝꮧᏸ	-10.7269
ꭴꮈꮣꮈꭵꮝ	-10.7269
ꭰꮣꮩꮅꮝꮩꮧ	-10.7269
ꭴꮥꮅꮢ	-10.7269
ꭰꭶꮤꮏꭲ	-10.7269
ꮣꮥᏺꮂꮝꭸ	-10.727
ꮎꮩꮣꮖꮝ	-10.7271
ꭴꭶꮤꮂꮢ	-10.7271
ꮷꮺꮕꮢ	-10.7271
ꭳꭶꮪꮅ	-10.7271
ꭳꭶꮫꭶꮕ	-10.7271
ꭵᏻꭹ	-10.7272
ꭴꭼꮻᏻꮞꮝꮧ	-10.7272
ꮎꮒꭶꮤꮂꮎ	-10.7273
ꭲꮳꮣꮱꭼ	-10.7273
ꮯꮠꮧ	-10.7273
ꮅꮒꭺꭿꮝ	-10.7274
ꮔꮹꮑꮄ	-10.7274
ꭰꭹꭼꮻᏻꭿ	-10.7275
ꭲꮵꭶꮩꭵꭿꮝꮧᏹ	-10.7276
ꮵꮿꮅꭱꮅꮴ	-10.7277
ꭸꮳꮝꮣꮹꮧꮩꭿ	-10.7278
ꭼꮹꮆꮧ	-10.7279
ꭴꮇꮴꮈ	-10.7282
ꭼꮼꮅ	-10.7283
ꮶꭰꮝꭺꭿ	-10.7283
ꭶꮇꭺ	-10.7286
ꭿᏻꮂꮝꭼꮎ	-10.7288
ꭼꮻᏻꭿ	-10.7289
ꭰꮣꮕꮦꮧ	-10.7289
ꮷꮎꮔꮼ	-10.729
ꮢꭶꮤ	-10.7291
ꮶꮘ	-10.7295
ꮵꮺ	-10.7297
ꮴꮩ	-10.73
ꭴꮩꮄꮀꭿꮝꮧ	-10.7305
ꭶꮔꭺꭼ	-10.7308
ꭱꮳꭻᏼ	-10.7313
ꭰꮝꭺꭿꮑ	-10.7314
ꭱꮃ	-10.7316
ꭴꮫꭶꮑ	-10.7318
ꭰꮢ	-10.732
ꭴꮕꮯ	-10.734
ꭼꮹꮃ	-10.7342
ꮑꮯᏼꮫ	-10.7343
ꭱꮵꮈꮙ	-10.7344
ꭲꮵꮺꮝ	-10.735
ꮎꮑꮂꮎ	-10.735
ꭶꮣꮩꮅꮝꮧꮝꭼ	-10.7351
ꭷꮑꮙ	-10.7352
ꭴꮺꮕꮝꮧ	-10.736
ꮝꮣꮹꮫꮞ	-10.7362
ꭸꭵ	-10.7364
ꮵꮒꮵꮺ	-10.7369
ꮻꮝꭹ	-10.7373
ꮤᏺꮞꮈꭹ	-10.739
ꮤꮑꮝꮧ	-10.7394
ꭵꮝꭸꮝꮧ	-10.7416
ꮒꮩꮣᏻ	-10.7417
ꮎꮫꮑꮂ	-10.7422
ᏸꮈꮞ	-10.7424
ꮣꮨꮑ	-10.7431
ꭴꮺꮧᏹ	-10.7438
ꭰꮑꭹ	-10.7439
ꮩꮀ	-10.7441
ꭴꮒᏸꮈꮢ	-10.7446
ꭰꭺꮹꮨꮝ	-10.7451
ꮳꮣꮕꮩ	-10.7454
ꭰꭶꮤꭽ	-10.7454
ꭴꮣꮕꮑ	-10.7455
ꮣꮕꮣꮧꮝꮧ	-10.7457
ꮧꭸꮳ	-10.746
ꮒꮪꮎꮣꮺꮞꮄ	-10.7461
ꭲꮿꭼꮑ	-10.7472
ꭴꮕꮑ	-10.7487
ꭶꮅꮶ	-10.7496
ꭶꮓꮩꮧ	-10.7497
ꮔꮰꮎꮝꮫ	-10.7505
ꮒꭺꭿ	-10.7507
ꮒꮧꮳ	-10.7509
ꭰꮝꮪꮂ	-10.7517
ꮧꮣꮼꮝꮧ	-10.753
ꭺꮹꮨꮝꭺ	-10.7536
ꮒꮸᏼꮑ	-10.7545
ꭿᏸꮈ	-10.756
ꭳꮢ	-10.7577
ꮧꮒꮕ	-10.7585
ꮈꮙꮣ	-10.7586
ꮅꮝꮥꮈ	-10.7597
ꮴꮺ	-10.7618
ꮒꮜꮑ	-10.7619
ꭰꮖꮣꮕ	-10.7644
ꭶꮄꮒ	-10.7648
ꭴꮴ	-10.765
ꮝꮘ	-10.7659
ꭰꮣꮫ	-10.7664
ꭲᏻꮹ	-10.7666
ꮣꮑꭾꮝꮧ	-10.7669
ꭻᏼꭱ	-10.7689
ꮣꮣꮒꮈꭸꮝꮧ	-10.7694
ꭶꮵᏺ	-10.7729
ꭶꮇꮆ	-10.7733
ꭴꮇꮴꮄ	-10.7735
ꮯꮆꮝꮩꮧ	-10.7767
ꭶꮨᏸ	-10.777
ꭴꮅᏸ	-10.7777
ꭶꮼꮒ	-10.7781
ꮅꮝꮤꮕ	-10.7805
ꭲꮳꮥ	-10.7832
ꮺꮢ	-10.7845
ᏺꮂ	-10.7853
ꮈꮻꮝꮣꮑꮧ	-10.7885
ꭴꮎꮣꮕ	-10.7899
ꮯꮝꮧ	-10.7908
ꮣꮕꮦꮝꭸ	-10.7944
ꮵꮎᏸꮝ	-10.795
ꮳꮇ	-10.7954
ꮥꭶꮆ	-10.7978
ꮥꮵꭸᏻ	-10.7987
ꮄꮕꮫ	-10.8053
ꭴꮒꮇꮴꮧ	-10.8064
ꮿꮣꮕꮦ	-10.8156
ꮷꮣꮄꮕ	-10.8156
ꭰꮧꮤꮝ	-10.8158
ꮲꮕꭿ	-10.817
ꮅꮝꮣᏼꮧᏹ	-10.8174
ꮒꭸꭼꮑ	-10.8178
ꮅꮝꮥꮅꮝꭼ	-10.8194
ꭺꮩ	-10.8198
ꮣᏸꮵ	-10.82
ꮵꮝꮧᏸ	-10.8205
ꮎᏸꮝꭼ	-10.8214
ꮥꮝꭹ	-10.8223
ꭿꭸᏻ	-10.8225
ꭶꮆꭿꮝꮧ	-10.8227
ꮒꮠꮧᏹ	-10.8245
ꮕꮹꮕ	-10.8245
ꭰꮝꮖ	-10.8246
ꮝꮖꮧꮝꮧᏹ	-10.8252
ꭺꮈꮎ	-10.8269
ꮻꭸꮵᏺꮅ	-10.8269
ꭰꮒꮓꮝꭹꮝꭹ	-10.8269
ꭴꮒꮓꭾꮄ	-10.8269
ꮠꮅꮉꮕ	-10.8269
ꮨꮓꭾꮈꭹ	-10.8269
ꮪꮏꮝꮥꮲ	-10.8269
ꮴꭶꮃꮿ	-10.8269
ꭴꮣꮩꮅꮝꮤꮕ	-10.8269
ꮎꮅꮝꮖꮧꮝꭼꮎ	-10.8269
ꮷꮽꭺꮩꮧ	-10.8269
ꮝꭺꮒꮧꮲ	-10.8269
ꭷꮒꮅꮿ	-10.8269
ꮧꭹꮎꮻ	-10.8269
ꭴꮎꮒꭹꮢ	-10.8269
ꭰꮵᏸꮈꮎꮑ	-10.8269
ꭴꮧꮹꮢ	-10.8269
ꭴꮼꮺꮃꮕ	-10.8269
ꭼꭸᏻꭲ	-10.8269
ꭶꮅꮵꮩꮂꮝ	-10.8269
ꭲꭼꮺꮕꮫ	-10.8269
ꭼꮹᏺꮁꭿꮝꮧ	-10.827
ꭶᏸꮵꮠꮲ	-10.827
ꭶꮝꭹꮆ	-10.827
ꭴꮅꭾꮅꮴ	-10.827
ꮦꮖꮆ	-10.827
ꮶꭹꮈꮻꮝꮣꮑ	-10.827
ꮒꮳꮅꮝꮤꮕ	-10.827
ꮅꮟꮎꭿꮝ	-10.827
ꭱꮙꮒ	-10.8271
ꮜꮃꮣꮑ	-10.8271
ꭴꮼꭿꮸ	-10.8271
ꭰꮪꮈꮧ	-10.8271
ꮷꮩꮲꮕ	-10.8273
ꭴꮒꮇꭿꮝꮧ	-10.8273
ꮧꮒꮹꮎꭶꮃ	-10.8273
ꭰꮔꭶꮈ	-10.8273
ꭰꭹꮇꮵꮈ	-10.8273
ꭳꮒꮧꮲ	-10.8274
ꮔꮒꮂꮎ	-10.8274
ꮝꭹꮝꮣꮹꮪꭶ	-10.8274
ꭳꭶꮴꮅ	-10.8274
ꮤꮅꮷꮘ	-10.8274
ꮷꮒꮑꮯᏼꮝꮧ	-10.8275
ꭴꮓꮝꮫ	-10.8275
ꭳꭶꮳꮕ	-10.8275
ꭶꮼꭵ	-10.8276
ꮅꮝꮣᏼꮕ	-10.8277
ꭴꮼꮪꭿᏻ	-10.8277
ꮫꮫꮕꭹ	-10.8278
ꮽꮿꮕꮂ	-10.8278
ꮦꮈꮧ	-10.8279
ꮧꭼꮹꮈꮜꮫ	-10.828
ꮪꭺꭾ	-10.828
ꮣꮣꮆ	-10.8282
ꮪꮒꮕꮞ	-10.8283
ꭰꮒꭶᏼꮅꭸ	-10.8283
ꭰꮓꮝꮫ	-10.8285
ꭰꭶꮫꮕ	-10.8288
ꮵꮥꮳ	-10.8288
ꭱꮓᏹ	-10.8291
ꭱꮵꮎᏸꮝ	-10.8291
ꭼꮹꮤᏺꮞꮄ	-10.8299
ꮒꮥꭶꮺꮞꮂ	-10.8311
ᏻꮆꮧ	-10.8311
ꮷꮑꮸ	-10.8313
ꮣꮒᏼꭸ	-10.8315
ꮸꮝꮩꮧ	-10.8317
ꮎꮵꮎꮭꭵꮎ	-10.8319
ꭴꮼꭿᏻꮢ	-10.8324
ꭰꮵꮑꮧ	-10.8327
ꭰꭹꮎꮻ	-10.8332
ꮳꮣꮕꮯ	-10.8334
ᏺꮵꭶꮤꭽ	-10.8343
ꭺꮝꮪ	-10.8344
ꮵꮼꮒꮝꭼ	-10.8346
ꭰꮿꭵ	-10.8352
ꭰꮿꮻꮝ	-10.8352
ꮥꮵꮒᏼ	-10.8353
ꭰꮒꭶꮣꭽ	-10.8356
ꮝꮪꭲꮢ	-10.8366
ꭶꮵꭺꭵ	-10.8367
ꮎꮣꮩꮅꮝꮣꮑ	-10.8367
ꮥꮝꮧꮝꭹ	-10.8379
ꭰꮎꮅꮝꮣᏼꮂꮝꭼ	-10.8386
ꮸᏸꮅꮞ	-10.839
ꮧꭷꮏꮹ	-10.8416
ꮒꮩꮣ	-10.8428
ꭲꮵᏺ	-10.8431
ꮵꮿꮣꮩꮅꮝꮣꮑ	-10.8434
ꮺꮳ	-10.844
ꭰꮑꮅꮝꭼ	-10.8454
ᏹꮒꭼꮑ	-10.8464
ꭲꭶꮑꮃꮕꭿ	-10.848
ꮒꮲ	-10.8484
ꮣꮴꮈ	-10.8484
ꮳꮎꮧ	-10.8491
ꭲꮷꮥꮨᏼ	-10.8499
ꮽꮒꮆꮢ	-10.8509
ꭶꮼꮒꮝ	-10.8514
ꮅꮒꭺꭿꮝꮧ	-10.8521
ꮣꮘ	-10.8536
ꭷꮂꮝ	-10.8546
ꮝꮥꮈꮂ	-10.8556
ꭴꮕꮟ	-10.8558
ꭲꮶꭿᏻꭿ	-10.8563
ꭰꮝꭻꮥꮝꮧ	-10.8587
ꮵꮪꮈꮻꮝꮣꮑ	-10.8588
ꮤᏺꭿꮂ	-10.8595
ꮣꮒꮑꮈ	-10.8598
ꮹꮫꮧ	-10.8612
ꭲꭸꭼꮑ	-10.8632
ꮎꮔꭺꮸ	-10.8632
ꭶꮩꭵꭿꮝꮧᏹ	-10.8643
ꮥꮈꭹ	-10.8662
ꭸꮄ	-10.8663
ꮝꮫꮙ	-10.8679
ꭱꮵꮑꮈ	-10.8712
ꮣꮑꭽ	-10.8723
ꭰꮒꭹꮅᏺ	-10.8746
ꭱꮵꮿꮕ	-10.8749
ꮅᏸꭲꮆ	-10.8756
ꮟꮅᏹ	-10.8759
ꮑꮯᏼꮝꮧ	-10.8794
ꮧꮳꮅ	-10.8805
ꮧꮝꭼꮎ	-10.8825
ꮢꮒꮈ	-10.884
ꭰꭶꮤꭾ	-10.8856
ꮧꮕꮧ	-10.8875
ᏺꮝꮩꮣꮑ	-10.8883
ꭴꮅꮝꭺꮈꮣꮑꮈ	-10.8903
ꮩꮄꮀꭿ	-10.8927
ꭶꭻᏼꮣꮑꮧ	-10.8932
ꮒᏼꮧ	-10.8933
ꮧꮤꮝ	-10.8955
ꮕꮣꭼ	-10.8971
ꭺꮅᏸꮝꭸꮝꮧ	-10.8987
ꮡꮎ	-10.8994
ꭲꭸꭼꮑꮧ	-10.8998
ꭴꮓꭾ	-10.9018
ᏹꮩꭼ	-10.9024
ꮻꮝꭺ	-10.9035
ꭴꮲꭼ	-10.9049
ꮒꮶꭿᏻ	-10.9081
ꮷꮎꮃꮟꮥ	-10.9084
.	-10.9136
ꭰꮱꮧꮝ	-10.9141
ꮿꮕꮧ	-10.9153
ꮨᏸ	-10.9167
ꭶꮑꮅ	-10.9197
ꮵꮇ	-10.9205
ꭴꮣꮅꮣꮝ	-10.9207
ꭺꮞ	-10.9235
ꭴꮺꮩꮅ	-10.924
ꮪꭹꮢ	-10.9248
ꭰꮎꮅꮝꮣᏼꮂꮝ	-10.9255
ꮝꮖꮧꮝ	-10.9268
ꮝꮖꮒꭺꮩ	-10.9268
ꮎꮔꭺꭲꮝꮧ	-10.928
ꭳꮅꮹ	-10.9283
ꮅꮩꮂ	-10.9295
ꮩꮄꮀꮝꭶ	-10.9318
ꮊ	-10.9328
ꭲꮧꮝꮣ	-10.9334
ꮪꮅꮝꮪ	-10.9343
ꮈꮙꮩ	-10.935
ꭰꭼꭽꮈꮫ	-10.938
ꭲꮿꮛꮑ	-10.938
ꭼꮝꭶꭲꮝꮣꭹ	-10.938
ꮣꮎꮥᏺꮂꮝꭼ	-10.938
ꮥꭺꮲꮹꮧꮢ	-10.938
ꮳꮓꮞꮀꭲ	-10.938
ꮴꮿꮩꮴ	-10.938
ꭰꮅꮟꮎꭿꮝꮩꮧ	-10.938
ꮕꮷꮅꮝꮩꮤꮑ	-10.938
ꮠꭳꮑꮃ	-10.938
ꭰꮩꮄꮀꭿꮝꮩꮧ	-10.938
ᏹꮵꭺꮅᏸꭳ	-10.938
ꭰꮒꮟꮎꮜ	-10.938
ꮷꮑꮏꭲ	-10.938
ꮥꮳꮣꮒꮈꮸ	-10.938
ꮗꮧꮒᏹ	-10.938
ꭲꮵꮂ	-10.938
ꮧꭷꮈꭼ	-10.938
ꭲꮳꮅꭾꮅꭸꮝꮧ	-10.938
ꭴꮒꮆꮞ	-10.938
ꮪꮺᏺꮑ	-10.938
ꮈꮙꮤꮒ	-10.938
ꮒꭶꮵᏼꮑꮈ	-10.9381
ꮷꮼꮈ	-10.9381
ꮪꮎꮑꮆꮫ	-10.9381
ꮽꮒᏼꮄ	-10.9381
ꮧꮗꮵ	-10.9381
ꭴꮾꮤꮕ	-10.9381
ꮶꮣꮈ	-10.9381
ꭰꮅꭾꮅꮴ	-10.9381
ꮃꮧꮣꮝꮧᏹ	-10.9381
ꮒꮡꮺꮞ	-10.9381
ꭴꮅꮝꮪꭲ	-10.9381
ꮣꮎꮅꮝꮣᏼꮂꮝꭼ	-10.9382
ꮔꮹꮑꮀ	-10.9382
ꮧꭶꮅꭰꮕ	-10.9382
ꮥꮵꮑꮴ	-10.9382
ꭴꮼꮒꮢ	-10.9383
ꭲꮿꮵꮈꮙ	-10.9383
ꭵꮳᏹ	-10.9383
ꮪꭺꮣꮑꮧ	-10.9383
ꮧꮵꭶᏼꮅꭸ	-10.9383
ꮣꮺꮃꭹꮝ	-10.9383
ꭶꮩꮄꭳ	-10.9383
ꭰꮣꭿꭿ	-10.9383
ꮵꮳꮫꭹ	-10.9384
ꮥꮵꭷꮏꮹꮧꮩ	-10.9384
ꭴꮑꮩꮈ	-10.9384
ꮧꭼꮹꮣꮒꮈꭲꮝꮧ	-10.9384
ꮩꮫꮎꮄ	-10.9384
ꭰꭶꮤꭿᏻ	-10.9384
ꮪꮈꮕꮧ	-10.9385
ꮥꭶꮔꭺꮻꮝ	-10.9385
ꮠꮣꮋ	-10.9385
ꭱꮵᏺꮅꮈ	-10.9385
ꮟꮤꮥ	-10.9386
ꭴꮎꮅꮝꮣᏼꮕ	-10.9386
ꭴꮑꭲꮝꮤꮕ	-10.9388
ꮪꮺꭷ	-10.9389
ꭴꭹꮅᏺꮸ	-10.939
ꮩꮧꮳꮣꮕꮫ	-10.9392
ꮷꮎꮔꭺꮻꮞꮧ	-10.9392
ꭴꭼꭵꮝ	-10.9393
ꮲꮣꮵ	-10.9397
ꭴꮒꮓꭾꮧ	-10.9397
ꭴꮒꭶꮩꭵꮢ	-10.9398
ꭴꮣꮩꮅꮝꮤꮑ	-10.9399
ꭴꮓꭿᏻꮧᏹ	-10.9399
ꭰꮵꮈꭸꮃꮝꮧ	-10.9404
ꭽꮣꮕꮦꮝꭼ	-10.9405
ꭰꮒꮓꭿ	-10.9406
ᏺꮁꮞꮈ	-10.9407
ꭼꮹꮅꭺꮑ	-10.9408
ꭴꮺꮅꮞ	-10.9409
ꭰꮒꮓꭾꮝꭹ	-10.9413
ꭴꮱꮧꮝꭹ	-10.942
ꮥꭷꮑꮴ	-10.9422
ꮦꮃ	-10.9424
ꮘꮅꮟ	-10.9426
ꮅꮝꮣᏼꮩꮧ	-10.9426
ꭴᏸꮈꮞ	-10.9428
ꮺꮅꮞ	-10.9428
ꮒꭶꮅꮝꮧꮝꭺ	-10.9429
ꮥꭶꮝꭹꮈ	-10.9432
ꭰꮅꮝꭺꮈꮩꮧ	-10.9436
ꭰꮣꮩꮅꮝꮣꮑ	-10.9441
ꮣᏺꮳ	-10.9442
ꭸꭶꭻᏼꭱ	-10.9447
ꮳꮑꭾ	-10.9456
ꭴꭹꮅ	-10.9458
ꮔꮅꮝꮣꮑꮈ	-10.9458
ᏹꮕꮹꮝꮧ	-10.9459
ꭴꭹꮅᏺꭲꮝꮧ	-10.9459
ꭴꮣꮤꮕꭿ	-10.9463
ꮁꮝꮧ	-10.9464
ꭰꮖꮣꮕꮫ	-10.9464
ꭳꮵꮓꭾꮝ	-10.9474
ꭲꮳꮧꮤꮝ	-10.9474
ꭳꮅꮹᏺ	-10.9478
ꭲꮳꮩꮄꮀꭿ	-10.9481
ꭴꭸᏻꭿᏻ	-10.9484
ꭲꮧꭼꮑ	-10.9494
ꮣꮡᏸ	-10.9497
ꭿꮧᏻ	-10.9497
ꮵꮑꮅ	-10.9503
ꭲꮳꮣꮩꮅꮝꮧꮝꭼ	-10.9507
ꭰꮣꮻ	-10.9541
ꮫꮣꮄꮂꮝ	-10.9554
ꭴꮥꮢ	-10.9568
ꮒꮳꮫ	-10.958
ꮉꭶ	-10.9602
ꮵꮑꮝꮧ	-10.9604
ꭼꮢ	-10.9605
ꮳᏸꮈꮕ	-10.9609
ꮒᏺꭿꮞ	-10.9621
ꮳꮪꮅꮝꭺ	-10.9624
ꮔꮪ	-10.9627
ꭴꮄꮑ	-10.9643
ꮣꭼꮎ	-10.9643
ꭶꮅꮙꭹꮑ	-10.966
ꭴꮎꮥꮕ	-10.9662
ꭶꮅꮝꮩ	-10.9666
ꮎꮩꮄꮀ	-10.969
ꭱꮝꭶꮒ	-10.9692
ꮷꮣꮄꮕꮂ	-10.9697
ꮳꮕꮣꮧꮝ	-10.9705
ꮂꮝꭼꮎ	-10.9721
ꭼꮼꭿᏻ	-10.9776
ꭶꮎꮔꭺꮻꮝ	-10.9779
ꮵꭸꮵ	-10.9792
ꭲꮵꭶꮤꮂ	-10.9818
ꭶꮑꮃꮕꭿ	-10.9829
ꮩꭿᏻꮂ	-10.9855
ᏼꮑꮈ	-10.9916
ꮇꮟ	-10.9923
ꭴꮼꮲ	-10.9925
ꮈꮙꮥꮝꮧ	-10.9925
ᏻꮎꮣ	-10.9932
ꭱꮘ	-10.9937
ꮒꮵꮺꮝ	-10.9943
ꮵꮒᏼ	-10.9961
ꮣꮩꮅꮝꮧꮝꭼ	-10.9966
ꭶꮎꮝ	-10.9967
ꭲꮸꮓꮑꮈ	-10.9972
ꮎꮄꮕ	-10.9992
ꮣꮱꮧ	-10.9995
ꮅꮝꭶꮝꮩꮫ	-11.0006
ꭰꮵꮓꭾ	-11.001
ꮎᏸꭿꮝꮧ	-11.0061
ꭴꮒᏺꮄ	-11.0066
ꭾꭾꮈ	-11.0072
ꭴꮒꮎᏸ	-11.0082
ꭰꮝꮣᏹꮧꮝ	-11.0085
ꮧꭻꭺ	-11.0092
ꭰꮑꮩ	-11.012
ꮤᏺꮞꮈ	-11.0121
ꭴꮎꮣꮫ	-11.0131
ꭴꮒᏸꮈꮕ	-11.0135
ꭴꮹꮫꮧ	-11.0147
ꭶꮨꮧꮝ	-11.0148
ꭴꮺꮑ	-11.0166
ꭰꭹꮇꮴ	-11.0206
ꮝꮣꮑꭿ	-11.0208
ꭴꮆꮢꮝ	-11.0214
ꮣꮝꮥꮈꮧ	-11.028
ꮰꮎꮝꮫꮎ	-11.0309
ꮴꮅꮫ	-11.032
ꭵꮝꭼ	-11.0323
ꮝꭶꮕꮎ	-11.0325
ꮎꮵꮺꮞ	-11.0336
ꭴꮎꮑꮃ	-11.0342
ꮣꮕꮟ	-11.0343
ꮝꮣꮹꮧꮩ	-11.0344
ꮯꮆꮝꮤ	-11.0356
ꭲꮿꭼꮑꮧ	-11.038
ꭳꭹꮓꭾ	-11.0394
ꮒꮷꮘꮝ	-11.0418
ꭷꮏꮹꮧꮩꭾ	-11.0445
ꭺꮹꮨꮝꭸ	-11.0462
ꮪꮅꮝ	-11.0474
ᏺꭶꮫ	-11.0493
ꭰꮒꮇ	-11.0493
ꮣꮕꮦꮧ	-11.0493
ꭰꮵꮑꮈ	-11.0509
ᏼꮤꮑ	-11.0511
ꮳꮫꭺꮧ	-11.052
ᏻꮺ	-11.0539
ꭰꭹᏺ	-11.0541
ꭰꮅꮝꮣᏼꮂꮝ	-11.0546
ꮝꮖꮒꭺꮫ	-11.0549
ꮔꮅꮝꮣꮑ	-11.0549
ꭸꮵꮓꭾꮝ	-11.0549
ꮧꭹꮈꮻꮝꮣꮑꮧ	-11.0551
ꮅꮵꮩꮑꮈ	-11.056
ꮩꮃꮕꮝꮧ	-11.0562
ꭷꮏꮹꮫꮝꮧ	-11.0578
ꮧꮵꮑꮯᏼ	-11.0579
ꭰꭷꮅ	-11.0582
ꮇꮵꮈ	-11.0585
ꮧꮒꮝꭺ	-11.0592
ꭴꮒꭼꭵꮝ	-11.0595
ꭶꮅꮝꮩꮧꭽ	-11.0599
ꭼꮤᏺꮞ	-11.0604
ꮦꮈꮕ	-11.0606
ꮑꮩꮂ	-11.061
ꮳꮅꮵꮩꮂ	-11.0619
ꮷꮺᏺ	-11.0623
ꮎꮻꮫꭾ	-11.0628
ꮒꭶꮅꮝꮤꮒ	-11.063
'	-11.063
ꭴꮎꮔꭺꮵꮈ	-11.063
ꭴꮣꮩꮅꮳꮫ	-11.063
ꮔꮼꭿᏻꮢꮎ	-11.063
ꮣꮅꮝꮧꮃꮑꭼ	-11.063
ꮣꮖꭷꮎꮕꭹ	-11.063
ꮥꮟꮆꮒꭶ	-11.063
ꮧꮶꮺꮅꮝꭹ	-11.063
ꮷꭶꮢꮝꮧ	-11.063
ꭴꮧꮄꮂꮝ	-11.063
ꮎꮛꮑꮈ	-11.063
ꮣꭷꮏꮹꮥ	-11.063
ꮧꭸꭻꭺꮣꮑꮧ	-11.063
ꮪꮣꮨꮏꭵ	-11.063
ꭰꮒꭺꮧᏻ	-11.063
ꮷꮑꮲꮤꮕ	-11.063
ꮷꮼꮪꭿ	-11.063
ꮣꮒꮔꮩꭼ	-11.063
ꭰꮒꮝꭶꭲꮂ	-11.063
ꮸꮇꮴꮅ	-11.063
ꭰꮝꮖꮈꮂ	-11.063
ꭲꮳꮯꮒꭼꮑ	-11.063
ꭴꮎꮅꭾꮅꮴ	-11.063
ꭸꮵꮕꮢꭿ	-11.063
ꮥꭶꮼꮑꮧꮝꭼ	-11.063
ꭴꮎꮣꮯꮜꮕ	-11.063
ꮒꮥꮳꮫꮑ	-11.063
ꮻꭶꮇꭹ	-11.063
ꮣꮴꮅꭶ	-11.063
ꮪꮔꮹꭵ	-11.063
ꮅꮜꮃꮣꮕ	-11.063
ꭼꮣꭸꮒ	-11.063
ꭼꮹꭺꭾ	-11.0631
ꮪꮼꮑꮤꮕ	-11.0631
ꮳꭶꮡ	-11.0631
ꮁꮝꮥꮞ	-11.0631
ꮎꭼꮑꮄ	-11.0631
ꭴꮑꮇꭼ	-11.0631
ꭴꮔꮹꭵ	-11.0631
ꭲꭶꮅꮝꮩꮧᏹ	-11.0631
ꮳꮣᏺꮑꮈ	-11.0632
ꮧꮵꭷꮏꮹꮫꮝꮧ	-11.0632
ꮩꮫꮎꮣ	-11.0632
ꮻꮵᏺꮅ	-11.0633
ꭲꮳꮅꭾꮅꭼ	-11.0633
ꭰꮗꮅꮢ	-11.0633
ꮪꮣꮃꭱ	-11.0633
ꭴꮎꮣꮩꮅꮝꮣꮑꮈ	-11.0633
ꭴꮝꮧꭹꮫ	-11.0634
ꮅᏸꭲꮈꮝ	-11.0634
ꭰꮵꮕꮹꮕ	-11.0634
ꭴꮝꮖꮒꭺꮞ	-11.0635
ꭹᏺꮁꮢꭿ	-11.0636
ꭸꭶꮅꮵꮩꮑ	-11.0636
ꮷꮒꭶᏼꮅꭸ	-11.0636
ꮪꮹꮒꭶꮈ	-11.0636
ᏹꮒꭼꮹ	-11.0637
ꭴꮒꮈꮙꮤꮑ	-11.0638
ꭲꮳꮫꮕꭲꮝ	-11.0639
ꮃꮡꮆ	-11.0639
ꮼꮑꮩꮧ	-11.0639
ꭴꮺꮩꮄ	-11.064
ꭰꭻᏼꮧ	-11.064
ꮎꮧꮕꮞ	-11.0641
ꮎꮖꮝꮫ	-11.0642
ꭴꮒꮪꮂ	-11.0642
ꮹꮵꮿꮕ	-11.0642
ꭰꭹꮗꮣꮈ	-11.0643
ꭴꮺꭷꮕ	-11.0646
ꮩꮣꮖꮫ	-11.0647
ꭴꮑꮕꮢꭹ	-11.0648
ꭰꮵꮕꮟꮫ	-11.0648
ꮣꮈꮫ	-11.0649
ꮀꭿᏻꮂꮝ	-11.065
ꭴꮒᏼꮈ	-11.0651
ꭲꮵꮇꮴꮈ	-11.0651
ꭲꮫꮧꮝꭼ	-11.0653
ꭲꮵꮇꮴꮧ	-11.0653
ꭴꮒꮤꮃꮼ	-11.0654
ꮑꮴꮄ	-11.0656
ꮈꮓꮨ	-11.0656
ꭹꮕꮟꮫ	-11.0656
ꮵꮝꭶꮕꮴꮈ	-11.0657
ꭺꮅꮒꮧ	-11.0657
ᏼꮅꮈ	-11.0658
ꭷꮓꮧ	-11.0659
ꮃꮝꮤꮑ	-11.066
ꭲꮸꮧꮝꭼ	-11.0663
ꭶꮑꮯᏼꮝꮧ	-11.0665
ꭴꮆꮞ	-11.0665
ꭼꮑꮝꮧ	-11.0668
ꮴꮅꭺ	-11.0669
ꮕꭹꮑ	-11.0669
ꭶꮪꭲꮧꮲ	-11.067
ꮳꮝꭶꮕꮸ	-11.067
ꭴꮝꮖꮒꭺꮫ	-11.0674
ꭰꮒᏼꭿ	-11.0675
ꭴꮎꮔꭺꮸ	-11.0676
ꭰꮙꭿᏻꮂꮝ	-11.068
ꭶᏺꭶ	-11.0687
ꮷꮎꮣꮅ	-11.0688
ꮰꭰꮟ	-11.0688
ꮓꭿᏼ	-11.0689
ꮣꮒꮼꮒ	-11.069
ꭴꮪꮣꮄ	-11.069
ꮥꭽꮥᏺꮂꮝ	-11.0696
ꭴꮒꮳꮦꮝꮧ	-11.0698
ꮎꮝꭶꭲꮂꮎ	-11.07
ꭴꮳꮕ	-11.0708
ꮒꮳꮤ	-11.0708
ꮵꮝꮣꮹꮥꭹ	-11.071
ꭰꮒꭺꮹꮨꮝꭼ	-11.0711
ꮥꭼꮧꮝꭼ	-11.0714
ꭺꮺꮄ	-11.0716
ꮥꭴꮈꮻꮝꮣꮑꮂ	-11.0738
ꮷꮔꮼ	-11.0754
ꭰꮒꮶꭲ	-11.0761
ꭶꮕꭸ	-11.0766
ꮎꮎꮫꮑꮀ	-11.0767
ꭶꮈꮃꮧꮲ	-11.078
ꭻꮣꮄꮝ	-11.0782
ꮪꭲꮝꮣꮑꮄ	-11.0785
ꭴꮝꮣꮹꮫꮞ	-11.0786
ꮎꮖꮅꮝꮣꮑꮈ	-11.0789
ꮵꮑꭲꮝꮧ	-11.0792
ꮩꮫꮒ	-11.0794
ᏺꭶꮫꮑꮧ	-11.0802
ꭰꮒꮓꭾꮝꭼ	-11.0807
ꮟꮤꮧꮝ	-11.0808
ꮔꮕꮑꮄ	-11.0814
ᏼꮲ	-11.0817
ꭲꭹᏸꮈ	-11.0825
ꮵᏼꭹ	-11.0825
ꭲꮳꮫꮣꮝꮣ	-11.0829
ꮴꮏ	-11.0846
ꮻꮵꮇꮸ	-11.0858
ꮳꮫꭶꮑꮈ	-11.0866
ꮹꭶꮫ	-11.0869
ꮧꮸᏺ	-11.0895
ꮷꮣꮄꮑ	-11.0896
ꮓꮝꭹꮢ	-11.0902
ꮕꮣꮧꮝꮧ	-11.0907
ꭼꮑꮴ	-11.0908
ꭰꮙᏸ	-11.093
ꮵꮼꮒ	-11.0943
ꮝꮖꮒꭺꮤꮑ	-11.0948
ꮃꮟꮥꮒ	-11.0962
ꮾꮫ	-11.0969
ꮵꮵꮿ	-11.0979
ꮰꮸ	-11.0985
ꮅᏹꮆꭿꮝꮧ	-11.0996
ꭴꮒꮓꮑ	-11.1044
ꮪꮒꮈꮻꮝꮣꮑꭾ	-11.1049
ꭲꮳꮅꮝꮣᏼꮧ	-11.1086
ꭲꮸᏺꮺꮃ	-11.1097
ꮣᏻꮣꮄꮕ	-11.11
ᏸꮜꮫ	-11.1115
ꮅꮼꮸ	-11.1122
ꭼꮹꮒꮠꮲ	-11.1181
ꭴꮑꭲꮝꮧ	-11.1188
ꮧꮳꭷ	-11.1195
ꭰꮵꮿꮕ	-11.1204
ꮥꮵꮩ	-11.122
ꮆꮤꮕꭿ	-11.1236
ꭶꮤꮎꭵ	-11.1242
ꭰꮕꮧꮝ	-11.1269
ꭰꮎꮅꭾꮅꭸ	-11.1274
ꭱꮀ	-11.1275
ꮸꮧꮝꭺ	-11.1305
ꮵᏺꮝꮩꮣꮑ	-11.1314
ꭼꭹꮇꮴ	-11.1324
ꮪꮅꮝꭸ	-11.1356
ꮳꭲꮞ	-11.1386
ꮣꮕꮢ	-11.1454
ꭴꮎꮣꮕꮦꮈ	-11.1461
ꮣꭹꭷ	-11.1473
ꮩꮣꮈ	-11.1487
ꮅꮋ	-11.1489
ꮒꭶꮺꮞ	-11.1496
ꮧꭷꮓꭹꮝ	-11.1508
ꭲꮸꮓꮑ	-11.1511
ꭴꮼꭿᏻꮕ	-11.1516
ꮫꭶꮕ	-11.1516
ꭲꮸꮑꮴ	-11.1553
ꭱꮵꮑꮧ	-11.1571
ꮣᏸꮳ	-11.158
ꭴꮅꮝꮖ	-11.1587
ꭶꮵᏼꮑ	-11.1594
ꮄꮒꮩꮂ	-11.1615
ꮕꮫꮕ	-11.1616
ꮉꮣ	-11.1621
ꮒꮧꭸ	-11.1662
ꮒꮪꮎꮣꮺꮞ	-11.1756
ꮈꮙꮫ	-11.1759
ꮝꭹꭺꮹꮨꮝ	-11.183
ꮣꮄꮒꮩ	-11.1842
ꭼꮝꭺꮈ	-11.1922
ꭱꮵꮝꮥꮈꮧ	-11.1939
ꮥꭴꮈꮻꮝꮣꮑ	-11.1939
ꮩꮄꮀꮞ	-11.194
ꮳꮣꮄꮕ	-11.194
ꮩꭹꮈꮻꮝꮣꮑ	-11.1948
ꮎꮒꭶꮤ	-11.1954
ꮶꮸ	-11.1968
ꭰꮖꮫꭶꮕ	-11.1981
ꮎꮫꮑꮀ	-11.2005
ꮧꮒꭷꮏꮹ	-11.2016
ꮒꮵꮺꮞ	-11.2029
ꮅꮒꭹꮧᏻ	-11.2029
ꮅꮒꮖꮕꮑ	-11.2048
ꮞꭺꭹꮢ	-11.205
ꮧꭸꮵᏸ	-11.2059
ꭰꮒꭶꮤꮎꭲ	-11.2059
ꭱꮩꮩᏹ	-11.2059
ꭴꮣꮩꮅꮳꮨ	-11.2059
ꮷꭶꮎꮾ	-11.2059
ꭰꮅꮝꭶꮑꮫ	-11.2059
ꭴꮤᏺꮄ	-11.2059
ꭴꮼꮿꮑꮢ	-11.2059
ꭼꭽꮇᏸ	-11.2059
ꮒꮶꮅꭼꮎ	-11.2059
ꮪꮟꮤꮫ	-11.2059
ꭰꮔꭿꮝꮧꮝꭼ	-11.2059
ꭲꮸꮑꭲꮝꮧꮝꭼ	-11.2059
ꭴꮧꮫꭾ	-11.2059
ꭴꮴꮇꭿ	-11.2059
ꮄꭳꮧꮟ	-11.2059
ꮒꮳꮣꭸᏻꮢ	-11.2059
ꮣꮣꮑꮃꮧꮢ	-11.2059
ꮥꭶꮓꮳꮈ	-11.2059
ꮒꮝꮖꮒꭺꮝꭸ	-11.2059
ꮧꮖꮃꮟꮥꮒ	-11.2059
ꭰꭹꮝꮫꮧꮝꭼ	-11.2059
ꭴꮒꮅꮕꮸ	-11.2059
ꮔꮎꮅꮝꮣꮑꮈ	-11.2059
ᏻꮓꮅꮴ	-11.2059
ꭰꮅꮵꮩꮂꮝꭼ	-11.2059
ꮥꭶꮈꮻꮝꮣꮑꮈ	-11.2059
ꭷꮕꮡꮈ	-11.2059
ꮥꮕꮩꭵ	-11.2059
ꮪꮫꮫꮑ	-11.2059
ꮧꮔꭺꮧꮝꭹ	-11.2059
ꭰꭶꮝꭶꮒ	-11.2059
ꭴꮺꮠꮕᏼ	-11.2059
ꭴꮎꮸꮞ	-11.2059
ꭳꮹꮢ	-11.2059
ꭴꮑꮇꮑ	-11.2059
ꭴꮧꮧꮲ	-11.2059
ꭷꭿꮿꮝꮧ	-11.2059
ꭰꮎꮅꮝꮣᏼꮧꮝ	-11.2059
ꮀꮺꮈ	-11.2059
ꮎꮒꮝꭶꮕꮎ	-11.206
ꮦꮈꮂꮝ	-11.206
ꭲꮸꮓꭾꭾꮈ	-11.206
ꮵꮝꭺᏼ	-11.206
ꭴꮎꮅꮦꮈꮕ	-11.206
ꭴꮑꮙꮴ	-11.206
ꭰꮠᏼ	-11.206
ꮷꮑꮅꮑ	-11.206
ꭶꮎꮔꭺꮵꮈ	-11.206
ꭰꮳꮺꮠꮈꮝꮩꮧ	-11.206
ꭳꮎꮻ	-11.206
ꮎꮑꮝꭸꮝ	-11.206
ꭴꮓᏼꭼ	-11.2061
ꮧꮳꮃꮟꮥꮒ	-11.2061
ꮷꮎꭹꮈ	-11.2061
ꮫꮠꮕꭿ	-11.2061
ꮧꮣꮒꮠꮧᏹ	-11.2061
ꭸꭶꮅꮝꭺꮈꮣꮑꮈ	-11.2061
ꭴꮢꮒꮄ	-11.2061
ꭰꮎꮣꮩꮅꮝꮧꮝꭼ	-11.2061
ꮝꭹꮿꮕꮣꮧꮝ	-11.2062
ꮔꮣꮡᏼ	-11.2062
ꭰꮒꮈꮙꮧꮝꭸ	-11.2062
ꮳꮑꮲꮤꮕ	-11.2062
ꮑꮝꭸꭾ	-11.2062
ꭴꮝꭶꮴ	-11.2062
ꮷꮒꭷꮏꮹꮫꮝꮧ	-11.2063
ꭰꮪꮣꮄꮝꮧ	-11.2063
ꭴꮎꮣꮡᏸꮫ	-11.2063
ꭲꭸꮳꮫꮑꮧ	-11.2063
ꮅꮝꮣꮑꮅꮥꭼ	-11.2063
ꮔꮺꮂꮎ	-11.2063
ꭴꮒꭹꮞ	-11.2064
ꮥꭼꮹꮰ	-11.2064
ꭲꮸᏸꮃꮧꮩꮂ	-11.2064
ꮥꮿꮩꮤꮕꭹ	-11.2064
ꭰᏸꮩꮃꮫ	-11.2065
ꭴꮒꮝꭶꮄ	-11.2066
ꭴꮣꮰꮝ	-11.2066
ꮫꮑꮅꮣꮝꮧ	-11.2068
ꭰꭹꮕꮟꮩꭿ	-11.2069
ꭲꮳꮔꮼꮝ	-11.2069
ꮡꮥꮨᏼꮫ	-11.2069
ꮪꮒᏺꮁꮢ	-11.207
ꮝꭹᏸꮅꮞ	-11.2071
ꭴꮎꮔꭺꮻꮝꮧ	-11.2072
ꮪꮒꮒᏼꭾ	-11.2072
ꮣꮝꭻꮣꮫ	-11.2073
ꮷꮥᏺ	-11.2073
ꭴꮒꮕꮕ	-11.2074
ꮣꭹꭺꮂ	-11.2074
ꭴꮎꮣꮕꮞ	-11.2075
ꮪꮎꮄꮕ	-11.2077
ꭲꮸꮿꮕꮣꮧꮝ	-11.2077
ꮧꮳꮨꮒꮩ	-11.2078
ꮻꭸꮵꮿꮕ	-11.2079
ꭴꮕꮕ	-11.2079
ꭰꮣꭸꮧ	-11.208
ꭴꮏꮈ	-11.2081
ꭴꮣꮕꮝꮧᏹ	-11.2081
ꮥꭺꮲꮢ	-11.2083
ꮟꮠꮧ	-11.2085
ꭹꮕꮝꮤꮕ	-11.2085
ꮆꮑꮫ	-11.2085
ꮥꭻꭺꮣꮑ	-11.2086
ꭼꮏ	-11.2086
ꮜꮿꮒ	-11.2086
ꭸꭺꮞ	-11.2088
ꮧꮝꭹꭷꮑ	-11.2089
ꮪꭷꮏꮑ	-11.2089
ꭴꮎꮮ	-11.209
ꭱꮆꮧ	-11.2091
ꭴꮎꮳꮕ	-11.2094
ꭰꮊ	-11.2095
ꭴꮺꮕꮢꭹ	-11.2096
ꭰꮅᏸꭲꮆ	-11.2097
ꮣꭼꮹꮅ	-11.2097
ꮳꭷꮫ	-11.2098
ꭰꮒꮩꮎꭱ	-11.2098
ꮑꮸꮑꮈ	-11.2099
ꮧꮥꮆꮖꮝ	-11.2101
ꭴꮒꭺꮑ	-11.2102
ꮧꮵᏺꭿ	-11.2104
ꮪꮒꭷꮑ	-11.2107
ꭴꮧꮤꮝꮧ	-11.2109
ꮷꮪꭺ	-11.2109
ꭴꮒꮹꮫꭾ	-11.211
ꭰꮴꮝꮩ	-11.2112
ꭰꮣꮺꮅꭹꮝꭼ	-11.2112
ꭰꮒꭶꮤꭾ	-11.2113
ꮓꭾꮅꮩ	-11.2113
ꮵꮸᏸꮃꮧꮩ	-11.2116
ꭲꮳꮣꮕꮦꮝꭼ	-11.2117
ꮹꮧꮩ	-11.2117
ꭰꮝꮖꮒꭺꮧꮝ	-11.2117
ꮝꭹꮝꮣꮹꮥ	-11.2119
ꭴꮣꮕꮣꮫ	-11.2119
ꭰꭹꭹꭼ	-11.212
ꮷᏺꭿꮞꮧ	-11.2121
ꮣꭶꮨꮄ	-11.2129
ꮧꭶꮫꭿ	-11.2133
ꮻꭶꮎꮔꭺ	-11.2134
ꭴꮑꮃꮧꮝꮧ	-11.2134
ꭳꭹꮩꮣ	-11.2135
ꮵꭶꮤꭾ	-11.2136
ꮧꮶꮈ	-11.2142
ꮕꭲꮝꮤꮕ	-11.2145
ꭶꮑꮵ	-11.2145
ꭼꮹꮣꮩꮅꮝꮣꮑ	-11.2151
ꮡꮣꮅꮑ	-11.2152
ꮅꮣꮝꮤꮕ	-11.2155
ꭰꮒꮘ	-11.2159
ꭷꮑꮙꭸ	-11.2162
ꭳꭹꭺꮂ	-11.2162
ꭴꮎꮲ	-11.2163
ꮒꮪꮒꮺꮞꮄ	-11.2166
ꭼꮹꮤᏺꮞꮈꭹ	-11.217
ꮪꮎꮣꮕ	-11.2183
ꮵꮑꭲꮝꮧꮝꭼ	-11.2185
ᏹꮒꭶꮫꮑ	-11.2195
ꭰꮎꮫꭹꮝꭼ	-11.22
ꮜꮫꭵꮝ	-11.2202
ꮒꮸꮑꮂ	-11.2205
ꭰꭺꮂ	-11.2209
ꮨꮕꮝꮤꮕ	-11.2236
ꮣꮑꮃꮑ	-11.2246
ꭰꮅꮝꮣᏼꮂꮝꭼ	-11.2248
ꭲꮥꮂ	-11.2256
ꭱꭹꮝꮥꮈꮧ	-11.2279
ꭴꮒꮑꭲꮝꮧ	-11.2283
ꭴꭸᏻ	-11.2295
ꭴꮼꮞ	-11.2301
ꭴꮎꮅꭺꮢ	-11.2306
ꮥꮸꮕ	-11.2311
ꮪꮣꮒꮈꮴ	-11.234
ꭴꮩꭿᏻꮑ	-11.234
ꮔꮕꮑ	-11.2389
ꮅꮉ	-11.2397
ꭶꮜꮿꮝꮥ	-11.2397
ꮧꭸꮵꮎꮭ	-11.2402
ꮝꮣꮹꮧꮞ	-11.2415
ꮒꭼꮑꮈ	-11.2417
ꮵꮎꮻ	-11.2419
ꮀꮂꮝꮧ	-11.2441
ꮣꮵᏼ	-11.2451
ꮥꮳꮣꭸᏻ	-11.2454
ꭴꮅꮝꮣᏼꮧ	-11.2462
ꭲꮳꮣꮕꮣ	-11.2501
ꮣꮒꮃꮻ	-11.2502
ꮜꮄ	-11.2511
ꭼꮹꮒꭺꮹꮫꮧ	-11.2514
ꮒꮜꮫ	-11.2529
ꮷꮎꮔꭺꮻ	-11.2538
ꮅꮒꭺꭿꮝꮤ	-11.2545
ꮳꮣꮈ	-11.2555
ꮒꮵꮝꭶꮕ	-11.2574
ꮤᏺꮞꮧ	-11.2594
ꭶꮵᏼ	-11.2597
ꮸᏼꮑ	-11.2605
ꭴꮑꮃꮕ	-11.2634
ꭴꮎꭶꮜꮿꮝ	-11.2639
ꮫꮒꮧꮝꮧ	-11.2659
ꮧꭼꮹꮑꮆ	-11.2666
ꭸꮵꮫꮩꮧ	-11.2709
ꮤꮒꮣꮝꮧ	-11.2713
ꭶꮫꮑꮅ	-11.2714
ꭱꮵᏺ	-11.2726
ꭼꮹꮫꮧ	-11.2765
ꭻꭲꮝ	-11.277
ꮥꮵꮃꮻ	-11.2794
ꮅꮩꮈ	-11.2799
ꮥᏺꮧ	-11.2809
ꭴꮑꮢ	-11.2825
ꭼꮹꮫꮑ	-11.3008
ꮪꮒꮈꮻꮝꮣꮑ	-11.3015
ꮕꮣᏸ	-11.3038
ꮘꮒ	-11.304
ꮅꮓꭾꮤꮕ	-11.3059
ꮳꮣꮡꮿ	-11.308
ꭲᏸꮸꮑꮈ	-11.3103
ꮧꮳꮈꮻꮝꮣ	-11.3136
ꭶꮜꮿꮝꮩ	-11.3139
ꮣꮥᏺ	-11.3147
ꮣꭷꮏꮹꮧ	-11.3164
ꮵꮿꮫꮑ	-11.3171
ꮸᏺꮺꮃꮑ	-11.3192
ꮝꮣꮹꮫꮢ	-11.3207
ꮣꮅꮒꭺꭿꮝꮧꮝ	-11.3222
ꮣꮝꮪꮂ	-11.329
ꮎꮞꮅ	-11.3308
ꮕꮣꮧꮝꮩꮧ	-11.3316
ꮒꮑꮯᏼꮝ	-11.3318
ꭲꮿꮖꮅꮝ	-11.3392
ꮵꮿꮩꮅ	-11.3433
ꭶꮜꮿꮝꮧ	-11.3435
ꭼꮹꮓꭾꮝ	-11.346
,	-11.3481
ꮫꭹꮝꭼ	-11.349
ꭰꮤᏺꭿ	-11.3508
ꮪꮯꮆꮝꮣꮑ	-11.3516
ꮪꮑꮈ	-11.3604
ꮳꮺꮠꮈꮝ	-11.3629
ꭰꮑꮅꮝ	-11.3636
ꭰꮣꮺꮅꭹꮝ	-11.3663
ꮤꮃꮼꭿꮝꮧ	-11.3665
ꭰꭹꭺꮂ	-11.3667
ꮅꮝꮣᏼꮧ	-11.3671
ꮥꮵꮈꮻꮝꮣꮑ	-11.3677
ꭴꮒꮑꭻ	-11.3684
ꮻꮒꮧꮲ	-11.3695
ꮟꮟꮝ	-11.3697
ꮵꮤᏺꮞ	-11.3698
ꮣꮩꮅꮝꮤꮑ	-11.37
ꭰꮒꮿꮻꮝ	-11.3707
ꭶꮨꮧꮝꮧᏹ	-11.3711
ꭼꮹꭺꮹꮫ	-11.3715
ꭶꮃꮕꮫ	-11.3716
ꭴꮎꮣꮕꭶꮈ	-11.3718
ꮅꮝꭶꮝꮩꮩ	-11.3718
ꮴᏺꮂꮝ	-11.3719
ꮈꮙꮤꮑ	-11.3724
ꮹꮅᏸꭲꮆꭿ	-11.3725
ꭰꮯꮆꭵ	-11.3725
ꭵꮖꮈꭲꮫ	-11.3725
ꭶꮰꮿꮝꮤꮕ	-11.3725
ꮕꮅꮜꮅꮙ	-11.3725
ꮕꮓꮁꮆꮧ	-11.3725
ꮣꮎꮥꮢꮂꮝ	-11.3725
ꮣꮒꭷꮏꮹꮥ	-11.3725
ꮩꮷꮑꮕꮢ	-11.3725
ꮪꮈꮕꭵꮝꭼ	-11.3725
ꮵꭶꮇꭿꮝꮧ	-11.3725
ꮶꮝꮣꮣꮕꮯ	-11.3725
ꮷꮽꭺꮣꮑ	-11.3725
ꭲꮳꭶꮤꮕꮞ	-11.3725
ꭴꮨᏼꭿ	-11.3725
ꮡꮅꭺꭼꮎ	-11.3725
ꮣꮗꭺꮤꮕ	-11.3725
ꮧꭺꮺꮆꮧ	-11.3725
ꮪꮒꮃꮻꮸ	-11.3725
ꮪꮥᏺꮑ	-11.3725
ꮪꮻꮮꮻꮢ	-11.3725
ꭳꭸꮩꮈ	-11.3725
ꭼꭹꮑꮙꮴꮧ	-11.3725
ꭿꮼꮒꮝꭼ	-11.3725
ꮧꮵᏺꮁꮢꭿ	-11.3725
ꮷꮒᏼꮝꮥꮝ	-11.3725
ꭲꭺꮒꮿ	-11.3725
ꮅꮦꮈꮒ	-11.3725
ꮧꮒᏺꭴꮅ	-11.3725
ꭴꮎꮅꮟꮎꭿꮝꮧ	-11.3725
ꭴꮜꮃꮣꮕ	-11.3725
ꮣꮴꮅꮝꮫ	-11.3725
ꮪꮨꮕꮞ	-11.3725
ᏸꮆꭲꮝꮤ	-11.3725
ꭰꮖꮣꮕꮦꮫ	-11.3725
ꮥꮳꮑꮆꮫ	-11.3725
ꮷꮽꮣꮄ	-11.3725
ꭼꮽꭿꮝꮧꮝ	-11.3725
ꮔꮎꮫꮑꮄ	-11.3725
ꭴꮧꮄꭹ	-11.3725
ꭺꭲᏻꮂꮝꭶ	-11.3725
ꮥꮶꮥꮝꮧ	-11.3725
ꭲꮃꭹᏻ	-11.3725
ꮒꭶꮅꮝꮤꮒꮩꮂ	-11.3725
ꮔꮹꮒꮜꮕ	-11.3725
ꮵꮕꮝꮣꮥꮈꭹ	-11.3725
ꭴꮑꮃꮻꮞꮈ	-11.3725
ꭸꮋꮅ	-11.3725
ꮣꮎꮰᏹꮂ	-11.3725
ꮪꮎꭷꮫ	-11.3726
ꮽꮥꮅꭼ	-11.3726
ꮶꭹꮎꮻ	-11.3726
ꭴꭶꮫꮄ	-11.3726
ꭶꮆꮠꮂꮝ	-11.3726
ꮝꮪꭲꭱꮈ	-11.3726
ꭰꭹꮅᏺꭼ	-11.3726
ꮵꮿꮫꭶꮑꮈ	-11.3726
ꭰꮖꮫꮕꭲꮝꮧ	-11.3726
ꮕꭹꮶꮑ	-11.3726
ꭽꮯꮒꭼꮑ	-11.3726
ꭲꮵꮑꭻ	-11.3726
ꮪꮕꮹꮑ	-11.3726
ꮥꮳꮒᏼ	-11.3726
ꭴꮟꮩꮅ	-11.3726
ꮎꭺꮤꮕꮎ	-11.3726
ꭲꮸꮿꮅꮵꮩꮑꮈ	-11.3726
ꭰꮪꭲꮝꮤꮕ	-11.3726
ꭴꮅꮝꮧᏻ	-11.3726
ꮪꮅꮵꮩꮑꮄ	-11.3726
ꭴꮪꮈꮂ	-11.3726
ꭲꮣꮩꮄꮀꭿꮝꮧ	-11.3726
ꮒꮤᏺꮄ	-11.3726
ꮔꮎꮫꮑꮅꮩꮈ	-11.3726
ꮪꮎꮄꮑ	-11.3726
ꮧꮠᏼ	-11.3726
ꮻꭼᏺꮺꮃ	-11.3726
ꮩꮿꮕꭿꮫ	-11.3726
ꮣꮎꮣꮕꮦꮝꭼ	-11.3726
ꭰꭻꭲꮝꮧꮝ	-11.3727
ꮵꮜꮃꮣꮕ	-11.3727
ꭴꮎꮄꮎ	-11.3727
ꮒꭺꭿᏻꮂꮝꭼꮎ	-11.3727
ꭲꮣꮅꭾꮅ	-11.3727
ꭼꮹꮝꮫꮧꮝ	-11.3727
ꮝꮖꮣᏹ	-11.3727
ꮔꮎꮅꮝꮤꮕ	-11.3727
ꭼꮹꮓꭿᏻ	-11.3727
ꭼꮻᏻꮜꮥ	-11.3727
ꮬꮕꮣꮥ	-11.3727
ꭼꮹꮅꭵꮒ	-11.3728
ꮽꮒᏼꮈ	-11.3728
ꭴꮎꮑꮆꮤꮕ	-11.3728
ꭴꮝꮧꭹᏻ	-11.3728
ꭴꮣꮩꮅꮝꮣꮑꮄ	-11.3728
ꭴꮒꭺꮹꮫꮧ	-11.3728
ꮧꭻꭺꮧꮝꭹ	-11.3728
ꭴꮣᏼꮝꮧ	-11.3728
ꮕꮣᏻꮔꭺꮸ	-11.3728
ꭲꮵꮑꮙ	-11.3728
ꭴꮎꮣꮡᏼ	-11.3729
ꮥꮵꮈꮙꮥꮝꮧ	-11.3729
ꭲꮳꮄꮒꮩꮂ	-11.3729
ꮧꮴꮕꮢ	-11.373
ꭰꭶꭻᏼꭱꮧ	-11.373
ꮥꭼꮹꮨꮓꭾꮄ	-11.373
ꮎꮻꮫꮂ	-11.373
ꮤᏺꮝꮧ	-11.3731
ꭰꭶꮅꮝꭺꮈꮣꮑꮈ	-11.3731
ꭰꮉᏻꮆꮧ	-11.3731
ꮣꮿꮒꮝꭺ	-11.3731
ꮕꮹꮩꭿ	-11.3732
ꭰꮎꮣꮩꮅꮝꮧꮝꭸ	-11.3732
ꭱꮳꭻᏼꭱꮧ	-11.3732
ᏹꮳꮮ	-11.3733
ꮒꭼꮒꮟ	-11.3733
ꮷꮣꮕꮣꮧꮝ	-11.3734
ꮥꭶꮃꮕꮫ	-11.3735
ꮧꮤꭿ	-11.3736
ꭴꮎꮒꮲ	-11.3737
ꭴꮎꮪꮅꮝꭸ	-11.3737
ꭴꮣꮡᏸꮫ	-11.3737
ꭴꮾꮩꮧ	-11.3737
ꮷꮎꮒꮟ	-11.3737
ꮣꮵꮹꮫꭿ	-11.3737
ꭴꮅꮝꮖꮥ	-11.3738
ꮥꮵꮓꭹꮝ	-11.374
ꭰꭶꮤꮎꭲ	-11.374
ꭶꮲꮖ	-11.374
ꮧꮣꮩꮥ	-11.374
ꭸꮵꮑꮴꮈ	-11.374
ꭰꮒꮑꭲꮝꮧꮝ	-11.3741
ꮝꮨᏸ	-11.3741
ꮵꮃꮻꮞꮂ	-11.3741
ꭴꭹꮞ	-11.3741
ꭼꮹꮫꮫꮕꭹ	-11.3742
ꮷꮼꮲ	-11.3742
ꭰꮥꮈꮣꮆꮒꭸ	-11.3742
ꮹꮎꭶꮆ	-11.3744
ꮧꮒꭶꮨꮿ	-11.3745
ꮣꮒꭷꮕ	-11.3746
ꭶꮒꮃ	-11.3747
ꮳꮧꮻꮝ	-11.3747
ꮧꮳꮔꮼ	-11.3748
ꮽꮳꮕ	-11.3753
ꮼꭹꮆꮢ	-11.3754
ꮪꮔꭺꮻꮢ	-11.3754
ꮪꮒꭷꮅ	-11.3755
ꮅᏸꮧ	-11.3755
ꭳꭸꮕ	-11.3756
ꭼꮹꮓꮑꮄ	-11.3756
ꭰꮒꮆꮋ	-11.3761
ꭴꮑꭻ	-11.3762
ꮳꭺꮞ	-11.3763
ꭰꭹꮝꮣꮹꮥ	-11.3765
ꮣꮄꮎꮝꮧ	-11.3776
ꮝꮖꮅꮝꭸ	-11.3777
ꮋꮃ	-11.3778
ꮪꮓꭿᏻ	-11.3778
ꭿᏺꮝꮧꮝ	-11.3779
ꮕꮣꭶꮺ	-11.3781
ꭴꮒꭼꭵꮝꭼ	-11.3782
ꮧꮻꮞꮈ	-11.3785
ꭴꮎꮅꮞ	-11.3787
ꭼꮹꭶꮧ	-11.3787
ꮪꮎꮪꮻꮝ	-11.3787
ꭼꮙꮞ	-11.379
ꭸꮶꮞ	-11.3795
ꮧꭶꭺꮩꮧ	-11.3796
ꭶꮨꮟꮧꮲ	-11.3799
ꭲꭶꮪꭹ	-11.3806
ꭴꭼꮹꮈ	-11.3807
ꭶꭲꮢ	-11.3812
ꮧꮳꮣꮄꮕ	-11.3816
ꮳꮫꮣꮝꮣꮑ	-11.3818
ꮔꮣꮄ	-11.3819
ꭰꮠꮲꭲꮝꮧꮝꭼ	-11.3823
ꭲꮳꮣꮕꮦꮝ	-11.3826
ꭹꮎꮅꭲ	-11.3827
ꭸꭿꮩ	-11.3835
ꮝꭶꮕꭸꮝꮧ	-11.3835
ꭴꮒꮕꮑ	-11.3841
ᏸꭺꭹ	-11.3858
ꮔꮺꭱ	-11.3859
ꭵꭹꮑꮈ	-11.3881
ꭰᏸꮈꮢ	-11.389
ꮒꭸꭼꮑꮈ	-11.3891
ꮅꮝꮣᏼꮒ	-11.3891
ꭰꮎꮧꮝꭼ	-11.3893
ꮎꮒꭱ	-11.3902
ꭲꮳꮣꮕꮣꮧꮝ	-11.3909
ꮧꮢꮒ	-11.3915
ꭲꮳꮣꮴꮅ	-11.3916
ꭴꮓꮲ	-11.3929
ꭰꭹꮝꮖꮒꭺ	-11.3945
ꭺꮟꮟꮝ	-11.3952
ꮝꮧᏸꭼ	-11.3961
ꮝꮥꮈꭿꮣꮝꮧ	-11.3963
ꭴꮓꭿᏻꮑ	-11.3988
ꮩꭵꭿꮝꮧ	-11.3989
ꭴꮒꮑꮴ	-11.3992
ꭲꭶꮪꮣꮄꮝ	-11.3992
ꭺꮂꮝꮩꮧ	-11.4021
ꮣꮥꮅꮞ	-11.403
ꮅꮝꮣᏼꮎꮑ	-11.403
ꮣꮣꮫ	-11.4043
ꮵꮆꮢꮝ	-11.4092
ᏹꮶꭿᏻꮂ	-11.4096
ꭼꮹꮣꮩꮅꮝ	-11.4098
ꭼꮹꮱꮧꮝ	-11.41
ꮔꮕꮑꮈ	-11.4113
ꮃꮻꭲꮝꮧᏹ	-11.4127
ꮵꮔꭺꮻꮝꮧ	-11.4185
ꮣꮵᏺ	-11.4196
ꮣꮫꮑꮈ	-11.4212
ꭴꮒꭹꮝꮧ	-11.4218
ꭶꮑꮝꭸ	-11.4218
ꮡᏸꮝ	-11.4229
ꭴᏸꮈꮢ	-11.4233
ꮣꮕꮦꮄ	-11.427
ꭴꮧꭶꮅꮝꮩꮧꮝꭸ	-11.4283
ꭴꮨꮓ	-11.4283
ꮣꮄꮂꮝ	-11.4291
ꭺꮹꮨꮝꭼꮎ	-11.4302
ꭼꮤꮒ	-11.4341
ꮻꮵꮆ	-11.4343
ꮳꮫꮕꭲꮝꮣꮑ	-11.4358
ꮥꭸꮵᏺ	-11.4358
ꮝꮪꮂꮝ	-11.4387
ꭲᏸꮸꮑ	-11.4389
ꮕꮹꮝꮥ	-11.4391
ꭴꮺꮂ	-11.4394
ꭲꮸꮑꮴꮈ	-11.4396
ꭼꮹꭺꮅᏸ	-11.4463
ꭰꮣꭺꮅᏸꮝ	-11.4499
ꭸꮵꭸᏻ	-11.4518
ꭰꮵᏸ	-11.4527
ꭱꮧꮈꮙ	-11.4597
ꮅꭺꮑꮈ	-11.4625
ꭰꮅꮝꮖ	-11.463
ꭱꮳꮈꮙꮧ	-11.4638
ꭼꮹꮫꮕ	-11.465
ꭴꮑꮣꮝꮧ	-11.4668
ꮣꮕꮦꮝꭺ	-11.474
ꭰꮒꭺꮹꮨꮝ	-11.4741
ꭹꮅᏺꮵꮩ	-11.4794
ꮣꮕꮦꮝꭼ	-11.4796
ꮒꭶꮅꮝꮧꮝꭼ	-11.4835
ꮕꮧꭶꮅꮝꮩ	-11.4851
ꮒꮺꮝꭼ	-11.4852
ꮷꮒᏸꮈ	-11.4872
ꮒꭶꮤꭾ	-11.4933
ꭴꮒꮹꮫꮧ	-11.4961
ꭴꮅꮝꭺꮈꮣꮑ	-11.498
ꭰꮵꭲꮝꮧ	-11.4984
ꮸꮑꮀ	-11.5045
ꮞꭺꭹꮝꮧ	-11.5105
ꮖꮫꮑꮧ	-11.5138
ꮳꮅꮝꮣᏼ	-11.5155
ꮖꮣꮕꮣꮧꮝ	-11.5175
ꮿꭹᏸꮈ	-11.5214
ꮎꮑꮃꮧꮝ	-11.5214
ꮓꭿꮝꮣ	-11.5242
ꮕꮣꭼꮹꮝꮣꮹ	-11.5259
ꭴꮑꮕꮝꮧ	-11.5276
ꮪꮼꮥ	-11.5282
ꮓꮯꮝ	-11.5288
ꮵꮝꭶꮸ	-11.5312
ꭿꭺꮹꮨ	-11.5324
ꮝꮣᏹꮧꮝꮧ	-11.5344
ꭼꮹꮒᏼꮂ	-11.536
ꭸꭶꮫꮕ	-11.544
ꮣꮣꮕꮦ	-11.5492
ᏼꮤꮒꮈ	-11.5507
ꭴꮎꮕꮕ	-11.5515
ꭺꭿᏻꮂꮝꭸ	-11.5536
ꮽꮇꮴꮈ	-11.5542
ꮝꭹᏺꭲᏻꮂ	-11.5556
ꮈꮙꮧꮝꭼ	-11.5571
ꮣꮅꮕꮯ	-11.5577
ꮵꮹꮎꭶ	-11.5583
ꮅꮝꭺꮈꮧꮝꭼ	-11.5616
ꮵꭶꮨꮟ	-11.5624
ꮵꮝꭶꮕ	-11.5624
ꮒꮥꭶꮺꮞ	-11.5638
ꭶꮤꮂꮝꮤꮕ	-11.5655
ꮅꮝꭺꮈꮤꮕ	-11.5678
ꭴꮎꮣꮱ	-11.5679
ꭴꭷꮅꮸ	-11.568
ꮧꭸꮵꭴꮝꮥꮞꮈ	-11.5682
ꭲꮳꮫꭶꮕ	-11.5682
ꮣꮄꮒꮝꭼ	-11.5686
ꮵꭶꮨꮧꮝꮧ	-11.5686
ꮅꮝꮪꮆ	-11.5699
ꮝꭻꮣꮫ	-11.5705
ꭿꭶꮨꮟ	-11.5709
ꭴꮼꮪꭿ	-11.571
ꭴꮅꮒꭹꮧ	-11.571
ꮝꮣꮹꮪꭶ	-11.5715
ꭴꮒꮎꮻ	-11.5722
ꭸꮵᏺꭿꮞ	-11.5724
ꭴꮤꮃꮼ	-11.5724
ꭽᏸꮃꮝꮧ	-11.5725
ꭰꮖꮅꮵꮩꮧᏹ	-11.5725
ꭰꮫꮒꮧꮝꮩꮧ	-11.5725
ꭱꮝꮥꮅꮜꮥ	-11.5725
ꭴꮅꮦꮈꮑ	-11.5725
ꭸꮵꮪꭲꮝꮣꮑꮈ	-11.5725
ꮧꮎꮣꮎꮜꮂꮝꭹ	-11.5725
ꮯꮆꭱꮈ	-11.5725
ꭰꮑꮇꮂꮝ	-11.5725
ꭱꮳꮅꭱꮅꮴ	-11.5725
ꭱꮶꭲᏻꮢ	-11.5725
ꭴꮎꮣꮩꮅꮝꮤꮕ	-11.5725
ꭴꮎꮧꭶꮄᏺꮸꭿ	-11.5725
ꭴꮏꮇꮞ	-11.5725
ꭴꮧꮹꮞ	-11.5725
ꭶꮅꮖꮝꭺꭿ	-11.5725
ꭶꮣꮇꮿꮫ	-11.5725
ꭼꭽꮇꮿꮝ	-11.5725
ꮒꭶꮧꮉꮟ	-11.5725
ꮒꮣꮥꮨᏼꭿꮢ	-11.5725
ꮔꮑꭹᏼ	-11.5725
ꮝꮖꮓᏼꭺ	-11.5725
ꮣꮖꮄꮇ	-11.5725
ꮪꮒꮃꮻꮴ	-11.5725
ꮪꮒꮃꮻꮶ	-11.5725
ꮪꮕꮝꮣꮥꮄ	-11.5725
ꮪꮜꮃꮣꮕ	-11.5725
ᏺꮣꮭꮂ	-11.5725
ꭳꭶꮣꮕꮤꮹꮥ	-11.5725
ꭴꮑꭲꮈꮧ	-11.5725
ꭴꮑꮙꭲꮝꮧᏹ	-11.5725
ꭷꮏꮹꮧꮣ	-11.5725
ꭼꮹꮫꮣꮝꮣꮑ	-11.5725
ꮗꮳᏹꮧ	-11.5725
ꮣꮣꮒꮜꮂ	-11.5725
ꮣꮧꮆꮒ	-11.5725
ꮪꭶꮢꮝꮫ	-11.5725
ꭰꮟꮎꮜꮕ	-11.5725
ꮪꮝꮖꮈꮤꮑ	-11.5725
ꮽꮿꮕꭾ	-11.5725
ꭰꮅᏹꮆꮈ	-11.5725
ꮥꭴꮩꮝꮫ	-11.5725
ꮪꮒꮟꮒꮩꮈ	-11.5725
ꭰᏻꮎꭶ	-11.5725
ꭰꮒꮤᏺꭿꭾ	-11.5725
ꭴꮩꮲꮢ	-11.5725
ꮥꭸꭶꮼꮝ	-11.5725
ꮪꮓꮳꮆ	-11.5725
ꮷꮕꭸꮻ	-11.5725
ꮻꮪꮒꮿꮕꮂ	-11.5725
ꭴꮎꮰꮴ	-11.5725
ꭴꮒꭷꮅꮴ	-11.5725
ꮇꮖꮧꮕ	-11.5725
ꮧꮖꮣꮕꮫ	-11.5725
ꭴꭶꮫꮎꮸ	-11.5725
ꭵꮖꮼꮝ	-11.5725
ꮪꮎꮣꮒꮈꮸ	-11.5725
ꭴꮒꮔꭺꮴ	-11.5725
ꮥꭴꮄꮤꮑ	-11.5725
ꮧꮝꮗ	-11.5725
ꮤꮻꭲꮝꮧᏹ	-11.5725
ꭴꮒᏺꭲꮞꮈꭿ	-11.5725
ꭴꮒꮒᏼꮧᏹ	-11.5725
ꮤꮺꮩ	-11.5725
ꭴꮎꮪꮅꮝꭹ	-11.5725
ꭿꮝꭶꮝꭺꭿ	-11.5725
ꭰꭸᏺꮕ	-11.5726
ꭼꮗꭿꮝꮧ	-11.5726
ꮽꭺꭾ	-11.5726
ꮧꮅꮢꮝꮧ	-11.5726
ᏺꮸꮧꮝꭸ	-11.5726
ꮧꮳꮅꮒꭺꭿꮝꮩꮧ	-11.5726
ꭲꭸꮸꮑꮧ	-11.5726
ꮅᏹꮅꮥ	-11.5726
ꭲꮳꮫꭹꮝꭸꮝꮧ	-11.5726
ꭼꮹꮝꮧᏸꮤ	-11.5726
ꮑꮣꮒꮅ	-11.5726
ꮡꮅꭺꮸ	-11.5726
ꮕꮷꮺꮞ	-11.5726
ꮳꭻꭺꮣꮑꮧ	-11.5726
ꭼꮝꭺꮈꭵꮝꭸꮝꮧ	-11.5726
ꮳꮫꭹꮝꭺ	-11.5726
ꭰꮝꮩꮝꭹ	-11.5726
ꭴꮺꮿꮈ	-11.5726
ꮪꮓꮺꮈ	-11.5726
ꭲᏻꮅꮝꮤꮒꮣꮝꮧ	-11.5726
ꭴꮎꮃꮝꮣꭱ	-11.5726
ꮻꮳᏼꮈ	-11.5726
ꮷꮆꮞ	-11.5726
ꭴꮎꮅꮓꭾꮄ	-11.5726
ꮥꮵꭷꮏꮹꮧꮢ	-11.5726
ꮥꭽꮣꮕꭱꭾꮝꮧ	-11.5726
ꭾꮿꮤ	-11.5726
ꮣꮣꮼꮝꭼ	-11.5726
ꭺꮹꮧꮝꭼ	-11.5726
ꭼꮿꭻᏼꭱ	-11.5726
ꮎꮖꮫꮑꮈ	-11.5726
ꭰꭹꭺꮑꮈ	-11.5726
ꮏꮇꮢ	-11.5726
ꮓꭾꭾꮄ	-11.5726
ꮩꮡꮄ	-11.5726
ꮣꮩꮅꮝꮤꮒ	-11.5726
ꮎꮖꮅꮝꮤꮕ	-11.5726
ꭰꮩꮒꮝ	-11.5727
ꭶꮄꮕꮤ	-11.5727
ꮵꮅꮶ	-11.5727
ꮎꮎꮅꮝꮧ	-11.5727
ꮳꭶꮸꮝ	-11.5727
ꭲᏸꭼꮑ	-11.5727
ꭴꭶꮡ	-11.5727
ꭰꮅꭾꮅꭼ	-11.5727
ꭰꮎꮅꮝꭶꮝꮩꮧꮝ	-11.5727
ꮒꭼꮹꮒꮺꮞ	-11.5728
ꮧꭺꮺꮅꮝꭹ	-11.5728
ꮣꮯꮆꮝꮧꮝꭼ	-11.5728
ꮧꮳꮅꮒꭹꮧᏻ	-11.5728
ꮝꮥꮩꮂ	-11.5728
ꮪꮒꮒᏼ	-11.5728
ꭴꮅꮦꮈꮕ	-11.5729
ꮒꮳꮺꮢ	-11.5729
ꮪꮽꭺꮤ	-11.5729
ꭰꮗꮕꮢꭹ	-11.5729
ꮳꮲꮖ	-11.5729
ꭰꮖꮲꮘꮝꮧ	-11.5729
ꮣᏸꮵꮑꮅ	-11.573
ꮴꮃꮧꮝꮧ	-11.573
ꭺꮡꮄ	-11.573
ꭴꮞꮅꮤꮕ	-11.573
ꭳꮳꮅꭱꮅꮴ	-11.573
ꭲᏻꮒꮺꮝꮧ	-11.5731
ꮿꮖꮪꮅ	-11.5731
ꮝꭹꮿꮫꭶꮑ	-11.5731
ꮿꮺꭲꮝ	-11.5731
ꮧꮳꮃꮟ	-11.5732
ꮎꮵꮈꮙ	-11.5732
ꭴꮒꮹꮢ	-11.5732
ꭰꮒꮝꮖꮒꭺꮧꮝ	-11.5732
ꭱꭽꭶꮤ	-11.5732
ꭰꮖꮅꮝꭶꮝꮩꮫ	-11.5733
ꮪꮎꮅꮒꭼꭼ	-11.5733
ꭼꮹꮇꮴꭾ	-11.5734
ꮧꭹꭷꮑ	-11.5734
ꭲꮳꮫꭹꮝꭼ	-11.5736
ꮥꭸꭶꮈ	-11.5737
ꮧꭸꮵᏺꭿꮞꮈ	-11.5738
ꮪꮩꮝꮫ	-11.5739
ꮥꮵꭷꮏ	-11.5739
ꮲꮙꮩꮧ	-11.574
ꮣꮕꭱꭾꮝꮧ	-11.5741
ꭸꮵꮩꮅꮝꮧ	-11.5742
ꮣꮯꮜꮑ	-11.5742
ꮧꭶꮣꭸᏻꭿ	-11.5743
ꮣꮒꮆꮔꭾꮝ	-11.5744
ꭴꮄꮻꮝ	-11.5745
ꮳꭶꮄ	-11.5745
ꭿꮿꮣꮩꮅꮝꮣ	-11.5745
ꮹꮒꭶꮈ	-11.5747
ꭷꮑꭲꮝꮣꮑ	-11.5749
ꮎꮣꮩꮅꮝꮧꮝ	-11.5752
ꭴꮎꮧꮢ	-11.5755
ᏹꮆꮄ	-11.5757
ꮫꮑꮅꮩꮈ	-11.5758
ꮧꮝꭹꮿꮣꮒꮈ	-11.5759
ꮧꭶꮆꮧ	-11.5767
ꭴꮣᏹꮄ	-11.5768
ꮪꮒꮦꮈ	-11.5771
ꮵꮓꮝꮫ	-11.5773
ꮥꮫꮕ	-11.5778
ꭿꮠꮧ	-11.5782
ꭴꭼꮹꮄ	-11.5794
ꮧꮨᏺ	-11.5795
ꮵꮆꮔꭱꮈ	-11.5797
ꮅꭼꮪ	-11.5797
ꭴꭷꮅꭲꮝ	-11.5812
ꭸꮵꭹꮅᏺꭲꮝꮩꮧ	-11.5818
ꮓᏼꮅꮝ	-11.5823
ꭰᏼꮣꮖꮆ	-11.5835
ꭰᏺꮝꮧꮝ	-11.5837
ꮎꮳꮺꮠꮈꮝꮩꮧ	-11.5842
ꮪꮒꭹꮢ	-11.5847
ᏻꮎꮪꮅ	-11.5854
ꮧꭹꮈꮻꮝꮣꮑ	-11.5862
ꮑꮙꭱꮧ	-11.5873
ꭴꮼꭿᏻꭿꮝ	-11.588
ꭰꭶꮫꮧ	-11.5884
ꭶᏸꭼꮝ	-11.589
ꮵꮔꮎꮅꮝꮣꮑ	-11.5892
ꮩꭹꮈꮻꮝꮣꮑꮂ	-11.5894
ᏹꮝꭹᏺꭲᏻ	-11.5901
ᏺꮮꮢ	-11.5909
ꭰꭹꮼꮒ	-11.5968
ꮓꮺꮃꮕ	-11.5969
ꮎꮪꮣꮄꮝꮧ	-11.5974
ꭳꮳꮣꮩꮅꮝꮧꮝ	-11.599
ꮒꮑꮵ	-11.5991
ꮎꮣꮫꮑꮂ	-11.5996
ᏸꭲꮅꮩ	-11.6008
ꮔꮒꭺꮈ	-11.604
ꮵꮜꮃꮩꮧ	-11.6069
ꭳꭶꮅꮝꮣᏼꮧ	-11.6075
ꮿꮨꮓꭿ	-11.6092
ꮣꮣꮈ	-11.6096
ꭰꮒꮓꮧꮝ	-11.6103
ꭸᏻꮕꮎ	-11.6104
ꮯꮟꮝꭺ	-11.6134
ꮣꮑꮆꮫ	-11.6139
ꭲꮶꮅꮝ	-11.6176
ꮵꮹꮫꭱ	-11.6251
ꮕꮣᏻꮆꭿꮝꮧ	-11.6267
ꮡꮣꭸ	-11.6273
ꭷꮓꭸ	-11.6284
ꭶꮅꮝꮣꮫ	-11.6291
ꮣꭶꮄꮤ	-11.6307
ꭰꮖꮅꮝꮣᏼꮧ	-11.6328
ꮻꮒꮪꮺꮞ	-11.6359
ꭼꮹᏺꮁ	-11.6376
ꮳꮣᏹꮈ	-11.6381
ꭱꮧꭸᏻ	-11.64
ꮤᏺꮞꭾ	-11.6407
ꮽꮒꮆ	-11.644
ꭴꭶꮤꮤꮕ	-11.6502
ꮳꮒꭹꮝ	-11.6511
ꭰꮖꮱꮧꮝ	-11.6547
ꮒꮈꮻꮝꮣꮑꮈ	-11.6563
ꭲꮳꮅꭺ	-11.6591
ꮧꭶꮃꮻ	-11.6598
ꭱꭹꮑꮈ	-11.6638
ꮷꮎꮣꮱ	-11.6641
ꭲꮝꮣꮫ	-11.6678
ꮺꮝꭼ	-11.6708
ꮵꭶꮩꭵꭿꮝꮧ	-11.687
ꭶꮪꮅꮝꭼ	-11.6944
ꮳᏹꮅ	-11.7021
ꭲꮳꮣꮑ	-11.7022
ꮠꮲꮤ	-11.7022
ꭴꮧꭶꮅꮝꮩ	-11.7212
ꮵᏼꮤꮒ	-11.7261
ꭰꮎꮱꮧꮝ	-11.7271
ꮳꮼꮝꮤ	-11.7418
ꮢꮒꮝꮧ	-11.7475
ꭰꮝꭻꮥꮝ	-11.7638
ꭼꮙꭿᏻꮂꮝ	-11.7663
ꭴꮝꮖꮒꭺ	-11.77
ꭶꮯꮒꭼꮑ	-11.7721
ꮝꮖꮒꭺꮤ	-11.7771
ꭶꮲꮘ	-11.7853
ꮇꭿꮝꮣꮑ	-11.7874
ꮵꮕꮹꮝ	-11.79
ꭸᏺꮂꮝ	-11.7982
ꮔꭸᏻ	-11.7986
ꮣꮕꮨꮠ	-11.8018
ꮒꮪꮒꮺꮞ	-11.8031
ꮳꮣꮕꮨ	-11.8068
ꭰꮠꮲꭲꮝꮧ	-11.8087
ꮝꮪꮯꮝ	-11.8091
ꮆꮔꭱ	-11.8136
ꭰꮓꭿᏻꮂꮝ	-11.8144
ꭲꮸꭺꮹꮫꮧ	-11.8147
ꮪꮻꮝꮤ	-11.8151
ꭰꭶꮩꭵꭿꮝ	-11.8175
ꮧꭼꮹꮈꮜ	-11.8195
ꮳꮫꮫꮂ	-11.8196
ꭹꮗꮣꮈ	-11.8199
ꮿꮅꭱꮅꮴ	-11.82
ꮰꭿꮝꮫ	-11.8207
ꮣꭶꮅꮝꮩꮧꮝꭼ	-11.8211
ꮪꮻꮫ	-11.8221
ꮣꭺꮎꮫ	-11.8223
ꮷꮒꮃꮻ	-11.8225
ꭰꮖꮣꮕꮤꮹꮥ	-11.8225
ꭴꮎꮅꮝꮣᏼꮓꮕ	-11.8225
ꭼꮹꮣꮱꮻꮝꮤ	-11.8225
ꭿꭹꮅᏺꭼ	-11.8225
ᏼꮣꮖꮆꭵ	-11.8225
ꭱꮶꭲᏻꮧᏹ	-11.8225
ꭲꮵꮗꮣꮈ	-11.8225
ꭲꮸꮼꮑꮤꮕ	-11.8225
ꭴꮑꮃꮧꮩꮂ	-11.8225
ꭴꮒᏺꮰꭿꮞꮈ	-11.8225
ꭴꮞꭶꮸꭿ	-11.8225
ꭴꮣꮒꮅꭸ	-11.8225
ꭴꮥꮨᏼꮜꮧꮢ	-11.8225
ꭸꮳꮱꮧꮝꭼ	-11.8225
ꮒꮪꮎꮡꮄꮂꮎ	-11.8225
ꮣꭶꮦꮩꭲ	-11.8225
ꮥꭶꮥᏺꮂꮝꭼ	-11.8225
ꮧꮣꮩꮺꮩꭵ	-11.8225
ꮪᏸꮅꭿꮝꮤꮕ	-11.8225
ꮫꮒꮎꮔꭺꮵ	-11.8225
ꮽꮨꮕꮝꮤꮑ	-11.8225
ᏻꮼꮅꮴ	-11.8225
ꭴꮎꮅꮓꭿᏼꭿ	-11.8225
ꭴꮎꮣꮕꮤꮹꮥ	-11.8225
ꭴꮒᏼꮤꮒꭿꮝꮧ	-11.8225
ꭴꮒꮠꮲꭲꮝꮤꮕ	-11.8225
ꭴꮝꮲꮒꮝ	-11.8225
ꭴꮧꮜꮣꮫ	-11.8225
ꭴꮺᏺꮣꮫ	-11.8225
ꭶꭸꮵꮠꮲ	-11.8225
ꭼꮹꭺꮑꮆꭿꮞ	-11.8225
ꮅꮤꮧꮕꮞ	-11.8225
ꮒꮣꮩꮣꮘꮢ	-11.8225
ꮪꮼꮡꮄ	-11.8225
ꮵꮣꮎꮥᏺꮂꮝ	-11.8225
ꮼꭿꮅᏼꮝꮣꮑ	-11.8225
ꭶꮃꮝꮲ	-11.8225
ꮟꮋꮿꮒ	-11.8225
ꮣꮒꭷꮏꮹꮧ	-11.8225
ꮧꮣꮒᏹꮝꭹ	-11.8225
ꮪꮼꮑꮤꮑ	-11.8225
ꮳꮣꮱꮧꮝꭺ	-11.8225
ꭱꮣꮅꮝꭶꮝꮩꮫ	-11.8225
ꭱꮴᏺꮕ	-11.8225
ꭴꭷᏺꮫ	-11.8225
ꭴꮓꮁꭶ	-11.8225
ꭴꮝꮧᏸꮤꮑ	-11.8225
ꭴꮤᏺꮈ	-11.8225
ꭸꮳꮣꮡᏼ	-11.8225
ꮏꮈꮝꮧꮝꭸꮝꮧ	-11.8225
ꮒꮪꮹꮑꮄ	-11.8225
ꮪᏸꮅꮟꮩ	-11.8225
ꮳꮝꭶꮕꭺ	-11.8225
ꮻꭸꮳᏺꮅ	-11.8225
ꮻꮸꮇꮴꮈ	-11.8225
ꭰꮴꮇꭿ	-11.8225
ꭵꮦꭳꭹ	-11.8225
ꮣꮎꮅꮝꮣᏼꮂꮝꭸ	-11.8225
ꮵꮕꭺꭵꮧ	-11.8225
ꭹꮃꮎꮃꮧꮝ	-11.8225
ꮪꮪꭺꮤꮕ	-11.8225
ꮖꮣꮔᏼ	-11.8225
ꮵꮪꮣᏺꮞ	-11.8225
ꮻꮸᏺꮅ	-11.8225
ꭳꭶꮫꮕꭲꮝꮧ	-11.8225
ꮥꭹꮈꮻꮝꮣꮑꮂ	-11.8225
ꮷꮒꭶꮠꭰ	-11.8225
ꭲꮶꮅꭹ	-11.8225
ꮥꭹꮈꮻꮝꮣꮑꮈ	-11.8225
ꭲꮳꮅꮟꮎꭿꮝꮧ	-11.8225
ꭴꮹꮎꮣꮄ	-11.8225
ꭱꮣꮣꮩꮅꮝꮣꮑ	-11.8225
ꮝꮗꮅꮞ	-11.8225
ꮷꮎꮣꮒꮈꭲꮝꮧᏹ	-11.8225
ꭴᏼꮝꮥꮝ	-11.8225
ꭹꮪꭲꮝꮣꮑꮈ	-11.8225
ꮵꮑꮳꮫꮑ	-11.8225
ꭳꭶꮒꭹꮢ	-11.8226
ꮣꮎꮥꮝꭺ	-11.8226
ꮣꮣꮼꮝꮧ	-11.8226
ꮪꮺꮯꮜꮕ	-11.8226
ꭴꮼꮒꮞ	-11.8226
ꭴꮤꮥꭹꮝ	-11.8226
ꭰꭹꮑꭻ	-11.8226
ꮪꮅꮟꮂ	-11.8226
ꮧꭶꮄᏼ	-11.8226
ꭴꮕꮒꮝꮧᏹ	-11.8226
ꮧꭶꮄꮿꮝ	-11.8226
ꭴꮎꮪꮅꮝꭺ	-11.8226
ꭵꮗꮅꮞꮈ	-11.8226
ꭰꮎꮧꮢꭿ	-11.8226
ꭴꮝꮨᏸꭼ	-11.8226
ꮥꮷꭺꮧꮝ	-11.8226
ꮪꮕꮹꮕꭹ	-11.8226
ꮵꮔꮝꮩ	-11.8226
ꭶꮃꭸᏼ	-11.8226
ᏹꮪꮣꮜ	-11.8226
ꮒꭶꮵᏼꮑꮂ	-11.8226
ꮷꮅꮟꭼ	-11.8226
ꮒꮅꭵꮒꮈ	-11.8226
ꮔꮅꮝꮪꮈ	-11.8226
ꭰꭶꮼꭱ	-11.8226
ꮣꮎꮧꮤꮝꭸ	-11.8226
ꮎꮮꭼ	-11.8226
ꭰꮖꭷꮫ	-11.8226
ꭴꮒꮖꮨꮝꮧ	-11.8226
ꮩꮧꭷꮒꮝꭼ	-11.8226
ꮪꮣꮒꮈꮸ	-11.8226
ꭴꮺꮃꮧꮝ	-11.8226
ꭰꮖꮅꭾꮅꮸ	-11.8226
ꭴꮵꮈꮢ	-11.8226
ꭴꮣꮹꮧꮝꮩꮫ	-11.8226
ꮧꭴꮸꮞ	-11.8226
ꭴꮎꮅꮵꮩꮕ	-11.8226
ꮿꮫꮣꮝꮣ	-11.8226
ꮥꭴꮇꭼ	-11.8226
ꮎꮣꮧꮝꭺ	-11.8226
ꭼꮝꮧᏸ	-11.8226
ꮹꮠꮎ	-11.8226
ꭴꮅꮟꮎꭿꮝꮧ	-11.8226
ꭴꮨꮝꮫ	-11.8226
ꮧꮰꭿꮝ	-11.8226
ꮶꮵꮹꮎꭶꮃ	-11.8226
ꮻꭼꮹᏼꮤꮑ	-11.8226
ꭴꮅꮝꮥꮝꮤ	-11.8226
ᏼꭶꭶꮧ	-11.8226
ꮅꮝꮧᏸꮣꮑ	-11.8226
ꮇꮈꭵꮝ	-11.8227
ꭷꮩᏼ	-11.8227
ꮩꮲꮎ	-11.8227
ꮪꮒꮓꭹꮢ	-11.8227
ꮒꭴꮺꮞ	-11.8227
ꭶꮵꮕꮼꮧ	-11.8227
ꭴꮎꮫꮣꮝ	-11.8227
ꮒꮪꮫꮑꮈ	-11.8227
ꭴꮎꮣꮩꮅꮝꮩ	-11.8227
ꭰꮹꮨꮝꭺ	-11.8227
ꮧꭺꮹꮨ	-11.8227
ꭴꮥꮿꮤꮑꮄ	-11.8227
ꮒꮳꮅꮝꮣꮑꮂ	-11.8227
ꭷꮓꮝꭶ	-11.8227
ꮣꭹᏺꭿꮞꮈ	-11.8227
ꭴꮥꮿꮤꮑꮈ	-11.8227
ꭲꭶꮅꮝꮣꮑꮧ	-11.8227
ꭰꮫꭹꮝꭹ	-11.8227
ꮣᏹꮣꮅ	-11.8227
ᏹꮎꭶꮺ	-11.8227
ꮵꮃꮕꮣꮥ	-11.8227
ꭸꮅꮜꮥ	-11.8227
ꭳꭹꮎꮅꭺ	-11.8228
ꮪꭺꮣꮑꭿ	-11.8228
ꭴꮶꮝꮧ	-11.8228
ꭶꭷꭾ	-11.8228
ꭳꭹꮝꮫꮧꮝ	-11.8228
ꭴꮼꮑꮤꮕ	-11.8228
ꭰꮅꭾꮅꭺ	-11.8228
ꭰꮎꭲꮞ	-11.8228
ᏻᏸꮈꮑ	-11.8229
ꮷꮜꮄꮕ	-11.8229
ꭼꮹꮔꭿ	-11.8229
ꭰꭹᏺꮁꭿꮝꮧ	-11.8229
ꮎꮖꮫꮕ	-11.8229
ꭴꮕꮹꮑ	-11.8229
ꭴꮔꭺꭲꮝꮧ	-11.823
ꮃꮡꮈ	-11.823
ꮎꮎꮣꮫ	-11.823
ꭼꮹꮫꭶꮑꮈ	-11.8231
ꮣᏻꮒꮔꭺꮸ	-11.8231
ꮧꭸꮷꭺ	-11.8231
ꭰꮞꮅꮫꮝ	-11.8231
ꮣᏼꮝꮥꮝꮧ	-11.8231
ꮽꮒᏼꮝꮧ	-11.8231
ꮻꭼꮹꮨꮕꮝꮤ	-11.8232
ꭴꮫꮒꮧꮝ	-11.8232
ꭶᏼꮣꮧ	-11.8232
ꮽꮎꮨꮕꮝꮤ	-11.8232
ꮪꮇꭼ	-11.8233
ꭴꮒꮝꮫꮧꮝ	-11.8233
ꮥꮆꮖꭱꮈ	-11.8233
ꮣꮰᏹꮂ	-11.8235
ꭾꮩꮂ	-11.8237
ꭴꮪꮣꮈ	-11.8237
ꭰꮣꮼꮝꮧ	-11.8237
ꮷꮨᏺ	-11.8238
ꮷꮔꭺꮩꮧ	-11.8239
ꭴꮒꮑꭲꮝꮤꮕ	-11.824
ꭰꮲꮘꮝꮧ	-11.824
ꮒꮕꭺꭰ	-11.8242
ꮕꮹꮫꮑ	-11.8242
ꭰꮯꮝꮥ	-11.8242
ꮒꮇꮵ	-11.8244
ꮒꭸꮸꮑ	-11.8244
ꮰꭵꮤ	-11.8246
ꮪꮒꮿꮩ	-11.8247
ꮅꮰꮿꮝ	-11.8247
ꭰꮒꮝꭶꮕ	-11.8249
ꭰꮒᏺꮝꮧꮝ	-11.8252
ꮸꭸꮻ	-11.8253
ꮥꮳꮣꮕꮦꮝ	-11.8257
ꭶꮱꮧꮝꭼ	-11.8261
ꭴꮫꮣꮝ	-11.8264
ꮿꮕꭿꮈ	-11.8266
ꮎꮩꮲ	-11.8268
ᏺꮮꭿ	-11.8268
ꭰꮵꮕꮑ	-11.8271
ꮝꭹꮿꮨꮕꮝ	-11.8272
ꭰꮖꮩꮄꮀꭿꮝ	-11.8275
ꭲꮧꮝꭶꮎ	-11.8293
ꮪꮃꮧꮝ	-11.8294
ꭰꭶꮨꮕ	-11.8298
ꮲꮤꮝ	-11.8304
ꮝꮪꭹꭱ	-11.8305
ꭴꮒꭺꮅᏸ	-11.8307
ꮅꮝꭶꮝꮩꮤꮕ	-11.8312
ꮧꭺꮺꮃꮕ	-11.8316
ꮽꮎꮧꮕ	-11.8321
ꮵꮝꭺꮈ	-11.8331
ꮽꮎꭶꮤꮂꮝꮤ	-11.8339
ꮵꮝꮪꭲꭱ	-11.8345
ꮖꭷꮏꮕ	-11.8351
ᏺꭲꮞꮄ	-11.8363
ꮷꮾꮤ	-11.8365
ꭳꮳꮅꮝꭶꮝꮩ	-11.8366
ꮳꮥꮿꮩꮧꮝ	-11.8381
ꭴꮝꮣꮹꮧ	-11.8398
ꮧꭻꭺꮣꮑ	-11.8411
ꭶꮜꮿꮝꮤꮕ	-11.8427
ꭲꮵꮎꮔꭺꮻ	-11.844
ꭶꮣꮕꮦ	-11.8445
ꮖꮪꮅꮝꭼ	-11.8448
ꭴꮒꭷꮅꮸ	-11.846
ꭰꮗꮕꮝꮧ	-11.8463
ꭲꮷꮕꮑ	-11.8465
ꮓꮳꮫꮑ	-11.8471
ꭰꮅꮝꭺꮈꮣꮑ	-11.8508
ꮳꮰꮿꮝꮧꮝ	-11.8509
ꮵꮿꮅꮝꭶꮝꮩ	-11.8529
ꭺꮑꮆꮝꭸ	-11.8548
ꭲꮳꮅꮝꮣᏼꮂꮝ	-11.8562
ꮵᏺꮝꮣ	-11.8576
ꭼꮝꭶꮃꮕ	-11.8593
ꭴꮒꮫꮧꮝ	-11.8664
ꮲꮖꮝꮩꮧ	-11.8685
ꭲꮿꮖꮅꮝꮣꮑ	-11.8773
ᏻꮑꮴ	-11.8803
ꭷꮎꮹꮧ	-11.8808
ꮥꮳꮼꮝ	-11.8845
ꭴꮺꭷꮂ	-11.8862
ꮧꮴᏺꮂ	-11.8873
ꭱꮳꮡᏸ	-11.892
ꭼꮹꮈꮝ	-11.8929
ꮸꮓꭾꭾ	-11.893
ꭼꮹꮓꮅꮝ	-11.8951
ꭴꮝꮣꮹꮫ	-11.8964
ꮳꭷꮂ	-11.9029
ꮵꭷꮂ	-11.9117
ꭲꮸꮿꮫꮑ	-11.9119
ꮽꮓꮑ	-11.9145
ꮒꮼꮒꭿꮝꮧ	-11.9172
ꭰꮣꮝꮥꮅꮝ	-11.9191
ꭺꮂꮝꮤ	-11.9285
ꭴꮎꮣꮔᏼ	-11.9305
ꮢꭶꮃ	-11.9327
ꮥꮳꮨꮓ	-11.9408
ꮽꮒꮓꮑ	-11.9412
ꮣꮫꮕꭲꮝꮣ	-11.9462
ꭴꮣꮑꮯᏼꮝ	-11.9484
ꮒᏸꮈꮑ	-11.9494
ꮎꮣꮸꮿꮝ	-11.9504
ꭰꮒꮎᏸꮝ	-11.962
ꭴꮎꮅꮝ	-11.9621
ꮴꮕꭲꮝ	-11.9734
ꮣꭶꮯꮆꮝ	-11.9773
ꮰꮝꭼ	-11.9965
ꮣꮼꮝꮩꮧ	-12.0005
ꮷꮒꮔꭺꮻ	-12.0068
ꭸꮴꮃꮧꮩ	-12.0131
ꭼꮹꮤᏺꮞ	-12.0256
ꭲᏻꮎꮅꮝꮤꮕ	-12.0261
ᏻꮹꮑꮅ	-12.0589
ᏸꮕꭱ	-12.0721
ꭶꮯꮟꮝ	-12.0723
ꮬꮧꮝ	-12.0794
ꮫꮣꮝꮣꮑꭾ	-12.08
ꭷꮂꮢ	-12.0855
ꮎᏸꭿꮝ	-12.0894
ꭹꮅᏺꮸ	-12.0895
ꭶꮎᏸꮝ	-12.0934
ᏻꮤᏺꮞ	-12.0935
ꭰꮲꮖꮝ	-12.0952
ꮷꮣꮕꮦ	-12.0963
ꮠꮲꮩꮧ	-12.0975
ꮎꮨꮑ	-12.0997
ꮖꮣꮕꮦ	-12.1033
ꮎꮖꮅꮝꮣꮑ	-12.1091
ꮔꮎꮅꮝꮣꮑꮀ	-12.1267
ꭲᏻꮎꮫꮑ	-12.1347
ᏼꮣꮖꮆꮝ	-12.1365
ꮎꮭꭵꮎ	-12.1446
ꮯꮆꮝꮣꮑ	-12.1481
ꮪꮿꮕꭾ	-12.1531
ꮹꮩꭿꮿꮫ	-12.1545
ꭼꮹꮨꮓꭾꮄ	-12.1549
ꮳꮅꭱꮅꮴꮧ	-12.155
ꮣꭺꮔꮆ	-12.155
ꮿꮣꮒꮈꮸ	-12.1552
ꮣꮅꮝꭺꮈꮧ	-12.1554
ꮿꮣꮩꮅꮝ	-12.1556
ꭶꮵꮿꮰꭲꮝꮣꮑ	-12.1559
ꮧꭶꮈꮜꮣꮧꮝ	-12.1559
ꮒꭶꮵꮺꮞꭽ	-12.1559
~	-12.1559
ꭰꮣꮕꮼꭿꮝꮧꮝꭹ	-12.1559
ꭰꮵꮪꭲꮝꮣꮑꮈ	-12.1559
ꭲꭶꮰꮿꮝꮩꮧ	-12.1559
ꭲꮳꮰꮿꮝꮩꮧ	-12.1559
ꭴꮪꭲꮝꮣꮑꮈ	-12.1559
ꭶꮜꮿꮝꮫꮎ	-12.1559
ꮝꭻꮥꮝꭼ	-12.1559
ꮝꭻꮥꮞ	-12.1559
ꮪꮽꭺꮣꮑꮄ	-12.1559
ꮳꮣꮺꮅꭹꮝ	-12.1559
ꮵꮸꮿꮅꮵꮩꮑ	-12.1559
ꮷꭺꮣꮟ	-12.1559
ꭰꮎꮅꮵꮩꮒꮩ	-12.1559
ꭰꮒꮑꮔꮃꮝꮧꮝꭺ	-12.1559
ꭰꮖꮯꮒꭼꮑꮈ	-12.1559
ꭲꮳꮧꭶꮄᏺ	-12.1559
ꭴꮅꮟꮂꮞ	-12.1559
ꭴꮏꮝꭼꮴ	-12.1559
ꭴꮔꮦꮞ	-12.1559
ꭴꮝꮖꮇꭺ	-12.1559
ꭸꭼꮝꭶꮃꮑ	-12.1559
ꮜꮃꮣᏹꮅ	-12.1559
ꮠꭳꮑꮅꮑ	-12.1559
ꮣᏸꮅꭿꮝꮧꮝꭼ	-12.1559
ꮣꮙꮩꭵ	-12.1559
ꮥꭻꭺꮧꮝꭼ	-12.1559
ꮪꮕꮒꭶꮈ	-12.1559
ꮳꮝꮥꮕꮸ	-12.1559
ꮵꮝꭻꮥꮢ	-12.1559
ꮵꮝꮪꮒꭹꮝꮧ	-12.1559
ꮵꮻꮧꭸꭶꮨꮕꮝꮤꮑ	-12.1559
ᏹꮕꮞꭶꭹ	-12.1559
ꭰꮝꮖꮒꭺꮝꭸ	-12.1559
ꭱꮶꭲᏻꮂꮝ	-12.1559
ꭲꮅꭱꮜ	-12.1559
ꭴꮅꮝꭺꮈꮤꮑ	-12.1559
ꭴꮎꮒꭹꮞ	-12.1559
ꭴꮎꮣꮑꮯᏼꮢꮢ	-12.1559
ꭴꮎꮯꮆꭵ	-12.1559
ꭴꮒꮠꮕꮴꮄ	-12.1559
ꭵꮖꮈꭵ	-12.1559
ꭶꮓꮄꮝꭼ	-12.1559
ꮅꮒꮖꮕꮕ	-12.1559
ꮥꭶꭻꮝꮣꭵ	-12.1559
ꮥꮵꭶꮏꮹꮥ	-12.1559
ꮥꮵꭶꮏꮹꮧꮢ	-12.1559
ꮥꮸꮿꮼꮝ	-12.1559
;	-12.6318
ꮍ	-12.6559
]	-13.5795
?	-13.6333
ꮚ	-13.6555
:	-13.6556
)	-13.6557
!	-13.6558
\	-13.6559
ꮛ	-13.6559
