<pad>	0
</s>	0
<unk>	0
▁ᐃ	-0
▁ᑳ	-1
▁ᐅ	-2
▁ᐁ	-3
▁ᐊ	-4
▁ᑭ	-5
ᑕᔥ	-6
▁ᑲ	-7
▁ᒋ	-8
▁ᑮ	-9
▁ᒦ	-10
ᐙᒡ	-11
▁ᑕᔥ	-12
▁ᑲᔦ	-13
ᐃᔑ	-14
▁ᐃᐃ	-15
▁ᑫ	-16
ᐐᓐ	-17
ᓂᒡ	-18
▁ᐋ	-19
ᓐ᙮	-20
▁ᓂ	-21
ᓂᓂ	-22
▁ᐁᑮ	-23
▁ᑳᑮ	-24
▁ᐅᑮ	-25
ᓂᑑ	-26
ᒪᓂᑑ	-27
ᔐᒪᓂᑑ	-28
▁ᑭᔐᒪᓂᑑ	-29
ᐎᓐ	-30
▁ᑳᐐᓐ	-31
ᒋᑫ	-32
ᒃ᙮	-33
ᑎᓯ	-34
ᐅᒋ	-35
ᑯᓯ	-36
▁ᐃᑕᔥ	-37
▁ᒦᑕᔥ	-38
▁ᓴ	-39
ᑭᑐ	-40
▁ᑕ	-41
▁ᐯ	-42
▁ᐱ	-43
▁ᐃᓂ	-44
▁ᒋᓴ	-45
▁ᐋᓃ	-46
▁ᐐ	-47
▁ᐃᐃᒫ	-48
ᐗᒃ	-49
▁ᑳᐃᔑ	-50
ᐎᓂ	-51
ᐎᔭ	-52
ᓇᐙ	-53
▁ᐊᐊ	-54
ᑌᐺ	-55
▁ᐅᐅ	-56
▁ᒥ	-57
▁ᓃ	-58
ᑕᒧ	-59
▁ᐊᐎᔭ	-60
ᐊᔮ	-61
▁ᐃᔑ	-62
▁ᐌ	-63
ᑭᓇ	-64
ᐃᓈ	-65
ᒡ᙮	-66
▁ᑲᑭᓇ	-67
ᒫᑎᓯ	-68
▁ᐊᐲ	-69
ᕽ᙮	-70
▁ᑭᒋ	-71
ᑎᐯ	-72
▁ᒋᓴᔅ	-73
▁ᐁᔑ	-74
ᔦᒃ	-75
ᐌᓂ	-76
ᑕᒪ	-77
▁ᐃᑭ	-78
▁ᒫ	-79
ᐙᐸ	-80
▁ᐐᓐ	-81
ᐃᑭᑐ	-82
ᓇᓐ	-83
▁ᐸ	-84
▁ᒪ	-85
ᓂᒃ	-86
ᑳᑌ	-87
▁ᑫᑰ	-88
ᐙᓐ	-89
ᑕᒫ	-90
ᓇᒥ	-91
ᔥᑭ	-92
ᓂᒥ	-93
▁ᐋᓃᔥ	-94
ᑭᒋ	-95
ᑖᑯᓯ	-96
ᑲᓂ	-97
ᑭᑭ	-98
▁ᐯᔑ	-99
ᑖᐱ	-100
▁ᑯ	-101
ᐗᐞ	-102
ᑭᒫ	-103
ᓂᒡ᙮	-104
ᑯᒡ	-105
ᒥᓐ	-106
ᐗᓐ	-107
ᑭᑫ	-108
▁ᓇ	-109
ᑲᓇ	-110
▁ᐲ	-111
ᓄᐊ	-112
ᐙᒡ᙮	-113
▁ᑭᔐᒪᓂᑑᓐ	-114
▁ᐃᓂᓂ	-115
▁ᐃᓇ	-116
▁ᑭᑲ	-117
ᓂᓂᒃ	-118
ᔥᐱ	-119
ᒋᐃ	-120
ᔮᓐ	-121
ᓬᐊ	-122
▁ᐁᑕ	-123
ᑲᒥ	-124
▁ᐁᐐ	-125
▁ᓂᑮ	-126
ᐞ᙮	-127
▁ᐅᑮᐃᓈ	-128
▁ᐋᓃᓐ	-129
▁ᐊᐌ	-130
▁ᐅᑕ	-131
▁ᑳᑎᐯ	-132
ᔥᑲ	-133
ᐊᓂ	-134
ᐸᓐ	-135
ᑾᓐ	-136
▁ᑫᑰᓐ	-137
ᔥᐱᓐ	-138
▁ᑮᔥᐱᓐ	-139
ᐱᒫᑎᓯ	-140
▁ᐅᑎ	-141
ᓄᑮ	-142
ᒪᑲ	-143
ᓂᒫ	-144
▁ᐃᑯ	-145
▁X	-146
ᑭᑎ	-147
▁ᑎ	-148
ᓇᒥᐁ	-149
ᓈᓐ	-150
ᑕᕽ	-151
▁ᐊᑮ	-152
ᒋᑑ	-153
ᓂᔕ	-154
▁ᒦᔥ	-155
ᔭᓐ	-156
ᑭᓐ	-157
ᓀᓐ	-158
▁ᑮᐃᑭᑐ	-159
ᑯᓂ	-160
ᐎᓂᓂ	-161
▁ᐅᑲ	-162
▁ᑳᑮᐃᔑ	-163
▁ᑌᐺ	-164
ᔥᑳ	-165
▁ᒣ	-166
ᐎᓂᕽ	-167
ᐗᒡ	-168
▁ᑳᐃ	-169
ᔥᑰ	-170
ᑕᒨ	-171
▁ᑳᐅ	-172
▁ᒎ	-173
ᑭᑭᓄᐊ	-174
▁ᑖᐱ	-175
▁ᑭᑎ	-176
▁ᑖᐱᔥᑰ	-177
▁ᑮᓇᐙ	-178
▁ᓅ	-179
▁ᐅᒋ	-180
ᑲᓐ	-181
▁ᐗ	-182
▁ᓃᓐ	-183
▁ᐃᓀ	-184
ᐎᓐ᙮	-185
ᒪᐙ	-186
ᓯᐌ	-187
▁ᑳᐐ	-188
ᑯᕽ	-189
ᑾᔭ	-190
ᑮᔑ	-191
▁ᐋᔕ	-192
▁ᐊᔮ	-193
▁ᐄ	-194
ᓂᔑ	-195
ᓂᓯ	-196
▁ᓵ	-197
▁ᐯᔑᒃ	-198
▁ᑭᑮ	-199
▁ᒋᓴᓲ	-200
ᑕᔑ	-201
▁ᑳᑎᐯᒋᑫ	-202
▁ᔑ	-203
▁ᒦᓇᐙ	-204
ᓈᒡ	-205
▁ᐌᑎ	-206
ᓴᓐ	-207
▁ᐙ	-208
ᐃᑰ	-209
ᓈᑾ	-210
▁ᑭᑭ	-211
▁ᐃᐌ	-212
ᑭᓯ	-213
▁ᐊᑮᕽ	-214
ᑕᐙ	-215
▁ᐹ	-216
ᐆᑌ	-217
ᒣᒃ	-218
ᓇᒥᐁᐎ	-219
ᑕᒥ	-220
ᓈᐙ	-221
ᕒᐊ	-222
ᐎᓯ	-223
ᑕᒧᐙᒡ	-224
▁ᐋᐱ	-225
ᒋᑳᑌ	-226
▁ᑳᐅᒋ	-227
ᐐᒌ	-228
ᓇᑰ	-229
▁ᐆᑌ	-230
▁ᐯᒫᑎᓯ	-231
ᑕᒻ	-232
▁ᑳᔑ	-233
ᑲᓅ	-234
▁ᐃᒫ	-235
ᐱᒫ	-236
ᔥᒀ	-237
▁ᒨ	-238
ᑎᓱ	-239
ᑖᑾ	-240
▁ᐃᐃᐌ	-241
ᑕᐌ	-242
▁ᑫᑯ	-243
ᒥᓄ	-244
▁ᓈ	-245
ᑲᑴ	-246
ᐃᔑᒋᑫ	-247
ᐗᒃ᙮	-248
▁ᐅᔕ	-249
▁ᐁᑳ	-250
ᑭᐃ	-251
ᑯᒻ	-252
ᓇᔓ	-253
ᓂᑯ	-254
ᑕᐎ	-255
ᒋᒧ	-256
ᓈᕽ	-257
ᑐᒃ	-258
ᐲᐃ	-259
ᑕᒃ	-260
ᑳᓱ	-261
ᔦᒃ᙮	-262
ᓈᑯᓯ	-263
ᐎᓇᓐ	-264
▁ᑳᐊᔮ	-265
ᒋᐊ	-266
▁ᓅᑯᒻ	-267
▁ᓂᑲ	-268
ᔕᒃ	-269
▁ᐯᔑᑾᓐ	-270
ᓇᔓᐌ	-271
▁ᐄᑐᒃ	-272
▁ᐅᑯᓯ	-273
ᓰᓐ	-274
ᓀᒃ	-275
▁ᒋᓴᓲᓐ	-276
ᒥᓐᒡ	-277
▁ᐃᑴ	-278
▁ᑮᓐ	-279
▁ᑯᑕᒃ	-280
ᑌᑌ	-281
ᕒᐃ	-282
ᑌᐺᑕᒨ	-283
▁ᑮᐃᔑ	-284
ᒫᑫ	-285
▁ᔑᑾ	-286
ᑎᑫ	-287
▁ᐋᐱᒋ	-288
ᔑᑲ	-289
▁ᑌ	-290
ᒫᒡ	-291
ᓇᐃ	-292
ᑯᔑ	-293
ᑯᐙ	-294
ᑕᒪᐎ	-295
ᒪᐙᑲᓇ	-296
▁ᐅᑭᑭᓄᐊ	-297
ᔥᑫ	-298
ᑕᒣᒃ	-299
ᓂᑰ	-300
ᓯᒃ	-301
ᕒᐆ	-302
ᑲᔥᑭ	-303
ᑭᐸᓐ	-304
ᔮᕽ	-305
ᓇᑰᒃ	-306
▁ᑭᒋᐊ	-307
ᐅᔑ	-308
ᐃᔖ	-309
ᓇᕽ	-310
ᓐᒡ	-311
ᐎᓂᐙ	-312
▁ᑾᔭ	-313
ᓈᓂ	-314
▁ᐅᐌ	-315
▁ᐁᐃᔑ	-316
ᓇᐌ	-317
ᐃᓀ	-318
▁ᐅᐅᒫ	-319
▁ᔔ	-320
▁ᑳᐊ	-321
▁᙮	-322
ᔥᑲᐎ	-323
ᐱᓯ	-324
ᔭᕽ	-325
ᑕᒪᐙ	-326
ᓇᒥᐋ	-327
ᒪᐎ	-328
ᐃᓈᒡ	-329
▁ᐃᑭᑐ	-330
ᒥᑰ	-331
ᑳᓐ	-332
ᓂᑖ	-333
▁ᑫᑮ	-334
ᒥᕽ	-335
ᐗᕽ	-336
ᑖᓐ	-337
ᐎᓐᑦ	-338
▁ᐱᑯ	-339
▁ᑲᑴ	-340
▁ᑳᑎᐯᒋᑫᒡ	-341
▁ᐐᑳ	-342
▁ᐐᑫ	-343
▁ᒥᓯᐌ	-344
ᐅᑭᒫ	-345
▁ᐅᑮᐃᑰ	-346
ᓇᐎᓐᑦ	-347
▁ᐅᑕᒑ	-348
ᐐᒋ	-349
ᒪᓐ	-350
▁ᒋᐅᒋ	-351
ᐱᒥ	-352
ᑎᓰ	-353
▁ᐁᑮᐃᔑ	-354
▁ᐁᐊ	-355
ᓃᑳ	-356
▁ᐋᓂ	-357
▁ᐌᑯ	-358
▁ᒫᐗᒡ	-359
ᒀᑕ	-360
▁ᒋᐃᔑ	-361
ᒻ᙮	-362
ᓈᑯ	-363
ᑭᑑ	-364
▁ᐊᐊᐌ	-365
ᔮᐱ	-366
▁ᐅᑖ	-367
▁ᐱᒫᑎᓯ	-368
ᓂᐳ	-369
▁ᐅᓄ	-370
▁ᑭᑫ	-371
▁ᑳᑮᐅᒋ	-372
ᑲᓂᐎ	-373
ᑕᒥᓂᒡ	-374
ᓅᓐ	-375
▁ᐃᔑᒋᑫ	-376
ᑮᐌ	-377
ᐸᑭᑎ	-378
ᑯᓂᑫ	-379
▁ᑫᐅᒋ	-380
▁ᑕᑲ	-381
▁ᐅᑑ	-382
▁ᐅᐅᐌ	-383
ᓃᕽ	-384
ᑕᒫᑫ	-385
▁ᓂᑎ	-386
▁ᐅᓇᔓᐌ	-387
▁ᑭᒋᐊᓇᒥᐁᐎ	-388
ᑕᓐ	-389
ᔭᐄ	-390
▁ᐋᓇ	-391
▁ᐙᐸ	-392
▁ᐊᐌᓀᓐ	-393
▁ᒋᐊ	-394
ᒋᒥ	-395
▁ᐃᓈ	-396
▁ᑲᔦ᙮	-397
▁ᒉ	-398
▁ᑾᔭᒃ	-399
▁ᓇᐗᒡ	-400
ᑕᓰ	-401
ᑭᐌ	-402
ᓬᐃ	-403
▁ᐸᑭᑎ	-404
▁ᑫᔮᐱ	-405
ᑭᑌ	-406
ᒫᓐ	-407
▁ᒣᒀ	-408
ᓯᒀ	-409
▁ᑆ	-410
ᔮᓐ᙮	-411
▁ᐌᒋ	-412
▁ᑭᔐᒪᓂᑑᓐ᙮	-413
▁ᑮᐃᑭᑐ᙮	-414
ᐋᐸ	-415
ᐱᐗᐞ	-416
▁ᑖ	-417
▁ᐅᑌᐺᑕᒨ	-418
ᔭᐋ	-419
▁ᒞ	-420
ᐸᐎ	-421
ᐗᔑ	-422
ᓂᒃ᙮	-423
▁ᐅᑮᐃᓈᐞ᙮	-424
ᐋᒡ	-425
▁ᐁᐅ	-426
▁ᐗᐊ	-427
▁ᑲᓅ	-428
▁ᒨᔕᒃ	-429
▁ᑭᑭᓄᐊ	-430
▁ᑫᔑ	-431
ᐲᒋ	-432
ᒥᑯ	-433
ᓄᐎ	-434
ᐗᓈ	-435
ᐸᐃ	-436
ᐲᐃᑳᑌ	-437
▁ᐅᑭᑭᓄᐊᒪᐙᑲᓇ	-438
ᔑᓐ	-439
ᑕᒧᐎᓐ	-440
▁ᐁᑮᐊ	-441
▁ᑮᐊᓂ	-442
▁ᐃᓇᔥᑫ	-443
ᐃᓇ	-444
ᒫᒌ	-445
▁ᒪᒋᐊ	-446
▁ᓃᐱᐗᐞ	-447
▁ᑭᒋᑮᔑ	-448
ᑲᐊ	-449
▁ᐌᑯᓀᓐ	-450
▁ᒌ	-451
ᐗᔑᒣ	-452
▁ᑭᐐ	-453
▁ᔖ	-454
ᑕᒫᓐ	-455
ᑎᐹ	-456
ᓈᓯ	-457
ᓭᒃ	-458
ᒪᒋᑑ	-459
▁ᒦᐃ	-460
ᐙᐱ	-461
ᑳᐃ	-462
▁ᐆᑌᓈᕽ	-463
▁ᐊᐗᔑᒣ	-464
ᐯᔑ	-465
▁ᐅᐐ	-466
▁ᐅᑯ	-467
ᒥᓂ	-468
ᑌᐺᔦ	-469
ᓂᑎᓱ	-470
ᓂᔕᐙ	-471
▁ᐁᐸ	-472
▁ᐊᐎᔭᒃ	-473
▁ᒋᐅ	-474
ᓂᑳᓱ	-475
▁ᐲᑕ	-476
ᐐᒌᐎ	-477
ᓂᔕᐅ	-478
▁ᐃᓀᑖᑯᓯ	-479
▁ᐅᑮᐃᓈᓐ᙮	-480
▁ᑳᑮᐅ	-481
ᒫᑲᓂ	-482
▁ᐁᒐ	-483
▁ᔔᓂ	-484
▁ᐋᓂᑕ	-485
ᑲᓇᓐ	-486
▁ᓂᑖ	-487
ᒫᒃ	-488
▁ᒋᐐ	-489
▁ᑳᑕᔑ	-490
ᑎᕽ	-491
ᑏᓄ	-492
ᓄᑮᐋ	-493
ᓂᓂᒃ᙮	-494
ᐃᑯ	-495
ᑰᓐ	-496
ᑑᒡ	-497
ᓂᑳᑌ	-498
▁ᐱᓵ	-499
▁ᑮᐅ	-500
▁ᒪᔮ	-501
ᒥᑲ	-502
▁ᓭ	-503
ᑎᐱ	-504
ᐙᐞ	-505
▁ᑭᑭᑫ	-506
ᐃᑭᑐᒡ	-507
ᑳᓀ	-508
ᓂᔥ	-509
ᐌᓂᐗᒃ	-510
▁ᐅᑭᑭᓄᐊᒪᐙᑲᓇᐞ	-511
ᒪᒋ	-512
ᓴᓬᐊ	-513
▁ᑮᐅᒋ	-514
▁ᑭᑖ	-515
ᑲᒥᑯᕽ	-516
▁ᐅᑮᐃᔑ	-517
▁ᐁᐱ	-518
▁ᑭᑑ	-519
▁ᐊᐎᔭᓐ	-520
ᓯᓄ	-521
ᓇᓐ᙮	-522
ᓯᓇᐃ	-523
ᑫᒃ	-524
ᓵᑭᐃ	-525
ᐗᓐ᙮	-526
ᓂᑫ	-527
▁ᑫᐃᔑ	-528
ᒥᓍ	-529
▁ᐅᒫ	-530
▁ᑳᐱ	-531
ᐌᒃ	-532
ᓯᓂ	-533
▁ᐁᐊᓂ	-534
ᓈᐸ	-535
▁ᐊᐎᔭᐞ	-536
▁ᐅᑯᓯᓴᓐ	-537
▁ᐯᒫᑎᓯᐙᒡ	-538
ᓂᒧ	-539
ᐱᒫᒋᐃ	-540
ᑭᓐ᙮	-541
▁ᐅᑎᔑ	-542
▁ᑭᒋᐅᑭᒫ	-543
ᑖᑯ	-544
ᒋᑯ	-545
ᓯᐌᒃ	-546
▁ᑮᐊᔮ	-547
▁ᑲᔥᑭ	-548
▁ᒉᕒᐆ	-549
▁ᒉᕒᐆᓴᓬᐊ	-550
ᒦᓂ	-551
ᓯᐙ	-552
ᔑᒃ	-553
▁ᒫᒑ	-554
ᔥᑲᐎᓰ	-555
ᓇᑲ	-556
ᑲᓂᕽ	-557
▁ᑆᓬ	-558
▁ᒋᑮ	-559
▁ᐅᑭᒋ	-560
▁ᑳᑮᐊ	-561
▁ᐯᒫᑎᓯᓂᒡ	-562
ᓈᑲ	-563
ᔥᑯ	-564
▁ᐊᒦ	-565
ᕒᐃᔭ	-566
▁ᑮᐊ	-567
ᐹᒋᒧ	-568
▁ᑳᐃᓈᒡ	-569
▁ᐊᐱ	-570
▁ᑭᒋᑮᔑᑯᕽ	-571
ᓭᓂᒃ	-572
▁ᓂᓯ	-573
▁ᐲᓂᔥ	-574
▁ᑫᑰᓂᓂ	-575
▁ᒥᑖ	-576
ᐸᐊ	-577
▁ᒥᓍ	-578
ᐌᑖᑯᓯ	-579
ᑎᐯᒋᑫ	-580
ᒪᑲᒃ	-581
▁ᐃᓴ	-582
▁ᐃᔖ	-583
▁ᒋᓴᓲᓐ᙮	-584
ᓯᔅ	-585
ᓈᑾᒃ	-586
▁ᐃᓇᑫ	-587
ᒫᐗ	-588
ᓵᑭ	-589
▁ᐃᔥᒀ	-590
▁ᐸᑳᓐ	-591
▁ᒎᐗᒃ	-592
▁ᒥᓂᒃ	-593
ᑯᕽ᙮	-594
▁ᑎᓄ	-595
ᑎᐯᓂᒥ	-596
ᒋᐋ	-597
ᐌᓂᒥ	-598
▁	-599
ᓂ	-600
ᐃ	-601
ᓐ	-602
ᑭ	-603
ᑕ	-604
ᒋ	-605
ᑮ	-606
ᑳ	-607
ᐅ	-608
ᐊ	-609
ᑲ	-610
ᒡ	-611
ᒃ	-612
ᔥ	-613
ᔑ	-614
ᐙ	-615
᙮	-616
ᓇ	-617
ᐎ	-618
,	-619
ᐁ	-620
ᒫ	-621
ᑯ	-622
ᑫ	-623
ᓯ	-624
ᒥ	-625
ᑎ	-626
ᐱ	-627
ᐌ	-628
ᒪ	-629
ᐐ	-630
ᓈ	-631
ᕽ	-632
ᐗ	-633
ᒦ	-634
ᐸ	-635
ᔦ	-636
ᐋ	-637
ᑑ	-638
ᑌ	-639
ᑖ	-640
ᓴ	-641
ᓃ	-642
ᔮ	-643
ᔭ	-644
ᑰ	-645
ᐯ	-646
ᓀ	-647
ᐲ	-648
ᐞ	-649
ᓄ	-650
ᑾ	-651
ᔐ	-652
ᓰ	-653
ᑐ	-654
ᔅ	-655
ᓅ	-656
ᔕ	-657
ᒧ	-658
ᒻ	-659
ᒀ	-660
:	-661
ᑴ	-662
ᒌ	-663
ᐹ	-664
ᓱ	-665
ᓭ	-666
ᒣ	-667
ᓵ	-668
ᓬ	-669
ᕒ	-670
ᐺ	-671
ᒨ	-672
ᒑ	-673
ᔖ	-674
ᐄ	-675
?	-676
ᐆ	-677
ᔓ	-678
!	-679
ᒎ	-680
ᐴ	-681
X	-682
ᑦ	-683
ᓲ	-684
ᑣ	-685
ᐳ	-686
ᔒ	-687
ᔔ	-688
ᓉ	-689
ᑏ	-690
ᓍ	-691
ᒐ	-692
ᑆ	-693
ᐤ	-694
ᒉ	-695
ᑸ	-696
ᒞ	-697
ᔫ	-698
ᔣ	-699
ᑉ	-700
ᔨ	-701
0	-702
ᔂ	-703
ᔗ	-704
;	-705
ᑗ	-706
ᔩ	-707
2	-708
ᑶ	-709
3	-710
ᓶ	-711
1	-712
ᔪ	-713
4	-714
7	-715
ᒬ	-716
ᒸ	-717
ᓋ	-718
ᐾ	-719
ᔛ	-720
ᒶ	-721
5	-722
ᒍ	-723
–	-724
8	-725
ᔀ	-726
ᔾ	-727
6	-728
9	-729
ᔡ	-730
(	-731
)	-732
.	-733
x	-734
"	-735
/	-736
Z	-737
[	-738
]	-739
a	-740
u	-741
~	-742
ᐧ	-743
ᐼ	-744
ᑡ	-745
ᒒ	-746
