<pad>	0
</s>	0
<unk>	0
,	-2.62026
.	-3.62654
▁	-4.14307
:	-4.34109
;	-4.38325
▁“	-4.43037
▁na	-4.78824
▁u	-4.83774
▁e	-4.91945
a	-4.94346
ni	-4.94721
.”	-5.0461
▁ukuba	-5.13109
-	-5.13156
▁i	-5.17792
▁ba	-5.20675
yo	-5.22115
▁o	-5.27783
▁ukuthi	-5.31338
▁ku	-5.33889
▁ngokuba	-5.34687
▁wa	-5.39046
e	-5.4056
▁Kepha	-5.46991
▁wathi	-5.48162
ke	-5.49498
▁kepha	-5.51355
▁kuye	-5.63937
▁a	-5.6536
▁uku	-5.65801
?	-5.71164
nga	-5.71987
▁Ngokuba	-5.73745
▁si	-5.76642
▁U	-5.79026
▁be	-5.80635
▁aba	-5.80766
▁ngi	-5.8259
▁ng	-5.83416
▁ni	-5.83534
▁kubo	-5.95837
o	-5.97712
▁uJesu	-5.98469
la	-5.98708
le	-5.98964
▁no	-6.01493
▁uma	-6.01572
▁uNkulunkulu	-6.01919
na	-6.02693
wa	-6.05197
si	-6.05559
ku	-6.09942
zi	-6.11125
ba	-6.12192
▁bonke	-6.13183
li	-6.13214
▁khona	-6.13559
▁n	-6.14808
▁oku	-6.16262
▁kini	-6.16883
▁‘	-6.19126
▁kodwa	-6.2047
▁kwa	-6.21097
lo	-6.24041
se	-6.24332
m	-6.27371
▁konke	-6.27746
▁ne	-6.28459
?”	-6.28922
▁ukuze	-6.29925
n	-6.35952
▁ya	-6.36235
▁noku	-6.37611
▁nga	-6.3977
▁lokho	-6.39816
▁noma	-6.40271
▁ngoku	-6.41406
we	-6.45028
ne	-6.45163
enxa	-6.46371
▁bathi	-6.46744
▁kaNkulunkulu	-6.48123
ka	-6.52203
za	-6.52244
ze	-6.53322
▁ka	-6.54827
u	-6.56253
▁lapho	-6.582
i	-6.58245
be	-6.61263
▁kanye	-6.61789
▁zi	-6.61802
▁kube	-6.63822
▁Ngakho	-6.63879
▁lokhu	-6.6411
▁yakhe	-6.64544
sa	-6.65069
▁sa	-6.65095
kho	-6.65548
yi	-6.65694
▁yena	-6.66345
Jesu	-6.67452
▁esi	-6.67514
U	-6.6923
▁umuntu	-6.6946
thi	-6.697
▁Ba	-6.75322
▁futhi	-6.75588
▁nina	-6.75657
ya	-6.75985
fika	-6.76326
.’	-6.7678
▁Kwathi	-6.79053
▁kwaba	-6.79428
▁li	-6.79648
▁izwi	-6.81064
weni	-6.815
▁mina	-6.82503
▁phakathi	-6.83106
▁ezi	-6.83441
▁bakhe	-6.84507
▁nge	-6.84513
▁phambi	-6.85365
▁naye	-6.87534
▁kwakhe	-6.88137
▁eli	-6.88549
vela	-6.90388
▁kakhulu	-6.9052
khuluma	-6.90633
▁kwenu	-6.92936
▁phezu	-6.93745
▁iNkosi	-6.93905
▁ese	-6.94311
mi	-6.95404
▁yi	-6.9545
▁kwe	-6.96395
▁ngo	-6.96668
▁ngithi	-6.97298
▁zonke	-6.99268
▁yini	-7.00579
▁y	-7.01703
zwa	-7.02149
▁Khona	-7.02428
▁I	-7.04435
ngi	-7.04633
sho	-7.05228
ma	-7.05793
▁kwabo	-7.06148
▁A	-7.07343
▁naba	-7.08346
khona	-7.08547
ngena	-7.0963
▁kimi	-7.09841
▁muntu	-7.09917
so	-7.10573
▁waye	-7.1063
hlala	-7.11567
▁waba	-7.11868
▁babe	-7.11909
▁kuNkulunkulu	-7.12773
hla	-7.14024
▁uya	-7.14543
thanda	-7.15012
▁nalowo	-7.15263
phi	-7.16588
bi	-7.16601
▁abe	-7.17062
lwa	-7.17301
▁Wa	-7.17478
nye	-7.17482
▁Kristu	-7.17515
▁Uma	-7.17819
▁za	-7.19177
▁lo	-7.19272
▁enga	-7.19345
▁nani	-7.19671
ile	-7.20067
▁njengalokh	-7.20628
▁phansi	-7.20718
lu	-7.21296
bu	-7.21402
nge	-7.22155
▁uyaku	-7.22178
▁nami	-7.22268
▁wena	-7.22703
▁nxa	-7.2271
Nkosi	-7.24618
funa	-7.25128
▁se	-7.25221
▁isi	-7.25791
▁omunye	-7.25814
▁ngakho	-7.26485
▁nabo	-7.27228
dla	-7.27309
mva	-7.28839
▁kuze	-7.29531
▁lakhe	-7.29542
▁kuwe	-7.29844
▁ezulwini	-7.3035
▁abanye	-7.30664
▁N	-7.30826
▁owa	-7.3146
bona	-7.31466
tha	-7.31695
eni	-7.32086
▁abafundi	-7.32419
the	-7.33048
▁Wathi	-7.33895
hamba	-7.33958
▁lowo	-7.34323
▁abantu	-7.3454
▁yami	-7.34941
▁la	-7.36231
▁kuphela	-7.36425
▁njalo	-7.37901
fa	-7.38345
kwazi	-7.38466
bo	-7.38468
▁em	-7.38843
▁ngaye	-7.39059
▁l	-7.39598
kholwa	-7.39632
N	-7.40608
▁um	-7.41075
▁angi	-7.41209
▁Ku	-7.42086
lowo	-7.42565
▁zakhe	-7.43305
▁ama	-7.43442
▁lu	-7.4515
ela	-7.45222
khonza	-7.45372
▁s	-7.45387
▁iNdodana	-7.45441
mbe	-7.45649
▁masinyane	-7.46083
▁omkhulu	-7.46132
▁asi	-7.46364
▁yethu	-7.47079
▁kwami	-7.47358
▁ye	-7.47671
phuma	-7.47936
▁izi	-7.4834
▁ngokuthi	-7.48347
hlezi	-7.48413
fanele	-7.48678
wu	-7.4884
pha	-7.48867
▁uKristu	-7.49022
▁yilowo	-7.49071
▁aka	-7.49642
▁manje	-7.4995
▁njengokuba	-7.50136
▁lutho	-7.50176
ngo	-7.502
▁aku	-7.51722
▁nguye	-7.52648
hle	-7.53416
kha	-7.53609
▁eJerusalema	-7.54012
▁ababe	-7.54113
ye	-7.54624
▁kuyo	-7.54679
▁Kodwa	-7.55094
▁wam	-7.5547
▁we	-7.56976
▁oNgcwele	-7.57153
▁thina	-7.58164
▁uMoya	-7.58301
▁bazalwane	-7.5848
▁E	-7.5909
,”	-7.59112
▁yakho	-7.5918
ng	-7.59622
thu	-7.5964
▁ethi	-7.59909
▁w	-7.60376
▁Jesu	-7.61189
▁yomuntu	-7.61438
▁ezweni	-7.61458
▁ani	-7.61812
▁ngiya	-7.62532
ki	-7.62544
▁kanjani	-7.62555
leyo	-7.62637
▁wakhe	-7.62668
▁uPawulu	-7.63651
▁Ngalokho	-7.6379
▁eni	-7.63866
▁ninga	-7.63943
M	-7.64541
beka	-7.64679
▁labo	-7.64687
▁wami	-7.64815
▁likaNkulunkulu	-7.64828
A	-7.6569
▁yonke	-7.65977
I	-7.66005
▁Wayesethi	-7.66157
kwenza	-7.66846
▁ko	-7.66985
▁waphendula	-7.67465
▁yoku	-7.68106
▁sakhe	-7.68338
▁izwe	-7.68755
melwe	-7.69484
▁kwakho	-7.70692
▁kanjalo	-7.70786
▁igama	-7.70939
▁yathi	-7.71151
▁kulo	-7.71264
Israyeli	-7.71891
thiwa	-7.71914
shumayela	-7.71938
▁endlini	-7.71961
▁z	-7.72003
▁le	-7.72022
▁abaningi	-7.72225
▁ngaphandle	-7.72413
,’	-7.72451
▁kwaku	-7.72904
▁eNkosini	-7.73134
me	-7.73375
▁sebe	-7.7369
▁kukhona	-7.7422
▁yenu	-7.74387
▁bam	-7.7511
khuleka	-7.75364
▁nambili	-7.75642
▁Wayese	-7.76068
▁wethu	-7.76104
▁munye	-7.76113
▁zabo	-7.76183
▁ngu	-7.76875
▁lonke	-7.76954
ko	-7.76982
▁umthetho	-7.77255
▁ayi	-7.77454
ngu	-7.78002
▁okukhulu	-7.78028
qala	-7.78543
▁Ngi	-7.78678
▁O	-7.7888
khulu	-7.79346
▁kwabafileyo	-7.7957
lwe	-7.79719
▁ngiyaku	-7.80539
▁okuhle	-7.80575
fundisa	-7.80778
▁zenu	-7.80877
▁ivangeli	-7.80926
mashumi	-7.81202
Abrahama	-7.82222
▁uzaku	-7.82379
▁nokuthi	-7.8274
▁kukaNkulunkulu	-7.83774
▁abaJuda	-7.83789
zo	-7.84151
▁emhlabeni	-7.84981
kwe	-7.85251
s	-7.85472
thuma	-7.85521
biza	-7.85853
▁nezi	-7.86019
▁waya	-7.8622
▁amandla	-7.86667
▁lami	-7.86701
yala	-7.8675
leli	-7.87082
zwe	-7.87114
▁ngalo	-7.87316
zwi	-7.87346
phe	-7.87396
▁nang	-7.8769
phendula	-7.8793
▁nase	-7.88223
nika	-7.88289
▁abakhulu	-7.88416
▁eku	-7.88953
Ngi	-7.89095
buye	-7.89178
▁ngezwi	-7.89369
▁lapha	-7.89548
▁nokuba	-7.89667
▁baya	-7.89867
wo	-7.9068
▁ethempelini	-7.90742
▁uPetru	-7.90818
▁anga	-7.90978
▁wayese	-7.91056
▁maka	-7.91115
▁bayaku	-7.91707
kwa	-7.91901
thela	-7.91929
▁imisebenzi	-7.92249
▁uqobo	-7.92309
lele	-7.92331
▁isikhathi	-7.9254
▁umbuso	-7.92621
▁bethi	-7.93246
Ku	-7.93402
▁ngani	-7.93471
O	-7.93609
▁ze	-7.9388
▁siya	-7.93894
yaku	-7.93914
yakuba	-7.9429
njalo	-7.95022
▁—	-7.95284
▁isixuku	-7.95554
thatha	-7.95558
▁kuKristu	-7.96042
lokhu	-7.96592
muntu	-7.96934
Nkulunkulu	-7.97815
Kepha	-7.98406
!	-7.98427
▁Ese	-7.98672
mba	-7.99208
▁laba	-7.99637
▁yabo	-7.997
▁engi	-7.99757
▁nathi	-7.99823
▁k	-8
▁koku	-8.00277
Uma	-8.00351
▁umusa	-8.00572
mu	-8.00697
▁wo	-8.01081
▁loku	-8.01382
lelo	-8.01396
▁Nga	-8.01551
▁wonke	-8.01719
fakaza	-8.01754
cela	-8.01867
▁bheka	-8.02091
▁ukuphila	-8.02157
mazi	-8.02389
▁nibe	-8.02887
gcina	-8.02904
su	-8.03186
zaku	-8.03319
▁wazi	-8.03431
▁nonke	-8.03496
▁ngaba	-8.03983
▁ukudla	-8.04243
▁awu	-8.04521
▁wakho	-8.05028
▁sonke	-8.05087
tho	-8.05225
▁”	-8.05389
▁Na	-8.06085
Ndodana	-8.06188
▁kuqala	-8.06216
▁ngosuku	-8.06828
▁kukho	-8.06862
▁nguNkulunkulu	-8.06992
▁imi	-8.06997
▁kahle	-8.0702
▁indoda	-8.07072
▁kwethu	-8.07074
▁uBaba	-8.07093
ngathi	-8.07108
▁izinsuku	-8.07218
▁sesi	-8.07324
sha	-8.07362
▁kuwo	-8.07499
▁baba	-8.07732
lezo	-8.0783
▁onga	-8.07883
▁elikhulu	-8.08309
▁bona	-8.08607
▁indodana	-8.08768
▁kungabi	-8.08849
▁olu	-8.09275
Si	-8.09748
▁zinto	-8.10184
▁enye	-8.10345
▁kubantu	-8.10418
▁naku	-8.10546
mo	-8.10703
▁Bathi	-8.10752
▁njengo	-8.11045
▁ukukholwa	-8.11203
▁sikhathi	-8.11383
▁onke	-8.1154
▁bami	-8.11663
▁soku	-8.11859
!”	-8.12138
▁Kuthe	-8.12259
▁ingelosi	-8.12633
mandla	-8.12962
qonda	-8.13332
nikela	-8.13376
▁unga	-8.13974
vuma	-8.14218
zwile	-8.14356
▁Yi	-8.146
muka	-8.15176
hlanganyel	-8.15183
khipha	-8.1521
Ni	-8.15784
dlula	-8.15879
z	-8.16216
▁lakho	-8.1705
▁eziningi	-8.17899
▁namandla	-8.1808
siye	-8.18107
▁uthi	-8.18219
▁niyaku	-8.18388
▁aye	-8.18429
▁Bheka	-8.18436
ngazi	-8.18488
▁phakade	-8.18594
▁esa	-8.186
labo	-8.18635
qinisile	-8.191
khu	-8.19124
ngene	-8.193
▁esikhulu	-8.19331
thokoza	-8.19335
ningi	-8.19466
vuka	-8.19664
▁amabili	-8.19753
▁emzini	-8.19756
▁sobukhosi	-8.19757
▁kinina	-8.19793
fike	-8.19812
amazwi	-8.20063
▁kungathi	-8.20694
fumana	-8.20843
E	-8.21233
▁eziyishumi	-8.21754
bulala	-8.218
▁amehlo	-8.21844
fana	-8.2187
ando	-8.2205
▁othile	-8.22089
vu	-8.22099
sebenza	-8.22228
▁ngalokho	-8.22237
f	-8.22276
▁base	-8.22411
▁abo	-8.22566
▁ukufa	-8.22677
▁nawe	-8.22679
minyaka	-8.22946
▁kuthi	-8.22983
▁owaye	-8.23093
iwe	-8.23545
fikile	-8.23648
S	-8.23706
ngelosi	-8.23749
▁b	-8.23836
de	-8.23887
andleni	-8.24144
▁K	-8.24809
▁inkosi	-8.25245
lesi	-8.25628
▁mhla	-8.25765
▁emi	-8.25779
khala	-8.25952
▁okuphakade	-8.2599
▁abantwana	-8.26168
▁funa	-8.26215
▁ngokukholwa	-8.2629
▁lwe	-8.26467
bafundi	-8.2697
▁egam	-8.28061
▁iqiniso	-8.28127
khanda	-8.28146
Lo	-8.28348
▁umoya	-8.28449
▁indlu	-8.28485
▁m	-8.28505
▁benga	-8.28568
▁kithi	-8.28571
landela	-8.28829
Kwase	-8.28958
phila	-8.29078
▁uyi	-8.29207
da	-8.29408
▁so	-8.29626
▁yo	-8.29649
nda	-8.30105
▁eziyisikhombisa	-8.30178
▁kwalokho	-8.30246
▁ngaphambili	-8.30264
▁ababili	-8.30336
▁banga	-8.30381
K	-8.30535
▁Kwa	-8.30666
kile	-8.3085
▁njeng	-8.30912
hl	-8.3182
ndi	-8.3202
gcwele	-8.32299
sondela	-8.32389
▁sibe	-8.32482
zinsuku	-8.32523
▁weNkosi	-8.32548
▁Nkosi	-8.32699
▁owesifazane	-8.32713
▁kulotshiwe	-8.32749
bonga	-8.32874
Ba	-8.33029
ngcwele	-8.33053
▁lona	-8.33179
kubona	-8.33254
▁niya	-8.33298
shiya	-8.33442
▁sami	-8.33692
▁wabo	-8.33893
k	-8.33976
▁zoku	-8.33989
▁nginga	-8.34638
▁yebo	-8.34811
▁kunge	-8.34814
suka	-8.34899
▁ngoMoya	-8.34955
khe	-8.35052
gama	-8.35232
▁abanga	-8.35808
▁okwa	-8.35912
busi	-8.35925
▁ma	-8.35998
▁wangena	-8.36285
Johane	-8.36623
namandla	-8.36649
▁lezo	-8.36948
zinkulungwane	-8.36999
▁esiphambanweni	-8.36999
▁umzimba	-8.36999
Bheka	-8.37009
▁bakho	-8.37098
▁izono	-8.37127
▁leNkosi	-8.37143
▁enda	-8.37536
Yi	-8.37653
▁uJohane	-8.37804
letha	-8.38212
▁nazi	-8.38428
▁Bas	-8.38535
thumela	-8.38563
busweni	-8.38625
▁yayo	-8.38786
▁amadoda	-8.39238
buthakathaka	-8.39276
▁am	-8.39344
bonakala	-8.39414
▁izingubo	-8.39497
▁Kanjalo	-8.39522
mvu	-8.39529
▁Ngase	-8.39641
nde	-8.39924
▁nangoku	-8.39995
▁ezinga	-8.40194
bheka	-8.40211
▁abayi	-8.40284
swa	-8.40856
▁ubu	-8.40876
kwenze	-8.40886
▁nje	-8.41105
▁es	-8.41211
yazi	-8.41357
busisiwe	-8.41367
▁kunga	-8.41449
Wena	-8.41827
▁wezulu	-8.41848
▁ibandla	-8.42082
▁akhe	-8.42189
phatha	-8.42207
mbona	-8.42762
memeza	-8.42958
▁nithi	-8.43659
▁lwa	-8.43948
▁sasi	-8.44064
qa	-8.44222
▁Sebe	-8.44385
themba	-8.44391
▁izandla	-8.44443
▁sikaNkulunkulu	-8.44551
sebenzi	-8.44565
▁akakho	-8.44579
▁umzalwane	-8.44591
▁beza	-8.44643
ndlu	-8.44661
▁ize	-8.44673
dle	-8.44721
▁No	-8.44791
bantwana	-8.44903
▁ube	-8.45024
umpristi	-8.4529
bonile	-8.45498
lela	-8.4556
▁eya	-8.46114
▁ngiku	-8.4621
phika	-8.46433
▁kuyi	-8.46434
phonsa	-8.46883
▁nange	-8.4695
Mfundisi	-8.46978
▁omuhle	-8.47038
?’	-8.47056
▁nesi	-8.4708
▁kalokhu	-8.47119
kuzwa	-8.47223
▁akukho	-8.47302
▁kuzo	-8.48053
▁zami	-8.48108
tshe	-8.48148
▁kun	-8.48269
▁kw	-8.49226
▁uYise	-8.49516
▁yona	-8.4952
▁bazi	-8.49657
musa	-8.49688
▁Futhi	-8.49716
▁babo	-8.50125
▁en	-8.51081
sikhathi	-8.51146
sezulwini	-8.51693
▁ngayo	-8.51706
yiNdodana	-8.51953
▁wayi	-8.51991
▁seku	-8.52213
hlu	-8.52402
▁lokuthi	-8.5242
▁ukulunga	-8.52464
▁inkazimulo	-8.52621
▁zakho	-8.52715
▁kubafundi	-8.52841
zelwe	-8.53039
▁ngubani	-8.53112
sokunene	-8.53298
Ngiqinisile	-8.53379
phezu	-8.53379
onke	-8.53846
lani	-8.5403
▁kuyaku	-8.54037
▁wabona	-8.54058
▁wahlala	-8.54127
▁lithi	-8.54429
▁int	-8.54702
thole	-8.54821
▁izithelo	-8.54996
▁kaKristu	-8.55025
▁izixuku	-8.55149
nikwa	-8.55318
kazi	-8.55471
▁nokho	-8.55559
▁othi	-8.55753
▁okubi	-8.5583
ngekho	-8.56201
▁in	-8.56245
▁wasi	-8.56306
▁njengoku	-8.56556
zalwa	-8.566
▁ena	-8.56735
▁kuya	-8.56901
mbuso	-8.56952
▁kuso	-8.57015
Mariya	-8.57034
nyama	-8.57041
kusukela	-8.57069
▁bayi	-8.57096
file	-8.57524
▁iyaku	-8.57704
shilo	-8.5771
nyeni	-8.57842
▁emkhunjini	-8.57852
▁ehlane	-8.57857
▁namalunga	-8.57865
lungile	-8.5799
▁inceku	-8.58127
▁enkulu	-8.58165
▁isizwe	-8.58252
▁amane	-8.58268
khulume	-8.58384
▁singa	-8.5842
▁zethu	-8.58468
suku	-8.58507
funda	-8.58782
▁kwathi	-8.58894
▁nango	-8.59381
abapristi	-8.59489
▁woku	-8.59955
▁azi	-8.60111
ngaba	-8.60297
lula	-8.60682
▁ngokwe	-8.60744
hlupheka	-8.60772
▁ekudleni	-8.60794
▁wayesethi	-8.61041
▁nokuthula	-8.61088
phansi	-8.61097
ga	-8.61149
▁weza	-8.61164
▁abangcwele	-8.61202
isa	-8.61693
yisa	-8.61974
Mina	-8.62145
qonde	-8.62364
▁kaba	-8.6251
▁ali	-8.62611
phela	-8.62767
nza	-8.62792
▁ngawo	-8.62852
mbi	-8.63121
▁ngize	-8.63129
ele	-8.63195
▁nabafundi	-8.63205
mthetho	-8.63315
r	-8.63362
lizwa	-8.6345
▁obu	-8.63822
▁ezintathu	-8.63824
Eliya	-8.63824
▁bodwa	-8.63838
▁umfowabo	-8.63936
▁yayi	-8.63949
▁abaprofethi	-8.63967
▁zwi	-8.64098
lalela	-8.6428
nike	-8.64425
buza	-8.64496
▁wamuka	-8.64593
xa	-8.64626
ayo	-8.64675
t	-8.64745
▁Ng	-8.64959
lotshiwe	-8.65044
▁uyise	-8.65149
lile	-8.65169
ileyo	-8.65173
sh	-8.65226
leni	-8.65236
▁yibo	-8.65333
q	-8.6534
▁izinto	-8.65941
thele	-8.65975
vula	-8.66343
sile	-8.66693
ngcebo	-8.66845
▁bu	-8.66895
▁isono	-8.66949
▁elwandle	-8.66949
▁kwabantu	-8.66961
ndaba	-8.66979
▁isandla	-8.67122
▁ezine	-8.67202
▁uthando	-8.67245
▁Kwakukhona	-8.67251
▁ngamandla	-8.67253
Maye	-8.67262
▁umprofethi	-8.67345
▁unina	-8.67389
▁Ngiya	-8.67638
▁ngaso	-8.67773
bani	-8.67807
tsha	-8.67895
▁usuku	-8.67923
▁waqala	-8.68081
busa	-8.68269
▁amanga	-8.68328
Simoni	-8.68416
hlela	-8.6868
thempeli	-8.68767
▁njenga	-8.69211
▁zinsuku	-8.69312
vi	-8.69386
gubani	-8.69395
sixuku	-8.6955
▁Bhekani	-8.69604
▁wakhuluma	-8.69672
zinhliziyo	-8.69764
c	-8.69788
▁leyo	-8.69872
di	-8.69876
▁njenge	-8.70036
▁wazal	-8.70043
▁enhliziyweni	-8.70175
▁Yena	-8.70175
▁Aba	-8.70211
▁umyalo	-8.70215
▁eGalile	-8.70259
ngabe	-8.70408
▁nakho	-8.7046
▁izulu	-8.70482
gu	-8.70588
▁lawo	-8.70648
mbethe	-8.70653
▁kambe	-8.70695
kufike	-8.70785
nto	-8.70807
▁ifa	-8.70871
▁umuzi	-8.7095
hlale	-8.70969
▁zwe	-8.71014
▁sithi	-8.71062
▁ngami	-8.71161
▁ngizaku	-8.7135
▁pho	-8.71474
▁bhekani	-8.71601
▁suku	-8.71609
fun	-8.71712
anga	-8.71727
emisebenzi	-8.71739
▁eza	-8.71904
l	-8.72021
zonda	-8.72085
▁nguku	-8.72168
▁Ngiqinisile	-8.72225
▁akusi	-8.72466
▁ukukhuluma	-8.72756
baba	-8.72983
oze	-8.73112
▁kuba	-8.73248
ge	-8.73356
profetha	-8.73508
▁ethuneni	-8.73508
▁okungukuthi	-8.73533
▁lwakhe	-8.73539
▁nama	-8.73543
limi	-8.73548
▁UPetru	-8.7358
▁ezimbili	-8.73599
▁izingelosi	-8.73601
Li	-8.7363
leso	-8.73664
▁athi	-8.73676
ngabi	-8.7371
▁abayishumi	-8.73733
▁abazalwane	-8.73736
▁isinkwa	-8.73801
▁makub	-8.73802
▁ngakwe	-8.73802
▁indlela	-8.73805
▁noJohane	-8.73864
▁noNkulunkulu	-8.74034
ho	-8.74227
▁naphakade	-8.74232
sivumelwano	-8.74295
phuza	-8.74326
▁ez	-8.74442
▁yimi	-8.74559
baningi	-8.74701
▁yayisi	-8.74736
muzi	-8.7482
▁engena	-8.75187
laba	-8.7537
▁kwase	-8.75468
▁eng	-8.75513
phethe	-8.75517
hambe	-8.75571
▁ebe	-8.75678
bhapathiza	-8.75775
phakathi	-8.76084
▁lingu	-8.7627
Filiphu	-8.76437
▁siyi	-8.76594
▁zaba	-8.76647
swe	-8.76772
▁ekukholweni	-8.76956
▁esihlalweni	-8.76956
▁kanti	-8.76959
Madoda	-8.76962
▁kwabezizwe	-8.76965
qinisa	-8.76969
nqoba	-8.76977
▁ngesandla	-8.76991
d	-8.77003
▁emihle	-8.77049
▁amademoni	-8.77176
sela	-8.77197
▁ngemisebenzi	-8.77305
▁umsebenzi	-8.77593
▁inyama	-8.77649
▁wabuye	-8.78065
▁ngibona	-8.78161
▁Bon	-8.78376
siza	-8.78506
▁utho	-8.78579
hora	-8.79108
nazi	-8.79114
▁ukwenza	-8.79402
▁layo	-8.79431
phenduka	-8.79638
vunyelw	-8.79648
▁inga	-8.79704
sindiswa	-8.79886
owenza	-8.79901
▁ukum	-8.79908
Bhekani	-8.79946
▁ebona	-8.80157
dwa	-8.80157
yise	-8.80162
kuKristu	-8.80427
ny	-8.80477
ngeni	-8.80546
▁izinyawo	-8.80549
▁ngezandla	-8.8056
seduze	-8.8057
▁kaDavide	-8.80601
▁emhlabathini	-8.80646
▁ubuso	-8.80651
▁entabeni	-8.80656
buthana	-8.80731
ngwa	-8.80739
▁inhliziyo	-8.8095
ta	-8.8096
▁kule	-8.81074
▁umntwana	-8.81133
▁njengaba	-8.81157
▁uMose	-8.81176
mukela	-8.81181
▁sakho	-8.812
▁nababhali	-8.81222
▁baze	-8.81263
▁ukuya	-8.81537
gazi	-8.81818
▁kuhle	-8.81853
baFarisi	-8.82295
fi	-8.8232
baJuda	-8.82363
moya	-8.82725
lapho	-8.82733
Ng	-8.82738
keni	-8.8278
mnika	-8.83214
▁Waba	-8.83215
boni	-8.8338
mangala	-8.83462
nxusa	-8.84047
mfanekiso	-8.84059
zisa	-8.84154
nsindiso	-8.84231
▁etilongweni	-8.84231
misa	-8.84263
▁abampofu	-8.84376
▁seni	-8.84393
phulukisa	-8.8441
khiphe	-8.84429
▁yeNkosi	-8.84498
▁wenu	-8.8455
chitha	-8.8468
▁uSathane	-8.8468
▁kuJesu	-8.84707
▁Lokho	-8.84752
▁wona	-8.84805
▁igazi	-8.84818
▁mazwi	-8.84823
kaNkulunkulu	-8.84847
▁masi	-8.84873
kude	-8.8498
▁udumo	-8.84993
faka	-8.8508
▁Ya	-8.85119
▁Be	-8.85135
phinda	-8.85143
thola	-8.85225
vuna	-8.85336
▁Yebo	-8.85351
du	-8.85409
ti	-8.85414
▁Ni	-8.85538
▁ngiyi	-8.85556
▁M	-8.86242
▁zo	-8.86303
shaya	-8.86406
ngaphandle	-8.86429
▁wenza	-8.86549
nya	-8.86605
nkazimulo	-8.86919
bele	-8.86955
▁ngini	-8.86995
khanya	-8.87244
ra	-8.87429
▁siyazi	-8.87441
hlambalaza	-8.87516
phathi	-8.87646
▁lesi	-8.87712
▁ema	-8.87784
▁uba	-8.88049
altare	-8.88077
veza	-8.88077
▁ayisikhombisa	-8.88077
funga	-8.881
ngalaleli	-8.88103
▁ezinhliziyweni	-8.88114
lunga	-8.88141
▁enhle	-8.88163
▁ngesikhathi	-8.88228
▁impela	-8.88289
enyukela	-8.88325
▁Amen	-8.88376
▁ukukhanya	-8.88435
▁indawo	-8.88451
▁kuBaba	-8.8852
▁ngazo	-8.88559
▁okunga	-8.8879
▁bamangala	-8.88845
phakade	-8.894
zange	-8.8949
w	-8.89596
ph	-8.89705
dala	-8.89809
ndle	-8.8986
▁ngibe	-8.89916
▁ngase	-8.89919
▁siyaku	-8.89926
▁nas	-8.90438
Ngakho	-8.90464
dumo	-8.90564
khumbula	-8.90734
ngayiku	-8.90889
▁Angi	-8.90932
▁sengi	-8.90991
hlobo	-8.91032
▁nom	-8.91103
cala	-8.9151
ndodakazi	-8.91714
saba	-8.91777
▁kwayo	-8.91924
fakazi	-8.91934
H	-8.92065
▁esinagogeni	-8.9208
▁izinkwa	-8.92105
▁ngesabatha	-8.92142
thwa	-8.92211
▁abafileyo	-8.92347
wela	-8.92354
▁imali	-8.92388
▁uphawu	-8.92428
▁ngama	-8.92486
▁ami	-8.92495
▁uHerode	-8.92495
▁izizwe	-8.92544
abatha	-8.92591
▁bakaNkulunkulu	-8.92681
ngegama	-8.92787
dabul	-8.92874
▁itshe	-8.92896
▁nababe	-8.92933
munye	-8.92964
aqondan	-8.93161
pho	-8.93166
ezinyawo	-8.93557
vusa	-8.93583
zala	-8.93746
ri	-8.93934
khwe	-8.94
njeng	-8.9404
▁waphuma	-8.94062
▁kuvela	-8.94082
ani	-8.94128
ce	-8.94438
nje	-8.94694
zakuba	-8.94732
loba	-8.94743
▁ab	-8.94835
▁Si	-8.94836
buka	-8.94896
▁lase	-8.94919
qo	-8.94935
▁yaba	-8.95076
▁oyaku	-8.95491
lahla	-8.95968
kusho	-8.96008
▁enyameni	-8.96244
▁iwayini	-8.96245
▁ingubo	-8.96267
▁nomhlaba	-8.96294
▁amathathu	-8.96296
mesaba	-8.96298
▁ndawonye	-8.96311
▁lukaNkulunkulu	-8.96312
▁noKristu	-8.96321
▁ngomthetho	-8.96376
kini	-8.96391
▁iya	-8.96493
▁isitsha	-8.96535
▁abathile	-8.96626
▁sizukulwane	-8.96713
▁nakanye	-8.96769
▁uPilatu	-8.96962
▁yikho	-8.96968
bapristi	-8.96996
▁ukuthula	-8.97031
;’	-8.97328
khetha	-8.97351
▁libe	-8.97443
▁eyi	-8.9748
mphendula	-8.97525
nakho	-8.97599
▁ngathi	-8.97756
▁komhlaba	-8.97818
▁Pho	-8.97874
lisa	-8.98141
▁wafa	-8.98456
lutho	-8.98477
bufakazi	-8.98504
Baba	-8.98623
elani	-8.98657
▁nanga	-8.98715
butha	-8.98822
muke	-8.98868
Pho	-8.98933
▁ziyaku	-8.99128
nze	-8.99216
kithi	-8.99282
leka	-8.99436
bela	-8.99539
▁kwavela	-8.99551
kuthula	-8.99589
thuka	-8.99609
kakhulu	-8.99632
lweni	-8.99749
▁eba	-8.99836
sazi	-9.00237
omzimba	-9.00302
▁ngokw	-9.00303
kade	-9.00483
nani	-9.005
yini	-9.00511
▁ezint	-9.00533
banga	-9.00555
zile	-9.00564
▁Khonza	-9.00592
Isaya	-9.00595
▁izinceku	-9.00636
▁ngokwenyama	-9.00654
▁yedwa	-9.00654
▁komunye	-9.00658
▁benu	-9.0069
▁ngomkhumbi	-9.00712
msebenzi	-9.00818
▁namuhla	-9.00843
▁bethu	-9.00858
▁incwadi	-9.00892
▁kaningi	-9.00925
▁kwalo	-9.00931
▁Kwaku	-9.00949
Hambani	-9.00992
▁beni	-9.00993
melana	-9.00998
▁abaFarisi	-9.0103
▁Petru	-9.01094
okwesithathu	-9.01125
nhliziyo	-9.01178
▁yizi	-9.01239
▁zathi	-9.01372
zibonga	-9.0139
▁abezizwe	-9.0146
nikele	-9.01498
egama	-9.01536
▁enu	-9.01564
▁ningaba	-9.01585
▁nabaFarisi	-9.01622
uku	-9.01684
ngabantwana	-9.01909
▁Lokhu	-9.01928
▁wathatha	-9.01933
▁linye	-9.02009
mehl	-9.021
▁nakuba	-9.02118
ubufakazi	-9.02133
▁owazi	-9.02156
hlaka	-9.02213
▁wawu	-9.02273
phume	-9.0234
▁oyi	-9.02601
▁ngisho	-9.02726
Mose	-9.02933
▁Ninga	-9.02948
▁ngezi	-9.02956
vuswa	-9.03066
▁Mina	-9.0307
▁leso	-9.03098
iswa	-9.03198
▁ange	-9.0341
▁use	-9.03726
manzi	-9.03964
▁ngaku	-9.03986
▁ithi	-9.04084
▁ngabe	-9.04322
kh	-9.04396
phelele	-9.04698
qondi	-9.04716
Angi	-9.04742
lungileyo	-9.0495
lelwa	-9.04961
phind	-9.04967
P	-9.05108
sondele	-9.05131
gcwala	-9.05137
▁kwasekuqaleni	-9.05137
▁emasinagogeni	-9.05137
▁emoyeni	-9.05138
▁umvuzo	-9.05138
▁eziyisihlanu	-9.05139
▁endleleni	-9.05143
▁ngemihla	-9.05147
▁maye	-9.05242
ncenga	-9.05246
▁emthethweni	-9.0533
ngenisa	-9.05331
nitshela	-9.05363
sukuma	-9.05421
hi	-9.05434
▁amanzi	-9.05508
▁ophilayo	-9.0552
fileyo	-9.05614
▁yiNkosi	-9.05735
▁ngabo	-9.05799
▁nenkazimulo	-9.05876
dabuka	-9.05961
▁Qha	-9.06127
ngithanda	-9.06509
kwahlulela	-9.06549
▁sika	-9.06935
manga	-9.07469
▁abu	-9.07471
tshele	-9.07749
▁ngesi	-9.07847
kela	-9.08056
ci	-9.08106
Ngokuba	-9.08271
▁nasezi	-9.08493
Pilatu	-9.08581
induna	-9.08618
makhosi	-9.0865
mdumisa	-9.08697
▁un	-9.0879
lana	-9.08857
▁sabo	-9.08979
▁W	-9.08997
mntwana	-9.09093
mncenga	-9.09103
ntand	-9.09192
qinise	-9.09209
lahle	-9.09247
Ngo	-9.09375
▁benza	-9.09539
thathu	-9.09666
boshiwe	-9.09703
▁lezi	-9.09738
bonwa	-9.09797
seGalile	-9.09811
Efesu	-9.09899
Isaka	-9.099
lungele	-9.09908
tu	-9.09909
lungisiswa	-9.09911
▁ngezilimi	-9.09917
▁Sa	-9.09927
go	-9.1
▁nalokho	-9.10032
khombisa	-9.10061
▁isibindi	-9.10089
hlakaniphileyo	-9.10102
▁Waphendula	-9.10161
muzwa	-9.102
bheke	-9.10202
▁nim	-9.10231
▁niye	-9.10271
susa	-9.10273
▁ngomusa	-9.10367
▁kithina	-9.1045
▁umbhalo	-9.10477
kubo	-9.108
▁ngamazwi	-9.10808
bamba	-9.10847
▁Le	-9.10853
tsh	-9.10984
qh	-9.10988
▁ngoJesu	-9.1099
baphostoli	-9.11046
▁ngale	-9.11145
nduna	-9.11162
▁ndawo	-9.11172
▁Nina	-9.114
egolide	-9.11449
ndulela	-9.11468
g	-9.11492
▁naseku	-9.11496
▁sayo	-9.11543
B	-9.1159
▁bebona	-9.11758
▁okwe	-9.11796
babhali	-9.11876
lazi	-9.11982
▁izin	-9.12203
awu	-9.12238
kwamukela	-9.12338
hambi	-9.12399
yinkosi	-9.12734
mela	-9.12959
necala	-9.13057
thathe	-9.13092
▁Se	-9.13239
’	-9.13344
mpi	-9.13389
▁ngangi	-9.13612
▁ukubona	-9.13711
gcine	-9.13864
x	-9.14049
hluleli	-9.14052
▁ungu	-9.14114
yenza	-9.14272
Wundlu	-9.14308
yalo	-9.14373
R	-9.14422
▁uye	-9.1444
thelisi	-9.14464
zenza	-9.14776
▁bengi	-9.14805
▁UPawulu	-9.14899
▁umkhumbi	-9.14899
▁umlomo	-9.149
▁kungesikho	-9.149
landisa	-9.149
▁likaKristu	-9.14902
▁waseNazaretha	-9.14905
buthene	-9.14907
▁ayisihlanu	-9.14925
▁yalokho	-9.14926
▁izithombe	-9.14928
Asiya	-9.15
▁mawu	-9.15055
bethelwe	-9.15073
lahlekelwa	-9.15088
▁yekhulu	-9.15109
▁imihla	-9.15133
▁isibonakaliso	-9.15158
▁izibonakaliso	-9.15213
▁isithelo	-9.15243
▁kwezwe	-9.153
fisa	-9.15335
▁ngabantu	-9.15414
oko	-9.15425
▁olungileyo	-9.15481
▁kweNkosi	-9.15544
▁besaba	-9.15642
memezel	-9.15765
▁Noma	-9.15818
▁maba	-9.15864
▁osezulwini	-9.15887
▁ikhanda	-9.16279
lelwe	-9.16377
▁seli	-9.16403
▁bem	-9.16626
bazalwane	-9.16677
▁ethile	-9.16682
▁wakhuleka	-9.16786
ezimvu	-9.16821
▁uyakuba	-9.1714
tshela	-9.17304
Akakho	-9.17527
▁ngawe	-9.17583
lungis	-9.17597
▁wase	-9.17655
▁alu	-9.17942
omusa	-9.17948
▁abaku	-9.18012
▁bakholwa	-9.18315
bandla	-9.1832
ise	-9.18345
▁usi	-9.18442
phambi	-9.18491
▁umhlaba	-9.18807
▁ebu	-9.19213
▁kugcwalisek	-9.19321
thethelela	-9.19595
kuqala	-9.19652
khuthazela	-9.19783
phuze	-9.19818
nkosi	-9.1997
J	-9.20092
phambene	-9.20108
F	-9.20152
Antiyokiya	-9.20162
sishiyagalolunye	-9.20162
yingcosana	-9.20162
▁emzimbeni	-9.20162
▁ukuhlakanipha	-9.20162
▁ezinhle	-9.20163
kusindisa	-9.20164
▁Ngokukholwa	-9.20178
▁noJakobe	-9.20214
▁Omunye	-9.20215
qin	-9.20256
zinyanga	-9.20269
Woza	-9.20272
▁Abanye	-9.20289
▁ngegazi	-9.20318
▁ngalutho	-9.20378
▁nonina	-9.20394
bekezela	-9.20439
▁ezinda	-9.20446
busisa	-9.20463
▁nothando	-9.2049
▁umkakhe	-9.20501
soka	-9.20605
▁bamanga	-9.20687
▁Lowo	-9.20687
▁yamandla	-9.20689
▁nabaprofethi	-9.20762
▁nabanye	-9.2081
▁kubaJuda	-9.20845
ngane	-9.20935
thuba	-9.20966
;”	-9.2101
▁okuningi	-9.21022
hlushwa	-9.21035
▁bafika	-9.21047
p	-9.21153
▁ithemba	-9.21372
▁bamemeza	-9.21384
nesibindi	-9.21519
▁nokuphila	-9.21578
kimi	-9.21596
▁kabi	-9.21645
▁kung	-9.2172
esono	-9.21878
seJerusalema	-9.21987
▁kaJesu	-9.22058
▁aya	-9.22264
▁liyaku	-9.2234
▁niba	-9.22469
▁nize	-9.22479
buya	-9.22802
▁muzi	-9.22832
naka	-9.23399
sizi	-9.23477
▁kwezi	-9.2359
mp	-9.2366
landa	-9.23687
Aba	-9.23689
yeka	-9.23931
thobela	-9.2396
Yebo	-9.24046
sekhona	-9.24101
Lokhu	-9.2411
dalwa	-9.24112
▁ukuza	-9.24147
▁aze	-9.24218
j	-9.24231
▁Uku	-9.24264
khonze	-9.24461
zela	-9.2464
zulu	-9.24644
▁yisi	-9.24749
▁nemi	-9.24888
elwa	-9.24907
▁on	-9.24915
▁isilo	-9.25058
ndawo	-9.25184
▁kwawo	-9.25342
Moya	-9.25367
bayishumi	-9.25376
khethiweyo	-9.25402
▁kwesihla	-9.25515
▁esinga	-9.25528
sishiyagalombili	-9.25718
▁ngasezinyaweni	-9.25718
▁yenkulungwane	-9.25718
▁esizweni	-9.25727
gunya	-9.25742
▁ulaka	-9.25748
▁ozayo	-9.25761
shisekel	-9.25761
▁lali	-9.25766
▁komthetho	-9.25807
▁olukhulu	-9.25854
▁amaningi	-9.2589
▁esefikile	-9.25997
▁lwakho	-9.26029
▁kunguku	-9.26095
phiwe	-9.26267
▁baye	-9.26269
▁uDavide	-9.26352
▁unguKristu	-9.26465
▁bazaku	-9.26513
▁icala	-9.26523
▁kwazo	-9.26528
▁ekhona	-9.26578
fumananga	-9.26691
▁wamemeza	-9.26793
▁ibe	-9.26806
▁umfanekiso	-9.26961
zanga	-9.26981
▁nokukholwa	-9.27019
amukele	-9.27077
mangalela	-9.27229
kuzwile	-9.27275
▁boku	-9.27307
thandi	-9.27334
▁uMariya	-9.27351
fundiso	-9.27374
ezingelosi	-9.27375
linga	-9.27416
▁niyazi	-9.2744
dela	-9.27504
sukela	-9.27524
ahlulela	-9.27569
▁engcwele	-9.27674
linda	-9.27684
▁kungaba	-9.2772
madodana	-9.27721
bonakaliswa	-9.27752
bekwa	-9.27766
▁bo	-9.28078
▁waze	-9.28144
▁yawo	-9.2831
iya	-9.28391
▁kuthe	-9.28416
nalo	-9.28441
▁abathi	-9.28568
▁phambili	-9.28596
makhulu	-9.28833
▁abase	-9.28844
nziwe	-9.28865
▁wahamba	-9.28958
phakamisa	-9.28962
mthanda	-9.29051
▁Isi	-9.29093
ndlela	-9.29152
Asi	-9.29194
wini	-9.29225
▁ningabi	-9.29329
phonse	-9.29331
nceku	-9.2963
▁uM	-9.29753
iyu	-9.29776
kwaze	-9.29793
▁yam	-9.29803
bhubha	-9.29811
▁kungeng	-9.30067
bazi	-9.30068
gcwalis	-9.30253
INkosi	-9.30279
lungisela	-9.30399
njani	-9.30418
Be	-9.30919
▁nawo	-9.31061
▁ase	-9.31248
sila	-9.31314
akushoyo	-9.31471
▁Yayisi	-9.31475
▁yiyo	-9.31494
mprofethi	-9.31518
ngenzi	-9.31588
▁ebumnyameni	-9.316
▁kaJakobe	-9.316
semhlabeni	-9.316
▁umlilo	-9.31603
ntokozo	-9.31604
miphefumulo	-9.31604
bulawa	-9.3161
gijimela	-9.31614
▁zabantu	-9.31617
▁lenu	-9.3164
▁ngesibindi	-9.31644
khohlisa	-9.31661
▁nabantu	-9.3168
▁kangakanani	-9.31698
ombuso	-9.31698
khubeka	-9.3175
▁Njalo	-9.31758
dingi	-9.31764
▁kade	-9.31765
▁isithembiso	-9.31805
▁zikaNkulunkulu	-9.31826
enziwe	-9.31847
▁ngamatshe	-9.31858
▁ngenhliziyo	-9.31874
▁zinga	-9.31887
shumayele	-9.31963
▁elisha	-9.31972
kwamukeliswa	-9.32013
mise	-9.32045
▁nabesifazane	-9.3205
▁ethanda	-9.32066
pheleleyo	-9.32151
▁ukuhlupheka	-9.32332
kwenzile	-9.32374
▁abakholwayo	-9.32391
ngakholwa	-9.32473
gcwalisa	-9.32613
▁obe	-9.32722
▁mkhulu	-9.32824
nzalo	-9.32895
▁ow	-9.33068
▁yaso	-9.33207
gula	-9.33233
Juda	-9.33373
sibo	-9.33574
elwe	-9.33591
▁nabantwana	-9.33617
▁nane	-9.33847
ntaba	-9.34058
wokuqala	-9.34065
▁bebe	-9.34378
guqu	-9.3446
▁ngikhona	-9.34465
kukhuluma	-9.34538
shelwa	-9.34748
▁Aku	-9.3493
▁aso	-9.34955
mina	-9.35067
mhlophe	-9.35094
swela	-9.3536
zingela	-9.35524
nguKristu	-9.35544
▁bezi	-9.35587
yakuthi	-9.35759
kuvuka	-9.36147
Khona	-9.36206
philayo	-9.36534
hlukanis	-9.36664
▁Baba	-9.36742
▁besa	-9.36816
sizwe	-9.36856
phumele	-9.36886
mvelo	-9.37097
wamukela	-9.37119
ezindlebe	-9.37129
omlilo	-9.37233
fundise	-9.37241
bhapathizwa	-9.37264
vule	-9.37611
lahlwa	-9.37639
jabula	-9.37676
benza	-9.37753
seJudiya	-9.37779
siliva	-9.37811
G	-9.37844
▁uJakobe	-9.3785
thandwa	-9.37851
▁makezwe	-9.37851
mvubelo	-9.37851
zinkanyezi	-9.37854
mkhiwane	-9.37854
▁ongithumileyo	-9.37857
▁kolwandle	-9.37873
▁kwezono	-9.3791
▁ngokwesaba	-9.37934
▁eminingi	-9.37939
▁ngezikhathi	-9.37946
thumele	-9.37957
▁likaJesu	-9.37971
▁bese	-9.38017
mademoni	-9.38099
▁lokuqala	-9.38111
hlwanyela	-9.38209
khwelwe	-9.38245
▁ngiba	-9.38253
bikela	-9.38259
▁ebusuku	-9.38304
▁ngenza	-9.38319
▁wema	-9.38364
▁abaphostoli	-9.38475
Aku	-9.38494
▁umphefumulo	-9.38515
▁kulokho	-9.3856
▁kubapristi	-9.38562
▁ngent	-9.3858
▁ahlale	-9.38585
▁besi	-9.38642
▁esasi	-9.38666
▁imizi	-9.38679
▁sokuba	-9.38702
▁umbusi	-9.38703
okwakhulunywa	-9.38738
khula	-9.38858
sinkwa	-9.38909
▁ncwadi	-9.39121
▁Kanti	-9.39131
kuphila	-9.39132
▁iza	-9.39144
▁akho	-9.3916
bika	-9.39183
▁elinye	-9.39256
▁ngaphezu	-9.39272
▁onamandla	-9.39294
▁omoya	-9.3937
esi	-9.39693
Ngizaku	-9.39787
▁ngingo	-9.39848
▁niyi	-9.39848
sabatha	-9.39861
▁kumuntu	-9.39893
▁ababi	-9.39899
▁ebusweni	-9.39902
kholwe	-9.39915
▁kunjalo	-9.39918
Y	-9.40057
▁unamandla	-9.40097
▁behamba	-9.40264
olaka	-9.40467
Ngiya	-9.40506
lala	-9.40535
ene	-9.40722
yimi	-9.40736
▁mfanekiso	-9.40745
ngomuso	-9.40918
▁ukhuluma	-9.41068
ninika	-9.41107
▁kufanele	-9.4115
khulula	-9.41184
lukhuni	-9.41454
nquma	-9.41498
▁kunokub	-9.41574
enze	-9.417
phonsw	-9.41702
Th	-9.42126
hlali	-9.42172
thandekayo	-9.42485
bubele	-9.42492
zazi	-9.42498
▁bali	-9.42675
▁siba	-9.42784
kaSathane	-9.42874
▁ungo	-9.42908
nina	-9.42967
mnene	-9.42981
▁zayo	-9.43111
mfazi	-9.43499
▁ekwazi	-9.4352
thwe	-9.4355
mbhalo	-9.43711
nkulu	-9.43739
thile	-9.4375
sayiku	-9.43755
ngubani	-9.43913
naye	-9.43987
mabutho	-9.44153
langa	-9.44514
shaywa	-9.44517
talenta	-9.44517
▁eJudiya	-9.44517
cilongo	-9.44517
▁emlilweni	-9.44517
▁icebo	-9.44518
Rabi	-9.44518
thukuthela	-9.44518
▁ngokwami	-9.44519
vame	-9.44521
▁kwenzeka	-9.44524
kholekile	-9.44524
▁kunalokho	-9.44524
▁abazali	-9.44529
▁Owesifazane	-9.44533
▁ngaphambi	-9.44535
▁asiyiku	-9.44536
ziphendulela	-9.44552
▁bukaNkulunkulu	-9.44553
▁isidumbu	-9.44555
bhubhisa	-9.44621
Ngumuphi	-9.44665
mpristi	-9.44721
▁uyeza	-9.44728
sinda	-9.44795
▁wokuthi	-9.44802
▁ngomoya	-9.44815
▁amabandla	-9.44834
▁ngangomuso	-9.44839
▁yabaJuda	-9.44844
▁awa	-9.44858
▁isipho	-9.44917
▁wabanika	-9.44927
▁ngaselwandle	-9.44932
phiwa	-9.44983
Sathane	-9.45037
▁bambuza	-9.45039
▁ubusuku	-9.45071
▁isikhashana	-9.4509
ngukukhanya	-9.45111
kwenziwa	-9.45215
▁nodumo	-9.4523
▁ngokunjalo	-9.45271
▁sona	-9.45339
fundisi	-9.45456
bize	-9.45468
▁mani	-9.45476
▁uJuda	-9.45517
nilobela	-9.4555
▁lokuba	-9.45552
Nina	-9.45615
sikhashana	-9.45636
▁ithempeli	-9.45642
thokoze	-9.45675
dukisa	-9.45706
▁ukwahlulela	-9.45714
▁nizaku	-9.45951
▁into	-9.46005
▁nomoya	-9.46046
dli	-9.46112
▁wath	-9.46159
▁uSimoni	-9.46287
Ngiyaku	-9.46292
kanye	-9.46292
▁wali	-9.46299
ses	-9.46364
▁ngabona	-9.46394
ezinto	-9.46484
▁nceku	-9.4653
kaMoya	-9.46534
▁sathi	-9.46613
▁ukuzi	-9.46925
indlalifa	-9.47051
▁nayo	-9.47106
▁babuye	-9.47189
▁akayiku	-9.47232
khaphela	-9.4728
▁INkosi	-9.47314
wazi	-9.47402
kuphi	-9.47472
▁usu	-9.47597
▁sinye	-9.4761
▁Seku	-9.47749
▁sizwe	-9.47881
▁nenze	-9.47953
▁lini	-9.48168
▁neze	-9.48241
▁ukungena	-9.48316
▁okuyi	-9.48424
▁lika	-9.48452
▁baphuma	-9.48649
▁kayi	-9.48804
▁baku	-9.4891
mvusa	-9.48987
nabo	-9.4901
▁ngokoku	-9.49192
▁uyazi	-9.49209
bezwa	-9.49283
▁Siya	-9.49312
▁ongi	-9.49357
▁izaku	-9.49421
nami	-9.49569
mbeka	-9.49964
kungenjalo	-9.50069
beni	-9.50138
sango	-9.50336
bemi	-9.50347
nishumaye	-9.50535
▁bakwa	-9.50564
Davide	-9.50696
▁ayaku	-9.507
wehlela	-9.50881
bhe	-9.50916
▁hamba	-9.50954
mafutha	-9.51086
hlamba	-9.51276
zindla	-9.51284
▁linga	-9.5144
▁iyi	-9.51449
zibonakalis	-9.51476
yiphi	-9.51488
▁benze	-9.51509
kafiki	-9.51653
D	-9.51657
funyanwa	-9.5166
Sukuma	-9.5166
ngamesabi	-9.5166
▁uMbhapathizi	-9.5166
▁ukungalungi	-9.5166
▁eKesariya	-9.5166
thabathe	-9.51661
phumula	-9.51662
▁emabandleni	-9.51665
finyelel	-9.51671
bukhali	-9.51677
nzima	-9.51678
▁lwesithathu	-9.51692
▁ngemifanekiso	-9.51704
phumile	-9.51712
khulek	-9.51738
▁eKapernawume	-9.51746
zamazama	-9.51747
sabelo	-9.51762
▁izipho	-9.51763
qamba	-9.51764
mbamba	-9.51777
sezweni	-9.51797
philisa	-9.518
mzalwane	-9.51807
yihlo	-9.51824
▁izimvu	-9.51834
▁ekukhanyeni	-9.51854
▁eMakedoniya	-9.51913
▁uhlangothi	-9.51937
▁ngamanzi	-9.5195
▁lethu	-9.51982
▁ziya	-9.52008
▁nini	-9.52027
nipha	-9.52064
▁zazo	-9.52073
▁babone	-9.52104
▁abagulayo	-9.52234
▁ekhaya	-9.52256
▁nguMoya	-9.52287
yimpumputhe	-9.52303
▁babona	-9.52328
▁ngiye	-9.52464
▁neNdodana	-9.52474
misile	-9.52661
betha	-9.52667
hlangana	-9.5274
bayala	-9.52762
dumisa	-9.52824
ngesiso	-9.52902
▁nenza	-9.52923
▁esinye	-9.53008
fumane	-9.53113
thwele	-9.5322
sendlini	-9.53258
chith	-9.5327
lungiselwe	-9.5338
▁anis	-9.53524
kwambulwa	-9.53526
ngathandi	-9.53554
▁abakholwa	-9.53672
Z	-9.53864
▁abakhile	-9.54247
mbiza	-9.54492
Ani	-9.54611
▁Nani	-9.54941
Wo	-9.54943
▁nez	-9.54991
baprofethi	-9.55016
hlanganis	-9.55053
▁zibe	-9.55147
▁wayo	-9.55393
othando	-9.55577
▁umka	-9.55768
nini	-9.55772
▁Maku	-9.55864
misela	-9.55936
▁ongu	-9.56237
dlule	-9.56269
▁sokunene	-9.56313
▁livela	-9.56382
lima	-9.56971
▁badla	-9.5706
▁ngum	-9.57154
dlulile	-9.57158
▁uze	-9.57219
sika	-9.57272
zindawo	-9.57318
wele	-9.57324
luleka	-9.57611
Qha	-9.57673
ngiphe	-9.57783
kukholwa	-9.57847
nawo	-9.57898
fihl	-9.57929
okulotshiweyo	-9.5807
wamukele	-9.58071
mfundi	-9.58077
nkemba	-9.58109
▁iso	-9.58129
re	-9.58134
mehlo	-9.58248
▁ngok	-9.58351
Josefa	-9.58369
zizwe	-9.58398
▁uzi	-9.58456
▁ukuzwa	-9.5846
khulekela	-9.58462
ngasho	-9.58483
mphefumulo	-9.58539
▁izith	-9.58571
bopha	-9.58584
▁kuka	-9.58599
Ar	-9.58605
Hamba	-9.58636
mpofu	-9.58646
Ya	-9.58674
▁abani	-9.58699
▁saba	-9.5879
thuli	-9.58837
elene	-9.58871
thukulul	-9.5893
fakazela	-9.59052
bha	-9.59113
jengokuba	-9.59117
nele	-9.59132
▁ibi	-9.59233
buth	-9.59317
▁kangaka	-9.59349
2	-9.59352
Andreya	-9.59352
drako	-9.59352
mfelokazi	-9.59352
tabernakele	-9.59352
▁emuva	-9.59352
▁othandweni	-9.59352
obufebe	-9.59352
shiwo	-9.59352
▁ekuphileni	-9.59352
▁iphasika	-9.59352
▁bebodwa	-9.59352
▁okwenzekileyo	-9.59354
gcoba	-9.59357
▁sikaKristu	-9.59359
lambile	-9.59363
zingelwa	-9.59387
▁umqhele	-9.59401
guqa	-9.59414
thule	-9.59415
▁ezimbi	-9.59425
▁kungenzeka	-9.59446
yinhloko	-9.59475
namathel	-9.59484
▁kukaJesu	-9.595
▁eGibithe	-9.59509
minikelo	-9.59511
shunyayelwa	-9.59516
▁Yayisithi	-9.59518
▁ngomlomo	-9.59519
thokozisa	-9.59524
▁sebezwile	-9.59547
gijima	-9.59569
zuza	-9.59586
▁kanje	-9.59625
▁kokukholwa	-9.59712
ngozini	-9.59726
▁ngempela	-9.59729
▁kaSimoni	-9.5973
▁ngomlilo	-9.59743
▁eside	-9.59782
▁baphenduke	-9.59783
▁ngothando	-9.59792
▁noBaba	-9.59819
bingelela	-9.59843
amagama	-9.59871
bizela	-9.59891
Herode	-9.599
▁inkemba	-9.59947
▁nendlu	-9.59956
nethemba	-9.59964
▁amakhosi	-9.59969
▁ung	-9.60014
madoda	-9.60041
▁ngokuthokoza	-9.60044
mamukela	-9.60045
▁ilanga	-9.60117
imbewu	-9.60122
shu	-9.60133
▁uJosefa	-9.60188
mali	-9.60269
embathisa	-9.60276
▁nemini	-9.60288
▁ungubani	-9.60378
▁wenze	-9.60471
egazini	-9.60507
▁nakubo	-9.60549
lalele	-9.60745
ofe	-9.60775
▁ezazi	-9.60829
phumela	-9.60911
thando	-9.60953
ngenamthetho	-9.60982
bonanga	-9.61071
tsheli	-9.61108
▁awo	-9.61114
▁Ma	-9.61145
▁eninga	-9.61148
▁esihle	-9.61152
▁ongcwele	-9.61274
ncwadi	-9.61301
bhali	-9.61367
ngezwa	-9.61567
▁njani	-9.6164
kwemisebenzi	-9.61771
emikhawul	-9.61807
▁Babe	-9.61836
▁neye	-9.61876
▁kum	-9.61891
suse	-9.61897
zinhlupheko	-9.62112
ndoda	-9.62193
lingi	-9.62202
▁ekhuluma	-9.62427
”	-9.62482
silinganis	-9.62565
okungalungi	-9.62594
feze	-9.62687
▁eyaku	-9.62793
mnike	-9.62911
zinwele	-9.62951
▁kwale	-9.62955
▁enani	-9.62992
ukuba	-9.63056
cele	-9.63097
▁ben	-9.63109
nayo	-9.63122
▁B	-9.63324
yibamba	-9.63434
ngaphakathi	-9.6356
Yini	-9.63647
▁umi	-9.63708
▁ukuyo	-9.63782
veli	-9.63847
▁lw	-9.63872
nguye	-9.6416
▁sakwa	-9.64201
▁bemi	-9.64515
phendukel	-9.6453
▁nginge	-9.64549
▁nasema	-9.64681
thande	-9.6483
▁uzakuba	-9.64896
▁bahamba	-9.64932
kuye	-9.6522
mphathi	-9.65237
▁Wayeseba	-9.65247
qinisileyo	-9.65438
▁lama	-9.65495
shumi	-9.65545
▁othanda	-9.65639
▁ephuma	-9.65842
isi	-9.65879
amatshe	-9.65969
Kanti	-9.65997
ngokuba	-9.66031
▁owathi	-9.66148
ncane	-9.6618
Uya	-9.6626
Awu	-9.66359
▁ozaku	-9.66379
empela	-9.66416
Wa	-9.66438
▁ning	-9.66486
Sawulu	-9.66547
▁ingena	-9.6665
kayo	-9.66776
seleyo	-9.66789
▁ehamba	-9.66844
zikhonzi	-9.6688
vukile	-9.66939
khululekile	-9.67022
bekezelela	-9.67062
mfihlakalo	-9.67097
abezizwe	-9.67165
sithelo	-9.673
▁ukwazi	-9.67339
kuba	-9.6741
muhle	-9.67472
qeda	-9.6749
denariyu	-9.67579
sala	-9.67609
▁wawa	-9.67625
muthi	-9.67635
▁mayi	-9.67639
▁La	-9.67645
1	-9.67685
Vuka	-9.67686
hlambulula	-9.67686
langazelela	-9.67686
nkohliso	-9.67686
▁ayisithupha	-9.67686
nduneni	-9.67686
thethelelwe	-9.67686
▁imibhalo	-9.67686
▁Bazalwane	-9.67686
ngumzimba	-9.67686
ganwa	-9.67687
izuze	-9.67688
▁naseNkosini	-9.67689
obumnyama	-9.67689
lotshwe	-9.67699
▁eyishumi	-9.677
▁Ngokunjalo	-9.677
▁Za	-9.677
Levi	-9.67703
▁ngokwesibili	-9.67705
sihlanu	-9.67708
Hlala	-9.6771
yinto	-9.67725
yakufika	-9.67738
▁ngoKristu	-9.67747
▁umyeni	-9.67752
▁zezulu	-9.67767
mkhosi	-9.67768
hlanjululwa	-9.67771
▁nguBaba	-9.67776
phuzi	-9.6782
thinta	-9.67826
▁ezinkulu	-9.67829
▁senu	-9.67833
cabanga	-9.67834
fanis	-9.67853
▁nabafowabo	-9.67879
▁izisebenzi	-9.67888
▁ingqondo	-9.6789
▁noBarnaba	-9.67896
▁esixukwini	-9.67915
▁ngiyethemba	-9.67915
▁eDamaseku	-9.6792
▁sikaJesu	-9.67939
▁abangcolileyo	-9.67946
▁kathathu	-9.67958
▁abesifazane	-9.67964
▁kuKesari	-9.67974
▁Yathi	-9.67976
▁oPetru	-9.68
▁lombuso	-9.68024
▁lwami	-9.68039
▁njalonjalo	-9.68054
▁noMoya	-9.68063
▁umnikelo	-9.68064
▁ngeqiniso	-9.68097
▁sekuyi	-9.68111
▁umhawu	-9.68124
▁ongcolileyo	-9.68131
thandile	-9.68132
▁negazi	-9.6814
▁ekuvu	-9.68187
▁Waye	-9.6822
▁Manje	-9.68227
▁owaba	-9.6827
▁imfihlakalo	-9.68278
▁omhlaba	-9.68369
▁Abant	-9.68369
▁bamlandela	-9.68404
▁ngubufakazi	-9.68411
▁nomunye	-9.68413
▁uMsindisi	-9.6845
miselwe	-9.68606
▁ngukuphila	-9.68611
qondileyo	-9.68616
▁uyihlo	-9.68622
▁ukulahlwa	-9.68741
Naku	-9.68799
▁iz	-9.6889
▁Zi	-9.69002
▁ihora	-9.6902
gcwaliseka	-9.69074
qiniso	-9.69089
▁nabazalwane	-9.69096
▁nomuntu	-9.69097
▁unge	-9.69108
womoya	-9.69146
bonayo	-9.69161
Le	-9.6917
kaKesari	-9.69215
siphuza	-9.69231
belwa	-9.69273
▁uhlaka	-9.69293
lusizi	-9.69327
▁uthanda	-9.69361
suke	-9.69427
▁ebi	-9.69506
hlwanyel	-9.69545
▁abangena	-9.69676
▁uhambe	-9.69707
▁zam	-9.69883
▁lukhuni	-9.69922
▁ngaphakathi	-9.69941
▁ukhona	-9.70032
khulumile	-9.70187
▁ngiyazi	-9.70587
tholile	-9.70695
yeni	-9.70873
▁embona	-9.70984
duka	-9.71086
▁Ngalo	-9.71195
nezingelosi	-9.71285
▁cala	-9.71324
▁sezi	-9.714
▁imiyal	-9.71474
yiqiniso	-9.71746
L	-9.71758
nyaka	-9.71834
lila	-9.71977
▁Esa	-9.7206
nyawo	-9.72126
mlandela	-9.72564
linganisa	-9.72726
nqa	-9.72818
eka	-9.73111
enza	-9.73478
esibili	-9.7355
▁ndlu	-9.73604
geza	-9.73782
▁ofuna	-9.73916
▁wayenga	-9.74037
▁bezwa	-9.74199
▁Aka	-9.74289
▁washo	-9.7443
dadewabo	-9.7451
▁ngingu	-9.74643
wenza	-9.74742
mbuza	-9.74768
thumileyo	-9.74778
▁ngisa	-9.74926
demoni	-9.74944
▁aban	-9.74976
▁now	-9.75013
▁nokwa	-9.75097
lingwa	-9.75244
▁ngiyakum	-9.75268
zenzisi	-9.75555
ezinye	-9.75619
▁kuse	-9.75654
thembekile	-9.75677
▁engiku	-9.75859
▁sazi	-9.75874
fund	-9.75934
Msindisi	-9.75946
khulunywa	-9.76099
▁nasemi	-9.76286
zibonakaliso	-9.76344
bulale	-9.76416
hawukele	-9.76456
yeki	-9.76477
▁okhuluma	-9.76504
diliz	-9.76527
phawu	-9.76552
embethe	-9.76643
sinagoge	-9.76705
sigqila	-9.76754
babili	-9.76759
Agripha	-9.76776
Babiloni	-9.76776
Zakariya	-9.76776
phulukiswa	-9.76776
▁Pawulu	-9.76776
▁isihawu	-9.76776
▁isiphambano	-9.76776
▁ubufebe	-9.76776
Ananiya	-9.76777
▁ekufeni	-9.76777
Apholo	-9.76777
▁ngokomthetho	-9.76777
shesha	-9.76777
hlatshelwe	-9.76777
▁omusha	-9.76777
vama	-9.76778
▁bantu	-9.76778
sawoti	-9.76779
▁phandle	-9.76779
thethelele	-9.7678
▁ukwahlukana	-9.76782
mFarisi	-9.76783
▁emizini	-9.76784
▁encwadini	-9.76786
bongwe	-9.76787
▁nakwaba	-9.76788
khululiwe	-9.76788
▁okweshumi	-9.76789
philileyo	-9.7679
▁babantu	-9.76792
kukhubekisa	-9.76796
enduduzo	-9.76802
fundiswa	-9.76813
▁lwenu	-9.76815
kaYise	-9.76823
▁kowesifazane	-9.76826
▁sokwahlulela	-9.7683
▁yabantu	-9.76831
bekiwe	-9.76843
▁ukumbulala	-9.76855
▁nezoni	-9.76864
▁Magdalena	-9.76869
▁Esakhuluma	-9.76887
kubongwa	-9.76895
abafokazi	-9.76912
hlwa	-9.76923
▁amalunga	-9.76925
▁angis	-9.76929
xosha	-9.76937
▁ngobuso	-9.76968
▁nolwandle	-9.76991
▁ngokuthula	-9.76992
▁nobusuku	-9.77008
dliwa	-9.77014
mkhulu	-9.77027
▁nabezizwe	-9.77027
sifebe	-9.77029
khaya	-9.77052
▁impahla	-9.77054
▁ebandleni	-9.77108
▁Wasuka	-9.7711
▁iJerusalema	-9.77118
▁yamanzi	-9.77154
▁uYihlo	-9.77157
▁kabili	-9.77169
▁inxenye	-9.77201
▁umphostoli	-9.77209
▁Sesi	-9.77226
siwe	-9.77264
▁Uya	-9.77286
▁amabutho	-9.77294
thembekileyo	-9.77376
▁yilokhu	-9.77388
nikelwa	-9.7739
▁nenyama	-9.77411
▁ngaleso	-9.77453
yizigqila	-9.77465
▁engo	-9.77477
▁beyi	-9.77511
abaphangi	-9.77585
▁abenza	-9.77594
▁yimina	-9.77627
sithunzi	-9.77634
▁sihambe	-9.7766
cindezela	-9.77675
qondisa	-9.77676
▁wakubo	-9.77738
▁kuPilatu	-9.77771
▁nguJesu	-9.77779
▁isihla	-9.77795
▁amakhulu	-9.77825
▁Thina	-9.77857
enzele	-9.7788
Ungesabi	-9.77903
▁nidle	-9.7791
kudla	-9.78005
ngofakazi	-9.78044
isisa	-9.78102
▁okunjalo	-9.78141
miso	-9.78148
▁basi	-9.78277
▁ningabe	-9.78306
▁yaya	-9.78349
▁ekuphum	-9.78454
ahlulele	-9.78549
isiwe	-9.78611
▁namunye	-9.78672
eqiniso	-9.78736
mhlangabeza	-9.78773
lungisele	-9.78784
▁ithole	-9.78815
ezinkwa	-9.78824
▁Ababe	-9.79058
▁kokuthi	-9.79096
ehora	-9.79136
mshaya	-9.79153
▁inamandla	-9.79167
▁azo	-9.79263
▁nohlezi	-9.793
yibona	-9.79307
ngaboni	-9.79368
▁nalo	-9.79404
▁ngokufa	-9.7945
▁lolo	-9.79537
nxa	-9.79538
▁bafumana	-9.7954
▁ngin	-9.79609
phendul	-9.79671
inyoka	-9.797
▁kwaso	-9.79702
ngesibo	-9.79829
▁yikhona	-9.80158
▁wabonga	-9.80239
amukeliswa	-9.80315
thenga	-9.80328
▁abahamba	-9.80399
akhiwe	-9.8047
libo	-9.80692
qede	-9.80713
wezwa	-9.80764
ngumoya	-9.80895
▁yinina	-9.8093
▁wakha	-9.80995
Ninga	-9.81021
▁iyakuba	-9.81106
Izi	-9.8111
hlwanyelw	-9.81551
▁umfundi	-9.81578
kungcono	-9.81619
▁ukulwa	-9.81632
thethelelwa	-9.81683
ompristi	-9.81728
▁Th	-9.81736
▁bayakuba	-9.81761
▁nalokhu	-9.81946
▁im	-9.81979
▁ano	-9.82349
▁kuzaku	-9.82358
▁kuyena	-9.82799
londa	-9.82942
▁Besa	-9.82948
▁noJesu	-9.82979
nyathel	-9.83008
nq	-9.83326
▁Um	-9.8335
lungu	-9.83379
ngomunye	-9.83464
ngumuntu	-9.83601
▁waso	-9.83617
▁ose	-9.83672
lindele	-9.83672
iswe	-9.83687
weli	-9.83733
▁nin	-9.83757
▁ukufika	-9.84188
▁Ayese	-9.84214
mfundisi	-9.84364
▁Kuyaku	-9.84408
▁nobu	-9.84427
▁baningi	-9.84769
hawukela	-9.8477
uma	-9.84787
vumele	-9.84859
▁and	-9.84894
mbala	-9.84988
mkhonza	-9.85224
Wathi	-9.85285
▁size	-9.85299
▁Ani	-9.85307
▁embi	-9.85487
sebenze	-9.85559
▁eyayi	-9.85585
phuc	-9.85694
▁enge	-9.85793
ncinyane	-9.85811
▁uphons	-9.85921
zono	-9.85942
Barnaba	-9.85971
bhujiswa	-9.85992
ngcolileyo	-9.86018
sandla	-9.8611
nikile	-9.86111
mpande	-9.86175
omunye	-9.8618
sindiswe	-9.8619
shisa	-9.86199
zixuku	-9.86206
phikisana	-9.86222
khuphukel	-9.86223
kuvele	-9.86303
▁okwaku	-9.86406
ngakanani	-9.86638
olwandle	-9.86673
senze	-9.86674
nkanuko	-9.86744
qhele	-9.86758
Nazaretha	-9.86765
▁ezon	-9.86771
ameva	-9.86776
eHayidese	-9.86776
gqolozela	-9.86776
hlwith	-9.86776
ntanami	-9.86776
zizukulwane	-9.86776
▁ekwahlulelweni	-9.86776
▁ensimini	-9.86776
▁esihogweni	-9.86776
▁imvuthuluka	-9.86776
▁inkonzo	-9.86776
▁phesheya	-9.86776
▁inkanyezi	-9.86776
Jopha	-9.86777
▁ekulingweni	-9.86777
▁ubumnyama	-9.86777
▁edwaleni	-9.86777
▁noyedwa	-9.86777
bafowenu	-9.86777
zinhlupho	-9.86777
▁izikhathi	-9.86777
▁emphakathini	-9.86778
notho	-9.86783
▁emkhosini	-9.86783
zicathulo	-9.86783
bubula	-9.86784
▁nakalokhu	-9.86786
▁ezizweni	-9.8679
▁mihla	-9.868
▁sekupheleni	-9.86801
▁emanzini	-9.86802
▁izoni	-9.86809
Adam	-9.86829
▁obala	-9.86831
▁ayishumi	-9.86831
Akhaya	-9.86832
▁Labo	-9.86856
▁muni	-9.86859
▁ngevangeli	-9.86859
▁owasi	-9.86867
▁kwelinye	-9.86877
▁laseJudiya	-9.86893
mpela	-9.86904
bonakalisiwe	-9.86904
▁anothi	-9.86909
▁akubanga	-9.86925
▁namanje	-9.86941
▁nezinhlanzi	-9.86946
▁noThimothewu	-9.86953
dakwa	-9.86955
▁ngemvelo	-9.86955
▁nokuphikisana	-9.86957
▁Esefikile	-9.8696
▁Maka	-9.86978
ezithelo	-9.86997
phuzisa	-9.8701
zikhali	-9.87017
vukela	-9.87046
khulumisa	-9.87063
thengisa	-9.87076
fumani	-9.87079
▁intombazana	-9.87125
▁kaMose	-9.87133
▁kwenyama	-9.87134
▁kuPetru	-9.87136
▁wezwe	-9.87151
gq	-9.87156
engubo	-9.87173
▁umakhelwane	-9.87176
▁nababusi	-9.87178
▁ungumprofethi	-9.87189
▁nikholwe	-9.87249
fundile	-9.8727
ongolo	-9.87282
▁kwabangcwele	-9.87326
bhapathizwe	-9.87331
▁umhlambi	-9.87344
▁zawo	-9.8735
▁ukwahlulelwa	-9.87353
▁izitho	-9.87466
yizinceku	-9.87466
▁benhliziyo	-9.87475
▁abalungileyo	-9.87494
▁ngizakuku	-9.87496
▁ukusoka	-9.87496
▁wambuza	-9.87512
malusi	-9.87512
▁sokuthi	-9.87514
▁kunabo	-9.87538
▁esisha	-9.87592
▁Nkulunkulu	-9.87603
buzana	-9.87637
mazwi	-9.87728
▁anakho	-9.87729
gqok	-9.87753
▁kubazalwane	-9.8776
▁ngokuningi	-9.87789
▁Yon	-9.87793
▁seNkosi	-9.87813
▁ukuphenduka	-9.87852
dinga	-9.87872
▁ngikhulume	-9.87884
▁liya	-9.87898
kubola	-9.87911
▁hambani	-9.87979
▁ethandekayo	-9.87981
▁iWundlu	-9.88
naki	-9.88144
▁onakho	-9.8815
▁ngalokhu	-9.88158
ngadli	-9.88161
▁phezulu	-9.88237
▁ngeNkosi	-9.88276
yeli	-9.88326
thengisi	-9.88435
▁busuku	-9.88446
▁obaba	-9.88451
▁amadodana	-9.88554
lusa	-9.88688
bulo	-9.88758
vumanga	-9.88766
mabandla	-9.88773
▁ukuphela	-9.88857
▁wasuka	-9.88996
▁maku	-9.89048
iweyo	-9.89054
▁Bona	-9.89104
bumnene	-9.89122
▁Ubusisiwe	-9.89193
bonisi	-9.89547
wula	-9.89549
bizile	-9.89616
▁yazini	-9.89706
delela	-9.8975
amahhashi	-9.89762
mbonga	-9.89804
mvini	-9.89852
nsizwa	-9.89855
▁nkosi	-9.89888
▁okunye	-9.89991
▁ukwa	-9.90017
bethele	-9.90018
hlukene	-9.90058
▁bamuka	-9.90062
njengo	-9.90308
▁angena	-9.90324
wesibili	-9.9041
▁ziye	-9.90493
linye	-9.9061
Ngu	-9.9063
eke	-9.9064
▁ekuzwa	-9.90689
abafelokazi	-9.90755
ziboshwa	-9.9079
▁engaka	-9.90799
▁uthini	-9.90966
enu	-9.91003
▁sihamba	-9.91024
buyisela	-9.91153
▁luya	-9.91382
▁nasem	-9.91665
eza	-9.91684
ulu	-9.9174
▁sithanda	-9.91928
▁kuphila	-9.92095
▁enjalo	-9.92106
bamukele	-9.92133
ama	-9.92149
▁ningena	-9.92303
kuphela	-9.92321
yenze	-9.92337
lwane	-9.92493
ngaphezu	-9.92539
▁ethu	-9.92555
faneleyo	-9.92669
Zi	-9.92729
▁ngino	-9.92834
eli	-9.92883
▁efundisa	-9.92988
▁wakholwa	-9.93022
shiswa	-9.93213
kaBaba	-9.93256
bonileyo	-9.93392
▁us	-9.93405
vun	-9.93501
thwale	-9.93505
valel	-9.93581
▁angina	-9.93824
okuhlakanipha	-9.93852
lobela	-9.93861
kukho	-9.93887
kheth	-9.9391
▁ney	-9.93934
phum	-9.94191
▁kude	-9.94446
busuku	-9.94522
kwevangeli	-9.94661
lik	-9.94832
▁ake	-9.94843
shiye	-9.94853
amacala	-9.94859
balekela	-9.94936
ona	-9.95235
khumbule	-9.95255
khiwa	-9.95273
▁yawa	-9.9535
▁Lo	-9.95376
▁bangaba	-9.95461
khathaz	-9.95475
sibonakaliso	-9.95547
ezindlela	-9.95556
khubeki	-9.95729
▁owam	-9.95929
gi	-9.9593
▁bawo	-9.95941
amukeli	-9.96007
▁kunoku	-9.96206
Noma	-9.96209
nokuphila	-9.96239
Kwathi	-9.96301
▁Ngiyaku	-9.96402
▁wayeba	-9.96465
omkhumbi	-9.965
Niya	-9.96564
nembeza	-9.96613
besifazane	-9.96649
cindezel	-9.96768
kwesaba	-9.96818
esithembiso	-9.96822
iphu	-9.97054
zandla	-9.97154
hlile	-9.9736
zingubo	-9.97381
hluphek	-9.97653
akhu	-9.97666
sendleleni	-9.97722
cebile	-9.97777
hloniph	-9.97834
unywa	-9.97887
Khana	-9.97887
phelelisiwe	-9.97887
zigabisa	-9.97887
Elisabethe	-9.97888
Kayafase	-9.97888
Khefase	-9.97888
Qaphelani	-9.97888
Sodoma	-9.97888
Xwayani	-9.97888
esiphambano	-9.97888
funyanwe	-9.97888
hlambulule	-9.97888
nochoko	-9.97888
sikhwama	-9.97888
siprofetho	-9.97888
tafula	-9.97888
vamile	-9.97888
▁Yeminqumo	-9.97888
▁ekuqaleni	-9.97888
▁uBaraba	-9.97888
▁emnyango	-9.97888
▁nxazonke	-9.97888
▁zombili	-9.97888
▁zikaKristu	-9.97888
▁insimu	-9.97888
khathalela	-9.97888
dumaza	-9.97889
obuhlungu	-9.97889
balekele	-9.97891
mikhumbi	-9.97891
▁kuYise	-9.97892
nendlebe	-9.97893
nqunywa	-9.97893
kuhlwile	-9.97895
▁izinyoni	-9.97896
zaneni	-9.97897
▁izizindlo	-9.97899
Ngilandele	-9.97899
ezinyoni	-9.97905
dumileyo	-9.97905
lungelo	-9.97915
▁ngokuhunyushwa	-9.97917
▁qha	-9.97918
Kalokhu	-9.97919
sahamba	-9.97932
▁kaZebedewu	-9.97933
▁lwesabatha	-9.97936
asinyane	-9.97937
▁bambulale	-9.97944
ingadukiswa	-9.97947
thinti	-9.9795
▁yezono	-9.97951
mkhuza	-9.97964
▁izincwadi	-9.9797
▁ngamadolo	-9.97982
▁abayisikhombisa	-9.98
busiswa	-9.98008
▁lomlilo	-9.98012
▁yomthetho	-9.98014
▁ngesihle	-9.98023
▁zamlandela	-9.98028
▁nezilimi	-9.9803
▁yokulunga	-9.98034
suswa	-9.98046
▁ngenkemba	-9.98051
▁wokuphila	-9.98054
▁yenkazimulo	-9.98058
▁lakubo	-9.98066
omphakathi	-9.9807
▁yodwa	-9.9808
▁ngokufaneleyo	-9.98083
khandleka	-9.98091
nomoya	-9.98096
yiziwula	-9.98096
Yeka	-9.98115
▁yenyama	-9.98115
▁kaJosefa	-9.98117
hlanya	-9.98133
thunyiwe	-9.98134
▁engizaku	-9.9814
▁nokuhlakanipha	-9.9814
kugcineni	-9.98141
▁somusa	-9.98154
gcinile	-9.98158
▁ezithile	-9.98159
thengise	-9.98165
hlabelel	-9.98196
▁amazinyo	-9.98202
▁Iskariyothe	-9.98202
▁yokuphila	-9.98211
▁lokuphila	-9.98224
▁ngokuhlakanipha	-9.98226
Namuhla	-9.98239
▁ngamademoni	-9.98239
▁Akukho	-9.98246
▁Njengalokh	-9.98257
bomvu	-9.9827
▁isisekelo	-9.98276
vutha	-9.98277
▁esiswini	-9.98301
▁ukuthethelelwa	-9.98306
▁ubani	-9.98337
▁okungaka	-9.98352
seGibithe	-9.98386
▁kwamanzi	-9.98424
▁nempela	-9.98435
▁ngabanye	-9.98441
▁ucez	-9.98468
▁Wabuye	-9.98538
ewayini	-9.98573
▁uyakusindiswa	-9.98601
▁anikholwa	-9.98609
muphi	-9.98654
▁zona	-9.98679
nxanel	-9.9873
▁ukwesaba	-9.9874
▁wabafundisa	-9.98755
▁esiyi	-9.98767
▁othandekayo	-9.98834
▁wamvusa	-9.98835
lamukele	-9.98853
▁nomthetho	-9.98862
uka	-9.98877
▁lunye	-9.98891
▁ukuzibonga	-9.98905
▁Niya	-9.98928
▁isabatha	-9.98934
thokozi	-9.98962
▁inzalo	-9.99032
▁Kukhona	-9.99039
▁okungcwele	-9.99048
▁sihlale	-9.99163
▁omubi	-9.99234
▁endala	-9.99245
▁akwa	-9.9926
ezindlebeni	-9.99263
▁yakwa	-9.99265
khuthalela	-9.99329
▁nikhuleke	-9.99339
▁umfazi	-9.9934
ntombi	-9.99379
ngukufa	-9.99408
▁Lapho	-9.99466
▁nguwe	-9.99467
mhlabathi	-9.9947
▁kwenye	-9.99486
▁nokuthokoza	-9.9949
hola	-9.99497
uleni	-9.99516
thuna	-9.99734
enzela	-9.99755
zimpumputhe	-9.99804
▁kwabanye	-9.99806
yigugu	-9.99836
▁kawu	-9.99846
▁Nami	-9.99917
▁nanye	-9.9996
▁ndoda	-9.99968
ngumJuda	-10.0003
ngalokho	-10.0003
▁namakhosi	-10.0006
▁yiz	-10.0017
▁kusho	-10.0017
thuthumela	-10.0023
▁ebengi	-10.0024
▁abanjalo	-10.0032
▁eyisi	-10.0034
▁namazwi	-10.004
phenduk	-10.0054
▁angene	-10.0061
▁kaso	-10.0073
▁sitsha	-10.0075
▁ingu	-10.0084
▁ngokubona	-10.009
hlaba	-10.0096
▁sinkwa	-10.0098
vusel	-10.0102
njiwe	-10.0103
▁nizi	-10.0135
fowethu	-10.0139
▁wehle	-10.0145
lane	-10.0145
thengi	-10.0149
mboz	-10.016
yindoda	-10.0164
ngithumile	-10.0171
▁bezwe	-10.0177
▁bephuma	-10.0184
▁bayo	-10.0187
▁naso	-10.0189
▁ukuma	-10.0192
▁yilo	-10.0198
dukis	-10.0207
▁angazi	-10.0211
▁engum	-10.0215
▁ekhanda	-10.0218
nikelwe	-10.0234
▁kimina	-10.0243
nzini	-10.0253
▁nibona	-10.0254
▁bafa	-10.0267
▁abakhe	-10.0284
wezizwe	-10.0288
▁zazi	-10.0299
lenze	-10.0302
▁nabase	-10.0313
▁nithanda	-10.0322
khathazeka	-10.0325
▁bengena	-10.0329
menyiwe	-10.0358
▁ungow	-10.0363
gangomuso	-10.0377
ngamukela	-10.0388
ombusi	-10.0419
Ungubani	-10.0431
yikhona	-10.0433
▁efika	-10.0458
uqa	-10.0467
sitsha	-10.0479
amasango	-10.0479
buyi	-10.0489
yiz	-10.0492
linde	-10.0513
▁yasi	-10.0521
▁okuphila	-10.0537
bambelel	-10.0539
ngenakho	-10.0541
sindise	-10.0547
kufa	-10.0547
mukisa	-10.0553
ngabaza	-10.0575
chithe	-10.0587
Nawe	-10.06
▁Nguye	-10.06
lodwa	-10.0619
▁ngiza	-10.0619
yinceku	-10.0624
▁kubi	-10.0628
▁kunye	-10.0649
ndlini	-10.0684
▁ngobu	-10.0684
▁okuqond	-10.0692
▁ngazi	-10.0693
waba	-10.0707
vumela	-10.0745
▁Naba	-10.0794
▁inye	-10.0798
sizo	-10.0799
▁ngeze	-10.0812
W	-10.083
wammisa	-10.0842
▁eN	-10.0859
Lapho	-10.0865
dabuki	-10.0872
amanyala	-10.0873
yithanda	-10.0875
namahloni	-10.0875
dluli	-10.0879
▁enze	-10.0882
▁benginga	-10.0901
mnqum	-10.0903
samukela	-10.0909
▁sawo	-10.0923
neminyaka	-10.0925
▁ifu	-10.0935
phelelise	-10.0944
Kuse	-10.095
ngalo	-10.0951
mlalela	-10.0952
Lokho	-10.0954
Lazaru	-10.0954
▁nendoda	-10.0959
khohli	-10.0959
▁sengiya	-10.0961
kulahlwa	-10.0962
Lab	-10.0975
nxenye	-10.098
hlukana	-10.0983
hlakaniphile	-10.0984
sobala	-10.0985
nkulunkulu	-10.0985
esihawu	-10.1015
oPawulu	-10.1015
esithupha	-10.1016
ntwanyana	-10.1019
bheki	-10.1022
tabeni	-10.1022
ziphambeko	-10.1027
valo	-10.1032
Far	-10.1038
qaphele	-10.1038
londoloz	-10.1039
Betlehema	-10.1039
Korneliyu	-10.1039
hawukelwa	-10.1039
kaPawulu	-10.1039
mshado	-10.1039
ngqongqotha	-10.1039
qhutshwa	-10.1039
qondweni	-10.1039
zanyazanyiswa	-10.1039
▁eqinisweni	-10.1039
▁eyinkulungwane	-10.1039
▁eziyisithupha	-10.1039
▁indwangu	-10.1039
▁ingcosana	-10.1039
▁kweJordani	-10.1039
▁lweviki	-10.1039
mbongolo	-10.1039
tamasa	-10.1039
▁nganhliziyonye	-10.1039
yisono	-10.1039
▁ababiziweyo	-10.1039
qhweba	-10.1039
endwangu	-10.1039
hlakazekile	-10.1039
▁engikwenzayo	-10.1039
dumbu	-10.1039
hlangulisa	-10.1039
mukise	-10.1039
▁uyaphinga	-10.1039
ezinyembezi	-10.1039
ngabhubhi	-10.1039
▁nibone	-10.1039
▁kukaKristu	-10.104
buyisane	-10.104
minyango	-10.104
▁emthini	-10.104
▁bobabili	-10.104
▁bomhlaba	-10.1041
mikhuleko	-10.1041
▁ubone	-10.1041
▁Y	-10.1041
▁emseni	-10.1041
▁akwenzayo	-10.1041
qhuzu	-10.1041
mthwalo	-10.1042
▁imvula	-10.1043
dumise	-10.1043
▁ngukwesaba	-10.1044
zithiba	-10.1045
hluleka	-10.1046
▁lokwahlulelwa	-10.1046
▁wesinagoge	-10.1046
▁izinkanuko	-10.1046
▁makungabi	-10.1046
▁noSila	-10.1047
▁zokulunga	-10.1047
▁siphile	-10.1051
njwe	-10.1052
▁yebandla	-10.1053
▁angithandi	-10.1053
▁ukuyobona	-10.1053
▁mnyama	-10.1054
bikele	-10.1054
▁noYihlo	-10.1055
▁nemihlatshelo	-10.1056
▁isifundiso	-10.1056
▁wenkazimulo	-10.1057
ngatheli	-10.1058
▁namaGreki	-10.106
▁ngasendleleni	-10.106
isele	-10.106
▁nesihawu	-10.1063
▁noPawulu	-10.1063
▁izilimi	-10.1063
▁nezibonakaliso	-10.1067
▁esithile	-10.1067
▁iqhude	-10.1067
▁okuyize	-10.1068
▁nezikhonzi	-10.1069
bhekile	-10.1069
▁izindlu	-10.107
▁amanetha	-10.1071
▁labaJuda	-10.1071
▁ngamafutha	-10.1072
vumelana	-10.1073
hlanza	-10.1073
▁okunje	-10.1074
▁impumputhe	-10.1074
▁ngokujabula	-10.1075
▁ngenkazimulo	-10.1077
▁ngokupheleleyo	-10.1077
▁nezikhulu	-10.1079
mahluleli	-10.1081
▁kokubi	-10.1081
sayikuba	-10.1084
onile	-10.1086
▁wamthatha	-10.1088
▁nomlilo	-10.1089
mfumene	-10.109
▁uFestu	-10.109
▁yezwe	-10.109
▁kusobala	-10.109
▁kwendlu	-10.1091
▁indlala	-10.1091
▁ngabaphostoli	-10.1092
mshiya	-10.1093
holi	-10.1096
▁okholwayo	-10.1097
okuba	-10.1098
sekelwa	-10.1098
esabeni	-10.1098
▁ngokulunga	-10.1098
▁ngakini	-10.1099
▁udle	-10.11
okuduma	-10.1101
wile	-10.1101
kukuhle	-10.1102
▁neqiniso	-10.1102
▁ezinkan	-10.1103
ru	-10.1103
ngweni	-10.1103
▁ngasese	-10.1105
enziwa	-10.111
bonwe	-10.1111
▁uyindodana	-10.1113
▁abakhethiweyo	-10.1114
▁impande	-10.1115
▁umJuda	-10.1116
zincoma	-10.1119
mncinyane	-10.1121
▁isiya	-10.1121
▁ngaphesheya	-10.1122
kileyo	-10.1122
yekanga	-10.1122
abangasoki	-10.1123
▁idemoni	-10.1124
dwala	-10.1127
▁nginitshela	-10.1133
▁aphuze	-10.1133
▁kunami	-10.1137
lapha	-10.114
▁Baphendula	-10.1144
▁noSimoni	-10.1146
▁ngezinyawo	-10.1147
tshala	-10.1149
▁ngasemuva	-10.115
kuswelekile	-10.1155
▁owokuqala	-10.1158
▁uthembekile	-10.1159
▁madoda	-10.1159
▁nokuqonda	-10.1161
▁babhapathizwa	-10.1161
▁umuthi	-10.117
▁wawo	-10.1173
mazanga	-10.1175
▁Kwaba	-10.1178
▁ahambe	-10.1181
mangalis	-10.1182
▁umphathi	-10.1196
▁zaso	-10.1201
eyodwa	-10.1207
▁yaphendula	-10.1208
▁ngcono	-10.1211
▁wamangala	-10.1214
▁bamncenga	-10.1215
▁waphenduka	-10.122
lwi	-10.1229
▁engiyaku	-10.1239
▁sibonakaliso	-10.1242
sebenzela	-10.1243
▁ngabapristi	-10.1246
thembisa	-10.1247
▁Yiba	-10.1256
▁bema	-10.1256
▁yiba	-10.1257
▁yima	-10.126
▁kungengoku	-10.1265
bulukhuni	-10.1279
yethemba	-10.1286
khul	-10.1291
hleba	-10.1291
obuwula	-10.1297
Kristu	-10.1302
vikel	-10.1305
zinhlanzi	-10.1324
▁kuyise	-10.1333
bapha	-10.1347
vangeli	-10.1359
ethempeli	-10.1361
▁abakhuleka	-10.1375
▁kukhulu	-10.1383
▁wakhala	-10.1385
▁kwathiwa	-10.139
▁kaMoya	-10.139
qhube	-10.1395
▁kweza	-10.1397
omyalo	-10.1399
▁ungum	-10.14
▁mhlophe	-10.1409
gcin	-10.1411
▁nguKristu	-10.1418
wabantu	-10.1421
thwala	-10.1421
▁ukukhuleka	-10.1429
▁Awu	-10.1442
kuzwayo	-10.1455
▁yize	-10.1457
▁ngithe	-10.1467
nyiswa	-10.1473
▁koba	-10.148
▁abahlezi	-10.1487
khethile	-10.1491
phostoli	-10.1492
▁enamandla	-10.1499
▁wakhuphuk	-10.1501
zakwenzani	-10.1509
▁ngiyakuba	-10.1546
ngcono	-10.155
xway	-10.1564
▁eniyakuku	-10.1565
dum	-10.157
bekile	-10.1593
▁nifuna	-10.1611
▁imini	-10.1616
ngifuna	-10.1617
zakuthi	-10.1633
▁yase	-10.1634
▁khumbula	-10.1634
▁okw	-10.165
▁kubona	-10.1652
duduza	-10.1657
▁bakhuleka	-10.1659
▁Onga	-10.1664
dede	-10.1669
silele	-10.1703
wenze	-10.1704
lungisisi	-10.171
khaphele	-10.1716
mngcolis	-10.1745
hlangan	-10.1746
zisho	-10.1768
▁ukuthanda	-10.1773
ngufakazi	-10.1778
▁okholwa	-10.1809
sendle	-10.1812
ekile	-10.1815
ane	-10.1817
ondo	-10.1827
mamukele	-10.1827
mlind	-10.1832
nomhawu	-10.1837
Isi	-10.1842
▁akenz	-10.1859
kwakha	-10.1862
▁behlel	-10.1865
eleni	-10.1867
zithanda	-10.1874
ngesabi	-10.189
ngcolisa	-10.1891
khulumi	-10.1892
boshwa	-10.19
thusi	-10.1909
golide	-10.1926
feza	-10.1942
bungcwele	-10.1972
▁eziyi	-10.1976
ngipha	-10.1979
▁ak	-10.1982
▁gama	-10.1987
ngawo	-10.1997
sibindi	-10.2027
hhashi	-10.2047
▁yema	-10.2048
Petru	-10.2051
ezidalwa	-10.2062
khokhe	-10.207
▁Inkosi	-10.2071
▁sen	-10.2081
akube	-10.2096
zishaya	-10.2125
▁ukusho	-10.2136
vuleka	-10.214
Kesari	-10.2148
▁beze	-10.2161
ululela	-10.2162
akala	-10.2163
khawul	-10.2177
khalela	-10.2179
▁akus	-10.218
nkosikazi	-10.2184
isikhonzi	-10.2185
▁afe	-10.2202
sipho	-10.2203
sithembiso	-10.221
▁njengesi	-10.2211
amanye	-10.2252
omlomo	-10.2265
zidalwa	-10.2274
mbopha	-10.2282
▁nakulo	-10.2289
Nami	-10.2295
Thina	-10.2296
enyuka	-10.2299
sizukulwane	-10.23
Ngalokho	-10.2304
elula	-10.2314
wesithathu	-10.2321
mbele	-10.2328
bhubh	-10.233
phanga	-10.2335
kubonileyo	-10.2341
▁abangaba	-10.235
▁singaba	-10.2353
Thimothewu	-10.2356
obukhulu	-10.2363
nenkazimulo	-10.2368
omubi	-10.2374
Marta	-10.2381
kwahlulelwa	-10.2385
iyeza	-10.2386
▁njengezi	-10.2392
mfula	-10.2404
kinina	-10.2408
ndlala	-10.241
ngikusho	-10.2412
qobo	-10.2413
muhla	-10.2414
yindodana	-10.2416
▁okoku	-10.242
▁kuyint	-10.2424
hube	-10.2426
ngilandele	-10.2434
abaSadusi	-10.2443
amaGreki	-10.2443
iselwa	-10.2443
bethelw	-10.2445
suk	-10.2451
▁elihle	-10.2452
tshelwa	-10.2453
mihlatshelo	-10.2453
nqume	-10.2457
buqili	-10.2457
gaba	-10.2459
gcini	-10.2459
mnandi	-10.246
kuzenzisa	-10.2462
babamba	-10.2462
phula	-10.2463
Sidoni	-10.2463
chilo	-10.2466
Betsayida	-10.2467
Galathiya	-10.2467
Krethe	-10.2467
Simeyoni	-10.2467
Stefanu	-10.2467
egcekeni	-10.2467
habhu	-10.2467
hlanzekileyo	-10.2467
hudulel	-10.2467
humush	-10.2467
mGreki	-10.2467
msindo	-10.2467
nesihe	-10.2467
ngumfokazi	-10.2467
phulukise	-10.2467
umtetrarki	-10.2467
▁emshadweni	-10.2467
▁enkazimulweni	-10.2467
▁ezixukwini	-10.2467
▁iPhasika	-10.2467
▁nakwabezizwe	-10.2467
▁umbono	-10.2467
ekusithekeni	-10.2467
▁emikhulekweni	-10.2467
▁kukusindisile	-10.2467
▁lukaKristu	-10.2467
▁umnyango	-10.2467
▁yisibonelo	-10.2467
qhwaga	-10.2467
▁eliphezulu	-10.2467
▁ezinyaweni	-10.2467
▁isithombe	-10.2467
dons	-10.2467
ngapheliyo	-10.2467
▁ekuhambeni	-10.2467
▁emibili	-10.2467
ensimbi	-10.2467
babulali	-10.2467
▁ebubini	-10.2467
▁omncane	-10.2468
andulele	-10.2468
sihlephula	-10.2468
kungasoki	-10.2468
thandiweyo	-10.2468
▁ukungibulala	-10.2468
▁ulwandle	-10.2468
▁isivini	-10.2468
▁indlebe	-10.2468
▁isibili	-10.2468
nakekela	-10.2468
bhapathizelwa	-10.2468
lahliwe	-10.2468
nqobe	-10.2468
▁uFe	-10.2469
▁abezwayo	-10.2469
▁ekuseni	-10.2469
▁sibone	-10.2469
zindwangu	-10.2469
▁ngezinkanuko	-10.2469
▁owahlulela	-10.247
▁zobukhosi	-10.247
dabukiswa	-10.247
▁utshani	-10.247
lineni	-10.2472
▁okokuqala	-10.2472
▁eziyikhulu	-10.2472
duduzwa	-10.2472
cish	-10.2473
nqamuka	-10.2473
▁isiyaluyalu	-10.2473
▁levangeli	-10.2473
▁sabantu	-10.2473
▁yevangeli	-10.2474
▁luvalo	-10.2475
thume	-10.2475
▁kwenzeni	-10.2475
▁lesithupha	-10.2475
zibekelel	-10.2476
▁kubalimi	-10.2476
▁ngiyanincenga	-10.2477
▁zesiliva	-10.2477
▁ngokwakhe	-10.2477
lamani	-10.2477
▁ngobuqili	-10.2477
gedla	-10.2478
▁siyeza	-10.2478
▁nezifebe	-10.2478
▁elimnandi	-10.2479
ngaqondiyo	-10.2479
vuswe	-10.2479
▁ngesiHeberu	-10.248
▁sokulunga	-10.248
▁nezinduna	-10.2482
▁abafowabo	-10.2482
▁okudaliweyo	-10.2483
▁eyenziw	-10.2484
▁Kunjani	-10.2484
▁abam	-10.2484
▁nezimangaliso	-10.2484
▁linjenge	-10.2485
▁neJerusalema	-10.2486
▁zegolide	-10.2488
▁zenyama	-10.2489
▁ikamel	-10.2489
phathwa	-10.2489
▁nesifundiso	-10.2489
nikhumbuza	-10.2489
kukaMoya	-10.249
▁komuzi	-10.249
▁laseGalile	-10.249
njwa	-10.249
▁nisa	-10.2491
▁nabaSadusi	-10.2492
▁ngamathe	-10.2493
▁kokubili	-10.2494
magatsha	-10.2494
▁kancane	-10.2496
▁yesono	-10.2496
▁abonakalis	-10.2497
ngonyama	-10.2498
▁ndodana	-10.2501
▁njengabanye	-10.2501
▁nonembeza	-10.2502
▁ngamehlo	-10.2503
▁kalukhuni	-10.2504
▁iziqa	-10.2504
▁wokukholwa	-10.2507
qambe	-10.2508
siqhingi	-10.2509
▁izithembiso	-10.251
ombango	-10.2511
tusa	-10.2511
yaliwe	-10.2511
▁ngedwa	-10.2512
▁wababuza	-10.2512
▁owakhe	-10.2512
abakhululekileyo	-10.2513
▁umfowenu	-10.2514
▁ngolimi	-10.2514
▁abancinyane	-10.2515
nokudla	-10.2516
hlatshwa	-10.2518
Luk	-10.2519
▁ngobani	-10.252
▁ukuphikisana	-10.2522
▁lweNkosi	-10.2523
amaparele	-10.2524
▁yezwi	-10.2526
Yima	-10.2527
▁umninindlu	-10.2527
hlalisa	-10.2528
phepha	-10.253
▁nemizi	-10.2531
▁akasi	-10.2531
▁onkulunkulu	-10.2531
▁abazaku	-10.2532
fundisiwe	-10.2532
▁Ngabona	-10.2532
▁okwami	-10.2534
▁noJuda	-10.2538
▁olubi	-10.2538
▁nokuhlambalaza	-10.254
▁umqondo	-10.254
▁abathandekayo	-10.2541
▁bezizwe	-10.2543
▁Okholwa	-10.2544
▁yabaFarisi	-10.2545
▁ngabaJuda	-10.2548
▁oBarnaba	-10.2549
▁ukumbamba	-10.2549
guquka	-10.2549
▁kungok	-10.255
cebileyo	-10.255
▁nezizwe	-10.255
▁nomzimba	-10.2552
▁uThimothewu	-10.2554
▁ngemi	-10.2559
nte	-10.256
vulekile	-10.2561
hlelo	-10.2562
▁kwemi	-10.2562
isile	-10.2563
▁bazenzisi	-10.2564
▁uLazaru	-10.2566
▁nezinyawo	-10.2566
lotshwa	-10.2567
kwenzekile	-10.2569
▁abathathu	-10.257
luthando	-10.2572
▁ukubekezela	-10.2574
▁ompofu	-10.2574
▁yiwo	-10.2574
nzalweni	-10.2575
▁izikhonzi	-10.2576
ngumfundi	-10.2578
nenza	-10.2579
▁unembeza	-10.258
▁noyise	-10.2581
▁ngento	-10.2583
▁okhokho	-10.2587
▁bathandekayo	-10.2603
owodwa	-10.2604
▁encane	-10.2609
mhlambi	-10.2612
ngesilo	-10.2615
▁uvukile	-10.2619
nazisa	-10.2629
zibonge	-10.2629
▁kubaphostoli	-10.263
nithethelela	-10.2631
▁wasukuma	-10.2631
▁lokufa	-10.2635
omusi	-10.2638
▁ningakholwa	-10.2643
▁kuMose	-10.2643
▁isikhonzi	-10.2652
▁wakini	-10.2652
▁emhlophe	-10.2659
▁Wangena	-10.2661
▁kwabaningi	-10.2662
ngoMoya	-10.2666
▁bememeza	-10.2668
▁ngingekho	-10.2669
shumayez	-10.2671
▁ukhula	-10.2673
▁amanyala	-10.2675
kabi	-10.2676
▁namahloni	-10.2681
▁kubaFarisi	-10.2683
▁engiba	-10.2692
mhlobo	-10.2697
▁lube	-10.2703
▁nezwe	-10.2713
▁kuSimoni	-10.2716
▁ezith	-10.2718
thukuthelel	-10.2721
kuzo	-10.2728
nazo	-10.2738
▁wasezulwini	-10.2747
▁waf	-10.2761
▁ohlwanyel	-10.2764
▁indaba	-10.2766
▁kaBaba	-10.2768
▁wadabu	-10.2772
yiswa	-10.2783
▁ngumuntu	-10.2783
qiniswa	-10.2786
▁endle	-10.2787
ezinceku	-10.28
Siriya	-10.28
▁ngibuye	-10.28
▁wabafundi	-10.2812
▁badle	-10.2816
cwa	-10.2822
▁ngomunye	-10.2833
▁wavuka	-10.2837
▁nabaJuda	-10.2839
▁bathumela	-10.2855
▁asenz	-10.2862
dlela	-10.2884
lekela	-10.2886
bulele	-10.2891
owesifazane	-10.2911
▁nel	-10.2913
▁uhlale	-10.2918
▁ukhulume	-10.2926
ngabaprofethi	-10.2944
▁esaba	-10.2961
ngikhaphela	-10.2971
▁akazi	-10.2972
mewu	-10.2973
pholi	-10.298
▁namadoda	-10.2997
▁okungena	-10.3
qali	-10.3014
▁okukhona	-10.3019
ebeni	-10.3026
zakufa	-10.3027
odwa	-10.3039
mangalelwa	-10.304
▁ug	-10.3044
omsebenzi	-10.3049
iki	-10.305
mhawu	-10.3057
nguNkulunkulu	-10.3112
▁beNkosi	-10.3132
ngenhla	-10.318
▁akuvel	-10.3184
▁Bayaku	-10.3193
▁enza	-10.3201
bezwe	-10.3215
londe	-10.322
mmangalela	-10.3237
lami	-10.3247
▁angam	-10.3252
bingelel	-10.328
▁isith	-10.3298
mbuz	-10.3318
wesifazane	-10.3333
langabi	-10.3337
Jerusalema	-10.3388
kwakhe	-10.3395
kwenzele	-10.3417
lawo	-10.3418
izindlela	-10.3431
vumi	-10.3468
buyisel	-10.3469
olunye	-10.3476
mhawukela	-10.3484
yis	-10.3493
bahlobo	-10.3499
▁edabu	-10.3502
lingo	-10.3508
tshengisa	-10.3509
enzo	-10.351
kubonakalis	-10.3527
mkhiphel	-10.356
▁yath	-10.3579
▁kubonakalisw	-10.3586
yisinkwa	-10.3596
▁baphume	-10.3602
▁nilinde	-10.3603
abesilisa	-10.3617
nj	-10.3636
▁olunga	-10.364
▁el	-10.3648
velaphi	-10.3648
ngavumi	-10.3676
enhliziyo	-10.3676
nguyise	-10.3694
yena	-10.3719
empahla	-10.3742
kwenzi	-10.3753
kuthwala	-10.3755
▁akuyiku	-10.3759
omprofethi	-10.3773
ngozi	-10.3777
hlola	-10.38
kwethemb	-10.3805
▁amuke	-10.3816
▁kungokwa	-10.382
▁Niyaku	-10.3836
anu	-10.3836
obuqotho	-10.3844
ahlulelwa	-10.385
gugu	-10.385
shongo	-10.3884
ahlulelwe	-10.3926
▁nezinto	-10.3928
akhi	-10.3934
untu	-10.3935
Thu	-10.395
Wayesethi	-10.3969
zimangaliso	-10.397
Kodwa	-10.3973
Inkosi	-10.3975
▁nabangena	-10.3987
kuwo	-10.3995
Lowo	-10.3999
ukweni	-10.4016
abantu	-10.402
ngcwelisiwe	-10.4022
▁Bese	-10.4023
▁Akusi	-10.4031
khuthalel	-10.4045
mqondo	-10.4048
mthethweni	-10.406
Ubusisiwe	-10.406
tshwa	-10.4061
fumene	-10.4065
▁ningam	-10.4075
▁lathi	-10.4076
sisekelo	-10.4076
ntombazana	-10.408
iva	-10.4085
▁ethembe	-10.4087
ezinsuk	-10.4088
bonge	-10.4094
Tomase	-10.4107
qedi	-10.4109
esabe	-10.4109
akwaJuda	-10.4109
thandeka	-10.4112
ncekwini	-10.4122
esiko	-10.4133
qambi	-10.4133
eSamariya	-10.4134
funyaniswa	-10.4134
ABA	-10.4134
Akwila	-10.4134
Aleksandru	-10.4134
Hosiyana	-10.4134
INKOSI	-10.4134
Ikoniyu	-10.4134
Listra	-10.4134
Nathanayeli	-10.4134
amajuba	-10.4134
aseningizimu	-10.4134
enkonzo	-10.4134
esigcawini	-10.4134
khafulel	-10.4134
khazimulayo	-10.4134
nqumile	-10.4134
phunyuka	-10.4134
seBethaniya	-10.4134
seThesalonika	-10.4134
semkhunjini	-10.4134
semzimbeni	-10.4134
senyameni	-10.4134
setilongweni	-10.4134
shiywa	-10.4134
veze	-10.4134
▁Elokugcina	-10.4134
▁On	-10.4134
▁akunakwenzeka	-10.4134
▁eJeriko	-10.4134
▁eTrowa	-10.4134
▁emeveni	-10.4134
▁emgodini	-10.4134
▁empumalanga	-10.4134
▁engutsheni	-10.4134
▁esikhundleni	-10.4134
▁esonweni	-10.4134
▁ezigcawini	-10.4134
▁imivimbo	-10.4134
▁kaJona	-10.4134
▁nanhlanu	-10.4134
▁oJakobe	-10.4134
▁qaphelani	-10.4134
Khul	-10.4134
amaRoma	-10.4134
esambatho	-10.4134
gxum	-10.4134
kwambulwe	-10.4134
ngumbulali	-10.4134
▁nomkakhe	-10.4134
▁nonyoko	-10.4134
▁sekufeni	-10.4134
empepho	-10.4134
▁esivinini	-10.4134
▁ogwini	-10.4134
▁esingenamvubelo	-10.4134
▁inkatho	-10.4134
▁zezibani	-10.4134
khanyisa	-10.4134
▁inkolo	-10.4134
viniga	-10.4134
▁efwini	-10.4134
hlanjalazwa	-10.4134
▁niqinile	-10.4134
yisiboniso	-10.4134
▁izifo	-10.4134
Athene	-10.4134
mbisisa	-10.4134
▁ubukhosi	-10.4134
▁echibini	-10.4134
koyedwa	-10.4134
mlamuleli	-10.4134
▁anenani	-10.4134
▁noYise	-10.4134
▁omdala	-10.4134
▁ihlazo	-10.4135
▁bakaJohane	-10.4135
▁lwalokho	-10.4135
▁azenzayo	-10.4135
nasono	-10.4135
▁engingaku	-10.4135
▁ngokungafanele	-10.4135
▁ekamu	-10.4135
fihliweyo	-10.4135
phakanyiswa	-10.4135
ezimbuzi	-10.4136
ngaziwayo	-10.4136
Lungisa	-10.4136
▁enkosini	-10.4136
▁inetha	-10.4136
▁bathula	-10.4136
ngaphenduki	-10.4137
ekusweleni	-10.4137
nyakazisa	-10.4137
aseTire	-10.4137
funisisa	-10.4137
zibophe	-10.4137
ngafuni	-10.4137
▁zomhlaba	-10.4138
Suka	-10.4139
▁yenzani	-10.4139
▁enqabeni	-10.4139
diyu	-10.4139
hlolisis	-10.4139
▁kwenzeke	-10.414
▁samanje	-10.414
▁kukaJohane	-10.414
nikiwe	-10.4141
qinileyo	-10.4141
kungcweliswa	-10.4142
▁kobusuku	-10.4142
▁yomhlaba	-10.4143
hlubuka	-10.4143
▁Wayesebabiza	-10.4143
esibusiso	-10.4144
lungisiwe	-10.4144
libala	-10.4145
▁ezintabeni	-10.4145
▁thokozani	-10.4145
▁ezincekwini	-10.4146
vunyiwe	-10.4146
kwabangakholwayo	-10.4147
▁sekusile	-10.4147
▁ukuyokhuleka	-10.4147
ceku	-10.4147
▁nenhlam	-10.4147
vumeli	-10.4148
bambile	-10.4149
▁babaleka	-10.4149
valelisa	-10.4149
▁ngeziphambeko	-10.4149
▁ningakhathazeki	-10.415
▁imimoya	-10.415
▁enginakho	-10.415
▁kwezingelosi	-10.4151
sindile	-10.4152
▁yenkosi	-10.4153
▁sekufikile	-10.4153
jok	-10.4153
▁ngezono	-10.4154
▁nenyanga	-10.4154
ngakhali	-10.4155
▁uyakuphiwa	-10.4155
Lizwi	-10.4155
Thokozani	-10.4155
▁ngomkhosi	-10.4155
ngangabazi	-10.4155
sta	-10.4155
▁usulu	-10.4156
▁ongalungile	-10.4156
▁akulutho	-10.4158
▁abekwenzile	-10.4159
▁nithandane	-10.416
bonisisa	-10.416
▁ngabokugcina	-10.4161
ngengqondo	-10.4162
▁zokugcina	-10.4162
mukile	-10.4163
▁ngemizi	-10.4163
boshwe	-10.4164
▁ukukhululwa	-10.4165
omnikelo	-10.4165
▁yesixuku	-10.4166
▁elimhlophe	-10.4167
▁kwezulu	-10.4167
pheleliswe	-10.4167
Yenza	-10.4168
▁ezimhlophe	-10.4168
▁nabafileyo	-10.4171
chasisela	-10.4171
ngasolekiyo	-10.4171
▁nifund	-10.4172
▁izibani	-10.4172
mhlanga	-10.4172
▁lokugcina	-10.4173
qoma	-10.4174
▁kwenhliziyo	-10.4175
▁womuntu	-10.4176
▁nesitsha	-10.4176
Niko	-10.4177
▁wabaphulukisa	-10.4177
▁UKristu	-10.4178
▁zinceku	-10.4178
▁ngisindise	-10.418
yizoni	-10.418
▁komusa	-10.4182
▁okuncane	-10.4183
▁ngiyathokoza	-10.4183
▁bakhonona	-10.4183
▁isifile	-10.4183
▁isihlu	-10.4183
▁zezwe	-10.4184
▁lwabo	-10.4184
▁isikhubekiso	-10.4185
▁kaJuda	-10.4185
batshela	-10.4186
kuthobeka	-10.4187
▁nendodana	-10.419
▁ngokungakholwa	-10.419
▁nowesifazane	-10.419
▁ngiyamazi	-10.4193
▁komuntu	-10.4193
▁sakithi	-10.4193
▁ngokubekezela	-10.4194
bongeka	-10.4194
baphathe	-10.4195
▁igolide	-10.4195
▁njengase	-10.4195
▁ngihawukele	-10.4195
▁umfana	-10.4195
▁nokubekezela	-10.4196
diya	-10.4198
▁okuthile	-10.4198
▁eyihlane	-10.42
▁kwesikhathi	-10.4201
esihlabathi	-10.4202
▁ngesithembiso	-10.4202
▁ngenyama	-10.4205
▁uyaphila	-10.4207
okubonwayo	-10.4207
▁nabangcwele	-10.4209
▁nime	-10.421
sekuboshweni	-10.421
fikelwa	-10.4214
▁nginguye	-10.4216
▁oPhezukonke	-10.4217
▁ngakwesokhohlo	-10.4218
▁nokukhanya	-10.4221
▁okulungileyo	-10.4224
▁ukubiz	-10.4225
ngcwelisa	-10.4227
▁izimpumputhe	-10.4228
▁amafutha	-10.423
▁zeNkosi	-10.423
▁njengathi	-10.4231
enezela	-10.4232
▁nigcwalis	-10.4234
mJuda	-10.4234
duku	-10.4237
▁uMarta	-10.4237
▁basindiswe	-10.4238
▁okukaNkulunkulu	-10.4245
▁nenzalo	-10.4245
ezinyoka	-10.4246
▁wabaprofethi	-10.4251
khohlisi	-10.4252
njabulo	-10.4254
ngumqambimanga	-10.4256
hloli	-10.4256
▁ungithumile	-10.4261
▁Bayi	-10.4261
▁umum	-10.4261
▁ukukhuthazela	-10.4262
▁nalapha	-10.4263
▁kwabaJuda	-10.4271
tol	-10.4271
▁samuka	-10.4272
▁bamyis	-10.4274
▁wehla	-10.4274
▁kunaye	-10.4275
Angisiye	-10.4277
zigcwele	-10.4277
ngcwelise	-10.4279
▁obizw	-10.428
▁wamlandela	-10.428
betho	-10.428
▁akusizi	-10.4283
▁abone	-10.4284
▁nginani	-10.4285
wesizwe	-10.4285
▁nezinye	-10.4289
▁engiyi	-10.4291
▁Waphuma	-10.4293
mifanekiso	-10.4294
▁bambamba	-10.4296
▁kuMoya	-10.4297
▁amahla	-10.4298
▁siyakuthi	-10.4299
▁Ngiyazi	-10.4304
mema	-10.4306
▁angayi	-10.431
▁bangam	-10.4311
▁ukuhlambalaza	-10.4311
ogange	-10.4313
phendukanga	-10.4316
bhubhayo	-10.4317
▁uSawulu	-10.4318
bizele	-10.432
▁nowab	-10.4321
▁abahlobo	-10.4323
wenziwa	-10.4332
▁isiphi	-10.4334
▁bethuka	-10.4335
engqondo	-10.4339
solwa	-10.4347
qoq	-10.4349
▁ngokwazi	-10.435
khumbuz	-10.4357
ibonelo	-10.4365
▁ningaze	-10.4373
▁enithi	-10.4375
ngangeni	-10.4376
umbusi	-10.4377
▁olahla	-10.4379
Lawo	-10.4381
▁ningez	-10.4393
hlole	-10.4396
Makungabi	-10.4406
▁kuFiliphu	-10.4407
umahluleli	-10.4408
lulele	-10.4413
zilungisele	-10.4426
▁esibi	-10.4426
ngokuvuka	-10.4429
▁bahambe	-10.444
ngukuphila	-10.4443
▁ongum	-10.4459
▁angabi	-10.4461
▁njengokw	-10.4476
enzanga	-10.4486
mpahla	-10.4487
duduze	-10.4506
▁usizi	-10.4524
dlile	-10.4557
sakhiw	-10.4559
fuba	-10.4567
kwethu	-10.4601
ezelwa	-10.4601
yizwi	-10.4613
mehlisa	-10.4614
Buy	-10.4616
ingafanele	-10.4624
umuphi	-10.4642
mthombo	-10.4685
▁ngingum	-10.4685
▁anisibo	-10.4686
lethwe	-10.4706
besilisa	-10.4734
▁makunga	-10.4759
guqule	-10.4769
zisindise	-10.4796
ubuwula	-10.4817
miswe	-10.4818
shiyi	-10.4826
▁nokufa	-10.4828
khethi	-10.4843
klebhul	-10.4877
beletha	-10.4878
ndwe	-10.4889
abeni	-10.4896
bavusel	-10.4929
delelwa	-10.4944
ezimpond	-10.4945
lethile	-10.4953
▁ezimv	-10.4957
ethemb	-10.4965
hlul	-10.4997
amileyo	-10.5003
wesilisa	-10.5012
ziphakamis	-10.5014
▁bayishay	-10.5037
▁izinka	-10.5042
zith	-10.5054
boshelw	-10.5063
ngabantu	-10.51
godl	-10.5103
enzile	-10.5104
deleli	-10.5113
shunyaye	-10.5114
▁ngelika	-10.5124
mbonile	-10.5128
njengokuba	-10.5138
sekel	-10.5159
ezulu	-10.5207
ishaye	-10.5218
yinquma	-10.5219
kabani	-10.5246
noMose	-10.5251
zifakazela	-10.5265
ngithokozi	-10.5285
yibonile	-10.5302
▁eseqed	-10.5303
wenu	-10.5312
bupristi	-10.5338
bafelokazi	-10.5345
ngakhulumi	-10.5439
Yihlo	-10.5468
Ngingu	-10.5508
phakamisel	-10.5515
Nithi	-10.5516
bokukholwa	-10.5533
▁yesaba	-10.5547
uzile	-10.5586
Es	-10.5624
ezikhathi	-10.563
nhlanzi	-10.5643
kolweni	-10.5655
▁wehlelw	-10.5675
hlangabeza	-10.5685
adle	-10.5711
ngqondo	-10.5714
vulele	-10.5747
▁uzakungi	-10.5749
benzi	-10.5766
Makedoniya	-10.5785
dokodo	-10.5797
zonde	-10.5809
Sin	-10.5849
mlandele	-10.5855
yayazi	-10.5862
anazi	-10.5863
phelela	-10.5869
▁asibeke	-10.5879
▁waphons	-10.5915
yakusindiswa	-10.592
omhlaba	-10.5927
amanje	-10.5947
Abant	-10.5963
Amen	-10.5967
buhle	-10.5967
Kwakukhona	-10.5968
▁angiyiku	-10.5968
Futhi	-10.5968
enyukel	-10.5983
onje	-10.5984
ngasemuva	-10.5991
hosha	-10.6001
abagulayo	-10.6007
phambili	-10.6032
ngitshele	-10.6037
Festu	-10.6049
mninindlu	-10.605
hlangothi	-10.6051
makhelwane	-10.6052
mfowabo	-10.6053
siswini	-10.6057
bandleni	-10.6057
gatsha	-10.6062
yihlane	-10.6069
zithembiso	-10.6073
khonona	-10.6074
sikhubekiso	-10.6074
Jud	-10.6076
hange	-10.6077
ntabeni	-10.6079
▁kaHerod	-10.6082
nguMoya	-10.6094
ngcola	-10.6095
khombis	-10.6097
nceng	-10.6101
▁yinhl	-10.6104
daliweyo	-10.6111
khulekele	-10.6113
yaluyalu	-10.6126
5	-10.6132
phefumul	-10.6132
endulo	-10.6133
enyusel	-10.6133
▁esifu	-10.6133
ste	-10.6134
gingq	-10.6134
yamukeliswa	-10.6134
4	-10.6134
Aristarku	-10.6134
Bantwana	-10.6134
Gayu	-10.6134
Italiya	-10.6134
Jasoni	-10.6134
Kubantu	-10.6134
Phuma	-10.6134
Shesha	-10.6134
Thikhiku	-10.6134
dadewethu	-10.6134
dunyiswe	-10.6134
emihelo	-10.6134
gwaqweni	-10.6134
khazimulisa	-10.6134
khukhumele	-10.6134
maSamariya	-10.6134
madiyakoni	-10.6134
mzuzu	-10.6134
ncintisana	-10.6134
ncithakalo	-10.6134
nezinhloni	-10.6134
ngesiphambeko	-10.6134
ngumRoma	-10.6134
nqolobane	-10.6134
numzane	-10.6134
profethe	-10.6134
seKorinte	-10.6134
sensimini	-10.6134
sentshonalanga	-10.6134
vivinya	-10.6134
vivinyw	-10.6134
yizinhlobonhlobo	-10.6134
zinganekwane	-10.6134
▁ashiywe	-10.6134
▁ebuthakathakeni	-10.6134
▁ekubhujisweni	-10.6134
▁elicolekileyo	-10.6134
▁emaphandleni	-10.6134
▁emibhalweni	-10.6134
▁entanyeni	-10.6134
▁induduzo	-10.6134
▁intukuthelo	-10.6134
▁izinyembezi	-10.6134
▁kuPawulu	-10.6134
▁kungakenzeki	-10.6134
▁kweliphezulu	-10.6134
▁lingakakhali	-10.6134
▁ngasesangweni	-10.6134
▁ngephupho	-10.6134
▁ngesifungo	-10.6134
▁nguPawulu	-10.6134
▁nkonzo	-10.6134
▁sakwaBenjamini	-10.6134
▁uMarku	-10.6134
▁uThithu	-10.6134
▁umbhapathizo	-10.6134
▁umhlatshelo	-10.6134
▁umninisivini	-10.6134
▁wazihlephula	-10.6134
▁yesinaphi	-10.6134
hlambuluka	-10.6134
mlobokazi	-10.6134
umkhuhlane	-10.6134
▁ekukhulekeni	-10.6134
▁nezinduku	-10.6134
▁yegumbi	-10.6134
Alfewu	-10.6134
▁waseSamariya	-10.6134
isindisiwe	-10.6134
krist	-10.6134
▁abokusoka	-10.6134
▁yongithumileyo	-10.6134
mthenwa	-10.6134
tilongo	-10.6134
khulelweyo	-10.6134
ntambo	-10.6134
Somandla	-10.6134
▁engikuthandayo	-10.6134
linqaba	-10.6134
gxil	-10.6134
▁kasikhombisa	-10.6134
▁onothileyo	-10.6134
gubuzel	-10.6134
Susa	-10.6134
▁amasimu	-10.6134
▁eyedwa	-10.6134
▁okomoya	-10.6134
emiya	-10.6134
emibhalo	-10.6134
▁enikubonayo	-10.6134
▁basutha	-10.6134
Eno	-10.6135
▁ningethu	-10.6135
Aroni	-10.6135
▁kwalasha	-10.6135
ngafungi	-10.6135
▁akwenzileyo	-10.6135
dangali	-10.6135
khishw	-10.6135
fushane	-10.6135
▁zibone	-10.6135
emfuleni	-10.6135
▁Ngoku	-10.6135
▁okwenu	-10.6135
ngokaKristu	-10.6135
▁agcwalise	-10.6135
▁obekuzaku	-10.6135
▁amthandayo	-10.6135
▁langakhona	-10.6135
▁bukaJesu	-10.6135
▁endodeni	-10.6135
amacebo	-10.6135
ezinyosi	-10.6136
▁liyisi	-10.6136
▁inyanga	-10.6136
▁ongakholwayo	-10.6136
▁walamba	-10.6136
abazidlayo	-10.6136
▁osizini	-10.6136
Diyana	-10.6136
kuyihlazo	-10.6136
amaphiko	-10.6136
mhlwanyeli	-10.6136
khondo	-10.6136
lahlekileyo	-10.6136
▁eyisikhombisa	-10.6136
▁sisinye	-10.6136
dunyiswa	-10.6136
▁yenzuzo	-10.6137
▁kunabantu	-10.6137
minyanis	-10.6137
▁ngoBelzebule	-10.6138
nqabela	-10.6138
enkathi	-10.6138
▁kobuso	-10.6138
bendiswa	-10.6138
▁aniyiku	-10.6138
▁ngokwenu	-10.6138
shiswe	-10.6138
endodana	-10.6139
Thabatha	-10.6139
sigqilakazi	-10.6139
▁bemlinga	-10.6139
bathobele	-10.6139
▁ngabokuqala	-10.6139
▁emizaneni	-10.614
▁lindani	-10.614
▁kungukulunga	-10.614
Phi	-10.614
▁womhlaba	-10.614
▁ubisi	-10.614
▁ngasemnyango	-10.614
kutuswa	-10.6141
qalekisa	-10.6141
▁wawobaba	-10.6142
zwakale	-10.6143
▁lalelani	-10.6144
▁enikuzwayo	-10.6144
khukhula	-10.6144
▁ngukulunga	-10.6144
abokugcina	-10.6144
Yizwani	-10.6144
▁Ndlela	-10.6145
▁ngombhapathizo	-10.6145
▁nesibabule	-10.6145
▁omiyo	-10.6145
▁lwaseGalile	-10.6146
▁njengesela	-10.6146
▁isiboshwa	-10.6146
▁kwesono	-10.6146
hluphe	-10.6147
ngakabikho	-10.6147
▁laseGibithe	-10.6149
▁ngokuzenzisa	-10.6149
kholiwe	-10.6149
▁nguSathane	-10.615
qhoth	-10.6151
▁entsha	-10.6151
ngenabala	-10.6151
▁ezintsha	-10.6151
Nginguye	-10.6151
▁yokuthula	-10.6152
sikebhe	-10.6152
▁nezihambi	-10.6152
duduzeka	-10.6153
▁wokuthula	-10.6153
amasiko	-10.6153
▁nangothando	-10.6153
▁nobukhosi	-10.6154
▁yesizwe	-10.6154
▁nangamandla	-10.6155
▁buqinisile	-10.6157
▁ngobumnene	-10.6157
▁amazulu	-10.6157
▁nowasi	-10.6158
vunguz	-10.6158
semzini	-10.6159
▁yabezizwe	-10.616
▁yilokho	-10.6161
thathile	-10.6161
▁emathuneni	-10.6162
yalisisa	-10.6162
ngakucela	-10.6162
ezifweni	-10.6163
▁Bambuza	-10.6163
chitheka	-10.6163
▁leqiniso	-10.6164
phelile	-10.6164
▁wayenamadoda	-10.6164
▁esifaneleyo	-10.6164
▁ngokusobala	-10.6164
▁nobubi	-10.6165
▁kanembeza	-10.6165
ngikhulula	-10.6166
▁noTomase	-10.6167
▁nabafowethu	-10.6167
abelusi	-10.6169
▁komoya	-10.6169
▁niyamazi	-10.6171
▁ngukusindiswa	-10.6171
▁lwawo	-10.6172
▁kwelanga	-10.6172
▁ukungcola	-10.6173
▁nezandla	-10.6173
▁isikela	-10.6173
▁ukuphelela	-10.6174
wakhuza	-10.6174
▁noPetru	-10.6174
▁yezingelosi	-10.6175
▁zabaphostoli	-10.6175
▁bayibulala	-10.6177
▁sokuphila	-10.6177
▁nobuso	-10.6178
▁sokugcina	-10.6178
▁njengabo	-10.6178
▁othembekayo	-10.6178
▁kanyekanye	-10.6182
▁abacebileyo	-10.6182
▁izibopho	-10.6182
mnqumo	-10.6183
▁izakukh	-10.6186
▁Masi	-10.6186
▁ngomyalo	-10.6188
▁yabaprofethi	-10.6189
esikhonzi	-10.619
▁lomuzi	-10.619
▁isibani	-10.6194
zenzile	-10.6194
▁angilandele	-10.6195
khazimulisiwe	-10.6195
▁nibambelel	-10.6196
▁wayesephendula	-10.6196
▁bubi	-10.6196
▁amagatsha	-10.6198
▁sethempeli	-10.6199
▁abenyama	-10.6199
▁izimpi	-10.6202
▁noSawulu	-10.6203
bakhuza	-10.6204
Ungayi	-10.6204
▁Wayesephendula	-10.6205
▁kwengcebo	-10.6207
fezela	-10.6208
▁Naye	-10.6209
▁emandleni	-10.621
▁yinyama	-10.6215
▁kokuqala	-10.6218
▁sabaJuda	-10.6218
▁abancane	-10.622
▁nomfazi	-10.6221
▁noSathane	-10.6222
▁ngukuthi	-10.6223
pheme	-10.6225
Nifuna	-10.6227
▁nawoku	-10.6227
▁Beza	-10.6228
▁idili	-10.6229
▁ngobuthakathaka	-10.623
▁kaHerode	-10.6231
khululwa	-10.6234
bhubhise	-10.6236
▁ngiyakwenza	-10.6237
okhululekileyo	-10.6239
zakukwenza	-10.6241
▁zokuzwa	-10.6241
ebutho	-10.6242
▁ezinde	-10.6242
zazimthetho	-10.6243
banzi	-10.6244
▁nokunxusa	-10.6245
songel	-10.6246
bonakele	-10.6247
ngokwabantu	-10.6248
▁nosizi	-10.625
ngabazalwane	-10.6251
ngumprofethi	-10.6251
▁ezingcwele	-10.6252
yisiwula	-10.6252
qinisela	-10.6257
▁ngeminyaka	-10.626
hlwanyelanga	-10.626
▁yokukholwa	-10.627
▁kuyize	-10.6271
nginika	-10.6279
Mam	-10.6279
▁ngoNkulunkulu	-10.628
▁ngomuntu	-10.6282
▁sethu	-10.6293
qinisekile	-10.6304
hlebi	-10.6314
▁kumpristi	-10.6315
aseKhilikhiya	-10.6319
▁kwenziw	-10.6329
▁nodwa	-10.6331
▁malib	-10.6339
ngidumisa	-10.6356
▁ngesin	-10.6358
kwaphuc	-10.6366
cabangi	-10.6368
bekwe	-10.6389
▁amvus	-10.6394
benzela	-10.6403
ninokukholwa	-10.6417
omoya	-10.6434
khiphi	-10.6447
kujezis	-10.6462
ngenanto	-10.6465
dosi	-10.6468
▁nginikhu	-10.647
phikis	-10.6476
ababhali	-10.6494
▁owona	-10.6495
enyanga	-10.6515
shanel	-10.6524
kaSolomoni	-10.6534
endlela	-10.6566
▁wazith	-10.6567
▁owenz	-10.6576
mvumela	-10.6622
menyezelw	-10.6635
bafazi	-10.6668
linganise	-10.6673
Kuvuny	-10.6682
khulunyw	-10.6697
ningesabi	-10.6704
yimukisa	-10.6728
wokugcina	-10.674
ezilwane	-10.6741
isize	-10.6746
▁ngelakh	-10.6751
eyakhe	-10.6754
okhokho	-10.6764
obuso	-10.6768
zithoba	-10.6777
abangalungile	-10.6792
kuvuza	-10.6803
okuphinga	-10.6812
nokwazi	-10.6901
bonakalisile	-10.6909
mpumputhe	-10.6919
ohlanga	-10.6933
Khupro	-10.6939
pu	-10.695
eqe	-10.6951
ngaphansi	-10.6952
zihlobo	-10.6993
njengalokh	-10.7055
yahlulela	-10.7057
esifundiso	-10.7082
aneliswa	-10.712
ithini	-10.7149
yizimpumputhe	-10.7154
▁ningahlangan	-10.7156
▁Abazal	-10.716
qhubekel	-10.7179
fafaz	-10.7188
wokuphela	-10.7226
▁oyak	-10.7281
akhazimulisw	-10.7306
ngumthetho	-10.7351
▁uyakuthath	-10.7374
ufakazile	-10.7428
ezincwadi	-10.7437
▁sing	-10.7493
faza	-10.7501
zintombi	-10.752
▁nganelis	-10.7534
khuphuk	-10.7548
▁imic	-10.7553
phelekezela	-10.7587
hawukelwe	-10.762
Solomoni	-10.7621
▁akhuleke	-10.7634
▁abakhi	-10.7662
ayinike	-10.7683
ezinhlupheko	-10.7732
ngikhuleke	-10.7736
ngakabi	-10.7741
awobaba	-10.7745
wahlukene	-10.7799
thombo	-10.7828
luleke	-10.784
▁yayisith	-10.7861
zungez	-10.7898
zinsizwa	-10.7899
▁ngife	-10.7919
njengokulotshiwe	-10.7932
ngenisi	-10.7941
omvini	-10.7965
mfuma	-10.7967
khathini	-10.7969
igax	-10.7973
cebisa	-10.7987
okungaye	-10.7999
alokho	-10.8003
nkambo	-10.8018
ungebi	-10.8027
zulwini	-10.8061
thumile	-10.8137
mbuyise	-10.8189
ginitshelile	-10.8224
yakuthethelelwa	-10.8224
phumule	-10.8245
ngcwelis	-10.825
ezithombe	-10.8255
hlakele	-10.8261
▁uyakwamuk	-10.8281
theth	-10.8285
▁engiyakum	-10.8288
▁Njeng	-10.8309
senzo	-10.833
yitshe	-10.8339
khand	-10.8374
phelelisw	-10.8383
▁zobu	-10.8399
awoyihlo	-10.8406
shumayel	-10.8418
nteng	-10.8424
iyakuzond	-10.8431
iphile	-10.8433
▁ongesi	-10.8434
abango	-10.8439
▁enez	-10.8442
ngaphesheya	-10.846
Manje	-10.8464
ngaselwandle	-10.8465
zincom	-10.8465
Kanjalo	-10.8469
kubantu	-10.8469
T	-10.847
kudlule	-10.8482
unja	-10.8484
ingakhathazeki	-10.8485
umkakhe	-10.8496
ungisa	-10.8518
▁Ekus	-10.8519
izahlulel	-10.8538
bekezele	-10.8539
mfowenu	-10.854
gijim	-10.8551
lahlekelw	-10.8554
Damaseku	-10.8558
oNgcwele	-10.8567
qhude	-10.8574
ngasoleki	-10.8576
thembekayo	-10.8578
abonakali	-10.8583
bathengisa	-10.8585
▁sife	-10.8595
bajezis	-10.8596
obukhosi	-10.8598
embathis	-10.8611
zifebe	-10.8614
ngesizo	-10.8615
▁kaNa	-10.8623
ezinhluphek	-10.8624
▁noBar	-10.8625
zingulube	-10.8628
ekupheleni	-10.8629
amukelisiwe	-10.8632
▁uDi	-10.8632
cathul	-10.8632
Melkisedeki	-10.8633
Pont	-10.8633
bhula	-10.8633
cwebezela	-10.8633
phule	-10.8634
kaJose	-10.8634
qalekisiwe	-10.8634
Vum	-10.8634
phuphuthek	-10.8634
6	-10.8634
Aleksandriya	-10.8634
Arimatheya	-10.8634
Gomora	-10.8634
UJakobe	-10.8634
Ungaphingi	-10.8634
bhantshi	-10.8634
eDerbe	-10.8634
ebugqileni	-10.8634
emphongolweni	-10.8634
entukuthelo	-10.8634
gudluk	-10.8634
hahayo	-10.8634
haqe	-10.8634
hemu	-10.8634
hloniphekayo	-10.8634
isiphambeko	-10.8634
jabule	-10.8634
jabulisa	-10.8634
jaspi	-10.8634
julileyo	-10.8634
khanyisela	-10.8634
khukhumeza	-10.8634
laywa	-10.8634
mntanakhe	-10.8634
mphikukristu	-10.8634
mpindiselo	-10.8634
nenhlanhla	-10.8634
ngakhononi	-10.8634
ngubumnyama	-10.8634
oSilvanu	-10.8634
obuntwana	-10.8634
omhlatshelo	-10.8634
phakanyiselw	-10.8634
phakemeyo	-10.8634
phulukiswe	-10.8634
proselite	-10.8634
sangulukile	-10.8634
sebumnyameni	-10.8634
sichotho	-10.8634
sitaladi	-10.8634
sivunguvung	-10.8634
umhume	-10.8634
▁amaqabunga	-10.8634
▁ebantwini	-10.8634
▁emafwini	-10.8634
▁emkhombeni	-10.8634
▁esebhapathiziwe	-10.8634
▁etafuleni	-10.8634
▁inkululeko	-10.8634
▁isihenqo	-10.8634
▁isiphithiphithi	-10.8634
▁kuJakobe	-10.8634
▁nezinhlanzana	-10.8634
▁ngombono	-10.8634
▁ngoqwembe	-10.8634
▁njengejuba	-10.8634
▁noMathewu	-10.8634
▁noqhabo	-10.8634
▁omkhaphelayo	-10.8634
▁oyisimungulu	-10.8634
▁uMduduzi	-10.8634
▁ukwamukelwa	-10.8634
▁uzamcolo	-10.8634
▁yaseSinayi	-10.8634
cunul	-10.8634
zimungulu	-10.8634
▁Khumbula	-10.8634
▁Nginilobele	-10.8634
▁ekuhluphekeni	-10.8634
▁engakasoki	-10.8634
▁nisangibona	-10.8634
▁ongacimekiyo	-10.8634
▁owamkhaphelayo	-10.8634
amathambo	-10.8634
mhlubula	-10.8634
mqamekel	-10.8634
ncelisa	-10.8634
sikhundla	-10.8634
▁ebubende	-10.8634
▁lwanamuhla	-10.8634
▁okwaphezulu	-10.8634
▁uNowa	-10.8634
▁yaseSiyoni	-10.8634
ngenazithelo	-10.8634
ngizingele	-10.8634
▁ungowaseGalile	-10.8634
▁zokubukwa	-10.8634
ingelelan	-10.8634
nyumba	-10.8634
phephetha	-10.8634
mmukula	-10.8634
▁ngoqalekisiweyo	-10.8634
Unedemoni	-10.8634
aseRoma	-10.8634
▁ezihlalweni	-10.8634
bhekisisa	-10.8634
▁izindlebe	-10.8634
Zanini	-10.8634
kwandisa	-10.8634
owomileyo	-10.8634
▁okomzimba	-10.8634
emfuy	-10.8634
jonge	-10.8634
▁imibuso	-10.8634
impethu	-10.8634
kuzakwenzeka	-10.8634
▁nginilobele	-10.8634
▁ambone	-10.8634
▁aphul	-10.8634
▁isidlo	-10.8634
setshenzw	-10.8634
▁owayenom	-10.8634
xutsh	-10.8634
tshengise	-10.8634
khonzile	-10.8634
amhlanje	-10.8634
▁kwefu	-10.8634
philiswa	-10.8634
▁oyedwa	-10.8634
Abiya	-10.8634
ganwe	-10.8634
▁eTire	-10.8634
hlanzwe	-10.8634
okushinga	-10.8634
lidlulisel	-10.8634
ngasenaku	-10.8634
Samu	-10.8634
▁imiyalelo	-10.8634
thunyelwa	-10.8634
▁abamlalelayo	-10.8634
sithibez	-10.8634
mkhwelisa	-10.8634
embathani	-10.8634
▁obongekayo	-10.8634
Musa	-10.8634
▁ohlangothini	-10.8635
felayo	-10.8635
▁siyaniyala	-10.8635
▁ezingulubeni	-10.8635
Kholwa	-10.8635
▁ephilile	-10.8635
misiweyo	-10.8635
▁okwabantu	-10.8635
▁abangakholwanga	-10.8635
Mamona	-10.8635
▁kukaMelkisedeki	-10.8635
▁ezitsheni	-10.8635
▁babengenaku	-10.8635
▁kukhanye	-10.8635
amakhiwane	-10.8635
▁engikushoyo	-10.8635
Anase	-10.8635
▁evangelini	-10.8635
kuyakwenzeka	-10.8635
▁ngokomoya	-10.8635
▁wesilo	-10.8635
zisekelo	-10.8635
▁ibutho	-10.8635
▁ogulayo	-10.8635
▁zikaJesu	-10.8635
sosizini	-10.8636
ngoyedwa	-10.8636
▁ngibone	-10.8636
bayalile	-10.8636
▁okuyichilo	-10.8636
hlunyelelw	-10.8636
yisiboshwa	-10.8636
gwema	-10.8636
kuthunjelw	-10.8636
sambatheka	-10.8636
▁ozibongayo	-10.8636
biziwe	-10.8636
qongelel	-10.8636
▁awuyiku	-10.8636
▁iyodwa	-10.8637
kwambulela	-10.8637
kulangazela	-10.8637
kazana	-10.8637
kwandisw	-10.8637
▁ayiyiku	-10.8637
▁uGa	-10.8637
▁ngokuchachileyo	-10.8637
eSiyoni	-10.8637
▁5:	-10.8637
▁nomphostoli	-10.8637
ibonakalis	-10.8637
▁kwezikhathi	-10.8637
Lung	-10.8637
▁kwabagulayo	-10.8638
▁emsebenzini	-10.8638
nomvuzo	-10.8638
▁bayakufakelwa	-10.8638
nxusela	-10.8638
▁ngifake	-10.8638
▁waseKhurene	-10.8638
▁kwabakholwayo	-10.8638
saswele	-10.8639
▁elizayo	-10.8639
mkhuleko	-10.8639
▁engenziwa	-10.8639
▁ezizayo	-10.8639
▁uvuke	-10.8639
mukisi	-10.8639
dukileyo	-10.8639
mangalisayo	-10.8639
▁ususondele	-10.8639
njengonyazi	-10.864
▁wezingulube	-10.864
yaluza	-10.864
mhleka	-10.864
hlephule	-10.864
kuzwisis	-10.864
solayo	-10.864
▁uJo	-10.864
▁sikanina	-10.8641
▁ngobuningi	-10.8641
▁esangweni	-10.8641
sebusika	-10.8641
▁njengakwab	-10.8641
sekhulile	-10.8641
▁bokukhanya	-10.8642
▁zelineni	-10.8642
▁okushoyo	-10.8642
▁emkhathini	-10.8642
▁naseSidoni	-10.8642
zwakele	-10.8642
▁afune	-10.8642
▁lomfowenu	-10.8643
vusiwe	-10.8643
▁lesithathu	-10.8644
▁okuzayo	-10.8644
luhlaza	-10.8644
▁sokumbuza	-10.8644
abaseLawodikeya	-10.8644
hoboz	-10.8645
▁mnyaka	-10.8645
shayile	-10.8645
lungisisa	-10.8646
awukhathal	-10.8646
▁nizakufumana	-10.8646
▁niyakuphiwa	-10.8647
▁nakubaprofethi	-10.8647
▁yimimoya	-10.8647
▁bakufumana	-10.8648
yiphathe	-10.8648
akhushul	-10.8648
Mbethele	-10.8649
▁abokuqala	-10.865
kusihlwa	-10.865
▁ngikuBaba	-10.865
▁eziphambili	-10.865
▁wokuphenduka	-10.865
▁izilwane	-10.865
▁ngabalingis	-10.8651
▁kunaku	-10.8651
▁zabezizwe	-10.8651
dalelwa	-10.8652
akwalasha	-10.8652
▁kababaningi	-10.8652
▁kwesibili	-10.8652
▁nangokulunga	-10.8652
▁obezaku	-10.8653
▁yabangcwele	-10.8653
▁nansi	-10.8653
khothama	-10.8653
▁wabezizwe	-10.8654
▁kwezinto	-10.8654
kumiselweyo	-10.8655
▁alishilo	-10.8655
khulelwa	-10.8655
nokwethemba	-10.8655
eduze	-10.8655
▁umnyaka	-10.8656
▁ngokwethemba	-10.8656
▁ngezindlu	-10.8657
▁ukubuke	-10.8657
▁akubonayo	-10.8658
▁komzimba	-10.866
▁bayavuswa	-10.8661
▁ngobungcwele	-10.8661
okomunye	-10.8662
abaphilayo	-10.8662
▁amasabatha	-10.8662
esiphambeneyo	-10.8663
▁kosizi	-10.8664
unju	-10.8664
hambisan	-10.8664
▁nguMose	-10.8665
▁ebezaku	-10.8666
▁bafe	-10.8667
▁beniyaku	-10.8667
zibopho	-10.8667
▁ngodenariyu	-10.8669
Abela	-10.867
▁weqiniso	-10.867
▁izihambi	-10.867
ukuqiniseka	-10.867
▁njengabantwana	-10.8671
nikaqondi	-10.8671
chichima	-10.8673
mbuq	-10.8673
hlanganisel	-10.8674
▁wodwa	-10.8675
bantwanyana	-10.8676
ngamangali	-10.8676
Kuhle	-10.8682
fakelwa	-10.8682
▁engc	-10.8683
kuqhubeka	-10.8683
atom	-10.8683
▁ningikhumbul	-10.8684
Ningesabi	-10.8689
cima	-10.869
▁enqab	-10.869
ogibe	-10.869
zifune	-10.8691
esizotha	-10.8695
ayiqeda	-10.8698
ngubutha	-10.87
▁uSa	-10.8703
emizana	-10.8706
obile	-10.8709
phindisela	-10.8712
khonzwa	-10.8717
ngabakaKristu	-10.8718
iphilile	-10.8719
abathengayo	-10.8719
▁umus	-10.8726
▁baphile	-10.8727
▁ningibon	-10.8727
Jer	-10.8734
▁ungowaba	-10.8746
shwabeneyo	-10.875
kungenziwa	-10.8753
ngenangqondo	-10.8757
ayesemthatha	-10.8766
qhubek	-10.8768
▁kungenjeng	-10.877
lithukulule	-10.8808
siqashi	-10.8811
nyiwe	-10.8812
▁angizang	-10.8833
▁imind	-10.8849
semini	-10.8856
yizingane	-10.8869
nangezimangaliso	-10.8869
kumthokozisa	-10.8877
▁anginitshel	-10.8887
▁omk	-10.8897
▁izihlal	-10.8897
zithobe	-10.8899
bakhalayo	-10.8916
ngokwemvelo	-10.8923
ngamaf	-10.8943
zikhethel	-10.8947
bamukisa	-10.8961
embelwa	-10.8978
eyokuqala	-10.8988
ahlukane	-10.9001
Uyabona	-10.9003
isimungulu	-10.9014
oboya	-10.9018
amadokodo	-10.9084
▁kulaw	-10.9086
ifazane	-10.9115
▁abathun	-10.9121
▁okuvel	-10.9123
ahlukanisa	-10.9133
Ungabulali	-10.9146
kungokwami	-10.9146
▁ungenis	-10.9156
wenzile	-10.9164
▁baduk	-10.9173
▁Bakhumbu	-10.9177
ezoni	-10.9185
▁nezimp	-10.9188
▁waqhu	-10.9205
angifumani	-10.9245
abangenacala	-10.9257
ngesenzo	-10.9267
hlotshis	-10.9281
buthanel	-10.9283
ngenkambo	-10.929
kakolweni	-10.9317
awodadewabo	-10.9342
okunene	-10.9349
zamukele	-10.9362
ingafi	-10.9396
kaYihlo	-10.9396
sishiye	-10.9407
▁emac	-10.9409
uyebo	-10.9418
yakubhubha	-10.9431
Ngiyakholwa	-10.9435
ehlisa	-10.9471
yamlandela	-10.9475
zikhulumel	-10.951
▁ongamukel	-10.9533
▁sekw	-10.9608
njengama	-10.9653
▁usifak	-10.9656
▁enginilobel	-10.9657
▁ngezind	-10.9663
abakholwayo	-10.9712
▁bamkhand	-10.9725
obupristi	-10.9756
Wenze	-10.9838
afakaze	-10.9858
owasi	-10.9871
zilinganis	-10.9976
behlel	-11
ngiyabona	-11.0008
babulale	-11.0014
kulinganiselw	-11.0028
▁owayefak	-11.0032
▁akanak	-11.004
▁akunaku	-11.0053
▁makw	-11.0072
kulidl	-11.0074
wasithanda	-11.0093
sebenzisan	-11.0096
esihlal	-11.0108
engakholwanga	-11.0112
sasele	-11.0115
▁boyis	-11.0207
▁uyakw	-11.0257
obuNkulunkulu	-11.0328
ngokukhathazeka	-11.0352
likaMose	-11.0367
akuyeka	-11.0368
lindel	-11.047
zigcinel	-11.05
mbong	-11.0548
onakal	-11.0578
ezintaba	-11.0595
zimisel	-11.0602
▁kunjengoku	-11.0606
aseKhupro	-11.0673
Ngizakwenz	-11.0717
▁nokw	-11.0725
▁ufan	-11.0734
wesono	-11.0741
okuningi	-11.0775
phathisw	-11.079
abafowethu	-11.0819
Asihamb	-11.0853
▁izinhl	-11.0929
impisi	-11.0935
▁nomph	-11.0971
nkan	-11.0975
sikaMoya	-11.0994
ikhulekeleni	-11.1023
▁nasezind	-11.1033
enabel	-11.1035
kwesikhashana	-11.1046
▁asinik	-11.1051
▁bazuz	-11.1111
▁wagul	-11.1176
yehla	-11.1223
▁maningakho	-11.1241
▁Wayeseth	-11.1328
▁udo	-11.14
nokungena	-11.1408
▁kwaphu	-11.1425
▁nezink	-11.1435
wuphiweyo	-11.1474
Okhokh	-11.1522
izakuphila	-11.1543
ePhamfiliya	-11.1566
eKhilikhiya	-11.1646
angokuthuthumela	-11.1679
izigqila	-11.1687
Gibithe	-11.17
inzuzo	-11.1702
Lase	-11.1709
▁nezinja	-11.171
bukisa	-11.1723
imfu	-11.1727
dodakazi	-11.1745
▁ukukhuthal	-11.1762
▁kwezw	-11.1764
landele	-11.1782
oPhezukonke	-11.1789
ngakwesokhohlo	-11.179
nokuthokoza	-11.1798
nokuthula	-11.1806
ekuboshweni	-11.1809
noJesu	-11.1822
kunxuse	-11.1832
bafowabo	-11.1842
umnikelo	-11.1842
▁uJe	-11.1847
Wasind	-11.1865
chasisel	-11.1887
▁bekunge	-11.1889
kuchichim	-11.1914
gweme	-11.1919
bafo	-11.192
bayisikhombisa	-11.193
esiHeberu	-11.1935
amadolo	-11.1936
▁Eyesi	-11.1937
▁sikhule	-11.194
▁ogan	-11.1942
ahlukanise	-11.1943
sibabule	-11.1947
Zebedewu	-11.1952
bamukeli	-11.1956
kuhunyushwa	-11.1957
oshwe	-11.1959
Tir	-11.196
▁ngomun	-11.1961
aseKhurene	-11.1961
genca	-11.1962
dodeni	-11.1965
sokhohlo	-11.1966
henduka	-11.1966
chibi	-11.1967
kuqondile	-11.1967
kuhuhek	-11.1967
7	-11.1967
9	-11.1967
Aminadaba	-11.1967
Dedani	-11.1967
Demetriyu	-11.1967
Ephafr	-11.1967
Erastu	-11.1967
Esiromu	-11.1967
Golgotha	-11.1967
Justu	-11.1967
Phentekoste	-11.1967
Sondela	-11.1967
Trofimu	-11.1967
UJESU	-11.1967
Zakewu	-11.1967
Zorobabeli	-11.1967
akwaNafetali	-11.1967
amaHeberu	-11.1967
amachopho	-11.1967
amagqubu	-11.1967
aseFrigiya	-11.1967
aseGenesaretha	-11.1967
aseNineve	-11.1967
bugqila	-11.1967
chaza	-11.1967
cunuk	-11.1967
eBetfage	-11.1967
eParadisi	-11.1967
empuphu	-11.1967
enkonzweni	-11.1967
hidliza	-11.1967
hlambulukile	-11.1967
hlambululile	-11.1967
hlangulisi	-11.1967
kaStefana	-11.1967
kaThithu	-11.1967
khuluphalisiweyo	-11.1967
kubhidlik	-11.1967
kuhanjelwa	-11.1967
mProfethi	-11.1967
minqumo	-11.1967
mizuzu	-11.1967
mpungushe	-11.1967
ngamnqabeli	-11.1967
ngangihluphi	-11.1967
ngaqondakaliyo	-11.1967
ngowenhlabathi	-11.1967
noPrisila	-11.1967
nqunyelw	-11.1967
ophilisiweyo	-11.1967
qaphelisis	-11.1967
sijeziso	-11.1967
sitshekelwe	-11.1967
umSamariya	-11.1967
vuthulule	-11.1967
xokozela	-11.1967
yadingeka	-11.1967
yihlukumeza	-11.1967
zigabisi	-11.1967
zikhukhumezi	-11.1967
▁6:2	-11.1967
▁OPawulu	-11.1967
▁alahlwe	-11.1967
▁amagwebu	-11.1967
▁eFilipi	-11.1967
▁eJordani	-11.1967
▁eKorinte	-11.1967
▁ePherge	-11.1967
▁eTarsu	-11.1967
▁ekukhazimuleni	-11.1967
▁embhedeni	-11.1967
▁enikuthandayo	-11.1967
▁esihlahleni	-11.1967
▁esingesincane	-11.1967
▁eyisimungulu	-11.1967
▁ezitaladini	-11.1967
▁iGalile	-11.1967
▁iSamariya	-11.1967
▁ikhihliz	-11.1967
▁ilahlwe	-11.1967
▁impepho	-11.1967
▁iningizimu	-11.1967
▁isiGreki	-11.1967
▁ivaliwe	-11.1967
▁kaJesayi	-11.1967
▁kaMathat	-11.1967
▁kaNowa	-11.1967
▁kufiphazwe	-11.1967
▁kuyakukhawuka	-11.1967
▁kwePhasika	-11.1967
▁kwesivini	-11.1967
▁lamaGerasa	-11.1967
▁lenkezo	-11.1967
▁ligcwaliseke	-11.1967
▁mbono	-11.1967
▁nasemaphandleni	-11.1967
▁nezinwabuzelayo	-11.1967
▁ngamahubo	-11.1967
▁ngubuthongo	-11.1967
▁nilingwe	-11.1967
▁ningabenqabeli	-11.1967
▁ningathetheleli	-11.1967
▁noHerm	-11.1967
▁noMarku	-11.1967
▁okungayikwaziwa	-11.1967
▁omzingelayo	-11.1967
▁ongithintileyo	-11.1967
▁sikaJona	-11.1967
▁uchoko	-11.1967
▁ukubuyisana	-11.1967
▁uzuze	-11.1967
▁wamonyuk	-11.1967
▁yesahlukaniso	-11.1967
▁ziklabile	-11.1967
athenjiswa	-11.1967
kunyakaziswa	-11.1967
likhazimulis	-11.1967
zihlobis	-11.1967
▁isifungo	-11.1967
Salatiyeli	-11.1967
abashintsh	-11.1967
ingathembeki	-11.1967
mifino	-11.1967
mzuzwan	-11.1967
oPris	-11.1967
zibophile	-11.1967
▁bezakuzila	-11.1967
▁ebuthongweni	-11.1967
▁iyalidinga	-11.1967
▁legumbi	-11.1967
▁nabakhelwane	-11.1967
▁ngesiminya	-11.1967
▁omabili	-11.1967
▁ubuhlungu	-11.1967
▁wayengumGreki	-11.1967
dingekile	-11.1967
mifula	-11.1967
tusekayo	-11.1967
vilaphayo	-11.1967
zithengele	-11.1967
▁likhulekiwe	-11.1967
▁lwengilazi	-11.1967
▁umshuki	-11.1967
▁unokukholwa	-11.1967
ingenasisihla	-11.1967
kudingeka	-11.1967
ngakhulumekiyo	-11.1967
oThithu	-11.1967
udondolo	-11.1967
▁akhohlwe	-11.1967
▁ekulungeni	-11.1967
▁kumphangi	-11.1967
▁okomhlaba	-11.1967
Nikolawu	-11.1967
khanuka	-11.1967
▁Yekhanda	-11.1967
▁ezahlukeneyo	-11.1967
▁izikhwebu	-11.1967
▁lokumkhaphela	-11.1967
▁lwesikhombisa	-11.1967
▁ukwahlukanisa	-11.1967
inyinyekile	-11.1967
▁kaKayin	-11.1967
enikucelayo	-11.1967
fiphazwa	-11.1967
munyu	-11.1967
▁ayiminyanisa	-11.1967
▁nabakaHerode	-11.1967
▁ngezifo	-11.1967
sasilalelwe	-11.1967
▁abakuqondanga	-11.1967
omnyango	-11.1967
kujula	-11.1967
okububende	-11.1967
▁ezicwebezelayo	-11.1967
▁isazimthetho	-11.1967
▁isikhamo	-11.1967
▁xwayani	-11.1967
emigodi	-11.1967
kubandezeka	-11.1967
mibono	-11.1967
▁kunoJohane	-11.1967
eBereya	-11.1967
▁kokwami	-11.1967
obezakumkhaphela	-11.1967
yithabath	-11.1967
▁kukaJo	-11.1967
ambulela	-11.1967
▁enalizwayo	-11.1967
▁engiyenzayo	-11.1967
▁lichitheke	-11.1967
▁izinja	-11.1967
▁ukuphamban	-11.1967
▁ungaphingi	-11.1967
▁elithulul	-11.1968
▁ambhinqa	-11.1968
▁ekhulelwe	-11.1968
▁agcinwe	-11.1968
▁kaMat	-11.1968
▁zonakale	-11.1968
sibukweni	-11.1968
▁Akuyiku	-11.1968
▁nokuhuheka	-11.1968
Manase	-11.1968
▁bebukela	-11.1968
▁siyanincenga	-11.1968
▁ziphenduke	-11.1968
kuganana	-11.1968
▁esokufa	-11.1968
▁yiwayini	-11.1968
▁bambhinqa	-11.1968
▁eFenik	-11.1968
▁ngezakhe	-11.1968
▁nabalindi	-11.1968
▁nabangakholwayo	-11.1968
▁okomntwana	-11.1968
oyinki	-11.1968
▁Yilethe	-11.1968
vuthiwe	-11.1968
▁ekukhulumeni	-11.1968
▁okokuthula	-11.1968
esikhumba	-11.1968
hloma	-11.1968
kuphakama	-11.1968
ntshumayelo	-11.1968
ukungaboli	-11.1968
▁elaliq	-11.1968
ezibhebhe	-11.1968
gwala	-11.1968
▁nabangalaleliyo	-11.1968
▁nakabili	-11.1968
▁zayidla	-11.1968
phanyeka	-11.1968
zambatho	-11.1968
▁kangifanele	-11.1968
▁nanamuhla	-11.1968
▁ecwebezelayo	-11.1968
▁ngikuzele	-11.1968
▁awuseyi	-11.1968
▁izimvaba	-11.1968
▁kungokwenu	-11.1968
ishiwe	-11.1968
▁esingakholwayo	-11.1968
asemasangweni	-11.1968
▁abathenw	-11.1968
ngenzani	-11.1968
nhlokomo	-11.1968
cansi	-11.1968
▁abathengisayo	-11.1968
▁ungishiy	-11.1968
lamukelanga	-11.1968
▁enikwenzayo	-11.1968
▁okomuntu	-11.1968
asenyakatho	-11.1969
▁ezifundisweni	-11.1969
▁seziphelile	-11.1969
▁abalindi	-11.1969
ekukhandlekeni	-11.1969
▁uphenduke	-11.1969
▁enikholwayo	-11.1969
nkokhiso	-11.1969
thobise	-11.1969
ingazibongi	-11.1969
▁ngokwakho	-11.1969
lamula	-11.1969
▁inkokh	-11.1969
dunyazw	-11.1969
khathazekile	-11.1969
▁abamesabayo	-11.1969
angehli	-11.1969
▁abasindiswayo	-11.1969
▁babonakalis	-11.1969
ngazenzi	-11.1969
khawuleze	-11.1969
zikhubekiso	-11.197
▁usikhulule	-11.197
▁Ziqaphele	-11.197
▁nabakhile	-11.197
ongasokile	-11.197
bulewe	-11.197
▁ngokwalo	-11.197
▁udaka	-11.197
sekukholweni	-11.197
kusithekile	-11.197
ezinkomo	-11.197
mbumbi	-11.197
isiphepho	-11.1971
iyakwembathani	-11.1971
▁elangeni	-11.1971
▁abaseMakedoniya	-11.1971
▁zinezi	-11.1971
▁mamukeleni	-11.1971
▁wayengakafiki	-11.1971
basendulo	-11.1971
ngikhonze	-11.1972
nidabukisa	-11.1972
▁nezint	-11.1972
▁wathula	-11.1972
▁engakholwayo	-11.1973
Nqu	-11.1973
kunzi	-11.1973
Alf	-11.1973
zenzekile	-11.1973
zikhuza	-11.1973
▁okukuwe	-11.1974
▁ukona	-11.1974
ngokucindezelwa	-11.1975
ingabesabi	-11.1975
owawukhona	-11.1975
okungokwakhe	-11.1976
ungoweNkosi	-11.1976
▁kaMel	-11.1977
Eyokuqala	-11.1977
nothile	-11.1978
omkhathi	-11.1979
esicebi	-11.1979
isti	-11.1979
ingamuki	-11.1979
Zabu	-11.198
aseKesariya	-11.198
ngafisi	-11.198
ngehlazo	-11.198
okwabanye	-11.198
▁encik	-11.1982
nesangabe	-11.1982
mgona	-11.1983
kwesibani	-11.1984
idukile	-11.1985
Nasoni	-11.1989
omlotha	-11.199
yibone	-11.199
kusuthiswa	-11.1991
Uyakuya	-11.1992
zithibe	-11.1993
▁yizink	-11.1995
eMilethu	-11.1995
ngibekezelele	-11.1996
ithunyelw	-11.1996
▁okhubekis	-11.1998
esikuzwileyo	-11.1998
kwabakho	-11.1999
▁bamqhub	-11.2003
nambith	-11.2003
okuhlengwa	-11.2005
ambuliwe	-11.2005
▁uLis	-11.2006
suthis	-11.2006
▁bakhandw	-11.2011
zisola	-11.2011
delelekile	-11.2011
hlumelel	-11.2012
iyakumiswa	-11.2013
thukuthelis	-11.2014
thakatha	-11.2014
▁inhlam	-11.2016
▁umhlan	-11.2017
▁Bengin	-11.2018
nxiba	-11.2018
ork	-11.2019
aseThiyathira	-11.2027
ziphingi	-11.2031
nasekubekezeleni	-11.2032
zikholek	-11.2033
▁nakweli	-11.2035
jabhiswa	-11.2037
zul	-11.2044
ewundlu	-11.2047
nambulala	-11.205
okunci	-11.2052
awokhokho	-11.2062
kuyinzuzo	-11.2066
▁iNd	-11.2069
emindeni	-11.208
ngasekho	-11.2085
nxusele	-11.2099
▁zibal	-11.2105
giyanincenga	-11.2116
nzuzo	-11.2133
nqatshelw	-11.2138
kwahlukan	-11.2139
oSila	-11.2143
nikhumbul	-11.2158
avuke	-11.2173
▁ngiseza	-11.2206
▁ifundw	-11.2214
abangcwelisiweyo	-11.2222
▁kuqal	-11.2232
anti	-11.2242
▁ukuyiph	-11.2251
asizakala	-11.2252
▁bakhuphu	-11.2265
ngukubhujiswa	-11.2267
iqale	-11.2275
ukusindiswa	-11.2278
▁ekon	-11.2295
yizinto	-11.2297
siyibulale	-11.2303
▁abahlek	-11.2307
▁kwenzelw	-11.2309
▁ukuphan	-11.2315
aseMakedoniya	-11.2334
▁owanibiz	-11.234
▁nembath	-11.2343
okwenyama	-11.235
▁behlis	-11.2353
nodumo	-11.2357
eyesibili	-11.2358
humula	-11.2438
sibekele	-11.2442
efe	-11.245
zakusindiswa	-11.2451
abaleleyo	-11.2466
umphostoli	-11.2484
ezizindlo	-11.2485
zakwenyuk	-11.2499
▁engiwuphiwe	-11.2499
kwamehlo	-11.2501
▁esinges	-11.2538
iguqula	-11.2545
abasokile	-11.256
camel	-11.2573
▁singes	-11.2575
▁senginitshel	-11.2581
ifihlakele	-11.2593
ivuke	-11.2594
inkezo	-11.2606
kufundis	-11.2612
abakushoyo	-11.2629
buqotho	-11.2631
▁ufakaze	-11.2649
ngikuMoya	-11.2673
umbel	-11.2683
▁akhubek	-11.2684
zondelel	-11.2684
ngaluphi	-11.2688
noSolomoni	-11.2782
thombeni	-11.2783
▁usilahl	-11.2786
yizikhulu	-11.2791
▁ngikulobel	-11.2792
thokozis	-11.2805
▁abazuz	-11.2807
angizonda	-11.283
Nizindl	-11.2844
akufunayo	-11.2853
▁nikhale	-11.2862
eyibo	-11.2894
▁Wenz	-11.2905
▁lwezw	-11.2947
amelweni	-11.3015
onakele	-11.3025
wabasokayo	-11.3076
iphakamise	-11.3084
zungezi	-11.3091
▁samukelisw	-11.3134
ikhathaza	-11.3134
baphendule	-11.3151
zithathel	-11.3158
bamangalel	-11.3168
▁bamukelisw	-11.3195
fanekiso	-11.32
▁bahlulelw	-11.3267
ngilethe	-11.3279
ibongi	-11.3288
kungasizi	-11.3331
Nenz	-11.3354
Nguyena	-11.3396
nilobel	-11.3565
▁owavus	-11.3576
▁ozithob	-11.3603
phelekezelw	-11.3621
inzi	-11.3634
▁yehlel	-11.3689
okusiza	-11.37
▁Math	-11.3809
ehlelw	-11.3819
obubi	-11.3841
▁owezw	-11.3842
azeke	-11.3948
▁nginibhapathiz	-11.3964
shunyayelw	-11.3992
▁welul	-11.4059
yambona	-11.4167
alithenga	-11.426
alikho	-11.4277
▁mas	-11.4279
yisitha	-11.4284
izwa	-11.4319
▁abameny	-11.432
yingini	-11.4434
thunzi	-11.4478
▁owehl	-11.4491
bacebe	-11.4524
▁kunezin	-11.4535
▁nginibon	-11.455
kuklebhu	-11.4693
yikuthethelelwa	-11.4712
xwayis	-11.478
kunisiza	-11.4786
▁bazibek	-11.48
▁zidl	-11.482
▁ngehlel	-11.4833
▁baceb	-11.4845
▁ngimangalelw	-11.488
▁epheth	-11.495
▁Sekudlul	-11.4996
▁ajabhis	-11.5069
▁asamuke	-11.5158
▁bangikhonz	-11.5172
emhlabathini	-11.5341
ethabe	-11.5358
ufezile	-11.5437
sesifub	-11.5562
▁ngokwambul	-11.5594
hlotsh	-11.5636
aseSiriya	-11.5677
vumelwano	-11.5713
▁bamkhaphel	-11.582
▁owadal	-11.5841
ekezelani	-11.5851
haqile	-11.5875
ngabulali	-11.5891
azesul	-11.5953
kuthukuthele	-11.5964
▁ababemlandel	-11.5976
▁ahlushw	-11.5979
▁abapheth	-11.5999
▁kubalind	-11.601
kujwayela	-11.6024
Niyakungi	-11.6031
▁lwand	-11.611
▁yambul	-11.6122
▁ngokungaphez	-11.6141
zindlo	-11.6169
jezise	-11.6246
▁ezinjan	-11.6256
abayizimpumputhe	-11.6308
yakwehlis	-11.6388
kulinganis	-11.642
▁balenz	-11.6476
umqambimanga	-11.6544
cwadini	-11.6558
iklolodel	-11.6581
▁nihawukel	-11.6586
cabang	-11.6605
esithombe	-11.6638
izigidi	-11.6691
mbhubhis	-11.6693
sishwabene	-11.6709
zakuyinqum	-11.671
parele	-11.6731
▁esenziw	-11.6745
eGalile	-11.6791
mphindisel	-11.6794
iqhingi	-11.6794
Iskariyothe	-11.6796
esixukwini	-11.6799
Njalo	-11.6801
ekukhanyeni	-11.6801
abakaKristu	-11.6806
amazinyo	-11.681
Ngales	-11.6815
kwenyuka	-11.684
elisiwe	-11.6845
bumpof	-11.6845
gasemuva	-11.6851
ejwayele	-11.6855
xosh	-11.6859
▁ikhazimulis	-11.6864
ekubekezeleni	-11.6869
amahloni	-11.688
ezivumelwan	-11.6885
mathuneni	-11.6887
yalisis	-11.6889
Thokoza	-11.6893
Kapernawume	-11.6893
magatsh	-11.69
inokukholwa	-11.6902
ngcolile	-11.6912
inxib	-11.6918
zamazam	-11.6919
▁kungenzek	-11.6926
▁sibonakal	-11.6932
ombhapathizo	-11.6934
colisa	-11.6935
ubonakalis	-11.6946
okuqalekis	-11.6946
tombazana	-11.6947
semnyango	-11.6948
iphilisile	-11.6949
Belzebule	-11.6957
kwembatha	-11.6961
▁ongowase	-11.6962
ifundisweni	-11.6966
enhloko	-11.6966
Klawudiy	-11.6966
'	-11.6967
0	-11.6967
8	-13.9958
C	-13.9959
3	-13.996
X	-13.9961
V	-13.9962
Q	-13.9963
—	-13.9964
‘	-13.9965
v	-13.9966
“	-13.9967
y	-13.9968
b	-13.9969
h	-13.997
