<pad>	0
</s>	0
<unk>	0
▁	-3.65794
र	-3.95185
न	-4.03382
▁के	-4.10989
ी	-4.26291
▁है	-4.27476
ल	-4.29724
ा	-4.34293
।	-4.40368
त	-4.4202
े	-4.44543
,	-4.45841
▁और	-4.49648
ि	-4.50006
▁में	-4.52021
क	-4.57989
म	-4.60444
ो	-4.63736
स	-4.64342
▁की	-4.66813
ं	-4.80904
ों	-4.82612
▁से	-4.82864
ू	-4.93032
▁को	-4.935
▁का	-4.93655
प	-4.93981
ु	-4.95105
ह	-4.98602
द	-4.99181
ता	-5.00396
▁अ	-5.01049
व	-5.08089
)	-5.10674
ब	-5.11708
▁आ	-5.11803
▁ब	-5.12718
ट	-5.15276
▁(	-5.1716
र्	-5.18247
▁प	-5.20478
ज	-5.20939
श	-5.26079
ग	-5.29453
ने	-5.2992
ना	-5.32538
▁स	-5.36198
▁पर	-5.36252
.	-5.36393
य	-5.36439
▁कि	-5.37731
ित	-5.37753
-	-5.3883
▁हैं	-5.48756
▁म	-5.51901
▁न	-5.55297
▁क	-5.56081
▁एक	-5.56501
ै	-5.5899
▁हो	-5.5904
▁प्र	-5.62729
्य	-5.62743
▁लिए	-5.62909
▁ज	-5.66583
वा	-5.67613
ते	-5.67999
▁कर	-5.69293
▁इस	-5.69469
रा	-5.69948
▁वि	-5.70155
▁जो	-5.75255
▁तो	-5.7657
▁सं	-5.7746
िक	-5.78279
▁नहीं	-5.78797
ला	-5.80626
ण	-5.82066
री	-5.82412
ध	-5.86156
▁द	-5.86674
▁भी	-5.87645
▁यह	-5.88846
च	-5.90403
ड	-5.92359
्	-5.93209
▁श	-5.95721
▁ने	-5.97348
या	-6.00488
▁ग	-6.02459
▁या	-6.03688
▁वह	-6.03748
ए	-6.04409
का	-6.05088
भ	-6.06337
▁त	-6.07608
▁किया	-6.07821
ौ	-6.09291
▁जा	-6.09896
ख	-6.12372
▁व	-6.12468
क्ष	-6.12804
▁ही	-6.13867
स्	-6.14335
▁च	-6.14469
न्	-6.15914
फ	-6.16571
▁नि	-6.18811
सा	-6.22113
ति	-6.22453
▁करने	-6.22595
ई	-6.22724
ती	-6.27422
▁उ	-6.29078
के	-6.30971
मा	-6.31574
▁तुम	-6.31729
▁दे	-6.32136
नी	-6.33146
▁ख	-6.33699
ें	-6.33994
▁भ	-6.3421
थ	-6.37376
दा	-6.39094
▁ल	-6.40337
त्र	-6.40686
स्त	-6.42182
▁सा	-6.42736
से	-6.4292
ियों	-6.43067
▁इ	-6.44953
▁उस	-6.45228
à	-6.45481
ले	-6.46668
ज़	-6.47508
▁ह	-6.47561
▁अपने	-6.4765
कर	-6.47875
▁फ	-6.48356
▁र	-6.49151
▁मा	-6.49298
रे	-6.49644
▁था	-6.50095
्र	-6.50424
▁पा	-6.50558
ल्	-6.50568
ृ	-6.50666
e	-6.50784
कार	-6.51325
ड़	-6.54529
▁उन	-6.54772
्या	-6.55143
▁वे	-6.56314
ंग	-6.56382
ली	-6.57428
▁हम	-6.57507
त्	-6.57655
वि	-6.58001
1	-6.58807
a	-6.61908
िया	-6.61979
▁मु	-6.62729
ॉ	-6.63193
गा	-6.63635
▁ड	-6.63898
▁जिस	-6.64336
▁गया	-6.65033
श्	-6.65306
ओं	-6.65669
▁तथा	-6.65975
▁आप	-6.66219
ठ	-6.67857
ाय	-6.69045
▁कुछ	-6.69059
क्	-6.69608
ंड	-6.7217
▁बा	-6.72179
▁किसी	-6.72697
भा	-6.74303
¤	-6.75746
▁रह	-6.75886
म्	-6.7605
▁ले	-6.76392
0	-6.77346
को	-6.7756
▁साथ	-6.77656
▁सम	-6.78292
ीय	-6.79703
t	-6.81536
▁स्	-6.81758
स्थ	-6.8194
▁रूप	-6.8212
▁जब	-6.82402
▁घ	-6.8276
i	-6.8336
▁कोई	-6.83712
▁ए	-6.84864
में	-6.85419
रण	-6.85645
▁ला	-6.86005
▁उनके	-6.86583
▁अनु	-6.87326
की	-6.87732
▁थे	-6.8825
शा	-6.88764
ष	-6.88771
▁प्रति	-6.88817
▁उप	-6.89102
सी	-6.89458
▁द्वारा	-6.89458
▁सु	-6.89506
देश	-6.9083
▁लोग	-6.91411
ः	-6.91541
िय	-6.91891
▁1	-6.91979
▁पु	-6.92044
▁तक	-6.92201
बा	-6.92907
▁कार्य	-6.93055
▁बना	-6.93064
o	-6.93833
/	-6.9442
▁छ	-6.9468
▁सि	-6.94836
र्थ	-6.95114
▁करते	-6.95132
मान	-6.95589
द्ध	-6.95726
r	-6.95735
▁लोगों	-6.96163
जा	-6.96217
▁कह	-6.96243
नि	-6.96361
▁रख	-6.97101
▁दिया	-6.97337
धि	-6.97368
ाइ	-6.98204
गी	-6.99695
▁भारत	-6.99935
जी	-7.0065
ग्र	-7.01959
▁फिर	-7.01964
5	-7.02169
क़	-7.02704
ाँ	-7.03613
▁ध	-7.0394
हा	-7.04408
ाई	-7.04729
▁कहा	-7.05117
वे	-7.05567
झ	-7.06599
पा	-7.06726
3	-7.07007
▁इन	-7.07436
▁मैं	-7.08575
ंद	-7.09469
▁रहे	-7.09857
▁करें	-7.09968
▁हा	-7.1
न्द	-7.1001
▁ये	-7.10282
▁वा	-7.11159
?	-7.11443
रि	-7.11814
▁दो	-7.1203
▁मे	-7.12131
ँ	-7.12419
▁जाता	-7.12558
▁उसके	-7.13027
▁स्व	-7.13212
अ	-7.13353
आ	-7.13582
फ़	-7.13666
ये	-7.13767
▁क्या	-7.14073
क्त	-7.14147
इ	-7.14276
लि	-7.15252
▁"	-7.15856
▁अल्लाह	-7.15945
▁गु	-7.16772
्व	-7.17912
▁ख़ुदा	-7.18023
▁करना	-7.18054
4	-7.18473
▁अपनी	-7.18665
▁थी	-7.18701
2	-7.19411
▁देख	-7.20034
द्	-7.20196
टा	-7.20334
र्म	-7.20562
▁अधिक	-7.21565
प्र	-7.21729
▁जान	-7.21744
s	-7.224
क्र	-7.22989
%	-7.23051
घ	-7.23195
▁बात	-7.24072
n	-7.2409
▁हुए	-7.24247
त्त	-7.25106
▁हि	-7.26617
ही	-7.26846
▁उन्हें	-7.27356
ड़ा	-7.27809
ज्ञा	-7.28188
धार	-7.28487
8	-7.28492
कृत	-7.28812
▁सह	-7.29361
"	-7.30818
▁करता	-7.30837
चा	-7.30886
:	-7.31446
▁चाह	-7.31715
दी	-7.31811
6	-7.32599
▁होता	-7.32982
छ	-7.33
▁सकता	-7.3351
l	-7.33777
▁व्य	-7.33787
ओ	-7.33924
▁क़	-7.34136
टी	-7.34344
▁रहा	-7.3482
▁निर्	-7.35177
▁समा	-7.35618
▁बहुत	-7.35814
▁मान	-7.36341
▁रा	-7.36434
;	-7.36618
▁परि	-7.36889
च्च	-7.37282
▁उसे	-7.37381
ड़े	-7.37859
▁दी	-7.3848
उ	-7.38595
▁क्षेत्र	-7.38664
▁मिल	-7.38888
एँ	-7.38918
▁अंत	-7.38988
ऐ	-7.3977
कि	-7.39828
▁सी	-7.40332
9	-7.40518
▁दिन	-7.40686
▁समय	-7.4112
मी	-7.41593
चार	-7.42292
िका	-7.4233
टे	-7.43325
रु	-7.43666
योग	-7.44032
▁प्रा	-7.4417
्स	-7.44799
▁कम	-7.45044
▁कु	-7.4506
7	-7.4512
▁बाद	-7.45882
च्छ	-7.47755
▁बि	-7.47945
ड़ी	-7.48207
▁रो	-7.48667
▁खा	-7.49
मि	-7.49858
▁ट	-7.50094
▁तरह	-7.50136
ष्	-7.50232
ढ़	-7.50322
▁जिन	-7.50945
▁वाले	-7.50988
न्न	-7.51026
▁उन्होंने	-7.51813
▁हुआ	-7.52003
▁अव	-7.52166
वी	-7.52186
ष्ट	-7.52822
ंक	-7.53003
दार	-7.53257
▁ज़	-7.53259
m	-7.53352
▁पहले	-7.53913
ेंगे	-7.54338
ज़ा	-7.54426
▁पास	-7.55148
ंच	-7.55242
▁आय	-7.55257
▁2	-7.56609
c	-7.57067
▁हमने	-7.57242
त्व	-7.57956
वाद	-7.58529
▁अन्य	-7.58547
▁होगा	-7.59153
▁तुम्हारे	-7.5956
यु	-7.59563
ढ	-7.59618
▁उनकी	-7.59624
▁यदि	-7.59713
▁देश	-7.59713
▁ना	-7.60478
▁सम्	-7.60488
▁मि	-7.60516
▁प्राप्त	-7.60903
एं	-7.61204
▁गई	-7.61398
▁सब	-7.61501
▁सरकार	-7.61727
▁ओर	-7.62046
▁गए	-7.62082
▁संबंध	-7.62191
▁वर्ष	-7.62978
▁बु	-7.64143
▁सभी	-7.64469
▁राज	-7.64569
स्ट	-7.64625
▁जाए	-7.65013
कों	-7.65187
▁19	-7.6545
▁ऐसे	-7.65563
▁राज्य	-7.65917
▁काम	-7.66076
ालय	-7.66099
▁व्यक्ति	-7.66283
▁हमारे	-7.66293
▁होने	-7.66316
गर	-7.66472
▁राष्ट्रपति	-7.66591
▁करो	-7.66594
h	-7.66684
▁नाम	-7.66716
'	-7.67432
धान	-7.68012
‍	-7.68316
ब्	-7.68587
▁अभि	-7.68961
▁सकते	-7.69239
ऊ	-7.69857
औ	-7.70071
▁प्रकार	-7.7034
▁लग	-7.70552
▁मह	-7.70812
▁चाहिए	-7.70825
दर्श	-7.71646
पूर्ण	-7.71796
खा	-7.72549
क्रम	-7.73297
िंग	-7.74168
▁इसके	-7.74253
▁बढ़	-7.74296
▁चल	-7.74302
▁शा	-7.75196
▁अप	-7.7563
▁उसकी	-7.76272
▁s	-7.763
▁ख़	-7.76621
u	-7.77087
प्त	-7.77606
द्र	-7.77672
d	-7.77704
▁किए	-7.78286
▁होती	-7.78528
▁हर	-7.78555
▁समझ	-7.78816
युक्त	-7.79172
चित	-7.79541
▁जाने	-7.80142
▁ईमान	-7.80552
▁भारतीय	-7.80909
था	-7.8172
ख़	-7.82087
▁'	-7.82384
▁अगर	-7.82771
▁ऐसा	-7.82814
▁एवं	-7.82901
▁पूर्व	-7.84
ग़	-7.84103
p	-7.84644
▁विकास	-7.84814
▁20	-7.84892
क्षण	-7.85663
भाव	-7.85823
▁कारण	-7.86442
ट्र	-7.86889
र्ष	-7.86944
!	-7.87872
▁स्थान	-7.88228
▁मुझे	-7.88326
▁रसूल	-7.88509
▁चि	-7.88666
ांत	-7.88864
▁भाग	-7.88878
▁हुई	-7.89146
▁बदल	-7.89392
▁(_	-7.89462
▁महा	-7.89605
बंध	-7.90793
▁लगा	-7.90944
▁फ़	-7.90973
▁दु	-7.9148
▁भू	-7.91739
तः	-7.92075
▁दिखा	-7.92174
्यू	-7.92358
g	-7.9276
ष्ठ	-7.93228
▁विश्व	-7.94796
▁अधिकार	-7.96019
▁लेकिन	-7.96374
फ्	-7.97396
▁लिया	-7.97641
▁उसने	-7.97693
▁दोनों	-7.97835
▁जाती	-7.97869
ख्	-7.98177
▁तुम्हें	-7.98889
¥	-7.98927
वाह	-7.98997
00	-7.99681
▁अपना	-7.99792
▁उत्	-8.00443
▁जीवन	-8.00559
▁ऐसी	-8.01714
▁उपयोग	-8.01807
षण	-8.02402
ऋ	-8.02446
▁विशेष	-8.02661
ऑ	-8.03143
ग्	-8.03831
▁सर्व	-8.0499
राम	-8.05227
▁प्रदान	-8.05286
दाय	-8.05307
▁बारे	-8.05893
▁बीच	-8.06407
▁लिख	-8.07242
राष्ट्र	-8.08347
▁वाला	-8.0859
▁संस्था	-8.09459
y	-8.09555
S	-8.09822
▁श्री	-8.09941
▁जैसे	-8.10179
▁उसका	-8.13303
▁डाल	-8.13487
▁आधार	-8.14087
▁यू	-8.14465
A	-8.15591
वर्त	-8.15873
▁पड़	-8.16018
▁भेज	-8.16189
▁चुन	-8.1717
C	-8.17247
▁जाएगा	-8.17316
मंत्र	-8.17556
०	-8.17651
▁चीज़	-8.18575
▁केवल	-8.18805
▁उनका	-8.20083
▁प्रयोग	-8.20319
▁मेरे	-8.20441
▁हमें	-8.21162
१	-8.21503
▁जिसमें	-8.21882
▁विचार	-8.22074
▁हूँ	-8.22506
वालों	-8.23859
▁प्रभाव	-8.23862
▁आवश्यक	-8.24581
वस्था	-8.24847
▁ताकि	-8.25043
k	-8.25189
तंत्र	-8.25423
▁पैदा	-8.25423
I	-8.26211
रूप	-8.26893
▁वाली	-8.26927
▁सबसे	-8.27203
ियाँ	-8.27444
▁न्याय	-8.28034
in	-8.29158
▁हमारी	-8.29294
b	-8.29713
▁अधिनियम	-8.30124
▁धारा	-8.30478
ीकरण	-8.30704
▁छोड़	-8.30779
▁राष्ट्रीय	-8.31968
▁योजना	-8.33298
ट्ट	-8.34268
...	-8.34435
▁उत्पाद	-8.34516
▁उपलब्ध	-8.3538
▁उत्तर	-8.35472
▁अथवा	-8.35525
कल्प	-8.36412
▁फ़ाइल	-8.37274
▁अध्य	-8.38317
▁सूचना	-8.38568
▁क्योंकि	-8.38866
▁परवरदिगार	-8.38891
▁दूर	-8.39429
▁विषय	-8.39464
▁शिक्षा	-8.39639
▁मार्ग	-8.39649
▁सकती	-8.41844
20	-8.4202
यंत्र	-8.43203
w	-8.43302
▁पहुँच	-8.43537
▁बाहर	-8.4407
▁दूसरे	-8.44334
T	-8.4444
M	-8.44987
f	-8.45226
▁इसलिए	-8.4555
▁बैठ	-8.45961
▁सहायता	-8.46309
‘	-8.46342
▁बैंक	-8.4643
▁तरफ	-8.46932
▁उठा	-8.47483
▁हूं	-8.49444
▁केंद्र	-8.49455
”	-8.49588
▁विभिन्न	-8.49681
▁कभी	-8.49801
▁पहल	-8.49932
▁अधीन	-8.50373
▁शामिल	-8.50391
▁मुख्य	-8.51515
ण्ड	-8.51729
▁बल्कि	-8.51899
ात्मक	-8.52155
▁दौरान	-8.52352
▁लिये	-8.5265
▁सदस्य	-8.52907
▁भाषा	-8.53853
▁तैयार	-8.53937
▁शक्ति	-8.53945
R	-8.53946
▁प्रकाश	-8.5471
▁अनुसार	-8.54913
▁जहां	-8.55335
▁अवसर	-8.56047
▁खुल	-8.56254
▁होंगे	-8.56465
योजन	-8.56688
▁सूची	-8.57128
P	-8.57274
E	-8.57595
’	-8.58827
▁सामने	-8.59315
▁गिर	-8.59988
▁सामान्य	-8.60533
▁प्रक्रिया	-8.61273
▁स्पष्ट	-8.61436
v	-8.61517
▁करेगा	-8.62108
▁ऊपर	-8.62358
▁संख्या	-8.63345
▁शब्द	-8.63713
▁वास्तव	-8.64063
▁निर्माण	-8.64509
▁वस्तु	-8.64759
N	-8.65187
▁प्रत्येक	-8.6571
▁किताब	-8.66113
D	-8.6677
▁नियम	-8.6719
L	-8.67488
▁पहुंच	-8.68335
▁अच्छा	-8.69286
२	-8.69799
▁स्वयं	-8.70135
▁शुरू	-8.71321
>	-8.71446
O	-8.71781
▁तुम्हारी	-8.71874
▁प्रयास	-8.72276
▁निश्चय	-8.74646
प्ल	-8.74955
&	-8.75052
▁निर्धारित	-8.76038
▁निकाल	-8.76249
▁खुदा	-8.76613
▁परियोजना	-8.77326
▁हेतु	-8.77547
▁दुनिया	-8.77948
“	-8.78235
▁मध्य	-8.78914
▁दृष्टि	-8.7939
▁महत्वपूर्ण	-8.79727
▁उद्योग	-8.80344
▁तुम्हारा	-8.81688
▁ध्यान	-8.82297
▁केन्द्र	-8.8282
▁माध्यम	-8.83027
▁परिणाम	-8.83027
▁प्रौद्योगिकी	-8.83195
▁प्रमाण	-8.83573
▁बेशक	-8.83852
▁नीचे	-8.84293
़	-8.89705
x	-8.90625
९	-8.94674
_	-9.04378
F	-9.09332
	-9.11563
B	-9.15679
–	-9.15751
°	-9.16345
U	-9.18945
	-9.20177
#	-9.20667
५	-9.2418
G	-9.242
३	-9.33001
८	-9.37566
H	-9.42724
@	-9.43053
६	-9.45201
४	-9.48461
{	-9.50195
}	-9.50525
७	-9.54098
j	-9.57749
]	-9.58463
\	-9.67356
ॅ	-9.68445
[	-9.69978
V	-9.79808
ङ	-9.92784
W	-9.95858
Y	-9.99985
ञ	-10.3738
(	-10.6155
⁄	-10.6216
̈	-10.9141
¿	-10.9142
̧	-10.9143
	-10.9144
	-10.9145
<	-10.9146
