<pad>	0
</s>	0
<unk>	0
¦	-1.49151
▁¦	-1.50163
▁်	-2.2121
င	-3.51638
▁့	-3.81839
ည	-4.12285
▁့်	-4.42709
း	-4.51568
သ	-4.61969
▁၊	-4.68451
ကို	-4.75053
တော	-4.87655
က	-4.9484
တို	-5.06443
စ	-5.08878
▁၏။	-5.15068
▁	-5.43417
နှ	-5.44225
မည	-5.51456
▁်၊	-5.53211
အ	-5.58114
ောင	-5.60863
▁။	-5.63111
သို	-5.65798
သင	-5.66337
န	-5.6637
သော	-5.67016
တ	-5.67488
ခြ	-5.72794
္	-5.79751
ဖြ	-5.88258
▁်။	-5.91473
ယ	-5.98402
▁၍	-6.02802
လည	-6.05325
ကြ	-6.06167
ငါ	-6.0792
▁၏	-6.15523
မူ	-6.19773
မြို	-6.26862
ပ	-6.27017
▁်၌	-6.28589
သူတို	-6.30321
မ	-6.31509
သခ	-6.41742
ဘုရား	-6.41894
▁၌	-6.46231
▁်၏	-6.4648
ကိုယ	-6.47552
ဟု	-6.48667
ောက	-6.48946
▁်၍	-6.51377
ရှင	-6.51612
၎	-6.52946
ုပ	-6.55953
ဆ	-6.57121
သူ	-6.61997
လိမ	-6.62608
ရ	-6.64403
ပြည	-6.64958
စေ	-6.66211
ဉ	-6.66285
▁၍၊	-6.72151
တည	-6.75967
ထာဝရဘုရား	-6.77131
မိန	-6.77188
းကို	-6.78745
မြ	-6.80235
မှာ	-6.83682
လျှ	-6.85813
▁်၍၊	-6.89837
▁့။	-6.89999
ထို	-6.90701
▁့်၊	-6.90843
အား	-6.91419
လက	-6.92387
တွ	-6.93357
အဘယ	-6.97779
▁်၏။	-6.99424
အကျွန	-7.02886
လျ	-7.03063
းငှါ	-7.04876
းတို	-7.065
အကြော	-7.07254
ရောက	-7.11014
ိမ	-7.1153
မှ	-7.12941
သား	-7.13051
မင	-7.13985
▁့၌	-7.14007
ဇ	-7.14328
လော	-7.14394
တတ	-7.15517
လင	-7.18384
လေ	-7.20055
နေ	-7.23116
ရှိ	-7.25093
တိုင	-7.26908
ကား	-7.28086
သန	-7.30025
ငါတို	-7.32339
ရှေ	-7.33196
ဘုရ	-7.34557
ကြော	-7.35113
ကျွန	-7.35836
ချ	-7.37312
ရပ	-7.37594
အသက	-7.3987
▁့၊	-7.40737
ဖန	-7.40903
ပေါ	-7.4241
▁့၏	-7.42847
အပေါ	-7.44048
ိတ	-7.44534
ုတ	-7.4604
စိတ	-7.46136
ထ	-7.46565
ကဲ	-7.46758
နို	-7.47851
ပါ	-7.49676
ပြန	-7.49708
သောအခါ	-7.52336
ငါသ	-7.5262
ရာ	-7.54714
ပြ	-7.5874
းသော	-7.5923
မူသ	-7.59723
သဖြ	-7.61545
ထော	-7.6245
သက	-7.64728
ထွ	-7.64964
သွား	-7.64974
ပြု	-7.65062
ဆို	-7.66256
လုပ	-7.66686
အတို	-7.69152
ပြစ	-7.70806
ျက	-7.71037
ဘက	-7.71406
လိုက	-7.73711
ထိုသို	-7.74821
ုန	-7.75072
မူသော	-7.75664
ထာဝရဘုရားသ	-7.76634
းကင	-7.77209
ဝ	-7.78123
ပေး	-7.78821
ဆော	-7.78887
ကြလော	-7.7889
မို	-7.79976
ခေါ	-7.81289
စီရ	-7.82137
လွှတ	-7.82897
းတော	-7.82981
အစ	-7.8357
စစ	-7.8362
ကျ	-7.84826
အားဖြ	-7.85102
ရှိသော	-7.85775
လာ	-7.86295
သူသ	-7.86898
သာ	-7.87161
မိမိ	-7.87173
ယောက	-7.87855
တန	-7.8832
တောင	-7.89457
ပတ	-7.90768
ိုင	-7.92954
လ	-7.93066
သောသူ	-7.93072
ဗ	-7.9363
ဝတ	-7.94344
ှင	-7.95984
နား	-7.96254
လူ	-7.96373
ပူဇော	-7.97218
ခဲ	-7.97368
အပြ	-7.98806
မျ	-7.99451
ဂု	-8.00293
သတ	-8.01437
သားတို	-8.01891
အဘို	-8.02547
ဒါဝိဒ	-8.03238
တပ	-8.04226
မတ	-8.05504
အော	-8.06026
လှ	-8.06115
▁့်။	-8.07115
ထိုအခါ	-8.08197
တင	-8.08231
လူတို	-8.08619
ဤ	-8.08734
ဥ	-8.09405
မုန	-8.09769
ထက	-8.10053
သိမ	-8.10269
တယောက	-8.11294
ဏ	-8.11413
ကယ	-8.12557
းမူကား	-8.14137
အမျိုးသား	-8.14316
မဟု	-8.14465
လုံး	-8.14561
တွေ	-8.15785
ပုရောဟ	-8.16036
းနှ	-8.17127
လမ	-8.17223
များ	-8.18164
ွန	-8.18209
ခ	-8.18488
လွ	-8.19326
ဘို	-8.21903
ထံ	-8.2312
သေ	-8.23209
ရန	-8.24052
ပြီးမှ	-8.24816
ခံ	-8.2617
ကြွ	-8.27397
မြောက	-8.27433
လယ	-8.28188
ိပ	-8.29092
ဃ	-8.30165
တိုက	-8.30441
အဲ	-8.30778
ကြောက	-8.3096
အံ	-8.31562
အမှု	-8.32087
အမျိုး	-8.32532
အပ	-8.32928
ယေရုရှ	-8.33664
ဟ	-8.36622
မက	-8.37331
မူပါ	-8.37918
တု	-8.38132
ရကြ	-8.38278
အတူ	-8.39196
းသို	-8.39338
ဒ	-8.39962
သောသူတို	-8.4019
အလွ	-8.40441
စပ	-8.40708
ဝမ	-8.4153
ကျောက	-8.41606
များကို	-8.42371
ဣသရေလ	-8.42533
သောကြ	-8.42616
းဟု	-8.43073
ပလ	-8.43568
သစ	-8.43609
အချ	-8.4411
ရိုက	-8.44251
တကွ	-8.44382
အခွ	-8.44506
ဝိညာ	-8.44815
ရက	-8.45856
မှန	-8.47348
ထာဝရ	-8.47664
တရား	-8.47828
ဆက	-8.48173
မေ	-8.49055
ဣသရေလအမျိုးသား	-8.49559
းသ	-8.49752
ယူ	-8.49764
ဣသရေလအမျိုး	-8.51351
အဘ	-8.52011
စကားကို	-8.52328
းခြ	-8.52567
းဟူသော	-8.53186
ပရောဖ	-8.532
ဘော	-8.54002
ရှိသ	-8.54136
ယုဒ	-8.55137
ချက	-8.55209
ထား	-8.55235
ဝန	-8.55471
ြိမ	-8.55958
ခုန	-8.56481
သောသူသ	-8.56696
အတွ	-8.56786
ကာလ	-8.56808
မှတ	-8.57147
သကဲ	-8.57215
ထုတ	-8.57354
ခန	-8.57627
ပြော	-8.58341
းကြီး	-8.59385
အရ	-8.59961
မီးရှို	-8.60191
အချိ	-8.6059
တမန	-8.61243
းမ	-8.62604
မူကား	-8.62679
ဖျ	-8.63123
ခရ	-8.64133
ပြီးလျ	-8.64511
မှစ	-8.64753
ရှိသမျှ	-8.65558
ထိုသူ	-8.65673
ရသော	-8.65787
ကျိ	-8.65858
ဘဲ	-8.66668
မိမိတို	-8.66674
ပည	-8.66723
အို	-8.66889
စွာ	-8.68695
ချစ	-8.69176
ခံရ	-8.69896
စွန	-8.70427
ကျေးဇူး	-8.70578
စား	-8.71625
ပိုင	-8.71836
ရှု	-8.71911
အရာ	-8.72117
နန	-8.72481
စာ	-8.72636
ရှောက	-8.73437
ိမာန	-8.73872
လူများ	-8.73881
ပန	-8.74491
မူပြီ	-8.75636
ဘု	-8.76764
ပြီ	-8.77088
ွတ	-8.78331
ကွယ	-8.79452
ဗို	-8.79766
ထိုကြ	-8.79774
ထဲ	-8.80072
အမျ	-8.80573
နာမ	-8.80657
ွယ	-8.80927
ပျ	-8.80962
ီအစ	-8.81385
ယုံကြ	-8.81827
အန	-8.8284
ဟူမူကား	-8.8297
ဟူ	-8.83617
ဒုစ	-8.83842
းဖြ	-8.84313
အမိန	-8.84781
နက	-8.85338
ထဲက	-8.8577
ရေ	-8.85986
ျစ	-8.86523
ထိုန	-8.87283
စရာ	-8.88111
ယာကု	-8.88134
လျှော	-8.88626
ိန	-8.89055
းစေ	-8.89199
ပစ	-8.89423
မြေကြီး	-8.8966
စကား	-8.89707
မှီ	-8.89771
အမြ	-8.90051
နေကြ	-8.90126
ပြုသော	-8.90756
မြေ	-8.90965
ကာ	-8.90983
ခပ	-8.91474
ချီးမွ	-8.91492
ထာဝရဘုရားကို	-8.92011
နေသော	-8.92129
ကော	-8.92579
ရှိကြ	-8.93026
အခါ	-8.93433
ဆီး	-8.9501
ယခု	-8.95179
နေရာ	-8.96546
ရွံ	-8.97131
ဖွဲ	-8.97481
စုံ	-8.98032
းရှိ	-8.98405
ပျော	-8.99072
ဘွ	-8.99269
နှာ	-8.99545
ရှက	-8.99878
ကျမ	-8.99949
မျှ	-9.00728
အမှုကို	-9.01087
ထိုင	-9.01428
ပရိသတ	-9.01695
ငံ	-9.01796
မရှိ	-9.01897
လန	-9.01993
ယနေ	-9.02071
ကြား	-9.02076
ကြီး	-9.02632
မစ	-9.02983
လူအပေါ	-9.03155
လျော	-9.03674
အာရု	-9.03677
ာ	-9.04884
းကြ	-9.05083
ရလိမ	-9.05461
ရှား	-9.05543
တာ	-9.05998
ရဲ	-9.06475
ဝပ	-9.07887
ညှ	-9.0928
ရွက	-9.09544
ွမ	-9.09722
ှုတ	-9.0989
သမီး	-9.10089
ဆာန	-9.10631
အချို	-9.10644
စီး	-9.1135
သိ	-9.12824
သွ	-9.13362
အရှ	-9.13386
ခို	-9.1373
ကြပါ	-9.14207
ချိုင	-9.14371
တိ	-9.14554
ထိုသူသ	-9.1498
အကျ	-9.1503
ရစ	-9.15084
အလို	-9.15168
ရုပ	-9.15186
တိရစ	-9.15438
ဘ	-9.16378
ဆုတော	-9.1656
သွားကြ	-9.17109
ဖိလိ	-9.17196
တက	-9.17785
ဓမ	-9.18284
လူမျိုး	-9.19061
ရှိရာ	-9.19099
အခြားသော	-9.19355
ခံရသော	-9.19938
ချမ	-9.20111
မြော	-9.20142
ကြပြီ	-9.20361
တဲတော	-9.20626
လတံ	-9.21718
မောရှေ	-9.22558
ထမ	-9.24266
သုံး	-9.24344
ဒန	-9.24541
နှလုံး	-9.24643
ရှာ	-9.24996
ကျန	-9.25083
းချ	-9.25664
မူလျှ	-9.26176
ထိုအ	-9.26353
ေခြ	-9.26356
ဗာဗုလု	-9.26813
များတို	-9.27134
သလော	-9.27227
ခိုး	-9.2793
ခမ	-9.28323
တပါးအမျိုးသား	-9.2904
စာကို	-9.30108
ဟုတ	-9.31014
အမြဲ	-9.31064
မိမိအ	-9.31533
းလျ	-9.31628
အညီ	-9.3208
ဆိုသ	-9.32914
းရ	-9.34111
မုတ	-9.34277
သားတော	-9.34309
သောငှါ	-9.34643
ရွှေ	-9.35209
အထံ	-9.35224
းကပ	-9.35262
ပြုကြ	-9.35739
းတူ	-9.3628
ထားတော	-9.36396
ငါနှ	-9.36532
မဲ	-9.36778
ဦး	-9.37045
စိမ	-9.37339
အက	-9.37671
အမ	-9.37705
ပြေး	-9.37899
ပဋိညာ	-9.38065
ရှောလမုန	-9.38095
ထာဝရဘုရားက	-9.3817
နားမ	-9.38363
ာဏ	-9.38513
သေတ	-9.38716
ဆာ	-9.38776
ဘိုးဘေး	-9.38796
နယ	-9.39352
ယောသ	-9.39383
သူတပါး	-9.39474
ဗျာဒိ	-9.3964
ယော	-9.3968
ဘေး	-9.39848
သူမျှ	-9.40078
းဆဲ	-9.40483
ယေရှုသ	-9.40689
ခတ	-9.40802
းရဲ	-9.40865
ထာဝရဘုရားအား	-9.41415
အကြ	-9.41656
ကျော	-9.42201
တမ	-9.42289
ညီ	-9.42619
ုပြည	-9.42643
ဘွား	-9.42951
ယေရှုခ	-9.43803
တံခါး	-9.44384
ီချ	-9.46128
နွား	-9.46142
ခြေအ	-9.46487
မမူ	-9.46683
လာကြ	-9.46886
အလျ	-9.47637
တဆ	-9.4807
မယား	-9.4808
ငွေ	-9.48188
နံ	-9.48699
ယေရှုက	-9.48725
ချီးမြှ	-9.48835
ပို	-9.49001
တရားကို	-9.49298
ခွန	-9.496
ရာယ	-9.49687
ဟော	-9.49717
ဖွ	-9.49927
ယုဒလူ	-9.50526
သံ	-9.50922
ကန	-9.51071
သူအပေါ	-9.51318
လောက	-9.51595
မြွ	-9.51964
ရေတွ	-9.51977
သေခံ	-9.52044
▁့၍၊	-9.5213
ရွှ	-9.52207
မေး	-9.52643
တပါး	-9.53375
ဆိုကြ	-9.53641
ဥယျ	-9.54632
ဆိုသော	-9.54646
အရာတို	-9.5519
-	-9.55758
ျား	-9.5619
ထပ	-9.56352
ခံရကြ	-9.56546
ပါပြီ	-9.56914
းစွာ	-9.5744
ကြံ	-9.57596
ထိုက	-9.57679
ဧဖရ	-9.57826
နေရ	-9.57999
ပါသ	-9.58404
မတရားသော	-9.58683
အိုထာဝရဘုရား	-9.58844
းပေါ	-9.60083
ခြေ	-9.60704
မေးလျှ	-9.60805
နံန	-9.60845
နာ	-9.61178
ဤသူ	-9.61196
ထဲမှာ	-9.61354
းငှာ	-9.61585
လူသ	-9.62631
အသီးအသီး	-9.6276
သိတ	-9.62852
ဘုရားသ	-9.63034
ပုန	-9.63124
များစွာသော	-9.63303
အဆွေအမျိုး	-9.63333
ရှောလု	-9.63638
ခွ	-9.63714
အရှေ	-9.63762
မပြတ	-9.63827
ဟောပြော	-9.64117
ကရုဏာ	-9.64928
းတွ	-9.65341
ဆုံးမ	-9.65742
တိလူ	-9.6581
ဘမ	-9.66885
ငြ	-9.66907
ပေါက	-9.6722
အမျိုးအနွ	-9.67386
အထ	-9.67568
ချော	-9.67708
နတ	-9.68572
ချီ	-9.69007
ပညာ	-9.69418
သားကား	-9.69882
ယောဟန	-9.70056
မွေ	-9.70081
ငှက	-9.70585
ဂလာ	-9.70806
လုလ	-9.70977
ထိုနေ	-9.71015
လွှမ	-9.71194
းကြီးပေး	-9.71209
ဘုံ	-9.71311
မောရှေအား	-9.71547
ရှ	-9.71671
မော	-9.71793
းယူ	-9.71947
ပါစေ	-9.722
အဆ	-9.72519
ထားသော	-9.72892
းလော	-9.72941
မောရှေသ	-9.73269
အလ	-9.73469
လေပြီ	-9.73583
းသက	-9.73981
မမြ	-9.74246
ပြောဆို	-9.7434
လေး	-9.74687
ပြုလျှ	-9.74921
သုံးဆ	-9.75153
ပေ	-9.7546
မှတပါး	-9.75977
သူဖြ	-9.7599
ယာမိန	-9.76156
ထိုမှတပါး	-9.76165
ထမြောက	-9.76213
ထိုအရ	-9.76239
ရွာ	-9.76501
းအားဖြ	-9.76557
မောဘ	-9.76576
▁့်၍၊	-9.7663
စာရ	-9.76967
ဧ	-9.77555
းမရှိ	-9.78008
လဲ	-9.78188
ထိုကာလ	-9.78193
မျိုး	-9.78215
ကြားလျှ	-9.78475
မြေပေါ	-9.79078
လောဟု	-9.79798
ဂလာရှိ	-9.79859
ယုဒရှ	-9.79875
ရေကို	-9.79915
တရားတော	-9.80194
အရာကို	-9.80206
ကြီးစွာသော	-9.80313
ရှိပါ	-9.80414
ယေရှု	-9.80723
သောနေ	-9.80878
းလျှ	-9.80969
ထိုသူကို	-9.81206
ငိုကြွေး	-9.81288
ရိုး	-9.81375
ွက	-9.81517
းမသ	-9.81877
းလေ	-9.82222
ဝှ	-9.82466
ကပ	-9.825
သူရဲ	-9.82617
သားအပေါ	-9.8264
သမျှ	-9.82723
အစရှိသော	-9.82766
ထိ	-9.83
းလွ	-9.83078
သောသူကို	-9.8319
တကော	-9.8343
ဩ	-9.83508
ွေးကြော	-9.83666
ရှော	-9.84448
မှာထားတော	-9.8454
ပြား	-9.84822
မိဿဟာယ	-9.84894
နှိုးဆော	-9.84897
ံတော	-9.85135
တဲ	-9.85149
းသာ	-9.85255
တူ	-9.85331
ဥပု	-9.85367
သားဖြ	-9.85436
သမျှသော	-9.85953
ဝို	-9.86474
ဇိအုန	-9.86758
းသွား	-9.86836
ရှစ	-9.87468
စိ	-9.87791
ဗက	-9.87812
းမှ	-9.87897
တကား	-9.88031
လုံးကို	-9.88228
လာသော	-9.88623
ဆီသို	-9.88954
သိုးသ	-9.89535
းဝေးရာ	-9.89555
ရပါ	-9.89577
ရွေး	-9.89826
လာသ	-9.89983
ဖြေရာ	-9.90485
မေတ	-9.90703
ပြတော	-9.90926
ဲ	-9.90982
သူင	-9.90999
ဟူသော	-9.91168
းကား	-9.91176
သူနှ	-9.91742
ပြုပြ	-9.91854
ခုတ	-9.92319
ံ	-9.92333
မှူး	-9.92662
အလုံးစုံ	-9.92669
ဗတ	-9.92703
မပြု	-9.93046
အသံ	-9.93137
ဂြို	-9.93233
အသေ	-9.93303
သားသမီး	-9.93737
စက	-9.93852
ဤသို	-9.94106
ကျေးဇူးပြု	-9.94339
မဖြ	-9.94443
သောအရာ	-9.94492
းရာ	-9.94497
ကြသ	-9.94502
မာ	-9.95025
းကြီးသ	-9.95058
ဟုဆို	-9.95177
ငါပေး	-9.95192
ပြုရ	-9.95389
အမိ	-9.95397
ဆိုရ	-9.95582
ဤအရ	-9.95649
းပ	-9.95781
ပြီးသော	-9.95836
တုံ	-9.95983
ပါသော	-9.96
ကိုခေါ	-9.96579
မိ	-9.96943
ြန	-9.97353
မူပါဟု	-9.97438
အကျိုးကို	-9.97461
▁?????????	-9.97872
ဂိလဒ	-9.98028
စိုက	-9.98036
ဆိုလေ	-9.9811
ကြေးဝါ	-9.98239
းတိမ	-9.98807
ပြီဟု	-9.98854
ရွေ	-9.98934
နားမှာ	-9.99024
စိုးရ	-9.99179
နှာကို	-9.99634
ယာ	-9.99791
လို	-10.0045
းထဲ	-10.0091
ထူး	-10.0092
အကျိုး	-10.0103
လေဝိသားတို	-10.0136
ိုလ	-10.0162
ဣသရေလလူ	-10.027
မေးမ	-10.0272
စေသော	-10.0305
တိတ	-10.0321
အသင	-10.0376
မထ	-10.0391
းဝ	-10.0446
သိမြ	-10.045
အလုံးအရ	-10.0456
ဆီ	-10.046
းအ	-10.0461
ဒုက	-10.0463
းစာ	-10.0514
မဝ	-10.0523
ရိတ	-10.0531
ိမိတ	-10.0557
းကျ	-10.0564
သားကို	-10.0564
မှားယွ	-10.0606
ကြွလာ	-10.0607
အားကြီးသော	-10.0659
အာဗြဟံ	-10.066
းမတို	-10.0665
ဆုံး	-10.0669
သောအမှု	-10.068
းနို	-10.0697
ရာအရ	-10.07
ငါးဆ	-10.0733
အသီး	-10.0734
ချိ	-10.0753
ဋ	-10.0803
လူသား	-10.0812
ကြီးသော	-10.0838
ဆုံးသော	-10.084
ရှုတ	-10.0862
ကြီးမြ	-10.0893
ရသောအခွ	-10.0912
ဦးမည	-10.0921
အသရေ	-10.0945
ဝက	-10.0946
သောက	-10.0955
ကျပ	-10.0972
အဆွေ	-10.1014
မီး	-10.1021
သောအရ	-10.1032
ကွ	-10.1032
ရှိသမျှကို	-10.1058
ဖါရော	-10.1073
ဘောဇ	-10.1111
မမူပါ	-10.1123
အသွေးကို	-10.1143
အလျှ	-10.1151
ရှမာရိ	-10.1154
းပါ	-10.1163
းများ	-10.1169
လေးဆ	-10.1194
ပညာရှိ	-10.1197
အားကြီး	-10.1212
ဣသရေလအမျိုးကို	-10.1222
အာရှုရိ	-10.1238
တစုံတ	-10.1276
စီ	-10.1331
သူကို	-10.1337
းတည	-10.1339
ငှါ	-10.1364
တရားသ	-10.1377
အခန	-10.138
ငါမြ	-10.1392
စုံလ	-10.1395
ခါနာန	-10.1397
မှား	-10.1414
ဣဇာ	-10.1416
စော	-10.1417
ဟိတ	-10.1424
သိကြ	-10.1435
ပွဲ	-10.1484
သွားသော	-10.1489
တကျိ	-10.1496
စုံစ	-10.1502
တဝါ	-10.1505
ခဏာ	-10.1547
ကြံစ	-10.1591
ဘဲနေ	-10.1617
သနား	-10.168
တုန	-10.1691
အမွေ	-10.1712
ချိုး	-10.1767
ခွဲ	-10.1773
းသောသူ	-10.1775
ဂတိ	-10.1806
သွားလော	-10.1826
မလိုက	-10.1835
အနားမှာ	-10.191
းအရာ	-10.191
စိုးစံ	-10.1922
ဌာန	-10.1925
လုယူ	-10.1971
တံခါးဝ	-10.1972
အရေဖျားလှီး	-10.199
မထီ	-10.1991
ကမ	-10.1993
ပွ	-10.2
ထုံး	-10.2042
အကြီး	-10.2055
ထားကြ	-10.2072
းသောသူတို	-10.2083
ဆုပ	-10.2085
▁??????????	-10.21
မြေမှ	-10.2101
သေး	-10.2103
စိုး	-10.2114
မချ	-10.212
သောအ	-10.2163
ယောရှ	-10.2194
ပူ	-10.2244
အာမ	-10.2277
ရွေးက	-10.2313
ငါသိ	-10.2327
ကြိုးစား	-10.2344
ဖာရော	-10.2346
သုံးရက	-10.2352
းကြလော	-10.2357
စားရ	-10.2382
ကျူး	-10.2408
နှံ	-10.2452
မတရားသောသူ	-10.247
တနေ	-10.2486
ဆရာ	-10.2498
ကုလားကာ	-10.2528
ဆီးတား	-10.2534
အမှီပြု	-10.2548
ပြပ	-10.255
တခု	-10.2582
အမျိုးမျိုး	-10.262
ကိုမြ	-10.2656
????????????????	-10.2657
အသေသ	-10.2677
ဖတ	-10.2679
အထဲ	-10.2696
အာ	-10.2766
ကွပ	-10.2771
စားစရာ	-10.2773
ဣသရေလရှ	-10.285
ဆွဲ	-10.2863
ပြတ	-10.2869
အနာ	-10.2872
ကာကို	-10.2875
အဆက	-10.2875
မျိုးစေ	-10.2907
ပြုစု	-10.2972
ရှောလုသ	-10.2981
ဇာ	-10.2998
ရာသို	-10.3026
သေကြ	-10.3033
ဘူးသော	-10.3058
ကျက	-10.307
သွားလေ	-10.3076
?????????	-10.3099
အသွေး	-10.3112
ပြီး	-10.3121
ဟာမ	-10.3138
ရာဇ	-10.3161
နှလုံးကို	-10.3166
ဧဒုံ	-10.3173
ပါစေသော	-10.3177
မပျ	-10.3186
ကိုသာ	-10.3199
▁????????????	-10.3203
ဖြေ	-10.322
စားသောက	-10.3255
ဖုံး	-10.3267
သိပ	-10.3273
ကွဲ	-10.3279
သီး	-10.3326
လေဝိသား	-10.3327
စားကြ	-10.3372
စားပွဲ	-10.3398
ဍာ	-10.3399
ခံကြ	-10.3402
ဂဒ	-10.3414
သိရကြ	-10.3418
နေသ	-10.3425
▁???????????	-10.3468
မကျ	-10.3491
မှူးမ	-10.3495
ဖာရိရှဲ	-10.3496
ယေရော	-10.3514
ချို	-10.3515
ပါလော	-10.3517
အကြံ	-10.3525
သူပြည	-10.3532
ပုံ	-10.3552
ကိုယူ	-10.3586
ယောနသ	-10.3594
ဘုရားကို	-10.3605
ပါဟု	-10.361
းတန	-10.3614
အာဟ	-10.3699
သိုးထ	-10.3716
ပါလျ	-10.3722
ပေးသော	-10.3756
မနှ	-10.3761
မပြော	-10.3778
ရှုရိ	-10.3786
မူကြ	-10.3787
စမ	-10.3808
ဆိုလျှ	-10.382
ယောရှု	-10.3828
လွှဲ	-10.3832
မနေ	-10.3841
ထိုမ	-10.3851
အသံကို	-10.3885
ဆဲ	-10.3895
ခိုက	-10.3901
ဝါကြွား	-10.3913
ရှိစေ	-10.3931
ကြားပြော	-10.3945
ယခုမှာ	-10.3956
တရာ	-10.3971
ယုဒအမျိုးသား	-10.3985
များစွာ	-10.3989
းအမှု	-10.3993
နေတော	-10.4007
အနား	-10.401
အရိုး	-10.4029
သားများ	-10.4051
အမျိုးကို	-10.4069
သံကို	-10.4069
ရွေးန	-10.4089
ဘတ	-10.4109
နိ	-10.4142
သောလမ	-10.4149
ယေရမိ	-10.415
ပြောသော	-10.4158
ပြောကြ	-10.4168
ထားနှ	-10.4176
ဆုတ	-10.4182
သားရဲ	-10.4186
အမှုအရာ	-10.4207
တိမ	-10.4216
အိုဘုရား	-10.4217
လူကို	-10.4222
ကိုမျှ	-10.4226
ဗာလ	-10.4239
သားမြေး	-10.4243
ဣသ	-10.4244
သောအရာကို	-10.4247
းစရာ	-10.4253
လူအမျိုးမျိုး	-10.4265
ွေးဆ	-10.4268
ရဲရ	-10.4284
ပြောဆိုကြ	-10.4336
သလောဟု	-10.4367
းလူသား	-10.4391
ပေါလု	-10.4426
းဝေး	-10.443
ပဌမ	-10.4444
ရဲတို	-10.4472
ရုဗ	-10.4491
ညှိုး	-10.4492
မြေကို	-10.4502
ရထား	-10.4507
စို	-10.4515
ရေး	-10.4536
ရိပ	-10.4544
အလိုက	-10.4547
းများကို	-10.4551
မီးဖြ	-10.4572
းဘော	-10.4575
မှုတ	-10.4581
ရဟု	-10.462
သောသူအပေါ	-10.4622
စပါး	-10.4661
သူရဲတို	-10.4704
ပေးသနား	-10.4715
ဆိုး	-10.4716
ပြေးကြ	-10.4716
ရော	-10.4778
မသိ	-10.4781
ထုန	-10.4791
ဝေါ	-10.4796
ထံမှ	-10.4798
သဘော	-10.4807
းအကြော	-10.4808
အဝ	-10.4829
ပြုလျ	-10.484
နှလုံးသ	-10.4848
ချယ	-10.485
ရေသ	-10.4867
ကျွေး	-10.4877
ငွေကို	-10.4882
းမကို	-10.4887
ကျေးဇူးကို	-10.4909
တေ	-10.4939
ထားဘေး	-10.495
ဘိသိ	-10.4951
မှားသော	-10.4953
မိက	-10.4954
ငါအမှ	-10.4957
ဝံ	-10.5037
အလိုငှါ	-10.5038
းဝပ	-10.5042
အနှ	-10.5082
မာန	-10.5082
မှာထား	-10.5094
ဤအ	-10.5123
စာစ	-10.5129
သမ	-10.515
ယေရှုကို	-10.5159
စွဲ	-10.519
ကြက	-10.52
ထားလျ	-10.5218
းတွား	-10.5243
ရှားစေ	-10.5245
းသောအရာ	-10.5259
မယားကို	-10.5262
ရုံး	-10.5264
ထသော	-10.5268
အခြားတပါးသော	-10.5273
ဖ	-10.528
အဘသ	-10.5281
▁?????????????	-10.5283
ပေတရု	-10.5287
ရှိရ	-10.5288
ဆိုလျ	-10.529
းနှီး	-10.5334
းလဲ	-10.5343
းတတ	-10.5344
ဗိမ	-10.536
မြေကြီးကို	-10.5391
နေဗု	-10.5392
းဆီး	-10.5394
တံဆ	-10.5396
နာမကို	-10.5396
ခံသော	-10.5399
းသတ	-10.5432
ကြသော	-10.5443
ထာဝရဘုရားထံ	-10.5445
ရှလ	-10.5484
ဟာ	-10.5501
စုဝေး	-10.5537
အာဏာ	-10.5538
ငါပြော	-10.5539
းမနှ	-10.5554
ဆိုးမ	-10.5563
ဤအမှု	-10.5598
ဂလာကို	-10.5612
ပေတ	-10.5614
းစွာသော	-10.5633
▁့၏။	-10.5639
ယှ	-10.564
မုဒ	-10.5642
ီးချ	-10.5647
စုဝေးစေ	-10.5653
အလိုအလျ	-10.5671
မျှော	-10.5687
ဖဲ	-10.5692
ထိုသူအပေါ	-10.5708
ငါပြု	-10.5711
းခံ	-10.5722
စုံသော	-10.5723
ဂါ	-10.5756
ပေါလုသ	-10.5766
ကြားမှာ	-10.5786
သောသူမူကား	-10.5803
လွှ	-10.5806
ပြုသ	-10.5811
ာပေါ	-10.5812
ကြမ	-10.5825
သေရ	-10.5845
ာဗန	-10.5853
စေတနာ	-10.588
ကျွေးမွေး	-10.5888
ရွံရှာ	-10.5918
ယုဒအမျိုး	-10.592
▁????????	-10.5922
ခေရု	-10.5923
ဆုံးဖြ	-10.5949
ဘူး	-10.5954
သောအမှုကို	-10.5958
လောကီ	-10.5963
ကူး	-10.5969
ထားရ	-10.5994
လုံ	-10.6003
းအမှုကို	-10.6018
ဟေဗြ	-10.6023
ဥပဒ	-10.6023
ဆံပ	-10.603
ရွံရှာဘ	-10.6047
အစိုးရ	-10.6063
မူစေသ	-10.6064
းရှိကြ	-10.6073
သားဦး	-10.6091
မိဘ	-10.6107
မသောက	-10.6108
ကြားရ	-10.6127
ငါအပ	-10.6148
▁၌၊	-10.6157
မဆ	-10.6162
ဖလား	-10.6189
အစိုးရသော	-10.6189
မူပြီဟု	-10.6193
ဒုတိယ	-10.6194
ဂ	-10.6197
ခံသောသူ	-10.6208
ဆပ	-10.6217
လှဲ	-10.6282
းထ	-10.6295
ဝါးက	-10.63
မြက	-10.6315
းစံ	-10.6326
မရှိဘဲ	-10.634
းရဲသား	-10.6351
ိ	-10.6356
ဆေး	-10.6357
ရသ	-10.6362
ယောရှုသ	-10.6371
ရှိသမျှသော	-10.6372
တွန	-10.6402
းမိုး	-10.641
းထဲက	-10.6411
အမွေခံ	-10.6438
သူန	-10.6469
ပေးရ	-10.6519
မီးလ	-10.6524
အခြား	-10.6536
နေရာအ	-10.6542
စားသော	-10.6557
ဟန	-10.6562
းဆို	-10.6562
အာရဇ	-10.6563
အာခ	-10.6573
ရေးထား	-10.6602
စာရေး	-10.6624
းသာပေး	-10.6626
စေဟု	-10.6629
ထံမှာ	-10.6631
တုလူ	-10.6639
ထိုအမှုကို	-10.664
အဘိမ	-10.6645
တံခါးတို	-10.6647
ခုနှ	-10.6651
းပြု	-10.6651
ဤလူမျိုး	-10.6659
မပ	-10.6663
ယွာဘ	-10.6663
မပေး	-10.667
အရေ	-10.667
အသီးကို	-10.6676
ျာ	-10.6709
ဤလောက	-10.671
ဆံ	-10.6724
အနီး	-10.6733
လူဆိ	-10.6735
မှည	-10.674
ကြဲ	-10.6742
မူရာ	-10.6746
ဂါလိလဲ	-10.6758
သားနှ	-10.6768
ဧသော	-10.6769
ငံကို	-10.677
နေရကြ	-10.6771
ိမှတ	-10.6778
ခံယူ	-10.6791
ထိုအတူ	-10.68
ကွက	-10.6801
သံလွ	-10.6805
ဖြိုဖ	-10.6841
လေဗန	-10.6844
ဂလာရှိကြ	-10.6853
တထ	-10.6874
သမား	-10.6882
ျာလ	-10.6932
ကြီးသူ	-10.6967
သိန	-10.6978
မဆို	-10.6982
အသီးသီး	-10.6982
ယခုမူကား	-10.6993
ပညာကို	-10.7006
ပိုက	-10.7032
တုတ	-10.7079
သားသ	-10.7083
အရာရှိ	-10.7086
ရေလ	-10.7092
▁်၌၊	-10.713
ထိုအကြ	-10.7135
မစိုးရ	-10.7141
ပါပြီဟု	-10.7147
သွေ	-10.7147
ဗာလမ	-10.715
ယောဘ	-10.7216
မရ	-10.7225
ကိုသတ	-10.726
ခရီးသွား	-10.7265
အားပေး	-10.7272
မိဒျ	-10.7275
ထိုမျှမက	-10.7276
တညီတည	-10.7277
ကုလားအု	-10.7279
ထားလေ	-10.7284
ငါမ	-10.7291
မန	-10.7296
မခံ	-10.7314
ဟုဆိုသော	-10.7325
ဧဝံဂေလိတရားကို	-10.7344
အလိုရှိ	-10.7356
ရေက	-10.7364
မရှိသော	-10.7371
ထိုအမှု	-10.7374
သွေး	-10.7377
ပေးကြ	-10.7389
ပေတရုသ	-10.7396
ရှိမ	-10.7402
ဆုံးရှုံး	-10.7425
လူတယောက	-10.7439
ငါဆိုသ	-10.7442
ဤအမှုကို	-10.7456
မထွ	-10.7479
ဟုဆိုလျှ	-10.7481
မလွ	-10.752
ဆူး	-10.7532
ရာလမ	-10.7536
မသတ	-10.7543
စွာနေ	-10.7549
အနံ	-10.755
စကားသ	-10.7555
အသေခံ	-10.7567
ျာဘက	-10.758
ဒါ	-10.7583
ဗေသလ	-10.7587
ြိုင	-10.7597
ပြောရ	-10.7605
ရွာတို	-10.7621
နေဇာ	-10.7669
ညဦး	-10.7708
ငါစေ	-10.7724
ပဋိ	-10.7729
ဖုံးအ	-10.7734
အထွ	-10.7735
ဧလိယ	-10.7738
ဗာရှ	-10.775
မူပါစေသော	-10.7759
စွဲလ	-10.776
ရှေခ	-10.7761
နီ	-10.7765
ရှိသမျှသ	-10.7765
မယ	-10.7801
အထဲက	-10.7806
မနာရှေ	-10.7815
ဆာကို	-10.782
မလှ	-10.7827
ဒုတ	-10.7846
ဖော	-10.787
ယူသွား	-10.7883
မပေါ	-10.7903
ကိုချ	-10.791
သတိပြု	-10.792
ရှိသောသူ	-10.7921
သဘောကို	-10.7939
းဟူ	-10.7983
ရှိန	-10.7984
ထားဖြ	-10.7992
လူဆိုး	-10.8022
ပု	-10.8029
ကြားသောအခါ	-10.805
ဘိုးဘေးများ	-10.8074
မစားရ	-10.809
းခရီး	-10.8104
ို	-10.8114
ကွာ	-10.8117
လူအစုအဝေး	-10.8129
ဓာ	-10.8129
မယုံကြ	-10.813
းမဲ	-10.8137
????????	-10.8177
မြေး	-10.8178
သွားရ	-10.818
အသားကို	-10.8181
▁့်၏။	-10.8206
ပိလတ	-10.8206
ထရံ	-10.821
စုံဘ	-10.8211
လူနှ	-10.8233
ပြုသောသူ	-10.8237
းမြော	-10.8238
တံခါးကို	-10.8273
ပုံသ	-10.8283
ကြပါပြီ	-10.8303
ချေ	-10.8315
မရှိရ	-10.8347
ခဏ	-10.8351
မောရှေက	-10.8389
ကြဟု	-10.8394
ရိုးကို	-10.8419
လျှာ	-10.8427
ယခုတွ	-10.8432
ပေးလို	-10.8433
းအသရေ	-10.8437
ရှာကြ	-10.8439
တံပိုးမ	-10.8456
ကိုပြု	-10.8459
ရာဇဝ	-10.8462
နေရာချ	-10.847
အရေအ	-10.8483
သေသော	-10.849
ရိ	-10.8491
မေးသော	-10.8511
နီး	-10.8517
ဆိုလိုသ	-10.8517
ထိုစကားကို	-10.8519
တရားစ	-10.8539
စားရကြ	-10.8577
ခံစေ	-10.8584
တီး	-10.8591
ဒရာ	-10.8605
ငါဆော	-10.8616
တပါးတ	-10.862
စု	-10.8624
းစီးသူရဲ	-10.8624
တံ	-10.8626
ငါကြား	-10.8633
အသရေကို	-10.8633
တစုံ	-10.8643
▁??????????????	-10.8684
အစာကို	-10.8688
းပြုဆရာ	-10.8706
တရားသူကြီး	-10.8711
လေဝိ	-10.8738
လေရာရာ	-10.8741
ဘောသ	-10.8743
မှု	-10.8754
းသီး	-10.8755
ထားကို	-10.876
ရှုရိလူ	-10.8762
ခါ	-10.8767
နေလေ	-10.8768
းနားမှာ	-10.8787
းရေ	-10.8788
ယုံ	-10.879
စီးသော	-10.8851
းမောတွေဝေ	-10.8852
တကားဟု	-10.886
ရာကို	-10.8864
ကျို	-10.8865
ဒမာသ	-10.8872
ယေရု	-10.8897
းရှိသ	-10.8898
ဆိုးသော	-10.8907
ခါလဒဲ	-10.8929
မဖ	-10.8934
ဧလိ	-10.8936
ဟုဆိုလျ	-10.8957
စိကို	-10.8974
းရဲသောသူ	-10.8996
မူသမျှ	-10.9003
ရှိလျ	-10.9017
သောစကားကို	-10.902
သွားသောအခါ	-10.9029
စုံစေ	-10.9042
အခက	-10.9054
မာရိ	-10.9055
ဦးချို	-10.9055
▁၏၊	-10.9057
ဝေ	-10.9061
မအော	-10.9062
းမရှိဘဲ	-10.9075
ဧလာဇာ	-10.9078
အိုင	-10.9084
ခက	-10.9089
ယေရိခေါ	-10.9093
သိုးနွား	-10.9104
းမက	-10.9107
မူသောသူ	-10.9111
ပဲ	-10.9121
အနှံ	-10.9128
ပရိ	-10.9133
အစေခံ	-10.9135
းရာဌာန	-10.9185
ဗာ	-10.9194
ဖြူ	-10.9196
းတမ	-10.9197
းအလိုငှါ	-10.922
းထံ	-10.9224
သွားပြီး	-10.9227
ငါပေးသော	-10.9232
အရာရာ	-10.9234
ရှားသော	-10.9237
▁?????	-10.9246
ရောဗ	-10.9247
းကိုခံရ	-10.9248
မမှတ	-10.9257
ရွှေစ	-10.9258
ခါး	-10.926
ခြေရ	-10.9269
လူစု	-10.9269
ကြသလော	-10.9269
းထား	-10.9269
တူသော	-10.9285
မျှမရှိ	-10.9286
ရှုံး	-10.9288
ချီသွား	-10.9291
တစုံတခုကို	-10.9316
ဆိုးည	-10.9368
ဦးစွာ	-10.9394
လျှို	-10.9398
မူလျ	-10.9406
အစာရှ	-10.9418
းချကြ	-10.9426
ရှမွေလ	-10.9428
သောသဘော	-10.9431
ဒံယေလ	-10.9433
ဗော	-10.9437
▁???????	-10.9452
လူများကို	-10.9453
နားတော	-10.9456
မီးခ	-10.9463
အကြံအ	-10.9468
များသော	-10.9471
သူကြီး	-10.9481
ချကြ	-10.9508
ာခေါ	-10.9509
မာသော	-10.9532
လိပ	-10.9537
သေလ	-10.954
းအပေါ	-10.9577
အခါမ	-10.9619
းပွ	-10.9622
ပြို	-10.9628
စေရ	-10.9638
အပြား	-10.964
စပါးကို	-10.9658
မလျော	-10.9681
ဘာသာ	-10.97
အမျှ	-10.97
ခု	-10.9707
ထိမိ	-10.9718
မာရ	-10.9749
မြေတ	-10.9759
ငါပြ	-10.9761
မတရားသ	-10.9782
ပဌနာ	-10.9784
ချလျ	-10.9786
းအရာကို	-10.9791
ရေးထားလျ	-10.9821
ဝေး	-10.9823
စကားဟူမူကာ	-10.9827
အဗရှလုံ	-10.983
ရူပါရုံ	-10.9833
မသိမ	-10.9844
ခံရသ	-10.9845
နေသောသူ	-10.9847
တုရု	-10.9848
အထူး	-10.989
းသောအ	-10.9905
ရှာဘ	-10.9908
သောအပြ	-10.9915
ယခုပ	-10.9933
ကြာမြ	-10.9934
မှီဝဲ	-10.9953
ကောရ	-10.9966
သောအကျ	-10.9968
လွှား	-10.9979
မှဆ	-10.9981
မှာရှိသော	-10.9983
လူပျို	-10.9985
စေကြ	-10.999
ကြိုးစားအား	-11.0002
ကိုးစား	-11.0012
များပြား	-11.0022
းမံ	-11.0031
ပြုပါ	-11.0033
▁???????????????	-11.0041
မသာ	-11.005
းစား	-11.0052
တရ	-11.0061
နေလော	-11.0079
ကြိုး	-11.0085
သွားကြလော	-11.0087
တုကို	-11.009
လိုသောငှါ	-11.0095
ဟတ	-11.0137
သွားစေ	-11.0145
းခြား	-11.0147
သဘောရှိ	-11.0152
းပြီးမှ	-11.0155
ခါးပ	-11.016
ပြုလေ	-11.017
အကြီးအကဲ	-11.0176
မဆော	-11.0208
ကိုကား	-11.0209
သောသူနှ	-11.0231
မုသာ	-11.0274
တမျိုး	-11.0303
ဒေါသ	-11.0312
ဆွေ	-11.0315
အိုဣသရေလအမျိုး	-11.0316
ထာဝရအ	-11.0317
ကျီ	-11.0325
အိုး	-11.0345
ူးခြ	-11.0351
ထိတ	-11.0353
ရှေးကာလ	-11.0354
အာဗြဟံသ	-11.0361
ညဦးယံ	-11.0376
မွှေးက	-11.0382
ငါးနှ	-11.0384
သိုးစု	-11.0384
ေရုဒ	-11.0387
ထုံးစံ	-11.0407
အားန	-11.0408
ဟောပြောသော	-11.0431
မရှိစေ	-11.0431
နေပါ	-11.044
ျားသ	-11.0473
ရှိလော	-11.0477
ပြောသ	-11.048
မသနား	-11.048
ခံလျ	-11.048
ညံ	-11.0485
ဆိုတော	-11.0496
ဇာခရိ	-11.0504
ဇိဒ	-11.0522
မဟာ	-11.0524
ထားသ	-11.0532
ဆာတို	-11.0538
မပြုရ	-11.054
ဤမျှ	-11.0563
သမျှကို	-11.0569
သီးကို	-11.057
မိဖုရား	-11.0578
ရှံဆု	-11.058
ဂိဒေါ	-11.0584
ရှိပါသ	-11.0604
အဘိုး	-11.0606
မျှကာလ	-11.0611
တဆေး	-11.0613
ဟုဆိုသ	-11.0619
မိမိနှ	-11.062
ကြပါစေသော	-11.0628
ဂေါ	-11.0639
သေစေ	-11.0651
အမျိုးသ	-11.0652
ဆုံးမဩဝါဒပေး	-11.0656
းခုံ	-11.0659
ရိမ	-11.0663
းရာဌာနတော	-11.0673
အဆွေအမျိုးအ	-11.0679
သောဒုံ	-11.0682
တယ	-11.0688
ဇေရ	-11.07
အသံနှ	-11.0718
▁??????	-11.0734
ထိုဘုရား	-11.0755
းတရား	-11.0759
လူများအပေါ	-11.0767
ဇာဗုလ	-11.0789
စောစောထ	-11.0801
ပြက	-11.0809
ခာ	-11.0813
ခိုလှုံ	-11.0832
းတရားကို	-11.0848
တစုံတခု	-11.0868
မယုံ	-11.0873
မိတ	-11.0879
အကြံရှိ	-11.0899
ူ	-11.0901
မသိသော	-11.0917
ညှိုးန	-11.0928
ပါးတို	-11.0975
ဂိဗာ	-11.1003
ဂိဗ	-11.101
ဒကဲ	-11.1016
ပျို	-11.1024
စာတော	-11.103
းဝေးကြ	-11.1033
ပြောလော	-11.1037
တရားနှ	-11.1038
တဦး	-11.1054
ဖက	-11.1076
လပ	-11.1098
ညူးစေ	-11.1103
ကြွေး	-11.1152
ဇိ	-11.1161
ပကတိ	-11.1163
အစာ	-11.1171
ဆီနှ	-11.1186
လောကီသား	-11.1187
တကာ	-11.1196
မပါသော	-11.1198
ပေးပါ	-11.12
ပွဲခံ	-11.12
တိုးပွား	-11.1201
ပုရော	-11.1202
ဆီဥ	-11.1231
ယောန	-11.1241
အမှုသ	-11.1258
စာနှ	-11.1258
ဗာရ	-11.1268
ဗာလဘုရား	-11.1277
ကြားသော	-11.1299
ပါး	-11.1322
အများ	-11.1326
နာသန	-11.1331
မြဲ	-11.1337
းပေါက	-11.1339
နော	-11.1343
စာဖြ	-11.1345
ရွှေနှ	-11.136
းရှော	-11.1361
ဣ	-11.1362
သွားလာ	-11.1368
ဩဇိ	-11.1373
သောသူအား	-11.1401
ခြေကို	-11.1414
လှံတံ	-11.1434
အနာဂတ	-11.1441
▁့၌၊	-11.1443
ဆီကို	-11.1461
ကွန	-11.1471
းမြ	-11.1505
ငါဆို	-11.1532
ထိုသူနှ	-11.1562
တံခါးစ	-11.1576
မြှော	-11.1585
းဖျ	-11.1588
းချက	-11.1596
ငါကြ	-11.1598
မခံရ	-11.1598
မွေး	-11.1641
ခြေန	-11.1643
နေရာကျ	-11.1645
မိဇပါ	-11.1668
နူးည	-11.1668
ရှိသေး	-11.1669
သောအခွ	-11.1671
ဟေဇကိ	-11.1691
ကိုဆ	-11.1693
ဟေဇကိမ	-11.1701
ခံရသောသူ	-11.1704
ရွှေငွေ	-11.1706
ပြီးသ	-11.1707
ရာမ	-11.1708
းစာလာသ	-11.1709
မပြ	-11.1715
ဘာ	-11.1734
မျိုးကို	-11.1741
ယာယ	-11.1751
မရှ	-11.1767
ဆာရှိသမျှ	-11.1768
ထူထ	-11.1778
အခြားသောသူ	-11.1778
ငံသား	-11.1784
မပြန	-11.1786
ကြပြီဟု	-11.1796
ထိမ	-11.1797
စိက	-11.1806
ရုန	-11.1809
သူအိ	-11.181
းဘေး	-11.1825
အလိုရှိသ	-11.1826
ာဟတ	-11.1839
မီးကို	-11.1854
ရွတ	-11.1865
ဇာတိပကတိ	-11.1869
အတူရှိ	-11.1869
တံပိုး	-11.1869
ပြုစေ	-11.1878
ကိုရ	-11.1884
ခိုလှုံရာ	-11.1886
မာတရား	-11.1896
မြေကြီးတ	-11.192
ကာဘို	-11.1928
းဘိုး	-11.196
စားခ	-11.1966
ငွေရ	-11.1977
မာစေ	-11.1991
မလာ	-11.1991
ရှောလုက	-11.2003
လှေ	-11.2004
းသောအခါ	-11.2019
ကာရ	-11.202
အဆုံး	-11.2033
ကြာ	-11.2034
မိမိနေရာ	-11.2044
ထားခြ	-11.2056
နောဧ	-11.2056
ရှာသော	-11.2061
သေသောသူ	-11.2064
မထား	-11.2066
ခြေစွ	-11.2074
လှံ	-11.2095
ကျိုး	-11.2095
ဒေါ	-11.2098
လေးသော	-11.2109
အလျား	-11.2128
ယေဇရေလ	-11.214
ခိုးကြီး	-11.2169
ဌာနတော	-11.2174
လု	-11.2185
မရဏာန	-11.2203
ပြေ	-11.2205
သတိပေး	-11.2217
ြို	-11.224
ထာဝရဘုရားပေး	-11.2248
စကားပြော	-11.2255
ရိုသေ	-11.226
ငါပြန	-11.226
ရှို	-11.2267
ခွေး	-11.2291
မျို	-11.2301
မထော	-11.2306
သွားပါ	-11.231
ဗာလက	-11.231
နေရစ	-11.2319
သိသော	-11.234
တိုးပွါး	-11.2342
ကြစေ	-11.2383
မြှား	-11.2383
ရှေမာယ	-11.2383
ယောယကိ	-11.2383
ပခုံး	-11.2384
ခရီးဦးကြိုပြု	-11.2384
မယားနှ	-11.239
အနာကို	-11.2391
မောရှေကို	-11.2397
ပြာ	-11.2412
ဆွဲထား	-11.2417
ရှားစွာ	-11.242
ထိုလူ	-11.2426
သိစေ	-11.2441
ရောနှော	-11.2442
ဒိ	-11.2442
သိရ	-11.2449
းကြီးကို	-11.2466
ကွဲပြား	-11.2481
ကိုဆော	-11.2482
အာမောရိ	-11.2484
ယောရှိ	-11.2489
ရပြီ	-11.2492
မှုကို	-11.2493
ခြုံ	-11.2494
ရှိမိ	-11.25
းအခွ	-11.2511
ဍာန	-11.2525
းအရ	-11.2525
းပါး	-11.2531
ဟေရှ	-11.2569
နေစ	-11.2583
သူမျှမ	-11.2588
ုံမက	-11.2595
မိစ	-11.2595
အဟိမ	-11.2597
များပြားစေ	-11.2598
မိမိဘုရား	-11.2609
နေလျ	-11.2616
ောဟတ	-11.2624
မိသော	-11.2627
ဧလျာ	-11.2629
စိရ	-11.2633
းကိုခံ	-11.2638
အကြေး	-11.2641
ဒူး	-11.2654
ပုပ	-11.2661
ဗေလ	-11.2687
တရက	-11.269
ငါးရာ	-11.2712
တူး	-11.2714
တတိယ	-11.2715
ဓ	-11.2722
းသောကြ	-11.273
းဘိုးကို	-11.273
တာကို	-11.273
သုံးကြ	-11.2733
းအခြား	-11.2741
ပဌနာပြု	-11.2746
မကယ	-11.2771
ညူးသော	-11.2772
ပေတရုက	-11.2772
ငါဖြ	-11.2783
ငါပ	-11.2799
နှလုံးအ	-11.2808
အဦး	-11.2814
စကားနှ	-11.2828
ဟုန	-11.2834
ကာလကို	-11.2834
းရှိသမျှ	-11.2837
သေးသော	-11.2856
အသား	-11.287
မီးလျှံ	-11.289
ဖာ	-11.2897
သောကာလ	-11.29
ကြီးပွား	-11.2901
ု	-11.2902
းခို	-11.2918
လေးရာ	-11.2932
မှပြ	-11.2938
ခါနနိလူ	-11.2951
ခိုးကို	-11.2967
းတု	-11.298
ယေ	-11.2991
ခံလေ	-11.3003
မိလျှ	-11.3029
သေသ	-11.3037
သားစ	-11.3048
မရှိဟု	-11.3051
းနား	-11.307
ဖြား	-11.3099
မိမိသား	-11.3117
အနွ	-11.3119
ဖေါ	-11.3124
ဝဲဘ	-11.313
မမှီ	-11.3138
တာရှ	-11.314
အလိုလို	-11.3141
ျှင	-11.3142
မကြား	-11.3143
မရှိပါ	-11.3148
ယေရှဲ	-11.3148
နူနာ	-11.3152
ဂိလဂါလ	-11.3153
ငါးထ	-11.3165
အာမောရိလူ	-11.3167
းရဲသော	-11.317
ညူး	-11.317
ထိုအရာ	-11.3172
ဘိတ	-11.3173
မုသာစကားကို	-11.3185
းသောအရာကို	-11.3204
မအမှုကို	-11.321
းကိုခံရသော	-11.3219
များပြားသော	-11.3223
းသောသူသ	-11.3228
ပေးစား	-11.3228
စကားသံကို	-11.3229
သေဘေး	-11.3243
ီ	-11.3246
လေပြီတကား	-11.3262
ပြုမိသော	-11.3263
သာမျိုး	-11.3264
အဆွေအမျိုးသူကြီး	-11.3292
မစား	-11.3295
အသီးအနှံကို	-11.3296
နွားထီး	-11.333
ပြုမူသော	-11.3338
မကြ	-11.3338
မြေကြီးသ	-11.3346
ခြေတို	-11.336
ဂါသ	-11.3361
ပိ	-11.3377
ျားရ	-11.3379
တခါ	-11.3381
ဖျား	-11.3418
ဟာဒဒ	-11.3424
ဧက	-11.3426
ရံ	-11.3437
ပြောဆိုသော	-11.3439
သိုထား	-11.3442
ရအံ	-11.3443
ပျိုသော	-11.3446
ချသော	-11.3448
ပွဲကို	-11.3469
ပသခါပွဲကို	-11.3471
ဘာအဆ	-11.3481
မှာရှိ	-11.3484
ွှန	-11.3492
သူတပါးကို	-11.3499
နေစေ	-11.3522
အာဂ	-11.3528
လာပါ	-11.354
လူတ	-11.3543
းသောအကျ	-11.3567
းသာရ	-11.3578
သတိ	-11.3589
လာပြီ	-11.3602
ရာဖြ	-11.3605
စရာရှိ	-11.3606
အာမလ	-11.3618
ကိုပေး	-11.362
ကိုရှာ	-11.3621
စိနှ	-11.3624
သူများ	-11.3647
ျားကို	-11.3648
သမီးသ	-11.365
ရှာဖွေ	-11.3667
သားဘွား	-11.3669
ဦးညွ	-11.368
ကျေး	-11.3701
သိနာတော	-11.3701
အာဣ	-11.3701
ပလွံ	-11.3702
ဇော	-11.3708
သောအထ	-11.3711
ဖို	-11.3716
ကွဲပြားစေ	-11.3723
လုယ	-11.3729
ဖုတ	-11.373
ပြသော	-11.373
ဣရှမေလ	-11.3737
ကြုံ	-11.3742
ရှေမ	-11.3744
တစုံတခုကိုမျှ	-11.3766
ပြားနှ	-11.3772
နွားသ	-11.3794
မိမိလူ	-11.3794
အရာနှ	-11.3805
ဧဝံဂေလိတရား	-11.3856
ခုံ	-11.3881
မခံသော	-11.3882
းအရာသ	-11.3885
ဆီးကြ	-11.39
ပြားကို	-11.3903
ပြုတ	-11.3908
ဟောပြောကြ	-11.3914
းအပြ	-11.3921
တသက	-11.3942
မြေကြီးသား	-11.3963
ကေ	-11.3965
လိုသော	-11.397
မြေသ	-11.3976
မီးခိုး	-11.398
ငွေနှ	-11.3986
ဓေယူ	-11.3988
နာဇရ	-11.3989
မမေ	-11.3996
နုန	-11.3997
ငါရေး	-11.3998
ဘုရားအား	-11.4
းဘဲ	-11.4014
ဣသရေလအမျိုးသ	-11.4016
ဖိန	-11.4024
ထားပြီ	-11.4024
နေရသော	-11.4032
နိမ	-11.4034
သောနော	-11.4037
စေပြီးမှ	-11.404
အသွေးနှ	-11.4045
စားစရာကို	-11.4046
စွာသော	-11.4058
အနိ	-11.4062
စုံခြ	-11.4063
အကြံကို	-11.4089
အမျိုးမျိုးသော	-11.4119
ခရီး	-11.412
သု	-11.4122
စေပြီ	-11.4132
လူအများ	-11.4159
းကြီးမ	-11.4171
နှမြော	-11.4176
ားတတ	-11.4176
းဆိုကြ	-11.4194
ဘေးလွ	-11.4198
ပြုသောအမှု	-11.4202
ဟေ	-11.4208
ဖိ	-11.4209
ရွှေလ	-11.4233
းရှိသော	-11.4238
ထိုသူက	-11.4252
ဝေးသော	-11.4252
ရာမှ	-11.4258
ပျား	-11.4259
ပေးလေ	-11.4265
နဿလိ	-11.4268
တစု	-11.4272
မသိကြ	-11.4283
တာရှု	-11.4326
မျှလ	-11.4328
ကုရှ	-11.4329
မသွား	-11.4368
လုန	-11.4374
အမဲသားကို	-11.4379
မြွေ	-11.438
တိဇံကို	-11.4389
သေကို	-11.4391
ငွေအ	-11.4407
ဘွားသော	-11.4431
ပြုကြပြီ	-11.4458
ကြံကြ	-11.4463
ခရာ	-11.4468
ထကြ	-11.4473
နှမ	-11.4504
ှတ	-11.4519
များအပေါ	-11.4519
ပြာသောအ	-11.4523
ကာလက	-11.4561
သမီးကို	-11.4574
ပေါလုကို	-11.4578
စူးစ	-11.4582
နဲသော	-11.4583
ပေရသိ	-11.4584
ကိရယ	-11.4588
များကြ	-11.4588
အာဇရိ	-11.4606
အာဗြံ	-11.4616
နွှ	-11.4617
စာပျ	-11.4628
ထိုလူမျိုး	-11.4637
အမွေမြေ	-11.4644
စားတော	-11.4647
ဆွေးနွေး	-11.4647
ယူပြီးလ	-11.465
ဧလိရှဲ	-11.4662
လေးပါး	-11.4662
အားဆို	-11.4663
သူမူကား	-11.4667
းထဲမှာ	-11.4679
မနေရ	-11.468
မာတရားကို	-11.4711
ခြေသ	-11.4719
ရှမွေလသ	-11.475
မပြုကြ	-11.4761
ဧလိယသ	-11.478
ထိုအမှုအရာ	-11.478
အရာဖြ	-11.478
သေလေ	-11.4795
ိုက	-11.4803
ရာကာလ	-11.4832
ယွာဘသ	-11.4858
မိမိကို	-11.4881
ဝိ	-11.4883
ဆီဥကို	-11.489
ဟာနန	-11.49
အာရှရပ	-11.4901
းမျိုး	-11.4919
နေထွ	-11.4924
စာရေးတံပြု	-11.4931
ထိုသားကို	-11.4942
အာသ	-11.4946
မသေ	-11.495
ကာလအ	-11.495
သူကိုမျှ	-11.4951
ပြိုပ	-11.4958
ဆာများကို	-11.499
မိမိအဘ	-11.4997
ယခုမှ	-11.4998
ထိုစကား	-11.4998
းမာ	-11.5021
အားရ	-11.5029
ွေ	-11.503
ပါလေစေ	-11.5035
ငါးက	-11.5047
အထုံး	-11.5056
မပျော	-11.5057
ငါအလိုရှိ	-11.5066
ဘဲနေကြ	-11.5075
လုယူသော	-11.5076
စရာမရှိ	-11.5091
ဇေဒကိ	-11.5101
သုံးရာ	-11.5116
ဇေဒကိမ	-11.5121
ထုပ	-11.5121
အနာရောဂါ	-11.5122
အာနု	-11.5129
းဆဲသော	-11.5162
မလွှဲ	-11.5177
ကာမ	-11.5181
ထားပြီး	-11.5183
တလုံး	-11.5189
ဒရ	-11.5201
စောစော	-11.5202
းယူကြ	-11.5209
ဗာနဗ	-11.5219
ရှိပါစေသော	-11.5219
ဆီးသော	-11.5226
ဟောရ	-11.5235
အာသပ	-11.5239
ဗေဒ	-11.5243
လိ	-11.5247
ညံလျ	-11.5275
ဤပည	-11.5282
ရှန	-11.5285
ဝစွာ	-11.5299
ကြားကြ	-11.532
အကျိုးန	-11.5322
ထိုအပ	-11.5328
အိုအ	-11.5331
ပါစေဟု	-11.5334
ပြောဆိုလျ	-11.5344
ရှားလျ	-11.5345
မသွ	-11.5345
ပြုရသော	-11.5357
မျှမ	-11.5368
စားလျ	-11.5372
ပညာရှိသော	-11.5373
မှာထားသ	-11.5374
းသောအမှု	-11.5386
ရေလအမျိုး	-11.5391
စာသ	-11.5395
မိဘကို	-11.54
မတရား	-11.5403
သောဥ	-11.5404
တံခါးနားမှာ	-11.5404
သတိရ	-11.5405
ဥပမာ	-11.5411
ရှိသောကြ	-11.5432
အလှ	-11.545
မပြေ	-11.5462
ခိုးရှ	-11.5465
အကြံပေး	-11.5469
ဝဲ	-11.5471
ဗေရ	-11.5481
အသေခံရ	-11.5491
အမျိုးမျိုးကို	-11.5497
မရှိကြ	-11.5503
းလေသမျှ	-11.5504
အလိုမရှိ	-11.5508
းပြီ	-11.5528
းမဖြ	-11.5528
ကြားရသော	-11.5538
လူကြီး	-11.554
အဗျာသာ	-11.5552
ထုလ	-11.5553
အဒေါနိယ	-11.5556
အလှူ	-11.5577
ဂတိထား	-11.5581
မှသ	-11.5597
းလာ	-11.5604
လုံးနှ	-11.5609
တစုံတခုမျှ	-11.5614
ဘူးသလော	-11.5615
အသီးအနှံ	-11.5622
ာလမုန	-11.5625
ဧလိရှဲက	-11.5626
ရွာများ	-11.5654
ရာတို	-11.5659
ညိုသော	-11.5661
ထု	-11.5666
လေအာ	-11.5671
နေကြသ	-11.5676
စိုးသော	-11.568
ဘီး	-11.5686
ပါးကို	-11.5692
လေပြီဟု	-11.5707
ကူ	-11.5716
မှာထားလေ	-11.5718
ငှါး	-11.5721
စီးစေ	-11.5726
ရေးထားသော	-11.5741
ွပ	-11.5743
ေ	-11.5744
ဗိ	-11.5746
မိမိညီ	-11.5752
ေလ	-11.5771
သုံးသော	-11.5786
ရှေဘ	-11.5801
းစာကို	-11.5824
အာခဇိ	-11.5826
းလွဲ	-11.5834
မရှိသ	-11.5858
မှာရှိသ	-11.5865
ထားပြ	-11.587
ခွါ	-11.589
ပုတ	-11.589
ဘာသာစကား	-11.589
အမှိုက	-11.5898
ခိုးအာနု	-11.5899
ထောမနာသီ	-11.59
သောဘုရား	-11.5902
မိမိခ	-11.5917
နှလုံးထဲ	-11.5925
းတဘ	-11.5929
းရကြ	-11.5942
ဌမ	-11.595
စဖူး	-11.5952
မူသောဘုရား	-11.5952
ော	-11.5967
တခုကို	-11.5971
သူခိုး	-11.5982
အာဇ	-11.5982
မှားပါပြီ	-11.599
စာရှိသမျှကို	-11.599
ငါမူကား	-11.6
လဆ	-11.6008
သောသူကား	-11.6015
သိပါ	-11.6024
ရှမွေလက	-11.6032
နှာပြု	-11.6043
မပြုဘဲ	-11.6043
နှလုံးနှ	-11.606
လှူသော	-11.6069
ဟုဆိုကြ	-11.6083
းထက	-11.6087
းသမျှ	-11.6088
သောသား	-11.6088
းဖူး	-11.6136
ထိုသိ	-11.6137
လူက	-11.6138
သိုးထီးတ	-11.6138
ကဲသာ	-11.614
ပမာဏ	-11.6143
ရေဗ	-11.6147
ခါလဒဲလူ	-11.6149
ငံသ	-11.6155
ှုပ	-11.6161
ရူပါရုံကို	-11.6168
သွားစ	-11.6175
မီးဖို	-11.6183
လဲကြ	-11.6208
အကြီးအ	-11.6213
ကိုပြ	-11.6224
ျားနှ	-11.6229
အမှုမှာ	-11.6232
▁-	-11.6242
ဣသခါ	-11.6243
စကားသံ	-11.6244
ဆုံ	-11.6245
ကြီးကို	-11.6249
ချောက	-11.6254
ကြိုဆို	-11.6254
သမီးကညာ	-11.6254
မဟော	-11.626
ဗေ	-11.6262
တပါးအမျိုး	-11.6276
မူပါစေ	-11.6288
ရသောအချ	-11.6289
မသိဘဲ	-11.6294
အလျားအ	-11.6312
ဆာဆ	-11.6317
အာမန	-11.6321
ဒေါသအမ	-11.6326
မရွေ	-11.6332
ယေဗုသိလူ	-11.6343
သွားရာ	-11.6344
သောအသံကို	-11.6347
ပြုကြသ	-11.6358
ရာခေလ	-11.636
ပြောလေ	-11.6366
ပညာရှိသောသူ	-11.6373
းအာနု	-11.6378
လူမျိုးကို	-11.6379
ရှာလ	-11.6381
ငိုကြွေးကြ	-11.6385
အာလ	-11.6389
ဆိုးသောသူ	-11.64
ကြီးသောအသံ	-11.6409
ချိုးဖ	-11.6411
စပါးရ	-11.6417
ရေင	-11.642
လာကြသ	-11.6426
မညှ	-11.6428
ဘဝ	-11.6432
လုံကို	-11.6432
ငါရွေး	-11.6433
နွားကို	-11.6441
ယေဟု	-11.6444
ဓာတ	-11.6447
ဝါ	-11.6457
းခေါ	-11.648
နု	-11.6491
းသကဲ	-11.65
ဗေနာယ	-11.6506
သိသ	-11.6512
ပြုသောသူတို	-11.652
ျားပေါ	-11.6527
ခွဲထား	-11.6534
နေစရာ	-11.6535
ကြားသိ	-11.6537
ုသိမ	-11.654
မေးကြ	-11.6554
ဧန	-11.6554
ကူးသွား	-11.6557
မီးသ	-11.6558
ယောရံ	-11.6565
းတံပိုး	-11.6589
းခုန	-11.6592
ဧလ	-11.6601
ရှာသောသူ	-11.6603
မသွားရ	-11.6612
အာရှာ	-11.6615
ကရမေလ	-11.6624
ဆာလံ	-11.6626
ဒပ	-11.6632
လုံးသ	-11.6635
အမွေး	-11.6635
ဆေးကြော	-11.6642
သောအသံ	-11.6645
ထိုခဏ	-11.6647
တယော	-11.6674
ရိက	-11.6687
မပါဘဲ	-11.669
းထော	-11.6691
မူပါစေသောဟု	-11.6699
သိုးထီး	-11.67
နေကြပါ	-11.6722
နီးပြီ	-11.6725
မလူ	-11.6725
စုဝေးကြ	-11.6736
အဘနှ	-11.6754
မယားသ	-11.6756
ရသောသူ	-11.676
စုံကြ	-11.6764
ယေဖသ	-11.6769
းမိ	-11.677
စာများကို	-11.677
ယူရ	-11.6781
နဲ	-11.6785
ထားရာ	-11.6793
ဧလိရှဲသ	-11.6823
ခြားနား	-11.683
ရုသ	-11.6833
ငုံ	-11.6833
မအမှု	-11.6838
ငံတို	-11.685
ယို	-11.686
ငါထား	-11.6892
ဧသတာ	-11.6899
ာမုတ	-11.69
အာန	-11.6909
မခံန	-11.6915
ခရီးသွားကြ	-11.6915
ယေရမိသ	-11.6925
မူသလော	-11.6934
ပြုရကြ	-11.6961
ယုဒသ	-11.6987
ခံပြီးမှ	-11.6996
မုယော	-11.7003
ကာလသ	-11.7003
အသံဗလံ	-11.7009
အကဲအမှူး	-11.7009
ဟာဂရ	-11.7009
ဗေရရှေဘ	-11.7009
သမျှအတ	-11.7012
းကျေးဇူးကို	-11.7017
ခွာ	-11.7019
ညီမ	-11.7023
းကြီးထံ	-11.7023
မီးခဲ	-11.7027
နှလုံးထဲမှာ	-11.7029
ငါထ	-11.703
တွားတ	-11.7032
ဂါဇ	-11.7033
စားရသော	-11.706
ထူးခြားသော	-11.7068
းရသော	-11.7069
တမလ	-11.707
သိုးဆ	-11.7075
မိကြ	-11.7077
ကိုလှ	-11.7079
ဘုရားထံ	-11.7085
ပျိုး	-11.7086
မူသောသူသ	-11.709
မှစသော	-11.7092
ရှိသလော	-11.7096
အဝေးက	-11.7096
အကျိုးရှိ	-11.7113
ရွေးယူ	-11.7116
အသုံး	-11.7126
ဝေဒနာကို	-11.7138
ဘေးနှ	-11.7138
ယံ	-11.7171
လေးနှ	-11.7173
ရှုလျ	-11.718
ဟေဇကိသ	-11.718
မှူးသ	-11.7207
မနာရှေအမျိုး	-11.7214
းရေကို	-11.7217
ဩဇ	-11.7219
းသွားသော	-11.723
တား	-11.7231
လွှဲသွား	-11.7232
ရဗ	-11.7245
ဟောပြောသ	-11.7247
လေးရ	-11.7247
ဧလံ	-11.725
းကြီးသော	-11.7256
ပညာသ	-11.726
မှားသောအ	-11.726
ယောယဒ	-11.7262
တချ	-11.7265
ဝါး	-11.7298
ခဏာကို	-11.7299
းကိုမျှ	-11.7303
ကြွသွား	-11.7309
အာမဇိ	-11.7311
ှယ	-11.7315
ဇိဘ	-11.7318
းပြ	-11.7326
ဂေ	-11.7327
စကားကိုနား	-11.734
းမများ	-11.7353
ကြိုးနှ	-11.7359
ကိုမသိ	-11.7363
အမှုစ	-11.7372
နာရီ	-11.7373
အမွေခံရသော	-11.7394
ကိလ	-11.7397
ရကြပါ	-11.7407
မပါ	-11.7409
မှီခိုရာ	-11.7409
မာသေယ	-11.7409
ဟာနနိ	-11.7409
ဒြေ	-11.741
ငွေဖလား	-11.7414
ဟဂ	-11.7416
ပြီးစီး	-11.7427
နွားနှ	-11.743
ခံရာ	-11.744
လူကိုစေ	-11.7447
ထားပါ	-11.7461
ျားတို	-11.7461
သိသရ	-11.7466
းစေသော	-11.7468
စိမြ	-11.7476
နီသောအ	-11.7476
သားသမီးများကို	-11.7476
နှာရ	-11.7478
သူအား	-11.7489
ဧဒုံပ	-11.749
ယာဗ	-11.7496
ပမာဏမပြု	-11.7505
းမစိုး	-11.7508
ဧဖ	-11.7515
ဘာသာစကားကို	-11.7517
ပြအိုး	-11.7537
ခြားနားသော	-11.7542
းဝေးသော	-11.7589
ဧလိယက	-11.7598
သွားသ	-11.761
အမျိုးနှ	-11.7625
းကိုပြု	-11.7635
အမဲသား	-11.7637
ရိုးတို	-11.7644
တပါးသ	-11.7646
သိလ	-11.7647
မိဘမရှိသောသူ	-11.7647
ပြုရပါ	-11.7648
ရှိဟု	-11.7661
နာဗ	-11.7669
မရှိသောသူ	-11.7671
းစီ	-11.7674
းရွက	-11.7676
းမိုးသော	-11.7688
သရဖူ	-11.7699
မာသ	-11.772
ဘယ	-11.7732
ချေး	-11.7732
သောမြေ	-11.7734
စုံလျ	-11.7735
သဘောနှ	-11.7737
ပါတကား	-11.7763
းသေးသော	-11.7765
ဘဲလ	-11.7766
ရေချိုး	-11.7774
အဝေး	-11.778
းဆဲသောသူ	-11.7783
အမွေခံရ	-11.7793
မုသာကို	-11.7797
းရှိစေ	-11.7803
သောသူမရှိ	-11.7808
ဂျုံ	-11.7824
မေရှုလံ	-11.7825
သူဌေး	-11.7825
မရဏန	-11.7826
သာသနာပလူ	-11.7826
ဍာတို	-11.7826
ဧလျာဘ	-11.7827
စေဘဲ	-11.7834
ဗေရိ	-11.7837
ဒါရိ	-11.7838
အကာရှသား	-11.7845
ကြီးတို	-11.7847
းလှ	-11.7847
းပဌနာပြု	-11.7848
အဆုံးတို	-11.7855
သားမယား	-11.7865
အာရ	-11.7874
လေးမျ	-11.7876
ညီပေါ	-11.7885
အဓိ	-11.7891
ယူသော	-11.7894
အာမခံ	-11.7902
စီးလ	-11.7904
းခိုသော	-11.7908
ခိုးကြီးသော	-11.7912
မယူ	-11.7916
မထိမ	-11.7924
းဆိုပါ	-11.7927
သရဖူကို	-11.793
ဖေ	-11.7947
ရွှေကို	-11.7967
အဘထံ	-11.7969
လေဝိအမျိုး	-11.7975
တီ	-11.7976
ဘိုးဘ	-11.7979
သနားစ	-11.798
ဖြူသော	-11.7981
ရှိကြပါ	-11.7989
တိကို	-11.8003
ခံပါ	-11.8004
ပညာအတ	-11.8012
တရာနှ	-11.8013
အမှုကိုပြု	-11.8016
မရော	-11.8021
သောငှာ	-11.8026
နဖူး	-11.8031
ပြုလို	-11.8059
သောသူများ	-11.8062
းဟုမေး	-11.8063
အမှုဖြ	-11.8078
ခြေဖြ	-11.8079
ဥဖ	-11.8089
ိုငြ	-11.8097
သွားရသော	-11.8099
ပြုပြီ	-11.8107
သုံးလ	-11.8134
အရာသ	-11.8139
ဆုံးစေ	-11.8142
ဟောက	-11.8163
းရဲခံရ	-11.8165
သွားပြီ	-11.8179
အသံသ	-11.8183
ထွေး	-11.8206
လဲလျ	-11.821
မီးခုံ	-11.8216
သားများကို	-11.8218
သဘောသ	-11.8218
ခံရသောအခါ	-11.8219
ဒေသနာ	-11.8249
ပြုစုသော	-11.8253
ျားအပေါ	-11.8254
ချွေးမ	-11.826
ဂေါမောရ	-11.826
ဂလာရှိစေသ	-11.8261
ရှေးဦးစွာ	-11.8262
မိမိဥ	-11.8263
သားရေ	-11.8263
ရေဖိ	-11.8264
ဟေဗာ	-11.8268
မကြာမ	-11.8268
းလွှဲ	-11.8268
လဲစရာ	-11.8272
လှေကား	-11.8274
မမူမှီ	-11.8276
မွေးဘွား	-11.8276
ဩဃ	-11.8279
မေဒိ	-11.828
ခံရသောသူတို	-11.8291
အမျိုးမှ	-11.8296
ပါစေသောဟု	-11.8305
ကြံပြုမူ	-11.8306
ကာပြု	-11.8313
ကာသော	-11.8322
အကျိုးမရှိ	-11.8324
ငါမှာထားသမျှ	-11.8326
ပြောလျ	-11.833
အဘိုးကို	-11.8332
ကြီးရ	-11.8338
ပျံ	-11.8339
သေလျ	-11.8345
နေရာကို	-11.8349
မီးထဲ	-11.835
းဆဲကြ	-11.8352
စကားကိုကြားလျှ	-11.8384
လုတ	-11.8391
ငါချိုး	-11.8397
လှူ	-11.8414
ကိုသိ	-11.8418
းကြီးတော	-11.8439
ပိန	-11.8441
ပါရစေဟု	-11.8445
ရွှေငွေကို	-11.8445
းအသင	-11.8456
ပြေးသော	-11.8462
မိမိလူမျိုး	-11.8463
လူသေ	-11.847
အမိသ	-11.85
တာသ	-11.8506
ခြေထ	-11.8507
းကြီးနှ	-11.8509
ဝေဒနာ	-11.8511
ဆု	-11.8534
ယူကြ	-11.8541
အာဇု	-11.8551
သံနှ	-11.8555
မြဲမြံ	-11.8562
သိုးတ	-11.8567
ကြပြီတကား	-11.857
ထားပြီးမှ	-11.8578
ဟေလသလူ	-11.8583
သောစကား	-11.8595
းသမား	-11.861
အခကို	-11.8622
မနို	-11.8638
အဘများ	-11.8646
လေးကို	-11.8646
ပဌမလ	-11.8649
မှလာ	-11.8657
ခံစား	-11.8658
ေဖန	-11.8682
ရှိကြသ	-11.8682
းစကားကို	-11.8683
အာရှိ	-11.8685
နေဝ	-11.8691
ဆုံးမဩဝါဒ	-11.8693
သောအရာသ	-11.8695
ကာလမှ	-11.8704
တံစို	-11.8711
ယုဘိလ	-11.8713
မာကေဒေါနိ	-11.8715
ဧလကာန	-11.8715
ကူညီ	-11.8716
ကာလနာဘေး	-11.8716
ဂိဒ	-11.8717
အာဗေလ	-11.8717
ရှုရှန	-11.8717
လုယူဖျ	-11.8725
စုံသ	-11.8725
ကိရှ	-11.8732
မြဲမြံစေ	-11.8735
နောမိ	-11.8743
ကျီကို	-11.8743
သာစေ	-11.8753
ဒုန	-11.8756
ဆူ	-11.8759
ငါပည	-11.876
ကွဲပြားလျ	-11.8768
ပရော	-11.8771
ဝေးစွာ	-11.8771
အာဒ	-11.8775
နှာမှ	-11.8775
ကြပါစေ	-11.8782
နာဗလ	-11.8782
ကြားလျ	-11.8788
စေပြီးလျ	-11.8792
နွားမ	-11.8798
အားယူ	-11.8799
ဟိန	-11.8804
ယေဟုသ	-11.8808
ကြိုးကို	-11.882
ကျွေးသော	-11.8827
သဘောဖြ	-11.8847
သာယာသော	-11.8855
အမှီပြုလျ	-11.8865
အာဗနာ	-11.8871
စာဂတိ	-11.8872
မှားစေသော	-11.888
ခြေနှ	-11.8891
အပျို	-11.8919
ငြူစူ	-11.8921
ဧကြ	-11.8927
အိုထာဝရ	-11.8931
တိအ	-11.8936
းအတွ	-11.8936
စားစေ	-11.894
ထိုယ	-11.8944
းတယောက	-11.8951
နှာပ	-11.8954
ထာဝရဘုရားနှ	-11.8965
တာနှ	-11.8995
ဤအရာ	-11.8997
ဦးချ	-11.9013
ဟေရှာယ	-11.9015
ယောရှုက	-11.903
ဣသရေလသ	-11.9035
ဟုပြောဆို	-11.9055
အဟိ	-11.9058
စားသောသူ	-11.9069
းစေရ	-11.907
းအရာရှိ	-11.9073
လူမျိုးသ	-11.908
သီးန	-11.909
ငါမှာထားသော	-11.9107
ထိုမြေ	-11.9113
ထုံးစံရှိ	-11.9117
လူငါး	-11.9123
လှီး	-11.9138
နေရာမှ	-11.9139
းမရှိသော	-11.9141
ဤစကားကို	-11.9171
းရန	-11.9172
အဘိယ	-11.9176
သာသနာ	-11.9191
ကိလေသာ	-11.9191
မာခိရ	-11.9191
ဇာတိ	-11.9191
ဩဗဒိ	-11.9191
အာဒံ	-11.9192
တံခါးခုံ	-11.9193
တေမန	-11.9201
ဿ	-11.9211
ပြိုလဲ	-11.9212
သားဦးအပေါ	-11.9213
အထီး	-11.9219
မီးနှ	-11.9221
ကိုဖျ	-11.9243
ေါ	-11.9245
တာမာ	-11.9246
တောသားရဲ	-11.9247
ဟာဇ	-11.9249
ပြေစေ	-11.9249
သံချ	-11.925
းရိ	-11.9264
းကျိုး	-11.927
ပွဲသ	-11.9279
အရာရှိသမျှ	-11.928
းကြား	-11.9284
စာတရား	-11.9298
ပြောစရာ	-11.9304
ခံရပါ	-11.9312
နေမန	-11.9319
အခြားသို	-11.9322
ငါချ	-11.9339
စကားများ	-11.9351
ကိ	-11.9355
ခိုလှုံသော	-11.9368
ထားသောသူ	-11.9376
သမီးနှ	-11.9378
ထိုသူအား	-11.9384
ရှိပြီ	-11.9393
အားဆိုလျ	-11.9429
အားကြီးသောသူ	-11.9448
ပြေးသွား	-11.945
အဗရှလုံသ	-11.9454
မမူဟု	-11.9455
ယောခ	-11.9459
လူတသ	-11.9461
ယောရှုအား	-11.9501
ပါရစေ	-11.9504
သောသူရှိသမျှ	-11.9509
အဘက	-11.9509
ဤလူမျိုးကို	-11.951
ကြံလေ	-11.9522
လူမျ	-11.953
စကားတခ	-11.9531
ကလေး	-11.9531
စာချ	-11.9538
ဇေ	-11.9547
အားပြောဆို	-11.9555
သေရက	-11.9563
ညံရာ	-11.9568
အာဗြံသ	-11.9569
မအပ	-11.9574
အာရွှေရု	-11.9585
အဘကို	-11.9591
နားမှာရှိသော	-11.9593
ဟိလခိ	-11.9595
ခါးစ	-11.9598
အသရေရှိသော	-11.96
အဘိရှဲ	-11.9609
ကျလျ	-11.9611
စကားအ	-11.9612
မိပြီ	-11.9613
ဤစာ	-11.9614
ဝေးသောအရ	-11.9618
ရေတို	-11.9621
ပေးပါဟု	-11.9629
သိလျ	-11.9638
းရွာ	-11.9649
နွားတ	-11.9652
ပိဿာ	-11.9654
ထိုဘုရားသ	-11.9676
ကြီးသောသူ	-11.9678
မြေခွေး	-11.9686
ရှာရ	-11.9689
အဦးသီးသော	-11.9691
နိနေဝေ	-11.9691
လာခိရှ	-11.9691
အနီးအပါး	-11.9691
သလဲသီး	-11.9691
အမြီး	-11.9691
အရေဖျား	-11.9691
မုရန	-11.9693
မြွေဆိုး	-11.9693
ပုဆိ	-11.9693
ဇုရ	-11.9693
ဧဖာ	-11.9694
ဣသမာ	-11.9697
ရွာစေ	-11.9698
မငြ	-11.9699
အမျိုးထဲ	-11.9706
လုံခြုံစွာ	-11.9709
ရခြ	-11.9717
အမိကို	-11.972
ကာလနာ	-11.9725
လူအသီးအသီး	-11.9728
ဧဒ	-11.9728
လှံတံကို	-11.9731
ဍာကို	-11.9736
မစပ	-11.9736
သူမရှိ	-11.9744
ခေလ	-11.9748
အာရပ	-11.9749
အလုံး	-11.9762
မနာ	-11.9789
အမှုအရာကို	-11.9802
ငိုကြွေးလ	-11.9806
ဒေ	-11.9812
လောဘ	-11.9825
အများသော	-11.9828
းကြီးအား	-11.9842
အသွေးဖြ	-11.9843
မနာလိုသော	-11.9852
ဟောပြောရ	-11.9867
တောဘိ	-11.987
ပေးပြီ	-11.9873
သွားလျ	-11.9878
းသမျှသော	-11.9879
အထိ	-11.988
အရာကိုမျှ	-11.9884
ုံ	-11.9885
းကြပါ	-11.9899
းအခြားသ	-11.99
စာတို	-11.991
ဥရိယ	-11.9913
ရကြဟု	-11.9923
ပေါလုက	-11.9924
ခာကို	-11.994
ပေးလျ	-11.9943
အဟိယ	-11.997
းအများ	-11.9994
စီရှိ	-11.9996
လွှားသော	-11.9996
အခြားသူ	-12.0002
အလိုကို	-12.0005
မီးထွ	-12.001
ရုတ	-12.0017
းသောအမှုကို	-12.0037
မိလ	-12.0067
ကု	-12.0073
ဟေလ	-12.0079
မနေန	-12.008
းမှစ	-12.0091
းသာစေ	-12.0096
ငါလာသ	-12.0096
စာရာ	-12.0109
ယောလ	-12.0109
ာကြက	-12.0112
ကျိုးပ	-12.0114
မခံမယူ	-12.0123
ရောဂါ	-12.0124
းသောအကြံကို	-12.0126
ယုဒအမျိုးကို	-12.015
သွားကြစ	-12.0157
းပေး	-12.0161
အကျိ	-12.0167
အကြံရှိသ	-12.0167
သွားရကြ	-12.0168
မီးမ	-12.0173
သူမှစ	-12.0178
သောစပ	-12.0181
ငါနား	-12.0188
ရကြပြီ	-12.0205
းကိုသာ	-12.0213
ဇေရုဗဗေလ	-12.0217
ဟေဇရုံ	-12.0217
ဖြိုချ	-12.0217
မာခါ	-12.0218
လှံကို	-12.0218
မသေမှီ	-12.022
ပဌနာစကားကို	-12.0223
ချုံ	-12.0224
အပွ	-12.0226
လူအကြီးအကဲ	-12.0229
ဣရ	-12.023
ဤအမှုအရာ	-12.0233
အထဲမှာ	-12.0234
ပြောပါ	-12.0234
ယူလော	-12.0236
အသွေးသ	-12.0242
သူရဲသုံး	-12.0246
ပြုသမျှသော	-12.0248
ပေးစေ	-12.0251
ပြုသမျှ	-12.0252
းနှီးသော	-12.0256
းကြပြီ	-12.0262
ငါးရ	-12.0267
ဂေရရှုံ	-12.0269
တေရ	-12.027
အမှုများကို	-12.0271
သားသမီးကို	-12.0272
အရူး	-12.0286
သားကိုဘွား	-12.029
ပြောစေ	-12.0291
ွေးမြေ	-12.0292
ယေလ	-12.0293
နေအ	-12.0296
ဤသူကား	-12.03
သားရေဘူး	-12.0304
ရေစီး	-12.0313
ပါးသော	-12.0316
ပညာတရား	-12.0321
တူကြ	-12.0324
ရှုံးစေ	-12.0327
အစာစား	-12.0329
သောဘေး	-12.0333
မူသောသူကို	-12.0335
အမွေကို	-12.034
းတီး	-12.0361
းမှီ	-12.0366
ယေရမိကို	-12.0379
ရောသော	-12.0382
းစံနှ	-12.0396
ဤစကား	-12.0399
နီသော	-12.0404
တဦးကို	-12.0405
မေရာရိ	-12.0408
မေရှ	-12.0408
မြေကြီးအ	-12.0412
ငါကလ	-12.0412
ဂိ	-12.0413
းလွှား	-12.042
ငါနေ	-12.0424
းအသရေကို	-12.0427
နာမဖြ	-12.0438
နာကြ	-12.0441
မကိုး	-12.0479
စုဝေးသော	-12.0491
ထိုမျှ	-12.0491
ရှမ	-12.0497
တရားဆုံး	-12.0509
ိကျွ	-12.0519
ဂါလ	-12.052
သုက	-12.0535
းကိုယူ	-12.0539
ရှာဖ	-12.0549
ငွေတ	-12.0556
ရတ	-12.0575
ငါပေးပြီ	-12.0583
ရေးထားသ	-12.0593
ငါမသိ	-12.0595
ဤလူ	-12.0595
ထိုအမျိုး	-12.0608
ချီလာ	-12.0612
စားလော	-12.0617
ရှောလုအား	-12.0621
လိဗန	-12.0622
ဒဒ	-12.0633
သောအမျိုး	-12.0635
ပြကြ	-12.0636
ရထားများ	-12.0645
ပြောဆိုသ	-12.0647
စားရာအ	-12.0651
ဟာဇေလ	-12.0654
အမှုကိုဆ	-12.0659
ဟာရ	-12.0669
မကြွ	-12.067
ဟေမ	-12.0683
ဩဗ	-12.0698
အမိနဒ	-12.07
ငါပို	-12.0708
ဣသရေ	-12.0711
ဆုကို	-12.0714
းတံခါး	-12.0725
ွံ	-12.0726
အာတ	-12.0734
တခါမျှ	-12.0735
ဝါကြွားသော	-12.074
သေအ	-12.0742
ချထား	-12.0751
ထူ	-12.0753
ဝေငှ	-12.0768
တိမောသေ	-12.0772
ကာဒေရှ	-12.0773
တရံရောအခါ	-12.0773
ဂေဟာဇိ	-12.0773
ဩဗဒေဒုံ	-12.0773
ကဲသရိ	-12.0773
ဩဇေလ	-12.0773
ဘထွေး	-12.0774
လေဘွေ	-12.0774
ဍာစိုး	-12.0775
လူမျိုးတကာ	-12.0776
တရားစကားကို	-12.0781
ရွှေဖလား	-12.0782
မယူရ	-12.0786
ရှားကြ	-12.0789
အသရေပ	-12.0795
မသိကြသလော	-12.0797
ဟိဝိလူ	-12.08
ွှတ	-12.0805
ဣသရေလအမျိုးအနွ	-12.0806
ဂိတ	-12.0806
ပြုမိ	-12.0813
ကာယ	-12.0816
းဟုမေးလျှ	-12.0816
အမွေခံရကြ	-12.082
ံအတ	-12.0828
စားဘ	-12.0842
ပြီးစေ	-12.0844
ဒု	-12.0849
မူသောအ	-12.085
ချီသွားကြ	-12.0852
အာရော	-12.0854
ငါသွား	-12.0856
ပြေးလေ	-12.086
ငါမှာထား	-12.0875
ဖလားကို	-12.0885
ဟာနု	-12.0889
ကြီးလှ	-12.0894
သူရှေ	-12.0897
မတရားသောအမှုကို	-12.0903
ဧလိဖ	-12.0928
သေသောန	-12.0932
တရားဟော	-12.094
ခြေဆ	-12.0945
မဆရာ	-12.0947
အာဗနာသ	-12.0956
ဆိုးသောသူတို	-12.0984
စိုးရသော	-12.0987
ကိုအမှီပြု	-12.0988
မဖွ	-12.0999
ဆိုပါ	-12.1014
ိအဆွေအမျိုး	-12.1025
နေရာကျကြ	-12.1026
ာနော	-12.1031
လောတ	-12.1032
တိရှိ	-12.1041
မနာရှေအမျိုးသား	-12.1042
ပေလ	-12.1045
လူတရာ	-12.105
မခံကြ	-12.1056
မရိတ	-12.1063
းဆုံးသော	-12.1071
းသေ	-12.1078
သေခံကြ	-12.1083
ငါဆ	-12.1084
အာခိ	-12.1091
ဆိုကြသော	-12.1094
းလှသော	-12.1095
မရှာ	-12.1096
ငါရှိ	-12.11
နေရပါ	-12.1105
ကိုထော	-12.1107
သနားသော	-12.1107
မထားသော	-12.113
အဘိုးပြ	-12.1131
ကိုခံရ	-12.1132
ကျကြ	-12.1134
နားပ	-12.116
ဖူးမြ	-12.1163
းသလော	-12.1163
ခိ	-12.1188
မှာနေသော	-12.1202
စတု	-12.1212
သာယာ	-12.1214
ကြားပြောလေ	-12.1219
ကြီးသ	-12.122
အဘအား	-12.1244
ကျသော	-12.1255
စာရှိ	-12.1267
ရဘဲ	-12.1267
ဆုကျေးဇူး	-12.1271
ထိသောသူ	-12.1271
အနံတ	-12.1288
ဧရ	-12.1313
းသမျှကို	-12.1316
သတိပြုကြ	-12.1322
အရှု	-12.1328
အာသမ	-12.1332
ဆံသော	-12.1343
ရှိစေသ	-12.1343
ဇေဒက	-12.1352
အဘိဂဲလ	-12.1361
တုံးလုံးနေ	-12.1361
သေချာစွာ	-12.1361
ဩမရိ	-12.1361
ငြီး	-12.1361
အာသလိ	-12.1361
ဟာဒဒေဇာ	-12.1361
ဆေးသမား	-12.1362
သိုးခြံ	-12.1362
အာရံ	-12.1363
မပြုန	-12.1364
ဩမဲ	-12.1368
ကျူလုံး	-12.1369
နွေး	-12.1371
အဦးဘွားသော	-12.1372
ကုရု	-12.1377
လူတမျိုး	-12.1381
ဖေရဇိလူ	-12.1382
အိုးထ	-12.1389
လူစုထဲက	-12.1401
ရသောနေ	-12.1404
ချီကြွ	-12.1405
ကွာသော	-12.1411
မှားမိသော	-12.1412
းပေ	-12.1412
ဇိဖ	-12.1417
အိုဣသရေလ	-12.1421
ဒဲ	-12.1436
တံခါးဝမှာ	-12.1439
ယခုကာလ	-12.1443
မှာနေ	-12.1444
မူသမျှအ	-12.1451
ဆိုကြသ	-12.1453
ယုံမှား	-12.1457
ဓေ	-12.146
းပါရမီ	-12.1462
းမရှိရ	-12.148
နှာပြုသော	-12.1484
ဟေရှာယသ	-12.1487
ခဏသာ	-12.1488
းသုံး	-12.1489
ရှုပြုစု	-12.1498
စုထား	-12.1501
ရွာသား	-12.1502
မသန	-12.1504
ကိုညှ	-12.1506
ဆံခြ	-12.1507
အစေအပါး	-12.1511
နာသော	-12.1525
စိုးစေ	-12.1529
အမွေခံရာ	-12.1529
ရေပေါ	-12.1532
ညံရာအ	-12.1543
ကိုစား	-12.1543
အရာများကို	-12.1544
ပြုလေသမျှ	-12.1546
တောခွေး	-12.1561
လုယူရာ	-12.1563
လုယူကြ	-12.1566
ဒိန	-12.1569
ဗာရက	-12.1572
ဖု	-12.1581
ဆိုစေ	-12.1583
မိသောသူ	-12.1589
ဆုံးမသော	-12.159
မပြုပါ	-12.1594
သုံးပါး	-12.1614
ပွားများ	-12.1614
ခုစီ	-12.1618
စွဲသော	-12.1628
ကေန	-12.163
သိုးစုကို	-12.1631
မသွားဘဲ	-12.1634
လေးချ	-12.1637
စာစကား	-12.1645
ကိုးစားသော	-12.165
တဲကို	-12.1656
ဩဝါဒ	-12.1657
မလ	-12.168
စာရှိသော	-12.1681
တစုံတခုသော	-12.1691
အမှုဆ	-12.1693
ဟိရံ	-12.1699
မပြုစု	-12.1709
ဧလာ	-12.1717
လူဣသရေလအမျိုး	-12.1727
လူနာ	-12.1736
နေကြစ	-12.1745
ယေဖ	-12.1746
ရှုကြ	-12.1749
တိရဇ	-12.1751
ဘွားစေ	-12.1755
ရုံ	-12.1761
သမီးဖြ	-12.1769
ဆီမီး	-12.1773
စရာယ	-12.1788
တိဇံ	-12.1794
းရဲကို	-12.18
မမေးမ	-12.1801
နှာနှ	-12.1801
ဧသောသ	-12.1808
းရာအရ	-12.181
စားရာ	-12.1813
အားကြီးသ	-12.1814
စာရှိသမျှ	-12.1817
ငါခံရသော	-12.1818
ပသခါပွဲ	-12.1831
ဒံယေလကို	-12.1835
ဣသရေလအမျိုးနှ	-12.1839
ချိုသော	-12.1844
လောကီန	-12.1844
ရု	-12.1849
ဗု	-12.185
ကြားသ	-12.1866
ကြီးမား	-12.1877
ရောမ	-12.1881
းသာကို	-12.1897
အဘအာဗြဟံ	-12.19
ထိုတရား	-12.1906
ညူးသောန	-12.1906
းဝေးစေ	-12.191
မပေးရ	-12.1914
ငှာ	-12.1926
နေဇာမ	-12.193
ရှိစ	-12.1934
းမအား	-12.1942
စကားကြ	-12.1947
ထီး	-12.1947
စကားအလုံးစုံ	-12.1962
အစေကို	-12.1967
မသိန	-12.1981
မေလခိ	-12.1985
ခြိုးခြံစွာ	-12.1986
နာသနေလ	-12.1986
အာနနိ	-12.1987
ဆီရောသော	-12.1987
အာမရံ	-12.1987
ယေဟေလ	-12.1988
အာမရိ	-12.1988
ဆဲရေး	-12.1988
မောရှ	-12.1991
ဖေလ	-12.1992
မုဆိုး	-12.1992
ရထားစီးသူရဲ	-12.1993
စုဝေးစေပြီးလျ	-12.1996
းမရှိကြ	-12.1998
သီလ	-12.2001
ငြိုး	-12.2001
နဂါး	-12.2002
ဧဒုံအမျိုးသား	-12.2006
ကြားရပြီ	-12.2009
အာရှတရ	-12.2016
သူငှါး	-12.2018
သဘောတူ	-12.2019
ဖယ	-12.2019
ပျိုးပ	-12.202
ပြီးစီးစေ	-12.2028
ကြားရကြ	-12.2031
တဆူ	-12.2037
းအသံကို	-12.2038
တိဇံကိုပေး	-12.2051
ခွံ	-12.2051
အထဲမှ	-12.2055
ဦးရ	-12.2057
သူအများ	-12.2082
လူကလေး	-12.2082
ဣန	-12.2088
းကြစေ	-12.2089
စပါးပ	-12.2098
အမှုများ	-12.2101
ငါလာ	-12.2103
အာရှ	-12.2103
ဘူးပြီ	-12.2104
းအဝ	-12.2105
ဣရှဗ	-12.2105
ထသွား	-12.2107
အလျားနှ	-12.2107
ဘဲနေလျ	-12.2113
အလုံးစုံကို	-12.2117
းရှိသမျှကို	-12.213
ဧဇရ	-12.2137
အစား	-12.2137
ဆာများ	-12.2143
ဧသတာသ	-12.2149
အလိုရှိကြ	-12.2159
အာနသ	-12.216
ငါဆုံးမ	-12.2167
းအဝေး	-12.2168
ပုံကို	-12.2169
ပကတိအ	-12.2169
ကြသေး	-12.2175
းစေကြ	-12.2201
ဒကဲသ	-12.2204
ကုသ	-12.2213
မှားသောသူ	-12.2225
းမအပေါ	-12.2229
အလိုရှိသမျှ	-12.2244
လာခဲ	-12.2261
ထိုစာ	-12.2267
ဦးတို	-12.2274
သိကြပါ	-12.2286
မိမိမ	-12.2292
ဤတော	-12.2295
ကြပါဟု	-12.2301
ာဒပ	-12.2317
ဆိုကြပါ	-12.2318
အမှုရှိသမျှ	-12.2319
ငံအရ	-12.2323
အတူနေ	-12.2325
အမျိုးသမီး	-12.2326
ဘူးသ	-12.2351
အမြဲနေ	-12.2353
လူသုံး	-12.2355
ဟေဗြဲလူ	-12.2364
ရှိနေ	-12.2384
ရှောလုကို	-12.2392
စုဝေးရာ	-12.2406
သူတစုံ	-12.2409
ကြစေဟု	-12.2425
မစေ	-12.2431
တံပိုးကို	-12.2435
ဟုဆိုလေ	-12.244
မှာထားသော	-12.2447
တဲများ	-12.2453
းနေသော	-12.2454
ရှေလ	-12.2455
အသနား	-12.2473
တူသ	-12.2483
ဂျုံစပါး	-12.249
သွားကြပြီ	-12.2513
လူမ	-12.2527
ဗေသ	-12.2529
မိသ	-12.2531
ပါရမီ	-12.254
ယေခေါနိ	-12.2547
ယဟောရံ	-12.2548
မိမိသန	-12.2553
မပေးဘဲ	-12.2555
ချီလွှဲ	-12.2557
ယာရ	-12.2557
ဗောဇ	-12.2561
များပြားသ	-12.2566
ခါရ	-12.2569
းပါးသော	-12.2571
အာမသ	-12.2576
ဆာမ	-12.2577
သူကား	-12.2585
းရဲခံ	-12.2586
ထိုပွဲ	-12.259
ရသောကြ	-12.2593
ကြားပြောသော	-12.2594
ရှုရ	-12.2595
သောသဘောရှိ	-12.2603
ငါပြုသ	-12.2605
းတရားသ	-12.2612
ရယ	-12.2615
ောရှက	-12.2642
ပသခါ	-12.2643
သုံးစုတစု	-12.265
ဂြိ	-12.2653
မိရိအံ	-12.2653
မေဖိဗောရှ	-12.2653
ဣဇဟာ	-12.2653
မိခါလ	-12.2653
ဒရာသဲလုံး	-12.2653
ဇိကလ	-12.2653
ဟာရှဘိ	-12.2653
ကျုံး	-12.2653
▁်၏၊	-12.2663
အစအဦး	-12.2665
ဂေရရှု	-12.2666
ိုယွ	-12.2666
နဲသောအရာ	-12.2667
ယေရိ	-12.2674
ဟံ	-12.2677
ဟောလေ	-12.2677
စာမရှိ	-12.2679
ဤအရာများကို	-12.2686
ဆီးကြို	-12.2688
ခွေ	-12.2693
ယောယဒသား	-12.2696
မဆိုလို	-12.2699
မိမိမယား	-12.2701
မမူသော	-12.2702
မမူဘဲ	-12.2705
ဗာနိ	-12.2705
ပွား	-12.2708
မှာထားသမျှ	-12.2711
ထုသော	-12.2724
းကြိုး	-12.2725
ဆိုလို	-12.2733
လှေထဲ	-12.2734
စုဝေးလ	-12.2736
းဆဲနှ	-12.2747
ဆွဲချ	-12.2753
လူတဦး	-12.2757
ဇေဘ	-12.2772
တိတု	-12.2777
နာယူ	-12.278
ဝစွာစားရ	-12.2781
အစိုး	-12.2784
လှသော	-12.2786
သောအကြံ	-12.2786
မေးလေ	-12.2796
နဲရာ	-12.2798
တီးလ	-12.2806
ကိုအပ	-12.2809
းဆုံး	-12.2817
စာများ	-12.2817
ဟေဗြဲ	-12.2819
ကြဲသော	-12.2821
ငါးလုံး	-12.2835
အစရှိသ	-12.2841
လုံးလုံး	-12.2843
ခြေအပေါ	-12.2843
အနာရောဂါကို	-12.2846
ဂလာရှိပါ	-12.2854
တိလ	-12.2868
သာဆီ	-12.2869
ထားကြပြီ	-12.2872
ငါပြုသော	-12.2878
ခာက	-12.2891
ပြုကြပါ	-12.2895
နောဧသ	-12.2896
သိုးမွေး	-12.2907
းရံ	-12.2908
တံစ	-12.2911
အာဗြဟံအား	-12.2922
ဘောထဲ	-12.2929
အမိုး	-12.2931
ဥတု	-12.2959
ဣဗ	-12.2961
တိအမျိုး	-12.2967
ယုန	-12.2969
ငါအသက	-12.2969
ခါးကို	-12.297
ရူး	-12.2971
လာစေ	-12.299
းအကျ	-12.2996
လူသားကို	-12.2997
နှာအရ	-12.3026
ယူလေ	-12.3027
ညံသော	-12.3035
စကားဖြ	-12.3047
စားချ	-12.307
ပြောဆိုလေ	-12.3079
ဆိုးသောအမှု	-12.3082
ဘွားသောသား	-12.3084
သားမရှိ	-12.3085
ေရုဗ	-12.3092
ပါလေစေဟု	-12.3101
းမသိ	-12.3101
ငါကိုး	-12.3103
ပြုသောအမှုကို	-12.3116
ားယော	-12.3118
ကပေရ	-12.313
မကွာ	-12.314
တံခါးဖြ	-12.3152
မရိပ	-12.3156
ရလေ	-12.316
မူစေ	-12.3163
သူများကို	-12.3166
ဂလာစကားကို	-12.3183
ဣရှ	-12.3184
တပါးသော	-12.3192
မစစ	-12.3196
လျှာကို	-12.3198
ကိုကြဲ	-12.3204
တရားမှု	-12.3219
းဆဲရ	-12.322
ရူ	-12.3231
မသိရ	-12.3233
ဝစွာစား	-12.3234
စရာရှိသ	-12.3238
ဖာရ	-12.3239
ဗာရှာ	-12.3253
ဂေရ	-12.3257
စေပြီဟု	-12.3262
းယူသော	-12.3267
ဧဂလ	-12.327
မဝါကြွား	-12.3289
လာရ	-12.329
ကြူး	-12.3304
ယေဇ	-12.3309
းသောစကားကို	-12.3316
ဟောသော	-12.3335
သားအကြီး	-12.3353
အဇုမပွဲ	-12.3353
းသာရကြ	-12.3357
ပြီလော	-12.3364
စားပွဲကို	-12.3367
ရာဗရှာခ	-12.3367
အဟိသောဖေလ	-12.3367
ဆီမွှေး	-12.3367
ဧလျေဇာ	-12.3367
ပုလွေ	-12.3367
ဂေါဂ	-12.3367
တိဇံဆရာ	-12.3367
မနှမြောဘဲ	-12.3368
အားသာ	-12.3369
ဆရာသမား	-12.3369
မသိဘူးသော	-12.3369
ဘာဦး	-12.337
ဟာမော	-12.3371
တံခါးနား	-12.3371
ပါရှုရ	-12.3374
ရှာကြံ	-12.3375
းဆိုလျ	-12.3378
းမရွာ	-12.3378
ဒုကဲ	-12.338
အမြှေး	-12.3381
ဒုတိယလ	-12.3382
သံကြိုး	-12.3384
ဥရိ	-12.3388
ရသေး	-12.3392
းအုံ	-12.3395
သူရှိသမျှ	-12.3398
ယေရှုထံ	-12.3402
းငှါသာ	-12.341
သံကြိုးနှ	-12.3413
ပုံပြ	-12.3417
သံကိုကြား	-12.342
ဆုံးလေ	-12.3422
ဘောကို	-12.3426
နေပူ	-12.3429
မသွားန	-12.343
မနာရှေအမျိုးတ	-12.3432
တိဇံကိုခံ	-12.3434
မှလွှဲ	-12.3439
မခံမှီ	-12.3441
စာပြု	-12.3447
အေ	-12.3449
းရှိရ	-12.3453
ကြံသော	-12.3458
မူသမျှသော	-12.3469
မုသာစကား	-12.347
ဤအကြ	-12.3474
အဘိန	-12.3475
ဟောရှေ	-12.3484
နဲသောအရာကို	-12.3484
စီးရာ	-12.3493
ဖူး	-12.35
ဂေဗ	-12.3507
ကြီးမားသော	-12.3508
းအရာများကို	-12.3524
မျှသာ	-12.353
ပြလျ	-12.3542
အာမဇိသ	-12.3549
းရွာစေ	-12.3551
ထဲမှ	-12.3558
အားပြော	-12.3573
မဆိုဘဲ	-12.3592
နှာထား	-12.3608
မှီအော	-12.3611
မပွဲ	-12.3621
အမှုမထား	-12.3626
စာဂတိပြု	-12.363
းကြီးအပေါ	-12.3631
ဝဲလ	-12.3635
ပြောသောသူ	-12.3645
ဟေလက	-12.3653
အရသာ	-12.3653
ကိုသိသော	-12.3655
မပြုဘဲနေ	-12.366
းကြားပြော	-12.3662
ပြေးလာ	-12.3666
ပြောသောစကား	-12.3671
မိဘမရှိသော	-12.3687
မခံရကြ	-12.3689
ဝပြော	-12.3699
ရာခေလသ	-12.3705
းဝေဒနာကို	-12.3717
မလျှော	-12.3743
မြှားတော	-12.3743
ကွဲပြားသော	-12.3746
ယောရှိသား	-12.3749
မိမိအလို	-12.375
မြုံ	-12.3754
ဒုတိယအ	-12.3755
ရှုန	-12.376
ခဏာသ	-12.376
နေသန	-12.3764
ထိုအရာကို	-12.3764
ိဒ	-12.3772
ယေရှုရှ	-12.3784
ဧလိရှ	-12.3787
ငြူစူသော	-12.3791
ဇဒ	-12.3795
နားပြ	-12.3795
ထိုခရ	-12.3799
ဟူသောအ	-12.3804
ရွာမှ	-12.3805
သူရဲများ	-12.3805
တရားစကား	-12.3808
လေဝိလူ	-12.3809
တစပ	-12.381
ကူမ	-12.3824
နှံကြ	-12.3831
ပြပါ	-12.3833
ယောသံ	-12.3839
ခြုံလ	-12.3842
ပေးပါလော	-12.3849
ခေ	-12.3857
နှလုံးခ	-12.3866
ဒေါသအ	-12.3868
စာရေးတံချ	-12.3901
းအရေအ	-12.392
လာသောသူ	-12.3933
းသောလူမျိုး	-12.394
ဟာရှ	-12.3945
မာနကို	-12.3947
မဟာန	-12.3971
များပြားကြ	-12.3978
ဂဲ	-12.3984
မဘွား	-12.3986
သားသုံး	-12.3986
သူလျှို	-12.399
သားယောရှု	-12.3991
တရားသော	-12.4001
သွားလေရာရာ	-12.4002
ါ	-12.4005
ကိုမမြ	-12.4013
ငါမနှ	-12.4016
တရားသောသူ	-12.4025
လူမျိုးများ	-12.4036
ကြားပြောကြ	-12.4037
ထိုမြ	-12.4042
အစာအာဟာရ	-12.4046
းမော	-12.4054
လောကီအ	-12.4055
တညီ	-12.406
ဆုံးရှုံးကြ	-12.4069
အကာ	-12.407
ခြေဘဝါး	-12.4075
ပါကြ	-12.408
အသားသ	-12.4091
တိဖြ	-12.4093
ကိုချီ	-12.4093
းမှတပါး	-12.4095
တံဖျာ	-12.4102
သောသူရှိ	-12.4111
းကိုမပြု	-12.4114
ဟေရမ	-12.4116
နွေကာလ	-12.412
သိအမျိုး	-12.4125
းတုကို	-12.4132
ယခုသွား	-12.4132
ယေဒါယ	-12.4136
ဗာသရှေဘ	-12.4136
ဟာလေလုယ	-12.4136
တလုံးတဝတ	-12.4136
ဈာ	-12.4136
ရဟောဘ	-12.4136
အပျိုကညာ	-12.4136
အံသွားခဲ	-12.4136
ယာဣရ	-12.4137
ဧလိရှမာ	-12.4137
ယာဖက	-12.4138
တုရိယာမျိုး	-12.4138
အရောန	-12.4138
ယောဇဗ	-12.4138
ယာဇာ	-12.414
နှိုး	-12.4145
အမွေခံစရာ	-12.4145
နှာလွှဲ	-12.4146
ခံစားရ	-12.415
သူရူး	-12.4152
ကြီးပေး	-12.4153
ကြီးလှပါ	-12.416
မကျရ	-12.4168
နေဗော	-12.4168
ကညာ	-12.417
ဇောရ	-12.4175
သိုးငါး	-12.4176
လှဲချ	-12.4177
ပြုစား	-12.4178
မရှိမှီ	-12.4179
ငါးခု	-12.4184
တိုးပွားစေ	-12.4185
ရွှေဒ	-12.4186
းသွားချ	-12.4218
ဂေဇာမ	-12.4218
မတရားသောအမှု	-12.4218
အမှုအလုံးစုံ	-12.4234
ပွဲခံရာ	-12.4235
ထိုတပ	-12.4246
မရိုမသေပြု	-12.4247
မရှား	-12.4248
မီးထဲက	-12.4259
ဓိ	-12.426
ဧဇရသ	-12.4262
အကြံမ	-12.4265
ထွာ	-12.4268
မကျိ	-12.4272
အိုးက	-12.4282
ရောမလူ	-12.4284
အမူအရာ	-12.4287
ယူသွားကြ	-12.4289
ညှိ	-12.429
းကြီးက	-12.4291
မီးဖိုထဲ	-12.4294
ငါးပါး	-12.4318
မခံသောသူ	-12.4326
မကြဲ	-12.4329
အခိုး	-12.4329
ပြောသောစကားကို	-12.433
းတွားကြ	-12.4337
မာစွာ	-12.4338
ကိုမျှမ	-12.4338
ထိုဘေး	-12.435
မပြောဘဲ	-12.435
မိမိအမျိုး	-12.4351
လူနေရာ	-12.4352
မရဘဲ	-12.4364
ငါလှ	-12.438
နေရာပြ	-12.4386
အလုံးစုံသော	-12.4386
ဘုရားများ	-12.4396
များထဲက	-12.4396
မှာစာကို	-12.4396
ဒိရှ	-12.4397
ပွါး	-12.4404
ဇေလ	-12.4404
အာရှာအမျိုး	-12.4409
နွားထီးတ	-12.4412
မရကြ	-12.4417
မီးအ	-12.4439
နေပါသ	-12.4444
အမှုကိုမျှ	-12.4451
သူမျှမသိ	-12.4452
ပြီတကားဟု	-12.4462
းကိုမခံ	-12.4467
ပေးရသော	-12.447
မိမိအမျိုးသား	-12.4474
နှာကိုထ	-12.4483
းစမ	-12.4491
သွားသောသူ	-12.4492
ကာဣန	-12.4496
တွေးတော	-12.4496
ထိုသား	-12.4497
ပညာသတိ	-12.4501
ာရိမ	-12.4505
းမိသော	-12.4508
ီးအချိ	-12.4512
းကြီးပေးကြ	-12.4518
သောနေရာ	-12.4523
ဆွဲဖြ	-12.4535
ရုံမျှသာ	-12.4539
ဟေလသ	-12.4542
သားရဲကို	-12.4563
ကြွလာသ	-12.4567
းရဲသောသူကို	-12.4568
ဧဇ	-12.4569
အသီးကိုသီး	-12.4569
သေသောအခါ	-12.4569
ရထားနှ	-12.4569
ကြဲသောသူ	-12.458
ပါတကားဟု	-12.4592
ကူးကြ	-12.4595
အမွေပေး	-12.4603
မကြားရ	-12.4607
းထားသော	-12.4619
းပြုလေ	-12.4629
သီ	-12.4632
ပုလ	-12.4637
ယူစေ	-12.4642
တခြားစီ	-12.4649
မျိုးအပေါ	-12.4651
ငါဆိုသော	-12.4656
မလာရ	-12.4659
ကျေးဇူးရှိ	-12.4661
းဖ	-12.4671
သမျှသ	-12.4677
လုဒ	-12.4682
မကြားမပြော	-12.4683
ဘုံမှ	-12.4685
ဖြူစ	-12.4694
မိပါပြီ	-12.4696
းပါလော	-12.4704
မေလက	-12.4728
ခံစရာ	-12.4733
မီးခုံတို	-12.4742
စကားကိုပြော	-12.4746
လာပြီဟု	-12.4746
ဤလူများ	-12.4762
ဇာရ	-12.4765
မဆုံးမ	-12.4771
နဿလိအမျိုး	-12.4771
ခြေမ	-12.4775
သူတပါးသ	-12.4796
မြဲရှိ	-12.4797
သားပေါ	-12.4804
စွာနေကြ	-12.4814
ရှဲ	-12.4831
လာဇရု	-12.4846
အသရေရှိ	-12.485
ဣရှမေလသ	-12.4857
စာရေးတံ	-12.4858
အာသဟေလ	-12.4865
းစာလာ	-12.4871
တပါးကို	-12.4877
ရေများ	-12.489
ဟမ	-12.4893
ာပွ	-12.4905
ပြုရာ	-12.4913
လေးက	-12.4915
တရာအ	-12.4918
စုံကို	-12.4918
ရှိပ	-12.4922
ဝေးကို	-12.4931
ွ	-12.4933
အိုအဘ	-12.4933
ပါသလော	-12.4935
စုထဲက	-12.4936
ငါဝ	-12.4941
လုံခြုံ	-12.4942
ထိုအရာများ	-12.4942
တရားအ	-12.4944
ဆီးလေ	-12.4947
စုံတို	-12.4956
းတွားလ	-12.4961
တဟာရှသားရေ	-12.497
ဗာဇိလဲ	-12.497
အခြံအရံ	-12.497
ကေဒေရှမ	-12.497
ဈေး	-12.497
အဒုလံ	-12.497
ဇိခရိ	-12.497
အဘိရံ	-12.497
ာခရိပ	-12.497
နေဗုဇာရ	-12.497
မှီခိုလ	-12.497
ကေဒါ	-12.497
ပြုမိသ	-12.497
အရှုကြွလာ	-12.4972
အမွှေး	-12.4972
နံရံ	-12.4972
ပုလဲ	-12.4973
ယောအာ	-12.4978
တခုတ	-12.4978
တေကော	-12.4979
မီးညှ	-12.4982
ဂေရာ	-12.4983
တာဖုံး	-12.4983
မေရာရိသား	-12.4984
ဟာရိမ	-12.4987
ဤအမှုအလုံးစုံ	-12.4987
ငံလုံးကို	-12.4988
ခွဲခ	-12.4993
ဆုံးကြ	-12.4995
ရှာကြံကြ	-12.5001
အဘိဟု	-12.5004
မူရာအ	-12.501
မဟာလိ	-12.5016
ထာဝရပဋိညာ	-12.5019
မိမိအပေါ	-12.5019
မှလာသော	-12.5023
လျား	-12.5024
မြေအိုး	-12.5028
ငါအလိုမရှိ	-12.5033
မစွဲ	-12.5041
မြဲမြံသော	-12.5044
အလံကို	-12.5045
ရှားစွာပြ	-12.5047
နာသ	-12.5056
ဆုံးရှုံးစေ	-12.5056
နီးသော	-12.5057
မစားရဟု	-12.5058
ဏာ	-12.5058
ဟောကြ	-12.5066
ယောရှသား	-12.5068
အစာအာဟာရကို	-12.5069
အလိုရှိလျ	-12.5073
သောသိုး	-12.5073
ဒေါရ	-12.5076
ရှောလ	-12.5084
ချီလွှဲသော	-12.5093
ဒြုန	-12.5094
ခစား	-12.5104
အာဗြဟံကို	-12.5104
ပြေးသောသူ	-12.5118
ဒုတိယသား	-12.5119
တစုံတခုမျှမရှိ	-12.5122
းတပါး	-12.5124
လိုသေး	-12.5129
အရာအလုံးစုံ	-12.5141
ငါဟောပြောသော	-12.5152
ပျိုးသော	-12.5162
မကူး	-12.5166
အနံအ	-12.5171
ဆိုမိသော	-12.5172
တိအမျိုးသား	-12.5177
မသွားကြ	-12.5181
ကြီးသောအမှု	-12.5189
သားယောန	-12.5191
မဝတ	-12.5218
းစံသုံး	-12.5227
တစုကို	-12.5231
သုံးချ	-12.5237
ကာဣနန	-12.524
ပြေးရသော	-12.526
မိမိဘ	-12.5261
ဆဌမ	-12.527
မှားပြီ	-12.528
မူသလောဟု	-12.5283
းရဲစေ	-12.5285
ဆီးစေ	-12.5287
တခါတ	-12.5287
မှားစေ	-12.5295
ဧလိမ	-12.5299
စကားကိုကြား	-12.53
ထိုတရားကို	-12.5313
ဘူးသောသူ	-12.5318
သားသမီးများ	-12.5374
ရွှေချ	-12.5375
ငါအော	-12.5375
မု	-12.5384
မပြုစေ	-12.5388
ချီစေ	-12.5388
ကြပြီလော	-12.5398
ပေးရကြ	-12.5403
းရာဌာနကို	-12.5417
ဒေဒ	-12.5418
းစွာအမ	-12.5434
ယွာဘက	-12.5437
မရပ	-12.5457
ငါချီးမြှ	-12.5465
ဝေပေး	-12.5467
ရှိလေ	-12.5468
မာလ	-12.5468
ပြီဟုဆိုလျ	-12.5472
ဧလု	-12.5479
စာရာသ	-12.5487
ထားစေ	-12.5491
ငါးရာရှိ	-12.5502
တုများကို	-12.551
ရှိနေစ	-12.551
မရန	-12.5512
ပြီတကား	-12.5514
ခံရကြပြီ	-12.5519
ဆိုသောသူ	-12.5521
ပြောရသော	-12.5524
ပုံထား	-12.5524
မြွေကို	-12.5524
မောန	-12.5541
အာသန	-12.5541
အခြာ	-12.5547
အိုယုဒ	-12.5552
ထိုပည	-12.5553
ပဌနာပြုသော	-12.5572
ဂါများ	-12.5576
ယောရှသ	-12.5578
ယေရမိက	-12.558
မနာလို	-12.559
ငါဟောပြော	-12.5597
ကိုကူး	-12.5604
ရိုးသ	-12.5609
ပါပြီတကားဟု	-12.5609
စွဲစေ	-12.561
မွှေ	-12.5622
ရှုဆ	-12.5631
ခါးသော	-12.5633
ယေဇဗေလ	-12.5635
ပြုဘူးသော	-12.5642
ကရုဏာကို	-12.5647
သူဟူ	-12.5653
သောအစေ	-12.566
းဝေးရာတဲ	-12.566
ကိုမစား	-12.5665
းအာဏာ	-12.567
မပို	-12.5677
ကာပြုရ	-12.5681
တရားသောအမှု	-12.569
မခံဘဲ	-12.5694
သားဦးကို	-12.5709
မှားပါ	-12.5714
ဟူသောစကား	-12.5723
မများ	-12.5733
ဆိုးသ	-12.5736
လိုသောသူ	-12.5742
အငြိုးထား	-12.5752
နှာသ	-12.576
မြေအသီးအနှံ	-12.5762
တရားဖြ	-12.5769
းမြား	-12.5769
အမြဲပြု	-12.5776
အကျိုးကိုခံရ	-12.5781
ယဟောရှ	-12.5794
ဒသမလ	-12.5806
းသပ	-12.5814
ုံးရ	-12.5816
သူပြော	-12.5824
လွဲစေ	-12.5825
ကြွလာသောသူ	-12.5832
ပုသ	-12.584
မာလခိ	-12.5851
တလုံးကို	-12.5853
အာဝ	-12.5868
အဟိကံ	-12.587
ကိုဆုတ	-12.5872
အစားအသ	-12.5878
မြီးက	-12.5879
ဗေသနိရွာ	-12.5879
မာဂဒလမာရိ	-12.5879
ဒေဗိရ	-12.5879
ဒေဗောရ	-12.5879
ယေဒုသု	-12.5879
ရိဗလ	-12.5879
ဗေသွေလ	-12.5879
အသီးမသီး	-12.5879
ယုပွေ	-12.5879
းမြားပေးစား	-12.5879
အာဗြံဟံ	-12.5879
ကာရာသား	-12.5879
ခံယူသော	-12.5879
တံထွေး	-12.5879
ညှုး	-12.5879
ဗိလဟာ	-12.5879
အထူးထူးအပြားပြား	-12.588
အာရှကေ	-12.588
စုတေ	-12.588
တဝါလေးပါး	-12.588
ရှေလမိ	-12.588
ချိုးကလေး	-12.5881
နာမရှိ	-12.5881
ဂတေ	-12.5881
အထီးအမ	-12.5881
ခွဲဝေ	-12.5881
နှာပြ	-12.5881
ကုရ	-12.5882
အကျိုးအလိုငှါ	-12.5882
ဇေဘဟ	-12.5883
အညီအမျှ	-12.5884
ချေးငှါး	-12.5884
ကြီးပွါး	-12.5884
မွှေးသော	-12.5885
ထိုငွေကို	-12.5885
ရိုသေစွာပြု	-12.5885
ရှေလောမိ	-12.5886
ရေဘူးကို	-12.5887
ရှိသလောဟု	-12.5887
တဆေးမပါသော	-12.5889
အကျိုးမဲ	-12.589
းခံလျ	-12.5892
ဘဲနေသော	-12.5897
နွားစု	-12.5899
မိဖုရားဧသတာ	-12.5901
ရေချိုးရ	-12.5902
ပြုဘိ	-12.5904
အကြီးဆုံးသော	-12.5908
သောစကားသ	-12.5911
အုံ	-12.5912
ပြေးသွားကြ	-12.5912
ကိုငြ	-12.5914
စာရဲ	-12.5923
ရေဇိ	-12.5928
ခိုလှုံပါ	-12.5933
ဆီးမှီ	-12.5934
းငှါအလိုရှိ	-12.5936
မထမ	-12.5936
ကိုးစားကြ	-12.5937
အာဖ	-12.5944
မိခ	-12.5948
ဟိ	-12.5948
ခုကို	-12.5952
ဇာအတ	-12.5961
အအူကို	-12.5962
တနာရီ	-12.5963
ဝကြ	-12.5973
ခံနေရာ	-12.598
ကြားသိကြ	-12.5983
တတိယအ	-12.5988
ရှေးကာလမှ	-12.599
ဩကြ	-12.5992
ယောသံသ	-12.6001
နှံသော	-12.6004
မပေးဘဲနေ	-12.6004
ထိုဘုရားကို	-12.6005
နူက	-12.6006
ပညာစကား	-12.6007
းသားသ	-12.6008
ကျူးသော	-12.6018
ကျူ	-12.6022
းဝေဒနာ	-12.6024
ငါမပြော	-12.6031
ျိုင	-12.6039
အဖျား	-12.6043
စီးသောရေ	-12.6054
ရွေးရ	-12.6056
ရွ	-12.6056
ဖာလ	-12.6057
ဆုံးမသွ	-12.6058
ခာအ	-12.6058
ဟေရ	-12.6059
းရံလ	-12.6063
တုများ	-12.607
းလဲစေ	-12.6078
မဖုံး	-12.6079
ထိုသတ	-12.6084
မောဘအမျိုးသား	-12.6085
းသွားလေ	-12.6091
လေပြ	-12.6092
ကာလမ	-12.6099
ပါသမျှသော	-12.6105
ပြုမိပါပြီ	-12.6107
သားခုန	-12.6113
ျာနား	-12.6121
ယောယဒသ	-12.6129
စကားကိုနားမ	-12.6131
ာပြီးမှ	-12.6131
တဆေးကို	-12.6136
ခြေရာ	-12.614
ပါပြီတကား	-12.6145
ဗေနာယသ	-12.6145
ကြုံသော	-12.6146
တရားသောအမှုကို	-12.6148
းဥပဒေသ	-12.6149
လောဘလ	-12.6151
သားမြ	-12.6155
းကြိုးကို	-12.6157
စာပေး	-12.616
ပြုစုကြ	-12.6172
အနံနှ	-12.6175
သိလို	-12.6179
မှားလျ	-12.6179
အသေခံရသော	-12.6184
းသောမြေ	-12.6188
ရှုပ	-12.6188
ပါသွား	-12.6196
ရွေလ	-12.6197
သားဘွားသော	-12.621
ပြောပြီးမှ	-12.6218
ကြီးစွာ	-12.6227
မပြောန	-12.6234
ဩဝါဒကို	-12.6236
မသွားပါ	-12.6236
လှပြီ	-12.6274
လောနိ	-12.6274
မပြုရဟု	-12.628
မပြောဘဲနေ	-12.628
သိုးများ	-12.6285
ပျံတ	-12.6294
ဖုံးသော	-12.6308
မူသောအမှုကို	-12.6327
စီးသွား	-12.6328
ခိုးယူ	-12.6332
မြဲသော	-12.6335
အဘိ	-12.6336
စွဲသောသူ	-12.6346
းငှါလာ	-12.6348
ဆုံးသောဘုရား	-12.6365
ေမွေလ	-12.6366
ငါယူ	-12.6367
မြုံသော	-12.6375
ခြံ	-12.6388
ိသား	-12.6401
ရှိနေသော	-12.6414
စီးရ	-12.6427
စကားတည	-12.6435
ရာဘက	-12.6441
ပဌနာကို	-12.6442
လာပါသ	-12.6442
းရပါ	-12.6455
ပြလေ	-12.6455
သလောဟုမေး	-12.6468
ထိုအကျ	-12.6478
မယားစာရာ	-12.6489
ခိတ	-12.6491
ခြေချ	-12.6499
ဘဲမနေန	-12.6509
မှားရာ	-12.651
သားရှိသမျှ	-12.6519
ဒိမ	-12.652
မူသောစကား	-12.6543
တိရ	-12.6545
ိလူ	-12.6558
တူးသော	-12.6565
မှီဝဲလ	-12.6571
မူသောအမှု	-12.6577
နှံတို	-12.6578
ရေလအမျိုးသား	-12.6582
စောသော	-12.6596
ထိသော	-12.6598
စေကြပြီ	-12.6607
ဟေဇ	-12.6614
သွားရပါ	-12.6624
ထာဝရဘုရားပြု	-12.6627
ရောနှောသော	-12.6632
းမံသော	-12.6637
ယုဒအမျိုးသ	-12.664
သီးသော	-12.6644
ရွှေဖြ	-12.6648
သောမီး	-12.6663
ဗိလ	-12.6679
သူကြီးသ	-12.669
ကာလကြာ	-12.6697
ဂေဒလိ	-12.67
ရထားတ	-12.6705
ပေတရုကို	-12.6711
စုထဲ	-12.6719
ဦးထ	-12.6722
ဥပဒေသများ	-12.6729
ခံလော	-12.6738
မသုံး	-12.6741
အိုးမြေ	-12.675
အလံ	-12.6753
ဒေလ	-12.6756
မေလ	-12.6759
နာစေ	-12.6761
ညူးစေကြ	-12.6769
နေလိ	-12.677
လာကြပါ	-12.6781
မောဘအမျိုး	-12.6781
အအူ	-12.6789
အပျိုမ	-12.679
မထူး	-12.6791
သောငွေကို	-12.6799
မှလွ	-12.68
းအရှ	-12.6815
စီးပွါး	-12.6817
ပြာကို	-12.6822
အာဗြဟံက	-12.683
အလိုရှိသော	-12.6831
မှားမိ	-12.6832
းမရှိပါ	-12.6835
အာရှုရိလူ	-12.6836
စီးမှီ	-12.6836
အရာမျှ	-12.6837
ကုလား	-12.6842
အခြားတပါး	-12.6844
တေလ	-12.686
သူကိုမျှမ	-12.6873
လေပြီးသော	-12.6874
ပေဂုရ	-12.6878
ဇေဗေဒဲ	-12.6879
ဓေစွဲယူ	-12.6879
ပါဒနာရံ	-12.6879
မသုရှလ	-12.6879
အဗေဒနေဂေါ	-12.6879
အစိုးတရပြု	-12.6879
အဲသယောပိ	-12.6879
ဒေလိလ	-12.6879
အာဖာဇ	-12.6879
ကာဒေရှဗာနာ	-12.6879
ဇေဖနိ	-12.6879
ကြေးနီ	-12.6879
မံရေ	-12.6879
ယေရောဟံ	-12.6879
မပေးဘဲမနေ	-12.6879
တာအဖုံး	-12.688
မုသားစကားကို	-12.688
မီးမွေး	-12.6881
ရတနာ	-12.6881
သတိပညာ	-12.6881
ဘူးသီး	-12.6881
ဗာနာ	-12.6883
မြဲမြံစွာ	-12.6883
ဇလောဖ	-12.6883
ဝေမျှ	-12.6886
ချီလွှဲရာ	-12.6887
းကလေးကို	-12.6887
မုရှိ	-12.6887
ဆူဝ	-12.6889
လဲရှ	-12.689
းမလျှာ	-12.6892
းသလောဟု	-12.6895
အစုစု	-12.6901
အမျိုးမ	-12.6901
ဟောရိ	-12.6902
အမဲ	-12.6902
တံစိုးကို	-12.6909
တခဏ	-12.691
ဆူဖြိုးသော	-12.6911
ရာဇလှံတံ	-12.6914
အစိုးမရ	-12.6916
းပြောဆိုကြ	-12.6916
ဝေးပါစေသော	-12.6925
မျှမကြွ	-12.6931
သေပါပြီ	-12.6932
းကြိုးနှ	-12.6934
အတူသွား	-12.6936
တာကရုဏာ	-12.6936
ကြေ	-12.6937
းရိသောသူသ	-12.694
ဖါ	-12.694
ခစားသော	-12.6949
တပိဿာ	-12.6952
သူရဲတသ	-12.6955
ပမာဏပြု	-12.6955
သောအစာကို	-12.6959
ဟုဒ	-12.6966
မိမိမယားနှ	-12.6966
မယူကြ	-12.6974
ထိုနွား	-12.6977
ထိုရွှေ	-12.6977
းဥပဒေသကို	-12.6978
တိုးပွားများပြား	-12.6987
ရထားကို	-12.6995
အသရေထ	-12.6998
ငါသွားရာ	-12.7003
ရှိမာ	-12.7004
မသိပါဟု	-12.7007
မြေအသီးအနှံကို	-12.7024
ဗာရှာသ	-12.7028
လာဇရုကို	-12.703
မာသောသူ	-12.7034
မထိ	-12.7039
ဆုကျေးဇူးကို	-12.7042
လွဲသွား	-12.7049
ဟာဇေလသ	-12.705
းထားကြ	-12.7051
သုံးစု	-12.7058
စားပါ	-12.7058
ကိစ	-12.7071
ဆိုးစွဲသောသူ	-12.7072
ထိုစာကို	-12.7072
ယေဟုက	-12.7072
ဇေရုယာသား	-12.7074
သွားကြပါ	-12.7078
လဲနေ	-12.708
ပြောပြီ	-12.7082
လူမရှိ	-12.7082
ငါမသိဟု	-12.7084
အာခဇိသ	-12.7095
မာသတိရှိ	-12.7095
းလွှားကို	-12.7098
မရိုသေ	-12.71
အဆွေအမျိုးအသီး	-12.71
အဘိယသ	-12.7104
ရပြီဟု	-12.7111
ကိုသိလျ	-12.7122
မဆီးတား	-12.7122
ရှားလေ	-12.7123
မုသာနှ	-12.7123
မှီရာ	-12.7127
သူခံရသော	-12.7129
ဘုရားများကို	-12.7137
ခဝေဒနာ	-12.7139
ငါမှာထားသ	-12.7148
အာခေါ	-12.7157
အစိုးရသောမ	-12.7158
မသိပါ	-12.7162
ရာခေလကို	-12.7169
ခုစီရှိ	-12.7171
မာနကြီးသော	-12.7171
ဆုံးရ	-12.7186
ငါကြံစ	-12.7189
ညှိတ	-12.7195
မခံဘဲနေ	-12.7196
ပဌမလတ	-12.7197
ငိုကြွေးသံ	-12.7212
ပြုစရာ	-12.7213
တရော	-12.7213
ခြေများ	-12.7213
ဧသန	-12.7221
စမလ	-12.7224
အများရှိကြ	-12.7238
ရိုးနှ	-12.7244
ယောဗ	-12.7256
ဆဲသော	-12.7261
အိုးများ	-12.7275
ဇာခရိသ	-12.7276
းသောအပ	-12.7304
ပေးဝေ	-12.7308
ရှေးက	-12.731
ဘာလ	-12.7323
းဘေးကို	-12.7324
ရသောအမှု	-12.7324
လဟာ	-12.7325
မအိ	-12.7326
အဦးပြု	-12.7331
ဆုလ	-12.7332
အမှုကြ	-12.7339
ပဋ	-12.7342
ငါအကြံရှိ	-12.7346
ဥပမာစကား	-12.7353
မကျော	-12.7354
ကျေးဇူးရှိသ	-12.7358
ငါရှာ	-12.7363
လေဝိအမျိုးသား	-12.7376
အမှုရှိ	-12.7386
းဖူးသော	-12.7392
ဆုံးသောသူ	-12.7396
လုသော	-12.7399
းစီးသူရဲများ	-12.7409
သားအတွ	-12.7429
ထိုတံခါး	-12.743
ဦးစွာမှ	-12.743
စပါးနှ	-12.743
ရိုသေကြ	-12.7446
ဥပမာကို	-12.7448
ေးသန	-12.7471
မာခ	-12.7485
အဘိတ	-12.7486
ဘိသ	-12.7489
ဧရှ	-12.7495
၊	-12.7501
းမကလ	-12.7515
မခိုး	-12.7519
ခံယူကြ	-12.7523
လေဝိသားများ	-12.7531
လူကဲ	-12.7534
သာဆို	-12.754
ထိုချိုင	-12.7548
ထိုအမျိုးသား	-12.755
အားဘော	-12.7568
ဘိုးဘအဆွေအမျိုး	-12.7579
စုထဲမှာ	-12.76
နီးသ	-12.7605
ဗုန	-12.7611
ပေးသောသူ	-12.7629
ဆွဲလျ	-12.7631
လှူကြ	-12.7639
ပွဲကိုခံ	-12.7649
ကြီးသောအခါ	-12.7654
အာဇလ	-12.7675
သိလူ	-12.7679
စကားများကို	-12.7685
မဖြေ	-12.7695
ီးတတ	-12.7712
တရားစကားကိုကြား	-12.7712
ယေဗုသိ	-12.7714
းသောစကား	-12.7722
ဣသခါအမျိုး	-12.7724
မာနကြီး	-12.7728
မိမိသမီး	-12.775
ကွဲပြားကြ	-12.7755
ညူးစေသော	-12.7774
ရှာလျ	-12.7777
ဆဲသောသူ	-12.7778
စူး	-12.778
၏	-12.7781
းသောဥ	-12.7789
အနာရောဂါစွဲ	-12.7798
ာဗော	-12.7798
စားပြီ	-12.7799
ယခုနေ	-12.7816
ကိုဆွဲ	-12.7829
မစားန	-12.7831
ဆီးသောသူ	-12.7836
နူနာစွဲ	-12.7851
လုသ	-12.7857
ဆဲပါ	-12.7862
ခံသူ	-12.7866
ကိုရှာသော	-12.787
းမမူကား	-12.7871
ွဲ	-12.7873
စုရုံး	-12.7877
ဇာဗဒ	-12.7879
ဝေးဝေး	-12.7883
ထာ	-12.7885
ယုံလ	-12.79
တိမနတ	-12.7907
သိုထားသော	-12.7908
မရှိသလော	-12.791
ဓာကို	-12.7931
ရှောလုထံ	-12.7936
အကာရှ	-12.7937
စကားကိုသာ	-12.7945
တံခါးထ	-12.7947
စီးပြီ	-12.795
ောနိ	-12.7951
ဆူဖြိုး	-12.7954
မထားရ	-12.7957
သတိမရှိသော	-12.7966
ခံပြီ	-12.7966
မဆုံး	-12.7969
တခြား	-12.7973
ကြားသိလျ	-12.7976
အစုအဝေး	-12.7981
ချပြီ	-12.7982
ရှေဖတိ	-12.7987
မသိစေ	-12.7989
ငါးစုတစုကို	-12.799
ဇေဗဒိ	-12.799
ဒေသစာရီ	-12.799
သကေနေပွဲ	-12.799
ယုရှ	-12.799
ဣမေရ	-12.799
နှဲခရာ	-12.799
တမြား	-12.799
နာသနိသား	-12.799
မရေရှ	-12.799
ပိုးရွ	-12.799
တုဗလ	-12.799
ယာခိန	-12.799
ခြံရံ	-12.799
နာဇရိလူ	-12.799
ကယာဖ	-12.799
တခုခုကို	-12.799
းမမိဿံ	-12.799
ပြုမိသမျှသော	-12.7991
မာကု	-12.7991
ပြုမူသောအမှုအရာ	-12.7991
ယောဇဒ	-12.7991
အစွဲပြု	-12.7991
နွှဲ	-12.7992
ပဌာနပြု	-12.7992
ဟေသအမျိုးသား	-12.7993
ယေရှိမု	-12.7993
ခြေသေသောသူ	-12.7994
ဩဝါဒပေး	-12.7997
စိရှိ	-12.7997
အသီးအခြား	-12.7997
ထိုချို	-12.7997
မလာမှီ	-12.7998
အလျားအနံ	-12.7999
ဝစွာကျွေး	-12.7999
ကွာစေ	-12.8
လုနီးပြီ	-12.8001
ငြာစေ	-12.8003
တံခါးမှူး	-12.8005
ယေသာ	-12.8008
မခံရဘဲ	-12.801
အမှီမပြု	-12.8013
ဇောရာ	-12.8013
ရေထဲ	-12.8017
လူအသီးသီး	-12.802
ေဇန	-12.802
ဿု	-12.8021
းရဲခံရသော	-12.8023
ရှာလသေလသား	-12.8036
ဆိုရသော	-12.8043
းသာမရ	-12.8043
ဟုရှဲ	-12.8044
အသိအ	-12.8048
ကာမျှ	-12.8053
ယခုအခါ	-12.8055
တိုးပွါးစေ	-12.8057
မိစေ	-12.8057
ငါရှိရာ	-12.8061
အခါယ	-12.8063
တပိသာ	-12.8074
တခါမျှမ	-12.8075
တပါးပါး	-12.8079
ဗဒ	-12.808
အလိုမရှိကြ	-12.8084
အာပေါလု	-12.8084
းရူး	-12.8089
လူရို	-12.8089
မီးကျ	-12.809
ဝပြောသော	-12.8095
နှာကိုဖုံး	-12.8098
ဧလိဟု	-12.8099
ချေဟု	-12.8105
မတူ	-12.811
ဗေသောရု	-12.8114
ခြွ	-12.8119
ဒသမ	-12.8124
းမြားဆ	-12.8127
တတိယသား	-12.8128
အဆီးအတားမရှိ	-12.8132
ဆိုပြီ	-12.8133
ဘူးဟု	-12.8136
မှာရှိကြသ	-12.8141
ါးကျပ	-12.8151
မိမိသားကို	-12.8157
းထွာ	-12.8162
ဒေါန	-12.8163
ဗောဇသ	-12.8169
ဟေရှာယက	-12.8173
သဘောကော	-12.8173
သူရှိရာ	-12.8192
ပြေးစေ	-12.8194
ကုပရု	-12.8196
လာပါဟု	-12.8201
ငါနားမ	-12.821
လွဲ	-12.821
ဟိလခိသား	-12.8212
ကြားနာ	-12.8213
ဂလာရှိပါစေသော	-12.8218
အာဗနာကို	-12.8218
ဝါးတို	-12.8218
လူအို	-12.8221
တမရ	-12.8221
ဥရိယသ	-12.8225
ခြားနားစေ	-12.8226
သိုးမွေးကို	-12.8227
မြဲမြံခ	-12.8228
ရွာမှာ	-12.8231
လှံတို	-12.8236
အာနက	-12.8238
ပြုဘူးသ	-12.824
စပါးန	-12.8244
ဖါရ	-12.8245
အဖြူ	-12.8252
မိမိနေရာအ	-12.8257
အသေမခံရ	-12.8266
ဟိရ	-12.8269
ငံရှိသမျှ	-12.8281
ွေလ	-12.8282
စာဂတိထား	-12.8283
အဗရှလုံက	-12.8286
အသီးအနှံများ	-12.8286
သောနှမ	-12.8288
ရာအချိ	-12.8294
လိဗနိ	-12.831
လျှာနှ	-12.8324
မပေးန	-12.8328
ကျူတ	-12.833
ဟုလာသ	-12.8341
ပွါးများ	-12.8358
းသွားကြပြီ	-12.8366
ရှားသောသူ	-12.837
ပွေ	-12.8374
အာဗ	-12.8374
ယူသွားရ	-12.8377
စားအပ	-12.8378
လူလွ	-12.8385
ြ	-12.839
သောအနာ	-12.8402
လှူရ	-12.8414
ဆိုဘ	-12.8414
ခံလို	-12.843
းရာဌာနထဲ	-12.8438
အမွေမခံ	-12.8446
ဣသရေလအမျိုးအပေါ	-12.8454
ဧလိက	-12.8477
ကြွေးကို	-12.8483
းသာစွာ	-12.849
ကြေးဝါဖြ	-12.8497
သားပေ	-12.85
ဘဲမနေရ	-12.8503
ခိုလှုံလ	-12.8503
သုံးပါးမ	-12.8504
မကျွေး	-12.8516
ထောမနာပြု	-12.8523
မရှိပါဟု	-12.8524
မြှားကို	-12.8533
းကြပါစေသော	-12.8534
သိုးများကို	-12.8538
မေရော	-12.8539
ကြားပါစေ	-12.8539
ကိုဖြေ	-12.8543
ရေးထားသမျှ	-12.855
မပြဘဲ	-12.8553
နေသေး	-12.8557
ဘေးပြု	-12.8557
ဝါကြွားကြ	-12.8558
တာရှိ	-12.8582
ခရီးသွားသော	-12.859
ငြာ	-12.8598
းမကျ	-12.8612
ပြောပြီဟု	-12.8617
ရှာကြပါ	-12.8624
မှီဝဲသောသူ	-12.8626
ပြုပါပြီ	-12.8633
ရှာပါ	-12.8633
းရှိပါစေသော	-12.8664
လူအမျိုး	-12.867
ကိုငါမ	-12.8673
မပြုရကြ	-12.8677
ကာမိ	-12.8692
ဂါလိလဲလူ	-12.8693
ပုရ	-12.8698
မနာရှေခ	-12.8698
မိမိခြေ	-12.8699
ဧလာဇာသ	-12.8703
းအတာ	-12.8704
တမျိုးတ	-12.8715
းဘီ	-12.8725
စကားမပြော	-12.8726
ျားဖြ	-12.8726
ဗနိ	-12.873
လှသောအ	-12.8731
တူးကြ	-12.8734
းယူရ	-12.8763
ရှိစေရ	-12.8775
စုတစု	-12.8781
းပြသော	-12.8783
သတိပေးသော	-12.8798
ဒါလ	-12.8799
မညီ	-12.8802
ရိုးရှိသမျှ	-12.8816
းနှီးတ	-12.8818
မကိုးစား	-12.8837
းကိုခံလျ	-12.884
မာဝ	-12.8855
စားလေ	-12.8856
တခုမျှ	-12.8864
ရှားသောအရာ	-12.8882
မဆီးတားန	-12.8892
ပုံစကား	-12.8896
းနှီးသ	-12.8908
မြေကြီးမ	-12.8916
းသာရပါ	-12.8919
နိအမျိုး	-12.8925
သားဣဇာ	-12.894
းမရှိစေ	-12.8945
အားပေးသော	-12.896
ဇေရုယာ	-12.8989
ဌမလ	-12.8996
ရေမရှိ	-12.8996
လေးခု	-12.8998
တုမြ	-12.9
ဥပဒေသ	-12.9
ကရုဏာကျေးဇူး	-12.9025
သွာ	-12.9037
ထောမနာ	-12.9042
ပြုသမျှအတ	-12.9051
ဟောပြောလေ	-12.9071
လူတစုံတ	-12.9085
ဂေရရှုံသား	-12.9114
ဆံကြ	-12.9115
အားဆိုသ	-12.912
ပြုလေပြီ	-12.9132
အခြားသောဘုရား	-12.9132
မာနကြီးသောသူ	-12.9133
မှီဝဲသော	-12.916
အနာစွဲသော	-12.9169
းပါးသ	-12.9171
မြေကြီးမှ	-12.9192
တထွာ	-12.9195
ခြားသော	-12.9204
လုဇ	-12.9224
ိပွ	-12.9233
စုံပါ	-12.9234
ရသောအမှုကို	-12.9235
ဩဖိရ	-12.9237
မဆွက	-12.9238
လှူဒါန	-12.924
စာပရိကံ	-12.924
မခြားမ	-12.924
ဂိလဗော	-12.924
သဲသဲ	-12.924
ကိလိကိ	-12.924
ပြဿနာ	-12.924
ဗေဇလေလ	-12.924
လဝိရိယ	-12.924
ခေမုရှ	-12.924
တာပွါ	-12.924
ရှေရဘိ	-12.924
များမကြာ	-12.924
ယေရမေလ	-12.924
နုံသား	-12.924
ဧရှတောလ	-12.924
ဗောရသား	-12.924
နေဟမိ	-12.924
သုံးလောဃ	-12.924
ဆာအမေး	-12.924
ယားနာ	-12.924
ယေရှာယ	-12.924
နံဖေး	-12.924
ဗေရခိ	-12.924
သူအားမျှမပြော	-12.924
ငါခံရပြီ	-12.924
ငါမဖ	-12.924
အားဗလ	-12.924
မိဿ	-12.924
အဒါယ	-12.9241
နှလုံးကြေကွဲ	-12.9241
အာဇရေလ	-12.9241
မိရှေလ	-12.9241
ေဗာမြ	-12.9241
နေရိသား	-12.9241
ရှဟံ	-12.9241
လေသမျှ	-12.9241
ဂါဗာ	-12.9242
အာနကအမျိုးသား	-12.9243
ပုဆိုး	-12.9246
စုပုံ	-12.9246
▁၍။	-12.9246
ဇိနတော	-12.9246
ချီလျ	-12.9246
မဿနိ	-12.9246
ဩဖရ	-12.9247
ယေသရော	-12.9247
ထားဝရဘုရား	-12.9249
အဆတရာ	-12.9249
ဤစကားအလုံးစုံ	-12.925
လူဇာတိ	-12.925
ဧဇာ	-12.925
းကြိုးသံ	-12.9251
းရူးပ	-12.9254
ရွဲ	-12.9256
တဧဖါ	-12.9257
ဘူးကြ	-12.9259
ဖြေစရာ	-12.9261
မုယောစပါး	-12.9262
ဗောဇရ	-12.9267
းမကလေး	-12.9267
သေစားသေစေသောသူ	-12.9267
ထိုအမှုအလုံးစုံ	-12.9269
လေးသမား	-12.9269
ထိုအမူအရာ	-12.927
နားရှိသောသူ	-12.9272
ဤအမှုများကို	-12.9273
ကြားလေ	-12.9273
ရိုးအမြ	-12.9273
တူအ	-12.9276
မတရားစွာ	-12.9279
များပြားစွာ	-12.9281
ရွာရှိသမျှ	-12.9283
အာဗြံအား	-12.9286
ဟောလျ	-12.9286
နိုးသောအခါ	-12.9288
လူသုံးရာ	-12.929
းသီးကို	-12.9292
ငါကြားရပြီ	-12.9292
းထဲမှ	-12.9298
အတိုးစား	-12.9302
ကာများ	-12.9309
မိမိသားသမီး	-12.9313
ငံထဲ	-12.9322
အကြံကိုကြံ	-12.9327
သတိထား	-12.9327
အလွဲ	-12.9334
ငွေတပိဿာ	-12.9334
ကရုဏာမရှိ	-12.9338
မနှမြော	-12.9345
ခိုးများကို	-12.9346
နံပါး	-12.9346
မဟောမပြော	-12.935
ယူပြီးမှ	-12.9355
စာဂတိထားသ	-12.9356
စီးပွါးကို	-12.9357
ဆွဲယူ	-12.9359
မိမိရထား	-12.9365
သဘောကျ	-12.9366
ရိုသေဘ	-12.9369
ဘိ	-12.9371
စွာနေစေ	-12.9375
ငါခိုလှုံရာ	-12.9379
ပဌနာပြုလျ	-12.9382
ဆိုပါသ	-12.9382
ယဟောရှသ	-12.9385
ဗောဇက	-12.9387
ကြားပြောပါ	-12.9388
အာရှု	-12.9393
မဆိုရ	-12.9398
သိုးထီးနှ	-12.9399
ဒိယ	-12.9403
နာသောသူ	-12.9409
အနာစွဲ	-12.941
ပြောဆိုရ	-12.9414
နံစော	-12.9416
သေးသလော	-12.9417
းဘေးဖြ	-12.9422
ကွဲစေ	-12.9423
းတုများကို	-12.9427
အမှုအမျိုးမျိုး	-12.9427
နဂါးကို	-12.9429
သုံးရာနှ	-12.943
သေရကြ	-12.943
ဖြေသော	-12.9432
ဇောဘမ	-12.9432
ဆိုရကြ	-12.9434
သတိပြုလျ	-12.9437
မုသာဖြ	-12.9437
ဝါသ	-12.9438
အစု	-12.9446
အာဗနာက	-12.9452
တရုတ	-12.9455
ဂေဒလိကို	-12.9457
အဟိန	-12.9463
းကိုခံစေ	-12.9466
ဟဒ	-12.9468
ပါဟုဆိုသော	-12.9473
မယူဘဲ	-12.9473
ဧလာသ	-12.9477
မစသောသူ	-12.9479
နားမကြား	-12.948
းမောတွေဝေကြ	-12.9482
စေသောဟု	-12.9486
းတံပိုးတို	-12.9486
ခွဲထားသော	-12.9505
မသေစေ	-12.9509
မီးခုံတ	-12.951
နှမြောသော	-12.9513
သေရသော	-12.952
မလို	-12.9521
းမွှေး	-12.9523
မသေရ	-12.9536
ငါကြားပြီ	-12.9544
ကုရှိ	-12.9547
းကိုကြားလျှ	-12.9547
လူစုထဲ	-12.9548
တံစကား	-12.9553
အနံငါး	-12.9572
ပါသမျှ	-12.9579
ကာဣနသ	-12.9582
ထိုမြေသ	-12.9585
စွာနေသော	-12.9586
ာရှုန	-12.9587
ယေဇဗေလသ	-12.9592
ရာထဲက	-12.9592
သမီးများကို	-12.96
လေးမြ	-12.9609
ထိုမြေကို	-12.9629
မွေးစား	-12.9631
ဍာရှိသမျှ	-12.9631
ဆီးရာ	-12.9646
မနေစေ	-12.9647
အိုးတလုံး	-12.9651
ယေရ	-12.9663
ဟေဇကိက	-12.9684
းဝေးသောသူ	-12.9685
လောတကို	-12.9687
အာသသ	-12.9695
နူနာစွဲသောသူ	-12.9705
သေပြီ	-12.9707
မှူးများ	-12.972
မြေထဲက	-12.9721
ငါဆိုရ	-12.9722
တနိ	-12.974
အရာကိုရ	-12.974
အဖူး	-12.9742
အဖုံး	-12.9753
မခံစေ	-12.977
ဩန	-12.9774
ပြီးကြ	-12.9775
စရာရှိသော	-12.9776
အကြံရှိလျ	-12.9788
မှီလျ	-12.9788
သိရပါ	-12.9789
ငါပြုရ	-12.9795
ဥရိယကို	-12.9801
အားဆိုသော	-12.9819
စုံသောသူ	-12.9825
အဘရှေ	-12.9828
မိမိတပ	-12.9838
နောဗ	-12.9838
ဆေးရ	-12.9839
အဆုံးသ	-12.984
းအမှုမှာ	-12.9843
ကျားသ	-12.9851
စားမိ	-12.9861
ဟေသ	-12.9865
ဂါဒ	-12.9873
ဟိရံမ	-12.9887
မူပါပြီ	-12.989
လုပြီ	-12.9894
ယေရှုအား	-12.9906
ဘဲနေရ	-12.9909
ရှောဗ	-12.9914
အရာကိုခံရ	-12.9926
နွားအသွေး	-12.9928
မူသောအရာ	-12.9937
ယူရကြ	-12.9942
သုံးဩမဲ	-12.995
ထိုဖလား	-12.9958
စွာကျ	-12.9958
ချောဖြ	-12.9969
းသောအသီးကို	-12.9974
အယူကို	-12.999
တုရုမ	-12.9996
ကူးသော	-13.0001
မြေမျ	-13.0004
သားစု	-13.0016
ရှုအာ	-13.0016
နှံသောသူ	-13.0023
ယူဆ	-13.0026
တဲတ	-13.0029
ရာဂေါ	-13.0034
စွာခံရ	-13.0038
မဟာလ	-13.0047
ဦးစွာသော	-13.0051
လူးလ	-13.0091
လူအကြီးအ	-13.0097
ကြုံရ	-13.0103
းထိုး	-13.0113
လေသမျှသော	-13.0115
မျှမရှိသ	-13.0124
ပေတရုအား	-13.0145
အာရဒ	-13.0146
သောအရာများကို	-13.0161
မချော	-13.0184
မောရှေထံ	-13.0201
မျှမကျ	-13.0227
စကားပုံ	-13.0228
အတာကို	-13.0232
ငါမပေး	-13.0242
ယုဒဘာသာ	-13.0245
ငါပြောပြီ	-13.0248
မွေးသောသူ	-13.0268
အသရေတ	-13.0274
သမီးများ	-13.0278
ဇောန	-13.0279
ဟာဇာ	-13.028
တလုံးစီ	-13.0286
မာသတိ	-13.0287
ဣဒ	-13.0298
စိုးသောသူ	-13.0309
းကြီးများ	-13.0327
ြားသော	-13.0328
တံခါးမှ	-13.0333
ာလ	-13.0346
ခြေတ	-13.0358
ထားပြီဟု	-13.0365
ပွဲထဲ	-13.0386
ရှေဗန	-13.0391
အားကြားပြော	-13.0404
ကြားရကြပြီ	-13.0415
အလျားတ	-13.0427
ရေဘူး	-13.0432
နီလာ	-13.0438
မီ	-13.0438
လေဝိအဆွေအမျိုး	-13.0439
ထူးခြား	-13.0439
ဤဗ	-13.045
တရာရှိ	-13.0456
ယူသွားပြီး	-13.0472
ဆိုးစွဲသော	-13.0473
ငါပြုသောအမှု	-13.0476
ကျေးဇူးမပြု	-13.0479
နေရာကျသော	-13.05
ရေထွ	-13.0525
ဇိမရိ	-13.0564
ဆုံးသောနေ	-13.0569
ခရီးသွားလ	-13.0573
ကြံသောသူ	-13.06
လေးလ	-13.0602
ဗာဗု	-13.062
နျ	-13.0629
မျေလ	-13.0642
ဂတိရှိသ	-13.0652
ဗေသော	-13.0659
အာဒါ	-13.0668
ဂိရဂါရှိ	-13.0668
ဆွေးနွှေး	-13.0668
ဇေဗုလ	-13.0668
မာဂုပညာရှိ	-13.0668
မေသောပေါတာမိ	-13.0668
အဟောလိဗာမ	-13.0668
အာကုလ	-13.0668
အာလဂုံ	-13.0668
ဒျေလ	-13.0668
ဗိနွိ	-13.0668
ဗေလရှာဇာ	-13.0668
မလုမယူ	-13.0668
ယေဟောဝါ	-13.0668
ပုံပမာ	-13.0668
အဇေကာ	-13.0668
ဟေရောဒိ	-13.0668
ဩရဘ	-13.0669
နှာဖုံးကို	-13.0669
ယေယေလ	-13.0669
ဇေရဟိ	-13.0669
မဟာလေလ	-13.0669
ဧဒြိ	-13.0669
မိလခါ	-13.0669
ရှေဘမိဖုရား	-13.0669
ဧလျေလ	-13.0669
ကြံပိုး	-13.067
ရထားစီး	-13.067
ဇိလပ	-13.067
တဩမဲကို	-13.067
နဝမလ	-13.067
ရိုသေစွာ	-13.067
ခါနီး	-13.067
စပါးကျီ	-13.0671
အရှုံးခံရ	-13.0671
ဒွါဒသမလ	-13.0672
အမှုအရေး	-13.0672
းဆွဲမ	-13.0672
ခါးစွာသော	-13.0672
ကြေကွဲ	-13.0672
းတွားသံကို	-13.0673
အရိုးများ	-13.0673
မသနားရ	-13.0674
ဇာဆရာ	-13.0675
အနံလေး	-13.0677
နဂါးသွ	-13.0683
ပျံသွား	-13.0686
ထိုပွဲကို	-13.0689
ဝါကြွားစရာ	-13.0691
အာဗြဟံအမျိုး	-13.0694
ယေရှဲသား	-13.0697
ကျူးစွာ	-13.07
ဗေဇ	-13.0701
ကျားသော	-13.0703
စွာသွားလော	-13.0703
မိမိလူစု	-13.0704
မောလု	-13.0713
သံတူ	-13.0715
ရထားဘီး	-13.0719
ဗာလာ	-13.0722
ခေရသိလူ	-13.0722
ဲဒ	-13.0726
ဝစွာစားရကြ	-13.073
အလံနှ	-13.0738
ပေရဇ	-13.0739
မီးခိုးထ	-13.0741
ကျီးအ	-13.0742
ရိုသေရ	-13.0745
မိမိသွားရာ	-13.0746
မိမိအဆွေ	-13.075
ဖြားစေ	-13.0753
လောတန	-13.0754
ရာဇသရဖူ	-13.0755
စီးပွားကို	-13.0757
ဂလာတိ	-13.0757
ဦးစွာက	-13.0757
ဟေဗြဲအမျိုး	-13.0761
ဘာမျှမ	-13.0767
ကိုးစားရာ	-13.0767
ဂလ	-13.0769
ဟောရှ	-13.077
လကျော	-13.0775
ဇိမရိသ	-13.0775
ကေဖ	-13.078
နာဘေး	-13.0781
ထူသော	-13.0784
လိုပါဟု	-13.0784
ချီလာကြ	-13.0787
စာထဲက	-13.0787
မြွေဖြ	-13.0789
တိသိ	-13.0793
ခရီးသွားသောသူ	-13.0795
ကြားနာရ	-13.0796
မြေအက	-13.0798
ဤရွှေ	-13.0804
ပါးရိုး	-13.0806
အိုမြေကြီး	-13.0815
အာဗြံကို	-13.0819
လှေစီး	-13.0819
နာမကိုအမှီပြု	-13.082
းမိုးစေ	-13.0831
စေတနာရှိ	-13.0836
အမိကား	-13.0838
တံခါးများကို	-13.084
နိုးရာ	-13.0841
ဗုက	-13.0849
တိဇံတရား	-13.0851
အာသဟေလသ	-13.0857
ဟေန	-13.0857
ယောသေ	-13.0866
ဟေဗြဲဘာသာ	-13.0869
အားမရှိသော	-13.0869
ဩဇိသား	-13.0869
ရေထဲက	-13.0873
ငါဒံယေလ	-13.0876
အငြိုးထားသော	-13.0877
ပေါလုအား	-13.0877
မချမထား	-13.088
ပေးသောအကြံ	-13.088
းယူပြီးမှ	-13.0888
ဖြူလျ	-13.0892
တံပိုးသံ	-13.0893
စိမှ	-13.0899
အရာတစုံတခုမျှ	-13.0899
တာပ	-13.0906
ယဟောရံသ	-13.0907
ယေခေါနိသ	-13.0909
ကြူးသောသူ	-13.0911
ဟောရနိ	-13.0913
သူရဲများကို	-13.0918
ကြားသမျှ	-13.0921
ကြီးသူများ	-13.0934
သတိမရှိ	-13.0938
ရောဂါကို	-13.094
တဦးနှ	-13.0955
ကရုဏာတရား	-13.0968
ငါစုဝေးစေ	-13.0972
မီးခုံကို	-13.0991
အာရွှေရုသ	-13.0992
လေးရာသုံး	-13.1
းဆိုသံ	-13.1
မခံမရ	-13.1007
စုံရာ	-13.1008
လူဣသရေလ	-13.1018
ပြုစုသောသူ	-13.1026
ဖုံးထား	-13.1029
သားဦးအရာ	-13.1039
ဂျုံစပါးကို	-13.1044
ပြောလ	-13.1048
ထိုအသေ	-13.1053
စားစရ	-13.1062
မိမိတဲ	-13.109
ထားပါပြီ	-13.1092
ကြိုးများ	-13.1098
းသောအမှုအရာ	-13.1101
အကြံရှိကြ	-13.1111
နဟာ	-13.1116
တံငါ	-13.1123
လျှိုထား	-13.1131
သားမျိုး	-13.114
ပေးကြပါ	-13.1143
ပေကာ	-13.115
ရွာများတို	-13.1165
တစုတ	-13.1193
ဒေါသမီး	-13.1212
ဧမ	-13.1229
ကြားဘူး	-13.1231
ကူးစေ	-13.1231
ကြီးသူနှ	-13.1237
မနိုး	-13.1245
ခံရပါသ	-13.1271
မိမိမယားကို	-13.1271
သောအခက	-13.128
ဘာသာအ	-13.128
တပါးအခြားသော	-13.13
ဂျ	-13.1317
ကြေး	-13.1334
ငါဟောပြောသ	-13.1338
ထိုသူကား	-13.1341
ရှိလေသမျှ	-13.1341
ဦးချပြ	-13.1353
ခံစေဟု	-13.1368
ရှိမရ	-13.1387
ငါသွားရ	-13.1395
မပေးကြ	-13.1408
စီးပွား	-13.1412
လဲသောအခါ	-13.1449
ိအဆွေ	-13.1452
ဧလာဇာသား	-13.1465
သောသူအများ	-13.1493
ကြားသိရ	-13.1501
ဟောပြောသောစကား	-13.1503
ဒေရ	-13.1504
အာမောရိအမျိုး	-13.1537
ိုလေ	-13.1556
အားပေးရ	-13.1557
ကိုးစားသောသူ	-13.1561
နှာပြုလ	-13.1575
မသိသလော	-13.1579
မစုံမ	-13.1585
ကျေးဇူ	-13.159
ကျူးဧ	-13.159
သုံးစရာ	-13.1592
သောဆုကို	-13.1592
ချထားကြ	-13.1626
ပညာမရှိသော	-13.1631
ခံရသောအမွေတ	-13.1639
မိဘစကား	-13.1656
အဦးဆုံး	-13.1656
လွှဲသွားသော	-13.1678
ဖြူသောအ	-13.1699
ရောဒ	-13.1721
နေရပါသ	-13.1722
ဝါကြွားသောသူ	-13.1725
တားကြ	-13.1745
ကြီးစွာသောအသံ	-13.1752
သားဇေဒကိ	-13.1762
ထိုသိုးသ	-13.1763
ထိုအနာ	-13.1785
သေလု	-13.1789
မခံသောလူ	-13.1798
မွေးညှ	-13.1799
ဌမသား	-13.1816
းထောမနာ	-13.1819
ကျူးသောသူ	-13.185
မယုံဘဲ	-13.1867
မယားများ	-13.1872
အမျိုးသူကြီး	-13.1873
းမိုးလ	-13.1873
မမူသေး	-13.1893
ခံရကြပါစေ	-13.1897
ခါနနိ	-13.1912
များထံ	-13.1931
နူနာစွဲသော	-13.1942
အဘအိ	-13.1953
မပြုကြပါ	-13.1984
ကိရ	-13.1996
တရားပေ	-13.2001
မနာရှေသား	-13.2005
ပြောဆိုပြီး	-13.2048
ခိုလှုံသောသူ	-13.2063
တံခါးများ	-13.2065
ပြောပါဟု	-13.2067
တရားနာ	-13.2074
မရိုမသေ	-13.2088
အကြံထမြ	-13.2102
အဆီးအတား	-13.212
အနုမောဒနာ	-13.2121
ပေးပါပြီ	-13.2121
ဗာလသား	-13.2125
ဝေရ	-13.216
ကြွေ	-13.2161
ထွာရှိ	-13.2162
လူမျိုးကြီး	-13.2171
ယာရိ	-13.218
ဗဲ	-13.2184
အဗျေဇာ	-13.2185
ကြေမွ	-13.2188
ဟာဒ	-13.2197
ကျေးဇူးတရား	-13.2214
ဟိဝိ	-13.2249
ပိုးက	-13.2268
ဖေရဇိ	-13.2273
ဂေရှုရ	-13.2273
သွားသမျှသော	-13.2278
ဇောဘ	-13.2289
ရေမရှိသော	-13.2311
ဧဝံဂေလိ	-13.2321
သောသူမှစ	-13.2322
ခရီးဦးကြို	-13.2324
ရွေးထား	-13.2328
ဒွါဒသမ	-13.2331
ဿေ	-13.2333
ပေဒါ	-13.2333
ပေနွေလ	-13.2335
ဗိဂဝဲ	-13.2335
ဗာတံသီး	-13.2335
ဗေလတရှာဇာ	-13.2335
မိဂဒေါလမ	-13.2335
ရှမွာ	-13.2335
သံဝေဂ	-13.2335
အဗိဗလ	-13.2335
အဘိဟဲလ	-13.2335
အယူဝါဒ	-13.2335
အဟောလိဗ	-13.2335
အဿိရ	-13.2335
ပိသဂါ	-13.2335
ဩသံယေလ	-13.2335
မဒေသနာဆရာ	-13.2335
ရေဖာယ	-13.2335
သံဝါသပြု	-13.2335
ကုရေနေ	-13.2335
သားမရှိဘဲသေ	-13.2335
ဟုရှံ	-13.2335
ပြားတပြား	-13.2335
တရံတခါမျှ	-13.2335
မွေးဘွားရာဌာန	-13.2335
ကြားစရာနားရှိသော	-13.2335
မပြီးမှီ	-13.2335
အပြုအမူ	-13.2335
အလံကိုထူ	-13.2335
မိဖုရားဝါရှတိ	-13.2335
လူနူ	-13.2335
အသီးသီးအခြားခြား	-13.2335
ကရေတေ	-13.2335
ကေနိလူ	-13.2335
ဟေဖါ	-13.2335
ပါးစလုံး	-13.2335
အဟေဇာ	-13.2335
ဖျားလှီး	-13.2335
မဖြိုမ	-13.2335
ဟေဂဲ	-13.2335
လျူသော	-13.2335
အာရုံပြု	-13.2335
ဣသရလ	-13.2336
ျာခြေမ	-13.2336
ရှဘိ	-13.2336
ဦးရီး	-13.2336
ဂေဒိ	-13.2336
မဿဲ	-13.2336
နိဿ	-13.2336
ပြုမြဲပြု	-13.2336
ောဒိကိ	-13.2336
ချေးနု	-13.2336
ရှိခိုးကြ	-13.2336
အဘိရွှ	-13.2336
လူသေအရိုး	-13.2337
ဧပဖြ	-13.2337
ျာပခုံး	-13.2337
ဒေါဂ	-13.2337
အသားစို	-13.2338
သဲလုံး	-13.2338
ပြုဘူးသမျှ	-13.2338
ပညာသတိရှိသောသူ	-13.2338
မလာကြဟု	-13.2338
ဧဗလ	-13.2338
ဩနဲ	-13.2339
ကေဒမ	-13.2339
ဆီဥရှိသမျှကို	-13.2339
သမီးမာခါ	-13.2339
တဆေးပါသော	-13.234
သေကြေ	-13.234
သာယာစွာ	-13.2341
းကြီးဟိရံ	-13.2341
ချေးပုံ	-13.2341
အသုံးမရသော	-13.2342
ယခုဘဝ	-13.2343
ဤအမူအရာ	-13.2344
ဧဝံ	-13.2344
ခြေဆေး	-13.2345
ပသခါသိုး	-13.2346
ုမိမ	-13.2346
တဲတံခါးဝ	-13.2347
ဦးဆံ	-13.2347
ဇေရုယာသားယွာဘ	-13.2348
သာမညအမှု	-13.235
မပြေဘဲ	-13.2351
မြေရိုးကို	-13.2352
ယေဟုဒိ	-13.2353
သားအကြီးကား	-13.2354
မှီခိုသော	-13.2354
ဆိုမိပြီ	-13.2355
မကွာစေန	-13.2355
တဩမဲစီ	-13.2356
လူမျိုးအဆက	-13.2357
အသာယ	-13.2357
းခိုစရာ	-13.2357
ဗေသာ	-13.2359
တာလမဲ	-13.236
ဆာအလုံးစုံ	-13.236
သိုးနွားများကို	-13.236
ပါသရု	-13.236
မထိရ	-13.2361
လဝိ	-13.2365
ဗျာသ	-13.2366
တတိယလ	-13.2368
မနေဘဲ	-13.2369
သေးသလောဟု	-13.2369
ဧသောအမျိုးသား	-13.2377
ယေရှ	-13.2378
မယားစာရဲ	-13.2379
တံကျ	-13.2379
ဩချီးမွ	-13.2379
ထိုဒေသနာ	-13.2379
ယေဟုကလ	-13.238
လုနီးသ	-13.2381
အမွေခံရာမြေ	-13.2381
မိမိထားကို	-13.2383
ချီသွားလေ	-13.2383
အာဏာထား	-13.2384
ာဗရိမ	-13.2384
ယောရှုထံ	-13.2385
သိုးမွှေး	-13.2386
နေသောသူမရှိ	-13.2387
တူပါသ	-13.2387
ဘိန	-13.2388
ဣကောန	-13.239
အမျေလ	-13.2392
ယွ	-13.2392
စာကိုခိုး	-13.2393
းစံလေ	-13.2394
ထဲမှာနေသော	-13.2398
တစုံတခုရှိသလော	-13.2406
စာဂတိရှိ	-13.2409
ဇိဇ	-13.241
အနားမှာနေ	-13.2415
ပြိုလဲပြီ	-13.2418
ဂေါလျ	-13.2419
ဝေးလှ	-13.2421
ယဟာဇေလ	-13.2423
ငါချထား	-13.2424
ဧဟုဒသ	-13.2424
ချီယူ	-13.2425
ရေမလိသား	-13.2426
ပေါလိ	-13.244
မသိသေး	-13.2442
အဟောလ	-13.2443
အသွေးအသား	-13.2446
လုံသား	-13.2456
းတွားငိုကြွေး	-13.2456
ငါမငြ	-13.2465
ကြိုးများကို	-13.2466
အလှူကျေးဇူး	-13.2472
မဖေါ	-13.2475
ဧသောအား	-13.2476
ခြေဘဝါးမှ	-13.2476
ပသခါပွဲခံ	-13.2477
အတူနေသော	-13.248
လှဲရ	-13.2482
းစီးသောသူ	-13.2482
းပူး	-13.2484
ဤဘေး	-13.2491
နေရာချရ	-13.2492
းသောဘုရားကို	-13.2493
းမိုးရ	-13.2498
မိမိနေရ	-13.2498
ဗာဟု	-13.2503
သူရဲကြီး	-13.2504
ိညာ	-13.2505
ထာဝရဘု	-13.2509
ဝေးဝေးနေ	-13.2511
ပြီလောဟု	-13.2513
ငါများပြားစေ	-13.2516
နုသော	-13.2519
ငါသတိပေး	-13.2523
ငါကြားရသော	-13.2527
ဂေါမာ	-13.2533
ရေခါး	-13.2534
းစပြု	-13.2542
ပြီးလေ	-13.2544
သံပြား	-13.2549
မကြားမသိ	-13.2549
ရှာဖွေကြ	-13.2555
ငွေကိုယူ	-13.2567
လာပါစေ	-13.2571
ဆူးလေ	-13.2575
ဂုနိ	-13.2586
မေရမ	-13.259
မသွားရဟု	-13.2612
းမွေးညှ	-13.2612
သောအလေး	-13.2619
ကိုးစားပါ	-13.2624
သားယောရံ	-13.2631
ညီအဘိရှဲ	-13.2631
လုဟိ	-13.2632
ကျီစား	-13.2632
းမယူဘဲ	-13.2643
မိမိအမိ	-13.2657
တရားကိုမသိ	-13.2661
စောစေ	-13.2668
ခရီးသွားရာ	-13.2678
ဧလိဖလ	-13.2679
စာကိုယူ	-13.2682
နာခံ	-13.2695
ဤကော	-13.2703
ပါဟုဆိုလျ	-13.2705
းခိုရာ	-13.2729
ုးမတ	-13.2732
းကြားပြောရ	-13.2734
ရှေခနိ	-13.2747
ူးလျ	-13.2754
မိမိအဆွေအမျိုး	-13.2754
မရှာဘဲ	-13.2759
ပြသကြ	-13.2791
အဘိဒ	-13.28
အာရန	-13.2801
ဆဲရာ	-13.2804
ယာရှု	-13.2809
တရာရှိသော	-13.2811
ဟောပြောသောသူ	-13.2813
းနှီးသောအရာ	-13.2814
သားယေဟု	-13.2833
ခံပါစေ	-13.2844
ရေများသော	-13.2848
ဟာဇရ	-13.2861
ပြုမိသောအမှု	-13.2877
ရှာကြံသော	-13.288
မောရှေမှာထားသ	-13.2906
စာရေးတံချကြ	-13.2907
လိုဘ	-13.2928
ပြုစားသော	-13.293
းရိသောသူ	-13.2932
ဥတုမ	-13.2935
အရာဘ	-13.2947
နေဘူးသော	-13.2956
များစွာရှိ	-13.2972
သူပြုသောအမှု	-13.2979
အလိုရှိသောသူ	-13.2984
ငြာကြ	-13.3015
ာဒဒ	-13.3017
ပါသေး	-13.3035
လောကီမ	-13.304
တခြားစီနေ	-13.3041
ဲပေးက	-13.3041
သောစကားဖြ	-13.3045
မရှိပါတကား	-13.3072
ာဘိန	-13.3104
အရာသုံးပါး	-13.3161
စားစရာမရှိ	-13.3161
ကြားပါ	-13.3166
မြေအော	-13.3173
အိုဗ	-13.3175
နောဖ	-13.3195
ပေါလုဆို	-13.3196
ထိုပျ	-13.3204
ပြောသမျှ	-13.3216
ရေလရှ	-13.3225
ညဦးမှ	-13.3226
ရွှေအခ	-13.3228
နာလ	-13.3247
ဆီလ	-13.3262
အခြားသောအရ	-13.327
ခွဲပြီး	-13.3318
ယုဒလူများ	-13.3328
သူမျှမနေ	-13.3329
ဘေ	-13.3347
ကွာသွား	-13.3356
ရာဌာန	-13.3365
စွတကား	-13.3385
မျှရှိသ	-13.3393
ပုံများ	-13.3433
တခုမျှမ	-13.345
ရှုံးရ	-13.3451
အာဗဒ	-13.3478
ကြားပါစေဟု	-13.3483
သမျှသောအရာ	-13.3498
ဗာလဇေ	-13.3522
ကြီးမတ	-13.3522
စကားပြောလ	-13.3548
တိဇံကိုခံကြ	-13.3548
ယေဟ	-13.355
ပြောသမျှသော	-13.3553
မေရာရိအမျိုး	-13.3559
ဝေးသေး	-13.3619
အမျိုးမျိုးထဲက	-13.3644
ဆေ	-13.3645
နိကော	-13.3665
းမရှိရာ	-13.3669
အာရှာအမျိုးသား	-13.3691
ဂါတခု	-13.3763
ပညာမရှိ	-13.3767
မရဏာ	-13.3767
ပွဲခံရ	-13.3795
မကျွ	-13.3805
ရှေးလူ	-13.3827
ချီးမြ	-13.3827
ဘကြီး	-13.3837
သားရေအ	-13.3843
လောကီအမှု	-13.3845
ဟာရှဗ	-13.3855
လျှံလ	-13.3859
စကားသံကိုကြား	-13.3898
မာဂ	-13.3903
သားဦးများ	-13.3946
သီးပြ	-13.3994
လွှားသောသူ	-13.3997
စိုးစံရသော	-13.4006
ဒြု	-13.4026
ရှေးလ	-13.4041
ေဗက	-13.4045
ကြံပြီး	-13.4047
ျားကိုဘွား	-13.4052
ဘေးမရှိ	-13.4057
ပုံခ	-13.4133
ပါးတ	-13.4155
မျှမသိ	-13.4172
ျသတ	-13.4174
ဆားချ	-13.418
ကျေးဇူးပြုလိုသော	-13.4187
ဂေရှုရိ	-13.4192
ဥပဒေ	-13.4227
ဧဟုဒ	-13.4233
ရွှေမီးခ	-13.4256
မေရိဘ	-13.4265
ပုဒ	-13.4272
တိဖ	-13.4275
ဣဒေါ	-13.4287
မြှေး	-13.4293
ဒေါနိ	-13.4297
ဝေးပါစေ	-13.4307
ဂေဒလိရှိရာ	-13.4313
နှလုံးပူ	-13.4323
မဿန	-13.4324
ယေဗု	-13.4325
တုရိယာ	-13.433
မိဇရ	-13.4331
ရွေးလို	-13.4332
ိရှဒ	-13.4334
ဖျားနာ	-13.4334
ဆာဒိဌိ	-13.4335
တူရိယာ	-13.4335
အဟောဟိအမျိုး	-13.4335
မိလကုံ	-13.4335
အမွှာ	-13.4335
အရှုံးခံစေ	-13.4335
အာရုံမပြုဘဲ	-13.4335
ဧရှတမော	-13.4335
ကိဗြု	-13.4335
ကိရယသာဘ	-13.4335
ကောရိနသု	-13.4335
ဇုအာသား	-13.4335
မေဒါသသား	-13.4335
မွေးမြူ	-13.4335
ဣတလိ	-13.4335
ကေနိအမျိုးသား	-13.4335
ဂေမရိ	-13.4335
နေတောဖာသိ	-13.4335
ပိလေသာ	-13.4335
အစာအဟာရ	-13.4335
အနီဆိုးသော	-13.4335
အာဂေါဘ	-13.4335
ဧဝံဂလိတရား	-13.4335
ဗေလဇေဗုလကို	-13.4335
ယာဖျာ	-13.4335
အမှီတကဲ	-13.4335
ဦးသုံးဦး	-13.4335
မေဒဘ	-13.4335
းပဲသမား	-13.4335
ဥလံ	-13.4335
ဒေလာယ	-13.4335
ပဌနာမပြုသော	-13.4335
ထိုကုလားကာဘို	-13.4335
ဆီလူးသော	-13.4335
မုရတု	-13.4335
လေဟိအ	-13.4335
အာတေမိ	-13.4335
အဒေါနိရံ	-13.4335
တဟောမဲ	-13.4335
ငါးမျှား	-13.4335
စံကော	-13.4335
ခေဖိရ	-13.4335
ဖုံးသောဆီဥ	-13.4335
ဇာဗဒိ	-13.4336
ဂါယု	-13.4336
ဗာလပေဂုရ	-13.4336
မဖူးမ	-13.4336
ရာဂမ	-13.4336
နှမတာမာ	-13.4336
အလှူဒါနကို	-13.4336
တံပိုးခရာ	-13.4336
ဆီဘူးကို	-13.4336
ဂေလိ	-13.4336
ခါသိလ	-13.4336
ခါနာနိလူ	-13.4336
းမာပကတိ	-13.4336
ရိုးပျ	-13.4336
ဝေါဟာရ	-13.4336
လိဗု	-13.4336
ဒေါဒေါ	-13.4336
ရောဂေလ	-13.4336
အာကာသ	-13.4337
မာဂေါဂ	-13.4337
တောသားရဲစားစရာ	-13.4337
သေဖရဝိမ	-13.4337
အာမသဲ	-13.4337
ကုဋ	-13.4337
မိရှမ	-13.4337
ဩဖေလ	-13.4337
ဟေလံ	-13.4337
ပြုစေလိုသ	-13.4338
စားကြူးသောသူ	-13.4338
အဟိဩ	-13.4338
ခြေကိုဆေး	-13.4338
ဆီမီးခုံ	-13.4338
တံစိုးစား	-13.4338
ဧဗဒ	-13.4339
အထူးထူး	-13.4339
ဗေဇာ	-13.4339
အဘိုးများစွာ	-13.4339
သံချေး	-13.434
းဥပဒေကို	-13.434
ဩဖိရရွှေ	-13.434
ခါလဒဲဆရာ	-13.434
ငါမမှာထား	-13.434
ဩနော	-13.4341
မီးဖိုပြာ	-13.4341
ကြံရာမှ	-13.4341
ရှောဗလ	-13.4341
ဟုရှသိ	-13.4342
ဗုဒ	-13.4343
သူအားမျှ	-13.4343
ဟာဗော	-13.4343
ပုဝါ	-13.4344
းမမာသောသူ	-13.4344
မလဲရ	-13.4344
ဂေရဇိ	-13.4345
ောဒိ	-13.4347
မသွားမှီ	-13.4347
းမသိများ	-13.4347
လူသားတစုံ	-13.4348
မသိဘဲနေစေ	-13.4348
ဟိဒ	-13.4348
ရှာမာရိ	-13.4348
ကြွား	-13.4349
မောဘအမျိုးသမီး	-13.4349
ရှေးမဆွ	-13.435
တိရိ	-13.4351
ဝံပို	-13.4351
အဒေါနိ	-13.4351
ဤအရာအလုံးစုံ	-13.4352
ဧသတာအား	-13.4352
မုသာစကားကိုပြော	-13.4353
ကိုမွေးရ	-13.4353
သားဂေဒလိ	-13.4354
အရှုလာ	-13.4354
မရွေးလို	-13.4356
းစွတ	-13.4356
ကုရှအမျိုးသား	-13.4359
အကျိုးမရှိဘဲ	-13.4359
ဦးမချ	-13.4359
အဟိကံသားဂေဒလိ	-13.436
ရှိပါသေး	-13.4361
ဧလျာဒ	-13.4362
ဧဗ	-13.4364
ဧလာလေ	-13.4364
စာရေးတံကျ	-13.4365
ရှုံးရကြ	-13.4367
လူလေးရာ	-13.4368
ူမျိုးတစုံတမျိုး	-13.4368
နှာဆွဲ	-13.4368
ဇာနော	-13.4372
ချောစား	-13.4374
မိကျော	-13.4375
ကုလားကာတ	-13.4377
ဆေးခါး	-13.4377
တပါးစီ	-13.4378
ငါသဘောကျ	-13.4379
ရာခုံ	-13.438
မီးမြွေ	-13.4384
ဣဒေါသား	-13.4385
ျားအလို	-13.4386
စပါးနှံ	-13.4387
ဒြမ	-13.4389
ရှိဟောရ	-13.4389
ဂလတ	-13.439
းမရွာစေ	-13.4392
တာထဲမှာ	-13.4394
သားအာဇရိ	-13.4399
မာလခိယ	-13.44
ပွဲစား	-13.44
ဆုချ	-13.4405
မေရိဘရေ	-13.4406
းဆဲကြပြီ	-13.4407
သောအကျိုးအ	-13.4414
ငါးလ	-13.442
မိမိအမှုအရာ	-13.4426
မကွာရ	-13.4427
ကာလလ	-13.4428
မူဘူးသ	-13.4429
ရေနားမှာ	-13.4431
သားနာရှ	-13.4432
ဘာကု	-13.4435
ဖြေရာစကားကို	-13.4435
အာဒမာ	-13.4439
တံခါးရှိသမျှ	-13.444
ဒြိ	-13.444
လေးလံသ	-13.4442
လေးမြှား	-13.4451
နဲသောအရ	-13.4451
ငါကျွေးမ	-13.4457
များရှိကြ	-13.4463
ရေအိုး	-13.4471
ဆူပ	-13.448
ရိနာစွဲသောသူ	-13.4482
အိုဖ	-13.4496
ိရဟ	-13.45
မသုံးဘဲ	-13.45
မထားဘဲ	-13.4504
မာသတိရှိသောသူ	-13.4519
းတုံး	-13.4523
ဗာသေ	-13.4524
ပေရဂ	-13.4529
ရေဆိ	-13.4532
အသံကိုကြားရ	-13.4546
ယောရှုအမျိုး	-13.4552
ုသိ	-13.4556
တစုံတခုရှိလ	-13.4562
မရွေးမ	-13.457
ရေတံခါး	-13.4577
ရှိမရိ	-13.4581
းစရာဆီ	-13.4584
မရွေးရ	-13.4586
နဲရာထဲ	-13.4626
ထားသမျှသော	-13.4637
ဇာတိပကတိလူ	-13.4647
အမဲသားချ	-13.4678
ပုခ	-13.4682
သားအများ	-13.469
ဝေးရာ	-13.4697
းအလိုငှ	-13.4716
ဤအရာများ	-13.4719
ပြုပြီးသ	-13.4727
ပေါလုဟောပြော	-13.4731
အကျိုးအပ	-13.4733
အမှုဆိုး	-13.4738
မလာဘဲနေ	-13.4742
အဘိရှ	-13.476
လောကီအရာ	-13.4763
ဂိဟု	-13.4764
ဖြေရသော	-13.4788
အဘိုးပေး	-13.4802
ကွာဝေး	-13.4819
ပြုမိလျ	-13.4847
ကြေးဝါကြိုး	-13.486
မိုးလ	-13.4861
အကျိုးကျေးဇူး	-13.4889
ဍန	-13.49
မိမိပြုသောအမှု	-13.495
နဿလိအမျိုးသား	-13.4956
ရွာအရ	-13.4963
မျှမလွ	-13.497
းဝေးလ	-13.5062
တွားလ	-13.5063
ကွဲလ	-13.5064
စကားအသောသူ	-13.5077
တရာငါး	-13.5084
ထိုဥပမာ	-13.5084
ိကောလ	-13.5086
သီးဟ	-13.5117
သီးမျိုး	-13.512
ခကိုခံရ	-13.5149
အနာဆိုး	-13.5187
ယေကမ	-13.5196
တာခု	-13.521
ရေစီးရာ	-13.5219
စာဖ	-13.5234
ဧလံအမျိုး	-13.5244
သုံးရာရှိ	-13.5286
ပုံတူ	-13.536
တတိယအဆ	-13.5401
ဧလနာ	-13.5415
မိမိအသွေး	-13.5425
အဦးဆုံးသော	-13.5429
ထိုပြာ	-13.5435
ရိုသေသောသူ	-13.5436
စွတကားဟု	-13.5453
လူအစုအဝေးထဲ	-13.5465
ခြေချော	-13.5479
မသေဘဲ	-13.5484
ဝေးလ	-13.5516
သောဒုံမ	-13.5535
အဟိယအား	-13.5549
ဖြားသောသူ	-13.557
ရှိပါစေသ	-13.5606
စုအဝ	-13.5623
အတူအိ	-13.5633
ယုံလော	-13.5636
ေဇာသ	-13.564
ဒိဗ	-13.5645
ပဌနာပြုသောသူ	-13.5691
လောကီပညာ	-13.5749
မနွ	-13.5764
ထားလေပြီ	-13.5792
ဘိုးငွေ	-13.5819
ဒိဗလ	-13.5834
မိလျ	-13.5853
ဣသရေအမျိုး	-13.5876
အာရှရ	-13.5915
ကျသောသူအ	-13.5916
ငွေခွဲ	-13.5925
ခေရ	-13.5988
ုံးအဆ	-13.6012
ဆုံးမဩဝါဒပေးလ	-13.6018
မီးစက	-13.6037
နှလုံးသဘော	-13.6053
တံပိုးများ	-13.606
ေဇိ	-13.6067
ဍ	-13.6151
ဘူးသောအရာ	-13.6154
းခြားလ	-13.616
အစေအပါ	-13.6163
ဖိလ	-13.6168
ောဇသား	-13.6171
စကားမပြောန	-13.6173
းကိုခံရလျ	-13.6178
ာလံ	-13.6191
ယေရိခေါမ	-13.6241
စာတစုံတခုကို	-13.625
ထိုဆိ	-13.6258
သားယေ	-13.6327
မစားဘဲ	-13.638
ကူးရာ	-13.6401
ယွာဘညီ	-13.641
ဧလဇာ	-13.6491
တရားရှုံး	-13.6503
ာလမဲ	-13.6506
ယုံသလော	-13.6513
အာဇရိသား	-13.6573
မလာဘဲ	-13.6583
အဗျ	-13.6593
ဌ	-13.6596
သိဗေ	-13.6624
ပိဿာစီ	-13.6643
ရိနာစွဲသော	-13.665
ရဲပြေ	-13.6676
ဆိုးစွဲ	-13.6696
ရှာလသေလ	-13.6727
ုဒ	-13.6739
ဘီးတခု	-13.675
ဌာနာပြု	-13.677
ခေရသိ	-13.679
သားအဟိရ	-13.6797
ဧဖါ	-13.6801
ရှေကနိ	-13.6821
ှ	-13.6825
အဟိကံသား	-13.683
ကရုဏ	-13.6834
အာဗြ	-13.6835
ရေဟုံ	-13.6835
ဝါရှတိ	-13.6835
ဦးကြိုပြု	-13.6835
ခွါမကွဲပြားသော	-13.6835
မဆီးမတား	-13.6835
ဒေနာရိတပြားကို	-13.6835
အဇုဘ	-13.6835
ခေဒေါရလောမာ	-13.6835
ခေနာနာ	-13.6835
ချေးငှားသော	-13.6835
ဂိဒေါနိသား	-13.6835
ဆီတလောဃ	-13.6835
ဒွေလသား	-13.6835
ဗေရောသိအမျိုး	-13.6835
မြူးထူး	-13.6835
ဝှါကိန	-13.6835
သာဓု	-13.6835
သားပါဂျေလ	-13.6835
သေနာစွဲ	-13.6835
ဟဒေါရံ	-13.6835
ဟဝိလ	-13.6835
ဟာနမေလ	-13.6835
အထူးထူးအထွေထွေ	-13.6835
ဧမာနွေလ	-13.6835
ဧရှကောလချ	-13.6835
ခေနနိ	-13.6835
စိဗမာ	-13.6835
ဓေစွဲနေ	-13.6835
ဗာလစံစေး	-13.6835
ရှေဗွေလ	-13.6835
သိလွာနု	-13.6835
အနုဆေးသီး	-13.6835
ခိမဟံ	-13.6835
ဗိခရိသားရှေဘ	-13.6835
မနီးမဝေး	-13.6835
အဟောလျဘ	-13.6835
ဣမလသား	-13.6835
မဿာ	-13.6835
ရေမလိသားပေကာ	-13.6835
ဧလတေက	-13.6835
ကေတုရ	-13.6835
ဗိခရိ	-13.6835
ဠ	-14.0168
။	-14.3496
ဦ	-14.4668
ျ	-14.4788
ဪ	-14.5168
ဈ	-15.5167
?	-16.4862
၌	-16.4863
၍	-16.4864
့	-16.4865
်	-16.4866
