<pad>	0
</s>	0
<unk>	0
▁እ	-0
▁አ	-1
▁በ	-2
▁የ	-3
▁ከ	-4
▁ይ	-5
▁ወ	-6
▁ነ	-7
▁እን	-8
▁መ	-9
ንም	-10
ቸው	-11
▁ለ	-12
አብ	-13
▁ተ	-14
ግዚ	-15
ሔር	-16
ግዚአብ	-17
ግዚአብሔር	-18
▁ሰ	-19
▁ሁ	-20
▁ል	-21
ንድ	-22
▁ያ	-23
▁ወደ	-24
▁ስ	-25
▁ሁሉ	-26
▁ዘ	-27
ርሱ	-28
ችሁ	-29
▁ም	-30
▁እግዚአብሔር	-31
▁እንደ	-32
▁ብ	-33
▁የሚ	-34
▁ላ	-35
▁ነበ	-36
▁በእ	-37
▁አለ	-38
▁ግ	-39
ለሁ	-40
▁ደ	-41
▁ዘንድ	-42
▁ት	-43
▁ላይ	-44
ም።	-45
ንተ	-46
ገር	-47
▁እንዲ	-48
▁ነው	-49
ል።	-50
▁ሆ	-51
ውን	-52
ኤል	-53
▁ባ	-54
▁ስለ	-55
ድር	-56
▁ግን	-57
▁ከእ	-58
▁የእ	-59
▁እነ	-60
ዎች	-61
ጊዜ	-62
▁ቀ	-63
ትን	-64
ዚህ	-65
▁የተ	-66
▁ድ	-67
▁ጊዜ	-68
▁ታ	-69
▁ልጆ	-70
ትም	-71
▁አይ	-72
ውም	-73
ስራ	-74
▁ማ	-75
▁ጋ	-76
▁ሕ	-77
▁ነገር	-78
ስራኤል	-79
▁ን	-80
▁እርሱ	-81
▁ልጆች	-82
▁ክ	-83
▁ጋር	-84
▁አም	-85
▁እኔ	-86
▁ይህ	-87
ው።	-88
▁በአ	-89
▁ቤ	-90
▁ልጅ	-91
ል፤	-92
ዚያ	-93
▁ነበር	-94
▁ው	-95
▁በመ	-96
▁አል	-97
▁ጠ	-98
ልና	-99
ርስ	-100
ሪያ	-101
▁ዓ	-102
▁ኢ	-103
ችን	-104
▁እንዲህ	-105
ል፥	-106
▁ፈ	-107
ቸው።	-108
በት	-109
▁ንጉ	-110
ፊት	-111
ደረ	-112
▁ሰው	-113
▁ገ	-114
▁እንዳ	-115
▁መን	-116
ንና	-117
ለም	-118
▁እስ	-119
ለው	-120
▁ለእ	-121
ደር	-122
ለት	-123
▁ቃ	-124
ላችሁ	-125
▁አን	-126
ጌታ	-127
▁የአ	-128
ናንተ	-129
▁ሕዝ	-130
▁ፍ	-131
ም፥	-132
ይ፥	-133
ያስ	-134
ን፥	-135
▁ና	-136
ሥራ	-137
ነት	-138
ሠራ	-139
▁አላ	-140
▁አምላ	-141
▁ደግ	-142
ተኛ	-143
▁ሳ	-144
▁ቤት	-145
▁የእግዚአብሔር	-146
▁ነበረ	-147
ለህ	-148
▁ፊት	-149
▁ደግሞ	-150
▁የም	-151
ቸውም	-152
▁ቢ	-153
ያን	-154
ቶች	-155
▁ቀን	-156
▁ሆይ፥	-157
ስጥ	-158
ት።	-159
▁እጅ	-160
▁መል	-161
▁በዚያ	-162
▁አስ	-163
▁በም	-164
▁ዳ	-165
▁አንተ	-166
▁ከተ	-167
▁ከአ	-168
ቱም	-169
▁እነሆ	-170
▁በሰ	-171
▁አት	-172
ረስ	-173
ሆን	-174
ማይ	-175
▁ወይ	-176
▁ሰዎች	-177
ሉ።	-178
▁ሆነ	-179
ህን	-180
ስት	-181
▁ቃል	-182
▁ኃ	-183
▁ካ	-184
ለች	-185
▁ምድር	-186
ቸውን	-187
ገድ	-188
▁ሲ	-189
▁ቅ	-190
ባት	-191
▁ድረስ	-192
▁ጌታ	-193
ን።	-194
መጣ	-195
▁ይላ	-196
ሆና	-197
ነበ	-198
መለ	-199
ናገ	-200
ርሱም	-201
▁ንጉሥ	-202
ምን	-203
▁አንድ	-204
ካከ	-205
▁ሊ	-206
▁እስከ	-207
ጢአ	-208
▁ጥ	-209
▁በእግዚአብሔር	-210
▁ራ	-211
ቱን	-212
ፍራ	-213
▁አለው።	-214
ለሁ።	-215
▁አምላክ	-216
▁የሰ	-217
ኋላ	-218
ህም	-219
▁ነው።	-220
ዊት	-221
▁ኢየ	-222
ስም	-223
ገባ	-224
▁ውስጥ	-225
▁ብሎ	-226
ሆነ	-227
ቀመ	-228
ችኋ	-229
▁ሌ	-230
ሳሌ	-231
ቸዋ	-232
▁አድር	-233
ብር	-234
▁ዕ	-235
▁ነበር።	-236
ት፥	-237
▁ሴ	-238
▁ዓመ	-239
▁አለ።	-240
▁እናንተ	-241
ዳን	-242
ወጣ	-243
▁የእስራኤል	-244
ነሣ	-245
ለሁ፥	-246
▁ሙ	-247
▁እግዚአብሔርም	-248
ውንም	-249
▁በኋላ	-250
▁የሚያ	-251
▁ነገ	-252
ም፤	-253
▁ለአ	-254
ለሁ፤	-255
▁ያለ	-256
መን	-257
ተው	-258
▁ቍ	-259
መል	-260
▁ይሆና	-261
ውያን	-262
▁በተ	-263
ሁዳ	-264
ርም	-265
▁ስለዚህ	-266
▁ወንድ	-267
ካከል	-268
ደረገ	-269
▁ድን	-270
▁እርሱም	-271
ምም	-272
▁እነሆ፥	-273
▁ሞ	-274
ትና	-275
ልን	-276
▁አሳ	-277
ዛብ	-278
ሩሳሌ	-279
ርባ	-280
ግብ	-281
ና።	-282
▁ሥ	-283
ኞች	-284
▁ሄ	-285
▁ነበሩ	-286
▁ይህን	-287
▁መካከል	-288
▁ወይም	-289
▁ምን	-290
ሕዛብ	-291
▁ሕዝብ	-292
▁ኃጢአ	-293
ላቸው	-294
▁ልብ	-295
▁ንጉሡ	-296
ኢየ	-297
ርያ	-298
▁ኢየሱ	-299
▁የወ	-300
ቶቻ	-301
ከተ	-302
▁ነው፤	-303
ዋዕ	-304
▁ባሪያ	-305
▁አው	-306
▁እንዲሁ	-307
▁ዛ	-308
▁ዓመት	-309
▁ሙሴ	-310
ሥዋዕ	-311
ሉ፤	-312
▁ሥራ	-313
ቹም	-314
▁ለመ	-315
ሉ፥	-316
ጠፋ	-317
▁አይደ	-318
ድን	-319
▁አሁ	-320
ልም	-321
ሮች	-322
ህና	-323
▁የመ	-324
▁መሥዋዕ	-325
▁ነፍ	-326
▁ደስ	-327
▁ይሰ	-328
ረው	-329
ራት	-330
▁ሚ	-331
▁ሁለት	-332
ሞች	-333
▁ዮ	-334
ላቅ	-335
ፈር	-336
ንን	-337
ርስዋ	-338
▁ብዙ	-339
ቸው፤	-340
ቤቱ	-341
ኝ።	-342
▁ጽ	-343
ያው	-344
▁ከፍ	-345
▁እነዚህ	-346
ላለም	-347
ይሁዳ	-348
▁በሚ	-349
▁በደ	-350
▁ወር	-351
▁ስፍራ	-352
▁እግዚአብሔርን	-353
▁ሕዝቡ	-354
ሕዝ	-355
ራራ	-356
▁ወገ	-357
ምና	-358
▁መልካ	-359
ዲህ	-360
▁እንጂ	-361
▁ጀ	-362
▁ለእግዚአብሔር	-363
▁የነበ	-364
ንጉ	-365
▁ስም	-366
▁ሸ	-367
ቆች	-368
▁መቶ	-369
▁ክፉ	-370
ት፤	-371
▁ከሰ	-372
ግሥ	-373
ቀር	-374
▁በታ	-375
ይወ	-376
▁ር	-377
ርስቶ	-378
ድቅ	-379
ሩሳሌም	-380
ፈስ	-381
▁አባ	-382
ዘላለም	-383
ልቅ	-384
በላ	-385
ገለ	-386
▁በዚህ	-387
▁አላቸው።	-388
▁እጅግ	-389
▁በል	-390
▁በምድር	-391
▁በዚያም	-392
▁እና	-393
▁ተቀ	-394
▁በው	-395
▁እስራኤል	-396
ታቸው	-397
▁ከመ	-398
▁ሁለ	-399
▁ይሁ	-400
▁ነበረ።	-401
ቢያ	-402
▁በወ	-403
▁እነርሱ	-404
▁ለሚ	-405
▁እኔም	-406
ርስቶስ	-407
▁ሦ	-408
▁በላ	-409
▁ሐ	-410
▁ኤ	-411
ድረ	-412
ታችሁ	-413
▁ወን	-414
ጀራ	-415
▁ማን	-416
▁ሺ	-417
▁በየ	-418
▁የማ	-419
▁ይወ	-420
▁ኢየሱስ	-421
ሳት	-422
▁እንግ	-423
ደርጋ	-424
▁ከእነ	-425
ልክ	-426
▁ነበር፤	-427
ተኛው	-428
▁በዳ	-429
▁ዓይ	-430
▁በማ	-431
▁ተናገ	-432
ቸው፥	-433
ደርግ	-434
ንያ	-435
▁ከተማ	-436
▁የእግዚአብሔርን	-437
ሩት	-438
ውያ	-439
▁ቆ	-440
▁በእስራኤል	-441
▁መጣ	-442
ብም	-443
▁እንደሚ	-444
ጥቶ	-445
ው፥	-446
▁መንገድ	-447
ዴት	-448
ሆኑ	-449
▁ሁሉ፥	-450
▁ምስ	-451
▁መሥዋዕት	-452
▁ጸ	-453
▁አቤቱ	-454
ስተ	-455
▁ተነ	-456
▁የምት	-457
▁በፊ	-458
▁እየ	-459
▁ሽ	-460
▁የሆነ	-461
ጠብ	-462
አልና	-463
ች።	-464
▁ድም	-465
ናገር	-466
▁እንዳይ	-467
ችም	-468
ምሮ	-469
▁ጊዜ፥	-470
▁ይላል።	-471
▁ኢዮ	-472
▁ሠራ	-473
▁አገ	-474
▁ውኃ	-475
ሉት	-476
▁በኢየ	-477
ኝ፥	-478
ውነት	-479
ቃጠ	-480
ቀረ	-481
▁ከዚያ	-482
▁አታ	-483
▁ከእርሱ	-484
▁ፍር	-485
▁አለቆች	-486
ምላ	-487
▁ሺህ	-488
በረ	-489
ንጉሡ	-490
▁በር	-491
▁ብር	-492
ቱንም	-493
▁አጠ	-494
ልፍ	-495
▁ዝ	-496
▁ለማ	-497
▁ተሰ	-498
▁አለቃ	-499
ኝ፤	-500
▁በዓ	-501
▁አገር	-502
▁እኛ	-503
▁ይላል	-504
▁ኪ	-505
▁በግ	-506
ለደ	-507
▁እንድ	-508
▁እንዲህም	-509
ኑም	-510
ና፥	-511
▁ዛሬ	-512
ገብ	-513
▁አሕዛብ	-514
ዎቹ	-515
▁አደረገ	-516
ን፤	-517
▁አቤቱ፥	-518
ዕቆ	-519
ላም	-520
ታት	-521
▁ሠ	-522
▁ዘመን	-523
ቻቸው	-524
▁መልካም	-525
ቅደ	-526
ሩም	-527
ው፤	-528
▁ታላቅ	-529
ቅር	-530
▁ሰማ	-531
መስ	-532
እዛ	-533
▁ከሚ	-534
ሠዊ	-535
ገና	-536
▁አብ	-537
▁ከወ	-538
▁እነርሱም	-539
ኛው	-540
ኖች	-541
ሁ።	-542
ዶች	-543
▁አሉ	-544
▁ዳዊ	-545
ሰማ	-546
▁እርስዋ	-547
▁ለዘላለም	-548
ቀደ	-549
▁የሠራ	-550
ኖር	-551
▁ሄደ	-552
▁መለ	-553
▁እርሱም።	-554
በር	-555
ክር	-556
ይፍ	-557
▁በጎ	-558
▁በመን	-559
ቀመጡ	-560
▁ጣ	-561
▁አዘ	-562
ከራ	-563
ህንም	-564
ባቸው	-565
▁ቅዱ	-566
▁ጀምሮ	-567
▁ጕ	-568
▁በሕ	-569
▁አደረ	-570
ዋን	-571
▁አያ	-572
▁የበ	-573
▁ዘንድ፥	-574
ሎች	-575
▁መስ	-576
ሱን	-577
ኖሩ	-578
ፈል	-579
▁ነበረ፤	-580
▁ወጣ	-581
▁ነበሩ።	-582
▁እስኪ	-583
▁ከእኔ	-584
ችሁን	-585
መሰ	-586
▁ሥጋ	-587
መና	-588
ስን	-589
▁ትእዛ	-590
▁ስድ	-591
▁እያ	-592
▁ባለ	-593
ነገ	-594
ቀድ	-595
▁አደ	-596
▁ድምፅ	-597
▁ከም	-598
▁ሌላ	-599
▁በባ	-600
▁በፍ	-601
▁ጻ	-602
አቸው	-603
▁ብት	-604
▁ነው፥	-605
▁ፊ	-606
▁እንግዲህ	-607
ሕዝቡ	-608
▁እሰ	-609
ውቃ	-610
ድም	-611
▁በእርሱ	-612
ሩ።	-613
ርዳ	-614
▁ይበ	-615
▁አሁን	-616
ጠራ	-617
▁ቍርባ	-618
▁እንጀራ	-619
ኖራ	-620
ረት	-621
ይወት	-622
▁ያል	-623
ላችሁ።	-624
▁አይደለም	-625
▁አንዱ	-626
ዙሪያ	-627
▁ሰባት	-628
▁ተራራ	-629
ልህ	-630
▁ኃጢአት	-631
ለህ።	-632
▁ወዳ	-633
ሰው	-634
ኃጢአ	-635
▁ሰጠ	-636
ይን	-637
▁ክርስቶስ	-638
ልና።	-639
▁ዕቃ	-640
▁የለ	-641
▁የባ	-642
▁ይልቅ	-643
▁ሆኖ	-644
▁ማንም	-645
ረገ	-646
ች፥	-647
▁ክንድ	-648
▁መንግሥ	-649
ቀበ	-650
▁አጠገብ	-651
ተዋ	-652
▁ያስ	-653
▁ሦስት	-654
ረከ	-655
ዓት	-656
▁አማ	-657
ኩል	-658
▁ከአንተ	-659
ላችኋ	-660
▁አሁንም	-661
ሀያ	-662
ርቅ	-663
▁እንዴት	-664
ውያንም	-665
ያንዳን	-666
ገዛ	-667
▁ኢያ	-668
▁መንፈስ	-669
ፈራ	-670
▁ጭ	-671
▁አየ	-672
ህ፥	-673
ጋይ	-674
ችሁም	-675
▁እግ	-676
▁ተነሥ	-677
▁ወገን	-678
▁ስሙ	-679
▁ብቻ	-680
▁ተመለ	-681
▁ከተሞች	-682
ሄድ	-683
በታ	-684
▁ዋ	-685
▁ከእግዚአብሔር	-686
ፋት	-687
▁ካህና	-688
ምራ	-689
ንስ	-690
ተኞች	-691
ፋን	-692
▁አልተ	-693
መረ	-694
▁ብለው	-695
▁ከዚህ	-696
▁ንጉሡም	-697
ሁ፥	-698
ህል	-699
ሕር	-700
ዋም	-701
▁ሴቶች	-702
▁ተመል	-703
▁ዳዊት	-704
መጡ	-705
▁ጨ	-706
▁በራ	-707
▁ያለውን	-708
ሩን	-709
ቢሎ	-710
ግብፅ	-711
▁ምድ	-712
▁በታች	-713
▁ይሆናል።	-714
ልና፥	-715
ቹን	-716
▁አሳል	-717
▁የተነሣ	-718
▁አሥራ	-719
ሎሞ	-720
ጠን	-721
ጥር	-722
▁በክ	-723
ጠው	-724
▁በኩል	-725
ችንም	-726
▁በአንድ	-727
▁አሉት።	-728
ደደ	-729
▁በቀ	-730
▁ዳር	-731
▁ሕግ	-732
▁ሳይ	-733
▁መዛ	-734
▁ገና	-735
▁አምላካ	-736
ሙር	-737
▁ወለደ	-738
▁የማይ	-739
▁አምስት	-740
ልስጥ	-741
▁ልጁ	-742
ንግ	-743
▁ጠላ	-744
ልስጥኤ	-745
▁ከእስራኤል	-746
ልሃ	-747
▁ከብ	-748
ገረ	-749
ለች።	-750
▁ወሰ	-751
▁ክብር	-752
▁እነሆም፥	-753
ስፋ	-754
ባባ	-755
ወር	-756
ደርጉ	-757
▁ወስ	-758
▁ተናገረ	-759
▁ከእናንተ	-760
▁እግዚአብሔር።	-761
በሰ	-762
▁አፍ	-763
▁ፍሬ	-764
ገደ	-765
▁ብላ	-766
ብን	-767
ልክት	-768
▁ስላ	-769
▁ኃይ	-770
ቸውንም	-771
▁ዳዊትም	-772
ና፤	-773
▁ርስ	-774
ጡ።	-775
▁ፈጽ	-776
▁ነገሥ	-777
▁ድንኳ	-778
ሁ፤	-779
ታው	-780
▁መጥ	-781
▁አራ	-782
▁ራስ	-783
▁በት	-784
ሮን	-785
▁ሂ	-786
▁ሴት	-787
▁ካህ	-788
▁ነገድ	-789
ዱም	-790
▁ኤል	-791
▁እር	-792
ር፥	-793
▁በፊት	-794
ነግ	-795
ዘው	-796
ድና	-797
▁ስን	-798
▁ናቸው።	-799
▁ለእስራኤል	-800
ድ፥	-801
▁ሥር	-802
▁ከዚያም	-803
ረብ	-804
ዖን	-805
ቀመጥ	-806
ሱም	-807
ሠዊያ	-808
ሞት	-809
▁በቤ	-810
▁የሰው	-811
▁በይሁዳ	-812
▁ከእርሱም	-813
▁ይሆን	-814
ርን	-815
ኢዮ	-816
▁በእኔ	-817
ልስጥኤማ	-818
ለን	-819
ሊት	-820
ውል	-821
▁በነ	-822
▁የእስራኤልም	-823
ቅም	-824
▁የታ	-825
▁ይጠ	-826
▁ያለው	-827
ማግ	-828
▁ሳኦ	-829
ገቡ	-830
▁ግብ	-831
ጆች	-832
ፎች	-833
ዋል።	-834
▁በስ	-835
▁ለም	-836
ሴፍ	-837
ታን	-838
▁ተከ	-839
▁በዚያን	-840
▁የእግዚአብሔርም	-841
ትንም	-842
▁ሰባ	-843
▁ይመጣ	-844
▁በከ	-845
▁ደግሞም	-846
ገኘ	-847
▁ቍርባን	-848
▁ከን	-849
ተኛውም	-850
▁ቍጣ	-851
▁አጥ	-852
ሩ፥	-853
ግባ	-854
▁ነበር፥	-855
ረሰ	-856
▁በሁ	-857
▁መታ	-858
▁የሌ	-859
▁አድርገ	-860
ሳን	-861
ጠላ	-862
▁በሌ	-863
▁የቀ	-864
▁ምንም	-865
▁አባት	-866
▁ትእዛዝ	-867
▁ከእነርሱ	-868
ለህ፤	-869
ማግሌ	-870
▁በብ	-871
▁መዛሙር	-872
ገል	-873
▁ትን	-874
ላለ	-875
▁ረ	-876
ች፤	-877
▁የለም	-878
▁በኢየሩሳሌም	-879
ወድ	-880
ጽሐ	-881
▁ሀያ	-882
▁አሉ።	-883
▁አድርጎ	-884
ቴን	-885
▁ጉ	-886
▁እው	-887
▁ወይስ	-888
▁የሠራዊት	-889
ደው	-890
ንም፥	-891
▁በበ	-892
▁ጥበ	-893
▁ተቀም	-894
ባል	-895
ዘጋ	-896
▁ሰም	-897
▁አሰ	-898
▁ሕዝቡም	-899
መው	-900
▁ቁ	-901
▁አራት	-902
▁ባሪያዎች	-903
ታል።	-904
ንም።	-905
ንድር	-906
ሶች	-907
ጀመ	-908
▁መብ	-909
▁ዘር	-910
ሮስ	-911
ለውን	-912
▁ምሕ	-913
▁ይቀ	-914
▁ይሁዳ	-915
እክ	-916
ለት።	-917
በትን	-918
ደረግ	-919
▁ልጆች፥	-920
ላሳ	-921
ጡ፥	-922
ረውን	-923
▁ለሰ	-924
▁በቅ	-925
▁ያሉ	-926
▁መቅደ	-927
▁ወንድሞ	-928
ሳችሁ	-929
▁ያዕቆ	-930
ታችን	-931
▁መንገ	-932
▁ሙሴም	-933
▁በእነ	-934
ሉም	-935
ሥር	-936
ውሎ	-937
ያም	-938
ደነ	-939
▁እንድት	-940
ሄዳ	-941
አል።	-942
▁ይሆናል፤	-943
▁መር	-944
ቀመጠ	-945
▁ፈር	-946
▁ኢየሱስም	-947
ርኮ	-948
ታም	-949
ሳቸው	-950
▁በዘ	-951
▁ነፍስ	-952
▁ኪዳን	-953
ሩ፤	-954
▁በጥ	-955
▁አውራ	-956
▁እያንዳን	-957
ምህ	-958
ረደ	-959
ድቃ	-960
ቢሎን	-961
▁ባል	-962
ጀመሪያ	-963
▁እውነት	-964
▁ነገሥታት	-965
ከብ	-966
ዋል፤	-967
▁መልሶ	-968
▁ቅዱስ	-969
▁በሰማ	-970
▁ተስፋ	-971
▁ቸ	-972
ለህ፥	-973
▁ሆን	-974
▁ሊያ	-975
በዛ	-976
ብዓ	-977
ኑን	-978
ዱ፥	-979
▁ምንድር	-980
ደርገ	-981
▁የል	-982
▁ይፈ	-983
▁ናቸው፤	-984
▁ኢየሩሳሌም	-985
ዊው	-986
▁ወዲ	-987
▁ደም	-988
▁አስቀድ	-989
ነው	-990
ጸና	-991
መለከ	-992
ባቶቻ	-993
ነበረ	-994
▁ለል	-995
▁ሆነ፤	-996
▁ይህም	-997
▁እንዲያ	-998
ኖስ	-999
▁ሚስ	-1000
▁ገደ	-1001
ንቀ	-1002
ዛት	-1003
ጆሮ	-1004
ለች፤	-1005
ሩትን	-1006
ናገራ	-1007
▁ፍርድ	-1008
▁ሽማግሌ	-1009
▁አደረጉ	-1010
ሁድ	-1011
ይም	-1012
▁ታላ	-1013
▁በቀር	-1014
▁መሠዊያ	-1015
▁አወ	-1016
▁እጁ	-1017
▁የዘ	-1018
▁ልብስ	-1019
▁በእውነት	-1020
▁በዙሪያ	-1021
▁አንተም	-1022
▁የከ	-1023
▁ሰሎሞ	-1024
ርቶ	-1025
ሱስ	-1026
ኑ።	-1027
ጡ፤	-1028
▁ዐ	-1029
▁ጌ	-1030
▁ለወ	-1031
▁ደቀ	-1032
▁ነፍሴ	-1033
ለማ	-1034
ቈጠ	-1035
ዱ።	-1036
ለች፥	-1037
▁የይሁዳ	-1038
ሄዱ	-1039
ላት	-1040
▁ሞተ	-1041
▁በእናንተ	-1042
ሬም	-1043
▁ነውና	-1044
ልኝ	-1045
ቴና	-1046
በትም	-1047
ግብጽ	-1048
አቸው።	-1049
▁በአን	-1050
ሰሙ	-1051
ቶቹ	-1052
ባችሁ	-1053
ደሪያ	-1054
ጽሐፍ	-1055
▁ያዘ	-1056
ላችሁ፤	-1057
ቅያስ	-1058
ልጣ	-1059
ሽን	-1060
ያዕቆ	-1061
▁ጽድቅ	-1062
መነ	-1063
ሜን	-1064
ብስ	-1065
ቸዋል።	-1066
ረድ	-1067
ሸከ	-1068
ዓብ	-1069
▁ወጥ	-1070
▁የሞ	-1071
▁ድንኳን	-1072
▁መሰ	-1073
▁ይለ	-1074
▁የምታ	-1075
▁በአንተ	-1076
▁ያደርጋ	-1077
▁ከእነርሱም	-1078
ራም	-1079
ቅል	-1080
አል፤	-1081
▁ጠራ	-1082
ለዳ	-1083
ምር	-1084
▁ነፋ	-1085
ድማ	-1086
ድጓ	-1087
▁ጮ	-1088
ዳዊት	-1089
▁መከራ	-1090
▁ብርሃ	-1091
▁እንኳ	-1092
ቦት	-1093
ኑ፥	-1094
ገኝ	-1095
▁ከባ	-1096
▁መጣ።	-1097
▁ሙሴን	-1098
▁ሚስት	-1099
▁ሰላም	-1100
▁ሰይፍ	-1101
▁በውኑ	-1102
▁ነበርና	-1103
▁ነኝ	-1104
▁ባሕር	-1105
ችል	-1106
▁ሌዋ	-1107
▁የደ	-1108
▁እርስ	-1109
▁ስለዚህም	-1110
ቢት	-1111
▁መጥቶ	-1112
▁የሚያስ	-1113
ረጋ	-1114
ስ፥	-1115
ራቸው	-1116
ዋንም	-1117
ላችሁ፥	-1118
▁መልአ	-1119
ስሐ	-1120
ሆን፥	-1121
▁ርስት	-1122
ለቆ	-1123
▁በፈ	-1124
▁ስድስት	-1125
▁ነበረ፥	-1126
ዶም	-1127
▁የምድር	-1128
▁የእስራኤልን	-1129
ቴም	-1130
ፀሐ	-1131
ቻቸውም	-1132
▁ዳርቻ	-1133
▁ነበሩ፤	-1134
ህ።	-1135
ስማ	-1136
ሽም	-1137
ጋና	-1138
▁ጫ	-1139
▁ምና	-1140
▁ጠጅ	-1141
▁ነገሠ	-1142
▁ለአንተ	-1143
▁የወይን	-1144
▁ለባ	-1145
▁ቤተ	-1146
ሰጥ	-1147
ምላካ	-1148
ችንን	-1149
▁ለብ	-1150
▁በለ	-1151
▁ገባ	-1152
▁ለምን	-1153
▁መለሰ	-1154
▁ቢሆን	-1155
ቀደሰ	-1156
▁ሦስ	-1157
▁ተወ	-1158
▁ይገባ	-1159
▁ወንድሞች	-1160
ራችሁ	-1161
ታቸውን	-1162
▁አንቺ	-1163
▁የሚቃጠ	-1164
ቀው	-1165
ቂት	-1166
ያ፥	-1167
ርነት	-1168
▁ንጹ	-1169
▁በሕይወት	-1170
▁ሁል	-1171
▁በኤ	-1172
▁ጠብ	-1173
▁ባለው	-1174
▁እሳት	-1175
▁ድንጋይ	-1176
ሥጋ	-1177
ዬን	-1178
▁ቈ	-1179
▁ኖ	-1180
▁ላከ	-1181
▁ነቢ	-1182
▁ዛፍ	-1183
▁አመጣ	-1184
ሩሳሌምም	-1185
▁አምሳ	-1186
▁በመካከ	-1187
ሉን	-1188
ሱ።	-1189
▁በረ	-1190
▁አምላክህ	-1191
▁ጎ	-1192
ቹንም	-1193
▁አድ	-1194
▁ከማ	-1195
▁ልጅ፥	-1196
▁ሰማይ	-1197
▁በላይ	-1198
▁መጽሐፍ	-1199
▁እንዳዘ	-1200
ሙን	-1201
ሞታ	-1202
ቀቅ	-1203
▁ሜ	-1204
▁ቀር	-1205
▁በእሳት	-1206
▁እርስዋም	-1207
ብ፥	-1208
▁የና	-1209
▁የኤ	-1210
▁በከተ	-1211
▁ወርቅ	-1212
▁ሁልጊዜ	-1213
▁መንግሥት	-1214
▁እንዲሁም	-1215
ርሃ	-1216
ባኤ	-1217
ብሎ	-1218
ነዓ	-1219
ዩም	-1220
ዮን	-1221
ልና፤	-1222
▁ማኅ	-1223
▁በሬ	-1224
▁ከበ	-1225
▁እንስ	-1226
ርና	-1227
ፈው	-1228
ኮረብ	-1229
▁በጽ	-1230
▁ተና	-1231
▁የፍ	-1232
▁ለእኔ	-1233
ህ፤	-1234
ሉአ	-1235
ወስ	-1236
ጳውሎ	-1237
▁ይዞ	-1238
▁በድን	-1239
▁ዮሴፍ	-1240
▁በምድረ	-1241
▁በሰይፍ	-1242
ምነት	-1243
ትንና	-1244
▁ይህንም	-1245
▁ኃያ	-1246
▁እባ	-1247
▁አንዳ	-1248
▁አወጣ	-1249
▁እንዳት	-1250
▁እንዲሆን	-1251
ተህ	-1252
ካህና	-1253
▁በፊቱ	-1254
▁ቤቶች	-1255
▁የጌታ	-1256
ዋል	-1257
ጴጥ	-1258
ብርሃ	-1259
▁ልት	-1260
▁ምድረ	-1261
▁ምድሪ	-1262
ቡ።	-1263
ችሁ፥	-1264
▁ሲል	-1265
▁ተራ	-1266
▁አሮ	-1267
▁ዕጣ	-1268
በው	-1269
ለሁና	-1270
▁ያን	-1271
ናት	-1272
ጡት	-1273
▁ሮ	-1274
መለስ	-1275
▁ርኩ	-1276
▁ገብ	-1277
▁ፈቃ	-1278
▁አሳልፎ	-1279
▁አድርግ	-1280
ብህ	-1281
ሙኤል	-1282
▁አካ	-1283
▁የዮ	-1284
▁ሆነ፥	-1285
▁ምርኮ	-1286
▁በጌታ	-1287
▁ተነሣ	-1288
▁በንጉሡ	-1289
ዎችም	-1290
ፋንታ	-1291
▁ለራ	-1292
▁ቅን	-1293
▁ከጥ	-1294
▁ጆሮ	-1295
▁ጊዜም	-1296
▁አደርጋ	-1297
▁ከሰማይ	-1298
ረክ	-1299
ዘን	-1300
ዎቹም	-1301
▁የክ	-1302
▁የኢየ	-1303
▁ከምድር	-1304
ለ።	-1305
መድ	-1306
ረኛ	-1307
ርሳ	-1308
ሰት	-1309
ጠጣ	-1310
ፈሩ	-1311
ችው።	-1312
▁ይኖራ	-1313
በሩ	-1314
ንዘ	-1315
አል	-1316
ካም	-1317
ገሩ	-1318
ገኙ	-1319
▁ምክ	-1320
▁የነ	-1321
▁የዓ	-1322
▁ይታ	-1323
▁አሥር	-1324
▁ይሁን።	-1325
ይቱ	-1326
ለህን	-1327
ቻችሁ	-1328
ዳቸው	-1329
ፈሪያ	-1330
▁አበ	-1331
▁ከሁ	-1332
ታቸውም	-1333
▁ሠላሳ	-1334
▁ትሆና	-1335
▁ናቸው	-1336
▁አገል	-1337
▁ዓለም	-1338
▁መልአክ	-1339
▁ተቀመጠ	-1340
ጠበ	-1341
መልስ	-1342
▁መጋ	-1343
▁የሕ	-1344
▁ይመ	-1345
▁ይነ	-1346
▁ጴጥ	-1347
ርምያስ	-1348
▁ታውቃ	-1349
▁ግን።	-1350
▁እናንተም	-1351
ልጥ	-1352
▁ልጄ	-1353
▁ፈጥ	-1354
▁ወጥቶ	-1355
▁ፋንታ	-1356
▁ከእንግ	-1357
▁አማልክት	-1358
ምት	-1359
ሱ፥	-1360
ብራ	-1361
ዱ፤	-1362
ጠቀ	-1363
▁ዔ	-1364
▁ባይ	-1365
▁እንጨ	-1366
▁ወሰደ	-1367
▁እንዳል	-1368
▁ያደረገ	-1369
▁በእግዚአብሔርም	-1370
ቁ።	-1371
ኢያ	-1372
ሥራቅ	-1373
▁ከደ	-1374
ልንጀራ	-1375
▁ይወጣ	-1376
▁አልነበረ	-1377
ቤል	-1378
ጊያ	-1379
ጠብቅ	-1380
▁ጕል	-1381
▁ሕያው	-1382
▁ምሳሌ	-1383
ዮች	-1384
▁አዳ	-1385
▁ሁሉን	-1386
▁ዓይን	-1387
▁የአባ	-1388
ኝም	-1389
ጽና	-1390
▁ቦ	-1391
ለን።	-1392
▁ቢያ	-1393
▁ነቢያ	-1394
▁እርሻ	-1395
▁ይበላ	-1396
▁ተናገር	-1397
▁አደባባ	-1398
▁ወንዶች	-1399
▁ፍልስጥኤማ	-1400
ላል	-1401
ሙሴ	-1402
ሴሎ	-1403
▁መዝ	-1404
▁ዘይ	-1405
▁የራ	-1406
▁አለኝ።	-1407
▁ለእናንተ	-1408
ሎት	-1409
ፍታ	-1410
▁ስማ	-1411
ውያንን	-1412
▁ትውል	-1413
▁አርባ	-1414
▁አንዲ	-1415
▁አጠፋ	-1416
▁ይሰጣ	-1417
▁ጳውሎ	-1418
ለሽ	-1419
ኅን	-1420
ወቅ	-1421
ጻፈ	-1422
▁ከእኛ	-1423
▁የተባ	-1424
ሳኦ	-1425
ቃጥ	-1426
ውቅ	-1427
ፍት	-1428
▁ስት	-1429
▁አክ	-1430
▁ይዘ	-1431
ላቸውም	-1432
ላቸው።	-1433
▁ምሕረ	-1434
▁በፊትህ	-1435
▁ካህኑም	-1436
ሁት	-1437
ኃኒ	-1438
መሰግ	-1439
ምላክ	-1440
ሶርያ	-1441
▁ቀረ	-1442
▁ባየ	-1443
▁ወራት	-1444
▁መልሶ።	-1445
▁በታላቅ	-1446
▁እስራኤልም	-1447
ኸው	-1448
ደድ	-1449
▁ክፍ	-1450
▁አስቀድሞ	-1451
▁ርኵ	-1452
▁አር	-1453
▁አቤ	-1454
ሠዊያው	-1455
▁ተቀመጡ	-1456
▁የንጉሡ	-1457
▁በአሕዛብ	-1458
▁ፋ	-1459
ውንና	-1460
ድኃኒ	-1461
ፍሬም	-1462
▁ከክ	-1463
▁ወዮ	-1464
▁የብ	-1465
▁ንጹሕ	-1466
▁ዙሪያ	-1467
▁ድንጋ	-1468
▁ሕዝቡን	-1469
▁በሰማይ	-1470
▁እላችኋ	-1471
▁አይደለምን	-1472
▁እነርሱም።	-1473
መር	-1474
መኑ	-1475
ታል፤	-1476
ገለግ	-1477
▁ታስ	-1478
▁ገለ	-1479
▁ወዲያ	-1480
▁የተወ	-1481
ስና	-1482
ብና	-1483
ትህ	-1484
ገኛ	-1485
ጠኝ	-1486
ናገሩ	-1487
▁ተማ	-1488
▁ይባ	-1489
▁ከአባ	-1490
▁ሽማግሌዎች	-1491
ሰድ	-1492
▁ለተ	-1493
▁ሕፃ	-1494
▁ተለ	-1495
▁ይከ	-1496
ቶቻቸው	-1497
▁በእር	-1498
▁ወስዶ	-1499
▁ጉባኤ	-1500
▁ፈጽሞ	-1501
▁በግብፅ	-1502
▁በእርሱም	-1503
▁አደረገ።	-1504
በስ	-1505
▁ጐ	-1506
ችንና	-1507
አል፥	-1508
ዳችሁ	-1509
▁መግ	-1510
▁ሳለ	-1511
▁የይ	-1512
▁ያሳ	-1513
▁ብለህ	-1514
▁ታቦት	-1515
▁አንበ	-1516
▁እሰጣ	-1517
▁አምላኬ	-1518
ረግ	-1519
ቡ፥	-1520
ነትም	-1521
▁ሰጣ	-1522
▁ሆነው	-1523
▁ሰውም	-1524
▁ወዲህ	-1525
▁ጥቂት	-1526
▁ሥርዓት	-1527
▁እንደዚህ	-1528
ለበት	-1529
ላል።	-1530
ዋል፥	-1531
▁መቅ	-1532
▁ቀድ	-1533
▁በሐ	-1534
▁በዮ	-1535
▁ብዬ	-1536
ርዳኖስ	-1537
▁በእጁ	-1538
▁በእጅ	-1539
▁ብርሃን	-1540
▁ተነሥቶ	-1541
▁የለም።	-1542
▁የወርቅ	-1543
ርድ	-1544
ቁ፥	-1545
ነፍ	-1546
ጹም	-1547
▁በኵ	-1548
▁የፈ	-1549
▁ሆነ።	-1550
▁በሁለ	-1551
▁ጌታዬ	-1552
▁ምስክር	-1553
▁ትንቢት	-1554
▁አብርሃ	-1555
▁ወለደ፤	-1556
▁የተቀደሰ	-1557
ንቃ	-1558
▁ጦ	-1559
▁ውጭ	-1560
ቶቼ	-1561
ውጣ	-1562
ሩንም	-1563
ንድሞ	-1564
ፀሐይ	-1565
▁ብታ	-1566
▁ከቶ	-1567
▁ከንቱ	-1568
▁የተሰ	-1569
▁ጻድቅ	-1570
▁ምክንያ	-1571
▁ብላቴና	-1572
ላን	-1573
ያት	-1574
▁አፈ	-1575
▁ዮሐ	-1576
▁ሆንሁ	-1577
▁በውኃ	-1578
▁ሳሙኤል	-1579
ለኛ	-1580
ነትን	-1581
▁ርኩስ	-1582
▁ኃይል	-1583
▁ያህል	-1584
ሠሩ	-1585
ረጃ	-1586
ተና	-1587
ዝራ	-1588
▁መቃ	-1589
▁ዝም	-1590
ቻቸውን	-1591
▁አለ፤	-1592
▁ወደሚ	-1593
▁የቀረ	-1594
መቱ	-1595
ወጡ	-1596
ዋጋ	-1597
▁ሎ	-1598
▁ከፈ	-1599
▁ብዛት	-1600
▁በእርስዋ	-1601
ሙት	-1602
ውና	-1603
ማይቱ	-1604
በት።	-1605
ታል፥	-1606
▁ትሰ	-1607
▁ከሌ	-1608
ኃጢአት	-1609
▁ሁሉም	-1610
▁መጠን	-1611
▁እስክ	-1612
▁እኔን	-1613
▁ያስተ	-1614
▁ያወጣ	-1615
▁ገንዘ	-1616
▁በመንገድ	-1617
ሞን	-1618
▁ዱ	-1619
ለም።	-1620
ንያም	-1621
▁ለሌ	-1622
▁ሕዝቤ	-1623
▁ሰረገ	-1624
▁ያውቃ	-1625
▁አይሁድ	-1626
▁ኤርምያስ	-1627
ማን	-1628
ተኞ	-1629
ድዳ	-1630
▁ዙ	-1631
▁በድ	-1632
አብርሃ	-1633
▁ወዴት	-1634
▁ለእርሱ	-1635
▁አድርጌ	-1636
▁ከግብፅ	-1637
ሞራ	-1638
ቡ፤	-1639
ታል	-1640
ኃይ	-1641
▁ተፈ	-1642
▁ተቀምጦ	-1643
▁እንዳለ	-1644
▁ይሁን፤	-1645
ሙ።	-1646
ምጣ	-1647
ፍረ	-1648
ጠብቁ	-1649
▁ተከተ	-1650
ረዳ	-1651
ከት	-1652
ውቁ	-1653
ድል	-1654
▁ሣ	-1655
▁ኑ	-1656
▁ዲ	-1657
ሃል።	-1658
▁ራሳ	-1659
▁ሰን	-1660
▁ሄደ።	-1661
▁አዘዘ	-1662
▁ከእንግዲህ	-1663
▁የነበረውን	-1664
▁በኢየሩሳሌምም	-1665
ስታ	-1666
ፍጥ	-1667
ላቸዋ	-1668
በት፥	-1669
ድጓድ	-1670
▁ከፊ	-1671
▁ዘመ	-1672
ራቸው።	-1673
▁ሁለቱ	-1674
▁በከን	-1675
▁ሕይወት	-1676
▁መልእክ	-1677
▁ነውና።	-1678
▁አድርጉ	-1679
ላው	-1680
መኛ	-1681
ማት	-1682
ሬት	-1683
ቆም	-1684
ክል	-1685
ዓዛ	-1686
ዕራ	-1687
ለችው	-1688
ናችሁ	-1689
▁በሦ	-1690
▁ይል	-1691
▁ባድማ	-1692
▁ተብሎ	-1693
▁ወንዝ	-1694
▁ምክንያት	-1695
ኖረ	-1696
ኋችሁ	-1697
ንጉሥ	-1698
▁ትዕ	-1699
ስተኛው	-1700
▁ሌሊት	-1701
▁በሕዝ	-1702
▁ክፍል	-1703
▁የዚያ	-1704
▁ምልክት	-1705
ገዙ	-1706
ሆነው	-1707
▁	-1708
ን	-1709
ም	-1710
አ	-1711
በ	-1712
እ	-1713
ር	-1714
ው	-1715
ል	-1716
ት	-1717
ለ	-1718
ስ	-1719
የ	-1720
ይ	-1721
።	-1722
ነ	-1723
መ	-1724
ደ	-1725
፥	-1726
ብ	-1727
ና	-1728
ች	-1729
ድ	-1730
ተ	-1731
ያ	-1732
ከ	-1733
ሁ	-1734
ግ	-1735
ላ	-1736
ወ	-1737
ህ	-1738
ሰ	-1739
ገ	-1740
ራ	-1741
፤	-1742
ረ	-1743
ባ	-1744
ታ	-1745
ዚ	-1746
ሉ	-1747
ማ	-1748
ቸ	-1749
ቀ	-1750
ጠ	-1751
ዘ	-1752
ዳ	-1753
ፍ	-1754
ሆ	-1755
ሱ	-1756
ሔ	-1757
ሳ	-1758
ቅ	-1759
ክ	-1760
ጥ	-1761
ሚ	-1762
ዋ	-1763
ፈ	-1764
ቱ	-1765
ሩ	-1766
ጋ	-1767
ጣ	-1768
ሥ	-1769
ቶ	-1770
ሞ	-1771
ቃ	-1772
ሕ	-1773
ካ	-1774
ዲ	-1775
ኤ	-1776
ዝ	-1777
ዓ	-1778
ቤ	-1779
ጅ	-1780
ኛ	-1781
ጉ	-1782
ዛ	-1783
ኝ	-1784
ዎ	-1785
ሌ	-1786
ሎ	-1787
ኑ	-1788
ኔ	-1789
ጆ	-1790
ሙ	-1791
ሮ	-1792
ፋ	-1793
ዱ	-1794
ጊ	-1795
ቢ	-1796
ሴ	-1797
ኢ	-1798
ኖ	-1799
?	-1800
ፊ	-1801
ሠ	-1802
ሪ	-1803
ዜ	-1804
ቡ	-1805
ዕ	-1806
ቻ	-1807
ዊ	-1808
ቆ	-1809
ሽ	-1810
ጡ	-1811
ዮ	-1812
ኃ	-1813
ጽ	-1814
ቹ	-1815
ኋ	-1816
ጌ	-1817
ሬ	-1818
ዙ	-1819
ቁ	-1820
ሃ	-1821
ሊ	-1822
ዶ	-1823
ሐ	-1824
ሸ	-1825
ቴ	-1826
ሄ	-1827
ፉ	-1828
ጀ	-1829
ሣ	-1830
ጸ	-1831
ሶ	-1832
ሲ	-1833
ጢ	-1834
ሜ	-1835
ሡ	-1836
ሻ	-1837
ጨ	-1838
ዩ	-1839
ጎ	-1840
ኪ	-1841
ጻ	-1842
ቍ	-1843
ኩ	-1844
ቦ	-1845
ጭ	-1846
ኞ	-1847
ዬ	-1848
ዴ	-1849
ኮ	-1850
ጃ	-1851
ቈ	-1852
ሦ	-1853
ጁ	-1854
ቼ	-1855
ፎ	-1856
ቂ	-1857
ፅ	-1858
ጦ	-1859
ጕ	-1860
ኳ	-1861
ኅ	-1862
ኸ	-1863
ዖ	-1864
ኵ	-1865
ጫ	-1866
ሺ	-1867
ጂ	-1868
ኦ	-1869
ሀ	-1870
ጐ	-1871
ኘ	-1872
ዞ	-1873
ኬ	-1874
ፀ	-1875
ጹ	-1876
ጮ	-1877
ጄ	-1878
ጓ	-1879
ዔ	-1880
ፌ	-1881
ሹ	-1882
ሾ	-1883
ቄ	-1884
ቲ	-1885
ፃ	-1886
ሂ	-1887
ኒ	-1888
ቺ	-1889
ኙ	-1890
ቋ	-1891
ጳ	-1892
!	-1893
ኰ	-1894
ዐ	-1895
ኣ	-1896
ጩ	-1897
ጤ	-1898
ጴ	-1899
ዌ	-1900
ኀ	-1901
ዉ	-1902
ዑ	-1903
ፁ	-1904
ሤ	-1905
ኹ	-1906
ጾ	-1907
ዣ	-1908
ሖ	-1909
ዥ	-1910
ጵ	-1911
ኽ	-1912
ፆ	-1913
ኜ	-1914
ኻ	-1915
ጪ	-1916
ጲ	-1917
ሑ	-1918
ኆ	-1919
ዪ	-1920
ዒ	-1921
a	-1922
ሒ	-1923
ሼ	-1924
ዠ	-1925
ጶ	-1926
W	-1927
ዢ	-1928
ኡ	-1929
ኚ	-1930
ጼ	-1931
ጺ	-1932
ጬ	-1933
ዦ	-1934
ዤ	-1935
ሢ	-1936
ቾ	-1937
ሓ	-1938
ዡ	-1939
ፄ	-1940
K	-1941
g	-1942
ኄ	-1943
r	-1944
ኾ	-1945
ጰ	-1946
ጱ	-1947
k	-1948
ቧ	-1949
ፔ	-1950
ፕ	-1951
T	-1952
ኺ	-1953
d	-1954
*	-1955
1	-1956
v	-1957
"	-1958
l	-1959
ሷ	-1960
ፐ	-1961
ፓ	-1962
2	-1963
s	-1964
D	-1965
3	-1966
[	-1967
]	-1968
o	-1969
ፑ	-1970
ፒ	-1971
(	-1972
)	-1973
-	-1974
5	-1975
A	-1976
e	-1977
ቊ	-1978
ዷ	-1979
ፂ	-1980
0	-1981
4	-1982
@	-1983
b	-1984
m	-1985
u	-1986
ሏ	-1987
ቷ	-1988
ቿ	-1989
ኗ	-1990
ኟ	-1991
ኲ	-1992
ኼ	-1993
ጒ	-1994
ጧ	-1995
ፏ	-1996
