<pad>	0
</s>	0
<unk>	0
,	-2.54965
.	-3.52613
▁a	-3.60801
i	-4.29936
▁	-4.30914
▁v	-4.38435
▁se	-4.47361
m	-4.62101
▁na	-4.71195
a	-4.71916
▁z	-4.77483
:	-4.81343
▁s	-4.87618
▁A	-4.91742
▁k	-4.92942
u	-5.01845
▁i	-5.08017
o	-5.16919
e	-5.2033
r	-5.21085
í	-5.23364
▁jest	-5.28482
▁po	-5.28675
▁jeho	-5.30766
;	-5.31531
y	-5.33149
ch	-5.39
v	-5.40634
ž	-5.43329
▁do	-5.43439
l	-5.45155
▁pak	-5.45809
ť	-5.4718
▁I	-5.4789
s	-5.51
te	-5.52991
▁že	-5.55698
t	-5.58597
▁za	-5.58751
z	-5.61191
li	-5.61574
k	-5.61851
á	-5.61898
▁u	-5.65799
▁od	-5.6745
p	-5.6794
d	-5.68423
▁Hospodin	-5.68905
š	-5.7035
▁jsem	-5.71781
ě	-5.73688
?	-5.8056
h	-5.87818
▁by	-5.89397
ní	-5.91217
▁vy	-5.91321
▁aby	-5.91633
ou	-5.95738
▁řekl	-5.96728
▁o	-5.9867
▁bude	-5.99381
ů	-6.02653
▁to	-6.02887
la	-6.03427
▁při	-6.08129
ce	-6.08291
▁byl	-6.10044
le	-6.11002
▁když	-6.12452
▁tak	-6.12799
em	-6.12819
▁jejich	-6.13112
b	-6.13551
ho	-6.13776
▁před	-6.14729
▁je	-6.15907
ti	-6.17653
na	-6.18636
▁ne	-6.20215
▁své	-6.20491
▁jako	-6.21051
▁nebo	-6.21249
▁kterýž	-6.22282
st	-6.24037
▁kteříž	-6.24211
ra	-6.24803
é	-6.27757
n	-6.32211
▁pro	-6.32242
ý	-6.33647
▁mne	-6.36237
▁p	-6.36749
il	-6.36975
č	-6.36997
▁svého	-6.38607
▁jsou	-6.40158
ně	-6.41744
ni	-6.43637
▁Nebo	-6.4383
▁ale	-6.48558
ovi	-6.51389
en	-6.51515
▁S	-6.5209
▁ho	-6.52393
▁jim	-6.54577
ře	-6.56721
▁jsi	-6.57065
▁Bůh	-6.57544
▁kteréž	-6.58145
▁já	-6.59134
j	-6.59504
▁země	-6.60733
▁proti	-6.6246
▁jemu	-6.62529
me	-6.63038
to	-6.63928
▁toho	-6.63964
▁zemi	-6.6404
▁mi	-6.65326
ná	-6.66767
▁také	-6.66979
▁nad	-6.67527
mu	-6.67701
▁lid	-6.68354
▁ten	-6.70809
né	-6.71407
▁tobě	-6.72188
▁budou	-6.72531
lo	-6.7357
▁ty	-6.74088
▁jej	-6.74116
▁až	-6.76226
▁Tedy	-6.76681
▁Ne	-6.79566
-	-6.80141
▁král	-6.81021
▁byli	-6.82445
▁Ale	-6.82487
c	-6.83112
▁vám	-6.84591
▁svou	-6.85256
▁pod	-6.85484
ova	-6.86601
▁tě	-6.86611
▁domu	-6.86991
an	-6.87132
ové	-6.87317
▁ob	-6.87765
ku	-6.87775
vá	-6.87793
ka	-6.88278
el	-6.88375
no	-6.8914
▁roz	-6.89151
▁což	-6.89937
še	-6.90281
mi	-6.90487
▁svých	-6.9163
▁V	-6.91682
▁má	-6.92148
ří	-6.92961
▁vás	-6.9516
▁Z	-6.96175
▁ve	-6.96201
▁mé	-6.96467
▁syn	-6.9822
al	-6.98504
▁tvé	-6.9915
▁h	-7.01106
ého	-7.01121
▁sobě	-7.01528
▁K	-7.0179
▁ani	-7.02748
nu	-7.03371
▁Protož	-7.03542
lí	-7.04659
uje	-7.04842
ci	-7.04928
ky	-7.05287
ta	-7.06007
▁bylo	-7.06406
ma	-7.0673
tí	-7.07307
▁Boha	-7.07784
mezi	-7.09085
▁lidu	-7.09795
▁ji	-7.11238
▁synů	-7.11242
▁praví	-7.11442
▁jste	-7.11949
▁Po	-7.13138
jí	-7.13841
▁on	-7.14197
▁dal	-7.1467
▁d	-7.15071
lé	-7.15796
že	-7.15936
▁všecky	-7.16049
▁můj	-7.16049
po	-7.16403
če	-7.16904
▁b	-7.17576
ím	-7.17877
iti	-7.18785
da	-7.1941
ví	-7.19993
ne	-7.20393
ř	-7.20675
▁synové	-7.21098
▁tedy	-7.21229
ší	-7.21338
▁Hospodinu	-7.2163
▁den	-7.21916
cí	-7.23088
▁všech	-7.23334
je	-7.24752
▁ním	-7.25091
▁mně	-7.25386
▁pře	-7.25446
▁m	-7.25728
za	-7.25818
dě	-7.26006
on	-7.26542
ný	-7.26624
▁syna	-7.26932
nou	-7.26967
ze	-7.2727
▁těch	-7.27383
lu	-7.27482
ko	-7.27661
ň	-7.27663
▁všickni	-7.27788
▁kteráž	-7.28066
▁Ježíš	-7.28392
▁jeden	-7.29046
▁tu	-7.29423
ův	-7.29506
at	-7.29728
▁kdo	-7.29899
lá	-7.29932
▁jsme	-7.3017
ých	-7.30225
▁P	-7.30613
▁její	-7.30722
▁řka	-7.31025
▁dí	-7.31592
dí	-7.31958
ili	-7.31979
▁mluvil	-7.32158
oval	-7.32293
tě	-7.33146
skrze	-7.33162
▁srdce	-7.33338
▁všecko	-7.34219
▁Boží	-7.34306
ení	-7.34591
▁svým	-7.34834
va	-7.35227
▁dne	-7.35841
ům	-7.36876
▁aniž	-7.37245
▁zajisté	-7.37673
▁M	-7.37689
▁byla	-7.38349
▁krále	-7.38425
sa	-7.38937
▁(	-7.39213
▁Hospodina	-7.39466
▁nás	-7.39883
▁obět	-7.39995
or	-7.41178
mo	-7.41346
▁učinil	-7.41652
▁tvůj	-7.41886
▁David	-7.43075
ru	-7.43206
▁O	-7.4326
▁Aj	-7.43665
ři	-7.43805
f	-7.45005
tá	-7.45323
▁B	-7.45683
▁mu	-7.46357
▁věci	-7.47175
▁co	-7.47206
▁pos	-7.4728
▁není	-7.47421
▁jich	-7.47948
▁tebe	-7.47963
dá	-7.48844
ad	-7.49416
▁budu	-7.495
▁svému	-7.50424
▁kdož	-7.50894
de	-7.51163
▁nich	-7.51741
ám	-7.52291
ej	-7.52427
▁té	-7.52474
▁tam	-7.52534
iáš	-7.52554
▁jakž	-7.52635
▁Na	-7.53033
▁města	-7.53281
▁kterouž	-7.54796
▁ti	-7.54885
▁živ	-7.56046
▁jméno	-7.56073
ly	-7.56219
▁každý	-7.56293
či	-7.56408
nost	-7.57424
▁více	-7.58017
▁měl	-7.58045
ovati	-7.58166
▁vz	-7.58582
ech	-7.58887
ští	-7.59279
▁králi	-7.59713
g	-7.60198
ách	-7.60375
▁něho	-7.60402
▁ke	-7.61049
▁aj	-7.61136
vr	-7.61343
▁něm	-7.6165
▁Když	-7.6213
▁však	-7.62438
ny	-7.62632
▁jí	-7.62847
▁již	-7.62885
▁U	-7.63527
ného	-7.63771
▁budeš	-7.63838
ve	-7.64055
▁l	-7.64161
od	-7.64412
▁pokolení	-7.65101
val	-7.65167
ud	-7.65199
▁sedm	-7.65778
▁soud	-7.66078
▁Bohu	-7.66518
▁R	-7.66928
čí	-7.67147
koli	-7.67199
▁nám	-7.67767
▁Vy	-7.68782
ek	-7.69102
ob	-7.69766
▁pří	-7.70189
íš	-7.70246
ská	-7.70986
▁nepo	-7.71095
dl	-7.71099
▁protož	-7.71104
▁nyní	-7.71324
▁němu	-7.71517
▁D	-7.71773
▁jenž	-7.72263
▁dá	-7.72876
ových	-7.72929
▁otce	-7.7349
stav	-7.73613
▁aneb	-7.73712
ích	-7.7381
er	-7.7409
▁Mojžíš	-7.74486
▁t	-7.75623
▁budete	-7.75781
▁sta	-7.7583
us	-7.76307
▁abych	-7.77012
dlé	-7.77722
▁dům	-7.77865
▁stalo	-7.78537
▁přišel	-7.79041
ské	-7.79504
ba	-7.7984
▁ta	-7.8012
▁tebou	-7.80499
▁býti	-7.80734
it	-7.80902
▁mého	-7.80953
▁Já	-7.81003
▁ať	-7.81413
sti	-7.81664
ó	-7.81678
▁poslal	-7.81696
▁čas	-7.81736
▁slovo	-7.81966
br	-7.82158
▁ruku	-7.82395
▁Potom	-7.82395
▁To	-7.82724
▁svůj	-7.83112
▁muži	-7.83437
▁mnou	-7.83503
▁tomu	-7.84159
▁Hospodinova	-7.84248
▁všecken	-7.84323
▁tvá	-7.84589
▁ještě	-7.84812
ných	-7.84883
▁nimi	-7.84982
▁tr	-7.84991
▁království	-7.85302
▁H	-7.85746
▁ode	-7.85758
▁vaše	-7.85858
ed	-7.86507
▁E	-7.8663
▁prostřed	-7.86933
▁ze	-7.87383
ání	-7.87591
▁muž	-7.87755
▁syny	-7.88222
ují	-7.8824
▁místo	-7.88298
▁bratří	-7.8847
▁Je	-7.8939
▁T	-7.89516
▁bez	-7.89585
prav	-7.89602
▁ní	-7.89921
▁hřích	-7.90406
▁Při	-7.90456
▁Ma	-7.90732
▁ruce	-7.90871
▁slova	-7.90879
▁Hospodine	-7.90956
▁tom	-7.91015
▁Izraelský	-7.91182
▁ku	-7.91338
▁Se	-7.91341
▁proto	-7.91518
▁než	-7.91592
▁oni	-7.9184
▁svém	-7.92185
▁zase	-7.924
es	-7.92585
▁činí	-7.92875
▁nebude	-7.93031
▁ně	-7.93104
▁neb	-7.93105
án	-7.93185
▁svá	-7.9368
▁řekli	-7.94135
▁pravím	-7.94677
ha	-7.94751
in	-7.95229
ovali	-7.95367
▁jakož	-7.9541
▁š	-7.95432
ry	-7.95475
▁Saul	-7.95513
▁dva	-7.96087
▁tři	-7.96292
▁abyste	-7.96337
sil	-7.96912
▁sv	-7.96942
▁kněží	-7.97311
▁tvého	-7.97335
lož	-7.97346
ost	-7.97527
▁N	-7.9762
ských	-7.97805
trh	-7.97849
▁nebe	-7.98265
▁tvých	-7.9899
▁člověka	-7.99296
▁Za	-7.99428
▁věky	-7.99566
▁vol	-7.99617
▁nic	-8.00181
ali	-8.00279
▁všecka	-8.0041
ot	-8.00481
▁muže	-8.00672
▁abys	-8.00703
osti	-8.01303
▁člověk	-8.0204
▁Od	-8.02281
▁os	-8.02449
▁pokoj	-8.02605
▁sto	-8.0281
vati	-8.0324
tý	-8.03861
cích	-8.04084
▁jedno	-8.04248
ků	-8.04284
ování	-8.04412
▁nes	-8.0471
▁oběti	-8.0498
▁toto	-8.05503
▁sám	-8.05591
ri	-8.0571
▁svými	-8.05725
as	-8.05821
▁Zdaliž	-8.06245
▁Izraelských	-8.06257
▁synům	-8.06597
▁let	-8.06674
stup	-8.06889
pustil	-8.06915
bil	-8.07445
ši	-8.07854
ati	-8.08044
▁pa	-8.08407
▁velmi	-8.08456
ým	-8.08551
▁naše	-8.08568
▁Ty	-8.08729
▁Ch	-8.08874
bu	-8.09071
vý	-8.09555
▁rukou	-8.09699
▁duše	-8.097
vše	-8.09957
ným	-8.10098
▁moc	-8.10193
▁přikázal	-8.10328
▁sebe	-8.10409
ství	-8.1051
▁Kdo	-8.10534
▁jednoho	-8.10558
▁vůkol	-8.10644
▁neu	-8.10991
)	-8.11188
šel	-8.11979
▁něj	-8.12742
▁nej	-8.12973
▁mužů	-8.1325
▁Izraelští	-8.13257
ložil	-8.13266
▁dědictví	-8.13538
▁nev	-8.13722
▁mých	-8.13735
▁viděl	-8.13826
▁veliké	-8.14304
▁Tak	-8.14834
▁tisíc	-8.14982
dy	-8.14987
▁šel	-8.15362
▁J	-8.15404
▁zástupů	-8.15472
▁očima	-8.15595
▁vod	-8.15669
▁On	-8.1578
▁Takto	-8.15983
▁tohoto	-8.16121
▁ruky	-8.16521
▁domě	-8.16904
▁též	-8.17683
ď	-8.17795
▁Egypt	-8.17855
▁činil	-8.17929
▁žádného	-8.18642
▁Jákob	-8.18752
▁anděl	-8.18904
▁nim	-8.18917
bě	-8.19005
▁pět	-8.19311
▁jísti	-8.19326
▁měst	-8.1949
▁rad	-8.19522
▁přišli	-8.19744
▁Mojžíšovi	-8.20172
▁modl	-8.20278
▁vody	-8.20455
▁nebyl	-8.20597
ovým	-8.20747
▁milost	-8.21029
ského	-8.21171
▁ž	-8.21271
▁řkouce	-8.21692
▁Egyptské	-8.21857
▁mou	-8.22158
▁tento	-8.22291
▁množství	-8.22403
▁potom	-8.22785
▁odpověděl	-8.22829
▁L	-8.23213
▁tím	-8.23671
vali	-8.24013
str	-8.24179
hu	-8.24478
kou	-8.2482
▁vzal	-8.25018
ovu	-8.25447
▁Panovník	-8.25776
▁vámi	-8.26087
▁vší	-8.26384
uj	-8.26411
▁Jeruzalém	-8.26539
▁Izrael	-8.26542
ty	-8.26689
di	-8.26692
▁Jestliže	-8.26775
▁kněz	-8.26825
by	-8.27309
▁Řekl	-8.27899
▁řeč	-8.28187
▁synu	-8.28426
▁nevy	-8.28616
▁život	-8.29135
▁dobré	-8.29211
▁zlé	-8.29337
ově	-8.2945
▁stál	-8.29706
▁oči	-8.29938
▁přes	-8.29976
▁ženy	-8.3
▁díl	-8.30097
▁milosrdenství	-8.30184
▁Odpověděl	-8.30191
▁Hospodinem	-8.30457
ský	-8.30523
▁služebník	-8.31343
liž	-8.31388
▁bych	-8.31423
▁koli	-8.31778
▁Pro	-8.31815
▁buď	-8.31849
▁těm	-8.32163
nil	-8.32176
íce	-8.3219
ami	-8.32354
▁město	-8.32378
▁míti	-8.32528
▁umřel	-8.32559
dal	-8.3264
▁Hospodinovo	-8.32812
▁nez	-8.32895
ovy	-8.33341
▁mluví	-8.33622
▁ro	-8.34022
▁dnů	-8.34117
▁Izraelským	-8.34176
eni	-8.34273
jdou	-8.34305
▁Aron	-8.34383
▁Jeruzaléma	-8.34678
▁knížata	-8.34712
▁Kterýž	-8.34831
▁Abraham	-8.3573
▁Bože	-8.35732
▁Že	-8.35733
kem	-8.35796
▁věc	-8.35874
▁nepři	-8.36173
ujte	-8.3637
▁úst	-8.3647
av	-8.36807
▁Což	-8.37019
▁každého	-8.37117
ají	-8.37185
▁pán	-8.37279
▁Jozef	-8.37373
▁moře	-8.37381
▁Šalomoun	-8.37639
▁dvě	-8.37701
▁Jo	-8.37811
▁Pán	-8.38101
▁Jeruzalémě	-8.38149
▁hlas	-8.38161
▁života	-8.38358
ád	-8.38492
▁svět	-8.39303
▁Aby	-8.39474
▁kdež	-8.39507
▁národů	-8.39548
▁pr	-8.39798
▁tvoji	-8.40315
▁všeho	-8.40331
▁měli	-8.40415
▁duch	-8.40714
▁my	-8.40882
▁nežli	-8.40938
▁dar	-8.40972
▁mohl	-8.41604
▁jestliže	-8.42045
▁mnoho	-8.42471
pil	-8.42663
▁Ach	-8.42935
▁našeho	-8.43221
▁času	-8.43682
▁byly	-8.4372
▁hned	-8.43789
▁šest	-8.43837
▁této	-8.44116
▁kteréhož	-8.44229
ským	-8.44256
jde	-8.44477
▁kníže	-8.4468
edlé	-8.44889
▁slov	-8.45051
▁zem	-8.45087
▁žádný	-8.45119
ován	-8.45374
si	-8.4544
▁jak	-8.4553
ejte	-8.45538
▁vašich	-8.45564
▁bratr	-8.45572
▁tělo	-8.45716
ním	-8.46011
vají	-8.4611
▁rod	-8.46156
▁hoře	-8.4641
▁Jozue	-8.4647
▁hor	-8.46517
▁shromáždění	-8.46529
▁tváři	-8.46569
▁tvář	-8.4664
▁způsob	-8.46925
▁Izraele	-8.47067
▁druhé	-8.47164
tež	-8.4746
▁moci	-8.47511
▁nebylo	-8.47666
tu	-8.47725
▁vaši	-8.47866
▁nepravost	-8.47871
▁silný	-8.48403
bí	-8.48542
áš	-8.4857
▁měsíce	-8.48588
▁dnes	-8.49162
ovo	-8.49272
fa	-8.49554
▁Co	-8.4963
▁vyp	-8.49729
áž	-8.49853
▁přijde	-8.49941
▁bys	-8.50001
há	-8.50079
▁všechněm	-8.50175
▁Eli	-8.50376
▁věcí	-8.50795
lad	-8.50949
▁zplodil	-8.51253
▁veliký	-8.51402
▁svědectví	-8.51588
▁totiž	-8.516
▁otec	-8.52073
▁léta	-8.52172
▁spolu	-8.53032
▁tvou	-8.53033
▁tvým	-8.53034
▁bývá	-8.53078
▁Hospodinův	-8.53252
chází	-8.53287
▁Me	-8.53364
▁Pane	-8.5352
▁Davidovi	-8.53964
▁pln	-8.54183
▁mluviti	-8.54535
▁Izraelského	-8.54698
▁hod	-8.54952
pa	-8.54975
▁místě	-8.54986
▁jehož	-8.55126
▁zlého	-8.55293
nější	-8.55319
uji	-8.55601
vé	-8.55767
▁dcery	-8.55808
▁postavil	-8.56068
▁mají	-8.56129
▁těla	-8.56316
▁poušti	-8.56479
▁Ta	-8.56735
íte	-8.56752
▁noh	-8.57124
eno	-8.57208
▁poněvadž	-8.57486
▁služebníci	-8.5749
▁smrti	-8.57539
▁set	-8.57857
▁hněv	-8.57909
▁jménu	-8.57994
▁Pročež	-8.57997
▁sebou	-8.5803
▁div	-8.58091
▁Ti	-8.58527
ele	-8.58589
▁Synové	-8.58596
▁Proč	-8.58725
▁národy	-8.58761
▁vydá	-8.59531
▁nechť	-8.59554
▁počal	-8.59559
táhl	-8.59654
▁žena	-8.59856
▁Farao	-8.6005
cího	-8.60501
▁oheň	-8.60571
▁srdci	-8.60571
▁ustanovení	-8.60572
▁starší	-8.60572
šla	-8.60837
▁Pána	-8.6118
▁obětovati	-8.61795
ál	-8.61812
▁Ježíše	-8.61968
cházel	-8.62405
▁kraloval	-8.62682
▁duši	-8.62683
▁Zdali	-8.6287
vy	-8.63133
▁přikázaní	-8.63217
▁otci	-8.63224
▁otců	-8.6331
▁stánku	-8.63343
eš	-8.63751
▁neod	-8.64016
▁Pakli	-8.64295
▁navrátil	-8.64297
▁Ja	-8.64304
ému	-8.64624
▁meč	-8.64698
▁lidem	-8.64809
▁učiněn	-8.64839
▁padl	-8.64984
zí	-8.65618
zi	-8.65703
ec	-8.65801
▁hle	-8.65872
▁abychom	-8.65915
▁Babylon	-8.65929
▁Efraim	-8.65935
▁dokudž	-8.65935
▁nichž	-8.66383
▁dám	-8.66474
nes	-8.66485
▁deset	-8.66487
▁jsa	-8.66493
▁Žid	-8.66852
ující	-8.6689
▁noci	-8.66911
▁opět	-8.67043
▁čtyři	-8.67175
ji	-8.6745
▁krev	-8.67602
),	-8.67802
šli	-8.67843
▁hlasu	-8.67924
iž	-8.68054
▁zástup	-8.68271
▁Jak	-8.68615
▁jazyk	-8.68728
▁váš	-8.69307
▁vidí	-8.69376
▁přední	-8.69434
▁vyvedl	-8.69497
▁boj	-8.69669
ber	-8.6973
▁Kteříž	-8.69868
▁mým	-8.70099
▁Duch	-8.70124
dali	-8.70219
▁slyš	-8.70285
▁vyšel	-8.70378
▁Beniamin	-8.70442
▁přede	-8.70478
▁hory	-8.70839
▁loket	-8.7102
▁moji	-8.71022
▁kam	-8.71049
▁Syn	-8.71081
▁řkoucí	-8.71602
▁ješto	-8.71607
▁Božího	-8.71875
▁spravedlnost	-8.72008
▁všeliké	-8.72015
im	-8.72025
▁brány	-8.72187
▁dobře	-8.72195
jdi	-8.72276
▁Abi	-8.7241
▁toliko	-8.72442
▁náš	-8.72519
cím	-8.72611
▁němž	-8.72772
dělal	-8.73058
▁první	-8.73152
▁chodí	-8.73397
▁zákon	-8.73674
dej	-8.7378
▁řekla	-8.73845
▁hlavu	-8.73887
▁chodil	-8.73989
▁straně	-8.74173
▁čist	-8.74263
▁svaté	-8.74346
▁městě	-8.74519
▁takto	-8.74566
▁dny	-8.74814
▁knížat	-8.74869
věděl	-8.74877
ďte	-8.75067
▁prorok	-8.75153
▁zá	-8.75162
▁Petr	-8.75169
▁smlouvu	-8.75298
▁cesty	-8.75495
▁Toto	-8.75498
▁učiním	-8.75559
sy	-8.75699
▁pole	-8.75758
▁oznámil	-8.75769
▁prosím	-8.7578
▁svatý	-8.75927
ložen	-8.75995
▁Sion	-8.76392
tra	-8.76925
▁bratra	-8.76986
▁Egypta	-8.77353
▁šli	-8.77502
▁slunce	-8.7761
▁námi	-8.78052
▁dříví	-8.78231
pal	-8.78289
▁kamení	-8.78308
▁ústa	-8.7835
▁jiné	-8.78675
▁učedlník	-8.78856
▁činiti	-8.78887
▁tisíců	-8.7896
eb	-8.78961
▁spravedlnosti	-8.79047
▁Byl	-8.79084
▁postav	-8.79088
▁vydal	-8.79376
chod	-8.79479
▁hejtman	-8.79485
▁pokrm	-8.79489
ců	-8.79546
▁Do	-8.79646
▁nemá	-8.79692
mysl	-8.7978
▁Izraelské	-8.79838
▁smrt	-8.80069
▁odtud	-8.80123
stal	-8.80138
▁služebníka	-8.80311
▁spasení	-8.80385
▁druhého	-8.8042
▁Bohem	-8.80754
▁údolí	-8.80754
▁stráž	-8.80755
ajíce	-8.8109
▁dává	-8.81111
nese	-8.81311
▁Bet	-8.81448
jdu	-8.81485
▁přivedl	-8.81583
▁potok	-8.81883
ající	-8.81976
▁jména	-8.82041
▁vzav	-8.82064
▁Kdož	-8.82278
▁nedo	-8.82419
ále	-8.82638
▁nemohl	-8.8269
▁nalezl	-8.82696
▁večer	-8.8274
▁Cha	-8.83095
aje	-8.83335
krát	-8.83403
▁cestě	-8.83585
▁tato	-8.83734
▁každé	-8.83877
▁ohavnost	-8.84001
▁oltář	-8.84042
▁učiní	-8.84234
ými	-8.84571
.)	-8.8462
▁tuto	-8.84628
▁Jeremiáš	-8.84664
▁druhý	-8.84664
▁ovoce	-8.84668
hub	-8.84771
▁dní	-8.84894
▁Izraeli	-8.85078
▁vesel	-8.85143
▁oltáře	-8.85258
▁všemu	-8.85267
věř	-8.85322
▁Roz	-8.85342
třel	-8.85374
vodí	-8.85942
▁prvé	-8.86034
rok	-8.86089
▁slyšel	-8.86133
▁zabil	-8.86247
▁Hospodinovy	-8.86577
▁roucho	-8.86677
▁místa	-8.86677
▁naši	-8.87326
▁zlořeč	-8.87358
rob	-8.87394
▁Amen	-8.87446
▁Ha	-8.87461
▁pravé	-8.87771
▁mám	-8.87798
▁neo	-8.87867
▁úmluvy	-8.88042
▁roucha	-8.88043
▁kterak	-8.88043
▁zlata	-8.88056
▁dnech	-8.88079
▁Ve	-8.88568
▁rozp	-8.88704
▁Samuel	-8.88734
▁Joáb	-8.88736
▁rci	-8.88778
▁mlad	-8.88843
▁učinili	-8.89058
práv	-8.89234
▁zápal	-8.89255
▁vstav	-8.89288
▁nepravosti	-8.89381
▁nohy	-8.89397
▁nepřátel	-8.89418
▁ruka	-8.89433
žto	-8.8951
▁strany	-8.89793
▁sobot	-8.90127
▁národové	-8.90202
▁ná	-8.9023
niž	-8.90362
rot	-8.90659
▁Páně	-8.90675
▁uzřel	-8.90831
▁cestou	-8.91041
▁děv	-8.91764
▁nebeské	-8.91769
▁řeči	-8.91956
▁osla	-8.92197
▁jde	-8.92219
▁ukázal	-8.92254
▁Galád	-8.92254
skou	-8.92339
▁Moáb	-8.92404
stane	-8.92464
čil	-8.92487
▁vojska	-8.92927
▁chléb	-8.92973
▁sami	-8.93052
▁hlad	-8.93126
▁uvedl	-8.93303
▁Ten	-8.93472
▁cestu	-8.93513
▁Hospodinovu	-8.93644
▁nejvyšší	-8.94427
▁El	-8.94559
▁Davida	-8.94851
▁dcer	-8.94922
▁dobyt	-8.95129
▁čtyřidceti	-8.95163
▁Všeck	-8.95163
▁znamení	-8.95163
▁bydlil	-8.95292
▁oblak	-8.95315
▁lež	-8.95534
▁spravedlivý	-8.95627
▁byste	-8.95856
!	-8.95904
▁Stalo	-8.95905
▁obrátil	-8.95983
▁stane	-8.96005
▁nemoc	-8.96098
▁udělal	-8.96163
▁mečem	-8.96217
▁všem	-8.96332
▁tváří	-8.96541
▁neza	-8.96591
▁umře	-8.96621
▁Ezechiáš	-8.9665
▁troub	-8.9668
▁hlav	-8.97052
měl	-8.97258
▁vaší	-8.97478
▁stě	-8.97711
▁ni	-8.97975
▁uzdrav	-8.98159
▁Izák	-8.98161
▁všel	-8.98231
▁nep	-8.98241
▁Manasses	-8.9825
▁služebníky	-8.98341
▁stojí	-8.98385
▁Kristus	-8.98492
▁obyvatel	-8.98668
▁krajin	-8.98695
▁Jan	-8.98981
▁sloup	-8.99163
▁rozum	-8.99484
▁noc	-8.99588
▁navrátí	-8.99692
▁výsost	-8.99693
▁moři	-8.99698
bývají	-8.99708
▁jiný	-8.99748
▁nena	-8.99941
▁necha	-9.00318
▁odšel	-9.00554
▁prchlivost	-9.00674
ém	-9.00784
▁Ba	-9.01001
▁Nebude	-9.01249
▁Ammon	-9.01249
▁Neboť	-9.01261
▁ačkoli	-9.01266
▁neměl	-9.01463
mluv	-9.01807
▁těmi	-9.01867
▁vnitř	-9.02036
▁očí	-9.02304
▁Pánu	-9.02496
▁něhož	-9.02677
▁naproti	-9.02829
▁dílo	-9.0294
▁Jordán	-9.02967
pravil	-9.03022
▁spravedliv	-9.03036
ěj	-9.03401
vedl	-9.03428
nebo	-9.0362
▁Krista	-9.03629
▁někteří	-9.03629
▁pomezí	-9.03631
▁chtěl	-9.03632
▁poznal	-9.03635
pálil	-9.03883
▁Proto	-9.04095
nesl	-9.04136
▁pís	-9.04185
sadil	-9.04242
▁chleba	-9.0442
▁blázn	-9.04436
▁kněze	-9.04673
▁bratřím	-9.04698
▁lidé	-9.04824
▁vším	-9.05081
▁jsouce	-9.05213
▁mnohé	-9.05249
▁dveří	-9.05249
▁strom	-9.0525
▁věčné	-9.05252
▁símě	-9.05266
▁Judo	-9.05402
ostí	-9.05512
▁velikým	-9.05568
▁budeme	-9.05761
▁tyto	-9.05775
šedše	-9.05799
hne	-9.05945
▁níž	-9.06024
▁svatyně	-9.06069
▁ráno	-9.06069
▁zůstal	-9.06072
▁řek	-9.06109
▁rozděl	-9.06116
▁Izraelskému	-9.06241
▁boji	-9.06352
▁kol	-9.06393
romě	-9.06517
▁Ducha	-9.06537
▁lev	-9.06685
uješ	-9.06693
▁ohněm	-9.0676
volal	-9.06789
▁jedna	-9.06817
▁porodila	-9.06895
▁posvěcen	-9.06895
▁potěš	-9.0696
▁moudrost	-9.07206
▁zemí	-9.07434
vu	-9.07629
▁krve	-9.07745
ával	-9.07828
▁nesl	-9.0803
ývá	-9.08271
▁rozkázal	-9.08569
▁třidceti	-9.08569
▁dokonal	-9.08569
▁Otce	-9.08573
▁Muž	-9.08618
▁vinic	-9.08646
kati	-9.08677
▁n	-9.08686
▁nádob	-9.08757
▁mému	-9.08959
▁všemi	-9.09272
▁seděl	-9.09287
▁Zákon	-9.09366
▁činili	-9.0942
padl	-9.0951
jíti	-9.09565
▁radost	-9.09622
▁uslyšel	-9.09658
▁Hle	-9.10186
▁králem	-9.1021
▁dědičně	-9.10271
▁kterýchž	-9.10274
▁mrtvých	-9.10435
jme	-9.10505
▁prostředku	-9.10634
▁Jed	-9.10643
▁obětoval	-9.1101
▁bo	-9.11033
▁učedlníci	-9.11133
▁všecku	-9.11133
▁mnozí	-9.11133
▁půjde	-9.11134
▁Juda	-9.11136
▁utekl	-9.11139
▁kterémž	-9.1115
▁Synů	-9.11285
▁žádné	-9.11787
▁strach	-9.12008
▁žen	-9.12023
▁oltáři	-9.12043
▁cest	-9.12045
▁ok	-9.12054
▁nebudeš	-9.12228
▁oko	-9.12297
íme	-9.12533
▁Le	-9.12648
▁Božím	-9.1283
▁Poněvadž	-9.1288
▁matky	-9.1288
▁bydliti	-9.12881
▁píti	-9.12898
▁chce	-9.13006
▁měsíc	-9.13214
▁vedl	-9.13502
▁Té	-9.13657
▁stř	-9.13753
▁obrátí	-9.13765
▁dnové	-9.13766
▁poklad	-9.13769
moc	-9.14515
▁neob	-9.14518
▁tvému	-9.14584
nouti	-9.14588
▁lidí	-9.14627
▁otcové	-9.14657
stoupí	-9.14658
šk	-9.14665
▁uzří	-9.1467
▁zlato	-9.14688
▁pohr	-9.14731
▁pomst	-9.14778
▁psáno	-9.14814
▁ran	-9.14848
▁poli	-9.15212
▁čeled	-9.15425
káže	-9.15546
▁hrozn	-9.15558
▁naplnil	-9.15558
▁říkají	-9.1556
▁ustanovil	-9.15567
▁Nechť	-9.1558
čili	-9.15634
▁letech	-9.1572
níci	-9.15877
▁jíti	-9.16129
▁osm	-9.16248
ujíce	-9.16406
▁chleb	-9.16488
▁Mo	-9.16531
▁ducha	-9.16552
▁Jdi	-9.1656
▁dobrý	-9.16561
▁smlouvy	-9.16618
▁soudu	-9.16656
▁cel	-9.167
▁mluvili	-9.16823
▁Izraelem	-9.17161
dati	-9.17228
▁Absolon	-9.17385
▁počtu	-9.17387
▁Otec	-9.17388
▁dřev	-9.17401
mordoval	-9.17421
▁čeledech	-9.1744
▁Synu	-9.17514
▁nebi	-9.17543
▁stran	-9.17605
▁Vz	-9.17717
▁příčin	-9.17882
▁tomto	-9.17887
▁jedn	-9.17959
▁pomoc	-9.17995
▁svatých	-9.18079
▁všelik	-9.18265
bychom	-9.18285
▁bezbožní	-9.18311
▁dvadceti	-9.18311
▁velikou	-9.18312
▁dvanácte	-9.18349
▁bydlí	-9.18371
▁viděli	-9.18428
▁slyší	-9.18541
▁zachová	-9.18557
▁Te	-9.18616
▁Judský	-9.18787
▁služebníků	-9.18836
▁Kristu	-9.18837
▁loupež	-9.19245
▁Sal	-9.19278
▁světa	-9.19372
▁uděl	-9.19445
▁rozs	-9.19494
▁dítě	-9.19698
▁Judské	-9.19971
▁jedl	-9.20014
▁bydlili	-9.20028
▁nešlechetnost	-9.20117
▁Král	-9.20201
▁nazval	-9.20262
▁Dí	-9.20403
▁prach	-9.20609
▁vojsk	-9.20636
▁mluv	-9.20688
▁skr	-9.20783
ros	-9.20855
▁skutky	-9.21141
▁stříbra	-9.21141
▁nepřítel	-9.21141
▁pročež	-9.21149
▁zjev	-9.21212
▁hovad	-9.21221
▁městech	-9.2129
▁světlo	-9.21432
▁povol	-9.2155
▁tisíce	-9.21565
ček	-9.21708
▁dcera	-9.21898
kové	-9.21919
▁Levítů	-9.22103
▁Nyní	-9.22107
▁jím	-9.22126
▁dvou	-9.22424
▁Aronovi	-9.22461
▁národ	-9.22484
▁horu	-9.22566
▁vyvolil	-9.22576
▁Ga	-9.23073
▁větší	-9.23074
▁Pavel	-9.23074
▁vidění	-9.23074
▁může	-9.23075
▁cizí	-9.23078
▁meče	-9.23087
▁manželku	-9.2314
▁pána	-9.23251
▁Judského	-9.23298
▁proroka	-9.23557
▁jiných	-9.2397
▁žádost	-9.23994
▁ona	-9.24066
▁lodí	-9.24068
▁bran	-9.24177
▁uši	-9.24473
▁oblíčeje	-9.24555
rátil	-9.24613
▁ano	-9.24806
nému	-9.24862
▁pokoje	-9.24896
▁Jeroboám	-9.25044
▁skutků	-9.25044
▁úrod	-9.25044
▁pastýř	-9.25044
▁nebudou	-9.25045
▁sláva	-9.25048
▁ohni	-9.25055
nobrž	-9.25058
ivše	-9.25094
dejte	-9.2551
▁hrob	-9.25522
▁královské	-9.25825
▁podobenství	-9.26044
▁poušť	-9.26045
▁bolest	-9.26048
▁ovce	-9.26072
pad	-9.26413
▁koz	-9.2647
▁hlavy	-9.26694
▁těle	-9.26772
psal	-9.2679
▁člověčí	-9.27054
▁říká	-9.27056
▁Ezau	-9.27056
byl	-9.2706
▁příbytku	-9.27122
▁Eliáš	-9.272
▁které	-9.27304
▁obětí	-9.27474
▁Judských	-9.27554
▁dobrého	-9.27637
▁tvém	-9.27746
▁pozdvih	-9.27748
▁mor	-9.27794
▁Hospodinově	-9.27952
▁evangelium	-9.28075
▁truhlu	-9.28075
▁končin	-9.28075
▁východu	-9.28075
▁čehož	-9.28075
▁umění	-9.28075
▁přijal	-9.28119
statek	-9.28182
měř	-9.28331
▁Izraelovi	-9.28486
▁zákona	-9.28599
▁bojoval	-9.29019
kládá	-9.29107
▁odplat	-9.29107
▁vezme	-9.29112
▁los	-9.29305
▁roh	-9.29599
▁vytáhl	-9.29663
▁vojsko	-9.29722
▁třetí	-9.2993
cházeti	-9.30147
▁vysvoboz	-9.30147
▁vždycky	-9.30147
▁slávu	-9.30148
▁houf	-9.30155
▁shromáždil	-9.30323
▁volal	-9.30525
▁jedli	-9.30646
▁hojn	-9.30801
▁národu	-9.30866
▁rt	-9.30874
▁tého	-9.30937
▁Jezukrista	-9.312
▁pozůstal	-9.312
▁sedmdesát	-9.312
stoupiv	-9.312
▁zabit	-9.31295
▁ryb	-9.31335
▁vína	-9.31373
▁modlil	-9.31427
▁jedné	-9.3143
▁Kterýžto	-9.31552
▁Židé	-9.31562
▁vrch	-9.31986
▁vašeho	-9.32135
▁Levítové	-9.32264
▁spatř	-9.32265
▁něco	-9.32266
▁vstal	-9.3247
▁požehnání	-9.3248
▁hněvu	-9.3258
▁Davidův	-9.32728
▁Ob	-9.32858
▁nádoby	-9.32878
▁vrchu	-9.3293
▁vzali	-9.33275
▁některé	-9.33339
▁nečistý	-9.33339
▁opatr	-9.33339
▁předměstí	-9.33339
▁stolici	-9.3334
▁nalezen	-9.33342
▁knize	-9.33348
▁ustavičně	-9.33492
▁bral	-9.3357
▁proč	-9.33706
▁takové	-9.33812
▁čeledi	-9.33876
▁vyšli	-9.33919
▁Jakož	-9.33972
▁našich	-9.34074
▁Mojžíše	-9.34166
▁čtyř	-9.34166
▁prosil	-9.3434
[	-9.34426
▁bohy	-9.34428
▁maje	-9.3459
▁nebesa	-9.34676
▁dni	-9.34853
▁příčiny	-9.35
▁znám	-9.35003
▁Syna	-9.35047
▁čem	-9.35207
▁slou	-9.35321
věřil	-9.35348
▁těchto	-9.35489
▁Ruben	-9.35525
▁farize	-9.35525
▁sloužiti	-9.35525
▁víry	-9.35559
▁okolo	-9.35682
ázán	-9.3569
jděte	-9.35696
▁potřeb	-9.36056
ejští	-9.36288
▁nepřátely	-9.36296
▁Jako	-9.36321
▁dvanáct	-9.3659
▁kraj	-9.36605
▁desát	-9.36636
▁čtvrt	-9.36636
▁Samaří	-9.36636
▁polovic	-9.36645
ýbrž	-9.36748
▁věcech	-9.36784
▁čině	-9.36878
▁ženu	-9.36983
▁králů	-9.37039
rostl	-9.37167
▁pověděl	-9.37216
▁poškvrn	-9.37281
▁máš	-9.37333
▁služebníku	-9.37407
▁tito	-9.37521
▁Gád	-9.37759
▁nemůže	-9.37759
▁ostříhal	-9.37759
▁zpěv	-9.37782
▁položili	-9.37794
▁mysli	-9.38079
▁zlý	-9.38083
▁chrámu	-9.38223
▁přijdou	-9.38406
vrz	-9.38472
▁Ano	-9.38831
▁Jozafat	-9.38896
▁bráně	-9.38896
▁Žád	-9.38896
▁peníze	-9.38897
▁žalm	-9.38902
▁konce	-9.38909
▁rovin	-9.38915
▁Š	-9.38919
▁hledají	-9.38928
▁boha	-9.38969
▁trůn	-9.3898
▁spravedlivého	-9.39027
lon	-9.39088
▁někdo	-9.39128
▁obraz	-9.39351
▁nebudete	-9.39478
itský	-9.39681
▁připrav	-9.39756
▁rychle	-9.39855
▁povolal	-9.40009
▁Opět	-9.40045
▁Všickni	-9.40045
▁Živ	-9.40045
▁navštív	-9.40046
▁nechtěl	-9.40046
▁krás	-9.40058
▁semene	-9.40071
▁miluje	-9.40091
▁věří	-9.40144
▁koho	-9.40188
▁králové	-9.40277
▁stád	-9.40375
▁svatého	-9.40467
▁Není	-9.40482
▁mnohý	-9.40748
▁bál	-9.40812
▁prchlivosti	-9.40898
stavěl	-9.41149
▁apoštol	-9.41208
▁cherubín	-9.41208
▁jménem	-9.41208
▁prut	-9.41282
▁Aniž	-9.41346
▁bojí	-9.41368
▁lotů	-9.41408
▁ohně	-9.41413
▁porazil	-9.4142
▁neví	-9.41647
▁padesáte	-9.41698
▁přišla	-9.41743
▁vzdělá	-9.4196
hledá	-9.42279
▁Nabuchodonozor	-9.42385
▁půlnoci	-9.42385
▁Zákona	-9.42456
▁nešlechetn	-9.42474
▁ssoužení	-9.42492
▁marnost	-9.42752
▁obyvatele	-9.43238
▁Kananejské	-9.43575
▁zhřešil	-9.43575
▁Však	-9.43575
▁Nadto	-9.43578
▁vstoupil	-9.43581
dají	-9.43716
jímá	-9.43843
prost	-9.44128
▁přichází	-9.44144
nutí	-9.44549
▁naplněn	-9.4478
▁trápení	-9.4478
▁východní	-9.4478
▁plakal	-9.44781
▁Daniel	-9.4479
▁křídl	-9.44791
▁Nýbrž	-9.44817
▁slyšeli	-9.4482
▁víno	-9.44879
▁list	-9.44922
▁prve	-9.44929
▁buďte	-9.45207
▁přinesl	-9.45216
▁Jákobovi	-9.45306
▁sedmého	-9.45327
▁řeky	-9.45512
▁knězi	-9.45548
▁vodou	-9.45749
▁otcům	-9.4579
▁hříchy	-9.45828
ejské	-9.45953
▁Filistinští	-9.45999
▁náramně	-9.45999
▁stříbro	-9.45999
▁Kristov	-9.45999
▁kralovati	-9.45999
▁červ	-9.46001
▁ramen	-9.46008
▁býval	-9.46013
▁síň	-9.46036
▁polní	-9.46112
rov	-9.46195
▁třetího	-9.46255
▁nepro	-9.46285
▁jiní	-9.46393
slyšel	-9.46859
▁Takž	-9.46874
▁obětovali	-9.46986
▁odpovídaje	-9.47234
▁odpočinutí	-9.47234
▁přestoupení	-9.47234
▁půlnoční	-9.47234
▁učiniti	-9.47234
▁svobod	-9.47234
převrácen	-9.47234
▁naději	-9.47239
▁Bude	-9.47242
▁počet	-9.47273
▁krví	-9.47274
▁čím	-9.47336
▁přítel	-9.47571
▁les	-9.4764
▁prvního	-9.47692
▁an	-9.477
▁věz	-9.47827
▁jen	-9.48049
▁prac	-9.48077
▁zahanben	-9.48187
▁nov	-9.48401
▁ostříhati	-9.48484
▁poslední	-9.48484
▁tehdáž	-9.48484
▁nečisté	-9.48484
▁nevěst	-9.48487
▁kámen	-9.48492
▁služebníkům	-9.48762
▁přišed	-9.48769
▁had	-9.48805
▁veselí	-9.48869
▁mnohých	-9.48981
▁stín	-9.49083
▁Také	-9.49213
▁dával	-9.49266
▁moudrosti	-9.49274
▁hovada	-9.49679
▁bližního	-9.4975
▁vyhlazen	-9.4975
▁prvorozené	-9.4975
▁pustin	-9.49751
▁Běda	-9.49752
▁vykoná	-9.49754
▁pravdě	-9.49754
▁snad	-9.49831
▁hrd	-9.49855
▁musí	-9.49906
hledal	-9.49907
▁Mluvil	-9.49915
▁člověku	-9.50085
▁přijíti	-9.501
▁dáno	-9.50369
▁tomuto	-9.50458
▁kdyby	-9.50501
▁bohům	-9.50531
▁Jonata	-9.50573
▁stáda	-9.50751
▁proroků	-9.50758
▁obrácen	-9.51032
▁vítr	-9.51034
▁polední	-9.51034
▁zvuk	-9.51112
padne	-9.51226
▁Dan	-9.51646
vejte	-9.52105
▁skop	-9.52126
▁Hebron	-9.5233
▁nenávidí	-9.5233
▁Šimon	-9.52331
▁moudrý	-9.52331
▁Noé	-9.52337
▁jistě	-9.5234
▁miloval	-9.52411
▁síně	-9.52423
▁nenávisti	-9.52627
▁slib	-9.52988
ejský	-9.52991
▁padesát	-9.53094
▁zdi	-9.53372
▁hvězd	-9.53646
1	-9.53646
▁přísahou	-9.53646
▁přebývá	-9.53647
▁Faraonovi	-9.53647
▁chudý	-9.53648
▁doufá	-9.53648
▁odpověděv	-9.53651
▁cedr	-9.53658
▁pozná	-9.53682
táhne	-9.53763
chlub	-9.5379
▁vyuč	-9.53892
▁vdov	-9.53997
jav	-9.54185
▁sloužili	-9.54331
▁hlasem	-9.54367
▁vyjde	-9.54487
vodil	-9.54781
▁sstoupil	-9.5484
▁viděti	-9.5498
▁matka	-9.5498
▁slávy	-9.54981
▁pravili	-9.55014
pusť	-9.55014
▁podobné	-9.55035
vržen	-9.55154
▁položil	-9.55708
volav	-9.55766
▁čeledí	-9.55778
▁Dej	-9.55779
pouštěj	-9.55812
▁Mluv	-9.56161
▁cizím	-9.56329
▁Eleazar	-9.56331
▁Jistě	-9.56331
▁očištěn	-9.56331
▁obyčej	-9.56331
▁Léví	-9.56332
▁suchou	-9.56332
▁učiň	-9.56333
▁nejsou	-9.56336
▁bedr	-9.56371
▁horách	-9.56493
děláš	-9.56581
▁uvedu	-9.56606
▁křič	-9.56784
▁zbit	-9.56895
▁kmen	-9.56933
▁přistoupil	-9.56969
veď	-9.57067
▁pás	-9.57173
▁jiného	-9.57382
▁ostříhá	-9.57701
▁příchozí	-9.57701
▁ratolest	-9.57701
▁dlouho	-9.57701
▁královský	-9.57702
▁korun	-9.57715
▁Pře	-9.57727
▁zjeven	-9.57733
▁podstavk	-9.57798
▁stez	-9.57895
Psal	-9.57901
▁odděl	-9.57938
▁zápalné	-9.57944
▁Před	-9.58327
▁pil	-9.58404
▁vycházel	-9.58423
plní	-9.5846
pokoj	-9.58599
pomenul	-9.589
▁pošli	-9.59075
▁dobrořeč	-9.5909
▁ptactv	-9.5909
▁šedesát	-9.5909
▁zlaté	-9.59094
▁zdaliž	-9.59101
▁zlatý	-9.59111
▁síly	-9.59123
▁palác	-9.59197
▁síla	-9.59237
▁nádobí	-9.59376
▁tří	-9.59802
▁olejem	-9.60234
▁Bál	-9.60332
▁tuk	-9.6034
▁Libán	-9.60498
▁přikázání	-9.60498
▁vysvobodil	-9.60498
▁rána	-9.60499
▁smilstv	-9.60505
▁chudé	-9.6051
▁Pís	-9.6052
▁lži	-9.60546
▁Slyš	-9.6056
▁skryt	-9.60577
▁zápalnou	-9.60644
▁medle	-9.60656
▁vystavěl	-9.60837
▁Filistinských	-9.60849
▁máme	-9.60858
▁bíd	-9.60981
▁Jest	-9.61043
▁Aneb	-9.61091
▁přitáhl	-9.6113
▁lot	-9.6115
▁hrobu	-9.61441
▁velikého	-9.61443
▁Sélah	-9.61927
▁Tehdy	-9.61927
▁přisáhl	-9.61927
▁budiž	-9.61927
▁všeliký	-9.61928
▁fík	-9.61934
házejí	-9.61939
▁Jemuž	-9.61944
▁věků	-9.61947
▁Vstaň	-9.62014
▁smiln	-9.62129
▁hledá	-9.6223
▁osob	-9.62247
▁vejde	-9.62273
▁zlost	-9.62409
▁prst	-9.62684
▁oleje	-9.62873
▁vlas	-9.62873
▁Jordánu	-9.63124
▁mrtvé	-9.63376
▁Madian	-9.63376
▁uzřev	-9.63378
▁kázal	-9.63379
▁maso	-9.63379
stávají	-9.63385
▁meze	-9.63402
▁rozkoš	-9.63433
▁jaké	-9.63522
▁Tito	-9.63541
▁studnice	-9.63713
▁mlč	-9.6373
ější	-9.64067
▁pravici	-9.64151
▁slavnost	-9.64183
▁Vid	-9.64668
▁poledne	-9.64847
▁pamět	-9.64847
▁Ještě	-9.64848
▁věčný	-9.64849
▁choditi	-9.64849
▁teď	-9.6487
▁tolikéž	-9.64877
▁domích	-9.64878
▁komu	-9.64955
stává	-9.64992
▁silného	-9.65023
▁přestal	-9.65085
▁skopce	-9.65108
▁každému	-9.6516
▁Job	-9.65907
▁nemají	-9.65961
▁služeb	-9.66322
▁pohostinu	-9.66339
▁vysvobodí	-9.66339
▁veliká	-9.66339
▁Bethel	-9.6634
▁vypravoval	-9.66357
▁vyslyš	-9.66426
▁vzdělal	-9.66476
náší	-9.66502
▁vida	-9.66547
vážil	-9.66939
▁Davidova	-9.67326
▁jednu	-9.67445
▁pane	-9.67547
▁proroky	-9.67557
▁dceru	-9.67699
▁Abimelech	-9.67854
▁Blahoslaven	-9.67854
▁bezpečn	-9.67854
▁otevřel	-9.67854
▁vespolek	-9.67854
▁úzkost	-9.67854
▁pohanů	-9.67855
▁samého	-9.67855
▁zůstane	-9.67859
▁kterýmž	-9.67862
▁pláč	-9.67939
▁Joas	-9.68033
▁pilně	-9.6806
▁vešli	-9.68174
▁posly	-9.68364
▁manžel	-9.69092
▁Filistinské	-9.69393
▁myšlení	-9.69393
▁ďábel	-9.69393
▁potup	-9.69413
▁rozkaz	-9.69529
bořil	-9.69559
▁jitra	-9.69618
▁nepřátelé	-9.69818
▁vinn	-9.69873
▁volka	-9.6996
▁čin	-9.70065
▁všelikého	-9.70125
▁vyvol	-9.70341
▁slove	-9.704
▁postaví	-9.70733
▁příbyt	-9.70801
▁známost	-9.70911
▁dáti	-9.70956
▁Balám	-9.7096
▁Kdež	-9.70986
▁škol	-9.71017
▁nikoli	-9.71074
▁domem	-9.7121
▁dělá	-9.71609
▁připravil	-9.71625
▁umí	-9.71848
▁Mar	-9.71892
▁mající	-9.71922
▁Dá	-9.72336
▁shromáždí	-9.72542
▁zboží	-9.72542
▁Sedechiáš	-9.72543
▁místu	-9.72543
▁Sichem	-9.72543
▁vyvýšen	-9.72543
▁Abner	-9.72543
▁odvrátil	-9.72545
▁odpoví	-9.72546
▁zajetí	-9.72548
▁dnešní	-9.72552
▁cestách	-9.72636
▁plod	-9.7275
▁správc	-9.73004
▁chrám	-9.73166
▁bohů	-9.73169
▁souditi	-9.73174
▁Saulovi	-9.73421
▁Moábské	-9.73818
▁nové	-9.73997
▁hříchů	-9.74018
▁Babylonský	-9.74093
▁požehnal	-9.74155
▁svatyni	-9.74155
▁vývod	-9.74156
▁jednostejn	-9.74156
▁raději	-9.74157
▁učení	-9.74178
▁Lid	-9.74206
▁odešli	-9.74289
▁pozdvihl	-9.74376
▁Het	-9.74383
▁Tento	-9.74456
▁nepře	-9.74486
▁královského	-9.7451
▁jaký	-9.74615
staň	-9.75495
▁Assyrské	-9.75795
▁cizolož	-9.75795
▁loktů	-9.75795
▁pohanění	-9.75795
▁otázal	-9.75795
▁kopí	-9.75801
▁naděje	-9.7581
▁přišlo	-9.75811
▁Slyšte	-9.75869
▁Již	-9.75913
▁bezbožných	-9.76174
▁celý	-9.76371
▁nezná	-9.76377
▁olej	-9.76729
▁viz	-9.76916
▁dvadcíti	-9.77461
▁počátku	-9.77461
▁Jéhu	-9.77462
▁oznam	-9.77462
▁Abram	-9.77464
▁Jděte	-9.77467
▁Izaiáš	-9.77493
▁Bázan	-9.77528
▁vůle	-9.77581
▁Tato	-9.77908
▁všelijak	-9.78236
▁dílem	-9.78469
bije	-9.79091
▁Mardoche	-9.79156
▁bohatství	-9.79156
▁svatosti	-9.79156
▁zapsán	-9.79157
▁zlatem	-9.79158
▁klaněl	-9.79166
▁vždy	-9.79186
▁jediné	-9.79188
▁Prav	-9.79247
▁zub	-9.79282
▁oděv	-9.79387
▁chrámě	-9.79502
▁křik	-9.7961
ejší	-9.79788
▁pokojné	-9.80103
▁pec	-9.80353
▁sečten	-9.80503
▁nečistot	-9.8088
▁osvědč	-9.8088
▁oznámí	-9.8088
▁službu	-9.8088
▁peněz	-9.80881
▁roční	-9.80883
▁zůstává	-9.80883
▁Syrské	-9.80883
▁šetř	-9.80885
▁velice	-9.80897
▁odkud	-9.80913
▁děti	-9.80931
▁pojal	-9.8094
▁Babylonského	-9.80966
▁dvakrát	-9.80975
▁Šalomounovi	-9.81508
▁krajině	-9.81624
▁Sam	-9.81956
stupuje	-9.82562
▁Kteréž	-9.82635
▁bezbožné	-9.82635
▁blízko	-9.82635
▁velbloud	-9.82635
▁rozhněval	-9.82635
▁slávě	-9.82635
▁nejprv	-9.82635
▁neviděl	-9.82635
▁nasycen	-9.82636
▁Syrský	-9.82637
▁konec	-9.82637
▁pohany	-9.82637
▁vlastní	-9.82638
▁béře	-9.82639
▁suché	-9.82639
▁pověst	-9.82639
▁Viděl	-9.82653
▁hledali	-9.82713
stoupili	-9.82834
▁přivedu	-9.82863
pustím	-9.83001
▁dvěma	-9.83029
▁každ	-9.83415
▁obyvatelů	-9.83728
▁zabij	-9.83764
vedu	-9.84002
▁Kterak	-9.84421
▁beránka	-9.84421
▁lučiště	-9.84421
▁maličko	-9.84421
▁obličejem	-9.84421
▁řemesl	-9.84421
▁širokost	-9.84421
▁dělati	-9.84421
▁Izmael	-9.84421
▁základ	-9.84421
▁dvéře	-9.84421
▁kořist	-9.84422
▁vozy	-9.84423
▁věrný	-9.84425
▁poklon	-9.8443
▁obrace	-9.8443
▁kořen	-9.84432
▁Chanan	-9.84444
▁skryl	-9.84521
▁odpor	-9.84531
▁prorokuj	-9.84582
▁vyšed	-9.84655
▁mouky	-9.84877
▁poškvrnil	-9.85029
rozuměl	-9.85212
▁čistý	-9.85355
▁hojnost	-9.85697
▁Sádoch	-9.86239
▁odpuštěn	-9.86239
▁zevnitř	-9.86239
▁Pilát	-9.86239
▁pravdu	-9.86239
▁Joziáš	-9.8624
▁drží	-9.8624
▁pokání	-9.86253
▁stanů	-9.86256
běhl	-9.8641
▁domů	-9.86719
▁Jeruzalémské	-9.86914
▁křt	-9.86931
▁slavn	-9.87182
▁hotov	-9.87508
▁Filistinský	-9.8763
krá	-9.87725
řednímu	-9.88055
▁Zachariáš	-9.88091
▁Lában	-9.88091
▁lepší	-9.88091
▁Gabaa	-9.88091
▁pravdy	-9.88094
▁zahrad	-9.88094
▁Nikoli	-9.88095
▁očekáva	-9.88095
▁hůl	-9.88109
kládal	-9.88119
▁hledati	-9.88128
▁jámy	-9.88219
▁Achab	-9.88221
▁rovn	-9.88281
▁přivede	-9.88302
▁uvede	-9.88356
měřil	-9.88754
▁Dal	-9.88912
▁uslyší	-9.89977
▁Neftalím	-9.89977
▁desíti	-9.89977
▁zázrak	-9.89978
▁Vezmi	-9.89979
▁práci	-9.89979
▁slyšeti	-9.89981
▁práce	-9.89981
▁Betlém	-9.89993
▁očistí	-9.90002
▁bílé	-9.90003
▁provaz	-9.90005
▁připoj	-9.90067
▁dobytek	-9.90104
▁Udělal	-9.90133
▁ležel	-9.9041
pověděl	-9.91688
▁Požehnaný	-9.919
▁posvětil	-9.919
▁shromažď	-9.919
▁vidouce	-9.919
▁zaslíbil	-9.919
▁šarlat	-9.919
▁žaláře	-9.919
▁Roboám	-9.91901
▁Simeon	-9.91901
▁ostříhej	-9.91901
▁mořské	-9.91901
▁udatný	-9.91903
▁povstal	-9.91909
▁zhoub	-9.9191
▁manželky	-9.92012
▁manželka	-9.92033
▁rozumnost	-9.92044
▁víře	-9.92121
▁Aman	-9.92663
▁oblíčej	-9.92862
▁všelijaké	-9.92956
▁spasen	-9.93032
▁potře	-9.93639
▁pouště	-9.93734
▁zdrž	-9.93846
▁Mistře	-9.93861
▁Zabulon	-9.93861
▁déšť	-9.93861
▁hromad	-9.93861
▁službě	-9.93861
▁stánek	-9.93861
▁Amalech	-9.93862
▁všudy	-9.93862
▁Ester	-9.93862
▁pomazal	-9.93862
hlédl	-9.93865
▁vezmi	-9.9387
▁děje	-9.9388
▁slouží	-9.93905
▁výše	-9.93918
pustiv	-9.93937
▁vůli	-9.94096
▁kudy	-9.94174
▁pravo	-9.94235
▁silné	-9.94705
lehl	-9.95324
▁bezbožný	-9.954
▁takový	-9.95641
ustanov	-9.95844
▁Assyrský	-9.95861
▁Pozdrav	-9.95861
▁zpuštěn	-9.95861
▁čiňte	-9.95861
3	-9.95861
▁proroci	-9.95861
▁vysoké	-9.95861
▁západu	-9.95862
▁bližním	-9.95862
▁nikdy	-9.95862
▁Léta	-9.95862
▁rytin	-9.95863
▁podobný	-9.95868
▁vozů	-9.95868
▁jmen	-9.95869
▁duší	-9.9587
▁příbytek	-9.95924
▁hrad	-9.96032
tisk	-9.96041
▁stany	-9.96305
▁med	-9.96474
volati	-9.967
▁sít	-9.96984
▁dvo	-9.97288
▁vytrhn	-9.97387
▁Azariáš	-9.97902
▁Jezreel	-9.97902
▁místech	-9.97902
▁přikazuji	-9.97902
▁zaslíbení	-9.97902
▁Budiž	-9.97902
▁Sidon	-9.97902
▁vstříc	-9.97902
▁zdaleka	-9.97902
rmoutil	-9.97902
▁Sodom	-9.97902
▁svrchu	-9.97902
▁nejsem	-9.97908
▁zkažen	-9.97908
▁pochovali	-9.97921
▁řekne	-9.98094
▁prorokoval	-9.98125
buď	-9.98211
▁jal	-9.9828
▁milují	-9.98535
Nebo	-9.98678
▁který	-9.99211
▁Judstvu	-9.99985
▁otcovských	-9.99985
▁poslouchati	-9.99985
▁utíkal	-9.99987
▁státi	-10.0001
▁měj	-10.0025
▁nevin	-10.0033
krývá	-10.0097
▁čtrnáct	-10.0211
▁Kahat	-10.0211
▁Každý	-10.0211
▁pohlaví	-10.0211
▁Judští	-10.0211
▁Všelik	-10.0211
▁pavéz	-10.0211
▁nebudu	-10.0212
▁Prosím	-10.0212
▁příjemn	-10.0212
▁dítky	-10.0212
▁vezma	-10.0212
▁Buď	-10.0217
▁mladosti	-10.0222
▁víru	-10.0222
▁vězení	-10.0223
▁Dar	-10.0228
▁Jonat	-10.0292
sedl	-10.03
třech	-10.0426
▁dobrovoln	-10.0429
2	-10.0429
▁Asser	-10.0429
▁knihy	-10.0429
▁zavrhl	-10.0429
▁navrať	-10.0429
▁pochován	-10.043
▁nazván	-10.043
▁Judovi	-10.043
▁Azaf	-10.0432
▁ostrov	-10.0432
vracuj	-10.044
držeti	-10.0482
vésti	-10.0587
▁marn	-10.0592
▁Filip	-10.0651
▁přisluhování	-10.0651
▁vládařství	-10.0651
▁Člověk	-10.0651
▁zvědí	-10.0651
zejtří	-10.0651
▁usnul	-10.0651
▁Ráchel	-10.0651
▁nečinil	-10.0651
▁drahé	-10.0651
▁pravda	-10.0652
▁báti	-10.0652
▁potrav	-10.0658
▁milý	-10.0663
▁poslav	-10.0666
chovej	-10.0673
▁křiv	-10.0674
▁spoj	-10.0681
▁Měl	-10.0685
▁štít	-10.0701
▁proměn	-10.0708
však	-10.0748
▁požehná	-10.0832
▁ustavičn	-10.0846
▁Gedeon	-10.0878
▁Herodes	-10.0878
▁Izachar	-10.0878
▁centnéř	-10.0878
▁mrákot	-10.0878
▁obrátiv	-10.0878
▁přebýval	-10.0878
▁zahynul	-10.0878
▁Gabaon	-10.0878
▁Levíty	-10.0878
▁tovaryš	-10.0878
▁narodil	-10.0878
▁hrůz	-10.0878
▁nebesích	-10.0878
▁ukydan	-10.0878
▁moudré	-10.0878
▁uvěřili	-10.0879
▁žádal	-10.0879
▁neobřez	-10.0879
▁následuj	-10.088
▁Maria	-10.088
▁padnou	-10.0882
věděv	-10.0883
▁obilí	-10.0891
▁Bez	-10.0894
jímal	-10.0931
▁háj	-10.0976
stoupiti	-10.1111
▁beránků	-10.1111
▁bláznovství	-10.1111
▁malomocenství	-10.1111
▁mládenci	-10.1111
▁pohledění	-10.1111
▁prvorozený	-10.1111
▁prvotin	-10.1111
▁úhl	-10.1111
▁Nátan	-10.1111
▁hřešil	-10.1111
▁ničeho	-10.1111
▁Masfa	-10.1111
▁zšíří	-10.1112
▁dotkl	-10.1113
▁trub	-10.1116
▁veleb	-10.1136
A	-10.1218
▁studnic	-10.1294
▁mrtvý	-10.1303
olikéž	-10.1344
▁přátel	-10.1347
▁falešn	-10.1349
▁ostříhají	-10.1349
▁třidcíti	-10.1349
▁úředník	-10.1349
▁břemen	-10.1349
▁harf	-10.1349
▁bohové	-10.1349
▁podobně	-10.1349
▁zkazí	-10.135
▁následov	-10.135
▁nápoj	-10.1351
▁škod	-10.1352
▁pokorn	-10.1353
▁Izai	-10.1355
▁sestry	-10.1355
▁Jakub	-10.1356
▁Seir	-10.1356
▁trpí	-10.1362
▁malé	-10.1385
▁sstupují	-10.1385
dělej	-10.1436
hodil	-10.1462
▁vylil	-10.1516
▁prázd	-10.1537
▁odpověd	-10.1589
▁Ger	-10.1593
▁Damašku	-10.1593
▁Kteráž	-10.1593
▁Tehdáž	-10.1593
▁bezbožnost	-10.1593
▁hedbáví	-10.1593
▁mnohem	-10.1593
▁zplozen	-10.1593
▁řkuci	-10.1593
▁kralování	-10.1593
▁klaněti	-10.1593
▁Semaiáš	-10.1593
▁břehu	-10.1593
▁uvrhl	-10.1593
▁Jmén	-10.1593
▁kůži	-10.1593
▁Balák	-10.1593
▁poručil	-10.1593
▁právě	-10.1594
▁zítra	-10.1595
▁ctí	-10.1596
▁hříšn	-10.1596
▁obilé	-10.1597
▁půl	-10.1597
▁Necha	-10.1605
▁myslí	-10.1614
▁leč	-10.1637
▁Vol	-10.1652
čteno	-10.1656
kazuje	-10.1827
dcátého	-10.1843
▁Amaziáš	-10.1843
▁koflík	-10.1843
▁opuštěn	-10.1843
▁osmdesát	-10.1843
▁pětmecítm	-10.1843
4	-10.1843
▁nejmenší	-10.1843
▁očekává	-10.1843
▁tehdy	-10.1843
▁vyhladil	-10.1843
▁nalezne	-10.1843
▁zahyne	-10.1843
▁Merari	-10.1843
▁líbost	-10.1843
▁trpěl	-10.1843
▁Uriáš	-10.1843
▁Ješto	-10.1843
▁poražen	-10.1843
▁nátisk	-10.1845
▁pastv	-10.1847
▁sílu	-10.1851
▁písař	-10.1863
cházející	-10.1876
veden	-10.1884
▁popel	-10.1887
▁vln	-10.1916
▁Kdyby	-10.196
▁pravic	-10.1969
▁jistotně	-10.2099
▁modrého	-10.2099
▁přiblížil	-10.2099
▁stříbrných	-10.2099
▁vzhůru	-10.2099
▁modlitbu	-10.2099
▁rozptýlen	-10.2099
▁západní	-10.2099
▁kvílení	-10.2099
▁nenalezl	-10.2099
▁pokryt	-10.2099
▁Samson	-10.2099
▁pozoruj	-10.2099
▁Sinai	-10.2099
▁obživ	-10.2099
▁zveleb	-10.2099
▁Slovo	-10.21
▁protivník	-10.21
▁Otci	-10.21
▁Hlas	-10.21
▁ulicích	-10.21
▁srdcí	-10.2101
▁nevěří	-10.2102
▁satan	-10.2103
▁páchal	-10.2103
▁rozdíl	-10.2104
▁cti	-10.2108
▁zachoval	-10.2125
▁starý	-10.2142
▁nástroj	-10.2175
▁sloužil	-10.2226
měnil	-10.2313
▁přitáhn	-10.2362
▁zdvih	-10.2362
▁Ezebon	-10.2362
▁dobrotiv	-10.2362
▁mládence	-10.2362
▁obdržel	-10.2362
▁vražedlník	-10.2362
▁výborné	-10.2362
▁úřad	-10.2362
▁Navrať	-10.2362
▁Všemohoucí	-10.2362
▁rouchem	-10.2362
▁stavěti	-10.2362
▁zajaté	-10.2362
▁dotekl	-10.2362
▁vrátn	-10.2362
▁matku	-10.2362
▁držel	-10.2362
▁zemřeli	-10.2363
▁vzácn	-10.2363
▁pohané	-10.2363
▁hodinu	-10.2363
▁Emat	-10.2363
▁okras	-10.2365
vstanou	-10.2365
▁daleko	-10.2369
▁setník	-10.2377
▁žádostiv	-10.2379
▁jat	-10.238
▁Achabov	-10.2617
▁přisluhova	-10.2633
pomínej	-10.2633
▁Galgala	-10.2633
▁Joakim	-10.2633
▁Nejvyšší	-10.2633
▁Ochoziáš	-10.2633
▁devět	-10.2633
▁památk	-10.2633
▁uposlechl	-10.2633
▁uslyšev	-10.2633
▁chválu	-10.2633
▁truhla	-10.2633
▁neučinil	-10.2633
▁přikryl	-10.2633
▁popatř	-10.2633
▁nepoznal	-10.2633
▁Kálef	-10.2633
▁zákoníci	-10.2633
▁poledni	-10.2633
▁ohnivou	-10.2633
▁tázal	-10.2633
apomíná	-10.2633
▁potřín	-10.2633
▁ochotn	-10.2633
▁nemluvil	-10.2634
▁silnější	-10.2634
▁jinak	-10.2634
▁opravoval	-10.2635
▁kalich	-10.2636
▁odjal	-10.2641
▁ovcí	-10.2643
▁nedostat	-10.2645
▁Báz	-10.2654
▁Sílo	-10.2669
▁oslic	-10.272
▁stánk	-10.2845
▁někd	-10.288
x	-10.291
▁neuposlechl	-10.291
▁stvořen	-10.291
▁žoldnéři	-10.291
▁měděné	-10.291
▁otevřen	-10.291
▁pevnost	-10.291
▁pohledí	-10.291
▁Každé	-10.291
▁nadarmo	-10.291
▁nějaký	-10.291
▁vezmou	-10.291
▁plamen	-10.291
▁stůl	-10.2911
▁jedenáct	-10.2911
▁spálen	-10.2911
nášejí	-10.2911
▁Otče	-10.2911
▁pobral	-10.2917
▁střev	-10.2923
vedou	-10.3029
razil	-10.3057
J	-10.3065
plodil	-10.3085
volej	-10.3086
▁přídrž	-10.313
▁Chóre	-10.3196
▁patnáct	-10.3196
▁přísloví	-10.3196
▁vzkříšení	-10.3196
▁živočich	-10.3196
▁Idumejské	-10.3196
▁Mouřenín	-10.3196
▁chvály	-10.3196
▁zdélí	-10.3196
▁Elizeus	-10.3196
▁Kádes	-10.3196
▁hořkost	-10.3196
▁zloděj	-10.3196
rozený	-10.3196
▁zavázal	-10.3196
▁efi	-10.3196
▁vyhnal	-10.3197
▁Milost	-10.3197
▁učitel	-10.3197
▁přijda	-10.3197
▁potkal	-10.3197
▁dsky	-10.3197
▁ponížen	-10.3198
▁nuzné	-10.3198
▁Ráma	-10.3198
půjč	-10.3198
▁Semei	-10.3209
▁poškvrněn	-10.3222
▁zapomen	-10.3246
▁smlouv	-10.3336
▁Bersabé	-10.349
▁Cest	-10.349
▁Gát	-10.349
▁Kaldejské	-10.349
▁pozdvižení	-10.349
▁užitek	-10.349
▁zahynutí	-10.349
▁zvířat	-10.349
▁čtver	-10.349
▁Žalm	-10.349
▁udeřil	-10.349
▁upřímé	-10.349
▁vyplénil	-10.349
▁Židovský	-10.349
▁zpívati	-10.349
▁vůdce	-10.349
▁přikryt	-10.349
▁naučení	-10.349
▁půjdu	-10.349
▁Dokud	-10.349
▁zbroj	-10.349
▁Toliko	-10.3491
▁květ	-10.3491
▁panovati	-10.3491
▁Jimž	-10.3491
▁míry	-10.3491
▁řád	-10.3491
▁knihu	-10.3491
▁líbí	-10.3491
▁kterémuž	-10.3491
▁masa	-10.3495
▁drak	-10.3528
▁vyhladí	-10.3567
▁přijel	-10.3574
volil	-10.36
▁lněn	-10.3655
toliko	-10.3663
čistil	-10.3762
▁Helkiáš	-10.3793
▁Jochanan	-10.3793
▁naříkání	-10.3793
▁pozdrav	-10.3793
▁skutkové	-10.3793
▁stvořil	-10.3793
▁útočiště	-10.3793
▁odsouzen	-10.3793
▁Chíram	-10.3793
cházení	-10.3793
▁soužení	-10.3793
▁Poslal	-10.3793
▁císař	-10.3793
odvrátí	-10.3793
▁běžel	-10.3793
▁podobná	-10.3793
▁zkazil	-10.3793
▁Dobře	-10.3793
▁pominul	-10.3793
▁mědi	-10.3794
▁rcete	-10.3794
▁zanechá	-10.3794
▁povede	-10.3794
▁vladař	-10.3794
▁slepý	-10.3794
▁žádá	-10.3794
▁opoj	-10.3798
▁Jonáš	-10.3799
▁hubil	-10.3801
▁Kananejský	-10.4106
▁blázen	-10.4106
▁druhou	-10.4106
▁krupobití	-10.4106
▁náramenník	-10.4106
▁pohleděl	-10.4106
▁utvrdil	-10.4106
▁vojště	-10.4106
▁částk	-10.4106
▁žízni	-10.4106
▁slaviti	-10.4106
▁lásce	-10.4106
▁měděný	-10.4106
▁Gerson	-10.4106
▁vykoupil	-10.4106
▁lokte	-10.4106
▁záloh	-10.4106
▁neučiní	-10.4106
▁čemuž	-10.4107
▁pokouše	-10.411
▁Pojď	-10.411
▁Obět	-10.4111
▁hříšník	-10.4113
▁poslán	-10.4114
▁Mnoh	-10.4131
▁neznal	-10.4132
bíral	-10.4181
▁staré	-10.4234
▁vycházejí	-10.4333
▁shromáždě	-10.4386
▁Galilee	-10.4428
▁makovic	-10.4428
▁obzvláštně	-10.4428
▁stupňů	-10.4428
▁svědomí	-10.4428
▁zadělané	-10.4428
▁zvěstoval	-10.4428
▁pachole	-10.4428
▁výklad	-10.4428
▁zbořen	-10.4428
▁Safan	-10.4428
▁láska	-10.4428
▁mzdu	-10.4428
▁bojovní	-10.4428
▁blesk	-10.4428
▁napsán	-10.4428
▁kterýmiž	-10.4428
bloudil	-10.4429
▁Pověz	-10.4429
▁pořád	-10.4429
pívejte	-10.4429
▁psán	-10.443
▁snížen	-10.4431
▁pěkn	-10.4433
páliti	-10.4436
▁vypravuj	-10.4496
hladím	-10.4675
cházeje	-10.4762
▁blahoslaven	-10.4762
▁církve	-10.4762
▁pomazání	-10.4762
▁působí	-10.4762
▁rozhněvání	-10.4762
▁rozmnožil	-10.4762
poškvrňuj	-10.4762
▁skutku	-10.4762
▁stříbrné	-10.4762
▁vypléněn	-10.4762
▁aspoň	-10.4762
▁zahladil	-10.4762
▁umříti	-10.4762
▁zeměplaz	-10.4762
▁řetěz	-10.4762
▁Jesua	-10.4762
▁nezůstal	-10.4762
▁Abiatar	-10.4762
▁zžíře	-10.4762
▁Jefte	-10.4762
▁tajně	-10.4762
▁nesnadn	-10.4762
▁neuzří	-10.4762
▁matce	-10.4762
▁Kníže	-10.4762
▁šíji	-10.4762
▁patří	-10.4762
▁říkal	-10.4763
▁smiluj	-10.4764
svěť	-10.4781
▁propustí	-10.4808
▁Bálov	-10.4887
▁Amorejský	-10.5106
▁Barnabáš	-10.5106
▁Godoliáš	-10.5106
▁mrtví	-10.5106
▁oznámeno	-10.5106
▁poslouchal	-10.5106
▁tajemství	-10.5106
▁vysokost	-10.5106
▁vzkřísil	-10.5106
5	-10.5106
▁Syrští	-10.5106
▁hřmot	-10.5106
▁obdrží	-10.5106
▁trpělivost	-10.5106
▁Pavlov	-10.5106
▁Pohleď	-10.5106
▁Samařsk	-10.5106
▁chválí	-10.5106
▁naplň	-10.5106
▁zpéře	-10.5106
třásl	-10.5107
▁Banaiáš	-10.5107
▁mnohá	-10.5107
▁chvále	-10.5107
▁rány	-10.5107
▁Svatý	-10.5107
▁slýchal	-10.5107
▁Judu	-10.5107
▁kozlů	-10.5107
▁příhodn	-10.5107
▁předěšen	-10.5107
▁viděv	-10.5113
▁kamene	-10.5115
mlouval	-10.5119
pochyb	-10.5162
pouštěl	-10.5264
život	-10.5333
▁Bratří	-10.5464
▁Judstva	-10.5464
▁Spravedliv	-10.5464
▁Zhřešil	-10.5464
▁Zlořečený	-10.5464
▁obvesel	-10.5464
▁ospravedlněn	-10.5464
▁ostatků	-10.5464
▁rozmnoží	-10.5464
▁skláně	-10.5464
▁truhlou	-10.5464
▁vládnouti	-10.5464
▁vyzdvihl	-10.5464
▁Karmel	-10.5464
▁některý	-10.5464
▁uchýlil	-10.5464
▁osmnáct	-10.5464
▁kvíliti	-10.5464
▁posměch	-10.5464
▁rozptýlí	-10.5464
▁větru	-10.5464
▁skotů	-10.5464
▁pošlapá	-10.5464
kládají	-10.5464
▁oblečen	-10.5464
▁svícn	-10.5464
▁mzdy	-10.5464
▁nuzný	-10.5464
▁Amnon	-10.5465
▁choď	-10.5466
▁Pokoj	-10.5467
▁daleké	-10.547
▁přicházejí	-10.5523
▁bráti	-10.5618
▁Beránk	-10.5834
▁Maaseiáš	-10.5834
▁hřešení	-10.5834
▁kadidlnic	-10.5834
▁kantorů	-10.5834
▁odpočinul	-10.5834
▁otevřín	-10.5834
▁očišťování	-10.5834
▁pláště	-10.5834
▁posměvač	-10.5834
▁pronárodu	-10.5834
▁proroctví	-10.5834
▁rozmnožen	-10.5834
▁trpěti	-10.5834
▁upřímnosti	-10.5834
▁dělník	-10.5834
▁děvečka	-10.5834
▁nemohou	-10.5834
▁vzbudil	-10.5834
▁duchovní	-10.5834
▁hluboko	-10.5834
▁pátého	-10.5834
▁lásku	-10.5834
▁udatní	-10.5834
▁Edom	-10.5834
▁napřed	-10.5834
▁vzbudí	-10.5834
▁pohleď	-10.5834
▁zpět	-10.5834
▁Heber	-10.5834
▁ránu	-10.5834
▁vykonal	-10.5834
▁Týru	-10.5834
▁Halelu	-10.5834
pomáhal	-10.5834
▁promluvil	-10.5834
▁slituj	-10.5838
▁odstoupil	-10.6124
▁Který	-10.6174
▁Benadad	-10.6219
▁Idumejský	-10.6219
▁kadidla	-10.6219
▁komorník	-10.6219
▁městečka	-10.6219
▁napořád	-10.6219
▁pahrbku	-10.6219
▁pohleděv	-10.6219
▁protivenství	-10.6219
▁předsevzetí	-10.6219
▁sochory	-10.6219
▁uprostřed	-10.6219
▁upřímý	-10.6219
▁zpronevěř	-10.6219
▁Báruch	-10.6219
▁rozmnožuj	-10.6219
▁lásky	-10.6219
▁věčnou	-10.6219
▁ukáži	-10.6219
▁Rámot	-10.6219
▁lépe	-10.6219
▁železné	-10.6219
▁oblékl	-10.6219
▁pramen	-10.6219
▁přikryj	-10.6219
▁pečet	-10.6219
ědouce	-10.6219
▁loutn	-10.6219
▁kněžský	-10.6219
▁zkušen	-10.6221
▁sežral	-10.6222
▁zžíra	-10.6227
▁Panovní	-10.6495
▁Udělá	-10.6541
▁výborný	-10.6619
▁Fínes	-10.6619
▁Lépe	-10.6619
▁Mesullam	-10.6619
▁Sarvie	-10.6619
▁Vezměte	-10.6619
▁Zorobábel	-10.6619
▁cizozemců	-10.6619
▁ječmene	-10.6619
▁navrátiv	-10.6619
▁okršlek	-10.6619
▁plésati	-10.6619
▁plésání	-10.6619
▁pokřtěn	-10.6619
▁provinění	-10.6619
▁trestati	-10.6619
▁truhly	-10.6619
▁úklad	-10.6619
▁čtyřmecítma	-10.6619
▁Ezdráš	-10.6619
▁Támar	-10.6619
▁líbilo	-10.6619
▁popouzel	-10.6619
▁zkřikl	-10.6619
▁bravů	-10.6619
▁chtěje	-10.6619
▁vypléním	-10.6619
▁pokušení	-10.6619
čátek	-10.6619
▁Arnon	-10.6619
▁druhá	-10.6619
▁vichřic	-10.6619
▁nastroj	-10.6619
▁ohrad	-10.6619
▁žalost	-10.6619
▁slušn	-10.6623
▁čern	-10.6631
▁Joachaz	-10.7035
▁Lachis	-10.7035
▁barveného	-10.7035
▁devadesát	-10.7035
▁kobylky	-10.7035
▁korouhev	-10.7035
▁náprsník	-10.7035
▁obklíčil	-10.7035
▁otvírá	-10.7035
▁přebývati	-10.7035
▁stříbrná	-10.7035
▁trestání	-10.7035
▁čaloun	-10.7035
▁říkaje	-10.7035
8	-10.7035
▁Assur	-10.7035
▁břímě	-10.7035
▁nejlepší	-10.7035
▁utvrzen	-10.7035
▁kulhav	-10.7035
▁modlitba	-10.7035
jmilejší	-10.7035
▁vojnu	-10.7035
T	-10.734
0	-10.747
P	-10.7794
9	-10.8401
6	-10.8901
M	-10.9293
S	-11.044
7	-11.0571
Ž	-11.1193
E	-11.4955
V	-11.7068
I	-11.7069
N	-11.8317
D	-12.1412
O	-12.1413
Z	-12.1415
L	-12.9248
R	-12.9248
Š	-13.4248
#	-14.4363
Ď	-14.4364
Ú	-14.4365
]	-14.4366
Ó	-14.4367
Č	-14.4368
Ř	-14.4369
(	-14.437
U	-14.4371
F	-14.4372
G	-14.4373
C	-14.4374
ú	-14.4375
K	-14.4376
B	-14.4377
H	-14.4378
Í	-14.4378
Ý	-14.4378
