<pad>	0
</s>	0
<unk>	0
▁the	-3.36442
.	-3.39166
,	-3.43076
▁and	-3.82098
▁to	-3.84181
▁of	-3.84704
s	-4.0837
▁	-4.18543
▁in	-4.29706
▁a	-4.32674
ing	-4.41662
-	-4.64858
ed	-4.74849
▁for	-4.83184
▁you	-4.84007
▁with	-4.94734
▁your	-4.98069
▁covid	-5.03723
▁is	-5.06824
▁or	-5.07801
▁The	-5.13582
-19	-5.16928
▁that	-5.21773
▁on	-5.24005
▁are	-5.25017
▁be	-5.27338
▁have	-5.30562
▁cases	-5.34461
▁as	-5.38579
▁from	-5.40066
▁were	-5.52449
▁not	-5.53801
ly	-5.54309
▁(	-5.55096
y	-5.5828
d	-5.63599
e	-5.64217
▁will	-5.77831
▁by	-5.79793
▁people	-5.81679
▁A	-5.81949
f	-5.83197
▁at	-5.87499
▁can	-5.91363
▁virus	-5.9283
▁I	-5.94786
)	-5.96693
'	-5.99092
▁was	-5.99198
▁if	-5.99227
▁has	-6.00531
▁who	-6.00907
▁it	-6.02002
▁been	-6.06038
▁health	-6.06616
▁deaths	-6.07402
▁reported	-6.09151
cov	-6.10347
▁may	-6.10862
▁an	-6.14691
:	-6.17949
▁symptoms	-6.20623
t	-6.23098
▁You	-6.2496
ir	-6.25538
▁other	-6.25738
al	-6.26586
▁sars	-6.29082
▁test	-6.36464
▁more	-6.36878
▁contact	-6.38031
▁should	-6.4239
▁this	-6.42458
▁march	-6.45019
▁s	-6.45273
▁number	-6.48206
n	-6.4918
▁disease	-6.49771
▁coronavirus	-6.49996
▁also	-6.51485
r	-6.54826
▁do	-6.54963
▁vaccine	-6.56315
notified	-6.58268
▁It	-6.59236
▁On	-6.59312
▁than	-6.61251
had	-6.62093
▁countries	-6.62305
▁about	-6.62329
▁further	-6.63188
▁2020	-6.6325
▁This	-6.66803
▁In	-6.68596
▁all	-6.68785
▁"	-6.68834
▁they	-6.69271
▁outbreak	-6.69289
▁total	-6.71034
▁which	-6.71038
▁when	-6.7109
▁face	-6.71359
in	-6.72902
▁one	-6.73094
▁no	-6.74389
uch	-6.76144
▁pandemic	-6.77484
▁after	-6.80219
▁risk	-6.80286
▁home	-6.80488
▁2	-6.80991
a	-6.81062
▁spread	-6.81274
▁patients	-6.81333
▁get	-6.84896
▁time	-6.85096
▁use	-6.85122
▁de	-6.85459
▁first	-6.86016
▁public	-6.86019
▁confirmed	-6.86106
-2	-6.89116
▁infection	-6.89502
▁data	-6.90562
▁w	-6.91576
▁china	-6.91769
▁over	-6.92967
▁need	-6.94011
▁hands	-6.9483
▁5	-6.94916
▁some	-6.95369
▁bring	-6.96041
▁including	-6.97316
m	-6.97633
▁app	-6.98256
▁new	-6.99498
▁them	-6.99778
▁but	-7.0036
▁C	-7.02858
▁case	-7.03351
▁february	-7.04316
due	-7.04668
▁child	-7.04954
▁stay	-7.05821
▁days	-7.06399
▁high	-7.06422
▁others	-7.06682
"	-7.0689
▁these	-7.0939
▁unit	-7.09804
▁government	-7.10207
▁4	-7.10318
▁two	-7.10502
▁1	-7.10964
▁under	-7.11054
▁care	-7.12084
▁help	-7.12653
▁S	-7.12709
▁travel	-7.12768
st	-7.13193
;	-7.13388
▁/	-7.13388
▁any	-7.13827
▁us	-7.14264
▁close	-7.14835
▁those	-7.14864
▁january	-7.15639
▁person	-7.16023
▁positive	-7.16384
p	-7.17376
▁gp	-7.19437
▁previously	-7.19472
▁most	-7.19658
▁B	-7.19993
▁respirator	-7.20007
er	-7.20079
▁school	-7.20186
▁available	-7.20225
▁3	-7.2069
▁day	-7.21907
▁medical	-7.24209
▁infected	-7.24379
▁work	-7.26233
▁tested	-7.26319
ould	-7.26649
▁up	-7.27053
se	-7.27772
▁cover	-7.27955
▁protect	-7.29098
▁transmission	-7.29231
▁there	-7.29318
▁between	-7.30093
▁dur	-7.30166
▁m	-7.30344
▁possible	-7.30993
▁-	-7.31696
on	-7.31734
▁advice	-7.31906
ic	-7.32574
▁–	-7.33617
▁april	-7.33639
out	-7.35178
▁P	-7.35205
c	-7.35217
▁million	-7.35427
▁children	-7.35435
▁wear	-7.35499
▁illness	-7.36281
▁its	-7.36374
▁re	-7.36601
es	-7.372
▁states	-7.38169
▁Do	-7.38199
ry	-7.38302
1	-7.38588
▁un	-7.38619
▁could	-7.3919
▁10	-7.3923
▁restrictions	-7.40287
▁severe	-7.41196
▁country	-7.4204
▁only	-7.42594
ce	-7.42982
▁social	-7.43114
▁u	-7.43554
▁world	-7.44001
▁ireland	-7.44004
▁out	-7.44205
▁announced	-7.45017
▁14	-7.45647
-19.	-7.45861
▁into	-7.46834
▁through	-7.47076
▁result	-7.4845
▁we	-7.48528
▁go	-7.49039
▁while	-7.49149
▁well	-7.4915
▁measures	-7.49289
▁response	-7.49394
▁hospital	-7.49429
l	-7.49569
▁9	-7.49703
▁human	-7.49706
many	-7.49885
te	-7.51558
▁death	-7.51688
▁T	-7.53262
i	-7.53349
▁how	-7.53401
▁take	-7.54338
▁away	-7.54611
▁system	-7.55009
▁20	-7.55065
▁before	-7.55601
ion	-7.55734
▁treatment	-7.56113
▁food	-7.56889
▁6	-7.57034
▁testing	-7.57412
▁vaccines	-7.57951
o	-7.58086
▁information	-7.59012
▁someone	-7.5902
▁make	-7.59138
▁mask	-7.59638
▁same	-7.60181
▁being	-7.61054
▁call	-7.61102
▁where	-7.61426
▁host	-7.62107
▁community	-7.62536
).	-7.63493
▁7	-7.64298
able	-7.64418
▁used	-7.6478
▁against	-7.64988
▁19	-7.65493
▁cause	-7.66005
▁emergency	-7.66245
▁As	-7.6693
▁wuhan	-7.67512
▁schools	-7.67645
),	-7.67665
▁There	-7.67864
▁include	-7.67878
▁relat	-7.67882
▁so	-7.68362
▁large	-7.69992
▁fever	-7.70001
▁early	-7.7003
▁services	-7.70226
▁hcov	-7.70931
▁When	-7.71293
▁students	-7.71576
▁national	-7.71867
▁8	-7.73255
▁nose	-7.74152
▁conditions	-7.74322
▁italy	-7.75394
▁humans	-7.76124
▁We	-7.76608
▁june	-7.76681
▁found	-7.76693
▁non	-7.76725
ive	-7.77666
ers	-7.77898
▁what	-7.7805
▁issued	-7.78127
the	-7.78247
▁mers	-7.78305
▁share	-7.78608
▁support	-7.78648
▁areas	-7.7914
▁restrict	-7.79397
▁least	-7.79461
▁service	-7.80653
▁age	-7.80767
▁i	-7.80775
▁infections	-7.80796
▁important	-7.80887
▁known	-7.81052
▁give	-7.81468
▁hand	-7.81472
▁show	-7.81875
▁long	-7.82318
▁surveillance	-7.82343
▁keep	-7.82343
▁south	-7.82374
▁clinical	-7.82469
▁hse	-7.82838
▁chest	-7.83813
▁self	-7.83865
▁movements	-7.84051
g	-7.84499
▁M	-7.8481
▁attend	-7.85299
▁healthcare	-7.85351
▁chinese	-7.855
▁2019	-7.85768
based	-7.85847
?	-7.86814
▁phone	-7.86865
▁around	-7.87052
▁t	-7.87114
▁open	-7.87117
▁per	-7.87639
▁15	-7.8795
▁place	-7.88052
▁avoid	-7.88353
▁down	-7.88361
▁until	-7.88366
▁much	-7.88561
0	-7.88733
▁workers	-7.88928
9	-7.892
▁years	-7.8936
▁able	-7.90395
▁affected	-7.90416
▁11	-7.90549
▁24	-7.90943
▁education	-7.91307
▁remain	-7.91505
▁level	-7.91559
▁closures	-7.91987
▁visit	-7.92023
ity	-7.92196
▁bats	-7.92758
▁population	-7.92916
▁centre	-7.93041
▁’	-7.93115
▁every	-7.93125
▁common	-7.93154
▁viruses	-7.93631
▁masks	-7.939
ight	-7.93915
2	-7.93951
▁c	-7.94049
▁control	-7.94077
▁following	-7.94139
▁For	-7.94772
ve	-7.95359
▁closed	-7.95608
▁12	-7.95979
to	-7.96078
▁doctor	-7.96354
▁immun	-7.96398
▁pain	-7.96401
▁However	-7.96431
am	-7.96894
▁receive	-7.97753
▁prevent	-7.9802
▁effective	-7.98112
ute	-7.9927
ting	-7.99412
▁Rea	-7.99463
8	-7.99524
▁even	-7.9975
▁dublin	-7.9984
▁study	-7.99841
▁international	-7.99843
▁mouth	-7.99858
▁usual	-7.99945
▁hours	-8.00301
not	-8.00892
▁state	-8.01263
▁december	-8.01595
▁our	-8.01769
▁13	-8.01961
viral	-8.02129
h	-8.022
▁results	-8.02718
▁appointment	-8.03407
▁because	-8.03411
▁among	-8.03588
▁tracking	-8.03749
ther	-8.03875
re	-8.03923
▁recommended	-8.03947
ies	-8.04805
▁weeks	-8.0497
▁p	-8.05157
▁flu	-8.05189
▁quarantine	-8.0519
▁major	-8.05199
▁contain	-8.05214
▁last	-8.05218
▁current	-8.05249
▁live	-8.05363
ng	-8.05401
▁often	-8.05646
▁cough	-8.05881
▁al	-8.07003
▁example	-8.07051
▁both	-8.07056
▁epidemic	-8.07067
▁23	-8.07324
▁like	-8.0737
▁meter	-8.07495
um	-8.0882
▁blood	-8.08942
▁body	-8.09073
▁another	-8.09141
less	-8.0969
very	-8.10007
▁D	-8.10015
▁ac	-8.10283
▁safe	-8.10475
▁Some	-8.10671
▁week	-8.10821
▁follow	-8.10871
▁must	-8.10882
▁negative	-8.10907
▁group	-8.11101
ous	-8.11711
ian	-8.12088
▁16	-8.12645
▁three	-8.12821
▁different	-8.12824
▁especially	-8.12899
▁made	-8.12951
▁higher	-8.13039
▁protein	-8.13172
4	-8.13714
ation	-8.14272
▁reduce	-8.14504
▁local	-8.14821
▁family	-8.14869
▁events	-8.15338
tic	-8.159
▁alert	-8.15913
▁18	-8.16092
▁caus	-8.16346
b	-8.16711
▁department	-8.16862
▁Covid	-8.16882
th	-8.17361
an	-8.17897
▁similar	-8.18945
▁european	-8.18962
▁come	-8.19421
ment	-8.19512
▁feel	-8.19785
▁see	-8.19935
all	-8.20605
ness	-8.20911
▁short	-8.21066
▁But	-8.21073
▁since	-8.2108
▁rna	-8.21083
▁safety	-8.2109
▁yourself	-8.21112
▁touch	-8.21508
3	-8.21873
▁bat	-8.22282
▁increase	-8.2288
▁water	-8.23204
▁tests	-8.23243
▁research	-8.23247
▁staff	-8.23248
▁phase	-8.2325
▁low	-8.23448
▁clean	-8.24182
▁2020.	-8.24728
▁less	-8.25113
▁having	-8.2547
▁worldwide	-8.25479
▁return	-8.25489
▁provide	-8.25525
▁30	-8.2556
▁each	-8.25567
▁fines	-8.25808
ll	-8.25909
▁center	-8.26028
▁end	-8.26061
▁diseases	-8.26325
▁global	-8.27338
00	-8.27464
▁covs	-8.27657
▁four	-8.27714
▁pneumonia	-8.27742
▁team	-8.27743
▁required	-8.28229
▁detected	-8.28341
▁rate	-8.28468
▁hcovs	-8.28507
▁report	-8.2853
7	-8.29195
▁F	-8.29615
▁order	-8.2978
▁22	-8.3003
▁infectious	-8.30035
▁outside	-8.30068
▁near	-8.30075
▁enter	-8.30081
▁identified	-8.30137
▁city	-8.30162
▁tracker	-8.30166
▁does	-8.30301
▁likely	-8.30569
▁cold	-8.30717
▁individuals	-8.30744
▁washing	-8.31271
le	-8.31923
▁wash	-8.32403
▁transport	-8.32418
▁laboratory	-8.32448
▁said	-8.3247
▁however	-8.32483
vel	-8.32504
▁lower	-8.32531
▁house	-8.32543
▁To	-8.32562
▁county	-8.32642
▁received	-8.32977
cross	-8.33307
▁trials	-8.33604
▁healthy	-8.33689
ol	-8.34036
as	-8.34331
ar	-8.3466
ory	-8.34755
▁equipment	-8.34888
▁Stay	-8.34888
▁still	-8.34896
▁mild	-8.34951
▁suspect	-8.34984
▁ill	-8.35483
▁personal	-8.3552
▁second	-8.35583
▁developed	-8.35607
▁drug	-8.35653
▁way	-8.35894
6	-8.36044
or	-8.36071
▁samples	-8.36168
▁signs	-8.36421
▁26	-8.3647
▁28	-8.36667
▁specific	-8.37085
▁know	-8.37236
▁period	-8.37385
▁suggest	-8.37388
▁wait	-8.37388
▁sick	-8.37408
▁back	-8.37454
▁online	-8.37533
▁increased	-8.37811
▁sure	-8.37934
-19,	-8.38455
▁E	-8.38543
us	-8.38549
▁economi	-8.39027
▁sever	-8.39681
▁then	-8.39874
▁eu	-8.39878
▁How	-8.39938
▁syndrome	-8.39952
▁baby	-8.39953
▁daily	-8.39953
▁Wash	-8.39953
▁influenza	-8.39953
▁list	-8.40001
▁associated	-8.40013
▁vaccinated	-8.40128
▁main	-8.40156
▁times	-8.40161
▁n	-8.40323
▁di	-8.40353
▁year	-8.414
▁limit	-8.41701
▁don	-8.41749
▁21	-8.41846
▁normal	-8.42174
0%	-8.4223
▁five	-8.42632
▁uk	-8.42692
▁properly	-8.42695
▁later	-8.42739
▁learning	-8.42804
▁late	-8.43055
▁development	-8.43099
▁lockdown	-8.43998
▁impact	-8.44382
▁start	-8.44405
▁O	-8.44805
▁17	-8.44853
▁continue	-8.44944
5	-8.44994
u	-8.45129
▁f	-8.45181
▁Open	-8.45286
▁cyberattack	-8.45286
▁evidence	-8.45287
▁own	-8.45287
▁distancing	-8.4531
▁places	-8.4557
▁stated	-8.45948
▁sign	-8.46224
▁organization	-8.46283
▁official	-8.46434
covid	-8.46631
▁recommend	-8.47151
ial	-8.47418
▁allow	-8.47495
▁needs	-8.47568
▁G	-8.47728
ine	-8.47807
▁korea	-8.47905
▁sneezing	-8.48064
▁women	-8.48064
▁separation	-8.48071
▁access	-8.48085
▁few	-8.48127
▁prevention	-8.48151
▁astrazeneca	-8.48275
▁breath	-8.4872
▁b	-8.48891
▁animal	-8.49196
▁part	-8.49298
▁effects	-8.49616
▁'	-8.49683
▁called	-8.50465
▁groups	-8.50563
▁direct	-8.50649
cal	-8.50798
eople	-8.50887
▁potential	-8.50924
▁variant	-8.50935
▁extend	-8.51023
▁type	-8.5108
▁name	-8.51129
▁present	-8.51142
▁And	-8.51265
▁done	-8.5137
▁months	-8.51653
at	-8.51694
▁Man	-8.51736
▁Mo	-8.51935
▁right	-8.52096
il	-8.52158
▁date	-8.52189
though	-8.52283
▁doses	-8.52424
▁affect	-8.5299
▁put	-8.5337
▁immediate	-8.53467
eep	-8.53848
▁his	-8.5386
▁already	-8.53862
▁antibodies	-8.53862
▁particular	-8.53862
▁small	-8.53862
▁history	-8.53876
▁distance	-8.5389
▁add	-8.53954
▁now	-8.53961
▁inter	-8.54484
▁develop	-8.54519
▁become	-8.55174
▁car	-8.55791
▁mobil	-8.56038
ra	-8.56833
▁anti	-8.56857
▁natural	-8.56892
▁exposure	-8.56893
▁temperature	-8.56893
▁significant	-8.56899
▁intermedia	-8.56906
▁authorities	-8.56956
▁primary	-8.57084
▁estimated	-8.57098
▁levels	-8.57102
▁li	-8.57351
▁corona	-8.5755
▁50	-8.57886
▁vaccination	-8.58154
▁ask	-8.58191
▁area	-8.58253
▁effect	-8.58254
▁genome	-8.58329
▁essential	-8.5842
essential	-8.58465
ccording	-8.58666
▁too	-8.58724
▁2021	-8.59629
▁whe	-8.59823
▁initial	-8.60022
▁An	-8.60027
▁far	-8.60077
▁general	-8.60092
▁find	-8.6011
▁arrange	-8.60126
▁pregnant	-8.60142
▁centres	-8.6018
▁protection	-8.60214
▁critical	-8.6022
▁details	-8.60268
▁H	-8.61051
▁practices	-8.61378
▁ch	-8.61536
▁meet	-8.61955
▁rates	-8.62415
▁collect	-8.62473
ide	-8.62553
,000	-8.62553
▁co	-8.62595
▁addition	-8.62848
▁media	-8.62943
ontact	-8.63137
▁shopping	-8.63244
▁serious	-8.63244
▁alone	-8.63259
▁hygiene	-8.63261
▁minister	-8.63446
▁ma	-8.63503
▁immediately	-8.63683
▁means	-8.63736
▁cov	-8.64055
▁advis	-8.64114
▁spreading	-8.6425
▁aged	-8.64394
is	-8.64507
▁breathing	-8.64671
▁according	-8.64721
▁sample	-8.64859
en	-8.6514
▁dose	-8.65488
▁detect	-8.657
▁best	-8.65721
▁ha	-8.65891
▁31	-8.66553
▁Follow	-8.66576
▁household	-8.66578
▁onset	-8.66588
mental	-8.66673
▁free	-8.66823
▁cancelled	-8.66833
▁secondary	-8.66835
tensive	-8.66839
▁Re	-8.67005
▁declar	-8.67134
▁coronaviruses	-8.6719
▁provided	-8.67421
w	-8.68083
▁cell	-8.68335
▁systems	-8.68408
▁27	-8.68496
risk	-8.68501
▁animals	-8.68632
▁25	-8.6883
48	-8.69163
▁worse	-8.69376
▁form	-8.69492
ent	-8.69753
▁pass	-8.69954
▁pregnancy	-8.70025
▁adapt	-8.70025
▁executive	-8.70025
▁president	-8.70034
▁post	-8.70066
▁rsc	-8.70112
▁adults	-8.70205
▁leave	-8.70365
▁factors	-8.70611
▁eyes	-8.70792
k	-8.71031
▁limited	-8.71196
▁hosts	-8.71565
▁india	-8.71626
▁causes	-8.71627
▁numbers	-8.71693
▁side	-8.71827
▁trial	-8.71914
▁r	-8.71944
term	-8.72117
".	-8.72855
▁Th	-8.72991
229	-8.73116
▁special	-8.73266
▁great	-8.73416
▁again	-8.73512
."	-8.73557
▁crisis	-8.73596
▁necessary	-8.73596
▁monday	-8.73599
▁gardaí	-8.73601
▁tell	-8.73622
▁director	-8.73626
▁Other	-8.7364
rcgp	-8.73708
▁published	-8.73742
▁send	-8.73768
▁longer	-8.73784
▁require	-8.73816
▁depend	-8.73916
▁screening	-8.74118
▁Don	-8.74319
▁he	-8.7483
▁No	-8.74869
▁surfaces	-8.74905
▁term	-8.75182
ur	-8.75614
isolation	-8.75733
▁st	-8.75978
▁ra	-8.76058
▁Al	-8.76722
▁proteins	-8.76782
▁stop	-8.76969
inister	-8.77236
▁europe	-8.77271
▁iran	-8.77275
▁hubei	-8.773
▁delay	-8.773
▁mortality	-8.773
▁north	-8.77302
▁left	-8.77303
▁analysis	-8.77304
▁breach	-8.77305
▁zoono	-8.77307
▁Wear	-8.77367
▁200	-8.774
ological	-8.77451
▁controls	-8.77464
▁third	-8.77626
▁check	-8.77686
▁plan	-8.78177
via	-8.78257
▁ho	-8.78259
▁persons	-8.7835
it	-8.78463
▁asked	-8.78477
ever	-8.78665
▁cells	-8.79197
ch	-8.79226
▁concern	-8.79432
▁coughing	-8.79844
▁29	-8.80262
▁k	-8.80439
▁nurs	-8.80623
▁office	-8.81003
▁origin	-8.81056
▁reservoir	-8.81146
▁paper	-8.81146
▁pressure	-8.81146
▁soap	-8.81146
▁activity	-8.81147
▁mich	-8.81149
▁What	-8.81155
▁taking	-8.81164
▁everyone	-8.81165
ttle	-8.81168
▁That	-8.81169
▁asymptomatic	-8.81175
▁seven	-8.81179
▁severity	-8.81202
▁began	-8.81215
▁drive	-8.81221
▁citizens	-8.81229
▁life	-8.81241
▁figures	-8.813
▁tract	-8.81305
▁dry	-8.81305
▁try	-8.81488
▁guidelines	-8.81592
▁cdc	-8.81623
▁Co	-8.82093
▁started	-8.82424
▁died	-8.82612
63	-8.82918
▁hotel	-8.83182
x	-8.83326
▁cluster	-8.83367
▁source	-8.83393
▁practice	-8.83438
▁patient	-8.83542
like	-8.83547
coronavirus	-8.836
relat	-8.83607
▁hospitals	-8.83653
▁experience	-8.83667
pm	-8.83932
▁treat	-8.84209
▁east	-8.84281
ally	-8.84285
ie	-8.84539
▁R	-8.84823
▁com	-8.84948
▁america	-8.8499
▁Use	-8.85006
▁enough	-8.85146
▁increasing	-8.85149
▁feet	-8.85149
▁billion	-8.85149
▁university	-8.85154
▁studies	-8.85157
▁mandatory	-8.85159
▁multiple	-8.85161
▁cities	-8.85171
▁older	-8.85188
▁physical	-8.85232
▁six	-8.85251
▁Health	-8.85275
▁approximate	-8.85287
▁technology	-8.85308
5%	-8.85468
▁considered	-8.85509
ty	-8.86802
est	-8.87026
▁attack	-8.87349
▁change	-8.87359
▁officer	-8.87505
▁sequence	-8.87687
up	-8.87885
▁sent	-8.87991
▁pre	-8.88128
▁process	-8.88268
▁just	-8.88945
▁clinic	-8.89067
▁contacts	-8.89142
▁africa	-8.89156
▁diagnosis	-8.89313
▁protest	-8.89313
▁throat	-8.89313
▁toilet	-8.89313
▁future	-8.89315
▁single	-8.89317
▁middle	-8.8935
▁heart	-8.89364
ia	-8.89399
▁offer	-8.89443
▁greate	-8.89528
▁rapidly	-8.89612
tory	-8.89822
▁range	-8.90004
▁taken	-8.9001
▁isolated	-8.90106
ter	-8.90149
.30	-8.90285
▁species	-8.90559
et	-8.90641
na	-8.91095
ized	-8.91221
land	-8.91466
▁region	-8.91921
▁market	-8.91948
ate	-8.92043
sars	-8.92182
▁monitor	-8.92443
ary	-8.9251
tion	-8.93041
▁eat	-8.93176
covs	-8.93452
hildren	-8.93624
▁brazil	-8.93628
▁france	-8.9366
▁virology	-8.93662
▁Sars	-8.93663
▁fatality	-8.93668
▁unknown	-8.93671
▁ensure	-8.93671
▁certain	-8.93683
▁assessment	-8.93699
▁walk	-8.937
▁Coronavirus	-8.937
▁childcare	-8.93719
▁mass	-8.9374
▁camels	-8.93779
▁set	-8.93864
▁lead	-8.93902
▁soon	-8.93907
▁reopening	-8.9443
▁allowed	-8.95071
▁changes	-8.95525
▁air	-8.9554
▁working	-8.95815
▁good	-8.9638
▁crowd	-8.96406
▁exercise	-8.9645
ance	-8.96627
▁drugs	-8.9678
hse	-8.96887
▁dis	-8.97061
▁o	-8.97642
▁arr	-8.97848
▁ple	-8.97853
▁slow	-8.97861
▁liv	-8.97905
▁season	-8.98002
ld	-8.98047
▁mid	-8.9819
▁beta	-8.98198
▁droplets	-8.98206
▁elderly	-8.98206
▁supply	-8.98206
▁think	-8.98206
▁demand	-8.98206
▁tissue	-8.98207
▁efficacy	-8.98216
▁Get	-8.9823
▁text	-8.98239
▁describ	-8.98247
▁assess	-8.98264
▁containment	-8.98283
▁foreign	-8.98297
▁antiviral	-8.9831
▁want	-8.98313
▁swab	-8.98319
pfizer	-8.98354
▁relative	-8.98365
▁minutes	-8.98411
▁highest	-8.98492
▁difficulty	-8.98522
▁removed	-8.98631
▁wide	-8.98927
▁genetic	-8.98971
ip	-8.98984
▁60	-8.98999
▁reduced	-8.99224
han	-8.99373
qu	-8.99516
▁included	-8.99576
▁residents	-8.99724
▁e	-8.99731
efore	-9.00119
▁v	-9.00145
▁going	-9.00501
▁record	-9.00667
▁ye	-9.0075
▁l	-9.00862
ocial	-9.00958
▁certificate	-9.01008
▁room	-9.01139
▁lung	-9.0121
▁outdoor	-9.0121
▁surface	-9.01252
▁symptom	-9.01264
▁phe	-9.01283
▁news	-9.01483
oc	-9.01603
fter	-9.01881
▁par	-9.01907
43	-9.0238
▁pro	-9.02953
▁saturday	-9.02968
▁supplies	-9.02968
▁diarrhea	-9.02968
▁nationwide	-9.02969
▁commission	-9.0297
▁express	-9.03011
▁japan	-9.03011
▁reach	-9.03209
ested	-9.03218
▁occurred	-9.03245
▁things	-9.03268
▁parents	-9.03612
▁begin	-9.0364
▁medicines	-9.03699
oose	-9.03748
▁efforts	-9.03872
▁includes	-9.04793
▁ordered	-9.04821
▁governments	-9.05058
going	-9.05823
▁Ch	-9.05826
▁workplace	-9.06206
▁Mak	-9.06318
▁recover	-9.06646
ital	-9.06916
▁leav	-9.0755
ill	-9.07767
ful	-9.07878
▁crown	-9.07968
▁diabetes	-9.07968
▁families	-9.07968
▁friday	-9.07968
▁stephen	-9.07968
▁straight	-9.07968
▁vulnerable	-9.07968
▁birth	-9.07968
▁regard	-9.07968
▁better	-9.07969
▁passenger	-9.07972
▁trump	-9.07975
▁findings	-9.08002
▁november	-9.08013
▁amount	-9.08013
▁serve	-9.08084
▁half	-9.08092
▁entry	-9.08121
▁approved	-9.08242
▁He	-9.08298
▁restaurants	-9.08374
▁ten	-9.08585
▁generally	-9.08621
▁nas	-9.08657
▁members	-9.08827
▁notice	-9.08877
▁homes	-9.0933
▁vari	-9.09368
▁my	-9.09858
▁mak	-9.09916
▁regions	-9.10014
ac	-9.10098
ge	-9.10254
▁man	-9.10511
▁her	-9.10541
▁occur	-9.10598
ability	-9.11335
▁fall	-9.11351
ical	-9.11372
▁receptor	-9.11375
▁aid	-9.11449
species	-9.1167
high	-9.11683
most	-9.11741
▁talk	-9.11944
im	-9.11979
▁centers	-9.11998
▁worker	-9.12008
▁resident	-9.12128
▁me	-9.12423
95	-9.12647
▁recent	-9.12844
▁full	-9.12848
▁remove	-9.12938
ok	-9.13063
▁foot	-9.13229
▁closing	-9.13231
▁entire	-9.13231
▁kingdom	-9.13231
▁Clean	-9.13231
▁feature	-9.13232
▁eea	-9.13232
▁universities	-9.13233
▁vector	-9.13233
▁retail	-9.13236
▁review	-9.1324
▁chance	-9.13256
▁mutation	-9.13274
me	-9.13325
▁activities	-9.13345
▁Sever	-9.1335
▁anyone	-9.13446
▁ital	-9.13463
▁training	-9.1347
▁law	-9.13543
▁released	-9.13564
table	-9.13607
▁weight	-9.13638
▁isolate	-9.14115
▁recovered	-9.14191
v	-9.14207
elly	-9.1447
▁estimates	-9.14529
▁Du	-9.14534
▁aim	-9.14656
▁quarantined	-9.14702
age	-9.1515
▁handl	-9.15385
0,000	-9.15477
of	-9.15486
▁isolation	-9.15527
▁plans	-9.1572
▁cleaning	-9.16298
ish	-9.16454
▁shar	-9.16563
▁outbreaks	-9.16824
▁course	-9.17028
came	-9.17235
who	-9.17257
stay	-9.17257
public	-9.17279
▁100	-9.17498
▁closure	-9.17568
el	-9.176
▁real	-9.17687
▁address	-9.17823
▁refer	-9.18004
▁difficult	-9.18367
▁rapid	-9.18387
artin	-9.18449
▁function	-9.1857
▁At	-9.18656
▁Un	-9.18767
▁else	-9.18785
acetam	-9.18787
▁With	-9.18787
▁biontech	-9.18787
▁facilities	-9.18787
▁failure	-9.18787
▁internet	-9.18787
▁themselves	-9.18787
▁receiving	-9.18787
▁above	-9.18788
▁ventilation	-9.18788
▁regulations	-9.18793
nique	-9.18806
▁institute	-9.18811
▁germany	-9.1882
▁quickly	-9.18845
▁johnson	-9.18855
▁fight	-9.18878
▁australia	-9.18925
▁exist	-9.19015
▁teachers	-9.1904
▁easy	-9.19042
▁inform	-9.19053
▁leg	-9.19074
▁recently	-9.19215
▁pathogenic	-9.19271
13	-9.19386
▁involved	-9.19402
▁4,8	-9.19424
ose	-9.19446
▁additional	-9.19539
▁indicated	-9.19608
▁gatherings	-9.19848
▁recorded	-9.19855
▁toward	-9.19869
▁donn	-9.20046
▁dispos	-9.20598
▁move	-9.20699
▁produce	-9.21375
▁drink	-9.2139
▁Not	-9.21468
▁happen	-9.21495
ase	-9.21696
▁becomes	-9.2212
▁code	-9.22496
nt	-9.22622
iv	-9.22845
▁indoor	-9.22918
▁individual	-9.22953
▁condition	-9.22962
ted	-9.23144
▁track	-9.23198
▁design	-9.23258
▁link	-9.23768
▁clear	-9.23822
▁line	-9.23853
▁d	-9.24068
▁Tak	-9.24251
▁release	-9.24327
▁Late	-9.24565
▁prior	-9.24625
▁sub	-9.24631
▁extra	-9.24661
▁expert	-9.24667
▁Avoid	-9.24669
▁alcohol	-9.24669
▁gloves	-9.24669
▁improve	-9.24669
▁widespread	-9.24669
▁together	-9.2467
▁decide	-9.24671
▁moderna	-9.24671
▁difference	-9.24671
▁subject	-9.24675
▁breast	-9.24676
▁privacy	-9.24678
▁understand	-9.24678
central	-9.24682
▁worried	-9.24726
▁cancer	-9.24727
▁More	-9.24739
▁spain	-9.24745
▁appropriate	-9.24757
▁reaction	-9.24818
▁transmitted	-9.24825
▁lack	-9.24826
old	-9.24904
▁smoke	-9.24905
▁either	-9.24911
▁established	-9.25078
▁visits	-9.25131
▁fund	-9.25177
▁suspended	-9.25187
▁active	-9.25316
de	-9.25682
▁globally	-9.25742
1,	-9.25871
▁flights	-9.26014
▁medications	-9.26231
▁pangolins	-9.26231
▁eating	-9.26414
ny	-9.27004
99	-9.27085
▁concerns	-9.27432
cy	-9.27605
lo	-9.27886
▁infect	-9.28018
co	-9.28123
ci	-9.28191
and	-9.28201
▁officials	-9.28537
▁she	-9.28555
inflammat	-9.28722
▁situation	-9.29089
▁chain	-9.291
▁sa	-9.29124
▁stage	-9.29257
▁reports	-9.29325
▁cloth	-9.29548
day	-9.29551
ell	-9.29583
ake	-9.29599
▁maintain	-9.29988
nl	-9.30112
▁40	-9.30221
led	-9.30333
▁dig	-9.30604
▁g	-9.30613
▁contract	-9.30912
▁From	-9.30919
▁approach	-9.30919
▁september	-9.30919
▁thousand	-9.30919
▁shut	-9.30919
▁basis	-9.30921
▁instead	-9.30923
▁federal	-9.30925
▁thus	-9.30928
▁temporary	-9.30938
▁priva	-9.30948
▁disruption	-9.30959
▁Thus	-9.30971
▁focus	-9.30976
▁mitigation	-9.30979
▁acid	-9.30984
▁combination	-9.31006
▁observed	-9.31007
spite	-9.31008
▁introduced	-9.31028
▁building	-9.31043
▁chron	-9.31071
▁look	-9.3108
▁peak	-9.31098
▁play	-9.31117
▁Fin	-9.31184
▁cent	-9.31184
▁covers	-9.31304
▁spend	-9.31351
▁fully	-9.31393
▁visitors	-9.31574
▁De	-9.31591
▁Eat	-9.31707
▁pcr	-9.32003
use	-9.32275
man	-9.32465
▁young	-9.32613
nan	-9.32645
▁rt	-9.3266
▁collected	-9.32703
▁ro	-9.32768
▁codes	-9.32827
▁came	-9.32867
▁ser	-9.33462
ring	-9.33466
▁arriv	-9.33605
▁developing	-9.3363
▁sh	-9.33824
▁needed	-9.34028
ad	-9.34166
▁though	-9.34204
▁los	-9.34293
▁treatments	-9.34503
ey	-9.34614
▁reporting	-9.34929
sk	-9.35163
end	-9.35225
time	-9.35371
care	-9.35564
▁schedule	-9.35634
50	-9.35655
▁message	-9.35693
▁j	-9.35801
▁location	-9.35821
▁pangolin	-9.35838
▁medication	-9.35838
ck	-9.3591
hku	-9.35976
▁month	-9.36049
ri	-9.36201
▁disinfect	-9.36528
id	-9.36596
▁appear	-9.36627
▁event	-9.36666
▁Go	-9.37161
ro	-9.37196
nty	-9.37232
▁previous	-9.37253
cumulati	-9.37585
▁environment	-9.37586
▁institutions	-9.37586
▁capacity	-9.37586
▁smell	-9.37586
▁upper	-9.37586
▁Protect	-9.37586
▁muscle	-9.37587
▁turn	-9.37587
▁spike	-9.37587
▁guide	-9.37588
▁procedures	-9.37593
▁dehydration	-9.37597
xim	-9.37616
outh	-9.3762
▁policy	-9.37627
▁claimed	-9.37645
▁businesses	-9.37647
▁trace	-9.37679
▁rise	-9.37682
▁collection	-9.377
▁homology	-9.37734
▁therapy	-9.37734
▁immunity	-9.37746
▁delivery	-9.37765
▁imposed	-9.37782
▁Us	-9.37822
▁july	-9.37825
erous	-9.37876
▁travellers	-9.37893
▁tru	-9.37962
▁implemented	-9.38177
▁rest	-9.38272
sis	-9.38296
ern	-9.38387
▁methods	-9.38396
▁educational	-9.38436
▁apart	-9.38725
▁learner	-9.38752
ference	-9.38948
▁directly	-9.39058
role	-9.39201
▁stages	-9.39501
▁monitoring	-9.39567
▁indoors	-9.39621
▁happens	-9.3965
66	-9.39911
▁markets	-9.40372
be	-9.40377
▁followed	-9.40804
▁kill	-9.41111
ix	-9.4136
ice	-9.41668
li	-9.41713
ning	-9.41973
▁70	-9.42285
ef	-9.4248
▁reopen	-9.42534
▁estimate	-9.42628
▁advise	-9.42719
isolate	-9.42776
-19)	-9.42949
▁programme	-9.42974
▁african	-9.43046
94	-9.43095
sense	-9.43099
phone	-9.43199
▁union	-9.43336
▁perform	-9.4382
ways	-9.43982
▁ways	-9.44092
▁minist	-9.44409
knowledge	-9.44691
▁fast	-9.44699
▁accept	-9.44728
▁pharmacist	-9.44728
▁respond	-9.44728
▁target	-9.44728
▁york	-9.44728
▁Where	-9.44729
▁mrna	-9.44729
▁request	-9.44729
▁Talk	-9.44729
▁application	-9.4473
▁discovered	-9.44731
▁random	-9.44732
▁successful	-9.44734
▁alpha	-9.44734
▁basic	-9.44734
▁coding	-9.44739
▁reliable	-9.44743
▁Ne	-9.44747
▁subsequent	-9.44763
▁letter	-9.44764
▁version	-9.44774
▁effectiveness	-9.44851
▁gradually	-9.44865
▁questions	-9.44929
▁head	-9.4493
▁nucleo	-9.44934
▁typical	-9.45007
▁seek	-9.45011
▁american	-9.45013
▁regularly	-9.45016
▁Bas	-9.45018
▁statement	-9.45018
▁shops	-9.45064
▁ids	-9.45225
▁degrees	-9.45323
▁nations	-9.45337
▁scale	-9.45386
▁Dat	-9.45482
▁shown	-9.45527
▁outcomes	-9.45853
▁continued	-9.45858
▁chi	-9.46091
▁steps	-9.46119
▁weekly	-9.46291
rish	-9.46313
▁programmes	-9.46519
▁old	-9.46631
▁complete	-9.46944
19	-9.47298
diagnosed	-9.47426
▁force	-9.4744
put	-9.47573
rt	-9.47857
for	-9.48278
84	-9.48447
▁Be	-9.48629
▁cho	-9.48692
one	-9.49079
ief	-9.49555
if	-9.4976
▁Vir	-9.50198
▁reason	-9.50472
▁employer	-9.50475
▁Any	-9.50512
▁disinfectant	-9.50531
▁sneeze	-9.50592
▁province	-9.50624
▁ne	-9.50635
▁requir	-9.5064
▁flight	-9.50695
▁college	-9.50696
▁eye	-9.50705
▁h	-9.50729
▁student	-9.50785
sure	-9.50877
year	-9.50877
including	-9.50894
lia	-9.51398
▁warn	-9.51513
ma	-9.51586
▁damage	-9.52008
▁discuss	-9.52023
ities	-9.5218
▁business	-9.5235
ardaí	-9.52411
▁Restrict	-9.52412
▁california	-9.5242
exposed	-9.52421
tructural	-9.52421
▁agencies	-9.52421
▁authority	-9.52421
▁cruise	-9.52421
▁explain	-9.52421
▁scientific	-9.52421
▁domestic	-9.52421
▁routine	-9.52421
▁administration	-9.52421
▁okay	-9.52421
▁complications	-9.52422
▁hazard	-9.52422
▁hundred	-9.52422
▁facility	-9.52425
▁anything	-9.52425
▁strong	-9.52425
▁recombination	-9.52425
▁next	-9.52428
▁racis	-9.5243
▁contrast	-9.52432
▁road	-9.52432
▁preparedness	-9.52432
▁classes	-9.52449
▁sitting	-9.52465
▁enable	-9.52466
▁cancellation	-9.52468
▁strategies	-9.52482
▁wednesday	-9.52493
▁Symptoms	-9.52502
▁choice	-9.52504
▁hospitalized	-9.52528
▁Face	-9.52561
▁arrival	-9.52658
▁along	-9.52708
74	-9.52709
▁doctors	-9.5274
▁saying	-9.52777
▁light	-9.52778
▁signals	-9.52778
▁Vaccines	-9.52779
▁resources	-9.52779
▁bind	-9.52965
▁wall	-9.53009
-2.	-9.5312
▁created	-9.53174
▁sites	-9.53226
▁planned	-9.53252
▁issues	-9.53373
▁fluids	-9.53505
▁indicat	-9.54101
▁locations	-9.54507
▁ja	-9.55119
18	-9.55199
▁deal	-9.55331
▁outdoors	-9.55384
▁lungs	-9.55384
▁exercises	-9.55534
mption	-9.55706
▁origins	-9.56061
▁con	-9.56065
part	-9.56471
▁closely	-9.56903
36	-9.57572
▁apply	-9.57738
▁cross	-9.57755
▁men	-9.57899
▁eas	-9.57977
ale	-9.58008
▁po	-9.58593
ts	-9.58785
▁provides	-9.5891
▁strain	-9.58984
acquir	-9.58997
▁surgi	-9.59027
sh	-9.59049
▁cost	-9.59141
lockdown	-9.59205
human	-9.5922
▁la	-9.59256
round	-9.5942
78	-9.5948
nn	-9.59512
▁screen	-9.59729
▁critic	-9.59744
▁confirm	-9.59855
▁inciden	-9.60168
▁read	-9.60355
les	-9.60368
▁envelope	-9.60375
ily	-9.60385
▁except	-9.6042
▁determine	-9.60458
▁russia	-9.6059
▁prim	-9.60607
▁progress	-9.60651
ius	-9.60711
▁hard	-9.60717
▁Nu	-9.60754
▁accurate	-9.60754
▁funeral	-9.60754
▁video	-9.60754
▁Travel	-9.60754
▁communities	-9.60754
▁demonstrate	-9.60754
▁launch	-9.60754
▁prompt	-9.60754
▁worry	-9.60754
▁coordinat	-9.60754
▁agency	-9.60754
▁oxygen	-9.60755
▁obtain	-9.60755
▁Since	-9.60755
▁identify	-9.60755
▁why	-9.60756
worth	-9.60756
▁Everyone	-9.60757
▁serology	-9.6076
▁Cough	-9.60761
▁kong	-9.60761
▁antibody	-9.60762
▁electron	-9.60763
▁Short	-9.60765
▁partner	-9.60767
▁Who	-9.60771
▁bin	-9.60771
▁advance	-9.60785
▁symptomatic	-9.60788
▁variet	-9.60798
▁inside	-9.60818
▁smoking	-9.6082
▁iranian	-9.60825
▁committee	-9.60832
▁multi	-9.60833
▁Patients	-9.60841
by	-9.60855
ative	-9.60859
▁frequently	-9.60918
▁ahead	-9.60943
▁bann	-9.60983
▁pubs	-9.60991
ating	-9.61033
▁criticis	-9.61111
▁ca	-9.61117
▁hit	-9.61136
▁items	-9.61145
▁conducted	-9.61189
▁br	-9.61205
▁night	-9.61231
▁compared	-9.6124
▁settings	-9.613
▁statistics	-9.61301
▁antigen	-9.61304
▁here	-9.61319
▁aware	-9.61426
▁recovery	-9.6143
▁duration	-9.61478
▁tend	-9.6148
▁stock	-9.61494
▁jobs	-9.61613
▁products	-9.61619
▁performed	-9.61826
▁linked	-9.62065
▁sundays	-9.62083
▁generate	-9.62112
▁user	-9.62253
6%	-9.62322
▁strains	-9.62556
▁construct	-9.62614
▁icu	-9.62674
▁Spe	-9.62711
▁asian	-9.63086
2)	-9.63314
10	-9.63389
▁impacted	-9.6368
ilita	-9.63764
20	-9.63987
aking	-9.64376
▁probabl	-9.64946
un	-9.6506
▁calls	-9.65064
▁declare	-9.65306
▁store	-9.65362
com	-9.6538
ca	-9.65498
▁original	-9.65514
ions	-9.65786
▁en	-9.66043
ten	-9.66202
▁separate	-9.66374
che	-9.66518
▁lockdowns	-9.66595
atal	-9.66711
ood	-9.66887
▁38	-9.66951
ros	-9.6703
ina	-9.67179
▁orders	-9.67501
▁update	-9.67655
▁count	-9.67717
ied	-9.67748
▁investigation	-9.67899
▁park	-9.67986
88	-9.68058
▁step	-9.68088
▁effort	-9.68108
▁shortage	-9.68116
pcr	-9.68269
▁gathering	-9.68285
vas	-9.6835
eat	-9.68397
da	-9.68437
▁act	-9.68482
ka	-9.68491
▁restriction	-9.68503
▁100,000	-9.68571
1%	-9.68751
▁provider	-9.68755
ors	-9.68781
▁4,9	-9.69006
▁nurse	-9.69049
bi	-9.69124
ated	-9.69152
line	-9.69218
▁Wh	-9.69387
▁cultur	-9.6944
▁proper	-9.69452
▁quarantines	-9.69525
▁decrease	-9.69557
▁lives	-9.69596
▁throw	-9.69647
cubation	-9.69682
▁percent	-9.69807
utdoor	-9.69831
▁Work	-9.69845
▁Exercise	-9.69845
▁attempt	-9.69845
▁bluetooth	-9.69845
▁bronchitis	-9.69845
▁companies	-9.69845
▁distress	-9.69845
▁imaging	-9.69845
▁industry	-9.69845
▁membrane	-9.69845
▁nutrients	-9.69845
▁pollen	-9.69845
▁possibilit	-9.69845
▁postponed	-9.69845
▁annual	-9.69845
▁facilitat	-9.69846
▁ibuprofen	-9.69846
▁image	-9.69846
▁strengthen	-9.69846
▁contagious	-9.69846
▁admission	-9.69847
▁preliminary	-9.69847
▁therapeutic	-9.69847
▁polymerase	-9.69847
▁cytokine	-9.69847
▁twice	-9.69848
▁pharmacy	-9.69848
▁kind	-9.69848
▁instructions	-9.69849
▁relief	-9.69849
▁ratio	-9.6985
▁break	-9.69851
▁cork	-9.69851
▁Stand	-9.69855
▁drop	-9.69857
▁cel	-9.69858
▁holo	-9.69866
▁disability	-9.6987
▁management	-9.6987
▁upload	-9.69877
▁create	-9.699
▁past	-9.69907
▁mother	-9.69909
▁em	-9.69919
▁assistance	-9.69928
▁resu	-9.69929
▁parties	-9.69959
▁key	-9.69968
▁Test	-9.69984
▁sometimes	-9.69998
▁promis	-9.70035
▁let	-9.70045
▁carry	-9.70051
▁expect	-9.70055
▁vary	-9.70109
67	-9.70135
▁thought	-9.70149
▁excluded	-9.7015
▁missing	-9.70151
▁tr	-9.70165
▁recognize	-9.70183
ism	-9.70193
▁mammals	-9.70275
▁sporting	-9.70281
▁prevalen	-9.70321
▁interest	-9.70341
ural	-9.70358
▁completely	-9.70362
nch	-9.70378
▁am	-9.70409
▁trends	-9.70446
▁manager	-9.70646
▁candidates	-9.70789
▁problems	-9.70962
ne	-9.71055
▁meals	-9.71134
▁kits	-9.71307
med	-9.71309
▁involve	-9.71329
▁shortages	-9.71664
gu	-9.71909
▁treated	-9.71995
eal	-9.72036
▁transmit	-9.72106
▁So	-9.72143
latin	-9.72226
▁ct	-9.72328
▁wet	-9.72385
▁users	-9.7242
ize	-9.72492
47	-9.72598
▁table	-9.7302
57	-9.7306
▁workplaces	-9.73232
▁today	-9.73278
po	-9.73464
ft	-9.73494
▁consider	-9.73775
▁clusters	-9.74121
15	-9.74346
62	-9.74655
ov	-9.74725
▁le	-9.74802
▁ex	-9.75682
▁port	-9.75898
▁organizations	-9.76108
ence	-9.76327
▁serie	-9.76379
▁mov	-9.76467
▁Ma	-9.76475
we	-9.76867
ling	-9.77063
▁ship	-9.77353
53	-9.77492
▁fin	-9.77536
▁factor	-9.77679
reading	-9.77702
ash	-9.77807
▁prescription	-9.779
▁(6	-9.77936
▁network	-9.77957
▁border	-9.77957
▁material	-9.77993
ility	-9.78095
▁gene	-9.78114
▁standard	-9.78143
▁movement	-9.78189
general	-9.78293
▁provid	-9.78418
face	-9.78534
▁sea	-9.78596
food	-9.78664
▁hour	-9.78787
9%	-9.78823
▁follows	-9.78894
▁member	-9.79037
▁suspend	-9.79048
ton	-9.79053
▁compa	-9.79077
ach	-9.79208
▁whole	-9.79218
38	-9.7928
▁presen	-9.79475
q	-9.79542
▁exten	-9.79549
▁careful	-9.79602
▁La	-9.79623
▁possibl	-9.79683
▁emerg	-9.79683
▁fre	-9.79778
▁regular	-9.79786
aoiseach	-9.79801
▁danger	-9.79816
oph	-9.79837
▁identi	-9.79838
▁threat	-9.79842
▁aerosol	-9.79845
▁participati	-9.79845
▁Antibiotics	-9.79845
▁attribut	-9.79845
▁colleagues	-9.79845
▁comparison	-9.79845
▁compound	-9.79845
▁economy	-9.79845
▁england	-9.79845
▁epidemiological	-9.79845
▁front	-9.79845
▁netherlands	-9.79845
▁religious	-9.79845
▁sampling	-9.79845
▁stress	-9.79845
▁surpass	-9.79845
▁alarm	-9.79845
▁financi	-9.79845
▁unesco	-9.79845
▁decline	-9.79845
▁task	-9.79845
▁rbd	-9.79845
▁worst	-9.79846
▁attractions	-9.79846
▁tele	-9.79846
▁charge	-9.79846
▁Privacy	-9.79847
▁headache	-9.79847
▁instance	-9.79848
▁amino	-9.79848
▁implications	-9.79848
▁complex	-9.79849
drome	-9.79849
▁replication	-9.7985
▁permitted	-9.7985
▁catch	-9.7985
wise	-9.79851
▁something	-9.79851
▁xenophobia	-9.79852
average	-9.79852
▁secretary	-9.79853
▁tracing	-9.79853
▁hospitalization	-9.79854
▁intend	-9.79855
▁Additional	-9.7986
▁enforce	-9.79867
▁growth	-9.79868
▁reduction	-9.79872
▁glasses	-9.79872
▁overweight	-9.79873
▁tcm	-9.79875
▁distribution	-9.79889
▁production	-9.79894
▁cure	-9.79899
▁police	-9.79905
▁bag	-9.79911
▁route	-9.79934
▁chair	-9.79945
rink	-9.79945
▁circumstances	-9.79951
▁transportation	-9.79979
▁believed	-9.79986
▁num	-9.79988
▁Give	-9.80013
▁administered	-9.80088
▁moderate	-9.80106
▁solidarity	-9.80106
lt	-9.80122
▁approval	-9.80138
▁agree	-9.80162
▁arabia	-9.80178
75	-9.80228
▁updated	-9.80275
▁below	-9.80298
z	-9.80314
▁recommendations	-9.80339
▁overall	-9.80356
audi	-9.80371
mo	-9.80374
▁korean	-9.80439
fig	-9.80441
▁interventions	-9.80513
ru	-9.80631
▁Pu	-9.80636
▁doors	-9.80682
▁handle	-9.80825
dary	-9.80866
▁liver	-9.80909
cu	-9.81075
▁sectors	-9.81086
▁pan	-9.81209
▁changed	-9.8125
▁gov	-9.81319
▁party	-9.81358
45	-9.81369
▁rat	-9.81402
▁fit	-9.81429
▁protocols	-9.8147
▁balance	-9.8148
▁mon	-9.81487
▁encourage	-9.81523
▁secure	-9.81592
▁counts	-9.81868
▁providers	-9.81902
35	-9.82033
▁shows	-9.82144
▁hku	-9.82351
▁St	-9.82366
▁orf	-9.82859
▁manage	-9.82916
▁indicate	-9.82996
▁Even	-9.8313
▁urg	-9.83243
▁loss	-9.83243
ig	-9.83431
▁Pla	-9.83459
▁inflamma	-9.83516
.5	-9.83616
▁4,6	-9.83658
▁lot	-9.83716
▁youth	-9.84147
96	-9.84381
▁Hav	-9.84485
▁produc	-9.84556
▁sources	-9.84606
▁once	-9.86016
21	-9.86304
2%	-9.86447
▁contacted	-9.86629
27	-9.86725
over	-9.86791
▁evacuat	-9.86849
▁base	-9.87538
25	-9.87626
▁seconds	-9.87646
▁mean	-9.87974
io	-9.87995
37	-9.88135
-2-	-9.88246
▁swi	-9.8852
au	-9.88765
▁measure	-9.88836
▁interaction	-9.89035
▁School	-9.89069
▁decision	-9.89069
▁connection	-9.89096
▁encourag	-9.89117
60	-9.8914
▁protocol	-9.89173
▁sunday	-9.89188
▁outcome	-9.89198
▁model	-9.89201
▁kit	-9.89229
▁medicine	-9.8935
school	-9.89406
quarantine	-9.89415
chinese	-9.89452
more	-9.89533
mong	-9.89652
▁plane	-9.89914
▁implement	-9.89994
▁seat	-9.90162
▁ju	-9.9017
▁Li	-9.90231
▁cancell	-9.90242
mers	-9.90301
ha	-9.90362
▁oc	-9.904
▁anonymous	-9.90627
cular	-9.90785
▁vir	-9.90833
▁appointments	-9.90879
▁Human	-9.90956
▁Practice	-9.90956
▁association	-9.90956
▁broad	-9.90956
▁council	-9.90956
▁energy	-9.90956
▁patrick	-9.90956
▁pattern	-9.90956
▁street	-9.90956
▁vomiting	-9.90956
▁Check	-9.90956
▁taste	-9.90956
▁website	-9.90956
▁canadian	-9.90956
▁court	-9.90956
▁respectively	-9.90957
▁worn	-9.90957
▁extension	-9.90957
▁professional	-9.90958
▁extreme	-9.90959
▁Iran	-9.9096
▁policies	-9.90962
ward	-9.90964
▁status	-9.90967
▁venues	-9.90968
▁unemployment	-9.9097
▁therefore	-9.90971
▁Over	-9.90978
▁organs	-9.90978
ccupational	-9.90982
bridge	-9.90982
▁cam	-9.90982
▁delta	-9.90989
▁confirmation	-9.90998
▁taoiseach	-9.91005
▁2012	-9.91008
▁consistent	-9.91015
▁joint	-9.91018
▁notification	-9.9102
▁percentage	-9.91024
▁difficulties	-9.91027
▁society	-9.91028
▁wipe	-9.9103
▁breastfeeding	-9.91046
▁agent	-9.91049
14	-9.91055
▁adaptation	-9.91059
▁behind	-9.91064
▁strategy	-9.91064
▁stretch	-9.91064
▁territories	-9.91068
▁traditional	-9.91073
aryng	-9.91076
▁sex	-9.91084
▁appeal	-9.91092
▁nutrition	-9.91093
▁faster	-9.91095
▁toll	-9.91095
▁coverage	-9.91111
▁comment	-9.91134
▁particles	-9.91183
▁refus	-9.91246
▁quality	-9.91247
▁brand	-9.91258
▁platforms	-9.91282
▁employees	-9.91282
▁sore	-9.91285
▁Whi	-9.91313
▁Plan	-9.91383
▁political	-9.9144
▁infants	-9.91498
ants	-9.91499
▁evolution	-9.91609
▁bans	-9.91645
▁mission	-9.91649
▁operations	-9.91706
▁Current	-9.91732
▁referr	-9.91767
▁sports	-9.91812
▁urine	-9.91858
▁gas	-9.91875
4)	-9.91906
▁independent	-9.91908
▁civets	-9.91921
ometimes	-9.91939
ver	-9.91952
ker	-9.91991
▁slowly	-9.92013
▁fine	-9.92135
▁options	-9.92136
68	-9.92182
▁et	-9.92229
91	-9.92294
▁emergenc	-9.92404
▁2021.	-9.92465
▁conv	-9.92485
▁gar	-9.92536
▁actions	-9.92577
▁Ou	-9.92588
▁ppe	-9.92614
ned	-9.92691
▁aside	-9.92816
ree	-9.9285
▁warning	-9.92878
▁Continue	-9.93003
▁standards	-9.93004
▁west	-9.93033
23	-9.93202
▁Par	-9.93215
2,000	-9.93303
▁stores	-9.93314
nger	-9.93326
▁33	-9.93347
▁provinces	-9.93657
▁talking	-9.93812
ael	-9.93877
size	-9.94068
▁Se	-9.94143
▁Sel	-9.94182
87	-9.94217
▁die	-9.9444
▁cons	-9.94554
tro	-9.94575
pre	-9.94615
▁bio	-9.94698
▁covering	-9.94882
har	-9.94925
▁occurs	-9.95017
▁experienc	-9.95342
her	-9.95837
la	-9.96054
▁feeling	-9.96224
low	-9.96277
▁fac	-9.9642
▁select	-9.9655
▁adver	-9.97035
▁35	-9.97223
ct	-9.97285
probably	-9.97476
om	-9.97709
▁genomes	-9.97983
31	-9.98148
▁arrive	-9.98171
▁rights	-9.98379
ments	-9.98452
▁parts	-9.98667
▁vi	-9.9904
km	-9.99055
.4%	-9.99153
ul	-9.99217
%)	-9.99344
▁tra	-9.99473
43,	-9.99545
▁85	-9.99634
12	-9.99657
▁39	-9.99873
▁involv	-10.0004
▁colds	-10.0024
100	-10.0035
▁appli	-10.0053
▁run	-10.0064
cdc	-10.0095
ab	-10.013
▁scheme	-10.0142
▁ground	-10.0143
▁window	-10.0151
▁towel	-10.0158
▁holiday	-10.0161
ppe	-10.0166
▁hub	-10.0167
▁fluid	-10.0176
▁parent	-10.0177
▁65	-10.0181
resident	-10.0185
▁action	-10.0186
gov	-10.0192
▁prepar	-10.0198
wide	-10.0208
▁book	-10.021
▁quarantin	-10.0214
case	-10.0221
▁meal	-10.0229
▁buy	-10.0235
3)	-10.0238
ology	-10.0239
tan	-10.0244
▁establish	-10.0252
▁minim	-10.0255
isolated	-10.0259
act	-10.0272
ior	-10.0278
▁fa	-10.0279
ite	-10.0283
br	-10.0295
5,	-10.0296
▁genom	-10.0303
▁ear	-10.0316
▁predict	-10.0326
▁disrupt	-10.0338
▁combin	-10.034
▁distribut	-10.034
▁prison	-10.034
testin	-10.0341
▁Wa	-10.0343
▁grow	-10.0344
▁carri	-10.0345
▁Na	-10.0346
▁accompan	-10.0346
pkins	-10.0346
▁Besides	-10.0346
▁Similar	-10.0346
▁amplify	-10.0346
▁disappear	-10.0346
▁examinations	-10.0346
▁examine	-10.0346
▁google	-10.0346
▁limerick	-10.0346
▁morning	-10.0346
▁municipal	-10.0346
▁reflect	-10.0346
▁register	-10.0346
▁reserve	-10.0346
▁search	-10.0346
▁suffer	-10.0346
▁sufficient	-10.0346
▁temporarily	-10.0346
▁thursday	-10.0346
▁zealand	-10.0346
credit	-10.0346
▁Like	-10.0346
▁Sign	-10.0346
▁radiograph	-10.0346
▁Meet	-10.0346
▁sanitizer	-10.0346
▁First	-10.0346
▁reverse	-10.0346
▁bowel	-10.0346
▁sexual	-10.0346
▁christian	-10.0346
▁registration	-10.0346
▁libraries	-10.0346
▁Therefore	-10.0346
▁delete	-10.0346
▁garda	-10.0346
▁proposed	-10.0346
▁account	-10.0346
▁consultation	-10.0346
isolating	-10.0346
▁trade	-10.0346
▁Track	-10.0347
▁nature	-10.0347
▁Direct	-10.0347
▁milk	-10.0347
▁transcription	-10.0347
lock	-10.0348
▁zha	-10.0348
▁brit	-10.0348
isation	-10.0349
▁Respiratory	-10.0349
▁gap	-10.0349
▁fda	-10.035
▁geographical	-10.035
▁Long	-10.035
▁cardio	-10.035
▁strict	-10.0351
▁wave	-10.0352
▁contaminat	-10.0354
▁dirty	-10.0354
▁warm	-10.0355
▁hope	-10.0355
▁Virus	-10.0355
▁campus	-10.0358
▁october	-10.0358
▁lethal	-10.0358
▁2003	-10.0358
▁security	-10.0359
▁opportunit	-10.0359
▁hua	-10.0367
▁Case	-10.0369
▁held	-10.0374
ransmissible	-10.0377
▁former	-10.0378
▁preventive	-10.0381
▁iii	-10.0382
▁concerts	-10.0383
▁solutions	-10.0383
▁112	-10.0387
▁Mers	-10.0387
▁sell	-10.0389
▁Cover	-10.0393
▁1,0	-10.0395
▁carefully	-10.0399
eering	-10.0401
▁sold	-10.0403
ssiona	-10.0403
▁decreased	-10.0407
▁defences	-10.0407
▁stopped	-10.0413
▁hip	-10.0417
▁resume	-10.0417
▁steroids	-10.0424
being	-10.0437
▁arm	-10.0441
ecdc	-10.0442
ping	-10.0444
uring	-10.0454
media	-10.0455
▁bottles	-10.0456
▁sad	-10.0463
▁Per	-10.0464
pack	-10.0466
go	-10.0476
▁80	-10.0484
ris	-10.0488
iste	-10.0488
▁runn	-10.0492
mit	-10.0495
▁spaces	-10.0505
70	-10.051
▁1,3	-10.0511
08	-10.0526
▁hubs	-10.053
▁violen	-10.0535
▁phones	-10.0584
▁worsen	-10.0596
▁mitigate	-10.0611
▁2020)	-10.0614
▁Lo	-10.0632
30	-10.0637
▁safely	-10.0638
▁weake	-10.065
▁colleges	-10.0655
▁meeting	-10.0686
▁unions	-10.069
▁designate	-10.0701
65	-10.0709
▁ok	-10.0748
bility	-10.0765
.2%	-10.0786
generat	-10.0813
fen	-10.0815
ept	-10.082
▁abs	-10.0859
▁mo	-10.0859
▁rais	-10.0869
▁da	-10.0921
nother	-10.0945
05	-10.0963
ates	-10.0982
di	-10.1018
▁lei	-10.1018
69	-10.1025
do	-10.1039
evi	-10.1042
ations	-10.1082
▁hu	-10.1132
election	-10.1135
▁Le	-10.1168
▁manag	-10.1219
3%	-10.1247
chie	-10.125
▁na	-10.1253
▁newly	-10.1261
vi	-10.1268
way	-10.1282
▁4,7	-10.1308
hi	-10.1321
29	-10.1321
16	-10.1365
ud	-10.1394
▁learn	-10.1396
▁mil	-10.1399
▁cap	-10.1442
44	-10.1478
onary	-10.1489
61	-10.149
▁war	-10.1518
▁method	-10.1525
ised	-10.1538
atic	-10.1567
figure	-10.1571
▁Visit	-10.158
▁suit	-10.1582
▁ventilator	-10.1586
▁pathogen	-10.1591
▁index	-10.1595
▁issue	-10.1595
▁problem	-10.1597
▁space	-10.1597
phe	-10.1598
▁guideline	-10.1603
▁sector	-10.1606
infection	-10.162
check	-10.162
isc	-10.1621
specific	-10.1621
called	-10.1625
▁exceed	-10.1636
level	-10.1639
▁power	-10.1643
56	-10.166
▁point	-10.1668
ops	-10.1675
ace	-10.1679
▁scan	-10.1715
hours	-10.172
expected	-10.1733
cm	-10.1743
▁Cov	-10.1751
▁37	-10.1752
lease	-10.1752
▁earlie	-10.1759
ssion	-10.176
ators	-10.1766
▁church	-10.1767
▁consist	-10.1767
ceived	-10.1768
▁suppress	-10.1768
avir	-10.1769
▁clot	-10.177
▁success	-10.1773
▁Comm	-10.1773
▁assist	-10.1773
▁project	-10.1774
gredient	-10.1774
ouble	-10.1774
▁Research	-10.1774
▁Shopping	-10.1774
▁adopt	-10.1774
▁anxiety	-10.1774
▁august	-10.1774
▁detention	-10.1774
▁disorder	-10.1774
▁elevated	-10.1774
▁enhance	-10.1774
▁enzyme	-10.1774
▁fruit	-10.1774
▁galway	-10.1774
▁guidance	-10.1774
▁identification	-10.1774
▁importance	-10.1774
▁laboratories	-10.1774
▁legislati	-10.1774
▁operating	-10.1774
▁philippines	-10.1774
▁pilot	-10.1774
▁politicians	-10.1774
▁prognosis	-10.1774
▁sleeve	-10.1774
▁summer	-10.1774
▁supplier	-10.1774
▁taiwan	-10.1774
▁trigger	-10.1774
▁National	-10.1774
▁attention	-10.1774
▁devices	-10.1774
▁polyprotein	-10.1774
▁spillover	-10.1774
▁theatres	-10.1774
▁dozen	-10.1774
▁nigeria	-10.1774
▁teaching	-10.1774
▁remote	-10.1774
▁comprehensive	-10.1774
▁prais	-10.1774
▁achieve	-10.1774
▁prioritiz	-10.1774
▁diagnostic	-10.1774
▁Under	-10.1774
▁plasm	-10.1774
▁wool	-10.1774
▁manifestations	-10.1774
▁canada	-10.1774
▁disadvantage	-10.1774
▁reproduction	-10.1774
▁reveal	-10.1774
▁wild	-10.1774
▁Second	-10.1774
nctions	-10.1774
▁constant	-10.1774
▁oxford	-10.1775
▁disabilities	-10.1775
▁fingers	-10.1775
▁turkey	-10.1775
▁consulate	-10.1775
▁fatalities	-10.1775
▁skin	-10.1775
▁Community	-10.1775
▁gastro	-10.1775
▁theories	-10.1775
▁governor	-10.1775
▁Never	-10.1775
engin	-10.1776
▁guest	-10.1776
▁Person	-10.1776
▁friends	-10.1776
▁cellul	-10.1777
▁quit	-10.1777
▁phylogenetic	-10.1777
▁paid	-10.1777
▁calculated	-10.1778
▁extensive	-10.1778
▁valve	-10.1778
▁storm	-10.1778
▁shit	-10.1778
▁pathway	-10.1778
▁fitness	-10.1778
▁rising	-10.1778
▁prepare	-10.1778
▁metric	-10.1779
▁singapore	-10.1779
escent	-10.1781
▁roll	-10.1781
▁gain	-10.1781
▁Now	-10.1782
▁moon	-10.1782
▁implementation	-10.1783
▁nucle	-10.1783
▁underway	-10.1783
▁itself	-10.1785
▁Fever	-10.1785
▁press	-10.1785
▁conte	-10.1786
▁asthma	-10.1787
▁package	-10.1788
▁meat	-10.1788
▁partial	-10.1788
▁discovery	-10.1788
▁prove	-10.1789
▁travelling	-10.1789
▁pilgrims	-10.179
▁fol	-10.1791
▁airport	-10.1792
▁mark	-10.1794
▁eg	-10.1794
▁pay	-10.18
▁dra	-10.18
▁dead	-10.18
active	-10.1803
▁Well	-10.1805
▁useful	-10.1809
▁Rep	-10.181
theless	-10.181
▁document	-10.1813
▁components	-10.1817
▁declaration	-10.1819
▁web	-10.1819
▁30%	-10.1822
▁stand	-10.1824
▁anonymously	-10.183
▁adhere	-10.183
ze	-10.1832
▁view	-10.1839
▁apple	-10.1839
▁vote	-10.1841
▁prices	-10.1846
▁seasonal	-10.1847
▁methodolog	-10.1848
▁determined	-10.1866
▁spr	-10.1868
▁aut	-10.187
cun	-10.187
▁beds	-10.1871
income	-10.1874
▁airborne	-10.1875
▁oil	-10.1877
▁gi	-10.1879
▁illnesses	-10.1898
▁specimens	-10.1903
spira	-10.1911
▁strand	-10.1916
▁save	-10.1931
gs	-10.1932
▁town	-10.1935
▁occurr	-10.1935
▁deliver	-10.1954
▁imp	-10.1955
▁carer	-10.1958
▁meaning	-10.1965
▁4,3	-10.1967
lan	-10.1979
▁maintained	-10.2
▁normally	-10.2021
ib	-10.204
▁Non	-10.2061
▁asia	-10.2065
▁36	-10.2069
▁updates	-10.2078
▁4,5	-10.2082
▁wholes	-10.2084
▁shed	-10.2093
▁clothing	-10.2093
▁fat	-10.2104
▁formal	-10.2107
den	-10.212
▁drinking	-10.2121
▁sense	-10.2132
▁sneezes	-10.2135
tage	-10.2147
▁(5	-10.2186
▁bo	-10.2197
ged	-10.2198
▁situations	-10.2224
1)	-10.2228
▁2,3	-10.2262
ves	-10.2273
▁alternative	-10.2284
▁Sh	-10.2312
▁gu	-10.2319
our	-10.2342
▁Lea	-10.2365
▁rooms	-10.2374
▁crowds	-10.2393
▁fell	-10.24
▁goods	-10.2404
▁du	-10.2421
▁creat	-10.2434
54	-10.2439
▁ri	-10.2487
linical	-10.2507
07	-10.252
wo	-10.2526
▁dr	-10.2563
82	-10.2569
-2)	-10.2642
▁forms	-10.2648
osis	-10.2683
nda	-10.2686
50%	-10.2694
▁visited	-10.2707
39	-10.2725
▁diagnose	-10.2809
80	-10.2848
92	-10.2857
▁fact	-10.286
▁sp	-10.2871
ably	-10.2899
▁giv	-10.2905
▁(2	-10.2915
que	-10.2925
▁comfort	-10.2953
▁responses	-10.2956
ack	-10.2971
▁300	-10.2972
bon	-10.3016
ook	-10.3022
other	-10.3027
▁traveling	-10.3071
▁fl	-10.3099
▁practi	-10.3123
gra	-10.3134
▁55	-10.3144
▁ran	-10.3159
▁ob	-10.3173
▁43	-10.3174
▁rang	-10.3182
▁emerge	-10.3198
▁pa	-10.3213
▁festival	-10.3237
▁bank	-10.3254
▁frame	-10.3257
▁fear	-10.3258
2,6	-10.3259
▁rule	-10.3261
▁option	-10.3261
▁candidate	-10.3263
▁job	-10.3264
chloro	-10.3274
member	-10.3275
strand	-10.3276
73	-10.3277
pathogenic	-10.3284
closure	-10.3284
third	-10.3286
work	-10.3287
person	-10.3288
home	-10.3288
when	-10.3288
confirmed	-10.3288
▁answer	-10.3292
▁product	-10.3292
▁visitor	-10.3295
dependent	-10.3296
scale	-10.3296
strazeneca	-10.3306
dvice	-10.3307
ware	-10.3309
300	-10.3309
▁site	-10.3317
▁cook	-10.332
▁apps	-10.3335
ought	-10.335
urb	-10.3357
▁conduct	-10.3368
▁map	-10.3386
▁regula	-10.3386
▁homolog	-10.3402
▁therap	-10.3403
▁urgent	-10.3404
row	-10.3406
wiv	-10.3413
▁coughs	-10.342
▁diverge	-10.3422
▁primar	-10.3431
▁ar	-10.3431
ublic	-10.3433
▁psych	-10.3434
▁norma	-10.3435
ida	-10.3436
▁univers	-10.3436
ency	-10.3438
▁availab	-10.3438
▁communi	-10.3439
hylogenetic	-10.3439
▁program	-10.344
▁analys	-10.344
pharmac	-10.344
eutic	-10.3441
▁super	-10.3441
▁retrospective	-10.3441
▁Dublin	-10.3441
▁Global	-10.3441
▁Screening	-10.3441
▁abroad	-10.3441
▁austria	-10.3441
▁bronchiolitis	-10.3441
▁cigarette	-10.3441
▁crime	-10.3441
▁criteria	-10.3441
▁discharge	-10.3441
▁elbow	-10.3441
▁enteritis	-10.3441
▁favour	-10.3441
▁floor	-10.3441
▁harbour	-10.3441
▁kildare	-10.3441
▁lombardy	-10.3441
▁london	-10.3441
▁manufacturing	-10.3441
▁museums	-10.3441
▁nucleocapsid	-10.3441
▁plastic	-10.3441
▁pyramid	-10.3441
▁shock	-10.3441
▁susceptible	-10.3441
▁tourist	-10.3441
▁worship	-10.3441
▁yellow	-10.3441
▁correspond	-10.3441
▁famine	-10.3441
▁britain	-10.3441
▁cyber	-10.3441
▁offences	-10.3441
▁Ireland	-10.3441
▁nba	-10.3441
▁woman	-10.3441
▁cabin	-10.3441
▁pharmacies	-10.3441
▁bodies	-10.3441
▁North	-10.3441
▁computer	-10.3441
▁exams	-10.3441
▁midwife	-10.3441
▁dropped	-10.3441
▁adequately	-10.3441
▁labour	-10.3441
▁burden	-10.3441
▁assembl	-10.3441
▁israel	-10.3441
▁bacteria	-10.3441
▁Third	-10.3441
▁league	-10.3441
threatening	-10.3441
defined	-10.3441
vant	-10.3441
▁californians	-10.3441
▁demographic	-10.3442
▁Remov	-10.3442
▁cut	-10.3442
▁activat	-10.3442
▁writ	-10.3442
▁ancestor	-10.3442
▁provision	-10.3442
vision	-10.3442
▁manufacturer	-10.3442
▁donegal	-10.3442
▁High	-10.3442
▁twent	-10.3443
▁modelling	-10.3443
▁company	-10.3443
▁lunch	-10.3443
▁ibu	-10.3443
▁evolutionary	-10.3443
▁tired	-10.3443
▁identity	-10.3444
▁requirements	-10.3444
▁undertaken	-10.3444
▁Four	-10.3444
▁metre	-10.3444
▁influence	-10.3444
▁rome	-10.3444
▁limitations	-10.3444
http	-10.3444
▁appearance	-10.3445
▁justice	-10.3445
▁moment	-10.3445
▁anticipated	-10.3445
▁airways	-10.3445
▁explore	-10.3446
▁3,9	-10.3446
bound	-10.3446
▁recognise	-10.3446
▁personnel	-10.3446
▁Infection	-10.3447
▁dicl	-10.3449
▁Old	-10.345
▁heavy	-10.3452
▁progression	-10.3453
▁(3	-10.3453
▁Emergenc	-10.3453
titis	-10.3453
niac	-10.3456
▁gone	-10.3456
▁sero	-10.3458
▁commerc	-10.3458
▁dyspnea	-10.3458
▁epidemiology	-10.3458
▁passport	-10.3458
▁shift	-10.3458
▁wedding	-10.3458
▁concluded	-10.3459
▁earlier	-10.3459
▁2002	-10.3459
▁Ear	-10.3459
▁whi	-10.346
▁scientists	-10.346
▁objects	-10.346
▁amp	-10.346
▁stimulate	-10.346
ike	-10.3461
▁circulating	-10.3463
▁criticism	-10.3463
▁hum	-10.3464
▁varies	-10.347
▁tools	-10.347
▁unlike	-10.3471
▁bad	-10.3475
▁russian	-10.3475
transmissibility	-10.3475
▁var	-10.3484
▁diet	-10.3484
▁jan	-10.3485
▁volume	-10.3487
▁position	-10.3488
▁grade	-10.3488
▁Later	-10.349
▁nhs	-10.3492
▁rele	-10.3493
▁establishments	-10.3493
ition	-10.3495
▁sen	-10.3499
matical	-10.3501
▁canceled	-10.3502
79	-10.3503
▁Dry	-10.3506
▁organis	-10.351
▁exception	-10.3511
86	-10.3517
▁stream	-10.3518
▁stopp	-10.3518
▁Pre	-10.3522
▁dona	-10.3523
▁pools	-10.3526
▁52	-10.3531
▁lay	-10.3531
▁counter	-10.3534
ugh	-10.3537
▁challenges	-10.3539
▁gel	-10.354
▁length	-10.3548
▁abc	-10.3549
▁sleeping	-10.355
▁performances	-10.356
▁islands	-10.3562
▁incident	-10.3565
▁mus	-10.3568
▁cooking	-10.3575
▁Cor	-10.3581
▁precautions	-10.3586
een	-10.3599
▁se	-10.3603
▁pains	-10.3603
zed	-10.3608
▁easi	-10.3618
▁vers	-10.3622
▁buying	-10.3624
▁frames	-10.3628
▁rules	-10.3629
▁fears	-10.3629
▁col	-10.3643
pp	-10.3655
▁protected	-10.3659
▁pathogens	-10.3664
organ	-10.3679
▁carers	-10.3692
▁appeared	-10.3694
7,1	-10.3694
▁holidays	-10.3699
.8%)	-10.3703
▁filter	-10.3703
▁challeng	-10.3719
▁59	-10.3735
▁Hcov	-10.3742
vast	-10.3746
▁secret	-10.375
virus	-10.3762
▁materials	-10.3768
mediate	-10.3812
▁undergo	-10.3828
▁costs	-10.3839
▁mel	-10.3841
rol	-10.3846
▁mc	-10.3862
makers	-10.3866
bov	-10.3885
▁seem	-10.3886
.3%	-10.3904
▁suc	-10.3909
leo	-10.392
▁replicate	-10.3944
▁remarkabl	-10.3972
▁chains	-10.3982
▁(7	-10.3991
▁sal	-10.3991
▁Car	-10.3991
ven	-10.4002
▁lines	-10.4018
▁1,000	-10.4041
▁34	-10.4046
▁nationally	-10.4051
▁pul	-10.4052
ked	-10.406
▁breathe	-10.407
▁receptors	-10.409
▁evacuate	-10.4108
sia	-10.4128
▁separat	-10.4134
so	-10.4155
52	-10.4155
▁bus	-10.4164
flam	-10.4164
▁spreads	-10.4168
rofen	-10.4189
ex	-10.419
▁cleaned	-10.4245
stone	-10.4254
ame	-10.4266
24	-10.427
▁spo	-10.4279
33	-10.4286
▁45	-10.4313
▁alerted	-10.4317
ecause	-10.4324
▁rely	-10.4327
emed	-10.434
rn	-10.4367
▁relieve	-10.438
▁considerabl	-10.4384
▁ver	-10.439
▁survive	-10.4416
germs	-10.4425
wine	-10.4559
▁vaccinations	-10.4577
▁donate	-10.4594
▁250	-10.4606
ner	-10.4628
▁sw	-10.4628
▁69	-10.4638
▁class	-10.4638
ump	-10.4643
ncov	-10.4656
▁sur	-10.4657
▁dates	-10.4657
▁fil	-10.4677
tial	-10.4681
77	-10.4764
▁Fe	-10.4777
▁absen	-10.4782
▁90	-10.4786
▁ifr	-10.4798
▁raise	-10.4804
▁pen	-10.4812
lves	-10.4861
sive	-10.4902
mm	-10.491
ph	-10.4923
con	-10.4933
▁weak	-10.4937
▁42	-10.4941
▁Ex	-10.4956
▁timely	-10.4968
are	-10.4975
3.5	-10.4998
iji	-10.5015
hani	-10.5031
cle	-10.5039
▁77	-10.5061
17	-10.5069
▁Ho	-10.5074
ified	-10.513
▁(9	-10.516
▁serv	-10.5175
▁Of	-10.5194
58	-10.5196
▁sin	-10.5197
▁0	-10.5204
body	-10.5228
▁administrator	-10.5238
▁57	-10.5238
▁organisation	-10.5241
▁alpaca	-10.5247
▁purchase	-10.5247
▁ticket	-10.5247
▁communication	-10.5248
load	-10.5249
▁rou	-10.5249
▁game	-10.5249
place	-10.5252
▁airline	-10.5257
▁specimen	-10.5258
▁civet	-10.5262
▁bottle	-10.5263
▁degree	-10.5265
▁restaurant	-10.5267
▁detail	-10.5273
spect	-10.5274
▁nation	-10.5276
prevalen	-10.5281
planned	-10.5283
reporting	-10.5283
▁cha	-10.5284
secondary	-10.5286
infected	-10.5286
week	-10.5287
march	-10.5288
from	-10.5288
heri	-10.5291
ctual	-10.5292
urine	-10.5295
▁1)	-10.5297
irborne	-10.5298
ntigen	-10.5303
▁sleep	-10.531
directly	-10.5317
pain	-10.5335
contact	-10.5335
▁pu	-10.534
▁Medica	-10.5349
▁por	-10.5352
▁publish	-10.5353
ssen	-10.5355
▁sustain	-10.5358
open	-10.5373
▁4,90	-10.5382
▁Resu	-10.5386
art	-10.5397
▁gradual	-10.54
▁frequent	-10.5403
▁introduce	-10.5404
▁chang	-10.5406
▁Fac	-10.5416
▁Prepare	-10.5418
uppression	-10.5421
▁sharp	-10.5427
rgent	-10.5433
▁tempora	-10.5434
▁mort	-10.5435
▁evaluat	-10.5435
▁Up	-10.5435
▁formula	-10.5436
▁3,5	-10.5436
rew	-10.5437
▁diploma	-10.5438
friend	-10.5438
isinformation	-10.5439
hinese	-10.5439
▁represent	-10.544
▁Corona	-10.5441
dministrati	-10.5441
▁Further	-10.5441
▁efficient	-10.5441
▁gamma	-10.5441
▁unnecessar	-10.5441
▁Napro	-10.5441
▁Particularly	-10.5441
▁Transmission	-10.5441
▁accelerat	-10.5441
▁accommodation	-10.5441
▁adhanom	-10.5441
▁antibiotics	-10.5441
▁climate	-10.5441
▁context	-10.5441
▁dashboard	-10.5441
▁dynamic	-10.5441
▁field	-10.5441
▁hypertension	-10.5441
▁insurance	-10.5441
▁measles	-10.5441
▁mellitus	-10.5441
▁neutraliz	-10.5441
▁opacit	-10.5441
▁operators	-10.5441
▁playgrounds	-10.5441
▁protease	-10.5441
▁provincial	-10.5441
▁purpose	-10.5441
▁replicase	-10.5441
▁repurposed	-10.5441
▁scenario	-10.5441
▁shield	-10.5441
▁snacks	-10.5441
▁technologies	-10.5441
▁translat	-10.5441
▁trimester	-10.5441
▁tuesday	-10.5441
▁voluntary	-10.5441
▁announcement	-10.5441
▁board	-10.5441
▁counsel	-10.5441
▁curve	-10.5441
▁engage	-10.5441
▁enroll	-10.5441
nsaids	-10.5441
▁Change	-10.5441
▁Reduc	-10.5441
▁interval	-10.5441
▁machine	-10.5441
▁sputum	-10.5441
▁Va	-10.5441
▁babies	-10.5441
▁basketball	-10.5441
▁mount	-10.5441
▁watch	-10.5441
peptid	-10.5441
▁concentrat	-10.5441
▁spray	-10.5441
▁winter	-10.5441
▁Smok	-10.5441
▁stain	-10.5441
mmunocompromised	-10.5441
▁Phase	-10.5441
▁virulen	-10.5441
▁false	-10.5441
▁allerg	-10.5441
▁concept	-10.5441
▁mechanism	-10.5441
▁hepa	-10.5441
▁imported	-10.5441
▁apparent	-10.5441
▁diarrhoea	-10.5441
▁discrimination	-10.5441
▁log	-10.5441
▁neurologic	-10.5441
▁complement	-10.5441
▁Diagnos	-10.5441
▁offaly	-10.5441
▁green	-10.5441
▁word	-10.5441
▁cups	-10.5441
▁princess	-10.5441
▁mechani	-10.5441
▁broke	-10.5441
▁halls	-10.5441
▁combat	-10.5441
▁Shops	-10.5441
▁conclusion	-10.5442
▁representative	-10.5442
▁lineages	-10.5442
▁uncertainty	-10.5442
▁overlap	-10.5442
▁Visitors	-10.5442
▁upset	-10.5442
onym	-10.5442
▁lessons	-10.5442
▁install	-10.5442
▁paul	-10.5442
▁plate	-10.5442
▁fresh	-10.5443
▁malls	-10.5443
▁big	-10.5443
▁mouse	-10.5443
▁eventual	-10.5443
▁minor	-10.5443
▁stick	-10.5443
▁fecal	-10.5443
▁remdesivir	-10.5443
▁academic	-10.5443
▁stillbirth	-10.5443
▁neck	-10.5444
▁preschool	-10.5444
▁fifth	-10.5444
▁amid	-10.5444
▁Which	-10.5444
▁Compar	-10.5445
▁capital	-10.5445
mond	-10.5445
▁surve	-10.5446
▁highlight	-10.5446
▁residence	-10.5446
▁sensitive	-10.5446
▁Europe	-10.5446
▁located	-10.5446
▁compromised	-10.5446
▁reception	-10.5446
▁uncomfortable	-10.5447
▁charter	-10.5447
▁suspension	-10.5448
ards	-10.5448
▁4,4	-10.5448
▁dangerous	-10.5448
▁anywhere	-10.5448
▁heel	-10.5448
▁respect	-10.5448
▁compare	-10.5448
▁accu	-10.5449
▁1,2	-10.545
▁3,1	-10.545
▁remember	-10.545
▁cardi	-10.545
▁gaa	-10.545
▁hospitalised	-10.545
shoe	-10.5452
▁fish	-10.5452
▁progressive	-10.5453
ww	-10.5453
▁churches	-10.5453
▁polari	-10.5453
▁payment	-10.5454
▁stuffy	-10.5455
reate	-10.5456
▁recoveries	-10.5457
▁2018	-10.5457
▁excess	-10.5457
ofen	-10.5457
▁brazilian	-10.5457
▁appendi	-10.5459
▁inhal	-10.5459
▁2004	-10.546
▁allocat	-10.5461
▁calories	-10.5462
▁infrastructure	-10.5462
▁piece	-10.5462
▁substantial	-10.5462
▁petition	-10.5462
▁Let	-10.5463
▁variable	-10.5463
▁fragments	-10.5464
▁customers	-10.5465
▁attach	-10.5466
▁8.30	-10.5466
▁clothes	-10.5467
▁proof	-10.5468
▁suppression	-10.5469
▁2008	-10.5472
▁switch	-10.5473
▁fatal	-10.5473
▁color	-10.5475
▁originated	-10.5476
▁Online	-10.5477
▁fet	-10.5479
▁dia	-10.5479
dow	-10.5482
▁Cold	-10.5485
regulation	-10.5486
▁hearing	-10.5487
▁shipment	-10.5487
inary	-10.5491
▁prevalent	-10.5492
molecular	-10.5493
▁Sur	-10.5494
▁hel	-10.5494
▁bce	-10.5494
▁ecolog	-10.5495
▁relaxed	-10.5495
▁johns	-10.5498
▁rece	-10.5499
▁hurt	-10.55
▁barriers	-10.5505
▁benefits	-10.5506
▁hold	-10.551
▁card	-10.5515
▁virion	-10.5516
▁euro	-10.5518
▁97	-10.5523
▁10%	-10.5523
▁extract	-10.5526
▁hospitality	-10.5526
ick	-10.5526
▁mar	-10.5526
▁ii	-10.5529
▁chem	-10.5535
rell	-10.5542
even	-10.5543
sual	-10.5545
▁ready	-10.5546
▁bulbs	-10.5547
▁curfews	-10.5547
terti	-10.5549
▁discussion	-10.5552
▁ili	-10.5581
▁cit	-10.5585
fairs	-10.5591
▁doesn	-10.56
rine	-10.5602
▁gly	-10.5603
▁peer	-10.5605
▁kn	-10.5608
▁gran	-10.5609
▁2,4	-10.5612
▁minimiz	-10.5614
hips	-10.5619
▁fe	-10.5626
▁airlines	-10.5633
▁controlled	-10.5641
▁Mea	-10.5652
▁chloro	-10.5656
▁row	-10.5656
▁prepared	-10.566
oth	-10.5665
som	-10.5671
▁answers	-10.5676
▁banks	-10.5676
▁wage	-10.5681
▁server	-10.5692
▁pp	-10.5697
tra	-10.5698
aster	-10.5703
▁shake	-10.5718
▁ventilators	-10.5719
▁won	-10.5724
-19).	-10.5725
king	-10.5738
▁reopened	-10.5738
64	-10.5749
▁heat	-10.5752
▁towels	-10.5762
▁populations	-10.5771
▁deli	-10.5784
20,000	-10.5803
▁models	-10.5806
▁Schools	-10.5806
▁decisions	-10.5806
▁connections	-10.5807
▁addressed	-10.5823
▁coverings	-10.5847
▁networks	-10.585
▁borders	-10.585
▁shin	-10.5886
tor	-10.5891
▁fly	-10.5925
4%	-10.5925
▁tri	-10.5933
▁nurses	-10.5935
▁compar	-10.5941
eline	-10.5948
ave	-10.5955
▁processed	-10.5959
▁ti	-10.5966
▁reasons	-10.5984
▁disinfectants	-10.5985
▁publication	-10.5994
▁connect	-10.6
ark	-10.6016
,600	-10.6018
▁Anti	-10.6024
agh	-10.6053
▁easter	-10.6053
▁messages	-10.6074
▁persisten	-10.608
ports	-10.6104
55	-10.6113
▁va	-10.6127
▁precaution	-10.6134
▁gav	-10.6137
▁fen	-10.6139
▁none	-10.614
nia	-10.6147
▁controll	-10.6179
hoo	-10.6182
social	-10.6183
gi	-10.6196
▁prescribe	-10.6203
▁courses	-10.6211
▁respirators	-10.6214
ble	-10.6221
▁met	-10.6252
▁41	-10.6253
09	-10.6279
▁gr	-10.6287
▁encode	-10.6291
comfortable	-10.6302
rem	-10.6308
▁land	-10.6312
▁sequenc	-10.6332
▁ni	-10.6345
▁tro	-10.6396
▁x	-10.6397
ber	-10.6421
aid	-10.643
graduat	-10.6434
▁Hol	-10.6468
26	-10.6469
bc	-10.6471
▁pl	-10.6476
▁reli	-10.6493
▁51	-10.6555
▁pm	-10.6566
j	-10.6572
▁contribut	-10.6577
bout	-10.6627
▁pe	-10.6638
ji	-10.6653
▁44	-10.668
▁bu	-10.6684
ik	-10.6687
▁ba	-10.6738
83	-10.6747
duced	-10.6778
▁bor	-10.679
ossible	-10.6815
▁Sit	-10.6826
rv	-10.692
nel	-10.6929
▁spen	-10.6972
recautionary	-10.6995
rious	-10.7017
eries	-10.702
tant	-10.703
▁il	-10.7034
cent	-10.7058
nal	-10.7096
2019-	-10.7112
ene	-10.7136
ters	-10.7144
gan	-10.7153
8%)	-10.7158
▁remark	-10.7162
▁8,	-10.7163
▁ifn	-10.7185
under	-10.7214
rin	-10.7232
▁00	-10.7233
cation	-10.724
app	-10.7261
iva	-10.7271
mation	-10.7332
date	-10.7352
clusion	-10.7361
riage	-10.7369
ids	-10.7376
aba	-10.7379
mb	-10.7411
▁2,2	-10.7412
▁min	-10.7444
sc	-10.747
00,000	-10.7482
40	-10.7482
▁inhibit	-10.7509
divid	-10.7534
san	-10.7547
oxy	-10.7568
hour	-10.7606
ati	-10.761
▁sport	-10.7634
ana	-10.7639
nio	-10.7644
uba	-10.7655
form	-10.767
▁stat	-10.7704
▁400	-10.7736
▁continent	-10.7738
▁garden	-10.7739
▁characteristic	-10.774
▁edition	-10.774
opening	-10.7742
direct	-10.7743
▁lymphocyte	-10.7744
▁performance	-10.7762
▁intervention	-10.7763
▁statistic	-10.7764
▁trend	-10.7767
glass	-10.7767
2,5	-10.777
length	-10.7775
point	-10.7777
mission	-10.7778
ote	-10.7779
known	-10.7781
where	-10.7781
▁mandat	-10.7785
collect	-10.7786
vaccinated	-10.7787
type	-10.7787
wuhan	-10.7788
with	-10.7788
law	-10.7789
host	-10.779
▁setting	-10.779
▁cancel	-10.7791
made	-10.7791
usual	-10.7792
stock	-10.7793
pul	-10.7794
china	-10.7795
wear	-10.7796
▁thing	-10.7797
lead	-10.7797
plan	-10.78
▁reduc	-10.7806
▁mis	-10.7806
steroids	-10.7809
lent	-10.7809
▁hydr	-10.7817
this	-10.7817
egal	-10.7821
▁issu	-10.7821
lies	-10.7831
gregation	-10.7835
▁operation	-10.7837
▁train	-10.7847
▁lift	-10.7849
▁exclud	-10.7857
some	-10.7861
mical	-10.7879
ically	-10.788
▁virtual	-10.7897
wid	-10.7901
▁believe	-10.7903
▁vaccinate	-10.7904
▁unexpected	-10.7908
nsure	-10.7909
hrough	-10.7914
ffic	-10.7915
▁tw	-10.7917
ector	-10.7918
trategies	-10.7922
ago	-10.7923
evolution	-10.7925
▁Vi	-10.7925
▁equ	-10.7929
▁industri	-10.7932
▁tu	-10.7933
olar	-10.7935
▁chart	-10.7936
▁harm	-10.7936
nternational	-10.7937
andatory	-10.7937
▁fift	-10.7937
hysical	-10.7937
▁interfere	-10.7938
▁Treat	-10.7938
venue	-10.7938
ffective	-10.7938
▁micro	-10.794
▁interact	-10.794
borat	-10.794
transfer	-10.794
ature	-10.794
▁radio	-10.7941
▁Vo	-10.7941
▁Alcohol	-10.7941
▁georg	-10.7941
▁club	-10.7941
▁thorough	-10.7941
▁Figure	-10.7941
▁Hotels	-10.7941
▁Ibuprofen	-10.7941
▁Libraries	-10.7941
▁Limerick	-10.7941
▁Pregnan	-10.7941
▁Sneezing	-10.7941
▁Vaccination	-10.7941
▁Will	-10.7941
▁altogether	-10.7941
▁assault	-10.7941
▁background	-10.7941
▁behaviour	-10.7941
▁calendar	-10.7941
▁campaign	-10.7941
▁capture	-10.7941
▁champions	-10.7941
▁cinemas	-10.7941
▁collaboration	-10.7941
▁constitute	-10.7941
▁denmark	-10.7941
▁depression	-10.7941
▁destination	-10.7941
▁diocese	-10.7941
▁ebola	-10.7941
▁egypt	-10.7941
▁elastic	-10.7941
▁emphasize	-10.7941
▁epidemiologists	-10.7941
▁exoribonuclease	-10.7941
▁expand	-10.7941
▁expenditure	-10.7941
▁fatigue	-10.7941
▁galleries	-10.7941
▁goggles	-10.7941
▁guangzhou	-10.7941
▁handwashing	-10.7941
▁hotspot	-10.7941
▁indefinitely	-10.7941
▁intelligence	-10.7941
▁journal	-10.7941
▁loneliness	-10.7941
▁madrid	-10.7941
▁messaging	-10.7941
▁modified	-10.7941
▁moistur	-10.7941
▁molecules	-10.7941
▁montenegro	-10.7941
▁newspaper	-10.7941
▁olympic	-10.7941
▁operate	-10.7941
▁opinion	-10.7941
▁overwhelmed	-10.7941
▁peripheral	-10.7941
▁repatriated	-10.7941
▁ritonavir	-10.7941
▁robust	-10.7941
▁rodents	-10.7941
▁science	-10.7941
▁shenzhen	-10.7941
▁speech	-10.7941
▁squeez	-10.7941
▁stagger	-10.7941
▁structure	-10.7941
▁struggl	-10.7941
▁studied	-10.7941
▁suspicion	-10.7941
▁switzerland	-10.7941
▁thailand	-10.7941
▁tipperary	-10.7941
▁trillion	-10.7941
▁wicklow	-10.7941
▁wiki	-10.7941
▁yesterday	-10.7941
corpor	-10.7941
▁article	-10.7941
▁bangladesh	-10.7941
▁discontinu	-10.7941
▁endanger	-10.7941
▁ignore	-10.7941
▁inhabit	-10.7941
▁interferon	-10.7941
▁licens	-10.7941
▁liquid	-10.7941
▁subgen	-10.7941
▁volunteer	-10.7941
▁Flu	-10.7941
▁Support	-10.7941
▁decree	-10.7941
▁deletion	-10.7941
▁permanent	-10.7941
▁qom	-10.7941
▁transit	-10.7941
▁witness	-10.7941
▁defense	-10.7941
▁claims	-10.7941
▁emissions	-10.7941
▁fog	-10.7941
▁tomography	-10.7941
▁norway	-10.7941
▁migra	-10.7941
▁Cause	-10.7941
▁placenta	-10.7941
▁alleged	-10.7941
▁matern	-10.7941
▁horse	-10.7941
▁wife	-10.7941
unprecedented	-10.7941
▁edges	-10.7941
▁journalists	-10.7941
▁gastroenteritis	-10.7941
▁Cut	-10.7941
▁Rais	-10.7941
▁automat	-10.7941
▁virologist	-10.7941
▁dysfunction	-10.7941
▁detergent	-10.7941
▁prioritis	-10.7941
▁scam	-10.7941
▁firework	-10.7941
▁bolsonaro	-10.7941
▁visibl	-10.7941
▁beyond	-10.7941
▁driving	-10.7941
▁Dehydration	-10.7941
▁affini	-10.7941
▁gyms	-10.7941
▁afterwards	-10.7941
scope	-10.7941
▁entities	-10.7942
kenny	-10.7942
▁islam	-10.7942
▁niche	-10.7942
▁worksite	-10.7942
▁bias	-10.7942
▁revise	-10.7942
▁television	-10.7942
▁doubl	-10.7942
▁football	-10.7942
▁session	-10.7942
▁exact	-10.7942
▁jump	-10.7942
jiang	-10.7942
▁email	-10.7942
▁pakistan	-10.7942
preserv	-10.7943
▁nsp	-10.7943
▁admit	-10.7943
▁Monaghan	-10.7943
▁cura	-10.7943
▁sanit	-10.7943
denovirus	-10.7943
▁flexibility	-10.7943
▁Pro	-10.7943
osha	-10.7943
▁brief	-10.7943
▁Russ	-10.7943
▁radiolog	-10.7943
7,6	-10.7943
▁intell	-10.7944
▁periodically	-10.7944
▁1890	-10.7944
▁surgery	-10.7944
▁unclear	-10.7944
▁contraception	-10.7944
▁synthe	-10.7944
▁tablets	-10.7944
▁harmless	-10.7944
▁descent	-10.7944
▁guil	-10.7945
▁hiv	-10.7945
▁sentence	-10.7945
▁buttocks	-10.7945
▁Local	-10.7945
▁3.8	-10.7945
▁stations	-10.7946
▁Level	-10.7946
▁Here	-10.7946
▁matches	-10.7946
▁1,7	-10.7947
▁inhibition	-10.7947
▁initiated	-10.7947
scra	-10.7948
▁Generally	-10.7948
▁suddenly	-10.7948
▁responsibility	-10.7948
lick	-10.7948
▁evaluation	-10.7948
pedia	-10.7949
▁permit	-10.7949
▁door	-10.7949
▁loose	-10.7949
nitial	-10.7949
▁poor	-10.795
▁aches	-10.795
▁emergencies	-10.795
▁stomach	-10.795
▁stroke	-10.795
▁Unit	-10.795
lopin	-10.795
▁betacoronavirus	-10.7951
▁Near	-10.7951
▁stability	-10.7951
▁psycho	-10.7952
▁counties	-10.7952
pims	-10.7953
▁tree	-10.7953
structive	-10.7953
thro	-10.7954
▁contamination	-10.7954
ext	-10.7954
▁bright	-10.7954
▁works	-10.7954
▁easier	-10.7955
▁cash	-10.7955
▁evacuation	-10.7956
▁serum	-10.7956
▁dismissal	-10.7956
uary	-10.7957
▁arts	-10.7957
▁2015	-10.7958
▁drastic	-10.7959
▁sales	-10.7959
▁exit	-10.7959
▁etc	-10.7959
▁alter	-10.7959
▁toxicity	-10.7959
▁injury	-10.7959
▁path	-10.796
▁deep	-10.796
▁rarely	-10.796
ador	-10.796
▁bit	-10.796
▁pathogenicity	-10.7961
▁experimental	-10.7962
▁obes	-10.7964
▁cycle	-10.7965
▁bru	-10.7965
▁insecurity	-10.7966
▁Last	-10.7966
etric	-10.7966
easures	-10.7968
▁disinfection	-10.7968
▁helpline	-10.7969
▁pacific	-10.7969
▁proximity	-10.7969
▁valu	-10.7969
▁district	-10.797
cfr	-10.797
▁consideration	-10.797
▁mix	-10.7972
ink	-10.7972
▁prayers	-10.7972
▁habits	-10.7972
▁spokes	-10.7972
ngen	-10.7972
▁hairdressers	-10.7972
▁correctly	-10.7973
▁mice	-10.7973
cortico	-10.7975
▁barr	-10.7975
▁eight	-10.7977
▁Every	-10.7978
▁fourth	-10.798
▁Move	-10.798
▁midwi	-10.7981
propos	-10.7981
▁Mil	-10.7981
eath	-10.7982
rogen	-10.7984
▁290	-10.7984
▁belong	-10.7984
cmr	-10.7985
▁virtually	-10.7986
ester	-10.7986
▁cata	-10.7987
lessness	-10.7987
▁sept	-10.799
egu	-10.7992
▁referral	-10.7993
▁mutat	-10.7998
▁plu	-10.7998
▁sche	-10.8002
ocl	-10.8004
▁busy	-10.8004
▁passage	-10.8005
arade	-10.8006
▁Shar	-10.8008
citation	-10.8009
▁15%	-10.8012
▁urgently	-10.8012
▁prohibited	-10.8012
▁say	-10.8012
▁originate	-10.8013
▁Antibod	-10.8015
▁page	-10.8017
qa	-10.8017
▁lrti	-10.8017
▁diplomatic	-10.8022
▁nce	-10.8023
▁conferences	-10.8026
▁healthily	-10.8031
▁spar	-10.8033
otential	-10.8036
▁lifted	-10.804
▁adjust	-10.8042
▁40%	-10.8042
▁functional	-10.8049
▁scann	-10.8052
efficiency	-10.8058
fema	-10.8058
▁culture	-10.8062
▁(27	-10.8065
ier	-10.8066
syn	-10.8066
▁morbidit	-10.8067
▁sit	-10.8068
▁petrol	-10.8071
▁variation	-10.8072
▁salt	-10.8077
▁49	-10.8079
▁supermarkets	-10.8082
▁techniques	-10.8082
▁vehicles	-10.8082
▁damaged	-10.8089
▁enveloped	-10.8093
▁memor	-10.8095
▁fire	-10.8097
nche	-10.8097
34	-10.8098
▁continual	-10.8099
ncl	-10.8101
866	-10.8107
▁cats	-10.8109
▁glass	-10.8111
▁pup	-10.8114
▁3,4	-10.8116
▁cor	-10.8119
▁delivered	-10.8119
▁bars	-10.812
▁Close	-10.8121
▁5,000	-10.8121
▁2,5	-10.8124
▁pets	-10.813
▁gol	-10.8131
ndem	-10.8134
▁intra	-10.8139
▁4,000	-10.8139
ata	-10.8141
▁actual	-10.8142
0.1%	-10.8148
▁alpacas	-10.8195
▁purchases	-10.8195
▁tickets	-10.8195
▁communications	-10.8195
▁games	-10.8195
▁4,1	-10.8196
▁exceeding	-10.8202
7%	-10.8204
▁pet	-10.8211
▁island	-10.8215
ages	-10.823
▁seal	-10.824
▁booking	-10.8243
▁indexe	-10.8282
▁pho	-10.8283
▁eased	-10.8296
▁47	-10.8296
turb	-10.8308
▁points	-10.8309
▁powers	-10.8309
▁suits	-10.8309
▁Visits	-10.831
▁hen	-10.8325
▁3,3	-10.8342
22	-10.8343
▁(0.	-10.8346
oma	-10.8351
▁4,92	-10.8355
▁rating	-10.8359
▁disinfected	-10.8362
ently	-10.8362
▁ga	-10.8365
▁windows	-10.8368
▁meetings	-10.8368
iving	-10.8385
98	-10.8388
▁cleared	-10.8419
,534	-10.8424
▁feelings	-10.8425
▁seats	-10.8425
▁interactions	-10.8427
42	-10.8433
▁ago	-10.8443
▁spa	-10.8443
ees	-10.8464
ull	-10.8465
▁san	-10.8473
▁planes	-10.8484
▁prescriptions	-10.8487
402	-10.8488
▁ships	-10.8516
iting	-10.8534
▁investigations	-10.8545
omic	-10.855
ball	-10.8552
cate	-10.8555
8%	-10.8558
▁parks	-10.8575
▁plann	-10.8583
paris	-10.8605
pecifically	-10.8606
▁capabilit	-10.8613
07.	-10.8616
nish	-10.8628
▁happening	-10.8634
onal	-10.8642
▁bra	-10.8643
und	-10.8654
▁employers	-10.8666
ban	-10.8673
▁dog	-10.868
3.0	-10.8687
▁acquir	-10.8687
▁2,1	-10.8691
▁cd	-10.8701
▁4)	-10.8703
▁africans	-10.8726
pir	-10.8737
32	-10.8737
mmediate	-10.874
▁ban	-10.8757
▁bar	-10.877
▁defend	-10.878
▁schedules	-10.8787
90	-10.8791
▁recording	-10.8803
▁nl	-10.8833
ania	-10.8852
pped	-10.8873
▁infects	-10.8886
204	-10.8892
iff	-10.8907
▁flat	-10.8909
▁drinks	-10.8924
erret	-10.8938
▁chol	-10.896
▁facts	-10.8976
indication	-10.8998
yl	-10.9005
lad	-10.9017
alm	-10.9033
▁falls	-10.9036
gel	-10.9039
▁Live	-10.904
▁senti	-10.9043
▁classifi	-10.9062
cor	-10.9066
putin	-10.9109
▁verifi	-10.9111
▁scare	-10.9151
▁dif	-10.9153
11	-10.916
▁certificates	-10.9164
▁179	-10.9167
▁ages	-10.9173
▁cop	-10.9213
▁circulate	-10.9214
28	-10.924
▁inva	-10.9245
vac	-10.9262
▁Shi	-10.9268
ino	-10.9302
ads	-10.9338
pheic	-10.9346
▁attacks	-10.9359
▁officers	-10.9359
cause	-10.9397
eign	-10.9422
▁hotels	-10.9425
5,3	-10.945
▁gri	-10.9455
▁Immun	-10.9459
▁genera	-10.9477
ari	-10.948
▁prec	-10.9529
▁contribute	-10.9584
aining	-10.9585
▁cat	-10.9596
ells	-10.9599
▁sides	-10.9627
▁rena	-10.9634
▁lat	-10.9659
▁Pa	-10.9689
6,8	-10.9696
▁1201	-10.9733
aff	-10.976
▁cleaner	-10.9779
lance	-10.979
supportive	-10.9798
duction	-10.9882
copy	-10.9884
za	-10.99
▁scar	-10.9905
▁encod	-10.9915
igg	-10.9917
%	-10.9922
otions	-10.9946
ague	-10.995
▁simpl	-10.9967
▁complet	-10.9978
▁Ha	-10.9982
▁ferr	-11.0049
washed	-11.0081
▁Both	-11.0083
▁prefer	-11.0086
▁10,000	-11.0092
▁Liv	-11.0136
03	-11.0164
ise	-11.0177
batcov	-11.0193
pending	-11.0194
▁32	-11.02
defender	-11.0212
icken	-11.0278
▁transmitt	-11.0294
reach	-11.0329
trol	-11.0335
va	-11.0339
▁detain	-11.0371
108	-11.0388
acted	-11.0392
41	-11.049
▁79	-11.0532
▁challenge	-11.0532
elve	-11.0578
clusive	-11.0605
▁269,	-11.0622
ope	-11.0726
main	-11.073
olence	-11.0743
▁impe	-11.0774
owing	-11.079
asti	-11.0797
▁ph	-11.081
dominan	-11.0824
ater	-11.0841
2.4%	-11.0892
▁Parti	-11.0896
▁bac	-11.0898
town	-11.0902
wn	-11.0903
icus	-11.091
hus	-11.0911
ken	-11.0939
long	-11.0946
adow	-11.0954
í	-11.0954
▁72	-11.0954
▁intens	-11.0958
ili	-11.098
eters	-11.099
each	-11.0994
tric	-11.0995
4.5%	-11.1007
leve	-11.1013
▁Stor	-11.1014
self	-11.1029
olate	-11.1033
8,9	-11.1035
icu	-11.1049
1,8	-11.1053
chang	-11.1059
▁definition	-11.1072
▁Medication	-11.1075
▁technique	-11.1082
▁vehicle	-11.1082
▁supermarket	-11.1082
▁curfew	-11.1087
▁bulb	-11.1087
▁advi	-11.1088
west	-11.109
▁trip	-11.1092
transcript	-11.1092
▁price	-11.1093
zoo	-11.1093
▁defence	-11.1095
▁infant	-11.1096
▁mammal	-11.1098
hsa	-11.1098
▁carrier	-11.1098
▁shop	-11.1099
▁Vaccine	-11.1099
▁traveller	-11.11
▁resource	-11.1101
morbidit	-11.1101
▁remind	-11.1103
▁adult	-11.1103
▁pool	-11.1103
view	-11.1104
▁teacher	-11.1105
▁item	-11.1105
controlled	-11.1105
stream	-11.1109
▁proportion	-11.1109
power	-11.1111
political	-11.1113
▁cafe	-11.1114
counter	-11.1114
tract	-11.1115
sign	-11.1117
exist	-11.1118
approved	-11.1118
pregnant	-11.112
suspect	-11.112
protein	-11.1121
especially	-11.1121
while	-11.1121
january	-11.1122
pandemic	-11.1122
vaccine	-11.1122
weight	-11.1124
technology	-11.1124
primary	-11.1127
february	-11.1129
▁remov	-11.113
highest	-11.1131
dhere	-11.1132
either	-11.1132
covered	-11.1134
pproximate	-11.1139
have	-11.1143
testing	-11.1145
▁recommendation	-11.1145
county	-11.1148
rrange	-11.1149
cgp	-11.1154
through	-11.1154
▁bur	-11.1163
men	-11.1167
cond	-11.117
▁interrupt	-11.1171
▁prohibit	-11.1176
▁stor	-11.1177
▁relax	-11.1181
arti	-11.1184
▁administer	-11.1185
▁agr	-11.12
aint	-11.1204
arding	-11.1207
▁farm	-11.1209
▁minute	-11.1217
aving	-11.1222
▁ultimate	-11.1223
wet	-11.1224
ception	-11.1225
indu	-11.1226
▁continuous	-11.123
▁abnormal	-11.123
▁quick	-11.1234
▁conclude	-11.1235
▁recogni	-11.1235
free	-11.1237
▁worrie	-11.1237
▁exhibit	-11.1238
▁1.4	-11.1238
urban	-11.1239
▁ke	-11.1241
▁lu	-11.1243
▁56	-11.1248
hu	-11.1248
▁replace	-11.125
achment	-11.1251
▁qua	-11.1251
▁dismiss	-11.1253
▁inject	-11.1253
bu	-11.1255
▁obst	-11.1255
▁Ens	-11.1256
ubsequent	-11.1256
amples	-11.1256
urveillance	-11.1256
wnload	-11.1258
▁govern	-11.1258
▁yog	-11.1261
▁Infect	-11.1262
▁tex	-11.1263
commended	-11.1268
▁hous	-11.1268
▁differ	-11.127
ndividuals	-11.127
ultiple	-11.127
lexibility	-11.1271
▁coronavir	-11.1272
mbass	-11.1272
▁accident	-11.1272
▁Safe	-11.1272
ifferent	-11.1273
▁responsib	-11.1273
plex	-11.1273
ruption	-11.1273
eadache	-11.1273
▁clarif	-11.1273
joy	-11.1273
▁pollut	-11.1274
▁uncertain	-11.1274
undred	-11.1274
ecutive	-11.1274
▁confiden	-11.1274
fforts	-11.1274
▁epi	-11.1274
radic	-11.1274
firmed	-11.1274
▁Organi	-11.1274
▁hung	-11.1274
print	-11.1274
▁Develop	-11.1274
▁angiotensin	-11.1274
▁antarctica	-11.1274
evolve	-11.1274
hemorrhoids	-11.1274
hormonal	-11.1274
otherapy	-11.1274
phylact	-11.1274
politics	-11.1274
resumably	-11.1274
symbol	-11.1274
▁Brazil	-11.1274
▁Breathing	-11.1274
▁Canada	-11.1274
▁Cinemas	-11.1274
▁Countries	-11.1274
▁Diabetes	-11.1274
▁Diarrhea	-11.1274
▁Disposable	-11.1274
▁Epidemic	-11.1274
▁Hospital	-11.1274
▁Infectious	-11.1274
▁Museums	-11.1274
▁Outbreak	-11.1274
▁Pneumonia	-11.1274
▁Politic	-11.1274
▁Rapid	-11.1274
▁Regular	-11.1274
▁Restaurants	-11.1274
▁Sneeze	-11.1274
▁Swab	-11.1274
▁Taiwan	-11.1274
▁Thailand	-11.1274
▁Tipperary	-11.1274
▁abandon	-11.1274
▁aboard	-11.1274
▁absorb	-11.1274
▁bathroom	-11.1274
▁beneficial	-11.1274
▁capsules	-11.1274
▁cardboard	-11.1274
▁ceasefire	-11.1274
▁ceremony	-11.1274
▁christmas	-11.1274
▁connectivity	-11.1274
▁conversation	-11.1274
▁cornell	-11.1274
▁coworkers	-11.1274
▁defective	-11.1274
▁dehydrated	-11.1274
▁discourag	-11.1274
▁doorknob	-11.1274
▁etiquette	-11.1274
▁evolving	-11.1274
▁feedback	-11.1274
▁forecast	-11.1274
▁glycoprotein	-11.1274
▁inactivate	-11.1274
▁inconclusive	-11.1274
▁incubator	-11.1274
▁infectivity	-11.1274
▁initiative	-11.1274
▁insufficient	-11.1274
▁journey	-11.1274
▁judaism	-11.1274
▁kidney	-11.1274
▁kilobases	-11.1274
▁kuwait	-11.1274
▁leaflet	-11.1274
▁lucia	-11.1274
▁malaysia	-11.1274
▁metaboli	-11.1274
▁nausea	-11.1274
▁onboard	-11.1274
▁optimistic	-11.1274
▁perfect	-11.1274
▁photograph	-11.1274
▁picture	-11.1274
▁recombine	-11.1274
▁reject	-11.1274
▁renewed	-11.1274
▁resolution	-11.1274
▁sanitiser	-11.1274
▁shoppers	-11.1274
▁shutdown	-11.1274
▁software	-11.1274
▁speculat	-11.1274
▁technic	-11.1274
▁transaction	-11.1274
▁undetected	-11.1274
▁vessel	-11.1274
▁warrant	-11.1274
▁zimmerman	-11.1274
▁Return	-11.1274
▁Stretch	-11.1274
▁barbers	-11.1274
▁bubble	-11.1274
▁coincid	-11.1274
▁commitment	-11.1274
▁disseminat	-11.1274
▁dollars	-11.1274
▁elucidat	-11.1274
▁gaeltacht	-11.1274
▁grieving	-11.1274
▁portugal	-11.1274
▁rhinoviruses	-11.1274
▁rumours	-11.1274
▁section	-11.1274
▁trenton	-11.1274
▁vivo	-11.1274
▁built	-11.1274
▁cheese	-11.1274
▁compulsive	-11.1274
▁encountered	-11.1274
▁jesus	-11.1274
▁ukraine	-11.1274
▁ultra	-11.1274
▁Measles	-11.1274
▁Source	-11.1274
▁abdom	-11.1274
▁asymmetric	-11.1274
▁attitude	-11.1274
▁birds	-11.1274
▁broncho	-11.1274
▁chickens	-11.1274
▁Concer	-11.1274
▁Priorit	-11.1274
▁Walk	-11.1274
▁categor	-11.1274
▁integrat	-11.1274
▁laois	-11.1274
▁properties	-11.1274
▁tears	-11.1274
taneous	-11.1274
▁sweden	-11.1274
▁zone	-11.1274
profile	-11.1274
▁abbott	-11.1274
▁itinerar	-11.1274
▁promote	-11.1274
▁Mrna	-11.1274
▁blocked	-11.1274
▁evict	-11.1274
▁queue	-11.1274
▁longford	-11.1274
▁melbourne	-11.1274
▁slightly	-11.1274
lapse	-11.1274
▁mourn	-11.1274
▁riot	-11.1274
▁ferrets	-11.1274
▁medics	-11.1274
▁steel	-11.1274
▁blame	-11.1274
▁fixed	-11.1274
▁recommence	-11.1274
▁rotation	-11.1274
▁cheater	-11.1274
nuts	-11.1274
▁grass	-11.1274
invalid	-11.1274
ubb	-11.1274
lbania	-11.1274
▁Airline	-11.1274
▁Provid	-11.1274
▁celebrations	-11.1274
▁vegetables	-11.1274
mbulance	-11.1275
▁loan	-11.1275
▁confidential	-11.1275
▁confine	-11.1275
morph	-11.1275
▁collapse	-11.1275
▁eradicat	-11.1275
▁radical	-11.1275
▁punish	-11.1275
▁compris	-11.1275
zambi	-11.1275
▁abuse	-11.1275
▁epicent	-11.1275
▁4.7%	-11.1275
▁Buy	-11.1275
▁imperative	-11.1275
▁kiss	-11.1275
▁jazz	-11.1275
▁Formal	-11.1275
▁seoul	-11.1275
▁stadi	-11.1275
▁zhou	-11.1275
▁ancest	-11.1275
▁timing	-11.1275
▁facebook	-11.1275
▁hostels	-11.1275
▁Stop	-11.1275
▁amnes	-11.1275
icult	-11.1275
▁derive	-11.1275
▁enjoy	-11.1275
▁clarified	-11.1275
▁ineffective	-11.1275
▁Ord	-11.1275
▁speed	-11.1275
▁display	-11.1275
▁transferr	-11.1275
ictions	-11.1275
▁directives	-11.1275
▁Carlow	-11.1275
▁superior	-11.1275
▁qualif	-11.1275
▁expertise	-11.1276
▁medina	-11.1276
▁heighten	-11.1276
▁governance	-11.1276
igm	-11.1276
▁hungary	-11.1276
▁Cdc	-11.1276
andom	-11.1276
▁elsewhere	-11.1276
▁Safety	-11.1276
▁filling	-11.1276
▁sweat	-11.1276
▁fertility	-11.1276
▁gift	-11.1276
▁Touris	-11.1276
▁authorization	-11.1276
▁bibl	-11.1276
▁physician	-11.1276
▁printing	-11.1276
▁generation	-11.1276
▁projections	-11.1276
▁254,	-11.1277
▁groceries	-11.1277
▁Donegal	-11.1277
▁decades	-11.1277
▁kids	-11.1277
▁coronavac	-11.1277
▁embass	-11.1277
▁premi	-11.1277
▁wildlife	-11.1277
▁dispers	-11.1277
▁readiness	-11.1277
▁smokers	-11.1277
▁lava	-11.1277
íoc	-11.1277
▁estate	-11.1277
▁submit	-11.1278
▁tiny	-11.1278
azard	-11.1278
▁electi	-11.1278
▁Asymptomatic	-11.1278
▁observation	-11.1278
▁visa	-11.1278
▁242,	-11.1278
bidde	-11.1278
▁confusion	-11.1278
▁Restrictions	-11.1278
▁consequence	-11.1279
▁Treatment	-11.1279
▁observa	-11.1279
▁saturation	-11.1279
▁smallpox	-11.1279
cryo	-11.1279
▁Also	-11.1279
rude	-11.1279
▁Water	-11.1279
-7.2	-11.1279
▁crucial	-11.1279
▁observance	-11.1279
▁Pub	-11.128
▁1.7	-11.128
▁6,5	-11.128
roid	-11.128
07.2	-11.128
▁247,	-11.128
▁click	-11.128
ontainment	-11.128
▁inflammation	-11.1281
▁acti	-11.1281
▁5.7	-11.1281
▁Iobuprofen	-11.1281
▁sew	-11.1281
▁sound	-11.1281
▁chlor	-11.1281
▁fail	-11.1281
▁ascertain	-11.1282
hone	-11.1282
▁crew	-11.1282
▁elections	-11.1283
▁topic	-11.1283
▁4,0	-11.1283
nitis	-11.1283
▁caution	-11.1283
forehead	-11.1283
▁strike	-11.1284
▁characterized	-11.1284
▁Defin	-11.1284
▁dosage	-11.1284
▁6,1	-11.1284
▁controversy	-11.1284
▁roman	-11.1284
▁love	-11.1285
beit	-11.1285
allow	-11.1285
▁freephone	-11.1285
couple	-11.1286
▁pause	-11.1287
▁aldi	-11.1287
▁substitution	-11.1287
▁yoga	-11.1287
▁hence	-11.1287
▁divergen	-11.1288
dental	-11.1288
▁2,8	-11.1288
▁stem	-11.1288
▁mink	-11.1288
hens	-11.1289
▁insert	-11.1289
▁speak	-11.1289
▁prisoners	-11.1289
▁oppos	-11.129
▁Rna	-11.129
▁3,2	-11.129
▁assume	-11.1291
▁dna	-11.1292
▁salon	-11.1293
ethic	-11.1293
▁1,4	-11.1293
rong	-11.1294
▁hospitalisation	-11.1294
▁acknowledge	-11.1294
▁join	-11.1294
▁lab	-11.1294
▁consent	-11.1295
,800	-11.1295
▁injection	-11.1295
ortion	-11.1296
▁allowance	-11.1296
▁supplement	-11.1296
bott	-11.1296
▁endorse	-11.1296
▁export	-11.1297
▁251,	-11.1297
▁authorised	-11.1297
▁exacerbated	-11.1297
▁ventilated	-11.1297
▁neg	-11.1298
▁employed	-11.1298
upro	-11.1299
▁atlant	-11.1299
▁download	-11.1299
▁rail	-11.13
▁bil	-11.13
▁latex	-11.13
▁eliminated	-11.13
▁investigated	-11.13
▁pace	-11.13
▁His	-11.1301
▁1918	-11.1302
zar	-11.1302
mhv	-11.1302
▁priority	-11.1302
▁reasonable	-11.1303
▁sentiment	-11.1303
rump	-11.1304
izer	-11.1304
profen	-11.1305
enop	-11.1305
▁solar	-11.1306
vid	-11.1306
etails	-11.1309
▁listen	-11.131
guards	-11.131
▁mood	-11.131
▁exhibition	-11.1311
▁bend	-11.1311
▁undiagnosed	-11.1313
▁param	-11.1313
▁Swe	-11.1314
▁preparation	-11.1314
▁optimal	-11.1314
▁harder	-11.1314
▁rhino	-11.1315
▁distinguish	-11.1315
▁castle	-11.1315
▁subsid	-11.1315
▁Mill	-11.1319
▁tours	-11.132
▁457	-11.132
▁leaders	-11.132
▁tightly	-11.1321
dimer	-11.1321
▁continuously	-11.1321
▁243,	-11.1321
tists	-11.1323
investigating	-11.1324
▁Dru	-11.1326
▁proce	-11.1329
▁infectiousness	-11.1329
sibl	-11.1331
▁mec	-11.1332
▁6.30	-11.1332
▁Ment	-11.1332
▁ko	-11.1333
▁simple	-11.1335
veni	-11.1336
▁0.2	-11.1336
▁minimis	-11.1337
▁gathered	-11.1338
▁match	-11.1338
homa	-11.1339
▁unexpectedly	-11.1339
▁insight	-11.134
▁correct	-11.1341
bodi	-11.1342
▁01	-11.1342
arian	-11.1347
feeding	-11.1347
▁tight	-11.1347
compliance	-11.1349
consci	-11.1351
forget	-11.1351
▁processes	-11.1351
▁Cv	-11.1352
▁cleave	-11.1352
▁licence	-11.1352
▁syn	-11.1353
▁wish	-11.1358
▁sharply	-11.1358
health	-11.1358
9,33	-11.1359
▁Fet	-11.1359
▁cocooning	-11.1364
rite	-11.1364
▁planet	-11.1372
▁interrupted	-11.1378
bnormalities	-11.1378
pens	-11.138
▁xi	-11.1381
ocyto	-11.1383
▁Off	-11.1383
tically	-11.1385
▁mode	-11.1385
▁patholog	-11.1385
▁convert	-11.1387
▁caf	-11.1388
▁Hse	-11.1388
cine	-11.139
ual	-11.139
lta	-11.1392
▁utili	-11.1393
▁114	-11.1396
▁hypox	-11.1396
▁hunger	-11.1396
▁Bat	-11.1397
▁Masks	-11.1398
▁gowns	-11.1398
▁newborns	-11.1398
▁Por	-11.1401
url	-11.1403
aught	-11.1404
▁choir	-11.1404
▁ensu	-11.1405
shannon	-11.1415
▁born	-11.1415
esults	-11.142
▁signal	-11.1423
▁miss	-11.1429
1.8	-11.1438
▁copd	-11.1439
▁ease	-11.1441
▁sl	-11.1441
iscu	-11.1446
▁measured	-11.1447
▁mh	-11.1452
▁zoo	-11.1452
▁transcript	-11.1454
▁dev	-11.1454
▁factory	-11.146
▁hsa	-11.146
▁sustained	-11.1461
▁lea	-11.1465
▁bal	-11.1468
▁tropic	-11.1469
uta	-11.1473
▁pot	-11.1474
▁farms	-11.148
▁Medications	-11.148
▁definitions	-11.148
▁trips	-11.148
▁temple	-11.1487
▁cafes	-11.1488
stown	-11.1491
▁carriers	-11.1495
nder	-11.1497
▁mandate	-11.1497
▁underestimat	-11.1498
▁becom	-11.15
1.61	-11.1502
ema	-11.1505
fold	-11.1507
▁cond	-11.1509
practical	-11.151
▁hot	-11.1519
▁deb	-11.152
▁ema	-11.1522
licit	-11.1525
▁immunosuppress	-11.1526
night	-11.154
▁Age	-11.1547
▁travelers	-11.1559
▁characteristics	-11.1563
▁editions	-11.1563
▁continents	-11.1563
▁gardens	-11.1563
▁lymphocytes	-11.1565
▁aspect	-11.1565
▁pat	-11.157
▁coded	-11.1571
▁4%	-11.1574
twine	-11.1586
convenient	-11.1589
4.8	-11.1596
aí	-11.1601
▁load	-11.161
▁nm	-11.1639
▁administrators	-11.1647
▁organisations	-11.1648
▁cards	-11.1654
igi	-11.1655
figures	-11.1655
▁2,6	-11.1687
▁seiz	-11.1708
▁running	-11.171
lop	-11.1729
organis	-11.1732
▁bent	-11.1734
liter	-11.1739
▁practis	-11.174
▁86	-11.1743
8,7	-11.1747
iers	-11.1752
after	-11.1762
▁producer	-11.1765
▁festivals	-11.1776
nka	-11.179
ky	-11.1791
▁dow	-11.1791
etiology	-11.1805
tag	-11.1808
inva	-11.1824
typical	-11.1851
bul	-11.1851
0.5%	-11.1853
▁mos	-11.1859
▁shoulders	-11.1862
▁3,7	-11.1874
▁Di	-11.1889
▁Inter	-11.1892
▁100,000)	-11.1897
▁mayo	-11.19
▁grounds	-11.1906
▁schemes	-11.1906
▁spi	-11.1926
4,3	-11.193
▁placement	-11.1932
gins	-11.1938
▁Rem	-11.1953
▁obs	-11.1954
vided	-11.1968
9,32	-11.2015
invest	-11.2023
tery	-11.2035
arrh	-11.2038
▁4,78	-11.207
0)	-11.2077
▁Medi	-11.2082
▁Prim	-11.21
light	-11.2106
umb	-11.2109
ogene	-11.2117
▁readi	-11.2165
1,6	-11.2171
tainment	-11.2255
▁186	-11.2259
4,000	-11.2261
▁grie	-11.2277
bab	-11.2309
pha	-11.2322
itting	-11.2348
compute	-11.2348
▁lose	-11.2368
cott	-11.2375
86%	-11.2395
conomic	-11.2501
▁declares	-11.2513
cated	-11.2527
stric	-11.2629
hand	-11.2632
1.5	-11.2669
mber	-11.2712
▁3,6	-11.2772
9%)	-11.2802
189	-11.2809
▁mobilize	-11.2817
fficial	-11.2906
nyone	-11.2935
▁rib	-11.2997
ntroduc	-11.3014
▁sno	-11.3057
▁Fat	-11.3057
hanks	-11.3084
nom	-11.3122
▁mad	-11.3147
oul	-11.3182
▁outlin	-11.3328
brid	-11.3365
▁germ	-11.3384
▁induc	-11.341
▁surviv	-11.341
▁vo	-11.3423
reign	-11.3447
live	-11.3452
killer	-11.3473
mmunity	-11.348
▁reliev	-11.3498
clinical	-11.3501
98%	-11.3553
cente	-11.3573
▁comp	-11.3719
yle	-11.3734
75%	-11.3854
▁dri	-11.3867
ficial	-11.3869
▁Part	-11.4035
gical	-11.4067
east	-11.4174
gh	-11.4305
▁Rub	-11.4341
ovel	-11.4341
▁shel	-11.4379
latten	-11.4391
▁2,0	-11.4413
ologist	-11.4424
▁235,	-11.4455
vents	-11.448
▁2.4	-11.4569
stand	-11.4607
usage	-11.4614
▁Los	-11.4643
oche	-11.469
▁Carr	-11.4741
peak	-11.4759
10-1	-11.5034
struction	-11.5132
ulling	-11.517
entation	-11.5183
▁meta	-11.5238
▁4,58	-11.5257
▁secur	-11.526
▁persist	-11.5268
▁medi	-11.5271
▁1,00	-11.5446
racing	-11.5485
you	-11.5549
0,7	-11.5556
abilities	-11.5558
5,000	-11.562
▁fla	-11.5627
▁induce	-11.565
▁8,0	-11.5745
▁continu	-11.5754
espiratory	-11.5778
▁convenien	-11.578
ado	-11.5806
erti	-11.5849
▁238,	-11.5885
191	-11.5894
ifr	-11.5916
▁templ	-11.5936
013	-11.5955
▁acqui	-11.5961
▁3,0	-11.5963
head	-11.5964
ealthy	-11.597
rmal	-11.5988
▁occasion	-11.6005
▁520	-11.6026
▁summar	-11.6034
wer	-11.6052
▁gather	-11.6055
tential	-11.6057
elect	-11.606
count	-11.606
xia	-11.6072
▁arab	-11.6077
born	-11.6082
tocks	-11.6083
▁231,	-11.6084
▁Mask	-11.6085
position	-11.6085
▁newborn	-11.6086
▁gown	-11.6087
▁benefit	-11.6089
▁john	-11.6089
▁barrier	-11.6089
xi	-11.6092
4%)	-11.6092
▁conference	-11.6092
convert	-11.6094
correct	-11.6094
▁component	-11.6094
copd	-11.6094
minute	-11.6095
hunger	-11.6095
▁solution	-11.6096
▁concert	-11.6097
▁platform	-11.6097
▁employee	-11.6097
▁question	-11.6101
Close	-11.6102
lrti	-11.6103
operation	-11.6103
adjust	-11.6108
hurt	-11.6109
volume	-11.611
▁establishment	-11.611
how	-11.611
protected	-11.6111
▁pub	-11.6111
taken	-11.6112
document	-11.6112
designate	-11.6114
▁determin	-11.6114
iii	-11.6114
common	-11.6114
2,30	-11.6115
approval	-11.6116
moderate	-11.6116
solidarity	-11.6116
regular	-11.6116
multi	-11.6116
recognize	-11.6117
screen	-11.6117
play	-11.6117
grade	-11.6118
reys	-11.6119
month	-11.6119
reaction	-11.6119
australia	-11.6119
diplomatic	-11.6119
course	-11.6119
bind	-11.612
swab	-11.612
nucleo	-11.6121
patient	-11.6121
clear	-11.6121
support	-11.6121
associated	-11.6122
identified	-11.6122
chron	-11.6122
negative	-11.6122
family	-11.6122
population	-11.6122
contain	-11.6122
house	-11.6122
closed	-11.6122
affected	-11.6123
safe	-11.6123
masks	-11.6123
found	-11.6123
half	-11.6123
april	-11.6123
which	-11.6123
number	-11.6123
A	-11.6123
reported	-11.6124
I	-11.6124
cough	-11.6127
▁procla	-11.6128
▁impos	-11.613
first	-11.613
fizer	-11.6132
travel	-11.6132
positive	-11.6133
▁cocoon	-11.6134
back	-11.6136
ctivities	-11.614
uthorities	-11.6141
vailable	-11.6143
179	-11.6143
base	-11.6143
▁120	-11.6144
nswer	-11.6146
measures	-11.615
▁physic	-11.615
▁build	-11.6151
▁accord	-11.6153
lack	-11.6154
hold	-11.6157
▁mut	-11.616
look	-11.6161
▁observ	-11.6165
quality	-11.6171
uk	-11.6171
▁approv	-11.6173
bat	-11.6174
▁hear	-11.6176
▁Abnormal	-11.6178
itches	-11.6183
wall	-11.6184
away	-11.6186
▁si	-11.6187
▁announc	-11.6188
rsc	-11.6189
drp	-11.6189
ssess	-11.6193
▁polic	-11.6196
change	-11.6196
▁camel	-11.6198
that	-11.6206
contaminate	-11.6207
hcovs	-11.6212
life	-11.6219
handl	-11.622
▁nh	-11.6225
▁empt	-11.6226
fusion	-11.6227
raction	-11.623
▁microscop	-11.6231
cretion	-11.6231
▁eliminate	-11.6232
▁investigate	-11.6232
▁injur	-11.6232
igh	-11.6232
▁stuff	-11.6233
▁heav	-11.6234
▁societ	-11.6235
curring	-11.6235
priv	-11.6236
ayer	-11.6237
▁appropriat	-11.6238
▁anatom	-11.6239
▁hygien	-11.6239
supplementa	-11.6239
▁positiv	-11.6239
▁german	-11.6241
▁entr	-11.6242
▁identifie	-11.6243
liance	-11.6245
hort	-11.6248
cogniti	-11.625
tual	-11.625
imple	-11.6253
▁substitut	-11.6254
tail	-11.6254
▁geographic	-11.6254
nces	-11.6254
uspension	-11.6255
tomach	-11.6255
ingapore	-11.6255
easonal	-11.6256
tudents	-11.6256
▁explo	-11.6257
rdwar	-11.6257
lio	-11.6257
tudies	-11.6257
▁dirt	-11.6261
ositive	-11.6261
lip	-11.6261
▁brea	-11.6262
▁influen	-11.6262
▁Epidemiologi	-11.6263
▁Comp	-11.6263
▁consen	-11.6264
suite	-11.6265
▁Business	-11.6265
ttp	-11.6266
ization	-11.6266
▁contracepti	-11.6267
▁consequen	-11.6267
▁strategi	-11.6267
ethods	-11.6267
mdesivir	-11.6267
▁contra	-11.6267
▁capita	-11.6268
▁accumulat	-11.6268
ugg	-11.6268
▁confus	-11.6268
▁academ	-11.6268
▁procedur	-11.6268
▁descript	-11.6269
ncreasing	-11.627
nfluenza	-11.627
onnect	-11.627
haracteristic	-11.627
▁conc	-11.627
hurches	-11.627
roplet	-11.627
▁quantit	-11.627
▁grocer	-11.627
rescriptions	-11.627
akistan	-11.627
▁Multi	-11.627
chards	-11.627
roject	-11.6271
nstead	-11.6271
▁authoriz	-11.6271
▁futu	-11.6271
onaghan	-11.6272
requently	-11.6272
angha	-11.6272
ertility	-11.6272
▁surge	-11.6272
ncourage	-11.6272
entry	-11.6272
ifficulty	-11.6273
ptimal	-11.6273
▁recombina	-11.6273
xford	-11.6273
gnostic	-11.6273
rganizations	-11.6273
▁popula	-11.6273
uctions	-11.6273
adequate	-11.6274
vidence	-11.6274
▁activi	-11.6274
▁celebr	-11.6274
▁ambula	-11.6274
▁manifest	-11.6274
▁Priva	-11.6274
▁federa	-11.6274
▁certifi	-11.6274
▁hyper	-11.6274
reschedul	-11.6274
▁Aerosol	-11.6274
▁Detect	-11.6274
▁Pharmac	-11.6274
▁contemplat	-11.6274
▁destabili	-11.6274
▁gambl	-11.6274
▁gluco	-11.6274
▁jeopardi	-11.6274
▁kennedy	-11.6274
▁unacceptable	-11.6274
8,251	-11.6274
auritius	-11.6274
comirnaty	-11.6274
erroneous	-11.6274
fghanistan	-11.6274
fortunate	-11.6274
hebreyesus	-11.6274
hexidine	-11.6274
hlegm	-11.6274
ithub	-11.6274
ligence	-11.6274
pathy	-11.6274
proifein	-11.6274
ransparency	-11.6274
rizon	-11.6274
sopropanol	-11.6274
thocoronavirinae	-11.6274
uangdong	-11.6274
uriz	-11.6274
ymphopenia	-11.6274
▁Australia	-11.6274
▁Bangladesh	-11.6274
▁Belgium	-11.6274
▁Bluetooth	-11.6274
▁Build	-11.6274
▁Castlerea	-11.6274
▁Cavan	-11.6274
▁Cigarette	-11.6274
▁Cleanliness	-11.6274
▁College	-11.6274
▁Ebola	-11.6274
▁Expl	-11.6274
▁Funeral	-11.6274
▁Gaillimh	-11.6274
▁Hubei	-11.6274
▁Identify	-11.6274
▁Infectivity	-11.6274
▁Lockdown	-11.6274
▁Pandemic	-11.6274
▁Pangolin	-11.6274
▁Transport	-11.6274
▁Waterford	-11.6274
▁Westmeath	-11.6274
▁Wicklow	-11.6274
▁advoca	-11.6274
▁aerobic	-11.6274
▁aggressive	-11.6274
▁amazon	-11.6274
▁analyzed	-11.6274
▁auckland	-11.6274
▁await	-11.6274
▁belgium	-11.6274
▁breakfast	-11.6274
▁calculator	-11.6274
▁cavan	-11.6274
▁cereals	-11.6274
▁childbirth	-11.6274
▁clarity	-11.6274
▁climb	-11.6274
▁colombia	-11.6274
▁columbia	-11.6274
▁complain	-11.6274
▁conferencing	-11.6274
▁conflict	-11.6274
▁congestion	-11.6274
▁conjunctivitis	-11.6274
▁constitution	-11.6274
▁coreceptor	-11.6274
▁curtail	-11.6274
▁cytoplasm	-11.6274
▁damaging	-11.6274
▁dancing	-11.6274
▁declining	-11.6274
▁denominator	-11.6274
▁departure	-11.6274
▁discomfort	-11.6274
▁disneyland	-11.6274
▁diversity	-11.6274
▁dubai	-11.6274
▁error	-11.6274
▁ethiopia	-11.6274
▁eustatius	-11.6274
▁exhaust	-11.6274
▁expedit	-11.6274
▁expense	-11.6274
▁expensive	-11.6274
▁explanation	-11.6274
▁exponential	-11.6274
▁faeces	-11.6274
▁favor	-11.6274
▁fontana	-11.6274
▁francisco	-11.6274
▁gangelt	-11.6274
▁genotypes	-11.6274
▁gratitude	-11.6274
▁guardian	-11.6274
▁hierarch	-11.6274
▁humidity	-11.6274
▁imagine	-11.6274
▁incredibl	-11.6274
▁kolkata	-11.6274
▁labcorp	-11.6274
▁logistic	-11.6274
▁loop	-11.6274
▁loudly	-11.6274
▁louis	-11.6274
▁luxembourg	-11.6274
▁macbeth	-11.6274
▁macedonia	-11.6274
▁macrophage	-11.6274
▁malaria	-11.6274
▁malawi	-11.6274
▁meerjady	-11.6274
▁miscarriage	-11.6274
▁modification	-11.6274
▁modify	-11.6274
▁moldova	-11.6274
▁osteonecrosis	-11.6274
▁outweigh	-11.6274
▁palestine	-11.6274
▁parallel	-11.6274
▁parallelizab	-11.6274
▁peninsula	-11.6274
▁peroxide	-11.6274
▁perspective	-11.6274
▁piercing	-11.6274
▁plaque	-11.6274
▁plasticitis	-11.6274
▁plausibl	-11.6274
▁pneumocytes	-11.6274
▁politico	-11.6274
▁portfolio	-11.6274
▁portlaoise	-11.6274
▁powder	-11.6274
▁pregnancies	-11.6274
▁prematurely	-11.6274
▁prudent	-11.6274
▁qatar	-11.6274
▁recruit	-11.6274
▁recycl	-11.6274
▁relationship	-11.6274
▁resembl	-11.6274
▁sacrifice	-11.6274
▁substantive	-11.6274
▁subunit	-11.6274
▁sugar	-11.6274
▁surpris	-11.6274
▁susceptibility	-11.6274
▁swollen	-11.6274
▁temperat	-11.6274
▁tournament	-11.6274
▁turkmenistan	-11.6274
▁venezuela	-11.6274
▁vesicles	-11.6274
▁victim	-11.6274
▁village	-11.6274
▁vitamin	-11.6274
▁vulnerability	-11.6274
▁wenliang	-11.6274
▁yield	-11.6274
▁Together	-11.6274
▁airplane	-11.6274
▁bilaterally	-11.6274
▁colonies	-11.6274
▁faith	-11.6274
▁gestation	-11.6274
▁ithaca	-11.6274
▁macau	-11.6274
▁reagent	-11.6274
▁serbia	-11.6274
deserving	-11.6274
ntify	-11.6274
scape	-11.6274
▁5,143	-11.6274
▁Enrol	-11.6274
▁Polio	-11.6274
▁Toilet	-11.6274
▁bowl	-11.6274
▁cerebr	-11.6274
▁chemist	-11.6274
▁clarification	-11.6274
▁convention	-11.6274
▁diverse	-11.6274
▁endemic	-11.6274
▁epitheli	-11.6274
▁motif	-11.6274
▁princip	-11.6274
▁rigor	-11.6274
▁thromb	-11.6274
▁transparent	-11.6274
pstick	-11.6274
▁Galway	-11.6274
▁discont	-11.6274
▁neighbo	-11.6274
▁sudan	-11.6274
pocket	-11.6274
religions	-11.6274
▁Dress	-11.6274
▁bleach	-11.6274
▁copper	-11.6274
▁delhi	-11.6274
▁escalate	-11.6274
▁ghana	-11.6274
▁horri	-11.6274
▁platelet	-11.6274
▁retain	-11.6274
▁split	-11.6274
▁valid	-11.6274
▁videoconferenc	-11.6274
▁Option	-11.6274
▁panama	-11.6274
▁sweet	-11.6274
.1.1.7	-11.6274
covzx	-11.6274
▁Deadly	-11.6274
▁kicked	-11.6274
▁profess	-11.6274
▁stamp	-11.6274
▁tumor	-11.6274
▁lough	-11.6274
▁psychiatri	-11.6274
▁smart	-11.6274
solved	-11.6274
▁pretend	-11.6274
▁zero	-11.6274
▁Enter	-11.6274
▁refund	-11.6274
▁residu	-11.6274
▁socio	-11.6274
▁strap	-11.6274
-2020	-11.6274
abbit	-11.6274
constrain	-11.6274
▁damp	-11.6274
▁impair	-11.6274
▁ribosome	-11.6274
▁female	-11.6274
coagul	-11.6274
▁Laois	-11.6274
▁element	-11.6274
▁undercounting	-11.6274
▁organizer	-11.6274
▁30-65	-11.6274
▁Mayo	-11.6274
▁contingenc	-11.6274
ecember	-11.6274
▁brows	-11.6274
▁fibr	-11.6274
37.6%)	-11.6274
onomy	-11.6274
uant	-11.6274
▁Specimen	-11.6274
▁girl	-11.6274
▁simon	-11.6274
▁Offaly	-11.6274
iedcr	-11.6274
▁channel	-11.6274
▁tobago	-11.6274
▁iceland	-11.6274
▁tourism	-11.6274
▁withdraw	-11.6274
segment	-11.6274
▁belief	-11.6275
guay	-11.6275
▁honest	-11.6275
ordan	-11.6275
▁corps	-11.6275
▁anchor	-11.6275
▁Examin	-11.6275
▁castil	-11.6275
▁feces	-11.6275
▁satisfact	-11.6275
▁Amid	-11.6275
▁0.3	-11.6275
▁assay	-11.6275
▁premises	-11.6275
▁investment	-11.6275
▁analog	-11.6275
▁Iob	-11.6275
▁ribbon	-11.6275
▁221,64	-11.6275
▁matter	-11.6275
bilize	-11.6275
sserts	-11.6275
▁Step	-11.6275
hydrogen	-11.6275
eligi	-11.6275
▁exchange	-11.6275
▁distin	-11.6275
▁inaction	-11.6275
▁dizziness	-11.6275
▁cakes	-11.6275
▁spatial	-11.6275
yndrom	-11.6275
▁compensat	-11.6275
7,55	-11.6275
▁polio	-11.6275
▁outlet	-11.6275
▁communicate	-11.6275
entist	-11.6275
▁bonaire	-11.6275
▁behavior	-11.6275
▁Upload	-11.6275
▁8665	-11.6275
nphet	-11.6275
attenuat	-11.6275
▁pollutants	-11.6275
▁utc	-11.6275
▁107,9	-11.6275
▁Contagious	-11.6275
vax	-11.6275
graph	-11.6275
▁excuse	-11.6275
shape	-11.6275
xtreme	-11.6275
jud	-11.6275
simulation	-11.6275
▁imprisonment	-11.6275
ilateral	-11.6276
emia	-11.6276
▁necessities	-11.6276
▁Religio	-11.6276
▁traders	-11.6276
tunis	-11.6276
▁Ros	-11.6276
▁visual	-11.6276
lobul	-11.6276
npis	-11.6276
abiding	-11.6276
▁Time	-11.6276
▁intubation	-11.6276
prima	-11.6276
▁2,97	-11.6276
2,16	-11.6276
6,54	-11.6276
aregiver	-11.6276
uard	-11.6277
▁toxicit	-11.6277
▁dense	-11.6277
▁covax	-11.6277
mbled	-11.6277
▁comparative	-11.6277
tamine	-11.6277
▁fauci	-11.6277
▁tnf	-11.6277
▁objective	-11.6277
ndoor	-11.6277
▁push	-11.6277
usett	-11.6277
▁philip	-11.6277
▁Delet	-11.6277
▁deadlie	-11.6277
▁barrel	-11.6277
▁1,037	-11.6277
▁mongolia	-11.6277
▁accidentally	-11.6277
▁harmful	-11.6278
▁Commerc	-11.6278
commu	-11.6278
9,43	-11.6278
zz	-11.6278
3,89	-11.6278
ody	-11.6278
▁chro	-11.6278
▁226,	-11.6278
▁Droplet	-11.6278
▁246,	-11.6278
▁crying	-11.6278
▁curation	-11.6278
▁Clu	-11.6278
▁quantities	-11.6278
▁boli	-11.6278
240,19	-11.6278
▁correlat	-11.6279
8.3	-11.6279
epsis	-11.6279
▁thermo	-11.6279
▁Compute	-11.6279
▁amplifi	-11.6279
▁rico	-11.6279
▁bengal	-11.6279
▁argu	-11.6279
▁Flight	-11.6279
,541	-11.6279
▁decrypt	-11.6279
bmi	-11.6279
▁253,	-11.6279
▁flag	-11.6279
revers	-11.6279
fringe	-11.6279
▁descriptive	-11.628
articula	-11.628
▁223,	-11.628
isease	-11.628
▁catheter	-11.628
rmu	-11.628
▁tax	-11.628
▁267,	-11.628
corv	-11.628
▁disinformation	-11.628
▁partisan	-11.628
tration	-11.6281
oscopy	-11.6281
▁1.44%	-11.6281
▁accumulation	-11.6281
▁charit	-11.6281
▁crispr	-11.6281
▁tension	-11.6281
▁lips	-11.6281
9,5	-11.6281
▁2,70	-11.6282
▁instant	-11.6282
▁ceo	-11.6282
▁220,	-11.6282
▁uncommon	-11.6282
essive	-11.6282
▁7,8	-11.6283
▁shaking	-11.6283
▁finish	-11.6283
▁contractors	-11.6283
▁15,8	-11.6283
▁Businesses	-11.6283
ulty	-11.6284
▁Ventilator	-11.6284
▁aggregator	-11.6284
▁gael	-11.6284
▁underestimation	-11.6285
71%)	-11.6285
▁Epidemiologist	-11.6285
▁obligation	-11.6286
▁dara	-11.6286
9,83	-11.6286
▁seattle	-11.6286
▁Speci	-11.6286
▁decentraliz	-11.6287
▁offend	-11.6287
▁iata	-11.6287
▁pheno	-11.6287
▁zim	-11.6287
▁richard	-11.6287
gev	-11.6287
▁1,5	-11.6287
▁Law	-11.6288
▁resign	-11.6288
▁mala	-11.6288
▁bigge	-11.6288
▁blow	-11.6289
▁248,	-11.6289
▁purs	-11.6289
▁Updat	-11.6289
nformation	-11.629
▁Coles	-11.629
▁impose	-11.629
▁internal	-11.629
▁judge	-11.6291
▁Hig	-11.6291
▁sadness	-11.6291
▁rotte	-11.6292
▁sympathy	-11.6292
▁emergent	-11.6293
39,7	-11.6293
crp	-11.6294
▁strat	-11.6294
▁marginali	-11.6294
▁atti	-11.6294
▁chronological	-11.6294
▁2.0	-11.6295
▁225,	-11.6295
▁industries	-11.6295
arma	-11.6295
▁2017	-11.6295
▁overnight	-11.6295
7,4	-11.6295
▁1.0	-11.6296
▁2,39	-11.6296
▁peni	-11.6296
▁Simul	-11.6296
▁centur	-11.6297
▁1.1	-11.6297
trict	-11.6297
▁idea	-11.6298
3,532	-11.6298
▁Whole	-11.6298
814	-11.6298
▁Special	-11.6299
2,692	-11.6299
▁scotti	-11.6299
▁2.2	-11.63
teria	-11.6302
▁44%	-11.6302
proc	-11.6302
ibo	-11.6303
otal	-11.6303
▁anxi	-11.6304
ambi	-11.6305
▁consulta	-11.6305
▁cath	-11.6305
▁Letter	-11.6306
▁Alter	-11.6306
▁brain	-11.6308
orld	-11.6308
gni	-11.6309
▁1960	-11.6309
▁undertak	-11.6309
stuck	-11.631
▁Herein	-11.631
▁anatomical	-11.631
trate	-11.6311
▁mcc	-11.6311
xen	-11.6312
ymptomatic	-11.6312
▁weekend	-11.6312
disproportionate	-11.6313
▁mul	-11.6313
▁rare	-11.6313
▁Prote	-11.6314
▁remit	-11.6314
▁meath	-11.6315
▁Clo	-11.6315
▁bill	-11.6315
▁White	-11.6317
▁newsom	-11.6318
▁cow	-11.6319
▁shelf	-11.632
▁473	-11.632
grave	-11.6321
▁divergent	-11.6321
▁microscope	-11.6321
▁empty	-11.6323
▁4,600	-11.6323
▁-44	-11.6324
imer	-11.6324
lood	-11.6326
ecide	-11.6326
▁rice	-11.6327
coon	-11.6327
▁senator	-11.6327
▁lun	-11.6327
▁invo	-11.6328
▁sort	-11.6328
▁eff	-11.6332
isplaced	-11.6333
aki	-11.6333
▁quar	-11.6334
▁Clar	-11.6335
ishment	-11.6336
▁exer	-11.6339
▁proba	-11.6341
4,27	-11.6342
▁Except	-11.6342
▁1950	-11.6342
▁fide	-11.6343
▁Eu	-11.6344
usions	-11.6348
▁invit	-11.6351
▁exemp	-11.6352
▁stu	-11.6352
▁xin	-11.6352
ggage	-11.6353
tigma	-11.6353
▁height	-11.6354
▁intense	-11.6354
▁propagate	-11.6355
employment	-11.6357
▁ultimately	-11.6358
aria	-11.6358
▁spot	-11.6358
yms	-11.6359
rdy	-11.6363
▁imper	-11.6364
rdrp	-11.6366
▁ideal	-11.6367
▁2013	-11.6367
fort	-11.637
▁374	-11.637
▁Pay	-11.6372
▁angle	-11.6372
rote	-11.6375
▁intentional	-11.6376
▁Leak	-11.6378
ument	-11.6379
▁joseph	-11.6381
▁suicide	-11.6383
▁cord	-11.6385
▁Incubation	-11.6386
H	-12.6131
C	-12.6132
’	-13.4157
V	-13.4158
U	-13.4159
G	-13.416
–	-13.4161
N	-13.4162
L	-13.4163
/	-13.4164
E	-13.4165
R	-13.4166
F	-13.4167
B	-13.4168
M	-13.4169
P	-13.417
D	-13.4171
Y	-13.4172
W	-13.4173
O	-13.4174
S	-13.4175
(	-13.4176
T	-13.4177
