<pad>	0
</s>	0
<unk>	0
.	-3.06948
ا	-3.86922
▁ال	-3.87031
▁	-3.88284
ى	-3.90671
ه	-4.14127
▁في	-4.15987
ي	-4.19286
▁من	-4.25112
ك	-4.44806
وا	-4.44869
ت	-4.46745
ة	-4.54898
▁و	-4.57358
ن	-4.6148
ّ	-4.6315
ون	-4.72504
▁الرب	-4.85595
▁ي	-4.90947
م	-4.93387
▁ان	-4.96985
هم	-5.12758
▁عل	-5.14245
▁ت	-5.14479
▁لا	-5.17229
▁الذي	-5.20959
▁كل	-5.25163
ين	-5.26266
ها	-5.29469
ر	-5.35002
▁ا	-5.35147
ب	-5.37922
▁ف	-5.44665
نا	-5.50665
▁ب	-5.57946
س	-5.59392
▁وال	-5.61188
▁م	-5.62506
كم	-5.6533
▁وا	-5.72629
▁وي	-5.73541
▁اسرائيل	-5.75019
ل	-5.75216
▁قد	-5.75456
▁ل	-5.76189
ع	-5.77852
ق	-5.81431
ح	-5.83451
ف	-5.85875
ش	-5.85903
▁لي	-5.86239
د	-5.8739
▁الله	-5.88845
▁ولا	-5.90177
▁لان	-5.96082
ان	-5.97793
▁.	-5.97894
▁هذا	-6.01373
▁لم	-6.05607
▁الارض	-6.07494
▁التي	-6.08351
ص	-6.08505
ما	-6.09908
ني	-6.11184
▁له	-6.12478
ض	-6.12704
▁يا	-6.12953
▁ن	-6.14136
غ	-6.14261
▁هو	-6.14433
خ	-6.14514
▁عن	-6.15069
▁لل	-6.17024
▁وت	-6.19413
▁فقال	-6.20143
▁ما	-6.21255
ث	-6.23894
ج	-6.24969
ز	-6.26106
▁الم	-6.27182
▁ايضا	-6.27358
و	-6.27912
اء	-6.28501
▁كان	-6.28861
ار	-6.28963
▁بيت	-6.28993
▁بن	-6.29559
ط	-6.34601
▁الملك	-6.34925
▁بال	-6.34967
▁مع	-6.36388
▁جميع	-6.40054
▁فا	-6.4038
▁ملك	-6.42899
▁وقال	-6.45903
▁انا	-6.46618
ته	-6.46702
▁لانه	-6.46728
▁قال	-6.48626
▁ك	-6.50735
▁بني	-6.51523
▁بل	-6.54512
▁وكان	-6.56063
▁ثم	-6.57191
ات	-6.57605
▁عند	-6.60675
▁ع	-6.6428
▁اليوم	-6.66827
▁ارض	-6.6709
▁هكذا	-6.68951
▁او	-6.7018
▁به	-6.71653
▁داود	-6.71762
▁لهم	-6.7253
▁الشعب	-6.73046
▁ومن	-6.7365
▁وكل	-6.74297
ور	-6.74486
▁كما	-6.75016
▁يسوع	-6.75665
▁امام	-6.75815
ال	-6.77099
▁هذه	-6.77426
▁قائلا	-6.79362
ئ	-6.7962
▁بعد	-6.82069
▁حت	-6.82662
▁واحد	-6.83277
▁ابن	-6.83294
ام	-6.83536
ية	-6.84017
▁انت	-6.84632
أ	-6.84976
▁رب	-6.85002
وه	-6.85242
▁ذلك	-6.85608
▁يكون	-6.86812
تم	-6.8744
▁وفي	-6.88915
ذ	-6.8893
▁يهوذا	-6.89165
▁واما	-6.89585
▁أ	-6.90309
▁وم	-6.91655
▁ولكن	-6.91762
▁ولم	-6.92478
▁موسى	-6.93723
▁اورشليم	-6.93861
ير	-6.94804
▁هناك	-6.95215
▁بنو	-6.95942
▁فت	-6.99135
ول	-6.99292
تك	-6.99305
▁وب	-6.99894
▁يقول	-7.00697
▁ج	-7.01399
▁حسب	-7.01553
▁ليس	-7.01672
يا	-7.01813
اد	-7.02675
▁وان	-7.03709
▁هي	-7.05291
يم	-7.05656
▁فان	-7.06292
▁لكي	-7.07079
▁انه	-7.07964
▁لكم	-7.08647
▁ايام	-7.08735
▁الا	-7.08752
▁لك	-7.0935
وب	-7.10444
▁ام	-7.10505
دي	-7.11325
را	-7.12722
▁مصر	-7.12838
تي	-7.13924
▁عليه	-7.1452
قي	-7.15548
عد	-7.17962
▁بين	-7.1848
▁الع	-7.19283
با	-7.20606
اف	-7.21294
▁رجل	-7.21432
▁خ	-7.21432
اب	-7.22905
▁اجل	-7.2295
▁اذا	-7.23894
ود	-7.24114
▁اذ	-7.24473
▁احد	-7.24836
بي	-7.24873
بر	-7.25436
▁ش	-7.25557
يل	-7.26231
يد	-7.26515
▁المدينة	-7.26903
▁ول	-7.27603
▁وعل	-7.28575
▁يد	-7.31822
حم	-7.32864
▁المسيح	-7.33383
▁يوم	-7.33718
▁للرب	-7.34143
قر	-7.34459
جر	-7.35839
▁كلام	-7.37126
تهم	-7.38117
هوذا	-7.3959
▁مثل	-7.40772
مر	-7.40878
دم	-7.40951
لا	-7.41001
▁مئة	-7.41208
▁فلا	-7.42189
ظ	-7.42191
اس	-7.42962
ري	-7.44444
▁السماء	-7.45025
▁اما	-7.45083
▁ولما	-7.45588
رج	-7.45763
جل	-7.46648
▁لت	-7.46903
▁با	-7.47339
▁وع	-7.4742
هما	-7.47578
▁وح	-7.48304
وم	-7.48465
قل	-7.49877
▁اني	-7.50058
فر	-7.50098
▁عمل	-7.50154
صر	-7.50393
▁اله	-7.50681
▁بها	-7.50749
عمل	-7.5086
▁ابي	-7.51188
▁والم	-7.52878
▁الامم	-7.53336
▁كال	-7.53654
▁الانسان	-7.53987
عل	-7.5426
وس	-7.54314
كل	-7.55051
تها	-7.55618
وف	-7.55625
▁معه	-7.56136
رب	-7.56146
▁وهو	-7.5635
▁الآن	-7.56438
▁انتم	-7.56948
▁لاجل	-7.57109
▁سنة	-7.57316
▁وسط	-7.57456
▁عشر	-7.57702
رف	-7.57967
▁انسان	-7.58211
▁تكون	-7.58276
ذا	-7.58533
▁ز	-7.58624
ؤ	-7.59382
▁اليه	-7.59481
▁الف	-7.60816
قب	-7.60851
▁شاول	-7.61288
▁واذا	-7.61593
فت	-7.62199
▁وك	-7.62537
▁الكاهن	-7.62572
▁الس	-7.62596
▁البيت	-7.63697
▁تحت	-7.63769
▁فلما	-7.63968
وق	-7.64287
▁جاء	-7.64407
خر	-7.64441
▁حين	-7.64676
وع	-7.6509
▁بر	-7.65471
▁قبل	-7.66623
حر	-7.67045
▁ايه	-7.67049
▁الشر	-7.6785
اح	-7.6861
▁لذلك	-7.68832
▁امر	-7.68945
صي	-7.69092
وت	-7.69162
له	-7.69206
▁قائلين	-7.69368
▁هم	-7.7003
اع	-7.706
▁جدا	-7.70684
▁صوت	-7.71093
▁هل	-7.71224
رك	-7.71917
ست	-7.72098
▁يعقوب	-7.72222
▁الرجل	-7.72271
▁الهك	-7.72308
بت	-7.7326
يق	-7.73951
صا	-7.73991
رد	-7.74193
بل	-7.74206
▁السيد	-7.74371
▁نحو	-7.74955
▁مر	-7.76024
يين	-7.76047
قا	-7.76133
رت	-7.76186
▁شر	-7.76192
▁فلم	-7.76796
▁هؤلاء	-7.76847
دا	-7.77156
سر	-7.77613
▁رأ	-7.77891
▁الق	-7.78503
▁كنت	-7.79037
حا	-7.79055
▁شيء	-7.79134
جا	-7.79159
▁ذهب	-7.79516
سم	-7.79758
رق	-7.79762
▁لانهم	-7.7992
▁البحر	-7.80084
▁الابد	-7.8057
خل	-7.81002
▁صار	-7.8265
قطع	-7.82742
وها	-7.83363
▁عليهم	-7.83522
▁وراء	-7.83584
▁تر	-7.83609
▁قدام	-7.83884
سا	-7.84781
عط	-7.84819
▁نفسه	-7.85028
▁غير	-7.85488
بع	-7.85495
▁س	-7.8555
▁رئيس	-7.85788
مل	-7.85842
▁طريق	-7.86115
قول	-7.86164
▁الكهنة	-7.86458
در	-7.8688
▁الناس	-7.86962
▁يت	-7.87376
صب	-7.87414
▁فيها	-7.87693
طر	-7.87736
ذبح	-7.88262
▁لماذا	-7.88275
اق	-7.88301
عا	-7.88362
▁وس	-7.88391
▁بابل	-7.88903
▁وقد	-7.8923
▁لها	-7.89351
▁عليك	-7.89875
▁ولد	-7.90067
▁الجنود	-7.906
لم	-7.90805
فرح	-7.90893
لت	-7.90903
▁فاجاب	-7.90993
▁وش	-7.91039
▁امرأة	-7.91482
طي	-7.91634
▁مت	-7.91971
شر	-7.92214
وي	-7.92721
قت	-7.92922
يت	-7.9341
▁لنا	-7.93962
▁الايام	-7.9416
▁كثيرة	-7.94942
▁اي	-7.94945
▁الح	-7.95143
عال	-7.95179
▁رجال	-7.9523
عة	-7.95416
▁يكن	-7.95507
▁ارسل	-7.95642
رح	-7.9567
قض	-7.95708
▁ويكون	-7.95764
▁جبل	-7.95842
▁كانوا	-7.96352
حد	-7.9637
▁ير	-7.96521
▁فيه	-7.9675
▁كانت	-7.96941
▁آخر	-7.97111
▁سليمان	-7.97436
▁وجميع	-7.97809
▁روح	-7.97834
مة	-7.97844
وح	-7.97871
▁سمع	-7.9801
نة	-7.98076
ضع	-7.98471
▁باب	-7.98689
زل	-7.98972
▁عنه	-7.99171
آ	-7.99352
لق	-7.99593
▁دم	-8.00109
▁وجه	-8.00602
▁السموات	-8.00846
▁لكن	-8.01094
▁وانا	-8.01183
▁راس	-8.01273
▁تلك	-8.0171
لي	-8.02144
كتب	-8.02187
▁نحن	-8.02207
سي	-8.02796
وك	-8.02806
▁حي	-8.03008
▁الحق	-8.03728
عت	-8.0419
▁آ	-8.04319
▁عيني	-8.04605
▁ار	-8.04803
اث	-8.04931
▁اسمه	-8.04941
▁مدن	-8.05388
▁فعل	-8.05748
▁ماذا	-8.05935
▁الج	-8.05988
▁رؤساء	-8.06391
▁است	-8.06602
▁واخذ	-8.06787
▁عشرة	-8.06897
▁اس	-8.07033
سكن	-8.07319
▁اع	-8.07362
▁مجد	-8.07391
▁قو	-8.0792
خت	-8.07932
▁حينئذ	-8.08394
▁تن	-8.08657
▁ابنه	-8.08899
رض	-8.08926
ئلا	-8.09065
▁يخ	-8.09138
بة	-8.09181
▁يده	-8.09195
وص	-8.09226
▁كلم	-8.09323
▁باسم	-8.09382
شرب	-8.09709
▁الروح	-8.10321
▁يس	-8.10693
اني	-8.10864
▁وأ	-8.10958
▁تكلم	-8.11142
دع	-8.11383
▁نفسي	-8.11383
▁فرعون	-8.11405
▁عليها	-8.12001
▁سي	-8.12057
▁اذهب	-8.12367
حل	-8.12392
وج	-8.1249
▁الي	-8.12851
دين	-8.13048
▁وبنو	-8.13308
▁لانك	-8.13397
▁مدينة	-8.1354
به	-8.13612
قتل	-8.1386
▁لن	-8.14025
▁اقول	-8.14252
صل	-8.14363
▁فوق	-8.14697
▁الكلام	-8.14719
ايا	-8.14927
رسل	-8.14964
▁البرية	-8.14985
فا	-8.15104
▁اليك	-8.15133
▁يدي	-8.152
مت	-8.15414
عي	-8.15452
▁حق	-8.15615
▁سب	-8.15851
ذب	-8.15945
عبد	-8.1598
▁وخ	-8.15987
رام	-8.16239
از	-8.16297
▁علي	-8.16672
هد	-8.16807
رة	-8.16961
▁هرون	-8.17181
▁اليهود	-8.17376
سمع	-8.17416
▁السنة	-8.17676
▁وليس	-8.17919
طلق	-8.18115
▁اسم	-8.18217
حفظ	-8.18346
▁هانذا	-8.18962
هر	-8.19139
▁حيث	-8.19655
خبر	-8.19734
▁يوسف	-8.19896
▁وانت	-8.20285
قة	-8.20599
▁الش	-8.20616
▁وق	-8.21054
قف	-8.21148
كسر	-8.21192
▁اخو	-8.21739
▁ابراهيم	-8.21772
▁د	-8.21819
▁المذبح	-8.22058
▁الفا	-8.22413
▁عظيم	-8.22446
▁الطريق	-8.22728
فل	-8.22987
ملك	-8.23326
▁اش	-8.23484
▁ها	-8.23597
▁خمس	-8.23605
▁اخي	-8.23628
جم	-8.23674
▁اعط	-8.23992
▁واحدة	-8.24139
ذهب	-8.24235
▁مس	-8.24242
جن	-8.24257
ذر	-8.24548
▁سبط	-8.24935
صد	-8.24996
موت	-8.25054
نظر	-8.25095
▁اكثر	-8.25103
▁بيد	-8.25301
بن	-8.25391
▁اخرج	-8.25518
وث	-8.25591
تين	-8.25775
▁لما	-8.26363
▁اثم	-8.2644
وهم	-8.26515
▁والذي	-8.26562
▁سبع	-8.26828
▁شعب	-8.27006
▁فكان	-8.2704
▁غضب	-8.27163
جي	-8.27402
شف	-8.2743
▁بم	-8.2758
تكم	-8.27634
▁الشعوب	-8.27642
▁سيدي	-8.27643
▁يع	-8.27652
لح	-8.27761
حكم	-8.27796
▁را	-8.28089
حمل	-8.281
▁يشوع	-8.28182
▁سر	-8.28334
▁بي	-8.28485
▁وعمل	-8.28965
▁مح	-8.29006
ورة	-8.29221
رو	-8.29297
▁ط	-8.29524
جمع	-8.30081
▁واعط	-8.30197
لة	-8.30321
خي	-8.30595
▁الشهر	-8.30759
▁فن	-8.30906
أكل	-8.30986
فعل	-8.31217
▁معك	-8.3151
قيم	-8.317
▁مكتوب	-8.31756
▁وخمس	-8.32214
لام	-8.32381
▁القدس	-8.3247
▁شيئا	-8.32811
▁الحقل	-8.32848
▁سبعة	-8.32923
▁والآن	-8.32944
▁صنع	-8.32988
▁دخل	-8.33092
▁بكل	-8.33151
▁خرج	-8.33198
▁ثلاثة	-8.33279
▁عبد	-8.33341
▁الهنا	-8.33378
عود	-8.33843
شب	-8.33854
▁شعبي	-8.33881
▁العالم	-8.34247
▁قتل	-8.34318
▁ولي	-8.34378
▁هنا	-8.34415
▁اخذ	-8.34723
▁كيف	-8.34794
▁جعل	-8.34895
▁لكل	-8.34981
▁سيد	-8.35231
طف	-8.35236
▁لحم	-8.35371
▁يخرج	-8.35554
فق	-8.35622
▁كلمة	-8.35662
حت	-8.35695
▁بيته	-8.35816
▁يعرف	-8.3611
ائم	-8.36149
▁بك	-8.36193
هلك	-8.36202
حيا	-8.36347
▁قر	-8.36553
▁بلا	-8.36588
▁فلي	-8.36618
قص	-8.37103
سلك	-8.37294
▁قلب	-8.37338
عظ	-8.37539
▁وجاء	-8.37725
▁يأتي	-8.37747
وش	-8.3779
▁الب	-8.37879
▁يعمل	-8.37881
▁وملك	-8.37934
▁وكلم	-8.37961
طا	-8.37998
▁لبني	-8.38027
▁عبيد	-8.38147
▁وجعل	-8.38239
حب	-8.38425
ظل	-8.38571
في	-8.38901
▁ثلاث	-8.38917
قط	-8.38962
▁كر	-8.39198
▁الاردن	-8.39395
▁ست	-8.39406
▁جهة	-8.39457
حارب	-8.39686
▁الموت	-8.39964
جد	-8.3997
▁ماء	-8.4037
▁خارج	-8.40371
دون	-8.40374
اص	-8.40484
رون	-8.40588
▁معي	-8.40668
▁متى	-8.40827
▁فضة	-8.41166
▁قلبه	-8.41311
كثر	-8.41361
▁وكانت	-8.41503
▁الواحد	-8.41724
بط	-8.4173
▁الاول	-8.41831
ذل	-8.4208
امة	-8.42235
▁الرجال	-8.42269
▁الفلسطينيين	-8.42362
▁عبر	-8.42412
▁يب	-8.42481
حز	-8.42484
▁واحدا	-8.42588
▁وبعد	-8.42622
▁سلام	-8.42743
▁المرأة	-8.42848
▁خيمة	-8.42854
تقدم	-8.4315
بني	-8.43355
▁رأيت	-8.43494
▁قا	-8.4355
وة	-8.43984
رس	-8.44004
إ	-8.44027
▁وذهب	-8.4411
▁الجميع	-8.44139
▁الباب	-8.44235
▁والا	-8.44411
▁النبي	-8.44698
▁جسد	-8.44717
لك	-8.44811
▁الهكم	-8.44842
▁اليكم	-8.45154
▁قلت	-8.45187
▁موآب	-8.45222
▁نصيب	-8.4523
▁حم	-8.45398
ظهر	-8.45647
▁يدخل	-8.45891
شبع	-8.4603
▁اب	-8.46066
فتح	-8.46233
▁فم	-8.46287
دعو	-8.46395
▁مقدس	-8.46579
▁الجبل	-8.46669
زم	-8.46761
سب	-8.46769
▁اعمال	-8.47423
▁منهم	-8.47425
جلس	-8.47689
▁انك	-8.47754
دفع	-8.47795
▁أت	-8.48093
▁البر	-8.48152
▁يعطي	-8.48513
نزع	-8.48519
▁افرايم	-8.48542
▁وضرب	-8.48575
▁عليكم	-8.48653
يئيل	-8.48851
▁آدم	-8.4899
▁ابيه	-8.49017
يس	-8.49223
▁فانه	-8.49256
ائر	-8.49306
صعد	-8.49533
▁ملوك	-8.4954
▁ذبيحة	-8.49596
▁سكان	-8.49676
▁رؤوس	-8.49832
▁الر	-8.49885
▁والب	-8.49958
هن	-8.50102
ائي	-8.50209
▁مكان	-8.50872
▁طرق	-8.50877
▁اكل	-8.50891
عز	-8.51008
▁وقالوا	-8.51024
▁يتكلم	-8.51516
آب	-8.5174
▁يفعل	-8.51744
▁منذ	-8.52111
▁اخ	-8.52164
أخذ	-8.52189
▁ابني	-8.52192
جوع	-8.52362
وني	-8.5254
▁صهيون	-8.52701
▁عد	-8.53097
▁لداود	-8.53352
▁حر	-8.53597
راس	-8.53855
▁تت	-8.5386
▁اين	-8.54251
▁يعلم	-8.54267
ريح	-8.54336
▁قدس	-8.5441
▁وقل	-8.54509
▁وارسل	-8.54554
ثر	-8.54638
▁وجد	-8.54644
▁ومع	-8.54715
لف	-8.54762
عون	-8.54843
▁حص	-8.55074
يع	-8.55241
حسن	-8.55426
▁ضرب	-8.55576
▁يسمع	-8.55593
▁الاجتماع	-8.55991
حسب	-8.5634
▁يدك	-8.56393
▁عبدك	-8.56413
▁يقتل	-8.56488
أت	-8.56668
▁ولل	-8.56747
صنع	-8.56912
▁تح	-8.56989
تكلم	-8.57359
▁الشمس	-8.57413
▁كذلك	-8.57451
▁فاخذ	-8.57614
▁فارسل	-8.57808
يرة	-8.57844
لبس	-8.5789
▁بطرس	-8.58022
▁المياه	-8.58039
▁والع	-8.58302
صف	-8.58354
▁اربع	-8.58415
▁بنت	-8.58621
▁الآب	-8.58661
▁بعض	-8.58665
رث	-8.58686
▁بولس	-8.5871
▁وقت	-8.58762
▁فخرج	-8.59224
موا	-8.59325
▁قول	-8.59392
▁معا	-8.59428
دد	-8.59508
ائه	-8.59657
▁اهل	-8.5976
غني	-8.5983
▁وف	-8.59944
خو	-8.6007
بون	-8.60278
ضرب	-8.606
▁بع	-8.60637
دوا	-8.60833
مون	-8.60915
▁صعد	-8.61052
▁فمن	-8.61084
قوم	-8.61107
▁الصد	-8.612
▁عم	-8.6139
▁فل	-8.61446
▁الشرير	-8.61559
سأل	-8.6162
▁كن	-8.61671
فض	-8.61765
▁اشور	-8.61877
▁تعمل	-8.61935
▁وما	-8.62103
▁عظيمة	-8.62355
▁للم	-8.62459
▁تم	-8.62564
▁خطية	-8.62695
قد	-8.62806
▁وابن	-8.62977
دة	-8.63292
▁كثيرا	-8.63517
▁الاخوة	-8.63646
أتي	-8.63724
قوا	-8.63898
صو	-8.63918
▁رجلا	-8.63935
▁قلبك	-8.63961
هرب	-8.64028
▁الناموس	-8.64241
▁فجاء	-8.64367
بس	-8.64553
شهد	-8.64571
▁وضع	-8.64631
▁بهذا	-8.64743
ء	-8.64833
▁أم	-8.65001
تني	-8.6504
▁يأكل	-8.65431
▁رم	-8.65583
▁المن	-8.65606
▁اصعد	-8.65697
▁قم	-8.65755
▁نعمة	-8.65833
ارة	-8.65864
ئيل	-8.66072
فهم	-8.66219
▁عر	-8.66293
▁ووضع	-8.66351
خيل	-8.66406
▁قوم	-8.66555
▁الهي	-8.66571
▁السيف	-8.66589
▁بيوت	-8.66664
اط	-8.66794
▁النار	-8.67029
▁الثالث	-8.6731
▁اخطأ	-8.67311
▁بنيامين	-8.67316
▁أليس	-8.67347
غش	-8.67562
▁وهي	-8.67852
▁الاشرار	-8.68063
▁ونزل	-8.68122
▁الفضة	-8.68147
▁اعين	-8.68396
وز	-8.68401
▁علينا	-8.68628
▁والس	-8.68887
▁سا	-8.69117
▁فس	-8.69135
لو	-8.69158
▁واذ	-8.69189
▁جانب	-8.69599
▁قريب	-8.69625
▁وخرج	-8.69927
▁وام	-8.70018
▁نفس	-8.70059
ارا	-8.70153
وط	-8.70262
▁عهد	-8.70283
صرخ	-8.70287
▁بنات	-8.70329
سجد	-8.70361
دن	-8.70453
▁الجبال	-8.70459
عب	-8.70522
غضب	-8.70691
▁أمر	-8.70864
▁لانكم	-8.70944
ملأ	-8.70969
▁أل	-8.71087
▁ارميا	-8.71133
▁وصايا	-8.71137
▁المت	-8.71431
▁تابوت	-8.71479
▁يموت	-8.71581
▁خير	-8.71626
تعل	-8.71681
▁الشمال	-8.71912
▁السابع	-8.71925
▁الجسد	-8.71948
▁وجهه	-8.71951
▁رجع	-8.72013
ركب	-8.72125
غي	-8.7218
▁لست	-8.72282
▁لد	-8.72284
▁فرح	-8.72364
▁ابنا	-8.72501
▁فب	-8.72532
▁صل	-8.72655
▁افعل	-8.72693
▁كرسي	-8.72756
سد	-8.72802
عوا	-8.72992
▁يش	-8.73069
مالك	-8.73079
تنا	-8.73084
▁يقدر	-8.73181
▁قام	-8.73417
▁ملاك	-8.73509
جز	-8.73546
▁سمعت	-8.73604
▁ليد	-8.73608
ضل	-8.7363
▁الثاني	-8.74032
▁خل	-8.74129
عام	-8.74278
▁خبز	-8.74369
▁مذبح	-8.74379
▁لو	-8.74398
▁فقالت	-8.74419
▁الحرب	-8.74461
▁يمين	-8.74565
▁واسم	-8.74598
▁يوآب	-8.74637
خرج	-8.74709
▁ارام	-8.74796
▁بكر	-8.749
▁قلبي	-8.7496
▁فهو	-8.7501
▁جلعاد	-8.75096
عبر	-8.75135
▁ارجع	-8.75142
▁فال	-8.75201
▁سفر	-8.75265
اتي	-8.75361
مجد	-8.75482
▁سن	-8.7552
▁اخت	-8.75838
بو	-8.75944
▁الدم	-8.75988
▁فقد	-8.76002
نت	-8.76012
▁معهم	-8.76066
▁ترك	-8.7626
▁ذكر	-8.76323
▁الامر	-8.76486
▁تقول	-8.7651
▁واقف	-8.76633
▁تع	-8.76999
▁المس	-8.77305
حو	-8.77464
▁الجماعة	-8.77556
▁الهيكل	-8.77624
▁عز	-8.77662
▁يصنع	-8.77664
الآن	-8.77823
▁يهو	-8.77888
تعب	-8.7807
▁اولاد	-8.78235
▁آلاف	-8.78391
▁اعطي	-8.78392
▁بسبب	-8.78395
▁يوجد	-8.78396
▁نفسك	-8.78571
ذكر	-8.78753
▁وبيت	-8.79292
باط	-8.79333
▁الموضع	-8.79347
نقذ	-8.79488
▁نار	-8.79507
بغض	-8.79598
▁وتكون	-8.79679
▁تعرف	-8.79693
▁رع	-8.79771
رفع	-8.79783
▁اولا	-8.79982
▁مات	-8.80201
▁بما	-8.8023
تان	-8.80326
▁واجعل	-8.80366
▁صموئيل	-8.80488
▁فقام	-8.8054
صير	-8.80602
دخل	-8.80856
▁راسه	-8.80921
▁الوقت	-8.8102
▁الكل	-8.81063
▁خبزا	-8.81093
▁سنين	-8.81534
بال	-8.81776
▁بالسيف	-8.81795
▁صالح	-8.81796
▁ادوم	-8.81806
▁النهر	-8.81843
قام	-8.81859
▁ابا	-8.81915
▁وبين	-8.81947
▁كثير	-8.82052
سقط	-8.82096
طلب	-8.82127
▁فأ	-8.82178
▁عوض	-8.82214
▁اخوته	-8.82401
▁الانبياء	-8.82663
▁آلهة	-8.82664
جيب	-8.82698
قدم	-8.8272
▁اسمع	-8.82852
ونها	-8.83288
دان	-8.83295
▁يست	-8.83324
▁المحل	-8.83409
▁ارت	-8.83417
▁اللاويين	-8.8354
▁السامرة	-8.8354
▁الساكن	-8.83543
عشيرة	-8.83607
▁تخم	-8.8366
ضطجع	-8.83911
شد	-8.83961
صرف	-8.84439
▁المكان	-8.84471
▁خذ	-8.8496
بوا	-8.85215
▁داخل	-8.85323
▁ابواب	-8.85409
▁ذراع	-8.85657
▁قدم	-8.85676
▁رد	-8.85746
عن	-8.8578
▁فعلت	-8.85796
قضاء	-8.8582
▁وادي	-8.85834
▁اليهم	-8.85951
▁فيكون	-8.86008
▁خلاص	-8.86097
▁خطايا	-8.86219
▁غنم	-8.86227
▁وسبع	-8.86316
▁ثمر	-8.86417
▁سيف	-8.8644
▁المدن	-8.86495
▁يجد	-8.86567
▁بعيد	-8.86636
▁واقام	-8.86645
▁بهم	-8.86865
تنبأ	-8.87193
▁معكم	-8.87204
▁تقدم	-8.87227
▁مياه	-8.87257
▁الذهب	-8.87396
غسل	-8.87417
▁شعبه	-8.87465
▁حزقيا	-8.8761
▁ملكوت	-8.87702
▁تأكل	-8.88201
هو	-8.88227
▁اخبر	-8.88261
▁بد	-8.88339
مثل	-8.88392
▁وهذه	-8.88488
كف	-8.88534
▁وصل	-8.88574
▁والق	-8.88716
▁وط	-8.88833
▁العظيم	-8.88839
▁حكم	-8.88966
صح	-8.88987
قسم	-8.89055
▁وسمع	-8.89314
▁تلاميذه	-8.89575
▁الخطية	-8.89613
فة	-8.8963
▁جر	-8.8978
▁انهم	-8.8987
▁تفعل	-8.90115
وجه	-8.90382
▁اجعل	-8.90394
▁اربعة	-8.9042
ائل	-8.90452
ؤمن	-8.90464
▁سار	-8.90575
▁سل	-8.90771
▁غل	-8.908
▁يوحنا	-8.90858
▁اخرى	-8.90901
▁عني	-8.90909
▁باطل	-8.9097
مثال	-8.91021
▁المساء	-8.91077
نحاس	-8.91163
▁ايل	-8.91417
▁بار	-8.9161
ريب	-8.91668
▁عينيك	-8.91757
تسلط	-8.91805
▁الجنوب	-8.91807
▁جيش	-8.91842
▁بالنار	-8.91852
▁فقط	-8.91878
▁وانتم	-8.919
▁عيون	-8.91984
▁وست	-8.92007
▁ودخل	-8.92013
▁طلب	-8.92245
▁للملك	-8.92267
▁آبائهم	-8.92312
▁وحده	-8.92441
▁مش	-8.92489
▁حول	-8.92678
▁الماء	-8.92741
▁الدهر	-8.9279
▁الحياة	-8.92827
▁ساكن	-8.92843
▁امه	-8.92898
حضر	-8.92912
▁اجاب	-8.93214
روا	-8.93285
▁عمون	-8.93303
وخ	-8.93315
▁كلها	-8.93377
حث	-8.93514
▁واخبر	-8.9354
▁لنفسه	-8.93734
ولا	-8.93748
▁مج	-8.93764
▁نجس	-8.93888
عر	-8.94016
خير	-8.94061
▁احت	-8.94086
▁سبي	-8.94129
▁وثلاث	-8.94175
▁صور	-8.94318
▁كف	-8.9444
▁عدد	-8.94491
▁اليها	-8.94539
حجارة	-8.94576
▁امامك	-8.94591
جاز	-8.94656
▁الايمان	-8.94718
▁الاثم	-8.94785
▁اعطيت	-8.94831
▁وعن	-8.94851
▁بقر	-8.94921
▁الليل	-8.95063
▁مد	-8.9507
▁ويل	-8.95118
▁جعلت	-8.95121
هكذا	-8.95683
▁لنفسك	-8.95705
▁المقدس	-8.95837
لون	-8.96067
زوج	-8.96171
▁فد	-8.96466
▁حو	-8.96626
بشر	-8.96672
▁احب	-8.96685
▁الصباح	-8.96708
▁اذن	-8.96738
▁قل	-8.96845
▁ابو	-8.96859
باب	-8.97052
▁عين	-8.97172
ره	-8.97243
▁بحسب	-8.97281
▁كثيرين	-8.97327
▁فقالوا	-8.97335
ده	-8.9736
▁وز	-8.97363
▁وصعد	-8.97393
يء	-8.97568
تاج	-8.97581
جت	-8.97597
▁تعب	-8.97644
▁مكانه	-8.97699
▁عبيده	-8.97744
قلب	-8.97781
▁ومات	-8.97921
▁كم	-8.98016
▁محب	-8.98026
▁ايدي	-8.98205
ذلك	-8.98421
هب	-8.98732
▁الحي	-8.98809
وقد	-8.98879
شجرة	-8.98908
سكر	-8.98959
▁نج	-8.99221
مسيح	-8.99292
▁والرب	-8.99506
▁ثيابه	-8.99608
لع	-8.99613
▁انفسهم	-8.99774
▁وهذا	-8.99848
▁اعلم	-9.00161
سحق	-9.00304
▁اقام	-9.00458
▁موت	-9.0061
▁مست	-9.00661
يلة	-9.0075
▁مقابل	-9.00808
▁واربع	-9.00856
▁يرجع	-9.00879
▁اجر	-9.00903
آل	-9.00999
▁بس	-9.01215
كثرة	-9.01429
بيت	-9.01578
▁وقتل	-9.0159
▁الاله	-9.01657
آنية	-9.0177
▁يطلب	-9.01837
قون	-9.01863
▁ووقف	-9.01895
حلف	-9.01912
▁شاقل	-9.01922
▁حياة	-9.01963
▁ثياب	-9.02023
▁نسل	-9.02061
▁اسمعوا	-9.02291
▁انكم	-9.02326
▁اسحق	-9.02386
اش	-9.02437
زرع	-9.02604
▁رفع	-9.02616
▁تصنع	-9.02819
▁انظر	-9.02866
▁ميراث	-9.02925
▁نعم	-9.02973
▁وهم	-9.03126
▁وبنات	-9.03185
▁تعلم	-9.0323
▁شعبك	-9.03296
طين	-9.03777
▁سلطان	-9.04002
▁كنعان	-9.04002
▁جب	-9.04096
▁عينيه	-9.04103
▁الغنم	-9.0411
اخذ	-9.0418
▁وابي	-9.04337
▁عظيما	-9.04403
▁ابشالوم	-9.04407
▁وسجد	-9.04474
▁ذراعا	-9.04749
بقية	-9.04787
أتوا	-9.04914
▁وولد	-9.05063
▁حجر	-9.05103
رش	-9.0521
▁المح	-9.05222
ولد	-9.05368
▁السبت	-9.05373
▁ودعا	-9.05435
▁حسن	-9.05445
▁أف	-9.05775
شاء	-9.06188
▁اذرع	-9.06202
▁منس	-9.06274
ليكن	-9.06278
جعل	-9.06545
▁تف	-9.06602
▁وأت	-9.06613
عرض	-9.06888
▁فذهب	-9.07185
▁عيسو	-9.07297
▁الخارج	-9.07297
▁مبارك	-9.07298
▁الرابع	-9.07308
▁قالوا	-9.07346
▁مسكن	-9.07383
عمود	-9.07406
ثور	-9.07417
▁يصعد	-9.07552
▁قليل	-9.07627
▁وعند	-9.07762
▁قطع	-9.07875
هلاك	-9.0817
▁عينا	-9.0829
▁جماعة	-9.08421
▁يربعام	-9.08421
▁النساء	-9.08421
▁سك	-9.08422
▁تكلمت	-9.08546
سير	-9.08642
▁نحاس	-9.08673
▁وعشرين	-9.08707
▁سقط	-9.09001
طو	-9.09017
زر	-9.09033
▁وصنع	-9.09041
ادة	-9.09123
▁بان	-9.09133
يتها	-9.09224
▁بالرب	-9.09317
▁فرائض	-9.09556
▁المحرقة	-9.09557
▁يوناثان	-9.09558
▁فقلت	-9.09599
▁سم	-9.09667
رئيس	-9.09753
▁اج	-9.0978
▁منها	-9.09871
▁يقوم	-9.09981
ائح	-9.10028
▁طول	-9.10138
▁المسكن	-9.10163
ونني	-9.10207
▁وغ	-9.10213
▁شرا	-9.10273
▁تل	-9.10318
▁اذكر	-9.10323
▁تخرج	-9.10435
▁حلف	-9.10728
▁ويقول	-9.10748
▁وهرون	-9.10775
▁ملكا	-9.10851
▁ايليا	-9.10862
▁الآخر	-9.11065
ناثان	-9.11256
▁فدخل	-9.11348
جيء	-9.11366
▁وسل	-9.11366
غير	-9.11414
▁يحب	-9.11474
▁كنتم	-9.11609
▁واست	-9.1187
▁واخوته	-9.11882
▁جن	-9.11944
▁نور	-9.12133
نجس	-9.12213
▁تسمع	-9.12258
▁لبيت	-9.12273
خلاص	-9.12292
▁واع	-9.12408
▁جالس	-9.1246
جتمع	-9.12467
▁فاذا	-9.12723
▁معل	-9.12831
▁محرقة	-9.13047
▁كثيرون	-9.13079
طير	-9.13114
▁آمن	-9.13116
▁ياكل	-9.13267
مسح	-9.13355
▁وعشرون	-9.13546
▁ظلم	-9.13616
▁العلي	-9.1368
▁نزل	-9.13821
▁تكن	-9.13873
▁تدخل	-9.13887
▁عمله	-9.13908
▁اسمك	-9.13908
▁شيوخ	-9.14237
▁وصار	-9.14376
متلك	-9.14452
▁وقف	-9.14549
▁لجميع	-9.15158
▁ايديهم	-9.15356
نطق	-9.15406
▁الاموات	-9.15447
▁فدعا	-9.15526
▁امامه	-9.15565
▁الدار	-9.15587
ثمر	-9.15669
▁عشائرهم	-9.15939
▁الشرق	-9.16215
▁للذي	-9.1623
▁حن	-9.16426
بنى	-9.16573
▁ذو	-9.16624
▁قربان	-9.16668
▁اسباط	-9.16711
▁زمان	-9.16764
▁اياه	-9.16768
▁القلب	-9.16801
فتخر	-9.17044
▁احكام	-9.17095
▁آتي	-9.17128
▁يذهب	-9.17361
▁ونس	-9.1744
طل	-9.17481
قع	-9.17632
حيوان	-9.17682
تموه	-9.17777
▁دائما	-9.17896
▁غر	-9.17906
▁ضيق	-9.17923
▁وحي	-9.17927
▁الكلمة	-9.17979
دل	-9.1798
▁يأخذ	-9.18126
جع	-9.1818
مشي	-9.18226
▁منكم	-9.18418
▁جاءوا	-9.18426
▁دفع	-9.18428
▁ولدت	-9.1855
حور	-9.18556
▁فتح	-9.18588
▁امور	-9.18929
▁الامور	-9.19132
▁ينبغي	-9.19144
▁والارض	-9.19252
▁الغد	-9.19333
▁يف	-9.19338
▁خشب	-9.19649
▁قوة	-9.19835
مسك	-9.19961
تقد	-9.20121
اربعين	-9.20139
خجل	-9.20334
▁بصوت	-9.20427
▁لموسى	-9.20436
وئيل	-9.20458
فكر	-9.20464
▁خمسة	-9.20513
▁عظم	-9.20514
للوقت	-9.20678
كيف	-9.20698
▁موضع	-9.20738
بصر	-9.20811
ثق	-9.21063
▁صو	-9.21142
▁ومت	-9.212
▁طوب	-9.21269
▁المر	-9.21291
▁صنعت	-9.21349
نتظر	-9.21403
▁اخآب	-9.21735
عيد	-9.21821
منظر	-9.21823
▁حب	-9.21945
▁حكمة	-9.21947
▁آسا	-9.21963
▁مل	-9.21976
▁قسم	-9.22082
▁نصف	-9.2216
هؤلاء	-9.22189
قدر	-9.22204
اصم	-9.22287
▁وعد	-9.22522
▁الجب	-9.2259
اؤه	-9.22769
▁امرأته	-9.22993
▁النهار	-9.23002
بتهج	-9.23184
▁محل	-9.23194
▁شا	-9.23211
صيد	-9.2349
معرفة	-9.23536
ايضا	-9.2377
▁واب	-9.23773
▁فصعد	-9.23918
▁وانظر	-9.23985
▁تأتي	-9.24124
▁حقل	-9.24228
شير	-9.24289
▁اعظم	-9.24317
▁ليست	-9.24342
▁ايمان	-9.24373
▁ورجع	-9.24387
▁فتكون	-9.2452
▁صاحبه	-9.24646
▁يقولون	-9.24761
قاتل	-9.24777
▁اوص	-9.24812
طيور	-9.24911
▁يحمل	-9.2506
▁امامي	-9.25226
▁وزن	-9.25232
▁اياها	-9.25356
▁شم	-9.25404
▁عار	-9.25447
▁ورؤساء	-9.2564
▁الهاوية	-9.25641
▁آمين	-9.25653
▁عنده	-9.25701
▁تقدمة	-9.25923
▁تعط	-9.26182
مح	-9.2621
▁مطر	-9.26217
▁يعل	-9.26245
▁آبائه	-9.26272
▁ادخل	-9.26456
▁يحفظ	-9.26535
ائك	-9.2678
اكر	-9.26874
ائيل	-9.26884
▁لهذا	-9.26899
▁صحيح	-9.26992
▁قدامه	-9.27001
▁ههنا	-9.27017
▁سلاه	-9.27045
دفن	-9.27053
▁حد	-9.2748
قال	-9.27538
▁واخرج	-9.27632
▁صف	-9.2783
▁فضرب	-9.27853
▁جاد	-9.28018
بطل	-9.28201
ملائكة	-9.28364
▁الملوك	-9.28371
▁لصوت	-9.28391
طلع	-9.28837
▁برية	-9.29065
كشف	-9.2915
▁اطلب	-9.29188
بسط	-9.29283
▁ورأ	-9.29448
نعم	-9.29681
▁وقلت	-9.29721
▁بجانب	-9.29751
▁الجليل	-9.29762
▁ابنة	-9.29805
▁كامل	-9.29813
زيد	-9.29949
▁خيرا	-9.30019
▁العهد	-9.30057
▁وجهك	-9.30256
▁وعبد	-9.30304
▁اجتمع	-9.30366
▁كرم	-9.30387
▁بقية	-9.30514
سخط	-9.30658
▁عبيدك	-9.30704
▁ابيك	-9.3076
▁معنا	-9.30915
▁شريعة	-9.31163
▁ثوب	-9.31197
▁جئت	-9.31203
▁يديه	-9.3123
تنجس	-9.31451
تشدد	-9.31528
يوس	-9.31599
▁كله	-9.31599
دور	-9.31628
▁اسمي	-9.31656
جاب	-9.31714
▁ليلا	-9.3193
▁دار	-9.31947
▁واصعد	-9.3201
▁دعا	-9.32064
حمد	-9.32092
▁بيده	-9.32096
▁وقو	-9.3247
▁رحم	-9.32485
▁وجهي	-9.32534
▁دانيال	-9.3259
تضرع	-9.32616
▁جميعا	-9.32621
▁يقبل	-9.32633
اؤك	-9.3265
▁قلوبهم	-9.32929
▁كنا	-9.32992
▁ويو	-9.33029
ذنب	-9.33127
▁اكون	-9.33189
▁هلم	-9.33281
▁يجعل	-9.33601
سبح	-9.33616
حكام	-9.33679
▁اصنع	-9.33691
شكر	-9.33776
▁فسمع	-9.3401
شتر	-9.34032
▁رأوبين	-9.34039
▁عظام	-9.34045
▁تخاف	-9.34049
▁ميخا	-9.34054
عجب	-9.34087
▁فصار	-9.34108
ريس	-9.34131
▁الجمع	-9.34151
▁اللذ	-9.34158
▁السجن	-9.34222
▁انها	-9.34516
▁مرض	-9.34525
▁جد	-9.34676
▁يرى	-9.34717
▁اثنا	-9.34767
وضع	-9.34889
قرية	-9.35038
▁صاحب	-9.35132
▁لاوي	-9.35154
▁يسكن	-9.35369
▁آباء	-9.35519
▁الحكمة	-9.35591
نحن	-9.35615
غيظ	-9.35662
▁جمع	-9.35747
▁الخير	-9.35832
▁وبال	-9.36153
▁بحر	-9.36215
▁تست	-9.36333
▁عاد	-9.36346
▁ربنا	-9.36398
امير	-9.36452
صلاة	-9.36529
▁لأ	-9.36536
عاقب	-9.36585
▁يبق	-9.36611
▁مما	-9.36629
▁نبي	-9.36771
▁نوح	-9.36861
▁يسقط	-9.36914
▁للشعب	-9.37001
▁الصالح	-9.37003
▁بعضا	-9.37086
تمرد	-9.37111
▁يسلم	-9.37157
▁الرؤساء	-9.37198
▁قلوبكم	-9.37212
▁العظيمة	-9.37221
▁ضد	-9.37318
ائد	-9.37327
▁سمعوا	-9.37342
صنا	-9.37516
أمر	-9.37552
▁ارد	-9.37579
▁الأمر	-9.37605
▁ابر	-9.37619
▁فمه	-9.37652
▁اضطجع	-9.37875
▁فأخذ	-9.3803
▁يوما	-9.38098
▁عهدا	-9.38105
▁يسمعوا	-9.38204
▁يدعو	-9.38221
▁ففعل	-9.38281
▁وجدت	-9.38381
▁قائلة	-9.38515
▁شعوب	-9.38517
▁المغنين	-9.3852
▁غريب	-9.38565
▁بعل	-9.38688
▁ونح	-9.38688
صوم	-9.3873
▁دان	-9.38755
▁امة	-9.38849
▁فاعط	-9.38891
▁تخف	-9.38946
راري	-9.38951
حاكم	-9.39014
يهود	-9.39094
▁هيكل	-9.39186
▁الابن	-9.39273
▁بينهم	-9.39377
▁بارك	-9.39382
▁ارسلني	-9.39525
▁وتكلم	-9.39592
▁تطلب	-9.39604
▁تز	-9.39604
▁حل	-9.39742
غرس	-9.39757
راعي	-9.39769
فرس	-9.39977
حائط	-9.40055
▁حامل	-9.40061
▁للحرب	-9.40063
▁فمات	-9.40079
▁هرب	-9.40085
▁حبرون	-9.40088
▁بئر	-9.40098
▁وجوه	-9.40106
ائب	-9.40161
▁جز	-9.40234
▁اعرف	-9.40276
▁عشرين	-9.40289
▁البقر	-9.40322
قدس	-9.40454
▁سكن	-9.40475
▁بكلام	-9.40502
▁يكلم	-9.40877
ساق	-9.40999
مئة	-9.41038
▁وات	-9.41154
ناداب	-9.41272
شار	-9.4128
▁اول	-9.4137
▁سأل	-9.41492
▁الكلدانيين	-9.41616
▁الساعة	-9.41629
▁تخوم	-9.41639
▁الزيت	-9.41642
▁لسان	-9.41803
▁نجسا	-9.41979
▁تنظر	-9.41988
▁الفلسطينيون	-9.42067
▁الاخ	-9.42072
▁فكلم	-9.42083
سكت	-9.42127
▁ليكون	-9.4213
▁بشر	-9.42135
▁خوف	-9.42163
مدخل	-9.4224
▁ينظر	-9.42486
▁مكر	-9.42495
▁حمل	-9.42869
▁نير	-9.43026
ائع	-9.43161
▁ذبائح	-9.43204
▁صغير	-9.43211
▁صباح	-9.43212
▁يثبت	-9.43213
ضايق	-9.43244
▁الكرم	-9.43277
آخذ	-9.43292
▁بيتك	-9.43313
▁وسار	-9.43323
▁وتصنع	-9.43723
▁عصا	-9.43882
▁ارفع	-9.44236
▁يقف	-9.44306
قرأ	-9.44695
قرض	-9.44737
▁جمهور	-9.44816
▁حكيم	-9.44817
▁صانع	-9.44818
▁النفس	-9.44819
▁القديسين	-9.44824
▁وحدث	-9.44829
▁تاكل	-9.44927
▁وقالت	-9.44959
▁وسي	-9.45056
▁رحمته	-9.45176
▁خرجت	-9.45219
▁يخطئ	-9.45263
▁لبنان	-9.45287
فسد	-9.45318
▁ويجعل	-9.45326
▁صرت	-9.45494
غرب	-9.45634
خبز	-9.45677
▁لهما	-9.45724
▁عرفت	-9.45803
▁يعط	-9.45805
▁عرف	-9.45876
▁حرب	-9.45997
▁سمعان	-9.46046
▁سو	-9.463
▁اتكلم	-9.46434
▁بالحق	-9.46439
▁الثلاثة	-9.46455
▁الخامس	-9.46455
▁خدمة	-9.46463
▁طاهر	-9.46463
▁فريض	-9.46464
▁ونصف	-9.46529
▁ابيمالك	-9.4657
ودي	-9.46625
▁ونظر	-9.46656
▁يضع	-9.46669
▁طريقه	-9.46769
▁تعلمون	-9.4678
▁الخبز	-9.4692
▁الآباء	-9.46921
ائهم	-9.46939
▁بعضهم	-9.47026
▁فاخبر	-9.47091
▁ارسلت	-9.4726
▁عملت	-9.47278
▁الاولى	-9.47307
▁مسح	-9.47424
لآخر	-9.47738
كلم	-9.47809
جرب	-9.47964
▁واس	-9.4797
وبة	-9.48028
شفي	-9.48047
▁الاراضي	-9.48122
▁السفينة	-9.48122
▁بجميع	-9.48122
▁اريحا	-9.48155
▁وبارك	-9.48168
حصاد	-9.48222
▁الفصح	-9.48229
نوح	-9.48337
علمون	-9.48361
▁النور	-9.48448
▁تدع	-9.48508
▁الريح	-9.48512
▁شهر	-9.48597
▁يهلك	-9.48831
▁يهوشافاط	-9.49014
▁وعبر	-9.49118
اثنان	-9.49186
▁السلام	-9.4919
شاي	-9.49226
▁ابد	-9.49436
▁المجد	-9.4978
▁نبوخذن	-9.49817
▁مزمور	-9.49818
▁المعدود	-9.49819
▁سريعا	-9.49821
دهن	-9.49821
▁شكيم	-9.49828
▁فرجع	-9.49849
▁الصخر	-9.49849
▁صخر	-9.4985
▁فماذا	-9.49876
اطفال	-9.49946
▁فنزل	-9.49958
خشب	-9.50035
▁بطن	-9.50048
▁ميت	-9.50127
خزي	-9.50224
▁اصل	-9.50448
▁وبر	-9.50464
بيع	-9.5049
▁كاس	-9.50504
▁السبي	-9.50789
▁غضبه	-9.50956
مطر	-9.51091
▁دور	-9.51131
▁تأخذ	-9.51448
▁اخيه	-9.51495
▁الملاك	-9.51532
▁المصريين	-9.51542
▁البهائم	-9.51545
▁دقيق	-9.51545
▁الشريعة	-9.51546
▁نساء	-9.51563
▁الضيق	-9.51573
حنطة	-9.51582
▁الجيش	-9.51583
لخدمة	-9.51588
داء	-9.516
▁ينزل	-9.51631
▁وشعب	-9.51661
▁ألعل	-9.51668
▁انظروا	-9.51751
▁اطلق	-9.51771
شعر	-9.51863
▁الصبي	-9.51925
▁سرور	-9.51976
▁خارجا	-9.52038
▁ظل	-9.52063
▁ورفع	-9.52075
▁ابصر	-9.52443
▁الههم	-9.52455
ميت	-9.52761
هتف	-9.52934
▁يؤمن	-9.52966
▁عندكم	-9.53008
▁يخبر	-9.53019
رتعد	-9.53196
▁التلاميذ	-9.53295
▁يستطيع	-9.53296
▁دمشق	-9.53299
▁اجمع	-9.53323
▁عابر	-9.53356
▁كاهن	-9.53368
طعم	-9.53397
▁فرأ	-9.53423
▁يصل	-9.53454
▁عامل	-9.53456
▁جلد	-9.53504
▁قبر	-9.53606
▁حج	-9.53723
▁عبدي	-9.53733
▁شبه	-9.53789
▁وعر	-9.53806
▁اثنين	-9.53877
▁قدوس	-9.53928
ثلث	-9.53966
▁زيت	-9.54002
▁علمت	-9.54003
▁سيده	-9.5402
رعى	-9.5414
▁لعل	-9.54169
▁حلم	-9.54234
▁معرفة	-9.54392
▁شعبا	-9.54459
▁وبنيه	-9.54671
▁ابوه	-9.54758
▁فمي	-9.54854
▁وبني	-9.55003
▁افكار	-9.55083
▁باشان	-9.5509
▁بسلام	-9.55133
▁شمعي	-9.55139
▁افضل	-9.55473
دوس	-9.55692
▁سلم	-9.557
شور	-9.55725
▁اناس	-9.55842
يات	-9.5604
▁وقام	-9.56091
▁الخمر	-9.56143
▁عشائر	-9.56151
▁حولي	-9.56338
ثقل	-9.5636
تراب	-9.56393
▁اراد	-9.56543
▁يرفع	-9.56798
الكتبة	-9.56899
▁لاسرائيل	-9.569
صادوق	-9.56902
▁الخيمة	-9.56903
▁المملكة	-9.56908
▁ستة	-9.56919
▁زرع	-9.5692
▁وامر	-9.5694
▁مستقيم	-9.56952
▁طعاما	-9.57052
▁ذاك	-9.571
▁حجارة	-9.57194
▁دعي	-9.57238
▁بينكم	-9.57302
لعنة	-9.57352
▁تذهب	-9.57366
▁ايوب	-9.57424
▁المعز	-9.57513
▁تموت	-9.57517
▁ثورا	-9.57615
ختار	-9.57677
▁ولو	-9.57686
▁وادخل	-9.57702
ذبيحة	-9.57708
▁ظهر	-9.57846
▁بكم	-9.57895
▁مرات	-9.58027
يفة	-9.58181
▁اسأل	-9.58233
▁صرخ	-9.58325
▁حسنا	-9.58355
▁بقي	-9.58689
▁اللاويون	-9.58751
▁صراخ	-9.58753
▁افواه	-9.58759
▁ورجال	-9.58766
▁نهارا	-9.58779
▁البكر	-9.58794
▁كبير	-9.58877
▁بالروح	-9.58884
▁فما	-9.58994
▁طرف	-9.59065
▁التراب	-9.59077
▁حمو	-9.59145
▁الجيل	-9.59176
▁مشور	-9.59231
خبار	-9.59448
▁الظلمة	-9.59472
لماذا	-9.59663
▁سور	-9.59736
تقي	-9.59751
▁وفر	-9.59766
▁ثور	-9.59766
وحوش	-9.59798
▁وسكن	-9.59867
▁السحاب	-9.59879
▁ابناء	-9.59896
▁تذكر	-9.60121
▁ناموس	-9.60351
▁قليلا	-9.60434
▁نارا	-9.60569
▁مسر	-9.60627
▁بيلاطس	-9.60638
▁فصاعدا	-9.60638
▁يوشيا	-9.60641
▁انفسكم	-9.60646
▁اليشع	-9.60646
▁خروج	-9.60679
▁تقولون	-9.60845
▁نقي	-9.61066
▁ياهو	-9.61255
▁المجمع	-9.61401
▁وسطهم	-9.61497
▁تقدر	-9.61638
▁السور	-9.61659
▁شد	-9.61727
▁وجلس	-9.61992
حاج	-9.62048
▁اباه	-9.62291
فرز	-9.62321
▁يشرب	-9.62411
▁ففي	-9.62437
▁طعام	-9.62472
▁مردخاي	-9.62561
▁ابتدأ	-9.62561
▁ارتحلوا	-9.62562
▁آبائك	-9.62562
غطاء	-9.62577
▁مملكة	-9.62577
▁فوجد	-9.62579
▁غدا	-9.62594
▁زوجة	-9.62607
▁العدو	-9.62612
▁بنفس	-9.62619
قاد	-9.62863
▁قرع	-9.62895
▁فهي	-9.62942
▁يسير	-9.6298
▁ألم	-9.6298
▁فتعلم	-9.63119
▁ومس	-9.63159
▁شعر	-9.63177
▁مريم	-9.63275
▁السبعة	-9.63291
▁فليس	-9.63469
الفضة	-9.63532
▁سخط	-9.63548
▁شاهد	-9.63566
▁يرد	-9.6376
▁ابنير	-9.6378
هناك	-9.63827
▁تصير	-9.64017
▁ياتي	-9.6431
▁يطلبون	-9.64336
▁الكتاب	-9.64458
▁بالايمان	-9.64522
▁المستقيم	-9.64523
▁لانفسهم	-9.64524
▁اليمنى	-9.64529
▁الكبير	-9.64532
▁الزمان	-9.64543
▁بأس	-9.64546
▁رجاء	-9.64557
▁صدقيا	-9.64576
▁رفض	-9.64587
▁الاموريين	-9.64603
▁حديد	-9.64645
▁نهر	-9.64664
▁الليلة	-9.64705
▁حوله	-9.64736
▁الوادي	-9.64849
▁البعل	-9.64853
▁وسطها	-9.6487
▁ارجل	-9.64876
▁يترك	-9.64896
حدر	-9.65092
ذراع	-9.65127
▁فكانت	-9.6514
▁اضع	-9.65325
▁كذب	-9.65358
انفس	-9.65413
▁فخر	-9.65533
▁يقيم	-9.65574
لقاء	-9.65591
▁ذات	-9.65663
▁ثماني	-9.66046
▁ودفن	-9.66061
▁واذهب	-9.66126
خضع	-9.66153
▁فتقدم	-9.66258
كونوا	-9.66282
▁خمرا	-9.6631
لامام	-9.66409
▁رحبعام	-9.66522
متلئ	-9.66525
▁نفوس	-9.66528
▁بزيت	-9.66528
▁القديم	-9.66547
▁اقوال	-9.66548
▁لرجل	-9.6656
▁صنعة	-9.66606
▁القائل	-9.66627
▁حواليها	-9.66689
▁رسلا	-9.66726
مائدة	-9.66735
▁تعطي	-9.66753
▁احفظ	-9.66771
▁ابرام	-9.66813
▁لملك	-9.66843
▁فمك	-9.67013
▁رجليه	-9.67213
▁واعطاه	-9.67225
▁ذنب	-9.67465
هتاف	-9.67506
▁جند	-9.67506
▁فرق	-9.67672
غار	-9.67762
▁عيد	-9.67788
▁ويهوذا	-9.67826
طول	-9.68074
▁تسع	-9.68249
▁وثلاثين	-9.68309
▁محرقات	-9.68563
▁الشهادة	-9.68564
▁اولئك	-9.68565
▁وآخر	-9.68565
▁رآه	-9.68572
▁المحبة	-9.68619
▁سام	-9.68652
▁بركة	-9.68694
كتان	-9.68699
▁يدعى	-9.68707
▁سائر	-9.68723
▁بلعام	-9.68962
كرز	-9.68968
▁مخل	-9.69016
▁السفر	-9.69081
صبر	-9.69117
▁خزي	-9.69121
وزن	-9.69292
▁عدو	-9.6931
▁يفن	-9.69326
فحص	-9.69338
▁اقسم	-9.69737
▁الكنيسة	-9.69738
▁اخذت	-9.69804
▁يحل	-9.6995
▁يفهم	-9.70016
ابواق	-9.70018
▁اخا	-9.70115
▁بذهب	-9.70228
▁وعز	-9.70554
▁مملوء	-9.70646
▁الشيوخ	-9.70647
▁الداخلي	-9.70648
▁الثامن	-9.70648
▁التخم	-9.70652
▁حبيب	-9.70732
▁وجمع	-9.70757
▁اصاب	-9.70847
ترنم	-9.70984
خدام	-9.7119
▁بكثرة	-9.71445
ترس	-9.71568
عيش	-9.7159
▁التابوت	-9.71597
باد	-9.71655
▁يسمعون	-9.71687
▁وعشر	-9.7176
▁تجعل	-9.7183
▁انقذ	-9.71975
▁ضربة	-9.71985
خفي	-9.72341
ملاك	-9.72494
▁يقدم	-9.72603
شرق	-9.72633
▁يصير	-9.72634
محبة	-9.72635
▁البار	-9.72643
اسمانجوني	-9.72774
▁يهوياداع	-9.72774
▁الصغير	-9.72783
▁نسلك	-9.72785
▁ارتفع	-9.72785
فصل	-9.7279
▁الغلام	-9.72792
▁رائح	-9.72794
▁نهاية	-9.728
آثام	-9.72819
▁اعداء	-9.72832
▁وارض	-9.7292
▁لابان	-9.72978
▁وعاش	-9.72993
▁وقود	-9.73001
▁وطلب	-9.73264
▁الغرب	-9.73272
▁ألا	-9.73392
▁تحفظ	-9.73487
▁الثانية	-9.73495
تعظم	-9.73649
▁شق	-9.73651
تبرر	-9.73738
▁الجالس	-9.73845
▁فاست	-9.73859
▁ومجد	-9.73894
تقدس	-9.74079
▁فسأل	-9.74107
▁ودفع	-9.743
هذه	-9.74846
▁وسب	-9.74885
▁ومسارحها	-9.74947
▁ومسرحها	-9.74948
▁الآلهة	-9.74948
▁اعدائك	-9.74948
▁اصحاب	-9.74949
▁اعدائي	-9.74949
▁دخول	-9.7495
تراء	-9.74957
ارتفاع	-9.74963
▁نعلم	-9.74968
▁الشيطان	-9.75079
▁خرب	-9.75228
▁الغريب	-9.75271
▁اخوتي	-9.75406
▁الحجر	-9.75421
▁يجب	-9.7544
▁القفر	-9.75465
▁اخاه	-9.75549
▁اليهودية	-9.75555
قهات	-9.75716
▁سوف	-9.75819
خراب	-9.76004
▁اخترت	-9.7609
▁اختار	-9.7614
تغرب	-9.76236
▁السلامة	-9.76348
▁احسن	-9.76649
▁حواليه	-9.76681
طال	-9.76734
▁عينه	-9.76902
▁الينا	-9.76931
▁ثانية	-9.7717
▁جديدة	-9.77172
▁غنيمة	-9.77173
▁الكاتب	-9.77173
▁مركبات	-9.77173
▁سدوم	-9.77175
▁مشيئ	-9.77178
▁اصنام	-9.77185
زعزع	-9.77193
▁بالحري	-9.77201
▁خرابا	-9.77216
▁تسمعوا	-9.77231
▁الضربة	-9.77241
▁جبعة	-9.77261
▁فأتى	-9.77261
▁ضعف	-9.77301
ضحك	-9.77304
▁اسفل	-9.7734
توكل	-9.77556
طالب	-9.77566
▁وتجعل	-9.77622
▁اريد	-9.77684
▁ونج	-9.77766
▁يريد	-9.77927
لباس	-9.7797
▁احمد	-9.78045
▁فلن	-9.78096
تمسك	-9.78159
▁بماء	-9.78159
مدينة	-9.78516
▁تتكلم	-9.79264
ثمانية	-9.79396
لتكن	-9.79439
▁خزائن	-9.79442
كبرياء	-9.79445
▁يخلص	-9.7946
▁قائم	-9.79486
▁الاثني	-9.79506
▁الآتي	-9.79522
▁قيل	-9.79663
▁يضرب	-9.79669
يقين	-9.79736
▁فاجتمع	-9.7979
الحديد	-9.79886
▁اقترب	-9.7994
▁جبال	-9.79991
▁وخذ	-9.8
▁استير	-9.80044
▁وسقط	-9.80108
▁خربة	-9.80583
فرق	-9.808
▁ثلاثين	-9.80865
▁فهل	-9.80977
▁حال	-9.81106
▁يبصر	-9.81115
زهر	-9.81291
▁وزنة	-9.8145
▁الاقداس	-9.81768
▁مساكن	-9.8177
▁السادس	-9.81772
▁تثبت	-9.81779
▁كهنة	-9.81798
▁القدوس	-9.81836
انسان	-9.81856
حراسة	-9.81913
ساب	-9.81997
▁كلمات	-9.8207
نتقم	-9.82221
▁الاولاد	-9.82425
▁تحب	-9.82691
▁اشتر	-9.82754
▁وجب	-9.82778
▁خمر	-9.82984
سفك	-9.83042
قترب	-9.84074
▁المرتفعات	-9.84149
▁اشعياء	-9.84149
ضطهد	-9.84153
▁وقراها	-9.84153
▁آذان	-9.84154
▁يبارك	-9.8417
اغصان	-9.84174
▁هامان	-9.84181
لانجيل	-9.84258
متحن	-9.8427
▁ترجع	-9.843
▁كلاهما	-9.84303
▁ابدية	-9.84332
▁اشهر	-9.84344
▁اللحم	-9.8438
ساعد	-9.84459
حينئذ	-9.84469
حرس	-9.84604
▁بهذه	-9.84619
▁دعوت	-9.8463
خمسة	-9.8477
▁آية	-9.84918
▁القبر	-9.84921
رمي	-9.8504
لتمس	-9.85099
▁لهرون	-9.85323
خضر	-9.85402
▁فسقط	-9.85466
▁خاف	-9.85487
▁اشير	-9.85662
▁يمسك	-9.85734
غلب	-9.85751
عتمد	-9.85791
نبت	-9.85852
▁وكال	-9.85865
▁ياخذ	-9.85884
رواق	-9.8596
▁نفتالي	-9.86588
▁هيرودس	-9.86588
▁لنفسي	-9.86589
▁المسكونة	-9.86589
▁راحيل	-9.86589
ستهزئ	-9.86589
▁اقداس	-9.86589
▁وكبش	-9.86603
▁خطيته	-9.86606
▁وبيوت	-9.8661
▁واحرق	-9.86627
▁شفتي	-9.86633
▁ملعون	-9.86648
▁بالاق	-9.86671
العشرين	-9.86683
تألم	-9.8671
دخان	-9.86729
▁واورشليم	-9.86732
▁وصية	-9.86758
▁فارس	-9.86786
فضل	-9.86812
جثث	-9.86818
نجح	-9.86892
▁مضى	-9.86907
بخور	-9.86949
▁غلام	-9.87008
الكهنة	-9.87048
▁كتاب	-9.871
▁اوصيك	-9.87361
ناموس	-9.87522
▁وناد	-9.87523
▁انتظر	-9.87613
▁اسماء	-9.87628
▁اعطاه	-9.87737
▁فصرخ	-9.88001
▁لستم	-9.88337
طاع	-9.88648
▁الاربع	-9.88751
▁فنظر	-9.88825
▁الجلجال	-9.89088
▁ويعقوب	-9.89088
▁اسماعيل	-9.89088
▁بغتة	-9.8909
▁مستدير	-9.89097
▁بالكذب	-9.891
▁انفسنا	-9.891
استقامة	-9.89104
شهادات	-9.89108
▁انبياء	-9.89108
فطن	-9.8911
▁النعمة	-9.89129
▁مدينته	-9.89135
▁خائف	-9.89138
▁خيام	-9.89145
▁وصوت	-9.89204
▁مبغضي	-9.89225
▁وطرح	-9.89266
قليل	-9.89319
▁حزن	-9.89666
▁كوش	-9.89913
▁واسحق	-9.9
▁ولكل	-9.9001
▁فمض	-9.90153
▁صلب	-9.90452
▁ابغض	-9.90649
جاع	-9.90697
▁قلوب	-9.90909
شديد	-9.90992
▁الاشياء	-9.91652
▁بشيء	-9.91655
▁لشعب	-9.91657
▁مزمع	-9.91672
قضيب	-9.91704
▁اسرع	-9.9173
▁التقدمة	-9.91753
كروبيم	-9.91772
العبراني	-9.91826
▁جناح	-9.91838
▁بكلمة	-9.91874
رنم	-9.9188
▁المشرق	-9.91922
▁اسلم	-9.91937
بائس	-9.91945
شتهي	-9.91978
▁سبق	-9.91979
▁حدث	-9.92056
الرحمة	-9.92063
▁اجد	-9.92114
▁شو	-9.92246
ابطال	-9.92629
▁سمعتم	-9.92724
قيامة	-9.92948
▁افن	-9.93064
▁فهرب	-9.93296
صغر	-9.93902
▁واللاويين	-9.94284
▁تسبيح	-9.94284
▁ذنوب	-9.94284
طمئن	-9.94285
▁لانفسكم	-9.94285
▁ملتوت	-9.94286
▁الابواب	-9.94288
▁شهادة	-9.94289
▁اثنتي	-9.9429
▁حارس	-9.94291
▁ذاهب	-9.94292
▁الجموع	-9.94292
▁وسكان	-9.94312
▁القتال	-9.94317
▁ووجد	-9.9434
ذهاب	-9.94425
▁رحمتك	-9.94483
▁الغرباء	-9.94524
بتلع	-9.94538
شتا	-9.94594
▁فوقف	-9.94602
▁آكل	-9.94725
▁دعوا	-9.94762
حسان	-9.94778
نفخ	-9.94871
▁امسك	-9.94872
▁فاخرج	-9.94887
▁اصغ	-9.94897
شأ	-9.95165
▁ورأيت	-9.95208
عوج	-9.95666
▁سال	-9.95821
تحول	-9.95898
حبلت	-9.96093
سلب	-9.96397
▁وابتدأ	-9.96986
▁جبابرة	-9.96987
▁واسرائيل	-9.96987
▁بيسوع	-9.96988
▁الحكيم	-9.96997
▁قادش	-9.96999
▁القدير	-9.97002
رسالة	-9.97004
▁فخذ	-9.97007
اعمدة	-9.97011
▁الحكماء	-9.97013
نجاسة	-9.97033
▁جبعون	-9.97053
لاعمال	-9.97053
▁الجلد	-9.97066
▁اترك	-9.9708
زداد	-9.97116
▁المسكين	-9.9719
لجميع	-9.97193
▁عزر	-9.97218
▁الكنعانيين	-9.97262
▁الرامة	-9.97296
▁شبا	-9.97314
▁طرح	-9.97361
صفح	-9.97586
▁عشب	-9.97803
▁الابدية	-9.98076
لذبيحة	-9.98185
▁نبو	-9.98242
▁وتحت	-9.98349
▁عيب	-9.9844
▁طرد	-9.98693
▁الظلم	-9.98786
▁يطرد	-9.99006
خطئ	-9.99028
لذلك	-9.99241
▁عدل	-9.99332
▁الكروب	-9.9965
▁لوط	-9.99708
▁زبولون	-9.99764
▁مذابح	-9.99764
▁حشبون	-9.99765
▁الموجود	-9.99765
▁صادق	-9.99766
كنائس	-9.99778
▁امصيا	-9.99788
▁يأتون	-9.99795
▁خراف	-9.99797
▁مديان	-9.99807
▁الوحش	-9.9981
▁شمعون	-9.99815
▁الارامي	-9.99818
▁جدعون	-9.99833
▁خادم	-9.99855
▁ومضى	-9.99869
▁حماة	-9.99879
▁نازل	-9.99905
▁ساعة	-9.99923
▁تجار	-9.99989
شقق	-10.0002
▁تترك	-10.0006
زلزل	-10.0008
▁مختار	-10.0036
▁العاز	-10.0043
▁برجل	-10.005
▁والحق	-10.0051
▁تريد	-10.0092
زعج	-10.0118
تواضع	-10.0118
دهش	-10.0175
▁خلق	-10.0176
▁جمال	-10.0195
▁السبع	-10.0211
▁لابراهيم	-10.0262
▁المصفاة	-10.0262
▁زكريا	-10.0262
▁الاحياء	-10.0262
▁آحاز	-10.0262
▁يزرعيل	-10.0262
▁والشعب	-10.0263
▁لبعض	-10.0263
▁حاشا	-10.0263
▁وملوك	-10.0263
▁يمكن	-10.0264
▁خروف	-10.0264
▁أعطي	-10.0265
▁الفقير	-10.0267
▁للقائه	-10.0269
▁حفر	-10.027
▁للانسان	-10.0289
تموني	-10.0289
▁يتبع	-10.031
▁الاسد	-10.0322
عجلة	-10.0327
الخراف	-10.033
▁يونان	-10.0342
▁حياته	-10.0344
فتكر	-10.0385
▁وامسك	-10.0387
ظالم	-10.0388
▁دب	-10.04
▁حلق	-10.0465
نجوم	-10.0468
طردهم	-10.0507
▁جهت	-10.0548
ستعبد	-10.0549
▁الرؤيا	-10.0556
▁امتلأ	-10.0556
▁شمشون	-10.0557
▁للرجل	-10.0559
دائرة	-10.0562
▁اوريا	-10.0563
▁الرداء	-10.0566
فقراء	-10.0572
قطيع	-10.0574
▁مرتفعات	-10.0576
▁ابديا	-10.0579
▁رجس	-10.0587
امتعة	-10.0588
مغارة	-10.0593
▁اكمل	-10.06
▁احببت	-10.061
▁وزيت	-10.0649
خطية	-10.0749
لواتي	-10.0765
▁اثني	-10.0769
خدع	-10.0859
▁يوآش	-10.0859
▁ليعقوب	-10.0859
▁وعجائب	-10.0859
▁عماليق	-10.0859
▁اعدائهم	-10.0859
▁اجتاز	-10.0859
▁اشجار	-10.086
▁سعير	-10.086
▁فولدت	-10.0861
▁سيحون	-10.0861
▁اخزيا	-10.0861
▁قيصر	-10.0862
▁فهذا	-10.0868
▁آيات	-10.0871
▁فضلا	-10.0872
جدليا	-10.0875
▁جميل	-10.0879
▁اسوار	-10.088
▁استيقظ	-10.0883
▁مخدع	-10.0898
▁ولبني	-10.0901
▁اوصيت	-10.092
حطم	-10.0947
عمق	-10.0955
الاربعة	-10.0974
▁الفلسطيني	-10.1028
نتخب	-10.1029
▁آبائنا	-10.1172
▁الخطايا	-10.1172
▁عجائب	-10.1172
▁لفرعون	-10.1172
▁الفتاة	-10.1173
▁سيناء	-10.1174
ثلاثين	-10.1176
▁رديء	-10.1177
▁الوسط	-10.1177
▁للامم	-10.1178
▁ويعطي	-10.118
عوبيد	-10.1181
▁اتبع	-10.1181
▁الوعر	-10.1185
تغط	-10.1186
لاحظ	-10.1209
▁ورجل	-10.1209
▁واقم	-10.1224
▁الشحم	-10.1228
▁غز	-10.1238
نسل	-10.1247
▁العدل	-10.1261
▁لتكون	-10.1269
هوشع	-10.1336
مزق	-10.134
سحابة	-10.1423
▁اتكل	-10.1448
▁ورم	-10.1482
نبوخذراصر	-10.1494
▁احشويروش	-10.1494
▁واللاويون	-10.1494
▁يهوياقيم	-10.1494
▁وبنيامين	-10.1494
▁ابليس	-10.1495
▁خيمته	-10.1495
▁الحيوانات	-10.1495
▁الوجوه	-10.1496
▁غنى	-10.1497
▁الظلام	-10.1497
▁شديدة	-10.1497
▁فراش	-10.1498
▁رسول	-10.1499
▁اقصى	-10.1501
ؤدب	-10.1502
▁الوراء	-10.1506
تبارك	-10.1521
▁قورح	-10.1525
▁يناد	-10.1546
▁اكليل	-10.1547
▁حط	-10.1564
عشار	-10.1566
▁حفظت	-10.1575
اغفر	-10.1599
اماكن	-10.1613
لسلام	-10.1773
السهل	-10.1822
▁المكتوب	-10.1828
▁ملآن	-10.1828
زاوية	-10.1828
▁الرعاة	-10.1828
▁بقوة	-10.1828
▁الانهار	-10.1829
▁حضن	-10.1829
▁كباش	-10.1829
▁قصور	-10.1829
ظاهر	-10.183
▁العاشر	-10.1831
▁كاذب	-10.1831
▁فاعلم	-10.1832
▁الجهال	-10.1832
ضمير	-10.1832
▁الصبح	-10.1834
▁بخورا	-10.1834
حانان	-10.1835
▁حلقيا	-10.1842
▁فرغ	-10.1846
▁العرش	-10.1859
جرشون	-10.1864
▁ظلام	-10.1875
▁الكاس	-10.1877
سوء	-10.19
طارد	-10.1927
وليمة	-10.1932
▁تلاميذ	-10.1948
جهل	-10.2014
الاخرى	-10.2015
▁لبنا	-10.2064
كتابة	-10.2118
يعزر	-10.2131
البركة	-10.2148
▁الفريسيون	-10.2173
▁شيلوه	-10.2173
يؤخذ	-10.2173
▁اقاصي	-10.2173
▁البئر	-10.2173
▁شلوم	-10.2173
خاطئ	-10.2173
▁ويوحنا	-10.2174
▁الوصية	-10.2175
▁تعليم	-10.2176
▁القلوب	-10.2176
▁توجد	-10.2176
▁وارجع	-10.2178
▁خدمته	-10.2179
▁اقبل	-10.218
▁النازل	-10.2181
▁ترنيم	-10.2184
لسبط	-10.2202
▁وعرضه	-10.2212
شيش	-10.2213
▁تبق	-10.222
حننيا	-10.2221
لسنا	-10.2281
مدح	-10.235
▁رجاسات	-10.2412
▁غربا	-10.245
سكين	-10.2457
خزى	-10.2488
▁والانبياء	-10.253
موضوع	-10.253
▁الاحباء	-10.253
▁ثابت	-10.253
▁الصانع	-10.253
▁اجيالكم	-10.253
▁الجديد	-10.2532
▁يختاره	-10.2532
▁الكلمات	-10.2532
▁واولاد	-10.2532
▁ثبت	-10.2537
لغريب	-10.254
▁واسلم	-10.2541
▁وغنم	-10.2543
▁عزريا	-10.2547
▁حياتي	-10.255
منطقة	-10.2594
▁أتيت	-10.2638
▁بعشا	-10.2653
عثرة	-10.2725
كنيسة	-10.2732
▁فاعطاه	-10.2763
▁يحص	-10.2806
الخمر	-10.2835
▁الفريسيين	-10.29
▁البدء	-10.29
▁للكهنة	-10.29
▁الشغل	-10.2901
▁يكرم	-10.2901
▁لسبب	-10.2901
ميثاق	-10.2901
▁الخروف	-10.2902
▁وفرسان	-10.2902
عصفور	-10.2902
▁قبور	-10.2904
▁مضايقي	-10.2905
▁الختان	-10.2908
▁سفن	-10.291
▁اللوح	-10.291
صادف	-10.2913
▁رأينا	-10.2922
▁بفم	-10.2924
▁يشبه	-10.2929
▁حوالي	-10.2952
اجيال	-10.2965
▁تكمل	-10.2979
لمحاربة	-10.2995
▁وحدك	-10.303
سكوت	-10.3047
اليتيم	-10.3059
الاخيرة	-10.3084
لرؤساء	-10.3233
▁لسليمان	-10.3285
▁صروية	-10.3285
▁هللويا	-10.3285
▁مخارج	-10.3285
▁وقرمز	-10.3285
▁اتخذ	-10.3285
▁تستطيع	-10.3285
▁تذكار	-10.3285
مصاريع	-10.3285
▁المركبات	-10.3285
▁سلاحه	-10.3285
▁النهاية	-10.3285
▁مواشي	-10.3285
▁يؤكل	-10.3285
▁رفقة	-10.3286
▁جيوش	-10.3286
▁شمالا	-10.3286
▁القرعة	-10.3287
▁قائد	-10.3287
▁يغفر	-10.3287
▁مملكته	-10.3288
▁بهيمة	-10.3291
▁ويرجع	-10.3291
الثياب	-10.3292
لثيران	-10.3293
تكفير	-10.3294
▁ليئة	-10.3295
▁فارغ	-10.3296
▁تجاه	-10.3298
اعضاء	-10.33
▁سراج	-10.3301
▁الارز	-10.3311
▁البنين	-10.3315
▁الخرب	-10.3342
▁اياك	-10.3386
ائف	-10.3399
لآكل	-10.3429
يهوشافاط	-10.3471
حزقيا	-10.3474
امرأة	-10.3484
البعض	-10.349
▁الشياطين	-10.3685
▁حافظ	-10.3685
الفرائض	-10.3685
▁الدائمة	-10.3685
▁مواليد	-10.3685
▁مفتوح	-10.3685
▁وثياب	-10.3685
▁وشمعي	-10.3685
▁وعسلا	-10.3685
▁نذور	-10.3686
▁وداود	-10.3686
▁شهوة	-10.3686
▁المركبة	-10.3686
▁مخاف	-10.3687
▁البيوت	-10.3688
▁ثقيل	-10.3689
▁ترشيش	-10.369
▁آنيته	-10.3691
▁اعداؤ	-10.3691
▁اكرم	-10.3691
▁ارنون	-10.3695
زاباد	-10.3697
▁الحادي	-10.37
▁اعمى	-10.3701
▁البطن	-10.3701
تأمل	-10.3709
قديسي	-10.3855
الواح	-10.3863
منون	-10.3885
رؤوس	-10.3893
▁سحاب	-10.3943
دبير	-10.3989
لصق	-10.4097
▁لتلاميذه	-10.4101
▁التاسعة	-10.4101
▁اليابسة	-10.4101
▁باعمال	-10.4101
▁شريعتك	-10.4101
▁والنساء	-10.4101
▁وارجوان	-10.4101
▁ينبوع	-10.4101
▁وشيوخ	-10.4102
▁مسبوك	-10.4102
▁قبائل	-10.4102
▁الوصايا	-10.4102
▁ارملة	-10.4102
▁شافان	-10.4102
▁الكبش	-10.4102
▁مستحق	-10.4103
▁بالبوق	-10.4103
▁يابيش	-10.4103
▁تفيض	-10.4104
اصعاد	-10.4104
يرتفع	-10.4104
▁رنموا	-10.4105
▁الشيخ	-10.4106
▁فالذي	-10.4106
▁كهذا	-10.4106
▁ملء	-10.4108
▁انجيل	-10.4109
▁وقائد	-10.411
▁احرق	-10.4112
▁السنين	-10.4116
جالس	-10.4117
▁اسنان	-10.4117
غناء	-10.4121
▁الجند	-10.4123
▁اقتن	-10.4152
شهوات	-10.4155
▁طالبي	-10.4187
لبناء	-10.422
صموئيل	-10.4324
عبيدك	-10.4327
عوض	-10.4384
تعرف	-10.4502
▁ايزابل	-10.4536
▁زربابل	-10.4536
▁الجبابرة	-10.4536
▁لآبائك	-10.4536
▁الجمهور	-10.4536
▁دهرية	-10.4536
▁ملجأ	-10.4536
▁السماوي	-10.4536
▁دينونة	-10.4536
غتسل	-10.4536
▁احترز	-10.4537
▁فالتفت	-10.4537
▁مسامع	-10.4537
▁المؤمنين	-10.4537
▁نظير	-10.4537
▁الحبيب	-10.4537
▁يفتاح	-10.4537
بتدئ	-10.4537
▁فحدث	-10.4537
▁الكامل	-10.4537
▁زانية	-10.4537
▁نعرف	-10.4538
▁ليوسف	-10.4538
▁بنهدد	-10.4539
▁طويل	-10.4539
▁وبنايا	-10.4539
▁راحة	-10.4539
▁صاعد	-10.4539
تشاور	-10.4541
ابتداء	-10.4543
▁كبش	-10.4544
▁الرجاء	-10.4544
▁جلال	-10.4548
▁صدق	-10.4553
ابتهاج	-10.4557
▁اضطر	-10.4575
نقمة	-10.4585
يوحانان	-10.4586
▁قصب	-10.4599
لاولاد	-10.4612
زوايا	-10.4626
سجف	-10.4633
ستحي	-10.4702
عالمين	-10.4707
تفسير	-10.4733
شاهد	-10.4846
اليبوسيين	-10.4991
▁تقويمك	-10.4991
▁ضياعها	-10.4991
▁المخادع	-10.4991
▁الموآبي	-10.4991
▁رفيعة	-10.4991
▁فآمن	-10.4991
▁ثيران	-10.4991
▁معروفا	-10.4991
▁وعبيده	-10.4991
السلطان	-10.4991
▁خيانة	-10.4991
▁والبهائم	-10.4991
▁لآسا	-10.4991
▁ناحية	-10.4991
▁ادونيا	-10.4991
▁الدهور	-10.4992
▁العبيد	-10.4993
-	-11.5516
ً	-11.6944
)	-12.3111
I	-12.3111
:	-12.6444
1	-13.1444
2	-13.1444
[	-13.1444
]	-13.1444
h	-13.1444
o	-13.1444
(	-14.1442
ـ	-14.1443
6	-14.1444
5	-14.1444
J	-14.1444
T	-14.1444
i	-14.1444
n	-14.1444
t	-14.1444
y	-14.1444
ٍ	-14.1444
*	-14.1444
m	-14.1444
