<pad>	0
</s>	0
<unk>	0
¦	-1.33251
▁¦	-1.33276
▁.	-3.7654
ال	-3.95981
ا	-4.11813
ة	-4.15924
و	-4.40146
ي	-4.82783
في	-4.87929
ه	-4.88156
من	-4.93323
وا	-4.93438
ى	-5.01274
ت	-5.10103
ع	-5.25793
ك	-5.29119
ب	-5.32153
ل	-5.32226
ّ	-5.38048
ف	-5.3857
ون	-5.38786
ان	-5.43254
لى	-5.53429
الرب	-5.58795
ين	-5.65998
م	-5.78199
كل	-5.85961
لا	-5.87751
هم	-5.93377
ها	-6.01559
ن	-6.0559
الذي	-6.20097
ما	-6.25449
كم	-6.34996
لل	-6.37332
وال	-6.38788
د	-6.39899
نا	-6.40493
يا	-6.43043
اسرائيل	-6.45465
قد	-6.45635
هذا	-6.62299
ولا	-6.6317
الله	-6.63296
لم	-6.64195
هو	-6.6543
له	-6.69118
لي	-6.70799
ر	-6.73178
ذا	-6.73519
الارض	-6.78901
التي	-6.82487
عن	-6.87005
فقال	-6.89965
لان	-6.90229
رب	-6.92865
جميع	-6.94029
بن	-6.94348
بيت	-6.95756
يضا	-6.95872
اء	-6.97619
مع	-7.03063
كان	-7.03305
ملك	-7.03741
بال	-7.04409
س	-7.08665
الملك	-7.10443
وقال	-7.10679
وي	-7.11586
بني	-7.1161
انا	-7.11953
قال	-7.12495
ني	-7.12604
ذلك	-7.15786
واحد	-7.16171
ته	-7.18132
أ	-7.21837
بل	-7.22519
ذين	-7.22991
به	-7.24391
اود	-7.25543
لانه	-7.25642
ص	-7.27361
ج	-7.27691
ثم	-7.28539
ذه	-7.2859
كذا	-7.30144
ق	-7.31652
ش	-7.33934
لهم	-7.33947
عند	-7.34295
وكان	-7.35132
الم	-7.36366
عل	-7.37009
يسو	-7.37229
ار	-7.38261
حت	-7.38316
وت	-7.38982
اذا	-7.40111
اليوم	-7.41688
وه	-7.42472
ابن	-7.43042
ايام	-7.45516
الشعب	-7.4578
كما	-7.46059
يهو	-7.46238
هنا	-7.46499
ارض	-7.47223
امام	-7.4795
وكل	-7.48748
بعد	-7.49453
انت	-7.50572
ات	-7.50781
وع	-7.51441
قائلا	-7.54774
اور	-7.55269
حسب	-7.56685
يكون	-7.57057
مدين	-7.58401
عليه	-7.58451
ء	-7.6003
شليم	-7.61374
لك	-7.61569
ام	-7.6169
ير	-7.61936
ول	-7.63322
موس	-7.63462
ومن	-7.64854
تم	-7.65427
عشر	-7.65666
ز	-7.65732
خ	-7.66734
ولكن	-7.67009
ح	-7.67071
مت	-7.6766
ليس	-7.69356
انه	-7.69608
يد	-7.70875
ولم	-7.71151
واما	-7.71568
بنو	-7.7159
حين	-7.72254
يقول	-7.72458
فا	-7.73067
كلام	-7.73265
بين	-7.7353
لكي	-7.74337
لكم	-7.75658
وب	-7.76365
او	-7.77534
ث	-7.77556
كثير	-7.77612
وفي	-7.78003
ض	-7.78366
ط	-7.78743
هي	-7.81756
شعب	-7.82512
رجل	-7.82816
مصر	-7.83527
عمل	-7.83898
تك	-7.84288
غ	-7.85243
تي	-7.8775
اني	-7.88596
شي	-7.891
مئ	-7.89839
سن	-7.90752
مسيح	-7.91003
فت	-7.92238
اذ	-7.93822
مثل	-7.94792
وان	-7.95722
اجل	-7.96047
ئ	-7.96848
يوم	-7.97883
يها	-7.99465
احد	-7.99786
وم	-8.02289
الآن	-8.02408
دم	-8.02625
امم	-8.0641
ذهب	-8.07312
تهم	-8.07841
رجال	-8.0904
نار	-8.10414
ور	-8.10416
قائل	-8.10638
وسط	-8.11647
بها	-8.12474
فان	-8.12551
سماء	-8.12947
يت	-8.13206
قبل	-8.14192
سمع	-8.14616
كلم	-8.15027
وس	-8.1554
اي	-8.15674
فيه	-8.17146
معه	-8.17346
فلا	-8.17564
جاء	-8.17767
مر	-8.17848
ولما	-8.17918
عظيم	-8.1845
يم	-8.20582
تكون	-8.20668
يق	-8.2195
اما	-8.21992
ابي	-8.22485
لاني	-8.22594
ثلاث	-8.22674
لاجل	-8.23211
انتم	-8.25298
اليه	-8.26374
ؤل	-8.26434
انسان	-8.26558
الانسان	-8.26789
وهو	-8.27023
هما	-8.27081
اله	-8.27169
سيف	-8.27316
سر	-8.27769
حي	-8.27908
يعقوب	-8.27951
سبع	-8.28268
تحت	-8.29194
يس	-8.31988
ست	-8.32905
ماء	-8.3408
امر	-8.34565
آ	-8.34959
رئيس	-8.35134
الكاهن	-8.35581
فلما	-8.356
ولد	-8.36031
صوت	-8.36061
غير	-8.36282
شاو	-8.36916
يف	-8.37303
عيني	-8.37798
قدس	-8.38521
لت	-8.38555
جدا	-8.40187
است	-8.40897
فعل	-8.42113
البيت	-8.4232
كنت	-8.42721
واذا	-8.43054
تر	-8.43304
نحو	-8.43457
رأ	-8.43476
اخ	-8.43554
جه	-8.43652
الشر	-8.44735
ناك	-8.44847
الرجل	-8.45365
الهك	-8.45459
قلب	-8.45541
نحن	-8.45543
لها	-8.45801
لنا	-8.45852
البحر	-8.46073
جر	-8.46105
يين	-8.46456
علي	-8.46544
تكلم	-8.46628
نعم	-8.47613
صار	-8.47763
رؤساء	-8.47942
اد	-8.47997
صنع	-8.48055
باب	-8.48319
امرأ	-8.48378
تها	-8.48453
فلم	-8.48493
الكهن	-8.48764
ارسل	-8.48815
السيد	-8.49213
لانهم	-8.49424
هل	-8.50106
تلك	-8.50426
وق	-8.50555
قتل	-8.50584
فض	-8.50631
طريق	-8.50769
اربع	-8.5108
وجه	-8.51111
تن	-8.51383
وك	-8.51548
تقدم	-8.51803
نفسه	-8.52776
الابد	-8.52793
أت	-8.53421
مجد	-8.53653
آخر	-8.53907
حكم	-8.53985
بابل	-8.54025
شر	-8.54756
كانوا	-8.55256
هرون	-8.55387
الناس	-8.56556
ذ	-8.5666
غضب	-8.56749
عليهم	-8.57008
راس	-8.57619
وها	-8.5763
خيم	-8.57991
بي	-8.5843
روح	-8.58917
سليمان	-8.59097
فم	-8.59308
فرع	-8.5957
لد	-8.59773
قول	-8.598
بر	-8.6017
فرح	-8.60247
لما	-8.60726
ضرب	-8.61335
عبد	-8.61448
بك	-8.62108
مس	-8.62467
وهم	-8.62727
وقد	-8.63057
عليك	-8.63589
جبل	-8.63624
بعض	-8.64033
شعوب	-8.64116
مدن	-8.64292
عنه	-8.64474
خمس	-8.6502
لجنود	-8.65158
ئذ	-8.65185
قدام	-8.65495
نفسي	-8.65831
فاجاب	-8.66034
ابنه	-8.67072
ابرا	-8.67326
مياه	-8.68225
يكن	-8.68666
كثر	-8.68674
كانت	-8.68892
اب	-8.69198
الفلسطيني	-8.69403
اح	-8.69633
لكن	-8.69998
وش	-8.70056
هيم	-8.70353
عبر	-8.70538
فر	-8.70572
اسمه	-8.70626
خدم	-8.7064
صر	-8.70825
سموات	-8.70858
وح	-8.7104
أمر	-8.71251
قل	-8.71279
الحق	-8.72533
لحم	-8.7262
غنم	-8.72667
يده	-8.72778
ويكون	-8.74409
مد	-8.7453
ظ	-8.74992
ذبيح	-8.75757
جمع	-8.75908
قو	-8.76243
حق	-8.76814
يدي	-8.76877
مكان	-8.77198
وراء	-8.77773
را	-8.77882
اسم	-8.78596
اقول	-8.79112
خرج	-8.79178
از	-8.79682
جعل	-8.79693
فن	-8.79889
السن	-8.79997
وجميع	-8.80196
اسمع	-8.808
قم	-8.8088
اكثر	-8.80937
لانك	-8.81356
سبط	-8.81415
وانا	-8.81592
شوع	-8.8163
يسمع	-8.81656
يش	-8.81959
الروح	-8.8201
اذهب	-8.82013
قطع	-8.82237
نفس	-8.82257
موت	-8.82617
نفسك	-8.82635
در	-8.83155
الاول	-8.84001
يأتي	-8.84032
وص	-8.84195
فل	-8.84709
حيث	-8.84786
البري	-8.85134
فوق	-8.8534
ايمان	-8.85746
اليك	-8.85873
ئلا	-8.85897
واخذ	-8.85953
قسم	-8.86059
منه	-8.86119
لن	-8.86748
حر	-8.87241
ود	-8.87615
سلام	-8.88186
تقول	-8.8852
عز	-8.88681
سيدي	-8.89205
اس	-8.89643
انذا	-8.89968
وجد	-8.90311
بكر	-8.90442
قلوب	-8.9084
المذبح	-8.91268
اولاد	-8.91703
آله	-8.91988
قوم	-8.92
مكتوب	-8.92029
سكن	-8.92205
قام	-8.92239
دار	-8.92379
عبيد	-8.92589
كسر	-8.92689
كرم	-8.92705
انك	-8.92738
تين	-8.92882
الي	-8.93097
اق	-8.93109
بيته	-8.9338
ترك	-8.94331
بيد	-8.94695
اليهود	-8.95372
معك	-8.95406
تكم	-8.95423
وانت	-8.95479
خمر	-8.95569
خطي	-8.95653
سل	-8.95966
وليس	-8.96549
وعشر	-8.96553
آبائ	-8.96678
حيا	-8.97005
بيوت	-8.97361
ثمر	-8.97601
ثان	-8.97817
منهم	-8.97913
ذكر	-8.98365
ملوك	-8.98368
باسم	-8.98808
كال	-8.98924
خرب	-8.9968
سكان	-8.99938
قا	-9.00317
انبياء	-9.0055
سيد	-9.00661
غر	-9.00669
الطريق	-9.00709
كن	-9.01031
خير	-9.01106
ابيه	-9.01568
نساء	-9.0161
موضع	-9.01799
مل	-9.02157
شق	-9.02454
رأيت	-9.02599
اردن	-9.02733
قر	-9.02816
صور	-9.02897
تابوت	-9.0305
كون	-9.03118
اخرج	-9.03418
خلاص	-9.03576
يدخل	-9.03997
دخل	-9.0405
جيش	-9.04207
الموت	-9.04297
يخرج	-9.04529
حل	-9.04565
نحاس	-9.04585
اعط	-9.04694
الشهر	-9.04935
ولس	-9.05088
وقت	-9.05447
حسن	-9.05708
يل	-9.05741
المرأ	-9.05888
اخر	-9.06333
العالم	-9.06388
شيئا	-9.06607
اياه	-9.06655
عد	-9.07169
شيوخ	-9.07211
خارج	-9.07272
خل	-9.07307
بت	-9.07379
دفع	-9.07384
الحقل	-9.07633
الفا	-9.07665
والآن	-9.07992
معي	-9.08325
نجس	-9.08581
تعب	-9.08804
جز	-9.08897
اخذ	-9.09006
اللاوي	-9.0906
صعد	-9.09567
قليل	-9.09664
اص	-9.10031
وسف	-9.10053
قلبه	-9.10131
وعمل	-9.10411
لبني	-9.10848
افرايم	-9.10944
سم	-9.11222
سا	-9.11385
حلف	-9.114
يقتل	-9.11561
كر	-9.12035
بنيامين	-9.12152
طي	-9.12443
نصيب	-9.13025
وصايا	-9.13224
كذلك	-9.13481
النبي	-9.13484
موآب	-9.13489
البر	-9.13515
عبدك	-9.13836
هيكل	-9.14184
وبنو	-9.14235
قت	-9.14344
يتكلم	-9.14372
يدك	-9.14385
وكانت	-9.14905
وضع	-9.14906
الثاني	-9.15188
وكلم	-9.15343
اعمال	-9.15404
تخم	-9.15459
فكان	-9.15621
بنت	-9.15622
ملاك	-9.15712
بكل	-9.15749
يفعل	-9.15832
لكل	-9.1584
مقدس	-9.15863
وجاء	-9.15872
منذ	-9.15955
يح	-9.16137
وز	-9.16202
الق	-9.16294
خبز	-9.16401
الهكم	-9.16548
صباح	-9.16641
قدم	-9.16643
خطايا	-9.16654
بلا	-9.16687
وادي	-9.16699
الف	-9.16793
خر	-9.16798
جانب	-9.17264
الفض	-9.17327
بري	-9.17402
انظر	-9.1762
رق	-9.18527
الليل	-9.18578
اليكم	-9.18631
وأ	-9.18844
حجار	-9.18949
الباب	-9.18986
غل	-9.19202
فق	-9.19324
سب	-9.19473
ظلم	-9.19709
فتح	-9.20101
طرس	-9.2027
وزن	-9.20325
يعرف	-9.2047
فانه	-9.20483
العظيم	-9.20567
شف	-9.2079
وجعل	-9.20843
مش	-9.20982
وما	-9.21047
ذراع	-9.21098
محب	-9.21162
نزل	-9.21273
امه	-9.2132
يعمل	-9.21428
وذهب	-9.21526
الجبل	-9.21829
وني	-9.21874
ابني	-9.22075
آلا	-9.22096
قريب	-9.22198
يعلم	-9.22261
حن	-9.225
اثم	-9.22574
انهم	-9.22593
ريح	-9.22687
عليكم	-9.22696
بشر	-9.22936
الشمس	-9.23336
صهي	-9.23531
اخي	-9.23976
وبعد	-9.24052
حد	-9.24338
اشرار	-9.24419
لست	-9.24932
عني	-9.25106
سمعت	-9.25309
واقف	-9.25358
ئيل	-9.25381
بقي	-9.25495
الآب	-9.25581
وخمس	-9.25651
الناموس	-9.25685
وضرب	-9.25767
نهار	-9.25834
اخو	-9.25967
وملك	-9.26088
قلت	-9.26178
رحم	-9.26229
سار	-9.26327
سي	-9.26361
بد	-9.26575
فهم	-9.26937
اجتماع	-9.26954
عهد	-9.26957
شد	-9.27004
دين	-9.27094
زوج	-9.27125
تعلم	-9.27323
حمل	-9.27628
موئيل	-9.28039
مسح	-9.28115
رجع	-9.28438
ؤ	-9.28458
اخت	-9.28468
قب	-9.28482
رت	-9.28497
طا	-9.2868
الشرير	-9.29226
اجر	-9.29252
شريع	-9.2933
افعل	-9.29501
عين	-9.29784
يموت	-9.29946
الواحد	-9.29953
الاخو	-9.29993
تسمع	-9.30145
رد	-9.30145
خاف	-9.30393
وط	-9.30471
رام	-9.3052
مطر	-9.30746
مح	-9.30825
فرائض	-9.30889
اصعد	-9.30898
كرسي	-9.30916
يصنع	-9.3092
يئيل	-9.30934
ابنا	-9.31124
بهم	-9.3117
اشور	-9.31314
بنات	-9.31642
ظهر	-9.31898
ارجع	-9.31967
زرع	-9.32055
بط	-9.32241
معهم	-9.32296
سأل	-9.32548
وج	-9.32717
يوس	-9.32739
منس	-9.32743
جو	-9.32746
الهي	-9.32758
خيل	-9.32774
تعمل	-9.32868
شا	-9.32988
آب	-9.33121
وثلاث	-9.33158
مات	-9.33194
عر	-9.33206
رؤوس	-9.33446
ارام	-9.3362
زيت	-9.33776
وجهه	-9.33825
دعو	-9.33967
صل	-9.34017
ولي	-9.34129
جلعاد	-9.34295
قلبك	-9.34468
حا	-9.34496
علم	-9.34558
ذبح	-9.34718
رجلا	-9.35628
ارمي	-9.35818
قدر	-9.35831
عدد	-9.35962
طرح	-9.36143
وقف	-9.36197
يأكل	-9.36223
عشير	-9.36421
يأخذ	-9.36525
طعام	-9.36531
وارسل	-9.36642
ليد	-9.36647
عم	-9.36891
فارسل	-9.36895
معا	-9.36929
سبت	-9.37109
تلاميذه	-9.37174
زمان	-9.37221
فاخذ	-9.37399
عبيده	-9.37656
سير	-9.37686
صالح	-9.37757
كتب	-9.37802
سنين	-9.38089
الثالث	-9.38209
عي	-9.38252
خشب	-9.38272
طلب	-9.38335
حص	-9.38403
يه	-9.3856
اش	-9.3859
عوض	-9.38599
تنا	-9.38642
ابا	-9.38759
فخرج	-9.3881
سلا	-9.39286
دور	-9.39376
مساء	-9.39569
ابواب	-9.39634
زن	-9.39863
كثيرا	-9.39866
فهو	-9.39889
سلطان	-9.39988
تني	-9.40236
كله	-9.40299
يمين	-9.4033
مض	-9.40354
الذهب	-9.40518
غن	-9.40553
داخل	-9.40568
الجسد	-9.40571
قلبي	-9.4059
وخ	-9.40762
يرجع	-9.40778
فجاء	-9.40803
محرق	-9.40828
ملكوت	-9.40992
عظم	-9.41098
ظل	-9.4113
شعبه	-9.41244
آباء	-9.41351
اهل	-9.41444
حزقيا	-9.41463
وصي	-9.41465
يوحنا	-9.41472
حرب	-9.41523
جن	-9.41711
بان	-9.42182
ووضع	-9.42311
حو	-9.42318
احكام	-9.42409
شجر	-9.42523
عاد	-9.42577
صب	-9.42611
بعيد	-9.4271
يونا	-9.42785
ولل	-9.42872
لانكم	-9.4296
ثياب	-9.4296
فقالت	-9.42963
ويل	-9.42988
دان	-9.43278
طف	-9.43279
سفر	-9.43509
خزي	-9.4352
هن	-9.43616
خت	-9.43782
الشمال	-9.43793
لوم	-9.43822
ادوم	-9.43871
برك	-9.44012
راسه	-9.44345
أليس	-9.44365
حجر	-9.44697
ونزل	-9.44739
قص	-9.45002
الحرب	-9.45221
اط	-9.45269
الجب	-9.45281
بما	-9.45283
قرع	-9.45357
خذ	-9.45366
ميت	-9.45381
انكم	-9.45405
جب	-9.45572
آم	-9.45592
طرد	-9.45602
ملأ	-9.45687
قي	-9.45878
عيون	-9.46035
دائم	-9.4616
حول	-9.46258
طرق	-9.46511
بقر	-9.46697
السابع	-9.46807
ايل	-9.46975
عصا	-9.47106
طوب	-9.47199
جلد	-9.4727
وث	-9.47311
يوجد	-9.4743
لبس	-9.47609
أما	-9.48223
اعدائ	-9.48497
يقدر	-9.4861
نوح	-9.48659
تت	-9.48678
كهن	-9.48857
الجماع	-9.48955
السامر	-9.49197
فعلت	-9.49213
آبائه	-9.49298
جلس	-9.49382
ياء	-9.49441
ابو	-9.49671
جماع	-9.50251
عرف	-9.50492
يعطي	-9.5051
بهائم	-9.50864
الساكن	-9.51238
امرأت	-9.513
خبزا	-9.51532
يجد	-9.51609
خبر	-9.51628
اجعل	-9.51783
بسبب	-9.51834
رم	-9.52059
قط	-9.52084
سلم	-9.52324
سبي	-9.52348
اثنا	-9.52548
عمله	-9.52824
عود	-9.52825
نور	-9.52899
نظر	-9.52963
خلص	-9.53041
المحل	-9.53179
ذل	-9.53353
نزع	-9.53427
لسان	-9.53522
سخط	-9.53978
رض	-9.54007
صرخ	-9.54262
يصعد	-9.54401
الامر	-9.54404
شرب	-9.54542
النهر	-9.54591
والم	-9.54782
السلام	-9.54888
وقل	-9.54975
فقد	-9.55007
عيد	-9.55118
موا	-9.55144
وخرج	-9.55638
ميراث	-9.55831
اليهم	-9.55836
يقولون	-9.55847
فقام	-9.5596
تعد	-9.56056
ساكن	-9.56076
تأكل	-9.56199
وصل	-9.56205
اعطيت	-9.56444
اجاب	-9.56839
مالك	-9.57013
جاد	-9.57027
ابشا	-9.57042
رث	-9.57217
المدن	-9.57232
الدم	-9.57237
بارك	-9.573
ونها	-9.57342
قيم	-9.57405
اخبر	-9.57445
فاني	-9.57558
شاقل	-9.57598
الجنوب	-9.57657
واجعل	-9.57822
خوف	-9.57921
مست	-9.58025
شبه	-9.58116
الوقت	-9.58169
معكم	-9.58358
جعلت	-9.58531
مرض	-9.58694
صي	-9.58801
جبال	-9.58825
وتكون	-9.59012
جسد	-9.59068
عمون	-9.59102
رسل	-9.59129
كف	-9.59133
زر	-9.59488
واربع	-9.59489
وجوه	-9.59544
واعط	-9.59565
بعل	-9.59577
الخطي	-9.597
يز	-9.59746
شرا	-9.59789
يقوم	-9.59832
قوي	-9.59873
وبين	-9.5989
آمن	-9.60205
اثني	-9.6021
مذبح	-9.60226
انفس	-9.60237
قض	-9.60283
قضاء	-9.60353
جديد	-9.60428
مملك	-9.60557
جد	-9.60622
نق	-9.60649
جند	-9.6068
شهد	-9.60842
آتي	-9.60921
يربع	-9.60956
شعر	-9.60991
وآب	-9.61008
عجل	-9.61069
واذ	-9.61143
نج	-9.61185
عام	-9.61477
اسمك	-9.61712
وأت	-9.62106
صدق	-9.62601
سقط	-9.62619
تعلمون	-9.62707
صف	-9.62822
فيكون	-9.62923
واسم	-9.62948
اموات	-9.63005
حدث	-9.63174
هرب	-9.63372
الاثم	-9.63491
يطلب	-9.63728
واقام	-9.63759
رفع	-9.63955
ضل	-9.63986
شرق	-9.64305
قبر	-9.64559
المصري	-9.64628
ائه	-9.64646
حزن	-9.64699
عرض	-9.64808
امان	-9.64851
وسبع	-9.64904
عثر	-9.64939
الحيا	-9.64949
وحده	-9.65084
فلي	-9.6517
شبع	-9.65354
آسا	-9.65791
فقط	-9.65806
مسكن	-9.65891
احب	-9.6621
فك	-9.66331
باطل	-9.66421
مبارك	-9.66572
اسباط	-9.66712
لبن	-9.66737
سكب	-9.66744
ضيق	-9.66758
تخرج	-9.66792
وهي	-9.66928
تدخل	-9.67032
للملك	-9.67371
انفسهم	-9.67483
اسحق	-9.67638
سكر	-9.67719
حضر	-9.67786
نصف	-9.67838
ودعا	-9.68056
الحكم	-9.6812
بار	-9.68233
قاد	-9.6839
اخطأ	-9.68527
ثوب	-9.6856
فرق	-9.68645
صاحبه	-9.68651
علين	-9.68657
ضد	-9.68819
اعلم	-9.68826
ردي	-9.68951
الدهر	-9.68958
خيرا	-9.69404
معرف	-9.69581
حديد	-9.69908
واخبر	-9.69924
ايليا	-9.69952
تأتي	-9.69978
الآخر	-9.70027
رعا	-9.70131
لنفسه	-9.70235
اقام	-9.70287
ومات	-9.70427
عينيه	-9.70445
مركبات	-9.7067
وانتم	-9.70673
الحي	-9.70697
تصنع	-9.70841
جيد	-9.71114
امور	-9.71235
يضع	-9.7129
يحفظ	-9.71398
غش	-9.71402
تعرف	-9.71458
اسمي	-9.71587
لح	-9.71703
غريب	-9.71773
كامل	-9.71914
غفر	-9.72062
طم	-9.7212
رمل	-9.72121
حفظ	-9.72178
حب	-9.7234
ابدي	-9.72345
اذن	-9.72356
كنعان	-9.72414
رح	-9.72414
فس	-9.72415
قضي	-9.72418
امامك	-9.72428
تكلمت	-9.72447
جت	-9.72519
مكانه	-9.72528
صانع	-9.72658
الظلم	-9.72729
يتها	-9.72745
ارد	-9.72757
عظام	-9.72894
بحسب	-9.73001
فاط	-9.73082
يعط	-9.73322
كذب	-9.73327
قوا	-9.73336
المقدس	-9.73467
تلاميذ	-9.73523
الرابع	-9.73633
جمهور	-9.73633
بئر	-9.73638
اذرع	-9.73643
ثور	-9.73663
وست	-9.7384
اخوته	-9.7395
ايديهم	-9.7404
تاج	-9.74162
حور	-9.74203
لانها	-9.74594
مقابل	-9.74665
نير	-9.74721
اصر	-9.75067
شار	-9.75102
يدع	-9.75123
لجميع	-9.75278
وصعد	-9.75333
خروف	-9.75839
فني	-9.75862
خرجت	-9.76
شحم	-9.76019
سور	-9.76188
كنتم	-9.76188
قري	-9.76313
منظر	-9.7641
حواليه	-9.76481
المغن	-9.76545
الصد	-9.76597
يسقط	-9.76829
عبيدك	-9.76854
يحب	-9.76922
يذهب	-9.76955
طر	-9.77044
ودخل	-9.77113
ائر	-9.77824
انها	-9.77942
داني	-9.78195
اذكر	-9.78332
ذنب	-9.78398
اجتمع	-9.78467
وسجد	-9.78602
ارا	-9.78642
ووقف	-9.78655
رفض	-9.78681
يوآ	-9.78729
حم	-9.78808
حلم	-9.78868
عزر	-9.78925
طاهر	-9.78972
المحرق	-9.79089
ليكن	-9.79124
تنبأ	-9.79175
كرام	-9.79487
كروب	-9.7951
سك	-9.79723
زم	-9.79769
يرد	-9.79799
ثماني	-9.79835
طول	-9.79892
اقداس	-9.80008
وبنات	-9.80025
فخ	-9.80124
الثلاث	-9.8034
مز	-9.80406
الغرب	-9.80442
نس	-9.80564
لاوي	-9.80811
غط	-9.80868
ليست	-9.80915
تصير	-9.81014
ملائك	-9.81097
نذر	-9.81478
شمعي	-9.81486
خراب	-9.81678
هلاك	-9.81907
وعن	-9.82077
عنده	-9.82081
ارتحل	-9.82199
المسكن	-9.82208
صرت	-9.82229
رأوبين	-9.8223
الفريسي	-9.82243
اسد	-9.82289
الخارج	-9.82444
بطن	-9.825
ائم	-9.82521
تسع	-9.82668
ضي	-9.8267
ذراعا	-9.82746
ملكا	-9.82896
عامل	-9.83044
اعطي	-9.83187
فمن	-9.83248
معل	-9.83677
فذهب	-9.83741
يهلك	-9.8381
محل	-9.83933
يسكن	-9.83979
نهاي	-9.84053
سوا	-9.84402
بجانب	-9.84412
امامه	-9.84426
جاز	-9.84461
تكن	-9.84492
كور	-9.84523
تاكل	-9.8454
نبي	-9.84638
داع	-9.84671
عشائرهم	-9.84716
روا	-9.84779
هدي	-9.85012
ينظر	-9.85275
المر	-9.85346
شب	-9.85379
وقتل	-9.85407
يهويا	-9.85449
حارب	-9.85557
دوا	-9.85699
كاس	-9.85879
ثيابه	-9.85907
خجل	-9.85914
بون	-9.85952
نسل	-9.85963
طلق	-9.86261
فقلت	-9.8639
وعد	-9.86416
بغي	-9.86613
فأت	-9.86695
تخوم	-9.86772
كبر	-9.86894
تنظر	-9.86998
آني	-9.87187
سحق	-9.87225
فكر	-9.87574
ونني	-9.87691
ثبت	-9.87715
رش	-9.87788
ربنا	-9.87833
ثام	-9.87838
رون	-9.87887
حمي	-9.8795
صنعت	-9.88021
امسك	-9.88034
باد	-9.88192
تفعل	-9.88284
طس	-9.88341
اطلب	-9.88421
قفر	-9.88463
اعظم	-9.8859
بيده	-9.8861
أن	-9.89127
الكلداني	-9.89147
صحيح	-9.89216
الكلم	-9.89232
رجاء	-9.89399
دون	-9.89445
غي	-9.89518
لبيت	-9.89542
بنين	-9.89567
السبع	-9.90005
وبقي	-9.90123
راح	-9.90178
عص	-9.90206
امين	-9.90365
وبيت	-9.90485
قرون	-9.90638
فد	-9.90654
إ	-9.90659
يهوش	-9.90759
فدعا	-9.90798
اول	-9.90906
الزيت	-9.90946
فتخر	-9.91102
ضع	-9.91227
بث	-9.91237
ابيك	-9.91507
اصنام	-9.91582
اخيه	-9.91671
الاله	-9.91789
تذكر	-9.91825
البقر	-9.91858
ند	-9.91987
تدع	-9.92062
اولا	-9.9219
دعي	-9.92265
دعا	-9.923
يقف	-9.92481
وصنع	-9.92622
بأس	-9.92654
اعين	-9.92656
شهر	-9.92773
مرتفعات	-9.9285
غني	-9.9285
وجهك	-9.9291
طل	-9.92941
صاحب	-9.93008
مدخل	-9.93023
بنيه	-9.9305
ترس	-9.932
يجعل	-9.93326
فدخل	-9.93458
حلق	-9.93505
ولدت	-9.93515
فاذا	-9.93532
تأخذ	-9.9365
محرقات	-9.93671
اوص	-9.93756
ادخل	-9.93786
كاهن	-9.93821
بصوت	-9.93874
ذو	-9.93936
الغد	-9.94011
ذبائح	-9.94072
سق	-9.94097
نفوس	-9.941
ابصر	-9.94103
يسلم	-9.94158
بكم	-9.9418
اصنع	-9.942
ارز	-9.94203
العلي	-9.94396
وصار	-9.94476
بيتك	-9.94501
الاموري	-9.94538
عنك	-9.94625
غنيم	-9.94649
قدامه	-9.9467
هاوي	-9.94674
يديه	-9.94701
حامل	-9.94723
سلك	-9.94734
المحب	-9.94761
الخير	-9.94893
واست	-9.94918
اشت	-9.95003
خص	-9.95225
شيطان	-9.95311
جئت	-9.95336
يثبت	-9.95454
وحي	-9.95465
امير	-9.95495
ثق	-9.95777
ساق	-9.95784
فصح	-9.95924
بوق	-9.95975
نصب	-9.96092
خي	-9.96145
رجم	-9.9636
سائر	-9.96443
ايدي	-9.96552
حبرون	-9.966
ميخا	-9.96602
اضطجع	-9.96653
فمه	-9.96812
يخبر	-9.97017
لموس	-9.97184
تموه	-9.97247
اطلق	-9.97312
كشف	-9.97667
نهب	-9.9786
نازل	-9.97885
بتهج	-9.97912
يعل	-9.97947
بطل	-9.97972
آباؤ	-9.98003
خراف	-9.98066
كبش	-9.98091
قرب	-9.98156
حقل	-9.98224
ريحا	-9.98349
هدم	-9.98495
باش	-9.98529
مشور	-9.98582
عرفت	-9.98596
كلمات	-9.98712
اقوال	-9.98788
تعطي	-9.98803
راي	-9.98878
جمال	-9.98999
كنيس	-9.99121
ياتي	-9.99172
دقيق	-9.99207
الجليل	-9.99207
فأ	-9.99249
حبل	-9.9927
طيور	-9.99291
فرس	-9.99349
سجن	-9.99357
سكت	-9.99459
اعم	-9.99509
الشرق	-9.99563
معنا	-9.99614
اجي	-9.99637
الكتب	-9.99778
سرور	-9.99927
بحر	-10.0018
تنجس	-10.0023
ابناء	-10.0024
ومع	-10.0032
جلب	-10.0033
ومت	-10.0043
يقيم	-10.0046
حراس	-10.0046
تس	-10.0053
الامور	-10.0096
فصعد	-10.0098
بسط	-10.0107
يذبح	-10.0118
تعال	-10.0119
تقو	-10.012
السحاب	-10.0122
وجهي	-10.0123
الباقي	-10.013
خروج	-10.0137
عور	-10.0146
حكماء	-10.0151
عالي	-10.0152
لصوت	-10.0153
ارسلت	-10.0161
اخوت	-10.0165
وجدت	-10.0181
وانظر	-10.0184
تخف	-10.0187
دخول	-10.0189
عمود	-10.0193
ضعف	-10.0195
رؤيا	-10.0206
فتكون	-10.021
صغير	-10.0224
داب	-10.0235
احفظ	-10.0237
اعرف	-10.0241
شاهد	-10.0245
عينا	-10.0246
وعند	-10.025
أف	-10.0254
كنا	-10.0265
يرفع	-10.0287
تعط	-10.0288
حمو	-10.0293
شم	-10.0297
فات	-10.0306
نسلك	-10.0309
تسبيح	-10.0327
مريم	-10.0334
عار	-10.0347
ابتدأ	-10.0358
حاز	-10.0361
واللاوي	-10.0389
مستقيم	-10.0398
تحفظ	-10.0399
شاء	-10.04
ظلام	-10.0402
عشب	-10.041
واخوته	-10.0439
وبن	-10.0449
خب	-10.0453
هز	-10.0457
فضرب	-10.0457
عبدي	-10.047
حكيم	-10.047
ناموس	-10.0474
شديد	-10.0475
الملوك	-10.0475
ارفع	-10.0477
طيب	-10.0478
ينزل	-10.0478
غرس	-10.0486
حفر	-10.0487
قائم	-10.0493
أخذ	-10.0504
العهد	-10.0509
صرف	-10.051
زل	-10.052
ياكل	-10.0554
انجيل	-10.0558
مزم	-10.0562
شكر	-10.0598
الاربع	-10.0598
بغض	-10.0601
افكار	-10.0607
غلام	-10.0607
اراضي	-10.0609
بخور	-10.0612
القت	-10.062
يوما	-10.0621
أس	-10.0629
ورؤساء	-10.063
وير	-10.0634
آيات	-10.0634
قيل	-10.0657
عابر	-10.0677
ذي	-10.068
غز	-10.0692
نقي	-10.07
قاس	-10.0701
مائد	-10.0703
ورجع	-10.0711
عندك	-10.0716
بينهم	-10.0724
تضرع	-10.075
الجوع	-10.0758
اجمع	-10.0762
ائي	-10.0766
ناد	-10.0774
مجمع	-10.0776
الكنعاني	-10.0778
ركب	-10.0784
وقع	-10.0797
القديس	-10.0802
تشدد	-10.0802
حج	-10.0805
بق	-10.0822
حمد	-10.0824
رؤ	-10.0828
وهذا	-10.0835
تقل	-10.0835
تجد	-10.0851
ظن	-10.087
دفن	-10.0889
فريض	-10.0894
وعر	-10.0897
مسكين	-10.0908
عملت	-10.0928
قدوس	-10.0938
الكذب	-10.0938
الكتاب	-10.0944
قيام	-10.0945
فسد	-10.0948
اناس	-10.0948
الخبز	-10.0968
شفتي	-10.0977
تبر	-10.0982
نطق	-10.0983
طالب	-10.0993
الصالح	-10.0995
دعوا	-10.0995
يصير	-10.1011
رحب	-10.1021
سريع	-10.1043
يقبل	-10.1043
تذهب	-10.1054
صلب	-10.1058
عينه	-10.1059
آكل	-10.1073
وقالت	-10.1073
كس	-10.1099
برص	-10.1101
ثاني	-10.1101
غيظ	-10.1103
تقي	-10.1113
فصار	-10.1124
صخر	-10.1126
النور	-10.1132
عشائر	-10.1156
حاكم	-10.1175
حز	-10.1182
تضع	-10.1188
شكيم	-10.119
وسمع	-10.1196
تعليم	-10.1199
غدا	-10.12
حنط	-10.1203
جبابر	-10.1205
اراد	-10.1213
اصاب	-10.1219
أر	-10.122
فأخذ	-10.1239
عمي	-10.1261
عهدا	-10.1273
والذي	-10.1279
ائيل	-10.1288
يبق	-10.1293
مما	-10.1297
اقيم	-10.1307
التراب	-10.1313
حما	-10.1314
عبده	-10.1319
حيوان	-10.1324
ائهم	-10.1328
جبع	-10.1336
وقلت	-10.1338
اليهودي	-10.1343
عش	-10.1346
يؤمن	-10.1353
غسل	-10.1361
ضح	-10.1363
ياخذ	-10.1364
غضبه	-10.1372
بعضهم	-10.1381
شيخ	-10.1387
طريقه	-10.1389
نهر	-10.1404
لئك	-10.1404
واصعد	-10.1405
مرد	-10.1409
باق	-10.1413
يسر	-10.142
سمك	-10.1421
أعطي	-10.143
صراخ	-10.1446
ترد	-10.146
جل	-10.1464
امك	-10.1466
واخرج	-10.1469
الساع	-10.1475
يكلم	-10.1488
فمات	-10.1494
حائط	-10.1495
خزائن	-10.1495
رائح	-10.1495
المعدود	-10.1496
الصبي	-10.1503
زكري	-10.1504
السفين	-10.1509
وعز	-10.1519
جث	-10.153
ملكه	-10.1533
فخر	-10.1538
ائل	-10.1542
طرف	-10.1561
حقا	-10.1574
برج	-10.1576
قرض	-10.1589
عظ	-10.1589
جالس	-10.1592
المجد	-10.1618
علمت	-10.1619
ففعل	-10.1628
جموع	-10.1658
امي	-10.166
ليكون	-10.1666
رفق	-10.1667
اختار	-10.1669
ابنك	-10.1674
راعي	-10.1682
كلهم	-10.1683
رج	-10.1687
خمسين	-10.1688
مركب	-10.169
يغ	-10.1693
طهر	-10.1697
نجسا	-10.171
اصل	-10.1714
ابوه	-10.1769
بالحق	-10.1782
رجليه	-10.1795
حث	-10.1799
يونان	-10.1804
بيض	-10.1806
آخذ	-10.1815
مكر	-10.1848
يشرب	-10.1864
رحمته	-10.1864
ومض	-10.1868
بكلام	-10.187
ورأ	-10.1872
يخطئ	-10.1873
اخذت	-10.1886
لأ	-10.1894
شهاد	-10.1895
فسمع	-10.1896
الههم	-10.1897
رس	-10.1944
ليل	-10.1951
يات	-10.1957
عدا	-10.197
الخامس	-10.1971
رص	-10.1991
اتكلم	-10.2002
الضيق	-10.2027
وسار	-10.2032
حولي	-10.2035
وتصنع	-10.2047
سين	-10.2051
فكلم	-10.2072
سيده	-10.2086
جري	-10.2094
انهار	-10.2098
رنم	-10.2113
هلم	-10.212
قرأ	-10.2127
جوع	-10.2127
حافظ	-10.2136
افواه	-10.2137
قربان	-10.2144
دمشق	-10.2151
افضل	-10.2154
العر	-10.2155
يبارك	-10.2166
حسنا	-10.2167
ويجعل	-10.2171
شرك	-10.2179
وحدث	-10.2185
فطير	-10.2188
صاعدا	-10.2192
لستم	-10.2216
لوط	-10.2222
فاخبر	-10.2233
حمار	-10.225
الصخر	-10.225
ابد	-10.2275
نظرت	-10.2277
عنهم	-10.2301
غلمان	-10.2307
اشتر	-10.2309
جم	-10.2319
يترك	-10.2322
بنون	-10.2323
يعطيك	-10.2333
قس	-10.2343
خاي	-10.2353
وراءه	-10.2365
رعب	-10.2377
دهن	-10.2409
اكر	-10.2422
كتاب	-10.2422
رآه	-10.2432
ويش	-10.2435
يضرب	-10.2437
علام	-10.244
لعام	-10.2457
اصحاب	-10.248
وعبد	-10.2485
فرغ	-10.249
باع	-10.2502
اسرع	-10.2508
ونصف	-10.2511
يحمل	-10.2514
قاوم	-10.2518
نبوخذن	-10.2533
جاع	-10.2536
ليشع	-10.2539
زاني	-10.2546
وبارك	-10.255
وتكلم	-10.2557
زين	-10.2558
راسي	-10.2562
اطفال	-10.2566
يطلبون	-10.2574
صفا	-10.2585
عصي	-10.2586
بقو	-10.26
فنزل	-10.2601
لابس	-10.2605
يسير	-10.2623
ركض	-10.2629
نح	-10.2635
يستطيع	-10.2644
ارتفع	-10.2645
تموت	-10.2645
اعداء	-10.2654
فليس	-10.2655
ألعل	-10.2656
ابر	-10.2668
مرات	-10.267
صير	-10.2683
رجس	-10.2684
صح	-10.2699
دخلت	-10.2705
دينون	-10.2709
عالم	-10.271
احدا	-10.2718
خطا	-10.2722
كبير	-10.2731
خارجا	-10.2737
ساع	-10.2737
العدل	-10.2741
شهو	-10.2752
قائد	-10.2752
وعبر	-10.2769
عدو	-10.2777
المس	-10.2784
وبنيه	-10.2794
خاصم	-10.2798
الملاك	-10.282
انتظر	-10.282
آذان	-10.282
تجار	-10.2822
تست	-10.2833
قوس	-10.2835
يقدم	-10.2845
التفت	-10.2858
ستر	-10.286
كوش	-10.2861
طرقه	-10.2867
دنس	-10.2871
اباه	-10.2873
يفهم	-10.2876
اصغ	-10.288
اسماء	-10.2894
سبق	-10.2902
قاء	-10.291
نبو	-10.291
فتر	-10.2916
فيكم	-10.2922
رفعت	-10.2924
بالرب	-10.2928
يخلص	-10.2939
ثلث	-10.294
العمل	-10.2943
مجي	-10.2949
الجالس	-10.2956
ارضه	-10.296
الغريب	-10.2972
صنا	-10.2975
روحي	-10.298
بيلا	-10.2996
مختار	-10.2998
تمثال	-10.2999
الهه	-10.3008
جف	-10.3011
تعبد	-10.302
باط	-10.3026
خيام	-10.3034
اقص	-10.3039
بسلام	-10.3043
تشت	-10.3047
جاري	-10.3056
وبك	-10.306
ويهو	-10.3061
قضا	-10.3063
فار	-10.3066
سيا	-10.3087
يوشي	-10.3087
فصل	-10.3092
وحوش	-10.3098
ضايق	-10.3104
فرجع	-10.3125
تمسك	-10.3131
السبي	-10.3157
ممالك	-10.3157
المعز	-10.3161
رجاسات	-10.318
مشيئ	-10.3197
يحرق	-10.3205
وحش	-10.3209
صد	-10.3224
يعلمون	-10.3235
اطين	-10.3238
اسأل	-10.3239
عجائب	-10.3241
انقذ	-10.3252
رسلا	-10.3268
المستقيم	-10.3269
مضي	-10.327
الكبير	-10.3277
غم	-10.3283
اهلك	-10.3288
كتان	-10.3289
لوقت	-10.3293
بجميع	-10.3295
بالروح	-10.3298
زب	-10.3313
يصل	-10.3336
ذاك	-10.3342
فتن	-10.3344
تهلك	-10.3349
وقام	-10.3352
ذري	-10.3353
واعطي	-10.3361
اقترب	-10.3368
نفتالي	-10.3369
تعجب	-10.3378
ثورا	-10.3383
مسر	-10.343
حصن	-10.3434
نعلم	-10.3446
السور	-10.3456
طار	-10.3458
فمك	-10.3462
حاج	-10.3466
تقدر	-10.3468
ثقل	-10.3476
الجيل	-10.3487
وسطك	-10.3492
ضم	-10.3504
اعطاه	-10.3514
فتش	-10.3514
اجيال	-10.3516
بلاد	-10.3536
صدقي	-10.3537
ويقول	-10.3537
انزل	-10.3543
اشع	-10.3544
عج	-10.3549
اخوتهم	-10.3566
اكتب	-10.3566
فرز	-10.358
عطش	-10.3586
مواشي	-10.3589
وئيل	-10.3596
الاخير	-10.3599
ارضك	-10.36
تحي	-10.361
حوله	-10.361
رجلي	-10.3611
ألم	-10.3615
ترنم	-10.363
ئن	-10.363
وولد	-10.3633
رائي	-10.3638
خبار	-10.3639
تثبت	-10.3641
يسمعون	-10.3643
وادخل	-10.3647
يوب	-10.3654
شبك	-10.366
ارضهم	-10.3663
كروم	-10.3666
الحجر	-10.3681
خن	-10.3689
صديق	-10.3701
لانفس	-10.3703
وجلس	-10.3715
بيع	-10.3732
قلع	-10.3734
مرتفع	-10.3737
الفهم	-10.3737
اشجار	-10.3746
اللذ	-10.3746
ثرو	-10.3748
قرمز	-10.3749
خادم	-10.3749
يابس	-10.3751
القديم	-10.3751
تجعل	-10.3752
اسفل	-10.3755
يسجد	-10.376
غطاء	-10.3763
العاز	-10.3769
اخوتك	-10.3771
سوف	-10.3771
حشب	-10.3776
شبا	-10.3799
سجد	-10.38
اشير	-10.3801
العدو	-10.3805
ترجع	-10.3805
تحب	-10.3812
كره	-10.3836
رسول	-10.3848
حصر	-10.3849
قدمي	-10.3855
اريد	-10.3879
شعبا	-10.3882
لانفسهم	-10.3896
فارس	-10.3898
يجلس	-10.3916
صدر	-10.392
زبولون	-10.3942
مذابح	-10.3942
خائف	-10.3943
ثيران	-10.3943
تغرب	-10.3944
مخل	-10.3945
مسرح	-10.3954
يخز	-10.3962
شهود	-10.3967
عزريا	-10.3976
صادق	-10.3994
هتف	-10.3996
سدو	-10.4013
حان	-10.4013
خلق	-10.4018
لامام	-10.403
صوته	-10.403
فكانت	-10.4032
يرث	-10.4048
وسكن	-10.4055
مرت	-10.4057
خد	-10.4063
فاعط	-10.4075
كلامك	-10.4103
ودفن	-10.4118
مقت	-10.4123
وثق	-10.4142
مملوء	-10.4142
ايادي	-10.4143
شمعون	-10.4145
هتاف	-10.4149
يبصر	-10.4163
الصغير	-10.4168
تراب	-10.4192
كيل	-10.4196
الشهاد	-10.42
قدامك	-10.4202
ميل	-10.4221
البار	-10.4226
فدي	-10.423
سحاب	-10.4243
وقود	-10.4251
راحي	-10.4262
شوك	-10.4262
احمد	-10.427
فتقدم	-10.427
خطيته	-10.4272
البعل	-10.4272
نجاس	-10.4287
يأكلون	-10.429
صبر	-10.4292
تيم	-10.4303
آي	-10.4307
يعود	-10.4309
طو	-10.4313
يقر	-10.4325
مجده	-10.4334
قدسه	-10.4341
يزرعيل	-10.4346
يفن	-10.4346
ارجوان	-10.435
الغلام	-10.4354
ابواق	-10.4355
تراء	-10.436
جناح	-10.4363
وعاش	-10.4366
صوم	-10.437
لعل	-10.4371
اسلم	-10.4379
تتكلم	-10.438
والي	-10.4388
عرش	-10.4389
قرن	-10.4399
اخترت	-10.4402
فوجد	-10.4405
قدير	-10.4409
الوف	-10.4409
دوس	-10.442
ورفع	-10.442
حرم	-10.4434
أب	-10.4444
امتع	-10.4458
حيات	-10.4478
بدد	-10.4493
تقر	-10.4496
غربا	-10.4508
اليمن	-10.4513
عدم	-10.4522
بالاق	-10.4537
ابيش	-10.4551
اجتاز	-10.4555
الثامن	-10.4555
باطلا	-10.4557
سماعي	-10.4568
بغت	-10.4576
يبس	-10.4587
السفر	-10.4588
زنا	-10.4596
رحمتك	-10.4597
سلاح	-10.4599
يأتون	-10.4604
فلت	-10.4604
خدام	-10.4616
يفرح	-10.4619
فكي	-10.462
تحمل	-10.4624
تبرر	-10.4625
امس	-10.4647
جلج	-10.4656
يرسل	-10.4669
جبار	-10.4679
سلب	-10.471
سيس	-10.4722
صلح	-10.4727
رمح	-10.4728
لبنا	-10.4729
قصر	-10.4731
ومسارح	-10.4734
شرير	-10.4735
اعطيك	-10.4736
وابي	-10.4736
الثور	-10.4737
اجد	-10.4741
قبله	-10.4747
ساح	-10.4754
الرحم	-10.4758
اسمانجوني	-10.4767
هيرودس	-10.4767
ذنوب	-10.4767
بالحري	-10.4768
ملعون	-10.4768
آثام	-10.4772
الجاهل	-10.4772
قيصر	-10.4772
حيوانات	-10.4778
منحوت	-10.4782
اخاه	-10.4786
شمس	-10.4786
استقام	-10.479
ألق	-10.4809
طير	-10.481
قهات	-10.4813
فضل	-10.4813
كتبت	-10.4819
الداخلي	-10.4824
تشرب	-10.4828
قادر	-10.4829
قصب	-10.4838
التقدم	-10.485
عيش	-10.4874
صيب	-10.4881
والعشر	-10.4885
وجمع	-10.4887
طين	-10.4889
حبيب	-10.4896
صاعد	-10.4917
يدين	-10.4936
انسانا	-10.4957
حمق	-10.4958
فحص	-10.496
اضع	-10.4961
تمام	-10.4974
اجنبي	-10.4985
يسلك	-10.4987
حارس	-10.4988
قورح	-10.4991
ألسن	-10.4991
فهي	-10.4991
ريب	-10.4992
سيح	-10.5006
تؤمن	-10.5008
ينقذ	-10.5032
ونظر	-10.5038
قاعد	-10.5039
قوته	-10.5051
وسي	-10.5054
الحر	-10.5059
تطلب	-10.5062
مساكن	-10.5079
سمعنا	-10.5082
ذاهب	-10.5089
يريد	-10.5091
الضرب	-10.5095
مرار	-10.5096
يجب	-10.5102
لابرا	-10.5119
احسن	-10.5128
ابينا	-10.5132
ألا	-10.5141
يعبر	-10.5159
بشي	-10.5177
طلع	-10.5185
يقطع	-10.5188
وآخر	-10.5195
تأديب	-10.5207
الكاتب	-10.5207
معروف	-10.5207
جدعون	-10.5208
عارف	-10.5209
لتكن	-10.5214
جميل	-10.5222
يحيا	-10.5223
شأ	-10.5238
قف	-10.5241
شغل	-10.5248
بدون	-10.5257
يلبس	-10.5261
تسقط	-10.5271
الفقير	-10.5275
ودي	-10.5275
اتخذ	-10.5284
يطرد	-10.5285
تريد	-10.5288
بدم	-10.5298
جبعون	-10.531
ضحك	-10.531
سبب	-10.5316
كباش	-10.5318
وبيد	-10.532
يطلق	-10.5324
امامهم	-10.5326
منطق	-10.5327
اباد	-10.5351
اعد	-10.5353
تعل	-10.537
سقي	-10.5388
وتجعل	-10.539
يحارب	-10.5399
واذهب	-10.54
تحر	-10.5401
حشو	-10.5403
مشت	-10.5403
اعمد	-10.5404
مزمع	-10.5406
حمير	-10.5408
الاثني	-10.541
حمام	-10.5413
سيل	-10.5414
نبت	-10.5415
وخذ	-10.5417
شمال	-10.5423
دعوت	-10.5429
السادس	-10.5434
مخادع	-10.5434
مساكين	-10.5434
اسنان	-10.5435
كبرياء	-10.5436
المسكون	-10.5436
عوج	-10.5438
لباس	-10.5455
يغسل	-10.5459
جسده	-10.5464
سفن	-10.5466
اثنتي	-10.5471
سرير	-10.5482
وامر	-10.552
فاجتمع	-10.5532
تصعد	-10.5533
زهر	-10.5534
الينا	-10.5541
ملح	-10.5548
تخافو	-10.5552
شمش	-10.5552
سام	-10.5554
الاشي	-10.5558
افع	-10.557
سود	-10.5573
حام	-10.5574
سمعتم	-10.5598
ائك	-10.5604
حنن	-10.5607
رجعت	-10.5613
أخر	-10.5653
سبا	-10.5654
الآتي	-10.5659
جيوش	-10.5667
ألي	-10.567
وقراه	-10.5671
خيش	-10.5678
يحل	-10.5691
صبا	-10.5695
يمسك	-10.5706
بناء	-10.5718
ترت	-10.5733
حفظت	-10.5748
نجح	-10.5779
لملوك	-10.578
آت	-10.5789
القدوس	-10.5789
نسي	-10.5801
وقطع	-10.5803
يعرفون	-10.5806
بات	-10.5807
مبغضي	-10.5815
نوم	-10.5821
ترون	-10.5831
شيلو	-10.5841
اذني	-10.5853
وزي	-10.5893
اغصان	-10.5905
ناظر	-10.5906
خضر	-10.5906
فطن	-10.5907
ضطهد	-10.5908
غبي	-10.5915
فراش	-10.5929
يسأل	-10.5931
واعطاه	-10.5931
غلف	-10.594
الارامي	-10.5943
تسكن	-10.5943
رواق	-10.5944
امصي	-10.5945
ساعد	-10.5948
يحسن	-10.595
بهيم	-10.5951
يكف	-10.5956
اكمل	-10.5959
لرجل	-10.5966
اشهر	-10.599
انطلق	-10.6001
وطلب	-10.6012
شدد	-10.602
يظهر	-10.6025
العرب	-10.6037
تعملون	-10.6043
اسوار	-10.6053
صعدت	-10.6066
نثن	-10.6069
سامع	-10.6083
حذ	-10.6085
تعظم	-10.6088
يدعو	-10.6093
لهرون	-10.6101
ينزع	-10.6102
رسال	-10.6104
المعرف	-10.6123
كلاهم	-10.6125
شقق	-10.6132
يسار	-10.6144
مستدير	-10.6149
مخدع	-10.6149
مغار	-10.6153
جثث	-10.6156
دخان	-10.6157
قبور	-10.6162
حس	-10.617
الحث	-10.6172
قبض	-10.6172
ومجد	-10.6174
قمح	-10.6181
حطب	-10.6197
سفك	-10.6198
طوله	-10.622
واحرق	-10.6244
تقدس	-10.6253
وسقط	-10.6258
وهرب	-10.6267
الابدي	-10.6269
اوصيك	-10.63
حقول	-10.6304
تأكلون	-10.6318
آه	-10.6319
يتبع	-10.6332
فهل	-10.6353
يبغض	-10.6359
وبنوه	-10.6372
ربط	-10.6373
نادي	-10.6374
وكبش	-10.6381
نجا	-10.6388
مديان	-10.6392
سهام	-10.6398
اخيك	-10.6399
اليبوسي	-10.6399
يختار	-10.64
صادو	-10.6414
رخ	-10.6416
كريم	-10.6416
يهرب	-10.6432
شهادات	-10.645
رفيع	-10.6452
اعدائك	-10.6456
اكليل	-10.6461
فصرخ	-10.6478
قربانه	-10.6481
اكلت	-10.6483
تألم	-10.6485
وناد	-10.6502
العين	-10.6502
مراري	-10.6509
مجن	-10.6515
قاتل	-10.6524
بلغ	-10.6527
بكلم	-10.6538
تغي	-10.6542
قراء	-10.6553
طلبت	-10.6559
متسلط	-10.657
يزيد	-10.6582
رمم	-10.6583
فلن	-10.6584
▁	-10.6591
تعرفون	-10.6592
شور	-10.6606
مذبحا	-10.6613
فخذ	-10.6624
نقض	-10.6625
سرق	-10.6631
ختان	-10.6638
فمض	-10.6639
ويشرب	-10.664
كالب	-10.6641
دود	-10.6645
الحكيم	-10.6647
رأت	-10.6652
اعطاهم	-10.6654
حاد	-10.6654
تزعزع	-10.6655
خطوات	-10.6655
استيقظ	-10.6656
العبراني	-10.6657
اترك	-10.6664
ارواح	-10.6665
راكب	-10.6711
ابطال	-10.6712
ورام	-10.6739
تترك	-10.6742
بدل	-10.6742
يجمع	-10.6745
وخمسين	-10.6747
يعد	-10.6748
يفتح	-10.6755
تعزي	-10.6757
حصد	-10.6758
يموث	-10.6766
يعملون	-10.6769
جلال	-10.678
سهل	-10.6782
يحملون	-10.6783
قود	-10.6785
فهرب	-10.68
بارا	-10.6803
درج	-10.6804
الوحش	-10.681
تبق	-10.6815
زح	-10.6818
فرأ	-10.6821
شريعت	-10.6831
تبعه	-10.6831
ختم	-10.6838
انصرف	-10.6847
وذبح	-10.6854
وطرح	-10.6857
يتنبأ	-10.6864
أخبر	-10.6864
يخل	-10.6873
كتف	-10.6873
واسحق	-10.6894
يعو	-10.6905
ملتوت	-10.6919
تلميذ	-10.6919
جاس	-10.692
تلد	-10.692
وحمل	-10.692
عذراء	-10.6922
ابوابك	-10.6927
رماد	-10.6934
صيدون	-10.6941
يشبع	-10.6943
امامكم	-10.6947
عاج	-10.6996
قيس	-10.6998
صفح	-10.7005
رعد	-10.7007
اتبع	-10.7013
واثن	-10.7021
رؤوسهم	-10.704
فسقط	-10.7045
لمحارب	-10.7099
جرح	-10.7117
تسلك	-10.715
مدينته	-10.7154
بفرح	-10.7156
برنا	-10.7162
يلق	-10.7165
قمر	-10.7174
فسأل	-10.7184
مسبوك	-10.7189
أمور	-10.7189
قياس	-10.7199
احببت	-10.7201
خيان	-10.7205
عتيد	-10.7212
تقوم	-10.7224
محص	-10.7236
تحول	-10.7256
دائر	-10.7258
وغش	-10.7263
تقطع	-10.7279
ذهاب	-10.7298
فاخرج	-10.7298
دهش	-10.7303
ائس	-10.7305
حضن	-10.7316
جواب	-10.7321
تعود	-10.7325
عدل	-10.7332
حاشا	-10.7334
راع	-10.7341
عيب	-10.7345
زور	-10.7362
ليعمل	-10.7366
الحصاد	-10.7372
اطعم	-10.7385
لهيب	-10.7397
الرداء	-10.7406
فوقف	-10.7412
حصون	-10.7422
وجع	-10.7431
القاتل	-10.7434
وابتدأ	-10.7435
بحد	-10.7457
جمر	-10.7461
حاضر	-10.7466
التاسع	-10.7466
عماليق	-10.7466
ائد	-10.7467
زلزل	-10.7467
مراحم	-10.7468
شعير	-10.7469
زاوي	-10.7472
واضع	-10.7479
ضارب	-10.748
ادوني	-10.7483
يمكن	-10.7484
يدعون	-10.7493
المق	-10.7494
اخطأت	-10.7497
يعطيه	-10.7497
عمق	-10.7499
مشير	-10.7505
وشرب	-10.7506
يجي	-10.7507
الصلا	-10.7516
سبوت	-10.7521
تحرق	-10.7531
بره	-10.7539
ولول	-10.7554
الموجود	-10.7569
حض	-10.758
اوثان	-10.7589
شلوم	-10.7589
سبحو	-10.7607
يبيد	-10.7618
المؤمن	-10.7623
متمرد	-10.7637
جالسا	-10.7678
اؤه	-10.77
خطئ	-10.7704
ورد	-10.7706
صلات	-10.7726
نسله	-10.7745
جنوب	-10.7748
رأيتم	-10.775
قبائل	-10.7754
مولود	-10.7754
كاذب	-10.7763
دفعهم	-10.7771
نجوم	-10.7771
مذ	-10.7773
وحارب	-10.7773
تخل	-10.7774
فتحت	-10.7784
وبأ	-10.7788
سكيب	-10.7789
تواضع	-10.7793
عظماء	-10.7794
حسد	-10.7796
زعج	-10.7799
حير	-10.7805
يخرجون	-10.7805
دفعه	-10.7807
يصرخ	-10.7811
حمر	-10.7822
عناق	-10.7832
بيدر	-10.7845
الفتا	-10.7847
وولدت	-10.7851
جسدي	-10.7857
يمينه	-10.7874
ورش	-10.7884
حياته	-10.789
ياكلون	-10.789
اوصيت	-10.7919
أتيت	-10.7959
دماء	-10.7961
واضطجع	-10.8032
وذبائح	-10.8039
اعماله	-10.8043
شوارع	-10.8046
ضياعه	-10.8047
لعاز	-10.8047
ترنيم	-10.8048
سعير	-10.8048
قطيع	-10.8049
اعاقب	-10.805
بإ	-10.8054
جبروت	-10.8059
جدلي	-10.8061
حجاب	-10.8066
اخذه	-10.8066
اثر	-10.8071
شفاه	-10.8077
يخدمون	-10.809
زق	-10.8099
جيل	-10.8108
جمل	-10.8108
فرات	-10.811
يهوآ	-10.8117
اغلق	-10.812
شرقي	-10.8141
اعينكم	-10.8143
صبح	-10.8163
تسل	-10.8175
وثمان	-10.8182
موني	-10.8185
للرجل	-10.8201
عشار	-10.8219
بيدك	-10.8229
رباب	-10.8239
ستريح	-10.8247
تخبر	-10.8248
نقم	-10.8251
حطم	-10.8265
اعمالهم	-10.8273
شتا	-10.832
رجوع	-10.8325
يتسلط	-10.8347
تماثيل	-10.8349
احترز	-10.8349
ملآن	-10.8349
تجرب	-10.8358
رديئ	-10.836
ختن	-10.8369
ترفع	-10.8369
احباء	-10.8381
قطعت	-10.8392
وليم	-10.8394
يروش	-10.8395
احسان	-10.8397
الواح	-10.8409
رتب	-10.842
حط	-10.842
اقمت	-10.8421
قصور	-10.8422
الجهال	-10.8423
وبخ	-10.8424
راق	-10.8439
سقطت	-10.8445
ثقيل	-10.8454
تسلط	-10.8461
فولدت	-10.8468
حبيبي	-10.8478
يشهد	-10.8495
ليئ	-10.85
اعينهم	-10.8523
فجر	-10.8543
سحر	-10.8545
وعجائب	-10.8556
اقتن	-10.8572
يمشي	-10.8582
ثيابهم	-10.861
خاص	-10.8614
فضلا	-10.8626
وراءهم	-10.8629
صرخت	-10.8645
مرسل	-10.865
فاعلي	-10.8651
معز	-10.8655
ملجإ	-10.8662
لاحظ	-10.8663
تجس	-10.8668
تبصر	-10.8669
قضبان	-10.8669
قاضي	-10.8671
مزق	-10.8676
اساس	-10.8681
اوصاه	-10.8685
جاوب	-10.8685
سعا	-10.8704
جاب	-10.8712
مجان	-10.8715
سراج	-10.8717
خلع	-10.8723
يجيب	-10.8732
قطر	-10.8732
خطف	-10.8748
اماكن	-10.8751
لسبب	-10.8762
البواب	-10.8763
ايديكم	-10.8763
تمرد	-10.8785
شاب	-10.8788
حوالي	-10.8788
قصد	-10.879
تحفظون	-10.8795
تجي	-10.8799
تفعلون	-10.8819
اتراس	-10.8842
تلف	-10.8856
نبوخذ	-10.8869
راقب	-10.8872
وانقذ	-10.8876
احرق	-10.8881
جور	-10.8891
ورجاله	-10.8911
فوضع	-10.8921
امتلأ	-10.8925
رذل	-10.8942
يهودي	-10.8955
زاد	-10.8962
اضطر	-10.8968
ارتفاع	-10.8978
اغاظ	-10.8984
اقاصي	-10.8985
عبودي	-10.8985
ثابت	-10.8985
تقف	-10.8995
عيناي	-10.8995
اثار	-10.9003
حاف	-10.9004
جراد	-10.901
بقيت	-10.9013
تاخذ	-10.9017
حماق	-10.9021
هيج	-10.9022
لشا	-10.9027
ظهرت	-10.9034
يزول	-10.9034
عرج	-10.9041
امتلأت	-10.9046
تاه	-10.9053
حوري	-10.9063
كملت	-10.9064
عريان	-10.9075
تسجد	-10.9094
عاري	-10.9104
نعرف	-10.9106
تفرح	-10.9131
سواري	-10.9132
تسم	-10.9133
هيئ	-10.9153
مبغض	-10.9172
سبيل	-10.9177
بناه	-10.9186
يرض	-10.9233
للقائه	-10.9272
فرد	-10.9278
يدفع	-10.9291
مضطجع	-10.9317
تذكار	-10.9317
تستطيع	-10.9317
العاشر	-10.9318
مفتوح	-10.9318
عيلام	-10.932
امثال	-10.932
نذور	-10.9321
ظاهر	-10.9322
خصيان	-10.9323
فارغ	-10.9326
ضمير	-10.9328
اؤك	-10.9336
سنتين	-10.9353
عراف	-10.9354
احتم	-10.9354
نفخ	-10.9356
مضايقي	-10.9356
ضربات	-10.9379
هدد	-10.9383
اعطاني	-10.9392
ساقط	-10.9397
شاف	-10.9446
طارد	-10.9456
حصل	-10.9479
تبارك	-10.9487
رداء	-10.9509
صلاح	-10.9512
لديك	-10.9514
اثمهم	-10.9531
تنس	-10.9545
دهري	-10.9546
رعو	-10.955
ارحمن	-10.9561
فاعلم	-10.9582
سافر	-10.9627
مذنب	-10.9627
سوء	-10.9629
حلقي	-10.9649
خاطئ	-10.9662
سكائب	-10.9662
ترشيش	-10.9662
رسائل	-10.9663
يؤخذ	-10.9664
ذكور	-10.9669
ارتد	-10.9673
الحقيق	-10.9677
وتقدمته	-10.9677
احاط	-10.9679
زبدي	-10.9683
وعرضه	-10.9689
سرج	-10.9691
تشبع	-10.9696
يثر	-10.9704
تصل	-10.9715
عمور	-10.9722
مهلك	-10.9745
الفلك	-10.9751
خصام	-10.9754
آنيته	-10.9754
استراح	-10.9756
دموع	-10.9763
الشرط	-10.9768
ويوقد	-10.9773
صوف	-10.9786
عوارض	-10.9804
سهر	-10.9818
مدح	-10.9829
صمت	-10.9839
سخ	-10.9854
فاقام	-10.9867
ايمانكم	-10.9894
قديسي	-10.9928
تعطون	-10.9935
تطلع	-10.9953
اثمار	-10.9964
عادل	-11.0009
اللوح	-11.0014
مخاف	-11.0019
موضوع	-11.0019
خمير	-11.002
اجناد	-11.0021
زارح	-11.0022
محيط	-11.0024
بعشا	-11.0025
تقويم	-11.0029
فريس	-11.0032
المدياني	-11.0034
رأينا	-11.004
سكوت	-11.0047
مستعد	-11.005
صليب	-11.0053
اصغر	-11.0054
تعبير	-11.0054
ضج	-11.0056
اعداؤ	-11.0076
فانطلق	-11.0099
تطلبون	-11.0117
تجاه	-11.012
حاش	-11.0203
داس	-11.0209
آلهته	-11.0237
تطهر	-11.0245
لسنا	-11.0275
يكرز	-11.0301
سخر	-11.0305
امتك	-11.0357
قواعد	-11.0382
ميثاق	-11.039
مطمئن	-11.039
مكدوني	-11.039
عصفور	-11.039
البائس	-11.0393
فرخ	-11.0395
خزف	-11.0396
جسم	-11.0397
شرور	-11.0398
فساد	-11.04
وفرسان	-11.0404
اثا	-11.0408
عديم	-11.0414
يحرس	-11.0417
لصق	-11.0423
مستحق	-11.0436
هللو	-11.0443
تقرب	-11.0454
طويل	-11.0456
ثدي	-11.0457
ذوات	-11.0463
وحدك	-11.0479
اجنحته	-11.048
فأكل	-11.0482
ومئت	-11.0491
ارتعد	-11.0498
اؤهم	-11.0503
للذي	-11.0509
وتيس	-11.0524
خدمته	-11.0536
امتد	-11.0549
كنز	-11.0655
مملكته	-11.0673
تاتي	-11.0677
مخاصم	-11.0679
صادف	-11.0684
غمر	-11.0746
قلتم	-11.0772
يضطجع	-11.0774
مصنوع	-11.0774
اعضاء	-11.0775
مصاريع	-11.0775
برئ	-11.0775
مجتمع	-11.0775
يؤكل	-11.0776
بحار	-11.0776
اعتمد	-11.0777
باكور	-11.0779
انحدر	-11.0779
خاتم	-11.0781
تكفير	-11.0782
ابتد	-11.0783
ابرار	-11.0784
مرثا	-11.0788
يرتد	-11.0807
طبق	-11.0824
عذار	-11.0833
قوتك	-11.0857
شفتا	-11.0868
عطيهم	-11.0888
ينجي	-11.0904
حصاد	-11.0922
موعد	-11.099
معصي	-11.0996
قيود	-11.1014
احتمل	-11.1026
حداث	-11.1087
فقير	-11.1089
فاعل	-11.1092
يعزي	-11.1098
السنط	-11.1136
اجناسه	-11.1174
تطهير	-11.1174
نظير	-11.1175
ختبئ	-11.1175
اسواق	-11.1177
الحادي	-11.1177
جبر	-11.1181
دبير	-11.1181
معاصي	-11.1182
مواليد	-11.1183
ينبوع	-11.1183
تأمل	-11.1183
ينابيع	-11.1184
جاريت	-11.1193
حيرام	-11.1198
فداء	-11.1213
يؤت	-11.1221
نقش	-11.1242
حبس	-11.1246
صيدا	-11.1246
وحدي	-11.1253
مكروه	-11.1265
محفل	-11.127
ذبل	-11.1282
مسامع	-11.1283
ؤدب	-11.1286
سارق	-11.1336
حزم	-11.1341
السف	-11.136
مؤمن	-11.1367
سألوه	-11.1373
اياك	-11.1406
سطح	-11.1462
كنائ	-11.151
رقص	-11.1539
كلمتك	-11.1565
ينتظر	-11.1591
اطراف	-11.1591
صغار	-11.1591
يرتفع	-11.1592
احشائ	-11.1592
تعيير	-11.1592
ممدود	-11.1592
ثلج	-11.1593
اشدود	-11.1595
احشاء	-11.1597
عاصف	-11.1599
اصعاد	-11.1607
ميعاد	-11.1607
سيوف	-11.1607
ضعيف	-11.1609
وحيد	-11.161
لحظ	-11.1612
شهوات	-11.1617
اطياب	-11.1639
سبل	-11.1642
طهار	-11.165
وصاد	-11.1654
غدر	-11.1656
الموآبي	-11.1681
غبار	-11.169
ربوات	-11.1691
هوشع	-11.1697
صاف	-11.177
اعمدته	-11.1788
الخف	-11.1817
قوتي	-11.1924
نجاسته	-11.2013
شاطئ	-11.2026
ملجأ	-11.2026
السماوي	-11.2026
مختوم	-11.2026
مجامع	-11.2026
ابتهاج	-11.2027
ركاب	-11.2031
يقترب	-11.2036
اوقات	-11.2037
رهب	-11.2041
عقاب	-11.2044
يزاب	-11.2062
جاهل	-11.2062
فارص	-11.2068
اصوات	-11.2069
حروب	-11.2074
ماكير	-11.2082
مسوح	-11.2082
زوايا	-11.2088
بتدئ	-11.2089
افتقد	-11.2091
ادرك	-11.2095
فارق	-11.2095
خالق	-11.2117
الدهو	-11.2125
عذب	-11.2135
شواق	-11.2147
زمجر	-11.2193
الجزي	-11.2204
ثالث	-11.2229
أرسل	-11.2252
سجف	-11.2253
مريض	-11.2285
يغطي	-11.2324
تشاور	-11.2373
اجنح	-11.2375
جنس	-11.2421
خصوم	-11.2441
تجاوز	-11.248
شوشن	-11.2481
اقطاب	-11.2481
مضجع	-11.2481
امتنع	-11.2481
رذيل	-11.2481
عجيب	-11.2482
قميص	-11.2482
افسس	-11.2482
تذمر	-11.2484
اعترف	-11.2485
يشفق	-11.2493
درجات	-11.2494
رياح	-11.2494
اخضع	-11.2496
-	-12.3005
ً	-12.4434
i	-12.8101
(	-13.0601
)	-13.0601
:	-13.3934
𐋇	-13.3934
h	-13.8934
t	-13.8934
1	-13.8934
o	-13.8934
2	-13.8934
[	-13.8934
]	-13.8934
ـ	-14.8933
.	-14.8934
m	-14.8934
6	-14.8934
*	-14.8934
5	-14.8934
j	-14.8934
n	-14.8934
y	-14.8934
ٍ	-14.8934
𐊣	-14.8934
𐊼	-14.8934
