<pad>	0
</s>	0
<unk>	0
▁s	-0
de	-1
▁h	-2
en	-3
▁o	-4
ll	-5
▁f	-6
an	-7
ch	-8
ar	-9
▁de	-10
er	-11
▁och	-12
▁t	-13
▁m	-14
▁d	-15
tt	-16
om	-17
▁v	-18
in	-19
ör	-20
är	-21
▁a	-22
▁b	-23
ig	-24
▁i	-25
ill	-26
on	-27
ade	-28
▁för	-29
▁sk	-30
▁g	-31
ag	-32
▁k	-33
ck	-34
▁till	-35
▁l	-36
st	-37
▁han	-38
et	-39
▁e	-40
ra	-41
än	-42
na	-43
▁u	-44
or	-45
ed	-46
▁som	-47
▁p	-48
▁j	-49
el	-50
der	-51
▁H	-52
▁n	-53
▁att	-54
▁så	-55
all	-56
▁st	-57
un	-58
▁är	-59
▁O	-60
ing	-61
▁en	-62
ån	-63
▁den	-64
▁D	-65
▁skall	-66
da	-67
▁det	-68
▁jag	-69
▁I	-70
cke	-71
▁J	-72
▁Och	-73
▁på	-74
ol	-75
▁av	-76
▁r	-77
▁vi	-78
▁icke	-79
pp	-80
▁var	-81
iv	-82
▁hon	-83
▁S	-84
ER	-85
RE	-86
ERRE	-87
▁med	-88
▁HERRE	-89
it	-90
sa	-91
▁HERREN	-92
▁all	-93
ud	-94
▁har	-95
▁M	-96
▁ö	-97
kt	-98
äl	-99
▁bl	-100
sk	-101
▁dem	-102
▁honom	-103
åt	-104
▁»	-105
▁du	-106
av	-107
▁fr	-108
ad	-109
es	-110
▁ut	-111
ft	-112
us	-113
äg	-114
▁G	-115
al	-116
▁sin	-117
▁upp	-118
and	-119
ot	-120
as	-121
ver	-122
▁där	-123
itt	-124
am	-125
år	-126
den	-127
▁mig	-128
▁kom	-129
▁om	-130
ung	-131
at	-132
▁in	-133
ss	-134
▁sig	-135
▁dig	-136
▁A	-137
id	-138
åg	-139
rä	-140
▁sade	-141
▁din	-142
▁eder	-143
▁Gud	-144
.»	-145
▁över	-146
▁hade	-147
för	-148
els	-149
▁hans	-150
▁min	-151
em	-152
fter	-153
▁åt	-154
som	-155
ro	-156
▁komm	-157
lig	-158
are	-159
re	-160
▁skol	-161
▁då	-162
ur	-163
onung	-164
▁hav	-165
▁be	-166
tta	-167
ka	-168
▁konung	-169
olk	-170
▁alla	-171
▁Men	-172
ning	-173
os	-174
▁man	-175
änn	-176
▁folk	-177
ort	-178
▁bliv	-179
▁E	-180
ull	-181
▁ett	-182
▁från	-183
sra	-184
erna	-185
ande	-186
▁såsom	-187
mm	-188
het	-189
▁nu	-190
▁Isra	-191
ff	-192
▁när	-193
ev	-194
▁br	-195
▁säg	-196
▁efter	-197
ri	-198
ätt	-199
▁någ	-200
▁sj	-201
▁sl	-202
var	-203
▁bar	-204
ram	-205
ller	-206
▁T	-207
äm	-208
▁allt	-209
öra	-210
arna	-211
▁Då	-212
▁un	-213
ja	-214
▁hel	-215
▁skola	-216
▁vad	-217
ik	-218
▁ty	-219
▁tj	-220
il	-221
▁N	-222
ång	-223
▁men	-224
ön	-225
ens	-226
öd	-227
▁dag	-228
▁hava	-229
od	-230
▁barn	-231
▁son	-232
▁ock	-233
ne	-234
▁vid	-235
ras	-236
▁an	-237
ta	-238
▁än	-239
▁må	-240
yn	-241
▁fram	-242
▁mot	-243
▁B	-244
▁giv	-245
▁or	-246
▁sina	-247
▁hus	-248
▁deras	-249
▁hö	-250
▁skull	-251
att	-252
og	-253
isk	-254
▁se	-255
▁detta	-256
▁vill	-257
ick	-258
iga	-259
▁vil	-260
▁HERRENS	-261
▁gj	-262
▁tal	-263
ab	-264
ste	-265
▁oss	-266
▁tjän	-267
fr	-268
ärd	-269
edan	-270
ld	-271
enom	-272
yck	-273
▁dö	-274
▁gå	-275
ak	-276
▁Israels	-277
▁Ty	-278
▁eller	-279
▁sitt	-280
▁K	-281
▁få	-282
ast	-283
dra	-284
▁under	-285
▁vara	-286
inn	-287
▁låt	-288
▁säger	-289
ut	-290
äd	-291
andra	-292
▁mitt	-293
▁Så	-294
▁na	-295
▁land	-296
▁V	-297
▁F	-298
yg	-299
te	-300
▁vor	-301
▁å	-302
▁äro	-303
▁själ	-304
▁hj	-305
från	-306
▁här	-307
▁genom	-308
▁göra	-309
▁dina	-310
▁tr	-311
▁skulle	-312
▁bliva	-313
uda	-314
▁blev	-315
▁komma	-316
äng	-317
ader	-318
äll	-319
äder	-320
▁någon	-321
nen	-322
▁utan	-323
amm	-324
▁hu	-325
is	-326
ingen	-327
ans	-328
▁rätt	-329
ffer	-330
ken	-331
▁svar	-332
▁männ	-333
ska	-334
dan	-335
▁ar	-336
▁ned	-337
ät	-338
ukt	-339
▁fö	-340
▁voro	-341
▁sön	-342
eb	-343
orde	-344
▁Jer	-345
aga	-346
▁hen	-347
▁först	-348
▁bort	-349
▁dess	-350
ga	-351
▁Her	-352
▁hör	-353
▁väl	-354
avid	-355
▁hand	-356
del	-357
else	-358
▁konungen	-359
▁David	-360
ott	-361
va	-362
▁jor	-363
im	-364
▁dr	-365
▁ord	-366
sal	-367
▁beg	-368
▁syn	-369
▁förb	-370
äkt	-371
▁kun	-372
▁folket	-373
▁människ	-374
▁ur	-375
▁ber	-376
ssa	-377
▁skolen	-378
åd	-379
äst	-380
▁ju	-381
▁ditt	-382
▁P	-383
ände	-384
op	-385
gon	-386
ighet	-387
▁inför	-388
åll	-389
▁Guds	-390
▁hela	-391
▁Där	-392
ose	-393
ren	-394
▁väg	-395
▁Jes	-396
▁ifrån	-397
ann	-398
▁De	-399
imm	-400
▁svarade	-401
▁sv	-402
▁mina	-403
▁andra	-404
mn	-405
räst	-406
▁Israel	-407
▁När	-408
▁Han	-409
▁pl	-410
lj	-411
▁jorden	-412
▁söner	-413
ligen	-414
▁ingen	-415
▁dessa	-416
ul	-417
så	-418
akt	-419
▁L	-420
--	-421
str	-422
▁namn	-423
▁brö	-424
▁Jag	-425
▁bland	-426
▁fört	-427
▁kl	-428
pt	-429
▁fl	-430
▁kan	-431
▁--	-432
▁något	-433
▁tillb	-434
io	-435
▁int	-436
▁tv	-437
▁gick	-438
▁lev	-439
▁Jo	-440
▁hög	-441
si	-442
ara	-443
aden	-444
▁Juda	-445
?»	-446
▁fader	-447
eg	-448
▁sedan	-449
▁sp	-450
▁'	-451
färd	-452
kte	-453
inna	-454
▁lik	-455
offer	-456
▁tjänare	-457
▁bo	-458
▁giva	-459
▁hjär	-460
det	-461
änder	-462
▁gjorde	-463
ia	-464
nes	-465
▁Jeru	-466
sam	-467
uru	-468
éerna	-469
salem	-470
▁vår	-471
sm	-472
ring	-473
▁män	-474
andet	-475
und	-476
▁blivit	-477
▁kommer	-478
▁Jerusalem	-479
▁tog	-480
▁Jesus	-481
nar	-482
ygg	-483
▁präst	-484
▁henne	-485
▁Ab	-486
▁år	-487
▁mer	-488
igt	-489
▁läg	-490
ob	-491
▁edra	-492
ov	-493
ats	-494
rof	-495
gy	-496
gypt	-497
skap	-498
▁tid	-499
la	-500
äck	-501
immel	-502
▁ej	-503
▁säga	-504
▁on	-505
▁gör	-506
aka	-507
▁får	-508
efter	-509
ek	-510
▁frukt	-511
▁liv	-512
▁därför	-513
rö	-514
▁Mose	-515
▁himmel	-516
▁Ja	-517
▁trä	-518
▁ögon	-519
▁Herren	-520
▁lät	-521
▁al	-522
▁gjort	-523
▁ev	-524
▁förg	-525
▁själv	-526
▁R	-527
ker	-528
▁denna	-529
nade	-530
▁sju	-531
▁vet	-532
▁två	-533
rar	-534
gen	-535
ända	-536
rofet	-537
▁åter	-538
▁vatt	-539
▁gr	-540
▁håll	-541
▁landet	-542
▁stad	-543
ist	-544
ju	-545
ock	-546
▁hos	-547
▁sådan	-548
des	-549
undra	-550
▁tillbaka	-551
▁tre	-552
▁bå	-553
▁profet	-554
ära	-555
orna	-556
ningar	-557
▁gav	-558
▁rättfärd	-559
▁låta	-560
eh	-561
▁kv	-562
aren	-563
samm	-564
▁sm	-565
▁rö	-566
▁släkt	-567
nat	-568
▁Om	-569
stad	-570
▁lag	-571
▁stor	-572
iterna	-573
▁Egypt	-574
hö	-575
ärl	-576
▁dagen	-577
▁hundra	-578
ets	-579
▁äl	-580
aul	-581
yr	-582
▁ja	-583
▁Den	-584
▁haven	-585
▁he	-586
liga	-587
ånga	-588
▁huru	-589
▁myck	-590
▁bes	-591
▁ansi	-592
ord	-593
▁vå	-594
ännu	-595
▁ännu	-596
ron	-597
▁taga	-598
yd	-599
▁her	-600
▁tag	-601
▁vis	-602
▁intet	-603
ug	-604
▁hustr	-605
usen	-606
▁såg	-607
▁El	-608
▁kommit	-609
lighet	-610
sl	-611
ött	-612
riv	-613
nad	-614
▁bröder	-615
ligt	-616
▁fråg	-617
▁lö	-618
▁ställ	-619
▁ä	-620
lar	-621
ingo	-622
rist	-623
▁gl	-624
▁huv	-625
opp	-626
uld	-627
▁satt	-628
▁samm	-629
▁tusen	-630
rog	-631
▁Se	-632
▁bliver	-633
ej	-634
ter	-635
▁bet	-636
▁dit	-637
▁omk	-638
pa	-639
▁em	-640
▁höra	-641
▁stod	-642
▁åstad	-643
jur	-644
▁hem	-645
▁berg	-646
▁denne	-647
iss	-648
▁Du	-649
agt	-650
▁kr	-651
▁vin	-652
▁kvar	-653
▁sö	-654
▁förd	-655
▁fem	-656
▁sto	-657
unn	-658
ling	-659
se	-660
ige	-661
ält	-662
▁ti	-663
rade	-664
▁ända	-665
▁str	-666
▁full	-667
▁emot	-668
▁staden	-669
est	-670
▁kall	-671
▁fick	-672
▁många	-673
▁död	-674
▁gud	-675
▁ansikte	-676
▁rik	-677
▁också	-678
ånd	-679
▁mån	-680
▁förl	-681
▁omkring	-682
▁Krist	-683
▁kunna	-684
▁talade	-685
ika	-686
▁rop	-687
änd	-688
▁bef	-689
▁finn	-690
▁hjärta	-691
bar	-692
▁kro	-693
▁fast	-694
▁försam	-695
ätta	-696
ma	-697
▁kommo	-698
.'	-699
ster	-700
▁himmelen	-701
mar	-702
▁går	-703
▁allen	-704
▁ol	-705
▁jäm	-706
▁äta	-707
▁vatten	-708
▁stå	-709
▁synd	-710
ien	-711
nan	-712
▁eftersom	-713
bet	-714
ret	-715
Jag	-716
▁eld	-717
▁tro	-718
▁fäder	-719
▁plats	-720
sammans	-721
▁mycket	-722
▁bj	-723
▁lär	-724
▁dagar	-725
▁fall	-726
▁hålla	-727
räck	-728
▁städer	-729
▁bro	-730
▁föd	-731
ytt	-732
ades	-733
oder	-734
▁utg	-735
▁drog	-736
▁sände	-737
änt	-738
▁Jak	-739
▁vitt	-740
▁sid	-741
je	-742
▁måste	-743
▁människor	-744
▁Saul	-745
dom	-746
▁förs	-747
▁bed	-748
▁förde	-749
▁slag	-750
ib	-751
▁ska	-752
▁sagt	-753
▁Jakob	-754
trä	-755
▁offer	-756
▁döda	-757
▁ly	-758
▁tala	-759
▁huvud	-760
▁givit	-761
▁fräl	-762
▁läng	-763
▁nåd	-764
ers	-765
▁Seb	-766
▁alt	-767
ger	-768
▁All	-769
eder	-770
▁Sal	-771
▁hustru	-772
kl	-773
▁best	-774
▁gång	-775
▁mun	-776
▁Sedan	-777
▁hennes	-778
sen	-779
väl	-780
▁För	-781
yll	-782
▁og	-783
▁blod	-784
bl	-785
▁vare	-786
jung	-787
▁tillh	-788
▁bud	-789
▁guld	-790
▁händer	-791
ons	-792
▁helg	-793
▁broder	-794
ack	-795
▁Därför	-796
yra	-797
▁off	-798
erligen	-799
▁stora	-800
▁Därefter	-801
▁näm	-802
▁vre	-803
▁allenast	-804
▁oren	-805
▁uppen	-806
öj	-807
▁lov	-808
▁hörde	-809
sta	-810
kom	-811
▁Ah	-812
▁sten	-813
▁heller	-814
▁lig	-815
▁följ	-816
▁ren	-817
rätt	-818
▁moder	-819
äk	-820
▁svärd	-821
dens	-822
▁reg	-823
▁våra	-824
▁hjärt	-825
▁kvinn	-826
▁samma	-827
▁arv	-828
▁förv	-829
ir	-830
▁både	-831
▁ville	-832
um	-833
▁Aron	-834
▁sätt	-835
▁finnes	-836
på	-837
▁Det	-838
rick	-839
▁Var	-840
▁tän	-841
net	-842
ifrån	-843
▁dock	-844
▁prästen	-845
ått	-846
▁vilja	-847
▁kött	-848
▁dom	-849
sig	-850
tio	-851
▁vilken	-852
ida	-853
edom	-854
ärningar	-855
ett	-856
▁vä	-857
▁fien	-858
▁gott	-859
▁uppenbar	-860
▁fur	-861
▁fött	-862
▁själva	-863
öt	-864
▁kunde	-865
gel	-866
änna	-867
▁san	-868
▁port	-869
▁and	-870
▁röst	-871
till	-872
lade	-873
▁natt	-874
▁drick	-875
▁häm	-876
▁herre	-877
▁Egypten	-878
ars	-879
▁föra	-880
▁lj	-881
▁arbet	-882
▁varit	-883
fö	-884
▁sil	-885
isa	-886
▁An	-887
ål	-888
ark	-889
▁Kristus	-890
öm	-891
▁tron	-892
▁blevo	-893
▁kropp	-894
erk	-895
▁sam	-896
▁tjug	-897
▁försk	-898
▁En	-899
▁gingo	-900
red	-901
▁nämligen	-902
eck	-903
udakt	-904
agen	-905
▁räd	-906
▁höv	-907
orgon	-908
otter	-909
▁Detta	-910
▁bränn	-911
▁framför	-912
▁ogudakt	-913
sten	-914
▁förk	-915
▁stam	-916
uk	-917
▁kärl	-918
igen	-919
▁vilka	-920
raft	-921
▁akt	-922
▁Salom	-923
ub	-924
▁gläd	-925
▁veta	-926
▁födde	-927
▁strid	-928
edel	-929
▁rättfärdighet	-930
▁ande	-931
▁morgon	-932
▁konungens	-933
sb	-934
▁verk	-935
▁U	-936
▁Seba	-937
▁silver	-938
era	-939
jär	-940
ven	-941
▁go	-942
▁fatt	-943
▁kast	-944
▁begyn	-945
▁heliga	-946
▁finna	-947
▁giver	-948
▁välsig	-949
éernas	-950
▁ont	-951
▁makt	-952
▁sidan	-953
ilist	-954
▁miss	-955
▁satte	-956
▁fördär	-957
▁hed	-958
▁dotter	-959
org	-960
▁fått	-961
alt	-962
▁bygg	-963
▁hjäl	-964
ningen	-965
▁annan	-966
▁skriv	-967
▁Jos	-968
▁Sam	-969
▁dött	-970
▁träd	-971
▁förm	-972
▁tiden	-973
dar	-974
vid	-975
äpp	-976
▁högt	-977
▁kraft	-978
▁filist	-979
»,	-980
ell	-981
ham	-982
ile	-983
tal	-984
onde	-985
▁förbund	-986
▁beh	-987
▁Bet	-988
▁draga	-989
▁Fara	-990
▁frågade	-991
▁läm	-992
▁båda	-993
▁älsk	-994
▁jämte	-995
aret	-996
▁slog	-997
▁vrede	-998
▁Egyptens	-999
sar	-1000
iten	-1001
ingar	-1002
▁onda	-1003
▁bära	-1004
▁kläder	-1005
▁lärjung	-1006
nas	-1007
▁På	-1008
▁del	-1009
ua	-1010
ipp	-1011
▁öpp	-1012
▁förr	-1013
▁undan	-1014
▁Sebaot	-1015
▁far	-1016
▁ing	-1017
▁funn	-1018
star	-1019
ycka	-1020
▁jud	-1021
▁vän	-1022
▁fång	-1023
▁havet	-1024
▁uppst	-1025
▁arvedel	-1026
pel	-1027
▁ök	-1028
▁hit	-1029
▁föll	-1030
ina	-1031
▁låg	-1032
▁varandra	-1033
▁drä	-1034
▁fyra	-1035
▁leva	-1036
▁ljus	-1037
abb	-1038
▁Man	-1039
dat	-1040
ellan	-1041
ärning	-1042
▁mannen	-1043
här	-1044
jut	-1045
▁sex	-1046
▁förn	-1047
▁barns	-1048
▁därefter	-1049
onen	-1050
▁vägen	-1051
änner	-1052
▁Fader	-1053
▁sådant	-1054
fl	-1055
udit	-1056
unt	-1057
▁vände	-1058
▁Ben	-1059
▁mör	-1060
▁råd	-1061
ännen	-1062
giv	-1063
▁Sim	-1064
▁dör	-1065
▁främ	-1066
▁lång	-1067
▁likas	-1068
▁talat	-1069
▁tjugu	-1070
osef	-1071
ttio	-1072
▁lade	-1073
oning	-1074
▁bröd	-1075
▁ske	-1076
▁befall	-1077
▁vidare	-1078
▁gärningar	-1079
Vad	-1080
gar	-1081
med	-1082
▁höj	-1083
raham	-1084
▁djur	-1085
▁höll	-1086
▁Josef	-1087
▁förkun	-1088
tte	-1089
vo	-1090
▁eg	-1091
▁prästerna	-1092
▁Bab	-1093
▁vem	-1094
▁äld	-1095
▁öknen	-1096
▁Davids	-1097
▁Salomo	-1098
essa	-1099
▁ära	-1100
▁låtit	-1101
▁vända	-1102
▁sönder	-1103
▁fiender	-1104
▁tjänst	-1105
ias	-1106
▁el	-1107
▁ov	-1108
ästa	-1109
örd	-1110
▁fann	-1111
▁ären	-1112
▁Abraham	-1113
▁öv	-1114
▁står	-1115
▁vilk	-1116
▁förut	-1117
▁döttrar	-1118
▁skaff	-1119
▁tack	-1120
▁tillsammans	-1121
gå	-1122
▁runt	-1123
▁några	-1124
▁härlighet	-1125
stra	-1126
▁fly	-1127
▁for	-1128
Du	-1129
ah	-1130
▁teck	-1131
liv	-1132
▁Si	-1133
arnas	-1134
▁alnar	-1135
▁mellan	-1136
Var	-1137
▁fyr	-1138
▁bjudit	-1139
ser	-1140
▁skö	-1141
▁helgedom	-1142
▁människa	-1143
pen	-1144
▁tung	-1145
▁offra	-1146
▁slakt	-1147
▁brännoffer	-1148
▁bod	-1149
▁stra	-1150
▁förstånd	-1151
sh	-1152
jas	-1153
▁sätta	-1154
▁bön	-1155
▁drag	-1156
▁bodde	-1157
▁reger	-1158
▁länge	-1159
▁missg	-1160
▁krig	-1161
ust	-1162
▁sak	-1163
▁igen	-1164
▁stör	-1165
▁Ef	-1166
▁tem	-1167
pl	-1168
rus	-1169
▁Isa	-1170
▁mur	-1171
▁värl	-1172
▁likasom	-1173
▁Dessa	-1174
åller	-1175
rå	-1176
res	-1177
ordan	-1178
▁leviterna	-1179
▁veder	-1180
▁ena	-1181
▁tio	-1182
▁ropade	-1183
atan	-1184
▁hövd	-1185
kall	-1186
▁grä	-1187
▁lägga	-1188
▁kvinna	-1189
ok	-1190
▁ås	-1191
elser	-1192
▁dricka	-1193
▁Josua	-1194
Så	-1195
ng	-1196
rig	-1197
▁Vad	-1198
▁tol	-1199
▁gått	-1200
!»	-1201
ård	-1202
ömm	-1203
▁le	-1204
▁Babel	-1205
▁låter	-1206
▁medan	-1207
▁äldste	-1208
▁hjärtan	-1209
kar	-1210
▁fot	-1211
ältet	-1212
▁fötter	-1213
ana	-1214
jorde	-1215
jam	-1216
oab	-1217
ämm	-1218
ende	-1219
hel	-1220
ycken	-1221
▁därav	-1222
▁fingo	-1223
jen	-1224
jer	-1225
sman	-1226
▁orätt	-1227
▁alltså	-1228
▁natten	-1229
▁bor	-1230
▁vart	-1231
▁fräls	-1232
▁släkte	-1233
äv	-1234
das	-1235
▁ät	-1236
▁förskräck	-1237
Se	-1238
▁sy	-1239
▁kal	-1240
▁altaret	-1241
iel	-1242
vis	-1243
▁by	-1244
▁god	-1245
▁döden	-1246
▁gudar	-1247
fta	-1248
iska	-1249
▁pri	-1250
▁skri	-1251
▁Farao	-1252
▁därpå	-1253
▁redan	-1254
▁första	-1255
▁månaden	-1256
▁inv	-1257
men	-1258
▁dra	-1259
▁utr	-1260
▁hört	-1261
▁besitt	-1262
▁vittnes	-1263
åda	-1264
▁rike	-1265
▁huset	-1266
▁ängel	-1267
▁överste	-1268
sp	-1269
▁red	-1270
▁trö	-1271
▁faders	-1272
▁skam	-1273
▁därtill	-1274
▁jordens	-1275
▁kallade	-1276
▁vittnesb	-1277
sö	-1278
fyll	-1279
▁räk	-1280
▁bröt	-1281
▁goda	-1282
▁häl	-1283
▁mar	-1284
ammal	-1285
▁konungar	-1286
edje	-1287
▁kor	-1288
▁utv	-1289
▁ytt	-1290
jamin	-1291
ås	-1292
rev	-1293
▁säd	-1294
▁vag	-1295
▁sett	-1296
▁edert	-1297
▁tredje	-1298
ningarna	-1299
ti	-1300
fte	-1301
höv	-1302
ygga	-1303
elsen	-1304
▁Efra	-1305
enskap	-1306
▁tillhör	-1307
lö	-1308
▁hop	-1309
▁hopp	-1310
▁stygg	-1311
▁äg	-1312
▁ung	-1313
▁hung	-1314
▁stri	-1315
▁folken	-1316
elset	-1317
▁tolv	-1318
▁vand	-1319
lingen	-1320
▁falla	-1321
▁alltid	-1322
▁ligger	-1323
▁därifrån	-1324
▁Herre	-1325
▁Jordan	-1326
off	-1327
uel	-1328
▁ör	-1329
▁Nej	-1330
bland	-1331
▁togo	-1332
▁helig	-1333
▁hjälp	-1334
▁marken	-1335
▁fördärv	-1336
ela	-1337
håll	-1338
▁ser	-1339
▁svär	-1340
▁våld	-1341
▁högra	-1342
arn	-1343
▁gra	-1344
öl	-1345
oden	-1346
▁nöd	-1347
▁fjär	-1348
▁annat	-1349
▁lever	-1350
bb	-1351
ikt	-1352
följ	-1353
▁slut	-1354
▁känna	-1355
▁talar	-1356
▁glädje	-1357
ärde	-1358
▁sång	-1359
▁visa	-1360
▁Efraim	-1361
fall	-1362
ften	-1363
▁övr	-1364
nelse	-1365
innerligen	-1366
▁Ä	-1367
▁ih	-1368
▁fråga	-1369
▁tagit	-1370
▁förlåt	-1371
▁tjänar	-1372
▁evinnerligen	-1373
▁inb	-1374
▁sänt	-1375
▁stodo	-1376
▁ibland	-1377
▁vandra	-1378
höj	-1379
ost	-1380
▁Av	-1381
anna	-1382
skil	-1383
▁före	-1384
▁kärlek	-1385
▁levande	-1386
Det	-1387
aal	-1388
rag	-1389
▁avg	-1390
▁led	-1391
▁lej	-1392
▁boskap	-1393
▁håller	-1394
▁tempel	-1395
esa	-1396
▁bär	-1397
▁världen	-1398
vor	-1399
▁Fr	-1400
▁ny	-1401
ldrig	-1402
▁kvinnor	-1403
sd	-1404
▁tager	-1405
skar	-1406
smän	-1407
▁Jon	-1408
▁fam	-1409
▁gammal	-1410
▁synder	-1411
▁vishet	-1412
▁besittning	-1413
ant	-1414
eam	-1415
▁sol	-1416
oppar	-1417
ställ	-1418
▁frid	-1419
▁sabb	-1420
▁spis	-1421
▁drogo	-1422
▁ligga	-1423
▁tecken	-1424
▁missgärning	-1425
▁kö	-1426
▁ot	-1427
ryck	-1428
▁Pet	-1429
▁hal	-1430
▁träl	-1431
▁ving	-1432
▁begynte	-1433
uck	-1434
ören	-1435
aulus	-1436
▁bred	-1437
lingar	-1438
▁Paulus	-1439
▁stadgar	-1440
lja	-1441
▁Moab	-1442
▁fröj	-1443
▁jord	-1444
▁sons	-1445
mod	-1446
▁Joh	-1447
▁Benjamin	-1448
▁fara	-1449
▁utrot	-1450
▁vägar	-1451
▁lagen	-1452
▁uppfyll	-1453
▁St	-1454
visa	-1455
▁lika	-1456
▁männen	-1457
▁övriga	-1458
▁släkter	-1459
röv	-1460
▁egen	-1461
▁Petrus	-1462
ädur	-1463
▁fanns	-1464
▁förnimm	-1465
jän	-1466
▁pen	-1467
▁förh	-1468
ligare	-1469
▁Jerem	-1470
▁följde	-1471
äp	-1472
folk	-1473
▁und	-1474
präst	-1475
▁steg	-1476
▁lärjungar	-1477
upp	-1478
▁hat	-1479
▁oför	-1480
▁sjun	-1481
▁upph	-1482
▁intill	-1483
▁sådana	-1484
▁förbliv	-1485
▁aft	-1486
▁Ande	-1487
▁skatt	-1488
▁ytter	-1489
▁berget	-1490
annerligen	-1491
fat	-1492
▁Allt	-1493
▁Jesu	-1494
▁grän	-1495
▁Manas	-1496
▁behag	-1497
▁utför	-1498
▁Kristi	-1499
▁finnas	-1500
▁länder	-1501
inga	-1502
▁sky	-1503
▁lott	-1504
▁hemsö	-1505
▁frälsning	-1506
umm	-1507
▁bätt	-1508
▁stället	-1509
▁rättfärdig	-1510
▁överstepräst	-1511
▁ed	-1512
uden	-1513
▁Neb	-1514
▁utt	-1515
offret	-1516
▁fastän	-1517
arm	-1518
ygd	-1519
▁barm	-1520
▁invån	-1521
iternas	-1522
▁förnimma	-1523
',	-1524
rens	-1525
▁rädda	-1526
▁bel	-1527
▁söka	-1528
▁bygga	-1529
▁hämta	-1530
▁varda	-1531
▁vädur	-1532
▁förtör	-1533
▁koppar	-1534
▁olycka	-1535
rott	-1536
▁tor	-1537
▁öde	-1538
ilead	-1539
▁döds	-1540
▁aldrig	-1541
▁uppenbarelset	-1542
aft	-1543
rik	-1544
dade	-1545
▁ben	-1546
▁slå	-1547
larna	-1548
igenom	-1549
▁vattnet	-1550
▁himmelens	-1551
mer	-1552
ran	-1553
kten	-1554
ydde	-1555
▁Huru	-1556
▁häst	-1557
▁olja	-1558
▁strö	-1559
▁fullb	-1560
▁profeten	-1561
▁profeter	-1562
▁Am	-1563
▁däri	-1564
▁kläd	-1565
▁lamm	-1566
annade	-1567
▁menighet	-1568
Om	-1569
▁Låt	-1570
▁bry	-1571
▁dju	-1572
ången	-1573
▁Joab	-1574
▁uppt	-1575
▁andre	-1576
▁stort	-1577
▁sända	-1578
▁arbete	-1579
▁övergiv	-1580
föd	-1581
▁Amm	-1582
▁Asa	-1583
▁frukta	-1584
▁furstar	-1585
▁väx	-1586
samma	-1587
▁egypt	-1588
▁Herrens	-1589
▁befallning	-1590
gn	-1591
jäl	-1592
▁In	-1593
älla	-1594
▁fåg	-1595
▁klipp	-1596
▁filistéerna	-1597
ärn	-1598
härt	-1599
▁lju	-1600
▁driv	-1601
▁mörk	-1602
▁tjäna	-1603
▁Har	-1604
▁hette	-1605
▁förrän	-1606
▁trädde	-1607
▁het	-1608
annes	-1609
▁Gilead	-1610
▁trettio	-1611
▁människorna	-1612
ner	-1613
träd	-1614
örde	-1615
▁rök	-1616
▁snar	-1617
▁vakt	-1618
▁Samuel	-1619
ry	-1620
man	-1621
aria	-1622
inne	-1623
▁dal	-1624
▁enda	-1625
▁nära	-1626
▁Efter	-1627
▁lejon	-1628
▁stamm	-1629
▁boning	-1630
▁därmed	-1631
▁skaffa	-1632
▁barmhärt	-1633
De	-1634
vär	-1635
▁sn	-1636
amla	-1637
▁mat	-1638
äckte	-1639
▁områ	-1640
▁vore	-1641
▁träff	-1642
▁berätt	-1643
Her	-1644
bär	-1645
▁ond	-1646
▁Hisk	-1647
▁Isak	-1648
Varför	-1649
▁begär	-1650
▁given	-1651
▁tänkte	-1652
▁Jeremia	-1653
▁hedningarna	-1654
▁nog	-1655
marker	-1656
▁Varför	-1657
▁vittnesbörd	-1658
jöl	-1659
ssy	-1660
▁ro	-1661
bara	-1662
▁nor	-1663
aberna	-1664
▁öster	-1665
▁femtio	-1666
▁förgås	-1667
▁kommen	-1668
▁allasammans	-1669
▁kn	-1670
skur	-1671
slag	-1672
▁Hans	-1673
▁förö	-1674
▁mätt	-1675
▁långt	-1676
▁fyrtio	-1677
▁stannade	-1678
▁Vid	-1679
▁hug	-1680
▁sen	-1681
▁Baal	-1682
▁åker	-1683
▁slags	-1684
sår	-1685
▁ry	-1686
unda	-1687
▁dår	-1688
▁fri	-1689
▁bjöd	-1690
▁tjur	-1691
▁församlade	-1692
ef	-1693
Låt	-1694
app	-1695
int	-1696
opa	-1697
oses	-1698
▁Eli	-1699
▁Ham	-1700
▁Hon	-1701
▁ang	-1702
▁sågo	-1703
▁famil	-1704
▁byggde	-1705
▁Johannes	-1706
▁regering	-1707
▁församling	-1708
▁Nu	-1709
▁arm	-1710
▁dog	-1711
derna	-1712
▁evig	-1713
▁sorg	-1714
▁läger	-1715
▁varför	-1716
▁Manasse	-1717
▁taberna	-1718
ke	-1719
ada	-1720
len	-1721
över	-1722
▁hår	-1723
ierna	-1724
önstr	-1725
▁Alla	-1726
▁inne	-1727
▁förakt	-1728
▁sabbat	-1729
▁hustrur	-1730
▁utgjorde	-1731
ala	-1732
rat	-1733
▁Esa	-1734
▁sik	-1735
▁Dock	-1736
▁lust	-1737
▁Moses	-1738
▁gören	-1739
▁mycken	-1740
▁namnet	-1741
▁judarna	-1742
▁helgedomen	-1743
▁mark	-1744
▁strax	-1745
▁hövding	-1746
.'»	-1747
åga	-1748
▁förf	-1749
▁lyss	-1750
▁sant	-1751
▁grund	-1752
▁förfölj	-1753
▁konungs	-1754
▁spisoffer	-1755
▁profeterna	-1756
läm	-1757
ydd	-1758
▁Vi	-1759
▁yn	-1760
▁gen	-1761
▁Josa	-1762
▁eget	-1763
▁uppl	-1764
▁vårt	-1765
▁Fadern	-1766
▁känner	-1767
▁ställe	-1768
▁ställde	-1769
▁c	-1770
ama	-1771
▁Sk	-1772
fäng	-1773
delse	-1774
▁Sion	-1775
▁lära	-1776
▁stark	-1777
▁område	-1778
▁sjunde	-1779
ckså	-1780
▁mär	-1781
▁tör	-1782
▁bäck	-1783
▁ting	-1784
▁svara	-1785
ämmande	-1786
vå	-1787
eln	-1788
ild	-1789
▁am	-1790
▁bek	-1791
▁jub	-1792
deles	-1793
rätta	-1794
ssyri	-1795
▁gråt	-1796
▁skuld	-1797
▁likväl	-1798
▁syster	-1799
sg	-1800
▁Må	-1801
uset	-1802
angel	-1803
▁läpp	-1804
▁bevar	-1805
▁sitta	-1806
▁solen	-1807
▁Jerusalems	-1808
▁ef	-1809
juta	-1810
äcka	-1811
▁mjöl	-1812
▁evangel	-1813
▁förkunna	-1814
▁människob	-1815
Vi	-1816
Den	-1817
▁bu	-1818
erub	-1819
illa	-1820
utit	-1821
ycke	-1822
▁Dan	-1823
▁äng	-1824
▁skap	-1825
▁skyn	-1826
▁väld	-1827
▁rätta	-1828
▁Jakobs	-1829
▁bedröv	-1830
▁bestäm	-1831
▁tionde	-1832
▁varken	-1833
▁skrivet	-1834
uv	-1835
▁blo	-1836
ändigt	-1837
▁Hiskia	-1838
▁gånger	-1839
▁fruktan	-1840
▁tillhopa	-1841
ind	-1842
rip	-1843
▁Vem	-1844
▁ark	-1845
anter	-1846
smäkt	-1847
▁egna	-1848
▁funnit	-1849
▁kvinnan	-1850
▁överträ	-1851
▁evangeli	-1852
▁främmande	-1853
pte	-1854
utt	-1855
teck	-1856
äste	-1857
▁bad	-1858
▁sär	-1859
▁fäng	-1860
▁star	-1861
▁begav	-1862
▁särskil	-1863
▁regeringsår	-1864
dd	-1865
öda	-1866
salom	-1867
äller	-1868
▁sida	-1869
▁Såsom	-1870
▁levde	-1871
▁flydde	-1872
▁fåfäng	-1873
ea	-1874
gas	-1875
jor	-1876
kia	-1877
män	-1878
▁bak	-1879
▁tan	-1880
HERRE	-1881
▁Ahas	-1882
▁Joja	-1883
▁dörr	-1884
▁välb	-1885
smännen	-1886
▁altare	-1887
▁lägret	-1888
▁skrift	-1889
▁alldeles	-1890
▁syndoffer	-1891
kast	-1892
▁ens	-1893
▁lön	-1894
▁bitt	-1895
▁gåvo	-1896
▁inom	-1897
▁stenar	-1898
▁större	-1899
▁Absalom	-1900
▁sanning	-1901
▁utmarker	-1902
änk	-1903
elek	-1904
▁Min	-1905
▁bör	-1906
▁yng	-1907
▁tukt	-1908
landet	-1909
▁platsen	-1910
▁dyr	-1911
▁pred	-1912
▁finner	-1913
▁förtrö	-1914
▁invånare	-1915
kor	-1916
akar	-1917
jort	-1918
▁	-1919
a	-1920
e	-1921
n	-1922
r	-1923
t	-1924
s	-1925
d	-1926
l	-1927
o	-1928
i	-1929
m	-1930
h	-1931
g	-1932
k	-1933
v	-1934
ä	-1935
u	-1936
f	-1937
å	-1938
c	-1939
,	-1940
ö	-1941
b	-1942
p	-1943
.	-1944
j	-1945
E	-1946
y	-1947
R	-1948
H	-1949
»	-1950
;	-1951
S	-1952
D	-1953
N	-1954
O	-1955
:	-1956
J	-1957
I	-1958
M	-1959
G	-1960
A	-1961
?	-1962
-	-1963
T	-1964
V	-1965
B	-1966
'	-1967
F	-1968
K	-1969
L	-1970
P	-1971
é	-1972
!	-1973
x	-1974
U	-1975
Ä	-1976
Å	-1977
Ö	-1978
(	-1979
)	-1980
C	-1981
Y	-1982
2	-1983
0	-1984
4	-1985
6	-1986
1	-1987
8	-1988
9	-1989
ó	-1990
3	-1991
5	-1992
7	-1993
í	-1994
]	-1995
á	-1996
