<pad>	0
</s>	0
<unk>	0
▁	-3.9003
▁के	-3.92924
▁है	-4.10106
।	-4.25157
,	-4.28153
▁और	-4.32015
▁में	-4.34094
र	-4.41257
न	-4.45022
▁की	-4.48706
ी	-4.50339
ल	-4.53162
ा	-4.60813
▁से	-4.68055
क	-4.74143
▁को	-4.77969
▁का	-4.80363
त	-4.81469
ों	-4.83146
े	-4.92584
)	-4.9426
स	-4.97608
म	-4.98273
▁(	-5.00827
ो	-5.17029
.	-5.18701
▁कि	-5.22401
-	-5.23046
ता	-5.23935
▁पर	-5.27269
ि	-5.29094
▁हैं	-5.29928
प	-5.31491
▁आ	-5.35904
ं	-5.38271
▁अ	-5.3848
▁एक	-5.39
ु	-5.40231
ने	-5.40532
ह	-5.41399
▁न	-5.438
ना	-5.4438
▁लिए	-5.45223
ित	-5.45621
ट	-5.47256
व	-5.52965
य	-5.56101
द	-5.5738
▁तो	-5.58325
▁नहीं	-5.61108
▁जो	-5.62319
▁हो	-5.67056
▁भी	-5.69477
ू	-5.69773
ज	-5.71637
ब	-5.72706
▁कर	-5.77221
▁प्र	-5.77362
▁ने	-5.81122
▁स	-5.84318
श	-5.84613
▁ब	-5.85959
▁किया	-5.89915
च	-5.89936
▁यह	-5.91755
ला	-5.9282
ग	-5.94303
िक	-5.94325
▁ही	-5.95494
▁इस	-5.95886
र्	-5.9631
▁वि	-5.96311
▁क	-5.9767
्य	-5.98355
रा	-6.01392
ते	-6.02668
▁या	-6.02754
▁वह	-6.02866
▁करने	-6.08792
▁म	-6.0899
ण	-6.09968
ख	-6.12179
ड	-6.12395
▁सं	-6.13074
्	-6.13958
ें	-6.15056
ै	-6.1516
या	-6.15631
ए	-6.16401
▁ग	-6.17881
▁प	-6.17948
री	-6.20164
▁तुम	-6.21509
फ	-6.23432
वा	-6.2872
का	-6.28774
▁अपने	-6.29885
▁था	-6.32314
ध	-6.324
कर	-6.32719
▁द	-6.35295
▁नि	-6.36595
▁ह	-6.36811
क्ष	-6.36857
▁वे	-6.3733
▁व	-6.37532
ती	-6.38169
▁जा	-6.38342
नी	-6.39036
▁फ	-6.40531
▁ज	-6.41376
ियों	-6.41777
▁सा	-6.43683
ज़	-6.43952
भ	-6.44454
▁च	-6.45248
▁गया	-6.47144
▁त	-6.48092
▁तथा	-6.48241
à	-6.48563
सा	-6.49946
मा	-6.50451
▁कुछ	-6.51356
▁हम	-6.53209
ली	-6.54913
▁किसी	-6.54935
▁उ	-6.56069
ति	-6.56729
0	-6.59504
▁साथ	-6.59853
वि	-6.61317
ंग	-6.62362
ओं	-6.63227
ॉ	-6.63417
e	-6.63517
त्र	-6.63573
▁रूप	-6.64371
▁कोई	-6.65301
▁श	-6.67209
स्त	-6.67979
▁ले	-6.68205
ौ	-6.6851
▁उनके	-6.6869
दा	-6.68851
रे	-6.69321
▁मु	-6.69365
▁भ	-6.6971
ड़	-6.70597
▁थे	-6.70687
▁मा	-6.7072
थ	-6.71384
▁द्वारा	-6.7177
स्	-6.71903
a	-6.7191
i	-6.73123
▁लोग	-6.73793
▁जब	-6.76434
▁करते	-6.76823
गा	-6.77034
¤	-6.77104
▁आप	-6.77333
▁लोगों	-6.78463
▁ए	-6.78666
▁पा	-6.79158
ाई	-6.79224
▁दिया	-6.79396
ठ	-6.79941
▁दे	-6.80111
न्	-6.80522
▁तक	-6.81494
▁भारत	-6.82252
ः	-6.82266
िया	-6.83432
ले	-6.83491
▁फिर	-6.84455
की	-6.85254
ीय	-6.85313
्र	-6.86199
▁कहा	-6.86437
▁रह	-6.86454
ाय	-6.86887
कार	-6.87287
्या	-6.8766
ल्	-6.89807
ष	-6.9052
त्	-6.91228
▁ये	-6.9131
t	-6.91616
▁बा	-6.91836
/	-6.91861
▁दो	-6.91916
▁इ	-6.92029
क्	-6.92319
रण	-6.92619
▁रहे	-6.9269
नि	-6.92812
▁करें	-6.9283
▁ख	-6.93376
▁ला	-6.93418
▁उस	-6.93672
?	-6.93755
▁प्रति	-6.9383
▁जाता	-6.93858
▁उसके	-6.95045
भा	-6.95236
▁क्या	-6.95938
▁"	-6.96978
▁कार्य	-6.97274
▁अल्लाह	-6.98376
▁ल	-6.98455
श्	-6.98615
सी	-6.9895
▁करना	-6.99556
▁उप	-6.99776
▁ख़ुदा	-7.00513
▁अपनी	-7.00918
▁थी	-7.01235
▁छ	-7.01325
▁उन	-7.01928
ंद	-7.0194
अ	-7.02207
लि	-7.03069
▁घ	-7.04085
▁अधिक	-7.04479
▁बात	-7.05174
%	-7.05363
ई	-7.05548
क़	-7.06253
जा	-7.06422
▁हुए	-7.06557
▁स्व	-7.07081
▁अनु	-7.07121
फ़	-7.0756
ाइ	-7.0777
मान	-7.09056
▁मैं	-7.09522
▁उन्हें	-7.09667
शा	-7.10681
टा	-7.10692
▁ड	-7.10717
▁करता	-7.11724
ृ	-7.1247
ंड	-7.1311
▁होता	-7.13816
▁कह	-7.1403
के	-7.14648
▁इन	-7.15634
▁सकता	-7.15788
न्द	-7.15883
▁रहा	-7.15941
▁दी	-7.16113
o	-7.16689
▁उसे	-7.17416
को	-7.17476
प्र	-7.17593
▁बहुत	-7.18591
;	-7.1893
s	-7.19408
▁सु	-7.19828
▁देख	-7.20589
▁मिल	-7.21465
▁समय	-7.22704
▁दिन	-7.22832
▁सि	-7.23449
2	-7.23788
रि	-7.24092
l	-7.24289
:	-7.24479
▁कम	-7.24775
से	-7.24939
ान	-7.2684
आ	-7.26855
▁बाद	-7.27762
▁खा	-7.28322
▁र	-7.28673
8	-7.29007
▁पु	-7.29987
▁हि	-7.3009
▁सम	-7.31229
बा	-7.32286
▁तरह	-7.32406
टी	-7.3251
▁ध	-7.32734
▁वाले	-7.33121
▁स्	-7.33139
एँ	-7.33174
▁रख	-7.33596
5	-7.33831
▁उन्होंने	-7.34124
▁मि	-7.34151
▁बना	-7.34256
▁हुआ	-7.34314
▁1	-7.34825
ाँ	-7.34979
▁पास	-7.3575
▁पहले	-7.361
दी	-7.37217
▁देश	-7.37482
▁2	-7.37591
▁ट	-7.37628
6	-7.37744
्स	-7.37892
ये	-7.38096
▁हमने	-7.39219
▁कु	-7.39535
▁सब	-7.39763
ंच	-7.39822
1	-7.39906
चा	-7.40677
पर	-7.40767
▁अन्य	-7.41019
गी	-7.41022
▁होगा	-7.41117
▁मान	-7.41484
▁उनकी	-7.41769
▁तुम्हारे	-7.41872
▁यदि	-7.42027
▁परि	-7.42072
ही	-7.4241
▁गई	-7.43029
▁प्राप्त	-7.43177
▁काम	-7.43489
झ	-7.43541
यों	-7.43674
िका	-7.43923
▁गए	-7.43925
मी	-7.4393
▁सरकार	-7.44249
7	-7.44521
स्थ	-7.44646
▁ओर	-7.44817
▁जिस	-7.45062
▁वर्ष	-7.45194
▁करो	-7.45221
दार	-7.45586
वाद	-7.45881
ाव	-7.45979
▁वा	-7.46046
जी	-7.46048
▁क्षेत्र	-7.4626
▁सभी	-7.46757
पा	-7.47382
9	-7.47459
▁नाम	-7.47878
▁ऐसे	-7.47912
m	-7.4793
▁व्यक्ति	-7.47967
▁राज्य	-7.48103
एं	-7.48571
▁हमारे	-7.486
▁क़	-7.48661
द्ध	-7.48712
▁राष्ट्रपति	-7.48903
▁होने	-7.49196
r	-7.49695
िल	-7.50309
वी	-7.50344
▁सी	-7.50615
‍	-7.50628
ग्र	-7.50949
c	-7.51469
▁सकते	-7.51524
स्ट	-7.51945
▁राज	-7.51995
▁प्रकार	-7.52054
ष्ट	-7.52092
▁19	-7.52373
▁मे	-7.52643
▁चाहिए	-7.53135
त्त	-7.53427
4	-7.53629
ँ	-7.54127
उ	-7.54446
▁जिन	-7.55446
▁इसके	-7.55498
▁रा	-7.55664
▁गु	-7.55981
िंग	-7.5599
क्त	-7.57113
▁ख़	-7.57915
हा	-7.58092
▁उसकी	-7.58365
देश	-7.58569
3	-7.58704
तर	-7.58987
▁बे	-7.59291
इ	-7.59304
▁आय	-7.59583
चार	-7.59599
▁s	-7.60094
▁होती	-7.60237
घ	-7.6029
▁किए	-7.60292
टे	-7.60341
▁समझ	-7.60969
▁ज़	-7.6132
युक्त	-7.6179
▁बि	-7.62004
▁सह	-7.62551
▁जाने	-7.62571
▁ईमान	-7.62919
▁भारतीय	-7.63208
वे	-7.63399
कों	-7.63533
में	-7.63646
खा	-7.64086
▁अभि	-7.64143
मि	-7.64449
▁अगर	-7.6452
d	-7.64781
▁शा	-7.64892
▁एवं	-7.65203
▁ऐसा	-7.65222
त्व	-7.65423
u	-7.66786
▁20	-7.66838
▁पूर्व	-7.67016
▁विकास	-7.6711
▁मो	-7.67543
▁अब	-7.6841
▁कारण	-7.68415
ग़	-7.68891
क्र	-7.69012
र्म	-7.69093
ष्	-7.69369
दर्श	-7.69972
▁हर	-7.70033
▁दु	-7.7011
!	-7.70183
▁मुझे	-7.70636
▁रसूल	-7.70821
गत	-7.70929
ढ़	-7.7106
मे	-7.71155
▁हुई	-7.71453
▁(_	-7.71805
▁महा	-7.71815
▁फ़	-7.71815
▁चल	-7.71926
ेंगे	-7.72147
ज़ा	-7.72241
▁लगा	-7.72256
्व	-7.72356
गे	-7.73117
धान	-7.73369
▁अव	-7.73731
ओ	-7.73975
h	-7.74475
▁दिखा	-7.74484
ंस	-7.74733
"	-7.74852
p	-7.74857
वाह	-7.74944
छ	-7.75594
▁पड़	-7.75794
लो	-7.75842
ब्	-7.76027
ेट	-7.76433
'	-7.76465
बर	-7.76492
पी	-7.76511
हर	-7.76686
ंट	-7.78219
▁अधिकार	-7.78555
र्थ	-7.78665
▁लेकिन	-7.78682
▁उसने	-7.78708
मत	-7.79174
▁लिया	-7.79432
▁जाती	-7.79511
ड़ा	-7.79563
रो	-7.79581
▁दोनों	-7.8022
▁क्र	-7.80422
डी	-7.8118
▁तुम्हें	-7.812
बी	-7.81556
िय	-7.81678
▁अपना	-7.81776
00	-7.82072
सं	-7.82307
▁शि	-7.82333
म्	-7.82832
▁व्य	-7.83323
▁जीवन	-7.83624
दू	-7.83627
▁उपयोग	-7.84003
▁ऐसी	-7.841
गर	-7.8412
ज्ञा	-7.84549
शन	-7.84575
▁जाए	-7.84851
द्र	-7.84934
▁विशेष	-7.84972
ंक	-7.85135
कि	-7.85253
▁बन	-7.85451
जि	-7.85515
▁मह	-7.86314
▁ना	-7.86525
ऐ	-7.86537
न्न	-7.86576
▁भाग	-7.86782
चित	-7.86915
ांत	-7.87089
▁सर्व	-7.87154
▁होते	-7.8735
▁बु	-7.87645
▁पी	-7.87737
▁प्रदान	-7.87791
▁रही	-7.87822
▁3	-7.88132
▁दा	-7.88281
▁बारे	-7.88785
▁बीच	-7.88833
दे	-7.88998
धि	-7.89052
▁संबंध	-7.89348
▁लिख	-7.89495
व्य	-7.9024
▁वाला	-7.90401
शु	-7.90412
हि	-7.90757
▁बार	-7.90858
▁ता	-7.91263
्यू	-7.91382
ोर	-7.91455
ड़े	-7.91659
था	-7.91659
y	-7.91866
S	-7.92134
ड़ी	-7.92138
राम	-7.9218
▁प्रा	-7.92234
▁जैसे	-7.92484
▁श्री	-7.92838
पन	-7.92956
▁ई	-7.93116
▁'	-7.93405
।"	-7.93728
सू	-7.93894
▁उसका	-7.94809
जन	-7.94881
▁à	-7.95164
▁आधार	-7.95421
▁डाल	-7.95516
नों	-7.96852
ऊ	-7.97201
▁सेवा	-7.97669
A	-7.97903
दि	-7.98037
▁सम्	-7.98088
रु	-7.98243
ख़	-7.98256
▁भेज	-7.98364
ंज	-7.98802
▁चुन	-7.98814
▁लग	-7.98893
▁स्थान	-7.99117
तु	-7.99274
ंब	-7.99513
▁जाएगा	-7.9953
C	-7.99559
क्स	-7.99698
द्	-8.00074
बंध	-8.00195
▁डि	-8.00256
▁झ	-8.00398
वास	-8.00637
▁केवल	-8.00866
▁चीज़	-8.00887
▁अप	-8.00956
▁रब	-8.01061
तों	-8.01492
▁उनका	-8.01616
▁प्रयोग	-8.02131
▁मेरे	-8.02419
ट्र	-8.02763
▁वही	-8.02786
▁ढ	-8.0295
▁हमें	-8.03077
▁जिसमें	-8.03779
़	-8.0379
▁विचार	-8.0402
्म	-8.04571
▁आज	-8.04694
र्ड	-8.04765
▁हूँ	-8.04926
टर	-8.05054
हार	-8.05629
▁सू	-8.05711
वालों	-8.05846
▁प्रभाव	-8.05932
ियां	-8.0594
▁सके	-8.0618
ग्	-8.06403
▁निर्	-8.06502
▁ऑ	-8.06616
g	-8.07044
▁जान	-8.07127
▁चि	-8.07262
▁बदल	-8.07306
स्प	-8.07316
▁ताकि	-8.07366
ग्रह	-8.07429
तंत्र	-8.07452
▁पैदा	-8.07862
र्क	-8.08067
▁देने	-8.08344
धार	-8.0845
I	-8.08523
▁पै	-8.08543
▁जी	-8.08942
▁वाली	-8.08969
धा	-8.09051
रूप	-8.09222
▁सबसे	-8.09319
▁ऐ	-8.09421
भाव	-8.09562
वार	-8.09639
कृत	-8.09717
▁बड़ा	-8.10289
ष्ठ	-8.10356
क्षण	-8.10408
ालय	-8.10442
▁मै	-8.10581
▁बढ़	-8.10673
क्रम	-8.10745
र्ज	-8.10893
▁हा	-8.11173
बू	-8.11335
▁हमारी	-8.1159
▁तब	-8.11681
in	-8.11818
यु	-8.11848
एस	-8.11959
b	-8.12025
▁दर	-8.12047
▁सर	-8.12271
▁अधिनियम	-8.12436
▁धारा	-8.12713
ीकरण	-8.13064
▁छोड़	-8.13069
▁रे	-8.13249
▁रि	-8.13351
च्च	-8.13433
योग	-8.13492
▁रो	-8.1379
म्ब	-8.13954
▁उसी	-8.14024
जे	-8.14069
▁राष्ट्रीय	-8.14343
▁जाना	-8.14383
▁अस	-8.14494
▁इसमें	-8.14496
▁जाते	-8.1468
र्ष	-8.14874
▁देता	-8.15336
▁योजना	-8.156
फ्	-8.15845
▁इसे	-8.1622
...	-8.1677
▁घर	-8.16841
▁उत्पाद	-8.16845
यन	-8.1721
कु	-8.17374
पूर्ण	-8.1739
ट्ट	-8.1751
▁उपलब्ध	-8.17692
▁उत्तर	-8.17709
▁अथवा	-8.17824
मु	-8.18514
कल्प	-8.18565
र्ण	-8.18735
▁जिसे	-8.18853
र्द	-8.18865
▁इं	-8.19167
▁बस	-8.1937
तः	-8.19538
▁फ़ाइल	-8.19585
▁संदेश	-8.19592
▁जि	-8.204
¥	-8.20406
▁भर	-8.20412
स्त्र	-8.20749
▁सूचना	-8.20897
▁अन्	-8.21072
▁उससे	-8.2113
▁क्योंकि	-8.21202
▁परवरदिगार	-8.21203
▁तरफ	-8.21445
▁दूर	-8.21469
▁उनसे	-8.21578
▁विषय	-8.21789
▁शिक्षा	-8.22015
▁मार्ग	-8.22039
▁गो	-8.22702
▁यू	-8.22823
▁लोक	-8.23709
ंत	-8.24118
▁सकती	-8.24128
ख्	-8.24146
▁तु	-8.24167
▁पू	-8.24307
▁दिल	-8.24449
षण	-8.24704
द्व	-8.25169
▁स्थिति	-8.25329
▁अर्थ	-8.25588
w	-8.25613
दान	-8.25622
▁उत्	-8.25647
▁समा	-8.25697
▁पहुँच	-8.25848
▁सुन	-8.26095
▁विश्व	-8.26118
▁बाहर	-8.26397
▁दूसरे	-8.26646
T	-8.26751
▁पे	-8.26873
▁वै	-8.27068
M	-8.27299
च्छ	-8.2742
f	-8.27538
▁करती	-8.27754
▁इसलिए	-8.27862
▁पि	-8.27959
▁बैठ	-8.28262
er	-8.28503
▁सहायता	-8.28619
▁बैंक	-8.28735
ेगा	-8.29039
ंध	-8.2926
▁उठा	-8.2979
▁औ	-8.29869
▁उच्च	-8.29886
▁हाथ	-8.30066
▁बड़ी	-8.30557
▁कै	-8.30582
▁पहल	-8.31071
ैन	-8.31307
▁उनमें	-8.31568
▁हूं	-8.31717
▁केंद्र	-8.31748
मू	-8.31769
”	-8.319
▁लो	-8.31966
▁विभिन्न	-8.31993
▁कभी	-8.32068
टि	-8.32116
▁शक्ति	-8.32444
▁होगी	-8.3265
▁अधीन	-8.32683
▁शामिल	-8.32703
▁मेरी	-8.32945
०	-8.33122
ृत	-8.3329
▁मूल्य	-8.33704
▁कई	-8.33712
▁करे	-8.33746
▁मुख्य	-8.33824
ण्ड	-8.33964
▁बल्कि	-8.34208
▁मन	-8.34237
ौर	-8.3442
प्त	-8.34432
20	-8.34648
▁दौरान	-8.34664
▁लिये	-8.34939
▁जल	-8.35179
▁सदस्य	-8.35218
▁इससे	-8.35455
ऋ	-8.35693
▁ब्र	-8.358
▁मौ	-8.35913
▁कहते	-8.36003
▁भाषा	-8.36164
▁होना	-8.36215
▁तैयार	-8.36248
R	-8.36258
▁करके	-8.36424
▁आगे	-8.3675
▁यहाँ	-8.36965
▁प्रकाश	-8.37019
▁अनुसार	-8.37209
स्व	-8.37283
इन	-8.37528
▁जहां	-8.37635
शि	-8.37658
▁कर्म	-8.37797
ियाँ	-8.3798
▁पद	-8.38207
▁अवसर	-8.38338
बार	-8.38375
▁माल	-8.38465
▁लाभ	-8.3865
n	-8.38736
▁होंगे	-8.38809
▁खुल	-8.38831
▁डर	-8.39181
योजन	-8.3919
ार्थ	-8.39385
▁सूची	-8.39481
P	-8.39586
▁जन	-8.39714
E	-8.39907
▁आया	-8.39971
▁उनको	-8.3999
▁4	-8.40097
म्प	-8.40478
वर्त	-8.40852
▁5	-8.41032
’	-8.41139
र्व	-8.41146
पुर	-8.41193
▁थ	-8.41245
और	-8.41328
▁बता	-8.41389
▁सामने	-8.41646
द्द	-8.41965
ताओं	-8.42097
कारी	-8.42272
▁पता	-8.42503
▁बढ़ा	-8.4268
▁जिसके	-8.42687
▁सामान्य	-8.42843
बे	-8.42897
▁इन्	-8.43304
ात्मक	-8.43427
▁प्रक्रिया	-8.43574
▁पूरा	-8.43663
▁अलग	-8.43677
▁स्पष्ट	-8.43748
v	-8.43829
▁१	-8.44152
▁इसका	-8.44152
ल्ल	-8.44275
गम	-8.44318
रोध	-8.44355
▁स्तर	-8.44654
▁ऊपर	-8.4467
पाल	-8.44686
▁लड़	-8.4481
▁याद	-8.44887
▁करेगा	-8.44898
▁बी	-8.44969
▁उसमें	-8.45161
▁आई	-8.45171
▁देते	-8.45419
▁‘	-8.45524
▁संख्या	-8.45603
▁भू	-8.45953
▁संबंधित	-8.45986
▁शब्द	-8.46016
▁यही	-8.46036
▁वास्तव	-8.4637
▁अंत	-8.46439
▁पार	-8.46635
क्ति	-8.46703
▁निर्माण	-8.46819
प्ल	-8.46959
▁वस्तु	-8.47061
▁पूर्ण	-8.47115
ेशन	-8.47318
▁चाहते	-8.47361
N	-8.47499
▁लगे	-8.4751
▁प्रत्येक	-8.48021
▁जोड़	-8.48046
▁किताब	-8.48383
▁श्र	-8.48418
▁हों	-8.48436
▁पत्र	-8.4895
▁आपको	-8.49081
D	-8.49082
▁सौ	-8.49183
▁नियम	-8.49589
L	-8.498
▁रंग	-8.50054
▁आदि	-8.50391
▁पहुंच	-8.50646
आई	-8.51041
र्ग	-8.51099
▁करा	-8.51161
▁अच्छा	-8.5156
▁ओ	-8.51576
▁पढ़	-8.51688
▁चे	-8.52043
▁तीन	-8.52241
▁स्वयं	-8.52437
इस	-8.52491
▁नई	-8.52534
▁अनेक	-8.52552
ियो	-8.526
▁बड़े	-8.52642
▁इसी	-8.5279
ूँ	-8.53098
▁बनाने	-8.5315
▁कार्यक्रम	-8.5334
▁शुरू	-8.53631
▁पूरी	-8.537
>	-8.53758
पाद	-8.5393
O	-8.54093
▁तुम्हारी	-8.54186
▁जारी	-8.54517
स्थापित	-8.54519
▁प्रयास	-8.54558
कर्ता	-8.54579
भूत	-8.55002
म्म	-8.55079
▁चार	-8.55199
▁ज्ञान	-8.55359
▁आपके	-8.55538
▁मूल	-8.55608
▁नीति	-8.55655
▁हाल	-8.5567
15	-8.55678
▁धर्म	-8.56104
▁बह	-8.56552
ढ	-8.56879
▁निश्चय	-8.56958
शील	-8.57002
▁बोल	-8.57655
▁तू	-8.57737
दाय	-8.57868
र्ट	-8.58321
▁निर्धारित	-8.58349
▁निकाल	-8.58468
▁गये	-8.58641
ियम	-8.58684
▁पानी	-8.58717
▁मदद	-8.58912
▁निकल	-8.58933
▁अंतर	-8.59015
▁अधि	-8.59089
▁परियोजना	-8.59638
▁कॉ	-8.59781
▁हेतु	-8.5986
▁सो	-8.5998
▁रखा	-8.60221
▁दुनिया	-8.60257
▁खोल	-8.60333
▁बन्द	-8.60415
▁सिवा	-8.60445
▁चाहता	-8.60603
▁रुप	-8.60622
बाद	-8.60904
▁रु	-8.61053
▁खुदा	-8.61182
▁मध्य	-8.61188
▁मानव	-8.61354
▁गयी	-8.61501
▁भवन	-8.61604
▁जमा	-8.61658
ांक	-8.61758
▁महत्वपूर्ण	-8.62039
▁संघ	-8.62108
▁बनाया	-8.62241
▁वर्ग	-8.62361
▁उद्योग	-8.62655
▁सत्य	-8.63013
टो	-8.63397
▁रोक	-8.63868
▁तुम्हारा	-8.64
▁“	-8.64216
▁&	-8.64299
▁करेंगे	-8.6436
▁ध्यान	-8.64596
▁पो	-8.64979
▁केन्द्र	-8.6512
▁चला	-8.65155
▁माध्यम	-8.65338
▁परिणाम	-8.65338
▁समूह	-8.65385
▁प्रौद्योगिकी	-8.65507
▁राष्ट्र	-8.6556
▁अध्य	-8.657
▁आत्म	-8.65725
▁यहां	-8.6584
▁प्रमाण	-8.65877
▁संस्था	-8.66168
▁बेशक	-8.66171
▁जिसने	-8.66516
▁नीचे	-8.66604
▁ठीक	-8.6663
▁चाहे	-8.66697
उस	-8.66992
▁प्रतिशत	-8.67182
12	-8.67585
वृत्त	-8.678
▁संस्थान	-8.67855
▁रू	-8.68007
▁समाज	-8.68256
▁प्रमुख	-8.68323
▁बिना	-8.68376
▁मैंने	-8.69037
▁परिवर्तन	-8.69047
▁सन्	-8.69068
ज्ञ	-8.69175
▁देना	-8.69468
▁ज्यादा	-8.69532
or	-8.69665
▁मौजूद	-8.69801
▁पीछे	-8.70467
▁किन्तु	-8.70645
▁आवश्यकता	-8.70679
▁जिसका	-8.70693
▁ज़मीन	-8.70756
▁क्षेत्रों	-8.70857
▁सीमा	-8.70906
an	-8.7096
▁जबकि	-8.71374
▁लेकर	-8.71487
▁मगर	-8.7162
▁पाठ	-8.71649
▁विश्वास	-8.71821
▁देखा	-8.71844
▁समान	-8.72118
▁व्यापार	-8.72324
▁धरती	-8.72514
x	-8.72937
19	-8.73217
▁दिए	-8.73518
▁कंपनी	-8.7361
▁खंड	-8.74207
▁आर्थिक	-8.74447
▁कृषि	-8.746
▁सुधार	-8.74809
▁जाये	-8.74913
▁अतः	-8.75142
▁अज़ाब	-8.75518
k	-8.75555
ीकृत	-8.7586
वेद	-8.76208
भाग	-8.76299
▁ऋण	-8.76616
▁खि	-8.76716
▁विंडो	-8.76859
९	-8.76986
यंत्र	-8.76992
▁पूछ	-8.77192
▁पुस्तक	-8.77773
▁आदेश	-8.77835
▁इनकार	-8.78005
▁अवधि	-8.78008
▁जानकारी	-8.78061
▁इसकी	-8.78195
▁रखते	-8.78356
▁विभाग	-8.78666
▁जनता	-8.78796
बद्ध	-8.78808
▁सुविधा	-8.78897
▁लगभग	-8.78986
ेक्ट	-8.7901
▁तुमसे	-8.79039
▁शहर	-8.79239
२	-8.79253
▁स्वीकार	-8.79394
▁जैसा	-8.7951
▁क्यों	-8.79554
▁खोज	-8.79558
▁अभी	-8.79633
▁विधि	-8.79758
▁काफी	-8.79893
▁समस्या	-8.7996
▁फ़ोल्डर	-8.7997
्टर	-8.79993
▁वक्त	-8.80127
▁गिर	-8.80167
▁उद्देश्य	-8.80195
▁विज्ञान	-8.80477
▁लागू	-8.80502
▁चौ	-8.80537
▁जीव	-8.808
▁पक्ष	-8.80895
▁रोग	-8.80922
▁मामले	-8.81032
▁सारे	-8.81058
▁जगह	-8.81174
▁राह	-8.81272
▁सहयोग	-8.8132
▁चाह	-8.81404
▁वहां	-8.81433
▁अच्छे	-8.81471
▁मेरा	-8.81814
ान्त	-8.81957
▁आवश्यक	-8.82067
▁जानता	-8.82255
▁निम्न	-8.82286
▁विश्वविद्यालय	-8.82367
श्व	-8.82651
14	-8.82708
▁रखने	-8.82779
नेवाला	-8.83208
▁अच्छी	-8.83255
ियन	-8.83388
िए	-8.83458
▁पश्चात	-8.83727
▁बराबर	-8.83901
▁सामाजिक	-8.83977
नेवाले	-8.84008
▁प्रणाली	-8.84399
▁समाप्त	-8.84507
▁जाएगी	-8.84574
▁सभा	-8.85874
▁सोच	-8.86398
▁खेल	-8.86462
¤3⁄4	-8.86473
_	-8.86589
▁प्रस्तुत	-8.86682
on	-8.86868
▁कहीं	-8.87359
en	-8.87781
▁जाओ	-8.88002
▁सुरक्षा	-8.88094
▁यक़ीन	-8.88102
▁क्षमता	-8.88301
▁न्यायालय	-8.8839
▁विवरण	-8.88435
▁क़ौम	-8.88481
▁बदला	-8.88516
▁जानते	-8.88696
▁उसको	-8.88725
▁कानून	-8.8885
▁कोर्इ	-8.8891
16	-8.89007
पत्ति	-8.89205
▁बनाए	-8.89398
▁जिससे	-8.89675
▁बहु	-8.89789
▁चुका	-8.89868
▁सिर्फ	-8.89971
▁18	-8.90136
▁राशि	-8.90681
▁#44;	-8.90738
▁अतिरिक्त	-8.90772
स्ट्र	-8.90809
▁संपर्क	-8.90908
▁महिला	-8.91517
F	-8.91644
▁पेश	-8.91943
▁चुके	-8.91954
▁लौट	-8.92014
▁अंतर्गत	-8.92508
▁संस्कृत	-8.92746
ाधिकार	-8.93152
▁अनुसंधान	-8.93429
¥	-8.93927
▁मंदिर	-8.9429
▁आकाश	-8.94345
स्थिति	-8.94423
13	-8.94845
▁यातना	-8.95018
▁त्रुटि	-8.95107
मंत्र	-8.95137
▁गुण	-8.95384
▁स्थित	-8.95789
▁यात्रा	-8.96142
▁व्यवस्था	-8.96347
▁बेहतर	-8.96584
▁तौर	-8.96868
▁बीमा	-8.96972
▁निवेश	-8.97153
▁न्याय	-8.97604
st	-8.97641
▁पृष्ठ	-8.97704
▁संगठन	-8.97758
ar	-8.97877
B	-8.97991
–	-8.98062
▁परन्तु	-8.98424
▁दृष्टि	-8.9844
▁उपधारा	-8.98515
▁जिन्हें	-8.98531
▁बुरा	-8.98655
▁प्रारंभ	-8.98711
11	-8.99042
▁''	-8.99054
वस्था	-8.99242
आख़िर	-8.99296
▁वर्तमान	-8.99641
▁मूसा	-8.99654
▁आरंभ	-8.99711
▁विशिष्ट	-8.99876
▁निर्णय	-8.99884
▁मनुष्य	-9.00022
▁जुड़	-9.00276
▁युद्ध	-9.00282
▁इतिहास	-9.00481
▁कौन	-9.00779
▁परिवार	-9.0091
▁दिशा	-9.01101
U	-9.01257
▁समिति	-9.01299
▁हुक्म	-9.01703
▁निर्देश	-9.0189
▁शरीर	-9.01938
▁चित्र	-9.02124
▁साहित्य	-9.02263
▁दूसरी	-9.02301
▁झुठला	-9.02488
¤	-9.02507
¤°	-9.02662
▁पहचान	-9.02854
▁लक्ष्य	-9.02888
▁प्रेम	-9.03887
▁हमारा	-9.03906
▁डाक	-9.03996
▁स्वास्थ्य	-9.04002
▁उन्	-9.04089
▁दिल्ली	-9.04117
▁kg	-9.04673
▁प्रधानमंत्री	-9.0521
▁पश्चिम	-9.05655
▁वास्ते	-9.06167
▁बच्चों	-9.06342
▁दक्षिण	-9.06394
▁संसद	-9.06444
५	-9.06492
G	-9.06512
▁जिनके	-9.06726
▁श्रेणी	-9.06963
▁योग्य	-9.07173
▁आसमान	-9.07242
▁कैसे	-9.07351
▁अंग्रेज	-9.07553
▁प्रश्न	-9.07584
▁अनुभव	-9.0768
▁परंतु	-9.07725
▁अमेरिका	-9.08108
▁भूमि	-9.08158
▁मंत्रालय	-9.08267
Name	-9.08346
▁शीर्ष	-9.08629
▁सम्बन्ध	-9.08648
▁हमेशा	-9.08914
▁जन्म	-9.08994
▁सिंह	-9.0906
▁विकसित	-9.09086
▁जिन्होंने	-9.09206
▁स्थानीय	-9.09761
▁तहत	-9.09849
▁उदाहरण	-9.10175
▁name	-9.10195
▁वापस	-9.1093
फिर	-9.11783
▁निर्धारण	-9.11996
▁विदेशी	-9.12071
17	-9.12536
▁अंतिम	-9.12666
▁फैल	-9.13213
ज्ज	-9.1347
▁जरूरत	-9.13599
▁संसाधन	-9.13683
▁प्रस्ताव	-9.13748
▁छोटे	-9.13748
▁निश्चित	-9.13894
१	-9.14107
▁प्रवेश	-9.14152
▁गांधी	-9.14357
▁भूमिका	-9.14373
▁जहाँ	-9.15084
३	-9.15313
▁इस्लाम	-9.15634
▁सक्रिय	-9.15721
▁चाल	-9.15862
▁पालन	-9.15867
▁निस्संदेह	-9.16214
▁नियंत्रण	-9.16257
▁तेज	-9.16694
▁जाएँगे	-9.16776
▁विस्तार	-9.16971
▁अनुमति	-9.17033
ऊँ	-9.17521
▁खुश	-9.17602
▁पुनर्	-9.1762
▁बाजार	-9.17768
▁दस्तावेज	-9.17952
▁निर्दिष्ट	-9.18215
▁वित्तीय	-9.18635
▁संभव	-9.18648
▁सहायक	-9.18707
▁हिस्सा	-9.18989
▁प्रथम	-9.19308
▁स्थापना	-9.19587
नाज़िल	-9.19589
८	-9.19877
▁किसान	-9.20334
मंडल	-9.20484
▁वृद्धि	-9.20662
▁संविधान	-9.21251
▁अध्ययन	-9.21809
▁प्रगति	-9.21979
▁रचना	-9.22016
▁तकनीक	-9.22365
▁मृत्यु	-9.22871
▁प्रबंधन	-9.23068
▁नागरिक	-9.23634
▁अलावा	-9.23706
▁पिछले	-9.23773
▁कठिन	-9.23866
▁खुद	-9.24222
▁गुनाह	-9.24976
▁कृपया	-9.24988
▁उत्पन्न	-9.24989
H	-9.25035
@	-9.25365
▁पूंजी	-9.25882
▁दृश्य	-9.26052
राष्ट्र	-9.26393
▁पुनः	-9.26395
▁भुगतान	-9.26481
▁मंत्री	-9.26583
▁सुनिश्चित	-9.272
क़यामत	-9.27241
optional	-9.27344
▁झूठ	-9.27345
▁प्रशिक्षण	-9.27417
६	-9.27513
▁भिन्न	-9.27757
▁सत्ता	-9.28293
▁सहेज	-9.28348
▁फाइल	-9.28405
▁क्षमा	-9.2859
▁ऊर्जा	-9.28683
▁स्रोत	-9.29397
▁आदमी	-9.29425
tion	-9.29436
▁समुदाय	-9.29486
▁आधुनिक	-9.29682
▁बच्चे	-9.29768
▁मात्रा	-9.2985
▁रिपोर्ट	-9.29852
▁उपस्थित	-9.29959
▁(1)	-9.29986
पूर्वक	-9.30446
▁इस्तेमाल	-9.30474
▁पकड़	-9.30642
शोध	-9.30685
ण्श्	-9.30727
४	-9.30773
छ्ष	-9.30964
▁वेबसाइट	-9.31122
पैग़म्बर	-9.31172
▁चीज	-9.31687
▁जैसी	-9.31804
▁युवा	-9.31891
▁ज़रूर	-9.32103
{	-9.32507
▁निर्यात	-9.32819
}	-9.32837
▁सार्वजनिक	-9.32862
▁प्रकृति	-9.33111
▁स्कूल	-9.33194
▁मामलों	-9.33501
▁पुरुष	-9.3368
▁भावना	-9.34082
▁भविष्य	-9.34323
▁सक्षम	-9.34468
▁अत्यन्त	-9.34504
▁उल्लेख	-9.34685
▁घाट	-9.34852
▁मालूम	-9.34977
▁निकट	-9.35051
▁आसान	-9.35071
▁कोशिश	-9.35709
▁समुद्र	-9.35834
७	-9.3641
लैंड	-9.37161
▁उद्यम	-9.37178
▁व्यापक	-9.37178
▁वैज्ञानिक	-9.37444
▁शख्स	-9.37449
▁ग्रामीण	-9.3747
▁कांग्रेस	-9.37764
▁प्रशासन	-9.37871
▁अपेक्षा	-9.37937
▁उतार	-9.37963
▁सामग्री	-9.38407
▁छिप	-9.38681
▁जवाब	-9.38772
▁बंगाल	-9.39002
▁गतिविधि	-9.39434
▁बयान	-9.39696
▁संकेत	-9.39738
▁संरचना	-9.39981
▁समारोह	-9.40007
j	-9.40061
▁इतना	-9.40187
▁आवेदन	-9.40649
]	-9.40775
▁पुरस्कार	-9.40967
▁संदर्भ	-9.40968
▁प्रदर्शन	-9.4122
▁मुँह	-9.41497
▁गांव	-9.42162
://	-9.42385
▁संगीत	-9.42751
▁रक्षा	-9.4276
ख़ुदा	-9.4301
▁प्रतिनिधि	-9.43144
▁वजह	-9.43147
▁खरीद	-9.43321
▁मुद्रा	-9.43438
▁चाहिये	-9.43569
▁योगदान	-9.43654
▁औद्योगिक	-9.4368
▁दिवस	-9.43881
▁अपराध	-9.43881
▁शायद	-9.44665
▁translation	-9.44907
▁प्राथमिक	-9.45367
▁किंतु	-9.4556
▁not	-9.45974
▁यूरोप	-9.45975
▁एशिया	-9.47177
▁बोर्ड	-9.47416
औ	-9.47653
▁पहाड़	-9.47806
▁अवश्य	-9.48358
▁need	-9.4856
\	-9.49667
▁नाटक	-9.49961
ॅ	-9.50757
▁शेयर	-9.50883
बन्ध	-9.51531
▁मजबूत	-9.51551
▁शांति	-9.51623
▁पर्याप्त	-9.51922
[	-9.5229
▁व्यवहार	-9.52445
▁http	-9.52568
▁दूसरा	-9.52879
मुसलमानों	-9.53034
▁खर्च	-9.53272
▁does	-9.53533
▁नेटवर्क	-9.53659
▁probabl	-9.5391
▁हासिल	-9.54573
ड्ड	-9.5464
गृह	-9.54678
▁पर्यावरण	-9.54856
▁मुखर्जी	-9.5492
▁मशीन	-9.55591
▁सुरक्षित	-9.5562
▁युग	-9.55627
▁चर्चा	-9.55729
▁असफल	-9.55757
▁संरक्षण	-9.56497
nic	-9.56658
▁इच्छा	-9.57202
▁यद्यपि	-9.57262
▁सीधे	-9.57307
▁लघु	-9.57624
▁तारीख	-9.57983
▁ईश्वर	-9.58046
▁गुमराह	-9.5857
▁बधाई	-9.58876
▁तरीके	-9.59036
▁सम्मेलन	-9.59098
▁आतंकवाद	-9.59296
आयतों	-9.59565
▁विरुद्ध	-9.59829
▁छोटी	-9.60267
▁परिषद	-9.60391
▁गिरोह	-9.60402
▁गुणवत्ता	-9.6043
▁अनिवार्य	-9.6053
▁ज़ालिम	-9.60631
▁कंप्यूटर	-9.60698
▁शैतान	-9.60799
▁भोजन	-9.60803
▁प्राकृतिक	-9.61339
V	-9.62119
▁प्राचीन	-9.6212
▁सख्त	-9.62228
ङ	-9.75096
W	-9.7817
Y	-9.82296
‘	-10.1496
ञ	-10.1969
ऑ	-10.2507
(	-10.4439
⁄	-10.4447
#	-10.8488
&	-11.2775
“	-11.9305
°	-12.2264
	-16.6821
̈	-18.1808
¿	-18.1809
̧	-18.181
	-18.1811
	-18.1812
<	-18.1813
	-18.1813
