<pad>	0
</s>	0
<unk>	0
▁	-3.3882
ा	-3.62693
.	-3.64638
े	-4.04132
ी	-4.12667
त	-4.14106
,	-4.21253
र	-4.32412
क	-4.38289
न	-4.4151
ं	-4.45528
ल	-4.5524
व	-4.6734
▁आहे	-4.71865
म	-4.75341
ो	-4.82041
च्या	-4.85441
्	-4.8658
स	-4.86646
▁आणि	-4.89837
य	-4.99594
ड	-4.99598
प	-5.00536
ि	-5.02224
▁या	-5.04161
ला	-5.08241
च	-5.08305
्या	-5.11438
ग	-5.13485
ण	-5.21728
ू	-5.23589
चा	-5.28118
द	-5.29156
ज	-5.29298
ची	-5.30364
ु	-5.32209
्य	-5.33483
ात	-5.34498
▁क	-5.43306
▁अ	-5.45139
ट	-5.47006
▁आ	-5.50921
्र	-5.52167
▁स	-5.5318
ब	-5.54714
▁म	-5.54827
▁ब	-5.55227
ह	-5.55852
मध्ये	-5.5806
चे	-5.58132
▁ज	-5.58306
ळ	-5.59949
ही	-5.61444
▁प्र	-5.62865
ित	-5.64573
ध	-5.64875
िक	-5.65993
ले	-5.69664
ने	-5.70212
ना	-5.70315
श	-5.71312
-	-5.72384
ली	-5.72734
▁न	-5.74505
▁त्या	-5.7544
वा	-5.759
▁कोरोना	-5.76003
र्	-5.77539
▁द	-5.79479
▁प	-5.832
रा	-5.83386
वर	-5.85151
ून	-5.9241
▁आहेत	-5.93684
▁व	-5.94439
▁नाही	-5.95533
ल्या	-5.99257
ष	-6.0063
▁त	-6.02656
ता	-6.03819
थ	-6.05608
चं	-6.06306
ख	-6.07079
साठी	-6.08281
री	-6.08688
▁सा	-6.09735
▁अस	-6.16521
ार	-6.18559
▁पा	-6.19087
▁लस	-6.19243
▁श	-6.19971
ाय	-6.20017
ील	-6.21421
▁हे	-6.21942
▁फ	-6.22331
▁ह	-6.22683
का	-6.23344
▁सं	-6.27616
व्ह	-6.27722
)	-6.29771
▁उ	-6.30096
भ	-6.30297
▁ग	-6.31976
शी	-6.34022
▁एक	-6.35225
▁करत	-6.36178
▁वि	-6.36238
ॅ	-6.36787
ठ	-6.37314
घ	-6.39869
▁आरोग्य	-6.41128
▁ते	-6.41767
▁1	-6.42349
मुळे	-6.42368
▁(	-6.42463
▁नि	-6.43263
▁किंवा	-6.45193
ती	-6.4529
▁तर	-6.45785
ई	-6.46042
ाच्या	-6.47269
▁सर्व	-6.47788
▁र	-6.47977
▁इ	-6.49662
▁काही	-6.50412
्स	-6.51084
?	-6.53666
▁यांनी	-6.54633
▁"	-6.54721
फ	-6.57433
▁करण्यात	-6.58825
▁कमी	-6.60479
▁रुग्ण	-6.63092
0	-6.64181
▁हा	-6.65034
स्त	-6.65135
झ	-6.65476
▁की	-6.65625
ास	-6.65687
▁जात	-6.66467
लं	-6.66542
त्र	-6.67044
▁का	-6.67108
ंड	-6.67536
▁लशी	-6.67632
5	-6.6921
पर्यंत	-6.69833
-19	-6.70481
▁विषाणू	-6.7059
ते	-6.70682
▁केली	-6.71167
ांना	-6.71306
▁असं	-6.71654
नंतर	-6.72016
ंग	-6.72164
स्थ	-6.723
▁सरकार	-6.72776
▁राज्य	-6.73179
▁वापर	-6.73481
णे	-6.75285
वि	-6.76238
▁मा	-6.77427
▁पण	-6.77875
वी	-6.78152
ेट	-6.78176
िन	-6.7893
ातील	-6.79214
1	-6.79574
ेश	-6.80079
▁ला	-6.80132
वे	-6.80663
पासून	-6.8131
▁ज्या	-6.81897
▁संसर्ग	-6.8306
▁ट	-6.84064
ाला	-6.84343
▁ए	-6.84381
णी	-6.84821
▁केंद्र	-6.85256
पा	-6.85283
▁ही	-6.85682
ांमध्ये	-6.86613
कार	-6.86738
▁वाढ	-6.87406
▁माहिती	-6.88072
2	-6.88075
ए	-6.88834
▁आले	-6.89226
▁भ	-6.89445
ष्ट	-6.89724
▁घेत	-6.91244
रो	-6.9134
तील	-6.92018
ै	-6.92319
ावर	-6.92388
ंना	-6.92758
C	-6.93
▁होते	-6.93359
ीय	-6.93377
दा	-6.93502
ांनी	-6.938
9	-6.93822
▁येत	-6.93988
▁होत	-6.94079
▁सुरू	-6.94242
'	-6.95058
▁2	-6.95218
▁करा	-6.95255
▁केले	-6.95269
▁देश	-6.95463
▁करोना	-6.969
ाने	-6.97296
सा	-6.97356
8	-6.97609
▁करण्या	-6.97969
▁डॉ	-6.98039
7	-6.98615
ेल	-6.9965
टी	-6.9995
२	-7.00216
▁च	-7.00636
▁कोव्हिड	-7.00805
स्ट	-7.01484
णार	-7.02705
▁काम	-7.03475
▁दु	-7.03849
्व	-7.0404
▁बंद	-7.04053
िल	-7.04739
ंत	-7.05095
▁लसीकरण	-7.05491
ांच्या	-7.0559
कडे	-7.05601
▁ख	-7.05779
ंट	-7.05879
०	-7.06421
▁ऑक्सिजन	-7.0752
▁इतर	-7.07723
▁जास्त	-7.08647
▁झाल्या	-7.08798
▁सम	-7.0936
▁वा	-7.09651
अ	-7.09945
िट	-7.10171
▁महा	-7.10377
▁अनेक	-7.10916
िस	-7.11442
ढ	-7.11753
ंद	-7.11859
▁होती	-7.11888
न्	-7.12526
मिळ	-7.12669
▁आली	-7.13644
नी	-7.1368
बाबत	-7.13891
डी	-7.14315
▁होता	-7.14465
्ट	-7.15054
ाची	-7.15318
▁अधिक	-7.15739
▁स्व	-7.1576
ण्यासाठी	-7.15807
▁केला	-7.15835
▁असलेल्या	-7.15893
4	-7.17066
ुक	-7.17295
पेक्षा	-7.17645
▁'	-7.18008
न्स	-7.18085
▁सु	-7.18152
िंग	-7.18208
▁हात	-7.18313
वार	-7.18693
मान	-7.18826
ाचा	-7.18904
▁करण्यासाठी	-7.19166
शा	-7.19628
ंचा	-7.1965
▁मृत्यू	-7.20659
ण्यात	-7.21592
▁एका	-7.21724
हा	-7.2186
नुसार	-7.22296
णाऱ्या	-7.22649
से	-7.22686
▁काय	-7.22804
णं	-7.22946
▁उपचार	-7.23768
▁आता	-7.24862
▁को	-7.25262
करण	-7.25268
ांत	-7.25535
▁पर	-7.2577
▁तयार	-7.2641
मधील	-7.26435
R	-7.26975
▁झाला	-7.26983
क्त	-7.27519
िया	-7.27715
▁झाले	-7.28069
▁झाली	-7.28327
ासाठी	-7.28489
पूर	-7.28845
▁आजार	-7.28994
▁लोकां	-7.29216
▁ध	-7.29419
▁चाचणी	-7.295
▁मान	-7.29947
र्म	-7.3045
▁भारत	-7.30863
▁सो	-7.31151
आ	-7.32774
▁व्यक्ती	-7.33274
नि	-7.33477
▁दोन	-7.33556
ंची	-7.34704
I	-7.34955
ाचे	-7.34988
ांची	-7.35443
▁त्यांच्या	-7.35628
ृत	-7.35893
र्स	-7.3683
3	-7.37092
कडून	-7.37119
िय	-7.37229
▁औषध	-7.37266
▁व्हायरस	-7.37692
▁म्हणून	-7.38034
e	-7.3812
▁3	-7.38297
▁लॉकडाऊन	-7.38335
▁लोक	-7.38367
▁वर्ष	-7.39438
▁COVID	-7.40346
▁प्रमाण	-7.40785
▁असे	-7.41015
जी	-7.41169
▁असेल	-7.41322
▁झालेल्या	-7.41684
▁राज्यात	-7.42038
▁घर	-7.42485
▁अशा	-7.42943
▁गरज	-7.43424
▁लक्ष	-7.4363
ेस	-7.43661
▁संख्या	-7.43671
S	-7.44082
▁दिवस	-7.4428
ांवर	-7.44386
▁जे	-7.44641
▁मार्च	-7.45001
▁करून	-7.45127
▁यांच्या	-7.45362
कर	-7.45585
▁दिली	-7.45709
ोज	-7.45756
▁केल्या	-7.46465
प्र	-7.46564
▁कारण	-7.46831
E	-7.46851
ओ	-7.47555
▁पुर	-7.47682
o	-7.4779
▁ने	-7.47887
6	-7.48226
▁जाण	-7.4845
▁परिस्थिती	-7.4874
▁होऊ	-7.48741
▁ना	-7.4942
व्या	-7.4945
▁उपलब्ध	-7.49457
ृ	-7.49488
▁गेल्या	-7.50262
▁देण्यात	-7.50278
▁होण्या	-7.50386
लेल्या	-7.5049
▁सह	-7.50631
▁परिणाम	-7.50664
:	-7.50711
▁टक्के	-7.51397
A	-7.51397
▁त्यांना	-7.51735
▁मो	-7.51776
▁कु	-7.52
▁नोंद	-7.52139
▁प्रति	-7.52163
ेन	-7.5225
▁म्हटलं	-7.52877
▁म्हणजे	-7.52881
▁आपल्या	-7.53142
▁मु	-7.53413
▁मुंबई	-7.54378
भर	-7.54565
00	-7.54657
a	-7.54884
▁मात्र	-7.54978
▁म्हणाले	-7.55143
ळी	-7.55224
▁ठ	-7.55714
▁१	-7.55787
▁केलं	-7.56192
▁राज	-7.56257
▁कार्य	-7.56283
▁वेळ	-7.56935
▁हजार	-7.56939
इ	-7.56939
▁त्यामुळे	-7.57684
▁खा	-7.57791
▁घेण्या	-7.57994
▁करणे	-7.586
ग्र	-7.5865
▁आला	-7.58666
नं	-7.58884
सं	-7.59539
▁आम्ही	-7.5982
▁असल्याच	-7.60029
▁महिन्या	-7.60087
i	-7.60622
▁अशी	-7.60875
▁2020	-7.60891
▁एप्रिल	-7.61161
त्त	-7.61162
ालय	-7.61194
िम	-7.61259
▁त्यांनी	-7.61739
▁घा	-7.62195
%	-7.62519
▁चाचण्या	-7.62521
P	-7.6362
▁असा	-7.63761
▁तो	-7.64064
▁चा	-7.64083
▁डोस	-7.64456
ँ	-7.64579
▁रुग्णालय	-7.64746
▁असून	-7.64816
▁मोठ्या	-7.65014
▁कोण	-7.65794
लो	-7.65956
▁तरी	-7.66157
४	-7.66425
▁महाराष्ट्रात	-7.6671
▁शकतो	-7.66763
▁ह्या	-7.6696
▁4	-7.67088
▁असल्याचं	-7.67388
▁पड	-7.68203
▁सांगतात	-7.68437
▁होतं	-7.68844
स्क	-7.68894
▁लाख	-7.69698
"	-7.7012
ंनी	-7.70215
▁शाळा	-7.70289
ामध्ये	-7.70628
."	-7.70747
▁सध्या	-7.71105
पैकी	-7.71383
▁दिले	-7.71497
▁:	-7.71625
ऊ	-7.71664
ण्याची	-7.71838
३	-7.71982
ोट	-7.72288
▁निर्णय	-7.72888
मंत्री	-7.73179
पणे	-7.73193
▁शकतात	-7.73316
▁सरकारने	-7.73566
▁च्या	-7.73748
t	-7.7411
▁भारतात	-7.74469
▁ट्र	-7.74683
ांचा	-7.74689
▁येईल	-7.74726
▁वैद्यकीय	-7.74726
▁20	-7.7547
५	-7.75658
▁शि	-7.75667
▁मुलां	-7.75736
▁प्रसार	-7.76004
▁आवश्यक	-7.76284
▁गु	-7.76397
▁सांगितलं	-7.76598
सोबत	-7.76991
▁आलं	-7.77313
▁बदल	-7.77378
िश	-7.77481
१	-7.77692
▁चीन	-7.77939
भाव	-7.77963
▁होतो	-7.78143
▁कोविड	-7.78508
▁ठर	-7.78582
▁यु	-7.78674
n	-7.78827
▁स्ट	-7.79191
▁लोकांना	-7.79304
वरील	-7.79925
▁कि	-7.79944
▁गंभीर	-7.80451
▁नवीन	-7.80464
▁प्रकार	-7.80798
▁जिल्ह्य	-7.81108
द्ध	-7.81445
ांसाठी	-7.82346
▁दिवसां	-7.82479
r	-7.82769
ः	-7.82769
▁प्रवास	-7.82812
९	-7.83105
▁दुसऱ्या	-7.83441
▁मदत	-7.83633
बाहेर	-7.84119
▁होणार	-7.84462
▁रोग	-7.8453
M	-7.848
▁समावेश	-7.85142
सह	-7.85584
र्ज	-7.86401
▁स्थिती	-7.86524
क्षण	-7.86553
▁मास्क	-7.86676
▁वर्	-7.86738
▁करू	-7.87196
▁वाढत	-7.87841
▁वाट	-7.88331
क्रम	-7.88399
द्द	-7.88707
▁संपर्क	-7.88989
▁शकते	-7.89247
▁घट	-7.8977
सीओव्ही	-7.90063
▁नियम	-7.90457
▁जो	-7.91105
बद्दल	-7.91164
▁डि	-7.91582
▁ठाकरे	-7.91882
▁घ्या	-7.92091
ायला	-7.92505
s	-7.92619
र्ड	-7.92886
▁आल्या	-7.93197
▁शकत	-7.93213
▁देशात	-7.93381
▁लागण	-7.93452
पूर्वी	-7.93778
दरम्यान	-7.94485
▁रुग्णालयात	-7.94651
मुख	-7.95593
▁विचार	-7.95666
▁6	-7.95681
वेळी	-7.95948
▁सुरुवात	-7.96039
▁भाग	-7.96069
▁शक्यता	-7.96147
N	-7.96386
▁ठिकाण	-7.96387
▁देण्या	-7.96544
▁चाल	-7.96646
द्वारे	-7.97158
▁आपण	-7.97199
▁आज	-7.97339
/	-7.97544
ातून	-7.97841
▁अभ्यास	-7.97933
▁जाहीर	-7.97935
;	-7.98324
▁10	-7.9845
▁संसर्गा	-7.98541
▁आलेल्या	-7.98587
▁डॉक्टर	-7.98653
CoV	-7.98716
६	-7.98716
निर्माण	-7.98717
▁अॅ	-7.98881
धार	-7.99016
▁येथ	-7.99508
्ह	-7.99704
पत्र	-7.99716
▁जागतिक	-7.99902
▁निर्बंध	-7.99902
ल्यानंतर	-8.00098
▁देत	-8.0065
▁पसर	-8.00795
▁परवानगी	-8.01102
▁लागत	-8.014
▁म्हणतात	-8.01516
▁महत्त्वाच	-8.0191
▁काळात	-8.01939
▁येणार	-8.02726
▁असते	-8.02889
▁केलेल्या	-8.03084
▁हॉस्पिटल	-8.03134
▁लाटे	-8.03165
▁तुम्हाला	-8.03546
▁पुढे	-8.03551
▁जाऊ	-8.0356
▁लागू	-8.03988
▁शिक्षण	-8.04012
▁करण्याची	-8.04199
८	-8.04374
▁तुमच	-8.04406
▁लक्षणे	-8.0461
▁ऑ	-8.04762
T	-8.05629
▁प्रमाणात	-8.05923
ांचे	-8.06093
▁बोलताना	-8.06476
▁दिसून	-8.06477
▁शोध	-8.06495
▁अमेरिक	-8.07328
▁माग	-8.07458
▁प्रयत्न	-8.07757
▁प्रश्न	-8.07758
▁अनु	-8.0791
▁करणार	-8.08236
▁रोजी	-8.08638
▁दाखल	-8.09057
दान	-8.09186
▁कोटी	-8.09313
▁काढ	-8.09447
▁जाईल	-8.09932
▁नमुन	-8.09937
▁पहिल्या	-8.10372
▁दिसत	-8.10397
ात्मक	-8.10433
▁ऑफ	-8.10522
▁SARS	-8.11705
▁करणाऱ्या	-8.11725
-2	-8.11932
▁अँ	-8.11951
▁कोणत्या	-8.12169
▁मागणी	-8.13182
▁अर्थ	-8.13522
▁विभागा	-8.13968
▁म्हण	-8.14124
▁रुग्णांची	-8.14178
▁कंपनी	-8.14426
▁नियंत्रण	-8.14887
ेंद्र	-8.15397
▁श्वसन	-8.15815
▁धोका	-8.1582
रुप	-8.15833
ॅक्स	-8.15834
▁रि	-8.15861
▁शहर	-8.16137
▁आमच	-8.16188
▁योग्य	-8.16282
▁देखील	-8.16282
▁असताना	-8.1629
र्ट	-8.16329
▁घेऊ	-8.16752
▁काळजी	-8.17225
▁टाळ	-8.17267
धान	-8.17657
▁पुरवठा	-8.18174
मधून	-8.18232
क्रिया	-8.18558
▁तीन	-8.19093
▁आठवड्या	-8.19133
l	-8.19133
▁मुख्यमंत्री	-8.19158
▁ताप	-8.19566
D	-8.19616
▁उत्पादन	-8.19616
▁पुन्हा	-8.19616
▁सेवा	-8.20033
▁उद्धव	-8.21082
▁उत्तर	-8.21581
▁तेव्हा	-8.221
▁बीबीसी	-8.22565
▁ठेवण्या	-8.22569
प्रमाणे	-8.22585
▁नसल्या	-8.22591
▁आजारा	-8.23276
▁उद्रेक	-8.23567
H	-8.23567
▁टेस्ट	-8.23575
▁मोदी	-8.23585
▁गेले	-8.24031
▁स्पष्ट	-8.24072
▁पंतप्रधान	-8.2458
▁परीक्षा	-8.2458
▁भागात	-8.25064
▁संबंधित	-8.2509
c	-8.25602
▁दिला	-8.25703
▁दिल्ली	-8.26636
▁किती	-8.2707
क्षम	-8.27134
▁प्रत्येक	-8.27157
▁विकसित	-8.27158
▁सार्स	-8.27278
▁नागरिकां	-8.27529
▁बैठक	-8.27681
▁सूचना	-8.27752
▁रक्त	-8.28239
▁आधार	-8.28241
ण्याचा	-8.28654
▁कर्मचाऱ्यां	-8.28736
▁विशेष	-8.28736
▁जानेवारी	-8.29268
▁तुम्ही	-8.29268
▁रूग्ण	-8.29283
▁नये	-8.29442
▁डेटा	-8.30356
▁सार्वजनिक	-8.30881
▁पातळी	-8.30893
▁रुग्णांना	-8.31022
▁साथी	-8.31462
▁पाठव	-8.31467
ल्ल	-8.3149
शिवाय	-8.31491
▁मध्य	-8.31645
▁उच्च	-8.31972
७	-8.3252
▁टप्प्या	-8.32522
▁विद्यार्थ्यां	-8.33073
▁आढळून	-8.33628
राष्ट्रीय	-8.33912
▁रुग्णांच	-8.34267
▁प्रतिबंध	-8.34749
सारख्या	-8.34752
छ	-8.35309
संदर्भात	-8.35882
▁जिल्हा	-8.35882
▁पाहिजे	-8.35882
▁होईल	-8.35882
▁पद्धती	-8.35883
▁लहान	-8.36458
ावं	-8.36572
▁लक्षणं	-8.36656
▁रूग्णां	-8.37012
▁संपूर्ण	-8.37028
ॅक्ट	-8.37109
▁पुढ	-8.37605
▁चर्चा	-8.37615
▁प्रभावी	-8.37617
▁50	-8.38032
▁विविध	-8.38191
▁तसंच	-8.38192
▁पुण्या	-8.38375
▁पोहोच	-8.38772
▁झालं	-8.38773
▁असतात	-8.38885
▁वर्षां	-8.39138
▁पॉझिटिव्ह	-8.39361
▁ओळख	-8.39361
▁असतो	-8.40073
▁अंदाज	-8.40548
▁आहोत	-8.40548
▁जगभरात	-8.40549
युक्त	-8.40936
▁दुसरी	-8.41154
▁व्यक्त	-8.41853
▁व्यवस्था	-8.42355
▁बोल	-8.42532
d	-8.42963
▁कुटुंब	-8.42965
▁येऊ	-8.42966
▁गोष्टी	-8.43578
▁आढळले	-8.44195
▁तीव्र	-8.44197
▁शहरात	-8.45812
विषयी	-8.46704
▁केसेस	-8.46705
सुद्धा	-8.46763
▁आपल	-8.46793
समोर	-8.47002
▁उपाय	-8.47046
▁कालावधी	-8.4734
▁जीव	-8.47638
▁सामान्य	-8.47988
▁राहत	-8.48057
▁फेब्रुवारी	-8.48627
▁एकूण	-8.493
संख्य	-8.50713
▁खूप	-8.51266
▁मिळत	-8.51537
h	-8.51916
▁असल्याने	-8.51926
▁अंतर	-8.51979
ेवळ	-8.52219
▁प्रदेश	-8.52598
▁कार्यक्रम	-8.52687
▁धुण्या	-8.52695
▁लढ	-8.52732
ण्यास	-8.53056
▁बेड्स	-8.53263
▁रोख	-8.53319
“	-8.53943
▁सेंटर	-8.54631
▁त्रास	-8.54672
गृह	-8.54888
▁आदेश	-8.55331
कोव्ह	-8.55531
ज्ञान	-8.56012
▁प्रतिसाद	-8.56015
▁वेगळ	-8.56016
▁जेव्हा	-8.56029
▁स्वच्छ	-8.56077
▁संख्ये	-8.56081
▁संशोधन	-8.56712
▁तसेच	-8.5672
प्प	-8.57133
▁खासगी	-8.57416
▁अहवाल	-8.57418
▁रुग्णसंख्या	-8.5742
▁सांगितले	-8.58125
▁गर्दी	-8.58125
▁सगळ्या	-8.58126
▁संक्रमण	-8.58842
▁मूळ	-8.59603
▁आकडेवारी	-8.60283
▁येणाऱ्या	-8.60285
▁संस्था	-8.60369
▁मर्याद	-8.61016
▁शिफारस	-8.61749
▁गाव	-8.62415
▁कर्मचारी	-8.62489
▁अजून	-8.62523
▁डॉक्टरां	-8.62608
▁सुरक्षित	-8.63236
▁रात्री	-8.63238
▁लागेल	-8.6324
▁दोन्ही	-8.63248
▁वेगान	-8.64001
▁साबण	-8.64016
▁दिल्या	-8.64174
▁शक्य	-8.64532
▁मंत्रालया	-8.65509
▁प्रवेश	-8.65544
▁अधिकारी	-8.65552
▁दूर	-8.65637
m	-8.66277
▁पक्ष	-8.66278
▁जणां	-8.66604
▁पूर्व	-8.66985
़	-8.67053
’	-8.67053
▁क्षेत्रात	-8.67834
▁ग्रामीण	-8.67834
▁आर्थिक	-8.68622
p	-8.69415
▁उपस्थित	-8.69415
▁स्थानिक	-8.69415
▁थांब	-8.69415
▁आणखी	-8.69416
▁होणाऱ्या	-8.69423
O	-8.70215
▁कंपन्या	-8.70215
▁सल्ला	-8.70233
▁फुफ्फुस	-8.71022
▁टोपे	-8.71835
▁गेली	-8.7193
▁पेशी	-8.71946
▁संरक्ष	-8.72552
बरोबर	-8.72656
▁पुणे	-8.72667
▁पर्याय	-8.72679
उ	-8.73444
▁अधिकाऱ्यां	-8.73481
▁मुख्य	-8.73506
▁महिला	-8.73511
तज्ज्ञ	-8.75043
च्छ	-8.75083
▁घोषणा	-8.75154
▁संनिरीक्षण	-8.75154
▁नागपूर	-8.75156
▁परंतु	-8.75157
▁लॉकडाउन	-8.76002
▁नागरिक	-8.76249
▁एचसीओव्ही	-8.76858
▁ठेवा	-8.76951
▁पत्रकार	-8.7773
▁संकट	-8.77784
▁तज्ज्ञां	-8.79582
▁सुरु	-8.803
▁बाधित	-8.80351
▁दाखव	-8.80357
▁भीती	-8.81265
विरोधी	-8.82146
!	-8.83053
विरोधात	-8.83063
u	-8.8397
▁इन्स्टिट्यूट	-8.83971
▁स्पर्श	-8.83971
▁विलगीकरण	-8.84897
▁पुष्टी	-8.84897
▁प्रवाशां	-8.84906
▁प्रकरणां	-8.85112
▁इंडिय	-8.8585
अत्यावश्यक	-8.86775
▁तुटवडा	-8.86775
▁वेगवेगळ	-8.86775
▁संघटने	-8.86775
ंतर्गत	-8.86785
▁इटली	-8.8679
▁प्राथमिक	-8.87727
▁अत्यं	-8.87742
▁क्षमता	-8.87775
▁इंजेक्शन	-8.88688
▁रेमडेसिवीर	-8.88688
▁मोठा	-8.88707
कोरोना	-8.89215
▁अध्यक्ष	-8.89659
▁क्वारंटाईन	-8.89659
▁मृत्यु	-8.89659
B	-8.8966
U	-8.8966
▁सुविधा	-8.89662
▁शेवट	-8.89667
▁देऊ	-8.89678
▁श्वास	-8.90643
▁मोठी	-8.90651
▁आव्हान	-8.90669
g	-8.91629
तिरिक्त	-8.9163
▁आम्हाला	-8.9163
▁नियोजन	-8.9163
▁लवकर	-8.91632
▁संभाव्य	-8.91633
▁अवलंब	-8.9263
▁येण्या	-8.92846
(	-8.93317
▁तुलनेत	-8.9364
▁जोखीम	-8.9364
▁सामाजिक	-8.9466
▁WHO	-8.95691
▁जवळपास	-8.95691
▁मराठी	-8.95692
▁बाजार	-8.95692
▁छाती	-8.96734
▁लोकसंख्ये	-8.96735
▁सुरक्षा	-8.96735
▁योजना	-8.96735
▁परिणामकारक	-8.96739
▁कामगार	-8.96743
संबंधी	-8.97786
G	-8.98849
▁डिसेंबर	-8.99925
▁रेल्वे	-8.99925
▁वुहान	-8.99925
▁वाहतूक	-9.01012
▁व्हेंटिलेटर	-9.01012
▁भाजप	-9.01014
माध्यम	-9.01015
▁युरोप	-9.02092
▁बहुतांश	-9.02111
▁विद्यार्थी	-9.03222
▁पोलीस	-9.03222
v	-9.04344
▁सौम्य	-9.04345
▁2019	-9.04346
▁फ्लू	-9.04346
▁थोड	-9.04355
L	-9.05482
▁सकाळी	-9.05486
▁सांगण्या	-9.05613
V	-9.06631
▁अमरावती	-9.06631
▁कोव्हॅक्सिन	-9.06631
▁बायोटेक	-9.06631
▁अद्याप	-9.06632
ञ	-9.07755
”	-9.07794
▁तिसऱ्या	-9.07794
▁माध्यमातून	-9.07795
▁राहिल	-9.07798
▁जबाबदार	-9.0897
▁सचिव	-9.10163
▁नातेवाईक	-9.11366
सारखी	-9.11383
▁आपत्	-9.11408
W	-9.12585
▁टक्क्यां	-9.12585
▁व्हेरियंट	-9.12585
▁चिंता	-9.12586
▁मिळाली	-9.13822
▁बंधन	-9.13827
सारखे	-9.13847
▁कोरोनाव्हायरस	-9.1507
▁उद्योग	-9.1507
▁प्रसिद्ध	-9.1507
▁दक्षिण	-9.16335
▁यंत्रणा	-9.16335
▁जिथे	-9.16337
▁आवाहन	-9.17618
▁धोरण	-9.1762
ऑ	-9.89491
ऐ	-10.923
‘	-10.9231
ौ	-10.9232
औ	-10.9233
ऱ	-10.9234
ॉ	-10.9235
