<pad>	0
</s>	0
<unk>	0
▁a	-3.43503
.	-3.5713
,	-3.62374
▁an	-3.74778
▁agus	-3.91957
▁	-3.92287
▁ar	-4.00993
▁na	-4.37394
▁le	-4.3859
▁go	-4.3975
▁i	-4.55338
▁do	-4.66799
s	-4.69977
-	-4.74023
e	-4.82143
r	-4.84055
í	-4.96211
▁ag	-4.96651
a	-4.97419
▁covid	-5.18627
dh	-5.25718
▁nó	-5.29114
▁’	-5.30243
▁d	-5.31085
▁de	-5.37994
-19	-5.44177
▁seo	-5.45077
n	-5.52241
▁mar	-5.55701
▁tú	-5.56583
▁chun	-5.5754
▁eile	-5.588
▁bhfuil	-5.65584
igh	-5.65781
▁(	-5.69358
▁n	-5.70172
ú	-5.71168
▁sa	-5.72031
ch	-5.73963
▁is	-5.76512
▁sé	-5.77586
▁nío	-5.79373
d	-5.79715
▁in	-5.81165
▁atá	-5.82623
▁ó	-5.82791
t	-5.8659
▁t	-5.86876
l	-5.87626
▁tá	-5.87669
▁Tá	-5.95939
▁féidir	-6.01853
ir	-6.05516
▁cás	-6.06935
il	-6.07769
▁daoine	-6.09049
is	-6.09381
▁c	-6.10944
)	-6.11291
in	-6.11546
▁é	-6.11953
na	-6.12093
▁faoi	-6.12832
íonn	-6.16645
▁duine	-6.17034
eann	-6.17482
▁sláinte	-6.17599
▁leis	-6.17888
▁b	-6.18681
▁Is	-6.19278
▁D	-6.19637
adh	-6.21209
▁sin	-6.22713
▁mó	-6.25553
cov	-6.28559
ach	-6.28703
ithe	-6.28769
c	-6.30552
▁raibh	-6.31583
▁ná	-6.32281
▁aon	-6.34748
:	-6.36494
u	-6.38537
▁má	-6.39345
▁Má	-6.41087
ann	-6.41687
▁ort	-6.41964
▁víreas	-6.42667
▁sars	-6.42674
▁bheith	-6.45878
o	-6.46753
▁dhéanamh	-6.48045
▁bás	-6.48913
▁iad	-6.54218
aí	-6.54844
▁ach	-6.55472
▁éis	-6.56226
gach	-6.57399
i	-6.57854
▁Ní	-6.58223
▁féin	-6.58644
▁fhéadfa	-6.60761
▁An	-6.60915
▁chur	-6.61229
▁gur	-6.61787
▁bhí	-6.6311
▁tar	-6.63541
▁rud	-6.63861
▁úsáid	-6.6395
▁roinnt	-6.64444
▁lá	-6.64507
▁comharthaí	-6.65087
▁duit	-6.65115
▁dhaoine	-6.66249
ta	-6.67582
▁siad	-6.67764
▁ón	-6.69652
▁ina	-6.69854
▁den	-6.70542
▁g	-6.72052
▁orthu	-6.72062
idh	-6.72315
▁ch	-6.7286
ar	-6.73372
▁ní	-6.73623
m	-6.73918
▁san	-6.74038
▁ann	-6.7436
▁don	-6.7535
▁thug	-6.78674
▁chóir	-6.79491
▁vacsaín	-6.79861
▁2	-6.81797
▁márta	-6.82135
▁líon	-6.82219
▁2020	-6.82396
▁tástáil	-6.83486
iú	-6.86778
la	-6.86926
▁C	-6.86931
▁roimh	-6.87115
▁h	-6.87459
te	-6.87488
▁trí	-6.88303
▁amach	-6.90592
▁f	-6.9299
▁mór	-6.93057
▁freisin	-6.93334
▁bh	-6.93448
▁isteach	-6.93501
▁I	-6.93714
▁5	-6.94096
▁dóibh	-6.94344
▁leat	-6.94379
g	-6.94735
ic	-6.94793
p	-6.94882
▁4	-6.96337
▁fáil	-6.97056
▁amháin	-6.97367
▁as	-6.97752
as	-6.98177
▁nuair	-6.98607
ó	-6.99127
▁gan	-6.99638
▁fu	-7.00176
aíonn	-7.00244
-2	-7.01063
▁1	-7.0151
▁ionfhabhtaithe	-7.01565
1	-7.01696
▁gheall	-7.02102
▁T	-7.02628
▁chuig	-7.02649
▁idir	-7.02757
▁chomh	-7.0321
▁/	-7.03733
á	-7.04018
an	-7.04669
mh	-7.04681
▁ba	-7.05037
▁sonraí	-7.05399
f	-7.05439
▁B	-7.06083
b	-7.06249
▁bhíonn	-7.06249
▁Tuairiscíodh	-7.0879
▁ráig	-7.09644
▁linn	-7.10554
▁nua	-7.11436
0	-7.12259
▁3	-7.12506
▁leor	-7.12652
▁fanacht	-7.12991
▁Mar	-7.13063
▁fháil	-7.14827
▁mb	-7.14842
▁aghaidh	-7.14929
▁fh	-7.14957
réir	-7.15079
▁lámha	-7.15492
▁th	-7.15916
áirítear	-7.1596
▁dtí	-7.16179
▁Ag	-7.16363
2	-7.16607
▁air	-7.16784
anna	-7.17561
▁chuid	-7.17899
▁gc	-7.18
▁acu	-7.18148
áil	-7.1863
▁maidi	-7.19475
▁dul	-7.19795
▁cásanna	-7.19997
▁aontaithe	-7.2039
▁measc	-7.20397
aigh	-7.21616
▁feabhra	-7.21696
▁scaipeadh	-7.21697
▁mí	-7.22574
▁teaghlaigh	-7.23011
▁s	-7.23171
▁tástála	-7.23627
▁chás	-7.24271
tear	-7.24287
án	-7.24292
im	-7.24615
acha	-7.248
▁aghaidhe	-7.24904
▁haghaidh	-7.2503
eanna	-7.25628
áin	-7.26171
▁chéad	-7.2639
ra	-7.26512
▁coronavirus	-7.27085
▁Ba	-7.27438
▁p	-7.27809
aithe	-7.27836
▁sna	-7.28069
▁víris	-7.29178
▁tugadh	-7.31338
▁eanáir	-7.32045
▁bhaile	-7.32125
▁fógra	-7.32166
▁dá	-7.33478
▁hiomláin	-7.3351
;	-7.34251
▁aip	-7.34504
▁sh	-7.35025
or	-7.35358
▁riospráide	-7.35749
▁tsín	-7.36508
▁tuairiscíodh	-7.36508
▁poiblí	-7.3727
▁thabhairt	-7.3727
th	-7.38815
▁mbeadh	-7.38876
nach	-7.39504
▁bhfeidhm	-7.39596
▁cur	-7.39686
y	-7.399
tha	-7.40163
bh	-7.40295
▁uair	-7.40534
▁maith	-7.41185
-19.	-7.41516
nn	-7.41555
▁aois	-7.41913
▁-	-7.42128
▁bearta	-7.43602
▁agat	-7.44553
▁“	-7.44808
▁faoin	-7.45684
each	-7.46058
on	-7.46159
▁galar	-7.47119
▁chuir	-7.4784
9	-7.48598
▁pháiste	-7.48621
8	-7.48801
▁A	-7.49192
▁leighis	-7.49498
▁bhaineann	-7.49518
▁ard	-7.49564
▁feadh	-7.49786
▁10	-7.4982
▁leo	-7.50078
▁stáit	-7.50356
▁m	-7.50718
▁am	-7.50976
▁S	-7.51037
▁shampla	-7.51227
▁leanaí	-7.51256
▁síne	-7.51272
4	-7.51473
it	-7.51746
▁dhochtúir	-7.53005
▁á	-7.53011
▁gcásanna	-7.53042
▁ionfhabhtú	-7.53396
▁tír	-7.54249
▁tíortha	-7.54815
íodh	-7.54959
▁cúram	-7.55583
▁othair	-7.55732
▁Déan	-7.55767
▁chaitheamh	-7.56662
▁dhá	-7.57407
ógraíodh	-7.57438
▁scoileanna	-7.5765
▁clúdach	-7.57682
▁gá	-7.57893
▁iomlán	-7.58642
▁srianta	-7.58653
al	-7.59381
le	-7.59862
teagmháil	-7.59944
▁neamh	-7.60268
▁ionad	-7.60545
3	-7.60851
am	-7.61387
▁dearfach	-7.61451
▁14	-7.61875
7	-7.61911
é	-7.61989
▁Ná	-7.62452
▁siú	-7.6293
▁chéile	-7.6342
cha	-7.63989
▁20	-7.64298
▁aibreán	-7.64392
h	-7.65023
ill	-7.65302
▁Ar	-7.65329
uithe	-7.66067
▁9	-7.66189
▁domhain	-7.66422
▁rialtas	-7.66674
eadh	-7.66806
▁"	-7.66815
eas	-7.67857
ad	-7.67916
▁Dífh	-7.68496
▁toradh	-7.68497
▁mbei	-7.6909
▁”	-7.69172
▁who	-7.69837
).	-7.69849
'	-7.70751
oir	-7.71221
▁6	-7.71634
▁luath	-7.71957
▁sóisialta	-7.72807
▁comhairle	-7.72966
▁ospidéal	-7.73028
▁hcov	-7.73138
▁fhógair	-7.73872
▁déanaí	-7.73997
▁mh	-7.74905
▁thástáil	-7.74983
▁–	-7.74983
▁mura	-7.74993
▁bhféadfa	-7.75036
▁mhí	-7.75632
tar	-7.76774
▁srian	-7.7712
▁De	-7.77236
eidh	-7.77339
▁fuair	-7.77397
nig	-7.77638
imh	-7.77789
▁7	-7.78237
re	-7.78307
▁bia	-7.78603
▁bhás	-7.78793
▁cé	-7.79014
▁cinn	-7.79546
▁19	-7.79641
▁thart	-7.79697
▁Bhí	-7.80617
▁náisiúnta	-7.80801
▁wuhan	-7.81923
▁milliún	-7.81923
▁tioncha	-7.81923
▁chosaint	-7.81925
▁cosúil	-7.81946
úirt	-7.82262
ma	-7.82964
▁teagmhála	-7.83127
▁glao	-7.83128
▁mbaol	-7.83149
-19,	-7.83343
▁os	-7.83394
▁léinn	-7.84357
▁oibre	-7.85216
▁cheart	-7.85627
▁riosca	-7.8567
▁fhaigh	-7.85757
id	-7.85907
us	-7.86196
),	-7.86223
▁vacsaíní	-7.86361
▁cuairt	-7.86821
▁háirithe	-7.86831
▁casacht	-7.86865
▁dó	-7.87934
▁lasmuigh	-7.88097
onn	-7.88127
▁8	-7.88133
▁thor	-7.8827
ce	-7.88289
▁Cuir	-7.89356
▁ghnáth	-7.89379
▁mers	-7.89611
v	-7.89857
ca	-7.90356
▁áit	-7.91544
▁theas	-7.91601
▁láthair	-7.91995
▁suas	-7.92032
▁céanna	-7.92088
▁déan	-7.92191
▁Go	-7.92378
▁óstach	-7.92601
▁ghalair	-7.93327
▁fhéidir	-7.93327
▁obair	-7.9333
▁laghdú	-7.93346
5	-7.94329
▁dúnadh	-7.94679
▁leibhéal	-7.947
▁Chuir	-7.94799
▁iarracht	-7.94876
▁paindéim	-7.95091
▁Cé	-7.95144
▁minic	-7.9521
▁comh	-7.95373
ne	-7.95387
▁leith	-7.95501
▁tinnis	-7.96259
6	-7.96638
▁beag	-7.96639
▁léir	-7.96962
átha	-7.97222
▁taistil	-7.97437
▁rinne	-7.97441
▁bealtaine	-7.97447
▁gcuid	-7.97451
▁choinneáil	-7.97488
▁airde	-7.97713
▁éagsúla	-7.97855
air	-7.97913
▁F	-7.98299
▁laghad	-7.98846
▁cuireadh	-7.98879
▁um	-7.98955
▁24	-7.9915
artha	-7.99703
▁torthaí	-8.00274
▁roinn	-8.00371
▁ceann	-8.01371
ig	-8.01623
▁bliain	-8.01723
▁masc	-8.01725
▁dearbhaithe	-8.01763
▁15	-8.01926
▁G	-8.02666
▁tarchur	-8.03188
▁bharr	-8.03198
▁11	-8.04286
▁l	-8.04598
▁tinn	-8.04674
▁fós	-8.04689
▁imní	-8.04809
acht	-8.04913
aíodh	-8.05444
ia	-8.05731
▁taisteal	-8.06202
▁éigeandála	-8.06202
▁Mura	-8.06202
ac	-8.06515
▁othar	-8.07181
onaid	-8.08368
▁cheann	-8.08812
▁ph	-8.09453
▁eolas	-8.0986
ear	-8.10073
▁coraintín	-8.10561
▁Bei	-8.10816
?	-8.1089
▁cliath	-8.1089
gh	-8.10925
▁cosc	-8.1094
▁síos	-8.1097
▁rialtais	-8.10994
▁iompar	-8.11106
▁líne	-8.11733
▁scoil	-8.11766
aoi	-8.11994
the	-8.12476
▁iodáil	-8.12503
▁meitheamh	-8.12503
▁láithreach	-8.12505
▁sc	-8.12769
ocht	-8.12811
▁gh	-8.12817
▁mhéada	-8.12958
óg	-8.13829
onas	-8.13916
ítear	-8.13931
▁fiabhras	-8.14142
eacha	-8.14312
unaithe	-8.14385
▁más	-8.1445
▁2019	-8.1479
mhail	-8.14804
ála	-8.15005
▁23	-8.15103
▁lú	-8.15599
inn	-8.16608
▁12	-8.16632
▁bhf	-8.17237
▁ceal	-8.17271
ing	-8.17448
▁N	-8.17498
▁cabhr	-8.17504
▁gcoinne	-8.17504
▁ndaoine	-8.17504
▁fliú	-8.17505
▁laistigh	-8.17507
▁dáileog	-8.17518
▁Nua	-8.17529
▁fss	-8.18038
▁dteagmháil	-8.18405
▁13	-8.18453
▁u	-8.18588
▁Lé	-8.18934
oc	-8.18936
ag	-8.1901
▁rianú	-8.1923
▁cionn	-8.19271
▁thái	-8.19377
all	-8.19471
ip	-8.19612
▁fad	-8.20457
▁Cuirea	-8.20948
▁dhiaidh	-8.20982
▁cuid	-8.20983
▁idirnáisiúnta	-8.20985
▁sula	-8.21042
▁chomharthaí	-8.21354
cht	-8.21857
thas	-8.22121
▁baint	-8.222
,000	-8.22324
úil	-8.22377
aire	-8.22722
▁chloig	-8.22768
▁cúraim	-8.22768
▁tapa	-8.22769
▁méad	-8.22884
▁ainmhithe	-8.22897
▁measa	-8.23
▁ceart	-8.23166
▁ár	-8.23199
00	-8.23317
▁co	-8.23777
íocht	-8.23995
▁áirithe	-8.24588
▁chosc	-8.24685
▁díreach	-8.24722
▁oibrithe	-8.24931
▁teacht	-8.24962
▁M	-8.2549
▁éifeachtach	-8.2577
▁r	-8.26044
om	-8.26181
▁imeachta	-8.26412
▁mac	-8.26423
▁freastal	-8.26438
▁galair	-8.26439
▁daonna	-8.26439
▁dhuine	-8.26447
▁Faoi	-8.26478
sh	-8.26624
▁eipidéim	-8.26632
▁the	-8.26734
▁seirbhísí	-8.27088
nna	-8.27285
▁chomhairle	-8.28325
▁deireadh	-8.28327
▁2020.	-8.29118
▁riocht	-8.30251
▁staidéar	-8.30251
▁mheas	-8.30258
▁stát	-8.3029
▁fiú	-8.30675
▁bhaint	-8.3074
▁Ach	-8.31217
io	-8.31234
▁dh	-8.31382
▁próitéin	-8.31661
▁nós	-8.31682
ge	-8.32051
▁tíre	-8.32175
▁thuairisc	-8.32206
▁coitianta	-8.32209
▁pearsanta	-8.32209
ais	-8.32283
▁cúis	-8.32298
imid	-8.32338
▁imdhíonachta	-8.32394
ith	-8.32431
▁16	-8.32528
▁áiteanna	-8.32663
oisc	-8.33057
▁dt	-8.33094
▁22	-8.33198
os	-8.33332
en	-8.3406
▁ráta	-8.34212
▁eagraíocht	-8.34214
▁foláireamh	-8.34219
▁rialú	-8.34406
▁bunúsacha	-8.34445
▁dara	-8.34469
lo	-8.34913
▁v	-8.35108
▁seirbhís	-8.36014
▁30	-8.36071
▁cuir	-8.36156
▁fíneá	-8.36259
▁déine	-8.36269
▁méid	-8.36316
▁pian	-8.3632
▁eis	-8.36397
▁fearr	-8.36624
▁ialtóga	-8.36751
▁tábhachtach	-8.36825
▁Fan	-8.37085
da	-8.37588
▁dochtúir	-8.37611
ian	-8.37836
▁sí	-8.38155
▁mbaile	-8.38333
▁tabhair	-8.38333
▁mbásanna	-8.38391
▁choinne	-8.38406
aonrú	-8.38435
▁chúis	-8.3853
▁mhór	-8.38545
▁rna	-8.38784
▁18	-8.38837
"	-8.39146
▁Ina	-8.39962
▁gcás	-8.40408
ín	-8.40459
▁mhárta	-8.40461
▁hairíonna	-8.40483
▁fola	-8.40663
▁mo	-8.40742
ur	-8.41078
▁dí	-8.41259
▁Tug	-8.42036
▁lár	-8.42239
ola	-8.42299
▁daonra	-8.42635
▁uait	-8.42635
▁cheana	-8.42638
▁domhanda	-8.42652
▁ansin	-8.42856
faidh	-8.42879
▁me	-8.43027
óidh	-8.4329
▁víreasach	-8.43334
▁bhrí	-8.43788
ba	-8.44487
▁míochaine	-8.44857
▁timpeall	-8.44857
▁héireann	-8.44857
▁ghluaiseachtaí	-8.44857
▁sraothartach	-8.44875
▁leanbh	-8.44887
▁tréimhs	-8.45018
▁arís	-8.45411
▁bu	-8.46677
▁bpaindéim	-8.47129
▁cosanta	-8.47129
▁ndearna	-8.47129
▁Úsáid	-8.47129
▁pobail	-8.4713
▁géarmhíochaine	-8.47131
▁rianair	-8.47155
▁treala	-8.47204
int	-8.47284
▁tharla	-8.47346
▁chásanna	-8.47419
▁ionfhabhtuithe	-8.47623
▁covanna	-8.48582
ions	-8.48628
▁príomh	-8.49293
▁dhéanann	-8.49455
▁nollaig	-8.49455
ath	-8.49541
▁26	-8.49565
▁diúltach	-8.49576
amh	-8.49619
▁taighde	-8.49625
▁fhoir	-8.49649
▁baol	-8.49653
▁so	-8.49679
▁drugaí	-8.49682
▁aire	-8.50046
onad	-8.50359
ine	-8.50513
▁thar	-8.5054
▁w	-8.50668
ite	-8.50814
▁Lean	-8.50833
▁súil	-8.51115
▁Fua	-8.51487
▁cófra	-8.51836
▁sheachaint	-8.51836
▁glan	-8.51839
▁ospidéil	-8.52156
irt	-8.52211
lacha	-8.52751
▁déanta	-8.52868
óir	-8.53255
óirí	-8.5348
íos	-8.53816
éid	-8.54102
▁gcéad	-8.54275
▁dtús	-8.54279
▁choróinvíris	-8.54284
▁dtugtar	-8.54293
ard	-8.54474
▁céim	-8.54585
sta	-8.54745
▁Tar	-8.54851
▁28	-8.54895
▁ma	-8.54987
▁chéim	-8.55018
▁17	-8.55253
agann	-8.56129
▁bhfaigh	-8.56315
▁ama	-8.56476
ol	-8.56567
▁leagan	-8.56651
▁sábháilte	-8.56726
▁eorpach	-8.56775
▁2021	-8.56776
▁againn	-8.56782
▁gceart	-8.56854
▁niúmóine	-8.56956
▁breise	-8.56973
▁fo	-8.57004
fear	-8.57561
lann	-8.5802
▁te	-8.58043
omh	-8.58452
▁25	-8.5856
▁chibear	-8.59339
▁áireamh	-8.59339
▁reatha	-8.5934
▁suntasach	-8.5934
▁aige	-8.59392
▁fhorbairt	-8.59454
▁deara	-8.59553
▁láimhe	-8.59649
▁mui	-8.59725
▁córas	-8.6027
▁rudaí	-8.60406
▁theast	-8.60452
▁meán	-8.60739
▁sp	-8.61025
seachas	-8.6116
▁paindéime	-8.61168
▁Nío	-8.61799
▁to	-8.61815
▁bliana	-8.61971
▁dhomhanda	-8.61971
▁dúnta	-8.61971
▁oideachais	-8.61971
▁chinntiú	-8.61971
▁oiread	-8.61971
▁fios	-8.61972
▁gco	-8.61988
▁bhéal	-8.62026
▁diagnóis	-8.62046
▁Sa	-8.62079
▁cosaint	-8.62162
▁Coinn	-8.62567
▁athrú	-8.62766
▁200	-8.62957
irí	-8.63027
▁fada	-8.6304
▁21	-8.63189
far	-8.63222
eithre	-8.64674
▁shrón	-8.64699
▁maisc	-8.64703
hlat	-8.6473
▁dócha	-8.64791
iríonn	-8.64898
▁Co	-8.64923
▁taobh	-8.64982
▁seachtaine	-8.65026
▁cona	-8.65158
▁Le	-8.65672
▁saor	-8.65882
▁dé	-8.65911
▁vacsaínithe	-8.66075
eamh	-8.66157
▁cúig	-8.6658
▁cho	-8.66722
w	-8.66729
▁fhág	-8.67373
z	-8.67378
▁ga	-8.674
▁lámh	-8.67426
uiscint	-8.67451
▁Oscailt	-8.67451
▁astrazeneca	-8.67451
▁sholáthar	-8.67451
▁dtíortha	-8.67451
▁uisce	-8.67451
▁roghn	-8.67452
▁grúpa	-8.67464
▁cóireáil	-8.67485
▁liosta	-8.67496
▁freagra	-8.67556
▁lae	-8.67562
▁tástálacha	-8.67667
▁oscailte	-8.67732
▁tógálach	-8.67772
▁aonair	-8.67823
éigh	-8.68031
úsáid	-8.68198
illeadh	-8.68504
▁chu	-8.68523
▁coróinvíreas	-8.68582
op	-8.69296
▁scar	-8.69325
▁ialtóg	-8.69608
▁Chu	-8.70191
fh	-8.70241
▁In	-8.7026
▁gnáth	-8.70308
▁phobal	-8.70308
▁rianaithe	-8.70309
▁staidéir	-8.70314
▁cliniciúla	-8.70331
▁uimh	-8.70389
▁gardaí	-8.70465
▁bun	-8.70572
▁hcovanna	-8.7061
▁bith	-8.70612
▁vacsaíniú	-8.71022
▁thosa	-8.71529
▁ró	-8.71764
k	-8.71771
▁bhei	-8.71992
▁fuar	-8.72796
annta	-8.72798
▁50	-8.73024
▁frith	-8.73243
▁fionraí	-8.7325
▁shár	-8.73288
de	-8.73297
▁bhfad	-8.73334
▁samplaí	-8.73817
▁ríocht	-8.74145
5%	-8.74842
▁cov	-8.75229
óis	-8.75406
▁fhio	-8.75866
▁di	-8.76028
▁fhad	-8.76132
▁anailís	-8.7628
▁uirthi	-8.7628
▁teastáil	-8.7628
▁antasubstaintí	-8.7628
▁monatóireacht	-8.76284
▁thógáil	-8.76298
▁idirmheánach	-8.76337
▁gcónaí	-8.76363
▁tinneas	-8.7647
▁rá	-8.76557
▁aitheanta	-8.76753
othar	-8.77875
▁ea	-8.78022
eachta	-8.78182
lacht	-8.78383
ní	-8.7873
rú	-8.78814
▁'	-8.78992
oidh	-8.79073
▁aer	-8.79231
ie	-8.79307
eacht	-8.79364
▁domhan	-8.79387
▁hiodáile	-8.79405
▁éirinn	-8.79406
▁tosú	-8.7941
▁nádúrtha	-8.79414
▁réamh	-8.79416
▁rogha	-8.79419
▁ghalar	-8.79422
▁coronaviruses	-8.79439
▁fhreagairt	-8.79446
ata	-8.7947
▁Thái	-8.79471
▁úsáide	-8.79583
achta	-8.79817
▁stair	-8.79988
0%	-8.80006
▁nár	-8.80232
▁iar	-8.80346
▁í	-8.80588
reacha	-8.80704
lú	-8.80717
▁29	-8.80795
x	-8.80882
▁ng	-8.8092
▁leanúnach	-8.80986
1,	-8.81312
▁caith	-8.81723
at	-8.82021
fen	-8.82218
▁27	-8.82369
▁riachtana	-8.82423
eál	-8.82519
▁tí	-8.8259
▁shóisialta	-8.82631
▁íseal	-8.82631
▁éigin	-8.82631
▁choróinvíreas	-8.82633
▁srón	-8.82673
han	-8.82679
▁anois	-8.82688
▁iaráin	-8.8271
íoch	-8.82715
▁dlí	-8.82751
▁cineál	-8.82755
▁tosaigh	-8.82803
▁gartheagmhálaí	-8.82878
▁ísle	-8.82889
▁cinnte	-8.82959
▁leibhé	-8.82997
▁mic	-8.83029
▁31	-8.83174
▁Déanta	-8.83393
rthóir	-8.83749
▁teach	-8.8378
covid	-8.84483
ras	-8.84528
18	-8.84812
▁tríd	-8.84813
covanna	-8.84865
lt	-8.85018
bhai	-8.85117
éir	-8.85283
▁im	-8.85288
▁clúda	-8.85642
▁ithe	-8.85763
▁chomhartha	-8.8578
mp	-8.85842
ha	-8.85843
▁phaindéim	-8.859
▁saotharlainne	-8.85964
▁tharchur	-8.85964
▁shláinte	-8.85964
▁iarraidh	-8.85965
▁anseo	-8.85966
▁speisialta	-8.85976
▁hiomlán	-8.85984
▁siondróm	-8.85994
taire	-8.86025
▁iúl	-8.86075
▁clár	-8.86141
▁básmhaireachta	-8.86457
▁brú	-8.86559
▁dáta	-8.86606
▁dhí	-8.86759
229	-8.86781
▁gceist	-8.87138
▁ha	-8.87144
▁coinne	-8.87223
▁rial	-8.87365
sanna	-8.87419
▁Amha	-8.87635
▁ligean	-8.88179
▁br	-8.88187
▁chos	-8.88214
▁údará	-8.88229
▁ndéanfa	-8.88277
48	-8.88332
iv	-8.884
▁díobh	-8.88623
éin	-8.88966
hug	-8.89279
▁mbás	-8.89338
▁anaithnid	-8.89412
▁dhearfach	-8.89412
▁éigeantach	-8.89412
▁chineál	-8.89412
▁forleathan	-8.89421
▁caitheamh	-8.89432
▁beo	-8.89447
▁fásta	-8.89456
▁deimhnithe	-8.8948
▁cúnamh	-8.89487
othú	-8.89507
▁teorainn	-8.89593
▁dlúth	-8.89665
tra	-8.89684
▁Léir	-8.90033
aid	-8.90318
ordú	-8.90331
▁cóir	-8.90347
▁su	-8.90448
▁lua	-8.9056
▁ráige	-8.90772
▁anála	-8.9081
▁se	-8.90814
eart	-8.9141
▁Ch	-8.91411
neamhriachtanach	-8.91863
▁níl	-8.91967
éil	-8.92088
éim	-8.92173
▁athr	-8.92568
▁riachtanach	-8.9263
▁amhras	-8.92856
▁dheireadh	-8.92984
▁folláin	-8.92984
▁gnách	-8.92984
▁hubei	-8.92984
▁géanóm	-8.92984
▁tobac	-8.92984
▁rsc	-8.92989
▁anuas	-8.93014
▁dhearbha	-8.93105
▁cá	-8.9321
▁faireachas	-8.9332
mhar	-8.93388
▁cdc	-8.93704
▁athoscailt	-8.93793
▁seacht	-8.9395
▁básanna	-8.9395
ti	-8.93973
▁ra	-8.95276
ntanas	-8.95363
▁coinn	-8.95409
%)	-8.95409
▁rialta	-8.9568
eachtaí	-8.95685
▁bhailiú	-8.95973
▁sampla	-8.95976
▁cóireála	-8.96009
▁éadrom	-8.96244
▁leath	-8.96334
▁ollscoil	-8.96614
▁afraic	-8.96687
▁eoraip	-8.96687
▁meiriceá	-8.96687
▁nóiméad	-8.96687
▁straitéis	-8.96687
▁mhaolú	-8.96691
▁teocht	-8.96744
▁leanas	-8.96773
▁tuilleadh	-8.96806
▁for	-8.96848
be	-8.96982
▁aice	-8.97111
▁chóiré	-8.97127
43	-8.97198
▁sea	-8.97221
▁nasc	-8.97689
áit	-8.98001
pla	-8.98092
▁siúl	-8.98299
if	-8.98387
▁k	-8.98752
▁ath	-8.98817
▁gar	-8.99378
▁tacaíocht	-8.99544
▁eacnamaíoch	-8.99803
63	-8.99867
▁bhun	-8.99974
ineacht	-9.00203
idí	-9.00216
▁slán	-9.00431
▁phoiblí	-9.00533
▁tseachtain	-9.00533
▁cógais	-9.00534
▁altranais	-9.00534
▁figiú	-9.00534
▁aithint	-9.00535
▁chorp	-9.00535
▁baile	-9.00548
▁chóireáil	-9.00566
▁treoirlín	-9.00596
rán	-9.0095
ocha	-9.01374
ib	-9.01376
agairt	-9.01453
▁tr	-9.01625
▁Dá	-9.02023
▁faisnéis	-9.02233
líon	-9.02234
ireacht	-9.02509
▁eagla	-9.03271
▁oibrí	-9.03286
.30	-9.0444
ráid	-9.0452
▁buinneach	-9.04533
▁fómhair	-9.04533
▁rcgp	-9.04533
▁tarchuir	-9.04533
▁croí	-9.04534
▁áfach	-9.04534
▁áitiúil	-9.04534
▁faide	-9.04535
▁tirim	-9.04538
▁fachtóir	-9.04552
▁brath	-9.04562
▁áitiúla	-9.04568
35	-9.04578
▁deacrachtaí	-9.04627
▁zónóiseach	-9.04649
▁dhúnadh	-9.04708
▁chaith	-9.04895
▁oideachas	-9.04912
chtaí	-9.05076
▁Th	-9.05211
▁ghrúpa	-9.05254
▁modh	-9.05544
▁féideartha	-9.05558
tá	-9.05603
▁gartheagmháil	-9.05765
tair	-9.05785
13	-9.05828
."	-9.05981
osca	-9.06034
▁bhia	-9.06041
tin	-9.06224
▁gcomh	-9.06322
tais	-9.06391
“	-9.06699
▁Mol	-9.07747
▁Rinne	-9.07809
▁ré	-9.08251
▁vacsaíne	-9.08288
huairisc	-9.08408
▁spreag	-9.08493
▁Caith	-9.08672
▁díot	-9.0868
▁fhrainc	-9.087
▁gallúnach	-9.087
▁ginearálta	-9.087
▁sealadach	-9.087
▁seicheamh	-9.087
▁teoranta	-9.087
▁leanúint	-9.087
▁mhilliún	-9.087
▁gceanta	-9.087
▁billiún	-9.08701
bhealach	-9.08701
▁Glao	-9.08701
fhógra	-9.08702
▁beala	-9.08706
▁ghlaca	-9.08709
▁cód	-9.08724
láir	-9.08767
▁freagair	-9.08774
▁fianaise	-9.08789
▁fóin	-9.08794
▁aonrú	-9.08796
ly	-9.08909
▁siopaí	-9.0893
ll	-9.091
▁stiú	-9.09625
▁phe	-9.09627
▁st	-9.09647
▁moill	-9.09845
▁cead	-9.10068
lár	-9.10149
▁meastachá	-9.10166
▁ais	-9.10493
óid	-9.10787
óstach	-9.11043
raitheann	-9.11203
héann	-9.11567
aol	-9.11884
íochta	-9.12087
0,000	-9.12576
▁gníomh	-9.12613
-19)	-9.12926
▁Dhe	-9.13045
▁contae	-9.13048
▁faireachais	-9.13048
▁giorra	-9.13048
▁hothair	-9.13048
▁dhearbhú	-9.13048
▁uathu	-9.13048
▁chóras	-9.13048
▁abhaile	-9.1305
▁india	-9.13052
▁leanacht	-9.13087
▁shonraí	-9.13097
▁oifig	-9.1311
▁breith	-9.13168
▁institiúid	-9.1317
eoirí	-9.13185
▁níochán	-9.13215
fi	-9.13234
▁Seacha	-9.13235
▁éileamh	-9.1357
▁Ma	-9.13711
▁ráigeanna	-9.13718
▁agóid	-9.13827
▁cad	-9.14002
idir	-9.14114
▁he	-9.14591
ialla	-9.14867
▁sine	-9.14908
▁luan	-9.14981
iúla	-9.14988
▁aimsío	-9.15259
oga	-9.15268
ionfhabhtú	-9.15592
to	-9.15706
rt	-9.15899
▁fear	-9.16142
▁scaipthe	-9.1635
▁bain	-9.16682
ire	-9.16758
▁scoi	-9.16919
j	-9.17027
aladh	-9.17095
▁gnó	-9.17149
imhnigh	-9.17357
me	-9.17421
cónaí	-9.17471
▁báis	-9.1748
▁huaire	-9.17508
acsaín	-9.17569
▁siar	-9.17591
▁frithdhúnadh	-9.17593
▁shocrú	-9.17593
▁thaobh	-9.17593
▁sláintiúil	-9.17594
▁spóirt	-9.17594
▁foirne	-9.17594
▁ceanta	-9.17595
▁soiléir	-9.17595
▁chéanna	-9.17597
▁amuigh	-9.17597
hku	-9.17598
▁spáinn	-9.17602
▁pháistí	-9.17608
▁uaireanta	-9.17609
▁ghlanadh	-9.17657
20	-9.1766
impl	-9.17674
▁chathair	-9.17677
▁aisce	-9.17681
▁náisiún	-9.17701
órt	-9.17704
▁sheoladh	-9.17734
▁fan	-9.17799
▁leathadh	-9.17859
▁mhéadú	-9.17906
▁mhic	-9.18021
óin	-9.18187
▁theach	-9.18226
thar	-9.18289
▁Na	-9.18441
cháin	-9.1859
%	-9.18734
▁phlean	-9.18872
▁thaga	-9.19028
▁60	-9.19361
▁fíor	-9.19479
▁éifeachta	-9.19501
oire	-9.19973
ap	-9.20116
rochtain	-9.20284
éann	-9.21
aon	-9.21168
ineadh	-9.2117
éal	-9.21468
▁básmhaireacht	-9.21666
▁bhain	-9.21899
▁bunús	-9.22116
▁géar	-9.2214
▁stop	-9.22166
ianaise	-9.22254
▁dhún	-9.22267
▁bhrollach	-9.22355
▁mbliana	-9.22355
▁trump	-9.22355
▁téacs	-9.22355
chúrsa	-9.22356
▁bhfuair	-9.22356
▁íomhá	-9.22356
▁póca	-9.22356
▁fáth	-9.22356
▁chumas	-9.22356
▁braisl	-9.22357
▁mná	-9.22357
▁fhliú	-9.22358
▁críoch	-9.22359
▁dhéantar	-9.2236
earraí	-9.22362
▁ghlas	-9.22365
▁rúis	-9.22366
▁shrian	-9.22409
▁re	-9.22455
▁laghdaithe	-9.22474
▁láimhseáil	-9.22509
▁chlúdach	-9.2254
▁pfizer	-9.22609
▁luaithe	-9.22662
▁rith	-9.22675
úlacht	-9.22839
ré	-9.23127
50	-9.23209
▁Rinnea	-9.23387
▁léirigh	-9.23638
▁mol	-9.23927
ov	-9.24254
▁tús	-9.2438
▁hi	-9.24508
coróinvíreas	-9.25204
▁scoile	-9.25227
▁molta	-9.25338
▁éil	-9.25499
▁mhéad	-9.25501
fíor	-9.25654
ibh	-9.25683
▁iarr	-9.25692
namh	-9.25899
▁tu	-9.25987
ion	-9.26038
95	-9.26289
▁lean	-9.26314
▁dromchla	-9.26625
▁hu	-9.26653
iste	-9.26857
▁húsáid	-9.26884
▁mha	-9.27138
▁ord	-9.27148
aoine	-9.27186
▁mhol	-9.27273
▁scothaosta	-9.27355
▁thuaidh	-9.27355
▁thíortha	-9.27355
▁Clúda	-9.27355
▁scornach	-9.27355
▁ndéant	-9.27356
▁gcaithf	-9.27356
▁óstáin	-9.27357
▁seans	-9.27367
▁céad	-9.27371
▁víreolaíoch	-9.27397
▁bhfoireann	-9.274
▁suíomhanna	-9.27407
ial	-9.27453
▁labhairt	-9.27467
▁rialachá	-9.27488
▁mall	-9.27557
▁déanamh	-9.27706
▁athbhreithni	-9.27728
▁neart	-9.27864
▁ion	-9.2795
▁siopadóireachta	-9.27998
▁4,9	-9.2806
▁sábháilteachta	-9.28067
▁sheirbhís	-9.28136
▁eolai	-9.28309
▁par	-9.28371
▁Bain	-9.28764
▁Do	-9.28933
▁trialacha	-9.28959
▁Tóg	-9.28998
páistí	-9.29017
4%	-9.29123
▁scamhóg	-9.2923
▁40	-9.29245
▁char	-9.29272
▁Bh	-9.29996
65	-9.30085
.5	-9.30147
▁víreasacha	-9.30334
anann	-9.30486
comparáid	-9.30567
danna	-9.30696
sars	-9.30739
▁ste	-9.30847
▁”.	-9.31219
▁eisío	-9.31685
nl	-9.31933
▁sábháilteacht	-9.31979
▁easp	-9.31996
mar	-9.32105
▁gcu	-9.32198
nó	-9.32286
99	-9.32361
▁oiriún	-9.32508
▁Tabha	-9.32531
▁cliniciúil	-9.32619
▁iomarca	-9.32619
▁johnson	-9.32619
▁nollag	-9.32619
▁phobail	-9.32619
▁swab	-9.32619
▁éigeandáil	-9.32619
▁taoiseach	-9.32619
▁coinníoll	-9.32619
▁dianchúraim	-9.3262
▁measún	-9.32621
▁taiscumar	-9.32622
▁fhón	-9.32622
▁tacú	-9.32639
▁leigheas	-9.32642
▁fón	-9.32648
▁tseapáin	-9.32659
▁óga	-9.32687
▁eas	-9.32688
▁diaibéiteas	-9.32689
▁cleachtais	-9.32727
phen	-9.3279
▁amhrasta	-9.32815
▁tarlú	-9.32862
rátaí	-9.3287
▁Faigh	-9.32917
mid	-9.3293
▁nuacht	-9.33075
▁gníomhach	-9.3313
▁tromchúiseacha	-9.3318
▁uachtarán	-9.33833
▁Su	-9.33892
▁plean	-9.34013
aisc	-9.34579
bair	-9.34644
sat	-9.34692
áilte	-9.3471
▁cú	-9.34717
itis	-9.34834
ora	-9.34909
▁ardú	-9.34997
▁imeacht	-9.35089
▁cruinn	-9.35286
▁thú	-9.35533
osaigh	-9.35764
▁100	-9.35866
33	-9.35968
abhadh	-9.36133
córas	-9.36273
47	-9.36409
alar	-9.36409
39	-9.36429
▁eol	-9.37146
tion	-9.37285
raigh	-9.37315
▁siopadóireacht	-9.37463
".	-9.37499
▁trom	-9.37571
▁sciathá	-9.37657
60	-9.37909
▁ta	-9.37943
▁mich	-9.38162
aicéit	-9.38174
▁ainsealach	-9.38174
▁bhliain	-9.38174
▁chórais	-9.38174
▁fhéadfá	-9.38174
▁ghearmáin	-9.38174
▁leithlisiú	-9.38174
▁ngluaiseachtaí	-9.38174
▁plódaithe	-9.38174
▁riarachá	-9.38174
▁réigiúin	-9.38174
▁teaghlach	-9.38174
▁theaghlach	-9.38174
▁toirchis	-9.38174
▁núíosach	-9.38174
▁buailte	-9.38174
▁béite	-9.38174
▁difríocht	-9.38174
▁sonrach	-9.38174
▁fhreagra	-9.38175
▁chruthú	-9.38175
▁éasca	-9.38175
▁domhnach	-9.38181
eamó	-9.38185
▁dtiocfa	-9.38186
tábla	-9.38201
▁bpobal	-9.38203
▁Chomh	-9.38205
▁dtagann	-9.38223
▁Dún	-9.38243
▁ja	-9.38251
▁dhíon	-9.38275
▁gcéim	-9.38297
▁cónaitheoir	-9.38338
▁Seo	-9.38345
▁láidir	-9.38346
nnel	-9.38397
▁méadaithe	-9.38404
▁stopadh	-9.3842
▁análaithe	-9.38497
▁deacair	-9.38583
▁phríomh	-9.38709
ionann	-9.38927
go	-9.39038
▁4,8	-9.39101
▁faigh	-9.39101
▁lán	-9.39152
▁leathair	-9.39254
▁éadroma	-9.39264
▁scaip	-9.3939
▁meánscoile	-9.394
áis	-9.39461
▁thír	-9.39476
▁Molta	-9.39627
▁slabhr	-9.39642
iúr	-9.39802
▁gníomhaíochta	-9.40136
▁dochtúirí	-9.40161
agtha	-9.40236
oibríonn	-9.40251
▁caithf	-9.40349
45	-9.40376
19	-9.40381
15	-9.40783
isteach	-9.40887
tor	-9.4102
ord	-9.41138
▁éirí	-9.41171
speicis	-9.41983
36	-9.42015
údará	-9.42033
eolas	-9.4206
▁táirg	-9.42237
10	-9.4251
inneoi	-9.42756
dro	-9.42855
27	-9.42858
▁gcuirf	-9.42946
▁eitilt	-9.4333
▁nochta	-9.43501
lte	-9.43512
feá	-9.4365
habh	-9.43822
onraí	-9.43886
▁treoir	-9.43988
▁foils	-9.44046
▁fhoils	-9.44056
▁forbairt	-9.44056
▁limisté	-9.44056
▁moderna	-9.44056
▁theorannú	-9.44056
▁foirm	-9.44058
▁análú	-9.44061
▁beirt	-9.44062
▁Glan	-9.44063
▁margadh	-9.44066
▁istigh	-9.44098
▁mholtar	-9.44109
▁braoiníní	-9.44141
▁haoine	-9.44184
▁Taispeána	-9.44224
▁tuismitheoirí	-9.4423
▁clainne	-9.44247
▁phróitéin	-9.44248
▁cruinnithe	-9.44265
▁saotharlann	-9.44373
rian	-9.44374
▁réimsí	-9.44705
llmha	-9.44884
airí	-9.44942
pe	-9.44975
▁riachtanacha	-9.45352
▁dar	-9.45371
▁raon	-9.45582
oileáin	-9.45619
ithníodh	-9.46095
iompair	-9.46106
69	-9.46249
▁mé	-9.46273
olog	-9.46412
tóirí	-9.46441
▁shin	-9.46581
ánach	-9.46747
▁réigiún	-9.46819
uail	-9.46821
▁o	-9.46981
▁li	-9.47068
▁sár	-9.47284
▁teicneolaíocht	-9.47567
rialacha	-9.47583
áir	-9.47691
▁teiripe	-9.47719
▁ro	-9.47828
shiomptómacha	-9.48009
▁sá	-9.48091
57	-9.48093
94	-9.48236
25	-9.48272
2%	-9.48621
▁seachtain	-9.48741
hol	-9.48768
haigh	-9.49242
éard	-9.49663
stáil	-9.49738
▁fhorbair	-9.50048
▁freag	-9.50062
▁thaisteal	-9.50233
▁scaoil	-9.5026
ntaibheathaigh	-9.50306
▁bhrasaíl	-9.50306
▁cocúnú	-9.50306
▁dochtúra	-9.50306
▁laethúla	-9.50306
▁ndéanann	-9.50306
▁nuashonrú	-9.50306
▁paisinéir	-9.50306
▁scriosadh	-9.50306
▁slaghdán	-9.50306
▁leochaileach	-9.50307
▁chliniciúil	-9.50307
▁long	-9.50307
▁Deimhnío	-9.50307
▁dteast	-9.50307
▁linbh	-9.50307
▁satharn	-9.50308
▁shúile	-9.50308
▁saoráid	-9.50309
▁bailiú	-9.50309
▁ngrúpa	-9.5031
▁ailse	-9.50314
▁leithris	-9.50315
▁fadtéarmach	-9.50323
▁leithead	-9.50324
bhreith	-9.5033
▁mrna	-9.50334
▁chinneadh	-9.50337
▁Cleachta	-9.50373
▁saineola	-9.50408
▁Tabharfa	-9.50416
▁soláthair	-9.50455
▁gcoróinvíreas	-9.50471
▁bhrú	-9.50549
▁moladh	-9.50587
▁ollscoileanna	-9.5064
▁thit	-9.50902
▁bheag	-9.50916
▁dtithe	-9.5094
▁Cá	-9.51124
▁tras	-9.51143
▁orda	-9.51168
▁éire	-9.51324
▁ball	-9.51348
▁díol	-9.51363
phataigineach	-9.51433
oirí	-9.51495
▁meá	-9.51573
▁cos	-9.51687
▁pcr	-9.51739
▁ainm	-9.51839
▁chlé	-9.519
▁ábhar	-9.52066
▁Féadfai	-9.52177
▁Measta	-9.52297
ex	-9.52307
ius	-9.52416
▁lig	-9.52728
▁gcuirfea	-9.52798
▁dír	-9.52943
eolaíocht	-9.53002
hná	-9.53133
lach	-9.53159
▁féach	-9.53313
6%	-9.53315
ul	-9.53405
-2.	-9.53513
▁cealla	-9.53596
ormhór	-9.53752
nacht	-9.54043
acair	-9.54164
▁”,	-9.54364
▁scamhóga	-9.54507
ionc	-9.54543
37	-9.54825
gartheagmháil	-9.54945
eisteanna	-9.55017
fss	-9.55065
cu	-9.55211
▁tuarascá	-9.55267
ígh	-9.5578
eipidéimeolaíoch	-9.55808
80	-9.55978
víreas	-9.56009
▁costa	-9.56062
athlastach	-9.56233
▁tromchúiseach	-9.56261
▁foghlaim	-9.56288
▁bunúsach	-9.56548
▁choinn	-9.5658
▁fheic	-9.56583
▁sheol	-9.56767
aonta	-9.56778
▁deacracht	-9.56837
▁gné	-9.56872
▁páirt	-9.56912
▁frithvíreas	-9.56913
▁70	-9.56926
▁dearbha	-9.56934
alamh	-9.56938
theagmháil	-9.56943
▁mbeal	-9.5695
▁láimh	-9.56964
críobh	-9.56973
▁astráil	-9.56973
▁civet	-9.56973
▁córais	-9.56973
▁iontráil	-9.56973
▁pangolin	-9.56973
▁chugat	-9.56973
▁forbartha	-9.56973
▁scagadh	-9.56973
▁bhfón	-9.56975
▁chuims	-9.56975
▁fisic	-9.56976
▁éadach	-9.56976
▁dhaonra	-9.56981
▁óige	-9.56986
▁seachain	-9.56989
▁cheada	-9.56996
▁soláthairtí	-9.57005
▁gasta	-9.57031
▁marfach	-9.57083
▁glacadh	-9.57097
▁rialaithe	-9.5712
▁fhágáil	-9.57166
▁ól	-9.57193
▁chiall	-9.57276
▁ndeac	-9.57293
▁biontech	-9.57335
▁torracha	-9.57346
▁thuairisciú	-9.5735
▁hom	-9.57379
léa	-9.57473
▁oifigigh	-9.57538
▁ghníomhaíocht	-9.57569
haon	-9.57582
66	-9.57584
▁braith	-9.57629
▁chúram	-9.5763
▁pháirt	-9.57666
▁pe	-9.57701
▁cáis	-9.57703
▁po	-9.57716
▁eitiltí	-9.57806
fheidhmeannach	-9.57854
▁chill	-9.57875
▁Sh	-9.57915
óthar	-9.57935
▁oibr	-9.58044
mo	-9.58056
▁gurb	-9.58138
ainm	-9.58171
íochtaí	-9.58546
▁tacaíochta	-9.58811
▁líonra	-9.59087
olg	-9.59209
▁seach	-9.59576
88	-9.5966
▁comparáid	-9.59667
▁mhaithe	-9.59787
▁socr	-9.59943
▁lit	-9.6024
rón	-9.60354
cloí	-9.60553
▁bean	-9.60658
▁féa	-9.60845
08	-9.6086
athair	-9.60864
▁díghalr	-9.60887
87	-9.60906
▁héifeacht	-9.61236
et	-9.61261
▁iúil	-9.61462
79	-9.61665
heo	-9.61884
▁éifeachtúlacht	-9.61919
ábhar	-9.62059
who	-9.62113
▁séasúr	-9.62782
68	-9.63076
▁staid	-9.63356
▁ghartheagmhála	-9.63377
▁druga	-9.63732
uine	-9.63807
▁bhail	-9.6385
▁feidhm	-9.63892
có	-9.63919
▁california	-9.64112
oimeád	-9.64116
▁ciarsú	-9.64116
coimisiún	-9.64116
▁aibreáin	-9.64116
▁criticiúla	-9.64116
▁cónaidhme	-9.64116
▁gcontae	-9.64116
▁géiniteach	-9.64116
▁hiaráine	-9.64116
▁macasamhl	-9.64116
▁páipéir	-9.64116
▁scrúduithe	-9.64116
▁ullmhacht	-9.64116
▁eiseama	-9.64116
▁iontaofa	-9.64116
▁samhain	-9.64116
▁damáiste	-9.64116
▁atosú	-9.64116
▁spíce	-9.64117
▁fhostóir	-9.64117
▁alfa	-9.64117
▁fág	-9.64117
▁thuas	-9.64118
▁leithreas	-9.64118
▁leathnú	-9.64119
triail	-9.6412
▁páipéar	-9.64124
▁caint	-9.64125
▁uile	-9.64126
▁matáin	-9.64129
▁earná	-9.6413
▁cille	-9.64134
▁cothaith	-9.64134
▁tusa	-9.64138
▁maireachtáil	-9.64142
▁Roinn	-9.64144
▁tháirgeadh	-9.64151
dars	-9.64196
▁hionfhabhtuithe	-9.64202
▁chealú	-9.64231
▁100,000	-9.6425
iarmhairtí	-9.64252
eiceáil	-9.64279
▁cuirfi	-9.643
▁dtosach	-9.64301
▁chonai	-9.64384
▁cinneadh	-9.64434
lainne	-9.64436
▁margaí	-9.6444
▁béal	-9.64446
▁spreagadh	-9.64484
▁príobháideacha	-9.64567
▁níocháin	-9.64628
▁acmhainní	-9.64632
▁breoiteacht	-9.64687
eisiúint	-9.64727
▁cathracha	-9.65059
neamh	-9.65132
tarchurtha	-9.65163
ik	-9.65251
74	-9.65307
éigean	-9.65325
iam	-9.65331
ilín	-9.65333
▁Déanfa	-9.6564
▁cúramach	-9.65705
▁tóg	-9.65771
▁siúil	-9.65915
▁tuarascála	-9.65981
▁áise	-9.66113
dirghníomhaíocht	-9.66345
ual	-9.66544
eamhshiomptómach	-9.6682
eagra	-9.67091
iarr	-9.67092
14	-9.673
▁leag	-9.67429
38	-9.67997
44	-9.68067
3%	-9.68318
▁faisnéise	-9.68482
▁minice	-9.68744
ck	-9.6886
▁aerála	-9.68881
78	-9.69171
coraintín	-9.698
▁chlinic	-9.69886
feadh	-9.69892
31	-9.70288
▁aidhm	-9.70645
ugtar	-9.70975
▁il	-9.7103
▁seomra	-9.71066
nár	-9.71113
ide	-9.71336
1%	-9.71391
▁tro	-9.71672
▁suíomh	-9.71729
ostaithe	-9.71762
▁soláthra	-9.71762
▁Ro	-9.71778
ileog	-9.71779
hong	-9.7179
▁shuí	-9.71797
▁dtreo	-9.71808
▁Comharthaí	-9.71808
▁antashubstaint	-9.71808
▁atreor	-9.71808
▁bhainistiú	-9.71808
▁hafraice	-9.71808
▁laethanta	-9.71808
▁máinliachta	-9.71808
▁núicléitíde	-9.71808
▁speiceas	-9.71808
▁Roghna	-9.71808
▁Scaip	-9.71808
▁guaise	-9.71808
▁tráth	-9.71808
▁sheachtain	-9.71809
▁fhaireacha	-9.71809
▁cheanta	-9.71809
▁maolú	-9.71809
▁ríomh	-9.71809
▁Fliú	-9.7181
▁bhrath	-9.71812
▁thógálacha	-9.71812
▁smacht	-9.71812
▁Scar	-9.71814
▁léana	-9.71814
▁haipe	-9.71814
▁sláintiúla	-9.71815
▁dúinn	-9.71817
▁uathú	-9.7182
▁bunscoile	-9.71828
▁orf	-9.71828
▁orm	-9.71835
▁tuairisciú	-9.71841
▁deich	-9.71848
▁sainch	-9.71848
▁fhaisnéis	-9.71851
▁príomhoifig	-9.71853
▁thiocfa	-9.71861
▁scaoileadh	-9.71871
eachadadh	-9.71894
▁múinteoirí	-9.71898
▁Casacht	-9.71907
▁bhformhór	-9.71914
▁pleananna	-9.71927
▁taifeadadh	-9.71952
▁scála	-9.71957
▁imscrúdú	-9.71974
▁ainmnithe	-9.71976
▁mian	-9.72039
▁nochtaithe	-9.72066
▁Cuirfi	-9.72112
aireachta	-9.72168
tóga	-9.72209
▁príomha	-9.72314
▁Gan	-9.72317
▁bhearta	-9.72414
▁gnótha	-9.72775
reid	-9.72812
▁dromchlaí	-9.72958
héile	-9.72981
67	-9.732
▁teachtaireacht	-9.73204
75	-9.7323
illiú	-9.73283
▁lu	-9.7333
▁38	-9.73339
hse	-9.73351
▁aeráil	-9.73432
▁ardriosca	-9.73773
▁San	-9.73925
bhunaithe	-9.74065
▁bhfo	-9.74179
77	-9.74316
aois	-9.74458
▁speicis	-9.74613
álacha	-9.7494
chair	-9.7495
▁sláinteacha	-9.74957
eolaíoch	-9.75025
300	-9.75192
▁tug	-9.75277
ofa	-9.75567
faí	-9.75759
▁cruth	-9.75793
éan	-9.7595
▁marbh	-9.75976
▁beaga	-9.76043
ny	-9.76076
adóir	-9.76084
med	-9.76167
nío	-9.76175
61	-9.76272
▁nigh	-9.76618
ealú	-9.77075
▁léi	-9.77886
▁agam	-9.78066
ardriosca	-9.78075
ospidéal	-9.78138
roinn	-9.78187
84	-9.7822
nasctha	-9.78315
▁1,0	-9.78342
▁37	-9.78374
▁fhor	-9.78442
▁úsáideoir	-9.78478
bhealaí	-9.78696
▁séireolaíoch	-9.78777
62	-9.78833
oise	-9.78872
▁tógála	-9.79272
▁feidhmeanna	-9.79377
▁spás	-9.79415
▁cathai	-9.79416
▁trialach	-9.7943
▁oscailt	-9.79437
▁fhan	-9.79523
chán	-9.79557
ghabhálach	-9.79577
43,	-9.79655
▁bhféadf	-9.79733
seirbhís	-9.79737
91	-9.79751
▁chlúda	-9.79814
▁ghearr	-9.79925
▁ghéanó	-9.80098
eoil	-9.80125
▁miondíol	-9.80142
▁phylogenetic	-9.80142
▁Cuairt	-9.80142
▁Labhair	-9.80142
▁Spreag	-9.80142
▁bluetooth	-9.80142
▁ceanada	-9.80142
▁coisctheach	-9.80142
▁céatadá	-9.80142
▁eabhrac	-9.80142
▁fhoghlaim	-9.80142
▁mheiriceá	-9.80142
▁mheithimh	-9.80142
▁mheánoirthir	-9.80142
▁oíche	-9.80142
▁sholáthra	-9.80142
▁slaghdáin	-9.80142
▁theaghlaigh	-9.80142
▁unesco	-9.80142
▁héirinn	-9.80142
▁laethúil	-9.80142
▁slua	-9.80142
▁céadaoin	-9.80142
▁coimeádta	-9.80142
▁páirc	-9.80142
▁orainn	-9.80143
▁coicíse	-9.80143
▁treocht	-9.80143
▁titim	-9.80144
▁tiomána	-9.80144
▁úrscéal	-9.80144
▁bialanna	-9.80145
▁thorthaí	-9.80145
▁cong	-9.80146
▁biseach	-9.80147
▁gearr	-9.80148
chógais	-9.80148
▁Athr	-9.80155
▁oifigiúla	-9.80164
▁caite	-9.80169
▁féadfa	-9.80176
▁smaoin	-9.80188
▁páirteach	-9.80219
▁cuairteoirí	-9.8022
▁mhuin	-9.80228
▁dhíol	-9.80243
▁Caithfi	-9.80246
▁seiceáil	-9.80253
ibé	-9.80255
▁comhaireamh	-9.80271
▁ceadaithe	-9.80289
▁gheo	-9.80305
▁cel	-9.80395
▁réidh	-9.80405
▁oiriúnach	-9.80489
▁fhoins	-9.80602
éirigh	-9.8062
▁chleachtadh	-9.80645
▁dhó	-9.80741
▁ser	-9.80748
▁bhfuar	-9.80827
▁cóiré	-9.8091
▁mhair	-9.80927
▁cumas	-9.81021
9%	-9.81122
▁oibríochta	-9.81131
▁aerlín	-9.8114
▁trácht	-9.81155
▁pataigineach	-9.81204
92	-9.81244
asacht	-9.81286
▁mhéadaithe	-9.81324
▁tuairiscí	-9.81382
▁aclaíocht	-9.81392
▁icu	-9.81683
▁4,7	-9.81864
53	-9.81954
▁mio	-9.82026
íosa	-9.82505
lucht	-9.82522
▁bó	-9.82705
▁dian	-9.82755
▁éifeachtúlachta	-9.82783
▁laghda	-9.82846
▁deis	-9.82895
▁Iarrfa	-9.83105
táirgeadh	-9.83194
▁aireacht	-9.83564
ond	-9.83566
com	-9.83587
▁héifeachtach	-9.83724
▁aipe	-9.84848
galar	-9.84856
▁ghabh	-9.84968
ról	-9.85189
▁Cabhró	-9.85369
▁holo	-9.85653
▁ainmn	-9.86205
▁shín	-9.8633
▁4,6	-9.86394
▁éagsúlacht	-9.86437
ionta	-9.86857
ionfhabhtuithe	-9.87107
chúram	-9.87165
uachtarán	-9.87187
pcr	-9.87204
thír	-9.87253
▁íoc	-9.87493
ase	-9.8765
▁gcuir	-9.87834
ionn	-9.88008
▁chónaí	-9.88037
▁cuma	-9.88138
▁chuairt	-9.88208
▁gartheagmhála	-9.88532
2)	-9.88684
▁chleachta	-9.88691
▁náisiú	-9.88758
theagmhála	-9.89211
ipidéim	-9.89216
▁Laghda	-9.89233
▁ceathrar	-9.89233
▁cumarsáid	-9.89233
▁cytokine	-9.89233
▁cúrsála	-9.89233
▁iontrála	-9.89233
▁laidineach	-9.89233
▁nuabheirthe	-9.89233
▁sainaithníodh	-9.89233
▁sceideal	-9.89233
▁toirmeasc	-9.89233
▁ullmhú	-9.89233
▁ábalta	-9.89233
▁camel	-9.89233
▁comhair	-9.89233
▁foinse	-9.89233
▁riamh	-9.89233
óimheas	-9.89233
▁innéacs	-9.89233
▁lorg	-9.89233
▁bronch	-9.89233
▁oifigiúil	-9.89233
▁thairg	-9.89233
▁cógas	-9.89233
▁meáchan	-9.89233
▁gclúd	-9.89233
▁físe	-9.89234
▁idirlín	-9.89234
▁gcéanna	-9.89234
oideas	-9.89235
▁céimnithe	-9.89235
▁rté	-9.89236
fort	-9.89236
3)	-9.89236
untas	-9.89237
lúbtha	-9.89239
▁boladh	-9.89239
▁chód	-9.8924
▁dalta	-9.89242
▁droch	-9.89243
▁sinsear	-9.89244
▁gcúis	-9.89244
▁tcm	-9.89245
▁tosaíocht	-9.89246
▁fliuch	-9.89257
▁saoránach	-9.89261
▁measartha	-9.89261
▁siomptóm	-9.8927
▁leaba	-9.89271
▁ranganna	-9.89275
randa	-9.89282
▁teasta	-9.89299
▁phlé	-9.89306
▁eolaíochta	-9.89313
▁dheimhn	-9.89326
ry	-9.89344
▁80%	-9.89353
▁feidhmiú	-9.89388
▁bhuail	-9.8939
aireanta	-9.89428
▁dhiúltach	-9.89441
▁fhiabhras	-9.89463
▁randamacha	-9.89476
áiste	-9.89496
▁ndúnfa	-9.89512
▁lárnach	-9.89565
▁crua	-9.89577
▁ceisteanna	-9.89597
imín	-9.8967
▁mama	-9.89677
▁óstáil	-9.89694
▁Féadfa	-9.89779
unscoil	-9.89893
▁post	-9.89965
▁cuar	-9.8998
▁dhíre	-9.90028
▁nochtadh	-9.90109
73	-9.90224
ionad	-9.90321
▁cheannach	-9.90458
▁comhpháirt	-9.90487
54	-9.91029
52	-9.91049
▁comhartha	-9.91256
▁salach	-9.91299
▁ghá	-9.91514
23	-9.91636
athain	-9.91769
▁dtabharfa	-9.91966
64	-9.91975
inneas	-9.92043
▁crit	-9.92293
▁súile	-9.92651
ithí	-9.92693
▁ct	-9.92793
▁próitéine	-9.9341
▁coraintíní	-9.93705
teistiméireachta	-9.93716
▁sínt	-9.94402
▁feabh	-9.94441
athrú	-9.94672
gas	-9.94674
▁stoc	-9.95207
▁bog	-9.95264
líne	-9.95334
▁údar	-9.95893
áistí	-9.96501
▁saol	-9.96678
▁láriona	-9.96793
uartha	-9.96871
airíonna	-9.97058
cdc	-9.97209
bhaint	-9.97227
▁imdhíon	-9.97387
▁deimhn	-9.97462
agus	-9.97497
scr	-9.97512
pp	-9.97566
▁fheidhm	-9.97906
▁rat	-9.97983
sócháin	-9.98175
100	-9.98217
▁acmhainn	-9.98323
▁measta	-9.98368
▁breis	-9.98426
▁ísl	-9.98429
éifeacht	-9.98634
thain	-9.98689
uismitheoirí	-9.98934
▁solátha	-9.98988
▁fás	-9.9912
iondróm	-9.9914
▁bpob	-9.99179
▁tháirg	-9.99188
scrúdú	-9.99215
éabhlóid	-9.99231
haispeáin	-9.99232
▁spleách	-9.99232
comhghleacaithe	-9.99232
eineafóibe	-9.99232
▁Oibr	-9.99232
▁aerasóil	-9.99232
▁alcól	-9.99232
▁atruacha	-9.99232
▁bhreise	-9.99232
▁brasaíle	-9.99232
▁cluich	-9.99232
▁codlata	-9.99232
▁coróinvíris	-9.99232
▁cultúrtha	-9.99232
▁dhiagnóisiú	-9.99232
▁dromlaigh	-9.99232
▁díhiodráitiú	-9.99232
▁foghlam	-9.99232
▁hoifigiúil	-9.99232
▁membrane	-9.99232
▁neamhspleách	-9.99232
▁shroich	-9.99232
▁smaoiseach	-9.99232
▁soghluaiste	-9.99232
▁thairiscint	-9.99232
▁traidisiúnta	-9.99232
▁ísiltír	-9.99232
▁dtástáil	-9.99233
▁foinsí	-9.99233
▁inniu	-9.99233
▁mbaineann	-9.99233
▁seachadta	-9.99233
▁teagla	-9.99233
aighdeáin	-9.99233
▁huisce	-9.99233
▁phróise	-9.99233
▁treorach	-9.99233
shonrach	-9.99233
▁Ghla	-9.99233
▁teorann	-9.99233
▁cheadú	-9.99233
▁dóchúil	-9.99233
▁fheabhsú	-9.99233
▁poist	-9.99234
▁choirp	-9.99235
▁chabhr	-9.99236
▁Teast	-9.99238
▁rún	-9.9924
▁Cuid	-9.9924
▁réamhchúraim	-9.99242
▁gloin	-9.99244
▁tasc	-9.99249
▁cholainn	-9.99249
réitigh	-9.99251
▁háise	-9.99253
▁Tarchu	-9.99259
thioncha	-9.9926
▁rbd	-9.99263
▁dháileadh	-9.99266
▁cheangal	-9.99282
▁dtuai	-9.99284
▁ibu	-9.99286
▁athmholadh	-9.99289
▁rathú	-9.9929
▁Ansin	-9.99295
▁ghnó	-9.99297
ábhair	-9.99303
▁tuairiscithe	-9.99308
▁thuilleadh	-9.99312
▁téarnamh	-9.99315
onradh	-9.99321
▁scéim	-9.99323
▁sheiceáil	-9.99329
▁ngall	-9.9933
▁mhoilliú	-9.99331
▁airgeada	-9.99356
▁polaiméaráise	-9.99358
éadaí	-9.99372
▁ndia	-9.99378
▁gnéas	-9.99392
▁cumann	-9.99395
▁thuairiscítear	-9.99398
aithne	-9.9941
▁gníomhaireachta	-9.9948
uilleadh	-9.99513
▁víreolaíochta	-9.99514
stiú	-9.99547
▁chlár	-9.99552
▁km	-9.99581
▁dheas	-9.99608
pain	-9.99632
▁bord	-9.99639
mheastachá	-9.99645
▁mholadh	-9.99674
▁breathn	-9.99681
86	-9.99683
pho	-9.99686
▁eachtracha	-9.99781
▁muc	-9.99965
▁chinn	-10.0002
eagrán	-10.001
▁chóna	-10.0012
▁bhunús	-10.0013
▁leathna	-10.0015
▁uachtarach	-10.0021
4)	-10.0026
foghlaimeoir	-10.0029
▁ghartheagmhálaí	-10.0029
▁mu	-10.0036
raib	-10.0044
▁aigéad	-10.0047
▁aistriú	-10.0047
fhachtóir	-10.0061
▁hard	-10.0064
▁racha	-10.0064
▁maoini	-10.0102
▁ceannach	-10.0119
▁pas	-10.0119
▁eacnamaíocha	-10.0122
▁chosa	-10.0147
▁airíonna	-10.015
▁síneach	-10.0169
17	-10.0177
▁hathr	-10.0194
rabhadh	-10.0211
der	-10.0216
harla	-10.0314
▁ionsa	-10.0314
head	-10.0365
▁Cabhr	-10.0368
▁phríobháideach	-10.0446
▁fhill	-10.0506
▁85	-10.0528
stu	-10.0557
▁Bainea	-10.0566
trialacha	-10.0581
▁déanach	-10.0592
▁Bia	-10.0599
▁cáithnín	-10.0632
leach	-10.065
▁mhaith	-10.0697
ínigh	-10.0699
béil	-10.0774
ása	-10.0788
▁mor	-10.0822
cás	-10.0826
formhór	-10.0829
ghrúpa	-10.0832
mers	-10.0848
áiteanna	-10.0856
eálacha	-10.0867
▁cleachta	-10.0884
▁tábhacht	-10.0888
úlra	-10.0912
05	-10.0937
▁imoibri	-10.0952
ruga	-10.0983
iúint	-10.0987
42	-10.0992
▁plé	-10.0993
▁eachtra	-10.0999
96	-10.1006
fan	-10.1008
oronavirus	-10.1012
▁taifead	-10.1013
▁glac	-10.1014
▁mhoill	-10.1023
▁téarna	-10.1025
▁dtug	-10.103
ghluaiseacht	-10.1034
▁shábháil	-10.1034
ealaíon	-10.1034
▁Scaoil	-10.1034
heabhairshláinte	-10.1034
ianfhoghlama	-10.1034
▁Cúram	-10.1034
▁Giorra	-10.1034
▁Taisteal	-10.1034
▁antaiginí	-10.1034
▁aslonnú	-10.1034
▁chontae	-10.1034
▁dearbhú	-10.1034
▁deireanach	-10.1034
▁dhromchla	-10.1034
▁difriúil	-10.1034
▁dtorthaí	-10.1034
▁dóichí	-10.1034
▁eitleán	-10.1034
▁gabhdóir	-10.1034
▁ghloiní	-10.1034
▁ghéiniteach	-10.1034
▁heorpa	-10.1034
▁héasca	-10.1034
▁oiliúint	-10.1034
▁oiliúna	-10.1034
▁prognóis	-10.1034
▁práinneach	-10.1034
▁réasúnta	-10.1034
▁scagthástáil	-10.1034
▁scagthástála	-10.1034
▁shaoránaigh	-10.1034
▁sheomra	-10.1034
▁shádach	-10.1034
▁singeapór	-10.1034
▁sochraid	-10.1034
▁soicind	-10.1034
▁sreabhán	-10.1034
▁stéaróidigh	-10.1034
▁taiwan	-10.1034
▁theiripe	-10.1034
▁throid	-10.1034
▁éascú	-10.1034
▁íoslaghdú	-10.1034
▁Cuims	-10.1034
▁alpaca	-10.1034
▁míleata	-10.1034
▁póilín	-10.1034
▁tábhairne	-10.1034
▁óstán	-10.1034
▁cuims	-10.1034
▁ríthábhachtach	-10.1034
▁fnass	-10.1034
déileáil	-10.1034
▁Féach	-10.1034
▁cíche	-10.1034
▁samplá	-10.1034
▁aisghabháil	-10.1035
▁cúrsa	-10.1035
▁dhaonna	-10.1035
▁dtarló	-10.1035
shábháilteacht	-10.1035
▁2012	-10.1035
ampas	-10.1035
▁shocra	-10.1035
▁leataobh	-10.1035
▁éillithe	-10.1035
▁ghníomhaireacht	-10.1035
▁thiar	-10.1035
▁léitheoir	-10.1035
▁ghéarchéim	-10.1036
oicís	-10.1036
▁Ráig	-10.1037
lainn	-10.1038
íteas	-10.1038
lantacháin	-10.1039
brid	-10.1039
▁thaispeáint	-10.104
▁fadhbanna	-10.104
▁iarrthóir	-10.1041
▁glasáil	-10.1041
▁bruscair	-10.1042
▁fhorb	-10.1043
▁bhunú	-10.1043
▁iarrata	-10.1045
▁huimh	-10.1045
omharc	-10.1045
▁frithvíreasacha	-10.1048
▁reiligiúnacha	-10.1048
ghabhdóir	-10.1048
▁thaistealaithe	-10.1048
▁prótacal	-10.1048
fhreasta	-10.1048
▁nasal	-10.105
▁feiceáil	-10.1051
foireann	-10.1051
▁leathnaithe	-10.1056
iocfa	-10.1069
▁sláinteachais	-10.107
▁clis	-10.107
hael	-10.1072
▁ndochtúirí	-10.1074
ulaing	-10.1074
▁sraith	-10.1077
méadai	-10.108
▁ionsaí	-10.1085
▁news	-10.1086
▁cleachtadh	-10.1091
▁ham	-10.1091
agartha	-10.1096
únamh	-10.1097
▁fhear	-10.1097
56	-10.1099
▁cóid	-10.1099
▁cois	-10.1102
iabh	-10.1105
▁ndí	-10.112
▁cleachtas	-10.1133
▁sín	-10.1133
▁carna	-10.1134
▁aclaíochta	-10.1134
▁(6	-10.1143
▁eisithe	-10.1147
▁ardaithe	-10.1149
áileadh	-10.1155
▁feidhmeannach	-10.1155
▁sóchá	-10.1158
▁theacht	-10.1158
▁uala	-10.1161
▁seachtainí	-10.1172
▁choraintín	-10.1173
rua	-10.1174
2,000	-10.1185
▁bhrón	-10.1191
▁troma	-10.1193
▁léirithe	-10.1202
scéal	-10.1204
est	-10.121
oifig	-10.1237
▁séasúrach	-10.1255
▁oifige	-10.1266
▁4,5	-10.128
airde	-10.1366
▁cúige	-10.1386
▁luch	-10.1416
▁2,3	-10.1453
ow	-10.1472
ald	-10.1491
▁thaca	-10.1498
eabharlanna	-10.1543
58	-10.1556
áille	-10.1561
téama	-10.1565
oibrithe	-10.1604
▁pro	-10.1614
chosúil	-10.1619
▁leanúnacha	-10.1647
▁Déanfai	-10.1678
éag	-10.1693
▁réigiúnach	-10.1703
dlúthpháirtíocht	-10.1724
▁altra	-10.1724
▁caill	-10.1766
▁Ith	-10.1791
▁gníomhaíocht	-10.1843
▁meas	-10.1896
▁mbun	-10.1906
▁thinn	-10.1955
▁scaipf	-10.1989
▁ráit	-10.2059
thábhachtach	-10.2059
phe	-10.2073
aghaidh	-10.2074
tábhachtach	-10.2083
próitéin	-10.2084
aitheanta	-10.2086
comhairle	-10.2089
íreas	-10.209
▁Forbr	-10.2108
táin	-10.2132
ceart	-10.2145
▁uachtar	-10.2154
▁breoite	-10.2182
▁sláint	-10.2198
▁réims	-10.2212
▁torrach	-10.2213
▁siopa	-10.2213
▁garda	-10.2223
▁labhair	-10.2256
▁dtosa	-10.2262
▁Sea	-10.2276
▁deacra	-10.2281
mhíochaine	-10.2284
ionfhabhta	-10.2284
angóil	-10.2284
frídíní	-10.2284
▁Lig	-10.2284
▁Mhéad	-10.2284
▁cathaoir	-10.2284
▁dúshlán	-10.2284
▁google	-10.2284
mharclanna	-10.2284
onsalacht	-10.2284
shéalainn	-10.2284
uashonruithe	-10.2284
▁Fiabhras	-10.2284
▁Oscl	-10.2284
▁Príobháideach	-10.2284
▁aeriompartha	-10.2284
▁alcóil	-10.2284
▁bliantúil	-10.2284
▁comhsheasmhach	-10.2284
▁coróivír	-10.2284
▁déardaoin	-10.2284
▁dífhostaíocht	-10.2284
▁fadthéarmach	-10.2284
▁geografach	-10.2284
▁gluaiseacht	-10.2284
▁gréasáin	-10.2284
▁hindia	-10.2284
▁muinteartha	-10.2284
▁nasopharyngeal	-10.2284
▁oilithr	-10.2284
▁polaitiú	-10.2284
▁róthrom	-10.2284
▁spéise	-10.2284
▁staitisti	-10.2284
▁thromchúiseach	-10.2284
▁todhchaí	-10.2284
▁washington	-10.2284
▁digiteach	-10.2284
▁díolúine	-10.2284
▁ghiniúint	-10.2284
▁iniúchadh	-10.2284
▁naíonáin	-10.2284
▁naíonán	-10.2284
▁neamhghnácha	-10.2284
▁tairseach	-10.2284
▁throigh	-10.2284
▁tuairim	-10.2284
▁bpáiste	-10.2284
▁mbraisl	-10.2284
▁scaoll	-10.2284
▁teoiric	-10.2284
▁maolaithe	-10.2284
▁pangóilí	-10.2284
▁seachtainiúil	-10.2284
oirthear	-10.2284
▁ireland	-10.2284
▁corónach	-10.2284
▁beatha	-10.2284
▁strus	-10.2284
orgán	-10.2284
angla	-10.2285
▁éabhlóideach	-10.2285
▁scanadh	-10.2285
▁cheap	-10.2285
▁gcleachta	-10.2285
liocht	-10.2285
▁buaic	-10.2285
▁thuar	-10.2285
▁fhreastala	-10.2285
shnáithe	-10.2285
iobr	-10.2285
▁uaidh	-10.2285
▁dianchúram	-10.2285
▁foriomlán	-10.2285
▁glas	-10.2286
pragh	-10.2286
▁béilí	-10.2287
▁léar	-10.2287
▁míonna	-10.2288
▁saoil	-10.2288
▁bhfanfa	-10.2288
▁deiridh	-10.2288
▁pobal	-10.2288
tiomáint	-10.2289
▁Cinnt	-10.2289
▁eagraithe	-10.229
▁soláthr	-10.2292
▁dhéanfar	-10.2292
▁tréith	-10.2293
apple	-10.2295
▁delta	-10.2295
▁gcionn	-10.2296
▁Féin	-10.2298
▁athraitheach	-10.2299
▁patrú	-10.2301
▁imdhíonta	-10.2306
▁2003	-10.2311
▁stá	-10.2312
▁duitse	-10.2312
▁dhear	-10.2314
▁mbeart	-10.2316
▁iolracha	-10.2319
profen	-10.2323
oireachta	-10.2324
▁creid	-10.2324
éanaimid	-10.2329
▁ocsaigine	-10.2336
uimhnigh	-10.2341
▁thóg	-10.2341
.7%	-10.2347
▁eo	-10.2348
éinte	-10.2352
▁fda	-10.2357
▁112	-10.2358
▁ciall	-10.2365
▁moil	-10.238
géine	-10.2381
cep	-10.2392
▁bailío	-10.2407
2,5	-10.241
▁seomraí	-10.241
▁árann	-10.2416
athlastacha	-10.2429
▁chuairteoir	-10.243
▁1,3	-10.2434
▁ticé	-10.2436
▁staidr	-10.2441
▁rabha	-10.2443
▁aeir	-10.2468
ka	-10.248
oirse	-10.2484
▁séireolaíocht	-10.2497
téarmaí	-10.2584
itheoirí	-10.2596
▁díobhálach	-10.2623
▁théa	-10.2631
▁úr	-10.2652
▁cónaitheach	-10.2657
hálaí	-10.2681
éilliú	-10.2734
▁90	-10.2798
▁réamhscoile	-10.2858
▁luach	-10.2879
▁Aon	-10.2881
▁teicneolaíochta	-10.2982
end	-10.3013
pháirtí	-10.3047
luí	-10.3048
saíocht	-10.3074
▁leictreon	-10.3145
▁Iarr	-10.3218
▁comhla	-10.3221
gov	-10.3249
ers	-10.3306
▁Tógfai	-10.3319
labhra	-10.3329
éidearthacht	-10.3337
▁tánaiste	-10.3338
her	-10.3359
claíocht	-10.336
thoscailt	-10.3378
▁téarma	-10.3379
osúil	-10.3413
réige	-10.3467
tarchur	-10.3506
ospidéil	-10.3511
fanacht	-10.3518
▁pataigin	-10.3528
ráchtála	-10.3536
▁oiriúnaithe	-10.3541
iarracht	-10.3547
éireo	-10.3551
duine	-10.3581
▁atáirg	-10.3675
▁dhiúlta	-10.3679
▁eachtrach	-10.3685
raoiníní	-10.3692
aisnéis	-10.3695
cun	-10.3703
▁ghlan	-10.3705
ley	-10.3708
dhíola	-10.3709
▁Rá	-10.3709
ásanna	-10.371
dhéanta	-10.3712
▁thaist	-10.3713
▁compord	-10.3713
▁Soláthraí	-10.3713
▁samhalt	-10.3713
choitianta	-10.3713
chruinnithe	-10.3713
eamhstruchtúrtha	-10.3713
eileafóin	-10.3713
einsím	-10.3713
lóthach	-10.3713
rithghníomh	-10.3713
▁Bhuel	-10.3713
▁Ord	-10.3713
▁Sláinteachas	-10.3713
▁aisghafa	-10.3713
▁ardoideachais	-10.3713
▁buidéil	-10.3713
▁cardashoithíoch	-10.3713
▁chriticiúil	-10.3713
▁criticiúil	-10.3713
▁cumhachta	-10.3713
▁dhigiteach	-10.3713
▁dhíghalrú	-10.3713
▁fhilipíneacha	-10.3713
▁fraince	-10.3713
▁fráma	-10.3713
▁fúthu	-10.3713
▁gcoitinne	-10.3713
▁ghnólachtaí	-10.3713
▁iosrael	-10.3713
▁meabhrach	-10.3713
▁mhiondíol	-10.3713
▁mhéara	-10.3713
▁pádraig	-10.3713
▁remdesivir	-10.3713
▁sruth	-10.3713
▁tapúla	-10.3713
▁teilifís	-10.3713
▁thaifead	-10.3713
▁threorú	-10.3713
▁toirmisc	-10.3713
▁Rian	-10.3713
▁Scrúd	-10.3713
▁dheirean	-10.3713
▁ghnáthuaireanta	-10.3713
▁téalainn	-10.3713
▁Cógais	-10.3713
▁chúige	-10.3713
▁coláiste	-10.3713
▁dhifriú	-10.3713
▁lúnasa	-10.3713
▁tharraing	-10.3713
▁uillinn	-10.3713
▁fhailí	-10.3713
▁fíocháin	-10.3713
▁saoránaigh	-10.3713
▁fíochán	-10.3713
▁oxford	-10.3713
▁pailin	-10.3713
▁ríofa	-10.3713
bharnó	-10.3713
▁fisiciúil	-10.3713
▁uilig	-10.3713
eagasc	-10.3713
▁pointe	-10.3713
▁Fág	-10.3713
▁tuirse	-10.3713
▁tubaiste	-10.3713
▁cógaslanna	-10.3713
▁comhdhúil	-10.3713
▁zhan	-10.3713
▁stoirm	-10.3713
▁aslonna	-10.3713
▁Tástála	-10.3713
▁turais	-10.3713
▁lámhainní	-10.3714
▁shiúl	-10.3714
▁iomadú	-10.3714
cabhair	-10.3714
▁dtreoirlín	-10.3714
órsa	-10.3714
▁súg	-10.3714
éantús	-10.3714
▁mhodh	-10.3714
▁rolla	-10.3714
chealla	-10.3714
▁ngéarchéim	-10.3714
▁leithligh	-10.3714
▁mbialann	-10.3715
▁nigéir	-10.3715
▁uaslódála	-10.3715
▁gharda	-10.3716
▁Cúis	-10.3716
shaoil	-10.3716
▁foirmiúil	-10.3717
▁dtaca	-10.3717
▁fiche	-10.3717
▁leantach	-10.3717
▁1201	-10.3719
▁lasta	-10.3719
land	-10.372
▁ghéanóma	-10.3721
▁blas	-10.3722
phacáist	-10.3722
▁mharú	-10.3722
hiodráitithe	-10.3724
▁haer	-10.3725
▁caillte	-10.3725
▁ollmharga	-10.3726
▁phost	-10.3726
osúla	-10.3726
▁rialála	-10.3727
▁Srian	-10.3728
▁bainistíocht	-10.3732
ionrach	-10.3735
▁láithreán	-10.3736
▁chreid	-10.3739
▁chrutha	-10.3739
▁ghlao	-10.374
íocaíocht	-10.3742
▁ocra	-10.3742
▁Imeacht	-10.3743
▁dtréimhs	-10.3743
▁claon	-10.3747
▁lag	-10.3748
▁norm	-10.3751
▁rannpháirteach	-10.3752
▁ghearradh	-10.3752
▁4.30	-10.3752
▁cionta	-10.3753
▁leithne	-10.376
▁gly	-10.3762
▁30%	-10.3763
▁éireann	-10.3767
▁gairi	-10.377
▁chónaitheoir	-10.378
▁bainis	-10.3786
▁príobháideacht	-10.3789
▁géarchéim	-10.379
▁Tacaío	-10.3795
▁beagán	-10.3799
ocal	-10.3801
insint	-10.3803
▁veicteorach	-10.381
omhairliúch	-10.3815
▁geal	-10.3823
úradh	-10.3845
▁var	-10.3847
▁sciath	-10.3853
▁Tre	-10.3861
▁ji	-10.388
50%	-10.3886
▁chúl	-10.3887
▁éiginnte	-10.3904
▁chúramóir	-10.3905
prote	-10.394
ófa	-10.4025
iomad	-10.4046
▁4,4	-10.4055
▁ciníocha	-10.4119
baill	-10.4122
▁rochta	-10.4163
liom	-10.4232
athróg	-10.4312
▁Braithea	-10.4319
ghníomhach	-10.4389
roim	-10.4398
▁boga	-10.4402
tosó	-10.4423
▁Tos	-10.4447
agraío	-10.4465
ruinniú	-10.4476
abháil	-10.4504
aireachtáil	-10.4504
hearbha	-10.4533
eolchoirmeacha	-10.4542
oifige	-10.4563
osclófa	-10.46
isté	-10.4659
uibh	-10.4707
20,000	-10.4756
▁Féad	-10.4774
,600	-10.4819
▁lín	-10.4838
chéime	-10.4862
▁Meas	-10.4885
rcaí	-10.4891
▁meánscoil	-10.5001
reatain	-10.5016
▁throm	-10.5037
▁mothú	-10.5056
▁cothrom	-10.5064
maoin	-10.5072
scartha	-10.5091
iomlán	-10.5167
choraintín	-10.5169
aigéad	-10.517
aistriú	-10.517
taobh	-10.5177
leibhé	-10.5178
iompar	-10.518
bhrón	-10.5185
éileamh	-10.5186
▁leanfa	-10.5204
▁Comhairl	-10.5261
iagnóis	-10.5329
gníomhaireacht	-10.5341
▁imscrúd	-10.5345
ainistíocht	-10.5357
airgead	-10.536
▁gclá	-10.5362
óibh	-10.5366
▁pholai	-10.5371
aispeáint	-10.5372
▁rang	-10.5372
▁fadhb	-10.5372
omhaireamh	-10.5373
▁oll	-10.5374
aistigh	-10.5377
chúraim	-10.5377
▁thuras	-10.5378
paráid	-10.5378
▁bprói	-10.5379
▁fecal	-10.538
geilleaga	-10.538
innealtóireachta	-10.538
meabhairshláinte	-10.538
mhúinteoirí	-10.538
scópacht	-10.538
taidhleoireachta	-10.538
úshláin	-10.538
▁Paindéim	-10.538
▁Teagmháil	-10.538
▁bhforbairt	-10.538
▁bronchiolitis	-10.538
▁chothabháil	-10.538
▁chógaiseoir	-10.538
▁comhcheilge	-10.538
▁dteaghlaigh	-10.538
▁dtuarascá	-10.538
▁feithic	-10.538
▁ferret	-10.538
▁forleithne	-10.538
▁fóillíochta	-10.538
▁gclinic	-10.538
▁ghinearálta	-10.538
▁grósaera	-10.538
▁hastráile	-10.538
▁hopkins	-10.538
▁infhaighteacht	-10.538
▁iobúpróifein	-10.538
▁luimneach	-10.538
▁mhuinchille	-10.538
▁mhíchumas	-10.538
▁míchumais	-10.538
▁míchumas	-10.538
▁phacastáin	-10.538
▁plasma	-10.538
▁polapróitéin	-10.538
▁riaradh	-10.538
▁shasana	-10.538
▁stóráil	-10.538
▁thaispeán	-10.538
▁theoranta	-10.538
▁veicteoir	-10.538
▁woolworths	-10.538
indíreach	-10.538
ungáir	-10.538
▁fiáine	-10.538
▁gaolmhar	-10.538
▁insteall	-10.538
▁mhantáin	-10.538
▁ndeimhn	-10.538
eardchuma	-10.538
reidmheasa	-10.538
▁Braithf	-10.538
▁Lua	-10.538
▁choláiste	-10.538
▁glúine	-10.538
http	-10.538
▁Iompa	-10.538
ompróir	-10.538
▁chabhair	-10.538
▁dtuig	-10.538
▁peataí	-10.538
▁talún	-10.538
▁uilíoch	-10.538
▁ghairm	-10.538
▁trádá	-10.538
▁ghéar	-10.538
shruth	-10.538
▁urlabhra	-10.538
▁Cosain	-10.538
▁chosanta	-10.538
▁tuirc	-10.538
▁sainmhíni	-10.538
▁2019-20	-10.538
▁braite	-10.538
▁iontu	-10.538
▁duánach	-10.538
▁urlár	-10.538
▁eisiata	-10.538
▁paul	-10.538
▁suímh	-10.538
▁gcúig	-10.538
▁euro	-10.538
calraí	-10.538
inimic	-10.538
▁bunaidh	-10.538
▁californians	-10.5381
▁conte	-10.5381
▁thoil	-10.5381
▁ceap	-10.5381
▁fhuil	-10.5381
▁leachtanna	-10.5381
▁comhlachtaí	-10.5381
▁Mhea	-10.5381
▁Anois	-10.5382
▁ndaonra	-10.5382
▁suíochá	-10.5382
▁thurasóirí	-10.5382
oigeart	-10.5382
▁dtógfa	-10.5382
thuaisc	-10.5382
▁samhna	-10.5382
avir	-10.5383
ómacha	-10.5383
▁glasála	-10.5384
▁cáilíocht	-10.5384
▁himeacht	-10.5385
▁dhéag	-10.5385
▁lanc	-10.5385
▁nhs	-10.5386
ainmhí	-10.5387
▁hainmhithe	-10.5387
▁gcineál	-10.5387
▁aosta	-10.5388
▁lagaithe	-10.5389
▁2,4	-10.5391
▁tearc	-10.5391
aisleá	-10.5392
bainisteoir	-10.5393
▁chógaslannaí	-10.5393
niac	-10.5393
▁taom	-10.5394
▁cuí	-10.5395
▁Tagraí	-10.5397
▁athraithe	-10.5398
▁ábhartha	-10.5399
▁díghalraithe	-10.5399
▁pob	-10.5399
▁Trí	-10.54
▁tholg	-10.5401
cóip	-10.5404
▁róimh	-10.5408
▁dochar	-10.5412
▁mbéal	-10.5412
▁feist	-10.5413
▁phaindéimeach	-10.5414
▁giniú	-10.5416
▁of	-10.5421
▁cúigear	-10.5422
▁luaite	-10.5426
▁ionchód	-10.5435
▁deonach	-10.5441
▁Foir	-10.5447
▁dóchúla	-10.5448
▁cast	-10.5454
léiriú	-10.5468
imint	-10.547
▁dtéa	-10.5478
idirghabhála	-10.548
gaidh	-10.5505
▁chúins	-10.5519
teachas	-10.5522
▁3,5	-10.5539
▁thria	-10.5548
▁eagr	-10.5555
7,1	-10.5561
▁oiriúnaitheach	-10.5612
▁Seirbhís	-10.5639
ochtaineacht	-10.5642
mdhíonacht	-10.5671
▁thábhacht	-10.5695
▁3,9	-10.5729
óireáil	-10.5734
hírigh	-10.5748
breatain	-10.5757
▁2,2	-10.5762
suite	-10.5778
▁neamhfh	-10.5787
▁tánaisteach	-10.5841
cainní	-10.5873
wm	-10.5923
▁mhao	-10.6014
▁oiriú	-10.6031
hsa	-10.6033
▁ainmnío	-10.6084
▁leictreonach	-10.6095
▁laghdó	-10.6126
▁lio	-10.6242
mhór	-10.641
▁caillea	-10.6428
thástála	-10.6498
tura	-10.6536
▁cónaithe	-10.673
▁oileá	-10.6829
866	-10.6868
▁socró	-10.6894
▁gcóireá	-10.6933
▁Leanfai	-10.7014
▁Aims	-10.7078
▁athoscl	-10.7118
isean	-10.7144
sraith	-10.717
cathracha	-10.7174
teiripe	-10.7175
phríomh	-10.7175
bheag	-10.7175
oideachas	-10.7177
chomhartha	-10.7177
faireachas	-10.7178
imdhíonachta	-10.7181
chuid	-10.7181
chúis	-10.7191
eolaithe	-10.7228
▁veicteora	-10.7241
▁dhro	-10.7273
hún	-10.7275
▁new	-10.7286
comharthaí	-10.7292
▁ocsaigin	-10.7294
▁ndochtúir	-10.7305
▁cathrach	-10.7308
íobhálach	-10.7326
▁oscail	-10.7343
iúsca	-10.7348
▁fhreagair	-10.7351
éarchéim	-10.7361
▁chógaslann	-10.7366
▁threoir	-10.7368
oláireamh	-10.737
éasúr	-10.737
oláthairtí	-10.737
▁ceist	-10.7372
reast	-10.7373
▁nádúr	-10.7373
▁tiom	-10.7374
▁chógas	-10.7377
grafaíocht	-10.7379
▁coróin	-10.7379
irmheánach	-10.7379
isghabh	-10.7379
▁dhlúth	-10.7379
▁struchtú	-10.738
eangail	-10.738
▁bhfreastalaí	-10.738
▁phríosú	-10.738
ocsaineacht	-10.738
▁Sábháilte	-10.738
▁tharchuir	-10.738
gastrointestinal	-10.738
homalógach	-10.738
omhthéacs	-10.738
peptid	-10.738
rscaoileadh	-10.738
ruitíneach	-10.738
▁Gnáth	-10.738
▁Plé	-10.738
▁Rud	-10.738
▁Sraothartach	-10.738
▁antaigín	-10.738
▁ballstáit	-10.738
▁bolsonaro	-10.738
▁chaomhnú	-10.738
▁choimisiún	-10.738
▁chraiceann	-10.738
▁chríochn	-10.738
▁cispheil	-10.738
▁cupáin	-10.738
▁cúlchist	-10.738
▁cúlpháirtí	-10.738
▁dhíspreagadh	-10.738
▁enteritis	-10.738
▁feline	-10.738
▁gcorcaigh	-10.738
▁gcógaslann	-10.738
▁ghualainn	-10.738
▁hanaithnid	-10.738
▁hipirtheannas	-10.738
▁iarrthóra	-10.738
▁idirghabháil	-10.738
▁indéanta	-10.738
▁infheidhm	-10.738
▁intleachtúil	-10.738
▁ionanál	-10.738
▁lymphocyt	-10.738
▁láidriú	-10.738
▁lóistín	-10.738
▁meastóireacht	-10.738
▁mheasúnaithe	-10.738
▁mheicniúil	-10.738
▁míchompord	-10.738
▁mífhaisnéis	-10.738
▁músaeim	-10.738
▁néareolaíoch	-10.738
▁ollmhóra	-10.738
▁pictiúr	-10.738
▁pionós	-10.738
▁rouhani	-10.738
▁seroprevalence	-10.738
▁shaotharlann	-10.738
▁shoiléiriú	-10.738
▁snámha	-10.738
▁symptom	-10.738
▁theicneolaíocht	-10.738
▁thiomáint	-10.738
▁éagsúil	-10.738
iargúlta	-10.738
oslódá	-10.738
▁ailléirge	-10.738
▁déantúsaíocht	-10.738
▁ebola	-10.738
▁feirme	-10.738
▁fionnachta	-10.738
▁gearrthéarmach	-10.738
▁leithlise	-10.738
▁mheasúnú	-10.738
▁mhíbhuntáiste	-10.738
▁mífheidhm	-10.738
▁neodra	-10.738
▁ngartheagmhála	-10.738
▁sprioc	-10.738
▁stróc	-10.738
▁tamaill	-10.738
choinníoll	-10.738
thráth	-10.738
▁Napro	-10.738
▁bhainisteoir	-10.738
▁ceangailte	-10.738
▁múnla	-10.738
▁phearsan	-10.738
▁toitín	-10.738
▁Siopa	-10.738
▁adhanom	-10.738
▁coláistí	-10.738
▁laige	-10.738
áireofa	-10.738
▁thionsca	-10.738
▁logáil	-10.738
▁réiteach	-10.738
▁phóca	-10.738
▁struchtúracha	-10.738
▁triom	-10.738
▁bhfreagra	-10.738
írinne	-10.738
oidhreachta	-10.738
▁sathairn	-10.738
▁ghorta	-10.738
▁hiondú	-10.738
▁reachtaíocht	-10.738
▁tobann	-10.738
▁Stop	-10.738
▁cothromaíochta	-10.738
▁mionsonra	-10.738
▁thapa	-10.738
▁simplí	-10.738
▁bhearna	-10.738
ceimiceach	-10.738
▁gceanglaí	-10.738
▁Gearr	-10.738
▁imeall	-10.738
▁radagrafaíochta	-10.738
▁éanúil	-10.738
▁Glac	-10.738
▁bhéilí	-10.738
▁clóis	-10.738
▁pacáist	-10.738
▁achainí	-10.738
▁léamh	-10.738
foirt	-10.738
▁coles	-10.738
▁loing	-10.738
leamhna	-10.738
▁cosúlachta	-10.738
▁fasach	-10.7381
▁bhfeic	-10.7381
▁bhalla	-10.7381
▁Feic	-10.7381
▁gaillimhe	-10.7381
riseoirí	-10.7381
▁gairm	-10.7381
▁chomhrac	-10.7381
▁Méadaío	-10.7382
putin	-10.7382
geallta	-10.7382
▁siarghabhálach	-10.7383
22,6	-10.7383
omórta	-10.7383
▁ribo	-10.7383
▁cogaidh	-10.7383
▁ecdc	-10.7383
▁socrúchá	-10.7383
▁blúir	-10.7384
▁galra	-10.7384
▁modheolaíocht	-10.7384
▁Socr	-10.7385
othromaíocht	-10.7385
▁éiceolaíoch	-10.7385
▁shuíomh	-10.7385
▁Gartheagmhá	-10.7385
seilf	-10.7385
▁parlaimint	-10.7386
▁Baile	-10.7386
ector	-10.7389
▁foláir	-10.7389
▁advi	-10.739
▁bhrisea	-10.7392
▁chomhpháirt	-10.7392
▁3,1	-10.7393
imoibríoch	-10.7394
ww	-10.7394
▁1,2	-10.7395
mhinic	-10.7395
▁aeráid	-10.7396
ment	-10.7396
▁bunaíocht	-10.7398
uter	-10.7399
▁thrí	-10.7401
▁aici	-10.7402
▁rúnda	-10.7402
▁hoibr	-10.7403
▁ifn	-10.7403
▁barda	-10.7405
crích	-10.7408
copd	-10.741
toghchá	-10.7412
tosaithe	-10.7415
géire	-10.7417
scagair	-10.7419
pholaitiú	-10.7421
▁aigéin	-10.7421
riz	-10.7422
conclúid	-10.7422
▁gcorróg	-10.7425
▁cairt	-10.7426
nsaid	-10.7426
▁gcamá	-10.743
▁heaglais	-10.7431
▁slándá	-10.7438
réada	-10.7443
▁taca	-10.7444
▁éisteacht	-10.7449
▁ionadaíoch	-10.7451
pims	-10.7452
▁saille	-10.7452
reathnóireacht	-10.7458
céadfach	-10.7468
▁sainord	-10.7472
▁dhéanf	-10.7472
bhreathn	-10.7508
▁ráite	-10.7527
▁dtitf	-10.7534
▁húsáideoir	-10.7671
▁xi	-10.7705
▁deimhni	-10.7723
rithghiniúint	-10.7725
▁aerbheala	-10.7758
▁cua	-10.7876
teachtaireachtaí	-10.7934
▁laghd	-10.7967
▁alára	-10.8011
6,8	-10.8051
▁thástál	-10.8199
díghalráin	-10.8386
▁mille	-10.8398
seoladh	-10.8414
earbha	-10.8476
▁bhronn	-10.849
▁teirip	-10.8552
rdáin	-10.8567
▁cruthaío	-10.8581
▁aimsí	-10.8697
2019-	-10.8849
▁aithnío	-10.9033
▁ciníoch	-10.917
fhoirmiú	-10.9328
▁Leanfa	-10.9332
▁phataigin	-10.9398
▁scagth	-10.9406
ostas	-10.9448
▁tuairisc	-10.9449
scoile	-10.947
uirb	-10.9485
eadófa	-10.949
reathnaío	-10.9497
tréimhs	-10.9624
3,8	-10.9646
teicneolaíochta	-10.9667
ainmhithe	-10.9668
post	-10.9672
riosca	-10.9674
athbhreithni	-10.9676
éadrom	-10.9677
dlúth	-10.9678
vacsaínithe	-10.9678
niúmóine	-10.9678
bhearta	-10.9679
cosaint	-10.9679
luath	-10.9681
taighde	-10.9683
tíre	-10.9688
▁scei	-10.9708
cóiré	-10.9711
▁clinic	-10.9756
▁víreola	-10.9781
▁dhíri	-10.9794
▁stai	-10.9801
▁iolrach	-10.9806
▁randamach	-10.9807
▁rannpháirt	-10.9809
olaiteoirí	-10.9819
rróga	-10.9822
▁uaslód	-10.9825
▁láithreá	-10.9837
▁patr	-10.9845
▁prótaca	-10.985
mhargaí	-10.9857
eangal	-10.9862
ealtaine	-10.9871
arlaimint	-10.9874
taiscuma	-10.9878
gaillimh	-10.9878
▁bonneaga	-10.988
▁forfheidhmi	-10.988
tuaslag	-10.988
▁aisiompú	-10.988
▁bpríomh	-10.988
▁forlíontach	-10.988
▁fóirdheon	-10.988
astroenteritis	-10.988
athsholáthar	-10.988
choimpléasc	-10.988
chomhghleacaithe	-10.988
conspóid	-10.988
gaothaire	-10.988
ghrúpáil	-10.988
ianfhoghlaim	-10.988
neamhphleanáilte	-10.988
neamhshiméadrach	-10.988
scríbhinn	-10.988
▁Dromchla	-10.988
▁Fiafr	-10.988
▁Ionfhabhtú	-10.988
▁Liosta	-10.988
▁Páirc	-10.988
▁Scornach	-10.988
▁betacoronavirus	-10.988
▁bhanglaidéis	-10.988
▁bhreoiteacht	-10.988
▁bhréagach	-10.988
▁blianta	-10.988
▁bpoint	-10.988
▁cairdiach	-10.988
▁carrsheirbhíse	-10.988
▁chathracha	-10.988
▁cheansú	-10.988
▁chliabhrach	-10.988
▁choróivír	-10.988
▁chófra	-10.988
▁cnáimhseacha	-10.988
▁corticosteroid	-10.988
▁daegu	-10.988
▁danmhairg	-10.988
▁difriúla	-10.988
▁dioplóma	-10.988
▁dtarchuir	-10.988
▁déthaobhach	-10.988
▁dífhostú	-10.988
▁ealaíne	-10.988
▁eilvéis	-10.988
▁enteric	-10.988
▁eorpaigh	-10.988
▁exoribonuclease	-10.988
▁facebook	-10.988
▁feithimh	-10.988
▁gheimhr	-10.988
▁grianghraf	-10.988
▁guangzhou	-10.988
▁hathbhliana	-10.988
▁ilmheáin	-10.988
▁infheistíocht	-10.988
▁interferon	-10.988
▁iomláine	-10.988
▁janssen	-10.988
▁leordhóthanach	-10.988
▁londain	-10.988
▁lánfhada	-10.988
▁malartacha	-10.988
▁mbrasaíl	-10.988
▁mearbhall	-10.988
▁mellitus	-10.988
▁mhacasamhlú	-10.988
▁mheánscoil	-10.988
▁montainéagró	-10.988
▁murtall	-10.988
▁máithreachais	-10.988
▁mídhleathach	-10.988
▁ndáiríre	-10.988
▁núicléasach	-10.988
▁oilimpeach	-10.988
▁princess	-10.988
▁píolótach	-10.988
▁raidió	-10.988
▁ransomware	-10.988
▁riospr	-10.988
▁ritonavir	-10.988
▁romhainn	-10.988
▁sainaithint	-10.988
▁saothair	-10.988
▁seipteach	-10.988
▁shenzhen	-10.988
▁shincheonji	-10.988
▁siamsaíochta	-10.988
▁síochána	-10.988
▁taispeán	-10.988
▁thrasnú	-10.988
▁tsamhraidh	-10.988
▁turasóireacht	-10.988
▁turgnamhach	-10.988
▁turraing	-10.988
▁uaigneas	-10.988
▁uasdát	-10.988
▁vomiting	-10.988
▁áirithint	-10.988
▁éigipt	-10.988
creimirí	-10.988
▁Laghdó	-10.988
▁caifé	-10.988
▁fiafr	-10.988
▁ioslam	-10.988
▁maipín	-10.988
▁mhalairt	-10.988
▁mhonaróir	-10.988
▁príosúnach	-10.988
▁triage	-10.988
▁uefa	-10.988
coibhneas	-10.988
gairdín	-10.988
▁Chrutha	-10.988
▁cumhdai	-10.988
▁gcoláistí	-10.988
▁meaisín	-10.988
▁paiteolaíoch	-10.988
▁raideolaíoch	-10.988
▁tabharfa	-10.988
▁trilliún	-10.988
▁chumhacht	-10.988
▁fhorchur	-10.988
▁franc	-10.988
▁ghaolta	-10.988
▁réasúna	-10.988
▁thabharfa	-10.988
▁íochtarach	-10.988
ráflaí	-10.988
▁Covid	-10.988
▁Sainmhín	-10.988
▁ionchur	-10.988
▁1890	-10.988
▁seisear	-10.988
▁stáisiú	-10.988
ruaige	-10.988
▁mhapáil	-10.988
▁Braisl	-10.988
▁cianda	-10.988
▁sceidil	-10.988
▁tharlóidh	-10.988
▁foirgn	-10.988
▁you	-10.988
▁caighdeánacha	-10.988
▁creat	-10.988
▁aimsiú	-10.988
▁láidre	-10.988
▁scanrú	-10.988
▁imirce	-10.988
▁cuimhne	-10.988
▁fheist	-10.988
▁ceachtanna	-10.988
▁ndoirse	-10.988
▁athló	-10.988
rdrp	-10.988
▁mhodhnú	-10.988
▁bheilg	-10.988
uineachán	-10.988
▁chríosta	-10.988
▁bholgach	-10.988
▁ghné	-10.988
▁sasana	-10.988
bhuana	-10.988
▁bhfliú	-10.988
▁fhéach	-10.988
riarthóir	-10.988
▁claontacht	-10.988
▁bpail	-10.988
▁ceangla	-10.988
aitéis	-10.988
▁éadan	-10.988
▁críosta	-10.988
▁pub	-10.988
▁madra	-10.988
▁gafa	-10.988
ndálaí	-10.988
▁muinín	-10.988
eipitít	-10.988
páras	-10.988
▁peile	-10.9881
▁aldi	-10.9881
▁eascair	-10.9881
▁maireann	-10.9881
▁feola	-10.9881
▁tionó	-10.9881
▁mballa	-10.9881
▁Scan	-10.9881
▁shuíochá	-10.9881
eitril	-10.9881
▁Cnap	-10.9881
▁allais	-10.9881
jiang	-10.9882
▁bricfe	-10.9882
▁chách	-10.9882
▁caillteana	-10.9882
▁baictéarach	-10.9882
▁ceadúnai	-10.9883
▁shean	-10.9883
▁chainn	-10.9883
▁Measún	-10.9883
fíric	-10.9883
téachtá	-10.9884
▁osclaí	-10.9884
thshlán	-10.9885
▁ceannasach	-10.9886
▁banc	-10.9886
,534	-10.9886
▁Bog	-10.9887
▁inné	-10.9888
uspóir	-10.9888
▁siona	-10.9889
▁thomha	-10.989
live	-10.9893
raoin	-10.9895
ogra	-10.9897
armana	-10.9897
▁míneo	-10.9898
zoo	-10.9899
rúpa	-10.9902
▁gcúl	-10.9904
▁dearca	-10.9906
▁leaist	-10.9918
▁chait	-10.9918
▁freas	-10.9922
batcov	-10.9924
2.4%	-10.994
hino	-10.9951
píní	-10.9974
▁stoi	-10.9977
omhdháil	-10.9982
▁machna	-10.9986
▁shraith	-10.9991
angio	-11.0025
eipidéimeolaithe	-11.0075
▁brisea	-11.0078
wel	-11.0093
vax	-11.0127
ghai	-11.0137
trans	-11.0178
imseo	-11.0284
aidri	-11.0303
póna	-11.032
▁phrótaca	-11.0331
idhmeanna	-11.0342
▁nideo	-11.0402
íoctha	-11.0413
▁mothúchá	-11.0462
▁bhfaighea	-11.0545
liniciúla	-11.0571
remi	-11.0596
▁suaimhn	-11.0609
bheirt	-11.0667
▁gceadó	-11.0672
aglaisí	-11.0733
epi	-11.0784
▁Scrios	-11.0842
▁ndéanf	-11.0848
leog	-11.0894
erálaithe	-11.1024
altraí	-11.1204
leanáil	-11.1265
ororda	-11.1323
ríoga	-11.1449
phríobháideachas	-11.1497
dteistiméireacht	-11.154
▁ghníomha	-11.1555
▁sraiththástá	-11.163
eachtaireachtaí	-11.1705
▁iompa	-11.1891
thriú	-11.2109
ghníomhaíocht	-11.2221
uaimhneas	-11.2278
éadrach	-11.242
cmhainneacht	-11.2747
▁cheist	-11.2854
oibrí	-11.2889
fhoins	-11.3006
biontech	-11.3008
saotharlann	-11.3009
réimsí	-11.3009
déanamh	-11.301
pfizer	-11.301
riachtana	-11.301
teorainn	-11.3011
diúltach	-11.3013
D	-11.3015
cúram	-11.3023
▁ndún	-11.3098
upro	-11.3099
▁zónóis	-11.3102
▁Taispeá	-11.3104
nstitiúid	-11.3105
▁fhiabhra	-11.3118
clúidí	-11.3138
iarmhairt	-11.3141
chruth	-11.3146
iaibéiteas	-11.3162
▁sraotharta	-11.3181
éarscáil	-11.3187
▁brusca	-11.3188
seapáin	-11.3188
▁athmhol	-11.3192
▁siomptó	-11.3197
▁speisial	-11.3199
liuch	-11.3203
adtéarmach	-11.3203
orleathan	-11.3203
onatóireacht	-11.3207
▁coronaviri	-11.3209
substaintí	-11.3213
▁fheabh	-11.3213
▁Tuairiscí	-11.3213
inflamma	-11.3213
▁sraoth	-11.3213
▁Réamh	-11.3213
▁giomnáis	-11.3213
▁luasghéa	-11.3213
▁neamhchinntithe	-11.3213
▁Tionól	-11.3213
▁oirdheisc	-11.3213
▁sholáthró	-11.3213
07.2	-11.3213
adanaivíreas	-11.3213
aireofá	-11.3213
alveolar	-11.3213
chumarsáide	-11.3213
coimpléasc	-11.3213
coincheap	-11.3213
custaiméirí	-11.3213
cóngarach	-11.3213
eitibileach	-11.3213
fheicthe	-11.3213
ghlactha	-11.3213
hormónach	-11.3213
ocsaíd	-11.3213
ortaingéil	-11.3213
oréigneach	-11.3213
rioblóid	-11.3213
▁Gníomhair	-11.3213
▁Gníomhaíochta	-11.3213
▁Iobúpróifein	-11.3213
▁Niúmóine	-11.3213
▁Ospidéal	-11.3213
▁Pictiúrlanna	-11.3213
▁Rialacha	-11.3213
▁Slaghdá	-11.3213
▁abbott	-11.3213
▁allamuigh	-11.3213
▁ambasáid	-11.3213
▁antartaice	-11.3213
▁athbheochan	-11.3213
▁athchúrsá	-11.3213
▁athmhúnl	-11.3213
▁bhfabhar	-11.3213
▁bhíobla	-11.3213
▁bpacáist	-11.3213
▁capita	-11.3213
▁capsúil	-11.3213
▁chairtchlár	-11.3213
▁chugainn	-11.3213
▁chustaiméirí	-11.3213
▁cileav	-11.3213
▁clóirín	-11.3213
▁colaistéaró	-11.3213
▁comhlántach	-11.3213
▁cornell	-11.3213
▁coronavac	-11.3213
▁corovirus	-11.3213
▁círéib	-11.3213
▁dhiúltú	-11.3213
▁dhosmálta	-11.3213
▁doorknob	-11.3213
▁dtaispeánta	-11.3213
▁dubai	-11.3213
▁dúlaga	-11.3213
▁fabhrach	-11.3213
▁fallaingeacha	-11.3213
▁fhorfheidhmiú	-11.3213
▁folctha	-11.3213
▁fostaíochta	-11.3213
▁féintuairisci	-11.3213
▁gcontúirt	-11.3213
▁ghairdín	-11.3213
▁gruagairí	-11.3213
▁hacmhainn	-11.3213
▁hidéalach	-11.3213
▁huathoibríoch	-11.3213
▁hypox	-11.3213
▁háitiúil	-11.3213
▁infhéitheach	-11.3213
▁iobúproifein	-11.3213
▁iomchuí	-11.3213
▁iompraíochta	-11.3213
▁limficítí	-11.3213
▁lombaird	-11.3213
’	-11.8017
T	-12.803
Ú	-12.8079
P	-12.808
O	-12.8081
–	-12.8082
”	-12.8083
R	-12.8084
/	-12.8085
G	-12.8086
L	-12.8087
F	-12.8088
S	-12.8089
B	-12.809
N	-12.8091
(	-12.8092
M	-12.8093
I	-12.8094
A	-12.8095
C	-12.8096
