<pad>	0
</s>	0
<unk>	0
▁	-3.85973
▁के	-3.94295
▁है	-4.09843
।	-4.24465
ा	-4.26229
े	-4.27883
ी	-4.30192
,	-4.30222
▁में	-4.35424
▁और	-4.3827
न	-4.41966
▁की	-4.48353
र	-4.55017
▁से	-4.67324
ों	-4.69428
ल	-4.75293
▁को	-4.75416
क	-4.80302
▁का	-4.80411
म	-4.92796
)	-4.97406
▁(	-4.97668
ि	-5.03029
त	-5.05449
ं	-5.0634
स	-5.14135
ो	-5.15426
ने	-5.181
.	-5.19644
▁कि	-5.21695
-	-5.25112
▁पर	-5.25625
ता	-5.26863
ह	-5.31734
▁हैं	-5.32121
ु	-5.34451
▁एक	-5.35873
ित	-5.36463
प	-5.36896
द	-5.39794
▁लिए	-5.46776
▁इस	-5.47347
ब	-5.48517
य	-5.49222
ना	-5.51409
ट	-5.5155
ज	-5.51618
▁अ	-5.52689
श	-5.52959
▁न	-5.53097
▁आ	-5.55614
ू	-5.60294
▁तो	-5.61951
▁जो	-5.62266
▁हो	-5.65308
▁नहीं	-5.66479
▁भी	-5.6694
व	-5.68319
्य	-5.74502
▁स	-5.7731
▁कर	-5.7763
▁म	-5.79574
▁यह	-5.82278
च	-5.86419
▁ने	-5.86872
िक	-5.87658
ग	-5.88174
▁किया	-5.88967
्	-5.90176
▁उस	-5.91823
्र	-5.94283
ख	-5.97913
रा	-5.98118
▁ब	-5.98342
▁वह	-6.00854
र्	-6.0108
ण	-6.03163
▁ही	-6.03297
▁वि	-6.03722
▁या	-6.03868
▁सं	-6.04979
▁क	-6.05157
ला	-6.09905
▁प	-6.10239
▁ह	-6.11323
▁करने	-6.12319
या	-6.13563
ै	-6.13917
का	-6.14215
▁प्र	-6.14573
ड	-6.15859
▁ज	-6.16299
फ	-6.19207
▁तुम	-6.20383
▁हम	-6.20919
ते	-6.23756
▁द	-6.24341
ें	-6.25139
▁अपने	-6.31942
▁था	-6.32699
▁च	-6.34216
कर	-6.34675
▁श	-6.35779
▁ग	-6.37315
▁वे	-6.37319
ियों	-6.38661
ध	-6.40232
ज़	-6.43135
à	-6.43141
▁सा	-6.44798
▁तथा	-6.46874
त्र	-6.47014
ए	-6.48039
▁गया	-6.48544
से	-6.48584
री	-6.4866
वा	-6.49766
▁फ	-6.4982
▁त	-6.50147
▁जा	-6.51206
▁व	-6.51832
ती	-6.53456
क्ष	-6.54361
के	-6.54815
▁कुछ	-6.55187
थ	-6.5561
▁उ	-6.56502
ौ	-6.58328
▁किसी	-6.58989
¤	-6.59251
▁नि	-6.59347
ओं	-6.61755
▁साथ	-6.62741
▁जब	-6.63719
ॉ	-6.64012
ंग	-6.6459
▁भ	-6.65008
▁उनक	-6.65173
▁रूप	-6.65492
भ	-6.69516
▁कोई	-6.69707
नी	-6.70543
ली	-6.70836
सा	-6.71171
मा	-6.7127
ष	-6.72506
ड़	-6.73068
0	-6.73111
▁द्वारा	-6.7426
▁लोग	-6.74464
ीय	-6.74524
ाई	-6.7469
▁पा	-6.74967
▁भारत	-6.75408
कार	-6.76119
1	-6.77026
▁करते	-6.77165
ान	-6.7792
▁आप	-6.78325
▁लोगों	-6.78861
▁इन	-6.79025
▁ख	-6.8001
2	-6.80083
दा	-6.80235
स्त	-6.80374
a	-6.80535
▁तक	-6.80542
▁थे	-6.8104
ई	-6.82153
▁जाता	-6.82427
▁कहा	-6.83327
▁उन	-6.83603
▁फिर	-6.84446
सी	-6.84491
▁दो	-6.86641
/	-6.88231
्स	-6.88794
▁करें	-6.89683
ः	-6.89766
▁ले	-6.90033
i	-6.90156
िल	-6.91121
▁ए	-6.91353
की	-6.92377
वि	-6.92588
▁ल	-6.92622
e	-6.93244
▁दिया	-6.93372
▁कार्य	-6.95533
ति	-6.95719
▁करना	-6.9612
▁क्या	-6.96303
▁इ	-6.96372
▁प्रति	-6.97256
▁मु	-6.97597
▁मैं	-6.97625
इ	-6.9861
?	-6.98648
मान	-6.98904
्व	-6.99448
t	-6.99703
▁बा	-6.99801
▁उसके	-7.00433
▁हुए	-7.00846
▁अपनी	-7.01177
ले	-7.01248
▁रहे	-7.01801
s	-7.02654
▁अल्लाह	-7.0345
▁ये	-7.0462
▁थी	-7.06244
▁1	-7.06563
िया	-7.06717
फ़	-7.07398
रण	-7.07577
ंद	-7.07587
त्	-7.07786
▁उन्हें	-7.07949
▁मा	-7.08211
क्	-7.08928
▁मिल	-7.09073
%	-7.09134
▁"	-7.09749
▁ला	-7.09872
रे	-7.09882
5	-7.10342
▁जिस	-7.11268
▁सकता	-7.1187
▁रहा	-7.13608
▁उप	-7.13692
▁रह	-7.13725
▁अधिक	-7.13916
▁बात	-7.14387
▁करता	-7.14881
▁कह	-7.15333
▁ख़ुदा	-7.15522
▁दे	-7.16201
ार	-7.16475
▁होता	-7.17017
क़	-7.17139
में	-7.17285
▁सु	-7.17498
▁2	-7.17588
▁समय	-7.17636
▁ट	-7.17713
▁अनु	-7.17915
प्र	-7.18029
अ	-7.18032
▁र	-7.18284
▁छ	-7.18425
7	-7.18502
स्थ	-7.18909
ल्	-7.19072
ठ	-7.19529
गा	-7.20654
▁घ	-7.2095
▁कम	-7.21044
▁बहुत	-7.21744
;	-7.22169
▁ड	-7.22251
▁देख	-7.22963
ाल	-7.23073
ंड	-7.23784
▁दी	-7.24376
्म	-7.24414
जा	-7.25104
ष्ट	-7.25699
▁सम	-7.261
▁मेर	-7.26171
4	-7.26354
न्	-7.26488
नि	-7.27014
भा	-7.27581
▁रा	-7.28362
▁बाद	-7.28516
न्द	-7.29039
ाँ	-7.29309
िका	-7.29401
्ल	-7.29426
:	-7.303
▁प्राप्त	-7.30683
▁उन्होंन	-7.31411
▁तरह	-7.32179
6	-7.32337
को	-7.32626
घ	-7.32723
▁रख	-7.33207
▁सि	-7.3417
पर	-7.34243
3	-7.34254
▁ध	-7.34286
8	-7.35118
▁हुआ	-7.35596
▁दिन	-7.35742
▁बना	-7.3585
▁सब	-7.3634
आ	-7.36912
▁पास	-7.37364
▁वाले	-7.37661
▁बि	-7.3816
ाव	-7.38517
▁राष्ट्रपति	-7.38754
o	-7.39199
▁अन्य	-7.39712
ात	-7.39971
शा	-7.4008
_	-7.40367
धा	-7.40867
एँ	-7.40905
▁करो	-7.40971
▁देश	-7.41421
▁होने	-7.42087
पा	-7.42096
▁मे	-7.42759
▁गए	-7.42875
▁मान	-7.43349
▁काम	-7.44237
▁सरकार	-7.44335
9	-7.44346
l	-7.44935
▁हमारे	-7.4496
कि	-7.4504
▁सी	-7.45287
▁क्षेत्र	-7.45307
जी	-7.4552
ास	-7.45626
▁सह	-7.46019
▁स्व	-7.46079
िय	-7.46272
स्	-7.46297
▁नाम	-7.46561
▁खा	-7.47137
▁सभी	-7.47663
यों	-7.48036
▁वा	-7.4815
दार	-7.48749
c	-7.48862
▁यदि	-7.48865
झ	-7.4892
▁वर्ष	-7.49146
▁गई	-7.50554
▁आय	-7.50609
▁प्रकार	-7.50671
िंग	-7.50755
▁19	-7.50914
ज्ञ	-7.51104
▁तुम्हारे	-7.51223
▁ओर	-7.51544
r	-7.52084
▁समझ	-7.52094
▁पहले	-7.52294
▁सकते	-7.52486
▁होगा	-7.53444
▁राज्य	-7.54176
▁व्यक्ति	-7.54372
▁उसक	-7.54372
▁परि	-7.54463
ंक	-7.54544
गी	-7.54814
ँ	-7.55162
▁ऐसे	-7.55287
त्त	-7.55297
िस	-7.55561
रि	-7.55771
टी	-7.55912
▁कारण	-7.56189
▁गु	-7.56443
युक्त	-7.5671
बा	-7.57248
दी	-7.5747
▁दूसर	-7.57583
▁उनकी	-7.57912
▁चाहिए	-7.58158
हर	-7.58882
ढ़	-7.59134
एं	-7.59156
तर	-7.59448
बर	-7.59746
क्त	-7.59808
▁हर	-7.6026
ृ	-7.60377
▁ख़	-7.60659
ही	-7.60727
▁अगर	-7.6098
▁पु	-7.61071
▁राज	-7.61074
▁होती	-7.61209
टा	-7.61352
वे	-7.61917
▁जाने	-7.62282
▁चल	-7.62738
चार	-7.62964
p	-7.63653
लि	-7.63667
गे	-7.64609
हा	-7.65206
▁किए	-7.65506
▁ऐसा	-7.65743
ेट	-7.66438
▁20	-7.66491
▁व्य	-7.66733
m	-7.66787
वी	-7.66817
त्व	-7.67367
स्ट	-7.67587
ये	-7.67589
▁स्थान	-7.67859
'	-7.679
द्ध	-7.67934
▁ईमान	-7.67936
▁पूर्व	-7.68714
▁रसूल	-7.68932
▁दिखा	-7.68934
गत	-7.69242
▁एव	-7.69308
ओ	-7.69315
▁भाग	-7.69753
ुल	-7.69853
छ	-7.70057
ंस	-7.70218
▁भारतीय	-7.70341
▁अधिकार	-7.70476
▁क़	-7.70897
▁अब	-7.71242
उ	-7.71375
▁जान	-7.71644
कों	-7.71711
▁ना	-7.7175
▁कु	-7.72011
▁बन	-7.72332
▁बु	-7.7294
00	-7.73336
योग	-7.73475
वाह	-7.73529
▁प्रा	-7.7372
जन	-7.74085
मी	-7.74404
u	-7.74504
▁'	-7.75028
▁मो	-7.75096
िश	-7.75341
▁जिन	-7.76245
▁तुम्हे	-7.77413
▁विकास	-7.77424
▁बदल	-7.77555
d	-7.78003
▁उपयोग	-7.78087
▁बार	-7.78287
लो	-7.78687
▁स्	-7.78833
▁जाती	-7.79195
▁मुझे	-7.79801
ंट	-7.80085
वाद	-7.80126
▁अभि	-7.80208
गर	-7.8026
▁सेवा	-7.80267
▁जाए	-7.804
▁जिसक	-7.80779
▁ऐ	-7.80838
▁हुई	-7.81018
न्त	-7.81026
▁दोनों	-7.81044
▁प्रदान	-7.81202
▁3	-7.81306
ड़ी	-7.81456
ूर	-7.81531
▁आधार	-7.81637
▁पड़	-7.8196
▁लगा	-7.82091
▁ज़	-7.82212
्ट	-7.82222
h	-7.82775
▁दु	-7.83031
▁s	-7.83156
रो	-7.83211
▁जीवन	-7.83262
ंत	-7.83575
▁जैसे	-7.83781
ष्	-7.84227
मे	-7.84732
▁श्री	-7.84772
▁अपना	-7.85228
‍	-7.85391
▁अव	-7.85871
▁पी	-7.86127
स्क	-7.86651
C	-7.86677
▁बीच	-7.86875
पी	-7.87316
▁ई	-7.87441
▁à	-7.87706
▁लग	-7.8784
न्न	-7.87986
▁रही	-7.8831
▁सर्व	-7.88354
मत	-7.88371
▁होते	-7.88559
▁लेकिन	-7.88641
▁रब	-7.88928
ांत	-7.89563
▁अस	-7.89612
▁शि	-7.89632
िन	-7.9004
क्षा	-7.90458
पन	-7.90906
▁लिया	-7.91609
ेंगे	-7.91809
म्ब	-7.91931
ऊ	-7.9195
▁विशेष	-7.91994
▁चुन	-7.92287
ूल	-7.92452
ंध	-7.92569
वर	-7.92581
चा	-7.92662
!	-7.92679
▁देने	-7.93299
▁आज	-7.93519
वर्त	-7.93771
र्थ	-7.9425
दर्श	-7.94394
ऐ	-7.94773
▁विचार	-7.951
▁बारे	-7.95289
डी	-7.95871
ख़	-7.95878
▁महा	-7.96077
िम	-7.9623
▁पैदा	-7.96292
दे	-7.96336
ग्र	-7.96418
क्षण	-7.96462
▁वाला	-7.966
ज़ा	-7.96752
▁अप	-7.97232
▁बे	-7.9731
▁सर	-7.97652
हमारी	-7.97858
स्प	-7.98085
▁डा	-7.98487
ृत	-7.99014
▁भेज	-7.99189
ड़ा	-7.99462
ार्थ	-7.99794
▁अधिनियम	-7.99799
कृत	-7.99854
क्स	-7.99983
▁संबंध	-8.00065
।"	-8.00104
▁पै	-8.00309
चित	-8.00315
A	-8.0054
बी	-8.00576
भाव	-8.01028
S	-8.01286
▁केवल	-8.01481
ड़े	-8.02494
दान	-8.02849
व्य	-8.03066
▁प्रयोग	-8.03086
र्ज	-8.0362
पूर्ण	-8.03757
▁ताक	-8.04204
▁डाल	-8.04705
▁जाएगा	-8.05202
▁ऐस	-8.0528
▁मै	-8.05282
01	-8.05291
▁आग	-8.05545
ोर	-8.05548
ियाँ	-8.05602
▁ता	-8.06149
र्द	-8.06345
▁शा	-8.0687
▁मह	-8.06883
वास	-8.06962
हार	-8.06987
▁झ	-8.07228
▁कै	-8.0745
I	-8.07466
▁पं	-8.07742
सं	-8.08091
▁डि	-8.08142
▁करती	-8.08254
▁तब	-8.0847
▁सू	-8.08734
▁दा	-8.08795
▁सम्	-8.08858
रत	-8.08944
▁लिख	-8.08979
¥	-8.09071
▁अथवा	-8.09075
यर	-8.09443
यन	-8.09704
मि	-8.10085
▁हूँ	-8.10085
▁प्रभाव	-8.10132
▁चि	-8.10184
g	-8.10705
▁योजना	-8.10705
▁रे	-8.10764
▁जिसमें	-8.1092
▁दर	-8.11524
▁लोक	-8.12392
▁क्योंकि	-8.12392
▁उपलब्ध	-8.13205
▁सहायता	-8.13205
▁इसलिए	-8.13209
▁सके	-8.13897
▁छोड़	-8.14059
बू	-8.141
▁जाना	-8.14125
ीकरण	-8.14263
र्ड	-8.14426
तम	-8.14435
र्क	-8.14675
ियां	-8.14676
▁बस	-8.14772
▁सबसे	-8.15272
T	-8.15769
०	-8.15769
ग्रह	-8.15823
था	-8.16592
▁लो	-8.16902
▁उसी	-8.1707
▁सकती	-8.1753
▁चीज़	-8.1754
▁जाते	-8.17776
▁ऑ	-8.17829
▁जिसे	-8.18009
▁हा	-8.18365
▁संदेश	-8.18625
▁बाहर	-8.18633
▁वही	-8.19046
▁भर	-8.19317
▁यू	-8.19617
च्छ	-8.20173
P	-8.20195
▁घर	-8.2022
▁राष्ट्रीय	-8.2026
ष्ठ	-8.20304
▁हमें	-8.20521
▁उनसे	-8.20853
▁देता	-8.20853
कृति	-8.21126
in	-8.21167
्न	-8.2122
▁रु	-8.21223
▁वाली	-8.2141
▁उत्	-8.21525
▁रि	-8.21637
▁अर्थ	-8.21654
▁शक्ति	-8.21702
▁रो	-8.21756
मु	-8.21945
▁क्र	-8.22202
▁पता	-8.22794
टर	-8.22842
b	-8.22947
▁बढ़	-8.2322
▁पहल	-8.23631
ूँ	-8.23825
...	-8.23948
क्रम	-8.2402
ुक	-8.24199
▁पार	-8.24521
▁गो	-8.24848
▁बड़ी	-8.2524
देश	-8.25413
▁जी	-8.25414
f	-8.25777
▁खुल	-8.26178
▁स्थाप	-8.2674
▁विषय	-8.26754
▁शिक्षा	-8.268
▁बच	-8.26868
▁हाथ	-8.26949
च्च	-8.27091
वालों	-8.27164
तौर	-8.27226
पुर	-8.27453
▁इसे	-8.27509
▁इं	-8.27577
R	-8.2771
w	-8.2869
E	-8.2869
k	-8.2869
▁बैंक	-8.28692
▁सूची	-8.28695
▁धारा	-8.28717
▁सामने	-8.28718
▁लेख	-8.28738
▁दिल	-8.28743
▁उच्च	-8.28834
धारण	-8.28941
्ति	-8.29053
ग़	-8.2946
▁होना	-8.296
▁होंगे	-8.29726
म्म	-8.30061
▁यहाँ	-8.30472
▁पहुँच	-8.3068
M	-8.3068
▁प्रकाश	-8.30689
तः	-8.3097
़	-8.31008
▁कहते	-8.3134
्वा	-8.31397
▁स्ट	-8.31439
>	-8.31691
▁परवरदिगार	-8.31691
▁सदस्य	-8.31694
बार	-8.31732
ैन	-8.31997
"	-8.32136
स्त्र	-8.32279
ालय	-8.32324
▁4	-8.32638
▁पद	-8.32645
▁ब्र	-8.32687
▁उत्पाद	-8.32711
▁बल्कि	-8.32711
▁उठा	-8.32746
▁आम	-8.32884
रूप	-8.32928
▁फ़	-8.32947
ल्ल	-8.33054
ताओं	-8.33318
▁आदि	-8.3387
वार	-8.34405
▁तरफ	-8.34785
▁सूचना	-8.34785
▁उत्तर	-8.34883
यो	-8.35525
er	-8.35755
▁शामिल	-8.35838
▁सामान्य	-8.35838
▁मुख्य	-8.3584
▁किताब	-8.35887
विध	-8.35929
▁अन	-8.3594
▁निर्	-8.36253
▁लगे	-8.36665
▁लिये	-8.36908
▁पे	-8.37114
▁लाभ	-8.37136
▁निकल	-8.37138
गार	-8.37294
▁आई	-8.37474
▁अच्छा	-8.37988
▁केंद्र	-8.37995
▁पूरी	-8.3801
▁उनमें	-8.38358
▁करेगा	-8.38389
▁याद	-8.3846
▁माल	-8.38697
▁सुन	-8.38924
▁सभा	-8.38976
’	-8.39062
”	-8.39062
▁तैयार	-8.39062
▁विभिन्न	-8.39062
▁स्पष्ट	-8.39065
▁मदद	-8.39091
▁कभी	-8.39296
▁मन	-8.39495
▁दूर	-8.39537
ट्ट	-8.39996
▁ट्र	-8.4008
O	-8.40161
▁करके	-8.40184
ेगा	-8.40235
धिक	-8.40475
▁स्थिति	-8.4052
▁हाल	-8.40553
▁करे	-8.40798
▁रंग	-8.40871
▁बी	-8.41152
▁अंतर	-8.41184
▁हेतु	-8.41273
▁फ़ाइल	-8.41288
▁सद	-8.41332
र्ट	-8.41401
▁विश्व	-8.41735
▁बड़ा	-8.41735
▁चार	-8.42223
▁हूं	-8.4242
▁पूरा	-8.42437
ेशन	-8.42604
पाल	-8.42672
D	-8.43532
▁निर्माण	-8.43915
▁स्वा	-8.44646
▁शब्द	-8.44682
▁भाषा	-8.44683
▁अवसर	-8.44693
▁भवन	-8.44707
▁मानव	-8.44791
▁चाहते	-8.44821
आई	-8.45222
▁होगी	-8.45631
▁उसमें	-8.45693
▁दौरान	-8.45844
▁मार्ग	-8.45928
एस	-8.4598
म्प	-8.46107
▁चाहता	-8.4621
रोध	-8.46212
इस	-8.46227
▁‘	-8.46362
▁प्रो	-8.46925
▁जहां	-8.47024
▁सार	-8.47696
▁तुम्हार	-8.47735
▁बता	-8.47852
▁मौ	-8.4796
▁शुरू	-8.48212
▁नियम	-8.48274
▁आया	-8.48755
कारी	-8.49033
▁१	-8.49234
▁निश्चय	-8.49417
श्त	-8.50134
▁भू	-8.50218
▁नीति	-8.50517
▁प्रक्रिया	-8.50738
ध्य	-8.50751
▁बढ़ा	-8.50919
▁वै	-8.51218
▁जमा	-8.51303
▁प्रत्ये	-8.51437
▁5	-8.51685
v	-8.5187
▁अधीन	-8.51871
▁वस्तु	-8.51875
▁गयी	-8.5192
▁वर्ग	-8.52022
▁उनको	-8.52078
▁अनेक	-8.52094
▁मध्य	-8.52206
▁जल	-8.52304
▁सीमा	-8.5233
▁इतन	-8.52657
N	-8.5312
▁पहुंच	-8.5312
▁प्रबंध	-8.53122
▁प्रतिशत	-8.53132
ाइन	-8.53449
▁बड़े	-8.5357
ायी	-8.53634
ात्मक	-8.53797
भी	-8.54096
ण्ड	-8.54394
▁मूल्य	-8.54663
▁ठ	-8.54816
▁गये	-8.54868
▁लड़	-8.552
▁ओ	-8.55495
▁महत्वपूर्ण	-8.55668
▁देखा	-8.55802
▁भूमि	-8.55855
▁बोल	-8.56141
▁आए	-8.56683
▁नई	-8.56847
ऋ	-8.56962
िए	-8.57106
▁जोड़	-8.57125
▁क्षेत्रों	-8.57186
भूत	-8.57427
▁चला	-8.57621
▁गिर	-8.57643
▁बनाया	-8.57743
▁आपको	-8.57827
▁पो	-8.57903
L	-8.58283
▁परिवर्तन	-8.58284
▁स्वीकार	-8.58288
▁समूह	-8.5829
▁कार्यक्रम	-8.58419
▁स्तर	-8.58564
▁सौ	-8.59315
▁संस्थान	-8.59457
▁पि	-8.59546
▁संख्या	-8.59616
उन	-8.59914
▁अभी	-8.6008
▁आदेश	-8.60169
▁रोक	-8.60192
▁बन्द	-8.60584
▁गति	-8.60648
क्ति	-8.60851
n	-8.61017
▁संस्था	-8.61143
ियो	-8.61164
▁अलग	-8.61229
▁करनेवाल	-8.61426
▁देना	-8.61485
पूर	-8.61603
▁पढ़	-8.61607
▁करेंगे	-8.61928
▁प्रस्तुत	-8.62337
▁प्रौद्योगिकी	-8.62337
▁माध्यम	-8.62338
▁प्रमुख	-8.62338
▁वास्तव	-8.62339
▁अनुसार	-8.62345
▁स्वयं	-8.62346
▁अंत	-8.62354
▁सफल	-8.62382
▁जारी	-8.62393
▁अत्य	-8.6241
▁जनता	-8.6244
प्त	-8.62486
▁डर	-8.62985
▁विश्वास	-8.63156
▁रू	-8.63219
▁संबंधित	-8.63227
कर्ता	-8.63457
▁नीचे	-8.63728
▁निकाल	-8.63846
▁खोल	-8.63848
▁रखा	-8.63916
धरती	-8.64091
▁तु	-8.64284
▁दें	-8.65035
¤3⁄4	-8.65135
▁कृषि	-8.65135
▁मौजूद	-8.65135
▁सुरक्षा	-8.65136
▁ऊपर	-8.65138
र्ग	-8.65235
दाय	-8.65259
ंगा	-8.65302
▁अतः	-8.65718
▁खुदा	-8.6575
▁पानी	-8.66136
▁अन्त	-8.66246
▁केन्द्र	-8.66584
▁काफी	-8.66697
▁प्रेम	-8.66737
न्तु	-8.67189
▁उद्देश्य	-8.68012
▁ज्ञान	-8.68022
▁सत्य	-8.68138
▁ग़	-8.68464
▁समान	-8.68866
▁पूर्ण	-8.69103
▁ज्यादा	-8.69483
▁विवरण	-8.69489
भाग	-8.69549
▁आत्म	-8.696
▁कॉ	-8.69947
वर्ण	-8.70139
▁जिनक	-8.70147
▁बनाने	-8.703
▁आवश्यकता	-8.70569
▁नया	-8.70695
▁विश्वविद्यालय	-8.70975
▁ठीक	-8.7099
▁प्रयास	-8.70999
श्च	-8.71082
ख्त	-8.71242
स्व	-8.71277
▁खोज	-8.71297
▁दुनिया	-8.71645
▁जाये	-8.71782
▁सामाजिक	-8.72491
▁बह	-8.725
▁चौ	-8.7253
an	-8.72614
स्तान	-8.7266
▁तीन	-8.72876
▁सिवा	-8.73147
उस	-8.73453
19	-8.73796
▁पश्चिम	-8.74029
▁पुस्तक	-8.74045
▁मामले	-8.74092
▁मूल	-8.74568
वादी	-8.7468
y	-8.75533
▁समस्या	-8.75592
▁पूछ	-8.75594
▁ऋण	-8.75598
▁लौट	-8.75605
▁धर्म	-8.75608
▁निशान	-8.75623
ाधिकार	-8.75649
▁कर्म	-8.75706
▁जिन्हें	-8.75747
न्ध	-8.76054
▁मार	-8.76088
▁अगल	-8.76275
▁जैसा	-8.76341
▁लेकर	-8.76809
▁क्रिया	-8.77029
▁व्यापार	-8.77179
▁“	-8.77198
▁उद्योग	-8.7721
▁सोच	-8.77278
▁जाओ	-8.77523
▁ध्या	-8.77628
▁रखने	-8.78051
▁लाए	-8.78088
▁फ़ोल्डर	-8.78792
▁पीछे	-8.78794
▁कानून	-8.788
▁अच्छे	-8.78802
▁न्यायालय	-8.78814
▁चाहे	-8.78881
ियन	-8.79132
▁पक्ष	-8.79342
▁जानते	-8.79405
▁विंडो	-8.79429
▁तरीक	-8.79569
▁रहते	-8.79857
▁खंड	-8.79951
or	-8.80162
र्इ	-8.80292
▁जीव	-8.80293
▁सुविधा	-8.80433
▁एस	-8.80558
▁तुम्हारी	-8.80668
शील	-8.81085
▁गुण	-8.81291
▁राष्ट्र	-8.81963
बाद	-8.82051
▁विशिष्ट	-8.82098
निर्दिष्ट	-8.82098
▁क्षमता	-8.821
▁बराबर	-8.821
▁ज़मीन	-8.82101
▁आकाश	-8.82122
▁10	-8.82647
▁शहर	-8.82916
▁चाह	-8.83158
▁देते	-8.83231
२	-8.83793
▁पिछल	-8.83798
▁अवधि	-8.83817
▁जानकारी	-8.83865
▁पाठ	-8.8443
▁हुक्म	-8.85517
▁लगभग	-8.85518
▁वहां	-8.85674
▁&	-8.85874
वृत्त	-8.86123
▁कुल	-8.86476
▁नही	-8.8661
▁बैठ	-8.8663
▁परियोजना	-8.87271
	-8.87271
▁झुठला	-8.87271
▁निम्न	-8.87274
▁सिंह	-8.87287
ग्राम	-8.87333
▁आपक	-8.87457
▁आवश्यक	-8.87752
▁प्रदर्श	-8.87827
▁रखते	-8.88252
▁आर्थ	-8.88294
en	-8.88627
▁देव	-8.88704
▁अधि	-8.88881
▁गांधी	-8.89057
▁संसद	-8.89113
▁सहयोग	-8.89248
▁सिर्फ	-8.89326
▁प्रदेश	-8.89474
पति	-8.90875
▁निर्धारित	-8.90875
▁परिणाम	-8.90875
▁युद्ध	-8.90875
▁चुके	-8.9089
▁कौन	-8.90906
बद्ध	-8.91135
▁रोग	-8.91842
B	-8.92727
▁प्रणाली	-8.92727
▁बंगाल	-8.92735
▁वास्ते	-8.92735
▁जगह	-8.92749
▁आयोज	-8.92778
▁चित्र	-8.93153
ाइल	-8.93193
▁परन्तु	-8.93426
▁न्याय	-8.94591
U	-8.94614
५	-8.94614
▁अतिरिक्त	-8.94614
▁दक्षिण	-8.94614
▁शीर्ष	-8.94614
▁स्वतंत्रता	-8.94614
▁समाप्त	-8.94616
▁बेशक	-8.94625
▁मित्र	-8.94677
▁क्ल	-8.94751
▁ग्	-8.95202
▁बैठक	-8.95312
एफ	-8.95367
▁बनाए	-8.95532
▁अग्र	-8.95796
▁क्यों	-8.96542
▁लागू	-8.96544
▁महिला	-8.96544
▁चुका	-8.96558
▁समाज	-8.96582
▁निर्देश	-8.96586
▁जुड़	-8.967
▁18	-8.96984
ाइट	-8.97806
▁पेश	-8.97964
▁दृष्टि	-8.98497
३	-8.98498
▁मनुष्य	-8.98498
▁साहित्य	-8.98498
▁निवेश	-8.985
▁लक्ष्य	-8.98502
▁अच्छी	-8.9851
▁जन्म	-8.98543
50	-8.98742
th	-8.98792
▁विदेश	-8.99006
हमेशा	-8.99159
▁बहु	-9.00493
▁रिपोर्ट	-9.00498
▁कंपनी	-9.00498
▁जरूरत	-9.00498
▁पश्चात	-9.00498
▁दिल्ली	-9.005
▁अज़ाब	-9.00503
▁बच्चे	-9.00505
▁बाजार	-9.00506
▁नियंत्रण	-9.00599
re	-9.00691
ेक्ट	-9.01126
▁विधि	-9.02028
हमारा	-9.02286
▁जिन्ह	-9.02341
▁अनुसंधान	-9.02538
▁निस्संदेह	-9.02538
▁मंत्रालय	-9.02538
▁संगठन	-9.02539
▁निर्णय	-9.02542
▁अनुभव	-9.02545
▁यातना	-9.02593
▁कहीं	-9.02602
▁परिवार	-9.02666
▁दिए	-9.02876
▁खेल	-9.02884
▁समिति	-9.03409
▁देगा	-9.0346
९	-9.04622
▁प्रारंभ	-9.04622
▁व्यवस्था	-9.04622
▁विकल्प	-9.04622
▁अंतर्गत	-9.04622
▁वृ	-9.04655
▁लंब	-9.04732
▁विभाग	-9.04974
▁प्रत्य	-9.05467
मगर	-9.06275
▁पहचान	-9.0675
▁सम्बन्ध	-9.0675
▁त्रुटि	-9.06751
¤°	-9.06757
आख़िर	-9.06759
▁घटना	-9.06761
मीटर	-9.07122
▁वक्त	-9.07447
16	-9.07888
स्थिति	-9.08806
पैग़म्बर	-9.08923
▁निश्चित	-9.08924
▁प्रश्न	-9.08926
▁संपर्क	-9.08926
▁परंतु	-9.08935
▁शरीर	-9.08951
▁जांच	-9.08953
▁फाइल	-9.09108
▁जाएगी	-9.09133
x	-9.11146
▁name	-9.11146
▁यक़ीन	-9.11146
▁सक्रिय	-9.11146
F	-9.11146
▁ग्रामीण	-9.11146
▁बेहतर	-9.11147
▁प्रस्ताव	-9.11147
▁कठिन	-9.11147
▁ज़रूर	-9.11148
▁सुधार	-9.11154
▁मूसा	-9.1116
▁दिशा	-9.11165
▁न्यू	-9.11192
▁वापस	-9.11198
▁यात्रा	-9.112
▁राशि	-9.12764
▁पुरुष	-9.13418
▁स्वास्थ्य	-9.13419
▁स्रोत	-9.13421
▁खुश	-9.13439
▁हिंद	-9.1344
▁उद्	-9.13465
▁चीज	-9.13486
▁पुरान	-9.13853
▁गीत	-9.1536
▁कृपया	-9.15744
▁प्रधानमंत्री	-9.15744
▁हिस्सा	-9.15744
▁छोटे	-9.15744
▁मंदिर	-9.15744
▁उत्पन्न	-9.15744
▁बच्चों	-9.1575
▁वृद्धि	-9.15751
▁मुद्र	-9.15757
▁जल्द	-9.15794
लिखित	-9.16068
▁मुक्त	-9.17502
▁रचना	-9.17822
▁तेज	-9.18096
▁मृत्यु	-9.18125
६	-9.18125
▁समुद्र	-9.18125
▁शुल्क	-9.18125
▁वित्तीय	-9.18126
▁जहाँ	-9.18132
▁अलावा	-9.1814
ly	-9.18215
?"	-9.18346
▁फैल	-9.18464
ाइड	-9.18546
पूर्वक	-9.19106
▁फेर	-9.19153
▁कितन	-9.20279
▁आवेदन	-9.20564
▁अंग्रेज	-9.20564
▁आरंभ	-9.20564
▁झूठ	-9.20565
▁निर्यात	-9.20568
▁क़ौम	-9.20569
on	-9.20575
▁आसमान	-9.20585
▁संकेत	-9.20588
▁तहत	-9.20613
▁पुनर्	-9.20624
▁कर्मचार	-9.20647
१	-9.20935
▁मामल	-9.20942
प्रभु	-9.20983
प्प	-9.211
▁तेर	-9.22809
optional	-9.23064
–	-9.23064
ity	-9.23064
▁translat	-9.23064
▁पृष्ठ	-9.23064
▁जाएँगे	-9.23065
▁अपेक्षा	-9.23066
▁प्रवेश	-9.23069
▁पुनः	-9.2307
▁इतिहास	-9.2313
tion	-9.23154
▁निकट	-9.23162
▁छिप	-9.23235
▁गलत	-9.23409
दूसर	-9.23514
बोध	-9.23518
▁स्थित	-9.24801
Name	-9.25628
▁सम्मेलन	-9.25628
H	-9.25628
▁सहायक	-9.25628
दृश्य	-9.25628
▁प्रमाणपत्र	-9.25629
▁रुपये	-9.25629
▁संविधान	-9.25629
▁मुँह	-9.25631
▁अवस्था	-9.25633
▁दिनांक	-9.25634
▁संपाद	-9.25636
ion	-9.25643
क्रिया	-9.26756
G	-9.28259
▁#44;	-9.2826
▁मुखर्जी	-9.2826
▁वैज्ञानिक	-9.2826
▁संसाधन	-9.2826
▁विस्तार	-9.28262
▁बोर्ड	-9.28264
▁गुनाह	-9.28271
▁प्रगति	-9.28273
▁जवाब	-9.28275
▁मात्रा	-9.28284
▁शासन	-9.28299
▁प्रकट	-9.28337
▁घाट	-9.28472
▁उदाहरण	-9.30962
▁प्रशिक्षण	-9.30962
▁हस्ताक्षर	-9.30962
▁सामग्री	-9.30962
▁इस्तेम	-9.30963
▁संभावना	-9.30966
▁पुलिस	-9.30967
▁मालूम	-9.30969
▁उपकरण	-9.30972
▁संगीत	-9.30974
▁(1)	-9.31024
▁अंतिम	-9.31046
▁उपस्थित	-9.31499
ख़ुदा	-9.31622
ज्ज	-9.33252
मंडल	-9.33272
{	-9.3374
८	-9.3374
ॅ	-9.3374
▁व्यवहार	-9.33741
▁स्कूल	-9.33745
▁ऊर्जा	-9.33913
कल्पना	-9.34569
bab	-9.36597
▁भविष्य	-9.36597
▁भुगतान	-9.36597
▁चिकित्सा	-9.36597
▁समाधान	-9.36597
▁प्रतिनिधि	-9.36598
▁नागरिक	-9.36598
▁शायद	-9.36605
▁असफल	-9.36605
▁वायु	-9.36612
▁तंत्र	-9.36618
▁प्रथम	-9.36623
▁गुरु	-9.36641
▁विजय	-9.36654
लैंड	-9.37202
▁खुद	-9.3831
}	-9.39538
▁आधुनिक	-9.39538
▁शताब्द	-9.39538
▁भिन्न	-9.39542
¥	-9.39543
▁अवश्य	-9.39545
▁आदमी	-9.3955
▁पसंद	-9.39566
▁मिटा	-9.39568
▁तीसर	-9.39579
▁खरीद	-9.39655
▁आसान	-9.39921
▁जैस	-9.40495
▁अनुमति	-9.41812
V	-9.42569
▁not	-9.42569
▁pro	-9.42569
▁गुणवत्ता	-9.42569
▁वेबसाइट	-9.42569
कृष्ण	-9.42569
▁समारोह	-9.42569
▁यूरोप	-9.4257
▁प्रमाण	-9.42577
▁शेयर	-9.4258
▁पूरे	-9.42662
▁तकनीक	-9.42684
▁बयान	-9.42729
कालीन	-9.43495
▁पर्यावरण	-9.45694
▁doe	-9.45694
▁need	-9.45694
▁नेटवर्क	-9.45694
▁प्रोत्साह	-9.45694
▁मजबूत	-9.45694
▁श्रेणी	-9.45694
▁प्रशासन	-9.45694
▁ज़ालिम	-9.45694
▁मुद्द	-9.45694
▁अध्ययन	-9.45694
▁सुनिश्च	-9.45694
://	-9.45694
▁युवा	-9.45694
▁चुकी	-9.45715
▁भावना	-9.4632
अपने	-9.46833
Z	-9.48919
४	-9.48919
▁उल्लेख	-9.48919
▁कांग्रेस	-9.48919
▁व्यापक	-9.4892
▁अधिकांश	-9.4892
▁युग	-9.48921
▁झगड़	-9.48931
▁नंबर	-9.4894
ड्ड	-9.48956
▁शेष	-9.48959
▁क्षमा	-9.48973
▁अपील	-9.49027
वर्ष	-9.50146
ब्ब	-9.50933
▁प्रतीक	-9.51784
▁सार्वजनिक	-9.52253
▁आतंकवाद	-9.52253
▁गांव	-9.52254
▁अध्यक्ष	-9.52254
▁अत्याचार	-9.52255
▁चाहिये	-9.52255
▁चर्चा	-9.52255
▁बुद्धि	-9.52256
▁जाँच	-9.52262
▁किंतु	-9.52269
क़यामत	-9.52275
▁पहाड़	-9.52276
▁बीमार	-9.52287
▁शुक्र	-9.52297
गृह	-9.52527
▁क़सम	-9.52661
वैध	-9.53576
▁ईश्वर	-9.55701
▁प्राथमिक	-9.55701
▁वीडियो	-9.55701
▁विरुद्ध	-9.55701
▁संदर्भ	-9.55701
▁समुदाय	-9.55702
▁निर्मित	-9.55713
▁खाद्य	-9.55713
nic	-9.5572
▁कविता	-9.55939
▁पकड़	-9.55978
-20	-9.57341
▁बावजूद	-9.59272
▁हिन्दी	-9.59273
▁परंपरा	-9.59274
▁अभिलेख	-9.59274
▁लघु	-9.59278
▁ठहरा	-9.59281
▁खर्च	-9.59284
▁कोशिश	-9.59296
▁वायद	-9.59575
तिहास	-9.62887
\	-9.62976
j	-9.62976
▁औद्योगिक	-9.62976
▁पुरस्कार	-9.62976
▁वार्षिक	-9.62976
▁वैश्विक	-9.62976
▁मुसलमान	-9.62976
▁शिकायत	-9.62976
▁छोटा	-9.6298
मिट्टी	-9.62982
▁इच्छा	-9.62983
▁पद्धति	-9.63002
▁आवाज	-9.64608
॰	-9.66822
▁अंतर्राष्ट्रीय	-9.66822
▁अनिवार्य	-9.66822
▁कंप्यूटर	-9.66822
▁कलकत्ता	-9.66822
▁विधेयक	-9.66822
▁इन्हें	-9.66822
▁ऊँच	-9.66822
▁ग्राहक	-9.66822
▁पर्याप्त	-9.66822
▁शीघ्र	-9.66822
▁हालाँकि	-9.66822
▁दस्तावेज	-9.66823
▁समृद्ध	-9.66823
▁उपबंध	-9.66824
▁कुंजी	-9.66825
▁छोटी	-9.66826
▁भंडार	-9.66827
▁परिषद	-9.66827
▁संपत्ति	-9.66833
▁उद्यम	-9.66834
▁शांति	-9.66835
▁विभाज	-9.66895
▁निधि	-9.70024
K	-9.70822
W	-9.70822
‘	-9.86516
ऑ	-10.0822
(	-10.2115
ञ	-10.304
&	-10.6339
	-11.2005
°	-11.9828
̄	-13.4633
̈	-13.4634
+	-13.4635
̧	-13.4636
@	-13.4637
¿	-13.4638
	-13.4639
	-13.464
<	-13.4641
#	-13.4642
⁄	-13.4643
ढ	-13.4644
औ	-13.4645
“	-13.4645
