<pad>	0
</s>	0
<unk>	0
¦	-1.81367
▁¦	-2.31083
ˈ	-2.52909
▁	-2.7059
̈	-3.66466
𐋇	-3.85251
,	-3.90046
.	-4.22165
▁Comam	-4.3835
k	-4.54441
▁̈	-4.57764
▁naj	-4.71461
▁,	-4.80224
an	-4.87142
▁tu	-4.90335
▁ebnaj	-4.9062
▁yin	-4.97204
a	-5.0591
comam	-5.07393
▁.	-5.22114
naj	-5.27005
e	-5.3167
▁xin	-5.32236
tu	-5.41412
▁yul	-5.47314
ebnaj	-5.48581
▁caw	-5.48613
yin	-5.51982
▁Dios	-5.60707
▁hune	-5.62956
▁yu	-5.69536
ti	-5.709
▁tet	-5.71586
▁ti	-5.72845
▁anma	-5.74171
▁yeb	-5.77511
ul	-5.79443
c	-5.85092
caw	-5.85921
xin	-5.89214
▁tzet	-5.91652
▁ha	-5.93377
▁mach	-6.03385
yul	-6.05032
▁―	-6.09089
yet	-6.12743
▁ẍi	-6.14808
hune	-6.15155
▁yet	-6.15581
ha	-6.16945
:	-6.18691
yu	-6.21197
ek	-6.22151
▁ay	-6.23293
▁isc	-6.25587
▁haca	-6.27068
dios	-6.27953
tet	-6.30343
ˈ,	-6.31054
tzet	-6.32313
anma	-6.32323
ob	-6.32511
en	-6.32778
yeb	-6.33425
ay	-6.37145
ab	-6.39668
▁mac	-6.44874
o	-6.45179
ni	-6.49842
▁Ha	-6.50593
mach	-6.52804
yiban	-6.55404
▁isk	-6.56383
n	-6.56667
▁tato	-6.57134
ch	-6.57667
▁ta	-6.5978
to	-6.6039
▁yuto	-6.60637
▁con	-6.63102
▁ch	-6.63847
j	-6.65158
ulal	-6.65193
▁sunil	-6.66949
isc	-6.69852
▁cat	-6.7002
▁isba	-6.70884
▁ix	-6.71675
tic	-6.71748
▁c	-6.73495
ẍi	-6.73733
on	-6.74637
▁sat	-6.75258
i	-6.75464
▁:	-6.76428
haca	-6.76908
▁hunt	-6.78444
wal	-6.80128
inal	-6.81232
▁bey	-6.8322
▁Wal	-6.84002
watx	-6.84646
ta	-6.84684
▁tx	-6.88525
▁hunu	-6.89112
mac	-6.90365
al	-6.91465
▁yalni	-6.91881
▁Jesús	-6.92865
▁tz	-6.93103
tzoti	-6.95506
▁bay	-6.95839
▁¿	-6.97435
yuto	-6.98764
isk	-6.9895
▁ya	-6.99212
yaj	-6.99879
▁chu	-7.04223
▁yaj	-7.05113
tato	-7.05153
▁te	-7.05217
yalni	-7.07418
▁Jesucristo	-7.09032
?	-7.09657
▁Caw	-7.09959
▁ye	-7.10987
no	-7.11459
sunil	-7.14792
tz	-7.15041
▁yuxin	-7.16049
con	-7.1659
▁Yaj	-7.18374
in	-7.19555
yuxin	-7.20263
ix	-7.20489
▁“	-7.20824
xa	-7.22049
ya	-7.22976
”	-7.23508
tx	-7.23545
▁teyet	-7.24316
▁ayco	-7.24712
tinan	-7.24839
sat	-7.25115
otx	-7.26519
cat	-7.27915
▁Hac	-7.28209
▁chi	-7.28218
isba	-7.28975
▁hac	-7.29357
▁machi	-7.29568
▁xol	-7.29756
ojal	-7.30043
hunt	-7.30201
hac	-7.30605
ˈ:	-7.31693
▁chal	-7.34244
▁no	-7.34282
paxo	-7.34954
▁Yuxin	-7.35342
bal	-7.35526
▁yanma	-7.35729
bey	-7.36818
ayic	-7.37507
atan	-7.38719
tajil	-7.40536
iswatx	-7.4145
▁Lahwi	-7.42722
lax	-7.46067
te	-7.46622
oj	-7.46676
▁wal	-7.46813
ic	-7.47371
bay	-7.47714
hunu	-7.47799
▁hex	-7.50587
▁Is	-7.51064
wi	-7.53353
▁yun	-7.54171
▁yip	-7.54498
▁ischejab	-7.54672
hayet	-7.55139
satcan	-7.55877
▁Israel	-7.5763
▁Yalni	-7.59294
ec	-7.60815
▁istx	-7.60999
ye	-7.6115
yalan	-7.61262
▁Yet	-7.61278
jesús	-7.61857
p	-7.61985
chu	-7.62381
▁yoc	-7.63062
;	-7.63678
ca	-7.64563
chon	-7.6757
hex	-7.68382
▁―¿	-7.70927
ibn	-7.70959
chi	-7.71902
‐	-7.74851
▁isya	-7.76484
▁iswi	-7.76636
machi	-7.76872
oc	-7.78088
lahwi	-7.78176
esucristo	-7.78382
ahol	-7.79204
ayco	-7.81135
xol	-7.82055
▁matxa	-7.82726
teyet	-7.82806
ayxaco	-7.82949
▁niman	-7.84633
▁yatut	-7.85375
chal	-7.85727
▁han	-7.85758
▁yal	-7.85761
▁Pablo	-7.86139
nich	-7.86543
▁heyanma	-7.86824
▁ton	-7.87957
▁heba	-7.8802
▁ebix	-7.88331
▁?	-7.90156
▁ec	-7.90208
we	-7.90484
anil	-7.93065
yanma	-7.93538
il	-7.93849
▁lan	-7.94288
istan	-7.94875
ap	-7.96983
▁Ay	-7.98137
▁texol	-7.98261
▁ixim	-7.98864
han	-7.99665
▁cha	-8.02254
▁yilal	-8.02421
▁¡	-8.02844
bil	-8.03271
▁yelapno	-8.04173
▁sata	-8.04438
m	-8.04449
▁he	-8.04535
▁yilni	-8.06278
waxan	-8.06561
▁yehi	-8.07008
▁yapni	-8.07432
▁Yuto	-8.0763
yoc	-8.08022
▁chiwalan	-8.09015
yun	-8.10422
▁maca	-8.10672
ojan	-8.10773
▁iscuywom	-8.10956
israel	-8.11996
haxinwal	-8.12502
amben	-8.12792
▁maẍto	-8.13016
ischejab	-8.13176
▁Ta	-8.13764
▁Espíritu	-8.14237
yip	-8.1468
istx	-8.14839
co	-8.14854
isley	-8.15884
▁in	-8.15912
▁isto	-8.1606
▁Haxa	-8.16164
is	-8.17052
▁Pedro	-8.17453
▁Moisés	-8.17864
▁hunun	-8.19663
!	-8.19889
anxa	-8.20633
▁Ista	-8.21233
▁isbi	-8.21313
▁yaben	-8.21476
▁juẍta	-8.21495
▁cuybanile	-8.21505
▁matzwalil	-8.21873
▁yahawil	-8.22524
▁wetan	-8.22945
▁teyin	-8.23196
▁icham	-8.23381
▁win	-8.23404
▁choche	-8.24846
yanico	-8.25262
lan	-8.25416
▁yinta	-8.26608
▁jet	-8.28083
yuxinto	-8.2867
▁ismajul	-8.28691
Tzet	-8.29142
tan	-8.3057
matxa	-8.31407
▁Santo	-8.31465
▁chia	-8.3151
▁istz	-8.32503
▁ismul	-8.32637
▁Juan	-8.33363
isya	-8.34131
can	-8.34173
iswi	-8.35112
ton	-8.35879
cha	-8.36442
yal	-8.38266
tom	-8.39182
ayical	-8.39281
niman	-8.39308
tzettaj	-8.39746
he	-8.40163
▁Yin	-8.40234
▁yeli	-8.41185
cano	-8.42434
yatut	-8.43971
haxa	-8.44151
▁jin	-8.4441
ule	-8.44466
ah	-8.4466
▁C	-8.44746
▁yebpaxo	-8.44753
ebix	-8.45204
heyanma	-8.45783
▁hec	-8.45906
heba	-8.46107
ojab	-8.46117
el	-8.46196
anc	-8.47081
ayon	-8.47265
▁ah	-8.48435
▁Hune	-8.48561
s	-8.48718
▁janma	-8.48833
▁Yalnipaxo	-8.49088
b	-8.49504
▁ángel	-8.50265
▁co	-8.50833
▁Jerusalén	-8.51715
ej	-8.52037
▁to	-8.53102
▁A	-8.53109
aypaxo	-8.53252
▁xahan	-8.53369
ablo	-8.53837
ba	-8.54742
yilal	-8.55063
mam	-8.5575
oji	-8.56255
▁chiswatx	-8.56401
ixim	-8.56477
▁oc	-8.5682
texol	-8.56904
▁anmahil	-8.57033
▁babel	-8.57095
chiwalan	-8.57303
▁ismunil	-8.58305
yapni	-8.5834
▁isnimanil	-8.5883
hanic	-8.59253
sata	-8.59309
yelapno	-8.59596
▁tiempo	-8.59683
yilni	-8.60703
la	-8.60779
chitan	-8.61011
▁macta	-8.61104
matzet	-8.61669
▁yechel	-8.61724
▁heyu	-8.6175
▁Yu	-8.62737
▁isnabal	-8.63092
▁;	-8.63167
▁Cristo	-8.63293
isto	-8.63703
Ha	-8.63742
▁xil	-8.63996
▁Hanin	-8.64055
▁tawet	-8.6438
▁isti	-8.64407
▁maẍt	-8.64545
yehi	-8.64789
▁sacerdote	-8.64978
espíritu	-8.65198
xan	-8.65523
maca	-8.65564
▁hunelxa	-8.65709
Mamin	-8.66
▁yec	-8.66079
le	-8.67195
ehal	-8.67362
▁lahan	-8.67558
▁Yum	-8.67961
▁yahaw	-8.68674
Caw	-8.68824
▁Hex	-8.68908
apni	-8.68998
maẍto	-8.69181
ista	-8.69293
sunilbal	-8.69509
ebilcano	-8.69615
▁inc	-8.69907
iscuywom	-8.69927
yahawil	-8.70063
▁yel	-8.70468
▁hach	-8.705
Tom	-8.70675
▁yuninal	-8.70874
▁wuhan	-8.71535
▁chiyu	-8.71555
t	-8.72941
▁wa	-8.72987
▁cheyute	-8.73251
aban	-8.73307
hanin	-8.74174
▁rey	-8.74373
▁chiyij	-8.74861
hunun	-8.74862
▁Isc	-8.75586
▁isyelal	-8.75781
yaben	-8.76114
aybal	-8.76554
isbi	-8.76712
▁maẍtaj	-8.77119
ˈ?	-8.77234
inan	-8.77727
▁Inmaman	-8.78047
▁chito	-8.7856
▁Jahawil	-8.78568
wa	-8.78581
▁chin	-8.78744
icham	-8.79374
▁is	-8.7954
▁chiwa	-8.79565
▁Sunil	-8.79691
walxinto	-8.79871
cuybanile	-8.80086
▁camical	-8.80735
matzwalil	-8.80853
juẍta	-8.811
teyin	-8.81565
istz	-8.81606
wetan	-8.81804
edro	-8.82079
▁n	-8.82178
▁payat	-8.8223
choche	-8.82517
▁chioc	-8.82519
▁howal	-8.82637
▁ja	-8.82708
win	-8.82896
▁chala	-8.83561
yebpaxo	-8.83563
▁ismam	-8.84057
hantan	-8.8424
hach	-8.84279
▁chalni	-8.84299
▁ley	-8.84699
yinta	-8.85212
▁winaj	-8.85256
▁ẍiayoj	-8.85312
tocanoj	-8.85445
hec	-8.85806
▁camom	-8.85896
wan	-8.86135
inalo	-8.8628
obal	-8.86318
oisés	-8.87278
ismajul	-8.87679
bilintijan	-8.87691
om	-8.88041
elo	-8.8835
pax	-8.88357
▁colbanile	-8.88445
▁Mach	-8.90062
ulan	-8.90254
chia	-8.90415
▁cuywawom	-8.91713
nipaxo	-8.91774
▁el	-8.91884
▁chihul	-8.92137
ismul	-8.92588
ilo	-8.92662
ehan	-8.92881
▁coc	-8.93096
jet	-8.93885
K	-8.94077
itz	-8.94435
▁chiec	-8.94517
eb	-8.94705
juan	-8.95787
h	-8.95843
▁ishowal	-8.9595
▁wanab	-8.96904
ja	-8.97124
▁coba	-8.97365
▁lahwi	-8.97573
▁Abraham	-8.97667
▁fariseo	-8.97676
▁tiempohal	-8.97769
ohtan	-8.97795
yeli	-8.97819
▁chute	-8.98225
xahan	-8.98452
yalnipaxo	-8.98522
▁wanmahan	-8.99452
▁apni	-8.99684
jin	-8.99792
mi	-9.00745
santo	-9.00817
▁wuẍtaj	-9.00944
▁barco	-9.01257
▁cheyil	-9.01494
▁!	-9.0157
▁hunuxa	-9.01868
▁cheya	-9.0191
potx	-9.01918
masanto	-9.02664
▁istzotel	-9.02802
▁preso	-9.03092
▁yoj	-9.03298
ano	-9.03588
▁che	-9.03915
ech	-9.0445
cablahon	-9.04934
u	-9.05269
▁yeco	-9.05277
▁Tzot	-9.05333
▁nan	-9.06716
aycano	-9.06767
▁ismi	-9.06894
ma	-9.06923
andiosal	-9.06941
yel	-9.07068
▁chaco	-9.0712
▁camo	-9.07264
▁Na	-9.07751
yec	-9.08168
yohtan	-9.0878
cawan	-9.08996
ángel	-9.09268
▁chitit	-9.09297
▁lin	-9.09344
▁heyalni	-9.09688
lo	-9.09855
babel	-9.10107
janma	-9.10199
xil	-9.10329
▁culus	-9.10815
tiempo	-9.11498
▁chic	-9.11849
Wal	-9.12045
balto	-9.1209
▁me	-9.1239
aco	-9.12997
chiswatx	-9.13406
▁hunxa	-9.1355
yayto	-9.13767
maẍt	-9.13769
▁T	-9.13891
▁lek	-9.14593
▁t	-9.14755
ismunil	-9.15508
chin	-9.15816
Mac	-9.15919
macta	-9.1592
anmahil	-9.16053
lahan	-9.16168
▁chul	-9.16387
▁chico	-9.16662
▁conimanil	-9.17013
▁chihalni	-9.17026
ayto	-9.17214
isnimanil	-9.17852
▁Ya	-9.18056
ib	-9.18537
▁munil	-9.18541
maẍtaj	-9.19
inc	-9.19072
▁yay	-9.19122
▁istoholal	-9.19283
▁juẍtaj	-9.19512
▁yi	-9.1999
Mach	-9.20014
▁unin	-9.20432
heyu	-9.20457
anni	-9.20549
yechel	-9.20596
▁bis	-9.20796
erusalén	-9.21174
isnabal	-9.2212
▁ip	-9.22141
yocto	-9.2229
▁heya	-9.2231
▁tzalahilal	-9.22636
yahaw	-9.22795
▁―¡	-9.22918
huneln	-9.23221
isti	-9.23324
na	-9.23328
tawet	-9.23425
ayo	-9.23431
▁jichmam	-9.2361
sacerdote	-9.23808
hunelxa	-9.24109
ebil	-9.24386
▁yixal	-9.24783
hiq	-9.24876
yuninal	-9.25059
▁Israeloj	-9.25066
em	-9.25084
ayilo	-9.25278
yinito	-9.25643
▁haxa	-9.25821
▁chischah	-9.26346
cristo	-9.26501
chiwa	-9.26661
▁hun	-9.26663
inale	-9.26747
▁soldado	-9.27077
▁chisje	-9.27525
▁beh	-9.27969
▁yah	-9.28045
cheyute	-9.28592
Ta	-9.28871
▁Yoc	-9.29101
machoj	-9.29296
▁niẍte	-9.29492
rey	-9.29899
wuhan	-9.30449
▁inti	-9.30571
howal	-9.30583
sa	-9.31333
▁yute	-9.3184
jetan	-9.32056
alomal	-9.32224
▁haba	-9.32249
chalni	-9.32251
▁istiempohal	-9.32495
chiyu	-9.32834
▁ayex	-9.33062
▁Galilea	-9.33422
jahawil	-9.33462
etojan	-9.33654
▁Waxa	-9.33976
uil	-9.34314
▁machojab	-9.34364
isyelal	-9.34658
▁María	-9.34899
ulo	-9.35132
ismam	-9.35497
am	-9.35507
▁ayicto	-9.3572
▁xahanbalil	-9.35758
as	-9.35866
l	-9.35994
▁yuch	-9.36137
chiyij	-9.36333
anico	-9.36421
▁xa	-9.36672
▁inbahan	-9.37021
▁ishelanil	-9.37022
ayc	-9.37192
▁yaw	-9.37246
anto	-9.37323
▁ma	-9.37399
yum	-9.37429
eni	-9.37906
chito	-9.38036
▁Simón	-9.38158
inmaman	-9.38219
cobahan	-9.38634
▁David	-9.38774
Mam	-9.38958
ley	-9.39264
▁Chi	-9.3947
▁cam	-9.39552
▁tzujno	-9.39661
camical	-9.39747
▁yaco	-9.39851
▁tawin	-9.39902
▁wet	-9.39936
at	-9.40116
jiban	-9.40165
nimeta	-9.40559
▁mule	-9.40983
▁janab	-9.4101
payat	-9.41289
▁hanin	-9.41457
ayayto	-9.41599
▁sic	-9.41628
yinilo	-9.4226
etaj	-9.42408
▁pan	-9.42557
chala	-9.42852
chioc	-9.42945
▁Herodes	-9.42987
ahan	-9.43511
hununon	-9.4366
▁chiapni	-9.44054
▁chiwochehan	-9.44238
yah	-9.4436
ẍiayoj	-9.44373
ejholo	-9.44427
juhan	-9.44665
apno	-9.44723
d	-9.4492
hunxan	-9.45148
haywan	-9.45159
▁wehan	-9.45163
nihan	-9.45195
lin	-9.454
▁walnihan	-9.4552
camom	-9.45687
▁Pilato	-9.45894
▁nino	-9.45992
▁chiwal	-9.46006
▁mar	-9.46159
Machoj	-9.46533
▁yulaj	-9.46545
▁wintajan	-9.46585
Hex	-9.46717
▁ispaj	-9.46916
machojab	-9.47192
▁chejbanile	-9.47239
cuywawom	-9.47396
aycan	-9.47537
colbanile	-9.47558
wuẍtaj	-9.47809
heyanico	-9.47812
▁xewilal	-9.48029
▁cheyaco	-9.48135
winaj	-9.4829
▁Machi	-9.48949
▁huno	-9.49189
chiitzitzbican	-9.49425
hacpax	-9.49676
▁mil	-9.49683
▁melyu	-9.49794
chihul	-9.50383
▁Y	-9.50707
▁jilni	-9.50782
▁chitzala	-9.51265
ambe	-9.5154
▁Han	-9.52379
chiec	-9.52759
g	-9.52796
▁Hunt	-9.52972
yipo	-9.53342
▁lah	-9.53473
coc	-9.53731
wanab	-9.5378
camo	-9.53936
tiempohal	-9.54131
cheyil	-9.54363
me	-9.54448
▁cheyala	-9.54829
▁tzujan	-9.54974
ishowal	-9.55057
maẍn	-9.55167
teyiban	-9.55441
▁Eb	-9.55496
▁chielico	-9.55516
▁hununex	-9.5558
▁ismay	-9.55583
cancano	-9.5566
iscapilla	-9.56042
umal	-9.56055
sic	-9.5618
chute	-9.56211
fariseo	-9.56765
coba	-9.56876
▁hawanma	-9.57177
▁ixnam	-9.573
▁yetxa	-9.57536
istzotel	-9.57608
▁hawu	-9.57639
lek	-9.5765
cheya	-9.57833
▁chil	-9.58063
yoj	-9.58178
anayo	-9.5833
ico	-9.58342
wanmahan	-9.58544
ban	-9.58717
anch	-9.58931
chitit	-9.59483
▁habil	-9.59494
▁yijem	-9.60021
▁ac	-9.60051
▁heyet	-9.6026
barco	-9.60306
Yin	-9.60383
▁yichico	-9.60463
▁nahat	-9.60625
▁halni	-9.60632
chico	-9.60716
hunuxa	-9.60968
▁chiya	-9.61273
▁yelapnoj	-9.61403
C	-9.61428
chaco	-9.61746
▁ayc	-9.61835
▁hanta	-9.6205
Ay	-9.62052
▁trigo	-9.6206
cachann	-9.62122
preso	-9.62191
▁isn	-9.62213
munil	-9.62424
ip	-9.62447
▁cheyal	-9.62623
inti	-9.6272
cam	-9.63069
iscon	-9.63179
yay	-9.63311
q	-9.63361
▁José	-9.63611
▁Roma	-9.63611
▁ba	-9.63681
▁isbeybal	-9.64064
yeco	-9.64378
beh	-9.64456
wiban	-9.64861
alom	-9.64956
▁ischuquil	-9.65276
▁istohol	-9.65285
▁Judea	-9.65389
ayojab	-9.65583
▁yunin	-9.65753
elico	-9.65949
ismi	-9.66036
▁wohtajan	-9.66104
▁issaj	-9.66325
hun	-9.66411
yi	-9.66878
▁yabe	-9.67065
braham	-9.67179
▁quin	-9.67351
▁carta	-9.6763
chic	-9.67646
yilaxto	-9.6777
▁coxol	-9.67804
hacojab	-9.67885
▁hawalni	-9.68372
heya	-9.68396
janico	-9.68537
▁iscam	-9.68616
▁yijni	-9.6882
heyalni	-9.68979
enilo	-9.69568
culus	-9.69736
nan	-9.69981
▁titna	-9.70778
wican	-9.70928
heyohtan	-9.71192
▁chip	-9.71659
che	-9.7183
eintijan	-9.71873
iloj	-9.71919
atil	-9.71924
ui	-9.72021
ac	-9.72176
chul	-9.72375
encano	-9.7238
▁yohta	-9.72453
▁comul	-9.72643
▁tit	-9.72671
ulla	-9.72811
▁ayayo	-9.72902
▁yalno	-9.73098
▁yoche	-9.73116
▁machoj	-9.73683
▁chislo	-9.73774
haba	-9.73822
▁chitz	-9.73848
hunxa	-9.74055
▁yetbi	-9.74359
▁jahno	-9.7452
▁henabal	-9.74521
yaco	-9.74763
oya	-9.7489
▁hunel	-9.75192
johtan	-9.752
▁chex	-9.75228
toxan	-9.75298
wej	-9.75427
ayoco	-9.7568
paxoj	-9.75876
▁islahobal	-9.75957
janmahan	-9.7606
conimanil	-9.76145
chihalni	-9.76165
chisje	-9.76215
lah	-9.76375
unin	-9.76435
▁quexchi	-9.76446
▁Machojab	-9.76844
istoholal	-9.77293
▁halbilcano	-9.77301
▁chejab	-9.7754
▁iscab	-9.77617
tzalahilal	-9.77839
yute	-9.77854
▁majan	-9.78004
yanayto	-9.78077
occano	-9.78264
juẍtaj	-9.78648
▁chitzotel	-9.78741
▁ayxa	-9.79231
ach	-9.79489
▁je	-9.79914
mar	-9.80495
itzitzbican	-9.80593
anex	-9.8062
▁yala	-9.80717
yichico	-9.80852
umel	-9.80898
Hach	-9.80948
eho	-9.8124
tit	-9.81991
ishitzico	-9.8205
▁yabil	-9.82141
ajan	-9.82178
ayex	-9.82325
▁ischejbanil	-9.8241
eloj	-9.8244
▁ischahni	-9.82513
jichmam	-9.82808
▁Yeb	-9.82839
▁yichamil	-9.82865
▁selel	-9.82876
xaco	-9.83123
ispaxto	-9.83231
▁haninan	-9.83449
▁hum	-9.83506
quex	-9.83541
lahon	-9.83735
yixal	-9.83875
chicuywi	-9.84179
uxan	-9.84263
▁witz	-9.84484
chischah	-9.84774
taxca	-9.84836
yoccano	-9.85032
▁Bernabé	-9.85157
▁hujeb	-9.85539
▁yila	-9.86039
soldado	-9.86217
ocnico	-9.86357
▁abxubal	-9.86601
▁wipan	-9.86643
▁hesat	-9.87032
▁tzotelo	-9.871
▁cosunil	-9.87335
▁Jacobo	-9.87459
bilxa	-9.87803
▁isch	-9.87919
yayilo	-9.87935
txon	-9.88411
tzujan	-9.88472
niẍte	-9.88658
▁ju	-9.8866
▁heyehi	-9.88672
▁isyijen	-9.88834
▁chihallax	-9.90424
yanayo	-9.90475
y	-9.9066
▁Yul	-9.90944
▁chabe	-9.90958
▁iscamical	-9.90994
▁ispi	-9.91043
▁chisyije	-9.91091
▁Israelo	-9.91132
chiwochehan	-9.91166
wabenan	-9.91192
▁sa	-9.9128
▁isyenilo	-9.91513
▁Felipe	-9.9194
▁Judas	-9.9194
▁Yespíritu	-9.91968
chianico	-9.92177
ilni	-9.92224
aweco	-9.9226
istiempohal	-9.92366
▁Saulo	-9.92408
yuch	-9.92535
▁chicam	-9.92694
▁machiswalil	-9.9279
▁chiay	-9.93056
imón	-9.93078
ichico	-9.93113
balil	-9.93195
▁jehi	-9.93232
▁chiocnico	-9.93307
ayicto	-9.93329
um	-9.93509
hujwan	-9.94122
quin	-9.94132
▁yintaj	-9.94289
▁Yebpaxo	-9.94489
▁Ch	-9.94844
wocan	-9.94906
xahanbalil	-9.94943
jehan	-9.95084
▁Yal	-9.95245
f	-9.95511
▁L	-9.95857
▁xahanbal	-9.95938
nicano	-9.95952
yaw	-9.9614
inbahan	-9.96208
ishelanil	-9.96214
walnihan	-9.96309
▁Sa	-9.96451
wet	-9.9651
chiyijen	-9.9697
enan	-9.97055
▁chicolwa	-9.97272
T	-9.9732
▁Walex	-9.97389
yanito	-9.97647
iln	-9.97704
▁payxa	-9.97999
▁chija	-9.98088
lebil	-9.98103
▁cheyabe	-9.98231
masanta	-9.98471
▁yuẍta	-9.98767
tzujno	-9.98855
ena	-9.98876
cheyayto	-9.98941
chiapni	-9.99099
tawin	-9.99195
▁chiel	-9.99295
?”	-9.99314
▁wilnihan	-9.99369
▁can	-9.99551
▁ispotx	-9.99739
▁ayto	-9.99857
▁itzitz	-9.9992
ispaj	-10.003
▁tzalaho	-10.0033
▁lago	-10.0033
janab	-10.0035
mule	-10.0041
istzabnico	-10.0048
▁chintohan	-10.005
▁Mac	-10.0059
melyu	-10.0088
im	-10.0094
▁saj	-10.0106
▁cay	-10.0129
▁chiyal	-10.0134
uh	-10.0146
aría	-10.0177
unub	-10.0177
▁ist	-10.0189
yulajla	-10.0211
▁circuncisión	-10.0232
▁nabil	-10.0296
alilea	-10.0306
haninan	-10.0307
▁iscawilal	-10.0321
▁cheyoche	-10.0325
ato	-10.0332
bilcano	-10.0345
hawu	-10.0397
mil	-10.0402
▁johtaj	-10.0408
wehan	-10.0467
asi	-10.0468
chiwal	-10.0489
yoche	-10.0498
pan	-10.0504
len	-10.0507
▁subchaho	-10.0524
macn	-10.0544
▁ewan	-10.0547
▁cawxo	-10.0553
▁heyoc	-10.0555
▁“¿	-10.0571
chitecha	-10.0571
wintajan	-10.058
won	-10.058
lobal	-10.059
jilni	-10.0594
yulaj	-10.0595
utz	-10.0615
chitxumchalo	-10.062
ispotx	-10.0627
Hune	-10.0677
chejbanile	-10.0689
▁ayinan	-10.0697
▁Pascua	-10.0706
▁Xol	-10.0706
▁Egipto	-10.0706
xewilal	-10.0725
cheyaco	-10.0743
▁isyeni	-10.0749
apax	-10.0766
▁No	-10.0786
▁chicawxi	-10.0793
▁ilwebal	-10.0798
▁chichahni	-10.0799
▁chalilo	-10.0808
▁chawa	-10.0813
▁meẍa	-10.0827
avid	-10.0843
nino	-10.0844
▁Isto	-10.0867
wohtajan	-10.0876
ixnam	-10.0877
Hanin	-10.09
itzitzbocan	-10.0906
yelapnoj	-10.0935
cheyala	-10.0937
▁mulum	-10.0945
ˈ!	-10.0954
halni	-10.096
yulbal	-10.0965
▁ischejabo	-10.0978
ape	-10.0981
wanoj	-10.1003
▁chixiw	-10.1008
huno	-10.1036
▁chawal	-10.1043
▁man	-10.1047
▁isbel	-10.1062
▁yángel	-10.1067
iscancano	-10.1071
chitzala	-10.108
▁chexoc	-10.1094
jacob	-10.1123
nabn	-10.1132
▁tioẍ	-10.1137
▁mato	-10.1176
▁isye	-10.1176
▁yich	-10.1219
▁oxeb	-10.1222
chil	-10.1231
elax	-10.1249
▁naba	-10.126
erodes	-10.1266
chejab	-10.127
r	-10.1277
Ho	-10.1289
ho	-10.1291
▁chimunla	-10.1314
▁munlawom	-10.1333
▁yalnicano	-10.1337
▁istit	-10.134
▁desierto	-10.1342
▁ayexxaco	-10.1343
▁yelti	-10.1355
▁pulta	-10.1373
hawalni	-10.1378
▁hesunil	-10.1426
mame	-10.1431
chielico	-10.1477
hununex	-10.1483
ismay	-10.1483
anab	-10.1495
▁chilahwi	-10.1498
yo	-10.15
carta	-10.1519
▁yeto	-10.1526
habil	-10.1531
pila	-10.156
yetbi	-10.1571
hum	-10.1573
hanta	-10.1579
ayahto	-10.1612
▁hemul	-10.1626
yila	-10.163
hawanma	-10.1644
▁E	-10.1649
taj	-10.1649
▁oro	-10.1677
▁chawala	-10.1698
ischahni	-10.1709
yetxa	-10.1716
▁Matxa	-10.1723
paxojan	-10.1733
ocan	-10.1733
▁yilalo	-10.1764
yijem	-10.1773
▁baytet	-10.1781
▁comon	-10.1794
▁heye	-10.1839
ulojab	-10.184
cheyal	-10.184
axep	-10.1851
oxwan	-10.1859
▁istxahli	-10.1859
mujan	-10.1859
yala	-10.186
▁helan	-10.1896
▁Mame	-10.1897
baytet	-10.1914
▁hunujex	-10.1918
▁moyan	-10.1918
▁hul	-10.1918
▁conabal	-10.192
chiya	-10.195
chip	-10.1967
▁intohan	-10.1976
▁nu	-10.1989
yunin	-10.1998
yabe	-10.2005
chiocto	-10.2008
heyet	-10.2036
▁Ma	-10.2049
isn	-10.2055
▁yahawilo	-10.2081
▁cutxanico	-10.2085
▁hawet	-10.2102
ayayo	-10.2115
nahat	-10.2119
trigo	-10.2133
uilo	-10.2151
▁Cocolomal	-10.2165
▁Elías	-10.2169
▁chawute	-10.2188
lolo	-10.2215
▁isbisil	-10.2219
yalcano	-10.2245
coxahann	-10.2252
▁machim	-10.2254
▁Chiwal	-10.2276
▁istxumni	-10.2283
▁chiyute	-10.2291
▁chintz	-10.2325
chawoche	-10.2327
yitzitzbican	-10.2331
ahi	-10.2347
ixobal	-10.2356
un	-10.2364
▁isma	-10.2379
wilnihan	-10.239
acti	-10.2401
ahto	-10.2415
man	-10.2438
istohol	-10.2464
isbeybal	-10.2472
ischuquil	-10.2474
▁yil	-10.2478
ilcha	-10.2483
alo	-10.2495
lahanex	-10.2503
chex	-10.2512
▁anciano	-10.2529
▁ispultahil	-10.2529
▁yan	-10.253
▁aya	-10.2541
eto	-10.2566
▁chijil	-10.2569
▁H	-10.2574
▁yettax	-10.2575
▁hewi	-10.2576
▁mame	-10.2594
cheyohtan	-10.2625
walex	-10.2638
issaj	-10.2645
wom	-10.2648
cuarto	-10.2656
yespíritu	-10.2658
japnihan	-10.2662
titna	-10.2711
▁haban	-10.2719
israelo	-10.2728
chayto	-10.2759
▁chawil	-10.2762
Hacoj	-10.2763
lena	-10.2781
yijni	-10.2783
ehojab	-10.2804
osé	-10.2819
▁Antioquía	-10.282
tzijxan	-10.282
nahul	-10.2821
omilo	-10.2825
islahobal	-10.2826
iscam	-10.2841
▁uva	-10.2849
▁insatan	-10.2849
▁jahaw	-10.2856
▁chiaben	-10.2857
▁vino	-10.2883
▁walnic	-10.2888
▁chaliloj	-10.2888
ojtam	-10.2914
hitzico	-10.2939
yohta	-10.2949
Ma	-10.2968
▁hawa	-10.2979
inito	-10.2984
ibcan	-10.2986
yahwano	-10.2993
selel	-10.301
▁hin	-10.3079
▁hasat	-10.308
▁wec	-10.3081
chijalan	-10.3083
ispeto	-10.3161
▁Nazaret	-10.3161
▁Esteban	-10.3161
diosal	-10.3168
chitz	-10.3173
▁hetxumni	-10.3179
▁istxiquin	-10.3179
▁henimanil	-10.318
halbilcano	-10.3193
hunel	-10.3196
comul	-10.3197
▁tzeh	-10.3208
▁tohlabal	-10.3215
octo	-10.3221
▁sam	-10.3234
toj	-10.3244
yalno	-10.3248
aholan	-10.3259
▁yayc	-10.3262
ayxa	-10.3287
isyenilo	-10.3288
machipaxo	-10.331
roma	-10.3329
isxahanil	-10.3337
nitam	-10.3337
canojan	-10.3356
chislo	-10.3362
tojan	-10.338
coxol	-10.3381
wec	-10.3383
jahno	-10.3384
henabal	-10.3384
eniloj	-10.3393
chiyeniloj	-10.3409
istit	-10.3413
ahole	-10.3435
▁jalni	-10.3454
yalaxico	-10.3484
▁Yahawil	-10.3495
▁chijaco	-10.3503
▁Timoteo	-10.3515
udea	-10.3515
▁chiyo	-10.3519
▁capilla	-10.3524
alil	-10.357
quexchi	-10.3583
▁ichamta	-10.3595
A	-10.36
chitzotel	-10.3608
isma	-10.3629
▁howeb	-10.3633
yabil	-10.3648
▁quex	-10.3705
▁heyohtaj	-10.3711
ju	-10.3729
hujeb	-10.3766
majan	-10.3786
alaxicto	-10.3804
▁heyijen	-10.3804
▁yalnic	-10.3805
hul	-10.3817
iscab	-10.3838
jalnihan	-10.3846
▁Mamin	-10.3859
▁camoj	-10.386
▁binaho	-10.3862
istopaxo	-10.3863
▁wu	-10.3867
▁nimanile	-10.3875
ulmi	-10.3884
▁xe	-10.3887
▁cab	-10.389
aben	-10.3891
chijilico	-10.3891
uxni	-10.3895
▁chij	-10.3896
chiyiyo	-10.3908
▁trato	-10.3916
▁chinhulan	-10.3917
▁Maẍtaj	-10.393
z	-10.3975
chiilni	-10.4001
sunilej	-10.4008
tzen	-10.4075
ebilxa	-10.4098
▁hata	-10.4103
▁chiwaltojan	-10.4113
icojan	-10.4125
▁chicolo	-10.413
▁yuc	-10.4131
bi	-10.4144
▁caj	-10.4155
tzotelo	-10.4155
▁pi	-10.4159
▁cuybanil	-10.4176
ischejbanil	-10.4178
▁Maẍ	-10.4187
alxa	-10.4193
eojab	-10.4229
▁chintzalahan	-10.4244
▁Jacob	-10.4247
▁wahil	-10.4248
▁haltebilcano	-10.4253
▁Macedonia	-10.4263
▁Isaías	-10.4263
▁chiyoche	-10.4267
ishajlo	-10.4268
▁camnaxa	-10.4284
▁Yah	-10.4341
yichamil	-10.4372
▁hon	-10.4383
▁nime	-10.4391
walpaxo	-10.4407
tzotel	-10.441
ist	-10.4412
▁chaẍ	-10.4442
canoj	-10.4475
xiw	-10.4476
isyijen	-10.4483
yalnicano	-10.4487
▁islo	-10.4489
chijochehan	-10.4494
xacon	-10.4495
▁Chal	-10.4495
chianayto	-10.45
witz	-10.4515
ayinan	-10.4546
▁yohtajo	-10.4554
abxubal	-10.4582
isch	-10.4587
ham	-10.4589
machiswalil	-10.4594
yocpaxo	-10.4605
wipan	-10.4606
ayn	-10.4608
chabe	-10.4616
▁comandante	-10.4623
▁insatajan	-10.4623
▁ixahaw	-10.4623
▁cabeb	-10.4642
hesat	-10.4652
▁xaj	-10.466
▁capitán	-10.4662
▁isbejnicano	-10.4668
chiyaco	-10.4678
▁Yapni	-10.4679
ilaxto	-10.4704
▁joc	-10.4752
▁hinan	-10.4759
▁cochahni	-10.4783
ancan	-10.4784
johtaj	-10.4791
tocano	-10.481
awi	-10.4814
heyehi	-10.482
ispi	-10.482
munlahan	-10.4822
▁ayach	-10.4827
▁anican	-10.4855
aymi	-10.4862
udas	-10.4863
iscutxbanico	-10.4873
mato	-10.4875
▁ismeltzo	-10.4878
▁hawoc	-10.4881
cotohan	-10.4889
▁nananta	-10.4905
▁chijute	-10.4918
hexahann	-10.4918
▁cheyije	-10.4919
chawaco	-10.4922
▁islah	-10.4929
▁chijala	-10.494
▁iscuywa	-10.495
▁Tz	-10.4953
alc	-10.4976
▁hawehi	-10.4988
bawe	-10.4998
▁gobernador	-10.5009
heyohtaj	-10.5016
▁chiwalcanojan	-10.502
▁wacax	-10.5021
▁chinapnihan	-10.5021
▁isnu	-10.5024
▁ayinicojan	-10.5025
isyeni	-10.5029
▁toxa	-10.5034
nican	-10.5039
▁etza	-10.5039
iscamical	-10.5045
▁hunix	-10.5045
chiwaltojan	-10.5052
▁iscuyu	-10.5065
colwahan	-10.5065
▁Samaria	-10.5072
▁Lázaro	-10.5072
Asi	-10.5074
▁coyijen	-10.5081
cosunil	-10.5086
abayo	-10.5108
chiay	-10.5132
xahanbal	-10.5133
eq	-10.5135
tzettaxca	-10.5138
heye	-10.5158
yecheln	-10.5171
hato	-10.518
▁Hach	-10.5181
▁chisc	-10.5193
chihallax	-10.5201
▁xaya	-10.5209
ulalo	-10.5239
▁heyila	-10.524
chicam	-10.5245
tioẍ	-10.5253
jehi	-10.5265
chisyije	-10.5265
iscawilal	-10.5266
ambeno	-10.5269
chiocnico	-10.5273
▁iswa	-10.5318
elicoj	-10.5322
iscuyni	-10.533
chilahwi	-10.5332
ibo	-10.5362
▁iscolwa	-10.5363
Yet	-10.5369
yintaj	-10.5372
▁cosat	-10.5408
ecano	-10.5431
▁quinchiyan	-10.5432
nann	-10.5436
▁heyilni	-10.5442
yil	-10.5468
▁selelo	-10.5477
▁yahcano	-10.5498
▁yehico	-10.5498
ernabé	-10.5502
▁Silas	-10.5502
elipe	-10.5502
xic	-10.5511
▁ayexico	-10.5513
isye	-10.5523
cheyoche	-10.5533
▁yo	-10.5534
chija	-10.5534
payxa	-10.5539
laxic	-10.5588
je	-10.5667
▁iscuyni	-10.5719
ehayo	-10.5721
chicawxi	-10.5724
sahab	-10.5725
▁awtebil	-10.5727
chicuyni	-10.573
hamanil	-10.5732
cawxo	-10.5734
chicolwa	-10.5734
chintohan	-10.5748
chintz	-10.576
chinocan	-10.5762
chalniloj	-10.5763
yijnicano	-10.5783
ebilcanoj	-10.581
▁yox	-10.5845
weco	-10.5854
▁chichiwa	-10.5858
▁wohtajojan	-10.5862
▁Inmam	-10.5876
chiel	-10.5895
▁chijal	-10.5901
▁nanxa	-10.5904
ilwe	-10.5906
▁heyohtajo	-10.5912
Ah	-10.5917
▁istzoteli	-10.5919
hawa	-10.5929
Bay	-10.5933
▁Efeso	-10.5952
yuẍta	-10.5954
▁Asia	-10.5956
istzabnayo	-10.5957
paxto	-10.5965
meẍa	-10.5973
lago	-10.5978
tzalaho	-10.5978
cheyabe	-10.5993
saj	-10.6031
txumchalo	-10.6081
islin	-10.6087
wu	-10.6107
▁xu	-10.6112
beyc	-10.6119
Na	-10.6136
chiyal	-10.6141
▁yuninalo	-10.6162
heyoc	-10.6164
chawal	-10.6181
▁cheyila	-10.6188
▁walan	-10.6199
itzitz	-10.621
▁yen	-10.6214
acojan	-10.6216
▁hechahni	-10.6219
circuncisión	-10.622
mulum	-10.6225
Sunil	-10.6231
ux	-10.6234
oro	-10.6259
nu	-10.6291
iscolni	-10.6291
▁chechah	-10.6298
nabil	-10.6307
▁iscawxican	-10.631
▁buchwal	-10.6312
▁istrato	-10.6313
hal	-10.6315
▁chicochah	-10.6315
chawil	-10.6332
▁yuẍtaj	-10.6336
▁chicami	-10.6339
naba	-10.6352
meltzo	-10.637
▁ẍicano	-10.6372
▁xiw	-10.6391
isyelo	-10.6395
laxi	-10.6397
johtajan	-10.6418
axpon	-10.6421
▁Tzujan	-10.6422
▁Isaac	-10.6422
camnajilo	-10.6422
▁Cesarea	-10.6423
▁Wilni	-10.6423
▁tohol	-10.6453
oxeb	-10.6461
intohan	-10.6461
anojab	-10.6465
subchaho	-10.647
pulta	-10.6485
chiwacojan	-10.6489
xolaj	-10.6507
iscawan	-10.653
ixtan	-10.6534
▁ista	-10.6556
▁uc	-10.6567
yahawilo	-10.6589
Chim	-10.662
▁chicancano	-10.6687
annihan	-10.6697
belwi	-10.6697
▁isyije	-10.6704
▁chitxumcha	-10.6706
eti	-10.6713
ewan	-10.6719
chichahni	-10.675
alaxico	-10.675
ilwebal	-10.6754
atz	-10.6763
inaloj	-10.6765
chawa	-10.6765
chalilo	-10.6766
ischejnito	-10.6767
▁itah	-10.6782
▁inmulan	-10.6782
▁vaso	-10.6784
▁tawintaj	-10.6784
▁quexwil	-10.6788
ilchalo	-10.6792
xu	-10.6794
▁heyohtaxa	-10.6798
▁yohtaxa	-10.6801
▁chiwabehan	-10.6802
▁chiwilan	-10.6806
helan	-10.6811
▁yitz	-10.6818
heyila	-10.6833
yan	-10.6836
▁chican	-10.6865
▁yetbiho	-10.6877
cuarenta	-10.6922
ischejabo	-10.6931
ewe	-10.6959
chixiw	-10.6976
▁yebi	-10.698
uloj	-10.6992
eno	-10.7011
isbel	-10.7014
noj	-10.7017
yángel	-10.702
halwe	-10.7056
wayan	-10.7058
▁isbey	-10.706
hon	-10.707
▁hallax	-10.7098
hesunil	-10.7108
cay	-10.7122
chexoc	-10.7124
tijan	-10.717
nimajal	-10.7172
sábana	-10.7172
iswayan	-10.7194
▁Halwe	-10.7196
omal	-10.7205
istxumni	-10.7209
yawten	-10.7215
munlawom	-10.7241
ambenpaxo	-10.7242
yich	-10.7265
acan	-10.7273
ispa	-10.7275
▁hawip	-10.7281
▁ciento	-10.7286
▁colwal	-10.729
yettax	-10.7295
desierto	-10.7295
▁istxam	-10.7296
ayexxaco	-10.7297
chimunla	-10.7298
▁yichmam	-10.73
isman	-10.7305
▁tac	-10.7309
oco	-10.7336
▁chiah	-10.7359
▁hecawil	-10.7363
▁babelal	-10.7364
yelti	-10.7396
▁Xa	-10.7431
itzitzon	-10.7433
▁intz	-10.7435
▁Zacarías	-10.7435
▁Capernaum	-10.7437
▁yalte	-10.7437
tzalahan	-10.7437
aytoj	-10.7445
▁ayojab	-10.7474
▁chejn	-10.7475
yalpaxo	-10.7496
anwe	-10.755
hemul	-10.7581
▁aycan	-10.7585
tze	-10.7589
▁chijoche	-10.7607
tohan	-10.7607
▁Cha	-10.7629
ajano	-10.7641
▁Be	-10.7663
chawala	-10.7664
li	-10.7671
ub	-10.7695
▁heyip	-10.7705
gipto	-10.7705
ascua	-10.7706
▁chach	-10.7722
▁y	-10.7724
yilalo	-10.773
isnaniti	-10.7734
▁chilo	-10.7757
▁chiwute	-10.7766
▁yinican	-10.7776
▁yawten	-10.7792
▁griego	-10.7796
▁saduceo	-10.7796
▁xiwquilal	-10.7796
▁espada	-10.7796
▁ismachiswalilal	-10.7796
▁mohyilal	-10.7796
▁yehobal	-10.7797
▁chexxiwi	-10.7802
▁ayinic	-10.781
▁issayni	-10.7812
▁laba	-10.7827
hacojtam	-10.7828
▁yictabal	-10.7829
▁iscami	-10.7832
▁yilno	-10.7849
vino	-10.7855
▁aldea	-10.7855
walnic	-10.7858
elti	-10.7864
camoj	-10.7872
etza	-10.7874
hunujex	-10.7875
moyan	-10.7875
conabal	-10.7878
▁mayu	-10.7878
howeb	-10.788
istxahli	-10.7881
yinayo	-10.7882
▁isnani	-10.7891
sam	-10.7905
chijil	-10.7917
Yaj	-10.7921
laxcano	-10.7924
munla	-10.7933
chiyute	-10.7939
nipaxojan	-10.797
machim	-10.7971
▁Ja	-10.7972
heyayto	-10.7981
▁Festo	-10.7984
▁Leví	-10.7984
istecha	-10.7984
▁Lahan	-10.7994
hin	-10.7995
beybale	-10.8002
anabi	-10.8015
chilni	-10.8016
bitn	-10.8024
xinto	-10.8026
▁yalten	-10.8029
▁Tx	-10.8043
yayc	-10.8049
▁I	-10.8061
wacojan	-10.8062
ebilico	-10.8063
▁nohna	-10.8083
tohol	-10.8116
hawet	-10.8122
▁masan	-10.8122
ocpaxo	-10.8126
tohlabal	-10.8137
▁hayeb	-10.8144
comon	-10.8163
cutxanico	-10.8171
chawute	-10.8178
isbisil	-10.8178
ilwal	-10.8181
nimej	-10.8181
yalnic	-10.8184
▁cheh	-10.8193
yeto	-10.8209
islah	-10.8209
heyanayto	-10.8209
yelilo	-10.821
▁echmabil	-10.8211
▁wala	-10.8218
▁iscan	-10.8259
ajo	-10.8276
▁chicabcon	-10.8289
ebxa	-10.829
▁hawi	-10.8301
elan	-10.8308
▁tec	-10.8328
▁chibe	-10.8335
yawtenti	-10.8337
▁romano	-10.8341
laxo	-10.8343
▁cadena	-10.8344
▁querubín	-10.8344
▁txitam	-10.8344
▁inchejaban	-10.8344
▁inmunilan	-10.8344
▁ismelyu	-10.8347
▁chisye	-10.8393
▁wah	-10.8442
chahnicano	-10.8456
hata	-10.8459
jahaw	-10.8465
▁M	-10.8479
anciano	-10.849
ispultahil	-10.849
nojan	-10.8501
▁wilan	-10.8502
chaliloj	-10.8518
anno	-10.8526
▁In	-10.853
▁how	-10.8536
hewi	-10.8552
▁Ix	-10.8563
▁Melquisedec	-10.8563
elto	-10.8628
wepaxo	-10.8639
yanipaxico	-10.8662
▁chelo	-10.8687
▁cach	-10.872
▁hunelo	-10.8724
chejn	-10.8748
heyijen	-10.8794
▁isbelwi	-10.8799
nilo	-10.88
trato	-10.8808
uva	-10.8809
anican	-10.8813
insatan	-10.8815
chinhulan	-10.8816
chiaben	-10.8823
opo	-10.8846
issi	-10.8852
mujlax	-10.8854
▁yeh	-10.886
walan	-10.8864
sajhopon	-10.8866
treinta	-10.8866
hunmajanxa	-10.8866
istzilnilo	-10.8866
saywal	-10.8867
istzalanil	-10.8867
chijaltojan	-10.8871
atna	-10.8871
yanahto	-10.8874
▁iscawxi	-10.8876
bililo	-10.8877
yehayto	-10.8878
ambehan	-10.888
▁jila	-10.8881
tzenilo	-10.8882
chiinilo	-10.8908
xico	-10.8909
janayto	-10.8911
chiyo	-10.8919
▁orahil	-10.8924
haban	-10.8936
jabehan	-10.8937
▁ewantajil	-10.8938
▁chabilxa	-10.894
ahilo	-10.8941
▁lahano	-10.8941
ahni	-10.8942
chiwatojan	-10.8942
▁yicta	-10.8944
▁inbihan	-10.8946
xayaco	-10.8961
▁innimanilan	-10.8965
▁inmunilt	-10.8974
wah	-10.898
nico	-10.8982
▁Mam	-10.8989
coyijen	-10.8991
▁yuninaloj	-10.9
ahil	-10.9015
isxan	-10.9033
▁hato	-10.9034
▁ishajni	-10.9036
▁yecoj	-10.9065
ixwi	-10.9075
▁ilni	-10.911
▁colwa	-10.911
aj	-10.9115
hetxumni	-10.9145
istxiquin	-10.9146
henimanil	-10.9146
camnaxa	-10.9147
jocan	-10.9152
cocolomal	-10.9179
▁Damasco	-10.9179
▁Jordán	-10.9179
▁alaxcan	-10.918
elías	-10.918
▁Adán	-10.918
▁Ananías	-10.918
enico	-10.9198
xawalan	-10.921
issajn	-10.9212
chiwalpaxojan	-10.9226
uc	-10.9232
▁chis	-10.9236
ento	-10.924
▁walinan	-10.9246
mactaxca	-10.925
jalni	-10.9264
balo	-10.9276
xaj	-10.9277
▁chiway	-10.9292
hasat	-10.9296
chebeybaln	-10.9311
lom	-10.9314
tzeh	-10.9318
toxa	-10.932
epaxo	-10.9363
tajo	-10.9377
alto	-10.9383
▁Chin	-10.9397
▁chiahilo	-10.9408
▁yalnipaxo	-10.9415
capilla	-10.9434
hulic	-10.9449
▁yallax	-10.9453
chijaco	-10.9474
tetej	-10.948
capitán	-10.9496
bejwecano	-10.9502
hoyanico	-10.9508
txahlan	-10.9508
▁chebej	-10.9514
isbejnicano	-10.9523
▁lemna	-10.9536
▁circuncidar	-10.9539
▁dragón	-10.9539
▁innabalan	-10.9539
ischejni	-10.9541
▁heyofrenda	-10.9541
▁hetxahli	-10.9542
▁chimohyi	-10.9543
▁chicolchahi	-10.9546
▁wetojan	-10.9555
▁chati	-10.9584
▁hawohtaj	-10.9588
walinan	-10.9589
bel	-10.9599
▁jec	-10.9611
caj	-10.9612
Hac	-10.9613
▁N	-10.9616
Han	-10.9624
▁cotxumni	-10.9626
ichamta	-10.9648
malto	-10.9648
siq	-10.9653
hayeb	-10.9657
Chi	-10.9711
▁ischejni	-10.9725
tajca	-10.974
colwa	-10.9744
bilo	-10.9755
walnitojan	-10.976
▁chitx	-10.9774
▁yahto	-10.9797
colchahi	-10.9801
elcanico	-10.9808
▁isDiosal	-10.9812
sabehal	-10.9817
hami	-10.9822
wanitojan	-10.9831
ntioquía	-10.9833
binaho	-10.9834
mohyom	-10.9835
xiwquilta	-10.9835
▁Babilonia	-10.9835
▁Jope	-10.9835
hacuywom	-10.9835
xulno	-10.9835
axponayo	-10.9836
yictajo	-10.9836
xewbal	-10.9837
yilaxilo	-10.9844
nimanile	-10.9847
iscuyu	-10.9848
▁tajca	-10.9849
▁octo	-10.9857
chiyoche	-10.9859
heyichmam	-10.9861
istxumchalo	-10.9861
chahlax	-10.9862
w	-10.9864
chinachalo	-10.9864
ixwican	-10.9865
bilxalo	-10.9883
ubal	-10.9893
wipaxo	-10.9913
yahilo	-10.992
chisbalico	-10.9924
chiilchalo	-10.9944
▁chiyi	-10.9953
chisbejcano	-11.0003
etx	-11.0005
isbejcano	-11.0023
awtebilon	-11.0028
sajxa	-11.0044
ayach	-11.0057
yawte	-11.0061
yuc	-11.0064
ismeltzoto	-11.0073
▁haltebil	-11.0098
▁iscolni	-11.0104
▁aycoj	-11.0107
elaxi	-11.0107
▁comunil	-11.0118
▁?”	-11.0128
cuybanil	-11.013
▁chisbej	-11.0149
▁chio	-11.0152
hulan	-11.0152
chicolo	-11.0156
aytoco	-11.0163
chij	-11.0168
steban	-11.0179
azaret	-11.0179
▁techaho	-11.0182
▁chijabe	-11.0182
▁israelita	-11.0195
▁ixloj	-11.0195
▁yillax	-11.0196
▁ispatrón	-11.0196
▁cocolbanil	-11.0196
selelo	-11.0197
yetbiho	-11.0203
▁hawatut	-11.0203
heyilni	-11.0205
istoholban	-11.0213
comono	-11.0217
▁heyabe	-11.0219
chintzalahan	-11.0219
▁chuhi	-11.0221
cabeb	-11.0222
wahil	-11.0228
haltebilcano	-11.0228
sunilal	-11.0231
▁istxah	-11.0246
istocano	-11.0255
▁Chalni	-11.026
▁tzabno	-11.0267
yehico	-11.0268
nime	-11.0272
▁issajbilo	-11.0273
▁yuho	-11.0279
enpaxo	-11.028
▁sac	-11.0285
yebej	-11.0287
▁hecal	-11.0308
▁hemam	-11.0336
▁capil	-11.0345
▁yuninalxa	-11.0349
cosat	-11.0359
tzabni	-11.0365
▁sucal	-11.0372
▁isje	-11.0381
Haninan	-11.0412
ishe	-11.0435
icoj	-11.0484
▁tzotel	-11.05
xaya	-11.0502
hebeybaln	-11.0507
▁camojan	-11.0519
moteo	-11.0537
▁Noé	-11.0537
▁Salomón	-11.0537
▁Tito	-11.0537
▁Agripa	-11.0538
▁Andrés	-11.0538
▁Corinto	-11.0538
▁Magdala	-11.054
▁Yahawiloj	-11.0553
▁aben	-11.0561
yohtajo	-11.0567
▁Marta	-11.0577
nananta	-11.0593
comandante	-11.0602
ixahaw	-11.0602
insatajan	-11.0602
yito	-11.0626
heyohtajo	-11.063
▁hulic	-11.063
▁Ischejni	-11.0635
▁hetx	-11.0668
▁ayico	-11.0674
hinan	-11.0717
▁chicoyije	-11.073
▁Anma	-11.0736
cami	-11.0737
▁chihuli	-11.0756
ishelni	-11.0763
quexpax	-11.0794
▁chisyelo	-11.0805
▁yilnito	-11.0807
Ham	-11.0811
hatx	-11.0812
islo	-11.0819
▁ismunla	-11.083
wilan	-11.0833
▁chitxahli	-11.0837
wecano	-11.084
apaxo	-11.0845
utelax	-11.0849
▁Yi	-11.0857
cochahni	-11.0864
txahli	-11.0877
▁chuman	-11.0883
▁isxe	-11.0895
▁ilno	-11.0896
▁alcal	-11.0897
▁motx	-11.0897
▁chixcab	-11.0897
▁chextxahli	-11.0898
▁titnajinan	-11.0898
▁hawuẍta	-11.09
▁chinchahnihan	-11.0902
ázaro	-11.0907
ajna	-11.0907
tzujtzun	-11.0907
ebilcanayo	-11.0907
jintajan	-11.0908
witzitzbican	-11.0908
ojlaxayto	-11.0908
iscachni	-11.091
uq	-11.0912
▁wuẍta	-11.0914
cheyiyo	-11.092
checach	-11.0924
hecolni	-11.0936
aycanocan	-11.0936
ican	-11.0945
hechahni	-11.0947
yexn	-11.0948
unni	-11.0949
abico	-11.0959
▁isyijeni	-11.0961
▁ischahnicano	-11.0961
wacax	-11.0962
comunlahan	-11.0964
maquex	-11.0969
▁chielicoj	-11.097
anayto	-11.0972
matxam	-11.0973
yacanico	-11.0976
As	-11.0977
ismeltzo	-11.0978
cab	-11.0978
yilweno	-11.0985
gobernador	-11.0991
olivo	-11.0995
yijemojab	-11.0998
heyeniloj	-11.0999
▁Ayojab	-11.1
hawehi	-11.1
chijute	-11.1001
iscuywa	-11.1001
hawoc	-11.1002
chiwalcanojan	-11.1002
chinapnihan	-11.1003
▁heyaben	-11.1004
isnu	-11.1009
cachwa	-11.1009
▁chucano	-11.1009
ayinicojan	-11.101
▁hununtajil	-11.101
yijcano	-11.1021
nito	-11.1031
hunix	-11.1033
▁ham	-11.1038
▁yechman	-11.105
quexbey	-11.1061
chijala	-11.1062
ismulo	-11.1082
helin	-11.1085
▁xiwcan	-11.1087
wo	-11.1089
yiniti	-11.11
▁chachoc	-11.1102
lahaninan	-11.1111
▁yahawo	-11.1131
▁ach	-11.1163
▁chexa	-11.1172
xahanojab	-11.1175
▁W	-11.118
ispalan	-11.1183
cheyije	-11.1185
▁Maca	-11.1194
▁hal	-11.1203
▁yij	-11.1208
ulxa	-11.1216
▁cheyi	-11.1224
chiwican	-11.1225
▁Chalnipaxo	-11.123
hc	-11.1232
▁yawte	-11.1256
yinican	-11.1267
edonia	-11.1291
▁Belén	-11.1292
▁Betania	-11.1292
▁Félix	-11.1292
▁Apolos	-11.1293
▁Hunun	-11.1294
▁Yilni	-11.1297
cheh	-11.1328
▁Inc	-11.1331
istin	-11.1343
Cam	-11.1358
▁heto	-11.1361
chinyehan	-11.1379
aya	-11.1412
awtebil	-11.1412
quinchiyan	-11.1418
iscolwa	-11.1418
iswa	-11.143
saías	-11.1443
chutepaxo	-11.1459
ayexico	-11.146
▁chiscutxba	-11.1473
paxilo	-11.1483
enayo	-11.1488
▁Yun	-11.1497
▁yelcan	-11.1507
yahcano	-11.1512
▁chiyenilo	-11.1518
halno	-11.1527
▁halwe	-11.1539
▁wuẍtajan	-11.1544
tawiban	-11.1552
▁ischah	-11.1559
eco	-11.1586
▁ismohyi	-11.1587
chiyijpaxo	-11.1598
Tz	-11.1611
▁txahlo	-11.1639
▁halbil	-11.1643
▁hunex	-11.1652
▁hehelanil	-11.1652
▁higuera	-11.1652
▁inchuquilan	-11.1652
▁welapnojan	-11.1652
▁pom	-11.1652
▁bihe	-11.1652
▁yorahil	-11.1652
▁yofrenda	-11.1653
▁yabxubal	-11.1653
▁isvaso	-11.1654
▁ismunlawom	-11.1655
▁presowom	-11.1655
▁hetxumniloj	-11.1662
▁isme	-11.1663
▁heyoj	-11.1668
ahti	-11.1673
▁hamul	-11.1687
▁telaj	-11.1687
islahnico	-11.1695
▁intzotelan	-11.1699
▁chitzoteli	-11.1703
bilti	-11.1704
yij	-11.1739
inmam	-11.1764
chisc	-11.1777
isyije	-11.1791
yalte	-11.1836
watojan	-11.1843
yox	-11.1845
▁chiillax	-11.1848
wohtajojan	-11.1849
naxa	-11.186
▁yanab	-11.1863
chichiwa	-11.1881
▁yilo	-11.1894
ulalan	-11.1896
istzoteli	-11.1913
▁Aypax	-11.1931
chijal	-11.194
paxocan	-11.1964
▁olivo	-11.2011
haxan	-11.2011
▁Yawten	-11.2014
chayo	-11.2025
oxa	-11.205
tzelax	-11.2061
heyil	-11.2062
▁xolbal	-11.2077
▁walex	-11.2077
yahawiloj	-11.2081
ilaxcan	-11.2096
▁chisna	-11.2096
laxilto	-11.2098
ene	-11.2102
ejbiyal	-11.2105
tzalahi	-11.2107
jop	-11.2108
xito	-11.2108
caẍa	-11.2108
colbilon	-11.2108
ixwilal	-11.2108
’	-11.2108
▁Barrabás	-11.2108
▁Olivo	-11.2108
▁Sidón	-11.2108
altar	-11.2108
yiximal	-11.2108
bulna	-11.2108
▁Acaya	-11.2109
▁Marcos	-11.2109
▁Wuẍtaj	-11.2109
amaria	-11.2109
isteyele	-11.2109
chinanicojan	-11.2109
▁Tomás	-11.2109
▁Yilal	-11.2109
unepixto	-11.2109
▁Tiro	-11.2109
uxantaxca	-11.2111
iscuyno	-11.2114
uwan	-11.2114
wahi	-11.2115
yilaxilti	-11.2115
uslaxto	-11.2119
uico	-11.2128
wacanojan	-11.2147
nanantaxan	-11.2148
entojan	-11.215
chetxumu	-11.2155
yuninalo	-11.2177
tzebo	-11.2188
alaxcan	-11.2188
yen	-11.2189
ilom	-11.2194
nanxa	-11.2213
ẍixan	-11.222
▁chiyil	-11.2221
Yu	-11.223
yije	-11.2231
cheyila	-11.2243
▁sunilo	-11.2246
intz	-11.2264
hunon	-11.2275
xiwan	-11.2276
yaniti	-11.2276
chechah	-11.2297
ehalo	-11.2302
ishajni	-11.2303
aldea	-11.2305
buchwal	-11.2307
chiwabehan	-11.2308
nimanojab	-11.2308
chicochah	-11.231
heyohtaxa	-11.231
iscawxican	-11.231
chiwilan	-11.2312
Comam	-11.2314
istrato	-11.2314
Oc	-11.2319
yuẍtaj	-11.2325
chicancano	-11.2327
chicami	-11.2335
ulu	-11.2339
issaya	-11.2359
ojlaxto	-11.2372
▁cobeybal	-11.2372
haquin	-11.2376
chihallaxpaxo	-11.2386
heyaco	-11.24
▁isbili	-11.2422
isje	-11.245
chican	-11.245
▁iscolcha	-11.2456
▁iscayel	-11.246
▁ispixan	-11.2461
▁plata	-11.2468
▁denario	-11.2468
▁semana	-11.2469
▁burro	-11.2469
▁lepra	-11.2469
▁cantil	-11.2469
▁ichamile	-11.2469
▁iscolbanil	-11.247
▁iscuybanil	-11.2471
elojan	-11.2472
▁sacerdotehal	-11.2472
▁chietanto	-11.2473
▁ixale	-11.2475
▁yanican	-11.2488
▁gobernadoral	-11.249
ẍicano	-11.2498
▁testigo	-11.2501
▁wulan	-11.2508
jca	-11.2508
joc	-11.253
▁hajlo	-11.2531
▁cac	-11.2536
cach	-11.2542
▁yillaxi	-11.256
hunoxa	-11.2561
▁sello	-11.2565
chewchotan	-11.2566
ilas	-11.2568
▁xilxa	-11.2571
xiwcan	-11.2581
▁jalnic	-11.2599
chinchejtojan	-11.2612
ochen	-11.2614
▁yama	-11.2618
hiwaltojan	-11.262
▁xayu	-11.2636
ayi	-11.2644
▁yalnilo	-11.2645
ilal	-11.2658
jala	-11.2664
jila	-11.2668
chioccano	-11.2671
hallax	-11.2681
wano	-11.2685
chicabcon	-11.2701
baln	-11.2709
laxpaxo	-11.271
▁yohtaj	-11.2711
▁istzala	-11.2714
▁xahano	-11.2717
▁peyab	-11.2725
colni	-11.2727
▁issay	-11.273
vaso	-11.274
yichmam	-11.2748
▁mi	-11.2749
▁cheyu	-11.2751
aho	-11.2756
▁chalte	-11.2764
chitxumcha	-11.2781
inmulan	-11.2782
itah	-11.2782
tawintaj	-11.2783
sucal	-11.2785
capil	-11.2792
yohtaxa	-11.2796
howan	-11.2799
chiohtan	-11.2803
peyab	-11.2811
yitz	-11.2828
quexwil	-11.2828
istxon	-11.2829
nilto	-11.2847
epaxojan	-11.2856
tzoc	-11.2879
isloni	-11.2902
camojan	-11.2904
▁chispoh	-11.292
colwal	-11.2928
ayal	-11.2932
▁halno	-11.2952
laba	-11.2959
yabenilo	-11.2993
estam	-11.2998
quinyanicojan	-11.2998
▁Jairo	-11.2998
▁Jonás	-11.2998
▁Iscariote	-11.2998
▁Chipre	-11.2999
▁Caifás	-11.2999
▁Waben	-11.2999
▁coDiosal	-11.2999
Wa	-11.3003
▁Istzabni	-11.3006
mataxca	-11.3008
istzujcha	-11.3009
feso	-11.3011
iscolnilo	-11.3011
abil	-11.3019
isbey	-11.3025
Baytet	-11.3036
I	-11.3037
▁cachwa	-11.3041
yebi	-11.3054
xaitzitzbican	-11.3067
wohtan	-11.31
▁istxum	-11.312
maapni	-11.3156
cawina	-11.317
▁yuli	-11.3196
bilico	-11.3199
▁yichebanil	-11.3201
▁chicolcha	-11.3207
▁mahul	-11.3224
▁hebeybal	-11.3232
cocon	-11.3238
yechman	-11.3242
chach	-11.3245
▁ispohni	-11.3266
echmabil	-11.3274
hajxam	-11.3286
issayni	-11.3286
hawip	-11.3286
ayinic	-11.3291
ciento	-11.3293
yictabal	-11.3294
istxam	-11.3304
▁yilcha	-11.3319
▁istxumnilo	-11.3325
iscutxbaco	-11.3335
Yuxin	-11.3338
walach	-11.3342
▁ishuj	-11.3342
▁chietaxto	-11.3347
ten	-11.3347
yilo	-11.3349
▁ishoyanil	-11.3358
▁inyijenan	-11.3358
▁cuywal	-11.3358
▁iswayic	-11.3358
▁aceite	-11.3359
▁quexwilnojan	-11.3359
▁hanabal	-11.336
▁maxawal	-11.3362
▁hawoj	-11.3364
▁yuhi	-11.3366
▁chiilaxilo	-11.3367
▁chiilcha	-11.3368
▁hemunil	-11.3376
babelal	-11.3376
yahto	-11.3378
▁chiichico	-11.3388
hecawil	-11.339
▁hulnajinan	-11.3393
wanicojan	-11.3395
Machi	-11.3403
chejbanil	-11.3405
▁habi	-11.3421
licano	-11.3444
▁ijatz	-11.3453
▁chahni	-11.3457
▁metx	-11.3462
ojex	-11.3464
ohchacan	-11.3469
esarea	-11.3472
cocachni	-11.3474
candelero	-11.3474
cincuenta	-11.3474
ejholilo	-11.3474
hoyno	-11.3474
isxumaquil	-11.3474
maxawaco	-11.3474
veinticuatro	-11.3474
quinhawohtajojan	-11.3474
patzab	-11.3474
albalax	-11.3475
chiwahlax	-11.3475
chiwilojan	-11.3476
colchahan	-11.3476
wiloj	-11.3479
yanicanico	-11.3481
machijinan	-11.3481
yalaxicto	-11.3484
aynatoj	-11.3484
xatzujcha	-11.3484
iscutxbanayo	-11.3486
uluj	-11.3487
hunujon	-11.3488
ojnito	-11.3494
yalten	-11.3494
▁chicotz	-11.3497
axepxa	-11.3498
▁chiuc	-11.3498
chejbilti	-11.35
xaheyayto	-11.3502
▁chielti	-11.3502
cocolwa	-11.3509
hunlahon	-11.3515
toco	-11.3521
sajn	-11.3522
chilo	-11.3523
hecuyni	-11.3526
lehan	-11.3535
istzabayo	-11.3536
ismeltzoco	-11.3537
canilo	-11.354
chisbeybaln	-11.3549
elaxo	-11.3557
haninn	-11.3562
chichiwaco	-11.357
saac	-11.358
canico	-11.3589
xilo	-11.3594
▁jala	-11.3595
johtajojan	-11.3599
hamataj	-11.36
▁Ilwe	-11.3608
ulaln	-11.3609
mo	-11.3611
chiixtan	-11.3626
isnani	-11.3629
yallax	-11.3663
tac	-11.3671
chijalnihan	-11.3696
enilojan	-11.3717
yeh	-11.3736
chijoche	-11.3749
heyip	-11.3752
yanican	-11.3754
chisye	-11.3768
yochen	-11.3776
▁chiwalic	-11.3782
▁heyil	-11.3786
mohyilal	-11.3787
▁inan	-11.3805
espada	-11.3807
griego	-11.3808
saduceo	-11.3808
xiwquilal	-11.3808
ismachiswalilal	-11.3809
yehobal	-11.3809
chiwute	-11.381
chexxiwi	-11.3814
issajbilo	-11.3823
▁isla	-11.3824
hemam	-11.3843
iscami	-11.3847
chisman	-11.3858
elilo	-11.386
▁haquin	-11.3864
yilno	-11.3869
balxa	-11.3873
▁isnoh	-11.3875
chiah	-11.3894
▁mu	-11.3896
chijanico	-11.3902
hulcan	-11.3904
chianayo	-11.3913
jalan	-11.3914
▁hawe	-11.3914
▁haco	-11.3927
ayoj	-11.393
▁heyi	-11.3951
unu	-11.3963
▁Chiwa	-11.3965
▁Judá	-11.3974
▁Zebedeo	-11.3974
▁Elizabet	-11.3974
▁Hum	-11.3976
chimyu	-11.4001
▁yic	-11.4015
mayu	-11.4019
ayojan	-11.4038
yanab	-11.4043
hawi	-11.4057
xam	-11.4063
oxebo	-11.4064
itzitzn	-11.4066
▁Ismam	-11.4071
encanilo	-11.4073
hachcachann	-11.4076
ojon	-11.4084
uilan	-11.4091
intoc	-11.4092
▁Cornelio	-11.4107
▁Txah	-11.4108
aypaxico	-11.4142
halbilcanoj	-11.4151
awe	-11.4166
ich	-11.4166
chelo	-11.4172
ischah	-11.418
heyinilo	-11.4193
yilnito	-11.4193
▁chejabo	-11.4214
cojan	-11.4224
aycanilo	-11.4225
▁iscutxban	-11.4255
▁issa	-11.4262
naban	-11.4266
▁Etza	-11.4273
chis	-11.4283
lwepaxo	-11.4285
▁chexxiw	-11.4289
paxic	-11.4301
▁cien	-11.4316
ẍicanoj	-11.432
▁hetxumnilo	-11.4327
▁ismotx	-11.4327
▁wetbi	-11.4329
▁isxiwcan	-11.4331
▁jetbiho	-11.4335
▁istxolal	-11.4335
▁calle	-11.4335
▁ischibehal	-11.4335
▁tzujnojan	-11.4335
▁iscuywahi	-11.4336
▁inchahnihan	-11.4336
▁uninale	-11.4336
▁watutan	-11.4336
▁hecolbanil	-11.4337
▁incaman	-11.4337
▁chicuywa	-11.434
▁joccano	-11.434
chibe	-11.4342
▁chexapni	-11.4344
▁txahul	-11.4355
▁pet	-11.436
▁hehowal	-11.4362
hawohtaj	-11.4362
▁Ec	-11.4362
cadena	-11.4363
querubín	-11.4363
txitam	-11.4363
inchejaban	-11.4363
inmunilan	-11.4363
inbihan	-11.4363
▁heyuninal	-11.4364
tzabno	-11.4366
▁hawilni	-11.4369
▁heyijeni	-11.4369
L	-11.4371
ambenilo	-11.4372
▁yamigo	-11.4374
ismelyu	-11.4374
▁chexcolwa	-11.4374
nohna	-11.4375
▁chiwi	-11.4386
romano	-11.4388
Hunt	-11.4392
lahann	-11.4407
▁chiwalnihan	-11.441
cobeybalan	-11.4411
masan	-11.4415
▁ilcha	-11.4423
yuninalxa	-11.4424
Ilwe	-11.4431
▁maẍtajinan	-11.4436
▁incartat	-11.4437
▁cowi	-11.4438
▁tzujanilxa	-11.4439
enal	-11.4443
▁xahul	-11.4446
paxan	-11.4451
▁yochen	-11.4468
mal	-11.4469
▁heyohtajoj	-11.4478
apernaum	-11.4498
acarías	-11.45
isbajil	-11.4511
cawilxa	-11.4511
chepuhilo	-11.4513
▁wute	-11.4518
hawil	-11.4525
nanías	-11.4545
▁cheyilni	-11.455
hawanico	-11.4576
heyi	-11.4584
chawayto	-11.4603
maẍtajach	-11.4608
hamelyu	-11.461
▁chihallaxic	-11.4612
▁chejaboj	-11.4614
▁cosataj	-11.4623
▁munlawomal	-11.4652
▁chuco	-11.4674
tec	-11.4703
▁hajxam	-11.4713
chejniti	-11.4722
▁yabeni	-11.4726
ilojan	-11.474
▁tzalacan	-11.4747
▁isyenican	-11.4748
▁ohtabil	-11.4749
▁jute	-11.4768
txah	-11.4779
▁yichi	-11.478
anpaxo	-11.4784
hunelo	-11.4784
isbelwi	-11.479
▁Oc	-11.4852
▁hatz	-11.4863
initi	-11.4868
how	-11.4877
heyabe	-11.4887
▁Ist	-11.4895
chesay	-11.49
isbalico	-11.4907
▁yelcano	-11.4916
yocxa	-11.492
Y	-11.4925
ut	-11.4936
paxico	-11.4938
chahwe	-11.4943
▁juten	-11.4945
iscawxi	-11.4947
orahil	-11.4949
cawxican	-11.4965
ewantajil	-11.4965
yicta	-11.4972
heyaben	-11.4972
isbejtzo	-11.4976
chahnayto	-11.4982
chabilxa	-11.4983
▁yub	-11.4984
iswahni	-11.4988
innimanilan	-11.4991
ahla	-11.4998
tzala	-11.5013
ambebal	-11.5022
yuninaloj	-11.5027
uslax	-11.5029
fes	-11.504
yihti	-11.5041
▁yito	-11.5043
chahi	-11.5046
ohcha	-11.5046
chati	-11.5047
munlabal	-11.5051
▁Chis	-11.5054
inilo	-11.5054
eví	-11.5055
somchacan	-11.5056
)	-11.5056
comajul	-11.5056
majwahan	-11.5056
pujanto	-11.5056
tiopía	-11.5056
txutxwi	-11.5056
yaxcamic	-11.5056
▁Ayex	-11.5056
▁Iscolomal	-11.5056
▁Prisc	-11.5056
▁Simeón	-11.5056
▁Sodoma	-11.5056
wiyom	-11.5056
▁Sara	-11.5056
▁Siria	-11.5056
chenahuln	-11.5056
incolnihan	-11.5056
cambehal	-11.5056
matxahojab	-11.5056
▁Apni	-11.5056
▁Herodías	-11.5056
▁Naweti	-11.5056
▁Tesalónica	-11.5056
alnayo	-11.5057
yetaxto	-11.5057
bajxan	-11.5057
istioẍli	-11.5057
jec	-11.5057
isdiezmohal	-11.5057
▁Heyohta	-11.5057
eojabtaj	-11.5057
▁Aquila	-11.5057
hunepixto	-11.5058
yecoj	-11.5058
inhowalan	-11.5058
oxelxa	-11.506
ejbiyalil	-11.5061
ispohnilo	-11.5061
wenico	-11.5063
abewe	-11.5063
iscolilo	-11.5064
alomex	-11.5064
cheyetato	-11.5064
camnajon	-11.5069
etajinan	-11.5069
ojoch	-11.507
▁Yaben	-11.507
▁Chintz	-11.5071
wewanoj	-11.5071
ischejto	-11.5083
yahawo	-11.5094
Cata	-11.5104
lahano	-11.5114
apnihan	-11.5118
Abewe	-11.5118
yaxn	-11.512
quinchin	-11.513
ayalil	-11.5133
cawxicanocan	-11.5141
yahbalo	-11.5146
alem	-11.515
▁yulic	-11.5161
chiutelax	-11.517
chicabconcan	-11.5173
isyayil	-11.5176
inmunilt	-11.5182
chiwalnitojan	-11.5183
▁ispa	-11.521
hechahnipaxo	-11.5229
moc	-11.523
ebto	-11.523
xolbal	-11.5231
yiyo	-11.5233
▁chiw	-11.5245
ehon	-11.5249
ojni	-11.5267
chitx	-11.5274
ancanoj	-11.5286
yican	-11.5304
ilno	-11.5331
▁chinta	-11.5333
▁innimanil	-11.5338
Mato	-11.5353
▁chexe	-11.5357
anpaxojan	-11.536
yelcan	-11.5362
Aco	-11.5381
▁cotxahli	-11.5383
▁chexwa	-11.5394
▁islow	-11.5405
▁iscawil	-11.5407
chiloni	-11.5407
asón	-11.5409
ayna	-11.5409
▁bejbilcano	-11.5416
▁subuta	-11.5416
▁mostaza	-11.5417
▁perla	-11.5417
▁sesenta	-11.5417
▁yichitax	-11.5417
▁wejna	-11.5417
▁istrompeta	-11.5417
▁chilolax	-11.5417
▁chiwinajli	-11.5419
▁lahanxa	-11.5419
▁isxahanbal	-11.542
▁hecuybanil	-11.5422
▁hawuninal	-11.5422
▁yoxel	-11.5422
▁itzitzinan	-11.5424
▁issoldado	-11.5425
▁inmunlahan	-11.5426
toholn	-11.5427
▁isbarco	-11.5428
▁alaxico	-11.543
▁chucanico	-11.5431
▁xab	-11.5436
ini	-11.5447
tzelaxilo	-11.5448
▁teyintaj	-11.5451
ew	-11.5452
comonal	-11.5464
abti	-11.5466
lenan	-11.5466
▁Walinan	-11.5468
▁chintzotelan	-11.5473
▁heyuẍta	-11.5474
▁matanil	-11.5481
nipaxico	-11.5494
yijatz	-11.5514
▁chetz	-11.5526
▁hachejab	-11.5529
▁chiwalto	-11.5529
sunilojab	-11.5539
ohan	-11.554
▁inpaxojan	-11.5558
Matzet	-11.556
▁wila	-11.5563
▁cheja	-11.5567
lemna	-11.5571
chebej	-11.5573
dragón	-11.5575
innabalan	-11.5575
circuncidar	-11.5575
heyofrenda	-11.5576
chuhi	-11.5577
chimohyi	-11.5578
hetxahli	-11.5579
chiahilo	-11.5579
▁chintx	-11.558
Matxa	-11.5581
chicolchahi	-11.5583
Simón	-11.5583
Ayojab	-11.5588
▁chec	-11.5598
▁anmaho	-11.5598
▁inwi	-11.5599
chejaboj	-11.5601
chiway	-11.561
cabo	-11.5623
obojan	-11.5631
▁mohyi	-11.5634
comonn	-11.5636
wetojan	-11.5643
elquisedec	-11.5644
hanintonan	-11.5645
yilaxti	-11.5647
ispichnico	-11.5648
yohtajoj	-11.5649
colchalo	-11.5651
chalico	-11.5652
istzablaxayo	-11.5654
nawetij	-11.5655
echman	-11.5668
iscachwa	-11.5671
emi	-11.5672
hoc	-11.5675
ilaxilo	-11.5678
▁cheyito	-11.5682
▁chim	-11.5695
chijabe	-11.5695
yacano	-11.5696
▁xi	-11.5707
▁yijewe	-11.573
mahul	-11.575
▁johtaxa	-11.5759
uba	-11.5765
iscan	-11.5776
▁cawxican	-11.5778
chabeto	-11.5783
▁chii	-11.5788
najil	-11.5798
▁elico	-11.58
▁jip	-11.5803
telaj	-11.5809
walon	-11.5821
▁cohelanil	-11.5836
jipan	-11.5841
jilan	-11.5858
tzalacan	-11.5865
chielto	-11.5869
incon	-11.5911
coxolan	-11.5911
chiahti	-11.5947
▁chexel	-11.5962
chma	-11.5963
▁walca	-11.5984
ojo	-11.6013
yc	-11.6025
▁ismajilo	-11.6059
▁hamam	-11.6065
chiyi	-11.6072
achi	-11.6077
ojaln	-11.6084
wute	-11.6084
ayico	-11.6097
iscol	-11.6098
chijilan	-11.6127
▁yalaxcan	-11.6132
topaxo	-11.6138
isyecan	-11.6138
balon	-11.6153
cotxumni	-11.6154
xiwi	-11.6165
wuẍta	-11.6174
mawa	-11.618
aycoj	-11.6206
haltebil	-11.6219
techaho	-11.6227
▁To	-11.6229
chisbej	-11.6229
sello	-11.6237
ixloj	-11.6241
israelita	-11.6241
chejbil	-11.6242
ispatrón	-11.6242
cocolbanil	-11.6243
yillax	-11.6247
tzabnayo	-11.6252
hawatut	-11.6252
bancano	-11.6254
dán	-11.6267
ordán	-11.6269
amasco	-11.6269
tolab	-11.627
▁Creta	-11.6271
Hanintonan	-11.6272
cuywa	-11.6273
chisyelo	-11.6273
Bejwe	-11.6279
▁Yahawoj	-11.628
cutxbanico	-11.6281
Jala	-11.6282
chihellax	-11.6284
isyenicanilo	-11.6291
istxah	-11.6299
tij	-11.6309
chio	-11.6309
▁Yec	-11.6315
yijewe	-11.6319
yuho	-11.6333
yabelo	-11.6348
macxan	-11.6354
helanojab	-11.6362
ulpaxo	-11.6374
▁challax	-11.6398
hecal	-11.6404
▁El	-11.6409
alpaxo	-11.6426
elcan	-11.6441
chixan	-11.6441
▁istel	-11.6453
hetx	-11.6461
▁heyohta	-11.6469
▁jaben	-11.6484
acto	-11.6485
▁heyenilo	-11.6495
▁chiillaxi	-11.6498
H	-11.6504
yillaxi	-11.6504
nocan	-11.6523
Maẍto	-11.6524
són	-11.6526
uninto	-11.6531
sac	-11.6563
cheyah	-11.6565
▁yac	-11.6576
▁Yini	-11.6587
inyehan	-11.6591
▁Con	-11.6594
intzotelan	-11.6594
▁yuni	-11.6605
▁chimeltzo	-11.6619
▁tzujanex	-11.6629
▁chitzejla	-11.663
▁istzejla	-11.663
▁cuartel	-11.663
▁harina	-11.663
▁inbeybalan	-11.663
▁islahwilal	-11.663
▁legua	-11.663
▁palamuch	-11.663
▁arena	-11.663
▁hunpilan	-11.663
▁chinelicojan	-11.663
▁trompeta	-11.663
▁testigohal	-11.663
▁corona	-11.663
▁iscantil	-11.6631
▁patrón	-11.6631
▁yespada	-11.6631
▁chibuchwa	-11.6635
▁culto	-11.6636
▁hecolchahi	-11.6636
▁chintxahlihan	-11.6638
yalnilo	-11.664
▁chitaj	-11.6643
▁chilolaxi	-11.6644
▁iscayelal	-11.6645
▁ispujbani	-11.6647
▁hemelyu	-11.6647
▁heyixal	-11.665
▁txahloj	-11.6652
▁chietaxtoj	-11.6654
▁Wohta	-11.6657
▁bit	-11.666
▁hajan	-11.6662
▁cachi	-11.6665
▁anmahilinan	-11.6666
▁Co	-11.6669
▁xap	-11.6681
▁heyehico	-11.6682
▁chiwaco	-11.6685
▁halbilxa	-11.6692
▁itzitzto	-11.6696
▁islahwi	-11.6698
▁hatzotel	-11.6708
▁ischejlaxto	-11.6713
lahanon	-11.6715
▁chiji	-11.6719
▁yahwi	-11.6725
laxilti	-11.6725
iscuy	-11.673
Ya	-11.6751
isxahann	-11.6774
▁cheyalni	-11.6778
▁heyahawil	-11.6798
yohtapaxo	-11.6799
▁chuli	-11.6807
chihuli	-11.682
▁hebreo	-11.6828
islahico	-11.6828
▁toholojab	-11.6836
laxayo	-11.6839
beybaln	-11.6841
▁mas	-11.6849
chahni	-11.685
▁yechelo	-11.6859
cabconcan	-11.6859
▁chisyah	-11.6872
walca	-11.6886
▁chawalic	-11.6887
colcha	-11.6894
chicoyije	-11.6896
▁elicoj	-11.6905
▁Te	-11.6906
etanto	-11.6919
ischej	-11.692
laxcan	-11.6922
mohyi	-11.6922
omex	-11.6923
partido	-11.6931
hajlo	-11.6933
omás	-11.6935
ohni	-11.6935
irla	-11.6935
magdal	-11.6936
cawex	-11.6936
hujel	-11.6936
ohchahi	-11.6936
oncio	-11.6936
tzujnu	-11.6936
ulex	-11.6936
yetexxa	-11.6936
hora	-11.6936
isholanil	-11.6936
ispeyabil	-11.6936
pojoj	-11.6936
abilonia	-11.6936
ispaxayti	-11.6936
taca	-11.6936
yintalto	-11.6936
upnican	-11.6937
mun	-11.6938
aynato	-11.6938
chialaxto	-11.6938
maxawil	-11.6939
istzabnoyo	-11.6939
omati	-11.694
istohlan	-11.6941
ebtaj	-11.6942
isyenipaxilo	-11.6942
xahechah	-11.6942
hesaynilo	-11.6943
chincanan	-11.6944
yixtan	-11.6944
comunil	-11.6944
yijlen	-11.6945
iwelo	-11.6946
tzencanilo	-11.6947
ebilayo	-11.6948
xacochah	-11.6949
istxumnilo	-11.6949
isbuchwa	-11.695
yinolo	-11.6951
isxe	-11.6954
chixcab	-11.6954
titnajinan	-11.6954
chijatojan	-11.6954
chextxahli	-11.6954
belwito	-11.6956
ismunla	-11.6958
chitxahli	-11.6959
yochenico	-11.6961
elaxilo	-11.6961
xajalan	-11.6961
etalax	-11.6963
hawuẍta	-11.6963
chinchahnihan	-11.6964
ijatz	-11.6965
ismalen	-11.6967
yanoco	-11.6967
isnimanbal	-11.6971
▁chissay	-11.6972
iscawxicanocan	-11.6972
yanicto	-11.6978
chuman	-11.6979
howla	-11.6983
matolo	-11.6983
anajon	-11.6984
chinnatijan	-11.6986
heyechman	-11.6987
cajlax	-11.6987
telajil	-11.699
ẍicoj	-11.6992
cotxahlihan	-11.6993
nipaxcano	-11.6996
iswinajil	-11.6999
ayachico	-11.7004
ishel	-11.7012
chibeybaln	-11.7012
coxahanbal	-11.7018
istiempohalxa	-11.7018
▁iswahni	-11.7018
isyijeni	-11.7023
▁chiyala	-11.7024
tijab	-11.7026
chichahnayto	-11.7027
chielicoj	-11.7031
hewayan	-11.7032
cuywi	-11.7036
▁yanicano	-11.704
ischahnicano	-11.704
lahico	-11.7042
chinitzitzbican	-11.705
alcal	-11.7055
uban	-11.7055
yama	-11.7057
elaxcano	-11.706
▁walno	-11.706
incolwahan	-11.7066
cheman	-11.7068
▁abewe	-11.7069
yocnico	-11.7069
isculus	-11.7069
chucano	-11.7071
chitac	-11.7074
hununtajil	-11.7075
▁way	-11.708
ischuquilxan	-11.7084
inilti	-11.7088
chislahico	-11.7091
haltebilxa	-11.7095
▁chahwe	-11.7098
eweco	-11.71
chiillax	-11.7106
balcano	-11.7107
xican	-11.7113
wihan	-11.7123
Haxa	-11.7127
camto	-11.7136
▁Toxa	-11.7138
enicojan	-11.7139
jalnic	-11.7142
mas	-11.7144
coyeniloj	-11.7151
ro	-11.7151
haquexpax	-11.7174
chachoc	-11.7178
Hun	-11.7192
ebo	-11.7198
chianican	-11.7201
chipaxto	-11.7244
motx	-11.7245
chexa	-11.7263
ojlax	-11.7304
encan	-11.7305
tzotelan	-11.7308
Chiwal	-11.7315
oq	-11.7316
chistzab	-11.7322
istzotelcan	-11.733
chiyilo	-11.7339
▁Wa	-11.7349
ancano	-11.7357
abeno	-11.737
▁Isyeni	-11.7375
Waxa	-11.7384
▁tzala	-11.7392
ahab	-11.7397
ulon	-11.7404
To	-11.7418
▁chinwa	-11.7429
camtoj	-11.7431
▁cotx	-11.744
▁Hul	-11.7456
chexahann	-11.7457
banil	-11.7478
▁chinto	-11.7482
pac	-11.7492
isyelaln	-11.7493
ambeni	-11.7523
▁checutxban	-11.7528
heto	-11.7542
yumal	-11.7546
chijni	-11.7572
hantaxa	-11.7581
iscabil	-11.7596
▁pa	-11.7599
alwi	-11.7615
▁Yahaw	-11.7617
tzujcha	-11.7617
▁wuc	-11.762
chiahto	-11.7645
orinto	-11.7648
gripa	-11.7648
ndrés	-11.7648
▁Betsaida	-11.765
▁Galacia	-11.765
▁Johta	-11.765
▁Sión	-11.765
▁Hajxam	-11.765
▁Natanael	-11.765
▁Iconio	-11.765
▁Listra	-11.765
iptzewe	-11.7651
alomón	-11.7651
▁Cilicia	-11.7651
▁Cirene	-11.7651
sar	-11.7654
▁hetz	-11.7655
icano	-11.7655
▁Cristohal	-11.7656
isjobnayo	-11.7659
naweti	-11.7659
chitxon	-11.7667
heje	-11.7679
▁Yabe	-11.7682
▁aytoc	-11.7682
▁yelax	-11.7687
▁woc	-11.7688
cheyi	-11.7689
machojabtaj	-11.769
txahlo	-11.771
campaxo	-11.7713
wuẍtajan	-11.7714
ispujba	-11.7715
yofrenda	-11.7717
chiyenilo	-11.7717
ismohyi	-11.772
testigo	-11.7721
hehelanil	-11.7722
higuera	-11.7722
inchuquilan	-11.7722
welapnojan	-11.7722
hunex	-11.7723
yorahil	-11.7723
halbil	-11.7723
yabxubal	-11.7724
presowom	-11.7725
chiscutxba	-11.7725
isvaso	-11.7727
bihe	-11.773
ismunlawom	-11.773
hetxumniloj	-11.7732
tzujanilxa	-11.7735
hisje	-11.7738
heyoj	-11.7742
isme	-11.7756
Canan	-11.7767
chitzoteli	-11.7775
colin	-11.7786
chicotz	-11.779
▁cop	-11.7801
▁Me	-11.7804
ocheni	-11.7809
pom	-11.7813
chistxon	-11.7828
cachlax	-11.7843
▁china	-11.7844
hamul	-11.7845
chinhesay	-11.7857
Hanta	-11.7866
▁chawabe	-11.787
▁xacam	-11.7875
illax	-11.7876
hawayto	-11.7891
hiwochehan	-11.7902
acano	-11.7904
▁heyabeni	-11.7908
▁yilwen	-11.7917
yayo	-11.7935
Iwel	-11.7938
▁hecolwa	-11.7947
bilon	-11.7949
▁chitocano	-11.7954
▁Tohol	-11.7955
▁chisma	-11.7955
▁Tzalah	-11.7958
nohilo	-11.7969
▁yahcan	-11.7973
▁Chul	-11.7974
▁ismujli	-11.7976
▁chejbanil	-11.799
▁chixew	-11.7991
▁ischahno	-11.8001
▁cheyuc	-11.8005
▁isbejni	-11.8009
▁juez	-11.801
▁hawichamil	-11.801
▁iscawxobal	-11.801
▁wanma	-11.801
▁helanex	-11.801
▁chinyijehan	-11.8011
▁pohlebahil	-11.8011
▁yijemex	-11.8011
▁hechuquil	-11.8011
▁hetxiquin	-11.8011
▁mantiado	-11.8011
▁panteón	-11.8011
▁chiixli	-11.8011
▁ochebil	-11.8011
▁wapnihan	-11.8011
▁sajsatil	-11.8011
▁chinchahan	-11.8011
▁tesataj	-11.8011
▁isyox	-11.8011
▁tzehtaj	-11.8013
▁hetzoteli	-11.8013
▁chimujli	-11.8013
▁issucal	-11.8014
▁isxu	-11.8015
▁cheyalpaxoj	-11.8016
▁hecolwal	-11.8017
yetbin	-11.8018
▁hawetbi	-11.8019
▁chinmunlahan	-11.8026
▁cheta	-11.8036
▁heyuten	-11.8044
▁comi	-11.8045
▁jeco	-11.8058
▁balam	-11.8067
▁niẍtejal	-11.8068
▁quinhulan	-11.8069
chiyil	-11.8082
wochehan	-11.8099
nimanxa	-11.8101
▁yetanto	-11.8117
yilnico	-11.8118
bili	-11.8133
▁binahoj	-11.8148
▁isyenipaxo	-11.816
wila	-11.8161
▁ayictoj	-11.8165
chanayo	-11.8195
cosunilan	-11.8197
▁tzujanxa	-11.8197
▁cabe	-11.8213
otz	-11.8222
▁yehilo	-11.8225
▁wohtapaxojan	-11.8239
▁Hal	-11.8242
ambewe	-11.8249
▁chexto	-11.8258
uninal	-11.8259
▁wanico	-11.8267
▁chexay	-11.8276
ˈ?:	-11.8278
sunilo	-11.8295
chiocpaxo	-11.8302
▁hech	-11.8318
▁hawuẍtaj	-11.8323
▁ispujba	-11.8335
chilin	-11.834
lino	-11.8363
heyohtajoj	-11.8373
▁chich	-11.839
uyw	-11.8404
jabe	-11.8414
polos	-11.8417
elén	-11.8419
maẍtajex	-11.8419
élix	-11.8419
saybilxa	-11.8419
etania	-11.8419
yanipaxto	-11.842
tolto	-11.842
wahawan	-11.842
chinalaxicojan	-11.8425
yinipaxocan	-11.8426
cuatro	-11.8437
yecheloj	-11.8442
tzujanico	-11.8491
heyahawil	-11.8493
hinanojab	-11.8519
cheja	-11.8541
chisna	-11.8543
Haquin	-11.8544
iscayel	-11.8546
hebreo	-11.8547
cantil	-11.855
toholojab	-11.855
hulnajinan	-11.8553
burro	-11.8554
lepra	-11.8554
semana	-11.8554
ichamile	-11.8555
denario	-11.8556
iscolbanil	-11.8557
sacerdotehal	-11.8558
isbili	-11.8559
etzan	-11.8559
plata	-11.856
chietanto	-11.8561
iscuybanil	-11.8561
ispixan	-11.8561
ixale	-11.8561
wulan	-11.8568
maẍtajinan	-11.8575
gobernadoral	-11.8576
iscolcha	-11.8584
▁elna	-11.8591
inpaxojan	-11.8592
ischahlax	-11.8608
yacoj	-11.8614
▁yelo	-11.8632
mago	-11.8633
metx	-11.8635
yallen	-11.8658
iscolwapaxo	-11.8659
ismeltzopaxo	-11.8664
jelan	-11.8666
xilxa	-11.8674
▁johta	-11.8683
apan	-11.8686
▁jeto	-11.8697
waltojan	-11.8703
▁chiilaxto	-11.8776
ijban	-11.8785
▁Yay	-11.8787
bit	-11.8794
▁yallaxi	-11.8831
Macta	-11.8849
xahano	-11.8851
ohtajan	-11.8852
ismajilo	-11.8878
▁ohtabilo	-11.888
chalte	-11.8885
▁chinoc	-11.8897
▁Chalpax	-11.8915
camojab	-11.8926
chiawi	-11.8965
laxtoj	-11.8977
iscampaxo	-11.8981
▁wuten	-11.8994
▁heDiosal	-11.9014
▁jabe	-11.906
istzala	-11.906
ispohcan	-11.9073
tzelo	-11.9075
wanico	-11.9076
yilcha	-11.9102
mulumon	-11.9113
Il	-11.9122
▁maquex	-11.9123
halniloj	-11.9137
nachalo	-11.9159
yelto	-11.9185
colbanil	-11.9188
cheyu	-11.9191
cochah	-11.9197
emal	-11.9203
buchwa	-11.9212
machojabpaxo	-11.9213
wuc	-11.9213
▁matan	-11.9213
welo	-11.9213
chispoh	-11.9215
txahul	-11.9217
yalaxto	-11.9229
caret	-11.9233
txumwe	-11.9237
aẍno	-11.9239
txumcha	-11.924
istucle	-11.924
etaxtoj	-11.9247
chejlaxto	-11.9248
wamigo	-11.9249
ornelio	-11.925
cuywahi	-11.925
reina	-11.9251
ishin	-11.9251
ofrenda	-11.9252
▁O	-11.9252
exch	-11.9252
isbahwa	-11.9253
Zaqueo	-11.9253
ahwobal	-11.9253
alión	-11.9253
arrabás	-11.9253
azufre	-11.9253
cotxumuloj	-11.9253
ejbixa	-11.9253
helahnico	-11.9253
hierro	-11.9253
higo	-11.9253
hulnajojinan	-11.9253
idón	-11.9253
inchejnihan	-11.9253
iria	-11.9253
isbutni	-11.9253
iscawxenico	-11.9253
ismeẍahil	-11.9253
ispuhnilo	-11.9253
isreligión	-11.9253
istzumbenilti	-11.9253
jaspe	-11.9253
jijlenan	-11.9253
libra	-11.9253
mirra	-11.9253
noventa	-11.9253
numnahi	-11.9253
ohchahilal	-11.9253
pafras	-11.9253
uplaxcan	-11.9253
értulo	-11.9253
▁Berea	-11.9253
▁Diana	-11.9253
▁Jericó	-11.9253
▁Sinaí	-11.9253
▁maná	-11.9253
hilanto	-11.9253
chiiptzen	-11.9253
lembil	-11.9253
▁Lot	-11.9253
chitibayo	-11.9253
epaxtojan	-11.9253
inlahnihan	-11.9253
sajbat	-11.9253
chicajwa	-11.9253
echmawe	-11.9253
hatohi	-11.9253
chinyelojan	-11.9253
etanoto	-11.9253
yilwelax	-11.9253
▁Nicodemo	-11.9253
ooz	-11.9253
oqui	-11.9253
chiinahti	-11.9253
molino	-11.9253
uixto	-11.9253
quinelicojan	-11.9253
▁Laodicea	-11.9253
ismajchen	-11.9253
chahbilxa	-11.9253
isnahuln	-11.9253
aypaxicto	-11.9253
▁Troas	-11.9253
hawanayo	-11.9253
ẍiaytij	-11.9253
lasu	-11.9253
heloni	-11.9253
chejbilintijan	-11.9254
chijaytojan	-11.9254
yitzitzbipaxocan	-11.9254
wejchahi	-11.9254
▁Aarón	-11.9254
quinyinitojan	-11.9254
txihom	-11.9255
yiptzencano	-11.9255
otzba	-11.9255
yohtaj	-11.9255
somchahoto	-11.9256
txumweloj	-11.9258
chijiyo	-11.9258
unn	-11.9259
cheyipaxto	-11.9259
chayelo	-11.9259
islahabico	-11.926
hawinilo	-11.926
tzalacanocan	-11.9261
satnom	-11.9262
chalpaxtoj	-11.9262
cocuyni	-11.9262
issomni	-11.9262
quexcolwa	-11.9262
ojlaxcan	-11.9263
chachhul	-11.9264
▁Xahan	-11.9264
allaxayo	-11.9266
issubcha	-11.9266
xawabehan	-11.9267
malbal	-11.9268
arcos	-11.9268
wejla	-11.927
chelahico	-11.927
yabelaxilo	-11.9271
chijechmahan	-11.9271
ajanojab	-11.9272
ixwihan	-11.9272
chechma	-11.9273
xachahni	-11.9273
palan	-11.9274
elaxojab	-11.9275
lencano	-11.9276
xaischah	-11.928
▁bin	-11.928
xaisje	-11.9284
isnanilo	-11.9287
chialaxayo	-11.9288
chiwalnicanojan	-11.9289
ispajtzen	-11.9294
chimeltzoco	-11.9294
cocolni	-11.9299
issabehal	-11.93
pujbani	-11.9301
tohal	-11.9304
hacachni	-11.9307
xajaco	-11.9307
ehobal	-11.9308
hamunil	-11.9311
xaisyelo	-11.9311
▁ispoh	-11.9314
mahalni	-11.9315
aniti	-11.9318
bililoj	-11.9321
hamunlahi	-11.9322
chicobeybaln	-11.9322
chebejcano	-11.9322
chinpaxtojan	-11.9327
chischilba	-11.9327
▁chew	-11.9328
chicolcha	-11.9329
chiyuhi	-11.933
chachah	-11.933
hawoj	-11.9332
▁batx	-11.9336
heyala	-11.9336
chacanoj	-11.9337
heyinican	-11.9338
▁hawil	-11.9341
yuli	-11.9342
ischejlaxtopaxo	-11.9343
habilxa	-11.9347
helom	-11.9347
apehal	-11.9349
isyecanilo	-11.9349
iscawxico	-11.9353
ojihan	-11.9355
chicoyijehan	-11.9358
iscarta	-11.936
chijcano	-11.9367
halilo	-11.9369
yuhi	-11.9371
isbihoj	-11.9372
▁Isyel	-11.9373
onbayo	-11.9374
▁Yel	-11.9375
codiosal	-11.938
iscolo	-11.9392
issatni	-11.9393
ispujnacanto	-11.9398
▁Isba	-11.9409
er	-11.9411
awecano	-11.9412
awtelax	-11.9416
chicolohan	-11.9423
chawabeto	-11.9423
tzetal	-11.9427
cobeybal	-11.9429
▁isreyal	-11.9439
ismunlabal	-11.9445
istajilo	-11.9446
cuybanilehal	-11.9449
xacami	-11.945
chietaxto	-11.945
▁chishel	-11.9451
wohtapaxojan	-11.9452
yamigo	-11.9454
nawal	-11.9455
hebeybal	-11.9456
ecanoj	-11.9456
yichebanil	-11.9457
aceite	-11.9458
ischejlaxto	-11.9459
chexcolwa	-11.9461
ishuj	-11.9461
ishoyanil	-11.9462
inyijenan	-11.9462
iswayic	-11.9462
quexwilnojan	-11.9463
cuywal	-11.9463
maxawal	-11.9463
▁hexxa	-11.9464
hanabal	-11.9465
▁ispujnacan	-11.9469
chexyil	-11.9469
chiilaxilo	-11.947
▁chistxum	-11.947
babelico	-11.9476
hemunil	-11.9485
chiilcha	-11.9486
ih	-11.9493
yaltecano	-11.9495
hehunban	-11.9497
chiichico	-11.9498
elcano	-11.9498
chiwalnihan	-11.9499
wayc	-11.9507
heyecoj	-11.9508
haquex	-11.9509
iweto	-11.9513
ispohni	-11.9517
chitzalacano	-11.9517
▁chisyijepaxo	-11.952
▁heyeco	-11.9525
▁quexya	-11.9526
subchahoj	-11.9542
anoto	-11.9547
habi	-11.9554
ulach	-11.9568
▁henani	-11.9578
▁yalil	-11.9579
ispaxti	-11.9583
Hal	-11.9587
▁chiyahni	-11.9589
tojab	-11.959
johtaxa	-11.9593
▁iscapil	-11.9598
issay	-11.9602
▁ijbalom	-11.9603
lahanmi	-11.9604
▁chiabelax	-11.9607
▁isho	-11.9612
▁titnajach	-11.9612
chielti	-11.9613
▁setenta	-11.9613
▁comatan	-11.9613
▁chiyeni	-11.9613
▁ichmame	-11.9614
▁isyahbetajil	-11.9614
▁isyawub	-11.9614
▁alibe	-11.9614
▁camello	-11.9614
▁inhelanilan	-11.9614
▁inmayan	-11.9614
▁wehicojan	-11.9614
▁chinischahan	-11.9614
▁incartahan	-11.9614
▁winajloj	-11.9614
▁inchejbanilan	-11.9614
▁istohi	-11.9614
▁chexmunlahi	-11.9614
▁hapaxtoj	-11.9614
▁yoqui	-11.9614
▁nimanilehal	-11.9615
▁chaẍhul	-11.9615
▁chiijbali	-11.9615
▁chijayto	-11.9618
▁chexilni	-11.9618
▁ismeẍa	-11.962
▁chexapno	-11.962
▁hetxumu	-11.9622
▁lemnahan	-11.9623
▁islob	-11.9623
▁ijbalomal	-11.9624
▁chawila	-11.9625
▁chincaman	-11.9627
▁heyichamil	-11.9629
chiuc	-11.963
Chin	-11.9633
▁heyaw	-11.9639
chihitzico	-11.964
▁chinapni	-11.9653
ispan	-11.9657
xahanmi	-11.9657
cawilal	-11.9658
▁coln	-11.9661
▁yetbihoj	-11.9662
chiwilnihan	-11.9663
▁chawu	-11.9679
yuteco	-11.9682
cabconocan	-11.9685
▁chucanoj	-11.9687
▁chiwuc	-11.9692
▁yawtelax	-11.9693
▁coto	-11.9694
▁chechahni	-11.9705
▁bel	-11.9706
▁chalic	-11.971
▁tajin	-11.9714
▁chiwuhan	-11.9715
▁isyeniloj	-11.972
machmi	-11.972
▁iscutxba	-11.9721
▁heyatut	-11.9726
amil	-11.9741
▁hatax	-11.9748
lahanojab	-11.9753
▁iscamilo	-11.9753
▁chiyoc	-11.9759
satapaxo	-11.9763
chiwayi	-11.9776
▁hacuyni	-11.9786
cosatan	-11.9795
istila	-11.9802
▁heb	-11.9812
pet	-11.9812
yalnolo	-11.9817
chahn	-11.9822
eloco	-11.983
chislin	-11.985
▁camomxa	-11.9854
ischahnipaxo	-11.9856
hawilni	-11.9864
▁inxahan	-11.9878
chiyub	-11.988
istxum	-11.9901
chiwalic	-11.9902
▁Istz	-11.9904
▁wojan	-11.9905
intan	-11.9906
copa	-11.9906
▁subchahoj	-11.9909
▁cuywawomal	-11.9915
▁hechahnicano	-11.9919
tzehan	-11.9922
▁cocawil	-11.9924
yuẍtan	-11.9927
hawohtan	-11.993
▁ji	-11.9932
▁ichamxa	-11.9935
chalnipaxo	-11.995
▁chub	-11.9951
nocano	-11.9955
islahobalxa	-11.9962
chilpaxo	-11.9972
inte	-11.9974
yiptzen	-11.9981
lahanxan	-11.9982
anahto	-12
istxumulo	-12.0017
txumni	-12.0026
▁chextzala	-12.0051
chinilo	-12.0065
xew	-12.0075
canocan	-12.0082
▁Israelal	-12.0088
▁Iwe	-12.0114
hamam	-12.0135
aholo	-12.0142
oxel	-12.0153
cancanojan	-12.0158
aifás	-12.0159
reta	-12.016
scariote	-12.0161
onás	-12.0162
wahawilan	-12.0162
airo	-12.0163
hipre	-12.0164
ablahon	-12.0164
majaltam	-12.0164
▁hatx	-12.0166
yabilal	-12.017
wabehan	-12.0174
món	-12.019
yubojab	-12.0198
yecanocan	-12.0207
▁iscol	-12.0215
ahwe	-12.0216
▁cosata	-12.0224
ecan	-12.0229
chiyuni	-12.023
hunpaxo	-12.0235
iscutxban	-12.0242
hachn	-12.0264
isla	-12.0289
▁chiyalic	-12.0296
cachan	-12.0297
ilnoj	-12.0299
ulcano	-12.0302
lit	-12.0307
walexpaxo	-12.0319
laxilo	-12.032
di	-12.032
wojan	-12.0336
yijemal	-12.0362
yapnicano	-12.0363
diosalo	-12.0364
yelmi	-12.0374
▁chiochen	-12.0377
aloj	-12.0388
hawe	-12.0389
chejabo	-12.0397
wetbi	-12.041
ías	-12.0416
yahawoj	-12.0425
inchahnihan	-12.0431
incaman	-12.0436
▁cheyutepaxo	-12.0438
chexxiw	-12.0448
cien	-12.045
hetxumnilo	-12.0453
▁chischahpaxo	-12.0455
yic	-12.0456
issa	-12.046
wuten	-12.046
jetbiho	-12.046
istxolal	-12.046
ischibehal	-12.0461
tzujnojan	-12.0461
calle	-12.0461
hecolbanil	-12.0463
iscuywahi	-12.0464
ismotx	-12.0464
isxiwcan	-12.0466
chicuywa	-12.0466
chexapni	-12.0471
chintzotelan	-12.0481
▁chitita	-12.0491
chiyayto	-12.0491
binahoj	-12.0492
hehowal	-12.0496
heyuninal	-12.0498
heyijeni	-12.05
nanpaxo	-12.0509
▁ispax	-12.0511
chiayilo	-12.0517
bilcan	-12.0524
uninale	-12.0524
watutan	-12.0525
isnoh	-12.0534
einan	-12.0564
▁chexya	-12.0573
xaapni	-12.0575
joccano	-12.0595
chintx	-12.0595
▁isyecan	-12.06
wayoj	-12.0619
chec	-12.063
▁ismajil	-12.0633
chiwi	-12.0644
isbeybaln	-12.0662
▁Cheya	-12.0666
▁yije	-12.0667
iscamto	-12.0682
▁coley	-12.0705
El	-12.0708
▁jecoj	-12.071
cowi	-12.0734
icaniloj	-12.074
chihallaxic	-12.0745
▁chibey	-12.0747
cheyilni	-12.0765
iq	-12.0807
▁chac	-12.0817
cheyalni	-12.0818
chuco	-12.0822
machojabn	-12.0829
ahojab	-12.0849
▁Chalnipax	-12.0861
uy	-12.0865
txumnilo	-12.0877
yabeni	-12.0882
ohtabil	-12.0912
isyijeno	-12.0932
elna	-12.0934
jute	-12.0936
incartat	-12.0941
isyenican	-12.0954
▁Yilaxt	-12.0956
▁helano	-12.097
▁xawa	-12.0976
octoj	-12.0986
▁chit	-12.0988
▁hacawil	-12.102
▁cayel	-12.1044
▁cocolcha	-12.1047
anexpaxo	-12.1053
▁mawal	-12.1078
laxiloj	-12.1085
yijen	-12.1086
▁wul	-12.1092
juten	-12.1095
▁yato	-12.1097
yichi	-12.1117
yub	-12.1129
▁japni	-12.1133
yelcano	-12.1139
tzablaxayo	-12.1146
toholban	-12.1148
jobnayo	-12.1149
▁chalo	-12.115
▁Isaí	-12.1161
lizabet	-12.1161
Oxel	-12.1162
anás	-12.1162
ebedeo	-12.1162
udá	-12.1162
▁Beelzebú	-12.1162
▁Dorcas	-12.1162
▁Gadara	-12.1162
▁Gayo	-12.1162
▁Panfilia	-12.1162
Yechel	-12.1162
quinyacojan	-12.1162
▁Italia	-12.1162
▁Mateo	-12.1162
hitzan	-12.1162
▁Tíquico	-12.1162
▁Tarso	-12.1162
▁Filipos	-12.1162
▁Salmos	-12.1162
paraíso	-12.1162
▁Alfeo	-12.1163
▁Alejandro	-12.1163
▁Aristarco	-12.1163
▁Atenas	-12.1163
▁Yijem	-12.1163
▁jechman	-12.1163
▁Tol	-12.1164
isholnito	-12.1164
▁Cachan	-12.1164
Mi	-12.1166
▁ancla	-12.1167
▁Abel	-12.1167
▁yahawiloj	-12.1172
yetato	-12.1175
yichenico	-12.1175
chawiti	-12.1176
haco	-12.1183
chintxuman	-12.1185
chexalaxico	-12.1186
miyay	-12.1187
chiwacanicojan	-12.1188
chexilaxto	-12.1191
▁Wahawilan	-12.1192
▁inDiosalan	-12.1192
▁colo	-12.1194
ischejnilo	-12.1198
▁isDiosalo	-12.12
chinxiwan	-12.1201
▁Yoche	-12.1201
chiwaytojan	-12.1207
▁hayijen	-12.1208
xaisbejcano	-12.1209
Yul	-12.121
▁chipax	-12.1212
▁issat	-12.1215
▁reyal	-12.1218
yawtenilo	-12.1222
▁as	-12.1227
▁hawuten	-12.1227
alcanoj	-12.1241
haxapaxo	-12.1243
▁Yahawilo	-12.1249
▁chiyabe	-12.1253
▁chiuten	-12.1256
ecanojan	-12.1259
▁heyelapno	-12.1259
▁Wi	-12.1262
▁subchahojan	-12.1264
▁ixnamxa	-12.1264
chumanil	-12.1267
cololo	-12.1271
Chej	-12.1274
▁Oxeb	-12.1282
▁Chahwe	-12.1283
▁Ischejnito	-12.1289
enpaxojan	-12.1292
▁habatx	-12.1293
▁heniman	-12.1303
waybal	-12.1315
▁juc	-12.1317
▁camna	-12.1332
inchejtojan	-12.1337
xayu	-12.1338
hallaxpaxo	-12.1346
chiwutehan	-12.1346
▁hawohta	-12.136
▁munilal	-12.1369
txann	-12.137
chinta	-12.1371
aninan	-12.1372
▁heyec	-12.1375
▁isbiho	-12.1393
▁chaẍto	-12.1393
comunilan	-12.1398
isyenipaxo	-12.1408
▁wayo	-12.1412
▁heyohtapaxo	-12.1428
ipaxilo	-12.1434
▁Hallaxojab	-12.1442
▁chiscaj	-12.1442
cosaya	-12.1457
▁chisya	-12.146
▁chihallaxi	-12.1465
▁chacoj	-12.147
▁suc	-12.1482
▁su	-12.1485
▁taj	-12.1488
innimanil	-12.149
▁chicotxum	-12.1493
▁comunla	-12.1495
iscutxba	-12.1498
▁chibili	-12.1498
▁chabil	-12.1499
yalaxcan	-12.1503
▁chijila	-12.1506
▁chisayni	-12.151
▁hawunin	-12.1513
aln	-12.1516
▁ischiwa	-12.1521
▁quetzal	-12.1522
▁jalno	-12.1522
▁chepohle	-12.1522
▁chepajtze	-12.1522
▁munlaho	-12.1522
▁chitzejtzoni	-12.1523
▁cochuquil	-12.1523
▁esponja	-12.1523
▁holbil	-12.1523
▁incuywomojan	-12.1523
▁ismalil	-12.1523
▁mayor	-12.1523
▁nueve	-12.1523
▁pahaw	-12.1523
▁plato	-12.1523
▁quiniscolnihan	-12.1523
▁vidrio	-12.1523
▁wetbihojan	-12.1523
▁wuninalan	-12.1523
▁seis	-12.1523
▁piso	-12.1523
▁yelawiloj	-12.1523
▁hahelanil	-12.1523
▁chexchahlaxi	-12.1523
▁inchejabojan	-12.1523
▁inbelan	-12.1523
▁winitojan	-12.1523
▁iscolwahi	-12.1523
▁sur	-12.1523
▁chiwitijan	-12.1523
▁lanza	-12.1523
▁tasataj	-12.1523
▁isjepla	-12.1524
▁quintzotelan	-12.1524
▁chexwayi	-12.1524
▁ayinictojan	-12.1524
▁chimunlahi	-12.1525
▁heyetbihoj	-12.1525
▁inmelyuhan	-12.1525
▁ispartido	-12.1525
▁chihaltelax	-12.1526
▁chicoyelo	-12.1526
▁xajayto	-12.1528
▁hachahni	-12.1528
▁iscolchahi	-12.1528
chiw	-12.1528
▁techahoj	-12.1531
▁chayije	-12.1531
▁hinaninan	-12.1532
▁cotioẍ	-12.1533
cosataj	-12.1533
▁chielcanico	-12.1533
▁hetxah	-12.1535
▁chialaxicoj	-12.1536
▁xecan	-12.1538
▁chialaxico	-12.154
▁ismatan	-12.1541
▁chielcanicoj	-12.1541
▁hawohtajoj	-12.1543
▁wabe	-12.1545
▁yecano	-12.1545
▁iscamiloj	-12.1546
▁hawaybal	-12.1551
▁wajeb	-12.1554
islow	-12.1557
▁chexcancano	-12.1557
▁coloni	-12.1559
iscawil	-12.156
chiayto	-12.1566
▁yilnipaxo	-12.1567
subuta	-12.1569
yichitax	-12.1569
mostaza	-12.1569
perla	-12.1569
sesenta	-12.1569
▁hatzoteli	-12.157
bejbilcano	-12.157
▁hechah	-12.157
chilolax	-12.1571
istrompeta	-12.1572
chiwinajli	-12.1573
hawuninal	-12.1575
yoxel	-12.1576
matanil	-12.1576
munlawomal	-12.1576
hecuybanil	-12.1577
▁islowi	-12.1577
itzitzinan	-12.1577
cotxahli	-12.1577
chexwa	-12.1578
halbilxa	-12.158
inmunlahan	-12.1581
wejna	-12.1582
▁nohcan	-12.1582
▁chicani	-12.1582
isxahanbal	-12.1585
nahatil	-12.1592
▁yahbil	-12.1593
▁istzalabal	-12.1594
issoldado	-12.1597
chucanico	-12.1599
isbarco	-12.1605
▁xaheyabe	-12.1606
teyintaj	-12.1611
▁chexo	-12.1624
tzujanxa	-12.1638
chiyilni	-12.1657
▁hecuywawom	-12.1657
chiwalto	-12.1688
▁mawalan	-12.1695
▁chiju	-12.1698
chetz	-12.1702
▁hawabe	-12.1707
▁ishunban	-12.1714
▁chima	-12.1714
▁walic	-12.1722
tzoteli	-12.1726
inxahan	-12.1728
chextz	-12.173
▁pujnacan	-12.1734
hachejab	-12.1739
atoj	-12.1744
▁yabelax	-12.1746
heyuẍta	-12.1749
lahanxa	-12.1752
lecan	-12.1756
▁wawte	-12.1761
anmaho	-12.1762
▁awten	-12.1778
bano	-12.1788
▁taca	-12.1789
iswaj	-12.1795
▁chimujlax	-12.1797
▁?:	-12.182
▁hawala	-12.1821
inwi	-12.1822
▁awtebilex	-12.1835
weto	-12.1835
▁yallaxpaxo	-12.1837
▁titnaj	-12.1838
cheyito	-12.1841
hacuyni	-12.1842
yeniloj	-12.1844
nawe	-12.1844
▁Yeli	-12.1855
hallaxo	-12.1865
xab	-12.1868
cuyu	-12.1888
xahul	-12.1906
▁chacano	-12.1916
caniloj	-12.1939
▁chipa	-12.1953
hantato	-12.1953
alaxti	-12.1964
mataj	-12.1983
yanicano	-12.1995
▁cachan	-12.201
yahwi	-12.2012
halnicano	-12.2041
▁chinc	-12.2057
iscach	-12.2065
wanican	-12.2075
ahlax	-12.2078
habeh	-12.21
xato	-12.2108
inmeltzohan	-12.2114
watut	-12.2147
xacan	-12.2171
ichiti	-12.2175
alaxayto	-12.2204
txahlihan	-12.2219
subcha	-12.2235
▁isbejtzo	-12.2238
chexe	-12.2244
ominan	-12.2249
cawxi	-12.2249
wilo	-12.225
palacio	-12.2252
limeta	-12.2254
txihnayo	-12.2254
monten	-12.2254
ishunba	-12.2255
ahnilo	-12.2255
soman	-12.226
chibejtzolax	-12.226
▁Haquin	-12.2263
chawte	-12.2266
chilow	-12.2268
jepla	-12.2268
santa	-12.2269
chexel	-12.2269
conanitijan	-12.2269
chiluylun	-12.227
arpa	-12.227
chejnitijan	-12.227
inbejtzonan	-12.227
arón	-12.2271
txiho	-12.2271
quila	-12.2271
esalónica	-12.2272
hucan	-12.2272
usni	-12.2272
saynic	-12.2272
erodías	-12.2272
hujuy	-12.2273
inpatronan	-12.2273
maxeyil	-12.2273
quexjilnojan	-12.2273
tán	-12.2273
ainán	-12.2273
alabastro	-12.2273
aynajext	-12.2273
bronce	-12.2273
cebada	-12.2273
centavo	-12.2273
chahobcan	-12.2273
chaẍwacanicojan	-12.2273
chicotzujbanico	-12.2273
chintohlahan	-12.2273
chitzicobtan	-12.2273
chiwalpaxtojan	-12.2273
chílo	-12.2273
coronahil	-12.2273
cutxanxaco	-12.2273
ebilpaxcanayo	-12.2273
ebilpaxcano	-12.2273
ergio	-12.2273
espejo	-12.2273
hecamiẍ	-12.2273
hepajtzen	-12.2273
horno	-12.2273
imeón	-12.2273
inchejnitojan	-12.2273
inmajulan	-12.2273
irlahi	-12.2273
iscallehal	-12.2273
ismujlubal	-12.2273
ismujni	-12.2273
isnumerohal	-12.2273
issellohal	-12.2273
lawuẍ	-12.2273
levita	-12.2273
locohal	-12.2273
maxawayto	-12.2273
maxeyabe	-12.2273
maxeyiti	-12.2273
minadab	-12.2273
mohi	-12.2273
nazareno	-12.2273
odoma	-12.2273
ohbaco	-12.2273
quinhetzabayojan	-12.2273
rabia	-12.2273
sajbes	-12.2273
veneno	-12.2273
vinagre	-12.2273
wichmaman	-12.2273
yuxlax	-12.2273
ẍalu	-12.2273
chinanocojan	-12.2273
inwinajilan	-12.2273
issuni	-12.2273
istzilbanil	-12.2273
nawn	-12.2273
saybilon	-12.2273
colahban	-12.2273
sombil	-12.2273
chihajlax	-12.2273
hawixal	-12.2273
isxecnican	-12.2273
yojtabanil	-12.2273
iweyo	-12.2273
usno	-12.2273
encaniltojan	-12.2273
incuynihan	-12.2273
numero	-12.2273
innanihan	-12.2273
poho	-12.2273
wanaytojan	-12.2273
allaxico	-12.2273
ichicanti	-12.2273
ishabilal	-12.2273
ilaxayoj	-12.2273
chinilnihan	-12.2273
walaxicojan	-12.2273
winitijan	-12.2273
hewahni	-12.2273
copohnilo	-12.2273
hawetbihoj	-12.2273
uxewal	-12.2273
istzabloco	-12.2273
chinochenan	-12.2273
liaquim	-12.2273
wejnahi	-12.2273
chinmujlaxan	-12.2273
ismajni	-12.2273
iscolomal	-12.2273
hecachni	-12.2273
ecanilto	-12.2273
cawbolo	-12.2274
hayenilo	-12.2274
yijbali	-12.2274
intoholan	-12.2274
intzanojan	-12.2274
eweloj	-12.2274
inhamanilan	-12.2274
hematan	-12.2274
quinyintan	-12.2275
camnajo	-12.2275
upom	-12.2275
helanilehal	-12.2275
batxn	-12.2276
quinchejnitijan	-12.2276
quexawten	-12.2276
ibpaxocan	-12.2276
meltzoho	-12.2276
mohyinaxa	-12.2276
ajban	-12.2277
japnicanojan	-12.2277
ejholohal	-12.2277
idia	-12.2277
ehoyo	-12.2277
wamigohan	-12.2278
isbujilo	-12.2278
bilexxa	-12.2278
ismilalxa	-12.2278
ismasnico	-12.2278
ispitnilto	-12.2278
chiwahni	-12.2278
iscutxico	-12.2278
cotopaxojan	-12.2278
ismunlahi	-12.2279
chenati	-12.228
ubabil	-12.228
hajcha	-12.228
sajbilo	-12.2281
chachyawte	-12.2281
istxumabilo	-12.2281
hanoh	-12.2281
chexawtelax	-12.2281
chahwal	-12.2281
hebejtzo	-12.2282
chiabelaxiloj	-12.2282
hewinajil	-12.2282
yinoyo	-12.2282
inxewan	-12.2283
intxahlihan	-12.2283
ayinictijan	-12.2283
ijbani	-12.2284
hemunlahi	-12.2284
ohnipaxo	-12.2284
chexetanto	-12.2284
chipohcha	-12.2284
ishobnican	-12.2285
ojlaxayo	-12.2285
mawabehan	-12.2285
isyijelaxi	-12.2286
hunlahanxan	-12.2286
yicheco	-12.2288
cobejnicano	-12.2289
chexhallax	-12.2289
quexyawten	-12.229
chexilaxcan	-12.229
isbabito	-12.2291
istxihnayo	-12.2291
vinohal	-12.2292
chipohchacan	-12.2292
chexwilan	-12.2293
quexiscuyni	-12.2294
chexcolchahi	-12.2295
comachiswalilal	-12.2295
tzelojan	-12.2296
chilann	-12.2296
ayolo	-12.2296
aptzen	-12.2297
illaxi	-12.2297
chexelcanico	-12.2297
ayextoco	-12.2298
nahatli	-12.2298
chijucano	-12.2298
uslaxi	-12.2299
ambele	-12.23
tzeniloj	-12.23
yilaxcan	-12.2301
isyijemal	-12.2301
coyahni	-12.2302
ochenta	-12.2303
emilo	-12.2304
lenilo	-12.2304
quintohan	-12.2305
quinwayan	-12.2306
chinchejan	-12.2307
heyespada	-12.2307
heyinoti	-12.2307
hacuynipaxo	-12.2308
yechto	-12.2309
alemal	-12.2309
tzelaxcanilo	-12.231
inbeyan	-12.2311
cocampaxo	-12.2313
chexhul	-12.2313
quinmunlahan	-12.2314
nicamojan	-12.2314
yawtenico	-12.2315
webilxa	-12.2315
chiyucanico	-12.2316
aweyto	-12.2316
chistenico	-12.2319
mulehal	-12.2319
▁elcan	-12.232
chispohle	-12.2322
chaẍapno	-12.2323
ayxayo	-12.2323
heyalaxto	-12.2323
epta	-12.2325
emcan	-12.2326
jinilojan	-12.2328
▁chila	-12.2328
hunepn	-12.233
ischejti	-12.2333
yehayo	-12.2333
isselelo	-12.2335
iscawxilo	-12.2335
chicobejan	-12.2335
hecalxan	-12.2339
heyintan	-12.234
zalajon	-12.2341
iscolchalo	-12.2341
uyal	-12.2342
winilojan	-12.2344
chiawten	-12.2347
chiscajpaxo	-12.2348
hayeboxa	-12.235
chialaxayto	-12.2351
chiichiti	-12.2351
jahawilojan	-12.2351
cocuybanil	-12.2356
hesajn	-12.2358
awtebilexxa	-12.2358
mamehal	-12.2365
hevaso	-12.2366
uxanxa	-12.2372
jinican	-12.2374
chishajba	-12.2375
ehojabn	-12.2378
matxon	-12.238
hecolwabal	-12.2384
chicosayi	-12.2385
cheyican	-12.2385
bacan	-12.2386
bilinan	-12.2387
cowayan	-12.2387
xalo	-12.2396
chisnacan	-12.2396
uxanta	-12.2396
tzenilojan	-12.2396
xayabe	-12.2398
ayinn	-12.24
espírituhan	-12.2401
yilayo	-12.2404
enilto	-12.2408
Iwe	-12.2411
hunach	-12.2415
inicojan	-12.2419
chinman	-12.2419
▁Yij	-12.2422
winican	-12.2425
yinilti	-12.2426
heyehilo	-12.2427
heyuẍtaxa	-12.2435
ambebalan	-12.2443
hawacano	-12.2444
chisajn	-12.2454
isbejtzoto	-12.2454
cachoc	-12.2458
hallaxan	-12.2467
ispohto	-12.2474
intopaxojan	-12.2482
ulcanoj	-12.2482
techahojab	-12.2484
chitxahlipaxo	-12.2491
chishin	-12.2491
sunilopaxo	-12.2492
yicanilo	-12.2494
ishujwan	-12.2495
chiwohtan	-12.2496
yocheco	-12.2502
juẍtaxa	-12.2506
chiyabeto	-12.2507
isreyalo	-12.2509
anxacan	-12.251
jochebal	-12.252
wecojan	-12.2529
chimunlaco	-12.2533
onayo	-12.2534
iscolwal	-12.254
cajni	-12.2545
amn	-12.2546
hese	-12.2552
mayayto	-12.2556
Chal	-12.2587
chielcano	-12.2601
chitxumchapaxo	-12.2603
hawanican	-12.2608
yabenpaxo	-12.2622
huninan	-12.2624
xayayto	-12.2638
yulicto	-12.2641
ispohnito	-12.2648
istitico	-12.266
cobeybaln	-12.2663
▁txah	-12.2671
iscuywabal	-12.2681
awten	-12.2683
chijabehan	-12.2694
elpaxico	-12.2695
chiillaxi	-12.2697
noho	-12.2715
aycanico	-12.2724
▁johtajo	-12.2724
▁xaa	-12.2728
hetxumilo	-12.2733
majanil	-12.274
chahpaxico	-12.274
cham	-12.2745
ischayto	-12.275
hexiwi	-12.2751
chialaxicto	-12.2764
istel	-12.2765
▁coch	-12.2769
patrón	-12.2773
yespada	-12.278
cohelanil	-12.278
corona	-12.2797
chiwaco	-12.28
wawte	-12.28
heyohta	-12.2801
yilwen	-12.2802
nahatto	-12.2805
oncan	-12.2807
hatax	-12.2808
iscamilo	-12.281
trompeta	-12.2812
heyenilo	-12.2813
quinhulan	-12.2815
niẍtejal	-12.2816
cuartel	-12.2817
harina	-12.2817
hunpilan	-12.2817
inbeybalan	-12.2817
islahwilal	-12.2817
legua	-12.2817
palamuch	-12.2817
istzejla	-12.2817
arena	-12.2817
chinelicojan	-12.2817
testigohal	-12.2817
chitzejla	-12.2817
Halwe	-12.2818
tzujanex	-12.2818
chimujlax	-12.282
iscantil	-12.2821
chibuchwa	-12.2823
techahoj	-12.2824
cabxa	-12.2824
hecolchahi	-12.2825
Anma	-12.2827
chititcano	-12.2827
chilolaxi	-12.2832
Yel	-12.2832
iscayelal	-12.2833
chintxahlihan	-12.2834
Walex	-12.2835
chimeltzo	-12.2839
hemelyu	-12.2839
txahloj	-12.2839
ayxacan	-12.2842
chietaxtoj	-12.2842
No	-12.2844
heyixal	-12.2844
culto	-12.2844
Ec	-12.2844
hawala	-12.2844
Etza	-12.2846
chicoxahann	-12.2846
chisyah	-12.2849
ishunban	-12.285
ispujbani	-12.2853
chitaj	-12.2853
jilnihan	-12.2854
anmahilinan	-12.2855
tecano	-12.2855
pujnacan	-12.2858
habanxa	-12.2863
▁yeloj	-12.2872
wetoj	-12.2876
heyehico	-12.2876
chacano	-12.2878
hatxumu	-12.2881
hajan	-12.2881
chexcam	-12.2883
isbelwito	-12.2888
itzitzto	-12.2892
tzenan	-12.2901
chisma	-12.2911
chiji	-12.2912
chiyati	-12.2925
hacuyu	-12.2931
chiscutxban	-12.2931
▁mayal	-12.2936
heyijento	-12.2936
hatzotel	-12.2939
Tzi	-12.294
balam	-12.2945
chitopaxo	-12.2957
cajin	-12.2961
heyinito	-12.298
ispohilo	-12.2981
howo	-12.2985
jip	-12.2985
chishelni	-12.2993
chaẍtzotel	-12.2993
chicancanoj	-12.3002
machiswalilal	-12.3005
ibi	-12.301
chuli	-12.3016
▁ispal	-12.3047
istzano	-12.3053
challax	-12.3077
yinoti	-12.3083
islahwi	-12.3093
heyocpaxo	-12.3098
chachay	-12.311
chawalic	-12.3111
chalpaxoj	-12.3113
hawocto	-12.3134
way	-12.3137
taho	-12.3149
annicano	-12.3153
aca	-12.3161
hawalnipaxo	-12.317
yinayti	-12.3181
Yal	-12.3187
yechelo	-12.3196
sajin	-12.3219
yalilo	-12.3222
▁Chistx	-12.3226
chiyala	-12.3237
▁ispajo	-12.3242
xahancano	-12.3243
yetbixa	-12.3276
coleyan	-12.3294
unlahan	-12.3307
▁maya	-12.3321
▁chinp	-12.3351
chissay	-12.3392
chisnati	-12.3392
▁chetxum	-12.3408
▁heyalno	-12.3409
cheyiti	-12.341
cachi	-12.3426
babito	-12.3441
caman	-12.3445
▁woj	-12.3449
howebo	-12.3452
cawxico	-12.3458
chejto	-12.3459
hiwalpaxojan	-12.3461
▁Cat	-12.3463
woc	-12.3465
wutehan	-12.3495
▁yahbal	-12.3514
ebreo	-12.3521
bajil	-12.3522
▁Bab	-12.3523
puerto	-12.3523
riscila	-12.3523
Hujeb	-12.3523
chimisje	-12.3523
▁Anás	-12.3523
▁Bartolomé	-12.3523
▁Benjamín	-12.3523
▁César	-12.3523
▁Derbe	-12.3523
▁Faraón	-12.3523
▁Genesaret	-12.3523
▁Gomorra	-12.3523
▁Gólgota	-12.3523
▁Hecolomal	-12.3523
▁Jeremías	-12.3523
▁Siloé	-12.3523
▁Silvano	-12.3523
ishajlax	-12.3523
▁Obed	-12.3523
▁Onésimo	-12.3523
wilnipaxojan	-12.3523
▁Hemam	-12.3523
wochebalan	-12.3523
▁Niman	-12.3523
▁Nínive	-12.3523
▁Estéfanas	-12.3523
▁Enoc	-12.3523
▁Lida	-12.3523
▁Balaam	-12.3523
▁Tiatira	-12.3523
▁Agar	-12.3524
▁Alejandría	-12.3524
▁Arimatea	-12.3524
▁Augusto	-12.3524
▁Chicawxi	-12.3524
Catawej	-12.3525
▁Heyahawil	-12.3525
▁Caín	-12.3525
cananista	-12.3525
▁Yanicanic	-12.3525
▁Xaquex	-12.3526
tzalahojab	-12.3526
iweti	-12.3527
iw	-12.3532
▁chesaya	-12.3543
▁isniman	-12.3545
▁hayebo	-12.3547
Tet	-12.3549
▁walnipaxojan	-12.3555
▁isDiosaloj	-12.3564
Chawil	-12.3568
▁issajbiloj	-12.3577
chawato	-12.3577
▁ayintoc	-12.358
ismalto	-12.3581
▁Mal	-12.3582
▁chiwacan	-12.3586
▁Chico	-12.3593
▁isbina	-12.3596
▁Islah	-12.3601
xap	-12.3611
▁ahcano	-12.3614
▁inme	-12.3616
▁heyic	-12.3616
chalnipaxoj	-12.3632
hajxamex	-12.3638
Nan	-12.3638
▁Machipaxo	-12.3641
▁waco	-12.3645
▁istitc	-12.3651
▁jaco	-12.3655
cotan	-12.3659
▁maxa	-12.366
chalpaxto	-12.3674
jacojan	-12.3683
▁istzotelpaxo	-12.3685
xalahwi	-12.3731
▁yax	-12.3732
▁ishi	-12.3733
▁yija	-12.3733
utenico	-12.3766
ucas	-12.3774
checutxban	-12.3787
lahanpaxo	-12.3793
jabenan	-12.3793
▁chisubcha	-12.3823
cuywawomal	-12.3829
ujbanic	-12.3832
▁cheyilo	-12.3837
▁hesayni	-12.3838
▁isbej	-12.3846
yabeto	-12.3852
▁chicawxican	-12.3864
▁isbejtzolax	-12.3875
▁chiyelax	-12.3876
▁chexixli	-12.3877
▁ishatelax	-12.3877
▁helanile	-12.3881
▁isdiezmo	-12.3882
▁chitxumni	-12.3882
▁inyenilo	-12.3883
▁hatelaxo	-12.3883
▁chexcolcha	-12.3883
▁hajloho	-12.3884
▁maxawute	-12.3884
▁incuywahan	-12.3884
▁chaẍtohi	-12.3884
▁chextohi	-12.3884
▁chinbejtzohan	-12.3884
▁diáconohal	-12.3884
▁chabejtzo	-12.3884
▁hehelbal	-12.3884
▁quinanitijan	-12.3884
▁chinsayan	-12.3884
▁coseleloj	-12.3884
▁heseleloj	-12.3884
▁chinheyilan	-12.3884
▁incapilan	-12.3884
▁incuywoman	-12.3884
▁chexcuyni	-12.3884
▁chishatx	-12.3885
▁cawxojan	-12.3885
▁quexwohtajojan	-12.3885
▁jahnojan	-12.3885
▁toholcanoj	-12.3886
▁chisatni	-12.3886
▁ancianohal	-12.3886
▁chinlohan	-12.3889
▁heyamigo	-12.3889
▁istioẍ	-12.3892
▁cocolchahi	-12.3893
▁checuy	-12.3893
chaben	-12.3894
▁matxataj	-12.3901
▁quexchimi	-12.3902
▁ohtabiloj	-12.3902
heyanipaxico	-12.3903
▁chiscach	-12.3906
▁anmahilach	-12.3915
▁heyuẍtaj	-12.3926
▁yuten	-12.3966
▁cota	-12.3972
▁hete	-12.3999
heyabeni	-12.4011
haxahanbal	-12.4015
hawabe	-12.4028
cheta	-12.4028
yilnipaxo	-12.4037
hetz	-12.4042
cheyabeni	-12.4049
▁ẍiayo	-12.408
encanoj	-12.4082
camilo	-12.4083
oxebxa	-12.4099
▁nano	-12.4102
▁intx	-12.4126
▁chista	-12.4143
chinwa	-12.4144
camomon	-12.4147
▁Chawal	-12.4147
▁intxumnihan	-12.4164
chihallaxo	-12.4196
chitocano	-12.421
isbejni	-12.4241
chinyijehan	-12.4242
hechuquil	-12.4242
hetxiquin	-12.4242
mantiado	-12.4242
panteón	-12.4242
pohlebahil	-12.4242
yijemex	-12.4242
sajsatil	-12.4242
chiixli	-12.4242
chinchahan	-12.4242
tesataj	-12.4242
wapnihan	-12.4242
ochebil	-12.4243
helanex	-12.4243
tzehtaj	-12.4244
hawichamil	-12.4244
juez	-12.4244
iscawxobal	-12.4244
ismujli	-12.4244
hetzoteli	-12.4245
chimujli	-12.4247
yahcan	-12.4247
cheyalpaxoj	-12.4248
chiwuc	-12.4249
hecolwa	-12.4249
chixew	-12.425
hecolwal	-12.425
issucal	-12.4251
isyox	-12.4252
cheyuc	-12.4253
isxu	-12.4259
intxumnihan	-12.426
yichamilo	-12.4264
yawtelax	-12.4264
ischahno	-12.4265
cena	-12.4267
chinmunlahan	-12.4269
chawabe	-12.427
hawetbi	-12.4276
heyuten	-12.4281
yabelax	-12.4287
nanantan	-12.4294
wanma	-12.4309
ilaxtoj	-12.4332
comi	-12.4337
jeco	-12.4348
apnipaxo	-12.4352
▁quexyil	-12.4357
lancha	-12.4366
xacam	-12.438
camomxa	-12.4397
▁abebil	-12.4407
▁Cheyal	-12.4417
jaben	-12.4429
yehilo	-12.445
ayictoj	-12.4468
cabe	-12.4505
chexto	-12.4539
ayexpaxo	-12.4573
chextzotel	-12.462
heyalnipaxo	-12.4652
heyahaw	-12.469
▁taco	-12.4704
▁Quin	-12.4705
▁Nab	-12.4705
hawuẍtaj	-12.4709
chexay	-12.4733
nahato	-12.4777
chicobej	-12.4791
▁Chanic	-12.4845
▁chexc	-12.4868
jeto	-12.488
ẍipaxoj	-12.4913
coln	-12.4918
▁hewa	-12.4926
istra	-12.4937
ilicia	-12.4949
irene	-12.4949
bejwe	-12.4951
filipo	-12.4951
salmo	-12.4951
alacia	-12.4951
etsaida	-12.4951
hecolomal	-12.4951
sión	-12.4951
waxajebxa	-12.4951
ishitzilo	-12.4951
mawitijan	-12.4951
yablen	-12.4952
atanael	-12.4954
iloé	-12.4956
hallaxojab	-12.4959
chaẍwatojan	-12.4962
istzublico	-12.4963
ispitni	-12.4963
alaxojabico	-12.4967
aín	-12.497
aytam	-12.497
tzettam	-12.4977
cachanxan	-12.4978
chisbalcan	-12.4985
lahweco	-12.4987
aynajo	-12.4987
cocancanojan	-12.4988
mayijcano	-12.499
xicto	-12.5005
chawilti	-12.5015
atij	-12.5018
isli	-12.5029
iscachlax	-12.5038
chiwatijan	-12.504
semanahil	-12.5053
ida	-12.5143
chiilaxto	-12.5147
ohtabilo	-12.5149
yallaxi	-12.5166
jalnipaxojan	-12.5204
hachxa	-12.5214
▁Ichi	-12.5236
▁inwa	-12.5243
yocpaxto	-12.5261
conio	-12.5371
chew	-12.538
chinma	-12.5415
chawanico	-12.5437
heyija	-12.544
E	-12.5473
jinayo	-12.5525
txumu	-12.5544
nipaxocan	-12.557
▁Matat	-12.5619
lot	-12.5643
nicto	-12.5648
icanilo	-12.5656
M	-12.5683
▁cheyohtajo	-12.5719
himhawayto	-12.5733
hetxumu	-12.5742
ispoh	-12.5753
quinp	-12.5766
elaxiloj	-12.585
majabe	-12.5878
▁hachpaxo	-12.5887
W	-12.5892
wajeb	-12.5893
ijbalom	-12.5893
isreyal	-12.5899
ispujnacan	-12.5903
henani	-12.5904
chiyeni	-12.5904
camello	-12.5904
inhelanilan	-12.5904
isyahbetajil	-12.5904
isyawub	-12.5904
chaẍhul	-12.5904
chinischahan	-12.5904
incartahan	-12.5904
inmayan	-12.5904
titnajach	-12.5904
winajloj	-12.5904
istohi	-12.5904
chexmunlahi	-12.5904
inchejbanilan	-12.5904
hapaxtoj	-12.5905
chiabelax	-12.5905
yoqui	-12.5905
setenta	-12.5905
nimanilehal	-12.5906
alibe	-12.5906
ichmame	-12.5906
chiijbali	-12.5906
comatan	-12.5906
wehicojan	-12.5907
chiyahni	-12.5909
Tohol	-12.5909
chexilni	-12.591
chijayto	-12.591
Tzalah	-12.5913
islob	-12.5915
lemnahan	-12.5915
chexapno	-12.5915
iscapil	-12.5915
ijbalomal	-12.5915
mawalan	-12.5915
▁toholo	-12.5916
xaheyabe	-12.5921
chistxum	-12.5924
heyichamil	-12.5925
ismeẍa	-12.5925
isho	-12.5926
Saulo	-12.5931
chincaman	-12.5932
chishel	-12.5934
Eb	-12.5935
heyaw	-12.594
chialaxcan	-12.5947
chisyijepaxo	-12.5952
pujba	-12.5952
malahwi	-12.5954
chinapni	-12.5958
yetbihoj	-12.5965
Walinan	-12.5971
heyeco	-12.598
▁Isnani	-12.5981
chucanoj	-12.5983
quexya	-12.5987
nilojan	-12.5991
chistxumni	-12.6005
hechah	-12.6007
chinoc	-12.6025
▁isbit	-12.6031
chiwuhan	-12.6032
isyeniloj	-12.6042
chiyalpaxo	-12.6055
heyatut	-12.6056
aytze	-12.6059
yalil	-12.6083
wabe	-12.6084
tzujanpaxo	-12.6102
chechahni	-12.611
chehunba	-12.6126
▁haln	-12.6172
tzalapaxo	-12.6179
yicto	-12.622
▁ayexic	-12.6257
ichamxa	-12.6263
hechahnicano	-12.6266
▁Chu	-12.6278
chub	-12.6322
ilaxti	-12.6352
ijab	-12.6376
▁hawila	-12.6378
yilico	-12.6388
ahbilo	-12.6406
jetxa	-12.6415
yitoj	-12.6421
chextzala	-12.6424
ischilba	-12.645
inpaxtojan	-12.6465
nilti	-12.6466
ishajba	-12.6475
istxihni	-12.6481
olwahan	-12.6486
checutxba	-12.6487
▁chejni	-12.6487
hinnatijan	-12.6489
cuylax	-12.6498
Hul	-12.6504
isnati	-12.6523
nohcan	-12.6535
bejnicano	-12.654
chimheyal	-12.6542
jochehan	-12.6544
cocutxban	-12.6544
walnicanojan	-12.6546
chiwaben	-12.6549
weyto	-12.6551
hobnican	-12.6559
mujli	-12.6574
▁mahuli	-12.6575
hucanico	-12.6576
lahwo	-12.6577
cocawil	-12.658
iswalil	-12.658
etaxto	-12.6584
istohla	-12.6594
vara	-12.6599
chicocutxba	-12.66
ahcanocan	-12.66
tzabchati	-12.66
▁wip	-12.66
yapaxayto	-12.6603
chitzejtzon	-12.6605
awteti	-12.6606
haltelax	-12.6606
hawinilti	-12.6607
ira	-12.6608
zijxan	-12.6608
siquihan	-12.661
bilex	-12.661
ismilal	-12.6611
inbejcanojan	-12.6611
yelawil	-12.6612
wilti	-12.6612
hawilojan	-12.6613
wehic	-12.6614
innanitijan	-12.6615
chijechma	-12.6615
chiwoche	-12.6615
chicutxi	-12.6615
wilnojan	-12.6615
▁Txumwe	-12.6615
itzitzbipaxocan	-12.6615
iscajlen	-12.6615
ilaxoti	-12.6615
iswejcha	-12.6615
upni	-12.6616
xen	-12.6616
metro	-12.6616
chaojabilo	-12.6617
machijex	-12.6617
chiwejcha	-12.6617
inhatzumbe	-12.6617
aodicea	-12.6618
ismujno	-12.6618
camposanto	-12.6618
diácono	-12.6618
tuclenoj	-12.6618
icodemo	-12.6618
salón	-12.6618
▁Jor	-12.6618
encanilto	-12.6618
etaxoto	-12.6618
hetzumbe	-12.6618
hoybilon	-12.6618
huncuentan	-12.6618
istzicobtan	-12.6618
abriel	-12.6618
acuẍa	-12.6618
ahnolojan	-12.6618
alawena	-12.6618
antorcha	-12.6618
aqueo	-12.6618
arcángel	-12.6618
camiẍe	-12.6618
chatohla	-12.6618
chexintohlahan	-12.6618
chexiptzeni	-12.6618
chexmeltzohi	-12.6618
chicawxenico	-12.6618
chichemlipaxo	-12.6618
chimujni	-12.6618
chinetlihan	-12.6618
chinhechaytojan	-12.6618
chinálaxicojan	-12.6618
chiquechmoto	-12.6618
chisjahba	-12.6618
chitirlaxtoj	-12.6618
chiwechmahan	-12.6618
chixecnito	-12.6618
circuncidado	-12.6618
colbilexxa	-12.6618
comujlubal	-12.6618
cornalina	-12.6618
cosaynihan	-12.6618
cotzalapaxojan	-12.6618
coyenicanojan	-12.6618
cutxantoco	-12.6618
cuwis	-12.6618
diablohal	-12.6618
doscientos	-12.6618
egión	-12.6618
ericó	-12.6618
esmeralda	-12.6618
esopotamia	-12.6618
etaxnato	-12.6618
etsemaní	-12.6618
hechumpa	-12.6618
hecutxbancan	-12.6618
hecuychahi	-12.6618
hehunicanico	-12.6618
hetzabnoyojan	-12.6618
hetzicnicanilo	-12.6618
heyanabxapaxo	-12.6618
hisopo	-12.6618
imeneo	-12.6618
incuynicantojan	-12.6618
inlahbanan	-12.6618
inmulojan	-12.6618
inpuhnilojan	-12.6618
inpuhnolojan	-12.6618
intxumnilojan	-12.6618
intzotelninojan	-12.6618
intzujnayojan	-12.6618
isbujni	-12.6618
isholnican	-12.6618
islabanayto	-12.6618
ismohonal	-12.6618
ispebani	-12.6618
issincho	-12.6618
issomchato	-12.6618
istirlaxto	-12.6618
istubtento	-12.6618
istzilmocanto	-12.6618
istzilmoyo	-12.6618
istzumbelaxilti	-12.6618
isventanahil	-12.6618
jelapnojan	-12.6618
lampara	-12.6618
leazar	-12.6618
licenciado	-12.6618
locohojinan	-12.6618
maquinpitnihan	-12.6618
meltzojabico	-12.6618
montebal	-12.6618
morado	-12.6618
mperador	-12.6618
nicolaíta	-12.6618
ojbilcanilo	-12.6618
pichlaxico	-12.6618
pohbilayo	-12.6618
quexinsayilojan	-12.6618
quexwawtecojan	-12.6618
quexwiptzenan	-12.6618
quinheyalnilojan	-12.6618
quinissaynihan	-12.6618
rispo	-12.6618
ristianohal	-12.6618
sabactani	-12.6618
sunilex	-12.6618
sutsun	-12.6618
testamento	-12.6618
txihlaxayo	-12.6618
tzablaxoyo	-12.6618
ublio	-12.6618
uenos	-12.6618
usmij	-12.6618
vela	-12.6618
wanipaxtojan	-12.6618
wayique	-12.6618
wehayojan	-12.6618
wichamilan	-12.6618
xainyelojan	-12.6618
xaquexhitzico	-12.6618
xiti	-12.6618
yaẍniloj	-12.6618
yetaxcanto	-12.6618
yichtax	-12.6618
yitzitzibican	-12.6618
yiẍtan	-12.6618
▁Abías	-12.6618
▁Aram	-12.6618
▁Berenice	-12.6618
▁Betfagé	-12.6618
▁Decápolis	-12.6618
▁Demas	-12.6618
▁Demetrio	-12.6618
▁Esaú	-12.6618
▁Eva	-12.6618
▁Fares	-12.6618
▁Fenicia	-12.6618
▁Frigia	-12.6618
▁Gamaliel	-12.6618
▁Iptze	-12.6618
▁Jeconías	-12.6618
▁Jilni	-12.6618
▁Josué	-12.6618
▁Juli	-12.6618
▁Justo	-12.6618
▁Júpiter	-12.6618
▁Mileto	-12.6618
▁Nawepaxti	-12.6618
▁Perge	-12.6618
▁Pisidia	-12.6618
▁Ponto	-12.6618
▁Rahab	-12.6618
▁Rebeca	-12.6618
▁Rojo	-12.6618
▁Salmón	-12.6618
▁Samuel	-12.6618
▁Sardis	-12.6618
▁Zabulón	-12.6618
▁Zorobabel	-12.6618
biud	-12.6618
cachchejni	-12.6618
chachixli	-12.6618
chetzabayoj	-12.6618
chexyiptze	-12.6618
chiehpaxo	-12.6618
chihowbican	-12.6618
chinhenatijan	-12.6618
chinheyacojan	-12.6618
chinhulpaxojan	-12.6618
chitxihni	-12.6618
chiwilicojan	-12.6618
chixunilo	-12.6618
colahnico	-12.6618
colayti	-12.6618
cowahnihan	-12.6618
inpajtzenan	-12.6618
intzabayojan	-12.6618
iscajlecan	-12.6618
islahbanayto	-12.6618
ismuju	-12.6618
issaynoyo	-12.6618
mabelwican	-12.6618
manyijehan	-12.6618
maxetxum	-12.6618
mujuj	-12.6618
ochebilex	-12.6618
quincuywahan	-12.6618
usnicanto	-12.6618
wabenpaxojan	-12.6618
waxajlan	-12.6618
xibte	-12.6618
xulna	-12.6618
yahbeta	-12.6618
yiptzeli	-12.6618
▁Xiw	-12.6618
ahbelom	-12.6618
bahlaxan	-12.6618
colwahojab	-12.6618
hawespada	-12.6618
inpaxtijan	-12.6618
isjebla	-12.6618
isxecnito	-12.6618
laxpaxayo	-12.6618
ojnayti	-12.6618
pichbilico	-12.6618
uybe	-12.6618
wijlenan	-12.6618
▁Conabawe	-12.6618
chijapaxicto	-12.6618
hatohlan	-12.6618
heyilwenan	-12.6618
Yeltoni	-12.6618
chabilxayto	-12.6618
chexutelaxi	-12.6618
chihayeni	-12.6618
cohunban	-12.6618
inaí	-12.6618
ispenayo	-12.6618
jalnilojan	-12.6618
lemla	-12.6618
ufo	-12.6618
▁Onesíforo	-12.6618
chibuchwahi	-12.6618
ischilnilo	-12.6618
manlahanojan	-12.6618
nohnayto	-12.6618
almuh	-12.6618
efas	-12.6618
eunuco	-12.6618
ijbilico	-12.6618
inbejan	-12.6618
inchahnipaxojan	-12.6618
ispojojal	-12.6618
lehno	-12.6618
wángelan	-12.6618
▁Choche	-12.6618
chexabenico	-12.6618
chinilchahan	-12.6618
hawictaj	-12.6618
bilachilo	-12.6618
intratohan	-12.6618
jetbihan	-12.6618
▁Neftalí	-12.6618
cobeja	-12.6618
cocartahan	-12.6618
dos	-12.6618
heyilwelaxi	-12.6618
numna	-12.6618
bacbilico	-12.6618
hepahni	-12.6618
▁Manasés	-12.6618
▁Miguel	-12.6618
chicolahicojan	-12.6618
wichicojan	-12.6618
cotxuman	-12.6618
ispaxcanto	-12.6618
lobehal	-12.6618
upbal	-12.6618
chulbilayo	-12.6618
inpaxicojan	-12.6618
isbalnico	-12.6618
jetbipaxo	-12.6618
mujbil	-12.6618
ojlaxayti	-12.6618
chicawxocan	-12.6618
yichipaxti	-12.6618
iswahno	-12.6618
▁Erasto	-12.6618
jetbixa	-12.6618
▁Esrom	-12.6618
chiconahuln	-12.6618
insoldadohan	-12.6618
onnacan	-12.6618
lesen	-12.6618
▁Lisias	-12.6618
chancanocan	-12.6618
uyayojan	-12.6618
juninalan	-12.6618
chicolwahi	-12.6618
chietalaxto	-12.6618
yalnahti	-12.6618
chishoj	-12.6618
cheyeloj	-12.6618
iscajwa	-12.6618
maxawutecoj	-12.6618
aynaxato	-12.6618
chawiyo	-12.6618
chextecha	-12.6618
hayebtam	-12.6618
chexxahann	-12.6618
nohayto	-12.6618
alaxayoj	-12.6618
chinhawalan	-12.6618
yilchaloj	-12.6618
chexalaxto	-12.6618
istxow	-12.6618
ishojo	-12.6618
yamahto	-12.6618
maxawabe	-12.6618
tzimi	-12.6619
▁Teófilo	-12.6619
▁Trófimo	-12.6619
chiwucanojan	-12.6619
majwan	-12.6619
chitzebi	-12.6619
ishowayo	-12.6619
yutecanayo	-12.6619
istxohal	-12.6619
yahnato	-12.6619
olotx	-12.6619
chimisbej	-12.6619
Elí	-12.6619
chexetani	-12.6619
ischejtijan	-12.6619
▁Tiberias	-12.6619
▁Wajeb	-12.6619
insaya	-12.6619
oboam	-12.6619
heyichicoj	-12.6619
chicachni	-12.6619
ultopaxoj	-12.6619
chenaloj	-12.6619
▁Bar	-12.6619
ambale	-12.6619
▁Agabo	-12.6619
▁Areópago	-12.6619
ajlaxayo	-12.6619
aypaxayto	-12.6619
iquem	-12.6619
▁Claudio	-12.6619
inyahnihan	-12.6619
nachaojabilo	-12.6619
hawapni	-12.6619
liseo	-12.6619
Eneas	-12.6619
isẍila	-12.6619
roas	-12.6619
henanitij	-12.6619
inwacaxan	-12.6619
chiehi	-12.662
irlapaxoj	-12.662
macachanico	-12.662
xahto	-12.662
cuywe	-12.662
yalaxoco	-12.662
ispohlaxcan	-12.662
jalnojan	-12.662
cawxencan	-12.662
xajaytojan	-12.662
cachwilnojan	-12.662
chimistxum	-12.662
chexcolchacanoj	-12.662
opotaj	-12.662
icanilti	-12.662
hawawten	-12.6621
himhawoche	-12.6621
chahtoj	-12.6621
licanojan	-12.6621
yawtenilti	-12.6621
cuywina	-12.6621
quintitan	-12.6621
hajlocanocan	-12.6621
chexmeltzopaxto	-12.6621
elojabico	-12.6621
cobelan	-12.6621
isbisni	-12.6621
yilaxoti	-12.6621
olwelo	-12.6621
▁wepaxojan	-12.6621
quexyilnoj	-12.6622
ischejilo	-12.6622
abchalo	-12.6622
hawiniti	-12.6622
▁Nahat	-12.6622
ojexcanoj	-12.6622
chiwijan	-12.6622
Chahwej	-12.6622
yelpaxti	-12.6622
encanayo	-12.6622
yebalaxilo	-12.6622
yarpa	-12.6623
isbatxobal	-12.6623
chischab	-12.6623
leyanilto	-12.6623
chejbilinan	-12.6623
chaẍinchejtojan	-12.6623
isia	-12.6623
chichichon	-12.6623
cachbilon	-12.6623
ambalo	-12.6624
anbiloj	-12.6624
hachayojan	-12.6624
ijcha	-12.6624
pixe	-12.6624
quexconanitijan	-12.6624
yawtemal	-12.6624
iblom	-12.6624
yilaxahto	-12.6624
chexinbejcanojan	-12.6625
ebabil	-12.6625
yalaxayto	-12.6625
chepohilo	-12.6625
jinitojan	-12.6625
imeto	-12.6625
chachxiwi	-12.6625
ibli	-12.6625
japnipaxojan	-12.6625
yinipaxto	-12.6625
ubacano	-12.6626
ibtijan	-12.6626
quexistucle	-12.6626
unlaxi	-12.6626
chalnati	-12.6626
chinbabitojan	-12.6626
cachissayni	-12.6627
hewayi	-12.6627
iscajpon	-12.6627
ishucub	-12.6627
▁Txumweloj	-12.6627
chiyeno	-12.6627
aycantoj	-12.6627
cachwohtajojan	-12.6628
chalaxto	-12.6628
ambepaxojan	-12.6628
issayomal	-12.6628
chiahwano	-12.6628
uiltoj	-12.6628
quexisxahann	-12.6629
ajnacano	-12.6629
quinbeyan	-12.6629
jamigo	-12.6629
iswejchacan	-12.6629
chachcachwa	-12.663
chawito	-12.663
macamna	-12.663
ismonten	-12.663
isjo	-12.663
comunlahi	-12.663
ujaniloxa	-12.663
intxahan	-12.6632
▁pat	-12.6632
hawiniltij	-12.6632
chijayojan	-12.6633
ajxan	-12.6633
cheyucanoj	-12.6633
wetbiho	-12.6633
isdiosaloj	-12.6634
hoban	-12.6634
acantoj	-12.6635
islanza	-12.6635
chelahweco	-12.6635
chexchahni	-12.6635
yichecan	-12.6635
chaẍcolwa	-12.6635
yuva	-12.6635
quinisbejtzo	-12.6635
iscachno	-12.6636
wawom	-12.6636
istucleno	-12.6636
awteni	-12.6637
isvara	-12.6637
cinco	-12.6637
▁Lahanojab	-12.6637
ixwilo	-12.6637
chibejtzolaxi	-12.6638
iswinajli	-12.6639
quexwanitojan	-12.6639
▁xailni	-12.664
nchejan	-12.6641
conanihan	-12.6642
chexcolni	-12.6643
iscawni	-12.6644
chaẍelicoj	-12.6644
chextzoteli	-12.6644
walachpaxo	-12.6645
anojabcano	-12.6645
ambelo	-12.6645
nahojab	-12.6646
iscorona	-12.6646
cotxahan	-12.6646
isyebalo	-12.6647
aẍnoj	-12.6647
txumwej	-12.6647
▁Yahawo	-12.6647
islimeta	-12.6648
uwanbal	-12.6648
chistxumu	-12.6648
uxwe	-12.6649
cachwayi	-12.6649
quexislin	-12.6649
isnahatil	-12.6649
quinxiwan	-12.6649
uten	-12.6649
bere	-12.6649
▁Jalawe	-12.665
xayetato	-12.665
chicolahico	-12.665
ismeltzopaxto	-12.6651
islotzen	-12.6652
chincachan	-12.6652
tijabi	-12.6652
issayilo	-12.6652
yiptzeno	-12.6653
xaelcano	-12.6653
yilomal	-12.6653
winajli	-12.6654
yalico	-12.6654
chicoyehan	-12.6656
yachno	-12.6657
jalnicanojan	-12.6658
ecantojan	-12.6658
chicutxico	-12.6658
iscaret	-12.6658
isnachalo	-12.6658
ixwipaxojan	-12.6659
elaxcanoj	-12.6659
uxnihan	-12.666
Nananta	-12.666
wuman	-12.6661
chewla	-12.6662
mayij	-12.6662
yanocto	-12.6663
eyetn	-12.6665
isxew	-12.6665
ubato	-12.6665
alomcano	-12.6666
cabexan	-12.6666
▁inmelyu	-12.6666
chibilican	-12.6666
cawbo	-12.6666
jutehan	-12.6667
manhul	-12.6667
cocachan	-12.6668
yilaxilto	-12.6669
chachocnico	-12.6669
chiyalic	-12.6669
walaxcan	-12.6671
hepatrón	-12.6672
hexewi	-12.6673
chachejto	-12.6673
anicto	-12.6673
cheyapaxico	-12.6674
▁Esta	-12.6675
aytzelaxilo	-12.6675
ischahlo	-12.6675
ojcanoj	-12.6675
cheyijepaxoj	-12.6676
chiyahnican	-12.6676
unlax	-12.6677
▁Ischahni	-12.6678
▁cabcon	-12.6679
istxumilo	-12.668
ilbilxa	-12.6681
quexichico	-12.6681
alnico	-12.6681
▁Howeb	-12.6681
▁Hunel	-12.6682
▁yechmani	-12.6682
elcanicoj	-12.6683
bejcano	-12.6683
chinanon	-12.6684
ilweno	-12.6684
chitajilo	-12.6684
illaxo	-12.6685
cotzotelan	-12.6685
ismohyilal	-12.6687
ayojabico	-12.6688
chinchejtijan	-12.6692
chinxewninojan	-12.6692
chishucbaco	-12.6692
ayexoco	-12.6692
Oche	-12.6692
cheyawte	-12.6692
laxpaxojan	-12.6694
checayen	-12.6695
chinilaxcan	-12.6696
ajanxa	-12.6696
chilahwo	-12.6698
walnilojan	-12.6698
chicuylax	-12.6698
matxumchalo	-12.67
einicojan	-12.67
ubani	-12.6701
xiwpaxo	-12.6702
chicotxumu	-12.6705
opoto	-12.6705
heyochecoj	-12.6705
heyetbin	-12.6707
ajoto	-12.671
winajlom	-12.671
chisubchapaxo	-12.6713
ejbayo	-12.6713
chicocutxban	-12.6714
ebilicoj	-12.6714
ajanil	-12.6716
chabeybaln	-12.6723
▁hamay	-12.6724
ayexocto	-12.6727
yapnipaxo	-12.6727
xamunla	-12.6728
yehal	-12.6728
yacto	-12.6728
quexwilnihan	-12.6729
chiyilico	-12.6733
wetpaxojan	-12.6734
▁coyijeni	-12.6734
chexyute	-12.6736
chapaxico	-12.6737
ocoto	-12.6737
elaxoj	-12.6738
quexyinito	-12.6738
chicajni	-12.6738
acanto	-12.6741
mayabe	-12.6741
quinocan	-12.6742
▁yehicoj	-12.6742
isvino	-12.6743
chexxiwcan	-12.6743
aynilo	-12.6744
jabxubal	-12.6745
istohlabal	-12.6746
chinelan	-12.6746
ahnipaxo	-12.6747
▁wech	-12.6752
chewah	-12.6753
chinwayan	-12.6755
istzabico	-12.6755
ischacto	-12.6759
yoxeb	-12.6762
▁mulumal	-12.6766
alaxtoj	-12.6766
▁techahojan	-12.6767
chicoman	-12.6767
awtebilinan	-12.6767
chexwalan	-12.6768
hajon	-12.6768
inhama	-12.6769
ishamanil	-12.6772
ambenpaxoj	-12.6774
▁hacolwa	-12.6774
yapaxico	-12.6774
▁Lin	-12.6776
chechayto	-12.6776
ambepaxo	-12.6777
chehel	-12.6778
chitxumnilo	-12.6779
cotohlabal	-12.6779
otojan	-12.6781
iscutxbacan	-12.6783
yinilto	-12.6786
ecanico	-12.6786
chiawtelax	-12.6787
chiahcano	-12.6789
etajpaxo	-12.6792
nahi	-12.6794
hewacax	-12.6795
aytzen	-12.6797
yalnilto	-12.6799
maitzitzbican	-12.6801
chiochen	-12.6804
chischahpaxo	-12.6814
elaxto	-12.6818
tacojab	-12.682
hecapilla	-12.6825
occanto	-12.6827
▁binahojan	-12.6827
nohnaco	-12.6828
ojayto	-12.6829
iscuynicano	-12.683
hawilno	-12.6832
chisunilo	-12.6832
▁Isma	-12.6833
chanito	-12.6838
tzehla	-12.6839
▁habelwi	-12.684
titnajon	-12.6845
hawul	-12.6848
chiwaho	-12.6849
chintzaban	-12.6853
hetohol	-12.6854
heyetanto	-12.6857
Abe	-12.6858
muluminan	-12.686
jitzitzbican	-12.6863
cochn	-12.6865
chinmeltzohan	-12.6868
cheyilpaxoj	-12.6871
bita	-12.6873
chichejniti	-12.6875
hemunlawom	-12.6875
heyawten	-12.6877
chiiniti	-12.6879
quinyohtan	-12.6882
heman	-12.6882
cawxolo	-12.6885
xaichico	-12.6887
▁chetato	-12.6889
cohitzico	-12.689
oclena	-12.69
▁quinisc	-12.69
hawehico	-12.6906
elojon	-12.6906
hinc	-12.6906
hewojab	-12.6911
txahulxa	-12.6911
yalaxayo	-12.6912
heyacan	-12.6914
hawinayo	-12.6916
chiwanicojan	-12.6917
ebanil	-12.692
cayelto	-12.6923
▁Jahawiloj	-12.6924
yon	-12.6936
yecanilo	-12.6938
hexahanbal	-12.694
yalilto	-12.694
chitij	-12.6947
quexyanico	-12.695
▁quino	-12.6953
ilanxa	-12.6966
Halilo	-12.6973
comelyu	-12.6981
heyalaxico	-12.6994
chawuteco	-12.6997
yanilto	-12.7005
yijeminan	-12.7013
ayxam	-12.7013
ayexmi	-12.7014
ehaloj	-12.7022
chisyijepaxoj	-12.7022
chijutehan	-12.7041
chaje	-12.7044
chisxahann	-12.7047
yallaxcano	-12.7054
utxbanocan	-12.7056
chilowi	-12.7058
isyenico	-12.7087
walnojan	-12.7101
iscamcano	-12.7104
yintajilo	-12.7105
ocna	-12.711
chicolin	-12.7117
chextan	-12.7124
matxaojab	-12.713
mayati	-12.7132
yochento	-12.7135
hantacano	-12.7142
yijemcano	-12.7145
tzujanon	-12.715
ismajil	-12.715
ohtapaxoj	-12.7152
nohnaxa	-12.7157
chicawxico	-12.7158
chiwacanojan	-12.7182
istxumniloj	-12.7187
nanxapaxo	-12.7188
issacerdote	-12.7204
chabilcano	-12.7217
chijutepaxo	-12.7243
chiniti	-12.7246
yichebaniln	-12.7247
winayo	-12.7264
▁Chiapni	-12.7267
hetzalahilal	-12.7281
nimanpaxo	-12.7322
coloni	-12.7324
heyilnipaxo	-12.7328
chacto	-12.7332
yuteojab	-12.7341
chisyeloj	-12.7344
jocpaxo	-12.7347
heyilaxto	-12.7352
chiscutxbaco	-12.7376
uch	-12.7381
chawican	-12.7396
circuncisiónal	-12.7397
iscamom	-12.741
cotxon	-12.7418
machimpaxo	-12.7444
lbilcano	-12.7455
istxahlipaxo	-12.7466
heyacto	-12.7474
ichamtaxa	-12.7476
chiahiloj	-12.7497
hacawil	-12.7519
oxebpaxo	-12.7525
exn	-12.7526
chima	-12.7536
helano	-12.7553
▁mabey	-12.7565
chiwayn	-12.7565
chexocpaxo	-12.7576
challaxi	-12.7584
ispotxlax	-12.7628
chiitzitzbocan	-12.7665
chiuten	-12.7665
nohnan	-12.7668
cocolcha	-12.7681
chijochen	-12.7731
chicolwapaxo	-12.7732
bisbil	-12.7755
isyijenpaxo	-12.7761
camna	-12.7766
echmabilo	-12.7798
yaypaxo	-12.7801
cheyacan	-12.782
ispax	-12.7826
tatías	-12.7834
chiyabe	-12.7835
isaí	-12.7837
chiwocan	-12.7842
chihallaxi	-12.7844
lanza	-12.7878
hawohta	-12.7879
chiyanayo	-12.7879
hacolwal	-12.7888
hawunin	-12.7888
johta	-12.789
suc	-12.7891
winitojan	-12.7894
chiscaj	-12.7897
chicotxum	-12.7897
chisayni	-12.7898
esponja	-12.7898
holbil	-12.7898
mayor	-12.7898
nueve	-12.7898
quiniscolnihan	-12.7898
vidrio	-12.7898
wuninalan	-12.7898
pahaw	-12.7898
ismalil	-12.7898
incuywomojan	-12.7898
inmelyuhan	-12.7898
cochuquil	-12.7898
hahelanil	-12.7898
chexchahlaxi	-12.7898
wetbihojan	-12.7898
inchejabojan	-12.7898
xecan	-12.7898
inbelan	-12.7898
sur	-12.7899
chiwitijan	-12.7899
iscolwahi	-12.7899
plato	-12.7899
piso	-12.7899
seis	-12.7899
tasataj	-12.7899
chepajtze	-12.7899
chexwayi	-12.7899
ayinictojan	-12.79
quintzotelan	-12.79
chepohle	-12.79
quetzal	-12.79
chimunlahi	-12.7901
heyetbihoj	-12.7901
munlaho	-12.7904
isjepla	-12.7905
chicoyelo	-12.7905
yelawiloj	-12.7905
chihaltelax	-12.7906
xajayto	-12.7906
jalno	-12.7906
ispartido	-12.7907
hinaninan	-12.7909
heyohtapaxo	-12.7909
chexcancano	-12.7909
chayije	-12.791
chibili	-12.791
jecoj	-12.7912
chialaxicoj	-12.7912
chitzejtzoni	-12.7913
hetxah	-12.7913
chielcanico	-12.7914
iscolchahi	-12.7916
chielcanicoj	-12.7918
comunla	-12.792
isbabel	-12.792
hawohtajoj	-12.7923
chialaxico	-12.7923
yutecano	-12.7927
cotioẍ	-12.7928
isbiho	-12.7929
iscamiloj	-12.793
ismatan	-12.7932
hawaybal	-12.7941
hachahni	-12.7945
islowi	-12.7956
wayo	-12.7956
su	-12.7958
yetbipaxo	-12.796
hatzoteli	-12.7961
chiwabenan	-12.7964
coley	-12.7964
chicani	-12.7966
istzalabal	-12.7978
ischiwa	-12.7996
yutepaxo	-12.801
chexo	-12.8036
yochebal	-12.8059
alaxcanico	-12.8075
yilalmi	-12.8091
yilchati	-12.8092
chiju	-12.8121
yebilcano	-12.8148
yetalax	-12.8159
xajn	-12.8159
islahon	-12.8198
chijohtan	-12.8241
chetan	-12.8284
yallaxpaxo	-12.8302
howebn	-12.8302
ayayoj	-12.8302
cutxanicoj	-12.8345
cawxilo	-12.8456
halom	-12.8469
▁chijalni	-12.8477
jecojan	-12.8483
í	-12.8571
aytopaxo	-12.8572
helanon	-12.8574
alaxicojan	-12.8595
tzublico	-12.8601
pitni	-12.8602
amigo	-12.8603
txumwelo	-12.8608
isyahni	-12.8616
lejandro	-12.8616
ristarco	-12.8616
lfeo	-12.8616
íquico	-12.8617
arso	-12.8617
adara	-12.8618
anfilia	-12.8618
eelzebú	-12.8618
orcas	-12.8618
ochewe	-12.8619
anuel	-12.8619
hitzojon	-12.8619
chawiptze	-12.862
pentecostés	-12.8622
cachwilan	-12.8623
chimtxumchalo	-12.8624
italia	-12.8625
howbi	-12.8626
tenas	-12.863
hawohtami	-12.8638
ischilban	-12.8647
jabenpaxoj	-12.8668
hehinc	-12.8675
Yije	-12.8687
ninoxa	-12.8693
yichin	-12.8697
wutenan	-12.8699
itna	-12.8711
anojabn	-12.8715
wajebxa	-12.8727
hawaco	-12.875
oxebn	-12.8754
diosaloj	-12.8765
chawilo	-12.8775
heyapni	-12.8803
colwapaxo	-12.8852
Cach	-12.8904
chijilo	-12.8906
cheyabeto	-12.8937
Awte	-12.8949
hawayan	-12.8964
Quinya	-12.8985
chisyijeto	-12.9096
hesaya	-12.9181
hantam	-12.9206
cohelanilan	-12.9223
hujebto	-12.9254
hetan	-12.9254
haweco	-12.9344
chiyohtan	-12.947
nanilo	-12.9641
halnipaxto	-12.9646
munlawomalan	-12.9661
cosatajan	-12.9715
N	-12.9786
awtebilex	-12.9789
zor	-12.9943
heyalno	-13.0005
chiyalnipaxo	-13.0045
maẍtajpaxo	-13.0076
Chiwa	-13.0081
ismeltzoti	-13.0081
xawil	-13.0126
checuy	-13.0137
▁Hachcachan	-13.0157
hanipaxico	-13.0165
cuyni	-13.0183
yinahti	-13.0221
chiyupaxo	-13.0237
chetxum	-13.0269
aytaxca	-13.0301
isbej	-13.0339
yax	-13.0382
ispal	-13.0383
incuywoman	-13.0384
ishi	-13.0385
hesayni	-13.0388
chexixli	-13.0389
ishatelax	-13.0389
chicawxican	-13.0389
maxawute	-13.0389
chabejtzo	-13.0389
chaẍtohi	-13.0389
chextohi	-13.0389
chinbejtzohan	-13.0389
hehelbal	-13.0389
inyenilo	-13.0389
quinanitijan	-13.0389
chinsayan	-13.0389
heseleloj	-13.0389
incuywahan	-13.0389
coseleloj	-13.0389
chinheyilan	-13.0389
hatelaxo	-13.0389
helanile	-13.0389
chiyelax	-13.0389
chexcuyni	-13.0389
incapilan	-13.0389
diáconohal	-13.0389
chishatx	-13.039
chexcolcha	-13.039
cawxojan	-13.039
hajloho	-13.0391
jahnojan	-13.0391
isdiezmo	-13.0391
chisatni	-13.0391
ancianohal	-13.0391
toholcanoj	-13.0392
quexwohtajojan	-13.0393
heyamigo	-13.0396
chisubcha	-13.0397
Hallaxojab	-13.0399
chinlohan	-13.04
chitxumni	-13.0402
quexchimi	-13.0409
Maẍtaj	-13.0414
cocolchahi	-13.0414
isbejtzolax	-13.0417
Cornelio	-13.0421
anmahilach	-13.0424
istioẍ	-13.0426
ohtabiloj	-13.043
chiscach	-13.0432
matxataj	-13.0434
María	-13.0435
heyuẍtaj	-13.0439
yechelpaxo	-13.057
ochebalan	-13.0585
Hajlojab	-13.0588
wtebilexpaxo	-13.059
▁Luc	-13.061
Txah	-13.0616
▁Chisyeni	-13.066
waytojan	-13.0743
Yohta	-13.0838
jxamex	-13.0877
hewchotan	-13.0975
wohtaj	-13.0989
▁Lah	-13.1033
▁inDiosal	-13.1037
▁Wahawil	-13.1039
cotxumu	-13.1073
wohtami	-13.1095
▁isle	-13.1101
pichnico	-13.1102
▁Hunu	-13.1106
▁Txumwelo	-13.1106
▁coDios	-13.1107
jaltam	-13.111
entecostés	-13.1113
▁Filipo	-13.1116
▁Salmo	-13.1116
lejandría	-13.1116
rimatea	-13.1116
ugusto	-13.1116
gar	-13.1116
▁Aqui	-13.1116
▁Bala	-13.1117
Wuẍta	-13.1117
stéfanas	-13.1118
ínive	-13.1118
nésimo	-13.1118
▁Claud	-13.1118
▁File	-13.1118
Quex	-13.1118
araón	-13.1118
artolomé	-13.1118
conabawetij	-13.1118
enesaret	-13.1118
enjamín	-13.1118
eremías	-13.1118
ilvano	-13.1118
omorra	-13.1118
rabí	-13.1118
wohtaxahan	-13.1118
ólgota	-13.1118
▁Barsabás	-13.1118
▁Bitinia	-13.1118
▁Canaán	-13.1118
▁Chawiptzenpaxo	-13.1118
▁Daniel	-13.1118
▁Emanuel	-13.1118
▁Enó	-13.1118
▁Filadelfia	-13.1118
▁Harán	-13.1118
▁Hatax	-13.1118
▁Josafat	-13.1118
▁Josías	-13.1118
▁Madián	-13.1118
▁Matías	-13.1118
▁Melqui	-13.1118
▁Pafos	-13.1118
▁Puertos	-13.1118
▁Pátara	-13.1118
▁Pérgamo	-13.1118
▁Salomé	-13.1118
▁Sóstenes	-13.1118
▁Tadeo	-13.1118
▁Uzías	-13.1118
ishowbican	-13.1118
isyebabilo	-13.1118
meltzan	-13.1118
saywelo	-13.1118
▁Echmabil	-13.1118
▁Sadoc	-13.1118
▁Acaz	-13.1118
▁Lucio	-13.1118
erbe	-13.1118
▁Aser	-13.1118
▁Ishajlax	-13.1118
▁Mesías	-13.1118
saywej	-13.1118
xaquexoc	-13.1118
istzabnipaxico	-13.1118
▁Eliud	-13.1118
▁Epafrodito	-13.1118
▁Esmirna	-13.1118
▁España	-13.1118
▁Ezequías	-13.1118
▁Licaonia	-13.1118
macachcawxican	-13.1118
yanicanicto	-13.1118
▁Cananista	-13.1118
iwelti	-13.1119
▁Woc	-13.1119
nardo	-13.1119
▁Api	-13.1119
▁Saywe	-13.1119
▁Ishajni	-13.1119
▁Arquipo	-13.1119
▁Capadocia	-13.1119
▁Cencrea	-13.1119
▁Cleofas	-13.1119
▁Corazín	-13.1119
aypaxayo	-13.1119
▁Heyahaw	-13.1119
pajtzewe	-13.112
▁Azor	-13.112
chilban	-13.1121
▁Colin	-13.1122
nabxan	-13.1122
yichipaxico	-13.1124
yuhojab	-13.1124
▁Amón	-13.1124
chexisyahni	-13.1125
iscabwihalxa	-13.1125
isjahbanayo	-13.1125
istzublipaxico	-13.1125
▁Helan	-13.1125
itzojon	-13.1125
xahaye	-13.1126
isbejlaxcano	-13.1129
▁Chute	-13.1129
macachwilan	-13.1129
chexinchejtojan	-13.1131
chimheyoche	-13.1132
▁Cheyalnipax	-13.1133
chejon	-13.1142
iatira	-13.1148
nanojabn	-13.1157
joctojan	-13.1157
▁Cosunil	-13.1157
▁How	-13.1158
hunlahann	-13.1164
▁Lahanex	-13.1168
catawan	-13.1169
chexwacojan	-13.1175
chintxumilojan	-13.1178
chepuholo	-13.1178
chiwalnipaxtojan	-13.1178
cutxanon	-13.1178
chialaxpaxico	-13.1178
yilnicto	-13.1179
▁Ismeltzo	-13.1191
chalotaxca	-13.1192
chiscajle	-13.1219
isyenipaxocan	-13.1236
chalahico	-13.125
chibabito	-13.1254
etzaxan	-13.1342
hajba	-13.1378
Isyije	-13.1391
ischahnilo	-13.141
heyohtapaxoj	-13.1447
ubojab	-13.147
isbilipaxo	-13.1483
ismohyipaxo	-13.1514
ber	-13.1561
atawej	-13.1716
jalawe	-13.1846
Nab	-13.1937
▁heDiosalpaxo	-13.1939
habano	-13.1957
quintzalahan	-13.2003
ispahni	-13.2134
hinhulan	-13.2169
quexyil	-13.223
▁Isyenipaxo	-13.2262
chimha	-13.2453
hepujba	-13.2627
▁Chint	-13.2727
jbanic	-13.2862
collax	-13.29
inpu	-13.2908
▁Chawe	-13.3015
sayno	-13.3044
▁Sir	-13.316
gog	-13.3458
awtelo	-13.3555
heyocheto	-13.3788
hipo	-13.4026
bed	-13.4027
munlahi	-13.4049
utxbacan	-13.4199
ijle	-13.4233
▁Isnanipax	-13.4262
inchejtijan	-13.4292
inxewninojan	-13.4292
ishucbaco	-13.4292
matat	-13.4317
hecayen	-13.4348
yinipaxayo	-13.4349
cutxico	-13.4353
pujnac	-13.4367
hitx	-13.4369
istenico	-13.437
ecantoj	-13.4371
ahcanto	-13.4373
jechmahan	-13.4375
coyijehan	-13.4376
ixwipaxoj	-13.4377
coyehan	-13.4377
pohilo	-13.4387
utxban	-13.44
utewe	-13.44
cutxbanayo	-13.4406
diezmo	-13.4406
somni	-13.4407
bahwahi	-13.4411
yixli	-13.4411
yalaxpaxico	-13.4411
chahloyo	-13.4419
inlohan	-13.4423
txumiloj	-13.4424
colilo	-13.4424
ochahan	-13.4424
yaceite	-13.4425
pujnato	-13.443
libro	-13.443
muji	-13.443
cutxbalaxico	-13.443
freno	-13.443
sajbipaxiloj	-13.443
cuywacanto	-13.4431
majchen	-13.4431
meltzopaxto	-13.4431
chischayo	-13.4431
majayto	-13.4432
hucub	-13.4432
wejchacan	-13.4432
anpaxcano	-13.4432
tzotelilti	-13.4432
pitnilto	-13.4433
majchencano	-13.4433
cawxeco	-13.4433
babitojan	-13.4434
cajpon	-13.4434
isbujil	-13.4435
hunbancano	-13.4435
ijbali	-13.4437
somchaho	-13.4437
cuyn	-13.4439
loé	-13.4439
isnacan	-13.4439
talia	-13.444
hajlohi	-13.444
alaxoco	-13.4442
initojan	-13.4442
coyelo	-13.4444
wilpaxojan	-13.4444
excanoj	-13.4445
istzumbenilo	-13.4446
alatiel	-13.4446
masnico	-13.4447
aynajinxa	-13.4447
abonohal	-13.4448
ilaxolo	-13.4448
upu	-13.4448
upno	-13.4449
chiitzitzbi	-13.4449
etli	-13.4449
reópago	-13.4449
elpaxti	-13.4449
siquilo	-13.4449
cotuclenojan	-13.4449
elicto	-13.4449
chibehal	-13.445
istzumben	-13.445
eófilo	-13.445
rófimo	-13.445
iberias	-13.445
awocto	-13.445
gabo	-13.4451
srom	-13.4451
quexintucle	-13.4451
anasés	-13.4451
iguel	-13.4451
eftalí	-13.4451
cuywomoj	-13.4451
nesíforo	-13.4451
usalén	-13.4451
chejlaxtij	-13.4451
bejbilon	-13.4451
xahenahuln	-13.4451
jexxam	-13.4451
cajyolyon	-13.4451
cótxquiltan	-13.4451
holquiẍtaxan	-13.4451
jilomaln	-13.4451
maquinhawutehan	-13.4451
masmuln	-13.4451
mohban	-13.4451
mujnocano	-13.4451
aamán	-13.4451
abulón	-13.4451
acaniltijan	-13.4451
aceituna	-13.4451
agau	-13.4451
aguila	-13.4451
alavera	-13.4451
almanuta	-13.4451
alombican	-13.4451
amaliel	-13.4451
amatista	-13.4451
ambepaxtojan	-13.4451
amotracia	-13.4451
annolojan	-13.4451
aquel	-13.4451
arciso	-13.4451
armenas	-13.4451
arroba	-13.4451
asufre	-13.4451
atallón	-13.4451
atmos	-13.4451
atrobas	-13.4451
ayinxacojan	-13.4451
aynahotoj	-13.4451
aynamicanto	-13.4451
aytzenolo	-13.4451
ayxatax	-13.4451
balboni	-13.4451
barril	-13.4451
bejtzobilxa	-13.4451
bejtzolaxan	-13.4451
bejtzolaxto	-13.4451
bejtzonico	-13.4451
bejtzonilo	-13.4451
bejwepaxcano	-13.4451
belwojon	-13.4451
biatar	-13.4451
buchwawompaxo	-13.4451
bulbon	-13.4451
buyna	-13.4451
cachintuclenojan	-13.4451
cachjilnojan	-13.4451
cachwawtenojan	-13.4451
cachyabilnipaxoj	-13.4451
cajlebahil	-13.4451
cajohexpaxoj	-13.4451
camnajexilo	-13.4451
camnajexxa	-13.4451
camnajinxalojan	-13.4451
capitulo	-13.4451
caẍistzabnoyoj	-13.4451
caẍyanito	-13.4451
chachmeltzohi	-13.4451
chachtohi	-13.4451
chachtzotelnato	-13.4451
chacolcanilti	-13.4451
chacuycanoj	-13.4451
chacuycanto	-13.4451
chasayiloj	-13.4451
chawebato	-13.4451
chaẍinnatijan	-13.4451
chaẍmaynoj	-13.4451
checuylecanto	-13.4451
chejépaxo	-13.4451
chenapaxtij	-13.4451
chexbahlaxi	-13.4451
chexbuchlax	-13.4451
chexcamcantoj	-13.4451
chexcotuclehan	-13.4451
chexcuychahi	-13.4451
chexehpaxoj	-13.4451
chexhatxlaxto	-13.4451
chexibtzeni	-13.4451
chexinbejtzohan	-13.4451
chexinchahan	-13.4451
chexincolan	-13.4451
chexincolilojan	-13.4451
chexinnahuln	-13.4451
chexinnatijan	-13.4451
chexisabilo	-13.4451
chexmalenpaxo	-13.4451
chexpaxtij	-13.4451
chexpohli	-13.4451
chexpohnicanilo	-13.4451
chextioẍli	-13.4451
chextzejla	-13.4451
chextzumbelaxilo	-13.4451
chexálaxico	-13.4451
cheyechmale	-13.4451
cheẍyeni	-13.4451
chibahwapaxo	-13.4451
chibejlaxayto	-13.4451
chibuchlax	-13.4451
chibutnitan	-13.4451
chicachnacan	-13.4451
chicajtza	-13.4451
chicawxento	-13.4451
chichahlaxicto	-13.4451
chicobuj	-13.4451
chicocolle	-13.4451
chicolnilti	-13.4451
chiechmali	-13.4451
chihelni	-13.4451
chihitzto	-13.4451
chihoyxipaxico	-13.4451
chiichambiloj	-13.4451
chiiptzelipaxo	-13.4451
chiitzitzibican	-13.4451
chijebatoj	-13.4451
chimajicano	-13.4451
chimchabepaxocan	-13.4451
chimheyapaxayto	-13.4451
chimmajwa	-13.4451
chimquextzala	-13.4451
chinalaxictojan	-13.4451
chincawxecojan	-13.4451
chinchahnaytojan	-13.4451
chinchahpaxojan	-13.4451
chinchejpaxojan	-13.4451
chincolilojan	-13.4451
chinehayojan	-13.4451
chinhabejcanojan	-13.4451
chinhanahuln	-13.4451
chinhatzaban	-13.4451
chinheyochehan	-13.4451
chinheyutehan	-13.4451
chinhullemnahan	-13.4451
chinilchahojan	-13.4451
chinisbejcanojan	-13.4451
chinisyahpaxojan	-13.4451
chinluyluncan	-13.4451
chinmujihan	-13.4451
chinnapaxtijan	-13.4451
chinpebaltijan	-13.4451
chinsiquilojan	-13.4451
chináchalo	-13.4451
chipajtzeno	-13.4451
chipebalax	-13.4451
chipohli	-13.4451
chipuhlaxpaxo	-13.4451
chisajbicano	-13.4451
chisajbinaloj	-13.4451
chisbatxilti	-13.4451
chishitzto	-13.4451
chisholicto	-13.4451
chislabayto	-13.4451
chisomchaocan	-13.4451
chisomchato	-13.4451
chispeban	-13.4451
chispole	-13.4451
chispolto	-13.4451
chispulnipaxocan	-13.4451
chissomchahocan	-13.4451
chistenle	-13.4451
chistzujba	-13.4451
chisxecleto	-13.4451
chitejlaxcamo	-13.4451
chitenxi	-13.4451
chitiẍla	-13.4451
chitohlalax	-13.4451
chitohlano	-13.4451
chitohlawi	-13.4451
chitoholbico	-13.4451
chitxihlaxico	-13.4451
chitxumli	-13.4451
chitzantelaxi	-13.4451
chitzilmoto	-13.4451
chiwawtecojan	-13.4451
chiyaxbilo	-13.4451
chíjato	-13.4451
circuncisíon	-13.4451
cobejtzon	-13.4451
cocamleloj	-13.4451
cochahnayojan	-13.4451
cocuychahi	-13.4451
comujicano	-13.4451
coreligión	-13.4451
cosaynilojan	-13.4451
cotzabayojan	-13.4451
crisoprasa	-13.4451
cristal	-13.4451
crisólito	-13.4451
cunlum	-13.4451
cutxbaweti	-13.4451
cuybilexxa	-13.4451
cáwxeweco	-13.4451
céldama	-13.4451
cólohi	-13.4451
diaconisa	-13.4451
doctor	-13.4451
domingo	-13.4451
dramitio	-13.4451
driático	-13.4451
dumea	-13.4451
ecápolis	-13.4451
edeón	-13.4451
editerráneo	-13.4451
edrón	-13.4451
efté	-13.4451
egio	-13.4451
egundo	-13.4451
elaxcaniltojan	-13.4451
elefante	-13.4451
eleucia	-13.4451
emetrio	-13.4451
enfán	-13.4451
epicúrio	-13.4451
eptalaj	-13.4451
ercio	-13.4451
ercurio	-13.4451
ermes	-13.4451
ermógenes	-13.4451
erodión	-13.4451
erug	-13.4451
estoico	-13.4451
estro	-13.4451
etaxcantoj	-13.4451
etaxnalo	-13.4451
etfagé	-13.4451
etloco	-13.4451
ezabel	-13.4451
eápolis	-13.4451
fenicia	-13.4451
fraín	-13.4451
frica	-13.4451
habuchlaxi	-13.4451
halaleel	-13.4451
haltebanil	-13.4451
hamujlobal	-13.4451
hapahnito	-13.4451
hapajtzen	-13.4451
hapajtzoyo	-13.4451
hapohnican	-13.4451
hasaynito	-13.4451
hatxihayoj	-13.4451
hatzilnilo	-13.4451
hawanipaxicto	-13.4451
hawanoyto	-13.4451
hayébaloj	-13.4451
haẍincolan	-13.4451
hebuchwahi	-13.4451
hecajtzacan	-13.4451
hecawxenocano	-13.4451
hechejnito	-13.4451
hecollaxcanoj	-13.4451
hecuycano	-13.4451
hehelnicano	-13.4451
hemajalo	-13.4451
hemujlubal	-13.4451
hepohlencano	-13.4451
hepohli	-13.4451
hesajbicano	-13.4451
hetzantencan	-13.4451
hetzantenpaxo	-13.4451
hetzujico	-13.4451
hexpujnahocantoj	-13.4451
hexínito	-13.4451
heyallenati	-13.4451
heyebantojan	-13.4451
heyixn	-13.4451
hicoyepaxilojan	-13.4451
hihoylaxayo	-13.4451
hilanejayo	-13.4451
himnos	-13.4451
hipexcano	-13.4451
hitzanojexico	-13.4451
hitznajexico	-13.4451
hitznicoj	-13.4451
hitztojan	-13.4451
hiwapaxaytojan	-13.4451
hobomcan	-13.4451
hopchabil	-13.4451
hopchan	-13.4451
hopquiẍtan	-13.4451
hoyanxaco	-13.4451
hucbanico	-13.4451
hucxi	-13.4451
hulujabto	-13.4451
hunbitax	-13.4451
ichencanocan	-13.4451
icolás	-13.4451
icoyenipaxilojan	-13.4451
icópolis	-13.4451
ierápolis	-13.4451
iglesia	-13.4451
ijbalomex	-13.4451
ijmoto	-13.4451
ijnicanocan	-13.4451
ijtzom	-13.4451
ilbiltopaxo	-13.4451
ilólogo	-13.4451
incawxenicojan	-13.4451
inchahnicanojan	-13.4451
inchejatojan	-13.4451
inchuquilojan	-13.4451
incolnolojan	-13.4451
inhacxicojan	-13.4451
inlonitojan	-13.4451
inluylunpaxocan	-13.4451
inmujcano	-13.4451
inmujcanto	-13.4451
inmujlubalan	-13.4451
inoltojan	-13.4451
inpixanan	-13.4451
inpohnihan	-13.4451
inpohniltojan	-13.4451
inpohnitojan	-13.4451
insaynayojan	-13.4451
insaynihan	-13.4451
insaynilojan	-13.4451
intohlanan	-13.4451
intxumnipaxojan	-13.4451
intxumulojan	-13.4451
intzablaxayojan	-13.4451
intzabnicojan	-13.4451
inxactijan	-13.4451
inxequiltijan	-13.4451
inyenicanojan	-13.4451
ionisio	-13.4451
irenio	-13.4451
isbatxnahto	-13.4451
isbilxalto	-13.4451
isbosnilo	-13.4451
isbuchlax	-13.4451
isbuchlen	-13.4451
iscampamento	-13.4451
ischahnaytojan	-13.4451
ischejlaxayti	-13.4451
ischejlaxcanto	-13.4451
ischembanil	-13.4451
ishajchaho	-13.4451
ishatxacanilto	-13.4451
ishatxlaxto	-13.4451
ishatxnilo	-13.4451
ishatxnilti	-13.4451
ishaxon	-13.4451
ishilbanayto	-13.4451
ishitznico	-13.4451
ishoblaxcan	-13.4451
isholayo	-13.4451
ishosnilo	-13.4451
ishoynoyo	-13.4451
ishuccha	-13.4451
ishunicanico	-13.4451
isjahbanoyo	-13.4451
isjobnoyo	-13.4451
islohnoto	-13.4451
isluyluncan	-13.4451
ismajipaxo	-13.4451
ismalcanto	-13.4451
ismelyaẍil	-13.4451
ispajtzolaxayo	-13.4451
ispaxlona	-13.4451
ispebalaxcanilti	-13.4451
ispitilto	-13.4451
ispolen	-13.4451
isposada	-13.4451
ispuhmulo	-13.4451
ispujnalto	-13.4451
isquistalil	-13.4451
issomchalo	-13.4451
issomchancan	-13.4451
issomil	-13.4451
issomnoto	-13.4451
istajnalo	-13.4451
istarnilti	-13.4451
istempohal	-13.4451
istenlaxto	-13.4451
istennicanto	-13.4451
istirlaxayo	-13.4451
istiẍnicanicto	-13.4451
istzehbican	-13.4451
istzejtzoni	-13.4451
istzictzoncan	-13.4451
istzublayo	-13.4451
istzubloco	-13.4451
istzujnayojan	-13.4451
istzumbelaxpaxti	-13.4451
istzumbelaxto	-13.4451
istzumbelo	-13.4451
iswaxajeb	-13.4451
isxialoj	-13.4451
isxijil	-13.4451
isxitnito	-13.4451
isxiwilti	-13.4451
isyahbenal	-13.4451
itzitzex	-13.4451
ixwipaxilojan	-13.4451
iótrefes	-13.4451
jahcantojan	-13.4451
jahnayto	-13.4451
janipaxayto	-13.4451
jehayojan	-13.4451
jijlepaxojan	-13.4451
jilicto	-13.4451
jiptzelen	-13.4451
jobweyo	-13.4451
labanbo	-13.4451
lahlonn	-13.4451
latín	-13.4451
laxojabpaxilti	-13.4451
lebohi	-13.4451
lectahi	-13.4451
lectahojan	-13.4451
legonte	-13.4451
lemente	-13.4451
leẍpat	-13.4451
liezer	-13.4451
limpas	-13.4451
listohal	-13.4451
lmodam	-13.4451
locohinan	-13.4451
locohojan	-13.4451
lugar	-13.4451
lámpara	-13.4451
macachcawxiloj	-13.4451
macachcawxinacan	-13.4451
macachsaynicoj	-13.4451
macawxinacan	-13.4451
macaẍtit	-13.4451
machmitajinan	-13.4451
machíwacan	-13.4451
macohajnihan	-13.4451
mahallaxayti	-13.4451
majanexxa	-13.4451
majitijan	-13.4451
majwahojon	-13.4451
mamxatxumu	-13.4451
manoquilojan	-13.4451
manpitnihan	-13.4451
maquexwawtehan	-13.4451
maquinawtenan	-13.4451
maquinhawaytojan	-13.4451
maquinheyawtehan	-13.4451
maquinoctijan	-13.4451
maquintzabnihan	-13.4451
maquinyitijan	-13.4451
maschahco	-13.4451
masjobayo	-13.4451
massuni	-13.4451
mastobayo	-13.4451
matajnalo	-13.4451
matxmoni	-13.4451
matzabcha	-13.4451
matzotelilto	-13.4451
mawilicojan	-13.4451
maxawahtoj	-13.4451
maxawanayto	-13.4451
maxawitoj	-13.4451
maxeyaco	-13.4451
meltzopaxicto	-13.4451
meltzowepaxto	-13.4451
millón	-13.4451
montelax	-13.4451
morera	-13.4451
mplias	-13.4451
mármol	-13.4451
ncolomalan	-13.4451
ndrónico	-13.4451
nfípolis	-13.4451
nhehincaniltojan	-13.4451
nordeste	-13.4451
ntípatris	-13.4451
oanerges	-13.4451
oficiales	-13.4451
ohtabilexxapaxo	-13.4451
olemaida	-13.4451
olosas	-13.4451
orcio	-13.4451
ortunato	-13.4451
osué	-13.4451
osípater	-13.4451
pahlaxico	-13.4451
pebalaxcano	-13.4451
pichbilpaxto	-13.4451
pohbililo	-13.4451
pohchahocan	-13.4451
pohlebil	-13.4451
polonia	-13.4451
pujanexto	-13.4451
pujanilto	-13.4451
quexbahlaxi	-13.4451
quexcocuyan	-13.4451
quexcomontehan	-13.4451
quexcuynicano	-13.4451
quexhunbancanoj	-13.4451
quexincachnihan	-13.4451
quexinmontehan	-13.4451
quexinxibtenan	-13.4451
quexjiptzehan	-13.4451
quexpohnicanilo	-13.4451
quexwinotojan	-13.4451
quinalaxaytojan	-13.4451
quinbejnicanojan	-13.4451
quincolnilojan	-13.4451
quincuynihan	-13.4451
quinhachejtijan	-13.4451
quinhawanitijan	-13.4451
quinhawawtehan	-13.4451
quinheayojan	-13.4451
quinhehatenan	-13.4451
quinhenatijan	-13.4451
quinhesayilojan	-13.4451
quinhetuclenojan	-13.4451
quinheyanicojan	-13.4451
quinichicojan	-13.4451
quinisbejcanojan	-13.4451
quiniscololojan	-13.4451
quinissaynilojan	-13.4451
quinistzabayojan	-13.4451
quinnanonan	-13.4451
quinsaynilojan	-13.4451
quinyanaytojan	-13.4451
quinyawtenicojan	-13.4451
quinyijnitojan	-13.4451
quinyilpaxojan	-13.4451
quiẍtajil	-13.4451
raconite	-13.4451
recia	-13.4451
rescente	-13.4451
rfaxad	-13.4451
rifena	-13.4451
rifosa	-13.4451
rigia	-13.4451
ristóbulo	-13.4451
rmagedón	-13.4451
rquelao	-13.4451
rtemas	-13.4451
ruda	-13.4451
rusila	-13.4451
rócoro	-13.4451
sajbolo	-13.4451
satehojan	-13.4451
saybilex	-13.4451
sceva	-13.4451
schulnipaxcanayo	-13.4451
seda	-13.4451
serrucho	-13.4451
sicómoro	-13.4451
sirofenicia	-13.4451
staquis	-13.4451
síncrito	-13.4451
tenbabilxato	-13.4451
tenlaxicto	-13.4451
tesorero	-13.4451
tirlaxolo	-13.4451
tiẍnipaxcanto	-13.4451
tohlalaxi	-13.4451
tohlancano	-13.4451
topacio	-13.4451
torre	-13.4451
tres	-13.4451
txihlaxoco	-13.4451
txiquinn	-13.4451
txumchahojabilo	-13.4451
tzabilxacoj	-13.4451
tzacweltij	-13.4451
tzenpaxilojan	-13.4451
tzilmopaxayo	-13.4451
tzitamlah	-13.4451
tzotelpaxayti	-13.4451
tzumbebil	-13.4451
ubén	-13.4451
ucbaco	-13.4451
udente	-13.4451
ufrates	-13.4451
unbilayo	-13.4451
uncanayojan	-13.4451
uplaxayo	-13.4451
usbilxa	-13.4451
uswaho	-13.4451
uteoli	-13.4451
utxbaweyo	-13.4451
utxlenayto	-13.4451
uxanojtamna	-13.4451
uybilpaxo	-13.4451
uẍtaje	-13.4451
veinticinco	-13.4451
veintitrés	-13.4451
vodia	-13.4451
walaxiltijan	-13.4451
wamigohojan	-13.4451
wanipaxayojan	-13.4451
wawictojan	-13.4451
waxajebixto	-13.4451
waxajlahon	-13.4451
wiglesiahan	-13.4451
wijbanan	-13.4451
wilnilojan	-13.4451
wiptzencanojan	-13.4451
witzitzbilojan	-13.4451
wixalojan	-13.4451
wochenicojan	-13.4451
wofrendahan	-13.4451
wojancanayoj	-13.4451
wuninalojan	-13.4451
xabejtzolax	-13.4451
xacachsajbicanoj	-13.4451
xacawbiloj	-13.4451
xacawxinacan	-13.4451
xahelcha	-13.4451
xaichambiloj	-13.4451
xainchahan	-13.4451
xaintxumilojan	-13.4451
xaiscamtzecanilo	-13.4451
xaquexmeltzoco	-13.4451
xaquextzebi	-13.4451
xaquinhenahuln	-13.4451
xawolni	-13.4451
ximbilayo	-13.4451
yaldeahil	-13.4451
yanipaxcanico	-13.4451
yarenahil	-13.4451
yescuela	-13.4451
yetaxpaxcanto	-13.4451
yichambicaniloj	-13.4451
yichixapaxico	-13.4451
yijbalaxto	-13.4451
yijbanahto	-13.4451
yilaxotoj	-13.4451
yilaxpaxahto	-13.4451
yiptzelaxpaxcano	-13.4451
yoxihalxa	-13.4451
zafiro	-13.4451
ágata	-13.4451
áloes	-13.4451
ámaris	-13.4451
ástor	-13.4451
érsida	-13.4451
íntique	-13.4451
ólux	-13.4451
ónice	-13.4451
ópater	-13.4451
órtico	-13.4451
úpiter	-13.4451
andace	-13.4451
chejbilojinan	-13.4451
chextzebi	-13.4451
chimhetxumu	-13.4451
hilanayto	-13.4451
hunbanayo	-13.4451
isbeytzenti	-13.4451
iscajnipaxojan	-13.4451
istohlacanto	-13.4451
istopaxicoj	-13.4451
joplahi	-13.4451
ohwelo	-13.4451
pohnoto	-13.4451
utebilon	-13.4451
weltojan	-13.4451
wentana	-13.4451
yechmahan	-13.4451
arpo	-13.4451
ayinoctojan	-13.4451
cachcochahnihan	-13.4451
chachichambi	-13.4451
chawihti	-13.4451
chaẍcachlaxi	-13.4451
chaẍischayo	-13.4451
chextocanicoj	-13.4451
chibabayto	-13.4451
chichahlo	-13.4451
chiichenti	-13.4451
chijalpaxtojan	-13.4451
chimajwahi	-13.4451
chincachnihan	-13.4451
chincamnahan	-13.4451
chinchejnicojan	-13.4451
chinheyanicojan	-13.4451
chintopaxcan	-13.4451
chitzumbenilo	-13.4451
chiwalpaxilojan	-13.4451
chiwiltijan	-13.4451
chixobxonoj	-13.4451
chíyo	-13.4451
cocachbanil	-13.4451
copahnito	-13.4451
cotohlan	-13.4451
cotzabnipaxojan	-13.4451
cuybililo	-13.4451
hachuquil	-13.4451
hahelni	-13.4451
hajexxampaxoj	-13.4451
hawaytij	-13.4451
hawochenico	-13.4451
hemontenico	-13.4451
hepeban	-13.4451
hepohnilo	-13.4451
hetzicnilo	-13.4451
hexxataxcapaxo	-13.4451
hishobcan	-13.4451
incuywapaxojan	-13.4451
inipaxilojan	-13.4451
inlibrohan	-13.4451
inmeltzotijan	-13.4451
inmeltzotojan	-13.4451
isanias	-13.4451
isbejmicano	-13.4451
ischumpa	-13.4451
iscolabayti	-13.4451
ishateno	-13.4451
islahwipaxcano	-13.4451
islawehal	-13.4451
isnanonico	-13.4451
isnohtzenoj	-13.4451
istucban	-13.4451
istxumchaholo	-13.4451
istzebicano	-13.4451
iswol	-13.4451
mahajlocano	-13.4451
manchahnihan	-13.4451
maxawinicano	-13.4451
nachaholo	-13.4451
naweloj	-13.4451
quexwetantojan	-13.4451
quexyiptzenpaxo	-13.4451
quinhetuclehan	-13.4451
quinmohyihan	-13.4451
saybilinan	-13.4451
toholboco	-13.4451
txumchaojabilo	-13.4451
wabeninojan	-13.4451
wacchancan	-13.4451
walaxictojan	-13.4451
walnolojan	-13.4451
wuyna	-13.4451
xahebejcano	-13.4451
xaquextzalahi	-13.4451
xaquexyawte	-13.4451
xecnoto	-13.4451
yechmali	-13.4451
yillenayo	-13.4451
zumbeto	-13.4451
ahnatoj	-13.4451
albilxayo	-13.4451
axponoyo	-13.4451
erge	-13.4451
hacuypaxo	-13.4451
hilanayo	-13.4451
ibojabna	-13.4451
icilia	-13.4451
insiqu	-13.4451
lowoj	-13.4451
lowto	-13.4451
usilo	-13.4451
uxnayto	-13.4451
wilwehan	-13.4451
xasiqui	-13.4451
yijatzilxa	-13.4451
alaxocanoj	-13.4451
chaẍixli	-13.4451
chaẍyawtenpaxo	-13.4451
chetenba	-13.4451
chexcajlaxpaxo	-13.4451
chexmeltzoco	-13.4451
chextzablaxayoj	-13.4451
chiconatijan	-13.4451
chijebahan	-13.4451
chimilchalo	-13.4451
chinanaytojan	-13.4451
chincajnihan	-13.4451
chinillaxojan	-13.4451
chiwalpaxcanojan	-13.4451
colnipaxaytojan	-13.4451
copixanan	-13.4451
cosomnito	-13.4451
cuybilxa	-13.4451
cólon	-13.4451
incachnojan	-13.4451
infas	-13.4451
inhacxitojan	-13.4451
inteyele	-13.4451
intzotelpaxojan	-13.4451
isbabicto	-13.4451
ischelnican	-13.4451
ishajno	-13.4451
ishitzaco	-13.4451
istennilti	-13.4451
istzujnoyo	-13.4451
isxecbancano	-13.4451
isxilbilo	-13.4451
isyelaxpaxilo	-13.4451
nawepaxti	-13.4451
ohtzewe	-13.4451
quincolnihan	-13.4451
quinhawilnojan	-13.4451
quinhechahnihan	-13.4451
toptoni	-13.4451
waxajwan	-13.4451
wutelojan	-13.4451
xacachinyelojan	-13.4451
xaheyahcano	-13.4451
xaheyilico	-13.4451
almacia	-13.4451
artia	-13.4451
ayexxapaxico	-13.4451
bejayto	-13.4451
chachchejni	-13.4451
chexchahlaxictoj	-13.4451
chihatelax	-13.4451
chiinipaxto	-13.4451
chijicheco	-13.4451
chismajche	-13.4451
cotxiquin	-13.4451
far	-13.4451
hecolchacano	-13.4451
hecuywicano	-13.4451
hexalaxpaxico	-13.4451
jacinto	-13.4451
jallaxan	-13.4451
jichicojan	-13.4451
jilnipaxicojan	-13.4451
jtzoinan	-13.4451
sucojinan	-13.4451
turea	-13.4451
tzabiloco	-13.4451
uslaxcanto	-13.4451
wichenicojan	-13.4451
xacamnalo	-13.4451
xajabepaxojan	-13.4451
chetzumbelo	-13.4451
inmatanan	-13.4451
isbinahocano	-13.4451
isnawalil	-13.4451
issunni	-13.4451
jichecan	-13.4451
xahacuy	-13.4451
chebuch	-13.4451
chexwejcha	-13.4451
chibejlaxcanoj	-13.4451
chincachwahan	-13.4451
chinheyanican	-13.4451
chinlabahan	-13.4451
chitzicnilo	-13.4451
chitzujchapax	-13.4451
chiwapaxtojan	-13.4451
chiwupaxojan	-13.4451
colahaweco	-13.4451
cotiticojan	-13.4451
hachejnito	-13.4451
iscawinah	-13.4451
istirayto	-13.4451
manayilojan	-13.4451
quinchejlaxtijan	-13.4451
quinheyilnojan	-13.4451
quinilchahan	-13.4451
saybililo	-13.4451
yaltenpaxcano	-13.4451
bewecanojex	-13.4451
chexetalaxi	-13.4451
chihojlax	-13.4451
chihulupaxoj	-13.4451
chiyahwahi	-13.4451
cohunico	-13.4451
colbilxa	-13.4451
hepixan	-13.4451
hunbabilxa	-13.4451
incolbanilojan	-13.4451
isbejtzonayto	-13.4451
ishojayo	-13.4451
isjeplahi	-13.4451
istirilo	-13.4451
istxumnalo	-13.4451
istzillaxilo	-13.4451
isxulanil	-13.4451
jetbimi	-13.4451
lahbiloco	-13.4451
quinischahnihan	-13.4451
remo	-13.4451
ubalaxto	-13.4451
upilo	-13.4451
wijlehan	-13.4451
xaheyilwe	-13.4451
xajaltojan	-13.4451
xulanayo	-13.4451
yilaxahti	-13.4451
chawinipaxocan	-13.4451
quexyilwenoj	-13.4451
aram	-13.4451
arameo	-13.4451
colnolo	-13.4451
erequías	-13.4451
hawechman	-13.4451
heteyelen	-13.4451
heyochelen	-13.4451
igelo	-13.4451
iptzelaxcano	-13.4451
issaylaxico	-13.4451
yamipaxico	-13.4451
ismajomal	-13.4451
cheyalnictoj	-13.4451
chimjayto	-13.4451
chinbelwihan	-13.4451
chipujnatoj	-13.4451
coxiwpaxoj	-13.4451
hebejnicanojan	-13.4451
hetxumuloj	-13.4451
iscawxinalo	-13.4451
ispoholo	-13.4451
jelpaxojan	-13.4451
jilicojan	-13.4451
labahil	-13.4451
upcan	-13.4451
wuhojan	-13.4451
habihoj	-13.4451
ijbalon	-13.4451
istoholbico	-13.4451
istzejlahi	-13.4451
yamigohoj	-13.4451
chawechma	-13.4451
chimeltzohi	-13.4451
chitzejlahi	-13.4451
comeltzoco	-13.4451
elaxcanayo	-13.4451
isbejabcano	-13.4451
istopaxahto	-13.4451
namanex	-13.4451
ahlaxoto	-13.4451
chiilchahoti	-13.4451
cocapillahan	-13.4451
hawalnopaxo	-13.4451
quinhenanitijan	-13.4451
wapnojan	-13.4451
cachuninn	-13.4451
chexcolwahi	-13.4451
chimjaco	-13.4451
cobelwihan	-13.4451
hasaynicano	-13.4451
hawilchaloj	-13.4451
helbilxa	-13.4451
istziccanilo	-13.4451
quinbeypaxojan	-13.4451
quinhawanicojan	-13.4451
quiniento	-13.4451
sucbo	-13.4451
uxlaxto	-13.4451
yinoyti	-13.4451
yahbilxacano	-13.4451
chinhachahan	-13.4452
chishunbaco	-13.4452
hapohnilo	-13.4452
ischullaxayo	-13.4452
islebayo	-13.4452
macachtita	-13.4452
mayapaxti	-13.4452
chexiscaj	-13.4452
chissah	-13.4452
colayto	-13.4452
heyiniltij	-13.4452
heyitah	-13.4452
ischahleyo	-13.4452
isxaw	-13.4452
yijbanto	-13.4452
chewbo	-13.4452
isbahlaxpaxo	-13.4452
ischahnayo	-13.4452
jetbiojan	-13.4452
lahwecanoj	-13.4452
majbililo	-13.4452
walaxtijan	-13.4452
hetohi	-13.4452
incawxocan	-13.4452
xahallaxi	-13.4452
apaxcanto	-13.4452
hawelto	-13.4452
heyichenicoj	-13.4452
ijbilxalo	-13.4452
wejanxato	-13.4452
chaẍwilojan	-13.4452
colinnilojan	-13.4452
hinbilcanoj	-13.4452
istobnico	-13.4452
yabencantoj	-13.4452
awecanto	-13.4452
istzicnilo	-13.4452
quexintuclenojan	-13.4452
ujla	-13.4452
aninxacan	-13.4452
ishamlax	-13.4452
istzabloxaco	-13.4452
chimoncha	-13.4452
chinyecanojan	-13.4452
chiyiyti	-13.4452
inpultahan	-13.4452
webahan	-13.4452
chicowahni	-13.4452
chisbejtzocano	-13.4452
chitocanicoj	-13.4452
inisbejnicanojan	-13.4452
inmeẍahan	-13.4452
lemito	-13.4452
chihunico	-13.4452
henanipaxti	-13.4452
inlonihan	-13.4452
wucanilojan	-13.4452
chiheli	-13.4452
chiyechma	-13.4452
comayojan	-13.4452
dmin	-13.4452
chiabchaloj	-13.4452
xaheyacano	-13.4452
yinolti	-13.4452
ilanojon	-13.4452
ambres	-13.4452
quexyuten	-13.4452
coyecanojan	-13.4452
henaniloj	-13.4452
anolti	-13.4452
hinischahpaxojan	-13.4452
ilbalax	-13.4452
inselelojan	-13.4452
jelcanti	-13.4452
yimican	-13.4452
cotzalahilalojan	-13.4452
ishabanil	-13.4452
ishatxto	-13.4452
xabeyahto	-13.4452
ayxayto	-13.4452
chahcanico	-13.4452
chinhenanitijan	-13.4452
habisni	-13.4452
isbahlaxi	-13.4452
cheyijba	-13.4452
chibina	-13.4452
chinhechahan	-13.4452
chiyenopaxilo	-13.4452
comayan	-13.4452
hajilti	-13.4452
peneto	-13.4452
quincajlaxan	-13.4452
quinheyohtajojan	-13.4452
yachyon	-13.4452
yalaxocano	-13.4452
cajopaxoj	-13.4452
chahunba	-13.4452
chexwaben	-13.4452
ismeltzohi	-13.4452
iwalnipaxcanojan	-13.4452
tzehachto	-13.4452
isxabi	-13.4452
obelwitojan	-13.4452
arla	-13.4452
hucanpaxico	-13.4452
tohna	-13.4452
yechmalax	-13.4452
cobejnicanojan	-13.4452
intzabnihan	-13.4452
quinyohtajojan	-13.4452
apaxilti	-13.4452
ismasico	-13.4452
mawaycan	-13.4452
enpaxcano	-13.4452
hawabenpaxo	-13.4452
ereo	-13.4452
macachcolchalo	-13.4452
witzitzbipaxocan	-13.4452
chexwilojan	-13.4452
heyijatzo	-13.4452
incapahan	-13.4452
ispohlaxto	-13.4452
nchahnilojan	-13.4452
ambehab	-13.4452
ejsatil	-13.4452
cepo	-13.4452
chibahni	-13.4452
yocpaxapno	-13.4452
chebalico	-13.4452
chiconaloj	-13.4452
ntipas	-13.4452
yesalil	-13.4452
ishajnilti	-13.4452
xayanaco	-13.4452
yawtelaxicto	-13.4452
yilnayo	-13.4452
chelahwilo	-13.4452
chitohuli	-13.4452
hawichmam	-13.4452
quiniscolan	-13.4452
ahlaxcanilo	-13.4452
chicotzilto	-13.4452
lasto	-13.4452
isbalnican	-13.4452
amigohal	-13.4452
istajayo	-13.4452
tzixam	-13.4452
munlanahi	-13.4452
ehexcanoj	-13.4452
hissaynipaxilo	-13.4452
leyanayti	-13.4452
ebilxacoj	-13.4452
hulucan	-13.4452
umalixto	-13.4452
chicochacti	-13.4452
chijechab	-13.4452
comecan	-13.4452
uitano	-13.4452
hinxiwpaxojan	-13.4452
laxojabpaxo	-13.4452
camposantohal	-13.4452
ispohnicanto	-13.4452
ẍicanayoj	-13.4452
chinsahan	-13.4452
chiscuypaxo	-13.4452
heyinipaxilo	-13.4452
wahwanojan	-13.4452
elaxcanto	-13.4452
quexistuclenoj	-13.4452
chiechmani	-13.4452
chihawejna	-13.4452
chinhesayilojan	-13.4452
cobitni	-13.4452
ischejnilti	-13.4452
macachtzabni	-13.4452
peles	-13.4452
sucbicanilo	-13.4452
tzencanilojan	-13.4452
chialaxato	-13.4452
hapixan	-13.4452
iscawbilo	-13.4452
ojnayto	-13.4452
ayachojabn	-13.4452
colinilojan	-13.4452
incuyan	-13.4452
ischejnipaxti	-13.4452
iscuychahi	-13.4452
seas	-13.4452
usana	-13.4452
tenanicto	-13.4452
chinijbanan	-13.4452
iptzebil	-13.4452
isnotzen	-13.4452
awtebilhexxa	-13.4452
chexcolnicanoj	-13.4452
txumchapaxilo	-13.4452
pajno	-13.4452
heyabeloj	-13.4452
ischelno	-13.4452
ismujnocanoj	-13.4452
himhetxum	-13.4452
itilene	-13.4452
chawacanayo	-13.4452
chinillaxan	-13.4452
chisomchacanto	-13.4452
chochenpaxto	-13.4452
ixwilojan	-13.4452
jilnilto	-13.4452
chiuxlax	-13.4452
hacuyno	-13.4452
hajlohojab	-13.4452
wejanxan	-13.4452
unice	-13.4452
wixalan	-13.4452
janicanojan	-13.4452
O	-13.8419
ñ	-15.1228
U	-15.1229
Q	-15.123
(	-15.1231
‘	-15.1232
Z	-15.1233
X	-15.1234
R	-15.1235
F	-15.1236
G	-15.1237
B	-15.1238
¡	-15.1239
v	-15.124
ó	-15.1241
á	-15.1242
“	-15.1243
S	-15.1244
P	-15.1245
é	-15.1246
¿	-15.1247
ú	-15.1248
―	-15.1249
J	-15.125
D	-15.1251
ẍ	-15.1252
x	-15.1253
