<pad>	0
</s>	0
<unk>	0
▁a	-3.57854
▁	-3.61543
.	-3.74245
,	-3.77647
▁an	-3.92501
e	-4.08363
▁agus	-4.11002
▁ar	-4.21386
r	-4.32016
a	-4.33215
s	-4.42859
▁le	-4.52632
▁na	-4.55712
▁go	-4.58501
í	-4.65607
▁i	-4.6648
▁do	-4.86173
n	-4.92012
-	-4.92064
l	-4.93943
t	-5.0287
u	-5.14187
▁ag	-5.14622
ú	-5.26695
o	-5.2757
▁d	-5.32687
d	-5.34851
▁covid	-5.37617
▁c	-5.37665
ch	-5.38136
▁t	-5.4264
▁nó	-5.43495
c	-5.45234
▁de	-5.47336
▁’	-5.49284
dh	-5.5435
in	-5.54855
is	-5.57254
il	-5.59244
-19	-5.61367
ar	-5.62662
▁seo	-5.63806
ach	-5.66921
igh	-5.67178
ir	-5.67686
▁mar	-5.67813
▁tú	-5.73557
▁n	-5.7399
adh	-5.75368
iú	-5.76494
▁chun	-5.76565
i	-5.7699
▁eile	-5.7784
▁sa	-5.79426
á	-5.80927
ta	-5.82032
ithe	-5.83389
g	-5.84478
▁bhfuil	-5.84624
é	-5.86027
▁(	-5.87133
ó	-5.88337
an	-5.92337
▁in	-5.92711
▁b	-5.93235
la	-5.94534
▁ó	-5.95784
▁h	-5.959
▁is	-5.9651
▁sé	-5.96626
f	-5.98078
air	-5.99371
p	-6.00285
m	-6.00358
▁atá	-6.00432
▁nío	-6.00779
▁tá	-6.01409
▁ch	-6.05366
▁th	-6.05722
na	-6.1022
as	-6.11081
▁f	-6.12509
▁é	-6.13705
▁Tá	-6.13861
▁s	-6.14184
bh	-6.16317
ic	-6.16608
on	-6.17581
te	-6.18709
eann	-6.19065
▁féidir	-6.20893
íonn	-6.21528
)	-6.2368
▁D	-6.23982
▁p	-6.24315
cov	-6.24887
▁cás	-6.25817
ra	-6.26461
▁daoine	-6.28111
mh	-6.31716
▁sláinte	-6.31748
▁faoi	-6.31767
aí	-6.32539
h	-6.34296
▁sin	-6.34636
im	-6.35618
1	-6.35666
▁duine	-6.36029
b	-6.36043
▁ná	-6.3646
ol	-6.36981
th	-6.37441
▁leis	-6.38002
ann	-6.38374
▁Is	-6.3842
id	-6.4054
al	-6.40839
▁sh	-6.41831
▁g	-6.42529
▁bh	-6.42906
▁mó	-6.44363
▁aon	-6.44506
anna	-6.46503
aithe	-6.47672
0	-6.49758
án	-6.50128
áil	-6.50367
it	-6.50377
▁m	-6.50469
▁raibh	-6.50626
ad	-6.51136
▁lá	-6.52381
or	-6.53181
2	-6.5471
:	-6.55534
eas	-6.55726
inn	-6.55942
each	-6.56697
▁má	-6.57055
▁gc	-6.57429
5	-6.58992
▁bás	-6.59536
▁víreas	-6.5964
aigh	-6.59686
▁Má	-6.60113
3	-6.60299
idh	-6.60994
▁S	-6.60995
▁ort	-6.6103
▁sars	-6.61633
▁vacsaín	-6.63968
oir	-6.64193
▁C	-6.6445
▁bheith	-6.64913
7	-6.65464
8	-6.65595
áin	-6.66659
▁dhéanamh	-6.67086
▁fh	-6.67631
▁úsáid	-6.68245
9	-6.69227
▁T	-6.70821
6	-6.7287
▁Ní	-6.72955
ag	-6.73222
▁iad	-6.74132
▁éis	-6.74158
▁An	-6.74569
acha	-6.7521
▁ní	-6.75304
▁r	-6.75593
▁gur	-6.75687
▁4	-6.75751
4	-6.76097
tha	-6.76356
▁féin	-6.76694
▁l	-6.76928
ia	-6.77553
▁tar	-6.78063
▁fhéadfa	-6.7979
▁dt	-6.79843
▁chur	-6.80276
▁duit	-6.81231
▁I	-6.81609
▁bhí	-6.8208
os	-6.82169
▁ach	-6.82225
▁rud	-6.82862
acht	-6.83136
▁mb	-6.83162
▁roinnt	-6.83411
▁comharthaí	-6.83802
▁dhaoine	-6.85298
▁B	-6.8628
▁siad	-6.86807
▁chóir	-6.87685
ma	-6.88101
▁ón	-6.88203
gach	-6.89708
▁2	-6.90172
▁ina	-6.90949
▁don	-6.9098
ill	-6.911
▁orthu	-6.91103
▁den	-6.91175
ig	-6.92909
▁5	-6.93044
▁ba	-6.93361
▁san	-6.94008
▁trí	-6.94445
▁líon	-6.95197
▁thug	-6.97343
ín	-6.99206
▁ph	-6.99464
▁fu	-7.00094
re	-7.00364
om	-7.00649
ith	-7.00991
▁ann	-7.0113
▁márta	-7.01179
▁3	-7.01668
▁2020	-7.01881
▁ráig	-7.02526
▁tástáil	-7.02549
ais	-7.03406
le	-7.0341
aíonn	-7.03597
eanna	-7.03748
y	-7.04313
▁gh	-7.05119
óg	-7.05619
▁roimh	-7.06152
▁mh	-7.069
nach	-7.07262
imh	-7.07728
-2	-7.07869
▁idir	-7.08062
am	-7.09213
ála	-7.09641
▁amach	-7.09704
▁mór	-7.10151
▁as	-7.10594
▁chomh	-7.11107
▁co	-7.12007
▁sc	-7.12286
▁freisin	-7.12374
▁leat	-7.12397
ac	-7.12467
▁isteach	-7.1267
eadh	-7.12928
▁dóibh	-7.13375
▁br	-7.13816
▁air	-7.14109
io	-7.145
ath	-7.15045
▁mí	-7.15088
eidh	-7.15781
ion	-7.16084
▁fáil	-7.16335
▁amháin	-7.16415
eacha	-7.1679
▁1	-7.1679
▁nuair	-7.17789
▁st	-7.18513
▁nua	-7.19231
úil	-7.19281
▁gan	-7.19526
gh	-7.19717
▁ionfhabhtaithe	-7.20605
▁gheall	-7.21144
▁chuig	-7.21685
▁/	-7.22773
ear	-7.24317
▁sonraí	-7.24491
▁bhíonn	-7.25521
▁Tuairiscíodh	-7.2783
▁dh	-7.28395
▁bhf	-7.28468
ian	-7.29499
▁linn	-7.29861
▁lámha	-7.30167
▁u	-7.3073
▁leor	-7.31092
▁Mar	-7.31948
▁fanacht	-7.31949
all	-7.32264
▁aghaidh	-7.33075
áis	-7.33629
▁fháil	-7.34064
▁dá	-7.34086
artha	-7.34147
int	-7.34723
réir	-7.34825
ca	-7.34925
áirítear	-7.34998
▁Ag	-7.35559
tar	-7.35903
▁dtí	-7.36672
▁chuid	-7.36876
▁acu	-7.37004
ip	-7.37863
▁F	-7.38035
▁maidi	-7.38145
▁Ba	-7.38706
▁dul	-7.38816
▁cásanna	-7.3927
▁measc	-7.3943
▁aontaithe	-7.39433
▁feabhra	-7.40731
▁scaipeadh	-7.40746
▁teaghlaigh	-7.42051
▁ard	-7.42544
▁tástála	-7.42662
▁comh	-7.43038
▁chás	-7.43245
▁haghaidh	-7.44065
▁aghaidhe	-7.44837
us	-7.45277
▁chéad	-7.45432
ola	-7.45849
▁coronavirus	-7.46141
▁10	-7.46291
▁aip	-7.47145
▁sna	-7.47817
▁víris	-7.48218
▁siú	-7.4959
omh	-7.49823
aoi	-7.49833
▁tugadh	-7.50361
▁eanáir	-7.51085
▁bhaile	-7.51087
ine	-7.51907
oc	-7.52204
▁fógra	-7.52225
▁hiomláin	-7.5255
rú	-7.53017
eacht	-7.53233
;	-7.53291
▁Déan	-7.53786
lú	-7.54056
▁riospráide	-7.54789
▁A	-7.54913
▁tuairiscíodh	-7.55547
▁tsín	-7.55557
tear	-7.55686
k	-7.56291
▁poiblí	-7.5631
▁thabhairt	-7.5631
▁”	-7.57079
-19.	-7.57814
▁mbeadh	-7.58032
▁bhfeidhm	-7.58636
ne	-7.5873
▁cur	-7.59197
éir	-7.59359
▁aois	-7.59568
▁uair	-7.60148
'	-7.60217
▁maith	-7.60226
▁neamh	-7.60634
v	-7.60852
ur	-7.60885
▁síne	-7.61906
▁leith	-7.62461
▁cúram	-7.62637
▁bearta	-7.62668
▁agat	-7.63917
▁“	-7.63983
óir	-7.64664
▁6	-7.64791
op	-7.64876
▁faoin	-7.65312
▁mo	-7.65414
sh	-7.65564
ord	-7.65747
▁galar	-7.65964
▁7	-7.6632
amh	-7.66323
▁tr	-7.66636
▁chuir	-7.66815
cha	-7.67106
íocht	-7.67128
íodh	-7.67287
▁pháiste	-7.67659
%	-7.6779
ce	-7.67861
éil	-7.68341
▁leighis	-7.68552
▁bhaineann	-7.68567
▁feadh	-7.68949
osca	-7.69139
▁dhá	-7.6938
▁stáit	-7.69429
▁shampla	-7.70267
▁leanaí	-7.70281
irt	-7.70848
▁am	-7.70914
▁-	-7.71202
▁9	-7.71328
▁cho	-7.7158
▁á	-7.71874
▁dhochtúir	-7.72045
▁paindéim	-7.72045
▁gcásanna	-7.72111
▁tír	-7.72301
▁ga	-7.72438
▁ionfhabhtú	-7.7257
éim	-7.73161
átha	-7.73431
▁tíortha	-7.73855
▁20	-7.7417
▁ionad	-7.74429
▁déan	-7.74489
aire	-7.74649
fh	-7.74705
ib	-7.74723
▁othair	-7.74773
▁cé	-7.74861
ógraíodh	-7.75183
da	-7.75248
▁chaitheamh	-7.75706
▁léir	-7.75854
mp	-7.75868
▁Cuir	-7.75962
▁8	-7.75975
▁scoileanna	-7.76699
▁clúdach	-7.76762
ré	-7.7728
▁srianta	-7.77861
▁iomlán	-7.77926
▁mhí	-7.78001
achta	-7.78143
▁gá	-7.78229
▁leo	-7.78236
íoch	-7.78721
▁14	-7.7876
teagmháil	-7.78983
▁dearfach	-7.80461
uithe	-7.80753
eachta	-7.81277
▁Ná	-7.81441
▁dó	-7.81839
óirí	-7.81907
ite	-7.81951
▁chéile	-7.82437
).	-7.82832
▁aibreán	-7.83432
onn	-7.83687
▁me	-7.8379
ard	-7.8383
▁te	-7.84601
íochta	-7.84688
▁cinn	-7.84937
▁Ar	-7.85253
▁domhain	-7.85462
▁rialtas	-7.85466
▁bia	-7.85506
at	-7.85604
w	-7.85929
00	-7.86511
ocht	-7.86825
▁"	-7.8691
▁dí	-7.87024
oifig	-7.87535
▁Dífh	-7.87539
▁toradh	-7.87541
▁ath	-7.88261
ing	-7.88269
▁fad	-7.88294
eoirí	-7.88494
z	-7.88587
▁who	-7.88588
▁luath	-7.89258
▁bhféadfa	-7.89651
▁se	-7.89805
▁dhí	-7.9063
▁sóisialta	-7.91813
▁cuairt	-7.91814
▁comhairle	-7.91814
▁beag	-7.91829
▁ospidéal	-7.92156
"	-7.9247
▁fhógair	-7.92913
▁hcov	-7.93064
▁déanaí	-7.93143
nig	-7.93539
úirt	-7.93594
▁thor	-7.93931
ítear	-7.93954
▁thástáil	-7.94024
▁mura	-7.94036
▁lua	-7.94226
sta	-7.94502
onas	-7.94734
habh	-7.94779
▁leath	-7.9527
ge	-7.95762
▁srian	-7.95947
▁Bhí	-7.96423
▁19	-7.9658
▁fuair	-7.97018
▁Lé	-7.97433
▁minic	-7.97436
▁bhás	-7.9745
-19,	-7.98921
lo	-7.9894
▁thart	-7.9908
▁sp	-7.99155
▁De	-7.99342
▁ng	-7.9943
▁náisiúnta	-7.99772
▁ghnáth	-7.99772
),	-8.00025
▁milliún	-8.00963
▁wuhan	-8.00963
▁chosaint	-8.00963
▁tioncha	-8.00965
▁cosúil	-8.00966
lár	-8.01066
▁teagmhála	-8.02167
▁éagsúla	-8.02168
▁mbaol	-8.02175
▁glao	-8.02182
▁v	-8.02518
eart	-8.02701
faidh	-8.03104
ba	-8.03301
▁léinn	-8.03389
ras	-8.03539
if	-8.04041
en	-8.04298
▁os	-8.04505
▁riosca	-8.04622
óidh	-8.04706
▁cheart	-8.04887
▁fhaigh	-8.05185
▁thái	-8.05346
▁ceann	-8.05466
cht	-8.05612
▁háirithe	-8.05871
▁casacht	-8.05884
aíodh	-8.06075
agann	-8.06541
▁rial	-8.06855
▁lasmuigh	-8.07137
▁sábháilte	-8.07137
▁vacsaíní	-8.07259
▁oibre	-8.08226
ions	-8.0841
▁mers	-8.08442
íos	-8.08577
▁11	-8.08887
▁24	-8.09321
▁fo	-8.09422
nn	-8.10838
▁theas	-8.10917
▁Go	-8.11034
▁láthair	-8.11038
▁bun	-8.11046
▁thuairisc	-8.11179
▁suas	-8.11228
▁céanna	-8.11279
▁aer	-8.11711
▁óstach	-8.11852
▁áit	-8.12079
▁laghdú	-8.12367
▁fhéidir	-8.12367
▁obair	-8.12367
▁ghalair	-8.12368
de	-8.12849
▁mha	-8.12976
ainm	-8.13098
éin	-8.13207
▁ceal	-8.13446
lann	-8.13485
▁cheann	-8.13509
▁dúnadh	-8.13719
▁iarracht	-8.13723
▁méad	-8.13726
▁leibhéal	-8.13791
eamh	-8.13801
▁Chuir	-8.13884
▁scoil	-8.14182
▁coraintín	-8.14183
éal	-8.14903
▁Cé	-8.15056
cháin	-8.15357
▁tinnis	-8.15446
coróinvíreas	-8.16477
▁bealtaine	-8.16477
▁taistil	-8.16477
▁gcuid	-8.16482
▁rinne	-8.16571
▁choinneáil	-8.16581
▁airde	-8.16608
▁12	-8.16898
▁laghad	-8.17886
▁príomh	-8.17886
▁cuireadh	-8.17965
▁15	-8.18044
▁um	-8.1862
▁torthaí	-8.19314
▁seachtain	-8.19323
▁roinn	-8.19356
▁eis	-8.19742
irí	-8.19816
▁mbei	-8.20589
óid	-8.20625
▁bliain	-8.20763
▁masc	-8.2077
▁dearbhaithe	-8.20827
imid	-8.20863
aonrú	-8.20879
óin	-8.2095
▁tarchur	-8.21957
ap	-8.22014
▁bharr	-8.22266
nío	-8.22917
▁2019	-8.23727
áistí	-8.23742
▁fós	-8.23755
▁imní	-8.23794
▁ráta	-8.23961
eachtaí	-8.24472
ata	-8.24597
x	-8.25242
▁Mura	-8.25242
▁taisteal	-8.25242
▁éigeandála	-8.25242
▁dochtúir	-8.25242
▁lú	-8.25576
onaid	-8.25682
▁tinn	-8.25741
ireacht	-8.2583
▁ra	-8.25896
óis	-8.26296
▁23	-8.26657
▁cuir	-8.26737
úsáid	-8.27288
▁othar	-8.2732
▁measa	-8.28127
▁eolas	-8.28345
,000	-8.28936
?	-8.2993
▁cliath	-8.2993
▁iompar	-8.2993
▁rialtais	-8.29958
▁lár	-8.29997
▁cosc	-8.30105
▁síos	-8.30346
▁ár	-8.30426
▁líne	-8.31117
▁bu	-8.31491
▁iodáil	-8.31543
▁láithreach	-8.31543
▁meitheamh	-8.31543
fear	-8.31877
▁mheas	-8.31892
▁próitéin	-8.32143
▁Nua	-8.33182
▁fiabhras	-8.33182
▁sampla	-8.33184
athair	-8.33437
▁13	-8.3365
▁thar	-8.34318
▁oibr	-8.35055
▁mhéada	-8.35119
▁más	-8.35246
▁gco	-8.36063
▁laistigh	-8.36544
▁dáileog	-8.36544
▁ndaoine	-8.36545
▁gcoinne	-8.36547
▁cabhr	-8.36551
▁fliú	-8.36566
▁fss	-8.36684
▁dteagmháil	-8.37448
unaithe	-8.3792
▁rianú	-8.3827
▁cionn	-8.38283
▁eipidéim	-8.38303
▁ró	-8.38378
▁víreasach	-8.38572
éid	-8.39676
▁idirnáisiúnta	-8.40022
▁dhiaidh	-8.40023
▁cuid	-8.40043
▁mac	-8.40106
córas	-8.40202
illeadh	-8.40286
▁baint	-8.40358
▁sula	-8.40364
áit	-8.4044
▁chomharthaí	-8.40529
▁su	-8.40555
▁imeachta	-8.40605
▁coinn	-8.4101
▁mhéad	-8.41521
▁for	-8.41582
▁cúraim	-8.41808
▁ainmhithe	-8.41808
▁chloig	-8.41809
▁tapa	-8.41818
▁ceart	-8.42604
álacha	-8.42982
▁22	-8.43572
▁áirithe	-8.43629
▁díreach	-8.43637
bhai	-8.43826
▁oibrithe	-8.4395
▁chosc	-8.44043
▁18	-8.44117
▁mol	-8.44304
▁éifeachtach	-8.44444
▁mui	-8.45047
▁teacht	-8.45203
▁freastal	-8.45478
▁daonna	-8.45479
▁dhuine	-8.45479
▁galair	-8.45487
0%	-8.45586
▁Faoi	-8.45644
▁saor	-8.45818
▁Ch	-8.45938
▁2020.	-8.46234
▁seirbhísí	-8.4636
▁sí	-8.46391
▁30	-8.47029
▁chomhairle	-8.47366
▁deireadh	-8.47371
▁Tug	-8.47375
▁16	-8.47842
▁súil	-8.48255
mhail	-8.48586
▁Lean	-8.49288
▁staidéar	-8.49288
▁réamh	-8.49292
▁stát	-8.49295
▁riocht	-8.49334
▁bhaint	-8.49629
léa	-8.50338
othar	-8.50619
▁Ach	-8.50665
▁céim	-8.50705
▁básmhaireacht	-8.51249
▁coitianta	-8.51249
▁pearsanta	-8.51249
▁fhág	-8.51254
▁cúig	-8.51261
▁imdhíonachta	-8.51268
▁cúis	-8.51296
iarr	-8.51359
▁áiteanna	-8.51393
oisc	-8.51432
tais	-8.51656
▁chos	-8.51919
chtaí	-8.52342
▁fiú	-8.52857
▁tíre	-8.52994
▁foláireamh	-8.53249
▁eagraíocht	-8.5325
▁bunúsacha	-8.53337
▁dara	-8.53448
▁Tar	-8.53545
▁rialú	-8.54074
▁w	-8.54356
▁gníomh	-8.54504
▁Co	-8.54569
▁seirbhís	-8.5497
▁choinne	-8.55198
▁tábhachtach	-8.5529
▁déine	-8.55307
▁fíneá	-8.55308
▁fearr	-8.55348
▁méid	-8.55475
▁caith	-8.55949
▁pian	-8.56028
▁Fan	-8.56215
▁mhol	-8.5622
▁ialtóga	-8.56238
▁200	-8.56244
▁Ina	-8.56685
▁mbaile	-8.57373
▁tabhair	-8.57374
▁chúis	-8.57399
▁mhór	-8.57417
▁mbásanna	-8.57468
▁26	-8.58039
▁lae	-8.58156
▁fhor	-8.58419
▁gcás	-8.5937
▁hairíonna	-8.59501
▁mhárta	-8.59501
údará	-8.59512
▁amhras	-8.59518
▁glan	-8.59547
▁rna	-8.59949
oga	-8.60435
onad	-8.6058
▁athr	-8.60627
▁ea	-8.60698
▁fola	-8.60876
onraí	-8.60895
tra	-8.61003
lacha	-8.61592
▁daonra	-8.61675
▁feidhm	-8.61677
▁uait	-8.61684
▁cheana	-8.61685
▁dhún	-8.61695
▁domhanda	-8.61711
nna	-8.61713
▁cleachta	-8.61778
oidh	-8.62046
▁ansin	-8.6219
▁bhun	-8.63014
0,000	-8.63206
▁bhrí	-8.63305
j	-8.63404
▁míochaine	-8.63897
▁sraothartach	-8.63897
▁timpeall	-8.63897
▁tréimhs	-8.63897
▁Rinne	-8.63897
▁éadrom	-8.63897
▁ghluaiseachtaí	-8.63898
▁héireann	-8.63898
eiceáil	-8.63899
ianaise	-8.63903
▁leanbh	-8.63932
eolaíocht	-8.6438
▁fhoir	-8.64865
▁arís	-8.64888
▁riachtanach	-8.65224
▁25	-8.65295
▁Fua	-8.65328
▁bpaindéim	-8.66169
▁géarmhíochaine	-8.66169
▁ndearna	-8.66169
▁pobail	-8.66169
▁Úsáid	-8.66169
▁cosanta	-8.6617
▁treala	-8.66173
▁oiriún	-8.66174
▁rianair	-8.66186
▁covanna	-8.66217
ráid	-8.66666
▁chásanna	-8.66712
▁bhfaigh	-8.66736
▁tharla	-8.66765
▁21	-8.67229
▁ionfhabhtuithe	-8.67721
▁dhéanann	-8.68495
▁diúltach	-8.68495
▁nollaig	-8.68495
▁ollscoil	-8.68495
▁drugaí	-8.68498
▁cead	-8.68578
▁taighde	-8.68616
aireanta	-8.69041
▁17	-8.69131
43	-8.69183
▁baol	-8.6955
iv	-8.69556
rthóir	-8.70016
▁gar	-8.70082
ibh	-8.70245
▁Mol	-8.70876
▁cófra	-8.70876
▁ospidéil	-8.70876
▁sheachaint	-8.70877
▁rá	-8.71165
▁gcomh	-8.71626
▁28	-8.71692
fíor	-8.71716
éifeacht	-8.72677
▁choróinvíris	-8.73315
▁dtugtar	-8.73315
▁tacaíocht	-8.73316
chúram	-8.73318
▁gcéad	-8.73319
bhreith	-8.73353
▁dtús	-8.73358
▁déanta	-8.73578
▁nochta	-8.7373
▁chéim	-8.74002
%)	-8.74529
aoine	-8.74752
▁Cuirea	-8.75119
▁niúmóine	-8.75815
▁eorpach	-8.75815
▁leanúnach	-8.75815
▁deacracht	-8.75815
▁breise	-8.75816
▁2021	-8.75816
▁fios	-8.75834
▁leagan	-8.75875
▁againn	-8.75887
gartheagmháil	-8.76048
▁gceart	-8.76116
iocfa	-8.76294
▁Amha	-8.77
▁cóir	-8.77078
60	-8.78181
stáil	-8.78288
▁meán	-8.78317
▁fhorbairt	-8.78379
▁suntasach	-8.78379
▁áireamh	-8.7838
▁chibear	-8.7838
▁reatha	-8.7838
▁láimhe	-8.78393
▁éigin	-8.78444
▁faisnéis	-8.78526
▁aige	-8.78708
ocha	-8.78899
▁Coinn	-8.79143
seachas	-8.79271
othú	-8.79433
▁deara	-8.79627
▁rudaí	-8.79751
namh	-8.80443
▁freag	-8.80512
▁theast	-8.80898
▁dhomhanda	-8.81011
▁gnáth	-8.81011
▁oideachais	-8.81011
▁siopadóireacht	-8.81011
▁bliana	-8.81011
▁chinntiú	-8.81011
▁cosaint	-8.81011
▁cruinn	-8.81011
▁dúnta	-8.81011
▁oiread	-8.81011
▁dlúth	-8.81014
ormhór	-8.81014
▁frith	-8.81021
▁spreag	-8.81024
▁diagnóis	-8.81263
▁bhéal	-8.81346
▁thosa	-8.81789
▁athrú	-8.81845
ov	-8.81918
eithre	-8.82111
▁Bei	-8.82689
heo	-8.83535
▁taobh	-8.83714
▁díobh	-8.83717
▁maisc	-8.83718
▁shrón	-8.83879
▁dócha	-8.83894
hlat	-8.84307
fen	-8.84861
rón	-8.85917
scoile	-8.86243
eál	-8.86348
▁bunús	-8.86381
ialla	-8.8645
uiscint	-8.86491
▁Oscailt	-8.86491
▁astrazeneca	-8.86491
▁eacnamaíoch	-8.86491
▁phaindéim	-8.86491
▁sholáthar	-8.86491
▁roghn	-8.86491
▁grúpa	-8.86491
▁liosta	-8.86491
▁dtíortha	-8.86492
▁uisce	-8.86492
▁cóireáil	-8.86494
▁tógálach	-8.86495
imhnigh	-8.86507
▁Caith	-8.86535
▁tástálacha	-8.86726
▁freagra	-8.87188
▁fhad	-8.87438
▁ialtóg	-8.8803
▁bith	-8.88288
úlacht	-8.88634
ábhar	-8.8895
▁cliniciúla	-8.89348
▁phobal	-8.89348
▁scamhóg	-8.89349
▁rianaithe	-8.8935
▁gardaí	-8.89351
▁gnó	-8.89373
▁staidéir	-8.8938
▁hcovanna	-8.89772
▁uimh	-8.89872
▁Chu	-8.89917
láir	-8.90115
ineacht	-8.91644
comparáid	-8.9229
▁tromchúiseach	-8.9229
▁laghda	-8.9229
▁fionraí	-8.9229
ghrúpa	-8.92291
dro	-8.92301
▁chóna	-8.92312
▁shár	-8.92434
eagra	-8.92581
impl	-8.92809
▁bhfad	-8.93088
▁31	-8.93531
reid	-8.93859
▁fhio	-8.95058
▁antasubstaintí	-8.9532
▁dromchla	-8.9532
▁idirmheánach	-8.9532
▁monatóireacht	-8.9532
▁uirthi	-8.9532
▁anailís	-8.9532
▁suíomh	-8.95321
▁teastáil	-8.95321
▁gcuirf	-8.95321
▁thógáil	-8.95322
▁chlúda	-8.95324
▁aitheanta	-8.95324
▁cuma	-8.95405
▁gcónaí	-8.95435
▁tinneas	-8.95622
rialacha	-8.95841
5%	-8.96246
▁29	-8.9634
ofa	-8.96424
uail	-8.98164
eolaíoch	-8.98168
▁domhan	-8.98431
▁eitilt	-8.98445
▁hiodáile	-8.98445
▁nádúrtha	-8.98445
▁fhreagairt	-8.98445
▁plean	-8.9845
▁ghalar	-8.9845
▁Thái	-8.98451
▁rogha	-8.98456
▁tosú	-8.98467
▁éirinn	-8.98469
.30	-8.98484
▁coronaviruses	-8.98537
hug	-8.98614
▁ríocht	-8.98643
▁riachtana	-8.99766
37	-9.00064
neamhriachtanach	-9.01671
▁choróinvíreas	-9.01671
▁shóisialta	-9.01671
▁íseal	-9.01671
▁gartheagmhálaí	-9.01671
▁cónaithe	-9.01671
▁ísle	-9.01673
▁tosaigh	-9.01677
▁slán	-9.01692
▁leibhé	-9.01698
▁iaráin	-9.01709
▁cineál	-9.01913
▁srón	-9.01958
▁anois	-9.01997
▁dlí	-9.0231
▁cinnte	-9.02459
pháirtí	-9.02769
▁chomhartha	-9.04493
▁clúda	-9.04544
48	-9.04597
líon	-9.04711
▁saotharlainne	-9.05004
▁speisialta	-9.05004
▁ndéanfa	-9.05004
▁shláinte	-9.05004
▁víreolaíoch	-9.05004
▁iarraidh	-9.05004
uachtarán	-9.05004
▁bhailiú	-9.05004
speicis	-9.05005
▁tharchur	-9.05005
▁anseo	-9.05021
▁ligean	-9.05037
▁siondróm	-9.05083
▁hiomlán	-9.0513
claíocht	-9.05141
▁trom	-9.05461
▁iúl	-9.05815
▁Déanta	-9.06161
229	-9.06553
▁gceist	-9.06963
héann	-9.07179
▁mbás	-9.08327
theagmhála	-9.08452
▁anaithnid	-9.08452
▁dhearfach	-9.08452
▁forleathan	-9.08452
▁teorainn	-9.08452
▁tuarascá	-9.08452
▁deimhnithe	-9.08452
▁éigeantach	-9.08452
▁chineál	-9.08453
▁fásta	-9.08455
▁cúnamh	-9.08456
▁scaoil	-9.08457
▁caitheamh	-9.08508
▁Dhe	-9.08624
▁beo	-9.08785
▁eachtra	-9.08803
▁féa	-9.09402
agairt	-9.11988
▁dheireadh	-9.12024
▁géanóm	-9.12024
▁hubei	-9.12024
▁tobac	-9.12024
▁faireachas	-9.12024
▁folláin	-9.12024
▁bpob	-9.12024
▁gnách	-9.12024
▁dhearbha	-9.12024
éarchéim	-9.12046
ntanas	-9.12057
▁rsc	-9.12096
▁anuas	-9.12283
▁cóireála	-9.12387
thas	-9.12428
líne	-9.13211
ófa	-9.1363
uismitheoirí	-9.15727
▁eoraip	-9.15727
▁nóiméad	-9.15727
▁straitéis	-9.15727
▁meiriceá	-9.15727
▁afraic	-9.15728
▁Féadfa	-9.15728
▁páirt	-9.1573
▁eagla	-9.15731
▁mhaolú	-9.15731
▁tuilleadh	-9.15733
▁socr	-9.15782
▁siar	-9.1579
▁leanas	-9.15801
▁teocht	-9.15956
órt	-9.16868
ealú	-9.16967
eisteanna	-9.17355
▁bhain	-9.18952
▁Nío	-9.1896
▁scaip	-9.19492
acsaín	-9.19539
▁altranais	-9.19573
▁phoiblí	-9.19573
▁treoirlín	-9.19573
▁tseachtain	-9.19574
oimeád	-9.19574
▁éifeachtúlacht	-9.19574
▁cógais	-9.19577
▁figiú	-9.19581
▁aithint	-9.19591
▁chorp	-9.19598
▁chóireáil	-9.196
▁baile	-9.1964
▁mich	-9.19657
raitheann	-9.19747
ionfhabhtuithe	-9.20877
▁trialach	-9.21444
aisnéis	-9.23343
▁acmhainn	-9.23573
▁féideartha	-9.23573
▁fómhair	-9.23573
▁oideachas	-9.23573
▁rcgp	-9.23573
▁thaisteal	-9.23573
▁zónóiseach	-9.23573
▁réigiún	-9.23574
▁tarchuir	-9.23574
ardriosca	-9.23574
▁buinneach	-9.23574
▁faide	-9.23574
▁áitiúla	-9.23576
▁croí	-9.23577
▁áitiúil	-9.23578
▁áfach	-9.23578
▁tirim	-9.23603
▁gné	-9.2361
▁fachtóir	-9.23654
“	-9.25061
▁chaith	-9.25602
huairisc	-9.27274
▁díot	-9.27702
▁Glao	-9.2774
▁díghalr	-9.2774
▁fhrainc	-9.2774
▁gallúnach	-9.2774
▁ginearálta	-9.2774
▁mhilliún	-9.2774
▁sealadach	-9.2774
▁seicheamh	-9.2774
▁teicneolaíocht	-9.2774
▁teoranta	-9.2774
▁billiún	-9.2774
▁leanúint	-9.2774
▁ghartheagmhála	-9.27741
▁meastachá	-9.27741
▁gceanta	-9.27742
rochtain	-9.27743
bhealach	-9.27747
▁foirm	-9.27751
▁frithvíreas	-9.27754
fhógra	-9.2777
▁ghlaca	-9.27777
▁beala	-9.27792
▁cód	-9.27811
▁caill	-9.28162
▁meánscoil	-9.28588
óstach	-9.2941
▁eolai	-9.30647
▁dhearbhú	-9.32088
▁faireachais	-9.32088
▁institiúid	-9.32088
▁príobháideach	-9.32088
athlastach	-9.32088
▁giorra	-9.32088
▁hothair	-9.32088
▁séasúr	-9.32089
▁contae	-9.32089
phríomh	-9.3209
▁chóras	-9.32091
▁scaipthe	-9.32091
▁uathu	-9.32092
▁torrach	-9.32095
▁éileamh	-9.32095
▁abhaile	-9.32096
ghabhálach	-9.32097
▁chleachta	-9.32105
▁níochán	-9.3211
▁india	-9.32114
▁leanacht	-9.32126
ruga	-9.32167
▁glas	-9.32183
▁aimsío	-9.32914
▁breith	-9.32918
isteach	-9.32991
ionfhabhtú	-9.33954
▁huaire	-9.35627
hná	-9.36309
cónaí	-9.36481
▁frithdhúnadh	-9.36633
▁sláintiúil	-9.36633
▁soiléir	-9.36633
▁taifead	-9.36633
▁ghlanadh	-9.36634
▁shocrú	-9.36634
▁thaobh	-9.36634
▁spóirt	-9.36635
▁staid	-9.36635
▁foirne	-9.36637
▁phlean	-9.36637
▁ceanta	-9.36637
▁spáinn	-9.36642
▁amuigh	-9.36647
▁chéanna	-9.36655
▁fisic	-9.36656
angla	-9.36678
earraí	-9.3668
▁aisce	-9.36717
hku	-9.36752
▁ja	-9.3766
víreas	-9.38714
▁éifeachta	-9.40547
taire	-9.4091
theagmháil	-9.40948
▁géar	-9.41388
▁bhrollach	-9.41395
▁dhéantar	-9.41395
▁láimhseáil	-9.41395
▁soláthr	-9.41395
▁mbliana	-9.41395
▁chumas	-9.41396
▁téacs	-9.41396
▁íomhá	-9.41396
▁Cabhr	-9.41396
chúrsa	-9.41397
▁trump	-9.41397
▁póca	-9.414
▁bhfuair	-9.41408
▁fáth	-9.4141
▁seomra	-9.4143
▁fhliú	-9.41431
▁críoch	-9.41432
▁braisl	-9.41434
▁mná	-9.41436
▁ghlas	-9.4145
▁rúis	-9.41502
▁Bainea	-9.45115
pho	-9.45183
▁california	-9.46395
▁scothaosta	-9.46395
▁sheirbhís	-9.46395
▁thíortha	-9.46395
▁thuaidh	-9.46396
▁óstáin	-9.46396
▁gcaithf	-9.46396
▁scornach	-9.46397
▁sciathá	-9.46397
▁bhfoireann	-9.46398
▁Clúda	-9.46398
▁seans	-9.46413
▁foils	-9.46414
▁4,9	-9.4644
▁séireolaíoch	-9.46472
▁dtreo	-9.46627
▁ndéant	-9.47103
▁rialachá	-9.47218
▁scoi	-9.48434
iagnóis	-9.51149
▁Tabha	-9.51525
thábhachtach	-9.51659
▁cliniciúil	-9.51659
▁diaibéiteas	-9.51659
▁dianchúraim	-9.51659
▁ghéanó	-9.51659
▁iomarca	-9.51659
▁johnson	-9.51659
▁pataigin	-9.51659
▁phobail	-9.51659
▁swab	-9.51659
▁taiscumar	-9.51659
▁tseapáin	-9.51659
▁éigeandáil	-9.51659
▁taoiseach	-9.51659
▁measún	-9.51659
▁nollag	-9.51659
▁coinníoll	-9.51659
thástála	-9.5166
▁gníomhaíochta	-9.5166
▁chuairt	-9.51661
▁téarna	-9.51662
▁mhoill	-9.51665
cathracha	-9.51665
phen	-9.51667
▁ghearr	-9.5168
▁fhón	-9.51694
▁tacú	-9.51815
llmha	-9.51897
▁imscrúd	-9.52147
▁imdhíon	-9.5431
éabhlóid	-9.57214
▁ainsealach	-9.57214
▁chruthú	-9.57214
▁difríocht	-9.57214
▁fhéadfá	-9.57214
▁ghearmáin	-9.57214
▁ngluaiseachtaí	-9.57214
▁plódaithe	-9.57214
▁réigiúin	-9.57214
▁teaghlach	-9.57214
▁theaghlach	-9.57214
▁bhliain	-9.57214
▁leithlisiú	-9.57214
▁chórais	-9.57214
▁dhiúlta	-9.57214
▁toirchis	-9.57214
▁núíosach	-9.57214
▁riarachá	-9.57214
▁slabhr	-9.57215
▁buailte	-9.57215
▁sonrach	-9.57216
▁fhreagra	-9.57217
aicéit	-9.57218
▁béite	-9.57219
▁éasca	-9.5722
▁cógas	-9.57229
▁domhnach	-9.57235
chógais	-9.57301
tábla	-9.57323
▁chlinic	-9.63095
▁limisté	-9.63096
▁Taispeána	-9.63096
▁moderna	-9.63096
▁theorannú	-9.63096
phataigineach	-9.63097
▁forbairt	-9.63097
▁saotharlann	-9.63097
▁fhoils	-9.63097
oileáin	-9.63097
▁trácht	-9.63097
▁cruth	-9.63098
fhreasta	-9.63101
ithníodh	-9.63103
iompair	-9.63104
▁teachtaireacht	-9.63134
▁rabha	-9.63803
inneoi	-9.66574
oibríonn	-9.68393
ntaibheathaigh	-9.69346
▁Measta	-9.69346
▁bhrasaíl	-9.69346
▁cocúnú	-9.69346
▁fadtéarmach	-9.69346
▁laethúla	-9.69346
▁ndéanann	-9.69346
▁nuashonrú	-9.69346
▁paisinéir	-9.69346
▁scriosadh	-9.69346
▁slaghdán	-9.69346
angóil	-9.69347
▁dochtúra	-9.69347
▁ngrúpa	-9.69347
▁leochaileach	-9.69347
▁satharn	-9.69347
aistriú	-9.69348
▁chliniciúil	-9.69348
▁Deimhnío	-9.6935
▁saineola	-9.69351
aigéad	-9.69351
▁chinneadh	-9.69352
▁saoráid	-9.69353
▁Tabharfa	-9.6957
▁eisío	-9.7017
shiomptómacha	-9.71033
gníomhaireacht	-9.71842
▁foghlaim	-9.73046
▁dearbha	-9.75765
eipidéimeolaíoch	-9.75876
choraintín	-9.76013
fheidhmeannach	-9.76013
▁biontech	-9.76013
▁iontráil	-9.76013
▁pangolin	-9.76013
▁randamach	-9.76013
▁soláthairtí	-9.76013
críobh	-9.76013
▁civet	-9.76013
▁astráil	-9.76013
▁chugat	-9.76014
▁córais	-9.76014
▁forbartha	-9.76014
bhealaí	-9.76018
▁cheada	-9.76042
▁dhaonra	-9.7606
aispeáint	-9.76533
iomlán	-9.80202
próitéin	-9.80467
eamhshiomptómach	-9.81254
coimisiún	-9.83156
dirghníomhaíocht	-9.83156
▁aibreáin	-9.83156
▁ciarsú	-9.83156
▁criticiúla	-9.83156
▁cónaidhme	-9.83156
▁damáiste	-9.83156
▁géiniteach	-9.83156
▁hiaráine	-9.83156
▁iontaofa	-9.83156
▁maireachtáil	-9.83156
▁ndochtúir	-9.83156
▁páipéar	-9.83156
▁páipéir	-9.83156
▁scrúduithe	-9.83156
▁ullmhacht	-9.83156
▁macasamhl	-9.83156
▁fhostóir	-9.83156
▁gcontae	-9.83156
éigean	-9.83157
▁samhain	-9.83157
▁eiseama	-9.83157
▁atosú	-9.83158
eisiúint	-9.83189
triail	-9.83247
▁earná	-9.83384
tarchurtha	-9.8456
coraintín	-9.88163
oronavirus	-9.90371
▁Comharthaí	-9.90848
▁Roghna	-9.90848
▁antashubstaint	-9.90848
▁bhainistiú	-9.90848
▁hafraice	-9.90848
▁laethanta	-9.90848
▁leictreon	-9.90848
▁máinliachta	-9.90848
D	-11.485
’	-11.9854
Ú	-12.9853
P	-12.9854
O	-12.9855
–	-12.9856
”	-12.9857
R	-12.9858
/	-12.9859
G	-12.986
L	-12.9861
F	-12.9862
S	-12.9863
B	-12.9864
N	-12.9865
(	-12.9866
M	-12.9867
I	-12.9868
A	-12.9869
C	-12.987
T	-12.987
