<pad>	0
</s>	0
<unk>	0
¦	-2.04837
▁¦	-2.16396
▁、	-2.61549
▁	-2.90758
▁。	-3.3194
の	-4.23276
を	-4.31655
は	-4.35303
に	-4.60848
と	-4.61266
が	-4.82844
その	-5.06867
▁、「	-5.4722
▁」。	-5.56772
また	-5.60965
も	-5.6627
から	-5.6867
た	-5.70755
わたしは	-5.74709
で	-5.75928
い	-5.76671
か	-5.78151
し	-5.78452
て	-5.87563
る	-5.88527
り	-5.96808
あなたの	-6.06888
よ	-6.13343
である	-6.21482
あなたは	-6.21652
き	-6.24595
な	-6.27502
彼らは	-6.29057
わたしの	-6.32414
って	-6.41757
なさい	-6.44292
しかし	-6.47267
く	-6.47543
この	-6.48453
そして	-6.49605
彼は	-6.52231
った	-6.53996
した	-6.54051
主は	-6.54556
言った	-6.55204
して	-6.57136
み	-6.57346
え	-6.59426
あなたがたは	-6.59688
う	-6.65475
▁」	-6.68445
ことを	-6.69143
すなわち	-6.69199
これを	-6.75235
いた	-6.75875
め	-6.79124
す	-6.79451
のために	-6.80516
そこで	-6.80571
者	-6.80802
わたしが	-6.83601
ら	-6.85336
をもって	-6.85934
お	-6.86082
ように	-6.86574
ない	-6.87961
および	-6.89009
の子	-6.89768
人	-6.90483
わたしを	-6.91068
ま	-6.91296
や	-6.92414
わたし	-6.93368
▁「	-6.94368
によって	-6.94549
つ	-6.98467
それを	-6.99017
のように	-6.99191
者は	-6.99693
すべての	-7.02381
からである	-7.03359
する	-7.03676
もし	-7.06087
あなたがたの	-7.0645
ア	-7.07028
であろう	-7.07232
主の	-7.07657
わたしに	-7.08618
これは	-7.08756
け	-7.09448
主が	-7.11534
れ	-7.1245
あなた	-7.12508
のである	-7.1461
彼らの	-7.14865
すべて	-7.14969
ル	-7.14984
自分の	-7.16346
▁、『	-7.16747
わが	-7.17924
られる	-7.1864
のか	-7.20039
ある	-7.20334
なければならない	-7.20869
彼らを	-7.21359
です	-7.21607
そ	-7.21667
時	-7.22595
ので	-7.242
さ	-7.24428
であった	-7.25142
▁』	-7.25825
彼ら	-7.2604
ず	-7.26664
あなたが	-7.28509
一	-7.29376
られた	-7.29656
あ	-7.30761
ます	-7.3115
神の	-7.3282
いる	-7.34215
こと	-7.3429
主	-7.34568
びと	-7.35074
なかった	-7.35331
ン	-7.36819
王	-7.38052
見よ	-7.38316
だ	-7.38355
彼	-7.38546
に言った	-7.38859
それは	-7.39614
彼を	-7.39647
シ	-7.39958
行って	-7.40138
ば	-7.40469
いて	-7.41232
とき	-7.41924
む	-7.42051
には	-7.44215
あなたを	-7.45508
テ	-7.47129
の上に	-7.4788
ならば	-7.49137
あなたに	-7.49173
こ	-7.49485
神は	-7.49513
ている	-7.5057
させ	-7.51393
あなたがた	-7.52036
であって	-7.52635
と共に	-7.53281
きた	-7.54549
ヤ	-7.54685
彼らに	-7.55171
・	-7.55694
神	-7.55704
じ	-7.5592
もの	-7.56996
日	-7.57333
イエスは	-7.57415
今	-7.59569
び	-7.60011
こうして	-7.60167
物	-7.60234
まで	-7.61237
なら	-7.61541
十	-7.61711
みな	-7.62323
事	-7.62684
主よ	-7.64383
民	-7.64427
された	-7.64734
ラ	-7.64817
もろもろの	-7.6566
人の	-7.65848
主に	-7.66811
こう	-7.67195
祭司	-7.6759
マ	-7.68169
るであろう	-7.69009
のうちに	-7.69174
ました	-7.69481
国	-7.69704
見	-7.69799
言われた	-7.70603
行った	-7.7068
あなたがたに	-7.70769
それ	-7.71611
レ	-7.723
そう	-7.72508
地に	-7.72817
事を	-7.73077
イ	-7.73182
言う	-7.73425
所	-7.74459
地	-7.74718
罪	-7.74981
とを	-7.75141
彼らが	-7.754
敵	-7.7555
ために	-7.75664
人は	-7.75958
んで	-7.76419
手	-7.76979
の中に	-7.77184
へ	-7.77521
大	-7.77658
女	-7.77915
それゆえ	-7.78174
彼の	-7.78212
これ	-7.78716
らせ	-7.79381
せ	-7.79501
たち	-7.79594
われわれは	-7.7991
あなたがたが	-7.80412
キリスト	-7.80542
ください	-7.80626
として	-7.80702
心	-7.80869
ぎ	-7.80871
すると	-7.81317
される	-7.81617
イスラエルの	-7.81765
にある	-7.81791
デ	-7.8223
わ	-7.82628
人々は	-7.82788
彼に	-7.82819
の子孫	-7.83093
ム	-7.83448
ぶ	-7.83545
力	-7.83555
『	-7.83688
る者	-7.83732
子	-7.8411
わたしたちは	-7.84168
ど	-7.8449
人を	-7.84547
王は	-7.84671
そこに	-7.85128
彼が	-7.85166
べ	-7.85435
なる	-7.85801
行く	-7.86915
エ	-7.87619
来る	-7.87853
について	-7.87871
てください	-7.88698
られ	-7.88781
イスラエル	-7.88927
イエス	-7.88944
山	-7.89647
しい	-7.90499
んだ	-7.90868
ナ	-7.90978
下	-7.91652
ただ	-7.91655
悪	-7.91791
律法	-7.93045
のです	-7.93771
ク	-7.94057
立って	-7.94161
その時	-7.94377
ハ	-7.95041
後	-7.95174
います	-7.95192
者が	-7.95196
を見	-7.95274
知	-7.95709
それで	-7.95944
よう	-7.95969
実	-7.95989
出	-7.96101
行	-7.96207
にも	-7.96563
多くの	-7.9699
年	-7.97432
足	-7.97634
命	-7.9765
上	-7.97766
父	-7.98803
恐れ	-7.99168
てはならない	-7.99682
している	-8.00101
ち	-8.00159
エル	-8.00169
物を	-8.00277
行き	-8.00372
ダビデは	-8.00513
王の	-8.00768
言	-8.00908
ス	-8.01982
きて	-8.02291
全	-8.02494
石	-8.02549
えて	-8.03382
リ	-8.03514
エルサレム	-8.03705
町	-8.04213
ご	-8.05013
なお	-8.05692
どうして	-8.06141
に対して	-8.06213
のは	-8.06261
立ち	-8.06729
っている	-8.06761
出て	-8.06861
大いなる	-8.07217
喜び	-8.07579
バ	-8.07582
ため	-8.07846
人が	-8.07897
夜	-8.07938
ブ	-8.08211
のですか	-8.08576
げ	-8.08706
の前に	-8.0928
ふ	-8.09873
ダビデ	-8.10066
時に	-8.10248
者を	-8.10473
預言者	-8.10533
あなたの神	-8.10571
でしょう	-8.10616
さて	-8.10666
数	-8.11351
を取り	-8.11839
人々	-8.13307
兄弟	-8.13622
よりも	-8.13816
ことは	-8.14237
ところ	-8.14516
あった	-8.14536
ヤコブ	-8.14545
肉	-8.14658
れる	-8.14918
がある	-8.15026
にむかって	-8.15671
海	-8.15707
天	-8.15882
となり	-8.1594
火	-8.16327
知恵	-8.16463
救	-8.1705
▁』。	-8.17113
目	-8.17484
あなたがたを	-8.17794
地の	-8.17814
る者は	-8.18433
と言った	-8.18571
一つ	-8.18606
かた	-8.19297
愛	-8.19763
のだ	-8.20374
手を	-8.20481
水	-8.20761
死	-8.21025
言い	-8.21427
からだ	-8.21484
家	-8.22011
々	-8.22365
従	-8.22433
良い	-8.23115
の家	-8.23133
思い	-8.23221
ん	-8.23317
ではないか	-8.23346
兄弟たち	-8.24027
主は言われる	-8.24689
とが	-8.24741
われわれ	-8.24752
わたしたちの	-8.2478
四	-8.25126
栄光	-8.25447
ことごとく	-8.25855
たので	-8.2587
人に	-8.25872
レビびと	-8.259
となる	-8.2601
そうすれば	-8.26508
怒り	-8.26543
聖なる	-8.26592
れた	-8.26872
タ	-8.27033
道	-8.27186
皆	-8.272
霊	-8.27205
行い	-8.27263
自分	-8.27327
神が	-8.27492
とは	-8.27546
える	-8.27627
に向かって	-8.27908
心を	-8.2806
にしたがって	-8.28269
われわれの	-8.28519
生	-8.29056
妻	-8.29361
月	-8.29685
一つの	-8.2972
取り	-8.29765
ユダ	-8.29797
ものは	-8.29823
所に	-8.30285
間	-8.30368
共に	-8.30432
いで	-8.30567
かつ	-8.30577
光	-8.3079
このように	-8.30972
言葉	-8.31211
サウル	-8.31411
ひ	-8.3142
ね	-8.31535
内	-8.3161
モーセは	-8.31886
五	-8.31919
ベ	-8.3207
はその	-8.32202
れて	-8.3228
と言う	-8.32873
分	-8.32915
これらの	-8.33577
をも	-8.33623
金	-8.33763
獣	-8.33775
ほかの	-8.34653
という	-8.3491
えた	-8.35318
でも	-8.35527
牛	-8.35877
ことが	-8.36396
イスラエルの人々	-8.36488
義	-8.36703
おり	-8.36837
神に	-8.37
とし	-8.37167
があった	-8.37399
かな	-8.37415
祭壇	-8.37436
になった	-8.3747
ネ	-8.38029
ひとりの	-8.38098
され	-8.38382
心に	-8.38661
であり	-8.38665
聞き	-8.38714
器	-8.38794
母	-8.38962
よく	-8.39165
頭	-8.39295
主の前に	-8.39314
会	-8.39379
パ	-8.3942
羊	-8.39487
銀	-8.39493
定め	-8.3973
どうぞ	-8.40023
ものである	-8.40172
人の子	-8.40193
教え	-8.40541
あり	-8.40846
死んだ	-8.40874
ろ	-8.41149
柱	-8.41235
きょう	-8.41235
ところが	-8.41401
これに	-8.41461
アロン	-8.41676
民は	-8.4184
二	-8.4185
残	-8.42059
つるぎ	-8.42185
ものを	-8.42366
モーセ	-8.42497
どうか	-8.42621
木	-8.42671
キュビト	-8.42847
香	-8.42866
のもとに	-8.42907
パン	-8.42999
不	-8.43225
だれが	-8.43296
わたしたち	-8.43337
なく	-8.4339
宮	-8.43444
道を	-8.43458
中	-8.43583
があり	-8.44514
方	-8.44844
だけ	-8.44872
彼女は	-8.44898
ト	-8.44952
いだ	-8.45159
引き	-8.45344
川	-8.45819
ニ	-8.45819
がよい	-8.46096
信仰	-8.46152
に従って	-8.46509
手に	-8.46686
ません	-8.46751
は言った	-8.46852
それから	-8.46971
と一緒に	-8.47102
の王	-8.47139
はならない	-8.47153
百	-8.47155
恵み	-8.47381
ここに	-8.47515
あかし	-8.47546
もまた	-8.47561
戒め	-8.47647
帰	-8.47698
しく	-8.48051
まだ	-8.48104
ユダヤ人	-8.48111
三	-8.48355
セ	-8.48363
ミ	-8.48412
らない	-8.48541
カ	-8.48754
着	-8.48841
者の	-8.49258
長	-8.49357
めて	-8.49397
門	-8.49436
七	-8.49523
使	-8.49759
助け	-8.49904
世	-8.49946
の部族	-8.50134
口	-8.50134
過	-8.50165
歌	-8.50177
男	-8.50335
悪い	-8.50717
よい	-8.50924
その子	-8.50941
になって	-8.51223
身	-8.51389
ホ	-8.51444
おられる	-8.51919
しもべ	-8.51967
夫	-8.5243
種	-8.5243
のうちから	-8.52624
者たち	-8.52693
べき	-8.52697
高	-8.52756
ましょう	-8.53004
人たち	-8.53132
だれ	-8.53254
だから	-8.53271
人々が	-8.53342
捨て	-8.53364
食	-8.53423
その日	-8.53541
せよ	-8.54064
の前で	-8.54671
六	-8.54864
ためである	-8.54889
シャ	-8.5512
をことごとく	-8.55585
あるいは	-8.56159
となった	-8.56254
答え	-8.56536
しるし	-8.56557
馬	-8.56616
られて	-8.56636
報い	-8.56712
エルサレムに	-8.57128
まず	-8.57456
のある	-8.57491
畑	-8.57561
ていた	-8.57605
ひとり	-8.57653
他の	-8.57735
上って	-8.58228
重	-8.58535
死ぬ	-8.58549
では	-8.58731
わざ	-8.58838
聖所	-8.58873
正しい	-8.58904
ヨ	-8.58939
のうち	-8.59096
おのおの	-8.59177
主を	-8.59179
破	-8.59221
ダ	-8.59357
再び	-8.5951
かけ	-8.59522
血	-8.59591
の娘	-8.59703
サ	-8.59766
イスラエルの神	-8.60206
ける	-8.60247
神を	-8.60248
にいる	-8.60488
わせ	-8.60521
イスラエルの王	-8.608
さばき	-8.60809
取	-8.60945
富	-8.60986
ついに	-8.61007
はみな	-8.61081
多く	-8.61104
互に	-8.61704
告げ	-8.6187
オ	-8.61975
なぜ	-8.61988
ウ	-8.62481
滅び	-8.62856
身を	-8.62889
あげ	-8.63053
ヨセフ	-8.63161
ザ	-8.63483
必ず	-8.63518
しなければならない	-8.63579
ロ	-8.63776
など	-8.63881
嗣業	-8.63966
言葉を	-8.64015
祈	-8.64062
とその	-8.64276
アブラハム	-8.64436
ながら	-8.64539
者である	-8.64868
無	-8.65037
るように	-8.65082
地を	-8.65329
祝福	-8.6541
箱	-8.65468
産	-8.65737
金の	-8.65806
るために	-8.65815
日に	-8.66029
メ	-8.66442
ってはならない	-8.66812
の地	-8.6692
教	-8.66951
の門	-8.67014
かれ	-8.67126
ぐ	-8.67172
の子たち	-8.67282
を取って	-8.6749
のゆえに	-8.67531
▁』」。	-8.67655
風	-8.67655
たちは	-8.67749
当	-8.67909
イエスを	-8.67938
来て	-8.67945
水を	-8.68284
千	-8.68392
と言って	-8.68396
立て	-8.68461
ざ	-8.6852
こう言われる	-8.68576
食べ	-8.68585
顔を	-8.68635
主人	-8.68819
下って	-8.69001
すでに	-8.6932
これらは	-8.69792
聞く	-8.698
知らない	-8.69844
外	-8.69943
または	-8.69973
名を	-8.70064
しない	-8.70106
第	-8.70141
ユダの王	-8.70375
娘	-8.70515
つく	-8.70581
入れ	-8.70783
渡	-8.70842
帰って	-8.71035
ろう	-8.71036
おきて	-8.71198
の子らは	-8.71211
万	-8.71223
知らせ	-8.71316
顔	-8.71529
苦	-8.7196
意	-8.71983
ケ	-8.71992
者と	-8.72009
求め	-8.72046
ると	-8.72223
語り	-8.72329
を攻め	-8.73064
あなたがたの神	-8.73392
台	-8.73668
のに	-8.73736
書	-8.73772
祭	-8.74038
朝	-8.74182
座	-8.7421
前	-8.7432
を得	-8.7439
家に	-8.74459
ではない	-8.74697
主なる神は	-8.74842
の間	-8.74875
願い	-8.74994
とする	-8.75019
けて	-8.75255
雲	-8.75373
戦い	-8.75902
権	-8.75947
打ち	-8.76009
わず	-8.76117
切	-8.76268
してはならない	-8.76631
かせ	-8.76647
契約	-8.76749
合	-8.76784
土	-8.76791
名	-8.76925
代	-8.7693
ガ	-8.77016
の上	-8.77107
みずから	-8.7711
の言葉	-8.77474
寝	-8.77691
どんな	-8.77692
ろば	-8.78021
のところに	-8.78234
群衆	-8.7828
ることを	-8.78384
つけ	-8.78652
災	-8.78669
て言った	-8.78671
めた	-8.78697
に言われた	-8.78759
聞いて	-8.7877
イエスが	-8.78808
ド	-8.78856
望み	-8.78963
なし	-8.79083
者に	-8.79153
ようと	-8.7929
ユダの	-8.79433
来	-8.79493
弟子たち	-8.79511
不義	-8.79543
何	-8.79695
を受け	-8.79744
起	-8.79886
何を	-8.79971
語る	-8.80019
戸	-8.80065
二十	-8.8021
の下に	-8.80293
になる	-8.80454
の中で	-8.80633
真実	-8.80686
燔祭	-8.80727
であろうか	-8.80853
信じ	-8.81249
害	-8.81274
なんの	-8.813
を与え	-8.81305
イスラエルの人々は	-8.81544
ぼ	-8.81549
悩み	-8.81884
してください	-8.82033
知っている	-8.8235
拝	-8.82353
二つの	-8.82478
家畜	-8.82501
語	-8.82819
国々	-8.82891
同	-8.82994
麦	-8.83072
民を	-8.83102
成	-8.83107
群れ	-8.83108
民の	-8.83425
わたしはあなたの	-8.83486
いなさい	-8.83904
先祖たち	-8.83914
ようになる	-8.83915
あの	-8.8401
目に	-8.84012
を見て	-8.84102
子供	-8.84175
キ	-8.84299
ゼ	-8.84312
エフライム	-8.84361
岩	-8.84361
サウルは	-8.84576
エジプト	-8.84861
と言い	-8.84903
東	-8.84932
フ	-8.84982
天幕	-8.85005
もはや	-8.85021
庭	-8.85085
パウロ	-8.8512
ほかに	-8.85225
主の宮	-8.85342
守	-8.85379
ではなく	-8.8539
町々	-8.85483
のような	-8.85708
あって	-8.85786
エリ	-8.85787
工	-8.85804
前に	-8.85913
またその	-8.86063
もう	-8.86212
病	-8.86241
兵	-8.86257
ヘ	-8.86259
異邦人	-8.86259
の妻	-8.86572
者も	-8.86631
八	-8.86694
おまえ	-8.8681
声	-8.86812
ヨハネ	-8.869
官	-8.869
その人は	-8.86926
のすべての	-8.86946
小羊	-8.86956
による	-8.87173
答えて	-8.87662
れば	-8.88011
それに	-8.88064
させる	-8.88087
すべての民	-8.8816
させた	-8.88174
つかさたち	-8.88344
がない	-8.88529
の名は	-8.88835
いない	-8.89238
小	-8.89449
大きな	-8.89507
地は	-8.89802
っていた	-8.89809
王たち	-8.89968
の中から	-8.90041
北	-8.90061
罰	-8.9008
神々	-8.90111
出して	-8.9014
偶像	-8.90169
なければ	-8.90169
備え	-8.90499
平	-8.90821
あわれみ	-8.90835
イサク	-8.90835
命を	-8.9105
祭司は	-8.91119
時は	-8.91194
住む	-8.91461
とこしえに	-8.91506
天に	-8.9157
彼女	-8.91645
切り	-8.91806
出す	-8.91835
は皆	-8.9184
ペリシテびと	-8.92004
売	-8.92182
勇士	-8.92183
とした	-8.92319
見た	-8.92697
軍	-8.92847
落ち	-8.92877
長老たち	-8.92986
自	-8.9308
糸	-8.9354
はずかしめ	-8.93547
モーセに言われた	-8.93573
セラ	-8.93622
バアル	-8.93649
出し	-8.93822
ないでください	-8.94028
子を	-8.94123
断	-8.94209
いや	-8.94465
生き	-8.94508
造	-8.94586
罪を	-8.94677
をお	-8.94743
この地	-8.94783
移	-8.94931
だれか	-8.95148
パロ	-8.95152
そのとき	-8.95231
において	-8.95232
める	-8.95313
命じた	-8.9533
のうちの	-8.95345
心は	-8.95435
かの	-8.95462
部	-8.95497
町の	-8.95585
囲	-8.95631
ること	-8.95874
ベニヤミン	-8.96032
あなたと	-8.9633
ジ	-8.96335
エドム	-8.96335
悪を	-8.96436
を行う	-8.96496
人々に	-8.9691
の手から	-8.96977
穴	-8.97044
わたしたちが	-8.97051
ことはない	-8.97144
除	-8.97172
と言われた	-8.97218
恥	-8.97274
彼らに言った	-8.97284
ないように	-8.97293
その人	-8.97371
となって	-8.97482
仕え	-8.97574
イエスの	-8.9759
動	-8.97602
親	-8.97748
取った	-8.98009
生れた	-8.98125
ったので	-8.98184
だれも	-8.98239
ような	-8.98467
ッ	-8.98476
城壁	-8.9848
だからである	-8.987
知って	-8.98964
幕屋	-8.99098
たとい	-8.99246
ふたり	-8.99392
野	-8.99456
かった	-8.99632
彼に言った	-8.99645
ゆ	-8.99715
天の	-8.99746
じて	-8.99766
このような	-8.99885
サマリヤ	-8.99945
あと	-9.00218
その上に	-9.00242
その中に	-9.00313
もなく	-9.00364
国民	-9.00397
のうちで	-9.00398
んでいる	-9.0045
逃げ	-9.00497
死に	-9.00518
を追い	-9.00545
ことができる	-9.00637
別	-9.00664
ひとりも	-9.00684
雄羊	-9.007
を守る	-9.00789
全地	-9.00894
ああ	-9.01033
荒野	-9.01105
られない	-9.01119
伝え	-9.01219
信	-9.01234
理	-9.014
軍勢	-9.01412
食物	-9.01516
の日	-9.01639
ることはない	-9.01681
解	-9.02146
苦しみ	-9.02155
らなければならない	-9.02448
を得る	-9.02472
ても	-9.02582
ゲ	-9.02827
の父	-9.02831
いま	-9.0303
来た	-9.03211
されて	-9.03229
キリストの	-9.03594
ふたりの	-9.03636
マナセ	-9.03664
大いに	-9.03683
イスラエルの家	-9.03819
油	-9.0385
しよう	-9.03893
受け	-9.04061
の木	-9.04179
わか	-9.04363
する者	-9.04416
十二	-9.0444
願	-9.04454
なり	-9.04478
ことである	-9.04609
いのち	-9.04671
強い	-9.04714
の人々	-9.04782
まった	-9.04829
るでしょう	-9.04893
エルサレムの	-9.04935
歩	-9.05143
布	-9.05196
非常に	-9.05199
ごとに	-9.0532
をする	-9.05378
していた	-9.05521
油を	-9.05782
奪	-9.05799
女は	-9.05856
ペ	-9.05893
グ	-9.05972
戦車	-9.0598
獲	-9.06012
ゆえ	-9.06038
流れ	-9.0607
終り	-9.06159
与え	-9.06162
を見た	-9.06189
われわれの神	-9.06224
けた	-9.06364
かれた	-9.06412
わなければならない	-9.06501
聞いた	-9.06638
ただし	-9.06754
聖	-9.06797
うちに	-9.06849
を愛し	-9.07258
ることがない	-9.07439
歳	-9.07468
会衆	-9.0751
っ	-9.07511
エジプトびと	-9.07623
堅く	-9.07638
のもの	-9.07658
場所	-9.07711
のがれ	-9.07732
栄え	-9.07762
そこ	-9.0799
主である	-9.08343
ほ	-9.08563
だろうか	-9.08592
耳を	-9.0878
より	-9.08836
はいって	-9.08996
おく	-9.09081
言え	-9.09081
広	-9.09125
目を	-9.09194
立つ	-9.0925
僕	-9.09566
答えた	-9.0957
ソロモン	-9.09586
のを見て	-9.09611
しえたげ	-9.09941
若い	-9.10124
そうと	-9.10173
明	-9.10264
取って	-9.10338
しし	-9.10346
王が	-9.10505
離れ	-9.1052
シケル	-9.10754
新しい	-9.10768
に仕え	-9.10855
叫び	-9.10861
どう	-9.1103
くだ	-9.11701
道に	-9.11889
強	-9.12038
感謝	-9.12445
わが民	-9.12488
わたしたちに	-9.12717
いつくしみ	-9.12807
先祖	-9.12849
近	-9.12885
の日に	-9.12913
もない	-9.13019
につけ	-9.1302
の子ら	-9.13048
でしょうか	-9.13138
去	-9.13146
ども	-9.13153
戦	-9.1317
くる	-9.13183
諸	-9.13212
の間に	-9.13219
シオン	-9.13227
まり	-9.13294
を捨て	-9.13415
日の	-9.13441
あだ	-9.13442
身に	-9.13467
荒	-9.13536
つえ	-9.1356
示し	-9.13659
かない	-9.13727
滅ぼし	-9.13843
モ	-9.13961
その家	-9.13998
ダン	-9.14093
かつて	-9.1413
ぶどう酒	-9.14173
滅ぼす	-9.14317
自分を	-9.14357
わたしと	-9.1455
何も	-9.14577
の手	-9.14598
天から	-9.14629
わし	-9.14686
汚れ	-9.14855
の神	-9.15016
気	-9.15184
にお	-9.15207
部族	-9.1531
わない	-9.15363
同じ	-9.15544
があって	-9.15731
アブサロム	-9.15776
われわれを	-9.1578
雄牛	-9.15787
所有	-9.15826
正しい者	-9.15933
すべての人	-9.16202
もろもろの民	-9.16247
これが	-9.16344
服	-9.16611
乳	-9.16616
暗	-9.1663
かえって	-9.16647
ものと	-9.16654
われ	-9.16669
ダビデの	-9.16703
進み	-9.16713
父の	-9.16724
とおりに	-9.16736
荒れ	-9.16765
悲しみ	-9.16875
にはいって	-9.16883
心の	-9.16975
それが	-9.17047
全く	-9.17123
ことができない	-9.17313
ぶどう	-9.17415
投げ	-9.17448
おおい	-9.17564
わたしはあなた	-9.17574
酒	-9.17651
の子である	-9.17699
分け	-9.177
去って	-9.17783
むすこ	-9.17806
ペテロ	-9.17838
もとに	-9.18313
万軍の主	-9.18338
バビロン	-9.18354
さえ	-9.18405
らなかった	-9.1844
の家に	-9.18449
者ども	-9.18456
の氏族	-9.18479
三十	-9.18539
神よ	-9.18555
ベル	-9.18572
そのすべての	-9.18735
返	-9.18791
契約を	-9.18927
せず	-9.18974
の長	-9.19037
やり	-9.19109
の血	-9.19134
を離れ	-9.19223
山に	-9.19258
息	-9.19262
合わせて	-9.19488
宿営	-9.19583
思	-9.19759
導き	-9.1979
帰り	-9.19793
声を	-9.19884
とに	-9.19986
通	-9.20049
らず	-9.20078
ヤコブは	-9.20121
ばかり	-9.20167
連れて	-9.20212
国の	-9.20243
自身	-9.20284
帰った	-9.20355
ないで	-9.20361
出た	-9.20361
たが	-9.20481
ささげ	-9.20529
宮の	-9.20689
持って	-9.20767
ビ	-9.20933
流	-9.20948
死んで	-9.20951
宝	-9.20953
しめ	-9.20956
ボ	-9.21005
夕	-9.21061
さらに	-9.21086
王に	-9.21097
わたしたちを	-9.21126
高く	-9.21461
の町	-9.21492
救う	-9.21535
コ	-9.21826
ひと	-9.21939
により	-9.22018
のない	-9.22106
をし	-9.22211
望	-9.22211
イスラエルは	-9.22336
われわれに	-9.22361
加え	-9.22391
るならば	-9.224
次	-9.22466
アル	-9.22511
いたが	-9.22573
約束	-9.22842
先に	-9.22854
屋	-9.22882
集まって	-9.2289
バビロンの王	-9.22927
を造り	-9.22957
となるであろう	-9.22969
ほど	-9.23045
せて	-9.23069
しなかった	-9.23072
かに	-9.2316
イエスに	-9.23209
知り	-9.23237
族	-9.23431
あがない	-9.23444
去り	-9.23485
おのおのその	-9.23524
これら	-9.23525
のため	-9.23628
絶え	-9.23652
捕え	-9.23655
さし	-9.23686
ころ	-9.23691
作	-9.23824
の時	-9.24122
さあ	-9.24308
さない	-9.24435
を打ち	-9.24615
すれば	-9.24627
持ち	-9.24657
の手に	-9.2474
ピ	-9.2475
激しい	-9.24757
強く	-9.24851
言って	-9.24856
御霊	-9.24889
誇	-9.25014
行う	-9.25325
つか	-9.25325
後に	-9.2534
わたしのために	-9.25515
ヨシュア	-9.25518
この世	-9.25596
に対する	-9.25732
のかたわらに	-9.25748
彼らはその	-9.25753
上げ	-9.25764
モアブ	-9.25788
ぬ	-9.25909
ベテ	-9.25933
見る	-9.2596
生れ	-9.25991
ようとする	-9.26129
われらの	-9.26168
の声	-9.26325
変	-9.26424
いたので	-9.26441
四十	-9.26458
のを見た	-9.26517
ことも	-9.26597
造った	-9.2665
あります	-9.26704
働き	-9.26822
ヨシュアは	-9.26826
バル	-9.26906
るべき	-9.26921
を受ける	-9.27023
争	-9.27062
民に	-9.27241
場	-9.27311
怒りを	-9.27596
利	-9.276
貧しい者	-9.2761
預言者たち	-9.27621
だろう	-9.27683
る時	-9.27783
み名	-9.28041
イスラエルを	-9.28112
われた	-9.28122
のではない	-9.28225
ヨセフは	-9.28252
らは	-9.28326
ズ	-9.28578
エサウ	-9.28578
ませ	-9.2858
平安	-9.28589
ですか	-9.28656
祭の	-9.28785
やめ	-9.28928
ソロモンは	-9.29023
あなたの民	-9.29303
は次のとおりであ	-9.29362
は彼	-9.29438
モアブの	-9.29461
生きている	-9.29498
永遠の	-9.29559
いって	-9.29561
命じられた	-9.29577
置き	-9.29659
愛する	-9.29853
負	-9.30337
殺し	-9.30442
そこから	-9.30514
待	-9.30515
その後	-9.3055
福音	-9.30552
彼はまた	-9.30607
をした	-9.30898
の子孫は	-9.30909
話	-9.30917
ちり	-9.30949
とおり	-9.30954
食べる	-9.30961
務	-9.31031
ヨアブ	-9.31078
の者	-9.31445
ききん	-9.3157
を建て	-9.31804
したので	-9.31916
この町	-9.31948
彼はその	-9.32017
見ると	-9.32211
に命じて	-9.32293
その所で	-9.32335
わが神	-9.32389
の中	-9.32425
します	-9.3243
主の言葉	-9.32439
高き所	-9.32563
恐れる	-9.32564
なぜなら	-9.3266
聖霊	-9.32727
一緒に	-9.32817
の方	-9.32909
の言葉を	-9.32972
おられた	-9.3299
墓	-9.33011
出した	-9.33082
エジプトの	-9.33123
国に	-9.33184
その地	-9.33207
らし	-9.33538
像	-9.33542
アハブ	-9.33579
異	-9.33579
そのように	-9.33659
ないであろう	-9.33731
造られた	-9.3385
去らせ	-9.33915
のことを	-9.34053
罪を犯し	-9.34254
証	-9.34438
の所に	-9.34449
ノア	-9.34494
くじ	-9.34498
から出た	-9.3453
この民	-9.34576
に告げ	-9.34613
遠く	-9.34666
まことに	-9.34709
られました	-9.34719
のだから	-9.34819
海の	-9.34836
見て	-9.34884
主はこう言われる	-9.3494
殺した	-9.35061
言われる	-9.35105
くら	-9.35254
安息日	-9.35261
の住民	-9.35316
のち	-9.35338
レビ	-9.35378
を見る	-9.3552
放	-9.35551
マリヤ	-9.35658
待ち	-9.35686
アビ	-9.35694
つかわした	-9.35718
をなし	-9.35773
その民	-9.35973
終	-9.36039
ことに	-9.36075
衣服	-9.36117
所で	-9.36476
「	-9.3659
その子は	-9.3661
すぐ	-9.36617
常に	-9.36646
ゆえに	-9.36651
に属する	-9.3666
を聞いた	-9.36663
入	-9.36686
けれども	-9.36705
進んで	-9.36733
ではありません	-9.36947
結	-9.36978
とも	-9.37035
祭司たち	-9.37063
ささげる	-9.37204
を離れて	-9.37299
から出て	-9.3738
イスラエルに	-9.3744
の所へ	-9.3747
出てきた	-9.37477
悟	-9.37499
ルベン	-9.37769
教会	-9.37804
罪祭	-9.37811
ロン	-9.37816
先	-9.37843
エジプトの国	-9.37915
目は	-9.3802
なす	-9.38029
尋ね	-9.38047
わたしはあなたを	-9.38344
何か	-9.38383
られている	-9.38534
女たち	-9.38548
与えられた	-9.38553
語った	-9.38643
呼び	-9.38686
出る	-9.38695
谷	-9.38734
エレミヤ	-9.38807
満ち	-9.38815
ごらん	-9.38844
死体	-9.38866
飲み	-9.38947
深い	-9.3895
用	-9.38961
させてください	-9.39154
災を	-9.39214
をとって	-9.39306
ることができる	-9.39319
かけて	-9.3932
供え物	-9.39335
この事	-9.39345
王と	-9.39363
わたしはまた	-9.39377
側	-9.39502
示	-9.39538
君	-9.39576
前から	-9.39648
驚	-9.39736
人と	-9.3975
滅	-9.39788
ることは	-9.39926
計	-9.39931
真理	-9.39943
この事を	-9.40043
置いた	-9.40304
たからである	-9.40468
さきに	-9.40544
わたしも	-9.40551
まし	-9.40552
飲む	-9.40582
んじ	-9.40614
すること	-9.40877
ほめたたえ	-9.40886
車	-9.41019
会見の幕屋	-9.41027
空	-9.41027
平和	-9.4104
あざ	-9.41168
割礼	-9.4138
その兄弟	-9.41384
こそ	-9.41531
話し	-9.41573
耳	-9.41629
起き	-9.41689
の人々は	-9.41803
人々を	-9.41849
とをもって	-9.42041
法	-9.42118
あらゆる	-9.42141
賜わった	-9.42141
犠牲をささげ	-9.42141
正しく	-9.42157
わり	-9.42233
正義	-9.42251
にはいった	-9.42287
嘆き	-9.4229
を集め	-9.42353
去った	-9.42365
決して	-9.42413
時には	-9.42428
て下さる	-9.4247
神の宮	-9.42482
かなければならない	-9.42503
いつも	-9.42639
一頭	-9.42746
力を	-9.4276
う者	-9.42789
三人	-9.4313
地から	-9.43168
を設け	-9.43232
ヨシャパテ	-9.43264
とその放牧地	-9.4327
まま	-9.43433
得	-9.43457
なかったので	-9.43497
ギレアデ	-9.43535
つかわされた	-9.43595
自ら	-9.43643
つるぎを	-9.43746
やぎ	-9.43763
の道	-9.43922
主なる神	-9.4398
かれる	-9.43986
するであろう	-9.44036
外に	-9.44098
を捕え	-9.44164
真	-9.44353
告	-9.44362
宣べ伝え	-9.44401
のほとり	-9.44401
ヒゼキヤ	-9.44433
まい	-9.44456
を持って	-9.44458
ヨナタン	-9.44501
ラム	-9.44567
の名	-9.44583
にはいる	-9.44637
水の	-9.44664
悟り	-9.44676
づ	-9.44697
ペリシテびとの	-9.44754
偽り	-9.44775
見え	-9.44951
少し	-9.45066
の入口	-9.45098
エジプトの地	-9.45144
いている	-9.45275
したが	-9.45373
がなく	-9.45409
主はまた	-9.45435
幕	-9.45512
ことがない	-9.45533
求める	-9.45597
年に	-9.45736
金を	-9.45852
を守り	-9.45855
仰せ	-9.45871
魂	-9.45981
あなたのしもべ	-9.45993
君たち	-9.46185
のところへ	-9.46192
に与え	-9.46198
娘たち	-9.46237
喜んで	-9.46288
になり	-9.4636
のひとり	-9.46371
去る	-9.46402
悪しき者	-9.46573
あなたがたも	-9.46581
ささげた	-9.46644
愚かな者	-9.46648
宿	-9.46675
音	-9.46709
ラッパ	-9.46713
飲ませ	-9.46722
アッスリヤの王	-9.4675
おこない	-9.46869
あなたがたのうちに	-9.4687
初	-9.47
のつかさ	-9.47037
義と	-9.47039
と同じ	-9.47157
のみ	-9.47363
一日	-9.47471
の町々	-9.47514
こさせ	-9.47716
むしろ	-9.4789
を生んだ	-9.47901
だれでも	-9.47954
女の	-9.47985
ダビデに	-9.48072
を呼び	-9.48089
に住む	-9.48229
あなたはわたしの	-9.48333
らい	-9.48337
滅ぼされ	-9.48384
その所	-9.48386
隠れ	-9.48573
彼と共に	-9.48577
わざを	-9.48689
偽りを	-9.48732
に行き	-9.48734
はない	-9.48818
な者	-9.48887
取る	-9.48956
遠	-9.48965
ならびに	-9.49083
場合	-9.49099
初め	-9.4911
もろもろの国民	-9.49697
およびその	-9.49706
間に	-9.49838
を求め	-9.49885
事は	-9.49885
わら	-9.49904
父は	-9.4994
ともに	-9.49947
を治め	-9.49963
て言われた	-9.49979
わたしの民	-9.50017
ようとした	-9.50155
以上	-9.50285
行かせ	-9.50374
悪人	-9.50384
の谷	-9.50408
かすめ	-9.50448
送り	-9.50496
るためである	-9.50513
御	-9.50687
燔祭と	-9.50891
火を	-9.51088
を撃ち	-9.51097
祭と	-9.51144
皮	-9.51161
憎むべき	-9.51232
彼女を	-9.51232
すべき	-9.51349
人たちは	-9.51476
その血	-9.51482
ダニエル	-9.51504
家来たち	-9.5153
のろい	-9.51545
七つの	-9.51595
罪の	-9.51684
死人	-9.51686
られるであろう	-9.51774
れている	-9.51799
に臨む	-9.51814
まれる	-9.51828
食物を	-9.51853
アサ	-9.51914
三日	-9.52022
青銅の	-9.52071
ようか	-9.521
にあって	-9.52305
あなたの前に	-9.52331
に満ち	-9.52382
もので	-9.52501
長子	-9.52548
歩み	-9.52644
をささげ	-9.52715
ヨアシ	-9.52739
ヤラベアム	-9.52739
ぶどう畑	-9.52766
があれば	-9.5277
ゆるし	-9.5277
のようだ	-9.52861
主なる神は言われ	-9.52866
たちが	-9.52873
サムエル	-9.52886
弟子たちは	-9.52886
エリヤ	-9.52896
証人	-9.52905
あらわ	-9.52944
わき	-9.52946
すわって	-9.5297
ことはできない	-9.53029
われわれが	-9.53144
わけ	-9.53272
町を	-9.53326
者よ	-9.53327
られます	-9.53336
偽	-9.5334
やみ	-9.53391
大祭司	-9.53411
におる	-9.53481
人間	-9.53572
を通	-9.53693
安	-9.53738
なん	-9.53745
堅	-9.53834
に告げて	-9.53855
万軍の主は	-9.53883
それぞれ	-9.53989
カルデヤびと	-9.53989
ヘブロン	-9.53989
激しく	-9.54034
シモン	-9.5404
あなたのために	-9.54219
おうと	-9.54231
女が	-9.5424
書き	-9.54242
清め	-9.54317
すべての事	-9.54353
わた	-9.54354
わたしがあなた	-9.54359
があるか	-9.54454
なのである	-9.54859
主はこう仰せられる	-9.54913
汚れた	-9.54929
いった	-9.5498
なさ	-9.55057
なるであろう	-9.55101
に至る	-9.55119
この人	-9.55128
サムソン	-9.55255
ガリラヤ	-9.55255
右	-9.55257
あなたの父	-9.55273
あがめ	-9.55375
ない者	-9.55393
若者	-9.55402
に臨んだ	-9.55496
に与えた	-9.55592
口に	-9.55623
るもの	-9.55752
使者	-9.55932
を造った	-9.55981
らせた	-9.56085
の供え物	-9.56169
あなたがたのために	-9.56294
であることを	-9.56357
する者は	-9.56384
リム	-9.5639
命じ	-9.56395
祭壇を	-9.56445
洗	-9.56464
定	-9.5651
青	-9.56523
エヒウ	-9.56536
宣	-9.56536
喜ぶ	-9.56546
を携えて	-9.56628
ホル	-9.56763
返し	-9.56863
イム	-9.56945
地で	-9.56971
を捨てて	-9.5722
わたしの前に	-9.57467
を与えて	-9.5756
語って	-9.57716
体	-9.57775
近づいて	-9.57836
うしろ	-9.57837
生きながらえ	-9.57837
を呼んで	-9.57852
四つの	-9.57855
ありません	-9.57886
町に	-9.57893
わな	-9.57934
れない	-9.57957
多い	-9.57985
つかわし	-9.58076
引いて	-9.58161
地と	-9.58188
を殺した	-9.5824
人であった	-9.58395
るとき	-9.58434
かく	-9.58439
口を	-9.58491
子供たち	-9.5855
二百	-9.58699
言葉は	-9.58722
ったが	-9.58788
へ行って	-9.58839
牧者	-9.58927
あるように	-9.58994
サムエルは	-9.58994
の口	-9.5902
をつかさど	-9.59165
年の間	-9.59267
の境	-9.59272
一同	-9.59298
を祝福し	-9.59307
を立てて	-9.59383
を引き	-9.59394
にして	-9.59399
ことのないように	-9.59516
主にささげ	-9.59666
臨	-9.59672
立	-9.59689
にきた	-9.5984
立った	-9.59927
恥じ	-9.60053
エジプトから	-9.60077
主の宮の	-9.60245
ものが	-9.6026
ようとして	-9.60272
ようになった	-9.60277
主なる	-9.60433
エルサレムで	-9.60564
二つ	-9.60831
の前	-9.6091
生きる	-9.61047
したら	-9.61118
うち	-9.61243
水が	-9.61279
七十	-9.61333
わたしの父	-9.61346
良	-9.61384
さなければならない	-9.61443
高い	-9.61513
撃	-9.6163
対	-9.61728
家族	-9.61742
永	-9.61784
命じる	-9.61802
聞かせ	-9.61836
楽しみ	-9.61976
残りの	-9.61986
ふさ	-9.62164
次の	-9.62322
離	-9.62396
楽し	-9.62411
着物を	-9.62416
頭に	-9.62647
を助け	-9.62662
人々の	-9.62683
衣を	-9.62738
物と	-9.62832
報	-9.6292
アナ	-9.6303
を焼き	-9.63051
められる	-9.63092
捕	-9.63107
わざわい	-9.63144
ミカ	-9.6315
その女	-9.63152
殺	-9.63182
兄	-9.632
住	-9.63201
おこなった	-9.63207
聖別し	-9.63212
くださる	-9.63222
安らかに	-9.63267
主はその	-9.63273
ることができない	-9.63278
どこに	-9.63283
ベテル	-9.63343
若	-9.63344
なりません	-9.63416
飲	-9.63578
子ら	-9.63705
となえ	-9.63734
歩む	-9.63915
立てた	-9.6412
くれ	-9.64142
ませんでした	-9.64176
をうけ	-9.64329
わたしの名	-9.64429
衣	-9.64441
帰らせ	-9.6449
者たちは	-9.64515
年の	-9.64547
ほか	-9.64565
和	-9.64581
アモリびと	-9.64595
誓いを	-9.64595
礼拝	-9.64601
のあいだ	-9.64646
清い	-9.64671
おいた	-9.64677
サラ	-9.64732
語られた	-9.64749
については	-9.64802
事が	-9.65037
を滅ぼし	-9.65094
長く	-9.6511
淫	-9.65197
聖なる物	-9.65322
造り	-9.65341
置か	-9.65368
を聞いて	-9.65394
手で	-9.6544
らう	-9.65444
数え	-9.65559
てしまった	-9.65752
買い	-9.6582
るまで	-9.65864
度	-9.65891
て下さった	-9.65941
わが子	-9.65943
現	-9.65995
レバノン	-9.66003
シケム	-9.66003
みこころ	-9.66003
モーセとアロン	-9.66004
を守ら	-9.66046
おる	-9.6612
頭を	-9.66172
せる	-9.66318
あなたと共に	-9.66363
自分のために	-9.66394
われる	-9.66546
パロの	-9.66565
産んだ	-9.66631
らす	-9.66661
づけ	-9.66662
ダビデが	-9.66685
青銅	-9.66772
定めと	-9.6678
争い	-9.66793
あなたがたのうち	-9.66845
わたしに言われた	-9.66845
連れ	-9.66906
神の国	-9.67052
第二	-9.67184
を立て	-9.67236
打	-9.67302
うせ	-9.67339
集めて	-9.67393
はいけない	-9.67432
重ねて	-9.67433
さんび	-9.67435
人をつかわして	-9.67504
ヨブ	-9.67524
ノ	-9.67593
を起し	-9.67607
きよめ	-9.67628
アブラハムは	-9.67672
周囲の	-9.67754
寄り	-9.67848
隠し	-9.67859
さま	-9.67942
すえ	-9.68039
さず	-9.68094
寄せ	-9.68481
を連れて	-9.68634
ことなく	-9.68659
すまい	-9.68669
嘆	-9.68686
救われる	-9.68696
千人	-9.68712
に与える	-9.6885
営	-9.68873
しばらく	-9.68881
アブラム	-9.68881
ゼデキヤ	-9.68881
タラント	-9.68881
くびき	-9.68883
銀の	-9.68913
バラム	-9.6892
断食	-9.68923
を守って	-9.68952
民が	-9.69017
主にささげる	-9.6904
もろもろの国	-9.69068
思う	-9.69092
いつ	-9.69172
主を恐れ	-9.69375
がきて	-9.69475
わなかった	-9.69547
愚かな	-9.69674
彼女の	-9.69695
と言ったので	-9.69735
ペテロは	-9.69793
エリシャ	-9.69833
神の人	-9.69904
たちに	-9.69971
日は	-9.70032
食い	-9.70068
あげて	-9.70152
に仕える	-9.70172
するのか	-9.70192
ヒ	-9.70258
弟	-9.70274
ささげ物	-9.70275
な子	-9.70289
おのれ	-9.70295
ケルビム	-9.70351
むなしい	-9.70355
アビメレク	-9.70356
病気	-9.70376
シバ	-9.70457
家を建て	-9.70502
さいわいである	-9.70536
カナンびと	-9.70567
にとって	-9.70575
の上で	-9.70675
いったい	-9.70748
アダ	-9.70766
父が	-9.70766
いたからである	-9.70842
殺そうと	-9.70858
罪を犯した	-9.70864
彼らと	-9.71017
立っている	-9.71042
テル	-9.71064
ユダの人々	-9.71099
悪霊	-9.71215
食事	-9.71388
らって	-9.71515
されている	-9.71523
その名を	-9.71594
所から	-9.71672
深く	-9.71743
モーセが	-9.71754
置いて	-9.71802
議	-9.71821
人も	-9.71826
アンモンの人々	-9.71844
物は	-9.71847
わたしの言葉	-9.71855
イエスは彼らに	-9.71859
らい病	-9.71863
べて	-9.71941
まさ	-9.72051
メル	-9.72066
水は	-9.72084
その日には	-9.72112
へ行った	-9.72112
近く	-9.72124
右の手	-9.72129
渡し	-9.72136
ときに	-9.72188
仕	-9.72236
清く	-9.7227
しても	-9.72288
出された	-9.72352
の書	-9.72388
入れた	-9.72406
言っている	-9.72418
五十	-9.72423
悪しき	-9.72507
ここ	-9.72532
せられる	-9.72548
せた	-9.72565
くつ	-9.726
見せ	-9.72602
現れ	-9.72603
を産んだ	-9.72795
落	-9.72811
今日	-9.72898
決	-9.72989
様	-9.72999
パウロは	-9.73045
正	-9.7312
わたしはこの	-9.73156
わが主	-9.7318
あるもの	-9.73218
ことがある	-9.73264
半	-9.73297
下り	-9.73407
おまえたち	-9.73411
モン	-9.73413
四方	-9.73454
荒野に	-9.73529
建て	-9.73628
羊の	-9.7363
こわし	-9.73675
起る	-9.73792
パロは	-9.7387
ついて	-9.73915
残った	-9.7395
男の子	-9.74027
示す	-9.74062
偽りの	-9.74096
力ある	-9.74143
定められた	-9.74198
世の	-9.74233
その子ら	-9.74277
の方に	-9.74314
わせた	-9.74505
アヒ	-9.74509
主の名	-9.74534
石を	-9.74644
勝	-9.74794
を受けて	-9.74841
賜わる	-9.74898
いっさい	-9.74898
ツロ	-9.74915
あふれ	-9.74919
スリヤびと	-9.74919
器を	-9.74974
足の	-9.75012
ヨルダン	-9.75026
ることができ	-9.75033
に至るまで	-9.75063
と思う	-9.75076
見ている	-9.75083
と名づけた	-9.75105
タン	-9.75117
のかしら	-9.75183
むち	-9.75244
つるぎをもって	-9.75297
の周囲に	-9.75464
自分たちの	-9.75528
ますます	-9.75681
に従い	-9.75731
立っていた	-9.75774
七年	-9.75802
自分たち	-9.7582
野の	-9.7596
のための	-9.76024
長さ	-9.76138
ユダヤ人たち	-9.7619
ろうと	-9.76457
空の	-9.76463
を生み	-9.76496
その人を	-9.76505
下の	-9.76511
生きて	-9.76523
彼のために	-9.76554
わたしはあなたに	-9.76568
どろ	-9.76612
メン	-9.76651
の分	-9.76712
されました	-9.7674
命じて	-9.76796
まれ	-9.76798
六十	-9.76877
荒野で	-9.76913
すみ	-9.76965
のではなく	-9.76969
らくだ	-9.77201
何事	-9.77233
子牛	-9.7725
召し	-9.77273
から出る	-9.77302
祭壇の	-9.77371
その手	-9.77431
の家の	-9.77443
栄	-9.7755
そのころ	-9.77741
弟子	-9.77804
ヨルダンの	-9.77903
満	-9.77934
ツ	-9.7803
ダマスコ	-9.78047
モルデカイ	-9.78047
ヨシヤ	-9.78047
大きい	-9.78052
のようで	-9.78054
ヨラム	-9.78073
常	-9.78131
ひろ	-9.78144
おまえは	-9.78221
女を	-9.78247
されるであろう	-9.78461
イスラエルびと	-9.78489
言いました	-9.78514
かき	-9.78586
を与える	-9.78621
すであろう	-9.7873
を知る	-9.78749
を殺し	-9.78757
声をあげて	-9.78837
パンを	-9.78889
に投げ	-9.79179
主は言われた	-9.79225
すべてのもの	-9.79251
その上	-9.79298
進	-9.7944
われらは	-9.79451
さいわい	-9.79458
彼と	-9.79479
境	-9.79492
りました	-9.79565
書いてある	-9.79643
タマル	-9.79661
地方	-9.79684
知らなかった	-9.7973
座して	-9.79751
彼に言われた	-9.80174
ことと	-9.80277
に住む者	-9.80309
声が	-9.80316
その妻	-9.80332
みわざ	-9.80425
務を	-9.80503
り物	-9.806
まれた	-9.80675
喜ば	-9.8069
立たせ	-9.80726
かかって	-9.8088
アラ	-9.80896
あす	-9.81019
いた時	-9.81045
御言	-9.81119
みんな	-9.8123
アッスリヤ	-9.81251
イスラエルの人々の	-9.81276
ねばならない	-9.813
に伏し	-9.81301
びとの氏族が出	-9.81304
ユダヤ	-9.81309
下さい	-9.81316
聖書	-9.81334
先生	-9.81339
残っている	-9.81426
霊が	-9.81441
わが魂	-9.81444
シャン	-9.81493
与えられる	-9.8152
おき	-9.81552
祈って	-9.81603
あなたも	-9.81635
その神	-9.81662
これを聞いて	-9.81681
御子	-9.81711
み前に	-9.81741
今は	-9.81801
に告げた	-9.81886
エリシャは	-9.81932
開いて	-9.82134
導き出し	-9.82135
加	-9.822
レア	-9.82281
小さい	-9.8237
火祭	-9.82438
この人は	-9.82462
主君	-9.82465
きたので	-9.82469
ほめ	-9.82482
酒を	-9.82493
に与えて	-9.8253
尋ねた	-9.82579
ことをしない	-9.82596
第三	-9.82611
心が	-9.82684
起った	-9.82768
つぎ	-9.82845
ゆるされ	-9.82851
その国	-9.82884
を滅ぼす	-9.82914
壁	-9.82961
に乗って	-9.82966
恐るべき	-9.82974
に入れ	-9.82975
ユダは	-9.82996
怒	-9.83001
いばら	-9.83014
信じる	-9.83053
にまさる	-9.83077
出て行って	-9.83134
吹き	-9.83146
時代	-9.8323
彼女に	-9.83303
送った	-9.83338
彼らのために	-9.83405
知る	-9.83429
恵みを	-9.83536
までは	-9.83707
しました	-9.83744
に従う	-9.83787
るのは	-9.83788
よみがえ	-9.83853
つかさ	-9.83917
もしあなたが	-9.83988
む者	-9.84116
にまさって	-9.84116
それらの	-9.84192
出てきて	-9.84281
木の	-9.8431
右に	-9.84334
入れて	-9.84367
持	-9.84438
ことによって	-9.84501
呼	-9.84527
ことを知る	-9.84569
十分の一	-9.8466
不思議	-9.84661
ネブカデネザル	-9.84661
ポ	-9.84661
ラバン	-9.84661
シロ	-9.84868
の中の	-9.8498
につき	-9.85098
わたしがあなたがた	-9.85182
御使	-9.85298
他	-9.85328
を求める	-9.854
に住み	-9.85511
われらを	-9.85515
力と	-9.8554
思い出	-9.85669
に宿営し	-9.85784
愛する者	-9.85806
呼ばれ	-9.85979
あれ	-9.86054
受ける	-9.86108
を得た	-9.86149
雄	-9.86258
十二人	-9.86314
って言った	-9.86338
終った	-9.86339
一千	-9.86364
るのを	-9.86372
ギ	-9.86386
ハマン	-9.86386
バラク	-9.86386
ソロモンの	-9.86394
宮殿	-9.86404
カナンの地	-9.86409
かす	-9.86449
全会衆	-9.86452
エジプトに	-9.86497
絶えず	-9.86518
者には	-9.86526
火の	-9.86534
主イエス	-9.86624
くなって	-9.86626
を得させ	-9.86684
カル	-9.86761
なされた	-9.86791
られるように	-9.86812
人である	-9.86864
金銀	-9.86898
われら	-9.86955
行われた	-9.86969
へび	-9.86997
つけた	-9.87057
残して	-9.87101
に住んでいる	-9.8716
いやし	-9.87192
ヨアブは	-9.87205
王よ	-9.87236
バプテスマ	-9.87239
の目の前で	-9.87582
肉を	-9.876
ぜ	-9.87614
されたので	-9.87615
もど	-9.87634
貧	-9.87679
ギレアデの	-9.87717
られたので	-9.87834
いつまで	-9.87853
満たし	-9.87931
ることなく	-9.87974
その父	-9.88025
撃ち	-9.88063
ぞ	-9.88128
ギデオン	-9.8814
アザリヤ	-9.8814
レハベアム	-9.8814
のういご	-9.88141
エリコ	-9.88168
家来	-9.88169
エパ	-9.8831
山々	-9.88337
驚き	-9.88457
望む	-9.8848
いつまでも	-9.88498
の名を	-9.88519
しましょう	-9.88532
あなたがたと	-9.88645
戦う	-9.887
さばきを	-9.88775
に投げ入れ	-9.88793
神から	-9.88821
を用い	-9.88825
さなかった	-9.89161
あなたの家	-9.8927
を造って	-9.893
自分で	-9.89549
殺す	-9.89642
おいて	-9.89665
大きく	-9.89682
しもべたち	-9.89683
くなり	-9.89684
その町	-9.89726
連	-9.89759
かず	-9.89851
神の子	-9.89866
の書にしるされている	-9.89925
エポデ	-9.89925
エステル	-9.89925
に向け	-9.89926
計りごと	-9.89926
シメオン	-9.89926
ヘロデ	-9.89926
あがなわ	-9.89931
半ば	-9.89998
葬	-9.90004
わたしはわが	-9.9006
買	-9.90069
少	-9.90098
ひとりは	-9.90173
高さ	-9.90209
民衆	-9.90209
捕われ	-9.90259
変え	-9.90345
戦いに	-9.90417
てくれた	-9.90448
祭を	-9.90477
わたしはこれを	-9.90565
安息日に	-9.90738
淫を行	-9.90914
二千	-9.91012
愚か	-9.91024
なわ	-9.91099
はじめ	-9.91153
わたしは彼らを	-9.91209
ハラ	-9.91317
仕事	-9.9132
葉	-9.91374
かま	-9.91381
なんと	-9.91386
求めた	-9.91391
に着いた	-9.91444
吹	-9.91548
耳に	-9.91562
おられます	-9.91622
獲た	-9.9165
み言葉	-9.91655
必	-9.91674
散	-9.91704
バビロンに	-9.91732
プ	-9.91743
よろしく	-9.91744
はなはだ	-9.91744
信頼	-9.91751
聞きいれ	-9.91776
しかも	-9.91811
まない	-9.91824
ひざ	-9.91828
頼み	-9.91829
おとめ	-9.91835
キシ	-9.91876
ごろ	-9.91889
えている	-9.91907
するように	-9.92066
男子	-9.92129
ことができようか	-9.92186
食べて	-9.92228
二万	-9.92242
もし人が	-9.92316
はしため	-9.92326
かしら	-9.92433
ある者	-9.9259
老い	-9.9261
の名によって	-9.92742
四百	-9.92824
殺され	-9.92999
上った	-9.93056
ることはできない	-9.93203
万軍の	-9.93207
といった	-9.93322
民はみな	-9.93394
祭司たちは	-9.93423
安息	-9.93472
を奪い	-9.93553
やもめ	-9.93591
ベツレヘム	-9.93595
ザドク	-9.93596
ラケル	-9.93596
やぐら	-9.93596
そんな	-9.93596
明らかに	-9.93598
いなご	-9.93599
そむいて	-9.9361
暗やみ	-9.93612
ぶどうの木	-9.93623
わたしたちの主イエス	-9.93625
永遠に	-9.93667
与える	-9.9368
今日まで	-9.9369
置く	-9.93702
ロテ	-9.93806
そばに	-9.93825
寄	-9.93828
使徒たち	-9.93912
までも	-9.94163
その口	-9.94221
留め	-9.94234
イエスは答え	-9.94426
その子孫	-9.9443
行け	-9.94472
三百	-9.94502
墓に	-9.94641
しもべは	-9.94824
救われ	-9.9483
この国	-9.94902
ずつ	-9.94941
主の言葉が	-9.95089
められた	-9.95328
ちまた	-9.95344
着物	-9.95353
叫んで	-9.95411
のかたわら	-9.95449
城	-9.95477
を憎む者	-9.95482
アブネル	-9.95482
ナフタリ	-9.95482
すみやかに	-9.95486
滅ぼされる	-9.95495
サタン	-9.95505
この女	-9.9551
やがて	-9.95529
行かれた	-9.95569
七人	-9.9558
神殿	-9.95626
東の方	-9.95655
ほしい	-9.95783
に住んだ	-9.95866
自分が	-9.95892
働	-9.95953
ささげなければならない	-9.9596
側に	-9.96233
ためであった	-9.96312
をさして	-9.96502
わたしのしもべ	-9.96522
自分の家	-9.96635
得た	-9.96687
与えた	-9.96872
第十	-9.97008
わたされ	-9.9701
のない者	-9.97057
この所	-9.97131
へ行き	-9.97286
ほどの	-9.97309
ガド	-9.9731
ペリシテびとは	-9.9733
たくわえ	-9.97406
主をほめたたえよ	-9.97406
のごとく	-9.97406
正しい人	-9.9757
ガテ	-9.97597
建てた	-9.97605
五十人	-9.97714
イスラエルの人々が	-9.97722
エラ	-9.97758
ことのない	-9.97771
むべき	-9.97796
わたしと一緒に	-9.97875
生かし	-9.97917
の皮	-9.9795
恐れて	-9.98042
これらのことを	-9.981
滅びる	-9.98168
たる者	-9.98476
破れ	-9.98553
するために	-9.98612
べきである	-9.98626
べた	-9.98949
葬られ	-9.99076
と答えた	-9.9916
イスラエルのすべての	-9.9929
ゼカリヤ	-9.99366
ゼブルン	-9.99366
ヘテびと	-9.99366
を結び	-9.9939
ご自身	-9.99437
五百	-9.99479
いても	-9.99561
ゲル	-9.99574
リヤ	-9.99607
幕屋の	-9.99669
作った	-9.99677
いなかった	-9.99729
悪しき者は	-9.99957
デヤ	-9.99989
六百	-10
おろし	-10.0003
楽	-10.0004
父の家	-10.0008
を喜ばせ	-10.0008
悪しき者の	-10.0013
信じた	-10.0047
山地	-10.0064
とおりである	-10.0071
開	-10.0082
と思った	-10.0086
ふたりは	-10.0092
わたしの子	-10.0093
彼らの上に	-10.0094
さお	-10.0102
聖徒	-10.0115
食べてはならない	-10.0116
殿	-10.0119
ことについて	-10.012
歩いて	-10.0126
ヒゼキヤは	-10.0131
エレアザル	-10.0132
さき	-10.0132
を出立して	-10.0137
シドン	-10.0137
手を伸べ	-10.0137
ソドム	-10.0137
その氏族によ	-10.0138
ナタン	-10.014
用意	-10.014
諸国民	-10.014
全体	-10.0142
結んだ	-10.0144
世々	-10.0149
その足	-10.0154
ささえ	-10.0156
のぼって	-10.0163
のようであった	-10.0163
したように	-10.0164
に従った	-10.0166
アム	-10.0169
のもとへ	-10.0188
から取り	-10.0191
すみか	-10.0191
彼らのうちに	-10.0198
をとり	-10.0209
から離れ	-10.0211
導	-10.0243
土地	-10.0247
なくなった	-10.0248
神である	-10.0249
ここで	-10.0251
を捕えて	-10.0255
をつかわして	-10.0271
なかったからである	-10.0284
をさばく	-10.0287
パンを食べ	-10.0295
孫	-10.03
その母	-10.0301
祈り	-10.0302
いました	-10.0309
を食い	-10.0317
なくなる	-10.0324
すべての者	-10.0327
ギベア	-10.0341
アロンとその子たち	-10.0341
高ぶり	-10.0341
ねたみ	-10.0341
進んだ	-10.0345
国々の民	-10.0346
同じように	-10.0348
ってきて	-10.0381
を殺す	-10.0381
歩き	-10.0392
に臨み	-10.0411
あなたの子	-10.0411
を汚し	-10.0416
いたく	-10.042
もしあなたがたが	-10.0425
しい者	-10.0431
恐	-10.0441
わたしの目	-10.0442
呼ばわって	-10.0444
ことがなく	-10.0446
治め	-10.0447
ていない	-10.0447
パリサイ人	-10.0483
多くの人	-10.0484
五人	-10.0501
できる	-10.0512
この日	-10.0529
次に	-10.0531
あなたがたの先祖	-10.0533
集める	-10.0539
ソロモン王	-10.0545
オン	-10.0546
アンモンびと	-10.0549
アハズ	-10.0549
おおよそ	-10.0549
ギベオン	-10.0549
かたくな	-10.0549
主の言葉がわたしに臨ん	-10.055
もっと	-10.0553
シラ	-10.0561
氏族の長	-10.0565
出される	-10.0592
主にむかって	-10.0592
いてはならない	-10.0593
上り	-10.0596
信仰によって	-10.0597
できない	-10.0603
を撃って	-10.0604
さばく	-10.0605
これを見て	-10.0606
怒って	-10.0606
殺された	-10.0607
パリサイ人たち	-10.0616
食べた	-10.062
一万	-10.0623
殺された者	-10.063
アイ	-10.0637
御使が	-10.0648
のがれて	-10.0662
若者たち	-10.0667
その町々	-10.0683
引	-10.0685
割礼を受け	-10.0694
野に	-10.0725
があろうか	-10.0726
勇	-10.0758
福	-10.0761
出て行った	-10.0761
シメイ	-10.0762
イザヤ	-10.0762
エッサイ	-10.0762
世を治めた	-10.0762
同様に	-10.0762
ほむべきか	-10.0762
コハテ	-10.0763
ともしび	-10.0766
心をつくし	-10.0767
父祖	-10.0767
上がって	-10.0779
とどめ	-10.0793
救い	-10.0795
に会う	-10.0795
のろわれ	-10.0801
歩く	-10.0805
だけで	-10.0809
彼女が	-10.0811
こう仰せられる	-10.0831
恐れた	-10.0844
示された	-10.0847
持っている	-10.0858
これによって	-10.0859
二頭	-10.0866
ことができるか	-10.088
とどまって	-10.0894
呼ばわり	-10.0896
くなった	-10.0904
ところで	-10.0904
テラ	-10.0908
める者	-10.0919
その人が	-10.0929
のようになり	-10.0941
しもべら	-10.0944
これらのもの	-10.0945
長老	-10.0946
義人	-10.0952
されない	-10.0954
与えられ	-10.0956
告げる	-10.0957
七日	-10.0972
行わなければならない	-10.0974
新	-10.0974
オリブ	-10.0978
アハジヤ	-10.0979
ヅ	-10.0979
エゼル	-10.0979
選ばれた	-10.0979
を選び	-10.0979
アセル	-10.0979
祭司長たち	-10.0979
あわれんで	-10.0979
いくさ	-10.098
雄やぎ	-10.098
コラ	-10.0991
五キュビト	-10.0992
帰ってきて	-10.1
頼む	-10.101
はいり	-10.1038
そのしもべ	-10.1055
させられた	-10.1059
近い	-10.1062
三つの	-10.1078
わたしはあなたがたを	-10.1085
そのような	-10.1088
定めた	-10.1089
備	-10.1091
生き物	-10.1091
ことができましょう	-10.1095
滅ぼした	-10.1101
あなたの子孫	-10.1102
これらの事を	-10.1112
との間に	-10.1125
この時	-10.1132
を持っている	-10.1141
供え	-10.1143
主に仕え	-10.1152
しるされ	-10.1161
ることができようか	-10.1169
を治める	-10.1172
イスラエルよ	-10.1181
と同じように	-10.1188
エリヤは	-10.1196
ミヅパ	-10.1201
感	-10.1201
アマジヤ	-10.1201
預言して	-10.1201
にそむいた	-10.1202
どこへ	-10.1203
ひそかに	-10.121
きました	-10.1212
開き	-10.1223
というのは	-10.1232
から救い	-10.1235
ハム	-10.1237
であれば	-10.1246
者たちが	-10.1253
書きしる	-10.1255
とどまる	-10.1263
に座し	-10.1267
のもとにきて	-10.1276
落し	-10.1278
の子孫である	-10.1282
導いて	-10.1282
に住んでいた	-10.1287
の周囲	-10.1294
地のすべての	-10.1299
それによって	-10.1308
送	-10.1311
られなかった	-10.1313
着せ	-10.1327
これらの事	-10.1329
尋ねて	-10.1332
ひれ伏して	-10.1341
このかた	-10.1341
につかわして	-10.1353
捕えられ	-10.1357
誇る	-10.1364
てくれる	-10.1369
隠	-10.137
全部	-10.137
主のために	-10.1402
起きて	-10.1405
帰ってきた	-10.1407
のもと	-10.141
ヨナタンは	-10.1411
その兄弟たち	-10.142
ぶんどり物	-10.1429
イシマエル	-10.1429
地のおもて	-10.1429
シマヤ	-10.1429
をおおう	-10.1429
ヨルダンを渡	-10.143
散らし	-10.1431
そしり	-10.1432
御座	-10.1432
バシャン	-10.1433
万人	-10.1433
淫行	-10.1434
約束された	-10.1441
近寄って	-10.1444
だれにも	-10.1448
に代って	-10.145
王に言った	-10.1468
できません	-10.147
子ども	-10.1471
みもとに	-10.1471
神の言	-10.1472
全き	-10.1472
守り	-10.1486
貧しい人	-10.1488
ダビデの町	-10.1492
タイ	-10.1494
わたしの所に	-10.1509
を救い	-10.1511
と思って	-10.1516
気をつけ	-10.1518
汚	-10.1519
入る	-10.1532
この言葉を	-10.1554
上着を	-10.1572
れさせ	-10.1575
てしまう	-10.158
声をあげ	-10.1592
を受けた	-10.1593
まわり	-10.1598
殺される	-10.1606
出て行く	-10.1607
ひも	-10.1616
食べさせ	-10.1619
使徒	-10.1623
集めた	-10.1635
あなたの兄弟	-10.1636
第四	-10.1652
勢	-10.166
に帰する	-10.1661
イッサカル	-10.1661
ナダブ	-10.1662
日の間	-10.1662
広場	-10.1664
三度	-10.1665
みんなの者	-10.1671
わざわいだ	-10.1672
五頭	-10.1676
はかり	-10.1676
みまえに	-10.1677
に入り	-10.168
エデ	-10.1682
葬った	-10.1686
御使たち	-10.1703
ハテ	-10.1713
を汚す	-10.1726
ナイ	-10.1739
が満ち	-10.1741
あなたがたと共に	-10.1742
イスラエルの人々のうち	-10.1754
に仕えた	-10.1766
初めの	-10.1769
があっても	-10.177
あなたのいつくしみ	-10.1782
王の前に	-10.1791
わたしと共に	-10.1808
ことができず	-10.181
うもの	-10.1818
すぐに	-10.1827
こうして彼らは	-10.1829
開かれ	-10.1831
父よ	-10.1857
住む者	-10.1864
の世に	-10.1872
をあらわし	-10.1894
ソ	-10.1899
罪を犯す	-10.1899
キリア	-10.1899
つまずき	-10.1899
石がき	-10.1901
父なる神	-10.1901
七日の間	-10.1903
に当った	-10.1904
をささげなければならない	-10.1922
ペル	-10.1922
建てる	-10.1929
良き	-10.1934
逃げて	-10.1938
であれ	-10.1938
守って	-10.194
おのが	-10.1955
を与えた	-10.1956
ラマ	-10.1959
いっ	-10.2022
バプテスマを受け	-10.2023
み手	-10.2051
その前に	-10.2054
でなく	-10.206
助	-10.2071
三つ	-10.2085
殺さ	-10.2089
いちじく	-10.2142
ピラトは	-10.2143
を選んで	-10.2143
メラリ	-10.2143
に向かい	-10.2143
ハナン	-10.2143
近づいた	-10.2143
こんな	-10.2143
どこから	-10.2143
たきぎ	-10.2144
つかわす	-10.2144
渡って	-10.2148
のその他の	-10.2152
ロト	-10.2154
主の命	-10.2165
聖徒たち	-10.217
持ち物	-10.2173
宝石	-10.2173
かご	-10.2189
ぜた	-10.219
パル	-10.2192
のままに	-10.2192
他人	-10.2194
と呼ばれる	-10.22
初めから	-10.2212
の手に渡され	-10.2232
ままで	-10.2236
信心	-10.2245
彼らと共に	-10.2253
たいと	-10.2257
のがれる	-10.227
行われる	-10.2293
住み	-10.2294
仰	-10.2322
を数え	-10.2336
泣き	-10.235
長い	-10.2352
るべきである	-10.236
のひとりが	-10.2368
恵	-10.2376
ちょうど	-10.2393
ネゲブ	-10.2393
ひじょうに	-10.2393
ハマテ	-10.2393
の族長	-10.2393
数えられた	-10.2396
ウリヤ	-10.2396
戦争	-10.2396
二度	-10.2397
にはいり	-10.2408
それとも	-10.2408
泣いた	-10.2415
むなしく	-10.2415
をとおって	-10.2419
にかなう	-10.243
御名	-10.2455
主は生きておられ	-10.247
ひれ伏し	-10.2491
者となり	-10.2496
手のわざ	-10.2505
連れてきて	-10.2513
こない	-10.2521
あらわれ	-10.2526
の産物	-10.2534
大水	-10.2552
答	-10.2554
呼ばわる	-10.2564
んではならない	-10.2571
いるのを見	-10.2577
そのうちに	-10.2584
時まで	-10.2602
おのの	-10.2616
すべての物	-10.2616
食べることができる	-10.2619
ならず	-10.2623
祈る	-10.2624
知れ	-10.263
われらの神	-10.2634
あまねく	-10.265
エホヤキム	-10.265
ギルガル	-10.265
ほら穴	-10.265
エズレル	-10.265
ピリポ	-10.265
あなたがたに言っておく	-10.265
オピヤ	-10.265
香ばしいかおり	-10.265
高ぶる者	-10.265
散らされ	-10.265
目をあげて	-10.2652
悟る	-10.2653
呼んだ	-10.2655
これがために	-10.2663
起す	-10.2666
ヨナ	-10.2668
見つか	-10.2677
現れた	-10.2685
三年	-10.2687
わす	-10.2694
聞いている	-10.2706
あなたがたに言う	-10.2709
りなく	-10.2716
と言われ	-10.2722
のことで	-10.2726
のまわりに	-10.2744
救い出し	-10.2759
せられた	-10.2761
用いる	-10.2778
の道は	-10.2795
を負わせ	-10.2801
にならない	-10.2808
にあずか	-10.2811
バテ	-10.2817
の全家	-10.2847
を求めて	-10.2859
叫んだ	-10.2871
と名づけ	-10.2877
イスラエルのすべての人	-10.2901
あげる	-10.2905
メレク	-10.2912
祝	-10.2912
ヒルキヤ	-10.2913
いと高き者	-10.2913
めいめい	-10.2913
ヘシボン	-10.2913
大ぜい	-10.2913
ふたたび	-10.2913
ラッパを吹き	-10.2913
セイル	-10.2913
あざけり	-10.2913
いにしえ	-10.2913
大声で	-10.2913
たずね	-10.2913
あわて	-10.2913
血を流し	-10.2913
アサフ	-10.2916
ではなかった	-10.2923
代々	-10.2925
ダビデ王	-10.2928
ゼラ	-10.2933
の一族	-10.2938
の治世	-10.2941
主にあって	-10.2947
憎むべき事	-10.2972
ただひとり	-10.2975
心のうちに	-10.2975
ヒラム	-10.2988
万軍の神	-10.3005
燔祭をささげ	-10.3021
を汚した	-10.3022
行こうと	-10.3055
多	-10.3068
立た	-10.3074
民は皆	-10.3103
を撃った	-10.3139
ることができなかった	-10.314
ひとりで	-10.3146
洗い	-10.3151
見える	-10.3152
建	-10.3154
一部	-10.3157
置	-10.3177
非	-10.3182
リベカ	-10.3183
ざくろ	-10.3183
そのいつくしみはとこしえに絶え	-10.3183
ひねもす	-10.3183
まっすぐに	-10.3183
エブスびと	-10.3183
いけにえ	-10.3183
そむく	-10.3183
尋ねる	-10.3184
喜んだ	-10.3185
ペルシャ	-10.3185
スリヤの王	-10.3186
野の獣	-10.3187
知恵ある者	-10.319
他の神々	-10.3191
数えられた者は	-10.3194
を負う	-10.3194
知っています	-10.3197
これは彼らが	-10.3199
おのれを	-10.3203
ということ	-10.3231
彼女に言った	-10.3233
返す	-10.3262
を知った	-10.3265
むだ	-10.3271
小さい者	-10.3281
ある人が	-10.3293
めとった	-10.33
ろうとして	-10.3313
わたしについて	-10.3314
大いなる者	-10.3315
連れてきた	-10.3324
さとし	-10.3324
あの人	-10.3331
せられ	-10.3343
おこ	-10.3344
が代って王となった	-10.3352
行こう	-10.3362
いかに	-10.3364
勝利	-10.3365
分け与え	-10.3372
主の家	-10.3381
ユダの家	-10.3381
神の前に	-10.3387
カナン	-10.3416
撃ち殺し	-10.3432
ことができなかった	-10.3445
。	-10.3458
の賜物	-10.3461
ほんとう	-10.3461
ボアズ	-10.3461
あいさつ	-10.3461
たくさん	-10.3461
マアカ	-10.3461
つかえめ	-10.3461
こちら	-10.3461
おとずれ	-10.3461
めぐらし	-10.3463
の代りに	-10.3463
ユダとエルサレム	-10.3465
不正	-10.3465
国の民	-10.3466
を打つ	-10.3469
わからない	-10.3472
心にとめ	-10.3473
大麦	-10.348
働く	-10.3484
それだから	-10.3488
の道に歩	-10.3494
父ダビデ	-10.3495
わが愛する者	-10.3496
ほふら	-10.3505
日々	-10.3505
動く	-10.3522
拝み	-10.3526
を受けいれ	-10.3544
わたしを助け	-10.3547
わたしにむかって	-10.355
次のとおりであ	-10.3569
汚れたもの	-10.3577
こられた	-10.3581
を負わ	-10.3588
叫ぶ	-10.3601
ことはありません	-10.3619
それを食べ	-10.363
ことになる	-10.363
明け	-10.3631
らぬ	-10.3639
に帰る	-10.3644
をもつ	-10.3662
にさわ	-10.3678
を作り	-10.3696
現れる	-10.3703
有	-10.373
悲	-10.3744
エホヤダ	-10.3747
犯した罪	-10.3747
かも知れない	-10.3747
エフタ	-10.3747
たちまち	-10.3747
うわさ	-10.3747
目をさまして	-10.3747
つながれ	-10.3747
悪を行う者	-10.3748
にむかい	-10.3748
なにゆえ	-10.3749
羊の群れ	-10.375
打たれ	-10.375
を持つ	-10.3753
よこしまな	-10.3764
あなたがたの所に	-10.3767
をあけ	-10.3773
きたるべき	-10.3775
ならぬ	-10.3781
を罰する	-10.3784
その中の	-10.3794
ようとしている	-10.3797
わたしのもとに	-10.3816
お聞き	-10.3818
つぐ	-10.3821
みつけ	-10.3838
終え	-10.3869
思って	-10.387
のようである	-10.3876
られるでしょう	-10.3881
召	-10.3892
滅ぼさ	-10.3917
の手に渡し	-10.3929
願って	-10.393
百二十	-10.3936
目の前に	-10.3947
食事をし	-10.397
神を恐れ	-10.3997
いただき	-10.404
アムノン	-10.4041
ベエルシバ	-10.4041
の前から追い払	-10.4041
あがなう	-10.4041
七日のあいだ	-10.4042
のぼり	-10.4043
にしたがい	-10.4044
自分自身	-10.4049
一度	-10.4054
ユダの町々	-10.4055
打ち場	-10.4059
のところにきて	-10.4061
わが君	-10.4062
をひき	-10.4065
嗣業として	-10.4066
の手によって	-10.4077
楽しむ	-10.4081
得よう	-10.4083
主の箱	-10.4091
自分の命を	-10.4104
わされ	-10.4104
先祖の神	-10.4112
を殺して	-10.4122
になっている	-10.4128
王の家	-10.4197
頼	-10.4285
罪人	-10.4296
万物	-10.4301
てほしい	-10.431
得ない	-10.431
高い所	-10.4319
と言わせ	-10.4329
ミデアン	-10.4337
主の契約の箱	-10.4344
ほふり	-10.4344
ウジヤ	-10.4344
オベデ	-10.4344
一歳の雄の小羊	-10.4344
イスラエルの聖者	-10.4344
火の中	-10.4346
衣服を洗	-10.4346
臨ませ	-10.4346
を断ち	-10.4347
あわれま	-10.4347
われわれの先祖	-10.4348
軍の長	-10.4349
知らず	-10.4356
設けた	-10.4357
アビヤ	-10.4359
をつけて	-10.4361
きわめ	-10.4367
といい	-10.4369
主が命じられた	-10.437
朝まで	-10.4371
歳であった	-10.4372
絶	-10.4374
三日目に	-10.4375
送る	-10.4376
語っている	-10.4379
海べ	-10.4382
追い出し	-10.4395
部分	-10.44
聖なる者	-10.4421
知者	-10.4429
天国	-10.4438
思っている	-10.4441
勝利を得	-10.4452
を撃ち殺した	-10.45
あわせ	-10.45
二年	-10.451
はじめた	-10.4549
イスラエルの人々に言	-10.4554
に会い	-10.458
そのうちの	-10.4582
者は皆	-10.459
良く	-10.4643
わたしの口	-10.4644
束	-10.4656
エズラ	-10.4656
寄留の他国人	-10.4656
恐ろしい	-10.4656
攻め上	-10.4656
死人の中からよみがえ	-10.4656
ひとりびとり	-10.4656
出身の	-10.4657
いずれ	-10.4657
ピラト	-10.4657
君たる者	-10.4658
日が来る	-10.4658
と呼ばれた	-10.4659
その境は	-10.466
を送って	-10.4661
ながく	-10.4664
これらの言葉を	-10.4666
シオンの娘	-10.4667
を見つけ	-10.4668
それに属する	-10.467
おおわれ	-10.4676
彼の手	-10.4686
ひとりの人が	-10.4686
わたし自身	-10.4692
の言葉を聞いて	-10.4704
つぼ	-10.4705
持ってきて	-10.4708
なすべき	-10.4712
とどまった	-10.4719
預言者エレミヤ	-10.4724
ためではなく	-10.4727
、	-10.475
宮を建て	-10.4769
わがしもべ	-10.4782
僕たち	-10.4805
あがないをし	-10.482
こともない	-10.485
になりました	-10.4892
にとどまってい	-10.4905
携えてきた	-10.491
父母	-10.4927
言われました	-10.4939
受けいれる	-10.4941
三十人	-10.4949
深	-10.4969
礼	-10.4977
サウロ	-10.4979
に及んだ	-10.4979
に油を注いで	-10.4979
アビヤタル	-10.4979
ナザレ	-10.4979
とこしえの	-10.4979
へりくだ	-10.4979
ラモテ	-10.4979
しきりに	-10.4979
めぐり	-10.4979
牧場	-10.498
いちじくの木	-10.498
アマレクびと	-10.4983
光栄	-10.4984
導かれ	-10.4987
乳香	-10.4987
安全	-10.4987
証言	-10.499
妻をめと	-10.4997
ボテ	-10.5
身を清め	-10.5001
おののき	-10.5004
上ってきて	-10.5008
書いた	-10.5025
行われ	-10.5035
捨てられた	-10.505
どこで	-10.506
やかに	-10.5067
言おう	-10.5088
出かけ	-10.513
ができ	-10.5201
人の心	-10.5221
わが名	-10.5227
びとの氏族	-10.5253
書物	-10.5262
ことができよう	-10.5263
の事について	-10.5287
いろいろ	-10.5312
シャルム	-10.5312
にゆだね	-10.5312
ケルブ	-10.5312
夕まで汚れる	-10.5312
祭壇の上で焼	-10.5312
アシラ像	-10.5312
預言する	-10.5312
あわれむ	-10.5313
報告	-10.5314
を呼び寄せ	-10.5314
子を産む	-10.5315
アラバ	-10.5319
いましめ	-10.5319
ミデアンびと	-10.5319
泣く	-10.532
持ってきた	-10.5321
なんでも	-10.5324
に住んで	-10.5328
エラム	-10.533
く起きて	-10.5335
の前に恵みを得	-10.5341
召された	-10.5342
と思われ	-10.5364
牧	-10.5369
供え物をささげ	-10.5378
老人	-10.5382
町の門	-10.5439
汚れた者	-10.544
望んでい	-10.5446
知っているとおり	-10.5471
になろう	-10.5473
かわいた地	-10.5475
に現れて	-10.5489
種入れぬパン	-10.5501
ご自分	-10.5532
を造る	-10.5546
連れて行き	-10.5558
言わない	-10.5559
ろうとする	-10.5587
エレミヤに臨んだ	-10.5595
受けいれ	-10.5602
なくても	-10.5616
万国	-10.5619
のなかに	-10.5634
開け	-10.564
王ひとり	-10.5652
バルナバ	-10.5657
ハナニヤ	-10.5657
いなずま	-10.5657
メシュラム	-10.5657
つるぎに倒れ	-10.5657
ナオミ	-10.5657
歌うたう者	-10.5657
立ちあがり	-10.5657
預言した	-10.5657
アドニヤ	-10.5657
さばかれる	-10.5657
カデシ	-10.5657
エフライムの山地	-10.5657
害を加え	-10.5657
主がモーセに命じられたとおり	-10.5657
よろず	-10.5657
バビロンの王ネブカデレザル	-10.5657
くださった	-10.5657
みなしご	-10.5657
苦しむ	-10.5658
カルメル	-10.5658
地上の	-10.5659
主の使は	-10.5659
エシュア	-10.566
青糸	-10.5661
親族	-10.5662
祭司エレアザル	-10.5665
すぐれた	-10.5666
んだ像	-10.567
心の中で	-10.5681
主に感謝	-10.5682
をおおって	-10.5686
コル	-10.5688
七日目に	-10.569
はこれである	-10.5692
地上に	-10.5727
を苦しめ	-10.5746
合わせ	-10.5758
にとどま	-10.5764
ことはしない	-10.5771
が起って	-10.5784
使者をつかわし	-10.5792
に聞き従わ	-10.58
を怒らせ	-10.5853
悲しむ	-10.5859
いやされた	-10.5861
をつくし	-10.5867
呼ばわった	-10.5871
つかわされ	-10.5911
住んだ	-10.5951
身を汚し	-10.5954
ことのないため	-10.5985
士	-10.6012
タルシシ	-10.6014
アカシヤ	-10.6014
あらかじめ	-10.6014
を切り倒し	-10.6014
ピネハス	-10.6014
ヨタム	-10.6014
荒れすたれ	-10.6014
わきまえ	-10.6015
門を守る者	-10.6018
をおおった	-10.6019
ふところに	-10.6019
ダビデの家	-10.6024
キリストにあって	-10.6027
ミカヤ	-10.6028
七月	-10.6035
勝つ	-10.6036
ためであり	-10.6037
これを攻め	-10.6042
何ゆえ	-10.6057
ゆるさ	-10.6061
あなたをほめたたえ	-10.6064
に負わせ	-10.6068
祝福される	-10.6074
奪われ	-10.6104
ベニヤミンの人々	-10.614
にあずかる	-10.6156
代って王となった	-10.6157
彼らに与え	-10.6177
のかしらたち	-10.6186
に当る	-10.6199
に下る	-10.6207
住まわせ	-10.6215
イエスにあって	-10.6255
むすこ娘	-10.6258
隠され	-10.627
に時があ	-10.6271
工人	-10.6277
に感謝せ	-10.6315
さまざまの	-10.6384
マアセヤ	-10.6384
よく言っておく	-10.6384
ナイル川	-10.6384
ベネハダデ	-10.6384
マケドニヤ	-10.6384
にすぎない	-10.6384
カレブ	-10.6384
テモテ	-10.6384
火で焼か	-10.6384
バアシャ	-10.6385
出入り	-10.6385
先見者	-10.6385
ンの子ヨシュア	-10.6385
主をほめ	-10.6387
ヘブルびと	-10.639
分け前	-10.6391
飲んだ	-10.6395
アヒヤ	-10.6398
結ぶ	-10.6399
モラ	-10.6406
ガドの子孫	-10.6413
しるされている	-10.6432
ギリシヤ人	-10.6473
信じる者	-10.6481
伝	-10.6481
しまう	-10.6519
を通らせ	-10.652
を荒し	-10.6522
をのろっ	-10.6528
尋ね求め	-10.6533
の祭を行	-10.6605
に座する	-10.6645
ようなものである	-10.6655
とりこ	-10.667
戒	-10.6673
そこへ	-10.6696
のくちびる	-10.6732
供え物として	-10.675
設	-10.6764
クロス	-10.6769
アビシャイ	-10.6769
エホアハズ	-10.6769
ヒビびと	-10.6769
酒ぶね	-10.6769
エルカナ	-10.6769
ハザエル	-10.6769
立ちあがって	-10.6769
あやまち	-10.6769
罪を犯させ	-10.6769
アマサ	-10.6769
カイン	-10.6769
ダリヨス	-10.6769
ベナヤ	-10.6769
実を結ぶ	-10.6769
きびしく	-10.6769
他国人	-10.6769
どういう	-10.6769
かさね	-10.6769
ひどく	-10.677
導き出された	-10.6772
を作って	-10.6773
雄羊一頭	-10.6774
ることのできる	-10.6775
勇気	-10.6775
天と地	-10.6777
を打って	-10.6779
ガザ	-10.6781
のようであり	-10.6784
引き上げ	-10.6786
生ける神	-10.679
愛する者たち	-10.6798
ヤコブの神	-10.6827
を満たしてい	-10.6835
様子	-10.6862
イスラエルの子ら	-10.6875
老	-10.6885
わたしが主であることを知る	-10.6905
こうべに	-10.6935
を守らせ	-10.6947
に答えて言	-10.6959
近寄	-10.7082
おののい	-10.7106
とどまり	-10.7122
にわたって	-10.716
スリヤ	-10.7165
に臨んで	-10.7165
徒	-10.7166
解き明かし	-10.7166
ネバテの子ヤラベアム	-10.7169
にもかかわらず	-10.7169
はっきり	-10.7169
をかえりみ	-10.7169
ザバデ	-10.7169
マナセの半部族	-10.7169
リンモン	-10.7169
主の目の前に悪を行	-10.7169
歌をうた	-10.7169
つむじ風	-10.7169
それだのに	-10.7169
つまずく	-10.7169
主の栄光が	-10.717
たましい	-10.717
イスラエルの人々の全会衆	-10.717
口づけし	-10.7171
兵士	-10.7171
荒れ地とな	-10.7171
合わせて十二人	-10.7172
寄留者	-10.7172
多かった	-10.7172
てもらいたい	-10.7173
おこなって	-10.7174
が起り	-10.7176
うぶん	-10.7176
不法	-10.7177
ラキシ	-10.718
宿っている	-10.718
ひとしく	-10.7182
罪に定め	-10.7183
下さった	-10.7188
と戦った	-10.7209
御国	-10.7213
アハシュエロス王	-10.7215
携えてきて	-10.7227
北の方	-10.7235
あなたがたに与え	-10.7247
かえして	-10.7249
気づ	-10.728
少なく	-10.7302
をあらわす	-10.732
泣いて	-10.7321
逃げ去った	-10.7357
よみがえらせ	-10.7365
働いて	-10.737
全きもの	-10.7383
かわいた	-10.7386
くちびるは	-10.7421
に満たされ	-10.7484
苦しめられ	-10.7491
除かれ	-10.751
あがる	-10.7552
に先立って	-10.7562
シュア	-10.758
ょ	-10.7586
ペレテ	-10.7586
近づき	-10.7586
エクロン	-10.7586
必ず殺されなければならない	-10.7586
シホン	-10.7586
ヤベシ	-10.7586
エジプトの王パロ	-10.7586
身をかがめ	-10.7586
ユフラテ川	-10.7587
持たない	-10.7587
通り過ぎ	-10.7587
を罰し	-10.7588
もう一度	-10.7588
はるかに	-10.7588
飲み食い	-10.7588
という名の	-10.7589
とびら	-10.759
諸教会	-10.759
五十キュビト	-10.7592
議会	-10.7592
のぼった	-10.7594
くずれ	-10.7604
肉を食べ	-10.7606
はいらせ	-10.7618
をつくり	-10.7628
の長さは	-10.7639
おさめ	-10.7653
声を聞いた	-10.7666
立ち去	-10.7668
の魂は	-10.7819
祭をささげ	-10.7862
を結んで	-10.7868
供	-10.7882
連れ出し	-10.7887
の庭に	-10.7954
共	-10.7966
愚	-10.798
を強くし	-10.8001
ユ	-10.8019
血を流す	-10.8021
にふさわしい	-10.8021
みだらな	-10.8021
ペリジびと	-10.8021
その子たちおよびその兄弟たち	-10.8021
ハガル	-10.8021
テムナ	-10.8021
ひずめ	-10.8021
の手に渡す	-10.8021
そばめ	-10.8021
の子孫のうちでは	-10.8021
さもないと	-10.8021
生ける者	-10.8021
会見の幕屋の入口に	-10.8022
遠く離れて	-10.8022
シオンの山	-10.8022
すわった	-10.8022
死なせ	-10.8023
オリブの木	-10.8023
あたり	-10.8023
かしの木	-10.8024
十二弟子	-10.8024
つかまえ	-10.8025
解放	-10.8026
を撃つ	-10.8027
によらず	-10.8032
かわいて	-10.8042
わかってい	-10.8049
となられた	-10.8061
の家来たちは	-10.8087
に出会	-10.8205
泣き叫	-10.8207
撃たれ	-10.8268
互	-10.8272
どおりに	-10.8277
を過ぎ	-10.8279
を造ら	-10.8347
泣き悲し	-10.8356
トビヤ	-10.8475
ベテシメシ	-10.8475
ラザロ	-10.8475
ローマ	-10.8475
おびただしい	-10.8475
アジヤ	-10.8475
エペソ	-10.8475
ゼルバベル	-10.8475
ニネベ	-10.8475
身をめぐらして	-10.8475
にまで及んだ	-10.8475
イゼベル	-10.8475
ゼルヤの子	-10.8475
乳ぶさ	-10.8475
大ぜいの群衆	-10.8475
福音を宣べ伝え	-10.8475
エジプト全国	-10.8475
油を注がれ	-10.8475
七たび	-10.8475
モーセの律法	-10.8476
こういう	-10.8476
をとおして	-10.8477
にいたるまで	-10.8477
千人の長	-10.8479
ほまれ	-10.8479
成長し	-10.848
を呼ぶ	-10.848
取り去られ	-10.8533
に話した	-10.854
のぼる	-10.8559
おそく	-10.8619
を撃たれた	-10.8693
服を着	-10.8749
の前から逃げ	-10.8767
の内で	-10.8855
を召して	-10.8903
ヘブル	-10.8945
放牧地	-10.8949
アルノン	-10.8951
アビガイル	-10.8951
ひょう	-10.8951
ゲダリヤ	-10.8951
ハダデゼル	-10.8951
ヘヅロン	-10.8951
アシドド	-10.8951
ナアマン	-10.8951
一生の間	-10.8951
同様である	-10.8951
水に身をすす	-10.8951
シナイ山	-10.8951
マキル	-10.8951
満たす	-10.8951
そそぎ	-10.8951
足なえ	-10.8952
火で焼き	-10.8952
たしかに	-10.8952
きっと	-10.8952
の知事	-10.8953
子を産み	-10.8962
につかせ	-10.8962
海の中	-10.8979
を放って	-10.8993
お告げにな	-10.9004
を清める	-10.9013
ンの荒野	-10.9018
に会った	-10.9049
イスラエルとユダ	-10.9061
に渡した	-10.9068
十八人	-10.9109
種入れぬ	-10.9172
留	-10.9277
求	-10.9331
ることもでき	-10.9369
くちびるを	-10.9419
アマレク	-10.9445
司	-10.945
注ぎ油	-10.9451
アナトテ	-10.9451
エホヤダの子ベナヤ	-10.9451
をさして誓う	-10.9451
アヒトペル	-10.9451
受くべき	-10.9451
アンテオケ	-10.9451
エホデ	-10.9451
オバデヤ	-10.9451
ヨルダンの向こう側	-10.9451
メデア	-10.9451
百人の長	-10.9451
香をたき	-10.9451
ふるまい	-10.9451
エリアブ	-10.9451
その家族にしたがって	-10.9451
の子らのうちでは	-10.9451
めぐみ	-10.9451
しかるに	-10.9451
と言えば	-10.9452
ただちに	-10.9452
ののしり	-10.9452
外国人	-10.9452
つねに	-10.9453
ることのできない	-10.9454
人を殺した者	-10.9454
足りない	-10.9458
どこにいるの	-10.9462
のあとについて	-10.9516
汚され	-10.9594
の実を食べ	-10.9679
と戦って	-10.9681
下さる	-10.9863
ことができます	-10.9947
主はこう仰せられ	-10.9949
スコテ	-10.9978
アサヘル	-10.9978
マッタニヤ	-10.9978
実を結ば	-10.9978
アタリヤ	-10.9978
ラハブ	-10.9978
お命じになった	-10.9978
アラビヤ	-10.9978
ハシャビヤ	-10.9978
おつかわしになった	-10.9978
オムリ	-10.9978
なまけ者	-10.9978
リブナ	-10.9978
ヘマン	-10.9978
ハンナ	-10.9978
夜が明け	-10.9978
どこにいるか	-10.9978
酒を飲んで	-10.9978
よろしい	-10.9978
こういうわけで	-10.9978
分かち	-10.9978
羊と牛	-10.9978
一か月	-10.9978
宮に仕えるしもべ	-10.9978
まむし	-10.9979
かわく	-10.9979
その解き明かしを	-10.9981
に喜ばれる	-10.9983
と書いてあるとおり	-10.9984
ままにしてお	-10.9986
を買う	-11.0004
かぎり	-11.0009
わたしをお救い	-11.0012
に着いて	-11.0016
すわる	-11.0017
を知ろうと	-11.0043
を洗って	-11.0067
へ連れて行	-11.0076
をめとって	-11.009
あなたのまこと	-11.0102
喜	-11.0114
過ぎて	-11.0224
に住ま	-11.024
見えるようにな	-11.0306
が主であることを知るようになる	-11.0338
くすしきみわざを	-11.0483
激	-11.0509
約	-11.0533
に聞き従う	-11.0533
川向こうの	-11.0533
おそらく	-11.0533
業	-11.0533
レパイム	-11.0533
男女の奴隷	-11.0533
に及ばない	-11.0533
ケイラ	-11.0533
ペレヅ	-11.0533
ホセア	-11.0533
男子と女子	-11.0533
若い雄牛一頭	-11.0533
あやまって	-11.0533
荒布をまと	-11.0533
香をたいた	-11.0533
清	-11.0652
割	-11.1746
衆	-11.2303
緒	-11.2776
泣	-11.279
叫	-11.3747
投	-11.3893
」	-11.4168
ー	-11.5639
再	-11.7745
逃	-11.7747
受	-11.8856
与	-12.0337
銅	-12.2095
祖	-12.4039
治	-12.5984
偶	-12.9928
畜	-14.4823
燃	-14.4884
裂	-14.4885
奴	-14.4886
隷	-14.4887
払	-14.4888
属	-14.4889
砕	-14.489
伸	-14.4891
乗	-14.4892
邦	-14.4893
最	-14.4894
周	-14.4895
以	-14.4896
犠	-14.4897
牲	-14.4898
―	-14.4899
及	-14.49
賜	-14.4901
選	-14.4902
携	-14.4903
伏	-14.4904
至	-14.4905
燔	-14.4906
悩	-14.4907
注	-14.4908
氏	-14.4909
契	-14.491
憎	-14.4911
攻	-14.4912
倒	-14.4913
焼	-14.4914
誓	-14.4915
犯	-14.4916
群	-14.4917
律	-14.4918
捨	-14.4919
壇	-14.492
追	-14.4921
集	-14.4922
向	-14.4923
預	-14.4924
ュ	-14.4925
尋	-14.4926
ャ	-14.4926
』	-14.4927
謝	-14.4928
嗣	-14.4928
聞	-14.4928
