<pad>	0
</s>	0
<unk>	0
¦	-1.27592
▁¦	-1.62767
▁	-3.13624
𐋇	-3.52942
e	-3.66898
i	-3.88802
a	-4.01743
o	-4.05987
▁,	-4.15553
di	-4.47312
il	-4.986
la	-5.0126
re	-5.02114
in	-5.33096
che	-5.39825
le	-5.40311
▁'	-5.44629
si	-5.4615
per	-5.4699
l	-5.52406
s	-5.56078
ri	-5.57971
n	-5.6051
te	-5.61773
de	-5.63746
no	-5.72038
▁:	-5.72127
con	-5.7249
non	-5.75299
ti	-5.78107
gli	-5.78672
da	-5.83987
ma	-5.84074
è	-5.89155
del	-5.9282
signore	-5.932
r	-5.93918
ò	-5.95799
to	-5.98135
se	-5.98864
c	-5.99928
mi	-6.00474
vi	-6.02152
un	-6.02178
lo	-6.04704
al	-6.06358
g	-6.07364
li	-6.10509
sa	-6.10938
ro	-6.12484
p	-6.14001
é	-6.15016
ci	-6.156
me	-6.17815
ne	-6.19587
▁;	-6.20328
«	-6.25233
ta	-6.25745
vo	-6.29852
loro	-6.30663
ra	-6.35154
▁.	-6.42837
suo	-6.46264
va	-6.5052
chi	-6.53835
t	-6.54011
d	-6.54245
ha	-6.55623
tu	-6.57512
f	-6.58068
dio	-6.5905
na	-6.61058
perch	-6.62632
ca	-6.66277
so	-6.68229
come	-6.70831
io	-6.70964
ato	-6.71019
m	-6.72675
nel	-6.73419
u	-6.74041
della	-6.75096
b	-6.76287
▁»	-6.76989
rà	-6.77432
ve	-6.78358
tutt	-6.80307
rono	-6.80591
ni	-6.84387
su	-6.86019
tuo	-6.86707
ce	-6.88869
sono	-6.89868
co	-6.89893
era	-6.90567
una	-6.95432
ranno	-6.97962
à	-6.98316
do	-6.98738
disse	-6.99978
sta	-7.01673
figli	-7.01675
ar	-7.02293
po	-7.04587
fi	-7.08512
fa	-7.10512
pa	-7.11271
figlio	-7.13399
pre	-7.14244
ba	-7.14333
alla	-7.15016
ndo	-7.15321
tra	-7.16032
nell	-7.17031
ver	-7.17179
dell	-7.18181
pro	-7.20747
sua	-7.21124
dal	-7.23835
giorn	-7.25182
egli	-7.255
mio	-7.26199
sc	-7.27265
pi	-7.28076
ì	-7.28287
rò	-7.31656
mo	-7.32866
quand	-7.35148
aveva	-7.35362
israel	-7.35881
quell	-7.3614
be	-7.37878
lui	-7.38583
tto	-7.38801
fu	-7.41038
ad	-7.41285
questo	-7.41471
padr	-7.43862
popolo	-7.44615
av	-7.44912
ga	-7.45528
rai	-7.48346
ho	-7.48886
vostr	-7.51182
far	-7.51711
contro	-7.52185
zione	-7.53144
anche	-7.53826
gio	-7.5557
quest	-7.55961
allor	-7.5627
and	-7.57082
cor	-7.57193
osì	-7.57363
terra	-7.57423
van	-7.5778
tà	-7.57813
que	-7.58072
dall	-7.58524
sul	-7.59409
uom	-7.59668
sti	-7.60465
sarà	-7.60702
acc	-7.62776
tua	-7.62887
paes	-7.63193
tutto	-7.63452
ste	-7.64554
z	-7.64709
erà	-7.64798
amo	-7.6603
sse	-7.6743
ora	-7.67764
bi	-7.67931
ai	-7.68226
città	-7.68884
casa	-7.70781
parol	-7.71282
par	-7.72023
mia	-7.72237
nti	-7.72937
ed	-7.7392
qual	-7.7447
ggi	-7.7519
nza	-7.76016
all	-7.76896
mos	-7.77439
vanti	-7.77573
nte	-7.78098
ru	-7.78469
essi	-7.79302
rete	-7.79785
ecco	-7.8053
ge	-7.81245
ogni	-7.81594
▁?	-7.82117
tti	-7.82559
im	-7.82816
tre	-7.82916
nostr	-7.83857
poi	-7.83989
one	-7.84337
go	-7.85348
v	-7.8586
ù	-7.85895
iù	-7.85942
porta	-7.86081
david	-7.86092
quant	-7.86173
vent	-7.86541
st	-7.88239
col	-7.88721
fatto	-7.89739
ab	-7.90624
k	-7.92476
torn	-7.92933
uomin	-7.93118
sull	-7.93742
am	-7.94179
ava	-7.94788
esù	-7.95932
bene	-7.96258
ate	-7.96546
due	-7.96616
mor	-7.97644
sso	-7.9788
bo	-7.97905
sto	-7.98841
alle	-7.99179
mie	-7.99376
sce	-7.99836
secondo	-8.01803
fratell	-8.02546
mano	-8.02812
mezzo	-8.03301
vers	-8.04962
dice	-8.0534
tta	-8.06013
fece	-8.06153
car	-8.06281
or	-8.06496
nta	-8.06499
cu	-8.07175
sacerdot	-8.07256
occhi	-8.09104
fatti	-8.09183
pu	-8.09231
han	-8.09242
can	-8.09645
noi	-8.10964
fino	-8.10977
rispose	-8.11616
for	-8.11764
mu	-8.12174
dun	-8.12556
giuda	-8.12589
vita	-8.12987
poich	-8.14858
molt	-8.15691
fer	-8.16008
cuor	-8.16421
fra	-8.16476
sia	-8.16776
cci	-8.16889
gerusalemm	-8.17277
zz	-8.17609
sei	-8.18644
quel	-8.19121
erò	-8.20005
giu	-8.20039
com	-8.20571
sor	-8.20578
du	-8.21445
anno	-8.2202
mani	-8.22436
israelit	-8.22837
tempi	-8.22972
prese	-8.23893
ano	-8.25802
zi	-8.2611
essa	-8.26594
agli	-8.28244
-	-8.29665
ciel	-8.29803
mort	-8.29889
sue	-8.30066
tutta	-8.31191
grande	-8.32801
cosa	-8.3323
pass	-8.33253
dove	-8.34262
za	-8.34264
dett	-8.34284
uno	-8.34325
ezza	-8.34864
cui	-8.35067
mentr	-8.35172
entr	-8.35409
nessun	-8.35596
port	-8.36087
dopo	-8.36402
parte	-8.36814
ser	-8.37112
lu	-8.3771
pen	-8.40052
sol	-8.4058
batt	-8.41164
ità	-8.41555
gia	-8.4187
regn	-8.42804
ch	-8.43628
mente	-8.43935
stess	-8.44592
egitt	-8.44651
mand	-8.44986
mar	-8.45556
zza	-8.45809
uto	-8.46594
parla	-8.46706
▁?»	-8.46768
male	-8.46947
servi	-8.47365
capi	-8.47391
fo	-8.47411
▁!»	-8.47436
▁».	-8.47458
mess	-8.47468
comp	-8.47488
anni	-8.48051
cento	-8.48117
ancor	-8.4831
stato	-8.48761
questi	-8.49169
cose	-8.49188
▁-	-8.49477
spirit	-8.49545
salv	-8.49959
via	-8.50029
ura	-8.5064
donn	-8.5116
gra	-8.51229
chiam	-8.5123
venne	-8.51376
capo	-8.51765
tempo	-8.52073
là	-8.53637
usci	-8.54138
pot	-8.54694
tri	-8.54981
semp	-8.55991
trib	-8.56251
segui	-8.5638
crist	-8.56477
spi	-8.56824
forse	-8.57711
por	-8.58503
legge	-8.5861
posto	-8.58765
senz	-8.58821
mont	-8.59188
gran	-8.59391
mento	-8.5977
sotto	-8.60363
sopra	-8.6054
ascolta	-8.60577
dato	-8.61762
trova	-8.61865
segn	-8.6202
alcun	-8.62293
qui	-8.62803
avet	-8.64096
eran	-8.64993
zion	-8.65644
esercit	-8.6579
mangia	-8.65992
abi	-8.66416
colp	-8.66524
dov	-8.67258
fuoc	-8.67377
voc	-8.67943
gua	-8.68061
mette	-8.68627
sette	-8.69083
ordin	-8.69542
ghe	-8.70107
bu	-8.70217
pien	-8.70513
giustizia	-8.7138
oggi	-8.71757
altri	-8.72101
altro	-8.72496
dur	-8.73297
ved	-8.73473
luogo	-8.73752
sion	-8.73775
sacrifici	-8.74627
essere	-8.74976
vesti	-8.74997
servo	-8.75741
altar	-8.75812
peccato	-8.76692
grid	-8.76705
empi	-8.77217
sangu	-8.77303
giust	-8.7748
spad	-8.7799
aver	-8.78431
propri	-8.78444
zia	-8.78941
pietr	-8.79033
menti	-8.79568
venut	-8.79838
qua	-8.80056
saul	-8.80538
parti	-8.81
tanto	-8.8106
solo	-8.81413
gett	-8.81876
alza	-8.82267
vien	-8.82344
comand	-8.829
cal	-8.832
presso	-8.83374
prima	-8.84346
guar	-8.84651
nemic	-8.86376
camp	-8.87219
assi	-8.87321
spe	-8.87704
famigli	-8.88284
ben	-8.88386
volta	-8.88542
pur	-8.88884
costru	-8.89039
pes	-8.89565
cad	-8.89903
liber	-8.8996
scritt	-8.90103
insiem	-8.90608
gloria	-8.90834
seppe	-8.91881
mon	-8.92303
popol	-8.92322
ger	-8.9306
cammin	-8.9319
bocca	-8.93191
acqua	-8.9346
giacobb	-8.93721
desert	-8.93817
abbiam	-8.93893
gente	-8.94945
sser	-8.95044
invec	-8.96055
cess	-8.96314
ossa	-8.9729
h	-8.97294
cerca	-8.97425
lascia	-8.97542
remo	-8.98274
moglie	-8.98965
cinque	-8.99203
abita	-8.99576
aronn	-9.00056
conosce	-9.00352
giude	-9.01129
angel	-9.01438
ebbe	-9.01451
nott	-9.01764
dicendo	-9.01973
buon	-9.02202
lavor	-9.02327
inter	-9.02734
tenda	-9.03081
ngo	-9.03134
offri	-9.0397
rebbe	-9.0465
gener	-9.04912
alz	-9.0562
acque	-9.06332
mmo	-9.06432
offert	-9.06487
dà	-9.06791
schiav	-9.0713
ssim	-9.07186
fat	-9.07231
quattro	-9.07704
faccia	-9.07721
nuov	-9.08017
nulla	-9.08318
scende	-9.08607
stava	-9.08611
prende	-9.08634
bell	-9.08701
piedi	-9.08824
santo	-9.08961
rest	-9.09025
nazion	-9.10425
causa	-9.10502
present	-9.11165
pian	-9.11787
profeti	-9.12087
alleanz	-9.12224
fede	-9.12489
argent	-9.13062
ghi	-9.13068
dimora	-9.13199
abram	-9.13416
senti	-9.14284
spos	-9.14444
babiloni	-9.15339
grazia	-9.15701
carne	-9.15847
salomon	-9.16003
▁?».	-9.16677
madre	-9.17037
diede	-9.18142
guerr	-9.18701
termin	-9.18719
olocaust	-9.19387
comuni	-9.19909
finch	-9.2008
bestia	-9.20084
anim	-9.2027
filiste	-9.20426
furon	-9.20544
pac	-9.20848
colu	-9.21182
abitant	-9.2281
numero	-9.2289
oltre	-9.22982
abbia	-9.23747
ricord	-9.23836
terr	-9.23944
arca	-9.24234
trov	-9.24326
diceva	-9.25268
fuor	-9.25761
discepol	-9.2652
lung	-9.2654
visto	-9.27062
prender	-9.28398
sape	-9.29613
uscit	-9.29786
chiamat	-9.29824
leviti	-9.29942
frutt	-9.30305
fedel	-9.30451
guarda	-9.30508
annunzi	-9.30671
udit	-9.30905
quindi	-9.31456
tratt	-9.3146
ciascun	-9.32225
riguard	-9.32607
fugg	-9.3297
anch	-9.33718
profeta	-9.33803
mond	-9.34762
strad	-9.34865
fronte	-9.35812
forza	-9.35903
osserva	-9.36233
giudic	-9.36349
cubit	-9.36652
luce	-9.37307
giunse	-9.37677
iniquit	-9.38706
vicin	-9.39123
lontan	-9.4029
immond	-9.40946
fosse	-9.41435
vuo	-9.41668
crede	-9.42252
riferi	-9.42641
dietr	-9.43605
allontan	-9.44082
genti	-9.45411
veder	-9.46036
poter	-9.46101
condott	-9.46161
tende	-9.46399
mattin	-9.47634
primo	-9.47876
arriv	-9.49036
domand	-9.49265
prostr	-9.49821
eredit	-9.51153
orecchi	-9.51599
venir	-9.52494
▁!».	-9.52563
anzi	-9.52792
pascol	-9.55972
volto	-9.56492
giordan	-9.56967
orient	-9.56971
cavall	-9.57478
etern	-9.58013
ascolt	-9.59282
anziani	-9.59506
santuari	-9.60019
segu	-9.60361
assal	-9.61096
legn	-9.61166
stranier	-9.61582
efraim	-9.61588
servizi	-9.61676
potenz	-9.61865
pezz	-9.62086
avvicin	-9.62183
fiss	-9.62631
dodici	-9.62673
peccat	-9.63549
ministr	-9.63704
destra	-9.63724
gregg	-9.63889
ognun	-9.64246
generazion	-9.64295
libr	-9.65329
insegna	-9.66561
terz	-9.67017
manger	-9.67018
stabil	-9.67042
mandat	-9.67327
malvagi	-9.6753
oggett	-9.67634
piant	-9.67684
partor	-9.67753
beniamin	-9.68088
bracci	-9.68089
agnell	-9.68149
misericordi	-9.69215
zer	-9.69271
cominci	-9.70359
stolt	-9.71201
marit	-9.71497
giovann	-9.71536
aiut	-9.72571
simil	-9.73308
giudizi	-9.73855
idol	-9.74039
ntro	-9.74545
possesso	-9.75047
fium	-9.75215
potent	-9.75315
sabat	-9.76539
region	-9.76732
punt	-9.77434
testimonianz	-9.77479
quarant	-9.78723
risponde	-9.79342
maestr	-9.79351
certo	-9.80037
giunt	-9.80151
scelt	-9.80334
avev	-9.80548
tocc	-9.80623
piet	-9.80636
misur	-9.80771
bambin	-9.81241
piccol	-9.81243
sappia	-9.81885
folla	-9.81894
,	-9.82041
convegn	-9.8253
appen	-9.82541
diritt	-9.83207
costu	-9.845
subit	-9.84629
nub	-9.85347
rovina	-9.85833
accampament	-9.85869
ordinat	-9.86051
decim	-9.8634
territori	-9.87164
uscì	-9.87166
abbandon	-9.88503
ripos	-9.8876
accoglie	-9.89224
venga	-9.89224
settim	-9.89365
brucia	-9.89914
cinquanta	-9.90613
tenebr	-9.90617
espiatori	-9.91317
giovenc	-9.91991
disprezz	-9.92026
cint	-9.92116
neppur	-9.92742
preghier	-9.92749
aspett	-9.94305
uccider	-9.94917
agit	-9.95071
copp	-9.9512
montagn	-9.95651
cambi	-9.95658
sdegn	-9.9566
settentrion	-9.9639
uccell	-9.9639
ezechi	-9.96391
primogenit	-9.97137
custodi	-9.97148
continu	-9.97889
qualcun	-9.97985
ariet	-9.98316
profum	-9.98734
stabilit	-9.99439
condusse	-10.0018
pecore	-10.0018
manàss	-10.0095
obbedi	-10.0095
incens	-10.0096
decret	-10.0097
riscatt	-10.0174
purifica	-10.0252
sorell	-10.0257
nascost	-10.0332
faceva	-10.0332
stend	-10.0389
campagn	-10.0412
manifest	-10.0492
distrugger	-10.0574
consacrat	-10.0574
.	-10.2602
"	-10.8673
q	-10.8853
(	-11.9476
»	-12.1462
:	-12.3783
j	-12.7248
;	-12.8054
9	-12.8498
’	-12.9927
?	-13.3149
]	-15.4415
0	-15.4416
8	-15.4417
7	-15.4418
5	-15.4419
4	-15.442
3	-15.4421
)	-15.4422
2	-15.4423
6	-15.4424
1	-15.4425
!	-15.4426
'	-15.4427
}	-15.4427
