<pad>	0
</s>	0
<unk>	0
,	-3.24465
▁e	-3.71865
▁di	-3.81911
a	-3.86182
▁il	-4.21665
e	-4.30932
▁a	-4.32373
o	-4.33473
▁	-4.36636
i	-4.38838
▁la	-4.44587
'	-4.53855
re	-4.57937
▁che	-4.6316
▁i	-4.75339
▁in	-4.76713
:	-4.81252
▁per	-4.83538
to	-4.91324
n	-4.93337
▁del	-4.98319
▁non	-5.02256
▁le	-5.05421
▁Signore	-5.06664
▁con	-5.07647
r	-5.10164
▁si	-5.13108
te	-5.19176
ri	-5.21323
u	-5.25837
;	-5.29442
no	-5.30413
▁un	-5.31946
▁«	-5.34491
▁è	-5.4171
▁dell	-5.42605
▁l	-5.44549
▁loro	-5.46741
ta	-5.4687
.	-5.49743
ti	-5.51757
ro	-5.51836
▁da	-5.54126
ra	-5.55586
▁al	-5.55829
▁re	-5.5824
s	-5.58663
▁gli	-5.60216
▁Dio	-5.61336
▁vi	-5.63132
g	-5.66942
ò	-5.70629
▁se	-5.72869
va	-5.73411
m	-5.75772
de	-5.77702
l	-5.79825
di	-5.799
▁ma	-5.81278
b	-5.81647
f	-5.82623
ni	-5.82767
le	-5.84332
»	-5.85511
na	-5.86325
▁perché	-5.87272
▁lo	-5.88382
▁come	-5.88696
▁dei	-5.93874
▁mi	-5.96377
la	-5.98374
▁A	-5.98964
▁nel	-5.99124
gli	-6.00163
▁ri	-6.00519
rà	-6.01318
ve	-6.03176
li	-6.03551
▁ha	-6.03599
ci	-6.0379
t	-6.04008
si	-6.05805
▁suo	-6.05933
▁me	-6.09012
▁sono	-6.09979
p	-6.11112
ato	-6.12572
▁te	-6.12603
▁una	-6.13864
▁o	-6.14499
se	-6.14646
▁E	-6.18073
me	-6.19923
ne	-6.20441
ca	-6.20774
▁s	-6.20794
▁d	-6.2125
▁nell	-6.22822
d	-6.23025
sa	-6.23831
▁c	-6.27636
so	-6.28817
ma	-6.2998
ce	-6.30176
▁disse	-6.30366
▁figli	-6.32358
▁alla	-6.32383
z	-6.32629
▁sua	-6.3304
▁io	-6.33158
▁mio	-6.33769
lo	-6.33979
vi	-6.34344
▁ti	-6.34395
▁tutti	-6.34706
▁tuo	-6.3555
mi	-6.36338
▁figlio	-6.36852
▁ne	-6.38537
▁Il	-6.38716
c	-6.38909
rono	-6.40509
or	-6.40516
nti	-6.40554
▁li	-6.40721
▁voi	-6.4173
à	-6.41995
▁Ma	-6.42
rò	-6.42875
▁de	-6.42947
nte	-6.46499
▁su	-6.47004
vano	-6.4743
▁tu	-6.4752
gi	-6.47861
ndo	-6.48163
▁suoi	-6.48785
▁fa	-6.48997
▁I	-6.49001
▁dal	-6.49146
sse	-6.49484
▁aveva	-6.49862
▁pre	-6.52587
tto	-6.52636
▁popolo	-6.54077
▁lui	-6.54945
co	-6.55498
vo	-6.56587
▁dall	-6.56775
▁sa	-6.57101
▁ai	-6.57545
mo	-6.57748
▁pro	-6.57806
rai	-6.6245
▁chi	-6.62461
ga	-6.62576
▁era	-6.62772
▁questo	-6.62987
ranno	-6.6514
▁ci	-6.6615
▁co	-6.66565
▁tra	-6.67077
▁fu	-6.67348
▁più	-6.68405
zione	-6.6872
▁terra	-6.69204
do	-6.69321
tti	-6.69899
tà	-6.6993
ste	-6.70689
po	-6.71597
▁sarà	-6.72574
▁contro	-6.73172
ì	-6.74177
da	-6.74331
▁Israele	-6.74516
erà	-6.74786
▁paese	-6.75056
▁sc	-6.77742
▁tua	-6.78088
▁città	-6.78525
▁ho	-6.78608
▁f	-6.78773
v	-6.79153
▁tutto	-6.80199
▁egli	-6.80287
▁C	-6.8093
▁casa	-6.81771
▁so	-6.84251
▁giorno	-6.85023
ggi	-6.86007
tta	-6.86361
tte	-6.88095
▁anche	-6.88508
▁mia	-6.88803
▁Se	-6.899
?	-6.90671
▁ad	-6.90853
are	-6.91357
ar	-6.91676
▁sull	-6.91928
ssi	-6.92376
▁ve	-6.92387
sci	-6.93337
▁davanti	-6.94192
ati	-6.94751
▁quando	-6.95122
▁sp	-6.95206
▁Davide	-6.95818
▁Non	-6.96169
er	-6.989
è	-6.99351
pa	-6.99398
go	-6.99424
▁b	-6.99915
sso	-7.00131
che	-7.0128
tu	-7.01579
sta	-7.02623
▁Allora	-7.02709
ssa	-7.02782
nta	-7.03271
▁sta	-7.03553
sti	-7.03649
▁pe	-7.038
pe	-7.03879
gu	-7.03972
▁uomini	-7.03985
ba	-7.04237
bi	-7.04482
ogni	-7.05655
▁Gesù	-7.06085
▁fatto	-7.06452
▁hai	-7.06489
▁all	-7.06959
chi	-7.07191
un	-7.07459
▁così	-7.10423
▁Si	-7.10476
▁tuoi	-7.10741
▁noi	-7.11094
▁po	-7.11186
nto	-7.11564
per	-7.12563
▁né	-7.13097
du	-7.14446
▁secondo	-7.15068
uomo	-7.17079
al	-7.17283
▁due	-7.17339
▁erano	-7.1895
▁sul	-7.19118
ate	-7.19581
arono	-7.19725
▁dice	-7.19958
▁Io	-7.20503
uto	-7.21125
▁pu	-7.21465
▁G	-7.21899
▁porta	-7.22007
▁Giuda	-7.22287
▁ed	-7.22601
▁mezzo	-7.23073
lle	-7.23709
▁Mosè	-7.23723
▁tutte	-7.24068
rete	-7.25569
▁pi	-7.25766
▁La	-7.26305
▁va	-7.26368
▁Gerusalemme	-7.26659
▁degl	-7.27409
▁hanno	-7.27921
▁mano	-7.29145
▁quel	-7.29405
sce	-7.2955
zza	-7.29934
▁P	-7.30143
▁ra	-7.3229
lla	-7.32509
▁fi	-7.32566
anno	-7.32645
▁fino	-7.32667
▁vol	-7.32819
▁padre	-7.332
bo	-7.3349
ano	-7.3371
nza	-7.33996
▁Israeliti	-7.34266
▁occhi	-7.34571
erò	-7.35091
pi	-7.3621
▁be	-7.37002
▁tre	-7.37032
▁do	-7.37184
▁essi	-7.3768
sto	-7.38032
▁sue	-7.38344
▁vita	-7.38602
▁nome	-7.38655
ru	-7.38686
an	-7.38774
▁cuore	-7.38842
▁ciò	-7.38943
gno	-7.40965
▁vers	-7.41813
-	-7.41823
nda	-7.42113
▁cui	-7.42241
▁questa	-7.42497
▁tempio	-7.43689
▁tutta	-7.44096
llo	-7.44672
▁grande	-7.44687
▁Quando	-7.45902
▁parola	-7.45904
▁alle	-7.46285
▁Egli	-7.46334
▁fra	-7.46705
▁giorni	-7.4681
el	-7.4698
▁col	-7.48523
▁In	-7.48841
▁dunque	-7.49182
▁cosa	-7.49591
rti	-7.49672
eranno	-7.498
▁p	-7.50023
▁rispose	-7.5005
▁mani	-7.50129
▁poi	-7.51405
!	-7.51451
▁quelli	-7.51945
▁Per	-7.52221
▁Chi	-7.52363
▁sei	-7.52364
▁u	-7.52556
▁quant	-7.52653
▁acc	-7.5298
▁miei	-7.5375
▁dove	-7.53885
▁t	-7.5473
ver	-7.54879
Egitto	-7.55055
▁-	-7.5531
?»	-7.56168
▁uno	-7.56177
▁ven	-7.5637
!»	-7.56419
mente	-7.56924
».	-7.57477
io	-7.58785
▁capi	-7.59193
▁Di	-7.59484
▁fece	-7.59531
▁cose	-7.59813
am	-7.60302
one	-7.60772
▁capo	-7.61309
k	-7.61329
sco	-7.62385
▁servi	-7.62904
▁tempo	-7.63103
▁infatti	-7.6346
▁senz	-7.63653
rsi	-7.6389
lli	-7.63931
▁parte	-7.65428
▁parole	-7.65455
cchi	-7.65891
▁trova	-7.66564
▁male	-7.66996
▁Poi	-7.67311
▁ancora	-7.67485
A	-7.67912
▁uomo	-7.68068
rlo	-7.68322
▁nostro	-7.68622
cco	-7.68718
zia	-7.6879
▁Cristo	-7.69371
par	-7.69524
▁Mi	-7.6976
in	-7.69859
▁fratelli	-7.69943
cu	-7.69957
amo	-7.69993
▁O	-7.70023
ul	-7.70259
▁cielo	-7.70721
h	-7.70722
▁vostro	-7.71486
▁sopra	-7.71618
▁poiché	-7.71889
ch	-7.71892
▁sotto	-7.72052
▁saranno	-7.72098
▁mentre	-7.72856
▁B	-7.73278
▁par	-7.73435
▁quale	-7.73711
▁sempre	-7.73847
mento	-7.73864
▁bene	-7.74079
ad	-7.74477
▁quello	-7.74547
▁sia	-7.75429
▁detto	-7.76021
▁legge	-7.76263
▁allora	-7.76294
▁ver	-7.76735
▁vostri	-7.76877
▁fuoco	-7.76882
▁Così	-7.77494
min	-7.77786
▁Gli	-7.78538
▁Le	-7.78645
▁dopo	-7.78732
▁sacerdote	-7.79579
▁stato	-7.80759
▁S	-7.80824
zioni	-7.81071
▁F	-7.811
▁avete	-7.81324
▁Ora	-7.81937
▁tue	-7.82323
fa	-7.824
▁luogo	-7.83228
▁ce	-7.83305
▁mie	-7.8337
▁prese	-7.83808
Israele	-7.83955
on	-7.84875
▁and	-7.85077
▁peccato	-7.85439
▁anni	-7.85705
▁forse	-7.85821
erai	-7.8615
▁Ecco	-7.86604
▁servo	-7.86796
▁altri	-7.87255
▁ecco	-7.87727
▁Sa	-7.8797
▁queste	-7.88162
▁giustizia	-7.88172
▁comp	-7.88254
▁essa	-7.88351
▁fede	-7.88629
▁ar	-7.88894
oro	-7.89623
▁ascolta	-7.9001
▁no	-7.90119
▁morte	-7.90325
▁pot	-7.90371
▁prende	-7.90488
▁sangue	-7.90714
▁Saul	-7.91003
▁mor	-7.91461
za	-7.9155
sero	-7.91877
▁gr	-7.9201
▁questi	-7.92582
ata	-7.92806
▁padri	-7.92857
S	-7.93059
▁essere	-7.93122
▁L	-7.93349
cca	-7.93555
▁solo	-7.93692
▁spada	-7.93834
▁Da	-7.94893
q	-7.95045
▁nessuno	-7.95252
tori	-7.95311
pre	-7.95346
▁V	-7.9551
▁sacerdoti	-7.96284
era	-7.9743
▁m	-7.97821
ava	-7.98004
▁voce	-7.98307
▁sette	-7.98541
udi	-7.98661
▁fare	-7.98864
cc	-7.98929
▁stesso	-7.99326
▁là	-7.99615
▁regno	-7.99795
mila	-7.99998
lu	-8.00007
▁fratello	-8.00093
▁aff	-8.00181
▁parla	-8.00523
altare	-8.00612
stra	-8.00705
▁insieme	-8.01394
▁prima	-8.01396
tura	-8.01774
cento	-8.02211
▁chiama	-8.02288
▁dai	-8.02357
▁mette	-8.02386
tevi	-8.02663
▁dato	-8.02925
mmo	-8.03223
▁pass	-8.03249
Non	-8.03345
cci	-8.03411
▁gener	-8.03512
fer	-8.03641
acqua	-8.04084
▁Giacobbe	-8.0432
▁dis	-8.05078
glio	-8.05199
▁furono	-8.05257
stru	-8.05372
presso	-8.05586
▁gloria	-8.05795
▁Quest	-8.05895
▁tribù	-8.05953
▁Ne	-8.06105
T	-8.06184
▁Perché	-8.0619
▁bocca	-8.0623
▁donna	-8.06836
mmi	-8.06864
rmi	-8.07049
▁dov	-8.07581
▁pote	-8.0792
▁passa	-8.07956
E	-8.08279
col	-8.08442
ando	-8.08758
con	-8.08881
▁compi	-8.09134
▁vesti	-8.09604
▁qual	-8.09656
▁Su	-8.09703
▁moglie	-8.09923
oni	-8.10006
▁Al	-8.10162
▁ora	-8.10729
▁por	-8.10929
▁aver	-8.11217
▁Eli	-8.11556
▁deserto	-8.11596
▁Aronne	-8.11597
gni	-8.11844
▁quella	-8.11941
▁far	-8.12004
tra	-8.12127
zio	-8.12383
▁Ti	-8.12797
▁dicendo	-8.12876
fica	-8.13085
▁Tu	-8.13432
▁via	-8.14058
▁buon	-8.14259
im	-8.14305
tò	-8.15003
▁invece	-8.15155
▁siete	-8.15297
▁quali	-8.15391
▁rest	-8.15786
▁oggi	-8.15997
▁sap	-8.16256
ene	-8.16919
▁popoli	-8.16963
▁Me	-8.17614
▁piedi	-8.17896
▁mondo	-8.17899
▁for	-8.18148
ghe	-8.18213
▁Be	-8.18893
I	-8.1907
▁monte	-8.19149
▁abbiamo	-8.1944
▁tenda	-8.19629
▁N	-8.19697
▁causa	-8.19758
▁posto	-8.19955
iti	-8.20092
▁usc	-8.20147
▁gia	-8.20585
▁qui	-8.20705
▁Ri	-8.20951
▁faccia	-8.21508
▁appar	-8.21672
▁abita	-8.21717
ssero	-8.22
▁mai	-8.2223
▁gio	-8.22522
ccia	-8.2271
remo	-8.23101
rvi	-8.23243
argento	-8.23284
▁nulla	-8.23939
▁notte	-8.24114
zzi	-8.24198
▁colui	-8.24282
alleanza	-8.24365
▁Che	-8.24712
P	-8.25001
▁n	-8.25045
▁Babilonia	-8.2526
▁carne	-8.25266
▁mise	-8.25278
C	-8.25339
▁R	-8.25966
▁Salomone	-8.26264
▁eserciti	-8.266
▁profeti	-8.26601
▁gente	-8.26601
?».	-8.26624
▁madre	-8.26625
▁nostri	-8.26969
▁entr	-8.27027
▁U	-8.27182
▁mare	-8.27367
rci	-8.28347
▁alcun	-8.28545
▁cap	-8.28805
▁present	-8.28966
▁conosce	-8.29014
▁lascia	-8.29471
▁spirito	-8.29683
sione	-8.2989
▁nemici	-8.30034
▁mangia	-8.30046
▁Poiché	-8.30401
▁vostra	-8.30734
▁porte	-8.30794
arca	-8.31157
▁dissero	-8.31356
▁sacrificio	-8.31519
▁Un	-8.31806
rebbe	-8.32151
▁gran	-8.32231
▁offri	-8.32505
▁numero	-8.32505
▁quanti	-8.32545
▁abitanti	-8.33054
▁parti	-8.33252
D	-8.33385
▁cerca	-8.3342
▁diede	-8.33607
iamo	-8.33649
nna	-8.33926
▁avr	-8.33962
▁faraone	-8.34313
▁pane	-8.34333
nne	-8.34386
▁venne	-8.34502
▁entra	-8.34597
▁vostre	-8.34676
▁farò	-8.34694
▁ama	-8.34778
▁molto	-8.35042
▁senti	-8.35191
èl	-8.35271
▁Lo	-8.35437
mon	-8.3595
▁Na	-8.36102
▁finché	-8.36157
▁andò	-8.36331
spi	-8.36393
sca	-8.36644
▁cal	-8.37508
▁molti	-8.37644
▁avrà	-8.37833
bile	-8.38074
ù	-8.38328
erete	-8.38674
▁visto	-8.39061
▁grazia	-8.39163
▁segui	-8.39443
V	-8.39448
▁rende	-8.39588
▁color	-8.39897
altra	-8.40218
zzo	-8.40499
▁dico	-8.40706
▁Padre	-8.40706
▁leviti	-8.40725
ber	-8.40953
▁pace	-8.41112
▁giur	-8.41498
▁Con	-8.41519
▁benedi	-8.41693
▁venti	-8.41985
endo	-8.42026
▁verità	-8.42275
▁fuori	-8.43115
▁profeta	-8.43459
▁cioè	-8.43467
▁nuovo	-8.43515
▁quattro	-8.43828
▁acque	-8.43872
▁cant	-8.44092
▁primo	-8.44263
▁altro	-8.4456
▁Giudei	-8.44664
▁Giosuè	-8.45069
ghi	-8.45083
▁figlia	-8.45393
Ecco	-8.45512
▁Abramo	-8.45802
▁fronte	-8.45887
▁Giuseppe	-8.46294
▁abbandon	-8.46294
ppi	-8.46759
▁inter	-8.4751
▁vede	-8.47653
▁Filistei	-8.4795
▁Essi	-8.48111
▁luce	-8.48393
▁Pa	-8.48521
▁Vi	-8.488
▁gioia	-8.48822
dur	-8.48926
▁grida	-8.49214
▁Come	-8.49225
M	-8.49315
▁viene	-8.4975
▁qua	-8.49944
▁farà	-8.50028
▁discepoli	-8.5006
▁comanda	-8.50062
▁torna	-8.50063
▁Spirito	-8.50487
cur	-8.5051
▁volta	-8.50624
▁nazioni	-8.50925
▁siamo	-8.51645
▁pens	-8.52081
▁fosse	-8.52358
▁vide	-8.53056
▁crede	-8.53122
▁mese	-8.53443
▁salva	-8.53864
▁grandi	-8.53911
▁giusto	-8.54418
▁opere	-8.54445
▁Anch	-8.54514
▁alza	-8.54619
▁Figli	-8.54907
▁guerra	-8.55312
cò	-8.55652
▁cinque	-8.56031
▁teme	-8.56081
▁Figlio	-8.56166
ino	-8.5664
▁sui	-8.56652
▁ricord	-8.56671
▁Ed	-8.56881
unque	-8.57247
▁stava	-8.57437
▁corpo	-8.57593
▁forza	-8.57651
▁pal	-8.58035
▁sé	-8.58052
▁stati	-8.58118
▁Bet	-8.58258
▁Re	-8.58431
▁Rispose	-8.58509
ordine	-8.58518
▁signore	-8.5853
altro	-8.58654
▁santi	-8.58875
▁uscire	-8.59004
▁Tutt	-8.59299
▁De	-8.5956
▁Ta	-8.59588
▁D	-8.59627
▁ritorn	-8.59922
offerta	-8.60383
▁sali	-8.60434
▁Perciò	-8.60859
▁guard	-8.60927
▁Ha	-8.61333
▁costrui	-8.61339
▁radun	-8.61345
▁fin	-8.61898
Se	-8.61969
▁colpi	-8.62025
▁abbia	-8.62149
olio	-8.62354
▁prostr	-8.62554
▁fine	-8.62562
▁cubiti	-8.62775
▁famiglia	-8.62775
!».	-8.63159
▁stabili	-8.63329
stri	-8.63451
ent	-8.63525
▁allontan	-8.63749
▁rivolt	-8.6375
▁dieci	-8.64149
▁donne	-8.64335
▁osserva	-8.64525
angelo	-8.64731
▁cieli	-8.64761
▁pascol	-8.65227
▁com	-8.65267
▁bestiame	-8.65315
▁Fa	-8.65538
▁divenne	-8.66232
▁dimora	-8.66302
▁mangiare	-8.66708
▁cas	-8.66967
ntro	-8.66998
▁riferi	-8.67238
▁libera	-8.67284
▁fecero	-8.67927
▁testa	-8.67937
▁Giordano	-8.68249
▁campo	-8.6825
▁ciascuno	-8.69031
▁Ci	-8.69185
▁mandò	-8.69277
▁anziani	-8.69281
▁arriv	-8.69373
▁Sal	-8.69686
▁strada	-8.69799
atore	-8.70408
▁alcuni	-8.7063
▁cammin	-8.70662
▁piant	-8.71813
acqu	-8.72345
▁proprio	-8.72427
▁Moab	-8.72439
▁Dopo	-8.72964
▁sole	-8.72971
▁Efraim	-8.735
▁santuario	-8.735
▁scritto	-8.73505
Che	-8.73867
▁morti	-8.73878
▁servizio	-8.74131
▁nostra	-8.74132
▁dura	-8.74152
rne	-8.74329
▁tale	-8.74586
▁ebbe	-8.74694
▁consegn	-8.75148
▁messo	-8.75348
▁destra	-8.76027
▁modo	-8.7625
ccio	-8.76536
▁intorno	-8.76789
▁soff	-8.76838
▁malvagi	-8.77346
▁presenza	-8.77515
▁Abi	-8.78275
rli	-8.78424
▁riguardo	-8.78473
▁lontano	-8.78482
▁Tutti	-8.78506
▁potenza	-8.78608
▁uccide	-8.79042
▁Questi	-8.7934
▁que	-8.79605
▁opera	-8.79778
▁stata	-8.79842
olocausto	-8.80187
▁andare	-8.80566
▁genti	-8.80766
▁alzò	-8.80781
▁Voi	-8.80804
▁getta	-8.81451
▁sacrifici	-8.81797
▁oltre	-8.81932
▁chiamò	-8.81933
▁Paolo	-8.81935
▁trono	-8.81967
▁potere	-8.82377
▁So	-8.82471
▁libro	-8.82534
▁morire	-8.82616
▁cari	-8.82778
▁giudizi	-8.83112
▁peccati	-8.83113
Il	-8.83158
▁Li	-8.83868
▁forte	-8.84203
▁possesso	-8.84306
▁salvezza	-8.84307
▁Te	-8.84525
▁ordinato	-8.84535
oriente	-8.84535
L	-8.8486
▁abit	-8.84881
▁famiglie	-8.84908
esercito	-8.8491
▁quelle	-8.8518
▁Achi	-8.85197
▁bat	-8.85484
▁bracci	-8.85542
▁cento	-8.85637
▁santo	-8.85783
▁vedere	-8.85837
▁salv	-8.85918
▁empi	-8.85957
▁Mentr	-8.86127
▁ferm	-8.869
▁comunità	-8.87355
▁padrone	-8.87355
▁lavoro	-8.87408
▁Giovanni	-8.87976
▁venire	-8.88044
▁mandato	-8.88066
▁venuto	-8.88258
▁fuggi	-8.88319
▁monti	-8.88637
▁Dice	-8.88657
▁sol	-8.89165
▁Pietro	-8.8923
▁quindi	-8.89867
▁Ze	-8.89888
▁Sion	-8.90159
▁parlare	-8.9047
▁Beniamino	-8.90499
▁cammina	-8.90721
rla	-8.90905
▁pietra	-8.91143
▁verrà	-8.91308
▁Santo	-8.92037
▁gett	-8.92323
▁diventa	-8.92334
▁guarda	-8.92341
▁manda	-8.92426
▁dodici	-8.92439
▁convegno	-8.92442
▁folla	-8.92443
▁sorte	-8.92478
▁cost	-8.92527
bili	-8.92695
▁misericordia	-8.93089
▁sapienza	-8.93089
ngono	-8.93198
▁preso	-8.93217
▁annunzia	-8.93315
▁ripos	-8.93402
▁giusti	-8.93701
▁chiamato	-8.94262
▁rovina	-8.95076
▁divent	-8.95573
▁ognuno	-8.95747
B	-8.95836
▁mostr	-8.9584
▁lingua	-8.96422
▁insegna	-8.96484
anima	-8.96667
▁combatt	-8.9711
▁iniquità	-8.97197
▁Sono	-8.97717
▁Geremia	-8.97787
▁terzo	-8.97788
anni	-8.97818
ppena	-8.98482
▁mura	-8.98483
▁udito	-8.98513
▁Ioab	-8.98516
endi	-8.98598
F	-8.98605
▁avev	-8.98771
▁risponde	-8.99172
▁eredità	-8.99172
Perché	-8.99314
▁Quant	-8.99871
▁Ghe	-8.99888
▁brucia	-9.00197
▁accamp	-9.00573
▁frutto	-9.00576
▁generazione	-9.00582
▁timore	-9.00597
▁nessun	-9.01404
▁fatti	-9.01428
▁bast	-9.01608
▁distrugge	-9.01999
▁disprezz	-9.02
▁lungo	-9.02721
▁nascos	-9.02722
▁torre	-9.02731
▁Samuele	-9.03443
▁pietre	-9.03443
▁scende	-9.03443
▁ministri	-9.03444
▁vicino	-9.0348
R	-9.03654
▁vot	-9.03864
bbero	-9.04516
▁quest	-9.04834
▁testimonianza	-9.04909
accampamento	-9.04914
▁Mo	-9.05034
▁incontro	-9.05655
▁condotta	-9.05658
▁quarant	-9.0567
▁consigli	-9.05851
▁sabato	-9.06412
▁denaro	-9.06412
▁discendenza	-9.06459
▁altre	-9.06479
▁diritto	-9.06551
▁To	-9.06654
▁decim	-9.06802
▁valle	-9.06853
▁Isacco	-9.07148
▁cavalli	-9.07148
▁voglio	-9.07152
▁rimase	-9.07251
▁sappia	-9.07252
▁Ezechia	-9.07904
▁uscì	-9.08177
▁discende	-9.08603
▁Gàlaad	-9.08668
▁territorio	-9.08668
▁perciò	-9.08725
▁marito	-9.08776
▁chiunque	-9.08892
▁anch	-9.08906
▁vende	-9.09298
▁Ho	-9.09437
▁immondo	-9.09441
▁simile	-9.09465
▁regione	-9.10215
▁subito	-9.10221
▁mattino	-9.10229
▁cav	-9.10231
▁quegli	-9.10546
▁Manàsse	-9.10993
▁neppure	-9.10993
▁idoli	-9.11018
cinque	-9.11312
▁prest	-9.11409
▁forma	-9.1155
▁possa	-9.11659
▁custodi	-9.11781
▁govern	-9.11781
▁continu	-9.11782
▁pecore	-9.11793
▁tal	-9.11837
empio	-9.12287
▁festa	-9.12587
▁condusse	-9.12717
bbiamo	-9.12822
Chi	-9.12922
ché	-9.13205
▁Nell	-9.13344
▁Baal	-9.13383
▁pietà	-9.13385
▁riscatt	-9.13403
▁morì	-9.13774
▁esser	-9.14111
▁dietro	-9.14184
▁carri	-9.14192
▁andarono	-9.14482
▁Can	-9.14819
▁purifica	-9.14995
▁Fece	-9.15003
▁manifest	-9.15814
▁qualcuno	-9.15814
▁abbatt	-9.15815
▁onore	-9.15932
▁divora	-9.16035
▁sazi	-9.16669
▁espiatorio	-9.17473
▁Samaria	-9.17473
▁orecchi	-9.17633
▁faceva	-9.17781
stro	-9.18218
▁riceve	-9.18327
▁Zi	-9.18338
▁sorge	-9.19165
▁rimane	-9.19171
▁tocca	-9.19202
▁Giònata	-9.20016
▁olocausti	-9.20016
ingresso	-9.20016
▁Oracolo	-9.20019
▁All	-9.20715
▁cade	-9.21094
Dov	-9.21171
▁battaglia	-9.21747
▁cinquant	-9.21747
▁gregge	-9.21747
▁polvere	-9.21748
▁bestie	-9.21755
▁stessa	-9.21772
▁commett	-9.21774
N	-9.22213
▁speranza	-9.22625
▁avvicina	-9.22626
▁nemico	-9.22629
▁nostre	-9.22664
▁campagna	-9.2351
▁giudica	-9.2351
▁pratica	-9.2351
▁soltanto	-9.2351
▁giovani	-9.23512
Assiria	-9.2352
▁lavora	-9.2361
▁comandi	-9.24403
▁deport	-9.24404
▁giovane	-9.24404
▁eterna	-9.24405
▁avvi	-9.2533
▁cess	-9.26181
assemblea	-9.26213
▁paura	-9.26213
▁Dimora	-9.26216
incenso	-9.26224
▁sicli	-9.26238
▁anzi	-9.26269
▁veniva	-9.26518
▁Assalonne	-9.2713
▁Daniele	-9.2713
▁cambi	-9.27131
▁prossimo	-9.27132
▁pat	-9.27922
▁abomini	-9.28056
▁sapere	-9.28135
▁bruc	-9.28203
termin	-9.28916
▁settimo	-9.28997
impu	-9.29094
O	-9.29626
▁Ammoniti	-9.29934
▁principi	-9.29934
▁villaggi	-9.29937
▁sorella	-9.29942
▁gradi	-9.29963
Quest	-9.30586
▁settentrione	-9.30886
▁sventura	-9.30886
▁uccelli	-9.30886
▁umili	-9.30889
▁cuor	-9.31564
▁dinanzi	-9.31848
▁preghiera	-9.31848
▁labbra	-9.31848
▁giunse	-9.31848
▁terre	-9.31864
▁piena	-9.3188
avrai	-9.32069
▁Ogn	-9.32668
▁obbedi	-9.32819
G	-9.33522
▁bell	-9.33694
▁testimoni	-9.33798
▁proclam	-9.33799
▁maschi	-9.3381
▁tanto	-9.33865
▁attravers	-9.34789
▁tornò	-9.34789
▁Infatti	-9.34789
oblazione	-9.3479
▁benedett	-9.34951
▁amore	-9.3509
stre	-9.35705
▁bronzo	-9.35789
▁montagne	-9.35789
▁spavent	-9.35792
▁uccise	-9.35797
▁stessi	-9.3582
▁vigna	-9.35833
▁profan	-9.35895
bbene	-9.36158
▁vergogna	-9.36799
▁grido	-9.36806
▁tende	-9.36859
Giu	-9.37294
▁nuo	-9.37708
▁Quelli	-9.3782
▁comunione	-9.3782
▁prodigi	-9.37828
▁momento	-9.37831
▁ferro	-9.37845
▁costoro	-9.379
▁ingann	-9.38451
▁Quindi	-9.3885
▁vuol	-9.38851
▁campi	-9.38851
▁domanda	-9.38851
▁Esaù	-9.38852
▁scelto	-9.38857
Signore	-9.39685
▁Geroboamo	-9.39892
▁misura	-9.39892
▁frutti	-9.39893
▁costui	-9.39903
▁confid	-9.39911
▁favore	-9.3992
▁rimast	-9.40229
▁glori	-9.40495
▁giunge	-9.40945
▁primogenito	-9.40945
angoscia	-9.40945
▁comando	-9.41026
▁prigioni	-9.42009
▁porpora	-9.42011
▁toglie	-9.42068
▁accost	-9.42193
▁suppli	-9.43084
▁piange	-9.43084
estremità	-9.43084
▁parlò	-9.43089
▁povero	-9.43101
▁odia	-9.43249
▁cura	-9.44512
iniquità	-9.45117
▁Egiziani	-9.4527
▁angeli	-9.4527
▁mezzogiorno	-9.4527
▁ordinò	-9.4527
▁nascon	-9.45271
▁avver	-9.45282
▁maggior	-9.45297
▁certo	-9.45311
▁devast	-9.45351
▁rivel	-9.4571
albero	-9.45992
▁Nessuno	-9.46381
▁Ruben	-9.46381
▁risuscit	-9.46381
▁Canaan	-9.46383
▁scaccia	-9.46394
▁sacri	-9.46398
▁mogli	-9.47365
▁ricevuto	-9.47505
▁ucciso	-9.47505
▁Acab	-9.47524
orecchio	-9.4844
▁sterminio	-9.48641
▁dimentica	-9.48641
▁commesso	-9.48641
▁aspett	-9.48645
▁reggia	-9.48756
▁bestia	-9.49599
▁tavola	-9.49791
▁buoi	-9.49791
▁fiume	-9.498
▁Edom	-9.49812
▁persone	-9.49854
▁chiede	-9.49871
▁riempi	-9.50532
▁Giòsafat	-9.50953
▁Nabucodònosor	-9.50953
▁giovenco	-9.50953
▁indietro	-9.50953
▁messaggeri	-9.50953
▁raccoglie	-9.50953
▁farisei	-9.50953
▁schiava	-9.50954
▁vangelo	-9.50956
▁facendo	-9.5096
▁guid	-9.50963
▁perenne	-9.50993
▁manca	-9.51016
▁colonne	-9.52133
▁vivente	-9.52148
▁alture	-9.5218
▁osserv	-9.52645
▁scese	-9.53143
▁partorì	-9.5332
▁nube	-9.5332
▁spiega	-9.53321
▁riconosc	-9.53322
▁mattina	-9.53336
▁Ascolta	-9.53384
▁pieno	-9.53387
▁immol	-9.53423
▁semina	-9.5402
Z	-9.5433
▁stranieri	-9.54525
▁agnelli	-9.54525
▁inferi	-9.54612
▁tempi	-9.55672
▁grazie	-9.55744
▁schiavo	-9.55744
Guarda	-9.55745
▁celebr	-9.55745
▁strapp	-9.55747
▁venuti	-9.55759
▁piace	-9.55787
▁Noi	-9.55809
▁segue	-9.55958
▁castig	-9.56113
▁convoc	-9.56206
▁avanz	-9.56432
▁bambino	-9.56979
▁profumo	-9.56979
▁sepolcro	-9.56979
▁regnò	-9.56979
▁comincia	-9.5698
▁rifiut	-9.5698
▁esult	-9.56987
▁stermina	-9.5707
▁dichiar	-9.5708
▁desideri	-9.58229
▁ribelli	-9.58229
▁pioggia	-9.58229
▁Ebron	-9.58229
▁stolto	-9.5823
▁maestro	-9.58235
▁molte	-9.59495
▁predica	-9.59509
▁spezza	-9.59509
▁perdona	-9.59557
▁Za	-9.59611
▁scribi	-9.60785
▁concesso	-9.60793
Figlio	-9.60815
▁censimento	-9.62076
▁circoncisi	-9.62076
▁schiavi	-9.62076
▁confini	-9.62077
▁grasso	-9.62086
▁avuto	-9.62093
▁scamp	-9.62101
▁consola	-9.62133
profond	-9.62368
▁avversari	-9.63393
▁fedeltà	-9.63393
▁animali	-9.63398
▁salut	-9.63653
ariete	-9.63791
▁vorr	-9.63814
▁Quegli	-9.64725
▁pronunzi	-9.64725
▁volontà	-9.64725
▁confine	-9.64726
▁Eliseo	-9.64738
▁priv	-9.65282
▁larghezza	-9.66076
▁oggetto	-9.66076
▁principe	-9.66076
ombra	-9.66081
▁salì	-9.66087
▁cresce	-9.66097
quattro	-9.66184
▁affid	-9.66187
▁possed	-9.66332
▁decreti	-9.67446
▁attorno	-9.67447
▁piomb	-9.67447
▁contamina	-9.67449
▁sinistra	-9.67455
▁alberi	-9.67465
▁tromba	-9.68835
▁terrore	-9.68836
▁cadde	-9.68839
▁copri	-9.68861
▁bambini	-9.70243
▁rifugio	-9.70243
▁Caldei	-9.70243
▁Libano	-9.70245
▁oracolo	-9.70247
▁mantello	-9.70248
▁catene	-9.7025
▁viaggio	-9.70252
Prendi	-9.70278
▁Parol	-9.70445
intelligenza	-9.71672
▁ricchezze	-9.71672
▁piccolo	-9.71673
▁settanta	-9.71677
▁greggi	-9.71681
▁muro	-9.71685
▁gem	-9.7176
▁troppo	-9.73121
▁specie	-9.73122
▁addosso	-9.73123
▁mut	-9.73875
▁consum	-9.73876
▁giudice	-9.74592
▁offerte	-9.74592
▁fianchi	-9.74592
▁insegui	-9.75548
▁cominciò	-9.76084
▁saggezza	-9.76084
▁comprende	-9.76084
▁stirpe	-9.76084
▁promessa	-9.76089
▁Sichem	-9.76089
▁Amorrei	-9.77599
▁Eppure	-9.77599
▁trovò	-9.77599
▁motivo	-9.77599
▁manderò	-9.776
▁rivolg	-9.776
▁tavole	-9.776
▁consult	-9.77601
▁Madian	-9.77609
atrio	-9.77611
▁sollev	-9.77903
▁Balaam	-9.79138
▁Galilea	-9.79138
▁bisogno	-9.79138
▁proprietà	-9.79138
▁rallegr	-9.79138
▁scienza	-9.79138
▁raccolt	-9.79139
▁sigill	-9.7965
▁consumat	-9.799
▁annunzi	-9.80159
▁Abimèlech	-9.807
▁giardino	-9.807
▁oggetti	-9.807
▁piuttosto	-9.807
▁vuoi	-9.807
▁Giudea	-9.807
▁schiere	-9.80701
▁Guai	-9.80702
▁battezz	-9.80708
▁cerc	-9.82152
abbondanza	-9.82288
▁moltitudine	-9.82288
▁sguardo	-9.82288
▁Qual	-9.82288
▁Gerico	-9.82288
innocente	-9.82301
Alzati	-9.82365
▁accett	-9.82669
▁spars	-9.83388
▁cadaveri	-9.839
▁domandò	-9.839
▁flagell	-9.839
▁forestiero	-9.839
▁violenza	-9.83901
▁Isaia	-9.83902
▁nubi	-9.83907
▁raccont	-9.83914
sessanta	-9.84164
Andate	-9.84191
▁Abram	-9.84225
▁Sedecìa	-9.8554
▁cherubini	-9.8554
▁circonda	-9.8554
▁germogli	-9.8554
▁straniero	-9.8554
▁Abner	-9.8554
▁partì	-9.85542
▁calpest	-9.85545
U	-9.85942
insegn	-9.85945
▁lunghezza	-9.87206
▁registrati	-9.87206
▁fiducia	-9.87207
▁innalza	-9.87207
▁possied	-9.8721
▁segret	-9.87348
▁rimarr	-9.87407
▁fortezze	-9.88901
▁prigione	-9.88901
▁apostoli	-9.88901
▁trasport	-9.88901
▁significa	-9.88902
Parla	-9.90222
▁Mardocheo	-9.90625
▁addorment	-9.90625
▁schiera	-9.90627
▁menzogna	-9.9238
▁sopport	-9.9238
▁Giosia	-9.9238
▁Ricord	-9.9238
▁perseguit	-9.9238
▁splendore	-9.9238
▁bottino	-9.9238
▁Damasco	-9.92381
▁ordini	-9.92381
▁possiamo	-9.92381
▁Giobbe	-9.94166
"	-9.95984
1	-10.9375
(	-11.0402
)	-11.0957
é	-12.0824
’	-12.0853
]	-13.0353
j	-13.5353
J	-14.534
9	-14.5341
0	-14.5342
8	-14.5343
7	-14.5344
5	-14.5345
4	-14.5346
3	-14.5347
2	-14.5348
6	-14.5349
K	-14.535
H	-14.5351
Q	-14.5352
}	-14.5353
«	-14.5353
