<pad>	0
</s>	0
<unk>	0
▁a	-0
ch	-1
ea	-2
ai	-3
▁d	-4
th	-5
▁s	-6
in	-7
na	-8
▁c	-9
▁l	-10
▁t	-11
▁g	-12
bh	-13
▁f	-14
ir	-15
▁m	-16
▁ag	-17
ar	-18
il	-19
▁an	-20
is	-21
dh	-22
mh	-23
ío	-24
▁ch	-25
▁n	-26
us	-27
▁i	-28
ta	-29
▁agus	-30
▁ar	-31
an	-32
id	-33
▁le	-34
▁r	-35
air	-36
la	-37
▁bh	-38
ra	-39
gh	-40
▁co	-41
▁na	-42
on	-43
each	-44
▁b	-45
▁go	-46
eo	-47
éa	-48
ás	-49
nn	-50
▁do	-51
ao	-52
ach	-53
the	-54
iú	-55
áil	-56
▁th	-57
▁o	-58
▁p	-59
ain	-60
inn	-61
ine	-62
ear	-63
▁chu	-64
ei	-65
eas	-66
áin	-67
▁dh	-68
ia	-69
▁fh	-70
▁h	-71
aí	-72
te	-73
19	-74
ais	-75
co	-76
ean	-77
▁de	-78
▁bhf	-79
▁cov	-80
ig	-81
▁2	-82
▁T	-83
it	-84
cht	-85
▁é	-86
uair	-87
▁covid	-88
ír	-89
as	-90
-19	-91
▁nó	-92
tá	-93
io	-94
aithe	-95
▁v	-96
ile	-97
éad	-98
im	-99
▁ó	-100
▁’	-101
eadh	-102
▁in	-103
▁e	-104
igh	-105
aigh	-106
or	-107
eag	-108
abh	-109
ail	-110
anna	-111
▁seo	-112
adh	-113
íonn	-114
▁is	-115
▁C	-116
al	-117
▁du	-118
▁1	-119
▁D	-120
eann	-121
ithe	-122
▁gh	-123
▁mar	-124
▁mh	-125
aidh	-126
án	-127
▁fé	-128
▁gc	-129
ín	-130
aoine	-131
▁tú	-132
uil	-133
▁sh	-134
óg	-135
óir	-136
▁lá	-137
▁chun	-138
▁cho	-139
▁A	-140
íos	-141
▁eile	-142
áir	-143
▁I	-144
ad	-145
▁sa	-146
▁M	-147
áid	-148
ac	-149
▁bhfuil	-150
láin	-151
eacht	-152
ro	-153
tha	-154
▁(	-155
▁mb	-156
íodh	-157
▁ro	-158
▁or	-159
ian	-160
ic	-161
isc	-162
aith	-163
sc	-164
fh	-165
▁sé	-166
ur	-167
▁tá	-168
eal	-169
▁dt	-170
íoch	-171
▁cás	-172
ib	-173
ála	-174
eamh	-175
▁atá	-176
ith	-177
ol	-178
idir	-179
re	-180
▁níos	-181
▁mó	-182
ug	-183
cha	-184
▁aon	-185
▁tr	-186
▁vír	-187
▁N	-188
taí	-189
▁fao	-190
cov	-191
ús	-192
▁B	-193
▁má	-194
▁ná	-195
éana	-196
ial	-197
▁20	-198
▁ph	-199
éir	-200
▁sc	-201
arth	-202
ann	-203
▁comh	-204
rú	-205
▁Tá	-206
uir	-207
▁lea	-208
imh	-209
eith	-210
▁féidir	-211
▁á	-212
saí	-213
▁ion	-214
éim	-215
▁sláin	-216
ion	-217
ró	-218
mp	-219
dir	-220
eidh	-221
eanna	-222
ud	-223
aint	-224
▁io	-225
▁daoine	-226
uairisc	-227
tach	-228
éadf	-229
lú	-230
nach	-231
▁faoi	-232
saín	-233
▁leis	-234
▁duine	-235
acsaín	-236
▁sláinte	-237
▁Is	-238
▁sin	-239
éan	-240
▁u	-241
airt	-242
fhabh	-243
ars	-244
áis	-245
▁tás	-246
táil	-247
taithe	-248
▁vacsaín	-249
eagmh	-250
aibh	-251
▁víreas	-252
íon	-253
▁am	-254
tear	-255
▁bás	-256
iún	-257
le	-258
un	-259
▁tar	-260
úsáid	-261
ís	-262
▁S	-263
▁raibh	-264
raí	-265
os	-266
▁cú	-267
tar	-268
agh	-269
▁dhéana	-270
if	-271
▁as	-272
▁air	-273
▁ionfhabh	-274
▁chomh	-275
arthaí	-276
íomh	-277
ill	-278
▁dó	-279
▁F	-280
▁roinn	-281
▁4	-282
éar	-283
ua	-284
▁rá	-285
eoir	-286
▁ort	-287
teach	-288
▁sars	-289
▁ach	-290
eir	-291
▁3	-292
íocht	-293
sp	-294
ibh	-295
20	-296
▁st	-297
▁bheith	-298
éadfadh	-299
er	-300
▁dhéanamh	-301
▁úsáid	-302
áth	-303
▁idir	-304
▁agh	-305
▁aghaidh	-306
▁rud	-307
▁Má	-308
▁amh	-309
uairiscíodh	-310
idh	-311
íor	-312
▁iad	-313
▁An	-314
▁cl	-315
▁éis	-316
ip	-317
aid	-318
ras	-319
éal	-320
▁gach	-321
eola	-322
inne	-323
▁gur	-324
dú	-325
▁féin	-326
at	-327
▁im	-328
thair	-329
▁meas	-330
▁rial	-331
úir	-332
rta	-333
▁chóir	-334
thu	-335
▁nach	-336
ainn	-337
lach	-338
▁chur	-339
▁2020	-340
▁duit	-341
▁ann	-342
▁bhí	-343
▁ní	-344
ógra	-345
oir	-346
▁rio	-347
▁Ní	-348
▁nd	-349
aist	-350
aip	-351
reis	-352
▁comharthaí	-353
úil	-354
▁sia	-355
▁dhaoine	-356
▁L	-357
tas	-358
▁roinnt	-359
thar	-360
▁siad	-361
▁sco	-362
eabh	-363
▁ina	-364
▁den	-365
▁5	-366
nadh	-367
▁don	-368
▁fr	-369
eall	-370
▁san	-371
▁orthu	-372
íne	-373
▁ón	-374
óis	-375
iom	-376
▁ts	-377
▁G	-378
▁w	-379
ghl	-380
▁sr	-381
aile	-382
▁trí	-383
nacht	-384
▁fhéadfadh	-385
00	-386
aon	-387
eart	-388
▁líon	-389
▁thug	-390
▁sp	-391
▁ac	-392
radh	-393
da	-394
eachta	-395
acha	-396
ítear	-397
eagmháil	-398
▁gco	-399
int	-400
-2	-401
▁márta	-402
vir	-403
iúil	-404
lí	-405
▁ráig	-406
▁tástáil	-407
rom	-408
ásanna	-409
ag	-410
▁lena	-411
▁thar	-412
aim	-413
tála	-414
onraí	-415
eachtaí	-416
eidhm	-417
▁su	-418
▁to	-419
aine	-420
▁có	-421
▁po	-422
acht	-423
ru	-424
▁iar	-425
▁roimh	-426
▁ath	-427
▁dear	-428
vír	-429
en	-430
eic	-431
▁gn	-432
ist	-433
eacha	-434
▁amach	-435
naí	-436
▁gal	-437
▁cos	-438
▁lámh	-439
▁oib	-440
dach	-441
eá	-442
reisin	-443
▁freisin	-444
▁isteach	-445
aind	-446
▁scaip	-447
▁dóibh	-448
aindéim	-449
navir	-450
ianta	-451
▁neamh	-452
▁domh	-453
▁leat	-454
▁fáil	-455
nas	-456
▁amháin	-457
lán	-458
chtúir	-459
sh	-460
inic	-461
▁nuair	-462
▁bun	-463
ronavir	-464
▁mór	-465
rach	-466
▁lagh	-467
anacht	-468
aol	-469
ram	-470
uid	-471
abhairt	-472
se	-473
▁gheall	-474
▁tástála	-475
ronavirus	-476
▁ionfhabhtaithe	-477
tú	-478
▁chuig	-479
▁/	-480
▁mo	-481
eor	-482
▁br	-483
▁mí	-484
▁sonraí	-485
▁stá	-486
▁bhíonn	-487
fach	-488
mpla	-489
íochta	-490
▁coronavirus	-491
ois	-492
de	-493
▁gan	-494
▁áit	-495
áiste	-496
▁leor	-497
▁Tuairiscíodh	-498
▁tinn	-499
ráid	-500
▁tea	-501
nad	-502
▁linn	-503
aidir	-504
▁scoil	-505
ghlaigh	-506
st	-507
achta	-508
eabhra	-509
ura	-510
▁Mar	-511
▁chl	-512
▁nua	-513
▁hiom	-514
▁fanacht	-515
ór	-516
íortha	-517
ma	-518
ead	-519
▁Ch	-520
▁fháil	-521
eoirí	-522
▁lámha	-523
▁dá	-524
▁tír	-525
invír	-526
áirítear	-527
▁-	-528
▁cé	-529
▁Ag	-530
▁réir	-531
ll	-532
▁acu	-533
▁ard	-534
▁éig	-535
▁chuid	-536
▁ng	-537
úla	-538
iblí	-539
▁leith	-540
ún	-541
▁dho	-542
▁dul	-543
▁fud	-544
▁tug	-545
ialta	-546
aghaidh	-547
▁roimhe	-548
▁cásanna	-549
artha	-550
iúnta	-551
▁measc	-552
▁maidir	-553
eagmhála	-554
▁aontaithe	-555
▁2020,	-556
▁bhain	-557
pa	-558
▁feabhra	-559
▁scaipeadh	-560
ath	-561
éin	-562
-19.	-563
▁dtí	-564
▁teaghlaigh	-565
och	-566
sca	-567
▁sao	-568
aig	-569
▁fó	-570
eirbh	-571
▁chás	-572
▁uair	-573
▁aghaidhe	-574
anta	-575
▁aip	-576
▁Cuir	-577
▁haghaidh	-578
airle	-579
eirbhís	-580
ph	-581
▁6	-582
asc	-583
easta	-584
▁chéad	-585
ábh	-586
▁Déan	-587
ál	-588
▁bp	-589
iúla	-590
▁iom	-591
lúdach	-592
▁ba	-593
▁fo	-594
▁sna	-595
uithe	-596
▁R	-597
ait	-598
▁lean	-599
▁víris	-600
am	-601
aitheamh	-602
úis	-603
▁fógra	-604
eac	-605
▁tugadh	-606
ho	-607
▁bl	-608
aire	-609
dáil	-610
▁ean	-611
▁gla	-612
illiún	-613
▁riosp	-614
▁taist	-615
▁eanáir	-616
ios	-617
éil	-618
▁Ba	-619
spid	-620
scail	-621
▁chos	-622
▁rian	-623
eachas	-624
áirithe	-625
▁cuir	-626
▁bhaile	-627
▁éa	-628
ráide	-629
únadh	-630
▁leigh	-631
▁hiomláin	-632
chur	-633
eáil	-634
▁ghn	-635
▁ospid	-636
éis	-637
▁riospráide	-638
▁lu	-639
▁tsín	-640
▁tuairiscíodh	-641
éile	-642
oláth	-643
▁cinn	-644
▁poiblí	-645
▁thabhairt	-646
oc	-647
▁”	-648
▁déana	-649
óirí	-650
▁for	-651
▁mbeadh	-652
úr	-653
reag	-654
▁siú	-655
▁bhfeidhm	-656
▁7	-657
▁pr	-658
eala	-659
▁aois	-660
▁hcov	-661
iachta	-662
iar	-663
sco	-664
▁ain	-665
▁cur	-666
▁oibr	-667
▁maith	-668
▁chor	-669
ástáil	-670
▁faoin	-671
óisialta	-672
▁Co	-673
uais	-674
álacha	-675
tr	-676
liú	-677
▁cúram	-678
▁“	-679
▁Th	-680
▁agat	-681
ne	-682
▁9	-683
▁cu	-684
▁ei	-685
▁me	-686
faidh	-687
ard	-688
mhn	-689
▁déan	-690
▁choinne	-691
).	-692
ár	-693
aic	-694
▁10	-695
▁tu	-696
▁fad	-697
▁sha	-698
▁galar	-699
▁náis	-700
▁chuir	-701
ibre	-702
▁pháiste	-703
ló	-704
▁8	-705
tais	-706
▁leo	-707
▁bear	-708
▁tion	-709
▁feadh	-710
▁mhéad	-711
▁leighis	-712
▁bhaineann	-713
ae	-714
tí	-715
▁stáit	-716
fidh	-717
fhógra	-718
▁aibre	-719
▁leanaí	-720
▁éigean	-721
▁shampla	-722
000	-723
anda	-724
ca	-725
▁Bh	-726
▁gcásanna	-727
▁paindéim	-728
▁dhochtúir	-729
▁ionfhabhtú	-730
arr	-731
uigh	-732
▁tíortha	-733
han	-734
▁al	-735
,000	-736
ifig	-737
▁eis	-738
▁staid	-739
▁othair	-740
invíreas	-741
mpar	-742
orth	-743
▁oir	-744
stach	-745
▁ghal	-746
▁léir	-747
▁chaitheamh	-748
éid	-749
-19,	-750
bair	-751
▁clúdach	-752
▁scoileanna	-753
ladh	-754
▁éif	-755
uairt	-756
),	-757
▁14	-758
▁éir	-759
▁leibh	-760
▁srianta	-761
tóg	-762
▁Dí	-763
▁gá	-764
▁lé	-765
eimhn	-766
▁cóir	-767
▁teagmháil	-768
ob	-769
eog	-770
íní	-771
eath	-772
▁daon	-773
▁síne	-774
ábháil	-775
▁seirbhís	-776
▁Ná	-777
íobh	-778
mhair	-779
▁ionad	-780
eol	-781
▁lua	-782
▁fhor	-783
▁chéile	-784
▁4,	-785
▁Ar	-786
▁dí	-787
▁iomlán	-788
▁aibreán	-789
ón	-790
▁"	-791
ige	-792
pid	-793
char	-794
▁dhá	-795
▁fol	-796
▁seacht	-797
▁domhain	-798
▁rialtas	-799
gs	-800
ealt	-801
▁siúd	-802
íochaine	-803
iabh	-804
▁cor	-805
▁eag	-806
▁mhí	-807
racha	-808
orthaí	-809
áireamh	-810
▁dearbh	-811
▁toradh	-812
ub	-813
aoi	-814
róit	-815
▁who	-816
▁mbeidh	-817
aigheann	-818
▁Dífhógra	-819
▁Dífhógraíodh	-820
rón	-821
earr	-822
▁dearfach	-823
ers	-824
nann	-825
▁bhr	-826
▁fhóg	-827
íochtaí	-828
far	-829
▁cr	-830
romch	-831
▁beag	-832
asacht	-833
▁ospidéal	-834
▁sóisialta	-835
ims	-836
rao	-837
▁déanaí	-838
ní	-839
▁–	-840
iath	-841
uhan	-842
éigh	-843
▁las	-844
áinig	-845
aintín	-846
aíocht	-847
▁thástáil	-848
ss	-849
▁éags	-850
▁luath	-851
▁cuairt	-852
▁fhógair	-853
óm	-854
▁19	-855
▁dé	-856
eana	-857
iain	-858
▁aer	-859
▁tho	-860
▁mura	-861
▁frith	-862
▁fuair	-863
el	-864
▁ial	-865
▁minic	-866
gn	-867
all	-868
imp	-869
▁bu	-870
▁sio	-871
racht	-872
laíonn	-873
▁bunús	-874
▁thart	-875
amh	-876
ite	-877
éas	-878
▁dhear	-879
▁náisiúnta	-880
▁ho	-881
▁ré	-882
aisc	-883
▁tos	-884
▁ghla	-885
▁srian	-886
▁wuhan	-887
▁cosúil	-888
▁ghnáth	-889
▁ialtóg	-890
▁milliún	-891
▁chosaint	-892
uas	-893
eolas	-894
muigh	-895
▁bhás	-896
▁mbaol	-897
róitéin	-898
▁teagmhála	-899
▁ís	-900
aill	-901
ithr	-902
▁bia	-903
▁léinn	-904
iabhras	-905
▁bearta	-906
▁gníomh	-907
▁vacsaíní	-908
úirt	-909
▁aith	-910
raíonn	-911
▁leath	-912
▁éagsúla	-913
og	-914
oirm	-915
luais	-916
▁háirithe	-917
▁tionchar	-918
▁comhairle	-919
▁bhféadfadh	-920
onn	-921
▁24	-922
▁Bhí	-923
▁	-924
a	-925
i	-926
h	-927
n	-928
r	-929
e	-930
t	-931
s	-932
o	-933
c	-934
l	-935
d	-936
g	-937
á	-938
m	-939
u	-940
í	-941
b	-942
f	-943
é	-944
ú	-945
ó	-946
.	-947
,	-948
p	-949
v	-950
-	-951
1	-952
2	-953
0	-954
9	-955
T	-956
’	-957
C	-958
3	-959
D	-960
4	-961
A	-962
I	-963
M	-964
5	-965
)	-966
(	-967
N	-968
B	-969
6	-970
8	-971
7	-972
S	-973
w	-974
:	-975
F	-976
L	-977
y	-978
G	-979
%	-980
"	-981
/	-982
k	-983
z	-984
“	-985
R	-986
;	-987
”	-988
'	-989
–	-990
j	-991
O	-992
x	-993
P	-994
?	-995
Ú	-996
