<pad>	0
</s>	0
<unk>	0
,	-2.9869
▁e	-3.527
▁di	-3.64639
▁il	-3.95898
▁la	-4.24741
'	-4.2808
a	-4.35796
▁a	-4.36065
▁che	-4.37521
:	-4.55477
▁i	-4.62689
▁per	-4.67913
i	-4.68182
▁in	-4.70006
▁del	-4.70832
▁non	-4.76594
▁Signore	-4.80883
e	-4.8822
▁le	-4.94125
o	-4.94921
▁si	-4.95779
▁	-5.00193
;	-5.03667
▁«	-5.08716
▁un	-5.09217
▁con	-5.10455
▁è	-5.15775
▁dell	-5.19949
▁loro	-5.20768
.	-5.2597
▁l	-5.26871
▁gli	-5.35165
▁Dio	-5.35447
▁al	-5.38101
▁da	-5.47309
»	-5.5958
▁perché	-5.61494
re	-5.62559
▁come	-5.62754
▁re	-5.65496
▁dei	-5.67375
▁lo	-5.70362
▁nel	-5.70697
te	-5.74061
ò	-5.78224
▁ha	-5.79337
▁sono	-5.83999
▁una	-5.86068
no	-5.86782
▁suo	-5.89147
▁mi	-5.95249
▁nell	-5.98561
▁ma	-5.99243
▁vi	-6.02751
▁disse	-6.03543
▁io	-6.03769
la	-6.04161
▁sua	-6.0628
▁mio	-6.06882
▁alla	-6.06993
▁tutti	-6.08854
▁d	-6.09273
▁se	-6.09479
▁tuo	-6.1032
▁figlio	-6.10368
▁Il	-6.12641
▁ti	-6.1294
▁voi	-6.15943
▁figli	-6.18733
▁dal	-6.19942
to	-6.20514
▁suoi	-6.22408
▁ne	-6.23682
▁te	-6.24422
▁popolo	-6.28302
▁lui	-6.29149
▁dall	-6.29305
▁aveva	-6.29575
▁me	-6.33313
▁era	-6.33902
▁tu	-6.36069
▁ai	-6.36324
▁questo	-6.37151
ti	-6.39054
▁li	-6.40372
▁E	-6.41421
▁più	-6.42617
va	-6.43308
▁Ma	-6.44229
▁terra	-6.44982
gli	-6.45273
▁sarà	-6.46518
▁contro	-6.47374
▁Israele	-6.48549
▁su	-6.49218
▁paese	-6.49281
rà	-6.50089
▁tua	-6.50954
▁egli	-6.5241
▁città	-6.52749
▁ho	-6.52891
▁tutto	-6.54264
▁o	-6.549
rono	-6.56832
ta	-6.57525
▁chi	-6.58647
▁giorno	-6.59247
▁fu	-6.60049
▁mia	-6.60249
▁anche	-6.62681
▁casa	-6.63852
?	-6.64796
▁sull	-6.65122
▁degl	-6.67542
▁davanti	-6.68419
▁quando	-6.69335
▁Davide	-6.70045
▁Non	-6.70192
ro	-6.72332
▁I	-6.73094
ogni	-6.75865
▁Allora	-6.76934
▁ad	-6.77318
▁uomini	-6.7821
r	-6.79199
▁hai	-6.79849
n	-6.80221
▁Gesù	-6.80315
vano	-6.804
▁fatto	-6.80421
erà	-6.83474
▁tuoi	-6.8429
▁così	-6.84649
▁noi	-6.84718
le	-6.85462
▁né	-6.87322
▁all	-6.88996
▁secondo	-6.8934
▁sul	-6.89912
▁ci	-6.90241
▁Se	-6.91474
uomo	-6.91866
▁ed	-6.92209
▁erano	-6.9279
▁Giuda	-6.96528
▁mezzo	-6.97233
▁Mosè	-6.97951
▁tutte	-6.98138
ri	-6.99184
▁due	-6.9957
ranno	-6.99586
▁Gerusalemme	-7.00884
▁mano	-7.01929
▁hanno	-7.02176
▁fino	-7.06212
▁padre	-7.07425
▁Israeliti	-7.08506
ndo	-7.08557
è	-7.08793
▁essi	-7.09057
▁sue	-7.10695
▁vita	-7.10789
▁La	-7.11319
▁tra	-7.12706
▁nome	-7.12734
▁ciò	-7.12845
▁cuore	-7.12913
▁c	-7.14676
▁occhi	-7.1545
▁cui	-7.16435
▁questa	-7.16534
▁tempio	-7.17833
-	-7.17948
à	-7.18715
m	-7.19529
▁Egli	-7.20021
▁parola	-7.20127
▁Quando	-7.20186
li	-7.20241
▁dice	-7.20732
▁giorni	-7.21034
▁alle	-7.2165
si	-7.21704
▁quel	-7.22806
▁dunque	-7.23374
▁cosa	-7.23414
▁poi	-7.23969
▁Io	-7.23988
▁tutta	-7.24237
▁grande	-7.24263
▁uno	-7.24339
▁quant	-7.24861
▁senz	-7.25084
!	-7.25576
▁quelli	-7.26137
ato	-7.26163
▁sei	-7.27332
u	-7.27479
▁miei	-7.27556
b	-7.27603
▁mani	-7.28453
mi	-7.29118
?»	-7.30446
▁-	-7.30526
!»	-7.30622
rò	-7.3106
▁A	-7.31941
».	-7.32275
▁cose	-7.33523
erò	-7.33579
▁fece	-7.34038
▁capo	-7.34872
▁dove	-7.3562
t	-7.3596
s	-7.36446
▁fra	-7.37
▁tempo	-7.37505
▁infatti	-7.37716
▁In	-7.39487
▁parole	-7.39677
g	-7.39886
▁rispose	-7.39922
▁uomo	-7.4134
▁Poi	-7.41575
▁ancora	-7.41773
vi	-7.42134
ci	-7.42438
▁nostro	-7.42837
f	-7.42899
lo	-7.43409
▁Cristo	-7.43595
▁fratelli	-7.44168
di	-7.44892
▁cielo	-7.44937
▁vostro	-7.45711
▁parte	-7.45731
▁saranno	-7.45932
rai	-7.45945
▁poiché	-7.46114
are	-7.46263
▁mentre	-7.47081
▁quale	-7.47168
▁Chi	-7.47347
▁sia	-7.47685
▁sempre	-7.48071
ni	-7.48237
▁quello	-7.48746
▁capi	-7.49116
▁detto	-7.49682
▁legge	-7.50488
▁allora	-7.50531
▁vostri	-7.51101
▁fuoco	-7.51102
▁sopra	-7.51336
eranno	-7.51339
▁Così	-7.51766
▁porta	-7.52097
▁Gli	-7.52376
▁dopo	-7.52761
▁Per	-7.52907
▁stato	-7.53585
▁sacerdote	-7.53815
▁tue	-7.53964
▁avete	-7.55522
▁Ora	-7.5588
▁ri	-7.56319
l	-7.56788
▁luogo	-7.57452
▁sotto	-7.57843
▁essa	-7.57864
▁sta	-7.58127
▁fa	-7.5835
na	-7.5836
Israele	-7.58763
▁Si	-7.59223
▁s	-7.59251
Egitto	-7.59653
▁ecco	-7.59665
▁forse	-7.59891
▁servo	-7.61013
▁bene	-7.618
se	-7.61956
▁queste	-7.62161
▁giustizia	-7.62383
▁male	-7.62487
ne	-7.63078
nte	-7.63609
ra	-7.63696
▁morte	-7.64031
oro	-7.64182
▁Ecco	-7.64797
▁sangue	-7.64939
▁Saul	-7.65178
ate	-7.65247
nti	-7.65553
sse	-7.65882
▁anni	-7.66172
anno	-7.66471
▁solo	-7.66924
▁padri	-7.67082
▁essere	-7.6712
mo	-7.67505
▁tre	-7.67941
verso	-7.6801
▁spada	-7.68049
▁C	-7.68817
presso	-7.69041
▁nessuno	-7.69269
▁dato	-7.69493
▁sacerdoti	-7.70525
▁dai	-7.71138
▁questi	-7.72317
▁voce	-7.72522
▁là	-7.72645
▁altri	-7.72777
▁regno	-7.73349
▁stesso	-7.73544
▁fratello	-7.74317
▁via	-7.75084
de	-7.75542
▁insieme	-7.75631
erai	-7.76136
rlo	-7.76555
▁Di	-7.77434
▁peccato	-7.77579
▁prima	-7.77738
Non	-7.78144
▁Giacobbe	-7.78549
▁Le	-7.78711
▁furono	-7.79278
▁mie	-7.79303
▁gloria	-7.79468
▁sette	-7.79534
▁tribù	-7.80178
▁Perché	-7.80184
▁bocca	-7.80483
ì	-7.80615
ati	-7.80779
▁donna	-7.81006
▁prese	-7.83585
▁fare	-7.8361
▁servi	-7.83668
▁moglie	-7.84001
▁ora	-7.84184
vo	-7.84227
c	-7.84261
▁deserto	-7.85821
▁Aronne	-7.85834
▁L	-7.8595
z	-7.8608
▁quella	-7.86523
▁vers	-7.86526
arono	-7.86954
sa	-7.8698
▁dicendo	-7.87159
▁quali	-7.88763
▁invece	-7.89446
▁oggi	-7.89483
▁mai	-7.89559
▁siete	-7.89778
▁popoli	-7.91187
▁mondo	-7.92111
▁piedi	-7.92112
rsi	-7.92161
▁Mi	-7.92312
▁mare	-7.92386
che	-7.92391
▁monte	-7.93355
▁abbiamo	-7.93564
▁causa	-7.93982
▁posto	-7.94002
altare	-7.94573
ano	-7.9733
d	-7.97653
ca	-7.97785
▁Tu	-7.97828
▁notte	-7.98168
▁nulla	-7.98186
▁colui	-7.98511
▁tenda	-7.98827
▁Un	-7.99399
▁Babilonia	-7.99485
▁carne	-7.99486
▁Salomone	-8.00489
▁eserciti	-8.00826
▁madre	-8.00826
▁gente	-8.00854
ono	-8.01044
p	-8.01051
?».	-8.01132
▁nostri	-8.01164
rti	-8.01268
▁pu	-8.01327
▁dissero	-8.02644
ma	-8.02973
▁spirito	-8.03908
ce	-8.04233
▁nemici	-8.04257
▁Poiché	-8.04688
▁fede	-8.04775
▁vostra	-8.04957
▁sacrificio	-8.0538
▁pot	-8.05584
▁abitanti	-8.07106
ve	-8.07613
▁farò	-8.0784
▁faraone	-8.08535
▁pane	-8.08535
▁color	-8.08628
▁vostre	-8.089
▁molto	-8.09266
▁faccia	-8.09672
▁andò	-8.10103
▁finché	-8.1038
▁qui	-8.10687
rvi	-8.10849
sti	-8.11534
▁avrà	-8.11896
▁figlia	-8.1198
co	-8.12083
erete	-8.12332
▁visto	-8.12353
▁gener	-8.1258
ggi	-8.12585
da	-8.1327
▁grazia	-8.13387
so	-8.14748
▁leviti	-8.14931
▁Padre	-8.14962
▁pace	-8.15318
▁far	-8.15994
▁verità	-8.16495
▁Quest	-8.17232
▁fuori	-8.17316
▁nuovo	-8.17686
▁cioè	-8.17686
▁profeta	-8.1772
▁acque	-8.18085
▁altro	-8.18269
▁Giudei	-8.18889
▁Giosuè	-8.19294
▁Al	-8.19513
rmi	-8.19871
▁Abramo	-8.19876
▁profeti	-8.201
▁fronte	-8.20109
▁vesti	-8.20204
▁quanti	-8.20223
un	-8.2023
▁Giuseppe	-8.20518
or	-8.20689
▁S	-8.20713
altra	-8.20713
▁aver	-8.21415
▁Essi	-8.21498
argento	-8.21904
▁Filistei	-8.22175
▁diede	-8.22414
▁farà	-8.22539
▁gioia	-8.23018
▁volta	-8.23501
▁viene	-8.23596
▁Come	-8.23645
sce	-8.23669
do	-8.23787
amo	-8.23952
▁discepoli	-8.24303
arca	-8.24466
▁molti	-8.24617
▁Spirito	-8.24712
▁siamo	-8.24729
ata	-8.24859
rete	-8.25084
iamo	-8.25111
▁nazioni	-8.25141
▁Vi	-8.25373
zione	-8.25395
▁mese	-8.25477
era	-8.25676
acqua	-8.25831
▁dico	-8.26059
ssi	-8.26229
▁sui	-8.26667
▁gia	-8.27121
tevi	-8.2723
▁Anch	-8.28294
ga	-8.28438
▁giusto	-8.28643
▁opere	-8.28644
Ecco	-8.28792
▁guerra	-8.29537
▁Figlio	-8.29581
▁Figli	-8.29776
▁stati	-8.30795
▁luce	-8.30895
gi	-8.31397
me	-8.31549
▁corpo	-8.3181
▁forza	-8.31812
▁sé	-8.32273
▁signore	-8.32769
tà	-8.32862
▁uscire	-8.332
▁Ed	-8.33348
altro	-8.33684
▁dire	-8.33852
▁primo	-8.35081
▁Perciò	-8.35082
▁quattro	-8.3539
▁Ti	-8.36327
▁cubiti	-8.37
▁famiglia	-8.37
▁dov	-8.37039
▁abbia	-8.37301
tti	-8.37518
!».	-8.37752
▁porte	-8.37885
▁figlie	-8.37972
▁donne	-8.38467
nza	-8.38529
sci	-8.38892
▁cieli	-8.38959
▁bestiame	-8.39461
▁mangiare	-8.39656
lla	-8.4007
zza	-8.40614
▁Lo	-8.41274
▁fecero	-8.41305
▁O	-8.42121
▁Giordano	-8.42474
▁campo	-8.42479
tta	-8.42646
tto	-8.42708
▁vino	-8.43064
▁ciascuno	-8.43132
E	-8.43279
▁anziani	-8.43503
▁mandò	-8.43514
▁mette	-8.436
▁testa	-8.43659
▁alcuni	-8.43711
▁ascolta	-8.44017
▁strada	-8.44021
el	-8.44155
ar	-8.4438
▁va	-8.4441
alleanza	-8.45965
▁Da	-8.4615
ste	-8.46457
▁proprio	-8.46745
ai	-8.46941
▁Dopo	-8.47191
▁morti	-8.47223
io	-8.47449
tte	-8.47578
▁Rispose	-8.47602
go	-8.4765
▁Efraim	-8.47725
▁scritto	-8.47726
▁santuario	-8.47754
▁trova	-8.47914
▁cinque	-8.48212
▁nostra	-8.48268
▁servizio	-8.48274
▁messo	-8.48392
▁grandi	-8.4881
▁dimora	-8.48997
A	-8.49782
▁destra	-8.49909
ssero	-8.49991
▁modo	-8.50545
▁divenne	-8.50788
▁qual	-8.50881
Che	-8.50888
▁intorno	-8.51168
▁presenza	-8.51619
▁Tutti	-8.51857
▁stata	-8.5193
ira	-8.52109
▁Questi	-8.52404
▁lontano	-8.52699
▁riguardo	-8.52701
▁potenza	-8.52756
an	-8.53008
mente	-8.53379
▁ebbe	-8.53858
▁stava	-8.53973
po	-8.54107
▁andare	-8.5452
▁potere	-8.5475
▁vide	-8.54812
Se	-8.54872
▁alzò	-8.54993
▁genti	-8.55016
▁Voi	-8.55161
bi	-8.55264
▁trono	-8.55653
▁Che	-8.55838
▁so	-8.56071
▁Paolo	-8.56157
▁chiamò	-8.56246
▁Su	-8.56261
▁fine	-8.56317
▁fosse	-8.56623
▁sacrifici	-8.56626
▁libro	-8.56746
Il	-8.57286
chi	-8.57337
▁peccati	-8.57384
ete	-8.57543
k	-8.58527
▁possesso	-8.58531
▁salvezza	-8.58531
▁ordinato	-8.58592
▁vedere	-8.5875
▁quelle	-8.58974
▁famiglie	-8.59133
▁santo	-8.59142
v	-8.59489
▁dieci	-8.59795
▁Mentr	-8.60349
▁numero	-8.60768
tori	-8.61217
▁gran	-8.61224
iti	-8.6134
pa	-8.61484
▁comunità	-8.6158
▁padrone	-8.6158
▁Moab	-8.61601
▁lavoro	-8.61633
▁mandato	-8.61699
▁mise	-8.62074
▁però	-8.62103
▁Ri	-8.62153
▁Giovanni	-8.62252
▁lei	-8.62311
▁venuto	-8.62341
▁venire	-8.62344
▁parlare	-8.62528
▁monti	-8.62827
sta	-8.6299
▁sole	-8.63096
▁Con	-8.6327
▁Pietro	-8.63455
▁Egitto	-8.63493
▁morire	-8.64082
▁Sion	-8.64121
mmo	-8.64351
▁Beniamino	-8.64724
▁verrà	-8.64789
▁venne	-8.65258
▁esso	-8.65278
▁pietra	-8.65366
▁preso	-8.65383
▁que	-8.65756
▁Santo	-8.66018
▁empi	-8.66349
rli	-8.66611
▁oltre	-8.6666
▁convegno	-8.6666
▁folla	-8.66683
▁chiamato	-8.66836
pi	-8.66961
▁sapienza	-8.67314
▁misericordia	-8.67314
▁Tutt	-8.67413
▁alcun	-8.68381
▁Ha	-8.68523
▁fin	-8.68625
▁allo	-8.69086
▁rovina	-8.69308
▁ognuno	-8.69998
▁parla	-8.70546
▁iniquità	-8.71069
gu	-8.71673
▁avev	-8.71681
▁Sono	-8.7179
▁Geremia	-8.72012
ba	-8.72119
▁terzo	-8.72167
▁opera	-8.72266
▁mura	-8.72703
▁Ioab	-8.72752
▁udito	-8.7277
▁Dice	-8.73064
▁acqua	-8.73105
▁co	-8.7357
rci	-8.73589
▁eredità	-8.73634
in	-8.73769
Perché	-8.74122
▁Quant	-8.74205
▁fatti	-8.74264
▁gett	-8.7427
▁rivolta	-8.74407
▁frutto	-8.748
▁generazione	-8.74818
▁timore	-8.74846
▁volte	-8.74921
▁sorte	-8.75509
▁lascia	-8.75849
▁resto	-8.75898
▁nessun	-8.76233
ando	-8.76844
▁lungo	-8.77015
▁pro	-8.77151
▁bere	-8.77381
er	-8.77575
▁ministri	-8.77668
▁pietre	-8.77668
▁vicino	-8.7767
▁Samuele	-8.7769
▁quell	-8.77879
▁fate	-8.78355
▁ira	-8.78745
ssa	-8.78768
▁ve	-8.78785
▁siano	-8.78993
▁testimonianza	-8.79133
accampamento	-8.79134
▁sarai	-8.79186
▁morto	-8.79191
▁pure	-8.79655
▁condotta	-8.79874
mento	-8.79885
angelo	-8.79925
▁sera	-8.79953
▁incontro	-8.79956
ava	-8.80134
▁denaro	-8.8062
▁sabato	-8.8062
▁discendenza	-8.80629
▁valle	-8.80635
▁diritto	-8.80942
▁darò	-8.81059
sso	-8.81181
▁dodici	-8.81362
▁cavalli	-8.81372
▁Isacco	-8.81372
▁voglio	-8.81372
▁rimase	-8.81475
▁quest	-8.81484
▁de	-8.81685
anni	-8.81793
▁vento	-8.81836
▁lingua	-8.82129
▁Ezechia	-8.82129
▁uscì	-8.82139
Io	-8.82596
▁passa	-8.82707
▁Gàlaad	-8.82893
▁perciò	-8.82905
▁marito	-8.82959
▁G	-8.82975
▁territorio	-8.82983
▁chiunque	-8.83001
▁immondo	-8.83663
▁simile	-8.83665
▁anch	-8.83671
▁farai	-8.83924
▁Ho	-8.83936
▁getta	-8.83967
▁anno	-8.84374
▁regione	-8.84437
▁mattino	-8.84438
▁subito	-8.84445
▁quegli	-8.84628
zioni	-8.84809
▁diceva	-8.84988
▁Manàsse	-8.85218
▁neppure	-8.85218
▁idoli	-8.8522
▁possa	-8.8524
▁forte	-8.85303
▁pecore	-8.86006
▁altre	-8.86012
ora	-8.86408
▁festa	-8.868
▁condusse	-8.87013
▁tale	-8.87133
▁sa	-8.8725
▁guarda	-8.87327
▁Elia	-8.87451
▁pietà	-8.87604
▁morì	-8.87612
▁quindi	-8.87642
▁Baal	-8.87719
du	-8.88105
ino	-8.88126
▁carri	-8.88406
▁andarono	-8.88449
offerta	-8.88531
vevano	-8.88629
▁dietro	-8.88641
▁ama	-8.88775
al	-8.8912
▁Fece	-8.89219
▁volto	-8.89306
▁sc	-8.89391
▁trovato	-8.89521
tu	-8.89521
▁venti	-8.89558
▁dà	-8.8966
▁grida	-8.89955
bbiamo	-8.90021
▁Nell	-8.90022
▁onore	-8.90056
▁qualcuno	-8.90071
▁Ci	-8.90132
▁giudizio	-8.90312
▁po	-8.90624
▁chiama	-8.90636
▁parlato	-8.9111
▁esse	-8.91138
▁prendere	-8.91208
ho	-8.91403
▁Samaria	-8.91699
▁cibo	-8.918
▁espiatorio	-8.91827
▁vennero	-8.91983
▁pascoli	-8.92068
▁prova	-8.92233
▁Me	-8.9282
▁cerca	-8.93113
llo	-8.93234
▁rimane	-8.93386
bo	-8.93463
▁dare	-8.93492
nta	-8.9365
sto	-8.93959
remo	-8.93967
ingresso	-8.94241
▁Giònata	-8.94241
▁olocausti	-8.94241
▁Oracolo	-8.94241
pe	-8.94515
▁b	-8.94574
▁olio	-8.9568
▁battaglia	-8.95972
▁gregge	-8.95972
▁polvere	-8.95972
▁bestie	-8.95973
▁stessa	-8.95973
Tu	-8.96078
Chi	-8.9616
▁Bet	-8.96164
▁alleanza	-8.9623
▁col	-8.96354
▁nemico	-8.9685
▁nostre	-8.96851
▁speranza	-8.96862
▁santi	-8.96874
▁dicevano	-8.96944
▁case	-8.96993
sca	-8.976
▁campagna	-8.97735
▁soltanto	-8.97735
▁pratica	-8.97742
▁stavano	-8.97742
▁giovani	-8.97746
▁sarete	-8.97766
▁entrare	-8.98082
▁ben	-8.98111
ul	-8.98131
▁Sa	-8.98132
▁comandi	-8.98627
▁eterna	-8.98627
▁giovane	-8.98638
▁fame	-8.98723
cci	-8.98804
ordine	-8.98841
▁Questa	-8.98951
▁resta	-8.99046
▁mangia	-8.99203
▁do	-8.9933
▁Ogn	-8.99464
olocausto	-8.99748
▁legno	-8.99762
im	-9.00068
▁Dimora	-9.00437
▁paura	-9.00437
▁sicli	-9.00439
▁metà	-9.00788
▁Assalonne	-9.01355
▁Daniele	-9.01377
▁prossimo	-9.01391
tura	-9.01403
▁tenebre	-9.01438
▁Essa	-9.01555
▁conosce	-9.01982
▁giusti	-9.02269
▁sapere	-9.02283
min	-9.02284
▁entra	-9.02606
us	-9.02999
▁settimo	-9.03216
▁parti	-9.03234
▁colpa	-9.03234
▁De	-9.03238
avrai	-9.03536
empio	-9.03672
▁Nel	-9.03923
▁cento	-9.03927
▁Ammoniti	-9.04159
▁sorella	-9.04159
▁Li	-9.04258
▁grano	-9.04314
▁pose	-9.04466
▁settentrione	-9.05111
▁uccelli	-9.05111
▁sventura	-9.05111
cco	-9.05322
▁orecchi	-9.0535
▁misero	-9.05531
rla	-9.05617
▁ordine	-9.05853
▁dinanzi	-9.06073
▁labbra	-9.06073
▁piena	-9.06073
▁preghiera	-9.06077
▁abita	-9.06096
▁vede	-9.0655
▁leggi	-9.06933
▁sarò	-9.07127
▁cammino	-9.07275
▁propria	-9.07342
▁alza	-9.07444
unque	-9.0762
▁tanto	-9.08025
am	-9.08201
▁aiuto	-9.08223
▁rende	-9.08445
ndosi	-9.08856
▁tornò	-9.09014
▁buona	-9.09017
▁Infatti	-9.09026
▁beni	-9.09089
mmi	-9.092
esercito	-9.09358
▁B	-9.09423
▁amore	-9.09598
ver	-9.09689
▁bronzo	-9.10014
▁montagne	-9.10014
▁stessi	-9.10018
▁sdegno	-9.10093
▁anzi	-9.1014
▁ar	-9.10265
▁presero	-9.10453
ché	-9.10896
▁vergogna	-9.11024
▁dono	-9.11066
▁grido	-9.11234
▁oriente	-9.11399
▁tende	-9.11495
▁passare	-9.11523
cchi	-9.12041
▁comunione	-9.12045
▁momento	-9.12045
▁ferro	-9.12045
▁costoro	-9.12073
▁prodigi	-9.12088
avano	-9.12124
▁por	-9.12138
▁poco	-9.12187
▁manda	-9.12333
▁Quelli	-9.12397
uno	-9.12725
▁vivo	-9.12921
▁Esaù	-9.13075
▁Quindi	-9.13075
▁campi	-9.13076
▁scelto	-9.13076
telo	-9.1311
▁potente	-9.13115
▁pre	-9.13132
▁salva	-9.13369
▁Ne	-9.13435
olio	-9.135
▁forma	-9.13535
vranno	-9.13664
▁Geroboamo	-9.14117
▁costui	-9.14118
▁favore	-9.14118
▁frutti	-9.14118
▁sarebbe	-9.14134
on	-9.14199
lu	-9.14364
Signore	-9.14539
▁t	-9.14899
cc	-9.15038
▁Eli	-9.15161
▁primogenito	-9.15171
▁comando	-9.1518
▁Disse	-9.15244
▁f	-9.15285
▁lode	-9.1546
ha	-9.15665
ch	-9.16223
▁porpora	-9.16234
▁preda	-9.16267
▁divora	-9.16293
▁entrò	-9.16311
▁chiamava	-9.16482
▁seguito	-9.16539
▁parlò	-9.17309
▁povero	-9.17309
▁comandato	-9.17362
▁F	-9.17794
▁darà	-9.17975
▁risposero	-9.18028
▁diventa	-9.1807
rne	-9.1815
nto	-9.18162
endo	-9.18425
▁cura	-9.18442
▁teme	-9.18916
fer	-9.18917
▁Fa	-9.18988
èl	-9.19074
▁portato	-9.19424
▁Egiziani	-9.19495
▁angeli	-9.19495
▁mezzogiorno	-9.19495
▁ordinò	-9.19495
▁acc	-9.19572
▁certo	-9.19587
▁deve	-9.19622
bbero	-9.19821
assemblea	-9.19903
iniquità	-9.1992
▁avr	-9.20065
▁vie	-9.20287
▁meno	-9.20393
▁aff	-9.20429
▁Canaan	-9.20606
▁libera	-9.2066
▁ce	-9.20729
▁Nessuno	-9.20858
▁cinquanta	-9.2089
▁present	-9.20906
▁Fu	-9.20922
▁lato	-9.2103
▁ascoltato	-9.21689
lle	-9.21709
▁ucciso	-9.21729
▁ricevuto	-9.21731
▁Acab	-9.21737
▁verranno	-9.218
▁segno	-9.21822
▁mille	-9.21879
▁offrire	-9.21953
▁mogli	-9.22104
▁pe	-9.22233
ab	-9.22621
▁crede	-9.22631
▁venga	-9.2265
▁rito	-9.22762
▁offerta	-9.22786
▁commesso	-9.22866
▁sterminio	-9.22866
▁reggia	-9.22879
▁peso	-9.22894
▁meglio	-9.22992
▁villaggi	-9.23287
▁sposa	-9.23496
▁temere	-9.23686
▁oro	-9.23798
▁reso	-9.23882
▁passi	-9.23893
▁bestia	-9.23992
ach	-9.24011
▁buoi	-9.24015
▁fiume	-9.24016
▁persone	-9.24017
▁prende	-9.24055
▁tavola	-9.24095
▁Edom	-9.24172
▁ossa	-9.24242
▁sp	-9.24283
▁buono	-9.24668
per	-9.24694
▁trenta	-9.24826
▁conoscere	-9.25068
▁Giòsafat	-9.25178
▁Nabucodònosor	-9.25178
▁farisei	-9.25178
▁giovenco	-9.25178
▁messaggeri	-9.25178
▁perenne	-9.25182
▁schiava	-9.25184
▁vangelo	-9.25187
▁indietro	-9.25206
▁nascosto	-9.25224
▁pur	-9.25333
▁braccio	-9.25369
▁facendo	-9.25673
▁Re	-9.25698
Per	-9.2581
▁colonne	-9.26355
▁vivente	-9.26391
▁sommo	-9.26392
▁alture	-9.26527
anima	-9.26859
▁saggio	-9.26988
▁azioni	-9.27125
spi	-9.27534
▁nube	-9.27545
▁mattina	-9.27545
▁vigna	-9.27546
▁partorì	-9.27546
▁pieno	-9.27547
▁dentro	-9.27553
▁fanno	-9.27601
▁annunzia	-9.27666
▁sola	-9.27744
▁malvagi	-9.2801
▁duran	-9.28247
▁sali	-9.28696
▁stranieri	-9.2875
▁agnelli	-9.28825
▁Levi	-9.29025
▁osserva	-9.29168
▁gio	-9.29299
ita	-9.29373
zia	-9.29429
▁misura	-9.29603
cò	-9.29657
mila	-9.29733
▁senti	-9.29819
opera	-9.29824
▁grazie	-9.29969
▁venuti	-9.29969
▁schiavo	-9.2997
▁tempi	-9.30495
▁alto	-9.30528
▁Noi	-9.30732
▁partire	-9.30992
azione	-9.31151
▁puro	-9.31165
▁bambino	-9.31204
▁profumo	-9.31212
▁torrente	-9.31225
▁discendenti	-9.31233
▁sepolcro	-9.31253
▁regnò	-9.31267
▁radun	-9.31992
▁mente	-9.32405
▁Ebron	-9.32454
▁pioggia	-9.32454
▁stolto	-9.32454
▁maestro	-9.32454
▁stabilito	-9.32518
▁attravers	-9.32527
▁buon	-9.32547
▁abbandonato	-9.32662
▁condanna	-9.32878
▁vista	-9.32938
▁parlava	-9.32955
▁data	-9.33251
cu	-9.33372
erano	-9.33443
▁Era	-9.33457
▁molte	-9.3372
▁qualunque	-9.33746
▁Gad	-9.33782
bile	-9.33819
▁metter	-9.33972
▁letto	-9.34163
▁ra	-9.34373
▁faceva	-9.34752
▁appena	-9.34817
▁casati	-9.34959
▁scribi	-9.35002
▁concesso	-9.35002
▁bastone	-9.35068
▁Ieu	-9.35271
▁Ai	-9.35363
▁leone	-9.35505
▁coro	-9.35602
orecchio	-9.35603
Figlio	-9.35751
▁domanda	-9.36098
▁avere	-9.36145
▁pote	-9.36153
▁uccide	-9.3617
▁fil	-9.36268
▁confini	-9.363
▁grasso	-9.36301
▁censimento	-9.36301
▁schiavi	-9.36301
età	-9.36404
▁avuto	-9.36408
▁fatta	-9.36431
▁dura	-9.36939
udi	-9.36981
▁conto	-9.37127
▁Ad	-9.37173
▁negli	-9.37306
essi	-9.37507
▁fedeltà	-9.37616
▁pelle	-9.37628
▁animali	-9.37659
▁presenta	-9.37733
▁tornare	-9.37938
▁p	-9.37947
▁fedele	-9.3801
▁esser	-9.38023
Và	-9.38283
▁saggi	-9.38287
▁tocca	-9.38385
C	-9.38413
▁Quegli	-9.3895
▁confine	-9.3895
▁volontà	-9.3895
▁Eliseo	-9.3895
▁lutto	-9.38952
▁farina	-9.38952
▁vivere	-9.39254
amente	-9.39337
▁testimoni	-9.39577
▁suolo	-9.39639
▁Be	-9.39954
▁D	-9.39957
▁sto	-9.40247
▁Ruben	-9.4028
▁principe	-9.40301
▁larghezza	-9.40301
▁salì	-9.40301
▁basi	-9.40303
▁oggetto	-9.40438
▁giurato	-9.40454
▁consiglio	-9.4055
▁n	-9.40868
▁son	-9.40993
ad	-9.41453
▁custodi	-9.41574
▁attorno	-9.41671
▁decreti	-9.41671
▁alberi	-9.41673
▁portò	-9.41682
▁stanno	-9.41698
▁sinistra	-9.41733
▁presi	-9.4177
▁sap	-9.41808
▁Forse	-9.41866
▁veste	-9.41924
olui	-9.42042
ut	-9.4214
I	-9.42299
▁devo	-9.42345
fa	-9.42393
▁vero	-9.42574
tò	-9.4284
▁tromba	-9.4306
▁terrore	-9.43061
▁fà	-9.43162
▁sogno	-9.43186
▁visione	-9.4322
▁devi	-9.43457
▁abitare	-9.43614
▁ver	-9.43635
sco	-9.43678
men	-9.43763
edi	-9.44397
▁bambini	-9.44468
▁Caldei	-9.44468
▁Libano	-9.44468
▁mantello	-9.44468
▁catene	-9.44468
▁viaggio	-9.44469
▁pagani	-9.4451
▁Parol	-9.44526
▁oracolo	-9.44532
▁rifugio	-9.44547
▁consacrato	-9.446
▁benedetto	-9.44767
amore	-9.44977
▁servire	-9.45095
ndolo	-9.45111
▁nomi	-9.45285
ru	-9.45286
▁tali	-9.45304
▁portare	-9.4548
▁lamento	-9.45833
▁piccolo	-9.45897
▁ricchezze	-9.45897
▁muro	-9.45897
▁spalle	-9.45897
▁greggi	-9.45897
▁persona	-9.45899
▁nazione	-9.45909
▁sommi	-9.45925
▁Betel	-9.45933
▁và	-9.45952
▁alcuno	-9.46002
▁Asa	-9.46014
▁abbandona	-9.46154
mon	-9.46244
ghe	-9.46282
▁bruc	-9.46404
▁offri	-9.46666
eremo	-9.46997
▁specie	-9.47346
▁addosso	-9.47346
▁Ioas	-9.47353
▁sapete	-9.47369
▁troppo	-9.47383
▁riceve	-9.47389
▁avendo	-9.47399
▁nato	-9.47442
▁qua	-9.47509
▁guardie	-9.47534
▁incenso	-9.47755
▁pi	-9.47806
▁quaranta	-9.47918
▁torna	-9.47939
▁altare	-9.48061
▁portarono	-9.48344
ud	-9.48364
▁alcuna	-9.48684
▁angelo	-9.48703
▁fianchi	-9.48817
▁giudice	-9.48817
▁fossa	-9.48817
▁Aramei	-9.48823
▁offerte	-9.48893
aia	-9.48901
▁riempi	-9.49031
▁fai	-9.49194
▁Ar	-9.49214
▁farete	-9.49275
es	-9.4943
▁Dan	-9.49498
h	-9.49553
▁poteva	-9.4957
oni	-9.49652
▁rami	-9.49767
▁arriva	-9.50234
▁promessa	-9.50309
▁Sichem	-9.50309
▁secoli	-9.50312
▁saggezza	-9.50312
▁accamparono	-9.50336
▁Maria	-9.50342
▁stirpe	-9.5035
▁cominciò	-9.50388
▁chiede	-9.50451
▁videro	-9.50629
▁riposo	-9.5065
▁segui	-9.50653
ppena	-9.50683
▁regni	-9.50703
▁cammina	-9.50923
▁vedendo	-9.51123
▁argento	-9.51291
▁veniva	-9.51536
▁Sia	-9.51592
▁andava	-9.51597
▁Amorrei	-9.51824
▁Eppure	-9.51824
▁motivo	-9.51824
▁trovò	-9.51824
▁santa	-9.51852
▁tavole	-9.51867
▁ricord	-9.51873
In	-9.51885
▁velo	-9.51892
▁manderò	-9.51926
▁venuta	-9.5193
▁trovava	-9.51989
atrio	-9.52027
▁vecchio	-9.52137
▁P	-9.52281
▁purifica	-9.52452
con	-9.52519
Assiria	-9.52673
▁orm	-9.52706
sero	-9.52763
▁esercito	-9.5288
▁Balaam	-9.53363
▁bisogno	-9.53363
▁scienza	-9.53363
▁pani	-9.53365
▁benedizione	-9.53372
▁proprietà	-9.53375
Mi	-9.53419
▁Galilea	-9.53592
▁tratta	-9.53814
▁sai	-9.53832
▁cuori	-9.53918
▁sazi	-9.53964
▁faranno	-9.54202
▁Ta	-9.54482
tra	-9.54577
▁costrui	-9.54648
▁comincia	-9.54764
▁Abimèlech	-9.54925
▁giardino	-9.54925
▁oggetti	-9.54925
▁piuttosto	-9.54925
▁vuoi	-9.54925
▁prendi	-9.54925
▁uscito	-9.54926
▁Giudea	-9.54927
▁schiere	-9.54927
▁inferi	-9.54936
▁collera	-9.54946
▁Guai	-9.55007
▁tesori	-9.55011
▁avrete	-9.55107
▁presto	-9.55174
▁Aram	-9.5519
▁mangiato	-9.55309
▁Abi	-9.55324
▁sì	-9.55395
▁presta	-9.5554
▁Sal	-9.55634
▁disprezza	-9.55997
▁olocausto	-9.56125
▁giunse	-9.5639
▁Gerico	-9.56512
▁moltitudine	-9.56512
▁piede	-9.56513
▁sguardo	-9.56522
▁apparve	-9.56527
▁settanta	-9.56554
▁brucia	-9.56555
▁uccise	-9.56604
▁lavori	-9.567
▁quarto	-9.56755
▁Salmo	-9.56771
▁vive	-9.56879
▁convoc	-9.56997
cca	-9.57045
▁ritorn	-9.57387
▁tal	-9.57422
Sono	-9.5747
▁comp	-9.57582
▁cadaveri	-9.58125
▁forestiero	-9.58125
▁violenza	-9.58125
▁nubi	-9.58125
▁poveri	-9.58126
▁domandò	-9.58126
▁circa	-9.58126
▁Isaia	-9.58131
▁altari	-9.58197
▁raccoglie	-9.58225
▁fedeli	-9.58473
dia	-9.58594
▁passato	-9.58599
▁cima	-9.58618
▁Ac	-9.58908
▁compi	-9.58936
▁udire	-9.58958
▁Abram	-9.59056
▁Alla	-9.59103
Andate	-9.59253
▁dicono	-9.59275
▁Abner	-9.59765
▁Sedecìa	-9.59765
▁cherubini	-9.59765
▁partì	-9.59765
▁straniero	-9.59765
▁calpest	-9.59765
▁eterno	-9.59765
▁uscirono	-9.59766
▁finito	-9.5977
▁pezzi	-9.5977
▁lasciò	-9.5978
▁macchia	-9.59786
▁provoca	-9.59829
▁seduto	-9.59832
▁scese	-9.59855
▁forti	-9.59884
▁cadere	-9.60088
▁So	-9.60137
▁lasciato	-9.60211
▁maschio	-9.60246
▁miele	-9.60437
▁giunge	-9.60455
atevi	-9.60528
▁avversari	-9.60699
za	-9.613
▁umili	-9.61306
mbi	-9.61358
▁fiducia	-9.61431
▁lunghezza	-9.61436
▁amici	-9.6144
▁registrati	-9.6144
▁rame	-9.61467
▁rimarr	-9.61488
▁vedova	-9.61496
▁volge	-9.61523
▁andate	-9.61589
▁avesse	-9.61604
▁passò	-9.61636
▁piant	-9.61762
▁fossero	-9.6178
▁vidi	-9.61847
▁renderò	-9.6189
▁prostra	-9.61949
▁cal	-9.62358
▁ferma	-9.6257
met	-9.62733
▁R	-9.62924
▁combattere	-9.62929
▁fortezze	-9.63126
▁prigione	-9.63126
▁maledizione	-9.63126
▁significa	-9.63126
▁Intanto	-9.63126
▁apostoli	-9.63127
▁lancia	-9.63127
▁giogo	-9.63157
▁conoscenza	-9.63171
▁accanto	-9.63318
▁mettere	-9.63487
▁abominio	-9.63812
ent	-9.64212
en	-9.64578
▁odia	-9.64617
▁com	-9.6474
▁abbatte	-9.64779
▁ricorda	-9.64779
▁Mardocheo	-9.6485
▁fiumi	-9.6485
▁strade	-9.64851
▁dolore	-9.64851
▁bue	-9.64852
▁schiera	-9.64892
▁collo	-9.64965
▁vedi	-9.64974
▁vieni	-9.65162
▁abitavano	-9.65212
▁U	-9.65362
▁porterà	-9.65387
▁principio	-9.65445
Quest	-9.65449
▁confida	-9.65875
▁avvicina	-9.66064
▁beve	-9.66233
▁seno	-9.66274
▁scende	-9.66365
▁fior	-9.66502
▁Damasco	-9.66605
▁Giosia	-9.66605
▁bottino	-9.66605
▁menzogna	-9.66605
▁promesso	-9.66605
▁splendore	-9.66605
▁fretta	-9.66605
▁conosciuto	-9.66609
▁furore	-9.66614
▁supplica	-9.66616
▁possiamo	-9.66618
▁ordini	-9.66624
▁faccio	-9.66656
▁tornarono	-9.66775
▁costruito	-9.66822
▁prostrò	-9.66837
▁sale	-9.66925
▁preparato	-9.6695
▁scendere	-9.66963
Parla	-9.66963
▁Tiro	-9.67056
▁canto	-9.67156
▁perire	-9.67182
▁cost	-9.67227
Si	-9.67259
arsi	-9.67359
▁spera	-9.67366
▁viola	-9.67387
▁chiamare	-9.67411
estremità	-9.67697
▁gliel	-9.67701
Come	-9.67706
▁essendo	-9.68111
▁no	-9.68221
▁allontana	-9.68298
▁danno	-9.68347
▁Giobbe	-9.68391
▁luoghi	-9.68391
▁gesta	-9.68391
▁Pilato	-9.68391
▁roccia	-9.68391
▁carro	-9.68391
▁arieti	-9.68392
▁morirà	-9.68399
▁sacco	-9.68417
▁peste	-9.68425
col	-9.68452
▁ricco	-9.68488
▁prenderà	-9.68672
▁lega	-9.68699
▁adora	-9.68701
▁chiamati	-9.68787
▁dirà	-9.68855
ppi	-9.68966
▁avanza	-9.69068
▁Fara	-9.691
stra	-9.69131
ccio	-9.69417
▁vol	-9.69575
▁ascoltare	-9.69631
▁cade	-9.69869
▁risponde	-9.69969
▁be	-9.70031
▁ribelli	-9.70194
▁Làbano	-9.70209
▁giunto	-9.70209
▁vigne	-9.7021
▁base	-9.70211
▁compiuto	-9.70216
▁carità	-9.70219
▁Gat	-9.70254
▁All	-9.70343
▁gridò	-9.70375
scono	-9.70432
▁riferi	-9.70523
▁mesi	-9.70544
▁inter	-9.70665
▁benedisse	-9.70741
▁oblazione	-9.70789
S	-9.70922
costruì	-9.7124
▁riusci	-9.71339
▁prepara	-9.71369
oriente	-9.71374
▁Tal	-9.71384
▁stare	-9.71573
cat	-9.71626
▁batte	-9.71795
nna	-9.71944
▁spogli	-9.71971
▁Eleazaro	-9.72061
▁Zaccaria	-9.72061
▁fianco	-9.72061
▁arredi	-9.72061
▁tagli	-9.72068
▁giuramento	-9.72074
▁median	-9.72093
▁prodi	-9.72132
▁avanti	-9.72358
▁ber	-9.72518
nda	-9.72603
▁vuole	-9.7268
▁m	-9.72719
▁gettato	-9.72733
▁peccatori	-9.72734
▁piomb	-9.73169
alto	-9.73237
▁second	-9.73252
▁prega	-9.73295
▁divent	-9.7341
glio	-9.73488
egli	-9.73597
▁scaccia	-9.73599
▁semina	-9.73794
▁apri	-9.73809
ù	-9.7387
▁uccidere	-9.73881
▁guida	-9.73912
▁descritt	-9.73947
▁pasqua	-9.73947
▁piccoli	-9.73947
▁ricchezza	-9.73947
▁pieni	-9.73948
efod	-9.73949
▁vicini	-9.73949
▁intanto	-9.7395
▁domani	-9.7397
▁pastori	-9.73979
▁potenti	-9.74018
▁Noè	-9.74028
▁occidente	-9.74152
▁consegnato	-9.74188
▁Simone	-9.74326
▁colpi	-9.74331
▁usa	-9.74687
▁vestito	-9.74887
▁malvagio	-9.75082
Ho	-9.75184
▁retto	-9.75219
▁ordina	-9.75773
▁paga	-9.75824
▁Zadòk	-9.7587
▁ardente	-9.7587
▁benevolenza	-9.7587
▁coppa	-9.7587
▁Betlemme	-9.75871
▁Ester	-9.75871
▁Cananei	-9.75873
▁medesim	-9.75874
▁governatore	-9.75875
▁aperto	-9.75875
▁presa	-9.75944
▁risuscitato	-9.75964
▁profetizza	-9.75978
▁segni	-9.76009
La	-9.76034
▁Aser	-9.76074
▁numerosi	-9.76107
uto	-9.76133
▁alzarono	-9.76146
▁albero	-9.76393
▁distrugge	-9.76465
▁osserv	-9.76734
ghi	-9.76775
P	-9.76828
▁regna	-9.76832
▁pianto	-9.76853
▁ascoltate	-9.76889
▁accosta	-9.76996
isce	-9.77187
▁manca	-9.77448
ccia	-9.7757
▁perdona	-9.77712
▁Nèftali	-9.77831
▁Roboamo	-9.77831
▁appartiene	-9.77831
▁cedro	-9.77831
▁comandamenti	-9.77831
▁piaga	-9.77832
▁uscirà	-9.77832
▁viscere	-9.77835
▁domina	-9.77844
▁dissi	-9.7786
▁resterà	-9.77873
▁entrerà	-9.77882
▁inviato	-9.77929
▁doni	-9.78291
▁spavento	-9.78368
▁angoscia	-9.7843
▁diventat	-9.78734
▁mostra	-9.78738
▁ridott	-9.78848
F	-9.79056
▁pianta	-9.79128
ene	-9.79208
▁salire	-9.79242
Di	-9.79298
▁assi	-9.79621
▁impar	-9.79759
▁discende	-9.7976
erba	-9.79772
▁Gàbaa	-9.79831
▁Simeone	-9.79831
▁bontà	-9.79831
▁desidera	-9.79831
▁frontiera	-9.79831
▁distrutto	-9.79832
▁regina	-9.79832
Altissimo	-9.79832
▁Amàn	-9.79834
▁colpevole	-9.79835
▁vendetta	-9.79852
one	-9.79856
▁capro	-9.79866
▁nuova	-9.79872
▁mangerete	-9.79874
▁viventi	-9.79892
▁Ioram	-9.79894
▁dirgli	-9.79913
▁tesoro	-9.79933
▁dispersi	-9.79939
don	-9.79991
▁No	-9.80018
ngono	-9.80105
▁cant	-9.80109
▁sentito	-9.80166
▁accoglie	-9.80235
osa	-9.8032
▁date	-9.80484
▁farlo	-9.80534
▁abiti	-9.80563
▁and	-9.80641
▁porti	-9.80648
temi	-9.80849
una	-9.80944
▁reca	-9.81098
▁abomini	-9.81158
bbene	-9.81605
▁posso	-9.81634
▁predica	-9.81675
▁comporta	-9.81704
▁copri	-9.81733
▁spiega	-9.81846
▁Madian	-9.81852
▁udi	-9.81866
▁Ioiadà	-9.81872
▁compassione	-9.81872
▁fondamenta	-9.81872
▁cadranno	-9.81872
▁fatica	-9.81873
▁lettera	-9.81873
▁Chiesa	-9.81876
ale	-9.81887
vestì	-9.81919
▁vanno	-9.81923
▁punto	-9.81936
▁vengono	-9.82029
▁dottrina	-9.82045
▁guardia	-9.82059
steso	-9.82072
▁corona	-9.82077
▁Certo	-9.82108
▁compiere	-9.82136
▁v	-9.82309
▁occhio	-9.82374
▁braccia	-9.82484
at	-9.8263
▁combatte	-9.8267
▁messi	-9.82728
ndovi	-9.82828
▁ricordo	-9.82837
O	-9.82969
tato	-9.83145
venterà	-9.8317
▁tratt	-9.8319
▁pecca	-9.83222
▁principi	-9.8324
sione	-9.83263
eredità	-9.83269
▁ero	-9.83314
▁Ben	-9.83826
▁germogli	-9.83891
▁viva	-9.83932
▁primi	-9.83946
▁Zàbulon	-9.83955
▁aggiunse	-9.83955
▁ascolto	-9.83955
▁banchetto	-9.83955
▁schiavitù	-9.83955
▁trombe	-9.83955
▁sacro	-9.83955
▁stelle	-9.83956
▁prezzo	-9.83962
▁accusa	-9.83997
▁presente	-9.84026
▁commette	-9.84037
▁salvato	-9.84046
▁agito	-9.84077
▁vada	-9.84086
▁ricerca	-9.84208
▁prepar	-9.84265
▁intelligenza	-9.8427
fica	-9.84322
▁Pi	-9.84331
▁decimo	-9.84439
▁seme	-9.84536
▁doveva	-9.84614
▁vende	-9.84828
rebbe	-9.84871
▁commettere	-9.84955
▁temete	-9.85114
▁Assiria	-9.85135
▁latte	-9.85231
D	-9.85246
▁proclama	-9.85262
▁giudizi	-9.85371
T	-9.85423
▁abit	-9.85473
▁distruggere	-9.85833
▁Beat	-9.86016
▁legna	-9.86064
▁Rachele	-9.86083
▁giovinezza	-9.86083
▁menzogne	-9.86083
▁notizia	-9.86083
▁scriba	-9.86083
▁Basan	-9.86083
▁altrimenti	-9.86083
▁satana	-9.86083
▁ufficiali	-9.86083
▁bisso	-9.86084
▁Azaria	-9.86087
▁colpe	-9.86111
▁pastore	-9.86218
▁offrirà	-9.86327
▁cammelli	-9.86336
▁possono	-9.86386
▁scorre	-9.86435
Su	-9.86447
▁avrebbe	-9.8645
▁riscatto	-9.86479
▁agisc	-9.86485
▁piano	-9.86517
▁caso	-9.86561
▁quarant	-9.8663
▁lasciar	-9.86777
▁aiuta	-9.86998
▁giura	-9.87073
▁dovre	-9.87432
▁Pu	-9.87507
ombra	-9.8756
oblazione	-9.87567
▁mut	-9.88022
▁chiese	-9.88145
▁accamp	-9.8817
ssimo	-9.88189
▁Sòdoma	-9.88257
▁demòni	-9.88257
▁lebbra	-9.88257
▁niente	-9.88257
▁risurrezione	-9.88257
▁sconfisse	-9.88257
▁tolto	-9.88257
▁deciso	-9.88257
▁prigionieri	-9.88257
▁Iesse	-9.88266
▁colpì	-9.88272
▁desolazione	-9.883
▁quinto	-9.88319
▁recinto	-9.88344
▁marcia	-9.88378
▁talenti	-9.88388
▁andato	-9.88428
▁allontanò	-9.88436
▁raduna	-9.88523
▁guard	-9.88615
▁chiamata	-9.8865
▁voto	-9.88651
▁generato	-9.8867
▁fissa	-9.88705
▁pronunzi	-9.89004
▁terre	-9.89006
Ma	-9.89105
atore	-9.89498
▁ricostrui	-9.89553
▁u	-9.89589
interno	-9.89782
▁consola	-9.89792
▁caccia	-9.89806
▁costruire	-9.8982
ione	-9.89856
▁riva	-9.8992
▁acquista	-9.90433
ero	-9.90442
q	-9.90478
▁Ismaele	-9.90479
▁cavalieri	-9.90479
▁fiamme	-9.90479
▁giudici	-9.90479
▁pensieri	-9.90479
▁qualcosa	-9.90479
▁scarlatto	-9.90479
▁successo	-9.90479
▁vanità	-9.90479
▁soave	-9.90481
▁statua	-9.90481
▁voglia	-9.90482
▁soffio	-9.9049
▁scor	-9.90496
Maestro	-9.90501
▁capri	-9.90508
▁lino	-9.90551
▁barca	-9.90566
▁andati	-9.90606
▁denti	-9.90635
▁sapeva	-9.90655
▁radunarono	-9.90697
▁innocente	-9.90753
▁venivano	-9.90907
▁luna	-9.91116
▁Lot	-9.91278
▁vole	-9.91346
stru	-9.9135
▁sappia	-9.91432
▁ritorno	-9.91445
▁liberato	-9.91511
bili	-9.9168
lli	-9.91737
▁pensa	-9.91973
Prendi	-9.92054
angoscia	-9.92061
Dice	-9.92102
fino	-9.92269
▁metti	-9.9244
▁lì	-9.92474
▁Ascoltate	-9.92538
▁pens	-9.92591
▁duecento	-9.92693
Onnipotente	-9.92752
▁carestia	-9.92752
▁nudità	-9.92752
▁offrì	-9.92752
▁ragione	-9.92752
▁sepolto	-9.92752
▁stanze	-9.92752
▁superstiti	-9.92752
▁destinat	-9.92752
▁aprì	-9.92752
▁conduce	-9.92752
▁Venne	-9.92754
▁strument	-9.92755
▁volle	-9.92758
▁Za	-9.92771
▁portico	-9.92786
▁siede	-9.92812
▁circoncisi	-9.92888
▁compagni	-9.92895
▁Pa	-9.92975
▁terreno	-9.93054
▁disprezzato	-9.93072
▁entrarono	-9.93119
▁trovarono	-9.93357
▁bella	-9.93359
zio	-9.93394
▁fi	-9.93423
▁nati	-9.9355
▁salvare	-9.93587
▁for	-9.93721
▁conta	-9.93739
▁dec	-9.93773
▁canti	-9.9383
▁Sta	-9.93905
▁anima	-9.93913
▁Is	-9.93984
▁rivolge	-9.94041
az	-9.9416
▁Sara	-9.94208
▁vuol	-9.94303
▁Sem	-9.94327
Voi	-9.94397
cur	-9.94402
▁piace	-9.94562
▁seppelli	-9.94939
▁chiam	-9.94981
▁concede	-9.95019
▁conosci	-9.95045
▁Balak	-9.95078
▁Benaià	-9.95078
▁cadavere	-9.95078
▁innanzi	-9.95078
▁inoltre	-9.95078
▁sinagoga	-9.95078
▁soldati	-9.95078
▁valorosi	-9.95078
▁Kiriat	-9.95078
▁vedrà	-9.95078
▁coraggio	-9.95078
▁Partirono	-9.95078
▁peggio	-9.95078
▁generazioni	-9.95079
▁libero	-9.95079
▁antichi	-9.9508
▁sacrifica	-9.95083
▁asini	-9.95089
▁cadde	-9.95092
▁petto	-9.95122
▁malvagità	-9.95125
▁chiude	-9.95132
▁stese	-9.95141
▁Asaf	-9.95177
▁Achi	-9.95188
▁amico	-9.95189
▁fuggi	-9.95269
▁castigo	-9.95323
san	-9.95367
▁agnello	-9.95393
▁abbondanza	-9.95399
▁fama	-9.95434
▁partirono	-9.95434
▁rallegr	-9.95452
▁Han	-9.95472
▁rimasto	-9.95499
▁dar	-9.95609
nne	-9.95701
▁gi	-9.95729
▁vivi	-9.95776
▁profan	-9.95787
▁miseria	-9.95794
▁trovavano	-9.96011
▁Or	-9.96366
▁prostr	-9.96366
Quando	-9.96774
occhio	-9.96817
▁vite	-9.96947
▁gradi	-9.97056
▁And	-9.97083
▁continua	-9.9709
▁Qual	-9.97097
▁pal	-9.97125
▁prov	-9.97183
▁spezza	-9.97256
▁Gedeone	-9.97458
▁Giacomo	-9.97458
▁orientale	-9.97458
▁ragazzo	-9.97458
▁risparmi	-9.97458
▁vergine	-9.97458
▁difesa	-9.97459
▁falso	-9.97459
▁corna	-9.97459
▁migliaia	-9.97459
▁decreto	-9.97459
▁feci	-9.9746
▁Erode	-9.9746
▁voluto	-9.97466
▁diletto	-9.97471
▁pesci	-9.97507
▁sappiamo	-9.97517
▁mosse	-9.9761
▁lavora	-9.97741
▁Ebbene	-9.97812
▁taglia	-9.97824
▁Pe	-9.97839
▁raccolto	-9.97847
▁annunziato	-9.97962
▁facevano	-9.98053
▁armi	-9.98058
par	-9.98067
▁seguire	-9.9818
Da	-9.9825
▁Az	-9.9839
▁Fino	-9.98468
No	-9.98532
▁Na	-9.98733
▁esulta	-9.98737
▁or	-9.99027
▁maschi	-9.99183
▁separ	-9.99184
incenso	-9.99209
intorno	-9.99212
▁innalza	-9.99408
▁dis	-9.99448
▁esseri	-9.99494
▁El	-9.99562
▁mando	-9.99609
▁interroga	-9.99752
▁compra	-9.99767
▁mari	-9.9982
▁sacri	-9.99892
▁Acaz	-9.99894
▁cancell	-9.99897
▁precetti	-9.99897
▁quattordici	-9.99897
▁vedranno	-9.99898
▁cintura	-9.99898
▁scudo	-9.99898
▁vittima	-9.99898
▁Nilo	-9.99898
▁minuto	-9.99898
▁anelli	-9.99898
▁culto	-9.99899
▁navi	-9.99904
▁simili	-9.99905
▁corse	-9.99915
▁deportati	-9.99915
▁pesa	-9.99953
▁attenzione	-9.99958
▁fortezza	-9.99969
▁considera	-10.0002
▁trema	-10.0003
▁vado	-10.0003
▁grosso	-10.0008
▁giunsero	-10.0009
▁condotto	-10.002
▁avverrà	-10.0029
▁Te	-10.004
▁maggiore	-10.0047
▁ariete	-10.005
▁moltiplica	-10.0054
▁Là	-10.0055
▁abitano	-10.0068
sal	-10.0072
▁pass	-10.0081
▁teso	-10.0087
rim	-10.0103
▁dirai	-10.0107
aveva	-10.0138
▁mor	-10.0147
ìa	-10.0151
▁canta	-10.0162
▁riuni	-10.0164
rie	-10.0166
▁desideri	-10.0168
▁ciascun	-10.0169
▁inni	-10.0175
▁alta	-10.0178
▁suon	-10.0186
ram	-10.0211
▁Av	-10.0215
▁stima	-10.0219
▁stende	-10.0223
▁poter	-10.0239
▁Issacar	-10.024
▁guerrieri	-10.024
▁mangerà	-10.024
▁stabilì	-10.024
omicida	-10.024
▁Merari	-10.024
▁Tuttavia	-10.024
▁avvenne	-10.024
▁siclo	-10.024
▁pozzo	-10.0241
▁tuttavia	-10.0241
▁senno	-10.0241
▁rovine	-10.0242
▁inviò	-10.0244
▁diecimila	-10.0244
▁predi	-10.0244
▁Tutta	-10.0249
▁diranno	-10.025
▁costituito	-10.0255
▁pone	-10.0257
▁fermò	-10.0267
▁fiss	-10.0268
▁Rama	-10.0279
▁salvatore	-10.0284
edero	-10.0288
▁Amat	-10.0305
▁camminare	-10.0305
▁desiderio	-10.0312
▁invoca	-10.0318
▁passava	-10.0319
▁Ascolta	-10.032
▁contamina	-10.0336
▁consacra	-10.0342
ntro	-10.0347
▁pare	-10.0357
ber	-10.0363
arco	-10.0366
▁leoni	-10.0373
▁immol	-10.0386
àm	-10.0387
▁fumo	-10.0389
▁resti	-10.0402
aria	-10.0402
▁sentire	-10.0425
albero	-10.0427
▁toglie	-10.0453
▁suono	-10.0458
pu	-10.0464
▁loda	-10.0465
▁annunzi	-10.0473
▁precede	-10.0483
▁manifesta	-10.0485
▁Ze	-10.0486
▁Am	-10.0486
▁govern	-10.0496
Bàal	-10.0496
▁Gàbaon	-10.0496
▁Inoltre	-10.0496
▁capelli	-10.0496
▁creduto	-10.0496
▁lingue	-10.0496
▁rispetto	-10.0496
▁spiriti	-10.0496
▁riferì	-10.0496
▁sacra	-10.0496
▁stolti	-10.0496
▁croce	-10.0496
▁cieco	-10.0497
▁pezzo	-10.0497
▁sicuro	-10.0497
▁termine	-10.0497
▁scudi	-10.0498
▁rumore	-10.0503
▁god	-10.0508
▁Amen	-10.051
▁cantori	-10.051
▁seppellirono	-10.0512
▁Po	-10.0513
▁Silo	-10.0568
▁Seir	-10.0585
▁cuor	-10.0588
▁travi	-10.0601
▁Car	-10.0625
▁conserva	-10.064
unzione	-10.0654
▁digiun	-10.0663
stri	-10.0664
▁asse	-10.0667
▁trovare	-10.0669
meno	-10.0671
▁servito	-10.0673
Ti	-10.068
▁solleva	-10.0681
▁Cont	-10.0686
aspetto	-10.069
▁Dal	-10.0695
▁cercate	-10.0703
asse	-10.0712
▁dì	-10.0714
▁obbedi	-10.0718
▁As	-10.0721
ntrato	-10.0722
▁raggiunge	-10.0744
▁Cor	-10.0751
▁rispondere	-10.0755
▁scamp	-10.0759
▁Gàlgala	-10.0759
▁Izreèl	-10.0759
▁caduta	-10.0759
▁candelabro	-10.0759
▁opprime	-10.0759
▁primizie	-10.0759
▁sacerdozio	-10.0759
▁selvatiche	-10.0759
▁superiore	-10.0759
▁libazioni	-10.0759
▁salario	-10.0759
▁Anania	-10.0759
ronache	-10.0759
▁sorta	-10.0759
▁edifica	-10.076
▁malizia	-10.076
▁Uria	-10.076
▁usciti	-10.0761
▁Sinai	-10.0762
▁cubito	-10.0763
▁Sansone	-10.0768
▁addormentò	-10.0768
▁sedere	-10.079
▁Molti	-10.0796
▁ritorna	-10.0799
▁volete	-10.08
pre	-10.0804
▁agita	-10.082
▁Core	-10.0839
▁Sì	-10.0839
▁abbandon	-10.085
▁Do	-10.0872
▁rese	-10.0901
▁continu	-10.0908
▁Mar	-10.0924
▁ritira	-10.0927
▁otto	-10.0929
ndoli	-10.0948
▁attende	-10.0951
herò	-10.0963
▁prender	-10.0993
▁st	-10.0997
▁demoli	-10.1004
dad	-10.1006
▁manifest	-10.1008
▁giovenchi	-10.103
▁grembo	-10.103
▁lacrime	-10.103
▁necessario	-10.103
▁pecora	-10.103
▁qualsiasi	-10.103
▁toccò	-10.103
▁troverà	-10.103
▁cortile	-10.103
▁stanghe	-10.103
▁calice	-10.103
▁trovi	-10.103
▁forze	-10.103
▁piazze	-10.103
▁condizione	-10.103
▁intris	-10.1031
▁degno	-10.1031
▁Persia	-10.1032
ottavo	-10.1033
▁dovunque	-10.1036
▁passerà	-10.1041
▁pena	-10.1042
▁autorità	-10.1044
▁percosse	-10.1048
▁avvicinò	-10.105
▁uccisero	-10.1051
▁quantità	-10.1052
▁spezzato	-10.1053
▁gradito	-10.1053
▁grandine	-10.1055
▁colm	-10.1057
Dio	-10.1062
▁Dov	-10.1066
▁potrebbe	-10.1068
▁Sarà	-10.1077
▁vent	-10.1078
Sa	-10.1081
▁sonno	-10.1088
▁serva	-10.1089
▁consumato	-10.1111
▁pianse	-10.113
▁aspetto	-10.113
▁estremità	-10.1137
▁consegna	-10.1182
▁affid	-10.1211
▁consum	-10.1212
▁sazia	-10.1222
anche	-10.1231
▁strapp	-10.1231
Vieni	-10.1237
hanno	-10.1248
▁compie	-10.1255
▁bruci	-10.1263
vole	-10.1282
▁N	-10.1289
▁votat	-10.1289
▁uccisi	-10.1294
▁torre	-10.1298
Hadàd	-10.1307
▁armenti	-10.1307
▁muoia	-10.1307
▁muore	-10.1307
▁paesi	-10.1307
▁paterni	-10.1307
▁riguardi	-10.1307
▁risposta	-10.1307
▁risposto	-10.1307
▁rivolse	-10.1307
▁rugiada	-10.1307
▁stoltezza	-10.1307
▁torni	-10.1307
▁dolori	-10.1307
▁Caleb	-10.1307
▁vittime	-10.1307
▁torment	-10.1307
▁vivrà	-10.1308
▁ciechi	-10.1308
▁Acazia	-10.1309
▁sconvol	-10.131
▁riferisci	-10.1311
▁fossi	-10.1315
▁vanta	-10.1315
▁Tra	-10.1316
▁Passa	-10.1316
▁Filippo	-10.1317
▁ch	-10.1318
▁dimore	-10.1321
▁resistere	-10.1322
▁vaso	-10.1323
▁prenderai	-10.1324
▁dimenticato	-10.1325
▁arrivò	-10.1326
▁occupa	-10.133
▁colpito	-10.1336
▁Sua	-10.1337
▁ventre	-10.1344
▁mandarono	-10.1346
▁grandezza	-10.1348
▁ferm	-10.1349
▁segreto	-10.1355
▁rivolto	-10.136
▁meraviglie	-10.1366
▁mostr	-10.1372
Un	-10.1372
▁Guarda	-10.1376
▁trama	-10.1393
▁dò	-10.1408
▁confid	-10.1424
▁sete	-10.1443
▁render	-10.1445
verà	-10.1453
▁Ave	-10.1457
▁Quell	-10.1468
▁aspetta	-10.1471
▁comprende	-10.1481
▁buone	-10.1482
▁Far	-10.1499
▁retta	-10.1504
▁insegna	-10.1516
▁nasconde	-10.1519
▁muove	-10.1521
ariete	-10.1525
asino	-10.1531
▁osservato	-10.1536
▁trecento	-10.1543
▁rivel	-10.156
▁prove	-10.1563
lta	-10.1565
▁creato	-10.1571
▁Pot	-10.1573
▁Natan	-10.1592
▁Kades	-10.1593
▁Negheb	-10.1593
▁fanciullo	-10.1593
▁frecce	-10.1593
▁rettitudine	-10.1593
▁saccheggia	-10.1593
▁testimone	-10.1593
▁tomba	-10.1593
▁Amazia	-10.1593
▁rupe	-10.1593
▁regioni	-10.1593
▁corni	-10.1593
▁condotti	-10.1593
▁sentieri	-10.1593
▁rossa	-10.1593
▁venite	-10.1593
▁vigore	-10.1594
▁levita	-10.1595
▁spiegazione	-10.1597
abisso	-10.1597
▁pronto	-10.1597
▁pochi	-10.16
▁vedrete	-10.1601
▁procura	-10.1608
▁To	-10.161
▁gelosia	-10.161
▁produce	-10.1622
▁odio	-10.1625
▁spine	-10.1626
▁vasi	-10.1637
▁prostituta	-10.164
▁maniera	-10.1642
▁sessanta	-10.1645
▁possiede	-10.1647
▁Ver	-10.1658
▁voti	-10.1661
▁insegui	-10.169
▁atti	-10.1718
▁sapre	-10.1722
mar	-10.1726
sette	-10.1773
amm	-10.1774
▁entri	-10.1779
▁accetta	-10.1785
dur	-10.1785
▁Dall	-10.1789
▁ven	-10.179
▁tutt	-10.1808
▁rifiut	-10.1852
gno	-10.1866
▁seppe	-10.1874
▁cammin	-10.188
▁ripudi	-10.1884
▁Bersabea	-10.1887
▁Ioiakìm	-10.1887
▁cattivo	-10.1887
▁cisterna	-10.1887
▁difetto	-10.1887
▁dipendenze	-10.1887
▁mangeranno	-10.1887
▁montagna	-10.1887
▁Costoro	-10.1887
▁Obed	-10.1887
▁cavallo	-10.1887
▁diavolo	-10.1887
▁cadrà	-10.1887
▁realtà	-10.1887
▁saldo	-10.1887
▁molta	-10.1887
▁vantaggio	-10.1887
▁visioni	-10.1887
▁liberi	-10.1887
▁serpente	-10.1888
▁stele	-10.1888
▁protegg	-10.1889
▁divorerà	-10.1892
▁andrai	-10.1895
▁davvero	-10.1896
▁partorito	-10.19
▁verrò	-10.1901
▁riguarda	-10.1904
▁fuggirono	-10.1905
▁pronti	-10.1907
▁avessi	-10.1911
▁carcere	-10.1912
▁conoscono	-10.1915
▁stanza	-10.1921
▁insegnare	-10.1924
▁ricompensa	-10.1929
▁sol	-10.1953
▁ripos	-10.1975
▁Sei	-10.1976
▁annunziare	-10.1984
▁portate	-10.2002
▁fiori	-10.2076
▁immondi	-10.2087
▁buoni	-10.2112
orgoglio	-10.212
Così	-10.2122
▁g	-10.2156
▁par	-10.2164
▁onora	-10.2171
▁debole	-10.2188
▁confusi	-10.219
zzi	-10.219
▁Filisteo	-10.219
▁Scrittura	-10.219
▁appunt	-10.219
▁frumento	-10.219
▁mangerai	-10.219
▁pazienza	-10.219
▁provincia	-10.219
▁ruote	-10.219
▁soggiunse	-10.219
▁ultimi	-10.219
▁vittoria	-10.219
▁schiave	-10.219
▁valore	-10.219
▁pianura	-10.219
▁Simei	-10.2191
▁circoncisione	-10.2191
▁vitello	-10.2192
▁sapendo	-10.2193
▁fico	-10.2194
▁guid	-10.2196
▁gr	-10.2197
▁veglia	-10.2199
▁Fra	-10.2203
▁agguato	-10.2204
▁compagno	-10.2205
▁offerto	-10.2205
▁profanato	-10.2206
venuto	-10.2207
▁quindici	-10.2214
▁riferirono	-10.2214
▁direzione	-10.2215
▁colpiti	-10.2217
▁stend	-10.2224
▁Mica	-10.2225
...	-10.2229
▁visita	-10.223
▁acceso	-10.223
▁accese	-10.2233
▁racconta	-10.2237
▁entrati	-10.2249
▁celebr	-10.2255
▁sparse	-10.2258
▁rifugia	-10.2267
▁sesto	-10.2274
▁disperde	-10.228
▁osservare	-10.2291
simo	-10.2293
▁amano	-10.2305
▁Lia	-10.2306
▁ribella	-10.2306
▁ove	-10.232
▁sede	-10.2325
àn	-10.2342
▁usc	-10.2365
Alzati	-10.2433
▁terz	-10.2435
▁laccio	-10.2444
▁avvi	-10.2452
ron	-10.2452
▁rendi	-10.2462
▁han	-10.2463
zion	-10.2463
gni	-10.2469
▁conosco	-10.2475
▁turba	-10.2477
car	-10.249
▁santifica	-10.2502
Agnello	-10.2503
▁Rebecca	-10.2503
▁caduti	-10.2503
▁cittadin	-10.2503
▁membra	-10.2503
▁oppure	-10.2503
▁perfetta	-10.2503
▁riparazione	-10.2503
▁scherno	-10.2503
▁spezzer	-10.2503
▁arresta	-10.2503
▁coscienza	-10.2503
▁giunta	-10.2503
▁norme	-10.2503
ultimo	-10.2503
▁spazio	-10.2503
▁mietitura	-10.2503
▁sabati	-10.2503
▁falsi	-10.2503
▁carni	-10.2503
▁tard	-10.2503
sentì	-10.2503
▁isole	-10.2504
▁credette	-10.2508
▁puoi	-10.2509
▁irr	-10.251
▁Sicon	-10.2513
▁credenti	-10.2516
▁terribile	-10.2516
▁mossero	-10.2519
▁vedono	-10.2525
▁stesse	-10.2528
▁crescere	-10.2534
▁giudicare	-10.2538
▁sceso	-10.2541
▁cos	-10.2553
▁voleva	-10.2554
▁giudica	-10.2561
▁gridarono	-10.2561
▁pascolo	-10.2562
▁consuma	-10.2568
scerà	-10.2584
▁stai	-10.2598
V	-10.2629
tare	-10.2632
rse	-10.2636
▁abbi	-10.2642
▁tener	-10.2647
▁comprendere	-10.2647
gio	-10.2667
endi	-10.2681
▁insulta	-10.2682
▁rendere	-10.269
ture	-10.2699
ot	-10.2707
hai	-10.2726
▁percuote	-10.2749
▁trasport	-10.2753
▁credete	-10.276
▁dimentica	-10.2769
▁usciva	-10.2796
▁vera	-10.2802
▁Cam	-10.2806
▁scacci	-10.2811
cam	-10.2814
▁rapi	-10.2814
▁Zi	-10.2817
▁grave	-10.2823
▁Chelkia	-10.2825
▁Sidòne	-10.2825
▁ascolti	-10.2825
▁bestemmia	-10.2825
▁deposit	-10.2825
▁lampade	-10.2825
▁messaggero	-10.2825
▁parabola	-10.2825
▁fiamma	-10.2825
▁piccola	-10.2825
▁Giona	-10.2825
▁Zerach	-10.2825
orfano	-10.2825
▁lontani	-10.2825
▁preghiere	-10.2825
▁chiesto	-10.2826
Ezer	-10.2826
▁scrisse	-10.2826
▁destro	-10.2827
▁saputo	-10.2827
Le	-10.2827
▁Ghi	-10.2827
▁fichi	-10.2828
▁profumi	-10.2828
▁Chiese	-10.2829
▁visse	-10.2833
▁malato	-10.2836
▁esalt	-10.2842
▁colli	-10.2845
▁sante	-10.2847
▁flagello	-10.2848
▁consegnò	-10.2852
▁abitava	-10.2854
▁avvicinarono	-10.2855
▁potra	-10.2856
▁seminato	-10.2861
iamoci	-10.2861
▁rotolo	-10.2869
▁bruciato	-10.2874
▁trattato	-10.288
▁sigillo	-10.2881
▁mangiarono	-10.2881
▁preoccupa	-10.2886
▁strappa	-10.2886
▁sposo	-10.2895
▁distribui	-10.2904
▁Alzati	-10.2912
▁circonda	-10.2913
▁credere	-10.2926
▁arco	-10.2926
▁cercano	-10.294
▁contare	-10.295
▁serve	-10.2954
▁appari	-10.2962
▁vestiti	-10.2963
▁quattrocento	-10.2972
▁impadron	-10.2982
os	-10.2997
▁bagn	-10.3
gano	-10.3004
Al	-10.3007
▁Però	-10.3018
uma	-10.3018
▁Bel	-10.3045
▁Dove	-10.3045
▁priva	-10.3047
▁riconosce	-10.3048
otto	-10.305
▁diventati	-10.3055
▁domande	-10.3057
▁vicina	-10.306
▁messe	-10.3077
▁ricad	-10.3078
▁maggior	-10.3081
▁stermina	-10.3085
▁benedett	-10.3089
▁avre	-10.3098
▁Entr	-10.3098
▁devastato	-10.3113
▁retti	-10.3114
hi	-10.3124
▁ridurr	-10.3141
▁Keat	-10.3157
▁Abia	-10.3157
▁imped	-10.3158
Araba	-10.3159
▁Booz	-10.3159
▁Safàn	-10.3159
▁accessori	-10.3159
▁felice	-10.3159
▁miracoli	-10.3159
▁trafitti	-10.3159
▁tribolazione	-10.3159
▁congiura	-10.3159
▁palazzi	-10.3159
▁rimprovera	-10.3159
▁Pertanto	-10.3159
▁colonna	-10.3159
▁azzimi	-10.3159
▁cenere	-10.3159
▁dominio	-10.3159
▁fondo	-10.3159
▁canna	-10.3159
▁cerchi	-10.3159
▁inarid	-10.3159
▁lascerò	-10.3159
▁limite	-10.316
▁province	-10.316
scendono	-10.316
▁palme	-10.3162
▁Nun	-10.3162
▁udì	-10.3162
▁sabbia	-10.3163
▁Maaca	-10.3166
▁discepolo	-10.317
▁Canto	-10.3177
▁crocifisso	-10.3177
▁schi	-10.3179
▁gira	-10.318
▁prostrarono	-10.3193
uscita	-10.3195
▁altezza	-10.3196
▁darai	-10.3197
att	-10.3198
▁bat	-10.3204
▁liberati	-10.321
Vi	-10.3212
▁mangi	-10.3215
▁seguirono	-10.3216
▁nem	-10.3221
▁giurare	-10.3222
▁nutri	-10.3223
▁agire	-10.3226
▁spunt	-10.3236
▁Risposero	-10.3236
▁passati	-10.324
▁T	-10.3255
sorto	-10.3262
▁afferma	-10.3262
▁rad	-10.3283
▁cercare	-10.3306
▁grid	-10.3317
▁spos	-10.3349
▁fatte	-10.3351
▁sappiate	-10.3354
pro	-10.3355
Dov	-10.3356
▁Sull	-10.3361
▁seicento	-10.3363
▁presenti	-10.3381
▁adempi	-10.3412
centocinquanta	-10.3422
G	-10.3425
▁riposa	-10.3429
espiazione	-10.3434
▁vecchi	-10.3437
Sì	-10.3442
▁Og	-10.3469
zzo	-10.3473
▁capita	-10.3481
▁sarem	-10.3486
▁uccid	-10.3488
▁indoss	-10.3496
▁Gherson	-10.3501
Hittita	-10.3503
▁Barnaba	-10.3503
▁Dodici	-10.3503
▁Hittiti	-10.3503
▁Kis	-10.3503
▁Legge	-10.3503
▁Pasqua	-10.3503
▁bevuto	-10.3503
▁cattivi	-10.3503
▁coperchio	-10.3503
▁eppure	-10.3503
▁fuggì	-10.3503
▁penetra	-10.3503
▁preziose	-10.3503
▁settentrionale	-10.3503
▁toccher	-10.3503
▁Iefte	-10.3503
▁difetti	-10.3503
▁libertà	-10.3503
▁libazione	-10.3504
▁tramonto	-10.3504
▁fragore	-10.3504
▁accorse	-10.3504
▁migliore	-10.3504
▁eravamo	-10.3504
impu	-10.3504
▁barba	-10.3505
▁Semaia	-10.3505
▁soglia	-10.3505
▁fabbrica	-10.3505
▁ladro	-10.3506
▁prego	-10.3511
▁nasce	-10.3516
▁prodotti	-10.3519
▁caddero	-10.3522
▁sepolcri	-10.3522
▁prescrizioni	-10.3528
▁periranno	-10.3529
▁accaduto	-10.3541
gar	-10.3555
▁toccato	-10.3557
▁bac	-10.356
▁potut	-10.3564
▁"	-10.3566
▁pregare	-10.357
▁presentaron	-10.3571
▁salvo	-10.3574
▁operato	-10.3575
▁versato	-10.3578
▁salv	-10.358
▁perseguita	-10.358
▁rete	-10.3583
▁rimasti	-10.3584
▁bruciare	-10.3589
ità	-10.3592
▁devasta	-10.3592
▁saliva	-10.3598
▁ricev	-10.3601
▁cambi	-10.3612
▁fuga	-10.3616
▁accett	-10.3627
▁mal	-10.363
condo	-10.3631
▁potre	-10.3641
▁portano	-10.3643
▁scuote	-10.3646
▁immola	-10.3696
▁seguiva	-10.3709
▁farti	-10.3711
▁celebra	-10.3741
omini	-10.3741
▁ricevere	-10.3753
▁Ur	-10.3755
B	-10.3786
▁cambia	-10.3787
Anch	-10.3795
▁consumat	-10.3803
▁perseguit	-10.3822
▁custodia	-10.3829
▁invano	-10.3831
▁perde	-10.3834
▁dica	-10.3843
▁divorato	-10.3847
L	-10.3848
▁sorge	-10.3852
▁cresce	-10.386
▁Anzi	-10.386
▁pubblic	-10.3861
▁Alcuni	-10.3861
▁Amnòn	-10.3861
▁Baasa	-10.3861
▁Godolia	-10.3861
▁ministero	-10.3861
▁occidentale	-10.3861
▁primogeniti	-10.3861
▁sciagura	-10.3861
▁spegne	-10.3861
▁strage	-10.3861
▁tranquillo	-10.3861
▁vergini	-10.3861
▁Cesare	-10.3861
▁lievito	-10.3861
▁comune	-10.3861
▁radici	-10.3861
▁cinge	-10.3861
▁piazza	-10.3861
▁esamina	-10.3861
▁basso	-10.3861
▁portieri	-10.3861
milacinquecento	-10.3861
▁Giudeo	-10.3861
▁prigioniero	-10.3861
▁nave	-10.3861
▁alzerà	-10.3861
▁riprese	-10.3861
▁bada	-10.3861
▁adulterio	-10.3862
▁comandamento	-10.3862
▁annienta	-10.3862
▁gust	-10.3863
▁purificazione	-10.3867
▁vanto	-10.3868
▁rifiuta	-10.3874
▁esilio	-10.3877
▁numeroso	-10.3878
▁obbedito	-10.3888
▁piange	-10.3889
▁imita	-10.3891
▁fermarono	-10.3897
▁manifestato	-10.3898
▁perdonato	-10.3898
▁Tre	-10.3899
▁teneva	-10.3901
▁colle	-10.3903
▁inganno	-10.3905
▁nove	-10.391
▁accende	-10.3911
▁piacere	-10.3917
▁innalz	-10.392
▁scoprir	-10.3921
▁cambio	-10.3935
▁ricade	-10.3948
▁decima	-10.3955
▁amato	-10.3957
▁steppa	-10.3958
▁pari	-10.3975
▁ombra	-10.3977
▁lunga	-10.3992
▁dici	-10.4029
▁tratto	-10.4038
▁elimin	-10.4038
▁suona	-10.4039
▁inizi	-10.4053
uso	-10.4054
▁consider	-10.4072
▁riferire	-10.4082
▁rendo	-10.4088
M	-10.41
▁vale	-10.4101
▁superbi	-10.4102
▁ancor	-10.4104
▁portando	-10.4107
▁sfugg	-10.4109
▁saluta	-10.4118
▁Sam	-10.4123
posero	-10.4134
▁alte	-10.4145
▁gen	-10.4147
nvece	-10.4149
▁mormora	-10.4159
▁corre	-10.4192
nderò	-10.4196
▁Mo	-10.4199
▁minaccia	-10.421
▁veda	-10.4217
▁concepi	-10.4217
▁piega	-10.4228
aquila	-10.4231
▁caduto	-10.4231
▁fanciulla	-10.4231
▁offre	-10.4231
▁prìncipi	-10.4231
▁tempesta	-10.4231
▁zelo	-10.4231
▁frantum	-10.4231
▁vedrai	-10.4231
▁giaciglio	-10.4231
▁paglia	-10.4231
▁scelti	-10.4231
▁governatori	-10.4231
▁lassù	-10.4231
▁pregò	-10.4231
▁saldi	-10.4231
▁Greci	-10.4231
occorre	-10.4231
▁corno	-10.4231
▁venticinque	-10.4231
▁trascin	-10.4233
▁prenda	-10.4233
▁cetra	-10.4234
▁vedove	-10.4234
▁divina	-10.4234
▁comunic	-10.4235
▁Ozia	-10.4238
▁parente	-10.4238
▁porzione	-10.4241
▁verde	-10.4242
▁detta	-10.4243
▁parto	-10.4246
▁inviati	-10.4246
▁chiuso	-10.4247
▁offrirai	-10.4247
▁avvolto	-10.4249
▁vollero	-10.4251
▁pelo	-10.4252
▁fuggire	-10.4252
▁chiesero	-10.4252
dita	-10.4253
▁piatto	-10.4257
▁signori	-10.4266
▁occasione	-10.4272
▁riferito	-10.4272
▁stabili	-10.4278
▁imposto	-10.4282
▁allontan	-10.4282
▁Adonia	-10.4283
▁giur	-10.4292
▁aggiung	-10.4295
▁tenta	-10.4299
▁cercavano	-10.4304
▁faremo	-10.4319
▁Can	-10.4344
▁averi	-10.4344
▁cessa	-10.4351
▁darti	-10.4361
▁pascol	-10.4366
estate	-10.4367
▁rivolt	-10.4371
▁teste	-10.4375
▁esiste	-10.4377
▁Prendi	-10.4386
▁darete	-10.4387
▁stabilir	-10.4391
▁fiore	-10.44
▁ud	-10.4403
he	-10.4416
▁Alza	-10.4436
Questa	-10.4441
cinque	-10.4445
rida	-10.4454
▁diffonde	-10.4454
durrò	-10.4455
▁stacc	-10.4455
▁schiacciat	-10.4456
inizio	-10.4465
▁avanz	-10.4473
▁allontanato	-10.449
rì	-10.4495
▁soli	-10.4511
▁riscatt	-10.4519
▁indic	-10.4525
▁tira	-10.4533
▁vot	-10.4535
▁consigli	-10.4544
"	-10.4546
Qual	-10.4546
Poiché	-10.4547
▁apparteneva	-10.4549
▁consegn	-10.4565
▁pian	-10.4579
tela	-10.458
Re	-10.4584
▁glorifica	-10.4596
imento	-10.4601
roprio	-10.4615
▁Abisài	-10.4616
▁Amalek	-10.4616
▁Assuero	-10.4616
▁Chesbon	-10.4616
▁Zeruià	-10.4616
▁bianco	-10.4616
▁caverna	-10.4616
▁cherubino	-10.4616
▁contrario	-10.4616
▁coppe	-10.4616
▁giusta	-10.4616
▁meridionale	-10.4616
▁sandali	-10.4616
▁straniere	-10.4616
▁Riprese	-10.4616
▁cavalca	-10.4616
▁acacia	-10.4616
▁maestà	-10.4616
▁messaggio	-10.4616
▁tolse	-10.4616
angolo	-10.4616
▁Rosso	-10.4616
▁corda	-10.4616
▁radice	-10.4616
▁riport	-10.4616
oscurità	-10.4616
▁migliori	-10.4616
▁spetta	-10.4616
▁realizz	-10.4616
infamia	-10.4616
▁distrutti	-10.4616
▁Ramot	-10.4616
▁mistero	-10.4616
▁preferi	-10.4616
▁venduto	-10.4616
▁Dario	-10.4616
▁discorso	-10.4616
assedio	-10.4616
▁scudiero	-10.4616
▁morirono	-10.4617
▁monta	-10.4617
▁bellezza	-10.4617
▁sentiero	-10.4617
▁apparso	-10.4618
▁divide	-10.4619
▁benedica	-10.4619
▁compiace	-10.4619
▁morta	-10.4619
▁vorrà	-10.4619
▁addett	-10.462
▁sorgenti	-10.4621
▁parli	-10.4623
▁fost	-10.4624
▁Moabiti	-10.4629
▁stabilirono	-10.4634
▁Achis	-10.4634
▁circonciso	-10.4634
▁esplorar	-10.4638
duci	-10.4646
▁Bil	-10.4649
▁irrit	-10.4654
▁affidato	-10.4658
▁andiamo	-10.466
▁legato	-10.4662
▁Sul	-10.467
▁custodisc	-10.4677
▁alzati	-10.4682
▁peccare	-10.4683
▁ritornare	-10.4684
▁sanno	-10.4702
▁invoch	-10.4706
▁inganna	-10.4717
▁digiuno	-10.4722
▁orecchio	-10.4728
▁palo	-10.4735
▁sembra	-10.4736
▁toglier	-10.475
▁casato	-10.4753
▁Ana	-10.4753
▁erba	-10.4754
▁abbonda	-10.4772
▁afferr	-10.4791
▁colpire	-10.48
▁Sarai	-10.4802
▁trovano	-10.4828
▁posa	-10.4833
▁possed	-10.4842
▁scruta	-10.4858
almente	-10.4859
▁gem	-10.4863
▁En	-10.488
▁Col	-10.4894
Ci	-10.4903
▁trent	-10.4925
ttene	-10.4925
▁scioglie	-10.4927
▁segue	-10.4935
retti	-10.4935
▁calma	-10.4936
▁possied	-10.494
seguì	-10.4946
Guarda	-10.4946
▁indica	-10.4947
▁torto	-10.4956
lmente	-10.4972
▁scrive	-10.498
▁comanda	-10.4981
▁avvicin	-10.4982
▁dati	-10.4985
super	-10.499
▁scont	-10.4994
▁dirige	-10.4996
▁rigett	-10.5008
▁piene	-10.5015
▁Esdra	-10.5016
▁Mesullàm	-10.5016
▁Nebàt	-10.5016
▁Sallùm	-10.5016
▁concubina	-10.5016
▁fanciulli	-10.5016
▁magistrati	-10.5016
▁malfattori	-10.5016
▁misurò	-10.5016
▁montone	-10.5016
▁preziosi	-10.5016
▁raccolse	-10.5016
▁rovesci	-10.5016
▁splende	-10.5016
▁virtù	-10.5016
▁Ebrei	-10.5016
▁coperta	-10.5016
▁diffus	-10.5016
▁scherni	-10.5016
▁vestibolo	-10.5016
▁Baruc	-10.5016
▁foresta	-10.5016
▁giunti	-10.5016
▁vicenda	-10.5016
▁immonda	-10.5016
▁umana	-10.5016
▁cresciut	-10.5016
▁scelta	-10.5016
▁cetre	-10.5016
▁indovini	-10.5016
▁Merib	-10.5016
▁Michea	-10.5016
▁lettere	-10.5018
▁Prim	-10.5018
▁Ricordati	-10.5019
▁aromi	-10.502
▁legname	-10.502
▁tenut	-10.502
▁seguente	-10.5021
▁Maledett	-10.5023
▁carica	-10.5024
▁passeranno	-10.5025
▁Chiram	-10.5026
▁forni	-10.5026
▁ammon	-10.5027
▁impose	-10.5027
▁andrò	-10.5029
▁predetto	-10.5029
▁distruzione	-10.5029
▁concep	-10.5031
▁ricchi	-10.5037
acquist	-10.5047
vrebbero	-10.505
▁consultare	-10.5052
▁unico	-10.5055
▁rimand	-10.5055
▁giurò	-10.5061
▁fissato	-10.5064
▁conquista	-10.5065
▁appar	-10.5071
▁Rend	-10.5072
▁rivelato	-10.5074
▁Pro	-10.5078
▁Ciro	-10.5079
▁sino	-10.5088
▁mali	-10.5097
▁eresse	-10.5104
Ri	-10.5105
vince	-10.5112
▁Vedi	-10.5125
▁asino	-10.5125
erebbe	-10.5146
▁riunit	-10.5146
▁propri	-10.5152
▁piangere	-10.5158
▁cari	-10.5188
▁passate	-10.5199
▁interno	-10.5208
stro	-10.5218
altura	-10.5222
▁rive	-10.5227
▁lapida	-10.5233
▁Và	-10.5239
▁meraviglia	-10.5244
▁esorta	-10.5259
▁Mare	-10.5276
▁benedi	-10.5299
▁V	-10.5308
▁Esse	-10.5309
abbia	-10.5325
▁sigill	-10.5356
Con	-10.5361
▁segret	-10.5363
▁miseri	-10.5369
empietà	-10.5378
gra	-10.5379
▁vedo	-10.54
▁vengo	-10.5406
oso	-10.5408
trice	-10.5411
▁scendeva	-10.5414
▁sedette	-10.5422
inf	-10.5425
improvviso	-10.5432
▁Gebusei	-10.5432
▁Ioacaz	-10.5432
▁abominevoli	-10.5432
▁costruzione	-10.5432
▁prescritt	-10.5432
▁proposito	-10.5432
▁sostegno	-10.5432
▁volontari	-10.5432
▁cedri	-10.5432
▁materno	-10.5432
▁palazzo	-10.5432
▁parlerò	-10.5432
▁pettorale	-10.5432
▁partecipa	-10.5432
▁Lachis	-10.5432
▁genitori	-10.5432
▁corde	-10.5432
▁riparo	-10.5432
▁permesso	-10.5432
▁stanca	-10.5432
▁perversa	-10.5432
▁fonte	-10.5432
▁veleno	-10.5432
▁mosto	-10.5432
▁natura	-10.5432
▁Iotam	-10.5433
▁relativ	-10.5433
▁debito	-10.5433
▁tunica	-10.5433
▁giù	-10.5433
▁pegno	-10.5434
▁asine	-10.5434
▁eletti	-10.5435
ezer	-10.5435
▁lecito	-10.5436
▁pos	-10.5436
Arnon	-10.5437
▁rivestir	-10.5437
▁veramente	-10.5437
▁entreranno	-10.5438
▁pascolare	-10.5439
▁chiuse	-10.544
Oreb	-10.5445
▁andranno	-10.5452
▁sud	-10.5452
▁distruggerò	-10.5453
▁ritirò	-10.5454
▁seduti	-10.5455
▁prode	-10.5457
▁punirò	-10.5459
Dove	-10.5459
▁viveri	-10.5459
▁Eber	-10.5459
▁scesero	-10.5465
▁eseguire	-10.5466
▁scompars	-10.5466
seguito	-10.5468
▁fuggito	-10.5469
▁focacce	-10.5471
▁intes	-10.5476
▁Prende	-10.5486
▁esterno	-10.5493
▁volere	-10.5499
▁udite	-10.5501
▁priv	-10.5502
▁seguì	-10.5506
▁secca	-10.5509
▁proprie	-10.551
▁porteranno	-10.5514
▁Dissero	-10.5516
▁manto	-10.5532
▁divise	-10.5556
▁coric	-10.5559
▁teli	-10.5568
▁liberare	-10.557
▁vedete	-10.5576
▁superbia	-10.558
▁conoscete	-10.5582
▁entr	-10.5594
▁crea	-10.5594
▁dimostra	-10.5597
▁giova	-10.5609
▁intero	-10.5614
▁gridare	-10.5627
▁avver	-10.5636
▁dichiara	-10.564
▁compia	-10.5659
▁testimonio	-10.5662
▁bracci	-10.5665
▁vari	-10.5676
▁Cas	-10.5696
▁sparge	-10.5697
▁ribellat	-10.5702
▁condur	-10.5707
▁distrugg	-10.5726
N	-10.5726
▁Ab	-10.5733
▁Fin	-10.5744
▁Pres	-10.5749
Sia	-10.5752
▁Del	-10.5752
▁riten	-10.5761
▁cav	-10.5763
▁invia	-10.5763
▁rimast	-10.5786
▁raccolt	-10.5796
▁quand	-10.5796
orzo	-10.5796
Quant	-10.5798
▁portava	-10.581
▁oppressi	-10.5823
▁suscit	-10.5825
▁intende	-10.5834
▁giudicher	-10.5835
ttanta	-10.5841
▁ragg	-10.5846
▁Lascia	-10.5847
nni	-10.5849
▁mod	-10.5862
▁Ebiatàr	-10.5867
▁Gomorra	-10.5867
▁Testimonianza	-10.5867
▁angoli	-10.5867
▁ascoltò	-10.5867
▁divinità	-10.5867
▁eunuchi	-10.5867
▁fanciulle	-10.5867
▁femmina	-10.5867
▁ginocchia	-10.5867
▁possibile	-10.5867
▁superstite	-10.5867
▁trionf	-10.5867
▁pensiero	-10.5867
▁celeste	-10.5867
▁doppio	-10.5867
▁statuti	-10.5867
▁Salutate	-10.5867
▁fango	-10.5867
▁Altri	-10.5867
▁Gaza	-10.5867
▁Noemi	-10.5867
▁usciranno	-10.5867
▁guai	-10.5867
▁trascur	-10.5867
▁discorsi	-10.5867
▁liberò	-10.5867
▁suocero	-10.5867
▁pertanto	-10.5868
▁battesimo	-10.5868
▁morirai	-10.5868
▁narr	-10.5868
▁vitelli	-10.5868
▁benessere	-10.5868
▁moriranno	-10.5868
▁pelli	-10.5869
▁tanti	-10.5869
▁sterminer	-10.5869
▁assedia	-10.587
▁pasce	-10.5871
▁valli	-10.5872
▁sorgente	-10.5873
▁libererà	-10.5874
▁caro	-10.5874
▁ignor	-10.5874
▁Abel	-10.5875
▁parlo	-10.5876
alba	-10.5877
▁battenti	-10.5879
▁mortale	-10.5879
▁umiliato	-10.5886
▁colloca	-10.5888
▁animale	-10.5888
corso	-10.5889
▁sorti	-10.5894
▁perversi	-10.5897
▁coprir	-10.5897
▁permett	-10.5897
▁consacrati	-10.5901
▁uva	-10.5904
▁disperse	-10.5904
▁lamenti	-10.5904
▁Cad	-10.591
▁conviene	-10.5913
udire	-10.5921
▁proclam	-10.5924
stesa	-10.5926
▁animo	-10.5926
▁risulta	-10.5927
▁disonora	-10.5932
▁decime	-10.5937
▁prenderò	-10.5946
▁depose	-10.5947
▁amare	-10.5953
▁espiazione	-10.5956
▁vola	-10.5959
▁largo	-10.5965
▁andavano	-10.5966
▁avvicinare	-10.5966
▁Ve	-10.5966
manderà	-10.5967
▁inseguire	-10.5969
Noi	-10.5973
▁cinquecento	-10.5982
▁passo	-10.5993
▁dovra	-10.6011
▁prendete	-10.6014
▁massa	-10.6018
lità	-10.6032
▁servile	-10.6033
▁atto	-10.6042
▁salvi	-10.6062
▁rientr	-10.6081
tando	-10.6085
levò	-10.6105
▁spaventa	-10.6125
▁Quel	-10.618
restò	-10.6185
▁lavorava	-10.6197
Giu	-10.6208
▁patria	-10.6208
▁muov	-10.6223
▁facciano	-10.6226
▁sbrana	-10.6242
▁rallegra	-10.6249
▁espiatori	-10.625
intelligenza	-10.6252
Baal	-10.6253
▁Simon	-10.626
▁tremila	-10.6266
▁Aveva	-10.6267
▁Chel	-10.6269
▁tace	-10.6287
▁rivolg	-10.6294
▁pregava	-10.6298
▁dolce	-10.6319
▁Qui	-10.6322
investitura	-10.6322
▁Cazaèl	-10.6322
▁Macedonia	-10.6322
▁Mizpa	-10.6322
▁Timòteo	-10.6322
▁bevanda	-10.6322
▁cattiva	-10.6322
▁centinaia	-10.6322
▁progetti	-10.6322
▁riflett	-10.6322
▁rimanga	-10.6322
▁rocce	-10.6322
▁scettro	-10.6322
▁scoperto	-10.6322
▁sinagoghe	-10.6322
▁sinedrio	-10.6322
▁stringe	-10.6322
▁veggente	-10.6322
▁misfatti	-10.6322
▁Venut	-10.6322
▁compiuti	-10.6322
▁confess	-10.6322
▁giubileo	-10.6322
▁consiglieri	-10.6322
▁hin	-10.6322
Fratelli	-10.6322
▁classi	-10.6322
▁sedici	-10.6322
▁arricch	-10.6322
▁Timna	-10.6322
▁esercita	-10.6322
comandò	-10.6322
▁abbattuto	-10.6322
▁diciotto	-10.6322
▁selva	-10.6322
▁Dura	-10.6322
▁sceglie	-10.6323
▁croll	-10.6324
▁regali	-10.6324
▁lance	-10.6324
▁correzione	-10.6325
▁cani	-10.6325
▁carico	-10.6325
▁intona	-10.6326
▁compimento	-10.6327
▁nacquero	-10.6328
▁palma	-10.6328
▁decid	-10.6328
▁torrenti	-10.633
▁rigettato	-10.633
▁parenti	-10.633
▁centurione	-10.6331
▁inciamp	-10.6331
▁cella	-10.6332
▁minore	-10.6333
▁mostrerò	-10.6333
▁santità	-10.6334
▁Achia	-10.6335
▁Solo	-10.6339
▁prime	-10.634
▁abbatt	-10.634
▁attira	-10.634
▁stabile	-10.6341
tornerà	-10.6346
▁Susa	-10.6352
▁sparso	-10.6353
▁salvami	-10.6353
▁onde	-10.6358
▁risponderà	-10.636
▁consulta	-10.6363
ume	-10.6364
▁mangiò	-10.6365
▁eliminato	-10.637
▁cessare	-10.6371
▁gridando	-10.6372
▁salita	-10.6375
▁istante	-10.6376
asina	-10.6377
▁bello	-10.6384
▁prest	-10.6386
▁Par	-10.639
eravate	-10.64
▁odiano	-10.6401
▁diventi	-10.6408
▁sorgere	-10.641
▁merita	-10.6431
▁stretto	-10.6433
▁lasciate	-10.6436
anello	-10.6438
vennero	-10.6439
R	-10.6441
▁vengano	-10.6442
▁osservano	-10.6442
▁nasconder	-10.6443
àl	-10.6447
▁cammini	-10.6461
▁arriv	-10.6463
▁gridava	-10.6476
pia	-10.6482
▁basta	-10.6483
▁quart	-10.6496
▁metto	-10.6507
▁amo	-10.6508
▁precipita	-10.651
▁medit	-10.6515
▁cas	-10.6519
▁Ner	-10.652
avanti	-10.6542
▁guardare	-10.6545
▁nomin	-10.655
▁efa	-10.6553
▁M	-10.6572
orlo	-10.6574
▁combatt	-10.6578
▁trasportar	-10.6581
▁neve	-10.6584
▁ascoltano	-10.6585
▁scava	-10.6587
dotto	-10.6602
▁soddisf	-10.6613
mettono	-10.6614
▁Osserv	-10.6637
▁cinquant	-10.6641
▁condann	-10.6643
▁inform	-10.6645
▁pongo	-10.6656
▁stepp	-10.6669
▁doma	-10.6682
▁guarir	-10.6684
▁invoc	-10.6691
▁smarr	-10.6702
que	-10.6712
ura	-10.6715
▁Ricord	-10.6724
Forse	-10.6729
▁divenut	-10.6733
▁strett	-10.6739
▁attacca	-10.6744
▁succed	-10.677
▁fila	-10.677
accompagna	-10.6781
▁partori	-10.6794
Eufrate	-10.6798
Oltrefiume	-10.6798
aurora	-10.6798
▁Alleluia	-10.6798
▁Iabes	-10.6798
▁Mizpà	-10.6798
▁Scritture	-10.6798
▁Soltanto	-10.6798
▁capifamiglia	-10.6798
▁carbon	-10.6798
▁contempl	-10.6798
▁designat	-10.6798
▁dipende	-10.6798
▁disparte	-10.6798
▁fornace	-10.6798
▁funzionari	-10.6798
▁gonfi	-10.6798
▁guarito	-10.6798
▁inginocchi	-10.6798
▁lampada	-10.6798
▁padroni	-10.6798
▁prostituzione	-10.6798
▁splendid	-10.6798
▁sterile	-10.6798
▁tributo	-10.6798
▁troverete	-10.6798
▁truppa	-10.6798
▁violento	-10.6798
▁buio	-10.6798
▁cortina	-10.6798
▁deboli	-10.6798
▁giuste	-10.6798
▁integro	-10.6798
▁vacche	-10.6798
▁ferita	-10.6798
▁scrivi	-10.6798
▁Sisara	-10.6798
▁grado	-10.6798
▁sacre	-10.6798
▁orrore	-10.6798
▁ritorto	-10.6798
▁tralci	-10.6798
▁Manasse	-10.6798
▁spade	-10.6798
▁profondo	-10.6798
▁debb	-10.6798
▁grasse	-10.6799
▁fonde	-10.6799
▁assicur	-10.6799
▁regola	-10.68
▁scagli	-10.68
▁incaricat	-10.6801
▁copre	-10.6801
▁capra	-10.6801
▁appoggia	-10.6802
▁perdono	-10.6803
▁dodicimila	-10.6804
▁delitto	-10.6806
▁riscattare	-10.6806
▁dichiarerà	-10.6807
▁verga	-10.6807
▁aderi	-10.6807
▁tradito	-10.6808
▁attua	-10.6808
▁rettili	-10.6809
▁venisse	-10.681
▁Allo	-10.681
▁salverà	-10.6813
▁ucciderlo	-10.6813
▁glorificato	-10.6823
▁risuscit	-10.6823
▁sterminato	-10.6827
▁amanti	-10.6828
nunc	-10.6832
àr	-10.6834
▁posti	-10.6836
insegn	-10.684
▁tenne	-10.684
▁flagelli	-10.6843
▁ecce	-10.6844
▁venera	-10.6851
▁Costui	-10.6851
▁dimenticare	-10.6852
▁finire	-10.6852
▁pericolo	-10.6856
▁celebrare	-10.6857
▁importa	-10.6858
▁rialza	-10.686
▁cercava	-10.6865
▁consacrate	-10.6867
▁belle	-10.6869
▁privo	-10.6881
▁salvati	-10.6884
▁vendicato	-10.6893
▁renda	-10.6893
▁formato	-10.6894
▁elev	-10.6899
▁rott	-10.6902
▁seguendo	-10.691
ggiunge	-10.6911
▁anda	-10.6914
▁condurre	-10.6916
centomila	-10.6926
▁Bene	-10.6926
fat	-10.6928
sima	-10.694
▁Fate	-10.6952
▁Quale	-10.6959
▁fuso	-10.697
▁considerat	-10.6982
▁geme	-10.6984
▁converti	-10.699
▁decim	-10.6992
Questi	-10.6996
▁Guardate	-10.7012
▁Sap	-10.702
▁desiste	-10.7024
forme	-10.7026
▁piantato	-10.7033
▁lapid	-10.7039
Prendete	-10.7039
▁riconosc	-10.7064
▁sopporta	-10.7074
nati	-10.7093
▁afferra	-10.7097
▁svegli	-10.7124
▁portata	-10.7131
fatti	-10.7136
nata	-10.7143
▁osservate	-10.715
▁guardando	-10.716
lat	-10.7172
▁spacc	-10.7192
▁lavorato	-10.7196
▁prendendo	-10.7212
Edom	-10.7229
uccise	-10.723
Aram	-10.7234
▁rialz	-10.7235
▁nascos	-10.7246
▁appare	-10.7249
▁chiedere	-10.7264
▁conged	-10.7267
▁iniqui	-10.7295
▁attenta	-10.7296
▁aperta	-10.7297
▁prigioni	-10.7297
▁costituir	-10.7298
▁Amaleciti	-10.7298
▁Eleàzaro	-10.7298
▁Elkana	-10.7298
▁Gezabele	-10.7298
▁Gioele	-10.7298
▁Nabal	-10.7298
▁Tamàr	-10.7298
▁Zorobabele	-10.7298
▁canale	-10.7298
▁cittadella	-10.7298
▁demonio	-10.7298
▁esclamò	-10.7298
▁figura	-10.7298
▁forestieri	-10.7298
▁guarì	-10.7298
▁maggiordomo	-10.7298
▁misure	-10.7298
▁ottenuto	-10.7298
▁perfetto	-10.7298
▁piacque	-10.7298
▁pilastri	-10.7298
▁preziosa	-10.7298
▁ribelle	-10.7298
▁sicurezza	-10.7298
▁silenzio	-10.7298
▁squill	-10.7298
▁tessut	-10.7298
▁turbine	-10.7298
▁Tarsis	-10.7298
▁breccia	-10.7298
▁calunnia	-10.7298
▁maledetto	-10.7298
▁Itamar	-10.7298
▁ingiust	-10.7298
▁sorelle	-10.7298
▁camera	-10.7298
▁confuso	-10.7298
▁spighe	-10.7298
▁breve	-10.7298
▁tredici	-10.7298
▁apostolo	-10.7298
▁salda	-10.7298
▁drago	-10.7298
▁distrutte	-10.7298
▁sentenza	-10.7298
▁armati	-10.7298
▁brama	-10.7298
argilla	-10.7298
▁Machir	-10.7298
▁provved	-10.7298
▁brill	-10.7298
▁Enoch	-10.7298
▁mensa	-10.7298
▁scaten	-10.7298
▁Osea	-10.7298
▁scandalizza	-10.7299
▁finestre	-10.7299
▁litigi	-10.73
▁rinnov	-10.73
▁Teman	-10.73
▁Giunt	-10.73
▁introdur	-10.7301
▁Difatti	-10.7302
▁comprese	-10.7302
▁milizi	-10.7303
▁finestra	-10.7303
▁folle	-10.7305
▁arpe	-10.7306
▁colline	-10.7306
▁deportato	-10.7307
▁Saba	-10.7308
Eccomi	-10.7308
▁abiteranno	-10.7311
▁riferirai	-10.7314
▁sosta	-10.7314
▁deposto	-10.7315
▁riscattato	-10.7317
▁distrusse	-10.7318
▁stabiliti	-10.732
▁mucchio	-10.7322
▁riconobbe	-10.7324
▁divorer	-10.7328
▁dichiarato	-10.7328
▁coppiere	-10.7328
▁giudicato	-10.7331
Lo	-10.7331
▁immagine	-10.7332
▁salut	-10.7336
▁osservando	-10.7338
▁comport	-10.7342
▁liberer	-10.7342
▁uscivano	-10.7344
▁acquistato	-10.7345
▁afflitti	-10.7345
▁compirà	-10.7347
▁punir	-10.7348
Dammi	-10.7351
▁saprà	-10.7354
▁Sob	-10.7354
▁purificher	-10.7355
▁radunati	-10.7356
▁scacciato	-10.7364
▁Benedett	-10.7365
▁tornato	-10.7369
efa	-10.7371
▁arrivato	-10.7376
▁tenebra	-10.7376
▁domandato	-10.7378
Riman	-10.7385
▁mostrato	-10.7388
▁partiti	-10.7392
▁almeno	-10.7394
▁camminano	-10.7404
▁presentato	-10.7408
▁uso	-10.741
ubito	-10.7413
▁cercato	-10.7427
▁Vieni	-10.7427
▁cerv	-10.7447
▁raccogliere	-10.7458
nat	-10.7468
▁peccatore	-10.7474
▁mostri	-10.7475
▁assegna	-10.7488
termin	-10.7492
ndomi	-10.7495
▁mangiate	-10.7523
▁Eccomi	-10.7524
▁giace	-10.7542
▁continuava	-10.7543
▁inganni	-10.7546
razione	-10.7555
▁offriva	-10.7556
Sei	-10.7559
▁assalir	-10.756
▁apre	-10.7561
▁Sali	-10.7581
▁pat	-10.7604
▁glori	-10.7606
▁assemblea	-10.7627
abbondanza	-10.7631
▁scomparir	-10.7632
▁sogni	-10.7639
▁vorre	-10.7644
▁conserv	-10.7669
▁Alle	-10.7689
▁telo	-10.7691
▁face	-10.7708
omer	-10.7711
▁camminava	-10.7716
▁plac	-10.7717
▁guadagn	-10.7723
▁consult	-10.7729
▁rest	-10.7731
▁capac	-10.7732
▁giungeva	-10.7742
▁duemila	-10.7747
▁acclam	-10.7749
▁rotol	-10.7752
▁Nessun	-10.7753
Benedett	-10.7754
▁vai	-10.7755
▁scar	-10.7756
animo	-10.7758
intera	-10.7763
erub	-10.7764
affanno	-10.7784
▁Porta	-10.7807
▁stupi	-10.7807
▁Dis	-10.7811
▁centoventi	-10.7813
▁accord	-10.7816
▁rattrist	-10.7817
▁ricondur	-10.7817
▁ricopr	-10.782
▁tranquilli	-10.7822
▁triste	-10.7822
▁sincer	-10.7824
Egiziano	-10.7824
▁Antiochia	-10.7824
▁Assur	-10.7824
▁Cercate	-10.7824
▁Efeso	-10.7824
▁balìa	-10.7824
▁difficil	-10.7824
▁dintorni	-10.7824
▁esclama	-10.7824
▁flutti	-10.7824
▁foglie	-10.7824
▁gruppo	-10.7824
▁oblazioni	-10.7824
▁parabole	-10.7824
▁profezia	-10.7824
▁replicò	-10.7824
▁ristabili	-10.7824
▁sapienti	-10.7824
▁scolpit	-10.7824
▁sconfitto	-10.7824
▁sentinella	-10.7824
▁spezzò	-10.7824
▁straniera	-10.7824
▁tranquilla	-10.7824
▁Succot	-10.7824
▁malattia	-10.7824
▁pentola	-10.7824
▁illumina	-10.7824
▁torri	-10.7824
▁degna	-10.7824
▁restituir	-10.7824
▁piaghe	-10.7824
▁scelse	-10.7824
▁feste	-10.7824
▁distrutta	-10.7824
▁futuro	-10.7824
▁disegno	-10.7824
▁traverse	-10.7824
▁bisogna	-10.7824
▁lembo	-10.7824
▁incinta	-10.7824
▁Arriv	-10.7824
▁disposizione	-10.7824
▁baciò	-10.7825
▁regale	-10.7825
▁distanza	-10.7825
▁Caino	-10.7825
▁Pens	-10.7825
▁Abdia	-10.7825
▁inferiore	-10.7825
▁avviene	-10.7825
▁esempio	-10.7825
▁perduto	-10.7825
▁Sorg	-10.7826
▁deriva	-10.7826
▁Nacor	-10.7826
▁voltò	-10.7826
▁Rut	-10.7827
▁suppliche	-10.7828
▁produrr	-10.7828
▁soffia	-10.7831
▁archi	-10.7833
▁Uzzi	-10.7834
▁Metter	-10.784
▁estraneo	-10.7841
▁nascosti	-10.7842
▁Cur	-10.7844
▁Anna	-10.7844
▁carissimi	-10.7847
▁cessò	-10.7853
▁radunerò	-10.7853
▁Udite	-10.7853
▁posta	-10.7854
Scend	-10.7855
▁pensava	-10.7855
▁numerosa	-10.7859
▁cessato	-10.786
▁infedeltà	-10.786
▁Carmelo	-10.7862
▁obbrobrio	-10.7864
▁ritornerà	-10.7867
▁rifiutato	-10.7868
▁Elam	-10.7871
▁costruita	-10.7871
▁Manda	-10.7872
▁bel	-10.7878
▁arrivati	-10.7891
▁Venite	-10.7891
▁facciamo	-10.7896
▁riempito	-10.7899
▁lodare	-10.7903
▁ucciderà	-10.7904
▁vedevano	-10.7909
▁lavorare	-10.7909
▁inseguirono	-10.791
▁salito	-10.7914
▁battezz	-10.7922
▁sedeva	-10.7923
▁sopport	-10.7928
▁assal	-10.794
▁sento	-10.7941
▁moltiplicher	-10.7944
▁reale	-10.7947
▁resa	-10.7954
oppresso	-10.7963
▁acces	-10.7967
▁potrei	-10.7971
amarezza	-10.7974
▁Tem	-10.7976
▁consacr	-10.7976
▁bar	-10.7978
▁Diede	-10.7994
▁muto	-10.8002
▁Osserva	-10.8005
▁mangiano	-10.8007
▁Mor	-10.8016
▁metta	-10.8017
▁mettera	-10.8027
▁preleva	-10.8072
▁Ah	-10.8085
▁allontani	-10.81
▁soff	-10.8132
salgono	-10.8134
▁parlando	-10.8145
▁giudicate	-10.8146
Eden	-10.8148
ossia	-10.8156
▁villaggio	-10.8172
▁riserva	-10.8192
▁Comp	-10.8193
▁lotta	-10.8196
▁riversa	-10.8203
àim	-10.8212
▁sovr	-10.8224
▁comandava	-10.8225
▁ventiquattro	-10.825
▁Sin	-10.8272
▁rin	-10.8292
▁impost	-10.8303
Venite	-10.8309
innocente	-10.8311
Vedi	-10.8311
▁venir	-10.8318
Ora	-10.8325
▁gode	-10.8326
Port	-10.8331
▁occup	-10.8335
▁pasto	-10.8335
▁agir	-10.8349
▁ordi	-10.8352
▁procur	-10.8355
▁riservat	-10.8359
▁credi	-10.8372
▁rendendo	-10.8378
▁commerci	-10.838
)	-10.838
Amorreo	-10.838
▁Amasà	-10.838
▁Ciascuno	-10.838
▁Nabot	-10.838
▁ammaestr	-10.838
▁antenato	-10.838
▁cavallette	-10.838
▁colomba	-10.838
▁comparire	-10.838
▁credono	-10.838
▁desolata	-10.838
▁desolato	-10.838
▁firmamento	-10.838
▁genealogi	-10.838
▁guerre	-10.838
▁infedeli	-10.838
▁interrogò	-10.838
▁membro	-10.838
▁narici	-10.838
▁necessità	-10.838
▁piscina	-10.838
▁scandalo	-10.838
▁scomparve	-10.838
▁sofferenze	-10.838
▁solennità	-10.838
▁stipiti	-10.838
▁superiori	-10.838
▁troveranno	-10.838
▁tumulto	-10.838
▁vassoio	-10.838
▁vuote	-10.838
▁vuoto	-10.838
▁invitati	-10.838
▁popolazione	-10.838
▁rapporti	-10.838
▁scritte	-10.838
▁sfinit	-10.838
asciutto	-10.838
▁Libna	-10.838
▁Tirza	-10.838
▁ministro	-10.838
▁nord	-10.838
▁ammass	-10.838
▁infrant	-10.838
▁Tobia	-10.838
▁Omri	-10.838
▁affetto	-10.838
▁favori	-10.838
▁Sidone	-10.838
▁durerà	-10.838
▁spalla	-10.838
▁distinguere	-10.838
▁Manoach	-10.838
▁tribunale	-10.838
▁invidia	-10.838
▁prosperità	-10.838
▁suocera	-10.838
▁umano	-10.838
▁classe	-10.838
▁Uz	-10.838
▁otri	-10.838
▁uscite	-10.838
▁vigila	-10.838
▁Perez	-10.8381
▁Valle	-10.8381
▁undici	-10.8381
▁Vedendo	-10.8381
▁aperti	-10.8381
▁fresc	-10.8381
▁diviso	-10.8382
▁Natania	-10.8382
profond	-10.8382
▁cuoc	-10.8382
▁armate	-10.8382
▁ladri	-10.8382
▁erige	-10.8383
▁pienezza	-10.8383
▁eletto	-10.8383
▁rimess	-10.8384
▁alliet	-10.8384
▁tieni	-10.8385
▁predicazione	-10.8387
▁consolazione	-10.8387
▁notti	-10.8389
▁Conosc	-10.8389
▁chiamerai	-10.8391
▁Adamo	-10.8392
▁trasgredit	-10.8393
▁lieto	-10.8393
▁restaur	-10.8393
▁dette	-10.8397
▁prodotto	-10.84
▁Morto	-10.8402
▁beato	-10.8403
Pace	-10.8403
▁seppero	-10.8404
▁impur	-10.8405
▁centotrenta	-10.8407
▁dormire	-10.8407
▁Voglio	-10.841
Esult	-10.8411
▁disprezz	-10.8412
▁idolo	-10.8415
▁mariti	-10.8422
▁dargli	-10.8424
▁ottanta	-10.8426
▁numerose	-10.8427
▁incontra	-10.843
▁toglierà	-10.8432
▁invocato	-10.8433
▁Ghed	-10.8435
▁richiesta	-10.8444
▁riso	-10.8444
▁continuò	-10.8447
▁Uscit	-10.8451
▁vacilla	-10.8451
▁creatore	-10.8452
▁ricordati	-10.8452
▁mangiavano	-10.8454
▁difend	-10.8454
▁insegnato	-10.8456
▁guadagno	-10.8457
▁camminato	-10.8471
▁spavent	-10.8475
▁proclamare	-10.8485
▁stavo	-10.8485
▁mancare	-10.8485
▁risplende	-10.8494
▁partito	-10.8505
milaseicento	-10.8515
▁ascoltarono	-10.8539
▁attaccat	-10.8581
▁deport	-10.8584
▁ripet	-10.8596
Asia	-10.8606
▁aumenta	-10.8611
▁risorge	-10.8616
▁fargli	-10.8618
U	-10.8618
▁sana	-10.8618
▁appartenent	-10.8621
▁amava	-10.8624
▁Abbi	-10.8624
tornerò	-10.8631
▁muover	-10.8633
▁servirono	-10.8673
Ascolta	-10.8675
▁siedi	-10.8696
nove	-10.8703
▁noto	-10.8716
▁viso	-10.8736
onda	-10.8739
▁soggiorna	-10.8739
▁Va	-10.8773
▁cattura	-10.8782
sperderò	-10.8794
quattro	-10.8807
▁cess	-10.8832
▁Prese	-10.8865
▁territori	-10.8897
Quell	-10.8898
Certo	-10.8899
figlio	-10.89
▁risuscita	-10.8907
Fate	-10.8919
viene	-10.8932
▁sces	-10.894
▁conferma	-10.8941
▁Udi	-10.8956
▁memoria	-10.8957
▁suppli	-10.896
ggono	-10.8964
▁prosper	-10.8968
▁sorvegli	-10.8968
▁Atalia	-10.8968
▁Cesarèa	-10.8968
▁Nazareno	-10.8968
▁Pincas	-10.8968
▁accolto	-10.8968
▁affilata	-10.8968
▁annull	-10.8968
▁geloso	-10.8968
▁giovenca	-10.8968
▁impossibile	-10.8968
▁insegnamenti	-10.8968
▁notizie	-10.8968
▁noviluni	-10.8968
▁premura	-10.8968
▁riparazioni	-10.8968
▁risuon	-10.8968
▁sbarre	-10.8968
▁sciacalli	-10.8968
▁settimane	-10.8968
▁sorpres	-10.8968
▁squarci	-10.8968
▁troverai	-10.8968
▁vittorios	-10.8968
▁capanne	-10.8968
▁oppor	-10.8968
▁raggiunt	-10.8968
▁ritrov	-10.8968
▁coperto	-10.8968
▁delizie	-10.8968
▁veduto	-10.8968
▁assassin	-10.8968
▁diadema	-10.8968
▁affretta	-10.8968
▁corpi	-10.8968
▁frode	-10.8968
▁nudo	-10.8968
▁capitelli	-10.8968
▁false	-10.8968
▁piovere	-10.8968
▁compiute	-10.8968
▁mondi	-10.8968
▁fatiche	-10.8968
▁acconsent	-10.8968
▁adorna	-10.8968
▁sparti	-10.8968
▁conceda	-10.8968
Domani	-10.8968
▁glorioso	-10.8968
▁notabili	-10.8968
▁concesse	-10.8968
▁nido	-10.8969
▁affari	-10.8969
▁deportazione	-10.8969
▁venticinquemila	-10.8969
▁vendemmia	-10.897
▁preannunzi	-10.897
▁ribellione	-10.897
▁nobili	-10.897
▁temono	-10.897
▁trasform	-10.897
▁tristezza	-10.897
▁cada	-10.8971
▁nuora	-10.8971
▁Keatiti	-10.8972
▁Sappi	-10.8972
▁passioni	-10.8972
▁benedice	-10.8973
▁svel	-10.8973
▁possedeva	-10.8973
Vuo	-10.8974
▁Madianiti	-10.8974
▁appartengono	-10.8974
▁(	-10.8974
▁adirato	-10.8975
▁battezzare	-10.8975
▁dovuto	-10.8975
▁abbondante	-10.8975
▁mancanza	-10.8976
Tutt	-10.8976
▁duramente	-10.8977
▁ospit	-10.8979
Cantate	-10.8979
▁pesante	-10.898
▁esaltato	-10.8981
▁malati	-10.8982
▁pesce	-10.8982
▁Agar	-10.8984
▁insegnando	-10.8986
▁Ancora	-10.8987
istante	-10.8987
▁Gia	-10.8988
sù	-10.8988
▁metall	-10.8992
▁disperso	-10.8993
▁lavato	-10.8995
▁Canan	-10.8996
▁scavato	-10.8998
rato	-10.8999
▁Perizziti	-10.9
▁soggett	-10.9004
▁cordoni	-10.9006
▁insistenza	-10.9015
▁sopportare	-10.902
▁colà	-10.902
sì	-10.9021
▁ingiustizia	-10.9022
▁tendaggi	-10.9024
▁circondano	-10.9024
unì	-10.9025
▁coglier	-10.9028
▁vane	-10.9029
▁vana	-10.9031
▁curv	-10.9035
▁tiene	-10.904
▁tremano	-10.9041
▁pensato	-10.9042
▁colpisce	-10.9045
▁cominciato	-10.9047
▁maghi	-10.9048
▁dona	-10.9049
▁sappiano	-10.9049
▁parete	-10.9049
▁abbandonati	-10.905
▁manna	-10.9052
▁vend	-10.9056
eserci	-10.9058
▁assegnato	-10.9066
▁partorire	-10.9068
▁mandati	-10.9069
▁cantare	-10.9072
▁capaci	-10.9074
▁regn	-10.9075
▁cibi	-10.9081
▁guardi	-10.9089
▁romp	-10.9093
▁vinto	-10.9107
▁orgoglio	-10.9108
▁guarire	-10.9111
▁adempisse	-10.9117
Coron	-10.9119
▁arrivare	-10.9124
▁tuoni	-10.9129
▁ritir	-10.9147
▁annunzio	-10.9154
▁zio	-10.9154
▁attesta	-10.9159
▁trovati	-10.9162
nzo	-10.9166
▁rafforza	-10.9178
▁scongiura	-10.9192
dusse	-10.9195
▁tetto	-10.9198
▁servivano	-10.9212
ebbe	-10.9218
▁parlano	-10.9234
▁dichiar	-10.9243
isola	-10.9257
▁freme	-10.9259
stiamo	-10.9273
▁Quella	-10.9282
▁procede	-10.9284
▁devast	-10.9293
▁ripr	-10.9294
▁spen	-10.9294
▁servirà	-10.9298
ndoci	-10.9299
▁commett	-10.9309
▁passando	-10.9318
attu	-10.9343
▁metterl	-10.9346
▁benefic	-10.9352
▁esulti	-10.9358
▁offrir	-10.9361
▁osservi	-10.9366
▁bell	-10.9372
▁dimorare	-10.9378
▁incontr	-10.9379
▁diresse	-10.9388
▁volse	-10.9398
coperti	-10.9409
Metti	-10.9409
▁urla	-10.9416
▁convert	-10.9429
▁maltratt	-10.9431
salirono	-10.9454
▁impor	-10.9454
▁riconoscere	-10.9457
▁raccont	-10.9464
▁disonorat	-10.9499
ndole	-10.9502
▁preserv	-10.9509
▁manten	-10.951
cento	-10.9513
▁Quand	-10.9522
Costui	-10.9523
occasione	-10.9523
occidente	-10.9524
▁Diceva	-10.9527
▁facesse	-10.9528
essere	-10.9531
▁proferi	-10.9535
aiuto	-10.9536
▁accade	-10.9558
▁interpret	-10.9564
Sèmes	-10.9593
secutori	-10.9593
▁Achikàm	-10.9593
▁Anatòt	-10.9593
▁Cafarnao	-10.9593
▁Iefunne	-10.9593
▁Ionadàb	-10.9593
▁Maaseia	-10.9593
▁Ninive	-10.9593
▁Sennàcherib	-10.9593
▁ancelle	-10.9593
▁ascolterete	-10.9593
▁bianca	-10.9593
▁cembali	-10.9593
▁disgrazia	-10.9593
▁divampa	-10.9593
▁gonorrea	-10.9593
▁impunito	-10.9593
▁intelligente	-10.9593
▁melagrane	-10.9593
▁mercanti	-10.9593
▁nefandezze	-10.9593
▁oblati	-10.9593
▁progetto	-10.9593
▁prudenza	-10.9593
▁raccomanda	-10.9593
▁sconfitti	-10.9593
▁stupore	-10.9593
▁torneranno	-10.9593
▁ubriach	-10.9593
▁zoppi	-10.9593
▁Mikal	-10.9593
▁Zibà	-10.9593
▁bande	-10.9593
▁corregge	-10.9593
▁diluvio	-10.9593
▁disposizioni	-10.9593
▁giustificato	-10.9593
▁malattie	-10.9593
▁promesse	-10.9593
▁prosciug	-10.9593
▁riconosciuto	-10.9593
▁sottomesso	-10.9593
▁spirituale	-10.9593
▁vignaioli	-10.9593
▁avvenire	-10.9593
▁costumi	-10.9593
▁depred	-10.9593
▁sentimenti	-10.9593
▁storpi	-10.9593
▁Totale	-10.9593
▁norma	-10.9593
▁sorveglianza	-10.9593
▁trovo	-10.9593
▁mantelli	-10.9593
Etiope	-10.9593
▁disonest	-10.9593
▁lucerna	-10.9593
▁giornat	-10.9593
▁antenati	-10.9593
▁Aroer	-10.9593
▁prendono	-10.9593
▁pubblicani	-10.9593
▁linguaggio	-10.9593
▁bulb	-10.9593
▁tuniche	-10.9593
milaquattrocento	-10.9593
▁persever	-10.9593
▁contiene	-10.9593
▁Eman	-10.9593
Ordina	-10.9594
▁attenti	-10.9594
▁marciò	-10.9594
▁perdizione	-10.9594
▁indurit	-10.9594
▁Amaria	-10.9594
▁confusione	-10.9594
▁possia	-10.9594
▁vecchiaia	-10.9594
▁rivelazione	-10.9595
Ermon	-10.9596
▁spero	-10.9596
▁Asaèl	-10.9598
▁sdegnato	-10.9598
▁vendette	-10.9599
▁ricondurrò	-10.9601
▁ricevette	-10.9602
▁elevato	-10.9602
▁Rubeniti	-10.9603
▁finita	-10.9604
▁razza	-10.9605
▁benedici	-10.9605
▁esige	-10.9608
▁Lodate	-10.9609
▁porgi	-10.9609
▁serba	-10.961
▁fertile	-10.9611
▁vendic	-10.9612
▁Zif	-10.9613
▁stupiti	-10.9614
▁canestro	-10.9614
amenti	-10.9615
▁scaccerò	-10.9619
▁scamperà	-10.962
▁vederlo	-10.9621
▁accostò	-10.9621
▁insulti	-10.9622
▁coda	-10.9622
incarico	-10.9623
▁tribuno	-10.9624
▁sterminati	-10.9626
herai	-10.9627
▁cosci	-10.9627
▁deportò	-10.9629
▁assiste	-10.963
▁contaminata	-10.9631
▁mezzi	-10.9631
▁bastoni	-10.9634
▁turbato	-10.9635
▁insultato	-10.9636
ffa	-10.964
▁attesa	-10.9642
▁colpirono	-10.9644
▁contaminato	-10.9651
▁scrivere	-10.9651
▁servitori	-10.9658
▁innalzato	-10.966
▁Grid	-10.9661
▁oppresso	-10.9666
▁insist	-10.9676
▁purificato	-10.9682
▁estende	-10.9703
sosten	-10.9703
▁pensate	-10.9703
▁pregate	-10.9705
▁averli	-10.9714
▁pronunziata	-10.9717
▁benedire	-10.9722
ndone	-10.9722
▁Etiopia	-10.9728
▁messa	-10.975
▁attend	-10.9796
▁soffrire	-10.981
▁nota	-10.9813
▁sveglia	-10.9816
▁devastat	-10.9826
Ascoltate	-10.9836
▁sala	-10.984
▁App	-10.984
▁esult	-10.984
▁uffici	-10.9843
▁spin	-10.9847
▁finir	-10.9876
ritto	-10.9884
▁Cos	-10.9886
▁riprender	-10.9903
▁stia	-10.9916
▁avversario	-10.9933
▁amate	-10.9939
▁assegnat	-10.9969
▁ride	-11.0008
▁castig	-11.0024
▁soffri	-11.0046
▁Torn	-11.0057
▁Com	-11.0076
▁giungere	-11.0079
▁abbassa	-11.0107
▁tagliato	-11.0118
Figli	-11.012
▁vacill	-11.0124
▁potesse	-11.013
oggetto	-11.0149
▁Vers	-11.0157
attacc	-11.0167
▁risult	-11.0168
▁resping	-11.017
esterno	-11.019
altezza	-11.019
offrir	-11.0197
Sali	-11.0209
▁dimostr	-11.0211
▁percorre	-11.0223
▁fonda	-11.0224
Ave	-11.0232
▁moss	-11.0236
▁colloc	-11.0237
▁cominc	-11.024
istruzione	-11.0242
▁raggiunse	-11.0247
▁restaura	-11.0252
Stend	-11.0256
stituì	-11.0258
▁profonda	-11.0259
▁ringrazi	-11.026
arroganza	-11.026
ignominia	-11.026
▁Abdènego	-11.026
▁Barak	-11.026
▁Ghezer	-11.026
▁Gosen	-11.026
▁Iechièl	-11.026
▁Keila	-11.026
▁Mesàch	-11.026
▁Oppure	-11.026
▁altrui	-11.026
▁angosce	-11.026
▁ascensioni	-11.026
▁bagagli	-11.026
▁bevande	-11.026
▁commesse	-11.026
▁commessi	-11.026
▁concubine	-11.026
▁decimosecondo	-11.026
▁gambe	-11.026
▁ginocchio	-11.026
▁guarita	-11.026
▁infelice	-11.026
▁lebbroso	-11.026
▁montoni	-11.026
▁muoio	-11.026
▁nozze	-11.026
▁picchett	-11.026
▁plasmato	-11.026
▁popolazioni	-11.026
▁precetto	-11.026
▁prezioso	-11.026
▁rassegna	-11.026
▁settimana	-11.026
▁uguale	-11.026
▁zolfo	-11.026
▁Gloria	-11.026
▁avvenga	-11.026
▁avvolge	-11.026
▁bordo	-11.026
▁rivestiti	-11.026
▁totale	-11.026
Riferite	-11.026
impresa	-11.026
▁Ulivi	-11.026
▁lievitat	-11.026
▁prediletto	-11.026
▁santissima	-11.026
▁scritti	-11.026
▁ripaga	-11.026
▁cortili	-11.026
▁scrivo	-11.026
▁terremoto	-11.026
▁parlerà	-11.026
▁utile	-11.026
▁Michele	-11.026
▁Roma	-11.026
▁compens	-11.026
▁perfidi	-11.026
▁stanco	-11.026
▁scenda	-11.026
▁lontana	-11.026
▁insidie	-11.026
▁invitato	-11.026
▁passaggio	-11.026
▁affatto	-11.026
▁percosso	-11.026
▁prestito	-11.026
▁cuocere	-11.026
affamato	-11.026
▁Iair	-11.026
▁Mattania	-11.026
▁interesse	-11.026
▁introdott	-11.026
▁Cananeo	-11.026
▁letizia	-11.026
▁rosso	-11.026
▁mirra	-11.026
▁preghi	-11.026
▁Susanna	-11.026
▁truppe	-11.0261
▁antico	-11.0261
▁voci	-11.0261
▁mandi	-11.0261
▁Amram	-11.0261
▁lamenta	-11.0261
▁spinge	-11.0261
▁serpenti	-11.0261
▁spesso	-11.0262
▁gola	-11.0262
▁istruir	-11.0263
▁risana	-11.0263
▁larga	-11.0263
▁impieg	-11.0263
▁conosca	-11.0263
▁calcol	-11.0264
▁grava	-11.0264
▁sarei	-11.0264
▁tentazione	-11.0264
▁valid	-11.0265
▁battezzati	-11.0265
▁solenne	-11.0265
▁alzatosi	-11.0266
▁Ritorna	-11.0267
▁ventimila	-11.0268
▁abiterete	-11.0269
estremo	-11.027
▁sacchi	-11.027
▁rapina	-11.027
▁vediamo	-11.0271
▁cinquemila	-11.0272
▁Achitòfel	-11.0272
▁esposto	-11.0272
▁accampati	-11.0273
Getta	-11.0273
▁eretto	-11.0273
▁palato	-11.028
▁stracciò	-11.0282
▁comandante	-11.0292
▁pigro	-11.0292
inverno	-11.0294
▁attraversare	-11.0294
▁abiterà	-11.0295
popol	-11.0296
▁giro	-11.0296
arma	-11.0297
▁oliv	-11.0297
▁gallo	-11.0298
▁accadere	-11.0299
▁interrogarono	-11.03
▁prenderlo	-11.0301
▁camminando	-11.0303
▁congedò	-11.0303
▁disposto	-11.0303
▁udirono	-11.0309
▁giudicherò	-11.031
▁eredit	-11.031
▁seduta	-11.031
▁avvenuto	-11.0313
▁vedano	-11.0314
▁intendere	-11.0317
▁conforto	-11.0318
▁strappato	-11.0322
▁piangete	-11.0322
▁saziati	-11.0323
▁allontanarono	-11.0323
▁martello	-11.0323
▁uccello	-11.0326
▁bruciata	-11.0327
▁vanti	-11.0327
oppressione	-11.0328
ggiano	-11.0329
▁distruggerà	-11.0332
▁allontanati	-11.0334
▁suscita	-11.0345
▁cinta	-11.0346
▁crebbe	-11.0346
▁spia	-11.0347
▁disprezzo	-11.0347
▁violato	-11.0349
uova	-11.035
tante	-11.0352
quarantacinque	-11.0357
▁salute	-11.036
stre	-11.036
Pass	-11.0364
▁cerc	-11.0366
▁ricordato	-11.0374
▁concluse	-11.0385
zona	-11.0391
▁gigli	-11.0404
▁amati	-11.0414
▁piani	-11.0422
ventiquattromila	-11.0433
▁ricordare	-11.0434
▁gridato	-11.0447
▁precipit	-11.0466
▁profano	-11.0467
▁aspett	-11.0482
goment	-11.0488
▁rendete	-11.0489
▁resiste	-11.0493
▁Amm	-11.051
▁alzare	-11.0512
▁piombar	-11.0521
▁oltrepass	-11.0525
▁soddisfar	-11.0527
▁Usc	-11.0547
▁colpisc	-11.0565
Alzatevi	-11.0574
▁adir	-11.0596
insulto	-11.062
▁colpir	-11.0628
▁lacer	-11.0663
▁lung	-11.0664
▁intim	-11.0667
▁consol	-11.0671
▁adoper	-11.0679
▁scuot	-11.068
▁Lod	-11.0689
▁dedic	-11.0693
▁terr	-11.0694
▁ripete	-11.0705
Peor	-11.0717
trè	-11.0739
▁giaceva	-11.0761
tur	-11.0763
▁cap	-11.0766
arpa	-11.0766
▁conclus	-11.0768
dendo	-11.0774
sorgerà	-11.0774
Andiamo	-11.0775
▁circond	-11.0788
▁poc	-11.0812
▁ventidue	-11.0813
amò	-11.0821
▁Ghe	-11.0881
▁Molt	-11.0887
▁Ved	-11.0891
▁assegn	-11.0901
uccello	-11.0903
Etiopia	-11.0903
Nessuno	-11.0905
▁trave	-11.0906
Fino	-11.0911
venire	-11.0912
▁cresceva	-11.0912
▁ruba	-11.0916
forma	-11.0916
▁cane	-11.0928
▁avrest	-11.0928
▁Signor	-11.0932
▁settecento	-11.0943
▁nascondi	-11.0947
▁fol	-11.0952
▁scomp	-11.0961
▁profu	-11.0965
piegò	-11.097
▁Cazor	-11.0974
▁inghiotti	-11.0974
▁notturn	-11.0974
▁rinfranca	-11.0974
▁sadducei	-11.0974
▁Artaserse	-11.0974
▁Battista	-11.0974
▁Gebuseo	-11.0974
▁Idumei	-11.0974
▁Ioiachìn	-11.0974
▁Malchia	-11.0974
▁Mediterraneo	-11.0974
▁Ofir	-11.0974
▁Pekach	-11.0974
▁Profeti	-11.0974
▁Sadràch	-11.0974
▁andarsene	-11.0974
▁cattive	-11.0974
▁coprì	-11.0974
▁crogiuolo	-11.0974
▁durezza	-11.0974
▁ebraico	-11.0974
▁esaminerà	-11.0974
▁fegato	-11.0974
▁giudichi	-11.0974
▁inavvertenza	-11.0974
▁infedele	-11.0974
▁irreprensibile	-11.0974
▁ornamenti	-11.0974
▁profondità	-11.0974
▁rinchius	-11.0974
▁risiede	-11.0974
▁robust	-11.0974
▁sapiente	-11.0974
▁soccorso	-11.0974
▁tortuos	-11.0974
▁tribolazioni	-11.0974
▁vasaio	-11.0974
▁Ekron	-11.0974
▁battè	-11.0974
▁rimangono	-11.0974
▁sventure	-11.0974
▁Efron	-11.0974
▁Misur	-11.0974
▁conversione	-11.0974
▁freccia	-11.0974
▁passeggia	-11.0974
▁rinunzi	-11.0974
emolì	-11.0974
▁cadono	-11.0974
▁infine	-11.0974
▁svanisc	-11.0974
ultima	-11.0974
▁pazzo	-11.0974
▁cervice	-11.0974
▁confront	-11.0974
▁partoriente	-11.0974
▁terminato	-11.0974
▁ripagh	-11.0974
▁detesto	-11.0974
▁seguono	-11.0974
▁corsa	-11.0974
▁disonore	-11.0974
▁Lazzaro	-11.0974
▁circoncidere	-11.0974
▁rilasci	-11.0974
esperto	-11.0974
▁Giaffa	-11.0974
▁butt	-11.0974
▁respiro	-11.0974
▁riscontr	-11.0974
▁apparterrà	-11.0974
▁Macli	-11.0974
▁Seraià	-11.0974
▁gemito	-11.0974
▁sforz	-11.0974
▁abissi	-11.0974
▁canne	-11.0974
▁inebri	-11.0974
▁stella	-11.0974
▁accampamenti	-11.0974
▁traffic	-11.0974
▁Bani	-11.0975
▁maligno	-11.0975
▁gioirà	-11.0975
▁tasso	-11.0975
▁ungerai	-11.0975
▁Iozabàd	-11.0975
▁uncini	-11.0975
▁aggira	-11.0975
▁macina	-11.0975
▁risposi	-11.0976
▁clamor	-11.0976
▁Trenta	-11.0977
▁Cammin	-11.0977
▁apertamente	-11.0977
▁Uzziel	-11.0977
▁sazietà	-11.0978
▁novella	-11.0978
▁passione	-11.0979
▁assalì	-11.098
▁pagherà	-11.098
▁decise	-11.098
▁pregher	-11.0981
Basta	-11.0983
▁pigia	-11.0983
▁talento	-11.0984
▁Nebo	-11.0984
▁sicura	-11.0984
▁oppressori	-11.0985
▁scampati	-11.0986
▁Gaditi	-11.0986
▁strisciano	-11.0986
▁regnerà	-11.0987
▁infermità	-11.0988
Apri	-11.0989
▁predico	-11.0989
▁scongiuro	-11.099
▁saett	-11.099
▁beati	-11.0991
▁piangendo	-11.0991
▁gradini	-11.0992
▁giubilo	-11.0993
▁nascosta	-11.0995
▁Dì	-11.0997
▁misericordioso	-11.0999
▁detti	-11.0999
▁stabilita	-11.1001
▁accorto	-11.1003
▁sollevò	-11.1004
▁rane	-11.1004
▁muovevano	-11.1004
▁lascera	-11.1005
▁informato	-11.1005
▁ramo	-11.1006
▁insegnava	-11.1006
▁spande	-11.1006
▁credente	-11.1006
▁Grande	-11.1013
▁errore	-11.1014
▁stanch	-11.1015
▁adirò	-11.1015
▁Togli	-11.1015
▁porre	-11.1019
▁fallo	-11.1019
faccenda	-11.1022
▁soffre	-11.1023
▁afflizione	-11.1024
▁proclamò	-11.1028
▁scosse	-11.1029
▁demolito	-11.1029
▁aprirono	-11.1031
▁contese	-11.1034
▁immondezza	-11.1035
▁salutano	-11.104
▁vivand	-11.1043
▁Eliab	-11.1048
▁questione	-11.105
odio	-11.1052
▁sterminare	-11.1055
▁abbandonarono	-11.106
▁tornati	-11.1061
▁odiato	-11.1063
rgo	-11.1064
▁forno	-11.1068
▁riposare	-11.1068
▁vedeva	-11.1071
▁dormi	-11.1082
▁prole	-11.1083
▁guardiano	-11.1086
▁arrivo	-11.1089
▁orzo	-11.1093
▁stendere	-11.1113
Torna	-11.1128
▁Cal	-11.1128
▁sciogliere	-11.1137
Vedete	-11.1141
intimo	-11.1141
▁maledir	-11.1164
▁sollev	-11.1168
▁toccare	-11.1177
Lasciami	-11.1178
▁rivelat	-11.1189
▁Avendo	-11.1192
▁informar	-11.1195
▁misurare	-11.1198
▁benefici	-11.1216
terrà	-11.1236
▁discute	-11.1242
▁abitate	-11.1245
▁accost	-11.1255
bando	-11.1265
vremo	-11.1273
centotrenta	-11.129
▁turn	-11.1326
▁pronunziat	-11.1328
▁rivers	-11.1353
▁Dell	-11.1371
▁inciampa	-11.1373
▁insegne	-11.1373
▁rientra	-11.1383
▁aument	-11.1433
cambierò	-11.144
edificio	-11.1454
Devo	-11.1469
▁ispir	-11.1471
▁impreca	-11.1478
sorgeranno	-11.1484
stretto	-11.1519
▁trentadue	-11.1522
melo	-11.1534
eresti	-11.1549
▁vorr	-11.1553
▁spuntar	-11.1564
▁riemp	-11.1612
▁prostitut	-11.1615
acqu	-11.1624
dicesim	-11.1641
▁conquist	-11.1647
▁cammell	-11.165
▁Israelit	-11.165
unica	-11.1651
▁giac	-11.166
▁martell	-11.167
insegnamento	-11.1672
ingiustizia	-11.1673
agnello	-11.1674
Padre	-11.1675
splor	-11.1697
▁spari	-11.1708
▁scaccer	-11.1711
▁ostina	-11.1724
▁corri	-11.1727
▁rovi	-11.1731
▁prati	-11.1732
▁rispondi	-11.1736
▁registr	-11.174
▁felici	-11.1741
▁lunghe	-11.1741
ruppe	-11.1742
▁Basàn	-11.1743
▁Betsabea	-11.1743
▁Eglon	-11.1743
▁Eliasìb	-11.1743
▁Elifaz	-11.1743
▁Kàreca	-11.1743
▁Maskil	-11.1743
▁Nazaret	-11.1743
▁Recàb	-11.1743
▁Refaim	-11.1743
▁Romelia	-11.1743
▁Terach	-11.1743
▁Ziklàg	-11.1743
▁avvolse	-11.1743
▁candelabri	-11.1743
▁corruzione	-11.1743
▁custode	-11.1743
▁deserta	-11.1743
▁dimenticher	-11.1743
▁febbre	-11.1743
▁freddo	-11.1743
▁immensa	-11.1743
▁lettuccio	-11.1743
▁magazzini	-11.1743
▁moltiplichi	-11.1743
▁nonostante	-11.1743
▁oltraggi	-11.1743
▁orfani	-11.1743
▁pavimento	-11.1743
▁prodezze	-11.1743
▁prostituit	-11.1743
▁prostituzioni	-11.1743
▁pruni	-11.1743
▁quaggiù	-11.1743
▁redentore	-11.1743
▁ribellò	-11.1743
▁ruscelli	-11.1743
▁sanguinari	-11.1743
▁sgabello	-11.1743
▁sottrar	-11.1743
▁timpani	-11.1743
▁travolge	-11.1743
▁Abbandon	-11.1743
▁prolung	-11.1743
▁somiglia	-11.1743
oprattutto	-11.1743
▁impetuos	-11.1743
▁perfezione	-11.1743
▁sudditi	-11.1743
▁vegliardi	-11.1743
undecimo	-11.1743
▁covoni	-11.1743
▁scoraggia	-11.1743
▁giunga	-11.1743
▁sottomessi	-11.1743
▁istruzioni	-11.1743
▁soffoca	-11.1743
▁Raab	-11.1743
eunuco	-11.1743
▁Festo	-11.1743
▁rimani	-11.1743
▁terrori	-11.1743
Rimmòn	-11.1743
▁completa	-11.1743
▁concessa	-11.1743
▁mattoni	-11.1743
▁tremeranno	-11.1743
▁vomit	-11.1743
▁scopo	-11.1743
▁Nacas	-11.1743
▁conversa	-11.1743
avorio	-11.1743
▁misteri	-11.1743
▁statue	-11.1743
▁maneggia	-11.1744
▁impedito	-11.1744
▁Gog	-11.1744
▁scure	-11.1744
▁tigna	-11.1744
▁senso	-11.1744
▁vicine	-11.1744
▁sincerità	-11.1744
▁regole	-11.1744
uragano	-11.1744
▁richiam	-11.1744
▁massacr	-11.1744
▁quercia	-11.1744
gendo	-11.1744
sorgono	-11.1744
▁corte	-11.1744
▁fiere	-11.1744
▁monda	-11.1744
▁anime	-11.1744
▁sorteggiat	-11.1744
▁Andrea	-11.1745
▁diminu	-11.1745
▁capretto	-11.1745
▁felicità	-11.1746
▁protest	-11.1746
▁benedizioni	-11.1746
▁ebbi	-11.1746
▁introdusse	-11.1746
▁Evei	-11.1747
▁scendi	-11.1747
▁primizia	-11.1747
▁venendo	-11.1747
▁nutrimento	-11.1747
▁degni	-11.1747
▁certamente	-11.1748
▁divorò	-11.1748
▁mancher	-11.1749
▁pretest	-11.1749
▁Camor	-11.175
▁resteranno	-11.1752
▁cinse	-11.1752
▁tosa	-11.1752
▁allargata	-11.1753
▁impegna	-11.1753
▁battezzato	-11.1754
▁diciamo	-11.1755
accordo	-11.1755
▁accosterà	-11.1756
▁turbante	-11.1756
▁caldo	-11.1756
▁stilla	-11.1757
▁delitti	-11.1757
▁memoriale	-11.1757
▁immolat	-11.1761
▁convinto	-11.1763
▁abbandonerò	-11.1763
▁documento	-11.1764
▁rubato	-11.1766
▁sedettero	-11.1767
▁fondato	-11.1767
▁germogliare	-11.1768
▁battuto	-11.177
▁presentarsi	-11.177
▁scoppiò	-11.177
▁condurrà	-11.1771
▁tenendo	-11.1771
▁imparato	-11.1772
▁benedirà	-11.1773
▁settemila	-11.1774
▁spes	-11.1775
▁nascondigli	-11.1775
▁erede	-11.1776
▁aromatico	-11.1776
▁abbandonerà	-11.1777
▁andata	-11.1779
unghia	-11.1779
▁gioire	-11.1779
▁capre	-11.1779
▁impurità	-11.1781
▁discutere	-11.1781
▁macello	-11.1782
▁spogliato	-11.1782
▁agitazione	-11.1783
▁raccontò	-11.1783
udine	-11.1784
▁percorrere	-11.1786
▁giovinetto	-11.1788
▁statura	-11.1789
▁vien	-11.1791
▁gradita	-11.1791
rattanto	-11.1792
▁iniquo	-11.1792
▁odore	-11.1792
▁pareti	-11.1797
▁pesi	-11.1797
imper	-11.1799
▁fuggiti	-11.1803
▁falce	-11.1804
▁conoscendo	-11.1817
▁volti	-11.1818
▁insegnamento	-11.1819
▁correre	-11.1822
▁concluso	-11.1824
▁scacciati	-11.1826
▁cerco	-11.1828
▁usato	-11.183
▁pregato	-11.183
▁purificati	-11.1836
▁ricerche	-11.1837
▁perirà	-11.1839
▁veglie	-11.1844
▁svergogn	-11.1854
acclamazione	-11.1857
integrità	-11.1882
elevazione	-11.1887
▁costruir	-11.1894
▁alzato	-11.1901
▁Radun	-11.1954
▁cacciato	-11.1987
▁stabilisc	-11.1987
▁indag	-11.2
▁diventere	-11.2009
▁Preser	-11.2035
▁Prendera	-11.2055
▁obbedire	-11.2075
▁schiaccia	-11.2076
▁sussiste	-11.2081
▁url	-11.2083
▁contamin	-11.2135
▁tirato	-11.2179
▁obbligat	-11.2206
ampo	-11.2214
endete	-11.2217
▁centr	-11.2218
▁rafforz	-11.2282
seguirono	-11.2298
▁mettendo	-11.233
▁Nac	-11.2342
▁consolato	-11.2367
▁tenebr	-11.2369
▁pula	-11.2388
▁appicc	-11.24
▁obbedisc	-11.24
▁sogn	-11.241
scrizione	-11.2427
▁eredi	-11.2436
▁dormiva	-11.244
▁Galile	-11.2449
▁confort	-11.2504
▁avut	-11.2505
immondezza	-11.2506
avversario	-11.2506
unico	-11.2507
Gli	-11.2527
▁eliminat	-11.2529
▁focacc	-11.253
▁nuo	-11.2542
▁Vol	-11.2548
▁dovrebbe	-11.2573
▁adulter	-11.2574
▁estremi	-11.2574
allegria	-11.2576
▁costruttor	-11.2576
▁incoraggia	-11.2576
▁riscald	-11.2576
Iearìm	-11.2576
Rabbì	-11.2576
umiltà	-11.2576
▁Abigail	-11.2576
▁Achimelech	-11.2576
▁Asdod	-11.2576
▁Betània	-11.2576
▁Casabià	-11.2576
▁Ebed	-11.2576
▁Felice	-11.2576
▁Geenna	-11.2576
▁Ghecazi	-11.2576
▁Giunse	-11.2576
▁Idutun	-11.2576
▁Màgdala	-11.2576
▁Nabuzaradàn	-11.2576
▁Nàaman	-11.2576
▁Rabbà	-11.2576
▁Tekòa	-11.2576
▁Zebedèo	-11.2576
▁accorge	-11.2576
▁artigiani	-11.2576
▁assunt	-11.2576
▁canali	-11.2576
▁commensali	-11.2576
▁copertura	-11.2576
▁cospetto	-11.2576
▁crudel	-11.2576
▁diciassette	-11.2576
▁escrementi	-11.2576
▁esperti	-11.2576
▁fischi	-11.2576
▁fortuna	-11.2576
▁fuggiaschi	-11.2576
▁gazzella	-11.2576
▁immagini	-11.2576
▁imprese	-11.2576
▁magnificenza	-11.2576
▁nipoti	-11.2576
▁ombre	-11.2576
▁onnipotente	-11.2576
▁persuas	-11.2576
▁proverbio	-11.2576
▁prudente	-11.2576
▁quadrato	-11.2576
▁ruggine	-11.2576
▁scrittur	-11.2576
▁sollecit	-11.2576
▁tornerai	-11.2576
▁ultime	-11.2576
▁vissut	-11.2576
▁Terminat	-11.2576
▁arbitr	-11.2576
▁colpevoli	-11.2576
▁origin	-11.2576
▁oscura	-11.2576
▁Debir	-11.2576
▁Lamech	-11.2576
▁Sammà	-11.2576
▁nuca	-11.2576
▁profumato	-11.2576
▁superbo	-11.2576
▁Carran	-11.2576
▁remissione	-11.2576
▁solitari	-11.2576
▁trebbia	-11.2576
▁vedrò	-11.2576
▁volgiti	-11.2576
▁corazza	-11.2576
dàk	-11.2576
▁inebrianti	-11.2576
▁scatur	-11.2576
▁maledice	-11.2576
▁vivrete	-11.2576
▁tradizione	-11.2577
▁follia	-11.2577
▁muli	-11.2577
▁ottenere	-11.2577
▁erbe	-11.2577
▁Amoz	-11.2577
▁uscirai	-11.2577
▁Ieter	-11.2577
▁brutt	-11.2577
▁Ribla	-11.2577
▁perdonerò	-11.2577
▁punito	-11.2577
▁secche	-11.2577
▁acceca	-11.2577
▁bevvero	-11.2577
Eveo	-11.2577
attività	-11.2577
▁acquistò	-11.2577
▁guad	-11.2577
▁lunghi	-11.2577
▁vessill	-11.2577
approva	-11.2577
▁consolid	-11.2577
▁Carissim	-11.2577
▁consigliere	-11.2577
▁posseduto	-11.2578
Lungi	-11.2578
adunanza	-11.2578
obbedienza	-11.2578
▁contento	-11.2578
▁luci	-11.2578
▁Scese	-11.2579
▁costituì	-11.2579
intrecci	-11.2579
▁attentamente	-11.258
▁musicali	-11.258
▁duro	-11.258
▁bacino	-11.2581
▁onori	-11.2581
▁ceppi	-11.2582
▁andremo	-11.2582
▁errando	-11.2583
▁asport	-11.2584
▁generoso	-11.2584
▁Cusa	-11.2585
Ritorn	-11.2585
▁perisca	-11.2585
▁sput	-11.2587
▁conosciamo	-11.2587
▁tremend	-11.2587
▁andrete	-11.2588
▁Daniti	-11.2589
▁Oh	-11.2589
▁benedirò	-11.2591
▁raggiunsero	-11.2592
Pregate	-11.2592
▁pensavo	-11.2593
▁consegnerò	-11.2593
▁quotidiano	-11.2593
▁recarsi	-11.2593
▁salverò	-11.2593
▁Allontan	-11.2594
▁colpo	-11.2596
▁falli	-11.2597
▁prostreranno	-11.2597
▁prostrarsi	-11.2598
▁ostinato	-11.2599
▁intendo	-11.26
▁andando	-11.26
▁Sper	-11.26
▁risponderai	-11.2604
▁bevi	-11.2611
▁legami	-11.2612
▁veloci	-11.2612
▁patto	-11.2613
▁punta	-11.2613
▁sparire	-11.2617
▁coltiv	-11.2621
▁perderà	-11.2622
▁solito	-11.2623
▁Marta	-11.2624
▁Porr	-11.2625
▁raggiungerà	-11.2627
Portate	-11.2631
▁cena	-11.2631
▁loderò	-11.2634
▁godere	-11.2635
▁onorato	-11.2635
▁offriranno	-11.2639
▁dente	-11.264
▁vacillare	-11.2641
▁cambiato	-11.2644
▁moriremo	-11.2645
▁ritornarono	-11.2646
▁tacere	-11.2646
▁porci	-11.2646
▁adorarono	-11.2647
▁stimato	-11.2648
▁granai	-11.2649
▁cert	-11.2655
▁Tornat	-11.2656
▁ingann	-11.2656
▁prepararono	-11.2661
▁predicato	-11.2665
▁dedit	-11.2681
▁dispon	-11.2682
▁riusciva	-11.2687
▁Gioisc	-11.2694
▁respinger	-11.2696
▁bagnar	-11.2706
▁depor	-11.2725
▁castigher	-11.2727
▁lasciata	-11.2744
assai	-11.2769
▁affidat	-11.2789
▁spargere	-11.281
▁delusi	-11.2837
▁indicato	-11.2895
▁mangiando	-11.2899
▁sdegn	-11.291
▁vela	-11.2916
▁spint	-11.2919
▁compr	-11.292
▁calz	-11.292
▁lavor	-11.2929
guardo	-11.2946
▁separat	-11.2951
cinquanta	-11.2969
onde	-11.2974
Lasciate	-11.2987
▁piangeva	-11.299
▁prelevat	-11.2998
sporre	-11.3023
▁revoc	-11.3085
etro	-11.3095
▁camminera	-11.311
▁raccogli	-11.3138
▁disporr	-11.3192
▁togli	-11.3221
▁nutr	-11.3308
▁Adoni	-11.3363
▁sappi	-11.3366
▁Giud	-11.3371
▁permise	-11.3378
▁circondat	-11.3386
▁produc	-11.3391
▁carcer	-11.3408
▁avvenut	-11.3413
obbrobrio	-11.3415
Elam	-11.3416
attesa	-11.3416
▁gross	-11.3424
avete	-11.3429
▁desta	-11.3438
▁addorment	-11.3447
▁andar	-11.3452
▁scoppi	-11.3453
▁novanta	-11.3461
Z	-11.3469
▁aspers	-11.3472
▁nacque	-11.3473
Parl	-11.3481
rendiamo	-11.3484
▁rischi	-11.3485
▁distingu	-11.3485
▁Riconosc	-11.3485
▁posteri	-11.3485
▁Kir	-11.3485
▁Offr	-11.3485
▁accovacci	-11.3485
▁branco	-11.3485
▁corromp	-11.3485
▁offend	-11.3485
▁omicidi	-11.3485
▁paragona	-11.3485
▁sfoga	-11.3485
▁soccomb	-11.3485
▁sollievo	-11.3485
▁sovrintendent	-11.3485
Mèlech	-11.3485
equità	-11.3485
▁Aggeo	-11.3485
▁Agrippa	-11.3485
▁Asdòd	-11.3485
▁Barzillài	-11.3485
▁Beniaminita	-11.3485
▁Eliakìm	-11.3485
▁Nadàb	-11.3485
▁Paddan	-11.3485
▁Tommaso	-11.3485
▁Zalmunna	-11.3485
▁Zoar	-11.3485
▁Zorea	-11.3485
▁appres	-11.3485
▁ascolterà	-11.3485
▁ascolterò	-11.3485
▁beffe	-11.3485
▁caldaie	-11.3485
▁cranio	-11.3485
▁cupidigia	-11.3485
▁edificò	-11.3485
▁fariseo	-11.3485
▁ferito	-11.3485
▁fibbie	-11.3485
▁flusso	-11.3485
▁fornicazione	-11.3485
▁fortificò	-11.3485
▁giardini	-11.3485
▁incisioni	-11.3485
▁innocenti	-11.3485
▁ipocriti	-11.3485
▁mezzanotte	-11.3485
▁nazireato	-11.3485
▁paralitico	-11.3485
▁promulgat	-11.3485
▁redenzione	-11.3485
▁rimpatriati	-11.3485
▁rinnegher	-11.3485
▁sandalo	-11.3485
▁sgorga	-11.3485
▁spruzz	-11.3485
▁suggeri	-11.3485
▁templi	-11.3485
▁trappola	-11.3485
▁valoroso	-11.3485
▁vuota	-11.3485
▁zoppo	-11.3485
apposta	-11.3486
▁Apollo	-11.3486
▁accadrà	-11.3486
▁astension	-11.3486
▁domestic	-11.3486
▁rivestito	-11.3486
▁sciolt	-11.3486
▁Cazar	-11.3486
▁Giusto	-11.3486
▁Recob	-11.3486
▁enorme	-11.3486
▁ferite	-11.3486
▁navata	-11.3486
▁trattenne	-11.3486
▁accolse	-11.3486
▁decisione	-11.3486
▁fidanz	-11.3486
▁respinto	-11.3486
▁Dedan	-11.3486
▁indugia	-11.3486
▁manciat	-11.3486
▁Dagon	-11.3486
▁Milca	-11.3486
▁perseveranza	-11.3486
▁grotta	-11.3486
▁impugn	-11.3486
▁partecipi	-11.3486
▁Dibon	-11.3486
▁inebriante	-11.3486
▁Iddo	-11.3486
▁accorre	-11.3486
▁compreso	-11.3486
▁gioisca	-11.3486
▁mietitori	-11.3486
▁umane	-11.3486
▁Netofa	-11.3486
▁compiuta	-11.3486
▁corrisponde	-11.3486
▁ponga	-11.3486
▁dorso	-11.3486
▁capitello	-11.3486
▁cardi	-11.3486
▁attento	-11.3486
▁attingere	-11.3486
▁vagare	-11.3486
▁gravi	-11.3486
▁pasta	-11.3486
▁terminò	-11.3486
▁valut	-11.3486
rituale	-11.3486
▁intenzion	-11.3486
posizione	-11.3486
▁Beria	-11.3486
▁compratore	-11.3487
▁trascors	-11.3487
▁viandant	-11.3487
▁calore	-11.3487
▁perduti	-11.3487
▁chiusa	-11.3488
▁fugge	-11.3488
▁Gheba	-11.3488
▁assol	-11.3488
▁erge	-11.3488
indign	-11.3488
ignoranza	-11.3489
▁capar	-11.3489
▁duri	-11.349
▁Cipro	-11.349
▁lodatelo	-11.349
▁dolcezza	-11.349
▁asilo	-11.3491
▁divisa	-11.3491
▁umiliazione	-11.3491
▁gravemente	-11.3491
▁creazione	-11.3492
▁raccolgo	-11.3492
ardore	-11.3493
▁convertirsi	-11.3493
▁Ghera	-11.3493
▁debolezza	-11.3493
▁creò	-11.3493
▁fedelmente	-11.3493
▁sorse	-11.3493
▁rispondimi	-11.3494
▁contrad	-11.3495
▁piegava	-11.3495
▁riscattati	-11.3496
▁leonessa	-11.3497
▁seguenti	-11.3497
▁Ietro	-11.3499
aspersione	-11.35
▁berrete	-11.35
▁consegneranno	-11.35
▁assiso	-11.35
▁collina	-11.3501
▁fondata	-11.3506
▁affond	-11.3506
▁chiameranno	-11.3509
▁invitar	-11.3509
▁umiliati	-11.351
▁concederò	-11.3513
▁Zeba	-11.3515
▁cozza	-11.3518
▁risponderò	-11.3521
▁disfatt	-11.3521
▁comprendi	-11.3525
▁Abiu	-11.3527
▁pensando	-11.353
▁rubare	-11.3533
▁giudicati	-11.3538
▁minacciato	-11.3538
▁tentato	-11.3538
▁conferm	-11.3539
▁seguiranno	-11.3541
ostruì	-11.3542
▁servirli	-11.3546
▁Dà	-11.3549
▁piacerà	-11.3549
rmene	-11.3549
▁attaccare	-11.3553
▁tagliarono	-11.3563
metteva	-11.3578
misero	-11.3579
▁ritenut	-11.3587
▁merit	-11.3597
milasettecento	-11.3618
▁Ricordatev	-11.3629
▁pervert	-11.3664
▁meravigli	-11.3716
▁riesc	-11.3721
▁avid	-11.3743
▁costrett	-11.3745
Buon	-11.3763
pendente	-11.3795
▁stracci	-11.3838
▁riserv	-11.3844
osamente	-11.3845
▁avvert	-11.3846
▁balz	-11.3861
▁rinnega	-11.3881
esortazione	-11.3884
▁corich	-11.3895
▁scav	-11.3901
mòn	-11.3912
▁depress	-11.3951
▁Put	-11.3958
▁Chiama	-11.3967
▁stette	-11.3979
edicazione	-11.3998
ntri	-11.4009
▁Avev	-11.4027
▁frem	-11.4048
▁vorrest	-11.4063
▁aggiungere	-11.4071
▁servendo	-11.4084
Lascia	-11.4094
▁tradir	-11.4105
▁mettit	-11.4122
▁afflitt	-11.4224
sessanta	-11.4237
▁terrazz	-11.4241
venuta	-11.4264
▁rimandar	-11.4274
▁infuri	-11.4291
▁signor	-11.4315
▁scopr	-11.4316
▁flagell	-11.4317
▁nativ	-11.4323
▁atri	-11.4355
vverrà	-11.4364
▁insegue	-11.4376
▁Carmel	-11.4413
Bene	-11.4415
afflizione	-11.4415
infedeltà	-11.4415
immagine	-11.4415
innalz	-11.4416
▁Vid	-11.4416
Moab	-11.4417
fuori	-11.4418
▁gl	-11.4422
▁falc	-11.4422
▁difender	-11.4425
Ebbene	-11.4428
▁Dett	-11.4431
▁piatt	-11.444
Vedo	-11.4447
▁incensi	-11.4466
impegn	-11.4473
frutt	-11.4476
caric	-11.4484
▁collabora	-11.4485
▁semplici	-11.4485
Baltazzàr	-11.4485
Barnea	-11.4485
Riferisci	-11.4485
elemosina	-11.4485
individuo	-11.4485
issòpo	-11.4485
▁Abinadàb	-11.4485
▁Achimaaz	-11.4485
▁Aialon	-11.4485
▁Barabba	-11.4485
▁Cedron	-11.4485
▁Celebr	-11.4485
▁Chesbòn	-11.4485
▁Chezron	-11.4485
▁Elisabetta	-11.4485
▁Iafet	-11.4485
▁Kenaz	-11.4485
▁Micmas	-11.4485
▁Princip	-11.4485
▁Sanballàt	-11.4485
▁Tofet	-11.4485
▁Zippor	-11.4485
▁abbastanza	-11.4485
▁abominevole	-11.4485
▁assoggett	-11.4485
▁bianchi	-11.4485
▁caligine	-11.4485
▁canizie	-11.4485
▁cercheranno	-11.4485
▁compiaciuto	-11.4485
▁decisioni	-11.4485
▁disciplina	-11.4485
▁divisioni	-11.4485
▁eccelso	-11.4485
▁fecondi	-11.4485
▁folgori	-11.4485
▁giustificazione	-11.4485
▁grappoli	-11.4485
▁gratuitamente	-11.4485
▁guancia	-11.4485
▁guariti	-11.4485
▁guarnigion	-11.4485
▁improvvisa	-11.4485
▁mandria	-11.4485
▁nuvola	-11.4485
▁nuziale	-11.4485
▁occult	-11.4485
▁patrimonio	-11.4485
▁pendici	-11.4485
▁primogenitura	-11.4485
▁rappresenta	-11.4485
▁recipient	-11.4485
▁ricorre	-11.4485
▁rimprovero	-11.4485
▁segnale	-11.4485
▁sfogo	-11.4485
▁sostiene	-11.4485
▁sottratt	-11.4485
▁squadra	-11.4485
▁terafim	-11.4485
▁trafigge	-11.4485
▁trasmess	-11.4485
▁trasversali	-11.4485
▁tributi	-11.4485
▁ubriaco	-11.4485
▁ugualmente	-11.4485
▁zampe	-11.4485
▁Consider	-11.4486
▁depone	-11.4486
▁estranei	-11.4486
▁fortificate	-11.4486
▁giustificati	-11.4486
▁processo	-11.4486
▁roveto	-11.4486
▁selvatica	-11.4486
▁torchi	-11.4486
▁ubriaca	-11.4486
Avvicinatevi	-11.4486
▁Sefatia	-11.4486
▁Tafni	-11.4486
▁Zimri	-11.4486
▁append	-11.4486
▁brocca	-11.4486
▁bussa	-11.4486
▁caverne	-11.4486
▁cipressi	-11.4486
▁coltelli	-11.4486
▁flauto	-11.4486
▁intercede	-11.4486
▁pendio	-11.4486
▁porgete	-11.4486
▁profitt	-11.4486
▁provenient	-11.4486
▁rinforz	-11.4486
▁santissime	-11.4486
▁vincitor	-11.4486
▁atting	-11.4486
▁castoni	-11.4486
▁riconduc	-11.4486
▁terebint	-11.4486
Coraggio	-11.4486
▁Ioiada	-11.4486
▁Ornan	-11.4486
▁ringraziamento	-11.4486
▁sospira	-11.4486
anfora	-11.4486
▁Trova	-11.4486
▁abbattuti	-11.4486
▁fiacca	-11.4486
▁spiaggia	-11.4486
▁trasfer	-11.4486
▁Tubal	-11.4486
▁amaramente	-11.4486
▁Salvami	-11.4486
▁disgust	-11.4486
▁quarantadue	-11.4486
▁conosciuti	-11.4486
▁rupi	-11.4486
▁Musi	-11.4486
▁bianche	-11.4486
▁discuss	-11.4486
▁pazzi	-11.4486
▁Venga	-11.4486
▁falsa	-11.4486
▁congiunt	-11.4486
▁completo	-11.4486
▁grassi	-11.4486
▁oliveti	-11.4486
▁sordi	-11.4486
▁garant	-11.4486
▁marinai	-11.4486
▁Isear	-11.4486
▁sapevo	-11.4486
▁aggiunt	-11.4486
▁facile	-11.4486
▁Arabi	-11.4486
▁Porgi	-11.4486
▁Datan	-11.4486
▁altissimo	-11.4486
fferenza	-11.4486
▁Mangi	-11.4486
▁Messia	-11.4486
▁disegni	-11.4486
▁premio	-11.4486
▁prepost	-11.4486
▁svanir	-11.4486
▁discord	-11.4486
▁maestri	-11.4486
▁consiste	-11.4486
▁sfuggire	-11.4486
▁spirò	-11.4487
▁libri	-11.4487
▁Cretei	-11.4487
▁-1	-11.4487
▁beffa	-11.4487
▁insidia	-11.4487
▁artisti	-11.4487
▁istruisc	-11.4487
▁Etam	-11.4487
▁colleghi	-11.4487
▁ricolm	-11.4487
▁preleverete	-11.4488
▁ammirat	-11.4488
Costrui	-11.4488
▁fondamento	-11.4488
▁incute	-11.4488
▁creatura	-11.4489
▁Anak	-11.4489
▁capretti	-11.4489
▁creta	-11.4489
▁Neria	-11.4489
▁nuove	-11.4489
▁Mamre	-11.449
▁pendenti	-11.449
▁tranquillità	-11.449
▁carichi	-11.4491
▁Paran	-11.4491
▁crediamo	-11.4491
▁periscono	-11.4491
▁pratiche	-11.4491
▁gemiti	-11.4491
▁Vasti	-11.4491
▁Carim	-11.4491
▁convocazione	-11.4492
▁Ghersoniti	-11.4492
▁monet	-11.4493
▁bimb	-11.4493
▁rimoss	-11.4493
▁ricoprì	-11.4494
▁agiterà	-11.4494
▁santificazione	-11.4495
▁divori	-11.4495
▁palett	-11.4495
▁brame	-11.4495
▁ripudiata	-11.4496
▁onest	-11.4497
▁entrerai	-11.4497
▁verace	-11.4497
▁accuse	-11.4497
▁continuamente	-11.4498
▁trattener	-11.4498
prenderanno	-11.4499
▁pugno	-11.4499
▁Sappiate	-11.4499
▁manifestazione	-11.45
▁scriva	-11.45
▁possederanno	-11.4501
▁Uzza	-11.4501
Abb	-11.4501
▁parve	-11.4501
▁affin	-11.4502
▁sigillato	-11.4504
▁cesta	-11.4504
▁morde	-11.4505
▁irritato	-11.4505
▁stagno	-11.4506
▁cesserà	-11.4506
▁mortali	-11.4507
▁sasso	-11.4507
▁quattromila	-11.4507
▁lieti	-11.4507
▁palmo	-11.4508
▁eretta	-11.4508
▁allevato	-11.451
▁dovrebbero	-11.451
▁liberazione	-11.4511
▁spira	-11.4515
▁fiato	-11.452
▁sassi	-11.4522
▁spalanc	-11.4523
▁toglierai	-11.4524
▁logor	-11.4524
indigenza	-11.4527
▁constat	-11.454
▁ingannato	-11.4544
▁Partit	-11.4552
Popol	-11.4553
▁distese	-11.4554
▁Mostr	-11.4555
▁ritornat	-11.4556
▁sapra	-11.4564
rappo	-11.4571
▁sembrava	-11.4584
import	-11.4595
▁sdr	-11.461
Acaia	-11.4619
Arba	-11.465
▁combattut	-11.4683
▁formazion	-11.4686
▁adempiut	-11.4694
veste	-11.4707
▁Tel	-11.4714
▁benevol	-11.4714
▁abbass	-11.4723
▁spars	-11.4727
▁relazion	-11.4734
▁coricat	-11.4792
▁brucera	-11.4801
spinse	-11.4814
indigente	-11.4816
▁catturat	-11.4817
accus	-11.4821
▁dev	-11.4835
▁bagnat	-11.4837
▁offro	-11.485
ndò	-11.4857
▁profanar	-11.4862
▁vest	-11.4863
formatevi	-11.4881
▁stopp	-11.4888
▁riedificat	-11.4889
▁Part	-11.4912
▁possedere	-11.4921
▁Pose	-11.4925
▁contatt	-11.4946
▁Prepar	-11.4959
▁espor	-11.4981
▁collocat	-11.4982
▁rimandat	-11.4991
▁eliminer	-11.4991
▁proced	-11.4995
▁insensat	-11.503
▁riprende	-11.5073
Preparate	-11.5093
interess	-11.5094
▁contener	-11.5121
▁rinnegat	-11.5129
porrai	-11.5147
▁convocat	-11.5152
▁calm	-11.5194
▁indigen	-11.5196
Poss	-11.5199
segnati	-11.5227
alza	-11.5243
▁consegnar	-11.5255
amb	-11.5255
▁moltiplicat	-11.5294
▁mutat	-11.5356
▁estendeva	-11.54
▁partorisc	-11.5402
▁vendicar	-11.5404
ventitrè	-11.5432
teneva	-11.5446
▁effi	-11.5446
▁ottocento	-11.5448
▁pericol	-11.5465
▁Etiopi	-11.5466
▁richiest	-11.5466
▁sessant	-11.5467
▁Assiri	-11.5469
ccanto	-11.5478
▁visit	-11.5519
▁facce	-11.5522
▁dispost	-11.5524
▁costituit	-11.5525
iniquo	-11.5526
accaduto	-11.5527
idolo	-11.5528
Giovanni	-11.5528
venga	-11.5529
▁Bada	-11.5573
▁vedre	-11.5581
▁question	-11.5587
▁allarga	-11.5587
▁spaventat	-11.5593
olpì	-11.5594
▁sagge	-11.5594
introdu	-11.5594
▁circoncid	-11.5596
uguaglia	-11.5597
▁Aggiunse	-11.5597
▁Ghesur	-11.5597
▁Querc	-11.5597
▁costringe	-11.5597
▁frequent	-11.5597
▁puledro	-11.5597
▁rumina	-11.5597
Azmàvet	-11.5597
mpietosi	-11.5597
▁Beniaminiti	-11.5597
▁Betuèl	-11.5597
▁Bicrì	-11.5597
▁Binnui	-11.5597
▁Caifa	-11.5597
▁Chezròn	-11.5597
▁Ekròn	-11.5597
▁Elifèlet	-11.5597
▁Elisamà	-11.5597
▁Galaadita	-11.5597
▁Iedaia	-11.5597
▁Ittài	-11.5597
▁Macanàim	-11.5597
▁Makkeda	-11.5597
▁Milcom	-11.5597
▁Nadab	-11.5597
▁Natàn	-11.5597
▁Neemia	-11.5597
▁Ringrazi	-11.5597
▁Secania	-11.5597
▁Selemia	-11.5597
▁Tessalonic	-11.5597
▁Zaccur	-11.5597
▁Zelofcad	-11.5597
▁accadde	-11.5597
▁ammalò	-11.5597
▁appell	-11.5597
▁balsamo	-11.5597
▁banchetti	-11.5597
▁beffardo	-11.5597
▁bisaccia	-11.5597
▁braciere	-11.5597
▁calamità	-11.5597
▁campagne	-11.5597
▁contributo	-11.5597
▁corrotti	-11.5597
▁costrinse	-11.5597
▁distinzione	-11.5597
▁effond	-11.5597
▁esaudì	-11.5597
▁flauti	-11.5597
▁guerriero	-11.5597
▁individui	-11.5597
▁intelligenti	-11.5597
▁irreprensibili	-11.5597
▁magnifica	-11.5597
▁manufatto	-11.5597
▁meridione	-11.5597
▁ostinò	-11.5597
▁parzialità	-11.5597
▁pescatori	-11.5597
▁piogge	-11.5597
▁pomeriggio	-11.5597
▁propositi	-11.5597
▁rapporto	-11.5597
▁religione	-11.5597
▁reticolato	-11.5597
▁scelleratezze	-11.5597
▁sciolse	-11.5597
▁sconfitta	-11.5597
▁sentenze	-11.5597
▁sentinelle	-11.5597
▁sepoltura	-11.5597
▁servì	-11.5597
▁sfracell	-11.5597
▁sobilla	-11.5597
▁solitudine	-11.5597
▁sommers	-11.5597
▁spigolare	-11.5597
▁spregevole	-11.5597
▁sàtrapi	-11.5597
▁trafitto	-11.5597
Idumea	-11.5597
alterigia	-11.5597
▁Benedici	-11.5597
▁Iazer	-11.5597
▁Mesech	-11.5597
▁affamati	-11.5597
▁ceppo	-11.5597
▁comprendono	-11.5597
▁conclud	-11.5597
▁opportuno	-11.5597
▁profess	-11.5597
▁proposta	-11.5597
▁ragazza	-11.5597
▁ruota	-11.5597
▁trabocca	-11.5597
▁Debora	-11.5597
▁Iabin	-11.5597
▁Semaià	-11.5597
▁borsa	-11.5597
▁brace	-11.5597
▁inutile	-11.5597
▁oscure	-11.5597
▁Tabor	-11.5597
▁chiaramente	-11.5597
▁fecondo	-11.5597
▁restituit	-11.5597
▁scritta	-11.5597
▁Beisan	-11.5597
▁Sèba	-11.5597
▁Vorre	-11.5597
▁fallace	-11.5597
Semes	-11.5597
▁arrosti	-11.5597
▁cinture	-11.5597
▁fuggiasco	-11.5597
▁guizz	-11.5597
▁punizione	-11.5597
▁venduti	-11.5597
▁violenti	-11.5597
▁locuste	-11.5597
Neppur	-11.5597
▁deride	-11.5597
centodieci	-11.5597
▁ceneri	-11.5597
▁peccher	-11.5597
▁seduce	-11.5597
▁azzime	-11.5597
▁cospars	-11.5597
▁inflitt	-11.5597
▁nuda	-11.5597
arsura	-11.5597
▁preparativi	-11.5597
▁destino	-11.5597
▁bosco	-11.5597
▁feriti	-11.5597
▁veritier	-11.5597
archivista	-11.5597
▁Domandò	-11.5597
▁dorme	-11.5597
▁dignità	-11.5597
▁lontane	-11.5597
▁attaccher	-11.5597
▁laggiù	-11.5597
▁Gaal	-11.5597
▁caldei	-11.5597
▁Necao	-11.5597
▁governanti	-11.5597
▁materia	-11.5597
▁saperlo	-11.5597
▁cercherai	-11.5597
▁avvertito	-11.5597
▁pollic	-11.5597
▁spontaneamente	-11.5597
▁kor	-11.5597
▁calici	-11.5597
▁invitò	-11.5597
▁Canàni	-11.5597
▁Perdona	-11.5597
▁sorprende	-11.5597
▁rischiara	-11.5597
▁regalo	-11.5597
▁assoluto	-11.5597
▁evitare	-11.5597
▁madri	-11.5598
▁Zebadia	-11.5598
▁integra	-11.5598
▁smont	-11.5598
▁bilancia	-11.5598
▁tremò	-11.5598
▁Rimase	-11.5598
▁licenz	-11.5598
▁gloriosa	-11.5598
1-	-11.5598
▁concedi	-11.5598
▁litiga	-11.5598
▁comprat	-11.5598
▁strazi	-11.5599
▁sponda	-11.5599
▁salga	-11.5599
▁Adàr	-11.5599
▁Amos	-11.5599
Accost	-11.5599
▁Anakiti	-11.5599
armatura	-11.5599
▁insegni	-11.5599
▁amica	-11.56
▁profondamente	-11.56
▁Abiram	-11.56
▁Etan	-11.56
umile	-11.56
▁negò	-11.5601
▁diverrà	-11.5601
▁regge	-11.5601
▁vorrai	-11.5602
▁pozzi	-11.5602
settantadue	-11.5602
▁seguaci	-11.5602
▁capacità	-11.5602
▁curi	-11.5602
avre	-11.5603
▁nobile	-11.5604
▁obbediscono	-11.5605
▁sovrano	-11.5605
▁parliamo	-11.5605
▁Amòn	-11.5605
▁nuovi	-11.5605
▁addormentato	-11.5606
▁mola	-11.5607
▁punisc	-11.5607
▁mirabil	-11.5608
▁crediate	-11.5608
▁Cefa	-11.5608
▁linea	-11.5608
▁pecchi	-11.5609
▁erra	-11.5609
▁dimori	-11.561
Scegli	-11.561
▁cariche	-11.561
▁sapesse	-11.561
▁morso	-11.561
▁mangiarne	-11.5611
▁viviamo	-11.5611
▁Elimin	-11.5612
▁rattristato	-11.5613
▁Aran	-11.5615
▁precis	-11.5615
▁dens	-11.5616
▁costruisce	-11.5616
incensiere	-11.5618
▁pronta	-11.5619
▁unirsi	-11.5619
▁corrier	-11.5621
▁scampato	-11.5629
▁ceder	-11.563
▁lavata	-11.5634
▁rapit	-11.5636
tolga	-11.5638
artista	-11.564
Comand	-11.5652
▁dirigeva	-11.5655
▁guadagnar	-11.5661
ccedeva	-11.5665
▁bocc	-11.5667
▁amiamo	-11.5669
sponde	-11.5679
settantacinque	-11.5705
▁Present	-11.5734
trepid	-11.5754
rtene	-11.5759
▁cantic	-11.5813
▁suonava	-11.582
▁vergogne	-11.5879
▁andasse	-11.5895
▁volga	-11.5902
▁ricopert	-11.5945
avvent	-11.5951
imprecazione	-11.5999
fis	-11.6017
sistenza	-11.6047
▁viol	-11.6049
▁ispirat	-11.61
▁timor	-11.6113
▁ripost	-11.6146
▁spian	-11.6232
sistevano	-11.6251
▁timorat	-11.6262
▁sembr	-11.6331
▁stracciat	-11.6333
parecchi	-11.6341
▁bast	-11.6373
▁rimas	-11.6397
▁pende	-11.6424
▁rifugi	-11.6451
sub	-11.6484
▁appartene	-11.6522
▁distribu	-11.6533
▁ricerc	-11.6536
▁conservat	-11.6538
▁accogli	-11.6589
▁eseguir	-11.6591
▁lavorator	-11.6599
▁preoccup	-11.6606
▁Ram	-11.6663
anziano	-11.6683
▁mettil	-11.6694
Ascolt	-11.6743
▁coppier	-11.6768
▁giovinett	-11.6773
▁cadd	-11.6774
▁crocifiss	-11.6775
errore	-11.6775
▁santuari	-11.6776
insegui	-11.6776
Voglio	-11.6776
autorità	-11.6777
Guai	-11.6778
abominio	-11.6778
cominciò	-11.6778
Gesù	-11.6778
▁convertit	-11.6779
Gad	-11.6781
Pot	-11.6788
▁riversat	-11.6788
▁odor	-11.6796
▁gall	-11.68
▁durat	-11.6815
▁saran	-11.6818
▁fabbri	-11.6842
offrono	-11.6843
azze	-11.6844
▁bilanc	-11.6845
▁Zof	-11.6847
▁disobbedi	-11.6847
imprigion	-11.6847
▁Astarot	-11.6847
▁Attravers	-11.6847
▁Consacr	-11.6847
▁Insegna	-11.6847
▁appaia	-11.6847
▁incomincia	-11.6847
▁officia	-11.6847
▁quadruped	-11.6847
▁raddrizz	-11.6847
▁sopravvive	-11.6847
▁stritola	-11.6847
Ammonita	-11.6847
Convertitevi	-11.6847
Hinnòn	-11.6847
amministratore	-11.6847
appetito	-11.6847
impudicizia	-11.6847
indennizzo	-11.6847
indovinello	-11.6847
ipocrisia	-11.6847
mbedue	-11.6847
▁Afek	-11.6847
▁Amminadab	-11.6847
▁Araunà	-11.6847
▁Bacurìm	-11.6847
▁Baldassàr	-11.6847
▁Berechia	-11.6847
▁Chebàr	-11.6847
▁Cilicia	-11.6847
▁Cornelio	-11.6847
▁Gelboe	-11.6847
▁Gentili	-11.6847
▁Ieconia	-11.6847
▁Immer	-11.6847
▁Interroga	-11.6847
▁Ioakìm	-11.6847
▁Kedàr	-11.6847
▁Kenan	-11.6847
▁Keniti	-11.6847
▁Meghiddo	-11.6847
▁Menachem	-11.6847
▁Menfi	-11.6847
▁Netaneèl	-11.6847
▁Pascùr	-11.6847
▁Pisga	-11.6847
▁Rallegratevi	-11.6847
▁Rivesti	-11.6847
▁Sefela	-11.6847
▁Selomìt	-11.6847
▁Serebia	-11.6847
▁Sopra	-11.6847
▁Tarsìs	-11.6847
▁Zoba	-11.6847
▁accreditato	-11.6847
▁agguati	-11.6847
▁amministratori	-11.6847
▁applica	-11.6847
▁arrossire	-11.6847
▁ascolteranno	-11.6847
▁assenzio	-11.6847
▁astrologi	-11.6847
▁baluardo	-11.6847
▁battaglie	-11.6847
▁brecce	-11.6847
▁bubboni	-11.6847
▁cavaliere	-11.6847
▁cercherà	-11.6847
▁chiacchiere	-11.6847
▁cordicell	-11.6847
▁cumul	-11.6847
▁desolate	-11.6847
▁dignitari	-11.6847
▁dimensioni	-11.6847
▁dimentichi	-11.6847
▁divampò	-11.6847
▁eseguisc	-11.6847
▁falegnami	-11.6847
▁fessur	-11.6847
▁fodero	-11.6847
▁frastuono	-11.6847
▁fronde	-11.6847
▁guariva	-11.6847
▁impone	-11.6847
▁inesperti	-11.6847
▁inghiottì	-11.6847
▁iniqua	-11.6847
▁istruito	-11.6847
▁leoncelli	-11.6847
▁leoncello	-11.6847
▁mercato	-11.6847
▁mercenari	-11.6847
▁negromanti	-11.6847
▁nuvole	-11.6847
▁padrona	-11.6847
▁persuadere	-11.6847
▁pietoso	-11.6847
▁predecessori	-11.6847
▁profetessa	-11.6847
▁pronunciare	-11.6847
▁punteggiat	-11.6847
▁retroguardia	-11.6847
▁richiede	-11.6847
▁riuscì	-11.6847
▁ruggito	-11.6847
▁santifico	-11.6847
▁scellerat	-11.6847
▁selvaggina	-11.6847
▁sospes	-11.6847
▁sostentamento	-11.6847
▁spalline	-11.6847
▁spirituali	-11.6847
▁sporgenz	-11.6847
▁squame	-11.6847
▁squisit	-11.6847
▁straordinaria	-11.6847
▁superficie	-11.6847
▁tortura	-11.6847
▁uccisa	-11.6847
▁zizzania	-11.6847
▁zoccol	-11.6847
▁ònice	-11.6847
▁Giung	-11.6847
▁Intorno	-11.6847
▁ammalat	-11.6847
▁estirper	-11.6847
▁particolare	-11.6847
▁paterno	-11.6847
▁presiedeva	-11.6847
▁sofferto	-11.6847
Vattene	-11.6847
angustia	-11.6847
▁Reuel	-11.6847
▁Roccia	-11.6847
▁Spada	-11.6847
▁arcieri	-11.6847
▁capello	-11.6847
▁declina	-11.6847
▁intinge	-11.6847
▁miriadi	-11.6847
▁scintill	-11.6847
▁spedizione	-11.6847
▁violenta	-11.6847
▁Ammiud	-11.6847
▁Iachin	-11.6847
▁abbraccia	-11.6847
▁comprenda	-11.6847
▁laterale	-11.6847
▁severamente	-11.6847
▁assistito	-11.6847
▁località	-11.6847
▁rovescer	-11.6847
▁sopprim	-11.6847
unguento	-11.6847
▁Gerar	-11.6847
▁Simeì	-11.6847
▁locusta	-11.6847
▁parleranno	-11.6847
▁Ofra	-11.6847
▁fallaci	-11.6847
▁ricevuta	-11.6847
▁denari	-11.6847
▁vagando	-11.6847
▁temuto	-11.6847
▁Caldea	-11.6847
▁sordo	-11.6847
▁Trascors	-11.6847
Iearim	-11.6847
innocenza	-11.6847
▁rubi	-11.6847
▁singol	-11.6847
▁Misael	-11.6847
▁mescolat	-11.6847
▁sorveglianti	-11.6847
▁Arièl	-11.6847
▁egizian	-11.6847
▁pretorio	-11.6847
▁corvo	-11.6847
▁danze	-11.6847
▁raffinat	-11.6847
▁Onan	-11.6847
▁detesta	-11.6847
▁bacini	-11.6847
èstati	-11.6847
▁insorse	-11.6847
▁razzia	-11.6847
▁scosso	-11.6847
▁decisa	-11.6847
▁delizios	-11.6847
▁posteriore	-11.6847
▁poema	-11.6847
▁scuro	-11.6847
▁futuri	-11.6847
▁Devast	-11.6847
▁Colloc	-11.6847
▁sovrani	-11.6847
energi	-11.6847
▁mantenere	-11.6847
nzitutto	-11.6847
assennato	-11.6847
▁sostener	-11.6847
▁spazzat	-11.6847
▁perdonerà	-11.6847
▁boccone	-11.6847
▁manchi	-11.6847
▁primavera	-11.6847
▁ovili	-11.6847
▁Tebe	-11.6848
▁dissolv	-11.6848
Volgiti	-11.6848
▁paio	-11.6848
▁combattimento	-11.6848
▁distoglie	-11.6848
▁Cielo	-11.6848
▁complott	-11.6848
▁creda	-11.6848
▁roman	-11.6848
▁difese	-11.6848
▁fionda	-11.6848
▁alzeranno	-11.6848
▁Risposi	-11.6848
▁Simeà	-11.6848
▁secolo	-11.6848
▁roba	-11.6848
▁ventiduemila	-11.6848
▁Abdon	-11.6848
Domand	-11.6849
▁doglie	-11.6849
repito	-11.6849
▁intenda	-11.6849
▁emigr	-11.6849
▁soglie	-11.685
▁piegh	-11.685
▁Curam	-11.685
▁inserir	-11.685
▁Dison	-11.685
▁giustificar	-11.685
▁unghie	-11.685
▁Tenda	-11.685
▁ventinove	-11.685
Convoca	-11.685
▁tenerezz	-11.685
▁manifester	-11.685
▁trattien	-11.6851
▁inaridita	-11.6851
▁Enos	-11.6852
▁dilegu	-11.6852
▁tendono	-11.6853
▁magie	-11.6853
▁ribellioni	-11.6853
▁diversi	-11.6853
▁segua	-11.6853
▁indossava	-11.6854
▁dannegg	-11.6854
▁interior	-11.6854
▁Siria	-11.6854
▁diletta	-11.6854
▁fugga	-11.6855
▁resterete	-11.6855
▁sonagli	-11.6855
▁contesa	-11.6856
▁delizia	-11.6856
▁Netan	-11.6856
▁Edrei	-11.6857
infrang	-11.6857
▁consacrerai	-11.6857
▁frutta	-11.6857
▁rasat	-11.6858
▁strid	-11.6859
▁contratt	-11.686
▁Elon	-11.686
▁trarre	-11.6862
Distrugg	-11.6862
▁fascia	-11.6869
Assir	-11.6871
Badate	-11.6875
▁sconosciut	-11.6878
▁espon	-11.6885
▁indossar	-11.69
Donna	-11.6904
▁Stender	-11.6907
seguendo	-11.6917
Ogn	-11.6936
▁Luc	-11.6968
▁osava	-11.6975
▁milleduecento	-11.6977
▁prescrizion	-11.6984
▁sparg	-11.7008
interven	-11.703
▁tortor	-11.7043
spugna	-11.7117
sulteranno	-11.7123
▁appiccher	-11.7126
▁percuot	-11.7164
▁tumor	-11.7287
▁gocc	-11.7307
seguite	-11.7322
▁soggiorn	-11.7368
▁scrut	-11.7381
Chiedi	-11.7398
▁osservera	-11.745
▁agitat	-11.7451
▁Sied	-11.7477
▁spianat	-11.7526
▁agit	-11.7562
Scrivi	-11.7594
▁chiod	-11.7594
▁collochera	-11.7603
usanza	-11.7711
▁riedific	-11.7714
abitazione	-11.7733
articola	-11.776
▁desist	-11.7761
▁afferm	-11.7823
Entra	-11.7928
▁romper	-11.7966
▁offert	-11.7996
▁ricompens	-11.8064
▁baston	-11.8104
▁sacerdot	-11.8104
▁circoncis	-11.8108
▁compagn	-11.8108
▁agnell	-11.8109
segnato	-11.8119
Signor	-11.8127
▁dottrin	-11.8147
▁potenz	-11.8148
▁cordon	-11.8179
▁preparat	-11.8183
▁tribun	-11.8201
▁mucchi	-11.8203
▁avvolt	-11.8203
▁accadut	-11.8203
impurità	-11.8204
afferr	-11.8205
esilio	-11.8206
agguato	-11.8206
osserva	-11.8206
▁macell	-11.8206
oracolo	-11.8207
Aronne	-11.8207
▁trasgred	-11.8208
ffligge	-11.8209
amico	-11.821
▁prestera	-11.8222
vvero	-11.8232
Beat	-11.8233
llò	-11.8236
rabb	-11.8241
▁mangere	-11.8243
▁ricostru	-11.8244
▁appogg	-11.8263
é	-11.8268
genito	-11.8273
▁scandali	-11.8273
▁calcolar	-11.8273
▁infermi	-11.8274
trici	-11.8275
▁Racco	-11.8275
Abisso	-11.8275
Seguimi	-11.8275
amministrazione	-11.8275
eternità	-11.8275
idolatria	-11.8275
indemoniato	-11.8275
infanzia	-11.8275
offeso	-11.8275
’	-11.8275
▁Adullam	-11.8275
▁Ascalòna	-11.8275
▁Beelzebùl	-11.8275
▁Betsàida	-11.8275
▁Bezaleel	-11.8275
▁Bozra	-11.8275
▁Bukki	-11.8275
▁Confida	-11.8275
▁Ebiatar	-11.8275
▁Elièzer	-11.8275
▁Estaol	-11.8275
▁Genèsaret	-11.8275
▁Iabbok	-11.8275
▁Ieracmèl	-11.8275
▁Ismaeliti	-11.8275
▁Kadmiel	-11.8275
▁Matusalemme	-11.8275
▁Moloch	-11.8275
▁Oolibama	-11.8275
▁Orbene	-11.8275
▁Otniel	-11.8275
▁Penuel	-11.8275
▁Pìncas	-11.8275
▁Qoèlet	-11.8275
▁Rispondi	-11.8275
▁Sebania	-11.8275
▁Sefarvàim	-11.8275
▁Soggiunse	-11.8275
▁Sunammita	-11.8275
▁Zabad	-11.8275
▁Zilpa	-11.8275
▁accuratamente	-11.8275
▁addolorat	-11.8275
▁adùlteri	-11.8275
▁anteriore	-11.8275
▁asciutta	-11.8275
▁avvenente	-11.8275
▁bandito	-11.8275
▁bracieri	-11.8275
▁briganti	-11.8275
▁bugiardi	-11.8275
▁cercherete	-11.8275
▁circostanza	-11.8275
▁concordi	-11.8275
▁concupiscenza	-11.8275
▁corruttibile	-11.8275
▁cuoio	-11.8275
▁defunto	-11.8275
▁descriv	-11.8275
▁destrieri	-11.8275
▁dormono	-11.8275
▁effetto	-11.8275
▁esasper	-11.8275
▁esaurit	-11.8275
▁foraggio	-11.8275
▁gioielli	-11.8275
▁giunchi	-11.8275
▁grappolo	-11.8275
▁gruppi	-11.8275
▁guarigione	-11.8275
▁guarigioni	-11.8275
▁languisce	-11.8275
▁lebbrosi	-11.8275
▁leopardo	-11.8275
▁ludibrio	-11.8275
▁mansuet	-11.8275
▁membri	-11.8275
▁molesta	-11.8275
▁mosconi	-11.8275
▁persecuzione	-11.8275
▁piaciuto	-11.8275
▁piedestallo	-11.8275
▁precipizio	-11.8275
▁predichiamo	-11.8275
▁preferenz	-11.8275
▁prevalg	-11.8275
▁proprietario	-11.8275
▁ravveder	-11.8275
▁ricamatore	-11.8275
▁riflessione	-11.8275
▁rivivere	-11.8275
▁rombo	-11.8275
▁sacchetto	-11.8275
▁salverebbero	-11.8275
▁semplice	-11.8275
▁sfida	-11.8275
▁sguainata	-11.8275
▁sommerg	-11.8275
▁spergiur	-11.8275
▁spranghe	-11.8275
▁tacquero	-11.8275
▁tetrarca	-11.8275
▁topazio	-11.8275
▁tranquille	-11.8275
▁trasgressione	-11.8275
▁uguali	-11.8275
▁usanze	-11.8275
▁vocazione	-11.8275
▁volentieri	-11.8275
▁Pallu	-11.8275
▁barcolla	-11.8275
▁beffardi	-11.8275
▁costruzioni	-11.8275
▁digrigna	-11.8275
▁elementi	-11.8275
▁estingu	-11.8275
▁feconda	-11.8275
▁feroci	-11.8275
▁indirizza	-11.8275
▁maligna	-11.8275
▁marchio	-11.8275
▁oppone	-11.8275
▁pellegrin	-11.8275
▁rasoio	-11.8275
▁riscuot	-11.8275
▁sostenuto	-11.8275
▁tessitore	-11.8275
Zur	-11.8275
incamminò	-11.8275
▁Azzimi	-11.8275
▁Baana	-11.8275
▁Peletei	-11.8275
▁braccialetti	-11.8275
▁fiaccol	-11.8275
▁racimola	-11.8275
▁ricuper	-11.8275
▁santifich	-11.8275
▁scalpelli	-11.8275
▁sottoposto	-11.8275
▁struzzi	-11.8275
▁vicende	-11.8275
▁Simron	-11.8275
▁perfida	-11.8275
▁Vegliate	-11.8275
▁dominerà	-11.8275
▁ottiene	-11.8275
▁trattenut	-11.8275
▁Peleg	-11.8275
▁Tanis	-11.8275
▁ardenti	-11.8275
▁celesti	-11.8275
▁esuli	-11.8275
▁figure	-11.8275
autunno	-11.8275
▁incapac	-11.8275
▁possente	-11.8275
▁scrosci	-11.8275
▁venditori	-11.8275
▁dolci	-11.8275
▁Libni	-11.8275
▁gesto	-11.8275
▁Benedite	-11.8275
▁Sisach	-11.8275
▁mediatore	-11.8275
▁sottomesse	-11.8275
▁mascelle	-11.8275
▁pronunciat	-11.8275
▁Rafa	-11.8275
▁minestra	-11.8275
▁sacerdotali	-11.8275
▁porgeva	-11.8275
▁proibit	-11.8275
▁accresce	-11.8275
▁granelli	-11.8275
▁stimol	-11.8275
▁Agag	-11.8275
▁maestos	-11.8275
▁Voglia	-11.8275
▁troni	-11.8275
emuel	-11.8275
▁greco	-11.8275
▁rimedi	-11.8275
▁irrevocabile	-11.8275
▁prevar	-11.8275
▁cause	-11.8275
▁collana	-11.8275
▁frust	-11.8275
Ahimè	-11.8275
▁tignola	-11.8276
▁lealtà	-11.8276
▁sobri	-11.8276
▁sparla	-11.8276
▁Ebal	-11.8276
▁Terrore	-11.8276
▁astut	-11.8276
▁Onora	-11.8276
▁conduco	-11.8276
▁assalito	-11.8276
▁puniti	-11.8276
▁Luz	-11.8276
▁poggiava	-11.8276
▁ebreo	-11.8276
▁innamor	-11.8276
▁tolta	-11.8276
▁castighi	-11.8276
▁Cinqu	-11.8276
▁enigm	-11.8276
alluc	-11.8276
▁Svegliat	-11.8276
▁Nimr	-11.8276
▁lupi	-11.8276
▁urta	-11.8276
▁alzerai	-11.8276
▁lusso	-11.8276
▁esprime	-11.8276
▁disobbedienza	-11.8276
▁creature	-11.8277
▁altrettant	-11.8277
▁chiazzat	-11.8277
▁Iacat	-11.8277
▁mantenuto	-11.8277
▁pigr	-11.8277
▁tiranni	-11.8277
▁naso	-11.8277
▁salariat	-11.8277
▁Camos	-11.8277
▁sistem	-11.8278
▁tassa	-11.8278
▁negato	-11.8278
▁Iamin	-11.8278
Abarim	-11.8278
▁odono	-11.8278
▁prato	-11.8278
▁abituat	-11.8278
▁apra	-11.8279
▁sleal	-11.8279
▁severo	-11.8279
▁incinte	-11.8279
▁vipere	-11.8279
apertura	-11.828
▁frattur	-11.828
▁subb	-11.8281
▁tizzon	-11.8282
▁raff	-11.8282
▁scorge	-11.8285
▁pustol	-11.8286
▁tenga	-11.8287
▁distacch	-11.8289
▁nascon	-11.8289
▁boll	-11.8291
▁protett	-11.8293
rocifiggilo	-11.8298
Gheber	-11.8315
mostrato	-11.8325
▁accompagnat	-11.8327
▁spedit	-11.8329
Spezz	-11.8335
allarme	-11.8335
▁Iaaz	-11.8339
▁pentir	-11.8339
uccisione	-11.8349
centotrentasette	-11.8349
avev	-11.8357
▁baciar	-11.836
▁espose	-11.8366
▁atterrit	-11.8374
▁ammonisc	-11.8379
▁castigat	-11.8382
▁prelev	-11.8384
Credi	-11.8396
Capi	-11.8433
Canàn	-11.8446
▁avvertir	-11.846
▁largh	-11.8483
▁ereditar	-11.8492
cinquantaquattro	-11.8508
▁Invoc	-11.8515
affront	-11.8543
▁mormor	-11.8577
assetato	-11.8593
▁plach	-11.8594
ottava	-11.8633
▁stil	-11.8669
▁fidat	-11.869
▁precipitat	-11.8751
▁sfuggit	-11.8787
▁edifici	-11.8854
centoventitrè	-11.8916
▁pinn	-11.8982
inciampo	-11.8997
▁Scriv	-11.9006
invoco	-11.9008
Mettete	-11.9185
seguirà	-11.9212
▁discuteva	-11.9233
▁centoquarant	-11.9267
ufficio	-11.9269
trenta	-11.9318
▁verra	-11.9345
▁trasportat	-11.9366
attaccarono	-11.9428
▁Boc	-11.9446
▁intent	-11.9559
Fuggi	-11.957
▁insort	-11.9598
▁dispers	-11.9625
▁integri	-11.9633
milatrecento	-11.9697
▁potrest	-11.9698
àrat	-11.9699
▁Gioi	-11.9701
mmolerai	-11.9703
▁usura	-11.9716
▁attraversat	-11.9747
▁accend	-11.9751
▁sedut	-11.9764
▁sepolcr	-11.9775
▁settant	-11.9814
▁null	-11.9821
▁atterr	-11.9828
▁Perizzit	-11.9846
prime	-11.9855
▁terribil	-11.9865
▁aromatic	-11.9868
▁ognun	-11.9871
agitazione	-11.9871
accorto	-11.9871
▁qualcun	-11.9872
inganno	-11.9872
apparir	-11.9876
Bet	-11.9878
▁striscia	-11.9912
▁abbevera	-11.9919
▁estern	-11.9919
Prega	-11.9922
▁paghe	-11.9927
▁serpe	-11.9933
ertamente	-11.9934
▁foc	-11.9934
▁musica	-11.9934
Fatti	-11.9936
Proc	-11.9937
▁sotterra	-11.9942
▁Riempi	-11.9942
▁arruola	-11.9942
▁disabitat	-11.9942
▁implorar	-11.9942
▁organizz	-11.9942
▁premuros	-11.9942
Archita	-11.9942
Coròn	-11.9942
Fermatevi	-11.9942
Impossibile	-11.9942
Pilèzer	-11.9942
assalto	-11.9942
centoventotto	-11.9942
incorruttibile	-11.9942
indomani	-11.9942
infligger	-11.9942
inimicizia	-11.9942
obbligo	-11.9942
offens	-11.9942
▁Abacuc	-11.9942
▁Achitùb	-11.9942
▁Akkub	-11.9942
▁Annunzier	-11.9942
▁Aquila	-11.9942
▁Arpacsad	-11.9942
▁Azeka	-11.9942
▁Basemat	-11.9942
▁Bigvai	-11.9942
▁Desidero	-11.9942
▁Elimèlech	-11.9942
▁Erodìade	-11.9942
▁Filistea	-11.9942
▁Galazia	-11.9942
▁Ghesùr	-11.9942
▁Ghibbeton	-11.9942
▁Hurriti	-11.9942
▁Icònio	-11.9942
▁Ieremòt	-11.9942
▁Ierimòt	-11.9942
▁Ierocam	-11.9942
▁Liberami	-11.9942
▁Maalaleèl	-11.9942
▁Macpela	-11.9942
▁Malluch	-11.9942
▁Melchìsedek	-11.9942
▁Meraiòt	-11.9942
▁Meremòt	-11.9942
▁Mèriba	-11.9942
▁Naaman	-11.9942
▁Natanaèle	-11.9942
▁Oolibà	-11.9942
▁Pascur	-11.9942
▁Penetr	-11.9942
▁Proclam	-11.9942
▁Rekem	-11.9942
▁Sealtièl	-11.9942
▁Taanach	-11.9942
▁Tisbita	-11.9942
▁Troade	-11.9942
▁Ugualmente	-11.9942
▁Zibeon	-11.9942
▁Zobà	-11.9942
▁abluzioni	-11.9942
▁adultèri	-11.9942
▁appesa	-11.9942
▁applich	-11.9942
▁aquile	-11.9942
▁asperger	-11.9942
▁assemblee	-11.9942
▁balsami	-11.9942
▁bassopiano	-11.9942
▁bicchier	-11.9942
▁bipartita	-11.9942
▁brigante	-11.9942
▁bufera	-11.9942
▁bugiardo	-11.9942
▁capitribù	-11.9942
▁cespugli	-11.9942
▁circostanze	-11.9942
▁cognata	-11.9942
▁commessa	-11.9942
▁contraccambio	-11.9942
▁costituisc	-11.9942
▁crocicchi	-11.9942
▁difficoltà	-11.9942
▁dimentico	-11.9942
▁disperda	-11.9942
▁disperdi	-11.9942
▁divulga	-11.9942
▁fabbro	-11.9942
▁fantasma	-11.9942
▁giudeo	-11.9942
▁giudico	-11.9942
▁giungono	-11.9942
▁graticola	-11.9942
▁guarisc	-11.9942
▁idolàtri	-11.9942
▁impallidi	-11.9942
▁impiccati	-11.9942
▁impiglia	-11.9942
▁incantesimi	-11.9942
▁indemoniati	-11.9942
▁magnifico	-11.9942
▁maldicent	-11.9942
▁mandragore	-11.9942
▁melagrana	-11.9942
▁mercante	-11.9942
▁millesettecento	-11.9942
▁obbligh	-11.9942
▁offese	-11.9942
▁opposto	-11.9942
▁paziente	-11.9942
▁profezie	-11.9942
▁prostituirsi	-11.9942
▁raccolga	-11.9942
▁ragionamenti	-11.9942
▁replicarono	-11.9942
▁residuo	-11.9942
▁riforni	-11.9942
▁rigoglios	-11.9942
▁rinneghi	-11.9942
▁risvegli	-11.9942
▁roccaforte	-11.9942
▁ruggisce	-11.9942
▁saccheggeranno	-11.9942
▁sacrificher	-11.9942
▁sbigottit	-11.9942
▁sepolti	-11.9942
▁sgridava	-11.9942
▁simbolo	-11.9942
▁sopruso	-11.9942
▁sostegni	-11.9942
▁sostituir	-11.9942
▁sozzur	-11.9942
▁sradicat	-11.9942
▁straripa	-11.9942
▁stritolerà	-11.9942
▁sublime	-11.9942
▁tappa	-11.9942
▁tolgo	-11.9942
▁tornerete	-11.9942
▁travolti	-11.9942
▁travolto	-11.9942
▁tributari	-11.9942
▁tronco	-11.9942
▁violenze	-11.9942
▁vituperio	-11.9942
▁zanzare	-11.9942
▁Atarot	-11.9942
▁Continu	-11.9942
▁Recum	-11.9942
▁attenu	-11.9942
▁attribu	-11.9942
▁disturb	-11.9942
▁feroce	-11.9942
▁incredulità	-11.9942
▁mantieni	-11.9942
▁mischia	-11.9942
▁povertà	-11.9942
▁propizia	-11.9942
▁sfrenat	-11.9942
▁trabocchetto	-11.9942
▁Amasia	-11.9942
▁Golia	-11.9942
▁Ieièl	-11.9942
▁Solleva	-11.9942
▁Zikri	-11.9942
▁assum	-11.9942
▁diaspro	-11.9942
▁disputa	-11.9942
▁folgore	-11.9942
▁fortificata	-11.9942
▁fraterno	-11.9942
▁mestiere	-11.9942
▁opposizione	-11.9942
▁rapaci	-11.9942
▁strinse	-11.9942
▁carovana	-11.9942
▁sepolta	-11.9942
▁Naiot	-11.9942
▁Zebul	-11.9942
▁cisterne	-11.9942
▁grandissima	-11.9942
▁promessi	-11.9942
▁selvatici	-11.9942
▁spalm	-11.9942
▁Buz	-11.9942
▁prevarica	-11.9942
▁Offrirete	-11.9942
▁coltivatori	-11.9942
▁sfamar	-11.9942
▁soldato	-11.9942
▁palude	-11.9942
▁sessantadue	-11.9942
▁sotterranea	-11.9942
▁Elisu	-11.9942
▁liturgic	-11.9942
▁macerie	-11.9942
▁soffitto	-11.9942
ammenda	-11.9942
▁Corinto	-11.9942
▁tranello	-11.9942
▁Eliàb	-11.9942
▁eterni	-11.9942
▁ricevuti	-11.9942
incendio	-11.9942
▁Giudici	-11.9942
▁mantiene	-11.9942
▁bevono	-11.9942
▁collaboratore	-11.9942
▁mèta	-11.9942
▁levatrici	-11.9942
▁ricevute	-11.9942
▁afflui	-11.9942
▁specchi	-11.9942
▁grassa	-11.9942
▁vigoros	-11.9942
▁terracotta	-11.9942
▁rispondergli	-11.9942
▁inflisse	-11.9942
▁eccellent	-11.9942
▁Bebai	-11.9942
▁Escol	-11.9942
▁Ieria	-11.9942
▁missione	-11.9942
▁protezione	-11.9942
▁toller	-11.9942
▁riporr	-11.9942
▁tradisce	-11.9942
▁ansia	-11.9942
▁brull	-11.9942
▁crescono	-11.9942
▁banda	-11.9942
▁Giaele	-11.9942
▁scanna	-11.9942
▁schiena	-11.9942
▁Doeg	-11.9942
▁maledici	-11.9942
▁salde	-11.9942
▁trafisse	-11.9942
▁fauci	-11.9942
▁funzioni	-11.9942
▁Fuggite	-11.9942
▁Potente	-11.9942
▁intendi	-11.9942
▁siccità	-11.9942
▁vivrai	-11.9942
▁Iared	-11.9942
▁compresi	-11.9942
annunci	-11.9942
▁disastro	-11.9942
ospitalità	-11.9942
▁medico	-11.9942
▁attacchi	-11.9942
▁oracoli	-11.9942
▁Simè	-11.9942
▁fonti	-11.9943
▁Gior	-11.9943
▁spiga	-11.9943
▁compiang	-11.9943
▁associar	-11.9943
▁insegnò	-11.9943
▁condizioni	-11.9943
▁ricondott	-11.9943
▁amareggiat	-11.9943
▁medici	-11.9943
▁astener	-11.9943
▁redenti	-11.9943
▁doppia	-11.9943
▁lupo	-11.9943
▁pupill	-11.9943
▁infonde	-11.9944
▁Zered	-11.9944
▁inserit	-11.9944
▁Dalila	-11.9944
Nulla	-11.9945
▁riparar	-11.9945
▁Stabilir	-11.9945
▁pregiat	-11.9945
▁ventesim	-11.9945
▁glob	-11.9946
Pelet	-11.9947
▁spasim	-11.9947
▁docili	-11.9947
▁parlera	-11.9947
▁Consegn	-11.9948
▁riveder	-11.9949
▁Mattan	-11.9949
▁proveniva	-11.9949
immorali	-11.995
indugio	-11.995
Uomo	-11.9951
▁incalza	-11.9952
imbarc	-11.9952
▁consuetudin	-11.9953
▁cens	-11.9953
▁otterr	-11.9953
▁Naara	-11.9953
▁comperat	-11.9954
Goim	-11.9959
▁insistette	-11.9961
▁ricav	-11.9964
▁piov	-11.9969
▁serrat	-11.9971
scuri	-11.9972
▁trasgredisc	-11.998
Cheres	-11.9981
▁situat	-11.9997
▁recint	-12.0008
▁Volge	-12.0011
▁affligger	-12.002
▁ritirat	-12.0048
cresci	-12.005
incaten	-12.006
vocare	-12.0071
▁edificher	-12.0079
▁sped	-12.0114
▁digiunat	-12.0121
▁insett	-12.0156
▁attirer	-12.0159
Attacca	-12.0224
afflitto	-12.024
▁morir	-12.0244
▁espress	-12.0254
▁prosegui	-12.0302
▁smarrir	-12.0308
▁lasciarl	-12.0341
▁sovrabbonda	-12.0367
▁Pagh	-12.0385
ulcera	-12.0388
▁purific	-12.0412
▁maltrattat	-12.0412
▁sottomett	-12.0444
▁vicinanz	-12.0487
seguita	-12.0526
▁spaccher	-12.0555
▁Abiter	-12.0563
sciami	-12.0587
▁diffond	-12.0722
ummim	-12.0741
llontanatosi	-12.0816
▁suonator	-12.0866
▁Guard	-12.0878
volgono	-12.0882
insensato	-12.0884
▁dotat	-12.0889
impadronir	-12.0938
seguivano	-12.0952
▁valent	-12.1019
stettero	-12.1039
▁abbond	-12.1066
Raduna	-12.138
sposi	-12.1388
▁ulcer	-12.1423
▁insult	-12.1464
conveniente	-12.1537
▁Attacc	-12.1608
alzando	-12.164
ificherò	-12.1686
Neanch	-12.1687
centonovanta	-12.1721
▁conduss	-12.1743
▁stender	-12.1771
▁prodott	-12.1775
▁discepol	-12.1776
▁gelosi	-12.1814
nsieme	-12.1844
Israel	-12.1865
▁misericordios	-12.1868
▁Filipp	-12.187
▁depost	-12.1871
Grande	-12.1871
spande	-12.1871
Canan	-12.1871
▁battut	-12.1871
Ancora	-12.1872
▁predett	-12.1872
estraneo	-12.1872
inganna	-12.1872
adempi	-12.1872
giurò	-12.1873
Sansone	-12.1873
Simone	-12.1873
Samuele	-12.1873
Davide	-12.1874
▁prossim	-12.1874
Allontanat	-12.1882
▁inutili	-12.1885
conosciuta	-12.1909
▁crocifigg	-12.1909
isogna	-12.194
▁Aspett	-12.1941
Avvicinat	-12.1942
lleggerisci	-12.1942
▁Comincia	-12.1942
▁sfascia	-12.1942
▁tappe	-12.1942
Agaghita	-12.1942
Angolo	-12.1942
Santificatevi	-12.1942
Sarèzer	-12.1942
ampiezza	-12.1942
antichità	-12.1942
impossess	-12.1942
ittìm	-12.1942
offesa	-12.1942
▁Affrett	-12.1942
▁Alessandro	-12.1942
▁Ammisaddai	-12.1942
▁Aristarco	-12.1942
▁Ariòch	-12.1942
▁Ascalon	-12.1942
▁Baanà	-12.1942
▁Bakbuk	-12.1942
▁Chedorlaomer	-12.1942
▁Chelkìa	-12.1942
▁Egài	-12.1942
▁Elioenài	-12.1942
▁Elnatàn	-12.1942
▁Engàddi	-12.1942
▁Geroboàmo	-12.1942
▁Ghideoni	-12.1942
▁Hammedàta	-12.1942
▁Kedes	-12.1942
▁Kenita	-12.1942
▁Laodicèa	-12.1942
▁Miktam	-12.1942
▁Muzri	-12.1942
▁Nicodèmo	-12.1942
▁Ocran	-12.1942
▁Ooliab	-12.1942
▁Panfili	-12.1942
▁Pedaia	-12.1942
▁Pedasur	-12.1942
▁Potestà	-12.1942
▁Preghiera	-12.1942
▁Recabia	-12.1942
▁Refidim	-12.1942
▁Sedeur	-12.1942
▁Sofonia	-12.1942
▁Surisaddai	-12.1942
▁Tìchico	-12.1942
▁Zattu	-12.1942
▁Zeboim	-12.1942
▁Zocar	-12.1942
▁Zorobabèle	-12.1942
▁accresciut	-12.1942
▁aggressor	-12.1942
▁alleanze	-12.1942
▁angolare	-12.1942
▁appartenga	-12.1942
▁bagliore	-12.1942
▁bersaglio	-12.1942
▁boscaglia	-12.1942
▁branchi	-12.1942
▁brocche	-12.1942
▁bugiarde	-12.1942
▁calcagno	-12.1942
▁caratter	-12.1942
▁carnali	-12.1942
▁cavalleria	-12.1942
▁circonferenza	-12.1942
▁cognato	-12.1942
▁commuove	-12.1942
▁convenuti	-12.1942
▁dappertutto	-12.1942
▁deformità	-12.1942
▁diligentemente	-12.1942
▁elemosine	-12.1942
▁espuls	-12.1942
▁familiari	-12.1942
▁fattezze	-12.1942
▁femore	-12.1942
▁formula	-12.1942
▁frattempo	-12.1942
▁fraudolent	-12.1942
▁frontiere	-12.1942
▁generosità	-12.1942
▁ghirland	-12.1942
▁gioventù	-12.1942
▁imband	-12.1942
▁immerg	-12.1942
▁imminente	-12.1942
▁impaurit	-12.1942
▁impianto	-12.1942
▁impiccato	-12.1942
▁incastonare	-12.1942
▁incendiò	-12.1942
▁incrocia	-12.1942
▁infierir	-12.1942
▁inorgoglito	-12.1942
▁insolente	-12.1942
▁invisibili	-12.1942
▁lastricato	-12.1942
▁lenticchie	-12.1942
▁magnanimità	-12.1942
▁mangerò	-12.1942
▁mercede	-12.1942
▁offra	-12.1942
▁oscuro	-12.1942
▁padiglion	-12.1942
▁palpebre	-12.1942
▁paterna	-12.1942
▁percorsa	-12.1942
▁persecuzioni	-12.1942
▁pranzo	-12.1942
▁predestinat	-12.1942
▁prepotente	-12.1942
▁prescrive	-12.1942
▁prescrivo	-12.1942
▁principat	-12.1942
▁proconsol	-12.1942
▁punge	-12.1942
▁quattordicesim	-12.1942
▁ragazze	-12.1942
▁ragazzi	-12.1942
▁ragguardevol	-12.1942
▁rancore	-12.1942
▁ravviv	-12.1942
▁responsabile	-12.1942
▁reticolati	-12.1942
▁riconciliar	-12.1942
▁riconquist	-12.1942
▁rimproverò	-12.1942
▁ritualmente	-12.1942
▁ruggent	-12.1942
▁satrapi	-12.1942
▁schiaffeggia	-12.1942
▁sciagure	-12.1942
▁scoperta	-12.1942
▁scorpioni	-12.1942
▁sembianze	-12.1942
▁slancia	-12.1942
▁smerald	-12.1942
▁sonnecchia	-12.1942
▁stupend	-12.1942
▁sufficiente	-12.1942
▁sussult	-12.1942
▁terrapieni	-12.1942
▁torpore	-12.1942
▁trasgressioni	-12.1942
▁tripudi	-12.1942
▁zaffìro	-12.1942
▁zolle	-12.1942
▁ònagr	-12.1942
Bezek	-12.1942
anticrist	-12.1942
▁Arpad	-12.1942
▁Beker	-12.1942
▁Conserv	-12.1942
▁Giasone	-12.1942
▁Nimsi	-12.1942
▁Piraton	-12.1942
▁Ramses	-12.1942
▁Rezin	-12.1942
▁anatema	-12.1942
▁corazze	-12.1942
▁costruendo	-12.1942
▁dissimula	-12.1942
▁divezzato	-12.1942
▁elegger	-12.1942
▁fragranza	-12.1942
▁giunco	-12.1942
▁gufo	-12.1942
▁interroghi	-12.1942
▁irromp	-12.1942
▁nardo	-12.1942
▁scassina	-12.1942
▁sovvert	-12.1942
▁spiegher	-12.1942
▁unguenti	-12.1942
Idumeo	-12.1942
Ofel	-12.1942
esecuzione	-12.1942
▁Casum	-12.1942
▁afflizioni	-12.1942
▁conferito	-12.1942
▁fiducios	-12.1942
▁ingrassat	-12.1942
▁propaga	-12.1942
▁retribu	-12.1942
▁spelonc	-12.1942
▁stomaco	-12.1942
▁Elisama	-12.1942
▁Epafr	-12.1942
▁Sennaar	-12.1942
▁gravos	-12.1942
▁ritard	-12.1942
▁confonder	-12.1942
emissione	-12.1942
spiacque	-12.1942
▁Argob	-12.1942
▁Deuel	-12.1942
▁elargi	-12.1942
▁monito	-12.1942
▁sotterraneo	-12.1942
▁sottomessa	-12.1942
▁spettacolo	-12.1942
▁stagioni	-12.1942
ingiuria	-12.1942
▁Guid	-12.1942
▁Tarso	-12.1942
▁sospiri	-12.1942
▁Beeròt	-12.1942
▁affannate	-12.1942
▁buca	-12.1942
▁commosse	-12.1942
▁pellicano	-12.1942
▁ostacol	-12.1942
▁giacinto	-12.1942
▁frug	-12.1942
▁riarsa	-12.1942
▁Serug	-12.1942
▁Suchita	-12.1942
▁abbattuta	-12.1942
intelletto	-12.1942
▁abbattute	-12.1942
▁frodi	-12.1942
▁vanterò	-12.1942
▁Purific	-12.1942
▁mulo	-12.1942
▁accerta	-12.1942
]	-12.7775
(	-13.2706
1	-13.276
j	-13.2775
J	-14.2762
9	-14.2763
0	-14.2764
8	-14.2765
7	-14.2766
5	-14.2767
4	-14.2768
3	-14.2769
2	-14.277
6	-14.2771
K	-14.2772
H	-14.2773
Q	-14.2774
}	-14.2775
«	-14.2775
