<pad>	0
</s>	0
<unk>	0
▁the	-2.83562
,	-3.12281
.	-3.39152
▁of	-3.49545
▁to	-3.59128
▁and	-3.68698
▁in	-3.95491
▁a	-4.25287
▁that	-4.27493
▁is	-4.28792
s	-4.32376
▁for	-4.60851
▁I	-4.66432
▁on	-4.80247
▁this	-4.90353
▁we	-4.95073
▁be	-4.96516
▁are	-5.0765
▁European	-5.15135
▁have	-5.16601
▁it	-5.19913
▁not	-5.23156
▁with	-5.25624
▁as	-5.27049
▁	-5.28426
▁The	-5.38867
▁which	-5.42913
▁will	-5.42949
-	-5.44715
'	-5.48455
▁by	-5.48725
▁has	-5.64208
▁-	-5.65561
ing	-5.75159
▁also	-5.82636
▁an	-5.83904
▁(	-5.87433
▁would	-5.92079
)	-5.92519
▁at	-5.93535
▁all	-5.94368
▁Commission	-5.96142
▁Mr	-5.9626
▁from	-5.97546
▁President	-6.00159
▁should	-6.01362
▁We	-6.01578
▁our	-6.02399
▁EU	-6.02738
▁must	-6.05474
▁Member	-6.10283
▁but	-6.11103
ed	-6.1142
▁Union	-6.12559
▁been	-6.20697
▁States	-6.22458
▁Parliament	-6.23192
▁It	-6.23383
▁you	-6.2546
▁more	-6.26227
▁their	-6.2752
▁can	-6.28227
▁report	-6.30092
▁was	-6.34349
▁Europe	-6.34481
▁or	-6.35883
▁like	-6.36039
▁its	-6.37475
▁This	-6.37858
▁very	-6.38667
▁do	-6.41933
▁In	-6.43624
▁need	-6.43719
▁there	-6.47474
▁these	-6.47489
▁important	-6.51529
▁countries	-6.52617
▁they	-6.53896
d	-6.54149
▁Council	-6.55775
▁who	-6.5609
▁one	-6.56258
:	-6.56772
ly	-6.58037
▁about	-6.61417
▁so	-6.61471
▁people	-6.61539
▁new	-6.63598
▁other	-6.64645
▁us	-6.66735
▁support	-6.69392
▁my	-6.70407
▁because	-6.70533
▁time	-6.72299
▁policy	-6.72996
▁only	-6.74313
▁what	-6.75661
▁rights	-6.81941
▁am	-6.82213
e	-6.82385
▁economic	-6.85038
▁such	-6.87424
▁out	-6.87822
▁between	-6.88531
▁work	-6.90133
▁up	-6.90164
▁no	-6.92029
▁into	-6.92113
▁if	-6.93793
?	-6.94804
▁now	-6.95177
▁make	-6.95326
▁take	-6.96677
▁those	-7.01255
▁'	-7.03646
▁believe	-7.04028
▁therefore	-7.04164
▁when	-7.04266
▁financial	-7.04457
▁market	-7.04739
▁citizens	-7.04764
▁against	-7.08914
▁some	-7.09669
▁energy	-7.10249
▁being	-7.11448
▁them	-7.11943
▁political	-7.12384
;	-7.13229
▁social	-7.13457
▁many	-7.14877
▁crisis	-7.16168
▁think	-7.16254
▁were	-7.16908
▁well	-7.17745
▁However	-7.17822
▁than	-7.17826
▁made	-7.17953
▁development	-7.18935
▁any	-7.18991
▁way	-7.19509
▁order	-7.22387
▁Commissioner	-7.22613
▁human	-7.23184
▁country	-7.23262
▁situation	-7.23518
▁measures	-7.25782
▁fact	-7.26069
▁first	-7.28843
▁issue	-7.29584
▁say	-7.29641
▁future	-7.29731
▁years	-7.30234
▁agreement	-7.31858
▁right	-7.32012
▁debate	-7.32685
▁ensure	-7.32795
▁most	-7.34004
▁proposal	-7.34218
in	-7.34413
▁today	-7.349
▁just	-7.35058
▁same	-7.35944
▁want	-7.36065
▁level	-7.36793
er	-7.36808
▁use	-7.36828
y	-7.36839
▁good	-7.36848
▁national	-7.37817
▁public	-7.38723
▁here	-7.38758
▁Madam	-7.39289
▁see	-7.40103
▁A	-7.40212
▁As	-7.4033
▁where	-7.40432
▁even	-7.40784
▁possible	-7.41058
▁under	-7.41259
▁area	-7.41278
▁cannot	-7.41571
▁That	-7.42331
n	-7.42857
t	-7.43554
▁over	-7.43705
▁me	-7.43913
▁world	-7.44134
▁clear	-7.44178
▁question	-7.44765
▁system	-7.4483
▁could	-7.45086
▁cooperation	-7.45235
al	-7.45296
▁two	-7.45507
▁particular	-7.46283
▁part	-7.46333
▁much	-7.46582
▁does	-7.46775
▁vote	-7.47297
▁point	-7.47589
▁international	-7.47598
▁how	-7.48087
▁common	-7.48293
▁year	-7.48457
▁know	-7.50133
▁already	-7.50664
▁protection	-7.50983
▁said	-7.51896
▁voted	-7.51976
▁both	-7.52
▁S	-7.52119
▁had	-7.52237
c	-7.52449
▁favour	-7.5398
▁within	-7.54039
▁still	-7.54122
▁Treaty	-7.54715
▁resolution	-7.55079
▁through	-7.56133
▁There	-7.56855
▁change	-7.56961
▁your	-7.57523
▁security	-7.57968
▁writing	-7.59647
▁Committee	-7.59809
▁course	-7.6045
▁hope	-7.60699
es	-7.60753
▁why	-7.61668
▁too	-7.62076
▁case	-7.6303
▁place	-7.63355
▁able	-7.6358
▁budget	-7.63686
▁information	-7.63798
m	-7.63825
▁own	-7.63839
▁sector	-7.64028
▁law	-7.64058
▁gentlemen	-7.64563
▁put	-7.64873
▁process	-7.65176
▁Group	-7.668
▁women	-7.66963
▁role	-7.67044
▁end	-7.67189
▁trade	-7.67486
▁particularly	-7.67646
▁rapporteur	-7.68375
▁respect	-7.6852
▁example	-7.69484
▁view	-7.6996
▁help	-7.69972
▁necessary	-7.70127
▁action	-7.70346
▁last	-7.71288
▁problem	-7.72014
▁without	-7.72153
▁thank	-7.72231
▁long	-7.72432
▁number	-7.72701
▁issues	-7.7405
r	-7.7406
▁taken	-7.74132
▁means	-7.75327
▁Lisbon	-7.75329
▁climate	-7.75791
▁problems	-7.76315
▁areas	-7.77372
▁needs	-7.78171
▁Mrs	-7.78456
▁legal	-7.78513
▁better	-7.79044
▁regard	-7.7908
▁strategy	-7.79979
▁behalf	-7.80164
▁agree	-7.80621
▁may	-7.80901
▁his	-7.81151
▁he	-7.81982
p	-7.82649
▁If	-7.84229
▁health	-7.84904
▁ladies	-7.84959
▁rules	-7.85041
▁current	-7.85272
▁give	-7.85603
▁For	-7.86618
▁framework	-7.86827
▁re	-7.87199
b	-7.87226
▁however	-7.87261
▁legislation	-7.87853
▁global	-7.87882
▁welcome	-7.87998
▁institutions	-7.88126
▁including	-7.88486
▁set	-7.89198
▁terms	-7.89403
▁again	-7.89678
▁next	-7.89733
▁continue	-7.89895
u	-7.90261
▁directive	-7.90777
▁given	-7.90822
▁services	-7.91354
▁come	-7.91714
▁then	-7.91927
▁increase	-7.9227
▁provide	-7.9233
▁approach	-7.92629
▁access	-7.92701
▁whether	-7.92831
▁further	-7.92982
▁before	-7.93012
▁great	-7.93109
▁result	-7.93255
▁since	-7.93556
▁economy	-7.93906
▁decision	-7.94205
▁different	-7.94424
▁adopted	-7.94824
▁food	-7.9618
▁matter	-7.9661
▁far	-7.96995
▁Presidency	-7.97059
▁resources	-7.97642
▁transport	-7.98162
▁products	-7.98683
▁regulation	-7.98771
▁progress	-7.99213
▁position	-7.99507
▁authorities	-8.00171
▁State	-8.00245
▁policies	-8.00331
▁after	-8.00559
▁effective	-8.00966
▁especially	-8.01064
▁conditions	-8.01579
▁certain	-8.01986
▁towards	-8.02024
▁basis	-8.02713
▁opportunity	-8.02962
▁Members	-8.03056
▁fundamental	-8.03426
▁importance	-8.03851
▁done	-8.04008
▁forward	-8.04103
▁high	-8.04404
▁opinion	-8.04886
DE	-8.0532
▁What	-8.05476
▁working	-8.05743
▁during	-8.05751
▁proposals	-8.05752
▁going	-8.05763
a	-8.06091
▁de	-8.06263
l	-8.07083
▁aid	-8.07334
▁Community	-8.07348
▁freedom	-8.0748
▁million	-8.07639
▁third	-8.07647
se	-8.07782
▁United	-8.08165
▁implementation	-8.08401
▁EUR	-8.08628
▁used	-8.08973
▁together	-8.09254
▁safety	-8.0938
▁workers	-8.09546
▁negotiations	-8.09628
or	-8.09651
it	-8.10247
▁specific	-8.10275
▁greater	-8.10416
▁three	-8.10521
▁ask	-8.10852
▁state	-8.10931
▁region	-8.10958
▁present	-8.11094
▁small	-8.11126
▁find	-8.11361
g	-8.11395
▁essential	-8.1216
▁call	-8.12355
▁account	-8.12467
ation	-8.12856
▁impact	-8.13199
▁real	-8.13236
▁every	-8.13491
▁funds	-8.13719
▁based	-8.14659
▁House	-8.14836
▁growth	-8.14876
▁really	-8.15138
▁wish	-8.15331
▁attention	-8.15456
▁go	-8.15614
▁subject	-8.15748
▁On	-8.15779
▁efforts	-8.15907
▁few	-8.15963
▁industry	-8.16005
re	-8.1602
▁children	-8.16119
ers	-8.16364
▁bring	-8.16649
▁achieve	-8.17078
▁major	-8.17397
▁serious	-8.17442
▁data	-8.17805
▁responsibility	-8.1785
▁At	-8.17883
▁C	-8.17907
▁whole	-8.17976
▁research	-8.18086
▁become	-8.18251
▁democracy	-8.1862
▁did	-8.18708
en	-8.19083
ar	-8.19339
▁while	-8.19364
ion	-8.19587
▁internal	-8.19758
▁environmental	-8.19989
▁reason	-8.20227
i	-8.20352
▁clearly	-8.20407
▁principle	-8.2051
o	-8.2122
▁making	-8.21923
▁society	-8.22393
▁These	-8.22684
▁standards	-8.22828
▁back	-8.22919
▁un	-8.22965
▁free	-8.22986
▁another	-8.23018
▁difficult	-8.23148
▁p	-8.23472
▁step	-8.24378
▁allow	-8.24806
▁consumers	-8.24829
▁get	-8.24948
▁positive	-8.24996
▁interests	-8.25284
▁They	-8.25509
▁look	-8.25776
th	-8.26283
▁down	-8.26391
▁taking	-8.26495
▁power	-8.26736
▁regions	-8.26767
▁something	-8.26862
▁programme	-8.26928
st	-8.26945
▁money	-8.27137
▁hand	-8.27649
▁least	-8.2769
▁proposed	-8.278
▁education	-8.2813
ic	-8.28212
▁agricultural	-8.28375
▁general	-8.28538
on	-8.28629
▁improve	-8.28918
ou	-8.28965
▁democratic	-8.2901
▁group	-8.29113
▁always	-8.29303
▁G	-8.29463
▁force	-8.29546
▁Russia	-8.29736
▁large	-8.29769
▁second	-8.29912
▁employment	-8.30414
▁companies	-8.30788
h	-8.32001
▁once	-8.32062
▁quality	-8.32127
▁key	-8.32542
▁euro	-8.32623
▁fully	-8.32966
▁recent	-8.33078
▁production	-8.3325
▁jobs	-8.33348
▁consider	-8.33533
▁concerned	-8.33611
▁life	-8.33779
▁environment	-8.33805
▁various	-8.34031
▁each	-8.34055
▁full	-8.3415
▁agreements	-8.34239
ra	-8.34271
ri	-8.34841
2	-8.35103
▁objectives	-8.35217
▁Therefore	-8.3522
▁itself	-8.35243
▁deal	-8.35302
ur	-8.35467
▁solution	-8.35736
▁best	-8.3586
▁risk	-8.35872
able	-8.36456
▁To	-8.37211
▁things	-8.37215
▁fight	-8.37234
▁create	-8.37539
▁main	-8.37565
▁sustainable	-8.37737
▁less	-8.38069
▁concerns	-8.38435
et	-8.38575
▁developing	-8.3879
▁government	-8.3889
▁context	-8.39017
▁amendments	-8.39251
ity	-8.39431
▁relations	-8.39693
le	-8.39817
▁yet	-8.4005
▁words	-8.40396
▁groups	-8.40911
▁Government	-8.41022
▁package	-8.41779
▁often	-8.42109
▁significant	-8.42405
▁single	-8.42718
▁strong	-8.4272
▁regional	-8.4273
▁having	-8.42865
▁Directive	-8.4289
▁control	-8.43076
▁initiative	-8.43132
▁dialogue	-8.43213
ro	-8.43653
▁currently	-8.43684
▁solidarity	-8.43738
▁among	-8.44088
▁period	-8.44122
▁rather	-8.44568
▁systems	-8.45233
ive	-8.45416
▁E	-8.45638
▁results	-8.45904
▁involved	-8.46359
k	-8.4636
▁following	-8.46485
▁management	-8.46503
▁markets	-8.46718
▁non	-8.46773
▁actually	-8.47053
▁tax	-8.47253
▁start	-8.47625
▁local	-8.48089
▁With	-8.48168
▁states	-8.485
▁interest	-8.48522
▁text	-8.4854
▁young	-8.48598
▁pay	-8.48644
▁competition	-8.49274
▁So	-8.49417
▁labour	-8.49592
▁plan	-8.49634
ment	-8.49899
▁poverty	-8.50178
▁transparency	-8.50204
▁objective	-8.50506
▁funding	-8.50608
▁Fund	-8.50701
▁challenges	-8.50792
▁legislative	-8.50902
▁majority	-8.51014
▁procedure	-8.51047
▁Let	-8.51281
▁reform	-8.51681
▁ago	-8.5169
▁Court	-8.51821
▁costs	-8.51878
▁available	-8.52038
▁mentioned	-8.52088
C	-8.52165
▁cohesion	-8.52174
▁form	-8.52178
▁her	-8.52362
▁extremely	-8.52474
▁commitment	-8.52703
at	-8.52767
il	-8.52881
ch	-8.52966
an	-8.53366
▁points	-8.53558
▁act	-8.53893
▁concerning	-8.5401
term	-8.54131
▁protect	-8.54203
▁needed	-8.54399
▁understand	-8.54457
▁let	-8.54571
▁open	-8.54642
est	-8.54914
▁projects	-8.54995
▁promote	-8.55437
▁aim	-8.55556
▁responsible	-8.55696
▁principles	-8.5578
▁emissions	-8.55838
▁simply	-8.55951
▁programmes	-8.56003
▁investment	-8.56038
▁lack	-8.56233
▁f	-8.56306
▁cases	-8.56719
▁priority	-8.56894
▁assistance	-8.56949
▁quit	-8.57104
▁response	-8.57629
▁2020	-8.57642
▁appropriate	-8.57699
▁compromise	-8.57718
▁activities	-8.57952
▁reduce	-8.57982
ent	-8.58228
▁individual	-8.58355
▁China	-8.58373
f	-8.58474
▁guarantee	-8.58514
▁nuclear	-8.58569
▁prevent	-8.58585
▁project	-8.58616
▁months	-8.58679
▁benefit	-8.58778
▁regarding	-8.58941
▁F	-8.59141
▁due	-8.59143
▁billion	-8.5927
▁concern	-8.59735
▁decisions	-8.60163
▁Finally	-8.6023
FR	-8.60597
▁instruments	-8.60604
▁several	-8.61001
▁aware	-8.61047
▁business	-8.61297
▁1	-8.62133
▁population	-8.6216
▁civil	-8.62815
▁thing	-8.636
▁innovation	-8.63655
▁fellow	-8.63839
▁shall	-8.63841
▁values	-8.64106
▁meeting	-8.64169
el	-8.64269
▁certainly	-8.64371
▁integration	-8.64576
PL	-8.65322
▁provided	-8.66273
▁addition	-8.66378
▁play	-8.66471
▁true	-8.6657
▁parties	-8.66714
▁achieved	-8.66932
▁questions	-8.67118
S	-8.67211
▁include	-8.67272
▁US	-8.67279
▁remain	-8.67453
▁pleased	-8.67528
▁move	-8.67696
▁day	-8.67724
▁enough	-8.6787
▁increasing	-8.6814
▁consumer	-8.6829
▁farmers	-8.68512
▁But	-8.68526
▁amendment	-8.68713
▁Affairs	-8.68734
▁foreign	-8.68734
▁2009	-8.68797
▁creation	-8.69023
▁potential	-8.69436
▁Turkey	-8.69485
▁short	-8.69705
▁review	-8.69711
▁prices	-8.69851
▁face	-8.69885
▁themselves	-8.69931
▁doing	-8.69994
▁crucial	-8.70289
A	-8.70329
▁violence	-8.70485
▁indeed	-8.70521
▁joint	-8.70736
▁final	-8.70906
▁increased	-8.71556
▁stability	-8.71675
▁consequences	-8.71885
ul	-8.72342
I	-8.7235
▁develop	-8.72374
▁sure	-8.72404
▁000	-8.72436
▁speak	-8.72596
▁congratulate	-8.72602
la	-8.7274
▁existing	-8.72776
▁Rights	-8.7297
▁meet	-8.72973
8	-8.73221
▁rule	-8.73347
▁actions	-8.73543
ting	-8.73588
▁efficiency	-8.73658
▁idea	-8.73689
as	-8.73837
▁reasons	-8.7395
▁instrument	-8.74029
▁matters	-8.74345
▁field	-8.74599
▁cross	-8.74662
lo	-8.74684
li	-8.74961
z	-8.74996
▁Thank	-8.75004
▁feel	-8.75034
▁lead	-8.75039
▁relation	-8.75234
▁members	-8.7524
▁success	-8.75321
▁medium	-8.75451
▁above	-8.75498
▁contribution	-8.75659
▁kind	-8.75698
▁changes	-8.75734
▁requirements	-8.75939
▁past	-8.75939
▁10	-8.75967
▁times	-8.76052
▁excellent	-8.7621
▁Republic	-8.76245
▁P	-8.76416
▁value	-8.76458
▁mention	-8.76553
1	-8.76688
▁focus	-8.76701
▁gas	-8.76778
▁seen	-8.76832
▁longer	-8.76908
▁Minutes	-8.77045
▁regards	-8.77276
▁strengthen	-8.77567
▁elections	-8.77789
▁governments	-8.78059
▁term	-8.78096
▁others	-8.78176
▁comes	-8.782
▁opportunities	-8.78524
▁application	-8.78602
▁off	-8.78822
▁encourage	-8.78929
▁No	-8.79208
7	-8.79292
▁equal	-8.79361
▁express	-8.79446
▁De	-8.79631
▁everyone	-8.79751
▁voting	-8.79809
▁One	-8.79897
▁procedures	-8.79938
▁external	-8.80061
▁Minister	-8.8016
▁draw	-8.80299
▁mind	-8.8033
▁adopt	-8.80352
▁ensuring	-8.80385
▁aspects	-8.80414
▁line	-8.80878
▁show	-8.80881
▁Article	-8.80981
▁special	-8.8107
▁illegal	-8.81192
▁priorities	-8.81368
no	-8.81605
▁moment	-8.81662
▁agreed	-8.81722
▁Ireland	-8.82098
ies	-8.82293
ce	-8.82308
▁criteria	-8.82356
▁provisions	-8.82419
▁apply	-8.82593
▁across	-8.82651
▁governance	-8.82726
▁businesses	-8.82751
▁job	-8.82805
▁victims	-8.82966
▁regulations	-8.83017
▁might	-8.83135
▁stress	-8.83197
▁enterprises	-8.83419
▁Our	-8.83445
▁My	-8.83455
▁around	-8.83478
▁M	-8.83823
▁mean	-8.8384
ut	-8.84031
▁draft	-8.84054
▁soon	-8.84085
▁agenda	-8.84328
▁technical	-8.84328
▁address	-8.84532
▁share	-8.84769
ne	-8.84819
ary	-8.84827
▁road	-8.84904
▁balance	-8.8494
te	-8.8499
▁discussion	-8.85042
▁close	-8.851
▁using	-8.85276
▁practice	-8.85407
▁adoption	-8.85427
▁little	-8.85538
▁implement	-8.8608
▁living	-8.86226
▁cost	-8.86533
▁organisations	-8.87128
▁strategic	-8.87149
▁peace	-8.87321
▁vital	-8.87554
▁private	-8.87605
ism	-8.8765
▁Development	-8.87654
▁relating	-8.87731
▁competitiveness	-8.8774
P	-8.87821
▁supported	-8.87889
▁partners	-8.88067
▁keep	-8.88077
▁required	-8.88153
▁natural	-8.88295
D	-8.88303
▁reduction	-8.8862
▁colleagues	-8.88784
▁additional	-8.88873
IT	-8.88884
▁carried	-8.88944
▁co	-8.88988
▁perhaps	-8.8922
ol	-8.89238
us	-8.89376
ate	-8.89386
▁answer	-8.89594
▁care	-8.89684
▁4	-8.89713
▁enable	-8.89724
▁Agreement	-8.89774
▁thus	-8.89893
6	-8.90045
▁agriculture	-8.90092
▁supply	-8.90092
▁nothing	-8.90175
▁19	-8.90359
▁talking	-8.9038
▁sitting	-8.90533
▁pressure	-8.90574
▁solutions	-8.90635
un	-8.90705
▁basic	-8.90762
▁Africa	-8.90988
▁5	-8.91203
▁week	-8.9141
▁borders	-8.91434
▁accept	-8.91571
▁effect	-8.91907
▁throughout	-8.92066
▁cultural	-8.92144
▁B	-8.92157
▁Roma	-8.92167
▁fair	-8.92381
▁20	-8.9249
▁establish	-8.9255
ness	-8.92576
▁quickly	-8.92621
▁tomorrow	-8.92714
▁When	-8.93124
am	-8.93309
▁request	-8.93366
▁training	-8.93385
ter	-8.93752
▁live	-8.93765
▁All	-8.93824
▁initiatives	-8.93973
▁committee	-8.94048
▁T	-8.94176
▁makes	-8.9421
ia	-8.94555
▁Secondly	-8.94809
▁UN	-8.9499
▁although	-8.9503
▁Greece	-8.95071
▁contribute	-8.9509
▁financing	-8.95232
▁though	-8.95294
▁media	-8.95401
▁absolutely	-8.95402
w	-8.95411
▁community	-8.95449
▁waste	-8.95506
▁discrimination	-8.95596
▁service	-8.95672
▁accession	-8.95698
▁huge	-8.9587
▁coming	-8.95871
▁demand	-8.96054
▁water	-8.96347
▁monitoring	-8.96534
▁dis	-8.96568
▁treatment	-8.9657
▁immigration	-8.96674
▁never	-8.96676
▁International	-8.96717
▁until	-8.96802
4	-8.96834
▁direction	-8.97021
▁expect	-8.97028
▁everything	-8.97186
▁reach	-8.97259
▁namely	-8.97277
▁implemented	-8.97347
▁ambitious	-8.974
▁saying	-8.97421
▁price	-8.97548
5	-8.97564
▁reports	-8.97651
▁effects	-8.98015
▁ever	-8.981
▁affected	-8.98149
ist	-8.98194
ta	-8.9835
▁coordination	-8.98563
▁creating	-8.98737
▁fishing	-8.9889
▁aimed	-8.98905
▁levels	-8.99119
▁hard	-8.99298
▁talk	-8.99515
▁found	-8.99683
▁military	-8.9974
to	-8.99742
▁she	-8.99855
▁seems	-8.99973
▁con	-9.00051
ant	-9.00058
▁communication	-9.00151
▁conflict	-9.00249
▁powers	-9.00309
▁document	-9.00326
▁reached	-9.00362
▁humanitarian	-9.00533
▁providing	-9.00533
▁avoid	-9.00616
▁assessment	-9.0074
▁sense	-9.0102
▁leave	-9.01198
▁asked	-9.01299
up	-9.01433
▁lot	-9.01603
sized	-9.01916
▁Regulation	-9.01957
9	-9.02004
▁goods	-9.02031
▁outside	-9.02041
▁terrorism	-9.02052
ated	-9.02126
▁d	-9.0234
▁W	-9.02458
▁partnership	-9.02638
▁held	-9.02685
▁list	-9.02716
▁ourselves	-9.02722
▁improving	-9.02722
▁direct	-9.02764
▁combat	-9.02813
▁per	-9.02955
▁challenge	-9.02997
▁thanks	-9.03022
▁12	-9.03028
▁R	-9.03082
▁item	-9.03128
▁effort	-9.03319
ir	-9.03525
▁mechanism	-9.03596
PT	-9.03849
im	-9.03945
▁credit	-9.04086
▁closed	-9.04168
po	-9.04215
3	-9.04498
▁amount	-9.0462
▁movement	-9.04653
▁summit	-9.0473
▁previous	-9.04823
▁included	-9.04846
▁relevant	-9.04915
ge	-9.0505
ve	-9.05068
▁called	-9.0522
▁light	-9.05322
▁D	-9.05341
▁offer	-9.05345
RO	-9.05389
▁experience	-9.05463
▁promoting	-9.0547
▁measure	-9.05508
▁men	-9.05584
▁2007	-9.05628
▁French	-9.05656
▁recently	-9.05662
The	-9.05805
▁st	-9.05878
▁effectively	-9.06096
ag	-9.06503
▁efficient	-9.06589
▁five	-9.06814
▁car	-9.06877
▁independent	-9.07119
▁December	-9.07156
out	-9.07181
▁sectors	-9.07282
▁justice	-9.07417
▁Of	-9.07457
▁war	-9.07486
▁culture	-9.07508
▁possibility	-9.07582
ES	-9.07746
▁budgetary	-9.0788
border	-9.07882
▁four	-9.07906
▁e	-9.07939
▁nature	-9.07963
▁stop	-9.07964
▁capital	-9.08133
▁Democrats	-9.08201
M	-9.08294
▁lives	-9.08327
▁Today	-9.08445
▁reality	-9.0845
▁completely	-9.08593
▁South	-9.08646
▁b	-9.08713
▁visa	-9.08812
▁along	-9.08915
▁almost	-9.09
▁send	-9.09054
▁3	-9.09298
▁message	-9.09498
▁fisheries	-9.09546
▁infrastructure	-9.09596
▁air	-9.09669
ise	-9.09698
▁g	-9.09781
▁return	-9.10157
▁personal	-9.10176
▁benefits	-9.10468
▁try	-9.10471
▁tell	-9.1065
▁him	-9.10714
▁family	-9.10811
▁active	-9.1102
▁agencies	-9.11106
▁presented	-9.11114
▁decided	-9.1113
▁low	-9.11154
▁Strategy	-9.11204
▁model	-9.11226
▁regime	-9.11325
▁strengthening	-9.11352
▁Romania	-9.11571
▁And	-9.11678
▁motion	-9.11931
▁receive	-9.11999
▁established	-9.12063
▁applied	-9.12093
▁conclusion	-9.12274
▁reducing	-9.12292
▁administrative	-9.12391
▁reforms	-9.12454
Office	-9.12481
▁comprehensive	-9.12491
▁received	-9.12535
▁statement	-9.12582
▁remains	-9.12601
▁developed	-9.12618
▁left	-9.1264
▁Ukraine	-9.12661
▁doubt	-9.12681
ance	-9.12687
▁targets	-9.12733
▁turn	-9.12771
▁c	-9.12863
▁rate	-9.12906
less	-9.1313
▁remind	-9.13272
▁Bank	-9.13291
▁6	-9.13369
▁9	-9.13376
▁task	-9.1339
▁K	-9.13548
▁heard	-9.13564
▁Internet	-9.13643
▁six	-9.13694
▁combating	-9.13946
▁committed	-9.13948
▁crime	-9.14567
▁Now	-9.14577
▁provides	-9.14616
isation	-9.14632
▁prepared	-9.1464
▁Czech	-9.14809
▁supporting	-9.1481
ti	-9.14843
▁technology	-9.1486
▁either	-9.14863
▁follow	-9.15009
▁Convention	-9.15013
▁stage	-9.15047
▁brought	-9.15115
▁finally	-9.15535
▁implementing	-9.15539
▁calls	-9.15547
▁8	-9.15671
▁statements	-9.15913
▁capacity	-9.15962
▁add	-9.16017
▁home	-9.16033
▁proper	-9.1606
ad	-9.16115
▁respond	-9.16175
▁border	-9.16258
▁Firstly	-9.16261
▁events	-9.16302
▁equality	-9.16386
▁knowledge	-9.16402
▁self	-9.16817
▁fund	-9.16959
▁death	-9.16969
▁origin	-9.17123
▁rise	-9.17131
▁criminal	-9.17182
vi	-9.17204
▁facing	-9.17234
▁days	-9.17399
▁shown	-9.17477
▁discuss	-9.17554
▁Furthermore	-9.17653
▁renewable	-9.17708
▁exchange	-9.17734
▁giving	-9.1781
▁successful	-9.17894
▁Hungarian	-9.17916
▁unacceptable	-9.17968
▁2008	-9.18007
▁steps	-9.18041
ig	-9.18041
is	-9.1806
▁behind	-9.18179
EC	-9.18269
▁cause	-9.18365
▁unemployment	-9.18604
▁side	-9.18733
▁2	-9.18897
▁entire	-9.19039
▁oil	-9.19145
▁parliamentary	-9.19163
▁raised	-9.19191
▁rural	-9.19241
▁cut	-9.19371
pe	-9.1945
▁tabled	-9.195
▁emphasise	-9.1968
▁requires	-9.19736
age	-9.20207
▁created	-9.20314
▁expressed	-9.2048
▁concrete	-9.20634
▁Unfortunately	-9.20851
▁27	-9.20951
▁technologies	-9.20959
▁North	-9.20964
▁minimum	-9.21013
▁limit	-9.21245
▁representatives	-9.21273
▁conclude	-9.21359
▁anti	-9.21365
▁represents	-9.21432
▁poor	-9.2153
▁took	-9.21674
▁7	-9.21907
▁produce	-9.21964
▁maintain	-9.22061
▁remember	-9.22106
▁similar	-9.22324
▁introduction	-9.22434
ised	-9.22437
▁introduce	-9.22491
▁caused	-9.22638
▁Barroso	-9.22654
▁stand	-9.22692
▁economies	-9.22764
▁represent	-9.22822
om	-9.22863
▁Re	-9.22897
▁upon	-9.22966
ors	-9.23118
▁debt	-9.23319
▁asylum	-9.23373
▁sources	-9.23682
▁banks	-9.2374
▁pre	-9.23834
T	-9.23868
▁scope	-9.23986
▁competitive	-9.24071
▁met	-9.241
▁recovery	-9.2417
▁activity	-9.24214
▁hold	-9.24312
▁France	-9.24324
▁discussions	-9.24362
▁Social	-9.24417
▁away	-9.24452
▁He	-9.24457
▁Economic	-9.2449
▁Party	-9.24498
▁content	-9.24603
▁confidence	-9.24715
Applause	-9.24772
▁closely	-9.24807
▁damage	-9.24828
▁Mediterranean	-9.25133
▁producers	-9.25201
▁difficulties	-9.25207
de	-9.25247
▁June	-9.2528
▁speech	-9.25342
▁higher	-9.25376
▁extent	-9.2545
▁mobility	-9.2562
▁H	-9.25699
id	-9.25729
▁transparent	-9.2609
▁colleague	-9.26135
▁rapporteurs	-9.26172
20	-9.26217
▁negative	-9.26247
▁trying	-9.26275
▁begin	-9.263
▁commitments	-9.26406
▁Italy	-9.26422
▁instead	-9.26476
▁influence	-9.2659
▁decide	-9.26619
▁beyond	-9.26648
ci	-9.26796
ating	-9.26876
▁achieving	-9.27166
▁provision	-9.27199
▁scientific	-9.27223
▁according	-9.27238
0	-9.27274
▁rest	-9.2732
tion	-9.27335
▁Human	-9.27337
▁unfortunately	-9.27428
▁Schengen	-9.27512
▁industrial	-9.27596
▁ban	-9.27681
▁circumstances	-9.27722
▁aims	-9.27734
▁O	-9.27753
▁land	-9.27756
▁despite	-9.27773
▁SMEs	-9.27892
E	-9.27947
▁Nations	-9.2798
▁Sea	-9.27989
▁product	-9.2802
▁voice	-9.28151
▁Vice	-9.28276
▁mechanisms	-9.28311
▁Central	-9.28326
▁age	-9.28332
▁perspective	-9.28443
▁total	-9.28456
▁old	-9.28481
▁May	-9.28554
▁carry	-9.28604
▁precisely	-9.28609
NL	-9.28785
▁V	-9.28859
x	-9.28925
▁discussed	-9.28982
ver	-9.28984
▁mandate	-9.29147
▁establishing	-9.29191
ty	-9.29561
▁Germany	-9.29613
▁defence	-9.29618
▁People	-9.29618
▁Agency	-9.29677
▁increasingly	-9.29932
President	-9.2994
▁Amendment	-9.29974
mo	-9.30268
ally	-9.30349
▁Irish	-9.3045
▁CO	-9.30488
▁duty	-9.30509
▁connection	-9.30509
▁plans	-9.30644
F	-9.30698
▁history	-9.30752
▁Moreover	-9.3081
▁practices	-9.30895
▁target	-9.31016
▁weeks	-9.31017
▁beginning	-9.31052
▁11	-9.31108
▁Justice	-9.31169
▁opposition	-9.31227
▁shows	-9.3147
European	-9.31508
▁accordance	-9.3159
▁First	-9.31632
▁burden	-9.3168
▁happen	-9.31768
▁paid	-9.31828
▁wrong	-9.31951
▁status	-9.32011
ial	-9.32038
▁half	-9.32072
▁reference	-9.32138
▁exist	-9.32246
▁considered	-9.32419
▁purpose	-9.32465
R	-9.32555
ll	-9.32614
▁note	-9.32647
▁calling	-9.32697
▁strongly	-9.32713
em	-9.32774
▁Poland	-9.32866
▁trust	-9.32924
▁Iran	-9.32935
▁properly	-9.32965
ha	-9.33056
▁integrated	-9.33266
v	-9.33345
▁recommendations	-9.33472
▁recognise	-9.335
▁participation	-9.33537
▁early	-9.33537
▁Belarus	-9.33591
▁date	-9.33724
▁annual	-9.33807
▁allowed	-9.3382
▁wanted	-9.33889
▁urge	-9.33942
▁Ladies	-9.33968
▁highly	-9.34224
▁forces	-9.34313
▁balanced	-9.34321
▁improved	-9.34626
▁migration	-9.34836
▁World	-9.34899
▁complete	-9.34929
me	-9.35054
▁2010	-9.3529
▁inter	-9.35361
▁threat	-9.35377
ma	-9.35418
▁Copenhagen	-9.35461
▁overall	-9.3551
▁directly	-9.35527
▁sufficient	-9.35637
▁disaster	-9.35658
▁independence	-9.35901
spite	-9.35999
▁Market	-9.36027
ot	-9.36043
▁bodies	-9.3609
▁15	-9.36118
▁Action	-9.36361
▁specifically	-9.36375
▁urgent	-9.364
▁travel	-9.3646
ising	-9.36472
▁post	-9.36476
▁sanctions	-9.36559
▁intervention	-9.36596
▁child	-9.36721
▁highlight	-9.36799
▁An	-9.36856
▁looking	-9.36907
▁takes	-9.36999
▁bilateral	-9.37232
▁correct	-9.37256
▁MEPs	-9.37267
▁concept	-9.37295
▁paragraph	-9.37381
▁conclusions	-9.37573
▁reading	-9.37631
▁risks	-9.37646
▁How	-9.37714
▁approved	-9.37742
▁nor	-9.37784
ill	-9.37853
▁Although	-9.37936
co	-9.38064
▁discussing	-9.38131
▁growing	-9.38184
▁signal	-9.3819
ous	-9.38362
▁dimension	-9.38387
ling	-9.38396
▁manner	-9.38584
▁discharge	-9.38645
▁useful	-9.38757
▁setting	-9.38782
▁dealing	-9.38823
▁central	-9.3883
ence	-9.39035
▁intended	-9.39065
▁name	-9.3909
▁secure	-9.39099
▁require	-9.39137
▁tackle	-9.39216
go	-9.39281
▁forms	-9.39296
▁March	-9.39308
▁seriously	-9.39499
op	-9.39619
▁alternative	-9.39753
▁building	-9.39807
na	-9.39927
▁gender	-9.39948
▁minorities	-9.39949
▁consideration	-9.40037
▁export	-9.40087
▁practical	-9.40204
▁facilitate	-9.40539
▁member	-9.4058
▁Brussels	-9.40605
▁Israel	-9.40732
▁propose	-9.40739
▁African	-9.40869
▁build	-9.41016
▁added	-9.4102
▁ex	-9.41296
um	-9.41339
▁led	-9.41351
▁goes	-9.41381
▁establishment	-9.41398
▁elements	-9.41562
▁chance	-9.41733
▁includes	-9.41819
rs	-9.41842
ac	-9.41984
▁expression	-9.41984
▁outcome	-9.42001
▁alone	-9.42004
called	-9.4208
▁language	-9.42098
ted	-9.4212
▁guidelines	-9.42135
▁Kosovo	-9.42202
▁Trade	-9.42404
▁convinced	-9.42439
▁organisation	-9.42443
▁reduced	-9.42871
▁t	-9.42883
▁referendum	-9.42942
▁obligations	-9.42955
▁leading	-9.42957
▁failure	-9.43081
▁party	-9.4319
▁Programme	-9.43212
▁East	-9.43267
▁families	-9.4328
bo	-9.43303
▁safe	-9.43499
▁regret	-9.4362
▁recognition	-9.43688
fi	-9.43695
▁forget	-9.43878
▁institutional	-9.4403
va	-9.44043
▁raise	-9.44082
▁Ma	-9.44155
▁finance	-9.44268
▁defend	-9.44352
▁adequate	-9.4437
▁appeal	-9.4437
▁vehicles	-9.44569
ts	-9.44688
pa	-9.44724
▁serve	-9.44777
▁structural	-9.44855
▁German	-9.44857
▁rightly	-9.44973
▁differences	-9.45081
led	-9.45087
▁passengers	-9.45104
▁Russian	-9.45172
di	-9.45297
▁commercial	-9.45405
▁January	-9.45473
▁join	-9.45501
▁maritime	-9.45542
▁introduced	-9.45599
▁speaker	-9.45609
▁police	-9.45681
mi	-9.45774
▁L	-9.45824
▁thought	-9.46077
▁Charter	-9.46098
▁stated	-9.46111
▁aspect	-9.46183
▁goal	-9.46468
▁Since	-9.46587
▁limited	-9.4659
▁gives	-9.46599
▁After	-9.46728
▁comments	-9.4677
vo	-9.46777
▁documents	-9.46916
▁vulnerable	-9.46938
▁mutual	-9.46941
▁regulatory	-9.46943
▁instance	-9.4708
▁ground	-9.47181
▁Some	-9.47184
▁heart	-9.47244
▁managed	-9.47274
ry	-9.47294
▁type	-9.47322
▁Prime	-9.47361
▁constructive	-9.47507
▁transfer	-9.47523
▁person	-9.4754
▁hear	-9.47605
▁standard	-9.47773
N	-9.47813
▁study	-9.47856
▁binding	-9.48096
▁High	-9.48179
▁obviously	-9.48256
▁Euro	-9.48285
▁ways	-9.48301
▁known	-9.48435
ities	-9.48574
▁Bulgaria	-9.48595
▁Georgia	-9.48603
▁animal	-9.48617
▁author	-9.48661
▁network	-9.48835
▁becoming	-9.48856
▁protecting	-9.48881
cu	-9.48944
▁related	-9.4903
▁2006	-9.49075
▁18	-9.49076
tra	-9.49104
B	-9.49353
▁consensus	-9.49646
▁linked	-9.49683
▁asking	-9.49696
▁Security	-9.49718
▁Indeed	-9.49719
▁event	-9.49889
▁Croatia	-9.49909
▁acts	-9.49952
▁13	-9.50108
▁prevention	-9.50148
EL	-9.50166
▁domestic	-9.50298
▁critical	-9.50318
▁goals	-9.505
▁former	-9.5051
▁leaders	-9.50644
the	-9.50683
ell	-9.50721
▁conference	-9.50955
▁laws	-9.50985
▁whom	-9.51008
O	-9.51013
▁improvement	-9.51031
▁near	-9.51105
▁press	-9.51291
▁patients	-9.51435
▁dangerous	-9.51547
▁exercise	-9.51615
▁run	-9.51654
▁happened	-9.51662
▁treaty	-9.51718
▁promotion	-9.51763
▁entry	-9.51837
▁big	-9.52011
▁Energy	-9.52058
▁attempt	-9.52069
▁14	-9.52149
▁expenditure	-9.52206
▁November	-9.52281
▁persons	-9.52319
▁complex	-9.52332
▁Foreign	-9.52503
our	-9.52536
▁fall	-9.52604
▁partner	-9.52642
responsibilities	-9.52801
▁inclusion	-9.52876
▁read	-9.52999
▁permanent	-9.53025
▁truly	-9.53025
one	-9.53105
all	-9.53225
▁Many	-9.53273
▁investments	-9.53417
ful	-9.53428
▁payments	-9.53458
▁involvement	-9.53488
▁comply	-9.53658
▁religious	-9.537
▁guarantees	-9.53777
▁income	-9.53837
▁choice	-9.54051
▁views	-9.54136
▁thousands	-9.54201
▁ahead	-9.54361
▁closer	-9.54542
▁table	-9.54566
ni	-9.54568
▁relationship	-9.54599
▁produced	-9.54957
▁evaluation	-9.55217
▁later	-9.55341
▁immediate	-9.5546
▁administration	-9.55521
▁supervision	-9.55521
▁Partnership	-9.55598
▁Representative	-9.55598
▁analysis	-9.55751
▁sometimes	-9.55828
▁Western	-9.55832
▁opening	-9.55853
▁ready	-9.55892
▁Chamber	-9.55905
▁trafficking	-9.55985
j	-9.56052
ine	-9.56106
ian	-9.5616
▁company	-9.56213
▁counter	-9.56269
▁Nevertheless	-9.5629
▁bear	-9.56293
▁failed	-9.56296
▁pro	-9.56306
▁institution	-9.5631
way	-9.56355
▁Policy	-9.56445
man	-9.56579
▁territory	-9.56599
▁consumption	-9.56677
▁genuine	-9.56849
▁lower	-9.56884
▁path	-9.56988
ern	-9.57144
▁2011	-9.57176
▁plenary	-9.57221
▁Hungary	-9.57299
▁lost	-9.57377
▁immediately	-9.57517
▁demands	-9.57529
▁liberalisation	-9.57617
▁spirit	-9.57767
▁milk	-9.57768
▁By	-9.57811
▁speed	-9.57844
▁organised	-9.57859
▁enter	-9.57951
▁October	-9.58003
▁British	-9.5816
▁Eastern	-9.58168
▁considerable	-9.58241
▁UK	-9.58319
▁Spain	-9.58475
▁shadow	-9.58554
▁explain	-9.58571
▁invest	-9.58613
▁easy	-9.58633
▁PPE	-9.58714
▁resolve	-9.58806
▁firstly	-9.58816
per	-9.58862
▁operation	-9.58952
▁While	-9.59108
▁Do	-9.59259
▁enormous	-9.59347
▁wants	-9.59442
▁exactly	-9.59534
▁ten	-9.59545
▁30	-9.59561
▁sea	-9.59731
▁Spanish	-9.59746
▁broad	-9.59756
▁probably	-9.59905
▁thinking	-9.60077
ex	-9.60116
▁recognised	-9.60252
▁word	-9.60338
▁body	-9.60387
▁communities	-9.60387
▁staff	-9.60387
▁sign	-9.60401
▁sensitive	-9.60409
▁speaking	-9.60425
▁J	-9.60487
▁seem	-9.60497
▁addressed	-9.60535
▁operate	-9.60548
▁flexibility	-9.6087
▁submitted	-9.60876
▁Why	-9.60956
▁election	-9.61023
ritten	-9.61027
▁anything	-9.61033
▁emphasis	-9.61059
▁Chinese	-9.61113
▁session	-9.61154
▁globalisation	-9.61174
▁Serbia	-9.61213
▁happy	-9.61357
▁manage	-9.61438
CS	-9.61567
▁carbon	-9.61661
▁informed	-9.61913
▁collective	-9.62012
ng	-9.6207
▁parts	-9.62118
▁visit	-9.62198
▁advantage	-9.62256
tic	-9.62318
ions	-9.624
▁suffering	-9.62436
▁mainly	-9.62487
▁minority	-9.62505
based	-9.6257
▁contains	-9.62592
▁trading	-9.62664
ward	-9.62665
▁r	-9.62834
▁faced	-9.62862
▁safeguard	-9.62937
▁professional	-9.63003
▁fear	-9.63109
con	-9.63121
▁Portugal	-9.63159
▁method	-9.6317
▁developments	-9.63363
HU	-9.63501
land	-9.63534
ke	-9.63605
▁functioning	-9.63726
▁seek	-9.63775
▁contrary	-9.63823
▁signed	-9.63884
ow	-9.63957
▁shared	-9.63972
▁methods	-9.6406
▁Auditors	-9.64073
ud	-9.64155
▁tool	-9.64179
▁freedoms	-9.6448
▁healthcare	-9.64575
▁insist	-9.64583
▁sound	-9.64675
▁fuel	-9.64693
▁situations	-9.64767
▁understanding	-9.64955
▁extend	-9.65048
▁disasters	-9.65236
▁came	-9.65256
▁enlargement	-9.65332
▁factor	-9.65351
and	-9.65463
▁causes	-9.65483
▁authority	-9.65613
▁obvious	-9.65618
▁Ashton	-9.65671
▁21	-9.65784
▁element	-9.65889
▁referred	-9.66015
▁rates	-9.66035
▁happening	-9.66201
▁continent	-9.66266
nd	-9.6632
▁ideas	-9.66412
ious	-9.66449
▁monitor	-9.66584
▁participate	-9.66608
▁worked	-9.66658
▁delegation	-9.66756
com	-9.66835
▁crimes	-9.66928
▁Framework	-9.67037
▁attack	-9.67103
▁continuing	-9.67209
▁Italian	-9.67209
▁repeat	-9.67247
▁green	-9.67256
▁India	-9.67362
▁appear	-9.67552
▁immigrants	-9.6764
▁According	-9.67657
▁forced	-9.67712
▁Alliance	-9.679
ev	-9.68024
▁else	-9.68073
▁helping	-9.68192
▁ability	-9.68202
▁starting	-9.68348
▁cover	-9.68423
ck	-9.68426
▁sexual	-9.6847
hi	-9.68486
▁link	-9.68559
▁thereby	-9.6867
▁Summit	-9.6877
▁effectiveness	-9.68842
▁easier	-9.68858
▁Even	-9.69051
▁refugees	-9.69199
▁coordinated	-9.69201
▁numerous	-9.69209
debate	-9.69227
▁consistent	-9.69254
▁earlier	-9.69297
sa	-9.69297
G	-9.69363
▁America	-9.69403
▁competence	-9.69484
▁test	-9.69663
▁pension	-9.69668
ure	-9.69719
▁scheme	-9.69931
▁figures	-9.69943
▁rapid	-9.69953
▁reject	-9.70009
▁fraud	-9.7018
▁myself	-9.7018
▁simple	-9.70225
▁16	-9.70339
▁intend	-9.70351
▁greatest	-9.70382
▁applies	-9.70446
▁continues	-9.70458
▁honourable	-9.70552
▁stronger	-9.7067
▁rating	-9.70815
▁sub	-9.70872
making	-9.70926
▁unable	-9.70994
▁territorial	-9.71002
▁accepted	-9.71021
▁Green	-9.71108
▁elected	-9.71216
▁networks	-9.71275
▁excessive	-9.71344
▁comment	-9.71375
▁consultation	-9.71388
▁definition	-9.71429
▁17	-9.71444
▁fish	-9.71491
▁Pakistan	-9.71588
cl	-9.71608
part	-9.71626
▁confirm	-9.71659
▁worth	-9.71726
SV	-9.71757
▁source	-9.71796
▁Swedish	-9.7206
▁harmonisation	-9.7206
▁tourism	-9.72061
▁sustainability	-9.72242
▁traffic	-9.72418
▁structure	-9.7242
ish	-9.72473
▁option	-9.72491
▁ethnic	-9.72567
▁Afghanistan	-9.72603
▁awareness	-9.72644
▁revision	-9.72694
▁positions	-9.72696
▁reflect	-9.72803
▁solve	-9.72883
▁merely	-9.72919
▁adopting	-9.72946
▁Ombudsman	-9.72967
Rule	-9.73006
▁gain	-9.73022
▁refer	-9.73037
▁affect	-9.73039
▁Fundamental	-9.73059
ov	-9.73126
▁office	-9.73133
▁statistics	-9.7315
▁entirely	-9.73387
▁September	-9.73425
ear	-9.73459
▁N	-9.73685
▁talks	-9.7369
▁oral	-9.73747
▁innovative	-9.73792
▁yesterday	-9.73884
▁inform	-9.74009
▁construction	-9.74077
sh	-9.74115
▁obligation	-9.74142
▁evidence	-9.7416
▁millions	-9.74227
▁compliance	-9.74237
▁spent	-9.74271
ability	-9.74418
▁campaign	-9.74424
ie	-9.74441
▁overcome	-9.74469
▁record	-9.74588
▁improvements	-9.74726
▁attacks	-9.7483
▁mission	-9.74942
▁month	-9.74994
▁getting	-9.75067
▁sort	-9.75279
▁v	-9.75331
▁bad	-9.75353
▁significantly	-9.75514
▁condemn	-9.75756
▁20%	-9.75844
▁sp	-9.75892
▁sides	-9.75896
▁check	-9.75935
▁sh	-9.7594
▁official	-9.75986
▁Health	-9.76023
▁2005	-9.76035
▁expected	-9.76038
▁membership	-9.76123
ru	-9.76158
▁abuse	-9.76225
▁recommendation	-9.7624
▁Rules	-9.76278
▁WTO	-9.76347
▁American	-9.76404
▁feed	-9.76549
▁politicians	-9.76812
▁cooperate	-9.76968
▁wide	-9.76975
▁man	-9.77031
▁2009.	-9.77141
▁Protection	-9.7716
▁modern	-9.77241
▁encouraging	-9.77253
▁planning	-9.77271
gen	-9.77287
▁granted	-9.77392
▁prove	-9.77396
▁enjoy	-9.77414
▁Greek	-9.77826
▁diversity	-9.77826
▁imp	-9.77884
▁animals	-9.78049
▁learn	-9.78191
▁parliaments	-9.783
▁payment	-9.78417
▁barriers	-9.78426
▁attitude	-9.78498
▁credibility	-9.78498
▁delay	-9.7852
▁rejected	-9.78545
▁advance	-9.78645
▁late	-9.7874
▁decisive	-9.78788
▁violations	-9.78817
▁protected	-9.78875
▁Baltic	-9.78885
▁negotiating	-9.78885
▁corruption	-9.78915
▁school	-9.78971
▁rail	-9.78975
▁Mar	-9.78988
▁restrictions	-9.79094
▁firm	-9.79185
lu	-9.79217
▁interesting	-9.79276
▁disease	-9.79323
▁operations	-9.79421
▁imports	-9.79428
▁range	-9.79437
▁space	-9.79467
▁debates	-9.79482
▁accounts	-9.79485
▁2013	-9.79564
▁ma	-9.79747
▁drawn	-9.79821
ring	-9.79912
▁conflicts	-9.79925
▁Balkans	-9.80028
▁CAP	-9.80035
▁fighting	-9.80048
ack	-9.8013
▁fiscal	-9.80151
▁maximum	-9.80151
▁obtain	-9.80202
▁criticism	-9.80249
ph	-9.80281
res	-9.80287
▁suffer	-9.80399
putting	-9.80466
vis	-9.80506
ak	-9.80525
▁worse	-9.80539
▁emergency	-9.80544
▁union	-9.80545
▁Pact	-9.80557
▁impose	-9.80597
▁Organisation	-9.8074
▁NATO	-9.8078
▁controls	-9.8079
ard	-9.80873
▁allowing	-9.80943
▁pointed	-9.81026
▁started	-9.81081
▁degree	-9.81135
▁associated	-9.81148
oc	-9.81164
▁acceptable	-9.81291
▁strategies	-9.81333
▁vision	-9.81334
▁largest	-9.81354
▁materials	-9.81414
▁involving	-9.81433
▁welfare	-9.81433
▁substances	-9.81501
▁ought	-9.81532
▁substantial	-9.81593
▁followed	-9.81661
▁changed	-9.81688
▁Polish	-9.81731
▁aviation	-9.81732
ba	-9.81842
▁requirement	-9.82352
▁Monetary	-9.8243
▁2012	-9.8253
▁urgently	-9.82548
nt	-9.8255
▁Safety	-9.82631
▁penalty	-9.82731
▁Given	-9.82731
▁intention	-9.82733
▁factors	-9.82807
▁citizen	-9.82927
▁directives	-9.82965
▁General	-9.83012
▁lose	-9.83042
▁w	-9.83116
▁operators	-9.83157
▁Moldova	-9.83235
▁Procedure	-9.83235
▁spending	-9.83239
▁ultimately	-9.83272
ns	-9.83378
▁scale	-9.83424
ber	-9.8351
▁exploitation	-9.83556
▁Thirdly	-9.83578
▁25	-9.83605
▁says	-9.83621
▁o	-9.83678
▁count	-9.83749
tor	-9.83773
▁lies	-9.83775
▁initial	-9.83808
▁enforcement	-9.83851
L	-9.83964
▁Such	-9.84047
▁property	-9.84065
▁seeking	-9.84075
▁average	-9.84149
▁opposed	-9.84249
▁employees	-9.84341
rat	-9.84345
ical	-9.84542
ingle	-9.84634
▁Portuguese	-9.8466
▁carefully	-9.84863
ub	-9.8494
▁industries	-9.84968
▁ongoing	-9.84972
ably	-9.85003
▁anyone	-9.85074
ight	-9.85144
▁base	-9.85238
▁impossible	-9.85277
▁laid	-9.85284
▁firmly	-9.8532
▁April	-9.8538
▁series	-9.85589
▁fine	-9.8574
▁Conference	-9.85794
▁imposed	-9.85841
▁subsidiarity	-9.85898
▁nations	-9.8591
▁loss	-9.86055
▁covered	-9.86056
che	-9.86073
▁Only	-9.86238
▁told	-9.8624
▁guaranteed	-9.86306
▁judicial	-9.86362
▁cars	-9.8639
▁distribution	-9.86418
▁deliver	-9.86445
▁ratification	-9.86523
tu	-9.8653
▁appreciate	-9.86538
ap	-9.86547
▁grateful	-9.86627
▁strict	-9.86636
▁approval	-9.86669
▁flexible	-9.86732
▁clean	-9.86735
▁via	-9.86744
▁highest	-9.86747
▁electronic	-9.86837
▁react	-9.86878
▁realise	-9.86967
▁spoke	-9.86987
▁moving	-9.87046
vote	-9.87089
▁Service	-9.87422
▁St	-9.87558
▁urban	-9.87678
▁presence	-9.87678
▁peaceful	-9.87842
▁fail	-9.88146
ative	-9.88158
▁tools	-9.88182
▁dealt	-9.88266
▁July	-9.88421
▁Plan	-9.88428
▁respected	-9.88482
▁fulfil	-9.88597
▁offers	-9.88679
SK	-9.88729
▁currency	-9.8874
qu	-9.8891
▁court	-9.88928
▁conduct	-9.8897
▁taxpayers	-9.88975
▁religion	-9.89061
ven	-9.89114
▁endorse	-9.89133
▁unfair	-9.89168
▁individuals	-9.89176
▁purposes	-9.89332
▁acknowledge	-9.89347
▁allows	-9.89378
▁contact	-9.89472
▁truth	-9.89491
▁desire	-9.89563
str	-9.89589
▁leadership	-9.89601
▁exclusion	-9.89706
▁From	-9.89706
▁regular	-9.89784
▁reasonable	-9.89833
▁primarily	-9.89922
ile	-9.89952
▁structures	-9.8997
▁lay	-9.90026
▁resolutions	-9.90212
▁affairs	-9.90226
▁hit	-9.90248
▁centre	-9.90321
▁capable	-9.90362
▁introducing	-9.9039
▁GDP	-9.90397
▁allocated	-9.90435
▁wine	-9.90458
▁Another	-9.90684
▁Stability	-9.90687
act	-9.90724
gr	-9.90767
▁2004	-9.90778
ations	-9.90922
▁Kingdom	-9.91008
▁Middle	-9.91118
▁pass	-9.91203
▁totally	-9.91272
▁Food	-9.91337
▁politics	-9.91337
ner	-9.91412
▁legitimate	-9.91446
▁mo	-9.91609
▁board	-9.91666
▁sent	-9.91688
▁involve	-9.91733
▁detailed	-9.91746
▁experts	-9.9177
▁strengthened	-9.91805
▁en	-9.91856
▁proportion	-9.91872
▁definitely	-9.91918
▁traditional	-9.91935
▁50	-9.91943
▁proposing	-9.91996
▁External	-9.91997
▁equally	-9.9209
▁written	-9.92114
▁placed	-9.92188
▁February	-9.92217
▁labelling	-9.92223
▁agency	-9.92334
ification	-9.92344
▁terrorist	-9.92462
▁separate	-9.92522
▁please	-9.92639
▁equipment	-9.92665
▁planned	-9.92673
▁transactions	-9.92695
▁1.	-9.92713
▁delighted	-9.92771
▁representative	-9.92805
▁compared	-9.92809
▁declaration	-9.93021
io	-9.93076
▁personally	-9.93101
▁break	-9.93104
▁m	-9.93139
od	-9.93173
fe	-9.93403
▁di	-9.93458
▁behaviour	-9.93553
▁century	-9.93553
▁Those	-9.93665
▁greenhouse	-9.93666
line	-9.9367
▁supports	-9.93885
▁preventing	-9.93989
▁contributions	-9.93994
▁Egypt	-9.93995
▁ALDE	-9.94002
ign	-9.94077
▁morning	-9.94114
▁II	-9.9412
▁limits	-9.94123
▁committees	-9.94179
▁Rule	-9.9422
▁voluntary	-9.94227
▁import	-9.9434
▁micro	-9.9434
▁otherwise	-9.9434
▁phase	-9.9434
▁prison	-9.94424
▁votes	-9.9443
▁plant	-9.94465
ever	-9.94492
▁sport	-9.94507
▁legally	-9.94514
▁n	-9.94736
▁se	-9.94809
▁hours	-9.94888
▁honest	-9.94906
▁Mo	-9.94914
▁ones	-9.94936
▁transition	-9.94973
▁Gaza	-9.9502
▁Le	-9.95054
▁topic	-9.95132
▁forthcoming	-9.95134
▁underline	-9.95167
▁learning	-9.95167
▁plants	-9.95352
der	-9.95423
do	-9.95426
▁Last	-9.95487
H	-9.95543
▁crises	-9.95705
▁suggest	-9.95978
Christian	-9.95999
rg	-9.96339
▁speakers	-9.96366
und	-9.96376
▁spread	-9.96394
ning	-9.96536
av	-9.96539
▁interested	-9.96551
he	-9.96612
▁floor	-9.96625
▁paper	-9.96625
gg	-9.96648
V	-9.96655
▁multi	-9.96692
▁original	-9.96846
tructural	-9.96849
▁buildings	-9.96866
▁New	-9.96981
▁mis	-9.97164
▁quotas	-9.97166
▁Libya	-9.97207
har	-9.97307
▁choose	-9.9732
▁Thus	-9.9732
▁contract	-9.97394
▁Environment	-9.97459
▁demonstrate	-9.97499
▁Or	-9.97574
▁100	-9.97649
▁Paper	-9.97676
▁prepare	-9.9776
ten	-9.97894
▁Before	-9.97904
▁dignity	-9.97904
▁register	-9.98035
▁Japan	-9.98138
▁2008,	-9.98366
▁proceed	-9.98369
▁obstacles	-9.98392
▁reaction	-9.98416
▁resolved	-9.98586
▁retain	-9.98608
▁stable	-9.98667
▁actual	-9.98825
▁danger	-9.98825
▁operational	-9.98897
▁demonstrated	-9.98989
au	-9.99011
▁processes	-9.99019
▁biodiversity	-9.99081
▁mass	-9.99104
▁meetings	-9.9916
▁500	-9.99224
▁assess	-9.99232
▁concluded	-9.99274
▁Research	-9.99318
▁gave	-9.99437
▁designed	-9.99446
▁permit	-9.99547
▁seven	-9.99561
▁customs	-9.9964
pro	-9.99714
side	-9.99757
▁savings	-9.99759
▁generation	-9.99847
▁Financial	-9.99913
▁got	-10.0007
▁generally	-10.0008
▁defined	-10.0009
▁continued	-10.0012
▁Women	-10.0015
▁Turkish	-10.0015
▁expectations	-10.0041
▁lines	-10.0064
▁bit	-10.0069
ments	-10.0075
▁Ha	-10.0077
▁l	-10.008
▁assist	-10.0082
▁La	-10.0083
▁stay	-10.0087
▁subsidies	-10.0087
▁technological	-10.0087
▁medicines	-10.0096
▁Ms	-10.0096
▁operating	-10.0099
▁united	-10.0109
▁Iraq	-10.0109
▁announced	-10.0114
▁EC	-10.0127
ip	-10.0134
▁succeed	-10.0138
▁material	-10.0138
▁rising	-10.0149
fa	-10.0154
▁reliable	-10.016
▁existence	-10.0162
ef	-10.0163
▁highlighted	-10.0165
▁honour	-10.0182
▁Dur	-10.0183
han	-10.0188
▁treated	-10.0189
▁passed	-10.0197
▁textile	-10.0199
▁temporary	-10.0209
▁enhance	-10.0219
5%	-10.022
▁clause	-10.0224
▁spoken	-10.0228
▁demographic	-10.0233
▁amending	-10.0246
▁Strasbourg	-10.0258
▁front	-10.0258
▁cr	-10.0264
▁Funds	-10.0265
▁wishes	-10.0266
▁save	-10.0268
▁applying	-10.0277
▁medical	-10.0282
▁adapt	-10.0283
▁2.	-10.0295
▁wealth	-10.0295
▁2008.	-10.0296
fer	-10.0308
ho	-10.0315
FI	-10.0318
rm	-10.0322
▁diseases	-10.0325
▁undoubtedly	-10.0331
▁played	-10.0344
▁preparing	-10.0344
▁whilst	-10.0344
▁performance	-10.0345
▁skills	-10.0345
▁universal	-10.0356
▁Brazil	-10.0359
▁gap	-10.0363
ice	-10.0364
ition	-10.0376
▁users	-10.038
if	-10.0384
▁Ba	-10.0385
▁head	-10.0388
▁soil	-10.0404
▁More	-10.0409
▁Globalisation	-10.0419
▁examine	-10.0421
▁Can	-10.0422
LT	-10.0424
▁glad	-10.0431
▁prosperity	-10.0443
▁sovereignty	-10.0444
▁dependent	-10.0455
▁coherent	-10.0456
▁targeted	-10.0464
os	-10.0472
▁decades	-10.0479
▁resulting	-10.0479
▁latest	-10.0484
du	-10.0486
▁candidate	-10.0488
▁neighbours	-10.0495
men	-10.0498
▁languages	-10.05
▁claim	-10.0504
▁pollution	-10.0506
▁realistic	-10.0508
▁proceedings	-10.0544
ship	-10.0552
▁Act	-10.0554
▁electricity	-10.0557
red	-10.0559
▁clarify	-10.0569
▁deficit	-10.0577
▁Cooperation	-10.0582
▁audit	-10.0582
▁taxation	-10.0583
▁difference	-10.059
▁Ra	-10.0595
▁Ca	-10.0605
▁detail	-10.0619
▁...	-10.0627
▁welcomed	-10.0632
▁taxes	-10.0632
▁double	-10.0632
bi	-10.0644
▁Consumer	-10.0645
▁Sweden	-10.0645
▁Here	-10.0646
▁budgets	-10.0649
▁identify	-10.0652
▁procurement	-10.0658
▁hearing	-10.0664
▁banking	-10.0664
▁define	-10.0669
▁requested	-10.0675
▁normal	-10.0682
▁entitled	-10.0683
▁recall	-10.0684
▁Palestinian	-10.0684
▁offered	-10.0694
▁constantly	-10.0706
▁guaranteeing	-10.072
▁studies	-10.0722
▁deep	-10.074
▁grounds	-10.0742
▁hands	-10.0742
port	-10.0747
▁latter	-10.0748
▁revenue	-10.0748
▁waiting	-10.0752
▁Haiti	-10.0761
▁multilateral	-10.0773
▁rich	-10.0774
int	-10.0786
▁changing	-10.0786
▁details	-10.079
▁Investment	-10.0799
▁Br	-10.08
▁pursue	-10.0811
ists	-10.0813
▁Slovakia	-10.0813
▁manufacturers	-10.0815
▁Pa	-10.0816
▁migrants	-10.083
▁accidents	-10.083
▁Black	-10.0838
▁facilities	-10.0838
king	-10.0846
ga	-10.0846
▁nation	-10.0858
▁object	-10.0862
▁Socialist	-10.0866
▁neighbouring	-10.0867
▁worldwide	-10.0869
▁monetary	-10.0877
▁red	-10.0881
▁opinions	-10.0886
▁bank	-10.0887
▁finding	-10.0893
▁Agriculture	-10.0903
▁speeches	-10.0928
related	-10.0931
▁contracts	-10.0933
▁Report	-10.0944
▁Po	-10.0948
▁healthy	-10.0949
▁block	-10.0955
ates	-10.0956
▁comp	-10.0961
▁reiterate	-10.0969
▁simplification	-10.0969
▁compensation	-10.0969
▁restore	-10.0971
scale	-10.0973
▁involves	-10.0981
▁Asia	-10.0982
▁insurance	-10.0982
▁neither	-10.0982
▁assure	-10.0995
▁published	-10.0996
▁gone	-10.1007
pol	-10.1013
▁Arctic	-10.1022
▁Baroness	-10.1022
▁Instead	-10.1022
▁Lastly	-10.1024
▁top	-10.1032
ration	-10.1039
▁determined	-10.104
▁launched	-10.1041
▁minutes	-10.1047
▁Frontex	-10.1048
iv	-10.1059
▁submit	-10.1059
▁examples	-10.1059
▁Public	-10.1062
▁Head	-10.1077
▁playing	-10.1089
▁Ex	-10.1093
▁tried	-10.1095
▁liberal	-10.1097
▁answers	-10.1101
▁version	-10.1112
▁formal	-10.1117
▁enhanced	-10.1117
▁Solidarity	-10.1128
▁surveillance	-10.1128
▁diplomatic	-10.1128
▁justified	-10.1133
▁train	-10.1137
▁2010,	-10.115
▁Civil	-10.1155
▁primary	-10.1155
▁massive	-10.1157
ator	-10.1158
▁wonder	-10.1164
W	-10.1171
▁focused	-10.1173
▁sovereign	-10.1194
▁emerging	-10.1195
▁tasks	-10.1196
▁contained	-10.1202
▁stakeholders	-10.1207
▁keeping	-10.1219
▁geographical	-10.1219
▁extension	-10.1222
▁radical	-10.1222
▁dispute	-10.1227
▁likely	-10.1229
▁Al	-10.1229
▁release	-10.1235
▁intellectual	-10.1236
▁maintaining	-10.1246
▁valuable	-10.1249
▁raw	-10.125
lying	-10.1258
▁wait	-10.1258
mer	-10.1262
▁prisoners	-10.1266
▁passenger	-10.1267
▁uniform	-10.1276
▁Not	-10.1278
over	-10.1282
▁Ch	-10.1287
▁considering	-10.129
▁moral	-10.129
▁tests	-10.1302
▁Canada	-10.131
▁naturally	-10.1311
▁reinforce	-10.1313
▁VAT	-10.1317
▁reply	-10.1331
▁successfully	-10.134
▁piece	-10.1345
▁proud	-10.1346
▁Co	-10.135
▁determination	-10.1361
00	-10.1375
▁phenomenon	-10.1386
▁preserve	-10.1386
▁suitable	-10.1387
▁function	-10.1391
▁collection	-10.1401
▁23	-10.1412
▁expense	-10.1413
▁Li	-10.1416
▁investigation	-10.142
▁Macedonia	-10.1427
▁la	-10.1429
▁chain	-10.1441
▁evening	-10.1445
▁built	-10.1455
▁par	-10.146
▁stock	-10.1462
year	-10.1469
▁brings	-10.1471
▁ho	-10.1477
▁remarks	-10.1484
▁extra	-10.1484
ient	-10.1487
▁Ro	-10.1488
▁opt	-10.1494
end	-10.1494
economic	-10.1501
log	-10.1502
▁24	-10.1506
▁types	-10.1518
▁listen	-10.152
▁condition	-10.1521
▁increases	-10.1521
▁constitution	-10.1521
▁players	-10.1524
▁judge	-10.1524
▁extreme	-10.1524
▁Transport	-10.1524
▁supposed	-10.1526
▁accident	-10.1532
▁actively	-10.1549
▁perform	-10.1551
ide	-10.1555
▁identity	-10.1566
▁disposal	-10.1567
▁Lithuania	-10.1568
▁schools	-10.1573
▁2010.	-10.1579
▁abstained	-10.1591
▁nevertheless	-10.1594
▁Tunisia	-10.1606
▁recommend	-10.161
▁ordinary	-10.1622
▁environmentally	-10.1627
▁biggest	-10.1636
▁someone	-10.1638
▁West	-10.1641
▁stocks	-10.1643
▁places	-10.1644
▁Di	-10.1646
▁Com	-10.165
▁Bosnia	-10.165
▁Free	-10.165
ier	-10.1652
▁afford	-10.1662
▁bureaucracy	-10.1664
▁fruit	-10.1673
▁Un	-10.1675
▁couple	-10.168
▁exists	-10.1685
ler	-10.1692
▁felt	-10.1692
▁boost	-10.1703
▁debating	-10.1706
mon	-10.1709
▁Thursday	-10.1721
▁authorisation	-10.1723
▁grow	-10.1723
▁tackling	-10.1735
▁conducted	-10.1736
▁complicated	-10.1739
▁represented	-10.174
▁proposes	-10.1746
▁size	-10.1762
▁identified	-10.1763
▁letter	-10.177
▁arrangements	-10.1776
▁assume	-10.1778
▁affects	-10.1783
▁ACP	-10.1783
▁extended	-10.1786
▁arise	-10.1787
▁brief	-10.1792
▁round	-10.1799
▁relates	-10.1809
▁weak	-10.1815
▁achievement	-10.1819
▁acquis	-10.1821
▁airlines	-10.1829
▁contain	-10.1837
▁Christian	-10.1838
▁slow	-10.185
▁peoples	-10.1855
▁depend	-10.1857
▁housing	-10.1864
ite	-10.1865
▁Cyprus	-10.1878
iz	-10.1881
▁door	-10.1887
▁negotiation	-10.1891
▁duties	-10.1892
▁presidency	-10.1892
▁happens	-10.1895
▁Regional	-10.1896
ki	-10.1902
ey	-10.1904
▁significance	-10.1907
▁parents	-10.1907
▁officials	-10.192
be	-10.1924
▁cuts	-10.1929
▁seeing	-10.1929
▁engage	-10.1933
▁hundreds	-10.1933
▁weapons	-10.1935
for	-10.1947
▁attend	-10.1951
▁cities	-10.1953
▁PSE	-10.1965
EU	-10.1967
▁Adjustment	-10.1979
▁science	-10.1979
▁severe	-10.198
ging	-10.1982
▁Korea	-10.1985
▁occasion	-10.1994
▁approve	-10.1994
▁Bo	-10.2005
▁ministers	-10.2007
▁worrying	-10.2018
den	-10.2034
▁advertising	-10.2038
▁societies	-10.2038
▁eight	-10.204
▁Fisheries	-10.2053
▁oppose	-10.2053
▁Be	-10.2056
▁Israeli	-10.2058
▁confirmed	-10.2059
▁options	-10.206
▁holding	-10.2062
▁trans	-10.2063
▁intentions	-10.2068
rate	-10.2071
▁Jo	-10.2072
▁farming	-10.2084
▁Ministers	-10.2085
▁suffered	-10.2085
▁leader	-10.2095
▁digital	-10.2097
▁finances	-10.2099
▁Burma	-10.2111
▁Perhaps	-10.2111
▁worst	-10.2111
▁Latin	-10.2111
▁launch	-10.2117
▁charges	-10.2118
▁Once	-10.2123
▁incentives	-10.213
▁affecting	-10.2133
▁Con	-10.2146
lt	-10.2148
U	-10.2149
les	-10.2152
▁Greens	-10.2164
▁fishermen	-10.2171
▁Under	-10.2171
amp	-10.2174
▁experiencing	-10.2186
▁historical	-10.2198
▁courage	-10.22
▁sc	-10.2214
▁belief	-10.2215
▁amounts	-10.2221
▁addressing	-10.2221
▁drawing	-10.2227
▁dynamic	-10.223
▁room	-10.2245
ster	-10.2246
▁restrict	-10.2248
▁secondly	-10.225
▁profits	-10.226
▁allocation	-10.2263
▁0	-10.2278
▁restructuring	-10.229
▁warning	-10.2292
▁depends	-10.2292
▁contributed	-10.2296
▁fast	-10.23
▁prior	-10.2302
▁tr	-10.2306
▁careful	-10.2309
▁arrest	-10.2313
▁substance	-10.2325
▁grant	-10.2333
▁Growth	-10.235
▁speculation	-10.235
▁constitute	-10.2355
ible	-10.2357
▁remove	-10.2366
▁demanding	-10.2373
▁Mi	-10.2378
▁threats	-10.2379
▁physical	-10.2381
▁whatever	-10.2381
▁eliminate	-10.2382
▁Hav	-10.239
▁feeling	-10.24
▁amongst	-10.2412
▁chosen	-10.2413
▁opened	-10.2424
▁motor	-10.2427
▁poorest	-10.2432
▁association	-10.2432
▁dairy	-10.2442
▁patent	-10.2442
▁centres	-10.2443
▁Romanian	-10.245
▁appropriations	-10.2452
▁undermine	-10.2458
▁interpretation	-10.246
▁Internal	-10.2462
▁Then	-10.2462
▁texts	-10.2466
▁strength	-10.2469
▁occasions	-10.2472
az	-10.2477
▁largely	-10.2477
▁negotiated	-10.2486
▁enabling	-10.2487
eg	-10.2492
▁exceptional	-10.2494
▁Na	-10.2504
▁online	-10.2509
▁murder	-10.2511
▁absolute	-10.252
▁ambition	-10.2526
▁losses	-10.2526
we	-10.253
▁harmful	-10.2534
▁Christians	-10.2536
da	-10.2541
▁sensible	-10.2549
ca	-10.256
▁driving	-10.2564
▁preparation	-10.2572
sk	-10.2579
▁National	-10.258
▁applicable	-10.258
use	-10.2593
▁chair	-10.2595
ka	-10.2597
▁System	-10.2611
▁strike	-10.2611
▁wider	-10.2633
▁charge	-10.2636
▁team	-10.2643
▁deserve	-10.2651
▁works	-10.2653
▁beneficial	-10.2657
▁competent	-10.2658
▁certainty	-10.2666
▁Time	-10.2673
▁experienced	-10.2674
▁previously	-10.2688
▁coordinate	-10.269
▁Pro	-10.2699
▁intends	-10.27
▁catch	-10.27
▁Constitution	-10.2703
▁label	-10.2704
▁Sudan	-10.2704
▁possibilities	-10.2704
▁urgency	-10.2705
▁airports	-10.2707
fl	-10.2723
▁i	-10.2728
▁daily	-10.2736
▁spend	-10.2736
▁island	-10.2741
▁figure	-10.2746
▁house	-10.2746
▁simplify	-10.2751
▁observation	-10.2751
▁pipeline	-10.2751
▁politically	-10.2757
▁proved	-10.2759
▁core	-10.2763
▁exports	-10.2766
▁heavy	-10.2767
▁helped	-10.2788
▁sets	-10.279
▁violation	-10.2795
▁wage	-10.2796
▁concentrate	-10.28
▁2000	-10.2801
▁br	-10.2813
▁forest	-10.2825
▁declarations	-10.2827
▁saw	-10.2831
▁decent	-10.2846
ify	-10.285
▁Sa	-10.2852
▁generations	-10.2862
▁regulate	-10.2864
▁foundations	-10.2875
▁granting	-10.288
▁greatly	-10.2896
▁issued	-10.2907
▁understood	-10.291
▁te	-10.2923
lic	-10.2924
▁paying	-10.2926
▁zone	-10.2939
▁Control	-10.2942
▁pure	-10.2947
▁impression	-10.2958
▁etc	-10.2961
▁numbers	-10.2961
▁belong	-10.2975
▁negotiate	-10.2976
free	-10.2988
▁regrettable	-10.299
▁encouraged	-10.2991
▁foremost	-10.3006
▁Where	-10.3006
▁neighbourhood	-10.3006
▁30%	-10.3007
▁sufficiently	-10.301
▁emphasised	-10.3013
▁EIB	-10.3013
que	-10.3014
▁treat	-10.3022
▁precise	-10.3025
so	-10.3028
▁resulted	-10.3031
▁arguments	-10.3034
▁replace	-10.3039
ach	-10.3042
▁lessons	-10.3051
▁Budget	-10.3054
▁Follow	-10.3055
▁kept	-10.3055
▁representation	-10.3062
▁40	-10.3063
▁schemes	-10.3068
▁mark	-10.3068
hor	-10.3072
▁southern	-10.3072
▁ignore	-10.3073
▁heading	-10.308
▁competences	-10.3085
▁absence	-10.3087
▁extensive	-10.3087
▁supplies	-10.3087
▁raising	-10.3087
▁reaching	-10.309
▁visas	-10.3091
▁requests	-10.31
▁birth	-10.3104
▁accessible	-10.3108
▁fields	-10.3108
▁loans	-10.3113
▁resource	-10.312
of	-10.3129
▁pensions	-10.3133
bu	-10.3147
▁friends	-10.3152
▁emission	-10.3153
▁cancer	-10.3153
▁arms	-10.3155
▁Just	-10.3169
▁struggle	-10.3169
si	-10.3178
▁unless	-10.3178
▁purchase	-10.3186
▁leads	-10.3187
▁sum	-10.319
▁protest	-10.3203
▁profit	-10.3207
▁Assembly	-10.3218
▁supervisory	-10.3218
▁parliament	-10.3234
▁recession	-10.3235
ff	-10.3244
▁determine	-10.3251
▁correctly	-10.3254
▁attempts	-10.3261
level	-10.3267
▁harm	-10.3268
▁detention	-10.3268
▁appears	-10.3268
rect	-10.327
▁na	-10.3272
▁U	-10.3273
▁students	-10.3275
▁3.	-10.3278
▁sphere	-10.3285
▁200	-10.3291
▁carrying	-10.3308
▁acting	-10.3309
▁described	-10.3309
▁Latvia	-10.3318
▁root	-10.3318
app	-10.3327
▁credible	-10.3335
▁reflected	-10.3358
▁Pre	-10.3364
pen	-10.3376
▁bureaucratic	-10.3385
▁card	-10.3392
▁occur	-10.34
▁utmost	-10.3402
▁applications	-10.3415
▁somewhat	-10.3418
▁ruling	-10.3418
▁ca	-10.342
▁analyse	-10.3421
▁weaken	-10.3422
▁undertaken	-10.3423
▁Employment	-10.3435
▁Netherlands	-10.3435
▁background	-10.3435
▁codecision	-10.3435
istic	-10.3436
▁running	-10.3436
▁quote	-10.3438
▁indicators	-10.3439
▁harmonised	-10.3444
▁indication	-10.3452
▁below	-10.3452
▁class	-10.3461
▁mandatory	-10.3469
▁becomes	-10.3469
▁tragic	-10.3469
val	-10.347
▁estimated	-10.3473
▁follows	-10.3479
▁commit	-10.3481
▁penalties	-10.3486
▁possibly	-10.3486
▁historic	-10.3489
▁sentence	-10.349
▁links	-10.3501
▁employers	-10.3506
ural	-10.3507
rv	-10.3512
▁governing	-10.3517
▁easily	-10.352
▁Iceland	-10.352
▁constitutional	-10.3524
▁argument	-10.3525
▁destroy	-10.3532
▁economically	-10.3533
▁difficulty	-10.3538
▁pillar	-10.3542
▁solely	-10.3543
▁claims	-10.3544
▁chapter	-10.3571
▁necessity	-10.3571
▁intelligent	-10.3571
tre	-10.3575
▁employ	-10.3578
▁quota	-10.3579
▁dossier	-10.3588
▁youth	-10.3591
▁qualified	-10.3595
▁legitimacy	-10.3605
▁vessels	-10.3606
▁settlement	-10.3612
▁showing	-10.3617
▁succeeded	-10.3619
▁species	-10.3623
▁Over	-10.3624
▁unity	-10.3626
▁unnecessary	-10.3639
ALE	-10.3641
▁port	-10.3647
ric	-10.3652
▁investors	-10.3659
▁constant	-10.366
▁ratified	-10.3674
▁Both	-10.3677
▁fleet	-10.3685
▁Sarkozy	-10.3691
▁contributing	-10.3691
▁trial	-10.3695
tal	-10.3695
lin	-10.3701
▁tragedy	-10.3708
▁Verts	-10.3709
ping	-10.3719
▁Arab	-10.3721
wide	-10.3723
▁mid	-10.3725
ble	-10.3725
▁Common	-10.3726
▁Iranian	-10.3728
▁qualifications	-10.373
▁referring	-10.3744
▁regardless	-10.3758
▁Subject	-10.3761
▁secret	-10.3761
▁foster	-10.3761
▁amended	-10.3764
▁generate	-10.3764
▁22	-10.3766
▁genuinely	-10.3774
▁treaties	-10.378
▁host	-10.3781
▁revised	-10.3785
imbabwe	-10.3795
▁Regard	-10.3795
outh	-10.3802
▁rapidly	-10.3805
▁faith	-10.3813
▁completed	-10.3818
▁prospects	-10.3826
▁seeks	-10.3826
▁NGOs	-10.3828
▁Consequently	-10.383
▁buy	-10.3834
▁leaving	-10.3848
▁touch	-10.385
her	-10.3858
cing	-10.3863
▁tobacco	-10.3866
▁proof	-10.3866
▁division	-10.3883
▁heritage	-10.3883
▁exceed	-10.3883
▁sorry	-10.3883
▁eastern	-10.3883
▁yes	-10.3888
%	-10.3896
▁offering	-10.3899
▁meaning	-10.39
▁privacy	-10.3901
▁exploit	-10.3911
▁satisfied	-10.3918
▁intervene	-10.3919
▁predict	-10.3919
▁summer	-10.3919
ton	-10.392
▁10%	-10.3921
▁facts	-10.3924
▁highlights	-10.3927
▁exemption	-10.3931
▁Ka	-10.3934
▁stake	-10.3936
▁Well	-10.3943
▁Protocol	-10.3954
▁collapse	-10.3954
▁Agenda	-10.3972
▁sharing	-10.3984
▁Me	-10.3987
terinstitutional	-10.3989
▁afraid	-10.3989
▁Legal	-10.3989
▁image	-10.3989
2010	-10.3993
▁respective	-10.4004
▁checks	-10.4006
▁alcohol	-10.4007
▁convergence	-10.4007
▁Home	-10.401
▁bearing	-10.4011
▁War	-10.402
DA	-10.4022
▁vast	-10.4026
▁surely	-10.4027
▁essentially	-10.4035
▁26	-10.4052
▁60	-10.4074
▁Are	-10.4088
▁obtained	-10.4101
▁debated	-10.4102
ger	-10.4109
▁Belgium	-10.4115
legislator	-10.4133
▁confident	-10.4133
▁widespread	-10.4133
▁powerful	-10.4134
▁regulated	-10.4149
▁meat	-10.4153
▁biofuels	-10.4157
▁civilian	-10.4169
▁Belgian	-10.4169
put	-10.4169
▁went	-10.4174
▁friendly	-10.4177
ncy	-10.4186
▁Climate	-10.4187
▁inadequate	-10.4187
uc	-10.419
▁Will	-10.4191
▁thorough	-10.4192
▁educational	-10.4195
ory	-10.4202
▁expensive	-10.4205
▁organ	-10.4206
General	-10.4209
▁obliged	-10.421
ran	-10.4213
▁clarity	-10.4224
▁storage	-10.4224
▁mobilisation	-10.4224
▁toys	-10.4227
▁complaints	-10.4228
▁Information	-10.4242
▁fit	-10.4243
▁code	-10.4245
▁consent	-10.426
▁torture	-10.426
▁fire	-10.4261
▁transitional	-10.4271
▁producing	-10.4272
▁insufficient	-10.4278
▁female	-10.4279
▁elsewhere	-10.4297
▁push	-10.4298
▁imported	-10.4314
▁compulsory	-10.4315
▁stands	-10.4327
▁eye	-10.4332
▁failing	-10.4333
▁Because	-10.4334
▁fairly	-10.4341
▁presentation	-10.4343
▁bus	-10.4349
▁admit	-10.4351
by	-10.4353
▁tough	-10.4355
▁promised	-10.4364
▁Left	-10.4371
▁deeply	-10.439
▁battle	-10.4408
ang	-10.441
▁efficiently	-10.4425
▁warming	-10.4446
2008	-10.445
▁entered	-10.446
▁Britain	-10.4464
▁assurance	-10.4464
rant	-10.4466
▁causing	-10.4482
ski	-10.4483
▁doubts	-10.4486
▁extending	-10.4496
▁Millennium	-10.4501
ermost	-10.4501
2009	-10.4506
▁journalists	-10.4512
▁track	-10.4519
▁Authority	-10.452
▁Cohesion	-10.452
▁constitutes	-10.4532
▁suggested	-10.4537
▁stressed	-10.4537
▁universities	-10.4538
employed	-10.4541
▁timely	-10.4543
▁Atlantic	-10.4545
▁28	-10.4552
▁amend	-10.4554
▁noted	-10.4555
▁inequalities	-10.4557
▁marine	-10.4557
▁maintained	-10.4558
▁deaths	-10.4559
▁organise	-10.4563
▁adaptation	-10.4567
▁drivers	-10.4571
▁freely	-10.4572
▁scrutiny	-10.4576
▁40%	-10.4577
▁Day	-10.4577
▁courts	-10.4581
▁approximately	-10.4592
▁briefly	-10.4594
▁watch	-10.4595
▁occurred	-10.4596
▁quick	-10.46
ned	-10.4602
ep	-10.4607
old	-10.4608
▁earthquake	-10.4614
▁Joint	-10.4615
▁unemployed	-10.4617
▁Commissioners	-10.4631
▁Petitions	-10.4633
▁anniversary	-10.4633
▁Centre	-10.4633
▁percentage	-10.4633
▁vehicle	-10.4635
▁suggestions	-10.4635
▁Second	-10.4638
▁abroad	-10.4652
▁stipulat	-10.4652
▁Socialists	-10.4655
▁expansion	-10.4671
▁favourable	-10.4676
▁deserves	-10.4679
▁flows	-10.4687
6%	-10.4689
▁satisfactory	-10.469
▁expand	-10.4697
▁Austria	-10.47
ture	-10.4701
▁flow	-10.4712
▁differ	-10.4726
▁plays	-10.4737
▁Budgets	-10.4749
▁financed	-10.4749
▁ageing	-10.4759
▁forum	-10.4765
uestion	-10.4766
▁ideal	-10.4767
▁Montenegro	-10.4767
▁viable	-10.4767
▁willingness	-10.4769
▁mistake	-10.4784
▁article	-10.4786
▁picture	-10.4786
uring	-10.4796
▁Slovenia	-10.4799
▁indicated	-10.4799
▁assets	-10.48
▁advantages	-10.4805
▁mother	-10.4811
▁Fa	-10.4816
▁regimes	-10.4816
▁revolution	-10.4825
▁Neighbourhood	-10.4825
▁blame	-10.4825
▁openness	-10.4834
▁ill	-10.4838
▁maternity	-10.4844
▁50%	-10.4845
time	-10.4851
▁forests	-10.486
▁flag	-10.4863
▁exception	-10.4863
own	-10.4864
▁solid	-10.4864
▁apart	-10.4877
▁Obviously	-10.4883
▁uncertainty	-10.4883
▁prospect	-10.4888
▁map	-10.4898
▁signing	-10.4901
▁Every	-10.4902
▁opposite	-10.4903
▁pesticides	-10.4935
▁book	-10.4936
▁remaining	-10.4941
▁tangible	-10.4942
▁unique	-10.4942
▁rare	-10.4942
▁intensive	-10.4956
▁commend	-10.4961
▁partly	-10.4971
▁ratify	-10.4981
▁search	-10.4981
▁shift	-10.4981
▁Also	-10.4981
ET	-10.4997
ik	-10.5003
30	-10.5011
ib	-10.5032
ung	-10.5034
▁Schulz	-10.504
▁protocol	-10.504
▁notably	-10.5044
▁creates	-10.5045
country	-10.5049
day	-10.5056
▁ecological	-10.506
▁freight	-10.506
▁platform	-10.506
▁Islamic	-10.5065
▁knows	-10.5079
▁armed	-10.508
▁Slovenian	-10.5086
▁2003	-10.5088
▁j	-10.5098
▁29	-10.51
▁31	-10.5102
ified	-10.5105
▁meant	-10.5118
▁talked	-10.512
▁joined	-10.5123
ped	-10.5125
▁actors	-10.5127
▁finish	-10.5137
▁macro	-10.5139
▁Soviet	-10.5139
▁disabled	-10.5139
▁2002	-10.5142
cre	-10.5144
▁turned	-10.5148
▁broader	-10.5155
tergovernmental	-10.5161
▁patient	-10.5169
▁She	-10.5169
▁ship	-10.517
ny	-10.517
ans	-10.518
▁eyes	-10.5183
▁EP	-10.5185
▁thanking	-10.5186
▁considers	-10.5189
▁declared	-10.5193
4%	-10.5194
▁GUE	-10.52
▁Please	-10.52
▁shortcomings	-10.52
▁transatlantic	-10.52
▁populations	-10.5205
▁nationals	-10.5207
▁collaboration	-10.522
▁conviction	-10.522
▁stimulate	-10.522
▁stance	-10.5224
▁refuse	-10.5226
▁win	-10.5228
▁victim	-10.523
▁adjustment	-10.5231
▁providers	-10.5231
▁integrity	-10.524
▁waters	-10.5254
session	-10.527
▁removed	-10.5279
▁terrible	-10.528
▁rely	-10.5284
▁shortage	-10.5287
▁protectionism	-10.5289
▁consequence	-10.5291
▁Does	-10.5293
qui	-10.5298
off	-10.53
▁electoral	-10.5301
▁transposition	-10.5301
▁managing	-10.5301
▁earn	-10.5301
ick	-10.5302
▁drafting	-10.531
▁killed	-10.531
discrimination	-10.5311
▁trend	-10.5312
▁defending	-10.5313
▁disagree	-10.5329
▁promises	-10.5338
▁breach	-10.5339
▁imagine	-10.5341
▁inhabitants	-10.5341
▁sake	-10.5341
▁game	-10.5341
ft	-10.5357
▁Car	-10.5359
▁Industry	-10.5362
▁design	-10.5362
▁advice	-10.5382
▁consistency	-10.5382
hy	-10.5384
▁smaller	-10.5391
▁drugs	-10.5394
▁Olympic	-10.5403
▁suspended	-10.5415
▁perfectly	-10.5415
▁Dutch	-10.5423
▁Estonia	-10.5423
▁clarification	-10.5423
▁shape	-10.5423
▁EGF	-10.5425
▁importantly	-10.5426
▁considerably	-10.5428
▁Cuba	-10.5434
▁listened	-10.5435
ire	-10.5441
▁Goals	-10.5444
▁attractive	-10.5446
▁Office	-10.5448
▁reflects	-10.5451
▁evident	-10.5454
NGL	-10.5464
▁imposing	-10.5464
▁Tibet	-10.5476
▁Galileo	-10.5485
▁destruction	-10.5485
▁endeavour	-10.5485
▁focusing	-10.5487
▁Any	-10.549
▁Danube	-10.5506
▁territories	-10.5506
▁tonnes	-10.5506
af	-10.5513
quality	-10.5514
▁Tr	-10.5521
▁himself	-10.5526
▁dictatorship	-10.5527
▁drive	-10.5536
▁assessments	-10.5537
▁socio	-10.5546
▁declare	-10.5554
▁invite	-10.5554
▁decline	-10.5563
▁repeated	-10.5566
▁inflation	-10.5568
ai	-10.5581
▁explanations	-10.5581
▁Secretary	-10.5589
▁pilot	-10.5589
▁prevail	-10.5589
▁promoted	-10.5591
ek	-10.5599
▁valid	-10.5608
▁became	-10.561
▁2015	-10.5611
▁dependence	-10.5611
▁ambitions	-10.5621
connect	-10.5631
▁brutal	-10.5631
▁rational	-10.5631
▁city	-10.5641
▁indicate	-10.5654
ron	-10.5657
▁Van	-10.5668
▁Freedom	-10.5673
▁informal	-10.5691
▁abandon	-10.5693
▁London	-10.5694
▁reconciliation	-10.5694
▁volume	-10.5694
▁poll	-10.5694
▁Reform	-10.5695
▁older	-10.5696
▁gradually	-10.5705
▁airport	-10.5713
▁witness	-10.5714
▁afternoon	-10.5715
▁142)	-10.5715
▁alongside	-10.5717
▁Ta	-10.5719
▁frequently	-10.5723
▁Services	-10.5724
▁lie	-10.5729
▁Small	-10.5736
▁USA	-10.5748
▁extraordinary	-10.5758
▁bi	-10.5758
▁withdraw	-10.5767
▁respecting	-10.5773
▁beneficiaries	-10.5779
▁consolidation	-10.5779
▁implications	-10.5779
▁receiving	-10.5779
▁ownership	-10.5779
▁sincere	-10.5787
▁sad	-10.5789
▁combined	-10.5795
▁tape	-10.58
▁began	-10.58
▁choices	-10.5807
▁threshold	-10.5822
shop	-10.5823
▁Herzegovina	-10.5825
▁recover	-10.5837
▁net	-10.5841
▁publish	-10.5842
▁missions	-10.5845
▁stations	-10.5862
cor	-10.587
▁restricted	-10.5875
▁compete	-10.5885
▁creative	-10.5886
▁jointly	-10.589
uff	-10.5899
initiative	-10.59
▁communications	-10.59
▁disappear	-10.5906
▁railway	-10.5907
▁Treaties	-10.5907
▁disadvantage	-10.5915
▁justify	-10.5916
▁deals	-10.5918
▁repeatedly	-10.5922
▁undertake	-10.5926
▁Association	-10.5929
▁Liberties	-10.5929
▁accompanied	-10.5929
▁losing	-10.5929
ade	-10.5929
▁socialist	-10.5932
▁campaigns	-10.5932
state	-10.594
▁proven	-10.5944
K	-10.5945
▁Their	-10.5947
▁dramatic	-10.595
▁elderly	-10.5951
▁Europol	-10.5952
pre	-10.5953
▁delays	-10.5963
▁attach	-10.5972
▁Communist	-10.5972
▁route	-10.5994
▁Democratic	-10.5994
▁Innovation	-10.5994
▁hence	-10.5994
▁covers	-10.5995
▁merit	-10.5995
▁routes	-10.5995
▁consist	-10.6015
▁abolition	-10.6016
▁banana	-10.6017
▁wording	-10.6036
▁sugar	-10.6038
▁rescue	-10.6038
cy	-10.6038
▁lasting	-10.6038
▁demonstrates	-10.6043
reg	-10.6049
▁Muslim	-10.606
▁continuous	-10.606
▁arising	-10.606
relatively	-10.6074
▁farms	-10.6078
▁threatened	-10.6082
▁wages	-10.6088
▁appointment	-10.6108
▁drafted	-10.6123
▁missing	-10.6126
▁passport	-10.6126
▁fewer	-10.6132
▁whereby	-10.6133
▁refers	-10.6133
▁Ukrainian	-10.6148
▁facilitating	-10.6148
▁larger	-10.6148
▁threaten	-10.6148
▁coal	-10.6157
▁Doha	-10.6176
▁minute	-10.6177
▁turning	-10.6177
▁endorsed	-10.6177
▁2007.	-10.6183
▁cheap	-10.6186
▁expressing	-10.6188
▁coherence	-10.6192
▁vocational	-10.6192
▁80%	-10.6193
▁seas	-10.6195
pproval	-10.6205
▁execution	-10.6206
▁Mexico	-10.6214
▁accurate	-10.6214
▁closure	-10.6214
▁controversial	-10.6214
▁television	-10.6214
▁humanity	-10.6215
▁transit	-10.6215
▁Most	-10.622
▁ships	-10.6227
▁regarded	-10.623
▁Slovak	-10.6235
▁reconstruction	-10.6236
▁rigorous	-10.6236
▁simplified	-10.6236
▁everybody	-10.6237
▁south	-10.6237
▁expertise	-10.6237
▁news	-10.6246
▁violent	-10.6259
▁ECB	-10.626
▁nine	-10.626
▁promise	-10.627
▁Caucasus	-10.6281
▁mix	-10.6281
▁Cor	-10.6299
aw	-10.6299
▁whereas	-10.63
▁attract	-10.6301
yes	-10.6312
▁wind	-10.6319
▁1990	-10.6326
▁website	-10.6326
▁citizenship	-10.6327
▁seekers	-10.6334
gra	-10.6345
▁planet	-10.6346
▁Stockholm	-10.6349
▁investing	-10.6349
▁connected	-10.6349
▁super	-10.6349
▁aside	-10.6359
▁300	-10.6362
wing	-10.6369
▁character	-10.637
▁redundant	-10.6371
▁army	-10.6371
▁Albania	-10.6376
▁evaluate	-10.6379
▁Vi	-10.6382
▁bill	-10.6391
▁troops	-10.6394
▁multiannual	-10.6394
ko	-10.6405
SL	-10.641
▁undertakings	-10.6414
▁Other	-10.6417
ries	-10.6419
▁processing	-10.6431
▁discipline	-10.6439
▁mobile	-10.6439
▁infringement	-10.6445
▁marking	-10.6461
▁adverse	-10.6462
▁blood	-10.6462
▁necessarily	-10.6462
▁achievements	-10.6471
wa	-10.6484
▁Obama	-10.6485
▁jurisdiction	-10.6485
mar	-10.6485
▁falling	-10.6491
▁mistakes	-10.6503
▁kinds	-10.6503
▁pleasure	-10.6508
▁modernisation	-10.651
▁fires	-10.6511
▁Decision	-10.6531
▁gross	-10.6531
▁hunger	-10.6531
▁unprecedented	-10.6531
▁unilateral	-10.6531
▁relative	-10.6538
▁perfect	-10.654
▁saving	-10.6552
▁partnerships	-10.6552
▁Congo	-10.6555
▁149)	-10.6577
7%	-10.6579
▁Man	-10.658
▁cutting	-10.6584
ral	-10.6586
▁consultations	-10.6591
▁unions	-10.6592
▁president	-10.6599
▁popular	-10.66
disproportionate	-10.6604
▁exclusively	-10.6611
TA	-10.6618
grad	-10.6622
▁Through	-10.6623
▁comparison	-10.6623
▁foundation	-10.6623
▁persecution	-10.6623
▁surprised	-10.6633
▁models	-10.6636
▁imbalances	-10.6638
▁roads	-10.664
▁Nonetheless	-10.6646
▁orientation	-10.6646
▁respects	-10.6646
▁instability	-10.6646
▁hazardous	-10.6646
▁stick	-10.6647
▁conventions	-10.6649
▁interim	-10.6651
▁accountability	-10.6653
ld	-10.6656
▁prevented	-10.6659
▁sincerely	-10.6661
▁none	-10.6666
▁imperative	-10.6669
BG	-10.6673
▁punishment	-10.6674
▁fill	-10.6676
▁excluded	-10.6679
▁clearer	-10.6686
▁Liberals	-10.669
ept	-10.6694
▁standing	-10.6697
▁explanation	-10.6702
▁deadline	-10.6702
▁wave	-10.6716
▁drug	-10.6725
▁Labour	-10.6739
▁coastal	-10.6745
▁2011.	-10.6747
▁congratulations	-10.6763
▁inclusive	-10.6763
▁internet	-10.6763
▁showed	-10.6764
back	-10.677
▁strive	-10.6786
▁hopefully	-10.6791
▁emerge	-10.6795
▁usual	-10.6796
▁MEP	-10.6797
▁dead	-10.6801
▁alarming	-10.6802
▁repression	-10.681
▁ensured	-10.6816
SA	-10.6822
▁entrepreneurs	-10.6834
▁quarter	-10.6834
▁satisfaction	-10.6834
▁fuels	-10.6848
▁sold	-10.6849
▁supplement	-10.6856
▁condemned	-10.6866
▁terrorists	-10.6877
▁Otherwise	-10.6881
▁resolving	-10.6881
▁totalitarian	-10.6881
▁argue	-10.6891
▁coast	-10.69
▁Two	-10.6905
rim	-10.6913
▁sw	-10.6915
▁complement	-10.6916
▁burdens	-10.6916
▁fourth	-10.6918
leg	-10.6922
▁consult	-10.6924
▁forgotten	-10.6929
▁procedural	-10.6929
▁recognises	-10.6935
8%	-10.6936
▁IMF	-10.6938
▁voters	-10.6951
tar	-10.6959
▁uphold	-10.696
▁candidates	-10.6963
▁advanced	-10.6964
fully	-10.6976
▁sought	-10.6977
▁halt	-10.6977
▁systematic	-10.6979
▁prefer	-10.6986
▁observed	-10.6991
▁2001	-10.6992
▁willing	-10.6997
▁Special	-10.7001
▁livestock	-10.7001
▁tuna	-10.7001
like	-10.7003
ew	-10.7007
▁Allow	-10.7018
work	-10.7024
▁bound	-10.7025
▁gather	-10.7025
▁woman	-10.7025
print	-10.7031
▁widely	-10.7036
▁engaged	-10.7049
ah	-10.7049
▁austerity	-10.7049
▁bomb	-10.7049
▁civilians	-10.7055
atory	-10.7059
▁abuses	-10.7071
▁engine	-10.7073
▁convey	-10.7073
▁disappointed	-10.7073
▁reaffirm	-10.7073
▁smart	-10.7073
▁accounting	-10.7079
▁reductions	-10.7079
▁moreover	-10.7083
▁presenting	-10.7085
▁2006,	-10.7085
▁journey	-10.7097
▁contacts	-10.7102
50	-10.7115
▁English	-10.7122
▁reservations	-10.7122
▁assert	-10.7123
▁abolish	-10.7124
ya	-10.7129
▁productive	-10.7135
▁falls	-10.7136
▁safeguarding	-10.7142
▁items	-10.7144
▁welcomes	-10.7145
▁aircraft	-10.7146
▁residence	-10.7146
▁robust	-10.7146
▁blue	-10.7146
▁ECR	-10.7148
lock	-10.715
▁errors	-10.7175
▁fo	-10.7177
▁seat	-10.7181
▁subsequent	-10.7181
▁unanimously	-10.7182
air	-10.7188
point	-10.7192
▁inside	-10.7192
▁decrease	-10.7195
▁advocate	-10.7197
right	-10.7203
▁marketing	-10.7204
▁integrate	-10.7205
▁director	-10.721
▁periods	-10.7212
▁Wednesday	-10.722
▁autonomy	-10.722
▁principal	-10.722
PA	-10.7224
▁progressive	-10.7228
▁divide	-10.723
▁discover	-10.7244
▁drop	-10.7244
▁multinational	-10.7245
▁mine	-10.7248
▁reporting	-10.7251
▁disputes	-10.7262
cal	-10.7272
▁al	-10.7277
▁directed	-10.729
▁Education	-10.7294
▁Tourism	-10.7294
▁gambling	-10.7294
▁Rome	-10.7295
▁career	-10.7297
▁observe	-10.7299
▁Ko	-10.7308
▁incentive	-10.7312
▁facility	-10.7319
▁lifelong	-10.7319
Constitutional	-10.7321
▁Tibetan	-10.733
▁cope	-10.7336
▁August	-10.7343
▁familiar	-10.7343
▁timetable	-10.7344
▁exert	-10.7344
▁notice	-10.7364
▁Culture	-10.7368
▁abortion	-10.7368
▁exposed	-10.7368
▁examined	-10.7372
▁deficits	-10.7377
▁ignored	-10.739
▁2007-2013	-10.7394
▁released	-10.7395
umb	-10.7409
▁bar	-10.7412
▁mental	-10.7423
emen	-10.7429
▁incorporate	-10.7429
▁Canc	-10.7431
▁occupation	-10.7434
ze	-10.7434
▁margin	-10.744
ok	-10.7441
▁traditions	-10.7441
▁adult	-10.7444
▁roll	-10.7444
▁Chad	-10.7446
▁suit	-10.7449
▁relate	-10.7449
):	-10.7452
▁pan	-10.7454
▁unfortunate	-10.7455
▁safeguards	-10.7465
▁applaud	-10.7469
▁characteristics	-10.7469
▁dioxide	-10.7469
▁equivalent	-10.7469
▁hospital	-10.7469
▁maintenance	-10.7469
▁spring	-10.747
ana	-10.7471
▁weight	-10.7478
ham	-10.7482
▁consistently	-10.7483
▁sell	-10.7492
▁accelerate	-10.7494
▁stringent	-10.7494
▁firms	-10.7506
▁Ne	-10.7509
▁error	-10.7515
▁enables	-10.7516
▁excuse	-10.7519
▁sites	-10.754
▁neighbour	-10.756
▁disadvantaged	-10.7562
▁dumping	-10.7563
▁cycle	-10.7569
▁suspect	-10.757
▁horizontal	-10.757
▁reverse	-10.757
▁deny	-10.7574
ivity	-10.7595
▁distance	-10.7596
credit	-10.7596
▁outstanding	-10.7603
▁topics	-10.7609
▁joining	-10.761
▁Lo	-10.7616
▁database	-10.7621
(	-10.7622
▁emphasises	-10.7622
▁convention	-10.7622
▁unlike	-10.7624
▁hardly	-10.7625
▁Area	-10.7638
▁illegally	-10.7641
▁manufacturing	-10.7647
▁neglect	-10.7647
▁Hamas	-10.7647
ast	-10.7657
▁Tak	-10.7659
▁covering	-10.7663
▁judgment	-10.767
▁employed	-10.7672
medicinal	-10.7673
▁location	-10.7673
▁forecast	-10.7673
▁Like	-10.7674
▁homes	-10.7678
▁radio	-10.7681
▁era	-10.7687
▁ports	-10.7688
▁closing	-10.7698
▁SIS	-10.7698
▁begun	-10.7699
MO	-10.77
▁Belarusian	-10.7701
▁delegations	-10.7705
let	-10.7707
▁investigations	-10.7712
▁representing	-10.7717
ug	-10.7726
▁suggestion	-10.7729
▁regularly	-10.7731
▁parallel	-10.775
▁keen	-10.775
▁tolerance	-10.775
▁entering	-10.7751
▁marks	-10.7752
chi	-10.7754
tan	-10.7758
▁incorporated	-10.7765
▁refused	-10.7769
▁Ar	-10.7773
▁player	-10.7774
▁Go	-10.7775
▁participating	-10.7776
▁scenario	-10.7776
▁profound	-10.7776
▁pact	-10.7783
▁su	-10.7784
▁arrive	-10.7785
▁Clearly	-10.7802
▁Equality	-10.7806
▁disparities	-10.7828
▁statistical	-10.7828
▁timber	-10.7828
▁Ho	-10.7851
▁reserve	-10.7854
▁Guant	-10.7854
▁Criminal	-10.7854
▁names	-10.7857
▁basically	-10.786
lan	-10.7867
▁crops	-10.7868
▁Mon	-10.7878
▁Business	-10.7881
friendly	-10.7882
2007	-10.7883
▁Declaration	-10.7907
▁category	-10.7907
▁habit	-10.7907
▁surrounding	-10.7907
▁tribute	-10.7907
▁friend	-10.792
▁preventive	-10.7926
bove	-10.7928
▁visible	-10.7933
▁father	-10.7934
▁potentially	-10.794
▁approaches	-10.7944
▁impetus	-10.796
▁expert	-10.796
▁reflection	-10.796
namo	-10.7962
J	-10.7963
▁wise	-10.7963
▁travelling	-10.7963
▁lacking	-10.7964
▁contributes	-10.7964
▁rid	-10.7965
▁listening	-10.7967
▁died	-10.7973
placing	-10.7973
▁reported	-10.7978
▁smooth	-10.8013
▁Concern	-10.8013
▁doctor	-10.8013
▁resistance	-10.8014
▁signs	-10.802
9%	-10.8021
▁harmonise	-10.8025
bel	-10.8037
▁categories	-10.804
▁defining	-10.804
▁undertaking	-10.8044
▁sit	-10.8047
▁motions	-10.8049
▁envisaged	-10.8049
▁Mu	-10.8052
▁tradition	-10.8057
▁adapted	-10.8061
▁floods	-10.8063
▁immunity	-10.8066
▁spectrum	-10.8066
▁minister	-10.8068
▁engagement	-10.8073
▁enforce	-10.8077
▁divided	-10.8082
efficient	-10.8096
▁responses	-10.8098
▁farm	-10.81
ould	-10.8106
▁Bulgarian	-10.811
▁disabilities	-10.812
▁adequately	-10.812
ological	-10.8123
being	-10.8129
▁convince	-10.8133
▁sports	-10.8136
05	-10.8145
▁persist	-10.8146
▁controlled	-10.8156
▁answered	-10.8162
▁worthy	-10.8166
▁Institute	-10.8174
▁OSCE	-10.8174
▁contrast	-10.8174
▁encounter	-10.8174
▁helps	-10.8179
▁abstain	-10.8179
▁symbol	-10.818
▁consolidate	-10.8187
▁Nabucco	-10.8201
▁pharmaceutical	-10.8201
▁liability	-10.8201
▁presidential	-10.8202
▁raises	-10.8205
▁decade	-10.8206
▁Te	-10.8216
▁solved	-10.8217
para	-10.8226
▁ceiling	-10.8228
▁prerequisite	-10.8228
▁redundancies	-10.8228
▁UEN	-10.8229
ranging	-10.8229
▁banned	-10.823
▁organs	-10.8233
▁section	-10.8233
▁hundred	-10.8233
▁mobilise	-10.8241
▁gradual	-10.8242
▁functions	-10.8243
▁Syria	-10.8256
▁funded	-10.8262
▁strictly	-10.8264
▁warmly	-10.8268
▁guide	-10.8269
▁exclusive	-10.8269
▁die	-10.8271
▁settle	-10.8276
▁fate	-10.8276
▁Region	-10.8277
load	-10.8292
▁shares	-10.8297
shed	-10.8306
manufacture	-10.831
▁programming	-10.831
▁signature	-10.831
▁cent	-10.8322
▁transform	-10.8332
▁Switzerland	-10.8338
▁Taiwan	-10.8338
▁conservation	-10.8338
▁variety	-10.8338
▁executive	-10.8339
▁killing	-10.8357
▁dream	-10.8365
▁fresh	-10.8365
▁pragmatic	-10.8365
▁Paris	-10.8367
▁tend	-10.8368
▁Balkan	-10.8372
▁subsequently	-10.8381
▁Bi	-10.8382
▁invited	-10.8384
▁Barrot	-10.8393
▁attain	-10.8393
▁household	-10.8393
▁lesson	-10.8402
▁outlined	-10.8404
▁looked	-10.8406
dis	-10.8406
▁features	-10.8411
form	-10.8411
▁complain	-10.8414
▁absurd	-10.8421
▁concentration	-10.8421
▁draftsman	-10.8421
▁flights	-10.8421
3%	-10.8422
▁helpful	-10.8425
▁waiver	-10.8428
▁renewed	-10.8432
▁Islam	-10.8442
2%	-10.8443
▁interference	-10.8448
▁yourself	-10.8448
▁containing	-10.8454
▁shortly	-10.8455
art	-10.8456
▁Chair	-10.846
▁criticise	-10.8462
▁swift	-10.8462
▁researchers	-10.8463
▁recognising	-10.8476
▁derogation	-10.8476
▁newspaper	-10.8476
▁everywhere	-10.8478
▁avoiding	-10.8481
▁initiated	-10.8489
▁stages	-10.8492
▁compatible	-10.8504
▁foodstuffs	-10.8504
▁praise	-10.8505
▁simplifying	-10.8505
▁Somalia	-10.8517
▁White	-10.8532
▁innocent	-10.8532
▁shame	-10.8541
▁monitored	-10.8548
▁foot	-10.8558
▁satellite	-10.856
▁false	-10.856
▁alleged	-10.856
▁Ber	-10.8563
▁resumed	-10.8567
▁acceptance	-10.8568
▁thousand	-10.857
▁faster	-10.8572
▁match	-10.8588
▁pursued	-10.8591
▁learned	-10.8597
▁feature	-10.8598
GA	-10.8602
▁Afghan	-10.8617
▁entities	-10.8617
▁grave	-10.8617
▁permitted	-10.8619
▁tourist	-10.8623
▁marked	-10.8627
▁exchanges	-10.8644
▁corporate	-10.8645
matic	-10.8647
▁Who	-10.8648
▁compromises	-10.8649
▁withdrawal	-10.8653
▁autumn	-10.8673
▁pretext	-10.8673
▁regulating	-10.8673
▁Malta	-10.8673
▁reserves	-10.8674
light	-10.8681
ay	-10.8684
▁fails	-10.8687
▁pain	-10.8713
▁badly	-10.8716
▁comparable	-10.873
▁elimination	-10.873
▁inequality	-10.8731
win	-10.8746
▁blind	-10.8759
▁Chairman	-10.876
▁lawyer	-10.8761
▁enshrined	-10.8763
▁civilisation	-10.8769
▁stresses	-10.877
▁gained	-10.8771
▁focuses	-10.8773
▁explained	-10.8782
▁retirement	-10.8788
ending	-10.8793
▁breaches	-10.8795
east	-10.8797
▁visited	-10.8808
▁Luxembourg	-10.8817
▁middle	-10.8817
▁install	-10.8817
elect	-10.8823
▁destroyed	-10.8825
▁exceptions	-10.8839
▁realised	-10.8843
▁dictator	-10.8845
▁disastrous	-10.8846
▁accordingly	-10.8857
▁benchmark	-10.8875
▁translation	-10.8875
▁pick	-10.8879
finance	-10.8882
▁slightly	-10.8883
▁moved	-10.8889
▁globally	-10.8891
▁heads	-10.8892
▁distortion	-10.8903
▁Gender	-10.8904
▁Process	-10.8904
▁desirable	-10.8904
▁disregard	-10.8904
▁pursuing	-10.8904
▁sacrifice	-10.8904
▁file	-10.8917
law	-10.8923
ology	-10.8926
▁examination	-10.8933
▁removal	-10.8933
▁criminals	-10.8933
▁Martin	-10.8933
▁Working	-10.8934
▁considerations	-10.8937
▁workplace	-10.894
carbon	-10.894
rid	-10.8948
▁Far	-10.8948
▁component	-10.8948
▁subjected	-10.8949
▁minors	-10.8956
▁lift	-10.896
down	-10.8961
▁fossil	-10.8962
▁precondition	-10.8962
▁Change	-10.8962
▁irregularities	-10.8962
▁25%	-10.8965
reaching	-10.8967
▁tackled	-10.8968
▁Kar	-10.8985
▁suppliers	-10.8988
▁Global	-10.899
▁Guinea	-10.8991
▁scientists	-10.8991
▁outset	-10.8993
▁stopped	-10.8993
▁acknowledged	-10.9001
▁adjust	-10.9004
▁usually	-10.9009
▁mere	-10.901
▁grants	-10.9011
▁Among	-10.9021
▁coordinating	-10.9021
▁tonight	-10.9021
▁night	-10.9022
▁promotes	-10.9025
▁contradiction	-10.9033
▁rejection	-10.9034
governmental	-10.9046
▁infrastructures	-10.9049
▁survive	-10.905
▁fundamentally	-10.9056
▁warm	-10.9077
▁replaced	-10.9106
▁acted	-10.9108
▁Gulf	-10.911
▁availability	-10.911
▁conscience	-10.911
▁jeopardise	-10.911
▁trialogue	-10.911
▁conciliation	-10.911
▁Lu	-10.9122
▁preparations	-10.9124
▁demonstration	-10.9127
▁Barnier	-10.9139
▁Dublin	-10.9139
▁Malmst	-10.9139
▁congratulating	-10.9139
▁reinforcing	-10.9139
▁precedent	-10.9139
▁Monday	-10.914
▁restrictive	-10.9144
▁Director	-10.9162
▁Finland	-10.9169
▁OLAF	-10.9169
▁experiences	-10.9172
▁unanimous	-10.9185
press	-10.9195
▁Work	-10.9196
▁prohibit	-10.9197
▁messages	-10.9199
▁judiciary	-10.9199
▁misleading	-10.9199
▁nobody	-10.9199
▁trouble	-10.9199
▁wake	-10.9199
▁Trans	-10.9199
▁advise	-10.92
▁Code	-10.9202
▁obtaining	-10.9206
▁north	-10.922
▁Beijing	-10.9229
▁College	-10.9229
▁atmosphere	-10.9231
▁story	-10.9231
▁80	-10.9233
▁Hence	-10.9234
▁devoted	-10.9241
▁publication	-10.9242
▁constituency	-10.9259
▁solving	-10.9259
▁resort	-10.9259
▁activists	-10.9264
▁deriv	-10.9272
▁mothers	-10.9282
▁Citizens	-10.9289
▁nonetheless	-10.9289
▁endanger	-10.9289
▁delivered	-10.9293
▁specialist	-10.9294
▁bl	-10.9299
rk	-10.9303
▁justification	-10.9307
▁assessed	-10.9315
▁concessions	-10.9316
▁Venezuela	-10.932
▁deposit	-10.932
▁punish	-10.9322
▁dangers	-10.9322
uck	-10.9323
▁announcement	-10.9333
▁logical	-10.9334
▁movements	-10.9334
▁tolerate	-10.9341
▁transaction	-10.9341
▁clauses	-10.9341
▁Barcelona	-10.935
▁Prize	-10.935
▁distinguish	-10.935
▁eurozone	-10.935
▁stabilisation	-10.9351
▁tighten	-10.9352
ily	-10.9375
▁35	-10.9377
▁stream	-10.9381
▁reciprocity	-10.9381
▁stabilise	-10.9381
▁estimates	-10.9381
▁await	-10.9383
▁responding	-10.9384
▁fee	-10.939
▁assessing	-10.9401
▁avoided	-10.941
▁Mercosur	-10.9411
▁pluralism	-10.9411
▁IND	-10.9411
▁toxic	-10.9412
▁distinction	-10.9416
▁offences	-10.9416
ough	-10.9418
▁Progress	-10.942
▁initially	-10.9422
▁havens	-10.9428
▁length	-10.9436
▁automotive	-10.9442
▁modified	-10.9442
mini	-10.9442
▁5%	-10.9445
▁pose	-10.945
▁donors	-10.9471
▁damaging	-10.9473
▁dependency	-10.9473
▁diverse	-10.9473
▁recycling	-10.9473
▁meantime	-10.9475
▁handling	-10.9485
▁detriment	-10.9491
▁chemical	-10.9496
▁reveal	-10.9512
▁exempt	-10.9514
▁investigate	-10.952
▁describe	-10.952
▁apparent	-10.9521
▁inspections	-10.9527
▁CE	-10.9528
▁select	-10.953
▁precarious	-10.9534
▁60%	-10.9536
▁productivity	-10.9536
▁alter	-10.9538
▁findings	-10.9543
ically	-10.9549
▁prompt	-10.9552
▁associations	-10.9553
▁sight	-10.9553
▁counterfeit	-10.9565
▁accused	-10.9566
▁extremist	-10.9566
▁fought	-10.9566
▁founded	-10.9566
▁distort	-10.9567
▁chemicals	-10.9573
▁criticised	-10.9582
▁residents	-10.9595
▁Denmark	-10.9597
ple	-10.9597
▁unified	-10.9601
DEM	-10.9613
▁ended	-10.9621
▁camps	-10.9621
call	-10.9625
sceptic	-10.9628
▁detect	-10.9628
▁enhancing	-10.9628
▁narrow	-10.9628
▁retail	-10.9628
▁zero	-10.9628
▁sales	-10.963
▁Bar	-10.9646
▁dear	-10.9651
-2013	-10.9658
▁diversification	-10.9659
▁proportionality	-10.9659
▁silence	-10.9659
▁shipping	-10.966
▁vary	-10.9664
▁van	-10.9669
Russia	-10.9671
▁consolidated	-10.9676
▁Bu	-10.9678
▁obstacle	-10.9686
▁Rompuy	-10.9691
▁smoking	-10.9691
▁virtual	-10.9691
▁neoliberal	-10.9691
▁internationally	-10.97
▁invested	-10.9707
▁mountain	-10.9722
▁Morocco	-10.9722
▁energies	-10.9722
▁registration	-10.9722
▁struck	-10.9722
▁reinforced	-10.9724
▁eventually	-10.9727
▁commissioner	-10.9736
▁input	-10.9742
▁generated	-10.9748
▁Naturally	-10.9754
▁PNR	-10.9754
▁straight	-10.9754
▁soldiers	-10.9754
▁aspirations	-10.9755
▁donation	-10.9755
▁warn	-10.9757
▁Nor	-10.9757
▁judgments	-10.9757
▁everyday	-10.9759
▁addresses	-10.9765
▁update	-10.9772
▁participants	-10.9774
▁professionals	-10.9781
▁Seventh	-10.9786
▁twice	-10.9786
▁redress	-10.9786
▁copyright	-10.9786
▁counterfeiting	-10.9786
▁consequently	-10.9789
ork	-10.979
▁arrested	-10.98
ina	-10.9807
▁pillars	-10.9808
▁El	-10.9813
▁destination	-10.9818
▁essence	-10.9818
▁licence	-10.9818
▁empty	-10.9818
▁traceability	-10.9818
▁lobbyists	-10.9818
▁cru	-10.9823
15	-10.9825
▁maybe	-10.9827
▁profession	-10.9827
bit	-10.9828
national	-10.9831
▁bio	-10.9842
▁remark	-10.9847
▁volunteer	-10.9849
▁Vot	-10.9855
▁desired	-10.986
▁fallen	-10.9861
▁thoroughly	-10.9874
serving	-10.9881
▁Instrument	-10.9882
▁Support	-10.9882
▁bottom	-10.9882
▁democratisation	-10.9882
▁heavily	-10.9882
▁survey	-10.9882
▁workforce	-10.9882
▁hinder	-10.9882
▁70%	-10.9882
US	-10.9889
▁explicitly	-10.989
▁Air	-10.9897
hu	-10.9897
war	-10.9904
▁sale	-10.9911
▁Darfur	-10.9914
▁northern	-10.9914
▁bold	-10.9916
▁observers	-10.9918
▁incomes	-10.9926
▁transferred	-10.9926
▁initiate	-10.9932
▁alternatives	-10.9945
▁Geneva	-10.9946
▁Lanka	-10.9946
▁satisfy	-10.9946
▁transmission	-10.9946
▁fulfilled	-10.9948
▁substantially	-10.9958
▁surprise	-10.9964
▁hot	-10.9968
▁constituents	-10.9975
▁sums	-10.9977
▁Azerbaijan	-10.9978
▁pledge	-10.9978
▁vaccine	-10.9978
▁Armenia	-10.9978
▁communicate	-10.9978
▁cens	-10.9979
▁black	-10.9979
▁wherever	-10.9979
▁aiming	-10.9988
▁seats	-10.9993
nnual	-10.9998
▁openly	-11.0008
▁scandal	-11.001
▁Alzheimer	-11.0011
▁Democracy	-11.0011
▁broadband	-11.0011
▁indicates	-11.0018
▁appointed	-11.0028
▁Sri	-11.0035
ugoslav	-11.0038
▁onto	-11.0041
▁genocide	-11.0043
▁cease	-11.0043
▁sectoral	-11.0047
10	-11.005
▁trends	-11.0058
▁telling	-11.0059
▁recommended	-11.0062
▁laying	-11.0074
▁piracy	-11.0076
▁ethical	-11.0076
▁Inter	-11.0078
▁sex	-11.0082
▁stem	-11.0082
▁Kyoto	-11.0087
▁posed	-11.0091
▁safer	-11.0097
▁securing	-11.0109
▁computer	-11.0109
van	-11.011
▁sustain	-11.0117
▁establishes	-11.0117
▁pressing	-11.0119
▁stricter	-11.0128
▁symbolic	-11.014
▁resist	-11.0141
▁examining	-11.0142
▁diplomacy	-11.0142
▁petition	-11.0142
▁enterprise	-11.0142
▁Ben	-11.0145
▁authorised	-11.0146
▁tariff	-11.0165
▁combine	-11.0167
▁Palestine	-11.0175
▁certification	-11.0175
▁survival	-11.0175
▁witnessed	-11.0176
▁socially	-11.0176
▁2050	-11.0177
▁rape	-11.0178
▁exploited	-11.0183
▁prime	-11.0189
owing	-11.0195
mission	-11.0203
▁concluding	-11.0208
▁fragile	-11.0208
▁illustrate	-11.0208
▁remit	-11.0208
▁donor	-11.021
▁zones	-11.0214
▁His	-11.0218
▁complexity	-11.0218
round	-11.0221
▁streets	-11.0222
▁born	-11.023
▁registered	-11.0237
▁corresponding	-11.0239
1%	-11.0241
▁Communication	-11.0241
▁albeit	-11.0241
▁eliminating	-11.0241
▁holiday	-11.0241
▁moratorium	-11.0241
▁reassure	-11.0241
▁adhere	-11.0241
▁lend	-11.0244
▁400	-11.0249
▁Palestinians	-11.0249
▁Unti	-11.0253
▁democratically	-11.0255
▁enabled	-11.0261
▁overwhelming	-11.0274
▁pursuan	-11.0274
▁correspond	-11.0276
▁wall	-11.0277
▁poorer	-11.0279
▁reward	-11.029
▁logic	-11.0293
▁fears	-11.0302
▁channels	-11.0303
proliferation	-11.0308
▁ideological	-11.0308
▁persuade	-11.0308
▁vegetable	-11.0308
▁Great	-11.0308
▁align	-11.0309
▁towns	-11.032
▁emerged	-11.0328
▁incidents	-11.033
▁1%	-11.033
▁construct	-11.0336
▁penalise	-11.0341
▁2014	-11.0342
▁liquidity	-11.0343
▁systematically	-11.0343
▁relationships	-11.0349
▁celebrate	-11.0375
▁repercussions	-11.0375
▁denied	-11.0375
▁carriers	-11.0377
▁channel	-11.038
rin	-11.0384
▁continuation	-11.0387
▁overlook	-11.0393
▁globalised	-11.0398
▁Bali	-11.0399
▁capabilities	-11.0409
▁identification	-11.0409
▁sympathy	-11.0409
▁whatsoever	-11.0409
▁drastic	-11.0409
▁shock	-11.0411
▁apparently	-11.0424
▁consulted	-11.044
▁capacities	-11.0443
▁disturb	-11.0443
▁dual	-11.0443
▁write	-11.0443
▁combination	-11.0445
cient	-11.045
ram	-11.0473
▁requir	-11.0473
▁race	-11.0477
▁forestry	-11.0479
▁infringements	-11.0503
▁academic	-11.0511
▁located	-11.0511
▁preliminary	-11.0511
▁irrespective	-11.0511
▁formula	-11.0511
▁won	-11.0519
▁hour	-11.0522
▁cast	-11.0525
ja	-11.0526
▁collected	-11.0528
▁fishery	-11.0545
▁isolation	-11.0545
▁refugee	-11.0556
2006	-11.0563
▁delivery	-11.0566
▁learnt	-11.0566
▁cornerstone	-11.0579
▁victory	-11.0579
▁1999	-11.058
▁issuing	-11.058
▁minor	-11.0583
▁Hu	-11.0598
▁Madeira	-11.0614
▁Network	-11.0614
▁bridge	-11.0614
▁remedy	-11.0614
▁sharp	-11.0614
▁100%	-11.0616
▁wonderful	-11.0626
▁fixed	-11.0626
▁except	-11.0645
▁catastrophe	-11.0649
▁trigger	-11.0649
▁university	-11.0649
▁western	-11.0649
standing	-11.0651
oriented	-11.0653
▁art	-11.0654
▁personnel	-11.0658
▁suggests	-11.0662
▁love	-11.0666
▁modernise	-11.0681
▁plea	-11.0682
▁Technology	-11.0683
▁integral	-11.0683
▁discard	-11.0684
▁recorded	-11.0696
▁Anti	-11.0697
▁exclude	-11.0704
▁remained	-11.0715
other	-11.0726
▁offices	-11.0729
▁borne	-11.073
▁detrimental	-11.0732
▁Mugabe	-11.0753
▁irresponsible	-11.0753
▁preservation	-11.0753
▁Games	-11.0753
▁Rehn	-11.0753
▁proactive	-11.0754
▁capitalist	-11.0759
▁inspection	-11.0764
▁electric	-11.0771
▁2%	-11.0785
▁equity	-11.0788
▁stimulus	-11.0788
▁hedge	-11.0788
▁composition	-11.0789
▁weaknesses	-11.0791
▁Law	-11.0793
▁15%	-11.0795
▁attempting	-11.0797
hold	-11.0803
generation	-11.0808
▁Federation	-11.0823
▁Functioning	-11.0823
▁federal	-11.0823
▁storm	-11.0823
▁Conservatives	-11.0824
▁problematic	-11.0827
▁modes	-11.0833
▁accountable	-11.0833
▁Similarly	-11.0859
▁deciding	-11.0859
▁display	-11.0859
▁monopoly	-11.0859
▁seize	-11.086
▁sheep	-11.0861
▁imm	-11.0873
▁gaps	-11.0879
▁Third	-11.088
▁asset	-11.0881
▁protests	-11.0893
▁creativity	-11.0894
▁90%	-11.0895
▁Lukashenko	-11.093
▁elect	-11.0931
▁ties	-11.0938
▁Verheugen	-11.0965
▁dedicated	-11.0965
▁assembly	-11.0966
▁hoped	-11.0967
▁threatening	-11.0981
▁deem	-11.0984
25	-11.0992
▁cap	-11.0997
▁mutually	-11.1
lecommunications	-11.1001
▁inappropriate	-11.1001
▁protein	-11.1001
▁pace	-11.1001
▁pull	-11.1002
▁distributed	-11.1007
▁Wall	-11.1007
▁incident	-11.1013
▁identifying	-11.1019
▁adapting	-11.1022
▁symbols	-11.1031
comprehensible	-11.1037
▁repeal	-11.1037
▁Board	-11.1039
▁finger	-11.1039
▁customers	-11.1039
▁Fran	-11.104
▁coach	-11.104
▁practically	-11.1041
▁defended	-11.1045
Mediterranean	-11.1059
▁tensions	-11.1061
RA	-11.1065
lay	-11.1067
▁soft	-11.1068
▁suspension	-11.1073
▁title	-11.1073
▁Everyone	-11.1075
▁reproductive	-11.1077
grassroots	-11.111
▁Christmas	-11.111
▁Confedera	-11.111
▁coordinator	-11.111
▁paramount	-11.111
▁privatisation	-11.111
▁transnational	-11.111
▁characterised	-11.1111
▁pave	-11.1112
▁footing	-11.1114
▁gases	-11.1127
▁airline	-11.1128
▁owe	-11.113
▁buying	-11.1139
▁3%	-11.1143
▁imperialist	-11.1146
▁escape	-11.1146
visual	-11.1146
▁managers	-11.115
▁gear	-11.1151
▁Ni	-11.116
▁allowances	-11.116
▁condemnation	-11.1164
▁outline	-11.1166
Africa	-11.1168
▁ineffective	-11.1172
▁Lithuanian	-11.1177
▁belonging	-11.1181
▁definitive	-11.1183
▁excellence	-11.1183
▁indispensable	-11.1183
▁refusal	-11.1183
▁emotion	-11.1183
▁railways	-11.1185
hood	-11.1187
▁disability	-11.1188
▁devise	-11.1191
▁entails	-11.1201
depth	-11.1205
▁constraints	-11.1219
▁deforestation	-11.1219
▁facilitation	-11.1219
▁volatility	-11.1219
▁Reding	-11.122
▁teachers	-11.1222
▁anywhere	-11.1225
▁stating	-11.1227
▁flu	-11.1233
▁fairer	-11.1239
▁vitally	-11.1239
▁revise	-11.1242
regional	-11.1242
▁accepting	-11.125
▁severely	-11.1254
▁fault	-11.1256
▁surplus	-11.1256
made	-11.1257
▁suspend	-11.1271
▁returned	-11.1275
establish	-11.1279
(2)	-11.1283
▁reviewed	-11.1284
▁terror	-11.129
▁accompany	-11.1293
▁exhaust	-11.1293
▁removing	-11.1293
▁demonstrations	-11.1308
▁preferences	-11.1309
▁swiftly	-11.1311
▁devote	-11.1327
▁confusion	-11.133
▁boat	-11.133
▁resettlement	-11.133
▁strange	-11.133
▁sole	-11.1336
▁earmarked	-11.1337
▁mu	-11.1338
▁backward	-11.1342
▁painful	-11.1357
▁extremism	-11.1367
▁Fourthly	-11.1373
▁electrical	-11.1383
▁governed	-11.1389
▁violate	-11.1394
▁throw	-11.1398
▁automatic	-11.1403
▁completion	-11.1404
▁abandoned	-11.1406
▁entail	-11.1423
▁units	-11.1429
▁tariffs	-11.1441
▁substantive	-11.1442
▁wholeheartedly	-11.1442
▁worried	-11.1442
▁earth	-11.1442
▁macroeconomic	-11.1443
▁allocate	-11.1456
▁Bureau	-11.1479
▁Moscow	-11.1479
▁synergies	-11.1479
▁harsh	-11.1479
▁organising	-11.1481
▁dare	-11.1487
turn	-11.1499
▁deadlines	-11.1503
▁ultimate	-11.1503
▁separation	-11.1517
▁radioactive	-11.1517
car	-11.1518
▁Ja	-11.1519
▁industrialised	-11.1524
▁pla	-11.153
▁depth	-11.1532
▁lowest	-11.1532
▁Dr	-11.1552
▁purchasing	-11.1555
▁Iraqi	-11.1562
▁Indian	-11.1564
▁selling	-11.1565
▁underlined	-11.1565
▁producer	-11.1568
▁govern	-11.1574
▁frequent	-11.1579
▁arrived	-11.158
lean	-11.1582
MA	-11.1586
fall	-11.1592
▁statute	-11.1593
▁confine	-11.1593
▁Combat	-11.1593
▁warrant	-11.1595
▁assured	-11.1596
hould	-11.1599
▁responded	-11.1603
human	-11.1622
▁Whilst	-11.1631
▁corridor	-11.1631
▁caught	-11.1632
▁Round	-11.1633
▁chairman	-11.1633
mark	-11.1636
93	-11.1637
▁expecting	-11.1647
▁defenders	-11.1648
▁sections	-11.1663
▁appalling	-11.1669
▁evasion	-11.1669
▁relocation	-11.1669
▁unequivocal	-11.1669
▁yield	-11.1669
▁Japanese	-11.167
▁isolated	-11.167
▁deployment	-11.1671
▁cod	-11.1683
▁testing	-11.1692
▁insecurity	-11.1708
▁Foundation	-11.1708
▁inevitably	-11.1708
AIDS	-11.1708
▁elite	-11.1708
Maritime	-11.1708
▁parliamentarian	-11.1708
arian	-11.172
▁cite	-11.1739
▁Pi	-11.1741
▁Caribbean	-11.1747
▁criterion	-11.1747
▁fashion	-11.1747
▁salaries	-11.1747
▁intensify	-11.1747
▁calm	-11.1747
▁preferred	-11.1747
CO	-11.1751
ugoslavia	-11.1752
EEC	-11.1755
fold	-11.1763
▁Sakharov	-11.1785
▁Stream	-11.1785
▁switch	-11.1785
▁Pacific	-11.1785
▁tight	-11.1786
▁Workers	-11.1789
▁poses	-11.1796
▁delayed	-11.1796
▁store	-11.1804
jo	-11.1814
▁exact	-11.1814
tabilisation	-11.1824
▁Statute	-11.1824
▁indirectly	-11.1824
▁linguistic	-11.1824
▁inspire	-11.1824
▁enforced	-11.1845
▁migrant	-11.1849
▁town	-11.1853
ther	-11.1859
▁petitions	-11.1863
▁Burmese	-11.1863
▁kilometre	-11.1863
▁racism	-11.1863
▁ILO	-11.1863
▁transformation	-11.1872
▁reminded	-11.188
▁lit	-11.1885
▁Gr	-11.1892
▁Asylum	-11.1903
▁agents	-11.1903
▁noise	-11.1904
▁eco	-11.1908
▁standardisation	-11.1908
▁momentum	-11.1911
active	-11.1922
▁150	-11.1926
▁envisage	-11.1928
▁secondary	-11.1929
▁manifest	-11.1942
▁Erasmus	-11.1942
▁HIV	-11.1942
▁Against	-11.1944
▁adding	-11.1947
▁teach	-11.1948
▁differently	-11.198
▁Poverty	-11.1981
▁Tuesday	-11.1981
▁decommissioning	-11.1981
▁Michel	-11.1981
▁depending	-11.1989
▁enjoyed	-11.1994
▁advocates	-11.1995
▁regulators	-11.1997
▁deprived	-11.2002
za	-11.2021
▁Scotland	-11.2021
▁incorrect	-11.2021
▁prioritise	-11.2021
▁automatically	-11.2022
▁delegated	-11.2025
▁ecosystems	-11.2037
▁components	-11.204
▁costly	-11.2044
▁Ferrero	-11.2061
▁Initiative	-11.2061
▁Vietnam	-11.2061
▁artificial	-11.2061
▁desperate	-11.2061
▁devastating	-11.2061
▁impartial	-11.2061
▁Would	-11.2063
▁Asian	-11.2073
▁qua	-11.2084
▁bonds	-11.2088
▁Progressiv	-11.209
Waldner	-11.2101
▁clarified	-11.2101
▁recital	-11.2101
▁slaughter	-11.2101
▁instruct	-11.2101
▁fulfilling	-11.2104
▁broadcast	-11.2109
▁capitalism	-11.2113
▁execut	-11.2114
▁accomplish	-11.2115
▁realities	-11.2117
▁simpler	-11.2121
▁reconcile	-11.2127
▁autonomous	-11.2127
▁privilege	-11.2127
▁Georgian	-11.213
minute	-11.213
▁passing	-11.2137
▁Recovery	-11.2141
▁Opening	-11.2141
▁winner	-11.2142
ruct	-11.2145
▁compensate	-11.2153
▁blow	-11.2168
▁fifth	-11.2181
▁girls	-11.2181
entrepreneurship	-11.2182
▁admitted	-11.2183
▁interpret	-11.2188
▁affordable	-11.2188
▁formally	-11.2197
▁protectionist	-11.2206
far	-11.2207
▁handled	-11.2208
▁driven	-11.2209
esterday	-11.2222
▁Resolution	-11.2222
▁Together	-11.2222
▁speculative	-11.2222
▁capture	-11.2222
▁consume	-11.2257
▁Meanwhile	-11.2263
▁demonstrating	-11.2263
▁impunity	-11.2263
▁split	-11.2263
▁communist	-11.2264
▁controlling	-11.2277
▁Austrian	-11.2282
▁Serbian	-11.2294
ulation	-11.2302
▁Mauritania	-11.2303
▁Ossetia	-11.2303
▁biometric	-11.2303
▁monopolies	-11.2303
▁complaint	-11.2303
▁selection	-11.2308
▁demanded	-11.2311
For	-11.2314
▁determin	-11.2326
fu	-11.2336
▁teaching	-11.2336
▁taxpayer	-11.2336
▁remote	-11.2344
▁electorate	-11.2344
▁Pan	-11.2345
▁guilty	-11.2346
▁transportation	-11.2353
▁recast	-11.2368
▁shut	-11.2377
▁understandable	-11.2379
▁foresee	-11.238
▁Her	-11.2383
▁recipient	-11.2386
▁Washington	-11.2386
▁vigilant	-11.2386
▁confuse	-11.2386
▁hide	-11.2386
▁preserving	-11.2387
▁supplementary	-11.2388
▁officers	-11.2389
▁rebuild	-11.2426
▁Lebanon	-11.2427
▁Political	-11.2427
▁marriage	-11.2427
▁interfere	-11.2427
▁bigger	-11.2429
▁courageous	-11.2429
▁offence	-11.243
▁normally	-11.243
▁invent	-11.2432
▁Each	-11.2432
▁Ru	-11.2443
▁70	-11.2444
▁violated	-11.2455
PS	-11.2459
▁enrich	-11.2468
▁apologise	-11.2468
▁diminish	-11.2468
▁drought	-11.2468
▁liberties	-11.2468
▁mainstream	-11.2468
▁profile	-11.2468
▁unanimity	-11.2468
▁utilise	-11.2468
▁vigorous	-11.2468
▁delete	-11.2474
▁boosting	-11.2478
▁cheaper	-11.248
▁drinking	-11.2487
▁depriv	-11.2488
atic	-11.2493
▁punished	-11.2499
▁abolished	-11.2506
▁postal	-11.2506
▁tri	-11.2509
▁Australia	-11.251
▁Merkel	-11.251
▁cluster	-11.251
▁delicate	-11.251
▁displaced	-11.251
▁auction	-11.251
▁ICT	-11.251
▁Brok	-11.2511
▁San	-11.2517
▁confront	-11.252
▁scheduled	-11.2523
▁updated	-11.2529
▁opponents	-11.253
▁encouragement	-11.2534
▁advocated	-11.2534
▁deepening	-11.2536
▁east	-11.2543
▁relief	-11.2552
▁repair	-11.2552
▁undermining	-11.2552
▁Jean	-11.2552
▁hydrogen	-11.2552
▁remarkable	-11.2555
▁frankly	-11.2561
place	-11.2567
▁officially	-11.2571
▁pushing	-11.2582
product	-11.2583
▁appropriately	-11.2584
▁conducting	-11.2593
▁cautious	-11.2594
▁unresolved	-11.2594
▁restriction	-11.2597
▁unite	-11.2597
▁bat	-11.2633
▁cooperating	-11.2636
▁generous	-11.2636
▁perpetrators	-11.2636
▁cofinancing	-11.2637
▁fell	-11.2646
EN	-11.2655
▁meaningful	-11.2657
▁65	-11.2672
▁GSP	-11.2678
▁Tajani	-11.2678
▁champion	-11.2678
▁divorce	-11.2678
▁rhetoric	-11.2678
▁absent	-11.2678
▁manipulat	-11.2678
▁underpin	-11.2679
▁appreciation	-11.2679
▁hoping	-11.2679
polluter	-11.2681
▁coup	-11.2686
everal	-11.27
▁compare	-11.2707
▁sustained	-11.2707
▁quo	-11.271
▁cereal	-11.2721
▁indigenous	-11.2721
▁technique	-11.2721
▁illness	-11.2724
▁renewal	-11.2726
▁appoint	-11.2734
▁Danish	-11.2764
▁Documents	-11.2764
▁Kenya	-11.2764
▁summary	-11.2764
▁surprising	-11.2764
▁educate	-11.2764
▁Egyptian	-11.2766
▁Berlin	-11.277
▁Directorate	-11.2774
tech	-11.2774
▁gold	-11.2775
▁attached	-11.2779
▁commission	-11.2788
▁Defence	-11.2807
▁viability	-11.2807
▁river	-11.2807
▁abide	-11.2807
▁launching	-11.2813
▁postponed	-11.282
▁EEAS	-11.282
▁fruitful	-11.2823
▁seal	-11.2827
bre	-11.2835
▁Abkhazia	-11.285
▁arbitrary	-11.285
▁attribut	-11.285
▁calculation	-11.285
▁underestimate	-11.285
▁phone	-11.285
▁risen	-11.2855
FA	-11.286
▁denounce	-11.2864
▁overcom	-11.2865
▁nationality	-11.2876
productive	-11.2884
▁undermined	-11.289
▁diet	-11.2891
▁lending	-11.2892
▁Conservative	-11.2892
▁bluefin	-11.2893
▁comitology	-11.2893
▁pursuit	-11.2893
▁alliance	-11.2893
▁multiple	-11.2894
▁flight	-11.2895
▁Eurostat	-11.2898
▁revealed	-11.2924
▁exceptionally	-11.2934
▁immense	-11.2936
▁deterioration	-11.2936
▁interrupt	-11.2936
▁circle	-11.2937
▁intense	-11.2937
RE	-11.2939
col	-11.2941
▁withdrawn	-11.2949
▁collect	-11.2963
▁flooding	-11.2967
interoperability	-11.298
▁Correction	-11.298
▁SWIFT	-11.298
▁embark	-11.298
▁typical	-11.298
▁architecture	-11.298
▁shipyards	-11.3006
▁transplant	-11.302
▁Personally	-11.3024
▁injured	-11.3024
▁ticket	-11.3024
▁awaiting	-11.3025
▁delivering	-11.3026
▁spare	-11.3028
▁originally	-11.304
▁Card	-11.3042
▁75	-11.3045
building	-11.3062
esumption	-11.3068
▁conscious	-11.3068
▁equipped	-11.3068
▁duly	-11.3068
▁luck	-11.3069
▁weapon	-11.3069
▁successes	-11.309
▁owners	-11.3095
▁assisting	-11.3096
60	-11.3098
known	-11.3103
ibility	-11.3109
▁Peace	-11.3112
▁aquaculture	-11.3112
▁resident	-11.3115
▁merge	-11.3119
▁exit	-11.3133
berg	-11.314
stitution	-11.314
▁aggressive	-11.3157
▁prejudice	-11.3157
▁province	-11.3157
▁occupied	-11.3157
▁biological	-11.3157
▁served	-11.316
▁alert	-11.316
▁fatal	-11.3175
▁excess	-11.3199
where	-11.32
▁assumption	-11.3201
▁enthusiasm	-11.3201
▁reconsider	-11.3201
▁Norway	-11.3202
▁250	-11.3203
▁ease	-11.3204
▁90	-11.3215
▁Forum	-11.3227
▁claimed	-11.3235
▁Govern	-11.3243
▁Federal	-11.3246
▁Nuclear	-11.3246
▁challenging	-11.3246
▁invitation	-11.3246
▁phrase	-11.3246
▁upcoming	-11.3246
▁rain	-11.3247
▁minimise	-11.3248
▁arrangement	-11.3251
▁Certainly	-11.3254
▁lobby	-11.3259
▁chose	-11.3285
▁homosexual	-11.3291
▁Friday	-11.3291
▁approving	-11.3291
▁flexicurity	-11.3291
▁gratitude	-11.3291
▁hypocrisy	-11.3291
▁Liberal	-11.3296
▁blocked	-11.3322
▁lobbying	-11.3323
▁ACTA	-11.3337
▁Coelho	-11.3337
▁centuries	-11.3337
▁guidance	-11.3337
▁preparatory	-11.3337
▁supplied	-11.3337
▁verify	-11.3337
▁Look	-11.3337
▁iron	-11.3338
▁Nice	-11.3341
▁urged	-11.3351
▁flood	-11.3355
submission	-11.3359
▁kill	-11.3374
▁concentrated	-11.3378
pped	-11.338
▁caution	-11.3382
▁council	-11.3382
▁Nigeria	-11.3382
▁Swoboda	-11.3382
▁contamination	-11.3382
▁geopolitical	-11.3382
▁silent	-11.3382
▁ruin	-11.3382
▁Warrant	-11.3383
▁pity	-11.3387
determination	-11.3423
▁convincing	-11.3428
▁cooperative	-11.3428
▁hatred	-11.3428
▁phenomena	-11.3428
▁visibility	-11.3428
▁render	-11.3428
▁assumed	-11.3428
▁quantity	-11.3429
▁75%	-11.3432
▁Currently	-11.3433
▁realisation	-11.3454
▁nationalism	-11.3456
▁facto	-11.346
▁prop	-11.3465
▁municipal	-11.3474
▁resolute	-11.3474
▁Arrest	-11.3474
▁borrow	-11.3474
▁echo	-11.3474
▁famous	-11.3474
▁refrain	-11.3474
▁struggling	-11.3474
▁curb	-11.3474
▁bail	-11.3474
▁scene	-11.3474
▁white	-11.3474
▁wasted	-11.3478
▁Tunisian	-11.348
▁modest	-11.3508
power	-11.3515
▁village	-11.352
▁experiment	-11.352
▁propaganda	-11.352
▁prudent	-11.352
▁tremendous	-11.352
▁leak	-11.352
▁Lama	-11.3523
eter	-11.3524
▁broken	-11.3525
▁trip	-11.3528
▁murdered	-11.354
▁Equal	-11.3564
▁volcan	-11.3566
▁Solana	-11.3566
▁affirm	-11.3566
▁airspace	-11.3566
▁intelligence	-11.3566
▁navigation	-11.3566
▁scarce	-11.3566
▁audio	-11.3566
▁mining	-11.3566
▁awarded	-11.3568
month	-11.357
▁misuse	-11.3571
▁alarm	-11.3581
▁fairness	-11.3581
▁grown	-11.3585
▁sadly	-11.3596
▁schedule	-11.3598
▁Closure	-11.3612
▁Dalai	-11.3612
▁diagnosis	-11.3612
▁disappointment	-11.3612
▁psychological	-11.3612
▁reception	-11.3612
▁stimulating	-11.3612
▁suppress	-11.3612
▁weather	-11.3612
▁quantities	-11.3613
▁deliberately	-11.3622
▁lengthy	-11.3622
ternal	-11.3641
▁whenever	-11.3649
▁broadcasting	-11.3649
▁Part	-11.3655
▁Annex	-11.3659
▁applicant	-11.3659
▁inevitable	-11.3659
▁Besides	-11.3659
▁drain	-11.3659
▁fortunate	-11.3659
▁contractual	-11.3659
▁readmission	-11.366
▁Anyone	-11.3661
▁complementary	-11.3662
▁continually	-11.3664
▁formation	-11.3667
▁postpone	-11.3689
▁acquire	-11.3692
▁eat	-11.3699
EGF	-11.3702
Ivoire	-11.3706
▁deplore	-11.3706
▁dismantling	-11.3706
▁eligibility	-11.3706
▁functional	-11.3709
ttle	-11.3711
▁camp	-11.372
terrorism	-11.375
▁slowly	-11.3751
19	-11.3753
▁Frattini	-11.3753
▁clothing	-11.3753
▁nutrition	-11.3753
▁lifestyle	-11.3755
▁smoke	-11.3756
▁III	-11.376
▁pushed	-11.3763
▁seriousness	-11.3786
▁station	-11.3794
▁uncertain	-11.38
▁guard	-11.38
CFSP	-11.3801
▁Gaddafi	-11.3801
▁SOLVIT	-11.3801
▁eradicate	-11.3801
▁infection	-11.3801
▁promising	-11.3801
▁reputation	-11.3801
▁vague	-11.3801
▁conceal	-11.3801
▁Eurojust	-11.3801
▁insult	-11.3801
▁accessibility	-11.3805
▁limitations	-11.3805
▁acquired	-11.3815
▁expresses	-11.3821
▁deeper	-11.3824
HR	-11.3844
▁mixed	-11.3848
dvisory	-11.3848
▁Communities	-11.3848
▁film	-11.3848
either	-11.3849
aries	-11.3853
▁Sahara	-11.387
take	-11.3873
▁mobilised	-11.3873
▁sooner	-11.388
makers	-11.3893
▁Turkmenistan	-11.3896
▁Uganda	-11.3896
▁gesture	-11.3896
▁loophole	-11.3896
▁modification	-11.3896
▁relevance	-11.3896
▁stood	-11.3896
▁tuberculosis	-11.3896
▁behave	-11.3896
▁plus	-11.3896
▁complied	-11.3905
▁skilled	-11.3905
▁medicine	-11.3909
▁Cuban	-11.3919
▁disagreement	-11.3926
▁definite	-11.393
ium	-11.3932
▁concerted	-11.3944
▁integrating	-11.3944
▁liberty	-11.3944
▁suspicion	-11.3944
▁moderate	-11.3944
▁dollar	-11.3944
▁dictate	-11.3946
▁cancel	-11.3946
▁handle	-11.3955
▁separately	-11.3956
▁broaden	-11.3961
▁makers	-11.3973
▁discriminatory	-11.3983
▁broke	-11.3987
▁Particular	-11.3993
▁chief	-11.3993
▁unconditional	-11.3993
▁Kallas	-11.3993
▁livelihood	-11.3993
▁vaccination	-11.3993
▁Data	-11.3993
▁occupy	-11.3993
empt	-11.3995
▁specified	-11.3996
▁suddenly	-11.4003
▁custom	-11.4004
▁Gra	-11.4012
▁expanding	-11.4024
▁48	-11.4033
RC	-11.4038
financial	-11.4039
▁secretariat	-11.4041
▁worthwhile	-11.4041
▁biogas	-11.4041
▁coverage	-11.4047
ica	-11.4058
▁driver	-11.4066
▁600	-11.4074
▁Libyan	-11.4088
▁exposure	-11.409
▁migratory	-11.409
▁Dimas	-11.409
▁GMOs	-11.409
▁loud	-11.409
▁Drug	-11.409
▁motivated	-11.4095
pping	-11.4126
▁condolences	-11.4139
▁emergence	-11.4139
▁harmonising	-11.4139
▁substitute	-11.4139
▁hamper	-11.4139
14	-11.4142
▁imbalance	-11.4155
▁tension	-11.4155
▁mitigate	-11.4157
▁structured	-11.4167
▁Ver	-11.4167
▁tender	-11.4173
▁shameful	-11.4173
▁cruel	-11.4181
ultiannual	-11.4188
▁Supervisor	-11.4188
▁imprisonment	-11.4188
▁interconnection	-11.4188
▁brain	-11.4188
upreme	-11.4188
▁Based	-11.4189
▁music	-11.419
▁occurring	-11.419
▁banning	-11.4192
▁plain	-11.4201
▁noticed	-11.422
▁slight	-11.4225
▁trap	-11.4227
40	-11.4229
▁sentenced	-11.423
ultural	-11.4237
▁commemorat	-11.4238
▁Congress	-11.4238
▁identical	-11.4238
▁ocean	-11.4238
▁emit	-11.4238
▁unit	-11.4239
▁site	-11.4252
▁accord	-11.4255
▁SME	-11.4256
▁investigated	-11.4261
how	-11.4265
pidla	-11.4287
▁EFD	-11.4287
▁Eurobonds	-11.4287
▁Fukushima	-11.4287
▁Lampedusa	-11.4287
▁aggression	-11.4287
▁commodities	-11.4287
▁commodity	-11.4287
▁consolidating	-11.4287
▁injustice	-11.4287
▁pattern	-11.4287
▁unclear	-11.4287
▁clash	-11.4287
▁memory	-11.4287
▁club	-11.4287
▁pool	-11.4287
▁solar	-11.4288
▁proportionate	-11.4294
▁34	-11.4301
▁45	-11.4308
▁confronted	-11.4314
LV	-11.4315
ER	-11.4319
▁Nord	-11.432
▁broadly	-11.4324
▁Next	-11.4337
▁diversify	-11.4337
▁feasible	-11.4337
▁guiding	-11.4337
▁practise	-11.4337
▁senior	-11.4337
▁empower	-11.4337
▁Stalin	-11.4337
▁simultaneously	-11.4341
▁deregulation	-11.4342
▁deepen	-11.4367
▁evaluated	-11.4369
▁prohibited	-11.4374
public	-11.4386
▁ASEAN	-11.4388
▁competitors	-11.4388
▁detained	-11.4388
▁eligible	-11.4388
▁encompass	-11.4388
▁prosecution	-11.4388
▁tabling	-11.4388
▁twenty	-11.4388
▁defeat	-11.4388
▁inhumane	-11.4388
▁missed	-11.4389
▁lifting	-11.4392
▁pending	-11.4392
▁finished	-11.4393
▁Nordic	-11.4403
▁journalist	-11.4408
▁correction	-11.4411
▁Statement	-11.4418
zo	-11.4431
commerce	-11.4438
▁authoritarian	-11.4438
▁virtue	-11.4438
▁massacre	-11.4438
▁Costa	-11.4438
▁acute	-11.4438
▁annex	-11.4438
▁coalition	-11.4439
drew	-11.4449
▁formulated	-11.4453
▁translate	-11.4475
▁conditional	-11.4477
▁childcare	-11.4489
▁democracies	-11.4489
▁epidemic	-11.4489
▁evaluating	-11.4489
▁rank	-11.4489
▁extraction	-11.4492
▁rebel	-11.4499
burg	-11.4518
▁120	-11.4526
▁mortality	-11.454
▁responsibly	-11.454
▁spouses	-11.454
▁Water	-11.454
▁EPAs	-11.454
▁optimistic	-11.4541
▁rush	-11.4541
▁scandalous	-11.4541
nate	-11.4543
▁weekend	-11.4545
▁viewpoint	-11.4549
▁arisen	-11.4561
▁loan	-11.4563
▁explicit	-11.4577
regulation	-11.4589
ordinate	-11.459
▁Maastricht	-11.4591
▁conservative	-11.4591
▁discretion	-11.4591
▁football	-11.4591
▁portfolio	-11.4591
▁reliability	-11.4591
MDG	-11.4591
▁dying	-11.4591
▁km	-11.4592
▁sick	-11.4593
▁hostage	-11.4594
water	-11.4595
▁FTA	-11.4595
head	-11.461
▁700	-11.461
lat	-11.4634
▁charged	-11.4639
▁Fortunately	-11.4643
▁advocating	-11.4643
▁calculate	-11.4643
▁reintegration	-11.4644
▁duplication	-11.4645
▁saved	-11.4651
cap	-11.4656
▁worry	-11.4663
▁Korean	-11.4677
83	-11.468
▁bull	-11.4693
colonial	-11.4695
▁outbreak	-11.4695
▁precautionary	-11.4695
▁dramatically	-11.4697
speed	-11.4698
▁36	-11.4713
action	-11.4732
▁GM	-11.4742
▁149(8))	-11.4747
▁Almunia	-11.4747
▁Hague	-11.4747
▁Prague	-11.4747
▁Transparency	-11.4747
▁fragmentation	-11.4747
▁intercultural	-11.4747
▁pornography	-11.4747
▁dementia	-11.4747
▁partially	-11.4747
▁restoring	-11.4747
▁genetically	-11.4747
▁spot	-11.4751
▁transplantation	-11.4752
▁Fac	-11.4758
▁weaker	-11.477
▁crop	-11.4777
▁alleviate	-11.4793
▁optimis	-11.4794
▁inspect	-11.4796
▁machine	-11.4798
Bendit	-11.4799
▁philosophy	-11.4799
▁sensitivity	-11.4799
▁cyber	-11.4799
▁tongue	-11.4799
▁knew	-11.4799
▁Relations	-11.4799
▁brave	-11.4799
▁Rather	-11.48
▁recruitment	-11.4801
▁Order	-11.4801
▁transposed	-11.4809
▁prohibition	-11.4817
▁EIT	-11.4827
▁collecting	-11.4837
▁neutral	-11.4849
dict	-11.4849
▁equip	-11.485
Explanation	-11.4852
▁accumulat	-11.4852
▁falsified	-11.4852
▁logistics	-11.4852
▁prosperous	-11.4852
▁telephone	-11.4852
▁Cohn	-11.4852
▁convert	-11.4852
▁marginal	-11.4859
paid	-11.4861
▁explore	-11.488
sided	-11.4896
▁Three	-11.4905
▁Whether	-11.4905
▁congestion	-11.4905
▁disappointing	-11.4905
▁generating	-11.4905
▁readiness	-11.4905
▁relax	-11.4905
▁Opel	-11.4905
▁wholly	-11.4905
developed	-11.4907
▁Tax	-11.4907
▁nice	-11.4907
cycle	-11.4908
▁differentiate	-11.4911
new	-11.4912
▁discriminated	-11.4915
▁55	-11.4922
▁renew	-11.4932
▁contradict	-11.4935
▁eating	-11.4952
▁eliminated	-11.4955
▁bankrupt	-11.4957
▁Lehne	-11.4958
▁aforementioned	-11.4958
▁devices	-11.4958
▁imprisoned	-11.4958
▁premise	-11.4958
▁tendency	-11.4958
▁veto	-11.4958
▁boundaries	-11.4958
▁Good	-11.4959
▁activat	-11.496
▁profitable	-11.4965
▁cure	-11.4968
▁passive	-11.4968
ED	-11.4972
▁oblige	-11.4997
▁oppress	-11.5008
▁Dialogue	-11.5011
▁accusations	-11.5011
▁charter	-11.5011
▁circulation	-11.5011
▁entrust	-11.5011
▁implies	-11.5011
▁junta	-11.5011
▁prize	-11.5011
▁refusing	-11.5011
▁relaunch	-11.5011
▁temperature	-11.5011
▁dozen	-11.5011
▁reactors	-11.5016
uite	-11.5038
ttering	-11.5039
▁street	-11.5041
▁formulate	-11.5053
▁strongest	-11.5053
misunderstanding	-11.5065
▁CFP	-11.5065
▁Chernobyl	-11.5065
▁exemplary	-11.5065
▁poultry	-11.5065
▁repressive	-11.5065
▁Daul	-11.5065
▁Finance	-11.5065
▁remedi	-11.5065
▁Basel	-11.5065
life	-11.5069
▁cash	-11.5072
▁Croatian	-11.5084
▁interpreted	-11.5094
▁sanction	-11.5096
▁preference	-11.5098
▁fat	-11.51
▁33	-11.5102
▁Operation	-11.5119
▁forefront	-11.5119
▁manoeuvre	-11.5119
▁prolong	-11.5119
▁prosecute	-11.5119
▁unequal	-11.5119
▁worsening	-11.5122
▁student	-11.5151
▁conventional	-11.5165
▁shocking	-11.517
▁Agricultural	-11.5173
▁McCreevy	-11.5173
▁hygiene	-11.5173
▁prescription	-11.5173
▁tailor	-11.5173
▁grip	-11.5174
▁telecom	-11.5188
▁pig	-11.5202
▁ecosystem	-11.5206
▁Refugee	-11.5228
▁exercising	-11.5228
▁intolerance	-11.5228
▁landscape	-11.5228
▁hunt	-11.5228
▁grand	-11.5228
▁entity	-11.5228
mail	-11.5228
▁stepping	-11.5237
▁guided	-11.5257
▁spec	-11.5268
omposition	-11.5282
▁Border	-11.5283
▁Cotonou	-11.5283
▁conjunction	-11.5283
▁regain	-11.5283
▁odd	-11.5283
▁methodology	-11.5284
balanced	-11.5287
▁allowance	-11.529
▁mediation	-11.5295
▁deployed	-11.5304
▁distinct	-11.533
▁Further	-11.5338
▁Harbour	-11.5338
▁continuity	-11.5338
▁frozen	-11.5338
▁unsatisfactory	-11.5338
▁flagship	-11.5339
▁God	-11.5342
card	-11.5346
▁politician	-11.5374
▁corrupt	-11.5391
▁Corbett	-11.5394
▁Management	-11.5394
▁deficiencies	-11.5394
▁opposing	-11.5394
▁predecessor	-11.5394
▁compliment	-11.5394
▁elaborat	-11.5394
▁excise	-11.5394
▁reimbursement	-11.5394
▁summarise	-11.5394
▁barely	-11.5394
▁competing	-11.5394
▁Blue	-11.5394
▁assistants	-11.5394
▁contradictory	-11.5394
▁codification	-11.5394
▁prostitution	-11.5395
democratic	-11.5396
SMEs	-11.5399
▁weigh	-11.5419
tory	-11.5433
▁disrupt	-11.5436
▁Again	-11.5447
aught	-11.5448
▁Klaus	-11.545
▁School	-11.545
▁ridiculous	-11.545
▁Sometimes	-11.545
▁scrap	-11.5451
▁undemocratic	-11.5452
▁DG	-11.5457
stay	-11.5461
▁disruption	-11.5463
▁flee	-11.5471
▁Campania	-11.5506
▁England	-11.5506
▁imposition	-11.5506
▁striking	-11.5506
▁certificate	-11.5506
▁horse	-11.5506
▁comprise	-11.5506
▁grid	-11.5508
▁Much	-11.551
▁persecuted	-11.5513
track	-11.5516
▁anticipated	-11.552
▁Former	-11.5522
▁argued	-11.554
mple	-11.5542
▁hazard	-11.5561
▁Jerusalem	-11.5562
▁Mechanism	-11.5562
▁OECD	-11.5562
▁ceasefire	-11.5562
▁mobilising	-11.5562
▁speculators	-11.5562
▁colour	-11.5562
▁unjustified	-11.5563
▁Aid	-11.5565
▁wh	-11.5567
contract	-11.5568
▁bid	-11.5578
▁Bear	-11.5583
vez	-11.5583
BP	-11.5596
0%	-11.5598
▁extract	-11.5616
valuation	-11.5618
ERDF	-11.5619
▁comfort	-11.5619
▁decentralised	-11.5619
▁hitherto	-11.5619
▁incompatible	-11.5619
▁maximis	-11.5619
▁negotiator	-11.5619
▁prerogative	-11.5619
▁prominent	-11.5619
▁scanners	-11.5619
▁synergy	-11.5619
▁unambiguous	-11.5619
▁renovat	-11.5619
▁mistaken	-11.5637
▁Product	-11.5676
▁Section	-11.5676
▁injuries	-11.5676
▁perception	-11.5676
▁screening	-11.5676
▁capability	-11.5677
▁diploma	-11.5733
▁xenophobia	-11.5734
▁dismiss	-11.5734
▁bankruptcy	-11.5734
▁supervise	-11.5735
Europe	-11.5735
▁Visa	-11.5736
▁replacing	-11.5742
▁replacement	-11.5746
value	-11.5753
▁deploy	-11.5769
▁analysed	-11.5783
▁1980	-11.5792
▁Ecofin	-11.5792
▁engaging	-11.5792
▁upheld	-11.5792
▁wheel	-11.5792
▁Aviation	-11.5792
▁inherent	-11.5792
▁breath	-11.5792
▁designated	-11.5795
▁Very	-11.5799
▁Nazi	-11.58
▁somewhere	-11.5802
▁Pakistani	-11.5805
▁reinforcement	-11.5805
MI	-11.5809
▁ESF	-11.5812
▁promptly	-11.5817
▁Post	-11.5829
▁provisional	-11.5833
▁barrier	-11.5835
▁manufacturer	-11.5835
▁Monitoring	-11.585
▁anybody	-11.585
▁cyanide	-11.585
▁harassment	-11.585
▁quantitative	-11.585
▁intolerable	-11.585
▁weakness	-11.585
▁EPP	-11.5854
employment	-11.5855
class	-11.5857
▁privileged	-11.5871
Saharan	-11.5881
▁anticipate	-11.5894
▁Kurdish	-11.5908
▁Organization	-11.5908
▁Verhofstadt	-11.5908
▁pregnant	-11.5908
▁duration	-11.5908
▁desertification	-11.5908
▁guardian	-11.5909
▁dominated	-11.5914
ella	-11.592
▁Up	-11.5923
▁translated	-11.5925
▁37	-11.5934
▁designation	-11.5945
▁operator	-11.5954
▁liquid	-11.5965
▁quant	-11.5965
▁Delegation	-11.5967
▁Strategic	-11.5967
▁Sunday	-11.5967
▁blatant	-11.5967
▁degradation	-11.5967
▁secular	-11.5967
▁striving	-11.5967
▁afterwards	-11.5967
▁downturn	-11.5971
▁800	-11.5973
▁alive	-11.5974
▁Jan	-11.598
eath	-11.6023
▁Administration	-11.6026
▁contributor	-11.6026
▁discourage	-11.6026
▁equitable	-11.6026
▁indicating	-11.6026
▁legislate	-11.6026
▁unsustainable	-11.6026
▁venture	-11.6026
▁slavery	-11.6027
▁fulfilment	-11.6038
▁Cap	-11.6069
▁indicator	-11.6074
dependent	-11.6081
▁Canadian	-11.6086
▁Chancellor	-11.6086
▁League	-11.6086
▁Tribunal	-11.6086
▁absorb	-11.6086
▁completing	-11.6086
▁proclaim	-11.6086
▁stabilising	-11.6086
▁Six	-11.6086
▁obstruct	-11.6086
▁Due	-11.6086
▁master	-11.6088
trade	-11.6091
sighted	-11.6115
▁organic	-11.612
▁List	-11.6132
▁topical	-11.6137
▁Ministry	-11.6146
▁Piebalgs	-11.6146
▁ideology	-11.6146
▁overview	-11.6146
▁shaping	-11.6146
▁Cross	-11.6146
▁likewise	-11.6146
▁intent	-11.6146
▁unrest	-11.6146
▁classification	-11.6147
▁foreseen	-11.6154
▁entirety	-11.6156
lessness	-11.6162
▁frank	-11.6192
▁originat	-11.6197
Rapporteur	-11.6206
▁Goldstone	-11.6206
▁Measures	-11.6206
▁Saudi	-11.6206
▁analysing	-11.6206
▁eradication	-11.6206
▁roadmap	-11.6206
▁transmit	-11.6206
▁harvest	-11.6206
▁Recently	-11.6216
▁David	-11.6266
▁Florenz	-11.6266
▁hectare	-11.6266
▁supranational	-11.6266
▁illusion	-11.6266
▁Sudanese	-11.6266
▁specify	-11.6267
▁permission	-11.6269
change	-11.6276
Parliament	-11.6276
▁forgetting	-11.6281
▁explor	-11.6295
▁announce	-11.6304
▁Environmental	-11.6316
▁pocket	-11.6327
▁Draft	-11.6327
▁ignoring	-11.6327
▁impressive	-11.6327
▁pandemic	-11.6327
▁prescrib	-11.6327
▁qualitative	-11.6327
▁Doyle	-11.6327
▁derivatives	-11.6327
▁grasp	-11.6327
▁salary	-11.6327
▁Sky	-11.6327
▁pride	-11.6327
▁Undertaking	-11.6328
▁cold	-11.6335
compliance	-11.6338
▁importers	-11.6343
▁ratio	-11.6352
▁glo	-11.6357
▁exchang	-11.6359
▁allocat	-11.6375
omic	-11.6382
▁catastrophic	-11.6389
▁coexistence	-11.6389
▁expectancy	-11.6389
▁hidden	-11.6389
▁plenty	-11.6389
▁unregulated	-11.6389
▁taught	-11.639
▁marginalised	-11.639
▁Poles	-11.6391
▁Peter	-11.6391
▁persistent	-11.6393
▁sand	-11.6394
financing	-11.6398
social	-11.64
CAP	-11.64
East	-11.6402
▁Creat	-11.6403
▁classes	-11.6407
▁fix	-11.6428
▁Buzek	-11.645
▁frequency	-11.645
▁presidencies	-11.645
▁stereotypes	-11.645
▁unusual	-11.645
▁slogan	-11.645
▁walk	-11.6451
▁oversight	-11.6451
▁carries	-11.6454
▁neo	-11.6455
▁43	-11.6464
▁specialised	-11.6467
usz	-11.6482
▁dogma	-11.6487
ommercial	-11.6511
▁Nobody	-11.6513
▁Oettinger	-11.6513
▁loyal	-11.6513
▁precedence	-11.6513
▁retention	-11.6513
▁subsidy	-11.6513
▁dark	-11.6513
▁box	-11.6513
▁inquiry	-11.6513
▁talent	-11.6513
▁travellers	-11.6513
▁interaction	-11.6514
▁ministerial	-11.6515
▁rotat	-11.6516
▁committing	-11.6519
Cypriot	-11.6575
▁Cashman	-11.6575
▁Catholic	-11.6575
▁REACH	-11.6575
▁Swiss	-11.6575
▁Ultimately	-11.6575
▁chaos	-11.6575
▁subsidise	-11.6575
▁surface	-11.6575
▁furthermore	-11.6575
▁reopen	-11.6575
▁incapable	-11.6575
▁steer	-11.6575
▁leverage	-11.6576
▁Lange	-11.658
▁observer	-11.658
▁TV	-11.6582
▁submitting	-11.6583
discriminatory	-11.6587
2004	-11.6587
▁exacerbated	-11.6589
commun	-11.6605
PE	-11.6609
some	-11.6613
▁recruit	-11.6636
▁choosing	-11.6638
▁disarmament	-11.6638
▁munitions	-11.6638
market	-11.6654
▁bloc	-11.6665
looking	-11.668
▁resume	-11.6687
▁basin	-11.67
▁Thailand	-11.6701
▁advertise	-11.6701
▁dominant	-11.6701
▁expire	-11.6701
▁premature	-11.6701
▁provoke	-11.6701
▁scourge	-11.6701
▁branch	-11.6701
▁proving	-11.6701
▁Islands	-11.6701
▁rocket	-11.6703
▁Road	-11.6706
people	-11.6714
▁vessel	-11.6762
▁Children	-11.6765
▁straightforward	-11.6765
▁temporarily	-11.6765
▁unrealistic	-11.6765
▁tactic	-11.6765
▁pretend	-11.6765
▁window	-11.6767
missile	-11.677
▁thrown	-11.6775
▁freeze	-11.6776
start	-11.6808
▁Church	-11.6829
▁Jouyet	-11.6829
▁bought	-11.6829
▁preferential	-11.6829
▁pupils	-11.6829
▁parental	-11.6829
▁restoration	-11.6829
▁sentiment	-11.6829
▁liable	-11.6829
▁neutrality	-11.6832
▁upgrade	-11.6842
▁sun	-11.6853
▁Likewise	-11.6894
▁Temporary	-11.6894
▁backdrop	-11.6894
▁demonstrators	-11.6894
▁evolve	-11.6894
▁parameters	-11.6894
▁populist	-11.6894
▁EDF	-11.6894
▁Strip	-11.6894
▁ENP	-11.6894
▁domain	-11.6894
▁Robert	-11.6894
▁blackmail	-11.6894
▁slip	-11.6895
▁Wallis	-11.6896
▁somehow	-11.6904
increasing	-11.6908
▁occupational	-11.6918
(1)	-11.6942
▁reside	-11.6946
▁irregular	-11.6958
▁Taliban	-11.6959
▁chronic	-11.6959
▁evolution	-11.6959
▁obligatory	-11.6959
▁wood	-11.6959
▁unlawful	-11.6959
▁verification	-11.6959
▁conditionality	-11.6961
▁Brazilian	-11.6962
▁perceived	-11.6966
▁estimate	-11.7009
MS	-11.7017
▁authentic	-11.7024
▁immigrant	-11.7024
▁influx	-11.7024
▁minimal	-11.7024
▁perpetrated	-11.7024
▁reciprocal	-11.7024
▁remuneration	-11.7024
▁CIA	-11.7024
▁fingerprints	-11.7024
▁1.5	-11.7036
tress	-11.707
▁Liechtenstein	-11.709
▁cabotage	-11.709
▁somebody	-11.709
▁unwilling	-11.709
▁Gross	-11.709
▁Surely	-11.709
▁evil	-11.709
▁resign	-11.709
▁artists	-11.709
liberal	-11.7105
▁Albanian	-11.714
▁sudden	-11.7142
ransatlantic	-11.7155
▁Bangladesh	-11.7156
▁Competition	-11.7156
▁Countries	-11.7156
▁Customs	-11.7156
▁Review	-11.7156
▁University	-11.7156
▁arrival	-11.7156
▁licensing	-11.7156
▁modify	-11.7156
▁mortgage	-11.7156
▁rethink	-11.7156
▁traffickers	-11.7156
▁virus	-11.7156
▁wrote	-11.7156
▁Minsk	-11.7156
NTE	-11.7156
▁blockade	-11.7157
▁brand	-11.7159
▁panel	-11.7161
▁Right	-11.7165
sembl	-11.7169
▁exacerbate	-11.7208
▁Colombia	-11.7223
▁attentive	-11.7223
▁bargaining	-11.7223
▁confidentiality	-11.7223
▁famine	-11.7223
▁uncontrolled	-11.7223
▁cultivation	-11.7224
▁validity	-11.723
group	-11.7238
private	-11.7239
olvency	-11.7246
step	-11.7255
89	-11.7266
case	-11.7268
▁possess	-11.7279
▁Berlusconi	-11.729
▁Kazakhstan	-11.729
▁cohesive	-11.729
▁harmonious	-11.729
▁intimidation	-11.729
▁paternity	-11.729
▁recourse	-11.729
▁varied	-11.729
▁welcoming	-11.729
▁fibre	-11.729
▁outrageous	-11.729
▁unjust	-11.7291
▁Bush	-11.7291
▁mitigation	-11.7292
style	-11.7295
Accession	-11.7298
2011	-11.7306
competitive	-11.7306
version	-11.7307
▁charging	-11.7357
▁cigarette	-11.7357
▁wound	-11.7357
▁vice	-11.7361
▁shot	-11.7363
▁countless	-11.7365
▁midst	-11.7368
catch	-11.7374
food	-11.7374
▁insert	-11.7375
▁complicat	-11.7404
▁minimis	-11.7423
▁Malaysia	-11.7425
▁Mitchell	-11.7425
▁measuring	-11.7425
▁nomination	-11.7425
▁reluctant	-11.7425
▁temptation	-11.7425
▁Leinen	-11.7425
▁pretty	-11.7425
▁wild	-11.7425
▁urging	-11.7425
intensive	-11.7443
▁disgrace	-11.7472
▁1995	-11.7494
▁Euratom	-11.7494
▁Executive	-11.7494
▁Training	-11.7494
▁antibiotic	-11.7494
▁beneficiary	-11.7494
▁curtail	-11.7494
▁mercury	-11.7494
▁unbundling	-11.7494
▁timing	-11.7494
▁distress	-11.7495
▁selective	-11.7498
▁postponement	-11.7498
centr	-11.7521
risk	-11.7526
egislative	-11.7562
▁Assistance	-11.7563
▁frustration	-11.7563
▁nowadays	-11.7563
▁seasonal	-11.7563
▁Gauz	-11.7563
▁Oomen	-11.7563
▁rehabilitat	-11.7563
▁upgrading	-11.7563
▁trace	-11.7563
▁formulation	-11.7568
▁tries	-11.7581
▁combin	-11.7592
deplet	-11.7598
▁drink	-11.76
▁Access	-11.7623
7-02	-11.7632
Ruijten	-11.7632
▁Bahrain	-11.7632
▁Mundus	-11.7632
▁biomass	-11.7632
▁obesity	-11.7632
▁undeclared	-11.7632
▁conferr	-11.7632
▁admission	-11.7633
▁churches	-11.7636
▁optimism	-11.7639
▁supplier	-11.764
▁employee	-11.7641
ploy	-11.77
▁Eurovignette	-11.7702
▁Prevention	-11.7702
▁celebrating	-11.7702
▁contempt	-11.7702
▁fabric	-11.7702
▁hypocritical	-11.7702
▁milestone	-11.7702
▁nonsense	-11.7702
▁outlook	-11.7702
▁utilisation	-11.7702
▁ETS	-11.7702
▁Nothing	-11.7702
▁Eurogroup	-11.7703
▁Parties	-11.7704
▁unknown	-11.7706
▁stopping	-11.7707
▁centralised	-11.7713
▁confrontation	-11.7719
▁Arabia	-11.7723
sharing	-11.7724
effective	-11.7741
▁deliberate	-11.7759
▁disseminat	-11.777
▁Immigration	-11.7773
▁Madrid	-11.7773
▁Police	-11.7773
▁adjourned	-11.7773
▁arguing	-11.7773
▁breakthrough	-11.7773
▁dismantle	-11.7773
▁offensive	-11.7773
▁smuggling	-11.7773
▁undeniabl	-11.7773
▁vulnerability	-11.7773
▁administer	-11.7773
▁John	-11.7773
▁assuming	-11.7773
▁oppression	-11.7777
ON	-11.7788
minded	-11.7806
LE	-11.7836
▁occurrence	-11.7843
▁revive	-11.7843
▁freezing	-11.7844
▁novel	-11.7844
▁anchor	-11.7844
▁deadlock	-11.7844
▁tune	-11.7845
▁besides	-11.7849
▁modernising	-11.785
stepped	-11.7852
▁feet	-11.7857
enterprises	-11.7864
which	-11.7864
▁atrocities	-11.7915
▁consular	-11.7915
▁deliberations	-11.7915
▁embargo	-11.7915
▁petrol	-11.7915
▁premium	-11.7915
▁refund	-11.7915
▁motto	-11.7915
▁Everything	-11.7915
▁repay	-11.7915
▁revising	-11.7915
▁quiet	-11.7915
▁sceptical	-11.7915
▁frame	-11.7916
▁Overall	-11.7918
▁enact	-11.7918
▁interpreters	-11.792
▁passage	-11.7922
book	-11.7938
▁flat	-11.7956
▁transpose	-11.7972
6-04	-11.7987
▁Capital	-11.7987
▁Situation	-11.7987
▁altogether	-11.7987
▁departure	-11.7987
▁levy	-11.7987
▁provocation	-11.7987
▁roaming	-11.7987
▁scrutinise	-11.7987
▁timeframe	-11.7987
▁steel	-11.7987
sponsor	-11.7987
▁unused	-11.7987
▁tree	-11.7994
▁affair	-11.8
third	-11.8008
▁dispos	-11.8055
▁capita	-11.8056
▁militari	-11.8059
▁Eritrea	-11.8059
▁Package	-11.8059
▁Railway	-11.8059
▁addiction	-11.8059
▁arriving	-11.8059
▁correlation	-11.8059
▁cosmetic	-11.8059
▁enforcing	-11.8059
▁expulsion	-11.8059
▁thrust	-11.8059
▁goodwill	-11.8059
▁dissemination	-11.8062
▁winter	-11.8064
▁redefin	-11.8131
▁comparative	-11.8132
▁beautiful	-11.8132
▁cancellation	-11.8132
▁incurred	-11.8132
▁tragedies	-11.8132
▁invasion	-11.8132
▁overseas	-11.8132
▁supermarket	-11.8133
▁1989	-11.8134
▁metres	-11.814
▁overlap	-11.8145
range	-11.8161
(3)	-11.8193
▁hydro	-11.8205
Terrorism	-11.8206
▁Azores	-11.8206
▁Medvedev	-11.8206
▁command	-11.8206
▁legacy	-11.8206
▁precious	-11.8206
▁corner	-11.8206
▁updating	-11.8206
▁multilingualism	-11.8206
▁crew	-11.8207
▁incidentally	-11.8208
▁conformity	-11.8208
▁disappearance	-11.821
▁refuge	-11.8264
▁compound	-11.828
▁incredible	-11.828
▁Putin	-11.828
▁machinery	-11.8281
▁possession	-11.8292
▁transferr	-11.8307
nterim	-11.8345
taking	-11.8352
▁Colleagues	-11.8354
▁Facility	-11.8354
▁Manuel	-11.8354
▁UKIP	-11.8354
▁Universal	-11.8354
▁abstention	-11.8354
▁extradition	-11.8354
▁fraudulent	-11.8354
▁imminent	-11.8354
▁incorporating	-11.8354
▁mutilation	-11.8354
▁offshore	-11.8354
▁patience	-11.8354
▁pioneer	-11.8354
▁enthusiastic	-11.8355
▁verdict	-11.8355
▁distant	-11.8355
tropical	-11.8355
▁uprising	-11.8355
▁liais	-11.8355
▁trick	-11.8357
▁discriminate	-11.8415
▁1994	-11.843
▁Albertini	-11.843
▁Presidencies	-11.843
▁asbestos	-11.843
▁juncture	-11.843
▁modulation	-11.843
▁rigid	-11.843
▁symptom	-11.843
▁hesitate	-11.843
▁Sadly	-11.843
▁lever	-11.8432
tariff	-11.8454
obb	-11.8475
euro	-11.8482
▁Lamassoure	-11.8505
▁Madagascar	-11.8505
▁Rasmussen	-11.8505
▁circumvent	-11.8505
▁cloning	-11.8505
▁college	-11.8505
▁default	-11.8505
▁dignified	-11.8505
▁disclosure	-11.8505
▁inconsistent	-11.8505
▁roughly	-11.8505
onourable	-11.8505
▁lagging	-11.8505
▁militarisation	-11.8505
▁peacekeeping	-11.8507
▁profitability	-11.8508
ocracy	-11.8508
▁Maybe	-11.851
▁1970	-11.8582
▁Additional	-11.8582
▁ESDP	-11.8582
▁Google	-11.8582
▁Official	-11.8582
▁Sustainable	-11.8582
▁Trichet	-11.8582
▁Violence	-11.8582
▁chamber	-11.8582
▁influenza	-11.8582
▁motivation	-11.8582
▁tendencies	-11.8582
▁harmony	-11.8582
▁bread	-11.8582
▁shipbuilding	-11.8582
house	-11.861
Wolski	-11.8659
scrupulous	-11.8659
▁Gucht	-11.8659
▁Secretariat	-11.8659
▁Things	-11.8659
▁absorption	-11.8659
▁applause	-11.8659
▁commence	-11.8659
▁deteriorate	-11.8659
▁embrace	-11.8659
▁steadily	-11.8659
▁1992	-11.8659
▁Better	-11.8659
▁husband	-11.8659
▁ITER	-11.8659
▁Senate	-11.8659
▁Consider	-11.8659
▁TEN	-11.8661
script	-11.8662
producing	-11.8685
▁violat	-11.8702
▁waiv	-11.8735
▁genetic	-11.8735
▁prosecutor	-11.8736
▁Mandelson	-11.8736
▁Twenty	-11.8736
▁Which	-11.8736
▁controversy	-11.8736
▁intermediate	-11.8736
▁regrettably	-11.8736
▁History	-11.8736
▁conform	-11.8737
▁gay	-11.874
▁bond	-11.8761
existent	-11.878
circ	-11.8793
ilateral	-11.8811
▁Ferreira	-11.8814
▁Fischer	-11.8814
▁Jacques	-11.8814
▁Tomorrow	-11.8814
▁compatibility	-11.8814
▁description	-11.8814
▁escalation	-11.8814
▁shield	-11.8814
▁veterinary	-11.8814
6-00	-11.8814
▁shores	-11.8814
▁eager	-11.8814
▁unstable	-11.8814
▁headline	-11.8817
▁pesticide	-11.884
energy	-11.8842
ppendi	-11.8867
▁Certain	-11.8879
▁Cappato	-11.8893
▁Reinfeldt	-11.8893
▁accommodate	-11.8893
▁accommodation	-11.8893
▁automobile	-11.8893
▁balancing	-11.8893
▁celebration	-11.8893
▁dubious	-11.8893
▁intensified	-11.8893
▁residing	-11.8893
▁CITES	-11.8893
▁backbone	-11.8893
▁Kroes	-11.8893
graphic	-11.8893
▁emphatically	-11.8893
▁mineral	-11.8894
▁Label	-11.8894
▁childhood	-11.8895
▁disgraceful	-11.8918
keeping	-11.892
business	-11.8922
codified	-11.8942
▁compensat	-11.8947
word	-11.8951
▁dreadful	-11.8972
▁obsolete	-11.8972
▁cattle	-11.8973
▁offset	-11.8973
▁classified	-11.8974
▁Brown	-11.8974
▁agri	-11.8987
control	-11.9001
▁Alexander	-11.9052
▁Communism	-11.9052
▁Tajikistan	-11.9052
▁cloned	-11.9052
▁discrepancies	-11.9052
▁earliest	-11.9052
▁mankind	-11.9052
▁observance	-11.9052
▁scarcity	-11.9052
▁tsunami	-11.9052
▁kick	-11.9053
▁sky	-11.9053
management	-11.9082
accession	-11.9082
with	-11.9082
▁casual	-11.9133
apatero	-11.9133
▁Passenger	-11.9133
▁Scottish	-11.9133
▁Tehran	-11.9133
▁destructive	-11.9133
▁feasibility	-11.9133
▁peripheral	-11.9133
▁racial	-11.9133
▁secrecy	-11.9133
▁subscribe	-11.9133
▁Lulling	-11.9133
▁Wales	-11.9133
▁investigating	-11.9133
▁unitary	-11.9135
▁oversee	-11.9175
sufficiency	-11.9214
▁Objective	-11.9214
▁SEPA	-11.9214
▁boycott	-11.9214
▁calendar	-11.9214
▁convicted	-11.9214
▁dynamism	-11.9214
▁impasse	-11.9214
▁jeopardising	-11.9214
▁pertinent	-11.9214
▁reimburs	-11.9214
▁unreasonable	-11.9214
▁bulk	-11.9214
▁opium	-11.9214
▁boy	-11.9215
▁redistribution	-11.9215
▁edge	-11.9216
source	-11.9243
growing	-11.9247
saving	-11.9248
▁Recent	-11.9283
▁complie	-11.9283
▁arrange	-11.9294
▁Scheme	-11.9296
▁Transnistria	-11.9296
▁detainees	-11.9296
▁incredibly	-11.9296
▁literally	-11.9296
▁statutory	-11.9296
▁Mission	-11.9296
▁unchanged	-11.9296
▁Gomes	-11.9296
▁varies	-11.9297
▁shipyard	-11.933
▁McGuinness	-11.9379
▁acknowledging	-11.9379
▁coincide	-11.9379
▁enemy	-11.9379
▁fantastic	-11.9379
▁suicide	-11.9379
▁turmoil	-11.9379
▁Child	-11.9379
▁reallocat	-11.9379
▁engineering	-11.9379
▁leap	-11.9379
▁infant	-11.938
▁predominant	-11.9462
▁Cambodia	-11.9462
▁Increasing	-11.9462
▁divergence	-11.9462
▁inject	-11.9462
▁magnitude	-11.9462
▁pollutant	-11.9462
▁uranium	-11.9462
▁wisdom	-11.9462
▁worries	-11.9462
▁Specifically	-11.9463
▁Natura	-11.9464
▁arose	-11.9464
lmost	-11.9493
ethnic	-11.9495
short	-11.9497
-2012	-11.9546
▁Jordan	-11.9546
▁advisable	-11.9546
▁auspices	-11.9546
▁decreasing	-11.9546
▁defect	-11.9546
▁relieve	-11.9546
▁splendid	-11.9546
▁Spring	-11.9546
▁denial	-11.9546
▁globe	-11.9547
▁artistic	-11.9547
▁strip	-11.9555
▁Finnish	-11.9631
▁Platform	-11.9631
▁blacklist	-11.9631
▁catalyst	-11.9631
▁excluding	-11.9631
▁genital	-11.9631
▁herself	-11.9631
▁variation	-11.9631
▁Dalli	-11.9631
▁Motors	-11.9631
▁allerg	-11.9633
cyclical	-11.9717
▁Guidelines	-11.9717
▁disorder	-11.9717
▁holistic	-11.9717
▁horror	-11.9717
▁paradigm	-11.9717
▁shareholders	-11.9717
▁unfavourable	-11.9717
▁Prior	-11.9717
▁Kyi	-11.9717
▁deportation	-11.9717
▁Suu	-11.9717
▁friendship	-11.9718
mplementing	-11.9759
▁suppose	-11.9788
▁restructure	-11.9803
▁Honduras	-11.9803
▁Implementation	-11.9803
▁communautaire	-11.9803
▁deteriorating	-11.9803
▁headquarters	-11.9803
▁identifies	-11.9803
▁inspiration	-11.9803
▁severity	-11.9803
▁peer	-11.9808
umanitarian	-11.9808
numer	-11.9814
recast	-11.9857
omething	-11.9876
designate	-11.9879
▁Regrettably	-11.989
▁aggravate	-11.989
▁ambassador	-11.989
▁criticising	-11.989
▁flourish	-11.989
▁incidence	-11.989
▁surrender	-11.989
▁unfounded	-11.989
▁Harms	-11.989
▁shelter	-11.989
convenient	-11.989
▁Emissions	-11.989
▁Reduc	-11.989
▁grain	-11.989
▁outdated	-11.989
uartet	-11.9893
cratic	-11.9893
▁geographic	-11.9908
▁reconcil	-11.9921
▁paradoxical	-11.9927
▁church	-11.9972
▁cynical	-11.9977
▁Semester	-11.9977
▁abilities	-11.9977
▁indifferent	-11.9977
▁interview	-11.9977
▁observing	-11.9977
▁square	-11.9977
MFF	-11.9978
▁breakdown	-11.9979
specific	-12.0015
ntegrated	-12.0065
▁Ankara	-12.0066
▁Bologna	-12.0066
▁Budapest	-12.0066
▁Ecolabel	-12.0066
▁Paragraph	-12.0066
▁Posselt	-12.0066
▁Serbs	-12.0066
▁Seychelles	-12.0066
▁ascertain	-12.0066
▁categorical	-12.0066
▁indicative	-12.0066
▁replies	-12.0066
▁unexpected	-12.0066
▁vacuum	-12.0066
▁video	-12.0066
▁Speak	-12.0066
▁justifies	-12.0066
▁mafia	-12.0066
▁spiral	-12.0066
▁theoretical	-12.0066
▁dropped	-12.0067
▁alien	-12.0067
▁factual	-12.0069
▁decree	-12.007
etween	-12.0154
▁copy	-12.0155
▁Heritage	-12.0155
▁Medicines	-12.0155
▁Staff	-12.0155
▁barbaric	-12.0155
▁denominator	-12.0155
▁explanatory	-12.0155
▁measurable	-12.0155
▁relocate	-12.0155
▁steady	-12.0155
▁turbulence	-12.0155
▁unaware	-12.0155
▁Vienna	-12.0155
▁strain	-12.0155
▁overdue	-12.0155
▁liberat	-12.0155
▁Haug	-12.0157
onciliation	-12.0244
▁Gebhardt	-12.0245
▁Revolution	-12.0245
▁Watson	-12.0245
▁entrepreneurial	-12.0245
▁incomplete	-12.0245
▁memorandum	-12.0245
▁packaging	-12.0245
▁allegations	-12.0245
▁pricing	-12.0245
member	-12.0281
China	-12.0285
crisis	-12.0285
green	-12.0285
sexual	-12.0286
▁Fourth	-12.0322
▁Lambert	-12.0336
▁Kyrgyzstan	-12.0336
▁ceremony	-12.0336
▁unavoidable	-12.0336
▁voluntarily	-12.0336
▁glass	-12.0336
▁rectify	-12.0336
▁Adopt	-12.0336
▁interfering	-12.0336
▁strand	-12.0336
nchez	-12.0338
▁score	-12.0339
▁Christ	-12.0427
▁scoreboard	-12.0428
▁Chapter	-12.0428
▁Schwab	-12.0428
▁Welcome	-12.0428
▁pluralist	-12.0428
▁reluctance	-12.0428
▁sweep	-12.0428
▁properties	-12.0428
▁Garc	-12.0428
▁divert	-12.0428
▁distribute	-12.0506
mproving	-12.052
GNSS	-12.0521
▁Ashraf	-12.0521
▁Uzbekistan	-12.0521
▁bolster	-12.0521
▁devastated	-12.0521
▁dilemma	-12.0521
▁eradicating	-12.0521
▁esteem	-12.0521
▁illicit	-12.0521
▁incumbent	-12.0521
▁racist	-12.0521
▁segregation	-12.0521
▁Airbus	-12.0521
▁logging	-12.0521
▁segment	-12.0521
▁communism	-12.0521
▁Text	-12.0521
▁handicap	-12.0521
2001	-12.0563
Community	-12.0563
▁Diamandouros	-12.0614
▁Exclusion	-12.0614
▁Saturday	-12.0614
▁Securities	-12.0614
▁Simpson	-12.0614
▁confiscat	-12.0614
▁ethics	-12.0614
▁intensity	-12.0614
▁studied	-12.0614
▁baby	-12.0614
▁pertain	-12.0614
▁anxious	-12.0614
▁misery	-12.0614
▁giant	-12.0614
EFSA	-12.0614
functioning	-12.0657
High	-12.0657
▁Somali	-12.0664
▁regulator	-12.0665
▁Cameroon	-12.0708
▁Subcommittee	-12.0708
▁emergencies	-12.0708
▁interdependence	-12.0708
▁signatories	-12.0708
▁Farmers	-12.0708
▁joy	-12.0708
▁Import	-12.0709
▁Media	-12.071
▁alleviat	-12.0719
(5)	-12.0729
sector	-12.0753
political	-12.0753
▁precede	-12.0803
▁Kremlin	-12.0804
▁Migration	-12.0804
▁assassination	-12.0804
▁drilling	-12.0804
▁optimum	-12.0804
▁reunification	-12.0804
▁frighten	-12.0804
▁shopping	-12.0804
▁contest	-12.0804
▁optimal	-12.0804
▁ultra	-12.0804
▁vain	-12.0804
▁Turn	-12.0805
▁relian	-12.0855
▁Congolese	-12.09
▁Davies	-12.09
▁Garrido	-12.09
▁Lewandowski	-12.09
▁bluetongue	-12.09
▁hiding	-12.09
▁offenders	-12.09
▁reassess	-12.09
▁Credit	-12.09
▁knock	-12.09
▁gift	-12.09
▁Waste	-12.09
▁greed	-12.09
aeda	-12.09
mentioned	-12.0946
▁impede	-12.0978
▁eventual	-12.0983
▁percent	-12.0996
aladministration	-12.0997
▁Debates	-12.0997
▁Sarajevo	-12.0997
▁ambiguous	-12.0997
▁blank	-12.0997
▁coincidence	-12.0997
▁collaborate	-12.0997
▁hierarchy	-12.0997
▁incitement	-12.0997
▁initiating	-12.0997
▁motive	-12.0997
▁populism	-12.0997
▁securities	-12.0997
▁seminar	-12.0997
▁shoot	-12.0997
▁Euromed	-12.0997
just	-12.1041
6-02	-12.1095
▁Negotiations	-12.1095
▁Professor	-12.1095
▁Society	-12.1095
▁Srebrenica	-12.1095
▁Turmes	-12.1095
▁climatic	-12.1095
▁influential	-12.1095
▁unreported	-12.1095
▁Boeing	-12.1095
▁biofuel	-12.1162
▁introduc	-12.1174
smokers	-12.1188
▁Congratulations	-12.1194
▁Future	-12.1194
▁Papua	-12.1194
▁VIS	-12.1194
▁advancing	-12.1194
▁appliances	-12.1194
▁comparability	-12.1194
▁district	-12.1194
▁dividing	-12.1194
▁fierce	-12.1194
▁intermediaries	-12.1194
▁multicultural	-12.1194
▁poison	-12.1194
▁pregnancy	-12.1194
▁rigour	-12.1194
▁Observ	-12.1194
▁Trading	-12.1194
▁jail	-12.1194
consuming	-12.1194
▁diesel	-12.1194
▁Payment	-12.1194
▁aspire	-12.1194
▁slave	-12.1293
▁Amnesty	-12.1294
▁Bowis	-12.1294
▁NUTS	-12.1294
▁cloud	-12.1294
▁conversation	-12.1294
▁distributing	-12.1294
▁legitimis	-12.1294
▁lodge	-12.1294
▁vicious	-12.1294
▁wilderness	-12.1294
▁civic	-12.1294
▁culminat	-12.1294
▁deduct	-12.1294
▁stories	-12.1294
▁Athens	-12.1294
▁march	-12.1294
▁equate	-12.1294
▁Promot	-12.1295
clined	-12.1319
▁rob	-12.1327
health	-12.1344
ifelong	-12.1394
ntelligent	-12.1395
disciplinary	-12.1395
fascist	-12.1395
▁Harkin	-12.1395
▁Learning	-12.1395
▁blasphemy	-12.1395
▁chicken	-12.1395
▁contemporary	-12.1395
▁destiny	-12.1395
▁deterrent	-12.1395
▁disclose	-12.1395
▁unsafe	-12.1395
EGNOS	-12.1395
▁FAO	-12.1395
▁Ocean	-12.1395
▁revisit	-12.1395
▁Bauer	-12.1395
▁overnight	-12.1395
▁evade	-12.1395
▁orphan	-12.1395
▁Institutions	-12.1395
ndez	-12.1395
▁pirate	-12.1396
design	-12.1433
evident	-12.1446
mpact	-12.1458
▁dump	-12.1465
▁conduc	-12.1478
▁1997	-12.1497
▁Angelilli	-12.1497
▁Catania	-12.1497
▁Moroccan	-12.1497
▁explosive	-12.1497
▁gallery	-12.1497
▁hesitation	-12.1497
▁improper	-12.1497
▁phasing	-12.1497
▁repatriation	-12.1497
▁situated	-12.1497
▁Animal	-12.1497
▁unlimited	-12.1497
▁verified	-12.1497
Myanmar	-12.1497
▁anthem	-12.1497
Lisbon	-12.1549
limit	-12.155
Claude	-12.16
▁Hopefully	-12.16
▁Rwanda	-12.16
▁Sacconi	-12.16
▁approximat	-12.16
▁umbrella	-12.16
▁awful	-12.1602
▁rock	-12.1702
fledged	-12.1704
▁Effective	-12.1704
▁Gazprom	-12.1704
▁Ludford	-12.1704
▁Pittsburgh	-12.1704
▁Shalit	-12.1704
▁Tannock	-12.1704
▁calculating	-12.1704
▁critics	-12.1704
▁currencies	-12.1704
▁declining	-12.1704
▁distributors	-12.1704
▁erosion	-12.1704
▁fertiliser	-12.1704
▁irreversible	-12.1704
▁landfill	-12.1704
▁logistical	-12.1704
▁undesirable	-12.1704
▁Timor	-12.1704
▁Basque	-12.1704
▁devising	-12.1704
▁indulg	-12.1705
itude	-12.1748
capacity	-12.1759
parliamentary	-12.1759
▁paradox	-12.1764
▁Jewish	-12.1809
▁Morgan	-12.1809
▁Scientific	-12.1809
▁Trautmann	-12.1809
▁concentrating	-12.1809
▁confess	-12.1809
▁confusing	-12.1809
▁economist	-12.1809
▁explosion	-12.1809
▁extraordinarily	-12.1809
▁stretch	-12.1809
▁twelve	-12.1809
▁unforeseen	-12.1809
LDCs	-12.1809
▁Conduct	-12.1809
▁composed	-12.1809
▁residue	-12.1809
▁Tamil	-12.181
▁cotton	-12.181
▁aftermath	-12.181
▁grams	-12.181
▁grey	-12.181
▁rival	-12.181
▁Lady	-12.181
DCI	-12.181
▁qualification	-12.1891
▁duplicat	-12.1911
▁retire	-12.1915
6-03	-12.1916
Counterfeiting	-12.1916
conceived	-12.1916
▁CCCTB	-12.1916
▁Consensus	-12.1916
▁Incidentally	-12.1916
▁Jarzembowski	-12.1916
▁Juncker	-12.1916
▁Lynne	-12.1916
▁Risk	-12.1916
▁achievable	-12.1916
▁decoupling	-12.1916
▁deplorable	-12.1916
▁dioxin	-12.1916
▁emphasize	-12.1916
▁horrific	-12.1916
▁infected	-12.1916
▁tunnel	-12.1916
▁arouse	-12.1918
▁Port	-12.1922
fighting	-12.1973
▁profess	-12.1996
▁indiscriminate	-12.1998
7-00	-12.2021
▁Valencia	-12.2023
▁Busuttil	-12.2023
▁carcinogenic	-12.2023
▁destined	-12.2023
▁dishonest	-12.2023
▁exciting	-12.2023
▁qualify	-12.2023
▁undertook	-12.2023
▁Ensur	-12.2024
ttee	-12.2058
found	-12.208
▁mitigat	-12.2088
▁EMU	-12.2132
▁Efficiency	-12.2132
▁Eurobarometer	-12.2132
▁Gollnisch	-12.2132
▁Journal	-12.2132
▁Vondra	-12.2132
▁geostrategic	-12.2132
▁literacy	-12.2132
▁uncertainties	-12.2132
▁Guard	-12.2132
▁solemn	-12.2132
▁underground	-12.2132
▁flawed	-12.2132
▁Earth	-12.2132
▁halv	-12.2132
▁brake	-12.2132
▁crash	-12.2132
▁laugh	-12.2132
vested	-12.2168
▁Company	-12.2242
▁Disease	-12.2242
▁Scoreboard	-12.2242
▁Standard	-12.2242
▁assault	-12.2242
▁enlighten	-12.2242
▁mistrust	-12.2242
▁profiling	-12.2242
▁renounc	-12.2242
▁separatist	-12.2242
▁penetrat	-12.2242
▁Horn	-12.2242
▁peak	-12.2242
Canada	-12.2302
judicial	-12.2302
q	-12.2347
▁cultivat	-12.235
▁Develop	-12.2351
▁outrage	-12.2353
▁Andersson	-12.2353
▁Conditions	-12.2353
▁IPCC	-12.2353
▁Interior	-12.2353
▁Request	-12.2353
▁Voluntar	-12.2353
▁accelerating	-12.2353
▁breeding	-12.2353
▁compromising	-12.2353
▁inalienable	-12.2353
▁luxury	-12.2353
▁maturity	-12.2353
▁plunder	-12.2353
▁proximity	-12.2353
▁intervening	-12.2353
▁0.7%	-12.2353
▁communi	-12.2378
benefit	-12.2414
prepared	-12.2415
▁concur	-12.2464
eligious	-12.2465
6-01	-12.2465
▁contravene	-12.2465
▁obscure	-12.2465
▁routine	-12.2465
▁Ortega	-12.2465
▁arrogance	-12.2465
▁burning	-12.2465
▁envelope	-12.2465
▁extinction	-12.2465
▁library	-12.2465
▁restaurant	-12.2465
▁satisfactorily	-12.2465
▁distract	-12.2465
▁degrading	-12.2466
▁gangs	-12.2466
profit	-12.2528
service	-12.2528
development	-12.2528
Article	-12.2528
▁activist	-12.2562
obilisation	-12.2579
▁1996	-12.2579
▁Intercultural	-12.2579
▁Jeggle	-12.2579
▁disparity	-12.2579
▁influencing	-12.2579
▁legislature	-12.2579
▁mirror	-12.2579
▁superfluous	-12.2579
▁unnecessarily	-12.2579
▁yourselves	-12.2579
▁knee	-12.2579
▁surge	-12.2579
▁differentiation	-12.2579
▁tiny	-12.2579
▁Front	-12.2579
Fraud	-12.2579
▁Plus	-12.2579
WTO	-12.2643
▁inflict	-12.2651
▁skill	-12.2656
▁associate	-12.268
▁Bowles	-12.2694
▁Chechnya	-12.2694
▁Coordination	-12.2694
▁Mathieu	-12.2694
▁Renewable	-12.2694
▁Sterckx	-12.2694
▁credentials	-12.2694
▁lorries	-12.2694
▁meanwhile	-12.2694
▁notwithstanding	-12.2694
▁societal	-12.2694
▁taboo	-12.2694
▁likelihood	-12.2694
▁wife	-12.2694
▁presume	-12.2694
▁grass	-12.2747
culture	-12.2762
▁responsive	-12.281
▁stupid	-12.281
djournment	-12.281
▁Catherine	-12.281
▁Experience	-12.281
▁MONUC	-12.281
▁WHO	-12.281
▁destabilise	-12.281
▁haulage	-12.281
▁illustration	-12.281
▁irrelevant	-12.281
▁prestige	-12.281
▁qualities	-12.281
▁Castro	-12.281
▁Naples	-12.281
▁IUU	-12.281
▁Provid	-12.281
TFEU	-12.281
▁relies	-12.281
ealand	-12.281
Chair	-12.2877
hearted	-12.2914
▁Addiction	-12.2928
▁Illegal	-12.2928
▁Indonesia	-12.2928
▁Muscardini	-12.2928
▁Nicaragua	-12.2928
▁Respect	-12.2928
▁Salafranca	-12.2928
▁Schmidt	-12.2928
▁doctrine	-12.2928
▁eruption	-12.2928
▁generic	-12.2928
▁impressed	-12.2928
▁postponing	-12.2928
▁stigmatis	-12.2928
▁triangle	-12.2928
▁unsuccessful	-12.2928
▁Blair	-12.2928
▁inhabit	-12.2928
▁Audy	-12.2928
▁Veld	-12.2928
▁complicit	-12.2929
school	-12.2996
interest	-12.2996
EIB	-12.2996
field	-12.2996
informed	-12.2996
▁Current	-12.3033
▁deregulat	-12.3044
▁Ethiopia	-12.3047
▁Independence	-12.3047
▁Kozloduy	-12.3047
▁Nowadays	-12.3047
▁Synergy	-12.3047
▁adherence	-12.3047
▁aeroplane	-12.3047
▁comprising	-12.3047
▁dedication	-12.3047
▁equilibrium	-12.3047
▁exacerbating	-12.3047
▁referenda	-12.3047
▁repetition	-12.3047
▁supervising	-12.3047
▁preferabl	-12.3121
▁horizon	-12.3167
▁Thomsen	-12.3167
▁arbitrarily	-12.3167
▁contemplat	-12.3167
▁fragility	-12.3167
▁monopolis	-12.3167
▁pivotal	-12.3167
▁radiation	-12.3167
▁overhaul	-12.3168
▁lapse	-12.3168
▁levie	-12.3168
▁spiritual	-12.3168
prime	-12.3238
▁earmark	-12.3267
▁consequent	-12.3276
▁domination	-12.3289
▁Building	-12.3289
▁ECOFIN	-12.3289
▁Establish	-12.3289
▁Judicia	-12.3289
▁Mubarak	-12.3289
▁Persons	-12.3289
▁anxiety	-12.3289
▁declaring	-12.3289
▁invaluable	-12.3289
▁redouble	-12.3289
▁Ayala	-12.3289
▁filter	-12.3289
▁hurt	-12.3289
▁shrink	-12.3289
▁settling	-12.3289
▁Nepal	-12.329
▁uneven	-12.329
▁mount	-12.329
▁charit	-12.3293
Ukraine	-12.3362
bank	-12.3363
▁perceive	-12.3399
▁continual	-12.3399
▁precaution	-12.3411
▁Assessment	-12.3413
▁Battisti	-12.3413
▁Covenant	-12.3413
▁Deprez	-12.3413
▁Patients	-12.3413
▁Philippines	-12.3413
▁Pozna	-12.3413
▁Strengthen	-12.3413
▁apologies	-12.3413
▁consensual	-12.3413
▁custody	-12.3413
▁hungry	-12.3413
▁indisputabl	-12.3413
▁policing	-12.3413
▁random	-12.3413
▁GNI	-12.3413
▁admire	-12.3413
magneti	-12.3413
▁greet	-12.3413
▁Jews	-12.3413
▁Santos	-12.3413
compliant	-12.3413
▁pump	-12.3413
▁magic	-12.3414
▁terminate	-12.3421
efficiency	-12.3487
▁motivate	-12.3524
▁guilt	-12.3532
▁carrier	-12.3532
▁Amsterdam	-12.3538
▁Bucharest	-12.3538
▁Election	-12.3538
▁Estrela	-12.3538
▁Flautre	-12.3538
▁Industrial	-12.3538
▁exponential	-12.3538
▁generosity	-12.3538
▁henceforth	-12.3538
▁juvenile	-12.3538
▁recipe	-12.3538
▁wheat	-12.3538
▁deceive	-12.3538
▁inquiries	-12.3538
▁wholesale	-12.354
driven	-12.3614
dumping	-12.3614
NATO	-12.3614
▁Antwerp	-12.3664
▁Contrary	-12.3664
▁Eliminat	-12.3664
▁Keyser	-12.3664
▁Orthodox	-12.3664
▁Recommendation	-12.3664
▁UNESCO	-12.3664
▁Vassiliou	-12.3664
▁enemies	-12.3664
▁gravity	-12.3664
▁harbour	-12.3664
▁hauliers	-12.3664
▁identities	-12.3664
▁lecture	-12.3664
▁miracle	-12.3664
▁rapprochement	-12.3664
▁revitalise	-12.3664
▁triumph	-12.3664
▁trivial	-12.3664
▁unrestricted	-12.3664
▁unwanted	-12.3664
nsurance	-12.3665
▁Protect	-12.379
▁aspiration	-12.379
▁indebted	-12.3793
▁EUFOR	-12.3793
▁Erika	-12.3793
▁Guarantee	-12.3793
▁Klinz	-12.3793
▁Kuneva	-12.3793
▁Modern	-12.3793
▁admiration	-12.3793
▁catalogue	-12.3793
▁complementarity	-12.3793
▁embassies	-12.3793
▁embodie	-12.3793
▁revival	-12.3793
▁semester	-12.3793
▁software	-12.3793
▁squander	-12.3793
▁unhealthy	-12.3793
▁fake	-12.3794
▁accompli	-12.3876
▁superficial	-12.3923
Kool	-12.3923
eurodegenerative	-12.3923
phobia	-12.3923
▁Project	-12.3923
▁Svensson	-12.3923
▁justifiable	-12.3923
▁ozone	-12.3923
▁permissible	-12.3923
▁salute	-12.3923
▁sophisticated	-12.3923
▁suffice	-12.3923
▁Wortmann	-12.3923
▁Digit	-12.3923
▁Medina	-12.3923
▁jump	-12.3923
decentralisation	-12.3923
decision	-12.4002
IMF	-12.4003
qualified	-12.4003
GDP	-12.4003
ACP	-12.4003
represented	-12.4003
▁variable	-12.4054
WEEE	-12.4054
▁Admittedly	-12.4054
▁Department	-12.4054
▁Division	-12.4054
▁Improvement	-12.4054
▁UCITS	-12.4054
▁Uighur	-12.4054
▁abundant	-12.4054
▁clarifies	-12.4054
▁educating	-12.4054
▁episode	-12.4054
▁happily	-12.4054
▁imagination	-12.4054
▁incorporation	-12.4054
▁lorry	-12.4054
▁necessitat	-12.4054
▁spectacular	-12.4054
▁unleash	-12.4054
▁unpleasant	-12.4054
▁mercy	-12.4054
▁dilut	-12.4055
Pierre	-12.4055
(4)	-12.4143
▁drama	-12.4187
▁Munich	-12.4187
▁Especially	-12.4187
▁Fernandes	-12.4187
▁Fjellner	-12.4187
▁Grosch	-12.4187
▁Laperrouze	-12.4187
▁Perspective	-12.4187
▁Schmitt	-12.4187
▁Urban	-12.4187
▁accuracy	-12.4187
▁acquiring	-12.4187
▁afflict	-12.4187
▁announcing	-12.4187
▁cholera	-12.4187
▁implicit	-12.4187
▁inadmissible	-12.4187
▁requisite	-12.4187
▁retraining	-12.4187
▁troika	-12.4187
▁upheaval	-12.4187
▁brink	-12.4187
▁Hahn	-12.4187
▁inaugura	-12.4187
▁dominate	-12.4308
▁circulate	-12.4323
▁eminent	-12.4323
▁resounding	-12.4323
sanitary	-12.4323
▁Effort	-12.4323
▁Khadraoui	-12.4323
▁Memorandum	-12.4323
▁bubble	-12.4323
▁describing	-12.4323
▁exhibit	-12.4323
▁flexibly	-12.4323
▁guarantor	-12.4323
▁subsistence	-12.4323
▁tantamount	-12.4323
▁Savary	-12.4323
▁crunch	-12.4323
▁innovate	-12.4323
▁biocid	-12.4323
▁trauma	-12.4323
▁trampl	-12.4325
▁Revisi	-12.4374
examine	-12.4409
binding	-12.4409
ynthia	-12.446
▁Argentina	-12.446
▁Beyond	-12.446
▁Cercas	-12.446
▁Diversity	-12.446
▁Frassoni	-12.446
▁Language	-12.446
▁Statistics	-12.446
▁Virrankoski	-12.446
▁bizarre	-12.446
▁communicating	-12.446
▁efficacy	-12.446
▁evolving	-12.446
▁lobbies	-12.446
▁lucrative	-12.446
▁proclamation	-12.446
▁rumours	-12.446
▁sleep	-12.446
▁starvation	-12.446
▁unquestionably	-12.446
▁1991	-12.446
▁Gilad	-12.446
▁Monnet	-12.446
▁Record	-12.446
▁Cairo	-12.446
▁joke	-12.446
▁Louis	-12.446
▁advent	-12.446
ethanol	-12.4462
Toward	-12.4527
Euro	-12.4551
▁denounc	-12.4553
awaited	-12.4584
▁resettle	-12.4596
▁Dimension	-12.4598
▁ICCAT	-12.4598
▁Mobility	-12.4598
▁UNHCR	-12.4598
▁ambiguity	-12.4598
▁certified	-12.4598
▁collateral	-12.4598
▁compatriot	-12.4598
▁diamond	-12.4598
▁diversified	-12.4598
