<pad>	0
</s>	0
<unk>	0
▁¦	-0
an	-1
ma	-2
ch	-3
▁y	-4
in	-5
aj	-6
is	-7
▁t	-8
al	-9
naj	-10
▁𐋇	-11
▁h	-12
et	-13
eb	-14
mam	-15
il	-16
co	-17
un	-18
ca	-19
▁ch	-20
▁is	-21
to	-22
ay	-23
ul	-24
▁C	-25
ˈ¦	-26
ni	-27
▁Co	-28
▁Comam	-29
▁̈	-30
ebnaj	-31
xin	-32
ah	-33
▁,	-34
▁naj	-35
ey	-36
ab	-37
el	-38
ax	-39
at	-40
▁ma	-41
tz	-42
▁tu	-43
▁yin	-44
caw	-45
▁ebnaj	-46
anma	-47
ti	-48
▁hun	-49
▁chi	-50
oj	-51
▁ha	-52
▁.	-53
comam	-54
▁yu	-55
can	-56
io	-57
ios	-58
ak	-59
chi	-60
en	-61
▁xin	-62
wal	-63
▁tz	-64
aw	-65
tu	-66
▁yul	-67
▁caw	-68
te	-69
yu	-70
▁ay	-71
▁s	-72
▁Y	-73
tx	-74
ha	-75
ta	-76
yin	-77
pax	-78
▁ti	-79
es	-80
hun	-81
ix	-82
▁D	-83
ex	-84
▁hune	-85
alni	-86
▁Dios	-87
ẍi	-88
▁anma	-89
▁H	-90
▁yeb	-91
▁tet	-92
xa	-93
ˈ,	-94
ol	-95
on	-96
▁co	-97
wi	-98
unil	-99
ban	-100
ic	-101
▁b	-102
han	-103
▁tzet	-104
▁w	-105
▁ta	-106
▁J	-107
no	-108
▁―	-109
▁j	-110
▁mach	-111
ej	-112
taj	-113
paxo	-114
▁yet	-115
▁ca	-116
oc	-117
bal	-118
▁isc	-119
▁ẍi	-120
ap	-121
yul	-122
ba	-123
oh	-124
ico	-125
▁yi	-126
▁c	-127
▁I	-128
am	-129
cano	-130
ec	-131
atx	-132
dios	-133
yi	-134
hune	-135
▁haca	-136
ilo	-137
tzet	-138
ob	-139
▁sat	-140
ahan	-141
▁Is	-142
tek	-143
▁x	-144
om	-145
▁mac	-146
isto	-147
tet	-148
▁Jes	-149
inal	-150
yeb	-151
▁hey	-152
watx	-153
▁ix	-154
uy	-155
man	-156
ˈ.	-157
eh	-158
jan	-159
aja	-160
isc	-161
mach	-162
▁Ha	-163
yet	-164
▁l	-165
risto	-166
tan	-167
lax	-168
uc	-169
ojan	-170
▁sunil	-171
qu	-172
▁isk	-173
ús	-174
▁tato	-175
▁in	-176
chej	-177
inan	-178
▁yuto	-179
▁con	-180
tzo	-181
ulal	-182
ra	-183
▁W	-184
ahaw	-185
▁Yu	-186
▁:	-187
sat	-188
▁cat	-189
niman	-190
ucristo	-191
▁ye	-192
▁tx	-193
ahwi	-194
▁hunu	-195
▁isba	-196
eyet	-197
lo	-198
▁huntek	-199
ayet	-200
ilal	-201
er	-202
▁M	-203
▁yalni	-204
▁bey	-205
itz	-206
em	-207
apni	-208
▁Wal	-209
▁chu	-210
che	-211
chah	-212
ya	-213
haca	-214
bil	-215
mac	-216
banil	-217
▁yal	-218
ilni	-219
bi	-220
▁bay	-221
rael	-222
▁chey	-223
▁wal	-224
▁A	-225
con	-226
chejab	-227
▁chal	-228
▁Jesús	-229
▁yuxin	-230
aco	-231
▁chis	-232
ye	-233
hey	-234
yalni	-235
otx	-236
tic	-237
um	-238
ojab	-239
▁yiban	-240
▁¿	-241
oche	-242
▁yel	-243
ayic	-244
uẍ	-245
sunil	-246
jes	-247
▁te	-248
ac	-249
▁m	-250
yel	-251
▁han	-252
bey	-253
▁yun	-254
yuto	-255
uyw	-256
ar	-257
▁P	-258
im	-259
▁n	-260
cam	-261
ayo	-262
yij	-263
▁Caw	-264
ayto	-265
▁Jesucristo	-266
isk	-267
ˈ:	-268
axa	-269
▁k	-270
col	-271
yuxin	-272
tato	-273
▁T	-274
ri	-275
▁ism	-276
ahawil	-277
▁S	-278
▁“	-279
▁machi	-280
ach	-281
we	-282
▁p	-283
▁hac	-284
▁L	-285
banile	-286
▁ayco	-287
▁istx	-288
▁no	-289
▁chin	-290
ut	-291
ich	-292
▁teyet	-293
▁xol	-294
chu	-295
▁yak	-296
▁maẍ	-297
as	-298
aben	-299
▁Yalni	-300
tel	-301
yal	-302
wan	-303
ojal	-304
tzoti	-305
hac	-306
chal	-307
eba	-308
la	-309
xol	-310
ehi	-311
▁cam	-312
anil	-313
ro	-314
uj	-315
ib	-316
▁Israel	-317
tajil	-318
▁yanma	-319
anto	-320
anico	-321
do	-322
emp	-323
atan	-324
cat	-325
▁Yuxin	-326
ebil	-327
wa	-328
atut	-329
▁E	-330
▁yoc	-331
▁ak	-332
huntek	-333
txa	-334
▁hex	-335
abal	-336
apno	-337
isba	-338
nimanil	-339
▁yip	-340
walan	-341
ebix	-342
▁Hayet	-343
ablo	-344
▁Lahwi	-345
▁ischejab	-346
na	-347
hunu	-348
▁yaja	-349
etan	-350
cha	-351
pí	-352
bay	-353
ho	-354
us	-355
píri	-356
ohtaj	-357
píritu	-358
yaja	-359
▁qu	-360
xaco	-361
abe	-362
▁win	-363
yak	-364
▁isto	-365
▁Hac	-366
chey	-367
▁he	-368
icham	-369
tak	-370
maj	-371
án	-372
▁Yaja	-373
lah	-374
uywom	-375
amb	-376
▁ni	-377
walil	-378
tzotel	-379
ed	-380
ute	-381
▁Yet	-382
xan	-383
jesús	-384
chis	-385
inti	-386
xi	-387
▁haw	-388
▁chex	-389
ahol	-390
ila	-391
uẍta	-392
▁Ch	-393
yiban	-394
és	-395
axan	-396
▁chij	-397
yun	-398
ón	-399
hol	-400
▁?	-401
ala	-402
ibn	-403
▁―¿	-404
▁tinan	-405
mal	-406
ip	-407
▁isp	-408
eyin	-409
ulch	-410
ohtan	-411
machi	-412
hul	-413
▁istz	-414
hex	-415
▁isya	-416
▁chiw	-417
▁iswi	-418
edro	-419
▁hunun	-420
oti	-421
chin	-422
uybanile	-423
ois	-424
ohal	-425
oisés	-426
▁niman	-427
jesucristo	-428
uẍtaj	-429
tzwalil	-430
li	-431
abel	-432
iloj	-433
majul	-434
,”	-435
ism	-436
tojan	-437
etic	-438
▁ec	-439
istx	-440
chahni	-441
▁matxa	-442
maẍ	-443
▁heyanma	-444
▁ton	-445
▁yatut	-446
lahwi	-447
▁heba	-448
▁ebix	-449
nico	-450
ek	-451
gel	-452
ayco	-453
hayet	-454
ani	-455
ángel	-456
▁Ay	-457
▁Pablo	-458
da	-459
abil	-460
hal	-461
▁yilal	-462
je	-463
▁lan	-464
▁iswatx	-465
ley	-466
▁xahan	-467
teyet	-468
yoc	-469
uan	-470
haw	-471
chel	-472
chico	-473
▁yaj	-474
canoj	-475
▁to	-476
amben	-477
▁yilni	-478
ule	-479
exol	-480
▁texol	-481
▁ixim	-482
tit	-483
▁yalan	-484
▁satcan	-485
itzitz	-486
▁Es	-487
empohal	-488
uhan	-489
obal	-490
israel	-491
xahan	-492
▁maca	-493
▁sata	-494
anxa	-495
ea	-496
nihan	-497
▁yelapno	-498
▁isn	-499
▁icham	-500
yanma	-501
▁yapni	-502
én	-503
▁hunel	-504
▁¡	-505
hil	-506
▁Hun	-507
anab	-508
▁chiwalan	-509
win	-510
eo	-511
▁yehi	-512
ehan	-513
awet	-514
▁chon	-515
awom	-516
yip	-517
▁Yuto	-518
▁iscuywom	-519
yaj	-520
ical	-521
ik	-522
go	-523
▁maẍto	-524
anc	-525
▁isti	-526
alén	-527
ehal	-528
usalén	-529
erusalén	-530
▁isb	-531
xinwal	-532
acer	-533
dote	-534
▁chak	-535
acerdote	-536
ano	-537
ischejab	-538
utx	-539
empo	-540
▁isbi	-541
▁yaben	-542
▁Espíritu	-543
▁Ta	-544
▁teyin	-545
elo	-546
▁Haxa	-547
▁oc	-548
▁yahawil	-549
lan	-550
howal	-551
▁Pedro	-552
▁Moisés	-553
▁cuybanile	-554
▁Istzoti	-555
▁juẍta	-556
ayoj	-557
▁N	-558
▁wetan	-559
▁matzwalil	-560
he	-561
▁hec	-562
▁jet	-563
▁ho	-564
▁yinta	-565
rey	-566
▁Han	-567
ub	-568
hel	-569
▁Istak	-570
ij	-571
elico	-572
yelal	-573
▁choche	-574
Tz	-575
quin	-576
ilax	-577
tinan	-578
yo	-579
▁chico	-580
▁lahan	-581
▁ayxaco	-582
espíritu	-583
ujan	-584
alah	-585
isp	-586
▁ismajul	-587
cab	-588
▁ismul	-589
mi	-590
▁chaw	-591
maman	-592
lahan	-593
▁nich	-594
▁tzoti	-595
▁col	-596
▁chiak	-597
aban	-598
▁janma	-599
eso	-600
▁ya	-601
▁quin	-602
chex	-603
▁Yaj	-604
santo	-605
▁jin	-606
paxojan	-607
aba	-608
▁Santo	-609
istz	-610
▁ah	-611
▁iss	-612
▁chej	-613
▁chioc	-614
rah	-615
alax	-616
Tzet	-617
▁hal	-618
mun	-619
Mam	-620
▁Yin	-621
▁Juan	-622
▁quex	-623
etx	-624
chiw	-625
elax	-626
ˈ?	-627
yilal	-628
▁yuninal	-629
ten	-630
icto	-631
ton	-632
▁yahaw	-633
chij	-634
▁yij	-635
bican	-636
▁istan	-637
txum	-638
ayat	-639
ulan	-640
ati	-641
itzc	-642
▁yeli	-643
ayical	-644
iswatx	-645
▁yebpaxo	-646
quex	-647
▁babel	-648
le	-649
▁Hune	-650
ech	-651
enilo	-652
hunun	-653
▁chiyu	-654
matxa	-655
alo	-656
tom	-657
▁yechel	-658
ías	-659
bahan	-660
▁In	-661
▁cha	-662
tax	-663
ilan	-664
iswi	-665
isya	-666
cach	-667
uywawom	-668
ew	-669
▁B	-670
ocan	-671
yijen	-672
▁,”	-673
▁wi	-674
▁xa	-675
anmahan	-676
toj	-677
▁ángel	-678
ebilcano	-679
▁;	-680
▁an	-681
▁yah	-682
▁Mach	-683
▁anmahil	-684
reso	-685
ud	-686
ahli	-687
intijan	-688
bej	-689
▁Ma	-690
nilo	-691
haxa	-692
▁Yalnipaxo	-693
halni	-694
▁chiwal	-695
▁o	-696
▁el	-697
yan	-698
aris	-699
yije	-700
colwa	-701
▁Jerusalén	-702
ino	-703
▁chiswatx	-704
oji	-705
heyanma	-706
yatut	-707
yilni	-708
▁hach	-709
beybal	-710
faris	-711
▁haxinwal	-712
heba	-713
▁xil	-714
▁chic	-715
▁sacerdote	-716
atz	-717
ito	-718
fariseo	-719
▁ismunil	-720
eto	-721
ía	-722
pablo	-723
tohan	-724
▁isnimanil	-725
▁Tz	-726
▁tiempo	-727
elyu	-728
paxoj	-729
id	-730
nipaxo	-731
▁isley	-732
▁macta	-733
yah	-734
▁che	-735
raham	-736
iban	-737
▁chitz	-738
▁cawan	-739
▁Cristo	-740
▁maẍtaj	-741
os	-742
coj	-743
▁isnabal	-744
des	-745
balil	-746
▁istohol	-747
ixal	-748
ulus	-749
▁tawet	-750
canojan	-751
▁maẍtic	-752
alil	-753
▁inc	-754
▁ayex	-755
▁chito	-756
ochehan	-757
anan	-758
xinto	-759
yapni	-760
ixim	-761
yalan	-762
▁hunelxa	-763
unin	-764
texol	-765
▁Haca	-766
chiwalan	-767
tam	-768
▁yay	-769
▁waxan	-770
sata	-771
cawxi	-772
isn	-773
▁heyu	-774
satcan	-775
▁cheyute	-776
ohta	-777
ulo	-778
▁Hex	-779
chon	-780
▁cab	-781
aybal	-782
ok	-783
▁rey	-784
▁yec	-785
icojan	-786
▁chiyij	-787
ia	-788
ajil	-789
atic	-790
ichmam	-791
▁Yum	-792
▁wuhan	-793
dado	-794
quil	-795
yelapno	-796
awin	-797
maca	-798
▁isyelal	-799
Tom	-800
len	-801
pil	-802
▁Isc	-803
▁yaw	-804
lahon	-805
oldado	-806
▁hayet	-807
▁iscam	-808
helanil	-809
alahilal	-810
yahawil	-811
xiw	-812
▁istzotel	-813
diosal	-814
hec	-815
Mach	-816
chalo	-817
Mamin	-818
yehi	-819
noj	-820
isti	-821
eltzo	-822
itzitzbican	-823
munil	-824
uk	-825
ẍte	-826
▁tit	-827
canico	-828
nicano	-829
chak	-830
Caw	-831
▁camom	-832
▁chihul	-833
ero	-834
ahil	-835
hach	-836
paxto	-837
hallax	-838
maẍto	-839
cancano	-840
▁Jahawil	-841
hunel	-842
inalo	-843
iscuywom	-844
▁ink	-845
▁ayon	-846
aybalc	-847
▁chala	-848
▁winaj	-849
▁camical	-850
▁ley	-851
▁yanico	-852
▁Inmaman	-853
mul	-854
istzoti	-855
▁jak	-856
yaben	-857
▁Sunil	-858
▁payat	-859
▁chalni	-860
eta	-861
iss	-862
▁lahwi	-863
iw	-864
etz	-865
▁watx	-866
▁howal	-867
▁ismam	-868
▁tzettaj	-869
bilcano	-870
ohtajan	-871
istak	-872
▁chil	-873
Ha	-874
▁coc	-875
▁ẍiayoj	-876
mak	-877
isbi	-878
it	-879
▁ish	-880
▁yuxinto	-881
bilintijan	-882
teyin	-883
walni	-884
ir	-885
▁G	-886
▁colbanile	-887
pedro	-888
imón	-889
▁yil	-890
▁wuẍtaj	-891
tocanoj	-892
▁ik	-893
chio	-894
▁chik	-895
▁yich	-896
▁chute	-897
cuybanile	-898
▁Ab	-899
arco	-900
wetan	-901
moisés	-902
yanico	-903
▁!	-904
ubal	-905
tajan	-906
juẍta	-907
▁preso	-908
▁cuywawom	-909
ann	-910
waxan	-911
matzwalil	-912
▁‐	-913
ujno	-914
etxum	-915
ilojan	-916
yinta	-917
pa	-918
jet	-919
chaw	-920
choche	-921
yebpaxo	-922
ayc	-923
car	-924
▁apni	-925
▁chiec	-926
vid	-927
ayxaco	-928
pan	-929
▁ishowal	-930
oht	-931
tzen	-932
yeni	-933
alilea	-934
▁wanab	-935
eni	-936
uyni	-937
▁coba	-938
chuquil	-939
▁tiempohal	-940
yahaw	-941
ismajul	-942
may	-943
web	-944
▁wet	-945
▁fariseo	-946
yaw	-947
nich	-948
▁cheyil	-949
▁wanmahan	-950
chiak	-951
ato	-952
awe	-953
▁Ak	-954
ahat	-955
ajan	-956
▁yoj	-957
paxico	-958
▁Hanin	-959
uch	-960
▁barco	-961
▁chaco	-962
▁Abraham	-963
▁Jud	-964
▁yan	-965
▁chiy	-966
▁hunuxa	-967
▁ischej	-968
nam	-969
jin	-970
ismul	-971
pilla	-972
▁chul	-973
▁islah	-974
▁chiwak	-975
juan	-976
ayilo	-977
istan	-978
ahi	-979
acob	-980
ahto	-981
chioc	-982
▁wa	-983
▁hes	-984
▁camo	-985
▁yeco	-986
▁chitan	-987
hi	-988
▁F	-989
▁il	-990
▁lah	-991
erodes	-992
ilnihan	-993
▁cheyak	-994
isb	-995
▁ismi	-996
▁itzitz	-997
ilti	-998
tebil	-999
ewilal	-1000
yalnipaxo	-1001
inc	-1002
▁Chi	-1003
cawan	-1004
▁hanic	-1005
▁chitit	-1006
▁matzet	-1007
▁heyalni	-1008
otel	-1009
taxca	-1010
ilato	-1011
inale	-1012
nojan	-1013
alan	-1014
yeli	-1015
▁lin	-1016
▁nan	-1017
babel	-1018
pitzc	-1019
▁Tzoti	-1020
▁sunilbal	-1021
aypaxo	-1022
andiosal	-1023
laxi	-1024
▁culus	-1025
yuxinto	-1026
ilaxto	-1027
ena	-1028
anni	-1029
chahi	-1030
yuninal	-1031
▁tzujan	-1032
ican	-1033
▁hay	-1034
yechel	-1035
▁munil	-1036
mon	-1037
ajilk	-1038
apnoj	-1039
▁lek	-1040
chiyu	-1041
▁haxa	-1042
me	-1043
Wal	-1044
balto	-1045
▁cach	-1046
chiwal	-1047
maẍtaj	-1048
txahli	-1049
▁hunxa	-1050
▁tawin	-1051
▁yulaj	-1052
▁ip	-1053
▁Isk	-1054
▁Tato	-1055
▁unin	-1056
▁conimanil	-1057
abx	-1058
▁me	-1059
alom	-1060
elel	-1061
chaho	-1062
▁yute	-1063
utxban	-1064
abxubal	-1065
cun	-1066
xil	-1067
janma	-1068
ahul	-1069
▁bisc	-1070
▁juẍtaj	-1071
▁istoholal	-1072
ión	-1073
lin	-1074
mar	-1075
cunc	-1076
tijan	-1077
ircunc	-1078
▁Mam	-1079
▁Mar	-1080
▁niẍte	-1081
anmahil	-1082
▁chihalni	-1083
▁machojab	-1084
ewan	-1085
olo	-1086
rigo	-1087
▁yeh	-1088
itzico	-1089
ohtajo	-1090
apnihan	-1091
camical	-1092
▁chischah	-1093
▁K	-1094
▁Da	-1095
chic	-1096
▁Yeb	-1097
mamin	-1098
etojan	-1099
▁nimanc	-1100
▁tzalahilal	-1101
zar	-1102
winaj	-1103
eniloj	-1104
chiswatx	-1105
ayxa	-1106
ayan	-1107
chil	-1108
cu	-1109
osé	-1110
wican	-1111
maẍtic	-1112
jerusalén	-1113
macta	-1114
haxinwal	-1115
oco	-1116
▁Naj	-1117
▁hel	-1118
▁huj	-1119
ismunil	-1120
ás	-1121
ana	-1122
nab	-1123
xeb	-1124
▁―¡	-1125
▁ist	-1126
yenilo	-1127
▁yixal	-1128
▁ayicto	-1129
▁chisje	-1130
▁soldado	-1131
sacerdote	-1132
▁istiempohal	-1133
Mac	-1134
amil	-1135
chiq	-1136
erna	-1137
nito	-1138
potx	-1139
ejhol	-1140
▁inti	-1141
isnimanil	-1142
▁Israeloj	-1143
och	-1144
unl	-1145
ahno	-1146
tiempo	-1147
▁An	-1148
ayex	-1149
▁can	-1150
isley	-1151
chalni	-1152
▁hantan	-1153
colo	-1154
chitz	-1155
anican	-1156
uybanil	-1157
tio	-1158
yaco	-1159
▁beh	-1160
▁hek	-1161
▁yuch	-1162
▁aypaxo	-1163
istohol	-1164
▁R	-1165
wej	-1166
yec	-1167
yil	-1168
etaj	-1169
▁Yoc	-1170
▁haba	-1171
cristo	-1172
▁yijem	-1173
▁jichmam	-1174
▁walxinto	-1175
isnabal	-1176
▁Sa	-1177
▁pan	-1178
aycan	-1179
▁yetbi	-1180
▁chawal	-1181
poh	-1182
tawet	-1183
enabal	-1184
ohtaxa	-1185
▁ac	-1186
cawx	-1187
▁chaẍ	-1188
▁yaco	-1189
▁ispaj	-1190
capilla	-1191
hanin	-1192
ẍa	-1193
▁toh	-1194
chito	-1195
alomal	-1196
ichico	-1197
▁chielico	-1198
▁xahanbalil	-1199
haj	-1200
hunelxa	-1201
▁Mac	-1202
▁yik	-1203
▁Waxan	-1204
▁heyak	-1205
▁Galilea	-1206
▁inbahan	-1207
▁ishelanil	-1208
ink	-1209
rco	-1210
heyu	-1211
▁sic	-1212
▁tan	-1213
anayo	-1214
▁María	-1215
▁heyet	-1216
cheyute	-1217
▁istxum	-1218
ilto	-1219
munla	-1220
machoj	-1221
▁v	-1222
jak	-1223
rato	-1224
▁wak	-1225
▁huno	-1226
▁tzujno	-1227
chiyij	-1228
yum	-1229
wuhan	-1230
▁Simón	-1231
▁iscol	-1232
▁janab	-1233
isyelal	-1234
ux	-1235
ina	-1236
uil	-1237
ambe	-1238
cojab	-1239
iscol	-1240
eyiban	-1241
canocan	-1242
ije	-1243
▁saj	-1244
▁mule	-1245
▁David	-1246
▁chiel	-1247
▁Aypaxo	-1248
▁chewatx	-1249
jahawil	-1250
mo	-1251
meta	-1252
nican	-1253
abehan	-1254
cawilal	-1255
▁chejab	-1256
▁cowatx	-1257
istzotel	-1258
▁chiapni	-1259
▁chitzala	-1260
▁chiwochehan	-1261
ep	-1262
machojab	-1263
▁hul	-1264
▁mar	-1265
▁Jacob	-1266
▁Machi	-1267
▁ixnam	-1268
▁wehan	-1269
▁Yuxinto	-1270
▁walnihan	-1271
san	-1272
bilxa	-1273
camom	-1274
ismam	-1275
acojan	-1276
alahan	-1277
▁X	-1278
ischej	-1279
▁Herodes	-1280
▁masanto	-1281
▁wintajan	-1282
▁chihallax	-1283
aho	-1284
hulan	-1285
inmaman	-1286
iswalil	-1287
uh	-1288
eho	-1289
eno	-1290
▁ej	-1291
anch	-1292
nabé	-1293
uxan	-1294
▁hem	-1295
▁chim	-1296
chihul	-1297
ejholo	-1298
ernabé	-1299
colomal	-1300
▁chicam	-1301
▁cheyaco	-1302
▁xewilal	-1303
ohtajojan	-1304
▁chejbanile	-1305
enan	-1306
wuẍtaj	-1307
awtebil	-1308
▁yo	-1309
ayon	-1310
▁mil	-1311
▁xiw	-1312
chiwa	-1313
▁nino	-1314
▁chach	-1315
▁jilni	-1316
▁melyu	-1317
▁nahat	-1318
▁Pilato	-1319
enta	-1320
ento	-1321
chala	-1322
ist	-1323
eloj	-1324
▁yuẍ	-1325
▁ayto	-1326
▁habil	-1327
▁aycano	-1328
▁hewatx	-1329
▁tzotel	-1330
▁ischahni	-1331
payat	-1332
ipe	-1333
nia	-1334
mame	-1335
umal	-1336
▁ayc	-1337
▁bak	-1338
elipe	-1339
▁chah	-1340
▁yabe	-1341
tzettaj	-1342
▁cheyal	-1343
▁chiwalti	-1344
coc	-1345
hes	-1346
wet	-1347
yay	-1348
anayto	-1349
sa	-1350
▁ohtan	-1351
▁cheyala	-1352
▁cablahon	-1353
oma	-1354
nayo	-1355
ẍiayoj	-1356
ircuncis	-1357
pon	-1358
▁man	-1359
laxto	-1360
▁ayin	-1361
▁halni	-1362
▁ismay	-1363
▁hununex	-1364
▁chitzotel	-1365
yelo	-1366
munlahan	-1367
fr	-1368
Han	-1369
Hex	-1370
anex	-1371
ohyi	-1372
▁sub	-1373
niloj	-1374
▁isbej	-1375
▁jalni	-1376
▁jetan	-1377
haninti	-1378
▁Hacpax	-1379
▁chintz	-1380
▁istzab	-1381
▁hawanma	-1382
▁ischuquil	-1383
ircuncisión	-1384
chik	-1385
chim	-1386
chute	-1387
nimanc	-1388
colbanile	-1389
nic	-1390
say	-1391
▁Eb	-1392
▁je	-1393
yich	-1394
▁yoche	-1395
▁yohtan	-1396
▁yichico	-1397
▁isbeybal	-1398
nan	-1399
camo	-1400
elwi	-1401
naxa	-1402
uywa	-1403
alaho	-1404
dor	-1405
▁Yak	-1406
▁car	-1407
▁xay	-1408
cawil	-1409
canilo	-1410
▁coxol	-1411
▁yayto	-1412
▁hetxum	-1413
▁haninti	-1414
▁yelapnoj	-1415
hay	-1416
chul	-1417
hanic	-1418
preso	-1419
cuywawom	-1420
bak	-1421
yik	-1422
erto	-1423
tzujan	-1424
▁trigo	-1425
▁chiwatx	-1426
va	-1427
chiec	-1428
melyu	-1429
techa	-1430
colchahi	-1431
tiempohal	-1432
▁cok	-1433
▁witz	-1434
Machoj	-1435
chiwak	-1436
▁insat	-1437
op	-1438
rom	-1439
uywi	-1440
abenan	-1441
unlawom	-1442
▁al	-1443
▁yani	-1444
▁Ebnaj	-1445
▁Tinan	-1446
▁chisc	-1447
▁yetxa	-1448
▁yohta	-1449
▁yunin	-1450
ishowal	-1451
▁Huntek	-1452
▁chiyal	-1453
▁machoj	-1454
▁wohtajan	-1455
lek	-1456
canto	-1457
islah	-1458
xatic	-1459
yoj	-1460
bilo	-1461
coba	-1462
omal	-1463
ulta	-1464
▁yic	-1465
webal	-1466
▁José	-1467
▁Roma	-1468
▁ewan	-1469
▁hawu	-1470
encano	-1471
▁carta	-1472
▁yocto	-1473
▁huneln	-1474
▁inwatx	-1475
▁quexchi	-1476
tze	-1477
tzab	-1478
yute	-1479
wanab	-1480
xahann	-1481
Ay	-1482
Ch	-1483
▁g	-1484
▁Maẍ	-1485
cheyil	-1486
matzet	-1487
▁Judea	-1488
▁iscab	-1489
▁yijni	-1490
▁isyeni	-1491
wanmahan	-1492
▁chitxum	-1493
▁hawalni	-1494
▁islahobal	-1495
ui	-1496
aso	-1497
cua	-1498
gip	-1499
ascua	-1500
gipto	-1501
labal	-1502
oberna	-1503
obernador	-1504
or	-1505
ˈ!	-1506
Yin	-1507
jud	-1508
barco	-1509
chaco	-1510
▁comon	-1511
▁majan	-1512
abraham	-1513
▁chicowatx	-1514
ayti	-1515
cheyak	-1516
chitan	-1517
hunuxa	-1518
ˈ,”	-1519
anci	-1520
desi	-1521
ijen	-1522
▁Isa	-1523
utxba	-1524
▁alax	-1525
ayojab	-1526
▁ayayo	-1527
▁yalno	-1528
desierto	-1529
▁issajilk	-1530
chitit	-1531
heyalni	-1532
hitzico	-1533
Dios	-1534
yeco	-1535
▁nok	-1536
isbej	-1537
▁isch	-1538
▁isye	-1539
▁comul	-1540
▁hanta	-1541
▁chiyak	-1542
▁henabal	-1543
huj	-1544
wak	-1545
atil	-1546
ulla	-1547
eybal	-1548
ayojan	-1549
eintijan	-1550
utxanico	-1551
re	-1552
wec	-1553
ahni	-1554
ismi	-1555
yoche	-1556
▁jahno	-1557
▁chislo	-1558
sunilbal	-1559
tzotelan	-1560
iti	-1561
iscam	-1562
ria	-1563
▁ju	-1564
fren	-1565
▁mul	-1566
echma	-1567
▁iscon	-1568
▁selel	-1569
▁titna	-1570
▁yalax	-1571
▁isyijen	-1572
▁chisyije	-1573
▁halbilcano	-1574
xaw	-1575
walxinto	-1576
si	-1577
aya	-1578
culus	-1579
▁cawx	-1580
▁yala	-1581
▁yinito	-1582
cawxican	-1583
▁cosunil	-1584
▁haninan	-1585
▁Machojab	-1586
ín	-1587
oya	-1588
teb	-1589
ult	-1590
xam	-1591
isil	-1592
frenda	-1593
tzalahilal	-1594
bisc	-1595
espa	-1596
▁aya	-1597
▁hak	-1598
▁heb	-1599
▁hum	-1600
▁isw	-1601
▁hawi	-1602
uninal	-1603
▁hujeb	-1604
▁yabil	-1605
▁ayayto	-1606
▁yinilo	-1607
▁cobahan	-1608
pit	-1609
octo	-1610
paxocan	-1611
ˈ;	-1612
▁O	-1613
dán	-1614
utz	-1615
wom	-1616
etax	-1617
olax	-1618
umel	-1619
hunxa	-1620
iquin	-1621
tawin	-1622
yulaj	-1623
▁oxeb	-1624
▁yila	-1625
espada	-1626
▁jiban	-1627
anciano	-1628
ultahil	-1629
▁nimeta	-1630
▁hununon	-1631
▁teyiban	-1632
▁ismeltzo	-1633
▁yichamil	-1634
▁ischejbanil	-1635
saj	-1636
uyu	-1637
Hun	-1638
▁cu	-1639
▁Mat	-1640
heyak	-1641
▁yipo	-1642
▁yitz	-1643
chisje	-1644
▁chiah	-1645
▁hesat	-1646
▁wipan	-1647
▁chijil	-1648
▁ischiq	-1649
▁abxubal	-1650
conimanil	-1651
ami	-1652
ata	-1653
mas	-1654
uva	-1655
lahi	-1656
uten	-1657
chahan	-1658
chahnihan	-1659
istoholal	-1660
niẍte	-1661
juẍtaj	-1662
▁juhan	-1663
▁yintaj	-1664
▁Bernabé	-1665
▁tzotelo	-1666
jab	-1667
nok	-1668
soldado	-1669
chihalni	-1670
chischah	-1671
▁Z	-1672
hoj	-1673
noh	-1674
sic	-1675
yeh	-1676
Hach	-1677
apax	-1678
quía	-1679
▁cay	-1680
▁sak	-1681
rahil	-1682
wahan	-1683
wanoj	-1684
chejni	-1685
▁hawet	-1686
▁isbak	-1687
▁masan	-1688
tioquía	-1689
▁Jacobo	-1690
▁haywan	-1691
▁heyehi	-1692
▁hunxan	-1693
▁ispotx	-1694
▁awtebil	-1695
▁heyanico	-1696
▁isyenilo	-1697
▁iscamical	-1698
be	-1699
teo	-1700
wano	-1701
aweco	-1702
colbanil	-1703
▁Yul	-1704
▁xaj	-1705
majan	-1706
▁islo	-1707
▁meba	-1708
istxum	-1709
▁chiil	-1710
▁chink	-1711
▁hunuj	-1712
▁Israelo	-1713
▁cheyabe	-1714
▁chicolwa	-1715
▁chiocnico	-1716
▁machiswalil	-1717
▁chiitzitzbican	-1718
vo	-1719
atr	-1720
loj	-1721
axep	-1722
ayni	-1723
inaho	-1724
lebil	-1725
teban	-1726
zaret	-1727
colcha	-1728
ocnico	-1729
alaxico	-1730
itzbican	-1731
▁la	-1732
awten	-1733
yijem	-1734
▁apno	-1735
hacpax	-1736
hantan	-1737
▁Judas	-1738
▁Saulo	-1739
▁ishaj	-1740
▁mulum	-1741
▁Felipe	-1742
▁ispitzc	-1743
▁xahanbal	-1744
▁Yespíritu	-1745
istiempohal	-1746
beh	-1747
hek	-1748
xiwi	-1749
yixal	-1750
xahanbal	-1751
▁El	-1752
yuch	-1753
▁isx	-1754
telax	-1755
▁ayxa	-1756
▁heye	-1757
cabcon	-1758
chawal	-1759
istzab	-1760
occano	-1761
▁cosat	-1762
▁payxa	-1763
▁tohol	-1764
yichico	-1765
israeloj	-1766
nimanile	-1767
▁chinwatx	-1768
▁wilnihan	-1769
za	-1770
awi	-1771
eti	-1772
acan	-1773
weco	-1774
yani	-1775
Ta	-1776
▁d	-1777
iln	-1778
ioẍ	-1779
chaẍ	-1780
▁Hal	-1781
▁haj	-1782
simón	-1783
▁Isto	-1784
▁cuar	-1785
▁jehi	-1786
▁lago	-1787
▁mato	-1788
▁Walex	-1789
▁chabe	-1790
▁chiwa	-1791
▁quexw	-1792
▁Yahawil	-1793
▁Yebpaxo	-1794
▁tzalaho	-1795
▁chintohan	-1796
▁iscapilla	-1797
▁circuncisión	-1798
ih	-1799
cax	-1800
ante	-1801
haba	-1802
txon	-1803
pitán	-1804
yetbi	-1805
atatic	-1806
jichmam	-1807
walilal	-1808
chiwochehan	-1809
yabe	-1810
heyet	-1811
yohtan	-1812
▁iscan	-1813
▁istit	-1814
▁nabil	-1815
▁Haninti	-1816
▁cheyoche	-1817
▁iscawilal	-1818
ispaj	-1819
edo	-1820
etza	-1821
mand	-1822
unub	-1823
▁Yal	-1824
bocan	-1825
elelo	-1826
lobal	-1827
maría	-1828
▁chek	-1829
▁yeto	-1830
Diosal	-1831
ananta	-1832
ayicto	-1833
edonia	-1834
laxayo	-1835
paxilo	-1836
▁tzetc	-1837
▁yuẍta	-1838
najinan	-1839
▁ayinan	-1840
▁chijak	-1841
chielico	-1842
mandante	-1843
walnihan	-1844
▁chicawxi	-1845
▁heyohtaj	-1846
▁subchaho	-1847
xahanbalil	-1848
alc	-1849
imo	-1850
sak	-1851
chiyan	-1852
galilea	-1853
inbahan	-1854
ishelanil	-1855
yila	-1856
▁noh	-1857
inilo	-1858
tzala	-1859
▁meẍa	-1860
▁tzeh	-1861
aycano	-1862
▁helan	-1863
▁baytet	-1864
▁chexoc	-1865
▁chalilo	-1866
▁ilwebal	-1867
▁chichahni	-1868
▁ischejabo	-1869
gu	-1870
ape	-1871
▁“¿	-1872
esar	-1873
huno	-1874
ixan	-1875
wahi	-1876
zaro	-1877
amigo	-1878
atrón	-1879
ázaro	-1880
cowatx	-1881
tzujno	-1882
wepaxo	-1883
chiapni	-1884
ilaxilo	-1885
ischahni	-1886
iswalilal	-1887
tebilcano	-1888
elan	-1889
▁Xol	-1890
▁caj	-1891
abilo	-1892
chiel	-1893
janab	-1894
nahat	-1895
wehan	-1896
yayto	-1897
▁isca	-1898
▁maẍn	-1899
▁tioẍ	-1900
▁Mamin	-1901
▁cawxo	-1902
▁heyoc	-1903
▁isbel	-1904
▁ispoh	-1905
▁wiban	-1906
haninan	-1907
▁Egipto	-1908
▁Pascua	-1909
▁johtaj	-1910
▁yawten	-1911
▁yángel	-1912
cablahon	-1913
▁cachann	-1914
▁chipitzc	-1915
▁gobernador	-1916
ebej	-1917
mule	-1918
david	-1919
tohol	-1920
hewatx	-1921
chewatx	-1922
up	-1923
atu	-1924
ayi	-1925
▁Tx	-1926
▁mo	-1927
ahey	-1928
▁taj	-1929
carta	-1930
colni	-1931
eojab	-1932
maria	-1933
▁hetx	-1934
▁matx	-1935
cachni	-1936
chintz	-1937
wecano	-1938
yinito	-1939
▁chiay	-1940
▁chisk	-1941
▁pulta	-1942
aytojan	-1943
▁chijal	-1944
▁chixiw	-1945
▁isyije	-1946
▁janico	-1947
chitzala	-1948
▁chawute	-1949
▁hesunil	-1950
▁ayexxaco	-1951
▁chimunla	-1952
▁desierto	-1953
▁istxahli	-1954
▁munlawom	-1955
▁yalnicano	-1956
mil	-1957
buch	-1958
chach	-1959
ixnam	-1960
jacob	-1961
jilni	-1962
cheyala	-1963
machiswalilal	-1964
Ma	-1965
▁Na	-1966
yala	-1967
▁Nok	-1968
▁moh	-1969
itojan	-1970
yawten	-1971
▁hinan	-1972
▁yelti	-1973
herodes	-1974
masanto	-1975
▁chawak	-1976
▁machim	-1977
▁yilalo	-1978
wintajan	-1979
▁chawala	-1980
▁inmunil	-1981
chihallax	-1982
▁chilahwi	-1983
▁cutxanico	-1984
hem	-1985
umb	-1986
xel	-1987
bili	-1988
ilas	-1989
ucal	-1990
vaso	-1991
aniti	-1992
balax	-1993
iento	-1994
mamtu	-1995
wayan	-1996
ehojab	-1997
eybaln	-1998
meltzo	-1999
cheyaco	-2000
xewilal	-2001
chejbanile	-2002
elk	-2003
Hune	-2004
cami	-2005
isye	-2006
nino	-2007
▁nuk	-2008
▁oro	-2009
▁potx	-2010
▁txah	-2011
cheyal	-2012
pilato	-2013
ulojab	-2014
▁ayoco	-2015
▁hemul	-2016
▁moyan	-2017
▁ischah	-2018
wohtajan	-2019
▁conabal	-2020
▁hunujex	-2021
▁intohan	-2022
▁yilaxto	-2023
▁hechahni	-2024
▁heyohtan	-2025
▁janmahan	-2026
▁yahawilo	-2027
▁iscutxban	-2028
caj	-2029
uti	-2030
yuẍ	-2031
habil	-2032
hetxum	-2033
beybaln	-2034
hacojab	-2035
Bay	-2036
ene	-2037
noc	-2038
sub	-2039
toh	-2040
▁ij	-2041
acti	-2042
ayin	-2043
beyc	-2044
feso	-2045
icoj	-2046
itah	-2047
xwan	-2048
▁elk	-2049
▁isl	-2050
▁yuc	-2051
ancan	-2052
ijxan	-2053
mulan	-2054
ojlax	-2055
selel	-2056
▁Chin	-2057
▁Mame	-2058
▁hatz	-2059
▁mame	-2060
▁naba	-2061
acojab	-2062
ixobal	-2063
tzelax	-2064
▁hanin	-2065
▁howeb	-2066
ilnojan	-2067
▁Chalni	-2068
▁johtan	-2069
▁yulbal	-2070
chiwalti	-2071
▁cancano	-2072
▁chiyute	-2073
▁isbisil	-2074
ahann	-2075
ebilxa	-2076
isyeni	-2077
laxpaxo	-2078
chitzotel	-2079
ez	-2080
til	-2081
▁tak	-2082
▁tes	-2083
ismay	-2084
jalni	-2085
▁Chal	-2086
▁hewi	-2087
▁txon	-2088
abelax	-2089
baytet	-2090
▁Elías	-2091
▁hasat	-2092
▁hayeb	-2093
Hacojab	-2094
cachann	-2095
hununex	-2096
▁yettax	-2097
▁anciano	-2098
▁yanayto	-2099
▁istxumni	-2100
▁Cocolomal	-2101
▁ispultahil	-2102
ita	-2103
xay	-2104
ahab	-2105
ehel	-2106
lena	-2107
munl	-2108
uilo	-2109
bihan	-2110
enico	-2111
jetan	-2112
manil	-2113
ochen	-2114
paxti	-2115
yocto	-2116
aholan	-2117
axepic	-2118
elicoj	-2119
esarea	-2120
hawanma	-2121
nilojan	-2122
ischuquil	-2123
?”	-2124
Ho	-2125
cok	-2126
iro	-2127
▁xe	-2128
isch	-2129
isje	-2130
witz	-2131
▁Lan	-2132
▁hab	-2133
▁hin	-2134
▁say	-2135
▁uva	-2136
▁wec	-2137
ilcha	-2138
walex	-2139
▁Hach	-2140
▁txum	-2141
▁ismaj	-2142
▁jahaw	-2143
▁pitzc	-2144
▁toxan	-2145
hawalni	-2146
▁yalnic	-2147
▁chicolo	-2148
▁insatan	-2149
▁ispaxto	-2150
▁chaliloj	-2151
▁chicuywi	-2152
▁cuybanil	-2153
dr	-2154
gri	-2155
awte	-2156
yiyo	-2157
baytu	-2158
chman	-2159
coxol	-2160
yohta	-2161
etanto	-2162
ispotx	-2163
yelapnoj	-2164
cay	-2165
dea	-2166
isa	-2167
▁As	-2168
Tato	-2169
ahti	-2170
exxa	-2171
ujna	-2172
▁sam	-2173
abeto	-2174
ahole	-2175
axpon	-2176
ayayo	-2177
bilon	-2178
caman	-2179
chisc	-2180
matan	-2181
ojtam	-2182
omilo	-2183
tabal	-2184
trigo	-2185
ujcha	-2186
▁tzab	-2187
▁vino	-2188
▁yayc	-2189
abilxa	-2190
xiwcan	-2191
▁Matxa	-2192
▁chilo	-2193
▁haban	-2194
▁issaj	-2195
chiwatx	-2196
▁walnic	-2197
▁yayilo	-2198
paxtojan	-2199
wilnihan	-2200
▁chisbej	-2201
▁yoccano	-2202
islahobal	-2203
▁tohlabal	-2204
▁Antioquía	-2205
▁henimanil	-2206
▁istxiquin	-2207
eco	-2208
hum	-2209
hawu	-2210
tajo	-2211
tioẍ	-2212
insat	-2213
yetxa	-2214
yijni	-2215
ischah	-2216
yic	-2217
ixto	-2218
josé	-2219
▁lem	-2220
comon	-2221
yunin	-2222
huneln	-2223
▁chiyo	-2224
▁chican	-2225
isbeybal	-2226
▁Esteban	-2227
▁Nazaret	-2228
▁capilla	-2229
▁chiaben	-2230
▁chijaco	-2231
▁chijute	-2232
▁heyijen	-2233
▁chianico	-2234
▁chiyijen	-2235
▁hetxumni	-2236
▁itzitzbican	-2237
ev	-2238
asi	-2239
duc	-2240
ego	-2241
qui	-2242
balo	-2243
cart	-2244
ello	-2245
esto	-2246
ilxa	-2247
itam	-2248
ixwi	-2249
laxo	-2250
roma	-2251
txah	-2252
uloj	-2253
duceo	-2254
hanta	-2255
ibcan	-2256
yehan	-2257
anojab	-2258
atijan	-2259
carías	-2260
ernaum	-2261
inwatx	-2262
janico	-2263
quilal	-2264
txumni	-2265
yinilo	-2266
quexchi	-2267
xahanil	-2268
txahlihan	-2269
ebxa	-2270
ejla	-2271
ulmi	-2272
unla	-2273
iscab	-2274
judea	-2275
▁Timo	-2276
▁hetz	-2277
▁macn	-2278
▁camoj	-2279
▁ismak	-2280
▁jehan	-2281
▁wocan	-2282
ofrenda	-2283
▁binaho	-2284
▁camnaj	-2285
▁chawil	-2286
▁hujwan	-2287
echmabil	-2288
▁Timoteo	-2289
▁camnaxa	-2290
▁ichamta	-2291
▁iscolwa	-2292
chicowatx	-2293
▁chiyoche	-2294
▁nimanile	-2295
▁chinhulan	-2296
▁chiwaltojan	-2297
xe	-2298
hoy	-2299
canayo	-2300
di	-2301
hak	-2302
lom	-2303
oli	-2304
tuc	-2305
Chim	-2306
alto	-2307
dena	-2308
erub	-2309
into	-2310
oxeb	-2311
quis	-2312
taxa	-2313
uxni	-2314
▁bej	-2315
▁hon	-2316
▁maj	-2317
behal	-2318
elaxi	-2319
ixtan	-2320
ujban	-2321
yalax	-2322
awomal	-2323
chacan	-2324
erubín	-2325
romano	-2326
▁ayach	-2327
▁maxaw	-2328
▁trato	-2329
▁walan	-2330
▁yilax	-2331
antotic	-2332
▁Maẍtaj	-2333
▁ayinic	-2334
▁occano	-2335
chejaban	-2336
issajilk	-2337
▁masanta	-2338
▁cheyayto	-2339
halbilcano	-2340
▁ishitzico	-2341
▁chintzalahan	-2342
ur	-2343
abn	-2344
era	-2345
muj	-2346
pol	-2347
ron	-2348
eman	-2349
mato	-2350
ahlax	-2351
comul	-2352
chiyak	-2353
henabal	-2354
ismeltzo	-2355
txumchalo	-2356
▁how	-2357
▁inn	-2358
▁joc	-2359
hujeb	-2360
jahno	-2361
titna	-2362
▁buch	-2363
▁intz	-2364
▁nime	-2365
▁xilk	-2366
chislo	-2367
hunban	-2368
▁cabeb	-2369
▁lahon	-2370
▁wahil	-2371
cosunil	-2372
iscuyni	-2373
munlahi	-2374
tzotelo	-2375
yeniloj	-2376
▁Isaías	-2377
▁ayojab	-2378
▁chicok	-2379
▁ixahaw	-2380
▁yanayo	-2381
▁capitán	-2382
▁cheyije	-2383
▁coyijen	-2384
▁heyilni	-2385
▁yohtajo	-2386
▁yulajla	-2387
▁cochahni	-2388
▁Macedonia	-2389
▁innimanil	-2390
▁insatajan	-2391
▁comandante	-2392
ju	-2393
ale	-2394
ite	-2395
opo	-2396
amte	-2397
bawe	-2398
edec	-2399
peta	-2400
isbak	-2401
iscon	-2402
nayto	-2403
olivo	-2404
ulalo	-2405
abalan	-2406
chiyal	-2407
elquis	-2408
isyijen	-2409
rompeta	-2410
chisyije	-2411
heyanico	-2412
elquisedec	-2413
heb	-2414
hin	-2415
▁Za	-2416
maẍn	-2417
▁Cor	-2418
chink	-2419
ispoh	-2420
istit	-2421
▁chec	-2422
▁chix	-2423
▁hato	-2424
▁toxa	-2425
hunxan	-2426
▁Yapni	-2427
▁aycan	-2428
▁hawak	-2429
▁isnuk	-2430
▁nanxa	-2431
▁wacax	-2432
Haninti	-2433
▁hawehi	-2434
▁heyila	-2435
▁iscuyu	-2436
▁yanito	-2437
▁iscuywa	-2438
▁nananta	-2439
▁wabenan	-2440
▁Chiwalan	-2441
▁chitecha	-2442
▁ayinicojan	-2443
▁chinapnihan	-2444
▁isbejnicano	-2445
▁chitxumchalo	-2446
▁haltebilcano	-2447
▁chiwalcanojan	-2448
rag	-2449
acto	-2450
chen	-2451
hato	-2452
hatz	-2453
ixli	-2454
ojon	-2455
palc	-2456
yabil	-2457
ayayto	-2458
cobahan	-2459
hununon	-2460
teyiban	-2461
heyohtaj	-2462
isyenilo	-2463
yespíritu	-2464
bel	-2465
eli	-2466
ham	-2467
how	-2468
iyo	-2469
wah	-2470
yom	-2471
alxa	-2472
ayna	-2473
idar	-2474
▁ayn	-2475
▁oht	-2476
▁won	-2477
▁yok	-2478
abayo	-2479
abeni	-2480
ahuln	-2481
biloj	-2482
ecano	-2483
ishaj	-2484
jiban	-2485
masco	-2486
ordán	-2487
paxtu	-2488
ragón	-2489
wilal	-2490
▁Chiw	-2491
▁tzuj	-2492
▁yebi	-2493
achalo	-2494
ambeno	-2495
ayinan	-2496
balico	-2497
nimeta	-2498
▁Yahaw	-2499
▁hunix	-2500
▁istak	-2501
▁xayak	-2502
apnojan	-2503
▁Lázaro	-2504
▁anican	-2505
▁yehico	-2506
yichamil	-2507
▁Samaria	-2508
▁chijala	-2509
▁hatatic	-2510
▁iscuyni	-2511
ircuncidar	-2512
▁chicabcon	-2513
▁heyohtajo	-2514
ischejbanil	-2515
▁chitxumcha	-2516
▁quinchiyan	-2517
▁itzitzbocan	-2518
eq	-2519
ebo	-2520
rab	-2521
tac	-2522
atax	-2523
hatx	-2524
yipo	-2525
yitz	-2526
chabe	-2527
hesat	-2528
wipan	-2529
yalno	-2530
chijil	-2531
colwal	-2532
haywan	-2533
ischiq	-2534
machiswalil	-2535
hetz	-2536
macn	-2537
ujli	-2538
▁Yah	-2539
▁tac	-2540
▁xuk	-2541
▁yen	-2542
▁yox	-2543
belwi	-2544
ismak	-2545
juhan	-2546
saulo	-2547
▁etza	-2548
chicam	-2549
yintaj	-2550
▁Lahan	-2551
▁Silas	-2552
▁hawoc	-2553
▁xahey	-2554
▁yichi	-2555
bernabé	-2556
▁hacpax	-2557
▁halbil	-2558
▁cheyila	-2559
▁chiocto	-2560
▁istzoti	-2561
▁yahcano	-2562
tzettaxca	-2563
yalnicano	-2564
▁chichiwa	-2565
▁iscancano	-2566
▁istzoteli	-2567
▁yalnipaxo	-2568
▁istzabnico	-2569
▁wohtajojan	-2570
gd	-2571
ewe	-2572
ope	-2573
oro	-2574
anno	-2575
ejbi	-2576
eyab	-2577
islo	-2578
tzon	-2579
welo	-2580
bilti	-2581
ehayo	-2582
majal	-2583
masan	-2584
quexw	-2585
tzetc	-2586
bililo	-2587
ebanil	-2588
heyehi	-2589
inaloj	-2590
jacobo	-2591
laxcano	-2592
paxcano	-2593
ujbanic	-2594
abilonia	-2595
beybalan	-2596
chejtojan	-2597
ebilcanoj	-2598
elapnojan	-2599
iscamical	-2600
chiwaltojan	-2601
moh	-2602
xaj	-2603
yox	-2604
▁hi	-2605
meba	-2606
▁mam	-2607
cojan	-2608
hawet	-2609
hunuj	-2610
judas	-2611
mulum	-2612
▁Asia	-2613
▁aben	-2614
▁cheh	-2615
▁nabn	-2616
felipe	-2617
▁Efeso	-2618
▁oxwan	-2619
▁tzala	-2620
▁yalte	-2621
ispitzc	-2622
israelo	-2623
▁chisye	-2624
▁selelo	-2625
▁ẍicano	-2626
chicolwa	-2627
▁Inmamtu	-2628
▁Walpaxo	-2629
▁Yichico	-2630
▁ayexico	-2631
▁buchwal	-2632
▁chechah	-2633
▁chicami	-2634
▁chiwute	-2635
▁hacojab	-2636
▁iscawxi	-2637
▁istrato	-2638
chiocnico	-2639
iscawilal	-2640
▁haltebil	-2641
▁yuninalo	-2642
▁iscawxican	-2643
circuncisión	-2644
chiitzitzbican	-2645
ayn	-2646
ini	-2647
alam	-2648
cuar	-2649
chiti	-2650
payxa	-2651
wilan	-2652
yawte	-2653
cheyoche	-2654
chicawxi	-2655
chilahwi	-2656
él	-2657
Yet	-2658
bin	-2659
bit	-2660
ibo	-2661
txk	-2662
▁uc	-2663
drés	-2664
ebal	-2665
exin	-2666
wala	-2667
▁Cap	-2668
▁Sak	-2669
▁wah	-2670
abico	-2671
chati	-2672
chuqu	-2673
cosat	-2674
gdala	-2675
gripa	-2676
inito	-2677
laxan	-2678
pixto	-2679
▁inan	-2680
▁itah	-2681
▁vaso	-2682
▁wala	-2683
abehal	-2684
alomón	-2685
bilico	-2686
cachwa	-2687
etaxto	-2688
johtaj	-2689
ulalan	-2690
uywahi	-2691
▁Isaac	-2692
▁baytu	-2693
▁chitx	-2694
▁lahti	-2695
▁mujan	-2696
annihan	-2697
canicoj	-2698
ejbiyal	-2699
ilaxcan	-2700
yijehan	-2701
▁Chiwal	-2702
▁Tzujan	-2703
▁ayahto	-2704
▁chebej	-2705
▁hawatx	-2706
▁istxam	-2707
▁yuẍtaj	-2708
chinwatx	-2709
elicojan	-2710
▁Cesarea	-2711
▁inmulan	-2712
▁yalcano	-2713
▁yetbiho	-2714
▁yohtaxa	-2715
chintohan	-2716
chuquilan	-2717
quinpaxtu	-2718
▁chawoche	-2719
▁chijalan	-2720
▁chiwilan	-2721
▁coxahann	-2722
▁tawintaj	-2723
▁cheyohtan	-2724
▁chicancano	-2725
▁chiwabehan	-2726
hab	-2727
jal	-2728
paj	-2729
jehi	-2730
lago	-2731
ahilo	-2732
epaxo	-2733
nabil	-2734
echman	-2735
isyije	-2736
yulbal	-2737
cheyabe	-2738
ilchalo	-2739
intohan	-2740
tzalaho	-2741
yilaxto	-2742
colwahan	-2743
chejbanil	-2744
iscapilla	-2745
iscutxban	-2746
Asi	-2747
ajn	-2748
oto	-2749
▁mi	-2750
▁on	-2751
Ahan	-2752
chek	-2753
isca	-2754
▁Bar	-2755
▁het	-2756
▁tec	-2757
Sunil	-2758
camoj	-2759
cawxo	-2760
iscan	-2761
▁isje	-2762
▁iswa	-2763
▁wuti	-2764
chijak	-2765
▁chejn	-2766
▁hawip	-2767
▁heyip	-2768
▁nahul	-2769
▁testi	-2770
iscolni	-2771
▁ciento	-2772
▁colwal	-2773
▁cuarto	-2774
▁hallax	-2775
▁yalten	-2776
▁babelal	-2777
▁isbelwi	-2778
▁islahti	-2779
▁lahanex	-2780
▁yichmam	-2781
▁Walxinto	-2782
▁japnihan	-2783
▁heyohtaxa	-2784
▁machipaxo	-2785
▁yitzitzbican	-2786
ile	-2787
anwe	-2788
atro	-2789
bana	-2790
eite	-2791
eltz	-2792
vino	-2793
xalo	-2794
yeto	-2795
élix	-2796
aweti	-2797
aytoj	-2798
guera	-2799
helni	-2800
hinan	-2801
howeb	-2802
nilto	-2803
toxan	-2804
yuẍta	-2805
ábana	-2806
chican	-2807
cojtam	-2808
etania	-2809
tzolax	-2810
utelax	-2811
ehelanil	-2812
munlawom	-2813
subchaho	-2814
yahawilo	-2815
ambenpaxo	-2816
so	-2817
Naj	-2818
cho	-2819
sam	-2820
▁ok	-2821
▁sa	-2822
elto	-2823
meẍa	-2824
tzeh	-2825
▁cuy	-2826
▁gri	-2827
▁mak	-2828
canan	-2829
chisk	-2830
ujlax	-2831
▁chew	-2832
▁ilni	-2833
▁laba	-2834
▁mayu	-2835
▁yilw	-2836
chexoc	-2837
▁aldea	-2838
▁anico	-2839
▁aytic	-2840
▁nitam	-2841
chalilo	-2842
ilwebal	-2843
nitojan	-2844
▁chayto	-2845
▁espada	-2846
▁griego	-2847
▁iscami	-2848
▁ispeto	-2849
chipitzc	-2850
▁issayni	-2851
▁saduceo	-2852
▁sunilej	-2853
▁tzijxan	-2854
▁yahwano	-2855
▁yehobal	-2856
▁yinican	-2857
chichahni	-2858
ischejabo	-2859
ishitzico	-2860
nipaxojan	-2861
▁Zacarías	-2862
▁chexxiwi	-2863
▁chijoche	-2864
▁hawohtaj	-2865
▁isDiosal	-2866
▁mohyilal	-2867
▁quexwila	-2868
▁yictabal	-2869
▁Capernaum	-2870
▁chicochah	-2871
▁isxahanil	-2872
▁xiwquilal	-2873
▁chiyeniloj	-2874
▁ismachiswalilal	-2875
cal	-2876
cap	-2877
elti	-2878
heye	-2879
chiay	-2880
helan	-2881
heyoc	-2882
isbel	-2883
wiban	-2884
yelax	-2885
egipto	-2886
pascua	-2887
tocano	-2888
yángel	-2889
hesunil	-2890
yijenan	-2891
gobernador	-2892
Yu	-2893
ein	-2894
eví	-2895
inn	-2896
mej	-2897
nel	-2898
reo	-2899
tar	-2900
▁Ca	-2901
ario	-2902
bayo	-2903
caya	-2904
chma	-2905
ecan	-2906
hetx	-2907
idón	-2908
inta	-2909
lwec	-2910
ojex	-2911
urro	-2912
▁poh	-2913
▁xan	-2914
ajano	-2915
anabi	-2916
atxte	-2917
▁	-2918
a	-2919
¦	-2920
n	-2921
i	-2922
t	-2923
c	-2924
e	-2925
o	-2926
h	-2927
y	-2928
l	-2929
ˈ	-2930
m	-2931
u	-2932
j	-2933
s	-2934
b	-2935
x	-2936
̈	-2937
w	-2938
,	-2939
𐋇	-2940
.	-2941
k	-2942
C	-2943
z	-2944
p	-2945
r	-2946
ẍ	-2947
d	-2948
Y	-2949
H	-2950
:	-2951
D	-2952
J	-2953
―	-2954
I	-2955
M	-2956
q	-2957
ú	-2958
W	-2959
?	-2960
¿	-2961
T	-2962
A	-2963
í	-2964
g	-2965
é	-2966
P	-2967
S	-2968
“	-2969
”	-2970
L	-2971
á	-2972
;	-2973
E	-2974
ó	-2975
f	-2976
v	-2977
!	-2978
¡	-2979
‐	-2980
N	-2981
B	-2982
G	-2983
K	-2984
F	-2985
R	-2986
X	-2987
O	-2988
Z	-2989
‘	-2990
’	-2991
(	-2992
)	-2993
Q	-2994
U	-2995
ñ	-2996
