<pad>	0
</s>	0
<unk>	0
▁p	-0
ti	-1
ai	-2
ri	-3
os	-4
▁k	-5
▁s	-6
in	-7
au	-8
as	-9
▁t	-10
ar	-11
ir	-12
al	-13
▁n	-14
is	-15
im	-16
an	-17
en	-18
▁d	-19
am	-20
us	-21
▁v	-22
▁ir	-23
ei	-24
at	-25
▁b	-26
ad	-27
om	-28
ij	-29
es	-30
▁m	-31
ro	-32
ių	-33
on	-34
ės	-35
ek	-36
▁g	-37
tin	-38
oj	-39
er	-40
uri	-41
li	-42
ra	-43
▁š	-44
▁su	-45
▁į	-46
▁j	-47
▁kad	-48
eik	-49
▁pa	-50
tų	-51
▁E	-52
tik	-53
▁pri	-54
či	-55
iš	-56
▁r	-57
yb	-58
▁ne	-59
aus	-60
▁a	-61
em	-62
▁l	-63
um	-64
st	-65
uo	-66
▁pas	-67
▁T	-68
av	-69
uro	-70
ėl	-71
et	-72
▁iš	-73
▁at	-74
▁P	-75
rin	-76
▁tai	-77
▁kuri	-78
urop	-79
ki	-80
ijos	-81
▁Europ	-82
or	-83
aug	-84
arb	-85
ta	-86
▁K	-87
ant	-88
to	-89
▁ši	-90
ur	-91
▁Europos	-92
▁bū	-93
ži	-94
imo	-95
ėj	-96
el	-97
end	-98
▁y	-99
ais	-100
▁ap	-101
id	-102
▁ž	-103
▁vis	-104
eis	-105
omis	-106
yv	-107
▁gal	-108
▁pat	-109
už	-110
▁dėl	-111
gi	-112
▁pr	-113
▁pro	-114
▁tik	-115
▁už	-116
▁po	-117
▁kai	-118
ie	-119
ink	-120
ab	-121
min	-122
▁to	-123
oje	-124
ym	-125
ien	-126
▁yra	-127
yti	-128
▁S	-129
cij	-130
ėm	-131
eš	-132
▁-	-133
usi	-134
tu	-135
ak	-136
ok	-137
un	-138
aik	-139
iek	-140
▁val	-141
čiau	-142
uos	-143
si	-144
tas	-145
imą	-146
io	-147
▁re	-148
▁in	-149
▁teis	-150
ia	-151
pr	-152
imas	-153
tr	-154
▁sk	-155
yk	-156
▁sv	-157
▁A	-158
▁B	-159
▁pir	-160
ui	-161
ama	-162
▁turi	-163
laus	-164
aud	-165
▁par	-166
ci	-167
▁f	-168
▁pad	-169
▁M	-170
gal	-171
ūs	-172
lam	-173
▁Komis	-174
styb	-175
auj	-176
▁reik	-177
ing	-178
te	-179
ame	-180
tis	-181
vo	-182
lamen	-183
rim	-184
ąj	-185
▁(	-186
ung	-187
od	-188
▁valstyb	-189
ys	-190
čių	-191
cijos	-192
minink	-193
il	-194
toj	-195
ams	-196
▁daug	-197
▁J	-198
ik	-199
inti	-200
▁šal	-201
iu	-202
▁V	-203
▁sav	-204
až	-205
▁veik	-206
▁kaip	-207
▁klaus	-208
▁nes	-209
je	-210
kai	-211
▁taip	-212
tar	-213
▁svarb	-214
▁bend	-215
ari	-216
▁lab	-217
▁poli	-218
iai	-219
and	-220
▁per	-221
tą	-222
ėtų	-223
aneš	-224
▁N	-225
ime	-226
ija	-227
ąjung	-228
og	-229
ūsų	-230
ūr	-231
▁Par	-232
sti	-233
▁o	-234
▁D	-235
▁darb	-236
uvo	-237
▁Parlamen	-238
▁tur	-239
▁Tai	-240
▁praneš	-241
▁ES	-242
▁Sąjung	-243
tos	-244
▁did	-245
ov	-246
ans	-247
ėti	-248
▁kon	-249
▁2	-250
▁būti	-251
amas	-252
▁pirminink	-253
esn	-254
▁nar	-255
yje	-256
▁G	-257
▁būtų	-258
▁sus	-259
ol	-260
▁Š	-261
▁ats	-262
dži	-263
tat	-264
▁nor	-265
▁pasi	-266
yg	-267
▁man	-268
▁pag	-269
iau	-270
jų	-271
uom	-272
me	-273
▁savo	-274
▁nep	-275
umo	-276
mon	-277
eli	-278
eg	-279
▁ek	-280
▁vien	-281
▁labai	-282
ami	-283
▁apie	-284
inių	-285
ios	-286
oms	-287
▁buvo	-288
tai	-289
▁ki	-290
eng	-291
rink	-292
ej	-293
▁dar	-294
▁dal	-295
anči	-296
▁bendr	-297
sl	-298
▁siek	-299
uk	-300
▁susi	-301
ūl	-302
▁tar	-303
ems	-304
emon	-305
šk	-306
ties	-307
ačiau	-308
▁R	-309
ul	-310
▁pak	-311
▁galim	-312
tim	-313
auk	-314
▁laik	-315
▁ar	-316
ybos	-317
▁prie	-318
ius	-319
eig	-320
▁met	-321
onom	-322
▁mūsų	-323
iz	-324
ėčiau	-325
▁priemon	-326
▁tr	-327
ist	-328
▁įv	-329
ank	-330
▁pl	-331
alb	-332
tink	-333
▁politik	-334
▁20	-335
▁nuo	-336
▁Komisijos	-337
inės	-338
ekt	-339
▁L	-340
ed	-341
tikrin	-342
amos	-343
▁Tar	-344
pa	-345
aid	-346
▁nari	-347
▁spr	-348
ėms	-349
iaus	-350
▁ekonom	-351
avimo	-352
tum	-353
▁ver	-354
▁pirmininke	-355
ome	-356
uoti	-357
▁rink	-358
oti	-359
men	-360
▁I	-361
raš	-362
one	-363
oma	-364
inans	-365
▁veiks	-366
ori	-367
ili	-368
vir	-369
▁nauj	-370
▁bet	-371
▁mok	-372
▁proc	-373
▁užtikrin	-374
als	-375
imų	-376
cial	-377
▁kom	-378
▁bus	-379
▁aps	-380
▁finans	-381
ap	-382
▁gr	-383
▁mes	-384
orm	-385
isk	-386
▁kar	-387
jos	-388
▁naud	-389
žv	-390
acij	-391
yst	-392
ent	-393
▁net	-394
▁sri	-395
▁tarp	-396
ang	-397
▁pasiūl	-398
▁es	-399
ums	-400
rind	-401
▁1	-402
▁reikal	-403
▁gyv	-404
ymo	-405
▁pav	-406
ėjo	-407
odėl	-408
eri	-409
bl	-410
▁str	-411
▁są	-412
▁sprend	-413
▁žmon	-414
abar	-415
ter	-416
▁"	-417
ch	-418
var	-419
ėk	-420
▁	-421
i	-422
a	-423
s	-424
t	-425
r	-426
o	-427
e	-428
n	-429
u	-430
k	-431
m	-432
p	-433
l	-434
d	-435
v	-436
j	-437
g	-438
,	-439
b	-440
ų	-441
y	-442
ė	-443
.	-444
š	-445
ą	-446
ž	-447
į	-448
ū	-449
c	-450
č	-451
E	-452
T	-453
P	-454
z	-455
S	-456
f	-457
K	-458
ę	-459
0	-460
-	-461
A	-462
B	-463
M	-464
V	-465
2	-466
(	-467
)	-468
D	-469
N	-470
J	-471
R	-472
"	-473
G	-474
1	-475
h	-476
L	-477
Š	-478
I	-479
:	-480
C	-481
?	-482
9	-483
O	-484
5	-485
F	-486
3	-487
U	-488
8	-489
;	-490
7	-491
4	-492
Ž	-493
6	-494
H	-495
/	-496
