<pad>	0
</s>	0
<unk>	0
▁p	-0
ti	-1
ai	-2
ri	-3
os	-4
▁k	-5
▁s	-6
in	-7
au	-8
as	-9
ar	-10
▁t	-11
ir	-12
al	-13
▁n	-14
is	-15
im	-16
an	-17
en	-18
▁d	-19
am	-20
us	-21
▁v	-22
▁ir	-23
at	-24
ei	-25
ad	-26
▁b	-27
om	-28
ij	-29
▁m	-30
es	-31
ro	-32
ių	-33
on	-34
ės	-35
ek	-36
tin	-37
▁g	-38
er	-39
oj	-40
uri	-41
li	-42
▁š	-43
ra	-44
▁su	-45
▁kad	-46
▁j	-47
▁į	-48
eik	-49
▁pa	-50
▁E	-51
tų	-52
▁r	-53
tik	-54
či	-55
iš	-56
yb	-57
▁pri	-58
aus	-59
▁ne	-60
▁a	-61
st	-62
em	-63
▁l	-64
um	-65
uo	-66
ėl	-67
uro	-68
av	-69
▁T	-70
▁pas	-71
et	-72
▁at	-73
rin	-74
▁iš	-75
▁P	-76
▁kuri	-77
▁tai	-78
urop	-79
ijos	-80
ki	-81
▁Europ	-82
or	-83
ta	-84
arb	-85
aug	-86
to	-87
ant	-88
▁K	-89
ur	-90
▁ši	-91
▁Europos	-92
ži	-93
▁bū	-94
ėj	-95
end	-96
ais	-97
el	-98
▁y	-99
imo	-100
▁ž	-101
id	-102
▁ap	-103
▁vis	-104
eis	-105
omis	-106
▁dėl	-107
yv	-108
▁u	-109
ali	-110
▁pat	-111
gi	-112
▁pr	-113
▁tik	-114
▁po	-115
▁už	-116
▁kai	-117
ien	-118
ink	-119
ym	-120
▁pro	-121
ab	-122
eš	-123
min	-124
▁yra	-125
▁to	-126
oje	-127
▁S	-128
yti	-129
ėm	-130
▁-	-131
cij	-132
usi	-133
ok	-134
uos	-135
ak	-136
un	-137
aik	-138
ie	-139
imą	-140
si	-141
ent	-142
▁re	-143
čiau	-144
iek	-145
▁val	-146
▁in	-147
imas	-148
▁teis	-149
io	-150
▁gal	-151
ui	-152
▁B	-153
pr	-154
▁sk	-155
yk	-156
ama	-157
ia	-158
tr	-159
▁pir	-160
▁par	-161
▁kl	-162
▁A	-163
▁sv	-164
▁M	-165
▁f	-166
aud	-167
▁pad	-168
tu	-169
▁turi	-170
ci	-171
ūs	-172
auj	-173
ame	-174
▁pag	-175
▁reik	-176
lam	-177
styb	-178
ing	-179
▁Komis	-180
ąj	-181
tas	-182
ung	-183
od	-184
vo	-185
cijos	-186
tis	-187
▁valstyb	-188
rim	-189
minink	-190
čių	-191
▁(	-192
ys	-193
te	-194
▁daug	-195
il	-196
▁kaip	-197
▁V	-198
▁klaus	-199
▁J	-200
ams	-201
kai	-202
je	-203
inti	-204
až	-205
▁sav	-206
▁bend	-207
▁veik	-208
ari	-209
ik	-210
▁lab	-211
▁taip	-212
toj	-213
▁per	-214
ime	-215
▁poli	-216
tar	-217
and	-218
ėtų	-219
ūr	-220
▁svarb	-221
aneš	-222
▁darb	-223
ąjung	-224
og	-225
▁nes	-226
▁šal	-227
tos	-228
ūsų	-229
ov	-230
▁tur	-231
eg	-232
▁N	-233
▁o	-234
▁Par	-235
iu	-236
sti	-237
uvo	-238
▁G	-239
▁pirminink	-240
▁Parlam	-241
▁kon	-242
iai	-243
▁D	-244
▁praneš	-245
▁Sąjung	-246
▁2	-247
alb	-248
tą	-249
ija	-250
▁ES	-251
▁būtų	-252
amas	-253
▁did	-254
▁būti	-255
yje	-256
▁Š	-257
▁sus	-258
ans	-259
▁ats	-260
ėti	-261
▁Tai	-262
▁nar	-263
ol	-264
▁pasi	-265
dži	-266
▁man	-267
tat	-268
▁nor	-269
eli	-270
esn	-271
jų	-272
uom	-273
oms	-274
▁susi	-275
▁labai	-276
ami	-277
▁ki	-278
mon	-279
▁savo	-280
yg	-281
▁ek	-282
me	-283
▁vien	-284
rink	-285
eng	-286
inių	-287
anči	-288
▁tar	-289
▁nep	-290
umo	-291
▁bendr	-292
ūl	-293
iau	-294
▁buvo	-295
▁siek	-296
sl	-297
ej	-298
uk	-299
▁apie	-300
ul	-301
▁dar	-302
ybos	-303
ems	-304
auk	-305
eig	-306
▁pak	-307
emon	-308
▁galim	-309
▁prie	-310
▁ar	-311
▁mūsų	-312
onom	-313
tim	-314
ėčiau	-315
ekt	-316
tink	-317
▁laik	-318
▁pl	-319
ačiau	-320
▁L	-321
inės	-322
▁met	-323
šk	-324
ank	-325
▁dal	-326
▁nuo	-327
▁įv	-328
▁nari	-329
▁20	-330
▁Komisijos	-331
▁R	-332
ties	-333
ios	-334
▁priemon	-335
ist	-336
▁tr	-337
▁politik	-338
▁rink	-339
ius	-340
▁ver	-341
ed	-342
ėms	-343
▁ekonom	-344
▁pirmininke	-345
▁spr	-346
oti	-347
▁Tar	-348
amos	-349
tai	-350
ori	-351
tum	-352
▁bet	-353
pa	-354
tikrin	-355
aid	-356
raš	-357
▁gali	-358
avimo	-359
ento	-360
inans	-361
uoti	-362
▁nauj	-363
▁kom	-364
one	-365
▁reikal	-366
▁tarp	-367
ili	-368
▁pasiūl	-369
ome	-370
žv	-371
vir	-372
isk	-373
ymo	-374
als	-375
▁veiks	-376
▁klausim	-377
men	-378
▁finans	-379
oma	-380
▁net	-381
acij	-382
yst	-383
ums	-384
orm	-385
odėl	-386
▁mok	-387
ter	-388
▁mes	-389
▁užtikrin	-390
▁bus	-391
▁įg	-392
jos	-393
▁gyv	-394
▁naud	-395
▁I	-396
▁gr	-397
▁proc	-398
▁sri	-399
ap	-400
▁pav	-401
▁1	-402
▁kar	-403
rind	-404
ang	-405
var	-406
▁jų	-407
▁aps	-408
▁sprend	-409
ag	-410
ėk	-411
ėjo	-412
▁str	-413
▁es	-414
▁žmon	-415
uose	-416
▁sud	-417
uoj	-418
▁jau	-419
▁	-420
i	-421
a	-422
s	-423
t	-424
r	-425
o	-426
e	-427
n	-428
u	-429
k	-430
m	-431
p	-432
l	-433
d	-434
j	-435
v	-436
g	-437
,	-438
b	-439
ų	-440
y	-441
ė	-442
.	-443
š	-444
ą	-445
ž	-446
į	-447
ū	-448
c	-449
č	-450
E	-451
P	-452
T	-453
z	-454
S	-455
f	-456
K	-457
ę	-458
-	-459
0	-460
A	-461
B	-462
M	-463
2	-464
V	-465
(	-466
)	-467
D	-468
N	-469
J	-470
R	-471
G	-472
"	-473
1	-474
L	-475
h	-476
Š	-477
I	-478
:	-479
C	-480
9	-481
?	-482
O	-483
5	-484
U	-485
F	-486
3	-487
4	-488
;	-489
7	-490
8	-491
Ž	-492
6	-493
H	-494
/	-495
Į	-496
