<pad>	0
</s>	0
<unk>	0
▁¦	-0
th	-1
in	-2
the	-3
re	-4
on	-5
an	-6
at	-7
en	-8
er	-9
or	-10
▁𐋇	-11
▁the	-12
is	-13
ed	-14
al	-15
as	-16
es	-17
▁s	-18
to	-19
of	-20
▁c	-21
ar	-22
ing	-23
▁a	-24
ti	-25
ou	-26
▁w	-27
and	-28
▁in	-29
▁p	-30
▁h	-31
ent	-32
▁of	-33
▁b	-34
ac	-35
it	-36
▁f	-37
▁d	-38
ati	-39
▁to	-40
ic	-41
il	-42
ro	-43
ve	-44
▁.	-45
ec	-46
id	-47
tr	-48
le	-49
▁,	-50
▁m	-51
he	-52
▁and	-53
us	-54
ation	-55
os	-56
ir	-57
om	-58
▁T	-59
▁th	-60
▁n	-61
▁be	-62
ay	-63
ad	-64
ver	-65
▁re	-66
ly	-67
ow	-68
▁v	-69
tion	-70
▁C	-71
▁is	-72
acc	-73
ter	-74
oron	-75
▁M	-76
ave	-77
ch	-78
un	-79
ur	-80
ol	-81
accin	-82
orona	-83
ment	-84
▁l	-85
ill	-86
▁A	-87
▁g	-88
op	-89
▁e	-90
st	-91
ate	-92
▁I	-93
▁t	-94
▁S	-95
am	-96
ot	-97
um	-98
ce	-99
▁The	-100
ted	-101
im	-102
▁for	-103
di	-104
ith	-105
▁on	-106
et	-107
el	-108
oun	-109
are	-110
ak	-111
oc	-112
ig	-113
rom	-114
for	-115
ers	-116
▁st	-117
▁are	-118
ts	-119
be	-120
res	-121
als	-122
over	-123
ents	-124
ut	-125
ul	-126
em	-127
▁vaccin	-128
ld	-129
ab	-130
ag	-131
fec	-132
ere	-133
▁P	-134
▁that	-135
ain	-136
▁has	-137
▁H	-138
se	-139
ap	-140
out	-141
ther	-142
ome	-143
▁have	-144
atients	-145
umb	-146
ion	-147
▁con	-148
all	-149
▁D	-150
ity	-151
vid	-152
▁an	-153
▁with	-154
▁B	-155
iti	-156
iv	-157
▁In	-158
aid	-159
irus	-160
por	-161
▁wh	-162
overn	-163
20	-164
▁corona	-165
▁𐊣	-166
od	-167
alth	-168
our	-169
overnment	-170
if	-171
ess	-172
▁1	-173
▁was	-174
ore	-175
inis	-176
▁as	-177
ase	-178
eop	-179
eople	-180
▁r	-181
▁"	-182
▁will	-183
ould	-184
gen	-185
uc	-186
qu	-187
har	-188
▁from	-189
ear	-190
▁W	-191
est	-192
▁dis	-193
▁pro	-194
▁(	-195
ud	-196
▁y	-197
▁R	-198
ated	-199
▁or	-200
also	-201
up	-202
ew	-203
▁'	-204
igh	-205
own	-206
▁o	-207
▁not	-208
19	-209
av	-210
▁at	-211
wh	-212
ies	-213
▁sh	-214
pl	-215
▁by	-216
me	-217
ash	-218
tric	-219
pit	-220
tions	-221
▁been	-222
ant	-223
corona	-224
▁it	-225
ays	-226
vaccin	-227
pro	-228
co	-229
ep	-230
▁patients	-231
cl	-232
▁ex	-233
con	-234
umber	-235
ospit	-236
ary	-237
any	-238
end	-239
▁this	-240
ork	-241
▁vaccine	-242
-19	-243
has	-244
per	-245
fter	-246
▁tr	-247
▁Th	-248
▁N	-249
that	-250
sp	-251
▁he	-252
sh	-253
inister	-254
tor	-255
ge	-256
▁O	-257
ef	-258
▁com	-259
▁said	-260
med	-261
gh	-262
ous	-263
▁U	-264
ountr	-265
ical	-266
ast	-267
der	-268
ding	-269
com	-270
ure	-271
▁ch	-272
cre	-273
we	-274
ath	-275
▁government	-276
have	-277
ans	-278
tra	-279
ever	-280
one	-281
▁people	-282
ial	-283
fic	-284
ock	-285
ik	-286
ack	-287
ren	-288
with	-289
ough	-290
port	-291
xy	-292
ue	-293
ound	-294
vel	-295
ms	-296
ail	-297
ex	-298
▁also	-299
ose	-300
ub	-301
virus	-302
xygen	-303
pr	-304
▁F	-305
tic	-306
▁de	-307
▁im	-308
dis	-309
ance	-310
▁state	-311
age	-312
▁infec	-313
ahar	-314
ine	-315
dia	-316
use	-317
ven	-318
down	-319
uch	-320
ator	-321
iz	-322
ashtra	-323
aharashtra	-324
this	-325
▁K	-326
▁ac	-327
▁Ch	-328
ost	-329
▁cl	-330
not	-331
▁un	-332
ospital	-333
ip	-334
▁were	-335
▁G	-336
will	-337
ib	-338
▁ad	-339
▁per	-340
▁virus	-341
able	-342
duc	-343
ens	-344
cent	-345
from	-346
▁number	-347
pre	-348
▁¦1	-349
ll	-350
▁le	-351
ockdown	-352
00	-353
▁2	-354
art	-355
▁He	-356
ond	-357
▁ab	-358
▁cont	-359
reat	-360
ard	-361
ia	-362
iss	-363
▁we	-364
pos	-365
ild	-366
time	-367
▁20	-368
ates	-369
ive	-370
▁can	-371
act	-372
ased	-373
ym	-374
ple	-375
▁E	-376
was	-377
ease	-378
▁Corona	-379
by	-380
trict	-381
eed	-382
ong	-383
ile	-384
enti	-385
ases	-386
ations	-387
▁all	-388
ru	-389
▁countr	-390
ass	-391
day	-392
▁should	-393
arch	-394
lo	-395
ach	-396
ire	-397
▁other	-398
▁work	-399
ra	-400
ovid	-401
ight	-402
te	-403
de	-404
▁J	-405
▁health	-406
ell	-407
▁Minister	-408
patients	-409
ist	-410
ai	-411
▁me	-412
ffec	-413
been	-414
tive	-415
ording	-416
ake	-417
▁there	-418
▁had	-419
▁se	-420
clud	-421
pe	-422
ich	-423
▁cent	-424
une	-425
ask	-426
ymp	-427
vaccine	-428
▁res	-429
ympto	-430
oll	-431
▁ap	-432
other	-433
ID	-434
OV	-435
ang	-436
irst	-437
very	-438
▁k	-439
ally	-440
pec	-441
OVID	-442
wo	-443
ike	-444
ence	-445
ress	-446
said	-447
▁pre	-448
ide	-449
ame	-450
ool	-451
government	-452
covid	-453
▁pl	-454
ied	-455
econd	-456
there	-457
used	-458
▁out	-459
▁after	-460
▁Maharashtra	-461
▁oxygen	-462
▁who	-463
velop	-464
form	-465
▁ag	-466
ish	-467
uring	-468
▁COVID	-469
▁India	-470
ief	-471
orld	-472
▁V	-473
ign	-474
▁you	-475
▁incre	-476
0¦	-477
ace	-478
miss	-479
▁Wh	-480
infec	-481
health	-482
people	-483
oV	-484
▁hand	-485
▁L	-486
▁do	-487
▁dec	-488
chool	-489
ice	-490
ubl	-491
ting	-492
ures	-493
inistr	-494
og	-495
erv	-496
ons	-497
ious	-498
ind	-499
▁no	-500
▁3	-501
ities	-502
uation	-503
▁It	-504
state	-505
ymptoms	-506
▁about	-507
af	-508
aw	-509
iven	-510
▁more	-511
▁pr	-512
ort	-513
ildren	-514
mission	-515
umbai	-516
▁Dr	-517
▁test	-518
▁This	-519
▁)	-520
aj	-521
ok	-522
ade	-523
owever	-524
esh	-525
gan	-526
octor	-527
▁their	-528
reatment	-529
ced	-530
ov	-531
CoV	-532
▁lockdown	-533
▁than	-534
▁time	-535
atory	-536
▁But	-537
mun	-538
▁some	-539
fore	-540
here	-541
odi	-542
▁new	-543
cont	-544
aking	-545
ituation	-546
▁so	-547
▁med	-548
ning	-549
RS	-550
▁?	-551
ek	-552
▁5	-553
stem	-554
▁infection	-555
ree	-556
ublic	-557
ystem	-558
ult	-559
cording	-560
han	-561
but	-562
row	-563
▁under	-564
▁disease	-565
▁being	-566
▁vaccination	-567
▁days	-568
▁vaccines	-569
were	-570
work	-571
bre	-572
can	-573
▁year	-574
fere	-575
▁pos	-576
▁one	-577
▁Health	-578
▁country	-579
rough	-580
▁4	-581
▁if	-582
▁¦2	-583
▁these	-584
▁-	-585
so	-586
▁av	-587
ailable	-588
itiz	-589
ainst	-590
ines	-591
▁There	-592
▁al	-593
number	-594
ber	-595
▁resp	-596
isk	-597
rug	-598
▁Pr	-599
red	-600
ute	-601
sti	-602
pread	-603
ne	-604
▁Un	-605
▁need	-606
▁sup	-607
ministr	-608
aken	-609
▁but	-610
anu	-611
noun	-612
▁As	-613
▁go	-614
after	-615
▁qu	-616
▁which	-617
▁includ	-618
cy	-619
had	-620
mit	-621
ported	-622
ves	-623
feren	-624
ating	-625
-19¦	-626
▁reg	-627
rent	-628
ited	-629
▁they	-630
▁first	-631
▁¦20	-632
erson	-633
jec	-634
cr	-635
▁high	-636
▁ar	-637
▁hospital	-638
▁Ac	-639
▁many	-640
minister	-641
ospitals	-642
ered	-643
urrent	-644
gr	-645
itic	-646
olog	-647
dition	-648
ational	-649
ause	-650
mer	-651
who	-652
-2	-653
old	-654
rol	-655
akh	-656
▁spread	-657
mon	-658
no	-659
break	-660
▁may	-661
▁found	-662
hav	-663
countr	-664
▁second	-665
ody	-666
▁effec	-667
ina	-668
formation	-669
hi	-670
acker	-671
trictions	-672
now	-673
ARS	-674
▁two	-675
ackeray	-676
▁up	-677
,00	-678
ral	-679
app	-680
▁get	-681
emic	-682
eng	-683
should	-684
▁comp	-685
eds	-686
▁cases	-687
osed	-688
owed	-689
▁last	-690
aren	-691
▁such	-692
tim	-693
ater	-694
▁day	-695
ply	-696
dr	-697
▁op	-698
▁over	-699
go	-700
its	-701
▁stud	-702
▁March	-703
▁On	-704
read	-705
ision	-706
iver	-707
▁symptoms	-708
▁SARS	-709
▁develop	-710
ible	-711
▁rel	-712
▁tes	-713
▁Mumbai	-714
cess	-715
ural	-716
ility	-717
▁any	-718
▁2020	-719
5¦	-720
▁According	-721
you	-722
▁says	-723
stit	-724
do	-725
▁death	-726
ata	-727
dec	-728
ech	-729
octors	-730
▁due	-731
amp	-732
atient	-733
than	-734
str	-735
many	-736
▁given	-737
eld	-738
▁district	-739
ative	-740
ipal	-741
arge	-742
▁:	-743
pril	-744
oxygen	-745
get	-746
hand	-747
ivir	-748
itive	-749
illion	-750
▁St	-751
▁use	-752
some	-753
care	-754
▁children	-755
portant	-756
▁am	-757
▁situation	-758
▁treatment	-759
anc	-760
nounced	-761
fl	-762
▁us	-763
▁dif	-764
▁7	-765
asing	-766
icipal	-767
year	-768
▁mon	-769
▁sur	-770
new	-771
▁wave	-772
more	-773
▁like	-774
ark	-775
ials	-776
▁bec	-777
▁trans	-778
▁cr	-779
arted	-780
▁6	-781
avel	-782
resent	-783
hy	-784
▁only	-785
test	-786
reg	-787
▁An	-788
▁Chief	-789
these	-790
▁However	-791
eting	-792
maharashtra	-793
ministration	-794
▁Covid	-795
india	-796
▁en	-797
incre	-798
▁school	-799
hospital	-800
ank	-801
▁system	-802
▁offic	-803
arr	-804
ved	-805
about	-806
emand	-807
uss	-808
▁your	-809
▁countries	-810
su	-811
▁coronavirus	-812
▁available	-813
till	-814
ust	-815
▁We	-816
amil	-817
ember	-818
while	-819
itizens	-820
cer	-821
ros	-822
ior	-823
ganiz	-824
tal	-825
lockdown	-826
▁¦3	-827
way	-828
▁infected	-829
ned	-830
ten	-831
▁his	-832
▁April	-833
▁sto	-834
▁Cent	-835
vent	-836
ble	-837
▁If	-838
▁world	-839
par	-840
eral	-841
may	-842
pur	-843
uk	-844
ord	-845
ween	-846
artment	-847
vi	-848
▁gen	-849
ince	-850
ian	-851
▁fac	-852
▁What	-853
▁during	-854
4¦	-855
▁gr	-856
ying	-857
▁j	-858
▁against	-859
oth	-860
▁8	-861
ared	-862
▁risk	-863
epartment	-864
they	-865
▁anti	-866
ime	-867
posed	-868
▁inter	-869
▁provid	-870
dhav	-871
▁10	-872
▁when	-873
ext	-874
rit	-875
oci	-876
ocial	-877
▁used	-878
▁every	-879
peri	-880
▁now	-881
ollow	-882
their	-883
ours	-884
▁mask	-885
▁while	-886
ise	-887
ety	-888
ules	-889
▁exam	-890
vaccination	-891
▁week	-892
educ	-893
iratory	-894
infection	-895
ob	-896
rore	-897
▁Pune	-898
▁care	-899
▁those	-900
elhi	-901
ized	-902
under	-903
ential	-904
ousand	-905
▁vaccinated	-906
▁pol	-907
."	-908
iate	-909
sid	-910
ird	-911
▁take	-912
vere	-913
ended	-914
ness	-915
▁home	-916
rel	-917
arant	-918
quire	-919
disease	-920
▁9	-921
▁str	-922
▁produc	-923
comm	-924
ffic	-925
▁taken	-926
resp	-927
uman	-928
ivate	-929
▁medical	-930
▁hospitals	-931
what	-932
,000	-933
ampa	-934
ering	-935
ars	-936
▁Sh	-937
▁Thackeray	-938
oses	-939
ty	-940
aces	-941
▁public	-942
▁reported	-943
oy	-944
val	-945
▁its	-946
vaccines	-947
rec	-948
sup	-949
ists	-950
ident	-951
ampaign	-952
▁through	-953
ross	-954
▁par	-955
being	-956
ivers	-957
ove	-958
gency	-959
ps	-960
like	-961
anuary	-962
ferent	-963
▁person	-964
ci	-965
eep	-966
sible	-967
urrently	-968
til	-969
days	-970
man	-971
▁outbreak	-972
ised	-973
tain	-974
▁drug	-975
uce	-976
high	-977
stitute	-978
▁made	-979
▁appro	-980
▁bet	-981
▁them	-982
ection	-983
rap	-984
▁restrictions	-985
ages	-986
ocal	-987
fr	-988
▁how	-989
oid	-990
▁rem	-991
ition	-992
ug	-993
▁China	-994
according	-995
line	-996
low	-997
district	-998
eb	-999
ph	-1000
ices	-1001
alled	-1002
munity	-1003
country	-1004
ari	-1005
▁beds	-1006
▁would	-1007
▁Al	-1008
sur	-1009
).	-1010
1¦	-1011
▁lakh	-1012
cep	-1013
▁So	-1014
▁di	-1015
which	-1016
irec	-1017
▁workers	-1018
ax	-1019
anti	-1020
inical	-1021
mitted	-1022
ampl	-1023
vir	-1024
▁patient	-1025
need	-1026
ular	-1027
▁sp	-1028
education	-1029
nown	-1030
▁even	-1031
hether	-1032
pected	-1033
serv	-1034
ful	-1035
▁including	-1036
ustr	-1037
first	-1038
ments	-1039
second	-1040
▁areas	-1041
▁covid	-1042
ators	-1043
ution	-1044
▁announced	-1045
last	-1046
includ	-1047
8¦	-1048
ah	-1049
▁Y	-1050
effec	-1051
ulation	-1052
tes	-1053
▁Com	-1054
▁short	-1055
ebru	-1056
▁Raj	-1057
ebruary	-1058
unicipal	-1059
dian	-1060
▁wash	-1061
air	-1062
comp	-1063
cuss	-1064
ific	-1065
lood	-1066
▁month	-1067
▁important	-1068
int	-1069
alk	-1070
aly	-1071
),	-1072
press	-1073
ret	-1074
pecial	-1075
▁started	-1076
ality	-1077
ology	-1078
perts	-1079
asures	-1080
itical	-1081
ield	-1082
▁information	-1083
two	-1084
ector	-1085
▁most	-1086
ganization	-1087
2¦	-1088
ont	-1089
such	-1090
ason	-1091
plic	-1092
estion	-1093
ffected	-1094
▁well	-1095
offic	-1096
spread	-1097
mediate	-1098
▁travel	-1099
enc	-1100
uid	-1101
ung	-1102
andemic	-1103
▁come	-1104
▁years	-1105
▁Hospital	-1106
world	-1107
ix	-1108
lear	-1109
▁say	-1110
▁same	-1111
develop	-1112
ination	-1113
▁increased	-1114
found	-1115
▁what	-1116
when	-1117
▁hel	-1118
ink	-1119
ser	-1120
▁testing	-1121
▁tests	-1122
▁closed	-1123
▁did	-1124
▁ser	-1125
▁After	-1126
▁states	-1127
▁level	-1128
▁serv	-1129
▁doctors	-1130
▁ro	-1131
ined	-1132
veill	-1133
veillance	-1134
due	-1135
spec	-1136
ick	-1137
▁large	-1138
tern	-1139
cases	-1140
sars	-1141
struc	-1142
▁decision	-1143
march	-1144
rs	-1145
ale	-1146
olle	-1147
ults	-1148
orpor	-1149
▁then	-1150
esivir	-1151
plement	-1152
▁supply	-1153
7¦	-1154
occ	-1155
stud	-1156
▁few	-1157
▁our	-1158
school	-1159
▁hands	-1160
▁increasing	-1161
says	-1162
based	-1163
pol	-1164
body	-1165
li	-1166
ins	-1167
▁ca	-1168
ived	-1169
▁For	-1170
▁body	-1171
▁city	-1172
▁rate	-1173
▁positive	-1174
▁effective	-1175
abor	-1176
BC	-1177
▁increase	-1178
duce	-1179
20¦	-1180
most	-1181
outh	-1182
amples	-1183
▁meeting	-1184
bal	-1185
▁million	-1186
only	-1187
trans	-1188
few	-1189
his	-1190
▁demand	-1191
▁%	-1192
come	-1193
symptoms	-1194
fact	-1195
earch	-1196
▁between	-1197
odies	-1198
▁case	-1199
▁where	-1200
children	-1201
▁control	-1202
▁administration	-1203
▁Ud	-1204
ploy	-1205
chief	-1206
ouse	-1207
▁app	-1208
▁far	-1209
mumbai	-1210
▁Uddhav	-1211
kar	-1212
coronavirus	-1213
tiv	-1214
▁lead	-1215
death	-1216
yn	-1217
▁fl	-1218
▁low	-1219
given	-1220
▁deaths	-1221
ges	-1222
iot	-1223
amily	-1224
ped	-1225
▁Center	-1226
▁contact	-1227
▁students	-1228
how	-1229
during	-1230
▁ph	-1231
▁ass	-1232
▁Modi	-1233
▁into	-1234
▁2020,	-1235
▁present	-1236
aff	-1237
▁¦5	-1238
▁crore	-1239
fir	-1240
ange	-1241
medical	-1242
ha	-1243
rem	-1244
ect	-1245
ric	-1246
▁data	-1247
▁died	-1248
▁contin	-1249
6¦	-1250
bec	-1251
ues	-1252
und	-1253
▁¦4	-1254
where	-1255
however	-1256
▁comple	-1257
elf	-1258
ood	-1259
onse	-1260
opulation	-1261
flu	-1262
▁age	-1263
▁rec	-1264
urther	-1265
▁Delhi	-1266
iod	-1267
infected	-1268
treatment	-1269
agpur	-1270
▁very	-1271
orporation	-1272
thing	-1273
▁could	-1274
▁direc	-1275
▁central	-1276
▁respiratory	-1277
arket	-1278
▁does	-1279
resident	-1280
onom	-1281
br	-1282
dra	-1283
even	-1284
omen	-1285
▁plan	-1286
mall	-1287
view	-1288
▁At	-1289
▁three	-1290
▁around	-1291
imil	-1292
na	-1293
apr	-1294
urs	-1295
▁es	-1296
home	-1297
▁before	-1298
▁period	-1299
ese	-1300
aim	-1301
oup	-1302
▁dr	-1303
▁set	-1304
atives	-1305
imilar	-1306
▁¦2020¦	-1307
april	-1308
ions	-1309
▁BBC	-1310
states	-1311
▁citizens	-1312
acin	-1313
ains	-1314
iving	-1315
ditions	-1316
bo	-1317
▁Ad	-1318
essential	-1319
uth	-1320
▁19	-1321
inese	-1322
asseng	-1323
situation	-1324
att	-1325
risk	-1326
sto	-1327
▁15	-1328
▁dose	-1329
econom	-1330
led	-1331
itor	-1332
quired	-1333
ked	-1334
▁em	-1335
▁dist	-1336
lying	-1337
public	-1338
alf	-1339
▁UK	-1340
▁emer	-1341
▁doses	-1342
anufact	-1343
▁thousand	-1344
▁man	-1345
going	-1346
iversity	-1347
isis	-1348
rowd	-1349
trib	-1350
wash	-1351
wide	-1352
every	-1353
center	-1354
▁severe	-1355
▁campaign	-1356
wave	-1357
search	-1358
▁help	-1359
▁issu	-1360
▁Prime	-1361
▁prevent	-1362
▁social	-1363
3¦	-1364
ca	-1365
ual	-1366
arath	-1367
▁saf	-1368
entil	-1369
▁These	-1370
▁coron	-1371
▁follow	-1372
▁report	-1373
▁without	-1374
produc	-1375
system	-1376
ma	-1377
ees	-1378
▁ob	-1379
ives	-1380
▁clos	-1381
formed	-1382
arantine	-1383
eg	-1384
▁Or	-1385
▁hours	-1386
▁recomm	-1387
▁private	-1388
▁different	-1389
arious	-1390
gn	-1391
ope	-1392
countries	-1393
▁cap	-1394
▁ind	-1395
anj	-1396
peaking	-1397
atis	-1398
idly	-1399
The	-1400
arg	-1401
times	-1402
atic	-1403
tics	-1404
▁tested	-1405
▁January	-1406
▁allowed	-1407
available	-1408
person	-1409
▁el	-1410
▁May	-1411
▁ventil	-1412
abl	-1413
set	-1414
adesh	-1415
against	-1416
uthor	-1417
▁United	-1418
▁working	-1419
▁possible	-1420
▁research	-1421
your	-1422
acted	-1423
fer	-1424
ops	-1425
▁Rs	-1426
drug	-1427
bodies	-1428
▁rules	-1429
▁percent	-1430
udi	-1431
ected	-1432
▁12	-1433
▁prot	-1434
war	-1435
HO	-1436
fac	-1437
uro	-1438
vol	-1439
echn	-1440
ecess	-1441
▁hear	-1442
idemic	-1443
enz	-1444
firmed	-1445
hel	-1446
▁grow	-1447
po	-1448
mal	-1449
ajor	-1450
oung	-1451
lobal	-1452
medic	-1453
identi	-1454
els	-1455
▁ear	-1456
▁make	-1457
▁Vaccin	-1458
▁50	-1459
ends	-1460
uhan	-1461
▁washing	-1462
ns	-1463
lin	-1464
mask	-1465
week	-1466
those	-1467
▁open	-1468
▁Institute	-1469
through	-1470
▁schools	-1471
well	-1472
appro	-1473
ite	-1474
▁bre	-1475
▁rap	-1476
▁sub	-1477
take	-1478
arents	-1479
inistry	-1480
▁Municipal	-1481
00¦	-1482
ali	-1483
exam	-1484
omes	-1485
ished	-1486
▁long	-1487
information	-1488
less	-1489
provid	-1490
mune	-1491
▁Dis	-1492
taken	-1493
▁Some	-1494
▁They	-1495
▁local	-1496
ured	-1497
ability	-1498
ilities	-1499
▁24	-1500
▁vi	-1501
▁study	-1502
▁Government	-1503
▁11	-1504
▁te	-1505
▁fin	-1506
▁main	-1507
▁States	-1508
▁center	-1509
assengers	-1510
▁February	-1511
ept	-1512
avati	-1513
▁int	-1514
▁back	-1515
▁consid	-1516
ces	-1517
▁¦9	-1518
aily	-1519
ided	-1520
made	-1521
pune	-1522
ecret	-1523
▁ext	-1524
▁Many	-1525
▁reach	-1526
agn	-1527
ather	-1528
hospitals	-1529
cle	-1530
▁14	-1531
abad	-1532
ount	-1533
▁Med	-1534
▁area	-1535
illage	-1536
arendra	-1537
▁discuss	-1538
▁whether	-1539
▁shortage	-1540
inter	-1541
ane	-1542
dro	-1543
▁Am	-1544
agar	-1545
action	-1546
▁called	-1547
▁company	-1548
acity	-1549
aining	-1550
ceived	-1551
vaccinated	-1552
hol	-1553
▁fr	-1554
▁des	-1555
▁down	-1556
▁start	-1557
▁addition	-1558
▁developed	-1559
land	-1560
▁."	-1561
▁sc	-1562
term	-1563
▁air	-1564
anies	-1565
ising	-1566
vidence	-1567
▁fe	-1568
▁lim	-1569
▁less	-1570
▁Speaking	-1571
▁affected	-1572
ats	-1573
ched	-1574
ties	-1575
ibility	-1576
present	-1577
ards	-1578
▁pandemic	-1579
nal	-1580
▁ep	-1581
aled	-1582
▁adv	-1583
ually	-1584
uidel	-1585
▁spec	-1586
▁Union	-1587
▁human	-1588
▁using	-1589
▁education	-1590
gy	-1591
wad	-1592
restrictions	-1593
▁ty	-1594
▁held	-1595
▁lear	-1596
▁masks	-1597
▁rural	-1598
acy	-1599
divid	-1600
iness	-1601
ensive	-1602
reported	-1603
ravati	-1604
▁blood	-1605
ters	-1606
though	-1607
sw	-1608
▁30	-1609
direc	-1610
olation	-1611
▁because	-1612
thackeray	-1613
eases	-1614
▁hy	-1615
ports	-1616
▁rele	-1617
▁seen	-1618
▁across	-1619
bet	-1620
neum	-1621
outs	-1622
,000¦	-1623
iting	-1624
umans	-1625
ducted	-1626
level	-1627
▁still	-1628
▁measures	-1629
▁department	-1630
gram	-1631
duced	-1632
▁don	-1633
harat	-1634
arathi	-1635
iotech	-1636
▁since	-1637
▁total	-1638
ference	-1639
▁months	-1640
lim	-1641
ject	-1642
them	-1643
▁¦1¦	-1644
ck	-1645
tur	-1646
ital	-1647
▁ill	-1648
▁occ	-1649
▁much	-1650
▁transmission	-1651
urope	-1652
anwhile	-1653
ecessary	-1654
▁Ex	-1655
▁¦6	-1656
ings	-1657
▁both	-1658
▁done	-1659
▁Therefore	-1660
▁;	-1661
ovacin	-1662
▁Bh	-1663
▁lo	-1664
-19.	-1665
tice	-1666
▁del	-1667
ature	-1668
ersons	-1669
outbreak	-1670
▁process	-1671
beds	-1672
uses	-1673
▁four	-1674
▁heart	-1675
▁Rajesh	-1676
▁clinical	-1677
ife	-1678
tar	-1679
awar	-1680
ford	-1681
▁18	-1682
▁att	-1683
▁among	-1684
▁today	-1685
▁experi	-1686
▁include	-1687
china	-1688
tig	-1689
▁Tr	-1690
actic	-1691
▁stop	-1692
▁chang	-1693
▁provide	-1694
▁currently	-1695
CE	-1696
ants	-1697
▁Ser	-1698
▁ent	-1699
▁coll	-1700
▁Kovid	-1701
▁places	-1702
▁proble	-1703
tricts	-1704
workers	-1705
pecially	-1706
uidelines	-1707
ff	-1708
▁going	-1709
▁medic	-1710
▁sever	-1711
central	-1712
▁production	-1713
leg	-1714
eck	-1715
vey	-1716
▁bo	-1717
then	-1718
anitiz	-1719
including	-1720
▁Ministry	-1721
control	-1722
▁soap	-1723
washing	-1724
▁Nagpur	-1725
▁taking	-1726
▁emergency	-1727
icy	-1728
mers	-1729
onia	-1730
ymptom	-1731
istered	-1732
mediately	-1733
▁WHO	-1734
▁him	-1735
short	-1736
▁cons	-1737
▁avoid	-1738
▁third	-1739
outside	-1740
▁diffic	-1741
▁implement	-1742
would	-1743
doctors	-1744
testing	-1745
national	-1746
▁Rem	-1747
▁acc	-1748
▁sus	-1749
using	-1750
▁next	-1751
▁till	-1752
ending	-1753
patient	-1754
▁higher	-1755
effective	-1756
▁surveillance	-1757
lakh	-1758
appen	-1759
ana	-1760
▁1.	-1761
▁Res	-1762
▁det	-1763
▁inc	-1764
ready	-1765
reated	-1766
▁samples	-1767
▁question	-1768
▁¦7	-1769
city	-1770
ourt	-1771
month	-1772
arding	-1773
ortality	-1774
my	-1775
cov	-1776
▁Me	-1777
▁wor	-1778
▁When	-1779
▁know	-1780
▁known	-1781
raj	-1782
fied	-1783
izer	-1784
▁HCoV	-1785
encing	-1786
▁World	-1787
▁asked	-1788
▁issued	-1789
▁imposed	-1790
fort	-1791
▁IC	-1792
viral	-1793
▁population	-1794
dif	-1795
ism	-1796
tly	-1797
enef	-1798
part	-1799
acter	-1800
aving	-1801
cohol	-1802
announced	-1803
important	-1804
urb	-1805
lack	-1806
▁How	-1807
▁end	-1808
▁Tope	-1809
▁cell	-1810
▁five	-1811
▁sent	-1812
▁place	-1813
▁doctor	-1814
▁according	-1815
▁conditions	-1816
den	-1817
inc	-1818
emer	-1819
areas	-1820
ev	-1821
io	-1822
▁“	-1823
uty	-1824
▁All	-1825
▁fire	-1826
▁sign	-1827
vention	-1828
▁response	-1829
-2¦	-1830
▁po	-1831
lead	-1832
▁tem	-1833
▁another	-1834
▁experts	-1835
▁complete	-1836
hys	-1837
ournal	-1838
vestig	-1839
neumonia	-1840
municipal	-1841
SC	-1842
far	-1843
▁New	-1844
closed	-1845
▁State	-1846
▁become	-1847
did	-1848
ien	-1849
cove	-1850
tors	-1851
establ	-1852
travel	-1853
▁su	-1854
oder	-1855
▁min	-1856
fizer	-1857
▁part	-1858
▁stay	-1859
▁cause	-1860
▁fight	-1861
▁house	-1862
atistics	-1863
ecretary	-1864
▁serious	-1865
▁Commission	-1866
apur	-1867
tests	-1868
modi	-1869
known	-1870
▁keep	-1871
▁told	-1872
started	-1873
▁crisis	-1874
research	-1875
sc	-1876
akes	-1877
arsh	-1878
tter	-1879
enior	-1880
ically	-1881
usiness	-1882
roll	-1883
▁fever	-1884
▁likely	-1885
▁further	-1886
increased	-1887
▁approved	-1888
case	-1889
covered	-1890
administration	-1891
say	-1892
▁bu	-1893
enza	-1894
human	-1895
ights	-1896
utions	-1897
fluenza	-1898
▁Indian	-1899
▁services	-1900
ara	-1901
▁).	-1902
demand	-1903
lining	-1904
▁Fr	-1905
▁good	-1906
▁early	-1907
▁injec	-1908
▁trials	-1909
▁current	-1910
ued	-1911
atur	-1912
etic	-1913
imal	-1914
rolo	-1915
idence	-1916
positive	-1917
emb	-1918
▁br	-1919
face	-1920
ture	-1921
▁200	-1922
large	-1923
▁Serum	-1924
▁small	-1925
▁staff	-1926
▁family	-1927
col	-1928
drom	-1929
same	-1930
years	-1931
lor	-1932
uka	-1933
▁add	-1934
▁yet	-1935
tious	-1936
▁least	-1937
▁rapidly	-1938
▁manufact	-1939
▁Organization	-1940
position	-1941
ush	-1942
stand	-1943
▁lung	-1944
▁show	-1945
▁water	-1946
▁concer	-1947
▁continue	-1948
▁coronary	-1949
▁infections	-1950
nes	-1951
▁¦8	-1952
igin	-1953
ulti	-1954
CR	-1955
ey	-1956
ry	-1957
▁mut	-1958
▁again	-1959
▁crowd	-1960
▁phase	-1961
▁police	-1962
citizens	-1963
▁Chinese	-1964
▁Corporation	-1965
data	-1966
ala	-1967
ems	-1968
▁US	-1969
▁my	-1970
dist	-1971
open	-1972
osis	-1973
thod	-1974
ained	-1975
illed	-1976
▁post	-1977
contin	-1978
estions	-1979
students	-1980
▁admitted	-1981
increasing	-1982
les	-1983
coron	-1984
supply	-1985
contact	-1986
decision	-1987
ily	-1988
▁cle	-1989
▁sug	-1990
▁econom	-1991
▁centers	-1992
▁University	-1993
ger	-1994
iday	-1995
uals	-1996
xford	-1997
yndrom	-1998
does	-1999
vers	-2000
hands	-2001
▁face	-2002
earing	-2003
▁touch	-2004
▁market	-2005
▁difficult	-2006
cap	-2007
des	-2008
nav	-2009
before	-2010
million	-2011
▁Z	-2012
▁cy	-2013
pite	-2014
▁run	-2015
ances	-2016
between	-2017
▁proper	-2018
▁reduce	-2019
increase	-2020
▁support	-2021
▁various	-2022
▁closures	-2023
▁condition	-2024
19¦	-2025
ead	-2026
requ	-2027
meeting	-2028
plan	-2029
rate	-2030
▁hot	-2031
▁group	-2032
▁labor	-2033
endra	-2034
plied	-2035
ancial	-2036
dividuals	-2037
▁ve	-2038
around	-2039
▁media	-2040
▁identi	-2041
don	-2042
three	-2043
ica	-2044
spe	-2045
ient	-2046
▁And	-2047
▁arr	-2048
▁vis	-2049
▁form	-2050
▁Offic	-2051
▁weeks	-2052
▁People	-2053
▁result	-2054
▁similar	-2055
▁distance	-2056
department	-2057
▁essential	-2058
ft	-2059
fin	-2060
kin	-2061
oon	-2062
▁Is	-2063
▁beg	-2064
▁non	-2065
▁¦2¦	-2066
▁each	-2067
consid	-2068
▁major	-2069
ishield	-2070
▁epidemic	-2071
icro	-2072
rest	-2073
cient	-2074
dings	-2075
yndrome	-2076
ublished	-2077
ERS	-2078
adv	-2079
▁16	-2080
force	-2081
gress	-2082
▁read	-2083
▁¦10¦	-2084
social	-2085
▁initi	-2086
▁common	-2087
possible	-2088
▁Pradesh	-2089
▁getting	-2090
saf	-2091
deaths	-2092
uddhav	-2093
NA	-2094
▁/	-2095
ets	-2096
▁),	-2097
▁Cov	-2098
▁six	-2099
vious	-2100
▁lack	-2101
umbers	-2102
▁based	-2103
▁claim	-2104
actices	-2105
ificant	-2106
▁within	-2107
bc	-2108
ingle	-2109
comple	-2110
follow	-2111
▁imp	-2112
▁vir	-2113
▁women	-2114
▁coming	-2115
▁minister	-2116
eca	-2117
into	-2118
tory	-2119
could	-2120
ustry	-2121
ollege	-2122
clinical	-2123
structions	-2124
▁co	-2125
oper	-2126
▁Dec	-2127
crore	-2128
▁June	-2129
▁class	-2130
▁caused	-2131
▁immune	-2132
▁community	-2133
respiratory	-2134
JP	-2135
dev	-2136
ela	-2137
died	-2138
quip	-2139
sequ	-2140
delhi	-2141
eneca	-2142
tical	-2143
urfew	-2144
▁Wuhan	-2145
▁critic	-2146
▁partic	-2147
thousand	-2148
▁Medical	-2149
▁Narendra	-2150
ymptomatic	-2151
order	-2152
9¦	-2153
long	-2154
▁neg	-2155
▁head	-2156
report	-2157
▁cough	-2158
▁order	-2159
▁decided	-2160
▁parents	-2161
ogen	-2162
asons	-2163
ately	-2164
mitte	-2165
uccess	-2166
clos	-2167
tein	-2168
▁big	-2169
▁own	-2170
severe	-2171
▁chall	-2172
▁retur	-2173
▁highest	-2174
▁several	-2175
▁village	-2176
▁capacity	-2177
▁required	-2178
dose	-2179
know	-2180
wal	-2181
ians	-2182
uted	-2183
adnav	-2184
eputy	-2185
overy	-2186
▁Also	-2187
▁pain	-2188
▁close	-2189
▁press	-2190
adnavis	-2191
schools	-2192
▁respons	-2193
harm	-2194
since	-2195
period	-2196
private	-2197
related	-2198
0.	-2199
back	-2200
remed	-2201
▁2019	-2202
ventil	-2203
▁young	-2204
▁employ	-2205
▁effects	-2206
▁related	-2207
▁expected	-2208
▁companies	-2209
▁antibodies	-2210
ri	-2211
sub	-2212
utes	-2213
ociety	-2214
pressed	-2215
bbc	-2216
iqu	-2217
aged	-2218
▁BJP	-2219
▁Remed	-2220
▁chest	-2221
▁daily	-2222
▁others	-2223
different	-2224
▁Although	-2225
▁received	-2226
▁conducted	-2227
▁underlying	-2228
21	-2229
ors	-2230
ling	-2231
az	-2232
gien	-2233
help	-2234
itis	-2235
▁100	-2236
prime	-2237
tocol	-2238
▁Cont	-2239
▁able	-2240
▁cold	-2241
athing	-2242
igures	-2243
▁stand	-2244
▁cannot	-2245
▁safety	-2246
addition	-2247
campaign	-2248
ological	-2249
currently	-2250
echnology	-2251
▁diseases	-2252
▁evidence	-2253
plications	-2254
▁confirmed	-2255
doses	-2256
without	-2257
aur	-2258
ides	-2259
▁Pol	-2260
▁ord	-2261
▁twe	-2262
place	-2263
▁here	-2264
▁estim	-2265
▁gener	-2266
january	-2267
▁distrib	-2268
▁results	-2269
▁transport	-2270
▁development	-2271
ram	-2272
tle	-2273
aper	-2274
icti	-2275
umar	-2276
aster	-2277
ariant	-2278
gether	-2279
ictims	-2280
mittee	-2281
ections	-2282
andatory	-2283
ani	-2284
▁RT	-2285
-19,	-2286
coll	-2287
ense	-2288
▁ICU	-2289
▁MERS	-2290
▁half	-2291
ective	-2292
▁activ	-2293
▁cance	-2294
▁lives	-2295
▁night	-2296
▁remed	-2297
prevent	-2298
▁global	-2299
▁Marathi	-2300
▁growing	-2301
▁viruses	-2302
uj	-2303
prot	-2304
local	-2305
rules	-2306
▁No	-2307
▁sw	-2308
lier	-2309
imary	-2310
▁Even	-2311
posure	-2312
▁Pawar	-2313
▁South	-2314
▁studi	-2315
agement	-2316
▁humans	-2317
▁reason	-2318
ociation	-2319
cientists	-2320
plication	-2321
▁Amravati	-2322
▁provided	-2323
▁relatives	-2324
▁quarantine	-2325
aik	-2326
ule	-2327
recomm	-2328
▁dep	-2329
▁her	-2330
early	-2331
▁give	-2332
tested	-2333
▁clear	-2334
ainment	-2335
working	-2336
▁Bharat	-2337
▁Europe	-2338
▁action	-2339
▁ventilators	-2340
hea	-2341
hours	-2342
amilies	-2343
otential	-2344
▁1,	-2345
ship	-2346
▁Gen	-2347
▁flu	-2348
▁ful	-2349
▁ter	-2350
▁why	-2351
acing	-2352
today	-2353
police	-2354
▁clean	-2355
▁cities	-2356
▁districts	-2357
rup	-2358
iat	-2359
pes	-2360
put	-2361
sol	-2362
free	-2363
make	-2364
ward	-2365
▁Pro	-2366
▁You	-2367
▁fun	-2368
andid	-2369
forts	-2370
ified	-2371
reach	-2372
unday	-2373
▁look	-2374
alking	-2375
entire	-2376
▁Italy	-2377
▁active	-2378
▁online	-2379
▁Biotech	-2380
▁persons	-2381
uthorities	-2382
▁Meanwhile	-2383
ently	-2384
speaking	-2385
In	-2386
ee	-2387
amm	-2388
mor	-2389
why	-2390
▁To	-2391
cept	-2392
▁see	-2393
▁sol	-2394
▁way	-2395
anger	-2396
▁came	-2397
▁contr	-2398
▁needs	-2399
▁shops	-2400
▁though	-2401
▁spreading	-2402
bh	-2403
alg	-2404
hic	-2405
sis	-2406
umbh	-2407
aries	-2408
allowed	-2409
quipment	-2410
institute	-2411
,"	-2412
la	-2413
▁25	-2414
both	-2415
▁she	-2416
▁¦5¦	-2417
▁While	-2418
▁acute	-2419
▁think	-2420
▁treat	-2421
percent	-2422
▁monitor	-2423
▁facilities	-2424
▁registered	-2425
four	-2426
chang	-2427
called	-2428
united	-2429
company	-2430
emergency	-2431
DC	-2432
oh	-2433
PCR	-2434
ize	-2435
enge	-2436
eted	-2437
ises	-2438
▁loc	-2439
▁carr	-2440
ensure	-2441
nounce	-2442
▁stock	-2443
ociated	-2444
ollowed	-2445
▁outside	-2446
▁National	-2447
▁everyone	-2448
▁especially	-2449
affected	-2450
We	-2451
lock	-2452
▁Ass	-2453
▁tal	-2454
▁prom	-2455
▁requ	-2456
▁took	-2457
ricult	-2458
▁times	-2459
▁strict	-2460
▁problems	-2461
▁municipal	-2462
▁immediately	-2463
irc	-2464
ium	-2465
atter	-2466
awala	-2467
ouble	-2468
tiven	-2469
because	-2470
although	-2471
tiveness	-2472
ner	-2473
grow	-2474
▁Why	-2475
▁cod	-2476
▁men	-2477
sever	-2478
third	-2479
▁away	-2480
▁oper	-2481
▁pass	-2482
▁room	-2483
▁sequ	-2484
whether	-2485
▁happen	-2486
measures	-2487
inning	-2488
ie	-2489
pt	-2490
onu	-2491
▁17	-2492
▁war	-2493
asion	-2494
giene	-2495
pared	-2496
quine	-2497
uture	-2498
▁appe	-2499
▁stor	-2500
arrhea	-2501
ources	-2502
▁decre	-2503
tention	-2504
▁needed	-2505
▁program	-2506
▁service	-2507
▁December	-2508
▁officials	-2509
▁considered	-2510
▁¦3¦	-2511
she	-2512
urg	-2513
▁Do	-2514
▁Ut	-2515
▁cost	-2516
▁decl	-2517
▁prior	-2518
▁strain	-2519
february	-2520
▁sanitiz	-2521
▁following	-2522
hib	-2523
min	-2524
ots	-2525
amin	-2526
ateg	-2527
atil	-2528
head	-2529
loro	-2530
main	-2531
inary	-2532
places	-2533
valence	-2534
perature	-2535
loroquine	-2536
▁Ar	-2537
pass	-2538
▁car	-2539
▁path	-2540
▁safe	-2541
▁diagn	-2542
▁viral	-2543
▁sector	-2544
▁released	-2545
▁necessary	-2546
organization	-2547
road	-2548
blood	-2549
verse	-2550
ministry	-2551
pandemic	-2552
developed	-2553
therefore	-2554
▁”	-2555
▁31	-2556
abet	-2557
area	-2558
hind	-2559
oups	-2560
▁CoV	-2561
among	-2562
ashik	-2563
enstr	-2564
ofess	-2565
still	-2566
study	-2567
union	-2568
urses	-2569
▁find	-2570
▁affec	-2571
▁benef	-2572
discuss	-2573
experts	-2574
▁During	-2575
▁Pfizer	-2576
▁illness	-2577
▁negative	-2578
production	-2579
fe	-2580
bul	-2581
▁Par	-2582
▁pur	-2583
phase	-2584
▁call	-2585
▁School	-2586
▁review	-2587
▁influenza	-2588
keep	-2589
anjay	-2590
avoid	-2591
ening	-2592
imals	-2593
jects	-2594
start	-2595
abetes	-2596
igious	-2597
shortage	-2598
ailability	-2599
jay	-2600
rele	-2601
▁Now	-2602
▁pres	-2603
▁enough	-2604
▁establ	-2605
▁letter	-2606
▁special	-2607
▁pneumonia	-2608
▁recommended	-2609
sue	-2610
cell	-2611
self	-2612
CG	-2613
sus	-2614
ecur	-2615
▁She	-2616
masks	-2617
night	-2618
rural	-2619
▁2021	-2620
argest	-2621
taking	-2622
ularly	-2623
▁having	-2624
▁recent	-2625
eptember	-2626
arantined	-2627
▁mortality	-2628
pm	-2629
seen	-2630
organ	-2631
ya	-2632
▁z	-2633
▁40	-2634
▁60	-2635
▁pm	-2636
▁ra	-2637
half	-2638
▁Kar	-2639
▁¦4¦	-2640
▁Sing	-2641
▁host	-2642
▁want	-2643
▁writ	-2644
likely	-2645
▁issue	-2646
▁leaders	-2647
▁informed	-2648
quarantine	-2649
▁declining	-2650
▁guidelines	-2651
ier	-2652
ilit	-2653
sent	-2654
ittle	-2655
usion	-2656
water	-2657
etwork	-2658
rology	-2659
ecurity	-2660
surveillance	-2661
hem	-2662
drop	-2663
held	-2664
▁sep	-2665
▁free	-2666
▁mild	-2667
▁task	-2668
▁Uttar	-2669
▁means	-2670
▁change	-2671
▁origin	-2672
▁sugges	-2673
▁investig	-2674
▁learning	-2675
▁regarding	-2676
▁Remedesivir	-2677
ez	-2678
her	-2679
pan	-2680
ormal	-2681
total	-2682
centers	-2683
raz	-2684
▁13	-2685
▁ev	-2686
abin	-2687
amed	-2688
atch	-2689
avir	-2690
iers	-2691
ners	-2692
▁ACE	-2693
▁One	-2694
across	-2695
▁check	-2696
▁force	-2697
▁until	-2698
▁levels	-2699
commission	-2700
▁questions	-2701
2,	-2702
del	-2703
room	-2704
ternational	-2705
bor	-2706
▁21	-2707
ower	-2708
▁off	-2709
▁sit	-2710
gener	-2711
▁food	-2712
▁tank	-2713
▁cells	-2714
▁drugs	-2715
▁later	-2716
another	-2717
▁method	-2718
▁taluka	-2719
▁covacin	-2720
▁general	-2721
transmission	-2722
.5	-2723
idd	-2724
ump	-2725
asai	-2726
stop	-2727
heart	-2728
issue	-2729
▁¦15¦	-2730
coming	-2731
market	-2732
tained	-2733
verage	-2734
det	-2735
him	-2736
▁23	-2737
gest	-2738
king	-2739
pain	-2740
▁ban	-2741
▁type	-2742
▁child	-2743
▁front	-2744
▁invol	-2745
▁effect	-2746
▁regard	-2747
▁senior	-2748
▁implemented	-2749
-1	-2750
bs	-2751
ke	-2752
done	-2753
asked	-2754
family	-2755
confirmed	-2756
eu	-2757
dom	-2758
vis	-2759
▁Di	-2760
ably	-2761
cons	-2762
fire	-2763
much	-2764
▁pay	-2765
house	-2766
active	-2767
experi	-2768
iatric	-2769
months	-2770
served	-2771
▁great	-2772
▁regul	-2773
▁teach	-2774
areness	-2775
▁Oxford	-2776
▁business	-2777
▁national	-2778
▁September	-2779
▁experience	-2780
▁passengers	-2781
yes	-2782
board	-2783
ories	-2784
question	-2785
population	-2786
eps	-2787
erc	-2788
▁28	-2789
▁45	-2790
▁aw	-2791
▁Brit	-2792
▁¦20¦	-2793
▁above	-2794
▁began	-2795
▁colle	-2796
entific	-2797
▁appear	-2798
▁record	-2799
▁survey	-2800
approved	-2801
▁Central	-2802
implement	-2803
▁District	-2804
▁critical	-2805
▁Vaccination	-2806
▁examination	-2807
oke	-2808
neez	-2809
oint	-2810
oved	-2811
post	-2812
engal	-2813
ancing	-2814
doctor	-2815
proble	-2816
rajesh	-2817
general	-2818
ization	-2819
process	-2820
samples	-2821
sibility	-2822
'.	-2823
bid	-2824
jit	-2825
greg	-2826
stay	-2827
▁Ram	-2828
▁cer	-2829
activ	-2830
ample	-2831
kovid	-2832
plain	-2833
▁fear	-2834
▁might	-2835
provide	-2836
services	-2837
▁already	-2838
▁demanded	-2839
▁healthcare	-2840
ote	-2841
ron	-2842
five	-2843
include	-2844
ton	-2845
wor	-2846
atus	-2847
soap	-2848
▁201	-2849
▁Can	-2850
▁Pre	-2851
▁dev	-2852
▁mor	-2853
fever	-2854
media	-2855
obile	-2856
razil	-2857
serum	-2858
▁full	-2859
▁sick	-2860
alghar	-2861
▁2020.	-2862
▁shown	-2863
distance	-2864
▁alcohol	-2865
cientific	-2866
▁completely	-2867
tem	-2868
cogn	-2869
crowd	-2870
hc	-2871
abs	-2872
add	-2873
▁la	-2874
traZ	-2875
▁feel	-2876
▁¦50¦	-2877
employ	-2878
proper	-2879
further	-2880
▁genome	-2881
▁reserv	-2882
▁single	-2883
▁isolation	-2884
▁political	-2885
▁published	-2886
▁worldwide	-2887
▁Department	-2888
▁significant	-2889
big	-2890
uge	-2891
each	-2892
next	-2893
roat	-2894
tick	-2895
actice	-2896
endent	-2897
aturday	-2898
response	-2899
,4	-2900
bu	-2901
hot	-2902
pon	-2903
run	-2904
inal	-2905
pert	-2906
pres	-2907
▁RNA	-2908
▁tow	-2909
▁¦7¦	-2910
▁More	-2911
▁just	-2912
▁side	-2913
▁toll	-2914
▁¦30¦	-2915
diffic	-2916
nagpur	-2917
▁journal	-2918
▁reached	-2919
traZeneca	-2920
▁Research	-2921
mut	-2922
concer	-2923
higher	-2924
fficient	-2925
corporation	-2926
HE	-2927
ics	-2928
xim	-2929
▁De	-2930
sign	-2931
umbo	-2932
ways	-2933
aging	-2934
arsha	-2935
ivery	-2936
odern	-2937
teins	-2938
▁bats	-2939
▁conf	-2940
▁news	-2941
▁soon	-2942
▁allow	-2943
▁often	-2944
▁rates	-2945
▁separ	-2946
imposed	-2947
▁office	-2948
▁remain	-2949
▁things	-2950
▁trying	-2951
▁example	-2952
▁numbers	-2953
▁reduced	-2954
▁success	-2955
▁Fadnavis	-2956
▁planning	-2957
▁produced	-2958
▁underway	-2959
▁President	-2960
▁practices	-2961
development	-2962
arb	-2963
dep	-2964
hold	-2965
path	-2966
class	-2967
▁¦19¦	-2968
others	-2969
serious	-2970
viruses	-2971
complete	-2972
".	-2973
▁En	-2974
▁Vi	-2975
▁ef	-2976
oman	-2977
tope	-2978
▁Ger	-2979
▁Sur	-2980
▁lot	-2981
fight	-2982
▁must	-2983
▁once	-2984
▁¦24¦	-2985
▁reduc	-2986
similar	-2987
▁Public	-2988
▁therap	-2989
▁reasons	-2990
medicivir	-2991
▁Lockdown	-2992
▁Patients	-2993
adhy	-2994
appy	-2995
heme	-2996
load	-2997
orea	-2998
oshi	-2999
actly	-3000
group	-3001
ister	-3002
stead	-3003
tober	-3004
viron	-3005
issued	-3006
unched	-3007
undred	-3008
atories	-3009
conditions	-3010
vs	-3011
six	-3012
uar	-3013
▁pe	-3014
▁Man	-3015
▁dry	-3016
ction	-3017
▁High	-3018
▁Home	-3019
▁past	-3020
▁team	-3021
ecting	-3022
▁right	-3023
chinese	-3024
coronary	-3025
▁genetic	-3026
▁offices	-3027
president	-3028
▁statement	-3029
▁laboratory	-3030
▁statistics	-3031
▁instructions	-3032
adu	-3033
bed	-3034
fully	-3035
rought	-3036
several	-3037
ada	-3038
cil	-3039
▁70	-3040
▁Ph	-3041
▁wa	-3042
arat	-3043
cour	-3044
▁cor	-3045
▁mod	-3046
▁too	-3047
arian	-3048
asure	-3049
cause	-3050
ences	-3051
iddle	-3052
ivacy	-3053
quate	-3054
stant	-3055
ussia	-3056
▁buil	-3057
abinet	-3058
▁alleg	-3059
▁exams	-3060
▁trial	-3061
▁curfew	-3062
manufact	-3063
▁changes	-3064
▁require	-3065
▁victims	-3066
▁industry	-3067
▁syndrome	-3068
iversities	-3069
▁discussed	-3070
▁developing	-3071
▁individuals	-3072
good	-3073
labor	-3074
small	-3075
women	-3076
crisis	-3077
indian	-3078
CGP	-3079
wit	-3080
▁Ab	-3081
ming	-3082
show	-3083
▁def	-3084
▁dro	-3085
clear	-3086
gical	-3087
nagar	-3088
▁Ajit	-3089
▁date	-3090
▁view	-3091
become	-3092
orders	-3093
▁causes	-3094
▁organiz	-3095
▁immunity	-3096
▁previous	-3097
university	-3098
▁financial	-3099
▁suspected	-3100
▁vaccinate	-3101
▁infectious	-3102
oub	-3103
aceu	-3104
coun	-3105
mber	-3106
osts	-3107
reme	-3108
again	-3109
atara	-3110
munic	-3111
onday	-3112
tific	-3113
touch	-3114
udden	-3115
elling	-3116
olated	-3117
trials	-3118
ursday	-3119
current	-3120
harmaceu	-3121
PE	-3122
non	-3123
▁22	-3124
▁80	-3125
▁Of	-3126
pose	-3127
told	-3128
initi	-3129
▁That	-3130
▁fore	-3131
▁left	-3132
▁phys	-3133
▁went	-3134
acting	-3135
▁Chand	-3136
▁Direc	-3137
▁Other	-3138
▁waste	-3139
▁animal	-3140
▁limited	-3141
▁reports	-3142
▁variant	-3143
▁directly	-3144
▁exposure	-3145
▁official	-3146
▁employees	-3147
▁incidence	-3148
▁coronaviruses	-3149
,1	-3150
yet	-3151
comes	-3152
ffering	-3153
various	-3154
infections	-3155
fy	-3156
▁Q	-3157
nel	-3158
ube	-3159
aced	-3160
istr	-3161
lung	-3162
ohns	-3163
uled	-3164
ednes	-3165
injec	-3166
izing	-3167
staff	-3168
▁Cons	-3169
▁Drug	-3170
▁name	-3171
▁role	-3172
agious	-3173
aikwad	-3174
ardhan	-3175
atural	-3176
ogenic	-3177
priate	-3178
ujarat	-3179
uardian	-3180
▁Deputy	-3181
▁entire	-3182
admitted	-3183
ednesday	-3184
▁stopped	-3185
▁breathing	-3186
▁permission	-3187
bi	-3188
ency	-3189
▁¦6¦	-3190
within	-3191
expected	-3192
condition	-3193
necessary	-3194
,3	-3195
oss	-3196
aste	-3197
▁bas	-3198
urban	-3199
▁Cong	-3200
▁Mela	-3201
▁life	-3202
▁Kumbh	-3203
▁Thane	-3204
▁multi	-3205
rapidly	-3206
▁Police	-3207
▁candid	-3208
epidemic	-3209
▁General	-3210
▁Vaccine	-3211
▁created	-3212
▁Secretary	-3213
▁potential	-3214
▁injections	-3215
▁governments	-3216
aon	-3217
beg	-3218
nik	-3219
isms	-3220
ucle	-3221
least	-3222
ailway	-3223
icture	-3224
idents	-3225
isting	-3226
istance	-3227
ory	-3228
sug	-3229
▁Ra	-3230
task	-3231
▁RSC	-3232
claim	-3233
▁Care	-3234
▁RCGP	-3235
▁answ	-3236
▁nose	-3237
▁rest	-3238
▁slow	-3239
▁vide	-3240
common	-3241
infect	-3242
strict	-3243
▁onset	-3244
getting	-3245
▁Friday	-3246
continue	-3247
everyone	-3248
▁produce	-3249
▁Congress	-3250
▁families	-3251
▁followed	-3252
▁expressed	-3253
▁president	-3254
▁Commissioner	-3255
,8	-3256
cod	-3257
emi	-3258
major	-3259
global	-3260
parents	-3261
respons	-3262
men	-3263
see	-3264
uto	-3265
▁2.	-3266
▁26	-3267
forn	-3268
sing	-3269
▁Afr	-3270
▁cre	-3271
▁job	-3272
diagn	-3273
posal	-3274
▁With	-3275
▁miss	-3276
▁lower	-3277
▁occur	-3278
actions	-3279
aliforn	-3280
▁Sunday	-3281
▁leader	-3282
▁season	-3283
community	-3284
▁economic	-3285
nouncement	-3286
▁equipment	-3287
harmaceutical	-3288
▁effectiveness	-3289
29	-3290
mo	-3291
dic	-3292
wan	-3293
young	-3294
▁¦14¦	-3295
partic	-3296
difficult	-3297
▁!	-3298
cel	-3299
pox	-3300
▁Ap	-3301
▁Hy	-3302
just	-3303
▁CDC	-3304
cough	-3305
shops	-3306
▁Shiv	-3307
▁circ	-3308
▁kits	-3309
caused	-3310
immune	-3311
▁parts	-3312
▁suppl	-3313
support	-3314
▁ensure	-3315
▁nation	-3316
ducation	-3317
▁studies	-3318
▁pressure	-3319
▁specific	-3320
▁together	-3321
▁challenge	-3322
▁undergoing	-3323
▁authorities	-3324
oj	-3325
pcr	-3326
ury	-3327
ails	-3328
date	-3329
close	-3330
daily	-3331
erest	-3332
gnant	-3333
rocer	-3334
wuhan	-3335
embers	-3336
office	-3337
reason	-3338
reduce	-3339
angabad	-3340
cedures	-3341
derabad	-3342
overing	-3343
closures	-3344
vironment	-3345
chloroquine	-3346
remedesivir	-3347
▁sl	-3348
▁put	-3349
chall	-3350
▁Most	-3351
▁Only	-3352
▁move	-3353
▁Patil	-3354
▁chain	-3355
▁track	-3356
▁video	-3357
▁became	-3358
▁future	-3359
▁raised	-3360
▁protocol	-3361
▁mandatory	-3362
▁temperature	-3363
,5	-3364
adi	-3365
alls	-3366
anks	-3367
rish	-3368
went	-3369
anded	-3370
bacter	-3371
service	-3372
isolation	-3373
neg	-3374
ocy	-3375
oto	-3376
▁(1	-3377
▁..	-3378
▁90	-3379
▁Bi	-3380
▁Cl	-3381
alse	-3382
crip	-3383
look	-3384
ones	-3385
oney	-3386
tery	-3387
▁ago	-3388
▁met	-3389
ailed	-3390
harma	-3391
ograp	-3392
weeks	-3393
▁Pand	-3394
▁Will	-3395
▁expl	-3396
▁real	-3397
atures	-3398
ension	-3399
inders	-3400
result	-3401
safety	-3402
▁mater	-3403
itation	-3404
uidance	-3405
▁Nashik	-3406
▁design	-3407
▁events	-3408
▁groups	-3409
▁Control	-3410
▁figures	-3411
▁protein	-3412
▁systems	-3413
▁wearing	-3414
▁agricult	-3415
▁controls	-3416
▁occasion	-3417
▁Education	-3418
▁Covishield	-3419
▁Association	-3420
emp	-3421
side	-3422
critic	-3423
rolled	-3424
%)	-3425
uck	-3426
▁29	-3427
▁Op	-3428
comb	-3429
▁PPE	-3430
▁sim	-3431
faces	-3432
▁Sonu	-3433
▁mean	-3434
▁Kumar	-3435
▁board	-3436
▁bring	-3437
▁novel	-3438
pradesh	-3439
special	-3440
village	-3441
▁access	-3442
▁danger	-3443
▁matter	-3444
▁nurses	-3445
▁animals	-3446
▁hygiene	-3447
▁ordered	-3448
transport	-3449
passengers	-3450
▁recovered	-3451
▁ventilator	-3452
▁containment	-3453
dc	-3454
ukh	-3455
cies	-3456
crib	-3457
june	-3458
prom	-3459
umer	-3460
chest	-3461
ither	-3462
uesday	-3463
certain	-3464
gencies	-3465
inations	-3466
fun	-3467
ged	-3468
cold	-3469
cost	-3470
▁Due	-3471
▁Sol	-3472
▁got	-3473
▁lab	-3474
estim	-3475
flamm	-3476
older	-3477
▁char	-3478
▁gone	-3479
▁vill	-3480
▁Since	-3481
▁indic	-3482
▁ready	-3483
covacin	-3484
▁Oxygen	-3485
▁issues	-3486
narendra	-3487
▁Disease	-3488
▁declared	-3489
▁extended	-3490
▁medicine	-3491
antibodies	-3492
▁attention	-3493
▁injection	-3494
▁quarantined	-3495
dy	-3496
ought	-3497
▁¦11¦	-3498
effects	-3499
capacity	-3500
relatives	-3501
7.	-3502
jp	-3503
twe	-3504
ugg	-3505
ych	-3506
▁Ag	-3507
▁Ak	-3508
▁Im	-3509
cles	-3510
clus	-3511
ills	-3512
quir	-3513
unte	-3514
wali	-3515
▁Don	-3516
▁Not	-3517
▁¦8¦	-3518
ondwe	-3519
poxia	-3520
retur	-3521
urers	-3522
▁Coll	-3523
▁mind	-3524
▁rise	-3525
▁wear	-3526
ailure	-3527
alysis	-3528
andeep	-3529
illing	-3530
ustral	-3531
▁train	-3532
ariants	-3533
ategies	-3534
▁saying	-3535
evidence	-3536
▁address	-3537
▁factors	-3538
▁largest	-3539
▁perform	-3540
▁problem	-3541
▁project	-3542
▁protect	-3543
▁tweeted	-3544
companies	-3545
▁director	-3546
▁particip	-3547
▁recommends	-3548
icu	-3549
food	-3550
give	-3551
▁¦10	-3552
anand	-3553
cities	-3554
decided	-3555
genetic	-3556
results	-3557
diseases	-3558
struction	-3559
MR	-3560
▁’	-3561
bjp	-3562
ols	-3563
ran	-3564
athe	-3565
band	-3566
news	-3567
▁hit	-3568
▁CoVs	-3569
▁conn	-3570
▁coun	-3571
▁cour	-3572
▁Court	-3573
▁alone	-3574
▁leave	-3575
▁limit	-3576
highest	-3577
▁bacter	-3578
▁policy	-3579
▁prepar	-3580
director	-3581
received	-3582
required	-3583
▁claimed	-3584
▁primary	-3585
▁society	-3586
following	-3587
▁European	-3588
▁diabetes	-3589
▁included	-3590
ventilators	-3591
▁identified	-3592
▁prevalence	-3593
▁sequencing	-3594
▁AstraZeneca	-3595
▁international	-3596
aba	-3597
gre	-3598
hen	-3599
loc	-3600
acts	-3601
front	-3602
inted	-3603
ource	-3604
ronic	-3605
ancies	-3606
strain	-3607
desivir	-3608
species	-3609
ximately	-3610
gregation	-3611
underlying	-3612
,0	-3613
50	-3614
wa	-3615
off	-3616
▁By	-3617
▁ti	-3618
came	-3619
▁tur	-3620
April	-3621
chand	-3622
▁late	-3623
▁self	-3624
genome	-3625
▁Vasai	-3626
▁added	-3627
▁recep	-3628
▁types	-3629
▁vehic	-3630
▁impact	-3631
▁import	-3632
▁instit	-3633
amravati	-3634
▁Director	-3635
▁appealed	-3636
▁antiviral	-3637
▁asymptomatic	-3638
sit	-3639
appe	-3640
lives	-3641
south	-3642
studi	-3643
cannot	-3644
humans	-3645
conducted	-3646
ban	-3647
igr	-3648
mes	-3649
tow	-3650
uly	-3651
apan	-3652
cing	-3653
eros	-3654
ires	-3655
iter	-3656
▁Dev	-3657
▁Eng	-3658
▁Mal	-3659
angol	-3660
echan	-3661
idemi	-3662
rapur	-3663
▁gave	-3664
▁near	-3665
cience	-3666
cluded	-3667
rishna	-3668
tioned	-3669
▁along	-3670
▁chief	-3671
▁micro	-3672
▁rapid	-3673
▁seems	-3674
▁seven	-3675
distrib	-3676
omestic	-3677
▁killed	-3678
▁little	-3679
december	-3680
ritories	-3681
▁average	-3682
▁cancell	-3683
▁morning	-3684
▁diarrhea	-3685
▁Collector	-3686
▁suggested	-3687
▁scientists	-3688
▁vaccinations	-3689
,9	-3690
book	-3691
aches	-3692
europe	-3693
online	-3694
biotech	-3695
provided	-3696
specific	-3697
meanwhile	-3698
spreading	-3699
especially	-3700
DA	-3701
ho	-3702
rt	-3703
▁0	-3704
▁[	-3705
avi	-3706
ola	-3707
away	-3708
▁...	-3709
▁Our	-3710
▁Sup	-3711
acute	-3712
cance	-3713
clean	-3714
itics	-3715
treat	-3716
▁West	-3717
▁clar	-3718
▁comb	-3719
▁skin	-3720
▁¦12¦	-3721
▁¦18¦	-3722
bharat	-3723
mental	-3724
vision	-3725
▁Every	-3726
▁HCoVs	-3727
▁enter	-3728
▁hotel	-3729
▁impro	-3730
▁sneez	-3731
growing	-3732
marathi	-3733
persons	-3734
▁menstr	-3735
▁changed	-3736
▁concern	-3737
▁compared	-3738
▁mutation	-3739
▁observed	-3740
considered	-3741
▁beginning	-3742
▁establish	-3743
▁medicines	-3744
▁difficulty	-3745
▁application	-3746
▁distribution	-3747
oir	-3748
ames	-3749
carr	-3750
ping	-3751
took	-3752
ucas	-3753
ables	-3754
agues	-3755
amage	-3756
erala	-3757
pawar	-3758
ugust	-3759
istent	-3760
rovers	-3761
linders	-3762
monitor	-3763
ologist	-3764
stantly	-3765
ustrial	-3766
entially	-3767
uthority	-3768
idespread	-3769
LA	-3770
car	-3771
cor	-3772
▁Av	-3773
▁Co	-3774
▁Re	-3775
pect	-3776
▁Rah	-3777
▁fil	-3778
▁har	-3779
▁ref	-3780
contr	-3781
decre	-3782
italy	-3783
needs	-3784
think	-3785
▁liqu	-3786
▁lost	-3787
▁tour	-3788
sector	-3789
▁About	-3790
▁Singh	-3791
▁lungs	-3792
▁sched	-3793
▁techn	-3794
officer	-3795
▁Bengal	-3796
▁Brazil	-3797
▁adults	-3798
▁advice	-3799
▁assess	-3800
▁stages	-3801
▁College	-3802
▁Officer	-3803
▁Palghar	-3804
▁treated	-3805
▁written	-3806
▁diagnosed	-3807
▁estimated	-3808
imp	-3809
safe	-3810
truc	-3811
▁¦100¦	-3812
program	-3813
ulations	-3814
districts	-3815
guidelines	-3816
II	-3817
21¦	-3818
ecu	-3819
jri	-3820
▁bl	-3821
▁er	-3822
▁et	-3823
eshm	-3824
gone	-3825
irar	-3826
ison	-3827
vity	-3828
▁MLA	-3829
▁aim	-3830
▁eas	-3831
▁law	-3832
apore	-3833
astic	-3834
enter	-3835
prior	-3836
▁From	-3837
▁card	-3838
▁hard	-3839
▁hour	-3840
▁live	-3841
asthan	-3842
edding	-3843
rested	-3844
survey	-3845
tition	-3846
usband	-3847
witter	-3848
▁organ	-3849
▁steps	-3850
adually	-3851
ecutive	-3852
eshmukh	-3853
sanitiz	-3854
▁Office	-3855
▁amount	-3856
▁conduc	-3857
▁sample	-3858
▁stress	-3859
▁Britain	-3860
▁however	-3861
▁profess	-3862
▁talking	-3863
▁tracing	-3864
▁associated	-3865
▁possibility	-3866
▁hospitalized	-3867
▁&	-3868
▁,"	-3869
oday	-3870
effic	-3871
stock	-3872
appear	-3873
change	-3874
critical	-3875
problems	-3876
officials	-3877
registered	-3878
immediately	-3879
▁ne	-3880
▁sm	-3881
ring	-3882
▁Des	-3883
▁PHE	-3884
▁bed	-3885
▁emp	-3886
▁sal	-3887
until	-3888
▁list	-3889
▁ment	-3890
▁play	-3891
▁save	-3892
▁tend	-3893
needed	-3894
recent	-3895
▁mouth	-3896
▁takes	-3897
▁France	-3898
▁Varsha	-3899
▁living	-3900
▁making	-3901
▁status	-3902
▁Germany	-3903
▁advised	-3904
▁certain	-3905
▁efforts	-3906
▁flights	-3907
▁history	-3908
▁officer	-3909
▁antibody	-3910
▁challeng	-3911
▁prepared	-3912
facilities	-3913
▁recommend	-3914
▁religious	-3915
▁remedivir	-3916
,6	-3917
aul	-3918
def	-3919
orm	-3920
yme	-3921
find	-3922
ocus	-3923
ving	-3924
bsite	-3925
court	-3926
enced	-3927
ensin	-3928
iring	-3929
ession	-3930
ferred	-3931
having	-3932
jriwal	-3933
review	-3934
ulated	-3935
alcohol	-3936
itivity	-3937
acancies	-3938
investig	-3939
mortality	-3940
,2	-3941
bio	-3942
rna	-3943
▁Go	-3944
▁Oc	-3945
host	-3946
lder	-3947
mild	-3948
reed	-3949
▁bat	-3950
▁bur	-3951
▁Emer	-3952
▁susp	-3953
▁Joshi	-3954
▁Korea	-3955
▁RTPCR	-3956
▁purch	-3957
▁veget	-3958
respond	-3959
▁behind	-3960
▁former	-3961
▁metric	-3962
▁mobile	-3963
negative	-3964
▁economy	-3965
▁minutes	-3966
political	-3967
▁Saturday	-3968
▁findings	-3969
▁includes	-3970
▁launched	-3971
▁maintain	-3972
▁progress	-3973
▁recently	-3974
▁standard	-3975
▁supplied	-3976
▁mutations	-3977
ona	-3978
type	-3979
benef	-3980
drugs	-3981
happen	-3982
letter	-3983
liminary	-3984
,7	-3985
ele	-3986
hat	-3987
ift	-3988
ita	-3989
pay	-3990
pri	-3991
isen	-3992
life	-3993
pand	-3994
ubei	-3995
wise	-3996
▁Con	-3997
▁Kol	-3998
▁rub	-3999
▁ten	-4000
▁ton	-4001
arbha	-4002
ceive	-4003
cells	-4004
droxy	-4005
elves	-4006
ional	-4007
istan	-4008
oving	-4009
poned	-4010
▁huge	-4011
▁kept	-4012
▁Rahul	-4013
▁effic	-4014
▁paper	-4015
▁relax	-4016
▁stage	-4017
▁thing	-4018
aurants	-4019
illness	-4020
oderate	-4021
uration	-4022
▁Africa	-4023
▁recogn	-4024
▁throat	-4025
munities	-4026
ustralia	-4027
istration	-4028
▁delivery	-4029
▁practice	-4030
▁touching	-4031
▁training	-4032
▁awareness	-4033
▁completed	-4034
▁intensive	-4035
▁protective	-4036
▁remedicivir	-4037
droxychloroquine	-4038
bl	-4039
▁#	-4040
utr	-4041
decl	-4042
ects	-4043
embr	-4044
want	-4045
later	-4046
power	-4047
enough	-4048
journal	-4049
structed	-4050
pneumonia	-4051
international	-4052
It	-4053
gp	-4054
bel	-4055
uts	-4056
▁II	-4057
▁UN	-4058
fear	-4059
mark	-4060
▁Ear	-4061
▁bro	-4062
▁dig	-4063
▁led	-4064
There	-4065
affec	-4066
hapur	-4067
scale	-4068
▁adap	-4069
▁fact	-4070
▁plat	-4071
▁tell	-4072
pfizer	-4073
▁Harsh	-4074
▁ambul	-4075
▁black	-4076
▁field	-4077
ovember	-4078
▁Russia	-4079
▁create	-4080
▁facing	-4081
▁showed	-4082
▁threat	-4083
economic	-4084
released	-4085
▁markets	-4086
▁setting	-4087
secretary	-4088
▁Thursday	-4089
▁colleges	-4090
▁location	-4091
▁personal	-4092
▁proteins	-4093
▁criticized	-4094
▁researchers	-4095
▁organization	-4096
ena	-4097
oti	-4098
pat	-4099
bing	-4100
eful	-4101
ilet	-4102
otic	-4103
peak	-4104
rong	-4105
usto	-4106
andhi	-4107
arily	-4108
attle	-4109
child	-4110
multi	-4111
ounds	-4112
plets	-4113
ulate	-4114
ohnson	-4115
portun	-4116
senior	-4117
iotensin	-4118
organisms	-4119
regarding	-4120
otentially	-4121
statistics	-4122
educational	-4123
.3	-4124
.7	-4125
lot	-4126
▁PM	-4127
▁Se	-4128
hada	-4129
mach	-4130
▁Fin	-4131
▁Mun	-4132
▁Red	-4133
▁Rel	-4134
▁fat	-4135
light	-4136
▁Last	-4137
▁dead	-4138
▁scre	-4139
▁Nagar	-4140
▁Today	-4141
▁comes	-4142
▁doing	-4143
▁homes	-4144
▁scale	-4145
▁whole	-4146
leaders	-4147
vardhan	-4148
▁Sanjay	-4149
▁Satara	-4150
▁bodies	-4151
▁determ	-4152
▁passed	-4153
▁stocks	-4154
business	-4155
medicine	-4156
▁Gaikwad	-4157
▁Gujarat	-4158
▁account	-4159
▁exactly	-4160
▁natural	-4161
▁species	-4162
declining	-4163
influenza	-4164
▁backdrop	-4165
▁priority	-4166
▁projects	-4167
▁recovery	-4168
▁separate	-4169
▁virology	-4170
associated	-4171
▁suffering	-4172
recommended	-4173
▁contagious	-4174
▁monitoring	-4175
▁responsibility	-4176
lam	-4177
mod	-4178
▁'.	-4179
ging	-4180
onch	-4181
phys	-4182
role	-4183
check	-4184
colle	-4185
teach	-4186
tered	-4187
engine	-4188
implemented	-4189
da	-4190
▁X	-4191
▁–	-4192
lia	-4193
ney	-4194
ugh	-4195
▁27	-4196
airs	-4197
asma	-4198
ceed	-4199
idge	-4200
okes	-4201
sept	-4202
▁Pun	-4203
▁die	-4204
great	-4205
tored	-4206
▁Serv	-4207
▁mess	-4208
▁stre	-4209
cribed	-4210
effect	-4211
record	-4212
taluka	-4213
terior	-4214
▁Medic	-4215
▁Trump	-4216
▁break	-4217
▁frequ	-4218
▁preca	-4219
▁terms	-4220
undreds	-4221
▁gather	-4222
▁growth	-4223
▁sudden	-4224
▁¦2021¦	-4225
informed	-4226
▁picture	-4227
▁release	-4228
▁running	-4229
alifornia	-4230
questions	-4231
september	-4232
▁Guardian	-4233
▁returned	-4234
healthcare	-4235
▁elections	-4236
containment	-4237
▁protection	-4238
▁Information	-4239
▁laboratories	-4240
▁manufacturing	-4241
.8	-4242
fil	-4243
let	-4244
team	-4245
writ	-4246
▁¦9¦	-4247
right	-4248
trial	-4249
uttar	-4250
levels	-4251
origin	-4252
sugges	-4253
organiz	-4254
infectious	-4255
examination	-4256
RT	-4257
aya	-4258
got	-4259
▁Ash	-4260
▁exp	-4261
▁gym	-4262
means	-4263
▁Poon	-4264
▁acid	-4265
▁paid	-4266
method	-4267
regard	-4268
▁Force	-4269
▁woman	-4270
▁Monday	-4271
▁almost	-4272
▁anyone	-4273
▁attack	-4274
▁direct	-4275
▁factor	-4276
▁normal	-4277
▁option	-4278
▁scheme	-4279
learning	-4280
▁Centers	-4281
▁Solapur	-4282
▁brought	-4283
▁crowded	-4284
▁tankers	-4285
▁consider	-4286
▁presence	-4287
▁register	-4288
▁Currently	-4289
▁ministers	-4290
▁Opposition	-4291
▁distancing	-4292
▁scientific	-4293
▁responsible	-4294
dry	-4295
ipe	-4296
irl	-4297
sal	-4298
-229	-4299
adar	-4300
ancy	-4301
aves	-4302
fund	-4303
ikas	-4304
name	-4305
chain	-4306
embly	-4307
grees	-4308
often	-4309
otees	-4310
quiry	-4311
ulmon	-4312
ulted	-4313
ushan	-4314
waste	-4315
ashank	-4316
ercise	-4317
esides	-4318
ivered	-4319
leader	-4320
oxford	-4321
terday	-4322
mselves	-4323
pically	-4324
plaints	-4325
protein	-4326
roversy	-4327
ubation	-4328
election	-4329
financial	-4330
availability	-4331
%.	-4332
raw	-4333
conf	-4334
hang	-4335
once	-4336
tail	-4337
▁Aur	-4338
▁Two	-4339
▁hom	-4340
▁old	-4341
▁¦12	-4342
COVID	-4343
oming	-4344
▁Coun	-4345
▁ages	-4346
▁doub	-4347
▁seem	-4348
▁send	-4349
▁shop	-4350
▁Infec	-4351
▁court	-4352
▁plans	-4353
primary	-4354
▁affect	-4355
▁better	-4356
▁longer	-4357
▁tempor	-4358
▁tonnes	-4359
ediatric	-4360
planning	-4361
▁contain	-4362
▁digital	-4363
▁initial	-4364
▁network	-4365
▁Addition	-4366
▁involved	-4367
▁isolated	-4368
▁concerned	-4369
▁decreased	-4370
▁sanitizer	-4371
▁thousands	-4372
▁Aurangabad	-4373
▁difference	-4374
▁procedures	-4375
▁sanitizers	-4376
▁technology	-4377
▁appropriate	-4378
coronaviruses	-4379
▁announcement	-4380
▁transportation	-4381
43	-4382
95	-4383
cdc	-4384
full	-4385
gans	-4386
inch	-4387
vide	-4388
astra	-4389
invol	-4390
might	-4391
college	-4392
despite	-4393
demanded	-4394
directly	-4395
published	-4396
experience	-4397
individuals	-4398
commissioner	-4399
Ch	-4400
MS	-4401
ta	-4402
ago	-4403
ira	-4404
key	-4405
lie	-4406
ocu	-4407
▁48	-4408
asop	-4409
awab	-4410
feel	-4411
iden	-4412
irds	-4413
preh	-4414
rist	-4415
vind	-4416
wice	-4417
▁act	-4418
▁mis	-4419
▁upd	-4420
▁urg	-4421
adhya	-4422
cular	-4423
igure	-4424
impri	-4425
ously	-4426
reduc	-4427
▁Adar	-4428
▁Iran	-4429
▁Work	-4430
▁rush	-4431
▁talk	-4432
▁¦200	-4433
ederal	-4434
erosol	-4435
essica	-4436
ground	-4437
reserv	-4438
roller	-4439
▁never	-4440
▁share	-4441
atively	-4442
offices	-4443
stances	-4444
▁notice	-4445
▁strong	-4446
produced	-4447
▁Experts	-4448
▁carried	-4449
▁closure	-4450
▁storage	-4451
▁studied	-4452
▁Devendra	-4453
▁November	-4454
▁approach	-4455
▁detected	-4456
▁interest	-4457
▁officers	-4458
▁physical	-4459
▁severity	-4460
▁treating	-4461
▁Wednesday	-4462
▁admission	-4463
▁Prevention	-4464
▁contracted	-4465
▁management	-4466
▁availability	-4467
▁universities	-4468
ks	-4469
bro	-4470
▁".	-4471
answ	-4472
arts	-4473
brit	-4474
ired	-4475
irth	-4476
ites	-4477
orth	-4478
sick	-4479
▁¦19	-4480
above	-4481
began	-4482
forms	-4483
ining	-4484
▁¦16¦	-4485
issues	-4486
normal	-4487
surance	-4488
▁¦2019¦	-4489
syndrome	-4490
suspected	-4491
IN	-4492
rc	-4493
WHO	-4494
bur	-4495
lob	-4496
mos	-4497
▁Ke	-4498
▁MP	-4499
▁Ro	-4500
buil	-4501
real	-4502
tank	-4503
▁500	-4504
▁Are	-4505
▁Let	-4506
▁Reg	-4507
▁enz	-4508
▁fri	-4509
▁hol	-4510
▁vol	-4511
party	-4512
▁Task	-4513
▁elec	-4514
▁feet	-4515
▁loss	-4516
▁shar	-4517
▁shut	-4518
▁trad	-4519
fortun	-4520
zeneca	-4521
▁Phase	-4522
▁belie	-4523
▁cured	-4524
▁elder	-4525
▁money	-4526
already	-4527
numbers	-4528
▁answer	-4529
▁course	-4530
▁decide	-4531
immunity	-4532
official	-4533
▁Despite	-4534
▁Doctors	-4535
▁October	-4536
▁Tuesday	-4537
▁foreign	-4538
▁planned	-4539
▁usually	-4540
practices	-4541
▁Vaccines	-4542
▁properly	-4543
▁security	-4544
▁teachers	-4545
developing	-4546
laboratory	-4547
▁Hyderabad	-4548
▁Poonawala	-4549
▁immediate	-4550
significant	-4551
▁additional	-4552
▁organizations	-4553
cop	-4554
elt	-4555
ify	-4556
ott	-4557
crim	-4558
imum	-4559
itya	-4560
leep	-4561
oted	-4562
soon	-4563
toll	-4564
unch	-4565
alleg	-4566
allow	-4567
amels	-4568
inger	-4569
onstr	-4570
shown	-4571
uresh	-4572
▁¦201	-4573
▁¦31¦	-4574
▁¦40¦	-4575
airman	-4576
covery	-4577
morrow	-4578
remely	-4579
single	-4580
trying	-4581
vealed	-4582
akistan	-4583
changes	-4584
embrane	-4585
ilitate	-4586
inchwad	-4587
oonotic	-4588
ulating	-4589
industry	-4590
completely	-4591
prevention	-4592
instructions	-4593
If	-4594
bas	-4595
ema	-4596
lig	-4597
try	-4598
▁Bo	-4599
ajit	-4600
conn	-4601
hour	-4602
pare	-4603
▁Har	-4604
▁ach	-4605
▁buy	-4606
▁ger	-4607
▁tar	-4608
▁via	-4609
kumar	-4610
rates	-4611
▁fast	-4612
▁mark	-4613
▁rout	-4614
curfew	-4615
direct	-4616
nation	-4617
▁doesn	-4618
▁photo	-4619
▁point	-4620
▁speed	-4621
▁Diwali	-4622
▁banned	-4623
▁breath	-4624
previous	-4625
▁Bhondwe	-4626
▁antigen	-4627
▁capital	-4628
▁despite	-4629
▁ongoing	-4630
▁therapy	-4631
worldwide	-4632
▁efficacy	-4633
▁multiple	-4634
▁provides	-4635
▁dangerous	-4636
▁outbreaks	-4637
▁performed	-4638
▁resources	-4639
▁Passengers	-4640
▁conference	-4641
▁departments	-4642
▁environment	-4643
aph	-4644
separ	-4645
animal	-4646
things	-4647
ception	-4648
limited	-4649
reached	-4650
reduced	-4651
reports	-4652
success	-4653
sufficient	-4654
RE	-4655
ilk	-4656
lab	-4657
law	-4658
too	-4659
▁35	-4660
▁4.	-4661
▁Pl	-4662
▁bi	-4663
▁gu	-4664
aram	-4665
avan	-4666
bats	-4667
ique	-4668
must	-4669
sych	-4670
vant	-4671
▁aff	-4672
▁etc	-4673
▁kit	-4674
▁val	-4675
agers	-4676
charg	-4677
iable	-4678
iance	-4679
icies	-4680
idwar	-4681
inash	-4682
ledge	-4683
lymer	-4684
oward	-4685
▁Amer	-4686
▁Hong	-4687
▁Kong	-4688
▁fund	-4689
▁peak	-4690
▁unit	-4691
Corona	-4692
deputy	-4693
policy	-4694
putnik	-4695
remain	-4696
season	-4697
therap	-4698
ulting	-4699
▁Vijay	-4700
▁cardi	-4701
▁entry	-4702
▁tract	-4703
▁urban	-4704
ascular	-4705
emonstr	-4706
example	-4707
reasons	-4708
ruption	-4709
▁mental	-4710
▁simple	-4711
adequate	-4712
antibody	-4713
assenger	-4714
fadnavis	-4715
ferences	-4716
underway	-4717
▁Council	-4718
▁chronic	-4719
▁classes	-4720
▁members	-4721
▁missing	-4722
▁someone	-4723
ternative	-4724
▁Citizens	-4725
▁activity	-4726
▁agencies	-4727
▁approval	-4728
▁canceled	-4729
▁cleaning	-4730
▁happened	-4731
▁recorded	-4732
▁solution	-4733
▁starting	-4734
▁villages	-4735
permission	-4736
▁contacted	-4737
▁assistance	-4738
▁critically	-4739
▁journalist	-4740
▁nationwide	-4741
▁prevention	-4742
▁distributed	-4743
▁agricultural	-4744
▁International	-4745
2-	-4746
ji	-4747
kh	-4748
spot	-4749
exams	-4750
itors	-4751
micro	-4752
novel	-4753
train	-4754
raised	-4755
shield	-4756
require	-4757
society	-4758
together	-4759
mandatory	-4760
statement	-4761
vaccinate	-4762
management	-4763
.9	-4764
25	-4765
ii	-4766
.5¦	-4767
mis	-4768
ris	-4769
tok	-4770
past	-4771
▁Mah	-4772
▁suf	-4773
▁try	-4774
anted	-4775
▁East	-4776
▁News	-4777
▁drop	-4778
▁inst	-4779
▁road	-4780
▁walk	-4781
prepar	-4782
▁Jumbo	-4783
▁immun	-4784
▁intro	-4785
▁older	-4786
▁phone	-4787
▁store	-4788
▁tweet	-4789
▁works	-4790
figures	-4791
produce	-4792
▁Consid	-4793
▁member	-4794
▁return	-4795
▁weekly	-4796
agricult	-4797
protocol	-4798
▁Earlier	-4799
▁Sputnik	-4800
▁billion	-4801
▁failure	-4802
▁respond	-4803
collector	-4804
diagnosed	-4805
discussed	-4806
incidence	-4807
▁variants	-4808
▁Committee	-4809
▁Emergency	-4810
▁decisions	-4811
▁providing	-4812
▁traveling	-4813
governments	-4814
▁Chandrapur	-4815
▁candidates	-4816
▁allegations	-4817
▁considering	-4818
▁established	-4819
.1	-4820
63	-4821
ka	-4822
aji	-4823
ami	-4824
eas	-4825
orr	-4826
ened	-4827
gery	-4828
igad	-4829
ilip	-4830
itig	-4831
left	-4832
mosp	-4833
pone	-4834
slow	-4835
stre	-4836
tial	-4837
along	-4838
ategy	-4839
dians	-4840
fered	-4841
udget	-4842
0,000¦	-4843
alling	-4844
appens	-4845
causes	-4846
jected	-4847
linder	-4848
olating	-4849
portion	-4850
umerous	-4851
variant	-4852
victims	-4853
wearing	-4854
mosphere	-4855
ventions	-4856
committee	-4857
employees	-4858
ministrative	-4859
gue	-4860
heb	-4861
met	-4862
rsc	-4863
rub	-4864
CoVs	-4865
SARS	-4866
hmed	-4867
omic	-4868
play	-4869
rcgp	-4870
uing	-4871
▁Jay	-4872
▁Vid	-4873
▁ade	-4874
▁inv	-4875
▁won	-4876
▁Amit	-4877
▁Fund	-4878
▁Over	-4879
▁eyes	-4880
▁link	-4881
▁meet	-4882
▁sore	-4883
▁ward	-4884
▁word	-4885
▁¦60¦	-4886
▁Malik	-4887
▁cover	-4888
▁cross	-4889
▁eight	-4890
▁inhib	-4891
▁light	-4892
earlier	-4893
stopped	-4894
▁Kerala	-4895
▁attend	-4896
▁detect	-4897
▁extent	-4898
▁highly	-4899
▁orders	-4900
▁pangol	-4901
▁rising	-4902
exposure	-4903
▁Develop	-4904
▁England	-4905
▁elderly	-4906
▁exposed	-4907
▁overall	-4908
▁parties	-4909
▁unknown	-4910
bacterial	-4911
breathing	-4912
▁bacteria	-4913
▁communic	-4914
▁directed	-4915
▁incident	-4916
▁meetings	-4917
▁pregnant	-4918
▁vehicles	-4919
opposition	-4920
scientists	-4921
▁clarified	-4922
▁committee	-4923
▁cylinders	-4924
▁mentioned	-4925
association	-4926
considering	-4927
▁understand	-4928
▁widespread	-4929
▁examinations	-4930
▁intermediate	-4931
▁significantly	-4932
50¦	-4933
hit	-4934
sim	-4935
ache	-4936
draw	-4937
elec	-4938
ondon	-4939
video	-4940
families	-4941
expressed	-4942
potential	-4943
covishield	-4944
combination	-4945
//	-4946
As	-4947
sm	-4948
tt	-4949
▁$	-4950
ald	-4951
aps	-4952
emy	-4953
exp	-4954
hir	-4955
ino	-4956
isl	-4957
lym	-4958
oud	-4959
ula	-4960
zed	-4961
▁0.	-4962
▁3.	-4963
▁33	-4964
▁CT	-4965
▁EU	-4966
▁Sw	-4967
anka	-4968
ieve	-4969
iran	-4970
ixed	-4971
ogle	-4972
onym	-4973
ored	-4974
rise	-4975
▁Sal	-4976
▁mid	-4977
▁ver	-4978
apers	-4979
bably	-4980
centr	-4981
cosis	-4982
serve	-4983
thane	-4984
tiwar	-4985
uated	-4986
uscle	-4987
vince	-4988
▁Baba	-4989
▁Then	-4990
▁lock	-4991
▁pack	-4992
▁poor	-4993
▁wide	-4994
▁zone	-4995
atigue	-4996
candid	-4997
friday	-4998
gnancy	-4999
instit	-5000
mented	-5001
posing	-5002
rocery	-5003
sunday	-5004
valent	-5005
▁2021,	-5006
▁Apart	-5007
▁Japan	-5008
▁psych	-5009
▁spike	-5010
ampling	-5011
efforts	-5012
havikas	-5013
isation	-5014
studies	-5015
talking	-5016
ventive	-5017
▁August	-5018
▁eating	-5019
▁except	-5020
▁giving	-5021
▁rather	-5022
▁stores	-5023
▁target	-5024
dividual	-5025
lymerase	-5026
ulmonary	-5027
▁Schools	-5028
▁Twitter	-5029
▁ability	-5030
▁closing	-5031
▁earlier	-5032
▁thought	-5033
▁visited	-5034
challenge	-5035
▁Children	-5036
▁Deshmukh	-5037
▁analysis	-5038
▁arrested	-5039
▁building	-5040
▁election	-5041
▁surfaces	-5042
flammatory	-5043
▁Rajasthan	-5044
▁Singapore	-5045
authorities	-5046
▁constantly	-5047
▁discussion	-5048
▁programmes	-5049
▁strategies	-5050
▁discussions	-5051
▁segregation	-5052
▁ventilation	-5053
65	-5054
hra	-5055
phe	-5056
ppe	-5057
expl	-5058
mela	-5059
opin	-5060
pack	-5061
shiv	-5062
cured	-5063
kumbh	-5064
lower	-5065
parts	-5066
store	-5067
suppl	-5068
▁¦25¦	-5069
▁¦28¦	-5070
▁¦45¦	-5071
access	-5072
design	-5073
threat	-5074
charged	-5075
created	-5076
markets	-5077
congress	-5078
equipment	-5079
additional	-5080
identified	-5081
injections	-5082
technology	-5083
IV	-5084
hip	-5085
ole	-5086
▁Bl	-5087
▁Kh	-5088
▁Ma	-5089
▁Qu	-5090
firm	-5091
liqu	-5092
nose	-5093
rend	-5094
shar	-5095
▁Pat	-5096
▁Rec	-5097
▁key	-5098
▁let	-5099
▁pan	-5100
onset	-5101
sched	-5102
seven	-5103
track	-5104
▁July	-5105
▁Sood	-5106
▁auto	-5107
▁goes	-5108
▁jobs	-5109
▁mass	-5110
▁ship	-5111
events	-5112
former	-5113
impact	-5114
▁Ahmed	-5115
▁Covin	-5116
▁Lucas	-5117
▁Reddy	-5118
▁Where	-5119
▁event	-5120
▁hosts	-5121
▁price	-5122
▁space	-5123
▁visit	-5124
▁coding	-5125
▁crowds	-5126
▁damage	-5127
▁drying	-5128
▁encour	-5129
▁flight	-5130
▁inform	-5131
changing	-5132
diarrhea	-5133
followed	-5134
▁Krishna	-5135
▁benefit	-5136
▁cabinet	-5137
▁greater	-5138
▁methods	-5139
▁website	-5140
▁Kejriwal	-5141
▁adequate	-5142
▁benefits	-5143
▁coughing	-5144
▁existing	-5145
▁facility	-5146
▁fighting	-5147
▁function	-5148
▁guidance	-5149
▁receptor	-5150
▁continues	-5151
▁disinfect	-5152
▁gradually	-5153
▁personnel	-5154
▁colleagues	-5155
27	-5156
-20	-5157
iri	-5158
job	-5159
ude	-5160
win	-5161
yal	-5162
aved	-5163
circ	-5164
idea	-5165
move	-5166
nath	-5167
reng	-5168
tell	-5169
tron	-5170
ttps	-5171
umps	-5172
▁¦11	-5173
avade	-5174
awant	-5175
hases	-5176
ician	-5177
loves	-5178
mater	-5179
occur	-5180
super	-5181
table	-5182
ummer	-5183
vales	-5184
adhyay	-5185
aratha	-5186
entech	-5187
haravi	-5188
killed	-5189
ocking	-5190
ograph	-5191
ployed	-5192
teroid	-5193
ulties	-5194
crowded	-5195
ordered	-5196
overnor	-5197
aminated	-5198
pressure	-5199
ustomers	-5200
volution	-5201
valescent	-5202
effectiveness	-5203
IR	-5204
MA	-5205
gu	-5206
-2.	-5207
sun	-5208
yan	-5209
gaon	-5210
kits	-5211
pers	-5212
stor	-5213
▁FDA	-5214
▁His	-5215
▁San	-5216
▁Who	-5217
▁boy	-5218
▁pop	-5219
▁tax	-5220
afric	-5221
rapid	-5222
types	-5223
▁Comp	-5224
▁ICMR	-5225
▁cere	-5226
▁curb	-5227
▁door	-5228
▁tons	-5229
▁¦23¦	-5230
▁¦70¦	-5231
bridge	-5232
future	-5233
making	-5234
▁Hubei	-5235
▁behav	-5236
▁clots	-5237
▁focus	-5238
▁items	-5239
▁makes	-5240
▁power	-5241
address	-5242
claimed	-5243
hygiene	-5244
systems	-5245
▁faster	-5246
▁liquid	-5247
▁mechan	-5248
▁stored	-5249
▁worker	-5250
compared	-5251
▁adverse	-5252
▁careful	-5253
▁measure	-5254
▁options	-5255
▁privacy	-5256
▁request	-5257
▁strains	-5258
▁surface	-5259
medicines	-5260
secondary	-5261
▁Vidarbha	-5262
▁domestic	-5263
▁material	-5264
▁millions	-5265
▁ministry	-5266
undergoing	-5267
ventilator	-5268
▁Australia	-5269
▁collected	-5270
▁confusion	-5271
▁initially	-5272
▁postponed	-5273
▁represent	-5274
▁returning	-5275
▁throughout	-5276
▁treatments	-5277
▁Development	-5278
▁communities	-5279
▁remedesivir	-5280
▁experiencing	-5281
▁manufactured	-5282
▁Administration	-5283
▁implementation	-5284
",	-5285
-3	-5286
bat	-5287
bol	-5288
ikh	-5289
nat	-5290
oph	-5291
gent	-5292
ican	-5293
mean	-5294
sonu	-5295
tour	-5296
unit	-5297
patil	-5298
▁¦17¦	-5299
advant	-5300
became	-5301
danger	-5302
matter	-5303
metric	-5304
ultural	-5305
occasion	-5306
particip	-5307
sequencing	-5308
temperature	-5309
60	-5310
mi	-5311
▁‘	-5312
200	-5313
WIN	-5314
aka	-5315
ene	-5316
ius	-5317
kit	-5318
mat	-5319
oga	-5320
▁(3	-5321
▁CE	-5322
▁El	-5323
▁Sa	-5324
▁ir	-5325
bial	-5326
epal	-5327
hood	-5328
ibly	-5329
ival	-5330
ivil	-5331
kins	-5332
live	-5333
nual	-5334
tegr	-5335
tend	-5336
wear	-5337
▁300	-5338
▁Bef	-5339
▁inj	-5340
▁yes	-5341
alian	-5342
aming	-5343
avell	-5344
borne	-5345
crack	-5346
crete	-5347
elebr	-5348
eline	-5349
eutic	-5350
field	-5351
gence	-5352
ifted	-5353
inite	-5354
lands	-5355
leave	-5356
lines	-5357
lymph	-5358
oment	-5359
oting	-5360
tract	-5361
urate	-5362
▁Food	-5363
▁Paul	-5364
▁Such	-5365
▁apps	-5366
▁migr	-5367
▁¦21¦	-5368
ademic	-5369
bidity	-5370
elfare	-5371
everal	-5372
groups	-5373
icated	-5374
icense	-5375
icians	-5376
itored	-5377
menstr	-5378
nashik	-5379
nurses	-5380
▁Munde	-5381
▁basis	-5382
▁delay	-5383
▁final	-5384
▁nucle	-5385
▁worse	-5386
▁youth	-5387
ciences	-5388
clusive	-5389
foreign	-5390
largest	-5391
morning	-5392
profess	-5393
project	-5394
tweeted	-5395
▁Before	-5396
▁Gandhi	-5397
▁celebr	-5398
▁enzyme	-5399
▁mother	-5400
▁slowly	-5401
consider	-5402
controls	-5403
cription	-5404
extended	-5405
ifically	-5406
ocuments	-5407
ollution	-5408
prepared	-5409
pression	-5410
security	-5411
▁Italian	-5412
▁Johnson	-5413
▁decline	-5414
▁organic	-5415
▁session	-5416
▁sitting	-5417
▁student	-5418
▁subject	-5419
▁changing	-5420
▁outcomes	-5421
▁sneezing	-5422
▁speaking	-5423
okesperson	-5424
▁campaigns	-5425
▁candidate	-5426
▁pediatric	-5427
▁reservoir	-5428
engineering	-5429
researchers	-5430
▁percentage	-5431
▁vegetables	-5432
asymptomatic	-5433
▁Considering	-5434
▁Coronavirus	-5435
▁educational	-5436
▁investigation	-5437
▁manufacturers	-5438
▁participating	-5439
.4	-5440
24	-5441
ox	-5442
▁%)	-5443
door	-5444
esti	-5445
mand	-5446
susp	-5447
vill	-5448
yond	-5449
arter	-5450
bring	-5451
limit	-5452
sense	-5453
saying	-5454
animals	-5455
perform	-5456
protect	-5457
taining	-5458
diabetes	-5459
european	-5460
standard	-5461
injection	-5462
intensive	-5463
mutations	-5464
recovered	-5465
religious	-5466
responsibility	-5467
CP	-5468
IC	-5469
IS	-5470
yl	-5471
100	-5472
SCO	-5473
asa	-5474
▁37	-5475
▁41	-5476
▁65	-5477
▁Ja	-5478
▁Ne	-5479
card	-5480
illa	-5481
inds	-5482
noon	-5483
▁raw	-5484
alone	-5485
ounts	-5486
▁Hand	-5487
▁best	-5488
▁deal	-5489
▁fill	-5490
▁hold	-5491
▁line	-5492
▁mach	-5493
▁pers	-5494
▁rare	-5495
▁term	-5496
▁true	-5497
▁vari	-5498
double	-5499
import	-5500
▁Coron	-5501
▁codes	-5502
▁creat	-5503
▁drive	-5504
▁party	-5505
▁super	-5506
▁tried	-5507
antigen	-5508
concern	-5509
ivision	-5510
problem	-5511
▁Karona	-5512
▁Ramdev	-5513
▁Strict	-5514
▁expert	-5515
▁shared	-5516
▁specim	-5517
▁stated	-5518
▁toilet	-5519
crackers	-5520
declared	-5521
▁British	-5522
▁husband	-5523
▁keeping	-5524
▁receive	-5525
▁relaxed	-5526
▁showing	-5527
▁suggest	-5528
▁waiting	-5529
attention	-5530
ministers	-5531
thousands	-5532
▁Kolhapur	-5533
▁learners	-5534
▁politics	-5535
▁reaction	-5536
prevalence	-5537
▁household	-5538
quarantined	-5539
▁California	-5540
▁businesses	-5541
▁commission	-5542
▁importance	-5543
▁pathogenic	-5544
▁preventing	-5545
▁potentially	-5546
▁preliminary	-5547
▁institutions	-5548
▁menstruation	-5549
▁approximately	-5550
mp	-5551
aby	-5552
ibr	-5553
ume	-5554
avax	-5555
ekar	-5556
gave	-5557
imin	-5558
ints	-5559
late	-5560
olar	-5561
orat	-5562
umul	-5563
ynec	-5564
achch	-5565
adian	-5566
amata	-5567
astro	-5568
eless	-5569
fying	-5570
indow	-5571
istic	-5572
ojana	-5573
oking	-5574
ordin	-5575
orers	-5576
phone	-5577
▁¦90¦	-5578
arekar	-5579
conver	-5580
estern	-5581
harpur	-5582
istant	-5583
itness	-5584
little	-5585
nataka	-5586
onents	-5587
ovirus	-5588
peated	-5589
rupted	-5590
tokine	-5591
ussian	-5592
veolar	-5593
comfort	-5594
estival	-5595
factors	-5596
hemical	-5597
itional	-5598
liament	-5599
network	-5600
omiting	-5601
porters	-5602
treated	-5603
ustries	-5604
ambridge	-5605
avadekar	-5606
roceries	-5607
antiviral	-5608
establish	-5609
remedivir	-5610
recommends	-5611
crimination	-5612
EE	-5613
mr	-5614
sel	-5615
via	-5616
xic	-5617
zer	-5618
▁Gr	-5619
▁Up	-5620
feed	-5621
hard	-5622
thus	-5623
west	-5624
▁400	-5625
▁Air	-5626
▁Ind	-5627
▁ele	-5628
▁leg	-5629
,000.	-5630
March	-5631
hotel	-5632
regul	-5633
stage	-5634
techn	-5635
vehic	-5636
▁Both	-5637
▁Does	-5638
▁Sena	-5639
▁seek	-5640
▁sens	-5641
▁sure	-5642
▁surv	-5643
▁¦22¦	-5644
living	-5645
option	-5646
recogn	-5647
▁named	-5648
▁plant	-5649
tracing	-5650
▁Follow	-5651
▁abroad	-5652
▁handle	-5653
▁middle	-5654
▁quanti	-5655
▁respir	-5656
▁tanker	-5657
▁trains	-5658
▁virolo	-5659
▁warned	-5660
▁widely	-5661
included	-5662
personal	-5663
recently	-5664
virology	-5665
▁Against	-5666
▁Railway	-5667
▁degrees	-5668
▁deliver	-5669
▁epidemi	-5670
▁learned	-5671
▁restric	-5672
▁station	-5673
fortunate	-5674
giotensin	-5675
▁Shashank	-5676
▁decrease	-5677
▁designed	-5678
▁devotees	-5679
▁distress	-5680
▁droplets	-5681
▁moderate	-5682
▁opportun	-5683
▁settings	-5684
▁delivered	-5685
▁diagnosis	-5686
▁estimates	-5687
▁generally	-5688
▁materials	-5689
▁reduction	-5690
▁suspended	-5691
▁typically	-5692
application	-5693
▁activities	-5694
▁challenges	-5695
▁everything	-5696
▁initiative	-5697
▁respective	-5698
▁themselves	-5699
▁regulations	-5700
▁territories	-5701
▁municipality	-5702
▁particularly	-5703
alle	-5704
ardi	-5705
ashi	-5706
fast	-5707
hane	-5708
inde	-5709
ples	-5710
added	-5711
akash	-5712
arity	-5713
frequ	-5714
happy	-5715
tives	-5716
vasai	-5717
bengal	-5718
average	-5719
economy	-5720
history	-5721
appealed	-5722
pregnant	-5723
estimated	-5724
generating	-5725
KU	-5726
SE	-5727
arh	-5728
aud	-5729
dig	-5730
fri	-5731
oul	-5732
pun	-5733
rak	-5734
uda	-5735
udd	-5736
▁Aw	-5737
▁Le	-5738
▁My	-5739
▁af	-5740
▁sk	-5741
ESCO	-5742
acet	-5743
amal	-5744
asal	-5745
empt	-5746
fras	-5747
geal	-5748
hary	-5749
itin	-5750
near	-5751
ovir	-5752
plom	-5753
rael	-5754
rote	-5755
skin	-5756
thes	-5757
▁Chh	-5758
▁PCR	-5759
▁Saf	-5760
▁Sam	-5761
▁Sto	-5762
▁cov	-5763
▁nor	-5764
▁saw	-5765
ankar	-5766
ecked	-5767
eight	-5768
haryn	-5769
immun	-5770
olate	-5771
ruise	-5772
seems	-5773
usted	-5774
wards	-5775
▁Econ	-5776
▁Wash	-5777
▁York	-5778
▁beta	-5779
▁clus	-5780
▁code	-5781
▁harm	-5782
▁modi	-5783
▁step	-5784
▁swab	-5785
▁thus	-5786
▁tick	-5787
▁¦80¦	-5788
advice	-5789
akhand	-5790
allies	-5791
amount	-5792
assess	-5793
create	-5794
iteria	-5795
opkins	-5796
stress	-5797
ticles	-5798
▁Biden	-5799
▁Bihar	-5800
▁Nawab	-5801
▁Virar	-5802
▁below	-5803
▁birds	-5804
▁false	-5805
▁joint	-5806
▁twice	-5807
▁units	-5808
▁usual	-5809
▁wrong	-5810
argeted	-5811
cancell	-5812
gestion	-5813
lobally	-5814
rolling	-5815
▁Arvind	-5816
▁Madhya	-5817
▁Pimpri	-5818
▁UNESCO	-5819
▁claims	-5820
▁compar	-5821
▁either	-5822
▁ground	-5823
▁hotels	-5824
▁modern	-5825
▁observ	-5826
▁remote	-5827
▁search	-5828
▁strugg	-5829
▁useful	-5830
atically	-5831
frastruc	-5832
mutation	-5833
ologists	-5834
▁Bhushan	-5835
▁Covacin	-5836
▁Jessica	-5837
▁Several	-5838
▁avoided	-5839
▁farmers	-5840
▁inquiry	-5841
▁leading	-5842
▁recover	-5843
▁wedding	-5844
asopharyn	-5845
awareness	-5846
beginning	-5847
itigation	-5848
ovascular	-5849
peratures	-5850
suggested	-5851
umstances	-5852
umulative	-5853
▁Everyone	-5854
▁	-5855
¦	-5856
e	-5857
t	-5858
a	-5859
i	-5860
o	-5861
n	-5862
s	-5863
r	-5864
h	-5865
d	-5866
c	-5867
l	-5868
u	-5869
m	-5870
p	-5871
f	-5872
g	-5873
v	-5874
y	-5875
w	-5876
b	-5877
.	-5878
𐋇	-5879
,	-5880
k	-5881
C	-5882
T	-5883
0	-5884
-	-5885
1	-5886
I	-5887
A	-5888
2	-5889
S	-5890
M	-5891
x	-5892
'	-5893
D	-5894
P	-5895
9	-5896
H	-5897
j	-5898
"	-5899
R	-5900
B	-5901
O	-5902
z	-5903
5	-5904
V	-5905
𐊣	-5906
𐊼	-5907
W	-5908
4	-5909
q	-5910
3	-5911
)	-5912
(	-5913
N	-5914
E	-5915
?	-5916
U	-5917
8	-5918
6	-5919
7	-5920
K	-5921
F	-5922
G	-5923
:	-5924
J	-5925
L	-5926
%	-5927
;	-5928
/	-5929
Y	-5930
Z	-5931
!	-5932
’	-5933
”	-5934
“	-5935
–	-5936
Q	-5937
X	-5938
[	-5939
]	-5940
&	-5941
$	-5942
#	-5943
—	-5944
‘	-5945
•	-5946
≥	-5947
+	-5948
°	-5949
*	-5950
ा	-5951
_	-5952
×	-5953
武	-5954
肺	-5955
~	-5956
á	-5957
í	-5958
α	-5959
β	-5960
स	-5961
े	-5962
्	-5963
=	-5964
ò	-5965
č	-5966
ş	-5967
γ	-5968
ं	-5969
क	-5970
ब	-5971
र	-5972
汉	-5973
漢	-5974
炎	-5975
Ü	-5976
£	-5977
é	-5978
ó	-5979
ई	-5980
ओ	-5981
च	-5982
त	-5983
द	-5984
प	-5985
ल	-5986
ळ	-5987
व	-5988
श	-5989
ो	-5990
′	-5991
火	-5992
眼	-5993
Å	-5994
ü	-5995
å	-5996
