<pad>	0
</s>	0
<unk>	0
ို	-0
င်	-1
ော	-2
ည်	-3
ား	-4
ို့	-5
ကို	-6
က်	-7
င်း	-8
▁အ	-9
သည်	-10
သော	-11
▁သ	-12
န်	-13
ကြ	-14
တို့	-15
ရှ	-16
▁မ	-17
ော်	-18
င့်	-19
ပြ	-20
တော်	-21
တ်	-22
၏။	-23
▁ထ	-24
စ်	-25
နှ	-26
ယ်	-27
ုရ	-28
ပ်	-29
မျ	-30
မှ	-31
▁လ	-32
မ်	-33
▁င	-34
ည်း	-35
ဘုရ	-36
ောက်	-37
ဖြ	-38
မူ	-39
▁တ	-40
ခြ	-41
ိုး	-42
ီး	-43
▁ငါ	-44
ေး	-45
နှင့်	-46
ဘုရား	-47
မည်	-48
ကျ	-49
သို့	-50
ရှိ	-51
တော်မူ	-52
တို့သည်	-53
မြ	-54
သူ	-55
ခြင်း	-56
လျ	-57
▁ထို	-58
▁ယ	-59
▁သူ	-60
ုံ	-61
ိမ်	-62
▁စ	-63
ရာ	-64
ဟု	-65
ပါ	-66
ောင်	-67
ချ	-68
▁သင်	-69
ောင်း	-70
▁ပ	-71
ေါ	-72
တို့ကို	-73
▁န	-74
ွန်	-75
သား	-76
ဖြစ်	-77
ကား	-78
၍၊	-79
စေ	-80
မည်။	-81
ာဝ	-82
ာဝရ	-83
ုပ်	-84
▁ရ	-85
▁ပြ	-86
မျိုး	-87
ေ့	-88
ာဝရဘုရား	-89
လည်း	-90
ိုင်	-91
ိန်	-92
▁ဆ	-93
??	-94
▁ကို	-95
▁က	-96
▁ခ	-97
ကြ၏။	-98
ောင့်	-99
▁ထာဝရဘုရား	-100
သောသူ	-101
ပေါ	-102
ုံး	-103
အား	-104
ွား	-105
ခင်	-106
လျှ	-107
▁မြ	-108
လော	-109
မ်း	-110
သောအ	-111
ကျွန်	-112
ေလ	-113
ိမ့်	-114
မြို့	-115
ုန်	-116
ိတ်	-117
၎င်း	-118
တွ	-119
▁ကြ	-120
ခါ	-121
လျှင်	-122
ဲ့	-123
ိုက်	-124
▁ရှ	-125
မှာ	-126
▁ကိုယ်	-127
ဖြင့်	-128
အမျိုး	-129
လျက်	-130
သခင်	-131
▁ဘုရား	-132
လိမ့်	-133
ိမ	-134
များ	-135
ဉ်	-136
ကား၊	-137
ုတ်	-138
▁လူ	-139
ငှ	-140
▁အဘ	-141
ပြု	-142
ကြောင်း	-143
မျှ	-144
ကြီး	-145
ိုင်း	-146
▁ငါ့	-147
ပြည်	-148
၎င်း၊	-149
ငှါ	-150
လော့	-151
တော်မူ၏။	-152
လေ	-153
▁ကျ	-154
လျှင်၊	-155
သရ	-156
နေ	-157
ကြောင့်	-158
ွှ	-159
ကျွန်ုပ်	-160
လိမ့်မည်။	-161
ူး	-162
သက်	-163
ပြီ	-164
ခံ	-165
ိန့်	-166
▁ဣ	-167
ည်း။	-168
▁ဘုရားသခင်	-169
လူ	-170
????	-171
မှု	-172
ခြင်းငှါ	-173
သွား	-174
▁ဝ	-175
ဆို	-176
တွင်	-177
တော်ကို	-178
နှစ်	-179
▁အဘယ်	-180
ပေါင်း	-181
▁အကျွန်ုပ်	-182
ထား	-183
ွာ	-184
ိမိ	-185
▁သင်တို့	-186
ည့်	-187
▁ဗ	-188
▁ချ	-189
ရှင်	-190
လော့။	-191
လာ	-192
ရပ်	-193
လည်း၊	-194
အတ	-195
သရေလ	-196
ျက်	-197
▁မိမိ	-198
္တ	-199
ေရ	-200
ွက်	-201
▁သူတို့	-202
▁အာ	-203
ရား	-204
သော်	-205
လေ၏။	-206
ပေါ်	-207
▁ဣသရေလ	-208
တတ်	-209
လုံး	-210
▁ဒ	-211
တ္တ	-212
ဇ်	-213
ွေး	-214
▁ဘ	-215
ပါး	-216
န်း	-217
▁ဤ	-218
ပြီ။	-219
ပြစ်	-220
▁ဟ	-221
ပြီး	-222
ဲ့သို့	-223
ာလ	-224
ပေး	-225
သာ	-226
▁ထိုအ	-227
ဘုရင်	-228
နာ	-229
ံ့	-230
န့်	-231
ကဲ့သို့	-232
▁မိန့်	-233
နိုင်	-234
သောအခါ	-235
▁ကိုယ်တော်	-236
လင်	-237
ရှု	-238
▁ရှိ	-239
အပေါင်း	-240
မူကား၊	-241
▁ဖ	-242
သမျှ	-243
စာ	-244
စွာ	-245
▁သို့	-246
ထဲ	-247
ယောက်	-248
သဖြင့်	-249
ဝိ	-250
အမျိုးသား	-251
▁ကောင်း	-252
ခြင်းကို	-253
▁သည်	-254
ဘို့	-255
▁ဖြစ်	-256
ွေ	-257
▁နှ	-258
လျက်၊	-259
ခု	-260
ဟူ	-261
ဖန်	-262
ပြော	-263
ဒ်	-264
ွယ်	-265
က၊	-266
တိုင်	-267
▁မှ	-268
▁သား	-269
ွဲ	-270
▁ငါသည်	-271
▁ဧ	-272
▁ထိုသူ	-273
ညာ	-274
▁ပြု	-275
မည်ဟု	-276
နေ့	-277
လက်	-278
▁နေ	-279
ရှေ့	-280
▁ယဇ်	-281
မင်း	-282
စား	-283
အတိုင်း	-284
▁အလ	-285
ရင်	-286
သေ	-287
▁သော	-288
စ္	-289
ဘက်	-290
သိ	-291
စုံ	-292
သန	-293
ပင်	-294
▁သင့်	-295
ိန်း	-296
တည်း။	-297
တရား	-298
ထံ	-299
ရှင်း	-300
စဉ်	-301
▁သင်သည်	-302
▁သင်၏	-303
▁ည	-304
ရိ	-305
ရမည်။	-306
ထောင်	-307
▁အကြောင်း	-308
စကား	-309
ယူ	-310
▁သင်တို့သည်	-311
အောင်	-312
ပေါ်မှာ	-313
ုဒ	-314
ဘဲ	-315
▁မြေ	-316
▁သူတို့သည်	-317
စေခြင်းငှါ	-318
တော်မူသည်	-319
မြင်	-320
ိမ်း	-321
မရှိ	-322
▁လက်	-323
▁ခံ	-324
▁ထိုသို့	-325
▁ရောက်	-326
ကင်	-327
▁ယဇ်ပ	-328
▁အသက်	-329
သီး	-330
▁ဂ	-331
ွှတ်	-332
အကြောင်း	-333
သောအခါ၊	-334
ကြလော့။	-335
အားဖြင့်	-336
ေါ်	-337
▁မြို့	-338
မျက်	-339
တည်း	-340
ချင်း	-341
ငါ	-342
ျား	-343
ီရင်	-344
တော်မူသော	-345
ရှိ၏။	-346
င်္	-347
▁ထာဝရဘုရားသည်	-348
▁ယေ	-349
▁သူ၏	-350
ွင့်	-351
သဖြင့်၊	-352
ွင်း	-353
ပါ၏။	-354
ဦး	-355
ဆယ်	-356
ရှိသော	-357
ရဲ	-358
▁ယော	-359
▁အပြစ်	-360
▁အမ	-361
ဟုတ်	-362
▁လျ	-363
▁မီး	-364
ကြောင့်၊	-365
ရောက်	-366
များကို	-367
▁ယုဒ	-368
တို့အား	-369
နား	-370
ကလည်း၊	-371
လှ	-372
ကြလိမ့်မည်။	-373
ငယ်	-374
ရသော	-375
????????	-376
ပျ	-377
ပါ။	-378
ွတ်	-379
ရော	-380
▁နား	-381
အရာ	-382
ဇော်	-383
ဆောင်	-384
တော်၌	-385
▁ငါတို့	-386
▁ယေရ	-387
န့်ရှင်း	-388
ူဇော်	-389
ိန်းမ	-390
က္	-391
▁တဖန်	-392
ရှေ	-393
တိ	-394
ိပ်	-395
▁ကျွန်	-396
တပါး	-397
▁ဆို	-398
စ္စာ	-399
▁စိတ်	-400
ောဟ	-401
ထက်	-402
ါဝိ	-403
လော။	-404
ါဝိဒ်	-405
▁ပေး	-406
▁လျှ	-407
▁ကောင်းကင်	-408
▁ရှင်	-409
အလ	-410
▁မော	-411
တို့၏	-412
▁ထာဝရဘုရား၏	-413
ပြီးမှ	-414
မီး	-415
အရပ်	-416
အမှု	-417
▁ဖြ	-418
တော်သည်	-419
ပတ်	-420
ရ။	-421
▁သွား	-422
▁ထိုအခါ	-423
နည်း	-424
▁ပြန်	-425
သောသူသည်	-426
▁ဇ	-427
မိ	-428
မာ	-429
လိ	-430
ာန်	-431
တင်	-432
▁ရှင်ဘုရင်	-433
▁အမျိုး	-434
▁အို	-435
တို့နှင့်	-436
ညာဉ်	-437
▁အမှု	-438
ကာ	-439
ရက်	-440
နှင့်။	-441
စရာ	-442
ရေ	-443
ွန်း	-444
▁သူ့	-445
ုန်း	-446
▁တရား	-447
သည်ကို	-448
တိုင်အောင်	-449
နောက်	-450
ကောင်း	-451
လု	-452
ဏ်	-453
▁ငါ့ကို	-454
ောဟိတ်	-455
▁ဥ	-456
▁သေ	-457
ုရောဟိတ်	-458
▁မိန့်တော်မူ၏။	-459
ခြင်း၊	-460
ခြား	-461
အဘို့	-462
▁သန့်ရှင်း	-463
ခဲ့	-464
ဝေး	-465
ဖြစ်၏။	-466
ေးဇ	-467
▁သူသည်	-468
သည်ဟု	-469
ေးဇူး	-470
ဂု	-471
▁သိ	-472
ခြေ	-473
ရှိသမျှ	-474
မတ်	-475
▁အကြောင်းမူကား၊	-476
ရကြ	-477
လိုက်	-478
ဖြစ်၍၊	-479
▁ဒါဝိဒ်	-480
ထာဝရဘုရား	-481
ဘုရားသခင်	-482
မြောက်	-483
သတ်	-484
သံ	-485
▁စစ်	-486
မဟုတ်	-487
ုရှ	-488
▁ရေ	-489
တို့၌	-490
▁ယေရှု	-491
▁ဆောင်	-492
▁အဘယ်သူ	-493
အဘ	-494
ကြား	-495
တက	-496
သတည်း။	-497
စကားကို	-498
▁သခင်	-499
စ်ကို	-500
တိုင်း	-501
မည်အကြောင်း	-502
ပြန်	-503
ာမ	-504
ရှင်ဘုရင်	-505
ဝတ်	-506
▁????????	-507
ွမ်း	-508
ခါး	-509
သော်လည်း၊	-510
▁စား	-511
▁ဘုရားသခင်၏	-512
▁ယဇ်ပုရောဟိတ်	-513
▁လေ	-514
▁ပြော	-515
ကို၎င်း၊	-516
▁ငါ၏	-517
ကာလ	-518
▁ဣသရေလအမျိုး	-519
▁စကား	-520
လင်မြို့	-521
ခွင့်	-522
ော့	-523
တ္တု	-524
▁နှုတ်	-525
မှီ	-526
စိတ်	-527
ချိန်	-528
ညီ	-529
ဃ်	-530
ကြံ	-531
ဃ်း	-532
ွေ့	-533
ိုဃ်း	-534
ဝင်	-535
▁အိမ်	-536
အပေါင်းတို့သည်	-537
ပြင်	-538
နှာ	-539
စု	-540
မုန်	-541
▁မျက်	-542
ဲဂု	-543
▁လှ	-544
တတ်၏။	-545
ထွက်	-546
တောင်	-547
▁သိုး	-548
▁နောက်	-549
လ္	-550
ဉ်း	-551
ဲဂုတ္တု	-552
တန်	-553
သင်	-554
ံခါး	-555
အိမ်	-556
▁ယခု	-557
သည်အတိုင်း	-558
▁မောရှေ	-559
▁အဲဂုတ္တု	-560
▁အား	-561
ရစ်	-562
သနည်း။	-563
လည်	-564
▁သူတို့ကို	-565
အတူ	-566
တယောက်	-567
ငံ	-568
ဟူသော	-569
ိုလ	-570
▁ထား	-571
▁ယေရုရှ	-572
▁ပြည်	-573
▁ကြား	-574
သော်၊	-575
တိုက်	-576
မှစ	-577
ပါစေ	-578
ထံသို့	-579
▁မိုဃ်း	-580
ျာ	-581
င်္ဂ	-582
▁မိ	-583
လ္လင်	-584
▁လုပ်	-585
ဖက်	-586
▁အဘယ်သို့	-587
▁ပူဇော်	-588
ထဲက	-589
▁လာ	-590
ဆင်း	-591
ပြား	-592
▁မည်	-593
▁ကယ်	-594
တ္တိ	-595
▁ထွက်	-596
လုပ်	-597
▁တည်	-598
▁နှစ်	-599
စင်	-600
▁မူ	-601
ရှား	-602
▁ဣသရေလအမျိုးသား	-603
ဆီး	-604
မန်	-605
▁ရွှ	-606
▁စီရင်	-607
ဝါ	-608
▁အလွန်	-609
ဘေး	-610
▁သင့်ကို	-611
သောကြောင့်၊	-612
▁ဆင်း	-613
▁ယေရုရှလင်မြို့	-614
ရှာ	-615
ရှေ့မှာ	-616
စိုး	-617
▁လျှောက်	-618
ုလ	-619
ဘော	-620
သကဲ့သို့	-621
ကိုလည်း	-622
ောင့်မတ်	-623
တူ	-624
စီး	-625
▁ထာဝရ	-626
သမီး	-627
▁ရှော	-628
ေါင်း	-629
▁မင်း	-630
ရောဖက်	-631
▁မြင်	-632
ပြီးမှ၊	-633
လမ်း	-634
သုံး	-635
တော်မူပါ။	-636
တကွ	-637
နှုတ်	-638
အသက်	-639
ိုလ်	-640
▁ကျေးဇူး	-641
တွင်း	-642
ဆုံး	-643
မိန့်	-644
▁မြေကြီး	-645
ဘက်၌	-646
စီရင်	-647
ိညာဉ်	-648
ဆက်	-649
ရှို့	-650
▁ငါတို့သည်	-651
ကောင်	-652
လော့ဟု	-653
ာန	-654
တွင်၊	-655
နစ်	-656
▁မိန်းမ	-657
ာရ	-658
ညတ်	-659
ပြီးလျှင်၊	-660
တည်	-661
တောင်း	-662
ကျင့်	-663
ယဇ်	-664
▁ဒု	-665
ခိုး	-666
သောအရာ	-667
မ္	-668
အံ့	-669
▁ရန်	-670
တော်သို့	-671
▁အစဉ်	-672
င်္ဂလာ	-673
၏သား	-674
အပြစ်	-675
ကြည်	-676
ဏာ	-677
နက်	-678
ချက်	-679
တွက်	-680
မှစ၍	-681
▁တောင်	-682
ခြင်းသို့	-683
လွှတ်	-684
▁များ	-685
▁အရှင်	-686
ထဲသို့	-687
▁အခြား	-688
ကြောင်းကို	-689
▁ငြ	-690
သောသူ၊	-691
မှန်	-692
▁မေး	-693
တည်းဟူသော	-694
▁ရှေ့	-695
ရ၏။	-696
▁ကိုယ်တော်သည်	-697
▁လိုက်	-698
▁သက်	-699
တို့၊	-700
သိမ်း	-701
အစ်ကို	-702
ရု	-703
ရိုက်	-704
သောအမှု	-705
မြို့၊	-706
တွေ့	-707
▁စောင့်	-708
▁ဖြောင့်မတ်	-709
ိရ	-710
သည်လည်း	-711
▁အရာ	-712
စစ်	-713
ာက	-714
ဖြစ်စေ	-715
▁ခေါ်	-716
ာဗ	-717
ဆွေ	-718
မှတ်	-719
မှား	-720
သော်လည်း	-721
လေး	-722
▁ကြီး	-723
▁အရပ်	-724
နှလုံး	-725
လိမ့်မည်ဟု	-726
▁ပရောဖက်	-727
▁မီးရှို့	-728
က္ခ	-729
တော်မ	-730
▁သတ်	-731
ိမာန်	-732
ဆဲ	-733
ပျစ်	-734
အမြ	-735
ဘွယ်	-736
▁ဟော	-737
ုံကြည်	-738
ပြည်၌	-739
▁ချီး	-740
ဇာ	-741
▁နားထောင်	-742
စွာသော	-743
နှင့်အတူ	-744
▁ခံရ	-745
ည့်ရှု	-746
ပြီဟု	-747
မင်းကြီး	-748
ောက်မ	-749
တို့တွင်	-750
ျက်ဆီး	-751
▁မိန့်တော်မူသည်	-752
နည်း။	-753
မြို့သို့	-754
နိုင်ငံ	-755
တတ်သော	-756
နေရာ	-757
▁ဝမ်း	-758
စောင့်	-759
▁လူများ	-760
▁သင်တို့ကို	-761
ဆာ	-762
ဖြစ်၍	-763
ယား	-764
ကပ်	-765
▁အာရ	-766
ရည်	-767
ကျိုး	-768
▁မိမိတို့	-769
စရိုက်	-770
နှင့်တကွ	-771
▁တော	-772
▁ကျောက်	-773
ပျက်	-774
မွမ်း	-775
ကိုယ်	-776
▁အသီး	-777
မိန်းမ	-778
▁ကိုယ်တော်ကို	-779
ေဒ	-780
▁ယူ	-781
သလော။	-782
▁ညီ	-783
▁လမ်း	-784
ခေါ်	-785
သားတို့သည်	-786
သောသူတို့သည်	-787
တု	-788
အလို	-789
င်ရှား	-790
▁စေ	-791
က္ကာ	-792
ဆို၏။	-793
▁ဘုရားသခင်သည်	-794
မြို့၌	-795
▁တန်	-796
▁အသ	-797
နှင့်အ	-798
လျှောက်	-799
င်လ	-800
ရမည်	-801
အမှုကို	-802
▁တပါး	-803
ရွ	-804
ကုန်	-805
ကြ။	-806
▁တယောက်	-807
တံခါး	-808
ာကုပ်	-809
ဟူမူကား၊	-810
ခြောက်	-811
မည်အကြောင်း၊	-812
ငါး	-813
သည်ကား၊	-814
▁ဝင်	-815
သနည်း	-816
▁ကိုယ်တော်၏	-817
နေ့၌	-818
ွဲ့	-819
▁မတရား	-820
တော်မမူ	-821
▁ထာဝရဘုရားကို	-822
ိလ	-823
▁ကာလ	-824
▁ပညာ	-825
ဝပ်	-826
ကြယ်	-827
ရိုး	-828
▁ဆုံး	-829
စည်း	-830
အသီး	-831
ဗြ	-832
ပည့်	-833
ရိမ်	-834
▁ပညတ်	-835
စေခြင်းငှါ၊	-836
ုန့်	-837
ခံရ	-838
ဆိုင်	-839
▁ပြည့်	-840
လူတို့သည်	-841
▁ဗိမာန်	-842
နိ	-843
▁ရွှေ	-844
▁ရန်သူ	-845
▁အသက်ရှင်	-846
သက္ကာ	-847
တော်မူပြီ။	-848
သောကြောင့်	-849
▁အဘယ်ကြောင့်	-850
ကိုမ	-851
ဆိုး	-852
တဖန်	-853
သွား၍	-854
▁သင်္	-855
၏ဟု	-856
အုပ်	-857
သား၊	-858
▁စပျစ်	-859
ပယ်	-860
ထုတ်	-861
အရှင်	-862
တ္တာ	-863
ဆင်	-864
▁ခါ	-865
▁ဟေ	-866
သည်၊	-867
▁ကြောက်	-868
▁လော	-869
လို	-870
ွန့်	-871
ဟူ၍	-872
▁အလို	-873
ကယ်	-874
▁အဲဂုတ္တုပြည်	-875
▁သိမ်း	-876
▁ကယ်တင်	-877
တော်နှင့်	-878
ွင်	-879
လွတ်	-880
▁နေ့	-881
မျက်နှာ	-882
▁ဆင်းရဲ	-883
မြေ	-884
▁မည်။	-885
▁သုံး	-886
▁တပ်	-887
▁မှာ	-888
▁အခွင့်	-889
အပ်	-890
▁တဲ	-891
ပြု၍	-892
▁ဒုစရိုက်	-893
တမန်	-894
▁အမျက်	-895
လွှ	-896
မည်း	-897
ရိသတ်	-898
အတွက်	-899
ပတ်လုံး	-900
ဟာ	-901
ပါဟု	-902
နားမှာ	-903
▁အပ်	-904
များ၊	-905
မှတပါး	-906
▁အချင်း	-907
▁နွား	-908
ေလွှတ်	-909
▁သူ့ကို	-910
▁တိုက်	-911
ပွဲ	-912
ပြည့်	-913
▁ယာကုပ်	-914
ဥစ္စာ	-915
သနည်းဟု	-916
ိုလ်ခြေ	-917
သရေ	-918
ကွယ်	-919
▁အပေါင်း	-920
မြတ်	-921
ရှက်	-922
▁စေလွှတ်	-923
ကြပြီ။	-924
▁ယနေ့	-925
▁တို့ကို	-926
ဘူး	-927
▁သို့ရာ	-928
▁သင်တို့၏	-929
▁ခု	-930
▁အကျွန်ုပ်ကို	-931
စိ	-932
ကြွင်း	-933
▁တိုင်	-934
▁ရှောလု	-935
▁နောက်တဖန်	-936
တခု	-937
စေ့	-938
▁၏။	-939
ှဉ်း	-940
▁မျက်နှာ	-941
ချို့	-942
▁နန်း	-943
▁အကျွန်ုပ်သည်	-944
▁ရာ	-945
မ္မ	-946
နေသော	-947
အန	-948
▁အန	-949
▁လည်း	-950
ငြ	-951
ှဉ်းဆဲ	-952
အချိန်	-953
မရှိ။	-954
▁အာမ	-955
▁အမိန့်	-956
ဟော	-957
▁ပယ်	-958
▁ရှာ	-959
▁ခရစ်	-960
ရွာ	-961
မြစ်	-962
ရွက်	-963
ရာသို့	-964
▁ဘုန်း	-965
ဖွဲ့	-966
▁ဖိ	-967
ပါစေသော	-968
▁သစ္စာ	-969
▁ယုံကြည်	-970
ာဗုလ	-971
▁ကြည့်ရှု	-972
အပေါင်းတို့ကို	-973
▁ပေါ	-974
သည်အတိုင်း၊	-975
▁ငွေ	-976
ဝိညာဉ်	-977
တရားကို	-978
ာဗုလုန်	-979
စ္ဆ	-980
▁ပြင်	-981
ပြုသော	-982
▁သာ	-983
▁လေဝိ	-984
▁ကျိန်	-985
▁နှင့်	-986
သေး	-987
လောဟု	-988
ုတောင်း	-989
ဆွေအမျိုး	-990
မြှ	-991
အမည်	-992
▁ပရိသတ်	-993
ခြင်းနှင့်	-994
ပါပြီ။	-995
▁ဝတ်	-996
ရှောက်	-997
စ္ဆာန်	-998
ဖြစ်သော	-999
သည်ဖြစ်၍၊	-1000
▁ရွေး	-1001
အတိုင်း၊	-1002
သေခံ	-1003
▁ညီအစ်ကို	-1004
လတ	-1005
▁နိုင်	-1006
▁လိမ့်	-1007
စံ	-1008
▁ယောက်	-1009
▁အိပ်	-1010
ပ်သိမ်း	-1011
▁ပြည့်စုံ	-1012
▁ဝမ်းမြောက်	-1013
လဲ	-1014
▁ဟု	-1015
▁ထိုသူသည်	-1016
ိုးဘေး	-1017
▁တွေ့	-1018
▁တောင်း	-1019
ပည့်တော်	-1020
▁ယဇ်ပလ္လင်	-1021
သပ်	-1022
▁လု	-1023
ဘော်	-1024
▁ဝိညာဉ်	-1025
▁ကိုယ်ကို	-1026
▁မိန့်တော်မူ	-1027
မက်	-1028
▁မေ	-1029
န့်ထား	-1030
ပေါ်သို့	-1031
ကပတ်	-1032
▁ဤသူ	-1033
ောက်မေ့	-1034
▁ထိုသူတို့သည်	-1035
ယော	-1036
▁လူမျိုး	-1037
တကား	-1038
▁အာရုန်	-1039
▁သူတို့၏	-1040
▁ဆောင်ခဲ့	-1041
ခရ	-1042
ုရိ	-1043
▁နာ	-1044
ရှိကြ၏။	-1045
ရွံ့	-1046
ကြောက်	-1047
▁လွှတ်	-1048
ဆီ	-1049
▁ချီးမွမ်း	-1050
လျက်နေ	-1051
တင်း	-1052
ရင်း	-1053
▁ငြိမ်	-1054
▁အမျိုးသား	-1055
လင့်	-1056
▁ခုနစ်	-1057
▁ထင်ရှား	-1058
▁ဖိလိ	-1059
အပေါ်မှာ	-1060
▁မုန့်	-1061
ဝတ်ကို	-1062
▁တံခါး	-1063
▁ကျင့်	-1064
သောငှါ	-1065
ဖြစ်စေ၊	-1066
▁စည်း	-1067
▁တို့သည်	-1068
မျှမ	-1069
မ်းသာ	-1070
ရာယဇ်	-1071
▁ထိုနောက်	-1072
တံ	-1073
အရာ၌	-1074
တန်ဆာ	-1075
တော်၏	-1076
ကောင်းကင်	-1077
သငယ်	-1078
▁နာမ	-1079
▁ဧလိ	-1080
▁ဖျက်ဆီး	-1081
ထဲမှာ	-1082
ခေါင်း	-1083
ဉ့်	-1084
▁ဇိ	-1085
ချစ်	-1086
သံကို	-1087
▁ပြစ်	-1088
▁ပြေး	-1089
ပန်	-1090
ယူ၍	-1091
ရှဲ	-1092
▁သံ	-1093
▁မင်္ဂလာ	-1094
▁အတိုင်း	-1095
ပစ်	-1096
သောက်	-1097
သောသူတို့ကို	-1098
▁ပူဇော်သက္ကာ	-1099
ခတ်	-1100
ရပ်၌	-1101
လတံ့	-1102
▁သူတပါး	-1103
ုပ်တု	-1104
▁ခပ်သိမ်း	-1105
▁အထ	-1106
▁နေရာ	-1107
မဲ့	-1108
ပေ	-1109
▁အလျ	-1110
▁ကြောင့်	-1111
▁ထိုကြောင့်	-1112
▁သန့်ရှင်းသော	-1113
စေ။	-1114
ရလိမ့်မည်။	-1115
ဏ္	-1116
သူရဲ	-1117
▁အာဗြ	-1118
ရံ	-1119
ဖြေ	-1120
▁ပါ	-1121
ခြင်းငှါ၊	-1122
▁ဗာဗုလုန်	-1123
နယ်	-1124
သည်မဟုတ်	-1125
▁ဟောပြော	-1126
▁စစ်တိုက်	-1127
▁တပည့်တော်	-1128
မပြ	-1129
▁ပြစ်မှား	-1130
▁ဩ	-1131
▁မထ	-1132
ကာလ၌	-1133
▁ခြေ	-1134
ခုနစ်	-1135
▁ပျက်	-1136
▁မဟုတ်	-1137
ရကြမည်။	-1138
သောသူကို	-1139
▁သို့ဖြစ်၍	-1140
ဟံ	-1141
ဆိတ်	-1142
▁ဘုရားသခင်ကို	-1143
ကန်	-1144
ပါစေသော။	-1145
▁အခြားသော	-1146
▁နားမ	-1147
▁ခြ	-1148
ကြွေး	-1149
အသက်ကို	-1150
ရှေ့တော်၌	-1151
▁နှုတ်ကပတ်	-1152
သင့်	-1153
သောင်း	-1154
လူမျိုး	-1155
▁တပါးအမျိုးသား	-1156
▁အထက်	-1157
▁ခမည်း	-1158
သမျှသော	-1159
စပ်	-1160
▁တတ်	-1161
▁ဘေး	-1162
ီချင်း	-1163
ယေ	-1164
▁စု	-1165
▁ပျ	-1166
ခြင်းရှိ	-1167
▁ဆုတောင်း	-1168
▁ယောက်ျား	-1169
▁ချစ်	-1170
တမ်း	-1171
▁တိရ	-1172
လမုန်	-1173
ကြပါ၏။	-1174
▁ငါမ	-1175
ကို၎င်း	-1176
လုံးစုံ	-1177
ဗိုလ်ခြေ	-1178
ဘဲနေ	-1179
အရပ်၌	-1180
ပူဇော်	-1181
ကျေးဇူး	-1182
▁ရှေ့တော်၌	-1183
▁စိတ်နှလုံး	-1184
သာ၍	-1185
▁တံ	-1186
▁နေရ	-1187
ကြည့်	-1188
းကွယ်	-1189
▁အမွေ	-1190
သောစိတ်	-1191
ရဲ့	-1192
ာဏ်	-1193
ှက်	-1194
▁ကောင်းကြီး	-1195
အာ	-1196
ပေါ်၌	-1197
မြင့်	-1198
▁လေး	-1199
▁လိမ့်မည်။	-1200
ျာဒ	-1201
ခန်း	-1202
ော့။	-1203
ဲ့ရဲ့	-1204
ော်လင့်	-1205
▁မျ	-1206
ဘွား	-1207
အောက်	-1208
▁တစုံ	-1209
▁အုပ်	-1210
ကြနှင့်။	-1211
တော်မူမည်။	-1212
ျာဒိတ်	-1213
မြှောက်	-1214
တပ်	-1215
ရန်	-1216
▁ဆက်	-1217
▁ဥစ္စာ	-1218
သကဲ့သို့၊	-1219
▁ပြန်ပြော	-1220
▁ဆီ	-1221
ခရစ်	-1222
နည်းဟု	-1223
နာမ	-1224
▁စကားကို	-1225
လူတို့ကို	-1226
ပြည်သို့	-1227
တဘက်၌	-1228
နှင့်အညီ	-1229
▁ကျွန်တော်	-1230
လာ၍၊	-1231
ော်ဒ	-1232
လူတို့	-1233
စေလွှတ်	-1234
အခါ	-1235
▁စုံ	-1236
▁ဝန်	-1237
သားကို	-1238
▁အသေ	-1239
▁အကျိုး	-1240
တော်မူ၍၊	-1241
ထာဝရဘုရား၊	-1242
▁ထာဝရဘုရားအား	-1243
အစ	-1244
လာ၍	-1245
ရုဏာ	-1246
ကြော်	-1247
▁လှည့်	-1248
▁ကျွန်ုပ်	-1249
▁တိရစ္ဆာန်	-1250
▁သို့ရာတွင်	-1251
▁တော်	-1252
▁ကျမ်း	-1253
မှာ၊	-1254
▁အကယ်	-1255
▁ညှဉ်းဆဲ	-1256
ပု	-1257
စွဲ	-1258
▁ရှေ	-1259
▁တန်ခိုး	-1260
▁ပဌ	-1261
▁ဆုံးမ	-1262
ငှာ	-1263
ဘဲ၊	-1264
ဖြတ်	-1265
ပြည်ကို	-1266
▁စင်	-1267
င်လယ်	-1268
▁ပင်လယ်	-1269
▁မှာထား	-1270
▁????????????	-1271
ိုကြွေး	-1272
ပြည့်စုံ	-1273
▁ပြောဆို	-1274
မယား	-1275
▁နက်	-1276
မိုက်	-1277
▁ဘိုးဘေး	-1278
▁နံ	-1279
▁ယောသပ်	-1280
▁သို့သော်လည်း	-1281
▁အရှင်ထာဝရဘုရား	-1282
ဌာန	-1283
▁ပေ	-1284
သဘော	-1285
▁မရှိ	-1286
င့်ဆို	-1287
အပေါင်းတို့	-1288
ကြွ	-1289
ထိုင်	-1290
▁လျက်	-1291
▁ဖိလိတ္တိ	-1292
အမြဲ	-1293
▁သူငယ်	-1294
▁ကောင်းကင်တမန်	-1295
ယာ	-1296
▁တင်	-1297
န္	-1298
▁ဗာလ	-1299
ချုပ်	-1300
▁မြင်း	-1301
သားတို့ကို	-1302
▁ကြွ	-1303
ပိုင်	-1304
သွား၍၊	-1305
လျက်ရှိ	-1306
နှစ်ယောက်	-1307
ကဲ	-1308
ဂါ	-1309
ကျောက်	-1310
လိမ့်မည်	-1311
စီ	-1312
ဟစ်	-1313
ထံတော်သို့	-1314
ကျင်	-1315
ခံရသော	-1316
???	-1317
▁စာရ	-1318
▁မြစ်	-1319
သောသူ၏	-1320
▁ထိုင်	-1321
ဖြစ်ကြ၏။	-1322
▁လောက	-1323
နည်းတူ	-1324
ပလ္လင်	-1325
ကြီးသော	-1326
▁နိုင်ငံ	-1327
▁အဘယ်သူမျှ	-1328
▁အကျွန်ုပ်၏	-1329
▁ဧဖ	-1330
▁လွှ	-1331
အနွယ်	-1332
စရာဘို့	-1333
▁ငါတို့ကို	-1334
▁ရပ်	-1335
▁အခါ	-1336
▁ယေရှုသည်	-1337
ယျာ	-1338
▁မု	-1339
ယျာဉ်	-1340
တတ်ကြ၏။	-1341
လျက်ရှိ၏။	-1342
▁အောက်မေ့	-1343
ဝန်	-1344
လွန်	-1345
အသရေ	-1346
▁ကြ၏။	-1347
▁ဆိတ်	-1348
▁ခန့်ထား	-1349
ရကြ၏။	-1350
ရှောင်	-1351
မှူး	-1352
▁ဒဏ်	-1353
▁သာ၍	-1354
▁အဝတ်	-1355
ထားသော	-1356
▁ယောရှု	-1357
မြို့သား	-1358
▁ဖာ	-1359
စမ်း	-1360
▁ငါပေး	-1361
▁ဗျာဒိတ်	-1362
▁ကြောက်ရွံ့	-1363
▁၌	-1364
ရာ၊	-1365
လူ၊	-1366
အဘယ်	-1367
▁အနာ	-1368
နှံ	-1369
▁ဟာ	-1370
▁သတိ	-1371
လျော့	-1372
အံ့သောငှါ	-1373
▁ရှောလမုန်	-1374
▁ကိုယ်တိုင်	-1375
▁ချီ	-1376
▁အစာ	-1377
▁အရေ	-1378
လက်မှ	-1379
▁သက်သေခံ	-1380
ုဗ	-1381
ယ်၌	-1382
ပါမည်။	-1383
▁စွန့်	-1384
မြို့နှင့်	-1385
▁ဣသရေလအမျိုး၏	-1386
ချင်	-1387
▁လူအ	-1388
▁စုဝေး	-1389
မြို့ကို	-1390
စ်ည	-1391
တရု	-1392
ပန်း	-1393
▁မူ၏။	-1394
▁ကရုဏာ	-1395
▁ဒါဝိဒ်သည်	-1396
ဇိ	-1397
မေး	-1398
သနား	-1399
▁ငါး	-1400
▁သစ်	-1401
တို့က၊	-1402
ပိုင်း	-1403
▁ထောင်	-1404
ကြော	-1405
တကား။	-1406
▁အာရှ	-1407
စေမည်။	-1408
▁အာဗြဟံ	-1409
▁မင်းကြီး	-1410
ရှိသမျှတို့ကို	-1411
တော	-1412
အစဉ်	-1413
င်ထုတ်	-1414
▁မျက်စိ	-1415
သမ	-1416
▁ရေး	-1417
▁အကြံ	-1418
▁နားမထောင်	-1419
▁ထာဝရဘုရားမိန့်	-1420
▁မိုဃ်းကောင်းကင်	-1421
▁ပတ်	-1422
▁အံ့	-1423
▁ကင်း	-1424
▁မှတ်	-1425
▁ပျက်စီး	-1426
▁ရှိသမျှ	-1427
▁သခင်ဘုရား	-1428
▁ထိုကြောင့်၊	-1429
▁ပေါ်	-1430
ော်ဟစ်	-1431
▁၏	-1432
တကောင်	-1433
▁အသွေး	-1434
▁ငါ့အား	-1435
▁တဲတော်	-1436
▁အကယ်စင်	-1437
▁အိုထာဝရဘုရား၊	-1438
ေသ	-1439
ဒုံ	-1440
▁အစ	-1441
စင်ကြယ်	-1442
▁ကဲ့ရဲ့	-1443
▁ဖြစ်၏။	-1444
ခြင်းငှာ	-1445
ရှိရာသို့	-1446
လင်း	-1447
▁တက်	-1448
▁အကြ	-1449
▁လွန်	-1450
ကိုမျှ	-1451
တန်ခိုး	-1452
တော်ရှိ	-1453
တော်မူလျှင်၊	-1454
ခွက်	-1455
မူကား	-1456
သန်	-1457
သွေး	-1458
ုလား	-1459
စ်ညူး	-1460
ည်တမ်း	-1461
ယေရှု	-1462
▁ငိုကြွေး	-1463
▁မြော်လင့်	-1464
▁မယား	-1465
▁သင်၌	-1466
▁ပေါလု	-1467
▁မိုက်	-1468
အမျိုး၊	-1469
▁စပျစ်ရည်	-1470
များတို့သည်	-1471
▁အကယ်စင်စစ်	-1472
ကြပါ	-1473
ဖျား	-1474
ရှေ့၌	-1475
ိုင့်	-1476
▁နံနက်	-1477
▁ကျွန်မ	-1478
အမျိုးမျိုး	-1479
▁ဦး	-1480
ချီး	-1481
ကျိပ်	-1482
စည်းဝေး	-1483
နှစ်ဆယ်	-1484
▁မရ	-1485
စေ၍၊	-1486
ံ့သာ	-1487
န်ကြွင်း	-1488
အပြစ်ကို	-1489
သောအခွင့်	-1490
ကောက်	-1491
ဆောက်	-1492
▁ဗင်္	-1493
▁သို့မဟုတ်	-1494
ွေလ	-1495
ွန်အား	-1496
▁ကြွေး	-1497
သန့်ရှင်း	-1498
▁မာ	-1499
ပိုး	-1500
ပွန်း	-1501
လောက်	-1502
▁လော့။	-1503
▁အပြစ်ဖြေ	-1504
ခင့်	-1505
မွေး	-1506
ဝမ်း	-1507
ကြိုး	-1508
င်လန်း	-1509
▁ဆင့်ဆို	-1510
▁သင်၏ဘုရားသခင်	-1511
ထဲ၌	-1512
ဒေါ	-1513
▁စာ	-1514
▁ဟူ	-1515
▁ဘွား	-1516
▁ခိုင်	-1517
မင်းသည်	-1518
ဗောင်	-1519
▁ထုတ်	-1520
▁သေတ္တာ	-1521
တိယ	-1522
ရေး	-1523
ဟန်	-1524
▁ခရ	-1525
▁တမန်	-1526
လုံးကို	-1527
ကြလော့ဟု	-1528
ဆိုင်သော	-1529
▁သီချင်း	-1530
▁အကျွန်ုပ်တို့	-1531
▁မောဘ	-1532
▁အရင်	-1533
▁ဥာဏ်	-1534
ိမ့်ချ	-1535
ော်ဒန်	-1536
နီး	-1537
ွပ်	-1538
▁ဂိလ	-1539
ထိုက်	-1540
ဖျက်ဆီး	-1541
နိုင်သော	-1542
▁ထိုအမှု	-1543
သောအမှုကို	-1544
▁ထိုမိန်းမ	-1545
▁ဂု	-1546
တစုံ	-1547
ပျို	-1548
ပြုရ	-1549
မရှိ၊	-1550
ဘွယ်သော	-1551
▁အစဉ်အမြဲ	-1552
▁အဆွေအမျိုး	-1553
တော်မူသည်ကား၊	-1554
▁ဂိ	-1555
▁ဖန်	-1556
▁လယ်	-1557
မပြတ်	-1558
▁ရုပ်တု	-1559
▁သမ	-1560
ပြေး	-1561
ပြည်၊	-1562
▁အောင်	-1563
▁ဧဖရိမ်	-1564
တို့သည်၊	-1565
▁ချမ်းသာ	-1566
▁စင်ကြယ်	-1567
ငွေ	-1568
ဖျက်	-1569
မှတပါး၊	-1570
တော်မူသဖြင့်၊	-1571
ခဲ	-1572
၏အ	-1573
ခို	-1574
စော	-1575
လှုပ်	-1576
ာမိန်	-1577
▁ထမ်း	-1578
▁ပေတရု	-1579
▁ပြင်း	-1580
▁ငြိမ်ဝပ်	-1581
▁သင်တို့အား	-1582
တော်အားဖြင့်	-1583
▁မီးရှို့ရာယဇ်	-1584
▁၍	-1585
တား	-1586
▁ငါအ	-1587
▁မသိ	-1588
▁တည်း	-1589
▁ရှိ၏။	-1590
ိမင်း	-1591
▁ယော်ဒန်	-1592
ငါ့	-1593
▁ဂါ	-1594
▁မခံ	-1595
ပေါက်	-1596
▁သဘော	-1597
ဉ်းကပ်	-1598
▁ဖန်ဆင်း	-1599
များနှင့်	-1600
ကိ	-1601
ရာ၌	-1602
မပြု	-1603
▁ဂုဏ်	-1604
အရာကို	-1605
▁အကြင်	-1606
▁အချိန်	-1607
▁ပြင်ဆင်	-1608
ချီ	-1609
သိုး	-1610
▁????	-1611
▁ကြိုး	-1612
▁သွန်း	-1613
▁သွား၍	-1614
▁တော်မူ၏။	-1615
ခြင်းအားဖြင့်	-1616
ဗိုလ်ခြေအရှင်	-1617
ွါ	-1618
တဘက်	-1619
ချည်း	-1620
သခင့်	-1621
ခရိုင်	-1622
ရာအရပ်	-1623
▁လုပ်ကြံ	-1624
▁ထွက်သွား	-1625
ဒု	-1626
မိုး	-1627
▁ခရီး	-1628
▁ဆိုး	-1629
ပျောက်	-1630
ယာမိန်	-1631
▁မတရားသော	-1632
လုံ	-1633
▁ဆယ်	-1634
▁စပါး	-1635
ပါသည်ဟု	-1636
▁ကျိန်ဆို	-1637
▁ဗိမာန်တော်	-1638
▁ခပ်သိမ်းသော	-1639
မြဲ	-1640
ောဇ	-1641
▁ဇာ	-1642
ဆော်	-1643
▁သောက်	-1644
▁အစိုး	-1645
ပြည်သား	-1646
▁ရှိသော	-1647
▁အချင်းချင်း	-1648
လား	-1649
ပညတ်	-1650
လေပြီ။	-1651
▁မြောက်	-1652
မည်နည်း။	-1653
▁ယုဒရှင်ဘုရင်	-1654
▁ကောင်းကြီးပေး	-1655
▁လွတ်	-1656
▁နောင်	-1657
▁အသက်ကြီး	-1658
ဝဲ	-1659
ပုံ	-1660
ကိုင်	-1661
မှာထား	-1662
▁လောကီ	-1663
▁သို့သော်လည်း၊	-1664
ကွဲ	-1665
ရွှ	-1666
ရကြ။	-1667
နေ့ရက်	-1668
၌၎င်း၊	-1669
လက်သို့	-1670
ပြစ်မှား	-1671
▁သူတို့အား	-1672
▁ထိုသို့သော	-1673
ဘုံ	-1674
▁ဗာ	-1675
ထွက်၍	-1676
ပါစေ။	-1677
▁မှန်	-1678
▁စည်းဝေး	-1679
▁သင်္ဘော	-1680
▁အသံ	-1681
ပါသော	-1682
▁ရှောက်	-1683
▁မကောင်း	-1684
တို့ကို၎င်း၊	-1685
သ်	-1686
ဟာယ	-1687
တိမ်	-1688
ေးဝါ	-1689
▁ရော	-1690
ကြသည်	-1691
နှင့်၊	-1692
▁နံ့သာ	-1693
▁ဝန်ခံ	-1694
ိုးဆော်	-1695
ောင်မိုက်	-1696
▁ချီးမြှောက်	-1697
ဆေး	-1698
မသိ	-1699
ကို၊	-1700
မြန်း	-1701
နိုင်။	-1702
▁ဗိုလ်	-1703
သောအရပ်	-1704
▁ခေါင်း	-1705
▁သင်တို့၌	-1706
ပညာ	-1707
နွား	-1708
ပုသ်	-1709
▁စိုး	-1710
သေ့	-1711
ခြင်	-1712
ပွား	-1713
အုန်	-1714
သွင်း	-1715
ဣသရေလ	-1716
င်္သေ့	-1717
ဒါဝိဒ်	-1718
▁မြင့်	-1719
▁မြည်း	-1720
သောသူတို့	-1721
▁ခမည်းတော်	-1722
မှီတိုင်အောင်	-1723
လက်၌	-1724
▁အမိ	-1725
က္ခဏာ	-1726
မုန့်	-1727
▁ကုလား	-1728
ပြီးလျှင်	-1729
သောသူဖြစ်	-1730
▁ထိုသူကို	-1731
▁ဗင်္ယာမိန်	-1732
▁များစွာသော	-1733
လှုံ	-1734
ကြကုန်	-1735
အတွင်း	-1736
ဆုံးသော	-1737
ရောဘုရင်	-1738
ဗာ	-1739
ခံ့	-1740
▁အလျင်	-1741
▁ခွန်အား	-1742
သောအရာကို	-1743
▁မစင်ကြယ်	-1744
▁ဆောင်ရွက်	-1745
▁သို့ဖြစ်၍၊	-1746
ညှ	-1747
င်၊	-1748
ံရှာ	-1749
▁ငါ့အ	-1750
▁အချို့	-1751
▁အမှုကို	-1752
▁မောရှေသည်	-1753
▁ကြွေးကြော်	-1754
ရကြလိမ့်မည်။	-1755
ဗု	-1756
မာရိ	-1757
သို့ရောက်	-1758
▁အိမ်တော်	-1759
▁အုပ်စိုး	-1760
ရှိသမျှကို	-1761
▁မောရှေအား	-1762
ပ္	-1763
လွှဲ	-1764
လှည့်	-1765
ရမည်ဟု	-1766
▁မိမိအ	-1767
▁အရှေ့	-1768
▁ညစ်ညူး	-1769
▁တော်မူ	-1770
ကြွား	-1771
ရှုံး	-1772
လုံးအ	-1773
▁မပြု	-1774
▁တော်ကို	-1775
▁ကိုးကွယ်	-1776
စက်	-1777
ဆရာ	-1778
တက်	-1779
▁လဲ	-1780
စိမ်	-1781
ရှိ၍၊	-1782
▁ချက်	-1783
▁ညဉ့်	-1784
▁ပြုရ	-1785
▁ဘော်	-1786
▁ရှေး	-1787
လောင်း	-1788
ချိုင်း	-1789
▁သိတင်း	-1790
▁သိုးသငယ်	-1791
▁အသီးအသီး	-1792
စေတော်မူ၏။	-1793
ဆိုသည်ကား၊	-1794
ထောက်	-1795
▁ခြင်း	-1796
မြို့မှ	-1797
ကဲ့သို့၎င်း၊	-1798
လုံးစုံတို့ကို	-1799
ဟ်	-1800
ပါရ	-1801
စေ၏။	-1802
▁ပိတ်	-1803
▁လုယူ	-1804
▁သတ္တ	-1805
▁သနား	-1806
သလောဟု	-1807
ယုံကြည်	-1808
တော်တို့ကို	-1809
သစ်	-1810
▁အကျ	-1811
က်စား	-1812
▁ဆို၏။	-1813
သွားကြ၏။	-1814
▁စောင့်ရှောက်	-1815
▁ရဲ	-1816
▁ငါ၌	-1817
ယွင်း	-1818
▁လေ၏။	-1819
▁သမီး	-1820
အချို့	-1821
၌ရှိသော	-1822
ကြကုန်အံ့	-1823
ဆံ	-1824
ြို	-1825
စေသော	-1826
စွန့်	-1827
ြိုဟ်	-1828
မျက်စိ	-1829
▁သွင်း	-1830
▁ကြေးဝါ	-1831
▁အကျင့်	-1832
ဆောင်ခဲ့	-1833
တို့သည်လည်း	-1834
▁သင်တို့တွင်	-1835
၍မ	-1836
▁အတူ	-1837
အခွင့်	-1838
▁သိုးထ	-1839
ကြည့်ရှု	-1840
▁အဲဂုတ္တုပြည်မှ	-1841
တာ	-1842
ပျော်	-1843
ပြု၍၊	-1844
္မုန်	-1845
▁လူသည်	-1846
▁ဇိအုန်	-1847
▁ကျမ်းစာ	-1848
▁အော်ဟစ်	-1849
▁ကျန်ကြွင်း	-1850
ဟိ	-1851
ေလ၊	-1852
▁ထ၍	-1853
▁အခ	-1854
နင်း	-1855
လျောက်	-1856
သူကြီး	-1857
ွန်သင်	-1858
▁ဤသို့	-1859
တော်မမူ။	-1860
▁နှစ်သက်	-1861
▁ယုဒပြည်	-1862
▁တောင်းပန်	-1863
ယ၊	-1864
ခုံ	-1865
ခေါ	-1866
▁မုသာ	-1867
ဘုရား၊	-1868
ကင်း	-1869
လန့်	-1870
▁မှီ	-1871
▁တွင်	-1872
▁ကြည့်	-1873
တို့နှင့်တကွ	-1874
စေဟု	-1875
ညဉ့်	-1876
မြေး	-1877
▁ထူး	-1878
▁ပစ်	-1879
▁မနာ	-1880
ကြိမ်	-1881
▁ရှက်	-1882
▁ပေါင်း	-1883
ညီအစ်ကို	-1884
▁ရောက်လာ	-1885
▁ခြင်္သေ့	-1886
ဝေ	-1887
ထပ်	-1888
▁အဗ	-1889
သူသည်	-1890
အလယ်၌	-1891
ိမိတ်	-1892
▁ရှုရိ	-1893
ချောင်း	-1894
မင်္ဂလာ	-1895
▁နေ့ရက်	-1896
▁သိမ်းယူ	-1897
▁မှောင်မိုက်	-1898
▁ကိုယ်တော်ကျွန်	-1899
ရဟု	-1900
နေ၏။	-1901
ရိပ်	-1902
ကျမ်း	-1903
လောင်	-1904
ုတ်သင်	-1905
သည်လည်း၊	-1906
▁ယေရှုခရစ်	-1907
္ဒ	-1908
မော	-1909
ံကို	-1910
အမြန်	-1911
▁ကား၊	-1912
မှောက်	-1913
▁နေကြ၏။	-1914
သောအပြစ်	-1915
နှင့်အညီ၊	-1916
သောသူတို့၏	-1917
▁ယော်ဒန်မြစ်	-1918
ေလိ	-1919
ဖုံး	-1920
▁တော၌	-1921
▁ဧဒုံ	-1922
သားသည်	-1923
ပြီးသော	-1924
▁ကြွင်း	-1925
ယောက်ျား	-1926
▁သိမ်းသွား	-1927
▁ဒုစရိုက်ကို	-1928
▁ကောင်းကင်ဘုံ	-1929
ထ၍	-1930
ဒဏ်	-1931
ရပါ	-1932
ဝါး	-1933
▁ဣသ	-1934
အကြီး	-1935
▁ဂိလဒ်	-1936
နှင့်ဟု	-1937
အချိန်၌	-1938
စဉ်တွင်၊	-1939
▁ရွှင်လန်း	-1940
▁ဘုရားသခင့်	-1941
▁နတ်	-1942
▁သဖြင့်	-1943
ကောင်ကို	-1944
ခင်ပွန်း	-1945
ပယ်ရှင်း	-1946
ပါနှင့်။	-1947
ဟူ၍၎င်း၊	-1948
▁ထိုအရပ်	-1949
▁အမင်္ဂလာ	-1950
စဉ်၊	-1951
နှီး	-1952
▁ဘမ်း	-1953
▁မြွက်	-1954
▁ဖြစ်၍၊	-1955
▁ယောဟန်	-1956
ဥစ္စာကို	-1957
▁ပညတ်တရား	-1958
ဖြစ်သတည်း။	-1959
▁ဣသရေလရှင်ဘုရင်	-1960
▁ယေရုရှလင်မြို့၌	-1961
နဲ	-1962
ဘာ	-1963
ထည်	-1964
▁ဟေဇ	-1965
ရာဌာန	-1966
လျှင်း	-1967
▁၎င်း၊	-1968
▁ထမြောက်	-1969
▁ကြောင့်၊	-1970
▁ထိုအရပ်၌	-1971
▁ငါ့စကားကို	-1972
ဖတ်	-1973
မခံ	-1974
ကျူး	-1975
မွေလ	-1976
ပွင့်	-1977
သားကား	-1978
အကျိုး	-1979
▁အထက်က	-1980
▁မနာရှေ	-1981
စည်းဝေးရာ	-1982
တော်မူပါဟု	-1983
တို့နှင့်အတူ	-1984
▁ယေရှုကလည်း၊	-1985
တုံ	-1986
▁ဖါ	-1987
▁ဂတိ	-1988
▁စီး	-1989
▁တို့	-1990
ဆင်းရဲ	-1991
အလိုက်	-1992
▁တန်ဆာ	-1993
▁ထောက်	-1994
▁အရပ်ရပ်	-1995
လုံးအရင်း	-1996
သော်၎င်း၊	-1997
▁ယဇ်ပူဇော်	-1998
အကြောင်းကို	-1999
စည်	-2000
▁ရွ	-2001
တွား	-2002
အဆက်	-2003
▁နည်း	-2004
▁ပြီး	-2005
▁ရထား	-2006
နှောင်	-2007
▁ရိုက်	-2008
▁ခံရသော	-2009
▁လေဝိသား	-2010
အပေါ်သို့	-2011
▁နှင်ထုတ်	-2012
အမျိုးသား၊	-2013
တို့ကိုလည်း	-2014
ဝံ	-2015
ထုံး	-2016
ဖြန်	-2017
သမား	-2018
▁ပွဲ	-2019
▁အမှီ	-2020
▁အလင်း	-2021
အဆွေအမျိုး	-2022
ဥပ	-2023
▁ဝါ	-2024
နုန်	-2025
▁ဆီး	-2026
မြွက်	-2027
နောက်၊	-2028
▁သင်္ဂ	-2029
နှင့်တူ	-2030
▁ပလ္လင်	-2031
အိမ်သို့	-2032
သည်မဟုတ်။	-2033
မြင်လျှင်၊	-2034
တော်မူခြင်း	-2035
▁ကြီးစွာသော	-2036
ွာဘ	-2037
လှီး	-2038
▁လည်	-2039
ထွန်း	-2040
ဥယျာဉ်	-2041
သုံးဆယ်	-2042
တို့သမီး	-2043
ောင့်ရှက်	-2044
▁ကြားပြော	-2045
▁အလျင်အမြန်	-2046
တဲ	-2047
▁ဆင်	-2048
▁ကိုင်	-2049
▁ရှင်း	-2050
▁နက်ဖြန်	-2051
▁သားတော်	-2052
စိတ်နှလုံး	-2053
▁ထိုမှတပါး၊	-2054
▁ကျေးဇူးတော်ကို	-2055
ဒိ	-2056
က်၊	-2057
▁ညဦး	-2058
▁ခါနာ	-2059
▁ဆန့်	-2060
ထက်သာ၍	-2061
▁ဥပုသ်	-2062
▁ရေးထား	-2063
▁အချည်း	-2064
▁အရေဖျား	-2065
နောက်သို့	-2066
▁ချဉ်းကပ်	-2067
▁အကြောင်း၊	-2068
▁တိုင်အောင်	-2069
▁ထာဝရဘုရား၊	-2070
တော်မူလိမ့်မည်။	-2071
▁ငှ	-2072
ထမ်း	-2073
နန်း	-2074
▁ခြောက်	-2075
▁ဆိုကြ၏။	-2076
▁သားသမီး	-2077
တယောက်သည်	-2078
▁လူတို့သည်	-2079
▁ကာ	-2080
▁စက်	-2081
စာကို	-2082
▁မှား	-2083
▁ငြင်း	-2084
▁ယေရမိ	-2085
▁စာရင်း	-2086
▁တံပိုး	-2087
▁နှလုံး	-2088
▁ဘော်ပြ	-2089
▁ဣသရေလအမျိုးကို	-2090
ခွဲ	-2091
လယ်	-2092
ဝါဒ	-2093
ရွေး	-2094
▁မိဘ	-2095
ဘုန်း	-2096
▁ကောက်	-2097
▁ဆိုင်	-2098
▁အမ္မုန်	-2099
▁ဖြစ်ကြ၏။	-2100
▁မြေပေါ်မှာ	-2101
▁သင်္ဂြိုဟ်	-2102
▁လူများတို့သည်	-2103
စေခြင်းငှါ၎င်း၊	-2104
ရှစ်	-2105
▁ဗက်	-2106
▁ယူ၍	-2107
▁ပို့	-2108
▁ယောန	-2109
▁အမည်	-2110
▁မျိုး	-2111
အလိုငှါ	-2112
▁ပညာရှိ	-2113
စေနှင့်။	-2114
▁တစုံတခု	-2115
▁အာရှုရိ	-2116
▁ကြိုးစား	-2117
▁သင်နှင့်	-2118
▁အားဖြင့်	-2119
ဖြစ်တော်မူ၏။	-2120
▁အထံတော်သို့	-2121
▁ထာဝရဘုရားကလည်း၊	-2122
မွေ	-2123
ုတ်ချ	-2124
ိတ်ဆိတ်	-2125
▁ခါနာန်	-2126
▁ထိုသခင်	-2127
▁ပယ်ရှင်း	-2128
▁မိုဃ်းတိမ်	-2129
▁ထာဝရဘုရားက၊	-2130
မေ	-2131
▁ယာ	-2132
ဆုပ်	-2133
ရိတ်	-2134
မှုတ်	-2135
မဟုတ်။	-2136
ုန်ကန်	-2137
မ်းမိုး	-2138
မြင်သော	-2139
▁ဆင်းသက်	-2140
▁ခိုင်ခံ့	-2141
▁ရှင်ဘုရင်သည်	-2142
▁မြေကြီးပေါ်မှာ	-2143
ထင်	-2144
ေလေ	-2145
တဆယ်	-2146
ထာဝရ	-2147
ရင့်	-2148
ကလည်း	-2149
သတ္တိ	-2150
ွင်ပြင်	-2151
▁တိုင်း	-2152
▁သီချင်းဆို	-2153
▁ပရိသတ်စည်းဝေးရာ	-2154
ဆွဲ	-2155
နတ်	-2156
ဝံဂ	-2157
သော၊	-2158
▁ပင်	-2159
▁ဘဏ္	-2160
ချိုး	-2161
▁ချိုး	-2162
▁အသေသတ်	-2163
ကြလျှင်၊	-2164
ုန်လှုပ်	-2165
ဆိုလျှင်၊	-2166
▁မဟုတ်လော။	-2167
ကတိ	-2168
န္တ	-2169
▁၍၊	-2170
မွေ့	-2171
ရှိ၍	-2172
ပ်ဝပ်	-2173
▁ဘောဇ	-2174
▁ဟေဗြ	-2175
▁ငါနှင့်	-2176
▁စစ်သူရဲ	-2177
▁ထိုမြို့	-2178
▁မေးမြန်း	-2179
▁ငှါ	-2180
▁သမ္	-2181
ကျွေး	-2182
တည်းဟု	-2183
လက္ခဏာ	-2184
▁ဖွင့်	-2185
▁ဤအမှု	-2186
ည်းတွား	-2187
▁ဘောဇဉ်	-2188
▁ရှမာရိ	-2189
ခြင်းအမှု	-2190
▁ထိုနောက်မှ	-2191
လည်၌	-2192
ီမဲ့	-2193
ွှေး	-2194
▁ပဌမ	-2195
လာသော	-2196
▁ဖုံး	-2197
ဆီသို့	-2198
▁ဝိုင်း	-2199
▁ရှိကြ၏။	-2200
▁ဘုရားသည်	-2201
ပူဇော်သက္ကာ	-2202
▁နာမတော်ကို	-2203
ပွါ	-2204
▁ရေလ	-2205
▁ဝေး	-2206
▁တဆယ်	-2207
▁အသရေ	-2208
ဟောပြော	-2209
▁ဘုရား၏	-2210
နားထောင်	-2211
ချီးမွမ်း	-2212
ခြင်းမရှိ	-2213
▁တိတ်ဆိတ်	-2214
▁အပြစ်တင်	-2215
ရသောအခွင့်	-2216
▁ကျေးဇူးပြု	-2217
ခိ	-2218
ဖူး	-2219
းစား	-2220
ဖွင့်	-2221
ဘူးသော	-2222
▁အနှစ်	-2223
▁အတွင်း	-2224
ရမည်မှာ၊	-2225
▁ဝါကြွား	-2226
▁တည်ဆောက်	-2227
▁နှိမ့်ချ	-2228
▁ထိုနည်းတူ	-2229
ကြလိမ့်မည်ဟု	-2230
တရာ	-2231
▁ဗေ	-2232
ဆိပ်	-2233
ယ်သော	-2234
အခြား	-2235
▁ပဌနာ	-2236
လက်ကို	-2237
ဝံဂေလိ	-2238
▁ဒုတိယ	-2239
သွားသော	-2240
▁လျှင်၊	-2241
▁သုတ်သင်	-2242
▁ငြိမ်သက်	-2243
▁နှိုးဆော်	-2244
▁မြို့ရိုး	-2245
ေရု	-2246
▁ကြံ	-2247
▁ခို	-2248
အိမ်၌	-2249
▁ကွယ်	-2250
▁ချည်	-2251
▁ငါသိ	-2252
▁အခါ၊	-2253
ညှဉ်းဆဲ	-2254
သားတို့	-2255
ခြင်းသည်	-2256
▁ကင်းလွတ်	-2257
▁နန်းတော်	-2258
▁များပြား	-2259
▁ငါ့ထံသို့	-2260
▁တစုံတယောက်	-2261
▁အသက်ကြီးသူ	-2262
▁သင်္ချိုင်း	-2263
▁အရေဖျားလှီး	-2264
▁မစ	-2265
ရွေ့	-2266
▁သူ၌	-2267
ီမဲ့မြင်	-2268
▁ထိုကာလ၌	-2269
▁ခုနစ်ရက်	-2270
▁ချက်ခြင်း	-2271
▁ငြိမ်ဝပ်စွာ	-2272
▁သို့ရာတွင်၊	-2273
ညံ	-2274
ထို	-2275
ယူ၍၊	-2276
ာလက်	-2277
▁ခါး	-2278
▁အဘိ	-2279
▁သူရဲ	-2280
▁သက်သေ	-2281
▁အမှန်	-2282
ထင်ရှား	-2283
အမည်ရှိသော	-2284
▁အဘယ်သူသည်	-2285
အမျိုးအနွယ်	-2286
မိန့်တော်မူ၏။	-2287
ခြင်းသို့ရောက်	-2288
ညစ်	-2289
ထံ၌	-2290
းခံ	-2291
ကြဟု	-2292
အိပ်	-2293
▁ထင်	-2294
▁အာဇ	-2295
တ္တိဇ	-2296
▁အံ့ဩ	-2297
▁ယုဒလူ	-2298
▁လူကို	-2299
ချမ်းသာ	-2300
▁မရောက်	-2301
▁အဘယ်မျှ	-2302
များတို့ကို	-2303
န်၊	-2304
ဝန်း	-2305
ာကို	-2306
▁မုတ်	-2307
တို့မှ	-2308
နှင့်မ	-2309
မှုန့်	-2310
▁လည်း၊	-2311
▁အတောင်	-2312
▁စစ်ကြော	-2313
▁သူတို့အ	-2314
▁အချည်းနှီး	-2315
သောအရာတို့ကို	-2316
ကြဲ	-2317
ပွါး	-2318
▁လင်	-2319
▁ဟစ်	-2320
▁အထံ	-2321
ကွင်း	-2322
ရှိရာ	-2323
▁မစား	-2324
▁ဧလိယ	-2325
▁အောက်	-2326
မြည်တမ်း	-2327
▁ခြင်းငှါ	-2328
ဝမ်းမြောက်	-2329
▁တရားစီရင်	-2330
▁အမိန့်တော်	-2331
ရှိသမျှတို့သည်	-2332
ဘိုး	-2333
▁လာ၍	-2334
ကျိန်	-2335
ပါ၏ဟု	-2336
ရာကို	-2337
▁မှူး	-2338
တံခါးဝ	-2339
▁တပြည်	-2340
စဉ်တွင်	-2341
နှစ်ပါး	-2342
ပြောင်း	-2343
▁ရှမွေလ	-2344
▁အချင်းလူ	-2345
ဘုရားသခင်၊	-2346
▁သန့်ရှင်းရာဌာန	-2347
▁ဖြောင့်မတ်ခြင်း	-2348
က္က	-2349
တနာ	-2350
လေ့	-2351
▁တာ	-2352
ဆန်း	-2353
▁ဆွဲ	-2354
ပြန်၍	-2355
လတံ့။	-2356
မည်ကို	-2357
▁ကျွေး	-2358
▁စာရေး	-2359
▁သမ္မာ	-2360
ပရောဖက်	-2361
သောနေ့၌	-2362
▁ဖြစ်စေ	-2363
▁ဗိုလ်ခြေ	-2364
တော်မူသည်ကို	-2365
▁တိတ်ဆိတ်စွာ	-2366
အမျိုးသားတို့သည်	-2367
ဒဲ	-2368
မေလ	-2369
တိုး	-2370
ပေ၏။	-2371
အနှံ	-2372
ွယ်ဝ	-2373
▁ပုံ	-2374
▁မာန	-2375
စွန်း	-2376
နေကြ၏။	-2377
▁ငါပြု	-2378
▁အကုန်	-2379
ချိုင့်	-2380
ပါမည်ဟု	-2381
▁ငါမြင်	-2382
ကိုးကွယ်	-2383
သောအားဖြင့်	-2384
▁နံ့သာပေါင်း	-2385
▁ညှ	-2386
ရှည်	-2387
ေရုဗ	-2388
ရိရှဲ	-2389
လက်ထက်	-2390
▁အဘိုး	-2391
အစရှိသော	-2392
▁ပြုပြင်	-2393
▁စိုးရိမ်	-2394
▁ခရစ်တော်၏	-2395
▁မင်္ဂလာရှိ	-2396
▁မေးလျှောက်	-2397
သောစိတ်နှင့်	-2398
▁သွန်းလောင်း	-2399
▁အမိန့်တော်ကို	-2400
တေ	-2401
မဲ	-2402
ဝက်	-2403
ဟပ်	-2404
ကန်း	-2405
ခရီး	-2406
ညွတ်	-2407
ပင်း	-2408
ပင်၊	-2409
▁ဒေါ	-2410
▁ဣဇာ	-2411
ငြိမ်း	-2412
▁မည်ဟု	-2413
▁အကြီး	-2414
လတံ့သော	-2415
▁ဒဏ်ခတ်	-2416
▁ဧဝံဂေလိ	-2417
▁မိန့်တော်	-2418
▁မထီမဲ့မြင်	-2419
▁ဧလ	-2420
အစင်	-2421
သက်သေ	-2422
အမျက်	-2423
တကားဟု	-2424
တထောင်	-2425
▁အသင်း	-2426
▁စက်ဆုပ်	-2427
▁သူတို့၌	-2428
နှင့်တကွ၊	-2429
ကဲ့သို့၎င်း	-2430
မင်းကြီးသည်	-2431
▁အဲဂုတ္တုပြည်၌	-2432
ယုံ	-2433
ဝင်၍	-2434
အဝေး	-2435
မှစ၍၊	-2436
ေလေ၏။	-2437
▁ယွာဘ	-2438
ပြည်မှ	-2439
ရှိသည်	-2440
အောက်၌	-2441
တစုံတခု	-2442
မည်လော။	-2443
သောအထည်	-2444
▁ငါပြော	-2445
▁နားလည်	-2446
▁သေခြင်း	-2447
▁သွန်သင်	-2448
▁မှားယွင်း	-2449
▁အကြင်သူသည်	-2450
သောသူတို့အား	-2451
ပါသည်	-2452
▁မမြင်	-2453
▁သခင်၊	-2454
လုပ်သော	-2455
▁ဆီးတား	-2456
ဆိုသော်၊	-2457
အမျိုးကို	-2458
▁ကယ်နှုတ်	-2459
▁လွန်ကျူး	-2460
မျက်နှာကို	-2461
▁?????????	-2462
▁ထိုသူတို့	-2463
▁အမျက်တော်	-2464
▁အမှုတော်ကို	-2465
ဘိ	-2466
ယုဒ	-2467
ရှော	-2468
လာ၏။	-2469
▁စပ်	-2470
ရေကို	-2471
▁ထို့	-2472
▁အိုး	-2473
ကျွန်း	-2474
ခေါ်၍၊	-2475
သိတင်း	-2476
▁ကြွလာ	-2477
▁မုန်း	-2478
▁အရှက်	-2479
ကြသနည်း။	-2480
ပေးတော်မူ	-2481
▁ကောင်းသော	-2482
▁နန်းထိုင်	-2483
▁အမျက်ထွက်	-2484
စရာအကြောင်း	-2485
▁တရားသဖြင့်	-2486
▁အပေါင်းတို့သည်	-2487
▁အရ	-2488
အထက်	-2489
▁နော	-2490
နာကို	-2491
ဦးစွာ	-2492
▁တနေ့	-2493
▁တိုး	-2494
▁ဖျက်	-2495
မရှိဘဲ	-2496
▁ယေရော	-2497
▁ရောင်း	-2498
▁အမြင့်	-2499
အရပ်သို့	-2500
▁သုံးရက်	-2501
ဖြစ်သည်ဟု	-2502
ဖြောင့်မတ်	-2503
တွေ	-2504
မနေ	-2505
သူ၏	-2506
▁တူ	-2507
အကြံ	-2508
▁ကွဲ	-2509
ခမည်း	-2510
စပျစ်	-2511
တချက်	-2512
▁ကုန်	-2513
စဉ်အခါ	-2514
တော်မှ	-2515
ပွဲကို	-2516
မရောက်	-2517
▁ယောရှ	-2518
▁လျက်၊	-2519
▁နောင်တ	-2520
▁ဥယျာဉ်	-2521
▁ကဲ့သို့	-2522
▁ချိုင့်	-2523
▁စုံစမ်း	-2524
▁အလျှင်း	-2525
သောအချိန်	-2526
▁တမန်တော်	-2527
▁မြည်တမ်း	-2528
▁တယောက်ကို	-2529
▁အစဉ်မပြတ်	-2530
▁ဘုရားသခင်၊	-2531
တတ်။	-2532
ထံမှ	-2533
▁ရာဇ	-2534
▁အဦး	-2535
လုလင်	-2536
လွှား	-2537
အဘော်	-2538
▁သင်း	-2539
ကောင်၊	-2540
သောအသံ	-2541
အပေါ်၌	-2542
▁လုလင်	-2543
▁သူကို	-2544
ခန့်ထား	-2545
လမ်းကို	-2546
အလျောက်	-2547
▁ပျောက်	-2548
ပြုလျှင်	-2549
▁ငါတို့၏	-2550
▁ပုန်ကန်	-2551
▁ဖာရိရှဲ	-2552
▁သင့်အား	-2553
▁အဘယ်မှာ	-2554
သောအကျင့်	-2555
▁စွန့်ပစ်	-2556
▁နှုတ်ဆက်	-2557
▁ရွေးကောက်	-2558
နှင့်ပြည့်စုံ	-2559
စ္စ	-2560
ရာ။	-2561
လဒဲ	-2562
စပါး	-2563
ရန်သူ	-2564
▁ငှက်	-2565
မဟုတ်၊	-2566
▁ပေါက်	-2567
အနားမှာ	-2568
ရှိသော်၊	-2569
▁ကုလားကာ	-2570
မည်နည်းဟု	-2571
▁စည်းစိမ်	-2572
▁ဤလူမျိုး	-2573
▁လူတို့ကို	-2574
သည်တိုင်အောင်	-2575
ောရ	-2576
လောက	-2577
ိုသေ	-2578
ောရိ	-2579
▁ကူး	-2580
▁စေ့	-2581
▁အဟိ	-2582
လျော်	-2583
ေလသည်	-2584
▁ဧည့်	-2585
▁လက်ျာ	-2586
▁အလျား	-2587
▁စစ်ချီ	-2588
▁ဗတ္တိဇ	-2589
▁အစ်ကို	-2590
ခြင်းရှိ၏။	-2591
စေခြင်းငှာ	-2592
တိရ	-2593
ကွက်	-2594
မိမိ	-2595
ကိုသာ	-2596
ချကြ၏။	-2597
▁မတွေ့	-2598
▁အဆင်း	-2599
မရှိသော	-2600
ိန်းဝပ်	-2601
▁ငါကြား	-2602
▁ဝတ်ပြု	-2603
စိုးရိမ်	-2604
▁ခိုလှုံ	-2605
▁နတ်ဆိုး	-2606
▁ပြပ်ဝပ်	-2607
▁ဘုရားကို	-2608
▁အတိုင်း၊	-2609
▁အပြစ်ကို	-2610
နှင့်၎င်း၊	-2611
▁မြေမှုန့်	-2612
▁အကုန်အစင်	-2613
▁အခြားတပါး	-2614
▁ဖြစ်သတည်း။	-2615
သည်မဟုတ်လော။	-2616
ဇရ	-2617
▁၊	-2618
ကွာ	-2619
ချို	-2620
ဩဝါဒ	-2621
▁ရည်	-2622
ဆုံးမ	-2623
▁တဘက်	-2624
ငါးဆယ်	-2625
ပေးသော	-2626
ဗိမာန်	-2627
သွား၏။	-2628
▁မှည့်	-2629
ွပ်မျက်	-2630
▁ယခုမှာ	-2631
နီးချင်း	-2632
▁ပြည်သား	-2633
▁ခြင်းကို	-2634
ဘုရားသခင်၏	-2635
သောသူမူကား၊	-2636
▁အချင်းလူသား၊	-2637
▁ညီအစ်ကိုတို့၊	-2638
အလုံးစုံတို့ကို	-2639
ဒါ	-2640
ငှက်	-2641
ထုန်	-2642
▁အာဗ	-2643
▁ဧလာ	-2644
ခိုက်	-2645
ခိုင်	-2646
▁ပြုစု	-2647
▁အဘို့	-2648
သတည်းဟု	-2649
ေ့လျော့	-2650
▁ပြန်လာ	-2651
▁သဖြင့်၊	-2652
သတို့သမီး	-2653
▁အခွင့်ကို	-2654
ိမိတ်လက္ခဏာ	-2655
ရမည်အကြောင်း၊	-2656
▁ကိုယ်ကိုကိုယ်	-2657
ပို့	-2658
သိပ်	-2659
ုတ်၊	-2660
▁အစေ	-2661
▁သွေး	-2662
လေးဆယ်	-2663
▁တွင်း	-2664
ဘိုးဘေး	-2665
သောစကား	-2666
▁သူ၏သား	-2667
▁ဤသူသည်	-2668
▁ငါအမှန်	-2669
ကြသောအခါ၊	-2670
တယောက်ကို	-2671
▁စားသောက်	-2672
▁ဘွားမြင်	-2673
နိုင်အောင်	-2674
▁လူအသက်ကို	-2675
▁ဤသူတို့သည်	-2676
ဖြစ်လိမ့်မည်။	-2677
ဟေ	-2678
အရ	-2679
န္န	-2680
ဂုဏ်	-2681
ထိပ်	-2682
ဖလား	-2683
အိုး	-2684
▁ငယ်	-2685
▁ဗေသ	-2686
ရှလုံ	-2687
သေး၏။	-2688
▁၎င်း	-2689
ရွံရှာ	-2690
▁အာဟပ်	-2691
စီးသူရဲ	-2692
ဆိုကြ၏။	-2693
ပျက်စီး	-2694
ောက်မက်	-2695
လမ်းသို့	-2696
▁ပြောင်း	-2697
ခြင်းတွင်	-2698
တည်းဟူသော၊	-2699
လျက်ရှိသော	-2700
တို့ကို၎င်း	-2701
▁ဖာရောဘုရင်	-2702
▁ယေရောဗောင်	-2703
▁ရှက်ကြောက်	-2704
ဖဲ့	-2705
▁ဟိ	-2706
ကြစေ။	-2707
လုံး၌	-2708
ာလိုက်	-2709
▁ခါလဒဲ	-2710
▁တည်း။	-2711
▁သက်သာ	-2712
ထုံးဖွဲ့	-2713
▁ပယ်ရှား	-2714
▁ယောနသန်	-2715
▁အမှုအရာ	-2716
အကျွန်ုပ်	-2717
▁ပြင်းစွာ	-2718
တော်မူချက်	-2719
တော်မူသည်ဟု	-2720
▁အမျိုးမျိုး	-2721
▁အမျိုးအနွယ်	-2722
ဖြစ်ကြောင်းကို	-2723
▁လူအမျိုးမျိုး	-2724
▁ထာဝရဘုရားအဘို့	-2725
▁ယနေ့တိုင်အောင်	-2726
ညက်	-2727
▁ဂေ	-2728
ပြတ်	-2729
မွတ်	-2730
ဝှက်	-2731
ဆိုးမ	-2732
ပါရုံ	-2733
ပြု၏။	-2734
ိမလက်	-2735
▁လွှဲ	-2736
▁အလုပ်	-2737
▁ရဲရင့်	-2738
စေသတည်း။	-2739
▁ဆင်ခြင်	-2740
▁မြို့နယ်	-2741
▁သိုးထိန်း	-2742
တောင်ပေါ်မှာ	-2743
ပူ	-2744
ဂတိ	-2745
သခါ	-2746
ဟတ်	-2747
▁ဘိ	-2748
ရှန်	-2749
ဝေါ်	-2750
▁ဗေရ	-2751
▁ယုံ	-2752
▁ဟာမ	-2753
ခေါ်၍	-2754
တပြင်	-2755
အလင်း	-2756
ော့ဟု	-2757
▁ယောယ	-2758
▁အဆွေ	-2759
ပင်ကို	-2760
▁စိုက်	-2761
▁သားရဲ	-2762
▁ပြည်သူ	-2763
▁ရေတွက်	-2764
▁ရှောင်	-2765
ကြသည်ကို	-2766
ရှိသည်ဟု	-2767
အသက်ရှင်	-2768
▁မီးဖြင့်	-2769
ကာလပတ်လုံး	-2770
▁ထိုစကားကို	-2771
▁သူတို့နှင့်	-2772
▁ဆင့်ဆိုရမည်မှာ၊	-2773
ပိ	-2774
ိဗ	-2775
ံယ	-2776
၌၊	-2777
ခဒ်	-2778
ခရိ	-2779
ယေရ	-2780
ုဒ္ဒ	-2781
▁ရုဗ	-2782
▁နို့	-2783
အတောင်	-2784
ဦးမည်။	-2785
ူပါရုံ	-2786
▁ချုပ်	-2787
▁အသေခံ	-2788
ပေတည်း။	-2789
သီချင်း	-2790
အားကြီး	-2791
▁တကျိပ်	-2792
▁အမွေခံ	-2793
မြို့မှာ	-2794
လိုက်သော	-2795
အောက်မေ့	-2796
▁ရှုတ်ချ	-2797
▁အိပ်မက်	-2798
တိရစ္ဆာန်	-2799
▁တိုင်ပင်	-2800
ကြကုန်အံ့။	-2801
▁ရှောလုသည်	-2802
????????????	-2803
▁သန့်ရှင်းစေ	-2804
ခြင်းငှါ၎င်း၊	-2805
တော်မမူပါနှင့်။	-2806
ငတ်	-2807
နေ၍	-2808
ဗန်	-2809
မှ၊	-2810
အကဲ	-2811
လိလဲ	-2812
▁လှံ	-2813
ဗုခဒ်	-2814
▁ရေကို	-2815
▁လမ်း၌	-2816
▁သားဦး	-2817
▁ငါ့သား	-2818
▁စုံလင်	-2819
▁ထားဘေး	-2820
▁ဧလိရှဲ	-2821
▁ထိုနေ့၌	-2822
▁ထိုမင်း	-2823
▁မကြောက်	-2824
▁အဝတ်ကို	-2825
ွမ်းသတ္တိ	-2826
▁ကြီးမြတ်	-2827
▁ညည်းတွား	-2828
ခြင်းကိုခံ	-2829
▁ပို့ဆောင်	-2830
▁ပြောဆို၏။	-2831
▁သန့်ရှင်းသူ	-2832
▁ယဇ်ပုရောဟိတ်သည်	-2833
ထီး	-2834
တည်၍	-2835
သင်္	-2836
▁သေရ	-2837
ဆိတ်ညံ	-2838
ရုပ်တု	-2839
▁နေသော	-2840
ကြလိမ့်	-2841
ဖြစ်သည်	-2842
▁မေတ္တာ	-2843
အဘယ်သို့	-2844
▁အာမောရိ	-2845
▁ခရစ်တော်	-2846
ဖြစ်သည်ကို	-2847
သောစကားကို	-2848
▁ပြုတော်မူ	-2849
သမျှတို့ကို	-2850
▁လျှောက်လေ၏။	-2851
▁အခြားတပါးသော	-2852
▁ကျန်ကြွင်းသော	-2853
▁အရှင်မင်းကြီး	-2854
မ၊	-2855
ကူး	-2856
▁ဘာ	-2857
ပိတ်	-2858
ဖန်း	-2859
▁ထပ်	-2860
▁မျှ	-2861
တပါး၊	-2862
ပြုမူ	-2863
▁ခုတ်	-2864
▁မြတ်	-2865
ခြင်းအ	-2866
မျိုး၊	-2867
လိုက်၍	-2868
▁သတ္တမ	-2869
▁သမုတ်	-2870
▁သတည်း။	-2871
▁အနိုင်	-2872
▁ဤအရပ်၌	-2873
ဆိုလျက်၊	-2874
များပြား	-2875
သောအရပ်၌	-2876
ုန်မြို့	-2877
▁ကျိန်ဆဲ	-2878
▁ချောင်း	-2879
သောသူနှင့်	-2880
▁အိပ်ပျော်	-2881
▁??????????	-2882
▁ချည်နှောင်	-2883
အပေါင်းတို့အား	-2884
ဆန်	-2885
ဖုရ	-2886
စို့	-2887
▁ဆေး	-2888
▁ရင်	-2889
▁အနံ	-2890
ိုထား	-2891
▁ဖြို	-2892
ဝါးကပ်	-2893
▁ဒုက္ခ	-2894
▁နက်နဲ	-2895
▁ရုဗင်	-2896
ပတ်လည်၌	-2897
▁ကြံစည်	-2898
▁ကြောင်း	-2899
▁ကွဲပြား	-2900
▁မှာလိုက်	-2901
▁လွင်ပြင်	-2902
ထာဝရဘုရားသည်	-2903
ဒျ	-2904
ရ၊	-2905
မက၊	-2906
ဆန့်	-2907
ရုံး	-2908
▁ဂဒ်	-2909
▁ဂေါ	-2910
▁လေဗ	-2911
▁အာန	-2912
အသွေး	-2913
ျာလက်	-2914
▁မွတ်	-2915
ကိမင်း	-2916
ကိုယူ၍	-2917
စုအဝေး	-2918
အရပ်မှ	-2919
ကြသလော။	-2920
လေသော်၊	-2921
သမျှကို	-2922
▁လက်နက်	-2923
▁လူတို့	-2924
▁အရာကို	-2925
▁ဣသရေလလူ	-2926
▁ကယ်လွှတ်	-2927
ပေးတော်မူသော	-2928
▁ခရစ်တော်သည်	-2929
▁မောရှေနှင့်	-2930
နှင့်ဆိုင်သော	-2931
▁ရောက်သောအခါ၊	-2932
မံ	-2933
ခက်	-2934
မြံ	-2935
ုရု	-2936
▁မချ	-2937
ဖုရား	-2938
▁ဝှက်	-2939
▁အမြဲ	-2940
ည်းကပ်	-2941
▁ထိုလူ	-2942
ကြသော်၊	-2943
တကောင်၊	-2944
နှစ်သက်	-2945
ပါပြီဟု	-2946
▁စားပွဲ	-2947
နှင်ထုတ်	-2948
▁ကျွန်ခံ	-2949
▁ကြလော့။	-2950
▁ဆိုလေ၏။	-2951
▁တရားကို	-2952
▁ဧည့်သည်	-2953
တ္တိကျမ်း	-2954
အမည်ဖြင့်	-2955
▁မွတ်သိပ်	-2956
▁အမှုတော်	-2957
▁ကြောက်မက်	-2958
▁ရွေးနှုတ်	-2959
▁ထိုသူတို့ကို	-2960
ယံ	-2961
▁ဝေ	-2962
င့်တ	-2963
မြန်	-2964
▁ခွဲ	-2965
▁ဘက်	-2966
▁ဧလျ	-2967
ထံမှာ	-2968
မောင်	-2969
ရှိန်	-2970
အဝတ်ကို	-2971
ေရုဗိမ်	-2972
▁သည်းခံ	-2973
▁သမုဒ္ဒ	-2974
ထိုက်သော	-2975
သုံးယောက်	-2976
▁မျိုးစေ့	-2977
ထာဝရဘုရား၏	-2978
မည်သည်ကား၊	-2979
▁ဆုံးရှုံး	-2980
▁တုန်လှုပ်	-2981
ဝါးကပ်တိုင်	-2982
▁ရှင်ဘုရင်၏	-2983
ခြင်းအမှုကို	-2984
ရမည်အကြောင်း	-2985
ခြင်းအကြောင်း	-2986
ဖာ	-2987
ပ္ပ	-2988
ဖြူ	-2989
▁ထဲ	-2990
ကြို	-2991
နေဇာ	-2992
နေ့၊	-2993
မလည်	-2994
ယသည်	-2995
အမွေ	-2996
▁စွဲ	-2997
▁ဒန်	-2998
▁တဆေး	-2999
▁မြက်	-3000
▁ဧသော	-3001
▁ကြမ်း	-3002
▁စိတ်မ	-3003
▁ညှိုး	-3004
▁တတ်၏။	-3005
▁လောင်	-3006
တရှောက်	-3007
▁စားစရာ	-3008
▁ထိုအရာ	-3009
ခြင်းအရာ	-3010
စေတော်မူ	-3011
မြို့ရွာ	-3012
လျက်နေ၏။	-3013
အသီးအသီး	-3014
▁ပင်ပန်း	-3015
▁မှူးမတ်	-3016
▁သူနှင့်	-3017
ယေရှုခရစ်	-3018
တို့ကလည်း၊	-3019
▁ငါသည်လည်း	-3020
▁ယုဒအမျိုး	-3021
▁ငါ့ရှေ့မှာ	-3022
▁ရှင်းရှင်း	-3023
▁ထိုအကြောင်း	-3024
▁သုတ်သင်ပယ်ရှင်း	-3025
▁ဇေ	-3026
ထား၍	-3027
မပေး	-3028
▁မြှ	-3029
▁အာသ	-3030
▁အာဏာ	-3031
ဆောင်၍	-3032
သီးကို	-3033
▁ကုန်း	-3034
▁အရပ်၌	-3035
ကြားမှာ	-3036
မှောက်၌	-3037
▁ဝင်စား	-3038
▁သစ်ပင်	-3039
နှိမ့်ချ	-3040
မျှလောက်	-3041
သောအထည်၊	-3042
▁အဗရှလုံ	-3043
▁မြို့ကို	-3044
ကြားလျှင်၊	-3045
▁ကျိန်းဝပ်	-3046
▁ဆင်းသက်သော	-3047
▁ဗိမာန်တော်၌	-3048
▁ဖြစ်လိမ့်မည်။	-3049
▁အပြစ်ဖြေရာယဇ်	-3050
ပဌ	-3051
လ၊	-3052
ံ၊	-3053
တီး	-3054
ပမာ	-3055
သတိ	-3056
က္ခာ	-3057
ချော	-3058
ပကတိ	-3059
▁ထက်	-3060
▁ရွာ	-3061
မှတ်၍	-3062
ထောင့်	-3063
▁ငါ၏လူ	-3064
▁ဆောက်	-3065
▁မသွား	-3066
▁လှုပ်	-3067
▁ဣဇာက်	-3068
▁ဤရွေ့	-3069
ဘက်သို့	-3070
▁ထိုအတူ	-3071
▁လက်ကို	-3072
မြို့သည်	-3073
သောသူအား	-3074
▁ပေးသနား	-3075
▁အသက်ကို	-3076
▁ထားနှင့်	-3077
▁ထိုမြို့၌	-3078
▁မုတ်ဆိုးမ	-3079
ပေးတော်မူ၏။	-3080
▁ထိုအမှုကို	-3081
နည်းဟူမူကား၊	-3082
▁???????????	-3083
▁ပေးတော်မူ၏။	-3084
▁ယုဒအမျိုးသား	-3085
▁ဣသရေလအမျိုး၌	-3086
▁အမျိုးသားချင်း	-3087
၏၊	-3088
ခန္	-3089
ကျပ်	-3090
တုံ၊	-3091
မုတ်	-3092
လွင်	-3093
သင်၏	-3094
▁ဣရှ	-3095
ရောဂါ	-3096
▁အထူး	-3097
▁အနက်	-3098
▁ဤလောက	-3099
▁ခေါ်၍၊	-3100
▁ဂါလိလဲ	-3101
▁ငြိမ်း	-3102
▁စေ့စေ့	-3103
▁မူကား၊	-3104
▁ရွံရှာ	-3105
ဖြစ်ပါ၏။	-3106
▁ယေရှုက၊	-3107
တောင်းပန်	-3108
ပြုလျှင်၊	-3109
▁ဂုဏ်အသရေ	-3110
▁ဆန့်ကျင်	-3111
▁မီးလောင်	-3112
▁သက်ရောက်	-3113
သည်ဖြစ်စေ၊	-3114
▁ဆောင်သွား	-3115
သည်ကို၎င်း၊	-3116
▁စပျစ်ဥယျာဉ်	-3117
▁နိုင်ငံတော်	-3118
▁ကောင်းကင်ဘုံ၌	-3119
▁အသေသတ်ခြင်းကို	-3120
္ဗ	-3121
ကျီ	-3122
ကြာ	-3123
▁နီ	-3124
သိက်	-3125
ငြင်း	-3126
တွေဝေ	-3127
ထသော၊	-3128
မပြော	-3129
▁ကျယ်	-3130
နာမကို	-3131
မိုဃ်း	-3132
မြေကို	-3133
အမိန့်	-3134
ိပ်စက်	-3135
▁ခံရကြ	-3136
▁ပြန်၍	-3137
နည်းငယ်	-3138
ပြုကြ၏။	-3139
မြေကြီး	-3140
သားသမီး	-3141
▁လိုက်၍	-3142
▁ငါတို့၌	-3143
▁ဒါဝိဒ်၏	-3144
▁အလိုရှိ	-3145
▁အသီးအနှံ	-3146
▁လွှမ်းမိုး	-3147
▁ပြန်လျှောက်	-3148
▁ယုံကြည်ခြင်း	-3149
▁နှုတ်ကပတ်တော်	-3150
ရာဇ	-3151
သဏ္	-3152
ကလေး	-3153
နား၊	-3154
မြော	-3155
ဥပဒ်	-3156
▁မယ်	-3157
▁အမဲ	-3158
▁အာခ	-3159
▁ထုံး	-3160
▁ပသခါ	-3161
▁မပေး	-3162
သက်သက်	-3163
▁ကျော့	-3164
▁ပိုင်	-3165
▁အခွန်	-3166
▁အနောက်	-3167
ဒုစရိုက်	-3168
ပြည်ပြည်	-3169
ပြီတကား။	-3170
▁နာမတော်	-3171
▁ပေါ်မှာ	-3172
တယောက်မျှ	-3173
ဗုခဒ်နေဇာ	-3174
▁ပြန်သွား	-3175
▁အိုဣသရေလ	-3176
▁မိန်းမသည်	-3177
လျက်ရှိကြ၏။	-3178
▁ငါတို့သခင်	-3179
▁ပြန်ပြော၏။	-3180
▁အာရုန်နှင့်	-3181
▁ဖြောင့်မတ်သော	-3182
▁ဝိညာဉ်တော်သည်	-3183
ဒေ	-3184
မယူ	-3185
ဝယ်	-3186
ှဉ်	-3187
▁ကိ	-3188
▁ထိ	-3189
မြည်	-3190
လေရာ	-3191
၌လည်း	-3192
▁မိဒျ	-3193
လက်နက်	-3194
▁စေတနာ	-3195
▁ကြွယ်ဝ	-3196
▁သတ္တဝါ	-3197
▁သနည်း။	-3198
ကဲ့သို့၊	-3199
ဆုတောင်း	-3200
▁ကိုးစား	-3201
▁လူဆိတ်ညံ	-3202
▁အစရှိသော	-3203
▁စေလွှတ်၍၊	-3204
▁ရှေ့ဦးစွာ	-3205
ချီးမြှောက်	-3206
▁ကာလပတ်လုံး	-3207
▁ဖါရောဘုရင်	-3208
ရှင်ဘုရင်သည်	-3209
▁တံပိုးမှုတ်	-3210
ချ၍	-3211
မနာ	-3212
နား၌	-3213
အတတ်	-3214
▁တညီ	-3215
▁မကျ	-3216
▁လူတ	-3217
င်္ဂါ	-3218
ထား၍၊	-3219
ပြုစု	-3220
အပြား	-3221
▁တတိယ	-3222
▁ဘာသာ	-3223
▁မဝင်	-3224
ဘို့ရာ	-3225
သူတို့	-3226
▁ကျော်	-3227
ထားကြ၏။	-3228
ောတွေဝေ	-3229
▁မြို့ရွာ	-3230
▁လှည့်စား	-3231
▁အသွေးကို	-3232
ပြန်လျှင်၊	-3233
▁ရောက်ကြ၏။	-3234
▁ထိုမင်းသည်	-3235
▁?????????????	-3236
▁ထာဝရဘုရားသည်၊	-3237
▁နံ့သာပေါင်းကို	-3238
္ဌ	-3239
စေ၍	-3240
▁နိ	-3241
▁နူ	-3242
ခန့်	-3243
စွပ်	-3244
ပေး၍	-3245
ရွှေ	-3246
▁ကြာ	-3247
ပေး၏။	-3248
▁မပြော	-3249
▁ထိုကာလ	-3250
▁သိမြင်	-3251
▁အပြစ်မ	-3252
ပြင်သို့	-3253
▁ခိုင်မာ	-3254
▁စားခန်း	-3255
▁တကျွန်း	-3256
▁ထိုမျှမ	-3257
▁ထူးဆန်း	-3258
▁ရှိမုန်	-3259
ကြွင်းမဲ့	-3260
▁ငါ့ကျွန်	-3261
▁လူတိုင်း	-3262
▁ဟူမူကား၊	-3263
▁အမှီပြု၍	-3264
ကျေးဇူးကို	-3265
▁ဒါဝိဒ်ကို	-3266
သောသူဖြစ်၏။	-3267
▁ဖြစ်တော်မူ၏။	-3268
▁အိမ်နီးချင်း	-3269
တော်မူခြင်းကို	-3270
မရ	-3271
္ထ	-3272
ဒေသ	-3273
ကြ၍၊	-3274
တည့်	-3275
ထည့်	-3276
မှီ၊	-3277
ူသော	-3278
▁ကမ္	-3279
▁ပြာ	-3280
▁မနေ	-3281
ညှိုး	-3282
ပေါ်က	-3283
မဖြစ်	-3284
▁ကျင်	-3285
▁ချို	-3286
▁နေ၏။	-3287
စိုးစံ	-3288
ဆိုသော	-3289
ုရောက်	-3290
▁ပျော်	-3291
▁ဖြင့်	-3292
▁လက်ဝဲ	-3293
▁ဟေဇကိ	-3294
▁အရိုး	-3295
ချင်သော	-3296
▁တံဆိပ်	-3297
▁ဘိသိက်	-3298
▁မိဒျန်	-3299
▁သားကို	-3300
▁အစိုးရ	-3301
▁အပ်နှံ	-3302
ော်ကြည့်	-3303
▁လေဗနုန်	-3304
▁သခင်သည်	-3305
▁သောအခါ၊	-3306
▁အားကြီး	-3307
အားဖြင့်၊	-3308
▁ယေရှုကို	-3309
▁ဤအမှုကို	-3310
ပါစေနှင့်။	-3311
▁ကျွေးမွေး	-3312
နှောင့်ရှက်	-3313
▁မြေကြီးကို	-3314
▁အလုံးအရင်း	-3315
▁နိမိတ်လက္ခဏာ	-3316
ကျေးဇူးတော်ကို	-3317
▁အပေါင်းတို့ကို	-3318
သန္	-3319
လှန်	-3320
သင်း	-3321
အစည်	-3322
အဝတ်	-3323
ဥာဏ်	-3324
▁ဆူး	-3325
▁ရှု	-3326
▁ဟာန	-3327
▁အလှ	-3328
ထား၏။	-3329
နွမ်း	-3330
▁စမ်း	-3331
▁ဇာတိ	-3332
▁ထင်း	-3333
▁ဗေသလ	-3334
ကယ်တင်	-3335
ပြိုင်	-3336
ယာကုပ်	-3337
ော်ဒကဲ	-3338
▁လူသား	-3339
▁အာဗြံ	-3340
▁အာမင်	-3341
▁ပြုသော	-3342
▁လျှော်	-3343
တော်မူရာ	-3344
▁စာရေးတံ	-3345
▁ပြုကြ၏။	-3346
▁ဖြောင့်	-3347
▁ဘမ်းဆီး	-3348
တို့အဘို့	-3349
▁ကွပ်မျက်	-3350
▁ခေရုဗိမ်	-3351
▁ပေးလိုက်	-3352
▁သမုဒ္ဒရာ	-3353
▁သို့ဖြစ်	-3354
▁ငါတို့အား	-3355
▁နှစ်ယောက်	-3356
▁ကျေးဇူးကို	-3357
▁အဘယ်သူမျှမ	-3358
▁မြင်းစီးသူရဲ	-3359
▁အကျွန်ုပ်တို့၏	-3360
▁ဧဝံဂေလိတရားကို	-3361
ခပ်	-3362
ဝံ့	-3363
သေရ	-3364
အဘ၏	-3365
မွန်	-3366
ယုတ်	-3367
သတ္တ	-3368
ိခေါ	-3369
ိသန္	-3370
▁မမူ	-3371
▁မြဲ	-3372
▁ဟေလ	-3373
မင်း၏	-3374
မိသော	-3375
အများ	-3376
▁ရိတ်	-3377
▁အရာ၌	-3378
မေတ္တာ	-3379
ရက်နေ့	-3380
▁ဗာလမ်	-3381
▁ထိုနေ့	-3382
▁နေရာကျ	-3383
ကြပါပြီ။	-3384
▁သိုးထီး	-3385
အကျိုးကို	-3386
▁ပြုရမည်။	-3387
▁မေ့လျော့	-3388
ကြပါစေသော။	-3389
▁တည်းဟူသော	-3390
▁ပေးတော်မူ	-3391
▁ဘုန်းအသရေ	-3392
▁မိမိကျွန်	-3393
▁ယေရုရှလင်	-3394
▁အစိုးရသော	-3395
▁ငါနှင့်အတူ	-3396
▁မီးရှို့ရာ	-3397
▁ရှောက်သွား	-3398
▁အားကြီးသော	-3399
▁နှောင့်ရှက်	-3400
▁အိုဘုရားသခင်၊	-3401
▁နားထောင်ကြလော့။	-3402
▁အလုံးစုံတို့ကို	-3403
တကာ	-3404
တ္ထ	-3405
ထူး	-3406
ခြုံ	-3407
နှံ့	-3408
ယဇ်ပ	-3409
ိလတ်	-3410
▁လှေ	-3411
ုဘော်	-3412
▁ပါ၏။	-3413
▁ဖလား	-3414
▁သမျှ	-3415
▁အပင်	-3416
▁အသစ်	-3417
ဘက်မှာ	-3418
▁ထွက်၍	-3419
▁မွှေး	-3420
ရေတွင်း	-3421
▁ငါသိ၏။	-3422
▁သိမှတ်	-3423
▁သွား၍၊	-3424
မီးရှို့	-3425
ဝန်းကျင်	-3426
▁ခံရမည်။	-3427
▁ညဉ့်အခါ	-3428
▁တပ်မှူး	-3429
▁ထိုပြည်	-3430
▁အသီးသီး	-3431
ခေါင်းကို	-3432
ယဇ်ပလ္လင်	-3433
သိတင်းကို	-3434
ွေ့ခြောက်	-3435
▁ဥပုသ်နေ့	-3436
▁ကုလားအုပ်	-3437
▁ဆုံးမဩဝါဒ	-3438
▁မစိုးရိမ်	-3439
▁ယခုမူကား၊	-3440
▁အကျိုးကို	-3441
▁လွှတ်လိုက်	-3442
▁ကြလိမ့်မည်။	-3443
▁ခိုင်ခံ့သော	-3444
▁စကားတော်ကို	-3445
▁ပူဇော်ရမည်။	-3446
ကွ	-3447
ခဏ	-3448
တစု	-3449
▁ခဏ	-3450
▁ဒါ	-3451
▁ပု	-3452
▁ယု	-3453
ခင်း	-3454
နှော	-3455
▁တခု	-3456
▁ဒေါသ	-3457
▁မတည်	-3458
င်္ကျီ	-3459
ပြန်၏။	-3460
ဝိုင်း	-3461
▁အာရဇ်	-3462
ကြပြီဟု	-3463
ခိုလှုံ	-3464
ခြားနား	-3465
စေခြင်း	-3466
▁မလိုက်	-3467
▁မေထုန်	-3468
▁ရှေခင်	-3469
▁သတိပြု	-3470
▁အသံကို	-3471
ခြင်းဘေး	-3472
စပ်ဆိုင်	-3473
တနိုင်ငံ	-3474
ပိုင်သော	-3475
မြို့နယ်	-3476
လက်နှင့်	-3477
▁ငါစီရင်	-3478
▁မော်ဒကဲ	-3479
▁ယေရိခေါ	-3480
စိတ်နှင့်	-3481
▁ခရီးသွား	-3482
▁ထမ်းဘိုး	-3483
▁ပိတ်ချော	-3484
▁လူသားသည်	-3485
ညတ္တိကျမ်း	-3486
▁တပြည်လုံး	-3487
▁ယောရှုသည်	-3488
▁လူအစုအဝေး	-3489
ပိုင်းအခြား	-3490
▁မကောင်းသော	-3491
ဘုရားသခင်သည်	-3492
▁ကျေးဇူးတော်	-3493
▁တောင်ပေါ်မှာ	-3494
▁ယုဒလူတို့သည်	-3495
ဘဏ္	-3496
သတာ	-3497
သူ့	-3498
အရေ	-3499
▁ထံ	-3500
ဘမ်း	-3501
ရထား	-3502
▁ဖြေ	-3503
▁မိမ	-3504
▁ရက်	-3505
ပြင်း	-3506
သဖန်း	-3507
▁ရသော	-3508
မည်သော	-3509
သည်ထက်	-3510
▁ခေါ်၍	-3511
▁သောသူ	-3512
▁ဟူသော	-3513
ကြသည်ဟု	-3514
ဆင်ခြင်	-3515
ပေးမည်။	-3516
ပြင်ဆင်	-3517
လုပ်ကြံ	-3518
▁ထိုသူ၏	-3519
▁ဘုရား၊	-3520
အလုံးစုံ	-3521
▁များစွာ	-3522
▁ရဲတိုက်	-3523
▁လက်ျာလက်	-3524
▁ငါစေလွှတ်	-3525
▁တော်မူသော	-3526
▁နေ့တိုင်း	-3527
နိုင်သနည်း။	-3528
▁ပြင်းစွာသော	-3529
▁ကြည့်ရှုလော့။	-3530
တော်မူကြောင်းကို	-3531
နိ၊	-3532
ပြေ	-3533
အာန	-3534
ဖြား	-3535
ဘာသာ	-3536
အဝင်	-3537
▁ကင်	-3538
▁ဇေဒ	-3539
▁ဒံယ	-3540
▁သေလ	-3541
စောင်	-3542
ထိန်း	-3543
သိန်း	-3544
ေရင်း	-3545
▁ဟုတ်	-3546
ငွေကို	-3547
ထောင်၊	-3548
နန်းစံ	-3549
သေးသော	-3550
▁ဧလာဇာ	-3551
စစ်ကြော	-3552
တရားသည်	-3553
သင်တို့	-3554
သောသဘော	-3555
ဟူ၍၎င်း	-3556
▁ငွေကို	-3557
▁သံလွင်	-3558
စည်းစိမ်	-3559
▁ယခုတွင်	-3560
▁ဟေဗြုန်	-3561
နှင့်တူ၏။	-3562
▁ထိုပြည်၌	-3563
▁အရှက်ကွဲ	-3564
မင်္ဂလာကို	-3565
ရှိသမျှသည်	-3566
▁ကရုဏာတော်	-3567
▁မေးလျှင်၊	-3568
တိုင်အောင်၊	-3569
▁သခင်ဘုရား၏	-3570
▁ဆန့်ကျင်ဘက်	-3571
▁ဗျာဒိတ်တော်	-3572
▁သောကြောင့်၊	-3573
တော်မူသောအခါ၊	-3574
တော်မူသည်ဖြစ်၍၊	-3575
နီ	-3576
ဗလ	-3577
စာ၌	-3578
လှဲ	-3579
အာဗ	-3580
▁သု	-3581
ပဌနာ	-3582
သေး။	-3583
ံပင်	-3584
▁ဂေရ	-3585
▁တကွ	-3586
▁ဘတ်	-3587
▁ဝယ်	-3588
▁အဘ၏	-3589
▁အမှ	-3590
ခံသော	-3591
စိုက်	-3592
တပည့်	-3593
ဒုက္ခ	-3594
မာသက်	-3595
▁ငွေအ	-3596
▁လုံး	-3597
▁လူစု	-3598
▁ဝစွာ	-3599
ငါ့ကို	-3600
သတ္တဝါ	-3601
ျားရည်	-3602
▁ချွတ်	-3603
▁ငါအပ်	-3604
▁တဘက်၌	-3605
▁ပုန်း	-3606
▁မိမိမ	-3607
▁အနန္တ	-3608
စိတ်ကို	-3609
ပါလော့။	-3610
▁စိုးစံ	-3611
ဆုံးဖြတ်	-3612
တတ်နိုင်	-3613
မျိုးကို	-3614
▁ဘေးဥပဒ်	-3615
စေသဖြင့်၊	-3616
ရှိလျှင်၊	-3617
▁ပူဇော်သော	-3618
▁သေခြင်းမှ	-3619
စေတော်မူပါ။	-3620
▁အကျွန်ုပ်၌	-3621
ယဇ်ပုရောဟိတ်	-3622
အပေါင်းတို့၊	-3623
▁ကိုယ်တော်က၊	-3624
▁ထို့ကြောင့်	-3625
▁မိန်းမောတွေဝေ	-3626
▁လူများတို့အား	-3627
▁လက်ဝါးကပ်တိုင်	-3628
ဒပ်	-3629
စရပ်	-3630
▁ဆရာ	-3631
▁မတ်	-3632
▁သီး	-3633
တော့။	-3634
ပေါလု	-3635
ရှေ့၊	-3636
လုပ်၍	-3637
▁ယေဟု	-3638
▁ယောဘ	-3639
ကဲ့ရဲ့	-3640
တောင်၊	-3641
သေတ္တာ	-3642
ဟာယယဇ်	-3643
ဟောင်း	-3644
▁ကမ္ဘာ	-3645
▁မကြား	-3646
▁ယူခဲ့	-3647
▁အခန်း	-3648
▁ဤအရပ်	-3649
စကားသည်	-3650
နည်းတူ၊	-3651
ဘွားသော	-3652
▁ဗာရှန်	-3653
▁ရန်ဘက်	-3654
ပြန်ပြော	-3655
အစဉ်အဆက်	-3656
▁ကျင်လည်	-3657
ပါစေသောဟု	-3658
မြော်လင့်	-3659
▁ငါမှာထား	-3660
▁ငါ့ခမည်း	-3661
▁စိတ်ပျက်	-3662
▁ထားဖြင့်	-3663
▁မြွက်ဆို	-3664
▁ယောရှဖတ်	-3665
▁လမ်းခရီး	-3666
▁လှည့်လည်	-3667
▁နှုတ်ဆောင်	-3668
သည်နှင့်အညီ၊	-3669
▁အမှုတို့ကို	-3670
▁ရန်သူတို့ကို	-3671
▁ရှင်ဘုရင်ကို	-3672
ဖြစ်စေခြင်းငှါ	-3673
မှီတိုင်အောင်၊	-3674
▁အမိန့်တော်ရှိ	-3675
မြို့သားတို့သည်	-3676
▁ပူဇော်သက္ကာကို	-3677
▁ရောက်လိမ့်မည်။	-3678
▁လေဝိသားတို့သည်	-3679
တော်မူသည်အတိုင်း	-3680
ဖူ	-3681
ဒဒ်	-3682
ဗက်	-3683
မူး	-3684
ခမ်း	-3685
စား၍	-3686
နွယ်	-3687
ွှယ်	-3688
▁စတု	-3689
▁ပြီ	-3690
တွန်း	-3691
ဗိုလ်	-3692
▁နေကြ	-3693
▁ယေရု	-3694
▁သူ၏အ	-3695
ကြိုင်	-3696
ပင်လယ်	-3697
လွှမ်း	-3698
▁ပိလတ်	-3699
▁သခင်၏	-3700
▁သည်ဟု	-3701
သောအကြံ	-3702
ဟာယဖွဲ့	-3703
▁ငါချစ်	-3704
မည်လောဟု	-3705
▁တည်းခို	-3706
ဆောင်ရွက်	-3707
ထဲသို့ဝင်	-3708
သို့၎င်း၊	-3709
▁ကိုက်စား	-3710
▁ကျမ်းပြု	-3711
▁ဖြိုဖျက်	-3712
▁ဝမ်းနည်း	-3713
သင်တို့သည်	-3714
▁ကိုယ်အလို	-3715
▁ပေါ်ထွန်း	-3716
သောအသံနှင့်	-3717
▁ဗတ္တိဇံကို	-3718
▁မတရားသဖြင့်	-3719
▁မိမိအဝတ်ကို	-3720
ရှိသည်အတိုင်း	-3721
▁ခံရလိမ့်မည်။	-3722
▁ပေးတော်မူသော	-3723
▁ယဇ်ပလ္လင်ကို	-3724
▁မိန့်တော်မူသော	-3725
သဲ	-3726
ရသည်	-3727
▁ဆန်	-3728
▁အင်	-3729
ကြပါ။	-3730
စ်မူး	-3731
န်သည်	-3732
ရပြီ။	-3733
သစ္စာ	-3734
သားရဲ	-3735
အပေါ်	-3736
▁တကား	-3737
▁ပန်း	-3738
▁မြွေ	-3739
▁လင်း	-3740
▁သည်၊	-3741
▁ဆက်ဆံ	-3742
▁ဖါရော	-3743
တို့ထက်	-3744
များစွာ	-3745
အားထုတ်	-3746
အိမ်ကို	-3747
▁ဒမာသက်	-3748
ညွတ်တည်း	-3749
ရှိသောသူ	-3750
အာနုဘော်	-3751
အောက်မှာ	-3752
▁ကျက်စား	-3753
▁မိဖုရား	-3754
▁သည်လည်း	-3755
သွေးဆောင်	-3756
▁ခေါ်ဝေါ်	-3757
▁ငြင်းပယ်	-3758
▁မုန့်ညက်	-3759
▁ဟစ်ကြော်	-3760
နိုင်ငံကို	-3761
လျှင်၎င်း၊	-3762
▁ပြောင်းလဲ	-3763
▁ရာဇပလ္လင်	-3764
▁သင်တို့သိ	-3765
များကိုလည်း	-3766
▁စပျစ်ရည်ကို	-3767
▁စက်ဆုပ်ရွံရှာ	-3768
ဖိ	-3769
ပါ၊	-3770
▁မသ	-3771
ကြုံ	-3772
တော၌	-3773
ထွေး	-3774
▁ခင်	-3775
ကြွလာ	-3776
ငါသည်	-3777
ငြိမ်	-3778
မုန်း	-3779
အမှန်	-3780
▁ကယ်မ	-3781
▁ကြယ်	-3782
▁တုရု	-3783
▁ထပ်၍	-3784
▁ယူ၍၊	-3785
ထွက်၍၊	-3786
▁ရိုသေ	-3787
▁အဆုံး	-3788
စဉ်အခါ၊	-3789
ဖန်ဆင်း	-3790
လေရာရာ၌	-3791
အမျိုး၏	-3792
▁သိုထား	-3793
ကင်းလွတ်	-3794
နိုင်ကြ။	-3795
▁အဘိမလက်	-3796
ရှိသည်ကို	-3797
လမ်းဖြင့်	-3798
ဝိညာဉ်သည်	-3799
▁တတ်နိုင်	-3800
▁ပေါလုသည်	-3801
▁မုန့်ကို	-3802
▁အလုံးစုံ	-3803
▁ဥစ္စာကို	-3804
▁ထိုမှတပါး	-3805
▁ပျော်မွေ့	-3806
▁ယာကုပ်သည်	-3807
▁ယောသပ်သည်	-3808
▁ရှိသတည်း။	-3809
▁ပေါင်းဘော်	-3810
▁နက်ဖြန်နေ့၌	-3811
▁အကြောင်းကို	-3812
လိမ့်မည်နည်း။	-3813
▁သင်တို့အဘို့	-3814
▁အနန္တတန်ခိုး	-3815
ခြံ	-3816
ငါ၏	-3817
ဖို	-3818
လှံ	-3819
အာရ	-3820
▁ထူ	-3821
ကိုး	-3822
နေရာ၌	-3823
မြင်း	-3824
မှသည်	-3825
သောလူ	-3826
ောမနာ	-3827
▁ဆုတ်	-3828
▁ထည့်	-3829
▁နောဧ	-3830
▁ပြု၍	-3831
▁အဝေး	-3832
စေကြ၏။	-3833
တံပိုး	-3834
နှစ်ခု	-3835
ပါလျက်	-3836
သွားရာ	-3837
အရာရှိ	-3838
အရှိန်	-3839
▁လက်မှ	-3840
ကွဲပြား	-3841
ဆင်းသက်	-3842
▁စုံဘက်	-3843
▁စောင်း	-3844
မုန့်ကို	-3845
▁စောင့်မ	-3846
▁တော်သည်	-3847
▁ရောက်၍၊	-3848
▁ရှေ့မှာ	-3849
▁လည်ပင်း	-3850
▁အခါမလည်	-3851
ခေါင်းပါး	-3852
နှိုးဆော်	-3853
မဟုတ်လော။	-3854
ရွှင်လန်း	-3855
သောသူသည်၊	-3856
▁ကိုယ်ခန္	-3857
▁ကျောက်ခဲ	-3858
▁ခင်ပွန်း	-3859
▁ထိုဘုရား	-3860
▁သစ္စာဂတိ	-3861
▁အနာရောဂါ	-3862
▁အသေကောင်	-3863
▁တို့နှင့်	-3864
▁လိုက်ကြ၏။	-3865
တို့ရှေ့မှာ	-3866
သမျှအတိုင်း	-3867
▁တရားသူကြီး	-3868
သန့်ရှင်းသော	-3869
▁လျှောက်ကြ၏။	-3870
ခြင်းကို၎င်း၊	-3871
▁သင်္ဘောသဖန်း	-3872
▁စီရင်ထုံးဖွဲ့	-3873
▁အမြင့်ဆုံးသော	-3874
▁ဣသရေလလူတို့သည်	-3875
ထိ	-3876
ဂေါ	-3877
ပဲ့	-3878
ိမ္	-3879
▁ဒေ	-3880
တန်း	-3881
နေ၍၊	-3882
ဟုန်	-3883
▁ကား	-3884
အလွန်	-3885
၌၎င်း	-3886
▁အထပ်	-3887
ကြမည်။	-3888
ကြံစည်	-3889
▁ဖောက်	-3890
▁လက်ခံ	-3891
▁အသင့်	-3892
မြစ်ကို	-3893
▁စတုတ္ထ	-3894
▁ဆိုလို	-3895
▁နေရာချ	-3896
▁ပိုင်း	-3897
▁သောဒုံ	-3898
နိုင်ရာ။	-3899
ပြည်သား၊	-3900
သောအမှု၊	-3901
ိညာဉ်ကို	-3902
▁???????	-3903
▁နှစ်ဆယ်	-3904
မြို့ရိုး	-3905
ဝိညာဉ်ကို	-3906
▁ကြွင်းသော	-3907
▁သူသည်လည်း	-3908
တော်မူပြီဟု	-3909
▁အနိုင်အထက်	-3910
▁အစွမ်းသတ္တိ	-3911
▁သို့ပြုလျှင်	-3912
▁စားခန်းချကြ၏။	-3913
▁ပြည်သူပြည်သား	-3914
▁လျှောက်လျှင်၊	-3915
▁ရှိသမျှတို့ကို	-3916
တိမ	-3917
သနာ	-3918
▁ဩဇ	-3919
ခွင်	-3920
ပါလေ	-3921
▁ကိရ	-3922
▁ရှံ	-3923
ကျင်း	-3924
မြင်၍	-3925
ရှသား	-3926
▁ဖြတ်	-3927
▁မွေ့	-3928
▁ရွံ့	-3929
င့်တယ်	-3930
ဘော်ပြ	-3931
သစ်ကို	-3932
▁ဂိဒေါ	-3933
▁ထွန်း	-3934
▁မူပါ။	-3935
▁သလော။	-3936
▁အကျပ်	-3937
▁အများ	-3938
ခဲ့ပြီ။	-3939
မြောင်း	-3940
ရှင်သည်	-3941
အော်ဟစ်	-3942
▁မိက္ခာ	-3943
▁မြဲမြံ	-3944
▁ယဇ်ပုရ	-3945
ကြားပြော	-3946
▁နားမလည်	-3947
▁ရွှေစင်	-3948
နှစ်တွင်၊	-3949
ရှိသနည်း။	-3950
လိုက်ကြ၏။	-3951
သွားလော့။	-3952
▁ငါပေးသော	-3953
▁မြို့ဝန်	-3954
▁မြို့သား	-3955
▁သင်တို့အ	-3956
▁သိုးနွား	-3957
▁သူတို့က၊	-3958
မှန်လျှင်၊	-3959
▁ကြမ်းတမ်း	-3960
▁စိတ်နှင့်	-3961
▁ဆိုလျှင်၊	-3962
ခြင်းကိုခံရ	-3963
▁ကိုယ်အဘို့	-3964
ခြင်းအလိုငှါ	-3965
▁ဒါဝိဒ်နှင့်	-3966
▁နေဗုခဒ်နေဇာ	-3967
▁ဖြောင့်မတ်စွာ	-3968
▁သေတ္တာတော်ကို	-3969
▁??????????????	-3970
▁တကျွန်းတနိုင်ငံ	-3971
နံ	-3972
ကော	-3973
နနိ	-3974
ရိ၊	-3975
လွဲ	-3976
သူ၊	-3977
ဧလိ	-3978
▁တေ	-3979
ကမ်း	-3980
ဒုန်	-3981
ရိယာ	-3982
▁ငတ်	-3983
နာစွဲ	-3984
အခန်း	-3985
ေရုဒ်	-3986
▁ကျပ်	-3987
▁ကြည်	-3988
▁ခံယူ	-3989
▁မွေး	-3990
စေတော်	-3991
ဆင်းတု	-3992
မောရှေ	-3993
▁?????	-3994
▁ငါဆို	-3995
▁အနတ္တ	-3996
▁အမှတ်	-3997
▁အလိုလ	-3998
စေတတ်၏။	-3999
ပြုလျက်	-4000
မယားကို	-4001
မြတ်သော	-4002
▁စင်စစ်	-4003
▁နန်းစံ	-4004
▁မိမိလူ	-4005
သည်ဖြစ်၍	-4006
ိန်းချက်	-4007
▁ကြီးသော	-4008
▁ငါ့သား၊	-4009
▁ထင်မှတ်	-4010
▁ထိုအိမ်	-4011
တန်တိုင်း	-4012
▁စပျစ်သီး	-4013
▁ရောဗောင်	-4014
▁သွေးဆောင်	-4015
တော်အတိုင်း	-4016
▁ယေရှုခရစ်၏	-4017
▁အရာတို့ကို	-4018
▁ပြောဆိုကြ၏။	-4019
ရကြလိမ့်မည်ဟု	-4020
ကြောင်းကို၎င်း၊	-4021
အပေါင်းတို့သည်၊	-4022
▁ဗိမာန်တော်သို့	-4023
▁ဘုရားသခင်နှင့်	-4024
▁တယောက်ကိုတယောက်	-4025
ဝေဒ	-4026
ျုံ	-4027
ွေရ	-4028
▁ခဲ	-4029
▁အဟ	-4030
ကျက်	-4031
ခုံး	-4032
ခွေး	-4033
ဆုန်	-4034
ထိုး	-4035
မဝင်	-4036
ရှေဘ	-4037
▁တရာ	-4038
တဘို့	-4039
ိုသော	-4040
▁ဆွေး	-4041
▁ထိမိ	-4042
▁နိုး	-4043
▁လာ၍၊	-4044
▁ဝင်၍	-4045
▁အနီး	-4046
ခိုင်း	-4047
ထောက်၍	-4048
ပြန်၍၊	-4049
မှုကို	-4050
သူအိမ်	-4051
▁ဇာခရိ	-4052
▁ပြည်၌	-4053
▁ဘုရင်	-4054
▁မဖြစ်	-4055
▁သင်၏အ	-4056
▁သိုး၊	-4057
စေမည်ဟု	-4058
ထမြောက်	-4059
ိတ်လန့်	-4060
▁ထွက်လာ	-4061
▁မသောက်	-4062
▁လူဆိုး	-4063
▁လောင်း	-4064
▁သည်ကို	-4065
ကျိန်ဆို	-4066
နှစ်တွင်	-4067
ပြုလျက်၊	-4068
▁ငတ်မွတ်	-4069
▁မယ်တော်	-4070
▁မျက်ရည်	-4071
▁ဝှက်ထား	-4072
ကြသနည်းဟု	-4073
သို့သွား၍	-4074
သောနောက်၊	-4075
▁လုပ်လေ၏။	-4076
ခဲ့ပြီးသော	-4077
တို့၌၎င်း၊	-4078
▁တော်မူပါ။	-4079
▁နားထောင်၍	-4080
ကြကုန်အံ့ဟု	-4081
▁ထူးဆန်းသော	-4082
▁မျက်နှာကို	-4083
▁ရှလင်မြို့	-4084
▁မွှေးကြိုင်	-4085
▁သစ္စာစောင့်	-4086
ရသောအခွင့်ကို	-4087
▁ထိုမိန်းမသည်	-4088
▁မြင့်သောအရပ်	-4089
▁သင်တို့နှင့်	-4090
▁ဒုစရိုက်အပြစ်	-4091
▁အချို့တို့သည်	-4092
▁သင်တို့နှင့်အတူ	-4093
ဗ္ဗ	-4094
▁ဆု	-4095
▁ထု	-4096
အား၊	-4097
▁စရာ	-4098
▁ဆပ်	-4099
▁တခါ	-4100
▁ရာခ	-4101
▁အထွ	-4102
ကိုခံ	-4103
ကျော်	-4104
ကြပြီ	-4105
စွမ်း	-4106
နောင်	-4107
ပေး၍၊	-4108
ရေသည်	-4109
လူသည်	-4110
သိမ့်	-4111
အမြစ်	-4112
ေလကို	-4113
▁ကန့်	-4114
▁မယုံ	-4115
▁လော။	-4116
ကျွမ်း	-4117
ငယ်ကို	-4118
တချက်၌	-4119
လေသမျှ	-4120
ဦးကြို	-4121
▁မြင်၍	-4122
ခရိုင်၊	-4123
တော်မူ၍	-4124
ရှိပါ၏။	-4125
သောငှါ၊	-4126
▁ငါးဆယ်	-4127
▁ထုံးစံ	-4128
▁ယခုပင်	-4129
ပါလော့ဟု	-4130
ပြောင်း၍	-4131
▁နောက်မှ	-4132
▁နွားထီး	-4133
▁များကို	-4134
▁ရှံဆုန်	-4135
ခြောက်ဆယ်	-4136
နှင့်အမျှ	-4137
ရှောလမုန်	-4138
သူတို့သည်	-4139
▁ပေတရုသည်	-4140
▁ဖုံးအုပ်	-4141
▁မေးသော်၊	-4142
▁လက်ဆောင်	-4143
▁သွားကြ၏။	-4144
▁ခြင်းငှါ၊	-4145
▁မွေ့လျော်	-4146
▁အပြည်ပြည်	-4147
▁ကောင်းမွန်	-4148
▁မြွက်ဆို၏။	-4149
▁သားတို့သည်	-4150
ရောက်သောအခါ၊	-4151
▁အိမ်တော်ကို	-4152
▁အမျက်တော်ကို	-4153
အမျိုးသားချင်း	-4154
▁တိုင်းနိုင်ငံ	-4155
အမျိုးသားတို့ကို	-4156
▁ခုနစ်ရက်ပတ်လုံး	-4157
ိ၊	-4158
တဦး	-4159
ရုံ	-4160
ဆင့်	-4161
ပင့်	-4162
မထား	-4163
သားအ	-4164
▁ဆီဥ	-4165
▁အာဒ	-4166
စုဝေး	-4167
နှစ်၊	-4168
မင်း၊	-4169
မသွား	-4170
▁မြေ၌	-4171
▁ယေဇရ	-4172
ဉ်ပြား	-4173
နှစ်ရာ	-4174
မရှိရ။	-4175
အဘယ်သူ	-4176
ောင့်တ	-4177
▁ကောင်	-4178
▁ညဦးယံ	-4179
▁လုပ်၍	-4180
ပြုပြင်	-4181
ရာအရပ်၌	-4182
အရပ်ရပ်	-4183
▁တပ်မက်	-4184
▁ယူသွား	-4185
▁သိုးစု	-4186
▁အာမလက်	-4187
▁မီးခွက်	-4188
▁လက်ရုံး	-4189
▁သည်ကား၊	-4190
▁သားမြေး	-4191
▁အသီးကို	-4192
▁ငါ့အဘို့	-4193
▁ဆိတ်သငယ်	-4194
▁ဇာဗုလုန်	-4195
▁ရှိမောင်	-4196
▁အထံတော်၌	-4197
▁ဘုန်းကြီး	-4198
▁ရောက်လာ၍၊	-4199
▁အစာရှောင်	-4200
မျက်မှောက်၌	-4201
▁တယောက်တည်း	-4202
▁ထိုနည်းတူ၊	-4203
▁ပိုင်းခြား	-4204
▁သေတ္တာတော်	-4205
တော်မူသနည်း။	-4206
▁သူတို့အဘို့	-4207
▁အလိုတော်ရှိ	-4208
▁အသက်ချမ်းသာ	-4209
▁ခမည်းတော်သည်	-4210
▁ရုပ်တုဆင်းတု	-4211
မြို့တိုင်အောင်	-4212
▁ကိုယ်တော်နှင့်	-4213
ဇ္	-4214
ဂါလ	-4215
ထန်	-4216
၍နေ	-4217
▁မဟ	-4218
▁ရိ	-4219
နွေး	-4220
ဘက်၊	-4221
အလယ်	-4222
▁ပေရ	-4223
ကြ၏ဟု	-4224
များ၌	-4225
လက်ျာ	-4226
လုံး၊	-4227
ိမ္မာ	-4228
▁ဧသတာ	-4229
မလိုက်	-4230
ှဉ်သော	-4231
▁ကျိုး	-4232
▁ဖြန့်	-4233
▁မြှား	-4234
▁ရှုံး	-4235
▁အာရှာ	-4236
စေလော့။	-4237
ဆင့်ဆို	-4238
သားကား၊	-4239
▁ဆူးပင်	-4240
▁မြေကို	-4241
▁ရောက်၍	-4242
ကိုယ်ကို	-4243
ကောင်း၏။	-4244
စပျစ်ရည်	-4245
စွန့်ပစ်	-4246
နေရာသို့	-4247
ရမည်လော။	-4248
ရှိရမည်။	-4249
သွားလေ၏။	-4250
▁ခြားနား	-4251
▁နောင်တရ	-4252
▁ရေတွင်း	-4253
▁အထပ်ထပ်	-4254
နှံ့အပြား	-4255
ပြောဆို၏။	-4256
▁မောဘပြည်	-4257
▁မြင့်သော	-4258
▁အပေါ်မှာ	-4259
▁အလျှင်းမ	-4260
▁ကျမ်းစာလာ	-4261
▁ထိုနေ့ရက်	-4262
▁လုပ်ဆောင်	-4263
▁လှုပ်ရှား	-4264
▁သင်တိုင်း	-4265
▁သော်လည်း၊	-4266
▁အာရုန်သည်	-4267
▁ကိုယ်တော်၌	-4268
▁မြို့တံခါး	-4269
▁လိမ့်မည်ဟု	-4270
▁အပြစ်ဖြေရာ	-4271
သောအကျင့်ကို	-4272
▁သည်အတိုင်း၊	-4273
ခေါင်းပေါ်မှာ	-4274
အချို့တို့သည်	-4275
▁မထီမဲ့မြင်ပြု	-4276
အပေါင်းတို့နှင့်	-4277
ဖရ	-4278
ညံ့	-4279
▁မဆ	-4280
က္ခမ	-4281
ချယ်	-4282
တဝက်	-4283
လျှာ	-4284
သည့်	-4285
အမှီ	-4286
အာဗြ	-4287
ေါက်	-4288
▁လုံ	-4289
ချွတ်	-4290
ပါမည်	-4291
ပျိုး	-4292
ဝန်ခံ	-4293
▁ခွက်	-4294
▁ဂိဗာ	-4295
▁ဂျုံ	-4296
▁တညီတ	-4297
▁နင်း	-4298
▁ဘွယ်	-4299
▁မရဏာ	-4300
▁ဟိတ်	-4301
▁အနာဂ	-4302
▁အရက်	-4303
▁ဧလျာ	-4304
စောစော	-4305
ညစ်ညူး	-4306
ပါစေဟု	-4307
ယောက်၊	-4308
ရာဇဝင်	-4309
လွှင့်	-4310
သောနေ့	-4311
၌ပါသော	-4312
▁တို့၌	-4313
▁ပြုမိ	-4314
▁လာဗန်	-4315
▁အိုင်	-4316
ခိုင်မာ	-4317
ပြင်မှာ	-4318
ဖြစ်၏ဟု	-4319
ဖြောင့်	-4320
ရူပါရုံ	-4321
သွန်သင်	-4322
အဆက်ဆက်	-4323
▁ကိုယ်အ	-4324
▁ဆောင်း	-4325
▁ဒိုင်း	-4326
▁မီးခုံ	-4327
▁မောင်း	-4328
▁မြို့၌	-4329
▁ဟေရုဒ်	-4330
တို့လည်း	-4331
မြင့်စွာ	-4332
▁ဂိဒေါင်	-4333
▁အားထုတ်	-4334
နှုတ်ကပတ်	-4335
မေးလျှင်၊	-4336
အမျိုးသည်	-4337
▁ကို၎င်း၊	-4338
▁ယုဒပြည်၌	-4339
တို့ထံသို့	-4340
သောသူတို့၊	-4341
▁တန်တိုင်း	-4342
▁ထာဝရအရှင်	-4343
▁ထိုနောက်၊	-4344
▁ရန်သူတို့	-4345
▁သခင်ယေရှု	-4346
▁ဤရွေ့ကား၊	-4347
တော်မူထသော၊	-4348
နှစ်ပတ်လုံး	-4349
ပါလိမ့်မည်။	-4350
သောအကြောင်း	-4351
▁ကျော့ကွင်း	-4352
▁ချိန်းချက်	-4353
▁ဗိုလ်ချုပ်	-4354
▁မြင်လျှင်၊	-4355
▁ဝိညာဉ်တော်	-4356
▁သူတို့တွင်	-4357
▁အထူးသဖြင့်	-4358
ဘုရားသခင်ကို	-4359
များကို၎င်း၊	-4360
▁သင်နှင့်အတူ	-4361
▁အစဉ်အမြဲတည်	-4362
မြောက်သောနေ့၌	-4363
▁ငါဆိုသည်ကား၊	-4364
▁မြေကြီးစွန်း	-4365
▁ရန်သူတို့သည်	-4366
▁နောက်တော်သို့	-4367
▁သူတို့နှင့်အတူ	-4368
ရီ	-4369
ဆီဥ	-4370
ဇပါ	-4371
နန်	-4372
▁ကဲ	-4373
ကာလ၊	-4374
ချည်	-4375
ဒုတ်	-4376
ပ္ပု	-4377
အပါး	-4378
▁စော	-4379
▁မဟာ	-4380
▁မာရ	-4381
ရှုန်	-4382
ောဟတ်	-4383
တော့ဟု	-4384
ရိယာယ်	-4385
အပ်သော	-4386
▁တော်၌	-4387
▁ပိုက်	-4388
▁ရပ်နေ	-4389
▁ရေကန်	-4390
▁လျှင်	-4391
မှန်သော	-4392
▁??????	-4393
▁ကြားသိ	-4394
▁ထောမနာ	-4395
▁လက္ခဏာ	-4396
▁သံတမန်	-4397
▁အချုပ်	-4398
▁အစာကို	-4399
▁ဣရှမေလ	-4400
ဖြစ်လေ၏။	-4401
▁ဆိုးညစ်	-4402
▁တို့အား	-4403
▁မိမိသား	-4404
စေသတည်းဟု	-4405
အခွင့်ကို	-4406
▁မယုံကြည်	-4407
▁မိမိအိမ်	-4408
▁မြေတွင်း	-4409
▁အနည်းငယ်	-4410
နှစ်သောင်း	-4411
▁ထိုကျောက်	-4412
▁ဖြစ်ရမည်။	-4413
ရလိမ့်မည်ဟု	-4414
▁ကြားလျှင်၊	-4415
▁စေခြင်းငှါ	-4416
▁ထင်ရှားစွာ	-4417
▁မျက်စိကန်း	-4418
▁သွေ့ခြောက်	-4419
အပေါင်းတို့၏	-4420
▁ကျမ်းပြုဆရာ	-4421
▁ပညတ္တိကျမ်း	-4422
▁သက်သေခံချက်	-4423
▁ကိုယ်တော်အား	-4424
တော်မူစေသတည်း။	-4425
▁ဗိမာန်တော်ကို	-4426
▁လူအပေါင်းတို့	-4427
ိအ	-4428
ုသ	-4429
ကညာ	-4430
ချေ	-4431
ဒ္ဒ	-4432
ဗတ်	-4433
မသေ	-4434
ဟာရ	-4435
ိရံ	-4436
▁ပူ	-4437
ကပင်	-4438
ခုတ်	-4439
ဌာန်	-4440
အနီး	-4441
▁ဤလူ	-4442
ညွှတ်	-4443
ပြင်၌	-4444
မမြင်	-4445
ရပါ၏။	-4446
ရှင်၊	-4447
၏သမီး	-4448
▁ထိုး	-4449
▁နှံ့	-4450
▁အသား	-4451
ခြင်း၏	-4452
စုံမက်	-4453
ဆိုလို	-4454
ဝင်သော	-4455
ေလိမ့်	-4456
▁ချိန်	-4457
▁စာတန်	-4458
▁တို့၏	-4459
▁မှီဝဲ	-4460
▁လျှပ်	-4461
▁ဟေဗြဲ	-4462
▁အတွက်	-4463
▁အဘသည်	-4464
ရွံ့ရှာ	-4465
လိုက်၍၊	-4466
လျက်ပင်	-4467
သခင်သည်	-4468
သဘောကို	-4469
▁ကွယ်ကာ	-4470
▁ဆက်ဆက်	-4471
အုပ်စိုး	-4472
▁ခံရကြ၏။	-4473
▁စုဝေးစေ	-4474
▁ဆည်းကပ်	-4475
▁တည်ကြည်	-4476
▁ရန်တွေ့	-4477
▁အားနည်း	-4478
▁အံ့ဘွယ်	-4479
?????????	-4480
ကြသဖြင့်၊	-4481
တုန်လှုပ်	-4482
ပေါင်းကား	-4483
မှဆင်းသက်	-4484
▁ပညတ်တော်	-4485
▁ပြည်သို့	-4486
▁ဖြစ်ပါ၏။	-4487
ကောင်းကြီး	-4488
နိုင်သလော။	-4489
နှင့်ပြည့်	-4490
▁ဂိလဒ်ပြည်	-4491
▁ညစ်ညူးသော	-4492
▁ထိုအရပ်မှ	-4493
▁မြို့နယ်၊	-4494
▁ဟေဇကိမင်း	-4495
▁အသင်းတော်	-4496
စေခြင်းငှာ၊	-4497
သင်္ချိုင်း	-4498
▁ထိုပြည်ကို	-4499
▁ရှိသမျှသော	-4500
စေတော်မူမည်။	-4501
သောအခွင့်ကို	-4502
အပြစ်ကြောင့်	-4503
▁တရားတော်ကို	-4504
▁ပတ်ဝန်းကျင်	-4505
▁မောရှေကလည်း၊	-4506
▁သူတို့ကလည်း၊	-4507
သောအမှုတို့ကို	-4508
▁သူတို့သည်လည်း	-4509
▁သွန်းလောင်းရာ	-4510
▁ကိုယ်တော်တိုင်	-4511
▁ရှိသမျှတို့သည်	-4512
▁???????????????	-4513
▁ကြိုးစားအားထုတ်	-4514
စမ	-4515
န္ဒ	-4516
ဗော	-4517
ရှဘ	-4518
ကြေး	-4519
တင်၍	-4520
မည့်	-4521
ယောဟ	-4522
ရာမှ	-4523
သွယ်	-4524
်နတ်	-4525
ကြသော	-4526
စိမ်း	-4527
ဆက်ဆံ	-4528
န်ရစ်	-4529
သွန်း	-4530
▁ဘိုး	-4531
▁မေရာ	-4532
▁ရှာလ	-4533
▁အတတ်	-4534
ပရိသတ်	-4535
ဘဲနေ၏။	-4536
▁တပ်ချ	-4537
▁နည်း။	-4538
▁မလုပ်	-4539
▁အရိပ်	-4540
ခံရမည်။	-4541
ထံတော်၌	-4542
သင့်ကို	-4543
▁ငါအလို	-4544
▁ပတ်လည်	-4545
▁မစားရ။	-4546
▁ယောရှိ	-4547
▁လျောက်	-4548
▁ဟိတ္တိ	-4549
ကိုဖွင့်	-4550
ပါသနည်း။	-4551
ဘုရားကို	-4552
အစဉ်အမြဲ	-4553
▁ဂိဗောင်	-4554
▁မှန်သော	-4555
▁ရွှေငွေ	-4556
▁လုပ်သော	-4557
▁အလိုလို	-4558
ကောင်းသော	-4559
ငါတို့သည်	-4560
နှင့်၎င်း	-4561
သူတို့ကို	-4562
▁ငါမြင်၏။	-4563
▁နှံ့ပြား	-4564
▁သောသူသည်	-4565
▁အကြီးအကဲ	-4566
▁အပြစ်ဒဏ်	-4567
??????????	-4568
လျက်နေကြ၏။	-4569
အံ့သောငှါ၊	-4570
▁နောက်သို့	-4571
▁သမ္မာတရား	-4572
▁ဤမျှလောက်	-4573
▁ဥပုသ်နေ့၌	-4574
ရှိတော်မူ၏။	-4575
▁ကွယ်ပျောက်	-4576
▁ခရီးဦးကြို	-4577
▁ကြားလျှောက်	-4578
▁မုသာစကားကို	-4579
ကောင်းကင်တမန်	-4580
▁ခမည်းတော်အရာ၌	-4581
▁ထာဝရဘုရားရှေ့	-4582
▁ဘုရားသခင်၏သား	-4583
▁မီးရှို့ရမည်။	-4584
▁ခွန်အားကြီးသော	-4585
▁မေးတော်မူလျှင်၊	-4586
တူး	-4587
မြား	-4588
ရုတ်	-4589
ရှာယ	-4590
▁နီး	-4591
▁ယေဖ	-4592
စုတစု	-4593
န်းမာ	-4594
အုပ်၊	-4595
ေလသား	-4596
▁ကိရယ	-4597
▁ကြက်	-4598
▁ငွေရ	-4599
▁ပကတိ	-4600
▁မာရိ	-4601
▁ရှစ်	-4602
▁ဤအရာ	-4603
ခဲ့သော	-4604
ခြင်း၌	-4605
မရှိဟု	-4606
ရောင်း	-4607
လေးပါး	-4608
အဘို့၊	-4609
▁ခါနနိ	-4610
▁ခံရ၏။	-4611
▁စေသော	-4612
▁တညဉ့်	-4613
▁ထိမိ၍	-4614
▁ဗာလက်	-4615
▁မပြုရ	-4616
▁လှံတံ	-4617
▁အာဗနာ	-4618
စဉ်မြေး	-4619
တတ်ပါ၏။	-4620
ပြုလေ၏။	-4621
ဗျာဒိတ်	-4622
မှူးမတ်	-4623
▁ငါရွေး	-4624
▁ယစ်မူး	-4625
▁ယေဇရေလ	-4626
ငိုကြွေး	-4627
တို့ကို၊	-4628
▁မောရှေ၏	-4629
▁မြက်ပင်	-4630
▁အဘယ်အရာ	-4631
▁အမွေခံရ	-4632
တပည့်တော်	-4633
ရှိသတည်း။	-4634
သောမိန်းမ	-4635
ိညာဉ်တရား	-4636
▁ငါသည်သင်	-4637
▁ဇာတိပကတိ	-4638
▁ရည်မှတ်၍	-4639
▁သွားလေ၏။	-4640
ပေါင်းဘော်	-4641
မ္မအမှုကို	-4642
▁ကြိုးစား၍	-4643
▁ငါပေးမည်။	-4644
▁ဒါဝိဒ်အား	-4645
ကြသည်ဖြစ်၍၊	-4646
ကြသော်လည်း၊	-4647
အခွင့်နှင့်	-4648
▁တိုက်တွန်း	-4649
▁ဖိလိတ္တိလူ	-4650
▁အနှံ့အပြား	-4651
စေတော်မူပြီ။	-4652
▁ကျွန်ုပ်သည်	-4653
▁ပြည့်စုံသော	-4654
▁အဘယ်သို့သော	-4655
▁အသက်ရှင်သော	-4656
▁ကယ်တင်တော်မူ	-4657
▁ဘိုးဘေးတို့၏	-4658
▁ရှောလမုန်သည်	-4659
▁အကျွန်ုပ်အား	-4660
▁သူတို့ရှေ့မှာ	-4661
သောကြောင့်၎င်း၊	-4662
▁ဣသရေလအမျိုးသည်	-4663
နှစ်ယောက်တို့သည်	-4664
▁မှာထားတော်မူသည်	-4665
ဇဗ	-4666
ဲ၊	-4667
ဖွေ	-4668
မိ၊	-4669
ယခု	-4670
ရူး	-4671
▁ကေ	-4672
▁ဆူ	-4673
▁မန	-4674
▁ဩဗ	-4675
ကိမ်	-4676
ခံရာ	-4677
ချေး	-4678
သရဖူ	-4679
အငယ်	-4680
အနက်	-4681
▁ဗာန	-4682
▁မသေ	-4683
▁ရာမ	-4684
▁ဝေဒ	-4685
▁ဟာဇ	-4686
ကုလား	-4687
စာရေး	-4688
တောက်	-4689
ဒေါနိ	-4690
ပူပန်	-4691
လမ်း၌	-4692
အရိပ်	-4693
▁ငါပြ	-4694
▁စွန်	-4695
▁တွား	-4696
▁အငယ်	-4697
▁ဣသခါ	-4698
▁ဥပမာ	-4699
စာရင်း	-4700
စုံလင်	-4701
ယေရုရှ	-4702
အရောင်	-4703
▁နှင်း	-4704
▁မူသော	-4705
▁အမြစ်	-4706
ခြေရင်း	-4707
စေရမည်။	-4708
▁ကောဟတ်	-4709
▁ငါ၏နာမ	-4710
▁တံခါးဝ	-4711
▁မဟုတ်။	-4712
▁မီးဖို	-4713
▁ယေရှု၏	-4714
▁လော့ဟု	-4715
▁လွှင့်	-4716
ခပ်သိမ်း	-4717
တပါးတည်း	-4718
နှုတ်ဆက်	-4719
ပြုမူသော	-4720
▁ထိခိုက်	-4721
▁နေ့ညဉ့်	-4722
▁မီးခိုး	-4723
▁ရှိပါ၏။	-4724
▁လက်သို့	-4725
တို့တွင်၊	-4726
ဘို့တဘို့	-4727
မြင်လျှင်	-4728
ရမည်နည်း။	-4729
▁တိုးပွား	-4730
▁မြေတပြင်	-4731
▁ယဇ်ပုရော	-4732
▁အလိုတော်	-4733
▁အသက်ပျို	-4734
ကြောက်ရွံ့	-4735
စဉ်မြေးဆက်	-4736
သည်နည်းတူ၊	-4737
▁တယောက်မျှ	-4738
▁ပိလတ်မင်း	-4739
▁ယုဒလူတို့	-4740
မိန့်တော်မူ	-4741
သည်ရှိသော်၊	-4742
▁ထိုသို့ပြု	-4743
▁ပလ္လင်တော်	-4744
▁အဲဂုတ္တုလူ	-4745
အပိုင်းအခြား	-4746
▁တန်ခိုးကြီး	-4747
▁တံခါးစောင့်	-4748
▁ရှိတော်မူ၏။	-4749
▁သင့်ရှေ့မှာ	-4750
▁စစ်ကြောစီရင်	-4751
▁ကျောက်ခဲနှင့်	-4752
▁ဗိုလ်ခြေအရှင်	-4753
▁သူတပါးတို့သည်	-4754
▁အတိုင်းတိုင်း	-4755
သောသူမည်သည်ကား၊	-4756
▁ပညတ်တော်တို့ကို	-4757
▁အမင်္ဂလာရှိကြ၏။	-4758
ပလ	-4759
ဆပ်	-4760
နှမ	-4761
မလာ	-4762
မာဏ	-4763
ဩမဲ	-4764
္ဌမ	-4765
ငှါး	-4766
စ္ဆာ	-4767
ယောန	-4768
ရှုရ	-4769
သိ၏။	-4770
▁စူး	-4771
▁နာဗ	-4772
▁မလာ	-4773
▁ဟူ၍	-4774
တလုံး	-4775
တော်က	-4776
ဖောက်	-4777
ဘဲမနေ	-4778
မွှေး	-4779
သူငယ်	-4780
ာတော်	-4781
▁ပမာဏ	-4782
▁ပြီ။	-4783
▁ယေဗု	-4784
ကာလကို	-4785
စားသော	-4786
ည်းဖူး	-4787
တကျိပ်	-4788
ဘုရား၏	-4789
ရေတွက်	-4790
အံ့သော	-4791
▁တကား။	-4792
▁တွင်၊	-4793
▁ယောယဒ	-4794
▁ရွှေလ	-4795
▁သာသနာ	-4796
▁အစေခံ	-4797
ကိုးစား	-4798
ကျောင်း	-4799
စွဲလမ်း	-4800
ရှောင်၍	-4801
▁ဆက်ကပ်	-4802
▁တကိုယ်	-4803
▁ပညာကို	-4804
▁လူပျို	-4805
▁အင်္ဂါ	-4806
ခိုင်ခံ့	-4807
ချဉ်းကပ်	-4808
မေးမြန်း	-4809
လက်ဖြင့်	-4810
လွင်ပြင်	-4811
▁ခုတ်လှဲ	-4812
▁ထိုစကား	-4813
▁ယခုမှစ၍	-4814
နှစ်ထောင်	-4815
ပြုတော်မူ	-4816
လျက်နှင့်	-4817
▁ငါ့အမျက်	-4818
▁စကားပြော	-4819
▁ဆိုလျက်၊	-4820
▁ညှိုးငယ်	-4821
▁တဖန်တုံ၊	-4822
▁တရားစရပ်	-4823
▁ထိတ်လန့်	-4824
▁နွားသငယ်	-4825
▁နှိပ်စက်	-4826
▁မြင်လေ၏။	-4827
▁လူအချို့	-4828
▁လျှော်တေ	-4829
▁အိမ်သို့	-4830
▁ပုရောဟိတ်	-4831
▁ဖါရောမင်း	-4832
▁မအောက်မေ့	-4833
▁မှည့်လေ၏။	-4834
▁ရောက်လေ၏။	-4835
▁နက်ဖြန်နေ့	-4836
▁သောကြောင့်	-4837
▁အံ့ဘွယ်သော	-4838
▁ငါတို့နှင့်	-4839
▁နံနက်စောစော	-4840
▁မည်အကြောင်း	-4841
▁မရဏာနိုင်ငံ	-4842
▁သားယောက်ျား	-4843
▁အပေါင်းတို့	-4844
▁တညီတညွတ်တည်း	-4845
▁တောင်မျက်နှာ	-4846
▁ဒါဝိဒ်ကလည်း၊	-4847
▁လျှောက်ဆို၏။	-4848
▁အဆွေခင်ပွန်း	-4849
▁ယခုတိုင်အောင်	-4850
▁ထာဝရဘုရားဖြစ်၏။	-4851
ဖါ	-4852
ရ၍	-4853
ကြ၊	-4854
ဇာ၊	-4855
ပလွ	-4856
မပါ	-4857
လပ်	-4858
ကွန်	-4859
လုယူ	-4860
လှ၏။	-4861
အရှု	-4862
▁ကေဒ	-4863
▁ဇော	-4864
▁နာဇ	-4865
▁လှဲ	-4866
ခွန်း	-4867
ငြိုး	-4868
စေမည်	-4869
မှီဝဲ	-4870
ယောင်	-4871
အဘသည်	-4872
အရပ်၊	-4873
အလုပ်	-4874
▁ကောရ	-4875
▁ခွေး	-4876
▁မသတ်	-4877
▁မြည်	-4878
▁အခက်	-4879
▁အုတ်	-4880
ရောက်၍	-4881
ရှေ့မှ	-4882
သင်သည်	-4883
▁ချင်း	-4884
▁ချဉ်း	-4885
▁တနှစ်	-4886
▁တပည့်	-4887
▁ပြေး၍	-4888
▁ရမည်။	-4889
▁အပျို	-4890
▁အိမ်၌	-4891
စစ်သူရဲ	-4892
ဝါကြွား	-4893
▁တင်ထား	-4894
▁ထောက်၍	-4895
▁မကျင့်	-4896
▁ရှိလော	-4897
▁သစ်သား	-4898
▁ခါးပန်း	-4899
▁တသောင်း	-4900
▁ပယ်ဖြတ်	-4901
▁ပြည်ကို	-4902
▁မစောင့်	-4903
▁ရူပါရုံ	-4904
▁ဝိုင်း၍	-4905
▁သားဘွား	-4906
▁အလောင်း	-4907
ကြနှင့်ဟု	-4908
▁ငါတို့အဘ	-4909
▁ဆိုင်သော	-4910
▁ဖိလိပ္ပု	-4911
▁ရောက်သော	-4912
▁ရှေ့တော်	-4913
▁အရပ်သို့	-4914
▁ဆင်းရဲသား	-4915
▁တိုင်တည်၍	-4916
▁နှစ်သိမ့်	-4917
▁မောရှေကို	-4918
▁လူများကို	-4919
▁သွားလော့။	-4920
စေတော်မူသော	-4921
ိုင်းတံပိုး	-4922
▁မြေကြီးသား	-4923
ကောင်တို့ကို	-4924
▁ခရစ်တော်ကို	-4925
▁ခွန်အားကြီး	-4926
▁အပြစ်မပါသော	-4927
အားဖြင့်၎င်း၊	-4928
▁အပေါင်းအဘော်	-4929
▁ကျွန်တော်တို့	-4930
▁ညဦးတိုင်အောင်	-4931
▁မြောက်မျက်နှာ	-4932
▁အရှင်ထာဝရဘုရား၏	-4933
ဆွ	-4934
က်ယ	-4935
ညီ၊	-4936
ရယ်	-4937
ရိယ	-4938
ရ၍၊	-4939
ကျယ်	-4940
ခြည်	-4941
ထဲမှ	-4942
ရေး၍	-4943
သိမ်	-4944
▁ကပ်	-4945
▁စိရ	-4946
▁တီး	-4947
▁တူး	-4948
▁ဗေလ	-4949
▁အာဣ	-4950
တော်၊	-4951
ပြေး၍	-4952
မတွေ့	-4953
လက်ခံ	-4954
သာမက၊	-4955
ဥပုသ်	-4956
▁ယုတ်	-4957
▁သောအ	-4958
▁အရည်	-4959
▁ဧကန်	-4960
င်မြန်	-4961
တန်ဆာ၊	-4962
တမျိုး	-4963
နားလည်	-4964
နောက်၌	-4965
အတွက်၊	-4966
▁မရှိ။	-4967
▁မိဇပါ	-4968
▁ယေရှဲ	-4969
▁သက္ကာ	-4970
▁သင့်အ	-4971
▁ဟေရှဘ	-4972
▁အမြတ်	-4973
စပ်ကြား	-4974
ပြောဆို	-4975
မြို့သူ	-4976
လက်ထက်၌	-4977
သင်္ဘော	-4978
ို့ဝှက်	-4979
▁တကောင်	-4980
▁တထောင်	-4981
▁မေရာရိ	-4982
▁မြစ်ရေ	-4983
▁ယေဗုသိ	-4984
▁ဝတ်ဆင်	-4985
▁အရာရာ၌	-4986
တန်ဆာကို	-4987
မိလျှင်၊	-4988
ရှေ့သို့	-4989
▁ခေါ်ခဲ့	-4990
▁ချီလွှဲ	-4991
▁ဆိုးသော	-4992
▁ပြီးစီး	-4993
▁မိုဃ်းမ	-4994
▁လျောင်း	-4995
▁သင်၏သား	-4996
ကြည့်အရှု	-4997
ရာတို့ကို	-4998
▁လက်နှင့်	-4999
▁အရေအတွက်	-5000
ပေါင်းကား၊	-5001
သီချင်းဆို	-5002
▁နန်းတော်၌	-5003
▁မစင်ကြယ်။	-5004
▁လှည့်ဖြား	-5005
▁သတို့သမီး	-5006
▁အခွင့်ရှိ	-5007
ခြင်းမေတ္တာ	-5008
ဆီသို့ရောက်	-5009
▁ငါ၏လူမျိုး	-5010
▁လက်တော်ကို	-5011
▁သူနှင့်အတူ	-5012
▁အမျက်ထွက်၍	-5013
ခြင်းရှိကြ၏။	-5014
▁စိတ်နှလုံးအ	-5015
▁အရပ်ရပ်သို့	-5016
▁အသက်နှစ်ဆယ်	-5017
▁ကျွန်တော်သည်	-5018
▁ဘုရားသခင်အား	-5019
▁မင်္ဂလာဆောင်	-5020
▁မြေကြီးတပြင်	-5021
တော်မူပါစေသော။	-5022
ယေရုရှလင်မြို့	-5023
▁ယဇ်ပုရောဟိတ်၊	-5024
▁မျက်နှာတော်ကို	-5025
ဂဲ	-5026
ဇေ	-5027
နု	-5028
ူစ	-5029
တခါ	-5030
ထွာ	-5031
ဟု၊	-5032
▁ဘဲ	-5033
နှင်	-5034
ရှာ၍	-5035
လော၊	-5036
▁စွာ	-5037
▁တိမ	-5038
▁ဘုံ	-5039
ကုန်း	-5040
မိသည်	-5041
မြည်း	-5042
ယောရှ	-5043
လေးရာ	-5044
လှံတံ	-5045
▁လျှာ	-5046
▁သိနာ	-5047
▁ဟေလသ	-5048
ပတ်လည်	-5049
လူများ	-5050
▁ကြော်	-5051
▁ထိန်း	-5052
▁ပြု၍၊	-5053
▁မွန်း	-5054
▁ရေငတ်	-5055
ခရစ်ကို	-5056
စုံစမ်း	-5057
တံခါးဝ၌	-5058
ပါလျက်၊	-5059
▁ဂိလဂါလ	-5060
▁စောစော	-5061
▁မီးလျှ	-5062
▁လိမ္မာ	-5063
▁သေလွန်	-5064
▁အာမင်။	-5065
မြွက်ဆို	-5066
ရကြမည်ဟု	-5067
▁ကျန်းမာ	-5068
▁စပါးကို	-5069
▁တရှောက်	-5070
▁နှုတ်ယူ	-5071
▁ပတ်လည်၌	-5072
▁ဖြစ်သော	-5073
▁မာရ်နတ်	-5074
▁အမျိုး၏	-5075
▁အိမ်ကို	-5076
သူအိမ်သား	-5077
▁ပြင်သို့	-5078
▁မထင်ရှား	-5079
▁သင်းဖွဲ့	-5080
ကြိုးနှင့်	-5081
ကြီးစွာသော	-5082
များစွာသော	-5083
အလုံးအရင်း	-5084
▁ကြည့်ရှု၍	-5085
▁ငါခန့်ထား	-5086
▁တံဆိပ်ခတ်	-5087
▁လျောက်ပတ်	-5088
▁သူတပါးကို	-5089
▁အကျင့်ကို	-5090
▁အခွင့်ပေး	-5091
▁အဘယ်သူကို	-5092
▁အမျိုးကို	-5093
တော်မူမည်ဟု	-5094
အဘယ်ကြောင့်	-5095
▁ချမ်းသာပေး	-5096
▁ငါဆောင်ခဲ့	-5097
▁ဆောင်ခဲ့၍၊	-5098
▁ထိုလူမျိုး	-5099
▁ထိုသူတို့၏	-5100
▁အခါမလည်သော	-5101
သောအားဖြင့်၊	-5102
▁ပညတ်တရားကို	-5103
▁ဗက်လင်မြို့	-5104
▁ရှင်ဘုရင်က၊	-5105
စိတ်နှလုံးကို	-5106
တို့နှင့်တကွ၊	-5107
▁ကမ္ဘာအဆက်ဆက်	-5108
▁ငါ့နောက်သို့	-5109
▁ထိုသိတင်းကို	-5110
▁လျှောက်သော်၊	-5111
▁ဗာဗုလုန်မြို့	-5112
▁အမင်္ဂလာရှိ၏။	-5113
ဆု	-5114
န၊	-5115
ဗေ	-5116
ဘ၊	-5117
မု	-5118
ဥ္	-5119
စ်မ	-5120
လဲ၍	-5121
သေ၍	-5122
အသံ	-5123
▁ဒိ	-5124
▁ဗိ	-5125
ကြွ၍	-5126
ဆုတ်	-5127
အဆွေ	-5128
▁ဇေရ	-5129
▁ဌာန	-5130
▁မေရ	-5131
▁လှူ	-5132
က်ယယ်	-5133
ဇိသည်	-5134
ပွဲခံ	-5135
မပြုရ	-5136
အဖွဲ့	-5137
အိုင်	-5138
ာရိမ်	-5139
▁ကုရှ	-5140
▁ဗေနာ	-5141
▁ယဟော	-5142
▁အလှူ	-5143
စီးသော	-5144
စုံဘက်	-5145
တည်သော	-5146
နေလေ၏။	-5147
နှမြော	-5148
မြေသည်	-5149
ရာတွင်	-5150
သည်ကား	-5151
အနွှယ်	-5152
အာဗြဟံ	-5153
▁ကာလနာ	-5154
▁ကြားရ	-5155
▁ဖြန်း	-5156
▁မိမိ၌	-5157
▁မုယော	-5158
▁လိမ်း	-5159
ခြားသော	-5160
နားသို့	-5161
နိုင်ပါ	-5162
နွယ်ပင်	-5163
ပြည်သည်	-5164
များသည်	-5165
များသော	-5166
ရသနည်း။	-5167
ရာဇဝင်၌	-5168
ရဲတိုက်	-5169
ရှုတ်ချ	-5170
သဏ္ဌာန်	-5171
▁ခြင်း၊	-5172
▁လက်ထက်	-5173
▁လုပ်၍၊	-5174
ခုနစ်ဆယ်	-5175
ချိုင့်၌	-5176
ညည်းတွား	-5177
အိမ်တော်	-5178
▁ကိုလည်း	-5179
▁ငါနှုတ်	-5180
▁စွန်ပလွ	-5181
▁ပျားရည်	-5182
▁ဗတ္တိဇံ	-5183
▁ရောနှော	-5184
စေကြလော့။	-5185
တို့ဖြင့်	-5186
ပေါ်ထွန်း	-5187
မှားယွင်း	-5188
လိုလျှင်၊	-5189
▁ကယ်မသနား	-5190
▁ချိုးဖဲ့	-5191
▁ငါ့ကိုယ်	-5192
▁တွေ့မြင်	-5193
တယောက်တည်း	-5194
မုန်တိုင်း	-5195
ရာအရပ်သို့	-5196
▁တဲတော်ကို	-5197
▁မြို့သို့	-5198
▁ယောဟန်သည်	-5199
▁လုပ်ရမည်။	-5200
ချက်တို့ကို	-5201
တရားတော်ကို	-5202
▁ငါပေးမည်ဟု	-5203
▁ညှိုးနွမ်း	-5204
▁သားတို့ကို	-5205
ပိုင်းပိုင်း	-5206
သောသူကဲ့သို့	-5207
အများတို့သည်	-5208
▁ကြာမြင့်စွာ	-5209
▁ဇိအုန်တောင်	-5210
▁အရှင်ဘုရား၊	-5211
ကြပါလိမ့်မည်။	-5212
▁ထိုမိန်းမကို	-5213
▁သို့ဖြစ်လျှင်	-5214
▁ငါတို့ဘုရားသခင်	-5215
ကူ	-5216
ဆူ	-5217
မီ	-5218
ဣန	-5219
ကဲ့	-5220
ထရံ	-5221
ထ၍၊	-5222
ပ်၊	-5223
ဘတ်	-5224
ယက်	-5225
ုံ့	-5226
▁တိ	-5227
စသတ်	-5228
နိုး	-5229
ဗက္က	-5230
ဘိတ်	-5231
ရက်၊	-5232
ရွတ်	-5233
ရှုံ	-5234
လုန်	-5235
ဥ္စမ	-5236
ေဒလိ	-5237
▁ကာမ	-5238
▁တစု	-5239
▁ဖြူ	-5240
▁သန်	-5241
▁အကာ	-5242
နိစ္စ	-5243
ပါပြီ	-5244
လတွင်	-5245
လွန်၍	-5246
သခင်၊	-5247
အမြတ်	-5248
အရှေ့	-5249
▁ကာလ၌	-5250
▁တဝက်	-5251
▁ဖွဲ့	-5252
▁ဘို့	-5253
▁လောတ	-5254
▁သာယာ	-5255
ကြစဉ်၊	-5256
ကြွယ်ဝ	-5257
တပ်မက်	-5258
ရံတော်	-5259
ရှောလု	-5260
လာကြ၏။	-5261
▁စိမ်း	-5262
▁တနည်း	-5263
▁ပြုကြ	-5264
▁မထွက်	-5265
▁မှုတ်	-5266
▁သားရေ	-5267
▁သေဘေး	-5268
▁အာရှရ	-5269
ကြီးကို	-5270
ခွန်အား	-5271
ပြောသော	-5272
မ္မအမှု	-5273
အမျိုး၌	-5274
အသရေကို	-5275
ေလနှင့်	-5276
▁နှမြော	-5277
▁မှီခို	-5278
▁ရှာကြံ	-5279
နောက်မှ၊	-5280
ပေးလိုက်	-5281
ဘုရားသည်	-5282
ရှိလျှင်	-5283
အရေအတွက်	-5284
▁မိမိလက်	-5285
▁ရေချိုး	-5286
▁လူတို့၏	-5287
▁လူမိုက်	-5288
▁ဝစွာစား	-5289
▁အဘယ်သူ၏	-5290
တင်းပေါက်	-5291
တော်မူမည်	-5292
နှစ်ကောင်	-5293
မြို့မှစ၍	-5294
လုံးနှင့်	-5295
အမည်ရှိ၏။	-5296
▁စကားတော်	-5297
▁တွေ့ကြုံ	-5298
▁ထိုမျှမက	-5299
▁မိမိမယား	-5300
▁ယုဒမြို့	-5301
▁ယောယကိမ်	-5302
▁လျင်မြန်	-5303
ခြင်းမရှိ။	-5304
နှစ်စိုးစံ	-5305
ရက်ပတ်လုံး	-5306
အရာတို့ကို	-5307
▁လုပ်ကျွေး	-5308
▁အမည်ဖြင့်	-5309
▁အမှုရောက်	-5310
???????????	-5311
▁ကျွန်တော်မ	-5312
▁ကြောက်လန့်	-5313
▁ကြောင်းကို	-5314
▁စိတ်ဝိညာဉ်	-5315
▁ထောင်ထဲမှာ	-5316
▁ဖုံးလွှမ်း	-5317
▁လျှို့ဝှက်	-5318
ချက်ဟူမူကား၊	-5319
မှဆင်းသက်သော	-5320
အပေါင်းအဘော်	-5321
▁ကယ်တင်ခြင်း	-5322
▁ဂုဏ်တော်ကို	-5323
▁စိုးရိမ်စရာ	-5324
▁နန်းထိုင်၏။	-5325
▁ကျွန်တို့သည်	-5326
▁ပြုတော်မူသော	-5327
▁ဖိလိတ္တိလူတို့	-5328
▁ရှုရိရှင်ဘုရင်	-5329
▁ကိုယ်တော်ကလည်း၊	-5330
▁ရှင်ဘုရင်ကလည်း၊	-5331
တို	-5332
အသေ	-5333
▁ဥပ	-5334
င်းတ	-5335
တက်၍	-5336
ွေးမ	-5337
ွှန်	-5338
▁ဂါသ	-5339
▁ဘီး	-5340
▁လဲ၍	-5341
▁သာမ	-5342
ခံရ၏။	-5343
မလုပ်	-5344
အကြေး	-5345
အရိုး	-5346
ားသော	-5347
တိုက်၍	-5348
နိမိတ်	-5349
ရလိမ့်	-5350
ရောသော	-5351
လိုသော	-5352
အကျင့်	-5353
ိုပျက်	-5354
▁ကိုက်	-5355
▁ကျဉ်း	-5356
▁ဆံပင်	-5357
▁ရှေမာ	-5358
ကျိုင်း	-5359
ခဲ့ပြီး	-5360
လည်ပင်း	-5361
လေပြီဟု	-5362
သက်လုံး	-5363
သာလျှင်	-5364
အတွင်း၌	-5365
▁ဇိဒုန်	-5366
▁ထွက်၍၊	-5367
▁နှင့်။	-5368
▁အဒေါနိ	-5369
▁အပိုင်	-5370
▁အရာရှိ	-5371
စီရင်သော	-5372
ညှိုးငယ်	-5373
တိုးပွား	-5374
နှုတ်ကို	-5375
လန့်ကျင်	-5376
လွန်ကျူး	-5377
လှည့်လည်	-5378
အံ့နည်း။	-5379
▁ငါ့ထံမှ	-5380
▁ပရိယာယ်	-5381
▁ဘေးလွတ်	-5382
▁မိမိကို	-5383
▁အမျိုး၊	-5384
စေလွှတ်၍၊	-5385
တော်မူ၏ဟု	-5386
သောအမျိုး	-5387
▁ကျမ်းစာ၌	-5388
▁ချုပ်ထား	-5389
▁စားရမည်။	-5390
▁စေလွှတ်၍	-5391
▁တရားတွေ့	-5392
▁ဖြစ်လေ၏။	-5393
▁မိမိနေရာ	-5394
▁ရှေးကာလ၌	-5395
▁လမ်းသို့	-5396
▁ဟုတ်မှန်	-5397
ကြသည်တကား။	-5398
ထောင်လွှား	-5399
ပါသည်တကား။	-5400
ရသောအချိန်	-5401
အပေါင်းကို	-5402
▁တောင်ထိပ်	-5403
▁ထိုမျှမက၊	-5404
တော်တို့သည်	-5405
▁စင်ကြယ်သော	-5406
▁တစုံတခုကို	-5407
▁ထာဝရဘုရား၌	-5408
▁နားမထောင်၊	-5409
▁မြို့ထဲမှာ	-5410
▁အကြည့်အရှု	-5411
▁အဘယ်မှာရှိ	-5412
တို့အပေါ်မှာ	-5413
▁နားမထောင်ဘဲ	-5414
▁မင်းကြီးသည်	-5415
▁မြင်သောအခါ၊	-5416
▁မြို့ထဲသို့	-5417
▁အနှစ်လေးဆယ်	-5418
▁အဘယ်သို့ပြု	-5419
ကဲ့သို့ဖြစ်၏။	-5420
လျက်ရှိသည်ကို	-5421
ဝိညာဉ်တော်သည်	-5422
သကဲ့သို့၎င်း၊	-5423
အမျိုးသားတို့	-5424
▁ပြန်ပြောကြ၏။	-5425
▁မိမိအိမ်သို့	-5426
▁ရှိလိမ့်မည်။	-5427
▁အစာခေါင်းပါး	-5428
သောသူတို့နှင့်	-5429
▁လူများတို့ကို	-5430
▁သားစဉ်မြေးဆက်	-5431
▁သို့ပြုလျှင်၊	-5432
▁ယောက်ျားမိန်းမ	-5433
▁ရှင်ဘုရင်နှင့်	-5434
▁အမျိုးမျိုးသော	-5435
▁ဖြစ်ကြလိမ့်မည်။	-5436
ကံ	-5437
ဒ္	-5438
အထ	-5439
ဂါး	-5440
လတ်	-5441
သာ၊	-5442
▁စ၍	-5443
တန်ဆ	-5444
မိတ်	-5445
မြေ၌	-5446
ဝင်း	-5447
သန်၊	-5448
ော့မ	-5449
▁ကြဲ	-5450
▁တဦး	-5451
▁နှမ	-5452
▁ဘူး	-5453
▁မပြ	-5454
▁လူ၏	-5455
စိမ့်	-5456
ဆံပင်	-5457
ဝင်၍၊	-5458
အမှု၌	-5459
အသင်း	-5460
▁ကမ်း	-5461
▁ကိုး	-5462
▁ငါလာ	-5463
▁ပေး၍	-5464
▁ပြတ်	-5465
▁ဗောဇ	-5466
▁အန္တ	-5467
စားစရာ	-5468
ဆီးတား	-5469
တပ်ကို	-5470
ထားကို	-5471
သူ၏သား	-5472
သောသူ၌	-5473
▁တည်၏။	-5474
▁ထုတ်၍	-5475
▁ပဥ္စမ	-5476
▁ပွင့်	-5477
▁ဖြစ်၍	-5478
▁ဘိုးဘ	-5479
▁မွမ်း	-5480
▁ရကြ၏။	-5481
▁ရေသည်	-5482
▁ဟာမတ်	-5483
▁အာခတ်	-5484
ဘမ်းဆီး	-5485
မကောင်း	-5486
မွမ်းမံ	-5487
အလျှင်း	-5488
▁ခုနှစ်	-5489
▁ဇာဒုတ်	-5490
▁နည်းတူ	-5491
▁နေထွက်	-5492
▁မျက်နှ	-5493
▁မှောက်	-5494
▁လေးဆယ်	-5495
▁သင်ပြု	-5496
▁သိကြ၏။	-5497
▁ဤမြို့	-5498
ကိုကိုင်	-5499
ညစ်အကြေး	-5500
နှိပ်စက်	-5501
ပြန်လေ၏။	-5502
ဘဲနေကြ၏။	-5503
မျိုးစေ့	-5504
အပြစ်တင်	-5505
ိမ်းမြား	-5506
▁ခြေနင်း	-5507
▁စစ်ချီ၍	-5508
▁ဆီနှင့်	-5509
▁တင့်တယ်	-5510
▁ပြန်ပေး	-5511
▁ပြောသော	-5512
▁ရွံ့ရှာ	-5513
▁လက်စသတ်	-5514
▁သခင်ကို	-5515
▁အလိုငှါ	-5516
▁ဥာဏ်ပညာ	-5517
ကြည့်ရှု၍	-5518
ခြင်းငှာ၊	-5519
တကောင်ကို	-5520
ဒါဝိဒ်သည်	-5521
ပြည်နှင့်	-5522
မင်းနှင့်	-5523
ရှိတော်မူ	-5524
▁ကျော်စော	-5525
▁ခုနစ်ဆယ်	-5526
▁ငြင်းခုံ	-5527
▁စပါးရိတ်	-5528
▁တံခါးကို	-5529
▁ဘုရားအား	-5530
▁အားလျော့	-5531
နှင့်တူသော	-5532
ယေရှုခရစ်၏	-5533
သားဖြစ်သော	-5534
▁ကျောက်ကို	-5535
▁ငါ့ဆီသို့	-5536
▁ထိုသားကို	-5537
▁ပြည်တန်ဆာ	-5538
▁မိုဃ်းရွာ	-5539
▁မိုဃ်းသီး	-5540
▁ရုပ်တုကို	-5541
▁လွင်ပြင်၌	-5542
တရှောက်လုံး	-5543
ရက်နေ့တွင်၊	-5544
▁ကိုယ်နှင့်	-5545
▁နားထောင်၍၊	-5546
▁ပသခါပွဲကို	-5547
▁အကြွင်းမဲ့	-5548
▁စေခြင်းငှါ၊	-5549
▁ပြုတော်မူ၏။	-5550
▁ယောက်ျားသည်	-5551
▁ကိုယ်တော်၏လူ	-5552
▁နေ့ညဉ့်မပြတ်	-5553
▁ဘုရားတို့ကို	-5554
▁မင်္ဂလာရှိ၏။	-5555
▁မနာရှေအမျိုး	-5556
▁အဘယ်မျှလောက်	-5557
▁ခရီးဦးကြိုပြု	-5558
▁မတရားသောသူသည်	-5559
▁သူ၏သားတို့သည်	-5560
▁အဘယ်သို့နည်း။	-5561
▁ခံရကြလိမ့်မည်။	-5562
▁ဒါဝိဒ်မင်းကြီး	-5563
▁သိရကြလိမ့်မည်။	-5564
▁အိုဣသရေလအမျိုး၊	-5565
ဇေဒ	-5566
လှူ	-5567
ူစူ	-5568
န္တု	-5569
ယ်လှ	-5570
လေဝိ	-5571
လွယ်	-5572
သည်း	-5573
▁ကွာ	-5574
▁နူး	-5575
▁ပါး	-5576
▁ဗာရ	-5577
▁မာက	-5578
▁မေဒ	-5579
▁လို	-5580
ညှင်း	-5581
တည်၏။	-5582
တလင်း	-5583
တို့က	-5584
ယူသော	-5585
▁ခန်း	-5586
▁ချေး	-5587
▁ရွေ့	-5588
▁အားရ	-5589
ထုံးစံ	-5590
ပညာရှိ	-5591
လတံ့ဟု	-5592
သစ်သား	-5593
သိကြ၏။	-5594
▁ကာလက်	-5595
▁ကြိမ်	-5596
▁ငါမှာ	-5597
▁တာရှု	-5598
▁နာမည်	-5599
▁နေရစ်	-5600
▁ပေရသိ	-5601
▁မကုန်	-5602
▁ဟာမန်	-5603
▁အကယ်၍	-5604
ရောက်၍၊	-5605
ော့မော့	-5606
▁မချဉ်း	-5607
▁မီးကို	-5608
▁လာကြ၏။	-5609
▁လှည့်၍	-5610
▁သူဖြစ်	-5611
▁သူ့အား	-5612
▁သောသူ၊	-5613
▁အကျဉ်း	-5614
▁အကျိန်	-5615
ကြိုးကို	-5616
သည်သာမက၊	-5617
▁စူးစမ်း	-5618
▁တဆေးမဲ့	-5619
▁ပြက်ယယ်	-5620
▁ဖြစ်စေ၊	-5621
▁မွမ်းမံ	-5622
▁ယောက္ခမ	-5623
▁လင်ပန်း	-5624
▁ဤမည်သော	-5625
▁ဦးညွှတ်	-5626
▁ဧလိယသည်	-5627
စေပြီးမှ၊	-5628
မြို့နယ်၊	-5629
သောအသံကို	-5630
ိမင်းကြီး	-5631
▁ကြီးပွား	-5632
▁စပ်ဆိုင်	-5633
▁တသက်လုံး	-5634
▁ပြေးကြ၏။	-5635
▁ရွေးချယ်	-5636
▁အကြံအစည်	-5637
▁အရပ်ရပ်၌	-5638
▁အလင်းကို	-5639
▁အံ့ဩဘွယ်	-5640
ဖြစ်စေမည်။	-5641
ဘုရားသခင့်	-5642
သောအကြံကို	-5643
အမျိုးတွင်	-5644
▁ကျောက်ကပ်	-5645
▁ကျွန်မသည်	-5646
▁ခုနစ်နှစ်	-5647
▁ချဉ်းကပ်၍	-5648
▁နောက်ဆုံး	-5649
▁သစ္စာပျက်	-5650
▁သုံးကြိမ်	-5651
▁အလွန်ကြီး	-5652
▁အာဗြဟံသည်	-5653
▁ဧကန်အမှန်	-5654
▁ကောင်းမြတ်	-5655
▁တွားတတ်သော	-5656
▁ထိုသခင်သည်	-5657
▁ထိုအမှုအရာ	-5658
▁မည်သည်ကား၊	-5659
▁လူတို့တွင်	-5660
ခြင်းတို့ကို	-5661
စကားဟူမူကား၊	-5662
တို့သည်လည်း၊	-5663
လိမ့်မည်လော။	-5664
▁စီရင်တော်မူ	-5665
▁ပြစ်မှားသော	-5666
▁ဖာရောဘုရင်၏	-5667
▁ဘိုးဘေးတို့	-5668
▁အသက်ပျိုသော	-5669
ခြင်းနှင့်တကွ	-5670
မင်းကြီးတပါး၊	-5671
သည်မှန်လျှင်၊	-5672
▁ရှင်ဘုရင်အား	-5673
ရှိသည်အတိုင်း၊	-5674
အရပ်မှပြောင်း၍	-5675
▁တောင်ပေါ်သို့	-5676
▁မိမိလူတို့ကို	-5677
▁ရှင်ဘုရင်အရာ၌	-5678
▁ငါ့ဆီသို့ရောက်	-5679
▁ဗျာဒိတ်တော်ကို	-5680
လူအပေါင်းတို့သည်	-5681
▁ကယ်တင်ခြင်းသို့	-5682
▁ညှဉ်းဆဲခြင်းကို	-5683
▁ရေးထားလျက်ရှိ၏။	-5684
ဂိ	-5685
ဒ်၊	-5686
အာမ	-5687
▁ကရ	-5688
▁မမ	-5689
စဖူး	-5690
ထုပ်	-5691
ဒေရှ	-5692
ဒေါသ	-5693
နာရီ	-5694
နားမ	-5695
ယွာဘ	-5696
လန်း	-5697
အံ့။	-5698
ိလခိ	-5699
▁ထရံ	-5700
▁ဖိန	-5701
က္ခရာ	-5702
င်းရိ	-5703
တို့အ	-5704
တ်ကို	-5705
နံ့သာ	-5706
ပိုက်	-5707
ဖြန့်	-5708
မပြု၊	-5709
▁ခင်း	-5710
▁နုန်	-5711
▁ပိုး	-5712
▁မနာလ	-5713
▁မိတ်	-5714
▁ရှေဘ	-5715
▁သွန်	-5716
▁ဟင်း	-5717
ကြစို့	-5718
စေပြီ။	-5719
တွင်း၌	-5720
ပြန်လာ	-5721
အချည်း	-5722
အနောက်	-5723
ဦးချို	-5724
▁ကြည်ည	-5725
▁လောက်	-5726
▁အခွက်	-5727
▁အလယ်၌	-5728
ငါးနှစ်	-5729
ပြားကို	-5730
ယှဉ်သော	-5731
ရကြပြီ။	-5732
သက်သေခံ	-5733
▁ကိုယ်၌	-5734
▁ထံသို့	-5735
▁ဖြစ်ကြ	-5736
▁လမ်းပြ	-5737
▁ဝတ်လုံ	-5738
▁သွား၏။	-5739
▁အနိစ္စ	-5740
▁အပ်ပေး	-5741
ကိုင်သော	-5742
ကျင့်သော	-5743
ကြိုးစား	-5744
စေလွှတ်၍	-5745
တဘက်သို့	-5746
နောက်မှာ	-5747
ဘူးသလော။	-5748
အနီးသို့	-5749
အသီးအနှံ	-5750
▁စိတ်ရှိ	-5751
▁ပေးကြ၏။	-5752
▁ဖိလိတ္တ	-5753
▁မီးလျှံ	-5754
▁လယ်လုပ်	-5755
▁လုံခြုံ	-5756
▁အင်္ကျီ	-5757
▁အမှုသည်	-5758
▁အာရုန်၏	-5759
ကြားလျှင်	-5760
ဖြစ်ရမည်။	-5761
လည်းရှိ၏။	-5762
လျက်နေသော	-5763
သောအရာသည်	-5764
▁ကိုယ်ဝန်	-5765
▁ဆုံးဖြတ်	-5766
▁တဆယ်နှစ်	-5767
▁တပါးတည်း	-5768
▁တိုးပွါး	-5769
▁မမှန်သော	-5770
▁ယဇ်ကောင်	-5771
▁ရိုက်ထား	-5772
ကိုယ်တိုင်	-5773
ကျန်ကြွင်း	-5774
တစုံတခုကို	-5775
ရံတော်မှူး	-5776
ရှင်ဘုရင်၏	-5777
ရှိသမျှသော	-5778
လိုသောငှါ၊	-5779
▁ငါဟောပြော	-5780
▁ဖောက်ပြန်	-5781
▁မတတ်နိုင်	-5782
▁ရွှေနှင့်	-5783
▁သင့်ကိုငါ	-5784
▁သင့်အဘို့	-5785
▁သည်ဖြစ်၍၊	-5786
▁သနားခြင်း	-5787
▁အပေါ်သို့	-5788
ခဏခြင်းတွင်	-5789
စပ်ဆိုင်သော	-5790
▁ထိုသို့ဆို	-5791
▁ထောင်လွှား	-5792
▁နန်းထိုင်၍	-5793
▁မိန့်မြွက်	-5794
▁မြေကြီးသည်	-5795
▁သိတင်းကြား	-5796
▁အပြစ်စီရင်	-5797
စကားအားဖြင့်	-5798
မြို့တို့ကို	-5799
▁ဘွားမြင်သော	-5800
▁အဘယ်သူနည်း။	-5801
▁ဆောင်ခဲ့ကြ၏။	-5802
▁ရွှင်လန်းစွာ	-5803
▁သခင်ဘုရားသည်	-5804
ရှိသောကြောင့်၊	-5805
▁ညီအစ်ကိုချင်း	-5806
▁တော်မူသည်ကား၊	-5807
▁ဘုရားသခင်ဖြစ်	-5808
▁အမှုအရာကြွင်း	-5809
▁ကောင်းကင်နှင့်	-5810
▁ဖြစ်ကြောင်းကို	-5811
▁မီးဖြင့်ပြုသော	-5812
▁လေဝိသားတို့ကို	-5813
▁သင်၏အမျိုးအနွယ်	-5814
ြိ	-5815
စီ၊	-5816
ဇေရ	-5817
နော	-5818
သံ၊	-5819
ဣဇာ	-5820
▁ကူ	-5821
စေရ။	-5822
ဆရာ၊	-5823
ဖြို	-5824
ယသား	-5825
ရွယ်	-5826
လသည်	-5827
ေဒေါ	-5828
▁နယ်	-5829
▁ပျံ	-5830
▁လေ့	-5831
ပေတရု	-5832
လ္လုံ	-5833
သခင်၏	-5834
ဟာဒဒ်	-5835
ဟုဆို	-5836
▁ကြို	-5837
▁ငှါ၊	-5838
▁နူနာ	-5839
▁ဘွဲ့	-5840
▁မထင်	-5841
▁မပယ်	-5842
▁ရှည်	-5843
▁ဝင်း	-5844
▁သား၊	-5845
စားပွဲ	-5846
ဖြစ်ကြ	-5847
မှစသော	-5848
ရာဖြစ်	-5849
ရေးထား	-5850
▁ငါတည်	-5851
▁ဇေဒကိ	-5852
▁လျော်	-5853
▁လှည်း	-5854
▁ဤအိမ်	-5855
ကုလားကာ	-5856
ထားလေ၏။	-5857
ရလျှင်၊	-5858
ရိုးကို	-5859
သည်ထက်၊	-5860
သောအရာ၊	-5861
သံနှင့်	-5862
ဦးမည်ဟု	-5863
▁ငါတွေ့	-5864
▁ဆိတ်ညံ	-5865
▁တတ်သော	-5866
▁နေလေ၏။	-5867
▁ပေါ်လာ	-5868
▁လှောင်	-5869
▁သူကြီး	-5870
▁သေကြ၏။	-5871
▁သွားလာ	-5872
▁အပြည့်	-5873
▁အမဲသား	-5874
ခေါ်ဝေါ်	-5875
တို့အား၊	-5876
နေသည်ကို	-5877
နှစ်ဆယ်၊	-5878
မြင့်သော	-5879
ရောက်သော	-5880
သက်သေကို	-5881
သည်နှင့်	-5882
သောသူငယ်	-5883
ောင်ခြည်	-5884
▁ကာမဂုဏ်	-5885
▁ငါ့ကိုမ	-5886
▁တောင့်တ	-5887
▁ထောက်၍၊	-5888
▁မင်းသား	-5889
▁ရှောလု၏	-5890
▁လမ်းကို	-5891
▁အမိဝမ်း	-5892
▁အလျောက်	-5893
▁အသစ်သော	-5894
စေနှင့်ဟု	-5895
တရားနှင့်	-5896
နေကြလော့။	-5897
မှန်လျှင်	-5898
အမျက်ထွက်	-5899
အိပ်ပျော်	-5900
▁ငါကြား၏။	-5901
▁စိတ်သဘော	-5902
▁ပေါလုကို	-5903
▁လာသတည်း။	-5904
▁သင့်လက်၌	-5905
▁ဦးခေါင်း	-5906
ချည်နှောင်	-5907
နှစ်ကောင်၊	-5908
ပင်တို့ကို	-5909
ဖြစ်လျှင်၊	-5910
လည်းဖြစ်၏။	-5911
▁ငါပြုမည်။	-5912
▁ထိုပလ္လင်	-5913
▁ပညာရှိသော	-5914
▁မပြစ်မှား	-5915
▁ရွှေလင်းတ	-5916
▁အမဲသားကို	-5917
တော်မူလျက်၊	-5918
ဘွားမြင်သော	-5919
မြို့၌နေသော	-5920
သဖြင့်၎င်း၊	-5921
အစွမ်းသတ္တိ	-5922
▁နေ့အချိန်၌	-5923
▁ရွံရှာဘွယ်	-5924
▁သို့မဟုတ်၊	-5925
▁အမည်ရှိသော	-5926
▁အမျိုးသား၊	-5927
ခြင်းကို၎င်း	-5928
ထားတော်မူသော	-5929
နှင့်အလျောက်	-5930
ရှိလိမ့်မည်။	-5931
▁ကိုးကွယ်သော	-5932
▁ငါတို့အဘို့	-5933
▁တဲတော်တံခါး	-5934
▁ထိုမြို့ကို	-5935
▁ဒုက္ခဆင်းရဲ	-5936
▁ဒုစရိုက်ဖြေ	-5937
▁မျိုးစေ့ကို	-5938
▁ရောက်သောအခါ	-5939
▁အစဉ်အတိုင်း	-5940
▁အသီးအနှံကို	-5941
ကဲ့သို့ဖြစ်၍၊	-5942
စိတ်နှလုံးသည်	-5943
စေမည်အကြောင်း	-5944
▁စကားဟူမူကား၊	-5945
▁ဆုတောင်းပဌနာ	-5946
▁ဘုန်းတန်ခိုး	-5947
▁အဘယ်သူကိုမျှ	-5948
ဆိုသည်အတိုင်း၊	-5949
▁ကောင်းမွန်စွာ	-5950
▁တဖန်ထာဝရဘုရား၏	-5951
▁ယော်ဒန်မြစ်ကို	-5952
▁လျှောက်ကြသော်၊	-5953
▁အကျွန်ုပ်နှင့်	-5954
ဖျ	-5955
တံ့	-5956
မာန	-5957
ယို	-5958
သိ။	-5959
ာလံ	-5960
▁ကု	-5961
▁ခေ	-5962
▁ဧဒ	-5963
နဒပ်	-5964
ပြီ၊	-5965
မစား	-5966
မဆို	-5967
မြက်	-5968
အကန်	-5969
ိုလဲ	-5970
ျာသာ	-5971
▁ခပ်	-5972
▁မယူ	-5973
▁ဝက်	-5974
▁သူ၊	-5975
▁ဩဇိ	-5976
ကြီး၊	-5977
ခေါင်	-5978
ဆန့်၍	-5979
တဘက်၊	-5980
ဖလား၊	-5981
ဘို့၊	-5982
လွင့်	-5983
သံသည်	-5984
အဘိုး	-5985
ွှေရု	-5986
▁ကဲသာ	-5987
▁ကျော	-5988
▁ခြုံ	-5989
▁စား၍	-5990
▁နဂါး	-5991
▁နမ်း	-5992
▁နေ၍၊	-5993
▁မဆို	-5994
▁ရုပ်	-5995
▁ဩဝါဒ	-5996
ကာလသည်	-5997
ကြလော့	-5998
လှည့်၍	-5999
သူ့ကို	-6000
ာတိုက်	-6001
ော်ကား	-6002
▁ငါပယ်	-6003
▁ထူထပ်	-6004
▁ပခုံး	-6005
▁ပါသော	-6006
▁ပေါင်	-6007
▁ပေး၍၊	-6008
▁ပေး၏။	-6009
▁လုယက်	-6010
▁လေကို	-6011
▁အထုံး	-6012
▁ဤပညတ်	-6013
ဆိုလေ၏။	-6014
နှစ်ဘက်	-6015
ပါလေစေ။	-6016
ဖွဲ့သော	-6017
ရောက်လာ	-6018
ရှိသော်	-6019
လူတို့၏	-6020
ဦးလော့။	-6021
▁ကာဒေရှ	-6022
▁ကြပြီ။	-6023
▁စေမည်။	-6024
▁တပ်သား	-6025
▁ထားကို	-6026
▁နာဇရက်	-6027
▁မရှိရ။	-6028
▁သားငယ်	-6029
▁သူခိုး	-6030
▁သောအခါ	-6031
▁အက္ခရာ	-6032
▁အင်တုံ	-6033
▁အလှည့်	-6034
တိုးပွါး	-6035
ထွက်သွား	-6036
လေးထောင်	-6037
သားတို့၊	-6038
အသက်ကြီး	-6039
ောင်းသော	-6040
▁ချီသွား	-6041
▁ငါ့စကား	-6042
▁စိတ်မသာ	-6043
▁စွဲလမ်း	-6044
▁တိုက်ယူ	-6045
▁ထိုညဉ့်	-6046
▁ပြန်လာ၍	-6047
▁မြင်သော	-6048
▁ရက်ကန်း	-6049
▁သတ်ကြ၏။	-6050
ပါနှင့်ဟု	-6051
သောအကျိုး	-6052
အမျိုးထဲက	-6053
▁ဆိုသော်၊	-6054
▁ပြင်းထန်	-6055
▁ဟေရှဘုန်	-6056
နှင့်ဆိုင်	-6057
▁ခံရကြမည်။	-6058
▁ချော့မော့	-6059
▁စစ်သူကြီး	-6060
▁ဇေဒကိမင်း	-6061
▁ထိမ်းမြား	-6062
▁နို့နှင့်	-6063
▁ဘုံဗိမာန်	-6064
▁မွန်းတည့်	-6065
▁ရှင်းလင်း	-6066
▁သိတင်းကို	-6067
တော်မူသောသူ	-6068
ရှိသောသူသည်	-6069
▁မဟုတ်လောဟု	-6070
▁မျက်မှောက်	-6071
▁သူ၏စကားကို	-6072
▁အထုံးအဖွဲ့	-6073
ကျွန်တို့သည်	-6074
သောသူသည်လည်း	-6075
▁ခါနာန်ပြည်၌	-6076
▁ဆင်းရဲဒုက္ခ	-6077
▁မေးတော်မူ၏။	-6078
▁အလိုအလျောက်	-6079
▁ဤလူမျိုးသည်	-6080
?????????????	-6081
နိုင်မည်နည်း။	-6082
သက်မုန်တိုင်း	-6083
သောသူတို့သည်၊	-6084
▁ဆိုလိုသတည်း။	-6085
▁မှောင်မိုက်၌	-6086
▁အရပ်ရပ်တို့၌	-6087
စေမည်အကြောင်း၊	-6088
နှစ်ယောက်တည်း။	-6089
▁စိတ်နှလုံးကို	-6090
▁လှိုင်းတံပိုး	-6091
▁ချောင်းမြောင်း	-6092
▁ငါထာဝရဘုရားသည်	-6093
▁စက်ဆုပ်ရွံ့ရှာ	-6094
▁ထိုအကြောင်းအရာ	-6095
▁သူတို့အပေါ်မှာ	-6096
▁ကိုယ်တော်ထံသို့	-6097
▁စီရင်တော်မူချက်	-6098
▁ထာဝရဘုရားမှာထား	-6099
▁လျှော်တေအဝတ်ကို	-6100
ခွ	-6101
ဇု	-6102
မက	-6103
လံ	-6104
ဝ၌	-6105
ဆုံ	-6106
ပါ၏	-6107
ဘိလ	-6108
ဟာန	-6109
▁အဆ	-6110
ကယ်မ	-6111
ကြက်	-6112
သုတ်	-6113
ိသား	-6114
▁ကျူ	-6115
▁ဆား	-6116
▁ဒူး	-6117
▁ရ၏။	-6118
▁လိဗ	-6119
▁ဟာဂ	-6120
▁ဟေရ	-6121
ညွန့်	-6122
တွေ့၍	-6123
မမှတ်	-6124
မ္မလူ	-6125
မျှသာ	-6126
အစိုး	-6127
အဆင်း	-6128
အမှူး	-6129
အရွယ်	-6130
ဥပဒေသ	-6131
▁ခိုး	-6132
▁မျို	-6133
▁ရွက်	-6134
▁ရှာ၍	-6135
▁လက်ရ	-6136
▁လယ်၌	-6137
▁လူသေ	-6138
▁လေအာ	-6139
▁သတိမ	-6140
▁သတ်၍	-6141
ခြေကို	-6142
ငါတို့	-6143
မေထုန်	-6144
မျှော်	-6145
လက်သည်	-6146
လမ်းမှ	-6147
အာရုန်	-6148
▁ကရမေလ	-6149
▁ကြိတ်	-6150
▁ထားပြ	-6151
▁နိစ္စ	-6152
▁မမှတ်	-6153
▁ယုဘိလ	-6154
▁လွင့်	-6155
ထွက်သော	-6156
နေလော့။	-6157
နေ့ရက်၌	-6158
ပုန်ကန်	-6159
ဘဲလျက်၊	-6160
မည်အကြံ	-6161
▁ငါ့နာမ	-6162
▁တမျိုး	-6163
▁ပေးစား	-6164
▁မလွှတ်	-6165
▁လူကြီး	-6166
▁သတိပေး	-6167
▁အာဇုတ်	-6168
▁အာနုန်	-6169
▁ဤပြည်၌	-6170
စရာဘို့၊	-6171
ထမ်းဘိုး	-6172
လေ့ရှိ၏။	-6173
သိုးသငယ်	-6174
အမှီပြု၍	-6175
အလိုသို့	-6176
အားလည်း၊	-6177
ုန်းရင်း	-6178
▁ထားဘေး၊	-6179
▁ထွက်သော	-6180
▁ပဌနာပြု	-6181
▁ပြုလေ၏။	-6182
▁မယားကို	-6183
▁ယာကုပ်၏	-6184
▁လမ်းလွဲ	-6185
▁လူအကြီး	-6186
▁သနည်းဟု	-6187
▁အကောင်း	-6188
▁အဆင်းလှ	-6189
▁အနက်ကို	-6190
▁အနားမှာ	-6191
▁ဤမိန်းမ	-6192
နှင့်လွတ်	-6193
မင်းကြီး၊	-6194
▁တနိုင်ငံ	-6195
▁ဒါဝိဒ်က၊	-6196
▁ပြန်ကြား	-6197
▁ဘေးရောက်	-6198
▁မဖျက်ဆီး	-6199
▁သူငယ်ကို	-6200
▁အရှက်ခွဲ	-6201
▁အိုအရှင်	-6202
▁ဤပြည်ကို	-6203
▁ဤရွေ့ကား	-6204
ခုနစ်ယောက်	-6205
ထဲသို့ဝင်၍	-6206
မရှိလျှင်၊	-6207
မြို့တည်း။	-6208
သောအဝတ်ကို	-6209
▁ကာလအချိန်	-6210
▁ရှိတော်မူ	-6211
▁လျှောက်၏။	-6212
▁သင်တို့အဘ	-6213
▁အောင်မြင်	-6214
ကြောင်းကို၊	-6215
တတ်သောသူသည်	-6216
မြောက်အောင်	-6217
ိညာဉ်သေတ္တာ	-6218
▁ဒါဝိဒ်မင်း	-6219
▁နောက်တဖန်မ	-6220
▁နှစ်သောင်း	-6221
▁ပရောဖက်ပြု	-6222
▁မိမိလက်ကို	-6223
▁လျှောက်ဆို	-6224
▁သူ့မယားကို	-6225
▁အကြောင်းမူ	-6226
တော်ကို၎င်း၊	-6227
▁ကိုယ်မျက်စိ	-6228
▁ကြားသောအခါ၊	-6229
▁ငါအမှန်အကန်	-6230
▁ဒိုင်းလွှား	-6231
▁ပရောဖက်ပြု၍	-6232
▁မစင်ကြယ်သော	-6233
▁မိမိတို့ကို	-6234
▁သတ်ခြင်းငှါ	-6235
▁အကြောင်းအရာ	-6236
▁အခွင့်ရှိ၏။	-6237
တို့ရှိရာသို့	-6238
▁ကန့်လန့်ကျင်	-6239
▁ထားတော်မူသော	-6240
▁ထိုသူတို့အား	-6241
▁မိမိခင်ပွန်း	-6242
▁မြေမှုန့်ကို	-6243
▁ရှမာရိမြို့၌	-6244
▁သမ္မာတရားကို	-6245
ပူဇော်သက္ကာကို	-6246
ပြည်သားတို့သည်	-6247
▁ကောင်းကင်သို့	-6248
▁နားထောင်လော့။	-6249
ဖြစ်သောကြောင့်၊	-6250
ရှိသမျှကို၎င်း၊	-6251
▁ဖာရိရှဲတို့သည်	-6252
▁ဘိုးဘေးတို့အား	-6253
▁မီးရှို့ရာယဇ်၊	-6254
▁သို့ဖြစ်လျှင်၊	-6255
▁ကိုယ်ရံတော်မှူး	-6256
ကေ	-6257
သဘ	-6258
ာ၊	-6259
ခိရ	-6260
ခံ၍	-6261
ရွံ	-6262
သေလ	-6263
အထွ	-6264
အဘ၊	-6265
အလျ	-6266
အဦး	-6267
▁အံ	-6268
ကြူး	-6269
ငွေ့	-6270
စီး၍	-6271
တတ်၊	-6272
တမဲ့	-6273
ထက်၊	-6274
နို့	-6275
ပမာဏ	-6276
ပုတ်	-6277
ဘေး၊	-6278
မြီး	-6279
အာဏာ	-6280
အိတ်	-6281
▁ဂါဇ	-6282
▁ဇေဗ	-6283
▁ထဲက	-6284
▁ဖေရ	-6285
▁အကဲ	-6286
▁ဧရှ	-6287
ကိုက်	-6288
ငါးရာ	-6289
မမှန်	-6290
ရှုရိ	-6291
ဝေဒနာ	-6292
အခွက်	-6293
အာဟာရ	-6294
▁ကာဣန	-6295
▁နှင်	-6296
▁ပုပ်	-6297
▁မြေး	-6298
▁ရောမ	-6299
▁ရှေလ	-6300
▁လက်၌	-6301
▁လောဘ	-6302
▁လှန်	-6303
▁ဟာရှ	-6304
▁အလယ်	-6305
ကိုင်း	-6306
ပင်သည်	-6307
မြဲမြံ	-6308
သီးသော	-6309
▁ချပစ်	-6310
▁ပြု၏။	-6311
▁လာသော	-6312
▁အမွေး	-6313
ကိုကား၊	-6314
စပါးကို	-6315
ထားမည်။	-6316
ရာတွင်၊	-6317
သုံးပါး	-6318
သောအိမ်	-6319
▁ချယ်လှ	-6320
▁တိုက်၍	-6321
▁ဘေးဒဏ်	-6322
▁မလှည့်	-6323
▁သာသနာပ	-6324
▁သေမင်း	-6325
▁သွားကြ	-6326
▁အပေါ်၌	-6327
▁အိပ်ရာ	-6328
ဆောင်သော	-6329
တိုင်ကို	-6330
ထားရမည်။	-6331
နယ်တလင်း	-6332
မျှမရှိ။	-6333
သားတို့၏	-6334
သို့သွား	-6335
အသွေးကို	-6336
▁ကျိုင်း	-6337
▁ခံထိုက်	-6338
▁ဂတိတော်	-6339
▁ထိုင်နေ	-6340
▁ပျင်းရိ	-6341
▁မိန်းမ၊	-6342
▁မိဘမရှိ	-6343
▁မိုက်မဲ	-6344
▁သွားသော	-6345
ကိုခေါ်၍၊	-6346
ခင်းကျင်း	-6347
ပူဇော်သော	-6348
မရောက်မှီ	-6349
သည်မဟုတ်၊	-6350
▁ငြင်းဆန်	-6351
▁ငွေအခွက်	-6352
▁ဆွေးနွေး	-6353
▁တည်ထောင်	-6354
▁ထိုအပြစ်	-6355
▁ပျဉ်ပြား	-6356
▁ပြည်တန်ဆ	-6357
▁ပြန်လာ၍၊	-6358
▁ဗာလဘုရား	-6359
▁မှူးတော်	-6360
▁လျှပ်စစ်	-6361
ကဲ့သို့သော	-6362
ကျေးဇူးပြု	-6363
စပ်ကြားမှာ	-6364
တကာတို့ထက်	-6365
တွေ့လျှင်၊	-6366
မျက်မှောက်	-6367
လေပြီတကား။	-6368
လွှမ်းမိုး	-6369
▁ကယ်တင်သော	-6370
▁ကဲသာဘုရင်	-6371
▁စစ်တိုက်၍	-6372
▁စားစရာကို	-6373
▁စိတ်မပျက်	-6374
▁ဆင်းရဲသော	-6375
▁တနည်းကား၊	-6376
▁ထွန်းလင်း	-6377
▁နောင်ကာလ၌	-6378
▁နှုတ်ခမ်း	-6379
▁မေထုန်ကို	-6380
▁ရှိရာသို့	-6381
▁လူတို့အား	-6382
▁သူကဲ့သို့	-6383
တော်မူလျှင်	-6384
တော်သည်လည်း	-6385
ရောက်လျှင်၊	-6386
သောသူဖြစ်၍၊	-6387
အမျိုးနှင့်	-6388
▁ကင်းစောင့်	-6389
▁ကိုင်လျက်၊	-6390
▁ကောင်းကင်က	-6391
▁တော်မူမည်။	-6392
▁ထိုပရောဖက်	-6393
▁နှစ်ပေါင်း	-6394
▁ပင်ပန်းစွာ	-6395
▁ပြုကြလော့။	-6396
▁မြော်ကြည့်	-6397
▁ယုံကြည်သော	-6398
▁သားတော်ကို	-6399
▁အပြစ်လွှတ်	-6400
▁အိပ်မက်ကို	-6401
ပါလိမ့်မည်ဟု	-6402
သမျှအတိုင်း၊	-6403
ိညာဉ်တရားကို	-6404
▁စမ်းရေတွင်း	-6405
▁များပြားသော	-6406
▁လူတယောက်သည်	-6407
▁အလျားအတောင်	-6408
▁ဧဝံဂေလိတရား	-6409
▁ဆယ်ဘို့တဘို့	-6410
▁ဘုန်းကြီးသော	-6411
▁ကြောက်မက်ဘွယ်	-6412
▁ဆောင်ခဲ့ရမည်။	-6413
▁အပြစ်တင်ခွင့်	-6414
ဖြောင့်မတ်ခြင်း	-6415
▁ဗိုလ်ချုပ်မင်း	-6416
▁ဗျာဒိတ်ရူပါရုံ	-6417
▁မောင်းသောအထည်၊	-6418
▁ရှုရိလူတို့သည်	-6419
▁သန့်ရှင်းခြင်း	-6420
▁သားယောက်ျားကို	-6421
▁ချစ်ခြင်းမေတ္တာ	-6422
▁မစိုးရိမ်နှင့်။	-6423
ဂ္	-6424
အူ	-6425
ဌေး	-6426
မချ	-6427
မိဘ	-6428
သရိ	-6429
အစာ	-6430
ဧလျ	-6431
▁ပိ	-6432
ကုတ်	-6433
ကျန်	-6434
ငြင်	-6435
ဇ္ဇာ	-6436
ဖရတ်	-6437
အနား	-6438
အရင်	-6439
▁ခုံ	-6440
▁ဇေဘ	-6441
▁မာလ	-6442
▁မေလ	-6443
▁ဝပ်	-6444
▁ဧလံ	-6445
ကရုဏာ	-6446
ကြား၍	-6447
ညွှန်	-6448
ထိုသူ	-6449
နက်နဲ	-6450
သက်သာ	-6451
ာရုန်	-6452
ာလိပ်	-6453
ေရုယာ	-6454
▁တယော	-6455
▁နာသန	-6456
▁မဟာလ	-6457
▁ယေဖသ	-6458
ကိုသတ်	-6459
တခွန်း	-6460
မလျော့	-6461
ယောသပ်	-6462
သုံးရာ	-6463
အပ်နှံ	-6464
ိုငြင်	-6465
ုတ်သော	-6466
▁ခံစား	-6467
▁တည်စေ	-6468
▁နွား၊	-6469
▁မေရှု	-6470
▁လဆန်း	-6471
▁အပေါ်	-6472
▁အာသပ်	-6473
▁ဤစကား	-6474
စာစောင်	-6475
တည်းစွာ	-6476
တပါးသည်	-6477
တသောင်း	-6478
ဒါဝိဒ်၏	-6479
နိုင်၏။	-6480
ရာအရပ်၊	-6481
ရှင်ကို	-6482
သွေးကို	-6483
▁ခံလေ၏။	-6484
▁ဆပ်ပေး	-6485
▁ထိုသူ၌	-6486
▁ထောက်မ	-6487
▁ဖိနဟတ်	-6488
▁ရှာဖွေ	-6489
▁သောငှါ	-6490
▁အဗျာသာ	-6491
▁ဦးချို	-6492
ကွပ်မျက်	-6493
ငါးတောင်	-6494
ငါးထောင်	-6495
ဉ်ရှောင်	-6496
ထံတော်မှ	-6497
နှင့်သော	-6498
ရပ်လျက်၊	-6499
▁ခြေတော်	-6500
▁ငါ့ပညတ်	-6501
▁စီရင်၍၊	-6502
▁နေသောသူ	-6503
▁ပတ်လုံး	-6504
▁ဗေရရှေဘ	-6505
▁မုသာကို	-6506
▁ရှိဟုန်	-6507
▁လိုက်၍၊	-6508
▁လွတ်လပ်	-6509
▁သတ်လေ၏။	-6510
▁သူတို့က	-6511
ကြပါလော့။	-6512
င်္ဂြိုဟ်	-6513
တတ်သောသူ၊	-6514
နားမထောင်	-6515
နှလုံးကို	-6516
နှုတ်ခမ်း	-6517
ဖြစ်လျှင်	-6518
လုပ်ရမည်။	-6519
လျက်ရှိ၍၊	-6520
သည်နောက်၊	-6521
ွှမ်းမိုး	-6522
▁ငါကလည်း၊	-6523
▁ငါချစ်ရာ	-6524
▁စာရင်းယူ	-6525
▁တတ်စွမ်း	-6526
▁တောသားရဲ	-6527
▁မညှဉ်းဆဲ	-6528
▁ရန်သူသည်	-6529
▁လူတထောင်	-6530
▁သိုးမွေး	-6531
▁သုံးနှစ်	-6532
▁သွန်းသော	-6533
▁အကာရှသား	-6534
နှစ်ယောက်၊	-6535
အတွင်းတွင်	-6536
▁ခြင်းသို့	-6537
▁တကောင်ကို	-6538
▁တဘက်တချက်	-6539
▁တော်မူသည်	-6540
▁ထိုကာလအခါ	-6541
▁ထိုအချိန်	-6542
▁ပေါက်ဘော်	-6543
▁ဖြစ်သည်ဟု	-6544
▁မျက်ရည်ကျ	-6545
▁ရှမွေလသည်	-6546
▁သင်၏ဘုရား	-6547
▁အဝတ်တန်ဆာ	-6548
▁အိမ်ထောင်	-6549
ထားတော်မူ၏။	-6550
အဆွေအမျိုး၊	-6551
ုန်းရင်းခတ်	-6552
▁ငါတို့တွင်	-6553
▁စိုက်ပျိုး	-6554
▁တယောက်မျှမ	-6555
▁ထိုအရပ်ကို	-6556
▁မိုဃ်းလင်း	-6557
▁သင်သည်လည်း	-6558
▁ဟောပြောသော	-6559
များအားဖြင့်	-6560
မြို့၌ရှိသော	-6561
အတွက်ကြောင့်	-6562
▁ငါအလိုရှိ၏။	-6563
▁ဆောင်သွား၍၊	-6564
▁ထမ်းဘိုးကို	-6565
▁ပိုင်းခြား၍	-6566
▁ပြတင်းပေါက်	-6567
▁မျှော်ကြည့်	-6568
▁ရောက်လျှင်၊	-6569
▁အခွင့်နှင့်	-6570
ရှိသောကြောင့်	-6571
▁ကိုယ်အသက်ကို	-6572
▁ငါ၏လူတို့သည်	-6573
▁စပျစ်နွယ်ပင်	-6574
▁ပူဇော်သက္ကာ၊	-6575
▁ဖိလိတ္တိမင်း	-6576
▁မြို့ရိုးကို	-6577
▁ရကြလိမ့်မည်။	-6578
▁လေဗနုန်တောင်	-6579
▁အရှေ့မျက်နှာ	-6580
▁ဣသရေလနိုင်ငံ	-6581
နိုင်ငံတော်သည်	-6582
လိမ့်မည်နည်းဟု	-6583
▁တောင်းလျှောက်	-6584
▁အိမ်သူအိမ်သား	-6585
ခြင်းရှိကြလော့။	-6586
▁စီရင်တော်မူသော	-6587
▁ဆိုသည်အတိုင်း၊	-6588
▁ထာဝရဘုရားနှင့်	-6589
▁ဘုရားရှေ့တော်၌	-6590
▁မင်္ဂလာရှိကြ၏။	-6591
▁အကျိုးအပြစ်ကို	-6592
▁အရှင်မင်းကြီး၊	-6593
▁အလွန်သန့်ရှင်း	-6594
▁ဇိအုန်သတို့သမီး	-6595
▁အမိန့်တော်ရှိ၏။	-6596
တရ	-6597
ထု	-6598
ာ၌	-6599
နေရ	-6600
ဗာလ	-6601
မရိ	-6602
▁ဝိ	-6603
ကြာမ	-6604
ခုန်	-6605
စင်း	-6606
ဆွေး	-6607
တော့	-6608
ထဲက၊	-6609
ပြက်	-6610
မောရ	-6611
ရုန်	-6612
ရှကာ	-6613
လေသာ	-6614
သုန်	-6615
အလက်	-6616
ဧသော	-6617
▁ကာရ	-6618
▁တရံ	-6619
▁ဒေသ	-6620
▁ပုလ	-6621
▁ဖူး	-6622
▁အာဂ	-6623
ဆီကို	-6624
ထုတ်၍	-6625
မထွက်	-6626
မြှား	-6627
မှည့်	-6628
ယူခဲ့	-6629
ရိုသေ	-6630
လမ်း၊	-6631
သမီး၊	-6632
သိသော	-6633
ဣဇာက်	-6634
▁မာသေ	-6635
▁ဟိဝိ	-6636
▁ဟောရ	-6637
▁အဆက်	-6638
စောင်း	-6639
နိုင်၊	-6640
နှစ်ဦး	-6641
မြင်၍၊	-6642
ယောင်း	-6643
ရှေမက်	-6644
သည်းခံ	-6645
အသံကို	-6646
ေဒေါနိ	-6647
▁ကွင်း	-6648
▁ထိုက်	-6649
▁နေဗတ်	-6650
▁ဖေရဇိ	-6651
▁မီးခဲ	-6652
▁မောရှ	-6653
▁မြင်ရ	-6654
▁ယောရံ	-6655
▁ရာခေလ	-6656
▁လယ်ယာ	-6657
▁အသုံး	-6658
ငတ်မွတ်	-6659
စောင့်မ	-6660
တပိုင်း	-6661
ပင်ပန်း	-6662
ပျားရည်	-6663
ပြစ်တင်	-6664
ပြပ်ဝပ်	-6665
ရမည်ကို	-6666
ရိတ်သတ်	-6667
ရောက်မှ	-6668
လုံးသည်	-6669
သုတ်သင်	-6670
အလိုက်၊	-6671
အသက်သည်	-6672
အသီးသီး	-6673
ိမ္မုန်	-6674
ောင့်ရဲ	-6675
▁ခြိမ်း	-6676
▁ငါပညတ်	-6677
▁ငါသွား	-6678
▁မခံသော	-6679
▁မစွန့်	-6680
▁မပြုရ။	-6681
▁မသိမ်း	-6682
▁မိမိအဘ	-6683
▁မူမည်။	-6684
▁ရေဗက္က	-6685
▁သားသည်	-6686
ကယ်လွှတ်	-6687
ကျွန်သည်	-6688
တိုင်ပင်	-6689
နှုတ်သည်	-6690
ဘွားမြင်	-6691
ရှကာရုတ်	-6692
ဝေဒနာကို	-6693
သည်တကား။	-6694
သောမြို့	-6695
သောသူကား	-6696
အရပ်ရပ်၌	-6697
▁ဂေရရှုံ	-6698
▁ငါချိုး	-6699
▁ငါပေး၏။	-6700
▁ဆည်းဖူး	-6701
▁တောသို့	-6702
▁မရေတွက်	-6703
▁မြေခွေး	-6704
▁မှတ်သား	-6705
▁ရေတွက်၍	-6706
င့်တယ်သော	-6707
နှလုံးသည်	-6708
ပျော်မွေ့	-6709
မျက်စိကို	-6710
မြောက်သော	-6711
လိုက်ပါ၏။	-6712
သောအပြစ်၊	-6713
▁ကျပ်ကျပ်	-6714
▁တော်သို့	-6715
▁နက်နဲသော	-6716
▁ပူဇော်၍၊	-6717
▁ပေးရမည်။	-6718
▁လူသတ္တဝါ	-6719
▁သင့်နေရာ	-6720
▁သူမူကား၊	-6721
▁အာရွှေရု	-6722
▁ဧဒုံပြည်	-6723
စေ့သောအခါ၊	-6724
တော်မူသောအ	-6725
နာမတော်ကို	-6726
မျိုးနှင့်	-6727
သောသူတို့၌	-6728
▁ကိုယ်စိတ်	-6729
▁ငါ့နာမကို	-6730
▁စေတနာစိတ်	-6731
▁ဆင်းရဲခံရ	-6732
▁တညဉ့်လုံး	-6733
▁တောင်ပေါ်	-6734
▁ဘုန်းတော်	-6735
▁မိန်းမကို	-6736
▁ရန်ဘက်ပြု	-6737
▁လိုက်သွား	-6738
▁လူအပေါင်း	-6739
▁အမှတ်တမဲ့	-6740
▁အသက်ရှင်၍	-6741
▁ဣသရေလပြည်	-6742
ကိုးကွယ်သော	-6743
ခြင်းအရာသည်	-6744
ပြောဆိုကြ၏။	-6745
သောအရပ်သို့	-6746
▁ကျောက်ပြား	-6747
▁ခန်းခြောက်	-6748
▁စားရကြမည်။	-6749
▁စောင့်ရသော	-6750
▁တဘက်တချက်၌	-6751
▁ဘုရားသခင်၌	-6752
▁မြို့နှင့်	-6753
▁သနားစုံမက်	-6754
▁အရာတို့သည်	-6755
▁အာရုန်၏သား	-6756
စောင့်ရှောက်	-6757
တော်မူသောအခါ	-6758
နိမိတ်လက္ခဏာ	-6759
ရှိသည်ဖြစ်၍၊	-6760
ရှောလမုန်သည်	-6761
▁ကျင့်စောင့်	-6762
▁ကျွန်ုပ်ကို	-6763
▁ငါထာဝရဘုရား	-6764
▁စိတ်အားကြီး	-6765
▁ထာဝရအသက်ကို	-6766
▁မိမိလူမျိုး	-6767
▁သိုးတို့ကို	-6768
▁အုပ်စိုးသော	-6769
▁ကြမ်းတမ်းသော	-6770
▁စိတ်နှိမ့်ချ	-6771
▁တရားဆုံးဖြတ်	-6772
▁ထို့ကြောင့်၊	-6773
▁ထွက်သွားကြ၏။	-6774
▁မိမိညီအစ်ကို	-6775
▁ယုဒလူတို့ကို	-6776
▁ရှိတော်မူသော	-6777
▁လက်တော်နှင့်	-6778
▁အခွင့်တောင်း	-6779
ဖြစ်လိမ့်မည်ဟု	-6780
မည်အကြောင်းကို	-6781
▁ချိန်းချက်သော	-6782
▁ဆုံးမခြင်းကို	-6783
▁မာနထောင်လွှား	-6784
▁ဝမ်းမြောက်စရာ	-6785
▁သင်တို့ဆီသို့	-6786
▁အပိုင်းပိုင်း	-6787
ဖြစ်ကြလိမ့်မည်။	-6788
▁ပြည်သားတို့သည်	-6789
▁ဣသရေလလူတို့ကို	-6790
နှင့်ပြည့်စုံသော	-6791
▁နံနက်တိုင်အောင်	-6792
▁ဝိညာဉ်တော်နှင့်	-6793
ြေ	-6794
ကြေ	-6795
ခွါ	-6796
ငြာ	-6797
ဇရု	-6798
ဒနာ	-6799
ဗလံ	-6800
ဘိ၊	-6801
လူး	-6802
အဘိ	-6803
▁စီ	-6804
ဆို၍	-6805
တုပ်	-6806
ဖိမ်	-6807
ဖို့	-6808
မတည်	-6809
ယောယ	-6810
ဥပမာ	-6811
ာဗက်	-6812
ေဒင်	-6813
ောသေ	-6814
▁ဗိလ	-6815
▁မရဏ	-6816
▁ရေမ	-6817
▁သလဲ	-6818
ကိုငါ	-6819
ခေါနိ	-6820
စကား၊	-6821
မြင်ရ	-6822
ရကြဟု	-6823
လိမ်း	-6824
သင့်။	-6825
အတင့်	-6826
အရပ်က	-6827
▁ငွေ၊	-6828
▁စာရာ	-6829
▁နေ့၌	-6830
▁ဗာနဗ	-6831
▁ဘက်၌	-6832
▁လာ၏။	-6833
▁သိသရ	-6834
▁အထီး	-6835
▁အလက်	-6836
▁ဦးချ	-6837
င်တုံ၊	-6838
စွဲသော	-6839
တတောင်	-6840
မပြုရ။	-6841
ရိပ်မိ	-6842
လျှော်	-6843
အိမ်မှ	-6844
▁ခံရ၍၊	-6845
▁ဂေဒလိ	-6846
▁ငါ့ညီ	-6847
▁မပျက်	-6848
▁များ၊	-6849
▁ရေခပ်	-6850
▁လမ်းမ	-6851
▁လာဇရု	-6852
▁ဝင်၍၊	-6853
▁ဝေဖန်	-6854
▁သေရည်	-6855
▁ဟိလခိ	-6856
▁ဟုန်း	-6857
▁အရွယ်	-6858
▁အဝေးက	-6859
▁အာဇရိ	-6860
▁ဥဖရတ်	-6861
ကျောက်၊	-6862
ခန့်မျှ	-6863
ဆိုးသော	-6864
နီးပြီ။	-6865
နှင့်သာ	-6866
ပါတကား။	-6867
ပါရစေဟု	-6868
ပိတ်ပင်	-6869
လှိုင်း	-6870
သူတို့၊	-6871
▁ကျွမ်း	-6872
▁ညဦးယံ၌	-6873
▁တဖန်ငါ	-6874
▁တမြို့	-6875
▁ဒဏ်ပေး	-6876
▁နည်းဟု	-6877
▁နေရင်း	-6878
▁မစီရင်	-6879
▁မနာလို	-6880
▁မိစ္ဆာ	-6881
▁လောဗန်	-6882
▁ဝေးသော	-6883
▁သေလေ၏။	-6884
▁အကောင်	-6885
▁ဣဇာက်၊	-6886
ကြသောအခါ	-6887
ခြောက်ရာ	-6888
တည်ဆောက်	-6889
တတ်သည်ဟု	-6890
တော်ကား၊	-6891
တံခါးကို	-6892
ပေးမည်ဟု	-6893
ယောရှဖတ်	-6894
လျက်ပင်၊	-6895
အကြံအစည်	-6896
အနည်းငယ်	-6897
▁ကို၎င်း	-6898
▁ကျန်ရစ်	-6899
▁ငါ့ဘက်၌	-6900
▁ပေတရုက၊	-6901
▁မငြိမ်း	-6902
▁ရပ်နေ၏။	-6903
▁ရှလ္လုံ	-6904
▁လက်တော်	-6905
▁လုယူသော	-6906
▁လေ့ကျက်	-6907
▁အမှိုက်	-6908
▁အသက်ငယ်	-6909
တော်ရှိ၏။	-6910
ဖြစ်လျက်၊	-6911
▁ကောင်း၏။	-6912
▁ကျိုးပဲ့	-6913
▁စည်းဝေး၍	-6914
▁စွန့်ကြဲ	-6915
▁နှင့်အတူ	-6916
▁မည်နည်း။	-6917
▁သိုးဆိတ်	-6918
▁သူငယ်သည်	-6919
▁သူတယောက်	-6920
▁သူဖြစ်၏။	-6921
▁အကဲအမှူး	-6922
▁အစာအာဟာရ	-6923
▁အပြစ်ရှိ	-6924
▁အရှေ့ဘက်	-6925
▁အိမ်မိုး	-6926
▁အိုဘုရား	-6927
▁ဤစကားကို	-6928
▁ဤသို့ပြု	-6929
နိုင်ငံသည်	-6930
ပြုသောအမှု	-6931
သားတို့အား	-6932
▁ကျော်နင်း	-6933
▁စည်းဝေးရာ	-6934
▁စပျစ်ရည်၊	-6935
▁စာရေးတော်	-6936
▁ဆိုသတည်း။	-6937
▁တောင်ရိုး	-6938
▁ပိုက်ကွန်	-6939
▁မယားနှင့်	-6940
▁မျက်စိကို	-6941
▁ရပ်နေကြ၏။	-6942
▁ရဲရင့်စွာ	-6943
▁ရှိသနည်း။	-6944
▁လိုက်လေ၏။	-6945
▁ဝိုင်းထား	-6946
▁ဧဖရိမ်သည်	-6947
တော်ကြောင့်	-6948
များကို၎င်း	-6949
သမီးတို့သည်	-6950
သောအပြစ်ကို	-6951
▁ငါကြည့်ရှု	-6952
▁စီရင်ရမည်။	-6953
▁ထိုမြို့မှ	-6954
▁နာမတော်သည်	-6955
▁မုန့်နှင့်	-6956
▁ရှိသမျှကို	-6957
▁လက်တော်သည်	-6958
▁သည်အတိုင်း	-6959
▁အကျိုးနည်း	-6960
▁ဧဒုံပင်လယ်	-6961
ပူဇော်သက္ကာ၊	-6962
▁စပ်ဆိုင်သော	-6963
▁စွန်ပလွံပင်	-6964
▁တရားစကားကို	-6965
▁နံနက်အချိန်	-6966
▁ပြာသောအထည်၊	-6967
▁မိန်းမနှင့်	-6968
▁မိုဃ်းပွင့်	-6969
▁ရှောလုနှင့်	-6970
▁အကျွန်ုပ်သိ	-6971
ဝိညာဉ်တော်ကို	-6972
▁ခမည်းတော်ကို	-6973
▁ထိုမြို့သို့	-6974
▁ပြန်သွားကြ၏။	-6975
▁မြော်လင့်စရာ	-6976
▁ရုဗင်အမျိုး၊	-6977
▁အဘယ်သူနည်းဟု	-6978
▁အမျက်တော်သည်	-6979
▁အမှန်ခံရမည်။	-6980
▁အမှုတော်ထမ်း	-6981
စေခြင်းငှါ၎င်း	-6982
သည်တိုင်အောင်၊	-6983
▁ကျွန်ယောက်ျား	-6984
▁ကြောက်ရွံ့သော	-6985
▁စပျစ်ရည်နှင့်	-6986
▁စိတ်တော်နှင့်	-6987
▁စေလွှတ်တော်မူ	-6988
▁တကျိပ်နှစ်ပါး	-6989
▁တောင်းပန်လေ၏။	-6990
▁ဘုန်းအာနုဘော်	-6991
▁ဝိညာဉ်တော်ကို	-6992
▁သိမှတ်ကြလော့။	-6993
▁အကြောင်းမူကား	-6994
စေတော်မူသဖြင့်၊	-6995
တိုင်အောင်၎င်း၊	-6996
▁ကဲ့ရဲ့ခြင်းကို	-6997
▁စေတနာစိတ်နှင့်	-6998
▁နိုင်ငံတော်ကို	-6999
▁လူမျိုးတို့ကို	-7000
▁သင်တို့ဘိုးဘေး	-7001
▁အတိုင်းတိုင်းအ	-7002
သို့ရောက်သောအခါ၊	-7003
▁မေးလျှောက်သော်၊	-7004
▁မြို့သားတို့သည်	-7005
▁အလွန်ဝမ်းမြောက်	-7006
ကု	-7007
သ၊	-7008
ချာ	-7009
တုရ	-7010
ဒိ၊	-7011
ပေရ	-7012
ဟေလ	-7013
ာတ်	-7014
ွှဲ	-7015
▁သရ	-7016
▁ဤအ	-7017
နမ်း	-7018
မသည်	-7019
ရာဇ်	-7020
▁ခက်	-7021
▁ငို	-7022
▁နေ၍	-7023
▁နွေ	-7024
▁နှာ	-7025
▁မေ့	-7026
▁သေး	-7027
▁ဧကြ	-7028
ကြိတ်	-7029
တကား၊	-7030
ပါရမီ	-7031
ပေါင်	-7032
ဖြည့်	-7033
ရေကန်	-7034
သလော၊	-7035
သားဦး	-7036
အနား၊	-7037
▁ငှါး	-7038
▁တုံး	-7039
▁နိနေ	-7040
▁သော။	-7041
▁ဥရိယ	-7042
▁ဧလကာ	-7043
ကြလေ၏။	-7044
တည်းဟူ	-7045
ဘဲလျက်	-7046
မင်းက၊	-7047
ယောရှု	-7048
ရောအခါ	-7049
ဝတ်လုံ	-7050
သိုးစု	-7051
အချင်း	-7052
အဆောင်	-7053
အမွေခံ	-7054
ာနှင့်	-7055
ိမမြင်	-7056
▁ကြား၍	-7057
▁ငြူစူ	-7058
▁ဇေရုဗ	-7059
▁နွားမ	-7060
▁ဗာရှာ	-7061
▁ရှုရှ	-7062
▁လာကြ။	-7063
▁သော်၊	-7064
▁အနည်း	-7065
ကိုမစား	-7066
က္ကရာဇ်	-7067
ခြေစွပ်	-7068
စေလျက်၊	-7069
တော်မှာ	-7070
ထံတော်က	-7071
သရဖူကို	-7072
သိမ်းယူ	-7073
သောအဝတ်	-7074
အမည်ကား	-7075
အသီးကို	-7076
▁စေသော။	-7077
▁ထိုမြေ	-7078
▁ထဲသို့	-7079
▁မူပြီ။	-7080
▁ဝင်သော	-7081
▁ဟေရှာယ	-7082
▁အငြိုး	-7083
▁အရောင်	-7084
ကျော်စော	-7085
ဂုဏ်အသရေ	-7086
ငါးယောက်	-7087
ပေါလုသည်	-7088
ပျဉ်ပြား	-7089
ဘုန်းကို	-7090
ရှိသမျှ၊	-7091
ရှေ့တွင်	-7092
သိအမျိုး	-7093
သောအရပ်၊	-7094
၏သားတော်	-7095
▁ကြီးစွာ	-7096
▁ခြေစွပ်	-7097
▁ဆန်စပါး	-7098
▁ဆိုလျက်	-7099
▁တည်လုပ်	-7100
▁ထိုသိုး	-7101
▁ထိုသူက၊	-7102
▁နူနာစွဲ	-7103
▁မပျောက်	-7104
▁ရှေးကာလ	-7105
▁သုံးဆယ်	-7106
▁အကြံပေး	-7107
▁အခွန်ခံ	-7108
▁အာဗြဟံ၏	-7109
▁အာမင်ဟု	-7110
▁အာမနုန်	-7111
▁အုပ်သော	-7112
ကြာမမြင့်	-7113
ခိုလှုံရာ	-7114
နှင့်ပြီ။	-7115
ပို့ဆောင်	-7116
ရာအရပ်ကို	-7117
လှုပ်ရှား	-7118
သောကျောက်	-7119
▁ခေါ်ဘိတ်	-7120
▁ခြေဖြင့်	-7121
▁စီရင်သော	-7122
▁နုန်၏သား	-7123
▁ပြိုပျက်	-7124
▁ပြုလျက်၊	-7125
▁မိမိအလို	-7126
▁ဝေဒနာကို	-7127
▁သင်းအုပ်	-7128
▁သတိနှင့်	-7129
▁သမ္မာသတိ	-7130
▁အပြစ်ပေး	-7131
▁အသက်ဆုံး	-7132
▁အသက်တော်	-7133
▁ဣသရေလသည်	-7134
ခြင်းမရှိ၊	-7135
ခြင်းရှိ၍၊	-7136
ခြင်းအပြစ်	-7137
စားစရာဘို့	-7138
တဘက်တချက်၌	-7139
ဖြစ်တော်မူ	-7140
သောစိတ်ရှိ	-7141
အချည်းစည်း	-7142
အားဖြင့်သာ	-7143
▁ငါ့ဝိညာဉ်	-7144
▁ဒေါသအမျက်	-7145
▁နိစ္စထာဝရ	-7146
▁နှုတ်တော်	-7147
▁မီးရှို့၍	-7148
▁သင်ပြုသော	-7149
▁သင့်တဘက်၌	-7150
▁အကျပ်တော်	-7151
▁အထံတော်မှ	-7152
▁အရှင်ထာဝရ	-7153
▁ဤမြို့ကို	-7154
▁ဥဖရတ်မြစ်	-7155
▁ဧလိရှဲသည်	-7156
ပါမည်နည်းဟု	-7157
ပါသည်တကားဟု	-7158
မင်းတို့သည်	-7159
များကြောင့်	-7160
မှောင်မိုက်	-7161
အမှုတို့ကို	-7162
▁ကိုယ်အပြစ်	-7163
▁ခါနာန်ပြည်	-7164
▁တော်မူပြီ။	-7165
▁ထိုအမှုသည်	-7166
▁နီသောအထည်၊	-7167
▁ပြီးလျှင်၊	-7168
▁ပြောလော့ဟု	-7169
▁မင်းအရာရှိ	-7170
▁မှာထားလေ၏။	-7171
▁ယုဒပြည်သူ၊	-7172
▁သခင်ဘုရား၌	-7173
▁သိတော်မူ၏။	-7174
▁အခြားသောသူ	-7175
▁အမှုစောင့်	-7176
ကောင်တို့သည်	-7177
အဘို့အလိုငှါ	-7178
▁ကာလပတ်လုံး၊	-7179
▁စပျစ်သီးကို	-7180
▁ညဉ့်အချိန်၌	-7181
▁ထားတော်မူ၏။	-7182
▁ပညတ်တော်ကို	-7183
▁မီးရှို့သော	-7184
▁မျက်နှာပျက်	-7185
▁သိုးသငယ်ကို	-7186
▁သူ့ဥစ္စာကို	-7187
▁ဟောပြောကြ၏။	-7188
▁အဘယ်အမှုကို	-7189
▁အမင်္ဂလာရှိ	-7190
▁အသက်ကြီးသော	-7191
▁ဦးခေါင်းကို	-7192
တော်မူမည်လော။	-7193
နှင့်ကင်းလွတ်	-7194
အချို့တို့ကို	-7195
▁ငါ၏ဘုရားသခင်	-7196
▁နန်းတော်သို့	-7197
▁ဘုန်းတော်သည်	-7198
▁မြို့တို့ကို	-7199
▁မှာထားတော်မူ	-7200
▁ယေရှုခရစ်ကို	-7201
▁ရေလွှမ်းမိုး	-7202
▁ရွှေစင်နှင့်	-7203
▁သိမြင်လျှင်၊	-7204
▁အပြစ်ကြောင့်	-7205
▁အဘယ်အရပ်သို့	-7206
မိန့်တော်မူသည်	-7207
အမျိုးသားတို့၊	-7208
▁ကိုယ်လက်နှင့်	-7209
▁ကိုယ်အပြစ်ကို	-7210
▁ငါ့ကိုစေလွှတ်	-7211
▁ငြိမ်သက်ခြင်း	-7212
▁တိတ်ဆိတ်စွာနေ	-7213
▁မိုဃ်းတိမ်သည်	-7214
▁သင်တို့မူကား၊	-7215
▁ထိုခဏခြင်းတွင်	-7216
▁သင်တို့သည်လည်း	-7217
▁သိတင်းကြားပြော	-7218
▁သွားပြီးလျှင်၊	-7219
ခြင်းအကြောင်းကို	-7220
နှစ်ယောက်တို့ကို	-7221
▁တမန်တော်တို့သည်	-7222
▁ပူဇော်သက္ကာဘို့	-7223
▁ပြန်လျှောက်လေ၏။	-7224
▁ဖြောင့်မတ်သောသူ	-7225
▁လောကီသားတို့သည်	-7226
▁သန့်ရှင်းရာဌာန၌	-7227
ုး	-7228
ညီ၍	-7229
ဒေဒ	-7230
ဒံယ	-7231
ဘွေ	-7232
မကျ	-7233
မင်	-7234
ရှ၊	-7235
အာခ	-7236
ဧလာ	-7237
▁ဩဖ	-7238
ခိရှ	-7239
ငန်း	-7240
ဆိန်	-7241
တရက်	-7242
နိတ်	-7243
ပစပ်	-7244
ပ္ပံ	-7245
မတတ်	-7246
မြေ့	-7247
မြွေ	-7248
ရပါ။	-7249
လက်၊	-7250
လိပ်	-7251
သည်အ	-7252
အထဲ၌	-7253
▁ခတ်	-7254
▁ငံ့	-7255
▁ဒသမ	-7256
▁အာလ	-7257
▁ဧဇရ	-7258
ခွင်၌	-7259
တနှစ်	-7260
တရား၏	-7261
ဒေသနာ	-7262
ပခုံး	-7263
ဖြန်း	-7264
လူကို	-7265
လေပြီ	-7266
ိအုတ်	-7267
▁ခုန်	-7268
▁ခြင်	-7269
▁ပရော	-7270
▁မဟော	-7271
▁ရမည်	-7272
▁အထည်	-7273
▁ဧဖက်	-7274
ကြပါဟု	-7275
ချောက်	-7276
ငယ်သည်	-7277
စေချင်	-7278
စွာပြု	-7279
တာရှည်	-7280
ပေးစား	-7281
ယောဟန်	-7282
အကြိမ်	-7283
်အမြတ်	-7284
▁ဒံယေလ	-7285
▁ပွဲခံ	-7286
▁မသနား	-7287
▁ရွှေ၊	-7288
▁လှမ်း	-7289
▁သူ၏ညီ	-7290
▁သေသော	-7291
▁အာရှိ	-7292
ကျိန်ဆဲ	-7293
ကြီးသည်	-7294
ချက်ကို	-7295
ချစ်သော	-7296
ချယ်သော	-7297
ခြင်းမှ	-7298
ခွက်ကို	-7299
စေတော့။	-7300
ဆည်းကပ်	-7301
တော်ဝန်	-7302
ထင်မှတ်	-7303
နိုင်ဟု	-7304
ဖုံးကို	-7305
မင်းကို	-7306
မရှိပါ။	-7307
မလိုက်၊	-7308
မြတ်ကို	-7309
ရှိမုန်	-7310
လက်ရုံး	-7311
ိုင်တွေ	-7312
▁ကိရယတ်	-7313
▁ချောက်	-7314
▁ချွေးမ	-7315
▁ငါခေါ်	-7316
▁စစ်မှု	-7317
▁ဇေရုယာ	-7318
▁ထိုသား	-7319
▁နိမိတ်	-7320
▁ပစ်ထား	-7321
▁ဘမ်းမိ	-7322
▁မကြည့်	-7323
▁မြို့၊	-7324
▁ယဇ်ကို	-7325
▁ယုဒသည်	-7326
▁လှေကား	-7327
တို့ကား၊	-7328
နှစ်နှစ်	-7329
ပင်နှင့်	-7330
ပြင်းစွာ	-7331
ပြုရမည်။	-7332
ဖြစ်စေဟု	-7333
ရကြလိမ့်	-7334
ရှိပါ၏ဟု	-7335
သက်ရောက်	-7336
သောအဘို့	-7337
သောအမှု၌	-7338
ဥပုသ်နေ့	-7339
▁ကြိုဆို	-7340
▁ဂေါမောရ	-7341
▁စကားသည်	-7342
▁စားပွဲ၌	-7343
▁စောင့်၍	-7344
▁ထိုအခါ၊	-7345
▁နားတော်	-7346
▁ပညာအတတ်	-7347
▁ဘွယ်သော	-7348
▁မလုပ်ရ။	-7349
▁မြစ်တား	-7350
▁ယောဟန်၏	-7351
▁ရှုရှန်	-7352
▁လက်သမား	-7353
▁လယ်ပြင်	-7354
▁သဘောကို	-7355
▁သားတို့	-7356
▁အမှီပြု	-7357
▁အရပ်ကို	-7358
▁အသားကို	-7359
▁အာဏာစက်	-7360
▁အာဗြဟံ၊	-7361
▁အိုထာဝရ	-7362
ကိုယ်တော်	-7363
ခြင်းတရား	-7364
ပါသနည်းဟု	-7365
လာသည်ကား၊	-7366
လေးထောင့်	-7367
သုံးထောင်	-7368
အရှိန်ကို	-7369
▁ကျယ်ဝန်း	-7370
▁ငါမှတပါး	-7371
▁ဆိတ်ကွယ်	-7372
▁ဆိုးယုတ်	-7373
▁တို့တွင်	-7374
▁တောင်ဘက်	-7375
▁ထိုသူအား	-7376
▁ထူထပ်သော	-7377
▁နှင့်တကွ	-7378
▁မိမိအသက်	-7379
▁မျက်နှာလ	-7380
▁မှူးမတ်၊	-7381
▁လေဝိသား၊	-7382
▁သက္ကရာဇ်	-7383
▁ဟေဇကိသည်	-7384
▁အိုးကင်း	-7385
▁ဤအမှုသည်	-7386
ကြလိမ့်မည်	-7387
ကြွေးကြော်	-7388
တန်ခိုးကို	-7389
ဖြင့်၎င်း၊	-7390
မင်းကလည်း၊	-7391
▁ကောင်းစား	-7392
▁ကြွတော်မူ	-7393
▁ငါချစ်သော	-7394
▁ငါနှစ်သက်	-7395
▁စင်ကြယ်စေ	-7396
▁တပ်ချကြ၏။	-7397
▁ထွက်သွား၍	-7398
▁မင်းကြီး၏	-7399
▁မာကေဒေါနိ	-7400
▁ရုပ်သိမ်း	-7401
▁ရောင်ခြည်	-7402
▁ရှေးဦးစွာ	-7403
▁အခြင်းအရာ	-7404
▁အညစ်အကြေး	-7405
▁အရပ်တို့၌	-7406
တော်ပေါ်မှာ	-7407
ဒုစရိုက်ကို	-7408
ရောက်သောအခါ	-7409
ရှိသမျှတို့	-7410
သည်နှင့်အညီ	-7411
▁ကြဉ်ရှောင်	-7412
▁ဂါလိလဲပြည်	-7413
▁ငါသည်ကိုယ်	-7414
▁တပါးအမျိုး	-7415
▁ဖြစ်စေမည်။	-7416
▁ယုဒပြည်ကို	-7417
▁ရောက်လာသော	-7418
▁လူအသီးအသီး	-7419
▁သင့်ထံသို့	-7420
▁သိုးတကောင်	-7421
▁အဘယ်မည်သော	-7422
▁အရက်လေးဆယ်	-7423
ကြာမမြင့်မှီ	-7424
▁ငါ့ညီအစ်ကို	-7425
▁ငါ့အမျက်ကို	-7426
▁စေလွှတ်လေ၏။	-7427
▁တိုင်အောင်၊	-7428
▁ထိုမြို့သည်	-7429
▁ထိုအရပ်သို့	-7430
▁မိမိအသက်ကို	-7431
▁မျက်နှာတော်	-7432
▁မျက်မှောက်၌	-7433
▁မြေအသီးအနှံ	-7434
▁သန့်ရှင်းရာ	-7435
▁သူတို့တဘက်၌	-7436
▁ဣသရေလလူတို့	-7437
▁ဤလူမျိုးကို	-7438
▁ဧဖရိမ်တောင်	-7439
နောက်တော်သို့	-7440
ပါမည်အကြောင်း	-7441
သောသူဖြစ်ကြ၏။	-7442
သောအရာတို့သည်	-7443
အမိန့်တော်ကို	-7444
▁ကျွန်တော်ကို	-7445
▁တပြည်လုံးကို	-7446
▁မြေကြီးနှင့်	-7447
▁ယေရိခေါမြို့	-7448
▁သခင်ဘုရားကို	-7449
ရောက်လိမ့်မည်။	-7450
▁ကိုယ်ခင်ပွန်း	-7451
▁တနေ့ခြင်းတွင်	-7452
▁ထိုအရာတို့ကို	-7453
▁ပြောဆိုလျှင်၊	-7454
▁သခင်ယေရှုခရစ်	-7455
▁သတိပြုကြလော့။	-7456
▁သူအပေါင်းတို့	-7457
▁စပျစ်ဥယျာဉ်ကို	-7458
▁ဘိုးဘေးတို့သည်	-7459
▁ယောက်ျားပေါင်း	-7460
▁အကြောင်းမရှိဘဲ	-7461
မြည်တမ်းခြင်းကို	-7462
ရှိသမျှတို့နှင့်	-7463
▁ငါ့ခမည်းတော်သည်	-7464
▁ထိုသို့နှင့်အညီ	-7465
▁ထိုသို့ပြုလျှင်	-7466
▁ဖန်ဆင်းတော်မူ၏။	-7467
▁မကြောက်ကြနှင့်။	-7468
▁သူတို့ရှိရာသို့	-7469
စွ	-7470
စ၍	-7471
တဝ	-7472
သု	-7473
ဂဒ်	-7474
တဲ့	-7475
ဒန်	-7476
ဒသမ	-7477
ဗာရ	-7478
လစ်	-7479
လှေ	-7480
သိ၊	-7481
အကာ	-7482
ေဒါ	-7483
▁က၊	-7484
▁အဲ	-7485
နှမ၊	-7486
ဖိလိ	-7487
ဘဝါး	-7488
ရပ်၍	-7489
လိမ်	-7490
သိတ်	-7491
သောဖ	-7492
အုတ်	-7493
အံ့ဩ	-7494
ေလက်	-7495
▁ဇိဖ	-7496
▁ဒေဗ	-7497
▁ဖက်	-7498
▁ရေ၌	-7499
▁အညီ	-7500
▁အအူ	-7501
ခုကို	-7502
စရပ်၌	-7503
နယ်ရာ	-7504
နှင်း	-7505
ပြုရာ	-7506
ဖြိုး	-7507
မူအရာ	-7508
များ၏	-7509
ယေရမိ	-7510
ရွှေ့	-7511
လော့၊	-7512
လွှဲ၍	-7513
ာလုပ်	-7514
ိုမသေ	-7515
၏သား၊	-7516
▁ကျေး	-7517
▁ဆင့်	-7518
▁နာဗလ	-7519
▁မမှီ	-7520
▁မရှာ	-7521
▁ယောဟ	-7522
▁လှီး	-7523
▁ဝန်း	-7524
▁ဟေဗာ	-7525
▁ဣသရေ	-7526
ကိုပေး	-7527
ကျွန်မ	-7528
စွန့်၍	-7529
တကိုယ်	-7530
တင်သော	-7531
ဘူးကို	-7532
မပြုဘဲ	-7533
သွင်း၍	-7534
အကြီး၊	-7535
ုတ်သည်	-7536
▁ဆီကို	-7537
▁တလုံး	-7538
▁နာသန်	-7539
▁ပူပန်	-7540
▁ဖြည်း	-7541
▁မပေါ်	-7542
▁မပြတ်	-7543
▁မပြန်	-7544
▁ရောဂါ	-7545
▁လျော့	-7546
▁သင်က၊	-7547
▁သူအား	-7548
▁သေချာ	-7549
▁အင်္ဂ	-7550
▁အရွက်	-7551
▁အသက်မ	-7552
▁အာရပ်	-7553
▁ဧလိရှ	-7554
က္ခာကို	-7555
ကျမ်းစာ	-7556
ကျွန်ခံ	-7557
ကြပါ၏ဟု	-7558
စီရင်၍၊	-7559
ညံ့သိမ်	-7560
တင့်တယ်	-7561
တောသို့	-7562
တော်ထဲက	-7563
ထောက်၍၊	-7564
နားမလည်	-7565
နေရာကို	-7566
ပြုရသော	-7567
မိဖုရား	-7568
မှ၎င်း၊	-7569
လယ်ပြင်	-7570
သည်မှာ၊	-7571
အနက်ကို	-7572
▁ကိုယ်မ	-7573
▁ဆင်းတု	-7574
▁ဆောင်၍	-7575
▁တံစိုး	-7576
▁ထလော့။	-7577
▁နာခေါ်	-7578
▁နိနေဝေ	-7579
▁မဆောင်	-7580
▁မတ်တတ်	-7581
▁မိဘကို	-7582
▁မေရှက်	-7583
▁မြေသည်	-7584
▁ရှာဖန်	-7585
▁သိပ္ပံ	-7586
▁သူတော်	-7587
▁သူများ	-7588
▁အနာကို	-7589
▁အသေခံရ	-7590
▁အောင်၊	-7591
ကြံပြုမူ	-7592
ခြင်္သေ့	-7593
ခြေရင်း၌	-7594
တတ်သောသူ	-7595
တောင်ကို	-7596
တော်မမူ၊	-7597
ထားလော့။	-7598
ရှိသလော။	-7599
လာသည်ကို	-7600
လုံးတွင်	-7601
သို့၎င်း	-7602
အခြားသော	-7603
ဦးလော့ဟု	-7604
▁ကင်းစင်	-7605
▁ကုန်သည်	-7606
▁ကြားရ၏။	-7607
▁ကြွသွား	-7608
▁ငါဆို၏။	-7609
▁ငါလွှတ်	-7610
▁ငါ့သိုး	-7611
▁စာစောင်	-7612
▁စုသိမ်း	-7613
▁ဆေးကြော	-7614
▁ထိုအပင်	-7615
▁နည်းတူ၊	-7616
▁ပင်လယ်၌	-7617
▁ပေးလေ၏။	-7618
▁ပြည်သည်	-7619
▁မနှမြော	-7620
▁မရှောင်	-7621
▁မြို့သူ	-7622
▁လူနှင့်	-7623
▁အခြားသူ	-7624
▁အထက်ဆို	-7625
▁အထူးထူး	-7626
▁အမျိုး၌	-7627
ခရိုင်ထဲက	-7628
ဖြစ်သလော။	-7629
မည်သည်ကား	-7630
လက်ျာဘက်၌	-7631
သည်နှင့်၊	-7632
သောသူလည်း	-7633
အိမ်တော်၌	-7634
▁ကျွန်သည်	-7635
▁ခြင်းရှိ	-7636
▁စေခိုင်း	-7637
▁ပရိတ်သတ်	-7638
▁ပြုတတ်၏။	-7639
▁ပြုလော့။	-7640
▁ရပ်လျက်၊	-7641
▁ရောင့်ရဲ	-7642
▁ရှိရမည်။	-7643
▁သို့သော်	-7644
▁သူ့အဘို့	-7645
▁အစဉ်အဆက်	-7646
ချဉ်းကပ်၍၊	-7647
ချောင်းကို	-7648
တစုံတယောက်	-7649
နိုင်လျှင်	-7650
နှစ်ပါးကို	-7651
မ္မစည်းဝေး	-7652
သတို့သမီး၊	-7653
သောအမှုအရာ	-7654
ေလိမ့်မည်။	-7655
▁ကျွန်မကို	-7656
▁စိတ်ပူပန်	-7657
▁ဗင်္ဟာဒဒ်	-7658
▁ဘုရားဖြစ်	-7659
▁မရောက်မှီ	-7660
▁မုန့်ညက်တ	-7661
▁မုန့်ပြား	-7662
▁ယောရှုအား	-7663
▁ရေးထားသော	-7664
▁ရှိသည်ကို	-7665
▁အန္တိအုတ်	-7666
▁အဦးသီးသော	-7667
▁အာရုန်ကို	-7668
▁အိမ်တော်၌	-7669
ဆောင်ခဲ့သော	-7670
ညံ့သိမ်မွေ့	-7671
ထံသို့သွား၍	-7672
ပြစ်မှားသော	-7673
သောအရာနှင့်	-7674
သွန်းလောင်း	-7675
သွားသောအခါ၊	-7676
အကြောင်းအရာ	-7677
▁ဂဒ်အမျိုး၊	-7678
▁တစုံတခုမျှ	-7679
▁တည်းခိုသော	-7680
▁တန်ခိုးကို	-7681
▁ထင်ရှားသော	-7682
▁ထိုသခင်ကို	-7683
▁ပြည့်စုံ၏။	-7684
▁ဘုရားမိန့်	-7685
▁မိန်းမစိုး	-7686
▁ရလိမ့်မည်။	-7687
▁လုံခြုံစွာ	-7688
▁လူအကြီးအကဲ	-7689
▁သူ့ရှေ့မှာ	-7690
ကြောင့်၎င်း၊	-7691
ထာဝရဘုရားကို	-7692
နှစ်ယောက်ကို	-7693
များဟူမူကား၊	-7694
ရှိတော်မူသော	-7695
ရှိသမျှတို့၌	-7696
အားဆိုလျှင်၊	-7697
▁ငါရွေးကောက်	-7698
▁ဖြစ်လတံ့သော	-7699
▁မကျန်ကြွင်း	-7700
▁မယ်တော်ကား၊	-7701
▁ယာကုပ်နှင့်	-7702
▁ယုဒရှကာရုတ်	-7703
▁လုယူဖျက်ဆီး	-7704
▁သာ၍ကောင်း၏။	-7705
▁သွားကြလော့။	-7706
▁အဆင်းအရောင်	-7707
▁အမျက်ထွက်၍၊	-7708
ကြသောကြောင့်၊	-7709
စီရင်ထုံးဖွဲ့	-7710
ရှိကြောင်းကို	-7711
သောသူတို့တွင်	-7712
▁ငါ့ခမည်းတော်	-7713
▁ငါ့ဝိညာဉ်သည်	-7714
▁ဆိုသော်လည်း၊	-7715
▁ဆုံးမဩဝါဒပေး	-7716
▁နောက်ဆုံးသော	-7717
▁ပေးတော်မူပါ။	-7718
▁မည်အကြောင်း၊	-7719
▁ရန်သူလက်သို့	-7720
▁သင်နှင့်သင်၏	-7721
▁သစ္စာတော်ကို	-7722
??????????????	-7723
ကြောင်းကို၎င်း	-7724
ခြင်းတည်းဟူသော	-7725
ဖြစ်ရလိမ့်မည်။	-7726
အမျိုးမျိုးကို	-7727
▁ခေါင်းပေါ်မှာ	-7728
▁ငါ့မျက်နှာကို	-7729
▁ငြိမ်ဝပ်စွာနေ	-7730
▁စီရင်ဆုံးဖြတ်	-7731
▁ပလ္လင်ပေါ်မှာ	-7732
▁မိန်းမတို့သည်	-7733
▁မိမိဘုရားသခင်	-7734
▁မြို့ပြင်သို့	-7735
▁ယောက်ျားနှင့်	-7736
▁သူတို့စကားကို	-7737
တော်မူသည်မဟုတ်။	-7738
▁ကျေးဇူးတော်သည်	-7739
▁ခေါ်ပြီးလျှင်၊	-7740
▁မွှေးကြိုင်သော	-7741
▁သင်တို့ရှေ့မှာ	-7742
▁သိုးထီးတကောင်၊	-7743
မည်အကြောင်းတည်း။	-7744
▁ခန့်ထားတော်မူ၏။	-7745
▁ထိုနေ့ခြင်းတွင်	-7746
▁လျှောက်ကြလျှင်၊	-7747
▁အကျပ်တော်အလိုက်	-7748
ဗ္	-7749
မတ	-7750
မထ	-7751
အံ	-7752
ခု၊	-7753
ဇုမ	-7754
နာ၊	-7755
နံ့	-7756
မား	-7757
ဟေဇ	-7758
ေလု	-7759
▁ဣဇ	-7760
ချပ်	-7761
ဆွံ့	-7762
ဇာတိ	-7763
တနေ့	-7764
ထပ်၍	-7765
ဒေဇာ	-7766
နိမ်	-7767
ဗင်္	-7768
မယုံ	-7769
မသိ၊	-7770
မသိ။	-7771
ယေဟု	-7772
ရွာ၊	-7773
လောဃ	-7774
ိမ်၊	-7775
▁ကိလ	-7776
▁ချေ	-7777
▁ဒါရ	-7778
▁ပြသ	-7779
က်ကို	-7780
ကျော့	-7781
ချစ်၍	-7782
စေတနာ	-7783
ဒေဒုံ	-7784
နံနက်	-7785
ရှိကြ	-7786
ဝင်သူ	-7787
ာစိုး	-7788
ုရိယာ	-7789
▁ကျန်	-7790
▁တင်း	-7791
▁မမေ့	-7792
▁ရတတ်	-7793
▁သမက်	-7794
▁သာမည	-7795
▁ဟိရံ	-7796
▁ဣသမာ	-7797
▁ဤမည်	-7798
ကိုမေး	-7799
တံဆိပ်	-7800
နေရင်း	-7801
နှုတ်၍	-7802
ပုံကို	-7803
ပေါ်မှ	-7804
ပြည်သူ	-7805
မိပြီ။	-7806
မ္မဆရာ	-7807
လနှင့်	-7808
ို့ငှါ	-7809
▁ခါရန်	-7810
▁ခုတင်	-7811
▁ချထား	-7812
▁ငါ့အဘ	-7813
▁ဆီမီး	-7814
▁တောဘိ	-7815
▁နေဝင်	-7816
▁ယာဗက်	-7817
▁ရွှေ့	-7818
▁သူဌေး	-7819
▁အတိုး	-7820
▁အမြန်	-7821
▁အာခဇိ	-7822
▁အာမခံ	-7823
ကြစို့။	-7824
တောင့်တ	-7825
ပွဲသို့	-7826
ဖလားကို	-7827
သောအရာ၌	-7828
သောအသီး	-7829
အင်္ကျီ	-7830
အလောင်း	-7831
▁ဂတိထား	-7832
▁ငါလည်း	-7833
▁စစ်ဆေး	-7834
▁စီရင်၍	-7835
▁စွန့်၍	-7836
▁ဇေရုဗဗ	-7837
▁တာရှည်	-7838
▁ထားသော	-7839
▁ပညာသည်	-7840
▁ပြန်၍မ	-7841
▁ပြအိုး	-7842
▁မခံမယူ	-7843
▁လာခိရှ	-7844
▁သတ်သော	-7845
▁သုကုတ်	-7846
▁ဟာဇော်	-7847
▁အစာစား	-7848
▁အာခိတ်	-7849
ကိုက်စား	-7850
ကျမ်းစာ၌	-7851
ငြင်းခုံ	-7852
ငြိမ်ဝပ်	-7853
စစ်တိုက်	-7854
စိတ်ပျက်	-7855
စေ့အောင်	-7856
ယေရှုသည်	-7857
လပတ်လုံး	-7858
ေါက်ပြန်	-7859
▁ခံတွင်း	-7860
▁ငါရောက်	-7861
▁စာရင်း၌	-7862
▁စိတ်ထင်	-7863
▁တကောင်၊	-7864
▁တဆယ်လေး	-7865
▁တတ်ကြ၏။	-7866
▁ထားလေ၏။	-7867
▁ပြောစရာ	-7868
▁ဖွင့်ပြ	-7869
▁မာနကြီး	-7870
▁မျောက်မ	-7871
▁ယဇ်ဘို့	-7872
▁ယောဘသည်	-7873
▁အကြံကို	-7874
▁အဟိမလက်	-7875
▁အုပ်ရ၏။	-7876
ကျွေးမွေး	-7877
ချုပ်တည်း	-7878
ခြင်းဘေး၊	-7879
စကားနှင့်	-7880
စကားသံကို	-7881
ဆုံးရှုံး	-7882
တောင်သို့	-7883
ပေါက်ဘော်	-7884
မျက်စိသည်	-7885
လျောက်ပတ်	-7886
သိမ်းသွား	-7887
သုံးစုတစု	-7888
▁ကာလနာဘေး	-7889
▁ကိုယ်စား	-7890
▁ကြော်ငြာ	-7891
▁ခြောက်ရာ	-7892
▁ငါ့ရှေ့၌	-7893
▁တနေ့လုံး	-7894
▁တန်ဆာဆင်	-7895
▁တို့သည်၊	-7896
▁တောင်ဝေး	-7897
▁ထားရမည်။	-7898
▁ထွက်ပြေး	-7899
▁ပြင်ဆင်၍	-7900
▁ဘုရားဝတ်	-7901
▁မိုက်သော	-7902
▁မြည်းကို	-7903
▁မြေပေါ်၌	-7904
▁ယေရမိသည်	-7905
▁ရှောလုက၊	-7906
▁လူတယောက်	-7907
▁ဟူ၍၎င်း၊	-7908
▁အနီးသို့	-7909
▁အလိုသို့	-7910
▁အသံနှင့်	-7911
▁အော်ဟစ်၍	-7912
စေလွှတ်သော	-7913
ဖုံးလွှမ်း	-7914
အတွင်းသို့	-7915
▁ကိုင်လျက်	-7916
▁ကြောက်ရွံ	-7917
▁စွန့်ပစ်၍	-7918
▁တရံရောအခါ	-7919
▁တောင်ကြီး	-7920
▁ထားလက်နက်	-7921
▁နေကြလော့။	-7922
▁နှစ်ထောင်	-7923
▁ပြည်တော်၌	-7924
▁ဗက်ရှေမက်	-7925
▁မနှင်ထုတ်	-7926
▁ယုဘိလနှစ်	-7927
▁ယောသပ်ကို	-7928
▁ရွှေတန်ဆာ	-7929
▁လေးသောင်း	-7930
▁ဝန်ခံကြ၏။	-7931
▁သကဲ့သို့၊	-7932
▁အဘယ်သူအား	-7933
▁အလုပ်လုပ်	-7934
▁အဝတ်နှင့်	-7935
ခြင်းအသံကို	-7936
တွင်းထဲသို့	-7937
နေဗုခဒ်နေဇာ	-7938
ဖြစ်သတည်းဟု	-7939
ရပါမည်နည်း။	-7940
လျက်ရှိပါ၏။	-7941
လျှင်မူကား၊	-7942
လျှောက်ကြ၏။	-7943
သမျှတို့သည်	-7944
အစဉ်အတိုင်း	-7945
အစဉ်အမြဲတည်	-7946
အလုံးစုံကို	-7947
▁ကြည်ညိုသော	-7948
▁ကြည့်ရှု၍၊	-7949
▁ခုနစ်ကြိမ်	-7950
▁ချဉ်းကပ်၍၊	-7951
▁ဂိဒေါင်သည်	-7952
▁စကားတခွန်း	-7953
▁စားစရာဘို့	-7954
▁ဆိုလေသော်၊	-7955
▁ဆိုသဖြင့်၊	-7956
▁တကိုယ်လုံး	-7957
▁တင့်တယ်သော	-7958
▁တဖန်မောရှေ	-7959
▁ထိုနေ့ရက်၌	-7960
▁ပူဇော်ကြ၏။	-7961
▁ပြတော်မူ၏။	-7962
▁မီးရှို့၍၊	-7963
▁မြင်သောအခါ	-7964
▁ယေရှုကလည်း	-7965
▁အဘိမလက်သည်	-7966
စေပြီးလျှင်၊	-7967
ရှင်ဘုရင်ကို	-7968
ရှိသော်လည်း၊	-7969
အပေါင်းတို့၌	-7970
▁ကိုယ်တော်သိ	-7971
▁ကျပ်တည်းစွာ	-7972
▁ချစ်သူတို့၊	-7973
▁တမန်တို့ကို	-7974
▁ထိုဘုရားသည်	-7975
▁ထိုသူတို့က၊	-7976
▁ပင်လယ်အလယ်၌	-7977
▁ပြည်တော်ကို	-7978
▁ပြုသကဲ့သို့	-7979
▁ဘာသာစကားကို	-7980
▁မိုက်သောသူ၏	-7981
▁ရှိပါစေသော။	-7982
▁လက်ဆောင်ကို	-7983
▁သိမ်းယူကြ၏။	-7984
▁သူ့နောက်မှ၊	-7985
▁အသက်သုံးဆယ်	-7986
▁အသေကောင်ကို	-7987
ဆိုသည်အတိုင်း	-7988
တစုံတခုကိုမျှ	-7989
တောင်ပေါ်သို့	-7990
တော်မူပြီးမှ၊	-7991
ပလ္လင်ပေါ်မှာ	-7992
ဖြစ်သော်လည်း၊	-7993
မုတ်မြို့သို့	-7994
▁ခရီးသွားကြ၏။	-7995
▁ခြင်္သေ့ပျို	-7996
▁စာရင်းဝင်သော	-7997
▁တို့ကို၎င်း၊	-7998
▁ပုန်းရှောင်၍	-7999
▁ရှေ့တော်သို့	-8000
▁သင်ရှိရာသို့	-8001
▁အဘယ်သို့ပြုရ	-8002
▁အမြတ်ဆုံးသော	-8003
▁ဣသရေလအမျိုး၊	-8004
တယောက်မျှမရှိ။	-8005
နှစ်ပါးတို့သည်	-8006
အကြီးတို့နှင့်	-8007
▁ကောက်နယ်တလင်း	-8008
▁စီရင်ခြင်းကို	-8009
▁တစုံတယောက်မျှ	-8010
▁တဖန်ထာဝရဘုရား	-8011
▁တိုက်ခြင်းငှါ	-8012
▁တော်မူသဖြင့်၊	-8013
▁မိုက်သောသူသည်	-8014
▁အဘိုးထိုက်သော	-8015
အကြောင်းကြောင့်	-8016
▁ကြွေးကြော်ကြ၏။	-8017
▁ထိုအကြောင်းကို	-8018
▁နိုင်ငံတော်သည်	-8019
▁ပရောဖက်တို့သည်	-8020
▁ဖြစ်ရလိမ့်မည်။	-8021
▁မတရားသောမေထုန်	-8022
▁မေးမြန်းလျှင်၊	-8023
▁မှာထားတော်မူ၏။	-8024
▁ရှိကြလိမ့်မည်။	-8025
▁လျှောက်လေသော်၊	-8026
▁အကြောင်းအရာကို	-8027
▁အဘယ်သို့နည်းဟု	-8028
▁အမှုအရာတို့ကို	-8029
▁အဝတ်အချည်းစည်း	-8030
▁အဲဂုတ္တုလူတို့	-8031
တော်မူပြီးလျှင်၊	-8032
▁ကယ်တင်တော်မူသော	-8033
▁ကြီးသောအသံနှင့်	-8034
▁ချီးမွမ်းပါမည်။	-8035
▁မတရားသောအမှုကို	-8036
▁မြို့သားတို့ကို	-8037
▁ရှင်ဘုရင်ထံသို့	-8038
▁ဝမ်းမြောက်ခြင်း	-8039
▁သင်တို့အပေါ်မှာ	-8040
▁အဲဂုတ္တုပြည်ကို	-8041
နူ	-8042
ကာယ	-8043
ဂုရ	-8044
ငင်	-8045
စေး	-8046
တဲ၌	-8047
ဖျာ	-8048
မေရ	-8049
ယံ၌	-8050
ရေ၊	-8051
လံ၊	-8052
ဟာဇ	-8053
အာသ	-8054
▁ဆဲ	-8055
▁ဝံ	-8056
▁သီ	-8057
ကြင်	-8058
ဆန္ဒ	-8059
ညမှာ	-8060
ညှပ်	-8061
မပြေ	-8062
မောဘ	-8063
ရတတ်	-8064
သတ်၍	-8065
သဘင်	-8066
သား၏	-8067
ဟတ်၊	-8068
ဟူမူ	-8069
အခက်	-8070
အထဲက	-8071
ိတ်၊	-8072
္ဗာလ	-8073
၌ရှိ	-8074
▁???	-8075
▁ကော	-8076
▁ဆွေ	-8077
▁ဇိဘ	-8078
▁ရုသ	-8079
▁သေ၍	-8080
▁ဟာဒ	-8081
▁ဟာရ	-8082
▁ဟာလ	-8083
▁အယူ	-8084
စေတတ်	-8085
တင်၍၊	-8086
ဒ္ဒေါ	-8087
ပြုမိ	-8088
ဖြစ်၏	-8089
မခံရ။	-8090
မပါဘဲ	-8091
မြော်	-8092
လတဆယ်	-8093
လျှို	-8094
သောရေ	-8095
ာလမ်း	-8096
ဲ၏သား	-8097
္ဌာန်	-8098
ွန်း၊	-8099
၍မထား	-8100
▁ဆွတ်	-8101
▁တက်၍	-8102
▁တင်၍	-8103
▁တာမာ	-8104
▁တူ၏။	-8105
▁မခံရ	-8106
▁မတ္တ	-8107
▁မိရှ	-8108
▁မုန်	-8109
▁ရှေမ	-8110
▁သငယ်	-8111
▁ဟာဂရ	-8112
▁အဟိမ	-8113
▁အာနက	-8114
ကိုပင်	-8115
ကြစေဟု	-8116
ချုန်း	-8117
ခြားစီ	-8118
ခြေသည်	-8119
စုတွင်	-8120
ည်းစား	-8121
တခုကို	-8122
တံခါး၊	-8123
ဒဏ်ကို	-8124
နှင့်တ	-8125
ပညာကို	-8126
ပါရစေ။	-8127
ပြောက်	-8128
မီးသည်	-8129
မြှုပ်	-8130
ယဇ်ကို	-8131
ရာကာလ၌	-8132
ရာဘို့	-8133
ရှဲသည်	-8134
သစ်ပင်	-8135
သိမြင်	-8136
ဥစ္စာ၊	-8137
▁ချမ်း	-8138
▁စစ်ကဲ	-8139
▁နှစ်ဆ	-8140
▁ပြုတ်	-8141
▁ဖာရော	-8142
▁ဗေဒင်	-8143
▁မာခိရ	-8144
▁မောင်	-8145
▁ရှိမိ	-8146
▁လေဘွေ	-8147
▁ဝေဒနာ	-8148
▁အနွယ်	-8149
▁အာမဇိ	-8150
ကျက်စား	-8151
ခံရကြ၏။	-8152
ပါတော့။	-8153
မယားသည်	-8154
မိန်းမ၊	-8155
ရောနှော	-8156
လမြို့၊	-8157
လိုက်၏။	-8158
လျောင်း	-8159
ဝိုင်း၍	-8160
သောသူက၊	-8161
အမှုမှာ	-8162
▁ခံကြ၏။	-8163
▁ငါရေး၍	-8164
▁စမ်းရေ	-8165
▁ဆွဲထား	-8166
▁ဇာခရိ၊	-8167
▁ထိုယဇ်	-8168
▁နှုတ်၍	-8169
▁ပညာသတိ	-8170
▁မသွင်း	-8171
▁မြင်၍၊	-8172
▁ယဟောရံ	-8173
▁ယောခတ်	-8174
▁ရင်ပတ်	-8175
▁လေးသော	-8176
▁ဝန်းရံ	-8177
▁သင်၏အဘ	-8178
▁အာမုတ်	-8179
ကိုဆောင်	-8180
တော်မူပါ	-8181
နှင့်ပစ်	-8182
မဟုတ်သော	-8183
မေးသော်၊	-8184
သည်ကိုယ်	-8185
သောအရွယ်	-8186
အလုပ်ကို	-8187
▁ကျော့မိ	-8188
▁ကျွန်မ၏	-8189
▁ခြေဆွံ့	-8190
▁ခြေရင်း	-8191
▁ငါကြည့်	-8192
▁ငါပိုင်	-8193
▁ဆူဖြိုး	-8194
▁တပြိုင်	-8195
▁တဲတော်၌	-8196
▁နေရကြ၏။	-8197
▁နှစ်စဉ်	-8198
▁ပေးမည်။	-8199
▁ဖြစ်ဘူး	-8200
▁ဘွားသော	-8201
▁မြေသို့	-8202
▁မြှောက်	-8203
▁ယွာဘသည်	-8204
▁ရည်မှတ်	-8205
▁သမျှသော	-8206
▁သူတို့၊	-8207
▁အဒေါနိယ	-8208
▁အပြစ်မှ	-8209
▁အသရေကို	-8210
▁ဤကျောက်	-8211
ကျိန်းဝပ်	-8212
တော်မမူဟု	-8213
မင်းကြီး၏	-8214
မိန်းမကို	-8215
မြို့တွင်	-8216
မြို့သား၊	-8217
ိညာဉ်ဖွဲ့	-8218
▁ခြေထောက်	-8219
▁စောင့်နေ	-8220
▁တရားတော်	-8221
▁တီးမှုတ်	-8222
▁တုံးလုံး	-8223
▁နို့စို့	-8224
▁ပြေးသွား	-8225
▁ဘာသာစကား	-8226
▁မိန်းမက၊	-8227
▁မြို့ထဲ၌	-8228
▁လိုက်သော	-8229
▁လုပ်ကြံ၍	-8230
▁သကဲ့သို့	-8231
▁သိမ်းယူ၍	-8232
▁သူကလည်း၊	-8233
▁အခက်အလက်	-8234
▁အာရှရပင်	-8235
ကြပြီတကား။	-8236
ဆောင်ခဲ့၍၊	-8237
ပြုကြလော့။	-8238
မင်းထံသို့	-8239
လောက်အောင်	-8240
သောအမှုသည်	-8241
သွားရာလမ်း	-8242
အမျိုးသမီး	-8243
▁ချုပ်တည်း	-8244
▁ဆင့်ဆို၏။	-8245
▁ထိုသို့ငါ	-8246
▁နေ့ရက်ကာလ	-8247
▁ပြုကြပြီ။	-8248
▁မြင်လျှင်	-8249
▁မှိုင်တွေ	-8250
▁ယုဒပြည်သူ	-8251
▁လက်ျာတော်	-8252
▁ဝိညာဉ်ကို	-8253
▁သတ္တမနေ့၌	-8254
▁အချိန်တန်	-8255
▁အပြစ်မရှိ	-8256
▁အာရုန်အား	-8257
▁အိုးထိန်း	-8258
▁ဤလောကသို့	-8259
စပျစ်ရည်ကို	-8260
စိမ့်သောငှါ	-8261
ပညတ္တိကျမ်း	-8262
ပြုသကဲ့သို့	-8263
မျိုးစေ့ကို	-8264
မြေးတို့သည်	-8265
သားတို့တွင်	-8266
▁ကျင်လည်သော	-8267
▁ကျမ်းစာကို	-8268
▁ခမည်းတော်၏	-8269
▁ခြားနားသော	-8270
▁ငါနားထောင်	-8271
▁ငါပယ်ရှင်း	-8272
▁စေလွှတ်သော	-8273
▁ပင်လယ်ကမ်း	-8274
▁ပရောဖက်သည်	-8275
▁ပြည့်စုံ၍၊	-8276
▁မရဏနိုင်ငံ	-8277
▁ယုဒရာဇဝင်၌	-8278
▁လူခပ်သိမ်း	-8279
▁ဝင်သောအခါ၊	-8280
▁သင်တို့မသိ	-8281
▁သိပ္ပံအတတ်	-8282
▁သီချင်းသည်	-8283
▁အပြစ်ရောက်	-8284
▁အဘယ်အရာကို	-8285
▁အသင့်အတင့်	-8286
▁အာမောရိလူ၊	-8287
ခြင်းကိုလည်း	-8288
တံခါးတို့ကို	-8289
နားမှာရှိသော	-8290
ပြုတော်မူသော	-8291
▁ကောင်းကင်မှ	-8292
▁စာရေးတံပြု၍	-8293
▁စိတ်စွဲလမ်း	-8294
▁တန်ခိုးတော်	-8295
▁ပဌနာစကားကို	-8296
▁မြို့တံခါးဝ	-8297
▁မှူးတော်မတ်	-8298
▁ရွံ့ရှာဘွယ်	-8299
▁လုပ်ကြံကြ၏။	-8300
▁သင်တို့နေရာ	-8301
▁သဘောဖြောင့်	-8302
ခြင်းအလိုငှါ၊	-8303
ပေးတော်မူပြီ။	-8304
▁ကရုဏာတော်သည်	-8305
▁ဂိလဒ်ပြည်သား	-8306
▁တယောက်ကိုမျှ	-8307
▁ဒါဝိဒ်မြို့၌	-8308
▁ဘုန်းတော်ကို	-8309
▁ဘုရားသခင်၏လူ	-8310
▁မှတ်တော်မူ၏။	-8311
▁ရှိသည်ဖြစ်၍၊	-8312
▁သင့်အပေါ်မှာ	-8313
▁အပိုင်းအခြား	-8314
▁အိမ်တော်သို့	-8315
▁ဣသရေလရာဇဝင်၌	-8316
တရှောက်လုံးကို	-8317
နှစ်စိုးစံလေ၏။	-8318
မြို့သို့ရောက်	-8319
သောသူဖြစ်သည်ဟု	-8320
▁ငါ့ကိုယ်တိုင်	-8321
▁စိတ်နှလုံးသည်	-8322
▁ဆင်းရဲငတ်မွတ်	-8323
▁တတ်စွမ်းနိုင်	-8324
▁မိန်းမတို့ကို	-8325
▁ရှောလုသည်လည်း	-8326
▁အိုဘုရားရှင်၊	-8327
ခြင်းနှင့်၎င်း၊	-8328
သုတ်သင်ပယ်ရှင်း	-8329
▁စစ်သူရဲတို့သည်	-8330
▁စေ့စေ့နားထောင်	-8331
▁တန်ခိုးတော်ကို	-8332
▁ပရောဖက်တို့ကို	-8333
▁လူမျိုးတို့သည်	-8334
▁သင်တို့အပေါင်း	-8335
▁သင်္ဂြိုဟ်ကြ၏။	-8336
▁သူတို့ကို၎င်း၊	-8337
▁အကျွန်ုပ်တဘက်၌	-8338
ကောင်းကင်တမန်သည်	-8339
ခြင်းသို့ရောက်၍၊	-8340
ပျက်စီးခြင်းသို့	-8341
▁စေလွှတ်တော်မူ၏။	-8342
▁ထိုသူတို့ကလည်း၊	-8343
▁ပညတ်တရားတော်ကို	-8344
▁ယုံကြည်ခြင်းကို	-8345
▁ယေရုရှလင်မြို့၏	-8346
▁သိရကြလိမ့်မည်ဟု	-8347
▁အကျွန်ုပ်မူကား၊	-8348
ဌမ	-8349
ထူ	-8350
ပဲ	-8351
အဗ	-8352
အမ	-8353
စုရ	-8354
စေသ	-8355
ဇိလ	-8356
ညှိ	-8357
ဒက်	-8358
ပြာ	-8359
ဖိဗ	-8360
မာ၊	-8361
ယဉ်	-8362
ရတ်	-8363
ရဲ၊	-8364
လိဗ	-8365
အနံ	-8366
ေလာ	-8367
▁ခိ	-8368
ကျေး	-8369
ကွာ၍	-8370
ခံ၍၊	-8371
တုံ့	-8372
တုံး	-8373
ပုံ၊	-8374
ဗုတ်	-8375
မပယ်	-8376
ယုန်	-8377
လို၍	-8378
လှစ်	-8379
ဟင်း	-8380
ေစွဲ	-8381
ှုပ်	-8382
▁ခွါ	-8383
▁ညက်	-8384
▁တပိ	-8385
▁ပါရ	-8386
▁မာဂ	-8387
▁ရာဗ	-8388
▁လွဲ	-8389
▁ဟဂ္	-8390
▁အနု	-8391
ကြမ်း	-8392
ကြား၊	-8393
စ္စာဝ	-8394
ဆုကို	-8395
တပြား	-8396
ပေါ်၊	-8397
ပြီး။	-8398
မပေး။	-8399
မပျက်	-8400
များ၍	-8401
မြှေး	-8402
ယောယဒ	-8403
ရှိပါ	-8404
လိသား	-8405
အဖြစ်	-8406
▁ခံရ၍	-8407
▁ငါချ	-8408
▁ငါ၏အ	-8409
▁ဆာလံ	-8410
▁တကွ၊	-8411
▁တမ်း	-8412
▁တိမ်	-8413
▁ထွန်	-8414
▁ပျား	-8415
▁ဗေရိ	-8416
▁မထား	-8417
▁မီးမ	-8418
▁ယေဇဗ	-8419
▁လတံ့	-8420
▁လိဗန	-8421
▁ဝေငှ	-8422
▁သရဖူ	-8423
▁သုတ်	-8424
▁ဟန္န	-8425
▁အစား	-8426
▁အဇုမ	-8427
▁အညီ၊	-8428
▁အဟော	-8429
▁အာဒံ	-8430
ကိုင်၍	-8431
ကြေးဝါ	-8432
ခြံစွာ	-8433
စ္စည်း	-8434
ဆီဥကို	-8435
ဖြစ်ပါ	-8436
ဗတ္တိဇ	-8437
မြှင့်	-8438
ယာရိမ်	-8439
ရိုင်း	-8440
လုပ်၍၊	-8441
ဝင်စား	-8442
အမြင့်	-8443
ာလမုန်	-8444
ိမမှတ်	-8445
၌မှီဝဲ	-8446
▁တည်နေ	-8447
▁တွန်း	-8448
▁တွေ့၍	-8449
▁ထား၍၊	-8450
▁ထဲမှာ	-8451
▁နေမန်	-8452
▁မရွေ့	-8453
▁မလွတ်	-8454
▁လောဟု	-8455
▁သခင့်	-8456
▁သင်သိ	-8457
▁သဖန်း	-8458
▁အဘအား	-8459
▁အဘိဂဲ	-8460
▁အရင်း	-8461
▁အာဗေလ	-8462
ကိုမပေး	-8463
ခါးပန်း	-8464
ချက်တီး	-8465
တရားသော	-8466
ထည့်သော	-8467
နေလျက်၊	-8468
ပြီလော။	-8469
ပြုမည်။	-8470
ဘော်မပြ	-8471
မမြောက်	-8472
မြစ်တား	-8473
ရကြပါ၏။	-8474
ရှစ်ဆယ်	-8475
သောအနံ့	-8476
အမည်ကို	-8477
အရပ်ကို	-8478
အားနည်း	-8479
▁ကိလေသာ	-8480
▁ငယ်သား	-8481
▁စုဝေး၍	-8482
▁တည်သော	-8483
▁နာမကို	-8484
▁ပါပြီ။	-8485
▁ပေးသော	-8486
▁မဆက်ဆံ	-8487
▁မာနော်	-8488
▁မြင်း၊	-8489
▁ယောက်၊	-8490
▁ရန်သူ၏	-8491
▁ရွေးယူ	-8492
▁လက်ဝါး	-8493
▁လည်ဆွဲ	-8494
▁သက္ကာ၊	-8495
▁သင့်အဘ	-8496
▁ဟေဇရုံ	-8497
▁ဟောင်း	-8498
▁အရှိန်	-8499
▁အရှုံး	-8500
▁အာရော်	-8501
▁အောက်၌	-8502
▁အံသွား	-8503
▁ဤသူကား	-8504
▁ဧလာဇာ၊	-8505
ကယ်နှုတ်	-8506
ကျင့်ကို	-8507
ကျိုးကို	-8508
စည်းအဝေး	-8509
တမန်တော်	-8510
တော်တွင်	-8511
နိုင်မည်	-8512
နိုင်သည်	-8513
နှင့်သူ၏	-8514
ပေးရမည်။	-8515
ဖိလိတ္တိ	-8516
မုန့်ညက်	-8517
ဝမ်းနည်း	-8518
သင်တို့၏	-8519
သုံးနှစ်	-8520
သောအဆင်း	-8521
အပေါင်း၊	-8522
အရာနှင့်	-8523
ဥစ္စာသည်	-8524
▁ကျယ်သော	-8525
▁ခွဲခန့်	-8526
▁စော်ကား	-8527
▁ဆယ်နှစ်	-8528
▁တောခွေး	-8529
▁ထားကြ၏။	-8530
▁ထိုတရား	-8531
▁ထွက်ဝင်	-8532
▁ပသခါပွဲ	-8533
▁ပြညွှန်	-8534
▁မကြွင်း	-8535
▁မဆီးတား	-8536
▁မရှိပါ။	-8537
▁မြင်မက်	-8538
▁ယခုလည်း	-8539
▁ယုံမှား	-8540
▁ယှဉ်သော	-8541
▁ရေနှင့်	-8542
▁ရောက်၏။	-8543
▁ရှုရိလူ	-8544
▁သာယာသော	-8545
▁သေသောသူ	-8546
▁အကိုင်း	-8547
▁အကြင်သူ	-8548
▁အမိနဒပ်	-8549
▁အသက်တရာ	-8550
ကြပါသည်ဟု	-8551
တိုင်တည်၍	-8552
ပ္ပနိမိတ်	-8553
ပြောင်းလဲ	-8554
ဖောက်ပြန်	-8555
ဘဲနေလျှင်	-8556
ရမည်လောဟု	-8557
လိုက်လေ၏။	-8558
သည်နည်းတူ	-8559
သုံးဆောင်	-8560
သောသူများ	-8561
အချိန်ကို	-8562
အရပ်တို့၌	-8563
အံ့နည်းဟု	-8564
ိုးခြံစွာ	-8565
▁ကောက်သော	-8566
▁ကြိတ်ဆုံ	-8567
▁ခါနနိလူ၊	-8568
▁ငါခံရသော	-8569
▁ငါ့လက်မှ	-8570
▁ငါ၏ကျွန်	-8571
▁ငွေဖလား၊	-8572
▁စိတ်ရှည်	-8573
▁စိမ်းသော	-8574
▁ဆီရောသော	-8575
▁တော်မူ၍၊	-8576
▁ထိုလုလင်	-8577
▁ဒံယေလကို	-8578
▁ပမာဏမပြု	-8579
▁ဘိသိက်ခံ	-8580
▁မပျက်စီး	-8581
▁မီးနှင့်	-8582
▁မုန်းသော	-8583
▁မြင်းစီး	-8584
▁မြွေဆိုး	-8585
▁မွေးဘွား	-8586
▁မှီခိုရာ	-8587
▁လယ်ပြင်၌	-8588
▁လွှဲသွား	-8589
▁ဝန်စာရေး	-8590
▁သတ်ရမည်။	-8591
▁သေချာစွာ	-8592
▁သေရည်သေရ	-8593
▁သော်လည်း	-8594
ပါးတို့သည်	-8595
ယောက်တည်း။	-8596
ရှိပါသည်ဟု	-8597
သို့ရောက်၍	-8598
သီချင်းကို	-8599
သွေ့ခြောက်	-8600
▁ကိုယ်အသက်	-8601
▁စကားသံကို	-8602
▁စာရင်းဝင်	-8603
▁တံခါးရွက်	-8604
▁ထုတ်ဆောင်	-8605
▁ပယ်ရှား၍၊	-8606
▁ဘုရားဝတ်၌	-8607
▁မိမိအဘော်	-8608
▁ယေရမိသို့	-8609
▁လက်ရဥစ္စာ	-8610
▁လမ်းခရီး၌	-8611
▁လှည့်လည်၍	-8612
▁သင်တို့က၊	-8613
▁သင့်အလယ်၌	-8614
▁သုံးဆောင်	-8615
▁သူ့ထံသို့	-8616
▁သံလွင်ပင်	-8617
▁ဟိတ္တိလူ၊	-8618
▁အနောက်ဘက်	-8619
▁အပြစ်လွတ်	-8620
▁အသက်အရွယ်	-8621
▁အုပ်ချုပ်	-8622
▁ဤအရပ်သို့	-8623
ကြားသောအခါ၊	-8624
ကြွတော်မူ၏။	-8625
စပျစ်ဥယျာဉ်	-8626
မြောက်သောသူ	-8627
လွန်သောအခါ၊	-8628
သွားကြလော့။	-8629
▁ခန့်ထားသော	-8630
▁ခိုင်မာသော	-8631
▁ချီမြှောက်	-8632
▁ဂတိတော်ကို	-8633
▁ငါမြင်ပြီ။	-8634
▁ဆိုပြီးမှ၊	-8635
▁ညှဉ်းဆဲသော	-8636
▁တဲတော်သို့	-8637
▁ထာဝရဘုရားက	-8638
▁ထိုအိမ်ကို	-8639
▁ထွက်သွား၍၊	-8640
▁နိုင်ငံကို	-8641
▁နေအောက်မှာ	-8642
▁ပေါလုနှင့်	-8643
▁ပြင်ဆင်သော	-8644
▁ပြည်တန်ဆာမ	-8645
▁မတရားသောသူ	-8646
▁မသိကြသလော။	-8647
▁မြစ်အနောက်	-8648
▁ရှောလမုန်၏	-8649
▁လည်ပင်းကို	-8650
▁လူများတို့	-8651
▁သင်၏အစ်ကို	-8652
▁သမုဒ္ဒရာသဲ	-8653
▁သူတို့နေရာ	-8654
▁အတိုင်းမသိ	-8655
▁အဗရှလုံသည်	-8656
▁အသွေးနှင့်	-8657
▁အဦးဘွားသော	-8658
▁အောက်မေ့၍၊	-8659
ဘုရားတို့ကို	-8660
▁ကြီးမြတ်သော	-8661
▁ကြွလာတော်မူ	-8662
▁ငါမှာထားသော	-8663
▁စကားတို့ကို	-8664
▁ဆောင်ခဲ့သော	-8665
▁တပ်ပြင်သို့	-8666
▁တဲတော်နှင့်	-8667
▁ထိုပြည်သို့	-8668
▁ပုန်းရှောင်	-8669
▁ဘိုးဘေးများ	-8670
▁မျိုးစေ့ကြဲ	-8671
▁ရောက်လေပြီ။	-8672
▁သင်၏သားသမီး	-8673
▁အဆွေအမျိုး၊	-8674
▁အပြစ်ဒဏ်ကို	-8675
▁အဘယ်ကျေးဇူး	-8676
▁အလွန်ကြောက်	-8677
သည်မဟုတ်လောဟု	-8678
သောအမှုဖြစ်၏။	-8679
▁ကြမ်းတမ်းစွာ	-8680
▁စစ်ခင်းကျင်း	-8681
▁ပိလတ်မင်းသည်	-8682
▁မီးရှို့ကြ၏။	-8683
▁ယာကုပ်အမျိုး	-8684
▁ယုဒအမျိုးကို	-8685
▁ရုန်းရင်းခတ်	-8686
▁လျောက်ပတ်စွာ	-8687
▁သားဘွားခြင်း	-8688
▁သူတော်ကောင်း	-8689
▁ဥယျာဉ်စောင့်	-8690
ခြင်းကိုခံရသော	-8691
ခြင်းအခွင့်ကို	-8692
ခြင်းအားဖြင့်၊	-8693
ဖြစ်သောကြောင့်	-8694
▁ကဲ့ရဲ့ပြစ်တင်	-8695
▁ကြားလိုက်ပါ၏။	-8696
▁ပေးတော်မူပြီ။	-8697
▁မြေတပြင်လုံး၌	-8698
▁အမျက်တော်ထွက်	-8699
ဖြစ်စေခြင်းငှါ၊	-8700
သောသူတို့မူကား၊	-8701
▁ကျွန်တော်မျိုး	-8702
▁ငါတို့နှင့်အတူ	-8703
▁တန်ခိုးကြီးသော	-8704
▁ဒုစရိုက်ကိုပြု	-8705
▁နာဇရက်မြို့သား	-8706
▁မောရှေအားဖြင့်	-8707
▁ရောက်လာသောအခါ၊	-8708
▁သားသမီးများကို	-8709
▁ကြည့်ရှုကြလော့။	-8710
▁ငါသည်သင်တို့ကို	-8711
▁တမန်တော်တို့ကို	-8712
▁နှုတ်ဆက်ကြလော့။	-8713
▁ဖျက်ဆီးခြင်းငှါ	-8714
▁အမှုတော်တို့ကို	-8715
▁အလုံးစုံတို့သည်	-8716
▁ဣသရေလနိုင်ငံကို	-8717
ဇ၊	-8718
ဒလ	-8719
ဘဝ	-8720
မစ	-8721
ယ။	-8722
ဝမ	-8723
ကမ္	-8724
ဆစ်	-8725
ဇုရ	-8726
ဇေဗ	-8727
ဗေရ	-8728
ဘီး	-8729
မရ။	-8730
ရေလ	-8731
ရံ၊	-8732
သိလ	-8733
ိပ္	-8734
ေယူ	-8735
▁ရ။	-8736
▁ဩဃ	-8737
ကန့်	-8738
ကလတ်	-8739
ကျို	-8740
ချ၍၊	-8741
စပြု	-8742
တထည်	-8743
ထွန်	-8744
နာရိ	-8745
ပါယ်	-8746
ဗ္ဗာ	-8747
မကပ်	-8748
မခံ၊	-8749
မာခါ	-8750
မိမ်	-8751
သေ၍၊	-8752
အတား	-8753
ာဝင်	-8754
ုရန်	-8755
▁ခေရ	-8756
▁စည်	-8757
▁မရှ	-8758
▁ယို	-8759
▁ရယ်	-8760
▁သတေ	-8761
▁ဟုရ	-8762
▁အာတ	-8763
က်သည်	-8764
ကျသော	-8765
ကြမည်	-8766
ခံရ၍၊	-8767
စုထဲက	-8768
တည်း၊	-8769
တရား၊	-8770
ဒုတ်၊	-8771
ပြည်၏	-8772
ပြသော	-8773
ဖိဗော	-8774
မကုန်	-8775
သမုတ်	-8776
အဆုံး	-8777
အမှု၊	-8778
အရုပ်	-8779
၏မယား	-8780
▁ကာလ၊	-8781
▁ကြေး	-8782
▁ဂေဟာ	-8783
▁တွေး	-8784
▁ပဌမလ	-8785
▁ပိန်	-8786
▁မကွာ	-8787
▁မတတ်	-8788
▁မေဒိ	-8789
▁မှာ၊	-8790
▁ယေဖု	-8791
▁ရပ်၍	-8792
▁သန်း	-8793
▁သမင်	-8794
▁သေ၏။	-8795
▁အဆီး	-8796
▁အရူး	-8797
▁အဝင်	-8798
▁ဧဒင်	-8799
ကျင့်၍	-8800
ဆက်သော	-8801
နှုတ်၌	-8802
မကျင့်	-8803
မစီရင်	-8804
မသောက်	-8805
မြင်၏။	-8806
မြို့၏	-8807
ရသောသူ	-8808
ရာလမ်း	-8809
ရှိသေး	-8810
လှူသော	-8811
သိမ်း၍	-8812
သိုထား	-8813
သူတပါး	-8814
အရာသည်	-8815
▁ကခုန်	-8816
▁ကာရန်	-8817
▁ကဲသရိ	-8818
▁ငါရေး	-8819
▁စောင်	-8820
▁ဆိုကြ	-8821
▁တော်၏	-8822
▁ပျိုး	-8823
▁ပြည်၊	-8824
▁မကယ်မ	-8825
▁မခေါ်	-8826
▁မရိတ်	-8827
▁မေလခိ	-8828
▁ဟောက်	-8829
▁အပ်၍၊	-8830
▁အဘယ်က	-8831
ကလေးကို	-8832
ကျင်လည်	-8833
ကြလတံ့။	-8834
ကွယ်အကာ	-8835
တယောက်၊	-8836
ပေးကြ၏။	-8837
ပျက်သော	-8838
ပြားသော	-8839
ယောနသန်	-8840
ရပ်နေ၏။	-8841
ရွာသို့	-8842
ရှာယသည်	-8843
ရှိပြီ။	-8844
လော့ဟု၊	-8845
လွှင့်၍	-8846
သည်ကို၊	-8847
သည်တွင်	-8848
သားတော်	-8849
သားများ	-8850
အသားကို	-8851
အုပ်သော	-8852
ိပ္ပါယ်	-8853
ိပ်နင်း	-8854
၏သားသည်	-8855
▁ကောင်၊	-8856
▁ကြမည်။	-8857
▁ငါ့ထံ၌	-8858
▁ဇိကလတ်	-8859
▁တခါမျှ	-8860
▁တုရိယာ	-8861
▁ထိုင်၍	-8862
▁ထောင့်	-8863
▁နာကျင်	-8864
▁နောက်၌	-8865
▁နှစ်ရာ	-8866
▁နှောင်	-8867
▁ပါမည်။	-8868
▁ပုဆိန်	-8869
▁ပြိုလဲ	-8870
▁ပြောင်	-8871
▁ဖြူသော	-8872
▁ဖွင့်၍	-8873
▁မသိကြ။	-8874
▁ရေဖိမ်	-8875
▁လက်ခြေ	-8876
▁လေပြီ။	-8877
▁သတေဖန်	-8878
▁အညွန့်	-8879
▁အထောင်	-8880
▁အပွင့်	-8881
▁အဘိရှဲ	-8882
▁အရာသည်	-8883
▁အသံဗလံ	-8884
▁အိုငါ့	-8885
▁ဤအမှု၌	-8886
ကြီးမြတ်	-8887
ကြောင်း၊	-8888
ခဲ့ပြီဟု	-8889
ချိုးဖဲ့	-8890
ငြင်းပယ်	-8891
ငြိမ်သက်	-8892
စားသောက်	-8893
ဆွေးနွေး	-8894
နိုင်ပါ။	-8895
ပညတ်တရား	-8896
ပါတကားဟု	-8897
ပေးလော့။	-8898
မိမိတို့	-8899
များတို့	-8900
မြင်လေ၏။	-8901
လှည့်စား	-8902
သုံးဆယ်၊	-8903
အမျိုးမှ	-8904
အဲဂုတ္တု	-8905
▁ကြောက်၍	-8906
▁ခြေဘဝါး	-8907
▁ငါမူကား	-8908
▁ငါ့စိတ်	-8909
▁ငံ့လင့်	-8910
▁ငွေရတတ်	-8911
▁တရားသည်	-8912
▁ထင်းရူး	-8913
▁ထပ်ဆင့်	-8914
▁ဒဏ်ချက်	-8915
▁နားပင်း	-8916
▁ပုပ်စပ်	-8917
▁ပြီးမှ၊	-8918
▁မည်လော။	-8919
▁မတောင်း	-8920
▁မေရှက်၊	-8921
▁မြတ်သော	-8922
▁ယနေ့ပင်	-8923
▁ယာကုပ်၊	-8924
▁ရွှေကို	-8925
▁လမ်းမှာ	-8926
▁သင်ပြော	-8927
▁သားကား၊	-8928
▁သူ့ကိုမ	-8929
▁ဟိဝိလူ၊	-8930
▁အဟိတုပ်	-8931
▁ဤအရပ်မှ	-8932
▁ဥာဏ်ကို	-8933
ကြောင့်သာ	-8934
ခမည်းတော်	-8935
ငါးကောင်၊	-8936
တဘက်တချက်	-8937
ဒုန်မြို့	-8938
များတို့၊	-8939
အချို့ကို	-8940
အစဉ်မပြတ်	-8941
အစိုးရသော	-8942
အောက်သို့	-8943
▁ကိုယ်ကာယ	-8944
▁ကုန်သွယ်	-8945
▁ခေါ်ပင့်	-8946
▁ဂေရရှုန်	-8947
▁ဂျုံစပါး	-8948
▁ငါမူကား၊	-8949
▁ငါ့ထံမှာ	-8950
▁စာတန်သည်	-8951
▁ဆိုတတ်၏။	-8952
▁ဆောင်သော	-8953
▁ညစ်ညူးစေ	-8954
▁ထိုသူငယ်	-8955
▁ထိုအခန်း	-8956
▁နှုတ်ကို	-8957
▁ပါစေသော။	-8958
▁ပြုမိသော	-8959
▁မိုဃ်းရေ	-8960
▁ယေရမိကို	-8961
▁ယောယဒသား	-8962
▁ရပ်နေသော	-8963
▁လက်ညှိုး	-8964
▁အနာဂတ္တိ	-8965
▁အနီးအပါး	-8966
▁အပြစ်ပြု	-8967
▁အာရဇ်ပင်	-8968
▁အိမ်ရှင်	-8969
▁ဥပမာကား၊	-8970
ကြစဉ်တွင်၊	-8971
ချင်းဆိုင်	-8972
ခြင်းအမှု၊	-8973
တစုံတခုမျှ	-8974
တို့မူကား၊	-8975
တွင်ရှိသော	-8976
နှစ်ပေါင်း	-8977
ဘဲနေလျှင်၊	-8978
မြေကြီးကို	-8979
ရမည်နည်းဟု	-8980
ရှောက်သွား	-8981
လည်ပင်းကို	-8982
သင်တို့ကို	-8983
▁ကိုယ်ကိုမ	-8984
▁ခရစ်တော်၌	-8985
▁ခေါင်းကို	-8986
▁ဂိဗာမြို့	-8987
▁ငါပေးပြီ။	-8988
▁ငါဖျက်ဆီး	-8989
▁ငါ၏နာမကို	-8990
▁စကားမပြော	-8991
▁စုံလင်သော	-8992
▁စောင့်သော	-8993
▁စောင်းတီး	-8994
▁တိုင်ထိပ်	-8995
▁ထင်ရှား၏။	-8996
▁နောက်ဖြစ်	-8997
▁နေ့ရက်ကို	-8998
▁နှလုံးကို	-8999
▁နှုတ်ထွက်	-9000
▁ပြန်ဆို၏။	-9001
▁မကိုးကွယ်	-9002
▁ရှောလုကို	-9003
▁ရှောလုအား	-9004
▁လာကြလော့။	-9005
▁လူတသောင်း	-9006
▁လွန်ကျူး၍	-9007
▁အပြစ်ကင်း	-9008
▁အဘိုးပြတ်	-9009
▁အမိန့်ရှိ	-9010
▁အမျိုးသည်	-9011
ကြသည်မဟုတ်။	-9012
စကားတော်ကို	-9013
တယောက်ရှိ၏။	-9014
တော်ကိုလည်း	-9015
တော်မူသလော။	-9016
နံ့သာပေါင်း	-9017
နှင့်အာရုန်	-9018
ပတ်ဝန်းကျင်	-9019
ပြန်သောအခါ၊	-9020
မင်းကြီးကို	-9021
သွားသဖြင့်၊	-9022
အချင်းချင်း	-9023
ဣသရေလအမျိုး	-9024
၏သားတို့သည်	-9025
▁ကျောက်မြတ်	-9026
▁ငါပြန်ပြော	-9027
▁စည်းဝေးသော	-9028
▁ဆိုတတ်ကြ၏။	-9029
▁တပြိုင်နက်	-9030
▁တောင်ပေါ်၌	-9031
▁ထူးခြားသော	-9032
▁ထွက်သွား၏။	-9033
▁နောက်ဆုံး၌	-9034
▁ပြုသဖြင့်၊	-9035
▁ဖျက်ဆီးသော	-9036
▁ဖြည်းညှင်း	-9037
▁ရောက်တတ်၏။	-9038
▁သောစကားကို	-9039
▁အချည်းစည်း	-9040
▁အစေခံကျွန်	-9041
▁အပြစ်နှင့်	-9042
▁အရှင်ဘုရား	-9043
▁အဝတ်ကိုဝတ်	-9044
▁အာနုန်မြစ်	-9045
▁ဥာဏ်ကောင်း	-9046
ကိုယ်တော်သည်	-9047
ခြင်းတရားကို	-9048
တော်မူသဖြင့်	-9049
နိုင်သနည်းဟု	-9050
များနှင့်တကွ	-9051
မြို့သားတို့	-9052
ရန်သူတို့ကို	-9053
အချိန်ရှိသော	-9054
အရေအတွက်ကား၊	-9055
▁ကြွတော်မူ၏။	-9056
▁ခြိုးခြံစွာ	-9057
▁စည်းဝေးကြ၏။	-9058
▁တပါးတည်းသော	-9059
▁တွင်းထဲသို့	-9060
▁နန်းတော်ကို	-9061
▁ပြတော်မူသော	-9062
▁မတရားသောသူ၏	-9063
▁မမူပါနှင့်။	-9064
▁ယောရှဖတ်သည်	-9065
▁လုပ်ကြံလေ၏။	-9066
▁သင်တို့ကြား	-9067
▁သူတို့လက်မှ	-9068
▁သူ့အပေါ်မှာ	-9069
▁အငယ်ဆုံးသော	-9070
▁အမှုများကို	-9071
▁အလွန်ဆင်းရဲ	-9072
▁အာဏာတော်ကို	-9073
▁ဤအရာများကို	-9074
▁ဥပုသ်နေ့ကို	-9075
တစုံတယောက်မျှ	-9076
သနည်းဟူမူကား၊	-9077
▁ကိရယတ်ယာရိမ်	-9078
▁ကိုယ်အမှုကို	-9079
▁ကဲ့သို့၎င်း၊	-9080
▁ကျဉ်းမြောင်း	-9081
▁ငါတို့သိကြ၏။	-9082
▁ညစ်ညူးသောနတ်	-9083
▁နံနက်အချိန်၌	-9084
▁ပရောဖက်တို့၏	-9085
▁ပြပ်ဝပ်လျက်၊	-9086
▁ဘွားမြင်လေ၏။	-9087
▁မှာလိုက်လေ၏။	-9088
▁ရှိမုန်ပေတရု	-9089
▁သောသူတို့သည်	-9090
▁အကြောင်းပြု၍	-9091
▁အပြစ်တို့ကို	-9092
▁အသက်ကြီးရင့်	-9093
▁ကိုယ်ဝန်ဆောင်	-9094
▁ကောင်းမကောင်း	-9095
▁ကျိန်ခြင်းကို	-9096
▁ချစ်တော်မူသော	-9097
▁ခြင်းငှါ၎င်း၊	-9098
▁စပျစ်သီးနယ်ရာ	-9099
▁စီရင်တော်မူ၏။	-9100
▁တစုံတခုကိုမျှ	-9101
▁တဖန်မောရှေအား	-9102
▁ထိုသူတို့တွင်	-9103
▁ပြစ်မှားစေသော	-9104
▁ဖန်ဆင်းတော်မူ	-9105
▁ဖါရောဘုရင်သည်	-9106
▁မိမိသန့်ရှင်း	-9107
▁ယေရောဗောင်သည်	-9108
▁ရုပ်တုတို့ကို	-9109
▁လွှမ်းမိုးသော	-9110
▁သွေ့ခြောက်သော	-9111
▁အချည်းနှီးသော	-9112
တော်မူသော်လည်း၊	-9113
အပေါင်းတို့ကို၊	-9114
▁ကြွယ်ဝပြည့်စုံ	-9115
▁ဇိအုန်မြို့ကို	-9116
▁နတ်ဆိုးတို့ကို	-9117
▁ပြုသောကြောင့်၊	-9118
▁မစင်ကြယ်ဖြစ်၏။	-9119
▁လောကီရှင်ဘုရင်	-9120
▁လျှောက်ဆိုကြ၏။	-9121
▁သုံးရက်ပတ်လုံး	-9122
▁အကောင်းဆုံးသော	-9123
▁အမျိုးအစဉ်အဆက်	-9124
တော်မူလိမ့်မည်ဟု	-9125
သုံးယောက်တို့သည်	-9126
▁ကယ်တင်တော်မူပါ။	-9127
▁ကိုယ်တော်၏ကျွန်	-9128
▁ညီအစ်ကိုတို့သည်	-9129
▁ထာဝရဘုရား၏ကျွန်	-9130
▁ထိုသို့ဆိုသော်၊	-9131
▁မတရားသောသူတို့၏	-9132
▁လူအချို့တို့သည်	-9133
▁အဆုံးတိုင်အောင်	-9134
▁အောက်မေ့ကြလော့။	-9135
တလ	-9136
ဖု	-9137
ဩဗ	-9138
ကျ၍	-9139
ခြာ	-9140
ခွာ	-9141
ဆီ၊	-9142
တ်၊	-9143
ဒူး	-9144
နူး	-9145
ပျံ	-9146
အမိ	-9147
အို	-9148
▁အဒ	-9149
▁ဧဂ	-9150
ခံယူ	-9151
ခံရ၍	-9152
ချီ၍	-9153
ခွန်	-9154
ဂုန်	-9155
ငှာ၊	-9156
စာရာ	-9157
ဆီဥ၊	-9158
ဆွဲ၍	-9159
ညက်၊	-9160
တပင်	-9161
ဒုကဲ	-9162
ပွဲ၌	-9163
မခံရ	-9164
မခံ။	-9165
ရဘဲ၊	-9166
ရာယ်	-9167
ရှာခ	-9168
လျင်	-9169
သကဲ့	-9170
ေယူ၍	-9171
့ကို	-9172
▁ခဲ့	-9173
▁ဇာဗ	-9174
▁ဇာလ	-9175
▁တဟာ	-9176
▁နီမ	-9177
▁ပါ။	-9178
▁ယေဟ	-9179
▁လူး	-9180
▁ဟေသ	-9181
ကြား၌	-9182
ကွက်၌	-9183
စေဘဲ၊	-9184
ဆို၍၊	-9185
ဇေရဇ်	-9186
ဒ်သား	-9187
နွား၊	-9188
ဖြတ်၍	-9189
မလွှဲ	-9190
မှန်း	-9191
လို၍၊	-9192
လေးခု	-9193
ာဗော်	-9194
ားကို	-9195
▁ချုံ	-9196
▁ချော	-9197
▁ဆီဥ၊	-9198
▁တည့်	-9199
▁ထိပ်	-9200
▁ထုပ်	-9201
▁နဖူး	-9202
▁ပစပ်	-9203
▁ဖုတ်	-9204
▁ဗေသန	-9205
▁မစင်	-9206
▁မိရိ	-9207
▁ယမန်	-9208
▁ရိပ်	-9209
▁ရေး၍	-9210
▁အနံ့	-9211
▁အိတ်	-9212
▁ဣဇဟာ	-9213
ကိုစား	-9214
ကိုဝတ်	-9215
ကြား၍၊	-9216
ကြီးလှ	-9217
တဆောင်	-9218
တိုင်၊	-9219
တိုင်၌	-9220
တုရန်း	-9221
တဲတော်	-9222
တံစို့	-9223
ထိုင်၍	-9224
ဒ္ဒုကဲ	-9225
နေရသော	-9226
ဘဲနေ၍၊	-9227
မည်မျှ	-9228
မည်ဟု၊	-9229
မ္မသတ်	-9230
ယစ်မူး	-9231
ရလျှင်	-9232
ရှာသော	-9233
လွန်မှ	-9234
ဝန်ကို	-9235
သေကြ၏။	-9236
ဟေရှာယ	-9237
အရှေ့၊	-9238
၍မသွား	-9239
▁ငါခံရ	-9240
▁ငါထား	-9241
▁ငါရှိ	-9242
▁စကားအ	-9243
▁တပါး၊	-9244
▁ထား၏။	-9245
▁နေရ၏။	-9246
▁ပတ်သာ	-9247
▁ဖြစ်ရ	-9248
▁ဘထွေး	-9249
▁မခံရ။	-9250
▁မလွှဲ	-9251
▁မာလခိ	-9252
▁မိက္ခ	-9253
▁မျက်စ	-9254
▁ယေရုဗ	-9255
▁ရွှေဇ	-9256
▁ရွှေရ	-9257
▁ရှို့	-9258
▁လုယူ၍	-9259
▁လူတဦး	-9260
▁သတ်မိ	-9261
▁အစအဦး	-9262
▁အဘကို	-9263
▁အမြီး	-9264
▁အမှု၌	-9265
▁အသည်း	-9266
▁အသနား	-9267
▁အဟိကံ	-9268
▁အိုဇိ	-9269
ခုနစ်ရာ	-9270
စက်ဆုပ်	-9271
စပ်တည်း	-9272
စားဘွယ်	-9273
စေပြီဟု	-9274
ဆည်းဖူး	-9275
ဆိုးညစ်	-9276
ဌာနတော်	-9277
တထောင်၊	-9278
တောင်မှ	-9279
ထားလျက်	-9280
ထိုင်၍၊	-9281
နေသောသူ	-9282
နောက်မှ	-9283
ပေးလေ၏။	-9284
ပေးသနား	-9285
ဗောရှက်	-9286
မမြင်ရ။	-9287
မရှိကြ။	-9288
မိတ်ဆွေ	-9289
မှတ်သား	-9290
ယေရှုက၊	-9291
ယောက္ခမ	-9292
ယ်တိုင်	-9293
သခင်ကို	-9294
သမီးကို	-9295
သေကောင်	-9296
သောင်း၊	-9297
သောအပင်	-9298
သောအမည်	-9299
သောအမွေ	-9300
အိပ်မက်	-9301
▁ကျွန်း	-9302
▁ငယ်သော	-9303
▁ငါနေ၏။	-9304
▁ငါပြန်	-9305
▁ငါ့လက်	-9306
▁တသိန်း	-9307
▁ဒေနာရိ	-9308
▁နာဗုတ်	-9309
▁ပြည်မှ	-9310
▁ပြည့်ဝ	-9311
▁ဘွဲ့နာ	-9312
▁မြင်၏။	-9313
▁သတ္တမလ	-9314
▁သလဲသီး	-9315
▁သူငှါး	-9316
▁ဟောရပ်	-9317
▁အိုယုဒ	-9318
▁ဣဇာက်၏	-9319
▁ဤလောက၌	-9320
ကြသတည်း။	-9321
ထားနှင့်	-9322
နှစ်လုံး	-9323
ပညာနှင့်	-9324
ပေရနောင်	-9325
ဖုံးအုပ်	-9326
မစင်ကြယ်	-9327
မျှမပြော	-9328
ရည်မှတ်၍	-9329
ရုံမျှသာ	-9330
လိုလျှင်	-9331
လျက်နေ၍၊	-9332
သည်တွင်၊	-9333
အကြီးအကဲ	-9334
အထံတော်၌	-9335
အပြစ်သည်	-9336
အမြစ်ကို	-9337
ိမင်းသည်	-9338
▁ကမ္ဘာဦး	-9339
▁ကူးသွား	-9340
▁ကျောက်၊	-9341
▁ကြားသော	-9342
▁ဂေါရှင်	-9343
▁ငါကျိန်	-9344
▁ငါဆုံးမ	-9345
▁ငါမပြော	-9346
▁ဆေးသမား	-9347
▁ညအချိန်	-9348
▁တရားဟော	-9349
▁တိမောသေ	-9350
▁ထိုအတူ၊	-9351
▁နေရမည်။	-9352
▁ပေးတော်	-9353
▁မပူဇော်	-9354
▁မရိုမသေ	-9355
▁မိန်းမ၏	-9356
▁ယေခေါနိ	-9357
▁ယေဟုသည်	-9358
▁ရာဗရှာခ	-9359
▁သားမယား	-9360
▁သေအောင်	-9361
▁ဟေရမုန်	-9362
▁ဧလျာရှိ	-9363
▁ဧသတာသည်	-9364
▁ဧသောသည်	-9365
ကြိုးစား၍	-9366
ဆိုသတည်း။	-9367
ဆောင်ခဲ့၍	-9368
တော်အဘို့	-9369
နှစ်ကွင်း	-9370
ပြုခြင်း၊	-9371
ဖိဗောရှက်	-9372
ဘုံဗိမာန်	-9373
မရှိလျှင်	-9374
ရခြင်းငှါ	-9375
ရုပ်တုကို	-9376
ရွေးနှုတ်	-9377
လာသောအခါ၊	-9378
လုပ်ကျွေး	-9379
လျှောက်၏။	-9380
▁ကျမ်းတတ်	-9381
▁ခန့်ထား၍	-9382
▁ငါတောင်း	-9383
▁ငါ့တဘက်၌	-9384
▁ငါ့ဘုန်း	-9385
▁ငါ့အရိုး	-9386
▁ငြိုငြင်	-9387
▁ငွေနှင့်	-9388
▁စောစောထ၍	-9389
▁ဆွေးမြေ့	-9390
▁ထမ်းရွက်	-9391
▁ဖေရဇိလူ၊	-9392
▁ဘမ်းဆီး၍	-9393
▁မဝါကြွား	-9394
▁မြစ်ကြီး	-9395
▁မြို့ထဲက	-9396
▁လမ်းလွှဲ	-9397
▁လိမ်းရန်	-9398
▁လုံးလုံး	-9399
▁လူသားကို	-9400
▁လေးထောင်	-9401
▁သပိတ်ပင်	-9402
▁သမုတ်သော	-9403
▁သုစရိုက်	-9404
▁ဟာမန်သည်	-9405
▁အဘထံသို့	-9406
▁အရည်ကျို	-9407
▁ဤအရပ်ဌာန	-9408
▁ဧလိရှဲက၊	-9409
ကိုယ်တော်၏	-9410
ကြကုန်အံ့၊	-9411
ခန့်ထားသော	-9412
တော်မူကား၊	-9413
ဖန်များစွာ	-9414
မိုဃ်းတိမ်	-9415
ယောင်ဆောင်	-9416
သင်္ဂြိုဟ်	-9417
သောစကားသည်	-9418
သောအသီးကို	-9419
ဟုခေါ်ဝေါ်	-9420
▁ငါစစ်ကြော	-9421
▁ငါဖန်ဆင်း	-9422
▁စကားနှင့်	-9423
▁စစ်မှုကို	-9424
▁ဆောင်ခဲ့၍	-9425
▁ညီအစ်ကို၊	-9426
▁တဖန်မိန့်	-9427
▁တယောက်သည်	-9428
▁တိုက်ဖျက်	-9429
▁ထင်ရှားစေ	-9430
▁ထိုအရာကို	-9431
▁နောက်ချေး	-9432
▁ဗိုလ်မင်း	-9433
▁မိမိအဘို့	-9434
▁ယောက်ျား၊	-9435
▁ဝိညာဉ်သည်	-9436
▁သန်းခေါင်	-9437
▁သော်၎င်း၊	-9438
▁သံတမန်ကို	-9439
▁အကြီးအငယ်	-9440
▁အချိန်ကာလ	-9441
▁အနာပျောက်	-9442
▁အလွန်ချစ်	-9443
▁အာဗြဟံအား	-9444
ခြင်းမရှိဘဲ	-9445
စည်းစိမ်ကို	-9446
တို့ကြောင့်	-9447
တော်မူလိမ့်	-9448
ထမ်းဘိုးကို	-9449
ပေးလိုက်သော	-9450
ဖြစ်ပါသည်ဟု	-9451
ဘွယ်စားဘွယ်	-9452
မိန်းမနှင့်	-9453
မိသော်၎င်း၊	-9454
မျက်နှာကြက်	-9455
မြင်သောအခါ၊	-9456
သည်အကြောင်း	-9457
သည့်အတိုင်း	-9458
သားတို့သည်၊	-9459
သောစိတ်ရှိ၍	-9460
သောသူတိုင်း	-9461
၏သားဖြစ်သော	-9462
▁ငါနှင်ထုတ်	-9463
▁ငါသည်လည်း၊	-9464
▁ငါအသက်ရှင်	-9465
▁ငါအောက်မေ့	-9466
▁ဆိုးညစ်သော	-9467
▁ဆောင်သွင်း	-9468
▁တည်းဟူသော၊	-9469
▁တပြည်လုံး၌	-9470
▁နားထောင်ကြ	-9471
▁နေတော်မူ၏။	-9472
▁နှုတ်ဖြင့်	-9473
▁ပုံသဏ္ဌာန်	-9474
▁ပူဇော်လေ၏။	-9475
▁ပြောတတ်သော	-9476
▁ဖြစ်ကြပါ၏။	-9477
▁ဗတ္တိဇံဆရာ	-9478
▁မင်္ဂလာကို	-9479
▁မဟုတ်မမှန်	-9480
▁မိုဃ်းမရွာ	-9481
▁ယေရှုခရစ်၌	-9482
▁ရှာကြလော့။	-9483
▁သင်္ဘောကို	-9484
▁သီချင်းကို	-9485
▁သေဘေးနှင့်	-9486
▁အနောက်ဘက်၌	-9487
▁အမွေခံရသော	-9488
▁အိမ်တော်ဦး	-9489
ခြင်းအမှုသည်	-9490
တန်ဆာများကို	-9491
တရှောက်လုံး၌	-9492
မင်္ဂလာရှိ၏။	-9493
သေကြောင်းကို	-9494
သောသူအပေါင်း	-9495
အပြစ်များကို	-9496
▁ကာလအစဉ်အဆက်	-9497
▁ကြောက်ရွံ့၍	-9498
▁ခါလဒဲလူတို့	-9499
▁ချယ်လှယ်သော	-9500
▁တယောက်နှင့်	-9501
▁ထိုနောက်မှ၊	-9502
▁ထိုမျှလောက်	-9503
▁ထွက်သွားသော	-9504
▁နှလုံးသွင်း	-9505
▁ပြပ်ဝပ်လျက်	-9506
▁ပြုခြင်းငှါ	-9507
▁မင်းကြီးကို	-9508
▁မိုဃ်းကြိုး	-9509
▁မိုဃ်းချုပ်	-9510
▁မုန့်ကိုဖဲ့	-9511
▁ယုဒမြို့ရွာ	-9512
▁ယောက်ျားကို	-9513
▁ရွာနှင့်တကွ	-9514
▁ရှာသော်လည်း	-9515
▁လက္ခဏာသက်သေ	-9516
▁လက်နက်ဆောင်	-9517
▁သစ္စာဂတိထား	-9518
▁သေခြင်းသို့	-9519
▁အမှီပြုလျက်	-9520
တို့ကိုခေါ်၍၊	-9521
တော်အားဖြင့်၊	-9522
များနှင့်တကွ၊	-9523
ရှိစေခြင်းငှါ	-9524
သွားရာလမ်းကို	-9525
အမျိုးဖြစ်သော	-9526
▁ကျွန်တို့ကို	-9527
▁ကျွန်ုပ်တို့	-9528
▁ငါဝမ်းမြောက်	-9529
▁ငါသည်သင့်ကို	-9530
▁ငိုကြွေးကြ၏။	-9531
▁တန်ဆာတို့ကို	-9532
▁ထိုရှင်ဘုရင်	-9533
▁ဒါရိမင်းကြီး	-9534
▁နှုတ်ဆက်ကြ၏။	-9535
▁ပင်လယ်ထဲသို့	-9536
▁ပေးတော်မူသည်	-9537
▁ပြန်ပြောလေ၏။	-9538
▁မိမိတို့နေရာ	-9539
▁မိုဃ်းချုန်း	-9540
▁မြေတိရစ္ဆာန်	-9541
▁ရှောလုကလည်း၊	-9542
▁လူအသက်ကိုသတ်	-9543
▁လျှပ်စစ်ပြက်	-9544
▁ဝန်ခံကြလော့။	-9545
▁သင်တို့မူကား	-9546
▁သင်တို့ရှေ့၌	-9547
▁သိမ်းသွားသော	-9548
▁သူတို့မူကား၊	-9549
▁သူ၏လူတို့သည်	-9550
▁သေစေခြင်းငှါ	-9551
▁ဟေဗြုန်မြို့	-9552
▁အနှစ်နှစ်ဆယ်	-9553
▁အသင်းတော်ကို	-9554
▁အိုအကျွန်ုပ်	-9555
စရာအကြောင်းကို	-9556
ရှိစေခြင်းငှါ၊	-9557
လက်ဝါးကပ်တိုင်	-9558
▁ကောင်းကင်ဘုံ၏	-9559
▁ကျောက်တို့ကို	-9560
▁ငါကိုးကွယ်သော	-9561
▁တောင်းပန်ကြ၏။	-9562
▁တဲတော်အမှုကို	-9563
▁နေကြလိမ့်မည်။	-9564
▁နံနက်စောစောထ၍	-9565
▁နှုတ်တော်ထွက်	-9566
▁သူနှင့်သူ၏သား	-9567
▁သေတ္တာတော်သည်	-9568
▁အသက်ရှင်ခြင်း	-9569
▁အဲဂုတ္တုပြည်၏	-9570
စေခြင်းငှာ၎င်း၊	-9571
ပူဇော်သက္ကာဘို့	-9572
မရှိသောကြောင့်၊	-9573
▁ငါ့ပညတ်တို့ကို	-9574
▁ဆန့်ကျင်ဘက်ပြု	-9575
▁ထိုသို့ဆိုသော်	-9576
▁ပူဇော်သက္ကာပြု	-9577
▁ပြစ်မှားပါပြီ။	-9578
▁ပြည်သားတို့ကို	-9579
▁ရောက်လာသည်ကား၊	-9580
▁လူအများတို့သည်	-9581
▁လေဝိသားတို့အား	-9582
▁ဝတ်ပြုကိုးကွယ်	-9583
▁သူတို့သည်လည်း၊	-9584
▁အကျင့်အားဖြင့်	-9585
▁အကျွန်ုပ်တို့၌	-9586
▁အမျက်တော်ထွက်၍	-9587
▁အသက်ကြီးသူတို့	-9588
တိရစ္ဆာန်တို့ကို	-9589
▁ကြည့်ရှုသောအခါ၊	-9590
▁ထားနှင့်လုပ်ကြံ	-9591
▁နိမိတ်လက္ခဏာကို	-9592
▁ပြပ်ဝပ်ကိုးကွယ်	-9593
▁မနာရှေအမျိုးသား	-9594
▁မှာထားတော်မူသော	-9595
▁ယေရုရှလင်မြို့၊	-9596
▁လူမျိုးတို့တွင်	-9597
▁သင်္ဘောသဖန်းပင်	-9598
▁သင်္ဘောသဖန်းသီး	-9599
▁အလွန်ကြောက်ရွံ့	-9600
ခေ	-9601
သ၌	-9602
ဣရ	-9603
ဧဖ	-9604
ကြ၏	-9605
ဂြိ	-9606
ဇဉ်	-9607
ဇာရ	-9608
ဇော	-9609
ထစ်	-9610
နဲ၊	-9611
ဖတိ	-9612
မဆွ	-9613
လာ၊	-9614
သို	-9615
ဟုရ	-9616
အင်	-9617
အရံ	-9618
အာဂ	-9619
ေရှ	-9620
▁ဖု	-9621
▁ဗု	-9622
ကုပ်	-9623
ကောရ	-9624
ဂေါဂ	-9625
င်ရဲ	-9626
ငြီး	-9627
စေခံ	-9628
စွယ်	-9629
တရာ၊	-9630
ထင်း	-9631
ဒရယ်	-9632
န္နာ	-9633
ပစ်၍	-9634
ဖွယ်	-9635
မျို	-9636
မြူး	-9637
ရုပ်	-9638
ရောန	-9639
လို။	-9640
သရက်	-9641
ဟိတ်	-9642
ဟောဘ	-9643
အစား	-9644
အန္တ	-9645
အသား	-9646
ဧသတာ	-9647
ာသည်	-9648
ိရွာ	-9649
ေဇာ၊	-9650
▁ကြေ	-9651
▁ခံ၍	-9652
▁စဉ်	-9653
▁စေရ	-9654
▁စေ။	-9655
▁ဆဌမ	-9656
▁ဇိမ	-9657
▁ဒွါ	-9658
▁နဝမ	-9659
▁ပေလ	-9660
▁ပဲ့	-9661
▁ဗေဇ	-9662
▁ဘား	-9663
▁လာမ	-9664
▁လူမ	-9665
▁သဏ္	-9666
▁ဥရိ	-9667
ကာလမှ	-9668
စဖူး။	-9669
စရိတ်	-9670
ဆင်း၍	-9671
တည်ရာ	-9672
ဒရက်၊	-9673
နာသန်	-9674
ပယ်၍၊	-9675
ပုန်း	-9676
ပြော၍	-9677
ဖြစ်ရ	-9678
မရှား	-9679
မသင့်	-9680
မောက်	-9681
ရင်း၌	-9682
ရမည့်	-9683
လုနီး	-9684
လှသော	-9685
သရှေဘ	-9686
အထက်က	-9687
အနား၌	-9688
အပ်၍၊	-9689
အပ်၏။	-9690
အရှည်	-9691
အိမ်၊	-9692
အံ့ဟု	-9693
ေတ္တု	-9694
▁ကာရာ	-9695
▁ကေနိ	-9696
▁ကျူး	-9697
▁ကွပ်	-9698
▁ခါး၌	-9699
▁ခြေမ	-9700
▁ဂေဇာ	-9701
▁ငါက၊	-9702
▁စရပ်	-9703
▁စားရ	-9704
▁စေ၍၊	-9705
▁တိတု	-9706
▁ထား၍	-9707
▁ပယ်၍	-9708
▁ပေါ့	-9709
▁သည်း	-9710
▁သတိရ	-9711
▁သန့်	-9712
▁သားမ	-9713
▁အနား	-9714
▁အဗေဒ	-9715
▁အဟိယ	-9716
▁အာမသ	-9717
▁ဩဖိရ	-9718
▁ဩဗဒိ	-9719
ကိုမခံ	-9720
ကိုးရာ	-9721
ချွတ်၍	-9722
ဂြိပ္ပ	-9723
စစ်ကို	-9724
စေ့စေ့	-9725
တတ်သည်	-9726
တ္တိမ်	-9727
နယ်သော	-9728
မနှင့်	-9729
မပါသော	-9730
မားသော	-9731
မှီခို	-9732
ယနှင့်	-9733
ရည်ကို	-9734
ရအောင်	-9735
ရှမွေလ	-9736
ေလှုပ်	-9737
ဲဂုတ္တ	-9738
၌နေသော	-9739
▁ငါမသိ	-9740
▁ငါမေး	-9741
▁စုန်း	-9742
▁ဆဲရေး	-9743
▁တချက်	-9744
▁တအိမ်	-9745
▁တေမန်	-9746
▁ဒေသနာ	-9747
▁နာဒပ်	-9748
▁နေဗော	-9749
▁ပုလွေ	-9750
▁ဖလား၌	-9751
▁မဖျက်	-9752
▁မလွန်	-9753
▁ရွှံ့	-9754
▁ရှိနေ	-9755
▁လူတရာ	-9756
▁လူသတ်	-9757
▁လေသည်	-9758
▁သခင်၌	-9759
▁သတ်၍၊	-9760
▁အခကို	-9761
▁အတည့်	-9762
▁အနား၌	-9763
▁အဖြစ်	-9764
▁အလုံး	-9765
▁အလွတ်	-9766
▁အာနနိ	-9767
▁အာသလိ	-9768
▁ဤပြည်	-9769
▁ဥပဒေသ	-9770
▁ဧလကာန	-9771
ကိုတွေ့	-9772
ကုန်သည်	-9773
ကြည့်၍၊	-9774
ခံတွင်း	-9775
ခြေနင်း	-9776
စီရှိ၏။	-9777
ဆင်သင့်	-9778
ဆိုလျက်	-9779
ဆီနှင့်	-9780
တခုတည်း	-9781
တိုင်း၍	-9782
ထိခိုက်	-9783
နွားကို	-9784
ပွားကို	-9785
မင်းအား	-9786
မရှောင်	-9787
များထဲက	-9788
မှထွက်၍	-9789
မှူးသည်	-9790
ရွှေငွေ	-9791
လမ်းသည်	-9792
ဝင်ကြ၏။	-9793
ဝိညာဉ်၊	-9794
သစ်သား၊	-9795
သည်ကာလ၌	-9796
သမျှသည်	-9797
အကြွင်း	-9798
အတွင်း၊	-9799
အလိုကို	-9800
▁ကြပါ၏။	-9801
▁ချီကြွ	-9802
▁ခြေကို	-9803
▁ငါသဘော	-9804
▁ငါ့အဘ၏	-9805
▁စာလိပ်	-9806
▁စီးသော	-9807
▁တကားဟု	-9808
▁ထက်သာ၍	-9809
▁ထိုဘေး	-9810
▁ဒွါဒသမ	-9811
▁နီးစပ်	-9812
▁ပညာမဲ့	-9813
▁ပုံသဏ္	-9814
▁ဖြင့်၊	-9815
▁ဘိသိတ်	-9816
▁မငြင်း	-9817
▁မထောက်	-9818
▁မဖွင့်	-9819
▁မုဆိုး	-9820
▁မုန့်တ	-9821
▁လူကန်း	-9822
▁ဝန်ကို	-9823
▁ဝေးစွာ	-9824
▁သက်သက်	-9825
▁သစ္စာဝ	-9826
▁သစ်ခက်	-9827
▁သုံးရာ	-9828
▁ဟာလေလု	-9829
▁ဟေလသလူ	-9830
▁အမိသည်	-9831
▁အားယူ၍	-9832
ကိုခေါ်၍	-9833
ကိုယ်စား	-9834
ခရီးသွား	-9835
ခုနစ်ပါး	-9836
ချုပ်ထား	-9837
ငါးကျိပ်	-9838
တတ်သလော။	-9839
နေလျှင်၊	-9840
ပါသတည်း။	-9841
ပေတည်းဟု	-9842
ပြန်ကြ၏။	-9843
ပြုလော့။	-9844
ဖြစ်လျက်	-9845
ဖြိုဖျက်	-9846
မိပါပြီ။	-9847
မျက်နှာ၌	-9848
ယေရှုကို	-9849
ရကြလတံ့။	-9850
လောင်သော	-9851
သိလျှင်၊	-9852
သေလျှင်၊	-9853
အလို့ငှါ	-9854
အားကြီး၍	-9855
အုပ်ရသော	-9856
အုပ်အရာ၌	-9857
▁ခါးစည်း	-9858
▁စတုရန်း	-9859
▁စားတော်	-9860
▁စိတ်ကို	-9861
▁စုဝေး၍၊	-9862
▁ဆရာသမား	-9863
▁ဆိတ်ထီး	-9864
▁ဆောင်ယူ	-9865
▁ဆွေတော်	-9866
▁ညဉ့်ကို	-9867
▁တက်လေ၏။	-9868
▁တည်လေ၏။	-9869
▁နောဧသည်	-9870
▁ပွဲသဘင်	-9871
▁ဘတ်ရွတ်	-9872
▁မညစ်ညူး	-9873
▁ရေးမှတ်	-9874
▁ရှေမာယ၊	-9875
▁ဝင်လေ၏။	-9876
▁သိုးခြံ	-9877
▁သူ၏အရာ၌	-9878
▁ဟစ်ခေါ်	-9879
▁ဟာဒဒေဇာ	-9880
▁အတတ်ကို	-9881
▁အတွင်း၌	-9882
▁အမှန်သိ	-9883
▁အဟိသောဖ	-9884
▁အာနသုတ်	-9885
ကိုင်လျက်	-9886
ကြွတော်မူ	-9887
ခုနစ်နှစ်	-9888
ငြိုးဖွဲ့	-9889
ဆုံးမဩဝါဒ	-9890
တတ်ကြပါ၏။	-9891
နန်းထိုင်	-9892
ပြန်သော်၊	-9893
ဘုန်းအသရေ	-9894
များတို့၌	-9895
လိုသောငှါ	-9896
သခင်အရှင်	-9897
သွားမည်ဟု	-9898
▁ကျိန်အပ်	-9899
▁ကျွန်ခံရ	-9900
▁ခေါ်ခဲ့၍	-9901
▁ငါပြုသော	-9902
▁ငါအမိန့်	-9903
▁စိတ်ဆိုး	-9904
▁ဆက်ရမည်။	-9905
▁ဆန်စပါး၊	-9906
▁တဟာရှသား	-9907
▁ထုတ်ဘော်	-9908
▁ထုံးဖွဲ့	-9909
▁ဒံယေလသည်	-9910
▁နေထွက်ရာ	-9911
▁ပြန်လေ၏။	-9912
▁ပြပ်ဝပ်၍	-9913
▁ပြုသောသူ	-9914
▁ပြောကြ၏။	-9915
▁မေရှုလံ၊	-9916
▁မောရှေက၊	-9917
▁မြေကြီး၊	-9918
▁ရိမ္မုန်	-9919
▁လူစောင့်	-9920
▁လောင်သော	-9921
▁သားအကြီး	-9922
▁သိကျွမ်း	-9923
▁သွားရသော	-9924
▁အထက်သို့	-9925
▁အာတဇေရဇ်	-9926
▁အာဗြံသည်	-9927
▁အံသွားခဲ	-9928
▁ဣဇာက်သည်	-9929
ကောင်းမွန်	-9930
ခုနစ်ထောင်	-9931
တယောက်သည်၊	-9932
နိုင်သောသူ	-9933
နှစ်ဆယ်ကို	-9934
နှစ်ထောင်၊	-9935
ပါမည်နည်း။	-9936
မရှိသည်ကို	-9937
မြေပေါ်မှာ	-9938
ရက်နေ့တွင်	-9939
ရှိသဖြင့်၊	-9940
ရှိသောအခါ၊	-9941
လက်မှ၎င်း၊	-9942
လူတို့တွင်	-9943
ဟောပြောသော	-9944
▁ကုန်းနှီး	-9945
▁ခိုလှုံရာ	-9946
▁ငါးသောင်း	-9947
▁စိတ်ထဲမှာ	-9948
▁နည်းဥပဒေသ	-9949
▁ပင်လယ်ကို	-9950
▁ပြုလျှင်၊	-9951
▁ဖျက်ဆီး၍၊	-9952
▁ဘုရားရှင်	-9953
▁မချဉ်းကပ်	-9954
▁မင်းလုလင်	-9955
▁မပြည့်စုံ	-9956
▁မိမိနှင့်	-9957
▁မိမိအပြစ်	-9958
▁မီးထဲသို့	-9959
▁မုန့်ညက်၊	-9960
▁မေးတော်မူ	-9961
▁မြို့ပြင်	-9962
▁ယာကုပ်အား	-9963
▁ယုဒပြည်မှ	-9964
▁ယေရုဗ္ဗာလ	-9965
▁ရိုက်ပုတ်	-9966
▁လက်တော်မှ	-9967
▁လက်ဝဲဘက်၌	-9968
▁လုပ်ကြံ၍၊	-9969
▁လျှပ်ပေါ်	-9970
▁လှမ်းသွား	-9971
▁လှောင်ထား	-9972
▁သစ်သားကို	-9973
▁သူအပေါင်း	-9974
▁အကောင်ကို	-9975
▁အကျပ်တဆယ်	-9976
▁အပြစ်တင်၍	-9977
▁အရှေ့ဘက်၌	-9978
▁အလိုရှိ၏။	-9979
▁အသက်ချုပ်	-9980
▁အားဖြင့်၊	-9981
ကျင့်ခြင်း၊	-9982
ကျေးဇူးတော်	-9983
စီရင်တော်မူ	-9984
စေလိမ့်မည်။	-9985
ဆိုင်သနည်း။	-9986
တော်မူပါစေ။	-9987
ထဲသို့ဝင်၍၊	-9988
နှင့်ပြည့်၍	-9989
ပြုခြင်းငှါ	-9990
ဖြစ်သနည်းဟု	-9991
မည်ဟူ၍၎င်း၊	-9992
ရပါမည်လောဟု	-9993
အမှုတော်ကို	-9994
အိမ်တော်ကို	-9995
▁ကြားသောအခါ	-9996
▁ကြိုးနှင့်	-9997
▁ချီးမြှင့်	-9998
▁ငတ်မွတ်သော	-9999
▁ငါ့ကြောင့်	-10000
▁ငါ၏လူဣသရေလ	-10001
▁ထတော်မူပါ။	-10002
▁ထိုပြည်သည်	-10003
▁ပြုရကြမည်။	-10004
▁ဖြန်းရမည်။	-10005
▁ဗာရှန်ပြည်	-10006
▁မသန့်ရှင်း	-10007
▁မိဘတို့သည်	-10008
▁မော်ဒကဲသည်	-10009
▁မြေမှုန့်၌	-10010
▁မြောက်ဘက်၌	-10011
▁မြော်လင့်၍	-10012
▁မှန်လျှင်၊	-10013
▁မှောက်လှန်	-10014
▁ရူပါရုံကို	-10015
▁ရွေးကောက်၍	-10016
▁ရှင်ဘုရင်က	-10017
▁ရှိကြလော့။	-10018
▁လူမျိုးကို	-10019
▁သခင်ယေရှု၏	-10020
▁သင်၏လက်ကို	-10021
▁သူတို့သည်၊	-10022
▁အတည့်အလင်း	-10023
▁အမှုအရာကို	-10024
▁အသက်တာရှည်	-10025
▁အားနည်းသော	-10026
ဆယ်ဘို့တဘို့	-10027
တရားအားဖြင့်	-10028
ထံသို့သွား၍၊	-10029
အကျွန်ုပ်သည်	-10030
▁စည်းစိမ်ကို	-10031
▁တရှောက်လုံး	-10032
▁တံခါးနားမှာ	-10033
▁နံနက်တိုင်း	-10034
▁ပညတ်တရားသည်	-10035
▁ပြင်ဆင်ကြ၏။	-10036
▁ဘုရားသခင်က၊	-10037
▁မူလိမ့်မည်။	-10038
▁ယုဒပြည်သို့	-10039
▁ရထားစီးသူရဲ	-10040
▁ရှမာရိမြို့	-10041
▁ဝိညာဉ်တော်၏	-10042
▁သင်တို့လက်၌	-10043
▁သစ္စာရှိသော	-10044
▁သမျှတို့ကို	-10045
▁သူတယောက်သည်	-10046
▁သူ၏ညီအစ်ကို	-10047
▁အချိန်ရောက်	-10048
▁အပ်တော်မူ၏။	-10049
▁အပြစ်ရှိသော	-10050
▁အလိုတော်ကို	-10051
▁အိပ်ပျော်၍၊	-10052
▁အော်ဟစ်ကြ၏။	-10053
တော်မမူလျှင်၊	-10054
တော်မူသနည်းဟု	-10055
ဖြောင့်မတ်သော	-10056
▁ကိုးကွယ်ကြ၏။	-10057
▁ကောက်လှိုင်း	-10058
▁ငါတို့မူကား၊	-10059
▁ငါ၏လူတို့ကို	-10060
▁ငါ၏သန့်ရှင်း	-10061
▁စကားအားဖြင့်	-10062
▁ထွက်သွားလေ၏။	-10063
▁နားမထောင်ကြ။	-10064
▁ပြောဆိုသော်၊	-10065
▁ဘုန်းအသရေကို	-10066
▁ဘောဇဉ်ပူဇော်	-10067
▁မနာရှေခရိုင်	-10068
▁မိန်းမကလည်း၊	-10069
▁မိမိကိုယ်ကို	-10070
▁မီးရှို့လေ၏။	-10071
▁မြင်တော်မူ၏။	-10072
▁ယေရှုခရစ်သည်	-10073
▁ရန်သူရှေ့မှာ	-10074
▁ရွှင်လန်းသော	-10075
▁လူပေါင်းကား၊	-10076
▁ဝန်ခံရကြမည်။	-10077
▁ဝမ်းမြောက်၍၊	-10078
▁သစ္စာတော်သည်	-10079
▁အပေါင်းအသင်း	-10080
▁အပြစ်များကို	-10081
▁အုပ်စိုးရသော	-10082
တိုင်အောင်၎င်း	-10083
တို့နှင့်၎င်း၊	-10084
တော်မူသောသူသည်	-10085
နိုင်မည်နည်းဟု	-10086
နှင့်ပြည့်စုံ၍	-10087
ဘိုးဘေးတို့အား	-10088
မြို့သို့သွား၍	-10089
သောသူတည်းဟူသော	-10090
▁ကျင့်ကြံပြုမူ	-10091
▁ကျောက်ပေါ်မှာ	-10092
▁ခါနာန်ပြည်ကို	-10093
▁ချီးမွမ်းကြ၏။	-10094
▁ဆင့်ဆိုလော့ဟု	-10095
▁တပည့်တော်တို့	-10096
▁ထိုင်တော်မူ၏။	-10097
▁ဒါဝိဒ်သည်လည်း	-10098
▁နိမိတ်လက္ခဏာ၊	-10099
▁နှုတ်ဆောင်သော	-10100
▁ပေးတော်မူပါဟု	-10101
▁မကြာမမြင့်မှီ	-10102
▁မကြောက်နှင့်။	-10103
▁မောဘရှင်ဘုရင်	-10104
▁မြော်လင့်လျက်	-10105
▁ရွေးတော်မူသော	-10106
▁ဝမ်းမြောက်သော	-10107
▁သံတမန်တို့ကို	-10108
▁အနာဂတ္တိကျမ်း	-10109
▁အပြစ်ရှိသည်ဟု	-10110
▁အဘယ်အရာကိုမျှ	-10111
▁အရှေ့ဘက်မှသည်	-10112
▁ဧဒုံအမျိုးသား	-10113
ဥစ္စာရှိသမျှကို	-10114
▁ကိုယ်တော်အဘို့	-10115
▁ကိုယ်နှင့်အမျှ	-10116
▁ကောင်းကြီးပေး၍	-10117
▁ငါသည်ထာဝရဘုရား	-10118
▁စစ်တိုက်လက်နက်	-10119
▁စေ့စေ့ကြည့်ရှု	-10120
▁ပညာရှိသောသူသည်	-10121
▁ဘိုးဘေးများကို	-10122
▁မြေတွင်းထဲသို့	-10123
▁သမုဒ္ဒရာသဲလုံး	-10124
▁အမှုတော်စောင့်	-10125
စီရင်သည်အတိုင်း၊	-10126
တော်မူသောကြောင့်	-10127
နှုတ်ကပတ်တော်သည်	-10128
သမျှသောသူတို့သည်	-10129
သောသူအပေါင်းတို့	-10130
▁ကောင်းကင်တမန်က၊	-10131
▁ကောင်းသောအရာကို	-10132
▁ထိုဘုရားသခင်သည်	-10133
▁နာမတော်အားဖြင့်	-10134
▁ပရိယာယ်အားဖြင့်	-10135
▁မြွက်ဆိုသည်ကား၊	-10136
▁ယော်ဒန်မြစ်နား၊	-10137
▁သင်တို့ညီအစ်ကို	-10138
ဒ၊	-10139
ဗိ	-10140
ညီမ	-10141
တညီ	-10142
နေ၊	-10143
ပို	-10144
ဖနိ	-10145
ဖေး	-10146
လူအ	-10147
ဟုံ	-10148
အာဇ	-10149
အုံ	-10150
ဣရှ	-10151
ဦး၌	-10152
ုလံ	-10153
ေဇာ	-10154
▁စံ	-10155
▁ဆံ	-10156
▁နု	-10157
▁သဲ	-10158
▁ဣဗ	-10159
▁ဧဗ	-10160
ကိုအ	-10161
ကြပ်	-10162
ခုပ်	-10163
ဆွတ်	-10164
ဇိမ်	-10165
ဉာဏ်	-10166
တခု၊	-10167
တူ၏။	-10168
ထွာ၊	-10169
ပယ်၍	-10170
ပသခါ	-10171
ပြ၏။	-10172
ဗာနာ	-10173
မဆွက	-10174
မည်၊	-10175
မသီး	-10176
ယမ်း	-10177
ယဟော	-10178
ရာဟု	-10179
ရော၍	-10180
ရှာလ	-10181
လုတ်	-10182
သလော	-10183
သိလူ	-10184
သွန်	-10185
အစ်မ	-10186
အမျှ	-10187
အရာ၊	-10188
ဧည့်	-10189
ဧလျာ	-10190
ိန်၊	-10191
ြုန်	-10192
▁ကညာ	-10193
▁ခွာ	-10194
▁ငါထ	-10195
▁စာ၌	-10196
▁ဆီ၊	-10197
▁တေရ	-10198
▁ထ၍၊	-10199
▁ပြေ	-10200
▁မိလ	-10201
▁ရေဇ	-10202
▁လူ၊	-10203
ခရိပ်	-10204
ခုတင်	-10205
ခဲသော	-10206
ခံစား	-10207
စားသေ	-10208
ဇေဒက်	-10209
တက်၍၊	-10210
တင်ရာ	-10211
တစုံတ	-10212
တည်၍၊	-10213
တရား၌	-10214
တူသော	-10215
ထွင်း	-10216
နည်း၊	-10217
န္ဒြေ	-10218
န္နုံ	-10219
ဗုဇာရ	-10220
မပေါ်	-10221
မုတ်၊	-10222
ရပ်နေ	-10223
ရေခပ်	-10224
ရှုပ်	-10225
လ္လော	-10226
လျင်၊	-10227
ဟုန်း	-10228
အလုံး	-10229
အလျား	-10230
အသုံး	-10231
ာနိမ်	-10232
ေရိုး	-10233
▁ကူညီ	-10234
▁ကွန်	-10235
▁ငုံ့	-10236
▁ငွေတ	-10237
▁စစ်၍	-10238
▁ဇောဘ	-10239
▁ဇောရ	-10240
▁တရက်	-10241
▁တိရဇ	-10242
▁နေပူ	-10243
▁နွေး	-10244
▁ဖြည်	-10245
▁မတက်	-10246
▁မနေ့	-10247
▁မန္န	-10248
▁မမူ။	-10249
▁မမေး	-10250
▁မာဂု	-10251
▁မိုး	-10252
▁မှစ၍	-10253
▁ယေဒါ	-10254
▁ယောဇ	-10255
▁ရှုရ	-10256
▁ရှေဗ	-10257
▁လျှံ	-10258
▁လွယ်	-10259
▁ဟုရှ	-10260
▁အထဲက	-10261
▁အနာမ	-10262
▁အဘိမ	-10263
▁အာရံ	-10264
ခါးကို	-10265
ငါပြော	-10266
ငါးရာ၊	-10267
ဆူတည်း	-10268
တတ်ကြ။	-10269
တဝတည်း	-10270
ဒဏ်ခတ်	-10271
နှောက်	-10272
ပြင်၏။	-10273
ပြိုလဲ	-10274
မှန်၏။	-10275
ရန်ဘက်	-10276
သားယော	-10277
အချုပ်	-10278
အင်္ဂါ	-10279
အောက်၊	-10280
၍မတွေ့	-10281
▁တက်လာ	-10282
▁တယော၊	-10283
▁တူသော	-10284
▁နီသော	-10285
▁နေတော	-10286
▁နေရာ၌	-10287
▁ပစ်ချ	-10288
▁ဗေနာယ	-10289
▁ဗောင်	-10290
▁မမှန်	-10291
▁မာဂဒလ	-10292
▁ယခုငါ	-10293
▁ယာဖက်	-10294
▁ယောလ၊	-10295
▁ရေစီး	-10296
▁ရွှေဒ	-10297
▁ရှိကြ	-10298
▁ရှိပါ	-10299
▁ရှေ့၌	-10300
▁ဝပြော	-10301
▁သတ်၏။	-10302
▁သူ့ညီ	-10303
▁သူ၏လူ	-10304
▁အဘော်	-10305
ကိုယူ၍၊	-10306
ခေါ်ခဲ့	-10307
ချစ်သား	-10308
ဂိဒ္ဒေါ	-10309
ငါးဆယ်၊	-10310
တင်ကြ၏။	-10311
တည်းခို	-10312
တပါးကို	-10313
တုရောက်	-10314
တွေ့သော	-10315
ထိုသို့	-10316
ပျောက်၍	-10317
ပြန်လာ၍	-10318
လျှာသည်	-10319
လွှတ်၍၊	-10320
ဝိညာဉ်၌	-10321
သားမြေး	-10322
သူတို့၏	-10323
သောအစေ့	-10324
အလယ်မှာ	-10325
အာဂန္တု	-10326
ဥာဏ်ကို	-10327
ိမခိုက်	-10328
ိုက်ကို	-10329
ေလတည်း။	-10330
၏သားကို	-10331
▁ကလည်း၊	-10332
▁ကျိန်း	-10333
▁စကားသံ	-10334
▁စေ့စပ်	-10335
▁ဆိုင်း	-10336
▁တခွန်း	-10337
▁တဦးကို	-10338
▁ထုလုပ်	-10339
▁ပတ်ရစ်	-10340
▁ပါရှုရ	-10341
▁မငြိမ်	-10342
▁မဆောက်	-10343
▁မာသေယ၊	-10344
▁မိရိအံ	-10345
▁မီးထဲက	-10346
▁ရတတ်၏။	-10347
▁ရမည်ဟု	-10348
▁ရှိသည်	-10349
▁လင်သည်	-10350
▁လွှမ်း	-10351
▁လှိမ့်	-10352
▁ဝတ်ကို	-10353
▁ဝိဇ္ဇာ	-10354
▁သတိလစ်	-10355
▁သားကား	-10356
▁ဟာနနိ၊	-10357
▁အရှင်၏	-10358
▁အဟိမတ်	-10359
▁ဧလိဖတ်	-10360
ကိုလည်း၊	-10361
ကုန်သွယ်	-10362
ကြားရသော	-10363
စကားပြော	-10364
စေခိုင်း	-10365
တယောက်က၊	-10366
တို့သို့	-10367
တောင်ဝေး	-10368
တံခါးခုံ	-10369
နန်းတော်	-10370
နိုင်ငံ၌	-10371
ပါလေစေဟု	-10372
ဗာဗုလုန်	-10373
မေ့လျော့	-10374
မြင်ရသော	-10375
မှုရောက်	-10376
ရှိသေး၏။	-10377
သစ္စာကို	-10378
▁ကိုးဆယ်	-10379
▁စရာဘို့	-10380
▁စီးပွါး	-10381
▁တရားသော	-10382
▁တွေးတော	-10383
▁ထူထောင်	-10384
▁နွားကို	-10385
▁နှစ်ပါး	-10386
▁ပဌမနေ့၌	-10387
▁ပြုတော်	-10388
▁ဘက်သို့	-10389
▁မကယ်တင်	-10390
▁မရိတ်ရ။	-10391
▁မိတ်ဆွေ	-10392
▁မြင်ရ၏။	-10393
▁မြို့မှ	-10394
▁ရကြမည်။	-10395
▁ရင်ဖုံး	-10396
▁ရေတိုက်	-10397
▁လက်ထက်၌	-10398
▁လူစုထဲက	-10399
▁လေပြင်း	-10400
▁သဘောသည်	-10401
▁သူတပါး၏	-10402
▁သူ၏မယား	-10403
▁သူ၏အိမ်	-10404
▁သေစားသေ	-10405
▁ဟိန္နုံ	-10406
▁အချိန်၌	-10407
▁အစေအပါး	-10408
▁အမွေကို	-10409
▁အရှေ့လေ	-10410
▁အသံမြည်	-10411
▁အိမ်သား	-10412
ထင်ရှား၍၊	-10413
နန်းတော်၌	-10414
နေပြီးမှ၊	-10415
နှင့်တွေ့	-10416
ပလ္လင်ကို	-10417
ဖြင့်ပြီး	-10418
ဗိုလ်မင်း	-10419
မွေ့လျော်	-10420
မှာထားသော	-10421
ရအံ့နည်း။	-10422
လျက်နေရ၏။	-10423
လွင်ပြင်၌	-10424
လှည့်လည်၍	-10425
ဝတ်လုံကို	-10426
အံ့သောငှာ	-10427
ဥာဏ်နှင့်	-10428
▁ကုန်အံ့။	-10429
▁ကြလော့ဟု	-10430
▁ကြားရသော	-10431
▁ကြောင်း၊	-10432
▁ခံရမည်ဟု	-10433
▁စွန်ပလွံ	-10434
▁ဆင်ခြင်၍	-10435
▁ဆင်းသွား	-10436
▁တင်လျက်၊	-10437
▁တန်ဆာကို	-10438
▁တော်မမူ။	-10439
▁တွေ့ကြ၏။	-10440
▁ထာဝရအသက်	-10441
▁နောင်ကာလ	-10442
▁ဖြစ်လတံ့	-10443
▁မဘော်မပြ	-10444
▁မုတ်ဆိတ်	-10445
▁ရှာဒရက်၊	-10446
▁ရှိသော်၊	-10447
▁လိုက်ရှာ	-10448
▁လွန်သွား	-10449
▁သည်လည်း၊	-10450
▁သားသမီး၊	-10451
▁သိနားလည်	-10452
▁သူ၏ကျွန်	-10453
▁အချုပ်ခံ	-10454
▁အငယ်ဆုံး	-10455
▁အဆီးအတား	-10456
▁အထံတော်က	-10457
▁အမှုထမ်း	-10458
▁အလင်းသည်	-10459
▁အသက်ရှည်	-10460
▁အာဗနာသည်	-10461
▁အောက်မှာ	-10462
ခြင်းတွင်၊	-10463
ငယ်တို့သည်	-10464
ဆင့်ဆိုသော	-10465
တပါးတည်းသာ	-10466
တိုက်တွန်း	-10467
နှုတ်နှင့်	-10468
ပြတော်မူ၏။	-10469
ပြောဆိုသော	-10470
ဗင်္ယာမိန်	-10471
ဗတ္တိဇံကို	-10472
မြို့တို့၌	-10473
ရာအကြောင်း	-10474
ရှင်ဘုရင်၊	-10475
ရှိသနည်းဟု	-10476
သုံးပါးမက၊	-10477
သုံးယောက်၊	-10478
သောအမျိုး၊	-10479
▁ကပေရနောင်	-10480
▁ကျွန်တို့	-10481
▁ခန့်ထား၍၊	-10482
▁ခန့်ထား၏။	-10483
▁ချိုးငှက်	-10484
▁ချီသွား၍၊	-10485
▁ခွက်ကွင်း	-10486
▁ငါအပ်မည်။	-10487
▁ငါ၏လူတို့	-10488
▁စစ်ပြိုင်	-10489
▁စုဝေးစေ၍၊	-10490
▁တည်းနေသော	-10491
▁တော်နှင့်	-10492
▁ထိုင်လျက်	-10493
▁ထုတ်ချင်း	-10494
▁နေဗတ်၏သား	-10495
▁နှစ်ကြိမ်	-10496
▁နှာခေါင်း	-10497
▁မိန်းမငယ်	-10498
▁မူသည်ကား၊	-10499
▁မြို့လမ်း	-10500
▁ယုဒခရိုင်	-10501
▁ယောဟန်ကို	-10502
▁ရည်ဆောင်၍	-10503
▁ရွှေအခွက်	-10504
▁လက်နက်စုံ	-10505
▁လက်ျာဘက်၌	-10506
▁လိုက်လျက်	-10507
▁သင်ကလည်း၊	-10508
▁သင်မူကား၊	-10509
▁သင့်ရှေ့၌	-10510
▁သုံးထောင်	-10511
▁သူတပါးသည်	-10512
▁အက္ခရာတင်	-10513
▁အခြားသို့	-10514
▁အနံအတောင်	-10515
▁အမည်ရှိ၏။	-10516
▁အရှေ့သို့	-10517
▁အလွန်စိတ်	-10518
▁အသနားတော်	-10519
▁အောက်မေ့၍	-10520
▁ဧဒုံပြည်၌	-10521
ကာလပတ်လုံး၊	-10522
စမ်းရေတွင်း	-10523
ဆွေခင်ပွန်း	-10524
ပါပြီတကားဟု	-10525
ပြန်သည်ကား၊	-10526
များတို့အား	-10527
မျှော်ကြည့်	-10528
မှတ်ကြလော့။	-10529
ယောက်ျားသည်	-10530
လျှောက်လေ၏။	-10531
သောသူတို့က၊	-10532
အထံတော်သို့	-10533
▁ကရုဏာနှင့်	-10534
▁ကိုယ်တော်က	-10535
▁ကောင်းကင်၌	-10536
▁ကျင့်သောသူ	-10537
▁ခြင်းနှင့်	-10538
▁ဂတိတော်ရှိ	-10539
▁ဂိလဒ်ပြည်၌	-10540
▁ငါပြောမည်။	-10541
▁ငါ့ကိုချစ်	-10542
▁စပ်ကြားမှာ	-10543
▁စေတော်မူ၏။	-10544
▁တစုံတခုသော	-10545
▁တပ်ပြင်မှာ	-10546
▁ထိုတရားကို	-10547
▁ထွက်လာကြ၏။	-10548
▁နားမထောင်။	-10549
▁နံ့သာမျိုး	-10550
▁နွားတကောင်	-10551
▁နှစ်တိုင်း	-10552
▁ပေးတော်မမူ	-10553
▁ပြုလေရာရာ၌	-10554
▁ပြုသောအမှု	-10555
▁ဘုန်းပွင့်	-10556
▁မစင်ကြယ်ဟု	-10557
▁မဟာတန်ခိုး	-10558
▁မိဘမရှိသော	-10559
▁မြစ်နားမှာ	-10560
▁ယောနသန်သည်	-10561
▁ရွှေငွေကို	-10562
▁ရွှေတန်ဆာ၊	-10563
▁ရွှေရုပ်တု	-10564
▁လက်ကိုဆန့်	-10565
▁လမ်းနားမှာ	-10566
▁လိုက်လျက်၊	-10567
▁လျှောက်ထား	-10568
▁လွှဲရှောင်	-10569
▁သင်၏မျက်စိ	-10570
▁သားတို့အား	-10571
▁သို့ပြီးမှ	-10572
▁သုံးသောင်း	-10573
▁သူအုပ်ရသော	-10574
▁သောအမှုကို	-10575
▁အတွင်းသို့	-10576
▁အနည်းအများ	-10577
▁အပြစ်ရှိ၏။	-10578
▁အသရေရှိသော	-10579
ခြင်းငှါအလို	-10580
ခြင်းမရှိဘဲ၊	-10581
ဆိုသော်လည်း၊	-10582
တန်ဆာတို့ကို	-10583
တော်နှင့်အညီ	-10584
နှစ်ကောင်ကို	-10585
ယူပြီးလျှင်၊	-10586
ရသောကြောင့်၊	-10587
ရှိသမျှနှင့်	-10588
အိမ်နီးချင်း	-10589
▁ကဲ့ရဲ့သံကို	-10590
▁ကျိန်လျှင်၊	-10591
▁ခေါ်ဝေါ်သော	-10592
▁ခြင်္သေ့သည်	-10593
▁ဂုဏ်အသရေကို	-10594
▁ငါတို့ဘုရား	-10595
▁ငါတောင်းပန်	-10596
▁ဆင့်ဆိုလေ၏။	-10597
▁ဆုတောင်းသော	-10598
▁ဇိဒုန်မြို့	-10599
▁ညီပေါင်းကား	-10600
▁ပုပ္ပနိမိတ်	-10601
▁ပြည်သားတို့	-10602
▁ပြောဆိုလေ၏။	-10603
▁မင်းပြုလေ၏။	-10604
▁မပေါင်းဘော်	-10605
▁မီးခုံတိုင်	-10606
▁မေဖိဗောရှက်	-10607
▁ယေရောဗောင်၏	-10608
▁ရောက်ကြပြီ။	-10609
▁ရောက်လာကြ၏။	-10610
▁ရဲရင့်ခြင်း	-10611
▁ရှေ့တော်မှာ	-10612
▁လွှတ်အရာရှိ	-10613
▁သင်သည်ကိုယ်	-10614
▁အကျိုးမရှိ။	-10615
▁အနိစ္စရောက်	-10616
▁အဘယ်သူနှင့်	-10617
တို့အပေါ်သို့	-10618
မီးရှို့ရာယဇ်	-10619
လျှောက်လျှင်၊	-10620
▁ကရုဏာတော်ကို	-10621
▁ကျင့်ကြလော့။	-10622
▁ကြည့်ကြလော့။	-10623
▁ကြောက်ရွံ့၍၊	-10624
▁ခံရသော်လည်း၊	-10625
▁ငိုကြွေးလျက်	-10626
▁ဆုတောင်းလေ၏။	-10627
▁ညှဉ်းဆဲခြင်း	-10628
▁နာမည်များကို	-10629
▁နာမတော်အဘို့	-10630
▁ပရောဖက်ယေရမိ	-10631
▁ဗတ္တိဇံကိုခံ	-10632
▁မယ်တော်နှင့်	-10633
▁မိမိအပြစ်ကို	-10634
▁မြို့ဝန်မင်း	-10635
▁ယောသပ်ကလည်း၊	-10636
▁လက်ဝဲဘက်သို့	-10637
▁လုလင်တို့သည်	-10638
▁သတ်အံ့သောငှါ	-10639
▁သူတို့ပြုသော	-10640
▁သေခြင်းနှင့်	-10641
▁အချိန်ရှိသော	-10642
▁အထူးထူးအပြား	-10643
▁အပြစ်မရှိသော	-10644
▁အရိုးတို့ကို	-10645
▁ဤအကြောင်းအရာ	-10646
ကျင့်သောအကျင့်	-10647
ခြင်းနှင့်တကွ၊	-10648
မြို့သို့၎င်း၊	-10649
သည်အကြောင်းကို	-10650
အမျိုးသားနှင့်	-10651
▁ကောင်းမွန်သော	-10652
▁ကြည့်ရှုပြုစု	-10653
▁ခရစ်တော်နှင့်	-10654
▁ခဲဘွယ်စားဘွယ်	-10655
▁ငါတို့သည်လည်း	-10656
▁စာရေးတော်ကြီး	-10657
▁ထိုမြို့နှင့်	-10658
▁နှင့်ပြည့်စုံ	-10659
▁နှစ်သက်တော်မူ	-10660
▁ပိတ်ချောနှင့်	-10661
▁ပိုင်တော်မူ၏။	-10662
▁ပြုသောကြောင့်	-10663
▁ဘုရားသခင်ထာဝရ	-10664
▁မိန့်တော်မူ၍၊	-10665
▁မြင့်သောအရပ်၌	-10666
▁မွတ်သိပ်ခြင်း	-10667
▁ယာကုပ်အမျိုး၏	-10668
▁ရွံရှာဘွယ်သော	-10669
▁လူဆိုးတို့သည်	-10670
▁ဝင်စားလတံ့သော	-10671
▁သင်တို့သိကြ၏။	-10672
▁သင်တို့အမျိုး	-10673
▁သတ်ပြီးလျှင်၊	-10674
▁သူတို့ကိုလည်း	-10675
▁ဟေဗြုန်မြို့၌	-10676
▁အပြည့်ထည့်သော	-10677
▁အံသွားခဲကြိတ်	-10678
ဆင့်ဆိုရမည်မှာ၊	-10679
တော်မူပါစေသောဟု	-10680
နှင့်ပြည့်စုံ၍၊	-10681
မေးတော်မူလျှင်၊	-10682
များသောကြောင့်၊	-10683
မြို့သားတို့ကို	-10684
ယုံကြည်ခြင်းကို	-10685
အပိုင်းအခြားသည်	-10686
အပေါင်းတို့တွင်	-10687
▁ကောင်းကင်ဘုံမှ	-10688
▁ကြိမ်လုံးနှင့်	-10689
▁ငါ့မျက်မှောက်၌	-10690
▁စားကြလိမ့်မည်။	-10691
▁စေလွှတ်သဖြင့်၊	-10692
▁ဆင်းရဲခြင်းကို	-10693
▁ထိုသို့လျှောက်	-10694
▁နူးညံ့သိမ်မွေ့	-10695
▁ပေရသိရှင်ဘုရင်	-10696
▁ဘုရားသခင်၏အလို	-10697
▁ယုဒအမျိုးနှင့်	-10698
▁လွှတ်တော်မူပါ။	-10699
▁သန့်ရှင်းရမည်။	-10700
▁သားသမီးတို့ကို	-10701
▁သားသမီးတို့သည်	-10702
▁အပေါင်းတို့အား	-10703
▁အရှင်မင်းကြီး၏	-10704
▁ဧည့်သည်အာဂန္တု	-10705
နှစ်ကောင်ဖြစ်စေ၊	-10706
သောသူတို့ကိုလည်း	-10707
▁ကျယ်သောအသံနှင့်	-10708
▁စောင့်မတော်မူ၏။	-10709
▁ဆင်းရဲခြင်းသို့	-10710
▁တော်မူလိမ့်မည်။	-10711
▁မှူးတော်မတ်တော်	-10712
▁ယုဒလူတို့ကလည်း၊	-10713
▁ရှာသောသူတို့သည်	-10714
▁သူတို့အပေါ်သို့	-10715
▁အကျွန်ုပ်သိပါ၏။	-10716
▁အချင်းချင်းချစ်	-10717
▁အိမ်မိုးပေါ်မှာ	-10718
စက	-10719
တ၊	-10720
▁။	-10721
ကေလ	-10722
ခါလ	-10723
ခါ၊	-10724
ငါ၌	-10725
စု၊	-10726
စေ၊	-10727
ဇိ၊	-10728
တေ့	-10729
နင်	-10730
ပွေ	-10731
ဗေသ	-10732
မလျ	-10733
မာရ	-10734
သူ၌	-10735
ဟာမ	-10736
ိဗလ	-10737
ှုး	-10738
၌သာ	-10739
၏အဘ	-10740
▁ဧဇ	-10741
ကူး၍	-10742
ဆာလံ	-10743
ဇိလဲ	-10744
တာမာ	-10745
တွန်	-10746
နုပ်	-10747
ဗောဇ	-10748
မစစ်	-10749
မစေ့	-10750
မထင်	-10751
ယဉ်း	-10752
ယှဉ်	-10753
သာယာ	-10754
အခါ၌	-10755
အခြာ	-10756
ဧလိယ	-10757
ေလိလ	-10758
ေ့ဟေ	-10759
ဲသား	-10760
ံသည်	-10761
းဆယ်	-10762
▁ခြံ	-10763
▁ငရဲ	-10764
▁ပန်	-10765
▁မသာ	-10766
▁မာသ	-10767
▁ရို	-10768
▁သကေ	-10769
▁သိလ	-10770
▁သီလ	-10771
▁အဗျ	-10772
▁အလံ	-10773
▁အာဝ	-10774
ကာမျှ	-10775
ကာသော	-10776
ကိသည်	-10777
ချက်၊	-10778
ခြမ်း	-10779
ဂေဒလိ	-10780
စုကို	-10781
ဇာသည်	-10782
တပြည်	-10783
တဲကို	-10784
နိသား	-10785
ပေ၏ဟု	-10786
ပြုတ်	-10787
မုန္န	-10788
မြိန်	-10789
မြုံ့	-10790
ရပ်၍၊	-10791
ရိသည်	-10792
ရောင်	-10793
လျှက်	-10794
သခင်။	-10795
သမား၊	-10796
သေသော	-10797
ဟောက်	-10798
အဖုံး	-10799
အမှတ်	-10800
အလျင်	-10801
အာဟပ်	-10802
ောရှေ	-10803
▁ကူး၍	-10804
▁ကော်	-10805
▁ကျီး	-10806
▁ခန့်	-10807
▁ချန်	-10808
▁ငါ့ပ	-10809
▁စစ်မ	-10810
▁စဉ်း	-10811
▁တတ်။	-10812
▁ဒရယ်	-10813
▁နေပါ	-10814
▁ပွတ်	-10815
▁မကူး	-10816
▁မက္က	-10817
▁မရပ်	-10818
▁မာခါ	-10819
▁ယှဉ်	-10820
▁ရော၍	-10821
▁အခြံ	-10822
▁အစေ့	-10823
▁အရေ၌	-10824
▁အာဒါ	-10825
▁ဩမရိ	-10826
ကြင်နာ	-10827
ကြည့်၍	-10828
စာလိပ်	-10829
စ်ညှုး	-10830
တမြို့	-10831
တို့၌၊	-10832
ထားခဲ့	-10833
ထားသည်	-10834
ပါးကို	-10835
ပြောင်	-10836
ပြေး၍၊	-10837
ဘောဇဉ်	-10838
မကပ်ရ။	-10839
မသိသော	-10840
မ္မပွဲ	-10841
မှလွှဲ	-10842
ရကြမည်	-10843
ရသလော။	-10844
ရွာသား	-10845
ရှိသား	-10846
လှောင်	-10847
သည်သာ၍	-10848
သောအနာ	-10849
သံလွင်	-10850
သွားကြ	-10851
သွားလာ	-10852
ဟနှင့်	-10853
အရှင်၊	-10854
အသောက်	-10855
ာကရုဏာ	-10856
ာကိမ်၊	-10857
ုတ်ကို	-10858
ုပ်ပင်	-10859
ုသိုလ်	-10860
၏ကျွန်	-10861
၏သားဦး	-10862
▁ကြစေ။	-10863
▁ငါအား	-10864
▁ဆိတ်၊	-10865
▁ဇိခရိ	-10866
▁တည်၍၊	-10867
▁တေကော	-10868
▁ဒေဗိရ	-10869
▁နေသည်	-10870
▁ပါရမီ	-10871
▁ပြော၍	-10872
▁ဗာရက်	-10873
▁မရွေး	-10874
▁ယောသံ	-10875
▁ရဗ္ဗာ	-10876
▁ရှောလ	-10877
▁လွန်၍	-10878
▁လှဲချ	-10879
▁သူပြု	-10880
▁သူရူး	-10881
▁ဟာနန်	-10882
▁ဟေမန်	-10883
▁အဒုလံ	-10884
▁အာရုံ	-10885
▁အေ့ဟေ	-10886
ကိုမပြု	-10887
ခုပ်တီး	-10888
ခေါင်း၌	-10889
ချက်သည်	-10890
စော်ကား	-10891
ဆယ်နှစ်	-10892
တဆယ်ကို	-10893
တို့ကား	-10894
ထိုင်ရာ	-10895
ထဲကထွက်	-10896
နားပြင်	-10897
နိုင်ဘဲ	-10898
နှောင့်	-10899
ပရိယာယ်	-10900
ပေးတော်	-10901
ပေးပါဟု	-10902
မီးခွက်	-10903
မြက်ပင်	-10904
မြေသို့	-10905
ရက်နေ့၌	-10906
ရုပ်တု၊	-10907
ရွက်ကို	-10908
ရှက်ကွဲ	-10909
ရှိလျက်	-10910
သုံးရက်	-10911
သေရမည်။	-10912
အရပ်မှာ	-10913
အရာမှာ၊	-10914
အသောင်း	-10915
အုပ်ရ၏။	-10916
▁ကာလသည်	-10917
▁ကြား၍၊	-10918
▁ခရိုင်	-10919
▁ခုနစ်ဆ	-10920
▁ချွတ်၍	-10921
▁ငါအကြံ	-10922
▁ဆုံးမ၍	-10923
▁ညက်ညက်	-10924
▁တနေ့သ၌	-10925
▁ထက်သော	-10926
▁ဒါဂုန်	-10927
▁နက်သော	-10928
▁နားမှာ	-10929
▁နေရသော	-10930
▁နွေကာလ	-10931
▁ပေါလု၏	-10932
▁ပြိုင်	-10933
▁ပြုစား	-10934
▁ဖေတ္တု	-10935
▁မရှိဘဲ	-10936
▁မလှုပ်	-10937
▁မဝင်ရ။	-10938
▁မသိသော	-10939
▁မဟုတ်၊	-10940
▁မြည်း၊	-10941
▁ယနေ့ငါ	-10942
▁ယဟောရှ	-10943
▁ယုတ်မာ	-10944
▁ရိပ်မိ	-10945
▁လက်ထပ်	-10946
▁လူကလေး	-10947
▁လူဖြစ်	-10948
▁လွန်စေ	-10949
▁သစ်သီး	-10950
▁သလောဟု	-10951
▁သူငယ်၊	-10952
▁သူမှစ၍	-10953
▁သွင်း၍	-10954
▁အကြိမ်	-10955
▁အင်တန်	-10956
▁အစွမ်း	-10957
▁အနွှယ်	-10958
▁အဗေဒနေ	-10959
▁အလံကို	-10960
▁အသွေး၌	-10961
▁အာဇရိ၊	-10962
▁အာမုန်	-10963
▁အိုအဘ၊	-10964
▁ဤသူငယ်	-10965
▁ဥစ္စာပ	-10966
▁ဥစ္စာ၊	-10967
▁ဧဂလုန်	-10968
ကြပြီးမှ	-10969
ကြသဖြင့်	-10970
ခေရုဗိမ်	-10971
ခံရမည်ဟု	-10972
ခွင့်ကို	-10973
ငွေနှင့်	-10974
စပ်ကြား၌	-10975
စေပြီးမှ	-10976
စွဲသောသူ	-10977
ဆန့်ကျင်	-10978
ဆိုလျှင်	-10979
တဆယ်နှစ်	-10980
တရားတွေ့	-10981
တလုံးကို	-10982
ထိုင်သော	-10983
နိအမျိုး	-10984
နှစ်ခုစီ	-10985
ပြိုပျက်	-10986
ပြုမည်ဟု	-10987
များသို့	-10988
ယောင်ကို	-10989
ရင်ခွင်၌	-10990
ရသောအခါ၊	-10991
ရှိလျက်၊	-10992
လိခရိုင်	-10993
လုလင်သည်	-10994
လေးယောက်	-10995
သိုးနွား	-10996
သီးနှင့်	-10997
သွားမည်။	-10998
အထံတော်က	-10999
အန္တရာယ်	-11000
အမွေခံရာ	-11001
အလင်းကို	-11002
အားဆို၏။	-11003
အားလျော့	-11004
ဦးခေါင်း	-11005
▁ကေဒြုန်	-11006
▁ကြည်ညို	-11007
▁ကြမ်းကြ	-11008
▁ကြီးမား	-11009
▁ခုနစ်ရာ	-11010
▁ငါ့လက်၌	-11011
▁ငါ့သမီး	-11012
▁စက်တော်	-11013
▁စမ်းသပ်	-11014
▁စားကြ၏။	-11015
▁စောင်း၊	-11016
▁ဆင်စွယ်	-11017
▁ဆီးကြို	-11018
▁တခါတည်း	-11019
▁တင်ကြ၏။	-11020
▁တမန်ကို	-11021
▁တယောက်၊	-11022
▁ထမ်းသော	-11023
▁ထိုခရစ်	-11024
▁ထိုမြစ်	-11025
▁ထိုရွှေ	-11026
▁နူးညွတ်	-11027
▁နေဗုခဒ်	-11028
▁နှစ်ရက်	-11029
▁ပညတ်ထား	-11030
▁ပေတည်း။	-11031
▁ပြောတတ်	-11032
▁မင်းပြု	-11033
▁မယားသည်	-11034
▁မဟာနိမ်	-11035
▁မိတ်မတ်	-11036
▁ရောက်စေ	-11037
▁လွှင့်၍	-11038
▁ဝတ်ပြုရ	-11039
▁သားများ	-11040
▁သိုးကို	-11041
▁သူလျှို	-11042
▁သူ၏လက်၌	-11043
▁သူ၏သမီး	-11044
▁အဘဣဇာက်	-11045
▁အမြဲတည်	-11046
▁အာဗြံဟံ	-11047
▁အဲဂုတ္တ	-11048
▁ဤမြို့၌	-11049
▁ဩဗဒေဒုံ	-11050
ကိုဖွင့်၍	-11051
ကြပြီလော။	-11052
ခြင်းလည်း	-11053
ငါးဆယ်ကို	-11054
ငါးထောင်၊	-11055
ဒါဝိဒ်အား	-11056
နားထောင်၍	-11057
နေ့ရက်သည်	-11058
ပြစ်မှား၍	-11059
မိန်းမသည်	-11060
မြီးကောက်	-11061
ရှိသောသူ၊	-11062
လုပ်ဆောင်	-11063
လူတို့အား	-11064
လေသမျှသော	-11065
ဝင်းထဲမှာ	-11066
သိုးထိန်း	-11067
သောသူကား၊	-11068
သောအစာကို	-11069
ဟောင်းကို	-11070
အကြီးအငယ်	-11071
အဘယ်သူမျှ	-11072
အရာ၌၎င်း၊	-11073
အရှေ့ဘက်၌	-11074
အဝတ်နှင့်	-11075
ဥပုသ်နေ့၌	-11076
ိမ်မြို့၊	-11077
ေးချောင်း	-11078
▁ကိုယ်မိဘ	-11079
▁ကြည့်ပါ။	-11080
▁ခံရသောသူ	-11081
▁ချယ်လှယ်	-11082
▁ခြေရင်း၌	-11083
▁ငါ၏အမျက်	-11084
▁ငြိမ်းစေ	-11085
▁စားမြုံ့	-11086
▁စုဝေးသော	-11087
▁ဇာလမုန္န	-11088
▁တည့်တည့်	-11089
▁တိုက်ကို	-11090
▁ထပ်ဆင့်၍	-11091
▁ထရံအခန်း	-11092
▁ထိုကျွန်	-11093
▁နံနက်ယံ၌	-11094
▁ပါသတည်း။	-11095
▁ပေးမည်ဟု	-11096
▁ပြည့်သော	-11097
▁ပြေးလေ၏။	-11098
▁ဖြစ်ဘွား	-11099
▁ဗေသနိရွာ	-11100
▁မင်းအာဏာ	-11101
▁မိမိသခင်	-11102
▁မီးထွန်း	-11103
▁မျက်နှာမ	-11104
▁မျက်နှာရ	-11105
▁မြေနှင့်	-11106
▁ယနေ့ညဉ့်	-11107
▁ယာကုပ်က၊	-11108
▁ယုဒပြည်၊	-11109
▁ယူသွား၍၊	-11110
▁ရမည်မှာ၊	-11111
▁ရှမွေလက၊	-11112
▁ရှေ့သို့	-11113
▁လက်ဖြင့်	-11114
▁လာဗန်သည်	-11115
▁လောကီသား	-11116
▁သူတို့သိ	-11117
▁သူ့ကိုငါ	-11118
▁အကွယ်အကာ	-11119
▁အဆင်သင့်	-11120
▁အပ်လိုက်	-11121
▁အပျိုကညာ	-11122
▁အပြစ်သည်	-11123
▁အဘိုးကို	-11124
▁အာဟပ်သည်	-11125
▁အာဣမြို့	-11126
▁ဥာဏ်တိမ်	-11127
ကိုင်လျက်၊	-11128
ကိုလည်းယူ၍	-11129
ခြောက်ဆယ်၊	-11130
တကိုယ်တည်း	-11131
တို့အပေါ်၌	-11132
တောင်ရှိ၏။	-11133
နှင့်မလွတ်	-11134
ပါစေသတည်း။	-11135
ပြုသဖြင့်၊	-11136
ဖြစ်သောသူ၊	-11137
မပြုနှင့်။	-11138
ရှက်ကြောက်	-11139
ရှလင်မြို့	-11140
လျှောက်ဝံ့	-11141
သင်တို့အား	-11142
သုံးသောင်း	-11143
သောသူမူကား	-11144
ဟာယယဇ်ဘို့	-11145
အသက်ကြီးသူ	-11146
▁ကြီးမြင့်	-11147
▁ခရီးသွား၍	-11148
▁ချိုးကလေး	-11149
▁ငါပယ်ရှား	-11150
▁ငါပြင်ဆင်	-11151
▁ငါလျှောက်	-11152
▁စီရင်မည်။	-11153
▁ဆိုးသောသူ	-11154
▁ဆောင်လျက်	-11155
▁ဇေရုယာသား	-11156
▁တပ်ထဲသို့	-11157
▁တရားစရပ်၌	-11158
▁တိုက်မြစ်	-11159
▁တုရုမြို့	-11160
▁တံခါးထုပ်	-11161
▁ထိုငွေကို	-11162
▁ထိုပြည်မှ	-11163
▁ထိုဥယျာဉ်	-11164
▁နှင့်တကွ၊	-11165
▁နှိပ်နင်း	-11166
▁ပျောက်သော	-11167
▁ပြည့်စုံ၍	-11168
▁ပြောလော့။	-11169
▁မထိမခိုက်	-11170
▁မသိမ်းမယူ	-11171
▁မာဂဒလမာရိ	-11172
▁မိမိကိုယ်	-11173
▁မူသဖြင့်၊	-11174
▁မေဂိဒ္ဒေါ	-11175
▁မြောက်ဘက်	-11176
▁ယောနသန်က၊	-11177
▁ရည်မှတ်၍၊	-11178
▁ရထားများ၊	-11179
▁ရဲရင့်သော	-11180
▁လက်ျာဘက်၊	-11181
▁လိမ္မာသော	-11182
▁လောဗန်ကို	-11183
▁ဝင်သောအခါ	-11184
▁သက်သေခံ၏။	-11185
▁သင်းဝင်သူ	-11186
▁သဘောနှင့်	-11187
▁သမုတ်လေ၏။	-11188
▁သားမရှိဘဲ	-11189
▁သိုးသငယ်၏	-11190
▁သွန်းလေ၏။	-11191
▁အစည်းအဝေး	-11192
▁အတွင်းဝန်	-11193
▁အဘယ်ကာလမှ	-11194
▁အဘယ်အရပ်က	-11195
▁အိုဇိအုန်	-11196
▁အိုယာကုပ်	-11197
▁အောက်သို့	-11198
ကောင်းသည်ဟု	-11199
ခြင်းဖြစ်၏။	-11200
ဂုဏ်တော်ကို	-11201
နိုင်လျှင်၊	-11202
နိုင်သည်ကို	-11203
ပြည်၌ရှိသော	-11204
ဖြစ်ကြောင်း	-11205
ဗိမာန်တော်၌	-11206
များရှေ့မှာ	-11207
မွမ်းမံလေ၏။	-11208
ရာသို့ရောက်	-11209
ရှိပါစေသော။	-11210
လူတို့နှင့်	-11211
သို့ရောက်၍၊	-11212
သိုးတို့ကို	-11213
အနည်းငယ်ကို	-11214
အရပ်ရပ်သို့	-11215
▁ကျင့်ဆောင်	-11216
▁ခါးပန်းကို	-11217
▁ခေါ်တော်မူ	-11218
▁ချစ်ခြင်း၊	-11219
▁ချီလွှဲသော	-11220
▁ချီးမွမ်း၍	-11221
▁ငါကျိန်ဆို	-11222
▁ငွေအင်တုံ၊	-11223
▁စိုးစံလေ၏။	-11224
▁တဆေးမပါသော	-11225
▁တရားမှုကို	-11226
▁ထိုအင်တုံ၊	-11227
▁ထံတော်သို့	-11228
▁နေရာကျကြ၏။	-11229
▁နှုတ်နှင့်	-11230
▁ပြစ်မှား၍၊	-11231
▁ဖြစ်သည်ကို	-11232
▁ဖြောင့်သော	-11233
▁ဘုရားကျွန်	-11234
▁မကြားမပြော	-11235
▁မုန့်စိမ်း	-11236
▁မျက်စိမြင်	-11237
▁လူမျိုးတကာ	-11238
▁လူယောက်ျား	-11239
▁ဝတ်ပြုကြ၏။	-11240
▁ဝိညာဉ်ပကတိ	-11241
▁သင်၏အမျိုး	-11242
▁သားသမီးကို	-11243
▁သူသည်လည်း၊	-11244
▁သေထိုက်သော	-11245
▁အသက်ရှင်၍၊	-11246
▁ဣရှဗောရှက်	-11247
▁ဤလူတို့သည်	-11248
ဆုတောင်းပဌနာ	-11249
တတ်သကဲ့သို့၊	-11250
တိုင်တို့ကို	-11251
တို့အားလည်း၊	-11252
တော်မူခြင်း၊	-11253
ဖြစ်လိမ့်မည်	-11254
ဘာသာအားဖြင့်	-11255
မြို့ရိုးကို	-11256
ယဇ်ပလ္လင်ကို	-11257
ရပါလိမ့်မည်။	-11258
သတို့သမီးသည်	-11259
သမျှကို၎င်း၊	-11260
သောစကားနှင့်	-11261
သောစိတ်ရှိ၍၊	-11262
အကျွန်ုပ်ကို	-11263
အချို့တို့က၊	-11264
ဥစ္စာများကို	-11265
▁ကောင်းကျိုး	-11266
▁ကျောက်နှင့်	-11267
▁ကျွန်မိန်းမ	-11268
▁ကျွန်မောရှေ	-11269
▁ကြေးဝါနှင့်	-11270
▁ချည်နှောင်၍	-11271
▁ချီသွားကြ၏။	-11272
▁ငယ်သောအရွယ်	-11273
▁ငါချီးမွမ်း	-11274
▁ငြိမ်သက်စွာ	-11275
▁စိတ်နှလုံး၌	-11276
▁ဆင်းရဲခြင်း	-11277
▁ဆိုင်သနည်း။	-11278
▁ညစ်ညူးခြင်း	-11279
▁တရားတော်သည်	-11280
▁တို့ကိုလည်း	-11281
▁ပယ်ဖြတ်မည်။	-11282
▁ပေတရုကလည်း၊	-11283
▁ပြင်းထန်စွာ	-11284
▁ပြည်တော်သည်	-11285
▁မိဖုရားဧသတာ	-11286
▁မျက်စိနှင့်	-11287
▁ယဇ်ကောင်ကို	-11288
▁ယောရှုနှင့်	-11289
▁ရွေးချယ်သော	-11290
▁ရှောက်သွား၍	-11291
▁ဝမ်းမြောက်၍	-11292
▁သက်သေခံကြ၏။	-11293
▁သင်တို့ဘက်၌	-11294
▁သင်တို့အထဲ၌	-11295
▁သင်၏စကားကို	-11296
▁သစ္စာဝတ်ကို	-11297
▁သူတို့အတွက်	-11298
▁သူရဲတို့သည်	-11299
▁ဟောင်းနွမ်း	-11300
▁အကျွန်ုပ်အဘ	-11301
▁အနာရောဂါကို	-11302
▁အပြစ်တင်သော	-11303
▁အလှည့်လှည့်	-11304
▁ဧကြုန်မြို့	-11305
ကောင်းကြီးပေး	-11306
ခြင်းရှိလော့။	-11307
ထုံးစံအတိုင်း	-11308
နှုတ်ကပတ်တော်	-11309
ပေါ်မှာရှိသော	-11310
အပေါင်းတို့က၊	-11311
▁ကိုယ်သားသမီး	-11312
▁ကြားပြောလေ၏။	-11313
▁ကြောင့်၎င်း၊	-11314
▁ငါနှုတ်ဆောင်	-11315
▁ဆောင်ရွက်သော	-11316
▁တောင်တို့သည်	-11317
▁ထိုလူတို့သည်	-11318
▁နားမထောင်သော	-11319
▁ပညတ္တိကျမ်း၌	-11320
▁ပညတ်တော်မူ၏။	-11321
▁ပြုတော်မူပါ။	-11322
▁ပြောဆိုလျက်၊	-11323
▁ဘုန်းထင်ရှား	-11324
▁မိမိပြည်သို့	-11325
▁မိုဃ်းကောင်း	-11326
▁မြော်ကြည့်၍၊	-11327
▁ယာကုပ်ကလည်း၊	-11328
▁ယုံကြည်သောသူ	-11329
▁ရန်ငြိုးဖွဲ့	-11330
▁ရေချိုးရမည်။	-11331
▁ရှမွေလကလည်း၊	-11332
▁လူမျက်နှာကို	-11333
▁လူအလုံးအရင်း	-11334
▁သင်တို့အဘသည်	-11335
▁သူငယ်တို့ကို	-11336
▁ဟစ်ကြော်ကြ၏။	-11337
▁ဟေရမုန်တောင်	-11338
▁အပေါင်းတို့၊	-11339
▁အမှုရောက်သော	-11340
▁အိမ်ထောင်ဘက်	-11341
ခေါင်းပေါ်သို့	-11342
ခံရကြလိမ့်မည်။	-11343
ခြင်းနှင့်၎င်း	-11344
တော်မူသောသူကို	-11345
နိုင်ငံတော်ကို	-11346
ပြစ်မှားပါပြီ။	-11347
မျက်မှောက်တွင်	-11348
ရှင်ဘုရင်နှင့်	-11349
သားတို့သည်လည်း	-11350
▁ကိုယ်အလိုသို့	-11351
▁ခန့်ထားတော်မူ	-11352
▁ဆိတ်ငါးကောင်၊	-11353
▁ဆိုသည်အတိုင်း	-11354
▁တဖန်ဘုရားသခင်	-11355
▁တရားစရပ်တို့၌	-11356
▁နန်းတော်တံခါး	-11357
▁ပုန်ကန်တတ်သော	-11358
▁ပြန်ပြောသော်၊	-11359
▁ဖာရောဘုရင်သည်	-11360
▁ဖျက်ဆီးတတ်သော	-11361
▁မိန်းမသည်လည်း	-11362
▁မိမိတို့နေရာ၌	-11363
▁မိမိတို့အဘို့	-11364
▁မျက်နှာပြုသော	-11365
▁မြေတိုင်အောင်	-11366
▁မှတ်တော်မူပါ။	-11367
▁ရှေ့တော်မုန့်	-11368
▁လူများရှေ့မှာ	-11369
▁လောကီအလုပ်ကို	-11370
▁သနားတော်မူပါ။	-11371
▁သိတင်းတော်ကို	-11372
▁သိမြင်သောအခါ၊	-11373
▁သူတို့လက်သို့	-11374
▁သူ၏သားတို့ကို	-11375
▁အကာရှသားနှင့်	-11376
▁အချို့တို့ကို	-11377
▁အိုးထိန်းသမား	-11378
▁အောက်မေ့လော့။	-11379
▁အဲဂုတ္တုပြည်၊	-11380
▁ဧည့်သည်ဝတ်ကို	-11381
ခြင်းသို့မရောက်	-11382
ခြင်းသို့ရောက်၍	-11383
ညှဉ်းဆဲခြင်းကို	-11384
နှင့်ပြည့်စုံ၏။	-11385
မိုဃ်းကောင်းကင်	-11386
ဝမ်းမြောက်ခြင်း	-11387
▁ကယ်တင်ခြင်းငှါ	-11388
▁ကိုယ်တိုင်မှစ၍	-11389
▁ကျောက်ပြားနှစ်	-11390
▁ခါနာန်ပြည်သို့	-11391
▁ခံရသောကြောင့်၊	-11392
▁ဂါလိလဲပြည်သို့	-11393
▁ဆင်းရဲသောသူကို	-11394
▁တရားသောအမှုကို	-11395
▁ထိုမိန်းမနှင့်	-11396
▁ထိုသူနှစ်ယောက်	-11397
▁ပညတ္တိကျမ်းစာ၌	-11398
▁ပြုကြလိမ့်မည်။	-11399
▁ဖြစ်စေခြင်းငှါ	-11400
▁ဗျာဒိတ်ဌာနတော်	-11401
▁မီးဖြင့်ပူဇော်	-11402
▁မေးလျှောက်ကြ၏။	-11403
▁မှူးမတ်တို့သည်	-11404
▁မှောင်မိုက်ကို	-11405
▁လျှောက်ထားကြ၏။	-11406
▁လွှတ်လိုက်လေ၏။	-11407
▁သင်သည်အဘယ်သို့	-11408
▁သူတို့နောက်မှ၊	-11409
▁သူတို့နှင့်တကွ	-11410
▁သူတို့အပြစ်ကို	-11411
▁သူ၏အမျိုးအနွယ်	-11412
▁အမျိုးအနွယ်ကို	-11413
▁အလောင်းတော်ကို	-11414
▁အံ့ဘွယ်သောအမှု	-11415
စပ်ဆိုင်သောသူကို	-11416
တော်နှင့်ယှဉ်သော	-11417
အပေါင်းတို့အဘို့	-11418
အမျိုးမျိုးနှင့်	-11419
▁ကိုယ်တော်ကျွန်၏	-11420
▁ကြောင်းကို၎င်း၊	-11421
▁ခြင်္သေ့ကဲ့သို့	-11422
▁ဂိလဂါလမြို့သို့	-11423
▁စိတ်နှလုံးနှင့်	-11424
▁စိတ်မသာညည်းတွား	-11425
▁တိုင်ပင်မှူးမတ်	-11426
▁ထမ်းဘိုးတို့ကို	-11427
▁ထိမ်းမြားပေးစား	-11428
▁ပြန်လျှောက်ကြ၏။	-11429
▁ဖြစ်စေခြင်းငှါ၊	-11430
▁ဗာရှန်ရှင်ဘုရင်	-11431
▁မိန့်တော်မူပြီ။	-11432
▁ရောက်ပြီးလျှင်၊	-11433
▁ရှမာရိမြို့သို့	-11434
▁သိုးနွားတို့ကို	-11435
▁သူ၏အပေါင်းအဘော်	-11436
▁အတွင်းတန်တိုင်း	-11437
▁ဥစ္စာရှိသမျှကို	-11438
▁ဧဖရိမ်အမျိုးသား	-11439
ဝရ	-11440
သီ	-11441
ဟဲ	-11442
ိဘ	-11443
့လ	-11444
ကာ၊	-11445
ကိ၊	-11446
ကျူ	-11447
စို	-11448
ဆူး	-11449
ဆော	-11450
ပြသ	-11451
ဗာန	-11452
မရ၊	-11453
မသာ	-11454
ရဘဲ	-11455
လဲ၊	-11456
သမ္	-11457
သိအ	-11458
အတိ	-11459
ဦး။	-11460
ာယ်	-11461
ာရီ	-11462
ား၊	-11463
ေလ။	-11464
ောန	-11465
ွှေ	-11466
၌နေ	-11467
▁အတ	-11468
ကျော	-11469
ကျ၏။	-11470
ခကို	-11471
စဉ်ဘ	-11472
စေဘဲ	-11473
ဆည်း	-11474
ဆန်၊	-11475
ဆွဲမ	-11476
ညှစ်	-11477
တ္တဲ	-11478
နန်၊	-11479
နေလိ	-11480
ပနက်	-11481
ပုပ်	-11482
ဗပ်၊	-11483
မကို	-11484
မဟော	-11485
မြေ၊	-11486
မှီ၍	-11487
ယောဘ	-11488
ရိကံ	-11489
ရိလူ	-11490
ရှတိ	-11491
လယ်၌	-11492
လောဖ	-11493
သယော	-11494
သား။	-11495
သေ၏။	-11496
အထီး	-11497
အပဲ့	-11498
ဩမဲ၊	-11499
ုန်၊	-11500
ုရှ၊	-11501
ေဒန်	-11502
္ဒြေ	-11503
▁ကျီ	-11504
▁ကြ။	-11505
▁စို	-11506
▁စ၍၊	-11507
▁ဇိန	-11508
▁တာန	-11509
▁တို	-11510
▁တေလ	-11511
▁ဘယ်	-11512
▁မက်	-11513
▁မိဂ	-11514
▁ဧဟု	-11515
က္ကုရ	-11516
ခိုးအ	-11517
ခဲနက်	-11518
ခြား၊	-11519
စလုံး	-11520
စား၏။	-11521
စုသည်	-11522
စ်သော	-11523
ဇာခရိ	-11524
ဒနာရံ	-11525
နေရာ၊	-11526
ပြုကြ	-11527
ပြွတ်	-11528
မခေါ်	-11529
မပြန်	-11530
မပြု။	-11531
မရကြ။	-11532
မရသော	-11533
မြုပ်	-11534
မြွတ်	-11535
ယုဒလူ	-11536
ရှိနေ	-11537
ရှေမာ	-11538
လာဗန်	-11539
လောကီ	-11540
လွတ်၍	-11541
လွန်း	-11542
သဘော၊	-11543
သားရေ	-11544
သူကို	-11545
အကျန်	-11546
အကွက်	-11547
အဝတ်၊	-11548
အိုး၌	-11549
▁ကတ္တ	-11550
▁ကုရု	-11551
▁ကေဒါ	-11552
▁ငါ၏ပ	-11553
▁စော်	-11554
▁ဆို၍	-11555
▁တည်၍	-11556
▁ထိုပ	-11557
▁ပတ္တ	-11558
▁ဖျား	-11559
▁ဗောရ	-11560
▁ဘေး၊	-11561
▁မဆက်	-11562
▁မဖြေ	-11563
▁မူ၍၊	-11564
▁မြုံ	-11565
▁ယခင်	-11566
▁ယာဇာ	-11567
▁ယေဒု	-11568
▁ရှိ၍	-11569
▁လာကြ	-11570
▁သူက၊	-11571
▁သော့	-11572
▁ဟဂ္ဂ	-11573
▁အခါယ	-11574
▁အစ်မ	-11575
▁အဘက၊	-11576
▁အမတ်	-11577
▁အာသဟ	-11578
▁အော်	-11579
▁ဣဒေါ	-11580
▁ဧလိဖ	-11581
ကိုမသိ	-11582
ကြိုး၊	-11583
ခုနှစ်	-11584
ဂါလိလဲ	-11585
ငါသိ၏။	-11586
တဘက်မှ	-11587
တသိန်း	-11588
တောင့်	-11589
တွေ့၏။	-11590
ထလော့။	-11591
ဒန်သည်	-11592
နက်ကို	-11593
နနှင့်	-11594
နေသရက်	-11595
ပြင်မှ	-11596
ပြအိုး	-11597
ပြာကို	-11598
မည်သည်	-11599
မလွှတ်	-11600
မောင်း	-11601
မောဒနာ	-11602
များ၏။	-11603
မျိုး၏	-11604
ရလတံ့။	-11605
ရှာဖွေ	-11606
လက်ဝါး	-11607
လယ်ကို	-11608
လျှက်၊	-11609
လွှတ်၍	-11610
ဝတ်သော	-11611
ဝိဇ္ဇာ	-11612
သည်ကာလ	-11613
သယောပိ	-11614
သေလေ၏။	-11615
ဟုခေါ်	-11616
အားဆို	-11617
အားပေး	-11618
ိမ်လူ၊	-11619
ဲ့ကွက်	-11620
▁ကာသော	-11621
▁ချော်	-11622
▁ငါးရာ	-11623
▁စပါး၊	-11624
▁စုတေ့	-11625
▁ဆို၍၊	-11626
▁ဇေဗေဒ	-11627
▁တေရပ်	-11628
▁တောက်	-11629
▁တံစဉ်	-11630
▁ထမ်း၍	-11631
▁ဒေလိလ	-11632
▁နေစရာ	-11633
▁နေရကြ	-11634
▁နောမိ	-11635
▁ပြင်၌	-11636
▁ဗာနိ၊	-11637
▁မနေရ။	-11638
▁မအိပ်	-11639
▁မုရှိ	-11640
▁မုသား	-11641
▁မေရိဘ	-11642
▁ယေရိမ	-11643
▁ရဟောဘ	-11644
▁ရှမ္မ	-11645
▁ရှိ၍၊	-11646
▁ရှုအာ	-11647
▁လာခဲ့	-11648
▁လာပါ။	-11649
▁လုံ့လ	-11650
▁လျှို	-11651
▁သကေနေ	-11652
▁သင်ထ၍	-11653
▁သရွတ်	-11654
▁သာမက၊	-11655
▁သံကို	-11656
▁အပြည်	-11657
▁အဘယ်အ	-11658
▁အဘိရံ	-11659
▁အာမရံ	-11660
▁ဤတော၌	-11661
▁ဧဖရတ်	-11662
▁ဧလျာဘ	-11663
▁ဧသော၏	-11664
ကင်းသော	-11665
ကျန်ရစ်	-11666
ကြည်လင်	-11667
စီနှင့်	-11668
စေလျှင်	-11669
စောင့်၍	-11670
စွန့်၍၊	-11671
ဆိုဘွယ်	-11672
ဆိုလို။	-11673
ဆောင်ယူ	-11674
တပ်မှူး	-11675
တမျိုး၊	-11676
ထားပြီ။	-11677
နေ့တွင်	-11678
နှစ်ရာ၊	-11679
ပယ်ရှား	-11680
ပေးပြီ။	-11681
ပြည်မှာ	-11682
ပြုတော်	-11683
မကြောက်	-11684
မင်းသေ၍	-11685
မရှိသည်	-11686
မဟုတ်ဟု	-11687
ရသတည်း။	-11688
လက်ထက်၊	-11689
လောမိတ်	-11690
အမှုသည်	-11691
အရပ်သည်	-11692
ဧဝံဂေလိ	-11693
ိမ်ဝှက်	-11694
▁ကယ်ဆယ်	-11695
▁ကိုင်၍	-11696
▁ကေဒေရှ	-11697
▁ကြားနာ	-11698
▁ခဲယဉ်း	-11699
▁ငါဖြစ်	-11700
▁ဆက်ဆံ၍	-11701
▁ဆိုသော	-11702
▁ဆွဲငင်	-11703
▁တင်သော	-11704
▁တာဗော်	-11705
▁တောဖက်	-11706
▁တံထွေး	-11707
▁နတ်ဝင်	-11708
▁ဖြိုချ	-11709
▁ဗက်လင်	-11710
▁ဗာဇိလဲ	-11711
▁ဗာရဗ္ဗ	-11712
▁ဗေနာယ၊	-11713
▁ဘက်မှာ	-11714
▁ဘုရင်၏	-11715
▁မဆိုင်	-11716
▁မနှုတ်	-11717
▁မရိုသေ	-11718
▁မှတ်မိ	-11719
▁ယုဒလူ၊	-11720
▁ယေရောဟ	-11721
▁ရိုင်း	-11722
▁ရှာသော	-11723
▁ရှေဖတိ	-11724
▁ရှေမာယ	-11725
▁လက်စွဲ	-11726
▁လူနေရာ	-11727
▁လူအသက်	-11728
▁လေးကို	-11729
▁သခင်က၊	-11730
▁သင်၌ငါ	-11731
▁သားယဉ်	-11732
▁သားရဲ၏	-11733
▁သူငယ်၏	-11734
▁သောက်၍	-11735
▁ဟာနုန်	-11736
▁ဟောရှေ	-11737
▁အဆုံး၌	-11738
▁အဘိဂဲလ	-11739
▁အမိုက်	-11740
▁အရပ်မှ	-11741
▁အလိုက်	-11742
▁အအူကို	-11743
▁ဣန္ဒြေ	-11744
▁ဧကြုန်	-11745
▁ဧနောက်	-11746
▁၌၎င်း၊	-11747
ကိုမုန်း	-11748
ကုန်ပြီ။	-11749
ကျွေးသော	-11750
ခြင်းထက်	-11751
ငြိုငြင်	-11752
စိတ်သဘော	-11753
စုတစုကို	-11754
စေကြပြီ။	-11755
စေတတ်သော	-11756
စေသနည်း။	-11757
ဆောင်ဘက်	-11758
တင်လျက်၊	-11759
တို့အထဲက	-11760
တော်တို့	-11761
ဒုက္ခကို	-11762
ဒံယေလသည်	-11763
နှံ့ပြား	-11764
ပါတော့ဟု	-11765
ပေါက်သော	-11766
ပြုစုသော	-11767
ပြေးကြ၏။	-11768
ဖြစ်မည်။	-11769
ဖြတ်မည်။	-11770
ဘမ်းဆီး၍	-11771
မဖြစ်မှီ	-11772
မဟုတ်ပါ။	-11773
မ္မလူသည်	-11774
ယိုယွင်း	-11775
လက်ဆောင်	-11776
လက်ျာလက်	-11777
လာလျှင်၊	-11778
လုလင်ကို	-11779
လေဦးမည်။	-11780
လေ့မရှိ။	-11781
သစ်နှင့်	-11782
သိမ်းယူ၍	-11783
သောသဘော၊	-11784
သောအဖြစ်	-11785
သွန်းသော	-11786
ဟုန်တည်း	-11787
အမည်ကား၊	-11788
အရိပ်ကို	-11789
အလင်းသည်	-11790
အလယ်သို့	-11791
▁ကာရာသား	-11792
▁ငါမတွေ့	-11793
▁ငါမသိဟု	-11794
▁ငါမုန်း	-11795
▁ငါလိုက်	-11796
▁ငါ့အိမ်	-11797
▁စပါးပင်	-11798
▁စာချုပ်	-11799
▁စီရင်၏။	-11800
▁ဇဒ္ဒုကဲ	-11801
▁ဇာဒုတ်၊	-11802
▁တက်ကြ၏။	-11803
▁တခြားစီ	-11804
▁တပါးသော	-11805
▁တိုက်လာ	-11806
▁ထားတော်	-11807
▁ထိုသူ၏အ	-11808
▁ထိုအမတ်	-11809
▁ဒါဝိဒ်၌	-11810
▁နေတတ်၏။	-11811
▁နေလိမ့်	-11812
▁နေ့မှစ၍	-11813
▁ပိတ်ထား	-11814
▁ပူဇော်၍	-11815
▁ပြင်မှာ	-11816
▁ပွဲခံရာ	-11817
▁ဖုံးသော	-11818
▁ဗာသရှေဘ	-11819
▁ဘွဲ့နာမ	-11820
▁မယားငယ်	-11821
▁မလိုက်၊	-11822
▁မာရိသည်	-11823
▁မိမိသည်	-11824
▁မိလ္လော	-11825
▁မေရှုလံ	-11826
▁မောရှေ၊	-11827
▁မောရှေ၌	-11828
▁များသော	-11829
▁မြေရိုး	-11830
▁ယုဒမင်း	-11831
▁ယူရမည်။	-11832
▁ယောနသည်	-11833
▁ယောသပ်၏	-11834
▁ရည်းစား	-11835
▁ရပ်လျက်	-11836
▁ရှောင်၍	-11837
▁လုံးကို	-11838
▁လူချင်း	-11839
▁လေတိုက်	-11840
▁သခင်အား	-11841
▁သင့်အဘ၏	-11842
▁သန်လျက်	-11843
▁သူမရှိ။	-11844
▁သူအများ	-11845
▁သူ၏နေရာ	-11846
▁သောငှါ၊	-11847
▁ဟောလေ၏။	-11848
▁အကြွင်း	-11849
▁အစိုးတရ	-11850
▁အဆက်ဆက်	-11851
▁အထဲသို့	-11852
▁အပ်တော်	-11853
▁အဘနှင့်	-11854
▁အဘယ်မည်	-11855
▁အာဂန္တု	-11856
▁၌ရှိသော	-11857
ကျောက်ကို	-11858
ကြာပြီးမှ	-11859
ကြီးနှင့်	-11860
ခရစ်တော်၏	-11861
ခုနစ်လုံး	-11862
ခြင်းသဘော	-11863
ငါးယောက်၊	-11864
တတ်သည်ကို	-11865
တ္တာကရုဏာ	-11866
နေ့ရက်ကာလ	-11867
နှစ်ကြိမ်	-11868
နှစ်သိမ့်	-11869
ပိုင်းကို	-11870
ဖျက်ဆီး၍၊	-11871
ဖြစ်စေသော	-11872
မိန့်တော်	-11873
မုတ်ဆိုးမ	-11874
ရကြလတံ့ဟု	-11875
ရွေးကောက်	-11876
လေပြီးသော	-11877
လျှင်လည်း	-11878
သူတို့အား	-11879
ဟူသောအမည်	-11880
အိပ်ရာကို	-11881
▁ကာမဂုဏ်၌	-11882
▁ကျင့်သော	-11883
▁ခေါ်လေ၏။	-11884
▁ချီသွား၍	-11885
▁ခြေနှင့်	-11886
▁ငွေအကျပ်	-11887
▁စောင့်၍၊	-11888
▁စော်ဘွား	-11889
▁စွန့်ပယ်	-11890
▁ဆုံးမသော	-11891
▁တယောက်က၊	-11892
▁ထိုင်သော	-11893
▁ထိုစာကို	-11894
▁ဒုတိယသား	-11895
▁နာသနိသား	-11896
▁နှစ်နှစ်	-11897
▁ပညာနှင့်	-11898
▁ပရောဖက်၊	-11899
▁ပေတရုကို	-11900
▁ပေါက်သော	-11901
▁မင်းအရာ၌	-11902
▁မစောင့်၊	-11903
▁မနှစ်သက်	-11904
▁မိမိစိတ်	-11905
▁မြင်ရသော	-11906
▁မြေလှုပ်	-11907
▁မွှေးသော	-11908
▁ယနေ့တွင်	-11909
▁ယောရှုက၊	-11910
▁ရထားတော်	-11911
▁ရောနှော၍	-11912
▁လက်ချည်း	-11913
▁လက်ခြေသေ	-11914
▁လည်ပင်း၌	-11915
▁သင်၏မယား	-11916
▁သမင်ဒရယ်	-11917
▁သားရေဘူး	-11918
▁သိလျှင်၊	-11919
▁သူဖြစ်၍၊	-11920
▁သောသူကို	-11921
▁ဟာလေလုယ။	-11922
▁အကြင်သူ၏	-11923
▁အဘဒါဝိဒ်	-11924
▁အများသော	-11925
▁အမျိုးမှ	-11926
▁အမွေတော်	-11927
▁အမှုမထား	-11928
▁အလိုဆန္ဒ	-11929
▁အဝေးသို့	-11930
▁အသရေပျက်	-11931
▁အာမဇိသည်	-11932
▁အားဖြည့်	-11933
▁အုတ်အုတ်	-11934
▁အဲသယောပိ	-11935
▁ဤအိမ်ကို	-11936
▁ဥတုရောက်	-11937
ကျောက်ပြား	-11938
ကြည့်ရှု၍၊	-11939
ကြမည်နည်း။	-11940
ကွယ်ပျောက်	-11941
ခြင်းအမှု၌	-11942
စေကြနှင့်။	-11943
တော်ဖြစ်၏။	-11944
တော်မမူသော	-11945
ထင်ရှားသော	-11946
ထံသို့လာ၍၊	-11947
ထွက်သွား၏။	-11948
နားပတ်လည်၌	-11949
ပုံသဏ္ဌာန်	-11950
ပေါ်၌၎င်း၊	-11951
ပေးလိုက်၏။	-11952
မီးရှို့ရာ	-11953
ယူခြင်းငှါ	-11954
ရပါမည်လော။	-11955
ရှစ်ယောက်၊	-11956
ရှိကြလော့။	-11957
ရှေ့၌၎င်း၊	-11958
လေးမျက်နှာ	-11959
ဝိညာဉ်တော်	-11960
သည်ဟုဆို၏။	-11961
သေကောင်ကို	-11962
သောနေ့မှစ၍	-11963
အမည်သစ်ကို	-11964
▁ကိုယ်ဘို့	-11965
▁ကြားလျှင်	-11966
▁ခင်းကျင်း	-11967
▁ချိန်ခွင်	-11968
▁ခြောက်ဆယ်	-11969
▁ငါ့လက်ကို	-11970
▁ငိုကြွေး၍	-11971
▁စင်ကြယ်၏။	-11972
▁စပ်ဆိုသော	-11973
▁စုဝေးကြ၏။	-11974
▁စေလွှတ်၏။	-11975
▁တညွတ်တည်း	-11976
▁တယောက်ကား	-11977
▁တိုက်လှန်	-11978
▁တောင်သို့	-11979
▁ထားတော်မူ	-11980
▁ထိုမြို့၏	-11981
▁ထိုသားသည်	-11982
▁နတ်ဝိဇ္ဇာ	-11983
▁နာကျင်စွာ	-11984
▁နေ့ရက်သည်	-11985
▁နှစ်ကျိပ်	-11986
▁နှလုံးသည်	-11987
▁နှုတ်ဆက်၍	-11988
▁ပင်လယ်ငါး	-11989
▁ပြပ်ဝပ်၍၊	-11990
▁ပြုတတ်သော	-11991
▁ဗေသလမြို့	-11992
▁ဘိသိက်ပေး	-11993
▁မလှည့်စား	-11994
▁မိမိတို့၌	-11995
▁မိုဃ်းကို	-11996
▁များနှင့်	-11997
▁မြည်းစမ်း	-11998
▁မြို့တော်	-11999
▁မြဲမြံစွာ	-12000
▁ယာကုပ်ကို	-12001
▁ယွာဘနှင့်	-12002
▁ရေကိုလည်း	-12003
▁ရေကဲ့သို့	-12004
▁ရောက်လာ၏။	-12005
▁လျက်ရှိ၏။	-12006
▁သက်သေဖြစ်	-12007
▁သင်သည်ငါ့	-12008
▁သင်၏ရန်သူ	-12009
▁သဘောရှိ၏။	-12010
▁သုံးယောက်	-12011
▁သေတ္တာကို	-12012
▁အစရှိသော၊	-12013
▁အပြစ်တရား	-12014
▁အပြစ်များ	-12015
▁အဗေဒနေဂေါ	-12016
▁အဘယ်အပြစ်	-12017
▁အမှီပြု၍၊	-12018
▁အရေအောက်၌	-12019
▁အာမုတ်သား	-12020
▁အိမ်တံခါး	-12021
▁ဣသရေလမင်း	-12022
▁ဤပြည်သို့	-12023
ကြာမြင့်စွာ	-12024
ခြင်းကိုပြု	-12025
ခြင်းဘေးကို	-12026
ခြင်းအခွင့်	-12027
ငှက်တို့သည်	-12028
စိတ်နှလုံး၌	-12029
တတ်သကဲ့သို့	-12030
တထောင်နှင့်	-12031
နှင့်ဆိုင်၍	-12032
ပါသည်ဖြစ်၍၊	-12033
လမ်းတို့ကို	-12034
သောအဘို့ကို	-12035
အပေါ်၌၎င်း၊	-12036
အလိုအလျောက်	-12037
အဝင်ဖြစ်သော	-12038
အိပ်ပျော်၍၊	-12039
ဥစ္စာဖြစ်၏။	-12040
▁ကာဒေရှဗာနာ	-12041
▁ကျွန်တော်၌	-12042
▁ခံတော်မူ၏။	-12043
▁ငါပေါလုသည်	-12044
▁ငါ့ကိုလည်း	-12045
▁ငါ့အသက်ကို	-12046
▁ငွေရတတ်သော	-12047
▁ဆိုကြလော့။	-12048
▁ဆောင်လျက်၊	-12049
▁တမြို့လုံး	-12050
▁တဟာရှသားရေ	-12051
▁တောင်ပေါ်က	-12052
▁ထိုပြည်သား	-12053
▁ထိုမိန်းမ၏	-12054
▁ထွန်းတောက်	-12055
▁နားတော်ကို	-12056
▁ပညာတရားကို	-12057
▁ပညာအတတ်ကို	-12058
▁ပေတရုနှင့်	-12059
▁ပေးကြလော့။	-12060
▁ပျောက်ပျက်	-12061
▁ပြန်သွား၏။	-12062
▁ပြာသောအထည်	-12063
▁ဖန်ဆင်းသော	-12064
▁ဖြစ်တော်မူ	-12065
▁ဗျာဒိတ်ထား	-12066
▁ဘေးဥပဒ်ကို	-12067
▁ဘွားမြင်၏။	-12068
▁မညှဉ်းဆဲရ။	-12069
▁မထွက်မသွား	-12070
▁မိုက်သောသူ	-12071
▁မီးကဲ့သို့	-12072
▁မောရှေသည်၊	-12073
▁မြက်ပင်ကို	-12074
▁ယဇ်ပူဇော်၍	-12075
▁ယုဒအမျိုး၊	-12076
▁ရန်သူလက်မှ	-12077
▁ရေလအမျိုး၏	-12078
▁ရေးထားလျက်	-12079
▁ရှိပါသည်ဟု	-12080
▁ရှံဆုန်သည်	-12081
▁လက်ခုပ်တီး	-12082
▁လိုက်လော့။	-12083
▁လျော်ရမည်။	-12084
▁သင်တို့ပြု	-12085
▁သစ္စာနှင့်	-12086
▁သတ်ပြီးမှ၊	-12087
▁သားကိုဘွား	-12088
▁သားတော်သည်	-12089
▁သာ၍မြတ်သော	-12090
▁သူတို့အမွေ	-12091
▁အစားအသောက်	-12092
▁အစိုးပိုင်	-12093
▁အနတ္တအမှု၊	-12094
▁အဘယ်အကျိုး	-12095
▁အဘိမလက်ကို	-12096
▁အရာများကို	-12097
▁အသင်းတော်၌	-12098
▁ဣသရေလတောင်	-12099
▁ဤသူတို့ကို	-12100
ကြပါစေနှင့်။	-12101
စပျစ်နွယ်ပင်	-12102
တည်လိမ့်မည်။	-12103
နှစ်စိုးစံ၏။	-12104
ဘော်ဆောင်ဘက်	-12105
များတို့သည်၊	-12106
ယုံကြည်ခြင်း	-12107
ရှိသည်နှင့်၊	-12108
သိမြင်လျှင်၊	-12109
သောသူဖြစ်စေ၊	-12110
သောအကျိုးကို	-12111
အကြီးတို့သည်	-12112
အများတို့ကို	-12113
အရပ်ရပ်တို့၌	-12114
အားဖြင့်၎င်း	-12115
▁ကမ္ဘာဦးမှစ၍	-12116
▁ကုလားကာတထည်	-12117
▁ကြားကြလော့။	-12118
▁ငါစီရင်မည်။	-12119
▁ငါမြော်လင့်	-12120
▁ငါ့ကိုမုန်း	-12121
▁စကားကိုပြော	-12122
▁ဆင်းရဲသောသူ	-12123
▁တယောက်နောက်	-12124
▁တောင်မြောက်	-12125
▁ထားနှင့်သတ်	-12126
▁ထိုဘုရားကို	-12127
▁ဒမာသက်မြို့	-12128
▁ဒုတိယအကြိမ်	-12129
▁နီမောင်းသော	-12130
▁နံ့သာမျိုး၊	-12131
▁နွားသငယ်ကို	-12132
▁ပညတ်တို့ကို	-12133
▁ဖိလိတ္တိတပ်	-12134
▁ဗိမာန်တော်၏	-12135
▁ဘုရားဝတ်ကို	-12136
▁မင်းတို့သည်	-12137
▁မထင်ရှားသော	-12138
▁မယုံကြည်သော	-12139
▁မသင်္ဂြိုဟ်	-12140
▁မိမိအိမ်ကို	-12141
▁မိုဃ်းရေကို	-12142
▁မျက်စိမမြင်	-12143
▁မျက်နှာလွှဲ	-12144
▁မွမ်းမံလေ၏။	-12145
▁မှန်စေတော့။	-12146
▁လူတယောက်ကို	-12147
▁လေဝိသားတို့	-12148
▁လျင်မြန်သော	-12149
▁သင်တို့လည်း	-12150
▁သတိပြုလော့။	-12151
▁သုံးချက်တီး	-12152
▁သူတည်းဟူသော	-12153
▁သူတို့ဘုရား	-12154
▁သောဒုံအိုင်	-12155
▁သွားသောအခါ၊	-12156
▁အကိုင်းအခက်	-12157
▁အစာအာဟာရကို	-12158
▁အမိန့်ရှိ၏။	-12159
▁အမွေခံရကြ၏။	-12160
▁အလိုရှိကြ၏။	-12161
▁အသစ်ပြုပြင်	-12162
▁အာဗြဟံနှင့်	-12163
▁အိမ်တော်သည်	-12164
▁ဧည့်သည်ဖြစ်	-12165
ကောင်ကို၎င်း၊	-12166
ချီးမွမ်းကြ၏။	-12167
ခြင်းကိုခံရ၏။	-12168
စီရင်ခြင်းကို	-12169
တကျိပ်နှစ်ပါး	-12170
တပါးအမျိုးသား	-12171
နေ့တိုင်အောင်	-12172
ဗိမာန်တော်ကို	-12173
မိသောကြောင့်၊	-12174
မြို့ရွာတို့၌	-12175
မြို့ရွာများ၊	-12176
လေသမျှတို့ကို	-12177
လေးထောင်တည်း။	-12178
လှိုင်းတံပိုး	-12179
သုံးဆယ်အချိန်	-12180
သောသူတို့အား၊	-12181
သောသူသည်လည်း၊	-12182
▁ကျိုင်းကောင်	-12183
▁ကျွန်တို့အား	-12184
▁ခြိမ်းချောက်	-12185
▁စားသောက်လျက်	-12186
▁ဆင့်ဆိုလော့။	-12187
▁ဆွေတော်မျိုး	-12188
▁တဆေးမဲ့မုန့်	-12189
▁တည်လိမ့်မည်။	-12190
▁တန်ခိုးနှင့်	-12191
▁တန်ဆာများကို	-12192
▁ထိုကျောက်ကို	-12193
▁ထိုတိရစ္ဆာန်	-12194
▁ဒန်အမျိုးသား	-12195
▁နားမထောင်ဘဲ၊	-12196
▁ပတ်လည်၌နေသော	-12197
▁ပတ်ဝန်းကျင်၌	-12198
▁ဖျက်ဆီးမည်ဟု	-12199
▁မနှောင့်ရှက်	-12200
▁မပြုကြနှင့်။	-12201
▁မုန့်ကိုမစား	-12202
▁မြို့တော်ကို	-12203
▁ယုဒအမျိုးသည်	-12204
▁ယောရှုကလည်း၊	-12205
▁ရောက်သဖြင့်၊	-12206
▁ရှိတော်မူသည်	-12207
▁ရှိလောမြို့၌	-12208
▁သင်တို့အတွက်	-12209
▁သင်၏ညီအစ်ကို	-12210
▁သတ္တဝါလေးပါး	-12211
▁သူငယ်တို့သည်	-12212
▁သူ့နောက်သို့	-12213
▁အကျွန်ုပ်ပြု	-12214
▁အမွေဥစ္စာကို	-12215
▁ဥစ္စာများကို	-12216
▁ဧလိရှဲကလည်း၊	-12217
ခြင်းအကြောင်း၊	-12218
တကောင်ကို၎င်း၊	-12219
တော်နှင့်၎င်း၊	-12220
နေဗုခဒ်နေဇာသည်	-12221
နှစ်ယောက်ရှိ၏။	-12222
ပြည်သားတို့ကို	-12223
ပြုကြလိမ့်မည်။	-12224
ပြုသောကြောင့်၊	-12225
ဖြစ်စေတော်မူ၏။	-12226
သောသူတယောက်မျှ	-12227
သောသူတို့အဘို့	-12228
သောအစေ့တို့သည်	-12229
အပေါင်းတို့ထက်	-12230
▁ကင်းမြီးကောက်	-12231
▁ကိုယ်အိမ်သို့	-12232
▁ကောင်းသောအမှု	-12233
▁ချီးမြှောက်၍၊	-12234
▁ဂုဏ်အသရေနှင့်	-12235
▁ငါချီးမြှောက်	-12236
▁စောင့်ရကြမည်။	-12237
▁ဆောင်သွားကြ၏။	-12238
▁တောင်းပန်ပါ၏။	-12239
▁ထားပြီးလျှင်၊	-12240
▁ထိုသို့ပြုသော	-12241
▁ထိုအရာများကို	-12242
▁ထောမနာသီချင်း	-12243
▁နေ့တိုင်းအစဉ်	-12244
▁နှလုံးခိုင်မာ	-12245
▁ပရောဖက်ဟေရှာယ	-12246
▁ပြစ်မှားမိသော	-12247
▁ပြည့်စုံလျက်၊	-12248
▁ပြန်လျှောက်၏။	-12249
▁ပြုတော်မူပါဟု	-12250
▁ဘုရားသခင်သည်၊	-12251
▁မိုဃ်းတိမ်ကို	-12252
▁မောရှေသည်လည်း	-12253
▁ယုံကြည်ခြင်း၌	-12254
▁ရှိရလိမ့်မည်။	-12255
▁ရှောင်ကြလော့။	-12256
▁လာကြလိမ့်မည်။	-12257
▁လူကိုစေလွှတ်၍	-12258
▁လူတို့ရှေ့မှာ	-12259
▁လျှို့ဝှက်သော	-12260
▁လွှတ်တော်မူ၏။	-12261
▁သိုးသငယ်ခုနစ်	-12262
▁သူတပါးတို့ကို	-12263
▁သူတို့အမှုကို	-12264
▁သောအရာတို့ကို	-12265
▁အထောင်အသောင်း	-12266
▁အဘယ်သို့သောသူ	-12267
▁အမျိုးသားတို့	-12268
▁အိပ်ရာပေါ်မှာ	-12269
???????????????	-12270
နိုင်ငံတော်သို့	-12271
ရာမုတ်မြို့သို့	-12272
သောသူဖြစ်သည်ကို	-12273
အလုံးစုံတို့သည်	-12274
အသီးအသီးတို့သည်	-12275
▁ကယ်တင်တော်မူ၏။	-12276
▁စုံဘက်ခြင်းကို	-12277
▁ဆင်ခြင်ကြလော့။	-12278
▁ဆီးတားခြင်းငှါ	-12279
▁နေရကြလိမ့်မည်။	-12280
▁နွားနှစ်ကောင်၊	-12281
▁လုပ်ကြံသဖြင့်၊	-12282
▁လုပ်ပြီးလျှင်၊	-12283
▁အပ်တော်မူမည်ဟု	-12284
▁အဘယ်သို့ဆိုလို	-12285
▁အသက်နှစ်ပေါင်း	-12286
တော်မူသည်နည်းတူ၊	-12287
သုံးယောက်တို့ကို	-12288
▁ကျိန်းဝပ်တော်မူ	-12289
▁ခံရကြလိမ့်မည်ဟု	-12290
▁ငါချစ်ရာသခင်သည်	-12291
▁စိတ်နှလုံးထဲမှာ	-12292
▁ဆန့်ကျင်ဘက်ပြု၍	-12293
▁ဆိတ်သငယ်တကောင်၊	-12294
▁ဆောင်ခဲ့သဖြင့်၊	-12295
▁တဖန်ထာဝရဘုရားက၊	-12296
▁ထာဝရဘုရားအမိန့်	-12297
▁ထိုသခင်နှင့်အတူ	-12298
▁ပိလတ်မင်းကလည်း၊	-12299
▁ဖာရောဘုရင်နှင့်	-12300
▁ဖြစ်သောကြောင့်၊	-12301
▁ဘုရားသခင်ကလည်း၊	-12302
▁မရဏာနိုင်ငံသို့	-12303
▁ယဇ်ပုရောဟိတ်အား	-12304
▁ယာကုပ်အမျိုးကို	-12305
▁ရုပ်တုဆင်းတုကို	-12306
▁ရှင်ဘုရင်အမိန့်	-12307
▁အကြောင်းကြောင့်	-12308
▁အမျက်တော်ထွက်၍၊	-12309
▁ဣသရေလအမျိုးသား၊	-12310
ဂ်	-12311
ဂျ	-12312
ဘု	-12313
ယု	-12314
ဲခ	-12315
ဇန်	-12316
တဲ၊	-12317
တွဲ	-12318
ထိ၍	-12319
နာ၍	-12320
နီ၊	-12321
ပဌမ	-12322
ပဏ္	-12323
ပရု	-12324
ဖာဇ	-12325
ဘယ်	-12326
မမိ	-12327
ယာဖ	-12328
ရုသ	-12329
လေဇ	-12330
လေ၊	-12331
လ္လ	-12332
ဝါသ	-12333
သိ၍	-12334
ဟင်	-12335
ဟိရ	-12336
ဟိ၊	-12337
အတာ	-12338
အနာ	-12339
ဧဖါ	-12340
ုဗလ	-12341
ေး၌	-12342
▁တလ	-12343
▁ပည	-12344
▁မဖ	-12345
▁မံ	-12346
▁အိ	-12347
▁ဥဇ	-12348
ကွေ့	-12349
ခုစီ	-12350
ခြေမ	-12351
ငွေ၊	-12352
ငှား	-12353
စာရီ	-12354
စုစု	-12355
စွတ်	-12356
ဆက်၍	-12357
တခု၌	-12358
တပ်၍	-12359
နကို	-12360
နဖူး	-12361
နေကြ	-12362
ပြ၍၊	-12363
ဖုတ်	-12364
ဗာနဗ	-12365
ဗေနာ	-12366
ဘက်က	-12367
မတင်	-12368
မနေ၊	-12369
မရပ်	-12370
ယဇ်၊	-12371
ယှက်	-12372
ရတနာ	-12373
ရွာ၌	-12374
လျား	-12375
ဝစွာ	-12376
သည်။	-12377
သိ၍၊	-12378
ဟိရံ	-12379
ဟူ၍၊	-12380
အပင်	-12381
ာဝေး	-12382
ေလဇ်	-12383
၌အပ်	-12384
▁ကုရ	-12385
▁ကူမ	-12386
▁ဂလာ	-12387
▁ဂေဒ	-12388
▁စုရ	-12389
▁ဆူဝ	-12390
▁တွေ	-12391
▁တွဲ	-12392
▁ဖာလ	-12393
▁ဖွဲ	-12394
▁ဗိဂ	-12395
▁ဗော	-12396
▁မထိ	-12397
▁မုရ	-12398
▁မူလ	-12399
▁မှ၊	-12400
▁ယာမ	-12401
▁ယား	-12402
▁ရား	-12403
▁လုဒ	-12404
▁သာလ	-12405
▁သို	-12406
▁ဟု၊	-12407
▁ဣသရ	-12408
▁ဥတု	-12409
ကာလ၌၊	-12410
ကျုံး	-12411
ကြားရ	-12412
ကွယ်၍	-12413
ချဉ်း	-12414
ချပစ်	-12415
ချေဟု	-12416
ငြူစူ	-12417
ငှက်၊	-12418
စကပင်	-12419
စာတန်	-12420
ဆာလံ။	-12421
တာကို	-12422
ထမ်း၍	-12423
ပေဂုရ	-12424
ပျဉ်း	-12425
ဖြေရာ	-12426
ဘူးဟု	-12427
မတင့်	-12428
မဖျက်	-12429
မလင့်	-12430
မှုန်	-12431
ရသောအ	-12432
ရာကာလ	-12433
ရိပ်၊	-12434
ရံကို	-12435
ရွာမှ	-12436
ရှင်၏	-12437
ရှာဇာ	-12438
ရှာ၍၊	-12439
လတံ့၊	-12440
လပို့	-12441
ဝေဖန်	-12442
သတို့	-12443
သမ္မာ	-12444
သားယေ	-12445
အာရဇ်	-12446
ာဟိတ်	-12447
▁ကျား	-12448
▁ကြံ့	-12449
▁ခစား	-12450
▁ခဏသာ	-12451
▁ခံ၍၊	-12452
▁ဂေရာ	-12453
▁ငါခံ	-12454
▁စာရဲ	-12455
▁ဆည်း	-12456
▁တရော	-12457
▁မည်း	-12458
▁မတင်	-12459
▁မပြေ	-12460
▁မဘတ်	-12461
▁မဝတ်	-12462
▁မအပ်	-12463
▁မာန်	-12464
▁ယုဒ၊	-12465
▁ရှေရ	-12466
▁လိပ်	-12467
▁လူနာ	-12468
▁သင်မ	-12469
▁သော၊	-12470
▁အငတ်	-12471
▁အင်္	-12472
▁အစစ်	-12473
▁အစွဲ	-12474
▁အရသာ	-12475
▁ဣမေရ	-12476
▁ဥမင်	-12477
ကိုကား	-12478
ကျိပ်၊	-12479
ကွာသော	-12480
ခမောက်	-12481
ခြိမ်း	-12482
စကားသံ	-12483
စမ်းရေ	-12484
ဆပ်ပေး	-12485
ဆိုသည်	-12486
တကြိမ်	-12487
ထောမနာ	-12488
ထဲတွင်	-12489
ဒ္ဒုန်	-12490
ပေအံ့။	-12491
ပေါက်၍	-12492
ဖန်ဖန်	-12493
ဘဲမနေ။	-12494
မတွေ့။	-12495
မသိကြ။	-12496
မီးဖို	-12497
မြည်သံ	-12498
မှထွက်	-12499
ယူသွား	-12500
ရတတ်၏။	-12501
ရပြီဟု	-12502
ရဲရင့်	-12503
ရှစ်ရာ	-12504
ရှာဖန်	-12505
လာမည်။	-12506
လူဆိုး	-12507
လေဇန္ဒ	-12508
လှပါ၏။	-12509
လှပြီ။	-12510
သစ်သည်	-12511
သတ်သော	-12512
ဟောသော	-12513
အိပ်ရာ	-12514
ဧဖရိမ်	-12515
ဧလိရှဲ	-12516
ို့တဲ့	-12517
၏ဟူသော	-12518
▁ကုပရု	-12519
▁ခိုက်	-12520
▁ခွဲဝေ	-12521
▁စစ်ကူ	-12522
▁ဆုတ်၍	-12523
▁ဇောရာ	-12524
▁ညှင်း	-12525
▁တက်၍၊	-12526
▁တပြား	-12527
▁တိမ်း	-12528
▁ထုသော	-12529
▁ဒေဒန်	-12530
▁ပါရန်	-12531
▁ပြီဟု	-12532
▁ပြုဘိ	-12533
▁ပြုမူ	-12534
▁ဖာရက်	-12535
▁ဖြည့်	-12536
▁ဗိလဟာ	-12537
▁ဗေသော	-12538
▁မချစ်	-12539
▁မင်း၏	-12540
▁မဆင်း	-12541
▁မဖုံး	-12542
▁မဘွား	-12543
▁မယား၊	-12544
▁မသိဘဲ	-12545
▁မသုရှ	-12546
▁မသုံး	-12547
▁မေရှိ	-12548
▁မြွတ်	-12549
▁ယာဟတ်	-12550
▁ယုတ္တ	-12551
▁ယူတင်	-12552
▁ယောဇဗ	-12553
▁ရာခပ်	-12554
▁ရှေမ၊	-12555
▁လူအို	-12556
▁လေးရာ	-12557
▁လွတ်၍	-12558
▁ဝေမျှ	-12559
▁သိရကြ	-12560
▁သုံးလ	-12561
▁သူကား	-12562
▁အကာရှ	-12563
▁အကျန်	-12564
▁အမိဟု	-12565
▁အရပ်၊	-12566
▁အရောန	-12567
▁အာဖက်	-12568
▁အာရှတ	-12569
▁အားယူ	-12570
▁အိပ်၍	-12571
▁ဦးရစ်	-12572
ကိုမြင်	-12573
ကြားသော	-12574
စဉ်ဘဆက်	-12575
စေသတည်း	-12576
တပင်မျှ	-12577
တမန်ကို	-12578
နှစ်ထပ်	-12579
ပေးကမ်း	-12580
ဖြစ်ရ၏။	-12581
ဘို့ရာ၊	-12582
မရှိဘဲ၊	-12583
ယောဟနန်	-12584
ယွာဘသည်	-12585
ရမည်ဟု၊	-12586
ရာရောက်	-12587
ရောင်း၍	-12588
လက်တွင်	-12589
လိုချင်	-12590
လေ့ကျက်	-12591
သင့်သော	-12592
သားမယား	-12593
သောအသက်	-12594
သောအသံ၊	-12595
အထဲသို့	-12596
အဗရှလုံ	-12597
ဧည့်သည်	-12598
္ဌမနေ့၌	-12599
▁ကိုမျှ	-12600
▁ကြည့်၍	-12601
▁ခြေသည်	-12602
▁ဂေဟာဇိ	-12603
▁ငါ့ခြေ	-12604
▁ငါ၌အပ်	-12605
▁စာတန်၏	-12606
▁စုရုံး	-12607
▁စုံမက်	-12608
▁ဆယ်ရက်	-12609
▁ဇက္ကုရ	-12610
▁တကြိမ်	-12611
▁တတောင်	-12612
▁ထိုအနာ	-12613
▁ထုတ်၍၊	-12614
▁နားကို	-12615
▁နေရာမှ	-12616
▁ပေတရု၊	-12617
▁ပြင်၏။	-12618
▁ပြာသော	-12619
▁ပြုဘူး	-12620
▁ပြော၏။	-12621
▁ဘို့ရာ	-12622
▁ဘူးသီး	-12623
▁မက္ကဒါ	-12624
▁မဆုံးမ	-12625
▁မည်သည်	-12626
▁မတိုက်	-12627
▁မထောင်	-12628
▁မမြွက်	-12629
▁မရှုတ်	-12630
▁မျှော်	-12631
▁ယေဇဗေလ	-12632
▁ရေဇိန်	-12633
▁ရှုနင်	-12634
▁လုယူရာ	-12635
▁လူလွတ်	-12636
▁လေဝိလူ	-12637
▁လျှော့	-12638
▁လွန်ကဲ	-12639
▁လှူသော	-12640
▁လှံကို	-12641
▁သင်ကို	-12642
▁သင်မသိ	-12643
▁သူပြော	-12644
▁သေပြစ်	-12645
▁သောအရာ	-12646
▁သံချပ်	-12647
▁သွားရာ	-12648
▁ဟာမော်	-12649
▁ဟာရိမ်	-12650
▁ဟူသော၊	-12651
▁အနာဂတ်	-12652
▁အန္ဒြေ	-12653
▁အမိကို	-12654
▁အမြှေး	-12655
▁အရှေ့၊	-12656
▁အသံသည်	-12657
▁အာမရိ၊	-12658
▁အားပေး	-12659
▁ဧဇယုန်	-12660
▁ဧဖရုန်	-12661
ကုန်အစင်	-12662
ကြစို့ဟု	-12663
ကြနှင့်၊	-12664
ချို့တဲ့	-12665
စရာမရှိ။	-12666
စိုက်သော	-12667
တရားစရပ်	-12668
ထဲကထွက်၍	-12669
နာစွဲသော	-12670
နွားသငယ်	-12671
ပညတ်တော်	-12672
ပြန်လာ၍၊	-12673
ဖျားလှီး	-12674
ဖြစ်စေ၍၊	-12675
ဘကျိုင်း	-12676
မပြောင်း	-12677
မြို့ဝန်	-12678
မွေးဘွား	-12679
မှန်းကို	-12680
ရပါသည်ဟု	-12681
ရှေ့မှာ၊	-12682
လာသတည်း။	-12683
လျော်စွာ	-12684
သင်တို့၌	-12685
သင်နှင့်	-12686
သွားပြီ။	-12687
ိမ့်မည်။	-12688
▁ကာလအစဉ်	-12689
▁ကိုယ်စီ	-12690
▁ကျောင်း	-12691
▁ချစ်သော	-12692
▁ချလိုက်	-12693
▁ချိုဆယ်	-12694
▁ချိုသော	-12695
▁ငါသောက်	-12696
▁ငါ့အသက်	-12697
▁စားချင်	-12698
▁စားရသော	-12699
▁စိတ်ထဲ၌	-12700
▁ဆီမွှေး	-12701
▁တခါမျှမ	-12702
▁တဆူတည်း	-12703
▁တညီတည်း	-12704
▁တနေ့ထက်	-12705
▁တယောက်တ	-12706
▁တောင်း၍	-12707
▁ထိုဥပမာ	-12708
▁ထူးခြား	-12709
▁နေမည်ဟု	-12710
▁နောက်ကျ	-12711
▁ပါဒနာရံ	-12712
▁ပေါလုက၊	-12713
▁ပဲ့ပြင်	-12714
▁ပြုပြီ။	-12715
▁ပြုရသော	-12716
▁ပြုသင့်	-12717
▁ပွဲလုပ်	-12718
▁မခံရကြ။	-12719
▁မစားရဟု	-12720
▁မဆိုင်း	-12721
▁မတွေ့ရ။	-12722
▁မမြင်ရ။	-12723
▁မရောင်း	-12724
▁မိမိအဘ၏	-12725
▁မီးမွေး	-12726
▁မေးတော်	-12727
▁မြေကွက်	-12728
▁မြေးဆက်	-12729
▁မှန်ကန်	-12730
▁ယုဒဘာသာ	-12731
▁ယူခဲ့၍၊	-12732
▁ယေရောဟံ	-12733
▁ရောက်ကြ	-12734
▁ရောင်း၍	-12735
▁ရှာကြ၏။	-12736
▁ရှိခိုး	-12737
▁ရှောက်၍	-12738
▁လက်စွပ်	-12739
▁လယ်ထွန်	-12740
▁လူအများ	-12741
▁လျှော်၍	-12742
▁ဝင်ကြ၏။	-12743
▁ဝတ်မပြု	-12744
▁ဝတ်လျက်	-12745
▁သင်မှစ၍	-12746
▁သင်သွား	-12747
▁သိုးငါး	-12748
▁ဟင်းသီး	-12749
▁ဟာရှဘိ၊	-12750
▁အခြံအရံ	-12751
▁အင်္ဂတေ	-12752
▁အထံတော်	-12753
▁အဘိယသည်	-12754
▁အရပ်ဌာန	-12755
▁အသက်ပင်	-12756
▁အသက်သည်	-12757
▁အဟောလိဗ	-12758
▁အဦးဆုံး	-12759
▁အာရုန်၊	-12760
▁အာရှကေလ	-12761
▁ဤလူတို့	-12762
▁ဤသူတို့	-12763
ကြလော့ဟု၊	-12764
ကြောက်မက်	-12765
ခိုးအငွေ့	-12766
ငါတို့ကို	-12767
င်္နေသရက်	-12768
ငှက်နှင့်	-12769
စေ့သောအခါ	-12770
စွန့်ပစ်၍	-12771
ဆောင်လျက်	-12772
တတောင်ထွာ	-12773
တတ်သောသူ၏	-12774
တိုက်မြစ်	-12775
တောင်ထိပ်	-12776
တံခါးဝမှာ	-12777
ထံသို့လာ၍	-12778
နေစရာဘို့	-12779
နှစ်တောင်	-12780
ပြီတကားဟု	-12781
ပြုကြပြီ။	-12782
ပြုတတ်သော	-12783
ဘုန်းကြီး	-12784
မပြည့်စုံ	-12785
မေတ္တာသည်	-12786
မြေမှုန့်	-12787
ရပ်နေကြ၏။	-12788
ရှိသောအခါ	-12789
လာပါသည်ဟု	-12790
လူများကို	-12791
သမီးနှင့်	-12792
သားဖြစ်၏။	-12793
သိအကျွမ်း	-12794
သူပြည်သား	-12795
သေးသနည်း။	-12796
အာဗြဟံသည်	-12797
▁ကရုဏာကို	-12798
▁ကိုင်ဆွဲ	-12799
▁ကော်နေလိ	-12800
▁ကြနှင့်။	-12801
▁ကြာပွင့်	-12802
▁ခိုက်ရန်	-12803
▁ခုနစ်ပါး	-12804
▁ချိုင့်၌	-12805
▁ချို့တဲ့	-12806
▁ချေးငှါး	-12807
▁ငါကြောက်	-12808
▁ငါကြံစည်	-12809
▁ငါဘော်ပြ	-12810
▁ငါအပိုင်	-12811
▁ငါ့နောက်	-12812
▁ငါးယောက်	-12813
▁ငှါ၎င်း၊	-12814
▁စစ်ချီ၍၊	-12815
▁ဆင်းသက်၍	-12816
▁ဆိတ်မွေး	-12817
▁တံခါးခုံ	-12818
▁တွင်းကို	-12819
▁ထိုက်တန်	-12820
▁ထိုမုန့်	-12821
▁ထိုသခင်၏	-12822
▁ထောက်ရှု	-12823
▁ထောင်ထဲ၌	-12824
▁ဒူးထောက်	-12825
▁နေရာသို့	-12826
▁နေလျှင်၊	-12827
▁နောက်မှာ	-12828
▁နံဝိညာဉ်	-12829
▁နှုတ်ပယ်	-12830
▁ပစ်လိုက်	-12831
▁ပတ္တမြား	-12832
▁ပေးလော့။	-12833
▁ပြန်ပို့	-12834
▁ပြောရသော	-12835
▁ဖြေရှင်း	-12836
▁ဘမ်းသွား	-12837
▁မကိုးစား	-12838
▁မကျန်ရစ်	-12839
▁မချဉ်းရ။	-12840
▁မင်းများ	-12841
▁မသိမမှတ်	-12842
▁မုန့်ငါး	-12843
▁မုယောဆန်	-12844
▁မှာထား၏။	-12845
▁မှီအောင်	-12846
▁ယခုမူကား	-12847
▁ယေဖုန္နာ	-12848
▁ယောနသန်၊	-12849
▁ယောရှသည်	-12850
▁ရေဘူးကို	-12851
▁ရေမလိသား	-12852
▁ရှိသည်ဟု	-12853
▁ရှိသောသူ	-12854
▁ရှိသေး၏။	-12855
▁လက်ျာနား	-12856
▁လင်ပန်း၊	-12857
▁လည်ဆွဲချ	-12858
▁လူတမျိုး	-12859
▁လူတဦးသည်	-12860
▁လျက်နေ၏။	-12861
▁လွယ်အိတ်	-12862
▁ဝပြောသော	-12863
▁သင်မူကား	-12864
▁သင်သွား၍	-12865
▁သည်တကား။	-12866
▁သားတော်၏	-12867
▁သူခံရသော	-12868
▁သွင်းထား	-12869
▁ဟင်းလင်း	-12870
▁ဟောပြော၍	-12871
▁အစရှိသည်	-12872
▁အနှစ်တရာ	-12873
▁အလွန်တရာ	-12874
▁အသက်ကိုမ	-12875
▁အသက်မွေး	-12876
▁အသွေးသည်	-12877
▁အားကြီး၍	-12878
▁ဣသရေလတပ်	-12879
ကျော့ကွင်း	-12880
ကွဲပြားသော	-12881
ချမ်းသာကို	-12882
ခြင်းငှါသာ	-12883
ဆရာတို့သည်	-12884
တပိုင်းကို	-12885
တော်မမူမှီ	-12886
နေခြင်းငှါ	-12887
နေတော်မူ၏။	-12888
နှုတ်ဖြင့်	-12889
ပြောင်းလဲ၍	-12890
ပွဲခံချိန်	-12891
ဖြစ်ကြပါ၏။	-12892
ဖြစ်ဘူးသော	-12893
မရှိနှင့်။	-12894
မိဖုရားသည်	-12895
မျက်စိမြင်	-12896
မြို့တိုင်	-12897
ရေတွင်းကို	-12898
လွန်ပြီးမှ	-12899
သို့သွား၍၊	-12900
သုံးဆယ်ကို	-12901
သောအခွင့်၊	-12902
အမှုစောင့်	-12903
အလျင်အမြန်	-12904
အုပ်အချုပ်	-12905
▁ကျိန်းစက်	-12906
▁ကြည့်မှတ်	-12907
▁ကြီးပွား၍	-12908
▁ခန့်ထားရာ	-12909
▁ခေါင်းပါး	-12910
▁ခေါ်သွင်း	-12911
▁ခံရသောအခါ	-12912
▁ချိုးဖျက်	-12913
▁ချီလွှဲရာ	-12914
▁ငါကဲ့သို့	-12915
▁ငါ့နှလုံး	-12916
▁စာရေးတံချ	-12917
▁ဇေဘဟနှင့်	-12918
▁တရားနှင့်	-12919
▁တဟုန်တည်း	-12920
▁တာရှည်စွာ	-12921
▁တောင်ဘက်၌	-12922
▁ထည့်ရမည်။	-12923
▁ထမြောက်စေ	-12924
▁ထိုဆင်းရဲ	-12925
▁ထုလုပ်သော	-12926
▁နွားခုနစ်	-12927
▁ပင်လယ်သည်	-12928
▁ပညတ်တရား၏	-12929
▁ပျားလပို့	-12930
▁ပြင်ဆင်၍၊	-12931
▁ပြစ်မှား၍	-12932
▁ပြည်စွန်း	-12933
▁ပြန်ရောက်	-12934
▁ဖေါက်ပြန်	-12935
▁ဖြစ်စေသော	-12936
▁ဖြစ်လိမ့်	-12937
▁ဖွင့်လှစ်	-12938
▁ဗိုလ်လုပ်	-12939
▁မင်းကြီး၊	-12940
▁မင်းများ၊	-12941
▁မတွေ့ရကြ။	-12942
▁မိမိအိမ်၌	-12943
▁မြင်ရကြ၏။	-12944
▁မြဲမြံသော	-12945
▁ယေရှဲ၏သား	-12946
▁ရှိကြပါ၏။	-12947
▁လမ်း၌သွား	-12948
▁လူသားတို့	-12949
▁လူအသီးသီး	-12950
▁သင့်ရောက်	-12951
▁သင့်အိမ်၌	-12952
▁သေစားသေစေ	-12953
▁သောက်ဘို့	-12954
▁သောအရာကို	-12955
▁သွင်းကြ၏။	-12956
▁သွားရမည်။	-12957
▁ဟေရှာယသည်	-12958
▁ဟောင်းသော	-12959
▁အကျိုးမဲ့	-12960
▁အခြားသောအ	-12961
▁အရှက်ကွဲ၍	-12962
▁အလိုမရှိ။	-12963
▁အလွန်အလို	-12964
▁အသက်မရှင်	-12965
▁အဟိသောဖေလ	-12966
▁ဤမြို့သည်	-12967
▁ဥာဏ်နှင့်	-12968
▁ဥာဏ်သတ္တိ	-12969
ခြင်းကိုမခံ	-12970
ခြင်းအရာကို	-12971
ခြောက်ထောင်	-12972
ငြိမ်ဝပ်စွာ	-12973
တည်ဆောက်သော	-12974
တယောက်နှင့်	-12975
တရားအတိုင်း	-12976
တို့အားလည်း	-12977
နိုင်အောင်၊	-12978
နှစ်ခုနှင့်	-12979
ပညတ်တို့ကို	-12980
ပြင်းစွာသော	-12981
ဖျက်ဆီးကြ၏။	-12982
ဗျာဒိတ်တော်	-12983
များကဲ့သို့	-12984
မြွက်ဆိုသော	-12985
ရပါအံ့နည်း။	-12986
ရှိသည်နှင့်	-12987
လေပြီတကားဟု	-12988
လေသမျှတို့၌	-12989
ဦးခေါင်းကို	-12990
▁ကယ်တင်တော်	-12991
▁ကိုယ်အိမ်၌	-12992
▁ကောင်းကင်၊	-12993
▁ကဲသာဘုရင်၏	-12994
▁ခဲနှင့်ပစ်	-12995
▁ခံရသောအခါ၊	-12996
▁ခြေနင်းကို	-12997
▁ငါဆုတောင်း	-12998
▁ငါသက်ရောက်	-12999
▁ငါ့မျက်နှာ	-13000
▁ငါ့အမှုကို	-13001
▁စာရေးတံချ၍	-13002
▁စားကြလော့။	-13003
▁ဆုတောင်း၍၊	-13004
▁ဆူဖြိုးသော	-13005
▁ဆောင်ခဲ့ကြ	-13006
▁ဆောင်သွား၍	-13007
▁ညဦးအချိန်၌	-13008
▁တပ်မှူးသည်	-13009
▁တရာနှစ်ဆယ်	-13010
▁တရားပလ္လင်	-13011
▁တိရစ္ဆာန်၊	-13012
▁တိုင်ပင်၍၊	-13013
▁တံခါးတိုင်	-13014
▁ထိုကာလတွင်	-13015
▁ထိုစာစောင်	-13016
▁ထိုမင်းကို	-13017
▁ဒါဝိဒ်၏သား	-13018
▁နူနာဖြစ်၏။	-13019
▁နေ့ရက်အစဉ်	-13020
▁နှုတ်မြွက်	-13021
▁နှုတ်သတ္တိ	-13022
▁ပယ်ရှင်း၍၊	-13023
▁ပုန်ကန်သော	-13024
▁ပေးလိုက်၏။	-13025
▁ပြုပါမည်ဟု	-13026
▁ဘုရားနှင့်	-13027
▁ဘွဲ့နာမရှိ	-13028
▁မချုပ်တည်း	-13029
▁မင်းသားသည်	-13030
▁မမေ့မလျော့	-13031
▁မာနကြီးသော	-13032
▁မာရ်နတ်သည်	-13033
▁မိန်းမလျှာ	-13034
▁မိမိသားကို	-13035
▁မေတ္တာပို့	-13036
▁မေလခိဇေဒက်	-13037
▁မှတ်သားသည်	-13038
▁ယဇ်တို့ကို	-13039
▁ယုဒလူတို့၏	-13040
▁ရက်ကန်းသား	-13041
▁ရန်ဘက်ပြု၍	-13042
▁ရန်သူတို့၏	-13043
▁ရောက်လျှင်	-13044
▁ရှင်ဘုရင်၊	-13045
▁ရှာကြံကြ၏။	-13046
▁ရှိသမျှသည်	-13047
▁လူဆိတ်ညံရာ	-13048
▁လူလက်ဖြင့်	-13049
▁သက်သာခြင်း	-13050
▁သင့်ဆီသို့	-13051
▁သားဘွားသော	-13052
▁သူနှင့်သူ၏	-13053
▁သူဖြစ်ကြ၏။	-13054
▁အဘိုးထိုက်	-13055
▁အရှေ့တံခါး	-13056
▁အလောင်းကို	-13057
▁ဥာဏ်ပညာကို	-13058
ကိုယ်တော်ကို	-13059
ကြောင်းနှင့်	-13060
ခမည်းတော်သည်	-13061
စိမ့်သောငှါ၊	-13062
ဆိုလိုသတည်း။	-13063
တရှောက်လုံး၊	-13064
နိုင်ငံတော်၌	-13065
နှင့်ပြည့်၏။	-13066
နှစ်ယောက်သည်	-13067
မျိုးတို့ကို	-13068
ရပါမည်နည်းဟု	-13069
ရသောအကြောင်း	-13070
လုလင်တို့သည်	-13071
လျှောက်သော်၊	-13072
သောအမှုနှင့်	-13073
အပေါင်းနှင့်	-13074
အပေါင်းအသင်း	-13075
▁ကာလအစဉ်အမြဲ	-13076
▁ကိုယ်အကျိုး	-13077
▁ကျွန်ခံနေရာ	-13078
▁ငါစေလွှတ်၏။	-13079
▁ငါသန့်ရှင်း	-13080
▁ငါ့အပေါ်မှာ	-13081
▁ငါ့အားဖြင့်	-13082
▁စိတ်တော်ရှိ	-13083
▁စေလွှတ်ကြ၏။	-13084
▁စောင့်လျက်၊	-13085
▁စွန့်ပစ်သော	-13086
▁ဆိတ်သငယ်ကို	-13087
▁ဆောင်ရွက်၍၊	-13088
▁တိုက်ထောင့်	-13089
▁တဲတော်တန်ဆာ	-13090
▁တွေ့သမျှသော	-13091
▁ထိုမင်းကြီး	-13092
▁ဒါဝိဒ်မြို့	-13093
▁ဒုစရိုက်သည်	-13094
▁နွားတို့ကို	-13095
▁နှိုးဆော်၍၊	-13096
▁ပိလတ်မင်းက၊	-13097
▁ပေါလုကလည်း၊	-13098
▁ပြက်ယယ်ပြု၍	-13099
▁ပြတော်မူပါ။	-13100
▁ဘိသိက်ခံသော	-13101
▁ဘေးအန္တရာယ်	-13102
▁မင်းဖြစ်သော	-13103
▁မိမိသားသမီး	-13104
▁မေတ္တာကရုဏာ	-13105
▁မျက်နှာထား၍	-13106
▁ယဇ်ပုရာဟိတ်	-13107
▁ယုဒလူတို့က၊	-13108
▁ယွာဘသည်လည်း	-13109
▁ရောဗောင်သည်	-13110
▁ရှိသကဲ့သို့	-13111
▁လက်ကိုဆန့်၍	-13112
▁သင်တို့မြင်	-13113
▁သတ်သောအပြစ်	-13114
▁သုစရိုက်ကို	-13115
▁သူ၏အပြစ်ကို	-13116
▁သေမင်းအရိပ်	-13117
▁သေလိမ့်မည်။	-13118
▁အကောင်းဆုံး	-13119
▁အချိန်တန်မှ	-13120
▁အရင်ကဲ့သို့	-13121
▁အသုံးအဆောင်	-13122
▁အာရဇ်သစ်သား	-13123
▁အာဟပ်အမျိုး	-13124
▁ဣသရေလခရိုင်	-13125
ကြသည်ရှိသော်၊	-13126
ခြင်းငှာ၎င်း၊	-13127
စေသောကြောင့်၊	-13128
ပျားရည်စီးသော	-13129
ပြုသောအမှုကို	-13130
မိန်းမောတွေဝေ	-13131
လာကြလိမ့်မည်။	-13132
သနည်းဟူ၍၎င်း၊	-13133
သွားလိမ့်မည်။	-13134
ဟာယယဇ်တို့ကို	-13135
▁ကိုယ်တော်ထံ၌	-13136
▁ကျမ်းပြုဆရာ၊	-13137
▁ကြလိမ့်မည်ဟု	-13138
▁ကြွင်းလေသမျှ	-13139
▁ကြွင်းသေးသော	-13140
▁ခေါ်တော်မူ၍၊	-13141
▁ချစ်သားတို့၊	-13142
▁ချီးမြှောက်၍	-13143
▁ငါသည်သင်တို့	-13144
▁စပျစ်ဥယျာဉ်၊	-13145
▁စိတ်ညှိုးငယ်	-13146
▁ဆုံးမသွန်သင်	-13147
▁ဇိအုန်မြို့၌	-13148
▁တပ်သားပေါင်း	-13149
▁တမန်တော်တို့	-13150
▁တိုက်သဖြင့်၊	-13151
▁တောင်ခြေရင်း	-13152
▁ထိုဘုရားသခင်	-13153
▁ထိုသူသည်လည်း	-13154
▁ထိုအရပ်တို့၌	-13155
▁ဒါဝိဒ်ထံသို့	-13156
▁နေရလိမ့်မည်။	-13157
▁ပခုံးပေါ်မှာ	-13158
▁ပယ်ရှင်းမည်။	-13159
▁ပျက်စီးခြင်း	-13160
▁ပြည့်စုံကြ၏။	-13161
▁ပြန်သွားလေ၏။	-13162
▁ဗျာဒိတ်တော်အ	-13163
▁ဘုရားတို့သည်	-13164
▁မချဉ်းမကပ်ရ။	-13165
▁မိမိနေရာသို့	-13166
▁မိမိလက်နှင့်	-13167
▁မောဘလွင်ပြင်	-13168
▁မြင့်မြတ်သော	-13169
▁မြည်းတို့ကို	-13170
▁မြော်လင့်သော	-13171
▁မှားယွင်းသော	-13172
▁ရေလရှင်ဘုရင်	-13173
▁လောဘလွန်ကျူး	-13174
▁သူတို့နှလုံး	-13175
▁သူတို့အပေါ်၌	-13176
▁သူမည်သည်ကား၊	-13177
▁သောသူတို့ကို	-13178
▁အကျန်အကြွင်း	-13179
▁အချို့ကလည်း၊	-13180
▁အပြစ်တရားသည်	-13181
▁အပြစ်မှလွှတ်	-13182
▁အမျိုးအလိုက်	-13183
▁အသက်ရှည်သမျှ	-13184
▁အာရဇ်သစ်သား၊	-13185
▁ဣသရေလပြည်ကို	-13186
▁ဤအိမ်တော်ကို	-13187
ကြသည်နှင့်အညီ၊	-13188
ခြင်းသို့၎င်း၊	-13189
ခြင်းအမှုနှင့်	-13190
တော်မူစဉ်တွင်၊	-13191
တော်မူမည်နည်း။	-13192
ပါမည်အကြောင်း၊	-13193
ပြောသောစကားကို	-13194
ဘိုးဘေးတို့သည်	-13195
မရှိစေခြင်းငှါ	-13196
မရှိသောကြောင့်	-13197
မိန့်တော်မူသော	-13198
မျက်နှာပေါ်မှာ	-13199
ရှိကြလိမ့်မည်။	-13200
သောမိန်းမနှင့်	-13201
သောသူတယောက်ကို	-13202
သောအရာဟူမူကား၊	-13203
သွားပြီးလျှင်၊	-13204
အမျိုးသားတို့၏	-13205
▁ခေရုဗိမ်အရုပ်	-13206
▁ငါကျိန်ဆိုသော	-13207
▁ငါစေလွှတ်မည်။	-13208
▁ငါတို့ရှေ့မှာ	-13209
▁ငါ့ခမည်းတော်၏	-13210
▁စားရသောအခွင့်	-13211
▁စိတ်နှလုံးထဲ၌	-13212
▁စိတ်ဝိညာဉ်ကို	-13213
▁ဇေရုဗဗေလနှင့်	-13214
▁ညှဉ်းဆဲခြင်း၊	-13215
▁တင်ပြီးလျှင်၊	-13216
▁တဲတော်တံခါးဝ၌	-13217
▁ထိုအရာတို့သည်	-13218
▁နန်းထိုင်လေ၏။	-13219
▁ပတ်လည်၌ရှိသော	-13220
▁ပရိသတ်တို့အား	-13221
▁ပြင်တန်တိုင်း	-13222
▁ပြုတော်မူပြီ။	-13223
▁ဘာသာစကားဖြင့်	-13224
▁မိစ္ဆာပရောဖက်	-13225
▁မိဘမရှိသောသူ၊	-13226
▁မိမိမယားနှင့်	-13227
▁မျောက်မထားသော	-13228
▁မြင်းစီးသူရဲ၊	-13229
▁မြစ်အနောက်ဘက်	-13230
▁ယဇ်ပူဇော်ကြ၏။	-13231
▁ရောက်ပါစေသော။	-13232
▁ရောက်လာလျှင်၊	-13233
▁လဲစရာအကြောင်း	-13234
▁လွန်ကျူးခြင်း	-13235
▁ဝမ်းနည်းခြင်း	-13236
▁သင်တို့ရှေ့မှ	-13237
▁သည်တိုင်အောင်	-13238
▁သေရည်သေရက်ကို	-13239
▁ဟေရှဘုန်မြို့	-13240
▁အချည်းစည်းရှိ	-13241
▁အစ်ကိုတို့သည်	-13242
▁အပြစ်ကြောင့်၊	-13243
▁အမှုဆောင်ရွက်	-13244
▁အလိုလိုပြုသော	-13245
▁အသံကိုလွှင့်၍	-13246
▁အိုငါ့ဝိညာဉ်၊	-13247
▁အောက်မေ့လျက်၊	-13248
ချစ်ခြင်းမေတ္တာ	-13249
ခြင်းမရှိနှင့်။	-13250
ပြုမူသောအမှုအရာ	-13251
ယေရုရှလင်မြို့၊	-13252
ရှိသမျှတို့သည်၊	-13253
သည်အကြောင်းကား၊	-13254
သောအပြစ်ကြောင့်	-13255
▁ကရုဏာတော်နှင့်	-13256
▁ကိုယ်အကျိုးကို	-13257
▁ကြွေးကြော်လေ၏။	-13258
▁ခါလဒဲလူတို့သည်	-13259
▁ခေါင်းပေါ်သို့	-13260
▁ချိုဆယ်ချောင်း	-13261
▁ချီးမွမ်းကြစေ။	-13262
▁စစ်တိုက်ရာတွင်	-13263
▁ဆိုကြလိမ့်မည်။	-13264
▁တာရှုမြို့သို့	-13265
▁တိရစ္ဆာန်နှင့်	-13266
▁တိရစ္ဆာန်များ၊	-13267
▁တုရုမြို့နှင့်	-13268
▁ထာဝရဘုရားစီရင်	-13269
▁ထိုသူတို့နှင့်	-13270
▁ဒဏ်ခတ်တော်မူ၏။	-13271
▁ဒါဝိဒ်၏သားတော်	-13272
▁ဒိုင်းလွှားကို	-13273
▁နေသောသူတို့ကို	-13274
▁နှစ်သက်ဘွယ်သော	-13275
▁ဗျာဒိတ်တော်ရှိ	-13276
▁ဘုန်းတော်နှင့်	-13277
▁ဘုရားသခင်စီရင်	-13278
▁မကောင်းသောအကြံ	-13279
▁မင်္ဂလာစကားကို	-13280
▁မထီမဲ့မြင်ပြု၍	-13281
▁မိမိမျက်နှာကို	-13282
▁မောရှေသည်လည်း၊	-13283
▁မြို့ထဲသို့ဝင်	-13284
▁မြေကြီးစွန်းမှ	-13285
▁မြေအသီးအနှံကို	-13286
▁မြဲမြံခိုင်ခံ့	-13287
▁ရောက်ကြသောအခါ၊	-13288
▁ရှိသည်အတိုင်း၊	-13289
▁ရှုရိလူတို့ကို	-13290
▁သင့်ကိုယ်တိုင်	-13291
▁သားမြေးတို့သည်	-13292
▁သို့မဟုတ်လျှင်	-13293
▁သူတို့ဥစ္စာကို	-13294
▁အစဉ်အမြဲပြုသော	-13295
▁အပြစ်ဖြေရာယဇ်၊	-13296
▁အမျိုးသားတို့၏	-13297
▁အရှင်ဘုရားသခင်	-13298
▁အော်ဟစ်သောအခါ၊	-13299
ရက်မြောက်သောနေ့၌	-13300
ရမည်နည်းဟူမူကား၊	-13301
ရှင်ဘုရင်တို့သည်	-13302
သူအိမ်သားတို့ကို	-13303
သောသူတို့သည်လည်း	-13304
အဆွေအမျိုးသူကြီး	-13305
အဆွေအမျိုးအလိုက်	-13306
အမျိုးသားတို့အား	-13307
▁ကြိမ်ဖန်များစွာ	-13308
▁ကြိုဆိုခြင်းငှါ	-13309
▁ခံရမည်အကြောင်း၊	-13310
▁ငါစီရင်ထုံးဖွဲ့	-13311
▁ငါမှာထားသမျှသော	-13312
▁စားရကြလိမ့်မည်။	-13313
▁စိတ်မပျက်နှင့်။	-13314
▁ဆိတ်ကွယ်ရာအရပ်၌	-13315
▁ဆုတောင်းကြလော့။	-13316
▁ညှဉ်းဆဲနှိပ်စက်	-13317
▁တန်ခိုးအာနုဘော်	-13318
[...]
