<pad>	0
</s>	0
<unk>	0
▁the	-3.25886
.	-3.3902
,	-3.47386
s	-3.53933
▁of	-3.64817
▁and	-3.92141
▁to	-4.06624
▁in	-4.26998
▁a	-4.36055
▁is	-4.6042
▁for	-5.00027
▁	-5.02927
▁-	-5.10389
▁that	-5.12591
ed	-5.16389
ing	-5.21545
▁you	-5.26395
▁be	-5.27732
▁The	-5.33423
▁(	-5.37687
▁not	-5.44559
d	-5.4849
▁are	-5.51447
▁with	-5.51677
▁on	-5.52125
▁it	-5.54469
)	-5.54589
▁or	-5.55285
▁'	-5.6296
▁by	-5.65209
▁as	-5.6789
▁have	-5.72183
:	-5.72866
▁was	-5.73202
▁from	-5.74045
▁will	-5.7536
▁they	-5.75827
▁them	-5.84901
▁this	-5.86167
▁I	-5.86263
ly	-5.88676
▁has	-5.93805
t	-5.95902
;	-5.96089
▁which	-5.96191
▁who	-5.99053
▁s	-6.01432
▁their	-6.03356
▁his	-6.06366
▁He	-6.06555
er	-6.06643
▁an	-6.09732
▁he	-6.10038
▁A	-6.15931
e	-6.24739
▁at	-6.24751
y	-6.2514
▁Allah	-6.256
▁all	-6.26485
al	-6.2788
▁And	-6.28702
▁We	-6.32505
a	-6.38651
▁your	-6.3883
?	-6.39084
▁India	-6.43068
-	-6.46552
▁one	-6.4922
▁but	-6.49388
'	-6.49581
▁we	-6.50618
n	-6.52362
▁do	-6.53193
▁In	-6.55934
▁been	-6.56834
▁"	-6.58071
i	-6.58996
▁any	-6.59709
▁were	-6.60404
▁can	-6.62061
▁had	-6.63263
in	-6.64497
r	-6.65155
▁those	-6.65504
▁It	-6.65634
▁him	-6.65737
▁people	-6.66007
▁said	-6.67363
▁when	-6.69373
▁shall	-6.70406
▁so	-6.7088
▁S	-6.76032
▁other	-6.76084
es	-6.76254
▁/	-6.76779
▁no	-6.78482
%	-6.78723
▁also	-6.78748
▁God	-6.7964
th	-6.79698
▁if	-6.8
re	-6.80518
▁what	-6.80554
▁there	-6.80777
!	-6.83735
▁may	-6.85295
▁our	-6.85309
▁its	-6.87776
▁Lord	-6.87785
▁out	-6.92719
▁This	-6.92847
▁up	-6.96012
m	-6.96648
▁would	-6.96868
▁time	-6.97932
or	-6.98487
▁such	-6.99726
▁only	-7.00416
▁_	-7.01235
▁re	-7.01438
▁me	-7.03542
c	-7.04339
▁“	-7.04529
b	-7.06243
S	-7.07177
▁under	-7.07281
▁made	-7.07892
st	-7.0919
▁should	-7.11674
▁then	-7.12079
▁more	-7.12156
▁about	-7.12491
▁C	-7.12667
ation	-7.1363
le	-7.13794
▁like	-7.13809
▁into	-7.14007
ment	-7.15795
an	-7.16198
▁over	-7.18013
▁But	-7.18829
▁my	-7.19843
▁So	-7.20208
▁They	-7.2156
▁than	-7.22768
l	-7.23772
▁two	-7.23833
o	-7.24304
▁some	-7.2448
able	-7.24766
▁1	-7.24881
▁[	-7.27388
ity	-7.27609
h	-7.27733
▁us	-7.27966
▁”	-7.28145
▁new	-7.29044
A	-7.3034
on	-7.30441
▁these	-7.30809
▁P	-7.30833
it	-7.31267
▁before	-7.31295
O	-7.32635
ur	-7.32751
▁after	-7.32941
▁un	-7.33746
▁B	-7.33995
▁His	-7.34576
il	-7.34753
ic	-7.35832
▁life	-7.36959
I	-7.37083
C	-7.37149
g	-7.37684
▁day	-7.38048
ar	-7.39082
▁say	-7.39444
▁Indian	-7.40918
ion	-7.41252
ma	-7.42457
▁19	-7.43116
▁her	-7.43135
’	-7.43399
▁good	-7.43402
▁D	-7.43808
▁being	-7.44222
▁de	-7.44413
▁world	-7.44678
na	-7.4489
k	-7.45468
P	-7.4599
▁make	-7.4684
]	-7.48399
ers	-7.48648
p	-7.50691
▁O	-7.51624
▁If	-7.51933
D	-7.52297
▁You	-7.52842
▁through	-7.5412
▁country	-7.54194
▁Government	-7.55418
▁come	-7.55422
▁G	-7.55439
▁President	-7.55528
ta	-7.55732
ra	-7.56355
▁between	-7.56509
▁work	-7.57286
u	-7.57315
▁&	-7.57887
li	-7.57903
▁used	-7.58022
▁e	-7.58185
en	-7.58673
▁know	-7.58835
▁way	-7.58899
▁down	-7.59123
B	-7.59508
▁could	-7.5998
ent	-7.59985
▁well	-7.60125
▁F	-7.60284
▁first	-7.60407
x	-7.61137
ness	-7.61275
ri	-7.61757
as	-7.62109
at	-7.62154
el	-7.62204
la	-7.62369
us	-7.62841
▁To	-7.62847
ti	-7.63122
▁E	-7.63249
T	-7.63292
▁Act	-7.63606
▁year	-7.63708
▁T	-7.641
▁upon	-7.64236
▁many	-7.64392
▁Re	-7.65326
▁years	-7.65386
am	-7.65559
▁2	-7.6562
▁M	-7.66358
▁man	-7.66447
▁All	-7.66573
▁There	-7.666
▁very	-7.66915
▁did	-7.6699
▁see	-7.67283
se	-7.67741
▁N	-7.67829
ive	-7.67954
▁believe	-7.68567
▁where	-7.68835
▁most	-7.6896
▁earth	-7.69433
M	-7.69894
▁part	-7.70067
▁against	-7.70163
to	-7.70429
ul	-7.7075
▁K	-7.70796
f	-7.71013
"	-7.71824
▁take	-7.72337
▁per	-7.72603
▁right	-7.73534
lo	-7.74535
▁L	-7.75326
▁even	-7.77495
▁sub	-7.78045
▁State	-7.78262
ate	-7.78576
um	-7.79247
▁go	-7.79249
),	-7.79717
▁given	-7.79816
▁among	-7.80059
ll	-7.8064
▁back	-7.80916
▁place	-7.81043
▁because	-7.81722
▁own	-7.81821
▁Him	-7.81855
▁must	-7.82293
ter	-7.82459
▁use	-7.82666
▁For	-7.83116
ch	-7.83497
▁great	-7.83586
▁give	-7.83827
▁water	-7.84619
te	-7.84694
▁help	-7.8472
▁b	-7.84872
ance	-7.85251
▁every	-7.85348
id	-7.86115
▁does	-7.86138
ro	-7.86247
▁An	-7.86545
the	-7.87109
▁set	-7.87245
▁ye	-7.87975
▁am	-7.88702
▁order	-7.89169
▁>	-7.89192
▁sent	-7.89385
▁As	-7.89655
et	-7.89853
ant	-7.89984
▁d	-7.90211
).	-7.9058
▁No	-7.90675
▁Day	-7.91004
▁When	-7.91726
▁number	-7.92611
▁end	-7.92758
vi	-7.93268
▁whom	-7.93358
▁<	-7.93561
▁away	-7.94371
z	-7.94507
▁Do	-7.94704
G	-7.94945
w	-7.95001
▁get	-7.9504
▁now	-7.95161
▁how	-7.95303
ary	-7.95362
ir	-7.95609
▁person	-7.95959
."	-7.96535
▁file	-7.96651
▁development	-7.97358
▁section	-7.97713
▁Our	-7.98092
▁during	-7.98575
▁system	-7.99365
▁case	-7.994
▁R	-7.99609
▁same	-7.99614
▁power	-7.99626
man	-7.9988
age	-8.00403
▁while	-8.00461
▁she	-8.00519
▁De	-8.0125
▁name	-8.01252
▁just	-8.01464
ol	-8.01707
▁5	-8.01733
sh	-8.0183
▁each	-8.01853
ge	-8.01973
R	-8.02078
U	-8.02382
▁long	-8.02504
...	-8.03058
▁men	-8.03326
▁both	-8.04023
E	-8.04096
ve	-8.04842
▁account	-8.04999
ist	-8.05271
▁found	-8.05715
un	-8.05794
▁dis	-8.06003
▁called	-8.06007
▁another	-8.06452
▁came	-8.06464
▁etc	-8.0647
▁land	-8.07114
▁3	-8.07156
est	-8.07526
▁fear	-8.08251
▁things	-8.0856
▁here	-8.08587
di	-8.0889
L	-8.08926
▁nor	-8.09411
ism	-8.09417
▁period	-8.09695
▁different	-8.10077
ty	-8.10078
ut	-8.10108
▁Then	-8.10508
▁indeed	-8.10734
ry	-8.10817
de	-8.10917
▁three	-8.11624
me	-8.1231
”	-8.12488
▁without	-8.1309
▁knowledge	-8.13579
▁form	-8.13832
ya	-8.13971
ver	-8.14294
▁National	-8.14355
▁f	-8.14369
▁co	-8.14558
▁want	-8.14667
▁Shri	-8.14833
ce	-8.14962
im	-8.1499
▁g	-8.15186
N	-8.15189
ia	-8.15557
ful	-8.15932
▁‘	-8.16259
ad	-8.16311
ha	-8.16496
▁means	-8.16988
▁Me	-8.17012
▁H	-8.17107
▁p	-8.17206
▁much	-8.1724
▁information	-8.1734
ated	-8.17539
ting	-8.18832
▁unto	-8.1927
▁t	-8.19926
▁need	-8.20135
is	-8.20439
▁state	-8.20835
op	-8.20942
▁find	-8.21077
F	-8.21781
v	-8.2203
ci	-8.22077
▁government	-8.22148
▁W	-8.22206
▁st	-8.22424
▁On	-8.22531
less	-8.22628
▁Minister	-8.22737
ure	-8.22754
▁truth	-8.23531
▁women	-8.23614
ne	-8.23657
▁Say	-8.23858
H	-8.24012
:%	-8.24295
▁con	-8.24538
/	-8.24979
▁OF	-8.25485
▁become	-8.25486
V	-8.25503
ni	-8.25679
ine	-8.25805
▁That	-8.25852
ted	-8.26306
▁created	-8.26581
▁human	-8.26588
▁public	-8.26848
▁present	-8.27063
▁hand	-8.27265
▁message	-8.27368
▁cannot	-8.27493
▁c	-8.27587
▁last	-8.27934
ot	-8.28123
▁important	-8.28793
▁except	-8.2897
and	-8.29053
▁let	-8.29063
tra	-8.29202
▁–	-8.29905
▁What	-8.3006
ies	-8.30625
va	-8.30722
▁income	-8.30747
ish	-8.3082
▁company	-8.30959
▁business	-8.31307
▁New	-8.31342
▁Ra	-8.31623
▁amount	-8.31708
▁surely	-8.32146
ating	-8.32177
▁taken	-8.32227
ous	-8.32296
▁never	-8.32484
▁list	-8.3249
go	-8.32797
▁today	-8.32818
▁known	-8.32834
▁process	-8.3351
▁These	-8.33633
om	-8.33725
▁support	-8.33772
▁18	-8.34052
▁children	-8.34893
he	-8.3496
▁4	-8.3506
up	-8.35168
▁love	-8.35594
▁My	-8.35904
▁best	-8.36171
▁various	-8.36221
▁turn	-8.37053
ak	-8.37464
▁themselves	-8.38182
▁better	-8.38342
▁Book	-8.38577
j	-8.38604
▁small	-8.38682
▁evil	-8.38711
▁large	-8.38828
▁within	-8.39293
▁clear	-8.39647
▁mind	-8.39765
2	-8.39842
—	-8.40285
▁done	-8.40313
be	-8.40599
ence	-8.40654
▁J	-8.40684
▁bring	-8.40712
▁body	-8.40856
ling	-8.40958
▁left	-8.41319
wa	-8.41584
▁window	-8.4169
▁social	-8.41841
tion	-8.42512
▁One	-8.42526
no	-8.42591
▁high	-8.42758
▁respect	-8.42791
▁Ka	-8.42915
▁education	-8.4318
▁going	-8.43202
▁free	-8.43362
▁Who	-8.43373
K	-8.43454
▁Sa	-8.43762
▁due	-8.44098
▁open	-8.44186
▁U	-8.4431
▁book	-8.44419
▁value	-8.44568
▁light	-8.44813
▁days	-8.44965
co	-8.45027
▁think	-8.45036
▁call	-8.45234
▁Go	-8.45421
pe	-8.45477
ac	-8.45645
▁put	-8.45875
▁law	-8.45947
▁fact	-8.46009
▁head	-8.46368
W	-8.46469
ho	-8.46555
▁pro	-8.46932
▁full	-8.47485
▁Ma	-8.47714
ian	-8.47752
▁towards	-8.47795
▁Ba	-8.48133
▁Central	-8.48162
▁far	-8.48343
▁language	-8.48452
▁old	-8.48558
mo	-8.48633
▁too	-8.48636
▁10	-8.48798
▁available	-8.48895
▁At	-8.50166
▁off	-8.50213
▁cause	-8.50438
▁change	-8.5069
▁6	-8.50844
▁pre	-8.51006
▁return	-8.51038
▁times	-8.51055
ee	-8.51095
▁heavens	-8.51693
▁brought	-8.51729
▁thou	-8.51839
▁di	-8.51889
▁worship	-8.52002
▁four	-8.52032
▁punishment	-8.52546
▁service	-8.52666
▁8	-8.53073
▁national	-8.53257
▁Un	-8.53344
Y	-8.53741
▁again	-8.538
▁date	-8.53896
ial	-8.53924
▁family	-8.54106
section	-8.54835
▁Con	-8.54912
▁Al	-8.5523
▁economic	-8.55607
▁food	-8.5566
▁non	-8.55715
▁death	-8.55934
▁Bhavan	-8.56116
▁V	-8.56493
▁en	-8.56507
sa	-8.56671
▁view	-8.56681
▁something	-8.56751
▁might	-8.57315
▁matter	-8.57407
mi	-8.57499
mb	-8.57527
▁provide	-8.57899
▁whole	-8.58012
ities	-8.5816
▁She	-8.58426
▁point	-8.58552
▁others	-8.58581
ba	-8.58643
▁self	-8.58689
▁act	-8.58716
our	-8.58856
▁project	-8.59142
ite	-8.59248
hi	-8.59286
▁Dr	-8.59661
▁keep	-8.59748
▁data	-8.59887
of	-8.59998
▁group	-8.60022
▁true	-8.60098
▁Man	-8.60183
ally	-8.6025
▁show	-8.60609
▁Na	-8.60713
▁St	-8.6074
▁interest	-8.60839
▁capital	-8.61039
▁local	-8.61118
▁provided	-8.61207
▁area	-8.61457
ip	-8.61519
▁already	-8.6158
ven	-8.61667
tic	-8.61743
fi	-8.61976
▁level	-8.62225
pur	-8.62296
▁together	-8.62344
▁night	-8.62486
▁mo	-8.62561
▁common	-8.62807
▁religion	-8.62912
▁few	-8.63062
lu	-8.63118
nic	-8.63201
lic	-8.63227
eth	-8.63294
▁create	-8.63295
▁gave	-8.63307
▁follow	-8.63451
▁art	-8.63675
▁7	-8.63707
rs	-8.63743
▁nation	-8.63975
▁control	-8.64116
▁countries	-8.64284
▁Indeed	-8.64379
▁Rs	-8.64402
▁i	-8.64581
▁comp	-8.64599
▁vi	-8.64651
▁Rashtrapati	-8.64767
▁Your	-8.64872
▁Delhi	-8.64973
▁ask	-8.65029
▁following	-8.65049
▁above	-8.65537
▁action	-8.65589
▁Those	-8.65826
▁path	-8.65876
▁little	-8.65994
ig	-8.66061
▁signs	-8.66142
▁equal	-8.66183
▁tax	-8.66192
4	-8.6642
▁himself	-8.66733
▁based	-8.6692
ga	-8.67032
00	-8.67039
▁age	-8.67053
▁type	-8.67102
▁services	-8.67388
▁cost	-8.67807
5	-8.67857
3	-8.68313
▁send	-8.68331
ap	-8.68374
▁kind	-8.68375
▁making	-8.68472
pr	-8.68567
▁imp	-8.68588
men	-8.68591
▁total	-8.68606
▁o	-8.68729
▁thought	-8.68851
gu	-8.68921
▁La	-8.68933
har	-8.69042
▁sector	-8.69112
▁policy	-8.69265
▁war	-8.69305
for	-8.69315
ru	-8.6939
▁special	-8.69443
▁m	-8.69466
▁lo	-8.69863
▁less	-8.69938
▁sea	-8.6997
▁until	-8.69997
▁having	-8.70218
iv	-8.70327
▁faith	-8.70328
▁cent	-8.70422
▁clause	-8.70767
ens	-8.70871
▁Lo	-8.70904
▁still	-8.70907
▁example	-8.70923
▁areas	-8.71017
▁though	-8.71077
▁address	-8.71095
ka	-8.71232
▁words	-8.71272
▁w	-8.71298
▁15	-8.71682
ible	-8.71705
1	-8.71857
▁wrong	-8.71939
▁around	-8.71949
▁seen	-8.71977
▁society	-8.72226
▁hearts	-8.72254
du	-8.72255
min	-8.72329
▁side	-8.72348
land	-8.72358
▁took	-8.72681
▁heart	-8.72905
▁able	-8.72991
▁Be	-8.73047
▁occasion	-8.73198
▁li	-8.73232
▁command	-8.73243
▁political	-8.7328
tri	-8.73464
tu	-8.73488
▁certain	-8.73513
▁members	-8.73561
▁face	-8.73654
▁pay	-8.73954
▁thing	-8.73962
▁home	-8.741
▁always	-8.74304
▁second	-8.74434
▁:	-8.74542
▁whose	-8.74582
▁folder	-8.74629
▁result	-8.74689
▁market	-8.7484
po	-8.74895
ile	-8.75011
▁Ha	-8.75036
▁position	-8.75043
▁along	-8.75194
do	-8.7529
ard	-8.75309
▁main	-8.75411
▁nothing	-8.75437
▁believers	-8.75465
ud	-8.75495
▁therefore	-8.75714
▁term	-8.76089
▁whether	-8.76292
▁Mo	-8.76356
ck	-8.76493
▁Co	-8.76549
▁visit	-8.76749
▁including	-8.76801
ang	-8.76829
ise	-8.76872
▁deeds	-8.7693
▁house	-8.7696
▁%	-8.77362
▁12	-8.7767
▁ever	-8.7782
▁Bank	-8.77945
▁further	-8.78338
▁short	-8.78383
▁subject	-8.7841
▁five	-8.7857
▁research	-8.78596
▁Show	-8.78607
one	-8.78637
▁cl	-8.78682
ay	-8.78732
amp	-8.78764
▁young	-8.79057
av	-8.79091
▁British	-8.79113
▁yet	-8.79195
▁leave	-8.79417
ious	-8.7944
▁look	-8.79647
▁growth	-8.79668
▁la	-8.79704
ations	-8.80086
▁nature	-8.80253
▁health	-8.80408
▁child	-8.80521
▁Messenger	-8.80623
▁reward	-8.80674
gi	-8.80753
▁meeting	-8.80771
▁Court	-8.80857
▁course	-8.80892
led	-8.81027
▁received	-8.81075
▁error	-8.81147
▁became	-8.81165
▁question	-8.81248
ical	-8.81591
ning	-8.81697
▁States	-8.81816
▁enter	-8.81913
▁held	-8.8201
▁near	-8.82118
▁Please	-8.82184
ill	-8.82281
▁Or	-8.82481
con	-8.82487
▁THE	-8.82564
▁k	-8.82638
20	-8.82892
▁House	-8.82928
▁money	-8.82948
▁later	-8.8297
vo	-8.82983
▁play	-8.83148
nu	-8.83156
per	-8.83327
▁read	-8.83523
▁post	-8.83622
bo	-8.83626
▁ten	-8.83666
▁next	-8.83688
▁Su	-8.83695
▁After	-8.83711
▁key	-8.83738
▁word	-8.8374
▁Most	-8.83835
▁line	-8.83837
▁office	-8.84059
▁strong	-8.84166
▁English	-8.84278
▁Po	-8.84695
▁live	-8.84784
▁required	-8.84866
ana	-8.84987
▁Hindi	-8.85054
▁bear	-8.85144
qu	-8.85205
tro	-8.85251
pi	-8.85286
▁Prime	-8.85343
▁Singh	-8.85344
ah	-8.85462
os	-8.85562
▁PRESIDENT	-8.85583
pa	-8.85824
▁previous	-8.85837
▁son	-8.86011
▁20	-8.86016
▁application	-8.86198
▁x	-8.86384
▁Ar	-8.86465
▁Bo	-8.86709
▁Committee	-8.86742
▁several	-8.86813
We	-8.86824
▁selected	-8.86871
▁possible	-8.86906
da	-8.86916
ca	-8.87002
▁text	-8.87017
ring	-8.87141
▁How	-8.87391
▁industry	-8.87444
▁ex	-8.87452
▁class	-8.87565
▁movement	-8.87736
}	-8.8775
ph	-8.87869
▁foreign	-8.8794
ja	-8.88053
▁building	-8.88654
qui	-8.88677
ium	-8.88717
▁Vi	-8.88735
ship	-8.88892
▁hands	-8.88924
ding	-8.88954
▁9	-8.88977
▁Some	-8.8898
▁Ja	-8.88981
▁either	-8.88982
▁Mu	-8.88994
sion	-8.89039
▁plant	-8.8907
▁activities	-8.89078
ative	-8.89098
▁start	-8.89128
▁court	-8.89133
ving	-8.89222
▁Ministry	-8.89413
▁bank	-8.89486
ified	-8.89498
▁certainly	-8.89546
▁mother	-8.89636
▁authority	-8.89679
hu	-8.89728
▁fire	-8.8979
▁force	-8.89798
ble	-8.89828
▁tell	-8.89895
▁field	-8.89987
▁task	-8.89989
nt	-8.90003
▁seek	-8.90011
▁rate	-8.9039
▁father	-8.90487
▁rest	-8.90502
ized	-8.9073
ran	-8.90732
▁test	-8.90994
▁University	-8.91128
▁itself	-8.91349
▁forth	-8.91377
▁technology	-8.9142
em	-8.91424
▁(1)	-8.91455
ect	-8.91461
▁trade	-8.91586
▁financial	-8.91788
▁image	-8.91791
▁production	-8.91826
ward	-8.91884
▁purpose	-8.92054
▁Ta	-8.92088
ow	-8.92095
ji	-8.92122
▁save	-8.92264
▁anything	-8.92458
▁went	-8.92497
dic	-8.92568
▁n	-8.92578
▁scheme	-8.92931
▁Department	-8.92949
▁computer	-8.93395
▁General	-8.93734
ai	-8.93913
▁trust	-8.94071
▁soul	-8.94152
▁current	-8.94156
▁history	-8.94518
▁don	-8.94622
▁quality	-8.94623
▁working	-8.9472
▁With	-8.94764
▁understand	-8.94843
▁property	-8.95067
▁Select	-8.95162
▁accept	-8.95183
▁Pa	-8.95287
▁Pradesh	-8.95332
▁File	-8.95357
bi	-8.95369
▁established	-8.9543
nd	-8.95553
kar	-8.9557
▁individual	-8.95628
ub	-8.9579
▁Open	-8.95795
▁Di	-8.95849
▁knows	-8.95855
▁provisions	-8.96259
▁major	-8.96284
▁share	-8.96561
▁peace	-8.9657
▁future	-8.9674
▁website	-8.9692
▁using	-8.97007
▁Ram	-8.97027
▁credit	-8.9705
▁Us	-8.97126
▁necessary	-8.97256
▁remember	-8.97262
ct	-8.97263
▁therein	-8.97272
▁wish	-8.97325
▁Ga	-8.9749
▁behind	-8.97491
▁increase	-8.976
tor	-8.97658
AR	-8.97725
▁Mi	-8.97831
▁Hindu	-8.97918
▁started	-8.97962
▁Development	-8.98072
way	-8.98185
▁access	-8.98203
▁since	-8.98234
▁mercy	-8.98377
▁Could	-8.98377
▁cr	-8.98402
▁hath	-8.98425
▁role	-8.98457
▁effect	-8.98567
▁real	-8.98619
▁experience	-8.98691
▁million	-8.98704
▁six	-8.98826
ach	-8.98834
▁{	-8.98855
The	-8.9892
▁referred	-8.98931
▁network	-8.98956
▁High	-8.99192
▁demand	-8.99219
all	-8.99249
ld	-8.9928
▁run	-8.9934
▁past	-8.99484
▁related	-8.99642
▁security	-8.99642
▁Congress	-8.99645
▁Fa	-8.99752
ab	-8.99811
▁By	-9.00139
▁greater	-9.00328
ization	-9.0037
▁Thus	-9.0046
▁List	-9.00525
▁sign	-9.00627
▁000	-9.00655
we	-9.00726
▁asked	-9.00734
▁Ro	-9.00797
▁disc	-9.00826
RB	-9.00863
▁community	-9.00937
line	-9.00968
mit	-9.01146
▁higher	-9.01149
▁whatever	-9.01297
▁sure	-9.01353
▁written	-9.01383
▁’	-9.01585
▁RRB	-9.01606
ke	-9.01623
▁got	-9.01637
ize	-9.01702
▁city	-9.01824
▁revealed	-9.01894
▁guidance	-9.02004
▁doubt	-9.02005
▁Now	-9.02119
▁specified	-9.02171
▁mode	-9.02263
▁living	-9.02267
ator	-9.023
▁forward	-9.02562
▁mis	-9.02588
▁natural	-9.02658
▁students	-9.02724
▁Pro	-9.02737
▁once	-9.02759
▁inter	-9.02825
AL	-9.02837
▁sense	-9.02971
▁gra	-9.02982
▁paid	-9.03042
▁institutions	-9.03117
ten	-9.03132
▁reason	-9.03146
▁add	-9.03212
▁11	-9.0323
▁Union	-9.03233
▁hard	-9.03347
▁seven	-9.03434
▁modern	-9.0346
▁function	-9.03561
▁district	-9.03647
▁plan	-9.03798
▁Muslim	-9.03985
▁Ca	-9.03988
▁witness	-9.04136
ors	-9.04267
▁eat	-9.04334
▁problem	-9.04634
▁lead	-9.04854
▁fall	-9.04906
ell	-9.05039
▁according	-9.05081
▁hope	-9.05313
▁verily	-9.05318
red	-9.05343
▁story	-9.05456
▁soon	-9.05492
▁complete	-9.05597
od	-9.05695
▁ra	-9.05718
les	-9.05721
▁continue	-9.05952
▁months	-9.05975
▁culture	-9.06209
▁poor	-9.06261
▁server	-9.06391
▁car	-9.06479
▁fast	-9.0657
ER	-9.06671
▁thy	-9.06745
▁told	-9.06759
ions	-9.0676
▁till	-9.06948
▁believed	-9.06966
day	-9.07016
▁Parliament	-9.07239
▁school	-9.07413
▁Gandhi	-9.07461
▁Constitution	-9.07504
AN	-9.07544
▁INDIA	-9.07561
cu	-9.07688
▁manner	-9.07693
▁eyes	-9.07834
ised	-9.07853
ide	-9.07895
au	-9.0802
ual	-9.08084
▁month	-9.08129
ability	-9.08192
▁progress	-9.0821
▁16	-9.08439
▁tree	-9.08733
▁century	-9.08745
end	-9.08969
act	-9.08974
▁writing	-9.09055
ng	-9.09151
▁international	-9.09328
ign	-9.09344
▁why	-9.094
▁however	-9.09422
▁files	-9.09587
▁Va	-9.09679
▁blood	-9.09709
▁basis	-9.09718
▁close	-9.09788
▁turned	-9.09798
▁works	-9.09849
▁village	-9.09863
▁speak	-9.09936
▁prayer	-9.09956
▁receive	-9.10093
▁benefit	-9.10128
▁doing	-9.10169
cc	-9.10182
ever	-9.10242
▁investment	-9.10274
▁appointed	-9.10277
▁party	-9.10295
ag	-9.10344
▁ground	-9.10474
▁Bengal	-9.10539
▁Mr	-9.1059
▁energy	-9.10593
▁http	-9.10622
▁considered	-9.10725
war	-9.10745
▁Let	-9.10781
▁Muslims	-9.10835
▁size	-9.1085
ration	-9.10894
▁flow	-9.10906
(	-9.10924
ari	-9.10925
▁rule	-9.10927
▁ha	-9.1104
▁loss	-9.11049
▁single	-9.11142
▁particular	-9.11267
▁Surely	-9.11397
▁meet	-9.11524
tal	-9.11558
▁ma	-9.11603
▁success	-9.11614
▁Moses	-9.11676
▁Prophet	-9.11715
port	-9.11757
▁transfer	-9.11775
▁Le	-9.11938
▁Council	-9.12084
▁payment	-9.12179
▁approach	-9.12294
ber	-9.12338
▁structure	-9.12355
▁Verily	-9.12534
▁global	-9.12535
han	-9.12542
▁general	-9.12593
▁Fire	-9.12638
▁Pre	-9.12686
tax	-9.12916
▁Th	-9.13075
?"	-9.13145
▁Da	-9.13176
▁exchange	-9.13293
▁care	-9.13509
▁host	-9.13548
bu	-9.13556
▁problems	-9.13581
▁im	-9.13655
▁However	-9.13704
▁air	-9.13709
ition	-9.13754
▁v	-9.13831
▁25	-9.1387
ple	-9.13929
▁30	-9.13938
▁Information	-9.13964
ala	-9.13995
ton	-9.14087
▁purposes	-9.14122
▁assessee	-9.14123
▁bar	-9.14123
▁ti	-9.14128
▁check	-9.14155
▁poet	-9.14203
▁Israel	-9.14221
tan	-9.14274
▁spread	-9.14307
▁favour	-9.14547
▁search	-9.14675
der	-9.14726
▁crore	-9.15086
▁comes	-9.15089
▁stage	-9.15099
▁religious	-9.15103
▁sun	-9.15196
▁Not	-9.15285
▁ba	-9.15398
J	-9.15432
▁Mar	-9.15518
▁disbelieve	-9.15729
▁America	-9.15767
▁Ex	-9.15779
▁write	-9.1581
den	-9.15967
▁management	-9.15991
ram	-9.16065
▁passed	-9.16113
▁character	-9.16116
▁region	-9.16128
▁reach	-9.16149
▁often	-9.16218
▁se	-9.16269
tation	-9.16403
▁ne	-9.16444
▁wealth	-9.16572
▁14	-9.16574
▁changes	-9.16804
▁issued	-9.16861
mer	-9.16877
ik	-9.16879
▁Add	-9.17057
▁report	-9.17265
▁institution	-9.17303
▁none	-9.17373
):	-9.17425
▁ch	-9.17426
▁hear	-9.17532
▁allowed	-9.17545
▁terms	-9.17612
▁contact	-9.17629
▁thus	-9.17629
ice	-9.17639
▁sp	-9.17768
▁Li	-9.17804
▁*	-9.17812
▁Muhammad	-9.17847
▁needs	-9.17861
▁patient	-9.17866
▁ho	-9.17879
▁freedom	-9.18025
▁stone	-9.18169
▁sound	-9.18223
▁mail	-9.18261
ging	-9.18266
shi	-9.18364
▁everything	-9.18443
ler	-9.18485
▁Name	-9.18558
▁creation	-9.1859
▁taking	-9.18635
▁source	-9.18712
▁produce	-9.18881
▁books	-9.19075
▁personal	-9.19459
ner	-9.195
▁exp	-9.19554
▁fight	-9.19607
▁le	-9.19689
▁Sub	-9.19889
▁loan	-9.20278
▁member	-9.20313
▁neither	-9.20315
▁pass	-9.2034
▁va	-9.20408
▁Public	-9.20413
ore	-9.205
▁goods	-9.20507
▁Se	-9.20541
▁efforts	-9.20576
▁alone	-9.2059
▁really	-9.20734
▁assessment	-9.20832
so	-9.20854
▁duty	-9.20899
▁programme	-9.20959
ery	-9.21098
▁outside	-9.21108
▁app	-9.2117
▁space	-9.21257
ES	-9.21363
▁conditions	-9.21406
▁author	-9.21528
▁Such	-9.21542
▁least	-9.21567
▁temple	-9.21621
▁user	-9.21622
▁X	-9.21655
▁population	-9.21729
que	-9.21766
▁Institute	-9.21827
▁deny	-9.21853
▁Error	-9.21893
ug	-9.219
▁brother	-9.21967
chan	-9.21982
▁parts	-9.22118
gg	-9.22148
▁hu	-9.22218
▁developed	-9.22408
▁messages	-9.22456
▁disease	-9.22457
▁early	-9.22488
▁protect	-9.22513
▁training	-9.22608
▁entire	-9.22615
▁Whether	-9.22625
▁lot	-9.22631
▁persons	-9.22845
▁ca	-9.22864
▁move	-9.22869
ight	-9.22919
▁ensure	-9.2293
▁guide	-9.22952
q	-9.23222
cent	-9.23232
▁followed	-9.2325
▁rich	-9.23276
ster	-9.23286
ny	-9.23357
▁Ch	-9.23429
▁science	-9.23429
▁bo	-9.23503
▁promise	-9.23524
▁literature	-9.2353
▁wide	-9.23948
▁0	-9.23985
▁judge	-9.24061
▁video	-9.24129
▁price	-9.24177
▁color	-9.24208
ex	-9.24235
▁provision	-9.24237
▁evidence	-9.2424
▁secret	-9.24342
▁dead	-9.24423
nce	-9.24433
▁Te	-9.2448
▁woman	-9.24512
▁original	-9.24544
dra	-9.24631
▁deal	-9.24766
▁remain	-9.24797
ron	-9.24819
▁spirit	-9.24841
fe	-9.24881
aries	-9.2493
IT	-9.24994
▁situation	-9.25229
val	-9.25275
pos	-9.25417
▁South	-9.25436
▁Islam	-9.25457
▁matters	-9.25491
▁Even	-9.2557
ose	-9.25646
ii	-9.25677
▁met	-9.25713
▁Officer	-9.25749
▁feel	-9.25816
▁saying	-9.25871
▁ill	-9.25885
▁consider	-9.25967
▁device	-9.25986
▁fa	-9.25993
use	-9.26007
▁capacity	-9.26055
ification	-9.26062
▁Canno	-9.26167
▁Z	-9.26208
▁Board	-9.26286
▁specific	-9.26334
▁unit	-9.26551
▁People	-9.26574
ath	-9.26745
▁document	-9.26773
▁righteous	-9.26855
▁include	-9.2686
▁separate	-9.26957
▁prevent	-9.2696
ec	-9.26963
▁industrial	-9.27086
▁gives	-9.27088
▁front	-9.27116
▁town	-9.2716
▁17	-9.27211
▁half	-9.27278
pt	-9.27284
▁13	-9.27288
▁export	-9.27325
▁du	-9.27352
▁birth	-9.27377
▁program	-9.27416
ments	-9.27447
▁th	-9.2748
▁wife	-9.27481
her	-9.27503
ology	-9.27618
▁Section	-9.27664
ie	-9.27697
▁rec	-9.27751
▁1.	-9.27811
▁May	-9.27829
press	-9.27847
▁condition	-9.27914
▁Bha	-9.27964
▁private	-9.28084
▁study	-9.28114
▁claim	-9.2815
▁meaning	-9.28156
▁sin	-9.28172
▁Y	-9.28223
tain	-9.28238
ick	-9.28289
▁record	-9.28292
▁San	-9.28417
▁king	-9.28432
hy	-9.28501
▁Asia	-9.28609
▁regard	-9.28711
▁saw	-9.28728
▁answer	-9.28934
IC	-9.28944
▁na	-9.28991
ze	-9.29017
lt	-9.29086
▁mankind	-9.29142
chi	-9.29239
▁cons	-9.29364
▁Ne	-9.29375
▁deep	-9.29389
▁die	-9.29391
▁firm	-9.29422
▁angels	-9.29448
oc	-9.2946
▁Qu	-9.29528
▁lost	-9.29627
mon	-9.29694
▁Mukherjee	-9.29786
ft	-9.2999
▁try	-9.30097
yan	-9.30152
struct	-9.30248
tre	-9.30388
▁operation	-9.30388
▁material	-9.30438
▁almost	-9.30544
▁hold	-9.30554
▁Sabha	-9.30609
rate	-9.30654
nal	-9.30812
rit	-9.30984
▁resources	-9.3101
uc	-9.31016
▁torment	-9.3107
▁opens	-9.31075
▁break	-9.31186
ju	-9.31224
▁earlier	-9.31267
IS	-9.31299
▁ro	-9.31316
▁kept	-9.31376
gra	-9.31477
▁Project	-9.31485
▁desire	-9.31605
▁lakh	-9.31609
▁mu	-9.31644
isation	-9.31705
▁direction	-9.31717
▁talk	-9.31717
▁Merciful	-9.31814
▁across	-9.31851
▁big	-9.31864
og	-9.31901
▁Commission	-9.31967
▁strength	-9.32066
▁raised	-9.32076
▁makes	-9.32215
▁similar	-9.32218
ping	-9.32305
▁Where	-9.3236
si	-9.32376
▁issue	-9.32474
int	-9.32492
▁Jo	-9.32617
://	-9.32622
▁Governor	-9.3266
son	-9.32688
▁measure	-9.32751
▁Africa	-9.3277
▁enough	-9.32891
▁environment	-9.32909
▁Director	-9.32927
▁top	-9.33311
▁notice	-9.33319
ani	-9.33376
van	-9.33423
cr	-9.33566
▁cover	-9.33625
▁physical	-9.33625
▁third	-9.33736
▁Use	-9.33752
▁job	-9.33811
▁pi	-9.33862
▁thee	-9.34243
▁offer	-9.34295
▁rain	-9.34396
▁Republic	-9.34409
▁l	-9.34425
▁grant	-9.34492
▁Centre	-9.34598
▁App	-9.34638
▁hundred	-9.34748
▁agreement	-9.34884
▁Can	-9.34967
nk	-9.34973
▁farmers	-9.35013
king	-9.35057
▁apply	-9.35105
▁female	-9.35126
ash	-9.35177
▁direct	-9.35236
▁astray	-9.35241
▁pa	-9.35261
▁East	-9.35272
▁sum	-9.35339
▁contribution	-9.35353
▁products	-9.35402
row	-9.35435
▁pen	-9.35524
let	-9.35538
▁fund	-9.35658
put	-9.35758
▁page	-9.35845
▁West	-9.35904
par	-9.35965
▁below	-9.36046
IN	-9.36128
▁allow	-9.36166
ture	-9.36213
▁decision	-9.36214
▁Har	-9.36266
ara	-9.36289
▁Comp	-9.36295
▁Work	-9.36307
▁carried	-9.36344
▁pl	-9.36376
▁please	-9.36435
cor	-9.36595
tive	-9.36838
▁stand	-9.36941
▁god	-9.37007
▁failed	-9.3703
▁connection	-9.37064
ger	-9.37116
ory	-9.37147
▁April	-9.37151
▁fair	-9.37152
ib	-9.37162
▁United	-9.37211
ably	-9.37219
▁decided	-9.37239
▁super	-9.37301
▁guided	-9.37315
▁ve	-9.37318
▁tr	-9.3736
▁rural	-9.37388
gar	-9.37582
▁bound	-9.37668
▁attack	-9.37694
▁ancient	-9.37743
▁From	-9.37926
▁prepared	-9.38018
▁Per	-9.38086
RI	-9.38185
▁low	-9.3822
▁relating	-9.38238
und	-9.38242
▁instrument	-9.38282
▁eight	-9.38379
▁economy	-9.38433
▁music	-9.38546
▁Have	-9.38923
▁(2)	-9.38989
sha	-9.39019
▁behalf	-9.39021
▁Sanskrit	-9.39139
▁World	-9.39218
▁disbelievers	-9.39254
dy	-9.39285
▁Ad	-9.3986
▁bi	-9.39885
mm	-9.39956
▁built	-9.3997
by	-9.40108
▁depend	-9.4012
▁difficult	-9.40234
art	-9.40236
▁50	-9.40251
▁projects	-9.40332
▁boy	-9.40353
▁design	-9.40361
▁Dis	-9.40507
bar	-9.40524
▁dec	-9.40651
▁actually	-9.4066
ute	-9.40662
form	-9.40787
ff	-9.40862
▁lower	-9.40912
▁Raj	-9.4095
▁feed	-9.40988
▁statement	-9.40991
▁speech	-9.41008
tt	-9.41046
▁popular	-9.41049
▁pur	-9.41065
▁2.	-9.41117
▁wall	-9.41189
eg	-9.4128
▁Gu	-9.41331
▁Pranab	-9.41369
▁sh	-9.41419
▁Their	-9.41446
tar	-9.41493
▁Ho	-9.41506
▁Chief	-9.41534
cal	-9.41675
▁whoever	-9.41681
▁import	-9.41716
▁Scheme	-9.41813
▁Technology	-9.41813
▁copy	-9.41814
▁cases	-9.41874
▁river	-9.41932
▁certificate	-9.41975
▁deposit	-9.42008
out	-9.42047
ear	-9.42061
▁travel	-9.42081
▁multi	-9.42321
sis	-9.42388
▁letter	-9.4243
▁led	-9.4252
za	-9.42549
▁po	-9.42572
▁Ko	-9.426
▁rights	-9.42671
ound	-9.4269
▁happy	-9.42707
▁Income	-9.4271
wi	-9.42736
▁Account	-9.42912
▁paper	-9.42928
▁issues	-9.42976
▁En	-9.43086
▁mark	-9.43113
▁honour	-9.43157
▁unbelievers	-9.43255
ki	-9.43272
▁leaders	-9.43307
▁fo	-9.43339
▁Every	-9.43362
12	-9.43418
gn	-9.43511
▁Wa	-9.43545
▁Par	-9.43576
▁road	-9.436
▁Education	-9.4365
▁especially	-9.4365
▁style	-9.43695
ern	-9.4377
▁published	-9.43857
▁event	-9.43901
▁scale	-9.43912
gen	-9.43964
▁besides	-9.44009
▁Plan	-9.44036
▁Save	-9.44078
▁tradition	-9.44115
▁Commissioner	-9.44141
▁Pra	-9.44187
▁opportunity	-9.44228
▁born	-9.44251
▁provides	-9.44287
▁Sri	-9.4449
▁100	-9.44593
▁Sha	-9.44598
▁relations	-9.44599
10	-9.44692
▁states	-9.44715
▁TO	-9.4484
▁clean	-9.44977
▁basic	-9.45067
▁Message	-9.45102
ants	-9.45207
▁coming	-9.45241
like	-9.45284
▁port	-9.45342
OR	-9.45421
▁display	-9.45498
▁Right	-9.45606
▁com	-9.45618
▁accepted	-9.45621
▁providing	-9.45647
▁Pan	-9.45661
▁morning	-9.45736
▁simple	-9.459
▁develop	-9.45922
set	-9.45941
ged	-9.4608
▁focus	-9.46117
ham	-9.46166
▁method	-9.46177
▁Ku	-9.46183
▁Under	-9.46328
▁friends	-9.46329
▁lives	-9.46335
▁Category	-9.46364
rt	-9.46373
▁During	-9.46417
▁concerned	-9.4655
▁ver	-9.4655
▁facilities	-9.46618
▁load	-9.46622
▁View	-9.46673
▁Service	-9.46697
▁cultural	-9.46703
▁giving	-9.46789
▁active	-9.46825
▁wrote	-9.46831
▁idea	-9.46999
▁easy	-9.47002
▁gain	-9.47023
ama	-9.4704
▁grow	-9.47103
▁increased	-9.47119
External	-9.47163
▁fe	-9.47194
▁status	-9.47214
ack	-9.47243
▁effective	-9.47312
▁forms	-9.47392
▁Bal	-9.47434
▁Bar	-9.47435
▁caused	-9.47437
▁details	-9.47512
▁spend	-9.47547
▁central	-9.47613
▁24	-9.47681
▁reached	-9.47777
rd	-9.47847
▁rules	-9.47936
ists	-9.47939
▁infrastructure	-9.47943
AT	-9.47961
▁While	-9.48029
▁manifest	-9.48115
▁North	-9.48195
▁perform	-9.48247
▁Br	-9.48269
▁game	-9.48311
▁ship	-9.48327
▁International	-9.4833
fa	-9.48505
▁legal	-9.48549
ps	-9.48657
▁civil	-9.48707
▁Hereafter	-9.4872
▁influence	-9.4872
▁prescribed	-9.48806
▁began	-9.48947
▁cut	-9.4902
▁thereof	-9.49088
▁card	-9.49149
▁groups	-9.49224
lin	-9.49234
vis	-9.49328
ency	-9.49342
▁harm	-9.49363
▁fi	-9.49365
▁rather	-9.49506
▁American	-9.49574
nch	-9.49581
▁obey	-9.49639
▁oil	-9.49702
▁room	-9.49746
▁default	-9.49765
ava	-9.49771
▁Time	-9.49772
▁contract	-9.49871
▁instead	-9.49897
▁Rama	-9.49922
rid	-9.50017
▁March	-9.50033
▁Bi	-9.50045
▁par	-9.50141
▁cast	-9.50164
▁IN	-9.50173
▁site	-9.50289
▁justice	-9.50294
tter	-9.50318
▁root	-9.50324
istic	-9.50334
▁unless	-9.50354
▁base	-9.5066
▁yourselves	-9.50689
ned	-9.50712
▁forgive	-9.50746
▁build	-9.50858
▁beyond	-9.50866
▁Maha	-9.50939
tha	-9.50962
RE	-9.51134
▁importance	-9.51175
right	-9.51201
▁values	-9.5126
ces	-9.51347
bha	-9.51461
cept	-9.51467
▁enjoy	-9.51483
▁belongs	-9.51624
▁object	-9.51812
▁responsible	-9.51845
▁film	-9.51898
▁Of	-9.52006
▁shown	-9.52031
▁beginning	-9.52036
▁sky	-9.52141
▁heaven	-9.52167
▁watch	-9.52205
ep	-9.52217
cl	-9.52218
▁conduct	-9.52223
▁ge	-9.52376
ries	-9.52426
▁lie	-9.52437
▁places	-9.52622
▁content	-9.5266
ome	-9.5279
],	-9.52835
▁programmes	-9.52846
meter	-9.53005
▁serve	-9.53025
lit	-9.53039
sk	-9.53058
▁folk	-9.53111
▁para	-9.53114
▁session	-9.53197
ali	-9.53214
▁permission	-9.53264
▁El	-9.53271
▁listen	-9.53303
dar	-9.53445
▁maintain	-9.53468
▁bit	-9.53541
ric	-9.53799
▁Hell	-9.53805
▁product	-9.53819
▁remove	-9.53833
16	-9.53861
▁balance	-9.53878
▁learn	-9.53886
▁dispute	-9.53888
▁advance	-9.53925
▁stay	-9.54008
▁reflect	-9.54015
ung	-9.54046
▁vision	-9.54103
▁spiritual	-9.54121
hara	-9.54257
▁wind	-9.54267
▁says	-9.54353
mp	-9.54409
▁article	-9.54419
▁returned	-9.54459
uck	-9.5447
▁Other	-9.54523
▁Ya	-9.54526
▁male	-9.54537
▁placed	-9.54672
▁password	-9.54706
▁Failed	-9.54749
▁potential	-9.54795
▁eye	-9.54878
▁seed	-9.54891
med	-9.54922
▁bad	-9.54927
▁walk	-9.54986
▁exceed	-9.55118
▁forest	-9.55125
▁cap	-9.55137
▁y	-9.55167
▁setting	-9.5529
▁appeal	-9.55303
▁treatment	-9.5541
▁step	-9.5546
tru	-9.55488
thi	-9.55597
▁Bill	-9.55605
if	-9.55684
▁version	-9.55769
▁practice	-9.55798
This	-9.55865
▁addition	-9.55977
▁round	-9.56192
▁heard	-9.56261
▁understanding	-9.56311
▁def	-9.56327
▁Pat	-9.56483
▁range	-9.56523
▁Sp	-9.56546
▁code	-9.56557
▁thousand	-9.56622
▁quite	-9.5668
▁collection	-9.56814
▁Research	-9.56841
ada	-9.56913
▁traditional	-9.56969
▁Gujarat	-9.56982
▁becomes	-9.57053
▁Are	-9.57129
▁organisation	-9.57132
▁model	-9.57136
▁option	-9.57138
▁Quran	-9.57142
ind	-9.57151
▁Evolution	-9.57218
▁gone	-9.57238
pro	-9.57281
under	-9.57291
▁asset	-9.5731
▁servants	-9.57342
su	-9.57437
▁ki	-9.57445
▁expression	-9.57478
▁labour	-9.57549
▁praise	-9.5759
▁unjust	-9.57596
▁dance	-9.57597
▁existing	-9.57603
▁rivers	-9.57621
pp	-9.57629
▁correct	-9.57645
▁Bharat	-9.57675
ising	-9.5778
gh	-9.57844
lam	-9.57886
▁added	-9.57913
▁news	-9.57991
▁friend	-9.57997
mark	-9.58045
▁lies	-9.58056
▁existence	-9.58091
uch	-9.58131
▁Set	-9.58208
log	-9.58258
▁charge	-9.58276
▁promote	-9.58406
pl	-9.58407
▁activity	-9.58461
▁Fi	-9.58489
▁white	-9.58497
▁ju	-9.58503
▁pe	-9.58504
▁communication	-9.58548
▁parents	-9.58559
▁Up	-9.58563
▁Many	-9.58665
▁r	-9.58713
ify	-9.58722
▁rise	-9.5877
▁War	-9.58843
▁cor	-9.58849
▁US	-9.58879
▁establish	-9.58915
▁Pakistan	-9.58931
▁System	-9.58979
▁Si	-9.59139
▁drink	-9.59259
▁agricultural	-9.59316
▁request	-9.59423
▁Shi	-9.59431
nder	-9.59603
mar	-9.59607
▁employment	-9.59622
▁log	-9.59622
▁mental	-9.59624
▁cha	-9.59696
▁gr	-9.59762
▁link	-9.5979
▁Car	-9.59831
side	-9.59839
▁black	-9.601
▁week	-9.60112
▁mean	-9.60187
▁cell	-9.60226
▁citizens	-9.60243
▁Sur	-9.60309
sur	-9.60362
mu	-9.6038
▁pain	-9.60604
▁anti	-9.60635
▁concerning	-9.60666
with	-9.60675
▁Search	-9.60679
▁goes	-9.60686
▁taste	-9.60776
▁Cha	-9.61034
▁reference	-9.61104
▁felt	-9.61126
not	-9.6115
▁languages	-9.61198
xi	-9.61291
over	-9.61292
▁knew	-9.61318
pu	-9.61369
▁plus	-9.61379
▁Kar	-9.61413
▁Create	-9.61415
▁getting	-9.61419
▁red	-9.6147
▁format	-9.61481
▁goal	-9.61506
▁touch	-9.6152
▁presented	-9.61567
▁moment	-9.61604
ock	-9.61621
▁parties	-9.61682
▁Therefore	-9.61705
▁trans	-9.61706
▁running	-9.61784
▁opinion	-9.61804
ates	-9.619
bal	-9.61967
▁learning	-9.61991
ier	-9.62005
▁generation	-9.62026
emp	-9.62034
▁wise	-9.62082
▁Resurrection	-9.62101
▁aware	-9.62149
▁fixed	-9.62278
ko	-9.62312
kha	-9.62333
▁Krishna	-9.62349
mal	-9.62381
▁ones	-9.62451
▁21	-9.62459
bb	-9.62487
af	-9.62518
▁Gra	-9.62526
▁Sam	-9.62605
▁note	-9.62632
bit	-9.6266
▁Tra	-9.62813
▁happen	-9.62847
Allah	-9.62946
▁Europe	-9.6297
▁extend	-9.62978
▁secure	-9.62997
▁connect	-9.6307
wan	-9.63079
▁mar	-9.63079
▁sale	-9.6309
▁warm	-9.63093
▁Copy	-9.63197
▁Mon	-9.63218
▁verses	-9.63229
In	-9.63349
▁names	-9.63363
▁green	-9.63398
lig	-9.63403
▁ob	-9.63412
▁colour	-9.63498
▁department	-9.63577
▁ago	-9.6358
▁mentioned	-9.63614
▁Why	-9.63638
▁Sc	-9.63702
▁br	-9.63742
▁novel	-9.63762
▁possess	-9.63827
▁generally	-9.63859
▁painful	-9.63864
▁wanted	-9.63894
▁carry	-9.63928
bil	-9.63947
▁Inter	-9.63982
▁lay	-9.63999
ctor	-9.64049
▁Pe	-9.64054
▁police	-9.64102
IR	-9.64156
▁usually	-9.64199
oo	-9.6429
▁produced	-9.64292
dha	-9.64309
ue	-9.64313
▁responsibility	-9.64406
▁plain	-9.64407
▁destroyed	-9.64541
▁Folder	-9.64609
light	-9.64726
ction	-9.64728
▁sight	-9.64806
ological	-9.64866
▁immediately	-9.64927
▁Today	-9.65002
▁fish	-9.65087
uri	-9.6516
▁Supreme	-9.65169
▁organ	-9.65191
▁severe	-9.65202
rn	-9.65471
iya	-9.65474
▁presence	-9.65478
▁According	-9.65527
▁tried	-9.65547
▁associated	-9.65578
▁won	-9.65695
▁formed	-9.65708
▁associate	-9.65733
▁ideal	-9.65758
▁wishes	-9.65766
rr	-9.65839
▁Kashmir	-9.65887
▁Enter	-9.65919
▁item	-9.66038
▁cur	-9.66118
▁accounts	-9.66225
▁Kan	-9.66246
▁Science	-9.66248
▁dream	-9.66248
▁cross	-9.66249
▁blind	-9.66351
▁draw	-9.66447
▁opportunities	-9.66506
▁avoid	-9.66508
ix	-9.66734
▁Office	-9.66815
▁ways	-9.66815
▁significant	-9.66817
▁continued	-9.66842
anda	-9.66979
▁31	-9.66983
▁medical	-9.67185
▁moon	-9.67235
▁poetry	-9.67286
▁serious	-9.6734
▁fine	-9.67351
▁weak	-9.67398
▁Trans	-9.67412
▁join	-9.67437
▁expenditure	-9.67495
▁struggle	-9.67495
▁King	-9.67504
▁performance	-9.67542
11	-9.67572
▁belong	-9.6758
▁famous	-9.676
ED	-9.67718
▁Tri	-9.67733
▁Min	-9.67746
▁animals	-9.67765
▁ideas	-9.67814
▁forgiveness	-9.67815
▁ja	-9.67822
▁pure	-9.67837
▁feet	-9.67847
▁Islamic	-9.67879
▁Explanation	-9.67967
▁industries	-9.68019
▁companies	-9.68019
▁regarding	-9.68028
▁lu	-9.68044
▁beautiful	-9.68072
▁degree	-9.68088
▁Yet	-9.68112
▁anyone	-9.68141
▁scientific	-9.6823
own	-9.68321
▁youth	-9.6836
▁Shah	-9.68446
▁origin	-9.68551
▁enable	-9.68568
▁exercise	-9.68599
▁procedure	-9.68599
cus	-9.68692
▁exist	-9.68745
▁calendar	-9.68758
▁Provided	-9.68808
▁houses	-9.68854
▁Wise	-9.68874
▁reject	-9.68881
dal	-9.68951
▁final	-9.68971
▁Any	-9.69007
ea	-9.69025
▁assistance	-9.69106
til	-9.69111
▁increasing	-9.69129
▁directory	-9.69145
kh	-9.69153
▁particularly	-9.69198
He	-9.69203
▁concept	-9.69213
▁normal	-9.69261
▁bill	-9.69282
▁occur	-9.69292
▁revelations	-9.693
▁punish	-9.69373
▁press	-9.69424
▁workers	-9.69446
▁attain	-9.69593
▁ON	-9.69614
res	-9.69645
▁Address	-9.69719
▁pray	-9.69724
vel	-9.69871
▁joint	-9.69889
read	-9.69892
▁station	-9.69933
▁piece	-9.69984
▁supply	-9.70037
pen	-9.70081
▁email	-9.70252
▁software	-9.70253
▁Group	-9.70305
▁successful	-9.70456
▁units	-9.70499
▁journey	-9.70574
▁plants	-9.70586
▁attempt	-9.70628
▁relevant	-9.70628
hal	-9.70646
▁Thou	-9.70707
▁proper	-9.70728
▁forces	-9.70762
ris	-9.70774
▁essential	-9.70783
▁select	-9.7085
hat	-9.70915
▁powers	-9.7092
▁Which	-9.70953
▁fully	-9.71027
▁Import	-9.71062
▁symbol	-9.71062
▁contains	-9.71095
▁sha	-9.71117
▁granted	-9.71124
▁accordance	-9.71129
▁fruit	-9.71189
▁relation	-9.71227
cy	-9.71259
▁Only	-9.7126
0	-9.71383
▁drive	-9.71415
▁team	-9.71445
▁strengthen	-9.71458
▁laid	-9.71482
SS	-9.71509
▁2000	-9.71621
▁media	-9.71632
ID	-9.71633
ient	-9.71688
▁takes	-9.71696
▁concern	-9.71702
▁mi	-9.71808
▁perhaps	-9.71822
▁Tamil	-9.71823
mor	-9.71842
▁release	-9.71864
▁Out	-9.7188
▁limited	-9.71894
▁administration	-9.71932
name	-9.71955
▁former	-9.71997
▁minister	-9.72041
▁Start	-9.7205
eration	-9.72109
▁feeling	-9.72149
▁memo	-9.72182
▁Guru	-9.7227
▁Du	-9.7231
iz	-9.7234
▁Truth	-9.7237
▁location	-9.72385
X	-9.7239
▁Last	-9.72404
▁Calcutta	-9.72425
▁speed	-9.72488
izing	-9.72496
▁machine	-9.72504
▁chief	-9.72535
unt	-9.72556
▁writer	-9.72576
▁limit	-9.72591
▁Will	-9.72631
▁picture	-9.727
▁includes	-9.72758
▁stop	-9.7277
▁husband	-9.7281
▁target	-9.7281
▁agriculture	-9.72865
▁aim	-9.72899
▁appear	-9.72959
▁choose	-9.72982
);	-9.73
aka	-9.7304
▁January	-9.73096
▁banks	-9.73128
ral	-9.73152
▁supported	-9.73155
▁centre	-9.73194
▁Bu	-9.73245
verse	-9.73279
gin	-9.73308
▁north	-9.73495
▁memory	-9.73505
▁sell	-9.73611
▁exc	-9.73615
ew	-9.73623
▁regular	-9.73642
▁convey	-9.73646
▁risk	-9.73708
hood	-9.73773
ou	-9.73789
▁Ver	-9.739
▁profit	-9.73909
▁Pharaoh	-9.73979
▁proceed	-9.74016
uk	-9.74018
▁directly	-9.74049
▁table	-9.74207
▁sufficient	-9.74241
▁standard	-9.74274
▁Enable	-9.74352
▁consideration	-9.74369
▁tool	-9.74372
▁voice	-9.74422
▁Sal	-9.7447
▁cities	-9.74503
▁effort	-9.74534
▁middle	-9.74535
▁conf	-9.74548
▁relative	-9.74591
▁Change	-9.74651
ek	-9.7469
▁weight	-9.74743
▁win	-9.74802
▁Ru	-9.74832
▁Mumbai	-9.74871
▁relationship	-9.74942
▁door	-9.75035
tta	-9.75058
▁guard	-9.75246
▁quot	-9.75297
You	-9.7532
▁hill	-9.7533
▁portion	-9.75368
▁length	-9.75379
▁denied	-9.75381
▁grace	-9.75416
▁begin	-9.7544
ulation	-9.75476
▁covered	-9.75503
▁Lok	-9.75552
▁expect	-9.75641
▁attention	-9.7567
rat	-9.75705
▁master	-9.75744
▁mountains	-9.75816
▁pleasure	-9.75833
▁da	-9.75852
▁inside	-9.75905
▁looking	-9.75928
▁Ni	-9.75929
▁Power	-9.76017
▁al	-9.76064
▁changed	-9.76067
cha	-9.76128
ped	-9.76132
▁Ab	-9.76164
▁store	-9.76172
▁fit	-9.76217
▁award	-9.76264
nath	-9.76398
▁shape	-9.76431
II	-9.76432
▁count	-9.76455
▁waste	-9.76474
▁Management	-9.76517
▁mutual	-9.76521
▁sat	-9.76764
▁Abraham	-9.7686
09	-9.76862
▁cooperation	-9.77091
from	-9.77144
▁solution	-9.77149
▁Children	-9.77207
▁23	-9.77269
yn	-9.77285
▁construction	-9.7738
▁attend	-9.77403
▁script	-9.77495
▁promised	-9.77505
▁Fund	-9.7752
▁See	-9.77531
▁Sun	-9.77542
▁milk	-9.77559
▁highest	-9.77618
▁match	-9.77644
▁discussion	-9.77659
▁assets	-9.7767
▁largest	-9.77681
▁south	-9.77779
▁Forgiving	-9.77784
▁straight	-9.77843
▁else	-9.77901
▁skin	-9.77912
▁figure	-9.7794
cular	-9.78012
ON	-9.78074
▁min	-9.78076
▁Image	-9.78077
▁AND	-9.78242
▁purchase	-9.78249
▁innovation	-9.78308
lk	-9.78398
▁protection	-9.78416
ake	-9.78482
▁IT	-9.78506
▁Home	-9.78529
▁chastisement	-9.78554
TH	-9.78561
▁Move	-9.78562
▁extent	-9.78563
▁percent	-9.78585
▁marriage	-9.78599
vation	-9.7861
▁22	-9.78616
▁Ran	-9.7864
▁wait	-9.78654
▁custom	-9.78697
▁twenty	-9.78716
nc	-9.78717
fer	-9.78772
▁leg	-9.78851
▁festival	-9.78892
CE	-9.79001
▁pattern	-9.79009
▁stream	-9.79009
▁gods	-9.79042
▁contain	-9.79088
▁Hindus	-9.79089
▁official	-9.79152
▁sons	-9.79197
▁Western	-9.79199
▁systems	-9.79299
▁26	-9.79484
▁opened	-9.79548
▁someone	-9.79555
▁Edit	-9.79578
▁implementation	-9.79598
▁qu	-9.79612
ef	-9.79664
ING	-9.79709
com	-9.79723
▁advice	-9.79774
▁deemed	-9.79776
▁measures	-9.79806
▁longer	-9.79834
fo	-9.79885
▁enemy	-9.79893
ets	-9.79903
lf	-9.79905
▁connected	-9.79916
▁proof	-9.79963
ken	-9.8
▁hours	-9.80007
▁Over	-9.80076
▁Khan	-9.80131
▁appropriate	-9.80133
▁28	-9.80151
▁Am	-9.80164
▁villages	-9.80189
▁June	-9.80208
▁officers	-9.80266
▁steps	-9.80287
html	-9.80352
▁European	-9.80398
▁December	-9.80429
▁gas	-9.80465
▁Well	-9.8048
aw	-9.80484
▁Tax	-9.8055
“	-9.80575
!"	-9.80605
It	-9.80709
01	-9.80772
time	-9.80782
▁violence	-9.80785
▁damage	-9.80801
ika	-9.80848
▁association	-9.80964
▁Delete	-9.80971
ular	-9.80988
▁tea	-9.81054
▁net	-9.81086
My	-9.81137
▁Fe	-9.81187
▁benefits	-9.81247
eep	-9.81258
▁attract	-9.81293
▁Men	-9.81311
▁included	-9.81368
▁channel	-9.81384
▁complex	-9.81444
▁tri	-9.81482
▁ri	-9.81531
▁deduction	-9.81557
▁completed	-9.81659
▁height	-9.81723
ancy	-9.81745
▁habit	-9.81759
And	-9.81784
▁played	-9.81815
▁unique	-9.81866
▁entered	-9.81898
▁burden	-9.81926
▁nine	-9.81937
iff	-9.81946
▁standing	-9.81986
▁educational	-9.81997
▁belief	-9.82059
ese	-9.82109
What	-9.82145
▁Bihar	-9.82194
▁response	-9.8241
ved	-9.8242
▁leading	-9.82421
▁trial	-9.82506
▁species	-9.82607
▁otherwise	-9.82616
▁Kha	-9.82655
IL	-9.8266
iii	-9.8267
▁PM	-9.82833
▁Free	-9.82839
▁wage	-9.82848
▁Chandra	-9.82929
▁hour	-9.82934
▁democracy	-9.82958
▁raise	-9.83073
pect	-9.83127
▁prop	-9.83138
CC	-9.83167
▁saved	-9.83185
acy	-9.83318
var	-9.83326
50	-9.83435
pha	-9.83561
▁doers	-9.83585
▁27	-9.83615
pal	-9.83664
▁rank	-9.83677
▁Text	-9.83696
▁fill	-9.83725
▁distance	-9.83755
▁commit	-9.83758
rous	-9.83805
▁domestic	-9.83816
▁apart	-9.83849
▁sister	-9.83898
▁bond	-9.83951
▁cat	-9.84004
▁annual	-9.84009
▁ready	-9.84025
EC	-9.84104
▁technical	-9.84124
▁Finance	-9.84125
▁foot	-9.84151
▁minus	-9.84177
▁storage	-9.84186
itis	-9.84317
▁hospital	-9.84372
▁Policy	-9.84372
▁buy	-9.84375
path	-9.84375
▁documents	-9.84389
▁plugin	-9.84433
▁cre	-9.84457
▁80	-9.84485
▁First	-9.84538
▁Ti	-9.84552
▁stock	-9.84589
az	-9.84603
30	-9.84658
gal	-9.84791
▁moral	-9.84832
▁Post	-9.84881
▁stories	-9.84889
▁laws	-9.84919
▁Law	-9.84927
gue	-9.84939
▁3.	-9.8501
bul	-9.85027
▁sides	-9.85116
▁Messengers	-9.85157
▁wa	-9.85158
▁Pu	-9.85224
▁items	-9.85241
▁Language	-9.85304
▁mass	-9.85343
▁Remove	-9.85367
▁located	-9.85367
▁powerful	-9.85408
▁types	-9.85443
▁fr	-9.85479
▁surface	-9.85495
▁faces	-9.85536
▁Pur	-9.85561
▁2014	-9.85579
▁screen	-9.85618
If	-9.85627
▁km	-9.85653
aya	-9.85667
ev	-9.85698
jan	-9.85749
▁October	-9.85813
▁debt	-9.85822
tric	-9.85845
▁useful	-9.85868
▁safe	-9.85962
dia	-9.85977
▁numbers	-9.86017
▁heavy	-9.86059
hra	-9.86097
▁sins	-9.86107
▁commercial	-9.8612
▁customer	-9.86204
▁employees	-9.86226
▁partners	-9.86236
▁argument	-9.86246
low	-9.86255
ole	-9.86263
▁leader	-9.86336
Q	-9.8637
ography	-9.86422
▁achieve	-9.86424
mukherjee	-9.86435
▁auto	-9.8648
▁Arab	-9.86495
pranab	-9.86498
▁title	-9.86521
▁replace	-9.86542
▁recent	-9.86608
▁Nor	-9.86629
05	-9.86706
▁convert	-9.86742
▁ce	-9.86788
ened	-9.86796
try	-9.86803
▁knowing	-9.8683
AC	-9.86832
▁Corporation	-9.86879
▁Rec	-9.86913
▁drop	-9.87014
▁funds	-9.8702
▁rock	-9.87043
▁Assembly	-9.87069
▁growing	-9.8711
▁Here	-9.87112
▁mighty	-9.87187
lar	-9.87194
▁valid	-9.87198
▁deliver	-9.87268
▁sur	-9.87408
▁Nehru	-9.87452
fully	-9.87524
▁40	-9.87561
60	-9.87575
▁external	-9.87643
my	-9.87645
▁discover	-9.8766
▁Hu	-9.87671
▁staff	-9.87712
▁0.	-9.87726
▁succeed	-9.87771
io	-9.87782
lay	-9.87844
▁Programme	-9.87937
▁sacrifice	-9.87964
ibility	-9.8803
▁block	-9.88062
▁SAW	-9.88092
▁adopted	-9.88103
▁kill	-9.88183
▁divine	-9.88221
▁teaching	-9.88324
17	-9.88382
hold	-9.88449
▁Contact	-9.88543
wer	-9.88616
▁officer	-9.88621
▁recompense	-9.88672
▁enhance	-9.88672
▁hearing	-9.88687
▁Satan	-9.8869
esh	-9.88692
▁notification	-9.88704
▁committed	-9.88705
▁improve	-9.88817
▁ban	-9.88845
▁treat	-9.88876
▁animal	-9.88924
▁divided	-9.88949
▁update	-9.88955
▁Exp	-9.88985
oth	-9.8901
▁gardens	-9.89056
▁string	-9.89062
▁operations	-9.89126
▁shows	-9.89177
▁che	-9.89181
tract	-9.89185
▁named	-9.89217
▁CD	-9.89245
▁involved	-9.89268
▁Tu	-9.8936
▁contained	-9.89363
▁square	-9.89366
▁Bombay	-9.89385
ey	-9.89408
▁Secretary	-9.89458
▁engaged	-9.89469
EN	-9.8952
▁reading	-9.89579
▁Chairman	-9.89591
RA	-9.89604
▁conv	-9.89652
▁declared	-9.89725
▁avail	-9.89765
▁Air	-9.89789
▁stated	-9.89847
▁cash	-9.89852
▁gather	-9.89865
▁payable	-9.89872
▁Ri	-9.89895
▁nations	-9.89897
▁September	-9.89956
br	-9.90023
mat	-9.90068
other	-9.90118
▁destroy	-9.90191
▁Print	-9.90254
▁Conference	-9.90309
ATION	-9.90314
ump	-9.9035
uring	-9.90452
▁independent	-9.9047
tem	-9.90507
gro	-9.90507
▁policies	-9.90761
▁volume	-9.90894
▁Uttar	-9.90894
▁entry	-9.90916
▁China	-9.90971
▁Send	-9.91012
▁registered	-9.91039
▁November	-9.91056
▁military	-9.91092
ace	-9.91172
▁Ban	-9.91224
por	-9.91299
soever	-9.91361
For	-9.91403
▁review	-9.91457
▁functions	-9.91482
▁Window	-9.9149
▁cloud	-9.9149
▁Path	-9.9151
▁Op	-9.91534
▁amongst	-9.91568
cation	-9.91576
▁caste	-9.91577
ati	-9.91579
▁(%	-9.9164
mate	-9.917
▁Nath	-9.91703
▁gl	-9.91735
07	-9.91803
▁average	-9.91825
▁appointment	-9.91889
zi	-9.9192
AS	-9.91963
▁warning	-9.91995
▁print	-9.92001
▁Unto	-9.92006
▁favor	-9.9209
aging	-9.92103
▁seem	-9.92125
▁developing	-9.92141
▁families	-9.92157
▁confirm	-9.92233
▁Shar	-9.92337
▁refuge	-9.92492
▁fee	-9.92528
▁Part	-9.92529
6	-9.92545
▁Assam	-9.92639
▁thinking	-9.92696
▁track	-9.92842
▁doctor	-9.92884
▁fathers	-9.92929
▁reform	-9.92933
▁bow	-9.93053
▁rid	-9.93067
▁undertaking	-9.93098
ature	-9.93118
▁Pi	-9.93127
▁1,	-9.93141
▁aid	-9.93233
ific	-9.93245
▁submit	-9.93246
▁Exchange	-9.93301
▁sometimes	-9.93303
▁results	-9.93392
▁circumstances	-9.93436
▁micro	-9.93491
▁exists	-9.9353
▁lived	-9.93547
vas	-9.93554
▁cells	-9.93557
▁division	-9.93585
▁render	-9.93616
atory	-9.93619
".	-9.93685
▁helped	-9.93692
▁additional	-9.93698
▁expressed	-9.9371
▁reserve	-9.93748
▁Para	-9.93829
▁academic	-9.93844
▁button	-9.93858
▁processing	-9.93859
▁publication	-9.93872
▁schemes	-9.93889
▁Nay	-9.93919
▁trees	-9.93985
▁fla	-9.94025
▁skill	-9.94049
▁Check	-9.9406
▁evening	-9.94091
▁Paradise	-9.94181
tent	-9.94231
▁Gandhiji	-9.94285
ST	-9.9439
▁expand	-9.94446
▁invest	-9.94453
▁mention	-9.94466
▁challenge	-9.94477
▁Punjab	-9.94504
app	-9.94536
▁Kerala	-9.94595
▁season	-9.94635
▁ball	-9.94665
▁2007	-9.94682
▁fruits	-9.94708
▁(3)	-9.94742
▁proposal	-9.94801
▁utter	-9.94811
▁August	-9.94838
▁URL	-9.9487
▁Mission	-9.94871
▁assist	-9.95032
▁remained	-9.95049
▁variety	-9.95076
▁truly	-9.9508
▁Sign	-9.95114
▁box	-9.95114
▁str	-9.95135
SE	-9.95154
▁AT	-9.95182
▁hide	-9.95192
▁temples	-9.9523
▁consciousness	-9.95246
▁column	-9.95283
▁taught	-9.95295
▁arrangement	-9.95336
▁Art	-9.95387
Muhammad	-9.95394
▁explain	-9.95406
▁mouth	-9.95422
▁foundation	-9.95456
▁conflict	-9.9556
▁affect	-9.95616
▁difference	-9.95634
teen	-9.95665
▁graph	-9.95693
nes	-9.95771
▁Port	-9.95774
graph	-9.95784
▁sort	-9.95792
ata	-9.9587
▁objective	-9.96044
▁egg	-9.96087
▁leaves	-9.96111
▁component	-9.96115
▁frame	-9.96167
▁manufacture	-9.96185
▁achievement	-9.96235
▁soil	-9.96267
▁Knowing	-9.96309
▁killed	-9.96314
▁Roy	-9.96428
▁edit	-9.9644
▁rejected	-9.96445
▁professional	-9.96449
▁messengers	-9.96484
▁dated	-9.96557
▁ST	-9.96605
▁opening	-9.96613
▁2015	-9.96658
▁events	-9.96683
▁terrorism	-9.96689
▁extended	-9.967
pat	-9.96744
▁Also	-9.96795
▁School	-9.96814
che	-9.96874
▁wives	-9.96889
▁2006	-9.96901
▁seems	-9.96929
lation	-9.97017
▁false	-9.97019
ov	-9.9703
▁needed	-9.97043
▁chosen	-9.97086
▁proud	-9.97168
▁standards	-9.97169
▁partnership	-9.97178
▁web	-9.97207
fu	-9.97247
MS	-9.97248
▁indicate	-9.97265
▁River	-9.9741
ming	-9.97427
▁suffer	-9.97542
▁lack	-9.97547
▁Char	-9.97548
8	-9.97548
▁star	-9.97622
▁sleep	-9.97659
▁advantage	-9.97729
▁Pri	-9.97732
▁distribution	-9.978
Do	-9.97822
▁perfect	-9.9792
▁remote	-9.97943
▁slave	-9.97943
▁messenger	-9.97992
▁fields	-9.98021
▁Ali	-9.98034
▁double	-9.98087
▁July	-9.98104
ched	-9.98153
▁joy	-9.98156
▁medium	-9.98156
▁Chi	-9.98204
▁whosoever	-9.98209
lies	-9.98221
▁adult	-9.98227
▁likely	-9.98266
▁burn	-9.98266
▁u	-9.98271
▁Mal	-9.98287
▁District	-9.98368
▁trying	-9.98374
▁bio	-9.98417
▁earned	-9.98438
▁Great	-9.9844
▁suit	-9.98457
▁series	-9.98508
▁refers	-9.98628
▁Division	-9.98662
▁described	-9.98724
gan	-9.98831
▁desires	-9.98837
▁glad	-9.98837
▁organization	-9.98894
rang	-9.98903
▁elements	-9.98909
ators	-9.98913
▁destination	-9.98939
03	-9.98949
bin	-9.98999
▁2005	-9.9904
▁gold	-9.99069
▁60	-9.99087
▁reveal	-9.99088
▁wear	-9.99101
▁truthful	-9.99201
▁Maharashtra	-9.99226
yo	-9.99227
▁questions	-9.9924
▁Ganga	-9.9927
▁independence	-9.99298
7	-9.99347
▁broad	-9.99456
▁battle	-9.99595
ura	-9.99725
2019	-9.99749
▁Had	-9.99784
▁larger	-9.99794
▁input	-9.99812
▁train	-9.99845
▁abroad	-9.99875
gri	-9.99916
▁Rajasthan	-9.99947
▁Sim	-9.99949
▁su	-9.99963
▁observed	-9.99978
▁forget	-9.99982
▁shares	-9.99996
▁cattle	-10.0003
atic	-10.0007
▁fail	-10.0007
▁element	-10.0012
▁context	-10.0017
18	-10.0021
▁holding	-10.0023
▁Certificate	-10.0031
▁borrow	-10.0031
▁Ke	-10.0031
▁1961	-10.0033
▁expected	-10.0038
▁“”	-10.0039
▁output	-10.0064
▁ka	-10.0073
ban	-10.0074
▁dust	-10.0077
▁remains	-10.0077
▁board	-10.0078
▁hell	-10.008
▁Tagore	-10.0082
▁empty	-10.0089
rah	-10.009
▁vast	-10.0094
▁images	-10.0096
▁welcome	-10.0096
▁tidings	-10.0097
▁transport	-10.0097
▁phase	-10.0097
▁Wi	-10.0099
Our	-10.0103
▁lines	-10.0109
▁Em	-10.0118
▁Type	-10.0118
14	-10.0124
▁Raja	-10.0132
▁resolution	-10.0133
▁introduced	-10.0137
06	-10.0139
▁2013	-10.014
▁determined	-10.014
▁online	-10.0141
▁launched	-10.0143
RO	-10.0145
▁comment	-10.0148
▁defined	-10.0151
▁hidden	-10.0155
pho	-10.0157
eries	-10.0162
dhi	-10.0168
hor	-10.0171
▁wisdom	-10.0177
▁Force	-10.0179
▁friendly	-10.0183
▁Description	-10.0187
▁clearly	-10.0192
▁withdraw	-10.0193
▁fellow	-10.0193
▁consumer	-10.0201
▁crops	-10.0203
▁tend	-10.0206
].	-10.0207
▁causes	-10.0208
▁representative	-10.0223
▁majority	-10.0227
▁alter	-10.023
▁poems	-10.0235
▁removed	-10.0236
▁2008	-10.0238
ok	-10.0238
LE	-10.0243
No	-10.0244
ically	-10.0259
▁looked	-10.0259
▁February	-10.0261
▁font	-10.0261
▁crop	-10.0264
tom	-10.0265
▁Because	-10.0266
▁ID	-10.0267
▁Nepal	-10.0275
▁poverty	-10.0281
ker	-10.0285
titude	-10.0286
▁teachers	-10.0293
▁description	-10.0293
▁Ac	-10.0294
shed	-10.0294
▁Sir	-10.0299
▁Akbar	-10.0303
rry	-10.0304
▁fresh	-10.0304
▁safety	-10.0307
▁cave	-10.0307
▁literary	-10.0311
▁arm	-10.0311
▁Ve	-10.0313
▁throughout	-10.0313
▁rupees	-10.0315
▁spent	-10.0315
▁impact	-10.0315
▁maximum	-10.0327
▁reduce	-10.033
▁gate	-10.0334
▁died	-10.034
fl	-10.0341
▁Though	-10.035
raj	-10.0359
jo	-10.036
body	-10.0361
▁ourselves	-10.0363
▁easily	-10.0363
▁beauty	-10.0363
mination	-10.0363
▁urge	-10.0365
rri	-10.037
▁Mahatma	-10.0371
▁instance	-10.0372
EM	-10.0373
▁initial	-10.0379
AD	-10.0379
▁army	-10.0382
▁Water	-10.0386
▁strike	-10.0394
▁restrict	-10.0394
▁translation	-10.0394
▁pressure	-10.0397
ME	-10.0398
▁philosophy	-10.0401
cap	-10.0406
▁studies	-10.0416
▁reply	-10.0416
▁delivered	-10.0423
▁universal	-10.0423
▁breast	-10.0424
fect	-10.0426
▁Date	-10.0427
▁confidence	-10.0438
_	-10.0442
ini	-10.0442
▁Key	-10.0442
ffi	-10.0446
▁partner	-10.045
▁phone	-10.0455
some	-10.0458
long	-10.0466
ties	-10.0472
▁bla	-10.0472
▁II	-10.0473
▁affairs	-10.0475
ough	-10.0475
▁29	-10.0479
▁era	-10.0483
▁assigned	-10.0483
▁positive	-10.0484
load	-10.0494
▁Data	-10.0498
▁interests	-10.0501
▁moving	-10.0505
▁Color	-10.0506
▁songs	-10.0507
▁dark	-10.0511
▁vital	-10.0513
late	-10.0521
lock	-10.0521
▁Display	-10.0522
▁sculpture	-10.0522
▁offered	-10.0524
▁establishment	-10.0526
▁medicine	-10.053
▁horse	-10.053
▁Qur	-10.0533
▁worked	-10.0536
▁greatest	-10.0544
▁disbelieved	-10.0546
▁obtain	-10.0551
▁border	-10.0552
▁pair	-10.0554
▁hi	-10.0578
▁manager	-10.0582
▁promotion	-10.0583
▁unity	-10.0592
▁Mah	-10.0604
▁History	-10.0612
▁em	-10.0616
▁Network	-10.0622
▁Health	-10.0623
▁approved	-10.0624
vid	-10.0627
▁dry	-10.0643
▁Ph	-10.0645
▁examination	-10.0645
▁Both	-10.0646
▁Special	-10.0652
▁petitioner	-10.0653
comp	-10.0654
ong	-10.0658
▁covenant	-10.066
▁mission	-10.0661
▁launch	-10.0673
▁encourage	-10.0673
▁garden	-10.0676
04	-10.0677
▁prison	-10.0683
lum	-10.0684
▁girl	-10.0685
▁Col	-10.0688
▁yield	-10.0691
▁gift	-10.0691
▁recommend	-10.0697
▁brothers	-10.0698
▁inherit	-10.0699
▁Social	-10.0705
▁Services	-10.0708
▁Bengali	-10.0713
▁Default	-10.0714
▁decide	-10.0715
▁User	-10.0718
je	-10.0719
▁bri	-10.072
▁afflict	-10.0722
des	-10.0725
▁minor	-10.0727
▁Google	-10.073
▁replied	-10.073
▁forbidden	-10.0731
kan	-10.0731
08	-10.0733
▁birds	-10.074
ET	-10.0752
▁escape	-10.0761
▁Hour	-10.0764
▁Hi	-10.0764
▁seeking	-10.0774
ches	-10.0778
▁{0}	-10.078
qua	-10.0784
▁extension	-10.0785
▁hair	-10.0786
▁kingdom	-10.0792
▁represent	-10.0795
▁oath	-10.0804
ire	-10.0807
▁devotion	-10.0808
▁Among	-10.0809
▁pra	-10.0812
▁Auto	-10.0813
▁furnish	-10.0816
▁reduced	-10.082
▁levels	-10.0821
▁Com	-10.0827
car	-10.0831
NAME	-10.0833
vol	-10.0835
▁merely	-10.0837
▁involve	-10.0838
endra	-10.0842
▁welfare	-10.0847
▁daily	-10.0847
▁household	-10.0849
▁machinery	-10.0852
▁sectors	-10.0856
AM	-10.0856
▁Far	-10.0862
▁Control	-10.0863
▁lesson	-10.0866
▁blessings	-10.0869
▁initiatives	-10.087
“”	-10.0873
▁plot	-10.0877
ood	-10.088
▁cu	-10.0884
▁namely	-10.0885
▁UN	-10.0887
▁mainly	-10.0889
dis	-10.0897
▁Subhas	-10.0897
pra	-10.09
lan	-10.0902
▁wherein	-10.0904
▁pleased	-10.0908
▁Pal	-10.0911
Re	-10.0911
rk	-10.0914
▁editor	-10.0917
▁excellent	-10.0919
▁failure	-10.0921
hana	-10.0925
▁ruler	-10.0925
▁flag	-10.0926
▁Besides	-10.0927
▁dear	-10.093
▁Scripture	-10.0934
▁teacher	-10.0937
OL	-10.0937
▁late	-10.0941
▁Environment	-10.0942
▁substance	-10.0942
cious	-10.0947
clause	-10.0949
▁warn	-10.0952
▁Since	-10.0952
▁neck	-10.0954
▁Ki	-10.0958
▁Dh	-10.0958
▁resource	-10.0959
▁gains	-10.096
▁cold	-10.0967
▁branch	-10.0971
▁integral	-10.0974
▁minimum	-10.0974
hya	-10.0978
▁Web	-10.0978
▁applications	-10.0986
box	-10.0999
▁Did	-10.1001
▁Each	-10.1005
▁charges	-10.1006
▁happened	-10.1009
ories	-10.1009
▁Gen	-10.1009
▁Var	-10.101
▁35	-10.1016
avi	-10.1018
▁grain	-10.102
nagar	-10.1022
▁installed	-10.1022
▁calls	-10.1025
▁Second	-10.103
▁carrying	-10.1036
▁Mad	-10.104
▁reminder	-10.1044
▁lest	-10.1045
▁urban	-10.1046
▁sought	-10.1046
▁Modi	-10.1046
▁warner	-10.1047
▁primary	-10.1054
▁authorities	-10.1059
▁Red	-10.1061
▁enterprise	-10.1062
▁creating	-10.1065
▁regional	-10.1066
▁2002	-10.1067
▁cook	-10.1069
▁Two	-10.1075
▁scr	-10.1079
but	-10.1095
hr	-10.1104
▁grand	-10.1105
▁idol	-10.1111
▁Count	-10.1115
▁express	-10.1118
▁institute	-10.1119
▁receipt	-10.1119
ttle	-10.112
coming	-10.1121
▁Mary	-10.1123
ms	-10.1131
▁inform	-10.1133
▁Application	-10.1135
▁characters	-10.1137
vy	-10.1144
▁4.	-10.1145
▁internal	-10.1146
▁vote	-10.115
▁Official	-10.1151
▁palm	-10.1155
▁east	-10.1159
dev	-10.1165
▁2016	-10.117
shan	-10.1173
▁bus	-10.1175
▁College	-10.1176
▁library	-10.1176
nam	-10.1184
▁implement	-10.1184
iation	-10.1186
▁cry	-10.1187
▁settings	-10.119
▁joined	-10.1191
▁Financial	-10.1192
▁center	-10.1192
▁challenges	-10.1198
▁campaign	-10.12
nia	-10.1208
▁equipment	-10.1208
▁curse	-10.1208
▁companion	-10.1208
▁worth	-10.1209
▁Ge	-10.1216
▁huge	-10.1216
kara	-10.1224
▁homes	-10.1224
▁tur	-10.1226
mber	-10.1233
cut	-10.1235
▁factor	-10.1237
▁2001	-10.1241
▁articles	-10.1242
▁resident	-10.1244
▁profits	-10.1251
wing	-10.1255
▁affected	-10.1259
▁cancel	-10.126
ku	-10.126
▁spot	-10.1263
▁earn	-10.127
▁finance	-10.1274
matic	-10.1274
tical	-10.1275
▁Nav	-10.1284
",	-10.1287
57	-10.1289
▁citizen	-10.1289
▁transgress	-10.1289
▁lose	-10.1293
▁audit	-10.1296
39	-10.1303
▁(19	-10.1306
▁fundamental	-10.1307
▁rare	-10.1309
▁highly	-10.131
▁believing	-10.1316
▁communities	-10.1316
▁brings	-10.1316
▁background	-10.1317
NA	-10.1319
▁Yoga	-10.1319
▁san	-10.1321
▁possession	-10.1327
MP	-10.1328
▁critical	-10.1328
▁...	-10.1333
▁upper	-10.1334
▁prosperity	-10.1334
▁Make	-10.1336
ade	-10.1344
▁Prof	-10.1347
ook	-10.1351
pad	-10.1354
▁keeping	-10.1358
cult	-10.1359
▁suffering	-10.1362
dh	-10.1371
▁bat	-10.1373
▁Her	-10.1374
▁filled	-10.1375
▁selection	-10.1376
▁Bir	-10.1377
▁darkness	-10.1378
▁completely	-10.138
▁Shiva	-10.1382
▁click	-10.1385
▁submitted	-10.1388
85	-10.1389
▁probably	-10.139
▁trouble	-10.139
▁gene	-10.1394
▁Authority	-10.1395
▁railway	-10.1398
▁confident	-10.1415
▁actual	-10.1417
▁drawn	-10.1421
▁committee	-10.1423
▁sanction	-10.1424
▁Reserve	-10.1425
wise	-10.1426
▁gui	-10.1431
▁Page	-10.1431
▁heat	-10.1432
▁choice	-10.1432
▁ga	-10.1432
▁generations	-10.1437
▁fell	-10.1438
▁technique	-10.144
▁schools	-10.1441
▁spring	-10.1444
▁Excellency	-10.1448
▁Number	-10.1448
▁collect	-10.1451
mic	-10.1463
east	-10.1466
▁historical	-10.1469
▁Mat	-10.1469
cho	-10.1471
minate	-10.1472
das	-10.1473
▁consequence	-10.1473
▁latter	-10.1476
▁delivery	-10.1481
▁conceal	-10.1482
aj	-10.1487
▁artist	-10.1489
▁guilty	-10.149
▁college	-10.149
▁relief	-10.149
▁intellectual	-10.149
▁entitled	-10.1498
▁reality	-10.1504
▁Click	-10.1507
ila	-10.1507
IP	-10.1514
▁jinn	-10.1515
▁visible	-10.1515
▁Rules	-10.1517
▁abide	-10.1517
arian	-10.1521
▁blow	-10.1522
▁latest	-10.1526
kin	-10.1532
▁agree	-10.1535
▁agreed	-10.1539
▁greetings	-10.1541
position	-10.1546
▁delay	-10.155
▁inner	-10.1552
table	-10.156
▁leadership	-10.1568
▁practices	-10.1568
CH	-10.1579
,"	-10.158
▁Company	-10.1583
▁cow	-10.1584
▁Life	-10.1585
▁Foreign	-10.1591
▁prophet	-10.1591
▁Speaking	-10.16
▁bodies	-10.16
▁learned	-10.1603
▁Hari	-10.1604
▁sick	-10.1605
▁conference	-10.161
▁Ju	-10.161
▁Help	-10.1611
osis	-10.1612
▁Andhra	-10.1616
▁breath	-10.1617
▁duties	-10.1618
▁everyone	-10.1623
▁requirements	-10.1625
▁Library	-10.1625
▁Judge	-10.1625
▁flu	-10.1627
lip	-10.1634
▁souls	-10.1639
▁delete	-10.1645
▁Gardens	-10.1647
▁thereby	-10.165
▁England	-10.1651
▁sacred	-10.1659
▁yourself	-10.1662
▁passing	-10.1663
▁daughter	-10.1664
▁approval	-10.1668
mission	-10.1669
PI	-10.167
▁Export	-10.1671
▁realize	-10.1672
▁Qa	-10.1672
ieve	-10.1673
▁Buddha	-10.1676
UN	-10.1677
▁counter	-10.1677
▁sad	-10.168
▁commitment	-10.1683
▁admit	-10.1684
▁facility	-10.1685
▁iron	-10.1699
▁journal	-10.1702
AB	-10.1703
Ma	-10.1706
▁seized	-10.1707
reg	-10.1708
▁Bel	-10.1709
▁Tribunal	-10.1711
▁emb	-10.1712
▁multiple	-10.1713
▁chance	-10.1723
▁sand	-10.1734
▁experiment	-10.1736
uff	-10.1741
▁attitude	-10.1742
▁filter	-10.1745
▁tongue	-10.1754
▁Trust	-10.1762
▁features	-10.1769
▁tissue	-10.1771
15	-10.1774
▁Sar	-10.1783
▁Bas	-10.1784
▁aspects	-10.179
▁chain	-10.1794
65	-10.1795
▁blame	-10.1795
▁although	-10.1797
▁incident	-10.1797
▁participation	-10.1797
▁Mark	-10.1797
▁wronged	-10.1799
▁victory	-10.1806
▁Mail	-10.1809
▁prove	-10.181
▁Fo	-10.1815
▁audio	-10.1821
▁Park	-10.1824
▁performed	-10.1824
▁shared	-10.1825
▁inspired	-10.1825
▁solve	-10.1831
ob	-10.1833
▁sold	-10.1836
▁planning	-10.1837
▁Non	-10.1841
▁Word	-10.1849
▁Ye	-10.1851
ita	-10.1851
IM	-10.1853
▁points	-10.1853
▁moved	-10.1854
▁tab	-10.1858
-2018	-10.1858
▁suggest	-10.1859
cast	-10.1868
▁qua	-10.1869
▁archive	-10.187
▁myself	-10.1872
ami	-10.1872
▁engine	-10.1875
▁climate	-10.1875
▁delight	-10.1877
▁kinds	-10.1879
▁cloth	-10.1884
▁Railway	-10.1884
▁Play	-10.1885
▁spoke	-10.1888
▁painting	-10.1889
▁Mode	-10.189
▁suitable	-10.1901
▁principles	-10.1903
▁sit	-10.1903
ero	-10.1904
▁Hon	-10.1906
▁views	-10.1909
▁governance	-10.191
▁Internet	-10.1911
▁defence	-10.1914
▁Report	-10.1915
▁Assistant	-10.1919
▁registration	-10.1919
▁Unit	-10.1921
HA	-10.1924
▁disk	-10.1927
▁continuous	-10.1928
▁Current	-10.1928
▁fer	-10.1937
▁profession	-10.1938
▁arise	-10.1939
▁Clear	-10.1945
▁differ	-10.1949
▁Chand	-10.1953
▁adequate	-10.1954
▁bestowed	-10.1955
PC	-10.1955
▁fat	-10.1957
illa	-10.1961
▁pan	-10.1962
▁Like	-10.1966
▁Kumar	-10.1983
▁mountain	-10.1983
▁pillar	-10.1989
▁arrest	-10.1989
▁released	-10.1994
work	-10.1995
▁Read	-10.1998
▁Article	-10.1998
▁insurance	-10.1998
▁diseases	-10.2002
DA	-10.2003
▁ven	-10.2005
▁west	-10.2009
▁sitting	-10.201
▁attached	-10.2022
▁Veda	-10.2027
▁ahead	-10.2029
▁acts	-10.2035
eous	-10.2035
▁bilateral	-10.2043
well	-10.2049
▁Dev	-10.2049
▁drama	-10.2051
▁reforms	-10.2058
▁street	-10.206
▁Self	-10.2062
▁faithful	-10.2063
▁Cor	-10.2069
▁repent	-10.2074
▁resolve	-10.2078
▁desert	-10.2078
▁empower	-10.2078
▁Disc	-10.2081
tory	-10.2083
▁wood	-10.2085
▁Custom	-10.2087
▁Mighty	-10.2087
ugh	-10.2097
▁reader	-10.2099
▁nearly	-10.21
back	-10.2101
▁follows	-10.2103
▁complaint	-10.2105
▁prior	-10.2107
▁mal	-10.2107
▁changing	-10.2114
lab	-10.2117
icide	-10.2119
▁owner	-10.2121
▁photo	-10.2122
▁Document	-10.2123
train	-10.2123
▁pest	-10.2124
iness	-10.2125
▁lit	-10.2126
ease	-10.2132
▁stood	-10.2135
▁magic	-10.2135
▁forever	-10.2136
▁materials	-10.2139
02	-10.2141
▁Indians	-10.2145
oke	-10.2146
▁enabled	-10.2148
▁agent	-10.2158
▁Press	-10.2158
▁Invalid	-10.2159
encies	-10.2161
▁op	-10.2164
▁swear	-10.2168
▁About	-10.2169
nda	-10.2171
▁participate	-10.2176
▁sustain	-10.2187
▁chemical	-10.2189
▁revolution	-10.2191
▁Command	-10.2196
▁Das	-10.2204
▁platform	-10.2213
▁regulation	-10.2213
▁poll	-10.2214
▁guardian	-10.2216
phe	-10.2223
▁Ob	-10.2231
▁map	-10.2233
▁1999	-10.2235
▁recently	-10.2243
▁achieved	-10.2244
▁tourist	-10.2246
▁containing	-10.225
▁waiting	-10.2251
▁individuals	-10.2252
▁bra	-10.2253
num	-10.2255
▁facilitate	-10.2258
▁consists	-10.2262
▁reasons	-10.2264
ulate	-10.2266
▁BC	-10.2273
▁nuclear	-10.2276
▁agencies	-10.2276
34	-10.228
▁director	-10.2282
▁shift	-10.2285
▁improvement	-10.2298
ula	-10.2306
test	-10.2308
▁More	-10.2314
▁charged	-10.2318
pati	-10.232
▁Kovind	-10.2321
SH	-10.2323
▁Knower	-10.2323
▁Q	-10.233
▁proportion	-10.2331
scription	-10.2332
▁package	-10.2333
▁gets	-10.2338
▁returns	-10.2338
last	-10.2339
gram	-10.2352
▁hit	-10.2355
.—	-10.2357
▁shop	-10.2358
▁extra	-10.236
▁criminal	-10.2367
abad	-10.2372
▁Another	-10.2373
AP	-10.2373
▁player	-10.2374
▁bright	-10.2377
▁proved	-10.2378
▁methods	-10.238
cial	-10.2382
▁priority	-10.2384
▁register	-10.2384
▁principle	-10.2384
▁Civil	-10.2386
▁pick	-10.2388
▁treated	-10.2393
pic	-10.2403
9	-10.2405
▁defeat	-10.2405
▁Code	-10.2408
▁Rajya	-10.2411
otic	-10.242
▁Province	-10.2422
▁Prem	-10.243
▁neighbour	-10.2432
▁2012	-10.2435
▁regions	-10.2437
lish	-10.2439
▁Palestinian	-10.2441
▁forgiving	-10.2441
▁cease	-10.2446
▁observe	-10.2446
▁limits	-10.2448
▁Society	-10.245
▁awareness	-10.245
▁election	-10.2456
len	-10.2459
▁camp	-10.2464
▁Back	-10.2464
▁fighting	-10.2465
▁distinct	-10.2466
13	-10.2467
▁hero	-10.2471
▁witnesses	-10.2472
▁poem	-10.2473
▁Party	-10.2474
nga	-10.2478
▁Don	-10.248
▁Egypt	-10.2487
▁allowance	-10.2487
▁metal	-10.2496
▁manufacturing	-10.2496
hil	-10.2505
▁survey	-10.2506
▁coal	-10.2514
God	-10.2518
▁strive	-10.2523
▁absolute	-10.2524
▁wonder	-10.2525
▁mobile	-10.2534
▁pipe	-10.2535
▁insects	-10.2536
▁options	-10.2539
▁recorded	-10.2542
▁served	-10.2544
▁soft	-10.2545
▁ru	-10.2549
▁prices	-10.2551
▁Class	-10.2552
▁saving	-10.2553
▁abode	-10.2562
▁row	-10.2564
▁emphasis	-10.2571
▁Training	-10.2571
▁motion	-10.2573
38	-10.2579
▁courage	-10.258
▁helper	-10.2582
▁ruin	-10.2585
▁layer	-10.2585
▁student	-10.2586
▁breed	-10.2591
▁London	-10.2599
▁situated	-10.2599
▁sweet	-10.2599
▁Has	-10.26
▁minutes	-10.2606
▁throw	-10.2606
uous	-10.2608
▁thanks	-10.2613
▁democratic	-10.2627
rag	-10.263
▁Nar	-10.2632
▁Members	-10.2633
▁marked	-10.2636
▁icon	-10.2636
▁universities	-10.2637
▁Justice	-10.2638
▁president	-10.2639
▁sex	-10.2644
room	-10.2646
▁attribute	-10.2646
▁happiness	-10.2646
▁fault	-10.2646
hin	-10.2651
▁grieve	-10.2656
▁constituted	-10.2657
▁Che	-10.2659
▁Yes	-10.266
▁transform	-10.2665
▁whereas	-10.2679
▁newspaper	-10.2684
▁race	-10.2688
▁brain	-10.269
▁prostrate	-10.2694
▁hind	-10.2694
▁commanded	-10.2701
▁jurisdiction	-10.2703
▁mill	-10.2707
▁Israeli	-10.2709
▁subsequent	-10.2712
▁Ji	-10.2718
▁visited	-10.272
▁Once	-10.2721
▁Karnataka	-10.2722
▁wave	-10.2723
▁proceedings	-10.2725
▁turns	-10.2725
▁Sen	-10.273
▁elephant	-10.2731
▁tribe	-10.2735
cer	-10.2738
▁assume	-10.2741
▁merciful	-10.2741
▁privilege	-10.2741
▁edge	-10.2745
▁Human	-10.2746
▁Kal	-10.2748
▁electronic	-10.275
rup	-10.2753
▁centres	-10.2763
▁requires	-10.2764
▁signed	-10.2771
wit	-10.2793
72	-10.2795
▁successfully	-10.2801
how	-10.281
▁users	-10.281
▁lock	-10.2814
▁actor	-10.2821
rated	-10.2826
▁Year	-10.2826
vin	-10.2827
▁Line	-10.2828
oid	-10.2832
▁Jan	-10.2833
▁congratulate	-10.2837
▁Arabic	-10.2838
▁remind	-10.284
EL	-10.284
▁sources	-10.2842
▁ji	-10.2842
▁formal	-10.2843
▁interesting	-10.2844
▁Security	-10.2846
▁Before	-10.2846
▁DVD	-10.2846
▁Iraq	-10.2846
▁Jews	-10.2846
▁preserve	-10.2848
etic	-10.2851
▁healthy	-10.2852
▁principal	-10.2856
▁supreme	-10.2856
▁falsehood	-10.2857
▁burning	-10.2861
▁hot	-10.2864
▁Next	-10.2866
▁offence	-10.287
▁grown	-10.287
▁terrorist	-10.2873
▁negative	-10.2875
▁covering	-10.2878
ipp	-10.288
▁Musa	-10.2884
lia	-10.2899
▁ability	-10.2907
▁node	-10.2912
▁200	-10.2912
▁letters	-10.2915
▁tu	-10.2916
▁Lu	-10.2929
▁announced	-10.2932
▁Sat	-10.2936
ith	-10.2936
▁Comment	-10.2938
▁sentence	-10.2939
IF	-10.2939
▁Swami	-10.2941
▁couple	-10.2943
▁respond	-10.2948
▁teach	-10.2949
air	-10.295
▁Jammu	-10.2953
▁tele	-10.2953
version	-10.2956
46	-10.2956
▁tonnes	-10.2956
▁friendship	-10.2975
▁Vishnu	-10.2982
▁accident	-10.2992
▁Find	-10.3
▁figures	-10.3004
▁banking	-10.3006
▁decades	-10.3015
▁offering	-10.3015
▁proposed	-10.3021
▁becoming	-10.3025
▁Noah	-10.3027
▁efficient	-10.3031
▁restore	-10.3039
▁mechanism	-10.304
▁applied	-10.3041
45	-10.3043
ending	-10.3043
fr	-10.3043
▁dwelling	-10.3044
▁transferred	-10.3045
▁offline	-10.3049
▁followers	-10.3052
▁union	-10.3055
▁scientists	-10.3058
▁schedule	-10.306
▁heritage	-10.306
UT	-10.3066
▁90	-10.3069
▁recognised	-10.307
▁smaller	-10.3072
▁showing	-10.3078
▁2017	-10.3082
▁Call	-10.3083
point	-10.3091
▁hasten	-10.3093
▁ocean	-10.31
25	-10.31
▁scholars	-10.3103
▁ear	-10.3107
▁weapon	-10.311
SA	-10.3112
▁(1	-10.3117
▁band	-10.312
▁prose	-10.312
▁lawful	-10.3125
▁contribute	-10.3128
▁fuel	-10.3129
▁Process	-10.3129
▁engineering	-10.3129
▁acquired	-10.3132
▁finger	-10.3133
▁whatsoever	-10.3136
NE	-10.3136
▁Legislative	-10.3139
▁Bose	-10.3139
▁initiative	-10.314
can	-10.3141
▁characteristic	-10.3142
▁Unknown	-10.3149
▁married	-10.3149
▁Note	-10.3154
▁Women	-10.3159
▁Za	-10.3164
▁menu	-10.3164
ley	-10.3164
ica	-10.3166
htm	-10.3166
▁fun	-10.3167
▁specify	-10.3176
▁elected	-10.3179
▁unable	-10.3179
▁meant	-10.3179
scribe	-10.3184
▁Close	-10.3189
▁obtained	-10.3193
▁signal	-10.3197
▁currency	-10.3199
▁vehicle	-10.3199
▁fulfil	-10.3205
▁corner	-10.3206
▁destruction	-10.3209
▁reports	-10.3209
▁pollution	-10.3219
▁Business	-10.3219
▁patience	-10.3219
hak	-10.3224
▁download	-10.3225
▁seeing	-10.3228
▁politics	-10.3229
bol	-10.3234
▁rice	-10.3247
wo	-10.3248
cient	-10.325
▁recall	-10.3253
▁billion	-10.3256
▁implemented	-10.3258
▁tribal	-10.326
▁plays	-10.3261
▁FOR	-10.3262
37	-10.3264
▁factors	-10.3264
▁officials	-10.3264
pping	-10.3276
▁toward	-10.3276
71	-10.3277
22	-10.3278
▁wants	-10.3281
ware	-10.3285
▁currently	-10.3289
76	-10.3292
▁appears	-10.3295
▁judgment	-10.3299
▁Task	-10.3302
▁administrative	-10.3309
▁75	-10.3317
▁mistake	-10.332
▁classes	-10.332
▁Joseph	-10.3321
▁folders	-10.3323
▁ultimate	-10.3329
▁afford	-10.3329
64	-10.3331
▁Chapter	-10.3339
▁Would	-10.3343
▁Mother	-10.3347
▁Disable	-10.3348
▁scene	-10.3349
wal	-10.3353
▁guides	-10.3365
▁Master	-10.3367
▁Resource	-10.337
▁whi	-10.3374
▁pu	-10.3378
▁behold	-10.3379
▁obvious	-10.338
▁constant	-10.3382
▁route	-10.3385
Z	-10.3386
▁technologies	-10.339
▁dealing	-10.339
▁subjects	-10.3396
▁comfort	-10.34
nar	-10.3403
even	-10.3403
▁bringing	-10.3404
▁Standard	-10.341
▁temperature	-10.341
▁ph	-10.3412
▁weeks	-10.3413
49	-10.3414
poli	-10.3416
▁maintenance	-10.342
▁compared	-10.3421
yl	-10.3423
part	-10.3423
▁showed	-10.3425
▁Affairs	-10.3431
▁ordinary	-10.3431
lves	-10.3431
▁permanent	-10.3433
▁bounty	-10.3441
▁shrine	-10.3441
char	-10.3446
detail	-10.3447
▁Nadu	-10.345
▁operating	-10.3451
▁discharge	-10.3453
▁organism	-10.3467
▁bird	-10.3471
▁discipline	-10.3471
▁prime	-10.3471
▁attachment	-10.3472
▁transaction	-10.3473
▁dy	-10.3476
▁32	-10.3477
▁endeavour	-10.3482
▁university	-10.3482
▁examine	-10.3482
▁weather	-10.3482
▁hurt	-10.3484
▁appeared	-10.3484
▁grave	-10.3484
▁corruption	-10.3486
▁00	-10.3488
▁gathered	-10.3488
▁exclusive	-10.3492
▁doesn	-10.3493
▁del	-10.3493
▁camel	-10.3496
▁pot	-10.3498
▁organized	-10.3503
▁hall	-10.3509
▁senior	-10.3512
▁zone	-10.3513
▁organised	-10.3515
▁stress	-10.3519
▁determine	-10.3523
▁2009	-10.3526
▁feature	-10.3526
▁sending	-10.3527
▁describe	-10.3529
▁counsel	-10.3533
▁Pla	-10.3534
▁western	-10.3534
▁Gha	-10.3538
▁Form	-10.3539
▁Ben	-10.3539
▁sections	-10.354
▁daughters	-10.3548
release	-10.3551
▁crime	-10.3554
23	-10.3558
▁actions	-10.3558
ye	-10.3561
▁mono	-10.3566
pre	-10.3567
US	-10.3568
▁contacts	-10.3569
40	-10.3572
sphere	-10.3575
▁rent	-10.358
▁playing	-10.3583
▁Economic	-10.3585
▁Remember	-10.3585
▁grateful	-10.3585
▁unknown	-10.3595
▁agency	-10.3595
▁ears	-10.3601
gam	-10.3602
zo	-10.3603
▁John	-10.3605
▁records	-10.3606
www	-10.3613
presidentofindia	-10.3616
▁afraid	-10.3616
▁belonging	-10.3618
▁settled	-10.3619
▁enemies	-10.3626
ivity	-10.3633
▁territory	-10.3647
▁Orissa	-10.3647
▁expert	-10.3656
▁thirty	-10.3657
▁Christian	-10.3664
▁centuries	-10.3668
▁quick	-10.3673
▁Load	-10.3674
▁conducted	-10.3675
▁suddenly	-10.3678
▁atmosphere	-10.3678
▁identified	-10.3678
▁2003	-10.3687
▁detect	-10.3687
▁identify	-10.3689
▁drugs	-10.3695
▁objects	-10.3696
▁dedicated	-10.3699
▁maintained	-10.3704
▁01	-10.3705
col	-10.3706
▁Ser	-10.3707
▁demon	-10.3708
▁Dar	-10.371
77	-10.3713
▁blessed	-10.372
▁blue	-10.372
▁Jam	-10.3722
▁Industrial	-10.3724
aga	-10.3732
asi	-10.3733
▁stands	-10.3734
▁skills	-10.3741
▁laugh	-10.3744
▁solar	-10.3745
▁Mughal	-10.3752
▁noble	-10.3761
▁practical	-10.3762
▁Log	-10.3763
FC	-10.3766
▁emerge	-10.3768
rc	-10.3784
▁decline	-10.3788
▁terrible	-10.3794
ifies	-10.3802
▁eligible	-10.3805
▁Flag	-10.3805
▁objectives	-10.3805
▁appreciate	-10.3815
▁vegetable	-10.3815
▁ran	-10.3816
▁2004	-10.3819
▁conscious	-10.3822
▁revenue	-10.3826
▁Choose	-10.3827
oon	-10.3828
▁branches	-10.3842
bra	-10.3849
▁substantial	-10.3858
▁distress	-10.386
▁Islamist	-10.386
▁addressed	-10.3862
▁Member	-10.3865
dhan	-10.3866
▁Whoever	-10.3866
▁threat	-10.3867
▁pursue	-10.387
vision	-10.3871
vara	-10.3873
▁Good	-10.3873
▁Although	-10.3879
▁Adam	-10.388
▁assess	-10.3881
▁Institution	-10.389
▁Middle	-10.389
▁electricity	-10.3896
▁didn	-10.3898
▁configuration	-10.39
▁oppress	-10.3902
▁Regional	-10.3903
▁roll	-10.3908
▁instruments	-10.391
▁obligation	-10.3911
▁environmental	-10.3914
OS	-10.3916
most	-10.3916
▁settlement	-10.3929
▁valley	-10.3932
▁finally	-10.3935
58	-10.3936
TION	-10.3942
▁Cho	-10.3954
▁prevail	-10.3954
▁(4)	-10.3955
▁designed	-10.3956
▁Server	-10.3957
78	-10.3963
lusion	-10.3963
new	-10.3966
▁cho	-10.3967
rew	-10.3968
▁respective	-10.397
▁ritual	-10.3975
▁margin	-10.3977
▁Sikh	-10.3978
▁marketing	-10.3984
▁Buddhist	-10.3986
▁mid	-10.3989
▁squared	-10.3989
▁panel	-10.3991
▁closed	-10.3997
▁creative	-10.3999
▁Island	-10.4001
▁utilis	-10.4008
▁spec	-10.4017
▁require	-10.4019
▁formation	-10.402
▁Ven	-10.4023
▁Speaker	-10.4029
▁identity	-10.4029
▁brief	-10.4041
▁Author	-10.4044
▁Ham	-10.4047
▁marry	-10.4049
▁500	-10.4049
▁employer	-10.4052
▁hrs	-10.4054
▁decisions	-10.4055
▁arms	-10.4058
▁execute	-10.4062
▁liquid	-10.4062
▁operate	-10.4063
▁Direct	-10.4066
▁permit	-10.4067
had	-10.4068
house	-10.4071
tech	-10.4077
ATE	-10.4079
69	-10.4082
88	-10.4084
▁Association	-10.4095
▁recite	-10.4105
▁Agriculture	-10.4106
▁zero	-10.4106
Assessing	-10.4106
▁sexual	-10.4107
94	-10.4114
▁thereafter	-10.4116
▁palace	-10.4117
terior	-10.4118
▁reported	-10.4126
▁mere	-10.4128
▁Forest	-10.4128
▁parent	-10.4128
▁spin	-10.4129
▁decree	-10.4131
ital	-10.4134
▁fourth	-10.4147
▁mad	-10.4158
▁End	-10.4161
▁retain	-10.4167
▁looks	-10.4171
▁prince	-10.4171
▁imagine	-10.4171
▁humble	-10.4173
▁occurred	-10.4174
▁Best	-10.4175
▁Rural	-10.4176
▁digital	-10.418
▁rates	-10.4181
▁width	-10.4182
▁Small	-10.4182
▁wild	-10.4183
Regulation	-10.4183
▁coast	-10.4184
▁mock	-10.4184
iva	-10.4186
▁strange	-10.4186
ache	-10.4191
▁adopt	-10.4196
▁whenever	-10.4197
▁Bur	-10.42
▁stars	-10.4203
▁Chinese	-10.4204
▁pride	-10.4204
▁Nature	-10.4206
raja	-10.4219
▁ornament	-10.4228
▁Je	-10.4228
▁pack	-10.4235
▁temporary	-10.4237
▁broken	-10.4239
▁judgement	-10.4241
▁career	-10.4248
ulated	-10.4258
▁Believers	-10.4259
▁adjust	-10.4259
▁ignore	-10.426
▁commission	-10.4261
▁flowers	-10.4263
66	-10.4263
▁roof	-10.4265
▁Vice	-10.4266
▁exception	-10.4269
▁invoke	-10.4271
ney	-10.4279
▁advanced	-10.4292
▁Australia	-10.4293
▁Independence	-10.4293
▁penalty	-10.4293
▁farm	-10.4306
▁Video	-10.431
▁draft	-10.4315
▁flat	-10.4317
▁employee	-10.432
ential	-10.4324
▁pension	-10.4331
▁effects	-10.4337
▁analysis	-10.4337
▁properly	-10.4339
▁topic	-10.4341
▁processes	-10.4346
▁absence	-10.4349
▁intention	-10.4349
▁lend	-10.4351
▁capable	-10.4355
▁Card	-10.4355
▁opt	-10.4357
▁courts	-10.4357
▁virtue	-10.436
▁chapter	-10.436
▁Eastern	-10.4362
▁apostle	-10.4365
IA	-10.4371
68	-10.4372
▁undertaken	-10.4381
▁disbelief	-10.4382
▁aims	-10.4382
▁Mag	-10.4383
▁arrived	-10.4384
lah	-10.4392
▁quarter	-10.4393
▁properties	-10.4406
▁song	-10.4409
patri	-10.441
▁Support	-10.4416
▁narrow	-10.4416
▁dog	-10.442
▁Judgment	-10.4427
▁accused	-10.4427
▁critic	-10.4429
ENT	-10.4429
▁holds	-10.4431
▁seemed	-10.4434
akh	-10.4434
▁tube	-10.4435
▁contents	-10.4441
▁consult	-10.4446
ky	-10.4447
▁Give	-10.4451
▁persist	-10.4453
▁thousands	-10.4458
▁install	-10.447
▁turning	-10.4471
▁Principal	-10.4472
▁immense	-10.4472
▁Divine	-10.4472
▁Babu	-10.4472
rap	-10.448
▁pages	-10.4481
▁devote	-10.4488
▁publish	-10.4495
▁tomorrow	-10.4495
▁bridge	-10.4495
▁sorrow	-10.4495
▁Multi	-10.4496
▁CO	-10.4502
▁orphan	-10.4507
▁Shu	-10.4511
charya	-10.4515
▁applicable	-10.4518
▁Options	-10.4518
▁Aware	-10.4519
▁informed	-10.4521
▁2011	-10.4521
▁compensation	-10.4529
▁fifty	-10.4529
▁Schedule	-10.4534
ching	-10.4536
▁befall	-10.4538
▁guarantee	-10.454
bling	-10.4543
▁elect	-10.4545
▁amend	-10.4547
chandra	-10.4547
ural	-10.4549
▁flower	-10.455
▁Tele	-10.4551
▁expenses	-10.4552
▁Limited	-10.4552
▁functioning	-10.4555
▁bottom	-10.4563
DE	-10.4566
▁client	-10.4567
▁RE	-10.4568
▁Settings	-10.4575
ographic	-10.4581
▁elections	-10.4586
▁Narendra	-10.4587
▁Bangladesh	-10.4598
▁Hyderabad	-10.4598
ksha	-10.4598
▁database	-10.4598
▁await	-10.4598
▁Mor	-10.46
gy	-10.46
▁solid	-10.4604
▁talent	-10.461
▁losers	-10.4613
▁displayed	-10.4615
▁recover	-10.4615
AY	-10.4616
roll	-10.4617
▁bed	-10.462
▁depict	-10.4621
▁Local	-10.4626
▁scar	-10.4628
▁Provid	-10.4635
▁entrepreneur	-10.4637
▁outstanding	-10.4649
▁Take	-10.4657
▁ego	-10.4659
than	-10.4663
▁sustenance	-10.4667
▁Just	-10.4669
▁split	-10.4669
▁seal	-10.4669
▁category	-10.4678
21	-10.4682
▁span	-10.4687
▁cricket	-10.469
mount	-10.4692
▁amendment	-10.4698
▁mat	-10.47
ctic	-10.47
▁French	-10.4701
face	-10.4706
▁1956	-10.4707
62	-10.4715
▁deity	-10.4715
▁humanity	-10.4718
▁fulfilled	-10.4718
riya	-10.4719
▁Apostle	-10.4724
▁convention	-10.4724
▁architecture	-10.4725
▁Trade	-10.4726
pan	-10.4731
▁simply	-10.4736
▁civilization	-10.4739
▁Award	-10.4745
hri	-10.475
arch	-10.4753
▁acid	-10.4756
▁opposition	-10.476
▁steel	-10.476
▁automatically	-10.476
▁Sardar	-10.476
▁Light	-10.4763
iate	-10.4764
fold	-10.4768
▁enjoin	-10.4771
▁Persian	-10.4771
▁Automatic	-10.4772
▁formula	-10.4775
To	-10.4775
▁115	-10.4777
▁Garden	-10.4777
▁extremely	-10.4782
▁Museum	-10.4783
zar	-10.4787
▁Madhya	-10.479
▁Food	-10.4792
▁Full	-10.4793
▁mandapa	-10.4806
▁hum	-10.4807
CR	-10.4814
▁chair	-10.4816
book	-10.4816
▁candidate	-10.4818
▁wrongdoers	-10.4818
▁Signs	-10.4826
▁deleted	-10.4827
-19	-10.4827
▁links	-10.4828
▁bone	-10.4832
▁Nations	-10.4835
▁surrender	-10.4841
▁treasure	-10.4841
UL	-10.4846
▁deeply	-10.485
▁frequent	-10.4853
▁slow	-10.4853
India	-10.4854
▁City	-10.4855
list	-10.4858
▁45	-10.4861
▁poly	-10.4865
▁Link	-10.4868
▁Mac	-10.4869
rum	-10.4873
▁cool	-10.4879
▁entirely	-10.488
▁Game	-10.488
▁Micro	-10.4882
▁Vo	-10.4883
▁bull	-10.4889
▁Cur	-10.4891
▁chargeable	-10.4894
▁impart	-10.4895
▁pull	-10.4895
▁muscle	-10.49
▁infection	-10.49
▁Iran	-10.4901
▁suggestion	-10.4904
▁mostly	-10.4904
▁refused	-10.4908
▁distinguished	-10.4908
▁Password	-10.4912
▁pledge	-10.4913
ene	-10.4917
▁Awards	-10.4922
▁radio	-10.4927
▁descend	-10.4935
▁composed	-10.4936
▁argue	-10.4937
▁debate	-10.4937
lateral	-10.4939
▁creatures	-10.494
tak	-10.494
cum	-10.494
▁council	-10.4947
▁eternal	-10.4947
▁Related	-10.4948
▁Brahma	-10.4954
▁Scheduled	-10.4955
hand	-10.4955
▁danger	-10.4957
CA	-10.4959
▁Kolkata	-10.4959
▁ease	-10.4959
▁initiated	-10.4973
▁equally	-10.4978
▁Pacific	-10.4983
▁wicked	-10.4983
▁respite	-10.4983
Who	-10.4985
mitted	-10.4988
▁apostles	-10.4989
▁handle	-10.4993
▁aspect	-10.4994
▁Mohammed	-10.5007
▁aside	-10.5008
)]	-10.5012
▁coll	-10.5014
▁girls	-10.5017
▁organizations	-10.5017
▁Further	-10.5019
▁equity	-10.5019
TS	-10.5029
▁Lal	-10.503
▁violent	-10.5031
▁tourism	-10.5032
▁tender	-10.5036
▁arch	-10.5037
▁quickly	-10.5039
ection	-10.5039
▁wherever	-10.5043
67	-10.5043
net	-10.505
▁Jesus	-10.5055
▁differences	-10.5057
▁Joint	-10.5058
▁constitution	-10.5074
▁desktop	-10.5079
▁twelve	-10.5079
▁Deputy	-10.5079
▁bomb	-10.5079
▁CH	-10.508
▁affair	-10.5081
▁Except	-10.5082
▁mine	-10.509
▁directed	-10.5091
vari	-10.5094
▁represents	-10.5096
▁trend	-10.5096
▁promoting	-10.5103
▁Industry	-10.5103
▁comprehensive	-10.5103
▁header	-10.5108
lap	-10.5109
▁fought	-10.5115
▁beneath	-10.5115
▁clay	-10.5116
leg	-10.5124
▁starting	-10.5125
dri	-10.5127
anj	-10.5128
CP	-10.5134
▁notes	-10.5144
▁recognize	-10.5147
band	-10.5148
▁sustainable	-10.5149
▁Keep	-10.5149
▁hypocrites	-10.5151
▁Urdu	-10.5151
▁Lib	-10.5154
▁Memo	-10.5155
▁admitted	-10.5156
lib	-10.5157
▁collective	-10.5158
19	-10.5161
▁Hand	-10.5164
abha	-10.5165
▁depart	-10.5166
▁discuss	-10.517
polytheists	-10.5176
▁sincere	-10.5178
that	-10.518
▁Jain	-10.5186
▁Access	-10.5188
grade	-10.5188
▁rising	-10.5194
▁refer	-10.5195
▁reaction	-10.5195
▁prepare	-10.5195
▁Through	-10.52
▁leaving	-10.52
▁salt	-10.5202
▁scope	-10.5206
head	-10.5211
▁Temple	-10.5212
▁Build	-10.5212
▁sugar	-10.5214
▁je	-10.5217
tude	-10.522
▁calling	-10.5221
ope	-10.5221
▁recited	-10.5222
▁Something	-10.5225
▁glory	-10.5226
▁explained	-10.5227
▁speaking	-10.5228
▁disobey	-10.5236
lp	-10.5236
▁Friends	-10.5237
▁Later	-10.5237
RD	-10.5237
vati	-10.524
▁enforce	-10.5249
▁soldiers	-10.5252
▁pane	-10.526
▁recognition	-10.5261
▁floor	-10.5261
▁acquisition	-10.5273
▁Filter	-10.5273
▁Source	-10.5273
▁invited	-10.5276
term	-10.5277
▁transactions	-10.5284
▁Mand	-10.529
▁Tab	-10.5294
▁immediate	-10.5295
▁Insurance	-10.5298
▁Swa	-10.53
▁drug	-10.5303
▁Sea	-10.5304
upp	-10.5308
▁broke	-10.531
▁signature	-10.5312
▁core	-10.5315
agon	-10.5317
▁insect	-10.5318
▁remaining	-10.5331
▁revelation	-10.5332
▁Editor	-10.5332
▁dwell	-10.5342
▁respectively	-10.5342
▁venture	-10.5348
▁interface	-10.5348
Be	-10.5354
▁instructions	-10.5357
▁liberal	-10.5359
▁Look	-10.537
▁satisfied	-10.5372
▁Status	-10.5372
▁substitute	-10.5384
▁bag	-10.5386
▁respondent	-10.539
▁telephone	-10.5397
▁depth	-10.5397
▁invalid	-10.5397
power	-10.5398
▁Siva	-10.5404
▁bid	-10.5405
▁evolution	-10.5409
▁harvest	-10.5409
▁murder	-10.5409
▁kin	-10.5417
▁Inc	-10.5418
▁pal	-10.5419
▁Test	-10.5421
▁twice	-10.5421
▁holy	-10.5431
▁stick	-10.5432
▁neglect	-10.5434
▁crisis	-10.5434
▁preparation	-10.5434
▁overcome	-10.5434
▁fix	-10.5436
▁thread	-10.5436
▁Table	-10.544
▁Noble	-10.5441
▁verse	-10.5441
▁overall	-10.5447
▁domain	-10.5447
▁Head	-10.5447
▁framework	-10.5447
▁divide	-10.5454
▁contemporary	-10.5459
▁Ste	-10.5463
▁behaviour	-10.5471
ogen	-10.5474
24	-10.5482
▁inspiration	-10.5484
▁Foundation	-10.5484
2014	-10.549
▁pop	-10.5494
LA	-10.5494
▁mount	-10.5495
▁enjoyment	-10.5498
▁2010	-10.5501
▁Bad	-10.5506
▁finding	-10.5512
▁detail	-10.552
▁Pandit	-10.5522
▁sheet	-10.5523
▁drawing	-10.5526
▁bones	-10.553
▁lamp	-10.5532
Indeed	-10.5532
▁saint	-10.5534
▁coin	-10.5536
igh	-10.554
▁02	-10.5548
▁prefer	-10.5548
▁prompt	-10.555
56	-10.5553
▁Japan	-10.556
▁availability	-10.5561
▁employed	-10.5564
▁electric	-10.5566
win	-10.5569
ancing	-10.5569
▁lying	-10.5572
▁Lot	-10.5572
▁personality	-10.5574
▁drinking	-10.5574
▁Christians	-10.5579
▁detailed	-10.5579
▁Area	-10.558
▁Hol	-10.5581
active	-10.5583
▁understood	-10.5585
▁devil	-10.5588
▁intelligence	-10.5597
▁servant	-10.5602
▁KDE	-10.5603
him	-10.5603
Moses	-10.5609
▁royal	-10.561
oli	-10.562
▁communal	-10.5622
▁arbitra	-10.5623
▁jail	-10.5626
63	-10.5631
▁Credit	-10.5635
▁trading	-10.5635
▁Run	-10.5649
bhi	-10.5656
▁appearance	-10.5657
▁intended	-10.566
▁thick	-10.5664
▁flood	-10.5673
▁tribute	-10.5673
▁invite	-10.5676
ologist	-10.5677
tang	-10.5677
▁ratio	-10.5682
uce	-10.5684
▁subscribe	-10.5684
▁circle	-10.5686
▁judicial	-10.5686
▁perceive	-10.5686
▁stretch	-10.5686
▁arising	-10.5689
▁Action	-10.569
NG	-10.5694
▁equality	-10.5695
▁Tell	-10.5697
▁charity	-10.5699
▁alive	-10.5702
▁08	-10.5703
board	-10.5705
▁2020	-10.5707
80	-10.571
▁answered	-10.5711
round	-10.5712
▁preview	-10.5713
▁diverse	-10.5716
▁stayed	-10.5718
75	-10.5719
▁interpretation	-10.5721
▁firmly	-10.5722
▁evident	-10.5725
▁Global	-10.5725
▁Gupta	-10.5725
▁Green	-10.5725
self	-10.573
▁derived	-10.5731
▁gall	-10.5731
▁celebrated	-10.5733
▁drag	-10.5742
▁repeated	-10.5744
▁competition	-10.575
▁computing	-10.575
▁alarm	-10.5751
▁dress	-10.5756
47	-10.5757
claim	-10.5759
99	-10.5759
▁Cap	-10.5761
▁Legislature	-10.5763
▁forbid	-10.5764
Why	-10.577
▁shaped	-10.578
▁Himself	-10.578
▁entertain	-10.5782
▁asking	-10.5782
▁Calendar	-10.5789
▁Mount	-10.5793
▁profile	-10.5802
▁hardly	-10.5803
▁desired	-10.5804
▁fan	-10.5818
▁merit	-10.5824
SP	-10.5827
▁apparent	-10.5828
▁preach	-10.5828
▁capture	-10.583
▁hardship	-10.5834
▁driven	-10.5836
▁defend	-10.584
▁threaten	-10.5842
▁index	-10.5844
▁tar	-10.5848
▁constitute	-10.5852
▁guidelines	-10.5854
▁Center	-10.5855
▁Indo	-10.5865
▁accomplish	-10.5867
▁accurate	-10.5867
▁scatter	-10.5867
▁Army	-10.587
▁worshipped	-10.5872
▁1947	-10.5872
▁Ask	-10.5875
▁difficulty	-10.5876
▁70	-10.588
▁regarded	-10.588
▁executive	-10.588
▁Sita	-10.5888
▁efficiency	-10.5893
▁definite	-10.5893
▁Record	-10.5906
▁Ten	-10.5907
▁Market	-10.5915
▁declare	-10.5916
▁loose	-10.5927
flu	-10.5928
▁arrive	-10.5931
▁Plugin	-10.5932
▁improving	-10.5932
▁evolve	-10.5932
▁switch	-10.5932
▁naught	-10.5933
▁Vir	-10.5939
▁Due	-10.5939
▁Order	-10.594
▁CON	-10.5941
▁excess	-10.5941
▁strategy	-10.5945
▁prominent	-10.5945
now	-10.5949
▁suggested	-10.5952
▁ties	-10.5958
▁budget	-10.5958
,000	-10.5959
▁elder	-10.5959
▁preferred	-10.596
key	-10.5972
▁greet	-10.5972
place	-10.5976
▁estimated	-10.598
▁Land	-10.5997
▁numerous	-10.5998
▁victim	-10.5998
▁Manager	-10.5998
28	-10.5998
▁repentance	-10.6003
▁Size	-10.6007
▁Afghanistan	-10.6011
worth	-10.6013
▁cycle	-10.6015
▁appoint	-10.602
▁collaboration	-10.6024
▁honor	-10.6024
▁mortal	-10.6025
▁Dec	-10.6028
▁expansion	-10.6037
▁busy	-10.6042
▁trace	-10.6044
▁spite	-10.6045
▁discussed	-10.6047
▁collected	-10.6048
On	-10.606
▁facing	-10.6064
▁grew	-10.6069
▁advised	-10.6075
▁impossible	-10.6077
▁comprise	-10.608
95	-10.6082
▁commun	-10.6083
▁boat	-10.6085
▁fulfill	-10.6089
▁consumption	-10.609
▁UT	-10.6092
▁Product	-10.6095
▁Himalaya	-10.6103
▁theatre	-10.6103
▁Mala	-10.6103
word	-10.6104
▁arrogant	-10.6104
▁disturb	-10.6104
▁legislation	-10.6104
▁traffic	-10.6104
▁terminal	-10.6104
▁proclaim	-10.6106
off	-10.6116
▁repair	-10.6117
▁Annual	-10.6117
▁David	-10.6119
▁Pass	-10.6121
▁reasonable	-10.6125
▁abandon	-10.6131
&	-10.6132
mini	-10.6139
▁integrated	-10.6144
▁farmer	-10.6147
▁representation	-10.6148
▁recognized	-10.6149
▁Kir	-10.615
59	-10.6156
▁Earth	-10.6157
pass	-10.6159
▁permitted	-10.6166
▁adapt	-10.6171
▁composition	-10.6172
▁highlight	-10.6176
VI	-10.6177
▁considerable	-10.6185
▁restrain	-10.6185
▁Amendment	-10.6186
▁interested	-10.6188
▁flight	-10.6192
▁dialog	-10.6197
▁corporate	-10.6197
▁disgrace	-10.6197
▁Kam	-10.6198
▁rub	-10.62
▁wound	-10.6203
▁poetic	-10.6206
▁masses	-10.621
▁Rai	-10.6211
▁excellence	-10.6211
▁felicitations	-10.6211
▁housing	-10.6211
▁raw	-10.6217
▁completion	-10.6224
▁Bri	-10.6229
▁consist	-10.623
▁Main	-10.623
hari	-10.6232
▁sharp	-10.624
▁pious	-10.6251
▁Gora	-10.6257
▁conclude	-10.6265
▁Germany	-10.6268
▁improved	-10.6269
▁protector	-10.6272
▁printer	-10.6277
▁Program	-10.6286
EA	-10.6289
Shall	-10.629
▁push	-10.6291
▁Screen	-10.6292
▁passage	-10.6292
▁thank	-10.6296
comm	-10.6297
▁Imp	-10.6301
▁vessel	-10.6306
▁yellow	-10.6306
▁craft	-10.6306
▁Organization	-10.6306
WA	-10.6307
▁diet	-10.6308
gate	-10.6311
garh	-10.6316
▁Energy	-10.6319
▁province	-10.6319
▁Email	-10.6319
TER	-10.632
▁mineral	-10.632
79	-10.6321
▁Left	-10.6324
down	-10.6326
▁Being	-10.6328
▁spoken	-10.6328
▁shade	-10.6329
▁linked	-10.6329
▁fold	-10.6329
▁Cu	-10.6332
▁rapid	-10.6334
▁Asian	-10.6335
▁distinction	-10.6336
bhu	-10.6337
▁Similarly	-10.6347
pons	-10.6352
▁steadfast	-10.636
▁prohibit	-10.636
▁Tourism	-10.636
▁surprise	-10.636
▁via	-10.6365
▁Fir	-10.6373
▁incurred	-10.6374
▁Police	-10.6374
▁harmony	-10.6374
▁Road	-10.6375
▁Real	-10.6381
LI	-10.6382
▁despair	-10.6388
▁silver	-10.6388
▁transmission	-10.6389
▁fluid	-10.6394
▁encompass	-10.6401
▁Kingdom	-10.6401
▁Election	-10.6402
▁alternative	-10.6415
▁conservation	-10.6415
▁crowd	-10.6415
▁Font	-10.6419
▁CA	-10.6421
udi	-10.6425
▁irrigation	-10.6429
▁remembrance	-10.6429
▁relate	-10.6431
▁bestow	-10.6441
▁Whatever	-10.6441
▁superior	-10.6443
▁Get	-10.6443
▁Prasad	-10.6445
▁Capital	-10.6457
▁Value	-10.6457
▁Lanka	-10.6457
liness	-10.6459
their	-10.6467
▁combination	-10.647
▁recipient	-10.647
▁quantity	-10.647
where	-10.6475
eva	-10.6476
▁bath	-10.6479
▁armed	-10.6492
▁Follow	-10.6498
▁constructed	-10.6498
ifying	-10.6502
▁remark	-10.6503
▁partition	-10.6505
▁corrupt	-10.6506
para	-10.6509
▁satisfaction	-10.6512
▁stamp	-10.6515
ordinate	-10.6518
▁talking	-10.6522
▁Jawaharlal	-10.6526
▁terror	-10.6527
▁cheque	-10.6528
▁baby	-10.6529
▁pour	-10.6533
▁ring	-10.6539
▁socio	-10.6539
▁distributed	-10.6539
▁injustice	-10.6539
▁Nagar	-10.6543
▁mixed	-10.6543
connect	-10.6545
▁logic	-10.6547
▁Cham	-10.655
▁mailing	-10.6551
▁rat	-10.6556
▁holder	-10.6565
▁passion	-10.6566
▁Ambedkar	-10.6567
▁conclusion	-10.6567
▁grievance	-10.6567
▁stray	-10.6571
AYS	-10.6576
▁meat	-10.6581
▁disorder	-10.6581
▁Himachal	-10.6581
▁prospect	-10.6581
lash	-10.6582
▁warned	-10.659
▁faithless	-10.6593
NS	-10.6595
▁External	-10.6598
▁tag	-10.6602
▁remarkable	-10.6602
▁Point	-10.6603
▁pet	-10.6604
▁33	-10.6608
▁White	-10.6609
▁bug	-10.6627
ifi	-10.6627
▁stored	-10.6628
▁Cabinet	-10.6637
▁encrypt	-10.6637
▁snake	-10.6638
▁eastern	-10.6639
resident	-10.6647
▁Hy	-10.6648
▁decade	-10.665
▁determination	-10.6651
▁Photo	-10.6653
▁grass	-10.6653
▁merge	-10.666
2015	-10.6665
▁affection	-10.6665
▁Knowledge	-10.6666
26	-10.6676
▁productivity	-10.6681
▁doom	-10.6689
IVE	-10.6691
▁universe	-10.6694
run	-10.6701
▁pond	-10.6704
▁personnel	-10.6708
▁ensuring	-10.6708
▁disabled	-10.6708
▁None	-10.6709
▁lord	-10.6714
pid	-10.6718
▁1992	-10.6722
▁extensive	-10.6722
▁securities	-10.6722
▁usage	-10.6723
▁dawn	-10.6725
EP	-10.6728
anga	-10.6729
▁difficulties	-10.6731
▁Way	-10.6732
▁lecture	-10.6736
▁struck	-10.6738
35	-10.6744
▁Four	-10.6747
▁Bhag	-10.6747
▁interaction	-10.6749
▁Companies	-10.675
▁Subject	-10.675
▁cluster	-10.675
▁Online	-10.6751
lessness	-10.6762
▁Ibrahim	-10.6765
▁touched	-10.6776
▁Agricultural	-10.6779
▁pound	-10.6782
direct	-10.6783
▁Oft	-10.6791
▁categories	-10.6793
▁sudden	-10.6794
▁brave	-10.6795
▁happening	-10.6803
▁aspiration	-10.6808
▁announce	-10.6809
amba	-10.681
▁duration	-10.6812
stone	-10.6824
▁march	-10.6828
▁Panchayat	-10.6836
▁intend	-10.6839
▁transformation	-10.6839
▁advise	-10.6839
▁silk	-10.6844
organ	-10.6845
▁cried	-10.6851
41	-10.6855
▁1998	-10.6856
▁semi	-10.6865
▁Sector	-10.6868
far	-10.6871
▁herself	-10.6872
▁rear	-10.6877
▁competitive	-10.6879
▁guest	-10.688
▁worse	-10.688
▁Level	-10.6882
▁planned	-10.6884
TO	-10.6893
▁diversity	-10.6894
▁Ramayana	-10.6894
▁barrier	-10.6894
▁eliminat	-10.6897
▁voluntary	-10.6908
▁removal	-10.6908
▁shadow	-10.6908
chari	-10.6911
▁Vedic	-10.6911
▁aught	-10.6918
▁Sang	-10.6923
▁presentation	-10.6926
▁bowl	-10.6935
▁acknowledge	-10.6937
▁dynamic	-10.6937
▁Spirit	-10.6937
▁haply	-10.6937
▁Software	-10.6951
▁regime	-10.6954
LL	-10.6957
▁strategic	-10.6966
▁dollar	-10.6966
▁label	-10.6966
▁extreme	-10.6967
▁authentic	-10.6973
▁usual	-10.6973
▁notified	-10.6977
▁requested	-10.6977
▁realise	-10.6978
CO	-10.6997
▁36	-10.6997
▁exit	-10.7009
▁Brahmin	-10.701
▁HTML	-10.701
▁Subscriber	-10.701
▁righteousness	-10.7016
▁trained	-10.7023
▁gradually	-10.7024
▁anger	-10.7028
▁submission	-10.7031
▁assign	-10.7031
▁protocol	-10.7039
▁Madras	-10.7039
▁planet	-10.7043
▁Peace	-10.7047
▁Chat	-10.7048
▁earning	-10.7049
▁celebration	-10.7054
▁dimension	-10.7054
▁significance	-10.7054
▁Thank	-10.7054
▁Apart	-10.7057
▁irre	-10.7057
mir	-10.7058
▁mor	-10.7058
dress	-10.7059
▁Bin	-10.706
action	-10.706
▁liability	-10.7061
▁Person	-10.7063
▁strengthening	-10.7066
▁Cell	-10.7067
▁License	-10.7068
▁Audio	-10.7068
▁throne	-10.7068
▁thin	-10.707
▁resurrect	-10.7083
▁addresses	-10.7083
▁Location	-10.7087
▁vain	-10.7087
They	-10.7093
▁browser	-10.7098
▁Jaya	-10.7098
▁upto	-10.7101
rank	-10.7109
▁condemn	-10.7112
▁segment	-10.7113
▁older	-10.7115
▁Parliamentary	-10.7116
▁devoted	-10.7121
▁multiply	-10.7127
▁spell	-10.7133
▁rose	-10.7138
▁lake	-10.7138
▁axis	-10.7139
▁anniversary	-10.7142
▁suffered	-10.7143
▁beside	-10.7152
▁manage	-10.7152
person	-10.7155
▁dish	-10.7157
▁extract	-10.7158
▁quiet	-10.716
▁epi	-10.7167
▁Exalted	-10.7171
▁shelter	-10.7172
▁stopped	-10.7173
▁300	-10.7175
▁Template	-10.7186
▁encounter	-10.7186
▁Attach	-10.7186
▁acceptance	-10.7194
▁URI	-10.7195
▁writ	-10.7198
▁park	-10.72
EF	-10.7206
▁conversation	-10.7216
▁eminent	-10.7216
▁Rule	-10.7226
▁Additional	-10.7231
▁southern	-10.7233
▁wholly	-10.7234
▁killing	-10.7237
complete	-10.7241
▁ignorant	-10.7246
▁module	-10.7246
▁York	-10.7246
▁flesh	-10.7246
DF	-10.726
▁petition	-10.726
▁assembly	-10.7261
▁insist	-10.7262
ART	-10.7263
▁leaf	-10.7263
▁widely	-10.7263
▁effectively	-10.7268
▁Grant	-10.7276
▁Place	-10.7288
▁disappear	-10.7291
▁outcome	-10.7291
▁glass	-10.7291
▁claimed	-10.7291
write	-10.7294
▁sym	-10.7294
▁ascribe	-10.7296
▁Comm	-10.7297
▁contributed	-10.7308
gradation	-10.7315
▁sake	-10.7315
EE	-10.7317
▁valuable	-10.7321
▁NPS	-10.7321
▁nerve	-10.7321
EX	-10.7334
▁Advance	-10.7336
▁Details	-10.7336
▁faculty	-10.7336
▁Mercy	-10.7336
▁exempt	-10.7337
▁revive	-10.7337
▁Audit	-10.7337
▁pin	-10.7339
▁tale	-10.7342
▁Region	-10.7348
▁attended	-10.7349
▁Off	-10.7349
▁150	-10.735
▁Perhaps	-10.7351
▁admonition	-10.7351
▁visual	-10.7351
▁viz	-10.7359
▁needy	-10.7361
▁controlled	-10.7364
▁complain	-10.7365
▁Executive	-10.7366
▁Russia	-10.7367
▁awarded	-10.737
▁deserve	-10.7372
▁Zone	-10.7373
zen	-10.7376
▁driver	-10.7379
▁dam	-10.7381
▁ignorance	-10.7381
▁infinite	-10.7381
▁receiving	-10.7381
▁Pension	-10.7381
Script	-10.7381
▁investors	-10.7384
▁printed	-10.7388
▁backward	-10.7391
▁passenger	-10.7396
ference	-10.7403
▁44	-10.7405
▁Sara	-10.741
▁eve	-10.7411
▁Innovation	-10.7412
▁mosque	-10.7412
▁motor	-10.7422
▁resort	-10.7427
istan	-10.743
▁recovery	-10.7436
tivate	-10.7439
▁attach	-10.7439
▁Chaitanya	-10.7442
▁accompanied	-10.7442
▁proxy	-10.7442
▁wander	-10.7443
▁accord	-10.7445
eng	-10.7445
▁Mohan	-10.7456
▁Universities	-10.7457
gha	-10.7458
▁deaf	-10.746
▁indigenous	-10.7472
▁Major	-10.7473
▁pardon	-10.7473
▁undertake	-10.7482
system	-10.7484
▁cotton	-10.7488
▁Session	-10.7488
▁Issue	-10.749
▁Koran	-10.7495
▁Sho	-10.7498
▁ceremony	-10.7503
▁unseen	-10.7503
▁minute	-10.751
pot	-10.7511
▁educated	-10.7516
▁producing	-10.7518
▁MSME	-10.7518
▁specially	-10.752
▁Child	-10.7521
▁preference	-10.7523
uda	-10.7525
29	-10.7531
31	-10.7533
▁Binoy	-10.7534
▁fur	-10.7538
▁Connect	-10.7539
TE	-10.754
▁fifteen	-10.7549
▁League	-10.7549
▁shame	-10.7553
▁monitoring	-10.7556
▁assert	-10.756
jj	-10.7566
▁partial	-10.7568
▁familiar	-10.758
▁Short	-10.7581
▁deities	-10.7584
night	-10.7587
▁Gita	-10.7588
▁Mir	-10.7592
▁technological	-10.7595
▁vol	-10.7597
▁legend	-10.7599
▁absorb	-10.7611
▁algorithm	-10.7611
▁celebrate	-10.7616
▁progressive	-10.762
▁48	-10.7624
▁occupation	-10.7626
▁corporation	-10.7626
▁Tool	-10.7641
▁Certainly	-10.7642
▁Download	-10.7642
▁Collect	-10.7644
take	-10.7647
▁consultation	-10.7648
▁Selection	-10.7653
▁classical	-10.7655
▁innovative	-10.7657
▁offspring	-10.7657
▁reckoning	-10.7658
▁www	-10.7661
▁drum	-10.7663
▁Forward	-10.7667
lant	-10.7668
flow	-10.7671
▁Meeting	-10.7673
▁Maharaja	-10.7674
▁estimate	-10.7679
▁refuse	-10.7679
▁monitor	-10.7682
▁German	-10.7686
IB	-10.7687
▁testimony	-10.7689
▁triumph	-10.7689
▁wrath	-10.7689
▁worst	-10.7689
▁musical	-10.7692
▁diploma	-10.7704
▁Origin	-10.7704
▁pit	-10.771
▁lift	-10.7712
serve	-10.7718
▁Object	-10.772
▁internet	-10.7722
▁Install	-10.7736
There	-10.7736
▁excuse	-10.7741
32	-10.7741
wood	-10.7745
▁sequence	-10.7751
▁tremendous	-10.7751
Go	-10.7753
-20	-10.7756
▁encouraged	-10.7756
▁sharing	-10.7757
cade	-10.7764
▁Medical	-10.7767
▁photograph	-10.7768
▁northern	-10.7769
▁cup	-10.7773
▁constitutional	-10.7774
▁radi	-10.7774
▁epic	-10.7779
▁criticism	-10.7787
▁arranged	-10.7788
▁airport	-10.7789
When	-10.7797
▁sensitive	-10.7799
▁empire	-10.7799
Laughter	-10.7799
89	-10.7808
▁despite	-10.7814
▁ungrateful	-10.7814
▁biggest	-10.7814
know	-10.7814
▁authorised	-10.782
▁Hence	-10.7825
▁opposite	-10.783
Pro	-10.7838
▁Single	-10.7839
▁Hide	-10.784
▁Burn	-10.7841
worm	-10.7845
▁equivalent	-10.7846
▁competent	-10.7847
▁Gazette	-10.7862
▁miracle	-10.7862
▁emerging	-10.7878
▁vary	-10.788
▁normally	-10.7881
PL	-10.7882
▁mag	-10.7883
vant	-10.7887
83	-10.7899
▁scan	-10.79
▁operative	-10.7904
▁Bio	-10.7904
▁disciple	-10.791
▁undergo	-10.7914
▁historic	-10.7918
▁France	-10.7921
▁Update	-10.7927
▁Hill	-10.7932
▁constantly	-10.7937
▁requirement	-10.7939
▁entrusted	-10.7942
▁tank	-10.7942
▁carefully	-10.7955
▁qualities	-10.7958
▁tail	-10.7959
▁exactly	-10.7964
▁knoweth	-10.7971
▁cultivation	-10.7974
▁Vijay	-10.7974
▁Said	-10.7981
▁surrounding	-10.799
▁Manipur	-10.799
▁dividend	-10.7992
▁instruction	-10.7994
who	-10.8002
▁midst	-10.8005
▁woe	-10.8007
▁uncle	-10.8007
▁strict	-10.8008
▁repeat	-10.8014
▁missing	-10.8015
▁definition	-10.8022
▁unaware	-10.8022
▁patron	-10.8022
▁fro	-10.8022
▁Again	-10.8022
▁Ltd	-10.8024
▁catch	-10.8029
▁dependent	-10.8036
▁audience	-10.8038
▁carbon	-10.8038
▁injury	-10.8038
▁snow	-10.8056
▁peaceful	-10.8065
▁weakness	-10.807
▁inclusive	-10.8071
▁goddess	-10.8087
▁smooth	-10.8087
link	-10.809
▁interval	-10.8093
count	-10.8094
pit	-10.8102
▁disaster	-10.8103
▁sinners	-10.8103
▁Japanese	-10.8104
▁bitter	-10.8105
▁Bhu	-10.8108
▁shell	-10.811
▁Taj	-10.8114
▁engagement	-10.8115
▁fashion	-10.8119
▁grief	-10.8119
▁sentiment	-10.812
▁raising	-10.8124
▁Nir	-10.8125
▁authentication	-10.8128
▁temper	-10.8135
▁diamond	-10.8136
▁Natural	-10.8136
98	-10.8148
▁execution	-10.8152
▁wheel	-10.8152
▁keen	-10.8152
▁slay	-10.8158
▁Format	-10.8159
atur	-10.816
gress	-10.8168
▁Media	-10.8169
▁VI	-10.817
print	-10.8173
▁1948	-10.8173
▁IIT	-10.8174
▁closely	-10.8175
road	-10.818
▁appellant	-10.8185
▁investigation	-10.8185
▁ordained	-10.8185
▁virtual	-10.8185
▁George	-10.8185
▁illegal	-10.8185
▁Branch	-10.8185
▁hence	-10.8194
▁aircraft	-10.8201
▁Narayan	-10.8201
▁plead	-10.8201
▁modification	-10.8218
▁survive	-10.8218
▁represented	-10.822
OUR	-10.822
believers	-10.8226
▁livelihood	-10.8234
▁studied	-10.8234
rud	-10.8235
▁Britain	-10.8235
▁protest	-10.8238
▁Interest	-10.8245
mala	-10.8248
▁Hall	-10.8251
▁ruling	-10.8255
▁gap	-10.8258
▁emotional	-10.8263
▁divorce	-10.8267
▁vertical	-10.8269
▁dealt	-10.8275
▁peak	-10.8276
▁Personal	-10.8278
▁regularly	-10.8283
▁Empire	-10.8284
▁Industries	-10.8284
▁Labour	-10.8284
▁fate	-10.829
▁defect	-10.8298
▁declaration	-10.83
▁teeth	-10.8301
▁disclose	-10.8301
▁kg	-10.8301
▁hydro	-10.8301
▁garment	-10.8301
▁inserted	-10.8303
▁Bharati	-10.8313
▁NABARD	-10.8317
▁introduction	-10.8317
▁poison	-10.8317
▁imposed	-10.8317
▁radical	-10.8318
▁2018	-10.832
36	-10.8323
▁Brahman	-10.8324
▁Kali	-10.8327
▁generate	-10.8328
▁hang	-10.8329
▁cancer	-10.8329
▁wheat	-10.8334
▁uniform	-10.8334
▁Vidya	-10.8339
▁generated	-10.8342
▁chose	-10.8349
▁conferred	-10.835
ette	-10.8357
emia	-10.8361
nne	-10.8365
▁PRO	-10.8366
▁yesterday	-10.8367
▁corresponding	-10.8368
▁entity	-10.8368
▁Prince	-10.8369
▁commencement	-10.8372
▁consent	-10.8376
▁Investment	-10.8384
▁contrary	-10.8384
▁repay	-10.8384
▁worthy	-10.8389
▁Devi	-10.8393
His	-10.8397
▁manual	-10.8397
▁Christ	-10.8399
▁Configure	-10.84
▁Majesty	-10.84
▁typical	-10.84
▁closer	-10.8407
▁Chrome	-10.8417
▁quit	-10.842
▁careful	-10.8422
COM	-10.8423
▁noise	-10.8424
wl	-10.8427
AND	-10.8434
▁movie	-10.8434
▁oriented	-10.8435
70	-10.8435
▁Kala	-10.8436
▁Normal	-10.8436
▁finished	-10.8438
▁consisting	-10.8451
▁PRAN	-10.8451
▁Sometimes	-10.8451
▁gentle	-10.8451
▁hire	-10.8466
▁Turkey	-10.8468
▁Allow	-10.8468
▁precede	-10.8469
END	-10.847
▁Hearing	-10.8472
▁scholar	-10.8477
▁chat	-10.8481
ERS	-10.8482
PRODUCT	-10.8485
responsibilities	-10.8485
ordination	-10.8485
▁Arch	-10.8488
▁summer	-10.8489
▁CRA	-10.8493
AK	-10.8493
▁percentage	-10.8494
▁drowned	-10.8501
▁learnt	-10.8511
▁Agra	-10.8513
96	-10.8515
▁Properties	-10.8518
▁enlighten	-10.8518
▁Leave	-10.8519
▁lady	-10.8526
▁managed	-10.8532
▁err	-10.8533
▁Greek	-10.8535
▁enrich	-10.8536
▁Faith	-10.8538
▁Welfare	-10.8552
▁Mahabharata	-10.8553
▁farming	-10.8556
▁Never	-10.856
▁limitation	-10.856
▁rescue	-10.857
▁(5)	-10.8572
▁Fu	-10.8577
▁grievous	-10.8586
▁mischief	-10.8586
▁silent	-10.8587
▁installation	-10.859
▁emerged	-10.8602
▁protein	-10.8604
▁Money	-10.8608
▁sail	-10.8608
▁1996	-10.861
tress	-10.862
▁abundant	-10.8621
▁Organisation	-10.8621
▁blank	-10.8623
▁realised	-10.8626
▁liable	-10.8626
▁successor	-10.863
▁Five	-10.8634
MENT	-10.8637
▁Marathi	-10.8638
▁salary	-10.8639
▁hotel	-10.8647
▁Vietnam	-10.8655
▁plane	-10.8656
▁Bhi	-10.8661
▁DAY	-10.8666
2013	-10.8671
▁observation	-10.8672
▁gross	-10.8673
▁rebel	-10.8673
▁carved	-10.8676
▁Protection	-10.8677
bro	-10.8679
▁Professor	-10.8689
▁abnormal	-10.8689
▁entrance	-10.8689
▁dignity	-10.869
▁modified	-10.869
▁essentially	-10.8692
▁”“	-10.8692
▁supposed	-10.8692
▁chest	-10.87
▁Madh	-10.8702
▁earliest	-10.8707
▁fertilizer	-10.8707
▁Throne	-10.8707
▁Engineering	-10.8707
▁Holy	-10.8707
▁1990	-10.8712
▁lac	-10.8714
awn	-10.872
74	-10.8724
▁Chennai	-10.8724
▁Governance	-10.8724
▁healthcare	-10.8724
▁monument	-10.8724
▁Arabia	-10.8739
▁Durga	-10.8741
▁Nothing	-10.8743
▁Visit	-10.8743
▁Airport	-10.8744
▁wire	-10.875
▁plate	-10.8753
▁ray	-10.8753
▁calculated	-10.8755
▁Thamud	-10.8759
▁Defence	-10.8759
▁causing	-10.8759
▁knee	-10.8761
▁Space	-10.8761
including	-10.8763
▁fever	-10.877
▁Loan	-10.8773
▁sheep	-10.8775
▁mix	-10.8775
▁deceive	-10.8776
▁interact	-10.8784
97	-10.8786
tention	-10.8787
▁aforesaid	-10.8794
▁symptoms	-10.8794
▁license	-10.8794
▁Thy	-10.8796
▁emotion	-10.8798
▁Event	-10.8804
▁opposed	-10.8805
▁correspond	-10.881
▁Computer	-10.8811
▁guess	-10.8811
▁intense	-10.8812
▁Saudi	-10.8814
▁Hinduism	-10.8814
▁Punjabi	-10.8817
▁Sind	-10.8824
▁aggregate	-10.8829
▁widow	-10.8829
▁ISO	-10.883
▁hole	-10.8831
▁conversion	-10.8833
▁Deposit	-10.8833
▁bread	-10.8841
▁MO	-10.8845
33	-10.8845
▁Minimum	-10.8846
▁{1}	-10.8846
▁Black	-10.8846
▁nurse	-10.8846
▁atomic	-10.8847
evil	-10.8851
▁Super	-10.8852
▁pace	-10.8856
metric	-10.8865
▁regulate	-10.8865
27	-10.8866
▁Header	-10.888
▁clubs	-10.8881
▁Mahal	-10.8882
▁rough	-10.8885
▁operational	-10.8887
▁clothes	-10.8888
▁Gir	-10.8891
▁awake	-10.8894
▁Bhutan	-10.89
▁tenant	-10.8901
▁secondary	-10.8911
▁Yusuf	-10.8916
▁Indira	-10.8917
▁reduction	-10.8926
▁deceased	-10.8934
▁exalted	-10.8935
▁caught	-10.8937
▁Gar	-10.8942
▁exploit	-10.8943
▁1950	-10.8951
▁integrity	-10.8952
▁dramatic	-10.8959
▁envisage	-10.8969
▁embrace	-10.8969
▁Monitor	-10.897
▁Anti	-10.8971
▁coordinate	-10.8973
▁belied	-10.8975
▁rush	-10.8978
▁gland	-10.8985
▁inhabitants	-10.8988
▁rapidly	-10.8988
▁smoke	-10.8988
▁settle	-10.8991
▁genetic	-10.8994
▁Paper	-10.8998
▁Question	-10.9005
▁involving	-10.9005
▁acquire	-10.9017
▁Agreement	-10.9023
operative	-10.9025
▁Phone	-10.9027
▁fabricate	-10.9033
duction	-10.9033
▁Gram	-10.9035
▁continent	-10.9041
▁serving	-10.9041
▁Insert	-10.9042
▁secular	-10.9044
▁UP	-10.9046
▁stuff	-10.9046
▁EVE	-10.905
▁modify	-10.9059
genera	-10.9059
view	-10.906
▁recommended	-10.9063
▁Survey	-10.9077
▁labor	-10.9077
▁Behold	-10.9081
▁decreed	-10.909
▁Solar	-10.9092
▁circular	-10.9094
▁colleague	-10.9094
▁Encrypt	-10.9094
▁Previous	-10.9094
▁variable	-10.9095
▁Three	-10.9095
ground	-10.9095
▁summon	-10.9099
▁illness	-10.9103
▁engage	-10.9112
▁concession	-10.9112
▁derivative	-10.9112
▁recruit	-10.9112
▁fragment	-10.9112
▁consume	-10.9122
▁compassion	-10.9126
▁bliss	-10.9131
▁parliamentary	-10.9134
▁Star	-10.9134
UD	-10.914
▁winter	-10.9143
▁insert	-10.9144
▁putting	-10.9147
▁residence	-10.9149
▁varieties	-10.9149
▁carries	-10.9153
mni	-10.9156
▁flee	-10.9157
▁Bookmark	-10.9157
▁producer	-10.9158
▁slip	-10.9162
culture	-10.9166
▁possibility	-10.9167
▁interpret	-10.9172
bble	-10.9178
▁Private	-10.9185
▁circuit	-10.9185
▁bacteria	-10.9185
▁Tiru	-10.9185
▁inspire	-10.9198
▁approximate	-10.9203
▁Quality	-10.9203
▁estate	-10.9204
▁Recent	-10.9206
▁Transfer	-10.921
▁applicant	-10.9221
▁impression	-10.9221
Then	-10.9222
▁Mun	-10.9231
▁Common	-10.9231
▁equation	-10.9239
▁Creator	-10.9239
▁Allahabad	-10.9241
▁perish	-10.9246
▁deduct	-10.9248
▁Device	-10.925
udh	-10.9252
eshwar	-10.9257
▁GNOME	-10.9258
▁Yojana	-10.9258
▁pilgrimage	-10.926
aught	-10.9263
firm	-10.9269
▁Mur	-10.9278
space	-10.9292
▁innocent	-10.9294
▁dialogue	-10.9295
▁childhood	-10.9299
▁provider	-10.93
saying	-10.93
▁defendant	-10.931
▁Monotheism	-10.9312
▁achieving	-10.9312
▁parallel	-10.9312
▁boost	-10.9313
▁angel	-10.933
▁Switch	-10.9331
▁Field	-10.9331
▁predict	-10.9333
87	-10.9338
IST	-10.9343
▁Valley	-10.9349
▁chart	-10.9351
▁rename	-10.9356
▁rail	-10.9361
▁score	-10.9366
▁Baba	-10.9367
▁administrator	-10.9368
▁vimana	-10.9368
▁resign	-10.9369
▁dismiss	-10.9375
scope	-10.9379
▁Procedure	-10.9386
▁genuine	-10.9386
▁retribution	-10.9386
▁wilt	-10.9386
type	-10.9394
fall	-10.9399
▁Stop	-10.9403
▁Convention	-10.9405
▁William	-10.9405
▁honest	-10.9405
pertaining	-10.9406
▁Ul	-10.9417
▁Benefit	-10.9423
▁proviso	-10.9423
▁Initial	-10.9423
▁Basava	-10.9426
▁thrown	-10.9433
text	-10.9434
▁permanently	-10.9437
▁somebody	-10.9441
▁enclos	-10.9442
▁transgressors	-10.9445
▁smile	-10.9447
▁1991	-10.9447
▁tape	-10.9449
▁mouse	-10.9452
▁Culture	-10.9461
▁advocate	-10.9479
▁Truly	-10.9479
ambi	-10.9481
▁incline	-10.9481
deva	-10.949
▁primarily	-10.9498
▁Remote	-10.9498
gree	-10.9507
44	-10.9508
▁Should	-10.9517
▁configure	-10.9517
▁shareholder	-10.9517
▁inaugurated	-10.9519
▁(*	-10.9534
▁Municipal	-10.9535
▁fifth	-10.9535
▁Phil	-10.9539
▁larva	-10.9543
Peace	-10.9546
▁contrast	-10.9554
▁compound	-10.9562
▁BY	-10.957
▁assuredly	-10.9573
▁hatred	-10.9573
plan	-10.9582
▁regret	-10.9592
▁digit	-10.9596
bhai	-10.9603
▁artificial	-10.9611
▁layout	-10.9614
▁reaches	-10.9627
▁plaintiff	-10.963
▁swift	-10.963
▁Govt	-10.963
▁corn	-10.9633
▁administer	-10.9649
▁societies	-10.9649
▁stakeholders	-10.9649
▁mould	-10.9649
▁charm	-10.9651
▁slowly	-10.9656
▁lease	-10.9656
▁acre	-10.9661
▁Having	-10.9661
escent	-10.9663
▁translated	-10.9668
▁confront	-10.967
▁Paris	-10.9675
▁worry	-10.9687
▁variation	-10.9687
▁combined	-10.9694
▁swor	-10.9697
▁stability	-10.9704
▁Almighty	-10.9706
▁practise	-10.9706
▁Summit	-10.9706
▁Saha	-10.9725
▁Bahadur	-10.9725
▁Lucknow	-10.9725
▁summary	-10.9725
▁lotus	-10.9725
▁confined	-10.9725
▁flora	-10.9729
▁sinful	-10.9743
▁Notwithstanding	-10.9744
▁hunger	-10.9744
▁Always	-10.9744
▁bore	-10.9761
▁Telugu	-10.9763
▁easier	-10.9763
scribing	-10.9763
appa	-10.9767
▁attractive	-10.9778
▁Russian	-10.9782
▁Ayurveda	-10.9782
▁deliberate	-10.9782
▁imagination	-10.9782
▁virus	-10.9783
▁fabric	-10.9791
▁Rate	-10.9796
▁fallen	-10.9798
▁colon	-10.9802
▁intervention	-10.9802
▁rhythm	-10.9802
▁supplement	-10.9802
▁surrounded	-10.9802
▁1997	-10.9808
▁revolutionary	-10.9809
▁binding	-10.9821
▁intimate	-10.9821
▁connectivity	-10.9822
▁Know	-10.983
▁overtake	-10.9836
▁Saving	-10.9839
▁beneficial	-10.984
▁Administration	-10.984
▁Festival	-10.984
▁vaccine	-10.984
▁bamboo	-10.986
▁legislative	-10.986
▁shoot	-10.986
▁factory	-10.9876
▁avert	-10.9876
▁Electric	-10.9879
▁consolidat	-10.9879
▁arrival	-10.9879
▁Toggle	-10.9879
▁Learn	-10.988
▁dangerous	-10.9883
▁everywhere	-10.9885
▁bigger	-10.9885
▁tall	-10.9893
▁Bangalore	-10.9899
▁satisfy	-10.9899
▁exposed	-10.9899
▁arrow	-10.99
▁scholarship	-10.99
charge	-10.9904
▁blessing	-10.9905
▁Total	-10.9915
▁Maximum	-10.9918
▁expiry	-10.9918
▁massive	-10.9933
▁elaborate	-10.9938
▁rejoice	-10.9938
▁geographical	-10.9938
▁Background	-10.9938
▁shock	-10.9941
▁seize	-10.9943
▁Long	-10.9949
▁perfection	-10.9955
▁Several	-10.9957
▁Title	-10.9958
▁calm	-10.9959
▁sixty	-10.996
▁distant	-10.9977
▁exact	-10.9978
▁cheap	-10.9983
▁textile	-10.9992
61	-10.9992
▁organic	-10.9995
▁commodities	-10.9997
▁climb	-10.9997
▁threw	-10.9998
▁anywhere	-11.0016
▁Sikkim	-11.0016
▁crucial	-11.0016
▁museum	-11.0016
▁Haryana	-11.0016
▁Mosque	-11.0016
▁Nanak	-11.0017
▁keyboard	-11.0018
▁peasant	-11.0036
▁spouse	-11.0036
▁warrant	-11.0037
▁Roman	-11.0049
▁SPEECH	-11.0056
▁thorough	-11.0056
▁overseas	-11.0056
▁Present	-11.0057
▁lawyer	-11.0058
▁pool	-11.0073
▁Secretariat	-11.0075
▁decrease	-11.0075
▁delegation	-11.0075
▁precise	-11.0076
▁hypo	-11.0076
▁fortune	-11.0076
▁cooperative	-11.0079
▁Registration	-11.0095
▁integration	-11.0095
▁explanation	-11.0095
▁spare	-11.0101
▁ascend	-11.0119
▁Notification	-11.0121
▁1980	-11.0124
▁licence	-11.0135
▁silence	-11.0135
▁Promotion	-11.0139
▁trip	-11.0139
▁parliament	-11.0152
▁swallow	-11.0155
▁Himalayan	-11.0157
▁chamber	-11.0157
▁Obama	-11.0157
▁transportation	-11.0158
▁Content	-11.0165
▁Patel	-11.0165
▁priest	-11.0175
gger	-11.0176
▁Padma	-11.0181
title	-11.0192
▁Jag	-11.0195
▁twain	-11.0195
▁applies	-11.0198
▁shut	-11.02
water	-11.0204
▁accessible	-11.0208
▁pronounce	-11.0215
▁Speech	-11.0215
▁Family	-11.0215
▁Korea	-11.0216
▁Love	-11.0218
▁Pune	-11.0226
▁recognise	-11.0235
▁maturity	-11.0235
[	-11.0251
{	-11.0251
▁weigh	-11.0254
86	-11.0255
▁Aaron	-11.0256
▁Employment	-11.0258
▁Operation	-11.0278
▁float	-11.0278
▁resistance	-11.028
olar	-11.0281
▁Shan	-11.0287
▁Young	-11.0293
krishna	-11.0296
▁resist	-11.03
▁Grand	-11.0303
▁purify	-11.0305
▁boot	-11.0306
▁pump	-11.0307
▁flame	-11.0313
▁Wikipedia	-11.0316
▁virtuous	-11.0316
▁Function	-11.0316
▁Kabir	-11.0316
▁excessive	-11.0323
▁golden	-11.0331
▁native	-11.0333
▁subscriber	-11.0334
▁Ministries	-11.0337
▁Reminder	-11.0337
▁suffice	-11.0337
▁Design	-11.0337
▁calf	-11.034
▁USA	-11.0342
▁consistent	-11.0344
▁cache	-11.0346
▁concentrate	-11.0357
▁essay	-11.0357
▁Toolbar	-11.0358
▁Turk	-11.0358
▁colonial	-11.0359
▁urgent	-11.0361
▁Whenever	-11.0363
91	-11.0365
▁reducing	-11.0377
▁SHRI	-11.0377
▁queen	-11.0378
▁rope	-11.0386
▁upgrade	-11.0394
▁Protocol	-11.0398
▁immortal	-11.0398
▁ticket	-11.0398
▁angle	-11.0405
film	-11.0407
▁intellect	-11.0417
▁Abdul	-11.0418
▁varied	-11.0419
▁Cancel	-11.0422
▁brand	-11.0432
▁Vol	-11.0435
which	-11.0435
▁Jewish	-11.0439
▁manuscript	-11.0439
▁unfortunate	-11.0439
▁glorify	-11.0439
▁Soviet	-11.0439
▁lust	-11.044
▁thankful	-11.0447
▁nearest	-11.0448
▁Write	-11.0456
▁revision	-11.0477
▁sponsor	-11.048
▁Moreover	-11.0482
▁veil	-11.0496
▁pursuit	-11.0501
▁Iranian	-11.0504
▁magician	-11.0505
▁400	-11.0509
▁Bush	-11.0518
▁hate	-11.0519
▁Academy	-11.0521
▁perception	-11.0521
▁enormous	-11.0542
▁safeguard	-11.0542
▁digest	-11.0542
▁Transport	-11.0546
▁1000	-11.0548
▁miles	-11.0548
▁crash	-11.055
▁tip	-11.0559
people	-11.056
▁decimal	-11.0563
▁strip	-11.0574
▁Term	-11.0579
▁eleven	-11.0584
▁membership	-11.0593
▁pun	-11.0601
▁Communication	-11.0605
▁accumulate	-11.0605
▁earthquake	-11.0605
▁emergency	-11.0605
▁conceive	-11.0605
▁debug	-11.0607
▁womb	-11.0626
RAM	-11.0626
script	-11.0628
▁obstruct	-11.0629
▁Draw	-11.0632
▁adverse	-11.0649
▁twin	-11.0657
▁villagers	-11.0662
▁LDAP	-11.0668
How	-11.0668
▁True	-11.0668
▁Position	-11.0668
▁shout	-11.0672
▁wrap	-11.0673
▁1993	-11.0673
▁define	-11.0682
▁Mobile	-11.0689
▁Browse	-11.069
▁patent	-11.0692
▁admonish	-11.071
▁somewhat	-11.071
▁troops	-11.071
▁Smt	-11.0711
▁Return	-11.0714
▁nut	-11.0718
90	-11.0726
▁magazine	-11.0731
▁Sucharita	-11.0731
▁forgotten	-11.0732
▁storm	-11.0733
▁1995	-11.0741
mukh	-11.0742
▁startup	-11.0751
utonomous	-11.0752
▁entries	-11.0752
▁precious	-11.0758
TRA	-11.0759
▁wooden	-11.0764
▁formulation	-11.0767
▁Desktop	-11.0773
▁satellite	-11.0773
▁Solomon	-11.0773
▁Syria	-11.0773
▁loyal	-11.0774
▁foster	-11.0779
▁Paul	-11.0781
▁mut	-11.0781
▁Mill	-11.0784
▁Develop	-11.0786
▁cutting	-11.0788
▁Washington	-11.0794
▁batsman	-11.0795
▁delegate	-11.0795
▁RBI	-11.0795
▁mixture	-11.0796
cribed	-11.0796
▁everybody	-11.0805
▁singing	-11.0809
▁NATIONAL	-11.0816
▁pulse	-11.0816
▁fraction	-11.0817
ndranath	-11.0818
▁inaugurate	-11.0819
▁pose	-11.0837
▁routine	-11.0837
▁Sheikh	-11.0837
▁Consider	-11.0838
▁Provision	-11.084
standing	-11.0841
▁nearby	-11.0845
▁pitch	-11.0852
▁retrieve	-11.0859
▁CALL	-11.0859
▁Planning	-11.0867
▁vow	-11.0869
▁Movement	-11.0871
▁radiation	-11.0874
▁hereafter	-11.088
▁distinguish	-11.0888
▁Lake	-11.0889
▁appreciation	-11.0902
▁encouraging	-11.0902
▁vitamin	-11.0902
▁mislead	-11.0902
▁copies	-11.0902
▁residential	-11.0907
▁Review	-11.0907
field	-11.0912
HAR	-11.0913
▁Beneficent	-11.0923
▁Literature	-11.0923
▁occupied	-11.0923
▁simultaneous	-11.0923
HAN	-11.0934
▁dispose	-11.0942
▁Zoom	-11.0945
▁financing	-11.0945
▁Ocean	-11.0945
▁slope	-11.0945
▁Payment	-11.0945
▁bud	-11.0953
▁prosper	-11.0957
▁horizontal	-11.0968
48	-11.097
grant	-11.0973
▁jack	-11.0973
▁curve	-11.0975
▁Chair	-11.0981
▁maid	-11.0985
▁Consumer	-11.0988
▁Digital	-11.0988
▁assemble	-11.0988
▁allocation	-11.0988
▁Purana	-11.0994
93	-11.1
▁wherewith	-11.1008
▁disagree	-11.101
▁Frame	-11.101
▁descendants	-11.1011
▁insight	-11.1014
▁mood	-11.1029
▁injured	-11.1032
▁Tibet	-11.1032
▁interview	-11.1033
▁inspection	-11.1053
▁profound	-11.1053
▁eventually	-11.1053
▁pending	-11.1069
▁acquaint	-11.1075
▁preceding	-11.1075
▁bought	-11.1075
▁objection	-11.1075
▁closing	-11.1075
▁Until	-11.1083
▁Ganges	-11.1084
▁norms	-11.1089
▁exhibition	-11.1092
▁Block	-11.1094
▁sample	-11.1098
▁rational	-11.1101
▁bondmen	-11.1103
▁1986	-11.1104
▁Without	-11.1105
▁lung	-11.1107
▁accommodation	-11.1119
▁conviction	-11.1119
▁occurrence	-11.1119
▁POP	-11.1119
▁Accept	-11.1122
▁infant	-11.1124
▁1987	-11.1126
▁Satya	-11.1138
▁altogether	-11.1141
▁piety	-11.1141
▁television	-11.1142
▁immu	-11.1154
▁nutrition	-11.1163
▁wonderful	-11.1167
▁realisation	-11.1171
▁dwellers	-11.1175
▁1988	-11.1175
▁clipboard	-11.1185
▁Journal	-11.1185
▁suppress	-11.1185
▁contend	-11.1186
▁drain	-11.1186
▁Cave	-11.119
▁chromosome	-11.1208
▁invitation	-11.1208
▁shot	-11.1225
▁dynasty	-11.123
▁extraordinary	-11.123
▁dominion	-11.123
▁boiling	-11.123
▁Turkish	-11.1233
▁drew	-11.1238
▁enhancing	-11.1252
▁thrust	-11.1252
▁crush	-11.1252
▁lowest	-11.127
▁Technical	-11.1274
▁brown	-11.1277
▁Sindhi	-11.1277
▁exploitation	-11.1285
ananda	-11.1289
▁Connection	-11.129
▁coat	-11.1307
▁luck	-11.1309
▁Basic	-11.1313
▁widget	-11.1319
▁devise	-11.1329
▁Directorate	-11.1331
▁belie	-11.1342
▁cultivate	-11.1342
▁necessity	-11.1342
▁Topics	-11.1342
▁shake	-11.1351
▁capabilities	-11.1364
▁statutory	-11.1364
▁pretty	-11.1364
▁explore	-11.1364
▁discourse	-11.1366
▁mask	-11.1373
▁Vivekananda	-11.1387
▁migrate	-11.141
▁Ganesh	-11.141
▁winning	-11.1416
▁perspective	-11.1432
▁outlook	-11.1432
AGE	-11.1439
▁Establish	-11.1455
▁admire	-11.1456
turn	-11.1459
▁abuse	-11.1464
▁Infrastructure	-11.1478
▁commerce	-11.1478
▁exhaust	-11.1478
▁statue	-11.1478
▁Sultan	-11.1478
▁generous	-11.1479
▁compassionate	-11.1483
▁Archive	-11.1484
▁adhere	-11.1485
▁metres	-11.1486
▁Yu	-11.1491
▁Netaji	-11.15
▁Modern	-11.1502
▁hardware	-11.1503
▁ownership	-11.1504
▁alms	-11.1504
Lord	-11.1505
▁Complete	-11.1505
▁premises	-11.1523
▁scroll	-11.1523
▁begun	-11.1525
Where	-11.1527
▁maha	-11.153
▁Warning	-11.1531
▁adoption	-11.1536
▁quarrel	-11.1546
▁Bureau	-11.1546
▁Arjun	-11.1548
▁forgot	-11.1549
▁Jacob	-11.1569
▁Radio	-11.1585
▁Rename	-11.159
▁commencing	-11.1592
▁overwhelm	-11.1592
▁supplied	-11.1592
▁unexpected	-11.1592
while	-11.1597
▁alien	-11.1597
EST	-11.1608
▁Configuration	-11.1615
▁abundance	-11.1615
▁Commerce	-11.1615
▁Urban	-11.1615
▁refund	-11.1615
▁broadcast	-11.1617
▁Organ	-11.162
▁revere	-11.1621
▁travelled	-11.1624
▁Scale	-11.1627
▁Akademi	-11.1638
▁Extension	-11.1638
▁Clean	-11.1639
▁genus	-11.1639
▁flourish	-11.1662
▁holiday	-11.1662
▁stomach	-11.1662
▁evildoers	-11.1662
▁plastic	-11.1662
▁Lahore	-11.1662
▁Preferences	-11.1662
▁Period	-11.1662
▁harmful	-11.1679
▁suspend	-11.1685
▁literacy	-11.1685
▁eager	-11.1685
▁Preview	-11.1686
▁organize	-11.1698
▁testify	-11.1705
▁Integrated	-11.1708
▁subsidy	-11.1708
▁bulk	-11.1709
▁Debug	-11.1711
▁programming	-11.1712
▁behave	-11.1713
Have	-11.1714
▁Track	-11.1716
▁Cultural	-11.1732
▁slaughter	-11.1732
▁regulator	-11.1732
▁Village	-11.1732
▁compliment	-11.1732
▁wake	-11.1735
▁Anjuta	-11.1755
▁disposal	-11.1755
▁workshop	-11.1755
▁communicate	-11.1755
break	-11.1761
▁genius	-11.1779
▁enlarge	-11.1779
▁commend	-11.1779
▁pioneer	-11.1779
▁Ayat	-11.1781
▁agenda	-11.1784
▁Citizen	-11.1802
▁glorious	-11.1802
▁decorated	-11.1802
▁Queen	-11.1802
▁gracious	-11.1806
▁subtract	-11.1819
▁dedication	-11.1826
▁hyper	-11.1826
▁conquer	-11.1826
▁pearl	-11.1828
▁horn	-11.1832
▁1989	-11.1834
▁Shankar	-11.1841
▁Effect	-11.1849
▁Guidelines	-11.1849
▁Width	-11.1849
▁Turn	-11.1855
▁Contract	-11.1856
▁emission	-11.1864
▁transparency	-11.1873
▁whisper	-11.1873
▁angry	-11.1874
▁rival	-11.1877
▁instant	-11.1877
▁Protect	-11.1892
▁tight	-11.1894
present	-11.1894
▁Sync	-11.1894
▁legislature	-11.1897
▁politician	-11.1897
▁idolaters	-11.1897
▁Sahib	-11.1897
▁Seminar	-11.1897
friend	-11.1903
▁slightly	-11.1921
▁lyric	-11.1922
▁Budget	-11.1944
▁retreat	-11.1945
▁employ	-11.1946
▁trick	-11.1957
Applause	-11.1968
▁puppet	-11.1968
▁daniel	-11.1968
▁Index	-11.1969
▁Large	-11.1971
▁toolbar	-11.1972
Prophet	-11.1975
▁Express	-11.1976
▁Assistance	-11.1992
▁Malayalam	-11.1992
▁concentration	-11.1992
▁Column	-11.1992
▁allotted	-11.1992
▁computed	-11.1993
▁Goddess	-11.1994
▁trap	-11.1999
▁1970	-11.2001
▁grasp	-11.2003
▁destiny	-11.2016
▁pregnancy	-11.2016
▁afterwards	-11.2018
▁Swaraj	-11.2019
▁tiger	-11.2024
▁Reference	-11.2024
▁bold	-11.2027
▁neighbor	-11.204
▁Street	-11.2041
▁identification	-11.2065
▁exclude	-11.2065
▁Request	-11.2065
▁essence	-11.2065
▁admission	-11.2066
▁smart	-11.2067
▁Bhagat	-11.2078
▁commence	-11.2081
aksha	-11.2083
▁PRESENT	-11.2089
▁nervous	-11.2089
▁procure	-11.2089
▁fetch	-11.209
▁sovereignty	-11.2091
▁Canada	-11.2093
▁inaugura	-11.2106
▁MESSAGE	-11.2113
▁behavior	-11.2113
▁unlawful	-11.2113
▁automatic	-11.2137
▁forefathers	-11.2137
▁Agency	-11.2137
▁Replace	-11.2146
▁Studies	-11.2162
▁circum	-11.2162
▁spades	-11.2162
▁systematic	-11.218
▁narrative	-11.2186
▁Thereafter	-11.2186
▁phrase	-11.2186
▁Tribes	-11.2187
▁Praise	-11.2188
▁maxim	-11.2207
▁moderate	-11.2209
▁Neither	-11.2211
▁enquiry	-11.2211
▁retirement	-11.2235
▁powder	-11.2235
▁Azad	-11.2236
▁legacy	-11.2238
▁Ashok	-11.2239
▁exhibit	-11.2241
▁oppose	-11.2244
▁continuing	-11.226
▁Housing	-11.226
▁Indus	-11.2267
▁1974	-11.2269
▁slot	-11.228
▁mystic	-11.2284
▁HTTP	-11.2285
▁Religion	-11.2285
▁Launch	-11.2285
▁Dharma	-11.2285
▁Rather	-11.2285
▁Northern	-11.2289
against	-11.2294
▁Step	-11.2309
▁compete	-11.2309
▁enabling	-11.2309
▁landlord	-11.2309
▁ICT	-11.2311
▁acute	-11.2315
▁endorse	-11.2331
▁emphasize	-11.2334
▁imprisonment	-11.2334
▁oxygen	-11.2334
▁territories	-11.2334
▁pocket	-11.2334
▁comprising	-11.2334
▁operator	-11.2334
▁Reply	-11.2335
▁Vertical	-11.2336
▁expertise	-11.2338
▁jump	-11.2338
▁Badruddin	-11.2359
▁Buddhism	-11.2359
▁Corporate	-11.2359
▁Property	-11.2359
▁relieve	-11.2359
▁devour	-11.2359
▁ransom	-11.2359
▁requite	-11.2362
▁intelligent	-11.2384
▁premium	-11.2384
▁Isaac	-11.2384
▁Sacred	-11.2384
▁Evil	-11.2384
▁demerge	-11.2386
▁verify	-11.2401
▁membrane	-11.2409
▁necessarily	-11.2409
▁trunk	-11.2409
▁tolerance	-11.241
nthrop	-11.2424
▁sperm	-11.2427
dependent	-11.243
▁Microsoft	-11.2434
▁enacted	-11.2434
▁cursor	-11.2437
babu	-11.2445
▁Highway	-11.2446
▁commodity	-11.2459
▁comparison	-11.2459
▁surgery	-11.2459
▁fraud	-11.2459
▁utmost	-11.2459
▁NGO	-11.2459
▁creature	-11.2477
▁Implementation	-11.2484
▁striving	-11.2484
▁Machine	-11.2485
▁boast	-11.2486
▁finish	-11.2503
▁MIME	-11.251
▁complicated	-11.251
▁Unicode	-11.2535
▁pregnant	-11.2535
▁obedient	-11.2535
▁GNU	-11.2535
▁denial	-11.2535
▁elsewhere	-11.2536
▁crown	-11.2541
▁erect	-11.2551
▁utility	-11.256
▁plenty	-11.256
▁leaflet	-11.2562
▁heedless	-11.2578
product	-11.2585
▁merchant	-11.2586
▁Andaman	-11.2588
▁flock	-11.2596
▁Rabindranath	-11.2611
▁Uttarakhand	-11.2611
▁prejudice	-11.2611
▁Prize	-11.2615
▁transition	-11.2617
▁sync	-11.2621
▁Emperor	-11.2637
▁throat	-11.2637
▁Cause	-11.2647
▁Viceroy	-11.2663
▁fibre	-11.2663
▁marvel	-11.2667
▁nice	-11.2671
▁tune	-11.2671
▁Charge	-11.2673
▁Hospital	-11.2688
▁Third	-11.2688
▁nigh	-11.2688
▁IPv	-11.2689
▁Progress	-11.269
▁Film	-11.2715
▁betray	-11.2716
▁Cooperative	-11.2716
▁Allowance	-11.272
▁Jagannath	-11.274
▁transcend	-11.274
▁complement	-11.274
▁Draft	-11.274
▁Guardian	-11.2742
▁trash	-11.2747
economic	-11.2753
▁MUKHERJEE	-11.2766
▁hazard	-11.2766
▁prosecution	-11.2766
▁qualification	-11.2766
▁Ambassador	-11.2792
▁alcohol	-11.2792
▁drought	-11.2792
▁Teacher	-11.2792
▁Odisha	-11.2792
▁inevitable	-11.2818
▁honey	-11.282
▁enthusiasm	-11.2844
▁possibly	-11.2844
▁IMAP	-11.2844
▁append	-11.2864
▁pilgrim	-11.2867
▁compromise	-11.287
▁pleasant	-11.287
▁transparent	-11.287
▁preparing	-11.287
▁copper	-11.287
▁indulge	-11.287
▁allied	-11.2883
▁Cooperation	-11.2896
▁economies	-11.2896
▁confusion	-11.2896
▁compliance	-11.2896
▁breach	-11.2896
▁expend	-11.2897
▁Writing	-11.2923
▁anxious	-11.2923
▁transmitted	-11.2924
▁Samaj	-11.2925
▁Rajput	-11.2928
▁fond	-11.2932
November	-11.2937
▁judiciary	-11.2949
▁serpent	-11.2949
▁Unseen	-11.2949
▁afternoon	-11.2949
▁Appellat	-11.2952
current	-11.2955
▁Guard	-11.2957
▁specimen	-11.2975
▁linkages	-11.2976
▁Corona	-11.2982
▁Community	-11.3002
▁peculiar	-11.3002
▁crystal	-11.3003
▁slain	-11.3003
▁narrate	-11.3004
▁Junk	-11.3005
▁odd	-11.3007
▁discount	-11.3007
front	-11.3011
▁Radhakrishnan	-11.3029
▁patch	-11.3037
▁reckon	-11.3055
▁depreciation	-11.3055
▁discrimination	-11.3055
▁infidels	-11.3055
▁monsoon	-11.3055
▁mandatory	-11.3055
▁affirm	-11.3055
▁levied	-11.3055
▁Estate	-11.3055
▁auction	-11.3056
▁introduce	-11.3068
elecommunication	-11.3074
▁Brasero	-11.3082
▁Nicobar	-11.3082
▁mirror	-11.3082
▁pandemic	-11.3082
▁Kannada	-11.3082
▁Register	-11.3082
▁thirst	-11.3082
▁rebellion	-11.3109
▁translator	-11.3109
▁paddy	-11.3109
▁Version	-11.3116
error	-11.3131
▁condolence	-11.3136
▁encoding	-11.3136
▁pixels	-11.3136
▁Jaipur	-11.3136
▁suspect	-11.3136
▁Arunachal	-11.3163
▁deploy	-11.3163
▁coconut	-11.3163
▁leather	-11.3163
▁absent	-11.3163
▁barren	-11.3163
▁architectural	-11.3163
▁smell	-11.3163
▁(6)	-11.3164
▁prosperous	-11.3166
▁Engine	-11.319
▁Chhattisgarh	-11.319
▁concrete	-11.319
▁Upanishad	-11.3217
▁reception	-11.3217
▁Label	-11.3217
▁Entry	-11.322
▁mandate	-11.3242
▁Revolution	-11.3244
▁demonstration	-11.3244
▁imperialism	-11.3244
▁separation	-11.3244
▁intensity	-11.3244
▁Client	-11.3244
▁municipal	-11.3271
▁ADDRESS	-11.3271
▁Administrative	-11.3271
▁Horizontal	-11.3271
▁opponent	-11.3271
▁abstract	-11.3271
▁zoom	-11.3271
▁blend	-11.3272
▁determining	-11.3298
▁mortgage	-11.3298
▁crude	-11.3299
▁Convert	-11.3299
equal	-11.3301
▁cautious	-11.3326
▁sympathy	-11.3326
▁Course	-11.3326
▁Ahmedabad	-11.3326
▁Abdullah	-11.3326
▁revert	-11.3329
▁verified	-11.3335
▁Authentication	-11.3353
▁Compassionate	-11.3353
▁Securities	-11.3353
▁diminish	-11.3353
▁Front	-11.3354
▁Gracious	-11.3356
▁exalt	-11.3357
▁hint	-11.3366
▁gaze	-11.3378
▁Varanasi	-11.3381
▁brilliant	-11.3381
▁compulsory	-11.3381
▁disobedience	-11.3381
▁liberty	-11.3381
▁libraries	-11.3381
▁monetary	-11.3381
▁Straight	-11.3381
▁referring	-11.3384
▁auspicious	-11.3409
▁generating	-11.3409
▁utilize	-11.3409
▁Double	-11.3409
▁endowed	-11.3409
▁Aurobindo	-11.3436
▁philosophical	-11.3436
▁ridicule	-11.3436
▁Primary	-11.3436
▁Federation	-11.3436
▁query	-11.3441
▁Grievance	-11.3464
▁Answer	-11.3465
spiring	-11.3468
▁footsteps	-11.3492
▁misfortune	-11.3492
▁solemn	-11.3492
▁Lakshmi	-11.3492
▁magnetic	-11.3492
▁Senior	-11.3492
▁Sahitya	-11.352
▁Examination	-11.352
▁ceiling	-11.352
▁rainfall	-11.3521
▁activate	-11.3521
cycle	-11.3541
▁Channel	-11.3548
▁reservation	-11.3548
▁romantic	-11.3548
▁Shakti	-11.3548
▁Moosa	-11.3548
Prevention	-11.3548
▁clinic	-11.3556
kumar	-11.3556
▁derive	-11.3564
▁Secret	-11.3572
Taste	-11.3574
▁inferior	-11.3576
▁linguistic	-11.3576
▁ascertain	-11.3576
▁Character	-11.3576
▁pupil	-11.3576
▁Nokia	-11.3576
▁Tripura	-11.3577
▁paragraph	-11.3579
▁Available	-11.3604
▁aesthetic	-11.3604
▁evaluation	-11.3604
▁scenario	-11.3604
▁Jordan	-11.3604
▁hectare	-11.3604
▁wicket	-11.3604
▁retired	-11.3604
▁frighten	-11.3604
▁assurance	-11.3604
▁shirt	-11.3604
▁indication	-11.3608
859	-11.363
▁Mysore	-11.3633
▁Dwarkanath	-11.3661
▁immovable	-11.3661
▁humility	-11.3661
▁Owner	-11.3661
▁delicate	-11.3661
▁robot	-11.3662
▁void	-11.3664
▁Paste	-11.367
▁Despite	-11.3689
▁Mizoram	-11.3689
▁episode	-11.3689
▁Nobel	-11.3689
▁revolt	-11.3689
▁plural	-11.3691
▁prize	-11.3693
▁Appointment	-11.3718
▁adorned	-11.3718
▁calculation	-11.3718
▁disregard	-11.3718
▁rebellious	-11.3718
▁Govind	-11.3718
rophy	-11.3739
▁obedience	-11.3746
▁junk	-11.3751
▁phenomenon	-11.3775
▁seizure	-11.3775
▁template	-11.3775
▁chronic	-11.3775
▁Leader	-11.3775
▁carrier	-11.3775
▁Jerusalem	-11.3804
▁bounties	-11.3804
▁kidney	-11.3804
▁buffer	-11.3804
▁cruel	-11.3804
▁bottle	-11.3807
▁wretched	-11.3832
▁prevalent	-11.3832
▁Petroleum	-11.3861
▁possibilities	-11.3861
▁liberation	-11.3861
▁Cross	-11.3862
▁revised	-11.3862
▁indirectly	-11.3862
▁trait	-11.3864
▁contempt	-11.389
▁criteria	-11.389
▁Empty	-11.389
▁seminar	-11.3892
remember	-11.3912
▁Revenue	-11.3919
▁underneath	-11.3919
▁inflict	-11.3919
▁reputation	-11.3919
proofs	-11.3919
▁dense	-11.3929
▁XML	-11.3948
▁Package	-11.3948
▁abiding	-11.3949
▁indicator	-11.395
▁scientist	-11.3954
▁exposure	-11.3978
▁random	-11.3978
▁sanitation	-11.3978
▁lofty	-11.3978
▁Judicia	-11.3979
▁deprived	-11.4007
▁disobedient	-11.4007
▁Student	-11.4007
▁ought	-11.4008
▁Palestine	-11.4036
▁Hanuman	-11.4036
▁intensive	-11.4036
▁warrior	-11.4037
▁jihad	-11.4038
▁guy	-11.4039
▁combine	-11.4054
▁slide	-11.4063
▁liabilities	-11.4066
▁renewable	-11.4066
▁collapse	-11.4066
▁striking	-11.4066
▁uncertain	-11.4095
▁interrupt	-11.4096
▁allocate	-11.4103
▁calamity	-11.4125
▁comprehend	-11.4125
▁Shaitan	-11.4125
▁Require	-11.4126
▁greed	-11.4131
▁Mauritius	-11.4155
▁brethren	-11.4155
▁convenient	-11.4155
▁vegetation	-11.4155
▁charitable	-11.4155
▁1951	-11.4155
▁Condition	-11.4155
▁dominant	-11.4155
▁voting	-11.4155
▁Ahmed	-11.4185
▁Partnership	-11.4185
▁Territory	-11.4185
▁constituent	-11.4185
▁occupy	-11.4185
▁supramental	-11.4185
▁volunteer	-11.4185
▁computation	-11.4185
▁Receive	-11.4185
▁Blue	-11.4186
▁ascetic	-11.4186
▁Terrorism	-11.4215
▁Church	-11.4215
▁Tilak	-11.4215
▁gush	-11.4218
▁rupee	-11.4229
▁buffalo	-11.4245
▁Nagaland	-11.4245
▁alphabet	-11.4245
▁coffee	-11.4245
▁gesture	-11.4245
▁Valid	-11.4245
▁intercourse	-11.4246
Amendment	-11.427
▁arrange	-11.4271
▁Continue	-11.4275
▁Publish	-11.4275
▁Recovery	-11.4275
▁Deccan	-11.4276
vouchsafed	-11.4305
physics	-11.4332
▁Constituent	-11.4335
▁Resolution	-11.4335
▁confused	-11.4336
▁nominated	-11.4336
▁Dutt	-11.4337
▁horizon	-11.4364
▁Jharkhand	-11.4366
▁doctrine	-11.4366
▁frequency	-11.4366
▁intercession	-11.4366
▁intercessor	-11.4366
▁undoubtedly	-11.4366
▁eighteen	-11.4366
▁wrongdoing	-11.4366
▁Mountain	-11.4366
▁Standing	-11.4397
▁spoil	-11.4397
▁inflation	-11.4397
▁alleged	-11.4397
October	-11.4423
▁consequent	-11.4427
▁accompany	-11.4427
▁repository	-11.4427
▁similitude	-11.4427
▁vibrant	-11.4427
▁Hamachi	-11.4427
▁Skill	-11.4427
▁Staff	-11.4427
▁casual	-11.4427
RES	-11.4439
▁approve	-11.4448
▁Penalty	-11.4458
▁medicinal	-11.4458
▁orthodox	-11.4458
▁debenture	-11.4458
▁worldwide	-11.4458
▁Website	-11.4458
▁trigger	-11.4458
▁distort	-11.4461
reliant	-11.4466
▁INAUGURAT	-11.4488
▁Vaishnava	-11.4488
▁assumption	-11.4488
▁Indonesia	-11.4488
▁beloved	-11.4488
▁grammar	-11.4488
▁concert	-11.4489
HOST	-11.4498
▁equitable	-11.4519
▁humiliating	-11.4519
▁persuade	-11.4519
▁1952	-11.4519
▁unusual	-11.4519
▁imperative	-11.4519
▁inquiry	-11.452
▁Chalukya	-11.455
▁Magistrate	-11.455
▁psychological	-11.455
▁Adjust	-11.455
▁wherefore	-11.455
▁sensation	-11.4551
▁inhabit	-11.4581
▁1973	-11.4581
▁Universe	-11.4581
▁surgical	-11.4581
▁Manilal	-11.4581
▁Portuguese	-11.4612
▁evaluate	-11.4612
▁fountain	-11.4612
▁kitchen	-11.4612
▁ministry	-11.4612
▁Circular	-11.4612
▁enmity	-11.4613
▁Creating	-11.4613
▁spark	-11.4613
▁forehead	-11.4613
▁inherent	-11.4613
▁physi	-11.4616
Pharaoh	-11.4641
▁Chancellor	-11.4644
▁Democratic	-11.4644
▁Traditional	-11.4644
▁preservation	-11.4644
▁surplus	-11.4644
▁emperor	-11.4644
▁reactor	-11.4644
▁Style	-11.4645
▁Latin	-11.4645
▁beetle	-11.4649
▁Specify	-11.4675
▁beneficiaries	-11.4675
▁1984	-11.4675
▁driving	-11.4675
▁inclusion	-11.4675
▁wool	-11.4675
▁Earlier	-11.4706
▁cabinet	-11.4706
▁diabetes	-11.4706
▁Climate	-11.4706
▁inject	-11.4731
▁Asutosh	-11.4738
▁Chandigarh	-11.4738
▁Political	-11.4738
▁participating	-11.4738
▁revival	-11.4738
▁amidst	-11.4738
▁parasite	-11.4738
▁resume	-11.4743
Alone	-11.4754
▁Singapore	-11.477
▁deficiency	-11.477
▁impressive	-11.477
▁quantities	-11.477
▁discretion	-11.477
▁exhort	-11.477
▁harsh	-11.477
▁COVID	-11.4801
▁VISIT	-11.4801
▁nurture	-11.4801
▁GDP	-11.4801
▁orientation	-11.4802
▁Weather	-11.4802
December	-11.4832
▁jewellery	-11.4833
▁Animal	-11.4833
▁reliable	-11.4833
▁steady	-11.4865
▁qualified	-11.4865
▁dissolve	-11.4865
▁CVS	-11.4865
▁priv	-11.4866
▁abort	-11.4867
▁philosopher	-11.4897
▁statistics	-11.4897
▁Chemical	-11.4897
▁steal	-11.49
▁Success	-11.4929
▁Territories	-11.4929
▁handicraft	-11.4929
▁spectrum	-11.4929
▁globe	-11.4929
▁Volume	-11.4929
▁Lolita	-11.4929
▁advert	-11.4929
▁intestine	-11.4929
▁harness	-11.493
▁strait	-11.4931
▁manipulat	-11.4933
▁Commercial	-11.4962
▁Cricket	-11.4962
▁Scientific	-11.4962
▁Summary	-11.4962
▁Wildlife	-11.4962
▁custody	-11.4962
▁WITH	-11.4962
▁removing	-11.4962
▁'{0}'	-11.4962
▁homage	-11.4962
▁relax	-11.4962
▁tackle	-11.4962
▁worn	-11.4962
▁Watch	-11.4962
▁wipe	-11.4979
▁YouTube	-11.4994
▁dignitaries	-11.4994
▁frustrate	-11.4994
▁cavity	-11.4994
▁Almast	-11.4994
supported	-11.4994
▁zeal	-11.4995
▁Kisan	-11.4996
▁Gehenna	-11.5026
▁Physical	-11.5026
▁monkey	-11.5026
▁agitation	-11.5027
▁pilot	-11.5027
▁cinema	-11.5027
▁steam	-11.5027
uddin	-11.5042
▁neuro	-11.5042
▁Inspector	-11.5059
▁Contribution	-11.5059
▁Kittur	-11.5059
▁psycho	-11.5062
▁hatch	-11.5062
▁Commonwealth	-11.5092
▁denominator	-11.5092
▁magnificent	-11.5092
▁"{0}"	-11.5092
▁twist	-11.5092
▁cherish	-11.5092
▁disperse	-11.5093
▁Advisory	-11.5124
▁Distribution	-11.5124
▁supplies	-11.5124
▁FROM	-11.5124
▁hollow	-11.5124
▁Heritage	-11.5125
▁garb	-11.5134
▁Database	-11.5157
▁medieval	-11.5157
▁nutrient	-11.5157
▁Memorial	-11.5157
▁HIV	-11.5157
Abraham	-11.5158
▁Coast	-11.516
▁combat	-11.516
▁Franc	-11.5176
▁disadvantage	-11.519
▁tranquil	-11.519
▁literally	-11.519
▁particles	-11.519
▁Witness	-11.519
▁Prayer	-11.5191
therapy	-11.5204
▁inflammation	-11.5223
▁obstacle	-11.5223
▁worried	-11.5223
▁foremost	-11.5224
▁chastise	-11.5249
▁Introduction	-11.5257
▁adornment	-11.5257
▁ancestors	-11.5257
▁instinct	-11.5257
▁dictionary	-11.5257
▁expensive	-11.5257
▁tobacco	-11.5257
▁ideology	-11.5257
Verily	-11.5258
▁macro	-11.5261
▁terminate	-11.5265
▁strategies	-11.529
▁succour	-11.529
▁envelop	-11.529
▁nursing	-11.5323
▁germ	-11.5328
▁Registrar	-11.5357
▁Yamuna	-11.5357
▁advertisement	-11.5357
▁assault	-11.5357
▁glacier	-11.5357
▁legitimate	-11.5357
▁rehabilitation	-11.5357
▁subsidiary	-11.5357
▁Thomas	-11.5357
▁federal	-11.5357
▁Chakra	-11.5357
▁conjecture	-11.5391
▁controversy	-11.5391
▁wildlife	-11.5391
▁militant	-11.5391
▁Module	-11.5391
▁violation	-11.5391
Appeals	-11.5391
▁nourish	-11.5391
▁embryo	-11.5393
▁vagina	-11.5395
▁phenomena	-11.5424
▁undivided	-11.5424
▁Martin	-11.543
▁replica	-11.5431
▁impulse	-11.5458
▁yoga	-11.5459
▁Relations	-11.5466
▁Afghan	-11.5492
▁Increase	-11.5492
▁Myanmar	-11.5492
▁decisive	-11.5492
▁expelled	-11.5527
▁Phase	-11.5529
▁Michael	-11.5561
▁laboratories	-11.5561
▁precaution	-11.5561
▁NIOS	-11.5561
▁ordinance	-11.5561
▁dairy	-11.5561
▁Ghosh	-11.5561
▁heavily	-11.5561
▁invade	-11.559
▁Refresh	-11.5595
▁utilization	-11.5595
▁animation	-11.5597
▁humiliate	-11.563
▁capacities	-11.563
▁equipped	-11.563
▁vulnerable	-11.563
▁structural	-11.563
▁meditation	-11.563
▁excavation	-11.563
▁isolated	-11.5631
▁Atlantic	-11.5664
▁portrait	-11.5664
▁uplift	-11.5664
▁Restore	-11.5664
Swachh	-11.5667
▁sanctum	-11.5699
▁Result	-11.5699
▁potato	-11.5699
▁deceit	-11.5699
▁sweat	-11.5703
chrom	-11.5714
▁Convocation	-11.5734
▁bureau	-11.5734
▁Belarus	-11.5734
▁synchroni	-11.5734
▁Nuh	-11.5734
▁suppose	-11.5763
▁Everlasting	-11.5769
▁Saraswati	-11.5769
▁robust	-11.5769
▁jungle	-11.5769
▁everlasting	-11.5769
▁livestock	-11.5769
▁desirable	-11.5804
▁tragedy	-11.5804
▁Ahmad	-11.5804
▁church	-11.5805
▁Dictionary	-11.5839
▁widespread	-11.5839
▁notwithstanding	-11.5839
▁density	-11.5839
▁compelled	-11.5839
▁array	-11.5839
▁Equal	-11.584
Tax	-11.5845
▁architect	-11.5871
▁furniture	-11.5874
▁historian	-11.5874
▁Vajpayee	-11.591
▁predecessor	-11.591
▁reconstruction	-11.591
▁Club	-11.591
▁jewel	-11.5912
gupta	-11.5923
▁Settlement	-11.5945
▁Unfortunately	-11.5945
▁dioxide	-11.5945
▁Terminal	-11.5945
▁Italian	-11.5946
disciplinary	-11.5981
▁Between	-11.5981
▁Sarojini	-11.5981
▁aggression	-11.5981
▁Virtual	-11.5981
▁naked	-11.5982
▁initiate	-11.6012
▁Pollution	-11.6017
▁advisor	-11.6017
▁Robert	-11.6017
▁binary	-11.6017
▁Guinea	-11.6017
National	-11.6024
▁Jinnah	-11.6053
▁Withdrawal	-11.6053
▁circulation	-11.6053
▁irrespective	-11.6053
▁kilogram	-11.6053
▁unbelief	-11.6053
▁Border	-11.6053
▁identical	-11.6089
▁survival	-11.6089
▁Poresh	-11.6089
▁vocal	-11.6089
▁ethnic	-11.6089
▁hungry	-11.6125
▁1981	-11.6125
▁expired	-11.6126
▁Symbol	-11.6126
▁Think	-11.6126
▁giant	-11.6127
▁optimis	-11.6128
▁Amritsar	-11.6162
▁Brahmo	-11.6162
▁unfair	-11.6162
▁postpone	-11.6162
conduct	-11.617
▁consecutive	-11.6198
▁relevance	-11.6198
▁Claim	-11.6198
▁ambition	-11.6199
▁schema	-11.6202
entrepreneurship	-11.6217
uzz	-11.622
▁interfere	-11.6229
▁Welcome	-11.6235
▁tribunal	-11.6235
▁Method	-11.6235
▁Mongol	-11.6236
▁roast	-11.6236
sufficient	-11.6243
▁Absolute	-11.6272
▁disbelieving	-11.6272
▁sanctuary	-11.6272
▁surprising	-11.6272
▁unwilling	-11.6272
▁Prompt	-11.6272
▁cosmic	-11.6272
▁Promot	-11.6306
▁Target	-11.6308
▁facilitating	-11.6308
▁renounce	-11.6308
▁misdeeds	-11.6308
▁bargain	-11.6308
▁measuring	-11.6308
▁electoral	-11.6309
▁corona	-11.631
▁Communist	-11.6345
▁TOMORROW	-11.6345
▁conspiracy	-11.6345
▁Imperial	-11.6345
▁premier	-11.6346
▁accrue	-11.6346
▁remedy	-11.6346
September	-11.6355
▁Meghalaya	-11.6383
▁Python	-11.6383
▁babies	-11.6383
▁Antarctic	-11.642
▁adversity	-11.642
▁grassroots	-11.642
▁pursuance	-11.642
▁unprecedented	-11.642
▁victorious	-11.642
▁crooked	-11.642
▁Bhakti	-11.642
▁Ravana	-11.642
▁Resident	-11.642
▁Spain	-11.642
COUNT	-11.6421
▁amalgamation	-11.6457
▁disabilities	-11.6457
▁duplicate	-11.6457
▁satisfactory	-11.6457
▁Excise	-11.6457
▁Nanalal	-11.6457
▁fierce	-11.6458
▁analyse	-11.6458
‘	-11.6468
▁molecule	-11.6495
▁resemble	-11.6495
▁elevate	-11.6495
▁amazing	-11.6495
▁ethical	-11.6496
▁Century	-11.6533
▁Democracy	-11.6533
▁Meanwhile	-11.6533
▁acquiring	-11.6533
▁refresh	-11.6533
▁battery	-11.6533
▁plunge	-11.6538
▁Gandharva	-11.6571
▁Sufficient	-11.6571
▁convenience	-11.6571
▁flexible	-11.6571
▁prestige	-11.6571
▁deniers	-11.6571
▁pagans	-11.6571
▁Vallabh	-11.6571
▁exponent	-11.6573
before	-11.6582
Satan	-11.6582
▁dissolution	-11.6609
▁predominant	-11.6609
▁couches	-11.6609
▁Picture	-11.6609
▁fiscal	-11.6609
▁carpet	-11.6609
▁dictate	-11.6609
ectomy	-11.6612
▁Angel	-11.6624
▁irregular	-11.6647
▁repaid	-11.6647
▁Scientist	-11.6647
▁reiterate	-11.6648
brahma	-11.6676
▁hybrid	-11.6685
▁pharmaceutical	-11.6685
▁reproduce	-11.6685
▁destined	-11.6685
▁maternal	-11.6685
▁illusion	-11.6685
▁disrupt	-11.6688
▁Jubilee	-11.6724
▁MINISTER	-11.6724
▁aggressive	-11.6724
▁godfearing	-11.6724
▁hymn	-11.6724
▁BIHAR	-11.6724
▁snatch	-11.6724
▁Study	-11.6724
▁Different	-11.6762
▁Prakrit	-11.6762
▁convocation	-11.6762
–	-11.7336
*	-11.9241
<	-12.8873
>	-13.8402
