<pad>	0
</s>	0
<unk>	0
▁the	-3.27024
.	-3.39816
,	-3.4833
s	-3.55646
▁of	-3.6593
▁and	-3.95008
▁to	-4.06701
▁in	-4.29582
▁a	-4.35499
▁	-4.53799
▁is	-4.5832
ing	-4.70026
ed	-4.85129
▁for	-5.03679
▁-	-5.08304
▁that	-5.11434
d	-5.24813
▁The	-5.2605
▁you	-5.27377
▁be	-5.28428
▁(	-5.37683
▁with	-5.43026
e	-5.46855
▁not	-5.48014
▁are	-5.50353
▁on	-5.53713
▁or	-5.56288
)	-5.57878
▁it	-5.57985
▁'	-5.61392
▁as	-5.63933
▁by	-5.66069
al	-5.69281
ly	-5.69403
▁have	-5.71819
y	-5.73247
t	-5.74077
▁from	-5.74145
▁was	-5.74367
▁will	-5.76538
:	-5.77519
▁this	-5.82599
▁them	-5.85066
▁they	-5.87222
▁who	-5.87806
▁I	-5.89377
▁which	-5.91991
▁has	-5.95517
;	-5.99736
▁his	-6.03707
▁their	-6.04218
▁he	-6.08955
▁He	-6.10553
er	-6.11221
▁A	-6.11598
▁an	-6.11804
▁s	-6.20256
a	-6.21387
▁all	-6.22023
n	-6.23419
▁at	-6.25879
r	-6.25989
▁Allah	-6.30728
▁your	-6.35726
▁We	-6.36698
▁And	-6.37028
i	-6.40132
?	-6.40452
▁one	-6.43369
▁India	-6.44971
'	-6.45757
▁can	-6.46657
▁S	-6.47811
▁we	-6.49476
▁but	-6.49936
-	-6.51719
▁do	-6.52722
▁been	-6.53268
▁It	-6.54992
▁were	-6.56973
▁people	-6.58722
es	-6.60541
▁when	-6.61693
in	-6.62645
▁him	-6.63872
m	-6.64478
▁"	-6.64698
▁In	-6.6633
▁T	-6.67563
▁so	-6.67564
▁said	-6.68087
▁those	-6.68362
p	-6.73177
ur	-6.73641
▁any	-6.74297
▁also	-6.7432
▁had	-6.74974
▁/	-6.755
%	-6.7939
▁other	-6.79856
▁shall	-6.80347
c	-6.80876
▁C	-6.82144
o	-6.82344
▁no	-6.832
▁what	-6.83315
ation	-6.83535
▁there	-6.86701
▁if	-6.87193
th	-6.87745
▁Lord	-6.87793
▁its	-6.90301
▁our	-6.90795
or	-6.90892
▁P	-6.90994
▁up	-6.91111
▁out	-6.92011
▁may	-6.92493
_	-6.9545
▁This	-6.9553
▁God	-6.95867
u	-6.97494
ion	-6.97587
!	-6.98103
l	-6.98334
▁O	-6.99333
▁would	-6.99714
▁time	-6.99771
▁B	-7.00573
an	-7.03188
▁only	-7.04864
▁such	-7.05849
▁made	-7.06277
re	-7.0637
▁“	-7.10609
▁then	-7.11005
g	-7.11861
▁under	-7.1329
▁like	-7.13425
▁more	-7.14648
b	-7.14918
▁than	-7.16077
able	-7.16232
▁un	-7.16772
▁over	-7.17046
ment	-7.18032
▁M	-7.18789
▁should	-7.19348
S	-7.21585
st	-7.21722
▁about	-7.21785
A	-7.23267
▁So	-7.23379
▁new	-7.2349
ic	-7.23841
▁me	-7.23872
on	-7.23954
▁into	-7.24025
se	-7.24386
▁us	-7.25077
▁my	-7.2546
▁G	-7.25618
▁life	-7.26329
▁these	-7.26844
▁They	-7.27179
▁two	-7.2737
f	-7.28203
ar	-7.28766
it	-7.29226
▁say	-7.29572
▁before	-7.31117
k	-7.31643
▁But	-7.31676
▁some	-7.31763
▁re	-7.34483
▁R	-7.35254
▁E	-7.35381
▁”	-7.35656
h	-7.36137
▁[	-7.36666
O	-7.36883
▁e	-7.37227
le	-7.38837
▁F	-7.39181
▁good	-7.39731
▁after	-7.40782
▁L	-7.40916
▁g	-7.4093
▁If	-7.41152
▁world	-7.41356
’	-7.41477
ra	-7.42375
ous	-7.44255
▁K	-7.45041
▁President	-7.45665
at	-7.46002
ers	-7.46746
▁work	-7.46772
▁Act	-7.46917
▁His	-7.47166
▁make	-7.47229
ity	-7.48857
▁used	-7.48905
▁c	-7.49796
est	-7.49809
ive	-7.49941
▁through	-7.50102
▁between	-7.50139
▁where	-7.50193
▁Indian	-7.50661
w	-7.51434
▁day	-7.51483
▁country	-7.52129
▁very	-7.52159
T	-7.52191
um	-7.53061
▁D	-7.53194
▁could	-7.53474
▁p	-7.55511
en	-7.55584
▁well	-7.55706
▁1	-7.56092
▁her	-7.56197
to	-7.57275
▁Government	-7.57652
▁&	-7.58361
ness	-7.58666
ma	-7.58807
]	-7.5913
P	-7.59375
I	-7.59462
▁did	-7.59748
am	-7.5984
▁down	-7.60504
▁most	-7.60776
▁many	-7.60793
▁take	-7.61821
C	-7.62354
▁among	-7.62699
▁come	-7.62966
▁give	-7.63322
us	-7.63588
▁All	-7.63958
▁d	-7.64152
ri	-7.64628
▁being	-7.64738
▁No	-7.65025
as	-7.65682
).	-7.66847
),	-7.67085
▁part	-7.67426
▁way	-7.6774
▁To	-7.68159
▁upon	-7.68267
▁years	-7.6839
▁You	-7.68709
il	-7.69439
▁man	-7.69564
▁see	-7.69568
▁know	-7.69699
▁first	-7.70424
▁against	-7.70471
la	-7.71344
ce	-7.7234
▁year	-7.72561
<	-7.72863
▁>	-7.72863
▁b	-7.73032
ir	-7.73856
▁earth	-7.74544
▁given	-7.74741
▁An	-7.75344
▁get	-7.75411
ate	-7.75814
▁believe	-7.75841
▁she	-7.76919
not	-7.77026
▁There	-7.77149
▁go	-7.77158
▁N	-7.77219
▁per	-7.77284
▁because	-7.77934
▁set	-7.7826
el	-7.78398
▁even	-7.78987
ta	-7.79305
▁back	-7.79916
ies	-7.80957
ry	-7.81584
▁great	-7.82132
▁water	-7.82399
▁f	-7.82451
is	-7.82947
ll	-7.841
ol	-7.84106
▁3	-7.84582
▁place	-7.84646
N	-7.84827
▁another	-7.85127
M	-7.85198
▁right	-7.85247
li	-7.85442
▁must	-7.86041
▁every	-7.86144
▁When	-7.86226
▁own	-7.86544
▁does	-7.86598
▁use	-7.87601
▁help	-7.88007
▁order	-7.88096
▁away	-7.88218
ak	-7.88801
vi	-7.8933
ok	-7.89332
ent	-7.89483
"	-7.89559
less	-7.89624
out	-7.90459
▁W	-7.90544
▁etc	-7.9085
▁m	-7.90983
▁now	-7.91023
▁t	-7.91338
ul	-7.91566
▁Him	-7.91933
▁bring	-7.93042
▁de	-7.93757
▁k	-7.93815
▁For	-7.93875
▁Re	-7.93967
ch	-7.93988
▁sent	-7.94085
R	-7.95007
▁number	-7.95085
▁become	-7.95901
▁account	-7.96962
▁power	-7.97175
▁ye	-7.97657
▁Do	-7.97841
E	-7.98786
▁want	-7.99352
▁just	-7.99514
▁name	-8.00724
▁large	-8.01286
."	-8.01317
B	-8.01388
man	-8.02132
G	-8.0232
▁Day	-8.02403
ary	-8.02715
▁nor	-8.02848
▁men	-8.03243
▁here	-8.03278
age	-8.03335
▁am	-8.03565
▁came	-8.03751
ha	-8.0399
L	-8.04259
ant	-8.04535
▁development	-8.04573
D	-8.05101
▁State	-8.05154
▁person	-8.05302
▁high	-8.05466
▁need	-8.05468
ut	-8.05649
▁same	-8.05692
▁called	-8.06262
4	-8.06489
▁date	-8.06575
et	-8.06664
ting	-8.06834
▁H	-8.07
x	-8.07701
▁open	-8.07894
▁long	-8.0792
”	-8.08017
▁2	-8.08618
▁show	-8.09007
▁different	-8.09204
▁while	-8.09237
▁Nation	-8.0934
ther	-8.09616
▁land	-8.09795
▁both	-8.10458
▁how	-8.10464
▁What	-8.10545
▁section	-8.1087
▁On	-8.10938
...	-8.11059
ance	-8.11307
of	-8.11351
ever	-8.11369
▁provide	-8.11642
3	-8.11766
▁end	-8.1186
▁V	-8.11945
ine	-8.1197
▁things	-8.12179
▁clear	-8.12409
ve	-8.12625
▁OF	-8.12857
ful	-8.13207
2	-8.13874
▁much	-8.14094
▁dur	-8.14212
▁fear	-8.15217
H	-8.15234
un	-8.15386
▁created	-8.15551
ave	-8.15688
▁form	-8.15843
▁system	-8.16305
▁found	-8.16455
▁whom	-8.16519
▁con	-8.1654
▁information	-8.16566
ad	-8.16829
▁As	-8.17061
/	-8.18056
▁turn	-8.1841
▁sub	-8.19037
▁public	-8.19044
▁women	-8.19127
▁find	-8.1948
▁co	-8.20079
▁service	-8.20254
▁period	-8.20441
▁4	-8.21842
▁n	-8.21991
▁return	-8.2217
▁Then	-8.22844
▁case	-8.23011
▁truth	-8.23095
▁look	-8.23565
▁human	-8.24448
▁‘	-8.24496
▁each	-8.24537
▁10	-8.24645
▁point	-8.24668
▁J	-8.25215
the	-8.25284
▁state	-8.25321
▁file	-8.25349
pati	-8.25571
te	-8.25583
▁Rs	-8.25915
▁present	-8.26379
ia	-8.26412
lo	-8.26415
▁consider	-8.27183
▁message	-8.27292
▁important	-8.273
5	-8.27312
▁cause	-8.27474
▁taken	-8.27669
▁let	-8.27722
ne	-8.28257
▁Shri	-8.28447
8	-8.28617
▁5	-8.2868
▁–	-8.28761
na	-8.28773
▁amount	-8.28895
9	-8.28977
▁again	-8.30088
▁My	-8.30168
ay	-8.30169
▁indeed	-8.30179
▁New	-8.30198
▁never	-8.30206
▁put	-8.30237
▁Say	-8.30484
ya	-8.31331
ish	-8.31407
ti	-8.31694
▁evil	-8.31731
all	-8.32389
▁except	-8.32874
▁list	-8.33116
▁knowledge	-8.33134
▁social	-8.33134
1	-8.3328
U	-8.33346
▁view	-8.33406
▁last	-8.33621
▁7	-8.33643
▁think	-8.33731
va	-8.3386
v	-8.34199
▁Bhavan	-8.3465
▁education	-8.34664
id	-8.34876
▁today	-8.35183
▁means	-8.35623
▁hand	-8.35656
▁far	-8.35901
ter	-8.36042
▁Rashtra	-8.36188
▁act	-8.36197
▁free	-8.36274
:%	-8.36298
op	-8.36337
sh	-8.36629
▁known	-8.36659
ist	-8.36696
▁call	-8.37349
▁Who	-8.37372
▁change	-8.37701
▁vari	-8.37809
tion	-8.38008
▁business	-8.39337
▁left	-8.39337
▁children	-8.39338
and	-8.39342
▁better	-8.39342
▁Central	-8.39364
▁Un	-8.39447
▁group	-8.39744
▁dis	-8.39771
▁Be	-8.40017
▁within	-8.40275
▁De	-8.40582
▁income	-8.40951
▁Minister	-8.40951
▁heavens	-8.41641
▁process	-8.42185
ig	-8.42506
▁surely	-8.42807
▁government	-8.43034
▁done	-8.43035
▁She	-8.43489
hi	-8.44178
▁Book	-8.44262
▁window	-8.44263
▁Show	-8.44281
he	-8.44317
▁love	-8.44397
▁live	-8.44966
▁support	-8.45748
▁something	-8.45992
em	-8.46276
▁best	-8.46371
▁i	-8.46509
▁9	-8.46548
▁One	-8.46671
▁whole	-8.46788
▁w	-8.46992
▁small	-8.47449
6	-8.47634
▁company	-8.47676
▁true	-8.47676
▁still	-8.47676
▁equal	-8.47702
▁old	-8.47728
▁ask	-8.48108
▁law	-8.48391
ot	-8.49356
▁four	-8.49389
▁pay	-8.49427
▁three	-8.4943
▁light	-8.49545
ten	-8.49591
▁along	-8.49677
▁follow	-8.50117
▁matter	-8.5015
▁send	-8.50372
▁Al	-8.50504
▁Man	-8.50837
▁signs	-8.50884
▁address	-8.51057
▁interest	-8.51134
ted	-8.51172
▁Gandhi	-8.51208
▁punishment	-8.51216
co	-8.51232
▁common	-8.51291
▁unto	-8.51434
▁based	-8.51488
▁non	-8.5152
ty	-8.51555
▁share	-8.52041
▁action	-8.52064
F	-8.52315
▁Ma	-8.52347
▁l	-8.52656
ow	-8.52727
▁market	-8.53053
▁current	-8.5313
▁body	-8.53342
▁report	-8.54088
The	-8.54101
▁less	-8.5444
▁full	-8.54546
▁areas	-8.5477
▁Delhi	-8.54886
▁family	-8.54886
▁death	-8.54886
▁near	-8.54887
tra	-8.55044
▁due	-8.55055
▁Lo	-8.55867
▁thing	-8.55884
▁6	-8.55911
▁fact	-8.56369
▁members	-8.56502
eth	-8.56747
▁Pleas	-8.56773
▁general	-8.56773
▁held	-8.56779
▁That	-8.56873
▁going	-8.56912
▁days	-8.57238
▁seen	-8.57327
▁age	-8.5734
▁home	-8.57745
ism	-8.57829
ions	-8.57899
▁cent	-8.57965
▁heart	-8.58246
han	-8.58277
▁ex	-8.58495
▁Me	-8.5851
▁together	-8.58696
▁economic	-8.58797
▁position	-8.58819
HE	-8.58967
▁toward	-8.59306
▁face	-8.5933
hose	-8.59467
▁U	-8.59493
▁sector	-8.597
▁wrong	-8.59833
▁whe	-8.6013
▁complete	-8.60146
▁hav	-8.60305
▁himself	-8.60657
▁local	-8.60663
▁already	-8.60696
▁deeds	-8.60699
▁Indeed	-8.60797
▁off	-8.61098
ian	-8.61177
(	-8.61588
▁11	-8.61781
▁value	-8.61791
▁command	-8.61836
▁remain	-8.61841
ru	-8.61858
▁provided	-8.61861
0	-8.61953
▁start	-8.62163
ab	-8.62326
▁main	-8.62647
—	-8.62656
▁themselves	-8.62656
▁Singh	-8.62661
ge	-8.62675
▁required	-8.62751
▁path	-8.62775
▁book	-8.63634
▁level	-8.63836
iv	-8.6394
▁little	-8.64697
▁provision	-8.64697
▁data	-8.64706
tic	-8.64734
ee	-8.64947
ana	-8.6497
▁self	-8.65955
▁court	-8.65962
▁rule	-8.66049
nic	-8.66085
▁play	-8.66417
ite	-8.6668
▁sense	-8.66782
▁food	-8.66801
▁exist	-8.66836
▁times	-8.66911
▁selected	-8.67024
per	-8.67078
▁too	-8.671
nd	-8.67147
ng	-8.67183
▁special	-8.67204
▁Go	-8.67443
W	-8.67448
ical	-8.67613
land	-8.6782
ac	-8.68075
▁house	-8.68131
ka	-8.68168
▁project	-8.68171
ors	-8.68333
▁visit	-8.68592
▁Bengal	-8.68598
▁certain	-8.68601
▁Dr	-8.68753
▁area	-8.68777
7	-8.68785
ag	-8.68843
▁particular	-8.68908
▁second	-8.68908
▁security	-8.68912
▁respect	-8.68936
▁mother	-8.68938
▁always	-8.6903
▁Ra	-8.69088
▁available	-8.69112
▁control	-8.6939
▁read	-8.69444
▁keep	-8.70122
▁language	-8.70399
ap	-8.70625
de	-8.70631
▁child	-8.71077
▁activities	-8.71082
▁countries	-8.71086
▁brought	-8.71087
Y	-8.71142
▁words	-8.7123
nt	-8.7221
▁others	-8.7237
▁believed	-8.7259
▁national	-8.72688
hu	-8.73065
▁side	-8.73262
▁religion	-8.73304
▁above	-8.73304
▁living	-8.73304
▁example	-8.73309
▁night	-8.73357
▁en	-8.73422
mo	-8.73485
▁000	-8.73574
▁Pa	-8.73692
▁19	-8.73835
▁young	-8.73871
▁Unit	-8.73973
ard	-8.7399
▁At	-8.74148
ja	-8.74537
ho	-8.74866
▁type	-8.74991
▁folder	-8.75021
▁reach	-8.75063
▁hard	-8.75349
▁sea	-8.75385
▁war	-8.75431
▁occasion	-8.75577
▁mind	-8.75579
▁clause	-8.75693
▁key	-8.7577
▁Ka	-8.765
▁includ	-8.76614
pe	-8.76916
▁di	-8.76919
ship	-8.77193
▁faith	-8.77453
▁Israel	-8.77491
▁able	-8.77555
ble	-8.77642
ah	-8.77668
lu	-8.77781
▁material	-8.77903
▁worship	-8.77909
▁few	-8.77921
▁therefore	-8.77927
ranab	-8.77933
go	-8.78233
▁Or	-8.78246
z	-8.78267
ell	-8.784
ach	-8.78464
▁yet	-8.78629
ally	-8.78734
▁Can	-8.78788
▁15	-8.79012
up	-8.79413
▁accept	-8.79452
▁pre	-8.79517
cy	-8.79657
▁House	-8.79767
▁father	-8.79789
▁close	-8.79813
▁cost	-8.79946
▁major	-8.80225
▁thou	-8.80275
▁English	-8.80283
▁PRESIDENT	-8.80283
▁research	-8.80283
▁next	-8.80284
▁until	-8.80285
▁around	-8.80287
▁Sabha	-8.8029
▁image	-8.80295
▁error	-8.80323
▁Bank	-8.8033
▁computer	-8.80351
▁further	-8.80357
▁later	-8.8038
qu	-8.80519
pa	-8.80653
▁cut	-8.80845
▁tax	-8.80902
▁force	-8.81201
▁r	-8.81238
ang	-8.81293
▁18	-8.81405
▁books	-8.81671
▁12	-8.81838
▁seek	-8.81968
▁Raj	-8.82128
▁create	-8.82191
▁v	-8.82255
▁Messenger	-8.8227
▁result	-8.82278
▁Na	-8.82329
▁short	-8.82718
▁Committee	-8.82722
▁making	-8.82724
▁ground	-8.82819
▁test	-8.82881
▁stand	-8.82909
▁mail	-8.82999
▁total	-8.83072
me	-8.83298
▁St	-8.83307
▁25	-8.83314
▁received	-8.83335
▁rate	-8.83448
▁either	-8.83626
▁persons	-8.83924
▁States	-8.83935
came	-8.84158
▁learn	-8.84286
om	-8.84386
▁reason	-8.84666
▁offer	-8.85074
▁Ex	-8.85127
▁term	-8.85186
▁financi	-8.85203
▁enjoy	-8.85222
▁several	-8.85224
ated	-8.85261
▁movement	-8.85265
▁million	-8.85275
▁natural	-8.85292
▁told	-8.85298
▁Let	-8.85537
▁:	-8.85632
V	-8.85646
▁line	-8.85792
ast	-8.86232
our	-8.86384
▁hearts	-8.8642
▁pro	-8.86448
men	-8.86461
▁once	-8.86508
▁ho	-8.86653
We	-8.8694
▁Ha	-8.87107
▁ever	-8.87253
▁nation	-8.87368
▁kind	-8.87606
▁office	-8.87611
j	-8.87629
▁friend	-8.87664
▁sure	-8.87739
▁INDIA	-8.87787
▁industry	-8.87787
▁policy	-8.87787
▁website	-8.87787
▁management	-8.87808
▁enter	-8.87823
▁authority	-8.87829
▁Most	-8.87861
▁plant	-8.87915
▁die	-8.87947
▁al	-8.87954
▁five	-8.87957
▁8	-8.87982
ver	-8.88383
AL	-8.88605
▁art	-8.88857
▁West	-8.88982
section	-8.89348
▁understand	-8.89484
ari	-8.89917
▁forth	-8.90031
▁though	-8.90117
▁subject	-8.90162
av	-8.9021
ial	-8.90212
wards	-8.90352
pr	-8.90365
▁transfer	-8.90373
▁access	-8.90414
▁community	-8.90418
▁crore	-8.90418
▁behind	-8.90418
▁money	-8.90418
▁patient	-8.90419
▁population	-8.90422
▁nothing	-8.90444
▁role	-8.90448
▁remember	-8.90462
▁really	-8.90647
▁word	-8.9072
▁leave	-8.9072
▁services	-8.90797
▁20	-8.90921
ure	-8.91175
▁got	-8.91521
tu	-8.91912
ern	-8.92501
▁Hindu	-8.92962
▁application	-8.92966
▁bank	-8.93052
▁High	-8.93121
▁district	-8.93121
▁capital	-8.93121
▁creation	-8.93122
▁University	-8.93122
▁Constitution	-8.93125
▁+	-8.93138
▁written	-8.9316
▁growth	-8.93171
RB	-8.93502
▁experience	-8.93676
▁hands	-8.93943
▁Your	-8.93968
▁following	-8.94539
▁knows	-8.94599
da	-8.95135
ept	-8.95388
▁might	-8.95593
▁increase	-8.95619
▁health	-8.95629
▁Parliament	-8.95845
▁Pradesh	-8.95899
▁previous	-8.95899
▁political	-8.95899
▁Court	-8.95899
▁network	-8.959
▁wide	-8.95916
ud	-8.95954
▁outside	-8.9596
▁RRB	-8.95966
▁text	-8.95994
▁(1)	-8.96052
▁soul	-8.96256
▁related	-8.96315
▁seem	-8.96356
▁meeting	-8.96658
▁Mr	-8.97067
▁1.	-8.97243
ling	-8.97714
▁record	-8.97934
▁met	-8.97952
▁don	-8.98067
▁po	-8.98135
pur	-8.98213
▁30	-8.9859
▁effect	-8.98682
▁scheme	-8.98717
}	-8.98755
▁future	-8.98756
▁international	-8.98756
▁quality	-8.98756
▁century	-8.98757
▁anything	-8.98765
▁private	-8.98767
▁investment	-8.98777
▁Ministry	-8.98789
▁story	-8.98826
▁technology	-8.98827
▁decide	-8.9885
▁List	-8.98873
▁Fire	-8.98886
▁appointed	-8.98953
▁whatever	-8.99018
▁original	-8.99124
▁certainly	-8.99219
▁established	-8.99232
▁pass	-8.99973
▁trust	-9.0005
▁working	-9.00056
▁Mu	-9.00464
either	-9.00631
most	-9.00737
▁concern	-9.00898
▁Mo	-9.01021
▁changes	-9.0113
▁receive	-9.01365
▁head	-9.01416
kar	-9.01603
▁post	-9.01657
▁program	-9.01679
▁perform	-9.01681
▁contact	-9.01697
▁task	-9.01697
▁course	-9.01697
▁Congress	-9.01699
▁modern	-9.01701
▁capacity	-9.01703
▁thus	-9.01703
▁basis	-9.01706
▁fall	-9.01725
▁Development	-9.0175
▁fire	-9.01757
▁Hindi	-9.01796
▁Muslim	-9.01814
▁question	-9.01823
▁14	-9.01836
▁Union	-9.01875
▁field	-9.01875
▁La	-9.01931
ga	-9.01951
▁thought	-9.02061
▁Co	-9.02194
▁building	-9.02295
▁rest	-9.02494
os	-9.0256
▁Sa	-9.02971
▁size	-9.02983
referred	-9.03448
▁doing	-9.03818
one	-9.04096
ara	-9.04206
▁Con	-9.04375
▁Prim	-9.04494
▁17	-9.04599
▁Su	-9.04692
▁spirit	-9.04727
▁British	-9.04727
▁global	-9.04727
▁necessary	-9.04727
▁freedom	-9.04727
▁speak	-9.04728
▁verily	-9.04731
▁believers	-9.04761
▁credit	-9.04798
▁production	-9.04806
▁Ch	-9.04826
▁statement	-9.04898
▁writing	-9.04913
▁Z	-9.04916
▁tree	-9.04943
ai	-9.04958
▁problem	-9.04961
▁revealed	-9.05011
▁drive	-9.05103
▁lo	-9.05138
▁Muhammad	-9.05148
▁vi	-9.05367
▁j	-9.05502
▁soon	-9.05508
▁mo	-9.05576
ani	-9.06583
▁turned	-9.06618
▁lead	-9.06634
ali	-9.06651
tor	-9.07031
▁meet	-9.07125
▁rur	-9.0727
▁By	-9.07273
▁using	-9.07274
ise	-9.07376
▁strong	-9.07485
▁peace	-9.07505
▁blood	-9.07852
▁doubt	-9.07852
▁society	-9.07852
▁why	-9.07853
taking	-9.07875
▁device	-9.07882
▁profit	-9.07896
▁past	-9.07918
▁Prophet	-9.07939
▁rights	-9.07982
▁try	-9.07998
▁files	-9.08003
▁East	-9.08037
nce	-9.08057
▁port	-9.08236
ought	-9.08302
▁allowed	-9.08337
▁gu	-9.08582
▁Us	-9.08653
▁rules	-9.08976
▁0	-9.09149
line	-9.0925
ba	-9.09278
▁son	-9.09364
▁13	-9.09375
▁26	-9.09842
pi	-9.09919
▁personal	-9.10236
▁Not	-9.10248
▁issue	-9.10309
▁disbelieve	-9.10404
ber	-9.10435
▁comes	-9.10475
▁entire	-9.10721
▁join	-9.10751
ward	-9.10795
▁Ram	-9.10872
▁express	-9.10939
▁since	-9.11031
▁Public	-9.11078
▁drink	-9.11079
▁South	-9.1108
▁vision	-9.11082
▁similar	-9.11084
▁decision	-9.11085
▁deep	-9.11097
▁usual	-9.111
▁Mukherjee	-9.11113
▁carry	-9.11119
ious	-9.11158
▁spread	-9.11204
ization	-9.11245
▁sp	-9.11276
▁none	-9.11443
▁benefit	-9.11461
▁run	-9.11521
▁member	-9.11546
▁link	-9.11592
?"	-9.11648
▁operation	-9.11685
ile	-9.12243
▁therein	-9.12383
▁started	-9.12388
▁car	-9.12635
ight	-9.13038
▁months	-9.13079
▁rec	-9.13185
ES	-9.13276
cross	-9.13321
mi	-9.13391
▁direct	-9.13424
▁regard	-9.1346
▁Select	-9.1347
▁x	-9.14135
▁problems	-9.14154
hief	-9.14172
▁Some	-9.14377
▁Africa	-9.14411
▁exchange	-9.14411
▁specified	-9.14411
▁demand	-9.14412
▁search	-9.14412
▁messages	-9.14414
▁Republic	-9.14415
▁literature	-9.14419
▁Board	-9.14421
▁alone	-9.14434
▁itself	-9.14445
giving	-9.14447
▁energy	-9.14484
▁server	-9.14534
▁prepared	-9.14567
▁Moses	-9.14586
▁Mahat	-9.14646
▁city	-9.14707
ory	-9.14773
▁individual	-9.14878
▁below	-9.1488
▁temple	-9.14894
▁mark	-9.14944
bi	-9.14966
▁forward	-9.15072
▁greater	-9.15245
▁Po	-9.15283
▁sh	-9.15332
▁%	-9.15545
▁Dur	-9.15695
▁party	-9.15859
▁asked	-9.15991
▁belongs	-9.16351
▁character	-9.16409
▁matters	-9.16448
▁add	-9.1662
▁witness	-9.16857
▁sign	-9.17055
▁author	-9.17095
tri	-9.174
▁carrie	-9.17771
▁treat	-9.17791
▁With	-9.17807
har	-9.17809
▁Department	-9.1786
▁honour	-9.1786
▁design	-9.1786
▁paid	-9.17861
▁http	-9.17861
▁saw	-9.17862
▁scale	-9.17862
▁check	-9.17863
▁disbelievers	-9.17868
▁Open	-9.17888
▁Add	-9.17921
▁flow	-9.17925
ill	-9.17931
▁protection	-9.17945
▁however	-9.17949
▁lost	-9.17961
▁six	-9.17971
▁Name	-9.1798
▁Bill	-9.17983
▁Verily	-9.17995
▁Use	-9.18068
▁{	-9.18071
▁Have	-9.18077
▁failed	-9.18099
▁issues	-9.18122
▁Ho	-9.18149
▁reward	-9.18155
▁Now	-9.18159
uk	-9.18243
ze	-9.18295
▁training	-9.18328
▁terms	-9.18332
▁source	-9.18489
▁increased	-9.18534
▁institution	-9.18762
▁says	-9.18769
▁aid	-9.18804
▁passed	-9.18813
▁desire	-9.19079
▁ten	-9.19191
▁opens	-9.19362
amp	-9.19613
ised	-9.19655
end	-9.19778
▁conditions	-9.20221
▁wish	-9.20497
▁happen	-9.20616
own	-9.20687
▁environment	-9.21069
▁progress	-9.21374
▁Calcutta	-9.21431
▁Education	-9.21431
▁happy	-9.21431
▁policies	-9.21431
▁After	-9.21431
▁General	-9.21432
▁central	-9.21432
▁culture	-9.21432
▁deny	-9.21437
▁describ	-9.21443
▁single	-9.21464
▁possible	-9.21491
▁yourselves	-9.21492
▁tell	-9.21495
▁eight	-9.21506
▁save	-9.21565
fi	-9.21581
▁sound	-9.21602
▁history	-9.21621
▁early	-9.21652
son	-9.21753
▁touch	-9.22031
▁issued	-9.22033
▁purpose	-9.22203
▁price	-9.22218
▁eye	-9.22251
tar	-9.22371
▁War	-9.22539
use	-9.22735
▁eat	-9.22919
▁works	-9.23031
be	-9.23033
▁fund	-9.23122
▁Ro	-9.23218
▁h	-9.2334
went	-9.23355
ence	-9.23382
▁Y	-9.23495
▁placed	-9.23554
IT	-9.23605
▁parts	-9.23655
soever	-9.23794
ect	-9.23888
▁front	-9.23985
▁goods	-9.2417
▁prevent	-9.24299
▁eyes	-9.24308
war	-9.24337
▁institutions	-9.24418
if	-9.24844
▁makes	-9.24969
cal	-9.25123
▁Council	-9.25135
▁specific	-9.25135
▁third	-9.25135
▁unbelievers	-9.25135
▁claim	-9.25135
▁focus	-9.25135
▁color	-9.25137
▁Surely	-9.25137
▁plus	-9.25141
▁duty	-9.25145
▁mankind	-9.25145
▁approach	-9.25147
▁big	-9.2516
▁till	-9.25199
ex	-9.2522
mb	-9.25258
▁fill	-9.25261
▁deal	-9.25407
▁How	-9.25454
▁friends	-9.25517
▁active	-9.25538
▁idea	-9.2585
lest	-9.25918
▁Sri	-9.2594
▁efforts	-9.25977
▁concerned	-9.26155
▁Is	-9.26191
▁leading	-9.26253
▁sale	-9.26358
pp	-9.26358
ik	-9.26455
▁Le	-9.26481
▁students	-9.26534
▁Com	-9.26575
▁Ba	-9.26595
K	-9.26708
di	-9.26766
CC	-9.26788
▁Ko	-9.26946
▁o	-9.27203
▁hold	-9.27236
we	-9.27322
low	-9.27352
▁meaning	-9.27396
ug	-9.27598
▁Th	-9.27751
press	-9.27979
ram	-9.28035
▁ma	-9.28087
▁sin	-9.281
▁lies	-9.28134
▁Whe	-9.28332
▁continue	-9.28874
▁International	-9.28981
▁Scheme	-9.28981
▁Section	-9.28981
▁behalf	-9.28981
▁mercy	-9.28981
://	-9.28982
▁nature	-9.28985
htm	-9.28986
▁industrial	-9.28986
▁Power	-9.28989
▁property	-9.28996
▁Error	-9.29001
▁Could	-9.29006
▁percent	-9.29007
ff	-9.29009
▁However	-9.29013
▁manner	-9.29033
▁Even	-9.29035
▁lie	-9.2905
▁function	-9.29076
▁Such	-9.29082
▁dead	-9.29087
ner	-9.29111
ification	-9.29156
▁Where	-9.29165
▁class	-9.29244
▁disc	-9.29271
ities	-9.29382
▁Plan	-9.29505
):	-9.29763
rat	-9.29828
▁Pri	-9.29881
▁school	-9.30019
▁village	-9.30053
▁page	-9.30199
bar	-9.30458
▁air	-9.30836
ple	-9.31178
do	-9.31421
▁Are	-9.31739
▁196	-9.31807
der	-9.31999
▁refer	-9.32091
▁’	-9.32162
AR	-9.32271
▁Ja	-9.32376
▁represent	-9.3286
▁success	-9.32943
▁fel	-9.32945
▁job	-9.3298
▁Institute	-9.32981
▁World	-9.32981
▁guidance	-9.32981
▁implement	-9.32981
▁messenger	-9.32981
▁Information	-9.32981
▁advance	-9.32981
▁earlier	-9.32981
▁police	-9.32981
▁Work	-9.32983
▁foreign	-9.32994
▁rain	-9.33005
▁Under	-9.33007
ood	-9.33024
▁seven	-9.33032
▁treatment	-9.33071
▁break	-9.33094
▁folk	-9.33183
▁hour	-9.33191
▁published	-9.33197
▁approv	-9.33235
▁legal	-9.33237
▁care	-9.33358
▁bar	-9.33543
▁according	-9.33614
▁developed	-9.33765
▁higher	-9.33779
▁bear	-9.33784
External	-9.33844
▁resources	-9.34011
▁Hell	-9.3405
▁stage	-9.34152
▁forms	-9.34325
▁Br	-9.34396
▁str	-9.34906
▁rivers	-9.34987
From	-9.35121
▁presented	-9.35321
oc	-9.35509
IC	-9.35626
▁saying	-9.35991
tax	-9.36022
ER	-9.36205
ugh	-9.36228
▁stay	-9.36342
▁extend	-9.36344
ify	-9.36453
▁difficult	-9.36761
▁king	-9.36806
▁trade	-9.36959
▁judge	-9.37069
▁burden	-9.37148
▁enough	-9.37148
▁Address	-9.37148
▁lakh	-9.37148
▁session	-9.37148
▁birth	-9.37148
▁beginning	-9.37148
▁least	-9.37149
▁medical	-9.37149
▁justice	-9.37149
▁assessee	-9.37153
▁round	-9.37162
yond	-9.37167
▁station	-9.37168
ING	-9.37174
▁responsibility	-9.37183
▁basic	-9.3719
▁gain	-9.37205
▁fast	-9.3722
▁litera	-9.37231
ie	-9.37283
▁File	-9.37285
▁spend	-9.37301
▁Officer	-9.37301
▁North	-9.37312
▁host	-9.37327
▁hope	-9.3733
▁banks	-9.37337
▁states	-9.37347
▁Up	-9.37443
▁connected	-9.37612
▁gas	-9.37614
▁notice	-9.37645
▁angels	-9.37842
way	-9.37946
▁hear	-9.37983
▁condition	-9.38013
act	-9.38091
▁forces	-9.3837
▁video	-9.38491
▁instrument	-9.38508
▁cross	-9.38534
▁relations	-9.38747
ash	-9.38788
▁deposit	-9.38958
▁programmes	-9.39242
▁TO	-9.39863
▁16	-9.39969
ries	-9.40086
ture	-9.40254
sha	-9.40395
▁ideas	-9.40411
▁fight	-9.40589
▁Pre	-9.40602
▁sun	-9.40654
▁produce	-9.40736
aj	-9.40744
gan	-9.40781
▁promise	-9.4107
dar	-9.41088
▁tradition	-9.41149
▁America	-9.41296
gu	-9.4139
▁2.	-9.41401
▁Division	-9.41495
▁Group	-9.41495
▁contract	-9.41495
▁marriage	-9.41495
▁prescribed	-9.41495
▁significant	-9.41495
▁staff	-9.41496
▁drop	-9.41496
▁instead	-9.41501
▁reserve	-9.41505
▁space	-9.41505
▁style	-9.41505
▁attend	-9.41506
▁wife	-9.41511
▁woman	-9.41512
▁rather	-9.41515
▁farmers	-9.41539
▁agreement	-9.41541
▁rise	-9.41545
▁generation	-9.41558
ier	-9.41565
▁deem	-9.41588
▁com	-9.41593
▁invit	-9.41616
▁talk	-9.41619
▁anyone	-9.41676
▁expression	-9.41705
▁actually	-9.41716
▁Of	-9.41757
▁born	-9.41767
▁prayer	-9.41775
▁boy	-9.41782
ator	-9.41802
▁March	-9.41832
▁powerful	-9.41957
▁Krishna	-9.42011
ov	-9.42192
ars	-9.42306
▁Bi	-9.42323
▁mass	-9.42326
▁Well	-9.42398
▁low	-9.42595
▁mean	-9.4269
▁region	-9.42694
▁coming	-9.42713
gen	-9.4296
▁paper	-9.42987
▁product	-9.43094
▁fruit	-9.43107
fic	-9.43109
▁Arab	-9.43174
▁Ne	-9.43316
▁May	-9.43442
over	-9.43501
▁(%	-9.4359
▁ha	-9.43671
▁Bas	-9.43858
▁br	-9.44022
▁include	-9.44158
bha	-9.44172
▁develop	-9.44211
IS	-9.44353
RA	-9.44382
red	-9.44407
ick	-9.44554
▁poet	-9.4459
ca	-9.44663
set	-9.44755
▁functions	-9.44793
▁para	-9.44889
▁build	-9.45115
▁feel	-9.45171
▁request	-9.45229
▁music	-9.45285
▁move	-9.45462
▁shape	-9.45491
▁civil	-9.45636
▁strength	-9.45702
▁ON	-9.45718
▁Di	-9.45948
▁secret	-9.46006
▁clean	-9.46007
▁Resurrection	-9.46041
▁husband	-9.46041
▁labour	-9.46041
▁length	-9.46041
▁white	-9.46041
▁Speak	-9.46041
▁maxim	-9.46041
▁committee	-9.46041
▁presence	-9.46041
▁Two	-9.46042
▁religious	-9.46044
▁astray	-9.46044
▁apply	-9.46046
▁sky	-9.46047
▁View	-9.46048
▁(2)	-9.46049
▁favour	-9.46079
▁correct	-9.46119
▁Quran	-9.46126
chi	-9.46143
▁voice	-9.4617
▁24	-9.4617
▁wind	-9.46323
bo	-9.46359
▁direction	-9.4643
wi	-9.4645
▁thereof	-9.46469
▁male	-9.46495
▁avoid	-9.46502
▁servants	-9.46526
▁raised	-9.4656
▁online	-9.4664
▁weak	-9.46742
▁beside	-9.46768
ph	-9.46786
▁event	-9.46899
ily	-9.47209
▁Maha	-9.47372
▁Bha	-9.47425
▁month	-9.47541
▁provid	-9.47634
▁houses	-9.47648
▁tra	-9.47653
▁top	-9.47722
▁objective	-9.47859
▁brother	-9.47872
▁stone	-9.47885
que	-9.47888
▁town	-9.47949
▁followed	-9.4814
▁bo	-9.48149
▁Create	-9.48161
cu	-9.48387
▁Bar	-9.48408
ev	-9.48552
▁contains	-9.48662
ition	-9.4919
▁ball	-9.49441
unt	-9.49499
▁Every	-9.49662
▁mode	-9.49666
ef	-9.49866
▁establish	-9.49927
▁pain	-9.49989
so	-9.50204
▁associate	-9.50259
▁raise	-9.50263
▁please	-9.50286
ible	-9.50294
RE	-9.50402
▁firm	-9.50458
▁Rama	-9.50487
▁protect	-9.50577
▁Islam	-9.50616
▁Kar	-9.50661
▁righteous	-9.50748
▁depend	-9.50764
DE	-9.50802
▁Technology	-9.50803
▁advice	-9.50803
▁apostle	-9.50803
▁challenge	-9.50803
▁column	-9.50803
▁economy	-9.50803
▁expenditure	-9.50803
▁journey	-9.50803
▁perhaps	-9.50803
▁picture	-9.50803
▁potential	-9.50803
▁software	-9.50803
▁While	-9.50803
▁Search	-9.50803
▁Provid	-9.50803
▁cultural	-9.50804
▁popular	-9.50804
▁phone	-9.50807
▁game	-9.50811
▁normal	-9.50815
▁middle	-9.50826
▁thy	-9.50852
▁Which	-9.50885
▁aim	-9.50891
▁loss	-9.50947
▁write	-9.5096
▁poor	-9.50973
▁collection	-9.50996
▁strengthen	-9.51159
▁lower	-9.51169
▁consideration	-9.51182
▁involved	-9.51234
▁lot	-9.51303
ability	-9.51486
▁rep	-9.51507
gh	-9.51564
ating	-9.51626
▁mere	-9.51631
hath	-9.51678
hal	-9.51729
▁status	-9.51893
ack	-9.51945
▁table	-9.52141
▁details	-9.52185
ush	-9.52197
▁eas	-9.52272
▁guide	-9.52283
▁measure	-9.52328
ping	-9.52405
▁leaders	-9.52429
▁Sh	-9.52544
▁understanding	-9.52553
▁disease	-9.52838
20	-9.52861
▁items	-9.5293
▁loan	-9.52947
▁setting	-9.53017
▁pure	-9.53023
▁animals	-9.53066
side	-9.53104
▁belong	-9.53221
day	-9.53258
▁user	-9.53533
▁fo	-9.53576
▁198	-9.53878
▁laws	-9.53935
▁3.	-9.54077
▁Fi	-9.54219
▁Mi	-9.54293
ju	-9.54314
mer	-9.54474
▁imp	-9.54506
spect	-9.54541
▁draw	-9.54651
▁Va	-9.54657
cious	-9.54833
▁Pra	-9.55057
▁operations	-9.55112
▁Commission	-9.55362
▁Will	-9.5543
▁trees	-9.55446
▁u	-9.55464
ound	-9.55548
▁discuss	-9.55685
He	-9.55697
▁Europe	-9.55712
▁Asia	-9.55764
▁copy	-9.55798
▁black	-9.55802
▁Income	-9.55803
▁People	-9.55803
▁Supreme	-9.55803
▁built	-9.55803
▁certificate	-9.55803
▁devotion	-9.55803
▁explain	-9.55803
▁female	-9.55803
▁manifest	-9.55803
▁obey	-9.55803
▁relevant	-9.55803
▁responsible	-9.55803
▁study	-9.55803
▁supply	-9.55803
▁wrote	-9.55803
▁morning	-9.55803
▁famous	-9.55803
▁milk	-9.55803
▁Centre	-9.55803
▁spiritual	-9.55803
▁Project	-9.55805
▁rich	-9.55806
▁half	-9.55809
▁Assam	-9.5581
▁border	-9.55817
▁June	-9.55817
▁existence	-9.55827
▁construction	-9.55835
▁choose	-9.55836
▁torment	-9.55841
▁situation	-9.55869
▁thousand	-9.55896
lal	-9.55908
▁mental	-9.55912
▁lay	-9.55957
▁wishes	-9.56016
▁Director	-9.5604
▁maintain	-9.56063
▁contain	-9.56306
▁Lok	-9.56314
▁guided	-9.56362
▁pleased	-9.56381
▁began	-9.56381
ven	-9.56456
ternal	-9.56471
▁Car	-9.56528
ji	-9.56658
ada	-9.56713
▁ensure	-9.5675
▁extended	-9.56781
▁won	-9.56875
▁sl	-9.57061
▁model	-9.57115
▁Mon	-9.5716
▁doers	-9.57191
16	-9.57225
▁27	-9.57388
▁languages	-9.57413
▁former	-9.57443
tive	-9.57495
▁accepted	-9.57537
▁00	-9.57619
▁Move	-9.57748
▁allow	-9.57793
▁goal	-9.57894
▁arm	-9.57963
▁par	-9.58115
▁element	-9.58138
▁31	-9.58193
by	-9.58593
▁Qur	-9.58708
▁Vi	-9.58786
▁step	-9.58805
ank	-9.58911
ified	-9.58957
▁Their	-9.58959
ek	-9.59248
▁ve	-9.59294
▁comp	-9.59395
▁seed	-9.59541
some	-9.59643
▁owner	-9.59776
q	-9.59874
time	-9.59944
special	-9.59985
This	-9.60001
let	-9.60009
tan	-9.60116
▁simple	-9.60132
ade	-9.60171
▁grant	-9.60257
RI	-9.60279
▁serve	-9.60325
bodies	-9.60375
▁secure	-9.60403
▁note	-9.60469
▁21	-9.60604
▁relat	-9.60636
▁Muslims	-9.60854
00	-9.60862
ain	-9.60927
▁Office	-9.60963
▁inter	-9.60992
▁forgive	-9.61018
▁Inter	-9.61052
▁Evolution	-9.61066
▁activity	-9.61066
▁appeal	-9.61066
▁declare	-9.61066
▁default	-9.61066
▁hundred	-9.61066
▁mutual	-9.61066
▁separate	-9.61066
▁terrorism	-9.61066
▁purchase	-9.61066
▁Tamil	-9.61066
▁First	-9.61067
▁balance	-9.61067
▁fair	-9.61067
▁chosen	-9.61067
▁2007	-9.61072
▁wealth	-9.61074
▁democracy	-9.61076
▁wonder	-9.61079
▁proper	-9.6108
▁historic	-9.61083
tha	-9.61084
▁safety	-9.61084
▁wise	-9.61105
▁speech	-9.61111
fer	-9.6112
▁load	-9.61123
ized	-9.61131
▁organisation	-9.61135
▁oil	-9.61141
▁wall	-9.61159
▁physical	-9.61188
▁Time	-9.61203
▁Today	-9.61209
▁positive	-9.61216
▁bad	-9.61265
▁connection	-9.61269
▁payment	-9.61305
▁dance	-9.61318
▁warm	-9.6138
ace	-9.61384
▁science	-9.61395
▁*	-9.61514
▁Commissioner	-9.61538
ck	-9.61544
▁joint	-9.61608
▁version	-9.61614
▁US	-9.6165
▁notification	-9.61651
▁listen	-9.61721
een	-9.61831
▁fine	-9.61864
▁base	-9.61959
ala	-9.62001
▁cha	-9.62261
▁systems	-9.62394
▁verses	-9.62449
ather	-9.62586
▁acc	-9.62614
▁Sub	-9.62666
▁sides	-9.62762
dev	-9.62783
▁reached	-9.62987
▁learning	-9.63094
10	-9.63094
▁played	-9.63148
▁aware	-9.63163
▁practice	-9.6365
▁cell	-9.63762
▁bit	-9.63797
▁App	-9.63837
▁media	-9.63897
▁Nay	-9.63905
fully	-9.6392
ological	-9.64054
▁officer	-9.6407
ki	-9.64233
bb	-9.64301
▁Sam	-9.64521
▁ro	-9.64577
▁lives	-9.64875
▁ear	-9.651
for	-9.65328
▁grow	-9.6537
▁prices	-9.65401
▁expect	-9.65695
▁display	-9.65777
lic	-9.65885
▁minim	-9.65945
▁See	-9.65994
right	-9.66012
▁symbol	-9.66071
▁plan	-9.66306
▁Sur	-9.6633
▁collect	-9.66434
▁ca	-9.66441
par	-9.66512
▁consist	-9.66599
▁Guru	-9.66608
▁Certificate	-9.66621
▁Governor	-9.66621
▁Kashmir	-9.66621
▁Merciful	-9.66621
▁Nehru	-9.66621
▁agricultural	-9.66621
▁celebrate	-9.66621
▁companies	-9.66621
▁defeat	-9.66621
▁exercise	-9.66621
▁hospital	-9.66621
▁surround	-9.66621
▁Management	-9.66622
▁courage	-9.66622
▁AND	-9.66622
▁green	-9.66622
▁duties	-9.66623
▁series	-9.66627
▁latter	-9.66629
▁2012	-9.6663
▁speed	-9.66632
▁SAW	-9.66633
▁Export	-9.66634
▁Bharat	-9.66636
▁assets	-9.66637
▁range	-9.6664
▁everything	-9.66641
▁facilities	-9.66649
▁assessment	-9.66651
▁season	-9.66654
▁wood	-9.66655
▁December	-9.66657
▁Data	-9.66658
▁hide	-9.6666
▁2000	-9.66662
▁reference	-9.66667
▁Enable	-9.6667
▁track	-9.66677
▁Park	-9.66684
▁plain	-9.66689
▁Wise	-9.66691
▁Punjab	-9.66718
▁causes	-9.66729
▁January	-9.6678
▁directory	-9.66782
▁registered	-9.66784
▁useful	-9.66805
▁humanity	-9.66858
▁American	-9.66879
▁places	-9.67011
19	-9.67063
▁traditional	-9.67068
▁code	-9.67174
▁signal	-9.67191
▁cases	-9.67203
▁li	-9.67213
▁mission	-9.67278
▁log	-9.67376
stic	-9.67463
▁X	-9.67478
mp	-9.67559
▁north	-9.67566
▁growing	-9.67571
▁shown	-9.67605
▁unity	-9.6763
],	-9.677
▁citizens	-9.67715
efore	-9.67887
▁heard	-9.67925
▁types	-9.68093
▁Ve	-9.68359
▁Sun	-9.68716
▁pe	-9.68955
▁values	-9.69118
▁methods	-9.69288
ide	-9.69394
▁object	-9.69437
▁bird	-9.69523
▁content	-9.69531
▁document	-9.69537
▁Service	-9.69546
▁river	-9.696
▁Bo	-9.69639
▁programme	-9.69648
▁Qu	-9.69662
▁week	-9.69701
▁elements	-9.69813
ese	-9.69829
ton	-9.69944
▁news	-9.69952
den	-9.7
▁Ag	-9.70034
ists	-9.70096
▁1,	-9.70446
▁formed	-9.70451
▁PM	-9.7058
adi	-9.70623
▁format	-9.70681
UL	-9.70755
xternal	-9.71177
with	-9.71288
atch	-9.71395
▁enhance	-9.71453
ran	-9.71564
▁accord	-9.71572
▁fla	-9.7176
▁mention	-9.7184
ima	-9.71947
J	-9.72104
▁mountains	-9.72206
▁remove	-9.7224
rap	-9.72258
▁waste	-9.7227
▁perfect	-9.724
stern	-9.72431
▁According	-9.72504
▁Bombay	-9.72504
▁Categor	-9.72504
▁Research	-9.72504
▁Science	-9.72504
▁calendar	-9.72504
▁college	-9.72504
▁festival	-9.72504
▁increasing	-9.72504
▁infrastructure	-9.72504
▁ourselves	-9.72504
▁regular	-9.72504
▁initiative	-9.72504
▁pleasure	-9.72504
▁risk	-9.72504
▁screen	-9.72504
▁square	-9.72504
▁drug	-9.72504
▁escape	-9.72504
▁tonnes	-9.72504
▁attack	-9.72505
▁Type	-9.72505
▁phase	-9.72507
▁Start	-9.72511
▁2013	-9.72513
▁2005	-9.72514
▁super	-9.72515
▁importance	-9.72528
▁description	-9.72531
▁conduct	-9.72531
▁Help	-9.72532
▁permission	-9.72532
▁Edit	-9.7254
▁Programme	-9.72559
▁forgiveness	-9.72563
▁cities	-9.72593
▁Thus	-9.72594
▁September	-9.72606
lay	-9.7263
val	-9.7265
▁editor	-9.72659
▁moment	-9.7266
▁location	-9.72676
▁whatsoever	-9.72685
▁Hereafter	-9.72687
▁ancient	-9.7271
▁root	-9.72762
▁portion	-9.72766
▁Sc	-9.72768
▁November	-9.72807
▁palm	-9.72937
▁prove	-9.731
▁tried	-9.7313
▁covered	-9.73177
▁associated	-9.73184
▁28	-9.73246
▁IN	-9.73269
▁partners	-9.73323
▁ab	-9.73342
▁bound	-9.73366
▁expected	-9.73369
▁warning	-9.73403
▁Page	-9.73407
▁Sita	-9.73538
▁mis	-9.73649
▁feeling	-9.73754
▁Gu	-9.73756
▁added	-9.73913
▁requirements	-9.74051
ail	-9.74051
It	-9.74154
ign	-9.74154
▁completed	-9.74186
AS	-9.74233
▁Dis	-9.746
DP	-9.74603
▁projects	-9.74618
▁unit	-9.74653
▁pur	-9.74866
▁stated	-9.74893
▁Ar	-9.7502
▁ch	-9.75177
▁charge	-9.75388
▁led	-9.75429
▁faces	-9.75491
az	-9.75497
▁evidence	-9.75742
▁article	-9.75796
▁method	-9.75826
▁standard	-9.75853
▁animal	-9.75936
▁pan	-9.75954
▁shares	-9.76075
▁80	-9.76123
▁returned	-9.76164
verse	-9.76244
▁ban	-9.76317
▁real	-9.76937
▁users	-9.76937
ix	-9.76954
▁villages	-9.77015
lim	-9.77101
iii	-9.77197
▁groups	-9.77372
▁aspect	-9.77404
▁warn	-9.77497
body	-9.77642
▁fr	-9.77684
▁23	-9.77686
▁fee	-9.77709
▁helped	-9.77735
▁gra	-9.77763
▁22	-9.77771
▁watch	-9.77814
ending	-9.77839
▁sw	-9.77848
▁answer	-9.77935
uck	-9.78292
isation	-9.78426
▁earn	-9.78478
ife	-9.78652
ology	-9.78657
▁engage	-9.78679
▁minu	-9.78732
▁Exchange	-9.78754
▁Schedule	-9.78754
▁School	-9.78754
▁agriculture	-9.78754
▁contribute	-9.78754
▁council	-9.78754
▁target	-9.78754
▁Message	-9.78754
▁Rajasthan	-9.78754
▁constant	-9.78754
▁reflect	-9.78754
▁transport	-9.78754
▁unique	-9.78754
▁arrest	-9.78754
▁stories	-9.78754
▁Failed	-9.78754
▁Member	-9.78754
▁Mighty	-9.78754
▁volume	-9.78754
▁Left	-9.78755
▁conceal	-9.78755
▁structure	-9.78757
▁Uttar	-9.78758
▁Conference	-9.7876
▁Text	-9.78762
▁channel	-9.78763
▁battle	-9.78764
▁influence	-9.78767
▁relationship	-9.78767
▁medium	-9.78776
▁Therefore	-9.78778
▁Gandhiji	-9.7878
▁committed	-9.78781
▁review	-9.78783
▁belief	-9.78785
▁arise	-9.78787
▁road	-9.7879
▁Chandra	-9.7879
▁mobile	-9.78797
▁email	-9.78799
▁poetry	-9.78813
▁40	-9.78825
▁match	-9.78844
▁latest	-9.78851
▁chief	-9.78864
▁cash	-9.78871
▁Join	-9.78872
▁military	-9.78873
amb	-9.78886
rn	-9.78919
▁Khan	-9.78958
▁dust	-9.78973
▁bow	-9.7898
▁Western	-9.78981
▁trial	-9.79041
▁safe	-9.79055
▁mountain	-9.79072
▁gone	-9.79092
ham	-9.79117
▁clay	-9.79117
▁launched	-9.79148
▁sex	-9.79169
▁sight	-9.79216
acy	-9.7923
▁forest	-9.7923
ative	-9.79266
rising	-9.79279
▁Out	-9.7929
▁red	-9.7932
▁tea	-9.7938
ew	-9.79382
gram	-9.79415
rd	-9.79431
▁attain	-9.79436
india	-9.79439
▁cast	-9.7956
wer	-9.79609
▁Par	-9.79638
▁promised	-9.79684
▁inform	-9.79698
▁apart	-9.79775
▁actor	-9.79821
thi	-9.7987
▁longer	-9.80003
▁achievements	-9.80015
cent	-9.80233
ural	-9.80297
▁che	-9.803
▁Men	-9.8031
president	-9.80337
yan	-9.80387
▁folders	-9.80468
hil	-9.80547
▁Only	-9.80661
ably	-9.80698
▁passing	-9.80828
cc	-9.80976
▁Send	-9.80983
ged	-9.81076
ea	-9.81225
▁enable	-9.81332
istic	-9.81437
▁proof	-9.81746
▁included	-9.81813
AB	-9.81845
▁limit	-9.81881
▁Das	-9.81929
▁needs	-9.82032
ikh	-9.82041
lly	-9.8228
▁ste	-9.82326
▁official	-9.82409
▁degree	-9.82427
▁sal	-9.82481
▁novel	-9.82528
▁sat	-9.82536
resident	-9.82548
▁measures	-9.82553
▁heaven	-9.82595
▁letter	-9.82595
▁brothers	-9.82772
▁Nav	-9.82853
▁va	-9.82906
▁75	-9.82997
IN	-9.83101
AC	-9.83181
▁wor	-9.83224
ini	-9.83281
▁accounts	-9.83386
▁needed	-9.834
mitted	-9.8341
▁includes	-9.83414
▁worth	-9.83633
SI	-9.83661
▁wanted	-9.83718
011	-9.83726
ila	-9.83855
▁ki	-9.83903
▁100	-9.83933
▁purposes	-9.83974
▁item	-9.84025
mark	-9.84241
from	-9.84278
Q	-9.84319
port	-9.84321
Sita	-9.84358
▁select	-9.84424
▁barr	-9.8454
▁Ya	-9.84638
▁wait	-9.84664
▁views	-9.84681
hall	-9.84756
▁193	-9.84794
▁Her	-9.8498
ening	-9.85086
▁anti	-9.85164
▁threat	-9.85186
▁effective	-9.85192
▁50	-9.85324
▁train	-9.85358
ecause	-9.85379
aught	-9.85391
▁divide	-9.854
ize	-9.85403
▁south	-9.85413
▁Corporation	-9.85421
▁Display	-9.85421
▁Environment	-9.85421
▁Excellency	-9.85421
▁behaviour	-9.85421
▁complex	-9.85421
▁confirm	-9.85421
▁elephant	-9.85421
▁opportunities	-9.85421
▁recommend	-9.85421
▁registration	-9.85421
▁species	-9.85421
▁struggle	-9.85421
▁succeed	-9.85421
▁advantage	-9.85421
▁dispute	-9.85421
▁ocean	-9.85421
▁opinion	-9.85421
▁restrict	-9.85421
▁Policy	-9.85421
▁heritage	-9.85421
▁knew	-9.85421
▁storage	-9.85421
▁visible	-9.85421
▁shift	-9.85421
▁Change	-9.85421
▁Learn	-9.85421
▁average	-9.85422
▁exceed	-9.85422
▁River	-9.85423
▁debt	-9.85423
cular	-9.85424
▁entry	-9.85424
▁beautiful	-9.85425
▁partnership	-9.85426
▁filter	-9.85431
▁master	-9.85434
▁proceedings	-9.8544
▁Description	-9.85441
▁bill	-9.85447
▁empty	-9.85447
▁daughter	-9.85454
▁frame	-9.85457
▁taught	-9.85462
▁painful	-9.85464
▁employment	-9.85469
▁submitted	-9.85469
▁Home	-9.85478
▁update	-9.85483
▁performance	-9.85493
▁sort	-9.85536
▁April	-9.85538
▁European	-9.85543
▁election	-9.85547
▁vast	-9.8555
▁denied	-9.85553
▁establishment	-9.85555
▁Law	-9.85555
▁severe	-9.8556
▁Comment	-9.8556
▁team	-9.85563
▁innovation	-9.85567
▁moon	-9.85587
▁recite	-9.85592
▁meetings	-9.85596
vel	-9.85598
▁Post	-9.85601
▁More	-9.85621
▁becoming	-9.85626
▁fish	-9.85659
▁constituted	-9.85674
▁adopted	-9.85731
▁Mar	-9.8574
si	-9.85742
▁Hour	-9.85752
ww	-9.85781
▁cry	-9.85872
▁door	-9.85941
▁room	-9.85994
▁op	-9.86118
▁directly	-9.86138
▁destroyed	-9.86182
▁plants	-9.8619
▁suffering	-9.86314
▁feed	-9.86321
ster	-9.86366
▁Save	-9.86419
▁Thou	-9.86504
▁resident	-9.86559
▁promote	-9.86609
▁farm	-9.86797
▁5,	-9.868
▁User	-9.86933
▁Pat	-9.86969
▁organizations	-9.86981
spite	-9.86996
▁parents	-9.87191
him	-9.87202
nk	-9.8722
▁poems	-9.87401
▁II	-9.87572
▁press	-9.87614
▁site	-9.8775
▁Ji	-9.87766
▁rever	-9.87799
▁Tel	-9.87814
gro	-9.87959
▁Hol	-9.88037
old	-9.88227
▁player	-9.88454
▁letters	-9.88456
▁King	-9.88702
15	-9.88815
▁export	-9.8885
ler	-9.89058
▁tend	-9.89084
▁cells	-9.89102
▁steps	-9.89288
50	-9.89352
bu	-9.89413
▁Here	-9.89495
▁difference	-9.89538
▁cla	-9.89546
▁UN	-9.89573
unda	-9.89671
▁products	-9.89894
ngle	-9.89907
ung	-9.90106
LE	-9.90195
▁regulat	-9.90246
▁Har	-9.90333
like	-9.90756
▁suffer	-9.90769
rang	-9.90818
▁cover	-9.90932
▁tool	-9.91054
▁calls	-9.91141
nath	-9.912
X	-9.91395
place	-9.91417
▁travel	-9.91452
“”	-9.9148
What	-9.9149
rate	-9.91608
back	-9.91616
▁runs	-9.91673
oid	-9.91691
▁connect	-9.91691
▁destroy	-9.91752
▁suggest	-9.9176
vy	-9.91775
ON	-9.91884
▁print	-9.9207
▁wear	-9.92114
▁Pro	-9.92121
▁count	-9.92187
If	-9.922
▁essential	-9.92216
▁late	-9.92301
▁fields	-9.92326
▁attach	-9.92484
ukherjee	-9.92486
▁manufactur	-9.92496
▁scienti	-9.92561
▁proposal	-9.92563
▁2014	-9.92563
▁Company	-9.92563
▁Mumbai	-9.92563
▁association	-9.92563
▁campaign	-9.92563
▁circumstances	-9.92563
▁entrepreneur	-9.92563
▁excellent	-9.92563
▁institute	-9.92563
▁procedure	-9.92563
▁specify	-9.92563
▁thirty	-9.92563
▁Contact	-9.92564
▁carbon	-9.92564
▁creating	-9.92564
▁arrive	-9.92564
▁scholar	-9.92564
▁Women	-9.92564
▁favor	-9.92564
▁Click	-9.92564
▁Next	-9.92564
▁double	-9.92564
▁truly	-9.92564
▁extent	-9.92564
▁title	-9.92564
▁serious	-9.92564
▁talent	-9.92564
neath	-9.92565
▁Nepal	-9.92565
▁Fund	-9.92566
▁ignore	-9.92566
▁strike	-9.92569
▁electronic	-9.92569
▁Scripture	-9.9257
▁dwell	-9.92571
▁Window	-9.92571
▁password	-9.92572
▁extension	-9.92572
▁cooperation	-9.92573
▁2009	-9.92576
▁discover	-9.92578
▁assign	-9.92579
▁Health	-9.9258
▁2010	-9.92583
▁grand	-9.92588
▁rock	-9.92589
▁conflict	-9.92597
▁priority	-9.926
▁administration	-9.92609
▁Finance	-9.92613
▁improvement	-9.92621
▁remark	-9.92637
▁relative	-9.92643
ura	-9.92647
▁spent	-9.92653
▁sufficient	-9.92662
▁translation	-9.92666
▁medicine	-9.92677
▁Food	-9.9268
▁Pharaoh	-9.92689
▁lawful	-9.92692
▁row	-9.92702
▁attempt	-9.92716
▁August	-9.92771
▁spot	-9.92783
▁delivery	-9.92827
▁July	-9.92836
▁Yet	-9.92842
▁Indo	-9.92854
▁Nath	-9.92894
▁introduced	-9.92896
▁ordinar	-9.9294
▁counter	-9.92941
glad	-9.92943
▁feet	-9.92945
▁Q	-9.92956
▁parties	-9.92972
▁applications	-9.92984
▁throughout	-9.92998
▁ideal	-9.92998
lapse	-9.93015
PE	-9.93015
▁teaching	-9.93023
▁army	-9.93034
▁dry	-9.93037
▁dear	-9.9306
▁killed	-9.93085
cut	-9.93101
▁29	-9.93105
▁gate	-9.93128
ika	-9.9317
▁Other	-9.93172
▁lock	-9.93183
hood	-9.93208
▁propose	-9.93211
▁lesson	-9.93224
▁Why	-9.93269
▁deriv	-9.93338
▁sell	-9.9334
▁returns	-9.93402
▁agree	-9.93419
▁End	-9.93447
▁nations	-9.93455
▁writer	-9.93506
▁km	-9.93522
▁Set	-9.93547
▁replace	-9.9356
▁Mal	-9.93567
▁goes	-9.93884
▁continued	-9.93887
“	-9.93915
▁Sir	-9.93928
bel	-9.93944
▁stayed	-9.93995
▁developing	-9.941
My	-9.94109
AME	-9.94119
▁Jo	-9.94194
reafter	-9.94238
nal	-9.94317
▁Card	-9.94329
▁god	-9.94452
▁im	-9.94549
nch	-9.94567
▁Per	-9.94737
▁Dh	-9.9474
▁customers	-9.94755
▁gardens	-9.94922
▁assist	-9.95022
▁ti	-9.95121
▁employees	-9.9515
▁options	-9.9515
cha	-9.95905
▁sum	-9.96103
▁supported	-9.96139
▁em	-9.96208
▁homes	-9.96327
▁named	-9.96334
▁plans	-9.96412
gar	-9.96576
ons	-9.96611
▁star	-9.96625
lin	-9.96751
▁bone	-9.96863
No	-9.96864
▁processing	-9.96879
▁Don	-9.9696
▁emerg	-9.97025
▁interests	-9.971
▁Pan	-9.97141
▁follows	-9.97217
▁Ki	-9.97219
ants	-9.97237
▁contribution	-9.97244
▁Char	-9.97264
▁events	-9.97348
▁Non	-9.9735
▁student	-9.97353
▁relation	-9.97473
▁Tr	-9.97503
▁Yes	-9.97581
mm	-9.97624
▁participate	-9.98132
var	-9.98276
lip	-9.98278
cle	-9.98332
▁ver	-9.98362
▁sins	-9.98412
▁likely	-9.98426
atic	-9.98453
her	-9.98479
▁addition	-9.9849
▁2,	-9.98578
ID	-9.98586
aries	-9.98604
▁centre	-9.9873
▁origin	-9.98736
▁sources	-9.9884
clude	-9.98866
▁6.	-9.98893
hough	-9.98914
ula	-9.98989
▁factor	-9.99145
Muhammad	-9.99171
Allah	-9.99187
▁heav	-9.99203
under	-9.99218
▁affect	-9.99335
▁import	-9.99358
greed	-9.99521
▁pray	-9.99782
▁questions	-9.99919
▁custom	-9.99965
eserve	-10
▁tri	-10.0001
▁locat	-10.0005
▁sons	-10.001
▁commit	-10.0015
▁avail	-10.0017
dent	-10.0018
▁admit	-10.0023
▁cap	-10.0024
vocation	-10.0024
▁pipe	-10.0024
▁Copy	-10.0025
▁guard	-10.0025
▁Current	-10.0026
▁District	-10.0026
▁Library	-10.0026
▁Official	-10.0026
▁Pakistan	-10.0026
▁chapter	-10.0026
▁chastisement	-10.0026
▁consciousness	-10.0026
▁criminal	-10.0026
▁greeting	-10.0026
▁independent	-10.0026
▁liquid	-10.0026
▁platform	-10.0026
▁survey	-10.0026
▁telephone	-10.0026
▁thrust	-10.0026
▁victim	-10.0026
▁yield	-10.0026
▁London	-10.0026
▁Mission	-10.0026
▁divine	-10.0026
▁blind	-10.0026
▁damage	-10.0026
▁throw	-10.0026
▁Japan	-10.0026
▁Truth	-10.0026
▁replied	-10.0026
▁pillar	-10.0026
▁Turk	-10.0026
▁minor	-10.0026
▁walk	-10.0026
▁Financial	-10.0026
▁annual	-10.0026
▁Task	-10.0026
▁laid	-10.0026
▁harm	-10.0026
▁composed	-10.0026
▁skin	-10.0026
▁proportion	-10.0026
▁correspond	-10.0026
▁buy	-10.0026
▁multiple	-10.0026
▁happiness	-10.0027
▁input	-10.0027
▁representative	-10.0027
▁prosperity	-10.0027
▁running	-10.0027
▁easily	-10.0027
▁2002	-10.0027
▁Bihar	-10.0028
▁authorities	-10.0028
FOR	-10.0028
▁memory	-10.0028
▁2004	-10.0029
married	-10.0029
▁foot	-10.0029
▁arrangement	-10.0029
▁thanks	-10.003
▁History	-10.003
▁participation	-10.003
▁Print	-10.0031
▁appointment	-10.0031
▁Shah	-10.0031
▁roll	-10.0031
scription	-10.0033
▁suitable	-10.0033
▁commitment	-10.0033
▁insect	-10.0034
▁Forgiving	-10.0034
▁flag	-10.0036
▁vote	-10.004
▁minister	-10.004
▁hill	-10.0041
▁Right	-10.0042
▁restore	-10.0044
▁sitting	-10.0045
▁44	-10.0045
▁net	-10.0048
▁digital	-10.0051
▁immediately	-10.0052
▁coordinate	-10.0056
▁Iran	-10.0065
iddle	-10.007
▁Play	-10.0071
▁slow	-10.008
▁Wat	-10.0082
▁cow	-10.0084
▁dome	-10.0085
▁evening	-10.0086
▁Relat	-10.0086
▁lad	-10.0094
▁convert	-10.0103
!"	-10.0106
▁served	-10.0108
▁affected	-10.0108
▁mar	-10.011
▁moved	-10.0121
▁mighty	-10.0122
▁conducted	-10.0134
▁revelations	-10.0135
▁fi	-10.014
▁warner	-10.0141
▁removed	-10.0142
▁Mary	-10.0142
▁lines	-10.0146
ome	-10.0147
fo	-10.0153
▁contained	-10.0153
▁CD	-10.016
▁layer	-10.0166
▁knowing	-10.0167
▁Part	-10.0168
PS	-10.0184
arch	-10.0186
▁costs	-10.0193
▁Did	-10.0204
▁hearing	-10.0207
▁songs	-10.0208
▁Da	-10.0214
▁east	-10.0218
ient	-10.0245
▁didn	-10.0251
▁welcome	-10.0265
▁Lam	-10.0275
▁Indians	-10.0277
▁Ta	-10.03
▁centres	-10.0328
1-201	-10.0332
▁changed	-10.0344
▁gods	-10.0355
▁remained	-10.0355
ample	-10.0379
▁filed	-10.0386
▁figure	-10.0402
▁trac	-10.0402
▁articles	-10.0405
▁youth	-10.0428
▁Services	-10.043
lum	-10.0433
▁acquire	-10.0437
mun	-10.0442
▁35	-10.0449
jan	-10.045
▁Import	-10.0453
ora	-10.0457
ians	-10.0464
▁appear	-10.0472
▁arms	-10.0474
▁edit	-10.0493
▁leg	-10.0504
ii	-10.0524
▁win	-10.0527
▁names	-10.0541
▁fac	-10.0545
▁Yu	-10.0563
▁employee	-10.0565
▁option	-10.0567
▁bi	-10.0584
▁looking	-10.0593
▁opened	-10.0595
part	-10.06
▁permit	-10.0602
);	-10.0613
uction	-10.0615
▁convey	-10.0618
▁powers	-10.0623
▁devi	-10.0628
▁artist	-10.0658
,"	-10.0669
form	-10.0671
▁ill	-10.0674
▁Chi	-10.0699
▁desires	-10.0707
▁tab	-10.0717
log	-10.0721
ET	-10.0751
point	-10.0752
what	-10.0752
▁benefits	-10.0758
▁reject	-10.077
▁colour	-10.0774
▁reveal	-10.0779
▁Min	-10.078
His	-10.0783
And	-10.0785
▁gather	-10.0787
▁store	-10.0803
quite	-10.0818
▁Cha	-10.0818
▁unjust	-10.0825
lthough	-10.0841
▁encourage	-10.085
▁194	-10.0852
▁submit	-10.0857
▁audio	-10.0859
▁urban	-10.0859
▁Believers	-10.0859
▁Default	-10.0859
▁Governance	-10.0859
▁Princip	-10.0859
▁Security	-10.0859
▁abroad	-10.0859
▁accident	-10.0859
▁covenant	-10.0859
▁destruction	-10.0859
▁division	-10.0859
▁entitle	-10.0859
▁estimate	-10.0859
▁families	-10.0859
▁fundamental	-10.0859
▁furnish	-10.0859
▁illegal	-10.0859
▁industries	-10.0859
▁mechanism	-10.0859
▁privilege	-10.0859
▁transaction	-10.0859
▁victory	-10.0859
▁Circular	-10.0859
▁Connect	-10.0859
▁Global	-10.0859
▁brief	-10.0859
▁dawn	-10.0859
▁download	-10.0859
▁sacred	-10.0859
▁atmosphere	-10.0859
▁kingdom	-10.0859
▁attitude	-10.0859
▁doctor	-10.0859
▁sleep	-10.0859
▁crop	-10.0859
▁Folder	-10.0859
▁desert	-10.0859
▁mosque	-10.0859
▁Saudi	-10.0859
▁Region	-10.0859
▁zero	-10.0859
eputy	-10.0859
▁danger	-10.0859
▁Annu	-10.0859
▁ahead	-10.0859
▁utter	-10.0859
▁Jammu	-10.0859
▁Since	-10.0859
▁audit	-10.0859
▁praise	-10.0859
▁Image	-10.0859
▁Great	-10.0859
▁Class	-10.086
AGE	-10.086
▁counsel	-10.086
▁instance	-10.086
▁2017	-10.086
▁cloud	-10.086
▁cattle	-10.086
▁forget	-10.086
nvestment	-10.086
▁decree	-10.0861
▁2015	-10.0861
▁constitution	-10.0861
▁Enter	-10.0861
▁promotion	-10.0861
▁initiate	-10.0861
▁gold	-10.0862
▁repent	-10.0862
▁fellow	-10.0863
▁destination	-10.0863
▁proud	-10.0863
▁stop	-10.0864
▁Email	-10.0864
▁taste	-10.0865
▁chance	-10.0865
▁reform	-10.0866
▁motion	-10.0866
▁radio	-10.0866
▁deduction	-10.0866
▁rank	-10.0868
▁invent	-10.0868
▁supreme	-10.0869
▁sorrow	-10.0869
▁identified	-10.0874
▁Vice	-10.0874
▁Good	-10.0875
▁truthful	-10.0879
iti	-10.0879
▁someone	-10.0879
▁organis	-10.088
▁fit	-10.0881
ESS	-10.0882
▁nine	-10.0883
▁competen	-10.0883
▁October	-10.0883
▁edge	-10.0884
▁China	-10.0884
▁applied	-10.0884
▁span	-10.0884
▁seize	-10.0887
▁Over	-10.0892
▁successfully	-10.0893
▁spare	-10.0896
▁helper	-10.0904
▁release	-10.0906
▁suit	-10.0906
▁deity	-10.0907
ridge	-10.0908
▁du	-10.0909
▁film	-10.091
▁Ganga	-10.0912
▁fell	-10.0918
lam	-10.092
▁height	-10.092
▁regional	-10.0927
▁Hindus	-10.0927
▁facilit	-10.0928
▁defined	-10.0929
▁execut	-10.0929
▁burning	-10.093
▁stoo	-10.0933
▁IIT	-10.0934
▁reduced	-10.0935
ump	-10.0936
▁bus	-10.0965
▁limited	-10.0966
▁produced	-10.0968
▁covering	-10.0973
▁smaller	-10.0973
▁mentioned	-10.0978
▁waiting	-10.098
▁interact	-10.0983
▁ratio	-10.0987
▁Veda	-10.0994
▁gene	-10.1013
▁exception	-10.1014
▁results	-10.1017
▁Pla	-10.1023
iz	-10.103
▁menu	-10.1041
▁“”	-10.1056
▁string	-10.1059
04	-10.1085
▁regarding	-10.1107
▁clearly	-10.1112
▁workers	-10.1118
rid	-10.116
nar	-10.1169
rup	-10.1178
▁Gujarat	-10.1179
500	-10.1188
pro	-10.1205
000	-10.1206
▁5.	-10.1219
▁wronged	-10.1226
12	-10.1236
▁Speci	-10.1249
▁aspects	-10.1276
▁units	-10.1287
ides	-10.1299
▁documents	-10.13
▁clo	-10.1305
▁attribute	-10.1319
lf	-10.1346
▁Bh	-10.1351
▁forever	-10.1356
▁Shar	-10.1371
▁diseases	-10.1382
▁actions	-10.14
MB	-10.1401
but	-10.1405
▁towns	-10.1408
▁fruits	-10.1431
anda	-10.1434
▁ways	-10.1437
▁deposits	-10.1455
▁33	-10.1456
▁el	-10.146
▁IT	-10.1462
▁girl	-10.1465
▁sister	-10.1465
▁tran	-10.1469
▁solution	-10.1472
▁garden	-10.1473
EC	-10.1505
▁schools	-10.1521
long	-10.1523
▁Mat	-10.1526
▁leader	-10.1542
aba	-10.1543
iya	-10.1557
▁SA	-10.1559
▁funds	-10.1566
teel	-10.1571
▁wo	-10.1577
▁Ali	-10.1583
13	-10.1588
▁achieve	-10.1618
▁characters	-10.162
DA	-10.1637
You	-10.1642
mu	-10.165
▁deliver	-10.1651
▁manage	-10.1654
detail	-10.1655
release	-10.1657
work	-10.1659
▁ID	-10.1694
ces	-10.1695
].	-10.1705
▁CO	-10.1715
olar	-10.172
▁complain	-10.1735
▁successful	-10.174
▁reduce	-10.1743
▁magic	-10.1752
▁recent	-10.1753
▁transform	-10.1756
▁educat	-10.1759
▁blow	-10.1759
▁dark	-10.1763
▁differ	-10.1763
▁alter	-10.1764
hoose	-10.1765
cribe	-10.1765
▁mill	-10.1765
▁proceed	-10.1765
▁broad	-10.1766
evolution	-10.1766
▁Ju	-10.1767
▁false	-10.1768
▁dialog	-10.1768
▁straight	-10.1768
▁creature	-10.1768
Remember	-10.1768
▁Binoy	-10.1768
▁Buddhist	-10.1768
▁Chairman	-10.1768
▁Jawahar	-10.1768
▁Karnataka	-10.1768
▁Options	-10.1768
▁Remove	-10.1768
▁Sanskrit	-10.1768
▁Switch	-10.1768
▁System	-10.1768
▁absolute	-10.1768
▁academic	-10.1768
▁afflict	-10.1768
▁appellant	-10.1768
▁bounty	-10.1768
▁distribution	-10.1768
▁enjoin	-10.1768
▁expansion	-10.1768
▁fault	-10.1768
▁guilty	-10.1768
▁innocent	-10.1768
▁nuclea	-10.1768
▁opportunity	-10.1768
▁pollution	-10.1768
▁pregnancy	-10.1768
▁resolve	-10.1768
▁strategy	-10.1768
▁studies	-10.1768
▁surface	-10.1768
▁tissue	-10.1768
▁tribute	-10.1768
▁welfare	-10.1768
▁yesterday	-10.1768
▁{0}	-10.1768
▁Children	-10.1768
▁puppet	-10.1768
▁yellow	-10.1768
▁twice	-10.1768
▁proxy	-10.1768
▁twenty	-10.1768
▁dream	-10.1768
▁Mughal	-10.1768
▁agencies	-10.1768
▁distance	-10.1768
▁retreat	-10.1768
▁render	-10.1768
▁inherit	-10.1768
▁modification	-10.1768
▁weapon	-10.1768
▁fuel	-10.1768
▁intellectual	-10.1768
▁Institutions	-10.1768
▁impossible	-10.1768
▁violence	-10.1768
▁scientists	-10.1768
▁expir	-10.1768
▁blessing	-10.1768
▁lake	-10.1769
▁entity	-10.1769
raising	-10.1769
▁merit	-10.1769
▁technical	-10.1769
▁begin	-10.1769
▁2006	-10.1769
▁spring	-10.1769
▁1956	-10.177
▁2008	-10.177
▁equipment	-10.177
scope	-10.177
▁index	-10.177
▁recover	-10.177
▁Ku	-10.177
▁independence	-10.177
▁tube	-10.1771
▁Authority	-10.1772
▁climate	-10.1772
▁race	-10.1772
▁assistance	-10.1772
▁wound	-10.1772
▁Another	-10.1772
▁fresh	-10.1772
▁midst	-10.1773
▁marry	-10.1773
▁Report	-10.1773
▁darkness	-10.1773
▁effects	-10.1773
▁Also	-10.1774
▁Server	-10.1774
▁senior	-10.1774
▁worry	-10.1774
▁sustainable	-10.1775
▁sexual	-10.1776
▁sentence	-10.1778
▁iron	-10.1778
▁bestow	-10.1779
crete	-10.1779
▁saint	-10.1781
▁everyone	-10.1781
▁Agriculture	-10.1783
▁confidence	-10.1784
▁prostrate	-10.1784
▁comment	-10.1785
▁solv	-10.1786
▁wave	-10.1788
▁multi	-10.1789
▁urge	-10.1794
▁Later	-10.1796
▁settled	-10.1802
▁Exp	-10.1803
▁fixed	-10.1804
▁followers	-10.1804
ou	-10.1805
▁Never	-10.1806
▁drawn	-10.1806
▁complaint	-10.1807
▁Make	-10.1807
▁Islamic	-10.181
▁affairs	-10.1812
▁Tab	-10.1813
quest	-10.1813
▁script	-10.1814
▁corner	-10.1816
ography	-10.1817
▁Line	-10.1818
▁Tax	-10.182
▁Art	-10.1823
▁handle	-10.1824
▁Path	-10.1826
▁Abraham	-10.1827
mma	-10.1828
▁seal	-10.1828
▁released	-10.1829
mission	-10.1831
▁box	-10.1854
▁gathered	-10.1859
ague	-10.1862
gri	-10.1862
bin	-10.1864
roa	-10.1866
▁achieved	-10.1875
▁shaped	-10.1882
▁meant	-10.1898
▁Gardens	-10.1899
▁teachers	-10.1903
26	-10.1919
▁musical	-10.1925
▁publications	-10.1929
▁reasons	-10.1931
ock	-10.1937
TH	-10.1939
▁Messengers	-10.1944
▁cu	-10.1948
▁encompass	-10.1953
▁Christians	-10.1957
▁Sai	-10.1959
dditional	-10.1959
▁Best	-10.1964
▁fathers	-10.1973
▁sit	-10.1979
▁Count	-10.1987
▁signed	-10.1994
nagar	-10.1995
▁El	-10.2
▁bearing	-10.2003
▁rat	-10.2004
▁holding	-10.2006
tical	-10.2014
▁dealing	-10.2014
chan	-10.2016
▁skills	-10.2016
▁requires	-10.2018
▁En	-10.202
▁Raja	-10.2028
▁tin	-10.2035
ATION	-10.2046
▁Person	-10.2074
▁ir	-10.2077
▁formulat	-10.2077
hol	-10.2088
▁ability	-10.2093
▁minutes	-10.2094
▁appears	-10.2108
▁190	-10.211
▁pen	-10.2115
▁Date	-10.2129
EP	-10.2133
▁forty	-10.2141
▁8.	-10.2143
cre	-10.2143
▁courts	-10.2148
ST	-10.215
▁levels	-10.2177
▁Bala	-10.2184
illa	-10.2187
▁reported	-10.2194
▁limits	-10.2198
grew	-10.22
▁Ke	-10.2201
ona	-10.2207
▁header	-10.2224
▁standards	-10.2224
other	-10.2225
▁...	-10.2234
▁contents	-10.2254
polit	-10.2255
▁Account	-10.227
▁officers	-10.2285
mination	-10.2286
03	-10.2315
01.	-10.2322
▁improve	-10.2322
▁na	-10.2335
▁guides	-10.2349
trusted	-10.2358
ligible	-10.2371
▁fur	-10.2383
▁Creat	-10.2398
▁flu	-10.2421
▁argument	-10.243
▁card	-10.2454
▁70	-10.2469
▁poem	-10.2481
▁turning	-10.2487
▁heat	-10.2492
▁pages	-10.2498
▁customer	-10.2502
11	-10.2516
▁Am	-10.2522
VE	-10.2547
▁numbers	-10.2549
▁ago	-10.2583
▁detail	-10.2599
graph	-10.26
holder	-10.2624
▁da	-10.2643
wareness	-10.2652
▁Ti	-10.2656
▁60	-10.266
▁caste	-10.2676
sis	-10.2686
will	-10.2687
esh	-10.2695
▁pr	-10.27
dict	-10.2701
istan	-10.2717
word	-10.2725
▁immediate	-10.2733
▁final	-10.2733
▁actual	-10.2734
bir	-10.2735
ility	-10.2735
▁possess	-10.2744
▁Web	-10.2744
▁spoke	-10.2747
▁SH	-10.2747
▁refuge	-10.2752
mount	-10.2756
▁examin	-10.2758
nergy	-10.2762
▁electric	-10.2762
▁drama	-10.2765
▁cho	-10.2767
▁photo	-10.2768
▁Explanation	-10.2768
▁Application	-10.2768
▁Assistant	-10.2768
▁Convention	-10.2768
▁Innovation	-10.2768
▁Knowing	-10.2768
▁absorb	-10.2768
▁apparent	-10.2768
▁appropriate	-10.2768
▁bottom	-10.2768
▁circle	-10.2768
▁consultation	-10.2768
▁craft	-10.2768
▁database	-10.2768
▁definite	-10.2768
▁disbelief	-10.2768
▁healthcare	-10.2768
▁hidden	-10.2768
▁inspiration	-10.2768
▁instruction	-10.2768
▁library	-10.2768
▁philosophy	-10.2768
▁plugin	-10.2768
▁resolution	-10.2768
▁response	-10.2768
▁sacrifice	-10.2768
▁sculpture	-10.2768
▁trouble	-10.2768
▁twelve	-10.2768
▁Article	-10.2768
▁Training	-10.2768
▁virtue	-10.2768
▁Check	-10.2768
▁John	-10.2768
▁URL	-10.2768
▁expand	-10.2768
▁reckon	-10.2768
▁Civil	-10.2768
▁Filter	-10.2768
▁tidings	-10.2768
▁tongue	-10.2768
▁Social	-10.2768
▁centuries	-10.2768
▁Field	-10.2768
▁recipients	-10.2768
▁finance	-10.2768
▁glory	-10.2768
▁Justice	-10.2768
▁Tagore	-10.2768
▁fulfilled	-10.2768
▁protest	-10.2768
▁swear	-10.2768
▁honor	-10.2768
▁pardon	-10.2768
▁output	-10.2768
▁climb	-10.2768
▁Clear	-10.2768
▁Jews	-10.2768
▁invoke	-10.2768
▁plot	-10.2768
▁engineering	-10.2768
▁gift	-10.2768
▁stock	-10.2768
▁absent	-10.2768
▁horse	-10.2768
▁analysis	-10.2768
▁pension	-10.2768
▁assured	-10.2768
▁opposition	-10.2768
▁glass	-10.2768
▁narrow	-10.2768
▁Swami	-10.2768
▁advis	-10.2768
▁Font	-10.2768
▁yourself	-10.2768
▁properties	-10.2769
▁fifty	-10.2769
▁saving	-10.2769
▁Delete	-10.2769
▁consent	-10.2769
▁commercial	-10.2769
▁Madhya	-10.2769
▁probabl	-10.2769
▁legend	-10.2769
▁copyright	-10.2769
trategi	-10.2769
▁governance	-10.2769
▁failure	-10.277
▁rough	-10.277
▁interven	-10.277
▁characteristic	-10.277
▁conservation	-10.277
▁blame	-10.277
▁slain	-10.277
▁urgent	-10.277
▁university	-10.277
▁pressure	-10.277
▁fluid	-10.2771
▁conference	-10.2771
▁1957	-10.2771
▁hunt	-10.2771
DAY	-10.2771
▁Sind	-10.2771
▁Bookmark	-10.2772
▁block	-10.2772
▁Nature	-10.2772
▁(4)	-10.2772
▁piece	-10.2772
▁tourist	-10.2772
▁Babu	-10.2772
▁enact	-10.2772
▁nurs	-10.2773
▁spell	-10.2773
▁investigation	-10.2774
▁split	-10.2774
▁Mark	-10.2775
▁cultivation	-10.2775
▁extreme	-10.2775
▁grace	-10.2776
▁peak	-10.2776
▁defendant	-10.2777
rom	-10.2778
▁ox	-10.2778
▁Brahman	-10.2778
▁grave	-10.2779
▁difficulties	-10.2779
▁boil	-10.2779
▁else	-10.278
▁weakness	-10.278
▁sometime	-10.2782
▁examination	-10.2782
▁billion	-10.2783
▁Devi	-10.2785
thetic	-10.2786
▁ray	-10.2787
▁personality	-10.2787
▁Both	-10.2788
▁flowers	-10.2789
▁primary	-10.2789
▁stem	-10.279
▁Rep	-10.279
▁possession	-10.2792
▁Size	-10.2793
▁recognised	-10.2794
▁button	-10.2798
▁z	-10.2803
mum	-10.2804
▁preserv	-10.2805
▁exit	-10.2807
▁petitioner	-10.2807
▁Mail	-10.2808
omething	-10.2809
▁bind	-10.2809
▁liar	-10.2811
▁weight	-10.2818
▁essentially	-10.2819
▁lose	-10.2821
TER	-10.2821
▁reminder	-10.2821
prehensive	-10.2822
NA	-10.2824
terrible	-10.2827
▁numer	-10.2834
▁generated	-10.284
▁manager	-10.284
▁seat	-10.284
▁Chand	-10.2841
▁observed	-10.2842
itis	-10.2842
▁firmly	-10.2845
troduction	-10.2857
▁camel	-10.2861
▁subjects	-10.2872
▁manag	-10.2884
▁0.	-10.2888
▁band	-10.2894
izing	-10.2903
▁earned	-10.2903
▁answered	-10.2904
bai	-10.2909
▁defend	-10.291
▁attained	-10.2911
▁Bengali	-10.2921
▁IP	-10.2921
being	-10.2922
▁granted	-10.2931
▁saved	-10.2931
▁90	-10.2934
▁ready	-10.2935
▁communications	-10.2947
▁faithful	-10.2953
▁capabilit	-10.2954
▁ran	-10.2957
▁realise	-10.296
▁mine	-10.296
▁seeing	-10.2963
ess	-10.2976
resh	-10.2978
▁rupees	-10.2979
▁Signs	-10.2979
▁rid	-10.2986
▁Houses	-10.3
▁turns	-10.3004
▁ni	-10.3005
▁happened	-10.3007
▁discharge	-10.301
tory	-10.3011
▁fonts	-10.3011
version	-10.3038
EF	-10.307
▁map	-10.3094
▁Tak	-10.3095
▁aside	-10.3139
▁domin	-10.3144
▁Nor	-10.3146
▁ST	-10.3148
▁figures	-10.3157
BB	-10.3158
▁stars	-10.3175
▁fly	-10.3185
▁factors	-10.3186
▁seeking	-10.3186
▁val	-10.3198
▁commanded	-10.3206
▁Prem	-10.3214
rare	-10.3215
reach	-10.3219
▁Hear	-10.3234
▁keeping	-10.324
▁degrees	-10.3243
▁mortal	-10.3298
28	-10.3306
rrow	-10.3309
▁birds	-10.3309
▁weeks	-10.331
pid	-10.3314
▁practices	-10.3344
jo	-10.3353
▁ji	-10.3355
▁grieve	-10.337
itude	-10.337
▁allows	-10.3383
▁Rai	-10.3389
das	-10.3397
▁settings	-10.3411
iff	-10.3416
17	-10.3435
".	-10.3441
▁objectives	-10.3445
▁stones	-10.3445
-2012	-10.3449
▁thinking	-10.3455
▁Hon	-10.3462
ogen	-10.3465
zer	-10.3469
▁west	-10.3474
▁regions	-10.3481
▁papers	-10.3495
teral	-10.3506
▁instruments	-10.3513
▁require	-10.3518
▁Du	-10.3521
▁attract	-10.3531
zon	-10.3547
▁Ye	-10.356
▁stream	-10.3576
kan	-10.3577
▁department	-10.3581
▁skill	-10.3581
▁transgress	-10.3586
▁resource	-10.3588
▁principle	-10.3588
▁governments	-10.3592
▁parent	-10.3593
▁requirement	-10.3594
▁discussion	-10.36
▁fearing	-10.3601
▁(1	-10.3648
NS	-10.367
▁char	-10.3681
CI	-10.3686
▁board	-10.3689
▁kill	-10.3719
▁individuals	-10.372
▁temples	-10.372
raw	-10.3731
uch	-10.374
elf	-10.3747
▁leav	-10.3748
▁links	-10.3755
Why	-10.3769
board	-10.377
▁receiv	-10.3774
▁observ	-10.3785
▁burn	-10.3786
uda	-10.3789
▁pla	-10.3789
▁appoint	-10.3792
▁web	-10.3795
▁Run	-10.3796
▁inaugurat	-10.3796
▁fail	-10.3806
upon	-10.3808
▁delete	-10.3823
▁prepare	-10.3825
ose	-10.3833
▁terr	-10.3834
cap	-10.3847
▁profession	-10.3851
▁Disc	-10.3851
▁posts	-10.3862
80	-10.3863
zi	-10.3864
▁era	-10.3868
▁verse	-10.387
▁oppress	-10.387
mail	-10.3871
▁administrati	-10.3872
ject	-10.3872
▁sustain	-10.3872
▁temp	-10.3873
▁prior	-10.3873
▁machine	-10.3875
operative	-10.3878
▁revolution	-10.3878
▁engine	-10.3879
osphere	-10.3879
▁Vishnu	-10.3879
▁configur	-10.3879
PRODUCT	-10.3879
▁Apostle	-10.3879
▁Continu	-10.3879
▁Judgment	-10.3879
▁Knowledge	-10.3879
▁Kovind	-10.3879
▁Palestinians	-10.3879
▁Province	-10.3879
▁acquisition	-10.3879
▁adequate	-10.3879
▁aircraft	-10.3879
▁appreciate	-10.3879
▁arrogant	-10.3879
▁assault	-10.3879
▁beauty	-10.3879
▁communities	-10.3879
▁competition	-10.3879
▁currency	-10.3879
▁definition	-10.3879
▁distress	-10.3879
▁enemies	-10.3879
▁excellence	-10.3879
▁incident	-10.3879
▁infidel	-10.3879
▁judgment	-10.3879
▁pattern	-10.3879
▁pesticide	-10.3879
▁politics	-10.3879
▁proclaim	-10.3879
▁satisfied	-10.3879
▁schedule	-10.3879
▁smooth	-10.3879
▁switch	-10.3879
▁technique	-10.3879
▁territory	-10.3879
▁Chapter	-10.3879
▁Divine	-10.3879
▁England	-10.3879
▁Kingdom	-10.3879
▁Natural	-10.3879
▁Support	-10.3879
▁deprive	-10.3879
▁identify	-10.3879
▁murder	-10.3879
▁uniform	-10.3879
▁Budget	-10.3879
▁Chinese	-10.3879
▁Credit	-10.3879
▁poison	-10.3879
▁width	-10.3879
▁Among	-10.3879
▁Detail	-10.3879
▁internet	-10.3879
▁micro	-10.3879
▁summon	-10.3879
▁devote	-10.3879
▁tribal	-10.3879
▁venture	-10.3879
▁wicked	-10.3879
▁wrath	-10.3879
▁silver	-10.3879
▁treasure	-10.3879
▁Mohammed	-10.3879
▁Police	-10.3879
▁Question	-10.3879
▁adorn	-10.3879
▁neck	-10.3879
▁blue	-10.3879
▁sanction	-10.3879
chandra	-10.3879
▁Green	-10.3879
▁adult	-10.3879
▁abundan	-10.3879
▁moving	-10.3879
▁Title	-10.3879
▁Andhra	-10.3879
▁Network	-10.3879
▁consequences	-10.3879
▁Meeting	-10.3879
▁Keep	-10.3879
▁infection	-10.388
▁blessed	-10.388
▁idol	-10.388
▁component	-10.388
▁vital	-10.388
▁railway	-10.388
▁Subject	-10.388
▁occurred	-10.388
▁cease	-10.388
▁contemporar	-10.388
▁intended	-10.388
▁acid	-10.388
▁Economic	-10.388
▁forgot	-10.3881
▁impress	-10.3881
▁impact	-10.3881
▁brain	-10.3881
▁leadership	-10.3881
▁subsequent	-10.3882
▁dignit	-10.3882
▁flight	-10.3882
▁background	-10.3882
▁(3)	-10.3883
▁Railway	-10.3883
▁2003	-10.3883
▁unaware	-10.3883
▁mouse	-10.3884
▁anger	-10.3884
▁favourite	-10.3884
▁1950	-10.3884
▁Master	-10.3884
▁revenue	-10.3884
Peace	-10.3884
▁Setting	-10.3885
▁facilitate	-10.3885
▁sympath	-10.3885
▁Thom	-10.3886
▁offence	-10.3886
▁shop	-10.3886
▁friendship	-10.3887
▁08	-10.3887
▁offline	-10.3887
▁painting	-10.3888
▁fool	-10.3889
▁interpretation	-10.3889
▁Just	-10.389
▁reality	-10.3891
▁collective	-10.3891
▁extra	-10.3891
▁cancel	-10.3893
▁pick	-10.3893
▁schemes	-10.3895
▁ships	-10.3895
▁rebel	-10.3898
▁slight	-10.3898
▁Arabic	-10.3899
▁limitation	-10.3899
▁abide	-10.3899
▁Solar	-10.39
▁Mother	-10.3902
▁quickly	-10.3902
▁hug	-10.3903
▁48	-10.3903
▁Auto	-10.3903
▁grain	-10.3904
▁blown	-10.3904
ied	-10.3905
▁topic	-10.3905
▁thereby	-10.3906
▁alternative	-10.3907
▁Bose	-10.3908
▁majority	-10.3908
▁CRA	-10.3909
▁plead	-10.3909
▁Amendment	-10.3913
▁Read	-10.3913
aughter	-10.3913
▁behold	-10.3917
▁bond	-10.3917
▁bio	-10.3919
▁variet	-10.392
▁noise	-10.3922
▁Key	-10.3923
▁recently	-10.3923
▁cup	-10.3924
▁classes	-10.3925
▁Praise	-10.3932
▁expenses	-10.3934
suf	-10.3935
▁deleted	-10.3935
nut	-10.3939
▁Pass	-10.3947
▁obtained	-10.3953
▁undergo	-10.3955
▁Ask	-10.3956
▁van	-10.3962
▁wine	-10.3963
▁Col	-10.3968
▁difficulty	-10.3974
30	-10.3979
▁Modi	-10.398
▁compar	-10.3984
▁foundation	-10.3984
▁seated	-10.3985
▁Roy	-10.3988
▁processes	-10.399
▁Nana	-10.3995
▁Mim	-10.3995
▁appeared	-10.3996
bility	-10.4001
▁ar	-10.4002
▁coin	-10.4005
▁entirely	-10.4008
▁lac	-10.4014
▁Sad	-10.4018
▁beings	-10.402
▁Bag	-10.4021
rist	-10.4029
▁Nil	-10.403
roz	-10.403
itting	-10.4032
▁printing	-10.4032
▁kinds	-10.4037
met	-10.4043
▁breasts	-10.4043
▁features	-10.4043
that	-10.405
raja	-10.4054
▁sand	-10.4063
▁soil	-10.4079
▁enhanc	-10.4086
ssi	-10.4088
omin	-10.4125
▁union	-10.4131
▁fighting	-10.4138
▁Tri	-10.4141
▁sole	-10.4158
osa	-10.416
▁parliament	-10.4171
NR	-10.4176
▁III	-10.4185
▁discussions	-10.4195
▁Awards	-10.4195
UK	-10.4202
▁Hi	-10.4208
cation	-10.4216
▁qua	-10.4217
▁Accounts	-10.4233
mir	-10.424
▁199	-10.4242
intend	-10.4248
olic	-10.4249
▁solutions	-10.4264
ifer	-10.4264
▁pin	-10.4279
IP	-10.4288
ference	-10.4294
▁legs	-10.4304
AM	-10.4325
▁faced	-10.4339
▁contributions	-10.4339
well	-10.4339
▁concept	-10.4346
▁plays	-10.4355
▁socio	-10.4397
)."	-10.44
▁novels	-10.4414
▁Bur	-10.4415
▁85	-10.443
▁theme	-10.4435
anti	-10.4451
▁interested	-10.4453
▁sectors	-10.4476
state	-10.448
▁objects	-10.449
▁Had	-10.4502
▁aged	-10.4535
US	-10.4547
▁died	-10.4551
▁germ	-10.4563
▁tooth	-10.4564
▁sending	-10.4577
▁vir	-10.4591
fore	-10.4601
▁loans	-10.4605
▁Arabia	-10.4627
DI	-10.4637
AD	-10.4654
ua	-10.466
▁emb	-10.4681
riya	-10.4708
▁videos	-10.472
200	-10.4734
In	-10.4742
▁stages	-10.4759
▁36	-10.4773
▁finding	-10.478
raj	-10.4784
lets	-10.4793
)]	-10.4821
▁organization	-10.4834
▁font	-10.4835
▁moral	-10.4835
▁effort	-10.4839
▁statu	-10.4847
▁valid	-10.4848
▁wage	-10.4854
▁Access	-10.4877
Do	-10.4885
▁ensur	-10.489
IV	-10.4892
lessness	-10.4931
▁BC	-10.4934
than	-10.4937
▁caus	-10.4952
▁backs	-10.4953
▁song	-10.4953
▁defen	-10.4955
▁Sah	-10.4956
▁memo	-10.4958
rror	-10.4961
25	-10.497
▁remind	-10.4977
▁mud	-10.4983
OI	-10.4996
EM	-10.4996
key	-10.4996
erivative	-10.5013
ashi	-10.5016
*	-10.5019
India	-10.5023
▁Iraq	-10.5025
alaya	-10.5028
house	-10.5031
Who	-10.5032
▁employ	-10.5035
box	-10.5037
nanda	-10.5042
▁repeat	-10.5046
▁obtain	-10.5046
▁launch	-10.5048
trea	-10.5063
▁Micro	-10.5065
▁gradua	-10.507
▁recognize	-10.5072
▁define	-10.5076
AI	-10.5082
▁sing	-10.509
▁technolog	-10.5092
habit	-10.5098
▁drag	-10.5099
▁fold	-10.511
pha	-10.5112
▁interpret	-10.5118
▁corrupt	-10.5119
▁princip	-10.5122
▁excess	-10.5123
▁distinct	-10.5123
hrough	-10.5125
rivate	-10.5128
▁descend	-10.5128
▁fulfil	-10.5129
▁Configur	-10.5129
▁Affairs	-10.5129
▁Association	-10.5129
▁Business	-10.5129
▁Chaitanya	-10.5129
▁College	-10.5129
▁Control	-10.5129
▁Desktop	-10.5129
▁Effect	-10.5129
▁Google	-10.5129
▁Hamachi	-10.5129
▁Independence	-10.5129
▁Knower	-10.5129
▁Kolkata	-10.5129
▁Mauritius	-10.5129
▁Plugin	-10.5129
▁Similarly	-10.5129
▁Welfare	-10.5129
▁accompani	-10.5129
▁compassionate	-10.5129
▁congratulate	-10.5129
▁crisis	-10.5129
▁democrat	-10.5129
▁determination	-10.5129
▁draft	-10.5129
▁efficient	-10.5129
▁emphasis	-10.5129
▁experiment	-10.5129
▁extensive	-10.5129
▁familiar	-10.5129
▁immense	-10.5129
▁infinite	-10.5129
▁inspired	-10.5129
▁intercourse	-10.5129
▁jurisdiction	-10.5129
▁livelihood	-10.5129
▁mislead	-10.5129
▁necessit	-10.5129
▁negative	-10.5129
▁neighbour	-10.5129
▁operating	-10.5129
▁opposite	-10.5129
▁poverty	-10.5129
▁preparation	-10.5129
▁receipt	-10.5129
▁recruit	-10.5129
▁safeguard	-10.5129
▁submissive	-10.5129
▁sustenance	-10.5129
▁symptom	-10.5129
▁temperature	-10.5129
▁triumph	-10.5129
▁wrongdoers	-10.5129
▁Abdul	-10.5129
▁French	-10.5129
▁Narendra	-10.5129
▁Previous	-10.5129
▁Yoga	-10.5129
▁defect	-10.5129
▁inhabitants	-10.5129
▁leaf	-10.5129
▁plague	-10.5129
▁prevail	-10.5129
▁signature	-10.5129
▁stuff	-10.5129
▁Video	-10.5129
▁chemical	-10.5129
▁Kerala	-10.5129
▁Process	-10.5129
▁chamber	-10.5129
▁decline	-10.5129
▁hardware	-10.5129
▁Major	-10.5129
▁deceive	-10.5129
▁enemy	-10.5129
▁perceive	-10.5129
▁Odisha	-10.5129
▁otherwise	-10.5129
▁Arjun	-10.5129
▁flesh	-10.5129
▁abode	-10.5129
▁Large	-10.5129
▁Kumar	-10.5129
▁accused	-10.5129
▁archive	-10.5129
▁Facilit	-10.5129
▁Flag	-10.5129
▁conquer	-10.5129
▁Three	-10.5129
▁echo	-10.5129
▁rapid	-10.5129
▁jute	-10.5129
▁jinn	-10.5129
▁deaf	-10.5129
▁herself	-10.5129
▁geographical	-10.5129
▁sharp	-10.5129
▁drum	-10.5129
▁confus	-10.5129
▁ornament	-10.5129
▁Besides	-10.5129
▁teeth	-10.5129
▁critical	-10.513
▁descendants	-10.513
▁twain	-10.513
▁falsehood	-10.513
▁Nico	-10.513
▁palace	-10.513
▁excit	-10.513
▁Close	-10.513
▁commission	-10.513
▁daily	-10.513
▁Trade	-10.513
▁Cultur	-10.5131
▁argue	-10.5131
▁Maharashtra	-10.5131
▁ceremon	-10.5131
▁prompt	-10.5131
▁temporary	-10.5131
▁1990	-10.5131
▁predict	-10.5131
▁icon	-10.5131
▁respondent	-10.5131
▁bomb	-10.5132
▁mono	-10.5132
▁Teach	-10.5132
▁delight	-10.5132
▁creativ	-10.5132
▁1999	-10.5132
▁Brahmin	-10.5132
▁Sometime	-10.5132
ROM	-10.5132
▁childhood	-10.5132
▁curse	-10.5132
9-2	-10.5132
▁1992	-10.5132
▁2016	-10.5133
▁Mount	-10.5133
▁continuous	-10.5133
▁submission	-10.5133
▁Himalaya	-10.5133
▁anywhere	-10.5133
escence	-10.5133
▁dwellings	-10.5134
▁exploitation	-10.5134
▁Lanka	-10.5135
▁missing	-10.5135
▁naught	-10.5135
▁unknown	-10.5135
▁guru	-10.5135
▁guardian	-10.5136
▁scor	-10.5136
▁outstanding	-10.5136
▁Find	-10.5136
▁Standard	-10.5136
▁195	-10.5136
▁bride	-10.5137
▁2011	-10.5138
▁Code	-10.5138
▁mock	-10.5138
▁executive	-10.5138
▁floor	-10.5138
▁amend	-10.5138
▁panel	-10.5138
▁keen	-10.5139
▁acknowledge	-10.514
▁route	-10.5141
▁hum	-10.5141
▁bull	-10.5141
▁cold	-10.5142
▁hang	-10.5142
▁Poet	-10.5142
▁lack	-10.5143
ounce	-10.5143
▁shout	-10.5144
tomic	-10.5144
▁pound	-10.5144
▁Automatically	-10.5144
▁Federa	-10.5144
▁Prof	-10.5144
▁suddenly	-10.5146
▁Sort	-10.5146
▁subscribe	-10.5146
▁Disable	-10.5148
▁refugees	-10.5149
▁strive	-10.5149
▁emotional	-10.5151
▁coco	-10.5152
▁February	-10.5152
▁Akbar	-10.5152
endra	-10.5153
▁judgement	-10.5155
▁Press	-10.5155
▁frequently	-10.5156
▁Market	-10.5158
▁Germany	-10.5159
▁belied	-10.5165
rose	-10.5165
hel	-10.5165
▁chain	-10.5165
▁Although	-10.5165
▁Hand	-10.5168
▁soft	-10.5169
▁cool	-10.517
charya	-10.517
▁professional	-10.517
▁wheat	-10.517
▁metre	-10.5173
▁cure	-10.5175
▁finally	-10.5175
▁await	-10.5176
▁accessible	-10.5177
▁34	-10.5177
▁tall	-10.5179
▁Song	-10.5179
ena	-10.5181
▁Vig	-10.5182
▁ice	-10.5182
ompliance	-10.5184
▁forbid	-10.5185
▁disk	-10.5187
▁parameters	-10.5192
▁controlled	-10.5195
▁sick	-10.5195
Trans	-10.5195
yog	-10.5196
take	-10.5197
▁TV	-10.52
▁Abou	-10.5202
▁plate	-10.5203
▁Forum	-10.5205
atya	-10.5206
void	-10.521
▁planning	-10.5213
▁repeated	-10.5213
▁employed	-10.5214
▁overcom	-10.5215
▁prisoner	-10.5222
▁compared	-10.5223
▁cave	-10.5224
▁inaugurated	-10.5224
▁graduate	-10.5227
▁monthly	-10.5231
▁director	-10.5233
▁oaths	-10.5233
▁pop	-10.5234
▁Call	-10.5235
▁presentation	-10.5238
glo	-10.5242
even	-10.5247
▁delivered	-10.5248
▁charged	-10.5251
avan	-10.5252
▁rejected	-10.5259
mini	-10.526
▁lend	-10.5262
▁bid	-10.5265
▁Was	-10.5272
▁Force	-10.5275
▁enabled	-10.5276
▁graph	-10.5277
pen	-10.5283
ersonnel	-10.5287
you	-10.5297
▁herein	-10.5299
▁exempt	-10.5302
raser	-10.531
▁ties	-10.5322
lore	-10.5329
▁Jan	-10.5329
▁watching	-10.5331
▁acre	-10.5331
▁quarter	-10.5345
98	-10.5358
▁career	-10.5382
▁alike	-10.5385
▁drawing	-10.5387
▁Rules	-10.5388
▁Head	-10.5388
rew	-10.5395
lock	-10.5429
▁prevented	-10.543
▁wished	-10.5442
▁wages	-10.5442
▁closed	-10.5449
▁02	-10.5451
▁Selected	-10.5465
▁Lal	-10.5469
▁quit	-10.547
▁Mone	-10.548
▁streams	-10.5485
▁departments	-10.5485
▁principles	-10.5485
▁boards	-10.5485
▁retain	-10.5487
▁horr	-10.5489
ater	-10.549
▁Air	-10.5492
▁nose	-10.5499
worthy	-10.5505
deva	-10.5512
▁plane	-10.5518
late	-10.5527
▁arguments	-10.5528
tom	-10.5545
room	-10.5558
▁800	-10.5558
reasonable	-10.5568
▁girls	-10.557
▁sisters	-10.557
▁namely	-10.5577
▁dog	-10.5591
Regulation	-10.5593
▁cultivat	-10.5623
▁radi	-10.5627
FC	-10.5632
▁holder	-10.5645
▁Cur	-10.565
▁simpl	-10.5662
HAR	-10.5697
▁differences	-10.5699
▁exports	-10.5703
vic	-10.571
▁improv	-10.5718
▁officials	-10.5738
▁pret	-10.5745
ike	-10.5747
hav	-10.5754
▁prof	-10.5762
ML	-10.5768
▁evidences	-10.5786
OL	-10.5788
▁charges	-10.579
▁dy	-10.5834
▁pal	-10.5844
▁SC	-10.5852
▁su	-10.5852
dhar	-10.5875
crease	-10.5876
▁spo	-10.5891
far	-10.5908
ulk	-10.5926
azi	-10.593
▁Sara	-10.5963
▁Hid	-10.598
▁Being	-10.5985
how	-10.6003
▁comput	-10.6024
▁diet	-10.603
announced	-10.6042
▁32	-10.6042
▁Sea	-10.6045
▁minute	-10.6062
▁Lat	-10.6095
vested	-10.6113
zing	-10.6133
▁Aware	-10.6144
bark	-10.6144
▁believ	-10.6185
▁55	-10.6202
▁involv	-10.6216
inning	-10.6242
▁rupee	-10.6258
▁Christian	-10.6259
▁achievement	-10.6277
▁Fort	-10.6283
▁realize	-10.6288
encies	-10.6291
▁Sign	-10.6299
▁qui	-10.6307
57	-10.631
▁citizen	-10.6331
▁realiz	-10.6363
ancy	-10.6364
▁remov	-10.6368
▁Dar	-10.6371
▁bas	-10.6374
▁Vo	-10.6378
▁Author	-10.6391
▁Back	-10.6415
▁ease	-10.6421
▁mal	-10.6423
▁execute	-10.6424
vailable	-10.6429
▁teach	-10.6441
▁borrow	-10.6443
▁elect	-10.6444
view	-10.6446
Z	-10.6449
Indeed	-10.645
▁prison	-10.6452
God	-10.6452
▁install	-10.6462
said	-10.6464
▁Rule	-10.6466
▁06	-10.647
▁preach	-10.6477
list	-10.6488
▁determine	-10.6501
▁constitute	-10.6506
▁compli	-10.6506
66	-10.6508
▁deci	-10.6513
▁Geo	-10.6519
▁German	-10.6523
▁innovat	-10.6525
▁tag	-10.6531
▁legislat	-10.6534
▁42	-10.6534
krishna	-10.6537
▁broke	-10.6538
▁situat	-10.6538
▁undertake	-10.6547
▁practi	-10.6548
▁intens	-10.655
venue	-10.6551
▁pursu	-10.6551
ko	-10.6552
▁Second	-10.6554
Yes	-10.6554
▁assess	-10.6555
▁Legislat	-10.6556
▁occur	-10.6557
rong	-10.6557
▁journal	-10.6557
imately	-10.6558
▁Afghan	-10.6558
▁Assembly	-10.6558
▁Audio	-10.6558
▁Bangladesh	-10.6558
▁Buddha	-10.6558
▁Chhattisgarh	-10.6558
▁Companies	-10.6558
▁Egypt	-10.6558
▁Election	-10.6558
▁IMAP	-10.6558
▁Ibrahim	-10.6558
▁Implementation	-10.6558
▁Industry	-10.6558
▁Language	-10.6558
▁MSME	-10.6558
▁Perhaps	-10.6558
▁Record	-10.6558
▁Sikkim	-10.6558
▁Vivekananda	-10.6558
▁YouTube	-10.6558
▁accompany	-10.6558
▁accomplish	-10.6558
▁administer	-10.6558
▁admonition	-10.6558
▁applicable	-10.6558
▁architecture	-10.6558
▁categories	-10.6558
▁category	-10.6558
▁clubs	-10.6558
▁coffee	-10.6558
▁concentration	-10.6558
▁conclusion	-10.6558
▁connectivity	-10.6558
▁convention	-10.6558
▁corporation	-10.6558
▁cricket	-10.6558
▁depict	-10.6558
▁diplomacy	-10.6558
▁disobey	-10.6558
▁dissolution	-10.6558
▁envisage	-10.6558
▁equivalent	-10.6558
▁felicitat	-10.6558
▁implication	-10.6558
▁incorporat	-10.6558
▁indigenous	-10.6558
▁injustice	-10.6558
▁integral	-10.6558
▁integration	-10.6558
▁miracle	-10.6558
▁negotiat	-10.6558
▁obedient	-10.6558
▁plaintiff	-10.6558
▁recompense	-10.6558
▁segment	-10.6558
▁significance	-10.6558
▁studied	-10.6558
▁subsidy	-10.6558
▁thread	-10.6558
▁tribunal	-10.6558
▁universal	-10.6558
▁vegetable	-10.6558
▁vehicle	-10.6558
▁volunteer	-10.6558
▁whisper	-10.6558
▁wisdom	-10.6558
nniversar	-10.6558
▁Freedom	-10.6558
▁Paradise	-10.6558
▁Return	-10.6558
▁completion	-10.6558
▁convince	-10.6558
▁discount	-10.6558
▁discourse	-10.6558
▁fraction	-10.6558
▁inflict	-10.6558
▁mandapa	-10.6558
▁prophet	-10.6558
▁rainfall	-10.6558
▁snake	-10.6558
▁steadfast	-10.6558
▁supplement	-10.6558
▁surrender	-10.6558
Calendar	-10.6558
▁Follow	-10.6558
▁Maxim	-10.6558
▁Object	-10.6558
▁Owner	-10.6558
▁accurate	-10.6558
▁assurance	-10.6558
▁dismiss	-10.6558
▁efficiency	-10.6558
▁monkey	-10.6558
▁valuable	-10.6558
croll	-10.6558
▁frighten	-10.6558
▁Gupta	-10.6558
▁PDF	-10.6558
▁postpone	-10.6558
▁solemn	-10.6558
▁Attach	-10.6558
▁Museum	-10.6558
▁Photo	-10.6558
▁attention	-10.6558
▁click	-10.6558
▁dairy	-10.6558
▁injured	-10.6558
▁tomorrow	-10.6558
▁harmony	-10.6558
▁Club	-10.6558
▁debate	-10.6558
▁detect	-10.6558
▁dread	-10.6558
▁quote	-10.6558
▁Resource	-10.6558
▁bliss	-10.6558
▁expert	-10.6558
▁voluntar	-10.6558
▁Jesus	-10.6558
▁prominen	-10.6558
▁sweet	-10.6558
▁Manager	-10.6558
▁resort	-10.6558
▁Cause	-10.6558
▁supra	-10.6558
▁Human	-10.6558
▁confine	-10.6558
▁Sardar	-10.6558
▁disaster	-10.6558
▁label	-10.6558
▁Govt	-10.6558
▁warrant	-10.6558
▁Session	-10.6558
nsurance	-10.6558
▁carved	-10.6558
▁silent	-10.6558
▁cache	-10.6558
▁metro	-10.6558
▁crowd	-10.6558
▁hypocrites	-10.6558
▁recognition	-10.6558
▁myself	-10.6558
▁Fair	-10.6558
▁Persian	-10.6558
▁thick	-10.6558
Jacob	-10.6558
▁Assess	-10.6558
▁Center	-10.6558
▁margin	-10.6558
▁Statu	-10.6558
▁housing	-10.6558
▁irrigation	-10.6558
▁oriented	-10.6558
▁mixture	-10.6558
nvalid	-10.6558
▁regime	-10.6558
▁mistake	-10.6558
▁disclosure	-10.6558
▁joy	-10.6558
▁guests	-10.6558
▁lease	-10.6559
▁retire	-10.6559
▁maintenance	-10.6559
▁ordain	-10.6559
▁adhere	-10.6559
▁Music	-10.6559
▁admission	-10.6559
▁equity	-10.6559
▁pride	-10.6559
▁profile	-10.6559
ENCE	-10.6559
▁identity	-10.6559
▁wives	-10.6559
▁realisation	-10.6559
▁tears	-10.6559
▁legislature	-10.6559
▁context	-10.6559
▁Sim	-10.6559
▁adverse	-10.6559
▁losers	-10.656
▁fled	-10.656
▁investors	-10.656
▁mining	-10.656
▁diversity	-10.656
▁Again	-10.656
▁airport	-10.656
▁Convocation	-10.656
SION	-10.656
▁package	-10.656
▁insurance	-10.656
▁2001	-10.656
▁tribe	-10.656
▁intelligence	-10.656
▁guidelines	-10.656
▁Adam	-10.656
▁scripture	-10.6561
▁maturity	-10.6561
izard	-10.6561
▁flee	-10.6561
▁diverse	-10.6561
▁2019	-10.6562
▁indication	-10.6562
▁eliminat	-10.6562
▁settle	-10.6562
▁horn	-10.6562
▁rulers	-10.6562
▁2020	-10.6562
▁bookmark	-10.6562
▁reproduc	-10.6562
▁revolutionary	-10.6562
▁1948	-10.6562
limate	-10.6563
▁insert	-10.6563
▁rail	-10.6563
▁Track	-10.6563
▁Indra	-10.6563
▁infant	-10.6563
▁exalt	-10.6565
▁biggest	-10.6565
▁Foundation	-10.6566
▁constraint	-10.6566
▁Marath	-10.6566
▁laboratory	-10.6566
▁theatre	-10.6566
▁bridge	-10.6566
▁initial	-10.6566
▁charity	-10.6566
▁Local	-10.6567
▁amendment	-10.6567
▁Writ	-10.6567
▁allowance	-10.6567
▁authentication	-10.6568
▁Procedure	-10.6568
▁Universities	-10.6568
enalty	-10.6568
▁bath	-10.6568
▁consistent	-10.6568
▁Ganges	-10.6569
▁discipline	-10.6569
▁secretary	-10.6569
cise	-10.6569
▁strange	-10.657
▁Road	-10.657
▁corruption	-10.657
refuse	-10.657
▁dependent	-10.657
▁pond	-10.6571
▁Stand	-10.6572
▁EX	-10.6572
END	-10.6573
▁Protection	-10.6573
▁hair	-10.6573
▁Year	-10.6573
▁coast	-10.6573
▁compil	-10.6573
▁Online	-10.6574
▁capable	-10.6574
▁Lock	-10.6574
▁attachment	-10.6575
▁cub	-10.6576
▁rejection	-10.6576
▁passage	-10.6576
▁engagement	-10.6577
▁agent	-10.6577
▁bila	-10.6578
▁47	-10.6578
▁err	-10.6578
▁undertaken	-10.6579
▁acceptance	-10.6579
▁grass	-10.6581
▁vol	-10.6583
▁emergency	-10.6583
▁Color	-10.6584
▁dri	-10.6585
▁100%	-10.6585
▁assume	-10.6587
▁passive	-10.6589
▁115	-10.6591
▁rage	-10.6592
▁mango	-10.6592
▁physic	-10.6592
espite	-10.6592
▁52	-10.6593
EST	-10.6593
▁Noah	-10.6594
▁removal	-10.6595
▁Organi	-10.6595
▁bush	-10.6596
▁Sikh	-10.6596
870	-10.6597
▁invitation	-10.6598
▁sincere	-10.6599
▁Cash	-10.66
▁representation	-10.6601
ksh	-10.6602
▁Joseph	-10.6602
▁2018	-10.6603
IF	-10.6603
▁selection	-10.6603
▁intense	-10.6604
▁wild	-10.6604
▁constructed	-10.6606
▁alive	-10.6606
▁Mini	-10.6607
▁Mode	-10.661
▁threaten	-10.661
fringe	-10.6614
▁glorif	-10.6614
▁grown	-10.6615
▁determined	-10.6615
▁Limited	-10.6617
▁achiev	-10.6617
▁tip	-10.6621
▁witnesses	-10.6627
▁sect	-10.6631
▁Loan	-10.6635
▁wre	-10.6638
▁effectively	-10.6639
▁consumer	-10.6644
posed	-10.6647
▁Kali	-10.6648
▁fourth	-10.6654
dasa	-10.6655
▁consolidat	-10.6656
▁writ	-10.6658
▁Spo	-10.6658
▁Get	-10.6659
▁tw	-10.6659
▁stored	-10.666
▁Iraqi	-10.6679
▁Nagar	-10.6683
▁Asian	-10.6684
▁assembl	-10.6685
▁monitor	-10.6688
▁killing	-10.6688
quet	-10.669
▁200	-10.6691
ssemblies	-10.6695
▁plann	-10.6701
tension	-10.6704
▁flo	-10.6706
▁rod	-10.6708
▁coloured	-10.6709
▁environmental	-10.6712
▁harden	-10.6713
▁HT	-10.6716
▁edited	-10.6716
▁imported	-10.6722
▁household	-10.6723
▁Poly	-10.6726
▁suggested	-10.6732
▁Tag	-10.6733
▁measured	-10.6733
▁afore	-10.6733
▁suffered	-10.6737
natha	-10.6741
▁meat	-10.6747
▁older	-10.6767
oreign	-10.6767
rity	-10.6769
▁hot	-10.677
▁involve	-10.6773
Operation	-10.6774
▁decades	-10.6776
▁farming	-10.6776
▁Off	-10.6778
▁displayed	-10.6788
ties	-10.6794
▁Place	-10.681
▁worker	-10.682
▁aught	-10.682
▁imagine	-10.6824
▁disbelieved	-10.6827
75	-10.6832
▁requested	-10.6842
▁equa	-10.6846
▁containing	-10.6855
▁Ut	-10.6858
active	-10.6859
▁197	-10.6906
22	-10.6915
ainted	-10.6916
▁witnessed	-10.6936
▁Jam	-10.6943
ket	-10.6944
▁functioning	-10.6946
▁Cap	-10.6962
▁participat	-10.6969
▁mad	-10.6995
▁recorded	-10.7015
▁bin	-10.702
BI	-10.7023
lib	-10.7024
anic	-10.7026
▁poetic	-10.7056
▁invest	-10.706
▁Table	-10.7081
▁clot	-10.7087
▁CON	-10.7096
▁announce	-10.7102
▁Nag	-10.7109
▁Note	-10.7142
YS	-10.7172
CD	-10.7187
umba	-10.719
then	-10.7201
▁resid	-10.7202
▁center	-10.7224
rdo	-10.723
worm	-10.7241
Be	-10.7254
ED	-10.7258
udra	-10.7274
amma	-10.732
▁psych	-10.7322
▁Hari	-10.7335
position	-10.7344
atory	-10.7344
mach	-10.7346
unch	-10.7348
EVE	-10.7363
vana	-10.7396
23	-10.7429
▁fil	-10.7447
▁Specif	-10.7459
▁hy	-10.7463
hold	-10.7472
▁characteriz	-10.7478
ygen	-10.7537
ATI	-10.7549
▁Grac	-10.7555
ferred	-10.7569
hari	-10.7584
pathy	-10.7597
▁supporter	-10.76
ambar	-10.7618
bul	-10.763
”“	-10.7655
▁tent	-10.766
liable	-10.7661
▁formula	-10.7676
NU	-10.7684
taining	-10.7704
▁controll	-10.7789
▁parliamentar	-10.7802
▁lit	-10.7802
▁Aj	-10.7835
▁Saha	-10.7846
▁187	-10.7858
▁45	-10.7887
▁51	-10.7911
▁chang	-10.7931
▁communication	-10.7933
▁angel	-10.7938
coming	-10.7953
ould	-10.7955
▁introduc	-10.797
▁boundar	-10.7987
▁invalid	-10.7996
▁replac	-10.8001
▁Asu	-10.8005
undi	-10.8012
isco	-10.8021
dou	-10.8037
▁Award	-10.8047
gun	-10.8068
▁Sand	-10.8078
▁publication	-10.8084
Abraham	-10.8113
numer	-10.8114
science	-10.8115
organis	-10.8115
{	-10.8116
friend	-10.8116
front	-10.8116
system	-10.8117
people	-10.8118
print	-10.8118
large	-10.8118
kind	-10.8121
March	-10.8125
known	-10.8126
▁adopt	-10.8133
▁classic	-10.8139
▁authentic	-10.814
light	-10.8142
How	-10.8144
link	-10.8144
▁mort	-10.8146
▁petition	-10.8158
▁Radha	-10.8162
Your	-10.8168
▁visual	-10.8174
who	-10.8178
▁Hamas	-10.818
▁frequent	-10.8188
▁quick	-10.819
▁elder	-10.8191
ufficient	-10.82
serving	-10.8208
▁branch	-10.8208
▁deduct	-10.8209
▁hind	-10.8209
▁Tom	-10.8215
▁fat	-10.8216
nquiry	-10.8217
▁primar	-10.8218
▁arrange	-10.8218
erritories	-10.822
unction	-10.822
▁eviden	-10.822
▁Hav	-10.8221
cision	-10.8221
gress	-10.8222
ndustrial	-10.8222
For	-10.8222
▁Script	-10.8223
cific	-10.8223
ponent	-10.8224
▁Wind	-10.8224
mpty	-10.8224
▁Commerce	-10.8224
ASEAN	-10.8224
▁abnormal	-10.8224
.06.201	-10.8224
Hyderabad	-10.8224
migrant	-10.8224
pplause	-10.8224
▁Abdullah	-10.8224
▁Academ	-10.8224
▁Advocate	-10.8224
▁Ahmedabad	-10.8224
▁Akademi	-10.8224
▁Benefit	-10.8224
▁Chalukya	-10.8224
▁Chandigarh	-10.8224
▁Contract	-10.8224
▁Democracy	-10.8224
▁Digital	-10.8224
▁Download	-10.8224
▁Gazette	-10.8224
▁Hussein	-10.8224
▁Integrat	-10.8224
▁Jerusalem	-10.8224
▁Journal	-10.8224
▁Malayalam	-10.8224
▁Maldives	-10.8224
▁Organization	-10.8224
▁Orissa	-10.8224
▁Physical	-10.8224
▁Popular	-10.8224
▁Practice	-10.8224
▁Protocol	-10.8224
▁Provision	-10.8224
▁Secretary	-10.8224
▁Signature	-10.8224
▁Sucharita	-10.8224
▁Summit	-10.8224
▁Terrorism	-10.8224
▁Uttarakhand	-10.8224
▁VISIT	-10.8224
▁Vaishnava	-10.8224
▁Valley	-10.8224
▁abandon	-10.8224
▁acquaint	-10.8224
▁aggressive	-10.8224
▁alcohol	-10.8224
▁aspirations	-10.8224
▁bamboo	-10.8224
▁circuit	-10.8224
▁concentrate	-10.8224
▁confident	-10.8224
▁deceased	-10.8224
▁despair	-10.8224
▁divorce	-10.8224
▁enormous	-10.8224
▁evolv	-10.8224
▁fabricate	-10.8224
▁faculty	-10.8224
▁frustrate	-10.8224
▁glacier	-10.8224
▁glitter	-10.8224
▁identification	-10.8224
▁ignorant	-10.8224
▁integrate	-10.8224
▁interface	-10.8224
▁intestine	-10.8224
▁lecture	-10.8224
▁mechanical	-10.8224
▁meditation	-10.8224
▁muscle	-10.8224
▁obligation	-10.8224
▁pandemic	-10.8224
▁possibility	-10.8224
▁reconciliation	-10.8224
▁remembrance	-10.8224
▁resistance	-10.8224
▁resurrect	-10.8224
▁retribution	-10.8224
▁sequence	-10.8224
▁shadow	-10.8224
▁soldiers	-10.8224
▁statistic	-10.8224
▁substitute	-10.8224
▁throne	-10.8224
▁tobacco	-10.8224
▁trunk	-10.8224
▁unlawful	-10.8224
▁upgrad	-10.8224
▁wicket	-10.8224
▁Archive	-10.8224
▁Consider	-10.8224
▁Friend	-10.8224
▁Heritage	-10.8224
▁Jaipur	-10.8224
▁Madras	-10.8224
▁Number	-10.8224
▁Require	-10.8224
▁Transport	-10.8224
▁Tribunal	-10.8224
▁Universe	-10.8224
▁awaken	-10.8224
▁communal	-10.8224
▁contemplat	-10.8224
▁contrary	-10.8224
▁evildoers	-10.8224
▁incentives	-10.8224
▁license	-10.8224
▁museum	-10.8224
▁quarrel	-10.8224
▁vessel	-10.8224
▁Metro	-10.8224
▁budget	-10.8224
▁excuse	-10.8224
▁fetch	-10.8224
▁fibre	-10.8224
▁gossip	-10.8224
▁grateful	-10.8224
▁jungle	-10.8224
▁transmission	-10.8224
▁Capital	-10.8224
▁Haryana	-10.8224
▁Manipur	-10.8224
▁Rajput	-10.8224
▁Sahib	-10.8224
▁Screen	-10.8224
▁White	-10.8224
▁captain	-10.8224
▁composer	-10.8224
▁holistic	-10.8224
▁prince	-10.8224
▁ultimate	-10.8224
▁utilis	-10.8224
Prevention	-10.8224
▁expell	-10.8224
▁licence	-10.8224
▁mandatory	-10.8224
▁penetrat	-10.8224
▁substance	-10.8224
▁valley	-10.8224
▁Azad	-10.8224
▁remote	-10.8224
▁NIO	-10.8224
▁shelter	-10.8224
▁shoot	-10.8224
▁wax	-10.8224
▁Tourism	-10.8224
▁cotton	-10.8224
▁wander	-10.8224
▁flood	-10.8224
▁street	-10.8224
▁vaccin	-10.8224
▁wrongdoing	-10.8224
▁accommodat	-10.8224
▁absence	-10.8224
▁Further	-10.8224
▁Position	-10.8224
▁delta	-10.8224
▁Army	-10.8224
▁diagnos	-10.8224
▁threw	-10.8225
▁Kavya	-10.8225
▁adapt	-10.8225
▁Command	-10.8225
▁fortune	-10.8225
▁pull	-10.8225
▁baby	-10.8225
▁France	-10.8225
▁ethos	-10.8225
▁loving	-10.8225
rumpet	-10.8225
▁contend	-10.8225
▁gross	-10.8225
▁Minute	-10.8225
▁Vijay	-10.8225
▁leather	-10.8225
▁wedding	-10.8225
▁Pandit	-10.8225
▁clothes	-10.8225
▁organic	-10.8225
▁Link	-10.8225
▁vimana	-10.8225
▁philosophical	-10.8225
▁Turkey	-10.8225
▁epic	-10.8225
▁pronounc	-10.8225
▁smoke	-10.8225
OVER	-10.8225
▁extract	-10.8225
▁Child	-10.8225
▁Building	-10.8225
▁Nadu	-10.8225
▁persists	-10.8225
▁Present	-10.8225
▁suppose	-10.8225
▁Wild	-10.8225
▁disabled	-10.8225
▁Small	-10.8225
▁browser	-10.8225
▁reconstruction	-10.8225
▁melod	-10.8225
▁ICT	-10.8225
▁Issue	-10.8225
▁smile	-10.8225
▁prosecut	-10.8225
▁sperm	-10.8225
▁loyal	-10.8225
lipboard	-10.8225
▁lyric	-10.8225
▁Airport	-10.8225
▁Woe	-10.8225
▁thankful	-10.8225
▁framework	-10.8225
▁sheep	-10.8225
▁immun	-10.8226
▁Zoom	-10.8226
▁Free	-10.8226
▁complicate	-10.8226
▁Preference	-10.8226
▁desist	-10.8226
▁withdraw	-10.8226
▁semen	-10.8226
▁practical	-10.8226
▁relief	-10.8226
▁culminat	-10.8226
▁Copyright	-10.8226
▁sharing	-10.8226
▁rice	-10.8226
▁compensation	-10.8226
▁availability	-10.8226
▁precise	-10.8226
▁disorder	-10.8226
▁urea	-10.8226
▁Judge	-10.8227
▁genu	-10.8227
▁(5)	-10.8227
▁interval	-10.8227
▁packet	-10.8227
▁slew	-10.8227
▁goddess	-10.8227
▁practised	-10.8227
▁breed	-10.8227
▁preference	-10.8227
▁Ayat	-10.8228
▁dedicate	-10.8228
▁distinguished	-10.8228
▁brick	-10.8228
▁melt	-10.8228
▁easier	-10.8228
▁highlight	-10.8228
▁plen	-10.8228
▁endeavour	-10.8228
▁marble	-10.8228
▁creed	-10.8228
▁stress	-10.8228
▁southern	-10.8228
▁plunge	-10.8228
nstead	-10.8228
▁Musa	-10.8228
▁Secondary	-10.8229
▁jail	-10.8229
▁Subhash	-10.8229
▁civilization	-10.8229
▁depart	-10.8229
▁accrue	-10.8229
▁quantity	-10.8229
▁Single	-10.8229
▁hostile	-10.823
▁ascend	-10.823
▁lord	-10.823
▁prospect	-10.823
▁Satan	-10.823
▁Old	-10.823
▁regulations	-10.823
▁awarded	-10.823
▁dramatic	-10.823
▁crash	-10.823
▁technologies	-10.823
▁displace	-10.8231
▁1998	-10.8231
▁Hindustan	-10.8231
▁robbe	-10.8231
dispens	-10.8231
▁Grant	-10.8231
▁lovers	-10.8231
▁repentance	-10.8231
▁machinery	-10.8231
▁varieties	-10.8231
KS	-10.8231
▁lust	-10.8231
▁sovereign	-10.8231
▁arbitrat	-10.8231
▁appearance	-10.8231
xcept	-10.8232
▁textile	-10.8233
▁ancest	-10.8233
▁lips	-10.8233
▁Gad	-10.8233
▁somehow	-10.8234
▁beasts	-10.8234
▁seventy	-10.8234
▁pursuit	-10.8235
▁electricity	-10.8235
▁factories	-10.8235
▁TIME	-10.8236
▁Philippines	-10.8236
▁delay	-10.8236
▁securities	-10.8237
▁brave	-10.8237
rtz	-10.8237
▁weep	-10.8237
▁Jack	-10.8238
▁financing	-10.8238
▁Bhai	-10.8238
▁dump	-10.8239
▁09	-10.824
▁Trash	-10.824
plicate	-10.824
▁branches	-10.824
▁86	-10.824
▁hindi	-10.8242
▁purity	-10.8243
▁James	-10.8243
▁Premch	-10.8244
▁pace	-10.8244
▁trail	-10.8244
▁bright	-10.8244
▁transformation	-10.8247
▁Seven	-10.8247
ayer	-10.8247
▁bug	-10.8248
▁Hill	-10.8249
▁Night	-10.8249
▁shame	-10.825
▁Alif	-10.825
▁Stop	-10.825
▁legislation	-10.8251
mperial	-10.8251
royal	-10.8254
▁progressive	-10.8254
▁Certainly	-10.8255
▁magician	-10.8255
▁therefrom	-10.8256
▁Faith	-10.8257
▁lotus	-10.8258
▁camp	-10.8259
▁fallen	-10.8259
▁auto	-10.8259
▁attraction	-10.826
▁Camb	-10.826
▁spoken	-10.8261
▁preferred	-10.8261
▁elderly	-10.8261
▁organized	-10.8261
▁expectation	-10.8262
▁mul	-10.8265
▁mid	-10.8265
▁bag	-10.8266
▁incomplete	-10.8267
▁54	-10.8268
etention	-10.8269
▁Additional	-10.8272
▁Four	-10.8272
▁bigge	-10.8272
▁clearance	-10.8273
▁undertaking	-10.8274
▁Format	-10.8274
▁Moti	-10.8275
-19	-10.8276
▁ideolog	-10.8277
▁Trib	-10.8277
ago	-10.8278
▁anyway	-10.8278
▁UT	-10.8279
?1	-10.8279
▁compass	-10.828
▁weeding	-10.8283
▁helpful	-10.8285
▁Sha	-10.8287
▁eve	-10.8288
▁sport	-10.8292
▁mixed	-10.8295
▁prose	-10.8297
▁protector	-10.8297
▁Gora	-10.8297
▁SCO	-10.8297
▁drowned	-10.8299
▁polytheists	-10.8299
cycl	-10.83
sourc	-10.8302
▁duly	-10.8303
▁recognized	-10.8303
FS	-10.8304
▁sew	-10.8305
▁producer	-10.831
▁survived	-10.8311
▁Delegate	-10.8312
▁impose	-10.8313
▁Cell	-10.8316
▁Tool	-10.8316
▁trader	-10.8319
▁installed	-10.8326
▁elected	-10.8327
▁camera	-10.8327
▁KB	-10.8327
▁rent	-10.8328
nkara	-10.8329
tone	-10.8332
▁carrier	-10.8332
▁endure	-10.8343
▁reminded	-10.8343
▁originate	-10.8343
▁preaching	-10.8343
▁Medic	-10.8343
▁Apply	-10.8345
▁indicate	-10.8347
▁generate	-10.8351
▁Jaya	-10.8365
▁subtl	-10.8366
▁transmit	-10.8369
▁Far	-10.8374
▁Hence	-10.8375
▁Willi	-10.8377
gage	-10.8378
▁impro	-10.8382
▁addresses	-10.8386
▁decorate	-10.8391
▁sinful	-10.8396
▁duration	-10.8396
▁repos	-10.8397
▁dynamic	-10.8412
▁Vir	-10.8417
tred	-10.8423
▁peaceful	-10.8427
▁formation	-10.8431
CHAN	-10.8433
▁strongly	-10.8437
unning	-10.8452
ksha	-10.8453
hould	-10.8453
▁healthy	-10.8455
▁Kama	-10.846
▁Area	-10.8469
-4	-10.8479
▁visitor	-10.8496
▁hydroge	-10.8529
60	-10.8537
▁Prasa	-10.8538
▁figur	-10.8546
▁Israeli	-10.8547
▁rous	-10.8551
LIT	-10.8556
96	-10.8567
▁Gen	-10.8574
evil	-10.8581
dhya	-10.8595
path	-10.8601
aggregate	-10.8621
ddin	-10.8625
ouch	-10.8645
LIN	-10.8658
▁wil	-10.8677
ifi	-10.8696
▁careful	-10.8697
▁impart	-10.87
▁Kath	-10.8733
IIM	-10.8735
▁tur	-10.8743
▁Chat	-10.8744
lung	-10.8746
▁dim	-10.876
limit	-10.876
▁Mada	-10.8767
97	-10.8775
mpu	-10.8786
aint	-10.8789
▁Top	-10.8802
rash	-10.8805
▁regulator	-10.881
oom	-10.8886
▁exhibitio	-10.8901
▁Prob	-10.8901
pada	-10.891
lusion	-10.893
hira	-10.8933
▁purif	-10.8938
▁lat	-10.8976
▁nationalist	-10.8991
▁pil	-10.8992
term	-10.9025
▁avert	-10.9078
▁Para	-10.9091
▁brin	-10.9118
arian	-10.9119
▁acquir	-10.9165
▁coordinat	-10.9185
stitution	-10.919
35	-10.9194
▁bon	-10.9276
proofs	-10.9285
llip	-10.9293
pol	-10.9305
current	-10.9312
▁react	-10.9397
rove	-10.9404
law	-10.9406
AK	-10.9429
▁UP	-10.9434
▁Meh	-10.9458
▁Marg	-10.9484
▁illustr	-10.9485
▁readi	-10.9495
rassment	-10.9508
cel	-10.9517
lasting	-10.9556
sisted	-10.9574
▁Love	-10.9588
▁accelerat	-10.9618
▁Net	-10.9621
HER	-10.9651
shot	-10.966
tained	-10.9662
omi	-10.9666
▁Puri	-10.9668
▁bor	-10.9677
▁Georg	-10.9711
29	-10.9736
▁Mahara	-10.9738
▁continu	-10.9817
▁hydro	-10.9855
CH	-10.987
▁generat	-10.99
▁decade	-10.9918
▁breast	-10.9923
▁feature	-10.9924
garh	-10.9924
▁Garden	-10.9926
▁revelation	-10.9928
▁72	-10.9931
▁trip	-10.9946
▁partner	-10.996
▁teacher	-10.996
DD	-10.9985
rishnan	-11.0001
▁prime	-11.0002
standing	-11.0003
▁decor	-11.0024
lob	-11.003
onitoring	-11.004
ckle	-11.0046
script	-11.0077
▁appro	-11.0087
91	-11.0093
know	-11.0097
agger	-11.0098
▁intention	-11.0101
Tax	-11.0113
operation	-11.0113
film	-11.0113
ordinar	-11.0114
November	-11.0114
class	-11.0115
continue	-11.0116
folk	-11.0116
Moses	-11.0116
clause	-11.0117
power	-11.0117
dicate	-11.0117
economic	-11.0117
while	-11.0117
▁Direct	-11.0123
water	-11.0128
▁swor	-11.0134
▁forbidd	-11.0136
book	-11.0137
▁drown	-11.0139
▁Limit	-11.014
▁publish	-11.0144
safe	-11.0145
▁mix	-11.0153
much	-11.0154
▁Gang	-11.0158
▁digit	-11.016
bear	-11.0161
▁syn	-11.0162
order	-11.0168
▁fix	-11.0168
▁recognise	-11.0169
▁plea	-11.0173
▁Certain	-11.0188
▁emotion	-11.0188
▁allocat	-11.0189
ude	-11.0189
▁survive	-11.0193
▁nigh	-11.0194
▁energ	-11.0195
favourable	-11.0198
utomatically	-11.0201
ficiency	-11.0202
verted	-11.0205
HT	-11.0209
free	-11.021
▁communicat	-11.0212
▁Document	-11.0212
▁govern	-11.0214
▁destin	-11.0214
▁Scienti	-11.0215
▁constitu	-11.0216
stablishment	-11.0217
IME	-11.0218
▁respond	-11.022
▁quant	-11.0222
mpire	-11.0223
▁Buil	-11.0224
journ	-11.0224
cogniz	-11.0224
▁admissib	-11.0224
.09.201	-11.0224
Believe	-11.0224
Provincial	-11.0224
agistrate	-11.0224
elebration	-11.0224
mmigration	-11.0224
ontroversy	-11.0224
percussion	-11.0224
ttorney	-11.0224
unicipal	-11.0224
▁Ambedkar	-11.0224
▁Auditor	-11.0224
▁Australia	-11.0224
▁Beneficent	-11.0224
▁Buddhism	-11.0224
▁Communication	-11.0224
▁Guardian	-11.0224
▁Mahasabha	-11.0224
▁Majesty	-11.0224
▁Mizoram	-11.0224
▁Punishment	-11.0224
▁Seychelles	-11.0224
▁Tehran	-11.0224
▁Udaipur	-11.0224
▁Unicode	-11.0224
▁Upgrad	-11.0224
▁Washington	-11.0224
▁admonish	-11.0224
▁advocate	-11.0224
▁afraid	-11.0224
▁arrogance	-11.0224
▁audience	-11.0224
▁autonom	-11.0224
▁beneficial	-11.0224
▁bicycle	-11.0224
▁buoy	-11.0224
▁calculate	-11.0224
▁calculation	-11.0224
▁candidate	-11.0224
▁combination	-11.0224
▁comprehend	-11.0224
▁concession	-11.0224
▁consumption	-11.0224
▁curriculum	-11.0224
▁delegate	-11.0224
▁demonstrate	-11.0224
▁dimension	-11.0224
▁disabilities	-11.0224
▁disappear	-11.0224
▁encouraging	-11.0224
▁enterprise	-11.0224
▁entrance	-11.0224
▁exhort	-11.0224
▁fifteen	-11.0224
▁finished	-11.0224
▁hereditary	-11.0224
▁horticulture	-11.0224
▁hygiene	-11.0224
▁incumbent	-11.0224
▁judicial	-11.0224
▁judiciary	-11.0224
▁liberty	-11.0224
▁magnificen	-11.0224
▁necessarily	-11.0224
▁negligen	-11.0224
▁nematode	-11.0224
▁newspapers	-11.0224
▁passenger	-11.0224
▁perception	-11.0224
▁pigeon	-11.0224
▁pollutant	-11.0224
▁propaganda	-11.0224
▁qualities	-11.0224
▁refund	-11.0224
▁retrieve	-11.0224
▁revision	-11.0224
▁rhythm	-11.0224
▁ridicule	-11.0224
▁scatter	-11.0224
▁serpent	-11.0224
▁specimen	-11.0224
▁spontaneous	-11.0224
▁stakeholders	-11.0224
▁suffice	-11.0224
▁surprise	-11.0224
▁testimony	-11.0224
▁thrill	-11.0224
▁trekking	-11.0224
▁tuberculosis	-11.0224
▁tunnel	-11.0224
▁universities	-11.0224
▁utilization	-11.0224
▁vertically	-11.0224
andharva	-11.0224
continent	-11.0224
obligatory	-11.0224
▁Bhakti	-11.0224
▁Deposit	-11.0224
▁Ganesh	-11.0224
▁Parameter	-11.0224
▁Urdu	-11.0224
▁afford	-11.0224
▁cursor	-11.0224
▁deliberate	-11.0224
▁disciple	-11.0224
▁distract	-11.0224
▁enthusias	-11.0224
▁evaluat	-11.0224
▁exclusive	-11.0224
▁filename	-11.0224
▁fragment	-11.0224
▁hunger	-11.0224
▁inclined	-11.0224
▁jealous	-11.0224
▁neglect	-11.0224
▁nurture	-11.0224
▁operator	-11.0224
▁productivity	-11.0224
▁relieve	-11.0224
▁sensation	-11.0224
▁sentiments	-11.0224
▁sprinkl	-11.0224
▁stimul	-11.0224
▁superficial	-11.0224
▁swallow	-11.0224
▁veteran	-11.0224
▁Agency	-11.0224
▁Collect	-11.0224
▁Nagaland	-11.0224
▁Pension	-11.0224
▁Reload	-11.0224
▁combined	-11.0224
▁compulsor	-11.0224
▁leverage	-11.0224
▁overthrow	-11.0224
▁refresh	-11.0224
▁routine	-11.0224
▁timber	-11.0224
▁widow	-11.0224
ATES	-11.0224
▁Flood	-11.0224
▁Greek	-11.0224
▁Labour	-11.0224
▁idolaters	-11.0224
▁impulse	-11.0224
▁random	-11.0224
▁suppress	-11.0224
▁Brief	-11.0224
▁PRAN	-11.0224
▁ecological	-11.0224
▁enforcement	-11.0224
▁generous	-11.0224
▁reiterate	-11.0224
▁virtual	-11.0224
▁Obama	-11.0224
▁Ramayana	-11.0224
▁Repair	-11.0224
▁dialect	-11.0224
▁grief	-11.0224
▁outcome	-11.0224
▁universe	-11.0224
▁Indira	-11.0224
▁anxious	-11.0224
▁couple	-11.0224
▁fourteen	-11.0224
▁inevitabl	-11.0224
▁refute	-11.0224
Mahabharat	-11.0224
▁client	-11.0224
▁crack	-11.0224
▁dirty	-11.0224
▁globe	-11.0224
▁narrate	-11.0224
curred	-11.0224
▁Appoint	-11.0224
▁Internet	-11.0224
▁Quality	-11.0224
▁Witness	-11.0224
▁drought	-11.0224
▁utility	-11.0224
▁Sultan	-11.0224
▁dialogue	-11.0224
▁Danish	-11.0224
▁Sector	-11.0224
▁patent	-11.0224
magneti	-11.0224
▁renew	-11.0224
▁sphere	-11.0224
▁Version	-11.0224
▁alarm	-11.0224
▁ecsta	-11.0224
▁wipe	-11.0224
{2}	-11.0224
▁agency	-11.0224
▁companion	-11.0224
▁breath	-11.0224
▁disposal	-11.0224
▁Purana	-11.0225
▁mineral	-11.0225
▁mouth	-11.0225
▁Mosque	-11.0225
▁inherent	-11.0225
▁restart	-11.0225
▁affinit	-11.0225
gratitude	-11.0225
▁blast	-11.0225
▁Satish	-11.0225
▁novice	-11.0225
▁respectively	-11.0225
▁voting	-11.0225
▁Course	-11.0225
▁dowry	-11.0225
▁Verma	-11.0225
▁sinners	-11.0225
▁hurt	-11.0225
▁Convert	-11.0225
▁Politic	-11.0225
▁dozen	-11.0225
▁entries	-11.0225
tropic	-11.0225
▁Welsh	-11.0225
▁Earth	-11.0225
▁Input	-11.0225
▁rival	-11.0225
▁Shiva	-11.0225
▁violate	-11.0225
▁surge	-11.0225
▁Propert	-11.0225
▁Ship	-11.0225
▁electro	-11.0225
▁Grand	-11.0225
▁contest	-11.0225
▁choice	-11.0225
▁enforc	-11.0225
▁lumin	-11.0225
khand	-11.0225
▁Source	-11.0225
▁complication	-11.0225
▁operate	-11.0225
▁snow	-11.0225
▁straw	-11.0225
▁calamit	-11.0225
▁slander	-11.0225
▁humility	-11.0225
▁Password	-11.0225
parallel	-11.0225
▁periodically	-11.0225
▁orphan	-11.0225
▁alliance	-11.0225
Deliver	-11.0225
▁Welcom	-11.0225
▁comprise	-11.0226
Throw	-11.0226
▁Wales	-11.0226
▁stick	-11.0226
▁cried	-11.0226
▁gravit	-11.0226
▁residence	-11.0226
▁Kenya	-11.0226
▁Ishwar	-11.0226
▁molecul	-11.0226
▁Restor	-11.0226
▁hub	-11.0226
▁Submission	-11.0226
MENT	-11.0226
▁ruin	-11.0226
asjid	-11.0226
reliant	-11.0226
▁verified	-11.0227
▁womb	-11.0227
▁preced	-11.0227
▁preview	-11.0227
▁sake	-11.0227
▁Iron	-11.0227
▁coral	-11.0227
▁virtuo	-11.0227
▁Port	-11.0227
▁tourism	-11.0227
▁Cooperative	-11.0227
▁Legislature	-11.0227
▁verify	-11.0227
▁1922	-11.0227
▁cheque	-11.0227
▁Aryan	-11.0227
▁spouse	-11.0227
▁verification	-11.0227
▁scan	-11.0228
▁foster	-11.0228
▁compound	-11.0228
▁permanent	-11.0228
▁purified	-11.0228
quake	-11.0228
▁Prepar	-11.0228
▁hrs	-11.0228
▁yoke	-11.0228
▁Wealth	-11.0228
combat	-11.0228
▁deficiency	-11.0229
▁reput	-11.0229
▁Label	-11.0229
▁Empathy	-11.0229
▁shade	-11.0229
▁territories	-11.023
▁1997	-11.023
▁1953	-11.023
elief	-11.023
roadcast	-11.023
▁Charge	-11.023
▁gopura	-11.023
▁1996	-11.0231
▁zone	-11.0231
▁collaboration	-11.0231
▁fancy	-11.0231
▁hotel	-11.0231
▁rope	-11.0231
ransfer	-11.0231
▁Banga	-11.0232
▁empire	-11.0232
▁torch	-11.0232
▁Dutt	-11.0232
▁dense	-11.0232
Recall	-11.0233
▁URI	-11.0233
▁Patna	-11.0233
▁rush	-11.0233
itarian	-11.0233
▁occupation	-11.0234
▁Like	-11.0234
▁Grow	-11.0234
▁admitted	-11.0234
▁solid	-11.0234
▁Khat	-11.0234
▁Topic	-11.0234
▁distinctive	-11.0234
▁RBI	-11.0235
vasion	-11.0235
▁Stamp	-11.0235
▁coverage	-11.0235
nesia	-11.0235
OUT	-11.0236
▁dull	-11.0236
▁Documentation	-11.0236
▁Russian	-11.0236
▁guns	-11.0236
▁persistent	-11.0237
▁conversion	-11.0237
▁reputation	-11.0237
▁07	-11.0237
▁adoption	-11.0237
▁Recent	-11.0238
▁RAM	-11.0238
▁everybody	-11.0239
▁digesti	-11.0239
▁estate	-11.0239
storm	-11.024
▁lamp	-11.024
▁identi	-11.024
▁pump	-11.024
▁cord	-11.024
POP	-11.0241
▁premi	-11.0241
▁Hinduism	-11.0241
▁installation	-11.0242
▁tail	-11.0242
▁Daw	-11.0242
▁Found	-11.0242
▁pack	-11.0243
▁Leave	-11.0243
▁stup	-11.0243
▁radiation	-11.0243
▁Nanda	-11.0244
▁compromise	-11.0245
▁substantial	-11.0245
▁enquiry	-11.0246
Torah	-11.0246
▁Rock	-11.0246
▁manufacturers	-11.0246
▁alleg	-11.0246
lution	-11.0246
▁Kuch	-11.0247
▁observation	-11.0247
▁Long	-11.0248
▁partition	-11.0248
▁Job	-11.0249
▁respite	-11.0249
▁linkage	-11.0249
▁imitati	-11.025
▁Licen	-11.025
▁push	-11.025
▁unlike	-11.0251
▁righteousness	-11.0251
▁Primary	-11.0251
▁Face	-11.0251
▁affection	-11.0254
▁obviously	-11.0254
▁exactly	-11.0254
▁Letter	-11.0254
▁Ever	-11.0254
▁Introduction	-11.0254
▁broker	-11.0255
▁Luc	-11.0255
▁maid	-11.0256
▁alternat	-11.0256
▁anim	-11.0256
▁myster	-11.0256
nalog	-11.0257
udge	-11.0257
▁islands	-11.0258
▁USA	-11.0259
▁subscriber	-11.026
▁apt	-11.026
▁chro	-11.0261
▁Jub	-11.0261
loom	-11.0262
▁endow	-11.0262
▁Tea	-11.0262
▁perfection	-11.0263
rtificial	-11.0263
▁faithless	-11.0263
▁analy	-11.0264
▁allocation	-11.0264
▁50%	-11.0265
▁indian	-11.0265
▁64	-11.0265
▁Info	-11.0265
▁Parliamentar	-11.0266
▁tang	-11.0267
▁37	-11.0268
▁therewith	-11.0269
▁manure	-11.0269
▁jest	-11.0269
▁Fight	-11.027
moha	-11.0272
▁Look	-11.0273
▁Shak	-11.0275
▁hit	-11.0275
▁Fami	-11.0276
▁realm	-11.0276
▁immortal	-11.0278
UG	-11.0278
▁Young	-11.0279
▁habitat	-11.028
▁Islamist	-11.028
▁login	-11.0281
▁Leg	-11.0281
▁23-	-11.0281
organisms	-11.0281
▁pole	-11.0285
▁Way	-11.0287
▁dig	-11.0288
▁maybe	-11.0288
▁nerv	-11.0288
▁Obe	-11.0288
▁specta	-11.0288
▁Full	-11.0289
ikewise	-11.0291
▁relates	-11.0292
mbled	-11.0292
composition	-11.0292
▁gap	-11.0293
▁Selection	-11.0293
▁defi	-11.0294
▁planet	-11.0295
▁Allow	-11.0295
▁Gram	-11.0295
nitial	-11.0296
▁scen	-11.0297
BY	-11.0298
▁Radhak	-11.0302
aque	-11.0305
▁Canad	-11.0305
▁fever	-11.0306
▁gang	-11.0312
▁Rail	-11.032
dium	-11.0328
emic	-11.0329
▁miser	-11.033
▁Land	-11.0334
▁PW	-11.0341
▁Anna	-11.0349
▁Farm	-11.035
▁heedless	-11.0356
code	-11.0361
factory	-11.0365
▁pour	-11.0376
puri	-11.0381
▁borrower	-11.0393
▁float	-11.0398
leeding	-11.0398
▁Moham	-11.041
▁VI	-11.0414
▁Apple	-11.0426
coat	-11.043
cultur	-11.0433
▁exporter	-11.0437
▁symbolize	-11.0441
easing	-11.0453
authorized	-11.0489
uci	-11.0499
▁humbl	-11.0503
Warn	-11.0505
adiya	-11.0508
▁slot	-11.0519
Shiv	-11.0521
▁embodi	-11.0522
▁travell	-11.0568
phon	-11.0577
▁lion	-11.0582
PUR	-11.0591
tched	-11.0634
roph	-11.0649
astro	-11.0657
ango	-11.0673
▁brow	-11.0692
runch	-11.0712
rohibition	-11.0723
lways	-11.0728
▁Haj	-11.0739
ENE	-11.0752
▁Ray	-11.0773
ignifi	-11.078
reliable	-11.0783
▁pari	-11.0789
▁scarc	-11.081
nterior	-11.0831
▁chart	-11.0846
▁outward	-11.0875
▁fearful	-11.0887
▁hop	-11.0914
▁Hagu	-11.0935
bdu	-11.0954
▁memori	-11.0987
▁harass	-11.0998
▁Whoso	-11.1012
▁optim	-11.1086
▁Litera	-11.1095
▁eligib	-11.1117
▁emergenc	-11.1142
RAT	-11.1153
unshi	-11.1154
ugu	-11.1155
▁Mala	-11.1183
▁selfless	-11.1185
bold	-11.1186
▁01	-11.1226
hibition	-11.1252
mportant	-11.1337
▁attribut	-11.1354
gni	-11.1364
▁Front	-11.1364
▁cardi	-11.1397
chal	-11.1422
native	-11.1502
▁unrea	-11.1506
tala	-11.1513
ghos	-11.1525
WP	-11.1541
▁Citizen	-11.1564
▁Jaga	-11.1596
conception	-11.1679
hala	-11.1686
meaningful	-11.1686
▁belie	-11.1699
▁CHA	-11.1722
iyan	-11.1824
minal	-11.1847
vain	-11.1894
annu	-11.191
after	-11.1915
shwa	-11.1918
▁levi	-11.2001
ritable	-11.2053
▁scar	-11.2074
uz	-11.213
▁aggregat	-11.2133
EE	-11.2166
▁Convers	-11.217
▁desir	-11.226
ground	-11.2292
▁remit	-11.2296
▁construct	-11.2303
▁colon	-11.2324
▁servant	-11.2433
rcha	-11.2475
asses	-11.2525
appa	-11.2542
▁reduc	-11.2551
188	-11.256
pore	-11.2581
▁Delegat	-11.2588
eceiving	-11.2594
▁corn	-11.2601
polytheists	-11.2608
▁Moha	-11.2611
defined	-11.2613
text	-11.2614
conduct	-11.2615
root	-11.2615
Verily	-11.2616
spread	-11.2616
includ	-11.2616
SCO	-11.2617
Government	-11.2617
That	-11.2617
When	-11.2617
&	-11.2618
▁glori	-11.2621
group	-11.2623
VID	-11.2628
▁appli	-11.2643
▁register	-11.2644
▁organize	-11.2667
▁87	-11.2679
housands	-11.268
▁Agricultur	-11.2681
▁medicin	-11.2681
▁possibl	-11.2682
▁Hind	-11.2683
pious	-11.2684
▁translat	-11.2685
▁obvious	-11.2687
▁sudden	-11.2689
▁denie	-11.2691
▁Ministr	-11.2697
exual	-11.27
peech	-11.2701
▁exact	-11.2701
▁Program	-11.2701
▁abid	-11.2702
▁lev	-11.2706
▁profess	-11.2709
▁occup	-11.2712
▁exploit	-11.2713
▁Encrypt	-11.2714
▁arbit	-11.2714
▁Protect	-11.2714
▁Administrati	-11.2716
ONG	-11.2717
emporary	-11.2718
▁Subhas	-11.2718
ensus	-11.2719
▁intelligen	-11.2719
▁milita	-11.272
apacity	-11.272
▁ceremoni	-11.2721
easures	-11.2721
▁Multipl	-11.2721
▁Constitu	-11.2722
trum	-11.2722
▁Automatic	-11.2723
eligious	-11.2723
orizontal	-11.2723
plasm	-11.2723
▁equi	-11.2723
distinguish	-11.2723
▁consequen	-11.2724
▁horizon	-11.2724
▁Raghu	-11.2724
▁intellect	-11.2724
................	-11.2724
▁neutr	-11.2724
▁harvest	-11.2724
.04.201	-11.2724
.07.201	-11.2724
.10.201	-11.2724
Conservation	-11.2724
Guwahati	-11.2724
OUND	-11.2724
ertilizer	-11.2724
iblah	-11.2724
interdependen	-11.2724
iotechnology	-11.2724
nonymous	-11.2724
provincial	-11.2724
roprietorship	-11.2724
trodden	-11.2724
utilized	-11.2724
▁Accredit	-11.2724
▁Antarctic	-11.2724
▁Assistance	-11.2724
▁Attribute	-11.2724
▁BIRTH	-11.2724
▁Britain	-11.2724
▁CENTR	-11.2724
▁Computer	-11.2724
▁Cricket	-11.2724
▁Croatia	-11.2724
▁Custom	-11.2724
▁Cyrillic	-11.2724
▁Draft	-11.2724
▁Festival	-11.2724
▁Fragment	-11.2724
▁Gaudiya	-11.2724
▁Gehenna	-11.2724
▁Grievance	-11.2724
▁Hospital	-11.2724
▁Ignorance	-11.2724
▁Jordan	-11.2724
▁Kirloskar	-11.2724
▁Lokayuktas	-11.2724
▁Mirza	-11.2724
▁Monotheism	-11.2724
▁Nivedita	-11.2724
▁Olympic	-11.2724
▁Partnership	-11.2724
▁Pearl	-11.2724
▁Peninsula	-11.2724
▁Petitioner	-11.2724
▁Philosoph	-11.2724
▁Prakash	-11.2724
▁Professor	-11.2724
▁Proverb	-11.2724
▁Publish	-11.2724
▁Redress	-11.2724
▁Resolution	-11.2724
▁Response	-11.2724
▁Satyagraha	-11.2724
▁Secretari	-11.2724
▁Singapore	-11.2724
▁Society	-11.2724
▁Software	-11.2724
▁Spacing	-11.2724
▁Structure	-11.2724
▁Toggle	-11.2724
▁Traditional	-11.2724
▁UNIVERSIT	-11.2724
▁Unfortunately	-11.2724
▁Varanasi	-11.2724
▁Vietnam	-11.2724
▁Volume	-11.2724
▁WORLD	-11.2724
▁Wikipedia	-11.2724
▁Yojana	-11.2724
▁administrator	-11.2724
▁adversity	-11.2724
▁advertisement	-11.2724
▁affirm	-11.2724
▁algorithm	-11.2724
▁altogether	-11.2724
▁ambulance	-11.2724
▁bacteria	-11.2724
▁bhakti	-11.2724
▁bottle	-11.2724
▁bracket	-11.2724
▁brilliant	-11.2724
▁cardamom	-11.2724
▁challenging	-11.2724
▁conjecture	-11.2724
▁coronation	-11.2724
▁crucial	-11.2724
▁culprit	-11.2724
▁declaration	-11.2724
▁dedication	-11.2724
▁degrad	-11.2724
▁denomination	-11.2724
▁desktop	-11.2724
▁diamonds	-11.2724
▁diaspora	-11.2724
▁dioxide	-11.2724
▁discouraged	-11.2724
▁disputing	-11.2724
▁dissolved	-11.2724
▁distribute	-11.2724
▁effluent	-11.2724
▁eternity	-11.2724
▁exclusion	-11.2724
▁fissure	-11.2724
▁fugitive	-11.2724
▁grandfather	-11.2724
▁grievances	-11.2724
▁guarantee	-11.2724
▁harbour	-11.2724
▁harmdoers	-11.2724
▁holiday	-11.2724
▁humiliation	-11.2724
▁leprosy	-11.2724
▁multiplier	-11.2724
▁narrative	-11.2724
▁octagon	-11.2724
▁overwhelm	-11.2724
▁paddy	-11.2724
▁patriot	-11.2724
▁peculiar	-11.2724
▁peripher	-11.2724
▁persuade	-11.2724
▁phenomenon	-11.2724
▁pilgrims	-11.2724
▁pioneer	-11.2724
▁plough	-11.2724
▁politicians	-11.2724
▁possibilities	-11.2724
▁predecessor	-11.2724
▁predominant	-11.2724
▁preliminar	-11.2724
▁producing	-11.2724
▁prostration	-11.2724
▁protocol	-11.2724
▁province	-11.2724
▁relevance	-11.2724
▁satisfaction	-11.2724
▁sensitiv	-11.2724
▁shield	-11.2724
▁solitary	-11.2724
▁subordinate	-11.2724
▁supervising	-11.2724
▁suspens	-11.2724
▁throat	-11.2724
▁traffic	-11.2724
▁transparent	-11.2724
▁tremendous	-11.2724
▁unexpect	-11.2724
▁unhappy	-11.2724
▁victorious	-11.2724
▁wrinkle	-11.2724
▁1890	-11.2724
▁1921	-11.2724
▁Accept	-11.2724
▁Ahilya	-11.2724
▁Albania	-11.2724
▁Bhagava	-11.2724
▁Crore	-11.2724
▁Degree	-11.2724
▁Likud	-11.2724
▁Makkah	-11.2724
▁Omni	-11.2724
▁Rename	-11.2724
▁apologi	-11.2724
▁applicant	-11.2724
▁beneficiar	-11.2724
▁chairman	-11.2724
▁circular	-11.2724
▁consecrat	-11.2724
▁disillusion	-11.2724
▁excavat	-11.2724
▁exhaust	-11.2724
▁explic	-11.2724
▁flourish	-11.2724
▁forecast	-11.2724
▁livestock	-11.2724
▁manipulat	-11.2724
▁mischief	-11.2724
▁obstruct	-11.2724
▁occurrence	-11.2724
▁perspective	-11.2724
▁remittance	-11.2724
▁repayment	-11.2724
▁smuggl	-11.2724
▁unusual	-11.2724
▁Ahmed	-11.2724
▁Cluster	-11.2724
▁Cross	-11.2724
▁DATE	-11.2724
▁Deekshai	-11.2724
▁Defence	-11.2724
▁Focus	-11.2724
▁Iblis	-11.2724
▁Lecture	-11.2724
▁Narayan	-11.2724
▁PART	-11.2724
▁Simultaneous	-11.2724
▁Upanishads	-11.2724
▁commence	-11.2724
▁criticism	-11.2724
▁earliest	-11.2724
▁eventually	-11.2724
▁garments	-11.2724
▁liberal	-11.2724
▁pagans	-11.2724
▁powder	-11.2724
▁thorn	-11.2724
▁uterus	-11.2724
▁renounce	-11.2724
▁terrorist	-11.2724
rievous	-11.2724
▁Abort	-11.2724
▁Consequently	-11.2724
▁Consulta	-11.2724
▁Pothana	-11.2724
▁blush	-11.2724
▁crude	-11.2724
▁equitable	-11.2724
▁propagat	-11.2724
▁rebellion	-11.2724
▁unclean	-11.2724
▁vector	-11.2724
▁whirl	-11.2724
▁worldwide	-11.2724
▁Hebrew	-11.2724
▁Taurat	-11.2724
▁Value	-11.2724
▁fashion	-11.2724
▁handicapped	-11.2724
▁hymn	-11.2724
▁lobby	-11.2724
▁scoff	-11.2724
▁tariff	-11.2724
▁Graph	-11.2724
▁Isaac	-11.2724
▁Picture	-11.2724
▁Popup	-11.2724
▁RAID	-11.2724
▁Registrar	-11.2724
▁Survey	-11.2724
▁York	-11.2724
▁remunerati	-11.2724
▁shrine	-11.2724
▁AIDS	-11.2724
▁Fruit	-11.2724
▁Future	-11.2724
▁junk	-11.2724
▁revised	-11.2724
▁Branch	-11.2724
▁Detect	-11.2724
▁Geeta	-11.2724
▁Shastri	-11.2724
▁relax	-11.2724
▁transition	-11.2724
▁vagina	-11.2724
▁Basava	-11.2724
▁David	-11.2724
▁Kanpur	-11.2724
▁Staff	-11.2724
▁boost	-11.2724
▁outlook	-11.2724
▁Phone	-11.2724
▁append	-11.2724
▁conceive	-11.2724
▁conceit	-11.2724
▁repair	-11.2724
▁essence	-11.2724
▁Glory	-11.2724
▁gentle	-11.2724
▁multiply	-11.2724
▁sniff	-11.2724
▁spark	-11.2724
qualified	-11.2724
▁crystal	-11.2724
▁regain	-11.2724
▁Drink	-11.2724
▁Mandali	-11.2724
▁pleasant	-11.2724
Complete	-11.2725
▁Engineering	-11.2725
▁Foot	-11.2725
▁Hotel	-11.2725
▁Improv	-11.2725
▁Login	-11.2725
▁decked	-11.2725
▁warrior	-11.2725
▁worried	-11.2725
▁yarn	-11.2725
sanct	-11.2725
▁Layout	-11.2725
▁Space	-11.2725
▁cogent	-11.2725
▁nominate	-11.2725
▁revive	-11.2725
▁Finish	-11.2725
▁feud	-11.2725
▁Kesari	-11.2725
▁Install	-11.2725
▁disclose	-11.2725
▁gorge	-11.2725
▁Bliss	-11.2725
▁tiger	-11.2725
▁Evil	-11.2725
▁Trust	-11.2725
▁conservative	-11.2725
▁placing	-11.2725
▁elsewhere	-11.2725
▁Himself	-11.2725
▁cancelled	-11.2725
▁harsh	-11.2725
▁hiding	-11.2725
▁query	-11.2725
▁explor	-11.2725
▁Acqu	-11.2725
bhadra	-11.2725
▁Swaraj	-11.2725
▁priest	-11.2725
▁expend	-11.2725
▁twentie	-11.2725
▁cadre	-11.2725
ATA	-11.2725
▁Break	-11.2725
▁dress	-11.2725
▁imperialis	-11.2725
scontent	-11.2725
▁Drugs	-11.2725
wachh	-11.2725
▁Loading	-11.2725
▁restrain	-11.2725
▁Point	-11.2725
▁volatil	-11.2725
ndranath	-11.2725
▁allegations	-11.2725
▁drain	-11.2725
▁thunder	-11.2725
▁yards	-11.2725
nosis	-11.2725
▁Advis	-11.2725
▁condens	-11.2725
▁isolated	-11.2725
▁Birth	-11.2725
▁graphics	-11.2725
▁Missing	-11.2725
▁Clean	-11.2725
▁trainees	-11.2725
▁refra	-11.2725
▁curl	-11.2725
▁deniers	-11.2725
▁Organisation	-11.2725
idney	-11.2725
▁eager	-11.2725
▁meteor	-11.2725
▁cooked	-11.2725
▁hungr	-11.2725
▁spider	-11.2725
▁Sudan	-11.2725
▁flexible	-11.2725
▁empower	-11.2725
▁inspection	-11.2725
ASHT	-11.2725
▁Keyboard	-11.2725
▁reclining	-11.2725
▁beetle	-11.2725
▁Aaron	-11.2725
▁rites	-11.2725
▁newsgroup	-11.2725
▁portfolio	-11.2725
▁Body	-11.2725
▁Krish	-11.2725
▁resign	-11.2725
▁riot	-11.2725
▁stability	-11.2725
akshasa	-11.2725
▁photograph	-11.2725
▁Step	-11.2725
▁eleven	-11.2725
▁bidding	-11.2726
▁prevalen	-11.2726
▁rubber	-11.2726
▁bounti	-11.2726
▁Coordination	-11.2726
▁traits	-11.2726
▁adventure	-11.2726
▁knee	-11.2726
▁Modern	-11.2726
▁Planning	-11.2726
▁journalists	-11.2726
▁unrest	-11.2726
▁commemorat	-11.2726
▁Scale	-11.2726
▁stamp	-11.2726
▁ISO	-11.2726
▁grasp	-11.2726
▁horizontal	-11.2726
▁distort	-11.2726
▁Preview	-11.2726
▁Spring	-11.2726
▁sugar	-11.2726
▁mask	-11.2726
▁beware	-11.2726
▁simplify	-11.2726
▁Range	-11.2726
▁idle	-11.2726
▁neat	-11.2726
▁Sanj	-11.2726
▁costume	-11.2726
▁angry	-11.2726
▁erect	-11.2727
lignment	-11.2727
▁shopping	-11.2727
▁annum	-11.2727
▁batsm	-11.2727
humbnail	-11.2727
▁terminate	-11.2727
▁Highlight	-11.2727
▁shake	-11.2727
▁piety	-11.2727
Saleh	-11.2727
▁hostility	-11.2727
▁Medium	-11.2727
▁realistic	-11.2727
▁gramma	-11.2727
critic	-11.2727
▁Brother	-11.2727
▁captive	-11.2727
▁trick	-11.2727
ultiplication	-11.2727
▁Cancel	-11.2727
▁Kabul	-11.2727
ratuity	-11.2727
▁cycle	-11.2727
▁disseminat	-11.2728
▁vibra	-11.2728
▁Ravana	-11.2728
▁lightning	-11.2728
frost	-11.2728
▁1977	-11.2728
▁Suppl	-11.2728
▁summer	-11.2728
▁shock	-11.2728
▁rotate	-11.2728
▁hyper	-11.2728
▁1970	-11.2728
▁Shakti	-11.2728
Fatah	-11.2728
▁deciding	-11.2728
▁adjustment	-11.2728
▁unfortunate	-11.2728
▁bondmen	-11.2728
▁disobedience	-11.2728
commod	-11.2729
uzz	-11.2729
▁calf	-11.2729
▁Allowance	-11.2729
▁Kirg	-11.2729
▁modifi	-11.2729
▁Kann	-11.2729
▁saliva	-11.2729
▁1971	-11.2729
▁pipeline	-11.2729
▁cancer	-11.2729
▁prosperous	-11.2729
▁twist	-11.2729
▁cyst	-11.2729
▁reduction	-11.2729
▁compact	-11.2729
▁classified	-11.273
▁tele	-11.273
▁1973	-11.273
▁neo	-11.273
▁Koran	-11.273
▁Siva	-11.273
▁1974	-11.2731
▁residential	-11.2731
▁macro	-11.2731
▁Duty	-11.2731
▁quiet	-11.2731
▁resume	-11.2731
▁mould	-11.2731
xamination	-11.2731
▁heroic	-11.2731
enchant	-11.2731
▁burie	-11.2732
▁jack	-11.2732
▁prefer	-11.2732
▁Review	-11.2732
▁Promotion	-11.2732
▁apple	-11.2732
▁1993	-11.2732
▁motive	-11.2732
▁Administration	-11.2732
▁Chennai	-11.2732
▁Minorit	-11.2733
▁lump	-11.2733
▁dividend	-11.2733
kuta	-11.2733
▁impure	-11.2733
▁Syrian	-11.2734
▁conquest	-11.2734
▁1920	-11.2734
Advanced	-11.2735
▁norms	-11.2735
▁Reset	-11.2735
▁luck	-11.2735
▁flute	-11.2735
▁Encryption	-11.2735
▁wrongfully	-11.2735
▁stable	-11.2735
▁interrupt	-11.2735
▁Transl	-11.2735
▁testify	-11.2735
▁systematic	-11.2736
potent	-11.2736
convenien	-11.2736
▁Jayant	-11.2736
▁eminen	-11.2736
▁Scientist	-11.2737
▁sickness	-11.2737
▁bulb	-11.2737
▁Census	-11.2737
▁Nurs	-11.2737
▁requit	-11.2737
▁motor	-11.2737
▁excessive	-11.2738
▁bitter	-11.2738
ometer	-11.2738
▁Zone	-11.2738
▁Order	-11.2738
▁Patter	-11.2738
zba	-11.2738
▁assert	-11.2738
AWA	-11.2739
▁penis	-11.274
▁1900	-11.274
▁NATION	-11.274
▁sync	-11.274
▁APP	-11.274
metric	-11.274
▁brand	-11.274
▁Profit	-11.2741
▁prohibition	-11.2741
▁Quot	-11.2742
▁overtake	-11.2743
AIM	-11.2743
▁slave	-11.2743
▁sixty	-11.2743
angling	-11.2743
▁Super	-11.2744
▁1984	-11.2744
▁hoard	-11.2744
strip	-11.2744
▁3000	-11.2745
▁Team	-11.2745
▁Block	-11.2745
▁Chitra	-11.2746
▁hardship	-11.2746
▁deserve	-11.2746
▁nice	-11.2746
AMI	-11.2747
▁Iranian	-11.2747
▁400	-11.2749
▁oppression	-11.275
Design	-11.275
▁Device	-11.275
▁golden	-11.2751
▁copie	-11.2751
▁hire	-11.2751
▁Parent	-11.2751
▁march	-11.2752
▁cellul	-11.2752
▁encouragement	-11.2753
karna	-11.2753
▁foil	-11.2754
▁81	-11.2755
▁nail	-11.2757
rrho	-11.2757
▁abase	-11.2758
▁Haram	-11.2759
▁steril	-11.2759
charge	-11.276
▁mile	-11.2762
iasis	-11.2762
▁assent	-11.2762
▁backward	-11.2763
▁arouse	-11.2764
▁endorse	-11.2764
▁Rub	-11.2766
▁parch	-11.2767
andem	-11.2769
rowned	-11.2773
olden	-11.2775
▁Paul	-11.2775
withstand	-11.2776
amuna	-11.2781
▁fif	-11.2784
servi	-11.2787
▁hate	-11.2787
▁reactor	-11.2787
▁dragg	-11.2789
rapped	-11.279
▁stead	-11.2794
▁ero	-11.2795
▁chest	-11.2796
▁IND	-11.2797
abab	-11.28
▁geni	-11.2808
▁flora	-11.2808
Bhairav	-11.2809
amming	-11.2827
ANCE	-11.2831
Heaven	-11.2833
adhan	-11.2839
▁lure	-11.2842
shore	-11.2848
artial	-11.2852
discrimination	-11.2854
yntax	-11.2857
immer	-11.2859
▁rub	-11.2876
▁pie	-11.2876
▁Jatin	-11.29
ipped	-11.3019
graha	-11.3047
▁Kuru	-11.3048
▁Java	-11.3053
▁Main	-11.3063
▁Mandi	-11.307
▁tolerat	-11.3072
▁secur	-11.3073
▁minimize	-11.3082
▁Trac	-11.3099
iteration	-11.3117
ngko	-11.313
▁Forward	-11.3142
▁matur	-11.3142
▁coloni	-11.3142
▁optic	-11.3147
▁Swa	-11.3163
1700	-11.319
gui	-11.3332
etter	-11.3332
hirt	-11.3343
▁nutritio	-11.3366
▁Georgia	-11.3425
1942	-11.345
verything	-11.3454
racious	-11.3477
101	-11.3499
hisht	-11.3503
POS	-11.3543
conveyance	-11.3555
Produc	-11.3556
▁Scot	-11.357
JE	-11.3638
validity	-11.3758
UNE	-11.38
mpathy	-11.3829
▁Kala	-11.3863
▁enclos	-11.4015
grieved	-11.4072
AVE	-11.4104
ordination	-11.411
SERV	-11.4131
▁Composit	-11.4176
Jain	-11.4201
ccountability	-11.4207
ammil	-11.4328
▁enabl	-11.4363
tamin	-11.4363
▁justifie	-11.4505
processor	-11.4526
▁Gul	-11.4591
▁optimis	-11.4683
▁interfere	-11.4757
radic	-11.4783
▁Regulat	-11.4795
ersonal	-11.4872
▁welcom	-11.4954
sibilit	-11.4982
cott	-11.5006
▁omit	-11.5062
hawa	-11.5181
▁simplifi	-11.5235
mart	-11.5279
headed	-11.5309
▁promot	-11.5393
▁smit	-11.5397
▁imagin	-11.5402
sembling	-11.5405
turb	-11.5504
▁exemp	-11.5562
rontier	-11.5592
▁Operati	-11.562
rgin	-11.5639
▁1000	-11.566
▁conduc	-11.5676
ossible	-11.5754
▁oath	-11.5756
NCE	-11.5769
wait	-11.5816
▁suppli	-11.5829
▁consume	-11.584
▁promis	-11.5872
trust	-11.5879
nsense	-11.5896
▁expos	-11.5925
▁surviv	-11.5926
variabl	-11.5927
2018	-11.5933
ncient	-11.5936
ttlement	-11.5943
Joseph	-11.5943
subscribe	-11.5944
graduate	-11.5944
Amendment	-11.5945
Islamic	-11.5946
October	-11.5947
Make	-11.5947
connect	-11.5948
August	-11.5948
public	-11.5948
January	-11.5948
positive	-11.5949
voice	-11.5949
break	-11.595
Prophet	-11.595
history	-11.595
Hindi	-11.595
field	-11.595
natural	-11.595
control	-11.595
further	-11.5951
–	-11.5951
Name	-11.5951
health	-11.5951
which	-11.5951
Lord	-11.5953
plane	-11.5955
think	-11.5956
▁cemet	-11.5956
talk	-11.5965
gned	-11.5966
where	-11.5974
▁credi	-11.5979
▁minist	-11.5986
▁suprem	-11.6014
tandard	-11.6019
▁substanti	-11.6021
compromis	-11.6022
▁responsibilit	-11.6025
▁Presiden	-11.6026
ecurities	-11.6032
enior	-11.6034
▁Russia	-11.6036
iversity	-11.6042
▁Advance	-11.6044
▁prosper	-11.6046
▁collaborati	-11.6046
equently	-11.6047
▁prohibit	-11.6047
▁Promot	-11.6047
▁convers	-11.6049
mergency	-11.605
attle	-11.605
comfort	-11.605
quipment	-11.6051
onstruction	-11.6051
▁simil	-11.6051
uidelines	-11.6051
istinguished	-11.6052
hannel	-11.6052
opulation	-11.6053
▁happi	-11.6053
echnical	-11.6054
▁thumb	-11.6054
structed	-11.6055
obedience	-11.6055
▁hypo	-11.6055
ndividual	-11.6055
ommemorati	-11.6056
▁advent	-11.6056
▁investigat	-11.6056
cipient	-11.6057
▁feat	-11.6057
▁Engine	-11.6058
Period	-11.6058
ERROR	-11.6058
epitheli	-11.6058
OUNT	-11.6058
PORT	-11.6058
▁Gautam	-11.6058
▁module	-11.6058
▁pulmon	-11.6058
▁unaccept	-11.6058
.05.201	-11.6058
.12.201	-11.6058
AVAN	-11.6058
CTOR	-11.6058
Compilation	-11.6058
Enjoy	-11.6058
Implant	-11.6058
SEARCH	-11.6058
TRIBUT	-11.6058
aswamy	-11.6058
decency	-11.6058
ecrypt	-11.6058
ickname	-11.6058
keleton	-11.6058
ollywood	-11.6058
onnoisseur	-11.6058
opadhyay	-11.6058
ransparency	-11.6058
rithmetic	-11.6058
▁ANNIVERSARY	-11.6058
▁ATTEND	-11.6058
▁Agreement	-11.6058
▁Algorithm	-11.6058
▁Arguments	-11.6058
▁AtkHyper	-11.6058
▁Baluchistan	-11.6058
▁Barbados	-11.6058
▁Beijing	-11.6058
▁Bibliography	-11.6058
▁Cabinet	-11.6058
▁CalDAV	-11.6058
▁Challenge	-11.6058
▁Championship	-11.6058
▁Circuit	-11.6058
▁Compassionate	-11.6058
▁DEFRA	-11.6058
▁Democrat	-11.6058
▁Dictionary	-11.6058
▁Difference	-11.6058
▁Dynami	-11.6058
▁EXPRESS	-11.6058
▁Electronic	-11.6058
▁Emperor	-11.6058
▁Encourag	-11.6058
▁Enterprise	-11.6058
▁Entrepreneur	-11.6058
▁Expenditure	-11.6058
▁Francis	-11.6058
▁Gallery	-11.6058
▁Gentlemen	-11.6058
▁Gokhale	-11.6058
▁Gorakhpur	-11.6058
▁Guidance	-11.6058
▁Horticultur	-11.6058
▁Invitation	-11.6058
▁Jinnah	-11.6058
▁Johannes	-11.6058
▁Khilji	-11.6058
▁Kumbh	-11.6058
▁Method	-11.6058
▁Military	-11.6058
▁Module	-11.6058
▁Mongoose	-11.6058
▁NABARD	-11.6058
▁Namibia	-11.6058
▁Nuclear	-11.6058
▁OFFICER	-11.6058
▁PUBLI	-11.6058
▁Participant	-11.6058
▁Phoenix	-11.6058
▁Portuguese	-11.6058
▁Proposal	-11.6058
▁Punctu	-11.6058
▁Receipt	-11.6058
▁Recession	-11.6058
▁Recruit	-11.6058
▁RuPay	-11.6058
▁SARDAR	-11.6058
▁Sanctuar	-11.6058
▁Shakespeare	-11.6058
▁Spanish	-11.6058
▁Statistics	-11.6058
▁Summary	-11.6058
▁Template	-11.6058
▁Tokyo	-11.6058
▁UNRWA	-11.6058
▁Universal	-11.6058
▁WORK	-11.6058
▁Wisdom	-11.6058
▁abstract	-11.6058
▁acclaim	-11.6058
▁accumulate	-11.6058
▁accustom	-11.6058
▁afternoon	-11.6058
▁anticipate	-11.6058
▁aristocra	-11.6058
▁arrival	-11.6058
▁articulat	-11.6058
▁assumption	-11.6058
▁blasphem	-11.6058
▁bubble	-11.6058
▁buffer	-11.6058
▁bureaucrat	-11.6058
▁catastroph	-11.6058
▁clutch	-11.6058
▁commendable	-11.6058
▁commerce	-11.6058
▁competitive	-11.6058
▁congratulations	-11.6058
▁conspirac	-11.6058
▁contradict	-11.6058
▁conviction	-11.6058
▁cooperate	-11.6058
▁corporate	-11.6058
▁cradle	-11.6058
▁crazy	-11.6058
▁credentials	-11.6058
▁crooked	-11.6058
▁curiosity	-11.6058
▁debentures	-11.6058
▁delegation	-11.6058
▁despatch	-11.6058
▁deteriorat	-11.6058
▁diabetic	-11.6058
▁disaffection	-11.6058
▁dishonour	-11.6058
▁disregard	-11.6058
▁doctrine	-11.6058
▁dubious	-11.6058
▁dynasty	-11.6058
▁elevation	-11.6058
▁endangered	-11.6058
▁enlighten	-11.6058
▁entertainment	-11.6058
▁forehead	-11.6058
▁grandchildren	-11.6058
▁humidity	-11.6058
▁iPhone	-11.6058
▁ignorance	-11.6058
▁imprisonment	-11.6058
▁incarnation	-11.6058
▁indirect	-11.6058
▁influenza	-11.6058
▁intoxication	-11.6058
▁keybinding	-11.6058
▁kinsmen	-11.6058
▁libraries	-11.6058
▁magnify	-11.6058
▁mathematic	-11.6058
▁membrane	-11.6058
▁merchant	-11.6058
▁metabolism	-11.6058
▁metainfo	-11.6058
▁monoxide	-11.6058
▁mosquito	-11.6058
▁motivat	-11.6058
▁padavali	-11.6058
▁panchayat	-11.6058
▁participant	-11.6058
▁perpetrat	-11.6058
▁phrase	-11.6058
▁pilgrimage	-11.6058
▁plentiful	-11.6058
▁polished	-11.6058
▁precepts	-11.6058
▁privacy	-11.6058
▁puberty	-11.6058
▁reciprocate	-11.6058
▁reconcile	-11.6058
▁redemption	-11.6058
▁rehabilitat	-11.6058
▁requisit	-11.6058
▁retaliation	-11.6058
▁rigorous	-11.6058
▁sanctuary	-11.6058
▁sauce	-11.6058
▁scholastic	-11.6058
▁seizure	-11.6058
▁simultaneous	-11.6058
▁sorcerer	-11.6058
▁surplus	-11.6058
▁surprising	-11.6058
▁suspend	-11.6058
▁thorough	-11.6058
▁transplanting	-11.6058
▁troop	-11.6058
▁turmoil	-11.6058
▁tyrants	-11.6058
▁uncertainty	-11.6058
▁unfaithful	-11.6058
▁ungrateful	-11.6058
▁unprecedented	-11.6058
▁vernacular	-11.6058
▁vulnerab	-11.6058
▁Auxil	-11.6058
▁Belarus	-11.6058
▁Brazil	-11.6058
▁Nephro	-11.6058
▁Purchas	-11.6058
▁Square	-11.6058
▁Vishwavid	-11.6058
▁absorpti	-11.6058
▁asleep	-11.6058
▁censure	-11.6058
▁champion	-11.6058
▁cluster	-11.6058
▁deploy	-11.6058
▁diminish	-11.6058
▁disintegrat	-11.6058
▁displeas	-11.6058
▁elaborat	-11.6058
▁hazard	-11.6058
▁offspring	-11.6058
▁ordinance	-11.6058
▁pivot	-11.6058
▁rejuvenati	-11.6058
mitigate	-11.6058
▁1892	-11.6058
▁CONFER	-11.6058
▁Chancellor	-11.6058
▁Compose	-11.6058
▁Edison	-11.6058
▁Fissure	-11.6058
▁Girls	-11.6058
▁Judicia	-11.6058
▁Marriage	-11.6058
▁Paradip	-11.6058
▁Recursi	-11.6058
▁SOCKS	-11.6058
▁Sataka	-11.6058
▁Sweden	-11.6058
▁abortion	-11.6058
▁beloved	-11.6058
▁bucket	-11.6058
▁debauche	-11.6058
▁delicate	-11.6058
▁dispersed	-11.6058
▁equipped	-11.6058
▁expound	-11.6058
▁frozen	-11.6058
▁gharana	-11.6058
▁indicator	-11.6058
▁inflation	-11.6058
▁intercept	-11.6058
▁juice	-11.6058
▁manuscript	-11.6058
▁pocket	-11.6058
▁pollute	-11.6058
▁provok	-11.6058
▁recourse	-11.6058
▁simplicity	-11.6058
▁stipulat	-11.6058
▁tendency	-11.6058
.01.201	-11.6058
ieutenant	-11.6058
▁Deccan	-11.6058
▁Empower	-11.6058
▁INAUGURAT	-11.6058
▁Kanyak	-11.6058
▁Lahore	-11.6058
▁Output	-11.6058
▁Patrika	-11.6058
▁Remote	-11.6058
▁Thamud	-11.6058
▁Throne	-11.6058
▁Village	-11.6058
▁Yogi	-11.6058
▁admiring	-11.6058
▁chariot	-11.6058
▁clerk	-11.6058
▁confess	-11.6058
▁disturbed	-11.6058
▁nectar	-11.6058
▁recount	-11.6058
▁runaway	-11.6058
▁subdued	-11.6058
▁warfare	-11.6058
OCK	-11.6058
PMNRF	-11.6058
circum	-11.6058
▁Ayurveda	-11.6058
▁Bhoj	-11.6058
▁DVD	-11.6058
▁Friday	-11.6058
▁Kesava	-11.6058
▁Nyaya	-11.6058
▁Opposition	-11.6058
▁Prachar	-11.6058
▁criteri	-11.6058
▁detriment	-11.6058
▁instalment	-11.6058
▁southwest	-11.6058
▁splendo	-11.6058
▁swift	-11.6058
Spread	-11.6058
naemia	-11.6058
pradesh	-11.6058
▁1886	-11.6058
▁Diwan	-11.6058
▁caution	-11.6058
▁cliff	-11.6058
▁embryo	-11.6058
▁obli	-11.6058
▁pluck	-11.6058
DHI	-11.6058
▁Attack	-11.6058
▁Hamdi	-11.6058
▁Inspir	-11.6058
▁fodder	-11.6058
▁perpetua	-11.6058
▁ruthless	-11.6058
URU	-11.6058
capacities	-11.6058
▁Mongol	-11.6058
▁irritat	-11.6058
▁scream	-11.6058
▁Doctor	-11.6058
▁Keshav	-11.6058
▁Machine	-11.6058
▁Majesti	-11.6058
▁Subscribe	-11.6058
▁Vedanta	-11.6058
▁astonish	-11.6058
▁cavity	-11.6058
▁insurgen	-11.6058
▁modify	-11.6058
▁passionate	-11.6058
▁redress	-11.6058
hehnai	-11.6058
swami	-11.6058
▁garlic	-11.6058
▁summit	-11.6058
▁ticket	-11.6058
▁Lakshm	-11.6058
▁Malaysia	-11.6058
▁NDC	-11.6058
▁Pillai	-11.6058
▁Trophy	-11.6058
▁creator	-11.6058
▁elevate	-11.6058
▁legitimate	-11.6058
▁svaras	-11.6058
▁workshop	-11.6058
▁Executi	-11.6058
▁Fakir	-11.6058
▁Identity	-11.6058
▁cherish	-11.6058
▁Dehra	-11.6058
▁Kadima	-11.6058
▁blade	-11.6058
▁deliberations	-11.6058
▁grub	-11.6058
hattan	-11.6058
▁NGO	-11.6058
▁Recipients	-11.6058
▁album	-11.6058
▁superior	-11.6058
ullscreen	-11.6058
▁Album	-11.6058
▁Vidya	-11.6058
▁crush	-11.6058
▁enshr	-11.6058
nasikas	-11.6058
▁decimal	-11.6058
▁pierce	-11.6058
▁probation	-11.6058
▁connotation	-11.6058
▁intercess	-11.6058
▁Supervis	-11.6058
▁screw	-11.6058
▁economists	-11.6058
▁tableau	-11.6058
▁duct	-11.6058
▁interim	-11.6058
▁Normal	-11.6058
▁Visible	-11.6058
▁array	-11.6058
▁romance	-11.6058
▁straightened	-11.6058
▁tusk	-11.6058
allucin	-11.6058
▁butterfl	-11.6058
▁heroine	-11.6058
▁Varma	-11.6058
▁decay	-11.6058
▁orientation	-11.6058
▁submerge	-11.6058
▁barley	-11.6058
▁Chamber	-11.6058
▁amenities	-11.6058
▁corps	-11.6058
{1}	-11.6058
▁Rotate	-11.6058
▁fusion	-11.6058
▁pluralism	-11.6058
Registr	-11.6058
▁Vaishnavism	-11.6058
▁compost	-11.6058
▁Fox	-11.6058
▁rectum	-11.6058
▁bread	-11.6058
ligate	-11.6058
uffle	-11.6058
▁Third	-11.6058
▁launder	-11.6058
▁Bapu	-11.6058
▁indigo	-11.6058
▁Cuba	-11.6058
▁agenda	-11.6058
▁pulse	-11.6058
▁retail	-11.6058
▁unwilling	-11.6058
▁particle	-11.6058
▁rotation	-11.6058
▁inclusion	-11.6058
▁Nahin	-11.6058
▁spades	-11.6058
▁surname	-11.6058
▁honest	-11.6058
▁league	-11.6058
▁Raghunatha	-11.6058
▁bosom	-11.6058
▁scandal	-11.6058
▁fanatic	-11.6058
▁neurons	-11.6058
▁PIO	-11.6058
▁Galile	-11.6058
consistency	-11.6058
▁Tender	-11.6058
▁Instant	-11.6058
▁ascetic	-11.6058
▁wake	-11.6058
▁Channa	-11.6058
▁ureter	-11.6058
Dispos	-11.6058
▁Browse	-11.6058
▁Fax	-11.6058
▁curve	-11.6058
emantic	-11.6058
▁stair	-11.6058
▁entities	-11.6058
▁kilomet	-11.6058
▁cream	-11.6058
▁egg	-11.6058
▁savant	-11.6058
▁slope	-11.6058
▁ethnic	-11.6058
▁Aruna	-11.6058
▁Kushan	-11.6058
▁illuminat	-11.6058
IZE	-11.6058
▁Unseen	-11.6058
▁velar	-11.6058
▁amphi	-11.6058
▁queen	-11.6058
▁Burning	-11.6058
▁groan	-11.6058
▁quell	-11.6058
▁stiff	-11.6058
▁Death	-11.6058
▁Payment	-11.6058
▁expeditious	-11.6058
▁timing	-11.6058
▁Bull	-11.6058
▁Pulse	-11.6058
Tripura	-11.6059
▁apprehensive	-11.6059
1207	-11.6059
luctuat	-11.6059
▁harness	-11.6059
▁silk	-11.6059
▁terminal	-11.6059
▁autograph	-11.6059
▁rescue	-11.6059
liberation	-11.6059
▁Tourist	-11.6059
DEVICE	-11.6059
▁indentation	-11.6059
▁petr	-11.6059
▁garb	-11.6059
▁sensor	-11.6059
ppets	-11.6059
▁ruling	-11.6059
▁detest	-11.6059
aroj	-11.6059
▁ICM	-11.6059
▁Aviation	-11.6059
▁neem	-11.6059
▁basins	-11.6059
▁decorative	-11.6059
▁fame	-11.6059
▁mild	-11.6059
▁Progress	-11.6059
concert	-11.6059
▁Living	-11.6059
▁Ashok	-11.6059
▁mantle	-11.6059
▁premises	-11.6059
▁illitera	-11.6059
▁domain	-11.6059
▁Israelites	-11.6059
jahed	-11.6059
▁blend	-11.6059
▁Memorial	-11.6059
▁petal	-11.6059
▁outgoing	-11.6059
▁brass	-11.606
▁manual	-11.606
crow	-11.606
MEK	-11.606
▁gaze	-11.606
▁grue	-11.606
▁stating	-11.606
adhara	-11.606
▁perforat	-11.606
▁Latvia	-11.606
opaedi	-11.606
▁Game	-11.606
▁Subsequent	-11.606
▁Kitt	-11.606
▁False	-11.606
▁Seva	-11.606
▁Gaur	-11.606
▁Rich	-11.606
▁grim	-11.606
daemon	-11.606
RAMA	-11.606
eadows	-11.606
▁Generat	-11.606
▁indicati	-11.606
▁Perform	-11.606
▁prize	-11.6061
▁ordeal	-11.6061
▁Rasam	-11.6061
▁Paste	-11.6061
▁collat	-11.6061
▁Amrit	-11.6061
▁Martin	-11.6061
▁leak	-11.6061
TEN	-11.6061
fraud	-11.6061
odus	-11.6062
▁outrage	-11.6062
▁betray	-11.6062
▁Thiru	-11.6062
▁Moral	-11.6062
▁alert	-11.6062
▁dancers	-11.6062
▁Talk	-11.6062
cognis	-11.6062
▁Evalu	-11.6062
▁muscula	-11.6062
▁Studi	-11.6063
▁dumb	-11.6063
▁lament	-11.6063
arappan	-11.6063
▁Optic	-11.6063
elecom	-11.6063
▁Memor	-11.6064
▁ailment	-11.6064
▁HOS	-11.6064
rompt	-11.6065
OUR	-11.6065
ermanent	-11.6066
▁Lake	-11.6066
hekhar	-11.6066
▁Film	-11.6066
▁PRESE	-11.6066
MAN	-11.6067
hortfall	-11.6067
▁Store	-11.6067
▁empti	-11.6068
▁Breed	-11.6069
▁Actual	-11.6071
▁convene	-11.6072
▁vacan	-11.6073
rname	-11.6074
▁comfortabl	-11.6074
xpunge	-11.6075
burg	-11.6075
▁Zionis	-11.6076
▁nitr	-11.6077
ayati	-11.6078
▁unemploy	-11.6078
▁deride	-11.6079
▁shoe	-11.608
astoid	-11.6081
▁extol	-11.6082
rmati	-11.6082
▁intoleran	-11.6083
▁pleur	-11.6084
▁Lakh	-11.6086
tolerable	-11.609
▁noct	-11.6092
structur	-11.6093
▁Vasant	-11.6095
RSA	-11.61
▁hesitat	-11.6101
▁Cath	-11.6102
▁dvip	-11.6104
▁inimi	-11.6105
aqi	-11.6109
ecca	-11.6112
ithdraw	-11.6116
▁Mosc	-11.6117
odging	-11.6121
fauna	-11.6128
▁Ambassador	-11.6129
▁Serv	-11.6139
▁Deep	-11.6141
transferring	-11.6153
▁Architectur	-11.6166
▁resiz	-11.6167
▁visualize	-11.6167
▁eradicat	-11.6168
▁helm	-11.617
nsert	-11.6177
disbeliever	-11.618
hanks	-11.618
▁Mutt	-11.619
▁intermediat	-11.6197
▁Murt	-11.6212
algi	-11.6212
▁unjustifi	-11.6213
▁subtitle	-11.6214
▁Sarv	-11.6226
enbac	-11.6227
▁certif	-11.6239
agging	-11.624
▁implor	-11.6253
▁Badr	-11.6261
intentionally	-11.6283
▁instabilit	-11.6284
▁Edg	-11.6292
▁Sastr	-11.6295
▁synchroniz	-11.6299
▁cdr	-11.6304
SKE	-11.6321
roscop	-11.6326
▁Impos	-11.6371
ograms	-11.6379
▁posteri	-11.6386
▁Sankar	-11.6439
Behold	-11.647
ackground	-11.6517
nium	-11.6559
uddy	-11.6586
conditionally	-11.6594
▁toleran	-11.6672
ccessible	-11.6705
▁tenanc	-11.6725
mitten	-11.6836
Glad	-11.6923
incidence	-11.6935
▁prim	-11.6948
oddess	-11.704
COB	-11.7106
transgression	-11.711
36,	-11.7193
ttractive	-11.7237
ballad	-11.7374
▁subtract	-11.7573
▁semi	-11.7586
▁Increas	-11.7623
itizenship	-11.7737
▁destitut	-11.7892
▁struc	-11.7923
plit	-11.8057
▁Accelerat	-11.8348
psycho	-11.8355
VICE	-11.8429
makers	-11.8498
closure	-11.8629
currence	-11.8855
iterature	-11.8877
ubtraction	-11.8984
▁rewrit	-11.9112
TIONS	-11.9325
saila	-11.9473
▁concurren	-11.9615
NERA	-11.9686
▁discharg	-11.9693
944	-11.9696
utrition	-11.9737
▁coincid	-11.977
▁remiss	-11.9893
quarters	-12.007
memorial	-12.0208
dynamics	-12.0417
dispos	-12.0524
onsolidate	-12.0655
aharana	-12.0663
comprehensi	-12.0729
▁transcenden	-12.0741
reproach	-12.0748
▁parameter	-12.0758
▁expense	-12.076
▁affair	-12.0763
▁physi	-12.0772
complete	-12.0802
rchitectural	-12.0884
▁inhibit	-12.0896
lternative	-12.0924
ttempt	-12.0926
product	-12.0929
lready	-12.0931
Faith	-12.0943
protector	-12.0943
Micro	-12.0945
February	-12.0946
Market	-12.0946
Akbar	-12.0946
▁artific	-12.0946
interested	-12.0947
confidence	-12.0948
prostrate	-12.0948
identified	-12.0948
Pharaoh	-12.0949
April	-12.0949
military	-12.0949
Hindus	-12.0949
September	-12.0949
Punjab	-12.095
collect	-12.095
Office	-12.095
Today	-12.095
correct	-12.095
Which	-12.095
published	-12.095
developed	-12.095
yourselves	-12.0951
Where	-12.0951
Development	-12.0951
remember	-12.0951
government	-12.0951
account	-12.0951
Central	-12.0952
different	-12.0952
certain	-12.0959
anthrop	-12.0965
▁Brahm	-12.0988
ervou	-12.0995
cknowledg	-12.1007
disciplin	-12.101
▁extrem	-12.1012
▁Financ	-12.1013
▁mobil	-12.1016
mployment	-12.1017
▁enquir	-12.1022
▁laborator	-12.1023
▁persisten	-12.1024
▁constrain	-12.1024
onflicts	-12.1029
overeign	-12.1033
rruption	-12.1033
uggest	-12.1034
▁economi	-12.1035
▁Syria	-12.1036
actually	-12.1038
▁Chenna	-12.104
Submit	-12.1043
▁endeavo	-12.1045
▁influen	-12.1047
▁conserv	-12.1049
▁adjust	-12.1049
aharashtra	-12.105
fortunate	-12.105
▁Develop	-12.105
▁Econom	-12.105
ssential	-12.1051
fforts	-12.1051
ompensation	-12.1052
ommercial	-12.1052
orrespond	-12.1052
ursuit	-12.1052
▁disobedien	-12.1053
ounsel	-12.1053
eautiful	-12.1053
eciding	-12.1054
anufactur	-12.1054
rrigation	-12.1055
nfection	-12.1055
nfluence	-12.1055
ighteousness	-12.1056
gnore	-12.1056
stinct	-12.1056
eclining	-12.1056
eputation	-12.1056
aintenance	-12.1056
▁philosophi	-12.1056
ypocrites	-12.1057
▁expedit	-12.1057
geographic	-12.1057
▁neuro	-12.1057
roportion	-12.1057
▁techno	-12.1057
▁Vaishnavi	-12.1057
▁plurali	-12.1057
▁apprehen	-12.1057
simila	-12.1058
▁KOrg	-12.1058
▁SabkaVi	-12.1058
▁handicap	-12.1058
IDENT	-12.1058
▁Krushna	-12.1058
▁Ophthalm	-12.1058
▁brazil	-12.1058
▁CONDOL	-12.1058
▁Confirm	-12.1058
▁Domicil	-12.1058
▁Emphasi	-12.1058
▁Imagin	-12.1058
▁Liquid	-12.1058
▁Spellcheck	-12.1058
▁Strengthen	-12.1058
▁applaud	-12.1058
▁disagree	-12.1058
▁epididymi	-12.1058
▁extenuat	-12.1058
▁fascinat	-12.1058
▁inflamma	-12.1058
▁satisfy	-12.1058
▁straiten	-12.1058
▁twinkl	-12.1058
▁ubject	-12.1058
-2022	-12.1058
.08.201	-12.1058
4848	-12.1058
AKRISHNA	-12.1058
ANGU	-12.1058
AZIL	-12.1058
Dialogue	-12.1058
Ericsson	-12.1058
TEXT	-12.1058
WARDS	-12.1058
WOMEN	-12.1058
adikshita	-12.1058
appreciative	-12.1058
asavadatta	-12.1058
brook	-12.1058
cologist	-12.1058
communicable	-12.1058
convincing	-12.1058
cylinder	-12.1058
cytosis	-12.1058
elecommunication	-12.1058
eplenishment	-12.1058
evitalisation	-12.1058
geometry	-12.1058
ithamaha	-12.1058
naesthesia	-12.1058
nunciation	-12.1058
ocieties	-12.1058
ologists	-12.1058
olybdenum	-12.1058
onsortium	-12.1058
ophagous	-12.1058
peculum	-12.1058
quirrel	-12.1058
ranyakas	-12.1058
recipitation	-12.1058
redeemable	-12.1058
rgentine	-12.1058
rocodile	-12.1058
sparagus	-12.1058
ubcommittee	-12.1058
udicature	-12.1058
ugoslavi	-12.1058
+	-13.0958
[	-13.0959
‘	-13.1057
>	-13.1058
