<pad>	0
</s>	0
<unk>	0
▁t	-0
▁th	-1
▁a	-2
in	-3
▁the	-4
on	-5
re	-6
at	-7
en	-8
is	-9
▁o	-10
er	-11
▁w	-12
▁s	-13
▁c	-14
it	-15
ion	-16
or	-17
an	-18
▁p	-19
es	-20
▁of	-21
▁in	-22
▁to	-23
▁an	-24
▁f	-25
▁b	-26
ro	-27
al	-28
▁and	-29
ed	-30
ing	-31
ar	-32
▁m	-33
ou	-34
ent	-35
ic	-36
▁re	-37
▁h	-38
▁d	-39
le	-40
om	-41
ve	-42
▁n	-43
st	-44
▁be	-45
▁I	-46
▁is	-47
ct	-48
▁that	-49
▁e	-50
il	-51
ation	-52
pe	-53
ly	-54
as	-55
▁E	-56
▁on	-57
ment	-58
▁for	-59
ot	-60
▁T	-61
im	-62
▁wh	-63
ut	-64
▁l	-65
▁we	-66
id	-67
se	-68
ur	-69
▁pro	-70
▁M	-71
ort	-72
▁C	-73
▁Th	-74
ol	-75
▁g	-76
uro	-77
▁con	-78
ce	-79
▁al	-80
▁it	-81
▁Euro	-82
▁Europe	-83
res	-84
un	-85
et	-86
ul	-87
ver	-88
▁this	-89
port	-90
▁are	-91
ra	-92
ld	-93
ig	-94
▁P	-95
▁de	-96
▁as	-97
▁ha	-98
ow	-99
ith	-100
omm	-101
ies	-102
▁S	-103
▁st	-104
ate	-105
▁with	-106
ill	-107
ch	-108
ould	-109
▁European	-110
ir	-111
▁ne	-112
▁not	-113
▁The	-114
▁have	-115
em	-116
▁su	-117
sion	-118
op	-119
ity	-120
oun	-121
ad	-122
ive	-123
ay	-124
us	-125
ke	-126
ble	-127
th	-128
ers	-129
▁A	-130
ore	-131
▁v	-132
ci	-133
▁ex	-134
os	-135
ter	-136
ich	-137
▁im	-138
ant	-139
▁will	-140
ust	-141
ess	-142
ia	-143
▁which	-144
▁y	-145
▁Comm	-146
▁by	-147
igh	-148
▁en	-149
ect	-150
▁sh	-151
ain	-152
▁W	-153
▁r	-154
if	-155
qu	-156
ge	-157
▁-	-158
ission	-159
ber	-160
tr	-161
▁ag	-162
ere	-163
iv	-164
▁res	-165
▁has	-166
est	-167
art	-168
um	-169
am	-170
our	-171
▁com	-172
so	-173
▁at	-174
▁le	-175
▁U	-176
▁Commission	-177
ions	-178
▁all	-179
ight	-180
ure	-181
▁or	-182
▁se	-183
resid	-184
und	-185
▁wor	-186
▁also	-187
▁Mr	-188
pp	-189
▁Presid	-190
ud	-191
▁would	-192
rom	-193
ff	-194
od	-195
▁so	-196
ie	-197
ates	-198
and	-199
▁EU	-200
▁pol	-201
el	-202
ist	-203
▁(	-204
end	-205
▁Un	-206
ard	-207
▁reg	-208
▁Mem	-209
▁int	-210
pport	-211
cial	-212
▁our	-213
▁St	-214
ac	-215
▁me	-216
ations	-217
very	-218
▁part	-219
con	-220
▁coun	-221
▁from	-222
▁F	-223
▁can	-224
▁President	-225
▁should	-226
▁there	-227
up	-228
▁do	-229
ree	-230
▁ad	-231
▁We	-232
▁2	-233
ult	-234
▁ta	-235
▁ch	-236
use	-237
▁countr	-238
vel	-239
▁In	-240
▁G	-241
ue	-242
▁am	-243
arl	-244
▁must	-245
▁Member	-246
▁but	-247
▁B	-248
▁Union	-249
▁H	-250
▁need	-251
▁go	-252
arlia	-253
arliament	-254
ally	-255
▁ab	-256
ans	-257
lo	-258
du	-259
▁inc	-260
all	-261
▁fa	-262
▁li	-263
ous	-264
▁R	-265
▁you	-266
ren	-267
▁report	-268
reat	-269
▁It	-270
▁States	-271
cc	-272
▁been	-273
ome	-274
▁imp	-275
▁ma	-276
ance	-277
ther	-278
ire	-279
ish	-280
ary	-281
ments	-282
▁more	-283
ab	-284
▁co	-285
out	-286
▁Parliament	-287
▁tr	-288
king	-289
▁import	-290
▁dis	-291
▁fin	-292
▁us	-293
gh	-294
▁like	-295
▁their	-296
▁cont	-297
oc	-298
▁j	-299
able	-300
▁right	-301
▁its	-302
▁comm	-303
ast	-304
ens	-305
▁20	-306
▁L	-307
▁was	-308
▁un	-309
▁who	-310
▁prop	-311
conom	-312
ical	-313
ime	-314
ial	-315
▁polic	-316
gy	-317
▁very	-318
ction	-319
▁these	-320
▁qu	-321
tern	-322
▁This	-323
ib	-324
▁comp	-325
▁app	-326
ational	-327
▁pl	-328
▁cons	-329
▁pe	-330
fore	-331
cy	-332
ress	-333
▁cr	-334
▁D	-335
ong	-336
▁bec	-337
▁support	-338
▁econom	-339
iti	-340
▁countries	-341
▁pr	-342
ition	-343
▁he	-344
pt	-345
ities	-346
▁work	-347
▁conc	-348
ark	-349
ution	-350
▁1	-351
ause	-352
age	-353
▁pos	-354
itt	-355
ople	-356
▁bet	-357
▁str	-358
▁man	-359
get	-360
▁one	-361
▁important	-362
velop	-363
▁O	-364
her	-365
▁eff	-366
▁they	-367
▁po	-368
lic	-369
cil	-370
orm	-371
ll	-372
ise	-373
▁ind	-374
ear	-375
▁pre	-376
▁other	-377
▁new	-378
▁propos	-379
▁than	-380
ces	-381
▁people	-382
ose	-383
▁out	-384
ject	-385
▁Coun	-386
pect	-387
ign	-388
▁vot	-389
▁agree	-390
▁Council	-391
ence	-392
▁acc	-393
ility	-394
ated	-395
▁spe	-396
▁time	-397
▁about	-398
ide	-399
ever	-400
▁und	-401
▁policy	-402
▁exp	-403
one	-404
▁mo	-405
▁act	-406
▁my	-407
ord	-408
arket	-409
▁ra	-410
ice	-411
▁tra	-412
▁develop	-413
int	-414
▁partic	-415
▁only	-416
ag	-417
▁dec	-418
ip	-419
ible	-420
▁N	-421
ular	-422
▁again	-423
▁because	-424
ep	-425
▁year	-426
▁under	-427
og	-428
cess	-429
ced	-430
▁ob	-431
▁leg	-432
ap	-433
ms	-434
ack	-435
form	-436
▁iss	-437
▁rec	-438
▁prov	-439
▁trans	-440
▁up	-441
▁market	-442
are	-443
▁sa	-444
ase	-445
owever	-446
ern	-447
we	-448
ures	-449
▁what	-450
ub	-451
ach	-452
erv	-453
ative	-454
▁economic	-455
lear	-456
▁em	-457
ugh	-458
▁finan	-459
fic	-460
ious	-461
▁dem	-462
str	-463
ieve	-464
▁cl	-465
ons	-466
lud	-467
▁rel	-468
ine	-469
▁op	-470
ink	-471
ating	-472
▁ev	-473
ian	-474
ween	-475
ention	-476
▁particular	-477
▁k	-478
▁between	-479
▁rights	-480
irst	-481
▁them	-482
▁proposal	-483
▁gro	-484
uman	-485
act	-486
▁produ	-487
resent	-488
▁take	-489
▁now	-490
eren	-491
irect	-492
▁into	-493
ues	-494
▁no	-495
ee	-496
me	-497
itiz	-498
ame	-499
▁such	-500
xt	-501
ert	-502
▁citiz	-503
▁polit	-504
▁fund	-505
eration	-506
rough	-507
▁those	-508
▁intern	-509
▁inv	-510
▁make	-511
der	-512
day	-513
▁if	-514
▁some	-515
ergy	-516
ural	-517
▁deb	-518
▁therefore	-519
▁bel	-520
tect	-521
ency	-522
▁200	-523
▁proble	-524
ace	-525
▁ter	-526
▁per	-527
▁resp	-528
ak	-529
▁ro	-530
yst	-531
▁clear	-532
▁when	-533
feren	-534
ade	-535
ors	-536
ives	-537
▁say	-538
▁see	-539
▁citizens	-540
▁financial	-541
ri	-542
stit	-543
ystem	-544
▁'	-545
▁concern	-546
▁sit	-547
▁human	-548
ific	-549
▁any	-550
▁energy	-551
ards	-552
▁dif	-553
▁fact	-554
ple	-555
▁over	-556
▁disc	-557
▁includ	-558
▁te	-559
ks	-560
now	-561
▁protect	-562
▁think	-563
▁social	-564
▁against	-565
ublic	-566
▁situ	-567
▁incre	-568
vern	-569
▁prog	-570
de	-571
iew	-572
ual	-573
▁chan	-574
▁As	-575
▁being	-576
▁many	-577
▁want	-578
▁first	-579
ised	-580
ving	-581
▁good	-582
low	-583
lement	-584
▁ens	-585
▁just	-586
▁political	-587
▁cris	-588
▁meas	-589
sel	-590
olution	-591
▁were	-592
▁country	-593
▁point	-594
unity	-595
▁system	-596
▁sub	-597
▁requ	-598
pl	-599
▁bas	-600
lect	-601
▁add	-602
▁appro	-603
▁believe	-604
rat	-605
rit	-606
ision	-607
ulation	-608
▁through	-609
opt	-610
▁rem	-611
ric	-612
▁la	-613
▁way	-614
▁effect	-615
▁However	-616
▁made	-617
rent	-618
▁adopt	-619
▁well	-620
▁order	-621
mental	-622
▁crisis	-623
eg	-624
▁J	-625
read	-626
▁quest	-627
udget	-628
wn	-629
▁poss	-630
▁know	-631
▁situation	-632
ved	-633
▁high	-634
▁today	-635
▁Wh	-636
ind	-637
ices	-638
▁use	-639
ild	-640
▁great	-641
▁development	-642
▁att	-643
▁mat	-644
▁result	-645
▁coop	-646
▁most	-647
▁Commissioner	-648
▁level	-649
▁direct	-650
ful	-651
not	-652
▁sp	-653
▁neg	-654
▁contin	-655
▁national	-656
▁jo	-657
ry	-658
▁There	-659
ough	-660
stru	-661
▁debate	-662
ality	-663
cept	-664
ict	-665
oth	-666
bers	-667
▁ass	-668
ety	-669
▁sec	-670
red	-671
ittee	-672
utions	-673
▁measures	-674
ied	-675
▁Mad	-676
▁ent	-677
▁issue	-678
isation	-679
▁budget	-680
imate	-681
uch	-682
iron	-683
▁cur	-684
▁ext	-685
▁That	-686
▁call	-687
▁even	-688
▁every	-689
▁regard	-690
▁rep	-691
ite	-692
viron	-693
▁years	-694
▁cannot	-695
pet	-696
uss	-697
▁world	-698
▁inform	-699
wo	-700
erest	-701
▁sect	-702
▁fut	-703
ov	-704
ready	-705
▁Madam	-706
isl	-707
▁future	-708
uth	-709
▁sign	-710
▁agreement	-711
▁view	-712
▁public	-713
▁already	-714
▁ach	-715
▁implement	-716
▁cooperation	-717
ood	-718
▁emp	-719
bal	-720
▁ar	-721
omen	-722
▁here	-723
▁legisl	-724
▁where	-725
▁vote	-726
▁area	-727
▁within	-728
▁interest	-729
wor	-730
▁ac	-731
▁international	-732
reed	-733
▁too	-734
arm	-735
loy	-736
▁ensure	-737
▁ful	-738
▁gen	-739
▁hel	-740
▁common	-741
▁two	-742
ass	-743
reaty	-744
▁same	-745
orities	-746
ism	-747
ount	-748
uring	-749
▁compet	-750
ibility	-751
ute	-752
▁dra	-753
▁end	-754
ertain	-755
▁impro	-756
▁democ	-757
▁Ch	-758
iven	-759
▁consid	-760
▁environ	-761
abl	-762
hip	-763
ings	-764
▁law	-765
urity	-766
bon	-767
ope	-768
oti	-769
▁exam	-770
▁help	-771
▁prev	-772
ential	-773
ited	-774
trib	-775
▁both	-776
▁cour	-777
▁respons	-778
▁def	-779
▁num	-780
▁serv	-781
▁strate	-782
▁K	-783
▁negoti	-784
20	-785
eur	-786
▁own	-787
uc	-788
ory	-789
▁fe	-790
▁mon	-791
▁sol	-792
lobal	-793
▁long	-794
▁redu	-795
▁respect	-796
▁question	-797
itions	-798
▁does	-799
▁beh	-800
▁current	-801
ail	-802
▁had	-803
ile	-804
ince	-805
ges	-806
alth	-807
cond	-808
▁how	-809
▁much	-810
▁lo	-811
▁fav	-812
▁protection	-813
▁possible	-814
▁resolution	-815
▁min	-816
ene	-817
cing	-818
▁set	-819
▁Committee	-820
▁put	-821
▁ref	-822
▁amend	-823
▁could	-824
men	-825
▁On	-826
▁Gro	-827
▁des	-828
ority	-829
▁Treaty	-830
pporteur	-831
eral	-832
ract	-833
ient	-834
▁certain	-835
lu	-836
▁gu	-837
▁govern	-838
▁rapporteur	-839
▁Se	-840
▁last	-841
alf	-842
▁your	-843
illion	-844
▁change	-845
▁state	-846
▁instit	-847
▁case	-848
▁reas	-849
▁why	-850
▁auth	-851
▁cond	-852
▁prom	-853
▁writ	-854
▁necess	-855
inci	-856
▁main	-857
▁said	-858
▁region	-859
▁sector	-860
▁wel	-861
▁still	-862
work	-863
ination	-864
▁global	-865
▁princi	-866
▁process	-867
ram	-868
▁tak	-869
urther	-870
▁ke	-871
▁product	-872
▁fra	-873
itive	-874
▁women	-875
▁writing	-876
▁particularly	-877
▁inter	-878
▁voted	-879
▁consum	-880
▁car	-881
te	-882
▁favour	-883
▁security	-884
▁est	-885
way	-886
▁course	-887
▁opport	-888
come	-889
▁hope	-890
▁stand	-891
▁object	-892
gan	-893
▁br	-894
oura	-895
▁saf	-896
▁able	-897
▁real	-898
▁Group	-899
ty	-900
arge	-901
▁lead	-902
▁group	-903
ft	-904
▁col	-905
▁represent	-906
isbon	-907
ricult	-908
▁information	-909
▁allow	-910
▁Lisbon	-911
▁number	-912
▁require	-913
▁differen	-914
▁V	-915
▁conf	-916
▁areas	-917
▁trade	-918
▁issues	-919
▁maj	-920
▁role	-921
▁since	-922
▁climate	-923
▁increas	-924
ules	-925
▁sim	-926
▁provid	-927
chn	-928
▁201	-929
▁pers	-930
▁then	-931
▁problem	-932
air	-933
▁equ	-934
▁contrib	-935
▁including	-936
ollow	-937
ources	-938
▁problems	-939
▁effective	-940
▁invest	-941
▁present	-942
▁necessary	-943
▁health	-944
ang	-945
▁cre	-946
▁needs	-947
▁place	-948
man	-949
▁av	-950
▁med	-951
▁pow	-952
▁val	-953
reedom	-954
▁example	-955
ning	-956
vers	-957
▁off	-958
entle	-959
▁gentle	-960
▁indust	-961
▁gentlemen	-962
led	-963
adies	-964
ves	-965
ines	-966
cific	-967
▁Mrs	-968
ablish	-969
fter	-970
▁thank	-971
ether	-972
ration	-973
▁better	-974
▁ser	-975
pa	-976
iol	-977
▁means	-978
▁techn	-979
eth	-980
▁his	-981
▁meet	-982
ability	-983
▁establish	-984
pr	-985
▁Min	-986
▁elect	-987
▁action	-988
ok	-989
▁aim	-990
▁program	-991
arch	-992
▁follow	-993
ound	-994
▁pri	-995
▁child	-996
▁legal	-997
▁Members	-998
▁specific	-999
its	-1000
old	-1001
▁ask	-1002
ising	-1003
▁invol	-1004
▁taken	-1005
▁De	-1006
▁may	-1007
iving	-1008
▁next	-1009
ug	-1010
▁bene	-1011
▁show	-1012
▁behalf	-1013
▁freedom	-1014
▁progress	-1015
ird	-1016
▁sm	-1017
ward	-1018
als	-1019
ents	-1020
ening	-1021
isions	-1022
▁Presidency	-1023
ank	-1024
ond	-1025
▁come	-1026
▁food	-1027
▁grow	-1028
iter	-1029
▁rev	-1030
sions	-1031
▁rules	-1032
▁project	-1033
▁without	-1034
mework	-1035
▁improve	-1036
▁consider	-1037
▁If	-1038
land	-1039
▁Con	-1040
▁rat	-1041
▁step	-1042
▁employ	-1043
▁strategy	-1044
00	-1045
ered	-1046
rodu	-1047
▁find	-1048
▁happ	-1049
▁matter	-1050
▁however	-1051
▁directive	-1052
gth	-1053
ners	-1054
allen	-1055
▁terms	-1056
▁promot	-1057
▁adopted	-1058
▁products	-1059
▁services	-1060
ss	-1061
▁Ag	-1062
iness	-1063
▁opin	-1064
▁account	-1065
▁sc	-1066
▁fac	-1067
▁agricult	-1068
ost	-1069
▁det	-1070
▁pay	-1071
▁form	-1072
▁give	-1073
▁economy	-1074
▁welcome	-1075
▁whether	-1076
▁approach	-1077
ting	-1078
▁tax	-1079
▁initi	-1080
▁effort	-1081
▁further	-1082
▁continue	-1083
▁regulation	-1084
▁negotiations	-1085
▁For	-1086
ccess	-1087
▁fish	-1088
▁legislation	-1089
he	-1090
▁contro	-1091
▁strong	-1092
▁institutions	-1093
ouse	-1094
self	-1095
wards	-1096
▁State	-1097
▁before	-1098
▁decision	-1099
ivid	-1100
▁imm	-1101
▁job	-1102
ital	-1103
▁EUR	-1104
ately	-1105
▁deal	-1106
▁word	-1107
▁funds	-1108
▁regul	-1109
▁compan	-1110
▁ladies	-1111
▁million	-1112
▁position	-1113
arant	-1114
▁plan	-1115
▁cap	-1116
ently	-1117
▁soci	-1118
▁viol	-1119
ficult	-1120
▁activ	-1121
▁difficult	-1122
ises	-1123
▁after	-1124
▁challen	-1125
DE	-1126
ne	-1127
ell	-1128
ese	-1129
▁Pro	-1130
▁inf	-1131
▁comb	-1132
usiness	-1133
▁provide	-1134
▁success	-1135
▁working	-1136
▁3	-1137
racy	-1138
▁ess	-1139
▁fore	-1140
▁organ	-1141
▁access	-1142
▁guarant	-1143
▁cult	-1144
▁discuss	-1145
nov	-1146
ratic	-1147
▁hand	-1148
ession	-1149
amental	-1150
▁serious	-1151
▁increase	-1152
imes	-1153
▁cor	-1154
▁cost	-1155
▁conditions	-1156
ner	-1157
▁pract	-1158
▁signific	-1159
min	-1160
arity	-1161
stand	-1162
ually	-1163
▁start	-1164
▁ur	-1165
chan	-1166
utes	-1167
rength	-1168
▁commit	-1169
▁resources	-1170
▁aff	-1171
▁far	-1172
ences	-1173
light	-1174
▁What	-1175
▁during	-1176
ten	-1177
▁es	-1178
ross	-1179
▁lab	-1180
arian	-1181
stain	-1182
▁used	-1183
pecial	-1184
▁reason	-1185
▁framework	-1186
▁mem	-1187
▁rese	-1188
▁small	-1189
▁second	-1190
▁strength	-1191
▁different	-1192
▁proposals	-1193
▁transport	-1194
▁euro	-1195
▁relations	-1196
▁importance	-1197
leg	-1198
▁ris	-1199
▁opinion	-1200
▁towards	-1201
ret	-1202
osed	-1203
▁given	-1204
▁United	-1205
▁proced	-1206
▁forward	-1207
▁business	-1208
▁authorities	-1209
ran	-1210
▁enc	-1211
▁pat	-1212
ingle	-1213
▁play	-1214
▁comple	-1215
▁individ	-1216
▁introdu	-1217
▁policies	-1218
▁opportunity	-1219
ffic	-1220
▁achie	-1221
▁third	-1222
▁impact	-1223
sequ	-1224
rency	-1225
▁achieve	-1226
▁mention	-1227
▁transpa	-1228
▁individual	-1229
ral	-1230
▁done	-1231
▁move	-1232
▁benef	-1233
▁speak	-1234
▁instru	-1235
mit	-1236
ases	-1237
▁som	-1238
▁tar	-1239
▁less	-1240
pecially	-1241
▁workers	-1242
▁An	-1243
▁So	-1244
▁aid	-1245
▁lif	-1246
ified	-1247
▁Fund	-1248
gether	-1249
▁based	-1250
▁reform	-1251
▁research	-1252
▁Community	-1253
▁essential	-1254
▁environmental	-1255
ph	-1256
▁aw	-1257
▁Rom	-1258
▁tal	-1259
▁express	-1260
ium	-1261
own	-1262
▁At	-1263
▁mod	-1264
▁prep	-1265
▁Intern	-1266
▁children	-1267
▁attention	-1268
▁especially	-1269
ased	-1270
ivil	-1271
ples	-1272
▁air	-1273
▁day	-1274
▁vis	-1275
▁power	-1276
ification	-1277
▁significant	-1278
ists	-1279
▁nat	-1280
overn	-1281
▁back	-1282
▁bring	-1283
▁going	-1284
▁whole	-1285
▁control	-1286
▁prevent	-1287
av	-1288
les	-1289
uct	-1290
selves	-1291
▁large	-1292
▁remain	-1293
▁quality	-1294
▁society	-1295
▁interests	-1296
▁implementation	-1297
tain	-1298
other	-1299
ec	-1300
ogn	-1301
vant	-1302
▁did	-1303
▁read	-1304
▁supp	-1305
atives	-1306
▁effic	-1307
▁innov	-1308
▁making	-1309
▁safety	-1310
▁subject	-1311
▁sustain	-1312
▁5	-1313
▁ban	-1314
▁bord	-1315
▁each	-1316
▁wish	-1317
▁basis	-1318
▁fundamental	-1319
ily	-1320
▁ca	-1321
rant	-1322
ivers	-1323
▁fight	-1324
▁recogn	-1325
▁together	-1326
eri	-1327
ove	-1328
▁el	-1329
▁ins	-1330
▁Str	-1331
▁Tur	-1332
▁var	-1333
▁manage	-1334
▁target	-1335
tic	-1336
bour	-1337
lose	-1338
▁pur	-1339
▁integ	-1340
▁encoura	-1341
▁addition	-1342
▁internal	-1343
▁democratic	-1344
▁environment	-1345
urn	-1346
ened	-1347
ogue	-1348
ident	-1349
ically	-1350
▁House	-1351
▁close	-1352
▁draft	-1353
▁positive	-1354
▁agreements	-1355
iz	-1356
iod	-1357
ways	-1358
▁dep	-1359
▁pass	-1360
▁These	-1361
▁demand	-1362
▁democracy	-1363
▁responsibility	-1364
ung	-1365
▁Fin	-1366
▁down	-1367
lusion	-1368
▁three	-1369
▁really	-1370
▁industry	-1371
▁proposed	-1372
li	-1373
ts	-1374
▁19	-1375
ared	-1376
▁few	-1377
▁Russ	-1378
▁free	-1379
▁full	-1380
▁expect	-1381
▁Therefore	-1382
ext	-1383
ify	-1384
pri	-1385
▁bu	-1386
▁ide	-1387
▁lim	-1388
▁accept	-1389
▁become	-1390
▁greater	-1391
▁technol	-1392
▁increasing	-1393
▁ap	-1394
oney	-1395
▁fail	-1396
▁itself	-1397
▁clearly	-1398
ys	-1399
ging	-1400
▁pop	-1401
aking	-1402
▁look	-1403
struct	-1404
▁colle	-1405
▁while	-1406
▁actually	-1407
▁4	-1408
ata	-1409
com	-1410
▁Af	-1411
▁ph	-1412
imin	-1413
▁text	-1414
ething	-1415
▁money	-1416
▁applic	-1417
▁consequ	-1418
▁understand	-1419
gest	-1420
▁pack	-1421
▁press	-1422
ialogue	-1423
▁always	-1424
▁discus	-1425
▁growth	-1426
▁efforts	-1427
▁objectives	-1428
ged	-1429
ics	-1430
istr	-1431
▁2009	-1432
▁best	-1433
▁coord	-1434
▁force	-1435
▁reach	-1436
idarity	-1437
▁Direct	-1438
ron	-1439
▁Al	-1440
ilit	-1441
▁abs	-1442
▁address	-1443
▁general	-1444
▁something	-1445
▁standards	-1446
▁Am	-1447
cies	-1448
ness	-1449
ocus	-1450
▁All	-1451
▁enter	-1452
▁major	-1453
▁single	-1454
▁another	-1455
▁partners	-1456
▁pen	-1457
▁Part	-1458
▁among	-1459
▁creat	-1460
ference	-1461
▁guarantee	-1462
ater	-1463
ourt	-1464
▁fel	-1465
▁key	-1466
▁ple	-1467
▁sur	-1468
▁oper	-1469
ending	-1470
▁Court	-1471
▁civil	-1472
▁words	-1473
unities	-1474
▁parliament	-1475
▁transparency	-1476
ix	-1477
▁coh	-1478
▁get	-1479
▁inst	-1480
▁exist	-1481
▁stress	-1482
▁principle	-1483
▁her	-1484
▁wee	-1485
▁cent	-1486
▁risk	-1487
▁extre	-1488
▁focus	-1489
▁Govern	-1490
▁recent	-1491
▁markets	-1492
▁programme	-1493
▁agricultural	-1494
eed	-1495
airs	-1496
verty	-1497
▁once	-1498
▁rather	-1499
igration	-1500
▁regions	-1501
▁employment	-1502
irm	-1503
ule	-1504
ably	-1505
▁let	-1506
▁month	-1507
▁context	-1508
▁dialogue	-1509
▁companies	-1510
cu	-1511
▁ed	-1512
▁loc	-1513
▁data	-1514
▁fully	-1515
vention	-1516
▁period	-1517
▁struct	-1518
▁package	-1519
ages	-1520
itted	-1521
▁avail	-1522
▁assist	-1523
▁experi	-1524
▁groups	-1525
▁comprom	-1526
▁concerns	-1527
▁concerned	-1528
oss	-1529
▁bal	-1530
▁pot	-1531
▁taking	-1532
▁challenges	-1533
aps	-1534
emp	-1535
ror	-1536
uge	-1537
ven	-1538
itor	-1539
▁due	-1540
▁fam	-1541
▁mot	-1542
▁rele	-1543
▁often	-1544
▁colleag	-1545
▁regional	-1546
▁principles	-1547
sw	-1548
gin	-1549
ick	-1550
▁Is	-1551
▁Bar	-1552
▁Pol	-1553
ption	-1554
▁cred	-1555
▁least	-1556
▁create	-1557
▁having	-1558
▁recomm	-1559
▁poverty	-1560
▁Directive	-1561
▁commitment	-1562
▁opp	-1563
▁sum	-1564
▁answ	-1565
▁caus	-1566
▁life	-1567
▁open	-1568
▁apply	-1569
▁resol	-1570
▁results	-1571
▁various	-1572
▁amendments	-1573
▁developing	-1574
▁management	-1575
ead	-1576
row	-1577
ister	-1578
▁They	-1579
▁care	-1580
▁defin	-1581
▁accord	-1582
▁consumers	-1583
▁decisions	-1584
▁activities	-1585
ech	-1586
ier	-1587
▁educ	-1588
▁rece	-1589
ternal	-1590
▁treat	-1591
▁person	-1592
▁proper	-1593
▁amendment	-1594
▁Government	-1595
line	-1596
▁Reg	-1597
▁Rep	-1598
▁amb	-1599
▁mar	-1600
ering	-1601
▁Hung	-1602
▁emph	-1603
▁cases	-1604
▁affect	-1605
▁assess	-1606
▁labour	-1607
▁states	-1608
▁members	-1609
▁appropri	-1610
▁Ar	-1611
fort	-1612
▁2020	-1613
ensive	-1614
▁found	-1615
▁extreme	-1616
▁recommend	-1617
ave	-1618
eng	-1619
erous	-1620
ulate	-1621
▁appl	-1622
▁docu	-1623
▁stud	-1624
▁costs	-1625
issions	-1626
▁aspect	-1627
▁concerning	-1628
ield	-1629
▁fle	-1630
▁urg	-1631
ances	-1632
aring	-1633
▁priv	-1634
▁trad	-1635
▁needed	-1636
▁provided	-1637
▁available	-1638
'.	-1639
FR	-1640
wh	-1641
ians	-1642
▁Gree	-1643
▁farm	-1644
▁fellow	-1645
▁monitor	-1646
stitution	-1647
▁majority	-1648
▁solution	-1649
▁solidarity	-1650
▁competition	-1651
ath	-1652
lig	-1653
ceed	-1654
▁bro	-1655
▁With	-1656
▁harm	-1657
▁jobs	-1658
▁lack	-1659
▁First	-1660
▁short	-1661
▁emphas	-1662
▁indeed	-1663
▁Finally	-1664
▁parties	-1665
▁systems	-1666
▁involved	-1667
▁potential	-1668
▁production	-1669
▁legislative	-1670
▁sustainable	-1671
urd	-1672
▁To	-1673
ania	-1674
orth	-1675
▁appe	-1676
▁cong	-1677
▁name	-1678
ministr	-1679
▁Russia	-1680
▁violence	-1681
▁following	-1682
▁regarding	-1683
ina	-1684
emoc	-1685
ling	-1686
▁ear	-1687
▁non	-1688
ights	-1689
▁build	-1690
▁quite	-1691
▁enough	-1692
▁compromise	-1693
mb	-1694
▁En	-1695
raph	-1696
▁Sch	-1697
▁tot	-1698
epend	-1699
esion	-1700
▁prof	-1701
▁simp	-1702
unately	-1703
▁mechan	-1704
▁initiative	-1705
▁innovation	-1706
ees	-1707
enda	-1708
most	-1709
▁Let	-1710
▁exc	-1711
▁sch	-1712
▁list	-1713
▁shall	-1714
iveness	-1715
▁criter	-1716
▁particip	-1717
▁consequences	-1718
igin	-1719
ived	-1720
▁yet	-1721
ining	-1722
▁seem	-1723
▁Afric	-1724
▁simply	-1725
▁values	-1726
▁congrat	-1727
▁request	-1728
▁projects	-1729
▁responsible	-1730
uel	-1731
ters	-1732
▁cut	-1733
▁sup	-1734
▁keep	-1735
▁peace	-1736
▁origin	-1737
▁things	-1738
▁continu	-1739
▁low	-1740
thing	-1741
▁Rights	-1742
imination	-1743
▁achieved	-1744
▁assistance	-1745
ense	-1746
over	-1747
▁Aff	-1748
▁dou	-1749
▁war	-1750
atory	-1751
round	-1752
▁road	-1753
▁vict	-1754
though	-1755
▁aware	-1756
ilities	-1757
▁months	-1758
▁points	-1759
▁Affairs	-1760
▁Develop	-1761
▁strateg	-1762
▁currently	-1763
▁highlight	-1764
▁objective	-1765
ake	-1766
ale	-1767
▁10	-1768
▁dr	-1769
haps	-1770
unic	-1771
▁ann	-1772
▁occ	-1773
ators	-1774
iting	-1775
▁expl	-1776
uclear	-1777
▁cross	-1778
▁Second	-1779
▁reasons	-1780
▁complete	-1781
▁cultural	-1782
▁certainly	-1783
▁population	-1784
▁6	-1785
for	-1786
angu	-1787
less	-1788
oung	-1789
side	-1790
▁adv	-1791
▁draw	-1792
▁rest	-1793
▁stat	-1794
▁sure	-1795
▁joint	-1796
▁local	-1797
▁oblig	-1798
▁sever	-1799
▁though	-1800
▁criteria	-1801
▁administr	-1802
▁education	-1803
▁government	-1804
equ	-1805
ides	-1806
▁mean	-1807
▁suff	-1808
▁Democ	-1809
▁living	-1810
▁extremely	-1811
fortunately	-1812
▁Development	-1813
key	-1814
▁ret	-1815
▁vol	-1816
eless	-1817
erman	-1818
stant	-1819
▁2008	-1820
▁hist	-1821
itting	-1822
▁young	-1823
▁disast	-1824
▁terror	-1825
▁threat	-1826
▁include	-1827
▁meeting	-1828
▁several	-1829
▁special	-1830
▁emissions	-1831
▁mentioned	-1832
▁questions	-1833
▁regulations	-1834
ck	-1835
til	-1836
rect	-1837
▁item	-1838
▁link	-1839
▁matters	-1840
▁consumer	-1841
▁external	-1842
ims	-1843
ody	-1844
ined	-1845
term	-1846
▁mob	-1847
▁conv	-1848
▁feel	-1849
▁true	-1850
▁broad	-1851
▁ident	-1852
▁Minutes	-1853
▁independ	-1854
▁encourage	-1855
▁priorities	-1856
aged	-1857
▁One	-1858
▁cru	-1859
▁fun	-1860
ittle	-1861
olute	-1862
vious	-1863
▁soon	-1864
▁wast	-1865
idence	-1866
▁equal	-1867
itarian	-1868
▁Turkey	-1869
▁nuclear	-1870
▁pleased	-1871
▁promote	-1872
▁priority	-1873
▁programm	-1874
000	-1875
ried	-1876
▁Bel	-1877
▁gas	-1878
▁net	-1879
anced	-1880
thers	-1881
▁kind	-1882
strict	-1883
▁langu	-1884
▁refer	-1885
▁share	-1886
▁times	-1887
▁value	-1888
ighbour	-1889
▁conclud	-1890
▁enterpr	-1891
▁funding	-1892
▁technolog	-1893
▁application	-1894
mber	-1895
onse	-1896
ying	-1897
ember	-1898
ateral	-1899
employ	-1900
▁field	-1901
ression	-1902
▁German	-1903
▁fisher	-1904
▁little	-1905
▁others	-1906
▁industr	-1907
▁absolute	-1908
▁response	-1909
▁instruments	-1910
erb	-1911
▁bl	-1912
▁il	-1913
atic	-1914
ator	-1915
▁But	-1916
beral	-1917
fully	-1918
▁Agree	-1919
▁illeg	-1920
▁agenda	-1921
▁reduce	-1922
▁actions	-1923
▁requirements	-1924
▁opportunities	-1925
IT	-1926
io	-1927
sp	-1928
yl	-1929
ars	-1930
ean	-1931
fer	-1932
new	-1933
ogy	-1934
pite	-1935
soci	-1936
▁eas	-1937
▁ele	-1938
ended	-1939
orrow	-1940
▁face	-1941
▁hard	-1942
▁mult	-1943
▁seen	-1944
▁above	-1945
▁demon	-1946
▁relig	-1947
▁longer	-1948
▁medium	-1949
▁changes	-1950
▁crucial	-1951
▁restrict	-1952
▁reduction	-1953
▁contribution	-1954
',	-1955
oid	-1956
rist	-1957
▁par	-1958
iency	-1959
encies	-1960
ension	-1961
▁discr	-1962
▁might	-1963
▁never	-1964
▁using	-1965
ilateral	-1966
▁demonstr	-1967
▁relevant	-1968
PL	-1969
▁Sp	-1970
▁US	-1971
hing	-1972
imum	-1973
outh	-1974
rats	-1975
ring	-1976
uary	-1977
▁Bal	-1978
▁jud	-1979
▁mak	-1980
▁sug	-1981
▁2010	-1982
▁Ital	-1983
▁flex	-1984
▁held	-1985
▁idea	-1986
ficial	-1987
reland	-1988
▁begin	-1989
isations	-1990
▁respond	-1991
▁cohesion	-1992
▁creation	-1993
▁previous	-1994
▁themselves	-1995
▁congratulate	-1996
oh	-1997
ned	-1998
uly	-1999
▁ve	-2000
cise	-2001
▁hon	-2002
▁tas	-2003
▁hold	-2004
iation	-2005
▁Ireland	-2006
▁billion	-2007
▁borders	-2008
▁contain	-2009
▁Secondly	-2010
▁document	-2011
▁elections	-2012
▁procedure	-2013
▁discussion	-2014
▁governance	-2015
pos	-2016
▁My	-2017
empt	-2018
just	-2019
oint	-2020
ylum	-2021
▁obs	-2022
▁crit	-2023
▁dist	-2024
▁week	-2025
itious	-2026
▁amount	-2027
▁aspects	-2028
▁perhaps	-2029
▁financing	-2030
▁increased	-2031
▁provisions	-2032
▁enterprises	-2033
EP	-2034
ES	-2035
ted	-2036
cell	-2037
nect	-2038
▁sens	-2039
▁Thank	-2040
▁final	-2041
▁Strate	-2042
▁entire	-2043
▁review	-2044
fficient	-2045
▁conflic	-2046
▁Minister	-2047
▁ensuring	-2048
▁relation	-2049
▁Agreement	-2050
▁procedures	-2051
▁programmes	-2052
▁8	-2053
ants	-2054
ends	-2055
reen	-2056
▁000	-2057
▁mis	-2058
▁sci	-2059
ticle	-2060
▁emer	-2061
▁fair	-2062
▁four	-2063
▁lear	-2064
▁post	-2065
▁thing	-2066
▁agreed	-2067
▁supply	-2068
▁foreign	-2069
▁benefits	-2070
▁maintain	-2071
▁ambitious	-2072
▁contribute	-2073
▁investment	-2074
▁International	-2075
▁7	-2076
une	-2077
▁Re	-2078
▁bo	-2079
▁Tra	-2080
▁ago	-2081
▁top	-2082
istan	-2083
▁Port	-2084
▁dang	-2085
▁decl	-2086
▁doub	-2087
▁stop	-2088
▁test	-2089
▁avoid	-2090
▁capac	-2091
▁gener	-2092
▁renew	-2093
▁waste	-2094
conomic	-2095
▁farmers	-2096
▁Republic	-2097
▁efficient	-2098
▁solutions	-2099
0%	-2100
oice	-2101
▁mom	-2102
ledge	-2103
▁When	-2104
▁term	-2105
▁asked	-2106
▁comes	-2107
▁indic	-2108
▁until	-2109
▁vital	-2110
▁voting	-2111
▁Strategy	-2112
▁communic	-2113
▁relating	-2114
▁Democrats	-2115
▁efficiency	-2116
▁strengthen	-2117
▁coordination	-2118
▁wr	-2119
ires	-2120
ender	-2121
order	-2122
▁line	-2123
▁tell	-2124
▁death	-2125
▁excell	-2126
▁harmon	-2127
▁carried	-2128
▁fishing	-2129
▁illegal	-2130
▁natural	-2131
▁obvious	-2132
▁outside	-2133
▁reality	-2134
▁reflect	-2135
▁regards	-2136
▁suggest	-2137
▁competit	-2138
▁neighbour	-2139
▁conclusion	-2140
▁appropriate	-2141
▁institution	-2142
▁organisations	-2143
kra	-2144
▁ty	-2145
rate	-2146
ffice	-2147
rench	-2148
▁calls	-2149
▁heard	-2150
▁makes	-2151
theless	-2152
▁Portug	-2153
▁enable	-2154
▁moment	-2155
▁territ	-2156
▁reached	-2157
▁function	-2158
▁businesses	-2159
▁monitoring	-2160
▁effectively	-2161
▁humanitarian	-2162
▁Li	-2163
▁Med	-2164
▁Our	-2165
▁dom	-2166
▁dut	-2167
▁six	-2168
▁Cent	-2169
▁Ukra	-2170
▁mess	-2171
▁China	-2172
▁doing	-2173
▁penal	-2174
▁seems	-2175
▁Africa	-2176
▁answer	-2177
▁associ	-2178
▁combat	-2179
▁except	-2180
iversity	-2181
▁correct	-2182
▁traffic	-2183
▁victims	-2184
▁everyone	-2185
▁existing	-2186
▁ourselves	-2187
▁providing	-2188
▁stability	-2189
▁immigration	-2190
ool	-2191
aced	-2192
▁MEP	-2193
▁Man	-2194
▁loo	-2195
erial	-2196
istic	-2197
ively	-2198
▁East	-2199
▁Just	-2200
▁fall	-2201
▁land	-2202
▁pres	-2203
▁model	-2204
▁detail	-2205
▁travel	-2206
▁undert	-2207
▁benefit	-2208
▁consult	-2209
▁private	-2210
▁service	-2211
▁adoption	-2212
▁required	-2213
▁Hungarian	-2214
▁committee	-2215
▁instrument	-2216
▁agriculture	-2217
▁parliamentary	-2218
▁discrimination	-2219
acy	-2220
ief	-2221
▁Fr	-2222
▁UN	-2223
more	-2224
▁Mon	-2225
▁Slo	-2226
▁big	-2227
▁tom	-2228
iance	-2229
▁More	-2230
▁mind	-2231
▁carry	-2232
▁grant	-2233
▁quick	-2234
aration	-2235
▁French	-2236
▁across	-2237
▁called	-2238
▁levels	-2239
▁namely	-2240
▁powers	-2241
▁saying	-2242
▁superv	-2243
▁Further	-2244
▁reports	-2245
▁practice	-2246
▁Convention	-2247
),	-2248
az	-2249
ti	-2250
alu	-2251
edi	-2252
▁Sw	-2253
eric	-2254
ided	-2255
▁talk	-2256
border	-2257
ctions	-2258
ograph	-2259
▁along	-2260
▁Greece	-2261
▁Social	-2262
▁asylum	-2263
▁prices	-2264
▁thanks	-2265
▁effects	-2266
▁patient	-2267
▁sitting	-2268
▁capacity	-2269
▁tomorrow	-2270
▁technical	-2271
ote	-2272
ized	-2273
▁And	-2274
▁flo	-2275
▁red	-2276
estic	-2277
▁huge	-2278
▁live	-2279
▁past	-2280
rought	-2281
▁basic	-2282
▁leave	-2283
▁around	-2284
▁author	-2285
▁credit	-2286
▁reject	-2287
▁Article	-2288
▁Romania	-2289
▁consist	-2290
▁nothing	-2291
▁talking	-2292
▁Internet	-2293
▁excellent	-2294
▁supporting	-2295
▁integration	-2296
cr	-2297
la	-2298
reh	-2299
▁He	-2300
duct	-2301
▁men	-2302
▁she	-2303
▁tab	-2304
ither	-2305
itten	-2306
rated	-2307
▁anal	-2308
▁anim	-2309
▁mand	-2310
▁subs	-2311
▁took	-2312
▁tool	-2313
▁deter	-2314
▁water	-2315
▁Americ	-2316
▁community	-2317
▁supported	-2318
▁absolutely	-2319
▁colleagues	-2320
▁throughout	-2321
).	-2322
reg	-2323
▁er	-2324
fact	-2325
▁mut	-2326
▁2007	-2327
▁Serb	-2328
▁oppos	-2329
ourable	-2330
▁border	-2331
▁motion	-2332
▁raised	-2333
▁return	-2334
▁leaders	-2335
▁liberal	-2336
▁referen	-2337
▁achieving	-2338
▁combating	-2339
▁strategic	-2340
▁additional	-2341
▁experience	-2342
▁Furthermore	-2343
▁implemented	-2344
▁possibility	-2345
▁administrative	-2346
200	-2347
▁12	-2348
▁14	-2349
dict	-2350
isms	-2351
vere	-2352
▁Ind	-2353
▁arg	-2354
▁MEPs	-2355
▁Roma	-2356
▁turn	-2357
▁closed	-2358
▁depend	-2359
▁exchan	-2360
▁immedi	-2361
▁summit	-2362
▁company	-2363
▁culture	-2364
▁reforms	-2365
▁reducing	-2366
▁accession	-2367
▁according	-2368
▁technologies	-2369
EC	-2370
by	-2371
aff	-2372
apt	-2373
ulg	-2374
Euro	-2375
ison	-2376
unch	-2377
▁blo	-2378
▁cir	-2379
▁dam	-2380
▁him	-2381
▁sel	-2382
ished	-2383
overy	-2384
▁2011	-2385
▁June	-2386
▁dire	-2387
▁firm	-2388
▁unac	-2389
mitted	-2390
▁aimed	-2391
▁infra	-2392
▁total	-2393
▁speech	-2394
▁Firstly	-2395
▁balance	-2396
▁measure	-2397
▁message	-2398
▁movement	-2399
▁pressure	-2400
▁completely	-2401
▁infrastruct	-2402
▁initiatives	-2403
▁partnership	-2404
NL	-2405
▁z	-2406
201	-2407
ock	-2408
pid	-2409
▁11	-2410
▁pa	-2411
sels	-2412
udit	-2413
uine	-2414
▁met	-2415
inary	-2416
▁Bank	-2417
▁circ	-2418
▁clos	-2419
▁poor	-2420
▁self	-2421
▁thus	-2422
igrant	-2423
ranean	-2424
▁Barro	-2425
▁Human	-2426
▁South	-2427
▁goods	-2428
▁limit	-2429
▁medic	-2430
lusions	-2431
stances	-2432
▁export	-2433
resident	-2434
▁Ukraine	-2435
▁conduct	-2436
▁sources	-2437
▁targets	-2438
▁prepared	-2439
▁unemploy	-2440
iterranean	-2441
▁knowledge	-2442
▁competitiveness	-2443
ME	-2444
ler	-2445
▁fr	-2446
call	-2447
hold	-2448
▁Sea	-2449
▁Wor	-2450
▁cam	-2451
ially	-2452
sized	-2453
▁disp	-2454
▁five	-2455
▁left	-2456
▁rule	-2457
Europe	-2458
Office	-2459
ogical	-2460
▁price	-2461
▁family	-2462
▁nature	-2463
▁remind	-2464
▁scient	-2465
ceptable	-2466
▁applied	-2467
▁connect	-2468
▁coordin	-2469
▁facilit	-2470
▁quickly	-2471
▁received	-2472
▁fisheries	-2473
▁presented	-2474
▁statement	-2475
▁treatment	-2476
▁assessment	-2477
▁conclusions	-2478
▁governments	-2479
su	-2480
▁9	-2481
▁Ad	-2482
▁Or	-2483
▁ge	-2484
▁wa	-2485
sman	-2486
▁May	-2487
▁lot	-2488
▁oil	-2489
▁old	-2490
iable	-2491
▁Bulg	-2492
▁Fore	-2493
▁Vice	-2494
▁char	-2495
▁deep	-2496
▁weak	-2497
▁milit	-2498
ristian	-2499
▁almost	-2500
▁behind	-2501
▁coming	-2502
▁regret	-2503
▁brought	-2504
▁capital	-2505
▁minimum	-2506
▁agencies	-2507
▁recently	-2508
▁budgetary	-2509
▁committed	-2510
▁sufficient	-2511
▁representatives	-2512
dum	-2513
lus	-2514
omp	-2515
▁Ge	-2516
▁Pe	-2517
▁Tr	-2518
hood	-2519
▁Can	-2520
▁Jan	-2521
▁Sec	-2522
ource	-2523
▁else	-2524
▁head	-2525
▁rein	-2526
▁repe	-2527
▁rise	-2528
▁task	-2529
inking	-2530
▁Party	-2531
▁evalu	-2532
▁trust	-2533
▁attack	-2534
▁happen	-2535
▁Justice	-2536
▁defence	-2537
▁instead	-2538
▁leading	-2539
▁included	-2540
stitutional	-2541
▁mechanisms	-2542
▁unacceptable	-2543
▁recommendations	-2544
ude	-2545
▁15	-2546
▁27	-2547
ands	-2548
aria	-2549
atis	-2550
ilar	-2551
uted	-2552
▁Now	-2553
▁bar	-2554
▁del	-2555
▁eng	-2556
▁ver	-2557
▁away	-2558
▁half	-2559
iminal	-2560
▁deleg	-2561
▁ground	-2562
▁subsid	-2563
▁urgent	-2564
▁Central	-2565
▁constit	-2566
▁although	-2567
▁recovery	-2568
▁requires	-2569
▁direction	-2570
▁expressed	-2571
▁terrorism	-2572
▁introduction	-2573
▁participation	-2574
▁strengthening	-2575
▁infrastructure	-2576
The	-2577
▁CO	-2578
▁Cz	-2579
▁No	-2580
▁sk	-2581
arus	-2582
▁age	-2583
▁cla	-2584
▁opt	-2585
force	-2586
ional	-2587
▁Prog	-2588
▁burd	-2589
▁fuel	-2590
▁goes	-2591
▁guid	-2592
▁meth	-2593
▁poll	-2594
▁tack	-2595
▁visa	-2596
▁alone	-2597
▁explo	-2598
▁famil	-2599
▁goals	-2600
▁media	-2601
▁offer	-2602
▁react	-2603
pective	-2604
▁France	-2605
▁convin	-2606
▁design	-2607
▁highly	-2608
▁produc	-2609
▁Belarus	-2610
▁allowed	-2611
▁decided	-2612
▁remains	-2613
▁creating	-2614
▁includes	-2615
▁language	-2616
▁material	-2617
▁official	-2618
▁colleague	-2619
▁industrial	-2620
▁discussions	-2621
TO	-2622
ton	-2623
▁Ne	-2624
erts	-2625
head	-2626
▁Cro	-2627
▁dev	-2628
▁mor	-2629
▁tro	-2630
engen	-2631
▁2006	-2632
▁fulf	-2633
isters	-2634
▁Czech	-2635
▁influ	-2636
▁party	-2637
▁simpl	-2638
entions	-2639
▁analys	-2640
▁caused	-2641
▁extent	-2642
▁method	-2643
▁tabled	-2644
▁Nations	-2645
▁calling	-2646
▁closely	-2647
▁collect	-2648
▁counter	-2649
▁justice	-2650
ibilities	-2651
▁military	-2652
▁training	-2653
▁transfer	-2654
▁bilateral	-2655
▁dangerous	-2656
▁developed	-2657
▁improving	-2658
▁minorities	-2659
▁structural	-2660
af	-2661
br	-2662
rup	-2663
▁Le	-2664
agen	-2665
aper	-2666
▁SME	-2667
▁aut	-2668
▁awa	-2669
▁bad	-2670
▁dim	-2671
▁vul	-2672
etary	-2673
▁Dece	-2674
▁Many	-2675
▁dise	-2676
▁ever	-2677
▁prob	-2678
▁qual	-2679
▁repl	-2680
▁upon	-2681
▁Trade	-2682
▁becom	-2683
▁light	-2684
▁sense	-2685
▁Serbia	-2686
▁circum	-2687
▁decide	-2688
▁events	-2689
▁gender	-2690
▁giving	-2691
▁vulner	-2692
ervation	-2693
▁Barroso	-2694
▁despite	-2695
▁involve	-2696
President	-2697
▁December	-2698
▁exchange	-2699
▁patients	-2700
▁Europeans	-2701
▁challenge	-2702
▁referendum	-2703
▁technology	-2704
▁established	-2705
▁difficulties	-2706
▁Mediterranean	-2707
RO	-2708
of	-2709
ya	-2710
cal	-2711
▁25	-2712
▁Ex	-2713
body	-2714
open	-2715
pose	-2716
rael	-2717
ught	-2718
▁days	-2719
▁hear	-2720
called	-2721
▁Croat	-2722
▁cause	-2723
▁rural	-2724
▁shows	-2725
▁steps	-2726
▁takes	-2727
▁thous	-2728
nership	-2729
▁Israel	-2730
▁facing	-2731
▁interp	-2732
▁member	-2733
▁school	-2734
▁Foreign	-2735
▁central	-2736
▁compreh	-2737
▁distrib	-2738
▁growing	-2739
▁Schengen	-2740
▁activity	-2741
▁affected	-2742
▁conclude	-2743
▁emphasise	-2744
▁practices	-2745
▁integrated	-2746
▁statements	-2747
▁successful	-2748
▁Partnership	-2749
▁relationship	-2750
to	-2751
yn	-2752
hic	-2753
org	-2754
por	-2755
sec	-2756
ubl	-2757
▁13	-2758
▁Do	-2759
▁ir	-2760
ange	-2761
oday	-2762
rete	-2763
tion	-2764
used	-2765
▁bod	-2766
▁bre	-2767
▁enh	-2768
▁rad	-2769
▁run	-2770
▁sep	-2771
anish	-2772
hagen	-2773
works	-2774
▁abol	-2775
▁aims	-2776
▁anti	-2777
▁deli	-2778
▁easy	-2779
▁loss	-2780
▁oral	-2781
▁Copen	-2782
▁Never	-2783
▁Today	-2784
▁adapt	-2785
▁ahead	-2786
▁early	-2787
▁entry	-2788
▁satis	-2789
▁stage	-2790
▁worth	-2791
imately	-2792
itional	-2793
▁People	-2794
▁bodies	-2795
▁excess	-2796
▁obtain	-2797
▁regime	-2798
▁welcom	-2799
▁January	-2800
▁attempt	-2801
▁concept	-2802
▁explain	-2803
▁history	-2804
▁proceed	-2805
▁sectors	-2806
▁trading	-2807
struction	-2808
▁negative	-2809
▁properly	-2810
▁substant	-2811
▁construct	-2812
▁Copenhagen	-2813
▁discussing	-2814
▁everything	-2815
▁competitive	-2816
▁differences	-2817
▁Nevertheless	-2818
▁unemployment	-2819
▁communication	-2820
▁unfortunately	-2821
PT	-2822
ger	-2823
ovo	-2824
▁Br	-2825
▁Pr	-2826
▁Kos	-2827
▁Lib	-2828
▁cat	-2829
▁lar	-2830
▁yes	-2831
aries	-2832
bourg	-2833
where	-2834
▁Brit	-2835
▁Swed	-2836
▁bind	-2837
▁exer	-2838
▁quot	-2839
▁rail	-2840
action	-2841
▁Amend	-2842
▁Audit	-2843
▁Italy	-2844
▁fraud	-2845
▁parts	-2846
▁rapid	-2847
▁vehic	-2848
▁volun	-2849
▁wrong	-2850
▁active	-2851
▁defend	-2852
▁mutual	-2853
▁Germany	-2854
▁genuine	-2855
▁passeng	-2856
▁rightly	-2857
▁Economic	-2858
▁Moreover	-2859
▁balanced	-2860
▁convinced	-2861
▁economies	-2862
▁practical	-2863
▁promoting	-2864
▁provision	-2865
▁religious	-2866
▁renewable	-2867
▁Regulation	-2868
▁increasingly	-2869
▁comprehensive	-2870
▁consideration	-2871
App	-2872
ash	-2873
▁ec	-2874
Appl	-2875
ills	-2876
ties	-2877
▁Acc	-2878
▁Sum	-2879
andid	-2880
ensus	-2881
itude	-2882
lines	-2883
▁Iran	-2884
▁Turk	-2885
▁argu	-2886
▁spir	-2887
elines	-2888
▁doubt	-2889
▁green	-2890
▁lives	-2891
▁scope	-2892
▁shown	-2893
▁weeks	-2894
▁candid	-2895
▁forget	-2896
Applause	-2897
European	-2898
▁ability	-2899
▁looking	-2900
▁mandate	-2901
▁purpose	-2902
▁Auditors	-2903
▁concrete	-2904
▁conflict	-2905
▁intended	-2906
▁mobility	-2907
▁probably	-2908
▁strongly	-2909
▁scientific	-2910
go	-2911
jo	-2912
app	-2913
ria	-2914
uses	-2915
wise	-2916
▁fre	-2917
▁gra	-2918
▁mil	-2919
▁duty	-2920
▁home	-2921
▁join	-2922
▁rate	-2923
▁send	-2924
▁sent	-2925
idents	-2926
istics	-2927
▁recon	-2928
▁views	-2929
▁whose	-2930
igrants	-2931
▁Kosovo	-2932
▁Summit	-2933
▁desire	-2934
▁police	-2935
▁secure	-2936
▁binding	-2937
▁confirm	-2938
▁contact	-2939
▁finally	-2940
▁precise	-2941
▁setting	-2942
▁similar	-2943
▁Agricult	-2944
▁Alliance	-2945
▁comments	-2946
▁freedoms	-2947
▁dimension	-2948
▁discussed	-2949
▁mechanism	-2950
▁reference	-2951
▁implementing	-2952
▁specifically	-2953
Ch	-2954
sk	-2955
egu	-2956
gra	-2957
▁EC	-2958
know	-2959
urea	-2960
yond	-2961
▁How	-2962
▁Res	-2963
▁cho	-2964
▁cod	-2965
▁den	-2966
▁fri	-2967
▁ign	-2968
▁san	-2969
▁suc	-2970
enary	-2971
itime	-2972
▁Last	-2973
▁cust	-2974
▁dest	-2975
▁safe	-2976
▁ship	-2977
▁Trans	-2978
▁added	-2979
▁alloc	-2980
▁banks	-2981
▁table	-2982
▁voice	-2983
▁causes	-2984
▁failed	-2985
▁higher	-2986
▁launch	-2987
▁linked	-2988
▁record	-2989
▁safegu	-2990
▁wanted	-2991
▁citizen	-2992
▁perform	-2993
▁reading	-2994
▁session	-2995
▁succeed	-2996
▁Bulgaria	-2997
▁Portugal	-2998
▁equality	-2999
▁improved	-3000
▁provides	-3001
▁remember	-3002
▁consensus	-3003
▁interpret	-3004
▁introduce	-3005
▁recognise	-3006
▁sensitive	-3007
▁thousands	-3008
▁accordance	-3009
▁considered	-3010
▁represents	-3011
▁vulnerable	-3012
▁supervision	-3013
▁Unfortunately	-3014
uit	-3015
▁Bl	-3016
▁ce	-3017
iver	-3018
resp	-3019
▁eth	-3020
▁lat	-3021
▁ord	-3022
▁try	-3023
ronic	-3024
▁SMEs	-3025
▁Some	-3026
▁chec	-3027
▁gain	-3028
▁goal	-3029
▁note	-3030
ercial	-3031
▁Georg	-3032
▁crime	-3033
▁enabl	-3034
▁forms	-3035
▁poore	-3036
▁raise	-3037
▁sport	-3038
▁Action	-3039
▁critic	-3040
▁damage	-3041
▁forces	-3042
▁histor	-3043
▁modern	-3044
▁Spanish	-3045
▁concent	-3046
▁content	-3047
▁created	-3048
▁finance	-3049
▁firstly	-3050
▁plenary	-3051
▁propose	-3052
▁criminal	-3053
▁greatest	-3054
▁beginning	-3055
▁producers	-3056
▁guidelines	-3057
▁consumption	-3058
▁establishing	-3059
ex	-3060
ob	-3061
ush	-3062
▁ey	-3063
▁fl	-3064
ival	-3065
ored	-3066
▁cle	-3067
▁led	-3068
arter	-3069
spect	-3070
▁2013	-3071
▁Brus	-3072
▁bear	-3073
▁side	-3074
▁type	-3075
charge	-3076
itable	-3077
▁adequ	-3078
▁faced	-3079
▁later	-3080
▁legit	-3081
▁plans	-3082
▁pursu	-3083
▁study	-3084
mission	-3085
▁Market	-3086
▁animal	-3087
▁beyond	-3088
▁burden	-3089
▁cooper	-3090
▁determ	-3091
▁manner	-3092
▁spirit	-3093
ulations	-3094
▁Croatia	-3095
▁coheren	-3096
▁comment	-3097
▁debates	-3098
▁limited	-3099
▁network	-3100
▁overall	-3101
▁proport	-3102
▁receive	-3103
▁speaker	-3104
▁Although	-3105
▁Brussels	-3106
▁building	-3107
▁constant	-3108
▁directly	-3109
▁disaster	-3110
▁domestic	-3111
▁investig	-3112
▁personal	-3113
▁addressed	-3114
▁obviously	-3115
▁connection	-3116
▁prevention	-3117
▁profession	-3118
▁recognised	-3119
▁situations	-3120
▁commitments	-3121
▁perspective	-3122
▁rapporteurs	-3123
ban	-3124
ets	-3125
pay	-3126
vak	-3127
▁Be	-3128
▁sy	-3129
▁ut	-3130
apan	-3131
ream	-3132
▁199	-3133
arily	-3134
riers	-3135
ufact	-3136
▁fast	-3137
▁heav	-3138
▁mass	-3139
▁milk	-3140
▁mist	-3141
▁norm	-3142
▁publ	-3143
estern	-3144
liance	-3145
urally	-3146
▁Libya	-3147
▁North	-3148
▁brief	-3149
▁compl	-3150
akistan	-3151
▁advant	-3152
▁condem	-3153
▁interv	-3154
▁signal	-3155
▁source	-3156
▁worked	-3157
▁Protect	-3158
▁Turkish	-3159
▁complex	-3160
▁produce	-3161
▁regular	-3162
▁related	-3163
▁elements	-3164
▁manufact	-3165
▁discharge	-3166
▁conference	-3167
▁continuing	-3168
▁opposition	-3169
▁independent	-3170
▁obligations	-3171
HU	-3172
PE	-3173
ps	-3174
idd	-3175
lom	-3176
rel	-3177
▁18	-3178
▁By	-3179
▁Ir	-3180
▁Of	-3181
mbud	-3182
reci	-3183
semb	-3184
xual	-3185
▁nor	-3186
aving	-3187
erves	-3188
lying	-3189
▁Cons	-3190
▁Even	-3191
▁obst	-3192
▁seek	-3193
▁summ	-3194
▁warm	-3195
▁wide	-3196
elling	-3197
▁2009.	-3198
▁Liber	-3199
▁Prime	-3200
▁assum	-3201
▁cover	-3202
▁exact	-3203
▁incor	-3204
▁separ	-3205
▁wants	-3206
illions	-3207
▁Ladies	-3208
▁Slovak	-3209
▁compar	-3210
▁presid	-3211
▁refuge	-3212
▁strict	-3213
▁taxpay	-3214
▁Hungary	-3215
▁dealing	-3216
▁helping	-3217
▁opening	-3218
▁reduced	-3219
▁contains	-3220
▁families	-3221
▁followed	-3222
▁happened	-3223
▁territor	-3224
▁Amendment	-3225
▁materials	-3226
▁migration	-3227
▁operation	-3228
▁commercial	-3229
▁improvement	-3230
▁resolutions	-3231
▁constructive	-3232
▁independence	-3233
▁circumstances	-3234
▁establishment	-3235
0.	-3236
fe	-3237
oke	-3238
oms	-3239
pro	-3240
▁UK	-3241
adow	-3242
olid	-3243
rest	-3244
▁fis	-3245
▁ten	-3246
▁via	-3247
amber	-3248
illed	-3249
▁Balk	-3250
▁acts	-3251
▁clar	-3252
▁enjo	-3253
▁path	-3254
▁pill	-3255
▁prim	-3256
▁spec	-3257
ifying	-3258
making	-3259
ritten	-3260
▁After	-3261
▁Greek	-3262
▁extra	-3263
▁floor	-3264
▁gives	-3265
▁heart	-3266
▁ready	-3267
▁schem	-3268
▁sides	-3269
▁Agency	-3270
▁Budget	-3271
▁Poland	-3272
▁altern	-3273
▁crimes	-3274
▁explan	-3275
▁mainly	-3276
▁status	-3277
▁applies	-3278
▁appreci	-3279
▁putting	-3280
▁totally	-3281
▁Pakistan	-3282
▁anything	-3283
▁expected	-3284
▁experien	-3285
▁networks	-3286
▁planning	-3287
▁speaking	-3288
▁disasters	-3289
▁diversity	-3290
▁positions	-3291
▁associated	-3292
▁compliance	-3293
▁expression	-3294
▁interested	-3295
▁Agriculture	-3296
▁flexibility	-3297
▁restrictions	-3298
▁globalisation	-3299
▁institutional	-3300
..	-3301
ah	-3302
be	-3303
ev	-3304
ik	-3305
...	-3306
fin	-3307
tro	-3308
urs	-3309
▁Ob	-3310
crib	-3311
erve	-3312
lant	-3313
onia	-3314
ours	-3315
ront	-3316
ured	-3317
▁Why	-3318
▁dip	-3319
▁ill	-3320
endit	-3321
paign	-3322
vered	-3323
▁Aust	-3324
▁Inde	-3325
▁Sept	-3326
▁Serv	-3327
▁fear	-3328
▁port	-3329
▁ways	-3330
▁whom	-3331
etimes	-3332
sembly	-3333
▁Ombud	-3334
▁Organ	-3335
▁risks	-3336
▁diplom	-3337
▁either	-3338
▁firmly	-3339
▁fulfil	-3340
▁rating	-3341
▁stated	-3342
▁useful	-3343
▁partner	-3344
▁payment	-3345
▁Security	-3346
▁campaign	-3347
▁contract	-3348
▁election	-3349
▁instance	-3350
▁maritime	-3351
▁produced	-3352
▁standard	-3353
▁thinking	-3354
▁Ombudsman	-3355
▁September	-3356
▁continues	-3357
▁medicines	-3358
▁suffering	-3359
▁Protection	-3360
▁confidence	-3361
▁passengers	-3362
▁communities	-3363
▁considerable	-3364
car	-3365
dom	-3366
els	-3367
ift	-3368
nes	-3369
ury	-3370
val	-3371
▁30	-3372
▁gr	-3373
anim	-3374
▁Ash	-3375
▁Des	-3376
▁Gaz	-3377
▁PPE	-3378
▁fig	-3379
▁inh	-3380
▁unf	-3381
▁won	-3382
osing	-3383
range	-3384
▁came	-3385
▁date	-3386
▁dead	-3387
▁earl	-3388
▁tele	-3389
active	-3390
eneral	-3391
undred	-3392
▁Japan	-3393
▁Rules	-3394
▁Since	-3395
▁Stras	-3396
▁World	-3397
▁adver	-3398
▁emerg	-3399
▁happy	-3400
▁surpr	-3401
lighted	-3402
▁appeal	-3403
▁margin	-3404
▁tackle	-3405
▁trying	-3406
▁budgets	-3407
▁covered	-3408
▁largest	-3409
▁managed	-3410
▁penalty	-3411
▁persons	-3412
▁resolve	-3413
ilisation	-3414
▁starting	-3415
▁Represent	-3416
▁delighted	-3417
▁precisely	-3418
▁Strasbourg	-3419
▁definition	-3420
▁honourable	-3421
▁innovative	-3422
▁proportion	-3423
▁functioning	-3424
▁investments	-3425
▁negotiating	-3426
▁recognition	-3427
▁organisation	-3428
AP	-3429
CS	-3430
EL	-3431
ai	-3432
mp	-3433
oph	-3434
una	-3435
▁Co	-3436
-201	-3437
care	-3438
cast	-3439
gypt	-3440
▁Fra	-3441
▁Par	-3442
▁arr	-3443
acter	-3444
itial	-3445
ously	-3446
▁July	-3447
▁coll	-3448
▁prot	-3449
▁thor	-3450
lantic	-3451
lusive	-3452
▁Egypt	-3453
▁Irish	-3454
▁learn	-3455
▁spent	-3456
▁staff	-3457
▁works	-3458
ovember	-3459
ruption	-3460
▁Accord	-3461
▁Indeed	-3462
▁Polish	-3463
▁Proced	-3464
▁annual	-3465
▁fiscal	-3466
▁income	-3467
▁obstac	-3468
▁office	-3469
▁signed	-3470
▁unanim	-3471
▁volunt	-3472
justment	-3473
▁Program	-3474
▁Western	-3475
▁elected	-3476
▁element	-3477
▁failure	-3478
▁hundred	-3479
▁imports	-3480
▁initial	-3481
▁pension	-3482
▁analysis	-3483
▁geograph	-3484
▁learning	-3485
▁numerous	-3486
▁referred	-3487
▁thorough	-3488
▁urgently	-3489
▁condition	-3490
▁exclusion	-3491
▁immediate	-3492
▁seriously	-3493
▁consistent	-3494
▁electronic	-3495
▁guarantees	-3496
▁structures	-3497
▁violations	-3498
▁trafficking	-3499
▁transparent	-3500
▁distribution	-3501
▁professional	-3502
▁liberalisation	-3503
DP	-3504
ma	-3505
dra	-3506
icy	-3507
tle	-3508
▁1.	-3509
▁17	-3510
▁Cy	-3511
▁Gu	-3512
arks	-3513
▁Com	-3514
▁emb	-3515
▁enl	-3516
▁ult	-3517
▁drug	-3518
▁flow	-3519
▁jour	-3520
▁remo	-3521
agraph	-3522
▁2008.	-3523
▁defic	-3524
▁drawn	-3525
▁enorm	-3526
▁equip	-3527
▁fruit	-3528
▁inequ	-3529
▁tests	-3530
itation	-3531
vereign	-3532
▁Single	-3533
▁acknow	-3534
▁chance	-3535
▁contra	-3536
▁conver	-3537
▁elimin	-3538
▁extend	-3539
▁former	-3540
▁sexual	-3541
▁shadow	-3542
▁treaty	-3543
▁airport	-3544
▁arrange	-3545
▁realise	-3546
▁willing	-3547
Christian	-3548
▁November	-3549
▁accounts	-3550
▁bringing	-3551
▁consolid	-3552
▁designed	-3553
▁exercise	-3554
▁minority	-3555
▁vehicles	-3556
▁According	-3557
▁Programme	-3558
▁continued	-3559
▁involving	-3560
▁safeguard	-3561
▁directives	-3562
▁leadership	-3563
▁reasonable	-3564
▁regulatory	-3565
▁substantial	-3566
▁construction	-3567
▁significantly	-3568
aj	-3569
gn	-3570
ira	-3571
ize	-3572
pol	-3573
ugg	-3574
▁50	-3575
▁Fe	-3576
▁hy	-3577
ades	-3578
ghan	-3579
orse	-3580
vest	-3581
▁Bur	-3582
▁arm	-3583
pping	-3584
▁Kore	-3585
▁Rule	-3586
▁body	-3587
▁exec	-3588
▁laid	-3589
▁late	-3590
▁near	-3591
▁news	-3592
▁paid	-3593
▁told	-3594
▁tour	-3595
ourage	-3596
terday	-3597
▁Black	-3598
▁March	-3599
▁Spain	-3600
▁burea	-3601
▁dealt	-3602
▁delay	-3603
▁event	-3604
▁judic	-3605
▁plant	-3606
▁visas	-3607
actions	-3608
ossible	-3609
▁Ashton	-3610
▁Policy	-3611
▁asking	-3612
▁carbon	-3613
▁forest	-3614
▁incent	-3615
▁insist	-3616
▁saving	-3617
▁spread	-3618
▁stable	-3619
atically	-3620
entially	-3621
standing	-3622
▁Chamber	-3623
▁Despite	-3624
▁Eastern	-3625
▁Georgia	-3626
▁Italian	-3627
▁Swedish	-3628
▁Written	-3629
▁condemn	-3630
▁demands	-3631
▁earlier	-3632
▁exactly	-3633
▁happens	-3634
▁mission	-3635
▁Monetary	-3636
▁approved	-3637
▁barriers	-3638
▁complain	-3639
▁critical	-3640
▁examples	-3641
▁informed	-3642
▁overcome	-3643
▁revision	-3644
▁advantage	-3645
▁employees	-3646
▁excessive	-3647
▁happening	-3648
▁inclusion	-3649
▁labelling	-3650
▁languages	-3651
▁organised	-3652
▁processes	-3653
▁promotion	-3654
▁sanctions	-3655
▁sovereign	-3656
▁submitted	-3657
▁territory	-3658
▁collective	-3659
▁industries	-3660
▁statistics	-3661
▁requirement	-3662
▁consultation	-3663
▁transactions	-3664
▁sustainability	-3665
ze	-3666
ATO	-3667
ape	-3668
set	-3669
▁21	-3670
▁AC	-3671
▁bi	-3672
▁sw	-3673
aken	-3674
amic	-3675
ober	-3676
▁100	-3677
▁Mar	-3678
▁Sol	-3679
▁art	-3680
▁deg	-3681
▁sal	-3682
▁2012	-3683
▁Such	-3684
▁acqu	-3685
▁debt	-3686
▁laws	-3687
coming	-3688
ulated	-3689
▁2009,	-3690
▁Every	-3691
▁enjoy	-3692
▁occur	-3693
▁rates	-3694
▁speed	-3695
▁spoke	-3696
▁stake	-3697
▁truly	-3698
▁union	-3699
▁visit	-3700
▁votes	-3701
▁Afghan	-3702
▁Baltic	-3703
▁Energy	-3704
▁announ	-3705
▁crises	-3706
▁secret	-3707
▁skills	-3708
▁Environ	-3709
▁attract	-3710
▁bureauc	-3711
▁enforce	-3712
▁equally	-3713
▁imposed	-3714
▁planned	-3715
▁propert	-3716
▁univers	-3717
▁becoming	-3718
▁diseases	-3719
▁fighting	-3720
▁flexible	-3721
▁incorpor	-3722
▁ordinary	-3723
▁rejected	-3724
▁supports	-3725
▁Procedure	-3726
▁structure	-3727
▁taxpayers	-3728
▁facilitate	-3729
▁impossible	-3730
▁introduced	-3731
▁strategies	-3732
▁effectiveness	-3733
▁Representative	-3734
TA	-3735
cl	-3736
rs	-3737
sc	-3738
▁Ms	-3739
▁gl	-3740
▁pi	-3741
ibly	-3742
ping	-3743
▁Coh	-3744
▁log	-3745
▁mer	-3746
▁raw	-3747
▁wat	-3748
alest	-3749
iddle	-3750
lands	-3751
uting	-3752
▁Belg	-3753
▁Cong	-3754
▁Gaza	-3755
▁King	-3756
▁NATO	-3757
▁feed	-3758
▁gone	-3759
▁lies	-3760
▁ones	-3761
▁phen	-3762
▁plac	-3763
▁sort	-3764
▁zone	-3765
reness	-3766
▁Third	-3767
▁estim	-3768
▁gradu	-3769
▁known	-3770
▁occas	-3771
▁occup	-3772
▁ought	-3773
▁prior	-3774
▁reven	-3775
▁serve	-3776
▁solve	-3777
▁tools	-3778
▁topic	-3779
▁truth	-3780
quality	-3781
▁choice	-3782
▁clause	-3783
▁engage	-3784
▁myself	-3785
▁satisf	-3786
etitions	-3787
▁Charter	-3788
▁appears	-3789
▁endorse	-3790
▁largely	-3791
▁threats	-3792
▁withdra	-3793
▁definite	-3794
▁enormous	-3795
▁phenomen	-3796
▁politics	-3797
▁property	-3798
▁religion	-3799
▁Framework	-3800
▁Socialist	-3801
▁awareness	-3802
▁documents	-3803
▁protected	-3804
▁alternative	-3805
▁encouraging	-3806
▁ratification	-3807
▁harmonisation	-3808
EA	-3809
enn	-3810
nal	-3811
oot	-3812
ops	-3813
uck	-3814
▁16	-3815
bate	-3816
eter	-3817
ilst	-3818
reas	-3819
wide	-3820
▁Est	-3821
▁fem	-3822
▁mac	-3823
▁ton	-3824
aging	-3825
based	-3826
erity	-3827
going	-3828
trary	-3829
urely	-3830
▁mere	-3831
▁miss	-3832
▁phys	-3833
▁sell	-3834
▁spok	-3835
bruary	-3836
govern	-3837
▁2010,	-3838
▁Those	-3839
▁Women	-3840
▁earth	-3841
▁frequ	-3842
▁grate	-3843
▁ideas	-3844
▁prosp	-3845
▁reply	-3846
▁scale	-3847
▁seven	-3848
▁space	-3849
alities	-3850
▁afford	-3851
▁forced	-3852
▁limits	-3853
▁option	-3854
▁passed	-3855
▁perman	-3856
▁played	-3857
▁prison	-3858
▁unable	-3859
▁vision	-3860
▁British	-3861
▁Russian	-3862
▁attacks	-3863
▁capable	-3864
▁decades	-3865
▁details	-3866
▁factors	-3867
▁pointed	-3868
▁poorest	-3869
▁prepare	-3870
▁subsidi	-3871
▁thought	-3872
▁American	-3873
▁accepted	-3874
▁adequate	-3875
▁adopting	-3876
▁aviation	-3877
▁coherent	-3878
▁contrary	-3879
▁evidence	-3880
▁expendit	-3881
▁grateful	-3882
▁opinions	-3883
▁taxation	-3884
▁welcomed	-3885
ifications	-3886
▁Ministers	-3887
▁accidents	-3888
▁conflicts	-3889
▁equipment	-3890
▁paragraph	-3891
▁preparing	-3892
▁sometimes	-3893
▁voluntary	-3894
▁delegation	-3895
▁immigrants	-3896
▁operations	-3897
▁preventing	-3898
governmental	-3899
▁Fundamental	-3900
▁individuals	-3901
▁introducing	-3902
▁negotiation	-3903
-0	-3904
bu	-3905
iab	-3906
nic	-3907
ova	-3908
rab	-3909
raq	-3910
raz	-3911
uff	-3912
▁2.	-3913
▁Cl	-3914
▁EP	-3915
▁Sh	-3916
lled	-3917
ocol	-3918
opol	-3919
pped	-3920
uese	-3921
▁CAP	-3922
▁Col	-3923
▁Lat	-3924
▁dig	-3925
▁lay	-3926
▁max	-3927
▁pun	-3928
▁unc	-3929
ading	-3930
andon	-3931
iling	-3932
inese	-3933
itage	-3934
ology	-3935
ompan	-3936
poses	-3937
▁2005	-3938
▁Asia	-3939
▁Iraq	-3940
▁Pact	-3941
▁bank	-3942
▁sold	-3943
ancing	-3944
cedent	-3945
debate	-3946
ittees	-3947
▁Civil	-3948
▁India	-3949
▁Inter	-3950
▁Maced	-3951
▁While	-3952
▁abuse	-3953
▁advoc	-3954
▁belie	-3955
▁class	-3956
▁decis	-3957
▁diver	-3958
▁hours	-3959
▁sound	-3960
▁surve	-3961
▁worry	-3962
respond	-3963
▁Global	-3964
▁Palest	-3965
▁Sloven	-3966
▁allows	-3967
▁centre	-3968
▁decent	-3969
▁simple	-3970
▁strugg	-3971
▁suffer	-3972
▁unless	-3973
▁wonder	-3974
argement	-3975
economic	-3976
▁African	-3977
▁Chinese	-3978
▁advance	-3979
▁compens	-3980
▁describ	-3981
▁reinfor	-3982
▁February	-3983
▁currency	-3984
▁entirely	-3985
▁judicial	-3986
▁meetings	-3987
▁millions	-3988
▁prospect	-3989
▁purposes	-3990
▁refugees	-3991
▁speakers	-3992
▁stressed	-3993
▁generally	-3994
▁influence	-3995
▁pollution	-3996
▁yesterday	-3997
▁Portuguese	-3998
▁acceptable	-3999
▁expenditure	-4000
▁immediately	-4001
▁manufacture	-4002
▁participate	-4003
▁Organisation	-4004
▁developments	-4005
▁intervention	-4006
▁recommendation	-4007
%.	-4008
iss	-4009
orn	-4010
rop	-4011
▁Ha	-4012
▁Lu	-4013
▁Ma	-4014
▁af	-4015
Rule	-4016
cent	-4017
comm	-4018
hern	-4019
icro	-4020
pril	-4021
▁500	-4022
▁New	-4023
▁Oct	-4024
▁der	-4025
▁don	-4026
▁gap	-4027
▁sea	-4028
empor	-4029
endly	-4030
licit	-4031
razil	-4032
▁Auth	-4033
▁Here	-4034
▁Home	-4035
▁Only	-4036
▁dict	-4037
▁dign	-4038
▁forg	-4039
▁proc	-4040
▁stay	-4041
▁tuna	-4042
▁urge	-4043
▁weap	-4044
ishing	-4045
verage	-4046
▁April	-4047
▁Given	-4048
▁Korea	-4049
▁break	-4050
▁flood	-4051
▁lower	-4052
▁macro	-4053
▁tried	-4054
▁Lastly	-4055
▁agency	-4056
▁repeat	-4057
▁severe	-4058
▁submit	-4059
▁transl	-4060
arations	-4061
emporary	-4062
ological	-4063
▁Kingdom	-4064
▁October	-4065
▁abandon	-4066
▁appoint	-4067
▁experts	-4068
▁legally	-4069
▁minutes	-4070
▁opposed	-4071
▁sincere	-4072
▁thereby	-4073
▁Assembly	-4074
▁applying	-4075
▁attitude	-4076
▁payments	-4077
▁targeted	-4078
▁candidate	-4079
▁carefully	-4080
▁character	-4081
▁existence	-4082
▁intention	-4083
▁terrorist	-4084
▁correspond	-4085
▁evaluation	-4086
▁facilities	-4087
▁phenomenon	-4088
▁coordinated	-4089
▁demonstrate	-4090
▁importantly	-4091
▁territorial	-4092
▁undertaking	-4093
▁successfully	-4094
▁understanding	-4095
▁administration	-4096
▁representative	-4097
0,	-4098
erc	-4099
iet	-4100
pes	-4101
see	-4102
the	-4103
vis	-4104
▁24	-4105
▁Pl	-4106
▁cy	-4107
akes	-4108
ateg	-4109
ired	-4110
orry	-4111
rend	-4112
trol	-4113
vote	-4114
▁198	-4115
▁Any	-4116
▁Gre	-4117
▁Rec	-4118
▁Ver	-4119
▁asp	-4120
▁che	-4121
▁cou	-4122
▁div	-4123
▁dyn	-4124
▁haz	-4125
▁hom	-4126
▁hor	-4127
▁vac	-4128
▁ves	-4129
▁wit	-4130
erved	-4131
ilise	-4132
oples	-4133
ought	-4134
thern	-4135
▁High	-4136
▁base	-4137
▁mark	-4138
▁size	-4139
▁slow	-4140
advant	-4141
ulture	-4142
▁2010.	-4143
▁Green	-4144
▁Rural	-4145
▁facts	-4146
▁hands	-4147
▁heavy	-4148
▁knows	-4149
diction	-4150
lection	-4151
outhern	-4152
▁Invest	-4153
▁anyone	-4154
▁arrest	-4155
▁duties	-4156
▁impose	-4157
▁normal	-4158
▁parent	-4159
▁placed	-4160
▁please	-4161
▁reiter	-4162
▁scheme	-4163
▁wealth	-4164
itiative	-4165
▁America	-4166
▁changed	-4167
▁courage	-4168
▁customs	-4169
▁distort	-4170
▁figures	-4171
▁healthy	-4172
▁infring	-4173
▁journal	-4174
▁peoples	-4175
▁replace	-4176
▁savings	-4177
▁started	-4178
▁tourism	-4179
▁treated	-4180
▁written	-4181
▁approval	-4182
▁controls	-4183
▁detailed	-4184
▁electric	-4185
▁emerging	-4186
▁heritage	-4187
▁identify	-4188
▁ratified	-4189
▁stronger	-4190
▁students	-4191
▁affecting	-4192
▁buildings	-4193
▁disadvant	-4194
▁emergency	-4195
▁obstacles	-4196
▁officials	-4197
▁otherwise	-4198
▁permanent	-4199
▁resulting	-4200
▁beneficial	-4201
▁committees	-4202
▁constantly	-4203
▁protecting	-4204
▁ultimately	-4205
▁undertaken	-4206
▁Afghanistan	-4207
▁Environment	-4208
▁enlargement	-4209
▁interesting	-4210
▁parliaments	-4211
▁speculation	-4212
▁geographical	-4213
▁subsidiarity	-4214
▁contributions	-4215
AL	-4216
Os	-4217
SK	-4218
bs	-4219
bit	-4220
cks	-4221
hib	-4222
ots	-4223
rep	-4224
tex	-4225
▁Go	-4226
ames	-4227
fect	-4228
nual	-4229
ones	-4230
rors	-4231
uffs	-4232
unis	-4233
vent	-4234
▁ACP	-4235
▁GDP	-4236
▁Sub	-4237
▁Sud	-4238
▁aud	-4239
▁eye	-4240
▁hop	-4241
▁len	-4242
▁win	-4243
afety	-4244
ature	-4245
build	-4246
eries	-4247
house	-4248
matic	-4249
mined	-4250
orate	-4251
▁2004	-4252
▁Inst	-4253
▁Mold	-4254
▁blue	-4255
▁card	-4256
▁fine	-4257
▁foot	-4258
▁isol	-4259
▁reci	-4260
▁sets	-4261
▁stim	-4262
▁stor	-4263
▁stra	-4264
acking	-4265
ellect	-4266
rontex	-4267
stuffs	-4268
uction	-4269
urance	-4270
▁Tunis	-4271
▁autom	-4272
▁chain	-4273
▁radio	-4274
▁tasks	-4275
▁trend	-4276
▁users	-4277
essions	-4278
holders	-4279
oration	-4280
▁Before	-4281
▁Brazil	-4282
▁Christ	-4283
▁appear	-4284
▁destro	-4285
▁easier	-4286
▁ethnic	-4287
▁factor	-4288
▁merely	-4289
▁persec	-4290
▁rising	-4291
▁creates	-4292
▁digital	-4293
▁highest	-4294
▁nations	-4295
▁percent	-4296
▁studies	-4297
ellectual	-4298
formation	-4299
▁Palestin	-4300
▁Slovakia	-4301
▁contacts	-4302
▁sensible	-4303
▁Transport	-4304
▁abolition	-4305
▁determine	-4306
▁operators	-4307
▁referring	-4308
▁reflected	-4309
▁regulated	-4310
▁Solidarity	-4311
▁appreciate	-4312
▁definitely	-4313
▁difference	-4314
▁diplomatic	-4315
▁generation	-4316
▁intentions	-4317
▁membership	-4318
▁considering	-4319
▁foundations	-4320
▁highlighted	-4321
▁observation	-4322
▁performance	-4323
▁proceedings	-4324
▁Constitution	-4325
▁arrangements	-4326
▁constitution	-4327
▁experiencing	-4328
▁guaranteeing	-4329
▁intellectual	-4330
▁strengthened	-4331
▁technological	-4332
▁appropriations	-4333
CO	-4334
co	-4335
ij	-4336
ats	-4337
cco	-4338
cri	-4339
ilt	-4340
osn	-4341
rid	-4342
▁23	-4343
▁II	-4344
▁Im	-4345
airy	-4346
band	-4347
lies	-4348
mbol	-4349
▁Act	-4350
▁Not	-4351
▁beg	-4352
▁dri	-4353
▁mid	-4354
▁mix	-4355
▁ste	-4356
anian	-4357
celer	-4358
elong	-4359
oness	-4360
▁Also	-4361
▁Anot	-4362
▁Arab	-4363
▁From	-4364
▁Will	-4365
▁cuts	-4366
▁frag	-4367
▁gave	-4368
▁valu	-4369
ancial	-4370
▁Sudan	-4371
▁check	-4372
▁claim	-4373
▁leads	-4374
▁looks	-4375
▁spect	-4376
▁teach	-4377
▁worse	-4378
illance	-4379
orthern	-4380
related	-4381
▁Health	-4382
▁Safety	-4383
▁System	-4384
▁brings	-4385
▁charge	-4386
▁closer	-4387
▁compon	-4388
▁doubts	-4389
▁expand	-4390
▁honest	-4391
▁length	-4392
▁nation	-4393
▁owners	-4394
▁prohib	-4395
▁quotas	-4396
▁societ	-4397
▁spoken	-4398
▁symbol	-4399
▁troops	-4400
▁unfair	-4401
▁Another	-4402
▁Europol	-4403
▁Frontex	-4404
▁Instead	-4405
▁Moldova	-4406
▁Service	-4407
▁Without	-4408
▁animals	-4409
▁average	-4410
▁getting	-4411
▁granted	-4412
▁hearing	-4413
▁maximum	-4414
▁morning	-4415
▁neither	-4416
▁offered	-4417
▁playing	-4418
▁revised	-4419
▁witness	-4420
operation	-4421
▁Baroness	-4422
▁airports	-4423
▁deserves	-4424
▁explicit	-4425
▁granting	-4426
▁hundreds	-4427
▁physical	-4428
▁spending	-4429
▁worrying	-4430
▁Stability	-4431
▁acknowled	-4432
▁concluded	-4433
▁continent	-4434
▁counterfe	-4435
▁extending	-4436
▁extensive	-4437
▁investors	-4438
▁naturally	-4439
▁proposing	-4440
▁realistic	-4441
▁respected	-4442
▁Conference	-4443
▁Investment	-4444
▁competence	-4445
▁complement	-4446
▁corruption	-4447
▁favourable	-4448
▁greenhouse	-4449
▁healthcare	-4450
▁transition	-4451
▁credibility	-4452
▁declaration	-4453
▁enforcement	-4454
▁politically	-4455
▁represented	-4456
▁expectations	-4457
▁improvements	-4458
▁nevertheless	-4459
▁interpretation	-4460
▁qualifications	-4461
IB	-4462
IS	-4463
au	-4464
ha	-4465
va	-4466
ALE	-4467
LDE	-4468
ama	-4469
amb	-4470
ari	-4471
imb	-4472
iqu	-4473
lav	-4474
ped	-4475
▁0.	-4476
▁40	-4477
▁Ab	-4478
▁Op	-4479
ches	-4480
fare	-4481
fici	-4482
here	-4483
ider	-4484
ithu	-4485
olog	-4486
prus	-4487
▁...	-4488
▁Are	-4489
▁Cor	-4490
▁Isl	-4491
▁Mal	-4492
▁Per	-4493
▁got	-4494
▁pie	-4495
ables	-4496
ather	-4497
earch	-4498
enced	-4499
ifies	-4500
lined	-4501
oking	-4502
ticip	-4503
▁ALDE	-4504
▁Head	-4505
▁Thus	-4506
▁host	-4507
▁pipe	-4508
▁push	-4509
▁soil	-4510
▁sole	-4511
▁susp	-4512
▁unne	-4513
airman	-4514
atever	-4515
inated	-4516
▁Haiti	-4517
▁Lithu	-4518
▁Verts	-4519
▁block	-4520
▁bound	-4521
▁clean	-4522
▁dairy	-4523
▁incom	-4524
▁paper	-4525
▁proud	-4526
▁quant	-4527
▁spend	-4528
▁talks	-4529
▁toler	-4530
▁urban	-4531
▁worst	-4532
▁youth	-4533
ressive	-4534
ulating	-4535
▁Cyprus	-4536
▁Greens	-4537
▁acquis	-4538
▁advert	-4539
▁assure	-4540
▁degree	-4541
▁double	-4542
▁female	-4543
▁intend	-4544
▁latter	-4545
▁likely	-4546
▁moving	-4547
▁online	-4548
▁pestic	-4549
▁pillar	-4550
▁plants	-4551
▁prefer	-4552
▁purely	-4553
position	-4554
▁Control	-4555
▁Freedom	-4556
▁Thirdly	-4557
▁acceler	-4558
▁amended	-4559
▁answers	-4560
▁banking	-4561
▁drawing	-4562
▁driving	-4563
▁enhance	-4564
▁expense	-4565
▁greatly	-4566
▁leaving	-4567
▁perfect	-4568
▁protest	-4569
▁relates	-4570
▁removed	-4571
▁revenue	-4572
▁sharing	-4573
▁Cohesion	-4574
▁Regional	-4575
▁Research	-4576
▁argument	-4577
▁creative	-4578
▁enhanced	-4579
▁finances	-4580
▁infringe	-4581
▁peaceful	-4582
▁presence	-4583
▁reaction	-4584
▁regarded	-4585
▁repeated	-4586
▁separate	-4587
▁struggle	-4588
▁unnecess	-4589
▁Christian	-4590
▁Macedonia	-4591
▁announced	-4592
▁authority	-4593
▁elsewhere	-4594
▁governing	-4595
▁increases	-4596
▁intensive	-4597
▁published	-4598
▁remaining	-4599
▁emphasised	-4600
▁identified	-4601
▁obligation	-4602
▁personally	-4603
▁presidency	-4604
▁restricted	-4605
▁achievement	-4606
▁electricity	-4607
▁preparation	-4608
▁sovereignty	-4609
▁traditional	-4610
▁exploitation	-4611
▁surveillance	-4612
▁environmentally	-4613
FI	-4614
GF	-4615
LT	-4616
SE	-4617
SV	-4618
ax	-4619
ana	-4620
ani	-4621
avi	-4622
coh	-4623
cot	-4624
gen	-4625
itz	-4626
pre	-4627
put	-4628
▁22	-4629
▁26	-4630
▁3.	-4631
▁Sm	-4632
▁et	-4633
2010	-4634
ares	-4635
ctic	-4636
enty	-4637
ingu	-4638
irms	-4639
ocks	-4640
oman	-4641
osen	-4642
▁20%	-4643
▁Ber	-4644
▁Bro	-4645
▁cal	-4646
▁hit	-4647
▁pra	-4648
▁rul	-4649
▁sad	-4650
▁tim	-4651
▁tur	-4652
▁uns	-4653
-2013	-4654
arent	-4655
cohol	-4656
osnia	-4657
otten	-4658
point	-4659
▁Food	-4660
▁West	-4661
▁coal	-4662
▁core	-4663
▁elig	-4664
▁glad	-4665
▁lost	-4666
▁prem	-4667
▁says	-4668
▁went	-4669
▁wine	-4670
aviour	-4671
ennium	-4672
icians	-4673
illing	-4674
roduct	-4675
stance	-4676
vision	-4677
▁2008,	-4678
▁Other	-4679
▁chann	-4680
▁court	-4681
▁destr	-4682
▁divid	-4683
▁eight	-4684
▁flows	-4685
▁forth	-4686
▁house	-4687
▁offic	-4688
▁phase	-4689
▁proof	-4690
▁quota	-4691
▁range	-4692
▁round	-4693
▁volat	-4694
uctural	-4695
▁Follow	-4696
▁belong	-4697
▁chosen	-4698
▁comply	-4699
▁deeply	-4700
▁dispos	-4701
▁hazard	-4702
▁latest	-4703
▁minute	-4704
▁mother	-4705
▁offers	-4706
▁retain	-4707
▁traged	-4708
▁wishes	-4709
atlantic	-4710
isheries	-4711
ographic	-4712
▁Balkans	-4713
▁General	-4714
▁Tunisia	-4715
▁affairs	-4716
▁anticip	-4717
▁becomes	-4718
▁defined	-4719
▁deliber	-4720
▁dignity	-4721
▁disease	-4722
▁evening	-4723
▁exports	-4724
▁farming	-4725
▁finding	-4726
▁friends	-4727
▁keeping	-4728
▁methods	-4729
▁operate	-4730
▁privacy	-4731
▁welfare	-4732
illennium	-4733
▁External	-4734
▁accompan	-4735
▁airlines	-4736
▁benefici	-4737
▁informal	-4738
▁original	-4739
▁pensions	-4740
▁powerful	-4741
▁proposes	-4742
▁reconcil	-4743
▁reliable	-4744
▁returned	-4745
▁secondly	-4746
▁suffered	-4747
▁Authority	-4748
▁Following	-4749
▁Liberties	-4750
▁allocated	-4751
▁competent	-4752
▁conducted	-4753
▁cooperate	-4754
▁criticism	-4755
▁demanding	-4756
▁everybody	-4757
▁forgotten	-4758
▁negotiate	-4759
▁reiterate	-4760
▁societies	-4761
▁temporary	-4762
▁underline	-4763
iodiversity	-4764
▁Structural	-4765
▁foodstuffs	-4766
▁highlights	-4767
▁legitimate	-4768
▁substances	-4769
▁Cooperation	-4770
▁competences	-4771
▁concentrate	-4772
▁populations	-4773
▁unnecessary	-4774
institutional	-4775
▁applications	-4776
▁inequalities	-4777
▁multilateral	-4778
▁neighbouring	-4779
▁significance	-4780
▁Globalisation	-4781
▁constitutional	-4782
5%	-4783
DA	-4784
ka	-4785
ada	-4786
elm	-4787
hol	-4788
iar	-4789
ior	-4790
loc	-4791
oub	-4792
uls	-4793
▁IM	-4794
▁Sy	-4795
2008	-4796
aily	-4797
erly	-4798
ibet	-4799
look	-4800
rees	-4801
▁149	-4802
▁Eng	-4803
▁Her	-4804
▁Lab	-4805
▁Leg	-4806
▁Mor	-4807
▁bio	-4808
▁dia	-4809
▁eld	-4810
▁etc	-4811
▁fif	-4812
▁fix	-4813
▁lic	-4814
▁voc	-4815
adequ	-4816
aling	-4817
appro	-4818
iding	-4819
iform	-4820
ondon	-4821
oring	-4822
rible	-4823
scale	-4824
▁Both	-4825
▁Free	-4826
▁Like	-4827
▁Prot	-4828
▁cars	-4829
▁cele	-4830
▁chem	-4831
▁depr	-4832
▁dism	-4833
▁doss	-4834
▁east	-4835
▁felt	-4836
▁flag	-4837
▁issu	-4838
▁lose	-4839
▁rich	-4840
▁seas	-4841
▁stip	-4842
▁surv	-4843
▁team	-4844
▁vari	-4845
▁wait	-4846
arding	-4847
irable	-4848
ursday	-4849
▁2020.	-4850
▁Burma	-4851
▁Funds	-4852
▁Heads	-4853
▁Tibet	-4854
▁Where	-4855
▁armed	-4856
▁categ	-4857
▁count	-4858
▁daily	-4859
▁detri	-4860
▁disag	-4861
▁imbal	-4862
▁lines	-4863
▁micro	-4864
▁motiv	-4865
▁piece	-4866
▁postp	-4867
▁seeks	-4868
▁sorry	-4869
▁spite	-4870
▁super	-4871
▁taxes	-4872
▁texts	-4873
▁tight	-4874
atively	-4875
▁Bosnia	-4876
▁Common	-4877
▁During	-4878
▁Indust	-4879
▁London	-4880
▁actual	-4881
▁approx	-4882
▁choose	-4883
▁claims	-4884
▁define	-4885
▁divers	-4886
▁errors	-4887
▁exclud	-4888
▁helped	-4889
▁places	-4890
▁redund	-4891
▁remark	-4892
▁serves	-4893
▁shared	-4894
▁stocks	-4895
▁unions	-4896
▁united	-4897
employed	-4898
▁Britain	-4899
▁abstain	-4900
▁amounts	-4901
▁biggest	-4902
▁briefly	-4903
▁complic	-4904
▁drafted	-4905
▁examine	-4906
▁focused	-4907
▁harmful	-4908
▁inadequ	-4909
▁legitim	-4910
▁numbers	-4911
▁ongoing	-4912
▁outcome	-4913
▁species	-4914
▁storage	-4915
▁warming	-4916
▁Thursday	-4917
▁allowing	-4918
▁answered	-4919
▁constitu	-4920
▁historic	-4921
▁involves	-4922
▁monetary	-4923
▁requests	-4924
▁suitable	-4925
▁terrible	-4926
▁valuable	-4927
initiative	-4928
▁Financial	-4929
▁Fisheries	-4930
▁behaviour	-4931
▁contracts	-4932
▁eliminate	-4933
▁exception	-4934
▁occasions	-4935
▁reinforce	-4936
▁satisfact	-4937
▁uncertain	-4938
▁Christians	-4939
▁applicable	-4940
▁exceptions	-4941
▁incentives	-4942
▁percentage	-4943
▁prosperity	-4944
▁recognises	-4945
▁reductions	-4946
▁regardless	-4947
▁respecting	-4948
▁supplement	-4949
▁advertising	-4950
▁association	-4951
▁contributed	-4952
▁exceptional	-4953
▁involvement	-4954
▁biodiversity	-4955
▁explanations	-4956
▁Commissioners	-4957
▁manufacturers	-4958
▁neighbourhood	-4959
▁possibilities	-4960
2)	-4961
AT	-4962
CC	-4963
DS	-4964
ko	-4965
aud	-4966
dro	-4967
ery	-4968
iff	-4969
ike	-4970
oll	-4971
oon	-4972
per	-4973
rum	-4974
rut	-4975
tin	-4976
try	-4977
wth	-4978
▁60	-4979
▁Ky	-4980
▁Me	-4981
back	-4982
ding	-4983
ites	-4984
onom	-4985
▁App	-4986
▁Cub	-4987
▁Nor	-4988
▁Som	-4989
▁bat	-4990
▁dum	-4991
▁fat	-4992
▁ren	-4993
▁saw	-4994
▁vir	-4995
atell	-4996
ellig	-4997
ffect	-4998
gence	-4999
icals	-5000
isory	-5001
ivity	-5002
level	-5003
ories	-5004
pical	-5005
place	-5006
right	-5007
stone	-5008
while	-5009
▁Does	-5010
▁Plan	-5011
▁ecos	-5012
▁eyes	-5013
▁fost	-5014
▁kept	-5015
▁none	-5016
▁reve	-5017
▁toys	-5018
anging	-5019
carbon	-5020
ernity	-5021
iction	-5022
rating	-5023
reneur	-5024
▁2006,	-5025
▁Legal	-5026
▁Small	-5027
▁aspir	-5028
▁began	-5029
▁board	-5030
▁boost	-5031
▁envis	-5032
▁front	-5033
▁items	-5034
▁kinds	-5035
▁links	-5036
▁manag	-5037
▁meant	-5038
▁obser	-5039
▁pharm	-5040
▁reass	-5041
▁scand	-5042
▁scrut	-5043
▁tough	-5044
▁trial	-5045
▁valid	-5046
▁volum	-5047
connect	-5048
iannual	-5049
▁Balkan	-5050
▁Consum	-5051
▁Growth	-5052
▁Middle	-5053
▁Report	-5054
▁absurd	-5055
▁assume	-5056
▁beings	-5057
▁breach	-5058
▁endors	-5059
▁exists	-5060
▁leader	-5061
▁listen	-5062
▁losses	-5063
▁marine	-5064
▁nearly	-5065
▁patent	-5066
▁paying	-5067
▁profit	-5068
▁prosec	-5069
▁seeing	-5070
▁tonnes	-5071
▁underm	-5072
▁unjust	-5073
▁whilst	-5074
cription	-5075
novation	-5076
▁Subject	-5077
▁careful	-5078
▁causing	-5079
▁century	-5080
▁choices	-5081
▁cutting	-5082
▁deficit	-5083
▁deliver	-5084
▁dispute	-5085
▁dynamic	-5086
▁entered	-5087
▁falling	-5088
▁feeling	-5089
▁holding	-5090
▁mistake	-5091
▁options	-5092
▁predict	-5093
▁primary	-5094
▁recipro	-5095
▁regrett	-5096
▁release	-5097
▁seeking	-5098
▁showing	-5099
▁subsequ	-5100
▁uniform	-5101
▁urgency	-5102
▁version	-5103
▁wording	-5104
ervations	-5105
iological	-5106
repreneur	-5107
▁apparent	-5108
▁changing	-5109
▁credible	-5110
▁decisive	-5111
▁declared	-5112
▁disposal	-5113
▁emphasis	-5114
▁mistakes	-5115
▁pipeline	-5116
▁pursuing	-5117
▁resolved	-5118
▁resulted	-5119
▁speeches	-5120
▁stations	-5121
▁supposed	-5122
▁withdraw	-5123
▁Budgetary	-5124
▁Petitions	-5125
▁accepting	-5126
▁confirmed	-5127
▁correctly	-5128
▁dependent	-5129
▁ecosystem	-5130
▁expecting	-5131
▁necessity	-5132
▁operating	-5133
▁ownership	-5134
▁primarily	-5135
▁requested	-5136
▁residence	-5137
▁Adjustment	-5138
▁Millennium	-5139
▁addressing	-5140
▁comparison	-5141
▁complaints	-5142
▁historical	-5143
▁impression	-5144
▁neighbours	-5145
▁consequence	-5146
▁demographic	-5147
▁maintaining	-5148
▁politicians	-5149
▁representing	-5150
▁stakeholders	-5151
▁Parliamentary	-5152
▁authorisation	-5153
▁simplification	-5154
AS	-5155
na	-5156
no	-5157
ane	-5158
ann	-5159
cel	-5160
cer	-5161
eop	-5162
gic	-5163
iny	-5164
ros	-5165
wns	-5166
yle	-5167
▁31	-5168
▁Mc	-5169
abit	-5170
ague	-5171
anda	-5172
anks	-5173
appe	-5174
cipl	-5175
coun	-5176
deav	-5177
fuel	-5178
ints	-5179
itig	-5180
kers	-5181
part	-5182
raft	-5183
ries	-5184
vens	-5185
▁10%	-5186
▁40%	-5187
▁Dan	-5188
▁Pre	-5189
▁WTO	-5190
▁War	-5191
▁ded	-5192
▁fil	-5193
▁lob	-5194
apter	-5195
grace	-5196
ralia	-5197
stood	-5198
▁Mart	-5199
▁Once	-5200
▁Over	-5201
▁Then	-5202
▁city	-5203
▁code	-5204
▁exem	-5205
▁hous	-5206
▁hung	-5207
▁jeop	-5208
▁judg	-5209
▁neut	-5210
▁save	-5211
▁tang	-5212
arians	-5213
istent	-5214
oubted	-5215
ourism	-5216
▁2007,	-5217
▁Congo	-5218
▁Paper	-5219
▁Paris	-5220
▁badly	-5221
▁black	-5222
▁blood	-5223
▁built	-5224
▁entit	-5225
▁moral	-5226
▁outer	-5227
▁plays	-5228
▁unpre	-5229
▁veget	-5230
▁watch	-5231
▁woman	-5232
appoint	-5233
erative	-5234
istered	-5235
leading	-5236
loyment	-5237
▁Agenda	-5238
▁Canada	-5239
▁Instit	-5240
▁Labour	-5241
▁Nether	-5242
▁Public	-5243
▁actors	-5244
▁catast	-5245
▁checks	-5246
▁commod	-5247
▁covers	-5248
▁depart	-5249
▁endeav	-5250
▁exempt	-5251
▁flight	-5252
▁honour	-5253
▁incomp	-5254
▁joined	-5255
▁oppose	-5256
▁proved	-5257
▁slight	-5258
▁solved	-5259
▁timely	-5260
abitants	-5261
building	-5262
▁Belgian	-5263
▁Climate	-5264
▁Perhaps	-5265
▁absence	-5266
▁affects	-5267
▁arising	-5268
▁autonom	-5269
▁broader	-5270
▁closing	-5271
▁commend	-5272
▁desired	-5273
▁disappe	-5274
▁drivers	-5275
▁elderly	-5276
▁failing	-5277
▁follows	-5278
▁heading	-5279
▁jeopard	-5280
▁lessons	-5281
▁meaning	-5282
▁medical	-5283
▁motions	-5284
▁notably	-5285
▁parents	-5286
▁periods	-5287
▁princip	-5288
▁restore	-5289
▁running	-5290
▁schools	-5291
▁tragedy	-5292
▁vessels	-5293
▁waiting	-5294
▁weapons	-5295
▁Protocol	-5296
▁attempts	-5297
▁believes	-5298
▁disagree	-5299
▁forecast	-5300
▁friendly	-5301
▁imposing	-5302
▁intellig	-5303
▁listened	-5304
▁obtained	-5305
▁promised	-5306
▁realised	-5307
▁restruct	-5308
▁spectrum	-5309
▁straight	-5310
▁tangible	-5311
▁whatever	-5312
repreneurs	-5313
▁Australia	-5314
▁Slovenian	-5315
▁certainty	-5316
▁defending	-5317
▁exclusive	-5318
▁extension	-5319
▁fishermen	-5320
▁justified	-5321
▁mandatory	-5322
▁ministers	-5323
▁movements	-5324
▁prevented	-5325
▁prospects	-5326
▁qualified	-5327
▁substance	-5328
▁succeeded	-5329
▁suggested	-5330
▁violation	-5331
▁adjustment	-5332
▁allocation	-5333
▁candidates	-5334
▁commission	-5335
▁disappoint	-5336
▁encouraged	-5337
▁expressing	-5338
▁harmonised	-5339
▁previously	-5340
▁traditions	-5341
▁Netherlands	-5342
▁assessments	-5343
▁convergence	-5344
▁destruction	-5345
▁efficiently	-5346
▁inhabitants	-5347
▁operational	-5348
▁conservation	-5349
▁considerably	-5350
▁contributing	-5351
▁declarations	-5352
▁economically	-5353
▁determination	-5354
▁disadvantaged	-5355
▁restructuring	-5356
▁transatlantic	-5357
2.	-5358
EN	-5359
EU	-5360
GL	-5361
SP	-5362
UE	-5363
aw	-5364
ef	-5365
oz	-5366
6-0	-5367
NGL	-5368
ays	-5369
den	-5370
ico	-5371
ins	-5372
jud	-5373
ked	-5374
lin	-5375
noc	-5376
oud	-5377
rem	-5378
ski	-5379
ube	-5380
umb	-5381
▁Dr	-5382
▁Pa	-5383
▁Su	-5384
abwe	-5385
emic	-5386
erre	-5387
iers	-5388
igor	-5389
inal	-5390
irth	-5391
iscr	-5392
itch	-5393
izon	-5394
osur	-5395
petr	-5396
rain	-5397
uest	-5398
uris	-5399
utch	-5400
what	-5401
zone	-5402
▁197	-5403
▁30%	-5404
▁50%	-5405
▁Aug	-5406
▁Dim	-5407
▁EIB	-5408
▁GUE	-5409
▁Kar	-5410
▁Nat	-5411
▁Two	-5412
▁VAT	-5413
▁map	-5414
▁rid	-5415
▁sil	-5416
▁unb	-5417
▁unw	-5418
▁upd	-5419
acerb	-5420
aceut	-5421
apers	-5422
erted	-5423
inent	-5424
inger	-5425
iring	-5426
itzer	-5427
utive	-5428
wenty	-5429
▁Kurd	-5430
▁earn	-5431
▁meat	-5432
▁puts	-5433
▁rely	-5434
▁sett	-5435
▁tend	-5436
▁wage	-5437
ailing	-5438
cision	-5439
ederal	-5440
ground	-5441
▁2011.	-5442
▁Goals	-5443
▁Latin	-5444
▁Stock	-5445
▁apart	-5446
▁arise	-5447
▁below	-5448
▁blind	-5449
▁coast	-5450
▁conve	-5451
▁dereg	-5452
▁euros	-5453
▁frame	-5454
▁juris	-5455
▁liber	-5456
▁mitig	-5457
▁noted	-5458
▁older	-5459
▁persu	-5460
▁prove	-5461
▁solid	-5462
▁track	-5463
▁unity	-5464
▁wages	-5465
ercosur	-5466
imbabwe	-5467
urement	-5468
viously	-5469
▁August	-5470
▁Secret	-5471
▁Sweden	-5472
▁banned	-5473
▁cities	-5474
▁corpor	-5475
▁couple	-5476
▁courts	-5477
▁fields	-5478
▁formal	-5479
▁foster	-5480
▁ignore	-5481
▁implic	-5482
▁infect	-5483
▁opened	-5484
▁punish	-5485
▁stands	-5486
▁viable	-5487
▁victim	-5488
cedented	-5489
etheless	-5490
ordinary	-5491
oubtedly	-5492
▁Budgets	-5493
▁Switzer	-5494
▁abolish	-5495
▁alcohol	-5496
▁approve	-5497
▁biofuel	-5498
▁dismant	-5499
▁exacerb	-5500
▁freight	-5501
▁grounds	-5502
▁joining	-5503
▁lasting	-5504
▁obliged	-5505
▁pattern	-5506
▁perpetr	-5507
▁priorit	-5508
▁publish	-5509
▁radical	-5510
▁raising	-5511
▁science	-5512
▁someone	-5513
▁Equality	-5514
▁Industry	-5515
▁Liberals	-5516
▁National	-5517
▁carrying	-5518
▁channels	-5519
▁confront	-5520
▁deprived	-5521
▁directed	-5522
▁disgrace	-5523
▁endorsed	-5524
▁foremost	-5525
▁identity	-5526
▁lifelong	-5527
▁migrants	-5528
▁minister	-5529
▁occurred	-5530
▁openness	-5531
▁pressing	-5532
▁reported	-5533
▁resource	-5534
▁southern	-5535
▁supplies	-5536
▁surround	-5537
▁thanking	-5538
▁welcomes	-5539
▁Obviously	-5540
▁Regarding	-5541
▁chemicals	-5542
▁depending	-5543
▁described	-5544
▁estimated	-5545
▁hazardous	-5546
▁inclusive	-5547
▁intervene	-5548
▁penalties	-5549
▁regularly	-5550
▁surprised	-5551
▁universal	-5552
▁Socialists	-5553
▁accessible	-5554
▁constitute	-5555
▁convention	-5556
▁determined	-5557
▁legitimacy	-5558
▁pesticides	-5559
▁pharmaceut	-5560
▁registered	-5561
▁television	-5562
▁vegetables	-5563
▁volatility	-5564
▁Information	-5565
▁Switzerland	-5566
▁accompanied	-5567
▁bureaucracy	-5568
▁complicated	-5569
▁constitutes	-5570
▁delegations	-5571
▁forthcoming	-5572
▁journalists	-5573
▁publication	-5574
▁regrettable	-5575
▁supervisory	-5576
▁achievements	-5577
▁interconnect	-5578
▁interference	-5579
▁approximately	-5580
▁beneficiaries	-5581
▁entrepreneurs	-5582
▁protectionism	-5583
▁unprecedented	-5584
▁Constitutional	-5585
%,	-5586
2,	-5587
50	-5588
tt	-5589
uz	-5590
▁i	-5591
GOs	-5592
IDS	-5593
ads	-5594
ara	-5595
asm	-5596
cif	-5597
cue	-5598
cyc	-5599
duc	-5600
iox	-5601
lex	-5602
ona	-5603
ony	-5604
ook	-5605
osp	-5606
oto	-5607
tal	-5608
ulz	-5609
zeg	-5610
▁29	-5611
▁4.	-5612
▁El	-5613
city	-5614
free	-5615
holm	-5616
iced	-5617
ilot	-5618
lish	-5619
oral	-5620
raid	-5621
roph	-5622
roup	-5623
rous	-5624
ster	-5625
stra	-5626
ugos	-5627
wing	-5628
▁Emp	-5629
▁PSE	-5630
▁She	-5631
▁adm	-5632
▁har	-5633
▁liv	-5634
▁pan	-5635
▁pet	-5636
asion	-5637
exico	-5638
lling	-5639
ovina	-5640
verse	-5641
▁Most	-5642
▁NGOs	-5643
▁Pack	-5644
▁Wall	-5645
▁diox	-5646
▁fate	-5647
▁plat	-5648
▁root	-5649
▁scen	-5650
▁stab	-5651
▁stre	-5652
▁vacc	-5653
▁virt	-5654
▁webs	-5655
▁wind	-5656
atible	-5657
atures	-5658
estock	-5659
ildren	-5660
ingent	-5661
lation	-5662
licate	-5663
soever	-5664
ulsory	-5665
urning	-5666
▁2011,	-5667
▁Obama	-5668
▁Their	-5669
▁birth	-5670
▁debts	-5671
▁displ	-5672
▁exerc	-5673
▁firms	-5674
▁forum	-5675
▁frank	-5676
▁fuels	-5677
▁gross	-5678
▁hydro	-5679
▁incon	-5680
▁judge	-5681
▁label	-5682
▁loans	-5683
▁purch	-5684
▁remit	-5685
▁towns	-5686
▁types	-5687
▁wider	-5688
General	-5689
agement	-5690
cession	-5691
comings	-5692
country	-5693
ensible	-5694
osition	-5695
respons	-5696
session	-5697
ugoslav	-5698
▁Arctic	-5699
▁Centre	-5700
▁Danube	-5701
▁Schulz	-5702
▁abuses	-5703
▁acting	-5704
▁afraid	-5705
▁ageing	-5706
▁attach	-5707
▁consci	-5708
▁danger	-5709
▁deteri	-5710
▁distin	-5711
▁excuse	-5712
▁extrem	-5713
▁fairly	-5714
▁finger	-5715
▁fourth	-5716
▁hunger	-5717
▁minors	-5718
▁multip	-5719
▁orient	-5720
▁poorer	-5721
▁prompt	-5722
▁rescue	-5723
▁resist	-5724
▁satell	-5725
▁spring	-5726
▁stance	-5727
▁stream	-5728
▁surely	-5729
▁worthy	-5730
iability	-5731
iversary	-5732
zegovina	-5733
▁Austria	-5734
▁English	-5735
▁Tourism	-5736
▁adverse	-5737
▁amongst	-5738
▁centres	-5739
▁clarify	-5740
▁debated	-5741
▁depends	-5742
▁discipl	-5743
▁dossier	-5744
▁earthqu	-5745
▁enabled	-5746
▁enables	-5747
▁equival	-5748
▁heavily	-5749
▁horizon	-5750
▁housing	-5751
▁inspect	-5752
▁intends	-5753
▁jointly	-5754
▁logical	-5755
▁massive	-5756
▁pillars	-5757
▁players	-5758
▁rapidly	-5759
▁refused	-5760
▁scandal	-5761
▁smaller	-5762
▁solving	-5763
▁stating	-5764
▁telling	-5765
▁textile	-5766
▁variety	-5767
▁vehicle	-5768
▁warning	-5769
▁Consumer	-5770
▁Internal	-5771
▁Services	-5772
▁advocate	-5773
▁amending	-5774
▁compared	-5775
▁debating	-5776
▁delicate	-5777
▁dramatic	-5778
▁emission	-5779
▁enabling	-5780
▁entering	-5781
▁extended	-5782
▁familiar	-5783
▁financed	-5784
▁generate	-5785
▁humanity	-5786
▁launched	-5787
▁marginal	-5788
▁register	-5789
▁Stockholm	-5790
▁arguments	-5791
▁complying	-5792
▁detention	-5793
▁detriment	-5794
▁employers	-5795
▁envisaged	-5796
▁gradually	-5797
▁insurance	-5798
▁livestock	-5799
▁maternity	-5800
▁nationals	-5801
▁outermost	-5802
▁proactive	-5803
▁unanimous	-5804
▁Resolution	-5805
▁approaches	-5806
▁biological	-5807
▁components	-5808
▁compulsory	-5809
▁controvers	-5810
▁guaranteed	-5811
▁inadequate	-5812
▁misleading	-5813
▁reinforced	-5814
▁relatively	-5815
▁systematic	-5816
▁threatened	-5817
▁understood	-5818
▁whatsoever	-5819
ertification	-5820
▁anniversary	-5821
▁compromises	-5822
▁consistency	-5823
▁elimination	-5824
▁essentially	-5825
▁experienced	-5826
▁instability	-5827
▁persecution	-5828
▁procurement	-5829
▁radioactive	-5830
▁willingness	-5831
▁demonstrated	-5832
▁demonstrates	-5833
▁incorporated	-5834
▁satisfactory	-5835
▁shortcomings	-5836
▁transitional	-5837
▁consultations	-5838
▁corresponding	-5839
▁transposition	-5840
1,	-5841
5,	-5842
AF	-5843
As	-5844
NR	-5845
OL	-5846
ih	-5847
ls	-5848
abu	-5849
ado	-5850
bur	-5851
fur	-5852
law	-5853
lim	-5854
off	-5855
ole	-5856
ris	-5857
via	-5858
yed	-5859
▁CE	-5860
▁Cr	-5861
akis	-5862
aled	-5863
alse	-5864
apse	-5865
edge	-5866
enez	-5867
enko	-5868
fers	-5869
iger	-5870
oler	-5871
osis	-5872
quir	-5873
rich	-5874
sets	-5875
uble	-5876
▁300	-5877
▁Bec	-5878
▁Day	-5879
▁Har	-5880
▁Ice	-5881
▁Mus	-5882
▁Net	-5883
▁Ref	-5884
▁SIS	-5885
▁Sup	-5886
▁Van	-5887
▁cop	-5888
▁cro	-5889
▁era	-5890
▁ine	-5891
▁inj	-5892
▁mal	-5893
▁sem	-5894
abled	-5895
arted	-5896
asing	-5897
ednes	-5898
group	-5899
inder	-5900
ossil	-5901
sight	-5902
urate	-5903
venth	-5904
whelm	-5905
yards	-5906
▁149)	-5907
▁Barn	-5908
▁Canc	-5909
▁Conc	-5910
▁Four	-5911
▁Scot	-5912
▁calc	-5913
▁earm	-5914
▁grat	-5915
▁irre	-5916
▁lawy	-5917
▁pain	-5918
▁pose	-5919
▁purs	-5920
▁room	-5921
▁seat	-5922
▁tape	-5923
▁tort	-5924
▁trem	-5925
itical	-5926
lected	-5927
mining	-5928
nesses	-5929
▁2012.	-5930
▁2013,	-5931
▁Apart	-5932
▁Dimas	-5933
▁Joint	-5934
▁Treat	-5935
▁Under	-5936
▁Venez	-5937
▁alarm	-5938
▁cheap	-5939
▁codec	-5940
▁deals	-5941
▁dedic	-5942
▁diagn	-5943
▁foods	-5944
▁grand	-5945
▁liter	-5946
▁lobby	-5947
▁names	-5948
▁newsp	-5949
▁optim	-5950
▁param	-5951
▁pilot	-5952
▁pleas	-5953
▁ports	-5954
▁recyc	-5955
▁reint	-5956
▁remed	-5957
▁sched	-5958
▁sheep	-5959
▁swift	-5960
ception	-5961
pliance	-5962
▁Mexico	-5963
▁Office	-5964
▁battle	-5965
▁blocks	-5966
▁cancer	-5967
▁contam	-5968
▁denoun	-5969
▁exclus	-5970
▁fossil	-5971
▁havens	-5972
▁illust	-5973
▁island	-5974
▁nobody	-5975
▁partly	-5976
▁permit	-5977
▁planet	-5978
▁pollut	-5979
▁prejud	-5980
▁proven	-5981
▁settle	-5982
▁solely	-5983
▁strive	-5984
▁talked	-5985
▁tariff	-5986
appropri	-5987
ednesday	-5988
idential	-5989
mination	-5990
whelming	-5991
▁Because	-5992
▁Belgium	-5993
▁Iceland	-5994
▁Israeli	-5995
▁artific	-5996
▁bearing	-5997
▁bluefin	-5998
▁diverse	-5999
▁eastern	-6000
▁ensured	-6001
▁forests	-6002
▁ignored	-6003
▁justify	-6004
▁margins	-6005
▁observe	-6006
▁persist	-6007
▁seconds	-6008
▁selling	-6009
▁sending	-6010
▁suspect	-6011
▁transit	-6012
▁tremend	-6013
▁volunte	-6014
abilities	-6015
▁Atlantic	-6016
▁Mercosur	-6017
▁Romanian	-6018
▁Treaties	-6019
▁Venezuel	-6020
▁ambition	-6021
▁cultures	-6022
▁defining	-6023
▁disputes	-6024
▁eurozone	-6025
▁immunity	-6026
▁incident	-6027
▁mobilise	-6028
▁modified	-6029
▁moreover	-6030
▁observed	-6031
▁opposite	-6032
▁organise	-6033
▁overlook	-6034
▁patterns	-6035
▁platform	-6036
▁possibly	-6037
▁reserves	-6038
▁sectoral	-6039
▁shortage	-6040
▁simplify	-6041
▁somewhat	-6042
▁standing	-6043
▁treaties	-6044
▁2007-2013	-6045
▁Neighbour	-6046
▁Otherwise	-6047
▁activists	-6048
▁broadcast	-6049
▁coherence	-6050
▁completed	-6051
▁contained	-6052
▁desirable	-6053
▁discrimin	-6054
▁draftsman	-6055
▁estimates	-6056
▁expensive	-6057
▁genuinely	-6058
▁gratitude	-6059
▁indicated	-6060
▁prisoners	-6061
▁resolving	-6062
▁responses	-6063
▁satellite	-6064
▁stringent	-6065
▁accounting	-6066
▁apparently	-6067
▁codecision	-6068
▁collection	-6069
▁containing	-6070
▁continuous	-6071
▁coordinate	-6072
▁earthquake	-6073
▁ecological	-6074
▁everywhere	-6075
▁explicitly	-6076
▁imbalances	-6077
▁inequality	-6078
▁repression	-6079
▁witnessing	-6080
▁Herzegovina	-6081
▁Palestinian	-6082
▁Progressive	-6083
▁aspirations	-6084
▁competitors	-6085
▁contributes	-6086
▁conventions	-6087
▁cooperating	-6088
▁establishes	-6089
▁exclusively	-6090
▁experiences	-6091
▁explanation	-6092
▁multiannual	-6093
▁potentially	-6094
▁recommended	-6095
▁suggestions	-6096
▁consequently	-6097
▁implications	-6098
▁jurisdiction	-6099
▁overwhelming	-6100
▁partnerships	-6101
▁reservations	-6102
▁sufficiently	-6103
▁universities	-6104
▁Neighbourhood	-6105
▁investigation	-6106
▁relationships	-6107
▁counterfeiting	-6108
▁pharmaceutical	-6109
▁reconciliation	-6110
):	-6111
.'	-6112
BG	-6113
CE	-6114
DC	-6115
DF	-6116
ER	-6117
IP	-6118
bo	-6119
ds	-6120
gu	-6121
uy	-6122
7-0	-6123
LAF	-6124
amp	-6125
asp	-6126
emy	-6127
ero	-6128
inc	-6129
isa	-6130
lev	-6131
lif	-6132
nel	-6133
oha	-6134
ork	-6135
ses	-6136
ubb	-6137
ula	-6138
xem	-6139
ych	-6140
zen	-6141
▁28	-6142
▁Bo	-6143
▁vo	-6144
2006	-6145
agas	-6146
ales	-6147
alle	-6148
amas	-6149
aves	-6150
cism	-6151
emen	-6152
iate	-6153
igen	-6154
ique	-6155
kash	-6156
lock	-6157
mark	-6158
omet	-6159
ooth	-6160
oper	-6161
oses	-6162
resh	-6163
rupt	-6164
text	-6165
year	-6166
▁11.	-6167
▁Alb	-6168
▁Bus	-6169
▁EGF	-6170
▁Far	-6171
▁Int	-6172
▁Its	-6173
▁Joh	-6174
▁Lam	-6175
▁PNR	-6176
▁Red	-6177
▁Sim	-6178
▁Taj	-6179
▁atm	-6180
▁bra	-6181
▁bus	-6182
▁cyc	-6183
▁dog	-6184
▁gre	-6185
▁hal	-6186
▁mur	-6187
▁rob	-6188
▁sac	-6189
▁sla	-6190
▁squ	-6191
ariat	-6192
ipped	-6193
ophob	-6194
osure	-6195
oured	-6196
rison	-6197
space	-6198
teneg	-6199
uries	-6200
▁1990	-6201
▁2000	-6202
▁2003	-6203
▁Brok	-6204
▁Decl	-6205
▁Nabu	-6206
▁OLAF	-6207
▁Rome	-6208
▁blow	-6209
▁copy	-6210
▁drop	-6211
▁ends	-6212
▁hars	-6213
▁imag	-6214
▁inev	-6215
▁keen	-6216
▁mine	-6217
▁rare	-6218
▁sale	-6219
▁scar	-6220
▁scre	-6221
▁vary	-6222
▁vast	-6223
ancies	-6224
ansion	-6225
celona	-6226
esides	-6227
forest	-6228
ivered	-6229
nocent	-6230
ounter	-6231
ustain	-6232
▁Clear	-6233
▁Colle	-6234
▁Luxem	-6235
▁Syria	-6236
▁acted	-6237
▁admit	-6238
▁alleg	-6239
▁bases	-6240
▁begun	-6241
▁celeb	-6242
▁crops	-6243
▁drive	-6244
▁false	-6245
▁fires	-6246
▁fixed	-6247
▁genet	-6248
▁heads	-6249
▁helps	-6250
▁hence	-6251
▁image	-6252
▁input	-6253
▁irreg	-6254
▁liked	-6255
▁minim	-6256
▁motor	-6257
▁mount	-6258
▁multi	-6259
▁night	-6260
▁noise	-6261
▁reaff	-6262
▁sales	-6263
▁shape	-6264
▁shift	-6265
▁stock	-6266
▁yield	-6267
arities	-6268
ilising	-6269
product	-6270
ternoon	-6271
ultural	-6272
▁Asylum	-6273
▁Change	-6274
▁Commun	-6275
▁Lukash	-6276
▁Martin	-6277
▁Monday	-6278
▁Thanks	-6279
▁agrees	-6280
▁apolog	-6281
▁arrive	-6282
▁assert	-6283
▁assets	-6284
▁bigger	-6285
▁custom	-6286
▁deaths	-6287
▁exceed	-6288
▁faster	-6289
▁freely	-6290
▁funded	-6291
▁hardly	-6292
▁insult	-6293
▁intens	-6294
▁larger	-6295
▁losing	-6296
▁marria	-6297
▁mobile	-6298
▁models	-6299
▁notice	-6300
▁postal	-6301
▁refers	-6302
▁remote	-6303
▁resort	-6304
▁series	-6305
▁showed	-6306
▁sought	-6307
▁specif	-6308
▁sphere	-6309
▁stages	-6310
▁uphold	-6311
▁volume	-6312
▁waters	-6313
ferences	-6314
▁Albania	-6315
▁Barnier	-6316
▁Estonia	-6317
▁Islamic	-6318
▁Kurdish	-6319
▁Nabucco	-6320
▁Support	-6321
▁Through	-6322
▁airline	-6323
▁chapter	-6324
▁clauses	-6325
▁compete	-6326
▁consent	-6327
▁constra	-6328
▁decline	-6329
▁earmark	-6330
▁ensures	-6331
▁evident	-6332
▁exploit	-6333
▁flights	-6334
▁impacts	-6335
▁intoler	-6336
▁lending	-6337
▁missing	-6338
▁monopol	-6339
▁neutral	-6340
▁passing	-6341
▁prevail	-6342
▁records	-6343
▁redress	-6344
▁registr	-6345
▁remarks	-6346
▁renewed	-6347
▁schemes	-6348
▁streets	-6349
▁student	-6350
▁trouble	-6351
▁whereby	-6352
condition	-6353
ommission	-6354
▁Business	-6355
▁Northern	-6356
▁actively	-6357
▁airspace	-6358
▁assessed	-6359
▁biofuels	-6360
▁civilian	-6361
▁collapse	-6362
▁combined	-6363
▁demanded	-6364
▁discover	-6365
▁entitled	-6366
▁fragment	-6367
▁fruitful	-6368
▁handling	-6369
▁imperial	-6370
▁imprison	-6371
▁indicate	-6372
▁internet	-6373
▁pleasure	-6374
▁promoted	-6375
▁removing	-6376
▁respects	-6377
▁shoulder	-6378
▁surprise	-6379
▁survival	-6380
▁symbolic	-6381
▁yourself	-6382
▁Barcelona	-6383
▁Institute	-6384
▁Lithuania	-6385
▁Naturally	-6386
▁Secretary	-6387
▁Wednesday	-6388
▁abandoned	-6389
▁afternoon	-6390
▁alongside	-6391
▁basically	-6392
▁connected	-6393
▁considers	-6394
▁delivered	-6395
▁dictators	-6396
▁endeavour	-6397
▁expansion	-6398
▁functions	-6399
▁incentive	-6400
▁initially	-6401
▁irregular	-6402
▁irrespons	-6403
▁medicinal	-6404
▁observers	-6405
▁petitions	-6406
▁precedent	-6407
▁principal	-6408
▁producing	-6409
▁providers	-6410
▁reporting	-6411
▁satisfied	-6412
▁socialist	-6413
▁subjected	-6414
▁subsidies	-6415
▁undermine	-6416
▁withdrawn	-6417
▁worldwide	-6418
▁Employment	-6419
▁Lukashenko	-6420
▁Luxembourg	-6421
▁Presidents	-6422
▁adaptation	-6423
▁attractive	-6424
▁capitalism	-6425
▁controlled	-6426
▁disastrous	-6427
▁frequently	-6428
▁horizontal	-6429
▁maintained	-6430
▁negotiated	-6431
▁occupation	-6432
▁thoroughly	-6433
▁travelling	-6434
▁underlying	-6435
▁vocational	-6436
▁eligibility	-6437
▁necessarily	-6438
▁outstanding	-6439
▁replacement	-6440
▁transaction	-6441
▁unanimously	-6442
iscrimination	-6443
▁bureaucratic	-6444
▁compensation	-6445
▁consistently	-6446
▁constituents	-6447
▁prescription	-6448
▁presentation	-6449
▁undertakings	-6450
▁appropriately	-6451
▁concentration	-6452
▁extraordinary	-6453
▁communications	-6454
▁reconstruction	-6455
.,	-6456
25	-6457
6,	-6458
9,	-6459
FP	-6460
IV	-6461
LO	-6462
SL	-6463
ca	-6464
ga	-6465
hr	-6466
ki	-6467
ky	-6468
sh	-6469
ta	-6470
ua	-6471
20,	-6472
ECD	-6473
adt	-6474
ami	-6475
bel	-6476
cut	-6477
fri	-6478
let	-6479
mon	-6480
nam	-6481
nex	-6482
rov	-6483
son	-6484
ull	-6485
yes	-6486
▁EF	-6487
▁Er	-6488
▁Ev	-6489
▁GM	-6490
▁Te	-6491
▁Ug	-6492
adic	-6493
dden	-6494
erce	-6495
face	-6496
gers	-6497
gies	-6498
hips	-6499
imer	-6500
like	-6501
occo	-6502
oles	-6503
plus	-6504
rian	-6505
sset	-6506
ucas	-6507
uled	-6508
uous	-6509
urit	-6510
▁250	-6511
▁Ant	-6512
▁Car	-6513
▁Dar	-6514
▁GSP	-6515
▁Gar	-6516
▁Imm	-6517
▁Non	-6518
▁Pap	-6519
▁Pri	-6520
▁Sal	-6521
▁Sar	-6522
▁Spe	-6523
▁Tax	-6524
▁aqu	-6525
▁bit	-6526
▁bot	-6527
▁buy	-6528
▁eat	-6529
▁esc	-6530
▁gir	-6531
▁hat	-6532
▁mus	-6533
▁nom	-6534
▁slo	-6535
▁spl	-6536
acing	-6537
eneva	-6538
oning	-6539
oting	-6540
quiry	-6541
stadt	-6542
ureau	-6543
using	-6544
▁Chad	-6545
▁Cuba	-6546
▁Doha	-6547
▁Educ	-6548
▁Form	-6549
▁Left	-6550
▁Mean	-6551
▁Nord	-6552
▁Rail	-6553
▁Stat	-6554
▁acad	-6555
▁arms	-6556
▁ball	-6557
▁brut	-6558
▁dual	-6559
▁duly	-6560
▁emot	-6561
▁fals	-6562
▁fort	-6563
▁gaps	-6564
▁hosp	-6565
▁luck	-6566
▁magn	-6567
▁moth	-6568
▁murd	-6569
▁nons	-6570
▁pict	-6571
▁pity	-6572
▁prag	-6573
▁rape	-6574
▁rush	-6575
▁sake	-6576
▁shel	-6577
▁wake	-6578
▁warn	-6579
▁zero	-6580
alling	-6581
asures	-6582
erning	-6583
etable	-6584
ipping	-6585
itored	-6586
lihood	-6587
reason	-6588
▁2000,	-6589
▁2005,	-6590
▁2020,	-6591
▁Chair	-6592
▁Cypri	-6593
▁Dutch	-6594
▁Ferre	-6595
▁Guine	-6596
▁Hamas	-6597
▁Memor	-6598
▁Until	-6599
▁allev	-6600
▁aside	-6601
▁audit	-6602
▁await	-6603
▁award	-6604
▁camps	-6605
▁catch	-6606
▁decre	-6607
▁dimin	-6608
▁domin	-6609
▁embar	-6610
▁error	-6611
▁exert	-6612
▁faire	-6613
▁farms	-6614
▁fewer	-6615
▁fresh	-6616
▁guard	-6617
▁lingu	-6618
▁manif	-6619
▁maybe	-6620
▁minor	-6621
▁moved	-6622
▁remov	-6623
▁rigor	-6624
▁route	-6625
▁ships	-6626
▁stead	-6627
▁units	-6628
▁zones	-6629
iminals	-6630
ophobia	-6631
plement	-6632
unction	-6633
▁Associ	-6634
▁Bureau	-6635
▁Gender	-6636
▁Geneva	-6637
▁Having	-6638
▁Latvia	-6639
▁Reform	-6640
▁Tajani	-6641
▁Ukrain	-6642
▁Whilst	-6643
▁adjust	-6644
▁became	-6645
▁collab	-6646
▁desper	-6647
▁easily	-6648
▁engine	-6649
▁expert	-6650
▁figure	-6651
▁fleets	-6652
▁floods	-6653
▁gained	-6654
▁inside	-6655
▁killed	-6656
▁landsc	-6657
▁letter	-6658
▁lifest	-6659
▁metres	-6660
▁murder	-6661
▁pursue	-6662
▁racism	-6663
▁ratify	-6664
▁remove	-6665
▁ruling	-6666
▁shares	-6667
▁smooth	-6668
▁specul	-6669
▁sports	-6670
▁summer	-6671
▁termin	-6672
▁topics	-6673
▁trends	-6674
▁twenty	-6675
▁utmost	-6676
▁warmly	-6677
▁weight	-6678
▁worker	-6679
egration	-6680
ervative	-6681
ffective	-6682
▁College	-6683
▁Culture	-6684
▁Opening	-6685
▁Workers	-6686
▁accused	-6687
▁applaud	-6688
▁arrived	-6689
▁banning	-6690
▁ceiling	-6691
▁combine	-6692
▁dioxide	-6693
▁focuses	-6694
▁foresee	-6695
▁founded	-6696
▁gradual	-6697
▁imagine	-6698
▁inhuman	-6699
▁mothers	-6700
▁placing	-6701
▁pretext	-6702
▁profits	-6703
▁promise	-6704
▁railway	-6705
▁reverse	-6706
▁satisfy	-6707
▁section	-6708
▁silence	-6709
▁unified	-6710
▁visible	-6711
▁Chairman	-6712
▁Monteneg	-6713
▁accident	-6714
▁admitted	-6715
▁alarming	-6716
▁arrested	-6717
▁assembly	-6718
▁autonomy	-6719
▁avoiding	-6720
▁billions	-6721
▁deforest	-6722
▁delivery	-6723
▁employed	-6724
▁facility	-6725
▁findings	-6726
▁indirect	-6727
▁innocent	-6728
▁isolated	-6729
▁location	-6730
▁medicine	-6731
▁mountain	-6732
▁northern	-6733
▁occasion	-6734
▁passport	-6735
▁producer	-6736
▁profound	-6737
▁promotes	-6738
▁protocol	-6739
▁rational	-6740
▁reaffirm	-6741
▁reflects	-6742
▁regulate	-6743
▁released	-6744
▁socially	-6745
▁tensions	-6746
▁underest	-6747
rehensible	-6748
respective	-6749
▁Education	-6750
▁Meanwhile	-6751
▁abstained	-6752
▁ambitions	-6753
▁assessing	-6754
▁broadband	-6755
▁campaigns	-6756
▁electoral	-6757
▁exchanges	-6758
▁illegally	-6759
▁inflation	-6760
▁liability	-6761
▁monitored	-6762
▁passenger	-6763
▁perfectly	-6764
▁permitted	-6765
▁redundant	-6766
▁replacing	-6767
▁responded	-6768
▁timetable	-6769
▁Concerning	-6770
▁adequately	-6771
▁benefiting	-6772
▁catastroph	-6773
▁comparable	-6774
▁complexity	-6775
▁contradict	-6776
▁criticised	-6777
▁dependence	-6778
▁emphasises	-6779
▁engagement	-6780
▁foundation	-6781
▁globalised	-6782
▁imperative	-6783
▁linguistic	-6784
▁monopolies	-6785
▁references	-6786
▁reflection	-6787
▁regulators	-6788
▁responding	-6789
▁safeguards	-6790
▁subsequent	-6791
▁tremendous	-6792
▁underlines	-6793
▁unemployed	-6794
▁weaknesses	-6795
▁Declaration	-6796
▁accordingly	-6797
▁acknowledge	-6798
▁commodities	-6799
▁consolidate	-6800
▁disparities	-6801
▁distinction	-6802
▁eliminating	-6803
▁imperialist	-6804
▁indications	-6805
▁intelligent	-6806
▁readmission	-6807
▁reciprocity	-6808
▁reinforcing	-6809
▁surrounding	-6810
▁territories	-6811
▁transferred	-6812
▁undoubtedly	-6813
▁Palestinians	-6814
▁acknowledged	-6815
▁availability	-6816
▁decommission	-6817
▁deliberately	-6818
▁deregulation	-6819
▁facilitating	-6820
▁mobilisation	-6821
▁registration	-6822
▁safeguarding	-6823
▁controversial	-6824
▁deforestation	-6825
▁interventions	-6826
▁macroeconomic	-6827
▁participating	-6828
▁supplementary	-6829
▁accountability	-6830
▁representation	-6831
▁congratulations	-6832
▁diversification	-6833
.)	-6834
.3	-6835
1%	-6836
15	-6837
4,	-6838
7,	-6839
8,	-6840
IA	-6841
In	-6842
RC	-6843
SA	-6844
gi	-6845
vy	-6846
aiw	-6847
att	-6848
hab	-6849
ken	-6850
mar	-6851
met	-6852
ney	-6853
ode	-6854
oli	-6855
omb	-6856
oty	-6857
ozy	-6858
pel	-6859
puy	-6860
rog	-6861
sch	-6862
ska	-6863
ste	-6864
sun	-6865
umn	-6866
zhe	-6867
▁2%	-6868
▁3%	-6869
▁35	-6870
▁80	-6871
▁Ca	-6872
▁IC	-6873
▁IP	-6874
▁Il	-6875
▁Kh	-6876
▁TV	-6877
▁sl	-6878
adox	-6879
alia	-6880
alib	-6881
ario	-6882
aste	-6883
berg	-6884
down	-6885
ener	-6886
gent	-6887
grad	-6888
iant	-6889
ileo	-6890
laim	-6891
lymp	-6892
mstr	-6893
oned	-6894
osph	-6895
ower	-6896
prom	-6897
rage	-6898
rier	-6899
road	-6900
rust	-6901
stan	-6902
stry	-6903
time	-6904
turn	-6905
unal	-6906
▁13.	-6907
▁150	-6908
▁80%	-6909
▁Air	-6910
▁Ban	-6911
▁Dav	-6912
▁Dep	-6913
▁Gal	-6914
▁HIV	-6915
▁Inc	-6916
▁McC	-6917
▁Nic	-6918
▁SOL	-6919
▁USA	-6920
▁Who	-6921
▁agg	-6922
▁fit	-6923
▁hyp	-6924
▁lie	-6925
▁sen	-6926
▁van	-6927
▁vit	-6928
adays	-6929
aiwan	-6930
allel	-6931
antly	-6932
aping	-6933
arged	-6934
aunch	-6935
erson	-6936
ients	-6937
istry	-6938
itary	-6939
known	-6940
ommod	-6941
ongue	-6942
plete	-6943
rical	-6944
rific	-6945
start	-6946
usion	-6947
▁142)	-6948
▁Data	-6949
▁Fort	-6950
▁Gold	-6951
▁Mich	-6952
▁Much	-6953
▁OECD	-6954
▁Oral	-6955
▁Sark	-6956
▁Soci	-6957
▁bill	-6958
▁bond	-6959
▁bott	-6960
▁capt	-6961
▁cell	-6962
▁cere	-6963
▁cope	-6964
▁deem	-6965
▁dele	-6966
▁died	-6967
▁doll	-6968
▁door	-6969
▁elab	-6970
▁flee	-6971
▁heed	-6972
▁insp	-6973
▁insu	-6974
▁lend	-6975
▁liqu	-6976
▁ment	-6977
▁onto	-6978
▁pace	-6979
▁perm	-6980
▁plus	-6981
▁scan	-6982
▁tone	-6983
▁tsun	-6984
▁uses	-6985
▁wall	-6986
aliban	-6987
arters	-6988
cement	-6989
etting	-6990
icular	-6991
iously	-6992
istrib	-6993
orship	-6994
ounded	-6995
ucasus	-6996
ughter	-6997
ultane	-6998
uments	-6999
▁Alzhe	-7000
▁Great	-7001
▁Guant	-7002
▁Islam	-7003
▁Kyoto	-7004
▁Olymp	-7005
▁Prize	-7006
▁accus	-7007
▁aquac	-7008
▁arbit	-7009
▁blame	-7010
▁chair	-7011
▁colon	-7012
▁doors	-7013
▁drugs	-7014
▁dying	-7015
▁elite	-7016
▁enfor	-7017
▁enshr	-7018
▁faith	-7019
▁homes	-7020
▁looph	-7021
▁meets	-7022
▁preca	-7023
▁reloc	-7024
▁safer	-7025
▁shame	-7026
▁signs	-7027
▁spare	-7028
▁storm	-7029
▁syner	-7030
ensions	-7031
hearted	-7032
igenous	-7033
istical	-7034
ization	-7035
orating	-7036
osphere	-7037
uration	-7038
▁Anyone	-7039
▁Darfur	-7040
▁Fourth	-7041
▁Guinea	-7042
▁Maurit	-7043
▁Refuge	-7044
▁Rompuy	-7045
▁Taiwan	-7046
▁abroad	-7047
▁advice	-7048
▁belief	-7049
▁convey	-7050
▁corrid	-7051
▁decade	-7052
▁denied	-7053
▁deploy	-7054
▁devote	-7055
▁disreg	-7056
▁eradic	-7057
▁fairer	-7058
▁handle	-7059
▁incred	-7060
▁interf	-7061
▁judges	-7062
▁makers	-7063
▁middle	-7064
▁openly	-7065
▁preced	-7066
▁recall	-7067
▁remedy	-7068
▁senior	-7069
▁sooner	-7070
▁struck	-7071
▁sudden	-7072
▁switch	-7073
▁taught	-7074
▁unique	-7075
▁unlike	-7076
▁voters	-7077
▁wasted	-7078
▁weapon	-7079
▁widely	-7080
cultural	-7081
friendly	-7082
iliation	-7083
pectives	-7084
ressions	-7085
▁Certain	-7086
▁Clearly	-7087
▁Galileo	-7088
▁Liberal	-7089
▁Malmstr	-7090
▁Morocco	-7091
▁Sarkozy	-7092
▁Seventh	-7093
▁Similar	-7094
▁Special	-7095
▁Taliban	-7096
▁Whether	-7097
▁alleged	-7098
▁article	-7099
▁assured	-7100
▁burdens	-7101
▁charges	-7102
▁clarity	-7103
▁closure	-7104
▁courses	-7105
▁declare	-7106
▁divided	-7107
▁dumping	-7108
▁ethical	-7109
▁exposed	-7110
▁federal	-7111
▁fishery	-7112
▁gaining	-7113
▁intense	-7114
▁knowing	-7115
▁popular	-7116
▁proving	-7117
▁quarter	-7118
▁regimes	-7119
▁removal	-7120
▁seekers	-7121
▁station	-7122
▁surplus	-7123
▁torture	-7124
▁tsunami	-7125
▁violent	-7126
▁visited	-7127
▁weather	-7128
▁website	-7129
ationally	-7130
emocratic	-7131
sequently	-7132
▁Caucasus	-7133
▁Children	-7134
▁Criminal	-7135
▁Decision	-7136
▁Eurojust	-7137
▁Slovenia	-7138
▁Southern	-7139
▁accurate	-7140
▁adapting	-7141
▁agreeing	-7142
▁chairman	-7143
▁convince	-7144
▁deadline	-7145
▁distingu	-7146
▁equipped	-7147
▁finished	-7148
▁flooding	-7149
▁focusing	-7150
▁generous	-7151
▁improves	-7152
▁integral	-7153
▁managers	-7154
▁managing	-7155
▁manifest	-7156
▁normally	-7157
▁obstacle	-7158
▁offences	-7159
▁operates	-7160
▁parallel	-7161
▁penalise	-7162
▁promises	-7163
▁reactors	-7164
▁reformed	-7165
▁resolute	-7166
▁reviewed	-7167
▁scenario	-7168
▁scrutiny	-7169
▁sessions	-7170
▁severely	-7171
▁soldiers	-7172
▁steadily	-7173
▁striving	-7174
▁tackling	-7175
ustainable	-7176
▁Alzheimer	-7177
▁Bulgarian	-7178
▁consulted	-7179
▁copyright	-7180
▁criminals	-7181
▁defenders	-7182
▁diagnosis	-7183
▁earmarked	-7184
▁exemption	-7185
▁expresses	-7186
▁extremist	-7187
▁forecasts	-7188
▁generated	-7189
▁harmonise	-7190
▁hopefully	-7191
▁household	-7192
▁isolation	-7193
▁judgments	-7194
▁landscape	-7195
▁pressures	-7196
▁realities	-7197
▁recycling	-7198
▁rejection	-7199
▁scheduled	-7200
▁shipyards	-7201
▁simultane	-7202
▁stimulate	-7203
▁suspended	-7204
▁synergies	-7205
▁tolerance	-7206
▁tradition	-7207
▁undertake	-7208
appropriate	-7209
operability	-7210
▁Belarusian	-7211
▁Democratic	-7212
▁Particular	-7213
▁accelerate	-7214
▁artificial	-7215
▁atmosphere	-7216
▁categories	-7217
▁conviction	-7218
▁decisively	-7219
▁dependency	-7220
▁destroying	-7221
▁difficulty	-7222
▁electrical	-7223
▁frameworks	-7224
▁functional	-7225
▁indigenous	-7226
▁influenced	-7227
▁journalist	-7228
▁livelihood	-7229
▁mentioning	-7230
▁presenting	-7231
▁quantities	-7232
▁regulating	-7233
▁remarkable	-7234
▁scientists	-7235
▁separately	-7236
▁separation	-7237
▁suggestion	-7238
▁university	-7239
▁Association	-7240
▁aquaculture	-7241
▁citizenship	-7242
▁combination	-7243
▁communicate	-7244
▁composition	-7245
▁constraints	-7246
▁financially	-7247
▁inspections	-7248
▁nonetheless	-7249
▁orientation	-7250
▁programming	-7251
▁simplifying	-7252
▁understands	-7253
▁civilisation	-7254
▁consolidated	-7255
▁continuation	-7256
▁infringement	-7257
▁insufficient	-7258
▁marginalised	-7259
▁perspectives	-7260
▁preparations	-7261
▁transmission	-7262
▁volunteering	-7263
discrimination	-7264
▁acknowledging	-7265
▁automatically	-7266
▁certification	-7267
▁collaboration	-7268
▁contamination	-7269
▁demonstration	-7270
▁inappropriate	-7271
▁independently	-7272
▁infringements	-7273
▁justification	-7274
▁manufacturing	-7275
▁modernisation	-7276
▁substantially	-7277
▁identification	-7278
▁systematically	-7279
27	-7280
29	-7281
3%	-7282
4%	-7283
45	-7284
BT	-7285
IF	-7286
dr	-7287
ew	-7288
hn	-7289
kh	-7290
▁x	-7291
Med	-7292
VIT	-7293
add	-7294
adm	-7295
ald	-7296
ato	-7297
atz	-7298
bul	-7299
cat	-7300
due	-7301
hof	-7302
ias	-7303
ili	-7304
ita	-7305
spe	-7306
tra	-7307
ugs	-7308
uin	-7309
upp	-7310
utr	-7311
xic	-7312
▁-.	-7313
▁7.	-7314
▁70	-7315
▁Ac	-7316
▁Az	-7317
▁Bu	-7318
▁Fl	-7319
▁IN	-7320
▁Ro	-7321
▁Sz	-7322
abot	-7323
anas	-7324
arag	-7325
athy	-7326
atri	-7327
coni	-7328
ctor	-7329
ella	-7330
gans	-7331
grow	-7332
ilos	-7333
irds	-7334
lied	-7335
mann	-7336
namo	-7337
olve	-7338
only	-7339
osta	-7340
oted	-7341
prof	-7342
requ	-7343
stat	-7344
tein	-7345
usal	-7346
ynne	-7347
▁196	-7348
▁Ass	-7349
▁Ben	-7350
▁Dal	-7351
▁ECB	-7352
▁FTA	-7353
▁Fed	-7354
▁Gra	-7355
▁His	-7356
▁IMF	-7357
▁Lif	-7358
▁Pat	-7359
▁Ple	-7360
▁Rel	-7361
▁Sak	-7362
▁adh	-7363
▁bul	-7364
▁bur	-7365
▁cha	-7366
▁fro	-7367
▁glo	-7368
▁hum	-7369
▁mad	-7370
▁nar	-7371
▁pus	-7372
▁swe	-7373
erate	-7374
essor	-7375
giene	-7376
iably	-7377
idesp	-7378
ience	-7379
itals	-7380
ivate	-7381
mense	-7382
ogues	-7383
phone	-7384
pling	-7385
rates	-7386
reach	-7387
reevy	-7388
roval	-7389
think	-7390
ulous	-7391
unate	-7392
urred	-7393
▁1997	-7394
▁2002	-7395
▁AIDS	-7396
▁Cohn	-7397
▁Each	-7398
▁Fran	-7399
▁Requ	-7400
▁Time	-7401
▁arch	-7402
▁aust	-7403
▁blat	-7404
▁bold	-7405
▁camp	-7406
▁cart	-7407
▁curb	-7408
▁dark	-7409
▁deny	-7410
▁diet	-7411
▁epid	-7412
▁fire	-7413
▁leak	-7414
▁recr	-7415
▁rend	-7416
▁roll	-7417
▁runs	-7418
▁sick	-7419
▁stem	-7420
▁trib	-7421
▁unav	-7422
▁uphe	-7423
Bendit	-7424
aining	-7425
apable	-7426
depend	-7427
enture	-7428
ereoty	-7429
erving	-7430
icking	-7431
ilised	-7432
minute	-7433
pelled	-7434
racies	-7435
ssetia	-7436
urrent	-7437
▁2007.	-7438
▁2013.	-7439
▁Allow	-7440
▁Leban	-7441
▁Lynne	-7442
▁Strip	-7443
▁acute	-7444
▁adult	-7445
▁alike	-7446
▁arena	-7447
▁argue	-7448
▁cease	-7449
▁cofin	-7450
▁conce	-7451
▁cruel	-7452
▁derog	-7453
▁disse	-7454
▁dream	-7455
▁facto	-7456
▁falls	-7457
▁fears	-7458
▁fifth	-7459
▁flags	-7460
▁grave	-7461
▁harsh	-7462
▁holds	-7463
▁hoped	-7464
▁hopes	-7465
▁hypoc	-7466
▁indis	-7467
▁inspe	-7468
▁logic	-7469
▁manip	-7470
▁mixed	-7471
▁notes	-7472
▁opens	-7473
▁owing	-7474
▁quote	-7475
▁resum	-7476
▁rough	-7477
▁socio	-7478
▁story	-7479
▁sugar	-7480
▁thres	-7481
▁train	-7482
▁tries	-7483
▁upgra	-7484
▁urges	-7485
abotage	-7486
agascar	-7487
aratory	-7488
atorium	-7489
habilit	-7490
icurity	-7491
igation	-7492
ilation	-7493
itative	-7494
looking	-7495
sistent	-7496
uestion	-7497
undling	-7498
urities	-7499
▁Access	-7500
▁Barrot	-7501
▁Instru	-7502
▁Muslim	-7503
▁Please	-7504
▁SOLVIT	-7505
▁Stream	-7506
▁Taking	-7507
▁Uganda	-7508
▁Verhof	-7509
▁agents	-7510
▁aiming	-7511
▁allies	-7512
▁arises	-7513
▁assent	-7514
▁autumn	-7515
▁backed	-7516
▁bacter	-7517
▁borrow	-7518
▁brutal	-7519
▁career	-7520
▁caught	-7521
▁condol	-7522
▁conven	-7523
▁corner	-7524
▁delays	-7525
▁devast	-7526
▁driven	-7527
▁entail	-7528
▁entity	-7529
▁escape	-7530
▁fallen	-7531
▁finish	-7532
▁frozen	-7533
▁geopol	-7534
▁grants	-7535
▁hatred	-7536
▁hinder	-7537
▁issued	-7538
▁leaves	-7539
▁marked	-7540
▁modest	-7541
▁piracy	-7542
▁privat	-7543
▁raises	-7544
▁refuse	-7545
▁regain	-7546
▁relate	-7547
▁resett	-7548
▁robust	-7549
▁routes	-7550
▁shield	-7551
▁stimul	-7552
▁strike	-7553
▁summar	-7554
▁suppli	-7555
▁tragic	-7556
▁vessel	-7557
▁widesp	-7558
ettinger	-7559
ilingual	-7560
national	-7561
▁Finland	-7562
▁Ossetia	-7563
▁Society	-7564
▁Somalia	-7565
▁backing	-7566
▁broadly	-7567
▁chances	-7568
▁claimed	-7569
▁compare	-7570
▁conform	-7571
▁dangers	-7572
▁deserve	-7573
▁devoted	-7574
▁emerged	-7575
▁footing	-7576
▁fragile	-7577
▁helpful	-7578
▁hygiene	-7579
▁immense	-7580
▁inquiry	-7581
▁insight	-7582
▁interim	-7583
▁journey	-7584
▁lacking	-7585
▁lengthy	-7586
▁offices	-7587
▁outline	-7588
▁overdue	-7589
▁paradox	-7590
▁patents	-7591
▁picture	-7592
▁premium	-7593
▁privile	-7594
▁protein	-7595
▁pursued	-7596
▁pushing	-7597
▁ratings	-7598
▁recital	-7599
▁renewal	-7600
▁signing	-7601
▁smoking	-7602
▁statute	-7603
▁stepped	-7604
▁stopped	-7605
▁strange	-7606
▁surface	-7607
▁tariffs	-7608
▁telecom	-7609
▁testing	-7610
▁topical	-7611
▁typical	-7612
▁whereas	-7613
▁worried	-7614
ereotypes	-7615
▁Approval	-7616
▁Everyone	-7617
▁McCreevy	-7618
▁Measures	-7619
▁Ministry	-7620
▁Recently	-7621
▁Sudanese	-7622
▁accommod	-7623
▁analyses	-7624
▁anywhere	-7625
▁auditing	-7626
▁believed	-7627
▁breaches	-7628
▁confused	-7629
▁deficits	-7630
▁describe	-7631
▁dictator	-7632
▁disabled	-7633
▁distance	-7634
▁eligible	-7635
▁evaluate	-7636
▁excluded	-7637
▁expanded	-7638
▁forestry	-7639
▁formally	-7640
▁hydrogen	-7641
▁ignoring	-7642
▁inhumane	-7643
▁insisted	-7644
▁invested	-7645
▁meantime	-7646
▁missions	-7647
▁multiple	-7648
▁nonsense	-7649
▁offering	-7650
▁operator	-7651
▁proclaim	-7652
▁produces	-7653
▁punished	-7654
▁pursuant	-7655
▁reminded	-7656
▁revealed	-7657
▁sections	-7658
▁shipping	-7659
▁slightly	-7660
▁subjects	-7661
▁taxpayer	-7662
▁teachers	-7663
▁unreason	-7664
compliance	-7665
▁Americans	-7666
▁Democracy	-7667
▁Eurogroup	-7668
▁Goldstone	-7669
▁Oettinger	-7670
▁Ukrainian	-7671
▁Venezuela	-7672
▁alleviate	-7673
▁amounting	-7674
▁apologise	-7675
▁austerity	-7676
▁childhood	-7677
▁component	-7678
▁confident	-7679
▁corporate	-7680
▁customers	-7681
▁decentral	-7682
▁diplomacy	-7683
▁disappear	-7684
▁dominated	-7685
▁encounter	-7686
▁evaluated	-7687
▁execution	-7688
▁executive	-7689
▁exercised	-7690
▁exploited	-7691
▁frequency	-7692
▁fulfilled	-7693
▁incidents	-7694
▁incorrect	-7695
▁indicates	-7696
▁indicator	-7697
▁interfere	-7698
▁interview	-7699
▁liberties	-7700
▁literally	-7701
▁mediation	-7702
▁motivated	-7703
▁oversight	-7704
▁preferred	-7705
▁president	-7706
▁promising	-7707
▁readiness	-7708
▁receiving	-7709
▁recession	-7710
▁redistrib	-7711
▁returning	-7712
▁reviewing	-7713
▁screening	-7714
▁selection	-7715
▁sentenced	-7716
▁spreading	-7717
▁threshold	-7718
▁translate	-7719
▁unanimity	-7720
▁undertook	-7721
▁witnessed	-7722
▁Everything	-7723
▁Federation	-7724
▁Instrument	-7725
▁Madagascar	-7726
▁Mauritania	-7727
▁Montenegro	-7728
▁advantages	-7729
▁allowances	-7730
▁background	-7731
▁boundaries	-7732
▁capacities	-7733
▁compensate	-7734
▁definitive	-7735
▁discipline	-7736
▁ecosystems	-7737
▁electorate	-7738
▁encourages	-7739
▁exacerbate	-7740
▁executions	-7741
▁incomplete	-7742
▁inspection	-7743
▁legislator	-7744
▁moratorium	-7745
▁obligatory	-7746
▁organising	-7747
▁overcoming	-7748
▁precaution	-7749
▁preventive	-7750
▁prioritise	-7751
▁procedural	-7752
▁processing	-7753
▁scandalous	-7754
▁settlement	-7755
▁successive	-7756
▁supporters	-7757
▁unbundling	-7758
▁undermined	-7759
▁widespread	-7760
▁withdrawal	-7761
ministration	-7762
▁Immigration	-7763
▁Verhofstadt	-7764
▁challenging	-7765
▁concessions	-7766
▁counterfeit	-7767
▁democracies	-7768
▁examination	-7769
▁flexicurity	-7770
▁generations	-7771
▁innovations	-7772
▁interdepend	-7773
▁intolerable	-7774
▁ministerial	-7775
▁perpetrated	-7776
▁preparatory	-7777
▁researchers	-7778
▁restrictive	-7779
▁secretariat	-7780
▁undermining	-7781
▁utilisation	-7782
Mediterranean	-7783
▁Consequently	-7784
▁alternatives	-7785
▁catastrophic	-7786
▁condemnation	-7787
▁confidential	-7788
▁coordinating	-7789
▁disabilities	-7790
▁geopolitical	-7791
▁highlighting	-7792
▁inconsistent	-7793
▁irrespective	-7794
▁presidential	-7795
▁verification	-7796
▁characterised	-7797
▁clarification	-7798
▁demonstrators	-7799
▁exceptionally	-7800
▁irresponsible	-7801
▁reintegration	-7802
▁considerations	-7803
▁discriminatory	-7804
▁investigations	-7805
▁specifications	-7806
▁decommissioning	-7807
(5	-7808
1.	-7809
4)	-7810
4.	-7811
6%	-7812
8.	-7813
An	-7814
DG	-7815
IM	-7816
TP	-7817
TS	-7818
ek	-7819
vo	-7820
▁:	-7821
-00	-7822
-20	-7823
DEM	-7824
EAS	-7825
EGF	-7826
For	-7827
SCE	-7828
SEC	-7829
adi	-7830
afi	-7831
agn	-7832
ala	-7833
asc	-7834
bar	-7835
cho	-7836
cul	-7837
eds	-7838
eel	-7839
emb	-7840
erm	-7841
how	-7842
ibb	-7843
ids	-7844
ikh	-7845
ils	-7846
ima	-7847
iov	-7848
ley	-7849
mes	-7850
och	-7851
oil	-7852
oks	-7853
oul	-7854
rew	-7855
ulf	-7856
unt	-7857
urt	-7858
usz	-7859
uty	-7860
▁1%	-7861
▁5%	-7862
▁6.	-7863
▁Ah	-7864
▁Em	-7865
▁La	-7866
▁Mi	-7867
▁ep	-7868
▁ps	-7869
2009	-7870
High	-7871
aces	-7872
ancy	-7873
arer	-7874
arth	-7875
atab	-7876
atal	-7877
ball	-7878
comp	-7879
cont	-7880
edes	-7881
enth	-7882
gred	-7883
idal	-7884
iest	-7885
inen	-7886
isch	-7887
lete	-7888
orne	-7889
oure	-7890
plan	-7891
reme	-7892
teen	-7893
tini	-7894
vene	-7895
view	-7896
ware	-7897
with	-7898
▁1.5	-7899
▁195	-7900
▁25%	-7901
▁400	-7902
▁Bas	-7903
▁Bud	-7904
▁Cot	-7905
▁Doc	-7906
▁Due	-7907
▁Equ	-7908
▁Fig	-7909
▁ICT	-7910
▁IND	-7911
▁MDG	-7912
▁San	-7913
▁Sky	-7914
▁Sri	-7915
▁Tom	-7916
▁UEN	-7917
▁USD	-7918
▁ben	-7919
▁cul	-7920
▁dup	-7921
▁eco	-7922
▁flu	-7923
▁geo	-7924
▁hol	-7925
▁hot	-7926
▁hus	-7927
▁	-7928
e	-7929
t	-7930
o	-7931
i	-7932
a	-7933
n	-7934
s	-7935
r	-7936
h	-7937
l	-7938
d	-7939
c	-7940
u	-7941
m	-7942
p	-7943
f	-7944
g	-7945
w	-7946
y	-7947
b	-7948
v	-7949
,	-7950
.	-7951
k	-7952
I	-7953
E	-7954
T	-7955
C	-7956
M	-7957
P	-7958
-	-7959
S	-7960
x	-7961
U	-7962
A	-7963
0	-7964
'	-7965
j	-7966
W	-7967
q	-7968
2	-7969
F	-7970
R	-7971
(	-7972
)	-7973
1	-7974
G	-7975
B	-7976
L	-7977
H	-7978
D	-7979
z	-7980
O	-7981
N	-7982
:	-7983
9	-7984
5	-7985
?	-7986
3	-7987
J	-7988
;	-7989
K	-7990
4	-7991
8	-7992
7	-7993
6	-7994
V	-7995
%	-7996
