<pad>	0
</s>	0
<unk>	0
▁t	-0
▁th	-1
▁a	-2
in	-3
▁the	-4
re	-5
on	-6
at	-7
en	-8
is	-9
▁o	-10
er	-11
▁w	-12
▁s	-13
it	-14
▁c	-15
ion	-16
or	-17
an	-18
▁p	-19
es	-20
▁of	-21
▁in	-22
▁to	-23
▁an	-24
▁f	-25
▁b	-26
ro	-27
al	-28
▁and	-29
ed	-30
ing	-31
▁m	-32
ar	-33
ent	-34
ou	-35
ic	-36
▁h	-37
▁re	-38
▁d	-39
le	-40
om	-41
ve	-42
▁n	-43
st	-44
▁be	-45
▁I	-46
▁is	-47
ct	-48
▁that	-49
il	-50
▁e	-51
ation	-52
pe	-53
as	-54
ly	-55
▁E	-56
ment	-57
▁for	-58
▁on	-59
ot	-60
▁T	-61
im	-62
▁wh	-63
ut	-64
▁we	-65
id	-66
▁l	-67
▁pro	-68
ur	-69
se	-70
ort	-71
▁C	-72
▁g	-73
▁M	-74
▁Th	-75
ol	-76
ce	-77
uro	-78
▁con	-79
▁al	-80
▁Euro	-81
un	-82
et	-83
▁it	-84
▁Europe	-85
ver	-86
port	-87
res	-88
▁this	-89
ul	-90
ra	-91
▁are	-92
ig	-93
▁as	-94
ld	-95
▁P	-96
▁ha	-97
▁de	-98
ith	-99
ow	-100
omm	-101
ch	-102
▁st	-103
ies	-104
▁with	-105
ate	-106
▁S	-107
ill	-108
▁European	-109
ould	-110
▁have	-111
▁su	-112
▁not	-113
ir	-114
▁The	-115
▁ne	-116
em	-117
ity	-118
sion	-119
op	-120
oun	-121
ive	-122
ay	-123
th	-124
ad	-125
us	-126
ers	-127
ble	-128
ke	-129
▁A	-130
ci	-131
ich	-132
ore	-133
▁im	-134
▁ex	-135
▁will	-136
ant	-137
os	-138
ust	-139
▁which	-140
ect	-141
ess	-142
▁v	-143
ter	-144
▁y	-145
▁Comm	-146
ia	-147
▁en	-148
igh	-149
▁by	-150
ain	-151
▁sh	-152
▁W	-153
▁r	-154
if	-155
qu	-156
ission	-157
▁ag	-158
est	-159
ge	-160
ber	-161
ere	-162
iv	-163
▁res	-164
▁has	-165
am	-166
▁-	-167
▁at	-168
our	-169
tr	-170
▁com	-171
ure	-172
art	-173
um	-174
▁U	-175
▁Commission	-176
▁le	-177
so	-178
▁all	-179
ions	-180
ight	-181
▁or	-182
und	-183
ident	-184
▁se	-185
▁Mr	-186
pp	-187
▁also	-188
ff	-189
▁wor	-190
rom	-191
od	-192
▁so	-193
▁Pres	-194
▁(	-195
ie	-196
ist	-197
el	-198
cial	-199
▁EU	-200
▁int	-201
▁Un	-202
ard	-203
and	-204
ates	-205
▁would	-206
▁reg	-207
▁me	-208
▁pol	-209
end	-210
▁do	-211
pport	-212
ud	-213
▁Mem	-214
▁St	-215
▁our	-216
▁from	-217
▁part	-218
▁fa	-219
▁can	-220
up	-221
very	-222
▁there	-223
▁ta	-224
▁President	-225
▁ad	-226
▁F	-227
▁should	-228
con	-229
▁We	-230
vel	-231
ree	-232
ations	-233
▁ch	-234
▁coun	-235
▁2	-236
▁must	-237
▁In	-238
use	-239
ult	-240
arl	-241
▁G	-242
ans	-243
▁H	-244
▁but	-245
▁am	-246
▁need	-247
▁Member	-248
cc	-249
▁B	-250
▁countr	-251
▁Union	-252
arlia	-253
arliament	-254
du	-255
▁go	-256
▁ab	-257
ue	-258
reat	-259
ally	-260
▁It	-261
ments	-262
ren	-263
all	-264
▁ma	-265
▁R	-266
▁inc	-267
ous	-268
pl	-269
out	-270
oc	-271
ome	-272
▁been	-273
▁report	-274
ance	-275
▁States	-276
ab	-277
ire	-278
ish	-279
▁import	-280
▁imp	-281
▁li	-282
▁tr	-283
▁Parliament	-284
▁co	-285
▁you	-286
king	-287
▁more	-288
ther	-289
▁dis	-290
▁j	-291
▁their	-292
ary	-293
▁fin	-294
ac	-295
▁right	-296
▁us	-297
si	-298
ast	-299
able	-300
▁cont	-301
▁un	-302
▁comm	-303
▁its	-304
gh	-305
▁like	-306
▁was	-307
ction	-308
▁20	-309
ical	-310
ose	-311
▁L	-312
ens	-313
conom	-314
ime	-315
▁This	-316
gy	-317
▁very	-318
cil	-319
▁cr	-320
▁pl	-321
▁prop	-322
ong	-323
▁app	-324
▁qu	-325
iti	-326
▁pr	-327
▁cons	-328
▁bec	-329
ational	-330
cy	-331
▁polic	-332
ear	-333
▁who	-334
▁pe	-335
tern	-336
▁D	-337
▁these	-338
fore	-339
▁econom	-340
pt	-341
ition	-342
▁support	-343
ial	-344
▁important	-345
ities	-346
ause	-347
ark	-348
▁pos	-349
ress	-350
▁eff	-351
▁1	-352
▁they	-353
velop	-354
▁O	-355
▁str	-356
▁countries	-357
ution	-358
▁comp	-359
▁man	-360
ated	-361
▁bet	-362
her	-363
▁work	-364
▁Coun	-365
▁conc	-366
ople	-367
▁acc	-368
▁Council	-369
for	-370
▁one	-371
ise	-372
get	-373
ces	-374
itt	-375
ence	-376
ll	-377
▁pre	-378
age	-379
ject	-380
▁new	-381
▁than	-382
pect	-383
▁out	-384
▁he	-385
▁about	-386
ide	-387
▁po	-388
▁cl	-389
ign	-390
bl	-391
▁vot	-392
▁other	-393
▁ind	-394
▁people	-395
▁develop	-396
ob	-397
▁propos	-398
ility	-399
ms	-400
ced	-401
int	-402
▁agree	-403
▁my	-404
ever	-405
▁und	-406
▁N	-407
▁spe	-408
▁sa	-409
ice	-410
are	-411
▁partic	-412
ag	-413
▁act	-414
▁year	-415
▁ra	-416
▁because	-417
one	-418
ep	-419
▁time	-420
▁tra	-421
ular	-422
▁up	-423
▁again	-424
arket	-425
ase	-426
cess	-427
▁policy	-428
▁only	-429
ieve	-430
▁leg	-431
▁what	-432
▁trans	-433
▁dec	-434
▁iss	-435
▁rec	-436
▁prov	-437
ern	-438
ord	-439
▁em	-440
▁under	-441
owever	-442
str	-443
ative	-444
ures	-445
ious	-446
ost	-447
ap	-448
ach	-449
og	-450
we	-451
▁ev	-452
fic	-453
▁market	-454
▁rights	-455
lear	-456
ip	-457
ib	-458
▁economic	-459
▁k	-460
▁dem	-461
▁rel	-462
me	-463
▁finan	-464
▁op	-465
erv	-466
form	-467
▁inv	-468
▁gro	-469
ine	-470
▁particular	-471
ention	-472
▁such	-473
ween	-474
▁produ	-475
▁between	-476
ame	-477
▁prot	-478
▁them	-479
ating	-480
▁bel	-481
pon	-482
ack	-483
ert	-484
uman	-485
▁into	-486
ink	-487
resent	-488
eren	-489
▁no	-490
▁now	-491
itiz	-492
lud	-493
▁if	-494
▁exp	-495
▁polit	-496
▁proposal	-497
irect	-498
▁fund	-499
ues	-500
▁sy	-501
ugh	-502
ian	-503
▁ob	-504
irst	-505
▁citiz	-506
xt	-507
ubl	-508
▁make	-509
sible	-510
act	-511
▁200	-512
▁ter	-513
▁take	-514
▁dif	-515
▁some	-516
▁ro	-517
ergy	-518
der	-519
▁protect	-520
ives	-521
ency	-522
▁respon	-523
eration	-524
ee	-525
▁those	-526
▁'	-527
▁any	-528
▁per	-529
stem	-530
▁citizens	-531
ace	-532
ards	-533
ade	-534
ict	-535
▁deb	-536
feren	-537
▁intern	-538
▁when	-539
ri	-540
▁proble	-541
vern	-542
lement	-543
▁therefore	-544
ural	-545
▁financial	-546
now	-547
▁fact	-548
stit	-549
▁human	-550
ov	-551
▁sub	-552
▁say	-553
▁ens	-554
eg	-555
day	-556
ks	-557
▁just	-558
▁clear	-559
ors	-560
▁concern	-561
ublic	-562
▁te	-563
▁sit	-564
▁appro	-565
▁incre	-566
▁over	-567
▁social	-568
ple	-569
▁meas	-570
▁being	-571
▁system	-572
▁against	-573
▁believe	-574
▁prog	-575
rent	-576
▁way	-577
▁cris	-578
▁energy	-579
rit	-580
▁point	-581
uation	-582
▁chan	-583
▁As	-584
unity	-585
rough	-586
▁political	-587
olution	-588
▁see	-589
ific	-590
▁bas	-591
de	-592
▁want	-593
ak	-594
ric	-595
▁many	-596
▁add	-597
▁rem	-598
▁disc	-599
rat	-600
sel	-601
▁crisis	-602
oy	-603
▁think	-604
▁were	-605
▁effect	-606
ual	-607
▁well	-608
▁requ	-609
▁However	-610
▁made	-611
▁know	-612
▁good	-613
▁quest	-614
▁great	-615
▁level	-616
▁There	-617
▁first	-618
▁la	-619
stru	-620
ision	-621
low	-622
iew	-623
▁includ	-624
mental	-625
ind	-626
▁att	-627
▁development	-628
lect	-629
ulation	-630
ices	-631
ised	-632
ful	-633
opt	-634
▁country	-635
▁Commissioner	-636
▁ent	-637
▁high	-638
ving	-639
▁order	-640
▁situation	-641
▁measures	-642
▁adopt	-643
isation	-644
▁ass	-645
udget	-646
▁cur	-647
ough	-648
▁use	-649
pet	-650
▁Wh	-651
ved	-652
uch	-653
ild	-654
▁Ch	-655
ism	-656
▁years	-657
uture	-658
uc	-659
▁implement	-660
ood	-661
▁sec	-662
▁direct	-663
▁ext	-664
▁mat	-665
▁future	-666
▁where	-667
iven	-668
▁national	-669
▁contin	-670
▁issue	-671
▁aut	-672
ety	-673
cept	-674
not	-675
▁coop	-676
wn	-677
read	-678
▁ensure	-679
utions	-680
ied	-681
▁J	-682
ry	-683
▁agreement	-684
▁through	-685
▁cre	-686
oth	-687
▁regard	-688
▁most	-689
▁debate	-690
▁sect	-691
▁result	-692
isl	-693
▁fe	-694
▁even	-695
ite	-696
▁today	-697
▁ac	-698
imate	-699
▁budget	-700
▁public	-701
▁same	-702
ittee	-703
ount	-704
ploy	-705
▁Mad	-706
ality	-707
▁every	-708
▁inform	-709
bers	-710
▁world	-711
wor	-712
iron	-713
urity	-714
▁rep	-715
▁compet	-716
ings	-717
▁tw	-718
ove	-719
arm	-720
▁here	-721
ertain	-722
ory	-723
uring	-724
▁legisl	-725
eur	-726
▁ach	-727
▁Madam	-728
alth	-729
ope	-730
viron	-731
cing	-732
▁call	-733
ram	-734
ass	-735
▁sign	-736
▁gen	-737
▁current	-738
▁neg	-739
▁strate	-740
▁possible	-741
reaty	-742
▁cannot	-743
▁sp	-744
▁impro	-745
▁hel	-746
▁area	-747
▁That	-748
▁exam	-749
▁long	-750
abl	-751
▁too	-752
▁consid	-753
erest	-754
▁govern	-755
▁respect	-756
▁democ	-757
▁protection	-758
men	-759
▁help	-760
ici	-761
ile	-762
▁ar	-763
▁could	-764
▁cooperation	-765
▁two	-766
▁beh	-767
▁cour	-768
omen	-769
▁end	-770
▁question	-771
orities	-772
ited	-773
reed	-774
▁law	-775
▁much	-776
▁does	-777
hip	-778
▁ful	-779
▁interest	-780
pporteur	-781
sib	-782
▁international	-783
ph	-784
▁how	-785
uss	-786
▁common	-787
ute	-788
▁fav	-789
ority	-790
▁vote	-791
▁prom	-792
▁gl	-793
▁rapporteur	-794
ready	-795
▁environ	-796
▁mon	-797
▁already	-798
▁auth	-799
▁set	-800
ail	-801
▁gu	-802
▁serv	-803
▁process	-804
ract	-805
▁voted	-806
trib	-807
▁said	-808
bon	-809
▁instit	-810
▁had	-811
▁certain	-812
▁both	-813
▁prev	-814
▁num	-815
▁redu	-816
▁your	-817
work	-818
▁view	-819
eral	-820
▁sol	-821
▁within	-822
itions	-823
▁tak	-824
▁put	-825
▁still	-826
▁On	-827
▁Treaty	-828
ges	-829
obal	-830
▁favour	-831
▁Gro	-832
▁own	-833
▁resolution	-834
▁writ	-835
▁consum	-836
ays	-837
come	-838
▁def	-839
▁conf	-840
▁region	-841
00	-842
ince	-843
▁necess	-844
▁ref	-845
▁car	-846
▁stand	-847
▁off	-848
▁saf	-849
▁security	-850
▁state	-851
ason	-852
▁sim	-853
▁change	-854
▁col	-855
▁K	-856
alf	-857
▁wel	-858
▁fra	-859
▁est	-860
▁differen	-861
▁invest	-862
▁writing	-863
▁cond	-864
▁amend	-865
▁main	-866
▁Committee	-867
▁dra	-868
▁hope	-869
▁health	-870
▁ser	-871
inci	-872
▁why	-873
cond	-874
▁sector	-875
oti	-876
▁course	-877
▁princi	-878
ene	-879
ential	-880
lu	-881
▁maj	-882
▁able	-883
▁reason	-884
▁opport	-885
entle	-886
▁min	-887
gan	-888
▁gentle	-889
urther	-890
▁information	-891
▁allow	-892
▁object	-893
▁case	-894
adies	-895
illion	-896
▁gentlemen	-897
▁negoti	-898
▁ke	-899
▁place	-900
ination	-901
oo	-902
te	-903
▁product	-904
arge	-905
▁group	-906
eth	-907
▁br	-908
▁last	-909
▁inter	-910
ec	-911
▁pers	-912
▁increas	-913
ration	-914
▁program	-915
▁Group	-916
ability	-917
▁Con	-918
▁women	-919
▁initi	-920
ty	-921
▁particularly	-922
itive	-923
▁V	-924
▁present	-925
▁global	-926
chn	-927
ules	-928
▁role	-929
▁problem	-930
▁necessary	-931
ablish	-932
▁des	-933
▁Mrs	-934
▁example	-935
▁effective	-936
▁indust	-937
▁action	-938
ources	-939
▁av	-940
ricult	-941
▁without	-942
▁issues	-943
▁trade	-944
▁equ	-945
▁appl	-946
▁provid	-947
arch	-948
ollow	-949
▁represent	-950
air	-951
▁needs	-952
▁thank	-953
▁taken	-954
isbon	-955
▁number	-956
▁lead	-957
mework	-958
▁establish	-959
▁real	-960
▁contrib	-961
▁require	-962
man	-963
ines	-964
▁means	-965
ft	-966
▁problems	-967
oura	-968
fter	-969
ves	-970
▁med	-971
▁areas	-972
▁invol	-973
▁Lisbon	-974
▁aim	-975
▁promot	-976
▁climate	-977
▁may	-978
red	-979
▁201	-980
iver	-981
pa	-982
▁sm	-983
cific	-984
ising	-985
ently	-986
ang	-987
▁pow	-988
▁better	-989
▁account	-990
▁techn	-991
own	-992
▁val	-993
▁grow	-994
▁ask	-995
▁rev	-996
pr	-997
▁aw	-998
▁strategy	-999
▁behalf	-1000
ning	-1001
sibility	-1002
▁det	-1003
ployment	-1004
▁effort	-1005
▁access	-1006
rodu	-1007
▁legal	-1008
ether	-1009
▁since	-1010
▁follow	-1011
reedom	-1012
▁pri	-1013
▁his	-1014
▁then	-1015
▁aff	-1016
▁deal	-1017
▁elect	-1018
▁inf	-1019
ficult	-1020
ird	-1021
▁If	-1022
▁difficult	-1023
ening	-1024
old	-1025
▁rules	-1026
▁For	-1027
▁child	-1028
▁consider	-1029
▁ladies	-1030
ound	-1031
ital	-1032
▁agricult	-1033
ouse	-1034
▁specific	-1035
▁form	-1036
fit	-1037
▁job	-1038
idency	-1039
gth	-1040
▁meet	-1041
DE	-1042
▁different	-1043
iness	-1044
amental	-1045
▁give	-1046
▁approach	-1047
ners	-1048
▁however	-1049
▁imm	-1050
▁project	-1051
20	-1052
▁institutions	-1053
stain	-1054
▁strong	-1055
ank	-1056
ell	-1057
▁serious	-1058
▁including	-1059
▁legislation	-1060
▁freedom	-1061
ession	-1062
▁terms	-1063
▁proced	-1064
ward	-1065
▁improve	-1066
land	-1067
▁welcome	-1068
▁3	-1069
▁organ	-1070
▁next	-1071
▁Min	-1072
▁framework	-1073
ately	-1074
wards	-1075
▁bene	-1076
ents	-1077
▁food	-1078
▁given	-1079
▁further	-1080
▁services	-1081
▁es	-1082
▁continue	-1083
arant	-1084
▁step	-1085
ug	-1086
▁So	-1087
▁loo	-1088
arity	-1089
▁directive	-1090
ting	-1091
racy	-1092
▁far	-1093
▁Members	-1094
▁sc	-1095
pecial	-1096
ss	-1097
▁opin	-1098
isions	-1099
▁whether	-1100
ered	-1101
▁before	-1102
imes	-1103
▁come	-1104
▁tax	-1105
▁progress	-1106
▁find	-1107
iol	-1108
▁guarant	-1109
▁increase	-1110
▁tal	-1111
▁instru	-1112
allen	-1113
▁economy	-1114
▁bus	-1115
▁cap	-1116
▁transport	-1117
▁cost	-1118
rength	-1119
oint	-1120
▁adopted	-1121
chan	-1122
▁fore	-1123
▁provide	-1124
ises	-1125
leg	-1126
ratic	-1127
▁decision	-1128
▁Se	-1129
self	-1130
▁fish	-1131
▁strength	-1132
▁pract	-1133
▁pay	-1134
iving	-1135
▁comple	-1136
▁after	-1137
ication	-1138
▁Presidency	-1139
▁hand	-1140
▁ess	-1141
▁resources	-1142
▁mention	-1143
▁matter	-1144
▁products	-1145
▁State	-1146
▁integ	-1147
▁Ag	-1148
▁crit	-1149
▁mod	-1150
▁ur	-1151
▁happ	-1152
▁achieve	-1153
min	-1154
▁contro	-1155
▁De	-1156
stand	-1157
pecially	-1158
▁rat	-1159
▁soci	-1160
▁exist	-1161
▁regulation	-1162
▁authorities	-1163
▁policies	-1164
▁challen	-1165
als	-1166
▁position	-1167
ran	-1168
ese	-1169
▁wish	-1170
▁ris	-1171
▁especially	-1172
ner	-1173
led	-1174
lusion	-1175
▁introdu	-1176
▁Pro	-1177
▁conditions	-1178
▁regul	-1179
ne	-1180
tain	-1181
▁plan	-1182
he	-1183
gether	-1184
▁towards	-1185
▁business	-1186
▁som	-1187
ten	-1188
ccess	-1189
▁small	-1190
▁basis	-1191
▁person	-1192
▁opportunity	-1193
▁start	-1194
▁proposals	-1195
▁commit	-1196
▁rese	-1197
▁fundamental	-1198
▁remain	-1199
▁importance	-1200
rant	-1201
▁done	-1202
ross	-1203
▁mem	-1204
▁working	-1205
▁get	-1206
▁sustain	-1207
ually	-1208
▁activ	-1209
▁compan	-1210
▁cor	-1211
▁going	-1212
▁forward	-1213
▁during	-1214
▁word	-1215
▁ed	-1216
▁viol	-1217
▁opinion	-1218
▁relations	-1219
▁signific	-1220
▁play	-1221
osed	-1222
▁back	-1223
▁An	-1224
▁aid	-1225
▁At	-1226
▁EUR	-1227
utes	-1228
▁Community	-1229
▁What	-1230
▁third	-1231
ared	-1232
▁success	-1233
▁few	-1234
▁used	-1235
▁United	-1236
▁implementation	-1237
▁addition	-1238
▁million	-1239
atives	-1240
▁effici	-1241
▁bu	-1242
ified	-1243
▁together	-1244
▁Fund	-1245
▁adv	-1246
▁safety	-1247
▁workers	-1248
▁subject	-1249
▁negotiations	-1250
ify	-1251
other	-1252
ily	-1253
▁pur	-1254
▁free	-1255
▁expl	-1256
▁supp	-1257
▁greater	-1258
▁lif	-1259
ata	-1260
▁three	-1261
ased	-1262
▁educ	-1263
mit	-1264
▁research	-1265
▁second	-1266
▁Af	-1267
▁transpa	-1268
▁Rom	-1269
ath	-1270
▁comb	-1271
▁essential	-1272
▁lab	-1273
ret	-1274
▁del	-1275
▁enc	-1276
▁show	-1277
▁whole	-1278
▁impact	-1279
▁funds	-1280
▁nat	-1281
av	-1282
selves	-1283
ogn	-1284
▁move	-1285
ivil	-1286
iod	-1287
▁based	-1288
arian	-1289
▁growth	-1290
▁really	-1291
▁House	-1292
imin	-1293
▁var	-1294
▁express	-1295
ases	-1296
sequ	-1297
ences	-1298
ivers	-1299
▁suff	-1300
▁efforts	-1301
▁attention	-1302
▁5	-1303
▁text	-1304
▁benefit	-1305
struct	-1306
overn	-1307
▁industry	-1308
▁fight	-1309
▁children	-1310
nov	-1311
ways	-1312
▁large	-1313
▁partners	-1314
▁accept	-1315
urn	-1316
▁reach	-1317
▁less	-1318
▁ins	-1319
▁oper	-1320
▁ide	-1321
▁recogn	-1322
▁responsibility	-1323
▁data	-1324
▁bring	-1325
▁discuss	-1326
▁power	-1327
▁major	-1328
▁tar	-1329
tic	-1330
▁democracy	-1331
▁colle	-1332
▁did	-1333
ists	-1334
▁significant	-1335
ivid	-1336
▁coh	-1337
▁while	-1338
ium	-1339
▁vis	-1340
▁achie	-1341
ension	-1342
▁become	-1343
▁speak	-1344
uct	-1345
les	-1346
▁environmental	-1347
▁clearly	-1348
ification	-1349
▁environment	-1350
▁ban	-1351
▁understand	-1352
▁creat	-1353
pri	-1354
▁Fin	-1355
▁control	-1356
▁Intern	-1357
ingle	-1358
▁commun	-1359
▁extre	-1360
▁making	-1361
▁These	-1362
▁prevent	-1363
▁society	-1364
▁standards	-1365
ick	-1366
▁principle	-1367
▁democratic	-1368
▁manage	-1369
ule	-1370
▁down	-1371
ened	-1372
▁another	-1373
rency	-1374
eri	-1375
▁address	-1376
ussia	-1377
▁consumers	-1378
oney	-1379
ething	-1380
▁interests	-1381
▁internal	-1382
▁ca	-1383
▁They	-1384
ged	-1385
▁cult	-1386
▁increasing	-1387
▁prep	-1388
▁pass	-1389
ible	-1390
▁Pol	-1391
▁regions	-1392
ror	-1393
▁ple	-1394
▁euro	-1395
▁air	-1396
▁positive	-1397
▁affect	-1398
idarity	-1399
ussion	-1400
ples	-1401
ral	-1402
▁look	-1403
ances	-1404
▁taking	-1405
▁pop	-1406
▁something	-1407
▁4	-1408
istr	-1409
▁encoura	-1410
▁assist	-1411
▁bl	-1412
▁loc	-1413
▁money	-1414
ness	-1415
▁coord	-1416
▁cent	-1417
▁least	-1418
▁proposed	-1419
ically	-1420
cies	-1421
ech	-1422
▁Am	-1423
▁expect	-1424
▁education	-1425
▁Direct	-1426
olog	-1427
▁agricultural	-1428
▁programme	-1429
▁general	-1430
▁dep	-1431
gest	-1432
▁among	-1433
▁opp	-1434
ics	-1435
ina	-1436
▁care	-1437
▁always	-1438
▁fail	-1439
▁pres	-1440
▁civil	-1441
▁read	-1442
▁abs	-1443
▁Russia	-1444
▁Ar	-1445
bour	-1446
▁force	-1447
▁employment	-1448
▁rece	-1449
ialog	-1450
▁demand	-1451
▁agreements	-1452
▁companies	-1453
▁Al	-1454
ining	-1455
ext	-1456
ater	-1457
ocus	-1458
▁month	-1459
▁once	-1460
▁Is	-1461
▁Tur	-1462
▁quality	-1463
▁innov	-1464
▁target	-1465
▁key	-1466
▁jobs	-1467
▁fully	-1468
aly	-1469
▁recent	-1470
▁short	-1471
▁enter	-1472
▁concerned	-1473
▁discussion	-1474
▁appropri	-1475
▁bord	-1476
ined	-1477
▁production	-1478
▁lim	-1479
▁focus	-1480
▁bal	-1481
com	-1482
▁emph	-1483
▁various	-1484
▁each	-1485
▁objectives	-1486
▁full	-1487
▁her	-1488
▁period	-1489
▁individ	-1490
▁19	-1491
ages	-1492
▁treat	-1493
light	-1494
fort	-1495
▁best	-1496
▁wee	-1497
▁Therefore	-1498
▁non	-1499
▁itself	-1500
▁extreme	-1501
▁ap	-1502
▁Govern	-1503
igration	-1504
▁things	-1505
▁fam	-1506
ialogue	-1507
▁colleag	-1508
aking	-1509
▁pack	-1510
'.	-1511
gin	-1512
▁life	-1513
▁solution	-1514
issions	-1515
iveness	-1516
ference	-1517
▁concerns	-1518
▁close	-1519
ging	-1520
▁Rep	-1521
▁assess	-1522
▁sustainable	-1523
airs	-1524
▁let	-1525
▁farm	-1526
esion	-1527
ister	-1528
▁inst	-1529
▁el	-1530
eed	-1531
▁amendments	-1532
▁Reg	-1533
▁emphas	-1534
▁risk	-1535
▁individual	-1536
▁developing	-1537
▁aspect	-1538
▁open	-1539
eng	-1540
▁create	-1541
▁context	-1542
uge	-1543
itted	-1544
▁guarantee	-1545
▁mil	-1546
▁press	-1547
▁groups	-1548
▁2009	-1549
ensive	-1550
▁Str	-1551
▁words	-1552
▁yet	-1553
epend	-1554
▁sch	-1555
ung	-1556
ck	-1557
▁ph	-1558
▁government	-1559
▁avail	-1560
irm	-1561
vention	-1562
▁often	-1563
▁markets	-1564
ield	-1565
ators	-1566
▁systems	-1567
ron	-1568
cu	-1569
▁sur	-1570
round	-1571
ending	-1572
▁having	-1573
▁experi	-1574
verty	-1575
fortun	-1576
▁regional	-1577
aps	-1578
▁currently	-1579
▁Afric	-1580
▁single	-1581
though	-1582
▁members	-1583
raph	-1584
▁results	-1585
▁solidarity	-1586
▁All	-1587
▁programm	-1588
▁fel	-1589
most	-1590
▁draft	-1591
▁Government	-1592
▁initiative	-1593
▁mechan	-1594
▁rather	-1595
ering	-1596
▁cred	-1597
▁Bar	-1598
▁accord	-1599
▁priv	-1600
ulate	-1601
ts	-1602
▁comprom	-1603
oung	-1604
▁consequ	-1605
row	-1606
itor	-1607
▁build	-1608
▁involved	-1609
▁following	-1610
▁amb	-1611
▁management	-1612
▁states	-1613
ier	-1614
▁Directive	-1615
▁actually	-1616
▁occ	-1617
▁request	-1618
▁package	-1619
▁dialogue	-1620
▁cong	-1621
▁terror	-1622
▁With	-1623
▁though	-1624
▁compl	-1625
thing	-1626
▁try	-1627
▁resol	-1628
ended	-1629
ania	-1630
▁ann	-1631
▁parliament	-1632
ably	-1633
▁harm	-1634
0%	-1635
▁young	-1636
▁congrat	-1637
▁points	-1638
▁name	-1639
▁labour	-1640
▁mot	-1641
▁sum	-1642
▁challenges	-1643
▁poverty	-1644
▁competition	-1645
▁transparency	-1646
▁exce	-1647
ave	-1648
▁funding	-1649
ourt	-1650
uclear	-1651
ministr	-1652
cise	-1653
sw	-1654
▁recomm	-1655
▁legislative	-1656
▁costs	-1657
▁majority	-1658
▁Let	-1659
▁independ	-1660
▁To	-1661
▁struct	-1662
ply	-1663
▁ret	-1664
▁docu	-1665
▁Part	-1666
▁mentioned	-1667
▁objective	-1668
▁available	-1669
▁ago	-1670
▁cohesion	-1671
▁Court	-1672
empt	-1673
▁procedure	-1674
ternal	-1675
▁peace	-1676
▁extremely	-1677
▁complete	-1678
▁needed	-1679
ead	-1680
orth	-1681
▁answ	-1682
▁reform	-1683
road	-1684
▁US	-1685
▁particip	-1686
▁En	-1687
▁cases	-1688
▁stat	-1689
▁found	-1690
▁local	-1691
▁concerning	-1692
▁projects	-1693
▁pot	-1694
▁principles	-1695
▁commitment	-1696
ees	-1697
▁strateg	-1698
lict	-1699
▁programmes	-1700
ling	-1701
▁First	-1702
ims	-1703
▁low	-1704
▁caus	-1705
equ	-1706
fortunately	-1707
▁feel	-1708
▁conclusion	-1709
▁proper	-1710
▁stress	-1711
▁2008	-1712
▁rele	-1713
▁mar	-1714
its	-1715
▁sure	-1716
▁vict	-1717
ock	-1718
line	-1719
▁field	-1720
▁emissions	-1721
▁responsible	-1722
▁obl	-1723
atory	-1724
▁simply	-1725
▁mob	-1726
▁mean	-1727
orm	-1728
▁seem	-1729
▁apply	-1730
▁list	-1731
▁joint	-1732
idence	-1733
mber	-1734
▁lack	-1735
▁oblig	-1736
▁priority	-1737
▁assistance	-1738
▁sever	-1739
oub	-1740
▁investment	-1741
▁quite	-1742
▁2020	-1743
▁decisions	-1744
▁activities	-1745
▁6	-1746
▁conv	-1747
▁monitor	-1748
▁regarding	-1749
▁months	-1750
▁China	-1751
▁facil	-1752
▁threat	-1753
▁promote	-1754
▁nuclear	-1755
▁draw	-1756
▁fl	-1757
▁Gree	-1758
ake	-1759
▁response	-1760
▁appropriate	-1761
▁begin	-1762
▁due	-1763
▁instruments	-1764
emoc	-1765
term	-1766
▁Finally	-1767
ibility	-1768
FR	-1769
▁cru	-1770
▁administr	-1771
▁several	-1772
▁aware	-1773
imination	-1774
ix	-1775
▁review	-1776
▁compromise	-1777
ters	-1778
thers	-1779
urd	-1780
▁Bel	-1781
over	-1782
ived	-1783
▁pat	-1784
▁kind	-1785
▁subst	-1786
▁keep	-1787
ense	-1788
▁questions	-1789
▁fle	-1790
▁recommend	-1791
▁values	-1792
ogy	-1793
▁conflict	-1794
▁constit	-1795
iter	-1796
reen	-1797
▁reduce	-1798
▁population	-1799
▁appe	-1800
▁demon	-1801
hing	-1802
ub	-1803
▁shall	-1804
▁fellow	-1805
▁times	-1806
▁war	-1807
igin	-1808
erman	-1809
▁certainly	-1810
▁trad	-1811
ption	-1812
▁urg	-1813
illeg	-1814
▁road	-1815
▁special	-1816
▁integration	-1817
▁Sch	-1818
▁ident	-1819
▁thing	-1820
atic	-1821
▁meeting	-1822
haps	-1823
▁par	-1824
▁illeg	-1825
ights	-1826
anced	-1827
ond	-1828
enda	-1829
less	-1830
oid	-1831
key	-1832
▁disp	-1833
▁fair	-1834
▁provided	-1835
ology	-1836
▁Hung	-1837
PL	-1838
sp	-1839
kes	-1840
000	-1841
ides	-1842
▁demonstr	-1843
▁origin	-1844
▁parties	-1845
▁achieved	-1846
ression	-1847
▁excell	-1848
vious	-1849
▁doing	-1850
mb	-1851
utional	-1852
▁true	-1853
wh	-1854
▁8	-1855
▁pleased	-1856
vant	-1857
ection	-1858
▁others	-1859
▁entire	-1860
▁enough	-1861
▁exc	-1862
▁7	-1863
▁sup	-1864
ighbour	-1865
▁disast	-1866
▁But	-1867
▁farmers	-1868
▁Aff	-1869
itting	-1870
▁Affairs	-1871
▁foreign	-1872
▁include	-1873
edi	-1874
unities	-1875
▁prices	-1876
▁eas	-1877
▁day	-1878
encies	-1879
▁maintain	-1880
▁creation	-1881
eria	-1882
erous	-1883
▁stud	-1884
▁Turkey	-1885
▁potential	-1886
▁consumer	-1887
olute	-1888
▁Social	-1889
▁tot	-1890
▁actions	-1891
▁themselves	-1892
aged	-1893
▁amendment	-1894
ceed	-1895
▁billion	-1896
▁sug	-1897
▁never	-1898
▁2010	-1899
▁crucial	-1900
io	-1901
side	-1902
▁violence	-1903
▁indeed	-1904
ale	-1905
▁fisher	-1906
itarian	-1907
▁mult	-1908
▁absolute	-1909
▁increased	-1910
ted	-1911
▁final	-1912
ctions	-1913
▁changes	-1914
▁matters	-1915
▁hist	-1916
▁German	-1917
▁stability	-1918
▁consequences	-1919
IT	-1920
imum	-1921
▁reasons	-1922
▁enterpr	-1923
▁contain	-1924
eless	-1925
ilities	-1926
▁innovation	-1927
▁2007	-1928
▁ear	-1929
▁cut	-1930
ither	-1931
▁cross	-1932
▁rest	-1933
▁existing	-1934
▁000	-1935
ants	-1936
▁mom	-1937
new	-1938
sid	-1939
ried	-1940
▁Rights	-1941
▁conclud	-1942
▁net	-1943
▁industr	-1944
▁pa	-1945
▁quick	-1946
fully	-1947
▁discr	-1948
▁Democ	-1949
▁highlight	-1950
▁10	-1951
▁efficiency	-1952
por	-1953
▁regards	-1954
ru	-1955
▁depend	-1956
▁avoid	-1957
istan	-1958
▁Re	-1959
▁broad	-1960
▁link	-1961
ticle	-1962
isations	-1963
▁Second	-1964
ember	-1965
▁idea	-1966
▁comes	-1967
by	-1968
▁above	-1969
ean	-1970
▁medium	-1971
▁requirements	-1972
▁dr	-1973
ians	-1974
osition	-1975
▁past	-1976
▁territ	-1977
▁governments	-1978
▁ele	-1979
▁Republic	-1980
▁soon	-1981
▁ve	-1982
▁relation	-1983
▁seen	-1984
▁congratulate	-1985
▁longer	-1986
▁bod	-1987
▁contribution	-1988
▁Minutes	-1989
▁Bal	-1990
▁moment	-1991
▁elections	-1992
uel	-1993
strict	-1994
▁excellent	-1995
▁gas	-1996
▁cho	-1997
▁amount	-1998
▁hon	-1999
orrow	-2000
▁procedures	-2001
▁opportunities	-2002
▁refer	-2003
▁jud	-2004
▁previous	-2005
aring	-2006
▁gener	-2007
unction	-2008
▁instrument	-2009
ison	-2010
▁emer	-2011
iting	-2012
▁sci	-2013
ateral	-2014
▁aspects	-2015
▁everyone	-2016
▁voting	-2017
▁application	-2018
▁regulations	-2019
▁decl	-2020
▁competit	-2021
iance	-2022
▁mind	-2023
ledge	-2024
▁ensuring	-2025
▁reports	-2026
▁One	-2027
▁value	-2028
▁integr	-2029
▁active	-2030
til	-2031
▁talk	-2032
▁East	-2033
▁face	-2034
▁Sw	-2035
▁agreed	-2036
▁priorities	-2037
▁restrict	-2038
▁My	-2039
▁Minister	-2040
▁provisions	-2041
▁tas	-2042
outh	-2043
▁wast	-2044
▁share	-2045
▁Sp	-2046
ring	-2047
reland	-2048
rist	-2049
▁equal	-2050
▁Ireland	-2051
iz	-2052
▁prof	-2053
▁encourage	-2054
▁criteria	-2055
▁using	-2056
ilateral	-2057
conomic	-2058
▁across	-2059
▁businesses	-2060
▁victims	-2061
▁governance	-2062
pite	-2063
▁illegal	-2064
▁external	-2065
▁might	-2066
▁employ	-2067
▁renew	-2068
▁enterprises	-2069
▁ty	-2070
▁around	-2071
ned	-2072
iation	-2073
▁Our	-2074
ffic	-2075
fer	-2076
▁grant	-2077
▁line	-2078
▁He	-2079
▁technolog	-2080
ittle	-2081
▁term	-2082
▁Develop	-2083
▁rule	-2084
irc	-2085
▁continu	-2086
▁meth	-2087
▁partnership	-2088
▁offic	-2089
▁week	-2090
itary	-2091
soci	-2092
▁makes	-2093
▁simpl	-2094
beral	-2095
▁capital	-2096
▁9	-2097
▁little	-2098
▁item	-2099
▁supported	-2100
▁living	-2101
vere	-2102
▁Wor	-2103
▁organisations	-2104
▁suggest	-2105
▁circ	-2106
▁dist	-2107
▁tack	-2108
▁indic	-2109
▁Thank	-2110
▁wr	-2111
▁practice	-2112
▁hard	-2113
▁method	-2114
▁harmon	-2115
▁agenda	-2116
▁immedi	-2117
▁stop	-2118
▁obvious	-2119
cr	-2120
uly	-2121
ires	-2122
▁purp	-2123
▁strengthen	-2124
▁neighbour	-2125
▁adoption	-2126
',	-2127
▁relating	-2128
▁competitiveness	-2129
▁doub	-2130
▁colleagues	-2131
▁lear	-2132
▁required	-2133
reh	-2134
ief	-2135
fact	-2136
▁Article	-2137
▁bo	-2138
kra	-2139
▁solutions	-2140
▁along	-2141
▁natural	-2142
icient	-2143
▁deter	-2144
▁Development	-2145
▁UN	-2146
▁dang	-2147
▁carried	-2148
▁private	-2149
▁vital	-2150
▁corre	-2151
▁perhaps	-2152
▁flex	-2153
force	-2154
▁mess	-2155
▁speech	-2156
▁him	-2157
▁Agree	-2158
▁respond	-2159
▁four	-2160
▁thus	-2161
▁reduction	-2162
▁14	-2163
▁additional	-2164
ffice	-2165
▁supply	-2166
▁talking	-2167
▁agriculture	-2168
▁nothing	-2169
▁reject	-2170
▁defin	-2171
▁borders	-2172
▁turn	-2173
▁technical	-2174
▁post	-2175
▁balance	-2176
▁tom	-2177
▁Africa	-2178
rastruct	-2179
▁enable	-2180
▁mis	-2181
▁More	-2182
▁obs	-2183
▁Mon	-2184
▁detail	-2185
▁initiatives	-2186
angu	-2187
▁anim	-2188
▁basic	-2189
iversity	-2190
▁strategic	-2191
▁throughout	-2192
▁Ukra	-2193
▁death	-2194
▁quickly	-2195
itious	-2196
▁levels	-2197
▁tomorrow	-2198
erb	-2199
igrant	-2200
▁infrastruct	-2201
▁When	-2202
▁training	-2203
lov	-2204
ols	-2205
ided	-2206
▁model	-2207
▁jo	-2208
rup	-2209
),	-2210
▁unem	-2211
aced	-2212
rats	-2213
yl	-2214
just	-2215
▁char	-2216
▁cultural	-2217
▁hold	-2218
ven	-2219
▁Secondly	-2220
▁answer	-2221
▁coordin	-2222
▁repe	-2223
apt	-2224
▁although	-2225
▁Greece	-2226
az	-2227
▁financing	-2228
▁top	-2229
▁committee	-2230
▁absolutely	-2231
▁live	-2232
▁goods	-2233
▁community	-2234
istic	-2235
▁accession	-2236
).	-2237
▁dut	-2238
▁huge	-2239
▁coming	-2240
▁discrimination	-2241
▁saying	-2242
▁vol	-2243
▁she	-2244
▁monitoring	-2245
▁contribute	-2246
atis	-2247
▁effects	-2248
▁dire	-2249
▁tell	-2250
▁waste	-2251
▁immigration	-2252
▁traffic	-2253
▁until	-2254
▁International	-2255
▁Ind	-2256
▁implemented	-2257
▁namely	-2258
▁everything	-2259
EP	-2260
▁ambitious	-2261
ti	-2262
▁dest	-2263
▁author	-2264
▁service	-2265
▁sitting	-2266
▁powers	-2267
▁conn	-2268
▁precise	-2269
EC	-2270
▁Roma	-2271
▁ever	-2272
▁analy	-2273
▁affected	-2274
forms	-2275
▁clos	-2276
▁mand	-2277
▁thanks	-2278
▁carry	-2279
▁superv	-2280
hold	-2281
▁leaders	-2282
▁langu	-2283
▁aimed	-2284
▁Agreement	-2285
▁coordination	-2286
▁big	-2287
▁subsid	-2288
erial	-2289
▁fishing	-2290
▁creating	-2291
reg	-2292
▁seems	-2293
▁No	-2294
▁pressure	-2295
▁Slov	-2296
▁red	-2297
oh	-2298
▁military	-2299
▁Port	-2300
siz	-2301
▁Just	-2302
▁facilit	-2303
▁consult	-2304
▁treatment	-2305
▁reached	-2306
▁12	-2307
▁price	-2308
TO	-2309
▁relig	-2310
▁consist	-2311
▁providing	-2312
eric	-2313
▁humanitarian	-2314
rael	-2315
▁crimin	-2316
▁asked	-2317
▁eng	-2318
▁Med	-2319
▁Cent	-2320
▁los	-2321
ends	-2322
▁communication	-2323
▁attempt	-2324
rench	-2325
▁lot	-2326
▁tabl	-2327
la	-2328
▁document	-2329
acy	-2330
▁capac	-2331
▁direction	-2332
▁Fr	-2333
▁reflect	-2334
▁sectors	-2335
vers	-2336
▁terrorism	-2337
▁involve	-2338
▁assessment	-2339
uine	-2340
200	-2341
▁regret	-2342
▁Iran	-2343
▁influ	-2344
aration	-2345
order	-2346
▁held	-2347
▁Strate	-2348
sized	-2349
▁outside	-2350
▁improving	-2351
▁ourselves	-2352
▁pen	-2353
▁Or	-2354
▁media	-2355
une	-2356
▁water	-2357
▁test	-2358
ender	-2359
▁Americ	-2360
▁ground	-2361
▁dam	-2362
▁Israel	-2363
▁fall	-2364
▁Portug	-2365
▁hear	-2366
▁wa	-2367
ilar	-2368
▁old	-2369
ME	-2370
▁passeng	-2371
▁closed	-2372
▁gr	-2373
ograph	-2374
PT	-2375
▁exchan	-2376
ator	-2377
▁called	-2378
▁And	-2379
▁Barro	-2380
▁included	-2381
▁summit	-2382
▁compreh	-2383
▁correct	-2384
▁sense	-2385
▁relevant	-2386
▁mechanism	-2387
▁cam	-2388
more	-2389
▁export	-2390
▁bre	-2391
▁opt	-2392
▁recently	-2393
pid	-2394
▁Le	-2395
▁promoting	-2396
ES	-2397
▁eval	-2398
▁offer	-2399
▁French	-2400
itten	-2401
▁effectively	-2402
rought	-2403
▁Tr	-2404
unch	-2405
▁Sec	-2406
▁movement	-2407
ished	-2408
▁function	-2409
▁attack	-2410
▁Tra	-2411
▁men	-2412
▁efficient	-2413
sels	-2414
▁15	-2415
cember	-2416
ote	-2417
▁five	-2418
▁er	-2419
▁lives	-2420
▁measure	-2421
▁experience	-2422
▁dom	-2423
▁travel	-2424
▁December	-2425
▁dev	-2426
▁justice	-2427
▁possibility	-2428
isms	-2429
▁remind	-2430
▁budgetary	-2431
The	-2432
▁scient	-2433
▁nature	-2434
estic	-2435
▁Democrats	-2436
oday	-2437
▁benefits	-2438
▁reality	-2439
▁challenge	-2440
▁Today	-2441
overy	-2442
▁Prog	-2443
▁completely	-2444
▁associ	-2445
border	-2446
▁Further	-2447
▁return	-2448
▁Ge	-2449
▁total	-2450
▁Can	-2451
▁almost	-2452
▁Now	-2453
▁according	-2454
▁burd	-2455
▁light	-2456
▁combat	-2457
▁fisheries	-2458
ylum	-2459
ars	-2460
mitted	-2461
RO	-2462
aper	-2463
▁Regulation	-2464
rupt	-2465
▁reforms	-2466
▁visa	-2467
▁becom	-2468
duct	-2469
egu	-2470
▁provides	-2471
iterran	-2472
▁presented	-2473
▁remains	-2474
iterranean	-2475
▁family	-2476
▁message	-2477
▁strengthening	-2478
▁infrastructure	-2479
▁Cz	-2480
arus	-2481
▁decided	-2482
▁agencies	-2483
▁Strategy	-2484
▁supporting	-2485
iable	-2486
▁except	-2487
▁produc	-2488
hic	-2489
▁penal	-2490
▁targets	-2491
ications	-2492
▁Romania	-2493
▁Ex	-2494
▁Of	-2495
▁established	-2496
omp	-2497
▁safegu	-2498
▁alloc	-2499
▁calls	-2500
▁whose	-2501
▁applied	-2502
▁Belarus	-2503
▁purs	-2504
▁developed	-2505
▁reducing	-2506
▁age	-2507
▁head	-2508
theless	-2509
▁received	-2510
▁administrative	-2511
▁land	-2512
▁met	-2513
sibilities	-2514
▁comprehensive	-2515
▁Ukraine	-2516
▁left	-2517
igrants	-2518
▁regime	-2519
Office	-2520
▁Czech	-2521
▁Ad	-2522
▁industrial	-2523
▁adapt	-2524
▁pati	-2525
▁motion	-2526
▁MEP	-2527
pective	-2528
▁heard	-2529
ional	-2530
▁firm	-2531
▁combating	-2532
▁Internet	-2533
▁vehic	-2534
▁undert	-2535
org	-2536
arily	-2537
▁statement	-2538
▁green	-2539
▁committed	-2540
▁Pe	-2541
accept	-2542
ys	-2543
▁Man	-2544
▁arg	-2545
▁mor	-2546
▁deep	-2547
▁prepared	-2548
▁statements	-2549
▁satis	-2550
▁guid	-2551
itional	-2552
▁task	-2553
▁steps	-2554
▁collect	-2555
▁either	-2556
▁rate	-2557
▁technology	-2558
▁Europeans	-2559
▁leave	-2560
▁cla	-2561
▁circum	-2562
▁brought	-2563
▁implementing	-2564
dict	-2565
▁days	-2566
▁explo	-2567
▁events	-2568
▁finally	-2569
app	-2570
▁liberal	-2571
▁weak	-2572
▁doubt	-2573
▁credit	-2574
▁unaccept	-2575
▁run	-2576
ially	-2577
▁crime	-2578
▁capacity	-2579
lf	-2580
▁personal	-2581
▁six	-2582
▁Firstly	-2583
▁equality	-2584
▁Swed	-2585
▁knowledge	-2586
af	-2587
▁san	-2588
▁SME	-2589
▁mut	-2590
▁self	-2591
▁modern	-2592
auc	-2593
▁facing	-2594
▁independent	-2595
inking	-2596
▁stage	-2597
▁shown	-2598
▁obtain	-2599
▁Convention	-2600
▁Furthermore	-2601
▁giving	-2602
▁counter	-2603
ourable	-2604
▁unacceptable	-2605
▁successful	-2606
▁May	-2607
Euro	-2608
▁behind	-2609
▁analys	-2610
▁deleg	-2611
▁adequ	-2612
ash	-2613
▁unemployment	-2614
▁enh	-2615
▁requires	-2616
rete	-2617
▁provision	-2618
▁famil	-2619
▁raised	-2620
▁parliamentary	-2621
▁oil	-2622
▁conduct	-2623
aff	-2624
▁rural	-2625
▁tabled	-2626
ppl	-2627
ulg	-2628
▁gra	-2629
▁rapporteurs	-2630
▁Li	-2631
▁cause	-2632
▁Bank	-2633
▁referen	-2634
▁27	-2635
▁created	-2636
▁genuine	-2637
entions	-2638
▁expressed	-2639
▁represents	-2640
▁sent	-2641
▁altern	-2642
ange	-2643
to	-2644
▁representatives	-2645
▁rein	-2646
imately	-2647
▁concrete	-2648
uted	-2649
alled	-2650
▁Unfortunately	-2651
▁took	-2652
▁investig	-2653
▁technologies	-2654
▁minimum	-2655
▁emphasise	-2656
▁profession	-2657
▁dise	-2658
▁Br	-2659
uth	-2660
▁bar	-2661
▁Brit	-2662
▁poor	-2663
▁critic	-2664
yond	-2665
Europe	-2666
erve	-2667
etary	-2668
▁contract	-2669
▁spo	-2670
▁discussions	-2671
▁Human	-2672
▁caused	-2673
▁material	-2674
▁border	-2675
▁upon	-2676
▁Barroso	-2677
▁economies	-2678
ons	-2679
arter	-2680
▁sources	-2681
▁introduction	-2682
▁2006	-2683
▁exchange	-2684
▁similar	-2685
▁banks	-2686
▁receive	-2687
▁asylum	-2688
▁away	-2689
▁culture	-2690
itation	-2691
▁takes	-2692
▁criminal	-2693
know	-2694
▁prim	-2695
▁commitments	-2696
hood	-2697
▁scho	-2698
▁event	-2699
▁EC	-2700
▁competitive	-2701
sec	-2702
▁circumst	-2703
▁recovery	-2704
erate	-2705
▁activity	-2706
▁fig	-2707
▁scope	-2708
▁Pr	-2709
istics	-2710
▁Party	-2711
▁closely	-2712
go	-2713
▁11	-2714
▁confidence	-2715
▁Ne	-2716
▁Bulg	-2717
▁Georg	-2718
pplause	-2719
Applause	-2720
▁producers	-2721
▁aims	-2722
▁rail	-2723
▁rise	-2724
▁Mediterranean	-2725
▁higher	-2726
▁difficulties	-2727
▁June	-2728
ton	-2729
▁France	-2730
▁condem	-2731
▁extent	-2732
▁mobility	-2733
ying	-2734
engen	-2735
▁const	-2736
▁schem	-2737
▁Ir	-2738
▁vo	-2739
▁side	-2740
▁trying	-2741
▁official	-2742
action	-2743
▁transparent	-2744
mp	-2745
ousand	-2746
agraph	-2747
way	-2748
▁Italy	-2749
▁instead	-2750
▁pension	-2751
▁mass	-2752
▁beyond	-2753
▁Economic	-2754
▁mechanisms	-2755
▁Prot	-2756
▁advant	-2757
▁negative	-2758
▁Christ	-2759
▁expert	-2760
olid	-2761
resident	-2762
ex	-2763
▁achieving	-2764
ufact	-2765
▁scientific	-2766
▁ver	-2767
▁unfortunately	-2768
▁colleague	-2769
▁design	-2770
▁Schengen	-2771
▁Be	-2772
▁cover	-2773
▁SMEs	-2774
▁construct	-2775
▁circumstances	-2776
▁plans	-2777
▁despite	-2778
▁ir	-2779
▁Nations	-2780
▁South	-2781
▁Central	-2782
▁2011	-2783
▁Vice	-2784
itime	-2785
aria	-2786
ource	-2787
▁precisely	-2788
▁convin	-2789
▁Hungarian	-2790
▁discussed	-2791
▁establishing	-2792
▁practices	-2793
open	-2794
▁note	-2795
▁rapid	-2796
▁weeks	-2797
NL	-2798
▁else	-2799
▁shows	-2800
▁Amend	-2801
val	-2802
▁Germany	-2803
▁Agency	-2804
▁increasingly	-2805
wise	-2806
▁worth	-2807
udit	-2808
ively	-2809
▁Sea	-2810
portion	-2811
201	-2812
▁CO	-2813
▁thousand	-2814
▁Irish	-2815
imension	-2816
President	-2817
▁duty	-2818
▁awa	-2819
▁forces	-2820
▁history	-2821
▁Moreover	-2822
▁trust	-2823
▁People	-2824
▁anti	-2825
▁defence	-2826
▁fulf	-2827
▁Justice	-2828
▁launch	-2829
elines	-2830
▁opposition	-2831
agen	-2832
▁fri	-2833
▁Cons	-2834
struction	-2835
▁accordance	-2836
▁calling	-2837
▁yes	-2838
▁home	-2839
▁paid	-2840
ban	-2841
▁manufact	-2842
▁considered	-2843
▁cod	-2844
▁wrong	-2845
estern	-2846
▁recon	-2847
▁status	-2848
▁half	-2849
▁complex	-2850
▁standard	-2851
▁wanted	-2852
▁strongly	-2853
▁proceed	-2854
▁recommendations	-2855
▁remember	-2856
▁substant	-2857
▁renewable	-2858
▁properly	-2859
▁Poland	-2860
sian	-2861
roat	-2862
▁allowed	-2863
▁Last	-2864
▁forget	-2865
▁integrated	-2866
▁seek	-2867
▁happen	-2868
▁qual	-2869
▁early	-2870
▁beginning	-2871
▁chec	-2872
▁central	-2873
▁Serb	-2874
▁highly	-2875
▁prison	-2876
▁purpose	-2877
▁lat	-2878
lines	-2879
acc	-2880
▁quot	-2881
▁participation	-2882
▁Ladies	-2883
▁produce	-2884
idd	-2885
▁199	-2886
▁Jan	-2887
uations	-2888
▁balanced	-2889
▁risks	-2890
▁improved	-2891
▁relationship	-2892
▁impos	-2893
▁explain	-2894
▁loss	-2895
ifying	-2896
European	-2897
▁safeguard	-2898
hagen	-2899
ercial	-2900
▁clar	-2901
▁World	-2902
openhagen	-2903
▁recognise	-2904
lus	-2905
inding	-2906
▁territor	-2907
▁nor	-2908
ulner	-2909
sman	-2910
▁legit	-2911
▁directly	-2912
▁overall	-2913
▁Copenhagen	-2914
▁eth	-2915
dum	-2916
▁extra	-2917
▁decide	-2918
▁sufficient	-2919
▁sens	-2920
▁migration	-2921
▁cle	-2922
▁looking	-2923
▁conclusions	-2924
▁independence	-2925
▁Market	-2926
▁Croat	-2927
▁bodies	-2928
▁forms	-2929
▁specifically	-2930
idents	-2931
▁sanctions	-2932
▁Ha	-2933
▁Kos	-2934
▁ways	-2935
▁urgent	-2936
▁vulner	-2937
illions	-2938
ties	-2939
▁MEPs	-2940
▁disaster	-2941
▁defend	-2942
paign	-2943
▁concept	-2944
▁mandate	-2945
▁paragraph	-2946
▁ge	-2947
endit	-2948
▁limit	-2949
ush	-2950
▁content	-2951
ensus	-2952
▁How	-2953
▁disch	-2954
▁approved	-2955
▁discussing	-2956
▁mov	-2957
▁transfer	-2958
▁Kosov	-2959
ustom	-2960
▁Although	-2961
▁growing	-2962
▁introduce	-2963
▁25	-2964
▁Trans	-2965
▁distrib	-2966
unt	-2967
▁Action	-2968
▁refuge	-2969
▁dimension	-2970
▁di	-2971
ously	-2972
vereign	-2973
▁argu	-2974
par	-2975
▁profit	-2976
isters	-2977
▁campaign	-2978
▁sovereign	-2979
ured	-2980
▁sk	-2981
▁intended	-2982
ude	-2983
▁exer	-2984
▁reading	-2985
▁conclude	-2986
▁seriously	-2987
▁includes	-2988
li	-2989
ught	-2990
▁repl	-2991
ussels	-2992
▁March	-2993
coming	-2994
▁Res	-2995
▁manner	-2996
▁rad	-2997
anish	-2998
▁Acc	-2999
▁bilateral	-3000
▁Pal	-3001
▁confirm	-3002
▁minorities	-3003
rest	-3004
▁gives	-3005
▁setting	-3006
care	-3007
▁fre	-3008
▁practical	-3009
▁debt	-3010
▁elements	-3011
fin	-3012
▁fuel	-3013
▁Brussels	-3014
cal	-3015
▁led	-3016
▁added	-3017
▁useful	-3018
▁building	-3019
▁Program	-3020
inary	-3021
▁exact	-3022
▁influence	-3023
▁burden	-3024
▁alternative	-3025
head	-3026
▁goes	-3027
▁consideration	-3028
spect	-3029
amber	-3030
▁perspective	-3031
▁cat	-3032
▁gender	-3033
▁perform	-3034
▁tour	-3035
▁poll	-3036
▁member	-3037
▁expression	-3038
ody	-3039
▁ce	-3040
▁alone	-3041
▁obligations	-3042
▁guidelines	-3043
▁Kosovo	-3044
▁connection	-3045
eneral	-3046
▁leading	-3047
▁convinced	-3048
xual	-3049
etimes	-3050
▁reduced	-3051
nam	-3052
▁party	-3053
▁laws	-3054
▁Trade	-3055
▁referendum	-3056
▁discharge	-3057
▁propose	-3058
▁families	-3059
▁lar	-3060
▁language	-3061
▁spir	-3062
uary	-3063
▁coll	-3064
▁occur	-3065
▁rightly	-3066
▁recognition	-3067
be	-3068
▁Rus	-3069
▁vehicles	-3070
▁tackle	-3071
▁date	-3072
▁differences	-3073
▁passengers	-3074
▁13	-3075
called	-3076
▁adequate	-3077
arks	-3078
▁Afgh	-3079
rop	-3080
▁documents	-3081
▁Fore	-3082
ureauc	-3083
▁den	-3084
▁annual	-3085
▁ill	-3086
▁gain	-3087
ulations	-3088
▁commercial	-3089
▁introduced	-3090
▁January	-3091
▁raise	-3092
▁stated	-3093
▁maritime	-3094
▁institutional	-3095
▁18	-3096
ored	-3097
▁finance	-3098
▁mere	-3099
▁comments	-3100
▁Serv	-3101
ober	-3102
▁African	-3103
▁dealing	-3104
▁Co	-3105
▁join	-3106
▁Charter	-3107
▁structural	-3108
▁views	-3109
▁fear	-3110
▁limited	-3111
▁defic	-3112
▁medic	-3113
▁suc	-3114
▁acts	-3115
▁Since	-3116
ai	-3117
▁After	-3118
▁heart	-3119
▁speaker	-3120
▁deg	-3121
ustr	-3122
▁regulatory	-3123
▁vulnerable	-3124
▁urge	-3125
rep	-3126
▁mutual	-3127
▁establishment	-3128
▁bad	-3129
▁managed	-3130
uff	-3131
where	-3132
abil	-3133
▁Prime	-3134
▁z	-3135
▁enl	-3136
▁Some	-3137
▁Afghan	-3138
ream	-3139
▁goal	-3140
▁known	-3141
▁succeed	-3142
▁Do	-3143
▁Inde	-3144
▁wants	-3145
works	-3146
▁acknow	-3147
▁bureauc	-3148
▁protecting	-3149
▁High	-3150
▁asking	-3151
▁binding	-3152
▁obviously	-3153
PE	-3154
▁UK	-3155
▁safe	-3156
▁unf	-3157
▁ship	-3158
aging	-3159
▁type	-3160
▁Georgia	-3161
▁related	-3162
▁Bulgaria	-3163
▁announ	-3164
▁becoming	-3165
▁Programme	-3166
▁damage	-3167
▁observ	-3168
▁Balk	-3169
▁goals	-3170
ury	-3171
set	-3172
▁enabl	-3173
icy	-3174
▁developments	-3175
▁linked	-3176
▁Palest	-3177
▁consensus	-3178
▁Indeed	-3179
▁Security	-3180
▁Amendment	-3181
▁animal	-3182
▁Croatia	-3183
▁investments	-3184
▁prevention	-3185
▁former	-3186
ports	-3187
▁guarantees	-3188
aries	-3189
▁whom	-3190
crib	-3191
▁police	-3192
ired	-3193
▁prob	-3194
▁record	-3195
▁persons	-3196
▁patients	-3197
▁North	-3198
▁situations	-3199
▁ut	-3200
▁parts	-3201
ovember	-3202
▁constant	-3203
▁happened	-3204
▁consolid	-3205
▁dangerous	-3206
riers	-3207
▁treaty	-3208
EL	-3209
▁entry	-3210
▁satisf	-3211
▁Energy	-3212
▁reference	-3213
used	-3214
▁expendit	-3215
▁contra	-3216
▁improvement	-3217
▁ult	-3218
▁histor	-3219
▁secure	-3220
▁November	-3221
▁perman	-3222
▁payments	-3223
▁Foreign	-3224
▁enforce	-3225
▁domestic	-3226
▁send	-3227
▁contact	-3228
lant	-3229
▁inclusion	-3230
DP	-3231
▁Never	-3232
▁occas	-3233
▁univers	-3234
ued	-3235
adow	-3236
▁Ash	-3237
▁emerg	-3238
▁truly	-3239
▁excess	-3240
▁stake	-3241
ient	-3242
enary	-3243
▁determ	-3244
▁Many	-3245
wide	-3246
▁outcome	-3247
..	-3248
terday	-3249
▁react	-3250
▁comply	-3251
▁involvement	-3252
▁lo	-3253
▁religious	-3254
▁cand	-3255
▁thousands	-3256
▁spirit	-3257
▁partner	-3258
reci	-3259
itable	-3260
▁custom	-3261
▁ahead	-3262
▁mobil	-3263
▁study	-3264
▁strict	-3265
▁Represent	-3266
▁closer	-3267
ruption	-3268
▁network	-3269
▁experien	-3270
nership	-3271
▁produced	-3272
joy	-3273
▁regular	-3274
▁expenditure	-3275
▁candid	-3276
▁demands	-3277
▁learn	-3278
▁concent	-3279
nic	-3280
▁adver	-3281
▁choice	-3282
▁susp	-3283
▁income	-3284
▁later	-3285
▁interp	-3286
▁supervision	-3287
▁immediate	-3288
▁Partnership	-3289
▁institution	-3290
▁Russian	-3291
▁analysis	-3292
▁promotion	-3293
erity	-3294
▁enjoy	-3295
▁ready	-3296
▁voice	-3297
▁chance	-3298
▁Western	-3299
▁sometimes	-3300
uditors	-3301
▁trafficking	-3302
▁failure	-3303
▁opening	-3304
▁organisation	-3305
▁Lat	-3306
▁failed	-3307
▁company	-3308
ya	-3309
itude	-3310
▁welcom	-3311
▁Nevertheless	-3312
ger	-3313
akistan	-3314
▁appeal	-3315
ler	-3316
▁Policy	-3317
▁Chamber	-3318
▁thinking	-3319
▁territory	-3320
▁ign	-3321
▁consumption	-3322
▁critical	-3323
urs	-3324
▁path	-3325
▁ones	-3326
▁assum	-3327
▁acqu	-3328
▁Pakistan	-3329
▁plenary	-3330
▁won	-3331
▁near	-3332
▁Hungary	-3333
trary	-3334
▁lost	-3335
ctober	-3336
▁delay	-3337
ological	-3338
▁immediately	-3339
iddle	-3340
▁firstly	-3341
▁By	-3342
ront	-3343
▁tem	-3344
▁putting	-3345
▁constructive	-3346
▁intervention	-3347
rs	-3348
▁speed	-3349
▁organised	-3350
▁saving	-3351
▁October	-3352
▁milk	-3353
▁separ	-3354
▁British	-3355
▁Eastern	-3356
▁considerable	-3357
▁appreci	-3358
▁Third	-3359
▁freedoms	-3360
▁Spain	-3361
ours	-3362
▁shadow	-3363
▁liberalisation	-3364
▁Bl	-3365
▁easy	-3366
▁PPE	-3367
▁enorm	-3368
▁Fra	-3369
▁earl	-3370
▁fraud	-3371
▁dead	-3372
▁While	-3373
▁facilitate	-3374
▁benefic	-3375
pay	-3376
lantic	-3377
▁Ob	-3378
▁exactly	-3379
...	-3380
▁tool	-3381
illed	-3382
▁speaking	-3383
▁30	-3384
▁warm	-3385
▁Spanish	-3386
▁coheren	-3387
▁operation	-3388
ployed	-3389
▁incor	-3390
▁probably	-3391
of	-3392
plom	-3393
uses	-3394
▁addressed	-3395
▁recognised	-3396
inese	-3397
▁Organ	-3398
AP	-3399
▁body	-3400
▁staff	-3401
▁sensitive	-3402
▁communities	-3403
dom	-3404
▁port	-3405
ulated	-3406
▁submitted	-3407
▁flexibility	-3408
▁Why	-3409
▁resolve	-3410
▁session	-3411
▁anything	-3412
ritten	-3413
urance	-3414
▁Chinese	-3415
▁globalisation	-3416
▁wide	-3417
▁Serbia	-3418
oses	-3419
▁happy	-3420
▁instance	-3421
▁carbon	-3422
▁informed	-3423
ken	-3424
▁diplom	-3425
▁brief	-3426
▁contains	-3427
▁ec	-3428
▁publ	-3429
▁mainly	-3430
mbud	-3431
▁max	-3432
▁proportion	-3433
▁hy	-3434
▁Accord	-3435
▁election	-3436
▁conference	-3437
ah	-3438
▁faced	-3439
▁minority	-3440
▁Representative	-3441
inian	-3442
▁enlarge	-3443
▁trading	-3444
going	-3445
▁methods	-3446
▁continues	-3447
ira	-3448
▁21	-3449
▁plac	-3450
▁ideas	-3451
▁Portugal	-3452
▁sw	-3453
based	-3454
▁worked	-3455
▁suffering	-3456
▁causes	-3457
▁thought	-3458
▁16	-3459
bate	-3460
▁disasters	-3461
▁functioning	-3462
▁shared	-3463
▁signed	-3464
HU	-3465
▁unc	-3466
icated	-3467
▁rates	-3468
▁contrary	-3469
▁spec	-3470
▁Auditors	-3471
▁obst	-3472
▁17	-3473
▁Sy	-3474
▁Gl	-3475
▁signal	-3476
▁advantage	-3477
▁healthcare	-3478
▁crimes	-3479
▁understanding	-3480
ivity	-3481
▁via	-3482
▁arm	-3483
▁Slovak	-3484
▁debates	-3485
▁sound	-3486
▁taxpay	-3487
▁willing	-3488
ev	-3489
▁supports	-3490
▁forest	-3491
▁authority	-3492
▁positions	-3493
▁Ashton	-3494
▁Belg	-3495
apan	-3496
onia	-3497
▁jour	-3498
▁helping	-3499
▁mist	-3500
▁referred	-3501
▁happening	-3502
▁evaluation	-3503
urm	-3504
pro	-3505
bourg	-3506
icians	-3507
▁Ital	-3508
▁obstac	-3509
▁1.	-3510
vest	-3511
▁Sum	-3512
elling	-3513
▁table	-3514
▁div	-3515
ills	-3516
▁forced	-3517
▁Written	-3518
▁element	-3519
▁continuing	-3520
els	-3521
▁starting	-3522
▁India	-3523
▁immigrants	-3524
▁remov	-3525
▁millions	-3526
bal	-3527
▁2009.	-3528
▁According	-3529
mbudsman	-3530
▁ability	-3531
▁NA	-3532
▁bringing	-3533
▁complain	-3534
-201	-3535
▁log	-3536
▁Alliance	-3537
▁Framework	-3538
▁delegation	-3539
▁professional	-3540
▁elimin	-3541
▁says	-3542
▁permanent	-3543
▁thereby	-3544
▁100	-3545
urally	-3546
▁Summit	-3547
▁effectiveness	-3548
▁easier	-3549
▁refugees	-3550
▁interpret	-3551
stitutional	-3552
▁coordinated	-3553
dra	-3554
▁figures	-3555
▁numerous	-3556
▁Budget	-3557
▁incent	-3558
▁earlier	-3559
verage	-3560
▁consistent	-3561
▁enormous	-3562
gypt	-3563
▁compens	-3564
Ch	-3565
▁serve	-3566
▁networks	-3567
▁inh	-3568
reness	-3569
▁Sol	-3570
debate	-3571
acter	-3572
▁bear	-3573
sk	-3574
▁II	-3575
ruit	-3576
▁Lib	-3577
▁myself	-3578
ugg	-3579
▁condemn	-3580
▁greatest	-3581
▁Pl	-3582
undred	-3583
▁Global	-3584
▁applies	-3585
▁stronger	-3586
▁accepted	-3587
▁honourable	-3588
ift	-3589
▁Egypt	-3590
CS	-3591
▁rating	-3592
▁competence	-3593
mission	-3594
▁unable	-3595
ats	-3596
icial	-3597
▁talks	-3598
▁bank	-3599
▁norm	-3600
▁advoc	-3601
▁exercise	-3602
raz	-3603
▁af	-3604
▁summ	-3605
▁elected	-3606
uting	-3607
▁tele	-3608
▁definite	-3609
▁came	-3610
▁scheme	-3611
▁America	-3612
▁Japan	-3613
au	-3614
SV	-3615
▁abol	-3616
▁administration	-3617
ancing	-3618
▁sexual	-3619
▁fo	-3620
▁Mal	-3621
▁Swedish	-3622
▁tourism	-3623
▁pun	-3624
▁Even	-3625
▁lower	-3626
▁adopting	-3627
▁territorial	-3628
▁harmonisation	-3629
▁deliver	-3630
▁character	-3631
▁sustainability	-3632
▁fulfil	-3633
▁manufacture	-3634
erc	-3635
▁simple	-3636
▁Italian	-3637
▁awareness	-3638
▁Afghanistan	-3639
iet	-3640
ptember	-3641
▁comment	-3642
▁consultation	-3643
raq	-3644
ival	-3645
▁oral	-3646
▁accounts	-3647
▁enlargement	-3648
icro	-3649
▁Green	-3650
▁merely	-3651
ighted	-3652
▁Ombudsman	-3653
amp	-3654
making	-3655
▁improvements	-3656
▁entirely	-3657
▁statistics	-3658
orn	-3659
rel	-3660
▁cy	-3661
▁wat	-3662
porary	-3663
▁Des	-3664
▁Iraq	-3665
▁attacks	-3666
▁September	-3667
oph	-3668
▁factor	-3669
▁propert	-3670
Rule	-3671
▁stim	-3672
▁option	-3673
▁sides	-3674
▁structure	-3675
▁yesterday	-3676
▁tim	-3677
▁proc	-3678
range	-3679
▁interv	-3680
▁hom	-3681
ature	-3682
▁abstain	-3683
▁compliance	-3684
▁spent	-3685
▁Turk	-3686
▁electric	-3687
▁directives	-3688
▁ethnic	-3689
▁don	-3690
▁source	-3691
ets	-3692
ilst	-3693
ronic	-3694
▁getting	-3695
▁significantly	-3696
fare	-3697
▁2009,	-3698
▁Rules	-3699
▁construction	-3700
ik	-3701
▁sort	-3702
▁insist	-3703
▁subsidi	-3704
▁Fundamental	-3705
nes	-3706
▁innovative	-3707
▁overcome	-3708
oration	-3709
▁expected	-3710
▁obligation	-3711
▁controls	-3712
▁20%	-3713
▁dict	-3714
lam	-3715
▁exec	-3716
5%	-3717
▁2005	-3718
▁Health	-3719
▁school	-3720
▁mission	-3721
▁membership	-3722
fe	-3723
▁WTO	-3724
▁animals	-3725
▁surve	-3726
▁feed	-3727
▁hundred	-3728
▁revision	-3729
▁politicians	-3730
ateg	-3731
▁sett	-3732
eb	-3733
the	-3734
▁Saf	-3735
▁withdra	-3736
▁conflicts	-3737
▁emb	-3738
▁equip	-3739
▁Protection	-3740
▁granted	-3741
▁planning	-3742
▁encouraging	-3743
▁occup	-3744
SE	-3745
ancial	-3746
▁class	-3747
▁parliaments	-3748
▁recommendation	-3749
lands	-3750
▁flow	-3751
▁resolutions	-3752
▁reserv	-3753
▁diversity	-3754
▁collective	-3755
▁operations	-3756
ades	-3757
ourage	-3758
entially	-3759
▁violations	-3760
▁ey	-3761
▁forth	-3762
▁engage	-3763
▁protected	-3764
▁interesting	-3765
▁fis	-3766
▁barriers	-3767
▁imports	-3768
▁evidence	-3769
▁prospect	-3770
▁rejected	-3771
rate	-3772
▁credibility	-3773
aw	-3774
▁prosp	-3775
▁fighting	-3776
▁decis	-3777
▁pointed	-3778
▁restrictions	-3779
ked	-3780
▁Baltic	-3781
▁corruption	-3782
▁negotiating	-3783
ze	-3784
oples	-3785
▁Cl	-3786
▁allowing	-3787
▁Sloven	-3788
razil	-3789
▁2013	-3790
▁Balkans	-3791
▁sea	-3792
▁drawn	-3793
ensible	-3794
▁payment	-3795
▁autom	-3796
▁compar	-3797
▁CAP	-3798
▁heav	-3799
▁Environ	-3800
att	-3801
▁extend	-3802
ize	-3803
anim	-3804
▁fast	-3805
▁votes	-3806
▁maximum	-3807
▁explan	-3808
▁started	-3809
mined	-3810
▁changed	-3811
▁materials	-3812
▁arr	-3813
0.	-3814
▁Pact	-3815
▁emergency	-3816
sh	-3817
respon	-3818
▁intend	-3819
▁substances	-3820
▁NATO	-3821
▁disease	-3822
ifications	-3823
▁King	-3824
oldov	-3825
ompan	-3826
▁fiscal	-3827
▁repeat	-3828
▁factors	-3829
▁associated	-3830
arations	-3831
▁largest	-3832
▁emphasis	-3833
▁followed	-3834
▁acceptable	-3835
ather	-3836
▁claim	-3837
▁peoples	-3838
▁strategies	-3839
gn	-3840
▁infring	-3841
▁welfare	-3842
▁involving	-3843
▁ought	-3844
pping	-3845
▁union	-3846
▁Polish	-3847
▁aviation	-3848
▁substantial	-3849
▁Liber	-3850
▁volunt	-3851
sc	-3852
oor	-3853
cast	-3854
fect	-3855
▁Tun	-3856
▁range	-3857
▁Gu	-3858
▁dign	-3859
▁Ab	-3860
ocol	-3861
▁ord	-3862
ulating	-3863
▁describ	-3864
▁urgently	-3865
pes	-3866
▁Monetary	-3867
▁2012	-3868
▁solve	-3869
▁Proced	-3870
▁appoint	-3871
ocks	-3872
outher	-3873
▁Safety	-3874
▁Given	-3875
▁penalty	-3876
▁allows	-3877
▁incorpor	-3878
ithu	-3879
▁operators	-3880
▁sal	-3881
ressive	-3882
▁wonder	-3883
▁spending	-3884
▁Organisation	-3885
▁Gaz	-3886
▁lies	-3887
outhern	-3888
ots	-3889
▁cal	-3890
ittees	-3891
▁Lithu	-3892
▁Moldov	-3893
▁continent	-3894
▁ultimately	-3895
hern	-3896
▁cars	-3897
▁Thirdly	-3898
▁arrange	-3899
▁exploitation	-3900
▁seeking	-3901
▁requirement	-3902
ins	-3903
▁suppl	-3904
▁office	-3905
▁unanim	-3906
▁pi	-3907
▁gradu	-3908
▁enforcement	-3909
vered	-3910
▁Such	-3911
▁prior	-3912
▁property	-3913
▁intention	-3914
rol	-3915
▁opposed	-3916
▁Portugues	-3917
▁employees	-3918
▁ton	-3919
▁citizen	-3920
▁arrest	-3921
gra	-3922
▁lay	-3923
▁Every	-3924
▁vision	-3925
▁individuals	-3926
justment	-3927
pril	-3928
lation	-3929
▁surpr	-3930
▁carefully	-3931
▁Portuguese	-3932
▁nations	-3933
▁told	-3934
▁anyone	-3935
▁ongoing	-3936
▁industries	-3937
▁late	-3938
▁firmly	-3939
asing	-3940
lying	-3941
▁laid	-3942
ographic	-3943
sequently	-3944
▁impossible	-3945
ateful	-3946
▁April	-3947
▁Only	-3948
▁Greek	-3949
▁offers	-3950
▁series	-3951
▁hor	-3952
▁imposed	-3953
▁covered	-3954
▁guaranteed	-3955
▁bi	-3956
▁pill	-3957
▁subsidiarity	-3958
vis	-3959
house	-3960
▁Brazil	-3961
▁parent	-3962
▁average	-3963
▁mark	-3964
▁symb	-3965
▁scale	-3966
▁smo	-3967
▁Despite	-3968
▁poore	-3969
▁respected	-3970
▁Conference	-3971
▁cou	-3972
▁estim	-3973
▁tools	-3974
▁afford	-3975
▁highest	-3976
▁judicial	-3977
▁transp	-3978
▁flexible	-3979
▁der	-3980
ellig	-3981
▁sole	-3982
economic	-3983
▁distribution	-3984
▁hop	-3985
illing	-3986
▁severe	-3987
▁grateful	-3988
▁frequ	-3989
▁moving	-3990
▁purposes	-3991
▁participate	-3992
▁cooperate	-3993
▁excessive	-3994
enomen	-3995
avi	-3996
ames	-3997
▁Agricult	-3998
nual	-3999
▁Are	-4000
▁phenomen	-4001
▁boost	-4002
▁urban	-4003
▁presence	-4004
▁repeated	-4005
▁Tunis	-4006
eff	-4007
▁EP	-4008
▁dealt	-4009
vote	-4010
iqu	-4011
cent	-4012
▁Dec	-4013
▁July	-4014
▁space	-4015
▁Procedure	-4016
▁structures	-4017
rend	-4018
▁Single	-4019
▁approval	-4020
▁taxpayers	-4021
▁Service	-4022
▁currency	-4023
SK	-4024
oz	-4025
▁2008,	-4026
▁destro	-4027
▁initial	-4028
endly	-4029
▁Burm	-4030
standing	-4031
sibly	-4032
holders	-4033
▁unfair	-4034
▁AC	-4035
▁entit	-4036
▁ratification	-4037
atically	-4038
AT	-4039
▁truth	-4040
actions	-4041
▁disapp	-4042
▁leadership	-4043
ought	-4044
▁From	-4045
▁exclusion	-4046
▁contributions	-4047
govern	-4048
▁primarily	-4049
▁reasonable	-4050
▁affairs	-4051
▁definition	-4052
▁GDP	-4053
▁capable	-4054
▁allocated	-4055
▁introducing	-4056
▁conver	-4057
aken	-4058
▁2004	-4059
▁Anot	-4060
▁Another	-4061
▁Stability	-4062
▁committees	-4063
ping	-4064
▁placed	-4065
▁hous	-4066
▁weap	-4067
ciliation	-4068
ebru	-4069
▁drug	-4070
ebruary	-4071
▁Kingdom	-4072
▁totally	-4073
▁strengthened	-4074
▁Middle	-4075
▁courage	-4076
▁experts	-4077
▁tro	-4078
▁Food	-4079
▁politics	-4080
imb	-4081
▁limits	-4082
alities	-4083
▁detailed	-4084
▁equally	-4085
▁perfect	-4086
▁realise	-4087
ape	-4088
▁Mar	-4089
▁slow	-4090
▁Commun	-4091
▁definitely	-4092
▁AL	-4093
▁proposing	-4094
▁written	-4095
▁February	-4096
▁labelling	-4097
▁transactions	-4098
▁agency	-4099
▁Canad	-4100
▁categ	-4101
▁pra	-4102
▁wid	-4103
▁inequ	-4104
iodiversity	-4105
lled	-4106
▁mer	-4107
▁planned	-4108
▁equipment	-4109
ibet	-4110
▁budgets	-4111
▁compared	-4112
▁delighted	-4113
▁personally	-4114
▁preventing	-4115
ishing	-4116
▁operate	-4117
▁External	-4118
ristian	-4119
▁General	-4120
▁belong	-4121
▁stri	-4122
▁impose	-4123
▁legally	-4124
aviour	-4125
▁clean	-4126
▁Cy	-4127
▁Em	-4128
▁attract	-4129
▁century	-4130
▁Those	-4131
▁court	-4132
▁desire	-4133
▁applic	-4134
▁terrorist	-4135
ilt	-4136
▁plant	-4137
▁protest	-4138
▁uns	-4139
▁ALDE	-4140
oubted	-4141
▁exempt	-4142
▁plants	-4143
▁worse	-4144
▁speakers	-4145
mbly	-4146
sembly	-4147
▁Tibet	-4148
▁meetings	-4149
▁voluntary	-4150
FI	-4151
▁Sh	-4152
▁otherwise	-4153
▁declaration	-4154
▁lea	-4155
▁abuse	-4156
▁hours	-4157
▁morning	-4158
▁greenhouse	-4159
▁impl	-4160
▁sport	-4161
▁please	-4162
▁buildings	-4163
▁50	-4164
▁appear	-4165
▁Com	-4166
▁learning	-4167
anian	-4168
▁Rule	-4169
▁honest	-4170
▁behaviour	-4171
comm	-4172
▁Kore	-4173
▁forthcoming	-4174
▁2.	-4175
▁worry	-4176
▁Moldova	-4177
▁2008.	-4178
▁works	-4179
▁sincere	-4180
▁dig	-4181
▁pursu	-4182
▁interested	-4183
ected	-4184
▁Invest	-4185
▁crises	-4186
▁decent	-4187
▁purch	-4188
ook	-4189
▁Sud	-4190
▁Gaza	-4191
▁redund	-4192
iab	-4193
▁lob	-4194
reneur	-4195
repreneur	-4196
advant	-4197
▁belie	-4198
▁break	-4199
▁degree	-4200
▁quotas	-4201
▁electronic	-4202
▁rul	-4203
▁lines	-4204
▁spread	-4205
lusive	-4206
orough	-4207
▁topic	-4208
Christian	-4209
▁Islam	-4210
▁micro	-4211
▁condition	-4212
▁disadvant	-4213
▁transition	-4214
▁Environment	-4215
▁representative	-4216
bs	-4217
▁Ms	-4218
▁Funds	-4219
Os	-4220
▁New	-4221
oubtedly	-4222
▁thorough	-4223
▁examples	-4224
▁disappoint	-4225
▁Go	-4226
▁win	-4227
gment	-4228
▁Thus	-4229
▁Libya	-4230
▁original	-4231
ps	-4232
nal	-4233
▁floor	-4234
here	-4235
▁che	-4236
▁Cong	-4237
▁centre	-4238
pol	-4239
iscr	-4240
▁Before	-4241
▁dignity	-4242
▁obstacles	-4243
car	-4244
ding	-4245
▁spoke	-4246
▁Ma	-4247
earch	-4248
quality	-4249
▁advert	-4250
▁dy	-4251
▁Per	-4252
▁attitude	-4253
▁resolved	-4254
▁fr	-4255
▁processes	-4256
ana	-4257
▁Sub	-4258
▁retain	-4259
operation	-4260
body	-4261
▁decisive	-4262
ctic	-4263
▁coast	-4264
▁demonstrated	-4265
orate	-4266
▁actual	-4267
▁concluded	-4268
▁continued	-4269
▁demonstrate	-4270
▁500	-4271
▁stable	-4272
▁savings	-4273
▁biodiversity	-4274
▁miss	-4275
▁Paper	-4276
formation	-4277
▁customs	-4278
▁Research	-4279
▁designed	-4280
▁opinions	-4281
▁generally	-4282
▁evalu	-4283
▁suffer	-4284
▁visit	-4285
▁got	-4286
isory	-4287
▁Plan	-4288
▁breach	-4289
▁operational	-4290
iling	-4291
urning	-4292
▁defined	-4293
▁Financial	-4294
pped	-4295
orse	-4296
▁Women	-4297
▁danger	-4298
▁Turkish	-4299
stitution	-4300
▁hands	-4301
▁exclud	-4302
per	-4303
icate	-4304
oting	-4305
▁expectations	-4306
▁mac	-4307
▁gave	-4308
▁fruit	-4309
▁intellig	-4310
▁medicines	-4311
utin	-4312
iding	-4313
▁meant	-4314
▁nation	-4315
▁stabil	-4316
▁subsidies	-4317
uable	-4318
▁Struct	-4319
▁united	-4320
▁operating	-4321
▁strugg	-4322
▁announced	-4323
▁dou	-4324
▁peaceful	-4325
▁highlighted	-4326
▁places	-4327
▁reiter	-4328
gic	-4329
▁wit	-4330
▁rising	-4331
acking	-4332
▁flood	-4333
▁diseases	-4334
▁reliable	-4335
▁existence	-4336
uck	-4337
▁passed	-4338
▁treated	-4339
▁applying	-4340
▁withdraw	-4341
no	-4342
▁deli	-4343
▁reci	-4344
AS	-4345
asbourg	-4346
▁endorse	-4347
▁legitimate	-4348
hib	-4349
▁pet	-4350
eries	-4351
▁temporary	-4352
enn	-4353
lined	-4354
▁spoken	-4355
▁amending	-4356
▁resulting	-4357
▁wishes	-4358
▁Structural	-4359
iff	-4360
▁2010,	-4361
▁reven	-4362
▁uncertain	-4363
▁played	-4364
▁languages	-4365
▁Strasbourg	-4366
▁undertaking	-4367
▁lose	-4368
▁hit	-4369
▁board	-4370
▁users	-4371
▁infringe	-4372
▁wealth	-4373
▁prepare	-4374
▁entrepreneur	-4375
▁ten	-4376
▁Rec	-4377
▁choose	-4378
▁American	-4379
lling	-4380
▁skills	-4381
▁generation	-4382
▁undoubtedly	-4383
▁east	-4384
▁soil	-4385
▁whilst	-4386
▁preparing	-4387
br	-4388
▁clause	-4389
▁criticism	-4390
▁bio	-4391
▁meaning	-4392
▁medical	-4393
▁increases	-4394
ij	-4395
governmental	-4396
▁Sudan	-4397
▁Col	-4398
▁Inter	-4399
▁decades	-4400
▁targeted	-4401
▁Globalisation	-4402
▁glad	-4403
▁neighbours	-4404
LT	-4405
▁prosperity	-4406
▁sovereignty	-4407
va	-4408
ery	-4409
▁Consum	-4410
▁coherent	-4411
▁geograph	-4412
▁dynam	-4413
▁trend	-4414
▁Inst	-4415
▁latest	-4416
▁gap	-4417
iss	-4418
▁welcomed	-4419
▁pollution	-4420
▁earth	-4421
rab	-4422
▁ste	-4423
urement	-4424
▁proceedings	-4425
irms	-4426
▁Act	-4427
▁electricity	-4428
2)	-4429
orthern	-4430
▁brings	-4431
▁taxation	-4432
▁grounds	-4433
▁Cooperation	-4434
▁guaranteeing	-4435
▁traditional	-4436
▁taxes	-4437
▁requested	-4438
▁demographic	-4439
▁technological	-4440
osal	-4441
▁separate	-4442
▁banking	-4443
▁offered	-4444
▁candidate	-4445
▁Here	-4446
▁Sweden	-4447
▁reinfor	-4448
▁performance	-4449
▁Not	-4450
▁likely	-4451
▁details	-4452
▁restruct	-4453
▁Fron	-4454
▁answers	-4455
▁Cont	-4456
▁entitled	-4457
▁identify	-4458
▁vir	-4459
▁constantly	-4460
▁secret	-4461
▁deficit	-4462
▁accidents	-4463
▁studies	-4464
▁waiting	-4465
▁dependent	-4466
▁difference	-4467
▁stor	-4468
▁house	-4469
illance	-4470
▁latter	-4471
try	-4472
▁Lu	-4473
▁Te	-4474
▁...	-4475
▁Haiti	-4476
▁quant	-4477
lection	-4478
▁witness	-4479
▁religion	-4480
tex	-4481
▁rich	-4482
atever	-4483
▁reinforce	-4484
rog	-4485
▁changing	-4486
▁migrants	-4487
▁contracts	-4488
▁manufacturers	-4489
ellect	-4490
roduct	-4491
▁finding	-4492
EU	-4493
ones	-4494
▁stay	-4495
▁Palestinian	-4496
▁procurement	-4497
▁teach	-4498
▁involves	-4499
▁bit	-4500
▁Black	-4501
▁permit	-4502
▁societ	-4503
▁facilities	-4504
▁multilateral	-4505
▁host	-4506
▁2010.	-4507
▁tasks	-4508
▁neighbouring	-4509
▁macro	-4510
▁worldwide	-4511
cel	-4512
▁monetary	-4513
cont	-4514
▁healthy	-4515
▁Her	-4516
▁Agriculture	-4517
▁speeches	-4518
TA	-4519
▁23	-4520
etheless	-4521
-0	-4522
IB	-4523
▁playing	-4524
▁minutes	-4525
IS	-4526
▁check	-4527
▁journal	-4528
▁neither	-4529
▁accompan	-4530
▁published	-4531
▁acknowledge	-4532
icit	-4533
▁gone	-4534
▁Baron	-4535
▁lobby	-4536
▁Socialist	-4537
▁Lastly	-4538
▁advance	-4539
▁Arctic	-4540
▁Instead	-4541
▁examine	-4542
▁Baroness	-4543
▁launched	-4544
▁determined	-4545
▁compensation	-4546
akes	-4547
▁push	-4548
▁insurance	-4549
▁Frontex	-4550
▁relative	-4551
▁Public	-4552
▁Asia	-4553
▁Head	-4554
▁Other	-4555
▁submit	-4556
abilities	-4557
▁Austr	-4558
▁prove	-4559
▁tried	-4560
▁margin	-4561
▁enhance	-4562
▁focused	-4563
ott	-4564
▁Gre	-4565
▁Som	-4566
▁news	-4567
▁2007,	-4568
▁tests	-4569
▁evening	-4570
▁keeping	-4571
▁preserv	-4572
▁regrett	-4573
▁version	-4574
▁constitu	-4575
▁enhanced	-4576
▁considering	-4577
LE	-4578
▁Est	-4579
ellectual	-4580
▁register	-4581
oral	-4582
▁During	-4583
▁assure	-4584
▁justified	-4585
▁Solidarity	-4586
▁surveillance	-4587
▁24	-4588
▁pie	-4589
arding	-4590
▁block	-4591
▁sl	-4592
▁Coh	-4593
▁Pet	-4594
iform	-4595
▁Civil	-4596
▁primary	-4597
▁maintaining	-4598
emical	-4599
related	-4600
▁normal	-4601
▁contained	-4602
▁stakeholders	-4603
▁base	-4604
▁emerging	-4605
▁dri	-4606
▁ves	-4607
andon	-4608
▁noted	-4609
▁phase	-4610
▁replace	-4611
▁Slovakia	-4612
▁appreciate	-4613
cedent	-4614
▁extension	-4615
ares	-4616
GF	-4617
▁Cor	-4618
▁sold	-4619
▁valuable	-4620
▁exception	-4621
▁president	-4622
▁raw	-4623
▁types	-4624
▁naturally	-4625
▁prisoners	-4626
▁rig	-4627
▁wine	-4628
onom	-4629
▁abandon	-4630
▁Investment	-4631
▁successfully	-4632
aj	-4633
▁Bos	-4634
▁VAT	-4635
▁diplomatic	-4636
▁friends	-4637
ses	-4638
part	-4639
▁facts	-4640
▁proud	-4641
▁Canada	-4642
▁prefer	-4643
▁determination	-4644
▁ren	-4645
▁dram	-4646
▁expand	-4647
▁realistic	-4648
▁exists	-4649
▁schools	-4650
▁suitable	-4651
▁phenomenon	-4652
ground	-4653
▁Maced	-4654
▁numbers	-4655
▁passenger	-4656
vent	-4657
▁surv	-4658
oon	-4659
▁Leg	-4660
▁art	-4661
▁Report	-4662
▁seeing	-4663
▁remarks	-4664
▁chain	-4665
▁seven	-4666
▁players	-4667
ria	-4668
fuel	-4669
▁built	-4670
▁prohib	-4671
▁mid	-4672
▁sets	-4673
▁proposes	-4674
▁pursue	-4675
▁simplification	-4676
opol	-4677
▁Fish	-4678
▁West	-4679
▁uniform	-4680
year	-4681
erative	-4682
▁stocks	-4683
▁actively	-4684
-2013	-4685
arent	-4686
▁supposed	-4687
▁Transport	-4688
▁intellectual	-4689
▁environmentally	-4690
▁Over	-4691
ama	-4692
▁save	-4693
▁investigation	-4694
▁stra	-4695
▁reply	-4696
▁identity	-4697
▁Ministers	-4698
ops	-4699
▁cuts	-4700
ursday	-4701
▁traged	-4702
▁affects	-4703
▁disposal	-4704
▁Lithuania	-4705
▁abstained	-4706
▁happens	-4707
▁nevertheless	-4708
▁Without	-4709
cco	-4710
factory	-4711
▁Tunisia	-4712
▁someone	-4713
▁ordinary	-4714
▁Commissioners	-4715
nia	-4716
▁chair	-4717
▁biggest	-4718
active	-4719
▁accident	-4720
▁bureaucracy	-4721
▁Free	-4722
▁stock	-4723
▁contradict	-4724
▁represented	-4725
ederal	-4726
ernity	-4727
▁felt	-4728
▁debating	-4729
▁conducted	-4730
▁disag	-4731
▁release	-4732
▁Thursday	-4733
▁officials	-4734
▁Then	-4735
▁texts	-4736
▁relates	-4737
▁tackling	-4738
▁confident	-4739
▁complicated	-4740
▁arrangements	-4741
ha	-4742
asm	-4743
lav	-4744
▁unp	-4745
▁extended	-4746
▁identified	-4747
▁ACP	-4748
▁round	-4749
▁airlines	-4750
▁collection	-4751
▁massive	-4752
▁Any	-4753
▁paper	-4754
▁owners	-4755
▁amounts	-4756
erts	-4757
▁scr	-4758
▁acquis	-4759
▁finances	-4760
bit	-4761
prus	-4762
uild	-4763
▁Cub	-4764
▁Arab	-4765
▁options	-4766
▁flag	-4767
▁oppos	-4768
▁attach	-4769
▁recall	-4770
▁housing	-4771
▁hundreds	-4772
▁149	-4773
▁War	-4774
▁phys	-4775
▁Cyprus	-4776
▁destroy	-4777
▁intentions	-4778
▁duties	-4779
▁weapons	-4780
▁Regional	-4781
▁presidency	-4782
raft	-4783
▁collab	-4784
▁listen	-4785
▁parents	-4786
▁Christian	-4787
▁significance	-4788
▁upd	-4789
stood	-4790
▁scrutin	-4791
▁ministers	-4792
▁achievement	-4793
▁Mor	-4794
▁Greens	-4795
▁cities	-4796
▁legitim	-4797
▁PSE	-4798
ulture	-4799
▁Korea	-4800
itiative	-4801
▁charges	-4802
▁sad	-4803
▁punish	-4804
▁worrying	-4805
▁confirmed	-4806
▁Adjustment	-4807
▁negotiation	-4808
necess	-4809
▁societies	-4810
▁advertising	-4811
▁App	-4812
iciently	-4813
▁suffered	-4814
▁Fisheries	-4815
▁incentives	-4816
▁diver	-4817
▁farming	-4818
▁threats	-4819
▁affecting	-4820
irth	-4821
itage	-4822
▁Chair	-4823
▁addressing	-4824
▁Once	-4825
▁Burma	-4826
▁worst	-4827
▁Perhaps	-4828
▁drawing	-4829
▁Latin	-4830
▁Grow	-4831
▁profits	-4832
▁depends	-4833
▁secondly	-4834
cer	-4835
▁Under	-4836
▁fishermen	-4837
▁3.	-4838
▁experiencing	-4839
▁aud	-4840
▁count	-4841
▁leader	-4842
airy	-4843
osen	-4844
cession	-4845
▁belief	-4846
▁resist	-4847
oul	-4848
scale	-4849
▁digital	-4850
▁unnecess	-4851
▁geographical	-4852
pir	-4853
gence	-4854
▁pipe	-4855
▁room	-4856
▁symbol	-4857
▁contributed	-4858
▁persec	-4859
▁centres	-4860
▁reaction	-4861
▁demanding	-4862
▁entrepreneurs	-4863
50	-4864
▁Macedonia	-4865
▁distort	-4866
▁opened	-4867
▁autonom	-4868
▁careful	-4869
▁disagree	-4870
▁constitution	-4871
ches	-4872
▁Bosnia	-4873
▁occasions	-4874
▁Dan	-4875
urely	-4876
▁Growth	-4877
▁science	-4878
▁wait	-4879
▁whatever	-4880
ini	-4881
▁largely	-4882
▁universal	-4883
▁isol	-4884
▁online	-4885
▁amongst	-4886
▁becomes	-4887
▁Christians	-4888
▁chosen	-4889
▁double	-4890
▁honour	-4891
ique	-4892
orry	-4893
▁size	-4894
▁poorest	-4895
▁politically	-4896
▁appropriations	-4897
▁exports	-4898
▁substance	-4899
▁dairy	-4900
▁toler	-4901
iannual	-4902
▁underm	-4903
atlantic	-4904
▁biofuel	-4905
▁intends	-4906
▁negotiated	-4907
▁enabling	-4908
▁complement	-4909
iles	-4910
▁fields	-4911
▁helped	-4912
▁exceptional	-4913
▁speculation	-4914
anging	-4915
▁front	-4916
▁losses	-4917
▁dispute	-4918
▁endors	-4919
▁harmful	-4920
EN	-4921
nel	-4922
▁envis	-4923
▁sensible	-4924
▁tend	-4925
▁liber	-4926
▁wider	-4927
▁deserv	-4928
▁driving	-4929
▁acknowled	-4930
▁association	-4931
aily	-4932
▁leads	-4933
▁applicable	-4934
ris	-4935
▁requests	-4936
atures	-4937
▁motor	-4938
▁System	-4939
▁Internal	-4940
▁airports	-4941
▁nationals	-4942
ari	-4943
discr	-4944
▁coal	-4945
▁issued	-4946
▁National	-4947
▁experienced	-4948
co	-4949
▁team	-4950
▁define	-4951
▁previously	-4952
▁declarations	-4953
▁core	-4954
▁visas	-4955
▁ambition	-4956
▁certainty	-4957
▁beneficial	-4958
▁NG	-4959
acco	-4960
▁chemical	-4961
▁occasion	-4962
▁Ber	-4963
▁blue	-4964
▁generations	-4965
▁pestic	-4966
▁urgency	-4967
▁preparation	-4968
▁possibilities	-4969
gies	-4970
▁optim	-4971
▁extrem	-4972
rees	-4973
▁daily	-4974
▁eight	-4975
▁paying	-4976
▁proved	-4977
▁convict	-4978
▁counterfe	-4979
uls	-4980
▁resum	-4981
▁greatly	-4982
▁et	-4983
▁heavy	-4984
▁imbal	-4985
▁knows	-4986
kers	-4987
▁imag	-4988
inated	-4989
▁simplify	-4990
▁eliminate	-4991
▁foundations	-4992
adequ	-4993
▁fine	-4994
▁resulted	-4995
tt	-4996
ein	-4997
ingu	-4998
▁alarm	-4999
▁applications	-5000
ites	-5001
▁har	-5002
▁schemes	-5003
aud	-5004
▁percent	-5005
▁granting	-5006
▁competences	-5007
▁saw	-5008
ament	-5009
▁valid	-5010
▁approx	-5011
▁Auth	-5012
▁divid	-5013
▁clarify	-5014
▁pensions	-5015
▁arguments	-5016
▁understood	-5017
usion	-5018
▁violation	-5019
▁emphasised	-5020
▁encouraged	-5021
▁restructuring	-5022
▁fem	-5023
▁sil	-5024
right	-5025
▁formal	-5026
▁inadequ	-5027
▁reaching	-5028
ague	-5029
what	-5030
▁figure	-5031
▁competent	-5032
▁impression	-5033
▁Sc	-5034
appe	-5035
ories	-5036
▁lessons	-5037
▁attempts	-5038
▁sufficiently	-5039
▁198	-5040
▁approve	-5041
▁supplement	-5042
▁regrettable	-5043
▁30%	-5044
▁EIB	-5045
▁pain	-5046
▁Where	-5047
▁foremost	-5048
▁neighbourhood	-5049
▁spite	-5050
▁Secret	-5051
▁appears	-5052
▁conserv	-5053
▁apparent	-5054
▁underline	-5055
inc	-5056
▁Sim	-5057
▁etc	-5058
▁kept	-5059
▁Follow	-5060
iability	-5061
▁follows	-5062
▁dism	-5063
▁zone	-5064
▁loans	-5065
▁benefici	-5066
coh	-5067
▁Ky	-5068
▁raising	-5069
▁supplies	-5070
▁extensive	-5071
▁Tw	-5072
novation	-5073
▁southern	-5074
▁accessible	-5075
ecision	-5076
▁acting	-5077
▁oppose	-5078
▁coordinate	-5079
CE	-5080
ta	-5081
▁bro	-5082
▁haz	-5083
▁birth	-5084
▁remove	-5085
▁Control	-5086
▁absence	-5087
institutional	-5088
▁arms	-5089
▁detri	-5090
▁assume	-5091
▁radical	-5092
mark	-5093
build	-5094
▁unless	-5095
▁Eng	-5096
▁cert	-5097
▁moral	-5098
▁hearing	-5099
gm	-5100
▁Ver	-5101
▁Assembly	-5102
▁carrying	-5103
▁correctly	-5104
▁supervisory	-5105
ped	-5106
edly	-5107
▁swift	-5108
▁students	-5109
▁dictators	-5110
▁recession	-5111
rid	-5112
▁links	-5113
▁consci	-5114
etherlands	-5115
ables	-5116
cl	-5117
▁bound	-5118
▁emission	-5119
illenn	-5120
▁described	-5121
▁22	-5122
▁40	-5123
▁Latv	-5124
▁correspon	-5125
▁discrimin	-5126
▁reflected	-5127
free	-5128
▁Ice	-5129
▁disappe	-5130
▁credible	-5131
▁negotiate	-5132
▁constitute	-5133
MF	-5134
hol	-5135
▁claims	-5136
▁charge	-5137
▁bureaucratic	-5138
rain	-5139
▁dos	-5140
cohol	-5141
▁divers	-5142
▁nearly	-5143
▁utmost	-5144
▁indicators	-5145
erm	-5146
▁vig	-5147
▁somewhat	-5148
▁undertaken	-5149
▁youth	-5150
▁compon	-5151
▁running	-5152
▁Employment	-5153
▁background	-5154
▁harmonised	-5155
▁Netherlands	-5156
ane	-5157
▁below	-5158
▁26	-5159
like	-5160
level	-5161
▁flight	-5162
▁showing	-5163
▁estimated	-5164
▁mandatory	-5165
▁codecision	-5166
▁Me	-5167
▁Bec	-5168
▁possibly	-5169
▁penalties	-5170
▁difficulty	-5171
▁concentrate	-5172
illennium	-5173
▁employers	-5174
▁governing	-5175
▁economically	-5176
▁easily	-5177
▁Iceland	-5178
▁holding	-5179
▁Its	-5180
▁asse	-5181
▁solely	-5182
put	-5183
▁Mus	-5184
ading	-5185
▁seeks	-5186
▁displ	-5187
▁corpor	-5188
▁vessels	-5189
▁Following	-5190
▁necessity	-5191
▁highlights	-5192
na	-5193
arkoz	-5194
▁dossi	-5195
ufficient	-5196
▁historic	-5197
▁physical	-5198
▁qualified	-5199
▁succeeded	-5200
▁len	-5201
vision	-5202
▁unity	-5203
▁legitimacy	-5204
▁authorisation	-5205
lder	-5206
▁beg	-5207
▁cop	-5208
▁incom	-5209
▁species	-5210
▁textile	-5211
▁Su	-5212
▁wind	-5213
▁black	-5214
▁unnecessary	-5215
▁virt	-5216
arkozy	-5217
▁argument	-5218
▁investors	-5219
DA	-5220
ki	-5221
utch	-5222
▁Both	-5223
▁pillar	-5224
▁Consumer	-5225
▁ratified	-5226
▁resource	-5227
dd	-5228
ALE	-5229
oard	-5230
osure	-5231
▁batt	-5232
▁contributing	-5233
ony	-5234
▁Verts	-5235
▁tragedy	-5236
▁prospects	-5237
▁historical	-5238
▁qualifications	-5239
▁cele	-5240
▁Sarkozy	-5241
ulsory	-5242
▁inhab	-5243
▁spend	-5244
▁intens	-5245
▁amended	-5246
▁genuinely	-5247
▁referring	-5248
▁regardless	-5249
▁fost	-5250
▁tort	-5251
▁checks	-5252
▁Subject	-5253
.)	-5254
▁radio	-5255
▁rapidly	-5256
▁revised	-5257
▁treaties	-5258
▁completed	-5259
abwe	-5260
imbabwe	-5261
▁debated	-5262
▁constitutional	-5263
▁NGOs	-5264
ancies	-5265
▁faith	-5266
▁Heads	-5267
▁tariff	-5268
▁Consequently	-5269
wing	-5270
▁mix	-5271
▁touch	-5272
▁Israeli	-5273
▁leaving	-5274
▁convention	-5275
%.	-5276
cle	-5277
cipl	-5278
▁Non	-5279
▁tob	-5280
▁proof	-5281
▁reass	-5282
abled	-5283
bling	-5284
oslav	-5285
▁sorry	-5286
▁exceed	-5287
▁eastern	-5288
▁restore	-5289
▁Lab	-5290
ception	-5291
▁cancer	-5292
▁letter	-5293
▁stands	-5294
▁privacy	-5295
▁heritage	-5296
▁offering	-5297
▁essentially	-5298
urb	-5299
▁10%	-5300
▁Par	-5301
▁trial	-5302
session	-5303
ugoslav	-5304
▁predict	-5305
▁tobacco	-5306
▁extraord	-5307
▁reiterate	-5308
▁satisfied	-5309
emic	-5310
▁piece	-5311
▁plays	-5312
▁spect	-5313
▁surely	-5314
▁relatively	-5315
▁Gal	-5316
▁sharing	-5317
▁detention	-5318
▁Constitution	-5319
raid	-5320
▁crop	-5321
▁wage	-5322
▁afraid	-5323
▁timely	-5324
▁Agenda	-5325
▁doubts	-5326
▁alcohol	-5327
▁creates	-5328
▁deserve	-5329
▁regulate	-5330
▁allocation	-5331
una	-5332
▁vast	-5333
utive	-5334
▁2000	-5335
▁Well	-5336
▁went	-5337
▁bearing	-5338
▁convergence	-5339
▁28	-5340
▁buy	-5341
idesp	-5342
▁Legal	-5343
▁compat	-5344
idespread	-5345
▁obtained	-5346
▁Sm	-5347
teneg	-5348
▁reve	-5349
▁deaths	-5350
▁summer	-5351
▁considers	-5352
▁town	-5353
▁Belgium	-5354
▁Protocol	-5355
ko	-5356
omet	-5357
▁adjust	-5358
▁prosec	-5359
▁Monteneg	-5360
▁biofuels	-5361
▁friendly	-5362
▁regulated	-5363
▁widespread	-5364
▁i	-5365
▁agg	-5366
▁forg	-5367
▁tang	-5368
▁toys	-5369
▁vacc	-5370
igation	-5371
▁Conserv	-5372
▁je	-5373
▁tragic	-5374
▁complaints	-5375
▁educational	-5376
▁Climate	-5377
▁Romanian	-5378
coun	-5379
astro	-5380
▁obliged	-5381
▁expensive	-5382
▁fire	-5383
▁meat	-5384
▁clarity	-5385
▁powerful	-5386
while	-5387
▁Common	-5388
▁dynamic	-5389
▁storage	-5390
estion	-5391
▁slight	-5392
▁producing	-5393
▁Information	-5394
SP	-5395
tra	-5396
▁ded	-5397
oring	-5398
General	-5399
▁fairly	-5400
▁imported	-5401
▁mobilisation	-5402
▁transitional	-5403
NG	-5404
stitute	-5405
▁civilian	-5406
▁elsewhere	-5407
▁interpretation	-5408
▁Like	-5409
▁remark	-5410
▁regimes	-5411
▁compulsory	-5412
viously	-5413
▁courts	-5414
▁waters	-5415
▁Because	-5416
▁60	-5417
▁Home	-5418
▁tough	-5419
▁consent	-5420
▁promised	-5421
▁Bus	-5422
ifies	-5423
▁Left	-5424
▁deeply	-5425
▁entail	-5426
▁length	-5427
▁constitutes	-5428
▁efficiently	-5429
▁populations	-5430
anks	-5431
▁hence	-5432
▁quota	-5433
▁respects	-5434
▁multi	-5435
▁entered	-5436
▁feeling	-5437
▁determine	-5438
sist	-5439
▁Nor	-5440
rible	-5441
▁revenue	-5442
▁warming	-5443
▁stressed	-5444
▁extending	-5445
▁freely	-5446
▁Will	-5447
▁foot	-5448
▁Britain	-5449
▁Socialists	-5450
▁journalists	-5451
itical	-5452
▁forum	-5453
▁minim	-5454
▁causing	-5455
▁maintained	-5456
oss	-5457
2008	-5458
▁plat	-5459
▁outer	-5460
▁annivers	-5461
▁suggested	-5462
▁Millennium	-5463
▁advantages	-5464
exic	-5465
▁unre	-5466
▁female	-5467
▁orient	-5468
▁drivers	-5469
▁expense	-5470
▁Cohesion	-5471
▁deserves	-5472
▁Authority	-5473
▁representation	-5474
▁pan	-5475
▁Atlantic	-5476
▁suggestions	-5477
▁universities	-5478
▁31	-5479
2009	-5480
▁hung	-5481
▁flows	-5482
▁pleas	-5483
▁Belgian	-5484
▁inequalities	-5485
mm	-5486
osis	-5487
▁40%	-5488
▁eye	-5489
▁briefly	-5490
▁minister	-5491
▁scrutiny	-5492
▁approximately	-5493
rich	-5494
oviet	-5495
▁Time	-5496
▁pict	-5497
▁expan	-5498
▁Budgets	-5499
▁deliber	-5500
▁occurred	-5501
▁struggle	-5502
pel	-5503
oted	-5504
▁hal	-5505
▁calc	-5506
▁Joint	-5507
istical	-5508
▁earthqu	-5509
▁Neighbour	-5510
▁unemployed	-5511
▁stip	-5512
▁decre	-5513
▁Petitions	-5514
▁favourable	-5515
▁anniversary	-5516
duc	-5517
▁Imp	-5518
▁abroad	-5519
▁ageing	-5520
▁ignore	-5521
▁marine	-5522
employed	-5523
▁Pa	-5524
▁accur	-5525
ultural	-5526
▁inhabit	-5527
▁thanking	-5528
▁expansion	-5529
▁voc	-5530
▁door	-5531
▁2007.	-5532
▁partly	-5533
▁forests	-5534
▁commission	-5535
▁importantly	-5536
▁satisfactory	-5537
anda	-5538
▁hazard	-5539
▁Austria	-5540
▁financed	-5541
ube	-5542
▁watch	-5543
▁assets	-5544
▁Iranian	-5545
▁outermost	-5546
▁prem	-5547
▁trib	-5548
regular	-5549
▁believes	-5550
▁remaining	-5551
▁intelligent	-5552
▁presentation	-5553
▁IC	-5554
▁deals	-5555
▁viable	-5556
▁vehicle	-5557
▁Montenegro	-5558
▁inadequate	-5559
▁willingness	-5560
zeg	-5561
▁lic	-5562
▁beings	-5563
▁indicated	-5564
▁29	-5565
▁inspect	-5566
▁Slovenia	-5567
ores	-5568
▁signing	-5569
▁openness	-5570
▁Neighbourhood	-5571
ax	-5572
oman	-5573
▁50%	-5574
▁alleg	-5575
ferences	-5576
▁preserve	-5577
▁maternity	-5578
▁solid	-5579
▁shame	-5580
▁Obviously	-5581
▁uncertainty	-5582
▁Az	-5583
▁pesticides	-5584
lease	-5585
ustry	-5586
▁mistake	-5587
▁Pre	-5588
▁Stock	-5589
▁mother	-5590
▁notably	-5591
▁tangible	-5592
▁reporting	-5593
▁assessments	-5594
cif	-5595
iers	-5596
opard	-5597
ovina	-5598
▁rare	-5599
▁Mexic	-5600
▁tight	-5601
▁intensive	-5602
iar	-5603
osp	-5604
▁Day	-5605
▁Also	-5606
▁diss	-5607
▁search	-5608
hr	-5609
▁apart	-5610
▁Centre	-5611
▁distin	-5612
▁opposite	-5613
▁pipeline	-5614
▁Mart	-5615
▁card	-5616
▁talked	-5617
▁warning	-5618
▁explicit	-5619
ulz	-5620
▁eyes	-5621
▁jeopard	-5622
amb	-5623
lin	-5624
ancy	-5625
▁Schulz	-5626
▁joined	-5627
▁purely	-5628
▁turned	-5629
▁freight	-5630
roductive	-5631
UE	-5632
▁Red	-5633
▁2003	-5634
▁armed	-5635
▁scand	-5636
inent	-5637
country	-5638
zegovina	-5639
▁Islamic	-5640
lif	-5641
oli	-5642
elong	-5643
stuff	-5644
▁liqu	-5645
comings	-5646
▁actors	-5647
lymp	-5648
oler	-5649
ocking	-5650
▁2020.	-5651
▁Rural	-5652
▁Soviet	-5653
▁broader	-5654
▁disabled	-5655
▁drafting	-5656
5,	-5657
ara	-5658
rad	-5659
▁dum	-5660
▁rob	-5661
arians	-5662
▁heading	-5663
▁reflects	-5664
▁welcomes	-5665
inal	-5666
rors	-5667
obody	-5668
▁admit	-5669
▁recipro	-5670
▁declared	-5671
▁Slovenian	-5672
AF	-5673
iox	-5674
alle	-5675
▁GUE	-5676
▁sac	-5677
▁2002	-5678
▁Olymp	-5679
▁Please	-5680
▁shortcomings	-5681
▁transatlantic	-5682
ox	-5683
ileo	-5684
▁Car	-5685
▁pil	-5686
raint	-5687
▁promises	-5688
▁Regarding	-5689
▁defending	-5690
▁providers	-5691
▁respecting	-5692
▁insufficient	-5693
▁stre	-5694
▁couple	-5695
▁integrity	-5696
▁irregular	-5697
enty	-5698
▁gam	-5699
▁jur	-5700
▁removed	-5701
▁protectionism	-5702
ries	-5703
▁Nat	-5704
▁Does	-5705
▁drugs	-5706
▁prompt	-5707
▁terrible	-5708
▁collaboration	-5709
▁communications	-5710
▁depr	-5711
▁killed	-5712
▁focusing	-5713
▁indirect	-5714
▁managing	-5715
▁surround	-5716
ruction	-5717
▁smaller	-5718
apse	-5719
▁inj	-5720
▁diox	-5721
▁catch	-5722
▁unique	-5723
▁inhabitants	-5724
▁inev	-5725
▁victim	-5726
▁Industry	-5727
▁Having	-5728
▁advice	-5729
▁plural	-5730
▁electoral	-5731
▁consistency	-5732
thly	-5733
▁EGF	-5734
▁Four	-5735
▁burdens	-5736
▁listened	-5737
▁perfectly	-5738
▁suspended	-5739
▁tradition	-5740
lim	-5741
city	-5742
alling	-5743
▁Dutch	-5744
▁antic	-5745
▁dispro	-5746
▁discipl	-5747
▁consequence	-5748
▁considerably	-5749
▁ES	-5750
▁Cuba	-5751
▁Goals	-5752
▁quote	-5753
▁choices	-5754
▁evident	-5755
▁ambitions	-5756
NGL	-5757
deav	-5758
enced	-5759
▁erad	-5760
▁sake	-5761
▁transl	-5762
▁Services	-5763
▁imposing	-5764
▁explanations	-5765
discrimination	-5766
band	-5767
fers	-5768
▁ineff	-5769
▁endeav	-5770
▁Galileo	-5771
▁lasting	-5772
▁promoted	-5773
▁destruction	-5774
ont	-5775
point	-5776
▁Danube	-5777
▁stance	-5778
▁tonnes	-5779
▁territories	-5780
arer	-5781
iring	-5782
▁himself	-5783
▁sending	-5784
▁announce	-5785
▁percentage	-5786
▁dictatorship	-5787
▁tension	-5788
▁missions	-5789
▁adaptation	-5790
conn	-5791
▁Treat	-5792
▁inflation	-5793
irable	-5794
▁volum	-5795
▁Office	-5796
▁prevail	-5797
▁Northern	-5798
▁Secretary	-5799
▁became	-5800
▁transposition	-5801
.'	-5802
aks	-5803
▁brut	-5804
▁city	-5805
ective	-5806
▁helps	-5807
▁param	-5808
▁campaigns	-5809
▁dependence	-5810
rem	-5811
▁horiz	-5812
▁deteri	-5813
oto	-5814
mining	-5815
▁kinds	-5816
▁older	-5817
▁covers	-5818
▁delays	-5819
▁Freedom	-5820
ka	-5821
uy	-5822
ili	-5823
▁Pri	-5824
ondon	-5825
ystem	-5826
▁glob	-5827
▁vari	-5828
▁2006,	-5829
▁London	-5830
▁gradually	-5831
▁juris	-5832
▁aftern	-5833
▁battle	-5834
▁alongside	-5835
▁intervene	-5836
▁frequently	-5837
▁reconciliation	-5838
▁0.	-5839
▁Van	-5840
▁142)	-5841
▁Small	-5842
▁Their	-5843
▁select	-5844
▁patient	-5845
▁straight	-5846
▁USA	-5847
▁puts	-5848
lderly	-5849
▁obser	-5850
▁extraordinary	-5851
▁2011.	-5852
▁combined	-5853
▁ownership	-5854
▁receiving	-5855
▁implications	-5856
▁Parliamentary	-5857
▁beneficiaries	-5858
▁consolidation	-5859
▁Constitutional	-5860
▁Cr	-5861
▁Fer	-5862
▁She	-5863
▁inn	-5864
versi	-5865
▁Colle	-5866
▁began	-5867
▁sched	-5868
reshold	-5869
▁Associ	-5870
▁anticip	-5871
▁jointly	-5872
▁indicate	-5873
▁stations	-5874
▁demonstrates	-5875
):	-5876
see	-5877
holm	-5878
petr	-5879
▁doct	-5880
▁pharm	-5881
▁remed	-5882
▁liquid	-5883
▁refers	-5884
▁threshold	-5885
▁processing	-5886
▁Herzegovina	-5887
▁socio	-5888
▁sphere	-5889
▁airport	-5890
▁restricted	-5891
itch	-5892
▁Alb	-5893
versial	-5894
▁routes	-5895
▁perpetr	-5896
▁regarded	-5897
▁undermine	-5898
▁tape	-5899
zone	-5900
▁sla	-5901
place	-5902
▁Somal	-5903
▁roads	-5904
▁wages	-5905
▁persist	-5906
▁Treaties	-5907
▁organise	-5908
▁broadcast	-5909
▁repeatedly	-5910
▁partnerships	-5911
▁Bro	-5912
aucas	-5913
▁losing	-5914
▁proven	-5915
▁Liberties	-5916
▁accompanied	-5917
uing	-5918
▁hyp	-5919
▁rid	-5920
apter	-5921
▁Conc	-5922
▁Europol	-5923
▁elderly	-5924
▁dramatic	-5925
ca	-5926
ych	-5927
▁4.	-5928
orous	-5929
▁farms	-5930
▁refus	-5931
oha	-5932
▁drafted	-5933
initiative	-5934
▁Democratic	-5935
▁expressing	-5936
utr	-5937
▁Ham	-5938
▁fun	-5939
▁aside	-5940
▁Caucas	-5941
▁island	-5942
▁periods	-5943
▁Mc	-5944
ients	-5945
▁models	-5946
▁railway	-5947
▁abolition	-5948
▁marketing	-5949
As	-5950
edge	-5951
▁fewer	-5952
▁dossier	-5953
▁picture	-5954
▁turning	-5955
▁weakness	-5956
▁threatened	-5957
AC	-5958
▁Appro	-5959
astroph	-5960
▁Reform	-5961
ds	-5962
iced	-5963
▁arise	-5964
▁ships	-5965
▁Latvia	-5966
▁larger	-5967
lusively	-5968
▁arising	-5969
▁ecological	-5970
down	-5971
▁dia	-5972
mpath	-5973
▁missing	-5974
▁whereby	-5975
umb	-5976
rated	-5977
building	-5978
▁endorsed	-5979
▁humanity	-5980
▁catastroph	-5981
▁facilitating	-5982
▁Op	-5983
▁route	-5984
▁Innovation	-5985
▁80%	-5986
▁Doha	-5987
▁cheap	-5988
▁track	-5989
▁afternoon	-5990
▁coherence	-5991
▁vocational	-5992
igu	-5993
tion	-5994
▁lie	-5995
▁Most	-5996
stuffs	-5997
▁Mexico	-5998
▁equival	-5999
▁generate	-6000
▁rational	-6001
▁overl	-6002
▁creative	-6003
▁Budgetary	-6004
▁everybody	-6005
▁expertise	-6006
▁simplified	-6007
▁reconstruction	-6008
ani	-6009
ode	-6010
▁ECB	-6011
▁chann	-6012
diction	-6013
▁sympath	-6014
▁whereas	-6015
▁investing	-6016
▁achievements	-6017
▁consultations	-6018
ming	-6019
▁motiv	-6020
▁forgot	-6021
▁patent	-6022
▁unions	-6023
▁Caucasus	-6024
▁Association	-6025
▁controversial	-6026
▁disproportion	-6027
oly	-6028
▁300	-6029
atell	-6030
▁webs	-6031
▁south	-6032
▁unequ	-6033
▁reductions	-6034
▁undertakings	-6035
5.	-6036
▁fix	-6037
▁mit	-6038
▁failing	-6039
▁seekers	-6040
▁informal	-6041
▁citizenship	-6042
%,	-6043
▁fires	-6044
▁reloc	-6045
▁strike	-6046
▁mistakes	-6047
▁Stockholm	-6048
▁connected	-6049
▁settlement	-6050
▁GM	-6051
etic	-6052
▁army	-6053
▁incon	-6054
▁collapse	-6055
▁redundant	-6056
▁murd	-6057
▁troops	-6058
▁Albania	-6059
▁falling	-6060
▁none	-6061
▁scen	-6062
▁Techn	-6063
▁minute	-6064
▁ensured	-6065
▁marking	-6066
▁promise	-6067
▁torture	-6068
▁revolution	-6069
▁multiannual	-6070
ET	-6071
SL	-6072
ski	-6073
▁ecos	-6074
▁string	-6075
▁recognises	-6076
▁mur	-6077
▁Pers	-6078
▁impr	-6079
▁util	-6080
▁blood	-6081
▁drive	-6082
▁items	-6083
▁sugar	-6084
▁unpre	-6085
▁adverse	-6086
▁necessarily	-6087
omb	-6088
▁Obama	-6089
▁fuels	-6090
▁prevented	-6091
▁Presidents	-6092
▁television	-6093
▁blame	-6094
▁transit	-6095
ogical	-6096
▁hunger	-6097
▁clearer	-6098
▁pleasure	-6099
▁standing	-6100
▁conventions	-6101
▁unprecedent	-6102
6-0	-6103
▁Clear	-6104
▁Congo	-6105
▁gross	-6106
▁pilot	-6107
▁pragm	-6108
▁reveal	-6109
▁ecosystem	-6110
▁respective	-6111
▁modernisation	-6112
▁depart	-6113
▁cutting	-6114
▁imbalances	-6115
▁infringement	-6116
▁149)	-6117
▁Wall	-6118
▁Again	-6119
▁devast	-6120
▁planet	-6121
▁popular	-6122
▁terrorists	-6123
▁exclusively	-6124
asion	-6125
▁mobile	-6126
▁showed	-6127
▁Through	-6128
▁compete	-6129
▁Liberals	-6130
▁surprised	-6131
▁comparison	-6132
▁unprecedented	-6133
erted	-6134
inger	-6135
▁bott	-6136
▁frag	-6137
▁aspir	-6138
▁specul	-6139
▁imagine	-6140
▁interim	-6141
▁sincerely	-6142
▁Nonetheless	-6143
▁instability	-6144
▁accountability	-6145
appro	-6146
ticles	-6147
▁declare	-6148
▁excluded	-6149
▁hazardous	-6150
▁accounting	-6151
▁presenting	-6152
BG	-6153
zer	-6154
requ	-6155
oured	-6156
▁ruling	-6157
usterity	-6158
▁candidates	-6159
lex	-6160
▁falls	-6161
▁enables	-6162
▁democrat	-6163
oe	-6164
▁nine	-6165
▁monit	-6166
▁Labour	-6167
▁abuses	-6168
▁coastal	-6169
oll	-6170
rum	-6171
stone	-6172
▁murder	-6173
▁internet	-6174
▁congratulations	-6175
uter	-6176
ivest	-6177
▁arch	-6178
▁ment	-6179
▁specif	-6180
ivestock	-6181
▁scandal	-6182
▁alarming	-6183
▁protocol	-6184
▁hopefully	-6185
▁undertake	-6186
▁Stat	-6187
▁arbit	-6188
▁usual	-6189
▁contacts	-6190
▁reported	-6191
▁condemned	-6192
▁repression	-6193
yes	-6194
ster	-6195
▁ben	-6196
verse	-6197
▁exerc	-6198
▁deadline	-6199
▁explanation	-6200
▁satisfaction	-6201
1,	-6202
gen	-6203
spe	-6204
craft	-6205
uries	-6206
venth	-6207
ourism	-6208
▁commend	-6209
nex	-6210
▁IT	-6211
lish	-6212
▁Bas	-6213
▁privile	-6214
▁Otherwise	-6215
▁civilians	-6216
▁resolving	-6217
▁persecution	-6218
vens	-6219
▁Two	-6220
▁code	-6221
▁abort	-6222
▁dispar	-6223
▁transpl	-6224
▁imprison	-6225
▁foundation	-6226
▁underlying	-6227
ona	-6228
▁IMF	-6229
ednes	-6230
utical	-6231
▁voters	-6232
ednesday	-6233
▁advanced	-6234
▁forgotten	-6235
ulf	-6236
rous	-6237
▁justify	-6238
▁responses	-6239
▁totalitarian	-6240
▁unw	-6241
▁Moro	-6242
▁reint	-6243
▁finish	-6244
▁sought	-6245
inational	-6246
▁observed	-6247
▁Communist	-6248
▁systematic	-6249
cyc	-6250
ull	-6251
▁resc	-6252
▁tuna	-6253
▁Allow	-6254
▁reaff	-6255
tenance	-6256
▁uphold	-6257
▁widely	-6258
ederation	-6259
▁evaluate	-6260
▁livestock	-6261
▁emphasises	-6262
ipping	-6263
itative	-6264
▁engaged	-6265
▁disputes	-6266
▁inclusive	-6267
ugust	-6268
▁enshr	-6269
▁hopes	-6270
sequent	-6271
▁errors	-6272
▁inside	-6273
▁Special	-6274
▁moreover	-6275
▁austerity	-6276
▁procedural	-6277
▁safeguarding	-6278
SCE	-6279
cul	-6280
back	-6281
inians	-6282
▁conve	-6283
▁homes	-6284
▁woman	-6285
▁invite	-6286
▁decline	-6287
▁stimulate	-6288
▁safeguards	-6289
▁disappointed	-6290
▁Cur	-6291
▁elig	-6292
▁euros	-6293
▁journe	-6294
▁USD	-6295
▁Educ	-6296
▁English	-6297
▁deficits	-6298
▁incident	-6299
▁earthquake	-6300
▁reservations	-6301
▁ECR	-6302
ections	-6303
itizens	-6304
▁robust	-6305
▁aircraft	-6306
hus	-6307
jud	-6308
▁197	-6309
▁firms	-6310
▁timet	-6311
▁directed	-6312
▁contributes	-6313
▁unanimously	-6314
LV	-6315
▁innoc	-6316
▁Estonia	-6317
▁subsequent	-6318
▁clarification	-6319
acerb	-6320
inder	-6321
aching	-6322
▁persu	-6323
▁princip	-6324
▁violent	-6325
▁autonomy	-6326
▁Wednesday	-6327
▁Air	-6328
▁copy	-6329
▁enfor	-6330
▁shape	-6331
▁commod	-6332
▁exacerb	-6333
▁multinational	-6334
ef	-6335
cri	-6336
▁frank	-6337
▁residence	-6338
ER	-6339
national	-6340
▁Tourism	-6341
▁wording	-6342
▁gambling	-6343
▁subjects	-6344
▁ant	-6345
▁map	-6346
▁image	-6347
istered	-6348
▁topics	-6349
▁facility	-6350
▁lifelong	-6351
▁imperative	-6352
▁traditions	-6353
▁delegations	-6354
vi	-6355
wan	-6356
resh	-6357
▁unb	-6358
▁names	-6359
ospital	-6360
▁August	-6361
▁advocate	-6362
▁examined	-6363
print	-6364
▁exposed	-6365
▁ignored	-6366
▁motions	-6367
▁released	-6368
fri	-6369
atab	-6370
▁adm	-6371
▁Nord	-6372
▁rely	-6373
▁contam	-6374
▁ratify	-6375
▁shares	-6376
▁2007-2013	-6377
iminal	-6378
▁mount	-6379
▁trace	-6380
unctioning	-6381
▁attractive	-6382
▁observation	-6383
pow	-6384
▁hum	-6385
▁Chad	-6386
▁recover	-6387
▁Education	-6388
▁incentive	-6389
▁concession	-6390
▁productive	-6391
▁compromises	-6392
▁consistently	-6393
ald	-6394
allel	-6395
▁sites	-6396
▁Culture	-6397
▁applaud	-6398
▁dioxide	-6399
fortunate	-6400
▁maintenance	-6401
▁investigations	-6402
▁characteristics	-6403
ann	-6404
▁cease	-6405
▁ports	-6406
▁incomp	-6407
▁joining	-6408
▁unfortunate	-6409
otive	-6410
▁fort	-6411
▁sacr	-6412
▁sell	-6413
▁stream	-6414
▁closure	-6415
ontal	-6416
▁marks	-6417
▁hardly	-6418
▁dumping	-6419
▁illegally	-6420
▁disadvantaged	-6421
hn	-6422
▁Er	-6423
esty	-6424
commun	-6425
▁datab	-6426
▁super	-6427
▁suspect	-6428
▁employed	-6429
▁representing	-6430
oud	-6431
▁IN	-6432
ustain	-6433
▁misle	-6434
▁signs	-6435
▁relate	-6436
▁equivalent	-6437
▁outstanding	-6438
enko	-6439
keep	-6440
▁1990	-6441
▁Rome	-6442
▁unlike	-6443
▁ensures	-6444
▁covering	-6445
▁familiar	-6446
▁Hamas	-6447
▁derog	-6448
▁error	-6449
▁neglect	-6450
▁entering	-6451
▁integrate	-6452
▁stringent	-6453
▁manufacturing	-6454
▁manag	-6455
▁lacking	-6456
▁forecast	-6457
mos	-6458
unte	-6459
▁SIS	-6460
▁cope	-6461
▁begun	-6462
uestion	-6463
▁raises	-6464
▁weight	-6465
▁closing	-6466
▁medicinal	-6467
▁regularly	-6468
text	-6469
▁rescue	-6470
aceutical	-6471
emen	-6472
▁keen	-6473
forest	-6474
▁retire	-6475
▁intoler	-6476
▁refused	-6477
▁promotes	-6478
▁transform	-6479
▁incorporated	-6480
NR	-6481
2010	-6482
▁Mer	-6483
arded	-6484
▁Decl	-6485
▁mort	-6486
▁pact	-6487
▁Ferre	-6488
▁parallel	-6489
▁profound	-6490
▁participating	-6491
fur	-6492
umn	-6493
▁Har	-6494
olved	-6495
▁crops	-6496
▁stages	-6497
▁Clearly	-6498
▁Equality	-6499
▁tolerance	-6500
isp	-6501
alse	-6502
▁notice	-6503
▁spring	-6504
▁timber	-6505
▁judgment	-6506
▁disparities	-6507
▁orientation	-6508
▁potentially	-6509
arked	-6510
▁ener	-6511
▁Guant	-6512
▁judge	-6513
▁corner	-6514
▁player	-6515
▁basically	-6516
▁approaches	-6517
▁suggestion	-6518
▁Int	-6519
▁fat	-6520
▁mun	-6521
▁Comp	-6522
▁Business	-6523
che	-6524
osing	-6525
▁died	-6526
▁cooper	-6527
▁category	-6528
▁division	-6529
▁listening	-6530
▁punishment	-6531
off	-6532
2007	-6533
▁Spe	-6534
▁fif	-6535
▁bond	-6536
▁seat	-6537
▁hypoc	-6538
▁impet	-6539
▁night	-6540
▁smart	-6541
▁visible	-6542
30	-6543
▁impetus	-6544
▁exchanges	-6545
▁horizontal	-6546
▁travelling	-6547
▁appointment	-6548
DF	-6549
abu	-6550
▁hyd	-6551
▁syn	-6552
ophob	-6553
requis	-6554
▁2011,	-6555
▁floods	-6556
▁fragment	-6557
regulation	-6558
▁functions	-6559
▁Concern	-6560
▁adapted	-6561
▁answered	-6562
▁preventive	-6563
▁resistance	-6564
9,	-6565
LAF	-6566
gans	-6567
▁finger	-6568
▁organs	-6569
▁defining	-6570
▁hospital	-6571
▁envisaged	-6572
▁categories	-6573
itzer	-6574
▁wors	-6575
▁friend	-6576
▁divided	-6577
▁immunity	-6578
▁spectrum	-6579
▁adequately	-6580
ior	-6581
dden	-6582
ioned	-6583
phere	-6584
abucco	-6585
▁looks	-6586
▁interf	-6587
▁stimul	-6588
▁unjust	-6589
▁tribute	-6590
itzerland	-6591
4,	-6592
▁nar	-6593
▁sen	-6594
being	-6595
▁recyc	-6596
▁looked	-6597
▁sports	-6598
▁strive	-6599
▁Southern	-6600
▁disabilities	-6601
▁Taj	-6602
othing	-6603
▁insec	-6604
▁attend	-6605
▁funded	-6606
▁worthy	-6607
friendly	-6608
amentally	-6609
▁controlled	-6610
oles	-6611
stan	-6612
▁spl	-6613
▁OSCE	-6614
▁Above	-6615
▁conce	-6616
▁solved	-6617
iological	-6618
▁contrast	-6619
▁convince	-6620
gu	-6621
oad	-6622
▁enthus	-6623
▁privat	-6624
▁Olympic	-6625
ationally	-6626
▁Criminal	-6627
▁liability	-6628
▁Declaration	-6629
▁statistical	-6630
▁presidential	-6631
gs	-6632
med	-6633
▁UEN	-6634
▁bra	-6635
known	-6636
▁banned	-6637
emocratic	-6638
▁strictly	-6639
▁criminals	-6640
▁prerequis	-6641
▁redundancies	-6642
▁pharmaceutical	-6643
time	-6644
▁Inc	-6645
▁Tai	-6646
▁rac	-6647
apers	-6648
ounce	-6649
▁cere	-6650
▁warmly	-6651
▁Nabucco	-6652
▁gradual	-6653
financing	-6654
▁Dr	-6655
igned	-6656
▁liked	-6657
▁engine	-6658
▁refuse	-6659
▁observe	-6660
▁avoiding	-6661
▁features	-6662
▁exclusive	-6663
▁infrastructures	-6664
xic	-6665
view	-6666
▁placing	-6667
▁programming	-6668
2,	-6669
gments	-6670
▁fails	-6671
▁Taiwan	-6672
▁detain	-6673
▁flights	-6674
▁shortly	-6675
▁variety	-6676
▁Institute	-6677
▁Switzerland	-6678
▁conservation	-6679
▁CF	-6680
▁Area	-6681
▁drop	-6682
▁irre	-6683
others	-6684
▁dream	-6685
▁invited	-6686
▁discipline	-6687
▁experiences	-6688
▁subsequently	-6689
▁considerations	-6690
mer	-6691
▁El	-6692
imer	-6693
▁Lux	-6694
▁label	-6695
▁Barrot	-6696
▁attain	-6697
▁outlined	-6698
▁containing	-6699
▁pays	-6700
▁bench	-6701
▁fresh	-6702
▁ideal	-6703
▁absurd	-6704
atellite	-6705
▁renewed	-6706
▁messages	-6707
▁draftsman	-6708
▁researchers	-6709
law	-6710
yan	-6711
namo	-6712
▁adult	-6713
▁decade	-6714
▁resett	-6715
▁helpful	-6716
▁mobilise	-6717
▁yourself	-6718
▁conviction	-6719
▁engagement	-6720
▁simplifying	-6721
▁nav	-6722
exist	-6723
stream	-6724
▁milit	-6725
▁newsp	-6726
▁initiated	-6727
▁monitored	-6728
▁everywhere	-6729
▁occupation	-6730
▁recognising	-6731
▁jurisdiction	-6732
asc	-6733
▁nom	-6734
▁warn	-6735
▁Balkan	-6736
▁lesson	-6737
▁sudden	-6738
▁sentence	-6739
▁harmonise	-6740
▁movements	-6741
▁compatible	-6742
▁foodstuffs	-6743
ero	-6744
rew	-6745
▁learned	-6746
▁section	-6747
▁reserves	-6748
▁exemption	-6749
ew	-6750
▁5.	-6751
esides	-6752
▁Luxem	-6753
▁faster	-6754
▁pursued	-6755
▁resumed	-6756
▁platform	-6757
▁interconn	-6758
▁Concerning	-6759
▁interference	-6760
▁Sup	-6761
▁fil	-6762
▁scar	-6763
▁false	-6764
▁volume	-6765
▁dismant	-6766
ommission	-6767
▁Director	-6768
▁acceptance	-6769
IF	-6770
ossil	-6771
tering	-6772
▁2013.	-6773
▁chapter	-6774
▁entities	-6775
▁globally	-6776
▁Ukrainian	-6777
▁permitted	-6778
▁subjected	-6779
8,	-6780
▁era	-6781
▁Conf	-6782
▁White	-6783
▁assert	-6784
▁publish	-6785
▁exceptions	-6786
aut	-6787
▁EF	-6788
rust	-6789
ercos	-6790
▁earm	-6791
▁Malta	-6792
▁badly	-6793
▁fleet	-6794
▁autumn	-6795
▁pretext	-6796
▁bankrupt	-6797
▁household	-6798
▁regulating	-6799
▁fate	-6800
ooking	-6801
▁fourth	-6802
▁gained	-6803
▁smooth	-6804
▁billions	-6805
▁corporate	-6806
▁explained	-6807
▁surrounding	-6808
urg	-6809
▁mach	-6810
▁shipy	-6811
ercosur	-6812
▁Certain	-6813
▁focuses	-6814
▁illustr	-6815
▁visited	-6816
▁accurate	-6817
▁irrespon	-6818
▁stresses	-6819
▁comparable	-6820
▁inequality	-6821
▁elimination	-6822
ula	-6823
heart	-6824
▁lawy	-6825
▁moved	-6826
▁grants	-6827
▁enshrined	-6828
▁consolidate	-6829
▁bul	-6830
▁brutal	-6831
▁breaches	-6832
▁imperial	-6833
▁realised	-6834
▁destroyed	-6835
▁timetable	-6836
▁accordingly	-6837
ID	-6838
let	-6839
orne	-6840
quir	-6841
ublin	-6842
▁brid	-6843
rorism	-6844
▁middle	-6845
▁Luxembourg	-6846
▁retirement	-6847
▁fundamentally	-6848
pone	-6849
▁wise	-6850
▁blind	-6851
▁minors	-6852
▁postpone	-6853
▁disastrous	-6854
▁mal	-6855
▁sex	-6856
▁vit	-6857
▁acted	-6858
▁parad	-6859
▁apolog	-6860
▁slightly	-6861
▁preparations	-6862
mstr	-6863
tini	-6864
▁Gender	-6865
▁arrive	-6866
▁disreg	-6867
▁Process	-6868
▁Somalia	-6869
▁Working	-6870
▁registr	-6871
▁tackled	-6872
▁innocent	-6873
▁pursuing	-6874
▁desirable	-6875
uk	-6876
▁Who	-6877
liers	-6878
▁Mich	-6879
▁soft	-6880
iciary	-6881
▁foster	-6882
▁analyse	-6883
▁exploit	-6884
respective	-6885
▁suppliers	-6886
▁indication	-6887
6,	-6888
LO	-6889
celona	-6890
▁meets	-6891
▁fossil	-6892
▁precond	-6893
▁abortion	-6894
▁disappear	-6895
▁acknowledged	-6896
▁irregularities	-6897
mann	-6898
▁seas	-6899
▁Guine	-6900
▁outset	-6901
▁preced	-6902
▁dangers	-6903
▁stopped	-6904
▁usually	-6905
▁scientists	-6906
ato	-6907
eter	-6908
ibly	-6909
nier	-6910
elled	-6911
▁Among	-6912
▁clauses	-6913
▁tonight	-6914
▁coordinating	-6915
▁Gar	-6916
▁Sah	-6917
▁diagn	-6918
▁ended	-6919
carious	-6920
▁convey	-6921
▁priorit	-6922
▁Chairman	-6923
▁marginal	-6924
▁withdrawal	-6925
▁Den	-6926
ashing	-6927
▁heads	-6928
▁interm	-6929
▁mothers	-6930
▁presents	-6931
▁replaced	-6932
▁component	-6933
cho	-6934
rect	-6935
sset	-6936
▁Gulf	-6937
▁capt	-6938
▁2020,	-6939
▁train	-6940
lements	-6941
▁obtaining	-6942
▁availability	-6943
bre	-6944
enez	-6945
▁argue	-6946
▁Dublin	-6947
▁Monday	-6948
▁waiver	-6949
▁Barnier	-6950
▁reinforcing	-6951
▁congratulating	-6952
rov	-6953
ijing	-6954
▁OLAF	-6955
ivered	-6956
▁Finland	-6957
▁Malmstr	-6958
▁volat	-6959
▁arbitr	-6960
▁nobody	-6961
▁judiciary	-6962
▁unanimous	-6963
▁misleading	-6964
▁responding	-6965
▁Rel	-6966
▁acad	-6967
▁pret	-6968
▁uses	-6969
itably	-6970
▁Hence	-6971
▁atmos	-6972
▁story	-6973
▁havens	-6974
▁Beijing	-6975
▁devoted	-6976
▁findings	-6977
▁activists	-6978
▁delivered	-6979
▁pragmatic	-6980
▁atmosphere	-6981
▁restrictive	-6982
▁conciliation	-6983
▁Dar	-6984
antly	-6985
▁desp	-6986
ussions	-6987
▁resort	-6988
▁avoided	-6989
▁solving	-6990
▁assessed	-6991
▁executive	-6992
▁rejection	-6993
▁constituency	-6994
▁demonstration	-6995
▁internationally	-6996
DC	-6997
ls	-6998
whel	-6999
▁cha	-7000
▁esc	-7001
▁kil	-7002
▁Venez	-7003
▁emerge	-7004
▁College	-7005
▁postpon	-7006
▁removal	-7007
▁Citizens	-7008
▁assurance	-7009
▁endeavour	-7010
▁concessions	-7011
▁nonetheless	-7012
▁associations	-7013
▁professionals	-7014
vy	-7015
▁80	-7016
ompl	-7017
urit	-7018
ressed	-7019
▁Venezuel	-7020
▁offences	-7021
▁overwhel	-7022
▁assessing	-7023
▁estimates	-7024
▁alternatives	-7025
▁Po	-7026
▁foods	-7027
▁input	-7028
▁agrees	-7029
▁donors	-7030
▁multip	-7031
▁Similar	-7032
▁distingu	-7033
▁eurozone	-7034
▁reaffirm	-7035
▁Barcelona	-7036
▁reflection	-7037
▁stabilisation	-7038
▁dele	-7039
▁game	-7040
▁wake	-7041
▁depos	-7042
▁Martin	-7043
▁incomes	-7044
▁monopol	-7045
▁limiting	-7046
▁rigorous	-7047
▁initially	-7048
▁transplant	-7049
▁reciprocity	-7050
▁die	-7051
under	-7052
▁audit	-7053
▁north	-7054
▁toxic	-7055
▁veget	-7056
▁accompl	-7057
▁founded	-7058
▁Approval	-7059
▁Mercosur	-7060
▁pluralism	-7061
▁inspections	-7062
state	-7063
▁feas	-7064
▁onto	-7065
▁Prize	-7066
▁Thanks	-7067
▁excuse	-7068
▁modified	-7069
▁chemicals	-7070
▁encourages	-7071
how	-7072
▁earn	-7073
▁empt	-7074
▁cycle	-7075
▁domin	-7076
▁frame	-7077
cultural	-7078
▁diverse	-7079
▁damaging	-7080
▁handling	-7081
▁meantime	-7082
▁detriment	-7083
▁recycling	-7084
forestation	-7085
▁automotive	-7086
▁dependency	-7087
▁transaction	-7088
jan	-7089
mas	-7090
rown	-7091
▁Net	-7092
rogen	-7093
▁alle	-7094
▁grat	-7095
▁sales	-7096
agement	-7097
▁marked	-7098
oliberal	-7099
ustainable	-7100
▁residents	-7101
ooks	-7102
oper	-7103
▁60%	-7104
▁Code	-7105
▁camps	-7106
▁shift	-7107
▁socially	-7108
▁precarious	-7109
▁productivity	-7110
mon	-7111
▁Lam	-7112
ocide	-7113
▁Could	-7114
unately	-7115
▁fought	-7116
▁accused	-7117
▁pillars	-7118
▁invested	-7119
▁Bulgarian	-7120
▁criticised	-7121
DEM	-7122
▁faces	-7123
▁unres	-7124
▁Denmark	-7125
▁feature	-7126
▁unified	-7127
▁judgments	-7128
CO	-7129
eneva	-7130
opoly	-7131
▁pose	-7132
▁zero	-7133
ferent	-7134
▁aiming	-7135
▁retail	-7136
▁enhancing	-7137
EAS	-7138
▁vary	-7139
carbon	-7140
▁Compet	-7141
▁shipping	-7142
▁consolidated	-7143
▁diversification	-7144
▁proportionality	-7145
puy	-7146
▁11.	-7147
▁fit	-7148
▁depl	-7149
▁Rompuy	-7150
▁smoking	-7151
▁Belarusian	-7152
▁reinforced	-7153
▁La	-7154
▁sums	-7155
▁narrow	-7156
▁struck	-7157
▁Morocco	-7158
▁energies	-7159
▁mountain	-7160
▁addresses	-7161
▁generated	-7162
▁eventually	-7163
▁neoliberal	-7164
▁aspirations	-7165
uber	-7166
▁Dav	-7167
▁PNR	-7168
▁fears	-7169
▁celebr	-7170
▁arrested	-7171
▁everyday	-7172
▁soldiers	-7173
▁Naturally	-7174
▁constraint	-7175
▁participants	-7176
▁counterfeiting	-7177
▁IND	-7178
rical	-7179
▁Sever	-7180
▁stick	-7181
▁twice	-7182
▁Seventh	-7183
▁investigate	-7184
▁consequently	-7185
▁relationships	-7186
7-0	-7187
ork	-7188
▁gir	-7189
▁squ	-7190
ariat	-7191
erbai	-7192
▁maybe	-7193
▁seats	-7194
▁Change	-7195
egration	-7196
reaching	-7197
▁desired	-7198
▁essence	-7199
▁inhuman	-7200
▁obstacle	-7201
▁indicates	-7202
▁lobbyists	-7203
▁traceability	-7204
add	-7205
▁Dep	-7206
icter	-7207
▁dear	-7208
iminary	-7209
▁fallen	-7210
▁openly	-7211
▁telling	-7212
▁volunte	-7213
▁purchase	-7214
▁shortage	-7215
▁observers	-7216
▁satellite	-7217
▁thoroughly	-7218
▁concentration	-7219
▁70%	-7220
▁Pat	-7221
▁vigil	-7222
▁Instru	-7223
▁bottom	-7224
appropri	-7225
▁Support	-7226
▁heavily	-7227
▁sectoral	-7228
▁explicitly	-7229
▁democratisation	-7230
US	-7231
▁Lank	-7232
heimer	-7233
▁Syria	-7234
▁Darfur	-7235
▁Within	-7236
▁trends	-7237
▁cultures	-7238
▁transferred	-7239
▁Palestinians	-7240
▁substantially	-7241
ipped	-7242
▁2001	-7243
▁zones	-7244
zheimer	-7245
▁Geneva	-7246
▁northern	-7247
▁wherever	-7248
▁fulfilled	-7249
▁conscience	-7250
▁Progressive	-7251
▁examination	-7252
▁progressive	-7253
▁constituents	-7254
vo	-7255
ros	-7256
▁Sri	-7257
ounded	-7258
▁Armen	-7259
▁Leban	-7260
▁exert	-7261
▁Guinea	-7262
▁laying	-7263
▁Azerbai	-7264
▁redress	-7265
▁pressing	-7266
beit	-7267
▁dup	-7268
▁Decision	-7269
▁Alzheimer	-7270
▁Democracy	-7271
▁appointed	-7272
▁broadband	-7273
▁recommended	-7274
kh	-7275
▁hes	-7276
▁sale	-7277
ushing	-7278
▁prejud	-7279
▁reverse	-7280
▁transmission	-7281
▁justification	-7282
turn	-7283
ulous	-7284
▁stem	-7285
▁Kyoto	-7286
▁posed	-7287
▁safer	-7288
▁piracy	-7289
▁establishes	-7290
▁disadvantage	-7291
7,	-7292
IP	-7293
iov	-7294
▁ali	-7295
redit	-7296
ulates	-7297
▁empty	-7298
▁towns	-7299
▁quarter	-7300
▁securing	-7301
▁stricter	-7302
▁wholeheart	-7303
▁incorporate	-7304
▁0	-7305
roup	-7306
▁hot	-7307
▁Canc	-7308
▁enabled	-7309
▁streets	-7310
▁diplomacy	-7311
▁examining	-7312
▁exploited	-7313
▁witnessed	-7314
▁authorised	-7315
▁decommission	-7316
▁Eff	-7317
▁reimb	-7318
▁Current	-7319
▁channels	-7320
▁survival	-7321
▁Palestine	-7322
▁precedent	-7323
▁registered	-7324
call	-7325
stry	-7326
roots	-7327
▁upgra	-7328
▁fragile	-7329
▁morator	-7330
▁incidents	-7331
▁Amendments	-7332
▁complexity	-7333
▁concluding	-7334
▁corresponding	-7335
-1	-7336
▁CE	-7337
urch	-7338
ongue	-7339
▁born	-7340
▁guard	-7341
▁holid	-7342
▁albeit	-7343
▁poorer	-7344
▁serves	-7345
▁offices	-7346
▁confront	-7347
liferation	-7348
▁criticise	-7349
▁socialist	-7350
▁moratorium	-7351
▁eliminating	-7352
▁democratically	-7353
empl	-7354
▁Ter	-7355
anged	-7356
▁kill	-7357
▁Until	-7358
▁absor	-7359
▁accus	-7360
▁Muslim	-7361
▁initiate	-7362
▁petition	-7363
▁suggests	-7364
▁workforce	-7365
▁enterprise	-7366
▁overwhelming	-7367
▁registration	-7368
▁interventions	-7369
3,	-7370
dep	-7371
het	-7372
isc	-7373
▁6.	-7374
stic	-7375
▁12.	-7376
▁dupl	-7377
▁2012.	-7378
▁Great	-7379
▁match	-7380
▁prime	-7381
▁emerged	-7382
▁infringements	-7383
abe	-7384
ano	-7385
son	-7386
itle	-7387
▁400	-7388
▁root	-7389
▁2005,	-7390
▁donor	-7391
▁career	-7392
▁reperc	-7393
▁carriers	-7394
▁copyright	-7395
▁liquidity	-7396
▁references	-7397
▁certification	-7398
▁systematically	-7399
zen	-7400
ship	-7401
sych	-7402
▁Made	-7403
soever	-7404
▁mitig	-7405
▁pregn	-7406
▁denied	-7407
▁genocide	-7408
▁pursuant	-7409
▁globalised	-7410
▁publication	-7411
▁continuation	-7412
▁repercussions	-7413
hand	-7414
▁2014	-7415
▁Bali	-7416
▁Camp	-7417
legisl	-7418
lihood	-7419
▁liter	-7420
▁sympathy	-7421
▁consulted	-7422
▁apparently	-7423
▁whatsoever	-7424
▁capabilities	-7425
▁identification	-7426
amed	-7427
ugen	-7428
▁25%	-7429
▁dual	-7430
▁prel	-7431
▁logic	-7432
iciency	-7433
idencies	-7434
▁capacities	-7435
▁continuous	-7436
AN	-7437
arsh	-7438
▁pick	-7439
▁distance	-7440
▁forestry	-7441
▁remained	-7442
▁concludes	-7443
seen	-7444
▁Luk	-7445
▁cast	-7446
▁gaps	-7447
▁hoped	-7448
▁located	-7449
▁collected	-7450
▁requiring	-7451
▁transfers	-7452
▁preliminary	-7453
▁irrespective	-7454
CC	-7455
ima	-7456
icip	-7457
▁Mult	-7458
ughter	-7459
▁psych	-7460
▁learnt	-7461
▁fishery	-7462
▁silence	-7463
▁delivery	-7464
▁isolation	-7465
▁distinction	-7466
IV	-7467
ey	-7468
▁Leh	-7469
ommod	-7470
▁trig	-7471
▁embar	-7472
▁Voting	-7473
▁issuing	-7474
▁victory	-7475
mentioned	-7476
board	-7477
▁shar	-7478
▁fixed	-7479
▁protests	-7480
▁recorded	-7481
7%	-7482
tar	-7483
▁hour	-7484
orient	-7485
▁faire	-7486
▁article	-7487
▁install	-7488
▁western	-7489
▁personnel	-7490
▁attempting	-7491
▁university	-7492
GA	-7493
▁Far	-7494
▁Mug	-7495
aming	-7496
utors	-7497
▁halt	-7498
▁2006.	-7499
▁refugee	-7500
▁accommod	-7501
▁Technology	-7502
▁civilisation	-7503
Med	-7504
emb	-7505
▁Mos	-7506
▁phil	-7507
▁borne	-7508
▁minor	-7509
▁sight	-7510
ophobia	-7511
▁indisp	-7512
▁mental	-7513
▁Madeira	-7514
▁ethical	-7515
▁Conservatives	-7516
▁sem	-7517
▁Comb	-7518
▁Rehn	-7519
▁Games	-7520
▁guide	-7521
▁Mugabe	-7522
▁workplace	-7523
▁preservation	-7524
▁irresponsible	-7525
▁Law	-7526
▁Sal	-7527
▁race	-7528
▁accel	-7529
▁Lukash	-7530
▁banana	-7531
▁equity	-7532
▁backing	-7533
▁integral	-7534
▁stimulus	-7535
▁weaknesses	-7536
▁accountable	-7537
▁combination	-7538
▁-.	-7539
▁Fl	-7540
atch	-7541
▁disse	-7542
develop	-7543
▁federal	-7544
▁Federation	-7545
▁unilateral	-7546
▁Functioning	-7547
▁detrimental	-7548
▁ideological	-7549
▁prerequisite	-7550
Af	-7551
ho	-7552
▁reb	-7553
enous	-7554
itect	-7555
owski	-7556
▁debts	-7557
▁sheep	-7558
pection	-7559
▁symbols	-7560
▁deciding	-7561
▁monopoly	-7562
▁symbolic	-7563
▁Similarly	-7564
▁wonderful	-7565
▁adjustment	-7566
communications	-7567
ario	-7568
▁90%	-7569
overed	-7570
▁confron	-7571
▁creativity	-7572
▁inspection	-7573
▁ties	-7574
▁Verhe	-7575
▁modes	-7576
▁popul	-7577
▁website	-7578
▁adapting	-7579
▁defended	-7580
▁mutually	-7581
▁publicly	-7582
▁architect	-7583
▁principal	-7584
▁Lukashenko	-7585
▁identifying	-7586
▁threatening	-7587
▁translation	-7588
asp	-7589
▁7.	-7590
haust	-7591
▁deem	-7592
▁wall	-7593
reasing	-7594
▁disturb	-7595
▁assembly	-7596
▁railways	-7597
▁tensions	-7598
▁Verheugen	-7599
▁accepting	-7600
▁dedicated	-7601
▁Azerbaijan	-7602
▁practically	-7603
ocal	-7604
▁wave	-7605
▁asset	-7606
▁grave	-7607
ensable	-7608
icating	-7609
assroots	-7610
▁location	-7611
▁inappropri	-7612
▁composition	-7613
▁distributed	-7614
IA	-7615
MO	-7616
long	-7617
arters	-7618
▁Child	-7619
▁Paris	-7620
▁hedge	-7621
▁stead	-7622
▁survive	-7623
▁advances	-7624
▁reviewed	-7625
▁customers	-7626
fire	-7627
lers	-7628
▁Def	-7629
▁Sak	-7630
▁aqu	-7631
▁mig	-7632
pical	-7633
▁pace	-7634
uments	-7635
▁gases	-7636
▁lists	-7637
▁oppon	-7638
▁syner	-7639
▁buying	-7640
▁entails	-7641
▁Everyone	-7642
▁Instrument	-7643
▁allowances	-7644
▁suspension	-7645
▁counterfeit	-7646
mes	-7647
▁9.	-7648
urse	-7649
ization	-7650
▁philos	-7651
▁footing	-7652
▁vitally	-7653
▁returned	-7654
▁paramount	-7655
ministration	-7656
▁problematic	-7657
Mediterranean	-7658
▁characterised	-7659
mar	-7660
aving	-7661
▁emot	-7662
▁Apart	-7663
▁ceiling	-7664
▁logical	-7665
▁ratings	-7666
▁managers	-7667
▁reproductive	-7668
▁demonstrations	-7669
cow	-7670
ibb	-7671
ils	-7672
eded	-7673
▁His	-7674
▁Nig	-7675
idden	-7676
▁bill	-7677
uesday	-7678
▁coach	-7679
▁preca	-7680
▁disgra	-7681
▁fairer	-7682
emporary	-7683
▁decrease	-7684
▁Christmas	-7685
▁definitive	-7686
▁disability	-7687
▁indispensable	-7688
2.	-7689
iant	-7690
Afric	-7691
asmus	-7692
group	-7693
Russia	-7694
mitting	-7695
▁Reding	-7696
▁season	-7697
▁journey	-7698
▁stating	-7699
▁anywhere	-7700
▁pointing	-7701
▁severely	-7702
▁teachers	-7703
▁intermedi	-7704
▁excellence	-7705
▁volatility	-7706
▁constraints	-7707
▁preferences	-7708
▁transnational	-7709
uled	-7710
▁Board	-7711
▁fault	-7712
▁remit	-7713
▁surpl	-7714
▁repeal	-7715
▁interoper	-7716
▁deforestation	-7717
EA	-7718
▁5%	-7719
iest	-7720
depth	-7721
ureau	-7722
▁mostly	-7723
cription	-7724
▁exhaust	-7725
▁politic	-7726
▁swiftly	-7727
▁tariffs	-7728
▁removing	-7729
▁deadlines	-7730
▁prud	-7731
▁units	-7732
▁remedy	-7733
establish	-7734
▁confusion	-7735
▁earmarked	-7736
▁Communication	-7737
In	-7738
celer	-7739
ivate	-7740
▁fines	-7741
▁impart	-7742
▁update	-7743
▁Network	-7744
▁knowing	-7745
▁Fourthly	-7746
▁governed	-7747
▁abandoned	-7748
▁expecting	-7749
▁extremism	-7750
▁resettlement	-7751
TS	-7752
akh	-7753
▁Bu	-7754
▁ends	-7755
ashion	-7756
▁throw	-7757
▁airline	-7758
▁automatic	-7759
▁trialogue	-7760
▁completion	-7761
(2)	-7762
▁Fort	-7763
▁Pack	-7764
ietnam	-7765
▁manif	-7766
▁scept	-7767
culosis	-7768
ilingual	-7769
▁worried	-7770
▁confirms	-7771
▁disgrace	-7772
▁belonging	-7773
▁responded	-7774
uberculosis	-7775
▁capitalist	-7776
▁wholeheartedly	-7777
▁Aust	-7778
ibbean	-7779
▁depth	-7780
▁Moscow	-7781
▁leaves	-7782
▁praise	-7783
▁reserve	-7784
▁Progress	-7785
▁sections	-7786
▁synergies	-7787
▁organising	-7788
▁renewables	-7789
made	-7790
rage	-7791
▁Cam	-7792
ouses	-7793
▁lingu	-7794
▁Eurost	-7795
▁lowest	-7796
▁notion	-7797
▁Tibetan	-7798
▁acceler	-7799
▁authors	-7800
▁refusal	-7801
▁selling	-7802
▁scenario	-7803
▁ultimate	-7804
▁electrical	-7805
▁underlined	-7806
▁innovations	-7807
▁radioactive	-7808
▁industrialised	-7809
IDS	-7810
gue	-7811
▁EN	-7812
▁Found	-7813
▁cance	-7814
ography	-7815
▁revise	-7816
▁arrived	-7817
▁assured	-7818
▁testing	-7819
▁paragraphs	-7820
▁purchasing	-7821
▁facilitation	-7822
▁macroeconomic	-7823
kel	-7824
lig	-7825
isch	-7826
with	-7827
▁Dal	-7828
▁shop	-7829
dition	-7830
▁corrid	-7831
▁incred	-7832
▁warrant	-7833
▁frequent	-7834
col	-7835
ett	-7836
▁Round	-7837
▁compr	-7838
▁poses	-7839
▁Whilst	-7840
▁caught	-7841
▁threaten	-7842
▁defenders	-7843
▁differently	-7844
▁substantive	-7845
▁announcement	-7846
▁condemnation	-7847
yn	-7848
▁sep	-7849
▁Corre	-7850
▁celeb	-7851
▁yield	-7852
▁voices	-7853
▁unequiv	-7854
▁Japanese	-7855
▁isolated	-7856
▁producer	-7857
▁appalling	-7858
▁insecurity	-7859
▁Sk	-7860
ball	-7861
▁mus	-7862
erion	-7863
oning	-7864
▁fals	-7865
▁Person	-7866
▁adding	-7867
▁delayed	-7868
▁reminded	-7869
▁decentral	-7870
▁petitions	-7871
▁inevitably	-7872
▁separation	-7873
▁underlines	-7874
mail	-7875
▁San	-7876
▁flu	-7877
harov	-7878
▁roll	-7879
▁2004,	-7880
ialogues	-7881
▁abolish	-7882
▁evasion	-7883
▁salaries	-7884
▁Caribbean	-7885
▁criterion	-7886
▁preferred	-7887
▁introduces	-7888
▁inappropriate	-7889
▁Equ	-7890
▁insp	-7891
▁scan	-7892
icious	-7893
▁colon	-7894
icurity	-7895
keeping	-7896
▁Bureau	-7897
▁Stream	-7898
▁propag	-7899
▁Pacific	-7900
▁Workers	-7901
▁Sakharov	-7902
▁advocates	-7903
▁financially	-7904
eds	-7905
rier	-7906
▁McC	-7907
bonds	-7908
cient	-7909
▁trip	-7910
ultane	-7911
osexual	-7912
▁kilomet	-7913
▁enforced	-7914
▁surprise	-7915
▁inconsist	-7916
abilisation	-7917
▁indirectly	-7918
3%	-7919
6%	-7920
▁allevi	-7921
▁proves	-7922
▁racism	-7923
▁reluct	-7924
▁Burmese	-7925
▁misunder	-7926
▁components	-7927
▁	-7928
e	-7929
t	-7930
o	-7931
i	-7932
a	-7933
n	-7934
s	-7935
r	-7936
h	-7937
l	-7938
d	-7939
c	-7940
u	-7941
m	-7942
p	-7943
f	-7944
g	-7945
w	-7946
y	-7947
b	-7948
v	-7949
,	-7950
.	-7951
k	-7952
I	-7953
E	-7954
T	-7955
C	-7956
M	-7957
P	-7958
-	-7959
S	-7960
x	-7961
U	-7962
A	-7963
0	-7964
'	-7965
j	-7966
W	-7967
q	-7968
2	-7969
F	-7970
R	-7971
(	-7972
)	-7973
1	-7974
G	-7975
B	-7976
H	-7977
L	-7978
D	-7979
z	-7980
O	-7981
N	-7982
:	-7983
9	-7984
?	-7985
5	-7986
3	-7987
;	-7988
7	-7989
8	-7990
4	-7991
J	-7992
K	-7993
%	-7994
V	-7995
6	-7996
