<pad>	0
</s>	0
<unk>	0
▁t	-0
he	-1
▁a	-2
in	-3
▁the	-4
▁o	-5
re	-6
er	-7
▁s	-8
nd	-9
▁w	-10
on	-11
at	-12
is	-13
en	-14
▁of	-15
it	-16
▁c	-17
▁b	-18
or	-19
es	-20
▁f	-21
ed	-22
▁p	-23
ou	-24
an	-25
al	-26
ar	-27
▁in	-28
▁and	-29
ing	-30
▁to	-31
▁m	-32
▁d	-33
ion	-34
▁h	-35
ic	-36
as	-37
le	-38
▁th	-39
om	-40
ent	-41
ll	-42
▁T	-43
▁n	-44
▁A	-45
▁be	-46
▁e	-47
ve	-48
▁I	-49
▁is	-50
▁re	-51
ct	-52
▁S	-53
▁l	-54
ro	-55
st	-56
▁y	-57
ut	-58
▁g	-59
id	-60
ot	-61
se	-62
ur	-63
▁for	-64
ation	-65
▁wh	-66
im	-67
ce	-68
ay	-69
ly	-70
▁you	-71
ver	-72
▁u	-73
ad	-74
▁The	-75
ow	-76
▁on	-77
am	-78
▁C	-79
▁P	-80
il	-81
et	-82
▁-	-83
▁M	-84
ir	-85
▁H	-86
▁that	-87
ig	-88
ch	-89
ment	-90
▁he	-91
▁as	-92
ith	-93
ra	-94
▁B	-95
ol	-96
▁(	-97
▁it	-98
ill	-99
▁an	-100
▁or	-101
▁W	-102
if	-103
▁with	-104
ul	-105
od	-106
▁not	-107
ess	-108
▁are	-109
ter	-110
ri	-111
ge	-112
▁st	-113
▁de	-114
▁ha	-115
her	-116
▁G	-117
▁D	-118
▁we	-119
▁pro	-120
▁se	-121
▁R	-122
▁con	-123
ld	-124
res	-125
ate	-126
rom	-127
▁su	-128
ab	-129
op	-130
ers	-131
▁'	-132
nt	-133
▁L	-134
ak	-135
▁by	-136
▁com	-137
ist	-138
ain	-139
th	-140
▁sh	-141
pe	-142
▁1	-143
▁N	-144
▁ex	-145
est	-146
▁have	-147
iv	-148
▁was	-149
ity	-150
▁from	-151
ht	-152
▁them	-153
▁will	-154
▁O	-155
us	-156
all	-157
and	-158
ie	-159
▁who	-160
▁this	-161
▁they	-162
em	-163
ich	-164
▁v	-165
ac	-166
▁F	-167
▁E	-168
ant	-169
ive	-170
um	-171
ah	-172
os	-173
qu	-174
▁r	-175
ore	-176
▁which	-177
▁He	-178
▁Ind	-179
▁at	-180
▁has	-181
▁k	-182
ies	-183
pp	-184
red	-185
el	-186
ction	-187
art	-188
ort	-189
our	-190
ard	-191
▁ne	-192
▁their	-193
un	-194
▁al	-195
▁his	-196
ia	-197
ould	-198
▁All	-199
ure	-200
▁all	-201
▁2	-202
ord	-203
oc	-204
▁K	-205
pt	-206
▁le	-207
ind	-208
ong	-209
ight	-210
te	-211
▁ch	-212
▁do	-213
▁whe	-214
ust	-215
ose	-216
ous	-217
ther	-218
▁In	-219
ag	-220
age	-221
ud	-222
ated	-223
▁U	-224
▁your	-225
ial	-226
ome	-227
▁We	-228
▁pl	-229
ount	-230
▁wor	-231
▁Allah	-232
▁Th	-233
▁tr	-234
av	-235
▁me	-236
cc	-237
ip	-238
▁And	-239
▁go	-240
rou	-241
▁dis	-242
ost	-243
ance	-244
ide	-245
ect	-246
▁us	-247
▁sa	-248
ok	-249
▁pe	-250
ear	-251
ff	-252
▁ab	-253
▁man	-254
ry	-255
ans	-256
▁India	-257
▁un	-258
ame	-259
▁but	-260
▁can	-261
▁one	-262
▁comp	-263
ice	-264
able	-265
▁there	-266
▁J	-267
▁so	-268
▁him	-269
▁en	-270
ast	-271
nder	-272
▁up	-273
ary	-274
ish	-275
▁ad	-276
▁been	-277
▁any	-278
ople	-279
so	-280
▁j	-281
▁It	-282
ap	-283
▁were	-284
au	-285
ult	-286
▁im	-287
now	-288
ik	-289
▁per	-290
ub	-291
▁people	-292
one	-293
▁when	-294
gh	-295
▁"	-296
▁other	-297
ib	-298
▁V	-299
og	-300
▁ag	-301
ations	-302
ress	-303
ine	-304
ru	-305
ake	-306
iz	-307
pl	-308
ical	-309
▁out	-310
very	-311
ition	-312
▁said	-313
out	-314
per	-315
▁those	-316
▁cont	-317
▁am	-318
ail	-319
ire	-320
▁res	-321
are	-322
ings	-323
ign	-324
vers	-325
ens	-326
vel	-327
▁ar	-328
▁part	-329
▁inc	-330
▁also	-331
ue	-332
lic	-333
ime	-334
ence	-335
▁had	-336
▁/	-337
▁bel	-338
ade	-339
ath	-340
▁no	-341
ile	-342
▁what	-343
ase	-344
00	-345
ace	-346
ass	-347
orm	-348
ep	-349
ber	-350
▁its	-351
▁know	-352
▁shall	-353
▁under	-354
▁Ch	-355
urn	-356
ang	-357
▁cl	-358
▁int	-359
▁Y	-360
▁comm	-361
act	-362
▁our	-363
▁co	-364
port	-365
▁ev	-366
▁acc	-367
▁ind	-368
ution	-369
ach	-370
ook	-371
▁if	-372
reat	-373
ident	-374
▁Lord	-375
▁19	-376
ren	-377
fe	-378
ian	-379
▁may	-380
▁sp	-381
erv	-382
fore	-383
vern	-384
du	-385
▁bec	-386
▁God	-387
▁app	-388
ise	-389
rit	-390
ack	-391
ual	-392
▁This	-393
▁St	-394
ike	-395
ory	-396
▁te	-397
▁pre	-398
▁spe	-399
▁sc	-400
ious	-401
▁would	-402
ree	-403
ause	-404
▁year	-405
▁_	-406
▁tw	-407
▁then	-408
int	-409
ks	-410
▁only	-411
ric	-412
hed	-413
▁Sh	-414
▁3	-415
▁say	-416
▁sub	-417
ater	-418
▁rec	-419
▁time	-420
▁“	-421
ces	-422
ove	-423
sel	-424
▁such	-425
▁made	-426
01	-427
fter	-428
ild	-429
rib	-430
▁than	-431
ject	-432
wn	-433
▁Go	-434
▁over	-435
ful	-436
ational	-437
▁po	-438
▁prov	-439
we	-440
▁fo	-441
▁new	-442
ife	-443
form	-444
▁bet	-445
old	-446
lect	-447
iss	-448
ions	-449
▁ear	-450
▁rel	-451
▁belie	-452
ound	-453
▁like	-454
▁rem	-455
ied	-456
▁Wh	-457
▁more	-458
vernment	-459
ite	-460
uth	-461
tern	-462
▁cons	-463
aj	-464
ities	-465
ific	-466
ness	-467
▁Pro	-468
ons	-469
▁count	-470
own	-471
▁my	-472
ward	-473
▁should	-474
way	-475
▁work	-476
▁As	-477
▁act	-478
▁off	-479
ert	-480
▁qu	-481
▁day	-482
▁Se	-483
stit	-484
▁into	-485
▁about	-486
▁some	-487
▁pers	-488
▁these	-489
ark	-490
▁ass	-491
▁They	-492
▁good	-493
ved	-494
cept	-495
cy	-496
▁So	-497
▁Com	-498
ments	-499
velop	-500
▁again	-501
▁em	-502
▁fe	-503
ted	-504
▁De	-505
resident	-506
gr	-507
▁two	-508
other	-509
end	-510
row	-511
▁des	-512
▁reg	-513
oy	-514
ates	-515
hen	-516
▁life	-517
▁before	-518
ily	-519
ink	-520
▁Un	-521
▁ac	-522
▁But	-523
▁form	-524
▁”	-525
▁giv	-526
ower	-527
eng	-528
li	-529
ient	-530
▁Con	-531
▁inv	-532
ph	-533
led	-534
▁[	-535
ond	-536
▁bl	-537
rough	-538
).	-539
rent	-540
▁pr	-541
llow	-542
eth	-543
cess	-544
▁ent	-545
ob	-546
▁On	-547
▁ra	-548
▁after	-549
▁world	-550
),	-551
hi	-552
ors	-553
▁Re	-554
aw	-555
▁An	-556
▁see	-557
▁pres	-558
ft	-559
amm	-560
▁If	-561
▁ro	-562
▁sy	-563
ange	-564
▁dec	-565
▁through	-566
▁ob	-567
▁call	-568
▁right	-569
▁cre	-570
▁dif	-571
▁set	-572
▁serv	-573
ght	-574
ural	-575
▁ret	-576
▁br	-577
ple	-578
▁Pr	-579
ey	-580
▁cent	-581
▁President	-582
▁fir	-583
cial	-584
ublic	-585
ave	-586
▁Bh	-587
▁His	-588
▁used	-589
▁Is	-590
uc	-591
xt	-592
erm	-593
ever	-594
▁Act	-595
▁pol	-596
▁sec	-597
▁fl	-598
pect	-599
ting	-600
ween	-601
▁5	-602
▁sign	-603
▁between	-604
ts	-605
ood	-606
ener	-607
▁did	-608
▁her	-609
▁down	-610
▁make	-611
▁very	-612
▁where	-613
▁country	-614
▁develop	-615
ism	-616
▁Indian	-617
..	-618
its	-619
▁gu	-620
ages	-621
ased	-622
▁could	-623
▁trans	-624
arn	-625
▁op	-626
ally	-627
▁col	-628
lp	-629
ative	-630
ision	-631
▁well	-632
ced	-633
oth	-634
ves	-635
ha	-636
iew	-637
igh	-638
ull	-639
▁Government	-640
ax	-641
▁&	-642
ular	-643
▁being	-644
▁every	-645
▁great	-646
als	-647
elie	-648
▁way	-649
uring	-650
ible	-651
▁200	-652
▁You	-653
▁4	-654
eed	-655
hip	-656
▁pos	-657
▁many	-658
▁most	-659
▁follow	-660
pos	-661
▁En	-662
ility	-663
▁There	-664
mit	-665
uch	-666
▁back	-667
▁disc	-668
▁among	-669
arm	-670
▁ord	-671
▁add	-672
▁att	-673
▁she	-674
▁requ	-675
ars	-676
und	-677
olog	-678
▁person	-679
ble	-680
▁tra	-681
▁years	-682
gan	-683
les	-684
▁ed	-685
▁Min	-686
▁come	-687
▁turn	-688
any	-689
ute	-690
ures	-691
ating	-692
▁help	-693
▁upon	-694
▁Sc	-695
▁ap	-696
ents	-697
ided	-698
▁cle	-699
▁mess	-700
ank	-701
ven	-702
rong	-703
▁eff	-704
▁own	-705
▁even	-706
fer	-707
ised	-708
▁inte	-709
▁first	-710
▁against	-711
▁Ex	-712
ty	-713
ract	-714
▁<	-715
▁>	-716
▁supp	-717
ission	-718
▁Ne	-719
ited	-720
ough	-721
stem	-722
▁201	-723
▁just	-724
stitution	-725
ale	-726
ash	-727
con	-728
lud	-729
▁For	-730
round	-731
▁given	-732
▁produ	-733
▁get	-734
▁mat	-735
▁num	-736
▁hand	-737
▁need	-738
▁take	-739
▁child	-740
▁earth	-741
▁exp	-742
▁hum	-743
▁rep	-744
▁tak	-745
ather	-746
belie	-747
ern	-748
get	-749
ati	-750
▁because	-751
me	-752
of	-753
▁No	-754
ants	-755
ouse	-756
▁mem	-757
▁pass	-758
▁sent	-759
not	-760
read	-761
ving	-762
▁power	-763
ES	-764
oci	-765
▁gl	-766
ters	-767
▁Him	-768
▁how	-769
ature	-770
ished	-771
▁account	-772
oun	-773
▁Ad	-774
oint	-775
▁car	-776
▁dist	-777
ral	-778
▁To	-779
self	-780
▁end	-781
▁lit	-782
▁inst	-783
▁diffe	-784
roup	-785
▁writ	-786
formation	-787
air	-788
▁ph	-789
pend	-790
▁use	-791
▁believe	-792
rest	-793
▁pur	-794
▁gener	-795
▁another	-796
ck	-797
ya	-798
ides	-799
▁unt	-800
▁When	-801
▁does	-802
▁must	-803
tc	-804
ror	-805
▁min	-806
▁conc	-807
▁inter	-808
▁import	-809
▁Al	-810
▁bu	-811
ices	-812
▁nor	-813
▁wom	-814
▁away	-815
▁cert	-816
▁char	-817
▁place	-818
▁return	-819
ana	-820
arch	-821
ared	-822
ives	-823
chn	-824
▁Mu	-825
▁sm	-826
▁ye	-827
less	-828
▁equ	-829
▁want	-830
▁state	-831
ef	-832
▁etc	-833
▁now	-834
▁here	-835
▁long	-836
▁water	-837
▁system	-838
ee	-839
tle	-840
ital	-841
▁Our	-842
▁cur	-843
▁men	-844
iness	-845
uthor	-846
▁lead	-847
▁av	-848
▁cap	-849
▁val	-850
▁sure	-851
ctions	-852
su	-853
▁7	-854
▁8	-855
hes	-856
▁gr	-857
▁lo	-858
▁mod	-859
ified	-860
irect	-861
▁Hind	-862
▁book	-863
▁cond	-864
selves	-865
▁clear	-866
▁present	-867
...	-868
ict	-869
ered	-870
▁inf	-871
▁let	-872
▁loc	-873
▁name	-874
▁includ	-875
orn	-876
alth	-877
ired	-878
ries	-879
▁def	-880
▁open	-881
."	-882
pr	-883
day	-884
ick	-885
▁Te	-886
ains	-887
ists	-888
▁beh	-889
▁fam	-890
▁lar	-891
conom	-892
ivers	-893
wards	-894
▁give	-895
▁public	-896
EN	-897
▁Q	-898
ata	-899
▁med	-900
▁mon	-901
▁cour	-902
▁spec	-903
ug	-904
ense	-905
ript	-906
▁law	-907
▁Cent	-908
▁rece	-909
▁heart	-910
iod	-911
ont	-912
▁Am	-913
▁Day	-914
▁est	-915
▁imp	-916
ained	-917
ament	-918
lease	-919
▁comple	-920
▁number	-921
up	-922
ten	-923
▁came	-924
▁heav	-925
▁play	-926
▁fin	-927
olution	-928
har	-929
▁Do	-930
vent	-931
▁ask	-932
▁dev	-933
▁sin	-934
▁fear	-935
▁same	-936
▁called	-937
▁6	-938
lim	-939
ined	-940
lish	-941
▁vis	-942
riend	-943
▁conf	-944
▁prom	-945
▁human	-946
▁order	-947
▁partic	-948
▁0	-949
ize	-950
ody	-951
▁ke	-952
bers	-953
▁fil	-954
▁ins	-955
▁sur	-956
ister	-957
▁look	-958
▁State	-959
▁found	-960
▁truth	-961
▁OF	-962
▁ce	-963
▁Mah	-964
▁ser	-965
▁find	-966
▁land	-967
▁while	-968
▁different	-969
▁development	-970
ics	-971
ider	-972
ived	-973
▁fac	-974
▁fact	-975
▁word	-976
▁incre	-977
▁things	-978
▁process	-979
201	-980
ify	-981
ros	-982
tend	-983
ality	-984
iving	-985
ledge	-986
▁both	-987
▁list	-988
▁meet	-989
▁show	-990
▁bring	-991
ination	-992
ND	-993
tt	-994
rap	-995
here	-996
▁pri	-997
▁happ	-998
▁view	-999
▁wind	-1000
▁certain	-1001
ari	-1002
erg	-1003
ork	-1004
▁Be	-1005
ency	-1006
▁art	-1007
▁bus	-1008
aking	-1009
▁fore	-1010
▁much	-1011
▁start	-1012
▁wrong	-1013
▁period	-1014
ix	-1015
ms	-1016
man	-1017
asht	-1018
ield	-1019
imes	-1020
▁Res	-1021
▁ref	-1022
▁created	-1023
ctor	-1024
▁cor	-1025
▁ele	-1026
ology	-1027
▁mark	-1028
▁group	-1029
mission	-1030
▁author	-1031
▁during	-1032
▁except	-1033
▁disbelie	-1034
▁information	-1035
ai	-1036
oh	-1037
▁Par	-1038
▁dem	-1039
ocial	-1040
rence	-1041
▁What	-1042
▁stud	-1043
▁organ	-1044
▁econom	-1045
▁indust	-1046
▁interest	-1047
ER	-1048
ys	-1049
esh	-1050
rop	-1051
▁Rs	-1052
crib	-1053
ning	-1054
▁det	-1055
▁gra	-1056
▁mar	-1057
▁Then	-1058
▁educ	-1059
▁main	-1060
▁term	-1061
lected	-1062
▁women	-1063
▁commun	-1064
amp	-1065
▁Ar	-1066
avan	-1067
▁adv	-1068
▁pay	-1069
▁sim	-1070
ience	-1071
ually	-1072
▁Gand	-1073
▁oper	-1074
▁resp	-1075
▁thou	-1076
ov	-1077
▁9	-1078
▁fa	-1079
▁sl	-1080
ware	-1081
▁aff	-1082
▁ext	-1083
ither	-1084
stand	-1085
▁whom	-1086
▁progr	-1087
▁friend	-1088
ety	-1089
▁Pl	-1090
angu	-1091
▁Raj	-1092
▁high	-1093
▁think	-1094
▁cannot	-1095
▁section	-1096
▁National	-1097
▁‘	-1098
inal	-1099
▁occ	-1100
error	-1101
▁each	-1102
▁grow	-1103
▁become	-1104
RB	-1105
ock	-1106
▁10	-1107
▁fr	-1108
▁ty	-1109
reed	-1110
ember	-1111
▁case	-1112
▁rest	-1113
▁service	-1114
▁support	-1115
ID	-1116
the	-1117
ason	-1118
▁ver	-1119
▁Mess	-1120
▁best	-1121
▁cult	-1122
▁exam	-1123
▁estab	-1124
▁point	-1125
▁taken	-1126
▁techn	-1127
▁direct	-1128
▁towards	-1129
▁without	-1130
▁important	-1131
▁–	-1132
irc	-1133
ffic	-1134
oard	-1135
▁ben	-1136
▁ide	-1137
▁som	-1138
▁sou	-1139
ining	-1140
urity	-1141
▁Book	-1142
▁Shri	-1143
▁appe	-1144
▁conn	-1145
▁file	-1146
ething	-1147
▁small	-1148
▁stand	-1149
▁amount	-1150
▁government	-1151
lf	-1152
aid	-1153
▁Tr	-1154
ines	-1155
ized	-1156
ried	-1157
ways	-1158
▁Mus	-1159
▁New	-1160
▁Say	-1161
▁bas	-1162
▁leg	-1163
▁par	-1164
▁pun	-1165
▁put	-1166
▁four	-1167
▁less	-1168
▁activ	-1169
▁never	-1170
▁Gandhi	-1171
▁accept	-1172
▁indeed	-1173
▁message	-1174
mb	-1175
na	-1176
ins	-1177
ross	-1178
▁fold	-1179
▁prof	-1180
ration	-1181
▁allow	-1182
▁polic	-1183
▁relig	-1184
▁effect	-1185
min	-1186
▁My	-1187
ploy	-1188
rate	-1189
▁pop	-1190
▁evil	-1191
▁last	-1192
▁social	-1193
▁knowledge	-1194
:%	-1195
ls	-1196
▁18	-1197
▁ca	-1198
ians	-1199
▁tem	-1200
ically	-1201
▁avail	-1202
▁langu	-1203
▁means	-1204
▁today	-1205
▁contro	-1206
ification	-1207
IT	-1208
▁(1	-1209
▁00	-1210
▁Man	-1211
▁bro	-1212
▁dra	-1213
▁met	-1214
▁old	-1215
▁Rasht	-1216
▁known	-1217
agement	-1218
▁Bhavan	-1219
▁report	-1220
eds	-1221
ool	-1222
▁Me	-1223
line	-1224
ruct	-1225
▁den	-1226
▁opp	-1227
▁ple	-1228
▁free	-1229
lished	-1230
ulation	-1231
▁within	-1232
ird	-1233
por	-1234
▁11	-1235
▁Or	-1236
▁dr	-1237
▁che	-1238
▁forg	-1239
▁hard	-1240
▁left	-1241
rapati	-1242
▁better	-1243
▁proble	-1244
▁business	-1245
▁children	-1246
▁Rashtrapati	-1247
▁Le	-1248
▁ru	-1249
▁sk	-1250
▁She	-1251
▁dest	-1252
▁full	-1253
▁poss	-1254
▁read	-1255
▁large	-1256
ishment	-1257
▁applic	-1258
▁invest	-1259
▁address	-1260
▁heavens	-1261
▁consider	-1262
RA	-1263
put	-1264
▁Ab	-1265
iron	-1266
▁Del	-1267
▁Pre	-1268
▁pat	-1269
▁run	-1270
▁tre	-1271
enger	-1272
ising	-1273
otion	-1274
▁Sing	-1275
▁done	-1276
▁issu	-1277
▁const	-1278
▁change	-1279
▁commit	-1280
▁surely	-1281
▁Central	-1282
▁concern	-1283
▁project	-1284
ternational	-1285
erc	-1286
han	-1287
med	-1288
uss	-1289
ship	-1290
gress	-1291
▁Show	-1292
▁move	-1293
▁send	-1294
▁exist	-1295
▁level	-1296
▁month	-1297
▁income	-1298
▁window	-1299
▁command	-1300
▁provide	-1301
idd	-1302
ita	-1303
ajor	-1304
heme	-1305
▁Add	-1306
▁fun	-1307
ccess	-1308
thing	-1309
▁cost	-1310
▁These	-1311
itation	-1312
▁something	-1313
▁understand	-1314
bs	-1315
uk	-1316
chie	-1317
oura	-1318
▁Eng	-1319
▁One	-1320
▁true	-1321
ternal	-1322
▁faith	-1323
▁light	-1324
▁prote	-1325
▁still	-1326
▁company	-1327
ng	-1328
ode	-1329
que	-1330
rict	-1331
uted	-1332
▁Ram	-1333
▁div	-1334
▁far	-1335
▁var	-1336
iding	-1337
▁Beng	-1338
▁days	-1339
▁real	-1340
▁along	-1341
▁appro	-1342
▁signs	-1343
▁three	-1344
ization	-1345
▁employ	-1346
iversity	-1347
▁appoint	-1348
▁charact	-1349
ta	-1350
ems	-1351
ote	-1352
▁Ag	-1353
▁ri	-1354
▁Ass	-1355
▁Rep	-1356
▁Who	-1357
▁non	-1358
▁rev	-1359
▁sit	-1360
ering	-1361
ories	-1362
▁areas	-1363
▁based	-1364
▁build	-1365
▁cause	-1366
▁chang	-1367
liament	-1368
▁Bengal	-1369
▁contin	-1370
▁institution	-1371
IN	-1372
to	-1373
ENT	-1374
els	-1375
hat	-1376
▁Im	-1377
▁ey	-1378
▁mo	-1379
▁sch	-1380
ances	-1381
vious	-1382
▁body	-1383
▁unto	-1384
▁offic	-1385
▁times	-1386
▁common	-1387
▁market	-1388
▁matter	-1389
▁object	-1390
▁proper	-1391
▁current	-1392
▁members	-1393
▁Minister	-1394
ON	-1395
io	-1396
ma	-1397
com	-1398
ged	-1399
ases	-1400
gest	-1401
▁Sub	-1402
ailed	-1403
cript	-1404
▁orig	-1405
▁plac	-1406
itions	-1407
▁Delhi	-1408
▁death	-1409
▁learn	-1410
▁liter	-1411
▁action	-1412
▁family	-1413
▁others	-1414
▁express	-1415
▁education	-1416
AR	-1417
cl	-1418
alf	-1419
ann	-1420
ron	-1421
tee	-1422
▁Us	-1423
ceed	-1424
irit	-1425
ured	-1426
▁199	-1427
▁How	-1428
icult	-1429
ready	-1430
▁That	-1431
▁held	-1432
▁keep	-1433
▁ment	-1434
▁port	-1435
▁post	-1436
▁seen	-1437
▁self	-1438
▁trad	-1439
ancial	-1440
▁benef	-1441
▁exper	-1442
▁going	-1443
ference	-1444
▁Muslim	-1445
▁associ	-1446
▁father	-1447
▁result	-1448
▁punishment	-1449
▁Z	-1450
ium	-1451
ury	-1452
▁PR	-1453
abha	-1454
rael	-1455
reen	-1456
work	-1457
▁jud	-1458
▁rul	-1459
▁too	-1460
▁priv	-1461
▁reve	-1462
atural	-1463
ential	-1464
gether	-1465
urther	-1466
▁achie	-1467
▁house	-1468
▁quest	-1469
▁thing	-1470
▁whole	-1471
▁Israel	-1472
▁Please	-1473
▁health	-1474
▁respect	-1475
▁together	-1476
amb	-1477
cil	-1478
ief	-1479
inc	-1480
ner	-1481
opy	-1482
ret	-1483
rial	-1484
▁age	-1485
▁due	-1486
▁enj	-1487
eness	-1488
▁mean	-1489
▁rese	-1490
rought	-1491
▁deeds	-1492
▁major	-1493
▁Indeed	-1494
▁already	-1495
▁himself	-1496
▁various	-1497
▁national	-1498
▁provided	-1499
IA	-1500
gu	-1501
par	-1502
uty	-1503
▁At	-1504
▁war	-1505
ected	-1506
ences	-1507
viron	-1508
▁face	-1509
▁fund	-1510
▁mill	-1511
▁path	-1512
itness	-1513
ricult	-1514
▁Singh	-1515
ruction	-1516
▁belong	-1517
▁sector	-1518
▁spirit	-1519
▁required	-1520
▁themselves	-1521
HE	-1522
▁:	-1523
ala	-1524
cut	-1525
ger	-1526
het	-1527
▁Em	-1528
ourn	-1529
▁Dep	-1530
▁Spe	-1531
▁dep	-1532
▁lim	-1533
▁mus	-1534
▁net	-1535
▁data	-1536
▁hist	-1537
▁near	-1538
▁seek	-1539
ession	-1540
ferred	-1541
▁might	-1542
▁polit	-1543
ibility	-1544
▁having	-1545
▁little	-1546
▁perform	-1547
▁respons	-1548
vironment	-1549
▁complete	-1550
▁position	-1551
▁i	-1552
ait	-1553
ats	-1554
jee	-1555
ran	-1556
ues	-1557
umb	-1558
akes	-1559
atic	-1560
come	-1561
hamm	-1562
hing	-1563
itor	-1564
ners	-1565
ring	-1566
rodu	-1567
▁bre	-1568
▁fav	-1569
ently	-1570
illed	-1571
ource	-1572
▁area	-1573
▁date	-1574
▁food	-1575
▁gave	-1576
▁home	-1577
▁kind	-1578
▁test	-1579
cribed	-1580
▁field	-1581
▁pract	-1582
aterial	-1583
isation	-1584
▁comput	-1585
▁special	-1586
▁subject	-1587
▁success	-1588
▁selected	-1589
AT	-1590
az	-1591
ew	-1592
aim	-1593
leg	-1594
ogn	-1595
rah	-1596
val	-1597
▁15	-1598
▁Cl	-1599
▁cr	-1600
▁sw	-1601
eric	-1602
imum	-1603
▁Acc	-1604
▁Can	-1605
▁Dis	-1606
▁dou	-1607
▁eng	-1608
▁key	-1609
▁Cont	-1610
▁diff	-1611
▁head	-1612
▁love	-1613
▁took	-1614
▁Those	-1615
▁words	-1616
▁always	-1617
▁mother	-1618
▁second	-1619
▁security	-1620
▁available	-1621
▁particular	-1622
ets	-1623
iti	-1624
mon	-1625
oss	-1626
▁'%	-1627
▁12	-1628
aled	-1629
land	-1630
oney	-1631
adesh	-1632
▁live	-1633
▁warn	-1634
hammad	-1635
ording	-1636
resent	-1637
▁access	-1638
▁necess	-1639
▁brought	-1640
▁believed	-1641
▁economic	-1642
▁countries	-1643
▁activities	-1644
IC	-1645
▁{	-1646
The	-1647
aps	-1648
ier	-1649
lam	-1650
osp	-1651
▁20	-1652
▁25	-1653
▁Gu	-1654
▁di	-1655
▁hy	-1656
oses	-1657
reng	-1658
▁000	-1659
▁Let	-1660
▁THE	-1661
▁cro	-1662
▁eas	-1663
▁hig	-1664
asure	-1665
ately	-1666
ption	-1667
veral	-1668
▁PRES	-1669
▁farm	-1670
▁hold	-1671
herjee	-1672
▁above	-1673
▁class	-1674
▁night	-1675
▁sense	-1676
▁whose	-1677
▁young	-1678
▁living	-1679
▁language	-1680
▁programm	-1681
▁character	-1682
ali	-1683
olk	-1684
anab	-1685
anks	-1686
ator	-1687
ilit	-1688
▁abs	-1689
▁tal	-1690
acity	-1691
arent	-1692
aring	-1693
lling	-1694
ustom	-1695
▁able	-1696
▁coun	-1697
▁expl	-1698
▁mind	-1699
▁pain	-1700
▁suff	-1701
▁vill	-1702
aining	-1703
▁local	-1704
▁occas	-1705
▁value	-1706
▁clause	-1707
▁extend	-1708
ribution	-1709
▁whether	-1710
hy	-1711
ams	-1712
ara	-1713
ask	-1714
ope	-1715
uct	-1716
▁Dr	-1717
▁Ph	-1718
ched	-1719
ened	-1720
obal	-1721
ours	-1722
ully	-1723
▁195	-1724
▁IND	-1725
▁few	-1726
▁hon	-1727
▁yet	-1728
IDENT	-1729
itive	-1730
▁side	-1731
▁soci	-1732
▁type	-1733
▁vers	-1734
ources	-1735
▁court	-1736
▁equal	-1737
▁treat	-1738
ability	-1739
▁Commit	-1740
▁States	-1741
▁folder	-1742
▁reason	-1743
▁streng	-1744
▁persons	-1745
▁witness	-1746
▁material	-1747
▁difficult	-1748
▁including	-1749
▁therefore	-1750
akh	-1751
oad	-1752
▁ve	-1753
.201	-1754
cell	-1755
cing	-1756
eous	-1757
ivid	-1758
omes	-1759
raph	-1760
reme	-1761
▁Ara	-1762
▁Sec	-1763
▁cut	-1764
▁del	-1765
▁mer	-1766
▁tax	-1767
▁Comp	-1768
▁anim	-1769
▁circ	-1770
▁next	-1771
▁outs	-1772
▁text	-1773
▁Sabha	-1774
▁books	-1775
▁creat	-1776
▁elect	-1777
▁later	-1778
▁until	-1779
▁around	-1780
▁regard	-1781
▁English	-1782
▁further	-1783
▁product	-1784
▁PRESIDENT	-1785
be	-1786
ev	-1787
ray	-1788
unt	-1789
▁ut	-1790
ards	-1791
iful	-1792
ling	-1793
mber	-1794
play	-1795
used	-1796
▁Qur	-1797
▁lat	-1798
▁tot	-1799
▁vol	-1800
verse	-1801
▁mail	-1802
▁repl	-1803
atever	-1804
change	-1805
reedom	-1806
▁House	-1807
ividual	-1808
▁Americ	-1809
▁either	-1810
▁expect	-1811
▁ground	-1812
▁hearts	-1813
▁making	-1814
▁received	-1815
sh	-1816
den	-1817
ead	-1818
ocu	-1819
ods	-1820
▁1.	-1821
ergy	-1822
ilar	-1823
ivil	-1824
rish	-1825
▁ann	-1826
▁aut	-1827
▁big	-1828
▁inn	-1829
bsite	-1830
▁Cour	-1831
▁Prov	-1832
▁cred	-1833
▁ever	-1834
▁fall	-1835
▁inde	-1836
▁once	-1837
▁rele	-1838
▁sing	-1839
▁told	-1840
ension	-1841
minist	-1842
▁Hindu	-1843
▁enjoy	-1844
▁forth	-1845
▁hands	-1846
▁knows	-1847
▁share	-1848
▁short	-1849
itional	-1850
lection	-1851
▁entire	-1852
▁record	-1853
▁control	-1854
▁natural	-1855
▁several	-1856
▁services	-1857
▁Messenger	-1858
▁financial	-1859
▁relations	-1860
▁Parliament	-1861
AN	-1862
ery	-1863
gin	-1864
lig	-1865
men	-1866
rug	-1867
une	-1868
uro	-1869
▁Af	-1870
ault	-1871
ones	-1872
▁App	-1873
▁Cal	-1874
▁Div	-1875
▁Fin	-1876
▁bar	-1877
▁cal	-1878
▁lab	-1879
earch	-1880
ouses	-1881
▁Most	-1882
▁West	-1883
▁plan	-1884
▁prep	-1885
iation	-1886
▁INDIA	-1887
▁gives	-1888
▁ident	-1889
ication	-1890
ilities	-1891
▁Minist	-1892
▁policy	-1893
▁recogn	-1894
▁example	-1895
▁industry	-1896
▁authority	-1897
▁represent	-1898
▁Commission	-1899
▁management	-1900
IS	-1901
af	-1902
ows	-1903
udd	-1904
▁	-1905
e	-1906
t	-1907
a	-1908
o	-1909
i	-1910
n	-1911
s	-1912
r	-1913
h	-1914
l	-1915
d	-1916
c	-1917
u	-1918
m	-1919
f	-1920
p	-1921
g	-1922
y	-1923
w	-1924
b	-1925
.	-1926
v	-1927
,	-1928
k	-1929
A	-1930
T	-1931
I	-1932
S	-1933
-	-1934
C	-1935
P	-1936
M	-1937
H	-1938
x	-1939
B	-1940
R	-1941
1	-1942
D	-1943
W	-1944
0	-1945
E	-1946
N	-1947
'	-1948
(	-1949
)	-1950
G	-1951
O	-1952
j	-1953
L	-1954
2	-1955
:	-1956
F	-1957
q	-1958
;	-1959
U	-1960
K	-1961
"	-1962
9	-1963
z	-1964
5	-1965
3	-1966
?	-1967
V	-1968
/	-1969
J	-1970
%	-1971
4	-1972
Y	-1973
8	-1974
7	-1975
6	-1976
”	-1977
“	-1978
!	-1979
_	-1980
’	-1981
]	-1982
[	-1983
&	-1984
<	-1985
>	-1986
Q	-1987
–	-1988
‘	-1989
Z	-1990
{	-1991
}	-1992
—	-1993
X	-1994
+	-1995
*	-1996
