<pad>	0
</s>	0
<unk>	0
▁	-3.36582
,	-3.50281
a	-3.53956
e	-3.67017
▁e	-3.87453
i	-3.93884
▁di	-3.9935
o	-4.0157
re	-4.23237
n	-4.27583
r	-4.31393
▁a	-4.36009
u	-4.37002
▁il	-4.47746
▁la	-4.66615
to	-4.74994
'	-4.79671
ri	-4.79965
te	-4.83561
ra	-4.85762
▁in	-4.88796
▁che	-4.8885
no	-4.91672
t	-4.91693
s	-4.97552
l	-4.99566
ro	-5.0063
▁i	-5.00959
▁per	-5.05293
ti	-5.06395
:	-5.07068
g	-5.08823
▁con	-5.106
ta	-5.15945
▁si	-5.18301
ni	-5.19635
b	-5.22617
m	-5.22809
▁ma	-5.2377
▁del	-5.24726
ne	-5.25878
di	-5.27347
▁non	-5.28089
▁le	-5.31267
▁Signore	-5.32464
de	-5.3385
na	-5.38816
mo	-5.4315
ca	-5.45175
p	-5.45219
▁vi	-5.45668
le	-5.46022
li	-5.46087
ò	-5.46109
▁un	-5.4793
se	-5.49214
f	-5.49906
▁se	-5.51565
va	-5.53104
▁l	-5.54426
.	-5.54707
;	-5.55259
z	-5.55366
la	-5.58545
ci	-5.58615
▁«	-5.60308
▁al	-5.63652
▁da	-5.65345
▁ri	-5.65476
▁c	-5.65702
▁re	-5.67285
gli	-5.6789
▁è	-5.6841
▁dell	-5.69033
d	-5.69934
ve	-5.70555
▁A	-5.71017
▁loro	-5.72746
▁o	-5.72847
mi	-5.73275
rà	-5.77725
lo	-5.79019
▁E	-5.80494
▁po	-5.84469
gi	-5.85081
c	-5.85638
▁Dio	-5.87338
si	-5.87492
▁fa	-5.87605
ce	-5.88571
▁gli	-5.89241
po	-5.90184
ma	-5.93654
▁mi	-5.94786
▁te	-5.94859
»	-5.94873
sse	-5.9678
co	-5.97846
me	-5.99021
vi	-5.99205
tto	-5.99904
bi	-6.01207
▁me	-6.02414
▁de	-6.03535
pa	-6.04351
ndo	-6.07115
▁s	-6.07512
vo	-6.08016
▁sa	-6.09207
nti	-6.10582
pi	-6.11284
▁perché	-6.13057
▁lo	-6.13631
▁so	-6.13713
▁come	-6.15632
à	-6.16221
▁su	-6.16328
▁f	-6.18174
rò	-6.19289
sti	-6.19577
so	-6.19981
▁dei	-6.21422
nte	-6.23329
or	-6.24858
v	-6.25088
sa	-6.25509
▁ne	-6.25659
tte	-6.25827
▁nel	-6.26169
▁pro	-6.27386
▁ha	-6.28696
ar	-6.29038
▁G	-6.2915
▁co	-6.2948
ato	-6.31415
▁suo	-6.32173
▁do	-6.32299
ranno	-6.32331
ssi	-6.32443
do	-6.35808
▁sono	-6.3653
an	-6.38693
tà	-6.41868
▁una	-6.4229
ggi	-6.43589
sto	-6.43637
ste	-6.4423
▁disse	-6.44662
rono	-6.44688
▁pi	-6.45945
▁figli	-6.46409
▁d	-6.46661
▁C	-6.47296
da	-6.47722
nza	-6.48541
▁sta	-6.48634
▁L	-6.49145
▁nell	-6.49272
tti	-6.49556
▁tu	-6.50023
cco	-6.50941
▁fu	-6.51756
▁pre	-6.51929
▁li	-6.51959
ssa	-6.54063
ì	-6.54414
▁Ma	-6.54775
nda	-6.54943
▁par	-6.55342
ba	-6.56993
rai	-6.58598
nta	-6.58811
▁ve	-6.59653
chi	-6.59802
▁I	-6.59876
▁alla	-6.59954
▁tutti	-6.60592
▁mio	-6.61293
▁tuo	-6.61446
▁sua	-6.6155
▁io	-6.61951
sta	-6.62307
▁figlio	-6.63427
▁Il	-6.6488
vano	-6.65394
▁ti	-6.6584
un	-6.66
pe	-6.6655
▁gr	-6.6687
▁ci	-6.67138
▁voi	-6.67653
sso	-6.68316
tu	-6.68588
▁chi	-6.68607
zione	-6.68994
am	-6.69221
stra	-6.70483
gu	-6.71337
cci	-6.72098
nto	-6.7359
che	-6.73628
▁aveva	-6.75251
è	-6.75353
▁sc	-6.75464
▁suoi	-6.75748
▁dal	-6.76619
du	-6.77823
tta	-6.78235
▁popolo	-6.79896
▁lui	-6.8083
▁ven	-6.80936
sci	-6.81071
go	-6.82286
▁quel	-6.8275
lla	-6.83626
▁dall	-6.83725
gno	-6.839
▁sp	-6.84245
ga	-6.84388
ver	-6.84721
▁tra	-6.85011
al	-6.85478
T	-6.8692
▁pe	-6.87419
▁questo	-6.88837
▁col	-6.89752
▁P	-6.90372
▁que	-6.92108
sco	-6.9274
▁più	-6.94255
▁b	-6.95029
▁terra	-6.95064
▁B	-6.9574
uomo	-6.95921
O	-6.95957
zza	-6.9596
▁fi	-6.96405
sce	-6.97114
▁for	-6.97411
▁ai	-6.97554
▁era	-6.97773
lle	-6.97996
▁sarà	-6.98906
▁contro	-6.98998
amo	-6.99888
▁paese	-7.00874
▁Israele	-7.01061
▁com	-7.01099
▁S	-7.01457
zio	-7.03707
▁mor	-7.04067
▁città	-7.04343
▁ho	-7.04452
▁N	-7.04767
-	-7.04802
per	-7.05769
▁tua	-7.06165
▁tutto	-7.06271
▁casa	-7.06968
▁all	-7.08357
▁qual	-7.08653
▁egli	-7.09326
lli	-7.09704
zia	-7.09872
▁giorno	-7.10845
▁ad	-7.11793
▁Se	-7.12456
▁anche	-7.14205
▁dice	-7.15129
▁Si	-7.16369
?	-7.16564
cc	-7.19214
▁mia	-7.19408
▁davanti	-7.2001
rete	-7.20676
bo	-7.20761
▁sull	-7.20954
▁quando	-7.21012
▁Davide	-7.21634
▁Non	-7.22748
▁Io	-7.23911
▁R	-7.24005
uto	-7.24391
▁vol	-7.25008
arono	-7.25454
ogni	-7.25525
▁be	-7.26759
fer	-7.27314
▁Allora	-7.28526
▁pu	-7.29034
▁uomini	-7.29801
▁ra	-7.30439
▁ce	-7.31222
D	-7.3183
▁Gesù	-7.31902
▁fatto	-7.33122
▁hai	-7.34391
llo	-7.35219
▁così	-7.36242
▁prese	-7.3682
▁noi	-7.37016
▁Sa	-7.3732
▁tuoi	-7.38152
▁mezzo	-7.3848
▁né	-7.3893
▁bene	-7.40781
▁secondo	-7.40888
▁gio	-7.41121
?»	-7.41662
▁due	-7.43376
▁va	-7.44121
▁quant	-7.44431
▁acc	-7.44442
▁erano	-7.45255
stru	-7.45281
▁Di	-7.45884
▁sul	-7.47443
▁porta	-7.47673
▁Giuda	-7.48103
▁Per	-7.48262
▁ver	-7.48768
▁Mosè	-7.49539
▁V	-7.49681
▁tutte	-7.50216
▁F	-7.50454
▁comp	-7.50525
▁and	-7.51016
ch	-7.51544
acqu	-7.51981
min	-7.52469
▁Gerusalemme	-7.52475
!»	-7.52555
▁hanno	-7.53762
▁fece	-7.56172
A	-7.56274
▁padre	-7.59017
▁fino	-7.59035
▁In	-7.59352
cchi	-7.59669
▁Israeliti	-7.60082
▁servi	-7.6011
▁occhi	-7.60613
h	-7.61239
anno	-7.61392
S	-7.61622
▁tre	-7.62439
▁pass	-7.62611
▁nome	-7.64463
▁cuore	-7.64466
▁ciò	-7.65366
k	-7.66728
mento	-7.67197
▁questa	-7.6817
▁cui	-7.68223
▁usc	-7.68431
▁tempio	-7.69339
▁tutta	-7.70038
▁grande	-7.70376
▁Quando	-7.71718
▁parola	-7.71741
▁giorni	-7.72636
▁vers	-7.7337
▁Egli	-7.73597
▁dunque	-7.75021
▁cosa	-7.75846
U	-7.75866
▁rispose	-7.75866
!	-7.77345
▁Chi	-7.7793
▁quelli	-7.78787
▁miei	-7.78895
E	-7.79435
Z	-7.79867
Egitto	-7.80897
mente	-7.81822
▁sap	-7.82577
▁Da	-7.84043
▁entr	-7.84227
▁avr	-7.85065
cento	-7.8712
▁tempo	-7.88929
▁infatti	-7.89276
q	-7.89809
▁salv	-7.89987
▁parole	-7.913
▁Quest	-7.92187
▁trova	-7.92378
▁Poi	-7.93214
▁ancora	-7.93303
▁nostro	-7.94428
▁chiama	-7.94509
▁abbia	-7.94626
▁degl	-7.94672
▁Cristo	-7.95193
▁Mi	-7.95619
▁fratelli	-7.95759
fica	-7.96053
▁cielo	-7.96562
▁gener	-7.97111
▁vostro	-7.97302
▁Me	-7.97564
▁sopra	-7.97583
▁poiché	-7.97691
▁fede	-7.98357
Perché	-7.98672
▁mentre	-7.98673
▁sempre	-7.99662
▁qua	-8.00121
I	-8.00318
▁legge	-8.02081
▁allora	-8.02181
▁vostri	-8.02693
▁fuoco	-8.02714
Che	-8.02804
▁mangia	-8.0311
▁Così	-8.0331
▁alcun	-8.03737
▁sacerdote	-8.05395
▁qui	-8.05819
ghe	-8.06693
▁avete	-8.07218
Israele	-8.07624
altro	-8.08719
▁luogo	-8.09044
▁sacrifici	-8.09922
C	-8.10335
▁peccato	-8.11254
▁anni	-8.11513
▁Figli	-8.11714
▁servo	-8.12647
▁altri	-8.13135
▁aff	-8.13241
▁giustizia	-8.13972
▁ascolta	-8.15826
▁prende	-8.1633
▁sangue	-8.16531
▁Saul	-8.16811
▁Tutt	-8.17729
▁padri	-8.18674
ghi	-8.19662
▁spada	-8.19663
ù	-8.20207
M	-8.2054
▁sacerdoti	-8.22101
P	-8.22485
▁voce	-8.24199
presso	-8.25112
▁stesso	-8.25171
▁fratello	-8.25908
altare	-8.26361
Non	-8.27007
▁insieme	-8.27211
▁prima	-8.27212
▁molti	-8.28002
▁Giacobbe	-8.30136
▁gloria	-8.30949
▁tribù	-8.31769
▁guard	-8.31775
▁bocca	-8.32044
▁donna	-8.32649
▁moglie	-8.35406
unque	-8.36088
cinque	-8.36258
é	-8.36497
▁cammin	-8.36549
▁senz	-8.36666
rebbe	-8.3715
▁deserto	-8.37413
V	-8.50027
F	-8.79078
B	-9.07208
L	-9.08474
G	-9.2658
R	-9.27315
N	-9.45892
"	-10.218
1	-11.1957
(	-11.2983
)	-11.3539
’	-12.3434
]	-13.2934
j	-13.7934
J	-14.7921
9	-14.7922
0	-14.7923
8	-14.7924
7	-14.7925
5	-14.7926
4	-14.7927
3	-14.7928
2	-14.7929
6	-14.793
K	-14.7931
H	-14.7932
Q	-14.7933
}	-14.7934
«	-14.7934
