<pad>	0
</s>	0
<unk>	0
¦	-1.33442
▁¦	-1.52588
▁,	-3.53368
▁	-3.74721
𐊼	-4.11183
𐊣	-4.11183
ꭲ	-4.16471
ꭰꮄ	-4.21831
▁.	-4.25629
ꮎꮝꭹ	-4.46483
ꮓ	-4.56369
▁;	-4.65079
ꭹ	-4.82195
ꭿꭰ	-5.14996
ᏹ	-5.19887
ꭸꮢ	-5.21991
ꮧ	-5.25889
ꭿ	-5.3722
ꮎ	-5.51961
ꭽ	-5.54928
ꭴ	-5.72146
ꭵꮭ	-5.74394
ꭸꮢꭲ	-5.75629
ᏸꮓ	-5.77222
ꮫ	-5.77834
ꭰ	-5.83092
ꭶ	-5.85401
ꮵ	-5.86184
ꭴꮑꮃꮕꭿ	-5.9088
ꮙ	-6.08161
ꮒ	-6.11063
ꮣ	-6.1364
ꮕ	-6.19956
▁?	-6.26325
ꭸꮞꮝꮧ	-6.27159
ꭰꮞ	-6.35565
ꮵꮜ	-6.38672
ᏼꮻ	-6.40174
ꭹꮆ	-6.40423
ꮎꮝꮙ	-6.40692
ᏻ	-6.40812
ꮝꮧ	-6.41988
ꭰᏼ	-6.43743
ꮎꮝꭹꮿ	-6.4536
ꮳ	-6.47284
ꮅ	-6.47969
ꮏꮙ	-6.48096
ꮿ	-6.50308
ꮷ	-6.5173
ꮝꭹꮒ	-6.52139
ꮟ	-6.52208
-	-6.52613
ꮒꭿ	-6.5389
ꮵꭹ	-6.54353
ꮒꭸꮢꮎ	-6.5562
ꭴꭼꮻᏻꭿ	-6.56208
ꮧᏹ	-6.59175
ꭲᏻꮝꮧ	-6.59427
ꭼ	-6.64648
ꮥ	-6.6849
ꮻ	-6.69657
ꮎꮏ	-6.71186
ꮪ	-6.72565
ꭶꮆꮑꮫ	-6.72799
ꮝꭹ	-6.75896
ꭴꮒ	-6.77122
ᏹꭹ	-6.79859
ꭸ	-6.80459
ꭼꮹ	-6.81873
ꮈ	-6.82431
ᏺ	-6.84859
ꭺꮁꮝꮧ	-6.86014
ꭰꮒ	-6.87001
ꮒꭶꮫ	-6.88246
ꭲᏻ	-6.89974
ꮑ	-6.9125
ꮄ	-6.92338
ꭳꮝꮫ	-6.95723
ꭲꭶ	-6.9685
ᏼ	-6.98226
ꭲᏻꮓ	-7.01529
ꮢ	-7.01663
ꮝꭺ	-7.02612
ꮞ	-7.0479
ꭱ	-7.0482
ꭶꮩ	-7.07685
ꭺ	-7.11015
ꮎꮝꭹꮓ	-7.11403
ꮴ	-7.11663
ꭾꮝꮧ	-7.12291
ꮮꮝꮧ	-7.13864
ꮨ	-7.14846
ꭲꮵ	-7.15034
ꮩ	-7.15285
ꮔ	-7.15469
ꭴꮺꮵ	-7.1567
ꭱꮆꭿ	-7.16277
ꭴᏺ	-7.18731
ꭾ	-7.22607
ꭴꮎ	-7.27879
ꭴꮳꮨ	-7.28196
ꮹ	-7.2917
ꮝꭸꮝꮧ	-7.30571
ꮒꭶꭵ	-7.3065
ꮸ	-7.31007
ꮃ	-7.31503
ꮂ	-7.32946
ꭰꭹ	-7.33478
ꭼꮒꭸꮢ	-7.33665
ꭵ	-7.35103
ꭴꮹꮢ	-7.35596
ꮔꮝꮫ	-7.36249
ꭸꮝꮧ	-7.37078
ꭷꮓꭾꮫ	-7.38178
ꮤ	-7.38226
ꭸꮞ	-7.38945
ꭶꮈꮙꮧᏻ	-7.39872
ꮕꭹ	-7.40898
ꭰꮣꮕꮩ	-7.41409
ꭶꮈꮃꮧ	-7.41511
ꮔꮺꮞ	-7.42918
ꭺꭿ	-7.43375
ꮲ	-7.45747
ꭳꮟᏻ	-7.46067
ꮧꭷꮏꮹꮫꮝꮧ	-7.46071
ꮶ	-7.46202
ꭿꭰꮓ	-7.46259
ꭰꮵꮈ	-7.47144
ꮈꭹ	-7.47477
ꭲᏼꮫ	-7.47645
ꮪꮒ	-7.47987
ꮤꮕꭿ	-7.4827
ꮝꮧᏹ	-7.48283
ꭳ	-7.48691
ꮈꭿ	-7.50452
ꮎꭿᏻ	-7.50905
ꭱꭿ	-7.51888
ꭴꮯ	-7.5206
ᏸꮅ	-7.53344
ꭲᏻꮅꮝꮩꮧ	-7.53905
ꭰꮝꭶꮿ	-7.54717
ꮝꮫ	-7.55687
ꮄꭲ	-7.57947
ꮼ	-7.59245
ꭴꮴꮅꭶ	-7.61356
ᏸ	-7.63897
ꮎꮒꭵ	-7.6465
ꮝꭶ	-7.65131
ꮆ	-7.65879
ꭴꮴꮅ	-7.66764
ꭼꮒᏻꮙ	-7.67083
ꮝꮣ	-7.68573
ꮜ	-7.69085
ꮕꭿ	-7.69957
ꮔꮺꮢ	-7.71649
ꭰꮖ	-7.71675
ꮢꭹ	-7.732
ꮵꮜꮓ	-7.73717
ꮜꮙ	-7.74346
ꮪᏻꭺꮫ	-7.75362
[	-7.78283
ꮑꭲ	-7.79936
ꮖ	-7.80156
ꮂꭲ	-7.80782
ꭴꮒꮳꮨ	-7.808
ꭰꮑꭿ	-7.85122
ꮒꮪꮺꮞꮄ	-7.86184
ꮩꮧᏹ	-7.86629
ꮔꮺꮞꮄ	-7.8663
ꮀ	-7.8678
ꭷ	-7.87139
ꮤꮅꮑ	-7.87801
ꮩꮧ	-7.8786
ꮙꮃ	-7.88656
ꭰꮒꮷꮟ	-7.88703
ꭲꮸ	-7.89495
ꮝꭼꭲ	-7.89991
ꮷꮣꮄꮕꮫ	-7.90398
ꭼꮹꮝꮣꮹꮧꮩꭿ	-7.90928
ꮠ	-7.91395
ꭺꭲ	-7.92397
ꭴꭼꮹꮅ	-7.93741
ꮺ	-7.9383
ꭰꮵ	-7.95437
ꮷꮒ	-7.97294
ꮧꮒ	-7.97782
ꭶꮪ	-7.97897
ꮘꮣ	-7.98288
ꮽ	-7.98688
ꭰꮣ	-7.98886
ꭴꮺ	-7.99356
ꮑꮈ	-8.00013
ꭻ	-8.00078
ꮷꮎ	-8.00239
ꭳꭹ	-8.00627
ꭺꭿᏻꮧ	-8.03195
ꮳꮒ	-8.0355
ꭶꭺ	-8.03784
ꭲꮳ	-8.03808
ꭰꮉ	-8.04229
ꮧꭽ	-8.05556
ꮕꮧꭶꮅꮝꮩꮧꭽ	-8.07367
ꭴꮩꭿᏻꭿꮿ	-8.07406
ꭴꮣ	-8.07567
ꮧꭶ	-8.07959
ꭴꮑꮸ	-8.09442
ꮭꮝꭺ	-8.09964
ꮧꭶꮃꮻꭲꮝꮧᏹ	-8.11341
ꮒꮪꮺꮞꮈ	-8.11428
ꭲꮷꮃꭽ	-8.12136
ꭼꭹ	-8.1334
ꮵꮇꮟꮅꮋ	-8.14127
ꮒꭺꭿꮈ	-8.14129
ꭲꭼᏹ	-8.14312
ꮤꮕ	-8.14617
ꮤꮑ	-8.15474
ꭼꮒ	-8.15536
ꮧꮳ	-8.15706
ꭰꮟ	-8.15792
ꭶꮅ	-8.16468
ꭼꮒꮫ	-8.17314
ꭼꭲ	-8.18042
ꮣꮒ	-8.18244
ꭱꮵ	-8.18342
ꮥꮵ	-8.18435
ꮳꭼꮻᏻꭿ	-8.1846
▁]	-8.1847
ꮩꮣ	-8.18523
ꭱꮝꭶ	-8.18606
ꮇ	-8.19341
ꭶꮪꮂ	-8.19554
ꭰꭸᏼ	-8.20002
ꭲꭶꮫ	-8.2019
ꮕꮹꮣꮄ	-8.21456
ꮎꭵ	-8.21991
ꭰꮥꮈ	-8.22221
ꭸꮵ	-8.22722
ꮡ	-8.22855
ꮝꭼ	-8.2304
ꭰᏸꮅ	-8.23075
ꮀꭲ	-8.23477
ꮤꮅ	-8.23664
ꮔꮅꮝꮤꮕ	-8.23768
ꭲꮿꮒ	-8.24197
ꭼꮧ	-8.24594
ꮵꭺ	-8.25045
ꮭ	-8.25135
ꭴꮣꮩꮅꮝꮧ	-8.26938
ꮹꮫ	-8.27199
ꭴꮕꮢ	-8.27209
ꭲꮴ	-8.27236
ꮒꭶꮧᏻ	-8.27734
ꮔꮺꮞꮈ	-8.28363
ꮯ	-8.28817
ꮷꮺꮵ	-8.29458
ꮂꭹ	-8.2948
ꮝꮪ	-8.29882
ꮷꮎꮣꮄꮕꮫ	-8.30206
ꮑꮧᏹ	-8.30209
ꭶꮨ	-8.30576
ꮑꮈꭿ	-8.31626
ꭲꭹ	-8.31779
ꮩꭿ	-8.32812
ꮧꮝꭹ	-8.34233
ꮢꭿ	-8.35776
ꮑꮅ	-8.3691
ꭸꮳ	-8.37137
ꮕꮣ	-8.37262
ꮵꭶꮤꭽ	-8.38336
ꮒꮸꮺꮞ	-8.38889
ꭴꮅ	-8.39937
ᏹꭸꮞ	-8.40265
ꭲᏻꮹꮒꮜ	-8.40682
ꭰꮟᏼꮻ	-8.41103
ꮦ	-8.41156
ꭰꮑꮂ	-8.41228
ꮝꮖ	-8.41875
ꮧꮝꭸꮝꮧ	-8.42399
ꭼꮹꭶꮨꮿ	-8.42585
ꭴꮩꭿᏻꭿ	-8.43471
ꭹꮃꮙ	-8.43585
ꮘ	-8.43726
ꭴꮝꮧ	-8.44307
ꮔꮒꮺꮞ	-8.45414
ꭰꮟꮙ	-8.45714
ꮝꭸ	-8.45758
ꭷꮑ	-8.45808
ꭿᏻ	-8.45988
ꮰ	-8.46057
ꮷꮎꮑꮆꮧ	-8.46382
ꭿꮝꮧᏹ	-8.46409
ꮙꮝꭹꮒ	-8.47616
ꭰᏸꮈ	-8.47721
ꮶꭲ	-8.47774
ꮒꭼ	-8.48015
ꭱꮳ	-8.48331
ꮷꮴꮅ	-8.48421
ꭲꭶꭲ	-8.49791
ꮪꮎ	-8.49833
ꮷꮩ	-8.50111
ꭴꮗꮣꮅ	-8.50351
ꮔꭼꮻᏻꮢ	-8.50351
ꮧꭷꮏꮹꮧꮩꭿ	-8.50351
ꭰꭶ	-8.50442
ꮓꮕ	-8.50703
ꮔꮒꮺꮢ	-8.51374
ꮔꭺ	-8.51383
ꮝꮤꮕ	-8.51565
ꮑꮄ	-8.52004
ꮔꮼ	-8.5243
ꭴꮇꮸ	-8.52599
ꮒꭶ	-8.52874
ꭰꮎ	-8.52929
ꭴꮕ	-8.53313
ꮧꭶꮈꮻꮝꮣꮑꮧ	-8.53444
ꭴꮅꮒꭹꮫ	-8.53511
ꮉ	-8.53696
ꮏ	-8.53721
ꮈꭲ	-8.54046
ꭲꮣꮅꮕꮯ	-8.54497
ꭶꮣꭽ	-8.54852
ꭲꮧꮲ	-8.54861
ᏸꮈ	-8.55417
ꮣꮕ	-8.55438
ꭰꮻ	-8.55524
ꭲꮫ	-8.55687
ꮝꮩꮧ	-8.55872
ꮪꮅ	-8.5619
ꮕꮫ	-8.56297
ꮕꮿ	-8.56759
ꮝ	-8.57072
ꭹꮆꮓ	-8.57106
ꮑꭽ	-8.57341
ꭵꭹ	-8.57376
ꭺꮺꮅ	-8.58348
ꭲꭶꮴꮅ	-8.58881
ꮧꮵ	-8.60238
ꮠꭲ	-8.60671
ꭳꮒ	-8.60884
ꭶꮅꮙꭹ	-8.6106
ꮤꮕꭹ	-8.61117
ꭴꮪꭹ	-8.61686
ꭸꭲ	-8.62081
ꮔꮅꮝꮤꮑ	-8.62206
ꮝꭼꮎ	-8.63065
ꮧꮝꭼ	-8.63144
ꮕꮹꮩꭿꮿꮫ	-8.63342
ꭴꮥꮅꮫ	-8.63343
ꮷꭼꮹꮆꮧ	-8.6336
ꭱꮩꮣ	-8.63478
ꮂꭶ	-8.63511
ꮝꮥ	-8.64071
ꮢꭲ	-8.64158
ꮥꮝꮧ	-8.64351
ꮕꮧꭶꮅꮝꮩꮧꮝꭸ	-8.65024
ꮝꮩ	-8.65418
ꭰꮒꮝꭶꮿ	-8.65744
ꭺꮺꮃ	-8.66079
ꮝꭸꭲ	-8.66224
ꭳꭶ	-8.66597
ꭰꮑꮆ	-8.66682
ꭼꮎ	-8.66867
ꭼꮹꮒ	-8.67017
ꭸꮠꭲ	-8.67147
ᏸꮅꮙ	-8.67529
ꮣꮄ	-8.67988
ꭴꮑꮃꭹ	-8.68267
ꮩꮅ	-8.68503
ꭴꮎꮣ	-8.69013
ꭰꮎꮩꮄꮀꮝꭹ	-8.69296
ꮪꮩꭵ	-8.6932
ꭴꮎꮣꮕꮨ	-8.69407
ꮂꮎ	-8.69551
ꮔꮝꮧ	-8.69767
ꮑꮃꮕꭿ	-8.69791
ꭲꭼᏹᏹ	-8.70265
ꮤꮃꮪ	-8.71832
ꮕꮣᏻꮣꮄꮕ	-8.71942
ꮸꭿ	-8.7207
ꮫꮎ	-8.72565
ꭴꮑ	-8.72856
ꭲꮈꭿᏻ	-8.73058
ꮤꮒ	-8.73552
ꮑꮈꭹ	-8.74742
ꮥꮳ	-8.74759
ꮋ	-8.75373
ꭰꮒꮤꮅ	-8.75805
ꮵꭸꮞ	-8.76296
ꭱꮖꭽꮋ	-8.76943
ꭱꮃꮧ	-8.76946
ꮜꮹꮒ	-8.76959
ᏹꮀꮹ	-8.77244
ꮑꭿ	-8.77313
ꮅꮝꮣ	-8.77442
ꮞꮝꮧ	-8.77501
ꭲꮟꮅ	-8.77657
ꮔꮒꭼꮻᏻꮢ	-8.78277
ꮥꭶ	-8.78587
ꭶꮣ	-8.78763
ᏹꭶ	-8.79212
ꮣꮎ	-8.79224
ꭸꮅꮅ	-8.79674
ꭰꮝꭶꮒ	-8.79703
ꮒꮳ	-8.79891
ꭶꮑꮈ	-8.80387
ꭰꭶꮤꮂ	-8.80429
ꮧꭼꮹ	-8.80513
ꮵꮿ	-8.80726
ꭴꮝꮖꮒꭺꮧ	-8.80963
ꮌꮟ	-8.81019
ꭴꮎꮴꮅꭶ	-8.81195
ꮨꮒꮩ	-8.81457
ꭱꮅ	-8.81532
ꭿꮝꮧ	-8.82033
ꮑꭾꮝꮧ	-8.82104
ꭴꮎꮣꮱꭼ	-8.824
ꭰꮒꮖꮅꮟ	-8.82407
ꭸꮆꭿ	-8.82463
ꭹꭼ	-8.82798
ꮧꮒꭷꮏꮹꮧꮩꭿ	-8.83795
ꭰꮩꮄꮀꮝꭹ	-8.83814
ꭲꮳꮣ	-8.83879
ꮣꮅ	-8.85536
ꭶꮩꭿ	-8.85803
ꮝꮩꮧᏹ	-8.86082
ᏹꮳ	-8.86311
ꮳꮣ	-8.8691
ꮒꭼꮕ	-8.87221
ꭰꮞꮙ	-8.87513
ꮕꮟꮫ	-8.88122
ꭰᏺꮁꭿꮝꮧ	-8.88144
ꮢꮎ	-8.8836
ꮗ	-8.88509
ꭴꭺꮂ	-8.88704
ꮵꮪ	-8.88907
ꮵꭸꮠ	-8.89425
ꮥꮻ	-8.89571
ꮥᏺꮂꮝꭹ	-8.8958
ꮒꭶꮅꮝꮧ	-8.89663
ꭴꮹ	-8.90151
ꭰꮣꮑꮈ	-8.90277
ꭰꭶᏼꮅꭸ	-8.91171
ꭷꮑꭼ	-8.91173
ꭲꮸꮢ	-8.91282
ꭴᏺꮁꮢ	-8.92336
ꮧꮣ	-8.92477
ꮊꮅ	-8.92679
ꭺꮺꮈ	-8.92727
ᏺꭿ	-8.9276
"	-8.92804
ꮥꭹ	-8.92837
ꭲᏻꮝꭹꮒ	-8.93851
ꭼꮧꮝꭼ	-8.93865
ꮝꭼꭹ	-8.93983
ꮥꭿ	-8.94155
ꭲꮿꭶᏼꮅ	-8.94252
ꮵꭸꮢ	-8.94274
ꭴꮵ	-8.9434
ꭶꮤꮂ	-8.94387
ꭴꮫꮕ	-8.94434
ꮁ	-8.9558
ꮕꮟꮣꮝꮧ	-8.95708
ꭰꮝꭹꮎ	-8.95853
ᏹꮵ	-8.96929
ꭶᏻꮃ	-8.97455
ꭰꮣꭸᏻꮧ	-8.97464
ꮒꮩ	-8.97546
ꭺꮂ	-8.97694
ꭴꮒᏺ	-8.98179
ꮝꮤꮑ	-8.98247
ꮫꭹ	-8.98363
ꮴꭲ	-8.98581
ꭴꮎꮫꭶꮕ	-8.9861
ꮒꭼꮎꮫ	-8.99095
ꭲᏻꮎꮝꮧ	-8.99097
ꮣꮒꮈ	-8.99116
ꭴꮅꮒꭹꮧᏻ	-8.99167
ꮮ	-8.9926
ꭴꮩꮣ	-8.99891
ꮣꮑꮧ	-9.00583
ꭰꮝꮣꮿ	-9.0076
ꮒꮵ	-9.0079
ꭰꭶᏼꮅꭸꭲ	-9.00804
ꮱ	-9.00852
ꭲꮎꭸ	-9.00983
ꭲꮴꮂ	-9.01301
ꭰꮅ	-9.01914
ꭶꮈ	-9.02311
ꭰꮎꮅꮕꮯ	-9.02456
ꭰꮖꮴꮅ	-9.02495
ꭶꮆꭿꮝꮧᏹ	-9.02758
ꮴꮅ	-9.03251
ꮒꮪ	-9.03262
ꭰꮫ	-9.03389
ꭱꮂ	-9.03787
ꭰꮒꮝꭹꮎ	-9.04182
ꮵꮩ	-9.04195
ꭴꮰᏹ	-9.04393
ꮕꭲ	-9.0457
ꮸꮢ	-9.05924
ꭸꮵꮕꮟꮫ	-9.05963
ꮒꮵꭵ	-9.06003
ꮒꭶꮺ	-9.06052
ꮈꮻꮝꮣꮑ	-9.0606
ꮱꭼ	-9.06405
ꭿꮝꭹ	-9.06806
ꮕꮩ	-9.07234
ꭼꮕ	-9.07587
ꮿꮒ	-9.0762
ꮖꮄꮧ	-9.07723
ꮣꭶ	-9.07739
ꭰꮓꭿᏻꮂꮝꭹ	-9.0777
ꭴꮑꮴ	-9.07864
ꭹꭶꭸ	-9.0788
ꮵᏻꭿ	-9.08151
ꮕꮣᏻ	-9.09118
ꮒꭶꮺꮝꭼ	-9.09123
ꭶꮈꮙꮧ	-9.09135
ꮬ	-9.09232
ꮔꮎ	-9.09396
ꮅꭺ	-9.09405
ꮕꮹꮎꮣꮄ	-9.09536
ꮷꮒᏺꮁꮢꭿ	-9.09536
ꮝꮤꮒ	-9.09961
ꮫꮒ	-9.10015
ꮎꮝꭹꮝꭹꮒ	-9.10121
ꭴꮼ	-9.10157
ꭶꮤꭽ	-9.10358
ꭰꭹꮎ	-9.10385
ꭲꮝꮧ	-9.10473
ꮫꭶ	-9.10563
ꭴꮎꮅ	-9.10682
ꮇꮴ	-9.10689
ꮵꮥ	-9.11217
ꭶᏸꭺꭹ	-9.11396
ꮑꮧ	-9.11417
ꭴꮣꮕꮨ	-9.11418
ꭰꮒꭸᏼ	-9.11437
ꭶꮝꭹꮈ	-9.1155
ꭲꮿ	-9.12096
ꮕꮢꭹ	-9.12712
ꭴꮒꮇꮴ	-9.12815
ꮑꮂ	-9.13169
ꮧꮓꮺꮅꮝꭹ	-9.13274
ꭲꭼᏹꮧꮲ	-9.13287
ꮢꮓᏹ	-9.13322
ꮯꮆꮫ	-9.1337
ꭷꮕ	-9.13968
ꮳꮑ	-9.14038
ꭷꮅ	-9.14041
ꭶꮈꮆꭲ	-9.14112
ꮺꮞ	-9.14239
ꮣᏻ	-9.14294
ꮒꭼꮑ	-9.14525
ꮒꭺ	-9.14684
ꮔꮣꮄꮢ	-9.15198
ꭰꮒꭶꮤꮂ	-9.15328
ꭶꮫ	-9.15726
ꭺꮹꮫꮧᏹ	-9.16056
ꭸꮠ	-9.16182
ꮒꮣ	-9.17044
ꮝꮣꮹꮥ	-9.1711
ꭰꮵꮈꮙꮧ	-9.17187
ꮣꮣ	-9.17328
ꮝꭹꮿ	-9.17433
ꮝꮤꮕꭿ	-9.17448
ꮝꭶꮿ	-9.17454
ꭵꭵ	-9.1755
ꭴꮴꮅꭺꭿ	-9.17654
ꭱꭽ	-9.18136
ꭰꮧ	-9.1815
ꮪꮣ	-9.18408
ꮈꭽ	-9.1875
ꭴꮎꮴꮅ	-9.18886
ꮝꮥꮈ	-9.19151
ꭰꮊꮙꭿ	-9.19158
ꭴꮎꮩꮣꮖꮝꭼ	-9.19159
ꭴꮒꭼꮻᏻꭿ	-9.19159
ꭴꮣꮅꭲ	-9.19173
ꭱꮆꮫ	-9.19185
ꭼꮹꮎ	-9.19195
ꮧꮝꭺ	-9.19309
ꭴꮆ	-9.19453
ꮽꮒ	-9.1949
ꮾ	-9.19507
ꮣꮵ	-9.19534
ꮶꭲꮑ	-9.19901
ꭴᏺꭲᏻ	-9.1994
ꮧꮎ	-9.2008
ꮿꮕ	-9.20107
ꭴᏸꮈꮫ	-9.21201
ꭱꮊ	-9.21227
ꮵᏻ	-9.21245
ꮑꮝꮧ	-9.21252
ꮜꮧ	-9.21375
ꭰᏺꮅ	-9.214
ꮸꭹ	-9.21414
ꮣꮄꮕꮫ	-9.21641
ꮆꭿ	-9.21749
ꮴꮈ	-9.22766
(	-9.23282
ꮪꮎꮣꮕꮫ	-9.23302
ꮕꮧꭶꮅꮝꮩꮧꮝꭼ	-9.2353
ꮂꮟ	-9.23937
ꭸꭶ	-9.24212
ꮒꮸ	-9.24298
ꭴꮫꭶꮕ	-9.25418
ꮒꮧ	-9.2549
ꮑꮴꮈ	-9.25512
ꭴꮠꮕ	-9.25717
ꭰꮧꮤꮝꮧ	-9.25842
ꮿꭹ	-9.26412
ꮝꮧꮝꭹ	-9.27243
ꭲꮈꭿꮲ	-9.27589
ꮝꮣꮹꮧꮩꭿ	-9.27606
ꮕꮣꭶꮅꮝꮩꮧꮝꭼ	-9.27609
ꭴꮒꮝꭶꮕꮸ	-9.2766
ꭱꮧ	-9.28014
ꮕꮣꭼꮹꮣꮄꮕ	-9.28364
ꮥꮸ	-9.28371
ꮩꮅꮝꮧ	-9.28751
ꮎꮭꭲ	-9.28903
ꮥꮳꮣ	-9.29126
ꭿꮿ	-9.29235
ꭶꮤ	-9.29265
ꮅꮟ	-9.29593
ᏼꭹ	-9.29793
ꮷꮒꮈꮻꮝꮣꮑꭿ	-9.29806
ꮷꮧᏹ	-9.29836
ꭼꮻᏻꮜꮥꭹ	-9.29901
ꭰꮒꮠꭲ	-9.30025
ꮣꮕꮩ	-9.3021
ꮑꮀ	-9.30392
ꭲꭺꭿ	-9.30894
ꮝꭶꭹ	-9.30946
ꭱꭲ	-9.31204
ꭶꮆ	-9.31328
ꮩꮫ	-9.31506
ꭻᏼ	-9.31528
ꮧꭸꮵ	-9.31642
ꮥꭸ	-9.31725
ᏺꭿꮞꮈ	-9.31813
ꭺꭹ	-9.31862
ꮅꮓꭾ	-9.31869
ꮄꮝꮧ	-9.31911
ꭲꮳꮅꮝꮣꮑꮧ	-9.32097
ᏸꮒ	-9.32774
ꭲꭼꮑ	-9.33373
ꮒꮵꮺ	-9.33542
ꮒꮺ	-9.33601
ꮠꮕ	-9.33671
ꮵꭶ	-9.33873
ꮣꮩꮅꮝꮣꮑ	-9.33889
ꮅꮝꮥꮈꮩꮧ	-9.34044
ꭰꭶꮩꭵꭿꮝꮧ	-9.34448
ꮷꮣ	-9.34544
ꮎꮅ	-9.34584
ꭶᏸ	-9.34703
ꮧꭶꮕ	-9.34987
ꮔꮝꮥ	-9.36309
ꭹꮃ	-9.36504
ꮈꮙꮧ	-9.36613
ꭰꮝꭺꭿꮷꮘ	-9.36789
ꮒꮖꮨ	-9.36809
ꭰꮗꮵ	-9.37155
ꭶꮨꮿ	-9.37176
ꮎꮝꮙꮝꭹꮒ	-9.3726
ᏺꮁꭿ	-9.37319
ꮕꭿꮫ	-9.37376
ꮫꮑꮧ	-9.37377
ꭰꮎꮣ	-9.37793
ꭶꮅꮝꮩꮣ	-9.38155
ꭱꮝꮧ	-9.38459
ꮀꮹ	-9.38981
ꭴꮑꮃꮕꭿꮝꭹꮒ	-9.3915
ꭴꮅꮝꮖꮈꮧ	-9.39225
ꮎꮒꮺꮝꭸ	-9.39248
ꮵᏸꮈ	-9.39599
ꭼꮓ	-9.39672
ꭴꮣꮕꮩ	-9.39714
ꮣᏺ	-9.39714
ꭹꮆꮝꭹꮒ	-9.39728
ꮴꮂ	-9.39762
ꭶꮤꭾ	-9.39802
ꮘꮅꭹ	-9.39914
ꮆꮢ	-9.40031
ꮕꮅ	-9.40287
ꮹꮫꮂ	-9.40583
ꮝꮖꮈ	-9.40656
ꮪꮈꮻꮝꮣꮑꮂ	-9.40728
ꮤꮄ	-9.40763
ꮜꮙꮙ	-9.41137
ꭲꮷꮃ	-9.41351
ꮳꮴꮅꭶ	-9.41598
ꭴꮇꮴ	-9.41693
ꮧꮣꮝꮪꮧᏹ	-9.41725
ꮔꮫꮑꮈ	-9.41738
ꭴꮒꮳꮦ	-9.41738
ꭲꮈꮝꭹ	-9.41749
ꮥꮳꮣꮕꮫ	-9.41827
ꭰꮒꮿꮻꮝꭹ	-9.41839
ꮷꮺ	-9.42072
ꮅꭾꮅ	-9.42272
ꮵꮋ	-9.42279
ꮷꮓ	-9.42723
ꭳꮵ	-9.43064
ᏺꮞ	-9.43491
ꮕꭶꮈ	-9.43504
ꮝꮥꮝꮧ	-9.4361
ꮑꮆ	-9.4367
ꮥꮨᏼꮫ	-9.43701
ꮆꮧ	-9.43948
ꭺꮅ	-9.44249
ꮻꮎꮝꮫꮎ	-9.44289
ꮣꮆꮒꭸ	-9.44289
ꮧꮒᏺꮅ	-9.44319
ꭺꮲꮤꮕꭿ	-9.44341
ꭰꮣꮕꮦꮝꭼ	-9.44449
ꭰꮅꮝꮣᏼꮧ	-9.44536
ꮷꮅ	-9.44558
ᏸꭿ	-9.44726
ꮧꭸ	-9.44764
ꮕꮢ	-9.44852
ꮅꮝꮩꮧ	-9.44891
ꭰꮿ	-9.44907
ᏼꭼ	-9.44921
ꭴꮥ	-9.45206
ꭶꮤꮂꮎ	-9.45211
ꭴꮇꭿꮝꮧ	-9.45269
ꭴꮫ	-9.45859
ꮎꮓ	-9.45869
ꮫꭿ	-9.4602
ꮣꮝꮧᏹ	-9.46044
ꮞꮅ	-9.46215
ꮧꭻꭺꮩꮧ	-9.46293
ꮻꮪ	-9.46655
ꮇꭹ	-9.46717
ꮰꭸꮟ	-9.46921
ꭲᏻꮎꮫꮑꮧ	-9.46933
ꮝꮖꮫ	-9.46954
ꭴᏸꮈꮧ	-9.4707
ᏸꮈꭽ	-9.47126
ꭴꮒꭺꮂ	-9.47212
ꮔꭺꮸ	-9.47329
ꭾꮎ	-9.4752
ꭶꮜ	-9.47541
ᏻꮒ	-9.47606
ꮅꮝꮧ	-9.4767
ꮥꭼ	-9.47953
ꮰᏹ	-9.47962
ꮻꮵ	-9.48291
ꮹꭶ	-9.4869
ꮹꮫꭾ	-9.48856
▁."	-9.49421
ꭰꮝꭺꭿ	-9.49617
ꮦꮈꮃꮧ	-9.49623
ꭴꮓꮥꮎ	-9.49626
ꭴꮥꮑꮄ	-9.49649
ꮎꮒ	-9.49824
ꭾꮈ	-9.49895
ꭽꮲ	-9.49903
ᏺꮞꭽ	-9.50076
ꭹꮅᏺꭲꮝꮧ	-9.5008
ꭴꮒᏸꮈ	-9.50221
ꭶꮫꭶ	-9.50646
ꭶꮵꮿ	-9.51282
ꭰꮛꮢ	-9.51427
ꮣꮑꭿ	-9.51479
ꭷꮏ	-9.52046
ꮷꮟ	-9.52123
ꮕꮝꮧᏹ	-9.5214
ꮕꮞ	-9.5222
ꮒꮟ	-9.52397
ꮷꮒꮎꮻ	-9.52403
ꭽꮻꮒꮧꮲ	-9.52466
ꭴꮩꮄꮀꮢ	-9.52508
ꮧꮎꮣꮕꮯ	-9.52655
ꭼꮩꮧ	-9.52981
ꮜꮒ	-9.53366
ꮿꮫ	-9.53428
ꭲꮶꭿᏻꮢ	-9.53468
ꮻꮞ	-9.53786
ꮒꭶꮅꮝꮣ	-9.53902
ꮑꮈꭲ	-9.53925
ꭲꭼꮹ	-9.54007
ꮞꮄ	-9.54262
ꭴꮳꮨꮒ	-9.54534
ꮫꮑꮅ	-9.54702
ꭷꮅꭲ	-9.54757
ᏹꮣ	-9.5478
ꭰꮴꮅꮝꮫ	-9.55258
ꭴꮪꮅꮝꭼ	-9.55263
ꮒꮪᏻꭺꮫꮎ	-9.55264
ꮧꮳꮣ	-9.55265
ꭴꮳꮤꮕꭿ	-9.55276
ꭴꮒꮇꮸ	-9.55338
ꭲᏻꮹꮑ	-9.55466
ꭲꮎꮫ	-9.55531
ꭴꮝꭶꮕꮸ	-9.55541
ꮝꮥꮈꮧᏹ	-9.55566
ꮟꮜ	-9.55703
ꮒꮳꮫꮑ	-9.55748
ꮶꮹ	-9.5581
ꭴꮲ	-9.56135
ꭴᏺꮁꮢꭿ	-9.56148
ꮘꮅ	-9.56295
ꮕꮓ	-9.56355
ꭱꭾ	-9.56959
ꮧꭼꮹꮒ	-9.57063
ꮑꮓ	-9.57314
ꮝꮧꮝꭸꮝꮧ	-9.57344
ꮑꮆꮧ	-9.57686
ꮧꭼ	-9.58019
ꭼꮖ	-9.58064
ꮑꮯᏼ	-9.58103
ꭴꮒꮝꮖꮒꭺꮞ	-9.58199
ꭲꮸꭸᏻꭲ	-9.58199
ꮒꭸ	-9.58208
ꭰꮒꮝꭶꮎ	-9.58308
ꭰꮑ	-9.58403
ꮞꮣꮒ	-9.58568
ꮞꭽ	-9.58772
ꮵꮒꭼꮕ	-9.58787
ꭴꮒꮑ	-9.58806
ꮴꮵ	-9.58906
ꮥꮅ	-9.59383
ꭷꮒ	-9.59483
ꮜꮃ	-9.59507
ꮥꭸꮵ	-9.59577
ꭼꭶ	-9.60131
ꮪꭺ	-9.60405
ᏹꮧ	-9.60421
ꭰꮝꭶꮎ	-9.60475
ꮷꮎꮣ	-9.60616
ꭺꮲ	-9.60642
ꮅꮝꭺꮈꮣ	-9.6077
ꮪꮈꮻꮝꮣꮑ	-9.60796
ꮅꮝꮣᏼꮧ	-9.61125
ꭴꭹꮸꮫ	-9.61229
ꮕꭼꮹꮺꮞꮈ	-9.6123
ꮧꮅꮝꮣᏼꮧᏹ	-9.61232
ꭲᏻꮎꮅꮝꮣꮑꮧ	-9.61242
ᏼꭶ	-9.61296
ꮇꮴꮈ	-9.61928
ꭸꮃꮝꮧ	-9.62074
ꮿꮝꮧ	-9.62217
ꮪꮎꮣ	-9.62436
ᏼꮻꮙ	-9.62485
ꮣꭼ	-9.62515
ꭸꮃ	-9.62563
ᏺꮅ	-9.62627
ꭴꭶꮤ	-9.62841
ꭰᏸꮈꭲ	-9.63118
ꭹꮩꮣ	-9.63802
ꭴꮹꮢꮙ	-9.63939
ꮥꭴ	-9.6411
ꮣꮑꮹꮧꮢ	-9.64355
ꭰꮀꮅ	-9.64357
ꮪꮄꮕ	-9.64385
ꭲꮃꮿ	-9.6439
ꭲꮳꮫꮑꮧᏹ	-9.64392
ꮺꮃ	-9.64393
ꭲꮝꮧᏹ	-9.64404
ꭴꭷꮅꮸꭿ	-9.64477
ꮷꮣꮟ	-9.64566
ꮣꮫꮑ	-9.64977
ꭴꮺꮕ	-9.65226
ꭰꮔꮼ	-9.65265
ꭴꮒꮑꮸ	-9.65278
ꭸᏻꭿᏻ	-9.65471
ᏺꮟ	-9.65526
ᏸꭽ	-9.65719
ꭴꮫꮎ	-9.65809
ꮣꮃ	-9.65914
ꭲꮳꮅ	-9.65994
ꮑꮃ	-9.66173
ꮒꭼꮹꮺꮞꮄ	-9.66516
ꭰꮗ	-9.66517
ꭴꮩꭿᏻ	-9.66979
ꭰꮂ	-9.6704
ꮴꭾ	-9.67091
ꮝꮣᏹ	-9.67157
ꮻꮢ	-9.67171
ꮃꮻꭹ	-9.67407
𐋇	-9.6758
ꮥꭴꮩꭵ	-9.6758
ꭴꮄꮕꭾ	-9.67626
▁,]	-9.67639
ꮧꮵꮎꮻ	-9.6769
ꮿꭵ	-9.67723
ꭶꮇꮸꭽ	-9.67766
ꮄꭿꮠꮧ	-9.67809
ꮳꮵ	-9.67986
ꭶꮈꮙꮩꮧ	-9.68108
ꭱꮖ	-9.68151
ꭶꮑ	-9.68229
ꮵꮔꮝꮧ	-9.68352
ꮑꮸ	-9.68526
ꭲᏻꮺ	-9.68793
ꮥꭺ	-9.68912
ꮝꮖꮒꭺꮧ	-9.68929
ꮵꭸᏻꭲ	-9.6894
ꭸꮵꮈꮙ	-9.6904
ꮆꮔꭾ	-9.69198
ꮿꮖ	-9.69397
ꮡᏸꮫ	-9.69413
ᏹꮪ	-9.69469
ꮩꭾ	-9.69931
ꮝꭶꮕꮸ	-9.7006
ᏹꮸ	-9.70146
ᏼꭸ	-9.70322
ꭵꮣ	-9.70598
ꮞꮧ	-9.70665
ᏹꮧꮵ	-9.70703
ꮕꮎ	-9.7077
ꭰᏸꮃꮝꮧ	-9.70914
ꭱꮃꮺ	-9.70914
ꮧꮖꮴꮅ	-9.70914
ꮓꮘꮟ	-9.70919
ꭴꮅꮟꭼ	-9.7092
ꮣꮣꮕꮯ	-9.70924
ꭴꮤꮃꮼꭿꮝꮧ	-9.70978
ꭰꮒꮟᏼꮻꭽ	-9.71009
ꭼꮹꮇꮴꮈ	-9.71039
ꭴꮯꭿᏻ	-9.71113
ꭲꮵꭶꮤ	-9.71125
ꭴꮎꮔꭺꮻꮢ	-9.71143
ꮵꮑ	-9.71173
ᏼꮅ	-9.71278
ꭺꮩꮧ	-9.71463
ꭺꮹꮫꮧ	-9.71742
ꮴꮳ	-9.71923
ᏺꭹ	-9.72262
ꮣꮖ	-9.72657
ꭴꮢ	-9.72778
ꮎꭹ	-9.72985
ꮎꮖ	-9.73096
ꭶꮎꮔꭺ	-9.7336
ꭱꮧᏹ	-9.73448
ꭷꮓꭾ	-9.73462
ꮽꮇꮴ	-9.73629
ꮵꮵ	-9.73641
ꮪꮺ	-9.73739
ꮫꮕꭲꮝ	-9.73761
ꮝꮥꮈꮧ	-9.73801
ꮅꮝꭺꮈꮣꮑꮈ	-9.7399
ꭲꮵꭶꮤꭽ	-9.74043
ꮔꮎꮣ	-9.74069
ꮂꮝꭹ	-9.74097
ꮔꮒ	-9.74206
ꮥꮆꮖ	-9.74228
ꮔꮅꮝꮤꮒꮩꮈ	-9.74362
ꮣꮣꮏꮹꮝꮫ	-9.74362
ꮩᏹꮧꮲ	-9.74362
ꭲᏻꮹꮒꮠꮧ	-9.74366
ꭴꭶꮅꮝꮧ	-9.74366
ꮎꭹꮺꮞꮈ	-9.74369
ꭳꮣꮈ	-9.74372
ꮕꮣᏻꮆꮢ	-9.74383
ꭰꮳꮧ	-9.74402
ꭲᏻꮎꮅꮝ	-9.74416
ꭸꮫ	-9.7454
ꮎꮝꭶꮕꮎ	-9.74554
ꭽꮻꮒ	-9.74635
ꭴꮔꭺꮸ	-9.74806
ꮹꮝꮫ	-9.74975
ꭶꮼꮒꮝꭼ	-9.75232
ꭴꭹꭼ	-9.75254
ꭶꮼꮒꭿꮝꮧ	-9.75646
ꭺꮺꮅꭿ	-9.75882
ꮪꮈ	-9.75907
ꮧꮸ	-9.76084
ꮧꭺ	-9.76442
ꭶꮈꮆ	-9.76613
ꮎꮔꭺꮻꮞ	-9.76631
ꮝꮣꮑꮧ	-9.77345
ꮔꮺ	-9.77472
ꭼꮻᏻ	-9.77633
ꮥꮎ	-9.77807
ꮖꮒꮖ	-9.77934
ꮧꭹꭶᏼꮅꭸ	-9.77935
ꮧꮕꮓꮫ	-9.77936
ꮷꮒꮲꭹ	-9.77936
ꮔꮓꭿᏻ	-9.77936
ꮞꮈꭿ	-9.77984
ꭴꮅꮝꮖꮧꮝꮧ	-9.78093
ꭶꮇꮵ	-9.78199
ꮩꮄ	-9.78333
ꮈꮙꮧᏻ	-9.78432
ꭱꭹ	-9.78697
ꮔꮹ	-9.78735
ꮧꭸꭶꮑꮆ	-9.78922
ꮎꮫꮏꮥ	-9.79237
ꮣꮄꮕ	-9.79279
ꮂꮝꭶ	-9.79315
ꮪꮼ	-9.79462
ꮪꮈꮻꮝꮣꮑꮈ	-9.79602
ꮫꮏꮥ	-9.79657
ꭶꮫꭼ	-9.80165
ꮒꭶꭵꮙ	-9.80268
ꮻꭼꮹ	-9.80452
ꮈꮎ	-9.80737
ꮗꮅ	-9.81222
ꮳꮨ	-9.81343
ꮟᏼꮻꭽ	-9.81549
ꭿꮫ	-9.81576
ꮪꮎꮣꮱꮹꮧꮢ	-9.81637
ꭴꮅꮝꮘꮧ	-9.81637
ꮣꮖꮩꭵ	-9.81637
ꮅꮝꭺꮈꮩꮧ	-9.81639
ꮎꮞꮅꮧ	-9.8164
ꭲꮿꮫꮑꭿ	-9.81643
ꭲꮴꮿꮤ	-9.81645
ꭲꮶꭿᏻ	-9.81664
ꮝꮥꮅꮝꭼ	-9.81673
ꮠꮘꮅ	-9.81685
ꭲꮸᏺꮞꭽ	-9.81691
ꮥꭽ	-9.81701
ꭱꮈ	-9.81705
ꮔꮎꮝꮫ	-9.81748
ꮿꮕꮂ	-9.81863
ꭲꮿꮫꮑꮧ	-9.81864
ꮪꮑꮴꮄ	-9.81872
ꭰꮵꮕꮟꮣꮝꮧ	-9.81897
ꮔꮣ	-9.8202
ꮠꮃ	-9.82078
ꮃꮟ	-9.82098
ꮔꮈ	-9.82178
ꮎꮝꭹꮿꮙ	-9.82341
ꮪᏻꭺꮧ	-9.82547
ꮎꮎꮫꮑꮂ	-9.82703
ꭸᏻꭿ	-9.8272
ꮝꮨ	-9.82769
ꭺꮅᏸꮧ	-9.82771
ꮣꮒꮈꭲꮝꮧ	-9.82818
ꭰꮎꮅ	-9.83351
ᏼꮣ	-9.83352
ꮥꮀ	-9.83376
ꭰꭹꮅ	-9.83543
ꮕꮯ	-9.83607
ꭰꮓ	-9.83647
ᏸꮳ	-9.83806
ꭵꮟ	-9.83872
ꮧᏸꮈ	-9.83883
ꮣᏸ	-9.84035
ꮎꮒꭵꮙ	-9.84115
ꮹꮒ	-9.84207
ꭻᏼꭱꮧ	-9.84397
ꮎꮙ	-9.8459
ꮜꮫ	-9.84804
ꮲꮧ	-9.85157
ꮽꮆꮞ	-9.85483
ꮴꭶꮘ	-9.85484
ꮷꮈꮻꮝꮣꮑꭿ	-9.85485
ꭲꮵꮘᏹ	-9.85485
ꭴꮥꮿꮩꮧ	-9.85487
ꭲᏻꮅꮝꮣꮑꮧ	-9.85495
ꭺꮳꮄ	-9.85502
ꭴꮎꮩꮄꮀꮢ	-9.85518
ꮃꮝꮣꮈ	-9.85576
ꭼꮒꮧᏻ	-9.85605
ꮆꮋ	-9.85626
ꮪꮓ	-9.85643
ꮧꭸꮻ	-9.85678
ᏹꮩ	-9.85685
ꭰꮖꮫꭶꮕꭹ	-9.85695
ꭲꭶꭶꮫ	-9.85697
ꭰꮖꮣꮕꮩ	-9.85745
ꮒꮩꮈ	-9.85892
ꭲꮵꮩꮣ	-9.85934
ꮵꮒꭶꮺ	-9.86004
ꮕᏺꭿ	-9.86028
ꭱꭾꮝꮧ	-9.86214
ꮥꭼꮹ	-9.86239
ꭰꮒꭺꭲ	-9.86261
ꮽꮎ	-9.86303
ꭺꮅᏸꮝ	-9.86561
ꮔꭺꮻꮝ	-9.86588
ꮕꮣᏻꮅꮝꮩꮤꮕ	-9.86595
ꭴꮓꮄ	-9.86667
ꭰꭲꮢ	-9.86877
ꮑꭾ	-9.86888
ꮃꮕꭿ	-9.86994
ꭴꮈ	-9.87456
ꭱꭿꮝꮧ	-9.87475
ꮤᏺꮞꮈ	-9.8766
ꮻꮧ	-9.87866
ꮵꮝꮖ	-9.87943
ꮝꭺꭿ	-9.88022
ꮎꮝꭹꮙ	-9.8844
ꮳꮴꮅ	-9.88921
ꭸᏼ	-9.89084
ꮿꮕꮫ	-9.8946
ꭷꮓꭿᏸꭹ	-9.89483
ꮕꮫꭹꮕꮟꮫ	-9.89483
ꭴꮼᏸꮒ	-9.89503
ꭺꮲꮕꭿ	-9.8955
ꮞꭾ	-9.89555
ꮕꮧꭶꮅꮝꮩꮧꮝꭺ	-9.89558
ꭴꮒꮼꮒꭿꮝꮧ	-9.89578
ꭰꮅꮝꮖꮧꮝ	-9.89643
ꭰꮝꭶ	-9.89647
ꮅꭾꮅꮝꮧ	-9.89732
ꭰᏺꭹ	-9.89901
ꭴꮪꮅꮝꭸ	-9.90014
ꮩꭽ	-9.90046
ꭵꭶ	-9.90077
ꮤꮃ	-9.90134
ꮆꭿꮝꮧᏹ	-9.90174
ꮲꮘꮝ	-9.90264
ꭷꮑꭲꮝꮧ	-9.90269
ꭴꮕꮟꮣꮝꮧ	-9.90334
ꭿꭰꮝꭹꮒ	-9.90504
ꮰꮎꮝꮧ	-9.91065
ꭲꮕ	-9.91382
ꭸꮒ	-9.91413
ꮹꮎ	-9.91491
ꮎꮔꭺꮻꮝ	-9.91574
ᏼꮫ	-9.91635
ꭴꮣꮕꮦ	-9.92202
ꮵꮻ	-9.92524
ꮣꮡꮿ	-9.92656
ꮵꮑꭼ	-9.9266
ꮓꮑꮄ	-9.92829
ᏺꮁꮢ	-9.93088
ꮈꮙꮩꮧ	-9.93147
ꮻꮝꮧ	-9.93283
ꮪꮒꮈꮻꮝꮣꮑꮂ	-9.93651
ꭶꮿꮇ	-9.93671
ꭴꮺꮏꭲ	-9.9369
ꮽꮆꮢ	-9.93721
ꮡꮣꮅ	-9.9373
ꮧꮣꮄꮒꮝꭼ	-9.93752
ꭰꭶꮤ	-9.93771
ꮥꭲ	-9.9387
ꮹꮫꮧᏹ	-9.94276
ꮳꮣꮕꮫ	-9.94349
ꮔꮹꮑꮈ	-9.94389
ꭴꮑꭼ	-9.94395
ꮵᏸ	-9.94558
ꮔꭺꮻꮢ	-9.94686
ꮩꭾꮝꮧ	-9.9472
ꮝꭶꮕꭲꮝꮧ	-9.94764
ꭵꭿꮝꮧ	-9.94836
ꮒꮧᏻ	-9.94886
ᏸꭲ	-9.95204
ꭴꮣꮕꮦꮈ	-9.95301
ꮥꮕ	-9.95395
ꮣꮎꮣ	-9.95601
ꮇꮴꮧ	-9.9573
ꭲꮝ	-9.96154
ꭰꮖꮣꮕ	-9.9637
ꮯꮜ	-9.96402
ꮷꮄ	-9.96694
ꭲᏻꮣꮄ	-9.9681
ꭲꮳꮴꮅ	-9.97034
ꭶꮕꮕ	-9.97207
ꮹꮧꮢ	-9.97232
ꮑꮂꮎ	-9.97256
ꭲꮵᏸꮈ	-9.97272
ꭰꮣꮑ	-9.97276
ꮣꮕꮦꮝꭼ	-9.97301
ꭲꭶꮺ	-9.97326
ꮷꮑ	-9.97338
ꮃꮻꮞ	-9.97681
ꮅꮝꭺꮈꮤꮕꭿ	-9.97696
ꭴꮣꮕꮢ	-9.97883
ꭰꭹᏸꮈ	-9.97904
ꭼꮹꮪꮻꮫ	-9.97997
ꮉꮟꮩꮒ	-9.97997
ꮧꮥᏺꮧ	-9.97997
ꮣꮥᏺꮂꮝꭼ	-9.97998
ꭴꮳꮄꮝꮧ	-9.97998
ꮕꭶꮝꭺꭿ	-9.98003
ꮝꭶꭲꭾꮝꮧ	-9.98011
ꮎꮒꮺꮝꭼ	-9.98013
ꮷꮒꮈꮻꮝꮣꮑꮧ	-9.98018
ꭼꮹꮝꮣꮹꮫ	-9.98027
ꮵꮝ	-9.98037
ꭰꭶꮨꮟꮧꮲ	-9.98073
ꮷꮎꮴꮅ	-9.98082
ꮲꮕ	-9.98083
ꮵꮎꮭꭵꮎ	-9.98117
ꭶꮅꮶꮫ	-9.98147
ꭸꮵꮕꮟꮣꮝꮧ	-9.98149
ꭴꮩꭿᏻꮢ	-9.98189
ꮔꮅ	-9.98267
ꮧꮉꮧ	-9.98402
ꮱꮧꮝꭹ	-9.98418
ꭰꭷꮅꭲ	-9.98474
ꮹꮨꮝ	-9.98477
ꮃꮑ	-9.98745
ꮮꭶ	-9.98775
ꭺꮞ	-9.98787
ꭴꮑꮸꭹ	-9.99004
ꮪꮣꮄꮝꮩꮧ	-9.99006
ꭺꮧᏹ	-9.99047
ꮇꮸ	-9.99128
ꭵꮝꭹ	-9.9925
ꮷꮹ	-9.99298
ꮟꮖ	-9.9933
ꮜꮅ	-9.99504
ꭲꮸꮿ	-10.0006
ꮕꮣꮥ	-10.0013
ꭶꮅꮝꮣꮧꮝ	-10.0033
ᏸꮈꮞ	-10.0041
ꮅꮝꮣᏼꮂ	-10.005
ꭰꮵꮈᏹ	-10.0054
ꮒꮜ	-10.0055
ꭰꮝꮣᏹ	-10.012
ꭺꮲꮢ	-10.012
ꮝꮖꮒꭺꮩꮧᏹ	-10.013
ꮼꭿ	-10.013
ꭴꮎꮅꭺ	-10.0163
ꭲꮳꮣꮩꮅꮝꮧ	-10.0201
ꭶꮩꭸ	-10.0228
ꮶꭹ	-10.0238
ꮒꭶꮺꮝꭸ	-10.0239
ꮎꮫꮑꭾ	-10.0242
ꮸᏸꮃꮧꮩ	-10.0251
ꮒꮪꭹꮸꮒꮢ	-10.0254
ꮝꭶꭲꮂꮎ	-10.0255
ꮕꮹꮝꮧ	-10.0255
ꮡꮎꮄ	-10.0256
ꭴꮆꭹꮈ	-10.0256
ꭰꮒꭹꮟ	-10.0257
ꮽꮇꮸ	-10.0258
ꭴᏺꮁꮞ	-10.0259
ꮷꮈꮻꮝꮣꮑꮧ	-10.026
▁--	-10.0266
ꭴꮎꮴꮅꭺꭿ	-10.0268
ꮜꮊꮅ	-10.0269
ꭰꮣꮕꮣꮧꮝꮧ	-10.0274
ꭴᏸꮈꮕ	-10.0278
ꭰꮒꮕ	-10.0296
ᏻꮞꮝꮧ	-10.0298
ꭶꮨꮄ	-10.0317
ꭴꮣꮕꮫ	-10.0325
ꮧꮎꮣ	-10.0335
ꭶꮹꮢ	-10.0343
ꮩꭹ	-10.0356
ꭸᏻꮧ	-10.0402
ꮝꮣꮹꮫꮞ	-10.0419
ꮡᏼ	-10.0422
ꭺꭿᏻ	-10.0433
ꮶꭿᏻ	-10.045
ꮝꮧꮝꭼ	-10.0458
ꭰꮎꮫꭹꮝ	-10.0462
ꮒꮥ	-10.0492
ꭸꮅ	-10.0492
ꮣꮑꮈ	-10.0539
ꭶꮩꮅ	-10.0599
ꮩꭶ	-10.0625
ꮝꮥꮅ	-10.064
ꮫꮑꮂ	-10.068
ꮎꮔꭺꮻꮞꮈ	-10.0691
ꮥꮿꮩ	-10.0701
ꭳꮳꮅꮕꮯ	-10.073
ꭷꮃꮹꮧꮢ	-10.073
ꮣꮰꭿꮝꮫ	-10.0731
ꮥꭸꮜꮧꮢ	-10.0731
ꮥꮳꮩꭵ	-10.0731
ꮥꮵꮈꮻꮝꮣꮑꮂ	-10.0731
ꭴꮥꮀꭿꮝꮧ	-10.0731
ꭱꮘꮜ	-10.0731
ꭴꭷꮫ	-10.0732
ꮥꮿꮤꮑ	-10.0732
ꮸꮝꭹꮓ	-10.0732
ꭲꮧꭶꮤꭽ	-10.0733
ꭲꮜꮿ	-10.0733
ꭼꮹꮇꮴꮄ	-10.0733
ꭱꮩꮂ	-10.0734
ꮸꮧꮣꮄꮂꮝ	-10.0737
ꭰꮵꭶꮨꮧꮝꮧ	-10.0738
ꭴꮎꮅꮝꮣᏼꮧ	-10.0742
ꮵꭺꭵ	-10.0745
ꭲᏻꮕꮑꮧ	-10.0749
ꭰꮦꮅꮩ	-10.075
ꮧꭶꮩꮅ	-10.0751
ꮄꮒ	-10.0758
ꮰꭰ	-10.076
ꭴꮩ	-10.0766
ꭴꮅꭾꮅꮝꮧ	-10.077
ꮷꮣꮄ	-10.0778
ꮣᏸꮵ	-10.0784
ꭶꮩꭼ	-10.0792
ꮈꮻꮝꮣ	-10.0802
ꮺꮅꮞ	-10.0823
ꮳꮣꮕꮦ	-10.0856
ꮇꭶ	-10.0881
ꮵꮓꭾ	-10.0881
ꭺꭿꮝꭹꮒ	-10.0889
ꮒꭼꮹꮺꮞ	-10.0891
ꮕꮧꭶꮅꮝꮩꮧ	-10.0899
ꭵꮭꮝꭹꮒ	-10.0903
ꮼꮒꭿꮝꮧ	-10.0909
ᏺꮺꮃ	-10.0952
ꭸᏻꮢ	-10.0978
ꮝꮥꮅꮝꭹ	-10.0986
ꮧꮲ	-10.1005
ꮫꮕꭲꮝꮣꮑ	-10.1013
ꮧꭸꭶ	-10.1033
ꮎꭿᏻꮙ	-10.1039
ꮩꮅꮸ	-10.1069
ꮫꮑꮧᏹ	-10.1077
ꭴꮣꮕ	-10.1091
ꮷꮎꮝꮧ	-10.1096
ꮒᏼꭿ	-10.1123
ꭴꮎꮣꮕꮦ	-10.1125
ꮓꭾꮝꭼ	-10.1126
ꭲꮳꮫ	-10.1137
ꭶꮩꭵ	-10.1152
ꭰꮒꮩꮎ	-10.1156
ꭴꮑꮕ	-10.1161
ꭰꮖꮪꮅ	-10.1172
ꮅꮒꭹꮫ	-10.1198
ꮄꭿꮜꮕ	-10.1219
ꮻꮣ	-10.123
ꮡꮎꮣꮱꭹ	-10.123
ꭰꮝꭺꮅ	-10.1232
ꮒꮈ	-10.1232
ꭴꮅꮟꭹ	-10.1232
ꮔꮒꭼꮻᏻꮜꮥꭹ	-10.1232
ꭴꮼꮲꮕ	-10.1233
ꮪꮒꮈꮻꮝꮣꮑꮈ	-10.1233
ꭴꮅꮑꮸ	-10.1235
ꭰꮎꮅꭾꮅ	-10.1235
ꭴᏺꮁꭿꮝꮧ	-10.1236
ꮒꮧꭵ	-10.1248
ꭰᏺꮁꮝ	-10.1248
ꭴꮺꮕꮞ	-10.1252
ꮕꮣꮣ	-10.1252
ꮒᏼꭾ	-10.1255
ꮧꮣꮄꮂꮝ	-10.1264
ꭴꮹꮢꭿᏻ	-10.1266
ꮴꮝꮩ	-10.1267
ꭴꮑꮃ	-10.1271
ꮪꭶ	-10.1287
ꭰꮅꮝꮥꮈꮩꮧ	-10.1296
ꭴᏸꭿ	-10.1297
ꭴꮺꮨ	-10.1297
ꭺꭿᏻꮂꮝꭹ	-10.1301
ꮵꮑꭶ	-10.1303
ꮣꮿꭲ	-10.131
ꭴꮒꭹꮢ	-10.1316
ꭿᏻꮂꮝꭼꮎ	-10.1329
ꮵꮺꮞꮈ	-10.136
ꭴꮎꮰꮎꮝ	-10.1361
ꭴꮓꭿᏻꮕ	-10.1368
ꮕꮟꮩꭿ	-10.1377
ꭸᏻꭽ	-10.1377
ꮫꭶꮑ	-10.1381
ꭺꮃ	-10.1433
ꭲꮳꮪꮅ	-10.1464
ꮧꮝꮧᏹ	-10.1479
ꭰꭹꮟ	-10.1483
ꭶᏸꮵ	-10.1487
ꮑꮢ	-10.1487
ꭳꮒᏹ	-10.1494
ꮞꮈꭹ	-10.1538
ꭴꮄꮕ	-10.154
ꮪꮩ	-10.1546
ꭴꮼꮈ	-10.1553
ꭰꮒꮑ	-10.1592
ꭸꮵꮫ	-10.1607
ꮯꮆꮝꮧ	-10.161
ᏺꮂꮝꭹ	-10.1622
ꮅꮣꮝꮧ	-10.1632
ꭴꮼꭿᏻ	-10.1641
ꮧꭶꮪꮂ	-10.1667
ꮣꭲꮕ	-10.1669
ꭼꮝꭶ	-10.1754
ꭴꮎꮣꮴꮅꮫ	-10.1757
ꮃꭸꮿꮫ	-10.1757
ꭴꮎꮑꮃꭹ	-10.1757
ꮔꮫꮑꮄ	-10.1757
ꭴꮝꮖꮈꮂ	-10.1757
ꭴꮪꮈꮧ	-10.1757
ꭴꮑꮲꮤꮕ	-10.1757
ꮔꮎꮫꮕ	-10.1757
ꮒꭼꮞꮂ	-10.1758
ꭺꭿꮧᏻ	-10.1758
ꭲꭸꭼꮑ	-10.1758
ꭱꮟᏹ	-10.1759
ꭱꮟꭹ	-10.176
ꭶꮅꮶꮥ	-10.1764
ꮪꮣꮄꮝ	-10.1765
ꭲꮿꭼꮑ	-10.1769
ꮑꭼ	-10.1772
ꭴꮆꮠꮕ	-10.1786
ꭰꮒꮓꭾ	-10.18
ꮻꮒ	-10.1801
ꭴꮒꮳꮫꭹ	-10.1804
ꮧꮝꭸꭲ	-10.1805
ꮵꮔꮺꮞ	-10.1824
ꮶꭿᏻꮂꮝ	-10.1873
ꭴꮥꮕ	-10.1884
ꭴꮿ	-10.189
ꮒꮳꮫꮑꮈ	-10.1896
ꭴꮒꮳꮤ	-10.1911
ꭲᏻꮅꮝ	-10.1923
ꮧꭻꭺ	-10.193
ꭴꮎꮫꮕ	-10.1942
ᏹꮅꮩ	-10.1949
ꭴꮎꮕ	-10.1961
ꮝꭶꮕꮴ	-10.1981
ꭴꮎꮫꮑ	-10.1985
ꮻꮸᏺꮺꮃ	-10.1988
ꮈꮙꮩꮧᏹ	-10.2006
ꮮꭹ	-10.2026
ꭰꮒꮒ	-10.2052
ꮣꮒꮈꮴ	-10.2062
ꭴꮓꭿᏻ	-10.2084
ꮒꮳꮫꮑꮂ	-10.209
ꮕꮤ	-10.2096
ꮸᏺꮺꮃꮑ	-10.2096
ꮥꭸꮝꮧ	-10.2114
ꮳꮒꮓ	-10.2146
ꮸꮣ	-10.2154
ꮕꭶ	-10.2155
ꭺꮅᏸꭵ	-10.216
ꮴꮃ	-10.2168
ꮒꮸꮑ	-10.2178
ꭳꮳ	-10.2181
ꮅꮝꭶꮝꮩꮫ	-10.2182
ꭶꮑꮃ	-10.2217
ꮦꮝꮧ	-10.2225
ꭱꭶ	-10.2258
ꮷꮑꮴ	-10.2261
ꮧꮤꮝꮧ	-10.2277
ꭴꮗꮣꮈ	-10.2312
ꮽꮒꮆꮞ	-10.2312
ꮷꮃꮟꮥꮒ	-10.2312
ꮕꮷꮅꮝꮩꮤꮕ	-10.2312
ꮧꮯꮆꮝꮤꮕꭿ	-10.2312
ꭼꮹꮯꮝꮧ	-10.2312
ꭴꮒꮓꮥꮎ	-10.2313
ꮔꮎꮫꮑꮈ	-10.2313
ꭲꮳꮅꮕꮯ	-10.2313
ꮪꮃꮝꭼ	-10.2313
ꭴꮅꭾꮅꮸ	-10.2313
ꮏꭵ	-10.2313
ꮅꮟꮎꭿꮝ	-10.2317
ꭰꭻᏼꮩ	-10.2318
ᏻꭺꮣꮑ	-10.2318
ꮪꭷꮏꮕ	-10.2319
ꭵꭿ	-10.232
ꭰꮒꭶꮤꭿ	-10.2324
ꭰꭹꮑꮸ	-10.2325
ꭴꮇ	-10.2338
ꭴꮒᏼꮝꮧ	-10.234
ꮎᏸꮝꭼꮎ	-10.2346
ꮪꮑꮴꮈ	-10.2346
ꮣꮕꭶꮈꮫ	-10.2351
ꮧꮳꮣꮕꮩ	-10.2354
ꮩꮄꮫ	-10.2363
ꭶꮣꮕꮦꮝꭼ	-10.2363
ꮷꮘ	-10.2373
ꭶᏺꮅ	-10.2374
ꮺꮞꮈ	-10.2375
ꮑꮯᏼꮝꮧ	-10.2377
ꮪꮕꮞ	-10.2391
ꮣꮏꮹ	-10.2408
ꮝꮣꮑꮈ	-10.2443
ꮹꮎꭶꮃ	-10.2484
ꮴꮃꮧꮩꭾꮝꮧ	-10.2501
ꮨꮓꮈ	-10.2522
ꮪꮑ	-10.2524
ꭳꮟ	-10.2533
ꮣꮳ	-10.2555
ꮧꭶꮈꮙꮧ	-10.2561
ꮒꮻ	-10.2567
ꭿᏸ	-10.2654
ꭸꮵꮿꮕ	-10.2666
ꭴꭺ	-10.2678
ꭴꮺꮇꮕ	-10.2696
ꮰꮿꮝꮧ	-10.2699
ꮅꮇ	-10.2708
ꮎꮣꮕꮯ	-10.2712
ꮩꭲ	-10.272
ꭿꮞꮧᏹ	-10.2735
ꭶꮤꭿ	-10.274
ꭴꮕꮢꮙ	-10.2781
ꮾꮣ	-10.279
ꮩꭼ	-10.2825
ꭲꭼꮹꮅꮝ	-10.2837
ꭺꭿᏻꮂꮝ	-10.2858
ꮴꮅꮞ	-10.2865
ꮑꭻꮵꮫ	-10.2867
ꮝꭶꮈ	-10.287
ꭴꭼꮻᏻ	-10.2877
ꮎꮕꮑ	-10.288
ᏺꮂ	-10.2885
ꭶꮤꮀ	-10.2896
ꭰꮪꭲꮝꮫ	-10.2901
ꭰꮰꮑꮧ	-10.2901
ꭼꮹꮫꮫꮑ	-10.2901
ꮡꮣꮄꭹ	-10.2901
ꮧꮒꭸꮻ	-10.2901
ꭴꮫꮫꮑ	-10.2901
ꭴꮔꭺꮴ	-10.2901
ꮎꮔꭺꮻꮟ	-10.2901
ꭲꮿꮎꮫꮑ	-10.2901
ꭴꮑꮇꮕ	-10.2902
ꭴꮎꮻᏹ	-10.2902
ꮽᏼꮄ	-10.2903
ꭰꮎꮣꮕꮦꮝꭼ	-10.2903
ꮎꭼꮑꮈ	-10.2904
ꮧꮒꭶꮩꮅ	-10.2905
ꮧꮒꮟꮧ	-10.2906
▁.]	-10.2906
ꭲꭼꮢ	-10.291
ꮣꮅꮑꭿ	-10.2914
ꮅꮒꭼꭼ	-10.2915
ꭲꮵꮝꭶꮕꮸ	-10.2916
ꮕꮼꮧ	-10.2918
ꮶꭿᏻꮢ	-10.2923
ꮪꮄꮑ	-10.293
ꮡꮅ	-10.2932
ꮷꮑꮵ	-10.2942
ꭰꭺꮞ	-10.2946
ꮅᏸꭲꮆꭿꮝꮧ	-10.2947
ꭰꭹꮅᏺꭲꮝꮧ	-10.2967
ꮻꭼ	-10.297
ꭰꮒꮩꮎꭵ	-10.2991
ꮅᏸꭲꮆ	-10.2995
ꭰꮒꮑꭼ	-10.3006
ꭰꮑꮩꮂ	-10.3009
ꮷꮳ	-10.3014
ꮅꮝꮣᏼꮂꮝꭼ	-10.3021
ꭺꮹꮫ	-10.304
ꭰꮣꮩꮅꮝꮧ	-10.3043
ꮉꮧ	-10.3048
ꮧꮵᏸꮈ	-10.3049
ꭵꮮꮝꮧ	-10.3054
ᏺꮝꮩꮣꮑ	-10.3066
ꮝꮣᏼ	-10.3075
ꭰꮒꮿ	-10.308
ꮕꭲꮝꮧ	-10.3092
ꮵꭺꭸ	-10.3105
ꮻꮳ	-10.3106
ꮵꭼ	-10.3112
ꮕꮣꭶꮅꮝꮩ	-10.3166
ꮻꮿ	-10.3174
ꮸꮑꮅ	-10.3212
ꮅꮩꭿ	-10.3289
ꮏꮥ	-10.3309
ꮳꮅꮝꮣꮑ	-10.331
ꮧꮣꮼꮝ	-10.3325
ꭴꮕꮞ	-10.3325
ᏼꮂ	-10.3333
ꮣꭹꮈꮻꮝꮣꮑ	-10.3349
ꮄꮕꮂ	-10.3384
ꮔꭶ	-10.3392
ꮵꮕꮟꮣꮝꮧ	-10.3393
ꮿꮕꮩ	-10.3431
ꭲꭹꮝꮥꮅꮝ	-10.3435
ᏸꮈꮧ	-10.3436
ꮓꭾꮝꭹ	-10.3441
ꮝꮖꮒꭺꮫ	-10.3465
ꮑꮆꮩꮧ	-10.3483
ꮒꮼꮒꮝ	-10.3501
ꮊ	-10.3502
ꮒꮳꮫꮕ	-10.3514
ꮤᏺꮞꮄ	-10.3514
ꭰꮁꮝꮥꮝꮧ	-10.3526
ꮔꮣꮅꮣꮝꮫꮎ	-10.3526
ꭼꭽꮇᏼ	-10.3526
ꮬꮟꮫꭱ	-10.3526
ꮥꮉꮝꭶ	-10.3526
ꭴꮎᏸꭿꮝꮧ	-10.3526
ꭰꮒꮼꮒꮝꭼ	-10.3526
ꮒꮪꮹꮑꮈ	-10.3526
ꮟꮜꮅᏹ	-10.3526
ꭸꮖꮒ	-10.3526
ꭰꭺꮔ	-10.3526
ꮵꭴꮝꮥꮞ	-10.3527
ꭲꮵꮿꮻꮝ	-10.3527
ꮻꮪꮿꮕꮂ	-10.3527
ꮷꮎꮫꮠꮕꭿ	-10.3527
ꭰꮒꮻꮕ	-10.3527
ꭲꮃꭺ	-10.3528
ꮤꮇꭹꮝ	-10.3529
▁;]	-10.3529
ꮽᏼꮈ	-10.353
ꮒꭸꭼꮑ	-10.353
ꮧꮷꭺ	-10.3531
ꮝꮥꮈꭿꮩ	-10.3532
ꮫꮫꮕꭹ	-10.3533
ꭶꮦꮓ	-10.354
ꭰꮕꮧꮝꭼ	-10.3542
ꮧꮵᏺꮅ	-10.3545
ꭰꮵꮓꭾꮝꭼ	-10.3553
ꭴꮑꭻꮵꮫ	-10.3561
ꮧꮝꭸ	-10.3566
ᏻꮆꮧ	-10.3569
ꮒᏼꮂꭹ	-10.3574
ꮺꮞꮅ	-10.3578
ꮟꮣꮑꮈ	-10.3583
ꮎꮔꭺꮻꮢ	-10.3602
ꮧꮵꮈꮻꮝꮣꮑ	-10.3609
ꭼꮺ	-10.3631
ꮽꮒꮇꮴ	-10.3633
ꮣꮫꭹ	-10.3643
ꮵꮣꮒ	-10.3644
ꮔꮫꮕ	-10.365
ꭰꭼꮧꮝꭼ	-10.3655
ꭼꮹꭺꮂ	-10.3663
ꮯᏼ	-10.3677
ꭵꮨ	-10.3687
ꮫꮤꮒ	-10.3693
ꮝꮖꮒꭺꮤꮕ	-10.3714
ꮷꮒᏺ	-10.3747
ꮅꮝꭼꮎ	-10.3776
ꭰꮑꭽ	-10.3791
ꭲꮳꮅꮝ	-10.3797
ꮪᏺ	-10.3809
ꭱꮩꭾ	-10.3839
ꭸꮵꮝꮥꮈꮧ	-10.3843
ꮈꮙꮤꮕ	-10.3846
ꭶꮆꮔꭾ	-10.3856
ꭴꮫꮑ	-10.3862
ꭰꮑꭾ	-10.3871
ꮥꮀꭿꮝ	-10.3922
ᏺꮅꮈ	-10.3954
ꭴꮎꮣꮕ	-10.3958
ꮩꭿᏹ	-10.3973
ꭴꮑꮅ	-10.3983
ꮧꭼꮹꮎ	-10.3994
ꮣꮰ	-10.3998
ꮆꮠꮕ	-10.4016
ꭺꮤꮕ	-10.402
ꮃꮋ	-10.4035
ᏹꮩꭶ	-10.406
ꭶꮕꭼ	-10.407
ꭿꭶꮤꭽ	-10.4072
ꮵꭺꮹꮨ	-10.411
ꮣꮑꮂ	-10.4117
ꮝꮙ	-10.4139
ꮃꮝꮣ	-10.4148
ꮵꮹꮫꮂ	-10.4169
ꮔꮬꮟꮫꮢꮎ	-10.4192
ꮣꮯꮆꮝꮫ	-10.4192
ꭶꮎᏸꭿꮝꮧ	-10.4192
ꭴꮎꮄꮕꭾ	-10.4192
ꮥꭶꮪꮹꮧꮢ	-10.4192
ꮧꮝꮣꮣꮕꮯ	-10.4192
ꮪꮣꮥꮻꮢ	-10.4192
ꭴꮺꮅꭿꮝꮧ	-10.4192
ꭱꮙꭿᏻ	-10.4192
ꮒꭺꭿꮈꮎ	-10.4193
ꮜᏹꮃ	-10.4193
ꭰꮤꮄꮢ	-10.4193
ꮔꮢꮈ	-10.4194
ꮣꮩꮅꮝꮤꮑ	-10.4194
ꮕꮣᏻꮒꮆ	-10.4194
ꭲꮿꮖꮫꮑꮧ	-10.4194
ꮫꮝꮖꮈꭿ	-10.4194
ꭴꮺꮩꮈ	-10.4196
ꭰꮅꮝꮪꮆ	-10.4202
ꮃꮟꮃ	-10.4205
ꮕꮣᏻꮎꮅꮝꭺꮈꮤ	-10.4207
ꮧꭸꮵꭴꮝꮥꮞꮈꭿ	-10.4207
ꭶꮅꭱꮅ	-10.4208
ꭴꮑꮕꮞ	-10.4209
ꭴꮳꮫ	-10.4212
ꭴꮝꮪꭲꮢ	-10.4214
ᏹꮕꭶ	-10.4224
ꭰꮑꮩꭿ	-10.4224
ꮼꮑꮧꮝ	-10.4227
ꮣꮕꭶꮈ	-10.4235
ꭲꮸꮤ	-10.4239
ꭰꮅꮝꭺꮈꮤꮕꭿ	-10.4239
ꮵꭺꮹꮫ	-10.4241
ꭰꮎꮫ	-10.4241
ꮥꮱꭼ	-10.4242
ꭴᏼꮈ	-10.4244
ꮶꮣꮒ	-10.4249
ꭰꮝꭶꮕꮸ	-10.4254
ꭲꭼꮑꮧ	-10.4267
ꮪꮎꮅ	-10.427
ꭴꮝꮖꮒꭺꮧᏻ	-10.4278
ꭲꮳꮕ	-10.4305
ꮡꮆ	-10.431
ꮧꮴꮵ	-10.4321
ꮆꮫ	-10.4321
ꭴꮼꮅ	-10.4352
ꭱꮈꭹ	-10.4361
ꭲꮵꭺꮹꮨ	-10.4362
ꭹꮒᏼ	-10.4362
ꮈꮙꮥꮝꮧ	-10.4413
ꭴꭸᏻꭿ	-10.4415
ꮣꮣꮑꮈ	-10.4416
ᏺꭿꮞꮄ	-10.4422
ꮣꮄꮂꮝ	-10.4425
ꭰꮛꮢꮙ	-10.4435
ꭲꮵᏼ	-10.4437
ꮕꮹꮕ	-10.4441
ꮣꮕꮤ	-10.4463
ꮎꭵꮒ	-10.4471
ꮄꮒꮩꮂ	-10.4483
ꭰꮣꮕꮩꮝꭹꮒ	-10.4505
ꮎꮎꮫꮑ	-10.4517
ꮕꮝꮣ	-10.452
ꮵꭹꮅᏺ	-10.4581
ꭴꮓꭾꮈ	-10.459
ꮪꮓꮈ	-10.4599
ꮔꭺꮻꮞ	-10.464
ꭷꮈ	-10.4677
ꮎꮄꮕ	-10.4681
ꭰꮝꮪ	-10.4731
ᏻꭺꮧ	-10.4733
ꮪꭺꮂ	-10.4749
ꭰꮑꮩꭾ	-10.4757
ꭲꮵꮤᏺ	-10.4774
ꮧꮤꮝ	-10.4787
ꮻꮩ	-10.4792
ꮑꮳ	-10.4794
ꮧꮳꮴꮅ	-10.4807
ꭶᏼꮅꭸ	-10.4845
ꮡᏸꮢ	-10.4858
ꮝꭶꮕꮎ	-10.4878
ꮖꮅꮟ	-10.488
ꮥꮨᏼ	-10.4882
ꭰꮒꮜꮪꮟ	-10.4907
ꮻꮸꮇꮴꮧ	-10.4907
ꭴꮒꮗꮣꮈ	-10.4907
ꭴꮜꭿꮈ	-10.4907
ꮪꮎꮩꭵ	-10.4907
ꮼꭹꮇꮸ	-10.4907
ꭴꮎꮪꮅꮝꭼ	-10.4907
ꮳꮤꭶ	-10.4908
ꮷꮓꮡꮆ	-10.4908
ꮫᏻꭸꮧ	-10.4908
ꭶꮎꮔꭺꮻꮝꭺ	-10.4908
ꮶꭿᏻꮞꮝꮧ	-10.4909
ꭴꮒꭼꭵꮝ	-10.4909
ꮱꮤꮒ	-10.4914
ꮧꮤꮂ	-10.4914
ꮠꮲꭲꮝꮩꮧ	-10.4915
ꭲꭹꮝꭶꮕꮸ	-10.4915
ꭰꮣᏸꮝꭹ	-10.4919
ꭴꮎꮃꮕꭿ	-10.492
ꭰꮑꮲ	-10.4922
ꮆꮠꮒ	-10.4924
ꭴᏼꮝꮧ	-10.4924
ꭰꮸꮝꮩꮧ	-10.4928
ꮷꮣꮕꮫ	-10.4928
ꮧꮒᏸꮈ	-10.4931
ꭰꮣᏺꮑ	-10.4935
ꭷꮓꭾꮝꭹ	-10.4937
ꭴꮎꮫꭶꮑ	-10.494
ꮵꮒꮳꮫꮕ	-10.494
ꮹꭻꮧ	-10.4945
ꭴꮆꮢꮝ	-10.4947
ꭴꮕꮟꮩꭿ	-10.4954
ꭳꮵꭶꮤꭽ	-10.4958
ꭲꮷꮹꮑ	-10.4962
ꮣꮻꮢ	-10.4963
ꭴꭶꮎ	-10.4979
ꭴꮔꮼꮝ	-10.4988
ꮒꭺꭾ	-10.4992
ꭰꮣᏸ	-10.5015
ꭰꮫꮕꭲꮝ	-10.5016
ꮣꮋ	-10.5029
ꭰꮖꮪꮅꮝꭼ	-10.503
ꮄꮒꮣꮝꮧ	-10.5045
ꮦꮅꮩ	-10.5051
ꭻꮣꮄ	-10.5054
ꮅꮵꮩꮑ	-10.5065
ꮴꮅꭿꮝ	-10.5074
ꮆꮈ	-10.5082
ꭴꮑꮴꮄ	-10.509
ꮣꭹꮈꮻꮝꮣꮑꮂ	-10.5115
ꭴꮎꮫꭶꮕꭿ	-10.5126
ꮓꭾꮧ	-10.5128
ꮧꮑꮂ	-10.5144
ꮣꮕꮣꮧꮝꮧ	-10.5147
ꮝꮧꮝꭸꭲ	-10.5175
ꮩꭹꮿ	-10.5181
ꮣꮞꭺꭹꮝ	-10.5183
ꮷꮢ	-10.52
ꮑꭲꮝꮣꮑ	-10.5213
ꭶꮩꭵꮢ	-10.5254
ꭷꮓꭾꮝꭼ	-10.5267
ꭲꭹꮑꮈ	-10.5288
ꮳꮩꮄꮀ	-10.5299
ꮪꮒᏺ	-10.5351
ꭲᏻꮫꮑ	-10.536
ꮒꭼꮑꮂ	-10.5386
ꮫꮒꮟ	-10.5399
ꮳꮪꮅꮝꭼ	-10.5474
ꮵꮇꭹ	-10.5506
ꮅꮩꮂ	-10.5538
ꮢꭶꮈ	-10.5602
ꭻꭺꮣ	-10.5609
ꮴꮘ	-10.5613
ꭲᏻꮫꮑꮧ	-10.5617
ꮦꮈꮕ	-10.5649
ꮅꮝꮖꮧꮝ	-10.5662
ꮪꮑꮄ	-10.5669
ꮣꮒꮈꮸꭿ	-10.5672
ꭰꮒꭶꮤꮏꭲ	-10.5676
ꭴꮝꮖꮈꭿꮧ	-10.5676
ꮕꮣꭶꮅꮝꮤꮒ	-10.5676
ꮥꭶꮃꮻꭵ	-10.5676
ꭰꮣꮺꮅꭹꮝ	-10.5676
ꭴꮬꮕꮫ	-10.5676
ꭶꮓꮝꭹꮝꭹ	-10.5676
ꮪꮣꮨꮎꭵ	-10.5676
ꭰꮧꮢꮝꮧ	-10.5676
ꮥꭴꮄꮤꮕ	-10.5676
ꭰꭶꮨꮟ	-10.5676
ꮧꮒꮀꮅ	-10.5676
ꭴꮹꭸꮻ	-10.5676
ꭰꮯꮝꮫ	-10.5676
ꭴꮪꭲꮝꮤꮕ	-10.5676
ꮪꮯꮆꮝꮣꮑꮄ	-10.5676
ꮜꮩꮒ	-10.5676
ꮵꮅꭵꮒ	-10.5676
ꮎꭹꮺꮢ	-10.5676
ꭶꮜꮿꮝꮧꮥꭹ	-10.5677
ꭴꮺꮝꭹꮈ	-10.5677
ꮷꮒꮃꮻꭲꮝꮧᏹ	-10.5677
ꮽꮒꮇꮸ	-10.5678
ꮎꭶꭵ	-10.5679
ꮻꮵꭶꮫ	-10.5679
ꮳꭲꮢ	-10.568
ᏺꮁꮟ	-10.568
ꭸꮵᏸꮈ	-10.568
ꭰꮎꭲꮢ	-10.5684
ꮒꮥꭼꮑ	-10.5685
ꮒꭼꮺꮞ	-10.5686
ꭴꭺꭾ	-10.5687
ꭴꭹꮈ	-10.5687
ꭰꮅꮵꮩ	-10.5687
ꮧꭶꮅꮝꮩꮧꭽ	-10.5688
ꭰꮵꮎꮭꭲ	-10.5689
ꮒꮈꭹ	-10.5689
ᏺꮝꮫ	-10.569
ꮷꭶᏼꮅꭸ	-10.5692
ꭶꭷꮂ	-10.5694
ꮣꭼꮑꮅ	-10.5695
ꮥꭸꮵᏸꮈ	-10.5697
ꮣꮕꮫ	-10.5697
ꮎꮫꮑꮀ	-10.5698
ꮧꭷꮓ	-10.57
ꭴꮎꮅꮝꮥꮈꮩꮧ	-10.5701
ꮗꮝꮣ	-10.5701
ꭰꮎꮣꮩꮅꮝꮣꮑ	-10.5705
ꭶꮅꮝꮤꮕ	-10.5707
ꮩꮣꮵ	-10.5709
ꮳꮎꮻ	-10.5709
ꭱꮒꮧ	-10.5714
ꭶꮈꮙ	-10.5716
ꭰꮹꮎꭶꮃ	-10.5718
ꭴꮅꮒꭼꭼ	-10.572
ꭰꮖꮅꮟ	-10.5726
ꭴꮅꮰꮿꮝ	-10.573
ꭼꮼꭿᏻꮂꮝ	-10.5731
ꮪꮅꮝꭸ	-10.5739
ꮣꮣꮟ	-10.5739
ꮳꭶꮈ	-10.5775
ꮩꮄꮀꭿꮝꮧ	-10.5775
ᏼꮑꮈ	-10.5783
ꭴꮎꮭꭲ	-10.5799
ꭸꮵꮑꮧ	-10.5799
ꮏꮹꮫ	-10.5815
ꮥꭶꮪꮂ	-10.5815
ꮯꮆꮝꮣꮑ	-10.5822
ꮴꮩꮂ	-10.5828
ꭶꮃꮧ	-10.583
ꭴꮺꮇꮑ	-10.5844
ꮧꮴꮂ	-10.5861
ꭴꮅꮝꭺꮈꮣꮑ	-10.5882
ꮝꮣꮹꮧꮢ	-10.5896
ꭵꮣꮈ	-10.5906
ꮖꮣꮄꮕ	-10.5937
ꭲꮸꮑꮴ	-10.5963
ꭸꮵꮝꭶ	-10.5975
ꭲꮳꮰꮎꮝ	-10.5976
ꮳꮅꭾꮅ	-10.599
ꮸᏼꮑ	-10.6001
ꮧꭷꮓꭹꮝꮧ	-10.601
ꭴꮿꮕ	-10.6017
ꮒꮟꮂꮝ	-10.6083
ꭴꮄꮕꮂ	-10.6098
ꮎꮫꭶ	-10.6117
ꮳꮪꮅ	-10.6139
ꮣꮒꮈꭸꮝꮧ	-10.6176
ꮣꮑꮀ	-10.6183
ꭰꮵꮝꮥꮈꮧ	-10.6189
ꭷꮅꮸꭿ	-10.6197
ꭼꮼꭿᏻꮕ	-10.622
ꭸꮵꮑꮈ	-10.6233
ꭶꮨꮧꮝ	-10.6235
ꭴꮼꮄ	-10.6256
ᏸꮈꮕ	-10.6288
ꮣꮸꮿ	-10.6326
ꮥꮳꮈꮻꮝꮣꮑ	-10.6332
ꭼꮝꭺꮈ	-10.634
ꮇꮸꭽ	-10.6349
ᏺꮁꮝ	-10.636
ꮳꭶꮜꮿꮝ	-10.6397
ꭶꮑꮂ	-10.6409
ᏼꮤꮑ	-10.6424
ꭱꮳꭻᏼ	-10.6428
ꮅꮝꭶꮝꮩꮧ	-10.6442
ꮷꮎꮄꭿꮠ	-10.6449
ꮫꮑꭿ	-10.6454
ꭰꮙꭿᏻ	-10.6476
ꮅꮒꭹꮧᏻ	-10.6476
ꮩꮄꮀꮢ	-10.6479
ꭶꮩꭵꭿꮝꮧᏹ	-10.6505
ꭶꭻꮝꮫꮧ	-10.6509
ꮧꮎꮣꮒᏹꮝꭹ	-10.6509
ꮧꮡꮲꮫ	-10.6509
ꮩꮷꮎꮣꮕꮫ	-10.6509
ꮷꮣꮥꮢꮫ	-10.6509
ꮻꮪꮿꮕꭾ	-10.6509
ꭰꮥꮢꮂꮝ	-10.6509
ꭰꮎꮅꮵꮩꮂꮝ	-10.6509
ꭰꮵꭴꮝꮥꮞꮈꭿ	-10.6509
ꮷꮼᏸꮒ	-10.6509
ꮝꭻꮣꮫ	-10.6509
ꮖꮃꮖ	-10.6509
ꭱꮃꮒꭼ	-10.6509
ꮿꮓꭹᏻ	-10.6509
ꭹꮗꮣꮈ	-10.6509
ꭰꮅꮵꮩꮂꮝꭸ	-10.6509
ꭰꭹꭺꮂꭹ	-10.6509
ꭲᏸꮸꮑ	-10.651
ꮽꮣꭺꮎꮫ	-10.651
ꮪꮈꮜꮫ	-10.6511
ꭴꮒꮎᏸ	-10.6511
ꭳꭼꮢ	-10.6511
ꭸꭶꮡᏸꮫ	-10.6512
ꮪꮒꮲꭼ	-10.6512
ꭴꮑꮙꮸ	-10.6512
ꮣꮒꮃꮻꭵ	-10.6513
ꭶꮃꮕꮫ	-10.6513
ꭴᏸꮈꮑ	-10.6513
ꮒꮵꭶꮤꮂꮎ	-10.6514
ꭴꮳꮦ	-10.6514
ꮩꭹꮈꮻꮝꮣꮑ	-10.6514
ꭰᏸꮂ	-10.6514
ꭶꮵᏼꮑ	-10.6515
ꭴꮎꮫꭺꮧ	-10.6515
ꭴꮆꮢꮝꮤꮕꭿ	-10.6516
ꭳꮣꮕꮫ	-10.6516
ꮧꮳꮃꮟ	-10.6516
ꮳꭶꮯꮆꮝ	-10.6518
ꭸꮩꮂ	-10.6518
ꭵꭹꮕꮟꮫ	-10.6521
ꭼꮼꮞ	-10.6523
ꭳꭶꮪꮅ	-10.6523
ꭷꮑꮸꭿ	-10.6525
ꭴꮣꮡ	-10.6525
ꭲꮳꮫꭶꮕꭿ	-10.6528
ꭱꮩꭽ	-10.6529
ꭴꮎꮩꮄꮀꭿꮝ	-10.653
ꮪꮄꭿꮜꮕ	-10.653
ꮑꮝꭸꮂ	-10.6531
ꭰꮑꮃ	-10.6534
ꭴꮣꮕꮞ	-10.6535
ꭴꮎꮔꭺꭲꮝꮧ	-10.6543
ꮎꮔꭺꮻꮞꮅ	-10.6548
ꭴꮒꮔꭺꮸ	-10.6549
ꭴꮒꮓꭾꮈꭿ	-10.6554
ꮑꭲꮝꮤꮑ	-10.6555
ꮔꭺꮹ	-10.6557
ꭴꮏꭵ	-10.6561
ꭰᏺꮁꮢ	-10.6572
ꭸꮃꮝꮩꮧ	-10.6573
ꮒꮸꮑꮈ	-10.6575
ꮑꮯᏼꮞ	-10.6578
ꭰꮅꮝꮣᏼꮂꮝ	-10.6586
ꮎꮔꭺꭲꮝꮧ	-10.6587
ꮏꮫꮑ	-10.6589
ꭴꮓꭿᏻꮢ	-10.6611
ꮒꮪꮕ	-10.6617
ꭴꮹꮫꮂ	-10.6632
ꮥꮵᏺꮅ	-10.6634
ꮉꮅ	-10.664
ꭰꮬ	-10.6654
ꮥꭼꮹꮒ	-10.6658
ꮵꭹꮅᏺꭼ	-10.6659
ꮎꮩꮄꮀ	-10.6668
ꮟꮟꮝ	-10.6671
ꭼꮝꭺꮈꮑ	-10.6683
ꮥꮳꮈꮻꮝꮣꮑꮂ	-10.6699
ꮳꮩꮣ	-10.6699
ꮒꭸꮵꮺꮞ	-10.6702
ꭴꮺꮇ	-10.6703
ꭺꮅᏸꮝꭼ	-10.6719
ꮩꮣᏻ	-10.6725
ꮎꭶꮫ	-10.6732
ꭰꮩꮄꮀ	-10.6734
ꭼꭺꮹꮫꮧ	-10.6756
ꮻꮪꮎ	-10.6764
ᏹꮩꭸ	-10.6772
ꮵꮓꭾꮝꭼ	-10.6795
ꭴꮫꭺꮧ	-10.6819
ꭴꭹꮢ	-10.6826
ꮤꮒꮣꮝꮧ	-10.6837
ꭲꮵꮝꮖꮒꭺ	-10.6891
ꭲꭼꮹꮑꮧ	-10.6901
ꮴꮩ	-10.6992
ꮫꮫꮂꮝ	-10.7002
ꭼꮹꮝꮣꮹꮧ	-10.7026
ꭵꮵꭺ	-10.7052
ꮝꮪꭲꮝꮧ	-10.7058
ꮥꭶꮕ	-10.7104
ꮕꮣꭼꮹ	-10.7116
ꮵꮇꮵ	-10.716
ꮕꮣᏻꮅꮝꮩ	-10.7176
ꮧꮸꮒꮧ	-10.7223
ꮇꮆ	-10.7232
ꭹꭸᏻꭿᏻ	-10.7296
ꭲꮳꮣꮕꮦꮝ	-10.7299
ꭰꭹꮓꭾ	-10.7323
ꮵꮝꭶꮎ	-10.7332
ꭴꮒꮳꮫ	-10.7338
ꮵꭺꮅᏸ	-10.7363
ꭴꮒꮓꭾꮈ	-10.737
ꮫꭹꮝꭼ	-10.7386
ꭰꮻꮝꭹ	-10.7392
ꮕꮣꮧꮝꮧ	-10.7392
ꮌ	-10.7403
ꮯꮆꮝꮩꮧ	-10.7409
ꭴꮳꮤ	-10.7415
ꭰꭸᏻꮳ	-10.7418
ꭰꮒꮝꭶꭲꭾ	-10.7418
ꭱꭹꮅꮘ	-10.7418
ꭴꮒꮝꮖꮒꭺꮢ	-10.7418
ꭶꮓꮈꭵꮝꭼ	-10.7418
ꮥꭸꭶꮸꮝꮧꮝꭼ	-10.7418
ꮨꮏꮻꮫ	-10.7418
ꮷꮹꭻꮤꮕꮢ	-10.7418
ꭶꭼꮹꮠꮲ	-10.7418
ꭱꮒꮎꮿ	-10.7418
ꭰꮟꮎꮜꮒ	-10.7418
ꭴꭹꮸꮕ	-10.7418
ꮔꮎꮣꮄꮢ	-10.7418
ꭰꭹꭼꮻᏻꭿ	-10.7418
ꭰꮴꮇꭹ	-10.7418
ꮒꮳꮫꮏꮥꭼ	-10.7418
ꮝꮙꮅᏹ	-10.7418
ꮤꮇꮳ	-10.7418
ꭴꮈꮣꮈꭵꮝ	-10.7418
ꭲꮸꮝꮧᏸ	-10.7418
ꭰꮣꮩꮅꮝꮩꮧ	-10.7419
ꭴꮥꮅꮢ	-10.7419
ꮎꮩꮣꮖꮝ	-10.7419
ꮅꮝꮩꮤꮕ	-10.7419
ꭰꭶꮤꮏꭲ	-10.7419
ꮣꮥᏺꮂꮝꭸ	-10.7419
ꭳꭶꮫꭶꮕ	-10.742
ꭴꭶꮤꮂꮢ	-10.7421
ꮅꮒꭺꭿꮝ	-10.7421
ꭴꭼꮻᏻꮞꮝꮧ	-10.7421
ꮷꮺꮕꮢ	-10.7422
ꭵᏻꭹ	-10.7422
ꮎꮒꭶꮤꮂꮎ	-10.7423
ꮔꮹꮑꮄ	-10.7424
ꮯꮠꮧ	-10.7425
ꭲꮳꮣꮱꭼ	-10.7426
ꭲꮵꭶꮩꭵꭿꮝꮧᏹ	-10.7428
ꮵꮿꮅꭱꮅꮴ	-10.7428
ꭸꮳꮝꮣꮹꮧꮩꭿ	-10.7429
ꮦꮈꮧ	-10.7432
ꭼꮼꮅ	-10.7436
ꭺꮹꮨꮝꭺ	-10.7436
ꭰꮻꮢ	-10.7437
ꮶꭰꮝꭺꭿ	-10.7439
ꭶꮇꭺ	-10.7442
ꭰꮣꮕꮦꮧ	-10.7444
ꭼꮹꮆꮧ	-10.7446
ꮒꮩꮣᏻ	-10.745
ꮷꮎꮔꮼ	-10.7451
ꭶꮅꮶ	-10.7458
ꮢꭶꮤ	-10.7458
ꭴꮩꮄꮀꭿꮝꮧ	-10.7461
ꮅꮝꮤꮑ	-10.7462
ꭶꮔꭺꭼ	-10.7465
ꮹꮧꮩ	-10.7466
ꭲꮵꮺꮝ	-10.7469
ꭰꮝꭺꭿꮑ	-10.7475
ꮶꮘ	-10.7478
ꮣꮕꭱꮈ	-10.7489
ꭴꮫꭶꮑ	-10.7496
ꭴꮣꭸᏻ	-10.75
ꮼꮃ	-10.7502
ꭶꮣꮩꮅꮝꮧꮝꭼ	-10.7502
ꮵꮿꭵ	-10.7509
ꮵᏺꮟ	-10.751
ꮎꮑꮂꮎ	-10.7511
ꭲꮿꮝ	-10.7513
ꮑꮯᏼꮫ	-10.7522
ꭴꮕꮯ	-10.7527
ꭴꮇꮴꮈ	-10.7529
ꮵꮒꮵꮺ	-10.7547
ꮩꮄꮀꮝꭶ	-10.7574
ꭺꮅꮝꮧ	-10.7597
ꭶꮼꮒ	-10.7605
ꮎꮫꮑꮂ	-10.7621
ꮒꮪꮎꮣꮺꮞꮄ	-10.7627
ꭰꭺꮹꮨꮝ	-10.7627
ꮽꮆꭿꮝꮧ	-10.7628
ꭰꮝꮪꮂ	-10.7645
ꭴꮹꮤꮕ	-10.7665
ꮳꮣꮕꮩ	-10.7677
ꭴꮣꮕꮑ	-10.7697
ꮣꮕꮼꮧ	-10.7698
ꮝꭹꭸᏻ	-10.7716
ꮈꮙꮣ	-10.7723
ꮝꮘ	-10.7724
ꮧꮣꮼꮝꮧ	-10.7729
ꮴꮺ	-10.773
ꭶꮨᏸ	-10.7735
ꭶꮄꮒ	-10.7765
ꮣꮨꮑ	-10.7775
ꭶꮵᏺ	-10.7777
ꭶꮓꮩꮧ	-10.778
ꭱꮵꮈꮙ	-10.781
ꮩꮀ	-10.7815
ꮩꭿᏻꮂ	-10.7828
ꮔꮰꮎꮝꮫ	-10.783
ꮣꮣꮒꮈꭸꮝꮧ	-10.7837
ꮝꮖꮧꮝ	-10.7843
ꮒꮜꮑ	-10.7885
ꭶꮇꮆ	-10.7886
ꭺꮈꮎ	-10.7897
ꮣꮕꮦꮝꭸ	-10.7899
ꭴꮇꮴꮄ	-10.7908
ꮒꭺꮂ	-10.7934
ꮳꮇ	-10.7952
ꭶꮵꭺꭵ	-10.7964
ꭺꮹꮨꮝꭸ	-10.8076
ꭴꮒᏸꮈꮢ	-10.8088
ꮵꮎᏸꮝ	-10.8114
ꮝꮥꮈꮂ	-10.8125
ꮎᏸꮝꭼ	-10.8188
ꮩꮣꭸ	-10.8236
ꭴꮅᏸ	-10.8243
ꭴꮕꮑ	-10.8314
ꭰꮧꮤꮝ	-10.833
ꮅꮝꮥꮈ	-10.8356
ꮵꮝꮧᏸ	-10.836
ꮝꮖꮒꭺꮩ	-10.838
ꭶꮆꭿꮝꮧ	-10.8382
ꮥꮵꭸᏻ	-10.8389
ꮝꮖꮧꮝꮧᏹ	-10.8394
ꭰꮒꮓꮝꭹꮝꭹ	-10.8418
ꮠꮅꮉꮕ	-10.8418
ꮧꭼꮹꮈꮜꮫ	-10.8418
ꮪꮏꮝꮥꮲ	-10.8418
ꭴꮒꮓꭾꮄ	-10.8418
ꮨꮓꭾꮈꭹ	-10.8418
ꮴꭶꮃꮿ	-10.8418
ꭴꮣꮩꮅꮝꮤꮕ	-10.8418
ꭶᏸꮵꮠꮲ	-10.8418
ꮎꮅꮝꮖꮧꮝꭼꮎ	-10.8418
ꮻꭸꮵᏺꮅ	-10.8418
ꮒꮳꮅꮝꮤꮕ	-10.8418
ꮷꮎꮃꮟꮥ	-10.8418
ꮷꮽꭺꮩꮧ	-10.8418
ꭰꮵᏸꮈꮎꮑ	-10.8418
ꮝꭺꮒꮧꮲ	-10.8418
ꭷꮒꮅꮿ	-10.8418
ꭼꮹᏺꮁꭿꮝꮧ	-10.8418
ꮧꭹꮎꮻ	-10.8418
ꭴꮎꮒꭹꮢ	-10.8418
ꭶꮅꮵꮩꮂꮝ	-10.8418
ꭴꮧꮹꮢ	-10.8418
ꭼꭸᏻꭲ	-10.8419
ꭴꮼꮺꮃꮕ	-10.8419
ꭶꭻᏼꮣꮑꮧ	-10.8419
ꮦꮈꮂꮝ	-10.8419
ꭲꭼꮺꮕꮫ	-10.8419
ꭲꮿꮖꮅꮝ	-10.8419
ꭶꮝꭹꮆ	-10.842
ꮦꮖꮆ	-10.842
ꭴꮅꭾꮅꮴ	-10.842
ꮜꮃꮣꮑ	-10.842
ꭱꮙꮒ	-10.8421
ꭰꮪꮈꮧ	-10.8421
ꭴꮼꭿꮸ	-10.8421
ꮶꭹꮈꮻꮝꮣꮑ	-10.8421
ꭳꮒꮧꮲ	-10.8423
ꭰꮔꭶꮈ	-10.8423
ꮤꮅꮷꮘ	-10.8423
ꮷꮩꮲꮕ	-10.8424
ꭳꭶꮳꮕ	-10.8424
ꭰꭹꮇꮵꮈ	-10.8424
ꮔꮒꮂꮎ	-10.8424
ꮽꮒꮆꮢ	-10.8424
ꮝꭹꮝꮣꮹꮪꭶ	-10.8424
ꭴꮒꮇꭿꮝꮧ	-10.8424
ꮧꮒꮹꮎꭶꮃ	-10.8425
ꭴꮼꮪꭿᏻ	-10.8426
ꮷꮒꮑꮯᏼꮝꮧ	-10.8428
ꭴꮓꮝꮫ	-10.8428
ᏻꮎꮣ	-10.8428
ꮽꮿꮕꮂ	-10.8428
ꭳꭶꮴꮅ	-10.8428
ꮒꮠꮧᏹ	-10.8429
ꮅꮝꮣᏼꮕ	-10.843
ꭰꮿꮻꮝ	-10.8432
ꭰꮒꭶᏼꮅꭸ	-10.8434
ꭶꮼꭵ	-10.8435
ꭼꮹꮤᏺꮞꮄ	-10.8437
ꮪꮒꮕꮞ	-10.8441
ꭰꮓꮝꮫ	-10.8442
ꭱꮵꮎᏸꮝ	-10.8443
ꮪꭺꭾ	-10.8444
ꭱꮓᏹ	-10.8445
ꮣꮣꮆ	-10.8445
ꭰꭶꮫꮕ	-10.8448
ꮷꮣꮄꮕ	-10.8449
ꮪꮺꭷ	-10.8462
ꮒꮥꭶꮺꮞꮂ	-10.8465
ꮣꮈꮫ	-10.8468
ꮥꭶꮆ	-10.8471
ꮣꮒᏼꭸ	-10.8472
ꮸᏸꮅꮞ	-10.8473
ꭺꮅᏸꮝꭸꮝꮧ	-10.8478
ꭴꮎꮥꮕ	-10.8478
ꮅꮒꭺꭿꮝꮧ	-10.8482
ꮷꮑꮸ	-10.8484
ꮝꮪꭲꮢ	-10.8488
ꭰꭹꮎꮻ	-10.8494
ꮥꮵꮒᏼ	-10.8499
ꮵꮼꮒꮝꭼ	-10.8507
ꮑꮴꮄ	-10.8512
ꭴꮼꭿᏻꮢ	-10.8528
ꭰꮎꮅꮝꮣᏼꮂꮝꭼ	-10.8544
ꭴꮺꮕꮝꮧ	-10.8555
ꭿꭸᏻ	-10.8565
ꭻᏼꭱ	-10.857
ꮳꮣꮕꮯ	-10.8579
ꮎꮑꮃꮧꮝ	-10.8581
ꮧꭷꮏꮹ	-10.8595
ꭰꮑꮅꮝꭼ	-10.8612
ꭲꮷꮥꮨᏼ	-10.8705
ꭰꮝꭻꮥꮝꮧ	-10.874
ꮤᏺꭿꮂ	-10.8744
ꮳꮎꮧ	-10.8745
ꮵꮿꮣꮩꮅꮝꮣꮑ	-10.8765
ꭶᏺꭶ	-10.8766
ꮸꮝꮩꮧ	-10.8816
ꭰꮵꮑꮧ	-10.882
ꮿꮣꮕꮦ	-10.8835
ꮣꮕꮦꮧ	-10.8887
ꭰꮒꭹꮅᏺ	-10.8892
ꮟꮅᏹ	-10.8942
ꮣꮒꮑꮈ	-10.8944
ꭶꮼꮒꮝ	-10.9001
ꭴꮓꭾ	-10.9026
ꮪꭹꮢ	-10.9041
ꮩꮄꮀꭿ	-10.9132
ꮢꮒꮈ	-10.9137
ꭴꮲꭼ	-10.9252
.	-10.929
ꭱꮵꮿꮕ	-10.9298
ꮵꮑꭲꮝꮧ	-10.9392
ꭰꮎꮅꮝꮣᏼꮂꮝ	-10.9397
ꮒᏼꮧ	-10.9414
ꭳꮅꮹ	-10.9417
ꭷꮂꮝ	-10.9433
ꮝꮣꮹꮫꮢ	-10.9447
ꮈꮙꮩ	-10.9467
ꮪꮅꮝꮪ	-10.9484
ꭲꮧꮝꮣ	-10.9506
ꭼꮹꮒꮠꮲ	-10.9521
ꮳꮓꮞꮀꭲ	-10.9529
ꭰꭼꭽꮈꮫ	-10.9529
ꭼꮝꭶꭲꮝꮣꭹ	-10.9529
ꭼꮹꮨꮓꭾꮄ	-10.9529
ꮕꮷꮅꮝꮩꮤꮑ	-10.9529
ꮣꮎꮥᏺꮂꮝꭼ	-10.9529
ꮥꭺꮲꮹꮧꮢ	-10.9529
ꮴꮿꮩꮴ	-10.9529
ꭲꮿꮛꮑ	-10.9529
ꭴꭹꮅᏺꮸ	-10.9529
ꭰꮅꮟꮎꭿꮝꮩꮧ	-10.9529
ꭰꮩꮄꮀꭿꮝꮩꮧ	-10.9529
ꮠꭳꮑꮃ	-10.9529
ꮥꮳꮣꮒꮈꮸ	-10.9529
ᏹꮵꭺꮅᏸꭳ	-10.9529
ꭰꮒꮟꮎꮜ	-10.9529
ꮷꮑꮏꭲ	-10.9529
ꭲꮳꮅꭾꮅꭸꮝꮧ	-10.9529
ꮗꮧꮒᏹ	-10.9529
ꮧꭷꮈꭼ	-10.953
ꭴꮒꮆꮞ	-10.953
ꮈꮙꮤꮒ	-10.953
ꮵꮳꮫꭹ	-10.953
ꮪꮺᏺꮑ	-10.953
ꮧꭹꮈꮻꮝꮣꮑꮧ	-10.953
ꮪꮎꮑꮆꮫ	-10.953
ꮒꭶꮵᏼꮑꮈ	-10.953
ꮷꮼꮈ	-10.953
ꮧꮗꮵ	-10.9531
ꮽꮒᏼꮄ	-10.9531
ꮒꮡꮺꮞ	-10.9531
ꭴꮾꮤꮕ	-10.9531
ꮶꮣꮈ	-10.9531
ꭶꮩꮄꭳ	-10.9531
ꭴꮅꮝꮪꭲ	-10.9532
ꮃꮧꮣꮝꮧᏹ	-10.9532
ꮔꮹꮑꮀ	-10.9532
ꮥꮵꮑꮴ	-10.9533
ꭲꮿꮵꮈꮙ	-10.9533
ꮣꮎꮅꮝꮣᏼꮂꮝꭼ	-10.9533
ꮧꮵꭶᏼꮅꭸ	-10.9533
ꮧꭶꮅꭰꮕ	-10.9533
ꭵꮳᏹ	-10.9533
ꮪꮈꮕꮧ	-10.9534
ꭰꮣꭿꭿ	-10.9534
ꮥꮵꭷꮏꮹꮧꮩ	-10.9534
ꭴꮼꮒꮢ	-10.9534
ꮧꭼꮹꮣꮒꮈꭲꮝꮧ	-10.9534
ꮩꮫꮎꮄ	-10.9535
ꭴꮑꮩꮈ	-10.9535
ꭱꮵᏺꮅꮈ	-10.9535
ꮥꭶꮔꭺꮻꮝ	-10.9535
ꮣꮺꮃꭹꮝ	-10.9535
ꮠꮣꮋ	-10.9535
ꮪꭺꮣꮑꮧ	-10.9536
ꭰꭶꮤꭿᏻ	-10.9536
ꮩꮃꮕꮝꮧ	-10.9537
ꮟꮤꮥ	-10.9537
ꭴꮎꮅꮝꮣᏼꮕ	-10.9538
ꭴꭼꭵꮝ	-10.9539
ꭼꮹꮅꭺꮑ	-10.954
ꮩꮧꮳꮣꮕꮫ	-10.9541
ꭴꮑꭲꮝꮤꮕ	-10.9542
ꮷꮎꮔꭺꮻꮞꮧ	-10.9542
ꭴꮒꭶꮩꭵꮢ	-10.9549
ꭴꮒꮓꭾꮧ	-10.9549
ꭰꮵꮈꭸꮃꮝꮧ	-10.9554
ᏹꮒꭼꮹ	-10.956
ᏺꮁꮞꮈ	-10.956
ꭴꮓꭿᏻꮧᏹ	-10.956
ꭰꮒꮓꭿ	-10.956
ꭳꮵꮓꭾꮝ	-10.9563
ꮒᏺꭿꮞ	-10.9566
ꮲꮣꮵ	-10.9567
ꭰꮒꮓꭾꮝꭹ	-10.9576
ꮅꮝꮣᏼꮩꮧ	-10.9583
ꭴꮣꮅꮣꮝ	-10.9584
ꮥꭷꮑꮴ	-10.9585
ꮔꮅꮝꮣꮑꮈ	-10.962
ꭴꮥꮢ	-10.9621
ꭲꮳꮩꮄꮀꭿ	-10.9631
ꭴꮄꮑ	-10.964
ꭳꮅꮹᏺ	-10.9643
ꭸꭶꭻᏼꭱ	-10.9656
ꭲꮧꭼꮑ	-10.9678
ꭲꮳꮣꮩꮅꮝꮧꮝꭼ	-10.9679
ꭲꮳꮧꮤꮝ	-10.9688
ꭱꮵꮑꮈ	-10.9799
ꭴꮺꮩꮅ	-10.9807
ꮳꮪꮅꮝꭺ	-10.9818
ꮣꮡᏸ	-10.9848
ꮳᏸꮈꮕ	-10.9853
ꭼꮼꭿᏻ	-10.9855
ꮷꮣꮄꮕꮂ	-10.9855
ꭼꮤᏺꮞ	-10.9965
ꭰꮝꮣᏹꮧꮝ	-10.9995
ꭸꭿꮩ	-11.0133
ꭲꮸꮓꮑꮈ	-11.0139
ꮣꮱꮧ	-11.0177
ꮰꮎꮝꮫꮎ	-11.023
ꮎꮣꮩꮅꮝꮣꮑ	-11.0249
ꮣꮩꮅꮝꮧꮝꭼ	-11.0251
ꮝꮣꮹꮧꮩ	-11.0432
ꮒꮷꮘꮝ	-11.0486
ꭶꮎꮝ	-11.0516
ꮴᏺꮂꮝ	-11.0533
ꭰꮱꮧꮝ	-11.0554
ꭷꮏꮹꮧꮩꭾ	-11.0564
ꭳꭹꮓꭾ	-11.0571
ꮎꮵꮺꮞ	-11.061
ꮵꮒᏼ	-11.0624
ꭰꮑꮩ	-11.0626
ꮔꮅꮝꮣꮑ	-11.0689
ꮒꮵꮺꮝ	-11.0703
ꮳꮫꭺꮧ	-11.072
ꭷꮏꮹꮫꮝꮧ	-11.0721
ꮅꮵꮩꮑꮈ	-11.073
ꮧꮵꮑꮯᏼ	-11.0731
ꮇꮵꮈ	-11.0741
ꭶꮅꮝꮩꮧꭽ	-11.0742
ꮑꮩꮂ	-11.076
ꮳꮅꮵꮩꮂ	-11.0761
ꮎꮻꮫꭾ	-11.0775
ꮎꮻꮫꮂ	-11.0779
ꭰꮒꭺꮹꮨꮝꭼ	-11.0779
ꮧꮒꭷꮏꮹ	-11.0779
ꮷꭶꮢꮝꮧ	-11.0779
'	-11.0779
ꭲꮳꮯꮒꭼꮑ	-11.0779
ꭴꮎꮔꭺꮵꮈ	-11.0779
ꭴꮝꮖꮒꭺꮞ	-11.0779
ꭴꮣꮩꮅꮳꮫ	-11.0779
ꭴꮧꮄꮂꮝ	-11.0779
ꮒꭶꮅꮝꮤꮒ	-11.0779
ꮔꮼꭿᏻꮢꮎ	-11.0779
ꮠꮲꭲꮝꮧꮝꭼ	-11.0779
ꮣꮅꮝꮧꮃꮑꭼ	-11.0779
ꮣꮒꮔꮩꭼ	-11.0779
ꮣꮖꭷꮎꮕꭹ	-11.0779
ꮥꮟꮆꮒꭶ	-11.0779
ꮧꮶꮺꮅꮝꭹ	-11.0779
ꮪꭲꮝꮣꮑꮄ	-11.0779
ꮪꮣꮨꮏꭵ	-11.0779
ꮣꭷꮏꮹꮥ	-11.0779
ꮧꭸꭻꭺꮣꮑꮧ	-11.0779
ꭰꮒꭺꮧᏻ	-11.0779
ꮅꮒꮖꮕꮑ	-11.0779
ꮪꮹꮒꭶꮈ	-11.0779
ꮷꮑꮲꮤꮕ	-11.0779
ꮷꮼꮪꭿ	-11.0779
ꭰꮒꮝꭶꭲꮂ	-11.0779
ꮎꮖꮅꮝꮣꮑꮈ	-11.0779
ꮥꭶꮼꮑꮧꮝꭼ	-11.0779
ꭰꮝꮖꮈꮂ	-11.0779
ꮒꮥꮳꮫꮑ	-11.0779
ꭴꮎꮅꭾꮅꮴ	-11.0779
ꭸꮵꮕꮢꭿ	-11.0779
ꮻꭶꮇꭹ	-11.0779
ꭴꮎꮣꮯꮜꮕ	-11.078
ꮔꮕꮑꮄ	-11.078
ꭼꮣꭸꮒ	-11.078
ꮸꮇꮴꮅ	-11.078
ꮪꮔꮹꭵ	-11.078
ꮞꭺꭹꮢ	-11.078
ꮣꮴꮅꭶ	-11.078
ꮅꮜꮃꮣꮕ	-11.078
ꮪꮼꮑꮤꮕ	-11.078
ꭼꮹꭺꭾ	-11.078
ꮎꭼꮑꮄ	-11.078
ꮳꭶꮡ	-11.078
ꭴꮔꮹꭵ	-11.078
ꮁꮝꮥꮞ	-11.078
ꭲꭶꮅꮝꮩꮧᏹ	-11.078
ꭴꮑꮇꭼ	-11.078
ꮧꮵꭷꮏꮹꮫꮝꮧ	-11.0781
ꮩꮫꮎꮣ	-11.0782
ꭲꮳꮅꭾꮅꭼ	-11.0782
ꮪꮒꮈꮻꮝꮣꮑꭾ	-11.0782
ꮳꮣᏺꮑꮈ	-11.0783
ꮻꮵᏺꮅ	-11.0783
ꭴꮝꮧꭹꮫ	-11.0783
ꮎꮒꭶꮤ	-11.0783
ꮅᏸꭲꮈꮝ	-11.0783
ꮪꮣꮃꭱ	-11.0784
ꭰꮗꮅꮢ	-11.0784
ꭴꮎꮣꮩꮅꮝꮣꮑꮈ	-11.0785
ꭸꭶꮅꮵꮩꮑ	-11.0785
ꮷꮒꭶᏼꮅꭸ	-11.0786
ꭰꮵꮕꮹꮕ	-11.0786
ꭴꮒꮈꮙꮤꮑ	-11.0788
ꭹᏺꮁꮢꭿ	-11.0789
ꮼꮑꮩꮧ	-11.0792
ꭰꭻᏼꮧ	-11.0792
ꮃꮡꮆ	-11.0793
ᏺꭶꮫꮑꮧ	-11.0793
ꭲꮳꮫꮕꭲꮝ	-11.0794
ꮎꮧꮕꮞ	-11.0795
ꭴꮺꮩꮄ	-11.0795
ꭲꮳꮅꮝꮣᏼꮧ	-11.0795
ꮹꮵꮿꮕ	-11.0797
ꮀꭿᏻꮂꮝ	-11.0797
ꮩꮣꮖꮫ	-11.0797
ꭴꮒꮪꮂ	-11.08
ꮎꮖꮝꮫ	-11.0801
ꭴꮑꮕꮢꭹ	-11.0804
ꭴꮒꮤꮃꮼ	-11.0808
ꮈꮓꮨ	-11.0808
ꭴꮒᏼꮈ	-11.0808
ꭴꮺꭷꮕ	-11.0809
ꮵꮝꭶꮕꮴꮈ	-11.0812
ꭺꮅꮒꮧ	-11.0813
ꭴꮳꮕ	-11.0818
ꮎꮵꮈꮙ	-11.0822
ꭰꮙꭿᏻꮂꮝ	-11.0832
ꮣꮒꮼꮒ	-11.0845
ꮵꮤᏺꮞ	-11.0854
ꮓꭿᏼ	-11.0856
ꭷꮓꮧ	-11.0857
ꮥꭽꮥᏺꮂꮝ	-11.0861
ꮝꮖꮒꭺꮤꮑ	-11.0871
ꭺꮺꮄ	-11.0873
ꮳꮕꮣꮧꮝ	-11.0876
ꮵꮝꮣꮹꮥꭹ	-11.0883
ꭴꮪꮣꮄ	-11.0887
ꮥꭴꮈꮻꮝꮣꮑꮂ	-11.0906
ꭲꮳꮫꮣꮝꮣ	-11.0942
ꭸꮵꮓꭾꮝ	-11.0946
ꭶꮕꭸ	-11.0962
ꮟꮤꮧꮝ	-11.1007
ꮫꮑꮅꮣꮝꮧ	-11.1069
ꮻꮵꮇꮸ	-11.1078
ꮝꮣꮹꮧꮞ	-11.1094
ꭰꮙᏸ	-11.1108
ꮳꮫꭶꮑꮈ	-11.1114
ꭼꮑꮴ	-11.1129
ꭼꮹꮣꮩꮅꮝ	-11.1136
ꮓꮝꭹꮢ	-11.115
ꮅᏹꮆꭿꮝꮧ	-11.1264
ꮣᏻꮣꮄꮕ	-11.1275
ꮓꭾꮅꮩ	-11.128
ꭻꮣꮄꮝ	-11.1348
ᏸꮜꮫ	-11.1356
ꮵꮼꮒ	-11.1377
ꮅꮼꮸ	-11.1434
ꮳꭲꮞ	-11.154
ꭴꮑꭲꮝꮧ	-11.1554
ꭴꮒꮓꮑ	-11.1568
ꭸꮵᏺꭿꮞ	-11.1584
ꭼꭹꮇꮴ	-11.1628
ꮤᏺꮞꮧ	-11.1673
ꮧꭷꮓꭹꮝ	-11.1673
ꭲꮸꮓꮑ	-11.1708
ꮈꮙꮫ	-11.1709
ꭰꮕꮧꮝ	-11.171
ꭺꮂꮝꮩꮧ	-11.173
ꮣꭹꭷ	-11.1787
ꮣꮕꮦꮄ	-11.1858
ꮒꮪꮎꮣꮺꮞ	-11.1879
ꮝꭹꭺꮹꮨꮝ	-11.2005
ꮩꮄꮀꮞ	-11.206
ꮥꭴꮈꮻꮝꮣꮑ	-11.2072
ꭱꮵꮑꮧ	-11.2106
ꭰꮖꮫꭶꮕ	-11.2127
ꭰꮵꮑꮈ	-11.2131
ꮯꮆꮝꮤ	-11.2131
ꮧꮖꮃꮟꮥꮒ	-11.2208
ꭰᏸꮩꮃꮫ	-11.2208
ꭰꮒꭶꮤꮎꭲ	-11.2208
ꭱꮩꮩᏹ	-11.2208
ꭴꮴꮇꭿ	-11.2208
ꭼꭽꮇᏸ	-11.2208
ꮒꮶꮅꭼꮎ	-11.2208
ꮪꮟꮤꮫ	-11.2208
ꭰꮅꮝꭶꮑꮫ	-11.2208
ꭰꮔꭿꮝꮧꮝꭼ	-11.2208
ꮣꮣꮑꮃꮧꮢ	-11.2208
ꮥꭶꮓꮳꮈ	-11.2208
ꮷꭶꮎꮾ	-11.2208
ꭲꮸꮑꭲꮝꮧꮝꭼ	-11.2208
ꭴꮣꮩꮅꮳꮨ	-11.2208
ꭴꮤᏺꮄ	-11.2208
ꭴꮼꮿꮑꮢ	-11.2208
ꮄꭳꮧꮟ	-11.2208
ꮒꮳꮣꭸᏻꮢ	-11.2208
ꭴꮧꮫꭾ	-11.2208
ꮒꮝꮖꮒꭺꮝꭸ	-11.2208
ꮔꮎꮅꮝꮣꮑꮈ	-11.2208
ᏻꮓꮅꮴ	-11.2208
ꭰꭹꮝꮫꮧꮝꭼ	-11.2208
ꭰꮅꮵꮩꮂꮝꭼ	-11.2208
ꭴꮒꮅꮕꮸ	-11.2208
ꭷꮕꮡꮈ	-11.2208
ꮥꮕꮩꭵ	-11.2208
ꮥꭶꮈꮻꮝꮣꮑꮈ	-11.2208
ꮪꮫꮫꮑ	-11.2208
ꭰꭶꮝꭶꮒ	-11.2208
ꮧꮔꭺꮧꮝꭹ	-11.2208
ꭴꮺꮠꮕᏼ	-11.2208
ꭴꮎꮸꮞ	-11.2208
ꮅꮝꮣꮑꮅꮥꭼ	-11.2208
ꭴꮧꮧꮲ	-11.2208
ꭳꮹꮢ	-11.2209
ꭴꮑꮇꮑ	-11.2209
ꮅꮝꭶꮝꮩꮩ	-11.2209
ꭷꭿꮿꮝꮧ	-11.2209
ꭲꮸꮓꭾꭾꮈ	-11.2209
ꮀꮺꮈ	-11.2209
ꭴꮑꮙꮴ	-11.2209
ꮷꮥᏺ	-11.2209
ꭰꮳꮺꮠꮈꮝꮩꮧ	-11.221
ꮵꮝꭺᏼ	-11.221
ꮎꮒꮝꭶꮕꮎ	-11.221
ꮫꮠꮕꭿ	-11.221
ꭰꮠᏼ	-11.221
ꭶꮎꮔꭺꮵꮈ	-11.221
ꭳꮎꮻ	-11.221
ꮧꮣꮒꮠꮧᏹ	-11.221
ꭴꮎꮅꮦꮈꮕ	-11.221
ꭴꮓᏼꭼ	-11.221
ꮷꮑꮅꮑ	-11.221
ꮷꮎꭹꮈ	-11.221
ꭴꮢꮒꮄ	-11.2211
ꮎꮑꮝꭸꮝ	-11.2211
ꭰꮎꮣꮩꮅꮝꮧꮝꭼ	-11.2211
ꮣꭹꭺꮂ	-11.2211
ꮷᏺꭿꮞꮧ	-11.2211
ꭴꮣꮹꮧꮝ	-11.2211
ꮝꭹᏸꮅꮞ	-11.2212
ꮝꭹꮿꮕꮣꮧꮝ	-11.2212
ꭰꮒꮈꮙꮧꮝꭸ	-11.2212
ꮷꮒꭷꮏꮹꮫꮝꮧ	-11.2212
ꮔꮣꮡᏼ	-11.2212
ꮑꮝꭸꭾ	-11.2213
ꭸꭶꮅꮝꭺꮈꮣꮑꮈ	-11.2213
ꭴꮝꭶꮴ	-11.2213
ꭰꮎꮅꮝꮣᏼꮧꮝ	-11.2214
ꮳꮑꮲꮤꮕ	-11.2214
ꭲꭸꮳꮫꮑꮧ	-11.2214
ꮥꮿꮩꮤꮕꭹ	-11.2214
ꭴꮒꭹꮞ	-11.2214
ꮔꮺꮂꮎ	-11.2216
ꭴꮎꮣꮡᏸꮫ	-11.2216
ꭰꮪꮣꮄꮝꮧ	-11.2217
ꭴꮒꮝꭶꮄ	-11.2217
ꮥꭼꮹꮰ	-11.2217
ꭲꮸᏸꮃꮧꮩꮂ	-11.2217
ꭴꮣꮰꮝ	-11.2219
ꭲꮳꮔꮼꮝ	-11.2228
ꭴꮎꮔꭺꮻꮝꮧ	-11.2231
ꭴꮒꮕꮕ	-11.2235
ꭲꮸꮿꮕꮣꮧꮝ	-11.2238
ꭰꮣꭸꮧ	-11.2242
ꭴꮏꮈ	-11.2243
ꮟꮠꮧ	-11.2244
ꮥꭻꭺꮣꮑ	-11.2244
ꮆꮑꮫ	-11.2248
ꭴꮎꮳꮕ	-11.2249
ꮜꮫꭵꮝ	-11.2253
ꮪꭷꮏꮑ	-11.2254
ꮳꭷꮫ	-11.2261
ꭹꮕꮝꮤꮕ	-11.2265
ꮧꮥꮆꮖꮝ	-11.2267
ꭴꮒꭺꮑ	-11.2274
ꮣꭼꮹꮅ	-11.2274
ꭰꮝꮖꮒꭺꮧꮝ	-11.2283
ꭴꮣꮕꮣꮫ	-11.2302
ꭱꮵꮝꮥꮈꮧ	-11.2313
ꮵꮑꭲꮝꮧꮝꭼ	-11.2344
ꭴꮑꮃꮧꮝꮧ	-11.2351
ᏹꮒꭶꮫꮑ	-11.2376
ꮅꮣꮝꮤꮕ	-11.24
ꮣꭷꮏꮹꮧ	-11.2456
ꭸᏺꮂꮝ	-11.2471
ꮣꮑꮃꮑ	-11.2473
ꭱꭹꮝꮥꮈꮧ	-11.2485
ꭶꮜꮿꮝꮥ	-11.2503
ꮅꮒꭺꭿꮝꮤ	-11.2503
ꮣꮥᏺ	-11.2509
ꭲꮥꮂ	-11.251
ꮨꮕꮝꮤꮕ	-11.2524
ꮧꭸꮵꮎꮭ	-11.2606
ꭴꮒꮑꭲꮝꮧ	-11.2621
ꮥꮳꮣꭸᏻ	-11.268
ꮵꮎꮻ	-11.27
ꮣꮒꮃꮻ	-11.2726
ꭴꮎꭶꮜꮿꮝ	-11.2754
ꮷꮎꮔꭺꮻ	-11.2865
ꮫꮒꮧꮝꮧ	-11.3066
ꭶꮜꮿꮝꮩ	-11.3118
ꮥꮵꮃꮻ	-11.3176
ꭸꭶꮫꮕ	-11.323
ꮵꮹꮎꭶ	-11.332
ꮕꮣꮧꮝꮩꮧ	-11.3392
ꮣꮅꮒꭺꭿꮝꮧꮝ	-11.3484
ꮵꮿꮫꮑ	-11.3527
ꮅꮩꮈ	-11.3534
,	-11.3635
ꭰꮤᏺꭿ	-11.3658
ꮵꭷꮂ	-11.3751
ꮳꮺꮠꮈꮝ	-11.3772
ꮤꮃꮼꭿꮝꮧ	-11.3803
ꭶꮨꮟꮧꮲ	-11.3845
ꮻꮒꮧꮲ	-11.3845
ꭰꮒꮿꮻꮝ	-11.3859
ꮈꮙꮤꮑ	-11.3873
ꮹꮅᏸꭲꮆꭿ	-11.3874
ꭰꮯꮆꭵ	-11.3875
ꭲꮳꭶꮤꮕꮞ	-11.3875
ꭵꮖꮈꭲꮫ	-11.3875
ꭼꭹꮑꮙꮴꮧ	-11.3875
ꮕꮓꮁꮆꮧ	-11.3875
ꮣꮎꮥꮢꮂꮝ	-11.3875
ꮣꮒꭷꮏꮹꮥ	-11.3875
ꮧꭺꮺꮆꮧ	-11.3875
ꮩꮷꮑꮕꮢ	-11.3875
ꮪꮈꮕꭵꮝꭼ	-11.3875
ꮪꮒꮃꮻꮸ	-11.3875
ꮪꮻꮮꮻꮢ	-11.3875
ꮶꮝꮣꮣꮕꮯ	-11.3875
ꮷꮽꭺꮣꮑ	-11.3875
ꭴꮨᏼꭿ	-11.3875
ꭶꮰꮿꮝꮤꮕ	-11.3875
ꭶꮵꮿꮰꭲꮝꮣꮑ	-11.3875
ꮡꮅꭺꭼꮎ	-11.3875
ꮣꮗꭺꮤꮕ	-11.3875
ꮪꮥᏺꮑ	-11.3875
ꮵꭶꮇꭿꮝꮧ	-11.3875
ꮵꮕꮝꮣꮥꮈꭹ	-11.3875
ꮷꮒᏼꮝꮥꮝ	-11.3875
ꭳꭸꮩꮈ	-11.3875
ꭴꮧꭶꮅꮝꮩꮧꮝꭸ	-11.3875
ꭿꮼꮒꮝꭼ	-11.3875
ꮪꮕꮹꮑ	-11.3875
ꮅꮦꮈꮒ	-11.3875
ꭰꮖꮣꮕꮦꮫ	-11.3875
ꭲꭺꮒꮿ	-11.3875
ꮥꮳꮑꮆꮫ	-11.3875
ꮔꮎꮅꮝꮤꮕ	-11.3875
ꮧꮵᏺꮁꮢꭿ	-11.3875
ꮪꮨꮕꮞ	-11.3875
ꭴꮜꮃꮣꮕ	-11.3875
ᏸꮆꭲꮝꮤ	-11.3875
ꭺꭲᏻꮂꮝꭶ	-11.3875
ꮧꮒᏺꭴꮅ	-11.3875
ꮷꮽꮣꮄ	-11.3875
ꭼꮽꭿꮝꮧꮝ	-11.3875
ꮔꮎꮫꮑꮄ	-11.3875
ꮔꮹꮒꮜꮕ	-11.3875
ꭽꮯꮒꭼꮑ	-11.3875
ꮒꭶꮅꮝꮤꮒꮩꮂ	-11.3875
ꭲꮃꭹᏻ	-11.3875
ꭴꮎꮅꮟꮎꭿꮝꮧ	-11.3875
ꭴꮧꮄꭹ	-11.3875
ꮣꮴꮅꮝꮫ	-11.3875
ꮽꮥꮅꭼ	-11.3875
ꮥꮶꮥꮝꮧ	-11.3875
ꭴꮑꮃꮻꮞꮈ	-11.3875
ꮪꮎꭷꮫ	-11.3875
ꮶꭹꮎꮻ	-11.3875
ꭸꮋꮅ	-11.3875
ꮣꮎꮰᏹꮂ	-11.3875
ꭰꭻꭲꮝꮧꮝ	-11.3875
ꮝꮪꭲꭱꮈ	-11.3875
ꭴꭶꮫꮄ	-11.3875
ꭶꮆꮠꮂꮝ	-11.3875
ꭰꮖꮫꮕꭲꮝꮧ	-11.3875
ꭰꭹꮅᏺꭼ	-11.3875
ꭲꮵꮑꭻ	-11.3875
ꮅꮝꮣᏼꮒ	-11.3875
ꮎꭺꮤꮕꮎ	-11.3875
ꮵꮿꮫꭶꮑꮈ	-11.3875
ꮷꮼꮲ	-11.3875
ꮥꮳꮒᏼ	-11.3875
ꮕꭹꮶꮑ	-11.3875
ꭲꮸꮿꮅꮵꮩꮑꮈ	-11.3875
ꭴꮟꮩꮅ	-11.3875
ꭲꮣꮩꮄꮀꭿꮝꮧ	-11.3875
ꮪꮅꮵꮩꮑꮄ	-11.3875
ꮩꮿꮕꭿꮫ	-11.3876
ꭴꮅꮝꮧᏻ	-11.3876
ꮔꮎꮫꮑꮅꮩꮈ	-11.3876
ꭰꮪꭲꮝꮤꮕ	-11.3876
ꮅꮝꮣᏼꮎꮑ	-11.3876
ꭴꮪꮈꮂ	-11.3876
ꮧꮣꮩꮥ	-11.3876
ꮻꭼᏺꮺꮃ	-11.3876
ꮪꮎꮄꮑ	-11.3876
ꮒꮤᏺꮄ	-11.3876
ꮧꮠᏼ	-11.3876
ꭼꮹꮓꭿᏻ	-11.3877
ꮝꮖꮣᏹ	-11.3877
ꮵꮜꮃꮣꮕ	-11.3877
ꭲꮣꮅꭾꮅ	-11.3877
ꭴꮎꮄꮎ	-11.3877
ꭼꮹꮅꭵꮒ	-11.3877
ꭴꮝꮧꭹᏻ	-11.3877
ꭴꮎꮑꮆꮤꮕ	-11.3877
ꭼꮹꮝꮫꮧꮝ	-11.3878
ꭲꮵꮑꮙ	-11.3878
ꮽꮒᏼꮈ	-11.3879
ꭴꮣᏼꮝꮧ	-11.388
ꮝꮥꮈꭿꮣꮝꮧ	-11.388
ꭼꮻᏻꮜꮥ	-11.388
ꮧꮴꮕꮢ	-11.388
ꮝꭶꮕꭸꮝꮧ	-11.3881
ꭰꮎꮣꮩꮅꮝꮧꮝꭸ	-11.3882
ꮣꮿꮒꮝꭺ	-11.3882
ꭴꮣꮩꮅꮝꮣꮑꮄ	-11.3882
ꮷꮣꮕꮣꮧꮝ	-11.3884
ꭼꮙꮞ	-11.3885
ꮣꮵꮹꮫꭿ	-11.3889
ꭸꮶꮞ	-11.3891
ꭴꮾꮩꮧ	-11.3893
ꭰꮒꮑꭲꮝꮧꮝ	-11.3895
ꭰꭶꮤꮎꭲ	-11.3896
ꮥꮵꮓꭹꮝ	-11.3896
ꮽꮳꮕ	-11.3901
ꭶꮲꮖ	-11.3903
ꮵꮃꮻꮞꮂ	-11.3904
ꭶꮒꮃ	-11.3907
ꭲꮳꮣꮕꮣꮧꮝ	-11.3908
ꮼꭹꮆꮢ	-11.3912
ꮳꮧꮻꮝ	-11.3918
ꭳꭸꮕ	-11.3921
ꮕꮣꭶꮺ	-11.3932
ꮣꮥꮅꮞ	-11.3942
ꭿᏺꮝꮧꮝ	-11.3949
ꮧꮻꮞꮈ	-11.3953
ꮪꮎꮪꮻꮝ	-11.3958
ꮣꮄꮎꮝꮧ	-11.396
ꮅᏸꮧ	-11.3962
ꮝꮖꮅꮝꭸ	-11.3963
ꭰꮑꮅꮝ	-11.3992
ꭴꭼꮹꮈ	-11.401
ꮳꮫꮣꮝꮣꮑ	-11.4011
ꭴꮒꮕꮑ	-11.4081
ꮡᏸꮝ	-11.4122
ꮝꮧᏸꭼ	-11.4136
ꮝꮪꮂꮝ	-11.416
ꮯꮟꮝꭺ	-11.4202
ꮵꭶꮨꮧꮝꮧ	-11.4227
ꮒꮑꮯᏼꮝ	-11.4258
ᏹꮶꭿᏻꮂ	-11.4287
ꮃꮻꭲꮝꮧᏹ	-11.4297
ꭰꭹꮝꮖꮒꭺ	-11.4411
ꮵꮆꮢꮝ	-11.4425
ꮵꮔꭺꮻꮝꮧ	-11.4426
ꭺꮹꮨꮝꭼꮎ	-11.4477
ꭼꮹꮱꮧꮝ	-11.4533
ꮀꮂꮝꮧ	-11.4548
ꮤᏺꮞꭾ	-11.4648
ꭱꮧꮈꮙ	-11.4701
ꮓꮯꮝ	-11.4709
ꭼꮹꭺꮅᏸ	-11.4821
ᏼꮤꮒꮈ	-11.4857
ꭼꮹꮓꭾꮝ	-11.4911
ꭹꮅᏺꮵꮩ	-11.4951
ꮣꮕꮦꮝꭺ	-11.4952
ꭴꮑꮣꮝꮧ	-11.4961
ꮞꭺꭹꮝꮧ	-11.5103
ꮕꮣꭼꮹꮝꮣꮹ	-11.5264
ꮒꮶꭿᏻ	-11.5349
ꭿꭺꮹꮨ	-11.5414
ꭱꮳꮈꮙꮧ	-11.5581
ꮖꮣꮕꮣꮧꮝ	-11.5593
ꮝꭹᏺꭲᏻꮂ	-11.5674
ꮅꮝꭺꮈꮧꮝꭼ	-11.576
ꮒꮥꭶꮺꮞ	-11.5777
ꭲꮳꮫꭶꮕ	-11.5826
ꮧꭸꮵꭴꮝꮥꮞꮈ	-11.5827
ꮅꮝꭺꮈꮤꮕ	-11.5827
ꮪꮻꮝꮤ	-11.5837
ꮣꮄꮒꮝꭼ	-11.5837
ꮅꮝꮪꮆ	-11.5845
ꭴꮼꮪꭿ	-11.5858
ꭴꮅꮒꭹꮧ	-11.5858
ꮝꮣꮹꮪꭶ	-11.5862
ꭴꮤꮃꮼ	-11.5873
ꮪꮒꮃꮻꮶ	-11.5875
ꭰꮖꮅꮵꮩꮧᏹ	-11.5875
ꭰꮫꮒꮧꮝꮩꮧ	-11.5875
ꭳꭶꮣꮕꮤꮹꮥ	-11.5875
ꭴꮅꮦꮈꮑ	-11.5875
ꭶꮣꮇꮿꮫ	-11.5875
ꭸꮵꮪꭲꮝꮣꮑꮈ	-11.5875
ꭼꭽꮇꮿꮝ	-11.5875
ꭽᏸꮃꮝꮧ	-11.5875
ꮒꮣꮥꮨᏼꭿꮢ	-11.5875
ꮥꮵꭷꮏꮹꮧꮢ	-11.5875
ꮧꮎꮣꮎꮜꮂꮝꭹ	-11.5875
ꮪꮒꮃꮻꮴ	-11.5875
ꮯꮆꭱꮈ	-11.5875
ꮵꮔꮎꮅꮝꮣꮑ	-11.5875
ꮷꮕꭸꮻ	-11.5875
ꭰꮑꮇꮂꮝ	-11.5875
ꭱꮝꮥꮅꮜꮥ	-11.5875
ꭱꮳꮅꭱꮅꮴ	-11.5875
ꭱꮶꭲᏻꮢ	-11.5875
ꭴꮎꮧꭶꮄᏺꮸꭿ	-11.5875
ꭴꮏꮇꮞ	-11.5875
ꭶꮅꮖꮝꭺꭿ	-11.5875
ꭼꮹꮫꮣꮝꮣꮑ	-11.5875
ꮒꭶꮧꮉꮟ	-11.5875
ꮝꮖꮓᏼꭺ	-11.5875
ꮣꮧꮆꮒ	-11.5875
ꮪꮕꮝꮣꮥꮄ	-11.5875
ꮵꮆꮔꭱꮈ	-11.5875
ᏺꮣꮭꮂ	-11.5875
ꭰꮅᏹꮆꮈ	-11.5875
ꭴꮎꮣꮩꮅꮝꮤꮕ	-11.5875
ꭴꮑꭲꮈꮧ	-11.5875
ꭴꮧꮹꮞ	-11.5875
ꭸꮵꭹꮅᏺꭲꮝꮩꮧ	-11.5875
ꮎꮖꮅꮝꮤꮕ	-11.5875
ꮔꮑꭹᏼ	-11.5875
ꮣꮖꮄꮇ	-11.5875
ꭰꮟꮎꮜꮕ	-11.5875
ꭷꮏꮹꮧꮣ	-11.5875
ꮥꭴꮄꮤꮑ	-11.5875
ꮪꭶꮢꮝꮫ	-11.5875
ꮪꮜꮃꮣꮕ	-11.5875
ꮽꮿꮕꭾ	-11.5875
ꭰꮒꮤᏺꭿꭾ	-11.5875
ꭴꮑꮙꭲꮝꮧᏹ	-11.5875
ꮣꮣꮒꮜꮂ	-11.5875
ꮪꮝꮖꮈꮤꮑ	-11.5875
ꮗꮳᏹꮧ	-11.5875
ꮥꭸꭶꮼꮝ	-11.5875
ꮪꮓꮳꮆ	-11.5875
ꮻꮪꮒꮿꮕꮂ	-11.5875
ꭰᏻꮎꭶ	-11.5875
ꮥꭴꮩꮝꮫ	-11.5875
ꮪꮒꮟꮒꮩꮈ	-11.5875
ꮧꮖꮣꮕꮫ	-11.5875
ꭴꮩꮲꮢ	-11.5875
ꭵꮖꮼꮝ	-11.5875
ꮇꮖꮧꮕ	-11.5875
ꭴꭶꮫꮎꮸ	-11.5875
ꭲꭸꮸꮑꮧ	-11.5875
ꭴꮒᏺꭲꮞꮈꭿ	-11.5875
ꭴꮒꭷꮅꮴ	-11.5875
ꮪꮎꮣꮒꮈꮸ	-11.5875
ꭴꮒꮒᏼꮧᏹ	-11.5875
ꭴꮎꮰꮴ	-11.5875
ꭿꮝꭶꮝꭺꭿ	-11.5875
ꭺꮹꮧꮝꭼ	-11.5875
ꭼꮗꭿꮝꮧ	-11.5875
ꮧꮝꮗ	-11.5875
ꭴꮎꮪꮅꮝꭹ	-11.5875
ꭸᏻꮕꮎ	-11.5875
ꮤꮻꭲꮝꮧᏹ	-11.5875
ꮒꮳꮺꮢ	-11.5875
ꮤꮺꮩ	-11.5875
ꭴꮒꮔꭺꮴ	-11.5875
ꮽꭺꭾ	-11.5875
ꭲꮳꮫꭹꮝꭸꮝꮧ	-11.5875
ꮧꮳꮅꮒꭺꭿꮝꮩꮧ	-11.5875
ꭰꭸᏺꮕ	-11.5875
ꮧꮅꮢꮝꮧ	-11.5875
ᏺꮸꮧꮝꭸ	-11.5875
ꮅᏹꮅꮥ	-11.5875
ꮳꭻꭺꮣꮑꮧ	-11.5875
ꭼꮹꮝꮧᏸꮤ	-11.5875
ꮑꮣꮒꮅ	-11.5875
ꮳꮫꭹꮝꭺ	-11.5875
ꭴꮎꮃꮝꮣꭱ	-11.5875
ꮡꮅꭺꮸ	-11.5875
ꮻꮳᏼꮈ	-11.5875
ꮪꮓꮺꮈ	-11.5875
ꭴꮺꮿꮈ	-11.5875
ꮕꮷꮺꮞ	-11.5875
ꭰꮝꮩꮝꭹ	-11.5875
ꮷꮆꮞ	-11.5875
ꭼꮿꭻᏼꭱ	-11.5875
ꭶꮄꮕꮤ	-11.5876
ꮓꭾꭾꮄ	-11.5876
ꭴꮎꮅꮓꭾꮄ	-11.5876
ꮎꮖꮫꮑꮈ	-11.5876
ꮣꮣꮼꮝꭼ	-11.5876
ꭰꭹꭺꮑꮈ	-11.5876
ꮏꮇꮢ	-11.5876
ꮣꮩꮅꮝꮤꮒ	-11.5876
ꮩꮡꮄ	-11.5876
ꭰꮩꮒꮝ	-11.5877
ꮳꭶꮸꮝ	-11.5877
ꭴꮄꮻꮝ	-11.5877
ꮣꮯꮆꮝꮧꮝꭼ	-11.5878
ꭰꮎꮅꮝꭶꮝꮩꮧꮝ	-11.5878
ꮒꭼꮹꮒꮺꮞ	-11.5878
ꭲᏸꭼꮑ	-11.5878
ꭰꮅꭾꮅꭼ	-11.5878
ꮪꮽꭺꮤ	-11.5879
ꮝꮥꮩꮂ	-11.588
ꭳꮳꮅꭱꮅꮴ	-11.588
ꭰꮖꮲꮘꮝꮧ	-11.588
ꮴꮃꮧꮝꮧ	-11.588
ꭺꮡꮄ	-11.5881
ꭴꮞꮅꮤꮕ	-11.5882
ꮑꮙꭱꮧ	-11.5883
ꭲᏻꮒꮺꮝꮧ	-11.5884
ꭰꮒꮝꮖꮒꭺꮧꮝ	-11.5884
ꭴꮒꮹꮢ	-11.5885
ꭸꮵꭸᏻ	-11.5886
ꮿꮺꭲꮝ	-11.5886
ꮲꮙꮩꮧ	-11.5897
ꮣꮒꮆꮔꭾꮝ	-11.5897
ꮣꮯꮜꮑ	-11.5899
ꮧꭶꮣꭸᏻꭿ	-11.5902
ꮣꭶꮄꮤ	-11.5904
ꭿꮿꮣꮩꮅꮝꮣ	-11.5907
ꮫꮑꮅꮩꮈ	-11.5909
~	-12.1708
;	-12.6472
ꮍ	-12.6708
]	-13.5957
?	-13.6486
ꮚ	-13.6704
:	-13.6705
)	-13.6706
!	-13.6707
\	-13.6708
ꮛ	-13.6708
