<pad>	0
</s>	0
<unk>	0
▁¦	-0
▁𐋇	-1
in	-2
▁,	-3
an	-4
en	-5
ta	-6
ja	-7
si	-8
ka	-9
ll	-10
än	-11
is	-12
tä	-13
va	-14
et	-15
sa	-16
▁.	-17
ku	-18
on	-19
he	-20
te	-21
tu	-22
ol	-23
ma	-24
hän	-25
el	-26
lle	-27
oi	-28
ut	-29
ra	-30
min	-31
se	-32
jo	-33
ko	-34
ti	-35
un	-36
ki	-37
la	-38
kä	-39
mi	-40
vat	-41
es	-42
ni	-43
as	-44
ei	-45
pa	-46
san	-47
sin	-48
vi	-49
vä	-50
sä	-51
▁:	-52
her	-53
ik	-54
sen	-55
kun	-56
▁"	-57
it	-58
llä	-59
ju	-60
me	-61
ne	-62
niin	-63
ke	-64
oli	-65
ksi	-66
sta	-67
id	-68
pä	-69
▁;	-70
minä	-71
ha	-72
lla	-73
utta	-74
kan	-75
to	-76
yt	-77
li	-78
pu	-79
su	-80
herra	-81
ten	-82
ri	-83
mä	-84
le	-85
nä	-86
kaik	-87
mu	-88
hänen	-89
men	-90
ty	-91
vät	-92
ot	-93
hd	-94
juma	-95
kaa	-96
mutta	-97
sy	-98
aa	-99
isi	-100
ista	-101
joka	-102
ole	-103
lä	-104
er	-105
hu	-106
kuin	-107
us	-108
että	-109
tan	-110
sillä	-111
idän	-112
jä	-113
ud	-114
pi	-115
ky	-116
uo	-117
ssa	-118
eli	-119
mme	-120
ran	-121
minun	-122
so	-123
kö	-124
sinun	-125
sanoi	-126
maan	-127
ille	-128
po	-129
tta	-130
ksen	-131
kaan	-132
kaikki	-133
kin	-134
van	-135
kunin	-136
sinä	-137
mo	-138
itä	-139
jumala	-140
elle	-141
sano	-142
pää	-143
il	-144
saa	-145
tka	-146
pal	-147
taa	-148
ed	-149
ih	-150
vasta	-151
kau	-152
kse	-153
hä	-154
jotka	-155
maa	-156
isra	-157
▁?	-158
mis	-159
inen	-160
minu	-161
kuu	-162
elä	-163
herran	-164
jan	-165
lu	-166
na	-167
lta	-168
nyt	-169
päi	-170
heidän	-171
poi	-172
een	-173
py	-174
elin	-175
ette	-176
lais	-177
koon	-178
▁".	-179
mie	-180
han	-181
lan	-182
kat	-183
itse	-184
ovat	-185
voi	-186
asta	-187
ät	-188
män	-189
eet	-190
mitä	-191
no	-192
kää	-193
ru	-194
mei	-195
lo	-196
yö	-197
istu	-198
sinu	-199
läh	-200
rin	-201
jon	-202
tän	-203
▁`	-204
toi	-205
tuli	-206
olen	-207
essä	-208
re	-209
pun	-210
oin	-211
ken	-212
tämä	-213
je	-214
hden	-215
at	-216
ho	-217
niinkuin	-218
man	-219
kansa	-220
vän	-221
ar	-222
▁."	-223
joi	-224
vuo	-225
palv	-226
jumalan	-227
pe	-228
pel	-229
uh	-230
tule	-231
istä	-232
hänelle	-233
jos	-234
vai	-235
syn	-236
tai	-237
stä	-238
jen	-239
suu	-240
hen	-241
isen	-242
tanut	-243
yl	-244
kir	-245
olivat	-246
taan	-247
aan	-248
hi	-249
katso	-250
kuning	-251
mmen	-252
teidän	-253
val	-254
hänet	-255
vastaan	-256
kymmen	-257
sit	-258
ellä	-259
teen	-260
vaan	-261
assa	-262
tet	-263
idät	-264
kas	-265
estä	-266
kaupun	-267
var	-268
tähden	-269
häntä	-270
lloin	-271
llut	-272
essa	-273
tti	-274
lei	-275
tin	-276
ön	-277
mon	-278
kuningas	-279
iset	-280
israelin	-281
sitä	-282
tuo	-283
kään	-284
eivät	-285
llen	-286
ve	-287
teh	-288
tun	-289
poika	-290
heille	-291
meid	-292
jäl	-293
mat	-294
jonka	-295
tiin	-296
änsä	-297
päivän	-298
koi	-299
issa	-300
palveli	-301
olet	-302
pan	-303
kka	-304
tää	-305
daa	-306
joo	-307
näin	-308
▁!	-309
asu	-310
eikä	-311
kul	-312
tui	-313
hy	-314
silloin	-315
jer	-316
vid	-317
daavid	-318
ska	-319
sanoo	-320
jou	-321
käs	-322
vel	-323
luo	-324
vo	-325
ab	-326
uta	-327
dä	-328
äl	-329
ai	-330
jat	-331
kanssa	-332
mp	-333
ain	-334
esta	-335
kor	-336
moo	-337
ansa	-338
neet	-339
sivat	-340
koko	-341
ää	-342
pois	-343
yös	-344
esi	-345
al	-346
ura	-347
meidän	-348
puhu	-349
per	-350
jaa	-351
minulle	-352
▁-	-353
pol	-354
heidät	-355
sitten	-356
minua	-357
päivänä	-358
meni	-359
jees	-360
iden	-361
mmä	-362
ro	-363
uden	-364
ään	-365
asti	-366
otta	-367
haa	-368
kol	-369
lap	-370
kaksi	-371
ul	-372
kar	-373
myös	-374
hin	-375
sil	-376
laiset	-377
juud	-378
tte	-379
tul	-380
vu	-381
usa	-382
köön	-383
pap	-384
inä	-385
vaa	-386
ise	-387
ita	-388
kuninkaan	-389
het	-390
ssä	-391
esti	-392
ver	-393
teille	-394
kea	-395
las	-396
laisten	-397
israeli	-398
op	-399
ren	-400
mies	-401
sinua	-402
moose	-403
kes	-404
suku	-405
syö	-406
etti	-407
tämän	-408
vää	-409
▁?"	-410
nan	-411
nou	-412
nut	-413
heitä	-414
eltä	-415
edessä	-416
jerusa	-417
jerusale	-418
käsi	-419
teki	-420
sinulle	-421
tö	-422
isin	-423
valta	-424
eg	-425
yn	-426
ee	-427
set	-428
ihmis	-429
tee	-430
ker	-431
tykö	-432
siitä	-433
minut	-434
kymmentä	-435
tto	-436
älä	-437
maahan	-438
isesti	-439
yttä	-440
hur	-441
oma	-442
yh	-443
iste	-444
tar	-445
yp	-446
mukaan	-447
egyp	-448
vielä	-449
olle	-450
puh	-451
kaupung	-452
tyi	-453
temp	-454
kseen	-455
tava	-456
kansan	-457
mikä	-458
sydä	-459
pyhä	-460
tulee	-461
uksen	-462
nämä	-463
net	-464
yd	-465
tie	-466
isia	-467
seura	-468
otti	-469
da	-470
astu	-471
siih	-472
kon	-473
seitse	-474
äni	-475
koh	-476
enn	-477
lin	-478
ilm	-479
vir	-480
sentähden	-481
teke	-482
iksi	-483
lee	-484
kaiken	-485
ani	-486
kia	-487
kuninkaa	-488
siihen	-489
vastasi	-490
aab	-491
isa	-492
nel	-493
vanhur	-494
ton	-495
puole	-496
viin	-497
kr	-498
paa	-499
lähti	-500
tänyt	-501
sii	-502
raa	-503
ttaa	-504
ollut	-505
juudan	-506
isä	-507
muu	-508
käy	-509
usko	-510
ensa	-511
aset	-512
ba	-513
mpä	-514
kkaa	-515
päivä	-516
oike	-517
koska	-518
isu	-519
ivat	-520
issä	-521
sekä	-522
ron	-523
seitsemän	-524
miel	-525
maassa	-526
tuu	-527
pala	-528
miehet	-529
palvelija	-530
sanoen	-531
olkoon	-532
ettei	-533
tur	-534
sinut	-535
toista	-536
lleen	-537
niiden	-538
kut	-539
siellä	-540
käsky	-541
kautta	-542
sel	-543
usta	-544
älkää	-545
ensä	-546
antoi	-547
asi	-548
jälk	-549
jälkelä	-550
yksi	-551
vas	-552
tehnyt	-553
tansa	-554
lli	-555
sanoivat	-556
kai	-557
tempp	-558
isten	-559
ji	-560
lau	-561
eteen	-562
tettu	-563
ssan	-564
mään	-565
kiin	-566
kuinka	-567
ttä	-568
kristu	-569
olette	-570
opet	-571
ys	-572
miin	-573
den	-574
pojan	-575
pah	-576
sanon	-577
jeesus	-578
tus	-579
hävi	-580
ek	-581
pro	-582
vin	-583
ikka	-584
kunni	-585
ell	-586
vaimo	-587
prof	-588
or	-589
raken	-590
herraa	-591
ian	-592
ota	-593
enää	-594
por	-595
mene	-596
kirjoi	-597
kko	-598
synti	-599
eni	-600
ksensa	-601
jota	-602
kuole	-603
sur	-604
teitä	-605
ara	-606
tään	-607
siis	-608
hei	-609
ympä	-610
am	-611
yty	-612
niitä	-613
▁`.	-614
koot	-615
lapsi	-616
oit	-617
tied	-618
mia	-619
kolme	-620
ina	-621
yli	-622
miehen	-623
ria	-624
siinä	-625
herralle	-626
ruu	-627
puol	-628
oa	-629
kunn	-630
be	-631
näki	-632
sota	-633
missä	-634
mitään	-635
juo	-636
hal	-637
tuha	-638
erä	-639
nuo	-640
pappi	-641
osa	-642
sti	-643
antaa	-644
neljä	-645
met	-646
utu	-647
keli	-648
olisi	-649
kuka	-650
tullut	-651
daavidin	-652
mää	-653
altta	-654
mpi	-655
jälke	-656
kasta	-657
olla	-658
hdä	-659
viisi	-660
israel	-661
lam	-662
ruo	-663
tuomi	-664
jy	-665
liit	-666
kseni	-667
palvel	-668
vain	-669
rä	-670
unut	-671
taneet	-672
yhd	-673
ihin	-674
miksi	-675
pil	-676
tah	-677
jaako	-678
jaakob	-679
antanut	-680
kki	-681
ven	-682
kauh	-683
kymmenen	-684
anta	-685
salo	-686
annan	-687
ppu	-688
ennen	-689
vaat	-690
huon	-691
udessa	-692
lö	-693
oleva	-694
kos	-695
mooses	-696
esty	-697
kku	-698
mista	-699
tulivat	-700
ret	-701
aina	-702
uhri	-703
profeet	-704
dan	-705
uni	-706
kei	-707
tod	-708
vie	-709
lah	-710
vih	-711
anna	-712
kel	-713
olemme	-714
lähetti	-715
joita	-716
malla	-717
nouse	-718
hyvä	-719
kuul	-720
ruh	-721
pai	-722
seen	-723
ympäri	-724
mur	-725
sataa	-726
isille	-727
siel	-728
mar	-729
sana	-730
iankaik	-731
jal	-732
tyttä	-733
del	-734
mer	-735
ussa	-736
jän	-737
vet	-738
oni	-739
päin	-740
tunut	-741
my	-742
istui	-743
kanssan	-744
ras	-745
laa	-746
ella	-747
perin	-748
älköön	-749
jul	-750
saul	-751
tapah	-752
rik	-753
vall	-754
suuri	-755
oo	-756
tuhatta	-757
kutsu	-758
ksessa	-759
tuivat	-760
ymmä	-761
minkä	-762
paljon	-763
vanhurska	-764
huu	-765
jet	-766
kset	-767
miestä	-768
toinen	-769
ivät	-770
tesi	-771
masta	-772
sinne	-773
nime	-774
ymmär	-775
rau	-776
ensi	-777
nu	-778
syy	-779
saan	-780
aaron	-781
rukoi	-782
llensa	-783
soi	-784
heng	-785
isiä	-786
ksesi	-787
kselle	-788
kaikkien	-789
aja	-790
kuuli	-791
egyptin	-792
emme	-793
lleet	-794
ruhtin	-795
toisen	-796
seis	-797
puhui	-798
laisia	-799
gi	-800
teli	-801
tena	-802
ynnä	-803
sanan	-804
rat	-805
tal	-806
pei	-807
kaisin	-808
ga	-809
muuta	-810
pääll	-811
eksi	-812
paik	-813
ry	-814
onin	-815
teet	-816
meitä	-817
pit	-818
ulo	-819
isti	-820
raha	-821
iankaikk	-822
sää	-823
vilä	-824
maasta	-825
jumalaa	-826
teko	-827
tomu	-828
viho	-829
tänsä	-830
anne	-831
hall	-832
ilmoi	-833
keske	-834
lainen	-835
ös	-836
ben	-837
seba	-838
änne	-839
au	-840
kiit	-841
itsen	-842
ottaa	-843
pojat	-844
tensä	-845
siun	-846
henki	-847
viholl	-848
illä	-849
kysy	-850
unsa	-851
meille	-852
sisä	-853
lähet	-854
jälkeen	-855
uksi	-856
mmat	-857
jansa	-858
iseksi	-859
öl	-860
sai	-861
hope	-862
kukaan	-863
takaisin	-864
kee	-865
alas	-866
elta	-867
vaikka	-868
do	-869
sia	-870
kuule	-871
sille	-872
llensä	-873
öt	-874
huo	-875
sef	-876
baab	-877
talo	-878
tot	-879
itsi	-880
tulevat	-881
leevilä	-882
tekee	-883
toimi	-884
kaikkia	-885
lähe	-886
eivätkä	-887
har	-888
pakan	-889
päällä	-890
fil	-891
hedel	-892
llesi	-893
ona	-894
iten	-895
poltto	-896
teidät	-897
veljen	-898
massa	-899
de	-900
hyl	-901
käd	-902
perintö	-903
baa	-904
suo	-905
ulos	-906
filiste	-907
juuta	-908
vuor	-909
vii	-910
kivi	-911
muut	-912
filistea	-913
tämään	-914
kahd	-915
viha	-916
kyy	-917
jumalasi	-918
jeesuksen	-919
joh	-920
mas	-921
neu	-922
tua	-923
kunta	-924
tahd	-925
lleni	-926
opetus	-927
sar	-928
▁!"	-929
kaiki	-930
jät	-931
etta	-932
ess	-933
näh	-934
armo	-935
isänsä	-936
uda	-937
nousi	-938
varti	-939
kanssaan	-940
tap	-941
temppeli	-942
tietä	-943
päälle	-944
jää	-945
kii	-946
fara	-947
kuiten	-948
ad	-949
tut	-950
tänne	-951
onsa	-952
tenä	-953
iseen	-954
vaimon	-955
vanhurs	-956
joku	-957
kal	-958
oita	-959
tele	-960
osta	-961
puhunut	-962
rit	-963
jaan	-964
tani	-965
miehi	-966
ltä	-967
rie	-968
mille	-969
rai	-970
tel	-971
jalle	-972
temppelin	-973
häpe	-974
isty	-975
jumalatto	-976
silmä	-977
taivaan	-978
pin	-979
moin	-980
vien	-981
väke	-982
sebaot	-983
heit	-984
tävä	-985
oikea	-986
kaupungin	-987
ter	-988
öljy	-989
kanso	-990
minen	-991
saasta	-992
jokainen	-993
ef	-994
lain	-995
puhd	-996
jossa	-997
vy	-998
jolla	-999
mel	-1000
toa	-1001
miehe	-1002
vah	-1003
etty	-1004
nimi	-1005
maata	-1006
joosef	-1007
llinen	-1008
poikansa	-1009
beet	-1010
matta	-1011
israelilaiset	-1012
puolella	-1013
ola	-1014
illa	-1015
vuotta	-1016
vit	-1017
samoin	-1018
aabraha	-1019
profeetta	-1020
hti	-1021
aika	-1022
missa	-1023
tähän	-1024
synnyt	-1025
kuusi	-1026
ahd	-1027
ineen	-1028
ilmesty	-1029
moosekselle	-1030
tänä	-1031
kyynä	-1032
tehdä	-1033
ved	-1034
haan	-1035
kalta	-1036
nimen	-1037
juu	-1038
ettu	-1039
suur	-1040
tytä	-1041
vali	-1042
jouko	-1043
kasvo	-1044
syntyi	-1045
aik	-1046
syt	-1047
tätä	-1048
kulki	-1049
hda	-1050
työ	-1051
vei	-1052
teura	-1053
jumali	-1054
ensimmä	-1055
siä	-1056
hopea	-1057
isiin	-1058
pahaa	-1059
ia	-1060
väki	-1061
ylös	-1062
varten	-1063
kristuksen	-1064
täyt	-1065
lähte	-1066
riemu	-1067
rakasta	-1068
rille	-1069
kanaan	-1070
pyh	-1071
tyh	-1072
mistä	-1073
sivät	-1074
kär	-1075
kulta	-1076
taiva	-1077
kuninkaaksi	-1078
od	-1079
sau	-1080
tyy	-1081
tuon	-1082
maail	-1083
tytär	-1084
totisesti	-1085
rää	-1086
saat	-1087
kuoli	-1088
perhe	-1089
verta	-1090
pelastu	-1091
nen	-1092
käskyn	-1093
hau	-1094
kad	-1095
niistä	-1096
aino	-1097
menivät	-1098
annet	-1099
kumar	-1100
olleet	-1101
ana	-1102
naa	-1103
iankaikkisesti	-1104
ssaan	-1105
kööt	-1106
kansaa	-1107
kiinni	-1108
miehiä	-1109
taiste	-1110
sydämen	-1111
lähtivät	-1112
tuvat	-1113
jerusalemin	-1114
kiel	-1115
joosu	-1116
tykön	-1117
viisa	-1118
paha	-1119
itten	-1120
hänellä	-1121
kuninkaalle	-1122
ah	-1123
tat	-1124
toivat	-1125
tehneet	-1126
eikö	-1127
päivää	-1128
salomo	-1129
päällik	-1130
tien	-1131
essään	-1132
utensa	-1133
ilo	-1134
riksi	-1135
suure	-1136
käsken	-1137
sukukun	-1138
kät	-1139
pid	-1140
matto	-1141
tässä	-1142
viini	-1143
ksenne	-1144
saakka	-1145
kukin	-1146
kätensä	-1147
kani	-1148
mppu	-1149
kokoon	-1150
kunnes	-1151
istaa	-1152
kesku	-1153
käsiin	-1154
vuoden	-1155
siir	-1156
sanot	-1157
kseksi	-1158
sanonut	-1159
kuk	-1160
lyö	-1161
muuka	-1162
iselle	-1163
pelkää	-1164
kirjoitettu	-1165
eh	-1166
ene	-1167
jani	-1168
takaa	-1169
kkaan	-1170
pelas	-1171
tävät	-1172
heistä	-1173
ihmisen	-1174
aut	-1175
astaan	-1176
polttouh	-1177
von	-1178
jona	-1179
vael	-1180
pitää	-1181
ottivat	-1182
kaikesta	-1183
ojen	-1184
reja	-1185
riin	-1186
siin	-1187
taas	-1188
voin	-1189
seuraa	-1190
eta	-1191
enkä	-1192
lampa	-1193
kaikille	-1194
udes	-1195
poh	-1196
sor	-1197
alle	-1198
kalli	-1199
käski	-1200
mooab	-1201
paran	-1202
lapset	-1203
meidät	-1204
kauhistu	-1205
keskellä	-1206
nö	-1207
uu	-1208
alu	-1209
karit	-1210
sieltä	-1211
juh	-1212
liiton	-1213
syntiä	-1214
ase	-1215
suh	-1216
kuulu	-1217
papit	-1218
uttaa	-1219
vihan	-1220
jor	-1221
mmi	-1222
nouda	-1223
keu	-1224
nim	-1225
par	-1226
tulla	-1227
päästä	-1228
bin	-1229
elää	-1230
iloit	-1231
laisille	-1232
ainoastaan	-1233
jerusalemiin	-1234
rän	-1235
mmän	-1236
meren	-1237
udesta	-1238
pat	-1239
vil	-1240
enne	-1241
änyt	-1242
jamin	-1243
onnet	-1244
ettiin	-1245
kuitenkin	-1246
vot	-1247
pime	-1248
enkeli	-1249
kansat	-1250
lapsen	-1251
hänestä	-1252
st	-1253
pysy	-1254
synty	-1255
voima	-1256
kahdek	-1257
tuksen	-1258
pet	-1259
sama	-1260
väli	-1261
yhtä	-1262
sanat	-1263
sansa	-1264
surma	-1265
tiedä	-1266
tivät	-1267
baabelin	-1268
pii	-1269
viä	-1270
teeksi	-1271
jälkeläisiä	-1272
israelilaisten	-1273
mal	-1274
tetaan	-1275
myöskin	-1276
ottanut	-1277
hyö	-1278
sut	-1279
alla	-1280
ystä	-1281
lähd	-1282
pain	-1283
aurin	-1284
häneen	-1285
kah	-1286
täh	-1287
mma	-1288
mole	-1289
olin	-1290
vesi	-1291
paken	-1292
sydäm	-1293
llenne	-1294
ttivat	-1295
aat	-1296
moni	-1297
efrai	-1298
hyvin	-1299
vanha	-1300
joukko	-1301
laisen	-1302
benjamin	-1303
di	-1304
kui	-1305
äsi	-1306
oista	-1307
pyhit	-1308
tusta	-1309
häneltä	-1310
kansalle	-1311
jerusalemissa	-1312
yhä	-1313
lupa	-1314
heimo	-1315
kauan	-1316
sella	-1317
vettä	-1318
jordan	-1319
ksemme	-1320
käskenyt	-1321
valtakun	-1322
ennenkuin	-1323
os	-1324
▁`,	-1325
ylen	-1326
kirja	-1327
nähdä	-1328
suuren	-1329
jaakobin	-1330
kur	-1331
kyl	-1332
iltä	-1333
liik	-1334
tulen	-1335
velji	-1336
ked	-1337
ppa	-1338
puu	-1339
sty	-1340
hyvää	-1341
kkaat	-1342
jär	-1343
kahdeksan	-1344
lat	-1345
oksi	-1346
vasi	-1347
aikaan	-1348
silmän	-1349
kaksikymmentä	-1350
polv	-1351
tuho	-1352
yden	-1353
josta	-1354
täyty	-1355
uskon	-1356
leipää	-1357
alttarin	-1358
▁",	-1359
eläi	-1360
jasi	-1361
jensa	-1362
rakka	-1363
kahden	-1364
katsel	-1365
puolelle	-1366
oon	-1367
mieh	-1368
sääd	-1369
kunnia	-1370
teistä	-1371
kyynärää	-1372
lun	-1373
näl	-1374
kuun	-1375
peljä	-1376
kansani	-1377
tekivät	-1378
kaikista	-1379
unu	-1380
kansojen	-1381
kaupunkiin	-1382
bi	-1383
oh	-1384
lai	-1385
itte	-1386
kana	-1387
oman	-1388
tanne	-1389
ttanut	-1390
kohtaan	-1391
temppel	-1392
isto	-1393
ihminen	-1394
pyy	-1395
onko	-1396
yhden	-1397
rii	-1398
see	-1399
uhra	-1400
neuvo	-1401
egypti	-1402
isista	-1403
teillä	-1404
tulleet	-1405
veljensä	-1406
onnettomu	-1407
yk	-1408
jia	-1409
asun	-1410
niille	-1411
saatta	-1412
jumalamme	-1413
mak	-1414
henke	-1415
tuomit	-1416
itsensä	-1417
seurakun	-1418
kanssansa	-1419
saf	-1420
itin	-1421
täni	-1422
jille	-1423
tahto	-1424
tavat	-1425
käänty	-1426
tietää	-1427
vuotena	-1428
anteeksi	-1429
valtaistui	-1430
riko	-1431
tunn	-1432
kohti	-1433
llaan	-1434
oihin	-1435
pur	-1436
halli	-1437
isäni	-1438
tettiin	-1439
aamu	-1440
ajat	-1441
laak	-1442
velje	-1443
isiksi	-1444
llansa	-1445
bu	-1446
vis	-1447
syödä	-1448
asetti	-1449
karkoi	-1450
kolman	-1451
kuolle	-1452
minusta	-1453
puhe	-1454
utti	-1455
vinä	-1456
korke	-1457
kimppu	-1458
kirkka	-1459
▁.`	-1460
jere	-1461
jeesu	-1462
rikko	-1463
täkää	-1464
isivat	-1465
saavat	-1466
palvelijasi	-1467
sän	-1468
auti	-1469
liha	-1470
olevan	-1471
luon	-1472
pieta	-1473
tetta	-1474
saanut	-1475
kaikkea	-1476
kanssasi	-1477
ala	-1478
sma	-1479
isän	-1480
pääs	-1481
rasta	-1482
elämän	-1483
isesta	-1484
miesten	-1485
ban	-1486
kit	-1487
pani	-1488
joona	-1489
kelin	-1490
manas	-1491
vanhi	-1492
menkää	-1493
yhdessä	-1494
kaupunki	-1495
mah	-1496
noin	-1497
totu	-1498
vapa	-1499
viis	-1500
pysyy	-1501
tuleva	-1502
herrani	-1503
ihmisten	-1504
mus	-1505
jälj	-1506
astui	-1507
essäni	-1508
sydäme	-1509
minulla	-1510
dän	-1511
sata	-1512
armon	-1513
egypt	-1514
essaan	-1515
joosua	-1516
ksesta	-1517
tyivät	-1518
kaupunkia	-1519
kaksitoista	-1520
ur	-1521
ris	-1522
vun	-1523
paika	-1524
tunte	-1525
joilla	-1526
alttari	-1527
asin	-1528
nous	-1529
äitin	-1530
joiden	-1531
silmissä	-1532
kuningasta	-1533
hoi	-1534
sija	-1535
udat	-1536
johon	-1537
nosta	-1538
ilmestysma	-1539
epä	-1540
uto	-1541
hoja	-1542
vana	-1543
jooab	-1544
hengen	-1545
neljän	-1546
seisoi	-1547
täynnä	-1548
nis	-1549
noi	-1550
ser	-1551
gile	-1552
ossa	-1553
ottu	-1554
nuoru	-1555
viksi	-1556
gilead	-1557
valmis	-1558
puolesta	-1559
ympärilei	-1560
gon	-1561
samu	-1562
leiri	-1563
mennä	-1564
sitte	-1565
enemmän	-1566
jordanin	-1567
lähettänyt	-1568
pane	-1569
pohjo	-1570
kutsui	-1571
jälleen	-1572
kil	-1573
mät	-1574
hevo	-1575
näky	-1576
taja	-1577
hävit	-1578
johan	-1579
tetty	-1580
ketään	-1581
muista	-1582
teensa	-1583
todista	-1584
abi	-1585
his	-1586
kävi	-1587
aikaa	-1588
loppu	-1589
äläkä	-1590
lähten	-1591
tuneet	-1592
täneet	-1593
kaikkin	-1594
kuullut	-1595
poikani	-1596
erämaassa	-1597
edo	-1598
mien	-1599
näke	-1600
ruko	-1601
kuuka	-1602
kesken	-1603
sanoin	-1604
saulin	-1605
sinulla	-1606
asukkaat	-1607
luoksensa	-1608
jälkeläiset	-1609
hel	-1610
iisa	-1611
suvu	-1612
kysyi	-1613
tästä	-1614
nähnyt	-1615
aaronin	-1616
kaupungit	-1617
nuh	-1618
olta	-1619
soti	-1620
aaksi	-1621
määrä	-1622
valit	-1623
varus	-1624
keelle	-1625
niihin	-1626
täy	-1627
via	-1628
otan	-1629
ulko	-1630
esiko	-1631
hyvän	-1632
jumalalle	-1633
sö	-1634
sul	-1635
tor	-1636
itar	-1637
vier	-1638
rakas	-1639
kuulkaa	-1640
tykönsä	-1641
jumalanne	-1642
mooseksen	-1643
liikkeelle	-1644
temppeliin	-1645
ili	-1646
assu	-1647
etsi	-1648
sovi	-1649
kyllä	-1650
julista	-1651
viinitar	-1652
heb	-1653
hoo	-1654
jään	-1655
jasta	-1656
sydän	-1657
terve	-1658
päivinä	-1659
lis	-1660
vyö	-1661
ihmi	-1662
suit	-1663
matka	-1664
henken	-1665
todistu	-1666
kuulleet	-1667
eita	-1668
sivu	-1669
kukku	-1670
vääry	-1671
faraon	-1672
heillä	-1673
kasvoi	-1674
hallitus	-1675
toimitta	-1676
daavidille	-1677
leeviläiset	-1678
ny	-1679
isy	-1680
laid	-1681
puut	-1682
teni	-1683
mihin	-1684
monta	-1685
kotiin	-1686
paavali	-1687
pelasta	-1688
jumalani	-1689
nat	-1690
tuh	-1691
etkä	-1692
sani	-1693
kirjan	-1694
pyhäkö	-1695
ottakaa	-1696
mun	-1697
seb	-1698
sielu	-1699
tuaan	-1700
muksen	-1701
ruokauh	-1702
ele	-1703
▁?`	-1704
käär	-1705
veis	-1706
vuod	-1707
yhte	-1708
haure	-1709
laupe	-1710
omaan	-1711
korkea	-1712
paikkaan	-1713
palat	-1714
ammoni	-1715
kristus	-1716
lähettä	-1717
älkääkä	-1718
sydämensä	-1719
palvelijoi	-1720
anin	-1721
huud	-1722
huusi	-1723
kestä	-1724
meillä	-1725
olkoot	-1726
egyptilä	-1727
tyttären	-1728
päämiehet	-1729
ge	-1730
non	-1731
äär	-1732
jain	-1733
laki	-1734
mman	-1735
pare	-1736
tahi	-1737
kammi	-1738
poiki	-1739
tuksi	-1740
kuulla	-1741
sieluni	-1742
avu	-1743
löy	-1744
pyl	-1745
arvo	-1746
kärsi	-1747
virsi	-1748
saastu	-1749
toiset	-1750
viisikymmentä	-1751
valin	-1752
vaatte	-1753
minulta	-1754
molemmat	-1755
neljäkymmentä	-1756
pö	-1757
goo	-1758
päät	-1759
edestä	-1760
laidun	-1761
taivaasta	-1762
din	-1763
pyhi	-1764
huone	-1765
puoli	-1766
etteivät	-1767
hallitsi	-1768
leiriyty	-1769
sukukunn	-1770
imme	-1771
näyt	-1772
saar	-1773
etelä	-1774
kulla	-1775
pyhäk	-1776
ksensä	-1777
viiden	-1778
palvele	-1779
sanovat	-1780
ruhtinas	-1781
mot	-1782
son	-1783
ajan	-1784
evan	-1785
hajo	-1786
kaamme	-1787
laakso	-1788
portin	-1789
veljet	-1790
ihmiset	-1791
miä	-1792
daan	-1793
mmin	-1794
puna	-1795
herät	-1796
kohta	-1797
murhe	-1798
puhun	-1799
salli	-1800
uhraa	-1801
yksin	-1802
kolmen	-1803
kultaa	-1804
sinusta	-1805
joonatan	-1806
kanssani	-1807
pakanain	-1808
ihmislapsi	-1809
ela	-1810
mor	-1811
pui	-1812
sie	-1813
kall	-1814
kohd	-1815
vahv	-1816
jooja	-1817
pylvä	-1818
poikaa	-1819
tetään	-1820
näkivät	-1821
ilta	-1822
isit	-1823
main	-1824
isenä	-1825
konsa	-1826
totta	-1827
paimen	-1828
ylimmä	-1829
huoneen	-1830
israelia	-1831
perintöo	-1832
päällikkö	-1833
äi	-1834
ahi	-1835
gaa	-1836
jero	-1837
näet	-1838
paljo	-1839
valti	-1840
yhdek	-1841
tehkää	-1842
tulisi	-1843
päivään	-1844
ruumiin	-1845
jumalansa	-1846
vastasivat	-1847
filistealaisten	-1848
ir	-1849
kaun	-1850
isäsi	-1851
menee	-1852
oilla	-1853
udella	-1854
koo	-1855
udu	-1856
kaat	-1857
luku	-1858
tiet	-1859
tola	-1860
esipi	-1861
aikana	-1862
portti	-1863
tiedät	-1864
ttavat	-1865
ahdistu	-1866
assurin	-1867
kaikessa	-1868
tietämään	-1869
kuningasten	-1870
ram	-1871
vala	-1872
kenen	-1873
lihan	-1874
oppin	-1875
puhut	-1876
ruumi	-1877
lasten	-1878
samari	-1879
tyttäri	-1880
lepo	-1881
peit	-1882
ranga	-1883
rella	-1884
joista	-1885
antakaa	-1886
herralta	-1887
eti	-1888
rät	-1889
tit	-1890
lohd	-1891
mull	-1892
sala	-1893
tapa	-1894
esiin	-1895
kanta	-1896
keliu	-1897
muita	-1898
pakko	-1899
joukossa	-1900
evankeliu	-1901
jis	-1902
nei	-1903
sid	-1904
koho	-1905
kosta	-1906
tunne	-1907
absalo	-1908
ettävä	-1909
lapsia	-1910
jumalia	-1911
mooabin	-1912
pietari	-1913
muksessa	-1914
perintöosa	-1915
far	-1916
oven	-1917
äiti	-1918
juuda	-1919
kohda	-1920
llään	-1921
ttele	-1922
uteni	-1923
saatte	-1924
taistelu	-1925
israelilaisille	-1926
apu	-1927
hävä	-1928
ryös	-1929
häpeä	-1930
olkaa	-1931
pahan	-1932
saman	-1933
tälle	-1934
uteen	-1935
vihaa	-1936
isistä	-1937
kerran	-1938
tekoja	-1939
vanhurskas	-1940
kolmekymmentä	-1941
oll	-1942
sir	-1943
autu	-1944
kiro	-1945
tart	-1946
arkin	-1947
jalka	-1948
näitä	-1949
vaski	-1950
miekan	-1951
suitsu	-1952
veivät	-1953
jotakin	-1954
ket	-1955
mpa	-1956
roh	-1957
eräs	-1958
liin	-1959
poja	-1960
raan	-1961
pyhän	-1962
tonsa	-1963
tulle	-1964
jerobe	-1965
vaelta	-1966
väkevä	-1967
maineen	-1968
tulette	-1969
jana	-1970
keru	-1971
lang	-1972
pien	-1973
toja	-1974
toon	-1975
itsee	-1976
puhuu	-1977
saada	-1978
sadan	-1979
valke	-1980
veren	-1981
vuoda	-1982
ylistä	-1983
hänessä	-1984
isiensä	-1985
äitinsä	-1986
siirtola	-1987
vaimonsa	-1988
llu	-1989
nes	-1990
nöy	-1991
osoi	-1992
mansa	-1993
vanno	-1994
isella	-1995
poikia	-1996
siemen	-1997
taivaa	-1998
jeremia	-1999
israelissa	-2000
aha	-2001
lähi	-2002
otte	-2003
veri	-2004
laske	-2005
perus	-2006
nousee	-2007
yhteen	-2008
hopeata	-2009
nimensä	-2010
pakkosiirtola	-2011
iä	-2012
aar	-2013
sal	-2014
elia	-2015
maja	-2016
pään	-2017
styt	-2018
aivan	-2019
rauha	-2020
sanne	-2021
tunnus	-2022
viiniä	-2023
sisälle	-2024
egyptistä	-2025
palvelijat	-2026
keskuudessa	-2027
ete	-2028
pes	-2029
leve	-2030
täyd	-2031
▁`."	-2032
sanoa	-2033
toivo	-2034
ettekä	-2035
isitte	-2036
oikein	-2037
ttivät	-2038
tulkaa	-2039
vastaa	-2040
lähellä	-2041
nimeltä	-2042
tekevät	-2043
auringon	-2044
gileadin	-2045
kaupunge	-2046
lapsensa	-2047
maailman	-2048
dani	-2049
itta	-2050
osas	-2051
sapa	-2052
eliin	-2053
jaksi	-2054
juoma	-2055
mitta	-2056
miekka	-2057
samuel	-2058
vannut	-2059
nähneet	-2060
rukoile	-2061
koa	-2062
ksu	-2063
len	-2064
län	-2065
jalo	-2066
kiiva	-2067
siuna	-2068
vaksi	-2069
farise	-2070
aabraham	-2071
kaikkina	-2072
rs	-2073
ppi	-2074
perä	-2075
pidä	-2076
juuri	-2077
maton	-2078
nalle	-2079
pitkä	-2080
vedet	-2081
joukon	-2082
llänsä	-2083
näiden	-2084
tahdon	-2085
ttakaa	-2086
valloi	-2087
asuivat	-2088
parempi	-2089
rukoili	-2090
kaikkiaan	-2091
kuninkaat	-2092
juutalaiset	-2093
sanansaatta	-2094
temppelissä	-2095
laidunmaineen	-2096
pau	-2097
vut	-2098
gibe	-2099
rupe	-2100
ikinä	-2101
kulut	-2102
lausu	-2103
monet	-2104
tetut	-2105
turmi	-2106
ukset	-2107
lähimmä	-2108
kuulivat	-2109
iku	-2110
tyä	-2111
amin	-2112
jouk	-2113
ennus	-2114
juhla	-2115
oille	-2116
panen	-2117
puuta	-2118
toisi	-2119
valla	-2120
vuori	-2121
kertaa	-2122
palasi	-2123
uskoll	-2124
sinulta	-2125
efraimin	-2126
oikeuden	-2127
ruhtinaat	-2128
opetuslapsi	-2129
filistealaiset	-2130
apo	-2131
peri	-2132
työn	-2133
joutu	-2134
tuhan	-2135
turva	-2136
vähän	-2137
pakoon	-2138
suuret	-2139
essänsä	-2140
hyväksi	-2141
häpeään	-2142
kuninka	-2143
ttakoon	-2144
kulkivat	-2145
kuoleman	-2146
oikeutta	-2147
synnytti	-2148
itsellesi	-2149
etu	-2150
les	-2151
väl	-2152
asuu	-2153
johd	-2154
kull	-2155
raja	-2156
ainoa	-2157
elämä	-2158
istan	-2159
pella	-2160
vanhe	-2161
vansa	-2162
yöllä	-2163
täällä	-2164
lähetän	-2165
nuoruka	-2166
tulkoon	-2167
tapahtui	-2168
vaatteensa	-2169
kaupungissa	-2170
palvelijansa	-2171
hil	-2172
kke	-2173
levi	-2174
mori	-2175
sisa	-2176
vang	-2177
johta	-2178
runsa	-2179
asuvat	-2180
edellä	-2181
tiedän	-2182
kuollut	-2183
poikasi	-2184
uhrilah	-2185
kuoliaaksi	-2186
sukukunnasta	-2187
▁]	-2188
här	-2189
ajoi	-2190
asar	-2191
hyök	-2192
nebu	-2193
eille	-2194
istuu	-2195
luota	-2196
papin	-2197
pasun	-2198
yhtey	-2199
kätesi	-2200
päivät	-2201
nebukad	-2202
syntiuh	-2203
pelastaa	-2204
vanhimmat	-2205
▁[	-2206
aiko	-2207
halu	-2208
lisä	-2209
huuta	-2210
kalde	-2211
karja	-2212
varha	-2213
puolen	-2214
puoleen	-2215
tekemään	-2216
soo	-2217
sär	-2218
äid	-2219
insa	-2220
sein	-2221
sela	-2222
sulo	-2223
annut	-2224
ikään	-2225
misen	-2226
viime	-2227
öljyä	-2228
pannut	-2229
kansasi	-2230
ottavat	-2231
pyhäkkö	-2232
ymmärry	-2233
annetaan	-2234
joosefin	-2235
kimppuun	-2236
oittanut	-2237
paikassa	-2238
tapahtunut	-2239
oppi	-2240
sian	-2241
kulke	-2242
lille	-2243
selit	-2244
talon	-2245
tuhat	-2246
eeseen	-2247
etteli	-2248
hiskia	-2249
joosaf	-2250
pakana	-2251
taivas	-2252
valtaa	-2253
asettui	-2254
yhdeksän	-2255
kuukauden	-2256
valtaistuime	-2257
vanhurskauden	-2258
anti	-2259
amori	-2260
nosti	-2261
tahdo	-2262
nainen	-2263
niillä	-2264
paikka	-2265
profee	-2266
tahtoo	-2267
jolloin	-2268
sijaansa	-2269
aabrahamin	-2270
kolmantena	-2271
kuitenkaan	-2272
nin	-2273
sat	-2274
rien	-2275
vaunu	-2276
isessa	-2277
kuussa	-2278
stansa	-2279
erämaahan	-2280
itsellensä	-2281
valtakunta	-2282
kristuksessa	-2283
ate	-2284
asua	-2285
itki	-2286
kerr	-2287
kian	-2288
llin	-2289
otin	-2290
lihaa	-2291
oiksi	-2292
ttain	-2293
tuhon	-2294
ville	-2295
tahton	-2296
ottakoon	-2297
sydämeni	-2298
vuorelle	-2299
yhteysuh	-2300
kanssanne	-2301
kaupungista	-2302
iin	-2303
myö	-2304
atin	-2305
ksia	-2306
syvy	-2307
tuul	-2308
halti	-2309
ilman	-2310
laski	-2311
näkee	-2312
pahat	-2313
peljät	-2314
sisään	-2315
vuoren	-2316
hedelmä	-2317
ilaiset	-2318
välillä	-2319
ottamaan	-2320
rakastaa	-2321
vuoristo	-2322
seuraavana	-2323
ena	-2324
oto	-2325
isee	-2326
omaa	-2327
suun	-2328
taid	-2329
farao	-2330
juoda	-2331
metsä	-2332
staan	-2333
säädö	-2334
vapaa	-2335
heiltä	-2336
mennyt	-2337
sanoja	-2338
sekeli	-2339
virran	-2340
eläimet	-2341
herrassa	-2342
manassen	-2343
miehelle	-2344
muutamat	-2345
saastainen	-2346
joja	-2347
jätä	-2348
rauh	-2349
säil	-2350
veli	-2351
apost	-2352
köyhä	-2353
lähde	-2354
keihin	-2355
laista	-2356
pilkkaa	-2357
salomon	-2358
miehensä	-2359
israelille	-2360
juutalaisten	-2361
luu	-2362
mii	-2363
rah	-2364
kasi	-2365
kesi	-2366
teit	-2367
tote	-2368
väen	-2369
ettet	-2370
jolle	-2371
pidät	-2372
ranka	-2373
sanaa	-2374
tehtä	-2375
joutuu	-2376
omaksi	-2377
päähän	-2378
saatan	-2379
saivat	-2380
pellava	-2381
antoivat	-2382
ottaneet	-2383
sukupolv	-2384
ett	-2385
hor	-2386
jäi	-2387
myy	-2388
sad	-2389
väi	-2390
ylä	-2391
gali	-2392
mele	-2393
autta	-2394
etten	-2395
isesi	-2396
kalla	-2397
luona	-2398
maksi	-2399
työtä	-2400
vaell	-2401
henkeä	-2402
hyljän	-2403
pystyt	-2404
tarvit	-2405
vuodat	-2406
ennusta	-2407
milloin	-2408
tapahtu	-2409
kanaanin	-2410
katsokaa	-2411
lähtenyt	-2412
ilmestysmajan	-2413
sim	-2414
ahas	-2415
kier	-2416
vähä	-2417
ylis	-2418
arami	-2419
kerta	-2420
mättä	-2421
nalla	-2422
siion	-2423
tivat	-2424
tynyt	-2425
heimon	-2426
pääsiä	-2427
täytyy	-2428
egyptiin	-2429
kaikissa	-2430
menemään	-2431
palvelijani	-2432
seurakunnan	-2433
kirjoitettuna	-2434
tyt	-2435
jesi	-2436
olit	-2437
paas	-2438
tuja	-2439
valo	-2440
aasin	-2441
halve	-2442
menen	-2443
nessa	-2444
täisi	-2445
valhe	-2446
veden	-2447
galile	-2448
käteen	-2449
käteni	-2450
leirin	-2451
llisen	-2452
seassa	-2453
käsistä	-2454
rakensi	-2455
sanokaa	-2456
jokaisen	-2457
kuluttua	-2458
suurella	-2459
valmista	-2460
asettuivat	-2461
kaksisataa	-2462
polttouhri	-2463
bo	-2464
ama	-2465
kyn	-2466
leh	-2467
kuts	-2468
neit	-2469
syyt	-2470
vaik	-2471
elisa	-2472
oissa	-2473
siksi	-2474
hebron	-2475
kaansa	-2476
kaldea	-2477
lliset	-2478
surmaa	-2479
taloon	-2480
edessäsi	-2481
miehille	-2482
puolelta	-2483
syntynyt	-2484
älköönkä	-2485
itselleen	-2486
ava	-2487
jau	-2488
kiä	-2489
rei	-2490
aita	-2491
ilma	-2492
orja	-2493
keihä	-2494
rauni	-2495
simon	-2496
hylkää	-2497
suuria	-2498
uhreja	-2499
ylitse	-2500
minäkin	-2501
panivat	-2502
saaneet	-2503
kasvojen	-2504
nousivat	-2505
silmänsä	-2506
ikäänkuin	-2507
leiriytyivät	-2508
eri	-2509
ikä	-2510
tia	-2511
alka	-2512
kasv	-2513
meri	-2514
osan	-2515
pitu	-2516
velj	-2517
ylhä	-2518
päätä	-2519
tehty	-2520
tulet	-2521
uskoi	-2522
asukka	-2523
ettekö	-2524
hankki	-2525
kuulee	-2526
paitsi	-2527
rauhan	-2528
sotaan	-2529
vaivaa	-2530
etsivät	-2531
tehtävä	-2532
ttamaan	-2533
uksensa	-2534
kaikelle	-2535
seitsemäntenä	-2536
bar	-2537
goog	-2538
juur	-2539
kkin	-2540
viit	-2541
ylty	-2542
puhua	-2543
tappa	-2544
elleen	-2545
haudat	-2546
huomen	-2547
määrän	-2548
omaisu	-2549
poikki	-2550
istansa	-2551
tulessa	-2552
benjaminin	-2553
vihollisen	-2554
kirjanoppin	-2555
hallitusvuotena	-2556
asa	-2557
noo	-2558
sam	-2559
ytä	-2560
asui	-2561
lait	-2562
resi	-2563
varj	-2564
hetta	-2565
huoma	-2566
laulu	-2567
orjan	-2568
kukkul	-2569
kutsut	-2570
kuuden	-2571
lähtee	-2572
silmät	-2573
takoon	-2574
tieltä	-2575
udeksi	-2576
viikun	-2577
pojalle	-2578
päällys	-2579
veljeni	-2580
jäljelle	-2581
asumuksen	-2582
jälkeensä	-2583
profeetat	-2584
katselmuksessa	-2585
köy	-2586
kers	-2587
kuri	-2588
pell	-2589
rina	-2590
teot	-2591
vase	-2592
ääni	-2593
kille	-2594
lakia	-2595
musta	-2596
silmi	-2597
ttava	-2598
essäsi	-2599
annettu	-2600
jilleen	-2601
herramme	-2602
huusivat	-2603
teurasuh	-2604
toiselle	-2605
ov	-2606
fta	-2607
peä	-2608
unh	-2609
keja	-2610
meen	-2611
piti	-2612
edell	-2613
jalko	-2614
liban	-2615
mpäri	-2616
pappe	-2617
pyhää	-2618
ssani	-2619
tekin	-2620
tille	-2621
vistä	-2622
harjoi	-2623
minuun	-2624
sotava	-2625
tamaan	-2626
tukset	-2627
asumaan	-2628
enkelin	-2629
sanotte	-2630
ttaneet	-2631
täydell	-2632
kirjassa	-2633
rauhassa	-2634
yltympäri	-2635
jerusalemista	-2636
ark	-2637
hun	-2638
linn	-2639
huuto	-2640
kovin	-2641
leipä	-2642
pelto	-2643
pyhät	-2644
rista	-2645
vuosi	-2646
kaaksi	-2647
lammas	-2648
maansa	-2649
puhtaa	-2650
sijaan	-2651
sinuun	-2652
söivät	-2653
keuteen	-2654
päämies	-2655
sekeliä	-2656
varhain	-2657
veljesi	-2658
johannes	-2659
joutuvat	-2660
kotiinsa	-2661
luokseni	-2662
miekkaan	-2663
voimalla	-2664
alttarilla	-2665
seurakunta	-2666
jas	-2667
löi	-2668
näe	-2669
vap	-2670
arma	-2671
huul	-2672
onne	-2673
pana	-2674
sike	-2675
asuin	-2676
hoita	-2677
jellä	-2678
katoa	-2679
käydä	-2680
laisu	-2681
llani	-2682
ratsu	-2683
vanki	-2684
kuljet	-2685
kuolee	-2686
lisään	-2687
kaukana	-2688
menesty	-2689
olemaan	-2690
edessäni	-2691
seitsemä	-2692
keskuudes	-2693
huoneeseen	-2694
taisteluun	-2695
keä	-2696
nah	-2697
arpa	-2698
avat	-2699
etkö	-2700
näkö	-2701
ripu	-2702
terä	-2703
ensin	-2704
kenut	-2705
seiso	-2706
ssään	-2707
tuoma	-2708
varas	-2709
annoin	-2710
elille	-2711
käsivar	-2712
pappien	-2713
siionin	-2714
uskotto	-2715
henkensä	-2716
isuuteen	-2717
miekalla	-2718
fa	-2719
gid	-2720
ryö	-2721
auta	-2722
elän	-2723
kalu	-2724
koin	-2725
sime	-2726
syna	-2727
taen	-2728
tehd	-2729
udet	-2730
ulla	-2731
hansa	-2732
happa	-2733
kiven	-2734
siltä	-2735
alkaen	-2736
kohtaa	-2737
mittaa	-2738
niissä	-2739
palaja	-2740
riivaa	-2741
siunat	-2742
ylisty	-2743
nuhteet	-2744
ilaisten	-2745
llisesti	-2746
päivästä	-2747
ymmärtävä	-2748
palvelusta	-2749
ensimmäisenä	-2750
ly	-2751
rut	-2752
ryh	-2753
olko	-2754
pian	-2755
pyyd	-2756
kauhu	-2757
pääse	-2758
äänen	-2759
isämme	-2760
isänne	-2761
käskyj	-2762
mereen	-2763
metsän	-2764
puoles	-2765
ettette	-2766
karitsa	-2767
koskaan	-2768
kädestä	-2769
pelkäsi	-2770
ettäköön	-2771
valinnut	-2772
jumalalta	-2773
vääryyttä	-2774
ympärillä	-2775
jälkeläisten	-2776
palvelijatta	-2777
eu	-2778
kyt	-2779
bile	-2780
ehkä	-2781
hada	-2782
heet	-2783
huku	-2784
seet	-2785
vied	-2786
aamun	-2787
eläin	-2788
isena	-2789
lista	-2790
tappu	-2791
tujen	-2792
puhdas	-2793
syövät	-2794
aamulla	-2795
johanne	-2796
lisäksi	-2797
tekonsa	-2798
palvelijoita	-2799
ok	-2800
heh	-2801
▁";	-2802
heik	-2803
kato	-2804
kats	-2805
pahu	-2806
itään	-2807
kahta	-2808
masti	-2809
menet	-2810
rauta	-2811
tyvät	-2812
voisi	-2813
laskeu	-2814
naisen	-2815
neuvon	-2816
nimeni	-2817
piirit	-2818
päänsä	-2819
ssansa	-2820
tuolla	-2821
aurinko	-2822
eteensä	-2823
kunnioi	-2824
sekelin	-2825
tämättä	-2826
luvannut	-2827
mukanaan	-2828
suuresti	-2829
synagoog	-2830
asettanut	-2831
kanssamme	-2832
jumalattomat	-2833
avi	-2834
hes	-2835
hir	-2836
iho	-2837
kot	-2838
nit	-2839
rab	-2840
tau	-2841
abne	-2842
avaa	-2843
heti	-2844
läpi	-2845
neen	-2846
sang	-2847
toni	-2848
armah	-2849
hanan	-2850
lasta	-2851
nimeä	-2852
saisi	-2853
sebul	-2854
uhrat	-2855
uksia	-2856
viera	-2857
ääntä	-2858
kieltä	-2859
käynyt	-2860
meistä	-2861
mullik	-2862
nimesi	-2863
tappaa	-2864
teuras	-2865
tuoksu	-2866
voiman	-2867
älkööt	-2868
kuolema	-2869
silmäsi	-2870
sisaren	-2871
tavaksi	-2872
tavalla	-2873
jäljellä	-2874
suurempi	-2875
tapahtuu	-2876
vastusta	-2877
yksikään	-2878
aaronille	-2879
kauhistus	-2880
sovituksen	-2881
kymmenentenä	-2882
ympärileikkaa	-2883
kis	-2884
ste	-2885
alue	-2886
ikin	-2887
löyt	-2888
maas	-2889
muka	-2890
pese	-2891
reun	-2892
kurit	-2893
milla	-2894
mordo	-2895
punut	-2896
riita	-2897
tenne	-2898
vaiva	-2899
veisu	-2900
jonkun	-2901
ksella	-2902
näistä	-2903
tappoi	-2904
tunnet	-2905
ydessä	-2906
herraan	-2907
hävittä	-2908
kenelle	-2909
pitäkää	-2910
autioksi	-2911
hedelmän	-2912
kunnassa	-2913
olisivat	-2914
jumalaton	-2915
uhrikukku	-2916
lähettivät	-2917
perhekunta	-2918
kum	-2919
lie	-2920
käyn	-2921
onna	-2922
tten	-2923
damas	-2924
kiviä	-2925
laitu	-2926
lakan	-2927
makaa	-2928
saira	-2929
sapat	-2930
tutki	-2931
kaikke	-2932
käämme	-2933
llista	-2934
otettu	-2935
teette	-2936
tuokaa	-2937
tuonel	-2938
voinut	-2939
ihmisiä	-2940
samalla	-2941
sinussa	-2942
tahansa	-2943
vihansa	-2944
sapattin	-2945
päällensä	-2946
palvelemaan	-2947
eb	-2948
mes	-2949
asan	-2950
ihme	-2951
puun	-2952
arkki	-2953
ateri	-2954
hukku	-2955
nälkä	-2956
serin	-2957
vitsa	-2958
huomaa	-2959
istaan	-2960
joissa	-2961
kolmas	-2962
leivän	-2963
purppu	-2964
tyköni	-2965
kääntyi	-2966
leijona	-2967
näkevät	-2968
silmäni	-2969
surmasi	-2970
vaeltaa	-2971
oikealle	-2972
peljättä	-2973
puhuivat	-2974
annettiin	-2975
jerusalem	-2976
kuusisataa	-2977
jeesuksessa	-2978
polttouhriksi	-2979
ent	-2980
ped	-2981
ajaa	-2982
edes	-2983
koet	-2984
kyyh	-2985
laab	-2986
löyd	-2987
nähd	-2988
kehoi	-2989
oivat	-2990
rikka	-2991
sekoi	-2992
ettilä	-2993
kyyhky	-2994
miseen	-2995
paikan	-2996
sekaan	-2997
armonsa	-2998
käskyjä	-2999
miseksi	-3000
taivaat	-3001
hallitse	-3002
halveksi	-3003
kaikilla	-3004
vuorella	-3005
kaltainen	-3006
minkätähden	-3007
kaupunkeihin	-3008
nebukadnessa	-3009
erin	-3010
haju	-3011
herä	-3012
kain	-3013
laan	-3014
nope	-3015
pila	-3016
viet	-3017
altti	-3018
jätti	-3019
majan	-3020
miika	-3021
millä	-3022
oksen	-3023
pääsi	-3024
sanka	-3025
ssasi	-3026
telin	-3027
vahin	-3028
vapah	-3029
yttää	-3030
kunkin	-3031
leijon	-3032
merkki	-3033
rikkon	-3034
sanani	-3035
tuomio	-3036
täköön	-3037
täyttä	-3038
vaelsi	-3039
vaivan	-3040
vallan	-3041
hävitän	-3042
rakkaan	-3043
äänellä	-3044
heettilä	-3045
murheell	-3046
sydämesi	-3047
kaupunkeja	-3048
kuolemalla	-3049
kaikkivalti	-3050
valtakunnan	-3051
hat	-3052
pik	-3053
aasi	-3054
baal	-3055
kkau	-3056
lopu	-3057
naan	-3058
nään	-3059
onia	-3060
seru	-3061
suor	-3062
synt	-3063
tyyn	-3064
hullu	-3065
hämmä	-3066
kasva	-3067
yteen	-3068
edomin	-3069
edusta	-3070
kantaa	-3071
karjan	-3072
kohden	-3073
linnan	-3074
mikään	-3075
mmalle	-3076
rupesi	-3077
surmat	-3078
suunsa	-3079
vaella	-3080
väärin	-3081
henkeni	-3082
istanut	-3083
jauhoja	-3084
minussa	-3085
pitävät	-3086
kansansa	-3087
karitsaa	-3088
kullalla	-3089
mukaansa	-3090
sanotaan	-3091
kunniaksi	-3092
haudattiin	-3093
jaakobille	-3094
kuolleista	-3095
orjantappu	-3096
käskynhalti	-3097
syntiuhriksi	-3098
euf	-3099
kam	-3100
nos	-3101
rea	-3102
amen	-3103
hovi	-3104
kais	-3105
reha	-3106
voit	-3107
avasi	-3108
kieli	-3109
käsin	-3110
miten	-3111
stasi	-3112
sänsä	-3113
talla	-3114
tiesi	-3115
tyhmä	-3116
aramin	-3117
issaan	-3118
kulkee	-3119
lamppu	-3120
muiden	-3121
olimme	-3122
palkka	-3123
hautaan	-3124
ristiin	-3125
saattaa	-3126
tykönne	-3127
huomenna	-3128
häväisty	-3129
kaikkiin	-3130
langoista	-3131
varustettu	-3132
ehu	-3133
gil	-3134
isma	-3135
kuol	-3136
kuva	-3137
port	-3138
tömä	-3139
eiksi	-3140
eseen	-3141
estyi	-3142
iisak	-3143
kalle	-3144
livat	-3145
patsa	-3146
pilvi	-3147
saado	-3148
saata	-3149
ympär	-3150
haaman	-3151
vuoret	-3152
väkevy	-3153
absalom	-3154
manasse	-3155
noussut	-3156
tervehd	-3157
unjohta	-3158
hedelmät	-3159
joukosta	-3160
puhumaan	-3161
tahtonut	-3162
vihollisi	-3163
viisautta	-3164
ensimmäinen	-3165
unjohtajalle	-3166
israelilaisia	-3167
kuusikymmentä	-3168
opetuslapsensa	-3169
:1	-3170
ito	-3171
▁!`	-3172
▁`?	-3173
hava	-3174
kele	-3175
kirj	-3176
komp	-3177
lehe	-3178
naul	-3179
säni	-3180
tuna	-3181
lunas	-3182
melek	-3183
nälän	-3184
rinta	-3185
ruoka	-3186
sista	-3187
valvo	-3188
vuoti	-3189
äneet	-3190
heihin	-3191
iltaan	-3192
isivät	-3193
jäänyt	-3194
lemaan	-3195
linnut	-3196
oikeus	-3197
paikoi	-3198
rauhaa	-3199
vaarin	-3200
vannon	-3201
viisas	-3202
ystävä	-3203
iloitse	-3204
leiriin	-3205
tehtiin	-3206
tuokoon	-3207
äänensä	-3208
hedelmää	-3209
kansakun	-3210
luokseen	-3211
puhdista	-3212
yhtäkään	-3213
seisoivat	-3214
jerusalemia	-3215
nsä	-3216
ttu	-3217
eksy	-3218
esin	-3219
kadu	-3220
luot	-3221
onut	-3222
veen	-3223
ältä	-3224
annat	-3225
istus	-3226
jospa	-3227
jäsen	-3228
kaivo	-3229
kiusa	-3230
puhta	-3231
ramin	-3232
tuuli	-3233
villa	-3234
estään	-3235
oikean	-3236
uhrasi	-3237
ahdista	-3238
lahjoja	-3239
misensa	-3240
seurasi	-3241
styivät	-3242
tottele	-3243
tulella	-3244
viisaus	-3245
beetlehe	-3246
hengessä	-3247
kuolleet	-3248
luoksesi	-3249
lähettää	-3250
rakentaa	-3251
totuuden	-3252
tuomitse	-3253
tyttäriä	-3254
jumalanku	-3255
jerobeamin	-3256
kolmesataa	-3257
senjälkeen	-3258
sukukuntaa	-3259
vanhurskaan	-3260
leeviläisten	-3261
onnettomuuden	-3262
keskuudessanne	-3263
dab	-3264
iis	-3265
kuo	-3266
moi	-3267
neb	-3268
too	-3269
alin	-3270
eesa	-3271
hala	-3272
heil	-3273
luol	-3274
mpaa	-3275
mure	-3276
ttia	-3277
ylpe	-3278
alkoi	-3279
erään	-3280
isuus	-3281
jassa	-3282
lesty	-3283
llisy	-3284
luopu	-3285
mieli	-3286
oniin	-3287
polve	-3288
rikas	-3289
telee	-3290
uuden	-3291
yksen	-3292
emmekä	-3293
isimme	-3294
itsesi	-3295
kasvot	-3296
koihin	-3297
lausui	-3298
neuvoa	-3299
paljas	-3300
päästi	-3301
rehabe	-3302
synnin	-3303
syntin	-3304
tahdot	-3305
viinin	-3306
kansoja	-3307
kuninga	-3308
rakenta	-3309
toiseen	-3310
virheet	-3311
ajatteli	-3312
itseänsä	-3313
joosafat	-3314
kerrotta	-3315
kysyivät	-3316
kyynärän	-3317
lampaita	-3318
mielisty	-3319
oikealla	-3320
rannalla	-3321
tarvitse	-3322
tiedätte	-3323
lähteneet	-3324
pyhäkössä	-3325
taivaassa	-3326
neljäsataa	-3327
vankeuteen	-3328
polttouhrin	-3329
aabrahamille	-3330
amorilaisten	-3331
vanhurskautta	-3332
go	-3333
up	-3334
ged	-3335
has	-3336
kru	-3337
etut	-3338
ikon	-3339
kasu	-3340
kona	-3341
sten	-3342
amale	-3343
eesau	-3344
johda	-3345
kappa	-3346
monin	-3347
muuri	-3348
nalta	-3349
nuori	-3350
tekoa	-3351
tulta	-3352
varoi	-3353
väijy	-3354
baabel	-3355
daniel	-3356
ettava	-3357
joihin	-3358
lampun	-3359
lähteä	-3360
muurin	-3361
rukoil	-3362
ryöstä	-3363
siunaa	-3364
vanhin	-3365
ihmistä	-3366
paikkaa	-3367
pakanat	-3368
laisista	-3369
lupauksen	-3370
pakenivat	-3371
sellaista	-3372
taivasten	-3373
temppeliä	-3374
henkivarti	-3375
itsellenne	-3376
nähdessään	-3377
kaupungeissa	-3378
opetuslapset	-3379
valtaistuimen	-3380
nau	-3381
sei	-3382
asut	-3383
häpä	-3384
iska	-3385
myrs	-3386
siid	-3387
uhun	-3388
yötä	-3389
jisre	-3390
lapse	-3391
rassa	-3392
suvun	-3393
tällä	-3394
usten	-3395
baalin	-3396
eufrat	-3397
juoksi	-3398
koskee	-3399
kuulia	-3400
kuulin	-3401
merkit	-3402
opetta	-3403
stänsä	-3404
tiellä	-3405
iisakin	-3406
kedolla	-3407
kunnian	-3408
oinasta	-3409
sanansa	-3410
siunasi	-3411
tarkoin	-3412
astuivat	-3413
esipihan	-3414
kutsunut	-3415
moosesta	-3416
peljätkö	-3417
udestaan	-3418
katsomaan	-3419
sukukunta	-3420
neljäntenä	-3421
tullessaan	-3422
johanneksen	-3423
profeettain	-3424
ammonilaisten	-3425
hot	-3426
osu	-3427
pen	-3428
pia	-3429
pyö	-3430
run	-3431
sod	-3432
yön	-3433
etio	-3434
geer	-3435
himo	-3436
koti	-3437
omat	-3438
tulo	-3439
vann	-3440
viat	-3441
elävä	-3442
haltu	-3443
hauta	-3444
jeehu	-3445
kauka	-3446
ltaan	-3447
nafta	-3448
onhan	-3449
pieni	-3450
ristä	-3451
saapu	-3452
sukua	-3453
suosi	-3454
tavoi	-3455
venhe	-3456
vuote	-3457
ahabin	-3458
huudon	-3459
hävity	-3460
kestää	-3461
korkei	-3462
liitto	-3463
linnoi	-3464
ojensi	-3465
puusta	-3466
takaan	-3467
tuulen	-3468
valkoi	-3469
voidel	-3470
voiton	-3471
isuutta	-3472
jumalat	-3473
loppuun	-3474
niitten	-3475
punasin	-3476
toisena	-3477
voineet	-3478
faraolle	-3479
käteensä	-3480
lliseksi	-3481
opettaja	-3482
rakkaani	-3483
baabeliin	-3484
egyptissä	-3485
kumartaen	-3486
rangaista	-3487
raskaaksi	-3488
fariseukset	-3489
vihollisten	-3490
kap	-3491
mit	-3492
baan	-3493
beer	-3494
jäin	-3495
kive	-3496
kkuu	-3497
mera	-3498
mpia	-3499
onta	-3500
rypä	-3501
unho	-3502
usti	-3503
janne	-3504
kalut	-3505
kedon	-3506
kiitä	-3507
stään	-3508
tämät	-3509
vihki	-3510
väärä	-3511
elävän	-3512
joille	-3513
kallis	-3514
kansoi	-3515
kertoi	-3516
käyvät	-3517
mmaksi	-3518
naiset	-3519
noudat	-3520
nähden	-3521
ruuben	-3522
teissä	-3523
tuleen	-3524
tunten	-3525
tykösi	-3526
vetten	-3527
kirottu	-3528
lampaat	-3529
poikien	-3530
tulevan	-3531
valtaan	-3532
hävittää	-3533
ilmoitti	-3534
istuivat	-3535
kasvonsa	-3536
palvelus	-3537
samarian	-3538
säädöksi	-3539
teurasta	-3540
haureutta	-3541
kuolemaan	-3542
kutsutaan	-3543
saattanut	-3544
tuntemaan	-3545
israelista	-3546
sotajoukko	-3547
viisisataa	-3548
ristiinnaul	-3549
evankeliumia	-3550
job	-3551
nän	-3552
tam	-3553
tät	-3554
gide	-3555
kuor	-3556
pita	-3557
utan	-3558
hehku	-3559
niinä	-3560
pikku	-3561
puima	-3562
rohke	-3563
safin	-3564
sinet	-3565
sääli	-3566
tosin	-3567
vaiku	-3568
efraim	-3569
heikko	-3570
heitti	-3571
jeremi	-3572
joutui	-3573
lepoon	-3574
myöten	-3575
niinpä	-3576
niskoi	-3577
ovelle	-3578
pakeni	-3579
parann	-3580
puutar	-3581
teihin	-3582
tyynni	-3583
vailla	-3584
voitti	-3585
ääreen	-3586
istettu	-3587
kansain	-3588
kääntyy	-3589
maailma	-3590
orjatta	-3591
rikkomu	-3592
sapatin	-3593
edessään	-3594
keskelle	-3595
paljasta	-3596
tiedämme	-3597
jumalasta	-3598
kenenkään	-3599
palasivat	-3600
sapattina	-3601
punaisista	-3602
ihm	-3603
lia	-3604
ove	-3605
ovi	-3606
sab	-3607
ahab	-3608
atte	-3609
ksin	-3610
käyt	-3611
ravi	-3612
telu	-3613
▁.`"	-3614
askel	-3615
jättä	-3616
katse	-3617
koske	-3618
lopun	-3619
luvun	-3620
nimet	-3621
peura	-3622
ruoho	-3623
selta	-3624
taita	-3625
talen	-3626
tuoda	-3627
kkansa	-3628
kokosi	-3629
kuinen	-3630
leevin	-3631
muille	-3632
määrät	-3633
näette	-3634
oinaan	-3635
omasta	-3636
tekevä	-3637
utuvat	-3638
erämaan	-3639
juomauh	-3640
kirjaan	-3641
lunasta	-3642
rakkaus	-3643
riemuit	-3644
talonsa	-3645
uttansa	-3646
kirkkaus	-3647
kompastu	-3648
myöskään	-3649
vaatteet	-3650
muukalais	-3651
tettakoon	-3652
kunnittain	-3653
ylimmäinen	-3654
im	-3655
ann	-3656
ber	-3657
eel	-3658
kky	-3659
kän	-3660
pis	-3661
pöy	-3662
▁`"	-3663
haud	-3664
naab	-3665
peen	-3666
rian	-3667
sade	-3668
tein	-3669
utuu	-3670
gaadi	-3671
hauda	-3672
hetke	-3673
ketta	-3674
kukka	-3675
laisi	-3676
mpaan	-3677
pansa	-3678
porte	-3679
pyysi	-3680
sekin	-3681
tatte	-3682
temme	-3683
töitä	-3684
utesi	-3685
hamaan	-3686
huudan	-3687
isessä	-3688
itseni	-3689
käänny	-3690
mukana	-3691
oletko	-3692
paasto	-3693
pakene	-3694
poltti	-3695
ihmeitä	-3696
issansa	-3697
istunut	-3698
olleita	-3699
otetaan	-3700
palvelu	-3701
pitänyt	-3702
salaisu	-3703
täyteen	-3704
voittaa	-3705
ymmärrä	-3706
antakoon	-3707
herransa	-3708
itseänne	-3709
jerobeam	-3710
saalista	-3711
syntivel	-3712
isuudessa	-3713
kaupunkin	-3714
ovenvarti	-3715
ruumiinsa	-3716
väkivalta	-3717
kaksikymmen	-3718
kerrottavaa	-3719
kokoontuivat	-3720
polttouhreja	-3721
kaldealaisten	-3722
fi	-3723
ano	-3724
bad	-3725
kim	-3726
muo	-3727
aini	-3728
aksi	-3729
hurs	-3730
hyöd	-3731
häpy	-3732
isas	-3733
isää	-3734
itku	-3735
keaa	-3736
kulj	-3737
papi	-3738
puke	-3739
puto	-3740
ulot	-3741
utui	-3742
yönä	-3743
ätte	-3744
joudu	-3745
juude	-3746
keltä	-3747
kinen	-3748
korja	-3749
kättä	-3750
maasi	-3751
onnut	-3752
vaati	-3753
viipy	-3754
autuas	-3755
lakkaa	-3756
llisia	-3757
makasi	-3758
ohitse	-3759
opetti	-3760
suurta	-3761
toteen	-3762
varjel	-3763
ydestä	-3764
istänsä	-3765
lestyjä	-3766
maanpii	-3767
menevät	-3768
televat	-3769
tettava	-3770
viereen	-3771
vihastu	-3772
ilmestyi	-3773
kiitosta	-3774
nousevat	-3775
sanomaan	-3776
vihastui	-3777
poikiensa	-3778
happamatto	-3779
jeremialle	-3780
taivaaseen	-3781
ylimmäisen	-3782
onnettomuus	-3783
jumalattoman	-3784
kolmenkymmenen	-3785
boo	-3786
kiu	-3787
oja	-3788
beni	-3789
itoa	-3790
järj	-3791
saaf	-3792
suus	-3793
enkel	-3794
hassa	-3795
kiiru	-3796
kirju	-3797
llasi	-3798
puhal	-3799
sasta	-3800
syökö	-3801
tyttö	-3802
virit	-3803
ykset	-3804
eesaun	-3805
istuin	-3806
johdat	-3807
karjaa	-3808
kelvot	-3809
kselta	-3810
naatan	-3811
pyhien	-3812
ruokaa	-3813
vaimoa	-3814
vanhaa	-3815
viettä	-3816
vihani	-3817
voitto	-3818
isuuden	-3819
itseäsi	-3820
kädellä	-3821
lähesty	-3822
rauhaan	-3823
ruubeni	-3824
valalla	-3825
valtasi	-3826
joukkoon	-3827
liittoni	-3828
perhekun	-3829
rakennet	-3830
saulille	-3831
alttiiksi	-3832
hyljännyt	-3833
jumalaasi	-3834
keskenään	-3835
laupeuden	-3836
oikeamiel	-3837
seurasivat	-3838
ilmoittanut	-3839
ilmoitettiin	-3840
nebukadnessar	-3841
vö	-3842
bel	-3843
sem	-3844
use	-3845
amas	-3846
eitä	-3847
fili	-3848
hdet	-3849
muis	-3850
puro	-3851
suos	-3852
toin	-3853
viid	-3854
▁`".	-3855
aikan	-3856
heinä	-3857
maria	-3858
pimeä	-3859
puita	-3860
pysty	-3861
riisu	-3862
salaa	-3863
ttiin	-3864
tulin	-3865
hakkaa	-3866
ikseen	-3867
istasi	-3868
kiivas	-3869
kirjat	-3870
korvat	-3871
käärme	-3872
läiset	-3873
neitsy	-3874
nimeen	-3875
teiltä	-3876
veisaa	-3877
istivat	-3878
istuvat	-3879
itsenne	-3880
kappale	-3881
muutoin	-3882
nimeäsi	-3883
pilatus	-3884
sukupol	-3885
turhaan	-3886
kaatuvat	-3887
kirjoita	-3888
kullasta	-3889
kuulevat	-3890
muutamia	-3891
tuhannen	-3892
vahvista	-3893
vaimoksi	-3894
esikoinen	-3895
eteenpäin	-3896
ilmoittaa	-3897
noudattaa	-3898
veljiensä	-3899
ylösnouse	-3900
rakastavat	-3901
väkivaltaa	-3902
ainoatakaan	-3903
muukalainen	-3904
vanhurskaus	-3905
egyptiläiset	-3906
ii	-3907
hai	-3908
jyl	-3909
lop	-3910
pud	-3911
huut	-3912
jebu	-3913
kkiä	-3914
mahd	-3915
muun	-3916
oles	-3917
saav	-3918
unen	-3919
utua	-3920
vani	-3921
yllä	-3922
aalle	-3923
aseta	-3924
asuva	-3925
baala	-3926
herod	-3927
isina	-3928
jiksi	-3929
kulun	-3930
kylvä	-3931
käsit	-3932
mästä	-3933
nöyry	-3934
oinas	-3935
ronin	-3936
seinä	-3937
silla	-3938
stani	-3939
vaini	-3940
veisa	-3941
alusta	-3942
annoit	-3943
juokse	-3944
kannet	-3945
katsoi	-3946
kauris	-3947
keneet	-3948
myrsky	-3949
pilkka	-3950
sidkia	-3951
suusta	-3952
syyttä	-3953
tuiksi	-3954
ukseni	-3955
vaimot	-3956
aasafin	-3957
armahda	-3958
asettaa	-3959
eivätkö	-3960
kärsivä	-3961
mieleen	-3962
mistään	-3963
puhuvat	-3964
seitsen	-3965
silmäin	-3966
talossa	-3967
vedessä	-3968
ääressä	-3969
huutavat	-3970
kiitetty	-3971
paavalin	-3972
tarkasta	-3973
ylipapit	-3974
jokapäivä	-3975
kiiruusti	-3976
alttarille	-3977
surmasivat	-3978
uskollinen	-3979
vanhurskau	-3980
synnyttänyt	-3981
ari	-3982
bed	-3983
hie	-3984
kyp	-3985
riä	-3986
söi	-3987
asia	-3988
ihan	-3989
keha	-3990
kuur	-3991
luja	-3992
sisi	-3993
udut	-3994
aivoi	-3995
alati	-3996
ellei	-3997
hojen	-3998
käden	-3999
liian	-4000
lähes	-4001
mella	-4002
miesi	-4003
nukku	-4004
oinen	-4005
panee	-4006
saali	-4007
suuni	-4008
turhu	-4009
tömän	-4010
äidin	-4011
aamuna	-4012
ettele	-4013
hoista	-4014
jebusi	-4015
kasvaa	-4016
kasvat	-4017
kiitän	-4018
maaksi	-4019
olitte	-4020
omassa	-4021
paljoa	-4022
poista	-4023
sanasi	-4024
suorit	-4025
teltta	-4026
toivon	-4027
tuomar	-4028
helakan	-4029
ihmeell	-4030
ilainen	-4031
koriste	-4032
kuukaut	-4033
misesta	-4034
peittää	-4035
tänäkin	-4036
keskeltä	-4037
matkalle	-4038
mullikka	-4039
sielunsa	-4040
suuressa	-4041
profeetan	-4042
pyhitetty	-4043
päämiehen	-4044
päämiehiä	-4045
salomolle	-4046
sotavaunu	-4047
sukujensa	-4048
viisauden	-4049
rakentanut	-4050
tyttärensä	-4051
evankeliumin	-4052
ulkopuolella	-4053
ulkopuolelle	-4054
kahdenkymmenen	-4055
des	-4056
jed	-4057
lou	-4058
pät	-4059
syr	-4060
uud	-4061
ebja	-4062
enkö	-4063
hyvy	-4064
hätä	-4065
irti	-4066
itke	-4067
jesa	-4068
kuta	-4069
nuor	-4070
pysä	-4071
riid	-4072
selä	-4073
uran	-4074
herja	-4075
horju	-4076
katke	-4077
kauas	-4078
keita	-4079
kerra	-4080
keski	-4081
kulje	-4082
maksa	-4083
saara	-4084
samaa	-4085
stäni	-4086
suola	-4087
teesi	-4088
tojen	-4089
vaina	-4090
valan	-4091
valmi	-4092
alueen	-4093
eleasa	-4094
isensä	-4095
ittain	-4096
ksestä	-4097
kuuluu	-4098
laaban	-4099
llänne	-4100
maakun	-4101
maalle	-4102
maljan	-4103
puneet	-4104
ruumis	-4105
tavara	-4106
tuista	-4107
uksesi	-4108
voivat	-4109
hyökkää	-4110
kuullen	-4111
lankesi	-4112
lohdutu	-4113
menneet	-4114
pesköön	-4115
tuomion	-4116
abimelek	-4117
edelleen	-4118
jäljessä	-4119
kaikkein	-4120
kansasta	-4121
matkalla	-4122
papeille	-4123
päivällä	-4124
siunattu	-4125
suureksi	-4126
udestasi	-4127
valhetta	-4128
ettäväksi	-4129
ollessaan	-4130
päälliköt	-4131
runsaasti	-4132
palvelivat	-4133
sotajoukon	-4134
sukukunnan	-4135
ymmärrystä	-4136
paikoilleen	-4137
valtakuntaa	-4138
iankaikkisen	-4139
filistealaisia	-4140
kirjanoppineet	-4141
kkä	-4142
loi	-4143
nai	-4144
apua	-4145
hesb	-4146
ovet	-4147
repä	-4148
soke	-4149
tois	-4150
ytti	-4151
eloon	-4152
etsin	-4153
ikeen	-4154
kivet	-4155
kiveä	-4156
kkoja	-4157
kokon	-4158
ksiin	-4159
kulma	-4160
malja	-4161
mpään	-4162
palaa	-4163
pelko	-4164
raava	-4165
ravin	-4166
rinsä	-4167
rissä	-4168
sistä	-4169
vaino	-4170
vihas	-4171
vänsä	-4172
auttaa	-4173
elleet	-4174
hebrea	-4175
inensa	-4176
keavat	-4177
kullan	-4178
kuului	-4179
käskyt	-4180
llekin	-4181
mielet	-4182
olisin	-4183
omista	-4184
päältä	-4185
surman	-4186
teemme	-4187
turvaa	-4188
uttava	-4189
vahvis	-4190
veisat	-4191
vienyt	-4192
viittä	-4193
viljaa	-4194
väisty	-4195
äitini	-4196
jääneet	-4197
kasvosi	-4198
mittasi	-4199
nimessä	-4200
tarttui	-4201
öljyllä	-4202
daavidia	-4203
jumalien	-4204
jättänyt	-4205
löytänyt	-4206
päällikö	-4207
silmiesi	-4208
sotimaan	-4209
tuksensa	-4210
tultuaan	-4211
tyttäret	-4212
asukkaita	-4213
korkealle	-4214
kymmenenn	-4215
taivaissa	-4216
vaeltavat	-4217
kahdentena	-4218
kuninkaita	-4219
kaupunkinsa	-4220
iankaikkinen	-4221
sukupolvesta	-4222
jumalattomien	-4223
leeviläisille	-4224
henkivartijain	-4225
palvelijallesi	-4226
aka	-4227
bal	-4228
hii	-4229
ope	-4230
uut	-4231
joen	-4232
koja	-4233
murs	-4234
omin	-4235
savu	-4236
suru	-4237
vill	-4238
aansa	-4239
hanki	-4240
kaale	-4241
kapin	-4242
kaula	-4243
kauni	-4244
käske	-4245
mesta	-4246
nessä	-4247
pantu	-4248
pelkä	-4249
päätö	-4250
risti	-4251
sisar	-4252
taulu	-4253
tehkö	-4254
tuhoa	-4255
tyhjä	-4256
usein	-4257
vaari	-4258
varjo	-4259
vihit	-4260
virta	-4261
vista	-4262
avuksi	-4263
edeltä	-4264
isevat	-4265
ksissa	-4266
kulkea	-4267
luotta	-4268
muisto	-4269
murska	-4270
neuvot	-4271
päiviä	-4272
sateen	-4273
syttyi	-4274
ttaisi	-4275
amaleki	-4276
estänsä	-4277
filippu	-4278
hiskian	-4279
pitivät	-4280
pyhäkön	-4281
pyhässä	-4282
sanoman	-4283
suureen	-4284
tekojen	-4285
tuotiin	-4286
täyttää	-4287
valkeus	-4288
jalkansa	-4289
jeremian	-4290
kuluttaa	-4291
laaksoon	-4292
miehistä	-4293
nopeasti	-4294
oikeuksi	-4295
sebaotin	-4296
voimasta	-4297
heittivät	-4298
kansoille	-4299
kiittäkää	-4300
käskyjäni	-4301
sydämenne	-4302
voittivat	-4303
hyljänneet	-4304
sekoitettu	-4305
palvelijain	-4306
sukupolveen	-4307
vaatteisiin	-4308
vanhurskaat	-4309
saastaiseksi	-4310
sanansaattajat	-4311
seitsemänsataa	-4312
ak	-4313
don	-4314
hui	-4315
ikö	-4316
nös	-4317
ohi	-4318
sep	-4319
alku	-4320
eser	-4321
juon	-4322
kara	-4323
orin	-4324
pitä	-4325
puha	-4326
toiv	-4327
valh	-4328
astia	-4329
ennut	-4330
hadad	-4331
hekin	-4332
härkä	-4333
jalla	-4334
kanna	-4335
kerub	-4336
kuivu	-4337
kunsa	-4338
kädet	-4339
lauma	-4340
mässä	-4341
simme	-4342
synne	-4343
tuisi	-4344
tuska	-4345
tälla	-4346
uppin	-4347
uskoo	-4348
vaiti	-4349
vanke	-4350
hautaa	-4351
jäännö	-4352
kappal	-4353
kolmet	-4354
lähetä	-4355
näyttä	-4356
pahoin	-4357
peittä	-4358
sallin	-4359
tahtoi	-4360
teella	-4361
toisia	-4362
tuksia	-4363
täytyi	-4364
täytän	-4365
joosuan	-4366
kädessä	-4367
menköön	-4368
opettaa	-4369
papille	-4370
pohjois	-4371
rakasti	-4372
saaliin	-4373
selkään	-4374
telivat	-4375
teoista	-4376
tuottaa	-4377
vapaaeh	-4378
eläinten	-4379
karitsan	-4380
kumartui	-4381
kuoltava	-4382
mullikan	-4383
saisivat	-4384
kirjoitti	-4385
kulkemaan	-4386
purppuran	-4387
syntiuhri	-4388
talenttia	-4389
ympärinsä	-4390
armollinen	-4391
herralleni	-4392
päämiesten	-4393
suvuittain	-4394
vastapäätä	-4395
veljilleen	-4396
viidentenä	-4397
muukalaisen	-4398
profeettoja	-4399
aikakirjassa	-4400
kaupungeista	-4401
sukukunnalta	-4402
jumalattomain	-4403
ib	-4404
elu	-4405
kod	-4406
mid	-4407
abin	-4408
alta	-4409
arvi	-4410
baas	-4411
hama	-4412
kava	-4413
kkia	-4414
kyyn	-4415
lyön	-4416
midi	-4417
pako	-4418
peto	-4419
pilv	-4420
riit	-4421
sito	-4422
tiel	-4423
vaih	-4424
asian	-4425
hampa	-4426
huuli	-4427
kanne	-4428
kensä	-4429
kokoa	-4430
korva	-4431
minne	-4432
muser	-4433
netan	-4434
ressa	-4435
tamme	-4436
yksiä	-4437
asetan	-4438
esille	-4439
estäsi	-4440
gideon	-4441
hänkin	-4442
kallio	-4443
kirkas	-4444
kuulet	-4445
maitoa	-4446
mielis	-4447
nostaa	-4448
ovella	-4449
puettu	-4450
puolet	-4451
puolta	-4452
sairas	-4453
samana	-4454
ssanne	-4455
tarkoi	-4456
tielle	-4457
tykönä	-4458
vanhim	-4459
ympärö	-4460
eleasar	-4461
halpana	-4462
hamasta	-4463
henkiin	-4464
hevoset	-4465
hylkäsi	-4466
hyvänsä	-4467
ilaisia	-4468
jerikon	-4469
kuninku	-4470
midiani	-4471
nouskaa	-4472
pappeja	-4473
polveen	-4474
pyhällä	-4475
rintaan	-4476
saakoon	-4477
syömään	-4478
uttanut	-4479
vartioi	-4480
heinäsir	-4481
joutuisi	-4482
kullakin	-4483
puimatan	-4484
pääsiäis	-4485
tukseksi	-4486
vuorille	-4487
itselleni	-4488
joutuivat	-4489
laupeutta	-4490
pojilleen	-4491
sanottiin	-4492
vanhinten	-4493
ylistäkää	-4494
kasvojensa	-4495
kirkkauden	-4496
juutalaisia	-4497
pelastuksen	-4498
sydämessään	-4499
onnettomuutta	-4500
vihollistensa	-4501
perhekunnittain	-4502
valtaistuimella	-4503
mir	-4504
not	-4505
omi	-4506
onn	-4507
pyr	-4508
rim	-4509
sik	-4510
iäti	-4511
kova	-4512
luut	-4513
nooa	-4514
näen	-4515
paan	-4516
savi	-4517
säät	-4518
unin	-4519
varo	-4520
voja	-4521
etaan	-4522
mekin	-4523
oitse	-4524
polku	-4525
saret	-4526
suuru	-4527
syötä	-4528
tessa	-4529
tteli	-4530
väkeä	-4531
arkkia	-4532
havait	-4533
heräjä	-4534
jousen	-4535
kaunis	-4536
luette	-4537
omiksi	-4538
simson	-4539
syökää	-4540
tellut	-4541
voimaa	-4542
itsevat	-4543
käsiisi	-4544
lunastu	-4545
melekin	-4546
molempi	-4547
pelasti	-4548
siinain	-4549
uskossa	-4550
ilmoitan	-4551
jeesusta	-4552
kansaani	-4553
laiseksi	-4554
mordokai	-4555
palvella	-4556
päiväksi	-4557
rankaise	-4558
rehabeam	-4559
säädetty	-4560
vallassa	-4561
vannonut	-4562
vuorilla	-4563
edellänsä	-4564
huoneessa	-4565
joosualle	-4566
joukkonsa	-4567
kaltaista	-4568
kasvojeni	-4569
kuukautta	-4570
laaksossa	-4571
nuhteetto	-4572
puhutteli	-4573
päättänyt	-4574
uppiniska	-4575
valloitti	-4576
kaikkialla	-4577
kuningatar	-4578
maailmassa	-4579
pelkäsivät	-4580
vasemmalle	-4581
vuoristoon	-4582
kaltaiseksi	-4583
valmistanut	-4584
jälkeläisistä	-4585
kahdeksantena	-4586
perintöosansa	-4587
seurakunnalle	-4588
jö	-4589
him	-4590
läs	-4591
myr	-4592
näy	-4593
ohe	-4594
oti	-4595
yll	-4596
eman	-4597
ilmi	-4598
iloi	-4599
kene	-4600
krei	-4601
kuop	-4602
kylä	-4603
mana	-4604
osaa	-4605
poji	-4606
sodo	-4607
sopi	-4608
tona	-4609
vara	-4610
väis	-4611
aarre	-4612
abner	-4613
armoa	-4614
eilla	-4615
härän	-4616
jakoi	-4617
jalat	-4618
kaani	-4619
koora	-4620
lahja	-4621
lassa	-4622
lepää	-4623
lopet	-4624
nouta	-4625
nuore	-4626
pensa	-4627
pettä	-4628
siten	-4629
tella	-4630
tensa	-4631
vasti	-4632
verho	-4633
ellesi	-4634
inensä	-4635
kaatuu	-4636
kaisla	-4637
koista	-4638
kokoan	-4639
kyllin	-4640
kävisi	-4641
leveys	-4642
midian	-4643
näytti	-4644
onissa	-4645
pimeys	-4646
riensi	-4647
riistä	-4648
rukous	-4649
saamme	-4650
syönyt	-4651
tänään	-4652
vihasi	-4653
vuonna	-4654
aterioi	-4655
itseään	-4656
leikkaa	-4657
läisten	-4658
ollessa	-4659
sanovan	-4660
suvusta	-4661
tiennyt	-4662
tukseen	-4663
tuomaan	-4664
tuoneet	-4665
turvall	-4666
etsimään	-4667
heimolle	-4668
istetaan	-4669
kuolevat	-4670
käsiinsä	-4671
omaksesi	-4672
paikasta	-4673
pimeyden	-4674
sairasta	-4675
sanoneet	-4676
tervehti	-4677
tunnusta	-4678
turvassa	-4679
uskoneet	-4680
voimansa	-4681
annettava	-4682
kansaansa	-4683
korkeasti	-4684
sisarensa	-4685
viikunapu	-4686
jokaiselle	-4687
joonatanin	-4688
jumalaanne	-4689
kääntyivät	-4690
pelastanut	-4691
pohjoiseen	-4692
kukkuloilla	-4693
noudattakaa	-4694
vihollisesi	-4695
ristiinnaulit	-4696
ede	-4697
gin	-4698
hou	-4699
jit	-4700
ksy	-4701
res	-4702
sas	-4703
teo	-4704
aasa	-4705
hädä	-4706
ikia	-4707
laud	-4708
mina	-4709
otsa	-4710
pais	-4711
poik	-4712
seja	-4713
sera	-4714
taut	-4715
uusi	-4716
veit	-4717
väsy	-4718
abram	-4719
alama	-4720
esiri	-4721
ester	-4722
gedal	-4723
haara	-4724
hiili	-4725
ikkun	-4726
lehti	-4727
lusta	-4728
nasta	-4729
oobed	-4730
rahan	-4731
setri	-4732
suusi	-4733
synny	-4734
ttäin	-4735
vakoi	-4736
huutaa	-4737
isellä	-4738
isensa	-4739
juhlan	-4740
kaatui	-4741
kokous	-4742
kostan	-4743
luonut	-4744
löytää	-4745
muiste	-4746
määrää	-4747
painon	-4748
pitali	-4749
pituus	-4750
profet	-4751
päässä	-4752
rasvan	-4753
saarna	-4754
sangen	-4755
silmis	-4756
sotaur	-4757
suljet	-4758
suussa	-4759
teetti	-4760
tiedon	-4761
tietoa	-4762
tuntee	-4763
vannoi	-4764
vasten	-4765
veteen	-4766
vikauh	-4767
ydellä	-4768
ytensä	-4769
ensiksi	-4770
essänne	-4771
ikuinen	-4772
kuolisi	-4773
käännän	-4774
lampaan	-4775
murehti	-4776
nälkään	-4777
salassa	-4778
sidottu	-4779
sikemin	-4780
takseen	-4781
tehdään	-4782
terällä	-4783
baasanin	-4784
hetkellä	-4785
juudassa	-4786
jättivät	-4787
kullekin	-4788
kättensä	-4789
lohdutta	-4790
peljästy	-4791
pitämään	-4792
puhuneet	-4793
rikkonut	-4794
ihmisille	-4795
isillensä	-4796
jumalille	-4797
kantoivat	-4798
kasvojesi	-4799
menkäämme	-4800
nimeltään	-4801
pitkämiel	-4802
puhtaaksi	-4803
ruokauhri	-4804
sellainen	-4805
kutsuttiin	-4806
peljättävä	-4807
raunioiksi	-4808
uhrilahjan	-4809
aramilaiset	-4810
suitsuketta	-4811
todistuksen	-4812
nebukadressa	-4813
egyptiläisten	-4814
kanaanilaiset	-4815
esa	-4816
fan	-4817
ilu	-4818
säk	-4819
vav	-4820
vea	-4821
ves	-4822
haas	-4823
hiin	-4824
issi	-4825
laul	-4826
levä	-4827
mola	-4828
teon	-4829
ttää	-4830
asera	-4831
eksen	-4832
iseni	-4833
jooas	-4834
kaasi	-4835
keitä	-4836
kiroa	-4837
kisin	-4838
kiste	-4839
kkain	-4840
kätke	-4841
läsnä	-4842
muina	-4843
mukan	-4844
oilta	-4845
piilo	-4846
pysäh	-4847
raska	-4848
sallu	-4849
vaate	-4850
asukas	-4851
eteeni	-4852
huolen	-4853
istesi	-4854
käskyä	-4855
laissa	-4856
mieltä	-4857
neljäs	-4858
poissa	-4859
siimei	-4860
stivat	-4861
säädös	-4862
tekisi	-4863
tuonut	-4864
turmel	-4865
tähdet	-4866
täytti	-4867
vahing	-4868
veljiä	-4869
vilpit	-4870
vuotaa	-4871
ajoivat	-4872
hankkin	-4873
hengell	-4874
herätti	-4875
hävitti	-4876
isäänsä	-4877
jooabin	-4878
katkera	-4879
kirjeen	-4880
kunniaa	-4881
lapsesi	-4882
lähtien	-4883
länteen	-4884
nasaret	-4885
ruhtina	-4886
saatana	-4887
tukseni	-4888
tämättö	-4889
vaimoja	-4890
vedellä	-4891
iloitsee	-4892
istuimen	-4893
joojadan	-4894
jumalaan	-4895
kaikella	-4896
kantavat	-4897
kohdusta	-4898
lähtevät	-4899
mielellä	-4900
naftalin	-4901
oikeassa	-4902
pasunaan	-4903
syntinsä	-4904
säätänyt	-4905
tähtenne	-4906
voideltu	-4907
vuorelta	-4908
esipihaan	-4909
ihmetteli	-4910
libanonin	-4911
omaksenne	-4912
otollinen	-4913
pyhäkköön	-4914
tekojensa	-4915
todistaja	-4916
toimittaa	-4917
tuomitsee	-4918
tuonelaan	-4919
jumalaansa	-4920
ensimmäisen	-4921
perintöosaa	-4922
viinitarhan	-4923
ammonilaiset	-4924
palvelijaisi	-4925
toimittakoon	-4926
perintöosaksi	-4927
rangaistakoon	-4928
du	-4929
▁)	-4930
ehd	-4931
hon	-4932
kou	-4933
kus	-4934
mut	-4935
nur	-4936
ros	-4937
eefa	-4938
este	-4939
gran	-4940
hill	-4941
kado	-4942
maat	-4943
neli	-4944
paet	-4945
rebe	-4946
tune	-4947
vika	-4948
vuot	-4949
aatti	-4950
hilja	-4951
iköyn	-4952
keisa	-4953
kiito	-4954
laula	-4955
meneh	-4956
mitan	-4957
neinä	-4958
odota	-4959
purje	-4960
pyhiä	-4961
rinsa	-4962
sammu	-4963
syttä	-4964
tomuu	-4965
vahva	-4966
vaita	-4967
viedä	-4968
vussa	-4969
armosi	-4970
essani	-4971
huorin	-4972
ilolla	-4973
isaska	-4974
jooaan	-4975
juudaa	-4976
käännä	-4977
lineen	-4978
llanne	-4979
loista	-4980
nuoret	-4981
onkaan	-4982
pilven	-4983
rakenn	-4984
riippu	-4985
sanoit	-4986
suurin	-4987
tasang	-4988
tyyron	-4989
viette	-4990
virrat	-4991
ahasver	-4992
etiopia	-4993
istivät	-4994
kedolle	-4995
kimppuu	-4996
kirjuri	-4997
kohdata	-4998
kävivät	-4999
lähelle	-5000
ojennet	-5001
petosta	-5002
rakenna	-5003
sinäkin	-5004
vuoteen	-5005
erikseen	-5006
ettakoon	-5007
hedelmiä	-5008
isillesi	-5009
kallista	-5010
kuulette	-5011
maaherra	-5012
mieheksi	-5013
portissa	-5014
raavasta	-5015
sallinut	-5016
tahdotte	-5017
telemaan	-5018
tuksesta	-5019
udessaan	-5020
viinistä	-5021
edessänsä	-5022
granaatti	-5023
kansoista	-5024
kauttansa	-5025
määrännyt	-5026
pelkäävät	-5027
rukoilkaa	-5028
tapahtuva	-5029
tappoivat	-5030
turhuutta	-5031
uhrasivat	-5032
veisatkaa	-5033
joosefille	-5034
kääntyneet	-5035
kymmenykset	-5036
pohjoisesta	-5037
kärsivällisy	-5038
iankaikkiseen	-5039
ilmestysmajassa	-5040
häi	-5041
osi	-5042
rys	-5043
ydy	-5044
eela	-5045
hell	-5046
isan	-5047
jaka	-5048
kien	-5049
koni	-5050
kulu	-5051
käys	-5052
lask	-5053
suut	-5054
vein	-5055
ästä	-5056
aasan	-5057
avion	-5058
edomi	-5059
hasta	-5060
hyviä	-5061
kaste	-5062
kkasi	-5063
kurju	-5064
löydä	-5065
mällä	-5066
palmu	-5067
pöydä	-5068
suvut	-5069
syyna	-5070
ttako	-5071
vihoi	-5072
virka	-5073
beetel	-5074
eteesi	-5075
heissä	-5076
herjaa	-5077
hyötyä	-5078
häpeän	-5079
istään	-5080
jäivät	-5081
kelpaa	-5082
kiitos	-5083
korjaa	-5084
koston	-5085
kärsin	-5086
maihin	-5087
muuria	-5088
nuunin	-5089
painoi	-5090
petoll	-5091
poikin	-5092
seuran	-5093
säästä	-5094
tunnen	-5095
ulkona	-5096
unhota	-5097
vaskea	-5098
elävien	-5099
estänne	-5100
herodes	-5101
huomasi	-5102
joosian	-5103
katseli	-5104
miehesi	-5105
näyttää	-5106
pylvään	-5107
setripu	-5108
silmien	-5109
taidoll	-5110
tehköön	-5111
tuomari	-5112
uskosta	-5113
valheen	-5114
viedään	-5115
yksissä	-5116
ylistän	-5117
apostoli	-5118
hukkuvat	-5119
kaduilla	-5120
kaikkine	-5121
kelvotto	-5122
kylineen	-5123
linnassa	-5124
miehestä	-5125
pelastus	-5126
pietarin	-5127
puolusta	-5128
pyysivät	-5129
päähänsä	-5130
surmatta	-5131
taivasta	-5132
tähtensä	-5133
erämaasta	-5134
jalopeura	-5135
noutamaan	-5136
tulisivat	-5137
uhraamaan	-5138
viiniköyn	-5139
hävitetään	-5140
kimppuunsa	-5141
käskyjänsä	-5142
maanpiirin	-5143
sukukunnat	-5144
suloisesti	-5145
jumalattomu	-5146
kansakunnat	-5147
kenellekään	-5148
keskellänsä	-5149
polttouhria	-5150
kaikkeinpyhi	-5151
tytärkaupungit	-5152
gu	-5153
tt	-5154
aro	-5155
bab	-5156
bat	-5157
hag	-5158
ham	-5159
poj	-5160
rou	-5161
uha	-5162
haka	-5163
jano	-5164
laus	-5165
nöyr	-5166
piin	-5167
puku	-5168
ruos	-5169
sato	-5170
sise	-5171
tuva	-5172
vaip	-5173
väij	-5174
vään	-5175
öntä	-5176
barna	-5177
kahle	-5178
ketti	-5179
kiksi	-5180
kivat	-5181
niksi	-5182
oiden	-5183
olipa	-5184
opeta	-5185
paisu	-5186
pidän	-5187
samma	-5188
tetyn	-5189
tähti	-5190
täytä	-5191
uskoa	-5192
uutta	-5193
akasia	-5194
bileam	-5195
daanin	-5196
estäni	-5197
iisain	-5198
illeen	-5199
issään	-5200
isältä	-5201
juhlaa	-5202
katson	-5203
kuolet	-5204
kuolla	-5205
kutsuu	-5206
leilla	-5207
llemme	-5208
maksaa	-5209
mietti	-5210
onista	-5211
portto	-5212
puolis	-5213
rikkoo	-5214
stanne	-5215
säilyt	-5216
tavoin	-5217
tyneet	-5218
vanhan	-5219
virvoi	-5220
yhtään	-5221
äitisi	-5222
antavat	-5223
beerseb	-5224
elämään	-5225
haltuun	-5226
joojaki	-5227
kerubit	-5228
noudata	-5229
perinnö	-5230
peseyty	-5231
pitäisi	-5232
poikkea	-5233
taistel	-5234
toimeen	-5235
tomaksi	-5236
vihassa	-5237
vuorten	-5238
ylistys	-5239
joutunut	-5240
kunnille	-5241
lastensa	-5242
leirissä	-5243
llessaan	-5244
lähtekää	-5245
maahansa	-5246
otettiin	-5247
pelkäävä	-5248
puhdasta	-5249
ruubenin	-5250
seisovan	-5251
tutkiste	-5252
udessasi	-5253
uskoivat	-5254
vaatteen	-5255
voimassa	-5256
vuodatti	-5257
absalomin	-5258
aikanansa	-5259
asettivat	-5260
joutuneet	-5261
kaltaisia	-5262
kirjoitus	-5263
kokoontui	-5264
kädessään	-5265
laskeutui	-5266
maailmaan	-5267
nimittäin	-5268
rakkautta	-5269
tervehdys	-5270
vaatteita	-5271
vaelsivat	-5272
polttakoon	-5273
saadakseen	-5274
siunauksen	-5275
nuorukainen	-5276
rukoilemaan	-5277
sukukuntien	-5278
temppelistä	-5279
uhrikukkula	-5280
valkoisista	-5281
karkoittanut	-5282
seitsenhaara	-5283
kaikkivaltias	-5284
kymmenentuhatta	-5285
pellavalangoista	-5286
bil	-5287
hön	-5288
rot	-5289
eeli	-5290
elja	-5291
erää	-5292
etyt	-5293
hämä	-5294
kump	-5295
köyh	-5296
lake	-5297
nisu	-5298
näöl	-5299
oina	-5300
omia	-5301
paad	-5302
pirs	-5303
sido	-5304
sula	-5305
sääs	-5306
uosi	-5307
vaar	-5308
varu	-5309
väit	-5310
ylvä	-5311
arpaa	-5312
avoin	-5313
boset	-5314
eiden	-5315
hetki	-5316
huuda	-5317
ikävö	-5318
jalus	-5319
joosa	-5320
kanen	-5321
kisti	-5322
kojen	-5323
kotka	-5324
kuvat	-5325
lammi	-5326
laupi	-5327
leveä	-5328
paltt	-5329
punsa	-5330
pääni	-5331
pöytä	-5332
sanin	-5333
siilo	-5334
sokea	-5335
tarpe	-5336
telen	-5337
tetyt	-5338
ttaen	-5339
tunsa	-5340
vaipu	-5341
vissa	-5342
välit	-5343
ylpei	-5344
baalak	-5345
benaja	-5346
elossa	-5347
enneet	-5348
hyljät	-5349
isestä	-5350
ismael	-5351
kostaa	-5352
kuivet	-5353
leivis	-5354
maista	-5355
maksan	-5356
naisia	-5357
nautti	-5358
olenko	-5359
ottava	-5360
palata	-5361
pankaa	-5362
pellon	-5363
pitkän	-5364
rypäle	-5365
sielun	-5366
silmin	-5367
tapasi	-5368
tekosi	-5369
toihin	-5370
totuus	-5371
työnsä	-5372
täältä	-5373
utunut	-5374
vaunut	-5375
yhtenä	-5376
iloiten	-5377
joojada	-5378
kasukan	-5379
korjasi	-5380
kreikka	-5381
käsiksi	-5382
laakson	-5383
menette	-5384
merkkin	-5385
pasunan	-5386
patsaat	-5387
sankari	-5388
sodoman	-5389
tavaran	-5390
uttakaa	-5391
utuneet	-5392
valitus	-5393
vannoen	-5394
antamaan	-5395
hengellä	-5396
herrasta	-5397
hyökkäsi	-5398
ilmestyy	-5399
julistaa	-5400
julistan	-5401
kohdalle	-5402
kymmenes	-5403
käskyjen	-5404
midianin	-5405
mielensä	-5406
pelastan	-5407
polvesta	-5408
rikoksen	-5409
sanokoon	-5410
synnyttä	-5411
valitsee	-5412
veljenne	-5413
edustalle	-5414
kertoivat	-5415
kuritusta	-5416
oittaneet	-5417
poikaansa	-5418
samariaan	-5419
tahtoneet	-5420
voittanut	-5421
ylenpaltt	-5422
aarrekammi	-5423
granaattio	-5424
korkeimman	-5425
mielisuosi	-5426
väärinteki	-5427
sotarintaan	-5428
vuoristossa	-5429
kaikkinaisia	-5430
kasvoillensa	-5431
kirjoittanut	-5432
kahtakymmentä	-5433
palvelijainsa	-5434
ea	-5435
är	-5436
▁(	-5437
hiv	-5438
kid	-5439
lib	-5440
ree	-5441
ref	-5442
etin	-5443
etun	-5444
hasa	-5445
hasi	-5446
hien	-5447
kkua	-5448
liek	-5449
meed	-5450
melu	-5451
muin	-5452
nuhd	-5453
seme	-5454
tähy	-5455
vaim	-5456
vina	-5457
ahdin	-5458
aikoi	-5459
ammen	-5460
asiaa	-5461
askar	-5462
baaru	-5463
eihän	-5464
ellut	-5465
eluja	-5466
jumal	-5467
kelle	-5468
kerto	-5469
kilpi	-5470
levit	-5471
menkö	-5472
nuoli	-5473
panna	-5474
rikos	-5475
saatu	-5476
sassa	-5477
sauva	-5478
sisäl	-5479
ssäni	-5480
tetun	-5481
timme	-5482
tukaa	-5483
tyisi	-5484
täysi	-5485
yöksi	-5486
asetta	-5487
etuksi	-5488
gaadin	-5489
hopean	-5490
hurska	-5491
hävitä	-5492
isilla	-5493
järven	-5494
kokoaa	-5495
kuulen	-5496
lahjan	-5497
neuvos	-5498
olevat	-5499
onille	-5500
portit	-5501
pysyvä	-5502
vangit	-5503
vastan	-5504
viekää	-5505
yksinä	-5506
ellänsä	-5507
eläimiä	-5508
etelään	-5509
hankkii	-5510
kallion	-5511
käyneet	-5512
laittoi	-5513
pahasta	-5514
pantiin	-5515
persian	-5516
polttaa	-5517
päästää	-5518
saarnaa	-5519
sanomme	-5520
selässä	-5521
tarkkaa	-5522
tetuksi	-5523
turmion	-5524
uttivat	-5525
utuivat	-5526
viisaat	-5527
väkensä	-5528
yhdestä	-5529
antaneet	-5530
hämmästy	-5531
järjesty	-5532
kokonaan	-5533
kuolemaa	-5534
kuulkoon	-5535
leijonan	-5536
mattomat	-5537
mattomia	-5538
mielessä	-5539
polveutu	-5540
pystytti	-5541
toimitti	-5542
asettunut	-5543
halleluja	-5544
hankkinut	-5545
ihmiselle	-5546
kieltänyt	-5547
kohdannut	-5548
kääntykää	-5549
lammasten	-5550
nälänhätä	-5551
pahanteki	-5552
seisomaan	-5553
teettänyt	-5554
tunteneet	-5555
täyttänyt	-5556
valittaja	-5557
vääryyden	-5558
ympärille	-5559
käsivarten	-5560
lukumäärän	-5561
mukaisesti	-5562
onilaisten	-5563
puolestani	-5564
rakensivat	-5565
samariassa	-5566
sittenkuin	-5567
sukuluette	-5568
totuudessa	-5569
kasvoilleen	-5570
muukalaiset	-5571
voimallinen	-5572
muukalaisena	-5573
ruokauhriksi	-5574
uhrikukkulat	-5575
valtakuntaan	-5576
ympärileikat	-5577
valtakunnassa	-5578
palvelijattaresi	-5579
:2	-5580
evä	-5581
jin	-5582
mil	-5583
mys	-5584
syl	-5585
yle	-5586
abia	-5587
avio	-5588
elif	-5589
esra	-5590
gaad	-5591
iloa	-5592
ilon	-5593
jien	-5594
joko	-5595
kiih	-5596
mote	-5597
orju	-5598
pauh	-5599
pyhy	-5600
ryhd	-5601
suuh	-5602
synn	-5603
tynä	-5604
utun	-5605
ämme	-5606
aahas	-5607
booas	-5608
huoli	-5609
iljet	-5610
julki	-5611
kalus	-5612
katsa	-5613
kaune	-5614
kossa	-5615
kuiva	-5616
lanko	-5617
mettä	-5618
parha	-5619
pital	-5620
pysyt	-5621
rahaa	-5622
rahat	-5623
ravit	-5624
rensa	-5625
tettä	-5626
tuota	-5627
vasem	-5628
voide	-5629
amasja	-5630
ankara	-5631
antako	-5632
ateria	-5633
baasan	-5634
elävät	-5635
hiljaa	-5636
häväis	-5637
ittesi	-5638
jooram	-5639
joukot	-5640
jättää	-5641
kaitse	-5642
karkel	-5643
kartan	-5644
katsoo	-5645
kaukaa	-5646
kiellä	-5647
kruunu	-5648
kuukau	-5649
kärsiä	-5650
käyttä	-5651
lännen	-5652
mmäksi	-5653
osasto	-5654
ottako	-5655
pahoja	-5656
paljaa	-5657
palkan	-5658
poikke	-5659
päivin	-5660
sanoma	-5661
sarvet	-5662
tarttu	-5663
tiensä	-5664
tyhjän	-5665
voisin	-5666
daareja	-5667
ettemme	-5668
hivvilä	-5669
ilmoita	-5670
juudaan	-5671
kasvoni	-5672
kerskaa	-5673
kesivat	-5674
kohtasi	-5675
korkein	-5676
kutakin	-5677
luonasi	-5678
mattomu	-5679
mesulla	-5680
nebatin	-5681
neitsyt	-5682
paransi	-5683
sapatti	-5684
serujan	-5685
sydämet	-5686
tömäksi	-5687
uttavat	-5688
valitsi	-5689
varasta	-5690
vastoin	-5691
verivel	-5692
voitelu	-5693
ahdistus	-5694
alttaria	-5695
alueelle	-5696
juudasta	-5697
kielellä	-5698
kosketti	-5699
kummalla	-5700
laiselle	-5701
lapsenne	-5702
laskivat	-5703
muksensa	-5704
olisitte	-5705
portille	-5706
porttiin	-5707
rukoilee	-5708
tietäkää	-5709
toisensa	-5710
tyhjäksi	-5711
vaimojen	-5712
vieressä	-5713
asukasten	-5714
autioiksi	-5715
eleasarin	-5716
ikuisiksi	-5717
isillenne	-5718
kimppuusi	-5719
kirjakäär	-5720
kyyhkysen	-5721
omaksensa	-5722
palvelkaa	-5723
seitsemäs	-5724
tyttäreni	-5725
tyttäresi	-5726
väkevällä	-5727
neuvonanta	-5728
palvelevat	-5729
palvelijan	-5730
pojillensa	-5731
rukoukseni	-5732
tettaisiin	-5733
amorilaiset	-5734
kummallakin	-5735
toimittanut	-5736
kaksituhatta	-5737
kokoontuneet	-5738
pakanakansat	-5739
toimittamaan	-5740
punasinisistä	-5741
pyhäkkösekelin	-5742
bas	-5743
bet	-5744
bli	-5745
ekr	-5746
jef	-5747
put	-5748
sib	-5749
asdo	-5750
eljä	-5751
hyvi	-5752
iise	-5753
ikan	-5754
jaab	-5755
ketä	-5756
kola	-5757
ksan	-5758
luki	-5759
pyyh	-5760
sare	-5761
tasa	-5762
taud	-5763
tkaa	-5764
töön	-5765
unta	-5766
vask	-5767
void	-5768
aseen	-5769
assur	-5770
etiin	-5771
geers	-5772
hurmo	-5773
hävin	-5774
innut	-5775
istua	-5776
jylin	-5777
kirje	-5778
kitse	-5779
kohtu	-5780
koita	-5781
kruun	-5782
lahju	-5783
levot	-5784
lyödä	-5785
merta	-5786
murha	-5787
nahka	-5788
niili	-5789
publi	-5790
rasva	-5791
ratka	-5792
semmo	-5793
serub	-5794
syrjä	-5795
sytyt	-5796
sänne	-5797
tähkä	-5798
uuria	-5799
vanhu	-5800
vilja	-5801
voida	-5802
yteni	-5803
asarja	-5804
eitten	-5805
istäsi	-5806
joivat	-5807
kaaleb	-5808
kaivon	-5809
kameli	-5810
kauppa	-5811
koolle	-5812
korenn	-5813
ksessä	-5814
ltansa	-5815
läinen	-5816
löivät	-5817
pilvet	-5818
puhdis	-5819
pääksi	-5820
ryhtyi	-5821
saapui	-5822
saavut	-5823
sineen	-5824
sinäkö	-5825
synnit	-5826
tappan	-5827
timote	-5828
uhatta	-5829
vaellu	-5830
vereen	-5831
vihaan	-5832
yksiin	-5833
ääriin	-5834
aikojen	-5835
isiemme	-5836
jalkani	-5837
juomaan	-5838
laupias	-5839
matonta	-5840
mieheni	-5841
muinoin	-5842
ottaisi	-5843
paennut	-5844
paljous	-5845
patsaan	-5846
pojille	-5847
pysyvät	-5848
repäisi	-5849
saamaan	-5850
saattoi	-5851
sisältä	-5852
sotivat	-5853
syntien	-5854
talosta	-5855
tulkoot	-5856
tämällä	-5857
täväksi	-5858
vieraan	-5859
galilean	-5860
iloitkaa	-5861
isälleen	-5862
jalkojen	-5863
joohanan	-5864
juurelle	-5865
kansaasi	-5866
kuolivat	-5867
käskynsä	-5868
käärmeen	-5869
lammasta	-5870
luopunut	-5871
merkkinä	-5872
mieliksi	-5873
nostivat	-5874
näkemään	-5875
olevansa	-5876
profetoi	-5877
pystyssä	-5878
raavaita	-5879
rakastan	-5880
saadokin	-5881
totuutta	-5882
vapaaksi	-5883
varrella	-5884
vihaavat	-5885
ylhäältä	-5886
beeteliin	-5887
enkelille	-5888
heitetään	-5889
iisakille	-5890
jooabille	-5891
kuulemaan	-5892
kääntyvät	-5893
painoinen	-5894
puhtaasta	-5895
päällikön	-5896
rangaistu	-5897
rikkoneet	-5898
saapuivat	-5899
surmannut	-5900
synnyttää	-5901
syntyivät	-5902
terveeksi	-5903
toisianne	-5904
jumalaamme	-5905
kuninkaana	-5906
pimeydessä	-5907
puhuessaan	-5908
puimatante	-5909
ravituiksi	-5910
rukoilevat	-5911
vaeltaneet	-5912
valhetteli	-5913
kuolleitten	-5914
leeviläisiä	-5915
mielistynyt	-5916
pystyttänyt	-5917
ympärillään	-5918
ammonilaisia	-5919
kolmetuhatta	-5920
hävitettäköön	-5921
rankaisematta	-5922
yhteysuhriksi	-5923
gee	-5924
jyn	-5925
kiv	-5926
sol	-5927
tim	-5928
aada	-5929
aamo	-5930
esai	-5931
isoi	-5932
jopa	-5933
luul	-5934
rati	-5935
sain	-5936
syvä	-5937
ttel	-5938
täen	-5939
viiv	-5940
väni	-5941
ytyi	-5942
ällä	-5943
alhaa	-5944
ellen	-5945
¦	-5946
▁	-5947
a	-5948
i	-5949
n	-5950
e	-5951
t	-5952
s	-5953
l	-5954
ä	-5955
k	-5956
u	-5957
o	-5958
m	-5959
h	-5960
j	-5961
𐋇	-5962
v	-5963
r	-5964
,	-5965
p	-5966
y	-5967
d	-5968
.	-5969
"	-5970
ö	-5971
:	-5972
;	-5973
b	-5974
g	-5975
f	-5976
?	-5977
`	-5978
-	-5979
!	-5980
1	-5981
[	-5982
]	-5983
3	-5984
2	-5985
4	-5986
9	-5987
0	-5988
5	-5989
(	-5990
)	-5991
8	-5992
6	-5993
7	-5994
z	-5995
/	-5996
