<pad>	0
</s>	0
<unk>	0
▁¦	-0
ku	-1
ng	-2
ba	-3
wa	-4
th	-5
la	-6
na	-7
ni	-8
kh	-9
le	-10
si	-11
zi	-12
ka	-13
▁u	-14
ph	-15
lu	-16
we	-17
nga	-18
thi	-19
ma	-20
ya	-21
lo	-22
ye	-23
nd	-24
li	-25
be	-26
▁e	-27
oku	-28
ke	-29
▁,	-30
se	-31
kho	-32
za	-33
▁a	-34
bo	-35
▁ng	-36
ne	-37
▁i	-38
sa	-39
pha	-40
▁𐋇	-41
yo	-42
▁ku	-43
kulu	-44
yi	-45
mi	-46
▁k	-47
▁na	-48
khu	-49
▁uku	-50
▁wa	-51
bu	-52
ze	-53
mu	-54
ngi	-55
▁“	-56
nge	-57
uku	-58
▁.	-59
▁n	-60
▁ba	-61
sh	-62
bi	-63
nkulu	-64
▁o	-65
tha	-66
ko	-67
nt	-68
lwa	-69
okuba	-70
the	-71
hla	-72
so	-73
kwa	-74
nye	-75
fu	-76
▁aba	-77
nke	-78
phe	-79
ki	-80
khe	-81
wo	-82
khulu	-83
me	-84
▁K	-85
su	-86
thu	-87
▁nga	-88
je	-89
▁N	-90
▁ka	-91
ini	-92
da	-93
fa	-94
ha	-95
▁kwa	-96
ri	-97
aba	-98
▁ni	-99
ndi	-100
kepha	-101
no	-102
▁no	-103
▁ngi	-104
ntu	-105
kwe	-106
kha	-107
kulunkulu	-108
mbi	-109
zo	-110
yaku	-111
Nkulunkulu	-112
mba	-113
weni	-114
nya	-115
▁Ng	-116
tho	-117
ngo	-118
▁ya	-119
nda	-120
st	-121
khona	-122
▁si	-123
phi	-124
▁nge	-125
um	-126
kosi	-127
▁:	-128
▁be	-129
leyo	-130
▁lo	-131
.”	-132
vu	-133
fi	-134
▁;	-135
bona	-136
wu	-137
hle	-138
▁ukuba	-139
Je	-140
rist	-141
▁ne	-142
▁la	-143
zu	-144
de	-145
nza	-146
nzi	-147
ja	-148
▁um	-149
dwa	-150
ela	-151
▁ko	-152
wi	-153
pho	-154
nu	-155
ndla	-156
ngokuba	-157
Jesu	-158
lwe	-159
zin	-160
▁oku	-161
uma	-162
▁ukuthi	-163
muntu	-164
zwi	-165
ngu	-166
▁ngokuba	-167
▁ye	-168
oda	-169
epha	-170
mo	-171
tsh	-172
ga	-173
▁yi	-174
▁U	-175
ristu	-176
lela	-177
▁ngo	-178
zwe	-179
fundi	-180
▁Kepha	-181
mbe	-182
▁wathi	-183
qa	-184
lokho	-185
▁ezi	-186
▁kepha	-187
he	-188
ndu	-189
▁kwe	-190
▁isi	-191
xa	-192
nja	-193
zwa	-194
hlu	-195
kholwa	-196
phaka	-197
qo	-198
mp	-199
nje	-200
wathi	-201
nkulunkulu	-202
ndle	-203
▁ama	-204
sebe	-205
▁kuye	-206
swa	-207
▁we	-208
phu	-209
▁ngoku	-210
▁izi	-211
gc	-212
Nkosi	-213
kela	-214
va	-215
fe	-216
bonke	-217
▁esi	-218
lowo	-219
▁ma	-220
▁sa	-221
▁li	-222
▁Ngokuba	-223
▁.”	-224
▁za	-225
suku	-226
▁W	-227
zaku	-228
▁nje	-229
▁B	-230
kazi	-231
ngena	-232
yisi	-233
hlo	-234
mbu	-235
ukuba	-236
▁noku	-237
ngc	-238
▁‘	-239
wele	-240
ngoku	-241
phendu	-242
▁-	-243
nxa	-244
nze	-245
qini	-246
ningi	-247
▁naba	-248
ru	-249
▁Wa	-250
ukuthi	-251
▁em	-252
?”	-253
nkosi	-254
odana	-255
njalo	-256
munye	-257
nde	-258
yese	-259
ho	-260
ce	-261
lwane	-262
khuluma	-263
▁kubo	-264
▁se	-265
▁uma	-266
ro	-267
eli	-268
hli	-269
▁zi	-270
▁uJesu	-271
▁Nga	-272
sho	-273
kile	-274
wini	-275
lokhu	-276
ra	-277
ngaba	-278
phambi	-279
shi	-280
umi	-281
▁uNkulunkulu	-282
leni	-283
sha	-284
thanda	-285
heka	-286
isi	-287
▁kini	-288
ama	-289
bha	-290
phakathi	-291
phila	-292
phezu	-293
ezi	-294
nsi	-295
▁khona	-296
▁bonke	-297
Kristu	-298
mina	-299
ndo	-300
fika	-301
▁kwaba	-302
mandla	-303
vela	-304
sebenzi	-305
di	-306
▁A	-307
qala	-308
noku	-309
▁le	-310
▁ngu	-311
fane	-312
hu	-313
▁kodwa	-314
kubo	-315
kuye	-316
▁Ba	-317
uda	-318
mhla	-319
jesu	-320
hamba	-321
phela	-322
khathi	-323
▁yo	-324
hi	-325
zalwane	-326
sile	-327
esi	-328
dla	-329
bani	-330
khule	-331
izi	-332
▁konke	-333
nto	-334
du	-335
futhi	-336
phendula	-337
▁ukuze	-338
naba	-339
oya	-340
beni	-341
▁eli	-342
zela	-343
shumi	-344
lweni	-345
▁eku	-346
▁?	-347
nina	-348
funa	-349
awu	-350
bonaka	-351
gu	-352
lungi	-353
saba	-354
imi	-355
thetho	-356
kaNkulunkulu	-357
khi	-358
ntwa	-359
rofe	-360
bili	-361
▁noma	-362
lele	-363
tshe	-364
▁lokho	-365
nta	-366
Ma	-367
▁lu	-368
moya	-369
▁imi	-370
lwini	-371
gama	-372
gi	-373
kele	-374
ntwana	-375
zulwini	-376
bula	-377
hlizi	-378
et	-379
▁bathi	-380
hlala	-381
manga	-382
▁kaNkulunkulu	-383
leli	-384
oli	-385
ngelo	-386
▁owa	-387
ngcwele	-388
bheka	-389
ngum	-390
kristu	-391
profe	-392
kuba	-393
▁nase	-394
lile	-395
nyama	-396
dodana	-397
▁ze	-398
siwe	-399
zonke	-400
ngama	-401
mela	-402
ndlu	-403
ina	-404
mvu	-405
bathi	-406
phansi	-407
awulu	-408
ngelosi	-409
ca	-410
phuma	-411
kwaba	-412
re	-413
▁lapho	-414
moni	-415
kini	-416
▁𐊣	-417
busi	-418
▁kanye	-419
▁aku	-420
owa	-421
yu	-422
mulo	-423
risti	-424
swe	-425
nani	-426
▁kube	-427
bonakali	-428
kodwa	-429
sindi	-430
▁lokhu	-431
▁Ngakho	-432
ndodana	-433
Juda	-434
ndela	-435
▁ngenxa	-436
▁yakhe	-437
Moya	-438
zini	-439
ngakho	-440
zane	-441
▁yena	-442
musa	-443
▁abe	-444
thile	-445
kube	-446
▁Y	-447
etru	-448
phakade	-449
kani	-450
▁ese	-451
kwenza	-452
ngalokho	-453
kanye	-454
soku	-455
▁in	-456
▁nezi	-457
▁umuntu	-458
yazi	-459
Jo	-460
Si	-461
em	-462
baba	-463
zweni	-464
yini	-465
yise	-466
khosi	-467
vi	-468
▁so	-469
ngesi	-470
xuku	-471
kwazi	-472
nyane	-473
▁waba	-474
▁nina	-475
sale	-476
athi	-477
▁I	-478
▁kuba	-479
▁futhi	-480
sifa	-481
▁izin	-482
thoko	-483
salema	-484
.’	-485
▁phambi	-486
mbisa	-487
rusalema	-488
mbili	-489
▁E	-490
ngabi	-491
Ndodana	-492
▁Kwathi	-493
pristi	-494
mkhulu	-495
buso	-496
profethi	-497
yela	-498
▁izwi	-499
yakuba	-500
nezi	-501
▁UJesu	-502
yena	-503
ngathi	-504
▁mina	-505
fanele	-506
hliziyo	-507
konke	-508
▁phakathi	-509
kisa	-510
hane	-511
yoku	-512
▁bakhe	-513
sifazane	-514
ngani	-515
ngaka	-516
fileyo	-517
phandle	-518
ge	-519
eku	-520
sela	-521
go	-522
weyo	-523
themp	-524
▁Wayese	-525
shuma	-526
▁naye	-527
ceku	-528
ngwa	-529
thula	-530
khuleka	-531
thempeli	-532
lisa	-533
ngeli	-534
khonza	-535
woku	-536
▁Kho	-537
▁phezu	-538
▁kwakhe	-539
zizwe	-540
mthetho	-541
hlezi	-542
thina	-543
qinisile	-544
ndoda	-545
ta	-546
▁Ku	-547
khombisa	-548
▁kakhulu	-549
do	-550
▁uP	-551
boni	-552
riya	-553
▁wo	-554
fuma	-555
▁kwenu	-556
vangeli	-557
yishumi	-558
yiku	-559
▁iNkosi	-560
nika	-561
meni	-562
zulu	-563
ngenxa	-564
faka	-565
lapho	-566
njani	-567
ukuze	-568
kazimulo	-569
▁nama	-570
gcwele	-571
butha	-572
▁waye	-573
▁ngithi	-574
lotsh	-575
sinyane	-576
lini	-577
noma	-578
▁uya	-579
lelwa	-580
▁?”	-581
lunga	-582
▁aka	-583
▁engi	-584
ci	-585
thela	-586
beka	-587
▁angi	-588
▁zonke	-589
kukhona	-590
Ngi	-591
▁yini	-592
thathu	-593
yeli	-594
yizi	-595
meme	-596
seku	-597
qiniso	-598
kayo	-599
muka	-600
▁Khona	-601
nti	-602
pathi	-603
lula	-604
waba	-605
▁L	-606
hlwa	-607
▁uyaku	-608
bhapathi	-609
gcwa	-610
▁Ngi	-611
▁ngaba	-612
tsha	-613
mukela	-614
aku	-615
nama	-616
hawu	-617
zimba	-618
kwahlu	-619
bhu	-620
fakazi	-621
▁emi	-622
▁kwabo	-623
ese	-624
▁ninga	-625
▁eni	-626
ndlini	-627
in	-628
layo	-629
wayese	-630
ila	-631
risi	-632
ndawo	-633
doda	-634
▁babe	-635
▁loku	-636
thatha	-637
thando	-638
themba	-639
▁muntu	-640
lwandle	-641
Baba	-642
thiwa	-643
▁kimi	-644
yala	-645
jalo	-646
▁nani	-647
▁enga	-648
chi	-649
kiso	-650
nike	-651
gcina	-652
▁ngama	-653
namandla	-654
▁kuNkulunkulu	-655
nj	-656
▁ubu	-657
bonga	-658
beke	-659
muke	-660
nesi	-661
▁nalowo	-662
neni	-663
▁Kwa	-664
kileyo	-665
Yi	-666
▁Uma	-667
▁nxa	-668
zinsuku	-669
sweni	-670
hlanga	-671
lotshi	-672
▁Aba	-673
bela	-674
▁O	-675
muzi	-676
qonda	-677
fundisa	-678
▁Kristu	-679
Jerusalema	-680
umo	-681
mhlaba	-682
nq	-683
▁asi	-684
▁lwa	-685
thelo	-686
kwenze	-687
ndleni	-688
yisikhombisa	-689
▁wam	-690
▁nami	-691
bandla	-692
▁phansi	-693
ngase	-694
shiya	-695
Sa	-696
▁nesi	-697
thokoza	-698
bone	-699
fo	-700
buye	-701
keni	-702
▁wena	-703
tu	-704
ngezi	-705
ngazi	-706
nase	-707
ve	-708
cala	-709
hluphe	-710
Johane	-711
▁ngesi	-712
wesifazane	-713
hlakani	-714
phon	-715
▁omunye	-716
ngubo	-717
fumana	-718
cwa	-719
nene	-720
yakhe	-721
esa	-722
naye	-723
thwa	-724
kwathi	-725
▁njalo	-726
kakhulu	-727
▁ngakho	-728
gazi	-729
she	-730
limi	-731
▁bam	-732
▁kuze	-733
▁nabo	-734
landela	-735
zono	-736
▁nom	-737
memeza	-738
umuntu	-739
bezizwe	-740
nyu	-741
▁Ko	-742
ninga	-743
▁kuwe	-744
▁lakhe	-745
ywa	-746
stoli	-747
fikile	-748
fanekiso	-749
jo	-750
▁m	-751
lesi	-752
vuka	-753
▁ngezi	-754
▁abanye	-755
▁ezulwini	-756
labo	-757
phostoli	-758
shumayela	-759
nyi	-760
sra	-761
▁en	-762
lise	-763
srayeli	-764
izwi	-765
▁ani	-766
▁abafundi	-767
langa	-768
melwe	-769
sono	-770
▁lowo	-771
khanda	-772
zandla	-773
▁kunge	-774
koku	-775
nyaka	-776
kwakhe	-777
▁Wathi	-778
▁ngokwe	-779
juda	-780
ti	-781
aka	-782
biza	-783
lutho	-784
▁yami	-785
▁abantu	-786
nami	-787
nyawo	-788
yalo	-789
▁lwe	-790
uj	-791
nkazimulo	-792
▁yoku	-793
thethe	-794
lotshiwe	-795
▁kuphela	-796
angi	-797
xu	-798
bhe	-799
nce	-800
waye	-801
demoni	-802
khanya	-803
ngeni	-804
nguku	-805
zwile	-806
hambe	-807
▁ngaye	-808
▁ngiya	-809
bonakaliso	-810
raha	-811
▁baba	-812
lezo	-813
qobo	-814
zoku	-815
▁ema	-816
braha	-817
▁koku	-818
brahama	-819
▁wayese	-820
bakhe	-821
mehlo	-822
nkulungwa	-823
Fa	-824
mbo	-825
▁soku	-826
▁zakhe	-827
cela	-828
niya	-829
thuma	-830
▁S	-831
ndlela	-832
ngithi	-833
▁ngase	-834
thempelini	-835
nkulungwane	-836
abe	-837
sika	-838
▁esa	-839
mbula	-840
misebenzi	-841
▁iNdodana	-842
shwa	-843
bukhosi	-844
kholwayo	-845
▁.’	-846
misa	-847
kwenu	-848
▁omkhulu	-849
▁masinyane	-850
ose	-851
kobe	-852
lilo	-853
mele	-854
zayo	-855
esu	-856
babe	-857
dumo	-858
thane	-859
▁onga	-860
sandla	-861
▁kwami	-862
▁yethu	-863
lelo	-864
▁emhla	-865
▁ngokuthi	-866
mpela	-867
ebo	-868
▁yilowo	-869
▁uKristu	-870
Ba	-871
goge	-872
bhali	-873
▁kuyo	-874
nagoge	-875
phamba	-876
▁lutho	-877
▁manje	-878
▁njengokuba	-879
ena	-880
ntando	-881
▁ababe	-882
dle	-883
nwa	-884
fike	-885
yweni	-886
ngweni	-887
fundisi	-888
bele	-889
kimi	-890
leka	-891
suka	-892
▁uyi	-893
▁Base	-894
uya	-895
▁ebu	-896
Ngcwele	-897
Nkosini	-898
nhliziyo	-899
ngom	-900
ngabe	-901
zisa	-902
▁sebe	-903
Farisi	-904
▁eJerusalema	-905
▁—	-906
nabo	-907
ndwa	-908
kwami	-909
liswa	-910
ngiya	-911
thande	-912
ngalokhu	-913
Ni	-914
▁Ma	-915
▁Kodwa	-916
ani	-917
▁zo	-918
engi	-919
bindi	-920
mukele	-921
ncenga	-922
diya	-923
Ga	-924
loku	-925
wena	-926
▁Jesu	-927
▁oNgcwele	-928
boku	-929
naku	-930
nweni	-931
ndaweni	-932
sabatha	-933
,”	-934
nom	-935
buka	-936
▁ngom	-937
▁thina	-938
▁uMoya	-939
▁bazalwane	-940
▁”	-941
mpo	-942
thaka	-943
khumbi	-944
ngokwe	-945
thembi	-946
▁uzaku	-947
▁yakho	-948
asi	-949
dumi	-950
lika	-951
kwabo	-952
thini	-953
thembe	-954
▁bheka	-955
▁wakhe	-956
thumela	-957
base	-958
nkwa	-959
cwadi	-960
hlane	-961
hlanu	-962
▁ezweni	-963
phambili	-964
▁yomuntu	-965
ebe	-966
qhu	-967
fowa	-968
vide	-969
yisa	-970
hlaka	-971
ndele	-972
phele	-973
qondi	-974
▁ethi	-975
fowabo	-976
khatha	-977
ngubani	-978
▁kanjani	-979
hliziyweni	-980
ngco	-981
Na	-982
mile	-983
▁olu	-984
phulu	-985
uyaku	-986
▁labo	-987
▁woku	-988
thandi	-989
▁uPawulu	-990
▁Ngalokho	-991
bala	-992
soze	-993
hlobo	-994
lungileyo	-995
oma	-996
▁wami	-997
fakaza	-998
▁likaNkulunkulu	-999
bhi	-1000
ji	-1001
Petru	-1002
hlale	-1003
▁seku	-1004
bulala	-1005
▁yonke	-1006
▁ngiyaku	-1007
▁Wayesethi	-1008
yeza	-1009
zala	-1010
laba	-1011
▁naku	-1012
▁waphendula	-1013
▁njengalokho	-1014
emi	-1015
ngqo	-1016
mbuso	-1017
nyeni	-1018
khonzi	-1019
mileyo	-1020
tshela	-1021
busisiwe	-1022
eni	-1023
▁izwe	-1024
▁sakhe	-1025
lisi	-1026
kunge	-1027
▁Ni	-1028
▁bo	-1029
nywa	-1030
ilatu	-1031
thele	-1032
▁kulo	-1033
ngcoli	-1034
▁Bheka	-1035
▁yathi	-1036
mangala	-1037
fana	-1038
seni	-1039
,’	-1040
Ja	-1041
▁uM	-1042
▁igama	-1043
▁kwakho	-1044
▁kanjalo	-1045
!”	-1046
khala	-1047
hlwanye	-1048
sindiswa	-1049
Ku	-1050
zile	-1051
Israyeli	-1052
sithathu	-1053
▁endlini	-1054
▁abaningi	-1055
▁ngaphandle	-1056
mazi	-1057
khipha	-1058
hlanganye	-1059
qe	-1060
siya	-1061
bhalo	-1062
hlela	-1063
mbala	-1064
mbuza	-1065
nguye	-1066
▁ezin	-1067
▁nguye	-1068
▁kukhona	-1069
▁eNkosini	-1070
Lo	-1071
▁yenu	-1072
▁okukhulu	-1073
izin	-1074
dlula	-1075
ngene	-1076
kwenzi	-1077
phathi	-1078
sukela	-1079
buthaka	-1080
thembiso	-1081
▁Lo	-1082
kelwa	-1083
▁wase	-1084
▁munye	-1085
▁wethu	-1086
▁bayaku	-1087
▁nambili	-1088
ngaphandle	-1089
nakho	-1090
pu	-1091
qu	-1092
ili	-1093
sizi	-1094
▁laba	-1095
▁zabo	-1096
omunye	-1097
▁lonke	-1098
phenduka	-1099
▁umthetho	-1100
hlakanipha	-1101
ngala	-1102
ngaye	-1103
bam	-1104
▁ki	-1105
vuma	-1106
muhle	-1107
wethu	-1108
▁anga	-1109
▁ngani	-1110
dlu	-1111
hora	-1112
kulo	-1113
leso	-1114
phefu	-1115
nyameni	-1116
nagogeni	-1117
▁kwabafileyo	-1118
manje	-1119
mihla	-1120
nalowo	-1121
▁awu	-1122
lahle	-1123
lelwe	-1124
▁zenu	-1125
kulunga	-1126
sebenza	-1127
▁okuhle	-1128
yisihlanu	-1129
▁ivangeli	-1130
kuka	-1131
kuze	-1132
▁emva	-1133
Simoni	-1134
abanye	-1135
▁nokuthi	-1136
zimu	-1137
nduna	-1138
wenza	-1139
phambe	-1140
▁Na	-1141
▁bu	-1142
kuwe	-1143
nini	-1144
▁wazi	-1145
Galile	-1146
kaKristu	-1147
▁abaJuda	-1148
ngamashumi	-1149
▁kukaNkulunkulu	-1150
mpa	-1151
mise	-1152
sabi	-1153
lakhe	-1154
khutha	-1155
liwe	-1156
mpum	-1157
nazi	-1158
onke	-1159
uthi	-1160
yeni	-1161
zuku	-1162
▁Ese	-1163
▁ayi	-1164
bantu	-1165
puthe	-1166
shaya	-1167
khulume	-1168
Abrahama	-1169
gcwalise	-1170
mpumputhe	-1171
kwahlulela	-1172
thandekayo	-1173
▁emhlabeni	-1174
buza	-1175
febe	-1176
ngisa	-1177
thaba	-1178
ubu	-1179
wam	-1180
▁Ka	-1181
enga	-1182
▁lami	-1183
▁nokuba	-1184
▁amandla	-1185
▁abakhulu	-1186
cane	-1187
hlalo	-1188
mpofu	-1189
zelwa	-1190
gameni	-1191
yilowo	-1192
hlupheka	-1193
phefumulo	-1194
jerusalema	-1195
buthakathaka	-1196
nqo	-1197
Bheka	-1198
▁yisi	-1199
Jakobe	-1200
▁ngalo	-1201
abafundi	-1202
sondela	-1203
lomo	-1204
rode	-1205
muhla	-1206
zwayo	-1207
▁baya	-1208
▁siya	-1209
Pawulu	-1210
abantu	-1211
▁lapha	-1212
▁ngezwi	-1213
ngalungi	-1214
lalela	-1215
Yise	-1216
▁waya	-1217
▁zoku	-1218
▁kwesi	-1219
▁uPetru	-1220
▁ethempelini	-1221
khunj	-1222
kwini	-1223
bonile	-1224
pawulu	-1225
Thi	-1226
kithi	-1227
▁lase	-1228
▁bethi	-1229
▁uqobo	-1230
Sathane	-1231
▁indoda	-1232
▁umbuso	-1233
▁isikhathi	-1234
▁imisebenzi	-1235
njengokuba	-1236
gq	-1237
▁am	-1238
belo	-1239
vini	-1240
udiya	-1241
zakhe	-1242
▁base	-1243
▁okwa	-1244
▁sesi	-1245
ndleleni	-1246
phambanweni	-1247
sisa	-1248
phuza	-1249
kanjalo	-1250
▁niyaku	-1251
▁isixuku	-1252
▁kuKristu	-1253
duze	-1254
mini	-1255
hlophe	-1256
nokuba	-1257
nyelwe	-1258
kuphela	-1259
philayo	-1260
nxu	-1261
wazi	-1262
▁ngum	-1263
▁nathi	-1264
sana	-1265
yami	-1266
butho	-1267
ncane	-1268
ezulwini	-1269
sezulwini	-1270
wayesethi	-1271
enye	-1272
file	-1273
hloni	-1274
khuni	-1275
zelwe	-1276
▁kuka	-1277
▁ngini	-1278
▁wakho	-1279
bonakala	-1280
zukulwane	-1281
mbona	-1282
nziwe	-1283
petru	-1284
ntabeni	-1285
Da	-1286
Uma	-1287
khwe	-1288
nhla	-1289
Kepha	-1290
▁yabo	-1291
ngithu	-1292
▁umusa	-1293
bum	-1294
shu	-1295
goli	-1296
sesi	-1297
wenu	-1298
zama	-1299
ngaso	-1300
ngini	-1301
qonde	-1302
shilo	-1303
thole	-1304
golide	-1305
khunjini	-1306
mbusweni	-1307
mhlabeni	-1308
kuyo	-1309
▁lesi	-1310
▁unga	-1311
▁nguku	-1312
▁wonke	-1313
sokunene	-1314
▁nangoku	-1315
▁ukuphila	-1316
nqa	-1317
ema	-1318
nci	-1319
vume	-1320
▁eza	-1321
letha	-1322
phika	-1323
phile	-1324
▁nibe	-1325
Davide	-1326
▁nezin	-1327
▁nonke	-1328
nkosini	-1329
▁ukudla	-1330
hlambala	-1331
▁elikhulu	-1332
dumisa	-1333
lingani	-1334
He	-1335
mva	-1336
▁Yi	-1337
ngalo	-1338
▁bona	-1339
▁yaba	-1340
phonsa	-1341
▁kukho	-1342
▁sonke	-1343
▁kuqala	-1344
nzo	-1345
luka	-1346
muso	-1347
wula	-1348
dleni	-1349
lapha	-1350
ndaba	-1351
ngiyaku	-1352
emva	-1353
siye	-1354
kukho	-1355
▁kuwo	-1356
lelani	-1357
phatha	-1358
▁kahle	-1359
▁uBaba	-1360
▁kwethu	-1361
▁ngosuku	-1362
▁izinsuku	-1363
▁nguNkulunkulu	-1364
laka	-1365
liya	-1366
yimi	-1367
banga	-1368
kubona	-1369
masinyane	-1370
dli	-1371
▁om	-1372
mali	-1373
wabo	-1374
waya	-1375
ababe	-1376
khube	-1377
yethu	-1378
▁bami	-1379
▁enye	-1380
johane	-1381
ndlebe	-1382
thupha	-1383
▁bakho	-1384
▁zinto	-1385
fundiso	-1386
▁kungabi	-1387
▁indodana	-1388
yedwa	-1389
wayini	-1390
Ha	-1391
Mina	-1392
nezin	-1393
▁maka	-1394
▁onke	-1395
▁Bathi	-1396
▁kubantu	-1397
▁sikhathi	-1398
▁ukukholwa	-1399
gci	-1400
galo	-1401
wase	-1402
yaba	-1403
mbeni	-1404
shoyo	-1405
zalwa	-1406
zenzi	-1407
zinge	-1408
lisiwe	-1409
njenge	-1410
thweni	-1411
thuneni	-1412
shiyagalo	-1413
waphendula	-1414
▁Ya	-1415
sele	-1416
yathi	-1417
ntathu	-1418
▁Kuthe	-1419
▁ingelosi	-1420
▁njengoku	-1421
njengalokho	-1422
ngcebo	-1423
Ka	-1424
fazi	-1425
kiswa	-1426
phawu	-1427
▁sika	-1428
nkemba	-1429
khazimu	-1430
khaphela	-1431
longweni	-1432
thandayo	-1433
▁njengalokhu	-1434
uyi	-1435
yoni	-1436
bamba	-1437
funda	-1438
omkhulu	-1439
ngukuthi	-1440
uzaku	-1441
zanga	-1442
▁uthi	-1443
▁wabo	-1444
nyanga	-1445
▁nange	-1446
▁njenge	-1447
khumbula	-1448
bazalwane	-1449
▁namandla	-1450
sefa	-1451
bizwa	-1452
gqila	-1453
khaya	-1454
ngcwe	-1455
shana	-1456
nikelo	-1457
nyango	-1458
ngomuso	-1459
pheleli	-1460
hlalweni	-1461
mukeliswa	-1462
Mose	-1463
▁abo	-1464
▁kuyi	-1465
▁nawe	-1466
▁nazi	-1467
▁wasi	-1468
Mariya	-1469
kwakho	-1470
▁banga	-1471
▁lakho	-1472
▁ngiku	-1473
▁kinina	-1474
▁phakade	-1475
▁esikhulu	-1476
▁eziningi	-1477
sayo	-1478
manzi	-1479
retha	-1480
bekezela	-1481
reki	-1482
siza	-1483
▁eya	-1484
khali	-1485
zonda	-1486
▁bayi	-1487
▁okwe	-1488
mbethe	-1489
thombe	-1490
▁kwezi	-1491
hluleli	-1492
kungabi	-1493
qondana	-1494
▁emzini	-1495
▁amabili	-1496
▁kungathi	-1497
ngcolileyo	-1498
▁sobukhosi	-1499
qha	-1500
onga	-1501
unga	-1502
yebo	-1503
bethe	-1504
wakhe	-1505
busuku	-1506
farisi	-1507
sukuma	-1508
ngokuthi	-1509
ngiqinisile	-1510
zoni	-1511
▁funa	-1512
▁zaba	-1513
▁ukufa	-1514
▁amehlo	-1515
▁inkosi	-1516
▁othile	-1517
phulukisa	-1518
▁ngalokho	-1519
▁eziyishumi	-1520
busa	-1521
kanu	-1522
yona	-1523
dalwa	-1524
ngulu	-1525
lahlwa	-1526
qaleni	-1527
lonyeni	-1528
ngqondo	-1529
zibonga	-1530
khashana	-1531
khathaze	-1532
hlambalaza	-1533
kwesokunene	-1534
bazi	-1535
nikwa	-1536
▁bazi	-1537
▁abanga	-1538
baya	-1539
giji	-1540
lase	-1541
nzalo	-1542
sakhe	-1543
thuku	-1544
sibili	-1545
▁F	-1546
Bar	-1547
guqu	-1548
muva	-1549
soka	-1550
zele	-1551
lwano	-1552
▁mhla	-1553
buyela	-1554
hlambu	-1555
bathini	-1556
abaningi	-1557
sikhathi	-1558
vunyelwe	-1559
▁kwafika	-1560
vumelwano	-1561
▁abantwana	-1562
▁okuphakade	-1563
▁ngokukholwa	-1564
sila	-1565
Pho	-1566
▁,”	-1567
Kesa	-1568
mani	-1569
wami	-1570
ngayo	-1571
nziwa	-1572
yakho	-1573
▁kuso	-1574
▁Kwase	-1575
▁Nkosi	-1576
▁indlu	-1577
▁kithi	-1578
▁kuthi	-1579
▁umoya	-1580
kholweni	-1581
▁iqiniso	-1582
▁ngizaku	-1583
▁njengaba	-1584
en	-1585
men	-1586
nwe	-1587
rna	-1588
cebi	-1589
dabu	-1590
zana	-1591
bayaku	-1592
khethi	-1593
Nga	-1594
ethi	-1595
▁aye	-1596
kweni	-1597
nxusa	-1598
sikho	-1599
Herode	-1600
ezweni	-1601
▁owaye	-1602
kanjani	-1603
profetha	-1604
thabatha	-1605
▁ababili	-1606
▁egameni	-1607
▁kwalokho	-1608
▁ngaphambili	-1609
▁eziyisikhombisa	-1610
olu	-1611
nemi	-1612
ngele	-1613
bhekani	-1614
yomuntu	-1615
zaretha	-1616
dala	-1617
dini	-1618
kise	-1619
qale	-1620
velo	-1621
vula	-1622
▁azi	-1623
▁ebe	-1624
▁eyi	-1625
bithe	-1626
khiwa	-1627
muphi	-1628
ndisa	-1629
▁lona	-1630
▁niya	-1631
▁sibe	-1632
▁ungo	-1633
khuphu	-1634
lekile	-1635
melana	-1636
phethe	-1637
▁ndawo	-1638
hlulela	-1639
kulungi	-1640
nyukela	-1641
▁njengo	-1642
bandleni	-1643
▁weNkosi	-1644
▁kulotshiwe	-1645
▁owesifazane	-1646
eza	-1647
izwe	-1648
yonke	-1649
naka	-1650
yalu	-1651
ngane	-1652
nzani	-1653
thewu	-1654
▁lezo	-1655
▁sami	-1656
▁yayo	-1657
▁yebo	-1658
Judiya	-1659
khohli	-1660
niyaku	-1661
njengo	-1662
▁abase	-1663
lukhuni	-1664
lungile	-1665
▁nginga	-1666
▁ngoMoya	-1667
▁wangena	-1668
saya	-1669
seke	-1670
funya	-1671
futha	-1672
hambi	-1673
kakhe	-1674
linga	-1675
nqoba	-1676
nzeka	-1677
thuka	-1678
bhubhi	-1679
ndweni	-1680
nyiswa	-1681
khuleke	-1682
phikisa	-1683
sindisa	-1684
thethweni	-1685
bhapathiza	-1686
al	-1687
lami	-1688
sazi	-1689
umbe	-1690
▁bem	-1691
linye	-1692
▁wayi	-1693
▁yizi	-1694
▁Ngase	-1695
▁amane	-1696
▁izono	-1697
▁ungum	-1698
▁amazwi	-1699
▁wazala	-1700
▁leNkosi	-1701
▁uJohane	-1702
▁umzimba	-1703
▁esiphambanweni	-1704
mfi	-1705
igama	-1706
kuthe	-1707
kuzwa	-1708
kom	-1709
qhe	-1710
▁No	-1711
felo	-1712
kedo	-1713
thwe	-1714
▁ali	-1715
khula	-1716
lunye	-1717
mbeza	-1718
nzela	-1719
phiwa	-1720
phume	-1721
▁babo	-1722
gulayo	-1723
tsheni	-1724
▁benga	-1725
▁iyaku	-1726
▁ngobu	-1727
buthana	-1728
nembeza	-1729
felokazi	-1730
▁Kanjalo	-1731
▁amadoda	-1732
▁izingubo	-1733
ngithumileyo	-1734
▁,’	-1735
ezin	-1736
nayo	-1737
yenu	-1738
hlukani	-1739
yizinkulungwane	-1740
▁Si	-1741
umbu	-1742
▁owe	-1743
lizwa	-1744
mvelo	-1745
▁akhe	-1746
▁beza	-1747
▁lika	-1748
abanga	-1749
thengi	-1750
▁kwaku	-1751
endlini	-1752
▁akakho	-1753
▁wezulu	-1754
israyeli	-1755
▁ibandla	-1756
ngalaleli	-1757
▁endaweni	-1758
kwabafileyo	-1759
kwase	-1760
vuswa	-1761
yihlo	-1762
bhubha	-1763
chitha	-1764
kwambu	-1765
mesaba	-1766
phinda	-1767
qinisa	-1768
kanyezi	-1769
ngesabi	-1770
kedoniya	-1771
ngcosana	-1772
ngakanani	-1773
phikisana	-1774
tilongweni	-1775
selwe	-1776
▁Sebe	-1777
▁nemi	-1778
iliphu	-1779
kuqala	-1780
nikela	-1781
▁ngemi	-1782
▁nithi	-1783
mhlophe	-1784
▁othiwa	-1785
okukhulu	-1786
umthetho	-1787
▁izandla	-1788
▁embusweni	-1789
▁umzalwane	-1790
ngokukholwa	-1791
▁sikaNkulunkulu	-1792
kade	-1793
umusa	-1794
umbuso	-1795
nambili	-1796
bufakazi	-1797
kwakukhona	-1798
hlanganyela	-1799
?’	-1800
yin	-1801
alta	-1802
anga	-1803
fula	-1804
wasi	-1805
zabo	-1806
▁uzi	-1807
funga	-1808
lonke	-1809
phumu	-1810
thene	-1811
wakho	-1812
▁kuzo	-1813
▁sasi	-1814
▁yona	-1815
altare	-1816
boshwa	-1817
mbamba	-1818
qinise	-1819
zelela	-1820
kwesaba	-1821
▁akukho	-1822
▁omuhle	-1823
lekileyo	-1824
▁kalokhu	-1825
▁kusukela	-1826
thethelelwa	-1827
mose	-1828
sayi	-1829
wela	-1830
khawu	-1831
lahla	-1832
moyeni	-1833
isixuku	-1834
nokuthi	-1835
ayi	-1836
liva	-1837
nisa	-1838
vusa	-1839
▁Isi	-1840
▁ase	-1841
▁ena	-1842
▁obu	-1843
▁ube	-1844
hlaba	-1845
nanga	-1846
ngiku	-1847
zange	-1848
zenza	-1849
zinto	-1850
▁kuna	-1851
▁kuya	-1852
▁ungu	-1853
▁zami	-1854
ngekho	-1855
▁Futhi	-1856
▁kunga	-1857
▁kwaze	-1858
▁ngayo	-1859
▁uYise	-1860
▁kuyaku	-1861
▁kwakukhona	-1862
abo	-1863
cho	-1864
lwi	-1865
saka	-1866
veza	-1867
zenu	-1868
bambe	-1869
bodwa	-1870
ndiso	-1871
phuze	-1872
fowenu	-1873
kanuko	-1874
khumbu	-1875
ntweni	-1876
okuhle	-1877
tshele	-1878
tshelo	-1879
amandla	-1880
mangali	-1881
ndwangu	-1882
ngenaku	-1883
nyaweni	-1884
zimbeni	-1885
ivangeli	-1886
nsindiso	-1887
isikhathi	-1888
pheleleyo	-1889
khuthazela	-1890
kwahlulelwa	-1891
cebo	-1892
loba	-1893
lona	-1894
nile	-1895
yeka	-1896
▁ize	-1897
mnika	-1898
mvusa	-1899
▁Emva	-1900
dabula	-1901
indoda	-1902
jabula	-1903
lobela	-1904
zakuba	-1905
▁zakho	-1906
▁okunga	-1907
▁wabona	-1908
abrahama	-1909
mlandela	-1910
▁lokuthi	-1911
▁ngubani	-1912
▁wahlala	-1913
▁ukulunga	-1914
▁kubafundi	-1915
▁inkazimulo	-1916
ju	-1917
kude	-1918
kuwo	-1919
galile	-1920
kinina	-1921
kubantu	-1922
mpristi	-1923
phezulu	-1924
zinceku	-1925
ingelosi	-1926
khulunywa	-1927
La	-1928
▁Z	-1929
nibe	-1930
sibo	-1931
vuna	-1932
vuzo	-1933
▁use	-1934
Hamba	-1935
gcine	-1936
lakho	-1937
nathi	-1938
shiwe	-1939
siswa	-1940
swele	-1941
thola	-1942
▁yesi	-1943
ngezwi	-1944
▁Ngoku	-1945
▁nango	-1946
▁ngawo	-1947
▁nokho	-1948
▁okubi	-1949
hlakalo	-1950
landele	-1951
mothewu	-1952
sindisi	-1953
sondele	-1954
thelisi	-1955
faneleyo	-1956
kwenzayo	-1957
phambeko	-1958
▁izixuku	-1959
▁ningaba	-1960
emhlabeni	-1961
▁iminyaka	-1962
▁izithelo	-1963
▁kaKristu	-1964
besifazane	-1965
gcwaliseke	-1966
sinagogeni	-1967
thethelela	-1968
Ngiqinisile	-1969
bhapathizwa	-1970
beza	-1971
nawe	-1972
wama	-1973
bethi	-1974
abakhulu	-1975
Ng	-1976
up	-1977
Qha	-1978
zali	-1979
▁Uku	-1980
khuza	-1981
nquma	-1982
▁weza	-1983
▁yase	-1984
Josefa	-1985
nginga	-1986
▁Ngiya	-1987
▁lithi	-1988
kalokhu	-1989
▁ehlane	-1990
▁enkulu	-1991
▁inceku	-1992
▁isizwe	-1993
njengoku	-1994
▁namalunga	-1995
▁emkhunjini	-1996
co	-1997
te	-1998
nqu	-1999
nyo	-2000
dudu	-2001
kiya	-2002
kuyi	-2003
riyu	-2004
cinde	-2005
dumbu	-2006
konzo	-2007
kunga	-2008
qhele	-2009
inkosi	-2010
khiphe	-2011
mpahla	-2012
sileyo	-2013
rofethi	-2014
kwenzeka	-2015
ncinyane	-2016
phambene	-2017
kwamukela	-2018
hlakaniphi	-2019
khethiweyo	-2020
sekuqaleni	-2021
am	-2022
xo	-2023
▁zwi	-2024
Greki	-2025
▁wesi	-2026
▁engum	-2027
▁nanga	-2028
▁zethu	-2029
Filiphu	-2030
ngizaku	-2031
▁izinto	-2032
▁kwathi	-2033
▁njenga	-2034
▁yayisi	-2035
Mfundisi	-2036
▁ekudleni	-2037
▁abapristi	-2038
▁nokuthula	-2039
▁wayesethi	-2040
ethempelini	-2041
▁abangcwele	-2042
▁ngiqinisile	-2043
gqo	-2044
dani	-2045
lezi	-2046
maka	-2047
nawo	-2048
soni	-2049
susa	-2050
yabo	-2051
yele	-2052
uqobo	-2053
zinyo	-2054
mariya	-2055
imisebenzi	-2056
kulotshiwe	-2057
qi	-2058
Ngu	-2059
mpi	-2060
nte	-2061
bule	-2062
kana	-2063
kiwe	-2064
lala	-2065
ngwe	-2066
▁usi	-2067
Eliya	-2068
hloko	-2069
kwesi	-2070
liswe	-2071
nyiwe	-2072
sheya	-2073
wumbe	-2074
▁leyo	-2075
▁nobu	-2076
▁ukum	-2077
▁yimi	-2078
dabuka	-2079
gcwala	-2080
hlango	-2081
hlanzi	-2082
jakobe	-2083
khokho	-2084
lileyo	-2085
tsheli	-2086
▁bodwa	-2087
▁nakho	-2088
▁ngize	-2089
▁uyise	-2090
mvubelo	-2091
phelele	-2092
▁siyaku	-2093
▁wamuka	-2094
ngesikho	-2095
phesheya	-2096
▁intando	-2097
komthetho	-2098
mangalela	-2099
▁umfowabo	-2100
▁ezintathu	-2101
▁abaprofethi	-2102
zazi	-2103
kwethu	-2104
yayisi	-2105
sathane	-2106
Be	-2107
Gi	-2108
So	-2109
gco	-2110
Wena	-2111
▁Ngu	-2112
▁kum	-2113
▁zwe	-2114
ngela	-2115
▁Waba	-2116
▁into	-2117
▁kaba	-2118
▁yibo	-2119
Pilatu	-2120
▁isono	-2121
▁ngaso	-2122
▁sithi	-2123
▁unina	-2124
▁usuku	-2125
▁amanga	-2126
▁makube	-2127
▁waqala	-2128
ukuphila	-2129
▁Bhekani	-2130
▁isandla	-2131
▁uthando	-2132
▁zinsuku	-2133
▁elwandle	-2134
▁kuyakuba	-2135
▁kwabantu	-2136
mfihlakalo	-2137
▁ngamandla	-2138
▁wakhuluma	-2139
▁Kwakukhona	-2140
▁umprofethi	-2141
▁!	-2142
stu	-2143
fesu	-2144
kene	-2145
kiyo	-2146
hleni	-2147
ngolo	-2148
nyaye	-2149
tshwa	-2150
mbathi	-2151
misela	-2152
khileyo	-2153
ngosuku	-2154
xukwini	-2155
hlangani	-2156
phenduke	-2157
shunyaye	-2158
mprofethi	-2159
yisithupha	-2160
hlakaniphileyo	-2161
pi	-2162
ebu	-2163
lawo	-2164
lusi	-2165
nela	-2166
▁eba	-2167
▁pho	-2168
bakho	-2169
kuhle	-2170
linda	-2171
wonke	-2172
▁Yena	-2173
▁lawo	-2174
▁saba	-2175
▁suku	-2176
ngcono	-2177
ukudla	-2178
▁izulu	-2179
▁kambe	-2180
▁ngami	-2181
▁okuyi	-2182
▁umuzi	-2183
ngibona	-2184
▁engena	-2185
▁nakuba	-2186
▁umyalo	-2187
▁bhekani	-2188
▁eGalile	-2189
▁nabafundi	-2190
▁ubufakazi	-2191
▁ukukhuluma	-2192
▁Ngiqinisile	-2193
▁UNkulunkulu	-2194
▁enhliziyweni	-2195
hha	-2196
dade	-2197
nonke	-2198
akakho	-2199
mpande	-2200
simoni	-2201
ngenisa	-2202
elikhulu	-2203
wokuqala	-2204
ukukholwa	-2205
njengalokhu	-2206
Wu	-2207
om	-2208
qh	-2209
ase	-2210
bile	-2211
duma	-2212
lule	-2213
nele	-2214
wesi	-2215
yesi	-2216
▁ifa	-2217
▁obe	-2218
longo	-2219
muthi	-2220
nzini	-2221
▁sezi	-2222
▁yayi	-2223
Kesari	-2224
Wundlu	-2225
fokazi	-2226
hlweni	-2227
khetha	-2228
▁ezine	-2229
▁ukuyo	-2230
Gibithe	-2231
buthene	-2232
nangoku	-2233
ndulela	-2234
ngelela	-2235
zenzisi	-2236
▁UPetru	-2237
▁Yayisi	-2238
▁lwakhe	-2239
▁wafika	-2240
njengaba	-2241
phambano	-2242
▁indlela	-2243
▁isinkwa	-2244
▁ngibona	-2245
Nazaretha	-2246
mangaliso	-2247
shumayeza	-2248
▁ethuneni	-2249
▁ezimbili	-2250
▁noJohane	-2251
bhapathizi	-2252
bonakalisa	-2253
▁naphakade	-2254
owesifazane	-2255
▁abayishumi	-2256
▁abazalwane	-2257
▁izingelosi	-2258
▁okungukuthi	-2259
▁noNkulunkulu	-2260
▁ngakwesokunene	-2261
mfu	-2262
okwa	-2263
sise	-2264
kelwe	-2265
sonke	-2266
banika	-2267
komoya	-2268
lungele	-2269
indodana	-2270
izinsuku	-2271
kwabantu	-2272
phakamisa	-2273
Ko	-2274
Pha	-2275
bayi	-2276
zila	-2277
kahle	-2278
sango	-2279
▁athi	-2280
▁layo	-2281
▁ongi	-2282
▁utho	-2283
mzimba	-2284
▁Bonke	-2285
▁Ninga	-2286
▁ebona	-2287
▁kanti	-2288
▁kwase	-2289
▁oyaku	-2290
▁singa	-2291
Barnaba	-2292
thobela	-2293
▁inyama	-2294
▁naseku	-2295
▁owenza	-2296
▁siyazi	-2297
▁ngegama	-2298
▁ukwenza	-2299
▁amademoni	-2300
▁ngesandla	-2301
▁umsebenzi	-2302
▁kwabezizwe	-2303
▁ekukholweni	-2304
▁esihlalweni	-2305
▁ngemisebenzi	-2306
cha	-2307
ywe	-2308
bami	-2309
fela	-2310
fisa	-2311
hlwi	-2312
lifa	-2313
reya	-2314
bhuji	-2315
hlazo	-2316
kakho	-2317
kanti	-2318
muzwa	-2319
ngeze	-2320
ntiyo	-2321
nyuka	-2322
shise	-2323
thuba	-2324
xenye	-2325
bulali	-2326
davide	-2327
sekelo	-2328
shelwa	-2329
vukile	-2330
hlushwa	-2331
phasika	-2332
thukulu	-2333
kwenzile	-2334
mehlweni	-2335
ntiyokiya	-2336
lahlekelwa	-2337
thembekile	-2338
shiyagalolunye	-2339
lolo	-2340
sibe	-2341
▁usu	-2342
Yihlo	-2343
benza	-2344
yenza	-2345
yikho	-2346
▁baze	-2347
▁boku	-2348
▁wafa	-2349
madoda	-2350
▁kuhle	-2351
▁kwama	-2352
▁lingu	-2353
▁sakho	-2354
▁uMose	-2355
▁ubuso	-2356
▁ukuya	-2357
Bhekani	-2358
namuhla	-2359
▁kuJesu	-2360
fakazela	-2361
▁entabeni	-2362
▁izinyawo	-2363
▁kaDavide	-2364
▁umntwana	-2365
▁umpristi	-2366
▁inhliziyo	-2367
▁maqondana	-2368
▁nababhali	-2369
▁ngezandla	-2370
▁emhlabathini	-2371
ulu	-2372
▁!”	-2373
feni	-2374
loni	-2375
nokho	-2376
yisela	-2377
to	-2378
gwe	-2379
▁Um	-2380
fase	-2381
fiki	-2382
funi	-2383
mubi	-2384
tshi	-2385
veli	-2386
wayo	-2387
▁uba	-2388
finye	-2389
gunya	-2390
musha	-2391
nceku	-2392
phiwe	-2393
▁Yebo	-2394
▁baku	-2395
▁leli	-2396
▁ungi	-2397
▁wenu	-2398
▁wona	-2399
Madoda	-2400
phonse	-2401
▁Lokho	-2402
▁evela	-2403
▁igazi	-2404
▁kwayo	-2405
▁mazwi	-2406
▁udumo	-2407
khiwane	-2408
mbazana	-2409
▁ezinga	-2410
▁induna	-2411
hawukela	-2412
khelwane	-2413
kungathi	-2414
ndlalifa	-2415
▁okuvela	-2416
▁yeNkosi	-2417
fumananga	-2418
hlangothi	-2419
zinyaweni	-2420
▁abampofu	-2421
▁uSathane	-2422
Makedoniya	-2423
bonakaliswa	-2424
ngabantwana	-2425
▁etilongweni	-2426
shiyagalombili	-2427
ona	-2428
indlu	-2429
kusho	-2430
nqumo	-2431
kholwe	-2432
necala	-2433
hambani	-2434
kwafika	-2435
kwabezizwe	-2436
azi	-2437
Angi	-2438
koni	-2439
lima	-2440
zaba	-2441
▁Nje	-2442
▁ami	-2443
▁ela	-2444
benga	-2445
bonge	-2446
singa	-2447
ukufa	-2448
▁Amen	-2449
amehlo	-2450
hlephu	-2451
kuyaku	-2452
ngenzi	-2453
▁enhle	-2454
▁ngazo	-2455
▁impela	-2456
▁indawo	-2457
▁kuBaba	-2458
▁kuvela	-2459
▁wabuye	-2460
eziningi	-2461
gcwalisa	-2462
abantwana	-2463
▁bamangala	-2464
▁ukukhanya	-2465
▁ngesikhathi	-2466
▁ayisikhombisa	-2467
▁ezinhliziyweni	-2468
dela	-2469
dili	-2470
duzo	-2471
hlwe	-2472
kozo	-2473
lena	-2474
liba	-2475
shwe	-2476
zind	-2477
zuze	-2478
abase	-2479
dingi	-2480
kwezi	-2481
mbile	-2482
mbiza	-2483
ngemi	-2484
nothi	-2485
thulu	-2486
bulawa	-2487
emzini	-2488
gatsha	-2489
khonze	-2490
khukhu	-2491
liweyo	-2492
melene	-2493
mukeli	-2494
mukisa	-2495
phangi	-2496
phinga	-2497
thathe	-2498
amabili	-2499
cwadini	-2500
fowethu	-2501
khubeka	-2502
khulula	-2503
nduduzo	-2504
phelani	-2505
pheleni	-2506
wangena	-2507
esikhulu	-2508
gijimela	-2509
hawukele	-2510
hlupheko	-2511
kusukela	-2512
thengisa	-2513
kholwanga	-2514
sobukhosi	-2515
thokozisa	-2516
bonakalise	-2517
lotshiweyo	-2518
nokukholwa	-2519
phendulela	-2520
kwamukeliswa	-2521
Wo	-2522
buya	-2523
maye	-2524
ungu	-2525
yayo	-2526
▁iyi	-2527
bonwa	-2528
kwaku	-2529
kwaze	-2530
lingi	-2531
umoya	-2532
▁beni	-2533
▁besi	-2534
▁kuno	-2535
▁libe	-2536
▁nawo	-2537
▁othi	-2538
▁seni	-2539
▁wawu	-2540
othile	-2541
▁imali	-2542
▁itshe	-2543
▁Yilowo	-2544
▁izizwe	-2545
▁nasezi	-2546
▁ngathi	-2547
▁uphawu	-2548
nitshela	-2549
▁izinkwa	-2550
▁uHerode	-2551
▁waphuma	-2552
wakhuluma	-2553
▁ngemihla	-2554
eziyishumi	-2555
▁abafileyo	-2556
▁ngesabatha	-2557
▁esinagogeni	-2558
▁izinhliziyo	-2559
▁bakaNkulunkulu	-2560
pe	-2561
eya	-2562
okwe	-2563
wayi	-2564
wube	-2565
kuthi	-2566
ntaba	-2567
akukho	-2568
mnyama	-2569
sindise	-2570
bumnyama	-2571
ngaphambili	-2572
;’	-2573
Li	-2574
mpe	-2575
Maye	-2576
bemi	-2577
besi	-2578
bika	-2579
dena	-2580
deni	-2581
gula	-2582
kabi	-2583
kesa	-2584
kuzo	-2585
mene	-2586
vivi	-2587
wume	-2588
▁Pho	-2589
▁iya	-2590
gcini	-2591
hlanj	-2592
iyaku	-2593
kezwe	-2594
mbela	-2595
mbewu	-2596
nange	-2597
ngobu	-2598
ntsha	-2599
perna	-2600
qambi	-2601
yodwa	-2602
▁lezi	-2603
▁wama	-2604
Ngakho	-2605
amazwi	-2606
bizela	-2607
busisa	-2608
chithe	-2609
fikeni	-2610
hlamvu	-2611
hlungu	-2612
lekela	-2613
sokuba	-2614
wabona	-2615
zaneni	-2616
zelayo	-2617
▁abaku	-2618
▁ngiyi	-2619
▁wenza	-2620
▁yikho	-2621
amadoda	-2622
boshiwe	-2623
hlukene	-2624
iqiniso	-2625
lilweni	-2626
mbulala	-2627
ngesiye	-2628
phonswe	-2629
thandwa	-2630
▁ingubo	-2631
▁kufika	-2632
▁nababe	-2633
denariyu	-2634
khanyeni	-2635
memezela	-2636
▁isitsha	-2637
▁iwayini	-2638
▁kwavela	-2639
▁nakanye	-2640
▁uPilatu	-2641
pernawume	-2642
shumayele	-2643
thandweni	-2644
▁abathile	-2645
▁enyameni	-2646
▁ndawonye	-2647
▁noKristu	-2648
▁nomhlaba	-2649
▁ukuthula	-2650
Thimothewu	-2651
khawulweni	-2652
ngalungile	-2653
okuphakade	-2654
▁amathathu	-2655
▁ngomthetho	-2656
▁sizukulwane	-2657
eziyisikhombisa	-2658
▁lukaNkulunkulu	-2659
un	-2660
babo	-2661
bayo	-2662
beli	-2663
sami	-2664
weza	-2665
yibo	-2666
mbusi	-2667
mlilo	-2668
owaye	-2669
thani	-2670
bethelwe	-2671
yethemba	-2672
Aba	-2673
Unga	-2674
ungo	-2675
▁enu	-2676
▁nim	-2677
▁uye	-2678
mazwi	-2679
nyala	-2680
▁Mina	-2681
▁benu	-2682
▁leso	-2683
▁masi	-2684
▁nayo	-2685
▁neze	-2686
▁niba	-2687
▁niye	-2688
makube	-2689
▁Lokhu	-2690
▁Petru	-2691
▁bethu	-2692
▁izaku	-2693
▁linye	-2694
▁lwesi	-2695
▁sengi	-2696
▁yedwa	-2697
▁zathi	-2698
Hambani	-2699
ababili	-2700
egameni	-2701
▁kufike	-2702
▁kulowo	-2703
▁ngezin	-2704
▁ngisho	-2705
▁ziyaku	-2706
kwalokho	-2707
▁incwadi	-2708
▁kaningi	-2709
▁komunye	-2710
▁namuhla	-2711
nokuphila	-2712
▁abezizwe	-2713
▁izinceku	-2714
▁wathatha	-2715
thukuthela	-2716
▁abaFarisi	-2717
▁emlonyeni	-2718
▁esandleni	-2719
▁ezintweni	-2720
▁nabaFarisi	-2721
▁ngomkhumbi	-2722
▁uyiNdodana	-2723
▁ngokwenyama	-2724
bulo	-2725
gugu	-2726
kuso	-2727
libe	-2728
nalo	-2729
qeda	-2730
qili	-2731
sisi	-2732
tale	-2733
valo	-2734
zani	-2735
zaru	-2736
bheke	-2737
dlayo	-2738
izono	-2739
phiwo	-2740
rdani	-2741
swela	-2742
ungum	-2743
zwaka	-2744
bonayo	-2745
dukisa	-2746
hhashi	-2747
hlelwa	-2748
mesabi	-2749
ndlala	-2750
niyala	-2751
shaywa	-2752
yikuba	-2753
cilongo	-2754
mungulu	-2755
nsimini	-2756
nyakazi	-2757
phumele	-2758
sekhona	-2759
talenta	-2760
sindiswe	-2761
khashelwa	-2762
kubafundi	-2763
nesibindi	-2764
ngithanda	-2765
ngakholwayo	-2766
Ra	-2767
aye	-2768
bar	-2769
eba	-2770
eyi	-2771
Sama	-2772
vame	-2773
▁Izi	-2774
▁Qha	-2775
▁abu	-2776
Isaya	-2777
betha	-2778
hlisa	-2779
mbeka	-2780
▁inga	-2781
▁ithi	-2782
▁sayo	-2783
▁siyi	-2784
▁yezi	-2785
herode	-2786
judiya	-2787
▁ababi	-2788
▁ngabe	-2789
▁ngabo	-2790
▁ngibe	-2791
▁ukuzi	-2792
landisa	-2793
thumele	-2794
▁amanzi	-2795
▁bazaku	-2796
▁nasema	-2797
▁nizaku	-2798
▁umvuzo	-2799
Samariya	-2800
mfundisi	-2801
▁emoyeni	-2802
▁uyakuba	-2803
▁yiNkosi	-2804
abapristi	-2805
ndodakazi	-2806
▁ngokunga	-2807
▁ophilayo	-2808
▁endleleni	-2809
▁mhlawumbe	-2810
nenkazimulo	-2811
▁kwezinsuku	-2812
▁emthethweni	-2813
▁nenkazimulo	-2814
▁eziyisihlanu	-2815
▁emasinagogeni	-2816
▁kwasekuqaleni	-2817
pa	-2818
nko	-2819
kuya	-2820
liyu	-2821
sala	-2822
amane	-2823
nithi	-2824
sithi	-2825
hlangu	-2826
ngenza	-2827
njenga	-2828
wazala	-2829
izixuku	-2830
miselwe	-2831
umzimba	-2832
wahlala	-2833
izingubo	-2834
nokuthula	-2835
qinisileyo	-2836
esiphambanweni	-2837
Phe	-2838
bem	-2839
dra	-2840
rku	-2841
ska	-2842
uka	-2843
Roma	-2844
baka	-2845
bini	-2846
bisa	-2847
dewu	-2848
doni	-2849
dusi	-2850
lazi	-2851
seli	-2852
▁Bam	-2853
▁Esa	-2854
▁ake	-2855
▁ene	-2856
Efesu	-2857
Isaka	-2858
dlule	-2859
hlile	-2860
kwayo	-2861
nandi	-2862
ndala	-2863
nyana	-2864
nzima	-2865
phuzi	-2866
qamba	-2867
swini	-2868
▁Nina	-2869
▁imvu	-2870
▁sabo	-2871
▁yawo	-2872
bulale	-2873
fumane	-2874
inceku	-2875
nomoya	-2876
phingi	-2877
sabelo	-2878
siyaku	-2879
wafika	-2880
wundlu	-2881
zindlo	-2882
▁Konke	-2883
▁benza	-2884
▁kungo	-2885
▁kwalo	-2886
▁ningi	-2887
▁ongum	-2888
▁sakwa	-2889
Ngokuba	-2890
hlakaze	-2891
khandle	-2892
khwelwe	-2893
ngesiso	-2894
phileni	-2895
philisa	-2896
phumile	-2897
phumula	-2898
tshelwe	-2899
▁engiku	-2900
▁imihla	-2901
▁kwenze	-2902
bhubhisa	-2903
funyanwa	-2904
hlanjulu	-2905
kuyakuba	-2906
thabathe	-2907
zamazama	-2908
▁kithina	-2909
▁nalokho	-2910
▁ngalezo	-2911
▁ngoJesu	-2912
▁ngomusa	-2913
▁ukubona	-2914
▁umbhalo	-2915
khubekisa	-2916
khubekiso	-2917
khulekela	-2918
kwambulwa	-2919
ngakafiki	-2920
▁ikakhulu	-2921
▁isibindi	-2922
▁komhlaba	-2923
▁ngamazwi	-2924
gcwaliseka	-2925
▁ngezilimi	-2926
hlanganyeli	-2927
▁Waphendula	-2928
kwenzekileyo	-2929
owe	-2930
akhe	-2931
zami	-2932
nzile	-2933
omuhle	-2934
phathe	-2935
thenga	-2936
wezulu	-2937
ibandla	-2938
komunye	-2939
endaweni	-2940
umzalwane	-2941
kungabikho	-2942
Kho	-2943
Khu	-2944
ali	-2945
use	-2946
uzi	-2947
▁Be	-2948
leke	-2949
yezi	-2950
▁aze	-2951
▁iza	-2952
▁oni	-2953
▁osi	-2954
▁uMa	-2955
▁yam	-2956
Asiya	-2957
bekwa	-2958
lethe	-2959
qhube	-2960
sinda	-2961
sizwa	-2962
▁Noma	-2963
▁akho	-2964
▁besa	-2965
▁bezi	-2966
▁engo	-2967
▁kule	-2968
▁kuse	-2969
▁lelo	-2970
▁nize	-2971
▁waze	-2972
Sawulu	-2973
nikele	-2974
othiwa	-2975
pilatu	-2976
sayiku	-2977
wamuka	-2978
▁kwawo	-2979
▁ukuza	-2980
izandla	-2981
ningaba	-2982
▁bafika	-2983
▁bebona	-2984
▁besaba	-2985
▁emihle	-2986
▁ethile	-2987
▁kwezwe	-2988
▁uhlala	-2989
▁umlomo	-2990
dadewabo	-2991
▁UPawulu	-2992
▁ikhanda	-2993
▁kunguku	-2994
▁yalokho	-2995
▁yekhulu	-2996
embusweni	-2997
▁Khonzani	-2998
▁bakholwa	-2999
▁isithelo	-3000
▁kweNkosi	-3001
▁ngabantu	-3002
▁umkhumbi	-3003
▁izithombe	-3004
▁wakhuleka	-3005
▁ayisihlanu	-3006
▁kungesikho	-3007
▁likaKristu	-3008
▁olungileyo	-3009
▁osezulwini	-3010
▁isibonakaliso	-3011
▁izibonakaliso	-3012
▁waseNazaretha	-3013
xi	-3014
gwa	-3015
nji	-3016
nka	-3017
rta	-3018
ube	-3019
▁?’	-3020
feze	-3021
guqa	-3022
miso	-3023
ndwe	-3024
nobu	-3025
sawo	-3026
vele	-3027
yase	-3028
zuza	-3029
zuzo	-3030
drako	-3031
mbezi	-3032
nduku	-3033
ngaku	-3034
nsimu	-3035
nyoko	-3036
qondo	-3037
qotho	-3038
shiwo	-3039
umuzi	-3040
babili	-3041
bonelo	-3042
fumani	-3043
gazini	-3044
gijima	-3045
hlambi	-3046
kisiwe	-3047
lisisa	-3048
melani	-3049
ndreya	-3050
nileyo	-3051
phindi	-3052
siyazi	-3053
thwala	-3054
bumnene	-3055
qondene	-3056
rnakele	-3057
thuluka	-3058
uthando	-3059
bhujiswa	-3060
hlephula	-3061
mbathisa	-3062
ngamazwi	-3063
nincenga	-3064
nyembezi	-3065
zinikela	-3066
linganiso	-3067
khathazeki	-3068
khuphukela	-3069
kwahlukana	-3070
phendukela	-3071
shunyayelwa	-3072
ngenamthetho	-3073
khululekileyo	-3074
;”	-3075
Tha	-3076
ize	-3077
obu	-3078
bono	-3079
zika	-3080
▁Aku	-3081
▁Eku	-3082
▁Nge	-3083
▁ibe	-3084
▁kom	-3085
bambi	-3086
lithi	-3087
ngawo	-3088
ngiyi	-3089
ngize	-3090
selwa	-3091
wenze	-3092
▁Angi	-3093
▁Lowo	-3094
▁ange	-3095
▁kabi	-3096
▁kade	-3097
▁lama	-3098
▁maye	-3099
▁muzi	-3100
▁nane	-3101
▁zezi	-3102
ngisho	-3103
shesha	-3104
▁abani	-3105
▁eniku	-3106
▁eziyi	-3107
▁isilo	-3108
▁ngawe	-3109
▁ogama	-3110
▁owazi	-3111
▁Abanye	-3112
▁Omunye	-3113
▁ekhona	-3114
▁kaJesu	-3115
▁niyazi	-3116
▁nonina	-3117
msebenzi	-3118
▁bamanga	-3119
▁bangaba	-3120
▁ezinhle	-3121
▁ithemba	-3122
▁nabanye	-3123
▁nangezi	-3124
▁ngegazi	-3125
▁nguyena	-3126
▁umhlaba	-3127
▁umkakhe	-3128
▁Abafundi	-3129
▁bamemeza	-3130
▁kubaJuda	-3131
▁nangenxa	-3132
▁ngalutho	-3133
▁noJakobe	-3134
▁nothando	-3135
▁okuningi	-3136
▁yamandla	-3137
Antiyokiya	-3138
inkazimulo	-3139
▁emzimbeni	-3140
▁nokuphila	-3141
▁Ngokukholwa	-3142
▁nabaprofethi	-3143
▁ukuhlakanipha	-3144
ene	-3145
pro	-3146
sem	-3147
into	-3148
sezi	-3149
ungi	-3150
wafa	-3151
eliya	-3152
ngabo	-3153
zakho	-3154
bikela	-3155
isizwe	-3156
lokuthi	-3157
ngozini	-3158
thunywa	-3159
khohlisa	-3160
ukulunga	-3161
ukuthula	-3162
ngamakhulu	-3163
umprofethi	-3164
mhlabathini	-3165
ngukukhanya	-3166
cu	-3167
cwe	-3168
gca	-3169
gda	-3170
iya	-3171
▁La	-3172
▁Sa	-3173
Yebo	-3174
bisi	-3175
caba	-3176
dolo	-3177
kuna	-3178
liyo	-3179
musi	-3180
qede	-3181
sand	-3182
sasi	-3183
vumi	-3184
▁oyi	-3185
▁zam	-3186
Lokhu	-3187
Thina	-3188
bezwa	-3189
cathu	-3190
choko	-3191
funde	-3192
fungo	-3193
ganwa	-3194
gqolo	-3195
hlabe	-3196
hlali	-3197
hliso	-3198
hunyu	-3199
kwabe	-3200
lindi	-3201
ndolo	-3202
niswa	-3203
okubi	-3204
qhude	-3205
samba	-3206
shisa	-3207
sinye	-3208
vungu	-3209
zethu	-3210
▁Seku	-3211
▁bali	-3212
▁nini	-3213
▁wayo	-3214
▁yama	-3215
buyisa	-3216
hlanza	-3217
hlupho	-3218
khohlo	-3219
lobele	-3220
lomoni	-3221
nakuba	-3222
okunga	-3223
qinile	-3224
thwalo	-3225
thwele	-3226
tshani	-3227
vukeni	-3228
vusela	-3229
waqala	-3230
wayani	-3231
▁Nokho	-3232
▁ayaku	-3233
▁icala	-3234
▁kwazo	-3235
▁okoku	-3236
▁ozayo	-3237
▁ulaka	-3238
bonwayo	-3239
cathulo	-3240
dlulile	-3241
fundise	-3242
gcawini	-3243
gdalena	-3244
khuleko	-3245
khulumi	-3246
lotshwe	-3247
nduneni	-3248
phelela	-3249
sebenze	-3250
sukwini	-3251
thokoze	-3252
▁abathi	-3253
▁liyaku	-3254
▁lwakho	-3255
▁ngangi	-3256
cebileyo	-3257
daliweyo	-3258
iminyaka	-3259
izithelo	-3260
khumbule	-3261
ninindlu	-3262
thandile	-3263
zakwenza	-3264
▁kungaba	-3265
▁ningabi	-3266
▁njengom	-3267
▁uDavide	-3268
▁uMariya	-3269
▁wahamba	-3270
hlwanyela	-3271
hunyushwa	-3272
linganisa	-3273
lungisele	-3274
mkhaphela	-3275
namalunga	-3276
ngamandla	-3277
ntwanyana	-3278
qondileyo	-3279
shisekela	-3280
▁amaningi	-3281
▁engcwele	-3282
▁esizweni	-3283
▁olukhulu	-3284
▁phambili	-3285
▁wamemeza	-3286
abangcwele	-3287
bekezelela	-3288
bhapathizo	-3289
hlambulula	-3290
khathazeka	-3291
phakathini	-3292
thuthumela	-3293
▁esefikile	-3294
▁komthetho	-3295
abaprofethi	-3296
hlanjululwa	-3297
thethelelwe	-3298
▁kwesihlalo	-3299
▁nokukholwa	-3300
▁umfanekiso	-3301
▁unguKristu	-3302
▁yenkulungwane	-3303
▁ngasezinyaweni	-3304
ake	-3305
kaba	-3306
lila	-3307
nake	-3308
ngam	-3309
size	-3310
tabe	-3311
yama	-3312
yayi	-3313
bopho	-3314
unina	-3315
xosha	-3316
ehlane	-3317
enkulu	-3318
izinto	-3319
kezela	-3320
ncwadi	-3321
siliva	-3322
isandla	-3323
kuzwile	-3324
nabantu	-3325
waphuma	-3326
kwenziwa	-3327
zingelwa	-3328
emkhunjini	-3329
lungiselwe	-3330
mihlatshelo	-3331
tabernakele	-3332
Le	-3333
Ti	-3334
Wa	-3335
Dama	-3336
kuse	-3337
yoka	-3338
▁aso	-3339
▁one	-3340
▁umi	-3341
Ngiya	-3342
engum	-3343
greki	-3344
lingu	-3345
ngowe	-3346
sithe	-3347
ukuma	-3348
uyise	-3349
zithi	-3350
zitho	-3351
▁Baba	-3352
▁baye	-3353
▁ebum	-3354
▁lenu	-3355
▁wali	-3356
▁wezi	-3357
▁yaso	-3358
▁zibe	-3359
INkosi	-3360
biloni	-3361
impela	-3362
lisile	-3363
ninika	-3364
wabuye	-3365
▁Njalo	-3366
▁bengi	-3367
▁eyisi	-3368
▁kungu	-3369
▁kuthe	-3370
▁ngiba	-3371
▁oyisi	-3372
▁zinga	-3373
hlalani	-3374
mthanda	-3375
yikhona	-3376
▁elisha	-3377
▁engaka	-3378
▁mkhulu	-3379
▁ngokwa	-3380
▁umlilo	-3381
Kesariya	-3382
ekudleni	-3383
kungekho	-3384
ngabantu	-3385
sokhohlo	-3386
▁ethanda	-3387
▁kumelwe	-3388
▁nabantu	-3389
▁zabantu	-3390
kukhuluma	-3391
maqondana	-3392
▁Ingelosi	-3393
▁Wayeseba	-3394
▁kaJakobe	-3395
▁kunokuba	-3396
▁ngikhona	-3397
▁ukhuluma	-3398
▁bakhuluma	-3399
▁ngamatshe	-3400
nhliziyonye	-3401
▁nabantwana	-3402
▁ngesibindi	-3403
thembekileyo	-3404
▁abakholwayo	-3405
▁ebumnyameni	-3406
▁isithembiso	-3407
▁kangakanani	-3408
▁ngenhliziyo	-3409
▁ngokungathi	-3410
▁ukuhlupheka	-3411
▁kugcwaliseke	-3412
▁nabesifazane	-3413
ngakwesokunene	-3414
▁zikaNkulunkulu	-3415
gri	-3416
hog	-3417
qhi	-3418
rki	-3419
coma	-3420
diyu	-3421
jezi	-3422
keta	-3423
lawa	-3424
riyo	-3425
vama	-3426
vuse	-3427
yide	-3428
zula	-3429
bheki	-3430
chilo	-3431
dinga	-3432
dinge	-3433
khiwe	-3434
lande	-3435
linde	-3436
ngali	-3437
nzele	-3438
omase	-3439
pholo	-3440
shiye	-3441
usuku	-3442
duduze	-3443
gripha	-3444
hlanze	-3445
induna	-3446
lwakhe	-3447
naniya	-3448
naseku	-3449
thunzi	-3450
ziweyo	-3451
cabanga	-3452
dukiswa	-3453
dwaleni	-3454
hogweni	-3455
intando	-3456
ketanga	-3457
khosini	-3458
lelweni	-3459
mbulale	-3460
ngamazi	-3461
ngasoki	-3462
phumela	-3463
qondisa	-3464
riyothe	-3465
thokozi	-3466
tholile	-3467
bonileyo	-3468
fundiswa	-3469
hlangana	-3470
khululwa	-3471
komhlaba	-3472
ndlebeni	-3473
umfowabo	-3474
wathatha	-3475
bingelela	-3476
bokugcina	-3477
ezintathu	-3478
khululiwe	-3479
khulumile	-3480
naphakade	-3481
philileyo	-3482
abazalwane	-3483
hlwanyelwe	-3484
phulukiswa	-3485
skariyothe	-3486
langazelela	-3487
kulungisiswa	-3488
Aku	-3489
The	-3490
eka	-3491
kum	-3492
usu	-3493
fili	-3494
sawu	-3495
ukum	-3496
wawu	-3497
yile	-3498
zalo	-3499
▁alu	-3500
▁aya	-3501
▁eze	-3502
▁nen	-3503
▁uze	-3504
Khona	-3505
bomvu	-3506
isono	-3507
izulu	-3508
lahli	-3509
nango	-3510
▁bebe	-3511
▁inko	-3512
▁siba	-3513
▁wema	-3514
▁zayo	-3515
amanga	-3516
josefa	-3517
mnandi	-3518
ngezin	-3519
ngezwa	-3520
zinkwa	-3521
▁Kanti	-3522
▁Umusa	-3523
▁hamba	-3524
▁omoya	-3525
▁owaba	-3526
Ngubani	-3527
ngegama	-3528
siphuza	-3529
▁ahlale	-3530
▁elinye	-3531
▁mawube	-3532
▁nabase	-3533
▁ncwadi	-3534
▁ngenza	-3535
▁safika	-3536
▁sokuba	-3537
▁umbusi	-3538
Damaseku	-3539
elwandle	-3540
nilobela	-3541
▁Ngubani	-3542
▁UPilatu	-3543
▁behamba	-3544
▁ebusuku	-3545
▁kulokho	-3546
▁kumuntu	-3547
▁kunjalo	-3548
▁kwezono	-3549
▁makezwe	-3550
▁uJakobe	-3551
bamangala	-3552
inhliziyo	-3553
khulumayo	-3554
sebenzini	-3555
▁akushoyo	-3556
▁akusikho	-3557
▁ebusweni	-3558
▁eminingi	-3559
▁kufanele	-3560
▁kungekho	-3561
▁likaJesu	-3562
▁lokuqala	-3563
izingelosi	-3564
ukukhuluma	-3565
▁emehlweni	-3566
▁kolwandle	-3567
▁mfanekiso	-3568
▁onamandla	-3569
▁unamandla	-3570
ngesikhathi	-3571
▁eshumayela	-3572
▁kubapristi	-3573
▁ngokwesaba	-3574
ngemisebenzi	-3575
▁abaphostoli	-3576
▁ngezikhathi	-3577
▁umphefumulo	-3578
▁ezingamashumi	-3579
▁ongithumileyo	-3580
eti	-3581
kle	-3582
obe	-3583
amen	-3584
kodo	-3585
nona	-3586
ongi	-3587
salo	-3588
sani	-3589
utho	-3590
wona	-3591
ebona	-3592
kambe	-3593
landa	-3594
ngami	-3595
thiya	-3596
udumo	-3597
engena	-3598
kesari	-3599
owenza	-3600
sobala	-3601
umyalo	-3602
isinkwa	-3603
ngabeza	-3604
phonswa	-3605
ukwenza	-3606
bokuqala	-3607
ngumuntu	-3608
nabafundi	-3609
nazaretha	-3610
ngofakazi	-3611
ngumzimba	-3612
ubufakazi	-3613
abayishumi	-3614
mhlangabeza	-3615
enhliziyweni	-3616
Ne	-3617
▁M	-3618
Bet	-3619
bho	-3620
ifa	-3621
ksi	-3622
lek	-3623
ste	-3624
zam	-3625
▁im	-3626
▁uF	-3627
Jona	-3628
Nina	-3629
Rabi	-3630
bali	-3631
cele	-3632
damu	-3633
duka	-3634
fayo	-3635
fune	-3636
juba	-3637
meva	-3638
muni	-3639
qedi	-3640
suse	-3641
tama	-3642
vule	-3643
▁Uya	-3644
▁awa	-3645
▁awo	-3646
▁wom	-3647
cwebe	-3648
ezine	-3649
fihla	-3650
fwini	-3651
gcoba	-3652
gumbi	-3653
hleka	-3654
lamba	-3655
ndani	-3656
ndulo	-3657
notho	-3658
oyaku	-3659
shona	-3660
thule	-3661
ukuyo	-3662
yiphi	-3663
zwana	-3664
▁abam	-3665
▁baka	-3666
▁bani	-3667
▁buka	-3668
▁lawa	-3669
▁lini	-3670
▁maba	-3671
▁seli	-3672
▁sona	-3673
▁wawo	-3674
▁ziya	-3675
Lazaru	-3676
busika	-3677
celayo	-3678
inyama	-3679
khwama	-3680
lisayo	-3681
luleka	-3682
misele	-3683
ngcola	-3684
ntombi	-3685
sawoti	-3686
thombo	-3687
yidese	-3688
▁bakwa	-3689
▁efuna	-3690
▁icebo	-3691
▁nceku	-3692
▁sathi	-3693
▁sinye	-3694
▁sizwe	-3695
▁uJuda	-3696
▁uyazi	-3697
▁uyeza	-3698
Jordani	-3699
Phasika	-3700
gibithe	-3701
hlulele	-3702
indlela	-3703
kwavela	-3704
leksand	-3705
lungisi	-3706
ngesibo	-3707
ntanami	-3708
philile	-3709
phuzisa	-3710
vumanga	-3711
zonweni	-3712
▁INkosi	-3713
▁isipho	-3714
▁kulesi	-3715
▁kuleyo	-3716
▁lokuba	-3717
▁nasemi	-3718
▁nodumo	-3719
▁nomoya	-3720
▁ongena	-3721
ethuneni	-3722
ezimbili	-3723
khiphela	-3724
khonzayo	-3725
lingweni	-3726
ngcolisa	-3727
njengezi	-3728
profetho	-3729
thandane	-3730
thembisa	-3731
thukuthe	-3732
umpristi	-3733
▁abazali	-3734
▁akayiku	-3735
▁bambuza	-3736
▁baphuma	-3737
▁eJudiya	-3738
▁ngabona	-3739
▁ngokoku	-3740
▁ngomoya	-3741
▁ningabe	-3742
▁uSimoni	-3743
▁ubusuku	-3744
▁wokuthi	-3745
amademoni	-3746
cindezela	-3747
gqolozela	-3748
kholekile	-3749
khulumisa	-3750
qinisweni	-3751
thumileyo	-3752
umsebenzi	-3753
▁Eseshilo	-3754
▁isidumbu	-3755
▁kwenzeka	-3756
▁ngokwami	-3757
▁ukuhamba	-3758
▁ukungena	-3759
▁wabanika	-3760
▁yabaJuda	-3761
hlatshelwe	-3762
ngangomuso	-3763
qambimanga	-3764
▁amabandla	-3765
▁emlilweni	-3766
▁ezandleni	-3767
▁ithempeli	-3768
▁kunalokho	-3769
▁ngaphambi	-3770
khululekile	-3771
okungukuthi	-3772
▁ezindaweni	-3773
▁kungabikho	-3774
▁ngangomuso	-3775
▁ngikhuluma	-3776
▁ngokunjalo	-3777
bonakalisiwe	-3778
▁Owesifazane	-3779
▁isikhashana	-3780
▁ukwahlulela	-3781
kwahlulelweni	-3782
▁ngaselwandle	-3783
▁bukaNkulunkulu	-3784
nim	-3785
usi	-3786
jani	-3787
sona	-3788
suke	-3789
zeli	-3790
bopha	-3791
igazi	-3792
kwama	-3793
lungu	-3794
ndise	-3795
nzayo	-3796
ntokozo	-3797
zingela	-3798
nethemba	-3799
umntwana	-3800
nababhali	-3801
ngesandla	-3802
bumnyameni	-3803
yingcosana	-3804
ekukholweni	-3805
esihlalweni	-3806
ngaphakathi	-3807
ziphendulela	-3808
Asi	-3809
nen	-3810
▁Zi	-3811
Hebe	-3812
baze	-3813
besa	-3814
ithi	-3815
kisi	-3816
masi	-3817
naki	-3818
▁Ama	-3819
▁eKa	-3820
▁une	-3821
▁yom	-3822
itshe	-3823
lwayo	-3824
miswa	-3825
nenza	-3826
qhabo	-3827
sakho	-3828
ubuso	-3829
ukuya	-3830
▁Nani	-3831
▁Unga	-3832
▁basi	-3833
▁bayo	-3834
▁bese	-3835
▁kune	-3836
▁lali	-3837
▁naso	-3838
▁sise	-3839
▁ukwe	-3840
▁wawa	-3841
▁yiyo	-3842
▁zazo	-3843
Heberu	-3844
Sadusi	-3845
izizwe	-3846
nenani	-3847
vuleka	-3848
zelele	-3849
▁badla	-3850
▁eside	-3851
▁kwemi	-3852
▁lethu	-3853
▁nenze	-3854
▁nokwe	-3855
▁ozaku	-3856
Ngiyaku	-3857
kungaba	-3858
ngasole	-3859
ngifuna	-3860
▁Makube	-3861
▁babeka	-3862
▁babone	-3863
▁bafuna	-3864
▁bevela	-3865
▁ekhaya	-3866
▁esinye	-3867
▁ethiwa	-3868
▁izimvu	-3869
▁izipho	-3870
▁livela	-3871
▁ngingo	-3872
▁ukuzwa	-3873
▁yegama	-3874
entabeni	-3875
hlabathi	-3876
izinyawo	-3877
kwenziwe	-3878
nothando	-3879
▁asiyiku	-3880
▁bangena	-3881
▁imiyalo	-3882
▁ingcebo	-3883
▁ngehora	-3884
▁nguMoya	-3885
▁wehlela	-3886
esefikile	-3887
ngakholwa	-3888
ngezandla	-3889
▁ekhuluma	-3890
▁ngamanzi	-3891
▁ngaphezu	-3892
▁sokunene	-3893
ngokunjalo	-3894
ngukuphila	-3895
▁abagulayo	-3896
▁eKesariya	-3897
▁neNdodana	-3898
▁uhlangothi	-3899
emhlabathini	-3900
▁eMakedoniya	-3901
▁ekukhanyeni	-3902
▁emabandleni	-3903
▁lwesithathu	-3904
▁ukungalungi	-3905
▁eKapernawume	-3906
▁uMbhapathizi	-3907
▁ngemifanekiso	-3908
▁okwakhulunywa	-3909
▁’	-3910
rne	-3911
uba	-3912
baku	-3913
dele	-3914
doma	-3915
estu	-3916
geza	-3917
lamu	-3918
libo	-3919
meza	-3920
niba	-3921
pare	-3922
qhwe	-3923
viki	-3924
wezi	-3925
ziya	-3926
bende	-3927
dakwa	-3928
dlela	-3929
evela	-3930
fihli	-3931
fipha	-3932
hlelo	-3933
jabhi	-3934
khiya	-3935
lasha	-3936
mbuzi	-3937
menza	-3938
mpuma	-3939
nqaba	-3940
ntuku	-3941
okuyi	-3942
pheni	-3943
shane	-3944
shaye	-3945
suswa	-3946
sutha	-3947
suthi	-3948
theli	-3949
thuna	-3950
vutha	-3951
zwini	-3952
bongwe	-3953
boniso	-3954
bubula	-3955
busiso	-3956
buzana	-3957
cebile	-3958
dokodo	-3959
ezinga	-3960
fuleni	-3961
hlanya	-3962
hlelwe	-3963
hlwile	-3964
khwele	-3965
kubosh	-3966
mpepho	-3967
ndiswa	-3968
parele	-3969
phambu	-3970
phithi	-3971
qedile	-3972
sinkwa	-3973
tafula	-3974
yafase	-3975
bizelwa	-3976
busiswa	-3977
buthela	-3978
fundile	-3979
gcineni	-3980
gcinile	-3981
hambeni	-3982
kolweni	-3983
kwaziyo	-3984
lizwayo	-3985
mulweni	-3986
ndukuba	-3987
ngulube	-3988
nochoko	-3989
nqobayo	-3990
nqunywa	-3991
nyiweyo	-3992
okuvela	-3993
tshelwa	-3994
zelanga	-3995
zenzisa	-3996
abampofu	-3997
abathile	-3998
dumileyo	-3999
fundanga	-4000
funyanwe	-4001
khaphele	-4002
khathini	-4003
khulelwe	-4004
kwabanye	-4005
lisiweyo	-4006
ndawonye	-4007
yaluyalu	-4008
abafileyo	-4009
finyelele	-4010
lungisela	-4011
mukelanga	-4012
phandleni	-4013
qaphelani	-4014
hlambulule	-4015
khathalela	-4016
kuboshweni	-4017
kwenzileyo	-4018
makedoniya	-4019
mpumalanga	-4020
nezindlebe	-4021
ngcweliswa	-4022
ngomthetho	-4023
ninimandla	-4024
ntukuthelo	-4025
thembekayo	-4026
thethelele	-4027
yisikhathi	-4028
bonakaliswe	-4029
etilongweni	-4030
kulungisela	-4031
kwesokhohlo	-4032
nishumayeza	-4033
phelelisiwe	-4034
ngenamvubelo	-4035
Ani	-4036
Kha	-4037
Nge	-4038
abu	-4039
ami	-4040
Sila	-4041
bene	-4042
bese	-4043
bezi	-4044
fake	-4045
kona	-4046
yale	-4047
ziwe	-4048
▁Nxa	-4049
▁eSi	-4050
▁eso	-4051
▁iso	-4052
▁ose	-4053
▁ulu	-4054
▁uvu	-4055
bethu	-4056
enhle	-4057
lethu	-4058
londa	-4059
ngazo	-4060
ngise	-4061
zathi	-4062
▁bemi	-4063
▁engu	-4064
▁kuni	-4065
▁nalo	-4066
▁nisa	-4067
▁sazi	-4068
▁unge	-4069
▁zama	-4070
Thithu	-4071
Umuntu	-4072
Yilowo	-4073
bafika	-4074
besaba	-4075
bongwa	-4076
indawo	-4077
kuvela	-4078
kuzaku	-4079
lekele	-4080
niyazi	-4081
silisa	-4082
yakuku	-4083
▁emuva	-4084
▁enani	-4085
▁ezazi	-4086
▁imizi	-4087
▁kanje	-4088
▁lwase	-4089
▁nenza	-4090
▁ngaku	-4091
▁njani	-4092
▁ukuyi	-4093
▁wangi	-4094
▁wenze	-4095
Andreya	-4096
barnaba	-4097
cekwini	-4098
isitsha	-4099
izinkwa	-4100
lindele	-4101
zwakala	-4102
▁Ngenxa	-4103
▁babona	-4104
▁ehamba	-4105
▁ehlezi	-4106
▁ekwazi	-4107
▁ephuma	-4108
▁esihle	-4109
▁ezimbi	-4110
▁ilanga	-4111
▁kulaba	-4112
▁kuleli	-4113
▁makabe	-4114
▁nakubo	-4115
▁nemini	-4116
▁nendlu	-4117
▁noBaba	-4118
▁owathi	-4119
▁ukhona	-4120
▁ukwazi	-4121
▁yawela	-4122
▁yilabo	-4123
▁USimoni	-4124
▁bahamba	-4125
▁bebodwa	-4126
▁inkemba	-4127
▁kangaka	-4128
▁nalapho	-4129
▁nangama	-4130
▁ngaleyo	-4131
▁ngiyazi	-4132
▁uJosefa	-4133
▁ukuvuka	-4134
▁umqhele	-4135
▁uthanda	-4136
▁uzakuba	-4137
▁wathuma	-4138
mhlabathi	-4139
ngenacala	-4140
ukukhanya	-4141
▁amakhosi	-4142
▁eGibithe	-4143
▁iphasika	-4144
▁kaSimoni	-4145
▁kukaJesu	-4146
▁ngempela	-4147
▁ngomlilo	-4148
▁ngomlomo	-4149
▁ongcwele	-4150
▁ungubani	-4151
nabantwana	-4152
ngesabatha	-4153
▁Yayisithi	-4154
▁bekhuluma	-4155
▁izinyanga	-4156
▁ngothando	-4157
▁sebezwile	-4158
▁ukukhonza	-4159
nezingelosi	-4160
ngokungathi	-4161
sizukulwane	-4162
▁Ngangomuso	-4163
▁abakhileyo	-4164
▁ekuphileni	-4165
▁kokukholwa	-4166
▁kungenzeka	-4167
▁othandweni	-4168
▁sikaKristu	-4169
▁wathabatha	-4170
▁engamashumi	-4171
ayisikhombisa	-4172
▁ngokuthokoza	-4173
ezinhliziyweni	-4174
▁okwenzekileyo	-4175
alu	-4176
iyi	-4177
kuno	-4178
nane	-4179
othi	-4180
siba	-4181
imali	-4182
isaya	-4183
izaku	-4184
ngiba	-4185
nguma	-4186
wodwa	-4187
bizile	-4188
kulowo	-4189
lalele	-4190
nababe	-4191
nasezi	-4192
thelwa	-4193
uphawu	-4194
ziyaku	-4195
akariya	-4196
bonanga	-4197
filiphu	-4198
incwadi	-4199
likhiya	-4200
lungisa	-4201
ngakabi	-4202
ngalezo	-4203
nguyena	-4204
mbethele	-4205
emlonyeni	-4206
namahloni	-4207
ngasemuva	-4208
esinagogeni	-4209
izinhliziyo	-4210
ngaselwandle	-4211
kwasekuqaleni	-4212
us	-4213
Uku	-4214
Uya	-4215
gce	-4216
one	-4217
qwa	-4218
sta	-4219
uye	-4220
▁;’	-4221
▁We	-4222
Levi	-4223
Tire	-4224
Woza	-4225
Zebe	-4226
biya	-4227
bize	-4228
deki	-4229
fuba	-4230
hema	-4231
hola	-4232
holi	-4233
hudu	-4234
lani	-4235
lawu	-4236
leko	-4237
meli	-4238
miyo	-4239
mumo	-4240
njwe	-4241
nywe	-4242
nzwa	-4243
qela	-4244
qhwa	-4245
siwo	-4246
siyi	-4247
yawo	-4248
zuzu	-4249
▁eye	-4250
▁ise	-4251
▁lom	-4252
▁ozi	-4253
▁som	-4254
Hlala	-4255
Kanti	-4256
Ninga	-4257
abaku	-4258
bizwe	-4259
chasi	-4260
dliwa	-4261
dwala	-4262
khiwo	-4263
kwalo	-4264
lkise	-4265
minya	-4266
ndeni	-4267
nyaza	-4268
pholi	-4269
rethe	-4270
rinte	-4271
shado	-4272
thuli	-4273
yonga	-4274
▁cala	-4275
▁kayi	-4276
▁ndlu	-4277
▁neye	-4278
▁ngim	-4279
▁niyi	-4280
▁noMa	-4281
▁senu	-4282
▁uBar	-4283
▁ukwa	-4284
▁yobu	-4285
▁zika	-4286
Umbuso	-4287
amanzi	-4288
bulawe	-4289
delela	-4290
dumise	-4291
fubeni	-4292
funayo	-4293
godini	-4294
hlamba	-4295
ingubo	-4296
kisile	-4297
klebhu	-4298
kufika	-4299
kufike	-4300
lehema	-4301
lingwa	-4302
mpondo	-4303
nsizwa	-4304
phulwa	-4305
phunga	-4306
qhweba	-4307
sabeni	-4308
shiswa	-4309
shongo	-4310
thenwa	-4311
thwale	-4312
valeli	-4313
▁Kwaku	-4314
▁Manje	-4315
▁Yathi	-4316
▁abayi	-4317
▁anina	-4318
▁bahlu	-4319
▁benze	-4320
▁bezwa	-4321
▁eyaku	-4322
▁ihora	-4323
▁lwami	-4324
▁ninge	-4325
▁owasi	-4326
▁washo	-4327
Ngizaku	-4328
bhekile	-4329
chithwa	-4330
iwayini	-4331
melweni	-4332
mfumene	-4333
nakanye	-4334
ningabi	-4335
njengom	-4336
phelile	-4337
qaphele	-4338
qhubeka	-4339
rneliyu	-4340
zincoma	-4341
▁Abantu	-4342
▁Akakho	-4343
▁Ngithi	-4344
▁baqala	-4345
▁befuna	-4346
▁embona	-4347
▁esinga	-4348
▁ithuba	-4349
▁izitha	-4350
▁kuyena	-4351
▁negazi	-4352
▁ngezwa	-4353
▁ngizwa	-4354
▁noMoya	-4355
▁oPetru	-4356
▁ohlezi	-4357
▁uhambe	-4358
▁uhlaka	-4359
▁ukungi	-4360
▁umhawu	-4361
▁umyeni	-4362
▁uyihlo	-4363
▁wabiza	-4364
▁wayala	-4365
▁zezulu	-4366
Solomoni	-4367
Zebedewu	-4368
enyameni	-4369
hloniphe	-4370
izinceku	-4371
khuhlane	-4372
khumbuza	-4373
kuKristu	-4374
mbethela	-4375
mbongolo	-4376
ngaphezu	-4377
ngomunye	-4378
nomhlaba	-4379
qhutshwa	-4380
salonika	-4381
sangweni	-4382
vumelana	-4383
wamukele	-4384
yinhloko	-4385
yokuqala	-4386
▁Isixuku	-4387
▁bahlala	-4388
▁lombuso	-4389
▁lukhuni	-4390
▁nguBaba	-4391
▁nomuntu	-4392
▁nomunye	-4393
▁omhlaba	-4394
▁othanda	-4395
▁singaba	-4396
amathathu	-4397
hawukelwa	-4398
hlwanyeli	-4399
kanukweni	-4400
khandleka	-4401
lkisedeki	-4402
lokugcina	-4403
ningizimu	-4404
nkululeko	-4405
sindisile	-4406
thokozani	-4407
thululela	-4408
▁Abaningi	-4409
▁engiyaku	-4410
▁eyishumi	-4411
▁ezinkulu	-4412
▁imibhalo	-4413
▁ingqondo	-4414
▁kathathu	-4415
▁kuKesari	-4416
▁kwaphuma	-4417
▁sikaJesu	-4418
▁umnikelo	-4419
khulekweni	-4420
lungisiswa	-4421
mangalelwa	-4422
nyakaziswa	-4423
qalekisiwe	-4424
thimothewu	-4425
▁Bazalwane	-4426
▁eDamaseku	-4427
▁insindiso	-4428
▁namashumi	-4429
▁ngentando	-4430
▁ngeqiniso	-4431
▁ngoKristu	-4432
▁noBarnaba	-4433
▁uMsindisi	-4434
▁ukulahlwa	-4435
bhapathizwe	-4436
cwebezelayo	-4437
emthethweni	-4438
nyazanyiswa	-4439
▁Ngokunjalo	-4440
▁Njengokuba	-4441
▁bamlandela	-4442
▁esixukwini	-4443
▁izisebenzi	-4444
▁kungenjalo	-4445
▁kwezinyawo	-4446
▁nabafowabo	-4447
▁ngukuphila	-4448
▁njalonjalo	-4449
hlakaniphile	-4450
▁abesifazane	-4451
▁ayisithupha	-4452
▁imfihlakalo	-4453
▁nabazalwane	-4454
▁naseNkosini	-4455
▁ngaphakathi	-4456
▁ngiyethemba	-4457
▁ngubufakazi	-4458
▁ongcolileyo	-4459
▁imiphefumulo	-4460
▁ngokwesibili	-4461
▁abangcolileyo	-4462
enu	-4463
usa	-4464
benu	-4465
kamu	-4466
kule	-4467
lama	-4468
niye	-4469
sabo	-4470
sina	-4471
siyo	-4472
yiyo	-4473
kungu	-4474
nenze	-4475
ngibe	-4476
buyise	-4477
imihla	-4478
kwezwe	-4479
lineni	-4480
nasema	-4481
nibona	-4482
nizaku	-4483
tamasa	-4484
uhlala	-4485
wasuka	-4486
ikhanda	-4487
kaningi	-4488
kwaziwa	-4489
lungelo	-4490
ngabona	-4491
ngomusa	-4492
thaniya	-4493
abezizwe	-4494
bamukele	-4495
buyisela	-4496
liseduze	-4497
madodana	-4498
msindisi	-4499
nakekela	-4500
ngokwami	-4501
ngqongqo	-4502
yiziwula	-4503
esandleni	-4504
ezintweni	-4505
neminyaka	-4506
yizigqila	-4507
ngithumile	-4508
ngomkhumbi	-4509
sikhombisa	-4510
ngokwenyama	-4511
Ye	-4512
Awu	-4513
Ngo	-4514
iza	-4515
▁Li	-4516
▁uD	-4517
Vuka	-4518
Yini	-4519
fanu	-4520
gaba	-4521
lili	-4522
liwa	-4523
ziba	-4524
▁Aka	-4525
▁Ani	-4526
▁ano	-4527
▁azo	-4528
▁ebi	-4529
▁ifu	-4530
▁ine	-4531
▁noM	-4532
▁zin	-4533
abani	-4534
anazi	-4535
bengi	-4536
hleba	-4537
kanga	-4538
kuphi	-4539
kwawo	-4540
nzuzo	-4541
sizwe	-4542
▁Sesi	-4543
▁Waye	-4544
▁adle	-4545
▁beba	-4546
▁embi	-4547
▁enza	-4548
▁ethu	-4549
▁isho	-4550
▁kude	-4551
▁liya	-4552
▁luka	-4553
▁neni	-4554
▁nizi	-4555
▁nowa	-4556
▁nowe	-4557
▁ongu	-4558
▁sisa	-4559
▁size	-4560
▁waso	-4561
▁zase	-4562
Apholo	-4563
Tomase	-4564
bazaku	-4565
kuleyo	-4566
sawulu	-4567
umvuzo	-4568
vumela	-4569
yalelo	-4570
yibona	-4571
▁Ayese	-4572
▁Thina	-4573
▁akuba	-4574
▁anazi	-4575
▁bantu	-4576
▁kwaso	-4577
▁lwenu	-4578
▁ngisa	-4579
▁ngise	-4580
▁ngiye	-4581
▁nidle	-4582
▁nkosi	-4583
▁ofuna	-4584
▁ukuma	-4585
▁uyisi	-4586
▁wakha	-4587
Ananiya	-4588
bamanga	-4589
emoyeni	-4590
kumelwe	-4591
ngegazi	-4592
ngenile	-4593
ngesilo	-4594
ngiyazi	-4595
nikelwa	-4596
nokudla	-4597
ukubona	-4598
umbhalo	-4599
uyakuba	-4600
▁Pawulu	-4601
▁Umuntu	-4602
▁Wasuka	-4603
▁angena	-4604
▁imbewu	-4605
▁ingena	-4606
▁ithole	-4607
▁kabili	-4608
▁kulabo	-4609
▁lusuku	-4610
▁nalelo	-4611
▁naleyo	-4612
▁nangom	-4613
▁nezoni	-4614
▁noJesu	-4615
▁omusha	-4616
▁onjalo	-4617
▁uYihlo	-4618
▁ukulwa	-4619
▁umelwe	-4620
▁wakubo	-4621
▁yimina	-4622
▁yinina	-4623
Babiloni	-4624
akusikho	-4625
ikakhulu	-4626
lokuqala	-4627
ngemihla	-4628
ngonyama	-4629
ngumuphi	-4630
nkohliso	-4631
ophilayo	-4632
samariya	-4633
sendlini	-4634
ungubani	-4635
▁babantu	-4636
▁baningi	-4637
▁ekufeni	-4638
▁emizini	-4639
▁impahla	-4640
▁inxenye	-4641
▁isihawu	-4642
▁iyakuba	-4643
▁kwabase	-4644
▁nalokhu	-4645
▁namunye	-4646
▁naphezu	-4647
▁nenyama	-4648
▁ngaleso	-4649
▁ngingum	-4650
▁ngobuso	-4651
▁nguJesu	-4652
▁ningena	-4653
▁nohlezi	-4654
▁ongiphe	-4655
▁phandle	-4656
▁sihambe	-4657
▁ubufebe	-4658
▁ukufika	-4659
▁wabonga	-4660
▁wayenga	-4661
▁yabantu	-4662
▁yamanzi	-4663
▁yikhona	-4664
▁yilokhu	-4665
Bethaniya	-4666
endleleni	-4667
mhlawumbe	-4668
ngafanele	-4669
ngamatshe	-4670
thukulula	-4671
yayisithi	-4672
▁abahamba	-4673
▁abangena	-4674
▁amabutho	-4675
▁amakhulu	-4676
▁amalunga	-4677
▁bayakuba	-4678
▁enduneni	-4679
▁izindaba	-4680
▁kuPilatu	-4681
▁nobusuku	-4682
▁okunjalo	-4683
▁siyakuba	-4684
▁ukuhlala	-4685
khuthalela	-4686
kwezinsuku	-4687
ngokwesaba	-4688
thandiweyo	-4689
▁Magdalena	-4690
▁abakholwa	-4691
▁ebandleni	-4692
▁ekufikeni	-4693
▁encwadini	-4694
▁inamandla	-4695
▁nabezizwe	-4696
▁ngithanda	-4697
▁nolwandle	-4698
▁okweshumi	-4699
▁Esakhuluma	-4700
▁Nkulunkulu	-4701
▁nabapristi	-4702
▁ngokuthula	-4703
▁ukumbulala	-4704
▁ukuthokoza	-4705
▁umphostoli	-4706
eziyisihlanu	-4707
▁iJerusalema	-4708
▁isiphambano	-4709
▁ukwahlukana	-4710
emasinagogeni	-4711
▁kowesifazane	-4712
▁ngokomthetho	-4713
▁sokwahlulela	-4714
▁wabaphendula	-4715
▁emikhawulweni	-4716
dlo	-4717
lze	-4718
tet	-4719
yam	-4720
baye	-4721
bola	-4722
cunu	-4723
dike	-4724
gcin	-4725
geze	-4726
gidi	-4727
ging	-4728
imvu	-4729
keka	-4730
keli	-4731
lobo	-4732
lusa	-4733
mana	-4734
mona	-4735
nasi	-4736
nize	-4737
noni	-4738
qaba	-4739
rene	-4740
riko	-4741
roma	-4742
roni	-4743
shad	-4744
simu	-4745
sula	-4746
tala	-4747
tusa	-4748
weli	-4749
wile	-4750
zezi	-4751
ziga	-4752
ababi	-4753
dluli	-4754
efesu	-4755
gedla	-4756
gwini	-4757
habhu	-4758
hlele	-4759
isaka	-4760
isilo	-4761
kenze	-4762
khele	-4763
kiswe	-4764
kwane	-4765
lidla	-4766
menye	-4767
mvuzo	-4768
ndile	-4769
nipha	-4770
njala	-4771
nqume	-4772
nqumi	-4773
nyisa	-4774
ongum	-4775
rarki	-4776
sakwa	-4777
sindo	-4778
vuswe	-4779
xwaye	-4780
babule	-4781
bonisa	-4782
bonisi	-4783
chichi	-4784
dikeya	-4785
duduza	-4786
funela	-4787
guqula	-4788
kiweyo	-4789
lusuku	-4790
mbango	-4791
mbelwa	-4792
meyoni	-4793
misile	-4794
mukile	-4795
mukise	-4796
nabelo	-4797
nhloko	-4798
nsimbi	-4799
phanga	-4800
phepha	-4801
qhwaga	-4802
sayida	-4803
seleyo	-4804
sivini	-4805
siweyo	-4806
thwesa	-4807
umlomo	-4808
vinini	-4809
vukela	-4810
zeleni	-4811
bukhali	-4812
chibini	-4813
duduzwa	-4814
gcekeni	-4815
hlengwa	-4816
khulile	-4817
kithina	-4818
kunjalo	-4819
kwazini	-4820
lathiya	-4821
lotshwa	-4822
lzebule	-4823
mukelwa	-4824
nabanye	-4825
nalokho	-4826
nalokhu	-4827
ngabazi	-4828
ngaleso	-4829
ngomoya	-4830
nqamuka	-4831
ntshona	-4832
nxanela	-4833
pheliyo	-4834
qiniswa	-4835
qondiyo	-4836
sesweni	-4837
wahamba	-4838
yekanga	-4839
yibamba	-4840
yinceku	-4841
zenzayo	-4842
zwileyo	-4843
bakholwa	-4844
bamemeza	-4845
bethelwa	-4846
bokusoka	-4847
bonakale	-4848
eminqumo	-4849
hlanjala	-4850
isibindi	-4851
khuphuka	-4852
kubonayo	-4853
lalelayo	-4854
mbathani	-4855
nithanda	-4856
phendule	-4857
sayikuba	-4858
shadweni	-4859
tetrarki	-4860
thandiyo	-4861
thathela	-4862
thembeni	-4863
thengise	-4864
tshelile	-4865
bambelele	-4866
fakazelwa	-4867
hlulelayo	-4868
khululele	-4869
khundleni	-4870
ngezilimi	-4871
phelelise	-4872
phulukise	-4873
phumuleni	-4874
sithekeni	-4875
tshengisa	-4876
ubusisiwe	-4877
wakhuleka	-4878
hlangulisa	-4879
khaphelayo	-4880
kungenjalo	-4881
olungileyo	-4882
semhlabeni	-4883
zakwenzani	-4884
abaphostoli	-4885
hlanganyelo	-4886
kazimulweni	-4887
kukhubekisa	-4888
kusindisile	-4889
hlanzekileyo	-4890
ntshonalanga	-4891
bhapathizelwa	-4892
izibonakaliso	-4893
Qa	-4894
Se	-4895
uk	-4896
Ste	-4897
aze	-4898
eso	-4899
oyi	-4900
▁Ne	-4901
▁eN	-4902
Lawo	-4903
Naku	-4904
akho	-4905
balo	-4906
huma	-4907
lale	-4908
luya	-4909
sini	-4910
sola	-4911
waze	-4912
yilo	-4913
▁ibi	-4914
▁sam	-4915
▁uJo	-4916
▁uce	-4917
▁ume	-4918
▁usa	-4919
▁zom	-4920
Jopha	-4921
Wathi	-4922
asiya	-4923
bezwe	-4924
lenze	-4925
lwase	-4926
thume	-4927
ukuza	-4928
zonde	-4929
▁Babe	-4930
▁Bona	-4931
▁Enye	-4932
▁Labo	-4933
▁bawa	-4934
▁bawo	-4935
▁kawu	-4936
▁lolo	-4937
▁mayi	-4938
▁muni	-4939
▁nise	-4940
▁sase	-4941
▁yawa	-4942
▁zawo	-4943
Akhaya	-4944
Sidoni	-4945
bebona	-4946
emihle	-4947
ethile	-4948
nazisa	-4949
nkambo	-4950
ukhona	-4951
▁Kumbe	-4952
▁abazi	-4953
▁bangi	-4954
▁efika	-4955
▁esasi	-4956
▁isimo	-4957
▁izoni	-4958
▁kusho	-4959
▁mihla	-4960
▁nanye	-4961
▁nasem	-4962
▁nezwi	-4963
▁ngazi	-4964
▁ngizi	-4965
▁ngoko	-4966
▁obaba	-4967
▁obala	-4968
▁ufana	-4969
▁wezwe	-4970
bambuza	-4971
baningi	-4972
behamba	-4973
mntwana	-4974
mnyango	-4975
ngokoku	-4976
phathwa	-4977
thobele	-4978
umhlaba	-4979
yalokho	-4980
yekhulu	-4981
▁Kuyaku	-4982
▁abenza	-4983
▁anakho	-4984
▁anothi	-4985
▁bamuka	-4986
▁busuku	-4987
▁ehlala	-4988
▁ekuzwa	-4989
▁enjalo	-4990
▁esisha	-4991
▁ezinye	-4992
▁izitho	-4993
▁kaMose	-4994
▁kubona	-4995
▁kunabo	-4996
▁kuzaku	-4997
▁nginge	-4998
▁okunye	-4999
▁onakho	-5000
▁ungene	-5001
▁uthini	-5002
▁wabeka	-5003
▁wasuka	-5004
Aleksand	-5005
Hayidese	-5006
Ngumuphi	-5007
Ungesabi	-5008
Zakariya	-5009
dabulile	-5010
hlulelwa	-5011
isithelo	-5012
khonzani	-5013
ngakhona	-5014
umkhumbi	-5015
wayeseba	-5016
▁bakhona	-5017
▁baletha	-5018
▁bengaba	-5019
▁egazini	-5020
▁egcwele	-5021
▁hambani	-5022
▁hlalani	-5023
▁iWundlu	-5024
▁inkonzo	-5025
▁kokuthi	-5026
▁kuPetru	-5027
▁kukhulu	-5028
▁kuphila	-5029
▁namanje	-5030
▁ngalowo	-5031
▁ngokufa	-5032
▁noyedwa	-5033
▁phezulu	-5034
▁sihamba	-5035
▁sokuthi	-5036
▁ukusoka	-5037
▁umfundi	-5038
▁wambuza	-5039
dabukiswa	-5040
izithombe	-5041
mfanekiso	-5042
ngasokile	-5043
thunyelwe	-5044
▁UFiliphu	-5045
▁ababhali	-5046
▁angisoze	-5047
▁ayishumi	-5048
▁bafumana	-5049
▁edwaleni	-5050
▁efundisa	-5051
▁emanzini	-5052
▁ensimini	-5053
▁ezizweni	-5054
▁isihlalo	-5055
▁kwelinye	-5056
▁kwenyama	-5057
▁nababusi	-5058
▁ngalokhu	-5059
▁ngeNkosi	-5060
▁ngemvelo	-5061
▁ngezinto	-5062
▁nikholwe	-5063
▁noMariya	-5064
▁phesheya	-5065
▁ukugcina	-5066
▁ukukhala	-5067
▁ukuphela	-5068
▁umhlambi	-5069
▁wakholwa	-5070
ayisihlanu	-5071
kungesikho	-5072
ngikhuluma	-5073
osezulwini	-5074
▁Abapristi	-5075
▁Esefikile	-5076
▁Ubusisiwe	-5077
▁amadodana	-5078
▁ekuvukeni	-5079
▁emkhosini	-5080
▁inkanyezi	-5081
▁izikhathi	-5082
▁nakalokhu	-5083
▁njengokwe	-5084
▁ubumnyama	-5085
▁benhliziyo	-5086
▁esihogweni	-5087
▁indodakazi	-5088
▁laseJudiya	-5089
▁ngevangeli	-5090
▁ngezinsuku	-5091
▁ngokuningi	-5092
nabaprofethi	-5093
▁ekulingweni	-5094
▁ethandekayo	-5095
▁imvuthuluka	-5096
▁intombazana	-5097
▁kubazalwane	-5098
▁nezinhlanzi	-5099
▁sekupheleni	-5100
▁ukuphenduka	-5101
▁umakhelwane	-5102
isibonakaliso	-5103
ukuhlakanipha	-5104
▁abalungileyo	-5105
▁emisebenzini	-5106
▁emphakathini	-5107
▁kwabangcwele	-5108
▁noThimothewu	-5109
▁okwesithathu	-5110
▁ukwahlulelwa	-5111
▁nokuphikisana	-5112
▁ungumprofethi	-5113
▁ekwahlulelweni	-5114
ibe	-5115
oni	-5116
osi	-5117
une	-5118
uze	-5119
▁;”	-5120
ange	-5121
dama	-5122
lenu	-5123
lome	-5124
nowa	-5125
vuke	-5126
zibe	-5127
badla	-5128
belwa	-5129
bunga	-5130
icala	-5131
lingo	-5132
ngawe	-5133
ngozi	-5134
ogama	-5135
okoku	-5136
owazi	-5137
sengi	-5138
thusi	-5139
vuthi	-5140
bhidli	-5141
bufebe	-5142
buwula	-5143
ekhona	-5144
engiku	-5145
funani	-5146
kelani	-5147
nesimo	-5148
nodumo	-5149
nonina	-5150
womoya	-5151
abazali	-5152
bangaba	-5153
ezinhle	-5154
hlukana	-5155
ithemba	-5156
miselwa	-5157
nalapho	-5158
nangezi	-5159
ngayiku	-5160
thumile	-5161
umkakhe	-5162
yilokhu	-5163
zabantu	-5164
zinyoka	-5165
hlatshwa	-5166
hlulelwe	-5167
komzimba	-5168
kufanele	-5169
nangenxa	-5170
ngalutho	-5171
ngenziwa	-5172
ngikhona	-5173
okuningi	-5174
wamemeza	-5175
yamandla	-5176
yisinkwa	-5177
bakhuluma	-5178
bongekayo	-5179
emzimbeni	-5180
nezinyawo	-5181
antiyokiya	-5182
esakhuluma	-5183
umfanekiso	-5184
yizikhonzi	-5185
ngenamandla	-5186
umphefumulo	-5187
yizimpumputhe	-5188
De	-5189
Ju	-5190
SI	-5191
ar	-5192
mv	-5193
▁T	-5194
Khe	-5195
Tro	-5196
don	-5197
fra	-5198
gqi	-5199
kwi	-5200
nan	-5201
qho	-5202
▁Se	-5203
▁Ye	-5204
Niko	-5205
Noma	-5206
Usho	-5207
cime	-5208
fafa	-5209
feza	-5210
godi	-5211
haqi	-5212
helo	-5213
khan	-5214
kula	-5215
mema	-5216
meve	-5217
muki	-5218
neke	-5219
ngim	-5220
nizi	-5221
njwa	-5222
nqum	-5223
qabe	-5224
qoma	-5225
silo	-5226
sizo	-5227
stra	-5228
vike	-5229
wali	-5230
xoko	-5231
yemi	-5232
▁ayo	-5233
▁nan	-5234
▁uSa	-5235
▁ugo	-5236
▁uza	-5237
Adamu	-5238
Elisa	-5239
Phezu	-5240
ayaku	-5241
bongi	-5242
bophe	-5243
ebeni	-5244
fungi	-5245
fweni	-5246
gange	-5247
gudlu	-5248
henqo	-5249
isiwe	-5250
katho	-5251
khafu	-5252
khela	-5253
kwazo	-5254
kwemi	-5255
kwila	-5256
mpawu	-5257
mpisi	-5258
munwe	-5259
mvaba	-5260
ndebe	-5261
ndeli	-5262
ndeze	-5263
ngoni	-5264
nkezo	-5265
owaba	-5266
owasi	-5267
ozayo	-5268
qambe	-5269
sekho	-5270
senza	-5271
songa	-5272
sweli	-5273
thana	-5274
thuki	-5275
ukuzi	-5276
ulaka	-5277
uyazi	-5278
vimbo	-5279
zinga	-5280
zwani	-5281
▁Nami	-5282
▁Wena	-5283
▁Yona	-5284
▁akwa	-5285
▁bala	-5286
▁esho	-5287
▁inye	-5288
▁kusa	-5289
▁nasi	-5290
▁ongo	-5291
▁sawo	-5292
▁siye	-5293
▁yaya	-5294
▁zazi	-5295
▁ziye	-5296
▁zona	-5297
Kwathi	-5298
Sodoma	-5299
Sukuma	-5300
bhinqa	-5301
bhubhe	-5302
bikele	-5303
bukela	-5304
bulele	-5305
chachi	-5306
dumaza	-5307
eliksi	-5308
elinye	-5309
elisha	-5310
fanisa	-5311
fumene	-5312
hluthu	-5313
kabani	-5314
khanye	-5315
khwela	-5316
koniyu	-5317
kuyeka	-5318
kuyini	-5319
leleyo	-5320
liyaku	-5321
lusizi	-5322
lwakho	-5323
meveni	-5324
ngizwa	-5325
nhlobo	-5326
njelwa	-5327
njiswa	-5328
nyelwa	-5329
nyiswe	-5330
nzanga	-5331
phupho	-5332
quqaba	-5333
rodiya	-5334
shiywa	-5335
sihlwa	-5336
siyana	-5337
taliya	-5338
thambo	-5339
thongo	-5340
tshala	-5341
umbusi	-5342
vamile	-5343
viniga	-5344
wokuba	-5345
yinike	-5346
yokuba	-5347
zakufa	-5348
zakuku	-5349
zuzile	-5350
▁Lapho	-5351
▁bezwe	-5352
▁kunye	-5353
▁kwabe	-5354
▁lunye	-5355
▁ndoda	-5356
▁ngeze	-5357
▁okuba	-5358
▁omubi	-5359
▁singe	-5360
▁ubani	-5361
▁ukusi	-5362
▁yodwa	-5363
Khefase	-5364
Xwayani	-5365
dingeka	-5366
faniswa	-5367
fikelwa	-5368
hluleka	-5369
kulutho	-5370
kunguku	-5371
lambile	-5372
lelanga	-5373
lindela	-5374
mehlisa	-5375
mhlanga	-5376
mngcoli	-5377
mvabeni	-5378
ndodeni	-5379
ndulele	-5380
nempela	-5381
ngaleyo	-5382
nqabeli	-5383
nqumile	-5384
phethwe	-5385
phiweyo	-5386
phumeni	-5387
qabetho	-5388
qabunga	-5389
shumaye	-5390
stadiyu	-5391
sweleni	-5392
thakeni	-5393
thathwa	-5394
thobeka	-5395
ubusuku	-5396
wokuthi	-5397
xwayani	-5398
▁Akukho	-5399
▁Inkosi	-5400
▁Niyaku	-5401
▁Siyazi	-5402
▁angazi	-5403
▁angene	-5404
▁endala	-5405
▁ingani	-5406
▁insimu	-5407
▁inzalo	-5408
▁kimina	-5409
▁kuYise	-5410
▁kuyini	-5411
▁kwenye	-5412
▁lakubo	-5413
▁negama	-5414
▁ngingu	-5415
▁nibona	-5416
▁sinkwa	-5417
▁sitsha	-5418
▁somusa	-5419
▁umfazi	-5420
▁walowo	-5421
▁yafika	-5422
▁yazini	-5423
▁yezono	-5424
Kayafase	-5425
amakhosi	-5426
amaningi	-5427
bhalweni	-5428
bhubhayo	-5429
bonisisa	-5430
dukisayo	-5431
engcwele	-5432
eseshilo	-5433
esizweni	-5434
funisisa	-5435
hlambulu	-5436
hlonipha	-5437
khanyisa	-5438
kubonile	-5439
lamuleli	-5440
mamukela	-5441
mamukele	-5442
mbonanga	-5443
mesabayo	-5444
mesabeni	-5445
ngenanga	-5446
ngiphika	-5447
ngolweni	-5448
nqumweni	-5449
olukhulu	-5450
phindela	-5451
phunyuka	-5452
qinileyo	-5453
qiniseka	-5454
qondanga	-5455
sambathe	-5456
sambatho	-5457
sandleni	-5458
shiyanga	-5459
shwabene	-5460
thandeka	-5461
zelamani	-5462
zinhlobo	-5463
▁Kukhona	-5464
▁Ndodana	-5465
▁Ngaleso	-5466
▁Ngiyaku	-5467
▁UJohane	-5468
▁angisho	-5469
▁anisoze	-5470
▁bekuzwa	-5471
▁bephuma	-5472
▁ekhanda	-5473
▁ephethe	-5474
▁esivela	-5475
▁kuphuma	-5476
▁lomlilo	-5477
▁namazwi	-5478
▁neNkosi	-5479
▁nempela	-5480
▁ngalolo	-5481
▁ngiyeza	-5482
▁nihambe	-5483
▁seNkosi	-5484
▁uBaraba	-5485
▁wamvusa	-5486
▁yenyama	-5487
▁zombili	-5488
Qaphelani	-5489
chasisela	-5490
fihliweyo	-5491
fundisiwe	-5492
gcwaliswe	-5493
khulekeni	-5494
kulandela	-5495
namathela	-5496
namathele	-5497
ngcwelise	-5498
nothileyo	-5499
sebenzela	-5500
sebenzisa	-5501
swelekile	-5502
thanayeli	-5503
thandanga	-5504
thokozile	-5505
zibongayo	-5506
▁abangaba	-5507
▁abanjalo	-5508
▁amazinyo	-5509
▁andukuba	-5510
▁babuyela	-5511
▁emihleni	-5512
▁emnyango	-5513
▁esiswini	-5514
▁ezithile	-5515
▁ezonweni	-5516
▁isabatha	-5517
▁izindawo	-5518
▁izinyoni	-5519
▁kaJosefa	-5520
▁kwabanye	-5521
▁kwamanzi	-5522
▁nezilimi	-5523
▁ngabanye	-5524
▁ngesihle	-5525
▁ngimelwe	-5526
▁nithanda	-5527
▁njengesi	-5528
▁njengezi	-5529
▁nxazonke	-5530
▁okhuluma	-5531
▁okungaka	-5532
▁sokuqala	-5533
▁ukwesaba	-5534
▁uphonswe	-5535
Elisabethe	-5536
Phezukonke	-5537
bhujisweni	-5538
cindezelwa	-5539
colekileyo	-5540
funyaniswa	-5541
hlanganisa	-5542
hluthulelo	-5543
hlwanyelwa	-5544
khumbulani	-5545
khuthalele	-5546
kubonileyo	-5547
kwesihlalo	-5548
membathisa	-5549
nakwenzeka	-5550
ngqondweni	-5551
pheleliswa	-5552
pheleliswe	-5553
▁Masinyane	-5554
▁Yeminqumo	-5555
▁bambulale	-5556
▁ekuqaleni	-5557
▁isisekelo	-5558
▁izincwadi	-5559
▁izizindlo	-5560
▁lokuphila	-5561
▁namakhosi	-5562
▁ngamadolo	-5563
▁ngenkemba	-5564
▁ngokubona	-5565
▁nomthetho	-5566
▁wokuphila	-5567
▁yayisithi	-5568
▁yiNdodana	-5569
▁yokulunga	-5570
▁yokuphila	-5571
▁yomthetho	-5572
UNkulunkulu	-5573
hlanganyele	-5574
hluphekweni	-5575
hlwanyelayo	-5576
isikhashana	-5577
khazimulayo	-5578
mangalelayo	-5579
ngalaleliyo	-5580
ngcwelisiwe	-5581
ngqongqotha	-5582
nokuthokoza	-5583
phakamisela	-5584
phakanyiswa	-5585
phendukanga	-5586
shumayelayo	-5587
▁Babusisiwe	-5588
▁amatalenta	-5589
▁baphenduke	-5590
▁kaZebedewu	-5591
▁kubantwana	-5592
▁lwesabatha	-5593
▁ngikhulume	-5594
▁okungcwele	-5595
▁ukusindisa	-5596
▁ukuzibonga	-5597
▁zamlandela	-5598
▁zikaKristu	-5599
bhapathiziwe	-5600
nithethelela	-5601
thukuthelela	-5602
▁Iskariyothe	-5603
▁nezingelosi	-5604
▁ngabantwana	-5605
▁ngamademoni	-5606
▁nokuthokoza	-5607
▁othandekayo	-5608
▁wabafundisa	-5609
▁wamphendula	-5610
▁washumayela	-5611
▁yenkazimulo	-5612
yenkulungwane	-5613
▁Bathandekayo	-5614
buthakathakeni	-5615
ngasezinyaweni	-5616
▁nasezingozini	-5617
▁ngokufaneleyo	-5618
▁uyakusindiswa	-5619
▁ngokuhunyushwa	-5620
▁nokuhlakanipha	-5621
▁ukuthethelelwa	-5622
▁abayisikhombisa	-5623
▁ngokuhlakanipha	-5624
aso	-5625
bet	-5626
yom	-5627
basi	-5628
buzi	-5629
hubo	-5630
inga	-5631
lali	-5632
neze	-5633
safa	-5634
sase	-5635
wema	-5636
woza	-5637
yaso	-5638
yize	-5639
zase	-5640
eyisi	-5641
eziyi	-5642
isiya	-5643
mbele	-5644
nanto	-5645
ngayi	-5646
ohane	-5647
omoya	-5648
oyisi	-5649
sathi	-5650
senzo	-5651
wakha	-5652
yakwa	-5653
abathi	-5654
bafuna	-5655
baqala	-5656
ilanga	-5657
kabili	-5658
kimina	-5659
kwakha	-5660
lethwa	-5661
mawube	-5662
nacala	-5663
ngangi	-5664
nkonzo	-5665
silele	-5666
umlilo	-5667
yimina	-5668
yinina	-5669
baphuma	-5670
beletha	-5671
ethanda	-5672
ngalolo	-5673
ningabe	-5674
uthanda	-5675
wathuma	-5676
amabutho	-5677
buyisane	-5678
kesariya	-5679
kunokuba	-5680
ngamanzi	-5681
samukela	-5682
ukhuluma	-5683
ngaziwayo	-5684
ngesibindi	-5685
ntombazana	-5686
abakholwayo	-5687
ebumnyameni	-5688
isithembiso	-5689
kangakanani	-5690
lwesithathu	-5691
ngenhliziyo	-5692
ngezikhathi	-5693
ukuhlupheka	-5694
zinhlupheko	-5695
kugcwaliseke	-5696
nabesifazane	-5697
yisikhashana	-5698
ongithumileyo	-5699
:2	-5700
AB	-5701
Al	-5702
Go	-5703
Lu	-5704
Mi	-5705
NK	-5706
Um	-5707
Ya	-5708
im	-5709
▁1	-5710
Khi	-5711
eze	-5712
▁Le	-5713
▁mi	-5714
Nowa	-5715
abam	-5716
buni	-5717
cono	-5718
engo	-5719
hisi	-5720
hoko	-5721
inko	-5722
kuvu	-5723
lana	-5724
leza	-5725
naso	-5726
usho	-5727
zeni	-5728
▁Awu	-5729
▁Ngo	-5730
▁ini	-5731
▁isa	-5732
▁oma	-5733
Lapho	-5734
Lokho	-5735
benze	-5736
eniku	-5737
mbono	-5738
nokwe	-5739
nqobe	-5740
washo	-5741
▁Bese	-5742
▁Izwi	-5743
▁Maye	-5744
▁Nezi	-5745
▁bema	-5746
▁beze	-5747
▁ezwa	-5748
▁gama	-5749
▁kaMa	-5750
▁loba	-5751
▁luya	-5752
▁mani	-5753
▁nili	-5754
▁nisi	-5755
▁sini	-5756
▁udle	-5757
▁umka	-5758
▁waku	-5759
▁wemi	-5760
▁yazi	-5761
▁yize	-5762
▁zaso	-5763
▁zesi	-5764
Akakho	-5765
Khupro	-5766
Ngithi	-5767
ahlale	-5768
babona	-5769
engaka	-5770
isipho	-5771
kamela	-5772
kuleli	-5773
kunika	-5774
kwaphu	-5775
nabase	-5776
nikile	-5777
ongena	-5778
safika	-5779
sifana	-5780
sokile	-5781
tabeni	-5782
thelwe	-5783
wayala	-5784
yazisa	-5785
yilabo	-5786
yileyo	-5787
zakuza	-5788
▁Anazi	-5789
▁Kwaba	-5790
▁Nguye	-5791
▁akazi	-5792
▁akube	-5793
▁ayisi	-5794
▁basho	-5795
▁engim	-5796
▁esiku	-5797
▁imini	-5798
▁ingum	-5799
▁ivela	-5800
▁kweza	-5801
▁linga	-5802
▁nanto	-5803
▁ngiza	-5804
▁nyama	-5805
▁phela	-5806
▁ubone	-5807
▁uvela	-5808
▁yezwe	-5809
Korinte	-5810
Nempela	-5811
UJohane	-5812
akayiku	-5813
ebusuku	-5814
hlalisa	-5815
hlubuka	-5816
komuntu	-5817
kulokho	-5818
kumuntu	-5819
kwezono	-5820
makezwe	-5821
ngaziwa	-5822
nikelwe	-5823
qaphela	-5824
uzakuba	-5825
velaphi	-5826
wehlela	-5827
yenzayo	-5828
▁Bayaku	-5829
▁Wabuye	-5830
▁ahambe	-5831
▁amanye	-5832
▁aphuze	-5833
▁bayizi	-5834
▁eNkosi	-5835
▁emseni	-5836
▁imvula	-5837
▁iqhude	-5838
▁kaMoya	-5839
▁kasoze	-5840
▁kokubi	-5841
▁kuleso	-5842
▁kunami	-5843
▁kunoku	-5844
▁kuyise	-5845
▁madoda	-5846
▁mnyama	-5847
▁nenhla	-5848
▁ngcono	-5849
▁ngithe	-5850
▁nibone	-5851
▁noSila	-5852
▁nokubi	-5853
▁olunga	-5854
▁uFestu	-5855
▁umJuda	-5856
▁umuthi	-5857
▁wacela	-5858
▁wanika	-5859
▁wayemi	-5860
▁wayena	-5861
ababhali	-5862
akushoyo	-5863
besilisa	-5864
ebusweni	-5865
eminingi	-5866
kwenyama	-5867
kwenzeni	-5868
qinisela	-5869
▁Ngalolo	-5870
▁emthini	-5871
▁idemoni	-5872
▁impande	-5873
▁indlala	-5874
▁isabelo	-5875
▁izilimi	-5876
▁izindlu	-5877
▁kwalowo	-5878
▁kwendlu	-5879
▁lweviki	-5880
▁mhlophe	-5881
▁nendoda	-5882
▁ngakini	-5883
▁ngasese	-5884
▁ngelika	-5885
▁ngizuze	-5886
▁nihamba	-5887
▁noYihlo	-5888
▁nombuso	-5889
▁nomlilo	-5890
▁oPawulu	-5891
▁okholwa	-5892
▁okuyize	-5893
▁sahlala	-5894
▁selokhu	-5895
▁sengiya	-5896
▁sihlale	-5897
▁wakhala	-5898
▁wammisa	-5899
▁wayesem	-5900
Korneliyu	-5901
amabandla	-5902
emehlweni	-5903
hlatshelo	-5904
ithempeli	-5905
kolwandle	-5906
mphendula	-5907
ngokwakhe	-5908
nomthetho	-5909
onamandla	-5910
sebezwile	-5911
thobelani	-5912
unamandla	-5913
▁Kusukela	-5914
▁Kuyakuba	-5915
▁abahlezi	-5916
▁amanetha	-5917
▁bobabili	-5918
▁bomhlaba	-5919
▁esithile	-5920
▁indwangu	-5921
▁kukaMoya	-5922
▁kusobala	-5923
▁kwathiwa	-5924
▁labaJuda	-5925
▁naphambi	-5926
▁neqiniso	-5927
▁nesihawu	-5928
▁ngagunya	-5929
▁ngiyakum	-5930
▁ngokwesi	-5931
▁noPawulu	-5932
▁noSimoni	-5933
▁okuphila	-5934
▁umphathi	-5935
▁uyinkosi	-5936
▁wabayala	-5937
▁wafumana	-5938
▁wamukela	-5939
▁yebandla	-5940
Khilikhiya	-5941
elkisedeki	-5942
eshumayela	-5943
indodakazi	-5944
kubantwana	-5945
kubapristi	-5946
kungenzeka	-5947
kwahlukani	-5948
kwenzekile	-5949
▁AbaFarisi	-5950
▁akwenzayo	-5951
▁bakhuleka	-5952
▁bamncenga	-5953
▁enamandla	-5954
▁ingcosana	-5955
▁nabangena	-5956
▁namaGreki	-5957
▁nezikhulu	-5958
▁ngasemuva	-5959
▁ngiyakuba	-5960
▁nguKristu	-5961
▁nikhuleke	-5962
▁nokuqonda	-5963
▁okholwayo	-5964
▁owokuqala	-5965
▁sezinyawo	-5966
▁ukulalela	-5967
▁ukuthanda	-5968
▁ukuyobona	-5969
▁uyaphinga	-5970
▁uzithanda	-5971
▁wamangala	-5972
▁wamthatha	-5973
▁wenyukela	-5974
▁zokulunga	-5975
Thesalonika	-5976
kapernawume	-5977
nganitshela	-5978
ngasolekiyo	-5979
njengokusho	-5980
ukwahlulela	-5981
▁Baphendula	-5982
▁abakhuleka	-5983
▁angithandi	-5984
▁eqinisweni	-5985
▁impumputhe	-5986
▁isifundiso	-5987
▁izinkanuko	-5988
▁kukaKristu	-5989
▁kweJordani	-5990
▁nezikhonzi	-5991
▁ngamafutha	-5992
▁ngamashumi	-5993
▁ngeNdodana	-5994
▁ngezinyawo	-5995
▁ngokulunga	-5996
▁ngukwesaba	-5997
▁ukukhuleka	-5998
▁uyindodana	-5999
▁waphenduka	-6000
▁wesinagoge	-6001
▁yaphendula	-6002
bathandekayo	-6003
kwabangcwele	-6004
▁ababiziweyo	-6005
▁angamashumi	-6006
▁ezindlebeni	-6007
▁ngabapristi	-6008
▁ngaphesheya	-6009
▁nginitshela	-6010
▁ngokujabula	-6011
▁ukuzamazama	-6012
▁uthembekile	-6013
▁wenkazimulo	-6014
ezingamashumi	-6015
zanyazanyiswa	-6016
▁engikwenzayo	-6017
▁isivumelwano	-6018
▁ngenkazimulo	-6019
▁sibonakaliso	-6020
▁abakhethiweyo	-6021
▁babhapathizwa	-6022
▁eziyisithupha	-6023
▁lokwahlulelwa	-6024
▁nemihlatshelo	-6025
▁ngabaphostoli	-6026
▁ngasendleleni	-6027
▁eyinkulungwane	-6028
▁nezibonakaliso	-6029
▁nganhliziyonye	-6030
▁ngokupheleleyo	-6031
awa	-6032
awo	-6033
aya	-6034
gen	-6035
gqu	-6036
gxi	-6037
iso	-6038
lom	-6039
num	-6040
wom	-6041
arku	-6042
bebe	-6043
buna	-6044
buse	-6045
buze	-6046
demu	-6047
dobi	-6048
fewu	-6049
gana	-6050
gezi	-6051
gwaq	-6052
haha	-6053
hume	-6054
jabu	-6055
jona	-6056
kalo	-6057
lobe	-6058
maba	-6059
miya	-6060
neli	-6061
nuka	-6062
nzwe	-6063
rabi	-6064
sabe	-6065
sema	-6066
senu	-6067
siko	-6068
veze	-6069
wawa	-6070
wulo	-6071
zuka	-6072
ayese	-6073
bakwa	-6074
cishe	-6075
dlile	-6076
efuna	-6077
gudla	-6078
hange	-6079
hlebi	-6080
hlola	-6081
hlose	-6082
hluku	-6083
hlula	-6084
hlume	-6085
hosha	-6086
icebo	-6087
jwaye	-6088
kebhe	-6089
khiku	-6090
khuba	-6091
klolo	-6092
londe	-6093
lwami	-6094
mfuyo	-6095
mukwa	-6096
naphi	-6097
ngizi	-6098
ntshi	-6099
nyazi	-6100
nyise	-6101
phiko	-6102
phiku	-6103
sheni	-6104
shiyi	-6105
thobe	-6106
tuswa	-6107
uyeza	-6108
zakum	-6109
zakwe	-6110
babeka	-6111
bizayo	-6112
bonise	-6113
buyele	-6114
dazulu	-6115
deleli	-6116
diliza	-6117
dlanga	-6118
dukise	-6119
ekhaya	-6120
esinye	-6121
fezela	-6122
gcinwe	-6123
guquka	-6124
hliswa	-6125
huheka	-6126
izimvu	-6127
izipho	-6128
khandi	-6129
khokhe	-6130
khondo	-6131
khwebu	-6132
kubeke	-6133
kulesi	-6134
kwenye	-6135
lahlwe	-6136
lethwe	-6137
limaza	-6138
lokuba	-6139
ludumo	-6140
mbatha	-6141
mukula	-6142
nasemi	-6143
nendlu	-6144
nezela	-6145
ngingu	-6146
ngokwa	-6147
ngwini	-6148
ntambo	-6149
phetho	-6150
phuphu	-6151
qhingi	-6152
shinga	-6153
shiswe	-6154
shiywe	-6155
shulwa	-6156
sizani	-6157
sokayo	-6158
vikelo	-6159
vumele	-6160
zelani	-6161
bahamba	-6162
bangena	-6163
bubende	-6164
cabangi	-6165
cabango	-6166
dangali	-6167
fundayo	-6168
hambisa	-6169
hlazisa	-6170
hlisela	-6171
hlubula	-6172
hlwitha	-6173
ingcebo	-6174
jordani	-6175
kenzeki	-6176
khalayo	-6177
khalela	-6178
khethwa	-6179
kwabela	-6180
lingisi	-6181
londolo	-6182
mazanga	-6183
mfiliya	-6184
mhlambi	-6185
mvumela	-6186
nezelwa	-6187
ngehora	-6188
ngesizo	-6189
ngilazi	-6190
njabulo	-6191
njamini	-6192
nokwazi	-6193
nqabela	-6194
ntisana	-6195
numzane	-6196
nyukele	-6197
othanda	-6198
pheleke	-6199
philela	-6200
phindwe	-6201
qhubela	-6202
qhuzuka	-6203
qondile	-6204
shiweyo	-6205
thakalo	-6206
theleka	-6207
tilongo	-6208
velanga	-6209
vivinya	-6210
zithoba	-6211
zondayo	-6212
bhubhise	-6213
buthongo	-6214
buyisana	-6215
chitheka	-6216
damaseku	-6217
diyakoni	-6218
duduzeka	-6219
dunyiswa	-6220
dunyiswe	-6221
funelani	-6222
gcinelwe	-6223
gwaqweni	-6224
hudulela	-6225
isidumbu	-6226
jabhiswa	-6227
khethela	-6228
khohlisi	-6229
khohliwe	-6230
kholwani	-6231
khukhula	-6232
khuthala	-6233
kwaphuma	-6234
lobokazi	-6235
mukelayo	-6236
mukeleni	-6237
nendlebe	-6238
ngempela	-6239
ngomlilo	-6240
nhlawulo	-6241
njengesi	-6242
ntanyeni	-6243
phenduki	-6244
phonseka	-6245
qalekisa	-6246
ristarku	-6247
thathile	-6248
tshisiwe	-6249
ukuhamba	-6250
ukungena	-6251
valelisa	-6252
vumelene	-6253
vuselela	-6254
wabanika	-6255
womileyo	-6256
yalisisa	-6257
emlilweni	-6258
ezandleni	-6259
fihlakele	-6260
fundiseni	-6261
gqilakazi	-6262
hawukelwe	-6263
hlukanisa	-6264
hlukumeza	-6265
khulekele	-6266
khululeka	-6267
khululela	-6268
kubonanga	-6269
kunalokho	-6270
kwenzanga	-6271
landelayo	-6272
liphezulu	-6273
lungisiwe	-6274
menyiweyo	-6275
minyanisa	-6276
miselweyo	-6277
ngamesabi	-6278
ngaphambi	-6279
ngcwelisa	-6280
ngenisile	-6281
ngentando	-6282
ngenzanga	-6283
ngifanele	-6284
nolwandle	-6285
nyakazisa	-6286
qhamileyo	-6287
sindisiwe	-6288
wayekhona	-6289
zingelayo	-6290
abakhileyo	-6291
babusisiwe	-6292
bekezelele	-6293
chachileyo	-6294
ezindaweni	-6295
fundisweni	-6296
hlambuluka	-6297
khulelweyo	-6298
khulumanga	-6299
mukelisiwe	-6300
ngakabikho	-6301
ngakakhali	-6302
ngamakhosi	-6303
nikhumbuza	-6304
ninisivini	-6305
zinhliziyo	-6306
zinkanyezi	-6307
hlanjalazwa	-6308
khazimulisa	-6309
khulumisana	-6310
lahlekileyo	-6311
lungisisiwe	-6312
ngubufakazi	-6313
phelekezela	-6314
phikukristu	-6315
shunyayezwa	-6316
bonakalisile	-6317
hlwanyelanga	-6318
khazimuliswe	-6319
mukeliswanga	-6320
qalekisiweyo	-6321
khazimulisiwe	-6322
zinhlobonhlobo	-6323
Isi	-6324
Izi	-6325
Kwa	-6326
Nxa	-6327
OSI	-6328
ara	-6329
azo	-6330
isa	-6331
nam	-6332
▁iN	-6333
▁uL	-6334
Kuse	-6335
Laba	-6336
Nami	-6337
beru	-6338
beze	-6339
boya	-6340
bubi	-6341
kayi	-6342
mala	-6343
neye	-6344
nise	-6345
nisi	-6346
taba	-6347
ukwe	-6348
unge	-6349
wala	-6350
wawo	-6351
yiwo	-6352
zazo	-6353
zona	-6354
▁afe	-6355
▁oya	-6356
▁uJe	-6357
Nakhu	-6358
basho	-6359
eside	-6360
hlole	-6361
ilipi	-6362
kathi	-6363
kumbe	-6364
lwesi	-6365
mathe	-6366
nezwi	-6367
ngili	-6368
▁Besa	-6369
▁Maka	-6370
▁Onga	-6371
▁Weza	-6372
▁asho	-6373
▁bafa	-6374
▁beli	-6375
▁eBet	-6376
▁enqa	-6377
▁enze	-6378
▁ezwe	-6379
▁kubi	-6380
▁kumi	-6381
▁kuza	-6382
▁lube	-6383
▁maku	-6384
▁siza	-6385
▁usho	-6386
▁wobu	-6387
▁yalo	-6388
▁yasi	-6389
▁yiwo	-6390
▁ziba	-6391
Jeriko	-6392
Krethe	-6393
Kuyini	-6394
Wayese	-6395
babone	-6396
bevela	-6397
ethiwa	-6398
fakaze	-6399
heberu	-6400
izwile	-6401
mbambe	-6402
mbopha	-6403
negama	-6404
ngedwa	-6405
ngenze	-6406
ngipha	-6407
novalo	-6408
sadusi	-6409
sindwa	-6410
ukuzwa	-6411
yegama	-6412
zakuya	-6413
▁Ngini	-6414
▁Umuzi	-6415
▁abali	-6416
▁badle	-6417
▁elele	-6418
▁elise	-6419
▁esaba	-6420
▁esesi	-6421
▁esiyi	-6422
▁eyayi	-6423
▁isiya	-6424
▁nezwe	-6425
▁ngali	-6426
▁ngane	-6427
▁ngili	-6428
▁nguwe	-6429
▁okuka	-6430
▁olubi	-6431
▁ubeke	-6432
▁yakwa	-6433
▁yezwi	-6434
Khurene	-6435
Namuhla	-6436
Stefanu	-6437
asiyiku	-6438
behlezi	-6439
bethele	-6440
imiyalo	-6441
koyedwa	-6442
kukhulu	-6443
kuphila	-6444
kwabase	-6445
ngenalo	-6446
ngenhla	-6447
ngumoya	-6448
ninakho	-6449
nomhawu	-6450
okholwa	-6451
sihambe	-6452
thengwa	-6453
yabantu	-6454
▁Yibani	-6455
▁abakhe	-6456
▁angini	-6457
▁elihle	-6458
▁encane	-6459
▁engaba	-6460
▁engazi	-6461
▁eninga	-6462
▁esihla	-6463
▁indaba	-6464
▁inyoka	-6465
▁kaBaba	-6466
▁kababa	-6467
▁komuzi	-6468
▁kuMose	-6469
▁kuyisi	-6470
▁luvalo	-6471
▁lwethu	-6472
▁makazi	-6473
▁nakulo	-6474
▁nalabo	-6475
▁ngedwa	-6476
▁ngento	-6477
▁ngokom	-6478
▁nifuna	-6479
▁noJuda	-6480
▁noyise	-6481
▁okunje	-6482
▁okwami	-6483
▁ompofu	-6484
▁owakhe	-6485
▁sibone	-6486
▁sifuna	-6487
▁siyeza	-6488
▁uhamba	-6489
▁ukhula	-6490
▁umbono	-6491
▁wafela	-6492
▁wafuna	-6493
▁wakini	-6494
▁wavuka	-6495
▁wayeba	-6496
▁yayala	-6497
▁yesono	-6498
▁yimani	-6499
▁yomusa	-6500
▁zomusa	-6501
Ngalokho	-6502
Simeyoni	-6503
Ungubani	-6504
amalunga	-6505
bafumana	-6506
buhlungu	-6507
ekhuluma	-6508
namukela	-6509
nesihawu	-6510
nezinkwa	-6511
ngokwesi	-6512
wamukela	-6513
yithanda	-6514
▁Izixuku	-6515
▁Kunjani	-6516
▁Ngabona	-6517
▁UMariya	-6518
▁Uthando	-6519
▁Wangena	-6520
▁ababusi	-6521
▁abafuna	-6522
▁abavela	-6523
▁akuveli	-6524
▁babhali	-6525
▁bahlale	-6526
▁bamyisa	-6527
▁bangabi	-6528
▁bangene	-6529
▁beNkosi	-6530
▁bengena	-6531
▁bezizwe	-6532
▁ebubini	-6533
▁ekuseni	-6534
▁emibili	-6535
▁eniyaku	-6536
▁indlebe	-6537
▁isibili	-6538
▁isivini	-6539
▁kancane	-6540
▁kungena	-6541
▁maninga	-6542
▁nakhiwe	-6543
▁nangawo	-6544
▁ndodana	-6545
▁nezizwe	-6546
▁ngalelo	-6547
▁ngifuna	-6548
▁ngobani	-6549
▁ngolimi	-6550
▁okhokho	-6551
▁omncane	-6552
▁sabantu	-6553
▁sangena	-6554
▁siphile	-6555
▁uLazaru	-6556
▁ububele	-6557
▁ufakazi	-6558
▁umhlobo	-6559
▁umqondo	-6560
▁utshani	-6561
▁uvukile	-6562
▁wabonwa	-6563
▁zenyama	-6564
Belzebule	-6565
Galathiya	-6566
abagulayo	-6567
ekufikeni	-6568
insindiso	-6569
likhuluma	-6570
namabutho	-6571
nezingubo	-6572
njengezwi	-6573
nokuqonda	-6574
ukukhonza	-6575
▁abezwayo	-6576
▁amanyala	-6577
▁bagcwala	-6578
▁bememeza	-6579
▁ekhuleka	-6580
▁emhlophe	-6581
▁emzaneni	-6582
▁ezingena	-6583
▁iPhasika	-6584
▁imvubelo	-6585
▁izingane	-6586
▁kokubili	-6587
▁kuSimoni	-6588
▁kubalimi	-6589
▁kungcono	-6590
▁kwenzeni	-6591
▁kwenziwa	-6592
▁kwenziwe	-6593
▁lweNkosi	-6594
▁nabaJuda	-6595
▁namadoda	-6596
▁nesixuku	-6597
▁nezifebe	-6598
▁ngamathe	-6599
▁ngamehlo	-6600
▁ngomunye	-6601
▁ngumuntu	-6602
▁ngumuphi	-6603
▁ningenzi	-6604
▁njengase	-6605
▁nomzimba	-6606
▁oBarnaba	-6607
▁okukhona	-6608
▁sengathi	-6609
▁sithanda	-6610
▁ulwandle	-6611
▁umfowenu	-6612
▁umnyango	-6613
▁unembeza	-6614
▁wababuza	-6615
▁wadabula	-6616
▁wasukuma	-6617
▁wokuqala	-6618
▁zegolide	-6619
▁zesiliva	-6620
Kulotshiwe	-6621
Lawodikeya	-6622
Ngilandele	-6623
baphendula	-6624
hlangabeza	-6625
kuvunyelwe	-6626
mhlatshelo	-6627
uhlangothi	-6628
▁Uyakhonza	-6629
▁abafowabo	-6630
▁abathathu	-6631
▁bamdumisa	-6632
▁bathumela	-6633
▁bazenzisi	-6634
▁elimnandi	-6635
▁isikhonzi	-6636
▁isithombe	-6637
▁izikhonzi	-6638
▁kalukhuni	-6639
▁levangeli	-6640
▁nabaningi	-6641
▁namahloni	-6642
▁nezinduna	-6643
▁nezinyawo	-6644
▁ngabaJuda	-6645
▁ngingekho	-6646
▁ngobuqili	-6647
▁ngokuvuka	-6648
▁ngokwakhe	-6649
▁nonembeza	-6650
▁okokuqala	-6651
▁sokulunga	-6652
▁ukumbamba	-6653
▁uqinisile	-6654
▁uthabathe	-6655
▁wabafundi	-6656
▁wayekhona	-6657
▁yevangeli	-6658
▁zobukhosi	-6659
abesifazane	-6660
ekukhanyeni	-6661
emabandleni	-6662
mbhapathizi	-6663
ngamadodana	-6664
ukungalungi	-6665
▁bayakhonza	-6666
▁ekuhambeni	-6667
▁eliphezulu	-6668
▁emshadweni	-6669
▁ezinyaweni	-6670
▁ezixukwini	-6671
▁eziyikhulu	-6672
▁kubaFarisi	-6673
▁kwabaningi	-6674
▁laseGalile	-6675
▁lesithupha	-6676
▁lukaKristu	-6677
▁nabaSadusi	-6678
▁ngumpristi	-6679
▁noMsindisi	-6680
▁okuqondene	-6681
▁umninindlu	-6682
▁wokukholwa	-6683
▁yabaFarisi	-6684
▁yisibonelo	-6685
▁yisikhonzi	-6686
ngokomthetho	-6687
wabaphendula	-6688
▁abafelokazi	-6689
▁abancinyane	-6690
▁isiyaluyalu	-6691
▁izithembiso	-6692
▁nabathelisi	-6693
▁nesifundiso	-6694
▁ngesiHeberu	-6695
▁ningakholwa	-6696
▁njengabanye	-6697
▁njengokusho	-6698
▁nomfanekiso	-6699
▁okudaliweyo	-6700
▁onkulunkulu	-6701
▁uThimothewu	-6702
▁ukubekezela	-6703
▁ukusindiswa	-6704
▁wabayishumi	-6705
▁wasezulwini	-6706
▁yayisibetha	-6707
ngasendleleni	-6708
ngemifanekiso	-6709
okwakhulunywa	-6710
▁bathandekayo	-6711
▁ekuphumuleni	-6712
▁itabernakele	-6713
▁kubaphostoli	-6714
▁nakwabezizwe	-6715
▁neJerusalema	-6716
▁ngezinkanuko	-6717
▁ngokwentando	-6718
▁ukungibulala	-6719
▁ukuphikisana	-6720
▁ukushumayela	-6721
▁yisikhashana	-6722
ngokwesithathu	-6723
▁abathandekayo	-6724
▁emikhulekweni	-6725
▁enkazimulweni	-6726
▁kukusindisile	-6727
▁nezimangaliso	-6728
▁ngiyanincenga	-6729
▁nokuhlambalaza	-6730
po	-6731
bafa	-6732
engu	-6733
enze	-6734
kane	-6735
kune	-6736
kuni	-6737
kusa	-6738
kuza	-6739
mayi	-6740
neka	-6741
yeke	-6742
emuva	-6743
enani	-6744
ezazi	-6745
gqoka	-6746
imizi	-6747
imoni	-6748
kanje	-6749
khumu	-6750
menze	-6751
nakhu	-6752
ngowa	-6753
okuka	-6754
ozaku	-6755
ufana	-6756
yidla	-6757
banike	-6758
boshwe	-6759
ehamba	-6760
ehlezi	-6761
ekuzwa	-6762
ekwazi	-6763
ephuma	-6764
ezimbi	-6765
fundwa	-6766
kulaba	-6767
kulabo	-6768
kuyena	-6769
lazaru	-6770
livela	-6771
makabe	-6772
nakubo	-6773
nemini	-6774
nesihe	-6775
ohlezi	-6776
owathi	-6777
sifaka	-6778
sizini	-6779
thithu	-6780
ukwazi	-6781
umyeni	-6782
vulele	-6783
wabiza	-6784
yawela	-6785
andreya	-6786
bebodwa	-6787
hambela	-6788
inkemba	-6789
kangaka	-6790
kulokhu	-6791
langabi	-6792
namazwi	-6793
nezinye	-6794
ngobani	-6795
ngokufa	-6796
ngukuba	-6797
ngukufa	-6798
nomuntu	-6799
nomunye	-6800
omhlaba	-6801
ukuvuka	-6802
umqhele	-6803
wezizwe	-6804
zidlayo	-6805
banikela	-6806
iphasika	-6807
kwamukwa	-6808
kwelinye	-6809
nesixuku	-6810
ngenanto	-6811
ngomlomo	-6812
nhlanhla	-6813
okunjalo	-6814
ongcwele	-6815
ukuphela	-6816
bambisisa	-6817
bekhuluma	-6818
inamandla	-6819
izinyanga	-6820
kamelweni	-6821
ngamukela	-6822
ngothando	-6823
nhlabathi	-6824
nifundisa	-6825
nonembeza	-6826
qhubekela	-6827
ukulahlwa	-6828
yiminyaka	-6829
yizinsuku	-6830
bamlandela	-6831
ekuphileni	-6832
izisebenzi	-6833
kokukholwa	-6834
namakhanda	-6835
ncintisana	-6836
ngikhulula	-6837
ngilandele	-6838
othandweni	-6839
wathabatha	-6840
engamashumi	-6841
imfihlakalo	-6842
intombazana	-6843
kubazalwane	-6844
misebenzini	-6845
nezinhlanzi	-6846
umakhelwane	-6847
ngokuthokoza	-6848
yizindlalifa	-6849
nokuphikisana	-6850
okwenzekileyo	-6851
Bu	-6852
Ho	-6853
Po	-6854
gx	-6855
mc	-6856
xe	-6857
Ake	-6858
Ara	-6859
Phu	-6860
Thu	-6861
ele	-6862
ile	-6863
jas	-6864
kla	-6865
lva	-6866
mpu	-6867
mum	-6868
nju	-6869
ozi	-6870
qwe	-6871
rbe	-6872
rtu	-6873
som	-6874
tro	-6875
xha	-6876
▁Am	-6877
▁eF	-6878
▁¦1	-6879
▁¦2	-6880
Lesi	-6881
Lowo	-6882
Nawe	-6883
Sina	-6884
Suka	-6885
bawo	-6886
beyi	-6887
bise	-6888
buyi	-6889
ceba	-6890
cima	-6891
colo	-6892
enza	-6893
gona	-6894
gubu	-6895
haqe	-6896
hemu	-6897
joka	-6898
keme	-6899
khwi	-6900
kubu	-6901
mezi	-6902
mora	-6903
nowe	-6904
qame	-6905
qina	-6906
resi	-6907
sali	-6908
soki	-6909
tire	-6910
tuse	-6911
zebe	-6912
▁efa	-6913
▁ele	-6914
▁ili	-6915
▁nto	-6916
▁ona	-6917
▁qha	-6918
▁sim	-6919
▁uGa	-6920
Kodwa	-6921
Marta	-6922
NKOSI	-6923
Trowa	-6924
abayi	-6925
anina	-6926
bangi	-6927
banzi	-6928
baphi	-6929
bukwa	-6930
donga	-6931
elisa	-6932
eyaku	-6933
fakwa	-6934
festu	-6935
ganwe	-6936
gqubu	-6937
gxuma	-6938
hlaza	-6939
holwa	-6940
ihora	-6941
jaspi	-6942
jonge	-6943
khale	-6944
khamo	-6945
khelo	-6946
khile	-6947
khuze	-6948
kunye	-6949
kwana	-6950
lindo	-6951
lodwa	-6952
lotha	-6953
lvanu	-6954
lwani	-6955
lwazi	-6956
mbali	-6957
mbise	-6958
minza	-6959
mnene	-6960
mnike	-6961
mpini	-6962
nakhe	-6963
ndini	-6964
ngiye	-6965
ngoka	-6966
ninge	-6967
njeni	-6968
ntela	-6969
nyeka	-6970
nzisa	-6971
ofuna	-6972
phana	-6973
pheli	-6974
phezi	-6975
solwa	-6976
thama	-6977
tshwe	-6978
uyisi	-6979
valwa	-6980
wangi	-6981
wehla	-6982
zinco	-6983
zinku	-6984
▁Bama	-6985
▁Lesi	-6986
▁Moya	-6987
▁Zase	-6988
▁ahlu	-6989
▁bama	-6990
▁beku	-6991
▁beno	-6992
▁beya	-6993
▁beyi	-6994
▁enci	-6995
▁ende	-6996
▁hora	-6997
▁impe	-6998
▁koba	-6999
▁kofe	-7000
▁kuma	-7001
▁kuvu	-7002
▁lise	-7003
▁nayi	-7004
▁neli	-7005
▁ngam	-7006
▁nime	-7007
▁nimi	-7008
▁noka	-7009
▁owam	-7010
▁wani	-7011
▁yema	-7012
▁yemi	-7013
▁zalo	-7014
▁ziku	-7015
▁zizi	-7016
Akwila	-7017
Athene	-7018
Inkosi	-7019
Listra	-7020
Nakuyo	-7021
Siriya	-7022
bamuka	-7023
befuna	-7024
bekele	-7025
bhebhe	-7026
bizele	-7027
busise	-7028
buyeli	-7029
celeni	-7030
chotho	-7031
duduzi	-7032
embona	-7033
eninga	-7034
esihle	-7035
esinga	-7036
fafaza	-7037
felayo	-7038
fikela	-7039
gabisa	-7040
gcwale	-7041
giyona	-7042
guqule	-7043
hahayo	-7044
hlengo	-7045
hlupha	-7046
hluphi	-7047
holela	-7048
iqhude	-7049
ithuba	-7050
izitha	-7051
jezisa	-7052
kazana	-7053
keleyo	-7054
kemeyo	-7055
khumba	-7056
khunju	-7057
komusa	-7058
kudela	-7059
kuloba	-7060
leluya	-7061
libali	-7062
lomewu	-7063
mbonga	-7064
nakala	-7065
nalabo	-7066
nalelo	-7067
ndiswe	-7068
ndliwa	-7069
negazi	-7070
nezoni	-7071
nibuza	-7072
nikiwe	-7073
nosizo	-7074
ntwini	-7075
nzelwe	-7076
nzweni	-7077
okunye	-7078
onjalo	-7079
phahla	-7080
phange	-7081
phephe	-7082
phepho	-7083
qalile	-7084
qhotho	-7085
qwembe	-7086
sabeka	-7087
selite	-7088
shelwe	-7089
solayo	-7090
thuntu	-7091
tshiwe	-7092
uhambe	-7093
uhlaka	-7094
umelwe	-7095
umhawu	-7096
uyihlo	-7097
valiwe	-7098
vumeli	-7099
yazini	-7100
yelana	-7101
yibani	-7102
yihora	-7103
yimani	-7104
yinika	-7105
zezulu	-7106
zinika	-7107
zondwa	-7108
▁UMose	-7109
▁abone	-7110
▁akabe	-7111
▁akaze	-7112
▁amuke	-7113
▁avela	-7114
▁awuyi	-7115
▁bakha	-7116
▁bange	-7117
▁basha	-7118
▁ekamu	-7119
▁emini	-7120
▁esibi	-7121
▁izazi	-7122
▁izifo	-7123
▁lakwa	-7124
▁landa	-7125
▁lathi	-7126
▁lwaba	-7127
▁lwabo	-7128
▁muhle	-7129
▁nangu	-7130
▁ndaba	-7131
▁ntaba	-7132
▁okuya	-7133
▁ovela	-7134
▁ukuku	-7135
▁ukuni	-7136
▁ulimi	-7137
▁usizi	-7138
▁usulu	-7139
▁wadla	-7140
▁wehla	-7141
▁yisho	-7142
▁zezwe	-7143
Agripha	-7144
Ikoniyu	-7145
Kalokhu	-7146
Lungisa	-7147
Nizwile	-7148
babamba	-7149
bahlala	-7150
bakhona	-7151
baletha	-7152
bambiso	-7153
bhekene	-7154
bunzini	-7155
dalelwa	-7156
delelwa	-7157
dondolo	-7158
fakelwa	-7159
fungisa	-7160
fushane	-7161
gqileni	-7162
gxilile	-7163
hambile	-7164
hlalele	-7165
hlalise	-7166
hlulelo	-7167
humusha	-7168
isihawu	-7169
khishwe	-7170
khubeki	-7171
khulule	-7172
khundla	-7173
kwazeke	-7174
lenzayo	-7175
lingise	-7176
lombuso	-7177
lwaneni	-7178
matheya	-7179
mbalaza	-7180
mhlanje	-7181
mlalela	-7182
namanje	-7183
namehlo	-7184
ndiselo	-7185
ngelani	-7186
nizwile	-7187
njiweyo	-7188
nqabayo	-7189
nxusela	-7190
nyekile	-7191
nzelana	-7192
phelayo	-7193
phumule	-7194
qiniswe	-7195
qondaka	-7196
shiloyo	-7197
sihamba	-7198
singaba	-7199
sisanga	-7200
sisihla	-7201
thotshi	-7202
thulula	-7203
tshingo	-7204
umfundi	-7205
vilapha	-7206
vimbela	-7207
vulelwa	-7208
vunguza	-7209
washiya	-7210
yathira	-7211
zamcolo	-7212
zenzile	-7213
zithelo	-7214
zombili	-7215
zungezi	-7216
zwilili	-7217
▁Bafika	-7218
▁Induna	-7219
▁Nalowo	-7220
▁angabi	-7221
▁angayi	-7222
▁babuye	-7223
▁eTrowa	-7224
▁efwini	-7225
▁engali	-7226
▁eningi	-7227
▁enithi	-7228
▁funani	-7229
▁ihlazo	-7230
▁ihlezi	-7231
▁imelwe	-7232
▁inetha	-7233
▁iningi	-7234
▁inkolo	-7235
▁kaJona	-7236
▁kaJuda	-7237
▁komusa	-7238
▁kuMoya	-7239
▁kunaye	-7240
▁kuveza	-7241
▁kwambu	-7242
▁lokufa	-7243
▁mandla	-7244
▁mfundi	-7245
▁nasebu	-7246
▁nasesi	-7247
▁ngaphi	-7248
▁noYise	-7249
▁nowoku	-7250
▁ogwini	-7251
▁okhona	-7252
▁okusha	-7253
▁olahla	-7254
▁omdala	-7255
▁ozelwe	-7256
▁samuka	-7257
▁sivela	-7258
▁themba	-7259
▁uMarta	-7260
▁uhlale	-7261
▁ukukha	-7262
▁ukukho	-7263
▁ukusho	-7264
▁umfana	-7265
▁ungaba	-7266
▁uphume	-7267
▁uthela	-7268
▁uthuli	-7269
▁wokuba	-7270
▁yihora	-7271
▁yileyo	-7272
▁yokuba	-7273
Herodiya	-7274
Hosiyana	-7275
babiloni	-7276
bakhethi	-7277
bayalile	-7278
bhantshi	-7279
bhidliza	-7280
bhubhiyo	-7281
bulalayo	-7282
chichima	-7283
chithile	-7284
cimekiyo	-7285
dabukisa	-7286
dazuluka	-7287
dukileyo	-7288
engiyaku	-7289
eyishumi	-7290
ezinkulu	-7291
hlangene	-7292
hlanzana	-7293
hokozani	-7294
imibhalo	-7295
ingqondo	-7296
isihlalo	-7297
julileyo	-7298
kathathu	-7299
khalweni	-7300
khanyayo	-7301
khathali	-7302
khethile	-7303
khombeni	-7304
khonzile	-7305
khulelwa	-7306
khululwe	-7307
khwelisa	-7308
klebhula	-7309
kulobela	-7310
kwabelwa	-7311
kwathiwa	-7312
kwenzele	-7313
misiweyo	-7314
mkhulula	-7315
ngcebeni	-7316
ngelelwa	-7317
ngeniswa	-7318
ntanakhe	-7319
nyathela	-7320
nyiselwa	-7321
nyuselwa	-7322
philiswa	-7323
profethe	-7324
qhingini	-7325
sengathi	-7326
sokileyo	-7327
sokuqala	-7328
solomoni	-7329
taladini	-7330
thandela	-7331
thatheni	-7332
thembile	-7333
thengayo	-7334
thengela	-7335
thengisi	-7336
thonjeni	-7337
tolomewu	-7338
umnikelo	-7339
ungesabi	-7340
vivinywa	-7341
vuswanga	-7342
wabayala	-7343
waphinda	-7344
yakufika	-7345
zalwanga	-7346
zebedewu	-7347
▁Amadoda	-7348
▁Hambani	-7349
▁Kwavela	-7350
▁Ngiyazi	-7351
▁UKristu	-7352
▁Waphuma	-7353
▁abayiku	-7354
▁abazaku	-7355
▁akusizi	-7356
▁anenani	-7357
▁awusiye	-7358
▁babamba	-7359
▁bahambe	-7360
▁baphume	-7361
▁bathula	-7362
▁bethuka	-7363
▁eJeriko	-7364
▁efakaza	-7365
▁embethe	-7366
▁emeveni	-7367
▁igolide	-7368
▁imimoya	-7369
▁inkatho	-7370
▁isifile	-7371
▁izibani	-7372
▁komuntu	-7373
▁kulokhu	-7374
▁kungene	-7375
▁kwaleli	-7376
▁kwalezo	-7377
▁kwezulu	-7378
▁mntwana	-7379
▁nalapha	-7380
▁nasezin	-7381
▁nenzalo	-7382
▁nezinto	-7383
▁nezinye	-7384
▁ngemizi	-7385
▁ngezono	-7386
▁ngibuye	-7387
▁nginani	-7388
▁ngiyani	-7389
▁ngomuso	-7390
▁nguyise	-7391
▁nifunde	-7392
▁nilinde	-7393
▁nonyoko	-7394
▁oJakobe	-7395
▁ofakazi	-7396
▁ongathi	-7397
▁sakithi	-7398
▁samanje	-7399
▁sihlezi	-7400
▁singabe	-7401
▁uSawulu	-7402
▁unecala	-7403
▁uzakuni	-7404
▁wabheka	-7405
▁womuntu	-7406
▁yenkosi	-7407
▁yenzani	-7408
▁zeNkosi	-7409
▁zinceku	-7410
Ubusisiwe	-7411
Wayesethi	-7412
bhekisisa	-7413
dadewethu	-7414
hlabelela	-7415
hlabelele	-7416
hlolisisa	-7417
hlukanise	-7418
hlukeneyo	-7419
khafulela	-7420
khazimula	-7421
khubekisi	-7422
khulekiwe	-7423
khulumela	-7424
khulumeni	-7425
khulunywe	-7426
kulungeni	-7427
kulungisa	-7428
landelana	-7429
landeleni	-7430
langazela	-7431
magdalena	-7432
mangalele	-7433
nakalokhu	-7434
namashumi	-7435
nandulela	-7436
nezinwele	-7437
ngasoleki	-7438
ngcweleni	-7439
ngeqiniso	-7440
ngithinti	-7441
ngulubeni	-7442
ngulukile	-7443
nikaqondi	-7444
ntshumaye	-7445
phephetha	-7446
phuphuthe	-7447
proselite	-7448
rimatheya	-7449
sebenzile	-7450
sesiswini	-7451
shisekele	-7452
vangelini	-7453
wokuphila	-7454
wuphiweyo	-7455
yokuphila	-7456
yomthetho	-7457
zinhlanzi	-7458
▁INdodana	-7459
▁Onqobayo	-7460
▁Ukuthula	-7461
▁Waphinda	-7462
▁abahlobo	-7463
▁akulutho	-7464
▁amafutha	-7465
▁azenzayo	-7466
▁babaleka	-7467
▁bambamba	-7468
▁benginga	-7469
▁eNtabeni	-7470
▁echibini	-7471
▁emgodini	-7472
▁engizaku	-7473
▁enkosini	-7474
▁enqabeni	-7475
▁esonweni	-7476
▁eyenziwe	-7477
▁eyihlane	-7478
▁imivimbo	-7479
▁intokozo	-7480
▁izikhali	-7481
▁kobusuku	-7482
▁kungenxa	-7483
▁kwenzeke	-7484
▁lwalokho	-7485
▁msebenzi	-7486
▁nanhlanu	-7487
▁nenyanga	-7488
▁nesitsha	-7489
▁ngenyama	-7490
▁nginguye	-7491
▁ngokunye	-7492
▁ngokwazi	-7493
▁nhliziyo	-7494
▁niqinile	-7495
▁niyakuba	-7496
▁nomkakhe	-7497
▁okuncane	-7498
▁okungena	-7499
▁okuthile	-7500
▁ongayiku	-7501
▁sekufeni	-7502
▁sekusile	-7503
▁uFeliksi	-7504
▁uFiliphu	-7505
▁ubukhosi	-7506
▁ucezwana	-7507
▁ugongolo	-7508
▁uyaphila	-7509
▁yamemeza	-7510
▁yesixuku	-7511
▁yinhloko	-7512
▁yomhlaba	-7513
▁zezibani	-7514
▁zomhlaba	-7515
Aleksandru	-7516
bokukholwa	-7517
esixukwini	-7518
hluphekayo	-7519
hluphekeni	-7520
hluphekile	-7521
khanyisela	-7522
khohlisayo	-7523
khukhumele	-7524
khukhumeza	-7525
kwezinyawo	-7526
menyezelwa	-7527
mpindiselo	-7528
nabafowabo	-7529
nezimpondo	-7530
ngakhononi	-7531
ngikhulume	-7532
njalonjalo	-7533
phambeneyo	-7534
phendukele	-7535
phindisela	-7536
phulukiswe	-7537
profethayo	-7538
sambatheka	-7539
shwabeneyo	-7540
sindiswayo	-7541
thengisayo	-7542
▁Bamangala	-7543
▁abesilisa	-7544
▁amahhashi	-7545
▁bakhonona	-7546
▁befundisa	-7547
▁enanikade	-7548
▁enginakho	-7549
▁eniyakuku	-7550
▁esivinini	-7551
▁ethembeni	-7552
▁ezindlini	-7553
▁iminyango	-7554
▁iyakufika	-7555
▁izelamani	-7556
▁izindlela	-7557
▁kaSathane	-7558
▁kuFiliphu	-7559
▁kusondela	-7560
▁kwabaJuda	-7561
▁kwababemi	-7562
▁kwamandla	-7563
▁lokugcina	-7564
▁nendodana	-7565
▁nesibindi	-7566
▁ngendlela	-7567
▁ngesineke	-7568
▁ngifakaza	-7569
▁ngikhipha	-7570
▁ngiyabona	-7571
▁ngiyamazi	-7572
▁ngokwenza	-7573
▁ngomkhosi	-7574
▁nikhuleka	-7575
▁njengathi	-7576
▁noFiliphu	-7577
▁nokugedla	-7578
▁ongenakho	-7579
▁qaphelani	-7580
▁sikhuluma	-7581
▁thokozani	-7582
▁ukuthatha	-7583
▁wasondela	-7584
▁yompristi	-7585
▁zokugcina	-7586
Nathanayeli	-7587
ayisithupha	-7588
hlakazekile	-7589
hlangothini	-7590
hlukanisiwe	-7591
khulekeleni	-7592
kwambulweni	-7593
mangalisayo	-7594
mhlambalaza	-7595
mkhaphelayo	-7596
nabazalwane	-7597
nemisebenzi	-7598
ngenziwanga	-7599
ngikhaphela	-7600
ngiyethemba	-7601
ngumsebenzi	-7602
njengomuntu	-7603
ongcolileyo	-7604
phongolweni	-7605
thukululeni	-7606
washumayela	-7607
▁Elokugcina	-7608
▁ababehlezi	-7609
▁bakaJohane	-7610
▁baphendula	-7611
▁basindiswe	-7612
▁elimhlophe	-7613
▁emnqumweni	-7614
▁engutsheni	-7615
▁ezigcawini	-7616
▁ezimhlophe	-7617
▁ezimvabeni	-7618
▁ezintabeni	-7619
▁isisebenzi	-7620
▁iziqabetho	-7621
▁kukaJohane	-7622
▁kuvunyelwe	-7623
▁kuyintando	-7624
▁kwabalelwa	-7625
▁kwabuthana	-7626
▁kwayikhona	-7627
▁kweNdodana	-7628
▁nabafileyo	-7629
▁ngangokuba	-7630
▁ngingubani	-7631
▁ngisindise	-7632
▁nithandane	-7633
▁nokukhanya	-7634
▁okulotshwe	-7635
▁olusesweni	-7636
▁sebefikile	-7637
▁sekufikile	-7638
▁sekuhlwile	-7639
▁uyakuphila	-7640
▁uyakuphiwa	-7641
▁wabafumana	-7642
▁wamlandela	-7643
▁waziphonsa	-7644
▁yisikhathi	-7645
hloniphekayo	-7646
imiphefumulo	-7647
khuthazelayo	-7648
ngokwesibili	-7649
phathimandla	-7650
phithiphithi	-7651
▁abekwenzile	-7652
▁bangatsheli	-7653
▁bashumayela	-7654
▁empumalanga	-7655
▁engqondweni	-7656
▁ezincekwini	-7657
▁ezinsukwini	-7658
▁iziphambeko	-7659
▁kungumzimba	-7660
▁kwenhliziyo	-7661
▁kwesikhathi	-7662
▁nabangcwele	-7663
▁ngihawukele	-7664
▁nomphakathi	-7665
▁oPhezukonke	-7666
▁okuphambene	-7667
▁ongalungile	-7668
▁ukukhululwa	-7669
▁ungithumile	-7670
abangcolileyo	-7671
funyaniswanga	-7672
hlakazekileyo	-7673
▁Wayesebabiza	-7674
▁esikhundleni	-7675
▁isikhubekiso	-7676
▁izimangaliso	-7677
▁izimpumputhe	-7678
▁kwemisebenzi	-7679
▁kwenkazimulo	-7680
▁kwezingelosi	-7681
▁ngabokugcina	-7682
▁ngiyakumnika	-7683
▁ngiyathokoza	-7684
▁ngokufundisa	-7685
▁ngokukhuleka	-7686
▁ngomprofethi	-7687
▁nokubekezela	-7688
▁nowesifazane	-7689
▁okulungileyo	-7690
▁uMninimandla	-7691
▁ukuyokhuleka	-7692
▁wabaprofethi	-7693
▁wasihlephula	-7694
nokuhlakanipha	-7695
▁abangamakhulu	-7696
▁akunakwenzeka	-7697
▁ezinkanukweni	-7698
▁kubonakaliswe	-7699
▁ngabaprofethi	-7700
▁ngesithembiso	-7701
▁ngeziphambeko	-7702
▁ngokubekezela	-7703
▁obuthakathaka	-7704
▁okuhlatshelwe	-7705
▁ukuhlambalaza	-7706
▁ukukhuthazela	-7707
▁wabaphulukisa	-7708
ngokuhlakanipha	-7709
▁izakukhashelwa	-7710
▁izinkulungwane	-7711
▁naseJerusalema	-7712
▁ngakwesokhohlo	-7713
▁ngokungafanele	-7714
▁ngokungakholwa	-7715
▁esingenamvubelo	-7716
▁ningakhathazeki	-7717
▁okukaNkulunkulu	-7718
▁uyakulahlekelwa	-7719
uf	-7720
ano	-7721
ebi	-7722
hum	-7723
hwa	-7724
ise	-7725
adle	-7726
daba	-7727
dede	-7728
embi	-7729
ethu	-7730
isho	-7731
kawu	-7732
layi	-7733
levi	-7734
nala	-7735
nesa	-7736
neyo	-7737
niyi	-7738
ongu	-7739
qola	-7740
sole	-7741
wabu	-7742
waso	-7743
yifa	-7744
akuba	-7745
dlani	-7746
kwaso	-7747
lenza	-7748
lwenu	-7749
marta	-7750
ngaki	-7751
ngeza	-7752
nguwe	-7753
nidle	-7754
phani	-7755
theku	-7756
theni	-7757
ukuyi	-7758
wezwa	-7759
yinto	-7760
angena	-7761
apholo	-7762
esisha	-7763
imbewu	-7764
ingena	-7765
inzalo	-7766
ithole	-7767
kuleso	-7768
lakubo	-7769
laleli	-7770
lelesi	-7771
libala	-7772
malusi	-7773
naleyo	-7774
ngasho	-7775
nifuna	-7776
nxenye	-7777
omusha	-7778
sidoni	-7779
ukulwa	-7780
ukungi	-7781
umfazi	-7782
ungene	-7783
valele	-7784
wabeka	-7785
wakubo	-7786
yigugu	-7787
yiqeda	-7788
agripha	-7789
ananiya	-7790
babantu	-7791
ekufeni	-7792
ekuseni	-7793
emizini	-7794
impahla	-7795
inxenye	-7796
iyakuba	-7797
kuphuma	-7798
lahliwe	-7799
lethile	-7800
menyiwe	-7801
namunye	-7802
nangama	-7803
naphezu	-7804
nenyama	-7805
ngalowo	-7806
ngasese	-7807
ngingum	-7808
ngobuso	-7809
ngokuka	-7810
nohlezi	-7811
nombuso	-7812
nomfazi	-7813
okhokho	-7814
ongiphe	-7815
ubufebe	-7816
ukufika	-7817
ukusoka	-7818
wabonga	-7819
wambuza	-7820
wayesem	-7821
wenzile	-7822
yamanzi	-7823
yenziwe	-7824
abahamba	-7825
amakhulu	-7826
angisoze	-7827
bathanda	-7828
bayakuba	-7829
enduneni	-7830
izindaba	-7831
kulusuku	-7832
kungcono	-7833
kwalasha	-7834
nedemoni	-7835
nezitsha	-7836
nginguye	-7837
ngokwenu	-7838
njengama	-7839
njengami	-7840
nobusuku	-7841
okhuluma	-7842
sifanele	-7843
sithanda	-7844
siyakuba	-7845
tafuleni	-7846
thandani	-7847
ukugcina	-7848
ukuhlala	-7849
ukwesaba	-7850
wafumana	-7851
wakholwa	-7852
zakufika	-7853
abakholwa	-7854
bazenzisi	-7855
bulukhuni	-7856
ebandleni	-7857
ekuvukeni	-7858
encwadini	-7859
nabezizwe	-7860
nokuningi	-7861
okweshumi	-7862
phakemeyo	-7863
babalekele	-7864
kubekezela	-7865
lahlekelwe	-7866
nabapristi	-7867
nezinhloni	-7868
ngezinsuku	-7869
ngokuthula	-7870
sekufikile	-7871
thengisiwe	-7872
ukumbulala	-7873
ukuthokoza	-7874
umahluleli	-7875
umphostoli	-7876
isiphambano	-7877
iskariyothe	-7878
ngabapristi	-7879
njengezimvu	-7880
semkhunjini	-7881
ukwahlukana	-7882
kowesifazane	-7883
kubekezeleni	-7884
okwesithathu	-7885
sokwahlulela	-7886
emikhawulweni	-7887
ngakuthandiyo	-7888
ungumprofethi	-7889
nenhlanganyelo	-7890
5:	-7891
Mu	-7892
Nq	-7893
Vu	-7894
Zi	-7895
ABA	-7896
Ama	-7897
Esi	-7898
Tar	-7899
ibi	-7900
ifu	-7901
ine	-7902
oza	-7903
sam	-7904
tra	-7905
uce	-7906
uza	-7907
zom	-7908
Amen	-7909
Emva	-7910
Epha	-7911
Faro	-7912
Jose	-7913
Lona	-7914
Mame	-7915
Niya	-7916
▁	-7917
a	-7918
¦	-7919
n	-7920
i	-7921
e	-7922
u	-7923
k	-7924
o	-7925
l	-7926
h	-7927
b	-7928
s	-7929
w	-7930
m	-7931
g	-7932
y	-7933
z	-7934
t	-7935
,	-7936
d	-7937
p	-7938
.	-7939
𐋇	-7940
f	-7941
N	-7942
:	-7943
r	-7944
;	-7945
j	-7946
“	-7947
q	-7948
c	-7949
K	-7950
v	-7951
”	-7952
J	-7953
-	-7954
?	-7955
x	-7956
U	-7957
B	-7958
M	-7959
A	-7960
W	-7961
S	-7962
‘	-7963
’	-7964
P	-7965
I	-7966
Y	-7967
L	-7968
E	-7969
𐊣	-7970
𐊼	-7971
F	-7972
O	-7973
G	-7974
!	-7975
T	-7976
H	-7977
D	-7978
—	-7979
Z	-7980
R	-7981
Q	-7982
2	-7983
1	-7984
V	-7985
3	-7986
5	-7987
X	-7988
6	-7989
4	-7990
7	-7991
8	-7992
9	-7993
C	-7994
'	-7995
0	-7996
