<pad>	0
</s>	0
<unk>	0
,	-2.69115
.	-3.66492
▁a	-3.73857
▁	-3.93219
i	-4.17349
m	-4.37765
▁v	-4.37915
a	-4.43696
▁se	-4.59516
▁z	-4.70732
▁s	-4.75597
u	-4.76845
r	-4.77675
▁na	-4.79619
e	-4.86899
o	-4.8744
▁k	-4.91696
:	-4.95712
▁A	-4.9583
v	-4.96235
í	-4.96498
s	-4.97933
▁po	-4.98834
l	-5.02288
ž	-5.06044
ch	-5.14493
k	-5.14914
z	-5.1511
t	-5.20251
á	-5.20872
p	-5.23777
d	-5.24382
▁i	-5.25167
y	-5.27648
h	-5.35483
te	-5.38313
li	-5.38426
ě	-5.39283
š	-5.40791
▁jeho	-5.41329
▁jest	-5.42915
;	-5.459
ní	-5.48374
▁u	-5.4888
▁do	-5.51489
ť	-5.54104
▁za	-5.57766
▁I	-5.57848
le	-5.60139
▁pak	-5.60245
▁že	-5.60653
▁od	-5.64308
ti	-5.69809
b	-5.70498
la	-5.71536
▁vy	-5.72907
▁Hospodin	-5.75937
ů	-5.76072
st	-5.76754
ou	-5.78029
▁o	-5.7869
▁při	-5.80912
na	-5.81275
▁jsem	-5.8615
▁by	-5.91828
j	-5.92683
é	-5.93063
ho	-5.93809
ce	-5.94657
?	-5.94929
il	-5.96908
n	-5.9772
▁ne	-5.97985
ni	-5.99045
to	-5.99788
▁p	-6.02208
ra	-6.02233
em	-6.03118
▁řekl	-6.04931
▁aby	-6.05741
č	-6.08242
ře	-6.08332
▁bude	-6.08953
ná	-6.12326
▁před	-6.12963
▁tak	-6.14454
lo	-6.16183
ně	-6.16619
ý	-6.1804
▁to	-6.18567
▁je	-6.2262
▁pro	-6.23301
▁byl	-6.24044
▁když	-6.26822
▁jejich	-6.27482
▁S	-6.28735
me	-6.30458
en	-6.32144
no	-6.32448
▁své	-6.34586
▁nebo	-6.35754
ovi	-6.36008
▁jako	-6.36337
▁kterýž	-6.36677
mu	-6.3793
▁kteříž	-6.38579
▁m	-6.39929
né	-6.41967
ka	-6.42004
ku	-6.43858
c	-6.4403
al	-6.46105
▁jsou	-6.47677
ří	-6.4897
▁mne	-6.50744
▁Nebo	-6.50846
▁roz	-6.5217
▁svého	-6.53054
▁b	-6.55475
ma	-6.55516
vá	-6.56801
▁ho	-6.57627
an	-6.58202
dě	-6.58244
ne	-6.58601
▁V	-6.5971
je	-6.62114
ko	-6.63447
▁d	-6.64069
nu	-6.65115
▁ale	-6.6582
▁lid	-6.65926
po	-6.68159
ř	-6.68981
že	-6.69031
ví	-6.69464
▁jim	-6.696
▁já	-6.6984
▁K	-6.70006
ové	-6.70594
tí	-6.70967
▁h	-6.71259
▁jsi	-6.71434
ci	-6.71766
▁Bůh	-6.71914
▁kteréž	-6.7252
▁proti	-6.7253
▁země	-6.73076
če	-6.74586
▁ob	-6.74941
da	-6.75183
tě	-6.7604
▁ve	-6.76387
el	-6.76964
▁jemu	-6.77
▁mi	-6.78027
mi	-6.78118
▁král	-6.78144
▁toho	-6.78315
▁zemi	-6.78638
ky	-6.7915
▁ty	-6.7941
lá	-6.80436
še	-6.80972
▁nad	-6.81197
▁také	-6.81541
▁má	-6.81958
ého	-6.82142
▁Ne	-6.82443
at	-6.82589
lé	-6.82716
▁ten	-6.85129
▁ji	-6.86363
ili	-6.86402
▁B	-6.86561
▁tobě	-6.86573
ší	-6.86794
▁budou	-6.869
ze	-6.86978
či	-6.87817
▁pod	-6.88014
za	-6.88343
▁jej	-6.88739
uje	-6.8937
ova	-6.90457
▁Tedy	-6.91048
▁tě	-6.91086
cí	-6.92631
▁tvé	-6.9367
lí	-6.94001
-	-6.9451
nou	-6.95223
▁až	-6.95569
ta	-6.95893
ný	-6.96674
▁byli	-6.97611
ím	-6.97909
▁Ale	-6.98155
▁vám	-6.98916
▁svou	-6.99688
ob	-6.99715
mo	-7.00369
▁domu	-7.0161
▁mé	-7.01909
▁Z	-7.02284
▁P	-7.02587
lu	-7.03315
jí	-7.04007
▁což	-7.04418
ad	-7.04506
ve	-7.04967
on	-7.05222
▁svých	-7.06014
▁J	-7.06704
ři	-7.06758
iáš	-7.08191
ech	-7.08507
▁M	-7.09192
▁vás	-7.09582
ru	-7.10169
prav	-7.10291
od	-7.11502
▁syn	-7.11994
▁Po	-7.12893
ň	-7.12895
vr	-7.13024
iti	-7.14046
de	-7.14096
or	-7.15637
▁sobě	-7.15902
▁O	-7.1613
oval	-7.17098
▁tu	-7.17358
▁Protož	-7.1783
▁David	-7.18308
▁D	-7.18527
dí	-7.18951
f	-7.19191
va	-7.19739
▁ani	-7.1988
ých	-7.20847
ly	-7.20918
▁H	-7.21251
ej	-7.21398
ení	-7.21601
▁bylo	-7.21687
▁Boha	-7.22154
▁dí	-7.22282
▁dne	-7.22778
▁pře	-7.2307
▁Je	-7.23436
mezi	-7.2344
▁pos	-7.23534
tá	-7.2379
▁dal	-7.24103
▁lidu	-7.24697
▁synů	-7.25419
▁praví	-7.25558
▁dá	-7.26217
▁jste	-7.26318
▁on	-7.26602
sa	-7.26884
▁těch	-7.30205
nost	-7.30231
▁všecky	-7.30417
▁můj	-7.3042
di	-7.31153
▁mluvil	-7.31792
ed	-7.31803
ost	-7.32545
▁Boží	-7.33019
ny	-7.3331
ův	-7.33492
ného	-7.35173
▁učinil	-7.35337
▁synové	-7.35492
▁tedy	-7.35605
▁E	-7.36062
▁den	-7.36523
ům	-7.37098
▁Hospodinu	-7.37196
ali	-7.37343
čí	-7.37365
dy	-7.37477
▁os	-7.37479
▁vz	-7.37672
▁všech	-7.37716
▁jeden	-7.385
▁obět	-7.38507
ry	-7.38787
dá	-7.3913
ud	-7.398
▁mně	-7.40219
▁ním	-7.40417
ští	-7.40641
▁krále	-7.4089
▁syna	-7.41681
▁všickni	-7.42157
▁kteráž	-7.42435
er	-7.4255
▁Ježíš	-7.42621
▁tr	-7.4264
▁pří	-7.43073
▁kdo	-7.44099
▁jsme	-7.44538
▁N	-7.44637
ách	-7.45043
▁pa	-7.4509
▁její	-7.45191
▁řka	-7.454
▁srdce	-7.47707
▁T	-7.47803
▁sta	-7.4807
▁Jo	-7.48465
▁všecko	-7.48588
skrze	-7.48645
▁svým	-7.49024
▁soud	-7.50497
val	-7.51059
ání	-7.51064
▁U	-7.51737
▁zajisté	-7.52042
▁aniž	-7.5222
▁t	-7.52403
▁služebník	-7.5288
▁něho	-7.53157
▁nám	-7.53374
▁(	-7.53582
)	-7.53737
▁nás	-7.54017
▁byla	-7.54311
ot	-7.549
▁jí	-7.5506
šel	-7.5562
br	-7.55688
▁Hospodina	-7.55787
▁té	-7.55887
it	-7.56201
▁tvůj	-7.56255
stav	-7.57007
▁mu	-7.57065
ám	-7.57339
ba	-7.57423
▁L	-7.57546
▁ro	-7.5755
▁R	-7.58025
▁Na	-7.58281
šli	-7.59438
koli	-7.59758
▁l	-7.59814
ují	-7.59874
▁Aj	-7.60076
ovati	-7.60584
▁pr	-7.61012
ď	-7.6136
▁co	-7.6141
as	-7.61516
ek	-7.61807
▁věci	-7.61874
es	-7.61923
▁ti	-7.62082
▁tebe	-7.62333
us	-7.62468
▁jich	-7.62904
▁není	-7.62992
osti	-7.63043
ha	-7.63702
▁budu	-7.6387
▁živ	-7.64174
▁nebude	-7.64387
▁sedm	-7.64812
g	-7.65079
▁svému	-7.65097
ných	-7.65232
▁nej	-7.65418
ské	-7.65489
▁kdož	-7.65509
▁nich	-7.66734
▁Ma	-7.67026
▁jakž	-7.67234
ád	-7.67255
▁tam	-7.67258
bil	-7.67983
▁města	-7.68067
ově	-7.68487
▁kterouž	-7.69165
▁Izrael	-7.6955
▁neb	-7.69918
▁Mojžíš	-7.70269
▁jméno	-7.70442
vý	-7.70511
▁každý	-7.70626
sti	-7.7113
▁boj	-7.72001
▁měl	-7.72463
ovali	-7.72474
▁více	-7.72534
ích	-7.72735
▁hřích	-7.7305
vše	-7.73312
tý	-7.74446
ská	-7.7485
ků	-7.75157
▁králi	-7.75169
▁nepo	-7.75447
▁bratří	-7.75528
▁prorok	-7.75531
kou	-7.75533
▁prostřed	-7.75722
bu	-7.76108
▁Když	-7.765
▁však	-7.76695
▁Pán	-7.76805
▁něm	-7.76932
▁Se	-7.77014
jde	-7.77127
ejte	-7.77434
án	-7.78007
▁již	-7.7805
▁pokoj	-7.78843
▁nes	-7.78913
▁budeš	-7.78924
▁vaše	-7.79315
▁pokolení	-7.7947
íš	-7.80059
dl	-7.8059
▁nez	-7.80668
▁nebe	-7.80691
▁ke	-7.80808
▁Bohu	-7.80887
▁Syn	-7.81389
▁tom	-7.81615
▁tomu	-7.8165
▁vol	-7.81948
▁Vy	-7.82419
▁aj	-7.83525
▁ta	-7.83778
sil	-7.83789
▁kněz	-7.84347
by	-7.84531
ši	-7.84578
▁sv	-7.8471
▁Kdo	-7.85062
▁nyní	-7.85703
▁protož	-7.85812
ložil	-7.86083
▁němu	-7.86156
ových	-7.86192
in	-7.86266
▁jenž	-7.86557
▁Tak	-7.86614
▁aneb	-7.86907
▁cest	-7.87148
▁Egypt	-7.87832
▁otce	-7.87871
stup	-7.8789
ó	-7.8807
ování	-7.88327
ských	-7.88462
ým	-7.88788
▁ní	-7.88811
ri	-7.89452
▁š	-7.89864
▁svět	-7.89866
▁dva	-7.90618
▁To	-7.90635
▁budete	-7.90655
▁modl	-7.90816
hu	-7.9127
▁abych	-7.91973
▁tvá	-7.92088
▁let	-7.92304
▁dům	-7.92418
ství	-7.92783
▁stalo	-7.93136
lad	-7.93454
▁ode	-7.93476
▁přišel	-7.93687
▁Saul	-7.9417
ovu	-7.94193
▁tři	-7.94328
▁Pro	-7.94642
▁ať	-7.94831
▁tebou	-7.94868
▁býti	-7.95106
ným	-7.95226
▁měst	-7.95341
▁člověk	-7.95349
▁mého	-7.95912
▁čas	-7.95914
▁neu	-7.95985
▁poslal	-7.96093
▁Já	-7.96442
▁všem	-7.96575
▁slovo	-7.96673
▁meč	-7.96691
▁Potom	-7.96769
▁ruku	-7.9677
▁oltář	-7.97241
▁ně	-7.97291
▁svůj	-7.97482
cích	-7.9783
▁ku	-7.97962
▁viděl	-7.97972
▁muži	-7.98008
áž	-7.98209
▁mnou	-7.98268
▁činil	-7.98452
▁Hospodinova	-7.98657
▁všecken	-7.98691
▁nev	-7.99136
▁ještě	-7.99183
▁nimi	-7.9932
▁tisíc	-7.99499
trh	-7.99665
▁království	-7.99671
vati	-7.99704
vé	-8.00057
▁úst	-8.00164
ský	-8.00264
▁řeč	-8.00455
dlé	-8.00488
▁Ch	-8.00952
▁jedn	-8.01067
ají	-8.01495
▁muž	-8.02346
▁díl	-8.02376
▁místo	-8.02667
▁syny	-8.0268
▁bez	-8.03985
bě	-8.04223
▁svá	-8.04548
ského	-8.04638
dělal	-8.04668
▁čeled	-8.04717
▁slou	-8.04821
▁Při	-8.04959
▁bratr	-8.04989
ami	-8.05042
▁Izraelský	-8.05205
▁vší	-8.05226
▁ruce	-8.05249
▁jakož	-8.05261
▁slova	-8.05618
ál	-8.05816
ním	-8.06137
▁proto	-8.06373
▁činí	-8.06591
▁zase	-8.06622
▁zem	-8.06952
str	-8.07351
▁vod	-8.07419
stal	-8.07533
▁Hospodine	-8.07604
▁mou	-8.07706
▁veliké	-8.07871
▁svém	-8.07904
▁Jákob	-8.08139
▁oni	-8.08207
uj	-8.08417
▁než	-8.08702
▁duch	-8.08967
ty	-8.08974
▁pravím	-8.09687
▁zá	-8.09875
nil	-8.10645
▁abyste	-8.10781
▁řekli	-8.10883
▁ze	-8.11164
▁hor	-8.11366
▁nepravost	-8.11412
▁kněží	-8.1168
▁dobré	-8.11772
táhl	-8.11823
bí	-8.11898
▁tvého	-8.12004
▁vyp	-8.12399
▁jak	-8.12743
▁vzal	-8.13131
pil	-8.13238
▁tvých	-8.1336
▁Od	-8.13769
▁oči	-8.13798
▁věky	-8.13947
▁Aron	-8.13948
▁těm	-8.13962
▁člověka	-8.14194
▁nic	-8.14333
▁všecka	-8.14779
▁Za	-8.15001
lož	-8.15171
▁muže	-8.15247
vedl	-8.16055
▁něj	-8.16291
mluv	-8.164
▁Kterýž	-8.16802
▁pán	-8.16869
▁noh	-8.16958
▁abys	-8.17214
▁vojsk	-8.17388
▁ž	-8.17478
▁buď	-8.18076
▁věc	-8.18252
jdou	-8.18307
tu	-8.19032
▁slyš	-8.1913
vali	-8.19135
▁veliký	-8.19765
▁oběti	-8.20241
▁spravedlnost	-8.20368
▁sám	-8.20444
▁svými	-8.20494
▁Zdaliž	-8.20727
▁toto	-8.20789
▁Izraelských	-8.20814
▁Žid	-8.20975
vy	-8.21075
pustil	-8.21291
dali	-8.21444
▁tvář	-8.21509
▁synům	-8.2169
▁Jeruzalém	-8.21807
▁sto	-8.22129
tra	-8.22305
▁jedno	-8.22665
stane	-8.22829
▁velmi	-8.2283
▁Ty	-8.23599
▁naše	-8.23679
▁přes	-8.2376
▁rukou	-8.2407
▁duše	-8.24072
▁moc	-8.2417
▁přikázal	-8.24697
▁sebe	-8.24779
▁hlas	-8.24806
▁jednoho	-8.24975
▁vůkol	-8.25013
fa	-8.25172
ujte	-8.26711
▁mužů	-8.27445
▁Jak	-8.27564
věděl	-8.2766
▁Izraelští	-8.27692
íce	-8.27771
▁dcer	-8.2786
▁dědictví	-8.27907
▁mých	-8.28477
kem	-8.28656
šla	-8.29067
▁zákon	-8.29273
▁Babylon	-8.29552
▁zástupů	-8.29853
▁nepřátel	-8.29884
▁očima	-8.30072
ec	-8.30488
liž	-8.3055
▁Šalomoun	-8.30552
▁Takto	-8.30606
▁ruky	-8.30896
▁dvě	-8.30906
ovým	-8.30965
▁tohoto	-8.31034
▁Izraele	-8.31081
▁domě	-8.31318
dal	-8.31342
▁Duch	-8.31578
mysl	-8.3202
▁též	-8.32577
▁šel	-8.32587
▁nim	-8.33008
▁žádného	-8.33031
▁anděl	-8.33275
▁slov	-8.33477
▁hněv	-8.3348
bychom	-8.33526
chází	-8.33615
▁jísti	-8.33732
ován	-8.3382
▁pět	-8.33835
▁zápal	-8.34308
▁přišli	-8.34624
▁Mojžíšovi	-8.34636
▁nebyl	-8.34792
▁vody	-8.35033
ďte	-8.35157
▁rad	-8.35316
▁milost	-8.35455
nější	-8.35543
ským	-8.35647
▁nádob	-8.35708
▁On	-8.35857
▁řkouce	-8.36061
íte	-8.36351
▁množství	-8.36772
▁Egyptské	-8.36804
▁Izraelské	-8.36954
▁odpověděl	-8.37129
▁tento	-8.37199
▁potom	-8.37221
▁hle	-8.37392
ovo	-8.38258
▁tím	-8.3827
jíti	-8.39152
▁svatý	-8.39682
▁Panovník	-8.40033
▁manžel	-8.40033
▁obyvatel	-8.40033
▁Jestliže	-8.41144
▁otců	-8.41146
▁vámi	-8.41312
▁Řekl	-8.42268
▁život	-8.43166
▁nevy	-8.43429
▁synu	-8.43548
cházel	-8.44171
▁stál	-8.44306
▁ženy	-8.44544
▁Odpověděl	-8.44553
▁milosrdenství	-8.44553
▁Me	-8.44653
ající	-8.44671
ovy	-8.44682
vají	-8.45198
▁Ti	-8.45223
▁Hospodinem	-8.45832
▁zlé	-8.45917
nesl	-8.46146
▁řek	-8.46395
▁Ta	-8.46551
▁mluví	-8.46581
▁Ach	-8.46823
▁míti	-8.46914
▁svaté	-8.46933
▁Hospodinovo	-8.47242
▁umřel	-8.47248
▁skr	-8.47278
▁město	-8.47367
volal	-8.47931
▁šest	-8.48181
▁bych	-8.48312
▁koli	-8.48485
▁dnů	-8.48492
▁první	-8.48494
▁Izraelským	-8.48952
▁knížata	-8.49265
ému	-8.49307
niž	-8.49335
▁nepři	-8.49369
▁Eli	-8.49519
dej	-8.49523
práv	-8.49595
▁Jeruzaléma	-8.49612
▁Abraham	-8.50099
▁Že	-8.50104
▁Bože	-8.50104
▁každého	-8.51574
▁Což	-8.51577
▁Jozef	-8.51743
▁bydlil	-8.51769
▁moře	-8.51779
pravil	-8.51973
edlé	-8.52717
▁Jeruzalémě	-8.52774
▁Kristu	-8.52992
▁života	-8.53026
▁naši	-8.53262
▁kdež	-8.53856
uji	-8.54019
▁Aby	-8.54416
▁národů	-8.54558
▁tvoji	-8.54683
▁všeho	-8.54715
▁chleb	-8.55119
▁hlav	-8.55206
▁měli	-8.55249
▁nežli	-8.55473
▁mohl	-8.55981
▁dar	-8.55996
▁my	-8.56031
▁jestliže	-8.56422
▁mnoho	-8.56844
▁vesel	-8.56855
▁slyšel	-8.57609
▁našeho	-8.57667
▁hned	-8.58171
▁času	-8.58417
ující	-8.5844
▁kteréhož	-8.58598
hne	-8.58674
▁této	-8.58855
▁byly	-8.58863
▁kníže	-8.59063
▁žádný	-8.59489
▁postav	-8.59491
▁mají	-8.59769
▁čist	-8.59982
▁vašich	-8.60063
▁hoře	-8.6041
▁tělo	-8.60689
▁Jozue	-8.60839
▁shromáždění	-8.60921
▁každé	-8.61024
▁způsob	-8.61294
▁druhé	-8.6148
▁hod	-8.61905
▁tváři	-8.61947
▁všeliké	-8.62098
▁vaši	-8.62121
▁moci	-8.62191
▁nebylo	-8.62295
▁silný	-8.62867
▁měsíce	-8.63073
▁spolu	-8.63139
▁spravedliv	-8.63352
▁prchlivost	-8.63598
▁Co	-8.63785
▁Do	-8.64371
▁příbyt	-8.64537
▁všechněm	-8.64548
▁stř	-8.64564
▁přijde	-8.6479
▁dnes	-8.64979
▁národ	-8.6498
věř	-8.65047
▁nep	-8.65262
krát	-8.65278
▁zplodil	-8.6548
▁věcí	-8.65686
▁svědectví	-8.65957
▁chrám	-8.65957
▁totiž	-8.65983
▁otec	-8.66453
▁Judské	-8.66454
▁Bet	-8.66562
▁léta	-8.6676
slyšel	-8.66816
▁rod	-8.67141
▁pln	-8.67395
▁bývá	-8.67402
▁tvým	-8.67407
▁tvou	-8.67408
▁ohně	-8.67418
▁neod	-8.67457
▁Hospodinův	-8.67675
▁Judský	-8.67895
▁Pane	-8.67898
▁Davidovi	-8.68662
▁mluviti	-8.68865
▁Izraelského	-8.69321
▁místě	-8.69355
▁Zákon	-8.69356
ber	-8.69405
▁zlého	-8.69752
▁Moáb	-8.6985
▁dcery	-8.70637
▁jedl	-8.70796
▁olej	-8.70823
▁moudrost	-8.70848
▁poušti	-8.70848
▁příčin	-8.70927
▁Ten	-8.70973
ajíce	-8.71262
▁těla	-8.71439
▁postavil	-8.71517
▁jiný	-8.71684
▁poněvadž	-8.71855
▁služebníci	-8.71855
▁dvanáct	-8.71855
▁kam	-8.71872
▁jiné	-8.72056
▁smrti	-8.72079
▁čtyři	-8.72267
▁Cha	-8.72273
▁jménu	-8.72363
▁Pročež	-8.72369
▁sebou	-8.72429
▁div	-8.72736
▁všelik	-8.73004
▁Synové	-8.73182
▁Proč	-8.73374
▁Jordán	-8.73386
▁národy	-8.73432
▁nechť	-8.73938
▁počal	-8.73989
▁Farao	-8.74419
▁vydá	-8.7448
▁oheň	-8.7494
▁srdci	-8.7494
▁ustanovení	-8.74941
▁starší	-8.74944
▁mlad	-8.75433
▁nedo	-8.75938
▁obětovati	-8.7619
jdu	-8.76247
▁krajin	-8.76519
▁dobyt	-8.76552
▁obětoval	-8.76615
▁Ježíše	-8.76868
▁kraloval	-8.77051
▁duši	-8.77055
▁Abi	-8.77068
▁Zdali	-8.77118
▁vrch	-8.77517
▁Pána	-8.77539
▁přikázaní	-8.77586
▁stánku	-8.77586
▁otci	-8.77608
vedu	-8.77663
▁lež	-8.78209
▁Pakli	-8.78664
▁navrátil	-8.7867
▁nichž	-8.78976
▁učiněn	-8.79208
▁hovad	-8.79306
▁lidem	-8.79708
▁rozum	-8.80223
▁Efraim	-8.80303
▁dokudž	-8.80304
▁padl	-8.80476
▁deset	-8.80856
▁jsa	-8.80884
ců	-8.81371
▁poškvrn	-8.81411
▁opět	-8.81412
▁noci	-8.81434
cího	-8.81822
▁prac	-8.8185
▁krev	-8.81972
▁váš	-8.82263
▁třetí	-8.82533
▁zástup	-8.82675
▁zjev	-8.82779
▁hlasu	-8.82924
▁jazyk	-8.83097
▁cizí	-8.83101
▁vidí	-8.83792
▁Kteříž	-8.84236
▁mým	-8.84248
▁vyvedl	-8.84292
rátil	-8.84529
▁Beniamin	-8.84811
▁němž	-8.84958
▁služebníků	-8.85141
ejský	-8.85149
▁loket	-8.85389
▁moji	-8.8539
▁vyšel	-8.85472
ýbrž	-8.85866
▁řkoucí	-8.85971
▁hory	-8.85975
▁ješto	-8.85986
ejské	-8.86158
▁brány	-8.86555
▁toliko	-8.86565
▁hrob	-8.86565
▁dobře	-8.86579
▁Božího	-8.86635
▁náš	-8.86692
▁chodí	-8.87737
▁vyvol	-8.88254
▁chodil	-8.88333
▁cel	-8.8857
▁straně	-8.88629
▁hlavu	-8.88922
▁knížat	-8.88963
▁městě	-8.89479
▁děv	-8.89506
▁smlouvu	-8.89532
▁mnohý	-8.89533
▁Petr	-8.89547
▁dny	-8.89606
ložen	-8.90053
▁oznámil	-8.90138
▁prosím	-8.90149
▁učiním	-8.90153
▁Toto	-8.90217
hub	-8.90466
▁stád	-8.90475
▁Judo	-8.90563
▁pozdvih	-8.90748
▁Sion	-8.90778
▁pís	-8.90819
▁cesty	-8.90965
▁padesát	-8.91978
▁slunce	-8.91978
▁královské	-8.91981
▁dříví	-8.92602
▁kamení	-8.92709
jdi	-8.93143
▁učedlník	-8.93225
▁činiti	-8.93225
romě	-8.9366
▁tisíců	-8.93691
▁Byl	-8.93812
▁hejtman	-8.93853
▁pokrm	-8.9387
▁nemá	-8.94159
▁smrt	-8.94256
▁odtud	-8.945
▁spasení	-8.94804
▁druhého	-8.94862
▁údolí	-8.95123
▁Bohem	-8.95123
▁stráž	-8.95126
stavěl	-8.95314
▁dává	-8.96
▁nov	-8.96193
▁přivedl	-8.96406
▁jména	-8.9641
▁vydal	-8.96714
▁nemohl	-8.97061
▁nalezl	-8.97078
▁vzav	-8.97147
▁večer	-8.97171
▁potok	-8.97386
▁oblíčej	-8.97712
▁Mluv	-8.97719
▁ohavnost	-8.9837
▁učiní	-8.98371
▁tato	-8.98558
▁Jeremiáš	-8.99033
▁druhý	-8.99033
▁ovoce	-8.99042
▁cestě	-8.99087
hledá	-8.99492
vodí	-8.99677
▁Roz	-8.99726
měř	-9.00422
▁prvé	-9.00517
▁Hospodinovy	-9.0093
▁roucho	-9.01046
▁místa	-9.01047
▁uděl	-9.01292
věřil	-9.01335
▁zlořeč	-9.01727
▁Amen	-9.01886
▁úmluvy	-9.02411
▁roucha	-9.02412
▁kterak	-9.02412
▁zlata	-9.02438
▁který	-9.02472
▁Samuel	-9.03101
▁Joáb	-9.03122
▁skop	-9.03153
▁pravé	-9.03222
▁rci	-9.0327
▁ruka	-9.03821
▁strany	-9.04186
▁sobot	-9.04501
▁národové	-9.04679
▁hojn	-9.05022
▁uzřel	-9.05203
▁bohů	-9.0591
▁Galád	-9.06622
▁ukázal	-9.06622
▁žádost	-9.06625
▁chléb	-9.07342
▁nebeské	-9.07365
▁Jan	-9.07538
▁hlad	-9.07783
▁ohni	-9.081
třel	-9.08451
▁nejvyšší	-9.08796
▁ustavičn	-9.08796
▁čtyřidceti	-9.09532
▁Všeck	-9.09532
▁znamení	-9.09532
▁oblak	-9.09816
!	-9.10272
▁Stalo	-9.10276
šedše	-9.10283
▁nemoc	-9.10345
▁obrátil	-9.10429
▁umře	-9.10458
▁Ezechiáš	-9.11019
▁troub	-9.11103
▁spravedlivý	-9.11415
▁které	-9.11918
▁vaší	-9.1194
▁Manasses	-9.12528
▁uzdrav	-9.12528
▁Izák	-9.12533
▁Slyš	-9.1263
▁stojí	-9.12785
staň	-9.12983
padl	-9.13231
▁navrátí	-9.14061
▁výsost	-9.14064
▁moři	-9.14087
bývají	-9.14095
▁noc	-9.14726
▁necha	-9.15196
▁koz	-9.15452
měl	-9.15452
▁Nebude	-9.15618
▁Ammon	-9.15619
▁ačkoli	-9.15644
▁neměl	-9.15899
▁věz	-9.16363
▁vnitř	-9.16405
▁naproti	-9.17198
▁povol	-9.17905
▁Filistinský	-9.17998
▁Krista	-9.17998
▁někteří	-9.17998
▁pomezí	-9.17999
▁chtěl	-9.1801
▁poznal	-9.1802
pálil	-9.18569
▁blázn	-9.18806
nebo	-9.18882
▁mnohé	-9.19618
▁dveří	-9.1962
▁strom	-9.19621
▁věčné	-9.19625
▁símě	-9.19658
sadil	-9.19755
▁svatyně	-9.20437
▁ráno	-9.2044
▁zůstal	-9.20448
▁rozděl	-9.20652
▁čem	-9.21251
▁porodila	-9.21264
▁posvěcen	-9.21264
▁potěš	-9.21477
▁slavn	-9.22155
▁krve	-9.22156
▁radost	-9.22625
▁lev	-9.22685
▁rozkázal	-9.22937
▁třidceti	-9.22937
▁dokonal	-9.2294
▁Otce	-9.22949
▁Muž	-9.23061
▁vinic	-9.23073
▁čtyř	-9.23946
▁seděl	-9.24537
▁dědičně	-9.2464
▁kterýchž	-9.24644
prost	-9.24852
▁učedlníci	-9.25502
▁všecku	-9.25502
▁mnozí	-9.25502
▁půjde	-9.25505
▁kterémž	-9.25511
▁utekl	-9.25518
▁Juda	-9.2552
▁žádné	-9.26102
▁strach	-9.26388
▁Poněvadž	-9.27248
▁bydliti	-9.2725
▁matky	-9.27251
▁píti	-9.27312
▁měsíc	-9.27362
▁chce	-9.27569
▁kol	-9.28101
▁obrátí	-9.28133
▁dnové	-9.28139
▁poklad	-9.28156
▁otcové	-9.29026
▁psáno	-9.29027
stoupí	-9.29028
▁uzří	-9.29069
▁zlato	-9.29123
▁pohr	-9.29323
▁bezbožný	-9.29927
▁všelijak	-9.29927
▁studnic	-9.29927
▁naplnil	-9.29927
▁říkají	-9.29935
▁ustanovil	-9.29946
▁Nechť	-9.29957
▁hrozn	-9.30088
káže	-9.30194
olikéž	-9.30837
▁dobrý	-9.30932
▁Absolon	-9.31754
mordoval	-9.31756
▁počtu	-9.3176
▁Otec	-9.31761
▁dřev	-9.31807
▁stran	-9.31985
statek	-9.31985
▁bezbožní	-9.3268
▁dvadceti	-9.3268
▁velikou	-9.32683
▁pravic	-9.32723
▁bydlí	-9.32743
▁zachová	-9.3297
▁loupež	-9.33614
▁nešlechetnost	-9.34567
▁Král	-9.34568
házejí	-9.34579
▁nazval	-9.34679
▁ran	-9.34717
děláš	-9.34892
▁stříbra	-9.3551
▁skutky	-9.3551
▁nepřítel	-9.3551
▁pročež	-9.35527
▁Levítů	-9.36472
▁Nyní	-9.36486
▁dvou	-9.36508
▁Pavel	-9.37443
▁větší	-9.37443
▁vidění	-9.37444
▁může	-9.37452
▁lodí	-9.38471
▁bran	-9.38823
▁Jeroboám	-9.39413
▁skutků	-9.39413
▁úrod	-9.39413
▁pastýř	-9.39414
▁nebudou	-9.39414
nobrž	-9.39421
▁sláva	-9.39423
▁podobenství	-9.40413
▁bolest	-9.40414
▁poušť	-9.40414
▁ovce	-9.40486
▁člověčí	-9.41423
▁říká	-9.41424
▁Ezau	-9.41431
▁Eliáš	-9.41457
▁evangelium	-9.42443
▁truhlu	-9.42443
▁východu	-9.42443
▁končin	-9.42444
▁čehož	-9.42444
▁umění	-9.42445
▁přijal	-9.42661
psal	-9.42788
▁odplat	-9.4348
kládá	-9.43482
▁vezme	-9.43492
▁vysvoboz	-9.44516
▁vždycky	-9.44516
cházeti	-9.44516
▁slávu	-9.44517
▁houf	-9.44532
▁Jezukrista	-9.45569
▁sedmdesát	-9.45569
▁pozůstal	-9.45569
stoupiv	-9.45569
▁zabit	-9.45741
▁ryb	-9.46058
▁Levítové	-9.46632
▁spatř	-9.46635
▁něco	-9.46638
▁Jakož	-9.46648
hledal	-9.47315
▁některé	-9.47708
▁předměstí	-9.47708
▁nečistý	-9.47708
▁vstoupil	-9.47708
▁opatr	-9.47708
▁stolici	-9.4771
▁nalezen	-9.47715
▁knize	-9.47734
▁bral	-9.4852
[	-9.48795
▁bohy	-9.48795
▁rychle	-9.48795
▁potřeb	-9.48799
▁Ruben	-9.49894
▁farize	-9.49894
▁sloužiti	-9.49896
▁Achab	-9.49917
jděte	-9.50053
Š	-9.51005
▁čtvrt	-9.51005
▁Samaří	-9.51005
▁desát	-9.51005
▁polovic	-9.51028
ázán	-9.52005
▁ostříhal	-9.52128
▁nemůže	-9.52128
▁zpěv	-9.52185
▁Jozafat	-9.53265
▁někdo	-9.53265
▁bráně	-9.53265
▁Žád	-9.53265
▁peníze	-9.53268
▁boha	-9.53277
▁žalm	-9.53281
▁konce	-9.53289
▁obraz	-9.53294
▁hledají	-9.53306
▁rovin	-9.53325
▁trůn	-9.53486
▁Všickni	-9.54414
▁Opět	-9.54414
▁Živ	-9.54414
▁navštív	-9.54416
▁nechtěl	-9.54416
▁krás	-9.5442
▁miluje	-9.54434
▁semene	-9.54469
rostl	-9.55109
▁apoštol	-9.55577
▁cherubín	-9.55577
▁jménem	-9.55577
▁lotů	-9.55579
▁porazil	-9.55581
▁prut	-9.55822
▁vzdělá	-9.5673
▁nešlechetn	-9.56741
▁Nabuchodonozor	-9.56753
▁půlnoci	-9.56753
▁ssoužení	-9.56753
▁Kananejské	-9.57944
▁zhřešil	-9.57944
▁Však	-9.57944
▁Nadto	-9.57956
▁nepro	-9.58012
▁trápení	-9.59149
▁Daniel	-9.59149
▁naplněn	-9.59149
▁východní	-9.59149
▁plakal	-9.59153
▁křídl	-9.59177
▁Filistinští	-9.60368
▁náramně	-9.60368
▁stříbro	-9.60368
▁kralovati	-9.60368
▁Kristov	-9.60369
▁červ	-9.60379
▁ramen	-9.60393
▁býval	-9.60401
▁odpovídaje	-9.61603
▁odpočinutí	-9.61603
▁přestoupení	-9.61603
▁půlnoční	-9.61603
▁zahanben	-9.61603
▁učiniti	-9.61603
převrácen	-9.61603
▁svobod	-9.61603
▁naději	-9.61604
▁Bude	-9.61622
▁ostříhati	-9.62853
▁sstoupil	-9.62853
▁tehdáž	-9.62853
▁poslední	-9.62853
▁nečisté	-9.62855
▁nevěst	-9.62861
▁kámen	-9.62865
▁bližního	-9.64118
▁prvorozené	-9.64118
▁vyhlazen	-9.64118
▁pustin	-9.64122
▁Běda	-9.64128
▁vykoná	-9.64135
▁kdyby	-9.6519
▁obrácen	-9.65401
▁přistoupil	-9.65401
pouštěj	-9.65401
▁polední	-9.65402
▁vítr	-9.65409
▁zvuk	-9.65445
▁Hebron	-9.66699
▁nenávidí	-9.66699
▁nenávisti	-9.66699
▁Šimon	-9.66699
▁moudrý	-9.667
▁miloval	-9.66881
1	-9.68015
▁hvězd	-9.68015
▁odpověděv	-9.68015
▁přebývá	-9.68015
▁přísahou	-9.68015
▁Faraonovi	-9.68016
▁doufá	-9.68018
▁chudý	-9.6802
vodil	-9.68021
▁cedr	-9.68031
volav	-9.68259
▁viděti	-9.6935
▁slávy	-9.69353
▁matka	-9.69355
▁podobné	-9.69487
▁vdov	-9.70512
▁Eleazar	-9.707
pomenul	-9.707
▁Jistě	-9.707
▁obyčej	-9.70701
▁očištěn	-9.70701
▁suchou	-9.70702
▁Léví	-9.70703
▁učiň	-9.70706
▁ostříhá	-9.7207
▁příchozí	-9.7207
▁ratolest	-9.7207
▁dlouho	-9.72071
▁královský	-9.72073
▁hříšn	-9.72079
▁korun	-9.72107
▁zabij	-9.72113
▁podstavk	-9.72202
Psal	-9.72385
pokoj	-9.72665
▁dobrořeč	-9.73458
▁ptactv	-9.73458
▁šedesát	-9.73458
▁zlaté	-9.7347
▁palác	-9.73795
▁Libán	-9.74867
▁přikázání	-9.74867
▁vysvobodil	-9.74867
pustím	-9.74869
▁rána	-9.74873
▁medle	-9.74877
▁smilstv	-9.74883
▁chudé	-9.749
▁Sélah	-9.76296
▁Tehdy	-9.76296
▁přisáhl	-9.76296
▁budiž	-9.76296
▁fík	-9.76318
▁smiln	-9.7644
▁mrtvé	-9.77745
▁Madian	-9.77746
▁uzřev	-9.77754
▁kázal	-9.77755
▁choditi	-9.79215
▁poledne	-9.79216
▁pamět	-9.79219
▁věčný	-9.7922
▁služeb	-9.80658
▁vysvobodí	-9.80708
▁pohostinu	-9.80708
▁veliká	-9.80708
▁Bethel	-9.8071
▁bezpečn	-9.82223
▁vespolek	-9.82223
▁úzkost	-9.82223
x	-9.82223
▁Abimelech	-9.82223
▁Blahoslaven	-9.82223
▁otevřel	-9.82223
▁pohanů	-9.82225
▁samého	-9.82226
▁Filistinské	-9.83762
▁myšlení	-9.83762
▁ďábel	-9.83762
bořil	-9.84059
▁Balám	-9.85327
▁Sedechiáš	-9.86911
▁shromáždí	-9.86911
▁zboží	-9.86911
▁místu	-9.86912
▁Sichem	-9.86912
▁Abner	-9.86915
cházející	-9.86917
Ž	-10.102
3	-10.1023
2	-10.1866
A	-10.2589
4	-10.328
J	-10.4431
5	-10.6543
8	-10.8472
T	-10.871
0	-10.8907
P	-10.9165
9	-10.9838
6	-11.0338
M	-11.0667
S	-11.1811
7	-11.2008
E	-11.6329
V	-11.844
I	-11.8441
N	-11.9687
Z	-12.2786
D	-12.2786
O	-12.2786
R	-13.062
L	-13.062
#	-14.58
Ď	-14.5801
Ú	-14.5802
]	-14.5803
Ó	-14.5804
Č	-14.5805
Ř	-14.5806
(	-14.5807
U	-14.5808
F	-14.5809
G	-14.581
C	-14.5811
ú	-14.5812
K	-14.5813
B	-14.5814
Ý	-14.5815
H	-14.5815
Í	-14.5815
