<pad>	0
</s>	0
<unk>	0
¦	-1.51088
▁¦	-1.53202
▁်	-2.2291
င	-3.53946
▁့	-3.81339
ည	-4.14429
း	-4.33215
▁့်	-4.45755
သ	-4.51057
ကို	-4.588
▁၊	-4.71498
တော	-4.87932
က	-4.91319
တို	-5.10181
စ	-5.13428
▁၏။	-5.18115
အ	-5.21976
နှ	-5.33603
သော	-5.39334
▁	-5.46396
မည	-5.54626
▁်၊	-5.56274
တ	-5.59452
န	-5.65255
ောင	-5.66058
▁။	-5.66159
သို	-5.66988
မ	-5.68518
သင	-5.68602
ခြ	-5.73341
္	-5.82798
ကြ	-5.83145
ဖြ	-5.8764
ငါ	-5.87976
ယ	-5.92323
▁်။	-5.94538
▁၍	-6.05741
လည	-6.08178
ပ	-6.14971
ရ	-6.1711
မူ	-6.1736
▁၏	-6.18569
မြို	-6.29484
▁်၌	-6.31635
သူတို	-6.33025
စေ	-6.34631
ဘုရား	-6.36077
ဟု	-6.40677
သခ	-6.44347
သူ	-6.45185
ောက	-6.47988
ဆ	-6.49066
▁်၏	-6.49214
▁၌	-6.49278
ကိုယ	-6.50936
ရှင	-6.53666
၎	-6.55993
ုပ	-6.56043
ပြည	-6.60225
လိမ	-6.65944
ထို	-6.68559
ဉ	-6.69332
မြ	-6.73164
တည	-6.75136
▁၍၊	-6.752
လျ	-6.75523
းကို	-6.75588
အား	-6.77155
ထာဝရဘုရား	-6.77905
မှာ	-6.79675
မိန	-6.80116
သား	-6.81005
လျှ	-6.83563
နေ	-6.86676
ရှိ	-6.88708
လက	-6.9121
တွ	-6.92121
▁်၍၊	-6.92884
▁့။	-6.93056
▁့်၊	-6.93897
လေ	-6.96019
မှ	-6.99072
အဘယ	-7.00763
ပါ	-7.00864
ဇ	-7.0088
▁်၏။	-7.02472
လော	-7.03139
အကျွန	-7.06029
းငှါ	-7.06234
အကြော	-7.06306
ိမ	-7.0631
ချ	-7.07527
းတို	-7.07704
ရာ	-7.09151
လ	-7.09307
မင	-7.09674
တတ	-7.10656
ရောက	-7.14119
လင	-7.17923
ပြု	-7.19148
တိုင	-7.21152
ထ	-7.21537
ပြစ	-7.2172
ရှေ	-7.2334
သန	-7.2402
ကား	-7.24274
သွား	-7.27771
နို	-7.28451
ုတ	-7.31523
ပေါ	-7.33089
ငါတို	-7.3578
ပြ	-7.35878
အပေါ	-7.36657
ဘုရ	-7.37609
ကျွန	-7.38755
းသော	-7.40509
ိတ	-7.41132
ကြော	-7.41427
ရပ	-7.41564
လူ	-7.41782
ဖန	-7.41975
အသက	-7.42059
▁့၊	-7.43805
ကဲ	-7.44093
ပေး	-7.44122
▁့၏	-7.45894
သောသူ	-7.46104
သောအခါ	-7.46285
ဆို	-7.47368
မိမိ	-7.47797
ပြန	-7.47802
စိတ	-7.49232
သာ	-7.49359
လာ	-7.53036
ထွ	-7.53346
ငါသ	-7.57366
သဖြ	-7.57898
ထော	-7.60837
ဝ	-7.60911
မူသ	-7.62585
ဒ	-7.62863
သက	-7.63753
ုန	-7.65618
မူသော	-7.6698
ကြလော	-7.67027
ဆော	-7.68594
လိုက	-7.69448
ဘက	-7.69882
များ	-7.69909
လုပ	-7.69918
ထား	-7.71361
ကျ	-7.71432
သေ	-7.73016
ရှိသော	-7.74893
ခံ	-7.76992
ထိုသို	-7.77727
ခေါ	-7.78189
ဤ	-7.78897
းကင	-7.79507
အတို	-7.79705
နား	-7.79864
ထာဝရဘုရားသ	-7.8005
ဗ	-7.80111
မို	-7.81148
အမျိုး	-7.81267
တု	-7.81458
မျ	-7.81593
အစ	-7.82911
တန	-7.82966
သတ	-7.83143
စစ	-7.85187
စီရ	-7.85204
လှ	-7.85764
လွှတ	-7.86
ခ	-7.86491
ရေ	-7.8681
ယောက	-7.86914
းတော	-7.8755
အားဖြ	-7.87632
တရား	-7.87668
သူသ	-7.90626
စာ	-7.91018
တောင	-7.91457
ဝတ	-7.92454
လူတို	-7.92914
လုံး	-7.93339
ပတ	-7.94125
ခဲ	-7.95582
အဘို	-7.95935
စား	-7.95989
ပြော	-7.96334
သားတို	-7.97223
မဟု	-7.97869
ဥ	-7.99331
ပူဇော	-8.00266
ထက	-8.00284
အမျိုးသား	-8.0043
အမှု	-8.01311
ဂု	-8.03101
များကို	-8.03207
စကား	-8.03898
ဟ	-8.04683
အာ	-8.05726
ဒါဝိဒ	-8.06284
ထံ	-8.06896
းမ	-8.06936
ယူ	-8.07041
တပ	-8.07299
သိမ	-8.0737
လွ	-8.07497
ပြီးမှ	-8.07527
မတ	-8.0838
ပြီ	-8.09325
ဏ	-8.0968
စကားကို	-8.09909
▁့်။	-8.10179
မုန	-8.10277
ကာလ	-8.10722
ထိုအခါ	-8.10852
ကယ	-8.12356
းနှ	-8.12998
ဘဲ	-8.14097
တင	-8.14136
ရှ	-8.1435
ရန	-8.15817
ွန	-8.16618
းမူကား	-8.1722
တယောက	-8.17384
တွေ	-8.17425
ဘ	-8.17695
အဘ	-8.17748
ဘို	-8.18079
ရကြ	-8.18678
ပုရောဟ	-8.19052
သောသူတို	-8.19178
ရှိသမျှ	-8.19404
အပ	-8.19687
ှင	-8.20582
လမ	-8.20626
ကြွ	-8.21021
ာ	-8.21436
သောကြ	-8.23061
ပျ	-8.23214
ိပ	-8.23358
မေ	-8.24434
ိန	-8.25632
မိ	-8.25881
အံ	-8.26776
သိ	-8.26962
မြောက	-8.27016
နာ	-8.27042
အော	-8.27211
လယ	-8.27709
ဃ	-8.27987
ရက	-8.28929
းကြီး	-8.29057
ဘော	-8.29093
တိုက	-8.29101
သောသူသ	-8.2977
ရှု	-8.29829
မြေ	-8.30606
ကာ	-8.30609
ခံရ	-8.30616
ရှာ	-8.30713
ံ	-8.31251
အတူ	-8.31663
အို	-8.31821
အဲ	-8.32654
ိုင	-8.33181
မက	-8.3362
ရသော	-8.33699
ကြောက	-8.33908
မရှိ	-8.34654
ရှိသ	-8.34946
ဣသရေလ	-8.35399
ကြား	-8.35654
မာ	-8.36102
ကော	-8.36309
ယေရုရှ	-8.36718
အခွ	-8.36752
ဣသရေလအမျိုး	-8.371
ထာဝရ	-8.37595
ကြီး	-8.37756
မူပါ	-8.3791
အရာ	-8.38662
အလွ	-8.40602
စုံ	-8.40692
ဖျ	-8.41153
စရာ	-8.41276
ငံ	-8.41481
းဟု	-8.41802
တာ	-8.42766
ထဲက	-8.4376
ဝမ	-8.43811
ကျောက	-8.44194
ဧ	-8.44353
းသို	-8.44492
အချ	-8.44686
ဲ	-8.45093
စပ	-8.45635
မှစ	-8.45735
သစ	-8.45903
စွာ	-8.45988
ျက	-8.47139
ပလ	-8.47252
တကွ	-8.47265
ရိုက	-8.47272
သုံး	-8.47372
စီး	-8.47667
မြေကြီး	-8.47737
ဝိညာ	-8.47861
မှီ	-8.49202
ချက	-8.49402
နှာ	-8.49764
ဆက	-8.49772
မှတ	-8.4984
ယုဒ	-8.50522
မှန	-8.50796
ဣသရေလအမျိုးသား	-8.50971
ခန	-8.51651
ပြီးလျ	-8.5199
သကဲ	-8.52059
ထိုသူ	-8.52981
ခုန	-8.53409
းခြ	-8.53523
ခြေ	-8.55012
ဆီး	-8.55141
မူကား	-8.55374
းသ	-8.55798
ထဲ	-8.56028
ပရောဖ	-8.56239
းဟူသော	-8.56299
နေရာ	-8.56351
လူများ	-8.56606
အတွ	-8.57
ယခု	-8.57139
အမှုကို	-8.57207
ြိမ	-8.57826
ပည	-8.57886
မျှ	-8.58245
ဝန	-8.58309
အချိ	-8.59222
ခရ	-8.59567
တံခါး	-8.59685
တိ	-8.59922
ထုတ	-8.60128
ဗို	-8.60323
နာမ	-8.62198
ကျေးဇူး	-8.63055
မီးရှို	-8.63238
ပန	-8.63734
တမန	-8.64042
အရ	-8.65728
ွတ	-8.65929
ရှိကြ	-8.66585
ူ	-8.66758
ဟော	-8.66787
ဆာ	-8.67724
နှလုံး	-8.6817
အမျ	-8.69952
ပိုင	-8.70196
မိမိတို	-8.7039
ချစ	-8.70466
ဟူ	-8.70702
နန	-8.70909
ယော	-8.71485
ရွှေ	-8.71805
ယုံကြ	-8.72118
ျား	-8.72849
စွန	-8.73268
လေး	-8.73329
ခိုး	-8.73957
ရိ	-8.74997
းစေ	-8.7646
သမီး	-8.76561
ဘေး	-8.76693
ရှောက	-8.76705
ဖ	-8.76762
ကြပြီ	-8.77499
မူပြီ	-8.77539
နေသော	-8.78088
နေကြ	-8.78194
လူမျိုး	-8.78692
ိမာန	-8.78927
းရှိ	-8.79243
ကျိ	-8.79439
ရှား	-8.79774
အခါ	-8.80855
ီအစ	-8.81098
ပြုသော	-8.81198
ကြပါ	-8.81283
ကွယ	-8.82322
နက	-8.82454
မီး	-8.83032
မယား	-8.83156
ခို	-8.83361
ဦး	-8.8454
ထိုကြ	-8.84587
အမိန	-8.84811
ညှ	-8.85971
ဟူမူကား	-8.86438
အမြ	-8.86489
ွယ	-8.86661
ဒုစ	-8.86978
းဖြ	-8.87055
ဘွား	-8.87325
ခံရသော	-8.88097
ရွာ	-8.8913
လျှော	-8.89232
ရှက	-8.89374
အန	-8.89861
ဝပ	-8.90173
မသိ	-8.91364
ယာကု	-8.91509
ထိုန	-8.91605
ပစ	-8.92595
ယာ	-8.92774
မောရှေ	-8.92814
ချီးမွ	-8.93104
အလို	-8.93222
လျော	-8.9378
ဘု	-8.93786
ဘွ	-8.94244
ခပ	-8.94437
ထာဝရဘုရားကို	-8.95198
နွား	-8.95239
ငွေ	-8.95587
သမျှ	-8.97581
သံ	-8.97711
ပညာ	-8.9821
မြော	-8.98503
သွားကြ	-8.98522
ဩ	-8.98735
စိ	-8.99321
ရလိမ	-8.99442
းကြ	-8.99446
ရွံ	-9.0024
မဲ	-9.00334
ဖွဲ	-9.00536
သလော	-9.00767
များတို	-9.01019
ဟောပြော	-9.01153
ပြေး	-9.02778
အာရု	-9.02949
မစ	-9.0322
အကျ	-9.03322
ကျမ	-9.03579
လူအပေါ	-9.03597
ိ	-9.03691
သွ	-9.03864
ျစ	-9.03937
ရဲ	-9.04016
းချ	-9.04051
ညီ	-9.04269
ပရိသတ	-9.04718
လန	-9.04833
တူ	-9.052
ရွက	-9.05516
ကြံ	-9.05593
ယနေ	-9.05624
ပျော	-9.06035
ကန	-9.06283
းရဲ	-9.06698
ု	-9.06718
းဆဲ	-9.06854
အခြားသော	-9.07858
နိ	-9.07933
မေး	-9.08774
ို	-9.09484
ပို	-9.10417
အရှ	-9.10719
ွမ	-9.10818
ထိုင	-9.1096
တပါး	-9.11363
လဲ	-9.1173
ချိုင	-9.12653
ရစ	-9.12983
▁?????????	-9.13112
အချို	-9.1337
ပြုကြ	-9.13422
ရော	-9.13843
ထိုအ	-9.14668
ဂ	-9.14816
ဆာန	-9.15009
မျိုး	-9.15195
သီး	-9.15528
စာကို	-9.15889
အသရေ	-9.16226
ရုပ	-9.1664
ယေ	-9.1697
ပြောဆို	-9.17732
ဆီ	-9.17915
သဘော	-9.18129
တိရစ	-9.18199
ထိုသူသ	-9.18604
တရားကို	-9.19019
နေရ	-9.19252
ချီ	-9.19499
ဒန	-9.196
ပြား	-9.19613
ရှိရာ	-9.19642
ဖိလိ	-9.20028
ဆုတော	-9.20238
တမ	-9.205
တဲတော	-9.20858
ဓမ	-9.21552
တက	-9.22346
ကျန	-9.23328
ချမ	-9.2341
သူမျှ	-9.23633
ဆိုကြ	-9.2381
ပါပြီ	-9.23948
မုတ	-9.24339
သူတပါး	-9.24712
လတံ	-9.2473
အမြဲ	-9.24987
ထဲမှာ	-9.25031
ပါသ	-9.25096
ေ	-9.25228
ခမ	-9.25343
းလျ	-9.26227
ထမ	-9.2627
နားမ	-9.26272
မမူ	-9.26345
ရိုး	-9.2636
အဆွေအမျိုး	-9.26874
မော	-9.2751
ပွဲ	-9.27756
းရ	-9.28474
မူလျှ	-9.28783
ဟာ	-9.29079
ဗာဗုလု	-9.29849
ပေ	-9.29924
ခါ	-9.3002
ထားတော	-9.30199
လာကြ	-9.30232
ဂလာ	-9.30313
ဆိုသ	-9.30314
မခံ	-9.30876
ရှောလု	-9.31063
အကြံ	-9.31224
ဂါ	-9.31237
ဇာ	-9.31375
အညီ	-9.31594
တပါးအမျိုးသား	-9.31767
သမျှသော	-9.31894
ဗေ	-9.32028
ပါစေ	-9.32442
မိမိအ	-9.32784
ုံ	-9.33692
ခတ	-9.33745
လို	-9.34386
ထိ	-9.34728
ပုံ	-9.34814
ဆုံးမ	-9.35884
နယ	-9.35942
မှား	-9.36113
ပဋိညာ	-9.36614
မပြု	-9.36743
းကပ	-9.371
ကျော	-9.37234
သားတော	-9.37812
ရံ	-9.37829
တဆ	-9.37972
သောငှါ	-9.38003
ယောသ	-9.38295
ပြီဟု	-9.3833
ငြ	-9.38377
ဆိုး	-9.38468
အထံ	-9.38603
နံ	-9.38631
းတူ	-9.388
စော	-9.38885
အကျိုး	-9.38991
အလုံးစုံ	-9.40366
းယူ	-9.40382
စပါး	-9.41078
စိမ	-9.41124
ရှောလမုန	-9.41142
ဘဲနေ	-9.41442
ဘိုးဘေး	-9.41611
ာဏ	-9.41619
ထာဝရဘုရားက	-9.41825
ခွန	-9.4214
ထားသော	-9.42157
စု	-9.42507
ငါနှ	-9.42571
ဗျာဒိ	-9.42687
စွဲ	-9.43092
ရှိပါ	-9.43173
ခံရကြ	-9.43297
မှာထား	-9.43695
ခွ	-9.43983
ယေရှုသ	-9.43988
သေတ	-9.44003
ပြီး	-9.4424
နားမှာ	-9.44391
သေး	-9.44398
သားကို	-9.44626
ထာဝရဘုရားအား	-9.44717
ဖုံး	-9.45466
လွှဲ	-9.45472
သနား	-9.45557
ဖွ	-9.45638
ဣ	-9.4571
လု	-9.46201
စိုး	-9.4638
-	-9.46679
ဆိုသော	-9.46709
အမွေ	-9.4683
အရာတို	-9.47004
ချီးမြှ	-9.47088
ယေရှုခ	-9.47155
းရာ	-9.47388
ရွေး	-9.47395
မတရားသော	-9.47425
ီချ	-9.47872
ကရုဏာ	-9.47909
အရာကို	-9.47926
းအ	-9.48088
ဘူး	-9.481
သေခံ	-9.48252
ရွှ	-9.48732
အာဗြဟံ	-9.48737
အကြ	-9.48892
းစွာ	-9.48955
ပွ	-9.49397
သူရဲ	-9.49451
ဗာ	-9.49776
မြွ	-9.49997
ခြေအ	-9.50087
ချော	-9.50379
ရာယ	-9.50649
ငိုကြွေး	-9.50838
ယောရှု	-9.50908
ေလ	-9.51112
ေခြ	-9.51264
စီ	-9.51587
သောသူကို	-9.51887
ယေရှုက	-9.51912
ထပ	-9.52095
းမရှိ	-9.5221
ရာအရ	-9.52286
တကား	-9.52538
နတ	-9.52821
ဗက	-9.53086
ယုဒလူ	-9.53105
အာမ	-9.53156
ပေါက	-9.53824
ဆုံး	-9.54083
မေးလျှ	-9.54098
သူအပေါ	-9.54245
တကော	-9.54314
ထူး	-9.54595
ရေတွ	-9.54803
▁့၍၊	-9.55177
အလျ	-9.55315
မမြ	-9.5536
ရပါ	-9.55936
အသီးအသီး	-9.56076
းပေါ	-9.56117
သောအရာ	-9.57025
ရှော	-9.57168
ဥယျ	-9.5759
သိတ	-9.57618
ဟုဆို	-9.58165
အခြား	-9.58733
ဆွဲ	-9.58789
ဂလာရှိ	-9.59045
းသာ	-9.59097
ဇေ	-9.59522
ရိတ	-9.59856
ဧဖရ	-9.6018
တဲ	-9.60297
▁?????	-9.6039
ဤသူ	-9.60471
ဍာ	-9.60647
လေပြီ	-9.60746
သောအမှု	-9.60761
နှံ	-9.60905
အက	-9.61345
သားသမီး	-9.61381
အနာ	-9.61451
သောအရ	-9.61537
ကိုမျှ	-9.61571
အိုထာဝရဘုရား	-9.62005
ယေရှု	-9.62473
အမျိုးအနွ	-9.62592
ပြုရ	-9.62784
းငှာ	-9.62852
းသွား	-9.63038
ဟေ	-9.63085
သားကား	-9.6371
နံန	-9.639
ကြားလျှ	-9.63947
ပေတရု	-9.63981
ရှိသမျှကို	-9.64144
ထိုက	-9.64161
များစွာသော	-9.64393
ငါပေး	-9.6509
မထ	-9.65215
ဘမ	-9.65849
အမိ	-9.65875
မောဘ	-9.65986
လူသ	-9.66098
သူဖြ	-9.66414
လုယူ	-9.66469
မပြတ	-9.66733
ပုန	-9.66969
ဗာလ	-9.67159
းကြီးပေး	-9.67302
ပျို	-9.67501
းလွ	-9.67563
ပါသော	-9.6774
အသံ	-9.67744
အဆ	-9.67813
ရေကို	-9.67897
မရ	-9.68005
ဘုံ	-9.68021
အလိုရှိ	-9.6819
ကြိုး	-9.68507
ီ	-9.68698
လောက	-9.68842
းအရာ	-9.68935
ကြီးသော	-9.69014
အရှေ	-9.69155
မွေ	-9.69317
ဗော	-9.69388
သောနေ	-9.69529
းဝေး	-9.69553
းတွ	-9.69942
ခွဲ	-9.69993
မှူး	-9.70053
းလေ	-9.70739
လိ	-9.70772
အသွေး	-9.70912
တခု	-9.71042
တေ	-9.71132
ဝေး	-9.71134
ွ	-9.71441
မှတပါး	-9.71621
တစုံတ	-9.71651
သုံးဆ	-9.72344
စေသော	-9.72476
ကြသ	-9.72963
ယောဟန	-9.731
လာသ	-9.73371
ငှက	-9.73497
ဆုံးသော	-9.73611
ဝေ	-9.73667
ဇိ	-9.73888
စာရ	-9.74067
ဒိ	-9.74286
များပြား	-9.74293
လွှမ	-9.74297
တိလူ	-9.74559
ပြုလျှ	-9.74691
လုံးကို	-9.74775
အမျိုးမျိုး	-9.74779
ရွေ	-9.74877
ထိုနေ	-9.75059
လောဟု	-9.75158
မောရှေအား	-9.7522
ပါဟု	-9.75332
ဌာန	-9.75802
ဒါ	-9.75888
ပညာရှိ	-9.75955
ထမြောက	-9.76258
အကြီး	-9.76294
ဘုရားသ	-9.76547
လုလ	-9.7665
သားအပေါ	-9.7693
ပါစေသော	-9.76963
ရေးထား	-9.77009
မောရှေသ	-9.77233
ပြုစု	-9.77371
မပြော	-9.7827
ကပ	-9.78311
တရာ	-9.78636
ရထား	-9.79019
ဟူသော	-9.79129
ထိုမှတပါး	-9.79247
ကြားပြော	-9.7932
ယာမိန	-9.79379
ဆရာ	-9.79672
▁့်၍၊	-9.79677
ကြီးစွာသော	-9.79678
ဤအရ	-9.79775
းသက	-9.79807
ှုတ	-9.79886
ကြားရ	-9.80048
လောကီ	-9.80254
သားဖြ	-9.80553
းအားဖြ	-9.80729
သူနှ	-9.80902
လာသော	-9.80921
းလော	-9.80954
တံပိုး	-9.81394
ထိုကာလ	-9.81505
တစုံတခု	-9.8177
အသေ	-9.81844
းစာ	-9.82139
မြေပေါ	-9.82293
းလျှ	-9.8237
ပု	-9.82487
ကု	-9.82673
ဤအမှု	-9.8269
ထိုအရ	-9.83096
ယုဒရှ	-9.83098
ဝှ	-9.8322
ပေါလု	-9.83323
ငှါ	-9.83713
မနေ	-9.83772
ဆိုရ	-9.83972
▁????????????	-9.84038
အမှုအရာ	-9.84319
တရားတော	-9.84385
ကြွလာ	-9.84417
ထိုသူကို	-9.84746
အသီး	-9.84946
သံကို	-9.8505
မုသာ	-9.85517
ကူး	-9.8562
းဝေးရာ	-9.85723
အစရှိသော	-9.8587
တုံ	-9.86046
တံ	-9.87134
ွေးကြော	-9.8718
ဝို	-9.87887
နှိုးဆော	-9.87941
မိဿဟာယ	-9.87941
ဥပု	-9.87988
ကြိုးစား	-9.88042
မှာထားတော	-9.88131
ကြေးဝါ	-9.88559
ချိုး	-9.88834
းမသ	-9.88926
သိုးသ	-9.89027
အမွေခံ	-9.89057
ယောရှ	-9.89596
နှာကို	-9.89663
းမှ	-9.89679
မဖြ	-9.89755
ဇိအုန	-9.89805
ကိုခေါ	-9.89947
ွေ	-9.89961
ခဏာ	-9.90455
ဆေး	-9.90701
စိုးရ	-9.90837
ဖြေရာ	-9.90882
ကျေးဇူးပြု	-9.91232
သတိ	-9.91579
ရှိစေ	-9.91737
ဗတ	-9.91766
ခါး	-9.92101
နီး	-9.92148
စုဝေး	-9.92307
ဆီသို	-9.92436
မေတ	-9.92437
ကျို	-9.92626
းထဲ	-9.9269
မပေး	-9.92798
းသောသူ	-9.92992
အမှီပြု	-9.93003
စက	-9.93065
စားရ	-9.93087
ရှစ	-9.93201
ဆိုလေ	-9.9337
အကျိုးကို	-9.93457
ဖြေ	-9.93615
ပြတော	-9.93641
ဂတိ	-9.93642
မွေး	-9.94136
ပြီးသော	-9.94433
အလိုငှါ	-9.94965
ခုတ	-9.95145
းများ	-9.95236
စားစရာ	-9.95378
ပြုပြ	-9.95533
မိဘ	-9.95792
ဂြို	-9.96288
ယုံ	-9.96518
ဝါကြွား	-9.96951
ယေရမိ	-9.96951
မှုတ	-9.96978
မရှိဘဲ	-9.97164
ဤသို	-9.97315
ဂေ	-9.97625
အားကြီး	-9.97913
သလောဟု	-9.9792
ဘူးသော	-9.97997
းကား	-9.98057
ကိ	-9.98298
ထားကြ	-9.983
အသံကို	-9.98356
းကြီးသ	-9.9889
ထုံး	-9.98994
ဖလား	-9.99003
အားကြီးသော	-9.99177
ရေး	-9.99617
မူပါဟု	-9.99797
ဋ	-10.0038
ဆဲ	-10.0046
စိုက	-10.0087
အဆွေ	-10.0099
ဂိလဒ	-10.0108
ဧဒုံ	-10.0108
မေးမ	-10.0108
လူသား	-10.0129
သွားသော	-10.0161
ကိုယူ	-10.0193
?????????	-10.0208
နီ	-10.021
ကျူး	-10.0213
းတိမ	-10.0218
တံခါးဝ	-10.0282
ပြို	-10.0303
အထဲ	-10.0334
ဣသ	-10.0343
သောအရာကို	-10.035
ပူ	-10.0374
ိမိတ	-10.0385
ရသောအခွ	-10.0396
ဒုက	-10.042
လေဝိသားတို	-10.0447
သိကြ	-10.0452
စုံစ	-10.0507
းကျ	-10.0521
ဖတ	-10.0523
ညှိုး	-10.0538
ငါးဆ	-10.0551
ပါလော	-10.0564
????????????????	-10.0573
သမား	-10.058
ချေ	-10.0625
တိတ	-10.0661
ပြောသော	-10.0677
မရှိသော	-10.0708
ြန	-10.0715
မာန	-10.0724
ွက	-10.0738
အလုံးအရ	-10.076
ဖူး	-10.0762
ထိုအမှု	-10.0765
အိုး	-10.0766
မကျ	-10.0777
ခု	-10.0778
သားရဲ	-10.0779
ကျွေး	-10.0787
သိမြ	-10.0791
ဝက	-10.0803
အာရှုရိ	-10.0803
စုံလ	-10.0808
ရာသို	-10.0851
ကြဲ	-10.0854
ကွ	-10.0891
ဒေ	-10.0893
ကျေးဇူးကို	-10.0894
မှားယွ	-10.0911
မဝ	-10.0929
တဝါ	-10.0944
အနားမှာ	-10.0961
ဧလိ	-10.0964
ကြံစ	-10.0973
ကွဲ	-10.0988
ကျပ	-10.0989
ပေးသော	-10.1025
းဝ	-10.1036
ရု	-10.104
ကွဲပြား	-10.1065
ဣဇာ	-10.1066
အများ	-10.1075
ဣသရေလလူ	-10.1094
အနံ	-10.1114
အဟိ	-10.1135
းနှီး	-10.1142
နဲ	-10.1148
းမတို	-10.1169
ရှုတ	-10.1182
မပျ	-10.1195
ကွာ	-10.1223
ကြီးမြ	-10.1236
သောအမှုကို	-10.1284
သွားလော	-10.1284
ဦးမည	-10.1284
ခါနာန	-10.1299
ဆီးတား	-10.1299
ရိပ	-10.1307
ချို	-10.1309
အသွေးကို	-10.1329
ဣသရေလအမျိုးကို	-10.1334
မသွား	-10.1376
းရာဌာန	-10.1376
ယွာဘ	-10.1378
ဖါရော	-10.1378
ခဏ	-10.1404
ဥပဒ	-10.1409
အရိုး	-10.142
မှု	-10.1433
ဘောဇ	-10.1436
မမူပါ	-10.1445
ရှမာရိ	-10.146
ရေလ	-10.1468
ှ	-10.1479
သွေ	-10.1516
ဒေါ	-10.1547
လေးဆ	-10.1569
လုံ	-10.1571
အခန	-10.1588
ပြတ	-10.1606
လူကို	-10.1611
ဟိ	-10.1629
ဖြူ	-10.1635
▁??????????????	-10.1702
ပဌမ	-10.1711
လှူ	-10.1719
ခရီးသွား	-10.1722
သားဦး	-10.1725
ဧလိယ	-10.1731
းသောသူတို	-10.1732
တကျိ	-10.175
းအမှု	-10.1756
ဟေဇကိ	-10.1784
စိုးစံ	-10.1785
းတွား	-10.1786
မှားသော	-10.1801
အလျှ	-10.1812
ရဟု	-10.1867
ရှိသောသူ	-10.1947
ကုလားကာ	-10.1952
ဆံ	-10.1954
ရွေးက	-10.1958
မချ	-10.1964
ရာဇ	-10.2013
ြို	-10.2024
းမိုး	-10.204
ငါမြ	-10.205
ဟိတ	-10.2054
တုန	-10.2091
အစာ	-10.2109
သောက	-10.2123
မထီ	-10.2123
ဓ	-10.2131
ဝါ	-10.2135
မလိုက	-10.2152
းပါး	-10.2167
ခံကြ	-10.2176
ဂဒ	-10.2179
မြေကို	-10.2207
ရှမွေလ	-10.2208
ွေးဆ	-10.2221
စေဟု	-10.2245
ကေ	-10.2254
အရေဖျားလှီး	-10.2295
ဒုတိယ	-10.2295
ယောနသ	-10.2297
စားကြ	-10.2299
းစံ	-10.23
သွားလေ	-10.23
ပြပ	-10.2304
ျာ	-10.2313
အဆက	-10.236
စားပွဲ	-10.2392
သောသူအပေါ	-10.2393
လေဝိသား	-10.2413
ဗိ	-10.2437
ဆိုလျှ	-10.2441
ဆုပ	-10.2463
လေဝိ	-10.2471
ဗု	-10.2476
ဖာ	-10.2482
မြေမှ	-10.2523
ငါသိ	-10.2535
မျှမ	-10.2561
ခုံ	-10.257
ဿ	-10.2651
ဖာရော	-10.2652
ငွေကို	-10.2652
သုံးရက	-10.2664
ယုဒအမျိုး	-10.2702
သေကြ	-10.2814
မတရားသောသူ	-10.2873
စာရေး	-10.2889
ဟေလ	-10.2933
ဖိ	-10.2941
ကျက	-10.299
ခရီး	-10.2997
တိမ	-10.3007
ကိုးစား	-10.3015
တီး	-10.3022
ကွပ	-10.3047
ဝံ	-10.3062
ယေရော	-10.3066
ကြာ	-10.3075
ငါပြု	-10.3089
တိဇံ	-10.3114
ဂေါ	-10.3114
တနေ	-10.313
များစွာ	-10.3169
ဆုတ	-10.3173
သားများ	-10.3199
လွှား	-10.3209
ရှုံး	-10.3212
ဆိုလျ	-10.3214
ဗေလ	-10.3243
မျိုးစေ	-10.3248
ပြောဆိုကြ	-10.3277
သောလမ	-10.3278
မဆို	-10.3314
သေရ	-10.3331
ရှောလုသ	-10.3355
စားသော	-10.3386
ဧဝံဂေလိတရား	-10.3402
ကာကို	-10.3407
အသေသ	-10.3411
ဟာမ	-10.3425
စုဝေးစေ	-10.3433
းသောအရာ	-10.3455
စားသောက	-10.3487
အလျား	-10.3501
ဦးစွာ	-10.351
ဧသော	-10.3541
ဣသရေလရှ	-10.3546
ပြေ	-10.3567
အဘိ	-10.3575
ပြုမိ	-10.3586
အသီးအနှံ	-10.3599
သိရကြ	-10.3605
မီးဖြ	-10.3621
ထားရ	-10.3642
ရိုသေ	-10.37
နှလုံးကို	-10.3742
တထ	-10.3755
တကားဟု	-10.3774
ဖာရိရှဲ	-10.38
ဓာ	-10.3804
စွာနေ	-10.3807
သိပ	-10.3834
ရှုရိ	-10.3836
ရုဗ	-10.3845
ငါပြော	-10.3856
းလဲ	-10.3898
အာဏာ	-10.3902
သိုးထ	-10.396
ဇော	-10.3988
မှူးမ	-10.3991
သူပြည	-10.3992
အသေခံ	-10.3995
အသီးကို	-10.4002
ပေးရ	-10.4045
ပြောကြ	-10.4049
အာဟ	-10.406
ပါလျ	-10.4093
ရုံး	-10.4114
ပြုလျ	-10.4115
စို	-10.4127
ဒေါသ	-10.4203
ဆုံးဖြ	-10.4208
ခိုက	-10.4262
ခိုလှုံ	-10.4283
းစွာသော	-10.4287
ယခုမှာ	-10.4287
နေဗု	-10.4334
လှဲ	-10.4349
ယုဒအမျိုးသား	-10.442
လျှာ	-10.4422
ဧလိရှဲ	-10.4429
ရှလ	-10.4443
ဤလူမျိုး	-10.4451
ခာ	-10.4464
ခံယူ	-10.4523
ဝေါ	-10.4538
ဆုံးရှုံး	-10.4538
ကျီ	-10.4547
သားမြေး	-10.4548
လူအမျိုးမျိုး	-10.455
အိုဘုရား	-10.4576
မူပါစေသော	-10.4585
ဆု	-10.462
ရဲရ	-10.4624
ထံမှ	-10.4636
မဟာ	-10.4636
ခါလဒဲ	-10.4647
ရဲတို	-10.4654
ဘတ	-10.4661
အာနု	-10.4665
အဦး	-10.4698
ဆိုးသော	-10.4738
းလူသား	-10.475
ပဌနာပြု	-10.4777
ဒု	-10.4796
မူကြ	-10.4797
သူရဲတို	-10.4833
ဖျား	-10.4881
ဆီဥ	-10.4884
သောသူမူကား	-10.4914
အကြံရှိ	-10.4925
ယူသွား	-10.4932
ပြေးကြ	-10.494
ပဌနာ	-10.4966
တဦး	-10.4971
လူစု	-10.4981
လှေ	-10.4998
ပေးသနား	-10.5031
ရာလမ	-10.5039
ပေတ	-10.5042
သတိပြု	-10.5057
ကွက	-10.5071
မသေ	-10.5074
ခံသောသူ	-10.5089
ထုန	-10.5112
ပြုလေ	-10.5117
အရာရှိ	-10.5119
နေဇာ	-10.5134
ဝေဒနာ	-10.5216
ဘိသိ	-10.5216
းဘိုး	-10.522
ထားလျ	-10.5227
ဖက	-10.5234
ထားလေ	-10.5251
ဝိ	-10.5255
အသံနှ	-10.526
အစိုးရသော	-10.5278
ရွေးန	-10.5295
းကိုခံရ	-10.5304
ထားဘေး	-10.5311
အာမောရိ	-10.5333
စေတနာ	-10.5334
ခွေး	-10.5334
အသီးသီး	-10.5336
ပါပြီဟု	-10.5339
မူသမျှ	-10.5345
ငါအမှ	-10.5383
လွှ	-10.5401
ဗိမ	-10.5413
သု	-10.5425
ယေရှုကို	-10.5481
အရေအ	-10.5513
ဖေ	-10.5561
အခြားတပါးသော	-10.5573
မနာရှေ	-10.5581
ရှားစေ	-10.5596
အားပေး	-10.5636
သောအကျ	-10.5656
အဗရှလုံ	-10.5695
ကျွေးမွေး	-10.5696
ပိ	-10.57
တမျိုး	-10.5712
တံဆ	-10.5722
လိုသော	-10.5729
အာခ	-10.5736
ထာဝရဘုရားထံ	-10.5771
ဂိ	-10.5797
ပေါလုသ	-10.58
ရူပါရုံ	-10.5818
ခံစေ	-10.5835
ဆွေ	-10.5836
ာဗန	-10.5841
ထိုစကားကို	-10.5846
အဝေး	-10.5864
ဆိုးမ	-10.5884
အလိုအလျ	-10.5914
ဂါလိလဲ	-10.5943
မုဒ	-10.5943
▁့၏။	-10.5944
မြဲ	-10.5954
ယှ	-10.5985
မျှော	-10.6004
တဆေး	-10.6018
ထိုသူအပေါ	-10.6031
ဘာ	-10.6049
ကြားမှာ	-10.6049
မှီဝဲ	-10.607
အာဗြံ	-10.607
သောအပြ	-10.6111
ရွံရှာ	-10.6183
သေလ	-10.6183
ဒံယေလ	-10.6198
ခေရု	-10.622
ချီသွား	-10.6306
ဟေဗြ	-10.6326
ဘာသာ	-10.6328
ထုံးစံ	-10.6328
မူစေသ	-10.6352
ဆံပ	-10.6356
ရွံရှာဘ	-10.6357
အစိုးရ	-10.6373
ဟုဆိုသော	-10.6399
ယေဟု	-10.64
ကြသလော	-10.6407
အဆုံး	-10.641
မြွေ	-10.6414
မစားရ	-10.6428
သေးသော	-10.6439
အစာကို	-10.6445
ပြုသောသူ	-10.6452
မသောက	-10.6455
▁၌၊	-10.6465
မူပြီဟု	-10.6482
ဝစွာ	-10.6504
လျှို	-10.6512
ခုနှ	-10.652
ထံမှာ	-10.6547
မြဲမြံ	-10.6593
မျှလ	-10.6594
လှံတံ	-10.6598
မရှိရ	-10.6605
အာဇ	-10.6624
လှံ	-10.6628
ခေ	-10.6633
ြ	-10.6683
အနီး	-10.671
အကြီးအကဲ	-10.6728
နေရကြ	-10.6745
ဝါးက	-10.6789
သူကြီး	-10.6801
ဟုဆိုလျှ	-10.6816
မီးလ	-10.6865
မိဖုရား	-10.6865
အာရဇ	-10.6865
မာရိ	-10.6879
းသာပေး	-10.6889
မျှမရှိ	-10.6919
မာတရား	-10.6925
ဗာရှ	-10.6987
ဧလာဇာ	-10.7004
ဤလောက	-10.7018
အဘိမ	-10.7021
လေရာရာ	-10.7026
ပြာ	-10.7041
လူဆိ	-10.7069
းရဲသောသူ	-10.7089
းရဲသား	-10.7096
နွှ	-10.714
သံလွ	-10.7145
တိုးပွား	-10.7145
လေဗန	-10.7146
ထိုအတူ	-10.7147
ပွဲခံ	-10.7157
မပြုရ	-10.7159
ဂလာရှိကြ	-10.7197
ရှေခ	-10.7221
တတိယ	-10.7291
ယခုမူကား	-10.7305
တစု	-10.7309
ဟုဆိုလျ	-10.7348
မစိုးရ	-10.7379
းစီးသူရဲ	-10.7404
ဖြိုဖ	-10.7432
ဇေဒကိ	-10.7433
ဧလျာ	-10.7433
လူတယောက	-10.7435
▁်၌၊	-10.744
စားရကြ	-10.7468
နေရာကျ	-10.7473
ဗာလမ	-10.7537
သဘောရှိ	-10.7545
ကုလားအု	-10.758
မိဒျ	-10.758
မြှား	-10.758
ထိုမျှမက	-10.758
တညီတည	-10.758
ယောဘ	-10.7595
နေရာချ	-10.7688
ငါဆိုသ	-10.771
ကြပါပြီ	-10.7713
လူအစုအဝေး	-10.7729
သိုးစု	-10.7732
ခြုံ	-10.7732
ပကတိ	-10.7733
အခက	-10.7811
ရွှေငွေ	-10.7831
စရာရှိ	-10.7853
းမောတွေဝေ	-10.788
ညူးစေ	-10.7881
မွှေ	-10.7881
ဗေသလ	-10.7883
ျာဘက	-10.7888
ဖြား	-10.7905
ချိုးဖ	-10.7916
လူဆိုး	-10.7922
သောနော	-10.7934
ကြားသောအခါ	-10.7946
ကြပါစေသော	-10.801
ပဋိ	-10.8034
သိုးနွား	-10.8054
ျာလ	-10.8059
ရူး	-10.8217
ဗာရ	-10.822
ခိုးကြီး	-10.823
ယေရု	-10.8238
ိမှတ	-10.8258
အနာရောဂါ	-10.8349
သိုးထီး	-10.835
ပမာဏ	-10.835
အမဲသား	-10.8351
ထွေး	-10.8353
ဘိုးဘေးများ	-10.8473
▁့်၏။	-10.851
ဩဝါဒ	-10.851
ပိလတ	-10.8511
ပြုသောအမှု	-10.8518
ထရံ	-10.8543
ရှုရိလူ	-10.8548
းမံ	-10.8555
းခြား	-10.8567
ယေရိခေါ	-10.8674
နူနာ	-10.8674
ဥပမာ	-10.8674
ရှေးကာလ	-10.8676
ဆိုလိုသ	-10.8677
ဟာနန	-10.8749
ထိုအကြ	-10.8758
ရာဇဝ	-10.879
ထားပြီ	-10.8806
ိလူ	-10.8823
ခြားနား	-10.8852
တုရု	-10.8856
စွဲလ	-10.8861
အရာများကို	-10.8877
ဇာခရိ	-10.9011
းပြုဆရာ	-10.9011
ဒမာသ	-10.9015
တရားသူကြီး	-10.9015
ကြွေး	-10.9082
သွားပြီး	-10.9129
မတရားသ	-10.9143
ဧသတာ	-10.9183
စာဂတိ	-10.9193
မီးခ	-10.921
းသာရ	-10.9242
ရောဗ	-10.9261
ဦးချို	-10.9362
နောဧ	-10.9367
▁၏၊	-10.9368
ူးခြ	-10.9369
ကြာမြ	-10.9381
အစေခံ	-10.9488
ပွား	-10.953
အာဗနာ	-10.9537
သောဒုံ	-10.9537
တိုးပွါး	-10.9538
ကောရ	-10.9566
ီးချ	-10.959
သတိပေး	-10.9605
သရဖူ	-10.9719
စကားဟူမူကာ	-10.9722
မီးခုံ	-10.9723
ဩဇိ	-10.9724
အစာရှ	-10.974
ဌမ	-10.9777
ခိုလှုံရာ	-10.9785
ထိုအရာ	-10.9841
ယောယဒ	-10.9904
ဘာသာစကား	-10.9913
ဖု	-10.9957
ထိမိ	-11.0035
မနာရှေအမျိုး	-11.008
ဆုံးမဩဝါဒပေး	-11.0093
ဂိဒေါ	-11.0093
နွားထီး	-11.0094
ကြားသိ	-11.0135
ရှားစွာ	-11.0158
ပွါး	-11.0284
ဣရှမေလ	-11.0285
လိုသောငှါ	-11.029
လူပျို	-11.0308
မပြုဘဲ	-11.0402
ရှာဘ	-11.0452
အလိုမရှိ	-11.0479
ရောနှော	-11.0481
နဿလိ	-11.0481
ရာခေလ	-11.0481
ဖေါ	-11.0484
တပါးတ	-11.0515
ငှာ	-11.0549
ညဦးယံ	-11.0681
ဟေရှာယ	-11.0681
ေရုဒ	-11.0684
ဇိဒ	-11.0707
မွှေးက	-11.0885
ါ	-11.1125
ျ	-11.2651
၊	-11.6902
ဈ	-11.7314
ဌ	-11.9287
။	-12.2052
၏	-12.8109
ဍ	-12.8292
ဠ	-12.8295
ဦ	-14.4878
ဪ	-14.5473
?	-15.5449
၌	-15.545
၍	-15.5451
့	-15.5452
်	-15.5453
