<pad>	0
</s>	0
<unk>	0
▁¦	-0
▁𐋇	-1
th	-2
in	-3
the	-4
re	-5
on	-6
an	-7
at	-8
en	-9
▁.	-10
er	-11
or	-12
▁,	-13
is	-14
ed	-15
al	-16
as	-17
es	-18
to	-19
of	-20
ar	-21
ing	-22
it	-23
ou	-24
ion	-25
and	-26
ent	-27
ac	-28
ic	-29
st	-30
il	-31
be	-32
ro	-33
ve	-34
id	-35
co	-36
le	-37
se	-38
ch	-39
for	-40
ad	-41
tr	-42
ct	-43
ation	-44
me	-45
ir	-46
are	-47
lo	-48
▁𐊣	-49
ho	-50
cor	-51
ay	-52
he	-53
ver	-54
no	-55
ly	-56
de	-57
we	-58
un	-59
so	-60
us	-61
fe	-62
ha	-63
con	-64
vac	-65
coron	-66
ter	-67
mp	-68
ill	-69
ur	-70
ment	-71
sp	-72
cin	-73
vaccin	-74
corona	-75
has	-76
di	-77
ate	-78
ce	-79
that	-80
su	-81
▁'	-82
ag	-83
ld	-84
do	-85
ab	-86
ut	-87
wi	-88
pe	-89
um	-90
have	-91
ati	-92
with	-93
pro	-94
ig	-95
oun	-96
ap	-97
est	-98
ak	-99
go	-100
sa	-101
0¦	-102
ers	-103
wh	-104
ne	-105
▁¦1	-106
was	-107
op	-108
dis	-109
vid	-110
this	-111
vir	-112
rom	-113
will	-114
ents	-115
mo	-116
from	-117
am	-118
▁¦2	-119
not	-120
fect	-121
pati	-122
po	-123
im	-124
te	-125
sh	-126
ain	-127
out	-128
by	-129
et	-130
ther	-131
ex	-132
ant	-133
ul	-134
res	-135
min	-136
ort	-137
ies	-138
patients	-139
umb	-140
ity	-141
been	-142
per	-143
wor	-144
vaccine	-145
act	-146
if	-147
gen	-148
▁"	-149
af	-150
med	-151
alth	-152
iv	-153
virus	-154
day	-155
vern	-156
our	-157
cent	-158
govern	-159
all	-160
9¦	-161
du	-162
government	-163
ive	-164
ess	-165
ial	-166
dr	-167
cl	-168
minis	-169
said	-170
there	-171
covid	-172
ople	-173
people	-174
health	-175
qu	-176
har	-177
ould	-178
ions	-179
ol	-180
art	-181
any	-182
also	-183
state	-184
▁(	-185
pr	-186
wn	-187
ding	-188
one	-189
ase	-190
infect	-191
ical	-192
ital	-193
igh	-194
ated	-195
▁)	-196
em	-197
but	-198
ef	-199
str	-200
cre	-201
ict	-202
com	-203
ren	-204
pl	-205
can	-206
tra	-207
numb	-208
test	-209
ma	-210
cont	-211
ck	-212
av	-213
other	-214
were	-215
iz	-216
▁?	-217
coun	-218
od	-219
ts	-220
19¦	-221
ca	-222
number	-223
hosp	-224
sy	-225
li	-226
hospital	-227
ary	-228
indi	-229
red	-230
sit	-231
after	-232
work	-233
-19¦	-234
who	-235
der	-236
minister	-237
ash	-238
ll	-239
ud	-240
pre	-241
ox	-242
ous	-243
imp	-244
had	-245
countr	-246
gh	-247
age	-248
low	-249
ast	-250
ke	-251
should	-252
ime	-253
ath	-254
ear	-255
comp	-256
down	-257
ack	-258
tak	-259
ge	-260
port	-261
mar	-262
ough	-263
▁¦20	-264
5¦	-265
end	-266
you	-267
ound	-268
use	-269
ail	-270
ib	-271
oxy	-272
oxygen	-273
some	-274
comm	-275
lock	-276
ms	-277
ser	-278
able	-279
hand	-280
sed	-281
ans	-282
lic	-283
mahar	-284
fic	-285
2¦	-286
ine	-287
new	-288
ator	-289
ashtra	-290
cond	-291
maharashtra	-292
cr	-293
india	-294
▁:	-295
more	-296
these	-297
ip	-298
incre	-299
ra	-300
than	-301
pres	-302
dise	-303
about	-304
very	-305
many	-306
▁¦3	-307
ctor	-308
distr	-309
lockdown	-310
vaccination	-311
wo	-312
say	-313
ance	-314
read	-315
00¦	-316
ide	-317
4¦	-318
ask	-319
fo	-320
up	-321
ist	-322
fir	-323
may	-324
they	-325
time	-326
ai	-327
ild	-328
ates	-329
ard	-330
ased	-331
reat	-332
their	-333
year	-334
ile	-335
spe	-336
part	-337
ia	-338
disease	-339
ases	-340
ach	-341
cur	-342
clo	-343
form	-344
infection	-345
gr	-346
ub	-347
reg	-348
under	-349
ight	-350
district	-351
vaccines	-352
what	-353
ced	-354
get	-355
ars	-356
how	-357
vel	-358
man	-359
now	-360
report	-361
sion	-362
being	-363
ong	-364
sch	-365
ev	-366
days	-367
cording	-368
ations	-369
high	-370
une	-371
according	-372
resp	-373
ace	-374
country	-375
ich	-376
1¦	-377
bo	-378
ious	-379
br	-380
ep	-381
mpto	-382
¦	-383
▁	-384
e	-385
t	-386
a	-387
i	-388
o	-389
n	-390
s	-391
r	-392
h	-393
d	-394
c	-395
l	-396
𐋇	-397
u	-398
m	-399
p	-400
f	-401
g	-402
v	-403
y	-404
w	-405
b	-406
.	-407
,	-408
k	-409
0	-410
-	-411
𐊣	-412
𐊼	-413
1	-414
2	-415
x	-416
'	-417
j	-418
9	-419
"	-420
z	-421
5	-422
q	-423
4	-424
3	-425
)	-426
(	-427
?	-428
8	-429
6	-430
7	-431
:	-432
%	-433
;	-434
/	-435
!	-436
’	-437
”	-438
“	-439
–	-440
[	-441
]	-442
&	-443
$	-444
#	-445
—	-446
‘	-447
•	-448
≥	-449
+	-450
°	-451
*	-452
ा	-453
_	-454
×	-455
武	-456
肺	-457
~	-458
á	-459
í	-460
α	-461
β	-462
स	-463
े	-464
्	-465
=	-466
ò	-467
ü	-468
č	-469
ş	-470
γ	-471
ं	-472
क	-473
ब	-474
र	-475
汉	-476
漢	-477
炎	-478
£	-479
å	-480
é	-481
ó	-482
ई	-483
ओ	-484
च	-485
त	-486
द	-487
प	-488
ल	-489
ळ	-490
व	-491
श	-492
ो	-493
′	-494
火	-495
眼	-496
