<pad>	0
</s>	0
<unk>	0
¦	-1.36498
▁¦	-1.7185
▁	-3.28168
𐋇	-3.66663
s	-3.7981
▁,	-3.80257
ų	-4.15117
i	-4.24117
▁.	-4.2529
o	-4.37753
ir	-4.69007
ą	-4.82073
a	-5.0224
as	-5.08386
e	-5.10556
os	-5.13758
į	-5.28041
u	-5.29196
p	-5.3796
kad	-5.41039
us	-5.46423
ai	-5.54951
ne	-5.58227
tai	-5.65103
ti	-5.66273
su	-5.67471
pa	-5.74321
m	-5.75693
k	-5.76579
dėl	-5.82362
to	-5.86032
es	-5.87331
iš	-5.89796
t	-5.92328
me	-5.94646
𐊼	-5.98333
𐊣	-5.98333
europo	-5.99578
y	-6.04176
je	-6.11415
ta	-6.1236
n	-6.16809
kai	-6.18543
d	-6.18833
g	-6.23935
yra	-6.29352
kuri	-6.34593
ę	-6.37807
▁-	-6.41103
li	-6.47252
ė	-6.47447
ės	-6.48076
l	-6.51085
vis	-6.51789
turi	-6.54852
čiau	-6.56485
in	-6.58025
ši	-6.58617
is	-6.5872
v	-6.63157
pat	-6.66332
b	-6.67928
tik	-6.68272
ar	-6.71937
už	-6.72865
būt	-6.75917
▁(	-6.78942
r	-6.80207
ais	-6.82317
au	-6.8316
▁)	-6.84756
ma	-6.84792
ja	-6.85282
te	-6.89907
z	-6.90509
ių	-6.91617
oje	-6.91945
ant	-6.91948
per	-6.92086
at	-6.94043
š	-6.95703
ko	-6.96491
parlament	-6.9794
dar	-6.99898
ams	-7.0145
ui	-7.01841
re	-7.02301
gali	-7.06894
j	-7.06903
api	-7.07053
būti	-7.07999
tų	-7.10367
labai	-7.10557
na	-7.11389
ž	-7.11572
be	-7.12494
ni	-7.1274
nt	-7.12781
ji	-7.14426
jų	-7.15618
nes	-7.15677
▁"	-7.17774
buvo	-7.18437
savo	-7.18789
ga	-7.19485
de	-7.19811
c	-7.2171
pirmininke	-7.21878
omis	-7.22175
norė	-7.22875
mas	-7.24313
mi	-7.25279
mūs	-7.25506
mo	-7.26199
mes	-7.27016
nuo	-7.30674
pranešim	-7.30979
ame	-7.31652
ra	-7.32735
ems	-7.34915
oms	-7.36412
aus	-7.37006
am	-7.37508
komisijo	-7.38282
bet	-7.39716
pasi	-7.40498
klausim	-7.41854
bus	-7.42601
turėt	-7.43291
jo	-7.43374
šali	-7.43737
tu	-7.4455
ys	-7.45044
jau	-7.46361
iu	-7.47821
jos	-7.48163
iai	-7.49199
daug	-7.49697
aš	-7.50582
yb	-7.5074
en	-7.5199
vien	-7.53108
kur	-7.54267
reikia	-7.55307
mą	-7.57642
ing	-7.57754
al	-7.57784
nari	-7.5825
ki	-7.58811
ri	-7.59015
šiuo	-7.59452
po	-7.59648
f	-7.60262
kit	-7.60338
le	-7.60891
1	-7.60955
prieš	-7.61256
yti	-7.62195
tikr	-7.62323
va	-7.63346
komisija	-7.64751
inti	-7.65231
gi	-7.65698
nu	-7.66119
valstybės	-7.66371
tas	-7.66994
ger	-7.6707
čia	-7.68295
darbo	-7.68351
mu	-7.68491
h	-7.69412
sak	-7.69993
ama	-7.70267
ap	-7.71039
pasiūlym	-7.7194
prie	-7.72529
sąjungo	-7.73199
mano	-7.73264
pri	-7.74238
kurios	-7.75354
inės	-7.75778
svarbu	-7.76716
kurie	-7.76789
tar	-7.77272
mum	-7.77328
ci	-7.77571
tam	-7.77758
sprendim	-7.77765
pra	-7.78705
ū	-7.78906
man	-7.80168
uose	-7.80329
ka	-7.80509
▁:	-7.80815
laik	-7.81075
tiksl	-7.81384
rink	-7.81876
metu	-7.82443
ją	-7.84027
kalb	-7.84904
toki	-7.85364
teis	-7.87063
nori	-7.87249
pone	-7.87532
mana	-7.87848
maž	-7.89136
susi	-7.89227
do	-7.89302
0	-7.89773
lo	-7.89779
pač	-7.91001
darb	-7.91323
er	-7.91442
imo	-7.91508
iki	-7.91666
min	-7.91829
vi	-7.92203
susitarim	-7.92561
iau	-7.92608
inių	-7.93187
šį	-7.93444
nor	-7.93524
region	-7.93927
kas	-7.94048
ėjo	-7.94381
el	-7.94469
ve	-7.94622
jam	-7.96271
ųjų	-7.96593
šio	-7.96637
ba	-7.96782
šios	-7.97795
teisės	-7.9819
20	-7.98566
ro	-7.98966
ką	-7.99486
no	-7.99641
ži	-8.00049
pilieči	-8.00134
valstybi	-8.00136
da	-8.00434
ent	-8.00659
ose	-8.01201
užtikrint	-8.0139
la	-8.01778
jūs	-8.02402
kart	-8.02622
kr	-8.03294
narės	-8.03486
dė	-8.04092
dabar	-8.04283
srity	-8.04434
daugiau	-8.04821
▁?	-8.0508
ijos	-8.05167
gerb	-8.07055
nti	-8.08654
bi	-8.09188
uoti	-8.09561
veiksm	-8.10062
gr	-8.10397
ju	-8.10965
siekiant	-8.11416
vert	-8.12135
du	-8.12327
dami	-8.12818
or	-8.12845
tuo	-8.13312
viena	-8.14212
atsi	-8.14405
▁.,	-8.15041
susijusi	-8.15322
mos	-8.16548
keli	-8.17001
gal	-8.17078
reng	-8.17667
nėr	-8.17807
finans	-8.17856
politikos	-8.17864
iant	-8.18292
galimyb	-8.1871
biudžet	-8.18788
bei	-8.1927
tinkam	-8.19681
galima	-8.2015
visi	-8.20305
padėti	-8.20484
tą	-8.20702
jei	-8.21251
sime	-8.21515
pagal	-8.2159
bu	-8.21809
dėmes	-8.22022
ojo	-8.22115
šiandien	-8.22152
žmog	-8.22153
jie	-8.22762
uot	-8.23438
čių	-8.24413
3	-8.24692
5	-8.24889
komitet	-8.26581
tarybo	-8.26612
šis	-8.26622
tarp	-8.27041
taryba	-8.2707
naud	-8.27382
sąjunga	-8.27584
veik	-8.27894
problem	-8.28764
nd	-8.28802
dali	-8.29133
teisi	-8.29187
kt	-8.29232
akt	-8.29513
vy	-8.30007
,	-8.30025
imas	-8.30132
ties	-8.30384
viet	-8.3092
klausimu	-8.30953
an	-8.31262
iškai	-8.31349
mis	-8.32019
gu	-8.3259
rd	-8.32896
negali	-8.32911
mok	-8.33998
vo	-8.34609
būtina	-8.34631
teisin	-8.34695
imti	-8.35073
ru	-8.35185
ekonomiko	-8.35893
▁;	-8.35984
kovo	-8.35987
ėme	-8.36283
nustatyt	-8.3638
ėja	-8.37086
arba	-8.37428
jai	-8.37574
tra	-8.37646
pirma	-8.38085
program	-8.38465
uoja	-8.38526
žin	-8.39244
ėms	-8.39455
kal	-8.39482
6	-8.39543
pirminink	-8.40221
laisv	-8.40302
avimo	-8.40385
-	-8.40425
žmoni	-8.40642
inio	-8.40878
visiška	-8.40887
iuosi	-8.41109
moter	-8.41247
lygi	-8.41412
ch	-8.41612
kiek	-8.41705
baig	-8.41955
param	-8.42305
esni	-8.42623
koki	-8.42643
bendradarbiavim	-8.42854
oji	-8.43208
saug	-8.43462
taisykl	-8.43699
2	-8.43719
kar	-8.43861
metų	-8.43889
ėjim	-8.43989
prisi	-8.44014
vyriausyb	-8.44837
projekt	-8.44837
saugum	-8.44962
pirm	-8.45405
tvirt	-8.45783
ge	-8.46573
tvark	-8.46823
šalys	-8.46823
energij	-8.4686
plan	-8.46978
būd	-8.47029
rezoliucij	-8.47153
dama	-8.47395
pakeitim	-8.48035
valstyb	-8.48199
žemė	-8.48463
ūki	-8.48922
nei	-8.49194
tiek	-8.49653
europa	-8.49869
deryb	-8.4987
lyg	-8.49917
svarb	-8.49927
fi	-8.50115
4	-8.50115
naujo	-8.50171
kon	-8.50339
dien	-8.51348
pagalb	-8.51541
ymo	-8.51648
iausi	-8.51701
veiksming	-8.51786
princip	-8.51951
nčių	-8.52423
jus	-8.5255
pagrindini	-8.52854
reik	-8.53085
priemoni	-8.53405
umo	-8.53579
proc	-8.53582
damas	-8.54144
et	-8.54249
didel	-8.5433
dr	-8.54505
ku	-8.54603
net	-8.54667
vertin	-8.5468
imą	-8.54961
priimti	-8.55659
pro	-8.55689
pasakyti	-8.55708
vadov	-8.55708
tyrim	-8.56027
mus	-8.56377
kelia	-8.56509
raštu	-8.56671
tri	-8.56792
.	-8.57015
sąlyg	-8.57267
rinkos	-8.57471
auja	-8.57738
toliau	-8.58298
mės	-8.58318
ragin	-8.58325
bendr	-8.5888
auk	-8.58953
galėt	-8.59209
č	-8.59403
▁¦2	-8.59784
kel	-8.59852
reglament	-8.60276
fond	-8.60277
par	-8.60359
balsav	-8.60371
osios	-8.60722
pv	-8.60754
poni	-8.60935
ter	-8.60938
var	-8.61079
pritari	-8.6127
kuriuos	-8.61316
pasaul	-8.61815
sukurt	-8.61847
pasauli	-8.62106
užtikrin	-8.62249
▁¦200	-8.62279
informacij	-8.62301
atlik	-8.62328
8	-8.62623
reikal	-8.6278
tur	-8.62837
ateit	-8.62902
kriz	-8.63174
taikom	-8.63188
vard	-8.63235
svarbi	-8.6366
politik	-8.63885
jog	-8.64043
sistem	-8.64218
kartu	-8.64529
vaik	-8.64633
stipr	-8.64736
iausia	-8.64905
pasiek	-8.65027
der	-8.65776
inink	-8.66003
nepa	-8.66251
produkt	-8.66474
ver	-8.66565
ūs	-8.66624
asmen	-8.66929
sek	-8.67001
klimat	-8.67547
proces	-8.67903
sutarti	-8.68038
vartotoj	-8.68266
paslaug	-8.68266
naudoja	-8.68284
turėtum	-8.6877
darbuotoj	-8.68992
lank	-8.6917
dvi	-8.69931
nauja	-8.69979
rezultat	-8.70091
lisabono	-8.7046
lėš	-8.707
bendra	-8.70852
did	-8.71044
atveju	-8.71195
nė	-8.71527
inį	-8.72019
apsaugos	-8.72473
9	-8.72676
sveikat	-8.72711
rė	-8.72719
ponia	-8.73029
žinoma	-8.73275
igu	-8.73364
pozicij	-8.73462
pona	-8.74023
didesn	-8.74254
pagrind	-8.74867
problema	-8.74976
inę	-8.75316
frakcijos	-8.75362
tini	-8.7538
poveik	-8.75868
politika	-8.76008
balsavim	-8.76558
pažang	-8.76953
jėg	-8.76972
praš	-8.77295
šie	-8.77394
atsižvelgia	-8.77534
prekybo	-8.77549
kol	-8.77709
mat	-8.77813
mėn	-8.78026
maist	-8.78061
interes	-8.78142
ėmi	-8.78628
nusi	-8.791
įgyvendin	-8.79366
vėl	-8.79375
kil	-8.79943
eur	-8.80035
šiam	-8.80341
teisė	-8.80383
laiko	-8.8048
ak	-8.80621
lė	-8.80966
pateik	-8.80969
atstov	-8.80976
koleg	-8.80995
priemone	-8.81159
transport	-8.81387
vida	-8.81929
laikyti	-8.827
įsi	-8.82894
padėt	-8.83238
atžvilgiu	-8.83471
teikia	-8.83546
galė	-8.83672
veikl	-8.83706
padėko	-8.83945
inimo	-8.84009
acij	-8.84109
klaus	-8.84283
pateikti	-8.84328
europ	-8.84801
rinkim	-8.84894
joki	-8.8501
reikalavim	-8.85098
gyventoj	-8.85169
iniciatyv	-8.85169
taigi	-8.8517
direktyv	-8.85822
ištekli	-8.86029
kin	-8.8624
ingai	-8.86245
strategij	-8.86251
acijos	-8.86264
gyv	-8.86438
duomen	-8.8652
čio	-8.86648
šalim	-8.86872
vieš	-8.86902
mokesči	-8.86904
form	-8.87076
tebė	-8.87082
šal	-8.87164
tokia	-8.87272
kita	-8.87678
įgyvendinti	-8.88225
jungtin	-8.88318
skaiči	-8.88718
reiškia	-8.891
jum	-8.89397
politini	-8.89448
grup	-8.89555
dalyk	-8.89605
pači	-8.89688
požiūr	-8.8992
spręsti	-8.89975
kultūr	-8.90445
įvairi	-8.9049
inis	-8.90504
dabartin	-8.90803
gyvenim	-8.91354
daugeli	-8.91433
aiškiai	-8.9179
diskusijos	-8.91852
antra	-8.92069
daly	-8.92139
procedūr	-8.92268
susitikim	-8.9231
euro	-8.92416
padar	-8.9248
dideli	-8.92945
padaryti	-8.93048
skirt	-8.93433
labiau	-8.93562
pil	-8.93838
kuo	-8.94002
atsižvelg	-8.94069
tikrai	-8.94211
sektori	-8.94789
ume	-8.94809
rib	-8.94908
nam	-8.94974
aspekt	-8.95539
politin	-8.96121
avo	-8.96202
nuomone	-8.96373
ly	-8.9657
apsaug	-8.96612
pareig	-8.96972
pasiekti	-8.97151
skiria	-8.97348
visos	-8.97432
dažn	-8.97459
suteikt	-8.97531
tikim	-8.97777
dokument	-8.97943
reikė	-8.98067
sen	-8.98792
pastang	-8.98921
angi	-8.99355
/	-8.99413
požiūriu	-8.99495
siekiama	-8.99538
nčios	-8.99959
žem	-9.00184
nę	-9.00574
tiesiog	-9.00906
abejo	-9.00909
teigiam	-9.00934
pateikt	-9.01094
vald	-9.01159
pranešėj	-9.01229
tarptautini	-9.01389
šiuos	-9.01504
idėj	-9.01534
žal	-9.01668
aiški	-9.01774
įsipareigojim	-9.01915
iniai	-9.01915
pavoj	-9.01955
atliek	-9.02151
institucijos	-9.02421
galiausia	-9.02492
oro	-9.02641
dirb	-9.02829
valstybėm	-9.02874
neturi	-9.02893
skirti	-9.02966
priemon	-9.03354
teig	-9.03528
sociali	-9.03545
socialini	-9.03557
sistemos	-9.03581
veikti	-9.03679
susiję	-9.04478
sektoriu	-9.04782
pabrėžti	-9.04785
ekonomik	-9.04843
prioritet	-9.04999
standart	-9.04999
bank	-9.05068
klausimai	-9.05231
val	-9.05274
naudoti	-9.05967
pradėt	-9.06072
mon	-9.06291
tęs	-9.06527
pl	-9.06545
kreip	-9.0657
vyksta	-9.0657
pirmiausia	-9.06608
tekst	-9.07119
sumažint	-9.07139
itin	-9.07599
konkreči	-9.07644
leidžia	-9.07644
nuolat	-9.07661
parengt	-9.07797
priemonės	-9.07806
pagrindin	-9.07866
viz	-9.07986
diskusij	-9.08012
valdym	-9.08135
parod	-9.08651
griežt	-9.08722
nuostat	-9.08725
yn	-9.08839
atskir	-9.08914
palaik	-9.09149
kan	-9.09246
džiaug	-9.09266
minėt	-9.09379
įtrauk	-9.09703
finansavim	-9.09774
privalom	-9.09799
priimt	-9.0999
bendrą	-9.10076
nustat	-9.1028
nacionalini	-9.10308
zon	-9.10625
juos	-9.10787
pagrįst	-9.10914
krizės	-9.11167
nariai	-9.11327
mokslini	-9.11548
bendro	-9.11573
visuomen	-9.11872
santyki	-9.12029
aplinkos	-9.12035
atvej	-9.12049
demokrat	-9.121
reform	-9.12143
siūl	-9.12169
sien	-9.12187
sutart	-9.12483
organizacij	-9.1259
turės	-9.12908
leisti	-9.13135
ada	-9.13146
fr	-9.13456
sąjungoje	-9.13586
remti	-9.13734
vaidmen	-9.13741
žmonėm	-9.1419
sistema	-9.14964
suteik	-9.15078
kūr	-9.15079
daryti	-9.15214
atsakomyb	-9.15448
plėtr	-9.15508
numatyt	-9.15908
ministr	-9.16029
įskait	-9.1603
patvirtint	-9.16042
dž	-9.16121
taikym	-9.16152
iška	-9.16185
lygmeni	-9.16614
kūrim	-9.16998
išlaid	-9.17202
didžiausi	-9.17204
bendrijo	-9.17256
žmonė	-9.17318
pabrėž	-9.17445
taikyti	-9.17527
vietos	-9.17613
w	-9.17794
įstatym	-9.17794
pinig	-9.17795
centr	-9.17801
versl	-9.17858
prast	-9.18079
demokratij	-9.18087
ln	-9.18218
siekdam	-9.19234
nare	-9.1944
paprast	-9.19542
energetiko	-9.1959
partij	-9.19663
inius	-9.20015
rodo	-9.20046
nepaisant	-9.20197
kain	-9.20462
pastar	-9.20849
ekonomin	-9.21064
vyr	-9.2111
kuriuo	-9.21114
geriau	-9.21136
įgyvendinim	-9.2199
straipsn	-9.22037
narys	-9.22254
rasti	-9.22494
pripažin	-9.22659
skyr	-9.22661
truk	-9.22682
finansini	-9.23155
narėm	-9.23318
prekyb	-9.2359
kalbant	-9.23689
atsaking	-9.23914
ataskait	-9.23934
aplink	-9.2394
skurd	-9.24592
rimt	-9.24769
vykdyt	-9.25121
sąjung	-9.25187
sveikin	-9.25203
skatint	-9.25698
dal	-9.26155
nebuvo	-9.26266
lauk	-9.26336
privalo	-9.26484
žodži	-9.26505
misij	-9.26923
bals	-9.27021
augim	-9.27224
direktyvos	-9.27431
vidur	-9.27772
kelet	-9.2789
žym	-9.27899
partner	-9.28208
piet	-9.28324
žini	-9.28385
eiti	-9.28473
ilg	-9.28503
vakar	-9.28549
minti	-9.2935
pavyzd	-9.29756
aukšt	-9.29774
land	-9.29864
kitos	-9.29924
nagrinė	-9.30429
laikotarpi	-9.30432
naujų	-9.30435
gerai	-9.30747
ryt	-9.30941
vertinim	-9.31075
gauti	-9.31128
svarbiausia	-9.31508
aišku	-9.31572
aišk	-9.31738
agentūr	-9.31785
sudėting	-9.31785
ekonomini	-9.31797
visuomenės	-9.31976
tarptautin	-9.32341
teism	-9.32448
frakcij	-9.32511
fakt	-9.32623
ten	-9.32834
pramonė	-9.32855
sriti	-9.32882
tvar	-9.32909
ryš	-9.3292
žinot	-9.33109
sutink	-9.33131
technologij	-9.33159
▁¦2009	-9.33192
kyla	-9.33199
rūpi	-9.33237
▁".	-9.33324
siekia	-9.33595
geresn	-9.33641
jung	-9.33675
gra	-9.33863
mažiau	-9.34123
kontrol	-9.34428
jūr	-9.34461
suprant	-9.34556
valdžio	-9.34579
veiklos	-9.34853
ber	-9.34892
kitai	-9.34931
institucijų	-9.35257
sprendžia	-9.35257
teikiama	-9.35651
tinkl	-9.35968
dirbti	-9.36501
uosiu	-9.36527
užsieni	-9.36683
žvej	-9.3669
siek	-9.36878
taut	-9.36892
klaid	-9.37405
migracij	-9.38129
vienod	-9.38198
jūros	-9.38224
dialog	-9.38855
investicij	-9.38855
pareiškim	-9.38855
protokol	-9.38855
▁¦10	-9.38897
nacionalin	-9.38927
žinom	-9.3905
toks	-9.39143
pakankama	-9.39313
sėkming	-9.39323
solidarum	-9.3959
skatina	-9.39591
nčio	-9.39787
sunki	-9.40008
papildom	-9.40331
ntys	-9.40337
aktyv	-9.40409
poreiki	-9.40452
uojama	-9.40894
laiv	-9.41134
ieji	-9.41143
greit	-9.41165
nauji	-9.41191
rom	-9.41235
bū	-9.41338
diskusija	-9.41997
▁¦19	-9.42605
gyvena	-9.42693
tapt	-9.42765
derin	-9.43069
pradži	-9.434
tenka	-9.43446
bendrov	-9.44076
vyko	-9.44739
dav	-9.44781
remia	-9.44818
įsitikin	-9.44911
įtraukti	-9.4517
plėtro	-9.45606
kompromis	-9.45676
skaidrum	-9.45676
duj	-9.45697
reikalauja	-9.45719
mėnesi	-9.46026
strategijos	-9.4606
sudaryt	-9.46129
atitinkam	-9.46154
konkurencij	-9.46463
internet	-9.46463
paket	-9.46476
šiai	-9.4663
plat	-9.4694
pranešėja	-9.46993
vystymo	-9.47257
dauguma	-9.47261
teisingum	-9.47295
avimas	-9.47822
vykd	-9.47924
pritart	-9.48115
priežasti	-9.48135
nary	-9.48315
teise	-9.48417
pirmininkaujanči	-9.48864
dešimt	-9.48864
didži	-9.4893
priežiūro	-9.48983
apsi	-9.49037
kaitos	-9.49056
trump	-9.49689
reikalinga	-9.50336
šeim	-9.50526
suderint	-9.50569
nuomon	-9.50587
socialinė	-9.50612
puik	-9.50659
kuriai	-9.50967
svarstyt	-9.51154
šaly	-9.51165
padarini	-9.51242
kriterij	-9.51322
vanden	-9.51322
rūm	-9.51326
kryp	-9.5133
blog	-9.51332
skirta	-9.51701
stabilum	-9.51913
kalbėti	-9.52158
didžiul	-9.52166
vykdom	-9.523
siūlom	-9.52414
teikti	-9.52692
nieka	-9.52741
iniam	-9.53099
priklauso	-9.5378
duot	-9.53809
link	-9.53849
50	-9.53979
pritaria	-9.54023
eina	-9.54042
avimą	-9.54054
priežas	-9.54618
ilgalaik	-9.54699
atkreipti	-9.54699
rizik	-9.54699
sąlyga	-9.54897
būsim	-9.55536
užimtum	-9.5556
iššūki	-9.55561
galimybe	-9.5575
šv	-9.55935
veikia	-9.56086
struktūr	-9.56425
ketina	-9.5643
pažeidim	-9.56838
reikaling	-9.5731
įmanoma	-9.57324
įmoni	-9.5748
išsam	-9.57491
sanglaud	-9.58192
naują	-9.58196
pasinaudot	-9.58254
uojant	-9.58575
ančia	-9.58873
ankst	-9.58919
daugel	-9.5936
prot	-9.59899
savait	-9.59986
paskelb	-9.59986
smurt	-9.59988
kiekviena	-9.60127
atvir	-9.60327
atitinka	-9.60357
siekti	-9.60878
likti	-9.60888
vidutin	-9.60895
steng	-9.60942
▁¦2008	-9.60943
tarptautinės	-9.61103
tarnyb	-9.61813
praėjus	-9.61841
naudinga	-9.61904
atrodo	-9.61965
vil	-9.61975
damos	-9.62259
vyks	-9.62637
skubi	-9.62744
pasiūlyt	-9.62745
remianti	-9.62781
kontrolė	-9.62904
pakeist	-9.63148
padidint	-9.63579
ūkinink	-9.63673
grėsm	-9.63713
galėtum	-9.63956
laikom	-9.64022
konvencij	-9.64616
prezident	-9.64616
įvyki	-9.64618
kokyb	-9.6504
skirting	-9.65278
vartojim	-9.65569
leidim	-9.65569
mažinim	-9.65892
laukia	-9.65972
priemonėm	-9.66394
ženkl	-9.6653
susiduria	-9.6653
turėjo	-9.66623
mokėt	-9.66665
matyti	-9.66859
demokratin	-9.66898
mišk	-9.66981
apsaugot	-9.67054
ekonominė	-9.67073
afriko	-9.67501
vadina	-9.67501
metod	-9.676
išorė	-9.67603
svarstym	-9.67832
vykdym	-9.67863
sėkm	-9.6792
svarbiausi	-9.68025
anksčia	-9.68049
esnės	-9.684
pokyči	-9.68481
reguliavim	-9.68481
peln	-9.68539
džio	-9.68769
branduolin	-9.69471
special	-9.69471
nčiu	-9.69571
priėm	-9.69716
nutrauk	-9.69801
vaist	-9.6995
balsuot	-9.70304
band	-9.70433
▁¦2010	-9.70471
greičiau	-9.70471
pastab	-9.70474
trūkum	-9.70642
bendruomen	-9.71482
pramon	-9.71497
avimu	-9.71927
efektyv	-9.71929
miest	-9.71934
naikin	-9.72489
!	-9.72502
rekomendacij	-9.72502
dalyvaut	-9.72502
sąžining	-9.72503
pavyzdžiu	-9.72505
galutin	-9.72513
mokest	-9.72739
išspręst	-9.72741
nuomonė	-9.7283
nepriklausom	-9.73128
paskutin	-9.73533
panaikint	-9.73604
aptart	-9.73607
airijo	-9.73647
padės	-9.73732
nelaim	-9.73749
dėkoju	-9.74446
nurodyt	-9.74474
tobulin	-9.74575
atsakym	-9.74577
priežiūr	-9.75471
vaizd	-9.75638
švietim	-9.75639
išvad	-9.75658
šaltini	-9.75678
įtak	-9.76207
kokybė	-9.7622
patirti	-9.76331
vokietij	-9.76691
galimybė	-9.76839
skirtum	-9.76963
ribot	-9.77232
įrod	-9.77564
diskutuo	-9.77766
sunkum	-9.77766
tolesn	-9.77844
tikslu	-9.77848
susirūpinim	-9.78853
valstij	-9.78854
kliū	-9.78857
išvengt	-9.79952
teritorij	-9.79952
situacij	-9.79954
artim	-9.80195
laisvė	-9.80219
finansinė	-9.80529
mirti	-9.80946
ystės	-9.81061
vienintel	-9.81063
čius	-9.8161
virš	-9.81652
lieka	-9.81677
prašym	-9.81736
esmė	-9.82103
gamintoj	-9.82187
mechanizm	-9.82187
įmonės	-9.82189
trečia	-9.82189
kėl	-9.82247
pagarb	-9.82337
plači	-9.82984
gamybo	-9.83324
ženg	-9.84479
stebi	-9.84752
automobili	-9.85635
kredit	-9.85635
įgaliojim	-9.85635
žod	-9.85642
visuotin	-9.8592
tariam	-9.86038
žiūrė	-9.86085
uoju	-9.86728
konflikt	-9.86812
medžiag	-9.86812
▁¦000	-9.86812
gerbiam	-9.86928
priima	-9.86983
nurod	-9.87197
priėmim	-9.87732
vengrijo	-9.88002
oficial	-9.88002
humanitarin	-9.88002
infrastruktūr	-9.88002
krikščion	-9.88002
patenkint	-9.89207
judėjim	-9.89207
konkurencingum	-9.89209
rusijo	-9.89444
glaud	-9.90426
akivaizdu	-9.90427
integracij	-9.90427
perspektyv	-9.90427
terorizm	-9.90427
profesin	-9.90427
išmetam	-9.90434
pasiraš	-9.90442
sustiprint	-9.90455
ypating	-9.90458
posėdži	-9.90458
dviej	-9.90525
pavyk	-9.90575
nčią	-9.91147
dalyvauja	-9.91661
nusikaltim	-9.91661
mažum	-9.9189
sriči	-9.91959
partnerystė	-9.92077
škum	-9.92557
)	-9.92896
milijon	-9.92911
įmonėm	-9.92923
leist	-9.93145
tyv	-9.93154
nerim	-9.93325
naudojimo	-9.93339
kompetencij	-9.94177
prancūzijo	-9.94177
prieglobsčio	-9.94177
baudžiam	-9.94177
technin	-9.94177
šiaurė	-9.94178
organ	-9.9419
turkijo	-9.94193
moksl	-9.94197
atsakyt	-9.94202
trūk	-9.94514
ginč	-9.95457
institucijom	-9.95459
neabejotina	-9.95459
strategin	-9.95459
ginkl	-9.95459
audito	-9.95459
▁¦14	-9.95499
paskatin	-9.9585
angli	-9.95952
informuo	-9.97277
visapusišk	-9.98074
neseni	-9.98393
lengva	-9.99407
pasitikėjim	-9.99407
neigiam	-9.99408
būtinyb	-9.99416
praeit	-9.99593
ėjusi	-9.99988
apibrėžt	-10.0076
žuvininkystė	-10.0076
konferencij	-10.0076
eksport	-10.0076
pacient	-10.0076
režim	-10.0084
pasekm	-10.0089
byl	-10.009
stabil	-10.0116
įvertint	-10.0132
tvirtina	-10.0135
pažeidžiam	-10.0213
padeda	-10.0225
puikia	-10.0233
ingum	-10.0265
bausm	-10.0272
efektyvum	-10.029
atsižvelgt	-10.0303
draudim	-10.0352
diskriminacij	-10.0352
pusiausvyr	-10.0352
ameriko	-10.0352
graikijo	-10.0352
nieko	-10.0353
prisidėt	-10.0355
reali	-10.036
jaunim	-10.0365
pabaigo	-10.0408
padidin	-10.0436
globalizacij	-10.0493
įsipareigo	-10.0493
iešk	-10.0494
svarstom	-10.0517
ankstesn	-10.0541
posėd	-10.0632
import	-10.0635
užkirst	-10.0635
praktik	-10.0636
leiski	-10.0636
tiekim	-10.068
ngl	-10.0682
bendrosio	-10.0701
mokykl	-10.078
rytoj	-10.0781
suvok	-10.0784
gauna	-10.079
šeši	-10.0795
labiausia	-10.081
socialist	-10.0845
▁¦2011	-10.0927
įvairov	-10.0927
aiškinim	-10.0969
rank	-10.1065
kapital	-10.1077
gyvūn	-10.1077
struktūrini	-10.1077
darbotvarkė	-10.1078
stojim	-10.1079
neteisėt	-10.1122
silpn	-10.1229
panaudot	-10.1245
esanči	-10.1287
peržiūr	-10.1323
svarst	-10.1338
barro	-10.1382
smerk	-10.1382
balt	-10.1409
civili	-10.141
patiria	-10.1418
praneš	-10.1452
apgailestau	-10.1538
inovacij	-10.1538
sąraš	-10.1538
pristat	-10.1538
grindžiam	-10.1538
rūši	-10.1539
našt	-10.1616
atsinaujinanči	-10.1697
pirmininkaujant	-10.1697
dalyvavim	-10.1698
patvirtinim	-10.1698
preki	-10.1698
tikrinim	-10.1806
institucin	-10.1858
prevencij	-10.1858
keleivi	-10.1858
švedij	-10.1858
užduoti	-10.186
amžia	-10.188
priklausomyb	-10.1934
x	-10.2022
integruot	-10.2022
registr	-10.2022
analiz	-10.2022
koordinavim	-10.2022
apskrit	-10.2022
pobūdži	-10.2022
migrant	-10.2022
istorij	-10.2022
pareigūn	-10.2022
aplinkosaug	-10.2023
žuv	-10.2059
omeny	-10.2166
kaimyn	-10.2167
pripažįsta	-10.2189
bendradarbiaut	-10.2189
geležinkeli	-10.2189
investuot	-10.2189
punkt	-10.2189
spaudim	-10.2189
referendum	-10.2189
konkret	-10.2189
keičia	-10.2189
nedels	-10.2189
pensij	-10.2189
privat	-10.2194
pastat	-10.2197
turinči	-10.2314
vaidm	-10.2354
pavaduotoj	-10.2358
skirstym	-10.2358
aplinkybėm	-10.2358
penki	-10.2359
prieinam	-10.2363
uždavin	-10.2367
atitikt	-10.2369
vykusi	-10.2407
galvot	-10.2408
keisti	-10.2455
birželio	-10.2531
pabėgėli	-10.2531
šengen	-10.2531
gebėjim	-10.2531
policij	-10.2531
organizuo	-10.2531
autori	-10.2531
reikalaut	-10.2544
bandym	-10.2571
elektro	-10.2692
q	-10.2706
europieči	-10.2706
reaguot	-10.2706
atsarg	-10.2706
rusija	-10.2708
kosov	-10.2709
kinijo	-10.2805
duoda	-10.2851
naudojimą	-10.2854
kelianči	-10.286
plojimai	-10.2885
tūkstanči	-10.2885
atidžia	-10.2885
tarpusav	-10.2885
įstaig	-10.2886
panaikinim	-10.2886
tarpvalstybin	-10.2892
plėtoti	-10.3067
reikšming	-10.3067
sankcij	-10.3067
element	-10.3067
garantij	-10.3067
manymu	-10.3067
dvej	-10.3089
administracin	-10.3252
delegacij	-10.3252
trečių	-10.3252
įtvirtint	-10.3257
paaiškint	-10.3258
laimė	-10.332
lyči	-10.3381
é	-10.344
sustabdyt	-10.344
gynyb	-10.3441
atsisakyt	-10.3442
nepakanka	-10.3512
pamiršt	-10.355
spręs	-10.3596
pradeda	-10.3637
kopenhago	-10.3829
á	-10.3829
malonu	-10.3829
valiut	-10.3831
nukreipt	-10.3832
sutarim	-10.3839
atvyk	-10.3905
skatinim	-10.4008
ryžting	-10.4029
pageidau	-10.4029
rumunijo	-10.4029
statyb	-10.4029
religij	-10.4029
lankstum	-10.4029
sąskait	-10.4031
lygybė	-10.4031
elektronin	-10.4045
konkurencin	-10.4233
apribojim	-10.4233
aljans	-10.4233
kandidat	-10.4233
smulk	-10.4233
paprašyt	-10.4238
sutarči	-10.4238
konstitucij	-10.4441
potencial	-10.4441
ratifikav	-10.4441
rodikl	-10.4441
ö	-10.5792
"	-10.669
è	-11.2367
í	-11.3344
ó	-11.4425
;	-11.4628
:	-11.6634
ü	-11.702
?	-12.0146
ä	-12.0531
ă	-12.1642
(	-12.2507
&	-12.4321
ń	-12.5988
]	-12.5988
ć	-12.7988
ß	-12.7988
ú	-13.0488
°	-13.0488
ţ	-13.0488
ê	-13.3821
ł	-13.3821
ň	-13.3821
à	-13.3821
ķ	-13.3821
ç	-13.8821
ż	-13.8821
·	-13.8821
ñ	-13.8821
ý	-13.8821
ő	-14.8813
ï	-14.8814
ø	-14.8815
[	-14.8816
ş	-14.8817
+	-14.8818
'	-14.8819
%	-14.882
ř	-14.8821
7	-14.8821
_	-14.8821
ò	-14.8821
ī	-14.8821
ľ	-14.8821
ś	-14.8821
̨	-14.8821
έ	-14.8821
π	-14.8821
ρ	-14.8821
υ	-14.8821
”	-14.8821
•	-14.8821
