<pad>	0
</s>	0
<unk>	0
,	-2.7976
.	-3.2398
▁ir	-3.78463
s	-3.98994
i	-4.03602
ų	-4.18668
▁	-4.30834
o	-4.38724
▁kad	-4.44856
ą	-4.74739
a	-4.94154
as	-4.95911
e	-4.96232
os	-5.05084
▁Europos	-5.07115
u	-5.08269
us	-5.18383
▁su	-5.18923
▁į	-5.25643
▁dėl	-5.29544
▁yra	-5.34875
ai	-5.38262
▁-	-5.41878
▁iš	-5.52359
ti	-5.54768
▁ne	-5.59988
▁tai	-5.615
)	-5.8433
▁(	-5.84649
▁pat	-5.85856
m	-5.91449
▁kaip	-5.91888
k	-5.9817
me	-6.00367
▁ši	-6.00571
▁taip	-6.00838
į	-6.05389
ė	-6.06425
▁m	-6.09804
ės	-6.1038
▁ES	-6.11724
▁būtų	-6.12002
▁už	-6.12331
v	-6.12929
▁būti	-6.13543
ę	-6.14881
▁turi	-6.17272
▁labai	-6.22973
is	-6.2337
nt	-6.24099
▁savo	-6.24422
▁tik	-6.2628
▁to	-6.26721
p	-6.27907
▁buvo	-6.28303
▁apie	-6.31092
n	-6.3436
z	-6.36061
t	-6.36347
▁per	-6.36416
▁mūsų	-6.37124
▁be	-6.40502
ais	-6.41115
▁Komisijos	-6.41269
▁nes	-6.41396
d	-6.43124
y	-6.44053
▁pirmininke	-6.47427
▁bet	-6.50326
in	-6.50452
es	-6.51101
▁kai	-6.51155
r	-6.52872
ta	-6.53062
b	-6.536
▁o	-6.53732
▁dar	-6.54691
▁ar	-6.5471
l	-6.58666
te	-6.61037
▁mes	-6.62679
▁bus	-6.62859
au	-6.63282
ma	-6.63376
▁gali	-6.63867
g	-6.65717
▁pa	-6.66794
▁turėt	-6.6714
oje	-6.67308
▁jų	-6.67498
▁kurie	-6.67541
▁reikia	-6.68613
▁Tai	-6.69079
▁nuo	-6.72516
▁vis	-6.75247
▁kuri	-6.75376
▁Sąjungos	-6.75605
ja	-6.75698
▁norėčiau	-6.75791
▁"	-6.7594
ž	-6.76723
tų	-6.77312
:	-6.78632
omis	-6.80477
ių	-6.80644
▁Parlamento	-6.82977
▁Todėl	-6.83959
▁jau	-6.87025
li	-6.8747
▁Komisija	-6.87602
si	-6.88784
▁turime	-6.88816
▁darbo	-6.90039
to	-6.90638
▁daug	-6.91736
ra	-6.9238
ams	-6.92477
▁kurios	-6.92536
mi	-6.92829
▁jos	-6.9386
▁narių	-6.9398
▁prie	-6.95388
ame	-6.97383
▁S	-6.97972
"	-6.9813
ant	-6.98137
▁teisės	-6.99335
▁valstybės	-6.9983
▁valstybių	-6.99979
ui	-7.00232
▁šį	-7.00519
oms	-7.02271
▁d	-7.02312
al	-7.03504
▁prieš	-7.04762
imo	-7.04924
▁metu	-7.04975
?	-7.05844
▁Tačiau	-7.05844
▁Ši	-7.06848
▁mums	-7.07114
š	-7.07588
▁Pone	-7.07889
▁šiuo	-7.0789
io	-7.08341
▁ypač	-7.084
imas	-7.08567
▁J	-7.09339
▁daugiau	-7.09495
ir	-7.09616
mas	-7.12654
▁užtikrinti	-7.13439
imą	-7.15579
▁tačiau	-7.15649
▁šios	-7.16381
iai	-7.17169
▁B	-7.1759
▁nėra	-7.17607
▁M	-7.17996
iu	-7.1821
na	-7.1842
▁siekiant	-7.19377
am	-7.20069
▁po	-7.20236
▁kuris	-7.20323
▁politikos	-7.20776
uose	-7.20897
ar	-7.20976
ri	-7.21042
▁todėl	-7.22562
▁A	-7.22806
aus	-7.23283
ųjų	-7.23322
ei	-7.23783
▁Be	-7.24101
▁G	-7.24169
▁mano	-7.25546
▁svarbu	-7.26595
▁K	-7.26959
▁t	-7.28379
▁šalių	-7.29013
▁P	-7.29131
P	-7.29203
ko	-7.2927
en	-7.29535
▁Taip	-7.29989
tas	-7.30158
▁aš	-7.30305
▁ji	-7.31957
▁teisių	-7.32638
ka	-7.33228
▁manau	-7.34787
▁at	-7.34957
▁Vis	-7.35218
▁tam	-7.35392
;	-7.35583
▁Gerb	-7.36276
ek	-7.36662
▁dabar	-7.37042
▁jis	-7.3858
▁narės	-7.39256
▁iki	-7.39414
▁ekonomikos	-7.40099
▁šio	-7.40438
▁visų	-7.40873
▁galima	-7.41096
▁Parlamentas	-7.41566
▁klausimas	-7.42629
ys	-7.42943
re	-7.43198
▁nu	-7.43234
▁srityje	-7.43347
er	-7.43493
ik	-7.43501
▁bendradarbiavim	-7.44084
▁susijusi	-7.44147
f	-7.44202
ėme	-7.4487
ia	-7.44903
▁visiška	-7.45181
▁jo	-7.45449
▁Tarybos	-7.46327
▁šiandien	-7.46327
ni	-7.46723
▁kurį	-7.46875
▁Mes	-7.4692
▁žmogaus	-7.47089
▁metų	-7.47101
an	-7.47222
or	-7.47631
▁jie	-7.48236
▁negali	-7.49291
▁kas	-7.49717
▁arba	-7.49859
el	-7.49874
▁kurių	-7.50761
pa	-7.50804
▁k	-7.51433
iau	-7.52096
ose	-7.52337
▁ką	-7.52464
▁tarp	-7.52557
▁žmonių	-7.5297
▁Manau	-7.53016
▁pranešimą	-7.5339
tin	-7.54579
umo	-7.54644
▁nepa	-7.54751
▁pagal	-7.55946
▁priemonių	-7.56698
▁Sąjunga	-7.56996
-	-7.57004
dami	-7.57142
▁kuriuos	-7.57614
inės	-7.58246
ijos	-7.58626
▁jei	-7.58789
▁raštu	-7.59222
▁šis	-7.59874
▁tiek	-7.60073
gi	-7.60275
▁būtina	-7.6047
ėje	-7.6062
mo	-7.60852
▁veiksmų	-7.61396
▁T	-7.614
▁prekybos	-7.63619
uot	-7.63675
▁pasi	-7.6386
▁reikal	-7.63992
▁jog	-7.64219
▁E	-7.64596
sime	-7.64717
ur	-7.64784
▁pasakyti	-7.64911
▁toliau	-7.65007
galėtų	-7.65037
ak	-7.65553
▁rinkos	-7.65907
mos	-7.66182
▁klausimu	-7.66369
je	-7.66465
▁proc	-7.67121
▁klausimą	-7.67764
ms	-7.6777
mą	-7.68133
on	-7.68681
▁R	-7.68893
▁Pa	-7.68925
ius	-7.6894
▁atveju	-7.69163
▁Ne	-7.69434
▁Norėčiau	-7.69639
sta	-7.70098
h	-7.70098
▁energijos	-7.70118
osios	-7.70282
▁žemės	-7.71619
iems	-7.7189
▁Poni	-7.72085
▁C	-7.72534
▁p	-7.73162
tar	-7.73476
c	-7.73675
▁Lisabono	-7.7403
▁re	-7.74094
j	-7.7416
▁kartą	-7.74545
la	-7.74876
inių	-7.75575
lo	-7.75915
▁klimato	-7.76045
▁svarbi	-7.76288
▁kartu	-7.76584
tos	-7.76765
▁nors	-7.76953
uoti	-7.77402
išk	-7.7745
▁ko	-7.77616
▁pirma	-7.77846
▁apsaugos	-7.7793
▁kur	-7.78134
il	-7.78781
▁nei	-7.79208
ojo	-7.79873
▁kurią	-7.80047
▁frakcijos	-7.80247
▁padėkoti	-7.80734
▁vardu	-7.80786
▁Šiuo	-7.81664
▁dėmesį	-7.81806
▁Aš	-7.81956
▁dėlto	-7.82534
▁jūsų	-7.82554
at	-7.82771
▁D	-7.82861
▁pagrindini	-7.82988
umą	-7.83474
iškai	-7.83544
▁maž	-7.83705
▁viena	-7.83892
▁Kaip	-7.84642
▁priimti	-7.84671
▁Europoje	-7.85094
▁Pirmininke	-7.85095
▁padaryti	-7.85451
ne	-7.85453
▁net	-7.85883
▁politiką	-7.86214
▁ponai	-7.86333
▁ūkio	-7.86779
▁imtis	-7.86784
▁pranešime	-7.86789
▁tuo	-7.86912
▁kuria	-7.86928
ing	-7.87375
ū	-7.87624
▁priemones	-7.88175
▁man	-7.88412
jo	-7.88825
do	-7.89078
▁atžvilgiu	-7.89653
▁piliečių	-7.90354
▁Dėl	-7.90826
aug	-7.91106
tik	-7.91575
▁biudžeto	-7.91856
▁L	-7.92313
▁kelia	-7.92652
▁sk	-7.9318
ėjo	-7.93252
▁politika	-7.93295
▁pateikti	-7.93553
ūr	-7.93648
▁svarbus	-7.94007
▁įgyvendinti	-7.94012
▁kitų	-7.94258
▁N	-7.94359
▁darbą	-7.94435
ty	-7.94499
▁Turi	-7.94863
ro	-7.94978
ime	-7.95587
▁čia	-7.95603
▁mėn	-7.95689
▁Taryba	-7.95741
T	-7.95895
da	-7.95932
2	-7.96075
▁visiems	-7.96454
dama	-7.96708
▁Ar	-7.96771
ga	-7.97257
▁labiau	-7.97387
ūs	-7.97583
▁turėtum	-7.97871
▁Europa	-7.98074
▁laisv	-7.98157
▁vidaus	-7.98177
▁tikrai	-7.98811
▁jūs	-7.99201
iam	-7.99215
▁pri	-7.99348
▁šia	-7.99461
tu	-7.99526
▁V	-7.99775
ėja	-8.0004
▁visos	-8.00186
▁vienas	-8.00447
▁aiškiai	-8.00456
▁teis	-8.00645
imu	-8.00702
le	-8.0172
dži	-8.01848
▁ap	-8.0205
▁ponios	-8.02057
ama	-8.02097
ėmis	-8.02452
▁v	-8.02471
▁vien	-8.02993
di	-8.03129
veik	-8.03192
kai	-8.03349
usi	-8.03773
▁požiūriu	-8.04053
▁saugumo	-8.0407
▁jeigu	-8.04772
▁tikrųjų	-8.04776
pv	-8.05049
ėms	-8.05309
▁galimybę	-8.05527
lai	-8.05609
L	-8.05885
▁galime	-8.05973
▁l	-8.06105
▁skirt	-8.06523
ln	-8.06673
▁pasiekti	-8.0671
▁institucijos	-8.06783
▁siekiama	-8.06849
▁šiuos	-8.0694
no	-8.07109
▁finansų	-8.0715
▁sukurti	-8.07216
▁klausimus	-8.07511
čiau	-8.07581
▁laiko	-8.0764
▁šioje	-8.07886
ęs	-8.07889
▁įvairi	-8.08024
▁nariai	-8.08207
▁sistemos	-8.08881
DE	-8.08899
tą	-8.08915
yb	-8.09344
ci	-8.09392
ol	-8.09507
▁tokia	-8.09554
▁pabrėžti	-8.09713
▁nustatyti	-8.10402
▁visi	-8.11006
▁maisto	-8.11025
▁atsižvelgia	-8.11153
▁transporto	-8.1202
mų	-8.12166
▁Jei	-8.1304
▁komiteto	-8.13214
inti	-8.13588
vo	-8.13703
A	-8.13875
▁Sąjungoje	-8.13955
▁moterų	-8.13955
▁sveikatos	-8.13955
▁jums	-8.13979
▁EUR	-8.1406
▁žinoma	-8.14087
▁š	-8.14378
▁I	-8.14815
inio	-8.14839
imui	-8.14866
tume	-8.14943
▁mokslini	-8.15071
▁nuomone	-8.15451
▁kuriuo	-8.15896
yti	-8.16194
▁reiškia	-8.1635
ina	-8.16421
▁socialini	-8.16529
▁energetikos	-8.16975
0	-8.17335
▁du	-8.17373
rin	-8.17487
▁H	-8.17607
▁pasaulyje	-8.17743
▁įskaitant	-8.17743
▁Iš	-8.17829
▁sistema	-8.17843
▁krizės	-8.18116
ch	-8.183
▁plėtros	-8.18518
▁šalies	-8.18518
5	-8.18801
▁Mano	-8.19127
▁valstybėms	-8.19316
var	-8.19361
ba	-8.19807
▁vietos	-8.20087
▁nebuvo	-8.20142
damas	-8.20669
▁priemonės	-8.20766
▁šalys	-8.20975
gu	-8.21156
▁atsi	-8.2134
▁F	-8.21463
▁valstybėse	-8.21649
▁atskir	-8.22147
▁neturi	-8.2228
čių	-8.22331
▁Tarybai	-8.22382
▁šalims	-8.22487
▁pasiūlymą	-8.22559
nčios	-8.22574
jų	-8.22646
ems	-8.2284
oji	-8.22929
▁juos	-8.22987
▁jį	-8.23305
umas	-8.23346
▁aplinkos	-8.23439
E	-8.2345
cija	-8.23718
▁Parlamente	-8.24153
trauk	-8.24397
N	-8.24505
▁Kita	-8.24578
▁šalyse	-8.24848
▁šiam	-8.25278
uoja	-8.25627
▁padėti	-8.25923
tai	-8.26077
▁produktų	-8.26271
▁veiksming	-8.26333
▁metais	-8.26871
▁kurio	-8.26962
▁pateik	-8.27021
▁kuriai	-8.27132
kl	-8.27437
▁žmonės	-8.27467
S	-8.27565
▁turės	-8.27573
dar	-8.27585
esni	-8.28099
iant	-8.28307
▁paslaugų	-8.28322
▁srityse	-8.28386
▁susi	-8.28552
▁kurioje	-8.28963
▁padėtį	-8.29268
▁direktyvos	-8.29282
▁oro	-8.29463
▁kitos	-8.29667
▁narys	-8.29941
▁euro	-8.30001
/	-8.30053
▁pasaulio	-8.30053
▁problema	-8.30075
▁vieną	-8.31196
▁ž	-8.31308
1	-8.31685
ly	-8.32378
▁veiklos	-8.3271
▁spręsti	-8.32711
ju	-8.32794
▁ją	-8.33056
▁kuriose	-8.33172
▁lygio	-8.3327
▁noriu	-8.33381
kt	-8.33523
▁pagalbos	-8.33612
▁pranešimas	-8.33645
▁nauj	-8.33795
▁vyriausyb	-8.34153
et	-8.34157
▁ja	-8.34278
▁visa	-8.34402
▁išteklių	-8.34518
▁taisyklių	-8.34541
▁visuomenės	-8.34632
ij	-8.35264
▁Es	-8.35342
▁lėšų	-8.35436
▁kelet	-8.35436
▁šalis	-8.35436
▁pranešimo	-8.35473
▁vieš	-8.3549
ky	-8.35541
▁Bendrijos	-8.3555
▁jiems	-8.35647
▁skatinti	-8.35653
▁teisę	-8.35725
va	-8.35954
▁2009	-8.36368
▁Taigi	-8.36656
▁nesu	-8.3687
▁nori	-8.36911
▁kuriam	-8.37207
▁šie	-8.37312
gr	-8.3756
▁tiesų	-8.38045
▁suteikti	-8.38163
▁narėms	-8.38267
▁norime	-8.3853
mis	-8.38651
raš	-8.39007
du	-8.39108
▁jūros	-8.39192
▁gyventojų	-8.39194
▁tikslas	-8.39194
▁sumažinti	-8.39386
▁skirti	-8.39663
▁bendrą	-8.40049
▁didesn	-8.40119
▁institucijų	-8.40154
▁mokesčių	-8.40154
▁ateityje	-8.40155
▁piliečiams	-8.40166
▁didel	-8.40354
▁metus	-8.40618
▁pas	-8.40753
▁gerai	-8.40923
▁bendr	-8.40938
▁sistemą	-8.41125
▁vaidmenį	-8.41125
▁narėse	-8.41125
▁kuo	-8.41157
▁tarptautin	-8.41393
▁vėl	-8.4149
nčių	-8.41541
▁mažiau	-8.41804
▁teises	-8.41807
ad	-8.41881
▁Balsav	-8.41977
ją	-8.42046
▁Antra	-8.42106
▁pra	-8.42124
▁lygmeniu	-8.42127
▁dideli	-8.42135
▁pritariu	-8.42165
ntys	-8.42673
▁priežiūros	-8.43095
▁rodo	-8.43112
▁susitarimas	-8.43122
▁tekst	-8.43154
uk	-8.4333
▁ra	-8.43505
▁1	-8.43714
▁kiek	-8.43747
▁g	-8.43755
čio	-8.43912
▁pastar	-8.4392
avo	-8.44045
▁vartotojų	-8.44095
▁būtent	-8.44096
▁aktų	-8.44099
jai	-8.44102
▁susitarimo	-8.44123
▁nary	-8.44307
ieji	-8.44572
▁pasiek	-8.44728
▁geriau	-8.4476
iame	-8.45232
▁politin	-8.45545
rod	-8.45678
▁O	-8.45685
▁pirmiausia	-8.46144
▁papildom	-8.46162
▁rezoliucijos	-8.46259
D	-8.46823
▁žmonėms	-8.47156
▁fakt	-8.47166
▁visus	-8.4725
▁reikėtų	-8.47333
▁įtraukti	-8.47421
▁nor	-8.47487
▁toki	-8.47531
▁ta	-8.48198
▁De	-8.48296
iš	-8.48303
▁darbuotojų	-8.48308
▁esame	-8.48538
str	-8.4867
▁padėtis	-8.48794
▁dalis	-8.48822
▁kovos	-8.48975
▁vyksta	-8.48987
▁teisin	-8.49166
▁esu	-8.49316
ist	-8.49448
▁Kai	-8.49611
mus	-8.49713
▁privalo	-8.49866
▁tinkamai	-8.50165
▁problemų	-8.50315
▁strategijos	-8.50319
▁paramos	-8.50327
▁kadangi	-8.50356
▁Ji	-8.50555
ter	-8.50726
▁rinką	-8.51142
▁pak	-8.51325
▁dažnai	-8.5139
▁problemos	-8.5139
▁paramą	-8.51391
▁klausimų	-8.514
▁tikiuosi	-8.51435
ntis	-8.51828
▁sprendimus	-8.51917
imų	-8.51934
tis	-8.52415
▁Galiausiai	-8.52479
▁tikslų	-8.52481
▁sprendimo	-8.52484
inink	-8.52554
em	-8.52872
7	-8.52895
6	-8.53283
avimo	-8.53518
▁poveikį	-8.53576
FR	-8.53584
8	-8.53713
ome	-8.54004
itin	-8.54172
▁rink	-8.5418
▁kuriomis	-8.5428
ver	-8.54348
▁gauti	-8.5438
▁pateikt	-8.54443
▁priėm	-8.54602
ES	-8.54643
9	-8.54772
▁didžiul	-8.54773
▁kontrolės	-8.54803
▁dirbti	-8.55198
B	-8.55287
▁20	-8.55451
▁galimybes	-8.55552
uosius	-8.55697
▁Dabar	-8.55732
▁tyrimų	-8.5581
▁valdžios	-8.55811
▁dauguma	-8.55815
▁kodėl	-8.55822
▁valdymo	-8.55824
▁tikr	-8.55874
▁piliečiai	-8.56056
▁naujas	-8.56165
umu	-8.56298
▁sąlygas	-8.56442
▁privalome	-8.56481
▁tinkam	-8.56501
iausi	-8.5673
▁būsim	-8.56786
".	-8.56885
▁gal	-8.56927
▁3	-8.56989
▁esmės	-8.57012
ąją	-8.57026
iams	-8.57135
ig	-8.57143
▁klausimais	-8.57297
ėte	-8.57415
▁sak	-8.57527
▁sudaro	-8.57555
ino	-8.5757
▁aiški	-8.57702
inį	-8.57817
▁bendra	-8.57921
▁pramonės	-8.58261
ren	-8.58288
▁daryti	-8.58547
▁parlament	-8.58721
▁tvar	-8.58856
▁atitinkam	-8.5907
▁koki	-8.59246
▁sprendimą	-8.59354
▁Lab	-8.59417
▁EP	-8.59426
▁ga	-8.59456
▁val	-8.59464
4	-8.59557
▁galėtum	-8.5979
ut	-8.60002
▁Ž	-8.60352
▁plat	-8.60441
▁Man	-8.60516
▁problemas	-8.60608
▁atlikti	-8.6085
▁visą	-8.61225
▁aišku	-8.61563
▁dėmesio	-8.61626
▁pasiūlymas	-8.61626
▁pasinaudoti	-8.61631
▁krizę	-8.618
▁tarptautini	-8.62025
▁kita	-8.62335
▁kelią	-8.62471
ku	-8.62508
inę	-8.62572
C	-8.62658
▁apsauga	-8.62831
inimo	-8.62835
▁didžiausi	-8.62969
lio	-8.63243
▁Komisijai	-8.63376
bu	-8.63404
siu	-8.63712
▁de	-8.63761
▁parengti	-8.63875
▁balsavau	-8.6405
▁informacijos	-8.6405
▁susitarimą	-8.64082
▁įmonių	-8.6412
▁keli	-8.64169
▁diskusijos	-8.64901
▁įgyvendin	-8.64919
▁atkreipt	-8.64979
M	-8.65193
▁toks	-8.65336
▁visada	-8.65339
▁naujų	-8.657
▁skirting	-8.65843
▁siekti	-8.66128
▁pradėti	-8.66239
▁padar	-8.66313
mon	-8.66405
▁tapt	-8.66487
▁padėties	-8.66777
▁rinka	-8.67239
▁griežt	-8.67292
mės	-8.67356
▁tikslus	-8.67597
▁galimyb	-8.67662
steb	-8.67681
▁nuolat	-8.67719
▁strategija	-8.67801
▁pagalbą	-8.67805
▁sprendimas	-8.67809
▁nebus	-8.67826
▁greičiau	-8.67846
▁gyvenimo	-8.67852
▁pakankamai	-8.67955
▁padidinti	-8.68091
ši	-8.68456
tor	-8.68511
▁4	-8.68563
esn	-8.68589
▁finansinių	-8.68762
▁gamyb	-8.68823
der	-8.6901
▁taikyti	-8.69036
▁derybų	-8.69083
▁vietų	-8.69083
▁šalyje	-8.69083
▁remti	-8.69086
▁užsienio	-8.69156
▁pirm	-8.69381
▁kar	-8.697
I	-8.70164
▁vystymosi	-8.70382
▁vaikų	-8.70382
▁Mūsų	-8.70384
▁dalį	-8.70385
▁y	-8.705
čiai	-8.7051
ran	-8.70837
▁pus	-8.71397
▁dabartin	-8.71535
inis	-8.71653
ge	-8.71673
▁Vadov	-8.71697
▁pasiūlymų	-8.71697
▁sutarties	-8.71698
▁regiono	-8.71701
▁Tik	-8.7172
yje	-8.71851
O	-8.71922
▁2	-8.71923
▁Per	-8.71963
ip	-8.72047
▁pagrindin	-8.7248
gal	-8.7276
▁fondo	-8.73031
▁sektoriaus	-8.73031
▁žingsnis	-8.73031
▁metod	-8.73031
▁2008	-8.73039
▁tvarkos	-8.73052
▁treči	-8.7307
▁rezoliuciją	-8.73217
▁laikas	-8.73343
▁šalimis	-8.73351
▁kaitos	-8.73448
dėti	-8.73594
▁veik	-8.73691
K	-8.73864
kr	-8.7411
▁sektoriuje	-8.74382
▁išorės	-8.74385
▁pasiūlymo	-8.7439
▁sav	-8.74456
▁kol	-8.74457
▁tinkl	-8.74482
ac	-8.74539
▁Į	-8.7454
rd	-8.74552
▁vertus	-8.74642
▁pritar	-8.74664
▁kalbėti	-8.74667
▁sudėting	-8.74695
▁susijęs	-8.74775
▁naują	-8.7484
▁išspręsti	-8.74841
▁Su	-8.74949
▁teigiam	-8.74953
▁Parlamentui	-8.75022
▁10	-8.75443
▁par	-8.75552
R	-8.75725
▁nepriklausom	-8.75735
▁duomenų	-8.75752
▁veiklą	-8.75753
▁apima	-8.75758
▁rasti	-8.75763
G	-8.7579
▁kiekvien	-8.75824
▁n	-8.75946
▁skirta	-8.76029
▁vadov	-8.76086
▁veikti	-8.76153
žr	-8.76265
▁At	-8.77102
▁padės	-8.77138
▁priežasčių	-8.77141
▁galbūt	-8.77149
▁būdu	-8.77168
▁dujų	-8.77193
▁įstatym	-8.77271
▁rinkoje	-8.77298
joje	-8.77352
kos	-8.77485
bo	-8.77572
▁laisvės	-8.77642
antis	-8.77644
dr	-8.77666
▁laikytis	-8.77726
▁vykd	-8.78011
▁stipr	-8.78021
▁kalba	-8.78058
▁sprendimų	-8.78551
3	-8.78579
▁klaid	-8.78684
V	-8.79106
ume	-8.79126
▁tą	-8.795
yr	-8.79527
▁diskusijas	-8.79543
▁klausimai	-8.79547
▁nebūt	-8.79803
▁JAV	-8.79978
▁Mums	-8.79979
▁finansavimo	-8.79986
▁klausimo	-8.80032
ke	-8.80048
▁įmonės	-8.80114
▁veikla	-8.80258
▁neturėtų	-8.80265
▁siek	-8.80326
inga	-8.80355
▁pritarti	-8.80386
▁tap	-8.80546
ry	-8.80565
▁5	-8.80971
▁susiję	-8.81007
▁kriz	-8.8108
▁patikim	-8.81235
▁poveikio	-8.81427
▁nepaisant	-8.81428
▁jokių	-8.81428
▁programos	-8.81432
▁taikom	-8.81462
▁tada	-8.81487
▁ekonominės	-8.81546
▁pakeisti	-8.81572
▁remiant	-8.81617
▁Sąjungai	-8.81769
▁svarbiausia	-8.82008
▁jame	-8.82366
▁kyla	-8.82428
▁Pirma	-8.82429
▁finansin	-8.82574
▁direktyva	-8.82619
▁jaun	-8.82715
▁abejo	-8.82887
▁Vidur	-8.82898
▁kokybės	-8.82984
jame	-8.83094
čia	-8.83147
▁nare	-8.83357
▁veikia	-8.834
▁priimt	-8.83441
daug	-8.83448
▁atlikt	-8.83548
U	-8.83559
▁grup	-8.83564
imus	-8.8402
▁jai	-8.84348
▁strategiją	-8.8439
▁Europą	-8.84391
▁2010	-8.84394
kur	-8.84402
▁matyti	-8.84404
iniai	-8.84438
▁sen	-8.84597
▁kovoti	-8.84621
▁vertinu	-8.84727
▁ketina	-8.84814
▁šiol	-8.85523
▁įsi	-8.85752
▁Tikiuosi	-8.85913
▁gerb	-8.85948
din	-8.85979
▁šiai	-8.86238
ang	-8.86252
▁socialinė	-8.86319
▁mus	-8.8637
▁ilg	-8.86385
▁saugos	-8.86393
pl	-8.8656
▁frakcija	-8.86605
amos	-8.86642
▁viso	-8.86909
▁Bet	-8.86916
▁tokios	-8.86929
▁daugyb	-8.87015
▁bū	-8.8711
▁apsaugą	-8.87444
▁rezultatų	-8.87444
▁000	-8.87444
▁Nors	-8.87446
▁nariams	-8.87458
▁Kalba	-8.87484
▁politinių	-8.87655
gali	-8.87735
▁tarptautinės	-8.87801
▁nebe	-8.87883
▁panaikin	-8.87987
kli	-8.88002
▁kitą	-8.88081
▁teikti	-8.88228
▁teising	-8.88377
▁kaita	-8.88745
▁pastangas	-8.89006
▁anksčiau	-8.89007
▁atrodo	-8.89007
yra	-8.89063
▁sąlygos	-8.89197
▁tas	-8.89318
▁įtrauk	-8.89348
▁dvi	-8.894
▁nustatyt	-8.89505
asis	-8.89557
per	-8.89633
kime	-8.89655
▁kokia	-8.89688
be	-8.89852
vert	-8.89884
mui	-8.89897
imai	-8.89917
▁gero	-8.90113
▁atstov	-8.90177
▁pramon	-8.90311
▁informacija	-8.90593
▁pinigų	-8.90593
▁mlrd	-8.90594
▁naudos	-8.90594
▁protokolą	-8.90598
▁pažangos	-8.90656
▁nuomonės	-8.90692
▁ten	-8.90726
▁atsižvelgti	-8.90757
▁poziciją	-8.90846
ymo	-8.9096
IT	-8.90975
usios	-8.90997
▁pači	-8.91281
kia	-8.91536
uoju	-8.91565
▁aktyv	-8.9157
▁poreiki	-8.91631
▁Viena	-8.91712
▁jam	-8.92008
▁informaciją	-8.92206
▁prieglobsčio	-8.92206
▁žmones	-8.92206
▁demokratijos	-8.92214
▁taisykles	-8.92255
▁skatin	-8.92266
kla	-8.92304
▁dalyvauti	-8.92305
▁pagerinti	-8.92368
▁galimybių	-8.9238
▁apsaugoti	-8.92384
▁Dar	-8.92418
▁žinome	-8.92427
▁Jūs	-8.9243
ąjį	-8.92433
H	-8.92493
▁bendros	-8.92508
▁efektyv	-8.92536
nčia	-8.92547
dien	-8.92561
▁vykdyti	-8.92908
▁teigiama	-8.9311
▁juo	-8.93159
▁laikotarpiu	-8.93619
▁sanglaudos	-8.93846
▁Nepais	-8.93847
▁centr	-8.93897
▁valstybes	-8.93951
▁taut	-8.94055
F	-8.94135
▁ju	-8.94182
▁ant	-8.94587
▁tokių	-8.94615
▁gr	-8.94693
▁Po	-8.94834
▁rimt	-8.94854
▁reikaling	-8.95104
▁vienod	-8.95144
nu	-8.95205
▁derybas	-8.95512
▁diskusijų	-8.95512
▁pavojing	-8.95512
▁Šiandien	-8.95512
▁taikymo	-8.95514
▁balsuoti	-8.95516
▁regionų	-8.95518
ger	-8.95556
▁dalies	-8.95598
▁pažangą	-8.95599
▁nuomonę	-8.95611
▁įgyvendinimo	-8.95629
▁balsavimo	-8.95842
▁kelių	-8.95907
▁daugiausia	-8.95925
▁asmenų	-8.95968
▁biudžet	-8.96045
čiu	-8.96363
▁ka	-8.96461
▁dirba	-8.96598
kite	-8.96699
▁6	-8.96724
▁pasak	-8.96768
▁padidin	-8.96819
inant	-8.96869
▁Europai	-8.9691
▁pagrind	-8.96953
audo	-8.97031
▁Žinom	-8.97214
▁Reik	-8.97247
▁patvirtinti	-8.97373
▁jus	-8.97477
esnis	-8.97619
▁leisti	-8.97628
▁tenka	-8.97696
▁teisini	-8.97932
▁kaimo	-8.97935
tvirtin	-8.98162
▁aišk	-8.98268
go	-8.98301
▁susiduria	-8.98676
▁pareišk	-8.98751
▁prezident	-8.98931
▁reikalavimus	-8.98932
▁partnerystės	-8.98937
▁naudoti	-8.98979
▁gyvyb	-8.99118
tį	-8.9912
and	-8.99156
▁galimybės	-8.99244
ingai	-8.99312
▁bendro	-8.99424
nų	-8.99431
▁Ko	-8.99484
▁siekia	-8.99706
▁veiksmingai	-8.99903
▁paprast	-9.00204
▁taigi	-9.0056
nelyg	-9.00656
▁Komisiją	-9.00686
▁komitete	-9.00686
▁konflikt	-9.00686
▁išmetam	-9.00688
▁mastu	-9.00694
▁kalbėjo	-9.00717
▁priemonėmis	-9.00729
ančių	-9.00853
▁tiesiog	-9.00861
▁direktyvą	-9.00927
▁pareng	-9.01023
▁aptarti	-9.01023
▁nieko	-9.01055
▁leidim	-9.01092
Europos	-9.01124
▁laiką	-9.01189
▁min	-9.01276
▁proces	-9.01328
▁nacionalinių	-9.01824
▁pirmininkauja	-9.02091
▁pačios	-9.02139
▁finansinė	-9.02186
lieka	-9.02441
▁19	-9.02467
▁dalykas	-9.02472
▁pasveikinti	-9.02472
▁požiūrį	-9.02472
▁reglamento	-9.02472
▁reguliavimo	-9.02472
▁užimtumo	-9.02472
▁partijos	-9.02472
▁tariant	-9.02473
▁kultūros	-9.02474
▁uost	-9.02494
▁parama	-9.02519
▁visuotin	-9.02537
nio	-9.02554
▁sutartį	-9.0256
▁pateikia	-9.02763
▁miest	-9.02962
▁pajėg	-9.03061
ami	-9.0309
▁bi	-9.03312
ap	-9.03385
lin	-9.03528
▁visuomen	-9.03708
jant	-9.03738
▁daugelio	-9.03756
esnės	-9.0382
ved	-9.03853
▁iniciatyva	-9.03957
▁numatyta	-9.04204
sis	-9.04222
▁komitetas	-9.0429
▁verslo	-9.0429
▁neigiam	-9.04291
▁Piet	-9.04298
▁galiausiai	-9.04302
▁įmonėms	-9.04314
▁sutartis	-9.04377
▁pozicija	-9.04393
▁sek	-9.04437
kalb	-9.04454
amas	-9.04674
▁Toki	-9.04818
▁La	-9.04924
ūtent	-9.04959
▁gyvena	-9.04995
▁norint	-9.05218
turėtų	-9.05312
dal	-9.05479
▁žino	-9.05724
iausia	-9.0574
▁Bendr	-9.05915
▁atsak	-9.06054
▁susitik	-9.06081
▁Pritariu	-9.06142
▁atliekų	-9.06142
▁investicijų	-9.06142
▁problemą	-9.06142
▁Rusijos	-9.06143
▁nuosekl	-9.06143
▁svarbūs	-9.06176
▁Jungtini	-9.0619
▁taisyklės	-9.06221
ciją	-9.06241
▁kainų	-9.06345
▁JT	-9.06395
▁laikotarpi	-9.06398
▁demokratų	-9.06422
▁pripažinti	-9.06514
▁taikoma	-9.06612
▁patvirtin	-9.06714
▁Ma	-9.06834
▁tampa	-9.06914
▁vykdom	-9.07008
▁atvir	-9.07157
▁atitinka	-9.07211
▁išsi	-9.07345
▁Šios	-9.07533
▁Pri	-9.07567
▁daro	-9.07584
▁leidžia	-9.07597
▁naujo	-9.07606
▁pirminink	-9.07753
20	-9.07781
▁sumažin	-9.07816
▁vyks	-9.07875
ntiems	-9.07891
▁savaitę	-9.08028
▁sritis	-9.08028
▁žvejybos	-9.08029
▁atstovauja	-9.0803
▁neabejotina	-9.0803
▁regione	-9.08032
▁augimo	-9.08032
▁prekyba	-9.08054
▁paremti	-9.08059
▁esant	-9.08126
▁svarstym	-9.08191
▁Amerikos	-9.08201
▁tvirt	-9.08227
▁sto	-9.08261
▁atvejais	-9.08266
čius	-9.08282
▁ekonomini	-9.08295
▁joms	-9.08309
▁panaikinti	-9.08514
▁daugeli	-9.08527
▁nares	-9.08666
▁įmanoma	-9.08769
▁suteikia	-9.08801
ąsias	-9.08983
▁blog	-9.09034
▁laukia	-9.09061
▁dr	-9.09206
▁rekomendacij	-9.09266
ag	-9.09479
▁tikras	-9.09517
▁pareigas	-9.09546
▁reform	-9.0961
▁gamin	-9.0969
▁tapo	-9.09824
▁antr	-9.09929
▁Afrikos	-9.09951
▁milijon	-9.09951
▁sektorių	-9.09951
▁suinteresuot	-9.09951
▁2011	-9.09951
▁atnaujin	-9.09951
▁skaičius	-9.09952
▁veiksmai	-9.09952
▁programą	-9.09955
▁dviej	-9.09966
▁sudaryti	-9.10001
▁turėjo	-9.10011
gy	-9.10015
NL	-9.10026
▁užkirst	-9.10057
▁svarb	-9.10124
pri	-9.10251
▁ties	-9.10295
▁pranešimu	-9.10307
▁gerbiam	-9.10319
dav	-9.10514
▁darbu	-9.10557
▁nustatyta	-9.10677
▁priklauso	-9.10895
▁negalima	-9.10988
▁suteikta	-9.11104
inimas	-9.11146
▁mechanizm	-9.11325
▁aukščiausio	-9.11604
▁12	-9.11611
val	-9.11748
▁skyr	-9.11867
▁dalykų	-9.11912
▁institucija	-9.11912
▁vaidmuo	-9.11912
▁mirties	-9.11913
▁šeši	-9.11913
▁vakar	-9.11913
▁veiksmus	-9.11913
bendruomen	-9.11913
▁interesų	-9.11913
▁organizacijos	-9.11915
▁sukūr	-9.11917
▁įveikti	-9.11918
▁kitaip	-9.11948
▁sąlygomis	-9.11953
▁sąžining	-9.11991
▁padeda	-9.12035
ėtų	-9.12318
▁kolegos	-9.12429
▁išvengti	-9.1251
▁pripažin	-9.12667
▁struktūr	-9.12685
▁tokio	-9.12875
man	-9.1295
▁reikalauja	-9.13113
▁ženkl	-9.13161
▁An	-9.13366
▁remia	-9.137
nčią	-9.1379
▁užsi	-9.13884
▁solidarumo	-9.13912
▁paskutin	-9.13912
▁aktus	-9.13913
▁rinkimų	-9.13949
nai	-9.14002
▁2020"	-9.14021
▁būtin	-9.14278
▁privalom	-9.14286
vai	-9.14418
leisti	-9.14472
usių	-9.14558
▁tvirtai	-9.14593
Europa	-9.14618
▁aptar	-9.14699
▁naujos	-9.14797
▁moksl	-9.14976
▁saug	-9.15069
▁pirmininko	-9.1523
▁link	-9.1576
▁lauk	-9.15761
▁nurod	-9.15838
▁Š	-9.15874
už	-9.1589
kart	-9.15951
▁jūrų	-9.15953
▁naudojimo	-9.15953
▁zonos	-9.15953
žemio	-9.15953
▁projektą	-9.15954
▁nenori	-9.15954
▁neiš	-9.15955
▁sprendimai	-9.15955
▁susirūpinimą	-9.16008
▁rengia	-9.16164
eigu	-9.16224
▁programa	-9.16226
▁Jie	-9.1623
▁palankiai	-9.16258
▁grupės	-9.16265
▁didelis	-9.16286
▁puikiai	-9.16355
▁8	-9.16498
▁reikalingas	-9.16498
▁kitais	-9.16516
▁lyg	-9.16592
damos	-9.17006
▁suderint	-9.17089
▁pranešėjas	-9.17286
▁panaši	-9.17435
ines	-9.17511
▁trump	-9.17559
met	-9.17747
▁ragina	-9.17784
▁mok	-9.17807
▁mišk	-9.17894
▁teisinga	-9.17919
▁žem	-9.17937
dyti	-9.17956
▁Atsižvelgia	-9.18036
▁atvejų	-9.18036
▁išlaidų	-9.18036
▁pastangų	-9.18036
▁baudžiam	-9.18036
▁gyvūn	-9.18036
▁keturi	-9.18037
▁požiūrio	-9.18037
▁neseniai	-9.18038
▁Pirmininko	-9.18049
▁siekdami	-9.18112
▁išsami	-9.18229
nčio	-9.18394
▁atsaking	-9.18559
▁pritaria	-9.18602
▁siekdama	-9.18618
▁struktūrini	-9.18628
▁kalbant	-9.1873
▁lig	-9.18934
▁panaudot	-9.18978
▁pro	-9.18983
▁tikrą	-9.19058
▁biudžetą	-9.19134
▁judėjim	-9.19288
nes	-9.19401
ven	-9.19472
sen	-9.19606
▁didesni	-9.19668
▁kit	-9.19676
▁praneš	-9.19883
▁kitas	-9.19931
tinių	-9.19993
▁pagrįst	-9.20041
▁kiti	-9.20087
▁Vengrijos	-9.20164
▁element	-9.20164
▁kilmės	-9.20164
▁priežastis	-9.20164
▁reikalavimų	-9.20164
▁santykių	-9.20164
▁Turkijos	-9.20164
▁požiūris	-9.20165
▁rytoj	-9.20167
▁esanči	-9.20202
▁skaidrumo	-9.2021
▁padarinių	-9.20238
▁sveik	-9.20241
pač	-9.20256
▁dalimi	-9.2031
▁sakant	-9.20341
▁gerinti	-9.20471
▁sudaryt	-9.20577
▁tuos	-9.20618
▁gyven	-9.20625
▁automobilių	-9.20653
▁suteik	-9.20689
▁viening	-9.20722
elyje	-9.20914
▁negu	-9.21171
▁tokiu	-9.21226
▁netinkam	-9.21266
▁plan	-9.21354
▁iššūki	-9.21572
▁7	-9.21646
▁bendrosio	-9.21917
▁sunku	-9.22062
▁Ka	-9.22097
▁kontrol	-9.22182
▁teikiama	-9.22244
ėjus	-9.2226
▁Sąjungą	-9.22338
▁džiaugiuosi	-9.22338
▁vartojimo	-9.22338
▁interesus	-9.22338
▁etap	-9.22339
▁projekto	-9.2234
▁tokį	-9.22349
▁darbas	-9.22361
▁papild	-9.22386
▁stiprinti	-9.22388
▁reali	-9.22517
▁kalbama	-9.22551
▁sal	-9.22573
▁tikslai	-9.22668
▁tikslu	-9.22754
▁9	-9.22781
▁praeit	-9.22799
▁siūl	-9.22883
▁baig	-9.23031
▁svarbą	-9.23333
▁daugel	-9.23338
▁atlieka	-9.2335
▁siūloma	-9.23399
▁procesą	-9.23418
▁parod	-9.2347
č	-9.23496
▁geriausia	-9.23621
▁nustat	-9.2363
▁tęsti	-9.23673
▁pasiūlymus	-9.23698
▁skiriama	-9.2375
▁apsi	-9.23803
▁speciali	-9.23883
▁siūlom	-9.23937
▁esam	-9.24048
▁sėkming	-9.24119
▁rezoliucija	-9.24177
▁Gali	-9.24182
▁Teis	-9.24232
eiti	-9.2431
inius	-9.24346
ybę	-9.2449
▁pabrėž	-9.24556
▁Prancūzijos	-9.2456
▁dėmesys	-9.2456
▁fondų	-9.2456
▁institucijoms	-9.2456
▁sistemų	-9.2456
▁sienų	-9.2456
▁skaičių	-9.24561
▁Šiaurė	-9.24561
▁Pirmiausia	-9.2457
▁nauja	-9.24578
▁įsitikinęs	-9.24578
▁užtikrinta	-9.24584
iška	-9.24585
▁galės	-9.24587
▁žuvininkystės	-9.24594
▁27	-9.24595
▁praėjusi	-9.24622
▁atsakomybės	-9.24688
▁did	-9.24706
▁reikalinga	-9.24799
▁Ir	-9.2489
▁įvertinti	-9.24933
bal	-9.25081
labiausiai	-9.25093
▁leis	-9.25179
▁interneto	-9.25202
▁sėkmingai	-9.25232
▁padaryta	-9.25284
▁sustiprinti	-9.25322
▁procesas	-9.25469
▁užtikrinant	-9.25474
▁kalbė	-9.2569
▁paskelb	-9.25711
vil	-9.25731
▁stipri	-9.25734
▁vėliau	-9.25984
nių	-9.25998
vis	-9.26148
turi	-9.26186
uojant	-9.2627
kelia	-9.26306
ntį	-9.26346
▁klaus	-9.26378
▁atsakym	-9.26387
▁30	-9.26573
ytų	-9.26644
▁nar	-9.26658
žvelg	-9.26728
▁išteklius	-9.26833
▁oficial	-9.26833
▁pavyko	-9.26833
▁pobūdžio	-9.26833
▁straipsnio	-9.26833
▁įsipareigojimų	-9.26833
▁demokratija	-9.26836
▁teisėkūros	-9.2684
▁2007	-9.26848
▁atsakyti	-9.26883
▁nario	-9.2694
▁ryt	-9.26959
▁teisingumo	-9.26961
▁išmok	-9.26995
ner	-9.27065
ybė	-9.27084
▁suprasti	-9.27111
▁tie	-9.27131
▁patirt	-9.27137
▁greitai	-9.27202
▁tikrų	-9.27318
▁vyriausybės	-9.27411
▁gru	-9.27444
▁kito	-9.27448
▁Jungtinės	-9.27487
▁atstovai	-9.27816
▁pagrindą	-9.28017
▁įvertin	-9.28048
inta	-9.28082
▁kurioms	-9.28109
▁demokratini	-9.28157
odžio	-9.28314
vesti	-9.28471
▁geras	-9.28501
▁teig	-9.28593
▁humanitarin	-9.28597
▁Visi	-9.28693
▁kovoj	-9.28764
▁manome	-9.28829
▁tokie	-9.28848
ausio	-9.28942
▁balsu	-9.28968
▁konferencij	-9.29028
udito	-9.29151
ung	-9.29151
▁anglies	-9.29158
▁integruot	-9.29158
▁kriterijus	-9.29158
▁moteris	-9.29158
▁principų	-9.29158
▁sprendžiant	-9.2916
▁nerimą	-9.29166
▁pieno	-9.2918
▁Už	-9.29261
▁standartus	-9.29395
tės	-9.2948
▁kurti	-9.29539
▁vadinam	-9.29641
▁didelį	-9.29725
▁pradėt	-9.29754
▁vandens	-9.29778
▁naudojam	-9.29815
▁sąlygų	-9.2982
▁taikomos	-9.29873
▁14	-9.29993
▁paminėti	-9.30117
acijos	-9.30153
▁praš	-9.30177
▁naudinga	-9.30193
▁laiku	-9.30468
▁visai	-9.3052
bū	-9.30699
▁priemon	-9.30826
▁Jos	-9.30908
▁pasiūl	-9.30983
▁kaimyn	-9.31141
▁mažai	-9.31237
▁demokratin	-9.31266
▁tem	-9.31282
▁11	-9.31448
▁geresn	-9.31448
▁bendrai	-9.31463
▁forma	-9.31531
▁dešimt	-9.31536
▁Barroso	-9.31539
▁Graikijos	-9.31539
▁manymu	-9.31539
▁moterys	-9.31539
▁reaguoti	-9.31539
▁stebėti	-9.31539
▁švietimo	-9.31539
▁Vakar	-9.3154
▁operacij	-9.3154
▁susitarimų	-9.31556
▁dieną	-9.31557
▁atsinaujinanči	-9.31557
▁tikslo	-9.31565
▁kalbos	-9.31571
▁Kart	-9.31575
▁nepritar	-9.31581
▁patiria	-9.31593
▁CO	-9.31621
lyčių	-9.31626
▁finansini	-9.31677
▁naudotis	-9.31743
ed	-9.31745
adangi	-9.31768
▁stat	-9.3186
istų	-9.31906
▁padėt	-9.31917
▁kalbame	-9.31972
▁įmon	-9.32268
▁parodyti	-9.32315
▁laisvę	-9.32363
▁planą	-9.32456
▁sunki	-9.327
▁tema	-9.32745
▁nuostat	-9.32755
▁Jau	-9.32815
▁sutinka	-9.3282
▁pasaulin	-9.33076
▁perspektyv	-9.33298
lėt	-9.3337
iniu	-9.33379
▁kolega	-9.33391
aisiais	-9.33404
nd	-9.33428
▁priemonė	-9.33507
site	-9.33595
▁skaidr	-9.33857
▁2020	-9.33871
▁geresni	-9.33893
▁garant	-9.33937
▁MVĮ	-9.33978
▁dialogą	-9.33978
▁modeli	-9.33978
▁santykius	-9.33978
▁Šengen	-9.33978
▁omenyje	-9.33979
▁vizų	-9.33979
▁pareigūn	-9.33979
▁romų	-9.3398
▁pakeitimų	-9.33986
▁darbuotojams	-9.33996
▁niekada	-9.34009
▁regionuose	-9.34023
▁Taut	-9.34026
▁Net	-9.34174
▁2006	-9.34249
▁pozicijos	-9.34359
▁tiekimo	-9.34475
▁darbuotojai	-9.34503
▁kandidat	-9.34605
▁sau	-9.34856
▁va	-9.34881
▁susijusios	-9.35148
▁25	-9.35174
nčias	-9.35266
▁Šie	-9.35483
▁lygi	-9.3562
▁tolesni	-9.35639
užtikrin	-9.35644
▁aukšt	-9.35821
tus	-9.36108
▁puik	-9.3618
▁valstyb	-9.36298
▁pasiektas	-9.36308
▁atvyk	-9.36429
▁registr	-9.36462
krikščionių	-9.36478
▁Džiaugiuosi	-9.36478
▁birželio	-9.36478
▁pavyzdys	-9.36478
▁principo	-9.36478
▁sritį	-9.36478
▁vartotojams	-9.36478
▁rug	-9.36479
▁liep	-9.36479
▁privači	-9.36479
▁būdas	-9.36481
kryp	-9.36494
▁saugumą	-9.36527
▁teisėt	-9.36528
▁minėjo	-9.3653
▁atsakomybę	-9.36615
▁viską	-9.36629
▁bendradarbiauti	-9.36649
▁žinote	-9.36666
▁kiekvieno	-9.36726
▁pačių	-9.36803
▁pasaulini	-9.36939
▁pagalba	-9.37011
▁galėsi	-9.37214
▁socialine	-9.37341
▁koleg	-9.37347
ny	-9.37455
▁rengiant	-9.37533
▁palaik	-9.37543
▁Nori	-9.37659
▁sp	-9.3784
▁pažeidžiam	-9.3786
▁produkt	-9.37973
▁priklausom	-9.38156
nis	-9.38229
▁geriausi	-9.38428
▁pateikta	-9.3849
ką	-9.38506
00	-9.38607
▁minėt	-9.38656
▁antra	-9.38751
▁Gr	-9.38861
avimu	-9.3892
▁sukurta	-9.3897
▁Prieš	-9.3903
▁organ	-9.39039
▁atsarg	-9.39043
▁ilgalaiki	-9.39043
▁konkurencijos	-9.39043
▁rezultatai	-9.39043
▁tyrimus	-9.39043
▁akivaizdžiai	-9.39043
▁ribų	-9.39043
▁Buvo	-9.39044
▁gauna	-9.39045
▁apribojim	-9.39069
▁Tuo	-9.39091
▁gyvenimą	-9.39139
▁susitikimo	-9.39164
▁socialinę	-9.39214
▁nacionalinės	-9.39215
omen	-9.39215
▁įgyvendinant	-9.39241
avimas	-9.39296
▁deja	-9.39303
▁nepri	-9.39486
▁prisidėti	-9.39686
▁pavyzdžiui	-9.3983
▁kovo	-9.39847
▁taikos	-9.39858
▁pabrėžiama	-9.39879
inėje	-9.40008
▁atsakinga	-9.40008
angl	-9.4004
▁prieinam	-9.40121
▁kr	-9.40134
▁koks	-9.40164
▁To	-9.40171
▁galutini	-9.40335
▁didėja	-9.40349
▁daugeliu	-9.40376
RO	-9.40396
▁gera	-9.40408
▁pagrindu	-9.40541
▁atliekam	-9.40559
▁nacionaliniu	-9.4058
▁ekonomikai	-9.40694
▁skatina	-9.40766
▁dabartini	-9.40848
▁lengva	-9.40958
▁turint	-9.41011
▁teik	-9.41575
▁stabil	-9.41579
▁esama	-9.41585
▁galim	-9.41645
▁administracin	-9.41674
▁amžiaus	-9.41674
▁apskritai	-9.41674
▁delegacij	-9.41674
▁informuoti	-9.41674
▁integracijos	-9.41674
▁išlaidas	-9.41674
▁lėšas	-9.41674
▁priežasties	-9.41674
▁sektorius	-9.41674
▁sričių	-9.41674
▁pasiūlymai	-9.41674
▁priminti	-9.41674
▁Airijos	-9.41675
▁Rusija	-9.41675
▁sutinku	-9.41676
▁partija	-9.41677
▁mokymo	-9.41691
▁penki	-9.41697
▁Negalim	-9.41703
▁pakeitimą	-9.41705
▁tikra	-9.41712
▁13	-9.41716
▁Rytų	-9.4173
▁susitikime	-9.41732
▁bendrovių	-9.41757
▁visapusišk	-9.41765
▁priešing	-9.41773
▁teisėms	-9.41797
▁netgi	-9.41945
▁Kit	-9.41974
▁balsavimą	-9.42041
▁derin	-9.42075
▁pagrįsta	-9.42158
▁aplinką	-9.42279
▁krize	-9.42279
▁gir	-9.42294
▁var	-9.42483
bar	-9.42535
▁rinkų	-9.4261
▁diskusija	-9.42615
▁nacionalini	-9.42649
▁pagrindas	-9.42806
imti	-9.42871
gen	-9.42895
amb	-9.42898
▁pateiktas	-9.42914
▁atlik	-9.43238
avimą	-9.4331
▁svarbiausi	-9.43316
▁U	-9.43433
▁kiekviena	-9.43454
▁proceso	-9.43557
▁šimt	-9.43661
ystės	-9.43991
pil	-9.44092
ėjimo	-9.44104
▁gerin	-9.44219
▁parengt	-9.44311
▁bendras	-9.4434
▁gynyb	-9.44377
Plojimai	-9.44377
▁pavojus	-9.44377
▁technologijų	-9.44377
▁žmonėmis	-9.44377
▁savanorišk	-9.44377
▁aplinkosaugos	-9.44378
▁privat	-9.4438
▁pakeitimai	-9.44382
▁priekį	-9.44385
▁imigracijos	-9.44393
▁pirmininkaujan	-9.44434
▁kasdien	-9.44473
▁mažinti	-9.44527
▁kokybę	-9.44536
▁kitomis	-9.44552
▁priėmimo	-9.44591
▁technologijas	-9.44615
▁įvyki	-9.4473
▁tarptautiniu	-9.44825
riz	-9.44839
dėjo	-9.44864
▁teisingai	-9.4488
▁Darbo	-9.45066
▁kompromis	-9.45121
▁partner	-9.4518
▁nusprend	-9.45183
▁numatyt	-9.45546
▁tek	-9.45652
▁laiv	-9.4568
nčius	-9.4573
▁vertin	-9.45781
▁laivų	-9.45902
▁nusi	-9.45926
▁pačiu	-9.46018
▁kelias	-9.46134
alia	-9.46245
▁kreip	-9.46555
▁nukreipt	-9.46562
▁teikiam	-9.46679
jos	-9.46707
den	-9.46713
▁suvok	-9.46819
pone	-9.46929
▁karo	-9.47108
▁priimtas	-9.47117
džio	-9.47126
▁papraš	-9.47126
▁2013	-9.47155
▁ekonomiką	-9.47155
▁konkret	-9.47155
▁kvalifikacij	-9.47155
▁lėšos	-9.47155
▁plėtoti	-9.47155
▁raginu	-9.47155
▁rizikos	-9.47155
▁sektoriui	-9.47155
▁taršos	-9.47155
▁ateities	-9.47155
▁balsavo	-9.47155
▁įprast	-9.47155
▁projektas	-9.47156
▁konkrečių	-9.47159
▁peln	-9.4717
▁paprašyti	-9.47184
▁mir	-9.47201
▁Daug	-9.47214
▁pasiraš	-9.47245
▁mažinimo	-9.47248
▁suma	-9.47248
▁žinių	-9.47303
▁raginama	-9.47495
▁gerą	-9.47499
▁išlaikyti	-9.47535
Pirminink	-9.4755
▁15	-9.47651
▁tiems	-9.47653
▁suteikt	-9.47698
▁tvari	-9.47738
▁ekonomin	-9.4781
▁Mar	-9.47835
▁mane	-9.47849
▁skubiai	-9.47852
nuo	-9.47875
▁pareig	-9.47878
▁standartų	-9.4791
▁apimt	-9.48026
▁abiej	-9.48033
savo	-9.48192
▁ekonomika	-9.482
▁sudar	-9.48348
▁sukurt	-9.48472
▁laikom	-9.48681
▁lygiu	-9.48684
▁svarbiausias	-9.48722
▁diskusijose	-9.48789
▁san	-9.48952
▁karto	-9.49195
▁derybos	-9.49296
ano	-9.493
▁baigti	-9.49304
▁nusikaltim	-9.4942
▁ginkl	-9.49547
▁patys	-9.49553
▁sunk	-9.49708
▁didžiausia	-9.4972
▁malonu	-9.49752
▁pasiekta	-9.49798
spręs	-9.49879
žiūri	-9.50006
▁Biudžet	-9.50012
▁Taryboje	-9.50012
▁agentūros	-9.50012
▁aplinkybėmis	-9.50012
▁darbotvarkės	-9.50012
▁globali	-9.50012
▁globalizacijos	-9.50012
▁konstruktyv	-9.50012
▁paslaugas	-9.50012
▁rezultatus	-9.50012
▁atidžiai	-9.50012
▁žodžiu	-9.50012
▁PPE	-9.50012
▁reikšming	-9.50013
▁susitarimai	-9.50025
▁veiksni	-9.50025
▁Pranešime	-9.50051
▁stabilumo	-9.50084
▁europin	-9.50092
▁tuomet	-9.50096
▁kitiems	-9.50112
▁kovojant	-9.50188
▁galimybe	-9.50201
▁reng	-9.50215
▁procedūros	-9.50221
▁paaiškinti	-9.50237
▁tinkamas	-9.50295
▁kažk	-9.50383
▁pranešėjui	-9.50463
▁visišk	-9.50506
▁politinės	-9.50674
▁reikalaujama	-9.50735
▁esmini	-9.50834
ck	-9.50844
▁pranešėja	-9.50849
▁pilietin	-9.51004
▁metin	-9.51094
leidžia	-9.51203
▁atitikt	-9.51386
▁atkreip	-9.514
▁susitarimu	-9.51468
▁taikomas	-9.51475
▁40	-9.51612
rodyti	-9.5167
▁svarbiausių	-9.5169
▁patik	-9.51719
▁nuostatos	-9.51769
▁jokios	-9.51841
▁produktai	-9.5187
▁susitarimus	-9.51889
▁puiki	-9.52043
▁leist	-9.52232
▁grėsm	-9.52593
▁pon	-9.52788
▁greit	-9.52869
▁200	-9.52878
▁analiz	-9.52884
▁Praneš	-9.52913
▁dalykai	-9.52953
▁dialogo	-9.52953
▁srities	-9.52953
▁duomenis	-9.52953
▁sienos	-9.52953
▁sutartimi	-9.52955
▁aktai	-9.52957
▁finansavimą	-9.5296
▁glaudžia	-9.52961
▁tris	-9.5297
▁abejonių	-9.52974
▁didinti	-9.52993
▁socialist	-9.53024
▁al	-9.53025
▁Valstybės	-9.53053
▁bendrovės	-9.53108
▁nepakankam	-9.53123
▁vertę	-9.53167
▁sukuria	-9.53184
▁Diskusijos	-9.53263
▁didelė	-9.53286
▁aplinkai	-9.53321
ski	-9.53329
sinaudo	-9.53388
EL	-9.53474
▁visom	-9.53558
▁laisvių	-9.53597
esnę	-9.53642
▁nepriimtina	-9.53786
▁50	-9.54001
▁pirmininkas	-9.54078
▁jokio	-9.54099
▁Tur	-9.54175
▁patvirtino	-9.54188
▁mat	-9.54197
▁biudžetas	-9.54241
▁vienos	-9.54337
▁parlamentin	-9.54339
▁nauding	-9.54547
jimo	-9.5455
Ž	-9.54551
▁pakeitimus	-9.54629
J	-9.54639
kšt	-9.54694
maž	-9.54773
▁susitar	-9.54997
▁tinkamą	-9.55237
▁sudėtinga	-9.55278
EB	-9.55314
▁dali	-9.55334
▁pasiūlymu	-9.5535
▁akivaizdu	-9.55579
▁ekonomine	-9.55634
▁kokios	-9.55698
▁vienintel	-9.55751
▁pažeid	-9.55834
▁nieka	-9.55895
▁apribo	-9.55952
▁Dėkoju	-9.55983
▁Kinija	-9.55983
▁Turkija	-9.55983
▁Vokietijos	-9.55983
▁darbotvarkę	-9.55983
▁dokumentu	-9.55983
▁pasirengę	-9.55983
▁perkėlim	-9.55983
▁rezultatas	-9.55983
▁pavadin	-9.55984
▁abejonės	-9.55984
▁šalį	-9.55984
▁padidėj	-9.55985
iškas	-9.55985
▁neturėtum	-9.55985
▁įtakos	-9.55985
▁įvykdymo	-9.55989
▁tikslą	-9.5599
▁tikimės	-9.55992
▁taikant	-9.56003
▁žodžio	-9.56019
▁masto	-9.56024
▁saugumas	-9.56024
▁pranešėjo	-9.56036
▁sutelkt	-9.56041
▁perdavim	-9.56057
▁įvykdyt	-9.5612
▁patenkinti	-9.56124
▁susirūpin	-9.56141
bank	-9.56186
ajam	-9.56288
▁laik	-9.563
▁vert	-9.56307
▁pen	-9.56404
▁iniciatyvos	-9.56542
▁silpn	-9.56557
▁žinoti	-9.56636
▁trumpai	-9.56684
▁kitus	-9.56826
▁Koki	-9.56868
▁nuostatas	-9.56889
▁nenu	-9.56991
▁reformas	-9.57123
▁paskatin	-9.57147
žiūrėti	-9.57833
▁režim	-9.57908
▁pajėgum	-9.58077
▁laiky	-9.58166
▁lygis	-9.58494
▁pasiūlyt	-9.58537
▁tikslais	-9.58657
▁skubi	-9.58869
acional	-9.59097
▁Sutarties	-9.59108
▁liaudi	-9.59108
▁panaudojim	-9.59108
▁pensijų	-9.59108
▁plėtrą	-9.59108
▁santykiai	-9.59108
▁pradeda	-9.59108
▁pradžioje	-9.59108
▁idėja	-9.59108
▁reiting	-9.59109
▁mėnesius	-9.59109
▁vyko	-9.59109
▁mažumų	-9.59109
▁vyrų	-9.59109
▁iškelt	-9.5911
▁pajamų	-9.5911
▁biologin	-9.5911
▁sukelt	-9.59111
▁Kodėl	-9.59118
iausiai	-9.59118
▁norėtume	-9.59126
▁Žemė	-9.59133
▁paprasčiausia	-9.59137
▁pasakė	-9.5914
▁pakeitimas	-9.59148
▁toli	-9.5915
▁Pagal	-9.59162
▁naudingas	-9.59212
▁skiriasi	-9.59219
▁bandym	-9.59223
▁pareikšti	-9.59227
mano	-9.59234
▁galėjo	-9.59245
▁eina	-9.59255
▁vietoje	-9.59347
▁ekonominę	-9.59356
ytoj	-9.59513
▁socialin	-9.59594
▁aukščiausi	-9.59605
▁suteiks	-9.59747
▁muit	-9.59755
tro	-9.59781
▁nurodyta	-9.59809
▁prioritetus	-9.59876
▁nacionalin	-9.60002
▁pažanga	-9.60036
▁Vien	-9.60153
▁nuomonei	-9.6039
tumėte	-9.60414
▁mažesn	-9.60486
▁ketinim	-9.60504
▁priimant	-9.60578
▁turinči	-9.60639
▁kova	-9.60674
kirt	-9.60787
▁galė	-9.60817
▁tų	-9.60878
▁sudary	-9.60969
▁ginč	-9.61114
manau	-9.61219
▁prast	-9.61269
▁naudojant	-9.61292
▁atliko	-9.61341
▁pirmininkavim	-9.61344
▁tos	-9.61508
▁supranta	-9.61647
▁vidutini	-9.61706
iesiems	-9.62016
▁reišk	-9.62016
▁bausm	-9.62106
▁politikai	-9.6223
▁uždaryt	-9.6225
▁biurokrat	-9.62334
▁rodikli	-9.62334
▁Balkan	-9.62334
▁Vyriausyb	-9.62334
▁ataskaita	-9.62334
▁duomenys	-9.62334
▁konvencijos	-9.62334
▁naudojimą	-9.62334
▁nedelsiant	-9.62334
▁organizacijų	-9.62334
▁pinigai	-9.62334
▁prekių	-9.62334
▁prisideda	-9.62334
▁sandori	-9.62334
▁sukčiavim	-9.62334
▁sąjungos	-9.62334
▁įsipareigojimus	-9.62334
▁Trečia	-9.62334
▁ateitį	-9.62334
▁skurdu	-9.62334
▁religin	-9.62334
▁reikės	-9.62335
▁reikalauti	-9.62338
▁prekybą	-9.62338
▁vaikai	-9.62338
▁augimą	-9.6234
▁vertinti	-9.62348
▁Būtina	-9.62352
▁regionu	-9.62359
▁pareiškimai	-9.6236
▁tėv	-9.62363
▁Štai	-9.62381
▁sunkumų	-9.62385
▁patvirtinta	-9.62394
▁18	-9.62401
▁palaikyti	-9.62407
▁strategin	-9.62424
▁minimal	-9.62464
▁tiesiogiai	-9.62489
▁įtikin	-9.62516
▁kontrolę	-9.62659
▁politinio	-9.62687
▁nam	-9.62716
▁lygį	-9.62724
▁didina	-9.62748
▁pagaliau	-9.62792
▁eil	-9.62932
▁iniciatyvą	-9.63116
▁patikr	-9.63125
▁keleivių	-9.63137
▁išreikšti	-9.6315
▁projektus	-9.63447
▁technini	-9.63492
▁poreikius	-9.6352
▁sako	-9.63568
▁pagrindiniai	-9.63638
▁proga	-9.63667
▁naudoja	-9.63692
▁principu	-9.63753
▁finans	-9.63882
eisingumo	-9.64079
▁pakeitimu	-9.64225
▁transport	-9.64413
ėjimas	-9.64452
▁Kad	-9.64509
▁regionini	-9.64617
▁pastat	-9.64647
▁būtinas	-9.64753
vimo	-9.64944
▁taryb	-9.65
▁reikš	-9.65013
▁pateikiama	-9.65197
▁truk	-9.65228
▁žvej	-9.65334
▁teikia	-9.65379
▁mažina	-9.65408
trūk	-9.65665
▁spekuli	-9.65667
▁dėkoju	-9.65667
▁komunikat	-9.65667
▁kryptimi	-9.65667
▁ombudsmen	-9.65667
▁pastabas	-9.65667
▁zonoje	-9.65667
▁gebėjim	-9.65667
▁policijos	-9.65667
▁skurdo	-9.65667
▁Juod	-9.65668
▁Kinijos	-9.65668
▁eurų	-9.65668
▁istorin	-9.65669
▁pažymėti	-9.65669
▁paketo	-9.65671
▁keitim	-9.65673
▁vaistų	-9.65682
▁remiam	-9.65698
▁draug	-9.65738
▁Nuo	-9.65798
▁vyn	-9.65805
▁susitikimą	-9.65813
▁susitikimas	-9.65822
▁Parlamentą	-9.65839
▁sulauk	-9.66025
▁mokėjim	-9.66042
▁pritariame	-9.66132
▁didži	-9.66147
▁Nauj	-9.66199
▁laikin	-9.66275
▁Euro	-9.66294
▁nustatom	-9.66337
▁stebi	-9.66375
▁op	-9.66736
▁asmens	-9.66803
▁dvišal	-9.6693
▁standartai	-9.67148
▁tiksli	-9.67436
▁apibrėžti	-9.67525
kų	-9.6761
▁kolegų	-9.67739
▁įvykiai	-9.67934
▁Didži	-9.6795
▁aspektai	-9.68104
▁sąraš	-9.68225
▁bendrų	-9.68423
▁stiprina	-9.68526
▁ekonominių	-9.68596
▁suderinti	-9.68915
▁pareiga	-9.68953
▁kaltin	-9.69069
▁įsipareigo	-9.6907
▁pagrindinė	-9.69087
konomikos	-9.69106
▁liberal	-9.69115
▁kapital	-9.69115
▁2012	-9.69116
▁Siekiant	-9.69116
▁alternatyv	-9.69116
▁ambicing	-9.69116
▁argument	-9.69116
▁ateinanči	-9.69116
▁dokumentų	-9.69116
▁imigrant	-9.69116
▁konkurencija	-9.69116
▁medžiagų	-9.69116
▁naftos	-9.69116
▁nepaprastai	-9.69116
▁pasirengusi	-9.69116
▁principas	-9.69116
▁student	-9.69116
▁Egipt	-9.69116
▁sraut	-9.69116
▁nelegali	-9.69116
▁Pasauli	-9.69117
apkri	-9.69117
▁pradžių	-9.69118
▁vasar	-9.69121
▁pateisin	-9.69125
▁pažad	-9.69128
▁teritorij	-9.6913
▁bankų	-9.69139
▁finansuoti	-9.69161
▁elg	-9.69186
▁valstybėje	-9.69213
▁visuomenei	-9.69277
▁lygybės	-9.69284
▁tun	-9.6933
▁gana	-9.69353
▁procedūrą	-9.69367
▁artim	-9.69466
▁kartai	-9.69479
▁tarnybos	-9.69489
▁paklausti	-9.69497
▁procedūrų	-9.69558
▁nustatant	-9.69606
▁vyriausybių	-9.69645
▁atsisakyti	-9.697
▁dabartinės	-9.69713
▁Al	-9.69768
▁apsaugo	-9.69899
tvarkyti	-9.69941
▁patyr	-9.69996
▁patenkinta	-9.70012
▁grindžiama	-9.70055
▁investuoti	-9.70055
yčiau	-9.70056
▁aspektų	-9.70091
▁svarbios	-9.70286
▁naudojamas	-9.70293
▁smurto	-9.7035
▁griežtai	-9.70449
▁procese	-9.70517
▁patvirtint	-9.7053
▁smurt	-9.70545
▁svarst	-9.70559
▁palaiko	-9.70601
▁neteisėt	-9.70774
▁pirmininkaujant	-9.70817
▁vietas	-9.70858
▁profesini	-9.70902
▁galutin	-9.70912
▁tęs	-9.70954
▁iniciatyv	-9.70973
▁Pagrindini	-9.70986
▁aukštos	-9.71025
▁narė	-9.71032
▁plėtra	-9.71228
▁galioja	-9.71389
▁numatyti	-9.7144
▁prival	-9.71469
▁Kal	-9.71634
▁Tam	-9.71679
▁vertinama	-9.7168
iausių	-9.71758
▁pabrėžia	-9.71765
▁vienu	-9.71849
labai	-9.71898
▁skub	-9.72094
▁dirbanči	-9.72115
▁grįž	-9.72178
▁prog	-9.72294
▁paklaus	-9.72297
▁skiriam	-9.72344
▁programas	-9.72389
▁gamintoj	-9.72448
▁svarba	-9.72496
▁išsam	-9.72535
▁susijusias	-9.72556
▁atstovų	-9.72557
▁Italijo	-9.72637
▁prioritetin	-9.72686
▁Ispanijos	-9.72687
▁Prancūzija	-9.72687
▁Respublikos	-9.72687
▁gyventojams	-9.72687
▁kampanij	-9.72687
▁neįmanoma	-9.72687
▁pabaigos	-9.72687
▁priežiūrą	-9.72687
▁smulk	-9.72687
▁straipsnis	-9.72687
▁vartotojai	-9.72687
▁įvyko	-9.72687
▁žingsnį	-9.72687
▁koordinuo	-9.72687
▁demokratiją	-9.72687
▁viduje	-9.72687
▁keisti	-9.72687
▁dalyje	-9.72688
▁gerovės	-9.72688
▁įsipareigojimą	-9.72692
▁baz	-9.72698
▁laikomasi	-9.72713
▁dienos	-9.72717
▁narius	-9.72775
▁valstybei	-9.72808
▁kolegoms	-9.72816
▁pranešėjai	-9.72932
▁socialinį	-9.72952
▁grupių	-9.73018
▁žengti	-9.73038
▁užbaigti	-9.73067
▁aspektus	-9.73067
▁aljanso	-9.73084
yma	-9.7312
▁elektros	-9.73145
▁diena	-9.73201
▁buvusi	-9.73282
▁Balsavim	-9.73328
▁atsižvelgiama	-9.73383
▁palikti	-9.73388
rado	-9.73395
▁Kas	-9.73443
tyv	-9.73649
▁eksporto	-9.73736
▁pats	-9.73782
▁svarstom	-9.73858
▁pasiekt	-9.73918
▁svarbos	-9.73951
▁ribot	-9.73981
und	-9.73986
▁palanki	-9.741
▁priimta	-9.74229
▁geros	-9.74651
▁nuomon	-9.74694
▁įsigalioj	-9.74737
▁pasiūlyti	-9.74831
▁rinkose	-9.74894
▁veikianči	-9.75099
▁gaut	-9.75155
davo	-9.75256
▁suteikiama	-9.75272
▁vykdoma	-9.75314
▁atsižvelg	-9.75379
▁išsaugot	-9.75407
▁atsisak	-9.75686
osioms	-9.75781
▁užbaig	-9.75998
▁lygmen	-9.76309
mogaus	-9.76367
kivaizdu	-9.76381
▁kokiu	-9.76382
▁inter	-9.76383
albūt	-9.76386
▁Direktyv	-9.76391
▁agentūra	-9.76391
▁agentūrų	-9.76391
▁gyventojai	-9.76391
▁institucin	-9.76391
▁intensyv	-9.76391
▁nusikalstam	-9.76391
▁pavyzdžių	-9.76391
▁poreikį	-9.76391
▁posėdyje	-9.76391
▁vaidmens	-9.76391
▁geguž	-9.76391
▁prieštarauja	-9.76391
▁Svarbu	-9.76391
▁išnaudoj	-9.76391
▁Ministr	-9.76391
▁sukėl	-9.76391
▁valstybnar	-9.76391
▁šeimos	-9.76391
▁naujovių	-9.76391
▁Privalom	-9.76392
▁trūksta	-9.76392
▁paskol	-9.76392
▁pagamint	-9.76392
▁programoje	-9.76392
▁šaliai	-9.76392
▁raginim	-9.76392
▁išskirtin	-9.76392
▁žinia	-9.76393
▁dešimtmeči	-9.76396
▁piet	-9.76401
▁Iki	-9.76413
▁akto	-9.76416
▁sumažėj	-9.76422
▁svarstyti	-9.76423
▁norėtų	-9.76436
▁rinkimus	-9.76444
▁Balt	-9.76446
▁nelygyb	-9.76454
▁deram	-9.76484
▁BŽ	-9.76488
▁veng	-9.76515
▁dviem	-9.76578
▁tikisi	-9.7659
▁nagrinėjam	-9.76635
▁gaminių	-9.76659
PS	-9.76669
▁nežino	-9.76746
▁likusi	-9.76754
▁sustabdyti	-9.76756
▁kartų	-9.7677
▁branduolini	-9.76908
▁tikros	-9.76962
▁infrastruktūros	-9.7699
▁br	-9.7701
▁mėg	-9.77016
▁kitoki	-9.77019
▁susiet	-9.77032
▁tikriausi	-9.77096
▁Ger	-9.77199
▁bendroj	-9.77248
▁politinį	-9.77279
▁derybose	-9.77331
▁pirmas	-9.7736
▁plačia	-9.77392
▁sveikatai	-9.77403
▁reformos	-9.77689
▁dirbo	-9.77756
▁tolesn	-9.77772
▁galiojanči	-9.77898
škai	-9.7801
▁neteising	-9.78173
sienio	-9.78181
▁konkurencing	-9.78203
▁aplink	-9.78222
▁vieta	-9.78325
▁vart	-9.78358
▁sprendimu	-9.78488
▁pirmąj	-9.78491
▁principus	-9.78566
▁Parlamentu	-9.78576
▁saugi	-9.78693
▁asmenin	-9.78711
ėtume	-9.78743
▁kultūrin	-9.78746
▁pag	-9.78766
▁regioninė	-9.7882
▁bendradarbiauja	-9.78927
prieš	-9.78933
▁posėdži	-9.78961
▁regionin	-9.79044
▁rimtai	-9.7911
▁supaprastint	-9.79217
spaud	-9.79288
▁pristat	-9.79404
▁Li	-9.79427
▁kokyb	-9.79522
▁nuolatin	-9.79619
▁pakankam	-9.79762
▁skatinama	-9.79826
▁pagerin	-9.79863
▁pakeis	-9.79897
iniais	-9.79912
▁paaiškinim	-9.79972
▁indėl	-9.79997
▁skiria	-9.80038
▁praėjus	-9.80169
▁pasisak	-9.80184
▁Airijoje	-9.80237
▁Ashton	-9.80237
▁Izraelio	-9.80237
▁Rūmai	-9.80237
▁Tarybą	-9.80237
▁ataskaitą	-9.80237
▁aviacijos	-9.80237
▁fondas	-9.80237
▁kompetencija	-9.80237
▁netrukus	-9.80237
▁pamiršti	-9.80237
▁pusiausvyrą	-9.80237
▁reglamentą	-9.80237
▁stengtis	-9.80237
▁labui	-9.80237
▁lyderi	-9.80237
▁pokyčių	-9.80237
▁prašymą	-9.80237
▁nuosavybės	-9.80237
▁pavojų	-9.80237
▁pridėtin	-9.80237
▁pasiūlyme	-9.80238
▁vaikus	-9.80238
▁nutraukti	-9.80238
▁garantijų	-9.80238
▁mėnesį	-9.80239
▁maistu	-9.8024
▁patirtimi	-9.8024
▁trys	-9.80242
▁zona	-9.80242
▁sutartyje	-9.80251
▁iškil	-9.80258
▁dienų	-9.80287
▁minut	-9.80312
▁17	-9.80318
CS	-9.80321
▁šaltinių	-9.80359
-20	-9.80361
▁lengviau	-9.80423
▁sėkmės	-9.80451
olog	-9.80485
▁įgyvendinimą	-9.80489
▁paraginti	-9.80493
▁prisiimti	-9.805
▁vienintelis	-9.80534
▁priemonę	-9.80597
▁aspektas	-9.80748
▁gyvenanči	-9.80757
▁akivaizd	-9.80765
▁politiniai	-9.80824
▁sakyti	-9.80833
▁lankst	-9.80849
▁pusės	-9.80934
▁fi	-9.81097
▁esm	-9.81142
▁skirtos	-9.81225
▁supaprastin	-9.81267
▁daroma	-9.8133
▁pirmą	-9.81347
▁neap	-9.81434
leiskite	-9.81829
▁balsavimas	-9.81913
▁konkrečiai	-9.82175
ide	-9.82246
cijos	-9.82448
▁veiksmingesn	-9.82747
migracijos	-9.82861
nčioms	-9.82969
▁Bū	-9.82977
▁atsakomyb	-9.82984
▁tikiu	-9.8319
esnį	-9.83499
50	-9.83512
▁procedūra	-9.83517
▁tinkama	-9.8352
▁kam	-9.83653
žino	-9.83768
▁sustabdy	-9.83843
▁ženg	-9.83845
▁pranešimui	-9.83998
skelb	-9.84126
▁dvej	-9.84234
▁pažym	-9.84235
▁Afganistan	-9.84237
▁Rumunijos	-9.84237
▁Valstijų	-9.84237
▁ataskaitos	-9.84237
▁draudimo	-9.84237
▁fondai	-9.84237
▁jėgos	-9.84237
▁kliūčių	-9.84237
▁ministrų	-9.84237
▁narkotik	-9.84237
▁pabėgėlių	-9.84237
▁pacientų	-9.84237
▁pokyčius	-9.84237
▁ryšių	-9.84237
▁sparčiai	-9.84237
▁susisiekim	-9.84237
▁tarnyba	-9.84237
▁Švedijos	-9.84237
▁pasirinkti	-9.84237
▁paveld	-9.84237
▁valiutos	-9.84237
▁įgaliotin	-9.84237
▁tyrimą	-9.84237
▁minėjau	-9.84237
▁knyg	-9.84237
▁teršalų	-9.84238
▁kenčia	-9.84239
▁Leiski	-9.84239
▁įtaką	-9.84239
▁paketą	-9.84239
▁prisitaikymo	-9.84239
▁visais	-9.8424
▁skirtumus	-9.8424
▁turizmo	-9.84241
▁apsvarstyti	-9.84246
▁Pirmininkas	-9.84251
▁įrang	-9.84255
▁prasme	-9.84256
▁būdai	-9.84264
▁padėtyje	-9.84265
▁kainos	-9.84289
▁rūšių	-9.84296
mokė	-9.84347
▁gamintojams	-9.84352
▁teikimo	-9.84369
▁ginti	-9.84378
▁būtinybę	-9.84399
▁darbuotojus	-9.84401
▁klas	-9.84403
▁trečiosiom	-9.84474
▁nedidel	-9.8448
▁Tokia	-9.84502
▁kitoms	-9.84507
▁Tarptautini	-9.84587
kirst	-9.84589
▁laisvai	-9.84669
▁joje	-9.8467
ėję	-9.84729
▁kiekvienas	-9.85014
▁tarybos	-9.85052
▁ponia	-9.85132
dra	-9.85144
▁padaryt	-9.85154
▁nuolatini	-9.85156
▁iniciatyvas	-9.85218
▁kelianči	-9.85283
▁vieno	-9.85343
ėjimą	-9.85402
▁antai	-9.85537
▁geležinkelių	-9.85568
▁Tarptautinė	-9.86082
▁100	-9.86139
▁vienodai	-9.86145
▁žali	-9.86241
▁dalių	-9.86256
len	-9.86285
▁teise	-9.8638
▁suderin	-9.86405
▁procedūras	-9.86415
▁kelio	-9.86639
▁atskirai	-9.86666
▁išnagrinė	-9.86678
▁nuostatų	-9.86819
▁esmin	-9.86912
SV	-9.86991
inami	-9.87163
▁krit	-9.87174
▁parodė	-9.87177
▁grindžiam	-9.87277
▁strategini	-9.87387
▁nuoširdžia	-9.87414
▁priversti	-9.8757
▁199	-9.87589
▁infrastruktūr	-9.87732
▁sėkm	-9.87744
▁situacija	-9.87818
▁tinklo	-9.88107
▁aukšto	-9.88212
nagrinėti	-9.8822
▁rūm	-9.88327
▁virš	-9.88393
▁reglamentu	-9.88402
▁Lenkijos	-9.88404
▁Portugalijos	-9.88404
▁Reglament	-9.88404
▁diskutuoti	-9.88404
▁inovacijų	-9.88404
▁neturting	-9.88404
▁organizacija	-9.88404
▁pagarbos	-9.88404
▁prioritetai	-9.88404
▁skaičiaus	-9.88404
▁specifin	-9.88404
▁sąskaita	-9.88404
▁terorizmu	-9.88404
▁tyrimai	-9.88404
▁užmokesčio	-9.88404
▁ištekliai	-9.88404
▁kūrimo	-9.88404
▁trijų	-9.88404
▁sujung	-9.88404
▁vizij	-9.88404
▁tikslams	-9.88405
▁žalos	-9.88407
▁savaime	-9.88408
▁patirties	-9.88409
▁Daugeli	-9.88415
▁krovini	-9.88417
▁programų	-9.88417
▁įsitikin	-9.88419
▁banko	-9.88427
▁elgtis	-9.88436
▁kreiptis	-9.88444
▁skund	-9.88447
▁asmenys	-9.88452
▁gerų	-9.88459
▁procent	-9.88476
▁valstybėmis	-9.88478
▁linij	-9.88489
žinau	-9.88507
▁vertinimą	-9.88526
▁pradin	-9.88537
▁prot	-9.88547
▁sprendžiam	-9.88576
▁erdvės	-9.88596
▁partnerių	-9.88611
▁jaunimo	-9.8865
▁Dabartin	-9.88698
▁pan	-9.88781
▁matome	-9.88843
▁susitarti	-9.88953
▁Komisare	-9.88953
▁ryžtingai	-9.88963
▁kategorij	-9.89165
▁duot	-9.89178
▁gyventi	-9.89186
▁frakcijų	-9.89216
▁leidžiama	-9.89224
▁paveik	-9.89234
▁gamyba	-9.89267
▁suprantama	-9.89302
▁Baigdamas	-9.89356
▁produktus	-9.89362
▁kiekį	-9.89428
▁kompromisas	-9.89498
▁išeiti	-9.8959
▁kredito	-9.89629
▁panaš	-9.89634
▁posėdžio	-9.89829
jimą	-9.90107
aktyviai	-9.90113
▁pagrindine	-9.90116
▁užduotis	-9.90225
▁internet	-9.90345
▁mokykl	-9.90376
▁namų	-9.90424
▁rūpi	-9.90438
▁neteisėta	-9.90712
▁principai	-9.90831
▁pasiūlymui	-9.90954
▁svarbesn	-9.9107
▁Visiška	-9.91146
nku	-9.91247
▁planu	-9.91282
▁vertina	-9.91327
▁rimta	-9.91363
balsavimas	-9.91383
▁sąlyga	-9.91441
▁susidar	-9.91447
▁import	-9.91466
▁eksport	-9.91484
žia	-9.91527
▁plači	-9.91596
▁plane	-9.91611
▁vykdyt	-9.9168
dėl	-9.91842
▁tikrinim	-9.92051
▁šaltin	-9.92323
▁baigta	-9.92358
▁sureng	-9.9236
▁pažangi	-9.92525
eismo	-9.9266
▁dalyvauja	-9.92709
protokol	-9.92725
▁glaud	-9.92739
▁Ačiū	-9.92751
▁Bulgarijos	-9.92751
▁ankstyv	-9.92751
▁apibūdin	-9.92751
▁diskusiją	-9.92751
▁kompetencijo	-9.92751
▁kortel	-9.92751
▁kriterijų	-9.92751
▁moterims	-9.92751
▁nelaimių	-9.92751
▁pabaigoje	-9.92751
▁pasitikėjimą	-9.92751
▁pranašum	-9.92751
▁problemomis	-9.92751
▁tebėra	-9.92751
▁vairuotoj	-9.92751
▁įdieg	-9.92751
▁šiltnami	-9.92751
▁jėga	-9.92752
▁teritorin	-9.92752
▁vykusi	-9.92752
▁nusipeln	-9.92752
▁ekologin	-9.92752
▁blok	-9.92752
▁perkelt	-9.92752
▁pasekmė	-9.92753
▁etnin	-9.92754
▁civili	-9.92758
▁žemyn	-9.92759
▁Pastar	-9.92764
▁nariui	-9.92768
▁kovą	-9.92769
▁asmeniškai	-9.92783
▁paskirt	-9.92786
bėg	-9.92791
▁vykdymo	-9.92795
▁įgyvendinta	-9.92796
▁valand	-9.92803
▁pakeitimo	-9.92809
▁lankstumo	-9.92812
▁konkrečiu	-9.92838
▁menk	-9.92838
▁rezoliucijoje	-9.92843
▁16	-9.92843
▁nemaža	-9.92885
▁fa	-9.92896
▁keliu	-9.92902
▁bendrov	-9.92929
▁terorist	-9.92953
▁teisėmis	-9.92969
▁pramonei	-9.92987
▁patent	-9.93072
▁grėsmę	-9.93078
▁bandom	-9.93194
▁žiniasklaidos	-9.93278
▁užmojo	-9.93359
▁didesnis	-9.93429
▁siekiame	-9.93469
▁kaimynystė	-9.9349
▁tvarka	-9.93656
▁žuvų	-9.93706
▁kok	-9.93735
▁sąrašą	-9.93892
▁iššūkius	-9.93947
▁pradėjo	-9.94082
▁kompromisą	-9.94142
▁planas	-9.94157
▁rekomendacijas	-9.94436
▁Atsižvelgdama	-9.94543
fin	-9.94599
▁organizuot	-9.94613
▁principais	-9.9471
▁įtrauktas	-9.94823
▁tarpvalstybin	-9.95051
▁siūlo	-9.95226
▁lemia	-9.95294
▁kovai	-9.95397
▁karini	-9.95514
▁pripažįsta	-9.95574
▁technin	-9.95676
sprendžia	-9.95706
▁ilgai	-9.95729
Jungtin	-9.95796
▁įtraukta	-9.95804
▁efektyvia	-9.96096
▁numatoma	-9.96287
pel	-9.96369
▁branduolin	-9.96433
▁numat	-9.96665
▁laikyti	-9.96728
iui	-9.96785
▁žym	-9.9684
▁pašalin	-9.96902
▁Kopenhago	-9.96942
▁sumažinta	-9.97048
▁verta	-9.97068
▁tikrov	-9.97116
▁konsul	-9.97295
▁skaitmenin	-9.97297
▁Baltarusijos	-9.97297
▁Briuselyje	-9.97297
▁Finans	-9.97297
▁Graikija	-9.97297
▁NATO	-9.97297
▁Rumunija	-9.97297
▁Serbijos	-9.97297
▁Vengrija	-9.97297
▁administravim	-9.97297
▁dokumentą	-9.97297
▁duomenimis	-9.97297
▁egzistuoja	-9.97297
▁fondu	-9.97297
▁funkcij	-9.97297
▁kliūtis	-9.97297
▁koordinavimo	-9.97297
▁opozicijo	-9.97297
▁sesijoje	-9.97297
▁smarkiai	-9.97297
▁vykti	-9.97297
▁Gruzijo	-9.97297
▁Sutinku	-9.97297
▁išvadas	-9.97297
▁vertybes	-9.97297
▁nauda	-9.97297
▁esate	-9.97297
▁atkurti	-9.97298
▁norėjau	-9.97298
▁pirmyn	-9.97298
▁komand	-9.97298
▁išrinkt	-9.97298
▁sutarčių	-9.97298
▁vaizd	-9.97298
▁balan	-9.97299
▁mėnesių	-9.97299
▁sužinoti	-9.97299
▁projektų	-9.97301
▁informavim	-9.97301
▁valdžia	-9.97306
▁konkrečios	-9.9731
▁vartoja	-9.97313
▁kilo	-9.97314
▁kalbu	-9.97319
▁Kong	-9.97325
▁Vida	-9.97354
▁Italijoje	-9.97361
▁500	-9.9737
▁skaidrumą	-9.97374
▁2000	-9.97378
▁baigtos	-9.97392
▁pagrįstas	-9.97396
▁patenka	-9.97408
▁efektyvumą	-9.97412
▁ėmė	-9.97443
▁Teismo	-9.97462
▁priemonėms	-9.97462
▁artimiausi	-9.97486
AL	-9.97499
▁palaikau	-9.97544
▁panaikinimo	-9.97555
▁prisidėjo	-9.97567
▁pašalinti	-9.97694
▁valstybę	-9.97702
▁ieško	-9.97705
▁surengti	-9.97711
▁spal	-9.97738
▁grąžin	-9.97932
▁tiksliai	-9.97935
▁palygin	-9.97995
▁naujai	-9.98101
tuoja	-9.98143
▁Kol	-9.98179
▁saugumui	-9.98204
▁persvarstyti	-9.98219
▁teisinė	-9.98273
▁įvykius	-9.98279
▁tiesiogin	-9.98432
▁audito	-9.98464
▁nurodyti	-9.9864
▁išlikt	-9.98695
▁parengtas	-9.98707
▁dėkinga	-9.98707
▁neturime	-9.98772
▁struktūros	-9.98847
▁plenarin	-9.9888
▁išsakyt	-9.9898
▁ženklas	-9.99006
▁kultūrini	-9.99186
▁režimo	-9.992
teikia	-9.9955
▁tarpvalstybini	-9.99599
▁didele	-9.99618
▁plėtrai	-9.99688
▁mokyklos	-9.99845
▁Gal	-9.99922
▁aptariam	-10.0003
▁besivystanči	-10.0008
▁elektronin	-10.001
▁paskatint	-10.0024
tojų	-10.0034
▁geležinkeli	-10.0049
▁Vert	-10.0057
▁sport	-10.0079
▁valdy	-10.0084
▁Tok	-10.0086
skyrimo	-10.0087
▁reformų	-10.0101
▁atid	-10.0104
▁lygyb	-10.012
▁palygint	-10.0124
▁pagrįsti	-10.0135
▁užtikrina	-10.0145
▁įsteig	-10.0166
▁sukelia	-10.0171
pol	-10.0171
▁sunkiai	-10.0198
▁paaiškin	-10.0201
▁post	-10.0204
▁tarpusav	-10.0204
▁moderni	-10.0206
▁efekt	-10.0206
▁kolektyvin	-10.0206
▁technologin	-10.0206
▁Aplinkos	-10.0206
▁Kiekvien	-10.0206
▁Konstitucij	-10.0206
▁Ukraina	-10.0206
▁Valstijos	-10.0206
▁asignavim	-10.0206
▁deficit	-10.0206
▁deklaracij	-10.0206
▁dioksid	-10.0206
▁dokumentas	-10.0206
▁imtasi	-10.0206
▁kodeks	-10.0206
▁konkurenciją	-10.0206
▁kriterijai	-10.0206
▁pagarba	-10.0206
▁pinigus	-10.0206
▁prevencijos	-10.0206
▁pridurti	-10.0206
▁principą	-10.0206
▁reikalavimai	-10.0206
▁subsidiarum	-10.0206
▁subsidij	-10.0206
▁verslinink	-10.0206
▁įgaliojimus	-10.0206
išskyrus	-10.0206
▁diskriminacija	-10.0206
▁vaikams	-10.0206
▁civilinės	-10.0206
▁išvados	-10.0206
▁nuostol	-10.0206
▁spaudimą	-10.0206
▁nuveikti	-10.0206
▁vyksianči	-10.0206
▁tikėtis	-10.0206
▁baud	-10.0207
▁tarpusavyje	-10.0208
▁Gazo	-10.0208
▁kalbą	-10.0209
▁norėdam	-10.0209
▁padarinius	-10.021
▁skaidrumas	-10.0211
▁viskas	-10.0214
▁Pagaliau	-10.0215
▁reikalavimas	-10.0215
▁sutart	-10.0215
▁buvau	-10.0219
▁visuomenėje	-10.0219
▁pašt	-10.0224
nėms	-10.0227
▁patvirtinimo	-10.0227
▁įstatymų	-10.0229
▁branduolinės	-10.023
▁persvarstym	-10.023
▁grėsmė	-10.0232
▁prašau	-10.0234
▁atmet	-10.0238
▁viešojo	-10.0238
▁įgyvendinimas	-10.0239
▁bausmės	-10.024
▁Britanijos	-10.0241
▁vadovų	-10.025
▁valdymu	-10.0253
▁abipusi	-10.0258
▁Šį	-10.0262
iesi	-10.0265
▁visuomenę	-10.0265
▁Sch	-10.0266
▁ypatingą	-10.0274
▁Pirm	-10.0287
▁kreditų	-10.029
▁naujoj	-10.0294
▁priemone	-10.031
▁ribos	-10.0313
UE	-10.0317
▁žodžiais	-10.0325
▁smurtą	-10.0327
▁nustatytos	-10.0329
▁patvirtina	-10.0344
▁minėta	-10.035
▁sukelianči	-10.0365
▁dalyvavo	-10.0377
▁verting	-10.0377
▁21	-10.0398
▁elektronini	-10.0407
▁užtikrinama	-10.0412
rūpinti	-10.0427
iuosi	-10.0433
▁tvirtą	-10.0435
▁EB	-10.0449
▁pasirod	-10.0451
tųsi	-10.0455
▁atitik	-10.0468
▁plano	-10.0475
▁band	-10.0519
▁ankstesni	-10.0526
leido	-10.0569
diskusijos	-10.057
▁pirmojo	-10.0607
▁rėm	-10.0626
taip	-10.0645
▁autori	-10.0647
▁erdv	-10.0661
▁pereit	-10.0669
▁neatsi	-10.0673
ėra	-10.0693
▁priima	-10.0696
▁simboli	-10.0706
▁AKR	-10.0706
▁Portugalija	-10.0706
▁ačiū	-10.0706
▁dokumentai	-10.0706
▁operator	-10.0706
▁paspartint	-10.0706
▁potencialą	-10.0706
▁prioritetų	-10.0706
▁ryšio	-10.0706
▁uždrausti	-10.0706
▁vietą	-10.0706
▁vystymąsi	-10.0706
▁ūkininkams	-10.0706
▁ūkininkų	-10.0706
▁Rūmų	-10.0706
▁BVP	-10.0706
▁iškėl	-10.0706
▁sienas	-10.0706
▁partijų	-10.0706
▁Tunis	-10.0706
▁gaires	-10.0706
▁neatsižvelgia	-10.0706
▁garb	-10.0706
▁makro	-10.0706
▁Ragin	-10.0706
▁pasakyta	-10.0706
▁pradžios	-10.0706
▁užtikrinimo	-10.0706
▁pradžia	-10.0706
▁žalą	-10.0706
▁gavėj	-10.0706
▁žiaur	-10.0706
▁Europol	-10.0707
▁būdų	-10.0707
▁saugoti	-10.0707
▁finansavimas	-10.0707
▁Remi	-10.0708
▁2004	-10.0709
▁pažeidimų	-10.0709
▁fizin	-10.071
▁pirkim	-10.071
▁pranešimų	-10.0711
▁verčia	-10.0711
▁judėti	-10.0711
▁bendrąj	-10.0712
▁kalbų	-10.0712
▁buv	-10.0713
▁narystės	-10.0714
▁jumis	-10.0714
▁II	-10.0718
▁kalt	-10.0721
▁efektyvumo	-10.0723
▁subjekt	-10.0724
▁Irak	-10.0726
ieno	-10.0726
▁nereikia	-10.0728
▁manyti	-10.0732
▁finansuojam	-10.0734
▁balsuoj	-10.0734
pirk	-10.0737
▁pig	-10.0738
▁mažėja	-10.074
▁nvien	-10.0747
▁teismo	-10.0755
15	-10.0756
encijos	-10.0759
▁specialist	-10.0759
▁statybos	-10.076
▁0,	-10.0761
▁padariniai	-10.0761
inamas	-10.0765
▁trukd	-10.077
▁sauga	-10.078
▁aspektą	-10.0788
▁demokratišk	-10.0798
teikti	-10.0803
▁turto	-10.0809
▁nusikaltimus	-10.0811
▁Kosovo	-10.0816
▁kuriant	-10.0816
▁politinis	-10.0823
▁kokybišk	-10.0836
▁sporto	-10.0842
▁paprastai	-10.0847
▁perspektyvos	-10.0849
▁spaudo	-10.0851
▁tūkstančių	-10.0858
▁naudojamos	-10.0859
SK	-10.0866
▁einanti	-10.0868
▁nagrinė	-10.0875
▁kokie	-10.0904
▁paskelbti	-10.0909
▁reglamentuoja	-10.0921
▁pavaduotojas	-10.0922
▁praktini	-10.0927
▁Jungtinėm	-10.0938
▁abi	-10.0951
ilės	-10.0958
▁60	-10.0967
▁planavim	-10.0988
▁keičia	-10.1004
▁leido	-10.1007
▁leid	-10.103
▁pamaty	-10.1038
▁sustiprint	-10.1051
▁apibrėžt	-10.1051
▁išspręst	-10.1066
▁užduoti	-10.1073
buvo	-10.1074
▁tūkstanči	-10.1075
▁vidutin	-10.1076
▁ligų	-10.108
(	-10.1097
praneš	-10.1114
▁Ties	-10.1162
▁religij	-10.1164
▁remdam	-10.1176
▁taisykl	-10.1176
▁komercini	-10.1183
▁supras	-10.1194
▁Mat	-10.1213
▁įvairios	-10.1218
▁energetini	-10.122
▁uždavin	-10.1225
▁paremt	-10.1225
tabilumo	-10.123
▁absurd	-10.1232
energija	-10.1232
▁Kroatijos	-10.1232
▁Lenkija	-10.1232
▁Pakistano	-10.1232
▁Pavyzdžiu	-10.1232
▁Serbija	-10.1232
▁Tūkstan	-10.1232
▁deryboms	-10.1232
▁fondą	-10.1232
▁investicijas	-10.1232
▁išlaidos	-10.1232
▁koncepcij	-10.1232
▁konstitucin	-10.1232
▁konvencija	-10.1232
▁laikotarpį	-10.1232
▁laipsnišk	-10.1232
▁naudą	-10.1232
▁naštą	-10.1232
▁nepagrįst	-10.1232
▁pavyks	-10.1232
▁pavyzdį	-10.1232
▁penkeri	-10.1232
▁potvyni	-10.1232
▁ratifikavim	-10.1232
▁seksualin	-10.1232
▁skrydži	-10.1232
▁solidarumą	-10.1232
▁stengia	-10.1232
▁straipsnį	-10.1232
▁subalansuot	-10.1232
▁susipažint	-10.1232
▁visuomet	-10.1232
▁žurnalist	-10.1232
▁pasikeit	-10.1232
▁praktiškai	-10.1232
▁vertybių	-10.1232
▁ūkis	-10.1232
▁gresia	-10.1232
▁trūkumu	-10.1232
▁ketvirt	-10.1232
▁balsų	-10.1232
▁išplėt	-10.1232
▁įvairovės	-10.1232
▁likti	-10.1232
▁sveikinu	-10.1232
▁nuosav	-10.1233
▁būdą	-10.1233
▁diskriminacijos	-10.1233
▁aukų	-10.1233
▁diplomatin	-10.1233
▁interesai	-10.1233
▁tašk	-10.1233
▁pardavim	-10.1234
▁vystymuisi	-10.1235
▁daugumos	-10.1235
▁liko	-10.1236
▁pasitelk	-10.1237
▁2005	-10.1237
▁atneš	-10.1239
▁dalyvavimas	-10.124
▁darbų	-10.124
▁išmetim	-10.1241
▁kitur	-10.1245
▁įtrauktos	-10.1248
▁vertinimo	-10.1253
▁diskutuojame	-10.1254
▁asmenis	-10.1254
▁vidutinės	-10.1255
▁pareiškimą	-10.1257
▁pirmininkui	-10.1262
▁partneriai	-10.1264
▁nacionalinę	-10.1267
▁įgyt	-10.1267
▁atkūrimo	-10.1271
▁jaučia	-10.1272
▁šak	-10.1275
▁naujausi	-10.1279
FI	-10.128
▁suprantu	-10.1281
▁situaciją	-10.1284
▁taiki	-10.129
▁išplėsti	-10.1298
▁vadovaujant	-10.1302
▁neleidžia	-10.1302
▁įgyvendinama	-10.1309
▁susiduriame	-10.1312
▁netek	-10.1315
▁politines	-10.1319
▁komitetui	-10.1328
▁prisijung	-10.1328
▁nesilaik	-10.1345
▁abie	-10.1351
▁puikus	-10.1359
▁humanitarinė	-10.1362
▁internetu	-10.1376
▁importo	-10.1391
▁teikėj	-10.14
▁sąlyg	-10.1406
▁kylanči	-10.1406
įvair	-10.141
▁vykstanči	-10.1412
▁karin	-10.1432
▁žodini	-10.1437
neš	-10.1443
▁prižiūrė	-10.1457
▁grupe	-10.1465
▁prireik	-10.1483
▁atvirai	-10.1484
▁Mal	-10.1493
▁atsakingos	-10.1504
tyje	-10.1522
tiksl	-10.1523
▁Sav	-10.1532
teisė	-10.1546
gauti	-10.1565
▁dalyvav	-10.1566
▁aspekt	-10.1573
▁pilietinė	-10.1595
▁pasiūlyta	-10.16
▁projektu	-10.1605
▁geografi	-10.1617
▁minim	-10.1634
▁asmen	-10.1634
tenka	-10.1642
▁pozicij	-10.1646
Darbo	-10.1651
ekonomin	-10.1653
padėtis	-10.1653
▁gerbti	-10.1665
▁įstatymo	-10.1707
▁rezoliucij	-10.172
▁žiniasklaid	-10.172
▁ekonominiu	-10.1721
region	-10.1755
▁nepakanka	-10.1755
▁teritorijos	-10.1764
▁kūryb	-10.1769
▁besivystančios	-10.1771
▁dažniau	-10.1788
▁televizij	-10.1788
▁Japonijos	-10.1788
▁Nyderland	-10.1788
▁Socialist	-10.1788
▁Transport	-10.1788
▁apgailestauju	-10.1788
▁dvidešimt	-10.1788
▁ekologišk	-10.1788
▁europiečių	-10.1788
▁intelektin	-10.1788
▁išgirsti	-10.1788
▁milžinišk	-10.1788
▁ministras	-10.1788
▁nesąžining	-10.1788
▁padėčiai	-10.1788
▁paslaugomis	-10.1788
▁pastabą	-10.1788
▁primygtin	-10.1788
▁prioritetas	-10.1788
▁radikal	-10.1788
▁riziką	-10.1788
▁septyni	-10.1788
▁stebėtoj	-10.1788
▁terorizmo	-10.1788
▁universitet	-10.1788
▁verslu	-10.1788
▁įvykusi	-10.1788
▁žodį	-10.1788
▁Kipro	-10.1788
▁asmuo	-10.1788
▁mokesčio	-10.1788
▁pageidauja	-10.1788
▁prisimin	-10.1788
▁strategijoje	-10.1788
▁taupym	-10.1788
▁interesams	-10.1788
▁dvigub	-10.1788
▁rizika	-10.1788
▁tarif	-10.1788
▁trūkumas	-10.1788
▁ALDE	-10.1788
▁gamtos	-10.1788
▁vyresn	-10.1788
▁poveikis	-10.1788
▁dažniausiai	-10.1788
▁įvairovę	-10.1788
▁mėnesiai	-10.1788
▁pradės	-10.1788
▁užtikrintų	-10.1788
▁paketas	-10.1788
▁metams	-10.1788
▁kalėjim	-10.1788
▁motyv	-10.1788
▁Kanad	-10.1788
▁projektai	-10.1789
▁finansavimu	-10.1789
▁patekti	-10.179
▁baim	-10.1792
▁tvarką	-10.1793
▁likim	-10.1793
▁įsitikinusi	-10.1794
▁23	-10.1795
▁kalini	-10.1796
▁24	-10.1796
▁26	-10.1797
▁pranešėjams	-10.1798
▁mažinimas	-10.18
▁narėje	-10.1808
▁ilgiau	-10.181
▁erdvę	-10.1812
▁nepamiršti	-10.1816
▁tarpinink	-10.1816
▁atgal	-10.1817
▁skatinimo	-10.1819
▁laikais	-10.1821
▁būst	-10.1829
▁vertės	-10.1832
▁piliečius	-10.1832
▁naujosios	-10.1834
▁turė	-10.1835
▁ekonominį	-10.1837
▁vertiname	-10.1842
▁pažeidžiamiausi	-10.1844
▁pasirengim	-10.1844
▁kiekio	-10.185
▁atėjo	-10.1851
▁religijos	-10.186
▁gamintojai	-10.1864
ykime	-10.1864
▁įsteigti	-10.1864
▁Tiesa	-10.1866
dinti	-10.1867
▁pareikalau	-10.1897
▁priverst	-10.1901
▁standart	-10.1902
▁Tad	-10.1909
▁apibrėžim	-10.1937
▁išsaugo	-10.1939
▁bendradarbiau	-10.1943
▁kritikuo	-10.1951
▁atsakymas	-10.1971
▁įvertinim	-10.1974
▁tikru	-10.1976
▁teigia	-10.1991
tmeči	-10.1999
ginčyti	-10.2004
▁Pat	-10.2019
▁krizė	-10.2023
▁judėjimą	-10.2025
ekijo	-10.2027
▁pavaduotoja	-10.2056
▁moka	-10.2085
štai	-10.2089
▁atsižvelgdama	-10.2113
▁finansine	-10.2116
telk	-10.2126
▁apmokestinim	-10.2163
▁tiesiogini	-10.2189
▁pavyzdžiu	-10.2195
▁išvengt	-10.2195
atsak	-10.2196
▁mieste	-10.2214
▁paverst	-10.2215
tampa	-10.2243
▁Kosov	-10.2248
▁niek	-10.2266
▁vadovai	-10.23
▁naikin	-10.2324
▁vid	-10.2329
deg	-10.2335
▁prisiim	-10.2336
▁paragin	-10.2337
▁80	-10.2346
▁visapusiška	-10.2355
▁vadin	-10.2367
▁teror	-10.2368
alankiai	-10.2371
precedent	-10.2374
▁laimė	-10.2375
▁teisėj	-10.2376
▁vietov	-10.2376
▁objekt	-10.2376
skaičiav	-10.2376
asdešimt	-10.2376
kompetenting	-10.2376
▁Afrikoje	-10.2376
▁Pilieči	-10.2376
▁Raštišk	-10.2376
▁Ukrainos	-10.2376
▁anksto	-10.2376
▁ataskaitoje	-10.2376
▁dialoga	-10.2376
▁klausimams	-10.2376
▁milijard	-10.2376
▁naudojimu	-10.2376
▁našta	-10.2376
▁neatitinka	-10.2376
▁nelaiming	-10.2376
▁pasaulis	-10.2376
▁paslaugos	-10.2376
▁priežiūra	-10.2376
▁referent	-10.2376
▁skurdą	-10.2376
▁straipsnyje	-10.2376
▁sąjunga	-10.2376
▁trūkumų	-10.2376
▁vertybėmis	-10.2376
▁įgaliojimai	-10.2376
▁Austrij	-10.2376
▁Libijos	-10.2376
▁praktika	-10.2376
▁prasidėjo	-10.2376
▁žlug	-10.2376
▁žinią	-10.2376
▁skirtumai	-10.2376
▁ūkiu	-10.2376
▁pratęs	-10.2376
▁atsidūr	-10.2376
▁nuspręsti	-10.2376
▁lygmenimis	-10.2376
▁asmenims	-10.2376
▁islam	-10.2376
▁Bosnij	-10.2376
▁motinyst	-10.2376
▁skirtumų	-10.2376
▁perduoti	-10.2376
▁Sveikin	-10.2376
▁kanal	-10.2376
▁debat	-10.2377
▁bendruomenės	-10.2377
▁mumis	-10.2377
▁pritaikyti	-10.2377
▁trej	-10.2378
▁protokolo	-10.2378
▁žaisl	-10.2378
▁Irano	-10.2379
▁regionai	-10.2379
▁pranešimai	-10.238
▁konkurencingumą	-10.2382
▁pasisakyti	-10.2383
▁šeima	-10.2385
▁stabilumą	-10.2385
▁mažiausiai	-10.2386
▁konkurencingumo	-10.2386
▁išsiaiškinti	-10.2387
▁gyvenime	-10.2387
tvirt	-10.2388
▁direktyvoje	-10.2388
▁narėmis	-10.2389
▁sudarymo	-10.239
partneryst	-10.239
▁22	-10.2393
▁kilus	-10.2394
▁saugom	-10.2398
▁teritorijoje	-10.2398
▁taikytin	-10.24
▁paties	-10.2402
▁kasmet	-10.2404
▁teismin	-10.2407
▁asociacijos	-10.2407
▁šaltinis	-10.2408
▁kontekste	-10.2409
▁indėlį	-10.2413
▁JK	-10.2415
▁Ch	-10.2428
▁geresnę	-10.2431
▁darbe	-10.2435
▁vadovaujam	-10.2436
▁autorius	-10.2447
▁energetin	-10.2463
▁ginkluot	-10.2474
protest	-10.2475
▁pasaulinė	-10.2489
▁svarstomas	-10.2495
▁padėtimi	-10.2506
▁pristatyt	-10.2511
all	-10.2524
LT	-10.2534
▁mechanizmus	-10.2558
▁skatinant	-10.2565
dirbti	-10.2592
▁pakenk	-10.2593
▁besivystančiom	-10.2645
▁vidutinėm	-10.2647
▁pasieni	-10.2684
Komisijos	-10.2704
▁teisėtai	-10.2705
▁balsavim	-10.2717
▁profesin	-10.2731
▁paminėt	-10.2743
▁būtinyb	-10.2751
▁ypating	-10.2775
▁teikiant	-10.2809
▁metai	-10.282
didel	-10.2824
▁keleivi	-10.2845
▁turt	-10.2856
▁valstybė	-10.2859
▁plėtoj	-10.2869
▁dalyvau	-10.2873
▁gimt	-10.289
tenkina	-10.2892
▁ryžting	-10.2917
▁gina	-10.2938
▁statyb	-10.2942
▁veiksmingiau	-10.2944
▁direktyv	-10.2948
▁profesinė	-10.2949
iškumo	-10.2963
program	-10.2967
▁užduo	-10.2969
▁nepra	-10.298
▁padėk	-10.3001
vystymo	-10.3001
▁Vokietijoje	-10.3001
▁apgalvot	-10.3001
▁atspindė	-10.3001
▁fiskalin	-10.3001
▁generalini	-10.3001
▁idėją	-10.3001
▁modelį	-10.3001
▁neatidėliotin	-10.3001
▁nepavyko	-10.3001
▁nereiškia	-10.3001
▁pagarbą	-10.3001
▁pasekmių	-10.3001
▁pastangos	-10.3001
▁pesticidų	-10.3001
▁priklausanči	-10.3001
▁reglamentas	-10.3001
▁reguliuoti	-10.3001
▁sistemoje	-10.3001
▁įstaigų	-10.3001
▁ūkininkai	-10.3001
▁žaliavų	-10.3001
▁žmogišk	-10.3001
▁diskriminaciją	-10.3001
▁mokėtojų	-10.3001
▁priklausy	-10.3001
▁savaites	-10.3001
▁Sudano	-10.3001
▁aukoms	-10.3001
mobili	-10.3001
▁Airija	-10.3001
▁tvarkymo	-10.3001
▁Belgijo	-10.3001
▁projektams	-10.3001
▁stebėjimo	-10.3001
▁nelaimės	-10.3001
▁panaudoja	-10.3001
▁siunčia	-10.3001
▁Nuolat	-10.3001
▁vietovėse	-10.3001
▁atkakl	-10.3001
▁Azijos	-10.3001
▁kontroliuoti	-10.3001
▁pašar	-10.3001
▁kilti	-10.3001
▁dalys	-10.3001
▁pajamas	-10.3001
▁paketu	-10.3001
▁neišvengiama	-10.3002
▁savarankiškai	-10.3002
▁būding	-10.3002
▁krauj	-10.3002
▁atsitikim	-10.3002
▁augimas	-10.3002
▁atomin	-10.3002
▁bankas	-10.3003
izacijos	-10.3003
▁Neseni	-10.3004
▁elgesi	-10.3004
▁įtvirtinta	-10.3004
▁trukmės	-10.3004
▁palaikymo	-10.3005
▁sugebėjo	-10.3005
▁laimėjim	-10.3005
▁paraišk	-10.3005
▁įsipareigojo	-10.3008
▁rinkimai	-10.3009
▁savinink	-10.301
▁degal	-10.3011
▁atvyksta	-10.3014
▁valdymas	-10.3014
▁kultūra	-10.3014
▁būdo	-10.3018
▁išnaudoti	-10.3023
▁trečiosios	-10.3023
▁vertinimas	-10.3023
▁suteikimo	-10.3027
▁sakoma	-10.303
▁veiksmingumą	-10.3032
▁pareiškimas	-10.3033
▁teismų	-10.3033
▁sakiau	-10.3034
▁seniai	-10.3038
TE	-10.3041
▁jomis	-10.3049
▁sugebė	-10.3054
▁auga	-10.3059
▁planuojam	-10.3059
▁valdyti	-10.306
uojamos	-10.3074
▁remdamasi	-10.3074
▁linkme	-10.3082
▁turėjome	-10.3088
▁suvokti	-10.3092
▁tonų	-10.3094
▁laikau	-10.3109
▁pusę	-10.3111
▁pasakytina	-10.3111
▁situacijos	-10.3146
▁užtikrins	-10.316
▁išreiškia	-10.3186
▁ankstesn	-10.3232
▁užtikrinanči	-10.3235
▁užsiim	-10.3245
▁Or	-10.3286
▁išgyvena	-10.3302
▁Tarptautin	-10.3306
▁susijus	-10.3317
▁įvest	-10.332
▁vaisi	-10.334
▁didėjanči	-10.3348
▁Norint	-10.3363
▁Jungtinė	-10.3376
▁įmanom	-10.3409
pirmininkaujanči	-10.347
10	-10.3472
▁investuot	-10.3485
▁sveikata	-10.3486
▁sociali	-10.3487
▁atsiranda	-10.3499
▁automobili	-10.3512
▁vadovauja	-10.3513
Euro	-10.3526
valstyb	-10.3531
▁valstybin	-10.3534
mūsų	-10.3537
▁parodyt	-10.3541
▁tobul	-10.3551
▁pakeit	-10.3567
▁gyv	-10.3588
▁jung	-10.3607
▁terš	-10.3629
kultūr	-10.3636
▁Valstyb	-10.3645
▁centrini	-10.3646
grąž	-10.366
▁Bendrij	-10.3667
įvairov	-10.3667
▁Bulgarija	-10.3668
▁Komitet	-10.3668
▁London	-10.3668
▁Moldovo	-10.3668
▁Strasbūre	-10.3668
▁Svarbiausia	-10.3668
▁Valstijomis	-10.3668
▁administracij	-10.3668
▁aprūpinim	-10.3668
▁atvejis	-10.3668
▁aštuoni	-10.3668
▁diskusijoje	-10.3668
▁dokumente	-10.3668
▁dokumento	-10.3668
▁energiją	-10.3668
▁istorijos	-10.3668
▁išankstini	-10.3668
▁ištaisyti	-10.3668
▁jūroje	-10.3668
▁mokėtojai	-10.3668
▁nepavyks	-10.3668
▁persekiojim	-10.3668
▁praktikos	-10.3668
▁profesional	-10.3668
▁referendumo	-10.3668
▁susidomėjim	-10.3668
▁aplinkybes	-10.3668
▁atšauk	-10.3668
▁daugiašal	-10.3668
▁demografin	-10.3668
▁komentar	-10.3668
▁politikoje	-10.3668
▁ruoš	-10.3668
▁sričiai	-10.3668
▁sudedam	-10.3668
▁įrengini	-10.3668
▁pranešėją	-10.3668
▁švies	-10.3668
▁produkci	-10.3668
▁reikėjo	-10.3668
▁tikėtina	-10.3668
▁liūd	-10.3668
▁lyties	-10.3668
▁bankinink	-10.3668
▁kūrimas	-10.3668
▁nedarbo	-10.3668
▁žaidim	-10.3668
▁veikloje	-10.3668
▁galvoje	-10.3668
▁Žinau	-10.3668
▁statistini	-10.3668
▁vėž	-10.3668
▁kalbomis	-10.3668
▁detal	-10.3668
▁Moter	-10.3668
▁trans	-10.3668
▁aktą	-10.3668
▁gaila	-10.3668
▁Jums	-10.3669
▁pirmenyb	-10.3669
▁įnaš	-10.3669
▁gyvuli	-10.3669
▁mokėti	-10.3669
6-0	-10.3669
▁įdomu	-10.3669
▁Tema	-10.3669
▁jokiu	-10.367
▁valdom	-10.3671
▁pažeidimai	-10.3671
▁pasimokyti	-10.3671
▁pažeidimus	-10.3671
▁Birmo	-10.3672
▁atsitikti	-10.3672
staiga	-10.3675
▁198	-10.3675
▁kainą	-10.3675
RC	-10.3677
▁reikalavimą	-10.368
▁matėme	-10.3681
▁Martin	-10.3683
▁mintis	-10.3686
▁ligon	-10.3688
darysime	-10.369
sakysiu	-10.3692
▁nuomonių	-10.3694
prisijungti	-10.3697
▁bendrijos	-10.3702
ojams	-10.3703
▁patobulinti	-10.3706
▁vard	-10.3715
▁palaikome	-10.3724
▁iššūkiais	-10.3725
▁ME	-10.3735
lyginti	-10.3735
▁pakto	-10.3735
▁augal	-10.3736
▁pritarta	-10.3746
▁viešosio	-10.3753
▁palengvint	-10.3777
▁proting	-10.3792
▁reikšmė	-10.3803
▁nuoširdži	-10.383
AS	-10.3836
▁kin	-10.3853
▁pripažinta	-10.3962
▁būdam	-10.4008
▁darbin	-10.4015
grįžti	-10.4016
▁reguliuojam	-10.4024
▁galing	-10.4025
▁pirmoj	-10.4032
▁didžioj	-10.4033
atsirado	-10.4034
▁blogiau	-10.4048
▁įgyvendindam	-10.4054
▁vanden	-10.4058
▁patobulin	-10.407
▁nurodyt	-10.4102
▁pagalbin	-10.412
▁Būt	-10.4139
▁dalyvaujant	-10.4141
daryti	-10.4142
▁vadinamąj	-10.4151
veikimo	-10.417
▁išreikšt	-10.42
▁prisidėt	-10.4202
eticijų	-10.4232
▁žuv	-10.4233
silpn	-10.4245
▁atkreipia	-10.4251
▁nemat	-10.4264
kalbant	-10.4285
▁Amerik	-10.4315
šiuo	-10.4316
▁formuo	-10.4318
▁bloga	-10.4332
▁matom	-10.4334
savarankišk	-10.4381
▁Australij	-10.4382
▁Prezident	-10.4382
▁europiečiai	-10.4382
▁informacin	-10.4382
▁išlaisvin	-10.4382
▁lėktuv	-10.4382
▁ruož	-10.4382
▁sąvoka	-10.4382
▁transatlantin	-10.4382
▁trečdali	-10.4382
▁triukšm	-10.4382
2007-2013	-10.4382
komunikacij	-10.4382
▁Demokrat	-10.4382
▁Jugoslavij	-10.4382
▁Liberal	-10.4382
▁Libijoje	-10.4382
▁Prancūzijoje	-10.4382
▁Slovakijos	-10.4382
▁apkaltin	-10.4382
▁atskaitomyb	-10.4382
▁baronien	-10.4382
▁drebėjim	-10.4382
▁ilgalaikė	-10.4382
▁inovacijas	-10.4382
▁institucijomis	-10.4382
▁investuoja	-10.4382
▁jėgų	-10.4382
▁lūkesčius	-10.4382
▁mobilum	-10.4382
▁naudojimas	-10.4382
▁parduodam	-10.4382
▁pasekmes	-10.4382
▁pobūdį	-10.4382
▁popieri	-10.4382
▁privilegij	-10.4382
▁veiksnys	-10.4382
▁įstaigos	-10.4382
▁Indijos	-10.4382
▁ekosistem	-10.4382
▁pažeist	-10.4382
▁slapt	-10.4382
▁išvadų	-10.4382
▁kenkia	-10.4382
▁sveikintina	-10.4382
▁PPO	-10.4382
▁dydžio	-10.4382
▁nemokam	-10.4382
▁rinkėjų	-10.4382
▁vietini	-10.4382
▁donor	-10.4382
▁liberalizuo	-10.4382
▁įstojim	-10.4382
▁kelionės	-10.4382
▁naujoves	-10.4382
▁šeimų	-10.4382
▁regionams	-10.4382
▁surasti	-10.4382
pjū	-10.4382
▁prieštaring	-10.4382
▁ideal	-10.4382
▁Palaik	-10.4382
▁surinkt	-10.4382
▁ateitis	-10.4382
▁reaguoja	-10.4382
▁paskui	-10.4382
▁prieigą	-10.4383
▁ramsči	-10.4383
▁žaling	-10.4383
▁tipo	-10.4383
▁kultūrą	-10.4383
▁misijos	-10.4383
▁skurdžiausi	-10.4384
▁aktas	-10.4384
▁Karalystėje	-10.4384
▁pagirti	-10.4384
▁pasisek	-10.4384
▁politiškai	-10.4385
▁stojimo	-10.4385
▁priims	-10.4385
▁Aišku	-10.4385
▁prašyma	-10.4385
▁išimtin	-10.4386
▁pastebim	-10.4386
▁Žaliųjų	-10.4386
▁siekdamos	-10.4387
▁patikrinti	-10.4389
▁imtų	-10.4389
▁variant	-10.439
▁valdymą	-10.4391
▁šaltinius	-10.4391
▁sutartys	-10.4392
▁dalyvavimo	-10.4394
prievarta	-10.4395
▁rūmuose	-10.4395
▁balsuodam	-10.4395
▁suderinimo	-10.4398
▁auginim	-10.4399
▁ribojim	-10.44
▁skolo	-10.4405
▁norėjo	-10.4408
▁atsižvelgta	-10.4411
▁kalbėtoj	-10.4411
▁tikrovė	-10.4413
▁gili	-10.4414
▁Daugum	-10.4416
▁padėjo	-10.4418
▁konferencijoje	-10.4423
▁Tikiu	-10.4429
▁naujovė	-10.4434
▁palank	-10.4439
▁stal	-10.4443
▁dirb	-10.4447
▁jungtin	-10.4448
▁ignoruoja	-10.4459
▁Teisė	-10.4465
sėd	-10.45
▁peticij	-10.4534
▁pirmini	-10.4548
▁Vertin	-10.4614
galiojimo	-10.4616
▁numatom	-10.4628
▁galėdama	-10.4641
avau	-10.4657
▁pripažįstama	-10.4663
▁veikėj	-10.4679
OS	-10.468
▁Rom	-10.4755
ėjimu	-10.4755
▁pilieči	-10.4755
▁pakartotin	-10.4767
▁konkrečia	-10.4792
▁70	-10.4792
▁partnerė	-10.4817
▁praktin	-10.4819
▁atitinkanči	-10.4831
▁pagerė	-10.4864
▁planuot	-10.4872
PSE	-10.4882
SE	-10.49
▁dėking	-10.4913
▁pradėj	-10.4926
▁išreišk	-10.4927
▁nepriimtin	-10.4931
▁turėdam	-10.4936
gėd	-10.4946
▁žodžiai	-10.4959
▁prioritetu	-10.496
▁šalimi	-10.4962
čioji	-10.4962
▁pabrėžė	-10.4964
▁aukštesni	-10.4967
formuoja	-10.4968
reikėtų	-10.5016
problema	-10.5016
dirba	-10.5017
apie	-10.5023
RON	-10.5053
▁aptarta	-10.5083
▁įvykd	-10.5111
▁nepamirš	-10.5111
▁protinga	-10.5127
▁įvyks	-10.5151
▁šešėl	-10.5151
/2010	-10.5151
▁Lietuv	-10.5151
▁Makedonijos	-10.5151
▁Palestino	-10.5151
▁Rumunijoje	-10.5151
▁Solidarum	-10.5151
▁Sutartį	-10.5151
▁agentūrą	-10.5151
▁apibendrin	-10.5151
▁apčiuopiam	-10.5151
▁atostogų	-10.5151
▁bruož	-10.5151
▁dalyką	-10.5151
▁dialogu	-10.5151
▁gyventojus	-10.5151
▁idėjų	-10.5151
▁ilgalaikį	-10.5151
▁investicijos	-10.5151
▁išpuolių	-10.5151
▁koncentra	-10.5151
▁koordinavimą	-10.5151
▁lėšomis	-10.5151
▁migrantų	-10.5151
▁monopoli	-10.5151
▁nepilnameči	-10.5151
▁pacientams	-10.5151
▁pamiršta	-10.5151
▁pasauliui	-10.5151
▁paskirstymo	-10.5151
▁pastebėti	-10.5151
▁pavojaus	-10.5151
▁priežastys	-10.5151
▁pusiausvyros	-10.5151
▁ryšius	-10.5151
▁sankcijas	-10.5151
▁sankcijų	-10.5151
▁solidarumas	-10.5151
▁stebėsenos	-10.5151
▁sušvelnin	-10.5151
▁sąjunginink	-10.5151
▁tyrimams	-10.5151
▁vyrauja	-10.5151
▁žingsniu	-10.5151
▁aplinkybių	-10.5151
▁konkuruo	-10.5151
▁paplit	-10.5151
▁pasitikėjimo	-10.5151
▁persekioja	-10.5151
▁pokyčiai	-10.5151
▁vizit	-10.5151
skaityti	-10.5151
▁nukentėjusi	-10.5151
▁organizavim	-10.5151
▁rašytin	-10.5151
▁reiškinys	-10.5151
▁stamb	-10.5151
▁forum	-10.5151
▁nesvarbu	-10.5151
▁miršta	-10.5151
▁tyrimo	-10.5151
▁apginti	-10.5151
▁Tibet	-10.5151
▁dinamišk	-10.5151
▁farmaci	-10.5151
▁Prašau	-10.5151
▁realyb	-10.5151
▁savaičių	-10.5151
▁kryptis	-10.5151
▁reikšmę	-10.5151
▁susigrąžin	-10.5151
▁Siekdam	-10.5151
▁Atrodo	-10.5151
▁pakalbė	-10.5151
▁naujovišk	-10.5151
▁emisij	-10.5151
▁pagalvoti	-10.5151
▁pereinam	-10.5152
▁mokestin	-10.5152
▁vaistai	-10.5152
▁vandenyn	-10.5152
▁viršūn	-10.5152
▁cikl	-10.5152
▁žinios	-10.5152
▁prašoma	-10.5152
▁atidėti	-10.5152
▁skelbiam	-10.5152
▁elektrinės	-10.5152
▁nesutarim	-10.5152
▁regionas	-10.5153
▁pataisym	-10.5153
▁turk	-10.5153
▁daugiamet	-10.5153
▁kultūrų	-10.5154
▁prielaid	-10.5154
▁patraukl	-10.5156
▁nutraukim	-10.5157
▁bendrovėms	-10.5157
▁ženklinimo	-10.5159
▁sunkumus	-10.5159
▁turėj	-10.516
▁Karalystės	-10.516
▁išraišk	-10.516
▁uždavinys	-10.5161
▁prašyti	-10.5161
▁sunkumai	-10.5161
▁dalyvavimą	-10.5163
▁taikydam	-10.5163
▁garantuoti	-10.5166
▁31	-10.5169
▁griežtesni	-10.5169
▁protekcionizm	-10.517
▁uždavinių	-10.5172
tynų	-10.5172
ekija	-10.5173
▁galimybėmis	-10.5173
▁turting	-10.5177
▁bad	-10.5182
▁švar	-10.5183
▁Praėjusi	-10.5185
▁draudžiama	-10.5194
▁gars	-10.5247
▁pavaduotoj	-10.5248
▁atsisakym	-10.5264
▁rėmė	-10.5276
▁kompromisin	-10.5283
▁veda	-10.5298
▁special	-10.5311
▁plėtoja	-10.5317
▁siejama	-10.536
▁frakcij	-10.5367
▁vadinamoj	-10.5383
▁mažosio	-10.5421
▁ribo	-10.5449
▁sulaikym	-10.545
▁būtinybė	-10.546
▁keičiama	-10.5499
▁lemiam	-10.5506
▁pasmerkt	-10.5512
demokratinės	-10.5514
▁Pagrindin	-10.5536
UR	-10.555
▁pakartoti	-10.5551
▁Pateik	-10.5592
▁išgyven	-10.5593
kuria	-10.561
▁priimam	-10.5612
▁didėj	-10.5634
/2008	-10.5663
▁perėjim	-10.5687
▁sieja	-10.5762
siųsti	-10.5764
▁Baigdama	-10.5793
▁palengvin	-10.5849
▁sugebėsi	-10.5874
▁Diskusij	-10.5895
▁persvarst	-10.5919
▁paskelbt	-10.5936
▁pažiūr	-10.597
▁patenkin	-10.5975
▁svar	-10.5978
osėdžio	-10.5981
integracija	-10.5984
▁Hercegovin	-10.5984
▁Kroatija	-10.5984
▁Schulz	-10.5984
▁Stokholm	-10.5984
▁dujotieki	-10.5984
▁nedelsdam	-10.5984
▁prasideda	-10.5984
▁smerkia	-10.5984
▁tarpinstitucin	-10.5984
AIDS	-10.5985
imbabv	-10.5985
nutraukkalbėtoją	-10.5985
▁Dunoj	-10.5985
▁Graikijoje	-10.5985
▁Komisijoje	-10.5985
▁Pirmininkaujan	-10.5985
▁Vokietija	-10.5985
▁akcent	-10.5985
▁apgailestauti	-10.5985
▁darbotvarkėje	-10.5985
▁diskusijomis	-10.5985
▁džiaugiamės	-10.5985
▁imigracija	-10.5985
▁investicijoms	-10.5985
▁istoriją	-10.5985
▁iškraip	-10.5985
▁konsultacijų	-10.5985
▁konvenciją	-10.5985
▁korupcija	-10.5985
▁lanksči	-10.5985
▁neramum	-10.5985
▁nesupranta	-10.5985
▁pacientai	-10.5985
▁premij	-10.5985
▁prisiėm	-10.5985
▁reglamente	-10.5985
▁reguliavimą	-10.5985
▁siaubing	-10.5985
▁signalas	-10.5985
▁skurdas	-10.5985
▁sritims	-10.5985
▁studij	-10.5985
▁supratimo	-10.5985
▁tarnybų	-10.5985
▁technologijos	-10.5985
▁telefon	-10.5985
▁termino	-10.5985
▁turbūt	-10.5985
▁vystyti	-10.5985
▁įgaliojimų	-10.5985
▁EIB	-10.5985
▁Meksik	-10.5985
▁PVM	-10.5985
▁dalytis	-10.5985
▁gynėj	-10.5985
▁mokestis	-10.5985
▁sutrik	-10.5985
▁ūkių	-10.5985
▁žodžių	-10.5985
▁išimčių	-10.5985
▁prašymų	-10.5985
▁byla	-10.5985
▁nekantr	-10.5985
▁zoną	-10.5985
▁apskait	-10.5985
▁kūrimą	-10.5985
▁vertybės	-10.5985
▁Antroj	-10.5985
▁kvotų	-10.5985
▁vaistus	-10.5985
▁susirinkim	-10.5985
▁nebėra	-10.5985
▁naudodam	-10.5985
▁derėtų	-10.5985
▁paneig	-10.5985
▁sutarčiai	-10.5985
EGF	-10.5985
▁Tikimės	-10.5985
▁nepalankiausi	-10.5985
▁projekte	-10.5985
▁pajamos	-10.5985
▁Irane	-10.5985
▁tariama	-10.5985
▁skland	-10.5985
▁dvejop	-10.5985
▁mikro	-10.5985
▁paband	-10.5985
▁rajon	-10.5985
▁atrank	-10.5985
▁negalės	-10.5985
SIS	-10.5986
▁pasinaudoja	-10.5986
▁etike	-10.5986
▁praranda	-10.5986
▁geneti	-10.5986
▁gamtini	-10.5986
▁naujien	-10.5986
▁gaisr	-10.5986
▁Nacionalin	-10.5987
šaldy	-10.5987
▁pasisakym	-10.5987
sugeba	-10.5988
▁mastą	-10.5988
▁taisyklėmis	-10.599
▁balsuojama	-10.599
KK	-10.5993
▁pasirašyti	-10.5994
▁išties	-10.5995
▁neįgal	-10.5996
▁susitarime	-10.5996
▁tikimasi	-10.5996
▁Keli	-10.5997
▁kritika	-10.5998
▁29	-10.5998
▁baisi	-10.6
▁Kopenhagoje	-10.6
▁praras	-10.6001
▁mokymą	-10.6004
▁mėsos	-10.6005
▁pateiksiu	-10.6006
merio	-10.6007
▁pažeidimas	-10.6009
▁pažvelgt	-10.6013
▁Vaik	-10.6017
▁darbai	-10.6023
▁užima	-10.6025
▁Estij	-10.6026
the	-10.6058
▁ketin	-10.6061
▁pagrindinėm	-10.6061
▁balt	-10.6066
▁tęsiam	-10.6068
▁tvirtina	-10.6107
▁leidėj	-10.6172
▁ypatinga	-10.6172
▁rekomenduojam	-10.6234
reikia	-10.6292
▁aiškinim	-10.63
▁dalyvaujanči	-10.6303
▁pažeidžia	-10.6305
▁kredit	-10.6468
▁planuoja	-10.6474
▁pasmerk	-10.648
▁Atsižvelgdam	-10.652
▁dvišaliu	-10.6547
▁saugesn	-10.6641
▁vyriausi	-10.6669
▁prisijungim	-10.6686
▁saugumu	-10.6719
▁situacij	-10.6723
tinkama	-10.6726
▁persvarstyt	-10.6731
priklauso	-10.6755
priemon	-10.6757
▁Komisar	-10.6772
▁palikt	-10.6774
▁laikant	-10.6775
▁užmoj	-10.6778
▁siekianči	-10.6783
▁išplėst	-10.6815
▁teigini	-10.6817
▁vietoj	-10.6822
▁sritys	-10.6823
▁Britanij	-10.6826
▁įsitikinim	-10.6875
prekyb	-10.6879
▁rūš	-10.688
▁diskrimin	-10.6892
▁apytikri	-10.6894
▁mėlyn	-10.6894
▁Septint	-10.6894
▁chartija	-10.6894
▁dimensij	-10.6894
▁horizontal	-10.6894
▁individ	-10.6894
▁išdėstyti	-10.6894
▁išsilavinim	-10.6894
▁nereikaling	-10.6894
▁nusikaltėl	-10.6894
▁palestinieči	-10.6894
▁pasiryžim	-10.6894
▁prieglobst	-10.6894
▁represij	-10.6894
▁vokieči	-10.6894
orientacij	-10.6894
▁Afrika	-10.6894
▁Islandij	-10.6894
▁Ispanijoje	-10.6894
▁Kankūn	-10.6894
▁Konvencij	-10.6894
▁Pramonės	-10.6894
▁Respublika	-10.6894
▁Rūmuose	-10.6894
▁Turkijoje	-10.6894
▁asamblėj	-10.6894
▁atspindi	-10.6894
▁atvejį	-10.6894
▁banan	-10.6894
▁institut	-10.6894
▁išbandym	-10.6894
▁jurisdikcij	-10.6894
▁kariuomen	-10.6894
▁ketvirtadienį	-10.6894
▁konkurent	-10.6894
▁kontakt	-10.6894
▁lobist	-10.6894
▁nedarbas	-10.6894
▁neoficial	-10.6894
▁nerimauj	-10.6894
▁novatorišk	-10.6894
▁nuodugnia	-10.6894
▁paminėjo	-10.6894
▁pasaulį	-10.6894
▁pasirinkimo	-10.6894
▁paslaugoms	-10.6894
▁pastangomis	-10.6894
▁prekės	-10.6894
▁prevenciją	-10.6894
▁reglamentavimo	-10.6894
▁rezerv	-10.6894
▁sektoriuose	-10.6894
▁trišal	-10.6894
▁užkerta	-10.6894
▁verslą	-10.6894
▁įvykti	-10.6894
▁Venesuel	-10.6894
▁gydym	-10.6894
▁pasibaig	-10.6894
▁pastabų	-10.6894
▁piršt	-10.6894
▁redakcij	-10.6894
▁tragišk	-10.6894
▁užmokest	-10.6894
▁valdysenos	-10.6894
▁įsipareigojimas	-10.6894
▁įvaikinim	-10.6894
▁žodis	-10.6894
▁Stavr	-10.6894
▁reklamos	-10.6894
▁statykl	-10.6894
▁taršą	-10.6894
▁testavim	-10.6894
▁Škotij	-10.6894
▁moralin	-10.6894
▁nuspręsta	-10.6894
▁skandal	-10.6894
▁ištirti	-10.6894
▁skirstym	-10.6894
▁spektr	-10.6894
▁minučių	-10.6894
▁negalėjo	-10.6894
▁sesijos	-10.6894
▁tęsiasi	-10.6894
▁arabų	-10.6894
▁Haičio	-10.6894
▁akmen	-10.6894
▁Atlant	-10.6894
▁gairės	-10.6894
TVF	-10.6894
▁Inter	-10.6894
▁spaudimo	-10.6894
▁laikymosi	-10.6894
▁Tarp	-10.6894
▁atstum	-10.6894
▁prasmės	-10.6894
▁Jemen	-10.6894
▁taikymas	-10.6894
▁grandinė	-10.6894
▁biuro	-10.6894
▁partnerystę	-10.6894
▁žvejyba	-10.6894
▁galvoja	-10.6894
▁laivyn	-10.6894
▁kūrimu	-10.6895
▁bang	-10.6895
▁paskata	-10.6895
▁vyrai	-10.6895
▁keliauja	-10.6895
▁užduotį	-10.6896
teityje	-10.6896
▁mažumos	-10.6896
▁kelionių	-10.6896
▁pasitaik	-10.6896
▁Lank	-10.6897
▁spart	-10.6897
▁dešin	-10.6897
▁nukentėjo	-10.6897
▁priklausomybę	-10.6897
▁tobulinti	-10.6898
▁susitelk	-10.6898
▁Priešingai	-10.6899
▁tele	-10.6899
▁plot	-10.6899
▁nustatymo	-10.69
▁įrodo	-10.69
▁lenk	-10.6902
▁įstot	-10.6903
▁atima	-10.6904
▁varom	-10.6906
nepriklausomybės	-10.6907
ohn	-10.691
▁didesnė	-10.6912
ėlių	-10.6912
▁trim	-10.6912
▁vilk	-10.6916
▁nuoroda	-10.6919
▁liks	-10.6943
mainų	-10.6947
▁įkurt	-10.6949
▁ieškot	-10.695
▁roj	-10.6953
▁dalijim	-10.6953
▁viduri	-10.6968
▁patekim	-10.6976
▁apibrėžia	-10.7005
uosiuos	-10.7105
▁vyriausioj	-10.7123
▁masini	-10.7156
skiriant	-10.7194
krov	-10.7286
▁mažuma	-10.733
▁kritiška	-10.7337
▁organizuo	-10.7467
ktyvi	-10.7474
▁žodin	-10.7507
▁plenariniam	-10.7545
matau	-10.7612
▁demokrat	-10.7645
▁sunaikin	-10.7654
▁komitetu	-10.771
Š	-10.7754
kontrol	-10.7756
pagalba	-10.7757
sistema	-10.7758
▁atstovavim	-10.7758
▁abipus	-10.777
▁grąžinim	-10.7775
greit	-10.7811
▁konkurencin	-10.783
steigti	-10.784
plėsti	-10.7853
▁pareikš	-10.7854
naudota	-10.7887
▁nukentė	-10.789
pritaikyt	-10.7891
▁skurdži	-10.7891
▁Juodkalnij	-10.7894
▁svyravim	-10.7894
▁įžeidim	-10.7894
įspūdis	-10.7894
▁Albanij	-10.7894
▁Apskritai	-10.7894
▁Baltarusijoje	-10.7894
▁Italija	-10.7894
▁Kinijoje	-10.7894
▁Liuksemburg	-10.7894
▁Moksl	-10.7894
▁OLAF	-10.7894
▁Portugalijoje	-10.7894
▁Prekyb	-10.7894
▁Sanglaudos	-10.7894
▁aktualu	-10.7894
▁apsirūpinim	-10.7894
▁atmosfer	-10.7894
▁biodegal	-10.7894
▁dalyviai	-10.7894
▁dalyvių	-10.7894
▁derėtis	-10.7894
▁dirvožemi	-10.7894
▁diskusijoms	-10.7894
▁diskutavo	-10.7894
▁ekspertų	-10.7894
▁formos	-10.7894
▁formą	-10.7894
▁formų	-10.7894
▁gamykl	-10.7894
▁gelbėjimo	-10.7894
▁ilgalaike	-10.7894
▁imamasi	-10.7894
▁interpret	-10.7894
▁konservatori	-10.7894
▁konsultacijos	-10.7894
▁konvergencij	-10.7894
▁ministrai	-10.7894
▁nepageidaujam	-10.7894
▁nepripažįsta	-10.7894
▁nesėkming	-10.7894
▁neutrali	-10.7894
▁orientuot	-10.7894
▁pabaiga	-10.7894
▁padengti	-10.7894
▁padidės	-10.7894
▁palydov	-10.7894
▁pasiruošę	-10.7894
▁pasiūlymams	-10.7894
▁pavyzdin	-10.7894
▁pavėluot	-10.7894
▁praktiką	-10.7894
▁prasidėjus	-10.7894
▁pražūting	-10.7894
▁prekėms	-10.7894
▁prevencija	-10.7894
▁problemoms	-10.7894
▁radioaktyvi	-10.7894
▁ratifikavo	-10.7894
▁ratifikuoti	-10.7894
▁rinkimams	-10.7894
▁sisteminga	-10.7894
▁sunkvežimi	-10.7894
▁susidoroti	-10.7894
▁sąjungų	-10.7894
▁sąnaudas	-10.7894
▁tendencija	-10.7894
▁tradicini	-10.7894
▁tranzit	-10.7894
▁užsibrėž	-10.7894
▁vertybėms	-10.7894
▁įgūdžius	-10.7894
▁įrodymų	-10.7894
▁įsipareigojimai	-10.7894
▁švietimas	-10.7894
▁PNR	-10.7894
▁Rezoliucij	-10.7894
▁Susitarim	-10.7894
▁Veiksm	-10.7894
▁apgaul	-10.7894
▁kompensuo	-10.7894
▁ministru	-10.7894
▁pasitikėjimas	-10.7894
▁vežėj	-10.7894
▁šalutin	-10.7894
▁atokiausi	-10.7894
▁keleri	-10.7894
▁steigi	-10.7894
▁vartojimą	-10.7894
▁Kubos	-10.7894
▁posėdį	-10.7894
▁aukomis	-10.7894
▁kvotos	-10.7894
▁Dažn	-10.7894
▁paskirstyt	-10.7894
▁ateičiai	-10.7894
▁dvasia	-10.7894
▁prasming	-10.7894
▁tyrimas	-10.7894
▁atmesti	-10.7894
▁didinimą	-10.7894
▁kapitalizm	-10.7894
▁kvotas	-10.7894
▁mažumoms	-10.7894
▁objektyv	-10.7894
▁įsipareigojusi	-10.7894
▁Korėja	-10.7894
▁chemin	-10.7894
▁vežim	-10.7894
▁šiuolaikin	-10.7894
▁valdanči	-10.7894
▁Deryb	-10.7894
▁avių	-10.7894
▁krypčių	-10.7894
▁pagreitint	-10.7894
▁imsis	-10.7894
▁eurą	-10.7894
▁Kelet	-10.7894
▁gynim	-10.7894
▁taikymą	-10.7894
▁nekalt	-10.7894
▁komisar	-10.7894
▁mėnesio	-10.7894
▁reagavim	-10.7894
▁Manuel	-10.7894
▁kadenciją	-10.7894
▁bijau	-10.7894
▁Nieka	-10.7894
▁arenoje	-10.7894
▁Doho	-10.7894
▁prieigos	-10.7894
sausumos	-10.7894
▁suderinamum	-10.7894
▁atsitiko	-10.7895
▁bendruomenių	-10.7895
▁švent	-10.7895
▁prisitaikyti	-10.7895
▁pasinaudodam	-10.7895
▁Artim	-10.7895
▁jautri	-10.7896
▁viršutin	-10.7896
▁statusą	-10.7896
▁Pritaria	-10.7896
▁kūn	-10.7896
▁vaidin	-10.7896
▁krašt	-10.7897
▁precedento	-10.7897
▁išimtis	-10.7897
▁prašytoj	-10.7897
▁statuso	-10.7897
ronte	-10.7897
vykdymą	-10.7897
▁Brok	-10.7898
▁mandat	-10.7899
▁dingst	-10.7899
▁vaiko	-10.7899
▁2003	-10.7899
▁Pasiūlym	-10.7901
▁pasirašiusi	-10.7902
▁jūrin	-10.7902
dymas	-10.7903
▁abu	-10.7903
konkurencingumui	-10.7903
▁netikr	-10.791
▁įgij	-10.7923
▁nusto	-10.7929
▁Dvi	-10.7935
▁sutaria	-10.7941
▁lytin	-10.7942
▁eksploatavim	-10.7948
mokyti	-10.795
dalyvautų	-10.8019
▁puoselė	-10.8091
▁lėm	-10.8118
▁atsižvelgdam	-10.8119
▁nuolaid	-10.8156
▁geografinė	-10.8216
▁palankesn	-10.832
▁polit	-10.8361
sitiki	-10.8386
konkurencingumas	-10.8491
liktų	-10.8527
sakyti	-10.8527
▁sugrįž	-10.8595
142	-10.862
▁dvide	-10.8679
▁viešąj	-10.8715
▁audit	-10.8721
laikymas	-10.8777
▁iešk	-10.8834
▁duoda	-10.8847
pozicija	-10.8867
Į	-10.8869
▁atsisakyt	-10.887
sunki	-10.8871
▁aljans	-10.8878
▁neketin	-10.8895
▁pranešėju	-10.892
▁antrąj	-10.8992
uvininkystės	-10.9002
▁formul	-10.9004
▁nepalanki	-10.9004
▁nevykd	-10.9004
▁Buvusi	-10.9005
▁deleguot	-10.9005
▁Konstitucin	-10.9005
▁Paskutini	-10.9005
▁atlyginimu	-10.9005
▁augintoj	-10.9005
▁bylos	-10.9005
▁imperialistin	-10.9005
▁infliacij	-10.9005
▁inicijuot	-10.9005
▁maksimal	-10.9005
▁medžiaga	-10.9005
▁prekiauja	-10.9005
▁prevencin	-10.9005
▁rūpesči	-10.9005
▁suplanuot	-10.9005
▁įpareigojim	-10.9005
▁Barnier	-10.9005
▁Barselono	-10.9005
▁Kalbėdam	-10.9005
▁Korėjos	-10.9005
▁Madagaskar	-10.9005
▁Pakistane	-10.9005
▁Paslaug	-10.9005
▁Problem	-10.9005
▁Regioninės	-10.9005
▁Rytuose	-10.9005
▁Slovakija	-10.9005
▁Strategij	-10.9005
▁Tajani	-10.9005
▁Teigiama	-10.9005
▁Ukrainoje	-10.9005
▁Vengrijoje	-10.9005
▁aktuali	-10.9005
▁amžiuje	-10.9005
▁apgailestauja	-10.9005
▁arešto	-10.9005
▁darbininkų	-10.9005
▁diagnoz	-10.9005
▁draudima	-10.9005
▁džiaugtis	-10.9005
▁ilgalaikę	-10.9005
▁investavim	-10.9005
▁iššūkį	-10.9005
▁kliūtys	-10.9005
▁komitetą	-10.9005
▁kruopščia	-10.9005
▁liberalizavimo	-10.9005
▁naudotoj	-10.9005
▁nenumatyt	-10.9005
▁nepajėg	-10.9005
▁nusiteikę	-10.9005
▁palaipsniui	-10.9005
▁palūkanų	-10.9005
▁pasidžiaugti	-10.9005
▁pasirengti	-10.9005
▁pasirinkimą	-10.9005
▁platform	-10.9005
▁prekes	-10.9005
▁reaktori	-10.9005
▁referendumas	-10.9005
▁referendumą	-10.9005
▁rūpestį	-10.9005
▁slypi	-10.9005
▁susitaikym	-10.9005
▁sustiprins	-10.9005
▁suvienyt	-10.9005
▁sąjungą	-10.9005
▁sąnaudos	-10.9005
▁taupyti	-10.9005
▁terminą	-10.9005
▁trečiadienį	-10.9005
▁uždrausta	-10.9005
▁užmegzt	-10.9005
▁viduryje	-10.9005
▁vyktų	-10.9005
▁įgūdžių	-10.9005
▁įpareigot	-10.9005
▁Švedija	-10.9005
išgirdau	-10.9005
mąstyti	-10.9005
▁Kultūr	-10.9005
▁Sutartis	-10.9005
▁girdėjome	-10.9005
▁licencij	-10.9005
▁ministre	-10.9005
▁mokestį	-10.9005
▁praradim	-10.9005
▁suverenum	-10.9005
▁Rusijoje	-10.9005
▁užteršt	-10.9005
reikšmi	-10.9005
▁lyderė	-10.9005
▁nešališk	-10.9005
▁palaikymą	-10.9005
▁susidurt	-10.9005
▁plačiajuos	-10.9005
▁Tiesiog	-10.9005
▁atsitinka	-10.9005
▁Alzh	-10.9005
▁priimdama	-10.9005
▁sieną	-10.9005
▁moters	-10.9005
▁prisimena	-10.9005
▁žvejybą	-10.9005
▁Klausim	-10.9005
▁galvoti	-10.9005
▁politikų	-10.9005
▁įdarbin	-10.9005
▁Suomij	-10.9005
siskolin	-10.9005
stebėjau	-10.9005
▁šešėliniam	-10.9005
▁surinkim	-10.9005
▁mokymas	-10.9005
▁valdžią	-10.9005
▁vertybini	-10.9005
▁rūšies	-10.9005
plečia	-10.9005
▁investuotojams	-10.9005
▁sumažės	-10.9005
▁nuostab	-10.9005
▁brangi	-10.9005
▁sumokėti	-10.9005
▁matydama	-10.9005
▁žudym	-10.9005
▁įteisin	-10.9006
▁neatsaking	-10.9006
▁klaidinanči	-10.9006
▁graž	-10.9006
▁išdavimo	-10.9006
prilygs	-10.9006
▁neveikia	-10.9006
▁daikt	-10.9006
▁viza	-10.9006
▁požiūriai	-10.9006
▁gavę	-10.9007
▁vėliav	-10.9007
▁aukos	-10.9007
▁derybin	-10.9007
▁tebe	-10.9007
atskleid	-10.9007
▁atsidavim	-10.9009
▁bankai	-10.9013
▁Gerbiamas	-10.9013
▁elit	-10.9014
▁žala	-10.9018
▁abipusiškum	-10.9019
▁nurodoma	-10.902
▁grasin	-10.9021
▁apsisprendim	-10.9022
▁raid	-10.9023
Posėd	-10.9024
▁buvein	-10.903
dymą	-10.9053
▁skurde	-10.9073
▁atleidim	-10.9102
▁Centrini	-10.9118
naikinimas	-10.9145
▁vystomoj	-10.9186
vandenili	-10.922
laukia	-10.9238
naudoti	-10.9259
daromos	-10.9282
▁Centrinė	-10.9315
laikyti	-10.9324
▁auganči	-10.9351
▁lengv	-10.9379
▁atgaivin	-10.9387
▁pastatyt	-10.9404
▁Didžioj	-10.9407
▁apmokestin	-10.9431
matysime	-10.9447
▁patobulinim	-10.9452
▁procedūr	-10.9461
▁praleist	-10.9489
pasieksime	-10.9542
▁Žali	-10.9605
prašome	-10.9792
▁kategori	-11.002
▁Naujoj	-11.0059
Komisija	-11.0067
▁artėja	-11.0074
▁vertim	-11.0075
karšt	-11.0088
▁energeti	-11.0093
plėtra	-11.0118
2006	-11.0119
politika	-11.012
▁sprend	-11.0155
▁kontekst	-11.0182
▁asociacij	-11.0186
▁Praėj	-11.0208
nergijos	-11.0249
▁apsvarst	-11.0252
▁Generalin	-11.0254
▁jėgom	-11.0255
▁nuogąstavim	-11.0255
▁Kaukaz	-11.0255
▁Smulk	-11.0255
▁advokat	-11.0255
▁apžvalg	-11.0255
▁ekstremali	-11.0255
▁gydytoj	-11.0255
▁incident	-11.0255
▁kankinim	-11.0255
▁koordinatori	-11.0255
▁koridori	-11.0255
▁kvalifikuot	-11.0255
▁modifikuot	-11.0255
▁nedalyvauja	-11.0255
▁neoliberal	-11.0255
▁pavyzdžiai	-11.0255
▁propaguoja	-11.0255
▁punktu	-11.0255
▁revoliucij	-11.0255
▁scenarij	-11.0255
▁unikal	-11.0255
▁universal	-11.0255
▁Įgyvendin	-11.0255
▁švaisty	-11.0255
katastrofa	-11.0255
sanglauda	-11.0255
užmiršti	-11.0255
▁Gvantanamo	-11.0255
▁Neabejotina	-11.0255
▁Sarkozy	-11.0255
▁Strasbūro	-11.0255
▁Trumpa	-11.0255
▁Užimtumo	-11.0255
▁Vykd	-11.0255
▁aplankyt	-11.0255
▁atžvilgiais	-11.0255
▁autobusų	-11.0255
▁autonomij	-11.0255
▁bylų	-11.0255
▁cukraus	-11.0255
▁cunami	-11.0255
▁daržovių	-11.0255
▁demping	-11.0255
▁diegti	-11.0255
▁diktatūr	-11.0255
▁doleri	-11.0255
▁dydį	-11.0255
▁ekonomikoje	-11.0255
▁europietišk	-11.0255
▁gatvėse	-11.0255
▁imigraciją	-11.0255
▁informavo	-11.0255
▁integraciją	-11.0255
▁intervencijos	-11.0255
▁istorijoje	-11.0255
▁išaiškinti	-11.0255
▁klastojimu	-11.0255
▁koordinavimas	-11.0255
▁medicinin	-11.0255
▁mitybos	-11.0255
▁nevyriausybinių	-11.0255
▁nuošalyje	-11.0255
▁organizacijoje	-11.0255
▁organizaciją	-11.0255
▁pareikalavo	-11.0255
▁penkiolika	-11.0255
▁perskirstym	-11.0255
▁pilietybės	-11.0255
▁potenciali	-11.0255
▁prisidės	-11.0255
▁punktas	-11.0255
▁rasizm	-11.0255
▁reglamentų	-11.0255
▁reguliar	-11.0255
▁ryšiai	-11.0255
▁ryšį	-11.0255
▁serganči	-11.0255
▁solidarumu	-11.0255
▁statistikos	-11.0255
▁sudėtį	-11.0255
▁susitaikyti	-11.0255
▁suvereniteto	-11.0255
▁sąmoningum	-11.0255
▁sąnaudų	-11.0255
▁tapatybė	-11.0255
▁trokšta	-11.0255
▁uždraudim	-11.0255
▁vaidmeniu	-11.0255
▁vartotojus	-11.0255
▁veiksmams	-11.0255
▁vystymasis	-11.0255
▁įsikišim	-11.0255
▁įsikišti	-11.0255
▁ūkininkavimo	-11.0255
▁Ženevo	-11.0255
▁žmogžudys	-11.0255
pasikartotų	-11.0255
▁Belgija	-11.0255
▁ECB	-11.0255
▁Gvinėj	-11.0255
▁NVO	-11.0255
▁Rompuy	-11.0255
▁atskleidžia	-11.0255
▁dešimtmetyje	-11.0255
▁nuvyk	-11.0255
▁nužudyt	-11.0255
▁perženg	-11.0255
▁sukrėt	-11.0255
▁vairavimo	-11.0255
▁Asamblėj	-11.0255
▁Eurojust	-11.0255
▁Paryžiuje	-11.0255
▁Ugand	-11.0255
▁apsisaugo	-11.0255
▁neįtraukta	-11.0255
▁nusistaty	-11.0255
▁rinkimuose	-11.0255
▁ūkį	-11.0255
Stream	-11.0255
▁Rusiją	-11.0255
▁metrų	-11.0255
▁ramstis	-11.0255
▁elgesys	-11.0255
▁griauna	-11.0255
▁ministro	-11.0255
▁prieštaraut	-11.0255
▁reakcija	-11.0255
▁stichin	-11.0255
▁Didel	-11.0255
▁Vietoj	-11.0255
▁jūra	-11.0255
▁neturėjo	-11.0255
▁pagyvenusi	-11.0255
▁prievartą	-11.0255
▁rizikuo	-11.0255
▁vizos	-11.0255
▁tenkinti	-11.0255
▁aplinkybės	-11.0255
▁gaivinim	-11.0255
▁atskleist	-11.0255
▁kryptį	-11.0255
▁strategijų	-11.0255
▁įsigalios	-11.0255
▁policija	-11.0255
▁atsakomybėn	-11.0255
▁stovyklos	-11.0255
▁atsakyta	-11.0255
▁išliks	-11.0255
▁kalbėję	-11.0255
▁nusprendžiau	-11.0255
▁gairių	-11.0255
▁kalbėjusi	-11.0255
▁trūkumą	-11.0255
▁misija	-11.0255
▁viltis	-11.0255
▁apklaus	-11.0255
▁iškyla	-11.0255
▁neaiški	-11.0255
▁užtikrintos	-11.0255
▁atotrūk	-11.0255
▁įvedimas	-11.0255
▁normali	-11.0255
▁nebalsuo	-11.0255
▁sveikatą	-11.0255
▁domina	-11.0255
▁neturės	-11.0255
žalojim	-11.0255
▁primena	-11.0255
TDO	-11.0255
▁įtariam	-11.0255
▁išmetanči	-11.0255
▁grįst	-11.0255
▁užtikrinimas	-11.0255
▁iškastini	-11.0255
▁atmesta	-11.0256
▁dėka	-11.0256
▁ribin	-11.0256
▁prieštaravim	-11.0256
▁raket	-11.0256
▁pasirašyta	-11.0257
▁išnyk	-11.0257
▁pilna	-11.0257
tovykl	-11.0257
▁Laisv	-11.0259
▁Linki	-11.0263
▁Bank	-11.0264
vengiama	-11.0269
▁stabd	-11.0293
berg	-11.0298
▁valdytoj	-11.0309
▁žada	-11.0312
būtina	-11.0317
▁įpareigojanči	-11.0356
▁malon	-11.0376
▁komercin	-11.0376
▁tobulinim	-11.0481
duodant	-11.0487
▁gimtoj	-11.0488
▁strateg	-11.0536
ketinama	-11.065
▁išsiskyr	-11.0656
▁susilaiky	-11.0755
▁padirb	-11.0844
▁susidaryt	-11.0933
buvimą	-11.0997
naikinti	-11.1001
leidimo	-11.1009
▁teisėtum	-11.113
▁darbuotoj	-11.1139
▁atgaivinim	-11.1205
restruktūrizavim	-11.1251
▁pertvark	-11.1336
vienas	-11.1422
▁rengdam	-11.1482
▁elektro	-11.1489
▁atvejai	-11.1494
suprantu	-11.1545
lengva	-11.1546
pasiūlymą	-11.1548
susijusi	-11.1551
konkreči	-11.157
▁nekreip	-11.1572
▁greiči	-11.163
▁Nepriimtin	-11.1683
tereotip	-11.1683
▁decentraliz	-11.1683
▁geopolitin	-11.1683
▁konstatuojam	-11.1683
▁terminai	-11.1683
7-02	-11.1683
Nabucco	-11.1683
piktnaudžiavimo	-11.1683
▁Apgailestauj	-11.1683
▁Azijoje	-11.1683
▁Bendradarbiavim	-11.1683
▁Briuseli	-11.1683
▁Darbuotoj	-11.1683
▁Graikiją	-11.1683
▁Harbour	-11.1683
▁Indija	-11.1683
▁Japonija	-11.1683
▁Japonijoje	-11.1683
▁Kroatiją	-11.1683
▁Lynne	-11.1683
▁McCreevy	-11.1683
▁Mokesči	-11.1683
▁Niujork	-11.1683
▁Projekt	-11.1683
▁Rašytinia	-11.1683
▁Reform	-11.1683
▁Taliban	-11.1683
▁Verhofstadt	-11.1683
▁amerikieči	-11.1683
▁anksti	-11.1683
▁apsunkina	-11.1683
▁atkreipdėmesį	-11.1683
▁atostogas	-11.1683
▁atsiprašau	-11.1683
▁atsiradus	-11.1683
▁automatiškai	-11.1683
▁avarijų	-11.1683
▁besąlygiška	-11.1683
▁byloja	-11.1683
▁chartijos	-11.1683
▁chemikal	-11.1683
▁demonstracij	-11.1683
▁diktatori	-11.1683
▁dramatišk	-11.1683
▁draudimą	-11.1683
▁dvasią	-11.1683
▁elektrini	-11.1683
▁europiečiams	-11.1683
▁fondams	-11.1683
▁informuota	-11.1683
▁išdėstyta	-11.1683
▁išpuoliai	-11.1683
▁kalbėjusieji	-11.1683
▁ketveri	-11.1683
▁kišimasis	-11.1683
▁klestėjim	-11.1683
▁klimatui	-11.1683
▁kliūtimi	-11.1683
▁komitetų	-11.1683
▁kompensavim	-11.1683
▁kompetenciją	-11.1683
▁komponent	-11.1683
▁konstitucijos	-11.1683
▁korupcijos	-11.1683
▁maršrut	-11.1683
▁medicino	-11.1683
▁medžiagos	-11.1683
▁moratorium	-11.1683
▁nebuvimas	-11.1683
▁nereikės	-11.1683
▁neįgyvendin	-11.1683
▁neįtikėtin	-11.1683
▁neįvyk	-11.1683
▁organizacijoms	-11.1683
▁paaiškėjo	-11.1683
▁paminėsiu	-11.1683
▁pasisteng	-11.1683
▁pavyktų	-11.1683
▁pragyvenim	-11.1683
▁priežastimi	-11.1683
▁punktą	-11.1683
▁punktų	-11.1683
▁referendumu	-11.1683
▁reglamentai	-11.1683
▁sesiją	-11.1683
▁skaičiui	-11.1683
▁sritimi	-11.1683
▁susidūrėme	-11.1683
▁suvienij	-11.1683
▁sąsaj	-11.1683
▁sąvartyn	-11.1683
▁sąveiką	-11.1683
▁sąvokos	-11.1683
▁technologijomis	-11.1683
▁tribunol	-11.1683
▁trūkumai	-11.1683
▁užimtumą	-11.1683
▁užuojautą	-11.1683
▁vietinės	-11.1683
▁vietoms	-11.1683
▁įtampą	-11.1683
▁Šveicarija	-11.1683
▁Šveicarijo	-11.1683
▁ūkyje	-11.1683
▁ŽIV	-11.1683
▁žaidyn	-11.1683
▁žingsnių	-11.1683
▁žmogus	-11.1683
▁2014	-11.1683
▁Barrot	-11.1683
▁Mauritanij	-11.1683
▁Reding	-11.1683
▁ambasad	-11.1683
▁amžių	-11.1683
▁disbalans	-11.1683
▁filosofij	-11.1683
▁išlygų	-11.1683
▁konfidencial	-11.1683
▁kvieči	-11.1683
▁mokesčius	-11.1683
▁neapykant	-11.1683
▁nedarbą	-11.1683
▁paslapt	-11.1683
▁rūky	-11.1683
▁suformuo	-11.1683
▁sugriežtint	-11.1683
▁suvartojim	-11.1683
▁įspėjimo	-11.1683
▁GMO	-11.1683
▁išbandyt	-11.1683
▁mokesčiai	-11.1683
▁mokymus	-11.1683
▁pastabos	-11.1683
▁pastraip	-11.1683
▁sektoriai	-11.1683
▁sertifika	-11.1683
▁susitikimuose	-11.1683
EAC	-11.1683
▁Darfūr	-11.1683
▁nafta	-11.1683
▁stabilizavim	-11.1683
▁Osetij	-11.1683
▁atidžiau	-11.1683
▁nesėkmė	-11.1683
▁šalinink	-11.1683
Georgi	-11.1683
▁adres	-11.1683
▁misiją	-11.1683
▁nutukim	-11.1683
▁tyrime	-11.1683
▁bedarbi	-11.1683
▁išlaikom	-11.1683
▁paisoma	-11.1683
▁rankas	-11.1683
▁savaitės	-11.1683
▁sesija	-11.1683
▁klysta	-11.1683
▁nesutinku	-11.1683
▁šeimin	-11.1683
▁valdžioje	-11.1683
▁švelni	-11.1683
▁saugojimo	-11.1683
▁įsipareigoję	-11.1683
▁autorė	-11.1683
▁biurokratizm	-11.1683
▁ribą	-11.1683
▁vandenyse	-11.1683
▁laivybos	-11.1683
▁balsas	-11.1683
▁skaudži	-11.1683
▁sukels	-11.1683
▁diplomatij	-11.1683
▁spaudimui	-11.1683
▁elgesį	-11.1683
▁įkalint	-11.1684
▁poveikiu	-11.1684
▁stabilumui	-11.1684
▁įranki	-11.1684
▁alyv	-11.1684
▁Somal	-11.1684
▁civilizacij	-11.1684
▁netaikom	-11.1684
▁keista	-11.1684
▁Balsuoj	-11.1684
▁Liban	-11.1684
nksčiau	-11.1684
▁gėdinga	-11.1684
▁išbris	-11.1684
▁prašymu	-11.1684
otvarkė	-11.1684
▁žaidėj	-11.1684
▁drąsia	-11.1684
▁atsakydama	-11.1684
▁formuluotė	-11.1684
▁Nico	-11.1685
▁uždarym	-11.1685
▁netikėt	-11.1685
▁vienkartin	-11.1686
▁patikslin	-11.1687
▁Danijo	-11.1687
▁įsigyt	-11.1687
▁Turėdam	-11.1688
▁įvardyt	-11.1688
▁valdant	-11.1689
▁delsim	-11.169
▁pajamom	-11.169
Galileo	-11.169
▁deginim	-11.1691
▁tolimoj	-11.1692
▁paliekam	-11.1695
žiūrėta	-11.1697
ldymo	-11.1699
išlyga	-11.1703
▁spręsdam	-11.171
analizuo	-11.1719
▁patraukt	-11.1734
▁ribojam	-11.1742
▁sugebėjim	-11.1746
▁dedam	-11.1782
Judu	-11.1828
▁neturinči	-11.1856
▁pakviest	-11.1864
rengimo	-11.188
▁artėjanči	-11.1897
atsakomybuž	-11.1993
1999	-11.2
▁pastaroj	-11.2035
kreipiama	-11.2036
▁bandyt	-11.2048
▁atsirandanči	-11.2068
▁tvirtinima	-11.2098
▁teikdam	-11.2225
▁didžiąj	-11.2305
/2009	-11.2426
▁pirmuosiu	-11.262
▁Centr	-11.2725
▁skleist	-11.2786
▁pažang	-11.2875
▁Parlament	-11.2915
▁laikydam	-11.292
▁norinči	-11.2929
▁rekomend	-11.3004
▁skatinanči	-11.302
garsėj	-11.3149
▁rekomenduoj	-11.3151
▁tarnybo	-11.3159
▁ignoruo	-11.3163
▁išlaikyt	-11.3169
sprendimą	-11.3188
socialin	-11.3209
tiesiogin	-11.3212
didžiul	-11.3214
finansų	-11.3215
▁atkūrim	-11.3222
▁diskutuojam	-11.3278
▁sąžin	-11.3278
▁žuvininkyst	-11.3327
▁prognozuo	-11.3341
▁diplom	-11.3348
▁tūkst	-11.3348
▁neabejo	-11.3348
▁pasikartoj	-11.335
Bendit	-11.335
▁Leinen	-11.335
▁Sprendim	-11.335
▁aikštelė	-11.335
▁akimirk	-11.335
▁bendrapilieči	-11.335
▁departament	-11.335
▁išryškin	-11.335
▁kolonijin	-11.335
▁kūdik	-11.335
▁memorandum	-11.335
▁nebaudžiam	-11.335
▁neformal	-11.335
▁septyneri	-11.335
▁skaitytuv	-11.335
▁suvaržym	-11.335
▁troškim	-11.335
kvepia	-11.335
pažįstu	-11.335
piktnaudžiauti	-11.335
sąmoningai	-11.335
▁Ankstesni	-11.335
▁Atsakydama	-11.335
▁Atsiprašau	-11.335
▁Baltarusija	-11.335
▁Berlyn	-11.335
▁Branduolin	-11.335
▁Korėjoje	-11.335
▁Libija	-11.335
▁Lukašenko	-11.335
▁Michel	-11.335
▁Nepakanka	-11.335
▁Oettinger	-11.335
▁Paaiškinima	-11.335
▁Richard	-11.335
▁Robert	-11.335
▁SOLVIT	-11.335
▁Sirijoje	-11.335
▁Skaidrum	-11.335
▁Strasbūrą	-11.335
▁Suprantu	-11.335
▁Sutartyje	-11.335
▁Turkiją	-11.335
▁Valstijas	-11.335
▁Vienintel	-11.335
▁Vokietiją	-11.335
▁akvakultūr	-11.335
▁anaiptol	-11.335
▁apgailėtin	-11.335
▁aplinkybėms	-11.335
▁atliekos	-11.335
▁atsiliep	-11.335
▁atsiprašy	-11.335
▁bylą	-11.335
▁centralizuot	-11.335
▁didžiuojuosi	-11.335
▁diegimas	-11.335
▁direktorat	-11.335
▁diskutuojant	-11.335
▁dominuojanči	-11.335
▁ekspertai	-11.335
▁ekstremist	-11.335
▁fundament	-11.335
▁futbol	-11.335
▁girdėjau	-11.335
▁grandinę	-11.335
▁gyvulininkystė	-11.335
▁higienos	-11.335
▁ideologij	-11.335
▁imunitet	-11.335
▁instrument	-11.335
▁izoliuot	-11.335
▁išdėstytu	-11.335
▁kenksming	-11.335
▁klestinči	-11.335
▁kompiuter	-11.335
▁konsensus	-11.335
▁konstituciją	-11.335
▁konvencijų	-11.335
▁krikščionišk	-11.335
▁laiminga	-11.335
▁liberalizavimas	-11.335
▁liudininkai	-11.335
▁medžiagomis	-11.335
▁medžiagą	-11.335
▁mobilizuoti	-11.335
▁musulmonų	-11.335
▁neatskiriama	-11.335
▁neatspindi	-11.335
▁nedeklaruojam	-11.335
▁neginčijam	-11.335
▁nehumanišk	-11.335
▁nepasireng	-11.335
▁netiesiogiai	-11.335
▁olimpin	-11.335
▁organizacijomis	-11.335
▁organizacini	-11.335
▁orientacin	-11.335
▁orlaivi	-11.335
▁pabėgėliams	-11.335
▁pakeitimams	-11.335
▁pakomentuoti	-11.335
▁pasitikėjimu	-11.335
▁pasitikėti	-11.335
▁paskirstymas	-11.335
▁pavirši	-11.335
▁pervežim	-11.335
▁piratavim	-11.335
▁pobūdis	-11.335
▁popietę	-11.335
▁prancūzų	-11.335
▁prasidės	-11.335
▁prekiauti	-11.335
▁proporcingumo	-11.335
▁rankose	-11.335
▁reglamentavimas	-11.335
▁reguliavimas	-11.335
▁rudenį	-11.335
▁rūpestis	-11.335
▁santykiams	-11.335
▁santykin	-11.335
▁savivald	-11.335
▁sektoriams	-11.335
▁sekundžių	-11.335
▁sistemini	-11.335
▁sistemoms	-11.335
▁skalūn	-11.335
▁slepia	-11.335
▁sukilėli	-11.335
▁suklastot	-11.335
▁sumetimais	-11.335
▁susilaikiau	-11.335
▁susipažinę	-11.335
▁sustiprina	-11.335
▁sustiprino	-11.335
▁sutrukdyt	-11.335
▁tradicija	-11.335
▁trisdešimt	-11.335
▁užimtumas	-11.335
▁užsitikrint	-11.335
▁užuojautos	-11.335
▁vakcin	-11.335
▁verslas	-11.335
▁įsidarbin	-11.335
▁įsisavin	-11.335
▁įsivaizduoti	-11.335
▁įstojus	-11.335
▁įvyktų	-11.335
▁žingsnio	-11.335
Globalizacij	-11.335
nepakeičia	-11.335
prieštarauju	-11.335
▁Apibendrin	-11.335
▁David	-11.335
▁Nikaragv	-11.335
▁Program	-11.335
▁Tvirta	-11.335
▁atstatym	-11.335
▁epidemij	-11.335
▁infekcij	-11.335
▁išsaugojimas	-11.335
▁išvystyt	-11.335
▁ksenofobij	-11.335
▁muziko	-11.335
▁propagand	-11.335
▁reagavo	-11.335
▁romams	-11.335
▁sankcijos	-11.335
▁sukaupt	-11.335
▁tendencijos	-11.335
▁vartojimas	-11.335
▁veterinar	-11.335
▁vilties	-11.335
▁visokeriop	-11.335
▁besiformuojanči	-11.335
▁facto	-11.335
▁liečia	-11.335
▁nesusiję	-11.335
▁ramstį	-11.335
▁reakciją	-11.335
▁Vieš	-11.335
▁diegia	-11.335
▁gabenim	-11.335
▁pablogė	-11.335
▁tarša	-11.335
▁žiniomis	-11.335
Ferrero	-11.335
▁spraga	-11.335
▁pervirši	-11.335
▁realistišk	-11.335
▁vienuolik	-11.335
▁brutali	-11.335
▁psichi	-11.335
▁atidarym	-11.335
▁įspėt	-11.335
EEĮ	-11.335
svetain	-11.335
▁gaivalin	-11.335
▁puola	-11.335
▁perdėta	-11.335
▁emocin	-11.335
▁orderi	-11.335
▁kūrėj	-11.335
▁tvarkarašči	-11.335
▁nenuosekl	-11.335
▁dovan	-11.335
▁lošim	-11.335
▁vaikyst	-11.335
▁kertini	-11.335
Frakcij	-11.335
▁Svarst	-11.335
▁įkūrim	-11.335
▁importuojam	-11.3351
▁diskriminacin	-11.3351
dizain	-11.3351
▁pasidalyt	-11.3351
▁vykdymu	-11.3351
▁susirinkusi	-11.3351
▁Thom	-11.3351
▁įdomia	-11.3351
▁traktuo	-11.3351
▁padidėt	-11.3352
▁gimin	-11.3352
stumti	-11.3353
▁atsigavim	-11.3353
▁virst	-11.3356
▁sinergij	-11.3357
pult	-11.3357
▁nustatanči	-11.336
▁primest	-11.3361
vykdymas	-11.3366
skaitė	-11.3368
▁konkrečiom	-11.3384
▁įtvirtinim	-11.3406
▁darydam	-11.3413
▁Kopenhag	-11.3456
▁teršėj	-11.3458
▁nagrinėjim	-11.3462
▁nepanaudot	-11.3508
▁žymėjim	-11.3634
▁paskelbim	-11.3695
▁nukreip	-11.374
▁išsiųst	-11.3977
7/200	-11.4002
▁reguliuoja	-11.4285
▁senėjim	-11.4329
kritikuoj	-11.4797
▁kandida	-11.4805
vadovyb	-11.4901
▁vystom	-11.5017
▁trečiąj	-11.5087
kviesti	-11.5136
▁technologija	-11.516
▁įpareigoja	-11.5184
protinga	-11.5211
užduotis	-11.5213
pažanga	-11.5213
Parlamentas	-11.5215
Parlamento	-11.5215
padeda	-11.5217
▁draudžia	-11.5231
obligacijų	-11.5278
projekt	-11.5306
▁išsiaiškin	-11.531
▁Karalyst	-11.5321
▁atsinaujin	-11.5334
▁Pasiūl	-11.5335
eisėkūros	-11.5343
▁prisitaik	-11.5346
▁žinodam	-11.5347
elektrinė	-11.5347
kompromi	-11.5347
▁Paryži	-11.535
▁Reikalauj	-11.535
▁Saryusz	-11.535
▁Verheugen	-11.535
▁demagogi	-11.535
▁instancij	-11.535
▁kankinam	-11.535
▁koeficient	-11.535
▁kraštovaizdži	-11.535
▁lietuv	-11.535
▁paukšči	-11.535
▁priklausant	-11.535
▁profesor	-11.535
▁skeptišk	-11.535
▁suvienodin	-11.535
▁užsienieči	-11.535
Gazprom	-11.535
Ruijten	-11.535
atlyginimo	-11.535
atsispindi	-11.535
gnikalni	-11.535
klasifikavim	-11.535
komunizm	-11.535
nekontroliuojam	-11.535
įsipareigojimams	-11.535
