<pad>	0
</s>	0
<unk>	0
▁¦	-0
ku	-1
ng	-2
ba	-3
▁,	-4
wa	-5
th	-6
na	-7
la	-8
ni	-9
▁𐋇	-10
kh	-11
le	-12
si	-13
zi	-14
ka	-15
ph	-16
lu	-17
nga	-18
we	-19
▁.	-20
ma	-21
thi	-22
ya	-23
lo	-24
ye	-25
nd	-26
ke	-27
be	-28
li	-29
oku	-30
uku	-31
kho	-32
se	-33
za	-34
bo	-35
ne	-36
sa	-37
ngi	-38
pha	-39
yo	-40
yi	-41
um	-42
nge	-43
kulu	-44
kwa	-45
nkulu	-46
mi	-47
ko	-48
aba	-49
ngoku	-50
khu	-51
▁:	-52
▁;	-53
ze	-54
bu	-55
▁“	-56
no	-57
sh	-58
bi	-59
nt	-60
tha	-61
ki	-62
lwa	-63
je	-64
mu	-65
the	-66
hla	-67
so	-68
ngokuba	-69
kepha	-70
nye	-71
fu	-72
kwe	-73
ngo	-74
nke	-75
phe	-76
nkulunkulu	-77
khe	-78
wo	-79
khulu	-80
su	-81
fa	-82
da	-83
uma	-84
▁.”	-85
ha	-86
ukuba	-87
ri	-88
ndi	-89
thu	-90
▁?	-91
ntu	-92
khona	-93
wi	-94
me	-95
ukuthi	-96
kha	-97
ama	-98
wathi	-99
zo	-100
yaku	-101
nya	-102
izi	-103
tho	-104
weni	-105
nje	-106
mba	-107
nda	-108
st	-109
ezi	-110
nko	-111
mbi	-112
phi	-113
ela	-114
ngu	-115
isi	-116
fi	-117
leyo	-118
nkosi	-119
bona	-120
mo	-121
wu	-122
hle	-123
ja	-124
lokho	-125
noku	-126
jesu	-127
rist	-128
zu	-129
nza	-130
kuye	-131
nzi	-132
ndo	-133
pho	-134
de	-135
dwa	-136
nu	-137
ndla	-138
vu	-139
esi	-140
em	-141
lwe	-142
zwi	-143
nja	-144
naba	-145
eli	-146
waye	-147
kubo	-148
tsh	-149
ristu	-150
bh	-151
lela	-152
nx	-153
kristu	-154
umu	-155
zwe	-156
fundi	-157
qa	-158
ini	-159
mbe	-160
▁𐊣	-161
lowo	-162
lokhu	-163
ndu	-164
ngakho	-165
kini	-166
zwa	-167
hlu	-168
kodwa	-169
phaka	-170
qo	-171
sebe	-172
eku	-173
nxa	-174
ngc	-175
ndle	-176
mp	-177
swa	-178
kwaba	-179
njalo	-180
bonke	-181
yisi	-182
ndoda	-183
kela	-184
fe	-185
kholwa	-186
ngaba	-187
nc	-188
va	-189
umi	-190
bathi	-191
suku	-192
nama	-193
ga	-194
kazi	-195
zaku	-196
hlo	-197
konke	-198
wele	-199
▁‘	-200
nezi	-201
ngena	-202
eka	-203
phendu	-204
gc	-205
ningi	-206
nina	-207
qini	-208
nze	-209
moya	-210
ru	-211
ukuze	-212
baba	-213
▁?”	-214
noma	-215
ju	-216
kuba	-217
munye	-218
ro	-219
muntu	-220
ngama	-221
phu	-222
kube	-223
khuluma	-224
lwane	-225
kanye	-226
ra	-227
imi	-228
wayese	-229
hli	-230
waba	-231
ese	-232
sho	-233
abe	-234
kile	-235
phambi	-236
lapho	-237
shi	-238
yena	-239
ndodana	-240
leni	-241
mina	-242
wini	-243
aku	-244
sha	-245
thanda	-246
ngenxa	-247
bheka	-248
nase	-249
nsi	-250
nani	-251
eni	-252
bha	-253
phezu	-254
yini	-255
phakathi	-256
owa	-257
phila	-258
umuntu	-259
do	-260
hamba	-261
pa	-262
bula	-263
di	-264
kwathi	-265
fika	-266
vela	-267
futhi	-268
sebenzi	-269
qala	-270
uj	-271
ngcwele	-272
ngalokho	-273
fane	-274
nde	-275
yakhe	-276
ngesi	-277
phela	-278
khathi	-279
juda	-280
ninga	-281
zalwane	-282
enga	-283
saba	-284
nto	-285
khule	-286
dla	-287
ngum	-288
sile	-289
phendula	-290
mbu	-291
angi	-292
du	-293
naye	-294
ngezi	-295
lungi	-296
jo	-297
uya	-298
bani	-299
zela	-300
izwi	-301
lweni	-302
shumi	-303
khi	-304
leli	-305
bonaka	-306
▁.’	-307
esu	-308
ubu	-309
thetho	-310
kunga	-311
mhla	-312
ntwa	-313
rofe	-314
kakhulu	-315
bili	-316
aka	-317
kwakhe	-318
babe	-319
et	-320
funa	-321
bakhe	-322
lele	-323
ngiya	-324
oli	-325
ume	-326
ngithi	-327
hlala	-328
in	-329
gama	-330
lwini	-331
yise	-332
kwenu	-333
ntwana	-334
zulwini	-335
beni	-336
hlizi	-337
kele	-338
uyaku	-339
nesi	-340
ngase	-341
profe	-342
engi	-343
nyama	-344
ngelo	-345
wulu	-346
asi	-347
lile	-348
nami	-349
zonke	-350
wena	-351
siwe	-352
owe	-353
ndlu	-354
yizi	-355
izin	-356
masi	-357
kulo	-358
phuma	-359
phansi	-360
kukhona	-361
ani	-362
ngelosi	-363
gu	-364
ngani	-365
re	-366
manga	-367
bam	-368
base	-369
moni	-370
soku	-371
kimi	-372
kwabo	-373
om	-374
lika	-375
loku	-376
nom	-377
nta	-378
tshe	-379
lunga	-380
risti	-381
swe	-382
ngom	-383
seku	-384
bonakali	-385
yu	-386
zini	-387
ndela	-388
emi	-389
umbu	-390
thile	-391
koku	-392
zane	-393
nabo	-394
sindi	-395
kwenza	-396
etru	-397
kani	-398
phakade	-399
wam	-400
niya	-401
namandla	-402
umo	-403
omunye	-404
labo	-405
sale	-406
nalowo	-407
sika	-408
khosi	-409
kwazi	-410
lutho	-411
zweni	-412
sifa	-413
xuku	-414
nyane	-415
kuka	-416
thoko	-417
abanye	-418
vi	-419
doda	-420
siya	-421
salema	-422
abafundi	-423
khonza	-424
ngokwe	-425
mvu	-426
jeru	-427
mbisa	-428
pristi	-429
yilowo	-430
profethi	-431
jerusalema	-432
mbili	-433
kuze	-434
layo	-435
yoku	-436
gci	-437
kunge	-438
abantu	-439
nhlizi	-440
kuwe	-441
kwami	-442
thina	-443
pawulu	-444
ho	-445
lesi	-446
he	-447
fanele	-448
esa	-449
kisa	-450
woku	-451
hane	-452
lini	-453
lakhe	-454
sifazane	-455
isa	-456
nguku	-457
kanjalo	-458
manje	-459
fileyo	-460
phandle	-461
weyo	-462
yela	-463
ngaye	-464
shuma	-465
themp	-466
thula	-467
go	-468
ngwa	-469
nceku	-470
njani	-471
khuleka	-472
ezulwini	-473
thempeli	-474
wayesethi	-475
hi	-476
unga	-477
sela	-478
petru	-479
kuphela	-480
kazimu	-481
nika	-482
yiku	-483
hlezi	-484
qinisile	-485
yami	-486
ngeli	-487
zizwe	-488
ngiyaku	-489
khombisa	-490
ca	-491
riya	-492
njengokuba	-493
zin	-494
fuma	-495
yishumi	-496
▁!	-497
kuyo	-498
lisa	-499
zulu	-500
boni	-501
faka	-502
onga	-503
zakhe	-504
kazimulo	-505
busi	-506
emva	-507
kwenze	-508
vangeli	-509
ababe	-510
thaka	-511
masinyane	-512
lelwa	-513
nguye	-514
johane	-515
thathu	-516
laba	-517
lula	-518
tshi	-519
ila	-520
anga	-521
thela	-522
meni	-523
muka	-524
qiniso	-525
meme	-526
ngemi	-527
pathi	-528
bazalwane	-529
waphendula	-530
uyi	-531
gcwa	-532
hlwa	-533
yethu	-534
bhapathi	-535
khum	-536
kwahlu	-537
mukela	-538
omkhulu	-539
ngaphandle	-540
yeli	-541
umela	-542
zimba	-543
fakazi	-544
ngubani	-545
nkosini	-546
gi	-547
hawu	-548
lezo	-549
emhla	-550
ndawo	-551
uzaku	-552
thatha	-553
ngokuthi	-554
hu	-555
nti	-556
ethi	-557
naku	-558
neni	-559
ndlini	-560
yakuba	-561
ce	-562
risi	-563
lwandle	-564
eza	-565
waya	-566
yathi	-567
thando	-568
themba	-569
ngiqinisile	-570
is	-571
kiso	-572
gcina	-573
farisi	-574
njenga	-575
bonga	-576
njengalokho	-577
ame	-578
beka	-579
beke	-580
muke	-581
nike	-582
wazi	-583
hlanga	-584
awu	-585
chi	-586
qonda	-587
yakho	-588
kileyo	-589
thokoza	-590
nq	-591
wakhe	-592
▁,”	-593
sesi	-594
wami	-595
ngalo	-596
nokuba	-597
fundisa	-598
abaningi	-599
tsha	-600
mhlaba	-601
ab	-602
ta	-603
wase	-604
yebo	-605
kwesi	-606
thelo	-607
bandla	-608
bayaku	-609
ezweni	-610
kwakho	-611
ndleni	-612
yisikhombisa	-613
ema	-614
olu	-615
baya	-616
bela	-617
keni	-618
nazi	-619
vuka	-620
shiya	-621
bhekani	-622
yomuntu	-623
bone	-624
kanjani	-625
tu	-626
izwe	-627
banga	-628
sakhe	-629
sweni	-630
yonke	-631
buye	-632
cala	-633
limi	-634
lise	-635
phon	-636
hluphe	-637
bhu	-638
ebu	-639
nemi	-640
nene	-641
lapha	-642
ngubo	-643
thand	-644
wethu	-645
hlakani	-646
enye	-647
thwa	-648
ngini	-649
fumana	-650
gazi	-651
igama	-652
yaba	-653
zayo	-654
zono	-655
kwase	-656
landela	-657
she	-658
ywa	-659
▁,’	-660
lelo	-661
yalo	-662
kuthe	-663
ngaka	-664
phost	-665
fikile	-666
mthetho	-667
fanekiso	-668
phostoli	-669
nyi	-670
nyu	-671
isra	-672
sono	-673
khanda	-674
tshiwe	-675
zandla	-676
endlini	-677
israyeli	-678
yenu	-679
langa	-680
zwile	-681
bezizwe	-682
imp	-683
nyaka	-684
umusa	-685
memeza	-686
ngathi	-687
ngezwi	-688
okukhulu	-689
umthetho	-690
lase	-691
musa	-692
nyawo	-693
thiwa	-694
umbuso	-695
nambili	-696
nkazimulo	-697
kwakukhona	-698
bum	-699
ncwa	-700
zabo	-701
lonke	-702
kwabafileyo	-703
biza	-704
zoku	-705
demoni	-706
khanya	-707
niyaku	-708
okuhle	-709
isixuku	-710
shumayela	-711
bazi	-712
nhla	-713
raha	-714
hambe	-715
kithi	-716
kukho	-717
nakho	-718
thane	-719
ndlela	-720
nhliziyo	-721
bonakaliso	-722
am	-723
nj	-724
bhe	-725
lami	-726
zenu	-727
ngeni	-728
thethe	-729
nokuthi	-730
ivangeli	-731
isikhathi	-732
ayi	-733
luka	-734
qobo	-735
seni	-736
wabo	-737
thuma	-738
abraha	-739
bulala	-740
indoda	-741
abrahama	-742
ngokukholwa	-743
buka	-744
cela	-745
lilo	-746
mose	-747
galile	-748
amandla	-749
ingelosi	-750
phambili	-751
nkulungwa	-752
kungabi	-753
emhlabeni	-754
thempelini	-755
nkulungwane	-756
ti	-757
kobe	-758
shwa	-759
nathi	-760
ngesa	-761
abanga	-762
abakhulu	-763
nwa	-764
dumo	-765
suka	-766
▁”	-767
mela	-768
nkwa	-769
bethi	-770
inkosi	-771
bukhosi	-772
gog	-773
mbo	-774
bele	-775
uthi	-776
zaba	-777
bhali	-778
nagog	-779
wakho	-780
ntando	-781
phamba	-782
ethempelini	-783
dle	-784
diya	-785
fike	-786
leka	-787
leso	-788
nawe	-789
nibe	-790
yabo	-791
yimi	-792
melwe	-793
uqobo	-794
yweni	-795
mariya	-796
ngweni	-797
ngakholwa	-798
imisebenzi	-799
up	-800
bala	-801
maka	-802
zinto	-803
jakobe	-804
kuqala	-805
fundisi	-806
ngizaku	-807
ci	-808
▁—	-809
omu	-810
beza	-811
ngco	-812
sayo	-813
uthe	-814
vuma	-815
yona	-816
ngobu	-817
yayisi	-818
kubantu	-819
bindi	-820
liswa	-821
mandla	-822
ncenga	-823
ngosuku	-824
ukuphila	-825
un	-826
kuwo	-827
sizi	-828
yisa	-829
nweni	-830
kwenzi	-831
mukele	-832
ndaweni	-833
sabatha	-834
sathane	-835
aye	-836
dumi	-837
sisa	-838
wasi	-839
wonke	-840
khumbi	-841
nginga	-842
ukudla	-843
thumela	-844
sikhathi	-845
nini	-846
hlane	-847
kwaku	-848
nonke	-849
akakho	-850
kwethu	-851
ncwadi	-852
simoni	-853
thembi	-854
kalokhu	-855
elikhulu	-856
lungileyo	-857
ukukholwa	-858
qhu	-859
fowa	-860
nobu	-861
vide	-862
bakho	-863
benga	-864
ndele	-865
phele	-866
phulu	-867
qondi	-868
fowabo	-869
khatha	-870
thandi	-871
njengoku	-872
nhliziyweni	-873
owesifazane	-874
kayo	-875
lona	-876
ngqo	-877
soze	-878
zala	-879
hlobo	-880
sonke	-881
kinina	-882
mangala	-883
nangoku	-884
indodana	-885
izinsuku	-886
njengalokhu	-887
bami	-888
kuso	-889
yeza	-890
hlale	-891
kahle	-892
lakho	-893
ngiku	-894
fakaza	-895
amadoda	-896
ane	-897
ega	-898
mpo	-899
qha	-900
bayi	-901
yala	-902
kanti	-903
nyeni	-904
davide	-905
njengo	-906
tshela	-907
hliziyo	-908
zinsuku	-909
kulotshiwe	-910
ve	-911
mazi	-912
misa	-913
onke	-914
hlaka	-915
ilatu	-916
ngayo	-917
ngcoli	-918
▁!”	-919
fana	-920
zisa	-921
hlanu	-922
khala	-923
nokho	-924
khipha	-925
khonzi	-926
hlwanye	-927
sindiswa	-928
hlanganye	-929
ukum	-930
bhalo	-931
hlela	-932
mbala	-933
owaye	-934
thaba	-935
thele	-936
njenge	-937
phathi	-938
thandeka	-939
ngamashumi	-940
en	-941
abo	-942
kusu	-943
kuyi	-944
wesi	-945
yesi	-946
zile	-947
kelwa	-948
kuthi	-949
ngene	-950
thuku	-951
yedwa	-952
kwafika	-953
kungathi	-954
thembiso	-955
qe	-956
usa	-957
okwa	-958
ngaso	-959
ngazi	-960
thumi	-961
ukufa	-962
amehlo	-963
kuyaku	-964
thembe	-965
esikhulu	-966
eziningi	-967
njengaba	-968
phenduka	-969
abantwana	-970
hlakanipha	-971
bem	-972
eya	-973
fumu	-974
hero	-975
hora	-976
muzi	-977
zama	-978
butha	-979
dlula	-980
indlu	-981
umele	-982
emzini	-983
amabili	-984
nyameni	-985
phefumu	-986
wangena	-987
nagogeni	-988
sobukhosi	-989
dlu	-990
lawo	-991
maye	-992
zimu	-993
kwezi	-994
lahle	-995
lelwe	-996
ngomu	-997
umoya	-998
gcwele	-999
lalela	-1000
othile	-1001
khulume	-1002
sebenza	-1003
sokunene	-1004
yisihlanu	-1005
eziyishumi	-1006
fo	-1007
gq	-1008
febe	-1009
ndwa	-1010
wayi	-1011
abase	-1012
mbuso	-1013
nanga	-1014
nduna	-1015
ngabe	-1016
nithi	-1017
akukho	-1018
khutha	-1019
phambe	-1020
kusukela	-1021
nci	-1022
obu	-1023
ose	-1024
ump	-1025
buza	-1026
ethu	-1027
kesa	-1028
liwe	-1029
ongi	-1030
siye	-1031
yeni	-1032
zuku	-1033
shaya	-1034
madoda	-1035
iqiniso	-1036
umputhe	-1037
gcwalise	-1038
kwahlulela	-1039
okuphakade	-1040
thandekayo	-1041
eziyisikhombisa	-1042
azi	-1043
kom	-1044
nqo	-1045
baze	-1046
make	-1047
sibe	-1048
abeni	-1049
bodwa	-1050
hlalo	-1051
ncane	-1052
zelwa	-1053
ntabeni	-1054
hlupheka	-1055
kholwayo	-1056
phefumulo	-1057
thakathaka	-1058
ngaphambili	-1059
ali	-1060
ebe	-1061
use	-1062
lomo	-1063
ungo	-1064
yayo	-1065
iyaku	-1066
mbuza	-1067
ungum	-1068
zwayo	-1069
amazwi	-1070
kubona	-1071
makube	-1072
ababili	-1073
egameni	-1074
kwalokho	-1075
ima	-1076
boku	-1077
sami	-1078
izono	-1079
kwini	-1080
yihlo	-1081
bonile	-1082
ngamandla	-1083
bar	-1084
ebo	-1085
eyi	-1086
babo	-1087
belo	-1088
file	-1089
nayo	-1090
sele	-1091
vini	-1092
weza	-1093
mpofu	-1094
phuza	-1095
herode	-1096
judiya	-1097
wabona	-1098
ndleleni	-1099
abapristi	-1100
phambanweni	-1101
ge	-1102
qu	-1103
akhe	-1104
duze	-1105
kuzo	-1106
namu	-1107
nywa	-1108
amane	-1109
kuhle	-1110
nange	-1111
njini	-1112
hlophe	-1113
nyelwe	-1114
sukuma	-1115
wazala	-1116
izixuku	-1117
philayo	-1118
umzimba	-1119
izingubo	-1120
esiphambanweni	-1121
eba	-1122
ize	-1123
uzi	-1124
baka	-1125
fowe	-1126
nawo	-1127
sasi	-1128
zami	-1129
bamba	-1130
butho	-1131
hloni	-1132
khuni	-1133
kwaze	-1134
linye	-1135
ngiyi	-1136
umuzi	-1137
thengi	-1138
lungile	-1139
sondela	-1140
bonakala	-1141
kuyakuba	-1142
zukulwane	-1143
qi	-1144
shu	-1145
ube	-1146
embu	-1147
goli	-1148
khwe	-1149
lezi	-1150
siza	-1151
yase	-1152
nezin	-1153
selwe	-1154
shilo	-1155
thole	-1156
dumisa	-1157
golide	-1158
omuhle	-1159
wayini	-1160
wezulu	-1161
ibandla	-1162
ningaba	-1163
wahlala	-1164
endaweni	-1165
khunjini	-1166
kwabantu	-1167
kubafundi	-1168
umzalwane	-1169
ase	-1170
kuna	-1171
lisi	-1172
sila	-1173
wama	-1174
akusi	-1175
bethe	-1176
letha	-1177
lwesi	-1178
phika	-1179
phile	-1180
okunga	-1181
othiwa	-1182
phonsa	-1183
pilatu	-1184
siyaku	-1185
siyazi	-1186
izandla	-1187
lingani	-1188
namuhla	-1189
ngibona	-1190
hlambala	-1191
embusweni	-1192
kulunkulu	-1193
wakhuluma	-1194
nzo	-1195
▁?’	-1196
wula	-1197
dleni	-1198
ndaba	-1199
ngize	-1200
ukuzi	-1201
umhla	-1202
ngakwe	-1203
phatha	-1204
ngomuso	-1205
uthando	-1206
ngukuthi	-1207
dli	-1208
ezin	-1209
laka	-1210
ungi	-1211
ungu	-1212
vusa	-1213
yazi	-1214
zika	-1215
benza	-1216
bizwa	-1217
khube	-1218
kwama	-1219
liphu	-1220
qonde	-1221
singa	-1222
thini	-1223
zethu	-1224
inceku	-1225
ndlebe	-1226
ntathu	-1227
thupha	-1228
wamuka	-1229
fundiso	-1230
khumbula	-1231
mfundisi	-1232
thumileyo	-1233
inkazimulo	-1234
ena	-1235
galo	-1236
jose	-1237
kade	-1238
kuya	-1239
vume	-1240
yibo	-1241
funda	-1242
ngawo	-1243
nzalo	-1244
nziwe	-1245
shoyo	-1246
zakho	-1247
zalwa	-1248
zelwe	-1249
isizwe	-1250
lisiwe	-1251
ngcebo	-1252
ngezin	-1253
thombe	-1254
thweni	-1255
lokuthi	-1256
bekezela	-1257
ukulunga	-1258
mpumputhe	-1259
nokuthula	-1260
shiyagalo	-1261
kwabezizwe	-1262
im	-1263
bhi	-1264
fazi	-1265
nisa	-1266
sana	-1267
kiswa	-1268
lithi	-1269
ngele	-1270
okubi	-1271
phawu	-1272
sithi	-1273
esihla	-1274
nakuba	-1275
nkemba	-1276
nyanga	-1277
wafika	-1278
waqala	-1279
khazimu	-1280
busisiwe	-1281
iminyaka	-1282
izithelo	-1283
khaphela	-1284
longweni	-1285
thandayo	-1286
namalunga	-1287
abangcwele	-1288
gij	-1289
kum	-1290
bayo	-1291
into	-1292
kabi	-1293
kuvu	-1294
yoni	-1295
eliya	-1296
gqila	-1297
khaya	-1298
linga	-1299
mpela	-1300
ngcwe	-1301
retha	-1302
shana	-1303
unina	-1304
uyise	-1305
ehlane	-1306
enkulu	-1307
izinto	-1308
lahlwa	-1309
nikelo	-1310
nyango	-1311
isandla	-1312
pheleli	-1313
ukuthula	-1314
mukeliswa	-1315
emkhunjini	-1316
umprofethi	-1317
al	-1318
gre	-1319
une	-1320
usi	-1321
athi	-1322
babu	-1323
beku	-1324
besa	-1325
libe	-1326
mani	-1327
sezi	-1328
wenu	-1329
zoni	-1330
engum	-1331
greki	-1332
khali	-1333
lunye	-1334
ngane	-1335
zanga	-1336
ekukho	-1337
impela	-1338
lelani	-1339
wabuye	-1340
wundlu	-1341
hluleli	-1342
lukhuni	-1343
maqonda	-1344
ekudleni	-1345
thabatha	-1346
komthetho	-1347
maqondana	-1348
phulukisa	-1349
ngcolileyo	-1350
abaprofethi	-1351
ngemisebenzi	-1352
nqa	-1353
yam	-1354
besi	-1355
kaba	-1356
kanu	-1357
dalwa	-1358
mbeni	-1359
ngulu	-1360
usuku	-1361
wenza	-1362
zonda	-1363
induna	-1364
khumbu	-1365
qaleni	-1366
hambani	-1367
intando	-1368
lonyeni	-1369
ngqondo	-1370
waphuma	-1371
khashana	-1372
khathaze	-1373
kwenzeka	-1374
umfowabo	-1375
ezintathu	-1376
abazalwane	-1377
hlambalaza	-1378
dabu	-1379
guqu	-1380
insi	-1381
kosi	-1382
kuse	-1383
loba	-1384
mile	-1385
muva	-1386
okwe	-1387
soka	-1388
wayo	-1389
isono	-1390
izulu	-1391
kwayo	-1392
kweni	-1393
lwano	-1394
ngami	-1395
nxusa	-1396
yenza	-1397
amanga	-1398
engena	-1399
hlambu	-1400
josefa	-1401
ngisho	-1402
bathini	-1403
khulule	-1404
elwandle	-1405
profetha	-1406
bamangala	-1407
inhliziyo	-1408
vumelwano	-1409
izingelosi	-1410
ukukhuluma	-1411
ngakwesokunene	-1412
ake	-1413
nwe	-1414
oma	-1415
rna	-1416
uba	-1417
usu	-1418
zam	-1419
amen	-1420
busa	-1421
cebi	-1422
naza	-1423
sazi	-1424
sise	-1425
wafa	-1426
yayi	-1427
yeka	-1428
zele	-1429
bethu	-1430
ebona	-1431
kambe	-1432
ngala	-1433
ngela	-1434
nikwa	-1435
udumo	-1436
kesari	-1437
kwambu	-1438
lwakhe	-1439
owenza	-1440
umyalo	-1441
isinkwa	-1442
¦	-1443
▁	-1444
a	-1445
n	-1446
i	-1447
e	-1448
u	-1449
k	-1450
o	-1451
l	-1452
h	-1453
b	-1454
s	-1455
w	-1456
m	-1457
g	-1458
y	-1459
z	-1460
𐋇	-1461
t	-1462
,	-1463
d	-1464
p	-1465
.	-1466
f	-1467
j	-1468
r	-1469
:	-1470
;	-1471
“	-1472
q	-1473
c	-1474
v	-1475
”	-1476
-	-1477
?	-1478
x	-1479
𐊣	-1480
𐊼	-1481
‘	-1482
’	-1483
!	-1484
—	-1485
2	-1486
1	-1487
3	-1488
5	-1489
6	-1490
4	-1491
7	-1492
8	-1493
9	-1494
'	-1495
0	-1496
