<pad>	0
</s>	0
<unk>	0
▁Ꭰ	-0
▁Ꭴ	-1
▁Ꮎ	-2
ᏍᎩ	-3
ᏍᏗ	-4
▁Ꭲ	-5
▁ᎠᎴ	-6
▁ᎾᏍᎩ	-7
▁Ꭸ	-8
▁Ꮒ	-9
▁ᎨᏒ	-10
▁Ꮵ	-11
▁Ꭶ	-12
▁Ꮧ	-13
▁Ꭿ	-14
▁ᎯᎠ	-15
ᎵᏍ	-16
▁Ꮷ	-17
ᏅᎯ	-18
▁Ꮔ	-19
▁Ꭼ	-20
▁ᎢᏳ	-21
▁Ᏹ	-22
▁Ꭱ	-23
ᏗᏱ	-24
▁ᎤᏁ	-25
▁Ꮪ	-26
▁Ꭵ	-27
ᏓᏁ	-28
▁ᎠᏂ	-29
ᏓᏅ	-30
▁ᎤᏂ	-31
ᏍᎬ	-32
▁Ꮕ	-33
ᏍᎦ	-34
ᎯᏳ	-35
▁Ꭳ	-36
▁ᎥᏝ	-37
▁ᎨᏒᎢ	-38
ᏰᏃ	-39
ᏪᏎ	-40
ᎳᏅᎯ	-41
▁ᎤᎾ	-42
▁Ꮥ	-43
▁Ꮣ	-44
ᏍᏛ	-45
▁Ꭺ	-46
▁ᎤᏁᎳᏅᎯ	-47
ᏙᏗ	-48
▁ᏂᎦ	-49
ᏍᏗᏱ	-50
ᏤᎵ	-51
ᎬᏫ	-52
▁Ꭹ	-53
ᏍᎨ	-54
ᎬᏫᏳ	-55
ᎨᏒ	-56
ᏍᎩᏂ	-57
▁Ꮳ	-58
ᏓᎴ	-59
ᏎᏍᏗ	-60
▁ᎬᏩ	-61
ᎸᎩ	-62
ᏍᎪ	-63
▁ᏥᏌ	-64
ᏴᏫ	-65
ᎬᏩ	-66
ᏍᏓ	-67
▁ᎩᎶ	-68
▁ᎠᏎ	-69
▁ᎢᎦ	-70
ᎬᏫᏳᎯ	-71
ᏍᏉ	-72
ᏛᏁ	-73
ᏙᎯ	-74
▁ᎾᏍᏉ	-75
ᎸᎯ	-76
ᏔᏅ	-77
▁ᏴᏫ	-78
ᎴᎢ	-79
▁ᎬᏂ	-80
ᎦᏔ	-81
▁ᎾᏍᎩᏯ	-82
▁ᎠᏴ	-83
ᏍᏓᏁ	-84
▁ᎤᏪ	-85
ᏩᏛ	-86
▁Ꮻ	-87
ᎸᏉ	-88
▁Ꮏ	-89
ᏃᎮ	-90
▁ᎢᏥ	-91
ᏒᎩ	-92
ᎶᎯ	-93
▁ᎿᏉ	-94
▁ᎨᏎᏍᏗ	-95
▁ᎢᏣ	-96
ᏗᏳ	-97
▁ᎠᏥ	-98
ᏎᎢ	-99
ᏍᎨᏍᏗ	-100
ᎨᏒᎾ	-101
▁ᏥᎩ	-102
▁ᏂᎨᏒᎾ	-103
▁ᎤᎬᏫᏳᎯ	-104
▁ᏂᎯ	-105
ᏩᏗ	-106
ᏙᏗᏱ	-107
ᎲᎢ	-108
▁ᎠᏎᏃ	-109
▁ᎢᏳᏍᏗ	-110
ᎸᎢ	-111
ᎦᎵᏍ	-112
▁Ꭷ	-113
ᏣᏘ	-114
ᎶᏁ	-115
ᎧᎿ	-116
ᏁᎢ	-117
ᎸᏫ	-118
ᎮᏍᏗ	-119
▁ᎾᎿ	-120
ᎶᏁᏛ	-121
▁ᏄᏪᏎ	-122
ᎸᏫᏍᏓᏁ	-123
ᎳᏗ	-124
ᏍᏕ	-125
ᏄᎪ	-126
ᎯᏍᏗ	-127
ᏍᏆ	-128
▁ᎦᎶᏁᏛ	-129
▁ᎤᏲ	-130
▁ᎠᎩ	-131
ᏙᏓ	-132
ᏰᎸ	-133
▁ᏱᎩ	-134
▁Ꮤ	-135
▁ᏧᎾ	-136
▁ᏂᏚ	-137
ᏅᏛ	-138
ᏔᏅᎯ	-139
ᎱᏍᏗ	-140
▁ᎤᏤᎵ	-141
▁ᎠᎾ	-142
▁ᎪᎱᏍᏗ	-143
ᏰᎵ	-144
ᏍᎬᎢ	-145
ᎵᏍᏗ	-146
▁ᎠᏁ	-147
▁ᏅᏓ	-148
▁ᏂᎦᏛ	-149
▁ᎢᏨ	-150
▁Ꮽ	-151
ᏓᏙ	-152
▁ᎣᏍᏛ	-153
▁Ꮜ	-154
ᏓᏅᏙ	-155
▁ᎾᏍᎩᏃ	-156
▁ᎤᏩ	-157
▁ᎠᏆ	-158
▁ᎢᏳᏃ	-159
▁ᎢᏯ	-160
▁ᎦᏙ	-161
▁ᎤᎵ	-162
▁Ꮶ	-163
▁ᏗᎦ	-164
ᏓᎵ	-165
▁Ꮮ	-166
ᏂᎪ	-167
▁ᎠᏍᎦ	-168
▁ᏧᏂ	-169
ᏩᏗᏙᎯ	-170
ᎦᎵᏍᏙᏗ	-171
▁ᎿᏉᏃ	-172
▁ᎢᎬ	-173
ᎨᏳ	-174
ᏓᎴᏅᏛ	-175
ᏅᎩ	-176
▁ᎤᏙ	-177
▁ᏗᎧᎿ	-178
▁ᏗᏂ	-179
▁ᎦᎸ	-180
ᎦᏘ	-181
▁ᎤᏪᏥ	-182
▁ᎾᏂ	-183
ᏴᏛ	-184
▁ᏞᏍᏗ	-185
▁ᎡᎶᎯ	-186
▁ᎦᎸᏉ	-187
ᏅᏏ	-188
▁ᎤᏣᏘ	-189
ᏛᎦ	-190
▁ᎠᏏ	-191
▁ᎤᏩᏒ	-192
ᎴᎰ	-193
ᎶᏗ	-194
ᏒᎯ	-195
▁ᏂᎦᎥ	-196
▁ᎧᏃᎮ	-197
ᏗᎦᎵᏍᏙᏗ	-198
▁Ᏻ	-199
▁ᏚᏂ	-200
ᎷᏤ	-201
ᎲᎩ	-202
ᏒᎢ	-203
▁ᏄᏂ	-204
▁Ꮿ	-205
▁ᏂᏚᏪᏎ	-206
ᏅᎢ	-207
ᎪᎯ	-208
ᏓᏂ	-209
ᎵᏍᏓ	-210
▁ᎨᏥ	-211
▁ᏔᎵ	-212
ᏙᎥ	-213
▁ᎬᏂᎨᏒ	-214
ᎳᏫ	-215
ᏁᎸ	-216
▁ᎤᏙᎯᏳ	-217
▁ᎠᎦ	-218
▁ᎯᎠᏃ	-219
▁ᏅᏩ	-220
ᏳᎪ	-221
▁ᎢᏳᎵᏍ	-222
▁ᎠᏓᏅᏙ	-223
ᏴᎵ	-224
ᏍᏆᏂᎪ	-225
▁ᏄᏍᏛ	-226
▁ᎧᏃᎮᏛ	-227
▁ᎣᏏ	-228
▁ᎠᏥᎸ	-229
ᏨᎯ	-230
ᏙᎴᎰ	-231
▁ᎠᏓ	-232
▁ᎦᎸᏉᏗᏳ	-233
▁ᎤᏟ	-234
ᏗᏢ	-235
ᎬᎢ	-236
ᏲᎱ	-237
▁ᏰᎵ	-238
▁Ꮴ	-239
▁ᎾᎯᏳ	-240
▁ᏅᏗᎦᎵᏍᏙᏗ	-241
ᏓᏅᏖ	-242
ᏛᎢ	-243
▁ᎣᏏᏳ	-244
▁ᏗᎧᎿᏩᏛ	-245
ᏔᏂ	-246
ᏄᎪᏫ	-247
▁ᎪᎯ	-248
ᎵᏍᏓᏴ	-249
▁ᎢᏴᏛ	-250
▁ᎢᎬᏱ	-251
ᏍᏙᏗ	-252
▁ᎦᎸᎳᏗ	-253
ᎵᏍᏓᏁ	-254
ᎲᎾ	-255
ᎲᏍᎩ	-256
▁Ꮩ	-257
▁ᎤᏕ	-258
ᏩᏂ	-259
▁ᎢᎩ	-260
ᎨᏥ	-261
ᏔᏅᎩ	-262
ᎨᏍᏗ	-263
ᏪᏒᎩ	-264
▁ᎤᏅ	-265
▁ᎦᏚ	-266
▁ᎤᏙᎯᏳᎯ	-267
▁ᎾᏂᎥ	-268
▁ᏗᎧᎿᏩᏛᏍᏗ	-269
ᏐᎢ	-270
▁ᏚᎾ	-271
▁ᎠᏍᎦᏯ	-272
▁ᏌᏉ	-273
ᏂᎩ	-274
ᎦᏔᎭ	-275
ᎷᏨ	-276
ᏔᏁ	-277
ᏤᎵᎦ	-278
▁ᏱᎨ	-279
ᏍᎦᏅ	-280
▁ᎡᎯ	-281
▁ᎢᏤ	-282
▁ᎤᏬ	-283
▁ᏄᏪᏎᎢ	-284
ᎢᏍᏗᏱ	-285
▁ᎤᏤᎵᎦ	-286
ᏏᎵ	-287
▁Ꭽ	-288
▁Ꮘ	-289
ᏍᎨᎢ	-290
▁ᎤᏚ	-291
ᏍᎪᎢ	-292
▁ᏅᏓᏳ	-293
ᏍᏓᏩᏗᏙᎯ	-294
ᏍᎬᎩ	-295
▁ᏕᏥ	-296
ᏗᏍᎩ	-297
▁ᏂᎬ	-298
▁ᏄᎵᏍ	-299
ᏓᏙᎵᏍᏗ	-300
▁ᎢᏧ	-301
ᎮᎢ	-302
ᏍᏚ	-303
ᏕᎸ	-304
ᏳᏉ	-305
ᏛᎩ	-306
ᎯᏍᏗᏱ	-307
▁ᎡᏥ	-308
▁ᏍᎩ	-309
ᏳᎪᏛ	-310
▁ᎬᏂᏳᏉ	-311
ᏓᏍᏗ	-312
ᎢᏳ	-313
ᏁᎸᎯ	-314
▁ᏥᏌᏃ	-315
ᏅᏟ	-316
▁ᏕᏣ	-317
ᎨᏴ	-318
ᏕᎩ	-319
ᏧᏏ	-320
ᎪᎸ	-321
▁ᎢᏳᎵᏍᏙᏗᏱ	-322
ᏲᎵ	-323
ᏔᏁᎢ	-324
ᏪᎵ	-325
ᏴᎵᎨ	-326
▁Ꮭ	-327
▁ᏗᏥ	-328
ᏁᏗᏱ	-329
ᏲᎯ	-330
▁[	-331
ᏬᏂ	-332
▁ᏗᏣ	-333
▁ᎤᏂᏣᏘ	-334
▁ᎤᎵᏍ	-335
▁ᎤᏓ	-336
ᏁᏤ	-337
ᏕᏲ	-338
▁ᏕᎦ	-339
▁ᎨᏎᎢ	-340
ᏗᎦ	-341
▁ᎤᎬᏩ	-342
ᎾᏛ	-343
ᏟᎶ	-344
▁ᏥᏂ	-345
ᎵᏏ	-346
ᏗᎭ	-347
ᏲᏎ	-348
▁ᎪᎯᏳ	-349
▁ᎤᏃ	-350
▁ᎠᏁᎯ	-351
▁ᏂᏥ	-352
ᎵᏰ	-353
▁ᏚᏳᎪᏛ	-354
ᏓᏡ	-355
▁Ꮹ	-356
ᏉᎳ	-357
▁ᎦᎵ	-358
▁ᎠᏂᏧᏏ	-359
ᏪᎳ	-360
▁ᏂᏣ	-361
▁ᏥᎪ	-362
▁ᏧᏓᎴᏅᏛ	-363
ᎰᎢ	-364
▁ᎤᏛ	-365
▁ᏔᎵᏁ	-366
ᎬᏫᏳᏒ	-367
▁ᎬᏩᏍᏓᏩᏗᏙᎯ	-368
▁ᎢᏧᎳ	-369
ᎸᏗ	-370
▁ᏥᎨ	-371
ᎪᎲ	-372
▁ᏓᏂ	-373
▁ᏣᏂ	-374
▁ᎤᎬᏩᎵ	-375
ᏁᏗ	-376
▁ᏧᏪ	-377
ᏓᏗ	-378
ᏙᎵ	-379
▁Ꮸ	-380
▁ᎣᎩ	-381
▁ᏂᏨ	-382
▁ᎤᏓᏅ	-383
▁ᏉᎳ	-384
▁ᎢᏳᎾ	-385
▁ᎨᏒᎩ	-386
ᏛᏃ	-387
ᏍᎬᎾ	-388
ᏯᏅ	-389
ᎳᏫᎢᏍᏗᏱ	-390
▁ᎦᎪ	-391
▁ᏈᏓ	-392
ᏁᎶᏗ	-393
▁ᎤᎵᏂᎩ	-394
ᎧᎵ	-395
ᎵᏥ	-396
▁ᏂᎪᎯ	-397
ᏌᏛ	-398
ᏍᎪᎯ	-399
ᎵᏲ	-400
ᎾᏫ	-401
▁Ꮫ	-402
ᎮᎵ	-403
▁ᏂᏚᏪᏎᎴᎢ	-404
ᏁᎭ	-405
ᏙᎴᎰᏍᎩ	-406
ᏅᏏᏛ	-407
▁ᏄᎾ	-408
▁ᏄᏪᏒᎩ	-409
▁ᎠᎹ	-410
▁ᎬᏗ	-411
▁ᎦᏙᏃ	-412
ᏅᏏᏓᏍᏗ	-413
▁ᎤᏙᎯᏳᎯᏯ	-414
ᎢᏍᏗ	-415
▁ᎢᎨ	-416
▁ᎤᏁᏨ	-417
ᏄᏬ	-418
ᏍᏙᏗᏱ	-419
▁ᏄᏪᏎᎴᎢ	-420
▁Ᏼ	-421
▁ᎤᏰᎸ	-422
▁ᎤᎩ	-423
▁ᏝᏍᎪ	-424
ᏁᎵ	-425
▁ᏥᎷ	-426
ᏒᏃ	-427
▁Ꮡ	-428
▁ᏱᏥ	-429
▁ᎤᏲᎱ	-430
ᎦᏘᏯ	-431
▁ᎠᏂᏍᎦ	-432
ᎪᎢ	-433
ᏏᎵᎻ	-434
ᎴᏅ	-435
ᎥᎢ	-436
ᏍᏙ	-437
ᏯᏛ	-438
ᎬᎩ	-439
ᏂᏴ	-440
▁ᏦᎢ	-441
▁ᎢᏧᎳᎭ	-442
▁ᏥᎷᏏᎵᎻ	-443
ᏉᏃ	-444
▁ᎩᎳ	-445
▁ᏗᎬᏩ	-446
ᎦᎸ	-447
▁ᎢᏳᏩᏂ	-448
▁ᎪᎯᏳᏗ	-449
ᎫᏴ	-450
ᎵᏍᎪᎸ	-451
▁Ꮖ	-452
▁ᎡᏍᎦ	-453
▁ᏣᎬᏫᏳᎯ	-454
▁ᎡᏣ	-455
▁ᎣᎦ	-456
ᏂᎬ	-457
▁ᎠᎨᏴ	-458
▁ᏂᏚᏪᏎᎸᎩ	-459
▁ᏙᏓ	-460
▁ᎤᏅᏒ	-461
▁ᎬᏂᏛ	-462
ᏗᏔ	-463
ᏪᏎᎸᎩ	-464
▁ᎠᏰᎵ	-465
▁ᏅᏩᏓᎴ	-466
▁ᎢᏯᏂ	-467
▁ᎾᏍᎩᏰᏃ	-468
ᎲᏍᎦ	-469
▁ᏄᏪᏎᎸᎩ	-470
ᎬᎾ	-471
ᏩᏘ	-472
ᏍᎩᎾ	-473
▁ᏗᏓ	-474
▁ᎠᎦᏔ	-475
▁ᎤᏣ	-476
ᏃᎯᏳ	-477
▁ᎠᎦᏴᎵᎨ	-478
ᏦᎯᏳ	-479
ᏍᏔᏅᎯ	-480
ᏪᏎᎭ	-481
▁ᏕᎤ	-482
▁ᏂᎦᏗᏳ	-483
▁ᎤᏓᏙᎵᏍᏗ	-484
▁ᏗᎨ	-485
▁ᏥᏄ	-486
ᎳᎩ	-487
▁ᎠᏫ	-488
▁ᏥᏚ	-489
▁ᎠᏕᎸ	-490
▁ᎤᏍᏗ	-491
▁ᏧᏪᏥ	-492
▁ᏅᏗᎦᎵᏍᏙᏗᎭ	-493
ᏓᏂᎸ	-494
▁ᏓᎾ	-495
▁ᎤᎾᏓᏅ	-496
▁ᎢᎸ	-497
ᏍᏕᏍᏗ	-498
▁ᏂᎦᏪ	-499
▁ᏧᎾᏓᎴᏅᏛ	-500
ᏍᏔᏅ	-501
▁ᎾᏍᎩᏯᎢ	-502
ᎵᏥᏙ	-503
▁ᎦᏰ	-504
ᎾᏄᎪᏫ	-505
▁ᏂᎪᎯᎸ	-506
ᎪᎩ	-507
ᎰᏩ	-508
ᏁᎯ	-509
▁ᎣᏂ	-510
▁ᏅᎩ	-511
▁ᎢᏯᏂᏛ	-512
ᎸᏫᏍᏓᏁᏗ	-513
ᏓᏁᏗ	-514
ᏓᏅᏟ	-515
ᏪᏎᎢ	-516
▁ᎤᏇ	-517
▁ᏱᏗ	-518
ᏟᏴ	-519
ᎪᎵᏰ	-520
ᏚᎵᏍ	-521
ᏙᎢ	-522
ᏛᎾ	-523
ᏛᏁᏗ	-524
▁ᎾᎥ	-525
▁ᏗᎾ	-526
▁ᎤᏍᏆᏂᎪ	-527
ᏃᎯ	-528
ᏨᎩ	-529
ᎪᏩᏛ	-530
▁ᏗᎩ	-531
▁ᏱᎦ	-532
▁ᏱᏂ	-533
ᏗᏍᎨᏍᏗ	-534
ᏐᏅ	-535
ᏒᎾ	-536
▁Ꮓ	-537
▁Ꮟ	-538
ᏛᎦᏅ	-539
ᏓᎸ	-540
ᏁᎸᎩ	-541
▁ᎤᎶ	-542
▁ᎦᏓ	-543
ᏍᎦᏅᏨ	-544
▁ᎢᏓᎵ	-545
ᏃᏅ	-546
▁ᎥᏝᏰᏃ	-547
ᎵᏛ	-548
▁ᏫᏚ	-549
▁ᎠᏏᏴᏫ	-550
ᎲᎦ	-551
ᏉᏍᎩᏂ	-552
ᎸᏉᏗ	-553
▁ᎢᎦᎢ	-554
▁ᎪᏪᎵ	-555
ᏁᎴᎢ	-556
ᏓᎴᏅᎯ	-557
▁ᎬᏩᎦᏘᏯ	-558
ᏠᏱ	-559
▁Ꮑ	-560
▁ᎧᏁ	-561
▁ᏥᏳ	-562
ᎨᎢ	-563
ᏤᎢ	-564
ᏥᏯ	-565
ᎵᎮᎵ	-566
ᏍᏛᎾ	-567
ᏔᏲᏎ	-568
ᏖᎸ	-569
▁ᎡᏆ	-570
ᏁᎴ	-571
ᎵᏅᏟ	-572
ᎶᎯᏍᏗᏱ	-573
▁ᏧᎾᏁᎶᏗ	-574
ᎾᏰ	-575
ᏲᎯᏎ	-576
▁ᏭᏂ	-577
▁ᎩᎶᏃ	-578
ᏐᏢ	-579
▁ᎠᏓᏁ	-580
▁ᎠᏲᎱ	-581
ᏍᎩᏂᏃᏅ	-582
ᎫᎪ	-583
▁ᎨᏣ	-584
▁ᎠᏂᎦᏔ	-585
▁ᏄᎬᏫᏳᏒ	-586
▁ᎢᏗ	-587
ᎬᏩᎶᏗ	-588
ᏁᎳᏅᎯ	-589
▁ᏂᏨᏪᏎᎭ	-590
▁ᎢᏳᏩᏂᏌᏛ	-591
▁ᎣᏥ	-592
▁ᎤᏇᏓᎵ	-593
▁ᏗᎧᎿᏩᏗᏙᎯ	-594
ᎾᏝ	-595
ᏍᏕᎸ	-596
▁ᎠᏰ	-597
▁ᎠᏍᏓ	-598
▁ᎡᏍᎦᏉ	-599
ᏑᏰ	-600
ᎪᏩᏘ	-601
ᏗᏍᏗ	-602
ᏛᏅᎢ	-603
ᏓᏅᏛᎢ	-604
ᏛᏁᏗᏱ	-605
▁ᎢᏓᎵᏅᏟ	-606
▁ᏱᏣ	-607
ᏓᏙᎵᏍᏓᏁ	-608
▁Ꮉ	-609
▁ᎠᏰᎸ	-610
▁ᎤᏂᏣ	-611
▁ᏅᏩᏙᎯ	-612
ᏌᏯ	-613
▁Ꮠ	-614
ᏕᏍᏗ	-615
ᏙᎢᏛ	-616
▁ᎤᎦ	-617
▁ᏥᏕ	-618
▁ᎤᎾᏓ	-619
ᏉᎩ	-620
ᏁᎶᎯ	-621
▁ᎤᎵᏂᎩᏛ	-622
ᎵᏙ	-623
ᏰᏂ	-624
▁ᏅᏯ	-625
▁ᎠᏍᎪᎯ	-626
▁ᏱᎨᏎᏍᏗ	-627
ᎳᏏ	-628
ᏅᏎ	-629
ᏯᏫ	-630
▁ᎢᎬᏩ	-631
▁ᎤᏚᎩ	-632
▁ᎦᎵᏉᎩ	-633
ᎸᏫᏍᏓᏁᎯ	-634
▁ᏗᎦᎸᏫᏍᏓᏁᏗ	-635
ᎵᎪ	-636
▁ᎦᏁ	-637
▁ᎦᏚᎲ	-638
ᎷᎩ	-639
ᎺᎵ	-640
ᏚᎵ	-641
ᏆᎵᏏ	-642
▁ᎠᏂᏔ	-643
▁ᎡᏙᏓ	-644
ᏗᏍᎬ	-645
▁ᏔᎳ	-646
▁ᏱᏚ	-647
▁ᎠᎵᏍ	-648
▁ᎤᏕᎵᏛ	-649
ᎴᎯ	-650
ᏁᏨ	-651
ᏅᏃ	-652
ᏓᏕ	-653
ᎩᎵᏲ	-654
▁ᎨᎵ	-655
▁ᏗᎪ	-656
▁ᎢᏗᏢ	-657
ᎵᏍᏓᏁᏗ	-658
▁ᎤᎵᏍᏆ	-659
▁ᏧᏙᎢᏛ	-660
▁ᎠᏂᏍᎦᏯ	-661
▁ᏧᎬᏩᎶᏗ	-662
▁ᏅᏩᏙᎯᏯᏛ	-663
ᎨᏳᏗ	-664
ᏩᏗᏒ	-665
▁ᎢᎨᏎᏍᏗ	-666
▁ᏄᏂᏪᏒᎩ	-667
ᎸᎭ	-668
▁ᏂᏗ	-669
▁ᎤᏁᎳᎩ	-670
▁ᏄᏂᏪᏎᎢ	-671
ᎾᏛᏁ	-672
ᏓᏅᏛ	-673
▁ᏓᎦ	-674
ᏍᏔᏅᎩ	-675
▁ᎠᏏᏉ	-676
▁ᎤᎷᏨ	-677
▁ᎢᎬᏱᏱ	-678
▁ᎤᎾᏓᏅᏘ	-679
▁ᎠᎾᏙᎴᎰᏍᎩ	-680
ᏩᏕ	-681
ᏂᏙᎯ	-682
▁ᎠᏇ	-683
▁ᏰᎵᏉ	-684
ᏂᏙ	-685
▁ᎠᏗ	-686
ᎠᏁᎶᎯ	-687
▁ᎦᎸᎶ	-688
▁ᏔᎳᏚ	-689
ᎵᏍᏙᏗᏱ	-690
▁ᎢᏳᏰᏃ	-691
▁ᎯᎠᏰᏃ	-692
ᏕᎾ	-693
▁ᎠᏋ	-694
▁ᎨᏎ	-695
ᎦᏴᎵᎨ	-696
ᏓᏍᏗᏱ	-697
▁ᎢᎸᎯᏳ	-698
▁ᏗᏂᎧᎿ	-699
▁ᏚᎸᏫᏍᏓᏁ	-700
ᏪᏎᎴᎢ	-701
▁ᏗᎦᎳᏫᎢᏍᏗᏱ	-702
ᏂᏆ	-703
ᏠᎾ	-704
ᏪᏒ	-705
▁Ᏺ	-706
▁ᎠᏂᏔᎵ	-707
ᎡᎵ	-708
ᎥᎩ	-709
ᎦᏛ	-710
ᎭᎻ	-711
ᏁᎶ	-712
ᏎᎵ	-713
ᏧᏈ	-714
ᏎᎸᎯ	-715
▁ᎢᎦᏛ	-716
▁ᏌᏩᏂ	-717
▁ᎤᎾᏓᏡ	-718
▁ᏄᎵᏍᏔᏅ	-719
ᎷᏥ	-720
ᏚᎢ	-721
▁Ꮌ	-722
▁ᏓᏓ	-723
▁ᏥᎦ	-724
▁ᏱᏅ	-725
ᏕᎸᏙᏗ	-726
▁ᎡᎳᏗ	-727
▁ᎢᏏᎵ	-728
▁ᏄᏂᎬᏫᏳᏒ	-729
ᎾᏄᎪ	-730
▁ᏱᎰᏩ	-731
▁ᎡᏆᎭᎻ	-732
▁ᏅᏓᏳᏓᎴᏅᎯ	-733
ᎴᏗ	-734
ᎳᏗᏙ	-735
ᎴᏍᏗ	-736
▁ᎦᏓᎭ	-737
▁ᎨᎵᎵ	-738
▁ᏥᎨᏒ	-739
▁ᎠᏍᎦᏂ	-740
▁ᎤᏍᏆᏂᎪᏗ	-741
ᎨᎶᎯ	-742
ᏍᏔᏂ	-743
ᏛᏁᎸ	-744
▁ᎤᏥ	-745
ᎬᏫᏳᏌ	-746
ᎸᏉᏗᏳ	-747
ᏲᎱᏒᎯ	-748
▁ᏚᏙᎥ	-749
▁ᎢᎦᏤᎵ	-750
▁ᎤᎾᏤᎵ	-751
▁ᎠᏂᏆᎵᏏ	-752
▁ᎤᎾᏤᎵᎦ	-753
ᏌᏗ	-754
ᏙᏓᏆ	-755
▁ᎥᎩ	-756
▁ᎼᏏ	-757
▁ᏧᏓ	-758
ᏍᏓᏩᏛ	-759
▁ᎥᏝᏃ	-760
▁ᏂᎬᏩ	-761
▁ᏱᎨᏎᎢ	-762
▁ᏗᏂᎧᎿᏩᏗᏙᎯ	-763
ᏛᏅ	-764
ᏪᎭ	-765
ᎲᏍᎬ	-766
ᏍᎦᎢ	-767
▁ᎠᎪ	-768
▁ᎣᏣ	-769
ᎸᏃ	-770
▁Ꭾ	-771
ᎾᏓᎴ	-772
▁ᎪᏪ	-773
▁ᎢᏯᎦ	-774
▁ᎤᏂᏲ	-775
ᏓᏅᏖᏍᎬ	-776
▁ᎠᏙᎴᎰᏍᎩ	-777
ᎴᏃ	-778
▁Ꮨ	-779
ᏍᏛᎢ	-780
▁ᏕᎨ	-781
▁ᏫᏥ	-782
▁ᏗᎨᏥ	-783
ᏕᏲᎲᏍᎩ	-784
ᏗᎦᎳᏫᎢᏍᏗᏱ	-785
ᏁᏃ	-786
ᏫᏂ	-787
ᎵᏍᏙ	-788
ᏍᏔᏁ	-789
▁ᎨᎦ	-790
▁ᎬᎩ	-791
▁ᎠᏎᏉ	-792
▁ᎦᏙᎯ	-793
▁ᎢᏦᎯᏳ	-794
▁ᏂᎯᏍᎩᏂ	-795
ᏕᏘ	-796
ᎨᏳᎢ	-797
ᏍᎩᏃ	-798
ᏍᏆᎸ	-799
▁ᎠᏛ	-800
▁ᎾᎩ	-801
▁ᎤᎾᎵ	-802
▁ᎠᏲᎱᎯᏍᏗ	-803
ᎵᎩ	-804
ᎾᎦ	-805
ᎳᏍᏗ	-806
ᏲᏪᎳ	-807
ᏢᏔᏅᎯ	-808
▁ᎦᏬᏂ	-809
ᎵᏍᏓᏴᏗ	-810
▁ᏂᎦᏛᏃ	-811
▁ᏅᏓᎬᏩ	-812
ᎬᏫᏳᏌᏕᎩ	-813
ᎵᏍᏓᏴᏗᏱ	-814
ᎶᏂ	-815
▁Ꮗ	-816
ᎦᏔᎲ	-817
ᎾᏝᎢ	-818
ᏅᏒᎩ	-819
ᏓᎴᏒ	-820
ᏓᎵᎢ	-821
▁ᎠᏤ	-822
▁ᎡᏙ	-823
▁ᎤᏗ	-824
▁ᏗᏆ	-825
▁ᏱᏄ	-826
▁ᎢᏨᏒ	-827
▁ᎭᏫᏂ	-828
▁ᎾᎿᏃ	-829
▁ᎾᏂᏪ	-830
▁ᎢᏯᎦᏴᎵ	-831
ᎥᎾ	-832
ᎵᏱ	-833
ᏳᎳ	-834
▁Ꮀ	-835
▁ᎢᎾ	-836
▁ᏥᏥ	-837
▁ᏧᏁ	-838
ᎦᎵᏍᏓ	-839
▁ᏂᎬᏅ	-840
▁ᏄᏍᏗ	-841
▁ᎠᏍᎩᎾ	-842
▁ᎩᎳᏉᏃ	-843
ᏔᎳ	-844
ᎦᏙᎥ	-845
▁ᎺᎵ	-846
▁ᏂᏕ	-847
▁ᏓᏳ	-848
ᏁᎢᏍᏗ	-849
▁ᎤᏁᏤ	-850
▁ᎦᏳᎳ	-851
▁ᎾᏍᎩᏍᎩᏂ	-852
ᏁᎲ	-853
ᏌᎳ	-854
▁ᏕᏫ	-855
▁ᏱᏙ	-856
ᎵᏍᏔᏅ	-857
ᏍᏔᏁᎢ	-858
ᏓᏅᏓᏗ	-859
ᏗᏍᎬᎢ	-860
ᏩᏗᏒᎢ	-861
▁ᎤᏚᎵᏍ	-862
▁ᎠᏓᎨᏳᏗ	-863
▁ᎠᎦᏴᎵᎨᎢ	-864
▁ᎤᎵᏂᎩᏗᏳ	-865
ᎾᎢ	-866
ᏃᎩ	-867
ᏎᎭ	-868
▁ᏧᏬ	-869
▁ᎠᏃᎯᏳ	-870
▁ᎠᏍᏓᏯ	-871
ᏓᏛ	-872
ᏠᏯ	-873
ᏴᎯ	-874
▁ᎦᏥ	-875
▁ᏗᏃ	-876
▁ᏥᏯ	-877
ᏗᏔᏍᏗ	-878
▁ᎤᎵᏏ	-879
▁ᎤᎷᏤ	-880
▁ᎤᏙᏓ	-881
ᎲᏍᎨᏍᏗ	-882
▁ᎠᎾᎵᏅᏟ	-883
▁ᎤᏂᏍᏆᏂᎪ	-884
ᎦᎨ	-885
ᎰᎵ	-886
ᏂᏏ	-887
ᏐᏗ	-888
ᏏᏴᏫ	-889
▁ᏓᏥ	-890
▁ᎤᏠᏱ	-891
▁ᎤᏃᎯᏳ	-892
▁ᎠᏂᏍᎩᎾ	-893
ᏎᏗ	-894
ᏯᎢ	-895
ᏴᎩ	-896
ᏅᎯᏛ	-897
ᏔᎳᏬ	-898
▁ᎠᎺ	-899
▁ᎤᏴ	-900
▁ᎦᏃ	-901
▁ᎾᏆ	-902
▁ᏓᏆ	-903
ᎦᏔᎲᎾ	-904
ᏏᏴᏫᎭ	-905
ᏘᏂᏙᎯ	-906
▁ᎠᏁᎲ	-907
▁ᎨᏐᎢ	-908
ᏛᏁᎮᏍᏗ	-909
ᎦᎵ	-910
ᎶᏄ	-911
▁Ᏸ	-912
ᏍᎦᏯ	-913
▁ᎢᎳ	-914
▁ᏓᎩ	-915
▁ᏗᏤ	-916
▁ᏱᏓ	-917
ᎵᏍᏙᏗ	-918
ᏪᎵᏍᎩ	-919
▁ᎠᎦᏘ	-920
▁ᎢᏳᏩ	-921
▁ᎦᏍᎩ	-922
▁ᏧᏤᎵ	-923
▁ᎢᎦᏛᏃ	-924
▁ᎦᎶᎯᏍᏗᏱ	-925
ᎶᏛ	-926
ᎿᎢ	-927
ᏌᏂ	-928
ᏰᎯ	-929
ᏁᎸᎢ	-930
ᏁᏟᏴ	-931
ᏐᏗᏱ	-932
▁ᎤᎷ	-933
▁ᏗᎫᎪ	-934
▁ᏥᏳᎯ	-935
▁ᏅᏩᎾᏓᎴ	-936
▁ᏧᏂᏲᎱᏒᎯ	-937
▁ᎠᏃᎯᏳᎲᏍᎩ	-938
ᎨᏫ	-939
ᏍᏕᎵ	-940
ᏢᏅᎯ	-941
▁ᎠᏲ	-942
▁ᎢᏓ	-943
▁ᏐᎢ	-944
ᏍᏕᎸᏗ	-945
▁ᎤᎧᎵ	-946
▁ᏆᎴᏗ	-947
▁ᎠᏂᎨᏴ	-948
▁ᎤᏂᎷᏤ	-949
▁ᎦᏰᎪᎩ	-950
▁ᏥᎨᏒᎩ	-951
▁ᏂᎦᎵᏍᏗ	-952
ᎸᏫᏍᏓᏁᏗᏱ	-953
ᎡᏗ	-954
ᏁᏉ	-955
▁Ꮼ	-956
ᎦᏌᏯ	-957
ᏍᏚᎢ	-958
ᏒᏃᏱ	-959
▁ᎡᎳ	-960
▁ᏑᎾ	-961
▁ᏒᏃᏱ	-962
▁ᎤᏓᏅᏘ	-963
▁ᎦᎸᎶᎢ	-964
▁ᎬᏩᎷᏤ	-965
▁ᎢᎬᏱᏗᏢ	-966
▁ᏄᎵᏍᏔᏁᎢ	-967
ᏉᎯ	-968
ᏍᎫ	-969
▁Ꮰ	-970
ᏟᎶᏛ	-971
▁ᎠᎬ	-972
▁ᏗᎧ	-973
▁ᏧᏃ	-974
▁ᏭᎶ	-975
ᎲᏍᎬᎢ	-976
ᏍᏗᏍᎩ	-977
▁ᎬᏩᏂ	-978
▁ᎢᏳᏍᎩᏂ	-979
▁ᎤᎾᏛᎦᏅ	-980
▁ᎤᏁᎳᏅᎯᏰᏃ	-981
ᎴᏂ	-982
ᏅᏒ	-983
ᏛᎯ	-984
ᏛᏂ	-985
▁"	-986
ᏑᏰᏛ	-987
ᏛᏁᎢ	-988
▁ᎥᎥ	-989
▁ᏗᎬ	-990
▁ᎤᏄᎪ	-991
▁ᏕᎬᏩ	-992
▁ᎤᏙᎴᎰ	-993
▁ᏥᎨᏎᎢ	-994
ᎸᏫᏍᏓᏁᎲ	-995
▁ᎤᎾᏓᏡᎬ	-996
▁ᎤᎾᏙᏓᏆ	-997
▁ᎤᏤᎵᎪᎯ	-998
ᎡᎢ	-999
ᏕᏂ	-1000
ᎵᏍᎦ	-1001
ᎶᏒᎯ	-1002
ᎷᏨᎭ	-1003
ᏚᏓᎴ	-1004
ᏁᎮᏍᏗ	-1005
ᏅᏍᏗᏱ	-1006
ᏍᎦᏅᎾ	-1007
▁ᎠᏋᏒ	-1008
▁ᎤᏂᎩ	-1009
▁ᏕᎨᏥ	-1010
ᎦᎵᏍᏙᏓ	-1011
ᎪᏩᏛᏗᏱ	-1012
▁ᎠᎺᏉᎯ	-1013
▁ᎤᏓᎵᎢ	-1014
▁ᎤᏓᏅᏖ	-1015
▁ᎤᏲᎢᏳ	-1016
▁ᏄᏓᎴᏒ	-1017
▁ᎢᏳᎾᏍᏗ	-1018
▁ᎤᏂᎬᏫᏳᎯ	-1019
ᎴᏛ	-1020
ᎵᏯ	-1021
ᎾᏓ	-1022
ᏎᎸ	-1023
ᏙᏂ	-1024
ᏯᏔ	-1025
ᏯᏙ	-1026
▁Ꮞ	-1027
ᎤᏍᏕ	-1028
ᎥᏍᎩ	-1029
ᎧᎵᎢ	-1030
ᎪᏓᏁ	-1031
ᎿᏕᎩ	-1032
ᏉᎯᏳ	-1033
ᏬᎯᏳ	-1034
ᏰᎸᎭ	-1035
ᏰᎸᎯ	-1036
▁ᎠᏃ	-1037
▁ᎡᎩ	-1038
▁ᎡᎺ	-1039
▁ᎤᎪ	-1040
▁ᎤᏢ	-1041
▁ᎩᎬ	-1042
▁ᏂᏓ	-1043
▁ᏚᏃ	-1044
▁ᏫᎾ	-1045
ᏠᎾᏍᏗ	-1046
▁ᎯᏍᎩ	-1047
ᏍᏕᎸᏗᏱ	-1048
▁ᏔᏕᏲᎲᏍᎩ	-1049
ᏰᎢ	-1050
▁(	-1051
ᏍᎦᎩ	-1052
ᏩᏛᎲ	-1053
▁ᎠᎵ	-1054
▁ᏨᏒ	-1055
ᏕᏘᏴᏛ	-1056
▁ᎠᏲᎵ	-1057
▁ᎡᎺᏅ	-1058
▁ᎢᎪᎯ	-1059
▁ᎤᎪᎲ	-1060
▁ᎤᎴᏅ	-1061
▁ᎩᎦᎨ	-1062
ᏙᎥᎯᏍᏗ	-1063
▁ᎠᏓᏁᎸ	-1064
▁ᎤᏂᏃᎮ	-1065
▁ᏂᎬᎾᏛ	-1066
▁ᎨᏥᏅᏏᏛ	-1067
ᎲᏏ	-1068
▁Ꭻ	-1069
ᏍᏗᏰ	-1070
ᏩᎾᎦ	-1071
ᏯᏅᎲ	-1072
▁ᎠᏯ	-1073
▁ᏚᏅ	-1074
ᎨᏳᎯᏳ	-1075
ᎯᏍᏙᏗ	-1076
▁ᎠᎩᎾ	-1077
▁ᎠᏗᎾ	-1078
▁ᎦᎵᏦ	-1079
▁ᏗᎨᏒ	-1080
▁ᎢᎪᎯᏛ	-1081
▁ᎤᎾᏄᎪᏫ	-1082
ᎦᎵᏍᏙᏗᏍᎬᎩ	-1083
ᎿᏩ	-1084
ᏓᏓ	-1085
ᏲᏏ	-1086
ᎸᎯᏢ	-1087
▁ᎦᏅ	-1088
▁ᏫᎦ	-1089
▁ᏫᏂ	-1090
▁ᏯᎩ	-1091
ᎳᏏᏕᏂ	-1092
▁ᎤᏛᏅ	-1093
▁ᏥᏂᎬ	-1094
▁ᏧᏗᏱ	-1095
ᏍᎦᏅᏨᎢ	-1096
▁ᎠᏂᏯᏫ	-1097
▁ᎢᎸᎯᏢ	-1098
▁ᎤᏲᎱᏒ	-1099
▁ᎢᏳᎵᏍᏙᏗ	-1100
ᏁᎬ	-1101
ᎨᏳᎯ	-1102
ᏔᏂᏙ	-1103
ᏛᏁᎯ	-1104
ᏲᏎᎭ	-1105
▁ᏗᏨ	-1106
▁ᎤᎩᏨ	-1107
▁ᎤᏂᏴ	-1108
▁ᏄᏪᏒ	-1109
▁ᏗᎨᎦ	-1110
▁ᏗᏓᎴ	-1111
▁ᏥᏂᎦ	-1112
▁ᎠᏂᏐᎢ	-1113
▁ᏅᏓᎬᏩᏓᎴᏅᏛ	-1114
▁ᏅᏗᎦᎵᏍᏙᏗᏍᎨᏍᏗ	-1115
ᎨᏏ	-1116
ᏈᏗ	-1117
ᏌᏅ	-1118
ᏏᏱ	-1119
ᏒᎭ	-1120
ᎳᏍᏓ	-1121
ᏛᏁᎵ	-1122
▁ᏅᏙ	-1123
▁ᏓᏁ	-1124
▁ᏙᏗ	-1125
ᏎᎮᏍᏗ	-1126
▁ᎤᏐᏅ	-1127
▁ᏧᏤᎵᎦ	-1128
ᎵᏍᎪᎸᏔᏅᎯ	-1129
▁ᏗᏃᏪᎵᏍᎩ	-1130
ᏚᎲ	-1131
ᎪᏗᏱ	-1132
ᎶᏄᎮ	-1133
ᏚᎵᎭ	-1134
▁ᏣᎦ	-1135
▁ᏱᏨ	-1136
ᎮᎵᏍᏗ	-1137
ᏓᏁᎸᎯ	-1138
▁ᎢᎾᎨ	-1139
▁ᎩᎳᏉ	-1140
▁ᏚᏁᏤ	-1141
▁ᎠᏁᎲᎢ	-1142
ᎵᏍᏕᎸᏙᏗ	-1143
▁ᎢᏳᏟᎶᏛ	-1144
▁ᎤᎾᏙᏓᏆᏍᎬ	-1145
ᏛᏛ	-1146
ᏬᏁ	-1147
▁Ꮱ	-1148
ᎡᏗᏱ	-1149
ᏅᏌᏗ	-1150
ᏒᏍᏗ	-1151
ᏯᏅᏛ	-1152
ᏯᏙᏗ	-1153
▁ᎠᏅ	-1154
▁ᎡᏗ	-1155
▁ᏚᏪ	-1156
▁ᏥᏓ	-1157
▁ᏫᏨ	-1158
ᏍᏚᏗᏱ	-1159
▁ᎡᎶᏛ	-1160
▁ᎤᏓᏙ	-1161
▁ᏫᎬᏩ	-1162
▁ᎤᏂᏰᎸ	-1163
▁ᎦᏚᎲᎢ	-1164
▁ᎠᏍᎪᎯᏧᏈ	-1165
▁ᎾᏍᏉᏍᎩᏂ	-1166
▁ᎠᎦᏙᎥᎯᏍᏗ	-1167
▁ᏧᏂᎸᏫᏍᏓᏁᎯ	-1168
ᎡᎸ	-1169
ᏒᏂ	-1170
ᎴᎲᎦ	-1171
ᎾᏫᏱ	-1172
ᏁᏍᏗ	-1173
ᏃᎮᎭ	-1174
ᏳᎪᏗ	-1175
▁ᎡᎭ	-1176
▁ᎾᏥ	-1177
▁ᏕᎯ	-1178
▁ᏤᏥ	-1179
ᎴᎯᏐᏗ	-1180
ᏃᎮᏍᎩ	-1181
ᏗᏍᏗᏱ	-1182
▁ᏂᏥᎥ	-1183
▁ᏈᎵᎩ	-1184
▁ᏈᏓᏃ	-1185
ᏬᏂᎯᏍᏗ	-1186
▁ᎤᏓᏅᏙ	-1187
▁ᎤᏛᎦᏅ	-1188
▁ᏄᏪᏎᎴ	-1189
▁ᎠᎦᏔᎲᎢ	-1190
▁ᎤᎵᏍᏆᎸᏗ	-1191
▁ᎢᏣᎵᏍᏓᏁᏗ	-1192
▁ᎤᏁᎳᏅᎯᏍᎩᏂ	-1193
▁ᏅᏓᎦᎵᏍᏙᏗᏍᎬᎩ	-1194
ᏓᎳ	-1195
ᏕᎵ	-1196
ᏣᏓ	-1197
ᏣᏗ	-1198
ᏥᎪ	-1199
ᏫᏛ	-1200
ᎷᏨᎩ	-1201
ᏎᏗᏱ	-1202
▁ᎨᏐ	-1203
▁ᏓᏰ	-1204
▁ᏥᎻ	-1205
▁ᏥᏁ	-1206
▁ᏦᎩ	-1207
ᏛᎦᏅᎩ	-1208
▁ᎠᏇᏥ	-1209
▁ᎤᏂᏃ	-1210
▁ᎤᏍᏆ	-1211
▁ᎤᏪᎷ	-1212
▁ᎧᏁᎬ	-1213
▁ᎤᏂᏣᏖ	-1214
▁ᎾᎾᏛᏁ	-1215
▁ᏗᏓᏍᏚᏗᏱ	-1216
ᏁᎫ	-1217
ᏏᏛ	-1218
ᏚᎸ	-1219
ᏤᎸ	-1220
ᏍᏓᏩ	-1221
ᏎᎪᎩ	-1222
ᏓᎴᎩ	-1223
▁ᏏᏌ	-1224
▁ᏤᎦ	-1225
▁ᏥᏅ	-1226
▁ᏱᎬ	-1227
ᎶᎯᏍᏗ	-1228
ᎷᏤᏗᏱ	-1229
▁ᏌᏉᏉ	-1230
ᎠᏗᏔᏍᏗ	-1231
▁ᎦᎸᏉᏗ	-1232
▁ᏗᏂᏲᎵ	-1233
▁ᎤᎾᏙᎴᎰ	-1234
▁ᎩᎶᏍᎩᏂ	-1235
▁ᏫᎾᏍᏛᎾ	-1236
▁ᏱᏥᎦᏔᎭ	-1237
."	-1238
ᎩᏏ	-1239
ᏃᏛ	-1240
ᏄᏩ	-1241
ᏅᎾ	-1242
ᏙᎾ	-1243
ᏥᏴ	-1244
ᎦᏙᎵ	-1245
ᎲᏍᎨ	-1246
ᎵᏰᎢ	-1247
ᎾᏍᎩ	-1248
ᏛᏁᎭ	-1249
▁ᏭᏴ	-1250
ᏅᎢᏍᏗ	-1251
ᏍᏓᏩᏕ	-1252
ᏍᏕᎸᎯ	-1253
ᏙᎮᏍᏗ	-1254
▁ᏄᏛᏁ	-1255
▁ᎾᏍᎩᏉ	-1256
▁ᏥᎦᏔᎭ	-1257
▁ᎠᏥᎸᏉᏗᏳ	-1258
▁ᎬᏩᏍᏓᏩᏗᏙᎯᏃ	-1259
ᎧᏂ	-1260
ᎶᏆ	-1261
ᎾᎵ	-1262
ᏁᎰ	-1263
ᏈᎵ	-1264
ᏕᎰ	-1265
ᏥᏛ	-1266
ᏫᏒ	-1267
ᏎᎴᎢ	-1268
ᏓᎸᎢ	-1269
ᏓᏁᎸ	-1270
▁ᎰᏩ	-1271
▁ᏅᏧ	-1272
▁ᏖᎸ	-1273
ᎪᏩᏛᏗ	-1274
ᏆᏗᏍᎩ	-1275
▁ᎠᎾᏓ	-1276
▁ᏥᎨᏐ	-1277
▁ᏱᎨᏎ	-1278
▁ᎠᏎᏉᏉ	-1279
▁ᎤᏰᎸᏗ	-1280
▁ᎩᎶᏰᏃ	-1281
▁ᎬᏔᏅᎯ	-1282
▁ᏔᎵᏁᏃ	-1283
▁ᏖᎸᎳᏗ	-1284
▁ᏥᎨᏐᎢ	-1285
▁ᎤᏂᏣᏘᏃ	-1286
▁ᎬᏂᏳᏉᏃ	-1287
▁ᏄᎵᏍᏔᏅᎩ	-1288
▁ᏚᏂᎸᏫᏍᏓᏁ	-1289
ᎩᏳ	-1290
ᎬᎦ	-1291
ᎭᎷ	-1292
ᎿᏕ	-1293
ᏑᎶ	-1294
ᏔᏲ	-1295
ᏥᏙ	-1296
ᏯᏂ	-1297
ᎡᏍᏗ	-1298
ᎳᏫᎩ	-1299
ᎶᏂᎨ	-1300
ᏍᎪᎵ	-1301
▁ᎢᎪ	-1302
▁ᎭᏢ	-1303
▁ᏄᏩ	-1304
▁ᏙᏱ	-1305
▁ᏣᏓ	-1306
▁ᏫᏗ	-1307
ᎲᏍᎬᎾ	-1308
ᏓᏂᎸᎢ	-1309
ᏛᎦᏅᎯ	-1310
ᏩᎾᎦᎳ	-1311
ᏳᎪᏛᎾ	-1312
▁ᎾᎿᏂ	-1313
▁ᏂᎯᏃ	-1314
▁ᏠᎨᏏ	-1315
ᏃᎮᏍᎬᎢ	-1316
ᏍᏕᎵᏍᎩ	-1317
▁ᎠᎦᏘᏏ	-1318
▁ᎤᏃᏕᎾ	-1319
▁ᏥᎪᏪᎳ	-1320
ᏔᎳᏬᎯᏍᏗ	-1321
▁ᎠᏴᏍᎩᏂ	-1322
▁ᎤᏕᏁᎴᎢ	-1323
▁ᎭᏫᏂᏗᏢ	-1324
▁ᏗᎾᏓᏅᏟ	-1325
▁ᏅᏗᎦᎵᏍᏙᏗᏍᎬ	-1326
ᎨᎳ	-1327
ᏂᏗ	-1328
ᏠᎯ	-1329
▁Ꮾ	-1330
ᏍᏗᎭ	-1331
ᏔᏅᎢ	-1332
ᏕᎶᏆ	-1333
▁ᎤᎴ	-1334
▁ᏂᎨ	-1335
▁ᏣᏥ	-1336
▁ᏦᏩ	-1337
▁ᏫᏄ	-1338
ᎧᎿᏩᏗ	-1339
▁ᎠᏁᏙ	-1340
▁ᎢᎾᏛ	-1341
▁ᏍᎩᏯ	-1342
▁ᏕᏣᏓ	-1343
▁ᎠᏤᎵᏍ	-1344
▁ᎤᏰᎸᏛ	-1345
▁ᎬᏗᏍᎬ	-1346
▁ᏗᎬᏩᏂ	-1347
▁ᎤᏣᏔᏅᎯ	-1348
▁ᎤᏲᎱᏒᎯ	-1349
▁ᎠᏂᏯᏫᏍᎩ	-1350
▁ᎾᏂᏪᏍᎨᎢ	-1351
▁ᏂᏚᏳᎪᏛᎾ	-1352
ᎦᏓ	-1353
ᎧᏅ	-1354
ᎩᏨ	-1355
ᏍᎪᏂ	-1356
ᏎᎸᎩ	-1357
ᏜᏏᏛ	-1358
ᏟᏂᎬ	-1359
▁ᎤᎸ	-1360
▁ᎤᎿ	-1361
ᏚᎵᏍᎬ	-1362
▁ᎤᎦᏔ	-1363
▁ᏎᏓᏂ	-1364
▁ᏓᏕᏲ	-1365
ᎨᏳᏎᏍᏗ	-1366
▁ᎠᏴᏰᏃ	-1367
▁ᎤᏣᏘᏂ	-1368
▁ᎤᏬᎯᏳ	-1369
▁ᏥᏂᎬᏅ	-1370
ᎸᏫᏍᏓᏁᎭ	-1371
▁ᎠᎵᏍᏓᏴᏗ	-1372
ᎥᏂ	-1373
ᏕᎢ	-1374
ᏚᎦ	-1375
ᏢᏈ	-1376
ᎵᎡᎵ	-1377
ᎵᏂᎩ	-1378
ᏂᏆᏘ	-1379
ᏂᏗᏳ	-1380
ᏖᎵᏙ	-1381
▁ᎦᏛ	-1382
▁ᏣᎾ	-1383
▁ᏥᎾ	-1384
▁ᏥᏣ	-1385
▁ᏥᏫ	-1386
▁ᏬᎩ	-1387
ᏅᏏᏙᎯ	-1388
ᏍᏓᏩᏗ	-1389
▁ᎤᎾᏛ	-1390
▁ᎤᏁᎷ	-1391
▁ᏦᎢᏁ	-1392
▁ᏱᏗᏥ	-1393
▁ᏴᏫᏉ	-1394
▁ᎠᏰᎸᎢ	-1395
▁ᎢᎸᏍᎩ	-1396
▁ᎤᎾᏄᎪ	-1397
ᏓᏅᏖᏍᎬᎢ	-1398
▁ᎢᏥᏍᎦᏯ	-1399
▁ᏄᏍᏕᏍᏗ	-1400
ᏗᎦᎵᏍᏙᏗᎭ	-1401
ᎦᏯ	-1402
ᎧᏁ	-1403
ᎩᎯ	-1404
ᏏᏔ	-1405
ᏛᏗ	-1406
ᏢᎩ	-1407
ᏱᎵ	-1408
ᎵᏃᎮ	-1409
ᏁᎲᎢ	-1410
ᏩᏛᎮ	-1411
▁ᏄᏅ	-1412
▁ᎠᎰᎵ	-1413
▁ᎠᏄᏬ	-1414
▁ᎢᎳᏯ	-1415
▁ᎢᏳᏅ	-1416
▁ᎤᎾᏁ	-1417
▁ᎦᏁᎸ	-1418
▁ᎬᏃᏛ	-1419
▁ᏅᎬᏩ	-1420
▁ᏣᏁᎭ	-1421
▁ᏧᏓᏏ	-1422
ᏗᎦᏅᏌᏗ	-1423
▁ᎠᏆᏤᎵ	-1424
▁ᎢᏣᏓᏅ	-1425
▁ᎤᏂᎪᎲ	-1426
▁ᎤᏩᏒᏉ	-1427
▁ᎤᎧᎵᏨᎯ	-1428
▁ᏅᏩᏓᎴᏃ	-1429
▁ᎤᎬᏫᏳᎯᏃ	-1430
▁ᏧᏅᏏᏓᏍᏗ	-1431
,]	-1432
ᎨᏛ	-1433
ᎯᎯ	-1434
ᏚᎩ	-1435
ᏟᏌ	-1436
ᏯᎠ	-1437
ᏰᎩ	-1438
ᎪᎲᎩ	-1439
ᎵᏂᎪ	-1440
ᏉᏰᏃ	-1441
ᏍᏓᏱ	-1442
ᏍᏛᏗ	-1443
ᏙᎵᎩ	-1444
▁ᎠᎢ	-1445
▁ᎤᎬ	-1446
▁ᎾᏃ	-1447
▁ᏚᏓ	-1448
▁ᏤᎭ	-1449
▁ᏳᏂ	-1450
ᏰᎳᏗᏙ	-1451
ᏲᏪᎳᏏ	-1452
▁ᎠᏴᏃ	-1453
▁ᎢᏣᏓ	-1454
▁ᎢᏤᎲ	-1455
▁ᎢᏨᏯ	-1456
▁ᎤᏛᎾ	-1457
ᎦᏴᎵᎨᎢ	-1458
ᏍᎦᏅᏨᎯ	-1459
▁ᎠᏍᏓᏱ	-1460
▁ᎤᎴᏅᎮ	-1461
▁ᎤᎷᏨᎩ	-1462
▁ᎦᏁᎸᎢ	-1463
▁ᏂᎦᏪᎭ	-1464
▁ᏚᎾᏓᏡ	-1465
▁ᏥᏄᏍᏗ	-1466
▁ᎢᏥᎦᏔᎭ	-1467
▁ᎤᏙᎴᎰᏒ	-1468
▁ᏂᎪᎯᎸᎢ	-1469
▁ᎢᏣᏛᏁᏗᏱ	-1470
▁ᎢᏣᏓᏙᎵᏍᏗ	-1471
▁ᏂᎬᏩᏪᏎᎴᎢ	-1472
▁ᏅᎬᏩᏪᏎᎸᎩ	-1473
▁ᏗᎵᏍᏓᏴᏗᏱ	-1474
▁ᏅᏗᎦᎵᏍᏙᏗᏍᎨ	-1475
ᎡᎯ	-1476
ᎬᏂ	-1477
ᏈᏏ	-1478
ᏏᏗ	-1479
ᏘᏃ	-1480
ᏢᏅ	-1481
ᎵᎥᏂ	-1482
ᏁᏍᎨ	-1483
ᏅᏗᏱ	-1484
ᏛᏁᎲ	-1485
ᏢᏔᏅ	-1486
ᏤᎵᏛ	-1487
ᏰᎸᎢ	-1488
▁ᎥᏆ	-1489
▁ᏄᏪ	-1490
▁ᏅᏛ	-1491
▁ᏙᎯ	-1492
▁ᏧᏩ	-1493
▁ᏴᎦ	-1494
ᏓᏁᏗᏱ	-1495
▁ᎡᎳᏪ	-1496
▁ᎤᏁᏉ	-1497
▁ᎤᏪᎵ	-1498
▁ᎦᏥᏯ	-1499
▁ᎾᏎᎵ	-1500
ᎵᏍᎦᏍᏙ	-1501
▁ᎢᏥᎦᏔ	-1502
▁ᎤᏟᎯᏳ	-1503
▁ᎾᎯᏳᏃ	-1504
▁ᏔᎴᎲᎦ	-1505
ᎤᏍᏕᏎᎸᎯ	-1506
ᏟᎶᏍᏔᏅᎯ	-1507
▁ᎠᏰᎳᏍᏗ	-1508
▁ᎤᎵᏍᎪᎸ	-1509
▁ᏗᏂᎳᏫᎩ	-1510
▁ᎠᏂᏏᏴᏫᎭ	-1511
▁ᏄᎵᏍᏔᏂᏙ	-1512
▁ᏱᎦᎵᏍᏙᏓ	-1513
▁ᎤᏔᎳᏬᎯᏍᏗ	-1514
ᎥᎯ	-1515
ᏈᏱ	-1516
ᏍᏘ	-1517
ᏎᏃ	-1518
ᏗᏂ	-1519
ᏘᏅ	-1520
ᏤᎭ	-1521
ᏪᏏ	-1522
ᏪᏛ	-1523
ᎶᏎᎢ	-1524
ᏃᎮᎮ	-1525
ᏃᎲᏏ	-1526
ᏅᏃᏛ	-1527
ᏍᎫᏕ	-1528
ᏲᎢᏳ	-1529
▁ᎢᎤ	-1530
▁ᎤᏄ	-1531
▁ᎬᏅ	-1532
▁ᏓᎬ	-1533
▁ᏕᎪ	-1534
▁ᏡᎬ	-1535
▁ᏤᏣ	-1536
▁ᏧᎦ	-1537
▁ᏧᏭ	-1538
▁ᏯᏆ	-1539
ᎲᏍᎨᎢ	-1540
ᏓᏁᏟᏴ	-1541
ᏡᏗᏍᎩ	-1542
▁ᎠᎫᏴ	-1543
▁ᎠᎹᏟ	-1544
▁ᎠᏣᏗ	-1545
▁ᎧᏃᎯ	-1546
▁ᎬᏩᎾ	-1547
ᏯᏔᎮᏍᏗ	-1548
▁ᎠᏓᏁᎯ	-1549
▁ᎦᎷᏨᎭ	-1550
▁ᏕᎤᏙᎥ	-1551
ᏍᏗᏍᎨᏍᏗ	-1552
▁ᎦᎸᏉᏙᏗ	-1553
▁ᎨᏥᎸᏉᏗ	-1554
▁ᎠᏓᏅᏖᏍᎬ	-1555
▁ᎢᏳᏓᎴᏅᏛ	-1556
▁ᏂᎦᎵᏍᏗᎭ	-1557
▁ᏕᏣᏓᏅᏛᎢ	-1558
--	-1559
ᏅᏗ	-1560
ᏑᏯ	-1561
ᏑᏴ	-1562
▁Ꮢ	-1563
ᎵᏏᎾ	-1564
ᏍᎪᎸ	-1565
ᏐᏅᎯ	-1566
ᏓᏛᎩ	-1567
ᏗᏓᎴ	-1568
ᏟᏍᏗ	-1569
ᏣᎴᏛ	-1570
ᏰᎸᎾ	-1571
▁ᎡᏈ	-1572
▁ᏕᏨ	-1573
▁ᏗᏦ	-1574
ᎬᏁᎸᎯ	-1575
ᎲᏍᎪᎢ	-1576
ᏍᏕᎵᏍ	-1577
ᏔᏲᏎᎭ	-1578
ᏗᏍᎪᎢ	-1579
▁ᎣᏂᏃ	-1580
▁ᎤᎩᎬ	-1581
▁ᎤᎾᏕ	-1582
▁ᎤᏪᏙ	-1583
▁ᎦᏛᎦ	-1584
▁ᏃᏈᏏ	-1585
▁ᏅᏛᎩ	-1586
▁ᏆᏂᏆ	-1587
▁ᏱᏍᎩ	-1588
▁ᎠᎩᎵᏲ	-1589
▁ᎢᏤᎲᎢ	-1590
▁ᏄᏃᎯᏳ	-1591
▁ᏓᏓᎿᏩ	-1592
▁ᏗᏅᏃᏛ	-1593
▁ᏗᏓᏅᏙ	-1594
▁ᏙᏱᏗᏢ	-1595
▁ᎠᏂᏍᎦᎾ	-1596
▁ᎢᎬᏁᎸᎯ	-1597
▁ᎢᏓᏓᏅᏟ	-1598
▁ᎤᎦᎵᏍᏗ	-1599
▁ᎾᏍᎦᏅᎾ	-1600
▁ᏂᎦᏪᏍᎬ	-1601
▁ᏂᏚᏪᏎᎴ	-1602
▁ᎠᏂᎦᏔᎲᎢ	-1603
▁ᎬᏩᏍᏓᏩᏛ	-1604
▁ᏅᏓᏳᎶᏒᎯ	-1605
ᎯᎠ	-1606
ᎵᏒ	-1607
ᏑᎴ	-1608
ᏛᏓ	-1609
ᏨᏃ	-1610
ᏪᏐ	-1611
ᏱᏃ	-1612
▁Ꮺ	-1613
ᎶᏒᎩ	-1614
ᏁᎸᎭ	-1615
ᏘᏃᎮ	-1616
▁ᎢᏅ	-1617
▁ᎤᎧ	-1618
▁ᎮᎾ	-1619
▁ᏕᎩ	-1620
▁ᏙᏧ	-1621
▁ᏩᎦ	-1622
▁ᏭᎾ	-1623
▁ᏯᏂ	-1624
ᎧᎿᏩᏛ	-1625
ᎪᏩᏘᎭ	-1626
ᎸᏉᏙᏗ	-1627
ᏢᏔᏅᏛ	-1628
ᏬᏂᏍᎬ	-1629
▁ᎠᏓᏰ	-1630
▁ᎢᏯᏆ	-1631
▁ᎥᏓᎵ	-1632
▁ᏉᎳᏃ	-1633
▁ᏐᏈᎵ	-1634
▁ᏗᏓᏬ	-1635
▁ᏭᎷᏤ	-1636
▁ᎢᎩᏙᏓ	-1637
▁ᎤᎵᎮᎵ	-1638
▁ᎪᏪᎵᎯ	-1639
▁ᎬᏬᎯᏳ	-1640
▁ᎾᏎᎵᏗ	-1641
▁ᏓᏆᏙᎥ	-1642
▁ᏧᏂᏢᎩ	-1643
▁ᎠᏆᏤᎵᎦ	-1644
▁ᎢᏨᎨᏳᎢ	-1645
▁ᎢᏨᏲᏎᎭ	-1646
▁ᎤᎵᏍᏈᏗ	-1647
▁ᎾᎩᏪᏎᎸᎩ	-1648
▁ᏅᏓᏳᎵᏍᏙ	-1649
▁ᏗᎨᎦᏁᎶᏗ	-1650
▁ᎢᏳᎾᎵᏍᏓᏁᏗ	-1651
ᎥᏏ	-1652
ᎨᏂ	-1653
ᎪᎮ	-1654
ᎶᎻ	-1655
ᏂᏒ	-1656
ᏨᎢ	-1657
ᎥᏍᎬ	-1658
ᏂᏍᎬ	-1659
ᏔᏲᎯ	-1660
ᏕᏲᏗ	-1661
ᏞᏍᏗ	-1662
▁ᎣᎬ	-1663
▁ᎪᏢ	-1664
▁ᎯᏯ	-1665
▁ᏅᎦ	-1666
▁ᏐᎳ	-1667
▁ᏓᏲ	-1668
▁ᏗᎹ	-1669
▁ᏥᏨ	-1670
▁ᏫᎬ	-1671
ᎦᏅᎯᏛ	-1672
ᎨᏳᎢᏳ	-1673
ᎾᏝᎥᎾ	-1674
ᏌᎳᏓᏅ	-1675
ᏑᎶᏨᎯ	-1676
ᏛᏁᎲᎢ	-1677
ᏩᏛᏗᏱ	-1678
▁ᎠᏂᏃ	-1679
▁ᎠᏗᎭ	-1680
▁ᎤᏍᎦ	-1681
▁ᏅᏲᎯ	-1682
▁ᏕᎨᎦ	-1683
▁ᏤᎦᏈ	-1684
▁ᏥᎨᏎ	-1685
▁ᏧᏓᎴ	-1686
▁ᏱᏂᎦ	-1687
ᎾᏛᎿᏕᎩ	-1688
ᏟᎶᏍᏓᏁ	-1689
▁ᎠᏂᎪᎢ	-1690
▁ᎠᏂᏙᎾ	-1691
▁ᎡᎯᏍᏗ	-1692
▁ᎢᏥᏈᏱ	-1693
▁ᎢᏥᏙᏓ	-1694
▁ᎤᎵᏏᎬ	-1695
▁ᎤᏠᏱᏉ	-1696
▁ᏂᎦᎥᏉ	-1697
▁ᎠᏆᏓᏅᏙ	-1698
▁ᎢᏯᏛᏁᎯ	-1699
▁ᎤᏕᏯᏙᏗ	-1700
▁ᏄᎵᏍᏔᏁ	-1701
▁ᎢᏳᎾᏛᏁᏗ	-1702
▁ᎠᏥᏅᏏᏓᏍᏗ	-1703
▁ᎢᏳᏩᏂᏐᏗᏱ	-1704
▁ᏧᎸᏫᏍᏓᏁᎯ	-1705
ᎦᎶ	-1706
ᎸᎾ	-1707
ᏚᎪ	-1708
ᎨᏳᎭ	-1709
ᏁᎰᎢ	-1710
ᏅᏓᏗ	-1711
ᏍᏗᏉ	-1712
ᏩᏒᎩ	-1713
▁ᎨᎳ	-1714
▁ᏄᏓ	-1715
▁ᏕᎭ	-1716
▁ᏙᎩ	-1717
▁ᏚᎴ	-1718
▁ᏚᏬ	-1719
▁ᏛᏂ	-1720
▁ᏥᎬ	-1721
▁ᏦᏥ	-1722
▁ᏴᎬ	-1723
ᎳᏍᏓᎸ	-1724
ᏍᏆᎸᎲ	-1725
ᏍᏗᏍᎬ	-1726
▁ᎠᏍᏚ	-1727
▁ᎠᏲᎩ	-1728
▁ᎦᎬᏩ	-1729
▁ᏂᏙᏓ	-1730
▁ᏐᎢᏃ	-1731
▁ᏗᎨᏫ	-1732
▁ᏚᎴᏅ	-1733
▁ᎠᎦᏔᎲ	-1734
▁ᎠᎵᏥᏙ	-1735
▁ᎠᏍᎦᎾ	-1736
▁ᎠᏙᎴᎰ	-1737
▁ᎤᏬᏰᏂ	-1738
▁ᎦᏍᎩᎸ	-1739
ᎩᎵᏲᎢᏍᏗ	-1740
ᏓᏂᎸᎢᏍᏗ	-1741
▁ᎢᏣᎵᎮᎵ	-1742
▁ᎧᏃᎯᏰᎩ	-1743
▁ᎾᏍᎩᏯᏉ	-1744
▁ᏚᎾᏓᏅᏛ	-1745
ᏓᏙᎵᏍᏓᏁᎯ	-1746
▁ᎠᏆᏛᎦᏅᎩ	-1747
▁ᎤᏅᏏᏓᏍᏗ	-1748
▁ᎤᎵᏍᏆᏗᏍᏗ	-1749
ᎨᏣ	-1750
ᎩᎸ	-1751
ᎳᏅ	-1752
ᏆᏗ	-1753
ᏠᎠ	-1754
ᎦᎸᏛ	-1755
ᏅᏎᎢ	-1756
ᏌᏅᎯ	-1757
ᏍᏓᏏ	-1758
ᏍᏓᏕ	-1759
ᏏᏙᏂ	-1760
ᏗᏍᎪ	-1761
ᏩᏛᎯ	-1762
ᏩᏛᏗ	-1763
▁ᎢᏕ	-1764
▁ᎢᏲ	-1765
▁ᎾᎬ	-1766
▁ᏗᏗ	-1767
▁ᏙᏛ	-1768
▁ᏫᎤ	-1769
▁ᏱᏕ	-1770
ᎫᏴᎡᏗ	-1771
ᏃᎮᏍᎬ	-1772
▁ᎠᏂᏁ	-1773
▁ᎠᏚᎢ	-1774
▁ᎬᏙᏗ	-1775
▁ᎬᏩᏚ	-1776
▁ᏂᏚᏂ	-1777
▁ᏚᏳᎪ	-1778
▁ᏩᏍᏛ	-1779
ᏍᏓᏁᎸᎯ	-1780
▁ᎠᎾᏛᎩ	-1781
▁ᎤᎬᏫᏳ	-1782
▁ᎪᏪᎸᎢ	-1783
▁ᏧᏂᎾᏫ	-1784
▁ᎢᏦᎯᏳᏒ	-1785
▁ᎢᏯᏛᏁᏗ	-1786
▁ᎯᎠᏍᎩᏂ	-1787
ᎸᏫᏍᏓᏁᎲᎢ	-1788
▁ᏄᏃᎯᏳᏒᎾ	-1789
▁ᏅᏛᎩᏅᏏᏛ	-1790
▁ᏗᎫᎪᏙᏗᏱ	-1791
▁ᎠᎵᏍᏆᏗᏍᎩ	-1792
▁ᎢᏳᎾᏛᎿᏕᎩ	-1793
▁ᏗᎧᎿᏩᏛᏍᏗᏱ	-1794
▁ᏅᏓᏳᎵᏍᏙᏔᏅᎩ	-1795
ᎵᎢ	-1796
ᎶᏒ	-1797
ᏏᎾ	-1798
ᏚᎶ	-1799
ᏥᏌ	-1800
▁Ꮂ	-1801
ᎴᏂᏙ	-1802
ᏁᎲᎾ	-1803
ᏍᏙᎢ	-1804
ᏬᏁᏗ	-1805
▁ᎠᎲ	-1806
▁ᎾᎦ	-1807
▁ᏕᎬ	-1808
▁ᏫᏓ	-1809
▁ᏱᎾ	-1810
ᎲᏍᎬᎩ	-1811
ᏍᎩᏍᎩ	-1812
ᏪᏍᏗᏱ	-1813
▁ᎤᎾᏫ	-1814
▁ᎤᏃᎴ	-1815
▁ᏄᎾᏛ	-1816
▁ᏕᎦᏚ	-1817
▁ᏗᎹᏗ	-1818
▁ᏗᏍᎩ	-1819
▁ᏚᎧᎿ	-1820
▁ᏥᏂᏣ	-1821
▁ᏦᎯᏳ	-1822
ᎦᏘᏗᏍᏗ	-1823
ᎯᏍᏗᏍᎩ	-1824
▁ᎤᏁᏨᎩ	-1825
▁ᎤᏓᏁᏗ	-1826
▁ᎬᏂᏗᏳ	-1827
▁ᎹᏏᏙᏂ	-1828
▁ᎾᏂᎥᏉ	-1829
▁ᏂᎯᏰᏃ	-1830
▁ᏅᏓᏳᎾ	-1831
▁ᏗᏕᏲᏗ	-1832
ᏍᎦᎢᎮᏍᏗ	-1833
ᏓᏂᎸᎨᏍᏗ	-1834
ᏓᏅᏓᏗᏍᏗ	-1835
ᏗᏓᎴᎲᏍᎦ	-1836
▁ᎤᏚᎵᏍᎬ	-1837
▁ᎤᏣᎴᏍᏗ	-1838
▁ᏅᎦᏍᎪᎯ	-1839
▁ᎠᎦᏘᏏᏗᏢ	-1840
▁ᎠᎾᎵᏍᏓᏴ	-1841
▁ᏓᏓᎿᏩᏍᏛ	-1842
▁ᎢᏤᏯᏔᎮᏍᏗ	-1843
▁ᎢᏳᎵᏍᏓᏁᏗ	-1844
▁ᎤᎾᏄᎪᏫᏒᎯ	-1845
▁ᎨᏥᏅᏏᏓᏍᏗ	-1846
▁ᎤᏂᏍᏆᏂᎪᏎᎢ	-1847
,)	-1848
ᎥᎦ	-1849
ᎧᎾ	-1850
ᎪᏗ	-1851
ᎲᏃ	-1852
ᎸᏌ	-1853
ᎾᏉ	-1854
ᏓᏲ	-1855
ᏔᎴ	-1856
ᏙᎭ	-1857
ᏧᎪ	-1858
ᏲᎢ	-1859
▁Ꮅ	-1860
ᎵᏂᎬ	-1861
ᏓᏅᏔ	-1862
ᏓᏡᎬ	-1863
ᏛᎿᏕ	-1864
ᏦᎢᏳ	-1865
ᏪᏐᎸ	-1866
▁ᎡᎮ	-1867
▁ᎡᎲ	-1868
▁ᎡᏏ	-1869
▁ᎤᏤ	-1870
▁ᎤᏮ	-1871
▁ᎧᎳ	-1872
▁ᎬᏬ	-1873
▁ᏞᎦ	-1874
▁ᏣᏃ	-1875
▁ᏧᏙ	-1876
ᏓᏂᎸᏨ	-1877
ᏟᎶᏍᏗ	-1878
ᏲᎲᏍᎩ	-1879
ᏲᎵᎸᎭ	-1880
▁ᎤᏄᏬ	-1881
▁ᎤᏕᎰ	-1882
▁ᎦᏰᏥ	-1883
▁ᏣᏤᎵ	-1884
▁ᏫᏚᏂ	-1885
▁ᏭᏂᏴ	-1886
ᎤᏁᎳᏅᎯ	-1887
ᎨᎳᏍᏗᏱ	-1888
ᏍᎦᎢᎲᎾ	-1889
▁ᎠᎧᎵᎢ	-1890
▁ᎠᏍᎦᏅ	-1891
▁ᎠᏏᏉᏃ	-1892
▁ᎠᏥᎸᏱ	-1893
▁ᎢᎦᎦᏛ	-1894
▁ᎢᏣᏤᎵ	-1895
▁ᎤᏂᏁᏨ	-1896
▁ᎬᏗᏍᎩ	-1897
▁ᏂᏚᎩᏨ	-1898
▁ᏄᎾᏍᏛ	-1899
▁ᏓᎶᏂᎨ	-1900
▁ᏗᎧᏃᎩ	-1901
▁ᎠᏤᎵᏍᏛ	-1902
▁ᎤᏙᎯᏳᏒ	-1903
▁ᏅᏓᎦᎵᏍ	-1904
▁ᏅᏧᎵᏍᏙ	-1905
▁ᏗᏘᏂᏙᎯ	-1906
▁ᎤᎾᏤᎵᎪᎯ	-1907
▁ᏚᎾᏓᏅᏛᎢ	-1908
▁ᎤᏂᏬᏂᎯᏍᏗ	-1909
ᎦᏖ	-1910
ᎨᏗ	-1911
ᎩᎾ	-1912
ᎩᏯ	-1913
ᎯᏯ	-1914
ᎵᏂ	-1915
ᎶᎢ	-1916
ᏂᏳ	-1917
ᏄᎦ	-1918
ᏎᎴ	-1919
ᏕᏒ	-1920
ᏙᎲ	-1921
ᏢᎾ	-1922
ᏢᏆ	-1923
ᎡᎸᎩ	-1924
ᎪᎾᏛ	-1925
ᎾᏫᏛ	-1926
ᏅᏎᏃ	-1927
ᏐᏢᎢ	-1928
ᏓᏡᎩ	-1929
ᏪᏎᎴ	-1930
ᏪᏎᎸ	-1931
ᏲᎱᎯ	-1932
ᏲᎵᎦ	-1933
▁ᎠᏉ	-1934
▁ᎤᏘ	-1935
▁ᎨᏆ	-1936
▁ᏣᎩ	-1937
▁ᏣᏁ	-1938
▁ᏧᎴ	-1939
▁ᏲᏥ	-1940
ᎢᏳᏍᏗ	-1941
ᎯᏍᏗᏳ	-1942
ᎵᏍᏗᎭ	-1943
ᎷᎨᏍᏗ	-1944
ᏔᏲᏎᎴ	-1945
ᏤᎮᏍᏗ	-1946
ᏥᎪᎥᎩ	-1947
▁ᎠᎴᏬ	-1948
▁ᎡᏈᏌ	-1949
▁ᎢᏌᏯ	-1950
▁ᎢᏳᎢ	-1951
▁ᎤᎶᏒ	-1952
▁ᎤᏁᎬ	-1953
▁ᎤᏃᎮ	-1954
▁ᎰᏩᏃ	-1955
▁ᏑᏓᎵ	-1956
▁ᏓᏠᎯ	-1957
▁ᏚᏓᏘ	-1958
▁ᏥᏍᏆ	-1959
▁ᏱᏂᏣ	-1960
ᎷᎯᏍᏗᏱ	-1961
ᏍᏓᏓᏅᏟ	-1962
ᏐᏢᎢᏍᏗ	-1963
▁ᎠᏂᎩᏏ	-1964
▁ᎠᏖᎵᏙ	-1965
▁ᎤᎩᎵᏲ	-1966
▁ᎤᎾᎴᏅ	-1967
▁ᏂᏥᏪᎭ	-1968
▁ᏄᏛᏁᎸ	-1969
▁ᏓᎦᎷᏥ	-1970
▁ᏕᎨᏌᏗ	-1971
▁ᏕᏣᏙᎥ	-1972
▁ᏗᏥᎾᏫ	-1973
▁ᏗᏰᎸᎯ	-1974
▁ᏨᏍᎩᏃ	-1975
▁ᎠᏏᏴᏫᏃ	-1976
▁ᎢᏗᎦᏔᎭ	-1977
▁ᎢᏳᏓᎴᎩ	-1978
▁ᎣᏣᎵᏅᏟ	-1979
▁ᎤᎾᏓᏅᏖ	-1980
▁ᏗᎴᎯᏐᏗ	-1981
ᎦᏙᎥᎯᏍᏗᏱ	-1982
▁ᎤᎵᎮᎵᏍᏗ	-1983
▁ᏂᎦᏪᏍᎨᎢ	-1984
▁ᎠᏍᎦᏅᎢᏍᏗ	-1985
▁ᏄᎬᏫᏳᏌᏕᎩ	-1986
▁ᎢᏳᎾᎵᏍᏙᏗᏱ	-1987
▁ᏚᎸᏫᏍᏓᏁᎲᎢ	-1988
ᎮᏃ	-1989
ᎳᎨ	-1990
ᎵᎦ	-1991
ᎷᎦ	-1992
ᎷᎯ	-1993
ᏁᎳ	-1994
ᏅᏙ	-1995
ᏲᎭ	-1996
ᎷᏤᎸ	-1997
ᎸᏌᏛ	-1998
ᎿᎢᏳ	-1999
ᏂᎬᏎ	-2000
ᏅᎦᎸ	-2001
ᏢᏗᏱ	-2002
▁ᎢᏰ	-2003
▁ᎬᏆ	-2004
▁ᏓᏣ	-2005
▁ᏚᎳ	-2006
ᎯᏍᏗᎭ	-2007
ᎵᏍᏗᏱ	-2008
ᏍᏔᏅᎢ	-2009
ᏓᏅᏖᏗ	-2010
ᏛᏐᏅᎯ	-2011
▁ᎤᏁᎫ	-2012
▁ᎤᏂᏁ	-2013
▁ᎤᏂᏅ	-2014
▁ᎤᏚᎢ	-2015
▁ᎤᏪᏘ	-2016
▁ᎤᏰᎯ	-2017
▁ᎪᏪᎸ	-2018
▁ᎬᏩᏃ	-2019
▁ᏂᏗᎥ	-2020
▁ᏌᎺᎵ	-2021
▁ᏧᏁᏤ	-2022
ᎦᎵᏍᎪᎸ	-2023
ᎸᏉᏙᏗᏱ	-2024
ᏍᏓᏁᏗᏱ	-2025
ᏍᏓᏩᏕᎩ	-2026
▁ᎠᎵᎮᎵ	-2027
▁ᎠᏉᎯᏳ	-2028
▁ᎠᏍᎪᎵ	-2029
▁ᎤᏁᏨᏃ	-2030
▁ᏄᎾᏛᏁ	-2031
▁ᏗᎦᏙᎵ	-2032
▁ᏗᎨᏒᎢ	-2033
▁ᏧᎾᏍᏗ	-2034
▁ᏭᎶᏎᎢ	-2035
▁ᎠᏂᎦᏔᎲ	-2036
▁ᎤᏩᏒᎯᏳ	-2037
▁ᎬᏩᏚᏫᏛ	-2038
▁ᏑᎾᏓᏡᎩ	-2039
▁ᎠᏓᏙᎵᏍᏗ	-2040
▁ᎤᎷᎯᏍᏗᏱ	-2041
▁ᎤᎾᏓᏡᎬᎢ	-2042
▁ᎤᏂᏍᎦᏅᏨ	-2043
▁ᎦᏬᏂᎯᏍᏗ	-2044
▁ᏗᏓᎴᏂᏍᎬ	-2045
▁ᎠᎵᏍᏕᎸᏙᏗ	-2046
▁ᏨᏗᏓᎴᎲᏍᎦ	-2047
▁ᏄᏂᎬᏫᏳᏌᏕᎩ	-2048
ᎠᎴ	-2049
ᎲᎯ	-2050
ᎵᏅ	-2051
ᎵᏌ	-2052
ᏁᎩ	-2053
ᏂᏌ	-2054
ᏃᏴ	-2055
ᏅᎵ	-2056
ᏅᏩ	-2057
ᏒᎸ	-2058
ᏓᏱ	-2059
ᏟᏏ	-2060
ᏤᏗ	-2061
ᎪᏙᏗ	-2062
ᎷᏤᎵ	-2063
ᎸᏉᏓ	-2064
ᏁᏤᎭ	-2065
ᏓᎵᏓ	-2066
ᏔᏅᎾ	-2067
ᏕᏗᏱ	-2068
ᏙᎸᎯ	-2069
ᏛᎩᎭ	-2070
ᏛᏅᎩ	-2071
ᏤᏗᏱ	-2072
▁ᎠᎱ	-2073
▁ᎠᏟ	-2074
▁ᎠᏠ	-2075
▁ᎣᎵ	-2076
▁ᏍᏆ	-2077
▁ᏏᏆ	-2078
▁ᏗᎤ	-2079
▁ᏚᎵ	-2080
▁ᏫᏣ	-2081
ᎴᎯᏌᏅ	-2082
ᎵᏂᎩᏛ	-2083
ᏓᏁᎸᎩ	-2084
ᏙᎵᏍᏗ	-2085
ᏛᏁᎸᎯ	-2086
ᏯᏅᏓᏗ	-2087
▁ᎠᏏᎾ	-2088
▁ᎠᏓᏙ	-2089
▁ᎡᏏᎩ	-2090
▁ᎡᏏᏱ	-2091
▁ᎣᏓᎸ	-2092
▁ᎤᎾᏣ	-2093
▁ᎤᏁᎢ	-2094
▁ᎦᏙᎨ	-2095
▁ᎦᏚᎢ	-2096
▁ᏓᎬᏩ	-2097
▁ᏓᏰᏥ	-2098
▁ᏥᏓᏂ	-2099
▁ᏱᎬᏩ	-2100
▁ᏱᏂᎬ	-2101
ᎳᏗᏍᏗᏱ	-2102
ᎵᏍᏔᏁᎢ	-2103
▁ᎤᏂᏁᎫ	-2104
▁ᎤᏣᏘᏃ	-2105
▁ᎦᎵᏦᏕ	-2106
▁ᎧᏁᎬᎢ	-2107
▁ᎪᎯᏗᏳ	-2108
ᎳᏗᏙᎮᏍᏗ	-2109
ᏚᏓᎴᏍᏙᏗ	-2110
▁ᎠᎾᎵᎮᎵ	-2111
▁ᎠᏂᏍᎦᎢ	-2112
▁ᎢᎦᏤᎵᎦ	-2113
▁ᎤᎾᏁᎳᎩ	-2114
▁ᎤᏂᏣᏛᎩ	-2115
▁ᎤᏍᎦᏅᏨ	-2116
▁ᎪᎯᏍᎩᏂ	-2117
▁ᏚᏳᎪᏛᎢ	-2118
▁ᏣᏁᎳᏅᎯ	-2119
▁ᎢᏥᏏᏴᏫᎭ	-2120
▁ᎢᏨᏰᎳᏗᏙ	-2121
▁ᎤᏂᎯᏍᏗᏱ	-2122
▁ᎪᎯᏳᎲᏍᎩ	-2123
▁ᏄᎵᏍᏔᏅᎢ	-2124
▁ᏓᏁᏩᏗᏒᎢ	-2125
▁ᏗᎩᎦᏴᎵᎨ	-2126
▁ᏗᎪᏢᏔᏅᎯ	-2127
▁ᎠᏓᏅᏓᏗᏍᏗ	-2128
▁ᎢᏣᎵᏍᏙᏗᏱ	-2129
▁ᎢᏨᏗᏍᎨᏍᏗ	-2130
▁ᏄᎵᏍᏔᏂᏙᎸ	-2131
▁ᏅᏗᎦᎵᏍᏙᏗᏍᎪ	-2132
▁ᏧᏂᎸᏫᏍᏓᏁᏗᏱ	-2133
▁ᏱᏅᏗᎦᎵᏍᏙᏗᎭ	-2134
ᎦᎾ	-2135
ᎧᎭ	-2136
ᎴᎣ	-2137
ᎴᎩ	-2138
ᏃᎵ	-2139
ᏏᏃ	-2140
ᏓᏥ	-2141
ᏗᏫ	-2142
ᏚᏏ	-2143
ᏬᎯ	-2144
ᎡᎴᎢ	-2145
ᎦᏔᎮ	-2146
ᎦᏪᏎ	-2147
ᎪᎯᏳ	-2148
ᎬᎭᎷ	-2149
ᎳᏫᏎ	-2150
ᎾᏍᏗ	-2151
ᏑᎵᎪ	-2152
ᏒᎯᏛ	-2153
ᏓᏅᏘ	-2154
ᏙᎲᎩ	-2155
ᏩᏕᎩ	-2156
ᏪᎵᎩ	-2157
ᏫᏒᎢ	-2158
ᏯᏔᏁ	-2159
ᏰᎸᏅ	-2160
▁ᎠᏨ	-2161
▁ᎡᎵ	-2162
▁ᎡᏓ	-2163
▁ᎢᎠ	-2164
▁ᎾᏅ	-2165
▁ᏅᏗ	-2166
▁ᏓᏅ	-2167
▁ᏓᏨ	-2168
▁ᏳᎾ	-2169
ᎳᎨᏯᏛ	-2170
ᎾᏄᎪᏥ	-2171
▁ᎠᏂᏂ	-2172
▁ᎠᏂᏫ	-2173
▁ᎢᏣᏛ	-2174
▁ᎣᎵᏩ	-2175
▁ᎤᏂᎬ	-2176
▁ᎤᏪᎧ	-2177
▁ᎦᎾᏰ	-2178
▁ᏂᏥᏪ	-2179
▁ᏗᏣᏓ	-2180
▁ᏙᏓᎦ	-2181
ᎾᏰᏍᎬᎾ	-2182
ᏍᏆᏂᎪᏗ	-2183
ᏔᏲᏎᎸᎩ	-2184
ᏠᎾᏍᏛᎾ	-2185
ᏲᎱᎯᏍᏗ	-2186
▁ᎠᎩᎵᏯ	-2187
▁ᎢᎦᎦᏘ	-2188
▁ᎢᏯᏍᏗ	-2189
▁ᎤᏂᏄᎪ	-2190
▁ᎤᏚᎸᏗ	-2191
▁ᏂᏚᎾᏓ	-2192
▁ᏄᏜᏏᏛ	-2193
▁ᏆᎴᏗᏃ	-2194
▁ᏌᎺᎵᏱ	-2195
▁ᏗᏆᏤᎵ	-2196
▁ᏧᏒᎯᏛ	-2197
▁ᏱᎨᏐᎢ	-2198
▁ᏱᏄᏍᏗ	-2199
ᏯᏫᏍᎨᏍᏗ	-2200
▁ᎠᎾᏓᏅᏟ	-2201
▁ᎠᏍᏓᏱᏳ	-2202
▁ᎢᏣᎵᏅᏟ	-2203
▁ᎤᎷᎯᏍᏗ	-2204
▁ᎤᏂᏃᏕᎾ	-2205
▁ᎦᎾᏄᎪᏫ	-2206
▁ᎬᏩᏟᏍᏗ	-2207
▁ᏗᏣᏓᏅᏙ	-2208
▁ᏧᎳᏏᏕᏂ	-2209
▁ᏧᎾᏄᎪᏫ	-2210
ᎪᏩᏘᏍᎨᏍᏗ	-2211
ᏍᏆᏂᎪᏙᏗᏱ	-2212
▁ᎠᏂᎳᏍᏓᎸ	-2213
▁ᎢᏳᏩᏁᏗᏱ	-2214
▁ᎤᎾᎵᏍᏓᏴ	-2215
▁ᎤᎾᏓᏤᎵᏛ	-2216
▁ᏗᏓᏘᏂᏙᎯ	-2217
▁ᏚᏟᎶᏍᏓᏁ	-2218
▁ᎠᏥᎦᏘᏗᏍᏗ	-2219
▁ᎤᏚᎵᏍᎨᏍᏗ	-2220
▁ᏂᎬᏩᏪᏎᎸᎩ	-2221
▁ᏗᏟᎶᏍᏔᏅᎯ	-2222
.]	-2223
ᎣᎩ	-2224
ᏁᎦ	-2225
ᏁᏥ	-2226
ᏗᏏ	-2227
ᏙᎦ	-2228
ᎡᎸᎯ	-2229
ᎢᏒᎢ	-2230
ᎦᏯᎷ	-2231
ᎨᏳᏒ	-2232
ᎫᏓᎴ	-2233
ᎬᏁᏗ	-2234
ᎵᏍᎬ	-2235
ᏁᎸᎾ	-2236
ᏖᏍᏗ	-2237
ᏗᎦᎴ	-2238
ᏩᏁᎸ	-2239
ᏲᏍᏗ	-2240
ᏲᏍᏙ	-2241
▁ᎢᎡ	-2242
▁ᎢᏦ	-2243
▁ᎦᎫ	-2244
▁ᎦᎾ	-2245
▁ᏚᏙ	-2246
▁ᏣᏔ	-2247
▁ᏩᎩ	-2248
▁ᏩᏂ	-2249
ᎡᎮᏍᏗ	-2250
ᎷᎩᏍᎩ	-2251
ᎾᏛᏁᎯ	-2252
ᏁᏤᎸᎯ	-2253
ᏂᎶᏒᎯ	-2254
ᏍᎦᏅᏤ	-2255
ᏍᏆᎸᎯ	-2256
ᏍᏓᏁᎸ	-2257
ᏍᏓᏁᏗ	-2258
ᏓᎵᏁᎯ	-2259
ᏕᎨᏍᏗ	-2260
ᏗᏍᎨᎢ	-2261
ᏛᏁᎰᎢ	-2262
ᏪᎳᏅᎯ	-2263
▁ᎠᏂᏅ	-2264
▁ᎡᎲᎢ	-2265
▁ᎢᏣᏅ	-2266
▁ᎢᏨᏃ	-2267
▁ᎤᎾᏰ	-2268
▁ᎤᏬᎯ	-2269
▁ᎦᎸᎳ	-2270
▁ᎪᏪᎳ	-2271
▁ᏍᎩᏂ	-2272
▁ᏓᎿᏩ	-2273
▁ᏕᎤᎴ	-2274
▁ᏗᎾᏓ	-2275
▁ᏗᏄᏬ	-2276
▁ᏙᎴᏛ	-2277
▁ᏙᏛᎾ	-2278
▁ᏣᏂᏃ	-2279
▁ᏥᎪᎨ	-2280
▁ᏧᏁᏥ	-2281
▁ᏫᎨᏥ	-2282
ᎥᏍᎨᏍᏗ	-2283
ᎪᎵᏰᏗᏱ	-2284
ᏲᎯᏎᎸᎩ	-2285
▁ᎠᏠᏁᏗ	-2286
▁ᎢᎦᏪᏛ	-2287
▁ᎢᎾᎨᎢ	-2288
▁ᎤᎵᏰᎢ	-2289
▁ᎤᎾᏫᏱ	-2290
▁ᎤᏁᏨᎯ	-2291
▁ᎤᏅᏒᏉ	-2292
▁ᎥᏞᏍᏗ	-2293
▁ᎦᏩᏒᎩ	-2294
▁ᏑᏓᎴᎩ	-2295
▁ᏓᏂᎳᏫ	-2296
▁ᏗᏂᎨᏫ	-2297
▁ᏚᏂᎳᏫ	-2298
▁ᏣᏤᎵᎦ	-2299
ᎸᏫᏍᏓᏁᎸ	-2300
ᏓᎵᏓᏍᏛᎾ	-2301
▁ᎠᎫᏴᏙᏗ	-2302
▁ᎢᏣᏤᎵᎦ	-2303
▁ᎤᎩᏨᏛᏃ	-2304
▁ᎤᏣᏘᏰᏃ	-2305
▁ᎧᎳᏩᏗᏒ	-2306
▁ᏗᏂᎦᏙᎵ	-2307
▁ᏥᏄᏪᏎᎢ	-2308
▁ᎤᏁᏢᏔᏅᏛ	-2309
;]	-2310
ᎶᏏ	-2311
ᎶᏐ	-2312
ᏁᎮ	-2313
ᏅᏬ	-2314
ᏉᏗ	-2315
ᏌᎯ	-2316
ᏐᏴ	-2317
ᏓᏆ	-2318
ᏓᏏ	-2319
ᏣᏅ	-2320
ᏤᏃ	-2321
ᏯᏃ	-2322
ᏱᎳ	-2323
ᏲᎩ	-2324
ᎦᏘᏏ	-2325
ᎬᏁᎵ	-2326
ᎵᏙᎯ	-2327
ᎹᏍᎦ	-2328
ᏍᎦᎳ	-2329
ᏍᏕᎢ	-2330
ᏏᏍᎩ	-2331
ᏓᏁᎭ	-2332
ᏓᏂᏱ	-2333
ᏜᏅᏛ	-2334
ᏰᎸᏗ	-2335
ᏳᎶᏗ	-2336
▁ᎥᏘ	-2337
▁ᎥᏣ	-2338
▁ᎨᎪ	-2339
▁ᏏᎵ	-2340
▁ᏕᏡ	-2341
▁ᏙᏥ	-2342
▁ᏫᏙ	-2343
▁ᏴᎨ	-2344
ᎧᎿᏩᏕ	-2345
ᎬᏍᎪᎸ	-2346
ᎵᏍᎬᎢ	-2347
ᎵᏍᏓᏏ	-2348
ᎵᏍᏔᏂ	-2349
ᏂᏴᏗᏱ	-2350
ᏍᏗᏕᎩ	-2351
▁ᎠᎪᏄ	-2352
▁ᎠᏂᏌ	-2353
▁ᎠᏧᏏ	-2354
▁ᎢᎬᏒ	-2355
▁ᎢᎳᎪ	-2356
▁ᎢᏳᏪ	-2357
▁ᎤᎾᏝ	-2358
▁ᎤᏂᏇ	-2359
▁ᎦᏛᎬ	-2360
▁ᎨᏆᏂ	-2361
▁ᎬᏩᏛ	-2362
▁ᏂᏚᎾ	-2363
▁ᏓᏯᎢ	-2364
▁ᏕᎪᏢ	-2365
▁ᏚᏰᎵ	-2366
▁ᏱᏗᏣ	-2367
ᎪᎵᏰᏍᎩ	-2368
ᏍᏗᏰᏗᎭ	-2369
ᏚᎵᏍᎬᎾ	-2370
ᏛᏅᎢᏍᏗ	-2371
ᏲᎯᏎᏗᏱ	-2372
▁ᎤᎩᏨᏛ	-2373
▁ᎤᎵᏁᏨ	-2374
▁ᎤᎵᏏᎩ	-2375
▁ᎤᎾᏛᎦ	-2376
▁ᎤᏂᎩᎬ	-2377
▁ᎤᏍᏚᎢ	-2378
▁ᎤᏓᏙᎵ	-2379
▁ᏂᏥᎥᎢ	-2380
▁ᏏᏌᎵᏱ	-2381
▁ᏗᎦᏚᎲ	-2382
▁ᏗᏂᏏᏗ	-2383
ᎳᎨᏯᏛᏤᎢ	-2384
ᎵᏍᎪᎸᏙᏗ	-2385
▁ᎠᎵᏍᏓᏴ	-2386
▁ᎤᏍᏆᎸᎯ	-2387
▁ᎤᏍᏆᎸᎲ	-2388
▁ᎤᏓᏅᏘᏳ	-2389
▁ᎪᏢᏔᏅᎯ	-2390
▁ᏧᏕᏘᏴᏛ	-2391
▁ᎠᎱᏍᏕᏍᏗ	-2392
▁ᎢᏯᎾᏛᏁᎯ	-2393
▁ᎢᏳᏅᏁᏗᏱ	-2394
▁ᎤᎾᏙᎴᎰᏒ	-2395
▁ᎤᎾᏠᎾᏍᏗ	-2396
▁ᎤᏁᎳᏅᎯᏱ	-2397
▁ᎤᏂᏴᏍᏗᏱ	-2398
▁ᎤᏕᎰᎯᏍᏗ	-2399
▁ᎾᏛᏁᎮᏍᏗ	-2400
▁ᏧᎾᏛᏐᏅᎯ	-2401
ᎧᎿᏩᏗᏙᎮᏍᏗ	-2402
ᎵᏍᎪᎸᏓᏁᎸᎯ	-2403
▁ᎠᎾᏓᏙᎵᏍᏗ	-2404
▁ᏄᏓᎵᏓᏍᏛᎾ	-2405
▁ᎬᏩᏍᏓᏩᏛᏎᎢ	-2406
▁ᏕᏥᎸᏫᏍᏓᏁᎲ	-2407
▁ᎢᏣᏓᏙᎵᏍᏗᏍᎨᏍᏗ	-2408
ᎢᏒ	-2409
ᎵᎹ	-2410
ᎶᎸ	-2411
ᎶᏎ	-2412
ᎷᎶ	-2413
ᏅᏅ	-2414
ᏇᎵ	-2415
ᏍᏋ	-2416
ᏩᏒ	-2417
ᏪᎸ	-2418
ᏴᎭ	-2419
▁Ꮦ	-2420
ᎳᏏᎳ	-2421
ᎷᏤᎢ	-2422
ᎷᏥᎸ	-2423
ᎾᎥᎢ	-2424
ᏁᎲᎩ	-2425
ᏄᎪᎢ	-2426
ᏍᎦᏂ	-2427
ᏍᎩᎸ	-2428
ᏍᏛᎩ	-2429
ᏎᎰᎢ	-2430
ᏓᏁᎵ	-2431
ᏗᏍᎨ	-2432
ᏫᏍᏗ	-2433
ᏯᎥᎢ	-2434
▁ᎠᏙ	-2435
▁ᎡᎦ	-2436
▁ᎡᏂ	-2437
▁ᎡᏘ	-2438
▁ᎣᎨ	-2439
▁ᎣᏤ	-2440
▁ᎪᎩ	-2441
▁ᎫᎫ	-2442
▁ᎹᏗ	-2443
▁ᎾᎾ	-2444
▁ᏗᏑ	-2445
▁ᏤᎵ	-2446
▁ᏩᏛ	-2447
▁ᏮᏓ	-2448
▁ᏰᎭ	-2449
ᎧᎵᏨᎯ	-2450
ᎵᏍᏆᏗ	-2451
ᎵᏍᏔᏁ	-2452
ᎷᎯᏍᏗ	-2453
ᎸᏉᏗᎭ	-2454
ᏩᏛᎲᎩ	-2455
ᏪᏍᎬᎩ	-2456
▁ᎠᎩᏏ	-2457
▁ᎠᏁᎭ	-2458
▁ᎠᏍᏆ	-2459
▁ᎢᏤᎯ	-2460
▁ᎤᏬᏂ	-2461
▁ᎤᏬᏚ	-2462
▁ᎦᎨᏥ	-2463
▁ᎦᏁᎳ	-2464
▁ᎳᏏᎳ	-2465
▁ᏅᏃᎯ	-2466
▁ᏅᏓᎦ	-2467
▁ᏌᏱᎳ	-2468
▁ᏓᏟᎶ	-2469
▁ᏗᏤᏥ	-2470
▁ᏥᏂᏥ	-2471
▁ᏥᏕᏣ	-2472
▁ᏦᏓᏂ	-2473
▁ᏱᏙᎦ	-2474
ᎵᏍᎨᏍᏗ	-2475
ᎵᏍᏔᏅᎩ	-2476
ᎸᏉᏕᏍᏗ	-2477
ᎸᏫᏍᏓᏏ	-2478
ᏍᏓᏩᏚᎦ	-2479
ᏓᎵᏓᏍᏗ	-2480
ᏓᏁᎮᏍᏗ	-2481
ᏲᎯᏍᏗᏱ	-2482
ᏲᎯᏎᎸᎯ	-2483
▁ᎠᏁᏙᎯ	-2484
▁ᎡᏉᎯᏳ	-2485
▁ᎢᏯᏅᏙ	-2486
▁ᎤᎦᏔᎲ	-2487
▁ᎤᎾᎵᎪ	-2488
▁ᎤᏁᏨᎢ	-2489
▁ᎤᏂᏍᎦ	-2490
▁ᎤᏟᏰᏃ	-2491
▁ᎾᏍᏉᏃ	-2492
▁ᏂᎦᏥᏴ	-2493
▁ᏄᏍᏛᎢ	-2494
▁ᏌᏩᏂᏃ	-2495
▁ᏕᎹᏍᎦ	-2496
▁ᏗᏥᏲᎵ	-2497
▁ᏚᎳᏍᎬ	-2498
▁ᏚᏳᎪᏗ	-2499
▁ᏥᎨᏳᎢ	-2500
▁ᏥᏁᎬᎢ	-2501
▁ᏦᎢᏁᏃ	-2502
▁ᏩᏛᎬᎦ	-2503
ᎧᎿᏩᏛᏍᏗ	-2504
▁ᎠᎵᏍᏚᎶ	-2505
▁ᎠᎾᎵᏥᏙ	-2506
▁ᎤᏁᎫᏥᏛ	-2507
▁ᎤᏓᏅᏒᎩ	-2508
▁ᎤᏲᎱᏒᎢ	-2509
▁ᎦᎸᎳᏗᏳ	-2510
▁ᎦᏍᎩᎸᎢ	-2511
▁ᎬᏗᏍᎬᎢ	-2512
▁ᏂᏣᏛᏁᎸ	-2513
▁ᏄᎵᏍᏓᏁ	-2514
▁ᏍᎩᏃᎲᏏ	-2515
▁ᏗᎫᎪᏙᏗ	-2516
▁ᎠᏂᎩᏏᏙᎯ	-2517
▁ᎤᏁᎳᏅᎯᏃ	-2518
▁ᎤᏙᎯᏳᏗᏱ	-2519
▁ᎤᏪᎵᎯᏍᏗ	-2520
▁ᎬᏩᎷᏤᎸᎩ	-2521
▁ᎾᏂᏪᏍᎬᎩ	-2522
▁ᏄᎾᎵᏍᏓᏁ	-2523
▁ᏄᏜᏏᏛᏒᎾ	-2524
▁ᏓᎾᎵᏍᏓᏴ	-2525
▁ᎠᎩᎵᏲᎢᏍᏗ	-2526
▁ᎠᏥᎸᎠᏁᎶᎯ	-2527
▁ᎢᎩᏍᏕᎵᏍᎩ	-2528
▁ᎢᎬᏩᎵᏍᏙᏗ	-2529
▁ᎤᏂᏍᎦᏅᏨᎯ	-2530
▁ᎤᏍᏆᏂᎪᏗᏳ	-2531
▁ᏅᏧᎵᏍᏙᏔᏅ	-2532
▁ᎠᎵᏍᎪᎸᏔᏅᎯ	-2533
▁ᏗᎧᎿᏩᏗᏙᎯᏃ	-2534
▁ᏗᎨᏥᎤᏍᏕᏎᎸᎯ	-2535
ᎡᎭ	-2536
ᎫᏗ	-2537
ᎯᏃ	-2538
ᎵᏓ	-2539
ᎸᏛ	-2540
ᎾᏌ	-2541
ᏂᏱ	-2542
ᏅᎦ	-2543
ᏎᎮ	-2544
ᏨᏯ	-2545
ᏩᎯ	-2546
ᎪᎲᎯ	-2547
ᎳᏅᏛ	-2548
ᎸᎩᏃ	-2549
ᎿᏍᏕ	-2550
ᏂᎬᎬ	-2551
ᏅᏍᏗ	-2552
ᏍᎦᎾ	-2553
ᏐᏅᎢ	-2554
ᏓᎴᏅ	-2555
ᏓᏁᎯ	-2556
ᏕᏘᏴ	-2557
ᏙᎴᎢ	-2558
ᏚᏓᏕ	-2559
ᏱᎵᏙ	-2560
ᏲᎵᎭ	-2561
▁ᎠᏚ	-2562
▁ᎦᏂ	-2563
▁ᎾᏓ	-2564
▁ᏚᏁ	-2565
▁ᏚᏲ	-2566
▁ᏛᎾ	-2567
▁ᏦᎦ	-2568
▁ᏦᎾ	-2569
▁ᏧᎵ	-2570
▁ᏨᏓ	-2571
▁ᏱᏫ	-2572
▁ᏲᎩ	-2573
ᎵᏂᎪᎯ	-2574
ᎵᏍᎬᎾ	-2575
ᎸᏉᏔᏁ	-2576
ᏅᏍᏓᏕ	-2577
ᏓᎪᎾᏛ	-2578
ᏓᎶᏂᎨ	-2579
ᏕᏯᏙᏗ	-2580
ᏣᏪᏐᎸ	-2581
ᏯᏅᎲᎩ	-2582
ᏴᏍᏗᏱ	-2583
▁ᎠᏓᏅ	-2584
▁ᎠᏓᏲ	-2585
▁ᎠᏔᎴ	-2586
▁ᎢᏍᎩ	-2587
▁ᎢᏣᎵ	-2588
▁ᎢᏧᏩ	-2589
▁ᎢᏳᏂ	-2590
▁ᎤᎦᎾ	-2591
▁ᎤᎾᏅ	-2592
▁ᎤᏌᎯ	-2593
▁ᎤᏛᎦ	-2594
▁ᎤᏬᎵ	-2595
▁ᎦᎨᏛ	-2596
▁ᎧᏁᏉ	-2597
▁ᎬᏅᎢ	-2598
▁ᎭᏓᏅ	-2599
▁ᏂᎨᏥ	-2600
▁ᏓᏂᏴ	-2601
▁ᏕᎫᎪ	-2602
▁ᏗᎦᏓ	-2603
▁ᏙᎯᏱ	-2604
▁ᏙᏓᏥ	-2605
▁ᏞᎩᏳ	-2606
▁ᏣᏔᎦ	-2607
▁ᏱᏚᏂ	-2608
ᎦᎵᏍᏓᏗ	-2609
ᏓᏂᎸᏨᎯ	-2610
ᏓᏂᏱᏍᎩ	-2611
ᏕᏍᏗᏍᎩ	-2612
▁ᎠᎩᏁᏨ	-2613
▁ᎠᏋᏒᏉ	-2614
▁ᎠᏓᏁᏗ	-2615
▁ᎡᏦᎢᏳ	-2616
▁ᎢᎬᏁᎯ	-2617
▁ᎢᎬᏁᏗ	-2618
▁ᎤᎾᏓᏙ	-2619
▁ᎤᏂᎷᏨ	-2620
▁ᎤᏂᏣᏔ	-2621
▁ᎤᏇᏓᎸ	-2622
▁ᎤᏛᏁᎢ	-2623
▁ᎤᏛᏛᏁ	-2624
▁ᎾᏂᎥᎢ	-2625
▁ᎾᏂᎥᏃ	-2626
▁ᏧᎾᏤᎵ	-2627
▁ᏧᏃᏰᏂ	-2628
▁ᏭᎶᏒᎩ	-2629
ᎵᏍᎦᏍᏙᏗ	-2630
▁ᎠᏂᎪᏩᏘ	-2631
▁ᎠᏂᏌᏚᏏ	-2632
▁ᎠᏅᏗᏍᎬ	-2633
▁ᎠᏆᏚᎵᎭ	-2634
▁ᎠᏥᎸᏉᏗ	-2635
▁ᎠᏨᏍᏙᏗ	-2636
▁ᎢᏣᏓᏅᏖ	-2637
▁ᎣᏥᎦᏔᎭ	-2638
▁ᎤᎾᎳᏅᎯ	-2639
▁ᎤᎾᏚᎵᏍ	-2640
▁ᎤᎾᏛᏁᎢ	-2641
▁ᎤᏁᎷᏅᎩ	-2642
▁ᎤᏂᎷᏨᎩ	-2643
▁ᎤᏄᎪᏨᎩ	-2644
▁ᎤᏅᏏᏙᎯ	-2645
▁ᎤᏬᏢᏅᎯ	-2646
▁ᎦᏬᏂᏍᎬ	-2647
▁ᏗᏓᏬᏍᎩ	-2648
▁ᏥᏂᏣᏛᏅ	-2649
ᎸᏫᏍᏓᏁᎸᎯ	-2650
▁ᎠᏆᏁᎳᏅᎯ	-2651
▁ᎢᏨᏔᏲᏎᎭ	-2652
▁ᎤᎾᏛᎦᏅᎯ	-2653
▁ᎦᎾᏰᎯᏍᏗ	-2654
▁ᎾᏆᎵᏍᏓᏁ	-2655
▁ᏂᎦᏪᏍᎬᎢ	-2656
▁ᏂᏚᎩᏨᏂᏒ	-2657
▁ᏗᏍᏓᏓᏅᏟ	-2658
▁ᎠᏓᏅᏙᏍᎩᏂ	-2659
▁ᎤᏲᎱᎯᏍᏗᏱ	-2660
▁ᎥᏝᏍᎩᏂᏃᏅ	-2661
▁ᏅᏓᏳᏂᎶᏒᎯ	-2662
▁ᏚᎸᏫᏍᏓᏁᎲ	-2663
▁ᎢᏤᎳᏗᏙᎮᏍᏗ	-2664
▁ᎢᏥᏯᏫᏍᎨᏍᏗ	-2665
▁ᏚᎾᏓᏡᏩᏗᏒᎢ	-2666
▁ᏚᏂᎸᏫᏍᏓᏁᎲ	-2667
▁ᏅᏓᏳᎾᎵᏍᎪᎸᏔᏅᎯ	-2668
ᎥᏃ	-2669
ᎦᏙ	-2670
ᎧᏛ	-2671
ᎨᎦ	-2672
ᎲᎭ	-2673
ᎳᎻ	-2674
ᎾᎩ	-2675
ᎾᏗ	-2676
ᏃᏣ	-2677
ᏄᏙ	-2678
ᏒᎦ	-2679
ᏕᎬ	-2680
ᏗᏯ	-2681
ᏚᏫ	-2682
ᏧᏣ	-2683
ᏬᎢ	-2684
ᏰᏣ	-2685
ᏲᎦ	-2686
▁Ꮋ	-2687
ᎥᏍᎦ	-2688
ᎦᏛᎢ	-2689
ᎧᏁᎢ	-2690
ᎧᏅᎢ	-2691
ᎨᏳᏣ	-2692
ᎲᏍᎪ	-2693
ᎵᏒᎩ	-2694
ᎶᏐᏅ	-2695
ᎾᏛᎢ	-2696
ᎿᎥᎢ	-2697
ᎿᏩᏛ	-2698
ᏁᏤᎸ	-2699
ᏂᎪᎯ	-2700
ᏄᏩᎢ	-2701
ᏍᎩᏯ	-2702
ᏍᏕᎾ	-2703
ᏚᎲᎢ	-2704
ᏤᎵᎯ	-2705
ᏩᏍᏗ	-2706
ᏬᏂᎭ	-2707
ᏯᏙᎮ	-2708
ᏲᎯᏏ	-2709
ᏳᎨᏗ	-2710
▁ᎠᎨ	-2711
▁ᎧᏃ	-2712
▁ᎨᎩ	-2713
▁ᎬᏯ	-2714
▁ᎵᏏ	-2715
▁ᏁᏨ	-2716
▁ᏃᎦ	-2717
▁ᏔᎷ	-2718
▁ᏕᏤ	-2719
▁ᏚᏭ	-2720
▁ᏦᎠ	-2721
▁ᏧᏅ	-2722
▁ᏯᏥ	-2723
▁ᏴᏓ	-2724
▁ᏴᏛ	-2725
ᎨᎳᏍᏗ	-2726
ᎸᏉᏛᎾ	-2727
ᏍᎩᎸᎢ	-2728
ᏗᏍᎬᎩ	-2729
ᏚᎪᏓᏁ	-2730
ᏬᏂᏍᎩ	-2731
ᏲᎯᏍᏗ	-2732
▁ᎠᏂᎪ	-2733
▁ᎠᏛᎩ	-2734
▁ᎡᏂᏗ	-2735
▁ᎢᎨᏣ	-2736
▁ᎢᏤᎾ	-2737
▁ᎢᏥᎩ	-2738
▁ᎤᎧᏛ	-2739
▁ᎦᏙᎬ	-2740
▁ᎨᏥᏛ	-2741
▁ᎬᏗᎭ	-2742
▁ᎯᎠᏉ	-2743
▁ᎰᏍᏛ	-2744
▁ᎾᎦᎥ	-2745
▁ᏇᏍᏓ	-2746
▁ᏚᏂᏢ	-2747
▁ᏥᎨᏥ	-2748
▁ᏥᏂᎨ	-2749
▁ᏥᏕᎦ	-2750
▁ᏧᏄᎪ	-2751
▁ᏭᎷᏨ	-2752
▁ᏱᎦᎩ	-2753
ᎵᏍᏔᏅᎯ	-2754
ᎾᏄᎪᏫᏏ	-2755
ᏂᏴᏎᏍᏗ	-2756
ᏍᏛᏗᏍᏗ	-2757
ᏲᏪᎳᏁᎭ	-2758
▁ᎠᎨᏴᏃ	-2759
▁ᎠᎪᏙᏗ	-2760
▁ᎤᎨᏳᎯ	-2761
▁ᎤᎵᏠᏯ	-2762
▁ᎤᎶᏐᏅ	-2763
▁ᎤᎾᏝᎢ	-2764
▁ᎤᏜᏅᏛ	-2765
▁ᎤᏩᎨᏫ	-2766
▁ᎤᏪᎿᎢ	-2767
▁ᎬᏩᏛᏛ	-2768
▁ᎯᏍᎦᏯ	-2769
▁ᎾᎥᏂᏳ	-2770
▁ᏕᎦᎳᏫ	-2771
▁ᏗᎬᏩᎾ	-2772
▁ᏗᏂᎰᎵ	-2773
▁ᏗᏣᏤᎵ	-2774
▁ᏫᏄᏒᎸ	-2775
▁ᏴᏫᏰᏃ	-2776
ᎵᏍᎦᏍᏙᏛ	-2777
ᎵᏍᏆᏗᏍᎩ	-2778
ᏘᏅᏍᏔᏅᎩ	-2779
▁ᎠᎩᏰᎸᎭ	-2780
▁ᎠᏂᎦᏔᎯ	-2781
▁ᎠᏓᏁᎸᎢ	-2782
▁ᎠᏓᏪᎵᎩ	-2783
▁ᎠᏓᏰᏍᎩ	-2784
▁ᎠᏗᏒᏍᏗ	-2785
▁ᎠᏥᎾᏝᎢ	-2786
▁ᎠᏩᎾᎦᎳ	-2787
▁ᎢᏣᏙᎴᎰ	-2788
▁ᎤᏂᎩᏒᎩ	-2789
▁ᎤᏪᎷᏅᎩ	-2790
▁ᎤᏰᎸᏛᎢ	-2791
▁ᎧᏃᎮᏍᎩ	-2792
▁ᎾᎾᏛᏁᎲ	-2793
▁ᎾᏍᏉᏰᏃ	-2794
▁ᏂᎬᎾᏛᎢ	-2795
▁ᏂᏣᏛᎿᏕ	-2796
▁ᏓᏁᏩᏗᏒ	-2797
▁ᏕᎨᏥᏰᎸ	-2798
▁ᏗᎦᎸᏉᏗ	-2799
▁ᏗᎪᏣᎴᏛ	-2800
▁ᏛᏍᏆᎸᎯ	-2801
▁ᏥᏂᎦᏪᎭ	-2802
▁ᏧᏓᎿᏩᏛ	-2803
▁ᏫᏚᏯᏅᎲ	-2804
▁ᏭᏂᎶᏎᎢ	-2805
▁ᎠᎵᎮᎵᏍᏗ	-2806
▁ᎠᏂᏬᏂᏍᎬ	-2807
▁ᎠᏤᎵᏍᏛᎢ	-2808
▁ᎢᏳᏕᏘᏴᏛ	-2809
▁ᎤᏂᏁᎫᏥᏛ	-2810
▁ᎤᏍᏆᎸᎯᏗ	-2811
▁ᎦᎶᏁᏛᏰᏃ	-2812
▁ᎦᏃᏍᎩᏍᎩ	-2813
▁ᎬᏂᎨᏒᎢᏳ	-2814
▁ᏂᎦᏪᏍᎬᎩ	-2815
▁ᏂᎪᎯᎸᎾᏉ	-2816
▁ᏗᎦᎵᏍᏙᏗ	-2817
▁ᏧᎾᎴᎯᏐᏗ	-2818
▁ᏧᏃᏑᎶᏨᎯ	-2819
ᏁᎢᏍᏗᏍᎨᏍᏗ	-2820
▁ᏅᏓᎦᎵᏍᏔᏂ	-2821
▁ᏚᎾᏓᏡᏩᏗᏒ	-2822
▁ᏧᏂᎳᏫᎢᏍᏗᏱ	-2823
▁ᏚᏂᎸᏫᏍᏓᏁᎸᎢ	-2824
;)	-2825
ᎠᏂ	-2826
ᎤᏅ	-2827
ᎧᎲ	-2828
ᎩᎳ	-2829
ᎪᏂ	-2830
ᎳᏆ	-2831
ᎵᏦ	-2832
ᏂᎦ	-2833
ᏂᎸ	-2834
ᏎᎯ	-2835
ᏐᎠ	-2836
ᏒᏛ	-2837
ᏓᎻ	-2838
ᏕᏅ	-2839
ᏚᏓ	-2840
ᏢᏗ	-2841
ᏢᏛ	-2842
ᏪᎠ	-2843
ᏯᏁ	-2844
ᏰᎭ	-2845
ᏲᏥ	-2846
ᏳᎯ	-2847
ᏴᎸ	-2848
ᏴᏗ	-2849
ᎦᏓᎭ	-2850
ᎦᏔᎯ	-2851
ᎨᏒᎢ	-2852
ᎩᏕᎵ	-2853
ᎪᏪᎳ	-2854
ᎫᏔᏅ	-2855
ᎵᎬᎾ	-2856
ᎸᎢᏛ	-2857
ᏂᏙᎸ	-2858
ᏃᎩᏳ	-2859
ᏃᏗᏱ	-2860
ᏅᏏᏴ	-2861
ᏅᏒᎯ	-2862
ᏇᏓᎸ	-2863
ᏍᏓᏯ	-2864
ᏑᎲᎢ	-2865
ᏓᏁᎴ	-2866
ᏓᏆᎶ	-2867
ᏛᏁᎰ	-2868
ᏨᏁᎵ	-2869
ᏲᎱᏒ	-2870
ᏲᏅᎯ	-2871
ᏴᏍᏗ	-2872
ᏴᏗᏱ	-2873
▁ᎠᎯ	-2874
▁ᎠᏄ	-2875
▁ᎠᏜ	-2876
▁ᎡᏉ	-2877
▁ᎤᏏ	-2878
▁ᎥᏓ	-2879
▁ᎦᏌ	-2880
▁ᎧᏂ	-2881
▁ᎾᎪ	-2882
▁ᎾᏋ	-2883
▁ᏂᏙ	-2884
▁ᏐᎣ	-2885
▁ᏕᏅ	-2886
▁ᏕᏦ	-2887
▁ᏗᏇ	-2888
▁ᏥᏙ	-2889
▁ᏯᏃ	-2890
ᎢᏍᏙᏗ	-2891
ᎥᎯᏍᏗ	-2892
ᎨᏳᏒᎢ	-2893
ᎪᎵᏰᏗ	-2894
ᎵᏙᎲᎢ	-2895
ᎶᏄᎮᏛ	-2896
ᏍᏓᏁᎯ	-2897
ᏓᏙᎴᎰ	-2898
ᏛᎿᏕᎩ	-2899
ᏯᎡᏍᏗ	-2900
▁ᎠᎩᎭ	-2901
▁ᎠᎹᏱ	-2902
▁ᎠᎾᎵ	-2903
▁ᎠᏁᎳ	-2904
▁ᎠᏂᎦ	-2905
▁ᎠᏂᏙ	-2906
▁ᎠᏕᏒ	-2907
▁ᎠᏗᏔ	-2908
▁ᎡᎩᎵ	-2909
▁ᎡᏙᎭ	-2910
▁ᎢᎦᏘ	-2911
▁ᎢᏍᏓ	-2912
▁ᎢᏍᏗ	-2913
▁ᎢᏍᏛ	-2914
▁ᎢᏕᎯ	-2915
▁ᎢᏗᎦ	-2916
▁ᎢᏤᎵ	-2917
▁ᎢᏯᏥ	-2918
▁ᎢᏰᏨ	-2919
▁ᎣᏂᏱ	-2920
▁ᎤᎩᎸ	-2921
▁ᎤᎲᎢ	-2922
▁ᎤᎾᏘ	-2923
▁ᎤᏁᎳ	-2924
▁ᎤᏂᎪ	-2925
▁ᎤᏒᏃ	-2926
▁ᎤᏗᏩ	-2927
▁ᎤᏯᏅ	-2928
▁ᎤᏲᎢ	-2929
▁ᎦᏃᎸ	-2930
▁ᏆᎳᏆ	-2931
▁ᏇᏗᏂ	-2932
▁ᏌᏙᏂ	-2933
▁ᏓᏓᏁ	-2934
▁ᏓᏓᏏ	-2935
▁ᏙᏓᏳ	-2936
▁ᏙᏧᎾ	-2937
▁ᏚᎵᏍ	-2938
▁ᏚᏅᏩ	-2939
▁ᏣᏙᏓ	-2940
▁ᏤᎲᎩ	-2941
▁ᏥᎬᏩ	-2942
▁ᏧᎾᏓ	-2943
▁ᏧᏓᏕ	-2944
▁ᏴᏫᏃ	-2945
ᎵᎡᎵᏤᎭ	-2946
ᎵᏂᎩᏗᏳ	-2947
ᏁᎢᏍᏗᏱ	-2948
ᏁᏤᎮᏍᏗ	-2949
ᏄᎪᏫᏍᎦ	-2950
ᏓᏅᏔᏩᏕ	-2951
ᏚᏓᎴᏍᏗ	-2952
▁ᎠᎵᏍᎦ	-2953
▁ᎠᎵᏏᎾ	-2954
▁ᎠᏁᎵᏍ	-2955
▁ᎠᏆᎵᏏ	-2956
▁ᎠᏛᏅᎢ	-2957
▁ᎡᏙᎲᎢ	-2958
▁ᎢᏣᏛᎩ	-2959
▁ᎢᏥᎷᏤ	-2960
▁ᎢᏥᏰᎸ	-2961
▁ᎤᎪᎲᎯ	-2962
▁ᎤᎾᏂᎩ	-2963
▁ᎤᏂᎾᏰ	-2964
▁ᎤᏴᏍᏗ	-2965
▁ᎦᎵᎡᎵ	-2966
▁ᎪᏢᏅᎯ	-2967
▁ᎬᏩᏂᏴ	-2968
▁ᎯᎦᏔᎭ	-2969
▁ᎾᎿᏰᏃ	-2970
▁ᏂᏗᎨᏥ	-2971
▁ᏂᏙᏓᏳ	-2972
▁ᏗᏂᏰᎸ	-2973
▁ᏚᎾᏙᎥ	-2974
▁ᏦᎯᏳᏒ	-2975
▁ᏧᏬᏰᏂ	-2976
▁ᏯᏃᎩᏳ	-2977
ᏁᏟᏴᏍᏗᏱ	-2978
▁ᎠᎩᎪᎲᎩ	-2979
▁ᎠᏂᏐᎢᏃ	-2980
▁ᎠᏍᏆᏂᎪ	-2981
▁ᎠᏛᏳᎨᏗ	-2982
▁ᎢᏣᏓᏅᏘ	-2983
▁ᎢᏳᏩᎫᏗ	-2984
▁ᎣᏏᏳᏰᏃ	-2985
▁ᎤᎾᎴᏅᎮ	-2986
▁ᎤᏓᏅᏛᎢ	-2987
▁ᎥᎩᏅᏏᏛ	-2988
▁ᎦᎫᏍᏛᏗ	-2989
▁ᎦᎶᏄᎮᏛ	-2990
▁ᎨᎦᏑᏰᏛ	-2991
▁ᎾᎯᏳᏉᏃ	-2992
▁ᎾᎯᏳᏰᏃ	-2993
▁ᎾᏂᎥᏰᏃ	-2994
▁ᏂᏕᎦᏪᏎ	-2995
▁ᏗᏆᏤᎵᎦ	-2996
▁ᏧᏂᎾᏫᏱ	-2997
ᏓᏅᏖᏍᎨᏍᏗ	-2998
▁ᎠᏂᎦᏔᎿᎢ	-2999
▁ᎠᏥᎸᎨᎶᎯ	-3000
▁ᎢᎬᏩᏛᏁᏗ	-3001
▁ᎢᏣᏅᏖᏍᏗ	-3002
▁ᎢᏣᏛᎦᏅᎯ	-3003
▁ᎢᏣᏠᎾᏍᏗ	-3004
▁ᎢᏳᏛᏁᎸᎯ	-3005
▁ᎤᏂᏃᎮᎸᎯ	-3006
▁ᎤᏪᏅᏍᏗᏱ	-3007
▁ᏂᏥᎦᏔᎲᎾ	-3008
▁ᏱᏂᎦᎵᏍᏓ	-3009
▁ᎢᏳᎾᏛᏁᏗᏱ	-3010
▁ᎢᏳᏍᎩᏂᏃᏅ	-3011
▁ᎤᎬᏫᏳᏌᏕᎩ	-3012
▁ᎤᎶᏒᏍᏔᏅᎯ	-3013
▁ᎤᎾᎵᏍᏓᏴᏗ	-3014
▁ᎬᎵᏍᏆᏗᏍᎩ	-3015
▁ᏂᏣᏛᏁᎮᏍᏗ	-3016
▁ᏓᏕᏲᎲᏍᎬᎢ	-3017
▁ᏚᎸᏫᏍᏓᏁᎸ	-3018
▁ᎠᏥᎤᏍᏕᏎᎸᎯ	-3019
▁ᎤᎵᏰᎢᎶᎯᏍᏗ	-3020
▁ᎤᎾᎵᏍᏕᎸᏙᏗ	-3021
▁ᎤᎾᏓᏙᎵᏍᏓᏁ	-3022
▁ᏗᎧᎿᏩᏛᏍᏗᏰᏃ	-3023
ᎣᎢ	-3024
ᎨᏅ	-3025
ᎪᏪ	-3026
ᎬᏓ	-3027
ᎮᎾ	-3028
ᎳᏁ	-3029
ᎵᎠ	-3030
ᎵᎭ	-3031
ᎷᎬ	-3032
ᎾᏏ	-3033
ᏂᏃ	-3034
ᏂᏯ	-3035
ᏃᎱ	-3036
ᏄᎸ	-3037
ᏅᎭ	-3038
ᏌᏘ	-3039
ᏎᎰ	-3040
ᏓᏄ	-3041
ᏔᏃ	-3042
ᏕᎦ	-3043
ᏕᎯ	-3044
ᏕᏗ	-3045
ᏙᎳ	-3046
ᏛᎮ	-3047
ᏢᎯ	-3048
ᏢᏫ	-3049
ᏤᎴ	-3050
ᏯᏪ	-3051
ᏰᎬ	-3052
ᏰᏗ	-3053
ᏰᏥ	-3054
ᏳᎩ	-3055
ᎡᎲᎢ	-3056
ᎲᎾᏃ	-3057
ᎴᏅᏛ	-3058
ᎿᏫᏛ	-3059
ᏂᏆᏅ	-3060
ᏅᎯᏳ	-3061
ᏍᎦᎸ	-3062
ᏍᏛᏱ	-3063
ᏎᎸᎾ	-3064
ᏑᏰᏒ	-3065
ᏓᎴᏛ	-3066
ᏓᏁᎲ	-3067
ᏓᏱᎵ	-3068
ᏕᎬᎢ	-3069
ᏕᏯᏙ	-3070
ᏙᎮᎢ	-3071
ᏙᎯᏳ	-3072
ᏛᏅᎯ	-3073
ᏟᏴᏛ	-3074
ᏪᏍᎩ	-3075
ᏫᏎᎢ	-3076
ᏯᏅᏗ	-3077
ᏯᏍᏗ	-3078
ᏴᏍᏕ	-3079
▁ᎡᎶ	-3080
▁ᎢᏛ	-3081
▁ᎤᏫ	-3082
▁ᎤᏰ	-3083
▁ᏁᏥ	-3084
▁ᏂᎤ	-3085
▁ᏂᏫ	-3086
▁ᏍᏗ	-3087
▁ᏓᎻ	-3088
▁ᏓᏘ	-3089
▁ᏚᏘ	-3090
▁ᏦᏈ	-3091
▁ᏫᏕ	-3092
▁ᏰᏥ	-3093
ᎵᏍᏕᎸ	-3094
ᎵᏰᎢᎶ	-3095
ᏁᎶᏙᏗ	-3096
ᏁᏟᏴᎾ	-3097
ᏃᏁᎸᎩ	-3098
ᏍᏉᎵᏱ	-3099
ᏍᏓᏁᎴ	-3100
ᏍᏕᎵᎭ	-3101
ᏏᏏᏍᎩ	-3102
ᏚᎵᏍᎪ	-3103
ᏠᏯᏍᏗ	-3104
ᏲᎯᏎᎴ	-3105
ᏲᎯᏎᎸ	-3106
▁ᎠᎲᎢ	-3107
▁ᎠᏁᎩ	-3108
▁ᎠᏆᎵ	-3109
▁ᎠᏉᎳ	-3110
▁ᎡᏂᎾ	-3111
▁ᎢᎬᏪ	-3112
▁ᎢᏯᏋ	-3113
▁ᎢᏳᏓ	-3114
▁ᎤᎶᎩ	-3115
▁ᎤᎾᏠ	-3116
▁ᎤᏅᏟ	-3117
▁ᎤᏍᏛ	-3118
▁ᎤᏔᏲ	-3119
▁ᎤᏕᏅ	-3120
▁ᎤᏗᎴ	-3121
▁ᎤᏣᏔ	-3122
▁ᎤᏣᏖ	-3123
▁ᎤᏲᏃ	-3124
▁ᎥᏳᎩ	-3125
▁ᎩᎶᎢ	-3126
▁ᎬᏩᎪ	-3127
▁ᎯᎨᏴ	-3128
▁ᏂᏕᎬ	-3129
▁ᏂᏨᏴ	-3130
▁ᏒᎦᏔ	-3131
▁ᏓᎬᎾ	-3132
▁ᏔᎷᏣ	-3133
▁ᏗᎦᏘ	-3134
▁ᏗᏓᏙ	-3135
▁ᏗᏤᎲ	-3136
▁ᏚᎾᏓ	-3137
▁ᏝᏰᏃ	-3138
▁ᏡᎬᎢ	-3139
▁ᏤᎮᎢ	-3140
▁ᏤᏈᏗ	-3141
▁ᏱᏓᎾ	-3142
ᎢᏳᎾᏍᏗ	-3143
ᎫᎪᏓᏁᏗ	-3144
ᏍᏓᏩᏛᏛ	-3145
ᏍᏔᏁᏍᏗ	-3146
ᏓᎸᎥᏍᎩ	-3147
ᏕᏲᎲᏍᎬ	-3148
ᏙᎵᏍᏗᏱ	-3149
ᏛᎦᏁᎸᎯ	-3150
ᏟᎶᏍᏙᏗ	-3151
▁ᎠᎢᏒᎢ	-3152
▁ᎠᎦᏔᎭ	-3153
▁ᎠᎨᏳᏣ	-3154
▁ᎠᎩᏰᎸ	-3155
▁ᎠᎪᏩᏘ	-3156
▁ᎠᏂᏁᎬ	-3157
▁ᎠᏂᏫᏅ	-3158
▁ᎠᏤᎷᎩ	-3159
▁ᎠᏫᏍᎩ	-3160
▁ᎠᏰᎸᏗ	-3161
▁ᎡᎩᎵᏈ	-3162
▁ᎡᏣᎫᏴ	-3163
▁ᎡᏥᎾᏰ	-3164
▁ᎤᎵᏍᏗ	-3165
▁ᎤᎵᏖᎸ	-3166
▁ᎤᎶᎩᎸ	-3167
▁ᎤᏛᏅᎩ	-3168
▁ᎤᏪᏗᏱ	-3169
▁ᎥᏘᎣᎩ	-3170
▁ᎦᏁᏟᏴ	-3171
▁ᎨᎦᎫᏴ	-3172
▁ᎬᏩᏂᎪ	-3173
▁ᎹᎩᏕᎵ	-3174
▁ᏂᏣᏛᏁ	-3175
▁ᏕᎨᎦᏨ	-3176
▁ᏕᎬᏩᏂ	-3177
▁ᏗᏖᎵᏙ	-3178
▁ᏚᏁᏤᎴ	-3179
▁ᏚᏄᎪᏫ	-3180
▁ᏧᎾᏄᏬ	-3181
▁ᏧᏳᎪᏗ	-3182
▁ᏫᏚᏯᏅ	-3183
▁ᏭᎷᏤᎢ	-3184
▁ᏭᏴᎴᎢ	-3185
ᏚᎵᏍᎨᏍᏗ	-3186
ᏦᎯᏳᏎᏍᏗ	-3187
▁ᎠᎩᏅᏏᏛ	-3188
▁ᎠᏁᏙᎲᎢ	-3189
▁ᎠᏂᎩᎵᏲ	-3190
▁ᎠᏂᏙᎾᎢ	-3191
▁ᎠᏆᏓᏅᏖ	-3192
▁ᎠᏏᎾᏌᏂ	-3193
▁ᎢᎩᏁᎸᎯ	-3194
▁ᎢᏳᏪᏨᎯ	-3195
▁ᎤᎬᏫᏳᎭ	-3196
▁ᎤᎾᎵᎮᎵ	-3197
▁ᎤᎾᏛᏅᎩ	-3198
▁ᎤᏂᎦᏙᎥ	-3199
▁ᎤᏛᎪᏗᏱ	-3200
▁ᎤᏠᎾᏍᏗ	-3201
▁ᎤᏪᎿᎢᏳ	-3202
▁ᎦᎬᏩᏐᏢ	-3203
▁ᎬᏩᎷᏤᎸ	-3204
▁ᏂᎬᏪᏎᎭ	-3205
▁ᏄᏛᏁᎸᎢ	-3206
▁ᏏᏓᏁᎸᎯ	-3207
▁ᏓᏠᎯᏍᏛ	-3208
▁ᏔᎷᎩᏍᎩ	-3209
▁ᏕᏣᏓᏅᏛ	-3210
▁ᏗᏨᏂᏗᏳ	-3211
▁ᏥᏥᎦᏔᎭ	-3212
▁ᏦᎠᏍᎪᎯ	-3213
▁ᏧᎾᏓᏅᏙ	-3214
▁ᏧᏩᎫᏔᏅ	-3215
▁ᏭᏓᎪᎾᏛ	-3216
ᎸᏫᏍᏓᏁᎸᎢ	-3217
ᏓᏂᎸᎢᏍᏗᏱ	-3218
ᏚᎢᏍᏓᏁᎸᎯ	-3219
▁ᎠᎩᎬᏫᏳᎯ	-3220
▁ᎠᎬᏗᏍᎬᎢ	-3221
▁ᎠᏁᏢᏔᏅᎯ	-3222
▁ᎠᏂᏆᎵᏏᏃ	-3223
▁ᎠᏕᏒᎲᏍᎩ	-3224
▁ᎢᏥᏍᏆᏂᎪ	-3225
▁ᎢᏦᎯᏳᏒᎢ	-3226
▁ᎢᏧᏩᏁᏗᏱ	-3227
▁ᎢᏳᏛᏁᏗᏱ	-3228
▁ᎤᏂᏇᏓᎸᎢ	-3229
▁ᎤᏬᏑᎶᏨᎯ	-3230
▁ᎦᏓᏅᏖᏍᎬ	-3231
▁ᎦᏓᏙᎵᏍᏗ	-3232
▁ᎪᎯᏳᏗᏍᎩ	-3233
▁ᎬᏩᏍᏓᏩᏗ	-3234
▁ᎾᏂᎦᏔᎲᎾ	-3235
▁ᏂᎦᏗᏳᏰᏃ	-3236
▁ᏄᎬᏫᏳᏒᏃ	-3237
▁ᏄᏠᎾᏍᏛᎾ	-3238
▁ᏕᎨᏌᏗᏒᎢ	-3239
▁ᏥᏅᏏᏓᏍᏗ	-3240
▁ᏫᏨᎷᏤᏗᏱ	-3241
▁ᏱᏅᎦᎵᏍᏓ	-3242
▁ᎠᏚᏓᎴᏍᏙᏗ	-3243
▁ᎠᏥᏃᎮᏍᎬᎢ	-3244
▁ᎢᏥᎦᏔᎮᏍᏗ	-3245
▁ᎢᏥᏍᎦᏅᏨᎢ	-3246
▁ᎢᏳᎵᏍᏔᏅᎯ	-3247
▁ᎢᏳᏩᏂᏌᏅᎯ	-3248
▁ᎤᎬᏫᏳᎯᏰᏃ	-3249
▁ᎤᎬᏫᏳᏎᏍᏗ	-3250
▁ᎤᎳᎨᏯᏛᏤᎢ	-3251
▁ᎤᏂᏍᎦᏅᏨᎢ	-3252
▁ᎾᏍᎩᏯᏍᎩᏂ	-3253
▁ᏗᎾᏓᏂᏱᏍᎩ	-3254
▁ᎠᏓᏍᏓᏩᏗᏙᎯ	-3255
▁ᎨᏣᏍᏓᏩᏗᏙᎯ	-3256
▁ᎬᏩᏍᏓᏩᏛᏒᎩ	-3257
▁ᏕᎨᏥᏰᎸᏔᏅᎩ	-3258
▁ᏚᎸᏫᏍᏓᏁᎸᎢ	-3259
▁ᏣᎦᏟᎶᏍᏔᏅᎯ	-3260
▁ᏧᎸᏫᏍᏓᏁᏗᏱ	-3261
▁ᎢᏥᎦᏙᎥᎯᏍᏗᏱ	-3262
▁ᏥᏅᏗᎦᎵᏍᏙᏗᎭ	-3263
▁ᏅᏗᎦᎵᏍᏙᏗᏍᎬᎢ	-3264
ᎤᎵ	-3265
ᎤᎾ	-3266
ᎦᏌ	-3267
ᎨᎯ	-3268
ᎨᏃ	-3269
ᎩᏒ	-3270
ᎳᎭ	-3271
ᎵᎡ	-3272
ᎵᏳ	-3273
ᎸᏒ	-3274
ᎾᏃ	-3275
ᏁᏅ	-3276
ᏆᏘ	-3277
ᏍᏢ	-3278
ᏎᎦ	-3279
ᏑᎸ	-3280
ᏗᏩ	-3281
ᏙᎮ	-3282
ᏙᎴ	-3283
ᏙᎸ	-3284
ᏙᏱ	-3285
ᏛᏉ	-3286
ᏣᏔ	-3287
ᏤᎲ	-3288
ᏥᎸ	-3289
ᏨᎭ	-3290
ᏱᏗ	-3291
ᏲᏒ	-3292
▁Ꮄ	-3293
▁Ꮙ	-3294
▁Ꮯ	-3295
ᎠᎩᎾ	-3296
ᎩᏍᎩ	-3297
ᎪᎸᎾ	-3298
ᎪᏔᏅ	-3299
ᎭᎸᏛ	-3300
ᎮᏰᏃ	-3301
ᎴᏔᏂ	-3302
ᎵᏌᎵ	-3303
ᎵᏍᏕ	-3304
ᎶᏗᏱ	-3305
ᏍᏛᏉ	-3306
ᏏᏔᏛ	-3307
ᏑᏴᎾ	-3308
ᏓᏂᎵ	-3309
ᏓᏅᏏ	-3310
ᏓᏅᏬ	-3311
ᏓᏕᎢ	-3312
ᏔᏕᎩ	-3313
ᏙᎲᎢ	-3314
ᏙᏔᏂ	-3315
ᏙᏔᏅ	-3316
ᏚᏓᎳ	-3317
ᏣᎦᎸ	-3318
ᏲᎱᏏ	-3319
ᏴᏁᎵ	-3320
▁ᎠᎫ	-3321
▁ᎡᏤ	-3322
▁ᎢᎭ	-3323
▁ᎤᏒ	-3324
▁ᎤᏦ	-3325
▁ᎤᏱ	-3326
▁ᎥᎦ	-3327
▁ᎪᎵ	-3328
▁ᏁᏣ	-3329
▁ᏍᎦ	-3330
▁ᏕᎧ	-3331
▁ᏣᎪ	-3332
▁ᏣᏆ	-3333
▁ᏤᎮ	-3334
▁ᏥᎧ	-3335
▁ᏧᎩ	-3336
▁ᏩᎾ	-3337
▁ᏫᏱ	-3338
▁ᏯᎾ	-3339
▁ᏳᏲ	-3340
ᎢᏎᎸᎯ	-3341
ᎢᏎᏍᏗ	-3342
ᎥᏍᎨᎢ	-3343
ᎦᎶᏁᏛ	-3344
ᎧᏁᎸᎯ	-3345
ᎪᏓᏁᎯ	-3346
ᎬᏁᏗᏱ	-3347
ᎲᏍᏗᏱ	-3348
ᏁᎶᏛᎾ	-3349
ᏃᎮᎸᎩ	-3350
ᏄᎪᏨᎩ	-3351
ᏍᎦᎳᏗ	-3352
ᏍᎪᏂᎯ	-3353
ᏍᏓᏱᏳ	-3354
ᏓᏂᎸᎩ	-3355
ᏓᏅᎦᎸ	-3356
ᏕᏲᏅᎯ	-3357
ᏗᎦᎴᏲ	-3358
ᏨᏍᏗᏱ	-3359
ᏩᏛᎲᏃ	-3360
ᏬᏍᏗᏱ	-3361
ᏰᎵᏎᎭ	-3362
▁ᎠᎾᏛ	-3363
▁ᎠᏂᎧ	-3364
▁ᎠᏂᏯ	-3365
▁ᎠᏋᎭ	-3366
▁ᎠᏧᏣ	-3367
▁ᎠᏯᏫ	-3368
▁ᎢᏳᏉ	-3369
▁ᎣᎬᏒ	-3370
▁ᎤᎾᎴ	-3371
▁ᎤᏚᎸ	-3372
▁ᎤᏢᎩ	-3373
▁ᎤᏪᏅ	-3374
▁ᎤᏯᎢ	-3375
▁ᎥᎬᏩ	-3376
▁ᎪᏍᏚ	-3377
▁ᎯᎾᎩ	-3378
▁ᏂᏗᏥ	-3379
▁ᏄᏛᏅ	-3380
▁ᏌᏉᏃ	-3381
▁ᏐᎵᎹ	-3382
▁ᏚᎪᎲ	-3383
▁ᏚᎾᎴ	-3384
▁ᏚᏃᎸ	-3385
▁ᏚᏬᏁ	-3386
▁ᏤᎦᎳ	-3387
▁ᏥᎪᏃ	-3388
▁ᏥᎮᎾ	-3389
▁ᏥᏁᎦ	-3390
▁ᏥᏓᎩ	-3391
▁ᏥᏚᏂ	-3392
▁ᏧᎬᏩ	-3393
▁ᏧᎴᎯ	-3394
▁ᏧᏁᏨ	-3395
▁ᏫᏚᎾ	-3396
▁ᏭᏕᎵ	-3397
▁ᏱᏂᏨ	-3398
▁ᏱᏓᎩ	-3399
▁ᏱᏓᏂ	-3400
▁ᏱᏗᎦ	-3401
ᎵᏍᏔᏂᏙ	-3402
ᎵᏍᏔᏅᎭ	-3403
ᎸᏉᏗᏍᎩ	-3404
ᏃᎯᎵᏙᎯ	-3405
ᏍᎪᏂᏗᏢ	-3406
ᏓᏂᎸᏤᎢ	-3407
ᏛᏓᏍᏓᏁ	-3408
ᏪᎵᏍᎩᏃ	-3409
▁ᎠᏂᏏᎾ	-3410
▁ᎠᏃᏍᏛ	-3411
▁ᎠᏲᎱᏒ	-3412
▁ᎡᎮᏍᏗ	-3413
▁ᎡᎳᏪᏱ	-3414
▁ᎢᎬᏱᏢ	-3415
▁ᎢᏅᎯᏳ	-3416
▁ᎢᏣᏗᏔ	-3417
▁ᎢᏥᏔᏲ	-3418
▁ᎢᏯᏍᏘ	-3419
▁ᎢᏲᏍᏛ	-3420
▁ᎣᏂᏗᏢ	-3421
▁ᎤᎪᎲᎩ	-3422
▁ᎤᎾᎵᎢ	-3423
▁ᎤᎾᏁᎶ	-3424
▁ᎤᎾᏚᎸ	-3425
▁ᎤᏁᏤᎴ	-3426
▁ᎤᏂᏙᏓ	-3427
▁ᎤᏃᏍᏛ	-3428
▁ᎤᏕᎵᏒ	-3429
▁ᎤᏰᎸᏅ	-3430
▁ᎦᎾᏄᎪ	-3431
▁ᎦᏙᎬᎩ	-3432
▁ᎧᏂᎵᏯ	-3433
▁ᎧᏃᎮᏗ	-3434
▁ᎪᎯᏰᏃ	-3435
▁ᎾᏁᎲᎾ	-3436
▁ᎾᏂᎥᎩ	-3437
▁ᎾᏃᎯᏳ	-3438
▁ᏂᎬᏁᎭ	-3439
▁ᏂᎯᏍᎪ	-3440
▁ᏂᏦᎯᏳ	-3441
▁ᏄᏍᏛᎾ	-3442
▁ᏄᏛᏁᎴ	-3443
▁ᏄᏬᎯᏳ	-3444
▁ᏅᎵᏌᎵ	-3445
▁ᏔᎵᏧᏈ	-3446
▁ᏕᎦᏚᎲ	-3447
▁ᏗᏑᏢᏛ	-3448
▁ᏗᏥᏰᎸ	-3449
▁ᏭᏂᎷᏨ	-3450
ᎤᏍᏕᏎᎸᎾ	-3451
ᎵᏍᏓᏁᏗᏱ	-3452
ᎵᏏᎾᎯᏍᏗ	-3453
ᎾᏄᎪᏫᏎᎵ	-3454
ᏄᎪᏫᏍᏗᏱ	-3455
ᏍᏕᎵᏍᎬᎢ	-3456
ᏯᏙᏤᎮᏍᏗ	-3457
▁ᎠᎩᏍᏗᏱ	-3458
▁ᎠᏂᎦᏓᎭ	-3459
▁ᎠᏂᏧᏏᏃ	-3460
▁ᎠᏍᎪᎯᏁ	-3461
▁ᎠᏓᏅᏖᏗ	-3462
▁ᎠᏚᎢᏍᏛ	-3463
▁ᎠᏟᎶᏍᏗ	-3464
▁ᎠᏥᏰᎸᎾ	-3465
▁ᎢᎬᏱᏱᏃ	-3466
▁ᎢᏍᎦᎳᏗ	-3467
▁ᎢᏓᏙᎴᎰ	-3468
▁ᎢᏣᏓᏡᎬ	-3469
▁ᎢᏥᎩᎵᏲ	-3470
▁ᎢᏥᏁᏍᏗ	-3471
▁ᎢᏥᏆᎵᏏ	-3472
▁ᎤᎵᏂᎬᎬ	-3473
▁ᎤᎾᎵᎪᎯ	-3474
▁ᎤᏍᏓᏩᏛ	-3475
▁ᎤᏍᏚᎢᏒ	-3476
▁ᎤᏬᏚᎯᏳ	-3477
▁ᎥᏥᎪᎥᎩ	-3478
▁ᎦᎵᏦᏛᎢ	-3479
▁ᎨᏅᎢᏍᏗ	-3480
▁ᎨᏥᏁᎸᎯ	-3481
▁ᎾᎦᏔᎲᎾ	-3482
▁ᎾᎵᏍᏆᏗ	-3483
▁ᏂᎦᏛᏰᏃ	-3484
▁ᏄᎾᏓᎴᏒ	-3485
▁ᏄᎾᏛᏅᎢ	-3486
▁ᏕᎨᏌᏗᏒ	-3487
▁ᏗᏁᎶᏙᏗ	-3488
▁ᏗᏓᏬᏍᏗ	-3489
▁ᏗᏥᎾᏫᏱ	-3490
▁ᏚᏁᏤᎸᎩ	-3491
▁ᏬᎩᎷᏨᎩ	-3492
▁ᏱᏥᎪᎵᏰ	-3493
▁ᏲᏥᎦᏔᎭ	-3494
ᎦᏌᏯᏍᏕᏍᏗ	-3495
ᎪᎵᏰᏍᎨᏍᏗ	-3496
ᎸᏫᏍᏓᏁᎰᎢ	-3497
ᏍᏓᏩᏕᎨᏍᏗ	-3498
ᏓᏅᏓᏗᏍᏗᏱ	-3499
▁ᎠᎬᎥᎯᏍᏗ	-3500
▁ᎢᎦᏁᎳᏅᎯ	-3501
▁ᎢᏯᎬᏁᎸᎯ	-3502
▁ᎢᏳᏛᎿᏕᎩ	-3503
▁ᎤᏂᏰᎸᏒᎩ	-3504
▁ᎤᏃᎯᏳᏅᎯ	-3505
▁ᎤᏓᏅᏖᎸᎯ	-3506
▁ᎦᏬᏂᏍᎬᎢ	-3507
▁ᎲᏗᏍᎨᏍᏗ	-3508
▁ᎾᏥᎾᏝᎥᎾ	-3509
▁ᏓᏠᎯᏍᏛᎢ	-3510
▁ᏕᎦᏚᏩᏗᏒ	-3511
▁ᏕᏥᏲᎵᎸᎭ	-3512
▁ᏗᎧᏃᎩᏍᏗ	-3513
▁ᏗᎬᏩᎸᏌᏛ	-3514
▁ᏗᏂᏩᎾᎦᎳ	-3515
▁ᏥᎷᏏᎵᎻᏃ	-3516
▁ᏧᎾᎵᏂᎩᏛ	-3517
▁ᏫᏂᎦᎵᏍᏓ	-3518
▁ᏫᏨᏲᏪᎳᏏ	-3519
▁ᏭᎶᎯᏍᏗᏱ	-3520
ᎸᏫᏍᏓᏁᎮᏍᏗ	-3521
▁ᎠᎾᏓᏅᏖᏍᎬ	-3522
▁ᎠᏎᏍᎩᏂᏃᏅ	-3523
▁ᎠᏓᏅᏖᏍᎬᎢ	-3524
▁ᎢᏯᏆᏛᏁᏗᏱ	-3525
▁ᎤᎵᏍᏕᎸᏙᏗ	-3526
▁ᎤᏓᏙᎵᏍᏓᏁ	-3527
▁ᎬᏩᏲᎱᎯᏍᏗ	-3528
▁ᏓᏓᏂᎸᎨᏍᏗ	-3529
▁ᏕᏦᎯᏳᏎᏍᏗ	-3530
▁ᏗᎦᎵᏍᏙᏗᎭ	-3531
▁ᏧᎸᏫᏍᏓᏁᏗ	-3532
▁ᎢᏣᎵᏍᏕᎸᏙᏗ	-3533
▁ᎤᏂᏍᏆᏂᎪᏒᎩ	-3534
▁ᎤᏙᎴᎰᎯᏍᏗᏱ	-3535
▁ᎾᎵᏍᏆᏗᏍᎬᎾ	-3536
▁ᏂᏚᎾᏓᏪᏎᎴᎢ	-3537
▁ᏅᏓᏳᎵᏍᏙᏗᏱ	-3538
▁ᏕᎨᎦᏨᏍᏗᏍᎬ	-3539
▁ᏱᏥᏍᎦᎢᎮᏍᏗ	-3540
▁ᏚᏂᎸᏫᏍᏓᏁᎲᎢ	-3541
ᎠᎩ	-3542
ᎡᎴ	-3543
ᎧᏃ	-3544
ᎩᎬ	-3545
ᎴᏴ	-3546
ᎵᎾ	-3547
ᎵᏤ	-3548
ᎷᎪ	-3549
ᎸᎬ	-3550
ᎿᎸ	-3551
ᏃᎦ	-3552
ᏃᏱ	-3553
ᏏᏌ	-3554
ᏐᏂ	-3555
ᏖᏆ	-3556
ᏗᏒ	-3557
ᏜᏅ	-3558
ᏟᏯ	-3559
ᏠᎢ	-3560
ᏣᏛ	-3561
ᏥᏃ	-3562
ᏦᎢ	-3563
ᏯᎸ	-3564
▁Ꮲ	-3565
ᎦᎴᏅ	-3566
ᎦᎸᎢ	-3567
ᎦᏓᎢ	-3568
ᎦᏔᎾ	-3569
ᎦᏔᏅ	-3570
ᎦᏘᎴ	-3571
ᎧᎯᏯ	-3572
ᎪᎲᎭ	-3573
ᎱᏍᏕ	-3574
ᎲᏍᏗ	-3575
ᎶᏂᎦ	-3576
ᎸᏍᏗ	-3577
ᏁᎮᎢ	-3578
ᏃᎮᎸ	-3579
ᏃᏁᎴ	-3580
ᏃᏁᎸ	-3581
ᏄᎪᏩ	-3582
ᏄᏩᎥ	-3583
ᏍᎩᏅ	-3584
ᏒᏰᏃ	-3585
ᏓᏅᏒ	-3586
ᏓᏑᏯ	-3587
ᏓᏓᎴ	-3588
ᏙᎸᎩ	-3589
ᏛᏗᏱ	-3590
ᏢᏁᎢ	-3591
ᏣᏅᎩ	-3592
ᏤᎸᎯ	-3593
ᏬᏨᎯ	-3594
ᏲᏒᎩ	-3595
▁ᎢᎧ	-3596
▁ᎢᎯ	-3597
▁ᎩᎵ	-3598
▁ᎪᎢ	-3599
▁ᎬᏭ	-3600
▁ᎭᏓ	-3601
▁ᎹᎦ	-3602
▁ᏂᏑ	-3603
▁ᏃᎩ	-3604
▁ᏓᏤ	-3605
▁ᏗᏅ	-3606
▁ᏙᎤ	-3607
▁ᏙᏣ	-3608
▁ᏚᏛ	-3609
▁ᏛᏥ	-3610
▁ᏣᏤ	-3611
▁ᏧᎳ	-3612
▁ᏫᏯ	-3613
ᎧᎵᏬᎯ	-3614
ᎧᎾᏅᎩ	-3615
ᎧᏁᏨᎯ	-3616
ᎳᏏᏗᏱ	-3617
ᎶᏔᏅᎯ	-3618
ᎸᏉᏔᏂ	-3619
ᎸᏍᏗᏱ	-3620
ᎿᏍᏕᏢ	-3621
ᏁᏤᎸᎢ	-3622
ᏃᎮᎮᎸ	-3623
ᏌᎳᏓᏁ	-3624
ᏍᏔᏁᏃ	-3625
ᏓᏅᏛᎵ	-3626
ᏔᏁᏍᏗ	-3627
ᏛᎦᏁᎸ	-3628
ᏛᏗᏍᎩ	-3629
ᏧᏈᏍᏗ	-3630
ᏪᎳᏅᎩ	-3631
ᏪᏎᎸᎭ	-3632
ᏲᎮᏍᏗ	-3633
ᏲᎯᏎᎵ	-3634
▁ᎠᎵᏱ	-3635
▁ᎠᏓᏫ	-3636
▁ᎠᏰᎲ	-3637
▁ᎠᏴᎩ	-3638
▁ᎠᏴᏉ	-3639
▁ᎡᎲᎩ	-3640
▁ᎡᎵᎩ	-3641
▁ᎢᏕᎾ	-3642
▁ᎤᎵᏰ	-3643
▁ᎤᎿᎷ	-3644
▁ᎤᏃᏴ	-3645
▁ᎤᏍᎪ	-3646
▁ᎤᏒᎯ	-3647
▁ᎤᏒᏂ	-3648
▁ᎤᏔᏅ	-3649
▁ᎤᏬᎸ	-3650
▁ᎤᏲᎯ	-3651
▁ᎥᏓᎸ	-3652
▁ᎦᎪᏃ	-3653
▁ᎦᏰᎯ	-3654
▁ᎦᏲᎵ	-3655
▁ᎬᏩᏁ	-3656
▁ᎬᏩᏓ	-3657
▁ᎬᏩᏘ	-3658
▁ᎾᎥᏃ	-3659
▁ᏁᎲᎾ	-3660
▁ᏂᎨᎬ	-3661
▁ᏂᏍᎩ	-3662
▁ᏂᏕᏥ	-3663
▁ᏂᏗᏣ	-3664
▁ᏂᏚᏅ	-3665
▁ᏅᏓᎬ	-3666
▁ᏈᎵᏏ	-3667
▁ᏐᏓᎻ	-3668
▁ᏓᎾᏓ	-3669
▁ᏓᏥᏯ	-3670
▁ᏗᎨᏣ	-3671
▁ᏙᏗᏣ	-3672
▁ᏚᎪᎮ	-3673
▁ᏚᏅᏎ	-3674
▁ᏚᏕᏲ	-3675
▁ᏚᏩᏂ	-3676
▁ᏚᏪᏲ	-3677
▁ᏢᏓᏥ	-3678
▁ᏣᏗᎭ	-3679
▁ᏥᏓᎾ	-3680
▁ᏥᏰᎸ	-3681
▁ᏧᏁᎬ	-3682
▁ᏫᏂᏚ	-3683
▁ᏭᎶᏒ	-3684
▁ᏴᎨᏥ	-3685
ᎨᎳᏍᏙᏗ	-3686
ᎬᎭᎷᏴᎯ	-3687
ᎯᏍᏗᏍᎬ	-3688
ᎯᏳᎲᏍᎦ	-3689
ᎾᏌᎲᏍᎩ	-3690
ᏁᏍᎨᏍᎩ	-3691
ᏍᎦᎢᏍᏓ	-3692
ᏍᎫᏕᏍᏗ	-3693
ᏓᏂᎸᏨᎩ	-3694
ᏙᏓᏆᏍᏗ	-3695
ᏡᏗᏍᎬᎢ	-3696
ᏪᏎᎮᏍᏗ	-3697
▁ᎠᎦᏘᏯ	-3698
▁ᎠᎯᏗᏳ	-3699
▁ᎠᎹᏰᎵ	-3700
▁ᎠᏂᏃᎮ	-3701
▁ᎠᏂᏬᏂ	-3702
▁ᎠᏓᎯᎯ	-3703
▁ᎠᏓᏅᏖ	-3704
▁ᎠᏚᎸᏗ	-3705
▁ᎡᏙᎮᎢ	-3706
▁ᎢᎪᏪᎳ	-3707
▁ᎢᏳᏪᏛ	-3708
▁ᎣᏓᎸᎢ	-3709
▁ᎣᏓᏅᏛ	-3710
▁ᎤᎷᏤᎢ	-3711
▁ᎤᏁᏍᎨ	-3712
▁ᎤᏂᏣᏛ	-3713
▁ᎤᏌᎯᎸ	-3714
▁ᎤᏓᏅᏛ	-3715
▁ᎤᏓᏑᏯ	-3716
▁ᎤᏩᏒᏃ	-3717
▁ᎥᏝᏍᏗ	-3718
▁ᎦᏍᎩᎶ	-3719
▁ᎪᏣᎴᏛ	-3720
▁ᎬᏩᎪᎲ	-3721
▁ᎯᏍᎩᏃ	-3722
▁ᏂᏣᏛᏅ	-3723
▁ᏄᎾᏛᏅ	-3724
▁ᏄᏂᎲᎾ	-3725
▁ᏄᏂᏪᏒ	-3726
▁ᏄᏩᏁᎸ	-3727
▁ᏄᏪᏒᎢ	-3728
▁ᏐᎣᏁᎳ	-3729
▁ᏐᎵᎹᏅ	-3730
▁ᏓᎵᏍᏗ	-3731
▁ᏕᎦᎶᏗ	-3732
▁ᏗᎦᏓᎭ	-3733
▁ᏗᎧᎸᎬ	-3734
▁ᏚᎧᎿᏅ	-3735
▁ᏚᎴᏁᎢ	-3736
▁ᏚᎴᏅᏃ	-3737
▁ᏚᏂᏂᏴ	-3738
▁ᏧᏁᎿᎢ	-3739
▁ᏧᏓᏏᏃ	-3740
▁ᏧᏙᏢᏅ	-3741
▁ᏧᏪᏅᏒ	-3742
▁ᏭᎷᏨᎩ	-3743
▁ᏯᎦᏔᎭ	-3744
▁ᏱᏂᎬᏩ	-3745
▁ᏱᏥᏩᏘ	-3746
▁ᏱᏦᎯᏳ	-3747
ᎳᏗᏓᏍᏗᏱ	-3748
ᎴᏂᏓᏍᏗᏱ	-3749
ᎾᏄᎪᎢᏍᏗ	-3750
ᎾᏄᎪᏫᏎᎸ	-3751
ᎾᏄᎪᏫᏒᎯ	-3752
ᏁᎢᏍᏗᏍᎬ	-3753
ᏂᏆᏘᎮᏍᏗ	-3754
ᏔᏲᎯᎮᏍᏗ	-3755
ᏛᏅᎢᏍᏓᏁ	-3756
ᏲᎱᎯᏍᏗᏱ	-3757
▁ᎠᎦᏔᎯᏳ	-3758
▁ᎠᎩᎷᏥᎸ	-3759
▁ᎠᎾᏙᎴᎰ	-3760
▁ᎠᏍᎩᎾᏃ	-3761
▁ᎢᎧᏁᏨᎯ	-3762
▁ᎢᎬᏩᏁᏗ	-3763
▁ᎢᎬᏪᏅᏛ	-3764
▁ᎢᏣᏟᏂᎬ	-3765
▁ᎢᏦᎯᏳᎯ	-3766
▁ᎢᏯᎧᎵᎢ	-3767
▁ᎤᎨᏳᎯᏳ	-3768
▁ᎤᎴᏅᎲᎩ	-3769
▁ᎤᎵᏍᏓᏴ	-3770
▁ᎤᎵᏍᏚᎢ	-3771
▁ᎤᎶᏒᏍᏗ	-3772
▁ᎤᎾᏕᏅᎯ	-3773
▁ᎤᏂᎷᏤᎢ	-3774
▁ᎤᏂᎷᏤᏗ	-3775
▁ᎤᏍᏗᎧᏂ	-3776
▁ᎤᏓᏔᏅᎯ	-3777
▁ᎤᏯᏅᏒᎯ	-3778
▁ᎧᏁᎢᏍᏗ	-3779
▁ᏂᎦᏗᏳᏃ	-3780
▁ᏂᏣᏛᏁᎲ	-3781
▁ᏍᎩᎾᏝᎢ	-3782
▁ᏍᎩᏙᎵᎩ	-3783
▁ᏓᏟᎶᏍᏛ	-3784
▁ᏕᎦᏬᏁᏗ	-3785
▁ᏗᏨᏍᏙᏗ	-3786
▁ᏣᏃᏎᎰᎢ	-3787
▁ᏧᎦᏴᎵᎨ	-3788
▁ᏧᎴᏔᏅᎯ	-3789
▁ᏧᎾᏤᎵᎦ	-3790
▁ᏧᏓᏅᏛᎢ	-3791
▁ᏧᏓᏕᏒᏛ	-3792
ᎦᎵᏍᏓᏗᏍᎩ	-3793
ᎧᎿᏩᏛᏍᏗᏱ	-3794
ᏍᏆᏂᎪᏗᏍᎩ	-3795
ᏓᏙᎵᏍᏓᏁᎭ	-3796
ᏕᏍᏗᏍᎨᏍᏗ	-3797
ᏤᎵᎯᏍᎨᏍᏗ	-3798
▁ᎠᎾᏛᎩᏍᎩ	-3799
▁ᎠᏂᏃᎮᏍᎩ	-3800
▁ᎠᏆᏚᎵᏍᎬ	-3801
▁ᎠᏐᏢᎢᏍᏗ	-3802
▁ᎠᏥᏍᏕᎸᏗ	-3803
▁ᎢᎨᎬᏁᎸᎯ	-3804
▁ᎢᎩᎨᏳᎯᏳ	-3805
▁ᎢᏥᏪᏍᏗᏱ	-3806
▁ᎢᏳᏩᏁᎸᎯ	-3807
▁ᎤᎾᏚᎵᏍᎬ	-3808
▁ᎤᎾᏛᎦᏅᎩ	-3809
▁ᎤᏃᎯᏳᏗᏱ	-3810
▁ᎤᏓᎵᏓᏍᏗ	-3811
▁ᎤᏓᏅᏖᎸᎢ	-3812
▁ᎤᏩᏒᏍᎩᏂ	-3813
▁ᎦᏃᎸᎥᏍᎬ	-3814
▁ᎬᏍᎦᎢᏍᏓ	-3815
▁ᎾᎾᏛᏁᎲᎢ	-3816
▁ᏂᎦᎵᏍᏙᏗ	-3817
▁ᏂᏣᎵᏍᏓᏁ	-3818
▁ᏗᏂᏬᏂᏍᎩ	-3819
▁ᏥᏄᎵᏍᏔᏅ	-3820
▁ᏧᎴᎯᏌᏅᎯ	-3821
▁ᏧᎾᎬᏩᎶᏗ	-3822
▁ᎠᎵᏥᏙᎲᏍᎨ	-3823
▁ᎠᏂᏃᏍᎩᏍᎩ	-3824
▁ᎢᎩᏍᎦᏅᏨᎢ	-3825
▁ᎢᏨᏍᏗᏰᏗᎭ	-3826
▁ᎤᎵᎬᎭᎷᏴᎯ	-3827
▁ᎤᎸᏓᎸᎥᏍᎩ	-3828
▁ᎤᎾᏰᎯᏍᏗᏳ	-3829
▁ᎤᏂᎪᏩᏛᏗᏱ	-3830
▁ᎤᏂᎷᎯᏍᏗᏱ	-3831
▁ᏂᎦᎵᏍᏔᏂᏙ	-3832
▁ᏂᎦᎵᏍᏔᏅᎭ	-3833
▁ᏂᏣᏛᎿᏕᎬᎢ	-3834
▁ᏄᏂᎬᏫᏳᏒᏃ	-3835
▁ᏍᎩᏍᏓᏩᏚᎦ	-3836
▁ᏑᎾᏙᏓᏆᏍᏗ	-3837
▁ᏗᎩᎦᏴᎵᎨᎢ	-3838
▁ᏭᏂᎶᎯᏍᏗᏱ	-3839
▁ᎠᎦᏴᎵᎨᏍᏛᏱ	-3840
▁ᎠᎵᏏᎾᎯᏍᏙᏗ	-3841
▁ᎠᏙᎴᎰᎯᏍᏙᏗ	-3842
▁ᎢᏣᎵᎮᎵᎨᏍᏗ	-3843
▁ᎾᏃᎯᏳᎲᏍᎬᎾ	-3844
▁ᎠᎾᏓᏍᏓᏩᏗᏙᎯ	-3845
▁ᎠᎾᏓᏙᎵᏍᏓᏁᎯ	-3846
▁ᏗᏥᎸᏫᏍᏓᏁᏗᏱ	-3847
ᎥᏝ	-3848
ᎪᎥ	-3849
ᎪᎳ	-3850
ᎭᏄ	-3851
ᎱᎦ	-3852
ᎳᏂ	-3853
ᎸᏓ	-3854
ᎾᏮ	-3855
ᏂᎯ	-3856
ᏃᎢ	-3857
ᏃᎸ	-3858
ᏄᎮ	-3859
ᏄᎯ	-3860
ᏈᎷ	-3861
ᏌᏕ	-3862
ᏍᏈ	-3863
ᏑᏱ	-3864
ᏓᎢ	-3865
ᏕᎨ	-3866
ᏙᎠ	-3867
ᏙᎬ	-3868
ᏚᎭ	-3869
ᏚᎯ	-3870
ᏛᎭ	-3871
ᏱᎩ	-3872
ᏲᎮ	-3873
ᏴᎢ	-3874
▁-	-3875
▁Ꮇ	-3876
ᎠᏕᎸ	-3877
ᎦᏐᎠ	-3878
ᎦᏔᎰ	-3879
ᎦᏘᏅ	-3880
ᎧᏅᎦ	-3881
ᎩᎸᏗ	-3882
ᎪᎥᎩ	-3883
ᎪᏂᎨ	-3884
ᎪᏩᏗ	-3885
ᎳᏁᎢ	-3886
ᎷᎶᏗ	-3887
ᎸᏃᏘ	-3888
ᎸᏓᎩ	-3889
ᎿᎥᎾ	-3890
ᏁᎴᏃ	-3891
ᏅᏁᏗ	-3892
ᏓᎸᏛ	-3893
ᏓᏛᎢ	-3894
ᏙᎸᎢ	-3895
ᏙᏓᏈ	-3896
ᏛᏁᎴ	-3897
ᏞᏫᏒ	-3898
ᏡᏔᏂ	-3899
ᏤᎲᎾ	-3900
ᏥᏃᎯ	-3901
ᏪᏎᎵ	-3902
ᏫᏍᎩ	-3903
ᏰᎲᎾ	-3904
▁ᎠᏢ	-3905
▁ᎣᏨ	-3906
▁ᎤᎲ	-3907
▁ᎦᎬ	-3908
▁ᎧᏱ	-3909
▁ᎨᏤ	-3910
▁ᎬᏉ	-3911
▁ᎵᏫ	-3912
▁ᎶᎻ	-3913
▁ᏃᏯ	-3914
▁ᏌᏈ	-3915
▁ᏑᏓ	-3916
▁ᏓᏇ	-3917
▁ᏕᏏ	-3918
▁ᏙᎦ	-3919
▁ᏚᎦ	-3920
▁ᏛᎦ	-3921
▁ᏛᎩ	-3922
▁ᏥᏗ	-3923
▁ᏥᏤ	-3924
▁ᏦᏏ	-3925
▁ᏧᏲ	-3926
▁ᏩᏥ	-3927
▁ᏱᏘ	-3928
▁ᏳᏬ	-3929
ᎥᏍᎬᎢ	-3930
ᎦᏔᎮᎢ	-3931
ᎦᏔᎲᎢ	-3932
ᎳᏅᏍᏗ	-3933
ᎳᏗᏍᏗ	-3934
ᎳᏗᏙᎭ	-3935
ᎶᏒᏍᏗ	-3936
ᎷᏤᎸᎩ	-3937
ᎾᏓᎴᎩ	-3938
ᎾᏰᏍᎦ	-3939
ᏂᏐᏗᏱ	-3940
ᏄᏙᎬᎢ	-3941
ᏅᏬᏗᏱ	-3942
ᏍᎦᏨᎯ	-3943
ᏍᏓᏓᎳ	-3944
ᏍᏔᏅᎭ	-3945
ᏓᏂᎸᎦ	-3946
ᏕᏯᏔᏁ	-3947
ᏗᎦᏘᏯ	-3948
ᏘᏃᎸᎩ	-3949
ᏙᎵᏨᎯ	-3950
ᏛᏁᎴᎢ	-3951
ᏜᏏᏛᎡ	-3952
ᏟᏌᏅᎩ	-3953
ᏡᏗᏍᎬ	-3954
ᏥᏴᏁᎵ	-3955
ᏨᎷᏤᎵ	-3956
ᏯᏅᏗᏱ	-3957
ᏲᎱᏒᎩ	-3958
ᏴᏁᏗᏱ	-3959
▁ᎠᎦᏬ	-3960
▁ᎠᎾᏁ	-3961
▁ᎠᏂᏰ	-3962
▁ᎠᏆᏓ	-3963
▁ᎠᏍᎩ	-3964
▁ᎠᏎᎵ	-3965
▁ᎠᏓᎵ	-3966
▁ᎠᏫᏅ	-3967
▁ᎡᎮᎢ	-3968
▁ᎡᎳᏂ	-3969
▁ᎡᏃᏱ	-3970
▁ᎡᏉᏂ	-3971
▁ᎢᏥᎦ	-3972
▁ᎢᏥᎭ	-3973
▁ᎤᎪᎮ	-3974
▁ᎤᎾᏗ	-3975
▁ᎤᏎᎵ	-3976
▁ᎤᏓᎴ	-3977
▁ᎤᏓᏠ	-3978
▁ᎤᏓᏱ	-3979
▁ᎤᏪᎭ	-3980
▁ᎤᏬᎴ	-3981
▁ᎥᏣᏱ	-3982
▁ᎦᏚᏱ	-3983
▁ᎬᏍᎦ	-3984
▁ᎬᏩᏕ	-3985
▁ᎺᎵᏃ	-3986
▁ᎾᎦᏛ	-3987
▁ᏂᎦᏥ	-3988
▁ᏂᏕᏨ	-3989
▁ᏂᏚᏩ	-3990
▁ᏂᏣᏓ	-3991
▁ᏄᎾᏓ	-3992
▁ᏅᏛᏆ	-3993
▁ᏌᎵᏂ	-3994
▁ᏓᎨᏥ	-3995
▁ᏓᏍᏚ	-3996
▁ᏓᏓᏬ	-3997
▁ᏓᏤᎸ	-3998
▁ᏓᏫᏒ	-3999
▁ᏓᏳᏂ	-4000
▁ᏕᎦᎵ	-4001
▁ᏕᏡᎬ	-4002
▁ᏕᏥᏅ	-4003
▁ᏗᏁᎯ	-4004
▁ᏗᏂᏲ	-4005
▁ᏗᏇᏥ	-4006
▁ᏗᏧᎪ	-4007
▁ᏚᏃᏣ	-4008
▁ᏤᎵᎪ	-4009
▁ᏥᏂᏨ	-4010
▁ᏥᏄᎾ	-4011
▁ᏥᏍᎪ	-4012
▁ᏥᏥᏯ	-4013
▁ᏦᏰᏂ	-4014
▁ᏧᏄᏬ	-4015
▁ᏧᏬᎸ	-4016
▁ᏯᎩᎭ	-4017
▁ᏱᎨᏥ	-4018
▁ᏳᏃᎵ	-4019
ᎦᏔᎾᎥᎾ	-4020
ᎵᎠᏅᎯᏛ	-4021
ᎵᏥᏙᏗᏱ	-4022
ᎸᏉᏔᏅᎯ	-4023
ᏁᏉᏤᏗᏱ	-4024
ᏂᎬᏎᎲᎢ	-4025
ᏄᎪᏫᏒᎩ	-4026
ᏅᎢᏍᏗᏱ	-4027
ᏌᎳᏓᏅᎩ	-4028
ᏍᏓᏩᏕᏅ	-4029
ᏙᎴᎰᏍᎦ	-4030
ᏚᎵᏍᎬᎢ	-4031
ᏪᎳᎩᏍᎩ	-4032
▁ᎠᎩᏍᏆ	-4033
▁ᎠᏁᎮᎢ	-4034
▁ᎠᏁᏙᎮ	-4035
▁ᎠᏂᏦᎢ	-4036
▁ᎠᏂᏴᎯ	-4037
▁ᎠᏆᏓᏅ	-4038
▁ᎠᏍᎫᏕ	-4039
▁ᎠᏥᏁᏗ	-4040
▁ᎠᏥᏅᏩ	-4041
▁ᎠᏰᎸᎯ	-4042
▁ᎡᎶᏛᏃ	-4043
▁ᎢᎦᏛᎯ	-4044
▁ᎢᎪᎯᏳ	-4045
▁ᎢᏍᏕᎾ	-4046
▁ᎢᏣᏚᎵ	-4047
▁ᎢᏯᏂᎢ	-4048
▁ᎣᏂᏱᏃ	-4049
▁ᎤᎦᏛᎾ	-4050
▁ᎤᎪᎲᏃ	-4051
▁ᎤᎬᎭᎷ	-4052
▁ᎤᎿᎥᎢ	-4053
▁ᎤᏂᎧᎵ	-4054
▁ᎤᏂᎪᎮ	-4055
▁ᎤᏂᎵᏅ	-4056
▁ᎤᏂᏍᏆ	-4057
▁ᎤᏄᎪᏤ	-4058
▁ᎤᏅᏏᏴ	-4059
▁ᎤᏍᏆᎸ	-4060
▁ᎤᏍᏆᏛ	-4061
▁ᎤᏍᏗᎩ	-4062
▁ᎤᏛᎦᏁ	-4063
▁ᎤᏣᏛᎩ	-4064
▁ᎦᎵᏥᏙ	-4065
▁ᎦᎵᏦᏛ	-4066
▁ᎦᏙᎴᎣ	-4067
▁ᎦᏛᎬᎢ	-4068
▁ᎨᏥᏁᏗ	-4069
▁ᎪᏪᎸᎩ	-4070
▁ᎬᏁᏍᏗ	-4071
▁ᎯᎦᏙᎵ	-4072
▁ᎾᎯᏳᏉ	-4073
▁ᎿᏉᏰᏃ	-4074
▁ᏂᏨᏁᎸ	-4075
▁ᏄᏩᏁᎴ	-4076
▁ᏇᏗᏂᏱ	-4077
▁ᏌᎪᏂᎨ	-4078
▁ᏍᎦᏚᎩ	-4079
▁ᏑᎾᎴᎢ	-4080
▁ᏓᏓᏁᎸ	-4081
▁ᏗᎩᎾᏫ	-4082
▁ᏗᏁᎲᎢ	-4083
▁ᏚᏍᏆᎸ	-4084
▁ᏚᏙᎥᎢ	-4085
▁ᏣᏂᏰᏃ	-4086
▁ᏣᏓᏅᏙ	-4087
▁ᏣᏤᏍᏙ	-4088
▁ᏤᎦᎳᏯ	-4089
▁ᏥᎦᏘᏏ	-4090
▁ᏥᎩᎵᏲ	-4091
▁ᏥᏂᎦᏪ	-4092
▁ᏥᏚᏙᎥ	-4093
▁ᏥᏰᎸᎢ	-4094
▁ᏧᏁᏗᏱ	-4095
▁ᏫᎦᎷᎩ	-4096
ᎦᏘᏗᏍᏗᏱ	-4097
ᎦᏙᎥᎯᏍᏗ	-4098
ᎯᏍᏗᏍᎬᎢ	-4099
ᎵᏂᎪᎯᏍᏗ	-4100
ᎵᏥᏙᏁᎸᎯ	-4101
ᏐᏢᎢᏍᏙᏗ	-4102
ᏓᎴᎲᏍᎬᎩ	-4103
ᏔᎳᏬᏍᎬᎢ	-4104
ᏙᎴᎰᎯᏍᏗ	-4105
ᏣᏛᏁᎮᏍᏗ	-4106
ᏬᏂᎯᏍᏗᏱ	-4107
▁ᎠᎦᏔᎿᎢ	-4108
▁ᎠᎬᎭᎸᏛ	-4109
▁ᎠᏂᎪᏗᏳ	-4110
▁ᎠᏂᏙᎾᎥ	-4111
▁ᎠᏍᎦᎾᎢ	-4112
▁ᎠᏍᎪᎯᏃ	-4113
▁ᎠᏍᏆᎸᎲ	-4114
▁ᎠᏓᏎᎪᎩ	-4115
▁ᎠᏟᏍᏛᎢ	-4116
▁ᎠᏥᏅᏏᏛ	-4117
▁ᎠᏲᎱᏍᎩ	-4118
▁ᎡᏥᏯᏅᏛ	-4119
▁ᎢᎸᎯᏢᏃ	-4120
▁ᎢᏣᎴᏂᏙ	-4121
▁ᎢᏣᏛᏅᎢ	-4122
▁ᎣᎩᏅᏏᏛ	-4123
▁ᎤᎾᎦᏌᏯ	-4124
▁ᎤᎾᎵᏖᎸ	-4125
▁ᎤᎾᎵᏥᏙ	-4126
▁ᎤᏂᏃᎮᎴ	-4127
▁ᎤᏂᏰᎸᏗ	-4128
▁ᎤᏓᏅᏖᏛ	-4129
▁ᎤᏕᏔᏅᎯ	-4130
▁ᎤᏡᏗᏍᎩ	-4131
▁ᎤᏪᎷᏁᎢ	-4132
▁ᎤᏪᏅᏎᎢ	-4133
▁ᎤᏪᏙᎸᎩ	-4134
▁ᎥᏝᏍᎩᏂ	-4135
▁ᎦᎵᎡᎵᎦ	-4136
▁ᎦᎶᎯᏍᏗ	-4137
▁ᎦᎸᎳᏗᏢ	-4138
▁ᎦᏚᎢᏗᏢ	-4139
▁ᎬᏩᎷᏤᎴ	-4140
▁ᎬᏩᏔᏲᏎ	-4141
▁ᏂᏚᎩᏨᏂ	-4142
▁ᏑᎾᏓᎴᎩ	-4143
▁ᏕᎤᎴᏔᏅ	-4144
▁ᏕᎦᎳᏫᎥ	-4145
▁ᏕᏏᎶᏂᎦ	-4146
▁ᏗᏣᏤᎵᎦ	-4147
▁ᏚᎴᎯᏌᏅ	-4148
▁ᏚᏁᏤᎴᏃ	-4149
▁ᏥᏚᏳᎪᏗ	-4150
▁ᏥᏣᏛᎩᎭ	-4151
▁ᏧᎦᏒᏍᏗ	-4152
▁ᏧᎾᏄᏩᎢ	-4153
▁ᏧᏭᎪᏙᏗ	-4154
▁ᏨᏍᎩᏃᎢ	-4155
▁ᏭᏂᎶᏒᎩ	-4156
▁ᏭᏂᎷᏤᎢ	-4157
▁ᎠᎦᎵᏍᎪᎸ	-4158
▁ᎠᎩᎾᏄᎪᏫ	-4159
▁ᎠᎪᏎᎮᏍᏗ	-4160
▁ᎠᏙᎴᎰᏒᎯ	-4161
▁ᎡᏥᏲᎵᎸᎭ	-4162
▁ᎢᏗᏍᏓᏓᎳ	-4163
▁ᎢᏣᎵᏍᏓᏴ	-4164
▁ᎢᏦᎯᏳᏗᏱ	-4165
▁ᎢᏧᏕᏘᏴᏛ	-4166
▁ᎢᏨᏯᏅᏓᏗ	-4167
▁ᎢᏯᏥᎸᏉᏗ	-4168
▁ᎤᎪᏩᏛᏗᏱ	-4169
▁ᎤᏂᎬᎥᏍᎩ	-4170
▁ᎤᏂᎸᏉᏔᏁ	-4171
▁ᎤᏂᏣᏖᏍᏗ	-4172
▁ᎤᏍᎦᏅᏨᎢ	-4173
▁ᎤᏍᎦᏅᏨᎯ	-4174
▁ᎤᏪᏍᎩᎸᎢ	-4175
▁ᎨᎦᎵᏍᎪᎸ	-4176
▁ᎨᏥᏍᏕᎸᏗ	-4177
▁ᎬᏩᎪᏩᏛᏗ	-4178
▁ᎾᏍᎦᎢᎲᎾ	-4179
▁ᏄᏂᏪᏎᎸᎩ	-4180
▁ᏄᏬᎯᏳᏒᎾ	-4181
▁ᏓᏂᏴᎨᏍᏗ	-4182
▁ᏗᏓᎴᎲᏍᎦ	-4183
▁ᏗᏦᏪᎵᏍᎩ	-4184
▁ᏚᏓᏘᎾᎥᎢ	-4185
▁ᏧᏩᎫᏔᏅᏒ	-4186
▁ᏫᎨᏥᏲᎵᎭ	-4187
▁ᎠᎦᏴᎵᎨᏰᏃ	-4188
▁ᎠᎵᏍᎪᎸᏙᏗ	-4189
▁ᎠᏂᏃᎯᎵᏙᎯ	-4190
▁ᎠᏓᏪᎳᎩᏍᎩ	-4191
▁ᎢᎦᎵᏍᏙᏗᏱ	-4192
▁ᎢᏥᎦᏔᎭᏰᏃ	-4193
▁ᎤᎵᏍᏆᎸᏗᏃ	-4194
▁ᎤᎾᏄᎪᎢᏍᏗ	-4195
▁ᎤᏗᎦᎵᏍᏙᏗ	-4196
▁ᎦᎶᏁᏛᏍᎩᏂ	-4197
▁ᎬᏍᎦᎢᏍᏓᎩ	-4198
▁ᎬᏩᏓᏍᏕᎸᏗ	-4199
▁ᏅᏓᎦᎵᏍᏙᏓ	-4200
▁ᏗᎾᏕᏲᎲᏍᎩ	-4201
▁ᏗᏃᏪᎵᏍᎩᏃ	-4202
▁ᏙᏗᏣᏓᏅᏛᎢ	-4203
ᏓᏙᎵᏍᏓᏁᎮᏍᏗ	-4204
▁ᎤᎾᎵᏍᏓᏴᏗᏱ	-4205
▁ᎤᏂᎩᎵᏲᎢᏍᏗ	-4206
▁ᎦᎶᎯᏍᏗᏳᎶᏗ	-4207
▁ᏅᏓᎦᎵᏍᏙᏔᏂ	-4208
▁ᏓᏆᏓᏂᎸᎨᏍᏗ	-4209
▁ᏥᏅᏗᎦᎵᏍᏙᏗ	-4210
▁ᏦᎩᎸᏫᏍᏓᏁᎯ	-4211
▁ᏧᏂᏁᏟᏴᏍᏗᏱ	-4212
▁ᏱᏅᏗᎦᎵᏍᏙᏗ	-4213
▁ᏱᏤᎵᎯᏍᎨᏍᏗ	-4214
▁ᎠᏓᏎᎪᎩᏍᎨᏍᏗ	-4215
▁ᏕᏣᎸᏫᏍᏓᏁᎲᎢ	-4216
▁ᏗᎬᏩᏓᏂᎸᎢᏍᏗ	-4217
▁ᏗᎵᏍᎪᎸᏓᏁᎸᎯ	-4218
▁ᎤᏙᎯᏳᎯᏍᎩᏂᏃᏅ	-4219
▁ᏕᏥᎧᎿᏩᏗᏙᎮᏍᏗ	-4220
ᎠᏏ	-4221
ᎠᏥ	-4222
ᎦᎴ	-4223
ᎦᎿ	-4224
ᎩᎶ	-4225
ᎩᏃ	-4226
ᎪᏄ	-4227
ᎭᏉ	-4228
ᎮᎸ	-4229
ᎵᏴ	-4230
ᎾᎥ	-4231
ᎿᎠ	-4232
ᏁᏛ	-4233
ᏌᎾ	-4234
ᏍᏇ	-4235
ᏐᎯ	-4236
ᏔᏗ	-4237
ᏕᎭ	-4238
ᏗᏃ	-4239
ᏙᏢ	-4240
ᏥᏍ	-4241
ᏦᏁ	-4242
ᏧᏂ	-4243
ᏫᏯ	-4244
ᏬᏅ	-4245
ᏯᎷ	-4246
ᏳᏃ	-4247
ᏴᎳ	-4248
ᏴᏓ	-4249
ᎢᏒᏃ	-4250
ᎦᏘᏴ	-4251
ᎩᎳᎾ	-4252
ᎩᏨᏗ	-4253
ᎪᎵᏯ	-4254
ᎲᎾᏉ	-4255
ᎳᏅᎩ	-4256
ᎴᏅᎯ	-4257
ᎴᏏᏱ	-4258
ᎵᏙᎸ	-4259
ᎵᏥᏆ	-4260
ᎷᎪᎢ	-4261
ᎷᏤᏗ	-4262
ᎸᏉᏙ	-4263
ᎸᏌᏓ	-4264
ᏁᎵᏛ	-4265
ᏁᏤᎢ	-4266
ᏁᏤᎴ	-4267
ᏁᏨᎯ	-4268
ᏂᏙᎭ	-4269
ᏃᎮᎴ	-4270
ᏃᎮᏗ	-4271
ᏃᎸᎩ	-4272
ᏄᎪᏨ	-4273
ᏄᎸᏗ	-4274
ᏉᏍᎪ	-4275
ᏍᏆᎶ	-4276
ᏍᏗᏗ	-4277
ᏏᏕᎾ	-4278
ᏒᏍᏛ	-4279
ᏒᏗᏱ	-4280
ᏔᏅᎭ	-4281
ᏕᎰᎯ	-4282
ᏕᎸᎩ	-4283
ᏛᏁᏃ	-4284
ᏤᎴᎢ	-4285
ᏤᎸᎩ	-4286
ᏨᏎᎢ	-4287
ᏪᎸᎦ	-4288
ᏪᏒᎢ	-4289
ᏯᏁᏒ	-4290
ᏯᏅᎯ	-4291
ᏯᏔᎯ	-4292
ᏴᏒᎩ	-4293
▁ᎠᏕ	-4294
▁ᎢᏔ	-4295
▁ᎣᏒ	-4296
▁ᎤᎭ	-4297
▁ᎤᎯ	-4298
▁ᎤᏯ	-4299
▁ᎦᎳ	-4300
▁ᎦᏲ	-4301
▁ᎧᏅ	-4302
▁ᎨᎬ	-4303
▁ᎨᎾ	-4304
▁ᎪᏙ	-4305
▁ᎯᏲ	-4306
▁ᎴᎣ	-4307
▁ᏂᎩ	-4308
▁ᏂᏦ	-4309
▁ᏄᏬ	-4310
▁ᏓᏈ	-4311
▁ᏔᏯ	-4312
▁ᏕᎠ	-4313
▁ᏗᎴ	-4314
▁ᏚᏫ	-4315
▁ᏤᎩ	-4316
▁ᏥᏰ	-4317
▁ᏦᏣ	-4318
▁ᏦᏨ	-4319
▁ᏧᏘ	-4320
▁ᏨᏗ	-4321
▁ᏫᎨ	-4322
▁ᏮᏛ	-4323
▁ᏰᏣ	-4324
▁ᏱᏏ	-4325
▁ᏴᏗ	-4326
ᎦᎵᏍᎩ	-4327
ᎦᎸᎲᎩ	-4328
ᎦᏔᎲᎩ	-4329
ᎨᏎᏍᏗ	-4330
ᎪᎵᏰᎥ	-4331
ᎪᏙᏗᏱ	-4332
ᎭᏄᎸᎯ	-4333
ᎲᏍᎬᏃ	-4334
ᎵᎪᏁᎯ	-4335
ᎵᏂᎬᎬ	-4336
ᎵᏂᏗᏱ	-4337
ᎵᏍᎨᎢ	-4338
ᎵᏓᏍᏗ	-4339
ᎵᏙᎸᎢ	-4340
ᎵᏥᏙᏗ	-4341
ᎸᏌᏓᏕ	-4342
ᎾᏰᏍᎩ	-4343
ᏁᏤᎸᎩ	-4344
ᏂᎬᏎᎲ	-4345
ᏂᏆᏘᎭ	-4346
ᏂᏆᏘᎯ	-4347
ᏃᎮᏗᏱ	-4348
ᏄᎦᎸᎯ	-4349
ᏄᎳᏍᏗ	-4350
ᏍᎬᏰᏃ	-4351
ᏍᏔᏅᎾ	-4352
ᏑᏰᏍᏗ	-4353
ᏓᏁᎰᎢ	-4354
ᏓᏄᏴᏛ	-4355
ᏓᏅᏛᎾ	-4356
ᏕᏲᏗᏱ	-4357
ᏙᎴᎰᎯ	-4358
ᏙᏓᏆᏛ	-4359
ᏛᏛᏅᎩ	-4360
ᏟᏐᏗᏱ	-4361
ᏧᎪᏓᏁ	-4362
ᏧᎵᏍᏙ	-4363
ᏬᏍᏔᏂ	-4364
ᏰᎸᏁᎢ	-4365
ᏲᎯᏎᏗ	-4366
ᏲᎲᏍᎦ	-4367
ᏲᏁᎸᎩ	-4368
▁ᎠᎩᎪ	-4369
▁ᎠᎩᏲ	-4370
▁ᎠᎲᏛ	-4371
▁ᎠᎴᏉ	-4372
▁ᎠᏍᏛ	-4373
▁ᎠᏥᏅ	-4374
▁ᎠᏩᏘ	-4375
▁ᎠᏩᏛ	-4376
▁ᎡᎮᎾ	-4377
▁ᎡᎶᏗ	-4378
▁ᎢᎨᏨ	-4379
▁ᎢᏨᏰ	-4380
▁ᎣᎩᎾ	-4381
▁ᎤᎩᎵ	-4382
▁ᎤᎶᏗ	-4383
▁ᎤᎾᏂ	-4384
▁ᎤᎾᏞ	-4385
▁ᎤᏁᎵ	-4386
▁ᎤᏂᏩ	-4387
▁ᎤᏅᏎ	-4388
▁ᎤᏍᏚ	-4389
▁ᎤᏖᎸ	-4390
▁ᎤᏙᏢ	-4391
▁ᎤᏛᏗ	-4392
▁ᎤᏟᏉ	-4393
▁ᎤᏣᏅ	-4394
▁ᎤᏩᏂ	-4395
▁ᎤᏲᏉ	-4396
▁ᎦᏁᏥ	-4397
▁ᎦᏅᏅ	-4398
▁ᎧᏁᎢ	-4399
▁ᎩᎳᏃ	-4400
▁ᎪᎢᏳ	-4401
▁ᎪᎯᏃ	-4402
▁ᎬᏩᏲ	-4403
▁ᎯᏯᏛ	-4404
▁ᏂᏍᏋ	-4405
▁ᏂᏓᏕ	-4406
▁ᏂᏗᎦ	-4407
▁ᏂᏨᎦ	-4408
▁ᏄᏍᏕ	-4409
▁ᏅᏓᏣ	-4410
▁ᏌᏯᏂ	-4411
▁ᏏᎵᏱ	-4412
▁ᏑᎾᎴ	-4413
▁ᏓᏂᏙ	-4414
▁ᏓᏰᏣ	-4415
▁ᏓᏲᏣ	-4416
▁ᏕᎦᏅ	-4417
▁ᏗᏄᎪ	-4418
▁ᏗᏓᏂ	-4419
▁ᏙᏓᎬ	-4420
▁ᏚᏂᎪ	-4421
▁ᏚᏂᏅ	-4422
▁ᏚᏂᏲ	-4423
▁ᏚᏅᏂ	-4424
▁ᏚᏓᏅ	-4425
▁ᏣᎾᏫ	-4426
▁ᏥᎨᎦ	-4427
▁ᏥᎾᏂ	-4428
▁ᏥᏕᏥ	-4429
▁ᏦᎢᏃ	-4430
▁ᏧᎵᏍ	-4431
▁ᏧᏁᎵ	-4432
▁ᏧᏍᏗ	-4433
▁ᏧᏚᎪ	-4434
▁ᏫᎶᎯ	-4435
▁ᏱᏙᎨ	-4436
▁ᏱᏙᎩ	-4437
ᎾᎵᏍᏓᏴ	-4438
ᎾᏫᏛᎲᎩ	-4439
ᏂᏏᎲᏍᎩ	-4440
ᏅᏍᏔᏅᎩ	-4441
ᏓᎴᏍᏗᏱ	-4442
ᏓᎵᏁᎯᏕ	-4443
ᏓᏂᎸᎬᎾ	-4444
ᏓᏅᎦᎸᏛ	-4445
ᏔᏂᏓᏍᏗ	-4446
ᏕᏲᎲᏍᎦ	-4447
ᏘᏃᎮᎸᎩ	-4448
▁ᎠᎩᎩᎬ	-4449
▁ᎠᎩᏍᏛ	-4450
▁ᎠᎵᏍᏆ	-4451
▁ᎠᏁᏙᎭ	-4452
▁ᎠᏂᏅᎢ	-4453
▁ᎠᏆᏢᏈ	-4454
▁ᎠᏉᏰᏂ	-4455
▁ᎠᏍᏚᎢ	-4456
▁ᎠᏍᏚᎲ	-4457
▁ᎠᏎᎸᎯ	-4458
▁ᎠᏔᎴᏒ	-4459
▁ᎠᏤᏍᏙ	-4460
▁ᎠᏥᏰᎯ	-4461
▁ᎠᏰᏙᎳ	-4462
▁ᎡᎳᏂᎬ	-4463
▁ᎡᏂᎾᏯ	-4464
▁ᎡᏙᏙᏱ	-4465
▁ᎢᎦᏠᏯ	-4466
▁ᎢᎩᏅᏟ	-4467
▁ᎢᏣᏄᏬ	-4468
▁ᎢᏥᎨᏴ	-4469
▁ᎢᏨᏬᏁ	-4470
▁ᎣᎦᏤᎵ	-4471
▁ᎣᎩᏙᏓ	-4472
▁ᎤᎦᏌᏯ	-4473
▁ᎤᎦᏙᎥ	-4474
▁ᎤᎪᎲᎢ	-4475
▁ᎤᎬᏩᎳ	-4476
▁ᎤᎴᏅᎩ	-4477
▁ᎤᎵᏍᎦ	-4478
▁ᎤᏁᏅᏎ	-4479
▁ᎤᏁᏤᎢ	-4480
▁ᎤᏅᏎᎢ	-4481
▁ᎤᏍᏗᏰ	-4482
▁ᎤᏓᏩᏗ	-4483
▁ᎤᏗᏗᏢ	-4484
▁ᎤᏢᏉᏗ	-4485
▁ᎤᏤᎷᎯ	-4486
▁ᎤᏩᏛᏗ	-4487
▁ᎤᏪᏅᎩ	-4488
▁ᎤᏪᏐᏅ	-4489
▁ᎤᏬᎸᎢ	-4490
▁ᎤᏰᎸᎭ	-4491
▁ᎤᏲᏰᏃ	-4492
▁ᎤᏴᎸᎩ	-4493
▁ᎦᎪᏰᏃ	-4494
▁ᎦᏁᎲᎩ	-4495
▁ᎦᏅᎯᏛ	-4496
▁ᎦᏌᎾᎵ	-4497
▁ᎦᏙᏰᏃ	-4498
▁ᎧᏁᎬᏃ	-4499
▁ᎧᏁᏍᎦ	-4500
▁ᎨᎴᏏᏱ	-4501
▁ᎨᏥᏅᏏ	-4502
▁ᎴᎣᏗᏏ	-4503
▁ᎾᎬᏁᎸ	-4504
▁ᎾᎯᏳᎢ	-4505
▁ᏂᎦᏛᏉ	-4506
▁ᏂᎨᏎᎢ	-4507
▁ᏂᎪᎯᏳ	-4508
▁ᏄᎾᏍᏗ	-4509
▁ᏄᏪᎲᎾ	-4510
▁ᏇᎵᏥᏆ	-4511
▁ᏈᎵᎩᏃ	-4512
▁ᏌᏉᎤᏅ	-4513
▁ᏏᎵᏏᏱ	-4514
▁ᏑᎾᎴᏃ	-4515
▁ᏑᏟᎶᏛ	-4516
▁ᏓᎾᏠᏱ	-4517
▁ᏓᏓᎶᏂ	-4518
▁ᏓᏓᏛᏂ	-4519
▁ᏔᎳᏚᏃ	-4520
▁ᏕᎨᎦᏬ	-4521
▁ᏕᎬᏩᏠ	-4522
▁ᏕᏅᏙᎥ	-4523
▁ᏕᏡᎬᎢ	-4524
▁ᏕᏫᏰᏃ	-4525
▁ᏗᏕᎶᏆ	-4526
▁ᏙᏓᎨᏥ	-4527
▁ᏚᎵᏥᏙ	-4528
▁ᏚᎸᏌᏛ	-4529
▁ᏚᎾᏓᏅ	-4530
▁ᏚᏂᏅᏎ	-4531
▁ᏚᏩᏛᎮ	-4532
▁ᏣᏁᎮᎢ	-4533
▁ᏥᏂᎨᎬ	-4534
▁ᏥᏍᎪᏴ	-4535
▁ᏥᏳᎯᏃ	-4536
▁ᏧᎦᎾᏮ	-4537
▁ᏧᏁᏤᎢ	-4538
▁ᏧᏓᎴᏅ	-4539
▁ᏫᏂᏪᏏ	-4540
▁ᏭᏂᎷᏤ	-4541
▁ᏭᏯᏅᎲ	-4542
▁ᏭᏴᎸᎩ	-4543
ᎵᏍᏓᏴᎲᎦ	-4544
ᏓᏅᎡᎮᏍᏗ	-4545
ᏓᏙᎵᏍᏓᏏ	-4546
ᏗᎦᎴᏲᏨᎯ	-4547
ᏘᏅᏍᏔᏁᎢ	-4548
ᏟᏏᏍᎨᏍᏗ	-4549
ᏯᏂᏍᎨᏍᏗ	-4550
ᏰᎵᏎᎮᏍᏗ	-4551
ᏲᏪᎳᏁᎸᎩ	-4552
▁ᎠᎦᏍᎦᏂ	-4553
▁ᎠᎩᏁᏨᎢ	-4554
▁ᎠᎵᏥᏙᏗ	-4555
▁ᎠᎵᏰᎢᎶ	-4556
▁ᎠᏂᎦᏲᎵ	-4557
▁ᎠᏂᎸᏉᏗ	-4558
▁ᎠᏂᏃᎮᎭ	-4559
▁ᎠᏂᏔᏲᎯ	-4560
▁ᎠᏄᎦᎸᎯ	-4561
▁ᎠᏆᏓᏅᏛ	-4562
▁ᎠᏆᏙᎴᎰ	-4563
▁ᎠᏍᎦᏅᏨ	-4564
▁ᎠᏣᏪᏐᎸ	-4565
▁ᎠᏯᏫᏍᎩ	-4566
▁ᎡᏣᏙᎵᎩ	-4567
▁ᎡᏥᏁᎸᎯ	-4568
▁ᎢᎦᎸᏉᏗ	-4569
▁ᎢᎨᎬᏁᏗ	-4570
▁ᎢᎸᏍᎩᏃ	-4571
▁ᎢᏥᏰᎸᎯ	-4572
▁ᎢᏨᏁᏗᏱ	-4573
▁ᎢᏳᏓᎨᏛ	-4574
▁ᎣᎦᎵᏍᏓ	-4575
▁ᎣᎦᏚᎵᎭ	-4576
▁ᎤᎦᎾᏍᏛ	-4577
▁ᎤᎦᏔᎲᏒ	-4578
▁ᎤᎵᎮᎵᏨ	-4579
▁ᎤᏁᏅᏎᏃ	-4580
▁ᎤᏁᏅᏒᎩ	-4581
▁ᎤᏂᎪᎲᎯ	-4582
▁ᎤᏂᏩᏛᎮ	-4583
▁ᎤᏇᏓᎵᏉ	-4584
▁ᎤᏓᎨᏳᏗ	-4585
▁ᎤᏓᏁᏟᏴ	-4586
▁ᎤᏔᏲᏎᎴ	-4587
▁ᎤᏕᏯᏔᏁ	-4588
▁ᎤᏪᏅᏒᎩ	-4589
▁ᎤᏰᎸᏁᎢ	-4590
▁ᎤᏲᎱᏎᏗ	-4591
▁ᎤᏲᏍᏛᏉ	-4592
▁ᎥᏓᎷᎶᏗ	-4593
▁ᎦᎸᎳᏗᏃ	-4594
▁ᎦᎾᏄᎪᏥ	-4595
▁ᎦᏃᏙᏗᏱ	-4596
▁ᎦᏰᏥᏐᏢ	-4597
▁ᎦᏳᎳᏰᏃ	-4598
▁ᎨᏥᏅᏒᎯ	-4599
▁ᎨᏥᏍᎦᎩ	-4600
▁ᎪᎵᏂᏗᏱ	-4601
▁ᎾᎩᏪᏒᎩ	-4602
▁ᏂᎦᎥᏰᏃ	-4603
▁ᏂᎦᎵᏍᏓ	-4604
▁ᏂᎪᎯᎸᏉ	-4605
▁ᏂᏦᎵᎬᎾ	-4606
▁ᏄᎾᏛᏁᎸ	-4607
▁ᏄᏛᏁᎴᎢ	-4608
▁ᏑᏕᏘᏴᏛ	-4609
▁ᏓᎦᏛᏁᎵ	-4610
▁ᏓᏂᎸᏓᎩ	-4611
▁ᏓᏂᏁᎸᎢ	-4612
▁ᏓᏓᏁᎳᏗ	-4613
▁ᏗᏣᏁᎶᏗ	-4614
▁ᏙᏛᎾᎴᏂ	-4615
▁ᏚᎾᏄᎪᏫ	-4616
▁ᏚᎿᏍᏕᏢ	-4617
▁ᏚᏅᏍᏓᏕ	-4618
▁ᏣᎦᏑᎲᎢ	-4619
▁ᏣᏍᎦᏅᏨ	-4620
▁ᏫᏥᎦᏛᎢ	-4621
▁ᏫᏥᎷᏨᎭ	-4622
▁ᏫᏥᏲᎵᎦ	-4623
▁ᏫᏲᏪᎳᏏ	-4624
▁ᏱᏂᎬᏁᎭ	-4625
▁ᏱᏅᏩᏍᏗ	-4626
ᎦᏌᏯᏍᏗᏕᎩ	-4627
ᏁᎢᏍᏗᏍᎬᎢ	-4628
ᏍᏓᏩᏛᏍᏗᏱ	-4629
ᏓᏙᎵᏍᏓᏁᏗ	-4630
▁ᎠᎩᏅᏏᏙᎯ	-4631
▁ᎠᏁᎵᏍᎬᎩ	-4632
▁ᎠᏂᎦᏔᎾᎢ	-4633
▁ᎠᏍᎫᏕᏍᏗ	-4634
▁ᎠᏏᎾᏌᏂᏳ	-4635
▁ᎠᏓᏰᎨᏍᏗ	-4636
▁ᎠᏚᎢᏍᏛᎢ	-4637
▁ᎡᏣᎸᏉᏗᏳ	-4638
▁ᎢᏥᏯᎡᏍᏗ	-4639
▁ᎢᏨᎨᏳᎢᏳ	-4640
▁ᎢᏨᏲᏪᎳᏏ	-4641
▁ᎣᏏᏳᏍᎩᏂ	-4642
▁ᎤᎦᏔᏔᏅᎯ	-4643
▁ᎤᎵᏍᏚᎢᏛ	-4644
▁ᎤᎾᏄᎪᏥᎸ	-4645
▁ᎤᎾᏓᏑᏰᏛ	-4646
▁ᎤᎾᏛᎦᏁᎢ	-4647
▁ᎤᎾᏛᎦᏅᏃ	-4648
▁ᎤᎾᏛᎪᏗᏱ	-4649
▁ᎤᎾᏰᎯᏍᏗ	-4650
▁ᎤᏃᎯᏳᏅᎩ	-4651
▁ᎤᏓᏅᏍᏗᏱ	-4652
▁ᎤᏓᏙᎵᏣᏘ	-4653
▁ᎦᎵᎷᎨᏍᏗ	-4654
▁ᎦᏁᏟᏴᏍᏗ	-4655
▁ᎬᏩᎷᏤᎴᎢ	-4656
▁ᎬᏩᏔᏲᏎᎴ	-4657
▁ᎬᏬᎯᏳᏅᎩ	-4658
▁ᎭᏓᏅᏖᏍᎬ	-4659
▁ᎾᏂᏍᎦᏅᎾ	-4660
▁ᎾᏂᏪᏍᎬᎢ	-4661
▁ᏂᎦᎥᏍᎩᏂ	-4662
▁ᏂᏕᎦᏪᏎᎲ	-4663
▁ᏂᏥᏪᏍᎪᎢ	-4664
▁ᏄᎾᏓᎡᏍᏗ	-4665
▁ᏄᎾᏛᏁᎸᎢ	-4666
▁ᏅᏓᏳᏅᏏᏛ	-4667
▁ᏍᎩᎨᏳᎢᏳ	-4668
▁ᏍᎩᏯᏅᏓᏗ	-4669
▁ᏓᏂᎳᏫᎥᎢ	-4670
▁ᏓᏂᏄᏙᎬᎢ	-4671
▁ᏓᏕᏲᎲᏍᎬ	-4672
▁ᏗᎨᏥᎾᏝᎢ	-4673
▁ᏗᎬᎪᏩᏛᏗ	-4674
▁ᏗᏂᎭᏄᎸᎯ	-4675
▁ᏗᏄᎪᏗᏍᎩ	-4676
▁ᏗᏆᎳᏏᏕᏂ	-4677
▁ᏗᏓᏂᏐᏗᏱ	-4678
▁ᏗᏕᏲᎲᏍᎩ	-4679
▁ᏗᏣᎳᏏᏕᏂ	-4680
▁ᏣᏓᏲᏁᎸᎩ	-4681
▁ᏥᏨᏰᎳᏗᏙ	-4682
▁ᏧᎾᎳᏏᏕᏂ	-4683
▁ᏧᏁᏢᏔᏅᏛ	-4684
▁ᏱᏥᎪᎵᏰᎣ	-4685
▁ᎠᏓᏲᏁᎮᏍᏗ	-4686
▁ᎢᏨᏲᏪᎳᏁᎭ	-4687
▁ᎤᏂᏍᏆᏂᎪᏎ	-4688
▁ᎤᏄᏬᏍᏕᏍᏗ	-4689
▁ᎤᏓᏙᎵᏍᏔᏅ	-4690
▁ᎤᏙᎯᏳᎯᏰᏃ	-4691
▁ᎦᎸᎳᏗᏍᎩᏂ	-4692
▁ᎪᎯᏳᏗᏍᎩᏂ	-4693
▁ᏂᏚᎾᏁᎶᏛᎾ	-4694
▁ᏅᏛᏆᏓᎴᏅᎯ	-4695
▁ᏓᎾᏕᏲᎲᏍᎬ	-4696
▁ᏕᎦᎵᎷᎨᏍᏗ	-4697
▁ᏕᏥᎨᏳᏎᏍᏗ	-4698
▁ᏕᏥᏂᏴᏎᏍᏗ	-4699
▁ᏗᎦᏬᏂᎯᏍᏗ	-4700
▁ᏗᎧᏃᎩᏍᏙᏗ	-4701
▁ᏗᎾᏂᏏᎲᏍᎩ	-4702
▁ᏧᎾᏄᎪᏫᏒᎯ	-4703
▁ᏧᏂᏬᏂᎯᏍᏗ	-4704
▁ᎢᏣᏚᎵᏍᎨᏍᏗ	-4705
▁ᎤᎵᏠᏯᏍᏕᏍᏗ	-4706
▁ᎤᎾᏙᏓᏆᏍᎬᎢ	-4707
▁ᎤᎾᏙᏓᏆᏍᎬᏃ	-4708
▁ᏂᏚᎾᏓᏪᏎᎸᎩ	-4709
▁ᏄᎵᏍᏔᏂᏙᎸᎢ	-4710
▁ᏓᎩᎸᏫᏍᏓᏁᎲ	-4711
▁ᏚᏟᎶᏍᏓᏁᎴᎢ	-4712
▁ᏧᎾᏄᎪᏫᏎᏗᏱ	-4713
▁ᎢᏣᏓᏙᎵᏍᏗᏍᎬ	-4714
▁ᏂᎦᎵᏍᏗᏍᎨᏍᏗ	-4715
▁ᏓᏂᎸᏓᎩᏍᎨᏍᏗ	-4716
▁ᏗᎩᎸᏫᏍᏓᏁᏗᏱ	-4717
▁ᎢᎧᏁᎢᏍᏗᏍᎨᏍᏗ	-4718
ᎠᏴ	-4719
ᎡᎲ	-4720
ᎡᏥ	-4721
ᎢᎦ	-4722
ᎦᏚ	-4723
ᎬᏃ	-4724
ᎭᏛ	-4725
ᎵᏬ	-4726
ᎹᏂ	-4727
ᎻᎵ	-4728
ᎻᏂ	-4729
ᎾᎨ	-4730
ᎾᎸ	-4731
ᏁᏌ	-4732
ᏂᎭ	-4733
ᏂᎵ	-4734
ᏂᏛ	-4735
ᏃᎭ	-4736
ᏄᏣ	-4737
ᏄᏫ	-4738
ᏆᎴ	-4739
ᏏᎳ	-4740
ᏏᏂ	-4741
ᏏᏙ	-4742
ᏏᏳ	-4743
ᏑᎵ	-4744
ᏒᏉ	-4745
ᏓᏌ	-4746
ᏓᏝ	-4747
ᏓᏬ	-4748
ᏕᎪ	-4749
ᏕᏨ	-4750
ᏖᎳ	-4751
ᏗᎹ	-4752
ᏗᏗ	-4753
ᏘᏁ	-4754
ᏛᎴ	-4755
ᏜᎢ	-4756
ᏝᏗ	-4757
ᏢᎢ	-4758
ᏣᏄ	-4759
ᏤᎯ	-4760
ᏪᏅ	-4761
ᏯᎥ	-4762
ᏰᎦ	-4763
▁Ꮊ	-4764
ᎥᏔᏂ	-4765
ᎧᏃᎮ	-4766
ᎧᏃᏗ	-4767
ᎨᏎᎢ	-4768
ᎩᎡᏗ	-4769
ᎫᏍᏓ	-4770
ᎫᏴᎯ	-4771
ᎫᏴᏛ	-4772
ᎬᏩᏂ	-4773
ᎯᏍᏛ	-4774
ᎳᏁᎬ	-4775
ᎴᎯᏌ	-4776
ᎵᏍᎩ	-4777
ᎵᏍᎪ	-4778
ᎵᏍᏛ	-4779
ᎵᏏᎲ	-4780
ᎶᎯᎭ	-4781
ᎶᎸᎭ	-4782
ᎶᏐᏂ	-4783
ᎷᎬᎩ	-4784
ᎷᏆᏗ	-4785
ᎷᏥᏏ	-4786
ᎸᏒᎩ	-4787
ᎾᎵᎢ	-4788
ᎾᏕᎩ	-4789
ᏁᎳᎩ	-4790
ᏁᏤᎲ	-4791
ᏂᎩᏛ	-4792
ᏂᏌᏁ	-4793
ᏂᏙᎲ	-4794
ᏂᏴᎯ	-4795
ᏃᎵᏳ	-4796
ᏃᏁᎵ	-4797
ᏃᏍᏛ	-4798
ᏄᎪᎬ	-4799
ᏅᎥᏏ	-4800
ᏅᏒᎢ	-4801
ᏅᏬᏗ	-4802
ᏍᎦᎦ	-4803
ᏍᎪᎾ	-4804
ᏍᎪᏃ	-4805
ᏍᎬᏃ	-4806
ᏍᏗᏳ	-4807
ᏎᎲᎢ	-4808
ᏎᎲᎩ	-4809
ᏎᎲᎾ	-4810
ᏎᎸᎢ	-4811
ᏎᎸᎭ	-4812
ᏑᏴᎩ	-4813
ᏒᏂᎦ	-4814
ᏓᎸᎾ	-4815
ᏓᏁᎳ	-4816
ᏓᏂᏌ	-4817
ᏓᏡᏫ	-4818
ᏔᏂᎸ	-4819
ᏖᎸᏗ	-4820
ᏗᏔᎯ	-4821
ᏗᏗᏱ	-4822
ᏙᎯᏃ	-4823
ᏝᏅᎯ	-4824
ᏟᎶᎥ	-4825
ᏟᏌᏅ	-4826
ᏠᎠᎯ	-4827
ᏡᏗᎭ	-4828
ᏢᏉᏗ	-4829
ᏣᏴᎸ	-4830
ᏪᏍᏗ	-4831
ᏯᎷᏗ	-4832
ᏯᏅᎮ	-4833
ᏰᎸᏁ	-4834
ᏴᎵᎸ	-4835
▁ᎠᏳ	-4836
▁ᎡᏧ	-4837
▁ᎤᏔ	-4838
▁ᎤᏞ	-4839
▁ᎤᏭ	-4840
▁ᎦᎯ	-4841
▁ᎦᎶ	-4842
▁ᎨᏂ	-4843
▁ᎫᎴ	-4844
▁ᎮᎯ	-4845
▁ᎮᏓ	-4846
▁ᎹᎾ	-4847
▁ᎾᎠ	-4848
▁ᎾᎤ	-4849
▁ᎾᏁ	-4850
▁ᎾᏧ	-4851
▁ᏂᎪ	-4852
▁ᏂᏪ	-4853
▁ᏃᏥ	-4854
▁ᏄᎵ	-4855
▁ᏅᏋ	-4856
▁ᏅᏔ	-4857
▁ᏅᏥ	-4858
▁ᏇᏣ	-4859
▁ᏌᏚ	-4860
▁ᏏᎦ	-4861
▁ᏙᏦ	-4862
▁ᏣᏅ	-4863
▁ᏤᎯ	-4864
▁ᏤᎲ	-4865
▁ᏧᏣ	-4866
▁ᏧᏮ	-4867
▁ᏪᏣ	-4868
▁ᏫᎩ	-4869
▁ᏫᏴ	-4870
▁ᏱᏦ	-4871
▁ᏱᏩ	-4872
▁ᏲᏨ	-4873
▁ᏴᎩ	-4874
ᎢᏍᏛᎾ	-4875
ᎦᎵᏍᏙ	-4876
ᎦᏯᎷᏗ	-4877
ᎩᎵᏲᎢ	-4878
ᎩᏏᏕᎩ	-4879
ᎫᏴᎡᎵ	-4880
ᎬᏓᎨᏂ	-4881
ᎵᎡᎵᏤ	-4882
ᎸᏉᏔᏅ	-4883
ᎿᏕᎬᎢ	-4884
ᏁᎶᏛᎢ	-4885
ᏂᎬᎬᎢ	-4886
ᏂᏍᏗᏱ	-4887
ᏂᏴᎲᎩ	-4888
ᏃᎮᎴᎢ	-4889
ᏃᎯᏴᎯ	-4890
ᏃᎱᎶᏗ	-4891
ᏄᎪᏨᎯ	-4892
ᏄᎪᏫᏏ	-4893
ᏍᎩᏒᎩ	-4894
ᏍᎪᏰᏃ	-4895
ᏍᎬᎾᏃ	-4896
ᏍᏆᏃᏴ	-4897
ᏍᏕᎸᏛ	-4898
ᏍᏙᏍᎩ	-4899
ᏍᏚᏅᎩ	-4900
ᏎᎪᎩᏒ	-4901
ᏎᏍᏗᏉ	-4902
ᏒᏂᎸᎯ	-4903
ᏓᎴᏅᎢ	-4904
ᏓᏂᎸᎪ	-4905
ᏓᏕᏗᏱ	-4906
ᏓᏗᏍᏗ	-4907
ᏓᏡᏔᏂ	-4908
ᏓᏲᏁᎯ	-4909
ᏔᏲᏎᎸ	-4910
ᏕᎯᎰᎢ	-4911
ᏙᎨᏍᏗ	-4912
ᏙᎵᏨᎩ	-4913
ᏚᎵᏍᎨ	-4914
ᏛᏁᎸᎩ	-4915
ᏛᏓᏍᏓ	-4916
ᏞᎨᏍᏗ	-4917
ᏠᎾᏍᏛ	-4918
ᏠᏍᎬᎾ	-4919
ᏠᏱᎸᎩ	-4920
ᏥᏙᎸᎢ	-4921
ᏥᏯᏠᎢ	-4922
ᏦᏯᏍᏗ	-4923
ᏪᏎᎲᎩ	-4924
ᏪᏎᎸᎢ	-4925
ᏬᏍᏙᏗ	-4926
ᏯᏂᏍᎪ	-4927
ᏰᎳᏍᏗ	-4928
ᏱᎵᏙᎯ	-4929
▁ᎠᎪᎢ	-4930
▁ᎠᎪᎲ	-4931
▁ᎠᏁᎷ	-4932
▁ᎠᏂᎶ	-4933
▁ᎠᏐᏴ	-4934
▁ᎠᏚᎸ	-4935
▁ᎠᏢᏈ	-4936
▁ᎡᏈᎳ	-4937
▁ᎡᏍᏗ	-4938
▁ᎡᏙᎮ	-4939
▁ᎢᎦᏃ	-4940
▁ᎢᎳᎩ	-4941
▁ᎢᏥᎲ	-4942
▁ᎣᎩᏂ	-4943
▁ᎣᏌᏂ	-4944
▁ᎣᏍᏗ	-4945
▁ᎤᎴᏂ	-4946
▁ᎤᎵᏱ	-4947
▁ᎤᎶᏐ	-4948
▁ᎤᏁᎸ	-4949
▁ᎤᏂᎯ	-4950
▁ᎤᏂᎸ	-4951
▁ᎤᏂᏥ	-4952
▁ᎤᏅᏩ	-4953
▁ᎤᏍᏘ	-4954
▁ᎤᏓᏳ	-4955
▁ᎤᏣᏛ	-4956
▁ᎤᏤᏘ	-4957
▁ᎤᏩᏅ	-4958
▁ᎤᏪᏲ	-4959
▁ᎦᎵᏆ	-4960
▁ᎦᎷᎶ	-4961
▁ᎦᏰᏣ	-4962
▁ᎧᏱᏆ	-4963
▁ᎨᎻᎵ	-4964
▁ᎬᏬᎵ	-4965
▁ᎯᎷᎦ	-4966
▁ᎯᏍᎦ	-4967
▁ᎯᏰᎸ	-4968
▁ᎰᏌᎾ	-4969
▁ᎵᏍᏗ	-4970
▁ᎾᎥᎢ	-4971
▁ᎾᎿᏉ	-4972
▁ᏂᏓᏂ	-4973
▁ᏅᏓᏥ	-4974
▁ᏅᏗᎦ	-4975
▁ᏍᏗᏫ	-4976
▁ᏏᏆᏏ	-4977
▁ᏏᏐᎢ	-4978
▁ᏐᎳᏃ	-4979
▁ᏓᏂᎵ	-4980
▁ᏓᏍᎫ	-4981
▁ᏓᏲᏥ	-4982
▁ᏔᎵᏃ	-4983
▁ᏕᏣᏘ	-4984
▁ᏗᎦᏃ	-4985
▁ᏗᎪᏢ	-4986
▁ᏗᎪᏪ	-4987
▁ᏗᏁᎲ	-4988
▁ᏗᏐᏴ	-4989
▁ᏗᏣᏘ	-4990
▁ᏙᏓᏣ	-4991
▁ᏙᏛᎠ	-4992
▁ᏚᏁᎴ	-4993
▁ᏚᏄᎪ	-4994
▁ᏚᏑᏰ	-4995
▁ᏚᏪᎧ	-4996
▁ᏣᏁᏨ	-4997
▁ᏥᏁᏣ	-4998
▁ᏥᏂᏚ	-4999
▁ᏥᏅᎵ	-5000
▁ᏥᏍᎦ	-5001
▁ᏥᏚᎾ	-5002
▁ᏥᏤᎭ	-5003
▁ᏥᏲᏏ	-5004
▁ᏥᏴᎩ	-5005
▁ᏦᏓᎸ	-5006
▁ᏨᏗᎦ	-5007
▁ᏫᎤᏂ	-5008
▁ᏫᏓᏗ	-5009
▁ᏭᎶᏎ	-5010
▁ᏭᏴᎴ	-5011
▁ᏯᏗᎭ	-5012
▁ᏯᏛᏅ	-5013
▁ᏱᎦᏓ	-5014
▁ᏱᎦᏥ	-5015
▁ᏱᎨᏐ	-5016
▁ᏱᎨᏣ	-5017
▁ᏱᏍᏛ	-5018
▁ᏳᏂᎪ	-5019
▁ᏳᏪᎭ	-5020
▁ᏴᎦᎦ	-5021
ᎧᏂᏍᎬᎢ	-5022
ᎪᏩᏘᏍᎪ	-5023
ᏁᎢᏍᏗᎭ	-5024
ᏁᎶᏙᏗᏱ	-5025
ᏁᏟᏴᏍᏗ	-5026
ᏂᏗᏍᏙᏗ	-5027
ᏍᎦᏅᎪᎢ	-5028
ᏍᏓᏩᏗᏒ	-5029
ᏍᏕᎵᏌᏕ	-5030
ᏍᏗᏍᎨᎢ	-5031
ᏑᎵᎪᎬᎾ	-5032
ᏓᏂᎸᎪᎢ	-5033
ᏓᏂᎸᏨᎭ	-5034
ᏓᏅᏖᏍᏗ	-5035
ᏓᏅᏖᏗᏱ	-5036
ᏓᏅᏬᏗᏱ	-5037
ᏓᏆᎶᏍᎩ	-5038
ᏗᎦᏅᎯᏛ	-5039
ᏗᏔᏍᎨᎢ	-5040
ᏗᏔᏍᏗᏱ	-5041
ᏘᏃᎮᎴᎢ	-5042
ᏚᎪᏓᏁᏗ	-5043
ᏚᏓᏕᏫᏒ	-5044
ᏛᎦᏁᏗᏱ	-5045
ᏟᎶᏍᏔᏂ	-5046
ᏰᎸᏎᏍᏗ	-5047
ᏲᏍᎨᏍᏗ	-5048
ᏴᎯᎮᏍᏗ	-5049
▁ᎠᎦᏅᎩ	-5050
▁ᎠᎨᏳᏗ	-5051
▁ᎠᎩᎾᏫ	-5052
▁ᎠᎫᏴᏗ	-5053
▁ᎠᎾᏓᏛ	-5054
▁ᎠᏁᎲᎩ	-5055
▁ᎠᏂᎶᎻ	-5056
▁ᎠᏂᏈᎷ	-5057
▁ᎠᏂᏯᎢ	-5058
▁ᎠᏎᏰᏃ	-5059
▁ᎠᏫᏒᎯ	-5060
▁ᎠᏯᎥᎢ	-5061
▁ᎡᎶᎯᏃ	-5062
▁ᎡᎶᏗᏏ	-5063
▁ᎡᏗᏂᏱ	-5064
▁ᎢᎦᎵᎢ	-5065
▁ᎢᎬᏩᎾ	-5066
▁ᎢᏏᎵᏱ	-5067
▁ᎢᏤᎵᎭ	-5068
▁ᎢᏥᏁᎫ	-5069
▁ᎢᏥᏁᏗ	-5070
▁ᎤᎦᏛᎴ	-5071
▁ᎤᎩᏒᎩ	-5072
▁ᎤᎩᏨᏅ	-5073
▁ᎤᎮᏍᏗ	-5074
▁ᎤᎵᏂᎪ	-5075
▁ᎤᎷᏤᎴ	-5076
▁ᎤᎾᏚᎵ	-5077
▁ᎤᏂᎩᏒ	-5078
▁ᎤᏂᏁᎢ	-5079
▁ᎤᏂᏁᏉ	-5080
▁ᎤᏂᏐᏅ	-5081
▁ᎤᏄᎪᏨ	-5082
▁ᎤᏅᏒᏃ	-5083
▁ᎤᏍᏓᏱ	-5084
▁ᎤᏏᏙᎵ	-5085
▁ᎤᏓᏅᏒ	-5086
▁ᎤᏓᏑᏱ	-5087
▁ᎤᏕᏗᏱ	-5088
▁ᎤᏗᏛᎮ	-5089
▁ᎤᏘᏴᎯ	-5090
▁ᎤᏩᏔᏁ	-5091
▁ᎤᏩᏛᎲ	-5092
▁ᎤᏪᏁᎢ	-5093
▁ᎤᏪᏅᏎ	-5094
▁ᎤᏪᏙᎸ	-5095
▁ᎤᏮᏔᏅ	-5096
▁ᎤᏰᎸᏎ	-5097
▁ᎦᎾᏍᏓ	-5098
▁ᎦᏅᎬᎢ	-5099
▁ᎦᏅᏅᎢ	-5100
▁ᎨᏦᎯᏳ	-5101
▁ᎪᏢᏒᎢ	-5102
▁ᎬᎨᏳᎢ	-5103
▁ᎬᏲᏎᎭ	-5104
▁ᎭᎵᎮᎵ	-5105
▁ᎭᏟᏂᎬ	-5106
▁ᎯᎦᏘᏏ	-5107
▁ᎯᏄᎪᎢ	-5108
▁ᎰᏪᎸᎦ	-5109
▁ᎲᏂᏗᏳ	-5110
▁ᏂᎦᎥᎢ	-5111
▁ᏂᎦᎥᏃ	-5112
▁ᏂᏓᏕᏘ	-5113
▁ᏅᎩᏁᏃ	-5114
▁ᏓᏥᎷᏥ	-5115
▁ᏓᏥᏁᎵ	-5116
▁ᏓᏫᏒᎢ	-5117
▁ᏕᎦᏃᏣ	-5118
▁ᏕᎭᏕᏲ	-5119
▁ᏕᏥᎧᎿ	-5120
▁ᏕᏥᏃᎩ	-5121
▁ᏗᏥᎨᏫ	-5122
▁ᏚᏁᏤᎸ	-5123
▁ᏚᏍᏚᎢ	-5124
▁ᏚᏰᎵᎯ	-5125
▁ᏞᏍᏗᏉ	-5126
▁ᏣᏓᎸᎩ	-5127
▁ᏧᎾᏂᏏ	-5128
▁ᏩᎵᏰᎢ	-5129
▁ᏫᏚᎧᎿ	-5130
▁ᏳᏓᏑᏯ	-5131
ᎳᏗᏍᎨᏍᏗ	-5132
ᎵᏥᏙᎲᏍᎦ	-5133
ᎾᏄᎪᏫᏍᎪ	-5134
ᏅᏍᏓᏕᎸᎩ	-5135
ᏍᎦᏅᎨᏍᏗ	-5136
ᏍᏆᏂᎪᏔᏅ	-5137
ᏎᎪᎩᏍᏗᏱ	-5138
ᏛᏁᎵᏓᏍᏗ	-5139
ᏦᎯᏳᎲᏍᎦ	-5140
ᏩᏛᎲᏍᏗᏱ	-5141
▁ᎠᎧᎵᏬᎯ	-5142
▁ᎠᎩᏇᏓᎸ	-5143
▁ᎠᎫᎢᏍᏗ	-5144
▁ᎠᎹᏳᎶᏗ	-5145
▁ᎠᎾᎢᏒᎢ	-5146
▁ᎠᎾᏛᎬᎦ	-5147
▁ᎠᏁᎮᏍᏗ	-5148
▁ᎠᏂᎪᎲᎭ	-5149
▁ᎠᏂᏁᎬᎢ	-5150
▁ᎠᏂᏯᏙᎯ	-5151
▁ᎠᏋᏔᏅᎯ	-5152
▁ᎠᏗᏔᏍᏗ	-5153
▁ᎠᏥᎪᎵᏰ	-5154
▁ᎠᏰᎸᏒᎩ	-5155
▁ᎡᏍᎦᏂᏳ	-5156
▁ᎢᎦᏚᏓᎴ	-5157
▁ᎢᎬᏛᏁᏗ	-5158
▁ᎢᏓᎵᎮᎵ	-5159
▁ᎢᏗᎦᏛᎯ	-5160
▁ᎢᏛᏗᏍᎬ	-5161
▁ᎢᏣᎦᏔᏅ	-5162
▁ᎢᏣᏓᏅᏟ	-5163
▁ᎢᏣᏛᎬᎦ	-5164
▁ᎢᏥᏯᏅᏛ	-5165
▁ᎢᏨᏗᏍᎬ	-5166
▁ᎢᏨᏙᏗᏱ	-5167
▁ᎢᏯᎬᏁᏗ	-5168
▁ᎢᏳᏛᏁᏗ	-5169
▁ᎢᏳᏩᏁᎯ	-5170
▁ᎤᎬᎥᏍᎩ	-5171
▁ᎤᎵᏬᏨᎯ	-5172
▁ᎤᎶᎩᎸᎢ	-5173
▁ᎤᎸᏉᏔᏁ	-5174
▁ᎤᎾᏅᏗᏱ	-5175
▁ᎤᎾᏓᏟᏌ	-5176
▁ᎤᎾᏢᏉᏗ	-5177
▁ᎤᏁᎳᏫᏎ	-5178
▁ᎤᏁᎷᏁᎢ	-5179
▁ᎤᏁᏉᏨᎯ	-5180
▁ᎤᏂᏁᏨᏃ	-5181
▁ᎤᏂᏰᎸᎭ	-5182
▁ᎤᏂᏰᎸᏅ	-5183
▁ᎤᏅᏙᏗᏱ	-5184
▁ᎤᏍᏗᎩᏛ	-5185
▁ᎤᏍᏗᎩᏳ	-5186
▁ᎤᏕᏁᎸᎯ	-5187
▁ᎤᏗᏔᏍᏗ	-5188
▁ᎤᏚᎵᏍᎨ	-5189
▁ᎤᏢᏓᎸᏛ	-5190
▁ᎤᏬᎯᏳᏒ	-5191
▁ᎥᏆᎸᎢᏛ	-5192
▁ᎦᎪᎵᏍᏗ	-5193
▁ᎨᏣᏍᎦᎩ	-5194
▁ᎪᏪᎳᏅᎯ	-5195
▁ᎬᏔᏲᏎᎭ	-5196
▁ᎬᏩᎵᏃᎮ	-5197
▁ᎯᏯᏛᎥᎦ	-5198
▁ᎴᎣᏗᏏᏯ	-5199
▁ᎾᎪᏔᏅᎾ	-5200
▁ᏂᎦᏛᏍᎪ	-5201
▁ᏂᏚᏩᏁᎸ	-5202
▁ᏂᏣᏛᏁᎭ	-5203
▁ᏂᏥᎪᎸᎾ	-5204
▁ᏄᏓᏑᏴᎾ	-5205
▁ᏄᏛᏁᎸᎩ	-5206
▁ᏄᏩᏁᎸᎩ	-5207
▁ᏅᏃᎱᎶᏗ	-5208
▁ᏅᏓᏨᏁᎵ	-5209
▁ᏓᏂᏍᎦᎢ	-5210
▁ᏓᏟᎶᏍᏗ	-5211
▁ᏕᎦᎳᏅᏛ	-5212
▁ᏗᎧᏃᏗᏱ	-5213
▁ᏗᎪᏢᏅᎯ	-5214
▁ᏗᏂᏅᏌᏗ	-5215
▁ᏗᏂᏲᎤᎵ	-5216
▁ᏗᏅᏂᏗᏳ	-5217
▁ᏗᏍᏓᏱᏳ	-5218
▁ᏗᏣᎧᏅᎦ	-5219
▁ᏚᎵᏂᏆᏅ	-5220
▁ᏚᎵᏍᏚᎢ	-5221
▁ᏣᎢᏎᏍᏗ	-5222
▁ᏣᏓᏅᏛᎢ	-5223
▁ᏣᏚᎵᏍᎪ	-5224
▁ᏣᏥᏁᎸᎯ	-5225
▁ᏥᏌᏍᎩᏂ	-5226
▁ᏧᎾᏓᎵᎢ	-5227
▁ᏧᏂᏴᏍᏕ	-5228
▁ᏧᏓᏅᏓᏗ	-5229
▁ᏫᎦᎾᏄᎪ	-5230
▁ᏭᏂᏴᎴᎢ	-5231
▁ᏱᎾᎾᏛᏁ	-5232
ᏐᏅᎢᏍᏔᏅᎯ	-5233
ᏐᏢᎢᏍᏙᏗᏱ	-5234
ᏓᏙᎵᏍᏗᏍᎬ	-5235
ᏗᎦᎵᎠᏅᎯᏛ	-5236
▁ᎠᎦᎫᏴᎡᏗ	-5237
▁ᎠᏂᎦᏴᎵᎨ	-5238
▁ᎠᏂᏍᎦᎾᎢ	-5239
▁ᎠᏆᏓᏅᏖᏛ	-5240
▁ᎠᏍᏆᎸᎲᎭ	-5241
▁ᎠᏍᏕᎵᏍᎩ	-5242
▁ᎠᏓᏅᏙᏰᏃ	-5243
▁ᎠᏙᎳᏅᏍᏗ	-5244
▁ᎠᏚᏓᎴᏍᏗ	-5245
▁ᎡᏣᎫᏴᎡᏗ	-5246
▁ᎢᏗᏏᏴᏫᎭ	-5247
▁ᎢᏣᏚᎵᏍᎬ	-5248
▁ᎢᏣᏛᏓᏍᏓ	-5249
▁ᎢᏥᎧᎵᏨᎯ	-5250
▁ᎢᏥᎪᏩᏘᎭ	-5251
▁ᎢᏥᎷᏤᏗᏱ	-5252
▁ᎢᏨᏯᎵᏥᏙ	-5253
▁ᎢᏯᏓᏅᏖᏗ	-5254
▁ᎢᏰᏨᏁᎸᎯ	-5255
▁ᎢᏳᏍᎩᏂᏃ	-5256
▁ᎢᏳᏩᎿᏕᎩ	-5257
▁ᎣᎦᏁᎳᏅᎯ	-5258
▁ᎤᎦᎵᏍᏗᏉ	-5259
▁ᎤᎵᎮᎵᏨᎯ	-5260
▁ᎤᎶᎯᏍᏗᏱ	-5261
▁ᎤᏂᎵᏅᏨᎯ	-5262
▁ᎤᏂᏃᏁᏗᏱ	-5263
▁ᎤᏃᎯᏳᏒᎢ	-5264
▁ᎤᏍᏆᏂᎪᏛ	-5265
▁ᎤᏍᏕᎸᏗᏱ	-5266
▁ᎤᏓᏅᎦᎸᏛ	-5267
▁ᎤᏓᏙᎵᏣᏛ	-5268
▁ᎤᏚᎵᏍᎬᎩ	-5269
▁ᎤᏤᎷᎯᏒᎩ	-5270
▁ᎤᏪᏐᏅᏴᎩ	-5271
▁ᎤᏲᎱᎯᏍᏗ	-5272
▁ᎥᎦᏥᎪᎥᎩ	-5273
▁ᎧᏃᎮᏍᎬᎩ	-5274
▁ᎨᏥᏅᏏᏛᏃ	-5275
▁ᎪᎢᏳᎲᏍᎦ	-5276
▁ᎬᏂᏳᏉᏰᏃ	-5277
▁ᎬᏩᏃᎮᏍᎩ	-5278
▁ᎬᏩᏛᏛᏁᎢ	-5279
▁ᎾᎯᏳᏍᎩᏂ	-5280
▁ᏂᎨᏳᏎᏍᏗ	-5281
▁ᏂᎬᏠᏍᎬᎾ	-5282
▁ᏂᏑᏪᏎᎴᎢ	-5283
▁ᏂᏚᏪᏎᎸᎢ	-5284
▁ᏂᏣᏛᏁᎲᎢ	-5285
▁ᏂᏥᏍᎦᏅᎾ	-5286
▁ᏄᏚᎵᏍᎬᎾ	-5287
▁ᏓᏟᎶᏍᏛᎢ	-5288
▁ᏕᎪᏢᏩᏗᏒ	-5289
▁ᏗᎧᎿᏩᏕᎩ	-5290
▁ᏗᎩᏲᎱᏒᎯ	-5291
▁ᏗᎫᎪᏗᏍᎩ	-5292
▁ᏗᎬᏩᏂᏰᎯ	-5293
▁ᏗᏂᎬᏓᎨᏂ	-5294
▁ᏗᏣᏓᎴᏅᏛ	-5295
▁ᏗᏥᏲᎱᏒᎯ	-5296
▁ᏚᏬᏁᏔᏅᎩ	-5297
▁ᏚᏳᎪᏗᏍᎪ	-5298
▁ᏥᎦᏔᎭᏰᏃ	-5299
▁ᏦᏍᏓᏓᏅᏟ	-5300
▁ᏧᎾᏘᏂᏙᎯ	-5301
▁ᏧᏂᏦᏯᏍᏗ	-5302
▁ᏱᏄᎵᏍᏔᏅ	-5303
ᎩᎵᏲᎢᏍᏙᏗᏱ	-5304
▁ᎠᏂᏐᎢᏍᎩᏂ	-5305
▁ᎠᏓᏙᎵᏍᏙᏗ	-5306
▁ᎠᏓᏪᎵᎩᏍᎩ	-5307
▁ᎡᏣᏅᏏᏓᏍᏗ	-5308
▁ᎡᏥᏅᏏᏓᏍᏗ	-5309
▁ᎤᎾᏙᎴᎰᏒᎩ	-5310
▁ᎤᏂᎦᏙᎥᏒᎯ	-5311
▁ᎤᏍᏓᏩᏗᏙᎯ	-5312
▁ᎤᏲᎱᏎᎮᏍᏗ	-5313
▁ᎬᏩᏔᏲᏎᎸᎩ	-5314
▁ᎬᏬᎯᏳᎲᏍᎩ	-5315
▁ᎾᏂᏍᎦᎢᎲᎾ	-5316
▁ᏂᎦᎵᏍᏙᏗᎭ	-5317
▁ᏂᏗᎾᏰᏍᎬᎾ	-5318
▁ᏂᏥᏍᎦᎢᎲᎾ	-5319
▁ᏓᎵᏍᏗᎳᏁᎬ	-5320
▁ᏙᏛᎾᏓᏡᏔᏂ	-5321
▁ᏙᏧᎾᏓᏅᏛᎢ	-5322
▁ᏚᏳᎪᏛᏍᎩᏂ	-5323
▁ᏛᏓᎴᎲᏍᎬᎩ	-5324
▁ᏥᏂᎦᎵᏍᏗᎭ	-5325
▁ᏧᏂᏲᎯᏍᏗᏱ	-5326
▁ᏧᏓᏂᎸᎢᏍᏗ	-5327
▁ᎠᎾᏓᏅᏖᏍᎬᎢ	-5328
▁ᎠᏛᏅᎢᏍᏙᏗᏱ	-5329
▁ᎡᏥᎾᏰᏍᎨᏍᏗ	-5330
▁ᎢᏯᏆᎵᏍᏙᏗᏱ	-5331
▁ᎤᎬᏫᏳᎯᏍᎩᏂ	-5332
▁ᎤᎵᏍᎪᎸᏔᏅᎯ	-5333
▁ᎤᎾᎵᏏᎾᎯᏍᏗ	-5334
▁ᎤᏓᏙᎵᏍᏔᏁᎢ	-5335
▁ᎤᏙᎯᏳᎯᏯᏰᏃ	-5336
▁ᎦᎾᏄᎪᏫᏍᎪᎢ	-5337
▁ᎪᎯᏳᎲᏍᎨᏍᏗ	-5338
▁ᏂᎪᎯᏳᎲᏍᎬᎾ	-5339
▁ᏂᏕᏣᏛᏁᎮᏍᏗ	-5340
▁ᏕᏤᏯᏙᏤᎮᏍᏗ	-5341
▁ᏚᏂᎸᏫᏍᏓᏁᎸ	-5342
▁ᏚᏟᎶᏍᏓᏁᎸᎩ	-5343
▁ᏥᏚᎸᏫᏍᏓᏁᎭ	-5344
▁ᏧᎸᏫᏍᏓᏁᎸᎯ	-5345
▁ᎠᏣᏪᏐᎸᏍᏙᏗᏱ	-5346
▁ᎢᏣᏙᎴᎰᎯᏍᏗᏱ	-5347
▁ᎢᏥᎪᏩᏘᏍᎨᏍᏗ	-5348
▁ᎢᏳᎾᎵᏍᏓᏁᏗᏱ	-5349
▁ᎤᎾᏙᎴᎰᎯᏍᏙᏗ	-5350
▁ᏅᏓᎬᏩᏍᏓᏩᏛᏛ	-5351
▁ᏗᎦᎸᏫᏍᏓᏁᏗᏱ	-5352
▁ᏗᏥᎧᎿᏩᏛᏍᏗᏱ	-5353
▁ᏥᏓᎩᎸᏫᏍᏓᏁᎭ	-5354
▁ᎤᎾᏓᏙᎵᏍᏓᏁᎸᎩ	-5355
▁ᎤᏛᏅᏗᎦᎳᏫᎢᏍᏗᏱ	-5356
,"	-5357
.)	-5358
ᎡᎰ	-5359
ᎢᏅ	-5360
ᎢᏎ	-5361
ᎢᏧ	-5362
ᎣᎵ	-5363
ᎦᎳ	-5364
ᎧᎯ	-5365
ᎧᎳ	-5366
ᎧᏙ	-5367
ᎧᏯ	-5368
ᎪᎡ	-5369
ᎬᏬ	-5370
ᎭᏁ	-5371
ᎯᏛ	-5372
ᎳᏉ	-5373
ᎳᏕ	-5374
ᎵᎯ	-5375
ᎻᏃ	-5376
ᎻᏈ	-5377
ᎿᎥ	-5378
ᎿᎨ	-5379
ᏂᏫ	-5380
ᏄᏪ	-5381
ᏅᏔ	-5382
ᏆᎵ	-5383
ᏏᏯ	-5384
ᏓᎠ	-5385
ᏓᎡ	-5386
ᏔᎵ	-5387
ᏕᎣ	-5388
ᏕᎳ	-5389
ᏕᏣ	-5390
ᏗᎨ	-5391
ᏗᎴ	-5392
ᏗᏉ	-5393
ᏗᏛ	-5394
ᏙᎩ	-5395
ᏙᏅ	-5396
ᏚᎾ	-5397
ᏢᏔ	-5398
ᏣᎢ	-5399
ᏣᏁ	-5400
ᏤᎮ	-5401
ᏤᎳ	-5402
ᏤᏬ	-5403
ᏥᎾ	-5404
ᏨᎦ	-5405
ᏫᏅ	-5406
ᏬᏔ	-5407
ᏯᎣ	-5408
ᏲᏅ	-5409
▁Ꮛ	-5410
▁Ꮝ	-5411
ᎡᎰᎢ	-5412
ᎡᎸᏃ	-5413
ᎦᎨᎢ	-5414
ᎦᎵᏴ	-5415
ᎦᏗᏯ	-5416
ᎦᏚᎲ	-5417
ᎦᏛᏅ	-5418
ᎧᏅᎩ	-5419
ᎧᏅᎯ	-5420
ᎨᏅᏴ	-5421
ᎨᏒᎩ	-5422
ᎨᏗᏱ	-5423
ᎨᏗᏳ	-5424
ᎩᏒᎩ	-5425
ᎩᏰᏃ	-5426
ᎪᎮᎢ	-5427
ᎭᏰᏃ	-5428
ᎯᏳᏗ	-5429
ᎵᏙᎲ	-5430
ᎶᏛᎾ	-5431
ᎷᏯᏛ	-5432
ᎾᎦᎳ	-5433
ᎾᏛᏓ	-5434
ᏁᏅᏒ	-5435
ᏁᏤᏗ	-5436
ᏁᏨᎩ	-5437
ᏂᎪᎢ	-5438
ᏂᏌᏛ	-5439
ᏂᏒᎩ	-5440
ᏂᏗᏢ	-5441
ᏂᏴᏒ	-5442
ᏂᏴᏛ	-5443
ᏃᎯᏯ	-5444
ᏄᎪᏤ	-5445
ᏄᎶᏗ	-5446
ᏅᏁᎯ	-5447
ᏅᏅᎢ	-5448
ᏅᏛᎯ	-5449
ᏌᏛᎢ	-5450
ᏍᎩᏴ	-5451
ᏍᎬᏉ	-5452
ᏍᏓᎢ	-5453
ᏍᏓᏴ	-5454
ᏍᏔᏃ	-5455
ᏍᏕᏅ	-5456
ᏍᏗᏂ	-5457
ᏍᏚᎩ	-5458
ᏍᏚᎶ	-5459
ᏍᏢᏂ	-5460
ᏎᎮᎢ	-5461
ᏎᎮᎵ	-5462
ᏏᏗᏱ	-5463
ᏐᏢᏗ	-5464
ᏑᎴᏗ	-5465
ᏓᎴᏂ	-5466
ᏓᏑᏴ	-5467
ᏓᏙᎵ	-5468
ᏕᎪᎢ	-5469
ᏕᏅᎯ	-5470
ᏗᎶᏂ	-5471
ᏗᏒᎯ	-5472
ᏗᏔᎲ	-5473
ᏘᏄᎦ	-5474
ᏙᎩᏯ	-5475
ᏙᎲᎾ	-5476
ᏙᏍᏛ	-5477
ᏚᎵᏏ	-5478
ᏚᎸᎩ	-5479
ᏛᏂᏏ	-5480
ᏛᏙᏗ	-5481
ᏛᏛᎾ	-5482
ᏢᎯᏏ	-5483
ᏢᏅᎩ	-5484
ᏣᏛᎾ	-5485
ᏥᎶᏏ	-5486
ᏦᏅᎯ	-5487
ᏦᏎᎭ	-5488
ᏩᏕᎦ	-5489
ᏪᏎᎲ	-5490
ᏰᎲᎩ	-5491
ᏲᏅᎢ	-5492
ᏲᏗᏱ	-5493
ᏳᏰᏃ	-5494
ᏴᎸᎩ	-5495
ᏴᎸᎯ	-5496
ᏴᏁᎭ	-5497
ᏴᏁᎸ	-5498
▁ᎢᏏ	-5499
▁ᎢᏒ	-5500
▁ᎢᏝ	-5501
▁ᎢᏢ	-5502
▁ᎤᎳ	-5503
▁ᎥᎤ	-5504
▁ᎦᎧ	-5505
▁ᎦᏘ	-5506
▁ᎦᏪ	-5507
▁ᎧᎵ	-5508
▁ᎨᎢ	-5509
▁ᎨᏨ	-5510
▁ᎬᏒ	-5511
▁ᎯᎳ	-5512
▁ᎯᎸ	-5513
▁ᎯᏰ	-5514
▁ᎹᏚ	-5515
▁ᏁᎳ	-5516
▁ᏂᏤ	-5517
▁ᏃᏣ	-5518
▁ᏎᎵ	-5519
▁ᏏᎻ	-5520
▁ᏓᎵ	-5521
▁ᏓᏉ	-5522
▁ᏓᏌ	-5523
▁ᏓᏱ	-5524
▁ᏗᎵ	-5525
▁ᏗᏁ	-5526
▁ᏗᏉ	-5527
▁ᏗᏔ	-5528
▁ᏗᏘ	-5529
▁ᏗᏩ	-5530
▁ᏘᏯ	-5531
▁ᏙᏘ	-5532
▁ᏚᏳ	-5533
▁ᏝᎨ	-5534
▁ᏣᏢ	-5535
▁ᏥᏃ	-5536
▁ᏥᏩ	-5537
▁ᏥᏭ	-5538
▁ᏦᏒ	-5539
▁ᏧᏌ	-5540
▁ᏧᏴ	-5541
▁ᏨᎩ	-5542
▁ᏩᏆ	-5543
▁ᏪᎯ	-5544
▁ᏫᏘ	-5545
▁ᏭᏁ	-5546
▁ᏭᏅ	-5547
▁ᏭᏪ	-5548
▁ᏯᏇ	-5549
▁ᏰᏃ	-5550
▁ᏱᎠ	-5551
▁ᏱᎪ	-5552
▁ᏲᎦ	-5553
▁ᏳᏘ	-5554
ᎥᏍᎪᎢ	-5555
ᎦᎶᏐᏂ	-5556
ᎦᏌᏬᎢ	-5557
ᎦᏔᎰᎢ	-5558
ᎦᏘᎴᎩ	-5559
ᎦᏪᏎᎵ	-5560
ᎨᏳᏅᎾ	-5561
ᎨᏳᏒᎾ	-5562
ᎨᏳᏗᏱ	-5563
ᎩᎵᏲᎦ	-5564
ᎪᏗᏍᎩ	-5565
ᎬᏫᏳᎭ	-5566
ᎯᏍᏔᏂ	-5567
ᎯᏍᏛᎾ	-5568
ᎳᏫᏎᏗ	-5569
ᎴᏂᏙᎸ	-5570
ᎵᎥᏂᎵ	-5571
ᎵᏍᏚᎶ	-5572
ᎵᏛᏔᏂ	-5573
ᎵᏰᎢᎸ	-5574
ᎶᎨᏒᎢ	-5575
ᎶᎮᏍᏗ	-5576
ᎶᏁᏔᏁ	-5577
ᎷᏤᎴᎢ	-5578
ᎸᏃᏘᎭ	-5579
ᎸᏉᏙᎢ	-5580
ᎾᏁᏗᏱ	-5581
ᎾᏍᏗᏱ	-5582
ᎾᏰᏍᎬ	-5583
ᏂᏍᎬᎢ	-5584
ᏂᏙᎲᎢ	-5585
ᏃᎯᏳᏗ	-5586
ᏅᏁᏗᏱ	-5587
ᏅᏗᏍᎩ	-5588
ᏆᏛᏁᏗ	-5589
ᏌᎳᏙᏗ	-5590
ᏍᎦᎩᏳ	-5591
ᏍᎦᎸᎩ	-5592
ᏍᏓᏁᎭ	-5593
ᏍᏗᏍᎪ	-5594
ᏍᏙᏗᎭ	-5595
ᏐᏢᏗᎭ	-5596
ᏒᎦᎸᎩ	-5597
ᏓᎴᏍᎩ	-5598
ᏓᏁᎴᎢ	-5599
ᏓᏁᎸᎢ	-5600
ᏓᏕᏫᏒ	-5601
ᏓᏛᏙᏗ	-5602
ᏕᎣᏍᎦ	-5603
ᏕᏘᏴᎲ	-5604
ᏗᏅᏒᎩ	-5605
ᏘᏃᎴᎢ	-5606
ᏙᎴᎰᏏ	-5607
ᏙᎵᏤᎢ	-5608
ᏙᎵᏨᎢ	-5609
ᏙᏂᏍᎩ	-5610
ᏛᎦᏁᎵ	-5611
ᏛᎦᏅᎢ	-5612
ᏛᏁᎸᎢ	-5613
ᏛᏁᏍᏗ	-5614
ᏛᏙᏗᏱ	-5615
ᏛᏛᏔᏂ	-5616
ᏠᎠᏒᎩ	-5617
ᏥᎯᏍᏗ	-5618
ᏩᎾᎦᎶ	-5619
ᏩᏛᎮᎢ	-5620
ᏩᏛᏙᏗ	-5621
ᏪᏎᎸᎯ	-5622
ᏫᏍᏔᏅ	-5623
ᏬᏍᎬᎩ	-5624
ᏯᎵᏥᏙ	-5625
ᏯᏅᎮᎢ	-5626
ᏯᏅᎯᏛ	-5627
ᏯᏅᎲᏃ	-5628
ᏲᏍᏔᏂ	-5629
ᏴᎩᏅᎯ	-5630
ᏴᏔᏁᎢ	-5631
▁ᎠᎢᏒ	-5632
▁ᎠᎴᏂ	-5633
▁ᎠᎴᏅ	-5634
▁ᎠᏁᎮ	-5635
▁ᎠᏍᎪ	-5636
▁ᎠᏏᏃ	-5637
▁ᎠᏒᎭ	-5638
▁ᎠᏓᏱ	-5639
▁ᎡᎦᏔ	-5640
▁ᎡᎵᏈ	-5641
▁ᎢᎨᏥ	-5642
▁ᎢᏍᏙ	-5643
▁ᎢᏨᏴ	-5644
▁ᎢᏲᎦ	-5645
▁ᎣᎦᎵ	-5646
▁ᎣᏍᏕ	-5647
▁ᎣᏩᏒ	-5648
▁ᎤᎩᏒ	-5649
▁ᎤᎫᏴ	-5650
▁ᎤᎴᏁ	-5651
▁ᎤᎷᏥ	-5652
▁ᎤᎸᎢ	-5653
▁ᎤᎾᎸ	-5654
▁ᎤᏂᎷ	-5655
▁ᎤᏅᏁ	-5656
▁ᎤᏅᏅ	-5657
▁ᎤᏅᏗ	-5658
▁ᎤᏍᏓ	-5659
▁ᎤᏒᎢ	-5660
▁ᎤᏓᏁ	-5661
▁ᎤᏕᏒ	-5662
▁ᎤᏗᏌ	-5663
▁ᎤᏟᎶ	-5664
▁ᎤᏥᏃ	-5665
▁ᎤᏩᏛ	-5666
▁ᎤᏪᎯ	-5667
▁ᎤᏲᎴ	-5668
▁ᎤᏲᏏ	-5669
▁ᎦᎢᏒ	-5670
▁ᎦᎶᏐ	-5671
▁ᎦᏗᎭ	-5672
▁ᎦᏚᏉ	-5673
▁ᎨᎸᎩ	-5674
▁ᎪᎯᏉ	-5675
▁ᎪᎯᏛ	-5676
▁ᎪᏢᏒ	-5677
▁ᎬᎿᎨ	-5678
▁ᎬᏩᎵ	-5679
▁ᎬᏩᏗ	-5680
▁ᎯᏁᎩ	-5681
▁ᎯᏍᏆ	-5682
▁ᎾᏉᏃ	-5683
▁ᎾᏍᏆ	-5684
▁ᏁᏍᏗ	-5685
▁ᏂᎦᏔ	-5686
▁ᏂᎦᏚ	-5687
▁ᏂᎬᎩ	-5688
▁ᏂᎯᏉ	-5689
▁ᏂᏓᎾ	-5690
▁ᏄᎲᎾ	-5691
▁ᏄᏂᎪ	-5692
▁ᏄᏩᏂ	-5693
▁ᏅᏙᏃ	-5694
▁ᏅᏛᏅ	-5695
▁ᏇᎳᎻ	-5696
▁ᏈᏏᎳ	-5697
▁ᏑᏓᎳ	-5698
▁ᏓᎧᏁ	-5699
▁ᏓᎬᏯ	-5700
▁ᏓᏅᏩ	-5701
▁ᏓᏠᏱ	-5702
▁ᏓᏰᏂ	-5703
▁ᏕᎧᏅ	-5704
▁ᏕᏍᎩ	-5705
▁ᏕᏧᎪ	-5706
▁ᏕᏨᏯ	-5707
▁ᏗᎦᎦ	-5708
▁ᏗᎦᏥ	-5709
▁ᏗᎨᎪ	-5710
▁ᏗᎬᎩ	-5711
▁ᏗᏂᏃ	-5712
▁ᏗᏍᏇ	-5713
▁ᏗᏍᏚ	-5714
▁ᏗᏐᎢ	-5715
▁ᏗᏦᎸ	-5716
▁ᏙᏓᏦ	-5717
▁ᏙᏛᏂ	-5718
▁ᏚᎸᏌ	-5719
▁ᏚᎾᎵ	-5720
▁ᏚᏂᎬ	-5721
▁ᏚᏂᏏ	-5722
▁ᏚᏄᏩ	-5723
▁ᏚᏏᏔ	-5724
▁ᏚᏚᎪ	-5725
▁ᏚᏟᎶ	-5726
▁ᏠᎠᏏ	-5727
▁ᏣᎦᏨ	-5728
▁ᏣᏍᏆ	-5729
▁ᏤᏌᏂ	-5730
▁ᏤᏙᎲ	-5731
▁ᏥᎦᎷ	-5732
▁ᏥᎦᏥ	-5733
▁ᏥᎬᎩ	-5734
▁ᏥᏁᎬ	-5735
▁ᏥᏍᎩ	-5736
▁ᏥᏓᎵ	-5737
▁ᏥᏕᎤ	-5738
▁ᏥᏕᎭ	-5739
▁ᏥᏙᎦ	-5740
▁ᏦᏩᏃ	-5741
▁ᏧᎩᏎ	-5742
▁ᏧᎫᏴ	-5743
▁ᏧᎵᎢ	-5744
▁ᏧᎵᏏ	-5745
▁ᏧᏂᎪ	-5746
▁ᏧᏂᏲ	-5747
▁ᏧᏃᎸ	-5748
▁ᏧᏅᏎ	-5749
▁ᏧᏅᏒ	-5750
▁ᏧᏛᎾ	-5751
▁ᏧᏬᎳ	-5752
▁ᏩᎦᏘ	-5753
▁ᏫᏍᏗ	-5754
▁ᏫᏓᏂ	-5755
▁ᏭᏴᎸ	-5756
▁ᏰᎵᎦ	-5757
▁ᏱᎬᎩ	-5758
▁ᏱᏂᎨ	-5759
▁ᏱᏂᏥ	-5760
▁ᏱᏄᎾ	-5761
▁ᏱᏅᎦ	-5762
▁ᏱᏅᏩ	-5763
▁ᏱᏍᏆ	-5764
▁ᏱᏚᎾ	-5765
▁ᏱᏣᏓ	-5766
ᎦᎵᏍᎪᎢ	-5767
ᎦᏌᏯᏍᏓ	-5768
ᎦᏔᎮᏍᏗ	-5769
ᎦᏔᎿᎥᎾ	-5770
ᎧᎯᏯᏍᏗ	-5771
ᎩᎵᏲᎬᎢ	-5772
ᎬᏍᎪᎸᏁ	-5773
ᎵᎡᎵᏤᎰ	-5774
ᎵᏍᏓᏁᎭ	-5775
ᎶᏄᎮᏗᏱ	-5776
ᎶᏍᎨᏍᏗ	-5777
ᏃᎮᎮᎸᎩ	-5778
ᏍᎦᏅᏨᎾ	-5779
ᏍᏆᏓᏱᎵ	-5780
ᏍᏕᎵᏍᎬ	-5781
ᏐᏢᏙᏗᏱ	-5782
ᏓᎴᏅᎲᎾ	-5783
ᏓᏄᏴᏛᎾ	-5784
ᏓᏅᎦᎸᎾ	-5785
ᏓᏗᏍᏗᏱ	-5786
ᏓᏱᎮᏍᏗ	-5787
ᏕᎰᎯᏍᏗ	-5788
ᏕᏯᏙᏗᎭ	-5789
ᏚᎵᏍᎬᎩ	-5790
ᏛᎩᏍᎪᎢ	-5791
ᏛᏅᎢᏍᏓ	-5792
ᏢᏅᎥᏍᎩ	-5793
ᏩᏛᎡᎲᎢ	-5794
ᏪᏍᎨᏍᏗ	-5795
ᏫᎢᏍᏗᏱ	-5796
ᏬᏂᏍᎬᎢ	-5797
ᏲᎯᏎᎴᎢ	-5798
ᏲᎱᏎᎸᎯ	-5799
▁ᎠᎢᏒᏃ	-5800
▁ᎠᎦᎫᏴ	-5801
▁ᎠᎦᏔᎯ	-5802
▁ᎠᎦᏙᎥ	-5803
▁ᎠᎩᎷᏤ	-5804
▁ᎠᎪᎵᏰ	-5805
▁ᎠᎱᏍᏗ	-5806
▁ᎠᎵᏍᏕ	-5807
▁ᎠᏁᏙᎲ	-5808
▁ᎠᏂᏁᏉ	-5809
▁ᎠᏂᏴᎩ	-5810
▁ᎠᏆᏚᎵ	-5811
▁ᎠᏆᏚᎸ	-5812
▁ᎠᏟᎶᎥ	-5813
▁ᎠᏳᎾᎦ	-5814
▁ᎡᎭᎦᏔ	-5815
▁ᎡᎵᏍᏓ	-5816
▁ᎡᏙᎲᎩ	-5817
▁ᎡᏥᏁᏗ	-5818
▁ᎢᎩᏁᎸ	-5819
▁ᎢᎩᏰᎸ	-5820
▁ᎢᎪᏂᏯ	-5821
▁ᎢᎬᏱᏃ	-5822
▁ᎢᎳᎩᏳ	-5823
▁ᎢᎾᏛᏃ	-5824
▁ᎢᏣᏠᏯ	-5825
▁ᎢᏥᎧᎵ	-5826
▁ᎢᏥᎲᎢ	-5827
▁ᎢᏨᏒᏉ	-5828
▁ᎣᎩᏰᎸ	-5829
▁ᎣᎪᎯᏳ	-5830
▁ᎣᎵᏩᏲ	-5831
▁ᎤᎩᏎᎢ	-5832
▁ᎤᎶᏄᎮ	-5833
▁ᎤᎷᏨᎯ	-5834
▁ᎤᎷᏨᏃ	-5835
▁ᎤᎾᏕᎰ	-5836
▁ᎤᎾᏛᏂ	-5837
▁ᎤᏂᎲᎢ	-5838
▁ᎤᏂᎾᏫ	-5839
▁ᎤᏂᏍᏛ	-5840
▁ᎤᏂᏔᏲ	-5841
▁ᎤᏂᏲᎭ	-5842
▁ᎤᏂᏲᎴ	-5843
▁ᎤᏄᏩᎥ	-5844
▁ᎤᏅᏏᏛ	-5845
▁ᎤᏍᎦᏅ	-5846
▁ᎤᏍᎪᎵ	-5847
▁ᎤᏍᏕᎸ	-5848
▁ᎤᏕᏅᎯ	-5849
▁ᎤᏗᎴᎩ	-5850
▁ᎤᏛᏅᎢ	-5851
▁ᎤᏪᏯᎸ	-5852
▁ᎤᏪᏰᏂ	-5853
▁ᎤᏬᏚᎯ	-5854
▁ᎤᏬᏢᏅ	-5855
▁ᎤᏰᎸᎯ	-5856
▁ᎤᏰᎸᏁ	-5857
▁ᎦᎪᏗᏱ	-5858
▁ᎦᎸᏉᎩ	-5859
▁ᎦᏙᎨᏃ	-5860
▁ᎦᏚᎲᏃ	-5861
▁ᎦᏰᏥᏙ	-5862
▁ᎧᏅᏑᎸ	-5863
▁ᎨᏥᏛᎦ	-5864
▁ᎩᎾᎵᎢ	-5865
▁ᎪᏍᏓᏯ	-5866
▁ᎬᏁᏤᎭ	-5867
▁ᎬᏩᎦᏘ	-5868
▁ᎬᏩᎵᎪ	-5869
▁ᎬᏩᏍᏚ	-5870
▁ᎬᏩᏛᏗ	-5871
▁ᎭᎴᎲᎦ	-5872
▁ᎼᏏᏰᏃ	-5873
▁ᎾᏅᏁᎲ	-5874
▁ᎾᏆᏍᏛ	-5875
▁ᏁᏓᏂᎵ	-5876
▁ᏂᎦᎷᎶ	-5877
▁ᏂᎦᏗᎹ	-5878
▁ᏂᎬᏁᎸ	-5879
▁ᏂᏨᏁᎲ	-5880
▁ᏃᎦᎵᏍ	-5881
▁ᏄᏂᏪᏎ	-5882
▁ᏄᏛᏛᎾ	-5883
▁ᏄᏪᏎᎸ	-5884
▁ᏅᎩᎦᎵ	-5885
▁ᏅᏓᏍᎩ	-5886
▁ᏇᏣᏱᏗ	-5887
▁ᏈᎵᎩᏱ	-5888
▁ᏌᏉᎯᏳ	-5889
▁ᏑᏓᎵᏃ	-5890
▁ᏓᎬᏔᏂ	-5891
▁ᏓᏓᏂᏌ	-5892
▁ᏓᏗᎶᏂ	-5893
▁ᏔᎵᏁᎢ	-5894
▁ᏕᏥᎦᎿ	-5895
▁ᏕᏥᎦᏘ	-5896
▁ᏕᏥᏁᎸ	-5897
▁ᏗᎨᏳᏗ	-5898
▁ᏗᎩᏙᏓ	-5899
▁ᏗᏂᏃᎩ	-5900
▁ᏗᏍᎩᏯ	-5901
▁ᏗᏗᏰᎸ	-5902
▁ᏗᏟᏍᏗ	-5903
▁ᏗᏣᏄᏬ	-5904
▁ᏗᏦᏰᏂ	-5905
▁ᏚᎴᏅᎩ	-5906
▁ᏚᎾᎵᎪ	-5907
▁ᏚᏁᎴᎢ	-5908
▁ᏚᏂᎧᎵ	-5909
▁ᏚᏂᏃᎩ	-5910
▁ᏚᏂᏖᎸ	-5911
▁ᏚᏂᏢᎬ	-5912
▁ᏚᏃᏣᎶ	-5913
▁ᏚᏅᏎᎢ	-5914
▁ᏚᏏᏔᏛ	-5915
▁ᏣᎾᏫᏱ	-5916
▁ᏤᎦᏈᏃ	-5917
▁ᏤᎮᏍᏗ	-5918
▁ᏥᎪᏩᏛ	-5919
▁ᏥᏄᏍᏕ	-5920
▁ᏥᏌᏰᏃ	-5921
▁ᏥᏩᎾᎦ	-5922
▁ᏥᏲᎢᏳ	-5923
▁ᏧᏁᎶᏗ	-5924
▁ᏧᏄᏩᎢ	-5925
▁ᏧᏅᎨᏫ	-5926
▁ᏧᏑᏰᏛ	-5927
▁ᏧᏓᏅᏛ	-5928
▁ᏧᏬᏚᎯ	-5929
▁ᏩᎦᏛᎢ	-5930
▁ᏩᎾᎦᎳ	-5931
▁ᏩᏚᎵᏏ	-5932
▁ᏫᏗᎶᎯ	-5933
▁ᏫᏥᎦᏘ	-5934
▁ᏫᏥᎦᏛ	-5935
▁ᏫᏴᎨᏥ	-5936
▁ᏭᏂᎶᏎ	-5937
▁ᏯᎦᏔᎮ	-5938
▁ᏰᎵᎦᏯ	-5939
▁ᏱᏂᎪᎢ	-5940
▁ᏱᏗᏣᏓ	-5941
▁ᏱᏗᏥᏯ	-5942
▁ᏳᎨᏳᎭ	-5943
▁ᏳᏃᎵᏤ	-5944
ᎦᏓᎢᏅᏒᎩ	-5945
ᎦᏔᎲᏍᏔᏅ	-5946
ᎦᏔᎲᏍᏗᏱ	-5947
ᎦᏯᎷᎥᏍᎩ	-5948
ᎧᎲᏍᎨᏍᏗ	-5949
ᎾᏄᎪᏫᏍᎦ	-5950
ᏃᎮᏍᎨᏍᏗ	-5951
ᏍᏓᏁᎮᏍᏗ	-5952
ᏍᏓᏩᏕᎬᎾ	-5953
ᏍᏓᏩᏕᏒᎭ	-5954
ᏍᏓᏩᏛᏒᎩ	-5955
ᏍᏕᎸᎯᏙᎯ	-5956
ᏕᎰᏍᎨᏍᏗ	-5957
ᏘᏃᎯᏍᏗᏱ	-5958
ᏚᎢᏍᏓᏁᎴ	-5959
ᏚᎢᏍᏓᏁᎸ	-5960
ᏜᏏᏛᎡᎲᎾ	-5961
ᏱᎵᏓᏍᏗᏱ	-5962
ᏲᏪᎳᏁᏗᏱ	-5963
▁ᎠᎦᏔᎾᎢ	-5964
▁ᎠᎦᏛᏅᎯ	-5965
▁ᎠᎦᏯᎷᏗ	-5966
▁ᎠᎵᏍᎪᎸ	-5967
▁ᎠᎾᏁᎷᎩ	-5968
▁ᎠᏁᏯᏔᎯ	-5969
▁ᎠᏂᎦᏔᎭ	-5970
▁ᎠᏂᎦᏘᏯ	-5971
▁ᎠᏂᏙᎾᎡ	-5972
▁ᎠᏂᏫᏅᏃ	-5973
▁ᎠᏂᏰᎪᎩ	-5974
▁ᎠᏆᎵᎮᎵ	-5975
▁ᎠᏇᏅᏒᎩ	-5976
▁ᎠᏍᏙᏍᎩ	-5977
▁ᎠᏏᏉᏰᏃ	-5978
▁ᎠᏓᏁᎸᏃ	-5979
▁ᎠᏔᎴᏒᎢ	-5980
▁ᎠᏚᎸᏅᏗ	-5981
▁ᎠᏥᏯᏅᏗ	-5982
▁ᎠᏫᏂᏗᏢ	-5983
▁ᎠᏰᏙᎳᏛ	-5984
▁ᎡᎳᏂᎬᎢ	-5985
▁ᎡᏗᎸᏉᏓ	-5986
▁ᎡᏣᎵᎡᎵ	-5987
▁ᎡᏥᎦᏙᎥ	-5988
▁ᎢᏣᏛᎦᏅ	-5989
▁ᎢᏨᏃᏁᎭ	-5990
▁ᎢᏨᏒᏰᏃ	-5991
▁ᎢᏯᏅᏁᎯ	-5992
▁ᎢᏳᎾᏓᎳ	-5993
▁ᎣᎦᏛᎦᏅ	-5994
▁ᎤᎵᏂᎩᏗ	-5995
▁ᎤᎵᏍᏆᏕ	-5996
▁ᎤᎷᏤᎸᎩ	-5997
▁ᎤᎾᎳᏍᏓ	-5998
▁ᎤᎾᏓᏅᏎ	-5999
▁ᎤᏁᎢᎸᏗ	-6000
▁ᎤᏁᎳᏗᏙ	-6001
▁ᎤᏁᎷᎬᎩ	-6002
▁ᎤᏁᏤᎸᎩ	-6003
▁ᎤᏂᎷᏤᎸ	-6004
▁ᎤᏂᏁᏨᎩ	-6005
▁ᎤᏂᏁᏨᎯ	-6006
▁ᎤᏂᏃᎮᎸ	-6007
▁ᎤᏂᏄᎪᏨ	-6008
▁ᎤᏂᏚᎲᎢ	-6009
▁ᎤᏃᎮᎸᎯ	-6010
▁ᎤᏃᎯᏳᏒ	-6011
▁ᎤᏄᎪᏤᎢ	-6012
▁ᎤᏌᎯᎸᎢ	-6013
▁ᎤᏍᏉᎵᏱ	-6014
▁ᎤᏍᏓᏩᏗ	-6015
▁ᎤᏓᏅᏁᎢ	-6016
▁ᎤᏓᏅᏎᎢ	-6017
▁ᎤᏓᏑᏰᏛ	-6018
▁ᎤᏓᏴᏍᏗ	-6019
▁ᎤᏙᎯᏳᏁ	-6020
▁ᎤᏚᏓᎴᏛ	-6021
▁ᎤᏛᏛᏅᎩ	-6022
▁ᎤᏪᏍᎩᎸ	-6023
▁ᎤᏬᏯᏁᏒ	-6024
▁ᎤᏮᏙᏗᏱ	-6025
▁ᎤᏰᎸᏅᎩ	-6026
▁ᎤᏲᎢᏍᏗ	-6027
▁ᎤᏲᎱᏎᎢ	-6028
▁ᎦᎵᏉᎩᏁ	-6029
▁ᎦᎵᏉᎩᏃ	-6030
▁ᎦᎶᏁᏛᏃ	-6031
▁ᎨᎳᏍᏗᏱ	-6032
▁ᎨᏥᏯᏅᏛ	-6033
▁ᎪᎱᏍᏗᏉ	-6034
▁ᎫᏓᎴᏅᏛ	-6035
▁ᎬᏗᏍᎬᎩ	-6036
▁ᎬᏩᎦᏗᏯ	-6037
▁ᎬᏩᎪᎮᎢ	-6038
▁ᎬᏩᎪᎵᏰ	-6039
▁ᎬᏩᏍᎦᎩ	-6040
▁ᎬᏩᏓᏡᏫ	-6041
▁ᎬᏩᏴᎸᎯ	-6042
▁ᎭᏓᏅᏓᏓ	-6043
▁ᎭᏰᎳᏍᏗ	-6044
▁ᎯᏬᏂᏍᎬ	-6045
▁ᎾᎵᏍᏓᏴ	-6046
▁ᎾᏛᏁᎲᎢ	-6047
▁ᏂᏚᏪᏎᎸ	-6048
▁ᏂᏣᏛᏅᎢ	-6049
▁ᏂᏨᏴᏁᎭ	-6050
▁ᏂᏪᏍᎬᎢ	-6051
▁ᏄᏂᏪᏎᎴ	-6052
▁ᏄᏓᎴᏒᏉ	-6053
▁ᏄᏓᏓᎸᎾ	-6054
▁ᏄᏪᏎᎸᎢ	-6055
▁ᏅᎵᏌᎵᏉ	-6056
▁ᏅᏓᎬᏁᎵ	-6057
▁ᏅᏛᏛᏁᎵ	-6058
▁ᏅᏩᏍᏗᏉ	-6059
▁ᏍᎩᏁᎸᎯ	-6060
▁ᏍᎩᏍᏕᎸ	-6061
▁ᏓᏂᎶᏄᎮ	-6062
▁ᏓᏇᎪᏔᏅ	-6063
▁ᏓᏓᏁᎸᎢ	-6064
▁ᏓᏰᏥᏁᎵ	-6065
▁ᏕᎬᏗᏍᎬ	-6066
▁ᏕᏣᏙᎥᎢ	-6067
▁ᏗᎦᏘᎴᎩ	-6068
▁ᏗᎬᏔᏅᎯ	-6069
▁ᏗᏂᏢᏗᏱ	-6070
▁ᏗᏣᎴᎲᎦ	-6071
▁ᏗᏥᎦᏙᎵ	-6072
▁ᏗᏥᏰᎸᎢ	-6073
▁ᏙᏧᏁᏅᏒ	-6074
▁ᏚᎦᏒᏍᏛ	-6075
▁ᏚᎧᎿᏅᏃ	-6076
▁ᏚᏁᏤᎴᎢ	-6077
▁ᏚᏂᎧᏁᎢ	-6078
▁ᏚᏍᏕᎸᎯ	-6079
▁ᏚᏓᏘᎾᎥ	-6080
▁ᏣᎦᏁᎶᏗ	-6081
▁ᏥᏂᎬᏁᎭ	-6082
▁ᏥᏂᏥᏪᎭ	-6083
▁ᏧᎴᎯᏐᏗ	-6084
▁ᏧᎾᎩᎸᏗ	-6085
▁ᏧᏓᎴᏁᎢ	-6086
▁ᏧᏕᏲᏅᎯ	-6087
▁ᏬᎩᎶᏒᎩ	-6088
▁ᏭᏴᏍᏗᏱ	-6089
▁ᏯᎩᏰᎸᎭ	-6090
▁ᏴᏫᏍᎩᏂ	-6091
ᎵᏍᏓᏴᎲᏍᎦ	-6092
ᎵᏏᎾᎯᏍᏛᎾ	-6093
ᎸᏉᏗᏍᎨᏍᏗ	-6094
ᎸᏫᏍᏓᏁᎮᎢ	-6095
ᏍᏆᏂᎪᏕᏍᏗ	-6096
ᏛᏅᎢᏍᏓᏁᎸ	-6097
ᏲᎯᏍᏗᏍᎬᎾ	-6098
▁ᎠᎨᏴᏍᎩᏂ	-6099
▁ᎠᎩᏍᎨᏍᏗ	-6100
▁ᎠᎵᎮᎵᏤᏗ	-6101
▁ᎠᎵᏍᎦᏁᏛ	-6102
▁ᎠᎾᎦᎵᏍᎩ	-6103
▁ᎠᎾᎵᎮᎵᎨ	-6104
▁ᎠᎾᏛᎩᏍᎬ	-6105
▁ᎠᏂᏃᎮᏍᎬ	-6106
▁ᎠᏂᏙᎾᎥᎩ	-6107
▁ᎠᏍᎦᏅᏨᎢ	-6108
▁ᎠᏎᎵᏔᏅᎯ	-6109
▁ᎠᏓᏛᏗᏍᎩ	-6110
▁ᎠᏤᏍᏙᎩᎯ	-6111
▁ᎠᏥᏃᎮᏍᎬ	-6112
▁ᎠᏥᏅᏩᏅᎯ	-6113
▁ᎢᎦᏛᏍᎩᏂ	-6114
▁ᎢᎨᏣᏛᏁᏗ	-6115
▁ᎢᎩᏍᎦᏅᏨ	-6116
▁ᎢᎬᏆᏛᏁᏗ	-6117
▁ᎢᏣᎵᎮᎵᎩ	-6118
▁ᎢᏣᏛᎪᏗᏱ	-6119
▁ᎢᏥᎬᏫᏳᎯ	-6120
▁ᎢᏥᏍᎦᏅᏨ	-6121
▁ᎢᏥᏩᏛᏗᏱ	-6122
▁ᎢᏨᏃᎮᎮᎸ	-6123
▁ᎢᏯᏂᏪᏍᎩ	-6124
▁ᎢᏯᏆᏛᏁᏗ	-6125
▁ᎤᎵᎮᎵᏤᎢ	-6126
▁ᎤᎵᏂᎩᏛᏃ	-6127
▁ᎤᎵᏂᎩᏛᏯ	-6128
▁ᎤᎵᏍᏓᏴᏗ	-6129
▁ᎤᎵᏍᏙᏔᏅ	-6130
▁ᎤᎾᏁᎳᏅᎯ	-6131
▁ᎤᎾᏄᎪᏫᏒ	-6132
▁ᎤᎾᏚᎵᏍᎩ	-6133
▁ᎤᏂᎧᎵᏨᎯ	-6134
▁ᎤᏂᎬᎥᏍᎬ	-6135
▁ᎤᏂᎾᏰᏎᎢ	-6136
▁ᎤᏂᏂᏴᏗᏱ	-6137
▁ᎤᏂᏃᎮᏗᏱ	-6138
▁ᎤᏂᏣᏔᏰᏃ	-6139
▁ᎤᏂᏣᏖᏰᏃ	-6140
▁ᎤᏍᏆᏂᎪᏎ	-6141
▁ᎤᏓᏅᏓᏛᎩ	-6142
▁ᎤᏚᎢᏍᏔᏅ	-6143
▁ᎤᏣᏔᏅᎯᏃ	-6144
▁ᎤᏩᎢᏎᎸᎯ	-6145
▁ᎤᏬᎯᏳᏅᎩ	-6146
▁ᎤᏬᏪᎳᏅᎩ	-6147
▁ᎤᏬᏪᎳᏅᎯ	-6148
▁ᎦᎵᏆᏍᎪᎯ	-6149
▁ᎦᏬᏂᏍᎬᎩ	-6150
▁ᎧᏃᎮᏍᎬᎢ	-6151
▁ᎨᎦᏁᎳᏅᎯ	-6152
▁ᎪᎱᏍᏗᏰᏃ	-6153
▁ᎯᎨᏳᏎᏍᏗ	-6154
▁ᎯᏍᎦᏍᎪᎯ	-6155
▁ᎯᏍᎩᏍᎪᎯ	-6156
▁ᎯᏲᏍᏗᏍᎩ	-6157
▁ᎺᎵᎩᏏᏕᎩ	-6158
▁ᎾᏍᎩᏯᏰᏃ	-6159
▁ᏂᎦᎵᏍᏔᏂ	-6160
▁ᏂᏓᏕᏘᏴᎯ	-6161
▁ᏂᏚᏩᏁᎸᎩ	-6162
▁ᏂᏦᎯᏳᏒᎾ	-6163
▁ᏂᏨᏁᎮᏍᏗ	-6164
▁ᏅᎦᏍᎪᎯᏃ	-6165
▁ᏅᏩᎾᏓᎴᎢ	-6166
▁ᏅᏩᏙᎯᏍᏛ	-6167
▁ᏍᎩᏯᏕᎶᏆ	-6168
▁ᏍᎩᏲᎮᏍᏗ	-6169
▁ᏑᏓᎳᏍᎪᎯ	-6170
▁ᏓᏲᏣᏛᏁᎵ	-6171
▁ᏕᎦᎳᏫᎥᎢ	-6172
▁ᏕᏥᏙᎨᏍᏗ	-6173
▁ᏗᎪᏏᏏᏍᎩ	-6174
▁ᏗᎬᏩᎩᏨᏗ	-6175
▁ᏗᎾᏓᏲᏁᎯ	-6176
▁ᏗᏣᎳᏏᏗᏱ	-6177
▁ᏗᏣᏘᏂᏙᎯ	-6178
▁ᏗᏥᏁᏟᏴᎾ	-6179
▁ᏣᏁᏢᏔᏅᎯ	-6180
▁ᏣᏃᏍᎩᏒᎩ	-6181
▁ᏥᏕᏣᎪᎲᎩ	-6182
▁ᏧᏂᎯᏍᏗᏱ	-6183
▁ᏧᏚᎪᏔᏅᎯ	-6184
▁ᏫᎨᏥᏯᏅᏛ	-6185
▁ᏫᏚᏯᏅᎮᎢ	-6186
▁ᏭᏓᎪᎾᏛᏛ	-6187
▁ᏱᏂᎦᏛᏁᎭ	-6188
▁ᏱᏍᎩᏲᎢᏳ	-6189
▁ᏱᏣᏞᎨᏍᏗ	-6190
ᎵᏍᎪᎸᏓᏁᏗᏱ	-6191
▁ᎠᎩᏍᎦᏅᏨᎯ	-6192
▁ᎠᎵᏍᏓᏴᏗᏱ	-6193
▁ᎠᎵᏥᏙᎲᏍᎬ	-6194
▁ᎠᎾᎵᏍᏓᏴᏗ	-6195
▁ᎠᏂᎸᏉᏗᏍᎨ	-6196
▁ᎠᏂᏍᏓᏩᏕᎩ	-6197
▁ᎠᏂᏐᏢᎢᏍᏗ	-6198
▁ᎠᏂᏯᏫᏍᎩᏃ	-6199
▁ᎠᏅᏗᏍᎨᏍᏗ	-6200
▁ᎠᏆᎵᏥᏙᏗᏱ	-6201
▁ᎠᏆᏛᎦᏅᎩᏃ	-6202
▁ᎠᏓᎪᎵᏰᏍᎩ	-6203
▁ᎠᏓᏪᎵᎩᏍᎬ	-6204
▁ᎠᏔᎳᏬᎯᏍᏗ	-6205
▁ᎠᏕᎸᏓᎶᏂᎨ	-6206
▁ᎠᏗᏔᏍᎨᏍᏗ	-6207
▁ᎠᏚᎢᏍᏔᏅᎯ	-6208
▁ᎠᏛᎩᏍᎨᏍᏗ	-6209
▁ᎠᏛᏂᏗᏍᏙᏗ	-6210
▁ᎠᏥᎧᎯᏯᏍᏗ	-6211
▁ᎠᏩᎾᎦᎳᎯᏳ	-6212
▁ᎡᏥᏍᏕᎸᏗᏱ	-6213
▁ᎢᏣᏓᏅᏖᏍᎬ	-6214
▁ᎢᏨᎪᏩᏛᏗᏱ	-6215
▁ᎢᏨᏰᎳᏗᏙᎭ	-6216
▁ᎣᎦᏓᏅᏔᏩᏕ	-6217
▁ᎤᎩᎵᏲᎢᏍᏗ	-6218
▁ᎤᏁᏉᎢᏍᏗᏱ	-6219
▁ᎤᏂᏲᎢᏎᎸᎯ	-6220
▁ᎤᏓᏙᎵᏣᏘᏳ	-6221
▁ᎤᏕᎰᎯᏍᏗᏳ	-6222
▁ᎦᏓᏅᏖᏍᎬᎢ	-6223
▁ᎨᎦᎫᏴᏓᏁᏗ	-6224
▁ᎨᏥᎦᏘᏗᏍᏗ	-6225
▁ᎨᏥᏍᏕᎸᏗᏱ	-6226
▁ᎬᎩᏁᏉᏤᏗᏱ	-6227
▁ᎬᏩᏂᎪᏩᏛᏗ	-6228
▁ᎬᏩᏓᏙᎵᏍᏗ	-6229
▁ᎭᏟᏂᎬᏁᎸᎭ	-6230
▁ᎯᎠᏍᎩᏂᏃᏅ	-6231
▁ᎾᏍᏆᎵᏍᎬᎾ	-6232
▁ᏂᎦᏥᏴᏁᎸᎭ	-6233
▁ᏂᎬᏩᎦᏔᎲᎾ	-6234
▁ᏂᏕᏥᎾᏝᎥᎾ	-6235
▁ᏂᏚᎩᏨᏂᏒᎢ	-6236
▁ᏄᎵᏍᏓᏁᎸᎢ	-6237
▁ᏄᎾᏛᏁᎵᏙᎸ	-6238
▁ᏅᏓᎦᏥᏴᏁᎵ	-6239
▁ᏅᏓᏍᏆᏓᏱᎵ	-6240
▁ᏅᏓᏣᏓᎴᏅᎯ	-6241
▁ᏅᏓᏳᏄᎪᏨᎯ	-6242
▁ᏅᏓᏳᏓᎴᏅᏛ	-6243
▁ᏅᏧᏓᎴᏅᎲᎾ	-6244
▁ᏓᏓᎿᏩᏍᏛᎢ	-6245
▁ᏕᏥᎸᏉᏕᏍᏗ	-6246
▁ᏕᏥᏁᏤᎮᏍᏗ	-6247
▁ᏗᎨᎫᎪᏓᏁᏗ	-6248
▁ᏗᏂᎧᎿᏩᏕᎩ	-6249
▁ᏗᏍᎩᎧᏁᎸᎯ	-6250
▁ᏗᏓᎴᏅᏗᏍᎩ	-6251
▁ᏗᏣᎵᏂᎩᏗᏳ	-6252
▁ᏗᏣᏓᎨᏳᎯᏳ	-6253
▁ᏗᏥᎦᏴᎵᎨᎢ	-6254
▁ᏗᏥᏲᎯᏍᏗᏱ	-6255
▁ᏗᏨᏲᎯᏎᏗᏱ	-6256
▁ᏚᎵᏍᏚᎢᏎᎢ	-6257
▁ᏥᎦᎷᎯᏍᏗᎭ	-6258
▁ᏥᏯᎵᎡᎵᏤᎭ	-6259
▁ᏧᏂᏲᎱᏒᎯᏃ	-6260
▁ᏧᏂᏴᏍᏕᏍᎩ	-6261
▁ᏩᎵᏰᎢᎶᎯᎭ	-6262
▁ᏫᏂᎦᎵᏍᏙᏓ	-6263
▁ᏫᏂᏚᏪᏎᎸᎩ	-6264
▁ᏬᎩᏅᏍᏔᏅᎩ	-6265
▁ᏱᏍᎦᎢᎮᏍᏗ	-6266
ᎬᏍᎪᎸᎥᏍᎨᏍᏗ	-6267
▁ᎠᎾᎵᏍᎦᏍᏙᏗ	-6268
▁ᎠᏓᏙᎵᏍᏓᏁᎯ	-6269
▁ᎠᏓᏙᎵᏍᏗᏍᎬ	-6270
▁ᎠᏓᏙᎵᏍᏙᏗᏱ	-6271
▁ᎠᏥᎸᎨᎳᏍᏗᏱ	-6272
▁ᎢᏣᎵᏍᏓᏴᏗᏱ	-6273
▁ᎢᏣᏛᎩᏍᎨᏍᏗ	-6274
▁ᎢᏣᏛᏅᎢᏍᏙᎢ	-6275
▁ᎢᏯᏛᏁᎵᏓᏍᏗ	-6276
▁ᎢᏳᎾᎵᏍᏔᏅᎯ	-6277
▁ᎤᎦᏌᏯᏍᏗᏕᎩ	-6278
▁ᎤᎾᏓᏙᎵᏍᏔᏅ	-6279
▁ᎤᎾᏗᎦᎴᏲᏨᎯ	-6280
▁ᎤᏓᏚᏓᎴᏍᏙᏗ	-6281
▁ᎾᏆᎵᏍᏓᏁᎸᎩ	-6282
▁ᏂᏗᎨᏥᎾᏝᎥᎾ	-6283
▁ᏓᏥᎾᏄᎪᏫᏎᎵ	-6284
▁ᏕᎦᏬᏁᏗᏍᎬᎩ	-6285
▁ᏕᎭᏓᏅᎡᎮᏍᏗ	-6286
▁ᏕᏥᏃᎩᏍᎨᏍᏗ	-6287
▁ᏗᎾᏓᎾᏌᎲᏍᎩ	-6288
▁ᏥᏨᏰᎳᏗᏙᎲᎩ	-6289
▁ᎠᎩᏍᏓᏩᏕᎨᏍᏗ	-6290
▁ᎠᏉᎯᏳᎲᏍᎨᏍᏗ	-6291
▁ᎠᏓᎦᎵᏍᏓᏗᏍᎩ	-6292
▁ᎠᏰᎳᏍᏗᎦᏅᎯᏛ	-6293
▁ᎢᏓᏙᎴᎰᎯᏍᏗᎭ	-6294
▁ᎤᎾᏙᎴᎰᎯᏍᏗᏱ	-6295
▁ᎤᏓᏙᎵᏍᏓᏁᎴᎢ	-6296
▁ᎦᏓᏙᎵᏍᏗᏍᎬᎢ	-6297
▁ᎾᎵᏍᏓᏴᎲᏍᎬᎾ	-6298
▁ᏕᏥᎸᏫᏍᏓᏁᎲᎢ	-6299
▁ᏕᏦᏕᏍᏗᏍᎨᏍᏗ	-6300
▁ᏗᎦᎳᏫᎢᏍᏗᏱᏃ	-6301
▁ᏚᎸᏫᏍᏓᏁᎮᏍᏗ	-6302
▁ᎨᎦᎵᏍᎪᎸᏓᏁᎸᎯ	-6303
▁ᏂᏗᎨᏥᎤᏍᏕᏎᎸᎾ	-6304
▁ᏓᎾᎵᏍᏓᏴᎲᏍᎬᎢ	-6305
▁ᏗᎧᎿᏩᏛᏍᏗᏍᎩᏂ	-6306
..	-6307
;"	-6308
ᎠᎹ	-6309
ᎠᎾ	-6310
ᎡᏃ	-6311
ᎡᏆ	-6312
ᎢᏯ	-6313
ᎣᏈ	-6314
ᎤᎦ	-6315
ᎤᏟ	-6316
ᎪᎵ	-6317
ᎪᏃ	-6318
ᎪᏅ	-6319
ᎫᏱ	-6320
ᎬᏉ	-6321
ᎬᏯ	-6322
ᎭᏫ	-6323
ᎮᎯ	-6324
ᎯᎭ	-6325
ᎳᎾ	-6326
ᎴᎷ	-6327
ᎴᎾ	-6328
ᎵᎬ	-6329
ᎶᎦ	-6330
ᎶᎴ	-6331
ᎶᎾ	-6332
ᎷᎳ	-6333
ᎸᏅ	-6334
ᎹᎵ	-6335
ᎻᎦ	-6336
ᎿᎷ	-6337
ᏁᏏ	-6338
ᏂᎢ	-6339
ᏂᎴ	-6340
ᏃᎲ	-6341
ᏃᏟ	-6342
ᏄᎳ	-6343
ᏄᏓ	-6344
ᏅᏓ	-6345
ᏅᏯ	-6346
ᏆᏏ	-6347
ᏌᎢ	-6348
ᏍᏜ	-6349
ᏏᎸ	-6350
ᏐᎾ	-6351
ᏐᏈ	-6352
ᏔᏪ	-6353
ᏕᏋ	-6354
ᏖᏉ	-6355
ᏗᏥ	-6356
ᏘᏂ	-6357
ᏘᏴ	-6358
ᏙᎰ	-6359
ᏚᎬ	-6360
ᏚᏣ	-6361
ᏡᏗ	-6362
ᏤᏅ	-6363
ᏤᏉ	-6364
ᏧᎾ	-6365
ᏨᏩ	-6366
ᏩᎭ	-6367
ᏫᏏ	-6368
ᏰᏅ	-6369
ᏲᎥ	-6370
ᏲᏪ	-6371
ᏴᏏ	-6372
▁Ꮆ	-6373
ᎠᎩᏏ	-6374
ᎡᎪᎢ	-6375
ᎦᎶᏏ	-6376
ᎦᏘᏗ	-6377
ᎧᎲᎦ	-6378
ᎧᏛᎢ	-6379
ᎩᎡᎯ	-6380
ᎩᏯᏪ	-6381
ᎩᏴᎩ	-6382
ᎪᎸᏛ	-6383
ᎫᏛᎢ	-6384
ᎫᏴᏏ	-6385
ᎫᏴᏗ	-6386
ᎬᏁᎸ	-6387
ᎱᎶᏗ	-6388
ᎳᏏᏕ	-6389
ᎳᏑᎶ	-6390
ᎳᏗᏢ	-6391
ᎳᏫᏦ	-6392
ᎴᏅᎲ	-6393
ᎴᏔᏅ	-6394
ᎵᏍᎨ	-6395
ᎵᏍᏚ	-6396
ᎵᏒᎢ	-6397
ᎵᏕᎬ	-6398
ᎵᏱᎵ	-6399
ᎵᏱᏳ	-6400
ᎷᎬᎢ	-6401
ᎷᏤᎭ	-6402
ᎹᏗᏱ	-6403
ᎻᏟᏯ	-6404
ᎾᎸᎯ	-6405
ᎾᏓᎳ	-6406
ᎾᏝᎠ	-6407
ᏁᎩᏴ	-6408
ᏁᎪᎢ	-6409
ᏁᎶᏛ	-6410
ᏁᏒᎩ	-6411
ᏂᏍᏛ	-6412
ᏂᏴᎭ	-6413
ᏂᏴᏗ	-6414
ᏃᎯᎮ	-6415
ᏃᎯᏏ	-6416
ᏄᎵᏳ	-6417
ᏄᏪᏎ	-6418
ᏄᏴᏗ	-6419
ᏅᏁᎵ	-6420
ᏅᏓᏓ	-6421
ᏅᏛᎩ	-6422
ᏅᏨᎩ	-6423
ᏉᏙᏗ	-6424
ᏌᎳᏓ	-6425
ᏍᎨᏃ	-6426
ᏍᏍᎩ	-6427
ᏍᏙᏓ	-6428
ᏍᏛᎦ	-6429
ᏍᏛᎯ	-6430
ᏎᎵᏛ	-6431
ᏏᎾᎯ	-6432
ᏏᏅᎯ	-6433
ᏐᎭᏛ	-6434
ᏒᎦᎶ	-6435
ᏒᎦᎸ	-6436
ᏒᎩᏃ	-6437
ᏓᏁᎰ	-6438
ᏓᏁᏣ	-6439
ᏓᏕᎵ	-6440
ᏓᏗᏔ	-6441
ᏓᏛᏛ	-6442
ᏔᎲᎢ	-6443
ᏔᎴᏒ	-6444
ᏔᏅᏃ	-6445
ᏔᏲᏏ	-6446
ᏕᎨᎢ	-6447
ᏕᎪᏗ	-6448
ᏕᎯᎯ	-6449
ᏕᏁᎢ	-6450
ᏕᏨᎯ	-6451
ᏖᎣᎩ	-6452
ᏖᎸᏂ	-6453
ᏘᏎᎢ	-6454
ᏙᎰᎢ	-6455
ᏙᎵᎦ	-6456
ᏙᎵᏨ	-6457
ᏙᎾᎠ	-6458
ᏚᎩᏱ	-6459
ᏚᎯᏳ	-6460
ᏚᎸᎾ	-6461
ᏛᏃᏛ	-6462
ᏟᏌᏂ	-6463
ᏟᏐᏗ	-6464
ᏠᏍᏗ	-6465
ᏠᏱᎭ	-6466
ᏠᏱᎯ	-6467
ᏢᏙᏗ	-6468
ᏤᎰᎢ	-6469
ᏤᎲᎢ	-6470
ᏤᎵᏏ	-6471
ᏤᏪᎸ	-6472
ᏥᎪᎥ	-6473
ᏩᏒᎢ	-6474
ᏩᏛᎡ	-6475
ᏪᎸᎢ	-6476
ᏫᏒᎾ	-6477
ᏬᎥᎯ	-6478
ᏯᏛᏓ	-6479
ᏰᎪᎢ	-6480
ᏰᎵᎯ	-6481
ᏰᎸᏎ	-6482
ᏰᏍᏗ	-6483
ᏲᎵᎸ	-6484
ᏲᏍᏓ	-6485
ᏲᏎᏗ	-6486
ᏴᎯᎭ	-6487
ᏴᏓᏗ	-6488
▁ᎠᎭ	-6489
▁ᎠᏌ	-6490
▁ᎠᏐ	-6491
▁ᎠᏔ	-6492
▁ᎠᏘ	-6493
▁ᎠᏞ	-6494
▁ᎠᏡ	-6495
▁ᎠᏦ	-6496
▁ᎠᏬ	-6497
▁ᎠᏱ	-6498
▁ᎡᏐ	-6499
▁ᎡᏦ	-6500
▁ᎢᎫ	-6501
▁ᎢᏐ	-6502
▁ᎢᏴ	-6503
▁ᎣᏓ	-6504
▁ᎤᏠ	-6505
▁ᎤᏨ	-6506
▁ᎥᏃ	-6507
▁ᎦᏯ	-6508
▁ᎪᎦ	-6509
▁ᎪᎳ	-6510
▁ᎬᏓ	-6511
▁ᎭᏙ	-6512
▁ᎯᏁ	-6513
▁ᎵᏓ	-6514
▁ᎹᎵ	-6515
▁ᎾᎯ	-6516
▁ᎾᏯ	-6517
▁ᎾᏲ	-6518
▁ᏃᏨ	-6519
▁ᏇᏂ	-6520
▁ᏌᎳ	-6521
▁ᏌᎻ	-6522
▁ᏍᏓ	-6523
▁ᏓᎭ	-6524
▁ᏓᏃ	-6525
▁ᏓᏯ	-6526
▁ᏕᏓ	-6527
▁ᏕᏗ	-6528
▁ᏗᏯ	-6529
▁ᏘᏂ	-6530
▁ᏙᏨ	-6531
▁ᏟᏗ	-6532
▁ᏣᏲ	-6533
▁ᏥᎯ	-6534
▁ᏥᎳ	-6535
▁ᏦᎬ	-6536
▁ᏧᎨ	-6537
▁ᏧᏄ	-6538
▁ᏧᏈ	-6539
▁ᏧᏛ	-6540
▁ᏧᏥ	-6541
▁ᏨᏆ	-6542
▁ᏪᏥ	-6543
▁ᏭᏃ	-6544
▁ᏭᏩ	-6545
▁ᏯᎭ	-6546
▁ᏱᎡ	-6547
▁ᏱᏃ	-6548
▁ᏱᏭ	-6549
▁ᏲᏣ	-6550
ᎠᏍᎦᏯ	-6551
ᎢᏧᎳᎭ	-6552
ᎦᎶᎨᏒ	-6553
ᎦᎸᏗᏱ	-6554
ᎦᏔᎯᏳ	-6555
ᎦᏖᏃᎮ	-6556
ᎦᏖᏙᎢ	-6557
ᎦᏘᎴᎦ	-6558
ᎦᏛᏅᎯ	-6559
ᎧᎿᏅᎩ	-6560
ᎧᏃᎮᏛ	-6561
ᎨᏫᏒᎯ	-6562
ᎪᎱᏍᏗ	-6563
ᎪᏓᏁᎭ	-6564
ᎪᏩᏗᎭ	-6565
ᎭᏁᎦᎸ	-6566
ᎯᎮᏍᏗ	-6567
ᎳᏅᏓᏕ	-6568
ᎳᏍᏓᎳ	-6569
ᎴᎯᏌᏂ	-6570
ᎴᏅᏙᏗ	-6571
ᎵᎥᏂᎸ	-6572
ᎵᎮᎵᎦ	-6573
ᎵᏍᏓᏱ	-6574
ᎵᏍᏛᎾ	-6575
ᎶᎲᏍᎦ	-6576
ᎶᏄᎡᎸ	-6577
ᎶᏐᏅᎭ	-6578
ᎸᎢᏍᏗ	-6579
ᎻᏈᎵᏱ	-6580
ᎾᎯᏍᏗ	-6581
ᎾᏗᏅᏎ	-6582
ᎾᏫᏛᎮ	-6583
ᎿᏍᏆᎶ	-6584
ᏁᎫᏥᏛ	-6585
ᏁᏟᏴᏎ	-6586
ᏁᏟᏴᏛ	-6587
ᏂᎩᏒᎩ	-6588
ᏂᎪᏩᏘ	-6589
ᏄᎪᎬᎢ	-6590
ᏄᎪᏤᎢ	-6591
ᏄᎪᏫᏒ	-6592
ᏄᏬᎡᎢ	-6593
ᏄᏬᏍᏗ	-6594
ᏅᎥᏍᎬ	-6595
ᏅᏁᎸᎯ	-6596
ᏇᏓᎸᎢ	-6597
ᏍᎩᎥᏏ	-6598
ᏍᏓᏁᎮ	-6599
ᏍᏚᎢᏏ	-6600
ᏎᎦᏨᎯ	-6601
ᏎᏍᏗᏱ	-6602
ᏑᎴᎲᎾ	-6603
ᏓᎴᏍᏗ	-6604
ᏓᏁᎲᎢ	-6605
ᏓᏁᎲᎾ	-6606
ᏓᏂᎸᏤ	-6607
ᏓᏅᎡᎸ	-6608
ᏓᏅᏓᏓ	-6609
ᏓᏅᏖᎭ	-6610
ᏓᏅᏖᎴ	-6611
ᏓᏅᏘᏳ	-6612
ᏓᏍᎬᎢ	-6613
ᏓᏝᎲᎢ	-6614
ᏓᏡᏗᎭ	-6615
ᏔᏩᏕᎩ	-6616
ᏔᏲᎯᎰ	-6617
ᏔᏲᎯᎲ	-6618
ᏔᏲᏍᏗ	-6619
ᏖᎸᎲᎦ	-6620
ᏗᎦᎴᏯ	-6621
ᏗᏍᏙᏗ	-6622
ᏗᏒᎯᎮ	-6623
ᏗᏫᏍᏓ	-6624
ᏘᏃᎮᎴ	-6625
ᏘᏴᏌᏗ	-6626
ᏙᎥᏍᏗ	-6627
ᏙᎵᎬᎾ	-6628
ᏙᏔᏅᎯ	-6629
ᏚᏓᏕᏫ	-6630
ᏛᏁᎲᎩ	-6631
ᏛᏍᎪᎢ	-6632
ᏛᏛᎲᎦ	-6633
ᏟᏏᏍᎪ	-6634
ᏠᏱᎴᎢ	-6635
ᏢᏈᏍᎦ	-6636
ᏢᏙᏗᏱ	-6637
ᏤᎵᎦᏯ	-6638
ᏥᏍᎪᎸ	-6639
ᏥᏴᏔᏂ	-6640
ᏩᏛᎡᎭ	-6641
ᏩᏛᎱᎦ	-6642
ᏫᏎᎴᎢ	-6643
ᏬᏁᏙᏗ	-6644
ᏬᏎᎴᎢ	-6645
ᏭᎪᏓᏁ	-6646
ᏯᏛᏂᏏ	-6647
ᏯᏛᏛᏂ	-6648
ᏰᎬᏍᏓ	-6649
ᏱᎵᏙᎭ	-6650
ᏲᎱᏍᎩ	-6651
ᏲᎱᏎᎢ	-6652
ᏲᎱᏎᎸ	-6653
ᏲᏍᏙᏗ	-6654
ᏲᏎᏰᏃ	-6655
▁ᎠᎩᎲ	-6656
▁ᎠᎶᎻ	-6657
▁ᎠᏂᎨ	-6658
▁ᎠᏂᎵ	-6659
▁ᎠᏂᏉ	-6660
▁ᎠᏂᏛ	-6661
▁ᎠᏂᏲ	-6662
▁ᎠᏂᏴ	-6663
▁ᎠᏅᏳ	-6664
▁ᎠᏐᏢ	-6665
▁ᎠᏢᏆ	-6666
▁ᎠᏫᏃ	-6667
▁ᎡᎦᏯ	-6668
▁ᎡᎧᏯ	-6669
▁ᎡᎪᎢ	-6670
▁ᎡᎵᏆ	-6671
▁ᎡᏈᎵ	-6672
▁ᎡᏙᎲ	-6673
▁ᎡᏤᎾ	-6674
▁ᎢᎡᏥ	-6675
▁ᎢᎯᏯ	-6676
▁ᎢᏍᏉ	-6677
▁ᎢᏓᎴ	-6678
▁ᎢᏖᎳ	-6679
▁ᎢᏧᏖ	-6680
▁ᎢᏯᏓ	-6681
▁ᎣᎻᎦ	-6682
▁ᎣᏤᎯ	-6683
▁ᎣᏤᎵ	-6684
▁ᎣᏥᏯ	-6685
▁ᎤᎧᏲ	-6686
▁ᎤᎵᏦ	-6687
▁ᎤᎶᏏ	-6688
▁ᎤᎷᎯ	-6689
▁ᎤᎾᏦ	-6690
▁ᎤᎾᏨ	-6691
▁ᎤᏁᏅ	-6692
▁ᎤᏂᎭ	-6693
▁ᎤᏂᎲ	-6694
▁ᎤᏂᏨ	-6695
▁ᎤᏄᏖ	-6696
▁ᎤᏄᏪ	-6697
▁ᎤᏕᏗ	-6698
▁ᎤᏗᏢ	-6699
▁ᎤᏛᏃ	-6700
▁ᎤᏛᏓ	-6701
▁ᎤᏢᏈ	-6702
▁ᎤᏣᏗ	-6703
▁ᎤᏫᏒ	-6704
▁ᎤᏬᎳ	-6705
▁ᎤᏯᎠ	-6706
▁ᎤᏰᎵ	-6707
▁ᎤᏴᎵ	-6708
▁ᎤᏴᎸ	-6709
▁ᎥᎩᏙ	-6710
▁ᎥᎬᏬ	-6711
▁ᎥᏇᎵ	-6712
▁ᎥᏓᏗ	-6713
▁ᎦᎨᏣ	-6714
▁ᎦᎪᎨ	-6715
▁ᎦᎵᎭ	-6716
▁ᎦᏂᎳ	-6717
▁ᎦᏅᎨ	-6718
▁ᎦᏅᎬ	-6719
▁ᎦᏓᏉ	-6720
▁ᎦᏙᎦ	-6721
▁ᎦᏛᎢ	-6722
▁ᎦᏥᏴ	-6723
▁ᎦᏲᎩ	-6724
▁ᎨᎥᎢ	-6725
▁ᎨᏥᏅ	-6726
▁ᎩᎳᎢ	-6727
▁ᎪᎯᎩ	-6728
▁ᎪᎹᎵ	-6729
▁ᎿᏛᎦ	-6730
▁ᏂᎨᏒ	-6731
▁ᏂᏓᏅ	-6732
▁ᏂᏙᏣ	-6733
▁ᏄᏅᏅ	-6734
▁ᏄᏓᎴ	-6735
▁ᏅᏓᏨ	-6736
▁ᏅᏓᏰ	-6737
▁ᏅᏛᏂ	-6738
▁ᏇᎵᏲ	-6739
▁ᏈᏂᏏ	-6740
▁ᏌᎶᎻ	-6741
▁ᏍᎩᏳ	-6742
▁ᏍᏇᎵ	-6743
▁ᏐᎢᏱ	-6744
▁ᏓᎬᎩ	-6745
▁ᏓᏂᏅ	-6746
▁ᏓᏅᏅ	-6747
▁ᏓᏍᎩ	-6748
▁ᏓᏥᏂ	-6749
▁ᏓᏳᎾ	-6750
▁ᏕᎤᏂ	-6751
▁ᏕᎨᏲ	-6752
▁ᏕᎯᏯ	-6753
▁ᏕᏫᏃ	-6754
▁ᏗᎦᏅ	-6755
▁ᏗᎧᎾ	-6756
▁ᏗᎨᎩ	-6757
▁ᏗᎩᎦ	-6758
▁ᏗᎩᎾ	-6759
▁ᏗᎩᏂ	-6760
▁ᏗᎬᏪ	-6761
▁ᏗᏍᏛ	-6762
▁ᏗᏠᎯ	-6763
▁ᏙᏣᏓ	-6764
▁ᏚᎴᏁ	-6765
▁ᏚᏁᎸ	-6766
▁ᏚᏂᎧ	-6767
▁ᏛᎾᎵ	-6768
▁ᏝᏬᏔ	-6769
▁ᏣᎧᏛ	-6770
▁ᏣᏍᏓ	-6771
▁ᏣᏓᏡ	-6772
▁ᏣᏚᎵ	-6773
▁ᏣᏰᎯ	-6774
▁ᏤᎿᎠ	-6775
▁ᏥᎣᎵ	-6776
▁ᏥᎻᏃ	-6777
▁ᏥᎾᏆ	-6778
▁ᏥᏄᏂ	-6779
▁ᏥᏅᏩ	-6780
▁ᏥᏍᏓ	-6781
▁ᏥᏓᏓ	-6782
▁ᏥᏚᎴ	-6783
▁ᏥᏧᏏ	-6784
▁ᏥᏩᏂ	-6785
▁ᏥᏫᎦ	-6786
▁ᏥᏫᏨ	-6787
▁ᏥᏳᏃ	-6788
▁ᏦᎩᏂ	-6789
▁ᏦᏍᏓ	-6790
▁ᏧᎾᏁ	-6791
▁ᏧᏁᎳ	-6792
▁ᏧᏂᎬ	-6793
▁ᏧᏪᏘ	-6794
▁ᏧᏪᏲ	-6795
▁ᏫᎤᎾ	-6796
▁ᏫᎨᏣ	-6797
▁ᏫᏓᏆ	-6798
▁ᏫᏗᏣ	-6799
▁ᏫᏗᏥ	-6800
▁ᏫᏙᏓ	-6801
▁ᏫᏙᏥ	-6802
▁ᏫᏯᏅ	-6803
▁ᏭᎪᎮ	-6804
▁ᏭᎾᎵ	-6805
▁ᏭᏍᏗ	-6806
▁ᏯᏃᏉ	-6807
▁ᏱᎾᎦ	-6808
▁ᏱᏁᏥ	-6809
▁ᏱᏂᏚ	-6810
▁ᏱᏄᏩ	-6811
▁ᏱᏅᏓ	-6812
▁ᏱᏍᏗ	-6813
▁ᏱᏓᎴ	-6814
▁ᏱᏕᎪ	-6815
▁ᏱᏗᏗ	-6816
▁ᏱᏙᏥ	-6817
▁ᏳᎷᏨ	-6818
▁ᏳᏁᎭ	-6819
▁ᏴᎦᏥ	-6820
▁ᏴᎨᏣ	-6821
▁ᏴᏗᎤ	-6822
ᎠᎩᏏᏙᎯ	-6823
ᎠᏡᏗᏍᎩ	-6824
ᎦᎵᏍᎨᎢ	-6825
ᎦᎵᏍᏓᏴ	-6826
ᎦᎸᏉᏗᏳ	-6827
ᎪᏓᏁᏗᏱ	-6828
ᎫᎢᏍᏛᎾ	-6829
ᎳᏫᏎᎸᎩ	-6830
ᎴᎯᏌᏅᎢ	-6831
ᎵᎮᎵᏍᏗ	-6832
ᎵᏂᎬᎬᎢ	-6833
ᎵᏰᎢᎵᏒ	-6834
ᎶᏄᎮᏍᎩ	-6835
ᎾᎯᏍᏙᏗ	-6836
ᎾᏄᎪᏨᎩ	-6837
ᎾᏄᎪᏫᏎ	-6838
ᎾᏄᎪᏫᏒ	-6839
ᎾᏏᏂᏙᎯ	-6840
ᎾᏫᏛᎮᎢ	-6841
ᎾᏰᏍᎬᎢ	-6842
ᎿᏫᏛᎲᎩ	-6843
ᏁᎢᏍᏔᏁ	-6844
ᏁᎢᏍᏔᏂ	-6845
ᏁᏅᏍᏗᏱ	-6846
ᏁᏍᎨᎲᎯ	-6847
ᏁᏟᏴᏍᎩ	-6848
ᏁᏟᏴᏒᎾ	-6849
ᏂᏙᎮᏍᏗ	-6850
ᏂᏪᏎᎴᎢ	-6851
ᏃᎯᎮᏍᏗ	-6852
ᏇᎯᏍᏗᎭ	-6853
ᏌᎳᏙᏗᏱ	-6854
ᏍᎦᎨᏍᏗ	-6855
ᏍᎦᎾᎯᏳ	-6856
ᏍᎩᏍᏗᏱ	-6857
ᏍᎫᏕᏒᎯ	-6858
ᏍᎬᏍᎩᏂ	-6859
ᏍᏆᏃᏴᎪ	-6860
ᏍᏆᏗᏍᏗ	-6861
ᏍᏓᏁᎲᎢ	-6862
ᏍᏓᏁᎴᎢ	-6863
ᏍᏓᏁᎸᎢ	-6864
ᏍᏕᏙᎲᎩ	-6865
ᏍᏗᏍᎬᎩ	-6866
ᏍᏗᏍᎬᎾ	-6867
ᏍᏗᏰᏔᏁ	-6868
ᏍᏙᏗᏍᎩ	-6869
ᏓᎴᎲᏍᎩ	-6870
ᏓᏁᏟᏴᏒ	-6871
ᏓᏗᏍᎪᎢ	-6872
ᏔᎷᎩᏍᎩ	-6873
ᏔᏲᏎᏗᏱ	-6874
ᏙᎵᎨᏍᏗ	-6875
ᏙᎵᏍᏗᏉ	-6876
ᏛᎦᏁᎰᎢ	-6877
ᏟᏏᏍᎪᎢ	-6878
ᏠᏯᏍᏗᎭ	-6879
ᏢᎾᏁᎸᎯ	-6880
ᏢᏗᏍᎪᎢ	-6881
ᏢᏫᏍᏙᏗ	-6882
ᏥᎪᎥᏍᎦ	-6883
ᏥᎾᏍᏛᎯ	-6884
ᏥᏃᎯᏍᏓ	-6885
ᏦᎢᏳᏁᎢ	-6886
ᏫᏍᎨᏍᏗ	-6887
ᏰᏲᎲᏍᎩ	-6888
ᏲᎢᏳᎲᎦ	-6889
ᏲᎵᏍᏗᏱ	-6890
ᏲᏎᎮᏍᏗ	-6891
ᏴᏍᏕᏍᏗ	-6892
▁ᎠᎢᏒᎩ	-6893
▁ᎠᎦᏔᎮ	-6894
▁ᎠᎩᎪᎲ	-6895
▁ᎠᎩᏁᎫ	-6896
▁ᎠᎩᏫᏯ	-6897
▁ᎠᎵᏃᎮ	-6898
▁ᎠᎾᎢᏒ	-6899
▁ᎠᏁᎶᎯ	-6900
▁ᎠᏂᎧᎸ	-6901
▁ᎠᏂᎩᎾ	-6902
▁ᎠᏂᎵᎾ	-6903
▁ᎠᏇᎵᏒ	-6904
▁ᎠᏍᎦᎩ	-6905
▁ᎠᏓᎨᏗ	-6906
▁ᎠᏓᏛᏂ	-6907
▁ᎠᏟᏍᏛ	-6908
▁ᎠᏯᏙᎵ	-6909
▁ᎠᏰᎵᏃ	-6910
▁ᎡᎳᏗᏃ	-6911
▁ᎡᎶᎯᏉ	-6912
▁ᎡᏙᎢᏳ	-6913
▁ᎡᏙᏓᏃ	-6914
▁ᎡᏥᏁᎸ	-6915
▁ᎡᏦᎯᏳ	-6916
▁ᎢᎦᏚᎩ	-6917
▁ᎢᎫᏓᎴ	-6918
▁ᎢᎬᏩᏛ	-6919
▁ᎢᏕᎲᎢ	-6920
▁ᎢᏥᎷᎩ	-6921
▁ᎢᏥᏁᏉ	-6922
▁ᎢᏥᏍᎦ	-6923
▁ᎢᏦᎵᎩ	-6924
▁ᎢᏳᏏᏗ	-6925
▁ᎣᎾᏫᏱ	-6926
▁ᎣᏍᏛᏃ	-6927
▁ᎤᎧᏛᎢ	-6928
▁ᎤᎪᎮᎢ	-6929
▁ᎤᎪᎵᏰ	-6930
▁ᎤᎵᏍᏕ	-6931
▁ᎤᎵᏏᎲ	-6932
▁ᎤᎷᏤᎸ	-6933
▁ᎤᎸᏁᎢ	-6934
▁ᎤᎾᎦᏙ	-6935
▁ᎤᎾᎵᏍ	-6936
▁ᎤᎾᏛᏓ	-6937
▁ᎤᎾᏞᏒ	-6938
▁ᎤᎾᏣᎢ	-6939
▁ᎤᎿᎸᎯ	-6940
▁ᎤᏁᎳᏗ	-6941
▁ᎤᏁᏉᏨ	-6942
▁ᎤᏁᏒᎩ	-6943
▁ᎤᏂᎴᎢ	-6944
▁ᎤᏂᎸᏉ	-6945
▁ᎤᏂᎿᎸ	-6946
▁ᎤᏂᏂᏴ	-6947
▁ᎤᏂᏄᎸ	-6948
▁ᎤᏂᏅᏅ	-6949
▁ᎤᏂᏆᏘ	-6950
▁ᎤᏂᏍᏕ	-6951
▁ᎤᏂᏍᏚ	-6952
▁ᎤᏂᏬᏂ	-6953
▁ᎤᏃᎱᎦ	-6954
▁ᎤᏅᏁᎢ	-6955
▁ᎤᏅᏟᏃ	-6956
▁ᎤᏍᎦᏤ	-6957
▁ᎤᏍᏗᏉ	-6958
▁ᎤᏍᏢᏂ	-6959
▁ᎤᏓᏂᎵ	-6960
▁ᎤᏓᏅᏁ	-6961
▁ᎤᏓᏅᏎ	-6962
▁ᎤᏔᏕᎩ	-6963
▁ᎤᏔᏲᎴ	-6964
▁ᎤᏙᏢᏒ	-6965
▁ᎤᏚᎸᎲ	-6966
▁ᎤᏚᏫᏛ	-6967
▁ᎤᏢᎬᎩ	-6968
▁ᎤᏣᎢᏒ	-6969
▁ᎤᏩᏒᎯ	-6970
▁ᎤᏩᏔᏅ	-6971
▁ᎤᏪᎲᎢ	-6972
▁ᎤᏪᎷᎦ	-6973
▁ᎤᏪᎷᏁ	-6974
▁ᎤᏪᎷᏅ	-6975
▁ᎤᏪᏙᎴ	-6976
▁ᎤᏰᎶᎢ	-6977
▁ᎤᏲᏏᏌ	-6978
▁ᎤᏴᏍᏕ	-6979
▁ᎥᎩᏅᏟ	-6980
▁ᎥᏖᎣᎩ	-6981
▁ᎦᎳᏅᏛ	-6982
▁ᎦᎴᏂᏙ	-6983
▁ᎦᎷᎪᎢ	-6984
▁ᎦᎷᎶᎩ	-6985
▁ᎦᏁᎵᏛ	-6986
▁ᎦᏁᏥᎢ	-6987
▁ᎦᏄᎪᎬ	-6988
▁ᎦᏪᏢᏗ	-6989
▁ᎦᏲᎦᏛ	-6990
▁ᎧᎵᏬᎯ	-6991
▁ᎧᏁᎨᎢ	-6992
▁ᎧᏁᏉᎨ	-6993
▁ᎧᏃᎨᏂ	-6994
▁ᎧᏃᎮᎭ	-6995
▁ᎧᏃᏍᎦ	-6996
▁ᎨᏥᏯᏅ	-6997
▁ᎪᎶᏁᏛ	-6998
▁ᎪᏞᏍᏗ	-6999
▁ᎪᏪᎵᏃ	-7000
▁ᎬᏍᎦᎵ	-7001
▁ᎬᏙᏗᏱ	-7002
▁ᎬᏩᎾᏓ	-7003
▁ᎬᏩᎾᏛ	-7004
▁ᎬᏩᏛᏓ	-7005
▁ᎬᏩᏯᏫ	-7006
▁ᎭᏓᏅᎾ	-7007
▁ᎾᎬᏁᎴ	-7008
▁ᎾᏅᏁᎭ	-7009
▁ᎾᏉᎯᏳ	-7010
▁ᎾᏋᏁᎸ	-7011
▁ᎾᏍᎩᏂ	-7012
▁ᎾᏑᏴᎾ	-7013
▁ᎾᏕᏘᏴ	-7014
▁ᏁᏨᏁᎸ	-7015
▁ᏁᏪᏎᎢ	-7016
▁ᏂᎬᏁᎲ	-7017
▁ᏂᎬᏂᏏ	-7018
▁ᏂᏣᏪᏒ	-7019
▁ᏂᏥᏪᎠ	-7020
▁ᏂᏥᏪᏒ	-7021
▁ᏃᎦᏍᏛ	-7022
▁ᏄᏅᏁᎸ	-7023
▁ᏄᏛᏅᎢ	-7024
▁ᏄᏩᏁᎰ	-7025
▁ᏅᎩᏦᏁ	-7026
▁ᏅᎩᏧᏈ	-7027
▁ᏅᏓᎨᏥ	-7028
▁ᏏᎻᏯᏂ	-7029
▁ᏏᏓᏁᎸ	-7030
▁ᏓᎦᏘᎴ	-7031
▁ᏓᎬᏩᎵ	-7032
▁ᏓᎾᏕᏲ	-7033
▁ᏓᏍᏗᏰ	-7034
▁ᏓᏱᏓᎵ	-7035
▁ᏕᎤᎴᏅ	-7036
▁ᏕᎦᏅᏅ	-7037
▁ᏕᎧᏁᏤ	-7038
▁ᏕᏣᏓᏠ	-7039
▁ᏗᎤᎷᏨ	-7040
▁ᏗᎦᎴᏴ	-7041
▁ᏗᎦᏁᎸ	-7042
▁ᏗᎦᏄᎪ	-7043
▁ᏗᎦᏘᏯ	-7044
▁ᏗᎩᏅᏒ	-7045
▁ᏗᎴᏙᏗ	-7046
▁ᏗᏂᎯᎯ	-7047
▁ᏗᏂᎴᏂ	-7048
▁ᏗᏂᏁᎯ	-7049
▁ᏗᏂᏙᎬ	-7050
▁ᏗᏉᏰᏂ	-7051
▁ᏗᏓᏙᏪ	-7052
▁ᏗᏛᏃᏛ	-7053
▁ᏗᏤᏅᏒ	-7054
▁ᏗᏥᏙᏓ	-7055
▁ᏘᎦᏙᎵ	-7056
▁ᏙᏓᎸᎢ	-7057
▁ᏙᏓᏥᏯ	-7058
▁ᏚᎬᎭᎷ	-7059
▁ᏚᎵᏏᎲ	-7060
▁ᏚᎾᏗᏩ	-7061
▁ᏚᎾᏚᏫ	-7062
▁ᏚᏂᏲᏎ	-7063
▁ᏚᏃᎡᎢ	-7064
▁ᏚᏅᎵᏰ	-7065
▁ᏚᏕᏲᏁ	-7066
▁ᏚᏘᏅᏎ	-7067
▁ᏚᏪᏲᏁ	-7068
▁ᏚᏬᎡᎢ	-7069
▁ᏚᏬᏑᎴ	-7070
▁ᏚᏰᎵᏏ	-7071
▁ᏛᏂᎪᎯ	-7072
▁ᏞᏍᏗᏃ	-7073
▁ᏣᎩᏯᎠ	-7074
▁ᏣᎾᏗᎭ	-7075
▁ᏣᏂᎧᎳ	-7076
▁ᏣᏫᏎᎢ	-7077
▁ᏥᎪᎥᎩ	-7078
▁ᏥᏂᏕᎬ	-7079
▁ᏥᏍᏆᏃ	-7080
▁ᏥᏍᏆᏯ	-7081
▁ᏥᏥᏯᎠ	-7082
▁ᏥᏦᎯᏳ	-7083
▁ᏥᏯᎥᎢ	-7084
▁ᏦᎢᏉᏃ	-7085
▁ᏦᎴᏍᏗ	-7086
▁ᏧᎳᏑᎶ	-7087
▁ᏧᎾᏓᏡ	-7088
▁ᏧᎾᏛᎾ	-7089
▁ᏧᏁᏍᎨ	-7090
▁ᏧᏁᏤᎴ	-7091
▁ᏧᏂᏗᏱ	-7092
▁ᏧᏛᏅᎢ	-7093
▁ᏧᏬᎯᏳ	-7094
▁ᏨᏓᏯᎢ	-7095
▁ᏫᎤᎷᏨ	-7096
▁ᏫᏂᏨᎦ	-7097
▁ᏫᏗᎦᏘ	-7098
▁ᏫᏙᏛᎾ	-7099
▁ᏬᎩᎷᏨ	-7100
▁ᏭᎵᏰᎢ	-7101
▁ᏱᎦᏥᏯ	-7102
▁ᏱᎾᏛᏁ	-7103
▁ᏱᏂᎦᎩ	-7104
▁ᏱᏄᏓᎠ	-7105
▁ᏱᏗᎨᏥ	-7106
▁ᏱᏙᎬᏩ	-7107
▁ᏱᏚᏓᏌ	-7108
▁ᏱᏦᎵᎦ	-7109
▁ᏲᎦᏛᏅ	-7110
▁ᏳᏰᎸᏅ	-7111
▁ᏳᏲᎱᏒ	-7112
▁ᏴᎨᏍᎩ	-7113
ᎧᎵᎢᏍᏗᏱ	-7114
ᎧᎿᏩᏕᎬᎾ	-7115
ᎧᎿᏩᏗᏙᎯ	-7116
ᎪᏩᏘᏍᎪᎢ	-7117
ᎪᏩᏘᏍᎬᎾ	-7118
ᎳᏏᏕᏄᎶᏗ	-7119
ᎵᏍᎪᎸᏓᏏ	-7120
ᎵᏍᏕᎵᏍᎬ	-7121
ᎵᏥᏙᏁᎲᎢ	-7122
ᎵᏥᏙᏁᏗᏱ	-7123
ᎸᏉᏗᏍᎬᎾ	-7124
ᎸᏫᏍᏓᏁᎵ	-7125
ᏁᎢᏍᏗᏍᎩ	-7126
ᏂᎪᏩᏛᏙᏗ	-7127
ᏍᎦᏅᏤᎸᎯ	-7128
ᏍᏆᏂᎪᏔᏂ	-7129
ᏍᏙᏍᎨᏍᏗ	-7130
ᏍᏛᏗᏍᎬᎢ	-7131
ᏍᏛᏗᏍᏙᏗ	-7132
ᏐᏢᎢᏍᏗᎭ	-7133
ᏓᎴᏍᎨᏍᏗ	-7134
ᏕᏒᎲᏍᎪᎢ	-7135
ᏕᏯᏙᏔᏅᎩ	-7136
ᏗᎨᎳᏍᏙᏗ	-7137
ᏗᏂᏍᎪᏂᎯ	-7138
ᏚᏓᎳᎡᏗᏱ	-7139
ᏛᏁᎵᏙᎸᎢ	-7140
ᏜᏅᏓᏕᏗᏱ	-7141
ᏟᏍᏗᏍᎪᎢ	-7142
ᏧᎵᏍᏙᏔᏅ	-7143
ᏨᏩᏍᏙᏗᏱ	-7144
ᏨᏯᏍᏗᏍᎩ	-7145
ᏩᎾᎦᎳᎯᏳ	-7146
▁ᎠᎦᏔᎲᎩ	-7147
▁ᎠᎦᏛᏗᏱ	-7148
▁ᎠᎨᏲᏅᎯ	-7149
▁ᎠᎩᎨᏳᎯ	-7150
▁ᎠᎩᎾᏫᏱ	-7151
▁ᎠᎩᏔᏕᎩ	-7152
▁ᎠᎪᎵᏰᏗ	-7153
▁ᎠᎪᏩᏛᏗ	-7154
▁ᎠᎬᏗᏍᎬ	-7155
▁ᎠᎵᎹᏗᏱ	-7156
▁ᎠᏁᎳᏅᎯ	-7157
▁ᎠᏆᎵᏃᎮ	-7158
▁ᎠᏆᏐᎭᏛ	-7159
▁ᎠᏆᏒᏂᎦ	-7160
▁ᎠᏆᏛᎦᏅ	-7161
▁ᎠᏇᎵᏒᎩ	-7162
▁ᎠᏉᎯᏳᎭ	-7163
▁ᎠᏏᎾᏌᏅ	-7164
▁ᎠᏏᏴᏫᏉ	-7165
▁ᎠᏔᏲᏍᏗ	-7166
▁ᎠᏛᎩᏍᎩ	-7167
▁ᎠᏛᏗᏍᎩ	-7168
▁ᎠᏥᏁᎸᎩ	-7169
▁ᎠᏫᏒᏗᏱ	-7170
▁ᎠᏰᎸᏰᏃ	-7171
▁ᎡᎵᏍᎨᎢ	-7172
▁ᎡᎵᏍᎬᎢ	-7173
▁ᎡᎵᏍᏓᎦ	-7174
▁ᎡᎶᎯᏰᏃ	-7175
▁ᎡᎶᏛᏰᏃ	-7176
▁ᎡᏂᎾᏯᏃ	-7177
▁ᎡᏓᏍᏗᏱ	-7178
▁ᎡᏣᎫᏴᏏ	-7179
▁ᎡᏣᏑᏰᏛ	-7180
▁ᎡᏥᏁᏗᏱ	-7181
▁ᎡᏦᎢᏳᏒ	-7182
▁ᎢᎦᎦᏛᎢ	-7183
▁ᎢᎨᏨᏁᏗ	-7184
▁ᎢᎩᏯᏅᏛ	-7185
▁ᎢᎩᏲᎱᎯ	-7186
▁ᎢᏣᏕᎶᏆ	-7187
▁ᎢᏣᏕᏗᏱ	-7188
▁ᎢᏥᎦᏔᎲ	-7189
▁ᎢᏥᎧᎵᎢ	-7190
▁ᎢᏥᏔᏲᎭ	-7191
▁ᎢᏥᏰᎸᎭ	-7192
▁ᎢᏧᎳᎭᏃ	-7193
▁ᎢᏧᎳᏗᏢ	-7194
▁ᎢᏨᏁᏤᎭ	-7195
▁ᎢᏨᏂᏗᏳ	-7196
▁ᎢᏨᏲᎢᏳ	-7197
▁ᎢᏯᏋᏁᎯ	-7198
▁ᎢᏳᏅᏁᏗ	-7199
▁ᎣᎦᏣᏅᎩ	-7200
▁ᎣᏣᎵᏥᏙ	-7201
▁ᎣᏥᎨᏳᎢ	-7202
▁ᎤᎦᏑᎲᎢ	-7203
▁ᎤᎩᎵᏲᏨ	-7204
▁ᎤᎬᏍᎪᎸ	-7205
▁ᎤᎵᏁᏨᎯ	-7206
▁ᎤᎶᎨᏒᎢ	-7207
▁ᎤᎶᎩᎸᏃ	-7208
▁ᎤᎷᏤᎴᎢ	-7209
▁ᎤᎾᎵᎪᏒ	-7210
▁ᎤᎾᎵᏎᎢ	-7211
▁ᎤᎾᏕᎶᏆ	-7212
▁ᎤᎾᏛᏅᎢ	-7213
▁ᎤᏁᎢᏍᏗ	-7214
▁ᎤᏁᎳᎩᏉ	-7215
▁ᎤᏁᏙᎸᎯ	-7216
▁ᎤᏂᎧᎵᏤ	-7217
▁ᎤᏂᎨᏳᎯ	-7218
▁ᎤᏂᎪᎲᎢ	-7219
▁ᎤᏂᎷᏨᎯ	-7220
▁ᎤᏂᎾᏄᎪ	-7221
▁ᎤᏂᎾᏝᎢ	-7222
▁ᎤᏂᏃᎮᏗ	-7223
▁ᎤᏂᏐᏢᎢ	-7224
▁ᎤᏂᏔᎳᏬ	-7225
▁ᎤᏂᏔᏲᎴ	-7226
▁ᎤᏂᏣᏖᏃ	-7227
▁ᎤᏂᏰᎸᎯ	-7228
▁ᎤᏂᏲᏠᎯ	-7229
▁ᎤᏂᏴᎲᎩ	-7230
▁ᎤᏂᏴᏔᏂ	-7231
▁ᎤᏃᎮᎸᎩ	-7232
▁ᎤᏃᏴᎬᎢ	-7233
▁ᎤᏄᎪᏤᏃ	-7234
▁ᎤᏍᎦᏎᏗ	-7235
▁ᎤᏍᏗᎤᏅ	-7236
▁ᎤᏎᎦᏨᎯ	-7237
▁ᎤᏒᏂᎴᎢ	-7238
▁ᎤᏓᎴᏅᎯ	-7239
▁ᎤᏓᏱᎴᎢ	-7240
▁ᎤᏗᏩᏎᎢ	-7241
▁ᎤᏗᏩᏒᎩ	-7242
▁ᎤᏗᏩᏒᎯ	-7243
▁ᎤᏙᏯᏅᎯ	-7244
▁ᎤᏛᎦᏅᏃ	-7245
▁ᎤᏜᏅᏛᎢ	-7246
▁ᎤᏩᎾᏓᎴ	-7247
▁ᎤᏩᏒᏰᏃ	-7248
▁ᎤᏩᏔᏅᎩ	-7249
▁ᎤᏩᏔᏅᎯ	-7250
▁ᎤᏪᏅᏎᏃ	-7251
▁ᎤᏪᏙᎴᎢ	-7252
▁ᎤᏬᎯᏨᏃ	-7253
▁ᎤᏬᏂᏒᎩ	-7254
▁ᎤᏬᏎᎴᎢ	-7255
▁ᎤᏰᎸᏅᎢ	-7256
▁ᎤᏲᎱᏒᎩ	-7257
▁ᎤᏲᏍᎩᏂ	-7258
▁ᎦᎪᎯᏳᏗ	-7259
▁ᎦᎵᏦᏕᏃ	-7260
▁ᎦᏍᎩᎸᏃ	-7261
▁ᎦᏓᎷᏯᏛ	-7262
▁ᎦᏬᏂᏍᎩ	-7263
▁ᎨᏥᏛᏙᏗ	-7264
▁ᎨᏥᏰᎸᎯ	-7265
▁ᎪᎱᏍᏗᏃ	-7266
▁ᎪᎵᏍᏗᏱ	-7267
▁ᎪᎵᏍᏙᏗ	-7268
▁ᎬᎨᏳᎢᏳ	-7269
▁ᎬᎪᏩᏛᏗ	-7270
▁ᎬᏂᎨᏒᎢ	-7271
▁ᎬᏩᏛᏛᏁ	-7272
▁ᎯᏁᏟᏴᎾ	-7273
▁ᎯᏍᎩᏁᏃ	-7274
▁ᎾᏍᎩᏍᎪ	-7275
▁ᎾᏍᎩᏯᏃ	-7276
▁ᎾᏥᏪᏎᎸ	-7277
▁ᎾᏥᏰᎲᎾ	-7278
▁ᏁᎵᏍᎬᎾ	-7279
▁ᏁᏪᏎᎴᎢ	-7280
▁ᏂᎦᏗᎹᏏ	-7281
▁ᏂᎪᎯᎸᎾ	-7282
▁ᏂᏍᎦᏅᎾ	-7283
▁ᏂᏓᏙᏓᏈ	-7284
▁ᏂᏥᎥᏰᏃ	-7285
▁ᏂᏨᏴᏁᎸ	-7286
▁ᏄᎾᏍᏛᎢ	-7287
▁ᏄᎾᏓᏛᎩ	-7288
▁ᏄᎾᏓᏡᎬ	-7289
▁ᏄᏂᎪᎸᎾ	-7290
▁ᏄᏅᏁᎴᎢ	-7291
▁ᏄᏍᏛᏰᏃ	-7292
▁ᏅᏩᏓᎴᎢ	-7293
▁ᏆᎻᏈᎵᏱ	-7294
▁ᏍᎪᏂᏗᏢ	-7295
▁ᏑᎾᎴᎢᏳ	-7296
▁ᏑᏓᎵᏁᏃ	-7297
▁ᏓᏂᎧᏅᎢ	-7298
▁ᏓᏂᎳᏫᎥ	-7299
▁ᏓᏂᎵᎷᎬ	-7300
▁ᏓᏂᏴᎬᎢ	-7301
▁ᏓᏆᏙᎥᎢ	-7302
▁ᏓᏓᏂᏌᎲ	-7303
▁ᏓᏗᎶᏂᏃ	-7304
▁ᏓᏤᎵᏍᏛ	-7305
▁ᏓᏥᏩᏛᎯ	-7306
▁ᏓᏰᏥᎪᎢ	-7307
▁ᏕᎤᏙᎥᎢ	-7308
▁ᏕᎤᏙᏍᏛ	-7309
▁ᏕᎦᏄᎪᏫ	-7310
▁ᏕᎦᏍᎩᎸ	-7311
▁ᏕᏥᎳᏫᎩ	-7312
▁ᏗᎨᏥᏍᏚ	-7313
▁ᏗᎪᏍᏓᏯ	-7314
▁ᏗᎫᎪᏗᏱ	-7315
▁ᏗᎬᏩᎾᏛ	-7316
▁ᏗᏂᎾᏕᎩ	-7317
▁ᏗᏘᏲᏍᏗ	-7318
▁ᏗᏣᏓᎵᎢ	-7319
▁ᏗᏥᎾᏝᎢ	-7320
▁ᏙᏓᏳᏲᏏ	-7321
▁ᏙᏗᎦᏚᎲ	-7322
▁ᏚᎾᎴᏅᎩ	-7323
▁ᏚᏂᎳᏫᏦ	-7324
▁ᏚᏂᏂᏴᎮ	-7325
▁ᏚᏂᏃᏁᎴ	-7326
▁ᏚᏂᏢᎬᎢ	-7327
▁ᏚᏂᏲᎱᏒ	-7328
▁ᏚᏅᏩᏅᎩ	-7329
▁ᏚᏓᏘᎿᎥ	-7330
▁ᏚᏩᏂᎦᎸ	-7331
▁ᏚᏪᏲᏁᎢ	-7332
▁ᏚᏲᎯᏎᎴ	-7333
▁ᏣᏃᎮᎸᎩ	-7334
▁ᏣᏍᎦᎸᎩ	-7335
▁ᏣᏗᏫᏍᏓ	-7336
▁ᏣᏠᎾᏍᏗ	-7337
▁ᏣᏤᎵᎪᎯ	-7338
▁ᏥᏂᏥᏪᎠ	-7339
▁ᏥᏃᎮᏍᎬ	-7340
▁ᏥᏄᏁᎩᏴ	-7341
▁ᏥᏄᏩᏁᎸ	-7342
▁ᏧᎨᏳᎯᏳ	-7343
▁ᏧᏂᎦᏐᎠ	-7344
▁ᏧᏂᏁᏗᏱ	-7345
▁ᏧᏓᎴᎿᎢ	-7346
▁ᏧᏓᎴᏅᎢ	-7347
▁ᏧᏙᏍᏙᏗ	-7348
▁ᏧᏙᏓᏆᏛ	-7349
▁ᏧᏣᏲᏍᏗ	-7350
▁ᏧᏬᏢᏅᎯ	-7351
▁ᏧᏲᎯᏎᏗ	-7352
▁ᏫᏚᏯᏅᎮ	-7353
▁ᏭᎾᎦᏔᎲ	-7354
▁ᏭᏂᏩᏛᎮ	-7355
▁ᏭᏂᏴᎸᎩ	-7356
▁ᏯᏂᎦᏔᎮ	-7357
▁ᏱᎦᏬᏂᎭ	-7358
▁ᏱᏚᏳᎪᏗ	-7359
▁ᏱᏣᏰᎸᏅ	-7360
▁ᏱᏥᏩᏘᎭ	-7361
▁ᏱᏫᏣᏴᎸ	-7362
▁ᏲᏨᏗᏍᎨ	-7363
▁ᏳᏚᎵᏍᎨ	-7364
ᎦᎵᏍᏙᏗᏍᎬ	-7365
ᎦᏔᏫᎢᏍᏗᏱ	-7366
ᎯᏍᏗᏍᎨᏍᏗ	-7367
ᎵᏍᎦᏍᏙᏛᎢ	-7368
ᎵᏍᎪᎸᏓᏁᎴ	-7369
ᎵᏍᎪᎸᏓᏁᎸ	-7370
ᎵᏍᎪᎸᏙᏗᏱ	-7371
ᎵᏍᏗᏍᎨᏍᏗ	-7372
ᎸᏫᏍᏓᏁᎲᎾ	-7373
ᎾᏄᎪᏫᏍᏗᏱ	-7374
ᏅᏓᏗᏍᎨᏍᏗ	-7375
ᏍᏆᏂᎪᏔᏅᎯ	-7376
ᏍᏓᏩᏗᏎᏍᏗ	-7377
ᏍᏕᎵᏍᎨᏍᏗ	-7378
ᏓᏅᏓᏗᏍᏔᏅ	-7379
ᏪᏐᎸᏍᏙᏗᏱ	-7380
▁ᎠᎩᏃᎮᏍᎩ	-7381
▁ᎠᎩᏍᏆᏂᎪ	-7382
▁ᎠᎪᏩᏘᏍᎩ	-7383
▁ᎠᎵᏍᏆᏛᎭ	-7384
▁ᎠᎵᏰᎢᎵᏒ	-7385
▁ᎠᎵᏱᎶᎸᎭ	-7386
▁ᎠᎾᏗᏍᎬᎢ	-7387
▁ᎠᏁᎵᏍᎨᎢ	-7388
▁ᎠᏂᎦᏔᎯᏳ	-7389
▁ᎠᏂᎦᏔᎲᎩ	-7390
▁ᎠᏂᎦᏲᎵᏳ	-7391
▁ᎠᏂᎩᎵᏲᎬ	-7392
▁ᎠᏂᏃᎮᏍᎨ	-7393
▁ᎠᏂᏍᎦᎢᎮ	-7394
▁ᎠᏂᏍᎦᏯᏃ	-7395
▁ᎠᏂᏍᏆᏂᎪ	-7396
▁ᎠᏂᏏᎾᏌᏂ	-7397
▁ᎠᏂᏏᎾᏌᏅ	-7398
▁ᎠᏂᏙᎾᎥᎢ	-7399
▁ᎠᏆᏓᏅᏙᎩ	-7400
▁ᎠᏆᏗᏔᏍᏗ	-7401
▁ᎠᏍᎦᏂᏰᏃ	-7402
▁ᎠᏍᏓᏱᏛᎯ	-7403
▁ᎠᏍᏚᎢᏍᏗ	-7404
▁ᎠᏏᏴᏫᏰᏃ	-7405
▁ᎠᏓᏅᏖᏍᎪ	-7406
▁ᎠᏓᏅᏙᎩᎯ	-7407
▁ᎠᏖᎵᏙᎩᎯ	-7408
▁ᎠᏥᏍᎦᏨᎯ	-7409
▁ᎠᏲᏓᏝᎲᎢ	-7410
▁ᎡᎩᏍᏕᎸᏗ	-7411
▁ᎡᎭᎦᏔᏄᎦ	-7412
▁ᎡᏙᏓᏍᎩᏂ	-7413
▁ᎡᏦᎢᏳᏗᏱ	-7414
▁ᎢᎩᏩᏛᏗᏱ	-7415
▁ᎢᎬᏩᏍᏗᎭ	-7416
▁ᎢᎬᏱᏗᏢᏃ	-7417
▁ᎢᎬᏱᏱᏰᏃ	-7418
▁ᎢᏍᎪᏂᏗᏢ	-7419
▁ᎢᏓᎵᎮᎵᎩ	-7420
▁ᎢᏗᎬᏁᎸᎯ	-7421
▁ᎢᏣᎴᏂᏙᎲ	-7422
▁ᎢᏣᎵᎮᎵᎬ	-7423
▁ᎢᏣᏓᏅᏓᏓ	-7424
▁ᎢᏥᎦᏔᎲᎢ	-7425
▁ᎢᏥᏴᏍᏗᏱ	-7426
▁ᎢᏨᏃᏁᎸᎯ	-7427
▁ᎢᏯᏋᏁᏗᏱ	-7428
▁ᎢᏰᏨᏁᏗᏱ	-7429
▁ᎣᎦᏛᎦᏅᎯ	-7430
▁ᎣᏍᏛᏍᎩᏂ	-7431
▁ᎣᏥᏃᎮᏍᎩ	-7432
▁ᎤᎦᎵᏍᏗᏳ	-7433
▁ᎤᎦᏛᎾᏨᎯ	-7434
▁ᎤᎨᏳᏎᏍᏗ	-7435
▁ᎤᎬᎭᎷᏰᎢ	-7436
▁ᎤᎬᏫᏳᎯᏱ	-7437
▁ᎤᎴᏫᏍᏔᏅ	-7438
▁ᎤᎵᏖᎸᏁᎢ	-7439
▁ᎤᎵᏖᎸᏅᎩ	-7440
▁ᎤᎾᏓᏅᏒᎩ	-7441
▁ᎤᎾᏓᏅᏖᎴ	-7442
▁ᎤᎾᏓᏑᏴᎩ	-7443
▁ᎤᎾᏓᏛᏅᎯ	-7444
▁ᎤᎾᏤᎵᎦᏯ	-7445
▁ᎤᏁᎢᏍᏗᏱ	-7446
▁ᎤᏁᏅᏍᏗᏱ	-7447
▁ᎤᏂᎩᏍᏗᏱ	-7448
▁ᎤᏂᏄᎪᏨᏃ	-7449
▁ᎤᏂᏍᎦᎴᎢ	-7450
▁ᎤᏂᏣᏔᏅᎯ	-7451
▁ᎤᏂᏣᏘᏰᏃ	-7452
▁ᎤᏂᏣᏛᎩᏃ	-7453
▁ᎤᏂᏩᏛᏗᏱ	-7454
▁ᎤᏅᏂᏍᏗᏱ	-7455
▁ᎤᏅᏒᏍᎩᏂ	-7456
▁ᎤᏍᏚᎢᏒᎩ	-7457
▁ᎤᏓᏅᏙᎩᎯ	-7458
▁ᎤᏓᏩᏗᏍᏙ	-7459
▁ᎤᏕᏒᏂᎸᎯ	-7460
▁ᎤᏕᏘᏴᏌᏗ	-7461
▁ᎤᏗᏢᏍᏙᏗ	-7462
▁ᎤᏙᎴᎰᏒᎩ	-7463
▁ᎤᏚᎵᏍᎬᎢ	-7464
▁ᎤᏪᏓᏍᏗᏱ	-7465
▁ᎤᏪᏙᎵᏤᎢ	-7466
▁ᎤᏬᎯᏳᏒᎢ	-7467
▁ᎥᎬᏬᏎᎸᎩ	-7468
▁ᎥᏆᏬᏍᏙᏗ	-7469
▁ᎦᎨᏥᏁᏗᏱ	-7470
▁ᎦᎵᏉᎩᏁᏃ	-7471
▁ᎦᎸᏉᏗᏍᎨ	-7472
▁ᎦᏙᎴᎣᏍᎦ	-7473
▁ᎧᎳᏩᏗᏒᎢ	-7474
▁ᎨᏥᏃᎮᏍᎩ	-7475
▁ᎬᎩᏁᏤᎸᎯ	-7476
▁ᎬᏗᏍᎨᏍᏗ	-7477
▁ᎬᏩᏂᏴᎲᎩ	-7478
▁ᎬᏩᏂᏴᏗᏱ	-7479
▁ᎬᏩᏍᏕᎸᎯ	-7480
▁ᎬᏩᏕᏁᎴᎢ	-7481
▁ᎬᏩᏛᏛᏅᎩ	-7482
▁ᎬᏩᏛᏛᏗᏱ	-7483
▁ᎬᏩᏠᏯᏍᏗ	-7484
▁ᎬᏬᎯᏳᏅᎯ	-7485
▁ᎮᎾᏉᏍᎩᏂ	-7486
▁ᎮᏯᏔᎮᏍᏗ	-7487
▁ᎯᎸᏉᏕᏍᏗ	-7488
▁ᎰᎯᏳᎲᏍᎦ	-7489
▁ᎾᎾᏛᏁᎲᎾ	-7490
▁ᎾᏥᎸᏉᏛᎾ	-7491
▁ᏂᎦᎷᎶᎬᎾ	-7492
▁ᏂᎦᏪᏍᎪᎢ	-7493
▁ᏂᏣᎵᏍᏔᏅ	-7494
▁ᏂᏣᏓᎨᏳᏒ	-7495
▁ᏂᏣᏛᏁᎲᎾ	-7496
▁ᏂᏣᏛᏁᎸᎾ	-7497
▁ᏄᎾᎵᏍᏔᏅ	-7498
▁ᏄᎾᏛᏁᎴᎢ	-7499
▁ᏄᏃᎯᏳᏅᎾ	-7500
▁ᏅᏥᏪᏎᎸᎩ	-7501
▁ᏍᎩᎨᏳᎯᏳ	-7502
▁ᏓᎦᎾᏄᎪᏥ	-7503
▁ᏓᎾᎴᎯᏌᏅ	-7504
▁ᏓᎾᏠᏱᎲᎢ	-7505
▁ᏓᏆᎧᎾᏅᎩ	-7506
▁ᏓᏕᏲᎲᏍᎨ	-7507
▁ᏓᏳᏄᎪᏨᎩ	-7508
▁ᏓᏳᏠᎠᏒᎩ	-7509
▁ᏕᎤᎴᎯᏌᏅ	-7510
▁ᏕᎦᏍᎩᎸᎢ	-7511
▁ᏕᎬᏩᏠᏎᎢ	-7512
▁ᏕᏣᏁᎶᏛᎢ	-7513
▁ᏗᎦᏃᏙᏗᏱ	-7514
▁ᏗᎨᎦᏛᏅᎯ	-7515
▁ᏗᎬᏩᎸᏌᏓ	-7516
▁ᏗᎬᏩᏂᏯᎢ	-7517
▁ᏗᏂᎦᏘᎴᎩ	-7518
▁ᏗᏃᏏᏏᏍᎩ	-7519
▁ᏗᏕᎶᏆᏍᏗ	-7520
▁ᏗᏣᎵᏂᎪᎯ	-7521
▁ᏗᏥᎦᏴᎵᎨ	-7522
▁ᏙᏓᏥᏲᎱᏏ	-7523
▁ᏙᏗᎦᎶᎨᏒ	-7524
▁ᏙᏧᎾᏓᏅᏛ	-7525
▁ᏚᎴᎯᏌᏅᎢ	-7526
▁ᏚᏂᏏᏂᏙᎸ	-7527
▁ᏚᏓᏘᎿᎥᎢ	-7528
▁ᏚᏩᏂᎦᎸᎢ	-7529
▁ᏛᏂᎾᏄᎪᏥ	-7530
▁ᏣᎫᎪᏓᏁᏗ	-7531
▁ᏥᏥᎪᏩᏘᎭ	-7532
▁ᏥᏩᎾᎦᎵᏳ	-7533
▁ᏧᎦᏴᎵᎨᎢ	-7534
▁ᏧᎦᏴᎵᎨᏃ	-7535
▁ᏧᎬᏩᎳᏅᎯ	-7536
▁ᏧᎾᏁᎶᏗᏃ	-7537
▁ᏧᎾᏂᏏᏗᏱ	-7538
▁ᏧᎾᏚᎪᏓᏁ	-7539
▁ᏧᏂᎦᏴᎵᎨ	-7540
▁ᏩᏥᏯᏅᏗᏱ	-7541
▁ᏫᎬᏲᏪᎳᏏ	-7542
▁ᏫᏄᏕᏘᏴᎲ	-7543
▁ᏫᏓᏯᏂᏍᎪ	-7544
▁ᏫᏚᏯᏅᎲᏃ	-7545
▁ᏫᏴᎨᏥᎷᎩ	-7546
▁ᏯᏙᎴᎰᏍᎦ	-7547
▁ᏱᏓᎴᏂᏙᎭ	-7548
▁ᏱᏦᎯᏳᎲᎦ	-7549
▁ᏱᏨᏰᎵᏎᎭ	-7550
ᎳᏍᏓᎳᏩᏗᏒᎢ	-7551
ᎿᎸᏍᏗᏍᎨᏍᏗ	-7552
ᏍᏕᎸᎯᏓᏍᏗᏱ	-7553
ᏓᏅᏓᏗᏍᏗᏍᎩ	-7554
ᏛᏓᏍᏓᏁᎮᏍᏗ	-7555
▁ᎠᎵᏰᎢᎶᎸᎭ	-7556
▁ᎠᏂᎦᏴᎵᎨᎢ	-7557
▁ᎠᏂᏍᎦᎢᎮᎢ	-7558
▁ᎠᏆᏓᏅᏔᏩᏕ	-7559
▁ᎠᏆᏛᏅᎢᏍᏗ	-7560
▁ᎠᏆᏢᏈᏍᏗᏱ	-7561
▁ᎠᏍᎦᏂᏍᎩᏂ	-7562
▁ᎠᏍᎪᎯᏧᏈᏃ	-7563
▁ᎠᏍᏓᏱᏗᏍᎩ	-7564
▁ᎠᏐᏢᎢᏍᏙᏗ	-7565
▁ᎠᏓᏅᏖᏍᎬᏉ	-7566
▁ᎠᏔᏲᎯᎮᏍᏗ	-7567
▁ᎠᏙᎴᎰᎯᏍᏗ	-7568
▁ᎠᏥᎸᎨᎳᏍᏗ	-7569
▁ᎠᏥᎸᏉᏙᏗᏱ	-7570
▁ᎠᏥᏍᏕᎸᏗᏱ	-7571
▁ᎠᏲᎱᏍᎨᏍᏗ	-7572
▁ᎠᏴᏓᏆᎶᏍᎩ	-7573
▁ᎡᏣᏁᏍᎨᎲᎯ	-7574
▁ᎢᎬᏩᎾᏛᏁᏗ	-7575
▁ᎢᏗᎦᏔᎭᏰᏃ	-7576
▁ᎢᏣᎦᏔᏅᏎᎢ	-7577
▁ᎢᏣᏓᏅᏖᏍᏗ	-7578
▁ᎢᏣᏛᎩᏍᎬᎢ	-7579
▁ᎢᏥᎦᏴᎵᎨᎢ	-7580
▁ᎢᏳᏂᏪᏍᏗᏱ	-7581
▁ᎣᎩᏅᏏᏓᏍᏗ	-7582
▁ᎣᏦᎯᏳᎲᏍᎦ	-7583
▁ᎤᎧᎵᎢᏍᏗᏱ	-7584
▁ᎤᎵᏂᎩᏛᏰᏃ	-7585
▁ᎤᎵᏍᏆᏕᎴᎢ	-7586
▁ᎤᎵᏱᎶᎯᏍᏗ	-7587
▁ᎤᎾᎵᏃᎯᏴᎯ	-7588
▁ᎤᎾᏓᏅᏍᏗᏱ	-7589
▁ᎤᎾᏓᏅᏖᎸᎩ	-7590
▁ᎤᎾᏓᏙᎵᏍᏗ	-7591
▁ᎤᏁᎳᏗᏍᏗᏱ	-7592
▁ᎤᏂᏁᎢᏍᏗᏱ	-7593
▁ᎤᏍᏆᏗᏍᏗᏱ	-7594
▁ᎤᏍᏓᏩᏛᏎᎢ	-7595
▁ᎤᏓᎴᎾᏍᏗᏱ	-7596
▁ᎤᏓᏥᎾᏍᏛᎯ	-7597
▁ᎤᏚᎢᏍᏔᏅᎢ	-7598
▁ᎤᏚᎢᏍᏔᏅᎯ	-7599
▁ᎦᎬᏩᏐᏢᏕᎢ	-7600
▁ᎦᎾᏄᎪᏥᎸᎭ	-7601
▁ᎦᏰᏥᏙᎵᏍᏗ	-7602
▁ᎧᏁᎢᏍᏓᏁᏗ	-7603
▁ᎬᏩᎦᏘᏯᏰᏃ	-7604
▁ᎬᏩᏍᏛᏗᏍᏗ	-7605
▁ᎬᏯᎵᎡᎵᏤᎭ	-7606
▁ᎾᎾᏛᏁᎮᏍᏗ	-7607
▁ᎾᏂᎦᏔᎾᎥᎾ	-7608
▁ᎾᏂᏪᏍᎨᏍᏗ	-7609
▁ᎾᏆᏚᎵᏍᎬᎾ	-7610
▁ᏁᏍᏗᏪᏎᎸᎭ	-7611
▁ᏂᎦᎵᏍᏗᏍᎪ	-7612
▁ᏂᎦᎾᏰᏍᎬᎾ	-7613
▁ᏂᎦᏗᏳᏍᎩᏂ	-7614
▁ᏂᏙᏓᎦᏪᏎᎵ	-7615
▁ᏂᏚᏂᏪᏎᎸᎩ	-7616
▁ᏄᎾᎵᏍᏓᏁᎸ	-7617
▁ᏅᏓᎦᏪᏍᎬᎩ	-7618
▁ᏅᏓᏍᎩᏅᏏᏛ	-7619
▁ᏅᏧᎵᏍᏙᏔᏁ	-7620
▁ᏓᎩᎸᏫᏍᏓᏁ	-7621
▁ᏓᎵᏂᎪᎯᏍᏗ	-7622
▁ᏓᏓᏁᎳᏗᏒᎢ	-7623
▁ᏓᏕᏲᎲᏍᎬᎩ	-7624
▁ᏕᎦᏚᏩᏗᏒᎢ	-7625
▁ᏕᎯᏁᏤᎮᏍᏗ	-7626
▁ᏕᏨᏗᏍᎨᏍᏗ	-7627
▁ᏗᏂᏩᎾᎦᎳᎢ	-7628
▁ᏗᏍᏇᏲᎲᏍᎩ	-7629
▁ᏗᏓᎴᏂᏍᎬᎢ	-7630
▁ᏙᏗᎾᎵᏍᏓᏴ	-7631
▁ᏣᎦᏨᏍᏙᏗᏱ	-7632
▁ᏣᎬᏫᏳᏌᏕᎩ	-7633
▁ᏣᎵᏍᎦᏍᏙᏗ	-7634
▁ᏥᎨᏥᏫᏎᎴᎢ	-7635
▁ᏥᏂᏨᏪᏎᎸᎩ	-7636
▁ᏥᏄᎾᎵᏍᏓᏁ	-7637
▁ᏧᎳᎨᏯᏛᏤᎢ	-7638
▁ᏧᎾᏓᏅᏬᏗᏱ	-7639
▁ᏧᏂᎦᏴᎵᎨᎢ	-7640
▁ᏧᏭᏓᎴᏍᏗᏱ	-7641
▁ᏫᏓᏆᎧᎾᏅᎩ	-7642
▁ᏱᏂᎬᏩᏍᏗᏉ	-7643
▁ᏱᏗᏣᏰᎸᏁᎢ	-7644
▁ᎠᎦᏙᎥᎯᏍᏙᏗ	-7645
▁ᎠᎾᎵᏥᏙᎲᏍᎨ	-7646
▁ᎠᎾᏓᎾᏏᏂᏙᎯ	-7647
▁ᎠᎾᏓᏙᎵᏍᏓᏁ	-7648
▁ᎠᏂᏁᎢᏍᏗᏍᎩ	-7649
▁ᎠᏃᎯᏳᎲᏍᎩᏃ	-7650
▁ᎠᏆᎵᏍᎦᏍᏙᏛ	-7651
▁ᎠᏆᎵᏍᏕᎸᏙᏗ	-7652
▁ᎢᎦᎵᏍᏕᎸᏙᏗ	-7653
▁ᎢᏣᏄᏬᏍᏕᏍᏗ	-7654
▁ᎢᏣᏗᏔᏍᎨᏍᏗ	-7655
▁ᎤᎩᎵᏲᎢᏍᏗᏱ	-7656
▁ᎤᎾᎵᏍᏓᏴᏃᏅ	-7657
▁ᎤᎾᎵᏍᏓᏴᏅᎯ	-7658
▁ᎤᎾᏁᎳᏗᏍᏗᏱ	-7659
▁ᎤᎾᏄᎪᎢᏍᏗᏱ	-7660
▁ᎤᎾᏄᎪᏫᏍᏗᏱ	-7661
▁ᎤᏂᎬᏫᏳᏌᏕᎩ	-7662
▁ᎤᏂᎾᏰᎯᏍᏗᏳ	-7663
▁ᎤᏂᏍᏆᏂᎪᏎᏃ	-7664
▁ᎤᏂᏔᎳᏬᏍᎬᎢ	-7665
▁ᎤᏩᏒᏍᎩᏂᏃᏅ	-7666
▁ᎦᎸᏉᏗᏳᏍᎩᏂ	-7667
▁ᎨᏣᎵᏍᏕᎸᏙᏗ	-7668
▁ᎯᏍᏆᎵᏍᎨᏍᏗ	-7669
▁ᏂᎦᎵᏍᏔᏂᏙᎲ	-7670
▁ᏂᎦᎵᏍᏗᏍᎪᎢ	-7671
▁ᏂᏦᎯᏳᎲᏍᎬᎾ	-7672
▁ᏅᏓᏳᎶᎯᏍᏗᏱ	-7673
▁ᏅᏓᏳᎾᏓᎴᏅᎯ	-7674
▁ᏍᎩᏯᏛᎦᏁᎸᎯ	-7675
▁ᏕᎤᎸᏫᏍᏓᏁᎲ	-7676
▁ᏕᎦᎸᏫᏍᏓᏁᎸ	-7677
▁ᏕᏣᎸᏫᏍᏓᏁᎲ	-7678
▁ᏕᏣᏓᎨᏳᏎᏍᏗ	-7679
▁ᏗᎨᏥᏲᎯᏎᎸᎯ	-7680
▁ᏗᎬᏩᏁᎶᏙᏗᏱ	-7681
▁ᏗᎵᏍᎪᎸᏔᏅᎯ	-7682
▁ᏗᏓᏙᏕᏍᏗᏍᎩ	-7683
▁ᏚᏂᎸᏫᏍᏓᏁᎮ	-7684
▁ᏣᎦᏙᎥᎯᏍᏗᏱ	-7685
▁ᏧᎾᎵᏍᏓᏴᏗᏱ	-7686
▁ᏧᎾᏓᎴᏅᏛᏰᏃ	-7687
▁ᏧᏓᏂᎸᎢᏍᏗᏳ	-7688
▁ᎠᎵᏍᏓᏴᎲᏍᎬᎢ	-7689
▁ᎠᎾᏓᏙᎵᏍᏗᏍᎬ	-7690
▁ᎠᏂᏍᏆᏂᎪᏗᏍᎩ	-7691
▁ᎡᏣᎵᎡᎵᏤᎮᏍᏗ	-7692
▁ᎢᏣᏟᏂᎬᏁᎮᏍᏗ	-7693
▁ᎢᏨᏁᎢᏍᏗᏍᎬᎢ	-7694
▁ᎢᏳᎵᏍᏔᏂᏓᏍᏗ	-7695
▁ᎤᎵᏂᎩᏗᏳᏍᎩᏂ	-7696
▁ᎤᎵᏍᎪᎸᏓᏁᎸᎩ	-7697
▁ᎤᎵᏍᎪᎸᏓᏁᎸᎯ	-7698
▁ᎤᏂᏍᏆᏂᎪᏍᎨᎢ	-7699
▁ᎬᏩᏂᏍᏓᏩᏗᏙᎯ	-7700
▁ᎬᏩᏛᏓᏍᏓᏁᏗᏱ	-7701
▁ᏅᏓᎦᎵᏍᏙᏗᏍᎬ	-7702
▁ᏕᎤᎸᏫᏍᏓᏁᎲᎢ	-7703
▁ᏗᎬᏩᏂᎪᏩᏛᏙᏗ	-7704
▁ᏗᎾᏓᏙᎵᏍᏓᏁᎯ	-7705
▁ᏥᏕᏣᎸᏫᏍᏓᏁᎭ	-7706
▁ᏧᎾᏓᏂᎸᎢᏍᏗᏱ	-7707
▁ᏧᏓᏅᏓᏗᏍᏙᏗᏱ	-7708
▁ᎠᎦᎵᏍᎪᎸᏓᏁᎸᎩ	-7709
▁ᎢᏥᏔᏲᏍᏗᏍᎨᏍᏗ	-7710
▁ᎨᏥᎩᎵᏲᎢᏍᏙᏗᏱ	-7711
▁ᏅᏓᏳᎵᏍᎪᎸᏔᏅᎯ	-7712
▁ᏍᎩᏯᏅᏓᏗᏍᎨᏍᏗ	-7713
▁ᏕᏣᎧᎿᏩᏗᏙᎮᏍᏗ	-7714
▁ᏱᏅᏗᎦᎵᏍᏙᏗᏍᎨᏍᏗ	-7715
?"	-7716
ᎠᏎ	-7717
ᎠᏓ	-7718
ᎡᎾ	-7719
ᎢᏣ	-7720
ᎢᏤ	-7721
ᎢᏥ	-7722
ᎤᏂ	-7723
ᎦᏁ	-7724
ᎦᏃ	-7725
ᎦᏉ	-7726
ᎦᏗ	-7727
ᎧᎸ	-7728
ᎨᎩ	-7729
ᎨᎭ	-7730
ᎨᎵ	-7731
ᎨᏎ	-7732
ᎩᎵ	-7733
ᎪᎠ	-7734
ᎪᎦ	-7735
ᎪᏉ	-7736
ᎫᏘ	-7737
ᎫᏫ	-7738
ᎬᏅ	-7739
ᎭᎢ	-7740
ᎮᏛ	-7741
ᎱᏩ	-7742
ᎲᏒ	-7743
ᎳᏓ	-7744
ᎴᎱ	-7745
ᎷᎸ	-7746
ᎸᎥ	-7747
ᎸᏏ	-7748
ᎹᏯ	-7749
ᎿᏗ	-7750
ᏁᎪ	-7751
ᏁᎾ	-7752
ᏁᏒ	-7753
ᏁᏓ	-7754
ᏂᎨ	-7755
ᏂᏟ	-7756
ᏂᏪ	-7757
ᏆᎹ	-7758
ᏆᏕ	-7759
ᏇᎾ	-7760
ᏇᏅ	-7761
ᏇᏓ	-7762
ᏇᏗ	-7763
ᏈᏃ	-7764
ᏋᏅ	-7765
ᏌᏁ	-7766
ᏍᏔ	-7767
ᏑᏩ	-7768
ᏓᏠ	-7769
ᏓᏯ	-7770
ᏕᏃ	-7771
ᏖᎢ	-7772
ᏖᏃ	-7773
ᏘᏱ	-7774
ᏙᏰ	-7775
ᏝᏅ	-7776
ᏠᏎ	-7777
ᏠᏒ	-7778
ᏡᎩ	-7779
ᏡᏓ	-7780
ᏢᎭ	-7781
ᏢᏂ	-7782
ᏢᏃ	-7783
ᏥᎵ	-7784
ᏥᏂ	-7785
ᏧᏢ	-7786
ᏨᏒ	-7787
ᏨᏛ	-7788
ᏨᏴ	-7789
ᏩᏅ	-7790
ᏩᏏ	-7791
ᏩᏖ	-7792
ᏪᏲ	-7793
ᏬᎡ	-7794
ᏭᎪ	-7795
ᏮᎦ	-7796
ᏱᎦ	-7797
ᏱᎶ	-7798
ᏲᎰ	-7799
ᏬᏣ	-7800
ᏲᏂ	-7801
ᏲᏣ	-7802
▁,	-7803
▁~	-7804
▁Ꮃ	-7805
▁Ꮬ	-7806
;--	-7807
ᎡᎮᎢ	-7808
ᎡᎸᎢ	-7809
ᎣᏈᎦ	-7810
ᎣᏍᏛ	-7811
ᎤᎦᏔ	-7812
ᎤᏁᎢ	-7813
ᎦᎸᏃ	-7814
ᎦᎾᏕ	-7815
ᎦᏅᎦ	-7816
ᎦᏖᎢ	-7817
ᎦᏘᏲ	-7818
ᎦᏙᎯ	-7819
ᎧᎲᎩ	-7820
ᎧᎿᏅ	-7821
ᎧᏁᎦ	-7822
ᎧᏁᏴ	-7823
ᎨᎦᏬ	-7824
ᎨᏳᏐ	-7825
ᎩᏍᎬ	-7826
ᎩᏎᎢ	-7827
ᎪᎥᎯ	-7828
ᎪᎩᏂ	-7829
ᎪᎲᏏ	-7830
ᎪᎳᏗ	-7831
ᎪᏁᎶ	-7832
ᎪᏰᏂ	-7833
ᎬᏚᎶ	-7834
ᎬᏩᎶ	-7835
ᎮᎬᎢ	-7836
ᎮᎵᏥ	-7837
ᎮᎶᎯ	-7838
ᎯᏰᏃ	-7839
ᎳᎻᏃ	-7840
ᎵᎡᏌ	-7841
ᎵᎩᏏ	-7842
ᎵᎪᎭ	-7843
ᎵᏌᏕ	-7844
ᎵᏍᏔ	-7845
ᎵᏙᎭ	-7846
ᎵᏙᎴ	-7847
ᎵᏱᎶ	-7848
ᎶᎨᏒ	-7849
ᎶᏍᎪ	-7850
ᎶᏒᎭ	-7851
ᎶᏛᎢ	-7852
ᎷᎬᎾ	-7853
ᎷᏤᎴ	-7854
ᎸᏗᏱ	-7855
ᎾᏁᎭ	-7856
ᎾᏄᏫ	-7857
ᎾᏍᏉ	-7858
ᎿᏁᎢ	-7859
ᎿᏕᎦ	-7860
ᏁᎲᏏ	-7861
ᏁᎾᏛ	-7862
ᏁᏉᏥ	-7863
ᏂᎩᏒ	-7864
ᏂᏌᏅ	-7865
ᏃᎮᏎ	-7866
ᏃᎯᏴ	-7867
ᏃᏁᎭ	-7868
ᏃᏍᎩ	-7869
ᏃᏛᎩ	-7870
ᏃᏣᎵ	-7871
ᏄᎪᏥ	-7872
ᏄᏬᏣ	-7873
ᏅᎯᏒ	-7874
ᏅᏁᎢ	-7875
ᏅᏍᏕ	-7876
ᏅᏎᎦ	-7877
ᏅᏨᎯ	-7878
ᏌᎳᏗ	-7879
ᏌᏅᎩ	-7880
ᏌᏆᎴ	-7881
ᏍᎨᏂ	-7882
ᏍᏈᏅ	-7883
ᏍᏈᏛ	-7884
ᏍᏓᎥ	-7885
ᏍᏓᎳ	-7886
ᏍᏓᏅ	-7887
ᏍᏓᏲ	-7888
ᏍᏕᏢ	-7889
ᏍᏙᎯ	-7890
ᏍᏙᏙ	-7891
ᏎᎦᎩ	-7892
ᏎᎴᏉ	-7893
ᏎᏕᎩ	-7894
ᏑᎦᎸ	-7895
ᏒᎾᏉ	-7896
▁	-7897
Ꮝ	-7898
Ꮧ	-7899
Ꭰ	-7900
Ꭹ	-7901
Ꭲ	-7902
Ꮎ	-7903
Ꮒ	-7904
Ꭿ	-7905
Ꭴ	-7906
Ꭶ	-7907
,	-7908
Ꮣ	-7909
Ꮅ	-7910
Ꮕ	-7911
Ꭸ	-7912
Ꮄ	-7913
Ꮑ	-7914
Ꮫ	-7915
Ꮓ	-7916
Ꮵ	-7917
Ꮢ	-7918
Ꭼ	-7919
Ꮈ	-7920
Ᏻ	-7921
Ꮩ	-7922
Ᏹ	-7923
.	-7924
Ꭺ	-7925
Ꮞ	-7926
Ꮹ	-7927
Ꮻ	-7928
Ꮙ	-7929
;	-7930
Ꮃ	-7931
Ꮳ	-7932
Ꮪ	-7933
Ᏼ	-7934
Ꮿ	-7935
Ꮥ	-7936
Ꮤ	-7937
Ꮺ	-7938
Ꮆ	-7939
Ᏸ	-7940
Ꮔ	-7941
Ꭵ	-7942
Ꮷ	-7943
Ꭽ	-7944
Ꮂ	-7945
Ꮟ	-7946
Ꮴ	-7947
Ꭱ	-7948
Ᏺ	-7949
Ꮸ	-7950
Ꮜ	-7951
Ꭾ	-7952
Ꮏ	-7953
Ꮖ	-7954
Ꮨ	-7955
Ꮭ	-7956
Ꭷ	-7957
Ꭳ	-7958
Ꮇ	-7959
Ꮼ	-7960
Ꮯ	-7961
Ꮲ	-7962
Ꮀ	-7963
Ꮁ	-7964
Ꮠ	-7965
?	-7966
Ꮶ	-7967
-	-7968
Ꮘ	-7969
Ꮦ	-7970
Ꮽ	-7971
Ꭻ	-7972
Ꮮ	-7973
Ꮡ	-7974
Ꮰ	-7975
Ꮋ	-7976
Ꮗ	-7977
Ꮉ	-7978
Ꮱ	-7979
[	-7980
Ꮊ	-7981
]	-7982
Ꮛ	-7983
Ꮬ	-7984
"	-7985
!	-7986
Ꮾ	-7987
Ꮌ	-7988
(	-7989
)	-7990
:	-7991
'	-7992
Ꮚ	-7993
~	-7994
Ꮍ	-7995
\	-7996
