<pad>	0
</s>	0
<unk>	0
▁	-1.2033
¦	-2.18143
▁¦	-3.06652
ም	-3.52437
ን	-3.5789
ት	-4.0334
በ	-4.16766
።	-4.16943
፥	-4.19225
ው	-4.26175
ል	-4.30121
ለ	-4.35733
ና	-4.58439
ር	-4.63961
መ	-4.65565
አ	-4.68039
የ	-4.69495
፤	-4.70563
ስ	-4.71425
ይ	-4.73985
ተ	-4.81568
ች	-4.86022
▁የ	-4.88804
ያ	-4.91593
▁በ	-4.93609
ከ	-5.10442
ድ	-5.14181
ብ	-5.16497
ላ	-5.24643
ረ	-5.28889
ገ	-5.28943
ህ	-5.30572
ሰ	-5.34728
ራ	-5.35932
ቸ	-5.45645
ደ	-5.46875
ንም	-5.47317
▁አ	-5.52229
ማ	-5.56031
ባ	-5.58474
ጥ	-5.65598
ዋ	-5.67057
ፍ	-5.73535
ሁ	-5.73901
ጠ	-5.76955
ግ	-5.79006
▁ከ	-5.81981
ቱ	-5.92048
እ	-5.94711
ችሁ	-5.98509
ሳ	-6.07901
እን	-6.10247
ወደ	-6.13829
ሉ	-6.14613
▁ወደ	-6.18023
?	-6.24634
ሁሉ	-6.2498
▁ሁሉ	-6.32905
ጣ	-6.35395
እግዚአብሔር	-6.42774
ቃ	-6.46142
▁እንደ	-6.47474
ነው	-6.5309
▁እ	-6.54588
እንደ	-6.58745
ቢ	-6.6341
ካ	-6.64524
ኑ	-6.64833
ሰው	-6.66123
ላይ	-6.69706
▁ዘንድ	-6.77918
ዘንድ	-6.78311
▁ላይ	-6.78317
ፋ	-6.79286
ዱ	-6.82393
ኛ	-6.88844
▁እግዚአብሔር	-6.91677
▁ግን	-6.92616
ግን	-6.93693
ሆነ	-6.95897
አንተ	-6.96765
ልና	-6.98374
▁ጋር	-6.9875
እኔ	-7.026
ሲ	-7.11689
ሱ	-7.12197
መጣ	-7.12902
ነገር	-7.15878
ሆ	-7.16145
እርሱ	-7.16202
▁ነገር	-7.16889
▁ስለ	-7.18107
▁ልጆች	-7.22919
ም።	-7.23161
አለ	-7.23517
ወጣ	-7.23821
ልጆች	-7.24378
ልጅ	-7.26037
ስለ	-7.31481
▁ልጅ	-7.31495
ገባ	-7.32056
ዬ	-7.33175
▁ቀን	-7.35824
▁ቤት	-7.4147
ቃል	-7.41683
▁ፊት	-7.45441
እናንተ	-7.45523
አንድ	-7.48415
▁ሆይ፥	-7.50526
ሰማ	-7.51244
ነበረ	-7.51906
ምድር	-7.52316
ሄ	-7.52783
ብር	-7.52806
እንዲህ	-7.53558
▁አይ	-7.62052
ተው	-7.62636
▁እኔ	-7.66184
ኢየሩሳሌም	-7.66546
ወንድ	-7.67645
▁እንዲህ	-7.69108
እርሱም	-7.69647
▁ደግሞ	-7.7063
ነበር	-7.71063
▁ሰው	-7.71889
እንዲ	-7.7247
አሕዛብ	-7.72895
▁ንጉሥ	-7.73993
ስም	-7.76638
ሰዎች	-7.78541
ናቸው	-7.79047
ጆ	-7.79383
▁አለው።	-7.80174
ደግሞ	-7.81297
ይላል	-7.8348
አይ	-7.83539
ያው	-7.83714
▁ነው።	-7.84253
አሁን	-7.84347
ኢየሱስ	-7.8574
▁ብሎ	-7.85896
ያለ	-7.86166
ከፍ	-7.8664
▁ሰዎች	-7.8818
▁ይህ	-7.88461
▁ነበር።	-7.88861
መንገድ	-7.90324
ከተማ	-7.90418
ኃጢአት	-7.90635
እርስዋ	-7.90893
▁አለ።	-7.9111
ጠብ	-7.92008
ሆኑ	-7.9265
እነርሱም	-7.93081
ላለ	-7.9414
▁ድረስ	-7.94202
ተኛ	-7.95165
ማን	-7.95933
ባል	-7.96823
እኛ	-7.97452
እስራኤል	-7.99081
መልካም	-7.99639
እነርሱ	-8.00049
አሳ	-8.00425
ድረስ	-8.00512
እነሆ	-8.00586
እግዚአብሔርም	-8.01528
▁እስከ	-8.02063
ክርስቶስ	-8.02065
ባለ	-8.0446
▁እነሆ፥	-8.04664
ውስጥ	-8.0469
▁ቃል	-8.04873
ይህ	-8.04911
እጅግ	-8.0539
አብ	-8.06317
ሰጠ	-8.07026
እጅ	-8.08342
▁በእግዚአብሔር	-8.0866
▁ምድር	-8.08674
አለው	-8.09318
ጠራ	-8.09438
ሆይ	-8.10468
▁ወይም	-8.11248
በምድር	-8.11648
ሺህ	-8.11983
እስከ	-8.12852
እነዚህ	-8.12993
▁ውስጥ	-8.12996
▁ዓመት	-8.1306
▁ሕዝብ	-8.13847
▁እርሱ	-8.14138
በዚያም	-8.15077
ያን	-8.15246
እንዳይ	-8.15372
አለቆች	-8.15572
ጠፋ	-8.15686
ጅ	-8.15899
▁በኋላ	-8.17564
▁በዚያ	-8.17922
መካከል	-8.1815
አቤቱ	-8.18219
አገር	-8.18541
በእስራኤል	-8.18671
አሥራ	-8.19047
ሁለት	-8.1922
በላ	-8.19808
ተራራ	-8.20158
▁አንተ	-8.20448
▁ነው፤	-8.20975
▁አንድ	-8.22938
መንፈስ	-8.23079
▁ይህን	-8.23208
ባሪያ	-8.23452
በሉ	-8.23516
ይሁዳ	-8.24254
▁ስለዚህ	-8.2437
አለቃ	-8.24735
ከእርሱ	-8.24949
ይሁን	-8.25115
ሄደ	-8.2614
አንዱ	-8.26349
በእግዚአብሔር	-8.26487
አምላክ	-8.27024
ይሆን	-8.27444
አይደለም	-8.27512
ጠላ	-8.28192
በኋላ	-8.28229
ደስ	-8.29549
▁እጅ	-8.29709
ኔ	-8.30083
ማለ	-8.3047
ሕይወት	-8.30726
አደረገ	-8.31098
▁እግዚአብሔርም	-8.31205
ወለደ	-8.31665
ስፍራ	-8.31756
ራሱ	-8.32287
ያዕቆብ	-8.32375
ሰማይ	-8.32951
▁አምላክ	-8.33022
ገና	-8.33082
ማል	-8.33171
ብላ	-8.33214
ስለዚህ	-8.33977
በዚያ	-8.35264
ይህን	-8.35671
ለዘላለም	-8.36251
ገር	-8.36824
ልብ	-8.36824
በር	-8.37113
ዳዊትም	-8.37244
ሰባት	-8.37311
ሳኦል	-8.37494
▁እግዚአብሔርን	-8.38667
ፍርድ	-8.39612
▁የእስራኤል	-8.40115
በደ	-8.40122
በል	-8.40276
▁መካከል	-8.4037
ሁለቱ	-8.40849
ሰይፍ	-8.4086
ርግ	-8.41222
▁ለእግዚአብሔር	-8.41302
ሄዱ	-8.41322
ድር	-8.41691
አደረ	-8.42539
እንግዲህ	-8.43743
እንጀራ	-8.43951
▁እንዲሁ	-8.44321
እስኪ	-8.44486
▁የእግዚአብሔር	-8.45033
ይሆናል	-8.45104
▁ያለ	-8.45569
▁አላቸው።	-8.46246
ባሕር	-8.49434
ከእኔ	-8.49587
▁ነበረ።	-8.49613
▁እኔም	-8.49833
አሮን	-8.50283
ካህኑ	-8.51144
ከተሞች	-8.51715
▁እናንተ	-8.51863
ፍራ	-8.51863
ነበሩት	-8.52003
ነበርና	-8.53139
ፌ	-8.54048
በግ	-8.54304
▁ነበር፤	-8.54375
አጠገብ	-8.54938
እንዲሁ	-8.54966
▁እርሱም	-8.55146
ሰላም	-8.55618
ሰብ	-8.55656
መለሰ	-8.56071
ብለው	-8.56071
የለም	-8.56227
የእስራኤል	-8.56284
ያለውን	-8.56412
አምላክህ	-8.56867
እሳት	-8.57666
ከዚህ	-8.58288
አምስት	-8.58313
እውነት	-8.59466
▁ሁለት	-8.59619
አሉ	-8.60069
ዔ	-8.60129
▁መሥዋዕት	-8.60492
ናችሁ	-8.60822
ሆነው	-8.61022
መሥዋዕት	-8.61031
ራስ	-8.61198
አንቺ	-8.61395
መከራ	-8.61862
ዲ	-8.62418
▁ይላል።	-8.62933
▁ዘመን	-8.62996
▁ደስ	-8.63662
ና።	-8.64046
የእግዚአብሔር	-8.64056
▁ነውና	-8.64335
ቍርባን	-8.64951
ቸውንም	-8.65058
ሰሎሞን	-8.66276
ቢሆን	-8.66629
ሳለ	-8.66656
መሠዊያ	-8.66901
ባቢሎን	-8.66946
▁ኢየሱስ	-8.68314
ስማ	-8.68573
ግባ	-8.68835
▁የእግዚአብሔርን	-8.69084
▁በዚህ	-8.69251
▁ስፍራ	-8.69665
ነገሥታት	-8.70361
አባቱ	-8.70447
ች።	-8.70621
ቃሉ	-8.71005
ነገድ	-8.71058
ያደረ	-8.71153
ተስፋ	-8.71458
ከእስራኤል	-8.7149
ባሪያዎች	-8.72113
ፈርዖን	-8.72823
ከተማይቱ	-8.72828
ላሉ	-8.72917
ግብጽ	-8.7318
ልጆቹ	-8.73897
ቅዱስ	-8.73897
ከእናንተ	-8.74867
ዚ	-8.75546
▁ወገን	-8.75835
አላቸው	-8.75868
▁እነዚህ	-8.76452
አራት	-8.76651
▁ማን	-8.76802
ድንጋይ	-8.7719
ለምን	-8.77622
ትእዛዝ	-8.77937
ከዚያም	-8.78282
▁ሁሉ፥	-8.78969
ለእስራኤል	-8.7917
የእግዚአብሔርን	-8.79521
አውራ	-8.79799
ኃይል	-8.79828
አይሁድ	-8.79843
በዚህ	-8.79921
!	-8.80211
ነፍስ	-8.80211
ገል	-8.81453
አለሁ	-8.82026
ያደርግ	-8.82157
▁እርሱም።	-8.82437
▁እንዲህም	-8.82944
በይሁዳ	-8.83352
መለስ	-8.83406
ኢያሱ	-8.83722
▁ነበሩ።	-8.84787
አብርሃም	-8.84921
▁ነበረ፤	-8.85542
የሠራዊት	-8.85728
ተናገረ	-8.85942
ከእርሱም	-8.86687
ጣሉ	-8.86802
ከንቱ	-8.87069
ከእነርሱ	-8.8748
▁ድምፅ	-8.87774
ተናገረው	-8.87971
▁ንጉሡም	-8.8805
የይሁዳ	-8.88412
ካህናት	-8.89023
ልብስ	-8.89133
መንግሥት	-8.89442
አድርጎ	-8.89863
ረብ	-8.90212
ድንኳን	-8.90711
ራብ	-8.90856
ባለው	-8.9175
ተቀመጠ	-8.91997
ፍልስጥኤማውያን	-8.91997
ጠጣ	-8.92102
ተቀመጡ	-8.92864
ምንድር	-8.93975
የእስራኤልም	-8.94058
▁ነው፥	-8.94079
አባት	-8.94099
ጥበብ	-8.94412
አምላካችን	-8.94619
ሰጠው	-8.9508
▁ይልቅ	-8.95807
እያንዳንዱ	-8.95957
ሁለተኛው	-8.96027
▁እነሆም	-8.96347
▁ክንድ	-8.96406
ታቸውን	-8.96826
ወንድሞች	-8.97312
ካህናቱ	-8.97312
ተናገር	-8.97787
ግራ	-8.98021
መጀመሪያ	-8.98226
ምድረ	-8.98974
▁እንዴት	-8.99148
እርሻ	-8.99613
▁ዘንድ፥	-8.99904
እንዲያ	-8.99907
ሰልፍ	-9.00249
ስድስት	-9.01499
በእውነት	-9.02508
የነበረው	-9.02611
ርስት	-9.02766
ባሉ	-9.02991
ምድሪቱ	-9.03408
መልስ	-9.03723
መቅደስ	-9.03892
የእግዚአብሔርም	-9.04418
ይበላ	-9.04893
ይህች	-9.05857
▁ይሆናል።	-9.06037
ከዚያ	-9.06441
ባሪያህ	-9.06491
ላከ	-9.06715
ሆንሁ	-9.07197
▁አሉት።	-9.07537
መጽሐፍ	-9.07857
ማደሪያ	-9.07857
ሌዋውያን	-9.08363
ነቢያት	-9.08363
አማልክት	-9.08873
አባቴ	-9.09385
ወዲያ	-9.09899
ዮርዳኖስ	-9.09899
ሠላሳ	-9.10936
አምሳ	-9.11053
ክፋት	-9.11459
በእሳት	-9.12151
በውኑ	-9.12516
ጠጅ	-9.12804
ብርሃን	-9.13577
ያደርጉ	-9.13577
እርስ	-9.13701
መጥቶ	-9.14114
መዛሙርቱ	-9.15196
የወይን	-9.15196
ኤፍሬም	-9.15742
ነበረች	-9.17742
ወሰደ	-9.17954
▁ናቸው።	-9.18865
ከእነርሱም	-9.19007
ሳሉ	-9.19026
ሰጣቸው	-9.19079
ሽማግሌዎች	-9.20789
መቅደሱ	-9.21366
አርባ	-9.21392
እህል	-9.21796
አምላካችሁ	-9.21947
እምነት	-9.21947
መለከት	-9.2196
አምላኬ	-9.23117
ነፋስ	-9.23708
ይሆናሉ	-9.24302
ራሳቸው	-9.24342
እንዲሆን	-9.24909
ትንቢት	-9.24911
ጥፋት	-9.24972
ምሕረት	-9.25501
ብንያም	-9.25537
አድርግ	-9.26759
በደል	-9.27097
ያህል	-9.27238
ደመና	-9.27367
ሺ	-9.28061
አባቶቻቸው	-9.28562
▁ነበር፥	-9.28887
ጴጥሮስ	-9.29186
▁በእኔ	-9.29574
ይመጣል	-9.29982
ያጠፋ	-9.30143
በፊትህ	-9.30445
▁ወይስ	-9.30868
በምድረ	-9.31006
አሳልፎ	-9.31081
ወዲህ	-9.31081
▁አሉ።	-9.31615
ምልክት	-9.32364
ልባቸው	-9.32531
መልአክ	-9.33664
ደረሰ	-9.33798
አደባባይ	-9.34321
ሰማርያ	-9.3448
መጠን	-9.3467
ትሆን	-9.34852
እናቱ	-9.35134
እግር	-9.35143
ኤርምያስ	-9.35647
ሰማያት	-9.35732
ከሰማይ	-9.35858
አየሁ	-9.36269
ቅዱሳን	-9.36316
ምስጋና	-9.3699
▁ይሆናል፤	-9.37219
a	-10.247
k	-11.4849
g	-11.6039
w	-11.6469
r	-11.7389
ፕ	-11.895
𐋇	-11.953
d	-12.0468
*	-12.3075
1	-12.3075
v	-12.4441
"	-12.6023
𐊣	-12.6023
l	-12.6023
𐊼	-12.6023
2	-12.7903
s	-12.7903
3	-13.324
]	-13.324
o	-13.324
D	-13.449
)	-13.7585
-	-13.7585
5	-13.7585
e	-13.7585
A	-14.2085
ፏ	-14.5222
ጧ	-14.5223
ጒ	-14.5224
ኼ	-14.5225
ኲ	-14.5226
ኟ	-14.5227
ኗ	-14.5228
ቿ	-14.5229
ቷ	-14.523
ሏ	-14.5231
4	-14.5232
0	-14.5233
ፂ	-14.5234
ዷ	-14.5235
ቊ	-14.5236
(	-14.5237
ፒ	-14.5238
ፑ	-14.5239
[	-14.524
t	-14.5241
ፓ	-14.5242
ፐ	-14.5243
ሷ	-14.5244
T	-14.5245
ኺ	-14.5246
ፔ	-14.5247
ቧ	-14.5248
K	-14.5249
ጱ	-14.525
ጰ	-14.5251
ኾ	-14.5252
ኄ	-14.5253
ፄ	-14.5254
ዡ	-14.5255
ሓ	-14.5256
ቾ	-14.5257
ሢ	-14.5258
ዤ	-14.5259
ዦ	-14.526
W	-14.5261
ጬ	-14.5262
ጺ	-14.5263
ጼ	-14.5264
ኚ	-14.5265
ኡ	-14.5266
ዢ	-14.5267
ጶ	-14.5268
ዠ	-14.5269
ሼ	-14.527
ሒ	-14.5271
ዒ	-14.5272
ዪ	-14.5273
ኆ	-14.5274
ሑ	-14.5275
ጲ	-14.5276
ጪ	-14.5277
ኻ	-14.5278
ኜ	-14.5279
ፆ	-14.528
ኽ	-14.5281
ጵ	-14.5282
ዥ	-14.5283
ሖ	-14.5284
ዣ	-14.5285
ጾ	-14.5286
ኹ	-14.5287
ሤ	-14.5288
ፁ	-14.5289
ዑ	-14.529
ዉ	-14.5291
ኀ	-14.5292
ዌ	-14.5293
ጴ	-14.5294
ጤ	-14.5295
ጩ	-14.5296
ኣ	-14.5297
ዐ	-14.5298
ኰ	-14.5299
ጳ	-14.53
ቋ	-14.5301
ኙ	-14.5302
ቺ	-14.5303
ኒ	-14.5304
ሂ	-14.5305
ፃ	-14.5306
ቲ	-14.5307
ቄ	-14.5308
ሾ	-14.5309
ሹ	-14.531
ጓ	-14.5311
ጄ	-14.5312
ጮ	-14.5313
ጹ	-14.5314
ፀ	-14.5315
ኬ	-14.5316
ዞ	-14.5317
ኘ	-14.5318
ጐ	-14.5319
ሀ	-14.532
ኦ	-14.5321
ጂ	-14.5322
ጫ	-14.5323
ኵ	-14.5324
ዖ	-14.5325
ኸ	-14.5326
ኅ	-14.5327
ኳ	-14.5328
ጕ	-14.5329
ጦ	-14.533
ፅ	-14.5331
ቂ	-14.5332
ፎ	-14.5333
ቼ	-14.5334
ጁ	-14.5335
ሦ	-14.5336
ቈ	-14.5337
ጃ	-14.5338
ኮ	-14.5339
ዴ	-14.534
ኞ	-14.5341
ጭ	-14.5342
ቦ	-14.5343
ኩ	-14.5344
ቍ	-14.5345
ጻ	-14.5346
ኪ	-14.5347
ጎ	-14.5348
ዩ	-14.5349
ጨ	-14.535
ሻ	-14.5351
ሡ	-14.5352
ሜ	-14.5353
ጢ	-14.5354
ሶ	-14.5355
ጸ	-14.5356
ሣ	-14.5357
ጀ	-14.5358
ፉ	-14.5359
ቴ	-14.536
ሸ	-14.5361
ሐ	-14.5362
ዶ	-14.5363
ሊ	-14.5364
ሃ	-14.5365
ቁ	-14.5366
ዙ	-14.5367
ሬ	-14.5368
ጌ	-14.5369
ኋ	-14.537
ቹ	-14.5371
ጽ	-14.5372
ኃ	-14.5373
ዮ	-14.5374
ጡ	-14.5375
ሽ	-14.5376
ቆ	-14.5377
ዊ	-14.5378
ቻ	-14.5379
ዕ	-14.538
ቡ	-14.5381
ዜ	-14.5382
ሪ	-14.5383
ሠ	-14.5384
ፊ	-14.5385
ኖ	-14.5386
ኢ	-14.5387
ሴ	-14.5388
ጊ	-14.5389
ሮ	-14.539
ሙ	-14.5391
ሎ	-14.5392
ሌ	-14.5393
ዎ	-14.5394
ኝ	-14.5395
ዛ	-14.5396
ጉ	-14.5397
ቤ	-14.5398
ዓ	-14.5399
ዝ	-14.54
ኤ	-14.5401
ሕ	-14.5402
ሞ	-14.5403
ቶ	-14.5404
ሥ	-14.5405
ጋ	-14.5406
ሩ	-14.5407
ፈ	-14.5408
ሚ	-14.5409
ክ	-14.541
ቅ	-14.5411
ሔ	-14.5412
ዳ	-14.5413
ዘ	-14.5414
ቀ	-14.5415
ታ	-14.5416
ወ	-14.5417
@	-14.5418
m	-14.5418
u	-14.5418
b	-14.5418
ነ	-14.5418
