<pad>	0
</s>	0
<unk>	0
▁t	-0
▁a	-1
in	-2
he	-3
re	-4
▁c	-5
on	-6
▁s	-7
▁o	-8
▁the	-9
at	-10
er	-11
ou	-12
es	-13
▁w	-14
ed	-15
nd	-16
or	-17
▁p	-18
en	-19
▁f	-20
it	-21
al	-22
▁d	-23
is	-24
ing	-25
▁in	-26
▁to	-27
▁m	-28
▁b	-29
▁of	-30
an	-31
as	-32
▁and	-33
▁h	-34
ar	-35
ic	-36
ion	-37
om	-38
▁re	-39
ov	-40
▁y	-41
▁n	-42
id	-43
le	-44
▁you	-45
ct	-46
ent	-47
ve	-48
il	-49
us	-50
ir	-51
▁e	-52
▁th	-53
os	-54
▁be	-55
ot	-56
ac	-57
ly	-58
▁T	-59
ol	-60
▁g	-61
▁v	-62
▁ha	-63
▁for	-64
▁l	-65
▁de	-66
ay	-67
ation	-68
▁cov	-69
19	-70
▁on	-71
ur	-72
op	-73
▁or	-74
im	-75
▁con	-76
▁is	-77
ith	-78
tr	-79
▁your	-80
▁2	-81
ow	-82
▁with	-83
ect	-84
if	-85
ut	-86
▁we	-87
-19	-88
ch	-89
▁as	-90
▁covid	-91
▁The	-92
her	-93
ce	-94
▁st	-95
▁pr	-96
est	-97
ig	-98
th	-99
ill	-100
▁an	-101
▁are	-102
ers	-103
▁u	-104
▁cas	-105
ort	-106
▁I	-107
▁that	-108
▁r	-109
et	-110
▁1	-111
irus	-112
▁fr	-113
▁have	-114
▁wh	-115
se	-116
ment	-117
▁ch	-118
▁not	-119
ive	-120
▁cases	-121
▁tr	-122
mp	-123
▁al	-124
ies	-125
▁he	-126
ul	-127
ad	-128
▁A	-129
▁res	-130
▁from	-131
ther	-132
ta	-133
fect	-134
ld	-135
port	-136
▁(	-137
st	-138
um	-139
▁se	-140
ver	-141
▁sh	-142
▁were	-143
ome	-144
ess	-145
ate	-146
ter	-147
cov	-148
▁cou	-149
▁dis	-150
▁it	-151
ab	-152
od	-153
ath	-154
▁at	-155
ak	-156
am	-157
res	-158
pp	-159
ial	-160
▁ne	-161
ore	-162
and	-163
em	-164
ary	-165
oc	-166
▁su	-167
ople	-168
ity	-169
ine	-170
iv	-171
▁can	-172
▁20	-173
▁sy	-174
el	-175
▁test	-176
are	-177
ud	-178
eople	-179
▁cl	-180
alth	-181
▁ex	-182
▁will	-183
▁by	-184
ions	-185
▁virus	-186
▁wor	-187
▁was	-188
▁health	-189
▁people	-190
▁S	-191
un	-192
▁us	-193
▁death	-194
▁un	-195
qu	-196
▁sp	-197
▁com	-198
▁other	-199
ans	-200
ated	-201
▁C	-202
ical	-203
▁report	-204
ge	-205
ars	-206
ose	-207
mpt	-208
▁ad	-209
ain	-210
igh	-211
▁inc	-212
acc	-213
av	-214
vel	-215
eas	-216
▁out	-217
▁pre	-218
▁if	-219
ant	-220
ber	-221
▁infect	-222
og	-223
▁conta	-224
ub	-225
mptom	-226
▁has	-227
▁le	-228
▁coun	-229
▁who	-230
▁vacc	-231
ib	-232
▁j	-233
▁app	-234
▁k	-235
▁im	-236
ents	-237
ould	-238
▁been	-239
▁deaths	-240
▁fe	-241
ild	-242
oron	-243
▁reported	-244
▁O	-245
▁do	-246
▁may	-247
ied	-248
ost	-249
▁If	-250
▁symptom	-251
ous	-252
▁ab	-253
end	-254
ace	-255
▁W	-256
ia	-257
out	-258
art	-259
▁af	-260
hen	-261
oronav	-262
act	-263
our	-264
▁symptoms	-265
oronavirus	-266
ap	-267
one	-268
med	-269
ire	-270
▁4	-271
ide	-272
▁Y	-273
gh	-274
▁3	-275
▁countr	-276
ice	-277
arch	-278
ines	-279
all	-280
▁contact	-281
▁202	-282
lud	-283
ec	-284
ren	-285
ult	-286
▁sars	-287
ory	-288
ist	-289
ubl	-290
ified	-291
able	-292
▁Th	-293
▁diseas	-294
als	-295
▁D	-296
▁num	-297
rou	-298
low	-299
ure	-300
uary	-301
▁more	-302
ack	-303
▁coronavirus	-304
▁P	-305
read	-306
▁prot	-307
▁child	-308
own	-309
▁includ	-310
▁should	-311
ious	-312
▁pos	-313
▁2020	-314
▁this	-315
▁their	-316
▁br	-317
emic	-318
▁day	-319
ast	-320
▁pl	-321
▁resp	-322
▁march	-323
ight	-324
▁You	-325
▁hand	-326
▁work	-327
▁ac	-328
iz	-329
ue	-330
▁prev	-331
▁ser	-332
▁some	-333
so	-334
▁number	-335
▁M	-336
ool	-337
▁also	-338
▁disease	-339
▁5	-340
ern	-341
▁In	-342
ance	-343
ip	-344
reak	-345
ati	-346
▁sa	-347
▁rec	-348
atory	-349
▁H	-350
▁trans	-351
aus	-352
ations	-353
▁B	-354
ict	-355
ong	-356
▁On	-357
00	-358
▁vaccine	-359
ures	-360
▁F	-361
▁It	-362
chool	-363
▁had	-364
▁they	-365
iss	-366
break	-367
ard	-368
-2	-369
urther	-370
▁than	-371
▁outbreak	-372
ates	-373
▁tim	-374
ich	-375
▁med	-376
▁about	-377
▁countries	-378
▁te	-379
ep	-380
▁conf	-381
▁further	-382
▁spread	-383
ail	-384
▁comm	-385
isk	-386
orm	-387
▁ind	-388
erson	-389
pr	-390
reat	-391
▁all	-392
▁ev	-393
trict	-394
▁This	-395
▁need	-396
▁publ	-397
ll	-398
▁"	-399
red	-400
▁dr	-401
▁pati	-402
enc	-403
lo	-404
uc	-405
ake	-406
▁ph	-407
▁tot	-408
▁when	-409
▁which	-410
▁school	-411
▁person	-412
▁av	-413
▁ef	-414
ign	-415
▁ag	-416
▁one	-417
▁R	-418
▁face	-419
andemic	-420
▁confir	-421
▁cr	-422
ens	-423
▁new	-424
ness	-425
▁over	-426
▁pandemic	-427
ata	-428
▁after	-429
ke	-430
▁und	-431
▁cent	-432
fe	-433
mer	-434
irst	-435
vice	-436
▁int	-437
▁per	-438
▁risk	-439
ities	-440
fic	-441
ina	-442
olog	-443
▁patients	-444
pt	-445
▁inf	-446
ag	-447
br	-448
▁exp	-449
▁restrict	-450
ks	-451
avel	-452
▁gov	-453
▁home	-454
ence	-455
▁public	-456
▁me	-457
▁get	-458
▁them	-459
▁time	-460
▁such	-461
▁first	-462
ational	-463
▁confirmed	-464
not	-465
▁inter	-466
pit	-467
▁stud	-468
con	-469
ors	-470
▁any	-471
▁hum	-472
▁govern	-473
ile	-474
▁mas	-475
▁travel	-476
▁man	-477
▁care	-478
▁infection	-479
ased	-480
▁col	-481
▁data	-482
▁china	-483
ord	-484
▁sur	-485
▁use	-486
ating	-487
ments	-488
ollow	-489
▁comp	-490
ase	-491
▁hands	-492
ie	-493
▁rel	-494
ove	-495
▁qu	-496
ally	-497
▁clos	-498
ission	-499
▁up	-500
land	-501
▁tw	-502
▁bring	-503
age	-504
ited	-505
ress	-506
▁under	-507
▁including	-508
ne	-509
we	-510
▁but	-511
ospit	-512
▁transm	-513
▁caus	-514
oun	-515
▁hospit	-516
ert	-517
▁gen	-518
▁protect	-519
ell	-520
ike	-521
▁ill	-522
bruary	-523
dit	-524
▁prov	-525
▁2020,	-526
▁result	-527
ang	-528
▁high	-529
▁others	-530
ame	-531
▁sc	-532
ific	-533
▁6	-534
ach	-535
sib	-536
▁due	-537
▁rece	-538
▁february	-539
▁no	-540
velop	-541
▁case	-542
▁days	-543
▁contr	-544
arly	-545
▁stay	-546
▁bringing	-547
ood	-548
way	-549
▁hel	-550
ident	-551
▁these	-552
▁world	-553
▁ar	-554
itive	-555
lu	-556
▁rem	-557
▁previous	-558
▁E	-559
▁close	-560
▁en	-561
ever	-562
▁help	-563
▁-	-564
outh	-565
▁two	-566
▁part	-567
▁effect	-568
▁bet	-569
▁government	-570
▁cover	-571
▁follow	-572
▁/	-573
omm	-574
uring	-575
anuary	-576
illion	-577
▁loc	-578
▁possib	-579
ass	-580
▁those	-581
ob	-582
▁how	-583
▁avail	-584
iratory	-585
▁totals	-586
▁january	-587
ices	-588
▁positive	-589
ust	-590
-19.	-591
fore	-592
▁mon	-593
▁call	-594
▁L	-595
anc	-596
ian	-597
▁ant	-598
▁reg	-599
gn	-600
ind	-601
une	-602
▁treat	-603
▁hospital	-604
uct	-605
▁gp	-606
▁dec	-607
▁most	-608
▁previously	-609
lf	-610
▁N	-611
ick	-612
iate	-613
▁bec	-614
ocial	-615
▁there	-616
▁develop	-617
▁available	-618
cc	-619
te	-620
▁ass	-621
▁imp	-622
▁sign	-623
▁7	-624
▁kn	-625
ative	-626
rent	-627
very	-628
▁dif	-629
▁respon	-630
▁wee	-631
▁tested	-632
▁medical	-633
▁infected	-634
▁respiratory	-635
hed	-636
ater	-637
here	-638
▁notified	-639
).	-640
▁9	-641
▁so	-642
lect	-643
▁bre	-644
▁hcov	-645
aly	-646
▁syst	-647
isit	-648
▁am	-649
▁acc	-650
▁ann	-651
ced	-652
han	-653
▁10	-654
ween	-655
ected	-656
int	-657
▁its	-658
ended	-659
▁host	-660
▁track	-661
▁would	-662
▁during	-663
notified	-664
▁between	-665
▁illness	-666
▁transmission	-667
▁8	-668
▁go	-669
merg	-670
▁str	-671
▁possible	-672
000	-673
▁op	-674
▁att	-675
▁meas	-676
▁advice	-677
▁system	-678
ough	-679
pril	-680
unity	-681
▁cons	-682
▁spec	-683
ok	-684
▁–	-685
ings	-686
▁april	-687
),	-688
ise	-689
les	-690
ency	-691
▁che	-692
ential	-693
▁incre	-694
ear	-695
▁bat	-696
rough	-697
▁wear	-698
▁again	-699
▁united	-700
▁children	-701
,000	-702
▁recomm	-703
cr	-704
su	-705
▁emerg	-706
▁states	-707
▁million	-708
ctor	-709
vere	-710
▁act	-711
▁vir	-712
ility	-713
ology	-714
▁announ	-715
day	-716
ree	-717
▁only	-718
▁could	-719
ro	-720
ts	-721
gan	-722
▁14	-723
▁As	-724
care	-725
▁requ	-726
▁restrictions	-727
mediate	-728
▁severe	-729
inis	-730
▁est	-731
arant	-732
▁country	-733
▁G	-734
eep	-735
▁social	-736
oid	-737
▁Do	-738
▁ire	-739
▁pres	-740
▁visit	-741
▁ireland	-742
▁prevent	-743
▁into	-744
▁long	-745
▁announced	-746
▁4,	-747
▁How	-748
oth	-749
oint	-750
ting	-751
▁cle	-752
▁grou	-753
▁affect	-754
▁control	-755
▁through	-756
ins	-757
ound	-758
▁well	-759
▁level	-760
▁while	-761
▁measures	-762
▁ent	-763
▁many	-764
▁being	-765
▁inform	-766
ared	-767
ised	-768
▁like	-769
▁move	-770
▁human	-771
▁response	-772
▁sus	-773
▁clin	-774
▁quarant	-775
ope	-776
ual	-777
▁ed	-778
ning	-779
▁red	-780
▁condit	-781
▁testing	-782
▁vaccines	-783
▁away	-784
ry	-785
aces	-786
▁sup	-787
▁serv	-788
▁before	-789
▁19	-790
▁sm	-791
cond	-792
▁They	-793
▁food	-794
▁issu	-795
pl	-796
ug	-797
pec	-798
tain	-799
▁low	-800
▁var	-801
ening	-802
▁dist	-803
▁There	-804
▁every	-805
▁treatment	-806
af	-807
▁dep	-808
▁cough	-809
▁group	-810
▁someone	-811
▁information	-812
ily	-813
ered	-814
mple	-815
round	-816
▁same	-817
▁U	-818
ead	-819
tin	-820
uhan	-821
▁mask	-822
▁where	-823
az	-824
na	-825
ark	-826
ery	-827
ink	-828
ute	-829
▁imm	-830
▁pol	-831
ially	-832
▁take	-833
▁used	-834
▁offic	-835
▁community	-836
▁import	-837
▁national	-838
▁lim	-839
▁wash	-840
ination	-841
▁against	-842
▁schools	-843
pid	-844
▁cur	-845
▁det	-846
▁dire	-847
▁emergency	-848
▁eur	-849
inese	-850
▁ident	-851
▁wuhan	-852
▁second	-853
▁V	-854
arm	-855
▁24	-856
ouse	-857
▁lar	-858
▁educ	-859
▁show	-860
▁services	-861
amm	-862
ety	-863
▁11	-864
▁ma	-865
▁early	-866
▁prote	-867
▁intern	-868
▁include	-869
▁An	-870
▁di	-871
▁gu	-872
▁When	-873
▁make	-874
▁susp	-875
▁students	-876
ody	-877
old	-878
the	-879
▁fam	-880
▁flu	-881
▁ord	-882
ours	-883
▁inv	-884
▁conc	-885
▁fever	-886
▁europe	-887
▁humans	-888
▁conditions	-889
wide	-890
▁hig	-891
▁non	-892
other	-893
▁epid	-894
▁nose	-895
▁italy	-896
▁surve	-897
▁total	-898
ulation	-899
▁provid	-900
▁require	-901
▁support	-902
ted	-903
▁12	-904
▁15	-905
▁St	-906
ange	-907
ince	-908
▁adv	-909
▁sub	-910
▁june	-911
▁prop	-912
▁clean	-913
▁found	-914
▁without	-915
▁infections	-916
of	-917
ish	-918
par	-919
▁We	-920
▁gr	-921
▁arr	-922
ality	-923
▁mers	-924
▁areas	-925
▁gener	-926
illance	-927
▁issued	-928
yp	-929
-19,	-930
ivid	-931
▁ext	-932
▁least	-933
acy	-934
ade	-935
lob	-936
ogr	-937
uch	-938
ears	-939
▁met	-940
▁house	-941
▁known	-942
▁state	-943
▁trial	-944
▁contin	-945
▁important	-946
ez	-947
ten	-948
uce	-949
ause	-950
osed	-951
▁age	-952
▁del	-953
▁hse	-954
▁occ	-955
▁pop	-956
▁crit	-957
▁keep	-958
▁what	-959
▁These	-960
▁diffe	-961
▁short	-962
▁service	-963
▁clinical	-964
▁surveillance	-965
alk	-966
any	-967
erv	-968
▁des	-969
▁don	-970
▁down	-971
▁self	-972
▁temp	-973
▁chest	-974
▁pract	-975
▁movements	-976
oss	-977
til	-978
▁ob	-979
down	-980
line	-981
omes	-982
▁off	-983
aking	-984
lying	-985
▁2019	-986
▁week	-987
ording	-988
▁estim	-989
▁south	-990
▁using	-991
▁healthcare	-992
arr	-993
▁23	-994
ling	-995
▁aut	-996
iving	-997
▁inst	-998
▁isol	-999
▁pain	-1000
▁supp	-1001
▁medic	-1002
▁organ	-1003
▁around	-1004
▁breath	-1005
▁chinese	-1006
▁contain	-1007
▁z	-1008
▁Wh	-1009
less	-1010
ural	-1011
▁able	-1012
▁anim	-1013
▁much	-1014
inated	-1015
▁avoid	-1016
▁phone	-1017
▁sever	-1018
▁until	-1019
▁years	-1020
▁appoint	-1021
▁workers	-1022
essential	-1023
▁immediate	-1024
erm	-1025
opp	-1026
ized	-1027
▁Cov	-1028
ually	-1029
ublin	-1030
▁open	-1031
▁affected	-1032
ty	-1033
oci	-1034
neez	-1035
kdown	-1036
▁bats	-1037
▁drug	-1038
ically	-1039
▁masks	-1040
▁pregn	-1041
▁start	-1042
▁remain	-1043
▁closures	-1044
▁education	-1045
▁i	-1046
▁’	-1047
ave	-1048
ics	-1049
ork	-1050
▁cy	-1051
gest	-1052
▁Your	-1053
▁cell	-1054
▁main	-1055
▁allow	-1056
▁cance	-1057
▁attend	-1058
▁common	-1059
▁collect	-1060
▁viruses	-1061
▁following	-1062
els	-1063
ful	-1064
ned	-1065
▁13	-1066
ived	-1067
ving	-1068
▁glob	-1069
dition	-1070
▁centre	-1071
▁closed	-1072
▁population	-1073
▁ro	-1074
erly	-1075
iagn	-1076
tail	-1077
▁Con	-1078
▁ask	-1079
▁lab	-1080
▁nov	-1081
ently	-1082
▁lear	-1083
▁However	-1084
▁individ	-1085
1,	-1086
ash	-1087
cem	-1088
ogen	-1089
▁For	-1090
▁air	-1091
▁mod	-1092
▁sim	-1093
▁sit	-1094
▁feel	-1095
▁orig	-1096
▁pass	-1097
▁prod	-1098
cember	-1099
idence	-1100
▁doctor	-1101
▁effective	-1102
oh	-1103
led	-1104
▁18	-1105
▁22	-1106
▁Pr	-1107
▁ir	-1108
ages	-1109
atic	-1110
ined	-1111
side	-1112
▁200	-1113
ember	-1114
ition	-1115
ivers	-1116
▁Read	-1117
▁decl	-1118
▁hours	-1119
▁mouth	-1120
▁study	-1121
inister	-1122
▁dublin	-1123
▁receive	-1124
▁results	-1125
▁international	-1126
hor	-1127
bers	-1128
fort	-1129
self	-1130
▁add	-1131
▁fac	-1132
▁our	-1133
ution	-1134
▁plan	-1135
▁safe	-1136
▁vari	-1137
▁share	-1138
▁december	-1139
erc	-1140
jor	-1141
▁mid	-1142
iting	-1143
gative	-1144
▁among	-1145
▁cause	-1146
▁large	-1147
▁occur	-1148
▁place	-1149
▁recov	-1150
▁sneez	-1151
▁weeks	-1152
▁caused	-1153
▁because	-1154
▁tracking	-1155
▁underlying	-1156
▁recommended	-1157
oor	-1158
▁es	-1159
lood	-1160
▁way	-1161
▁even	-1162
▁last	-1163
infect	-1164
▁alert	-1165
▁major	-1166
▁often	-1167
▁viral	-1168
▁author	-1169
▁partic	-1170
▁current	-1171
▁appointment	-1172
▁30	-1173
▁sw	-1174
oved	-1175
ular	-1176
▁end	-1177
▁exa	-1178
▁min	-1179
▁both	-1180
▁know	-1181
pecially	-1182
▁example	-1183
▁epidemic	-1184
▁quarantine	-1185
ys	-1186
fer	-1187
ica	-1188
▁16	-1189
isol	-1190
iven	-1191
▁adm	-1192
▁body	-1193
▁2020.	-1194
▁activ	-1195
▁blood	-1196
▁separ	-1197
▁direct	-1198
▁another	-1199
ces	-1200
ants	-1201
omic	-1202
uced	-1203
▁tou	-1204
ather	-1205
▁Some	-1206
▁fact	-1207
▁find	-1208
▁must	-1209
▁proc	-1210
▁samp	-1211
▁great	-1212
▁might	-1213
▁meters	-1214
▁within	-1215
▁cancell	-1216
▁negative	-1217
▁transport	-1218
.3	-1219
ix	-1220
ief	-1221
▁By	-1222
▁Ch	-1223
term	-1224
ature	-1225
▁appr	-1226
▁cold	-1227
▁less	-1228
▁live	-1229
▁made	-1230
▁norm	-1231
▁prim	-1232
ficult	-1233
▁antib	-1234
▁tests	-1235
▁three	-1236
▁depart	-1237
▁higher	-1238
▁immune	-1239
▁different	-1240
▁especially	-1241
ene	-1242
hes	-1243
its	-1244
ook	-1245
ung	-1246
ven	-1247
▁2,	-1248
▁He	-1249
ason	-1250
cept	-1251
▁cod	-1252
▁econ	-1253
▁surf	-1254
▁diagn	-1255
▁month	-1256
▁events	-1257
▁family	-1258
▁organiz	-1259
▁protein	-1260
▁univers	-1261
ns	-1262
eng	-1263
str	-1264
arda	-1265
ilar	-1266
itis	-1267
neum	-1268
▁saf	-1269
▁typ	-1270
ished	-1271
▁form	-1272
▁path	-1273
▁very	-1274
▁Covid	-1275
▁acute	-1276
▁labor	-1277
▁cannot	-1278
▁impact	-1279
▁addition	-1280
▁diseases	-1281
▁lockdown	-1282
▁difficult	-1283
▁recommend	-1284
ird	-1285
tur	-1286
xim	-1287
▁26	-1288
▁does	-1289
▁four	-1290
▁rese	-1291
▁then	-1292
▁associ	-1293
ological	-1294
ck	-1295
hy	-1296
yg	-1297
aff	-1298
ior	-1299
loy	-1300
onia	-1301
osis	-1302
▁But	-1303
▁influ	-1304
▁local	-1305
▁since	-1306
▁safety	-1307
▁european	-1308
▁yourself	-1309
0%	-1310
ets	-1311
und	-1312
▁25	-1313
▁el	-1314
form	-1315
itor	-1316
uals	-1317
▁equ	-1318
▁rna	-1319
▁kore	-1320
▁pneum	-1321
▁staff	-1322
▁still	-1323
▁touch	-1324
▁water	-1325
▁infectious	-1326
dc	-1327
wn	-1328
xt	-1329
att	-1330
iod	-1331
oon	-1332
▁1,	-1333
apid	-1334
itiz	-1335
▁eas	-1336
▁fat	-1337
mploy	-1338
▁covs	-1339
▁each	-1340
▁mark	-1341
▁step	-1342
ymptom	-1343
▁fines	-1344
▁hcovs	-1345
▁retur	-1346
▁assess	-1347
▁having	-1348
▁reduce	-1349
▁similar	-1350
▁worldwide	-1351
▁department	-1352
up	-1353
chn	-1354
▁fl	-1355
▁la	-1356
ards	-1357
ject	-1358
ustr	-1359
▁bab	-1360
▁dem	-1361
▁see	-1362
iness	-1363
▁back	-1364
▁team	-1365
▁center	-1366
▁global	-1367
▁period	-1368
▁provide	-1369
▁detected	-1370
▁required	-1371
za	-1372
ids	-1373
ite	-1374
ndr	-1375
urs	-1376
▁17	-1377
▁ey	-1378
enec	-1379
▁afr	-1380
▁car	-1381
▁hub	-1382
▁city	-1383
▁rate	-1384
ancing	-1385
ipment	-1386
opping	-1387
▁based	-1388
▁cyber	-1389
▁indic	-1390
▁right	-1391
▁times	-1392
▁comple	-1393
▁likely	-1394
▁concern	-1395
▁healthy	-1396
▁outside	-1397
▁washing	-1398
▁official	-1399
▁pneumonia	-1400
▁identified	-1401
▁individuals	-1402
ph	-1403
sc	-1404
▁'	-1405
lic	-1406
▁28	-1407
▁3,	-1408
▁wa	-1409
oses	-1410
traz	-1411
▁acr	-1412
▁sug	-1413
▁wom	-1414
eneca	-1415
▁list	-1416
▁rele	-1417
▁reop	-1418
▁said	-1419
▁order	-1420
▁rapid	-1421
▁county	-1422
▁trials	-1423
▁however	-1424
trazeneca	-1425
▁received	-1426
▁laboratory	-1427
inc	-1428
▁To	-1429
▁uk	-1430
enza	-1431
▁cal	-1432
ardaí	-1433
odies	-1434
▁Stay	-1435
▁come	-1436
▁done	-1437
▁guid	-1438
▁mild	-1439
▁appro	-1440
▁signs	-1441
▁across	-1442
▁origin	-1443
▁samples	-1444
▁personal	-1445
▁developed	-1446
▁disinfect	-1447
▁equipment	-1448
3,	-1449
ru	-1450
ife	-1451
uss	-1452
▁21	-1453
▁Sh	-1454
aily	-1455
ives	-1456
▁Res	-1457
▁bas	-1458
▁cap	-1459
ately	-1460
▁init	-1461
▁scre	-1462
▁sick	-1463
▁sure	-1464
ensive	-1465
inistr	-1466
uction	-1467
ularly	-1468
▁syndr	-1469
▁techn	-1470
▁online	-1471
▁suggest	-1472
▁tracker	-1473
▁increased	-1474
ym	-1475
eri	-1476
ged	-1477
▁eu	-1478
eral	-1479
▁old	-1480
ising	-1481
▁Wash	-1482
▁amer	-1483
▁baby	-1484
▁iran	-1485
▁post	-1486
▁prob	-1487
▁daily	-1488
▁enter	-1489
▁lower	-1490
▁needs	-1491
▁record	-1492
otential	-1493
▁several	-1494
▁relating	-1495
▁syndrome	-1496
▁influenza	-1497
▁associated	-1498
▁vaccinated	-1499
ays	-1500
set	-1501
▁Op	-1502
aren	-1503
ides	-1504
▁par	-1505
▁rep	-1506
▁set	-1507
osure	-1508
▁adap	-1509
▁five	-1510
▁meet	-1511
▁mult	-1512
▁year	-1513
▁chang	-1514
▁later	-1515
▁places	-1516
▁related	-1517
▁increase	-1518
▁learning	-1519
▁properly	-1520
▁research	-1521
▁development	-1522
29	-1523
to	-1524
get	-1525
ify	-1526
ism	-1527
ner	-1528
ues	-1529
ient	-1530
rest	-1531
tact	-1532
▁bus	-1533
▁cho	-1534
▁mem	-1535
▁nat	-1536
▁own	-1537
▁sec	-1538
entil	-1539
▁happ	-1540
attack	-1541
lement	-1542
▁invol	-1543
▁novel	-1544
▁small	-1545
ability	-1546
▁detail	-1547
▁normal	-1548
▁stated	-1549
▁evidence	-1550
▁specific	-1551
▁distancing	-1552
▁cyberattack	-1553
dr	-1554
ale	-1555
ron	-1556
▁bu	-1557
cent	-1558
cess	-1559
iral	-1560
ucle	-1561
▁few	-1562
▁fun	-1563
▁hot	-1564
▁mob	-1565
▁put	-1566
covid	-1567
itted	-1568
ption	-1569
▁Open	-1570
▁ther	-1571
▁exerc	-1572
▁korea	-1573
▁women	-1574
▁access	-1575
▁called	-1576
▁groups	-1577
▁effects	-1578
▁economic	-1579
▁sneezing	-1580
▁suspected	-1581
▁prevention	-1582
▁separation	-1583
▁astrazeneca	-1584
▁organization	-1585
ogn	-1586
sis	-1587
▁50	-1588
▁Al	-1589
▁Be	-1590
ises	-1591
ults	-1592
▁All	-1593
▁And	-1594
▁ful	-1595
▁now	-1596
ances	-1597
ental	-1598
ograp	-1599
▁hist	-1600
▁sent	-1601
▁sour	-1602
aching	-1603
▁analy	-1604
▁doses	-1605
erature	-1606
▁animal	-1607
▁months	-1608
▁greater	-1609
▁present	-1610
▁potential	-1611
1.	-1612
iqu	-1613
ock	-1614
orn	-1615
ret	-1616
ved	-1617
ves	-1618
ygi	-1619
▁ur	-1620
ator	-1621
crip	-1622
ists	-1623
▁cam	-1624
▁enc	-1625
▁too	-1626
angol	-1627
ready	-1628
▁Many	-1629
▁date	-1630
▁lung	-1631
▁outd	-1632
▁sing	-1633
action	-1634
though	-1635
▁progr	-1636
ificant	-1637
▁People	-1638
▁employ	-1639
▁experi	-1640
▁levels	-1641
▁ventil	-1642
▁already	-1643
▁history	-1644
▁monitor	-1645
▁antibodies	-1646
▁intermediate	-1647
".	-1648
."	-1649
abl	-1650
for	-1651
▁gl	-1652
covs	-1653
etic	-1654
hold	-1655
▁100	-1656
▁his	-1657
▁tow	-1658
atest	-1659
cript	-1660
rence	-1661
▁anti	-1662
▁area	-1663
▁give	-1664
▁hygi	-1665
▁mand	-1666
▁mort	-1667
▁nurs	-1668
▁priv	-1669
hether	-1670
▁coron	-1671
▁pharm	-1672
▁press	-1673
▁become	-1674
▁establ	-1675
▁guidel	-1676
▁instit	-1677
▁showed	-1678
▁centres	-1679
▁increas	-1680
▁numbers	-1681
▁primary	-1682
▁usually	-1683
▁continue	-1684
▁essential	-1685
▁estimated	-1686
▁spreading	-1687
▁authorities	-1688
▁significant	-1689
2,	-1690
cg	-1691
ft	-1692
me	-1693
.30	-1694
ize	-1695
owd	-1696
▁27	-1697
▁29	-1698
▁Tr	-1699
▁co	-1700
▁ve	-1701
ateg	-1702
hers	-1703
tand	-1704
▁rev	-1705
utive	-1706
▁cour	-1707
igures	-1708
▁colle	-1709
▁rates	-1710
ilities	-1711
▁effort	-1712
▁genome	-1713
▁pangol	-1714
▁therap	-1715
▁details	-1716
▁general	-1717
▁getting	-1718
▁process	-1719
▁variant	-1720
▁declared	-1721
▁pregnant	-1722
▁practices	-1723
▁protection	-1724
▁protective	-1725
▁temperature	-1726
▁vaccination	-1727
.5	-1728
cgp	-1729
omb	-1730
rel	-1731
tle	-1732
ump	-1733
aken	-1734
ancy	-1735
azil	-1736
like	-1737
thod	-1738
▁Acc	-1739
▁def	-1740
▁far	-1741
aging	-1742
aring	-1743
ators	-1744
▁aged	-1745
▁best	-1746
▁cris	-1747
▁disc	-1748
▁just	-1749
▁phys	-1750
▁slow	-1751
▁alone	-1752
▁given	-1753
▁limit	-1754
▁means	-1755
▁phase	-1756
▁prior	-1757
▁gather	-1758
▁necess	-1759
▁workpl	-1760
▁Contact	-1761
▁hygiene	-1762
▁serious	-1763
▁systems	-1764
▁whether	-1765
▁distance	-1766
▁exposure	-1767
▁shopping	-1768
ymptomatic	-1769
▁according	-1770
▁breathing	-1771
▁implement	-1772
▁immediately	-1773
ei	-1774
go	-1775
kn	-1776
li	-1777
ote	-1778
▁fo	-1779
ably	-1780
crib	-1781
ense	-1782
hest	-1783
orth	-1784
otic	-1785
▁cre	-1786
▁Call	-1787
▁Most	-1788
▁dose	-1789
▁free	-1790
▁news	-1791
▁sequ	-1792
ertain	-1793
utions	-1794
▁added	-1795
▁effic	-1796
▁hosts	-1797
▁onset	-1798
▁Follow	-1799
▁causes	-1800
▁detect	-1801
▁flight	-1802
▁mobile	-1803
▁reserv	-1804
▁animals	-1805
▁natural	-1806
▁special	-1807
▁coronary	-1808
▁provided	-1809
▁According	-1810
▁cancelled	-1811
▁household	-1812
▁secondary	-1813
▁coronaviruses	-1814
7,	-1815
iew	-1816
ond	-1817
ops	-1818
utr	-1819
ians	-1820
lamm	-1821
ount	-1822
risk	-1823
trib	-1824
▁rsc	-1825
▁war	-1826
thing	-1827
▁comb	-1828
▁exec	-1829
▁eyes	-1830
▁good	-1831
▁oper	-1832
idents	-1833
▁crowd	-1834
▁paren	-1835
▁worse	-1836
▁adults	-1837
▁commun	-1838
▁method	-1839
▁sample	-1840
▁season	-1841
▁tempor	-1842
▁factors	-1843
▁limited	-1844
▁persons	-1845
lications	-1846
▁contacts	-1847
▁critical	-1848
▁pathogen	-1849
▁executive	-1850
▁intensive	-1851
▁pregnancy	-1852
▁president	-1853
.2	-1854
13	-1855
ef	-1856
use	-1857
iday	-1858
imed	-1859
iple	-1860
ofen	-1861
oors	-1862
serv	-1863
▁Don	-1864
▁ens	-1865
▁sat	-1866
▁upd	-1867
ading	-1868
▁intr	-1869
▁prep	-1870
▁repl	-1871
▁room	-1872
▁send	-1873
▁side	-1874
▁talk	-1875
▁tell	-1876
▁Other	-1877
▁leave	-1878
igation	-1879
▁attack	-1880
▁brazil	-1881
▁crisis	-1882
▁depend	-1883
▁gardaí	-1884
▁longer	-1885
▁monday	-1886
▁unless	-1887
▁business	-1888
▁controls	-1889
▁director	-1890
▁minister	-1891
▁programm	-1892
▁proteins	-1893
▁surfaces	-1894
▁necessary	-1895
▁published	-1896
▁screening	-1897
.4	-1898
18	-1899
ao	-1900
ho	-1901
ng	-1902
amp	-1903
nel	-1904
▁pe	-1905
ible	-1906
irth	-1907
izer	-1908
ring	-1909
▁san	-1910
▁sol	-1911
▁tre	-1912
known	-1913
▁Wear	-1914
▁cert	-1915
▁fore	-1916
▁left	-1917
▁link	-1918
▁near	-1919
▁prom	-1920
▁zoon	-1921
ention	-1922
▁asked	-1923
▁cells	-1924
▁citiz	-1925
▁hubei	-1926
▁nucle	-1927
▁third	-1928
▁breast	-1929
▁mental	-1930
▁nation	-1931
▁observ	-1932
▁recept	-1933
▁though	-1934
ulations	-1935
isolation	-1936
▁Minister	-1937
▁analysis	-1938
▁coughing	-1939
▁extended	-1940
▁hospitals	-1941
▁mortality	-1942
",	-1943
,8	-1944
20	-1945
ea	-1946
ex	-1947
cul	-1948
dom	-1949
gen	-1950
ims	-1951
oir	-1952
oke	-1953
oly	-1954
oph	-1955
opr	-1956
▁Ad	-1957
aper	-1958
ison	-1959
part	-1960
▁ban	-1961
▁cdc	-1962
▁dry	-1963
▁fut	-1964
▁her	-1965
▁net	-1966
▁pro	-1967
▁try	-1968
alian	-1969
▁That	-1970
▁What	-1971
▁died	-1972
▁germ	-1973
▁rcgp	-1974
▁soap	-1975
▁stat	-1976
uation	-1977
▁began	-1978
▁diarr	-1979
▁polic	-1980
▁stand	-1981
▁tract	-1982
related	-1983
▁critic	-1984
▁invest	-1985
▁taking	-1986
ximately	-1987
▁advised	-1988
▁figures	-1989
▁nursing	-1990
▁started	-1991
▁wearing	-1992
▁activity	-1993
▁citizens	-1994
▁everyone	-1995
▁severity	-1996
▁reservoir	-1997
▁guidelines	-1998
▁asymptomatic	-1999
%)	-2000
43	-2001
ku	-2002
pm	-2003
uf	-2004
▁0	-2005
app	-2006
ble	-2007
dle	-2008
emi	-2009
hea	-2010
ral	-2011
▁31	-2012
-229	-2013
hydr	-2014
ican	-2015
ital	-2016
iver	-2017
lies	-2018
roat	-2019
taur	-2020
utes	-2021
▁Ant	-2022
▁Use	-2023
▁hol	-2024
▁joh	-2025
▁leg	-2026
▁let	-2027
▁mic	-2028
▁mit	-2029
▁mut	-2030
▁ref	-2031
▁six	-2032
▁tur	-2033
asses	-2034
aving	-2035
based	-2036
ences	-2037
▁disp	-2038
▁east	-2039
▁feet	-2040
▁grad	-2041
▁late	-2042
▁life	-2043
▁mess	-2044
▁stop	-2045
idered	-2046
ograph	-2047
▁hotel	-2048
▁older	-2049
▁usual	-2050
▁Health	-2051
▁cities	-2052
▁design	-2053
▁enough	-2054
▁billion	-2055
▁patient	-2056
▁recover	-2057
▁restaur	-2058
▁studies	-2059
▁certific	-2060
▁multiple	-2061
▁pressure	-2062
▁attending	-2063
▁mandatory	-2064
▁considered	-2065
▁increasing	-2066
▁technology	-2067
▁university	-2068
63	-2069
air	-2070
▁Ex	-2071
aced	-2072
ches	-2073
uted	-2074
▁bel	-2075
▁mil	-2076
fizer	-2077
ittle	-2078
ronic	-2079
ublic	-2080
uster	-2081
▁char	-2082
▁cond	-2083
▁term	-2084
aining	-2085
struct	-2086
▁austr	-2087
▁check	-2088
▁disru	-2089
▁drink	-2090
▁heart	-2091
▁homes	-2092
▁refer	-2093
▁satur	-2094
▁sport	-2095
▁taken	-2096
▁toile	-2097
ression	-2098
▁africa	-2099
▁change	-2100
▁future	-2101
▁middle	-2102
▁single	-2103
▁source	-2104
▁strain	-2105
▁throat	-2106
▁america	-2107
▁arrange	-2108
▁cluster	-2109
▁officer	-2110
▁perform	-2111
▁protest	-2112
▁rapidly	-2113
▁species	-2114
▁strateg	-2115
▁working	-2116
lammatory	-2117
▁complete	-2118
▁isolated	-2119
▁practice	-2120
▁zoonotic	-2121
▁diagnosis	-2122
0,	-2123
be	-2124
ca	-2125
io	-2126
pe	-2127
gre	-2128
ols	-2129
sel	-2130
▁em	-2131
abet	-2132
apan	-2133
ider	-2134
imes	-2135
ique	-2136
nect	-2137
omet	-2138
sars	-2139
▁beg	-2140
▁eat	-2141
▁fre	-2142
▁phe	-2143
▁Sars	-2144
▁expl	-2145
▁fall	-2146
▁foot	-2147
▁head	-2148
▁mass	-2149
▁outc	-2150
▁prog	-2151
▁rout	-2152
▁soon	-2153
abetes	-2154
ildren	-2155
iviral	-2156
oplets	-2157
ressed	-2158
▁cloth	-2159
▁drugs	-2160
▁going	-2161
▁johns	-2162
▁media	-2163
▁paper	-2164
▁young	-2165
olution	-2166
▁camels	-2167
▁france	-2168
▁introd	-2169
▁market	-2170
▁office	-2171
▁region	-2172
▁return	-2173
▁allowed	-2174
▁changes	-2175
▁unknown	-2176
▁Children	-2177
▁fatality	-2178
▁virology	-2179
▁administr	-2180
▁childcare	-2181
▁reopening	-2182
▁Coronavirus	-2183
▁governments	-2184
▁approximately	-2185
8,	-2186
gr	-2187
alf	-2188
cer	-2189
cle	-2190
hse	-2191
ime	-2192
ipp	-2193
rom	-2194
upr	-2195
▁Af	-2196
▁No	-2197
▁Un	-2198
akes	-2199
ched	-2200
erts	-2201
ired	-2202
onym	-2203
sequ	-2204
▁Get	-2205
▁cir	-2206
▁eld	-2207
▁hom	-2208
▁nam	-2209
▁pat	-2210
▁vul	-2211
acist	-2212
aoise	-2213
ering	-2214
ision	-2215
ither	-2216
pread	-2217
▁beta	-2218
▁exam	-2219
▁extr	-2220
▁line	-2221
▁succ	-2222
▁swab	-2223
▁teac	-2224
▁tiss	-2225
▁walk	-2226
ension	-2227
▁chain	-2228
▁chief	-2229
▁funct	-2230
▁seven	-2231
▁demand	-2232
▁ensure	-2233
▁living	-2234
▁replic	-2235
▁supply	-2236
▁toilet	-2237
▁vulner	-2238
▁certain	-2239
▁continu	-2240
▁describ	-2241
▁elderly	-2242
▁foreign	-2243
▁highest	-2244
▁minutes	-2245
▁reduced	-2246
▁removed	-2247
▁droplets	-2248
▁efficacy	-2249
▁exercise	-2250
▁included	-2251
▁includes	-2252
▁outbreaks	-2253
▁residents	-2254
coronavirus	-2255
▁assessment	-2256
▁difficulty	-2257
▁experience	-2258
▁pathogenic	-2259
▁containment	-2260
5,	-2261
50	-2262
9,	-2263
▁x	-2264
coh	-2265
iot	-2266
ott	-2267
▁my	-2268
▁ok	-2269
▁ox	-2270
ases	-2271
enty	-2272
lean	-2273
ners	-2274
ware	-2275
ways	-2276
▁201	-2277
▁cla	-2278
▁eng	-2279
▁mus	-2280
▁she	-2281
cohol	-2282
going	-2283
▁card	-2284
▁else	-2285
▁fail	-2286
▁impr	-2287
▁nutr	-2288
▁perm	-2289
▁sund	-2290
▁text	-2291
▁unit	-2292
▁uses	-2293
▁want	-2294
pecies	-2295
rested	-2296
tained	-2297
▁After	-2298
▁Clean	-2299
▁elect	-2300
▁india	-2301
▁japan	-2302
▁quick	-2303
▁Before	-2304
▁Social	-2305
▁choose	-2306
▁determ	-2307
▁discov	-2308
▁little	-2309
▁reason	-2310
▁things	-2311
▁confirm	-2312
▁connect	-2313
▁efforts	-2314
▁ordered	-2315
▁outdoor	-2316
▁parents	-2317
▁success	-2318
▁surface	-2319
▁waiting	-2320
ification	-2321
▁diarrhea	-2322
▁occurred	-2323
▁saturday	-2324
▁supplies	-2325
▁antiviral	-2326
▁medicines	-2327
▁commission	-2328
▁nationwide	-2329
▁certificate	-2330
94	-2331
95	-2332
ael	-2333
ges	-2334
▁40	-2335
▁Av	-2336
▁Pl	-2337
oard	-2338
onch	-2339
oves	-2340
tech	-2341
▁Try	-2342
▁beh	-2343
▁cat	-2344
▁dam	-2345
▁did	-2346
▁exc	-2347
▁fed	-2348
▁nas	-2349
▁via	-2350
aight	-2351
erous	-2352
iforn	-2353
ilies	-2354
ively	-2355
▁Make	-2356
▁Vacc	-2357
▁evac	-2358
▁half	-2359
▁port	-2360
▁sect	-2361
▁seen	-2362
▁sept	-2363
▁type	-2364
▁vers	-2365
▁worr	-2366
▁crown	-2367
▁decre	-2368
▁entry	-2369
▁event	-2370
▁polit	-2371
▁trump	-2372
▁better	-2373
▁bronch	-2374
▁clinic	-2375
▁friday	-2376
▁making	-2377
▁manage	-2378
▁pfizer	-2379
▁recogn	-2380
▁scient	-2381
ometimes	-2382
▁centers	-2383
▁epidemi	-2384
▁italian	-2385
▁leaving	-2386
▁members	-2387
▁passeng	-2388
▁percent	-2389
▁regions	-2390
▁stephen	-2391
hydration	-2392
▁approved	-2393
▁arrested	-2394
▁diabetes	-2395
▁families	-2396
▁findings	-2397
▁november	-2398
▁sequence	-2399
▁straight	-2400
▁generally	-2401
▁workplace	-2402
▁vulnerable	-2403
▁restaurants	-2404
.,	-2405
.8	-2406
65	-2407
ps	-2408
-2.	-2409
inf	-2410
val	-2411
▁At	-2412
▁Cl	-2413
▁ju	-2414
astr	-2415
high	-2416
inal	-2417
load	-2418
most	-2419
uman	-2420
▁4,9	-2421
▁ear	-2422
▁eea	-2423
▁inh	-2424
▁law	-2425
▁rad	-2426
▁run	-2427
▁wed	-2428
acter	-2429
aying	-2430
▁Only	-2431
▁full	-2432
▁king	-2433
▁poly	-2434
▁shut	-2435
▁wide	-2436
encies	-2437
selves	-2438
▁birth	-2439
▁plans	-2440
▁sched	-2441
actions	-2442
iontech	-2443
uprofen	-2444
▁amount	-2445
▁anyone	-2446
▁coming	-2447
▁encour	-2448
▁entire	-2449
▁protoc	-2450
▁recent	-2451
▁regard	-2452
▁reopen	-2453
▁retail	-2454
▁review	-2455
▁tissue	-2456
▁weight	-2457
▁worker	-2458
aoiseach	-2459
▁appropr	-2460
▁initial	-2461
▁kingdom	-2462
▁product	-2463
▁californ	-2464
▁cleaning	-2465
▁receptor	-2466
▁released	-2467
▁resident	-2468
▁training	-2469
▁estimates	-2470
▁recovered	-2471
▁activities	-2472
▁quarantined	-2473
▁particularly	-2474
▁universities	-2475
60	-2476
bs	-2477
cm	-2478
co	-2479
erg	-2480
ier	-2481
lem	-2482
ubs	-2483
who	-2484
ych	-2485
▁(3	-2486
▁60	-2487
▁Co	-2488
▁ib	-2489
acet	-2490
alia	-2491
erna	-2492
erse	-2493
pted	-2494
work	-2495
▁4,8	-2496
▁One	-2497
▁cor	-2498
▁dig	-2499
▁job	-2500
▁sle	-2501
▁ten	-2502
▁yet	-2503
artin	-2504
eding	-2505
epend	-2506
inary	-2507
▁With	-2508
▁easy	-2509
▁grow	-2510
▁read	-2511
▁reli	-2512
▁russ	-2513
▁smok	-2514
acetam	-2515
ession	-2516
▁above	-2517
▁adapt	-2518
▁build	-2519
▁delay	-2520
▁drive	-2521
▁fight	-2522
▁frequ	-2523
▁immun	-2524
▁think	-2525
erstand	-2526
ibility	-2527
▁appear	-2528
▁assist	-2529
▁became	-2530
▁course	-2531
▁covers	-2532
▁except	-2533
▁inters	-2534
▁martin	-2535
▁recomb	-2536
▁remove	-2537
▁unique	-2538
▁vector	-2539
▁visits	-2540
cription	-2541
inations	-2542
▁address	-2543
▁becomes	-2544
▁careful	-2545
▁closing	-2546
▁closure	-2547
▁conduct	-2548
▁discuss	-2549
▁distrib	-2550
▁genetic	-2551
▁germany	-2552
▁johnson	-2553
▁largest	-2554
▁ongoing	-2555
▁problem	-2556
▁quickly	-2557
▁travell	-2558
▁various	-2559
idespread	-2560
▁biontech	-2561
▁consider	-2562
▁contract	-2563
▁handling	-2564
▁internet	-2565
▁involved	-2566
▁physical	-2567
▁prepared	-2568
▁recently	-2569
▁recorded	-2570
▁relative	-2571
▁resulted	-2572
▁teachers	-2573
▁breaching	-2574
▁indicated	-2575
▁isolation	-2576
▁receiving	-2577
▁shortness	-2578
▁facilities	-2579
▁gatherings	-2580
▁recommends	-2581
▁themselves	-2582
▁regulations	-2583
▁ventilation	-2584
.7	-2585
6,	-2586
ai	-2587
eg	-2588
ik	-2589
ane	-2590
com	-2591
err	-2592
ift	-2593
ips	-2594
lor	-2595
lus	-2596
ont	-2597
ony	-2598
▁(2	-2599
▁37	-2600
▁et	-2601
aged	-2602
ford	-2603
gent	-2604
head	-2605
ocus	-2606
oids	-2607
stay	-2608
tern	-2609
umul	-2610
▁Pre	-2611
▁Rem	-2612
▁aid	-2613
▁dom	-2614
▁ins	-2615
▁opt	-2616
▁sal	-2617
▁sex	-2618
ached	-2619
anded	-2620
andid	-2621
andom	-2622
lands	-2623
luded	-2624
nelly	-2625
ories	-2626
▁More	-2627
▁Prot	-2628
▁code	-2629
▁cost	-2630
▁deli	-2631
▁fund	-2632
▁lack	-2633
▁lead	-2634
▁play	-2635
▁surg	-2636
▁wait	-2637
gether	-2638
luding	-2639
osable	-2640
▁Avoid	-2641
▁begin	-2642
▁mater	-2643
▁miche	-2644
▁north	-2645
▁range	-2646
▁serve	-2647
▁spain	-2648
ference	-2649
onymous	-2650
▁Latest	-2651
▁cancer	-2652
▁candid	-2653
▁eating	-2654
▁either	-2655
▁gloves	-2656
▁happen	-2657
▁highly	-2658
▁indoor	-2659
▁needed	-2660
▁notice	-2661
▁proced	-2662
▁shared	-2663
acetamol	-2664
▁alcohol	-2665
▁central	-2666
▁crowded	-2667
▁envelop	-2668
▁failure	-2669
▁flights	-2670
▁industr	-2671
▁moderna	-2672
▁privacy	-2673
▁reports	-2674
▁worried	-2675
▁Although	-2676
▁although	-2677
▁concerns	-2678
▁donnelly	-2679
▁globally	-2680
▁together	-2681
▁condition	-2682
▁currently	-2683
▁described	-2684
▁officials	-2685
▁pangolins	-2686
▁suspended	-2687
▁additional	-2688
▁individual	-2689
▁throughout	-2690
▁treatments	-2691
▁understand	-2692
▁widespread	-2693
▁appropriate	-2694
▁established	-2695
▁medications	-2696
▁transmitted	-2697
▁interspecies	-2698
%.	-2699
.1	-2700
4,	-2701
48	-2702
66	-2703
ee	-2704
ma	-2705
nl	-2706
rs	-2707
sh	-2708
bor	-2709
eal	-2710
nes	-2711
rna	-2712
ros	-2713
▁48	-2714
▁ge	-2715
▁lo	-2716
▁ra	-2717
▁rt	-2718
ands	-2719
heck	-2720
icip	-2721
igen	-2722
ones	-2723
urch	-2724
vent	-2725
▁Any	-2726
▁Not	-2727
▁ace	-2728
▁pcr	-2729
▁pil	-2730
▁suf	-2731
▁thr	-2732
▁vis	-2733
▁vol	-2734
acity	-2735
arily	-2736
cular	-2737
erate	-2738
irect	-2739
ledge	-2740
stant	-2741
table	-2742
▁From	-2743
▁Thus	-2744
▁bord	-2745
▁came	-2746
▁gets	-2747
▁kill	-2748
▁peak	-2749
▁poll	-2750
▁prof	-2751
▁real	-2752
▁thus	-2753
atures	-2754
everal	-2755
istics	-2756
undred	-2757
▁2019,	-2758
▁2021,	-2759
▁Every	-2760
▁Visit	-2761
▁basis	-2762
▁canad	-2763
▁clear	-2764
▁codes	-2765
▁focus	-2766
▁fully	-2767
▁minim	-2768
▁quest	-2769
▁spend	-2770
▁stage	-2771
▁thous	-2772
isation	-2773
ubation	-2774
▁active	-2775
▁commit	-2776
▁latest	-2777
▁preval	-2778
▁resour	-2779
▁Several	-2780
▁adapted	-2781
▁chronic	-2782
▁federal	-2783
▁instead	-2784
▁isolate	-2785
▁private	-2786
▁release	-2787
▁staying	-2788
▁Restrict	-2789
▁material	-2790
▁observed	-2791
▁republic	-2792
▁visitors	-2793
▁anonymous	-2794
▁collected	-2795
▁establish	-2796
▁reporting	-2797
▁september	-2798
▁situation	-2799
▁temporary	-2800
▁developing	-2801
▁introduced	-2802
▁mitigation	-2803
▁passengers	-2804
inflammatory	-2805
07	-2806
37	-2807
68	-2808
ax	-2809
sw	-2810
hku	-2811
ibr	-2812
iol	-2813
lev	-2814
nds	-2815
ocy	-2816
omp	-2817
pha	-2818
ule	-2819
ume	-2820
vir	-2821
▁38	-2822
▁Go	-2823
▁Ph	-2824
▁Us	-2825
▁ce	-2826
▁ic	-2827
pite	-2828
pper	-2829
ured	-2830
▁amp	-2831
▁mat	-2832
▁mor	-2833
acing	-2834
astic	-2835
ctors	-2836
erest	-2837
ients	-2838
iring	-2839
ivity	-2840
otide	-2841
viron	-2842
ximum	-2843
▁2021	-2844
▁Comm	-2845
▁acid	-2846
▁cult	-2847
▁dang	-2848
▁hard	-2849
▁item	-2850
▁july	-2851
▁rest	-2852
▁role	-2853
▁stre	-2854
▁ways	-2855
iotics	-2856
▁apart	-2857
▁chall	-2858
▁cumul	-2859
▁evacu	-2860
▁exist	-2861
▁extra	-2862
▁smell	-2863
▁smoke	-2864
▁types	-2865
▁upper	-2866
▁almost	-2867
▁plenty	-2868
▁policy	-2869
▁rather	-2870
▁stages	-2871
▁widely	-2872
▁Protect	-2873
▁claimed	-2874
▁digital	-2875
▁environ	-2876
▁happens	-2877
▁imposed	-2878
▁indoors	-2879
▁markets	-2880
▁message	-2881
▁methods	-2882
▁reached	-2883
▁showing	-2884
▁subject	-2885
▁therapy	-2886
▁capacity	-2887
▁delivery	-2888
▁directly	-2889
▁features	-2890
▁followed	-2891
▁homology	-2892
▁immunity	-2893
▁location	-2894
▁pangolin	-2895
▁progress	-2896
▁evolution	-2897
▁suggested	-2898
▁businesses	-2899
▁collection	-2900
▁cumulative	-2901
▁disruption	-2902
▁medication	-2903
▁monitoring	-2904
▁particular	-2905
▁procedures	-2906
▁travellers	-2907
▁dehydration	-2908
▁educational	-2909
▁implemented	-2910
▁institutions	-2911
36	-2912
47	-2913
5%	-2914
58	-2915
mb	-2916
ny	-2917
aps	-2918
den	-2919
ium	-2920
ius	-2921
lam	-2922
mph	-2923
ole	-2924
oll	-2925
omy	-2926
▁70	-2927
▁De	-2928
▁Dr	-2929
▁Me	-2930
ideo	-2931
ieve	-2932
ooth	-2933
▁Med	-2934
▁Out	-2935
▁abs	-2936
▁bal	-2937
▁buy	-2938
▁fit	-2939
▁haz	-2940
▁ids	-2941
▁lat	-2942
▁led	-2943
▁tar	-2944
arity	-2945
grees	-2946
ining	-2947
opped	-2948
ucing	-2949
ufact	-2950
▁Data	-2951
▁Face	-2952
▁Take	-2953
▁brit	-2954
▁carr	-2955
▁cive	-2956
▁fast	-2957
▁mamm	-2958
▁miss	-2959
▁name	-2960
▁told	-2961
▁york	-2962
istent	-2963
mption	-2964
nesday	-2965
pected	-2966
▁Antib	-2967
▁Where	-2968
▁count	-2969
▁guide	-2970
▁helps	-2971
▁irish	-2972
▁named	-2973
▁preca	-2974
▁shops	-2975
▁shown	-2976
▁steps	-2977
▁table	-2978
▁union	-2979
inistry	-2980
isolate	-2981
istered	-2982
iveness	-2983
ockdown	-2984
▁Infect	-2985
▁School	-2986
▁coding	-2987
▁compar	-2988
▁phased	-2989
▁random	-2990
▁secret	-2991
▁weekly	-2992
▁100,000	-2993
▁Symptom	-2994
▁african	-2995
▁causing	-2996
▁degrees	-2997
▁doctors	-2998
▁improve	-2999
▁maximum	-3000
▁nations	-3001
▁request	-3002
▁respect	-3003
▁respond	-3004
▁subsequ	-3005
▁towards	-3006
▁estimate	-3007
▁learners	-3008
▁maintain	-3009
▁ministry	-3010
▁outcomes	-3011
▁reliable	-3012
▁touching	-3013
▁australia	-3014
▁continued	-3015
▁diagnosed	-3016
▁gradually	-3017
▁institute	-3018
▁knowledge	-3019
▁programme	-3020
▁questions	-3021
▁regularly	-3022
▁thousands	-3023
▁discovered	-3024
▁pharmacist	-3025
▁programmes	-3026
▁successful	-3027
▁combination	-3028
▁restricting	-3029
▁effectiveness	-3030
10	-3031
14	-3032
25	-3033
57	-3034
6%	-3035
ey	-3036
rt	-3037
-2,	-3038
ept	-3039
fig	-3040
gal	-3041
ipl	-3042
let	-3043
lex	-3044
nal	-3045
ses	-3046
tee	-3047
▁Ne	-3048
▁Re	-3049
▁ca	-3050
▁ii	-3051
▁il	-3052
-19)	-3053
alls	-3054
dict	-3055
eria	-3056
ival	-3057
luet	-3058
omed	-3059
pect	-3060
rist	-3061
time	-3062
tric	-3063
uise	-3064
ules	-3065
year	-3066
ygen	-3067
▁Due	-3068
▁Our	-3069
▁Sim	-3070
▁aer	-3071
▁bed	-3072
▁cyt	-3073
▁eye	-3074
▁orf	-3075
▁val	-3076
▁ven	-3077
anged	-3078
aries	-3079
gious	-3080
ieved	-3081
indow	-3082
logen	-3083
oving	-3084
sense	-3085
tings	-3086
urity	-3087
▁Pati	-3088
▁Talk	-3089
▁bind	-3090
▁here	-3091
▁lost	-3092
▁mean	-3093
▁next	-3094
▁okay	-3095
▁radi	-3096
▁road	-3097
▁ship	-3098
▁soci	-3099
▁wall	-3100
ending	-3101
itions	-3102
quired	-3103
weight	-3104
▁Based	-3105
▁accur	-3106
▁along	-3107
▁alpha	-3108
▁break	-3109
▁calls	-3110
▁cardi	-3111
▁conte	-3112
▁cross	-3113
▁earli	-3114
▁fewer	-3115
▁light	-3116
▁lungs	-3117
▁postp	-3118
▁regis	-3119
▁sites	-3120
alities	-3121
umption	-3122
▁Gardaí	-3123
▁accept	-3124
▁constr	-3125
▁domest	-3126
▁fluids	-3127
▁issues	-3128
▁mainly	-3129
▁nearly	-3130
▁saying	-3131
▁select	-3132
▁strong	-3133
▁unable	-3134
ependent	-3135
luetooth	-3136
▁classes	-3137
▁closely	-3138
▁college	-3139
▁created	-3140
▁hundred	-3141
▁origins	-3142
▁planned	-3143
▁produce	-3144
▁signals	-3145
▁sitting	-3146
▁student	-3147
including	-3148
▁Symptoms	-3149
▁Vaccines	-3150
▁agencies	-3151
▁anything	-3152
▁building	-3153
▁communic	-3154
▁contrast	-3155
▁employer	-3156
▁facility	-3157
▁function	-3158
▁instruct	-3159
▁majority	-3160
▁manufact	-3161
▁mutation	-3162
▁outdoors	-3163
▁provides	-3164
▁province	-3165
▁starting	-3166
▁transmit	-3167
▁authority	-3168
▁exercises	-3169
▁expressed	-3170
▁initially	-3171
▁locations	-3172
▁requiring	-3173
▁resources	-3174
▁transmiss	-3175
▁typically	-3176
▁wednesday	-3177
▁california	-3178
▁difference	-3179
▁disposable	-3180
▁nucleotide	-3181
▁scientific	-3182
▁strategies	-3183
▁environment	-3184
▁potentially	-3185
▁disinfectant	-3186
▁hospitalized	-3187
▁preparedness	-3188
▁Coronaviruses	-3189
▁complications	-3190
▁recombination	-3191
▁administration	-3192
'.	-3193
.0	-3194
16	-3195
17	-3196
27	-3197
53	-3198
92	-3199
aw	-3200
ox	-3201
sp	-3202
cdc	-3203
ken	-3204
lim	-3205
man	-3206
urp	-3207
▁Le	-3208
▁Of	-3209
▁bi	-3210
▁pa	-3211
▁ps	-3212
▁sk	-3213
▁wr	-3214
ache	-3215
ades	-3216
ames	-3217
ball	-3218
esco	-3219
ield	-3220
iend	-3221
ilit	-3222
inks	-3223
oned	-3224
ored	-3225
oval	-3226
prom	-3227
reng	-3228
▁4,7	-3229
▁Spe	-3230
▁Who	-3231
▁bin	-3232
▁dev	-3233
▁dur	-3234
▁hit	-3235
▁pan	-3236
▁pay	-3237
▁why	-3238
aster	-3239
borne	-3240
chers	-3241
erick	-3242
eries	-3243
ester	-3244
human	-3245
iplom	-3246
light	-3247
onstr	-3248
ophob	-3249
ument	-3250
▁Priv	-3251
▁arab	-3252
▁bott	-3253
▁camp	-3254
▁circ	-3255
▁clot	-3256
▁cook	-3257
▁deal	-3258
▁exce	-3259
▁jobs	-3260
▁kong	-3261
▁laun	-3262
▁look	-3263
▁pack	-3264
▁pers	-3265
▁pubs	-3266
▁repr	-3267
▁seek	-3268
▁took	-3269
▁tour	-3270
▁user	-3271
formed	-3272
ionate	-3273
merase	-3274
▁Cough	-3275
▁Short	-3276
▁Since	-3277
▁Using	-3278
▁ahead	-3279
▁aware	-3280
▁basic	-3281
▁clust	-3282
▁coord	-3283
▁diver	-3284
▁items	-3285
▁lives	-3286
▁night	-3287
▁prime	-3288
▁psych	-3289
▁scale	-3290
▁spike	-3291
▁terms	-3292
▁video	-3293
▁worry	-3294
idarity	-3295
ization	-3296
▁Travel	-3297
▁agency	-3298
▁always	-3299
▁christ	-3300
▁compan	-3301
▁contam	-3302
▁cruise	-3303
▁decide	-3304
▁inside	-3305
▁linked	-3306
▁orders	-3307
▁oxygen	-3308
▁russia	-3309
▁sneeze	-3310
▁specim	-3311
▁streng	-3312
▁warned	-3313
▁window	-3314
acquired	-3315
ibraries	-3316
lockdown	-3317
▁ability	-3318
▁comfort	-3319
▁explain	-3320
▁exposed	-3321
▁routine	-3322
▁sharing	-3323
▁smoking	-3324
▁strains	-3325
▁sundays	-3326
▁version	-3327
logenetic	-3328
▁Everyone	-3329
▁Patients	-3330
▁antibody	-3331
▁avoiding	-3332
▁challeng	-3333
▁compared	-3334
▁demonstr	-3335
▁identify	-3336
▁impacted	-3337
▁investig	-3338
▁products	-3339
▁reaction	-3340
▁recovery	-3341
▁serology	-3342
▁settings	-3343
▁surgical	-3344
▁affecting	-3345
▁committee	-3346
▁conducted	-3347
▁contacted	-3348
▁experienc	-3349
▁incidence	-3350
▁lockdowns	-3351
▁performed	-3352
▁returning	-3353
▁statement	-3354
▁frequently	-3355
▁relatively	-3356
▁statistics	-3357
▁communities	-3358
▁quarantines	-3359
12	-3360
bd	-3361
oy	-3362
tt	-3363
▁.	-3364
-2-	-3365
500	-3366
agh	-3367
ask	-3368
cil	-3369
des	-3370
elf	-3371
eut	-3372
ger	-3373
pcr	-3374
pre	-3375
ton	-3376
▁33	-3377
▁43	-3378
▁Am	-3379
▁Ir	-3380
▁ct	-3381
▁eg	-3382
▁ut	-3383
▁zh	-3384
avir	-3385
bour	-3386
chan	-3387
door	-3388
ened	-3389
ergy	-3390
iers	-3391
miss	-3392
ohan	-3393
oles	-3394
ores	-3395
pass	-3396
reed	-3397
reme	-3398
stit	-3399
then	-3400
umst	-3401
used	-3402
vers	-3403
▁80%	-3404
▁aff	-3405
▁bag	-3406
▁fil	-3407
▁hyp	-3408
▁icu	-3409
▁key	-3410
▁mal	-3411
▁pow	-3412
▁sum	-3413
▁une	-3414
▁wet	-3415
▁wip	-3416
▁xen	-3417
ables	-3418
agues	-3419
ching	-3420
fered	-3421
force	-3422
inate	-3423
istan	-3424
istic	-3425
itary	-3426
ivals	-3427
otein	-3428
tempt	-3429
where	-3430
▁9.30	-3431
▁Part	-3432
▁Pres	-3433
▁Test	-3434
▁Work	-3435
▁attr	-3436
▁book	-3437
▁cels	-3438
▁cork	-3439
▁jour	-3440
▁kind	-3441
▁kits	-3442
▁mrna	-3443
▁park	-3444
▁patr	-3445
▁plat	-3446
▁rati	-3447
▁sche	-3448
▁seat	-3449
▁tend	-3450
▁terr	-3451
▁tony	-3452
▁trad	-3453
▁vary	-3454
▁whom	-3455
icians	-3456
igious	-3457
urrent	-3458
▁Exerc	-3459
▁Stand	-3460
▁carry	-3461
▁cytok	-3462
▁gastr	-3463
▁index	-3464
▁latin	-3465
▁manag	-3466
▁meals	-3467
▁membr	-3468
▁nasal	-3469
▁point	-3470
▁shows	-3471
▁sleep	-3472
▁throw	-3473
▁today	-3474
▁twice	-3475
▁units	-3476
▁users	-3477
itional	-3478
ophobia	-3479
▁Contin	-3480
▁chance	-3481
▁damage	-3482
▁hazard	-3483
▁letter	-3484
▁mother	-3485
▁muscle	-3486
▁pollen	-3487
▁prelim	-3488
▁prepar	-3489
▁prison	-3490
▁relief	-3491
▁signed	-3492
▁target	-3493
▁threat	-3494
▁trends	-3495
▁update	-3496
promised	-3497
▁Outdoor	-3498
▁antigen	-3499
▁attempt	-3500
▁celsius	-3501
▁consult	-3502
▁facilit	-3503
▁follows	-3504
▁holohan	-3505
▁imaging	-3506
▁iranian	-3507
▁mammals	-3508
▁missing	-3509
▁parties	-3510
▁thought	-3511
▁treated	-3512
▁accurate	-3513
▁approach	-3514
▁circumst	-3515
▁clusters	-3516
▁contains	-3517
▁cultural	-3518
▁distress	-3519
▁domestic	-3520
▁envelope	-3521
▁excluded	-3522
▁expected	-3523
▁industry	-3524
▁launched	-3525
▁mainland	-3526
▁military	-3527
▁pharmacy	-3528
▁platform	-3529
▁problems	-3530
▁provider	-3531
▁shortage	-3532
▁sporting	-3533
▁Shortness	-3534
▁bluetooth	-3535
▁character	-3536
▁companies	-3537
▁determine	-3538
▁gathering	-3539
▁ibuprofen	-3540
▁nutrients	-3541
▁postponed	-3542
▁reference	-3543
▁regarding	-3544
▁shortages	-3545
▁sometimes	-3546
▁therapeut	-3547
▁assistance	-3548
▁bronchitis	-3549
▁candidates	-3550
▁completely	-3551
▁contagious	-3552
▁criticised	-3553
▁disability	-3554
▁indicating	-3555
▁management	-3556
▁polymerase	-3557
▁prevalence	-3558
▁strengthen	-3559
▁workplaces	-3560
▁preliminary	-3561
▁residential	-3562
▁restriction	-3563
▁symptomatic	-3564
▁cancellation	-3565
▁instructions	-3566
▁organizations	-3567
30	-3568
45	-3569
74	-3570
91	-3571
by	-3572
da	-3573
hs	-3574
yn	-3575
▁q	-3576
.4%	-3577
100	-3578
aiw	-3579
cre	-3580
ese	-3581
lia	-3582
mon	-3583
oad	-3584
oqu	-3585
orp	-3586
pac	-3587
upp	-3588
xic	-3589
▁39	-3590
▁99	-3591
▁Im	-3592
▁Or	-3593
▁km	-3594
▁ly	-3595
aste	-3596
atal	-3597
hens	-3598
hern	-3599
ocyt	-3600
osol	-3601
over	-3602
urse	-3603
uter	-3604
wise	-3605
▁Com	-3606
▁Dis	-3607
▁Ind	-3608
▁art	-3609
▁bar	-3610
▁bow	-3611
▁bul	-3612
▁bur	-3613
▁cop	-3614
▁dir	-3615
▁dys	-3616
▁fav	-3617
▁fin	-3618
▁hay	-3619
▁hku	-3620
▁lot	-3621
▁men	-3622
▁rbd	-3623
▁sad	-3624
▁tcm	-3625
aches	-3626
afood	-3627
aiwan	-3628
ength	-3629
iated	-3630
icans	-3631
lease	-3632
ormed	-3633
phone	-3634
ports	-3635
▁Find	-3636
▁Over	-3637
▁amin	-3638
▁ampl	-3639
▁bene	-3640
▁drop	-3641
▁harm	-3642
▁hong	-3643
▁hour	-3644
▁loss	-3645
▁midw	-3646
▁nort	-3647
▁once	-3648
▁rang	-3649
▁rise	-3650
▁scan	-3651
▁size	-3652
▁tele	-3653
▁toll	-3654
▁true	-3655
▁west	-3656
▁wild	-3657
esides	-3658
ifying	-3659
loroqu	-3660
▁2021.	-3661
▁South	-3662
▁Trans	-3663
▁Viral	-3664
▁admin	-3665
▁alarm	-3666
▁apply	-3667
▁asian	-3668
▁below	-3669
▁chair	-3670
▁doors	-3671
▁front	-3672
▁inhib	-3673
▁liver	-3674
▁makes	-3675
▁party	-3676
▁ratio	-3677
▁stock	-3678
▁store	-3679
▁works	-3680
▁worst	-3681
▁youth	-3682
fective	-3683
feeding	-3684
general	-3685
itories	-3686
omedary	-3687
omiting	-3688
▁annual	-3689
▁attrib	-3690
▁border	-3691
▁calcul	-3692
▁choice	-3693
▁circul	-3694
▁counts	-3695
▁create	-3696
▁expert	-3697
▁extent	-3698
▁growth	-3699
▁mechan	-3700
▁member	-3701
▁mostly	-3702
▁nether	-3703
▁passed	-3704
▁placed	-3705
▁police	-3706
▁proper	-3707
▁repres	-3708
▁reprod	-3709
▁respir	-3710
▁screen	-3711
▁series	-3712
▁unesco	-3713
▁upload	-3714
arantine	-3715
ographic	-3716
piratory	-3717
ventions	-3718
▁Healthy	-3719
▁Privacy	-3720
▁affects	-3721
▁changed	-3722
▁complex	-3723
▁economy	-3724
▁enforce	-3725
▁england	-3726
▁experts	-3727
▁funeral	-3728
▁glasses	-3729
▁hosting	-3730
▁network	-3731
▁overall	-3732
▁predict	-3733
▁project	-3734
▁reading	-3735
▁regular	-3736
▁seafood	-3737
▁seconds	-3738
▁sectors	-3739
▁sources	-3740
▁tracing	-3741
▁updated	-3742
▁variety	-3743
assionate	-3744
loroquine	-3745
▁Addition	-3746
▁Speaking	-3747
▁allowing	-3748
▁approval	-3749
▁believed	-3750
▁compound	-3751
▁covering	-3752
▁duration	-3753
▁entering	-3754
▁informed	-3755
▁interest	-3756
▁limiting	-3757
▁membrane	-3758
▁moderate	-3759
▁movement	-3760
▁numerous	-3761
▁particip	-3762
▁possibly	-3763
▁presence	-3764
▁probably	-3765
▁returned	-3766
▁sampling	-3767
▁standard	-3768
▁unemploy	-3769
▁Exercises	-3770
▁Taoiseach	-3771
▁admission	-3772
▁dromedary	-3773
▁permitted	-3774
▁presented	-3775
▁protocols	-3776
▁providers	-3777
▁providing	-3778
▁religious	-3779
▁remaining	-3780
▁resulting	-3781
▁secretary	-3782
▁something	-3783
▁colleagues	-3784
▁collecting	-3785
▁comparison	-3786
▁incubation	-3787
▁officially	-3788
▁overweight	-3789
▁production	-3790
▁profession	-3791
▁solidarity	-3792
▁xenophobia	-3793
▁Antibiotics	-3794
▁attractions	-3795
▁netherlands	-3796
▁replication	-3797
▁administered	-3798
▁appointments	-3799
▁construction	-3800
▁demonstrated	-3801
▁distribution	-3802
▁implications	-3803
▁prescription	-3804
▁circumstances	-3805
▁interventions	-3806
▁investigation	-3807
▁transportation	-3808
▁recommendations	-3809
15	-3810
39	-3811
64	-3812
69	-3813
70	-3814
84	-3815
ah	-3816
ra	-3817
43,	-3818
ald	-3819
amb	-3820
arp	-3821
ban	-3822
bid	-3823
cop	-3824
cto	-3825
ees	-3826
ney	-3827
ric	-3828
ude	-3829
udi	-3830
ums	-3831
▁(5	-3832
▁7,	-3833
▁80	-3834
▁Up	-3835
▁fa	-3836
▁hu	-3837
▁sn	-3838
▁ul	-3839
ague	-3840
aled	-3841
anta	-3842
ding	-3843
gans	-3844
greg	-3845
idge	-3846
onal	-3847
rect	-3848
ters	-3849
uled	-3850
unct	-3851
▁1,0	-3852
▁120	-3853
▁Des	-3854
▁Why	-3855
▁anx	-3856
▁den	-3857
▁fif	-3858
▁har	-3859
▁hop	-3860
▁kit	-3861
▁pen	-3862
▁pet	-3863
▁ppe	-3864
▁rat	-3865
▁rib	-3866
▁syn	-3867
alway	-3868
apore	-3869
board	-3870
eline	-3871
erary	-3872
ifest	-3873
inces	-3874
irmed	-3875
ostic	-3876
ulate	-3877
▁Even	-3878
▁Iran	-3879
▁Sign	-3880
▁Tell	-3881
▁answ	-3882
▁aver	-3883
▁bans	-3884
▁barr	-3885
▁dead	-3886
▁eval	-3887
▁fest	-3888
▁hung	-3889
▁mich	-3890
▁phil	-3891
▁pool	-3892
▁puts	-3893
▁sore	-3894
▁ster	-3895
▁swit	-3896
▁task	-3897
▁tick	-3898
▁viol	-3899
▁webs	-3900
▁worn	-3901
ancial	-3902
ctober	-3903
ground	-3904
inical	-3905
ucture	-3906
useums	-3907
▁Among	-3908
▁Check	-3909
▁Pract	-3910
▁While	-3911
▁advis	-3912
▁alpac	-3913
▁aside	-3914
▁brand	-3915
▁broad	-3916
▁class	-3917
▁colds	-3918
▁force	-3919
▁image	-3920
▁joint	-3921
▁lymph	-3922
▁mitig	-3923
▁	-3924
e	-3925
t	-3926
a	-3927
o	-3928
i	-3929
n	-3930
s	-3931
r	-3932
h	-3933
c	-3934
d	-3935
l	-3936
u	-3937
m	-3938
p	-3939
f	-3940
y	-3941
g	-3942
v	-3943
w	-3944
b	-3945
.	-3946
,	-3947
k	-3948
-	-3949
1	-3950
2	-3951
0	-3952
9	-3953
T	-3954
I	-3955
x	-3956
3	-3957
4	-3958
A	-3959
5	-3960
)	-3961
(	-3962
z	-3963
j	-3964
6	-3965
8	-3966
7	-3967
S	-3968
q	-3969
C	-3970
'	-3971
"	-3972
O	-3973
W	-3974
:	-3975
Y	-3976
D	-3977
P	-3978
M	-3979
H	-3980
%	-3981
B	-3982
F	-3983
R	-3984
E	-3985
/	-3986
;	-3987
L	-3988
N	-3989
–	-3990
G	-3991
U	-3992
V	-3993
?	-3994
’	-3995
í	-3996
