<pad>	0
</s>	0
<unk>	0
▁	-1.25889
¦	-2.11432
▁¦	-2.93385
ም	-3.57832
ን	-3.60274
ት	-4.11648
፥	-4.13461
በ	-4.2692
ው	-4.33998
ል	-4.41351
ለ	-4.41655
።	-4.41937
ና	-4.56761
፤	-4.66177
የ	-4.74953
አ	-4.82575
መ	-4.83938
▁በ	-4.87327
▁የ	-4.8844
ተ	-4.91405
ስ	-4.91549
ር	-4.94195
ያ	-5.03395
ች	-5.08982
ከ	-5.18137
ይ	-5.19279
ድ	-5.27681
ህ	-5.39287
ብ	-5.39901
ላ	-5.4082
ገ	-5.42463
ንም	-5.46526
ረ	-5.48219
ሰ	-5.50028
▁አ	-5.53958
ቸ	-5.5469
▁።	-5.56271
ደ	-5.68323
ማ	-5.72331
ዋ	-5.72765
ራ	-5.73107
ባ	-5.76109
▁ከ	-5.76685
ሁ	-5.79538
ጠ	-5.87373
ጥ	-5.90439
ግ	-5.95379
ፍ	-6.03634
ችሁ	-6.05877
▁ወደ	-6.07004
ወደ	-6.11356
ቱ	-6.11594
?	-6.15963
ሳ	-6.16692
እ	-6.17353
ሁሉ	-6.18252
▁ሁሉ	-6.21965
ሉ	-6.28091
እን	-6.30802
▁እንደ	-6.37543
▁ይ	-6.40455
ነው	-6.50664
እንደ	-6.52471
ቃ	-6.54211
▁እ	-6.59701
ጣ	-6.61173
▁ላይ	-6.65714
ላይ	-6.66844
▁ዘንድ	-6.67152
ዘንድ	-6.71671
ቢ	-6.73748
እግዚአብሔር	-6.74554
ኑ	-6.75034
▁እግዚአብሔር	-6.79524
▁ግን	-6.83214
ሰው	-6.86117
ግን	-6.87578
ካ	-6.87608
▁ጊዜ	-6.88377
ፋ	-6.91254
ኛ	-6.93414
ዱ	-7.02301
▁ነገር	-7.06209
▁ስለ	-7.07189
ልና	-7.08624
ነገር	-7.09236
▁ጋር	-7.13175
ሲ	-7.15177
ልጆች	-7.17963
ልጅ	-7.19056
ም።	-7.19466
▁ልጅ	-7.20832
ጋር	-7.21136
ስለ	-7.21199
▁ልጆች	-7.22546
እኔ	-7.24384
▁ቀን	-7.27153
ሱ	-7.30241
መጣ	-7.31965
▁ቤት	-7.32798
አንተ	-7.33418
ወር	-7.36767
▁ፊት	-7.3677
ገባ	-7.37445
አለ	-7.38594
ሆነ	-7.3867
እናንተ	-7.41439
▁ሆይ፥	-7.41855
አንድ	-7.42447
▁ሰው	-7.46949
ምድር	-7.47527
▁እኔ	-7.47825
ወጣ	-7.49915
▁እንዲህ	-7.53011
ነበረ	-7.57144
ቃል	-7.57174
ሆ	-7.59761
እንዲ	-7.62274
ነበር	-7.62709
▁አይ	-7.64677
▁ንጉሥ	-7.65322
እርሱ	-7.65938
እንዲህ	-7.68016
ሠራ	-7.69619
▁አለው።	-7.71379
ሰዎች	-7.71894
▁ነው።	-7.75067
ሰማ	-7.75403
ናቸው	-7.75963
ብር	-7.76083
ደግሞ	-7.76897
▁ብሎ	-7.77225
▁ሰዎች	-7.77326
▁እርሱ	-7.79211
አሕዛብ	-7.79517
▁ነበር።	-7.80049
▁ይህ	-7.80851
ዬ	-7.81174
▁ደግሞ	-7.81287
እርሱም	-7.81907
▁አለ።	-7.81934
▁ድረስ	-7.83656
አይ	-7.86489
ጠብ	-7.87966
▁ቃል	-7.89074
ሄ	-7.905
▁እስከ	-7.91581
ድረስ	-7.93838
ያለ	-7.94312
ያው	-7.94797
▁ምድር	-7.94833
ይህ	-7.958
▁እነሆ፥	-7.95907
ውስጥ	-7.98122
ሆይ	-8.00414
▁ውስጥ	-8.0202
▁በእግዚአብሔር	-8.02261
ኢየሱስ	-8.03924
ሆኑ	-8.04365
ነበሩ	-8.05916
እስከ	-8.06182
▁አንተ	-8.06229
ሰጠ	-8.06382
እግዚአብሔርም	-8.06887
ጠራ	-8.0758
▁አንድ	-8.08572
እርስዋ	-8.08781
▁በኋላ	-8.0902
እጅ	-8.09048
ባል	-8.09797
አሥራ	-8.10376
ጆ	-8.10571
መካከል	-8.11499
ማን	-8.11706
አለው	-8.11728
እነሆ	-8.12162
▁ነው፤	-8.122
ሁለት	-8.12953
ይላል	-8.1411
▁እግዚአብሔርም	-8.14242
ኃጢአት	-8.14984
ኢየሩሳሌም	-8.15325
ተው	-8.15425
ክርስቶስ	-8.16176
ያን	-8.16217
ከፍ	-8.17144
ደስ	-8.1721
እንዳይ	-8.17332
ተኛ	-8.18246
ሕዝብ	-8.20158
አምላክ	-8.20419
መንገድ	-8.21041
እኛ	-8.211
ገና	-8.21183
ሕይወት	-8.22054
▁አምላክ	-8.22264
ማለ	-8.22612
እነዚህ	-8.22679
▁ይህን	-8.22759
ከተማ	-8.23482
በኋላ	-8.23581
ማል	-8.23866
▁ወይም	-8.24369
በእግዚአብሔር	-8.24951
እነርሱ	-8.25602
▁እጅ	-8.26312
▁እንጂ	-8.27498
ስለዚህ	-8.28084
▁ዓመት	-8.28191
▁መካከል	-8.29234
▁የእስራኤል	-8.29553
▁መቶ	-8.2966
ጠፋ	-8.29879
በዚያ	-8.31591
ሰይፍ	-8.32151
ሁለቱ	-8.32162
ባሪያ	-8.3241
ሄዱ	-8.32523
ዓመት	-8.32786
▁የእግዚአብሔር	-8.32861
ወንድ	-8.34849
ባለ	-8.34927
እነርሱም	-8.35511
ሄደ	-8.35764
ኔ	-8.36276
▁ሥራ	-8.36354
ይሆናል	-8.36555
▁እርሱም	-8.36874
▁አላቸው።	-8.3742
▁ያለ	-8.38202
▁ብዙ	-8.38258
ና።	-8.38499
ስም	-8.38672
ወይም	-8.38868
በላ	-8.38974
▁ነበረ።	-8.40513
ጠላ	-8.40524
ባሕር	-8.40763
መልካም	-8.41071
አሮን	-8.41612
አንዱ	-8.42135
▁ስለዚህ	-8.42453
ይሁዳ	-8.42557
ይህን	-8.43139
▁ሕዝብ	-8.43155
ላለ	-8.43179
▁ነበር፤	-8.457
ነበሩት	-8.45733
በር	-8.46417
ሰላም	-8.46807
ሰብ	-8.47028
▁ሁለት	-8.47913
አምላክህ	-8.48118
ጅ	-8.48214
ፍርድ	-8.48511
▁እግዚአብሔርን	-8.48547
እንዲሁ	-8.48585
የእስራኤል	-8.49026
▁መሥዋዕት	-8.49802
▁ለእግዚአብሔር	-8.5074
▁በዚያ	-8.50748
እውነት	-8.50856
▁ደስ	-8.51029
ዔ	-8.51458
መንፈስ	-8.51718
በሉ	-8.52064
በግ	-8.52104
አንቺ	-8.52724
በል	-8.52904
መከራ	-8.53114
መሥዋዕት	-8.54432
▁ይላል።	-8.54628
የእግዚአብሔር	-8.55145
▁ስፍራ	-8.55177
እኔም	-8.55929
▁በዚህ	-8.58823
▁የእግዚአብሔርን	-8.58889
▁እናንተ	-8.59966
▁እጅግ	-8.60071
አፍ	-8.60676
ከእስራኤል	-8.61566
ነገሥታት	-8.6169
አባቱ	-8.6174
▁ጊዜ፥	-8.61741
ስፍራ	-8.62219
ተስፋ	-8.62767
▁እስራኤል	-8.6278
ብላ	-8.62922
▁በዚያም	-8.63144
ይሆን	-8.63405
እግዚአብሔርን	-8.63553
ሦስት	-8.64101
ፈርዖን	-8.64152
ሆነው	-8.6457
▁ታላቅ	-8.64986
ቅዱስ	-8.65226
እስራኤል	-8.65305
▁እንዲሁ	-8.65696
ነበርና	-8.65961
ንጉሡም	-8.66284
▁እኔም	-8.66875
አገር	-8.66986
አደረገ	-8.67272
አላቸው	-8.67316
ያዕቆብ	-8.67389
እሳት	-8.67555
አራት	-8.67558
ድንጋይ	-8.68519
ራሱ	-8.68682
ትእዛዝ	-8.69265
ዓለም	-8.69265
ከዚያም	-8.69491
አውራ	-8.70798
▁ከእርሱ	-8.70807
ኃይል	-8.71157
አይሁድ	-8.71167
!	-8.7154
እጅግ	-8.7155
▁ሁሉ፥	-8.71684
▁ሺህ	-8.71714
▁አቤቱ	-8.71906
▁እርሱም።	-8.72787
በዚህ	-8.73237
ዲ	-8.73264
▁እነዚህ	-8.73272
ሺህ	-8.73587
ድር	-8.73835
አለቆች	-8.73906
ፍራ	-8.74137
ፌ	-8.74205
የእግዚአብሔርን	-8.74375
ዳዊትም	-8.7457
ግባ	-8.7475
ኢያሱ	-8.75051
ራስ	-8.75431
▁በምድር	-8.75955
ቸውንም	-8.76147
አብርሃም	-8.7625
▁እነርሱም	-8.7657
▁ነበረ፤	-8.7673
▁ነበሩ።	-8.76803
ደም	-8.76829
ይሁን	-8.76872
ተናገረ	-8.77377
ለምን	-8.7794
ለእግዚአብሔር	-8.78119
በዚያም	-8.78126
ከእነርሱ	-8.78226
ከንቱ	-8.78256
▁አለቆች	-8.78649
▁ዘመን	-8.78651
የይሁዳ	-8.78661
ላሉ	-8.79
▁ድምፅ	-8.79103
በደ	-8.79821
ልብስ	-8.80203
ካህናት	-8.80353
ሳለ	-8.80726
መንግሥት	-8.80771
ዘመን	-8.80811
አሳ	-8.80814
ሳኦል	-8.81142
ናችሁ	-8.81197
▁በእስራኤል	-8.81412
ከእርሱም	-8.81548
ድንኳን	-8.8204
ባለው	-8.8274
ተቀመጠ	-8.83326
▁አለቃ	-8.83629
ጠጣ	-8.83815
ገር	-8.83826
▁ከፍ	-8.84158
▁መልካም	-8.84167
የእስራኤልም	-8.84427
▁ነው፥	-8.85112
አባት	-8.85183
ምንድር	-8.85211
ጥበብ	-8.85627
ሰጠው	-8.85851
አምላካችን	-8.85948
ስብ	-8.85968
አቤቱ	-8.86412
▁ይላል	-8.86499
ቢሆን	-8.86544
አለቃ	-8.86869
ሁለተኛው	-8.8718
እያንዳንዱ	-8.87285
ገል	-8.87411
ስማ	-8.87539
▁ክንድ	-8.87735
አደረ	-8.87861
ርግ	-8.88061
ካህናቱ	-8.88641
ወንድሞች	-8.88641
ቃሉ	-8.8873
▁ሴቶች	-8.88945
▁ከተማ	-8.89475
▁ለዘላለም	-8.89945
ምድረ	-8.9001
ከዚህ	-8.9006
▁ወገን	-8.90399
አብ	-8.90621
▁አገር	-8.90743
ላከ	-8.90743
እርሻ	-8.90942
ሰልፍ	-8.91497
ሰማይ	-8.91611
▁ዘንድ፥	-8.92296
ከእርሱ	-8.92696
ስድስት	-8.92824
ማንም	-8.9286
ርስት	-8.93469
ሰባት	-8.93521
ሰሎሞን	-8.93619
ች።	-8.93631
በእውነት	-8.93743
ጣል	-8.93757
ጌታዬ	-8.93774
የነበረው	-8.9391
▁በኩል	-8.93934
▁መንገድ	-8.93949
የእግዚአብሔርም	-8.94668
ምድሪቱ	-8.94736
የለም	-8.94875
ልጆቹ	-8.95001
ባቢሎን	-8.95019
መቅደስ	-8.95221
▁እንዲህም	-8.95247
ግብጽ	-8.9538
ይህች	-8.95771
ልብ	-8.95785
ጣሉ	-8.9583
ማር	-8.96032
ታቸውን	-8.96102
ነውና	-8.96193
እንዲያ	-8.96974
▁ይሆናል።	-8.97146
▁ወንድ	-8.97448
ረብ	-8.97527
ባሪያህ	-8.97558
ወገን	-8.97764
ከዚያ	-8.97924
አድርጎ	-8.98137
▁እስኪ	-8.98181
ባሉ	-8.98279
መሠዊያ	-8.98378
▁ማን	-8.98428
ሆንሁ	-8.98464
በራ	-8.98888
ርያ	-8.98972
▁አሉት።	-8.99046
▁በእርሱ	-8.99101
መጽሐፍ	-8.99185
ማደሪያ	-8.99185
ዚ	-8.99378
አለሁ	-8.99437
▁እንግዲህ	-8.99652
ሌዋውያን	-8.99692
ነቢያት	-8.99692
በምድር	-8.99709
እንጀራ	-9.00132
አማልክት	-9.00201
አባቴ	-9.00713
አይደለም	-9.00981
መለሰ	-9.0099
ግራ	-9.01154
ይበላ	-9.01173
ዮርዳኖስ	-9.01228
መለስ	-9.01536
▁ክብር	-9.01573
አምሳ	-9.02096
ሠላሳ	-9.02265
▁ከእኔ	-9.02344
በእሳት	-9.02429
ካህኑ	-9.02442
በእስራኤል	-9.02713
ክፋት	-9.02788
ዘይት	-9.02788
ነፍስ	-9.02856
▁በኢየሩሳሌም	-9.03108
▁አሁን	-9.03269
ከተማይቱ	-9.03693
በውኑ	-9.03725
ጠጅ	-9.03803
ያደርግ	-9.03849
ጥቂት	-9.04372
ባሪያዎች	-9.04449
▁አሳ	-9.04461
▁ሰባት	-9.04634
እርስ	-9.04702
ብርሃን	-9.04906
ጨለማ	-9.04906
ያደርጉ	-9.04906
ለዘላለም	-9.05188
ወለደ	-9.05921
መዛሙርቱ	-9.06525
አሁን	-9.07012
ኤፍሬም	-9.0707
▁እነሆም	-9.07209
ተቀመጡ	-9.07278
ሰባ	-9.0731
ተራራ	-9.075
ነበረች	-9.07613
አሉ	-9.07717
ከእነርሱም	-9.0838
▁ኃጢአት	-9.08917
▁ይልቅ	-9.08935
የወይን	-9.08944
ወሰደ	-9.09282
▁እንጀራ	-9.09358
ውጣ	-9.09404
▁ሆኖ	-9.0941
እንዲህም	-9.09636
▁ናቸው።	-9.09642
▁ያለውን	-9.09941
▁አጠገብ	-9.10192
ሰጣቸው	-9.10407
እንግዲህ	-9.10857
በታች	-9.11115
ጥላ	-9.114
▁ነውና	-9.11421
ሥርዓት	-9.11545
▁ከተሞች	-9.11573
ሽማግሌዎች	-9.12118
አርባ	-9.12439
▁እንዴት	-9.12501
እስኪ	-9.12693
መቅደሱ	-9.12695
እህል	-9.12977
ከተሞች	-9.13246
አምላካችሁ	-9.13275
እምነት	-9.13275
እንጨት	-9.13275
መለከት	-9.13283
▁ከአንተ	-9.13875
አምላኬ	-9.14446
ነፋስ	-9.15037
▁የሆነ	-9.15051
ብለው	-9.1527
ወንድሞቹ	-9.15631
▁የሰው	-9.15649
ራሳቸው	-9.15651
▁አሁንም	-9.16089
እንዲሆን	-9.16235
ትንቢት	-9.16236
ጥፋት	-9.16271
▁ንጉሡም	-9.16273
በደል	-9.16393
▁ደግሞም	-9.1655
አምስት	-9.16571
ወይን	-9.16592
▁እኛ	-9.16711
ብንያም	-9.16851
▁በታች	-9.17285
በኢየሩሳሌም	-9.17538
▁እነርሱ	-9.1754
▁ብለው	-9.17886
▁እግዚአብሔር።	-9.17897
አድርግ	-9.18066
ያህል	-9.18393
ብል	-9.1847
ደመና	-9.18478
ጳውሎስ	-9.18655
ሳኦልም	-9.18728
▁ኢየሱስ	-9.18882
ሺ	-9.19433
▁የተነሣ	-9.19466
▁ነበር፥	-9.20231
ጣለ	-9.2027
ጴጥሮስ	-9.20515
ከእኔ	-9.20594
ያጠፋ	-9.20627
ይመጣል	-9.21273
▁ከእግዚአብሔር	-9.21349
አጠገብ	-9.21383
▁አምስት	-9.21453
በፊትህ	-9.21774
▁በእኔ	-9.22075
▁በዚያን	-9.22172
▁ወይስ	-9.22197
ካህኑም	-9.222
▁አሉ።	-9.2231
በምድረ	-9.2238
አሳልፎ	-9.22409
ወዲህ	-9.22409
ሠራዊት	-9.22701
በእርሱ	-9.22818
▁ሦስት	-9.2314
ራብ	-9.23149
ዋንም	-9.23441
ይልቅ	-9.23449
መጀመሪያ	-9.23651
ምልክት	-9.23693
ዓይን	-9.23883
▁ቍርባን	-9.23906
ልባቸው	-9.24088
ራሱን	-9.24183
ደረሰ	-9.24367
ያለውን	-9.24569
ተናገር	-9.24704
መልአክ	-9.24993
መልስ	-9.2506
ሳሉ	-9.25428
ከሰማይ	-9.2554
አደባባይ	-9.25649
መጠን	-9.25671
ሰማርያ	-9.25714
እንዴት	-9.25871
ትሆን	-9.25936
▁ከእናንተ	-9.26074
እግር	-9.26392
እናቱ	-9.26414
ፍልስጥኤማውያን	-9.2671
ኤርምያስ	-9.26975
ሰማያት	-9.27026
ያወጣ	-9.27196
ቍርባን	-9.27424
አየሁ	-9.2746
ቅዱሳን	-9.27645
ያዕቆብም	-9.27681
ምስጋና	-9.28319
▁ዳዊትም	-9.28464
አሁንም	-9.28489
ረሱ	-9.28498
▁ይሆናል፤	-9.2854
ገደለ	-9.28602
▁ኢየሱስም	-9.28753
ግድ	-9.28756
▁ማንም	-9.29307
እጃቸው	-9.29681
▁ለእስራኤል	-9.30169
ወዲያ	-9.30333
ከአንተ	-9.3034
መጥቶ	-9.30342
ምስክር	-9.30369
እነሆም	-9.30431
▁ተራራ	-9.30612
ኢዮአብ	-9.31062
ወረደ	-9.31062
ፍቅር	-9.31062
▁መንፈስ	-9.31189
▁ሚስት	-9.31527
የተነሣ	-9.3154
▁ነገድ	-9.31642
ሳሙኤል	-9.3176
ነገድ	-9.31878
ከምድር	-9.32236
ኢየሱስም	-9.32486
የሆነ	-9.32747
የሰው	-9.32887
ስምህ	-9.33133
መገናኛው	-9.3317
▁በይሁዳ	-9.33617
▁ናቸው፤	-9.33755
መስፈሪያ	-9.33883
ቅጥር	-9.33883
አንዳች	-9.33883
ተራሮች	-9.346
ብለህ	-9.34885
ልካ	-9.35255
አስቀድሞ	-9.35323
▁በቀር	-9.35323
ትውልድ	-9.35338
▁አንተም	-9.35517
▁ሆነ፤	-9.3579
አባቶች	-9.36051
ከእንግዲህ	-9.36261
መካ	-9.36282
ሦስተኛው	-9.36785
እላችኋለሁ	-9.36785
ከእኛ	-9.37262
ብዬ	-9.37452
ሰንበት	-9.37554
ተናገሩ	-9.38268
ለት።	-9.39015
በግብፅ	-9.39018
ዮሐንስ	-9.39018
ደቡብ	-9.39018
ያደረ	-9.39055
በሰማይ	-9.39724
ሕዝቅያስ	-9.39774
ይስሐቅ	-9.39774
ገለዓድ	-9.39774
▁የሠራዊት	-9.40344
▁ልብ	-9.40519
እንደዚህ	-9.40539
ራራ	-9.40725
አይደለምን	-9.40764
ሠራው	-9.41
ተመለሱ	-9.41234
ተናገረው	-9.4128
የወርቅ	-9.41303
ከእግዚአብሔር	-9.41478
ከእናንተ	-9.42566
እውቀት	-9.42855
ያደርጋል	-9.42855
ሰባተኛው	-9.42856
አልነበረም	-9.42862
▁ልጆች፥	-9.42998
ጥል	-9.43248
ምክንያት	-9.4364
እንስሳ	-9.43678
እስክ	-9.44432
እነዚያ	-9.4523
መጥተው	-9.4524
ፈቃድ	-9.46034
መለሱ	-9.4619
ባላ	-9.46233
▁ሲል	-9.46788
ሌላው	-9.46845
መንገዱ	-9.46846
ገደሉ	-9.46881
ልብህ	-9.47018
ለእስራኤል	-9.47396
ባይ	-9.47429
ወንዶች	-9.47439
▁መጣ።	-9.47915
ሚስቱ	-9.48487
ስምዖን	-9.49318
ቍጥር	-9.49318
ከግብፅ	-9.49318
ጠል	-9.49363
ይሆናሉ	-9.49534
በይሁዳ	-9.4994
ስተው	-9.49984
ነፍሱ	-9.50156
አደርጋለሁ	-9.50156
ይኖራል	-9.50156
ባድማ	-9.50226
ይህንም	-9.5034
▁ነበሩ፤	-9.5045
ተመለሰ	-9.50523
▁ስለዚህም	-9.50596
የሆነውን	-9.50622
አንዲት	-9.51002
አባትህ	-9.51037
▁ነበረ፥	-9.51324
ወገኖች	-9.51853
▁ክርስቶስ	-9.52629
አድርጉ	-9.52713
▁ለአንተ	-9.52865
ሰውም	-9.52995
ብረት	-9.53134
ሕዝብህ	-9.53412
ብዙዎች	-9.5358
አንበሳ	-9.53596
በረታ	-9.53615
ጕድጓድ	-9.54454
ሳለሁ	-9.54515
የዚያ	-9.54518
ዘላለም	-9.55012
የሠራዊት	-9.55155
▁ባለ	-9.55271
ጠሉ	-9.55696
በአንድነት	-9.56227
ሁላችሁ	-9.56273
ቀረበ	-9.56286
አሳብ	-9.56431
ምሕረት	-9.56667
አሉት	-9.56866
ገንዘብ	-9.57125
ጌታችን	-9.57125
መብል	-9.57333
ሥራው	-9.57479
አመጡ	-9.58031
አቤሴሎም	-9.58031
በመሠዊያው	-9.58336
ይሰማ	-9.58524
ባልንጀራ	-9.58879
ላቸው።	-9.58917
መቱ	-9.59132
አሕዛብም	-9.59703
የዘላለም	-9.59861
ከዚህም	-9.59943
ኃያላን	-9.60801
ልብሱን	-9.60825
አድርገው	-9.61742
ብርቱ	-9.62327
ኃጢአተኞች	-9.62691
ጠርቶ	-9.62691
መቃብር	-9.62699
እናት	-9.62897
▁እንዲሁም	-9.63057
ልጆቻቸው	-9.63649
ኤልያስ	-9.63649
አስታ	-9.63649
መልሰው	-9.63879
ላለች	-9.64041
አለች	-9.64185
የሚቃጠለውን	-9.64617
ደኅንነት	-9.64617
ማድረግ	-9.64617
ወደዚህ	-9.64624
▁አብ	-9.65059
ኢዮርብዓም	-9.65594
ወሰዱ	-9.65594
አራተኛው	-9.65594
ካሉ	-9.65606
መሠዊያው	-9.6586
▁ለእኔ	-9.65939
ይሠራ	-9.66353
ወርዱ	-9.66479
ካህን	-9.66828
በትር	-9.66938
▁ይሁን።	-9.67091
እነዚህም	-9.67435
በመካከላቸው	-9.67578
ታደርጉ	-9.67578
አልዓዛር	-9.67578
እያሉ	-9.67682
▁ስም	-9.67706
አመጣ	-9.67735
▁ምንም	-9.67749
▁ሆነ፥	-9.68058
ሆነች	-9.68388
ዔሳው	-9.68593
ልባችሁ	-9.68759
ከይሁዳ	-9.68981
ውሰድ	-9.69023
ርኵሰት	-9.69601
ሰደደ	-9.69678
አንዱም	-9.70387
በዙሪያው	-9.70629
በእርሱም	-9.70637
ሰባቱ	-9.71095
ታውቃላችሁ	-9.71667
ኃጢአተኛ	-9.71667
ዙፋን	-9.71667
ራስህ	-9.72051
ደጅ	-9.72069
አህያ	-9.72092
▁አለኝ።	-9.72365
ባሪያዎችህ	-9.72564
ነቢይ	-9.72716
ከነዓን	-9.72716
ዮሴፍም	-9.72716
መረጠ	-9.72871
ስምንት	-9.73145
▁እናንተም	-9.7372
መንግሥቱ	-9.73776
ሠራዊቱ	-9.73776
የቀረው	-9.73776
አራቱ	-9.73931
መጋረጃ	-9.74847
በፍጹም	-9.74847
ጻድቃን	-9.74847
ካለው	-9.75127
▁መልሶ።	-9.75207
▁ርኩስ	-9.75207
ይሉ	-9.75323
▁ለእርሱ	-9.75874
ሥልጣን	-9.7593
በርሳቸው	-9.7593
ተደረገ	-9.75932
በእግዚአብሔርም	-9.76197
ይሁኑ	-9.76203
ከተማይቱም	-9.76244
የባቢሎን	-9.76386
▁በላይ	-9.76601
አራዊት	-9.77025
አክዓብ	-9.77025
በእጅህ	-9.77104
ሰሎሞንም	-9.77384
▁ብዛት	-9.77393
ባለች	-9.77666
ያልፍ	-9.77879
ያመጣ	-9.77971
ቸርነት	-9.78132
የተቀደሰ	-9.78544
ፍየል	-9.79074
አድርጌ	-9.79239
ታደርግ	-9.79252
ድንኳኑ	-9.79252
ፍርሃት	-9.79252
በረከት	-9.79272
ያደረገ	-9.79317
ጠላት	-9.79367
ወርድ	-9.79399
የተባለ	-9.79788
ውያንም	-9.79802
ስፍራው	-9.80143
መጨረሻ	-9.80384
ምዕራብ	-9.80384
እግሩ	-9.80384
ወደዚያ	-9.80396
ራሳችሁ	-9.80419
ራእይ	-9.80468
▁አወጣ	-9.80552
▁አደረገ።	-9.80687
ወደደ	-9.80695
ግፍ	-9.80968
ኤዶምያስ	-9.81529
ፊተኛው	-9.81529
ሰጥቶ	-9.81529
ተሰበሰቡ	-9.82687
ፈሪሳውያን	-9.82687
ተገለጠ	-9.82697
አዲስ	-9.82723
ከእርስዋ	-9.82823
▁የለም።	-9.82974
የአባቶቻቸው	-9.83044
▁ወለደ፤	-9.83267
ተራራው	-9.83799
በሬዎች	-9.83859
ናቡከደነፆር	-9.83859
አፌ	-9.8402
ሆናችሁ	-9.84054
መልሳ	-9.84797
አባቶቻችሁ	-9.85045
▁ሰቅል	-9.85045
ላላችሁ	-9.85154
ይወጣል	-9.85266
በምድርም	-9.85444
ሁኑ	-9.85545
ኃጢአታቸው	-9.86245
ሰረገላ	-9.86245
ወለደች	-9.86482
▁ሆነ።	-9.86667
አውቃለሁ	-9.87459
ፈረሶች	-9.87459
እህሉ	-9.875
ፍልስጥኤማውያንም	-9.87948
▁ክፍል	-9.88277
ያገለግሉ	-9.88689
መግቢያ	-9.88689
ተከተሉ	-9.8869
▁ባየ	-9.89388
የሚሆን	-9.89934
▁ተቀምጦ	-9.90772
በስተ	-9.90829
ማስተዋል	-9.91194
በት።	-9.91204
▁አለ፤	-9.91367
ሰማሁ	-9.91384
አልሁ	-9.91467
▁ይሁን፤	-9.9162
መድኃኒት	-9.92471
ሰነፍ	-9.92471
አባቶቻችን	-9.92471
ኢዮሣፍጥ	-9.92471
ማናቸውም	-9.9255
ቃልህ	-9.93155
ብላቴናው	-9.93443
ምሕረቱ	-9.93764
ሰረገሎች	-9.93764
ተቀመጥ	-9.93764
ከለዳውያን	-9.93764
ፋሲካ	-9.93766
ወንድምህ	-9.93874
ወንዶችና	-9.9412
▁ሄደ።	-9.94124
በለው	-9.94257
ማኅበሩ	-9.95074
አደርግ	-9.95099
የዚህ	-9.95105
ይበሉ	-9.9528
ይሆኑ	-9.95732
▁ነገሠ።	-9.95957
የሰማይ	-9.95992
አባቶቻቸው	-9.95993
ቀርበው	-9.96401
ወይኑ	-9.96401
▁አላት።	-9.97112
ያዋን	-9.9718
ከግብጽ	-9.97306
▁ነውና።	-9.97321
▁ቢሆን፥	-9.97326
ሥራቸው	-9.97659
ትሆናለች	-9.97747
ጣፋጭ	-9.97747
ይሰጣል	-9.9776
ባሪያዬ	-9.97959
ልጆቻችሁ	-9.9911
መላእክት	-9.9911
ደጃፍ	-9.9911
ዳግመኛ	-9.9911
አሳልፌ	-9.99112
ማርያም	-9.99252
ስድሳ	-9.99282
የተሠራ	-9.99878
ሊባኖስ	-10.0049
አገልግሎት	-10.0049
ባደረ	-10.0059
ልጆቹን	-10.0113
ጣለች	-10.0122
ሳለች	-10.0149
አምላኩ	-10.0189
አምላካቸው	-10.0189
እባክህ	-10.0189
እንዳዘዘው	-10.0189
ዙፋኑ	-10.0189
ሆንህ	-10.0198
▁ተናገረው።	-10.0206
እንድን	-10.0251
ነፍስህ	-10.0313
ለሚቃጠል	-10.0332
ማኅበር	-10.0332
እልል	-10.0341
ከሆነ	-10.0362
ናትና	-10.0377
ይበል	-10.046
ተነሥተው	-10.0476
አሞራውያን	-10.0476
ወስደው	-10.0476
እጅህን	-10.0524
ለዚህ	-10.055
ተማረ	-10.0564
እንዳደረገ	-10.0622
እውነተኛ	-10.0622
የአገሩ	-10.0622
ምናልባት	-10.0622
ባልዋ	-10.0626
ድንበር	-10.0633
ያውቃሉ	-10.0637
ግንብ	-10.0639
▁ነበርና።	-10.067
በእስራኤልም	-10.0721
▁አደረገ፤	-10.0731
ሽማግሌ	-10.0771
ኃጢአቱ	-10.0771
የሚያደርግ	-10.0771
ድሆች	-10.0775
ያድን	-10.0854
መልካሙን	-10.0922
ሰማያዊ	-10.0922
በምሥራቅ	-10.0922
እንስሶች	-10.0922
ወጥተው	-10.0922
ጠቢብ	-10.0925
ሆኖአል	-10.0938
ያለበት	-10.0981
ተናገርሁ	-10.0992
እያለ	-10.0995
ተባት	-10.1013
ነገረው	-10.1017
በላቸው	-10.1028
ተናገራቸው	-10.1075
እሰጣለሁ	-10.1075
ወንድሞቻቸው	-10.1075
የሚሆነውን	-10.1075
አንደኛው	-10.1075
መሰምርያዋን	-10.1075
እላለሁ	-10.1076
አይሆንም	-10.1111
ስድብ	-10.1116
▁ወጣ።	-10.1177
ዓይንህ	-10.1184
ሴዴቅያስ	-10.123
ሌዋውያኑ	-10.123
ርዝመቱ	-10.123
በሰሜን	-10.123
አምስተኛው	-10.123
አእምሮ	-10.123
ወጥመድ	-10.123
ያደረገውን	-10.1236
ስማቸው	-10.1322
▁ፍርድን	-10.1347
እሄዳለሁ	-10.1388
እንግዳ	-10.1388
እንግዶች	-10.1388
የሚለው	-10.1388
የሚችል	-10.1388
ላደረገ	-10.1388
አበኔር	-10.1388
ተራራማው	-10.139
በመጀመሪያው	-10.1398
ይለዋል	-10.1431
በእርስዋም	-10.1457
የከበረ	-10.1476
መልከ	-10.1523
▁አይደለም።	-10.1547
ተመልሶ	-10.1548
ትዕቢት	-10.1548
ክርስቲያን	-10.1548
ደማስቆ	-10.1548
ግብፃውያን	-10.1548
ጠቦቶች	-10.1548
a	-10.1602
ባቸው።	-10.1634
በየወገናቸው	-10.1711
አመስግኑ	-10.1711
አጋንንት	-10.1711
ወረዱ	-10.1711
የሚቃጠል	-10.1711
ጠላቶቻቸው	-10.1711
ደብዳቤ	-10.1711
መጠጥ	-10.1727
▁አለው፤	-10.1765
ይመለስ	-10.1815
አይተው	-10.1875
ተጽፎአል	-10.1877
ዕረፍት	-10.1877
መቅሠፍት	-10.1877
መታሰቢያ	-10.1877
በእርግጥ	-10.1877
የአሦር	-10.1877
በላያቸው	-10.1877
ሰጣችሁ	-10.1881
ትቢያ	-10.1918
እድል	-10.1965
ብላችሁ	-10.2003
ተከለ	-10.201
ያምኑ	-10.2028
መርዶክዮስ	-10.2046
ዓይኔ	-10.2046
ጠላቶችህ	-10.2046
ሐዋርያት	-10.2046
ተአምራት	-10.2046
ትምህርት	-10.2046
ከበረ	-10.2087
ሁለተኛ	-10.2088
▁ናት፤	-10.2112
አቀረበ	-10.2206
አምባ	-10.2217
መልእክተኞች	-10.2217
ሶርያውያን	-10.2217
ተቀበሉ	-10.2217
አባታችን	-10.2217
▁አለችው።	-10.2218
ይችላል	-10.2218
ይመጣሉ	-10.2223
ርስቱ	-10.2254
ብላቴና	-10.226
ሳይሆን	-10.2321
ይልቁን	-10.2392
ይወድቃሉ	-10.2392
ይጠፋል	-10.2404
▁አለች።	-10.2409
ተቀምጠው	-10.2569
አስቴር	-10.2569
ኢዮስያስ	-10.2569
እግሮች	-10.2569
ይናገራል	-10.2569
አጠፋለሁ	-10.2569
መርከብ	-10.2569
ሰይጣን	-10.257
ተከተለ	-10.257
መምህር	-10.2571
ምድያም	-10.2577
መልሱ	-10.2587
ስንፍና	-10.2589
ድካም	-10.2611
ሰበረ	-10.2637
አላት	-10.2704
መስገጃዎች	-10.275
መንግሥታት	-10.275
ታውቃለህ	-10.275
ታደርጋለህ	-10.275
አይደለሁም	-10.275
የአሞን	-10.275
በርሳችሁ	-10.275
ደጆች	-10.2752
ይመልስ	-10.2761
አትፍራ	-10.2764
▁አይደለም፤	-10.2784
እልፍ	-10.2787
ይናገሩ	-10.2802
የለውም	-10.2806
▁አደረጉ።	-10.2811
ምሕረትህ	-10.2843
▁አልሁ።	-10.2861
ተቀበለ	-10.2934
ከዋክብት	-10.2934
ኮረብቶች	-10.2934
ይሄዳል	-10.2934
አይችልም	-10.2936
አባታቸው	-10.2943
የእሳት	-10.3038
ንፍታሌም	-10.3121
ድንጋዮች	-10.3121
ምድራቸው	-10.3122
ጠማማ	-10.313
ያላችሁ	-10.3142
ይገባል	-10.3157
ያውቃል	-10.3194
ምናምን	-10.3195
▁ናት።	-10.3233
▁የለም፤	-10.3301
ኢሳይያስ	-10.3312
መሠረት	-10.3312
አትፍሩ	-10.3312
አንዲቱ	-10.3312
ትሄድ	-10.3322
ሰምተው	-10.3326
ባረከ	-10.3333
ሁላቸው	-10.3478
መንገዳቸው	-10.3507
ብቻውን	-10.3507
አትክልት	-10.3507
ከአባቶቹ	-10.3507
ያደርገው	-10.3507
ይናገራሉ	-10.3507
ጕልማሳ	-10.3507
ፍየሎች	-10.3507
አምስቱ	-10.351
ገመድ	-10.3563
ተቀደሰው	-10.3591
መዛሙርት	-10.3706
በሐሰት	-10.3706
ታላላቆች	-10.3706
አደባባዩ	-10.3706
እለምንሃለሁ	-10.3706
እግሮቹ	-10.3706
ዕቃውን	-10.3706
ዘካርያስ	-10.3706
ፈረሰኞች	-10.3706
ስምንተኛው	-10.3706
አይደሉም	-10.3706
ሰገዱ	-10.3711
መዝገብ	-10.3909
እያንዳንዳቸው	-10.3909
ድንገት	-10.3912
አፋቸው	-10.3912
መፍራት	-10.3916
ወዲያውም	-10.3919
ዋልና፥	-10.4021
▁ይሆናሉ።	-10.4061
ሐሰተኛ	-10.4116
ትሆናለህ	-10.4116
ነፍሳቸው	-10.4116
አንጻር	-10.4116
ከነዓናውያን	-10.4116
እፍረት	-10.4116
መንደሮችዋ	-10.4145
▁ተቀመጡ።	-10.4246
መሰምርያ	-10.4326
ነገራቸው	-10.4327
የሚመስል	-10.4327
ተመለከተ	-10.4327
አድርገህ	-10.4327
ተመልከት	-10.4328
እባብ	-10.435
ለዚያ	-10.436
አበባ	-10.4366
ገለባ	-10.4384
ሄሮድስ	-10.4543
መጠጊያ	-10.4543
ቍጣዬ	-10.4543
ግልሙትና	-10.4543
ችግረኛ	-10.4543
ጠቢባን	-10.4543
ይደረግ	-10.4543
ሰበሰበ	-10.4544
ጠራቸው	-10.4662
መንገሥ	-10.4763
በኵራት	-10.4763
አርጤክስስ	-10.4763
እስማኤል	-10.4763
የሚናገር	-10.4763
ይሻላል	-10.4763
መናፍስት	-10.4763
ሁላችን	-10.4765
ይጠፋሉ	-10.4765
አደረግሁ	-10.4765
ይባላል	-10.4768
ውሰዱ	-10.478
ርስታቸው	-10.4786
ይቀመጥ	-10.4853
ረከሰ	-10.494
ቤርሳቤህ	-10.4989
ተጠንቀቁ	-10.4989
እናውቃለን	-10.4989
እናገራለሁ	-10.4989
ይሳኮር	-10.4989
ፈልገው	-10.4989
መስማት	-10.4997
በስውር	-10.4997
መሆን	-10.519
ይላቸዋል	-10.5216
ሌላቸው	-10.522
ቀለበቶች	-10.522
k	-11.3982
g	-11.5171
w	-11.5602
r	-11.6522
ፕ	-11.8083
𐋇	-11.8663
d	-11.9601
*	-12.2208
1	-12.2208
v	-12.3574
𐊼	-12.5156
"	-12.5156
l	-12.5156
𐊣	-12.5156
2	-12.7035
s	-12.7035
3	-13.2372
]	-13.2372
o	-13.2373
D	-13.3623
)	-13.6718
-	-13.6718
5	-13.6718
e	-13.6718
A	-14.1218
ፏ	-14.4355
ጧ	-14.4356
ጒ	-14.4357
ኼ	-14.4358
ኲ	-14.4359
ኟ	-14.436
ኗ	-14.4361
ቿ	-14.4362
ቷ	-14.4363
ሏ	-14.4364
4	-14.4365
0	-14.4366
ፂ	-14.4367
ዷ	-14.4368
ቊ	-14.4369
(	-14.437
ፒ	-14.4371
ፑ	-14.4372
[	-14.4373
t	-14.4374
ፓ	-14.4375
ፐ	-14.4376
ሷ	-14.4377
T	-14.4378
ኺ	-14.4379
ፔ	-14.438
ቧ	-14.4381
K	-14.4382
ጱ	-14.4383
ጰ	-14.4384
ኾ	-14.4385
ኄ	-14.4386
ፄ	-14.4387
ዡ	-14.4388
ሓ	-14.4389
ቾ	-14.439
ሢ	-14.4391
ዤ	-14.4392
ዦ	-14.4393
W	-14.4394
ጬ	-14.4395
ጺ	-14.4396
ጼ	-14.4397
ኚ	-14.4398
ኡ	-14.4399
ዢ	-14.44
ጶ	-14.4401
ዠ	-14.4402
ሼ	-14.4403
ሒ	-14.4404
ዒ	-14.4405
ዪ	-14.4406
ኆ	-14.4407
ሑ	-14.4408
ጲ	-14.4409
ጪ	-14.441
ኻ	-14.4411
ኜ	-14.4412
ፆ	-14.4413
ኽ	-14.4414
ጵ	-14.4415
ዥ	-14.4416
ሖ	-14.4417
ዣ	-14.4418
ጾ	-14.4419
ኹ	-14.442
ሤ	-14.4421
ፁ	-14.4422
ዑ	-14.4423
ዉ	-14.4424
ኀ	-14.4425
ዌ	-14.4426
ጴ	-14.4427
ጤ	-14.4428
ጩ	-14.4429
ኣ	-14.443
ዐ	-14.4431
ኰ	-14.4432
ጳ	-14.4433
ቋ	-14.4434
ኙ	-14.4435
ቺ	-14.4436
ኒ	-14.4437
ሂ	-14.4438
ፃ	-14.4439
ቲ	-14.444
ቄ	-14.4441
ሾ	-14.4442
ሹ	-14.4443
ጓ	-14.4444
ጄ	-14.4445
ጮ	-14.4446
ጹ	-14.4447
ፀ	-14.4448
ኬ	-14.4449
ዞ	-14.445
ኘ	-14.4451
ጐ	-14.4452
ሀ	-14.4453
ኦ	-14.4454
ጂ	-14.4455
ጫ	-14.4456
ኵ	-14.4457
ዖ	-14.4458
ኸ	-14.4459
ኅ	-14.446
ኳ	-14.4461
ጕ	-14.4462
ጦ	-14.4463
ፅ	-14.4464
ቂ	-14.4465
ፎ	-14.4466
ቼ	-14.4467
ጁ	-14.4468
ሦ	-14.4469
ቈ	-14.447
ጃ	-14.4471
ኮ	-14.4472
ዴ	-14.4473
ኞ	-14.4474
ጭ	-14.4475
ቦ	-14.4476
ኩ	-14.4477
ቍ	-14.4478
ጻ	-14.4479
ኪ	-14.448
ጎ	-14.4481
ዩ	-14.4482
ጨ	-14.4483
ሻ	-14.4484
ሡ	-14.4485
ሜ	-14.4486
ጢ	-14.4487
ሶ	-14.4488
ጸ	-14.4489
ሣ	-14.449
ጀ	-14.4491
ፉ	-14.4492
ቴ	-14.4493
ሸ	-14.4494
ሐ	-14.4495
ዶ	-14.4496
ሊ	-14.4497
ሃ	-14.4498
ቁ	-14.4499
ዙ	-14.45
ሬ	-14.4501
ጌ	-14.4502
ኋ	-14.4503
ቹ	-14.4504
ጽ	-14.4505
ኃ	-14.4506
ዮ	-14.4507
ጡ	-14.4508
ሽ	-14.4509
ቆ	-14.451
ዊ	-14.4511
ቻ	-14.4512
ዕ	-14.4513
ቡ	-14.4514
ዜ	-14.4515
ሪ	-14.4516
ሠ	-14.4517
ፊ	-14.4518
ኖ	-14.4519
ኢ	-14.452
ሴ	-14.4521
ጊ	-14.4522
ሮ	-14.4523
ሙ	-14.4524
ሎ	-14.4525
ሌ	-14.4526
ዎ	-14.4527
ኝ	-14.4528
ዛ	-14.4529
ጉ	-14.453
ቤ	-14.4531
ዓ	-14.4532
ዝ	-14.4533
ኤ	-14.4534
ሕ	-14.4535
ሞ	-14.4536
ቶ	-14.4537
ሥ	-14.4538
ጋ	-14.4539
ሩ	-14.454
ፈ	-14.4541
ሚ	-14.4542
ክ	-14.4543
ቅ	-14.4544
ሔ	-14.4545
ዳ	-14.4546
ዘ	-14.4547
ቀ	-14.4548
ታ	-14.4549
ወ	-14.455
@	-14.4551
b	-14.4551
m	-14.4551
u	-14.4551
ነ	-14.4551
