<pad>	0
</s>	0
<unk>	0
¦	-1.93849
▁	-2.43163
▁¦	-2.49417
ˈ	-2.67498
̈	-3.78964
𐋇	-3.99906
,	-4.03214
.	-4.34666
▁Comam	-4.52998
a	-4.54327
an	-4.55022
e	-4.62906
k	-4.67209
▁̈	-4.78008
▁naj	-4.87814
▁,	-5.00346
▁tu	-5.06425
▁ebnaj	-5.06526
▁yin	-5.11513
o	-5.11524
comam	-5.22074
j	-5.22119
c	-5.28629
naj	-5.31612
n	-5.37675
▁.	-5.42868
to	-5.43831
ti	-5.45698
▁xin	-5.48262
tu	-5.51443
yin	-5.5339
i	-5.55222
▁chi	-5.59229
▁yul	-5.59871
ni	-5.60138
ebnaj	-5.61087
▁caw	-5.62738
ch	-5.63236
ul	-5.64805
▁ha	-5.74634
chi	-5.75068
▁Dios	-5.75363
▁hune	-5.76493
▁yu	-5.78123
▁is	-5.81177
caw	-5.84558
il	-5.86604
▁tet	-5.87493
▁ti	-5.87501
ab	-5.89426
ay	-5.89585
▁anma	-5.90176
ha	-5.91064
▁yeb	-5.92834
al	-5.93267
ta	-5.94872
xin	-5.99494
xa	-5.99684
u	-6.0138
co	-6.02924
is	-6.05029
yu	-6.06252
▁tzet	-6.07477
en	-6.0941
▁ay	-6.11441
yet	-6.13687
yul	-6.14011
▁mach	-6.1461
m	-6.19082
▁―	-6.19488
in	-6.22151
▁yet	-6.23017
hune	-6.25002
▁ẍi	-6.28178
▁isc	-6.28351
:	-6.3142
p	-6.32484
yeb	-6.33846
lax	-6.34038
▁he	-6.34435
on	-6.35979
te	-6.36112
anma	-6.37031
tet	-6.37184
tz	-6.37771
ˈ,	-6.38616
dios	-6.39848
ek	-6.40143
ob	-6.4027
cano	-6.41745
h	-6.41798
tzet	-6.41818
he	-6.42948
▁haca	-6.43073
wal	-6.4323
paxo	-6.44938
▁Ha	-6.44964
can	-6.45334
han	-6.48806
s	-6.49004
oj	-6.49239
no	-6.50511
wi	-6.5122
lo	-6.54443
▁ch	-6.55515
ya	-6.56434
w	-6.59534
mach	-6.60305
▁mac	-6.60374
we	-6.61959
▁ta	-6.62309
isc	-6.62834
bal	-6.62906
yiban	-6.65296
▁c	-6.66856
r	-6.67289
▁ya	-6.67522
inal	-6.71007
bil	-6.72374
▁tato	-6.73748
▁isk	-6.74572
mac	-6.74909
ye	-6.75427
ulal	-6.76404
▁con	-6.77265
l	-6.77458
▁yuto	-6.77615
tx	-6.79299
▁sunil	-6.79974
ah	-6.81636
ẍi	-6.81833
▁isba	-6.84891
▁ye	-6.85209
tic	-6.85422
▁cat	-6.85904
na	-6.8598
oc	-6.8616
el	-6.86485
y	-6.86639
▁ix	-6.86693
ilo	-6.88189
t	-6.88947
haca	-6.89576
▁sat	-6.91589
ix	-6.92525
yalni	-6.92768
▁hunu	-6.92843
▁Wal	-6.93716
▁hunt	-6.94819
▁:	-6.95072
▁chu	-6.9611
watx	-6.96158
▁tx	-6.96631
?	-6.98584
▁bey	-6.98977
▁che	-7.00307
▁chal	-7.00462
cha	-7.01383
▁yalni	-7.01865
b	-7.02611
sat	-7.02665
sunil	-7.04139
ojab	-7.04717
ba	-7.05154
om	-7.06126
ic	-7.06153
▁co	-7.06271
▁Jesús	-7.07521
▁bay	-7.08061
tzoti	-7.1003
▁tz	-7.10101
la	-7.10286
con	-7.11396
ec	-7.11806
d	-7.12029
yuto	-7.12092
yaj	-7.12211
tato	-7.14893
isk	-7.16117
ojan	-7.16208
▁in	-7.18634
▁te	-7.1907
ca	-7.20696
▁yaj	-7.21564
▁cha	-7.21766
hac	-7.22531
▁Jesucristo	-7.23688
bey	-7.24156
▁Caw	-7.25071
che	-7.27228
ayo	-7.28275
”	-7.29813
ma	-7.30513
▁yuxin	-7.31167
wa	-7.31906
▁Is	-7.32201
yuxin	-7.327
▁Yaj	-7.32847
yil	-7.33475
▁hac	-7.33969
otx	-7.3547
▁machi	-7.37205
ayic	-7.37708
isba	-7.38803
chal	-7.38837
▁ayco	-7.39087
tinan	-7.39415
cat	-7.39752
▁teyet	-7.40236
cam	-7.4026
▁Hac	-7.42798
▁xol	-7.43115
hunt	-7.43194
iswatx	-7.43293
tajil	-7.43354
wet	-7.43388
ojal	-7.43415
ˈ:	-7.43658
ho	-7.44066
chu	-7.44234
▁wal	-7.44979
wan	-7.45057
▁Israel	-7.46219
;	-7.46826
hunu	-7.47931
atan	-7.48169
lahwi	-7.48845
mam	-7.48849
bay	-7.49566
▁Yuxin	-7.49818
hul	-7.50384
▁chin	-7.51071
▁yal	-7.51373
▁yanma	-7.51648
pax	-7.55711
ico	-7.56033
apni	-7.56179
▁no	-7.5619
mi	-7.5621
▁Lahwi	-7.57377
xan	-7.57558
▁yoc	-7.57814
munil	-7.59036
ap	-7.59598
yal	-7.59943
ej	-7.60513
aj	-7.60744
▁yun	-7.60965
▁yip	-7.61342
▁istx	-7.61784
yi	-7.63042
inan	-7.63092
▁ischejab	-7.63111
yo	-7.63472
taj	-7.63769
xol	-7.63976
hal	-7.64253
tojan	-7.64437
▁hex	-7.64993
▁Y	-7.65926
le	-7.66523
H	-7.66557
ban	-7.68842
xahan	-7.70348
hayet	-7.70449
ayto	-7.72452
un	-7.72742
satcan	-7.72952
▁Yalni	-7.73583
tan	-7.73731
lan	-7.73789
▁Yet	-7.75581
jesús	-7.76513
yute	-7.76595
um	-7.76627
▁A	-7.76928
▁ma	-7.76999
quex	-7.77219
ahol	-7.77517
eb	-7.77677
bi	-7.78227
yoc	-7.78411
hex	-7.78936
yalan	-7.80984
machi	-7.81115
howal	-7.82047
me	-7.83332
chon	-7.83871
▁cam	-7.84023
anil	-7.84531
▁chex	-7.85002
tzotel	-7.85266
▁―¿	-7.85582
ibn	-7.85808
!	-7.87918
▁yi	-7.89356
‐	-7.89507
▁isya	-7.90066
▁niman	-7.90623
yohta	-7.91199
ac	-7.91818
▁hun	-7.92208
▁iswi	-7.9246
esucristo	-7.93037
▁matxa	-7.93305
ayco	-7.93691
yah	-7.95506
li	-7.95609
teyet	-7.95999
▁hunun	-7.96474
chiwa	-7.97031
chin	-7.97036
ayxaco	-7.97306
yel	-7.97772
tzala	-7.98456
niman	-7.99994
ángel	-8.00496
▁Pablo	-8.00794
▁Ay	-8.01238
▁yelapno	-8.01351
▁istz	-8.01385
as	-8.01483
▁yatut	-8.01528
sa	-8.02367
iloj	-8.02618
yip	-8.02839
▁heyanma	-8.0286
ro	-8.03011
▁chis	-8.03152
chahni	-8.03867
▁heba	-8.03924
▁ebix	-8.04302
nich	-8.04573
istx	-8.04637
yanico	-8.04703
▁ton	-8.04795
▁juẍta	-8.0497
yanma	-8.06238
▁yilal	-8.06844
▁han	-8.07282
amben	-8.0734
israel	-8.08073
▁?	-8.08084
Ha	-8.09831
win	-8.10941
▁Ma	-8.11032
q	-8.11213
istan	-8.12276
▁C	-8.13097
▁texol	-8.1419
yun	-8.14216
▁yehi	-8.14313
g	-8.14543
▁lan	-8.14744
▁ixim	-8.1515
▁yilni	-8.15734
▁jet	-8.16203
hanin	-8.16225
am	-8.16353
ule	-8.17005
E	-8.18031
ischejab	-8.18343
saj	-8.18555
ip	-8.18562
▁ec	-8.18698
hun	-8.19053
▁maca	-8.19192
colwa	-8.19193
anmahil	-8.20768
yahaw	-8.21075
▁icham	-8.21193
waxan	-8.21515
▁isto	-8.21647
▁sata	-8.21917
▁yapni	-8.22002
obal	-8.22237
▁Yuto	-8.22353
camical	-8.22386
yehi	-8.23175
▁Ta	-8.24181
▁yahawil	-8.24596
lah	-8.24625
▁chiwalan	-8.24861
chiyij	-8.25031
anxa	-8.25492
man	-8.26084
▁isbi	-8.2616
nilo	-8.26181
nico	-8.26345
▁iscuywom	-8.2685
sacerdote	-8.26934
maẍtaj	-8.26987
haxinwal	-8.27171
tiempo	-8.27468
ilni	-8.27566
xiw	-8.2846
▁maẍto	-8.28888
▁Espíritu	-8.28893
colbanil	-8.29293
isnimanil	-8.29298
yabe	-8.29603
▁win	-8.29911
anico	-8.30119
haxa	-8.30419
▁teyin	-8.30758
maẍt	-8.3089
▁yaben	-8.31333
▁Haxa	-8.3187
▁Pedro	-8.32109
▁Moisés	-8.32519
yilni	-8.32701
isley	-8.32731
ehan	-8.32809
isnabal	-8.33565
yoche	-8.33715
ischah	-8.33916
▁wetan	-8.33997
▁yinta	-8.34153
Mach	-8.34332
munla	-8.34617
rey	-8.34912
nican	-8.35065
lin	-8.35112
▁chij	-8.3538
▁cuybanile	-8.35756
hunelxa	-8.35912
▁Ista	-8.36342
uy	-8.36733
▁matzwalil	-8.37766
matxa	-8.37811
wuhan	-8.38001
▁chico	-8.3839
espíritu	-8.38434
chex	-8.38501
▁wa	-8.39034
istz	-8.40014
▁choche	-8.40337
▁hec	-8.40948
isya	-8.41065
isma	-8.4107
z	-8.41342
cach	-8.41672
ley	-8.42062
▁chia	-8.42493
isyelal	-8.42894
ehal	-8.43272
▁janma	-8.43707
Tzet	-8.43798
yije	-8.44246
f	-8.44489
▁ismajul	-8.44585
▁xa	-8.44594
▁T	-8.44866
▁ismul	-8.45059
▁lahan	-8.45441
elico	-8.45493
▁jin	-8.45791
paxojan	-8.45838
▁Santo	-8.46121
yaco	-8.47169
iswi	-8.47345
xahanbal	-8.47832
▁Juan	-8.48019
isyije	-8.48088
▁yel	-8.48188
txumni	-8.48237
hunun	-8.48416
yuxinto	-8.48766
▁Yin	-8.4892
yelapno	-8.49078
▁yeli	-8.49544
chejbanil	-8.49722
ton	-8.5
wuẍtaj	-8.50935
yatut	-8.51494
ayc	-8.52037
▁Chi	-8.5205
payat	-8.52677
yayto	-8.53311
cuywawom	-8.53432
quin	-8.5345
sata	-8.53574
▁Ya	-8.53775
▁Hune	-8.5394
nihan	-8.54068
ayical	-8.54274
▁cheya	-8.5541
tom	-8.55422
potx	-8.55573
ẍiayoj	-8.55799
yahawil	-8.55818
▁yebpaxo	-8.56253
tohol	-8.56585
heba	-8.56717
▁yuninal	-8.56734
ohtan	-8.56788
at	-8.56788
ebix	-8.5686
nipaxo	-8.56913
▁Ch	-8.56944
yilal	-8.57258
ib	-8.57505
▁ja	-8.58238
heyanma	-8.58483
tzettaj	-8.58945
isyeni	-8.59128
▁quin	-8.5973
juẍta	-8.5986
yaben	-8.60128
▁babel	-8.60302
itz	-8.60932
itzitzbican	-8.61321
icham	-8.6144
ixim	-8.61459
▁yechel	-8.6201
preso	-8.62145
uil	-8.62671
bel	-8.62747
ispa	-8.62774
txahli	-8.62986
laxi	-8.63542
isto	-8.63608
ablo	-8.63762
barco	-8.63857
▁Yalnipaxo	-8.63924
▁xil	-8.64095
Mamin	-8.64211
tiempohal	-8.64239
▁heyu	-8.6439
bilxa	-8.64711
▁isti	-8.66071
lahan	-8.66131
beh	-8.66144
▁oc	-8.66312
▁Jerusalén	-8.66371
▁chioc	-8.66858
yapni	-8.67011
A	-8.67369
hawil	-8.67369
▁chiswatx	-8.67767
fariseo	-8.68113
▁Yu	-8.68482
ista	-8.68647
ebilcano	-8.68727
jet	-8.68984
▁inc	-8.6955
chiwalan	-8.6969
texol	-8.69733
wanmahan	-8.69888
ayon	-8.70126
icojan	-8.70419
oji	-8.70535
Y	-8.70616
melyu	-8.70787
aben	-8.70837
chejab	-8.70914
hallax	-8.71077
chitit	-8.71443
aypaxo	-8.71905
wah	-8.72098
islah	-8.72478
cheyal	-8.72576
ías	-8.72608
I	-8.72876
Mac	-8.7326
▁macta	-8.73415
hanic	-8.73423
▁Cristo	-8.73528
tzujan	-8.73533
meltzo	-8.73536
▁Na	-8.74008
isbej	-8.74163
▁chiyu	-8.74231
culus	-8.754
Tom	-8.76839
▁Isc	-8.77215
mar	-8.77348
L	-8.786
matzet	-8.7936
hawu	-8.79907
isbi	-8.80068
canojan	-8.80356
way	-8.80457
paxto	-8.81117
Caw	-8.81282
len	-8.82251
iscuywom	-8.82389
maẍto	-8.82498
▁Yum	-8.82958
sic	-8.83215
chitan	-8.83797
soldado	-8.84287
chihalni	-8.84504
johta	-8.84623
í	-8.85244
tzalahilal	-8.86023
▁nan	-8.86291
yixal	-8.86411
wute	-8.86853
▁istzotel	-8.86896
conimanil	-8.8744
sunilbal	-8.87519
aybal	-8.87674
istoholal	-8.89236
cancano	-8.89337
helan	-8.89355
machoj	-8.89655
yawte	-8.90708
itzitz	-8.90766
yuninal	-8.90775
▁Jahawil	-8.91051
T	-8.91185
cuybanile	-8.91743
chisje	-8.91912
▁Inmaman	-8.92535
▁Sunil	-8.93286
matzwalil	-8.93315
tzen	-8.93481
yijem	-8.93879
jichmam	-8.94042
selel	-8.94045
walxinto	-8.9447
choche	-8.94576
tijan	-8.95373
yalnipaxo	-8.95681
tzujno	-8.96346
edro	-8.96737
bilintijan	-8.97517
txumcha	-8.9755
ambe	-8.98001
chijal	-8.98532
imón	-8.98703
hantan	-8.99078
tocanoj	-8.99943
walnihan	-8.99989
ismajul	-9.00143
ismul	-9.00153
istiempohal	-9.00607
jahaw	-9.01712
oisés	-9.01935
carta	-9.02351
wabe	-9.02496
taxca	-9.03592
babel	-9.05756
intohan	-9.07339
ishelanil	-9.07431
inbahan	-9.07432
K	-9.08732
cuywa	-9.09251
W	-9.09335
N	-9.09815
nahat	-9.10151
juan	-9.10184
chawal	-9.10322
ocnico	-9.10739
santo	-9.1108
paxico	-9.11301
M	-9.11352
janab	-9.11565
iscutxba	-9.12313
▁Abraham	-9.12334
yichico	-9.12338
yijni	-9.13318
ischej	-9.13918
yechel	-9.14869
ixnam	-9.15585
C	-9.15869
machiswalil	-9.16975
wintajan	-9.16986
Wal	-9.17206
masanto	-9.17393
ispi	-9.18099
xewilal	-9.18417
jalni	-9.18438
mohyi	-9.18702
cablahon	-9.18903
▁Tzot	-9.19926
Mam	-9.20764
andiosal	-9.21413
apno	-9.2178
majan	-9.23341
hin	-9.24237
▁lek	-9.25504
hawalni	-9.27418
ischuquil	-9.27538
munlawom	-9.27538
hawanma	-9.27618
issay	-9.28044
Machoj	-9.28534
wohtajan	-9.28622
hitzico	-9.28937
abxubal	-9.29142
cheya	-9.29363
yinito	-9.2948
isbeybal	-9.30982
chejn	-9.31159
trigo	-9.3243
iscol	-9.32864
colcha	-9.33137
erusalén	-9.3583
ispoh	-9.36991
huneln	-9.37167
alaxico	-9.37389
yichamil	-9.37577
jahno	-9.37632
▁ayicto	-9.38455
chabe	-9.39316
comon	-9.39425
heyohtaj	-9.40391
cristo	-9.41159
comul	-9.43134
wilnihan	-9.44245
hiq	-9.44583
Tz	-9.44726
oxeb	-9.44872
trato	-9.44872
henabal	-9.44901
▁Waxa	-9.46798
O	-9.65079
’	-11.3574
ñ	-11.6496
U	-11.6497
Q	-11.6498
(	-11.6499
‘	-11.65
Z	-11.6501
X	-11.6502
R	-11.6503
F	-11.6504
G	-11.6505
B	-11.6506
¡	-11.6507
v	-11.6508
ó	-11.6509
á	-11.651
“	-11.6511
S	-11.6512
P	-11.6513
é	-11.6514
¿	-11.6515
ú	-11.6516
―	-11.6517
J	-11.6518
D	-11.6519
ẍ	-11.652
)	-11.6521
x	-11.6521
