<pad>	0
</s>	0
<unk>	0
¦	-1.32353
▁¦	-1.32466
ም	-3.47486
▁።	-3.82117
▁፥	-3.99965
▁፤	-4.50974
ና	-4.76441
ን	-4.76796
በ	-4.81823
የ	-4.85572
ከ	-5.33451
ወደ	-5.43382
ሁሉ	-5.4698
ለ	-5.6658
ይ	-5.6846
ት	-5.73655
እግዚአብሔር	-5.81452
እንደ	-5.85872
ዘንድ	-5.92919
ላይ	-5.9561
ነው	-5.99773
አ	-6.07241
ንም	-6.11747
▁?	-6.14062
ግን	-6.16181
ው	-6.18367
ስ	-6.26175
ጊዜ	-6.28371
ህ	-6.34645
ል	-6.39412
ነገር	-6.40155
ጋር	-6.4587
ስለ	-6.4592
እርሱ	-6.46203
ተ	-6.46593
ልጆች	-6.4789
እኔ	-6.52348
ልጅ	-6.54064
ነበር	-6.55329
ሰው	-6.59798
እንዲህ	-6.67305
ያ	-6.78519
ሆ	-6.82571
ቤት	-6.88565
ቀን	-6.89874
የሚ	-6.90399
ፊት	-6.92903
እ	-6.93265
አለ	-6.95495
ደግሞ	-6.95937
ች	-7.01635
ቃል	-7.03734
አል	-7.03826
እነሆ	-7.04824
በት	-7.04981
አንተ	-7.06167
ነበረ	-7.07342
ሰዎች	-7.07679
ሉ	-7.09523
እን	-7.11126
አለው	-7.124
ውን	-7.14343
መ	-7.14754
ይህ	-7.16724
ድረስ	-7.17386
ንጉሥ	-7.17601
ዋ	-7.19567
አንድ	-7.20925
ምድር	-7.21733
ታ	-7.21814
ኝ	-7.22522
ሽ	-7.26871
አት	-7.27226
እስከ	-7.27699
ወይ	-7.28757
ሆነ	-7.2891
በዚያ	-7.29301
በእግዚአብሔር	-7.30697
ውስጥ	-7.31185
ብ	-7.3408
ቢ	-7.35311
ይላል	-7.35531
ር	-7.36033
ጌታ	-7.38321
ሲ	-7.38645
እናንተ	-7.39181
ብሎ	-7.3973
ሰ	-7.43207
እነርሱ	-7.43551
ባ	-7.44215
በኋላ	-7.45043
ይህን	-7.45102
ንና	-7.4646
ናቸው	-7.46715
የእግዚአብሔር	-7.47125
ስለዚህ	-7.49125
ደ	-7.51115
አምላክ	-7.52247
አይ	-7.53789
መካከል	-7.53929
ሊ	-7.55196
እጅ	-7.553
ዓመት	-7.59257
ገ	-7.61056
ነበሩ	-7.63262
ሕዝብ	-7.63565
ድ	-7.64755
እንዲ	-7.65379
የእስራኤል	-7.65994
ሁለት	-7.66445
ይሆናል	-7.68161
ከእርሱ	-7.6909
እንዲሁ	-7.6938
ሁ	-7.69491
ኢየሱስ	-7.72267
አሁን	-7.72446
ቤቱ	-7.72744
እግዚአብሔርን	-7.73743
ፍ	-7.73958
ንጉሡ	-7.7504
ራ	-7.77177
ላችሁ	-7.77551
ሳ	-7.77889
መጣ	-7.78095
ጂ	-7.79635
መቶ	-7.79695
ቅ	-7.79856
ህን	-7.80126
አላቸው	-7.80183
መሥዋዕት	-7.80897
ነ	-7.80994
ወጣ	-7.82853
ዳዊት	-7.82854
ማ	-7.83964
ማን	-7.84342
ጥ	-7.84744
ከፍ	-7.85082
ደስ	-7.86372
ውም	-7.86714
ስፍራ	-7.87596
ብዙ	-7.87626
ለእግዚአብሔር	-7.88585
የተ	-7.88902
ግ	-7.90919
ላ	-7.91134
ቀ	-7.91888
የእግዚአብሔርን	-7.92168
ኑ	-7.93089
እጅግ	-7.94083
ጠ	-7.94304
ዎች	-7.95485
ሥራ	-7.95992
በምድር	-7.96793
እነዚህ	-7.96959
ትን	-7.97963
ካ	-7.9957
ምን	-8.00878
ሺህ	-8.01359
ከተማ	-8.02707
ለት	-8.03421
ፈ	-8.03656
መንገድ	-8.04206
ላቸው	-8.04674
አስ	-8.04752
ክ	-8.04774
በዚህ	-8.0494
ያለ	-8.051
በእስራኤል	-8.05112
መልካም	-8.06452
እንዳ	-8.07195
አላ	-8.07491
ችሁ	-8.07819
ረ	-8.07874
ክፉ	-8.08009
አለቆች	-8.08245
ዘመን	-8.08644
ሙሴ	-8.0878
ቸው	-8.09953
ህም	-8.10055
ነኝ	-8.10532
አገር	-8.11096
ከዚያ	-8.11283
በእርሱ	-8.11358
አቸው	-8.12927
ዛሬ	-8.15435
ውኃ	-8.1645
አይደለም	-8.16999
ታል	-8.17848
ከእነርሱ	-8.19616
ለሁ	-8.19712
ሕዝቡ	-8.20328
ዳ	-8.20695
እኛ	-8.21661
ዘ	-8.21831
ባቸው	-8.21899
ይሁን	-8.22639
ወገን	-8.22944
ታላቅ	-8.22955
እስራኤል	-8.24284
አደረገ	-8.24814
አሳ	-8.25018
ለዘላለም	-8.25814
አለቃ	-8.26224
ስም	-8.2626
ዋል	-8.26685
በዳ	-8.27289
ሰባት	-8.27376
ቱ	-8.27735
ሴት	-8.29002
እየ	-8.30322
ጀምሮ	-8.30825
ወር	-8.31642
እርስዋ	-8.31654
ጣ	-8.32762
ሃል	-8.32851
እንደሚ	-8.33023
መንፈስ	-8.33188
ገባ	-8.33226
የምት	-8.33313
ፋ	-8.33335
ሦስት	-8.33504
እንግዲህ	-8.34049
አሉ	-8.34226
ክርስቶስ	-8.36119
ድምፅ	-8.36439
በኢየሩሳሌም	-8.36734
ኃጢአት	-8.3675
ከእኔ	-8.36976
አሕዛብ	-8.38343
ጋ	-8.39053
ሴቶች	-8.3909
ሠራ	-8.39163
ምድረ	-8.39872
ሌላ	-8.40721
እንጀራ	-8.41209
ከተሞች	-8.41229
ልብ	-8.41233
የለም	-8.42012
ሄደ	-8.42126
ባል	-8.42654
ክንድ	-8.42976
ሮ	-8.43365
ማንም	-8.43687
ባት	-8.44042
አጠገብ	-8.44455
ይልቅ	-8.44787
ገና	-8.46014
ወ	-8.46612
ያለውን	-8.46838
በሚ	-8.47199
ብለው	-8.47222
ባለ	-8.47417
አሥራ	-8.47756
እንዴት	-8.47788
አምስት	-8.47791
በታች	-8.48088
እንዳይ	-8.48339
ልኝ	-8.49246
ሪ	-8.49262
ወጡ	-8.49621
መጡ	-8.49687
ከአንተ	-8.49781
ዝ	-8.50775
ዋን	-8.50824
በኩል	-8.51633
አሉት	-8.51997
ዓ	-8.52143
ቍርባን	-8.54478
የተነሣ	-8.54762
ጨ	-8.54815
ክብር	-8.5604
ቢሆን	-8.56175
ደቀ	-8.56193
የሚያ	-8.5632
ከዚህ	-8.57024
ካህኑ	-8.57083
በር	-8.57878
ዬ	-8.58111
ከእግዚአብሔር	-8.58222
አንዱ	-8.58296
ተራራ	-8.58758
ከእስራኤል	-8.59189
ለሚ	-8.59836
ነገሥታት	-8.59894
ነገድ	-8.60629
ማል	-8.61471
ከእናንተ	-8.61509
የሆነ	-8.61915
ናት	-8.6216
ሆኑ	-8.63087
ሩ	-8.63398
ቅዱስ	-8.63435
ሙሴን	-8.64287
አራት	-8.65307
የሰው	-8.65862
ስሙ	-8.66146
ደም	-8.66251
ዕቃ	-8.66392
ቆ	-8.66486
ሄዱ	-8.66505
ለእስራኤል	-8.66511
ሆኖ	-8.66722
ሞ	-8.66802
ሃለሁ	-8.66817
ዱ	-8.67195
ቃ	-8.67398
ሱ	-8.67503
ብት	-8.6764
ተው	-8.67822
ቶ	-8.67984
ኛል	-8.68027
በይሁዳ	-8.6814
እስኪ	-8.69138
ራስ	-8.69163
ሀያ	-8.69613
▁!	-8.69756
ኢየሩሳሌም	-8.70028
ሕግ	-8.70117
እውነት	-8.70305
ሥጋ	-8.70326
ሞት	-8.70492
ሽን	-8.71124
ሰማ	-8.71515
በው	-8.71595
ለህ	-8.72239
ፉ	-8.72783
ዛ	-8.72816
ብቻ	-8.73505
ወለደ	-8.73869
ያለው	-8.74057
ከሚ	-8.7417
በእኔ	-8.7535
ፍሬ	-8.75735
ብር	-8.75758
የሠራዊት	-8.75767
በዚያን	-8.75842
ልብስ	-8.7689
ጭ	-8.77542
ቡ	-8.77757
ሸ	-8.77786
ልጁ	-8.78268
ፍርድ	-8.78512
ሙ	-8.7857
እሳት	-8.79504
ሬ	-8.79889
ድንኳን	-8.80272
ብኝ	-8.80659
አውራ	-8.81039
ለች	-8.81168
የማ	-8.81383
ባሕር	-8.81569
ያል	-8.81884
ነህ	-8.81938
ኪዳን	-8.81993
ላት	-8.81999
ትእዛዝ	-8.82553
ምንድር	-8.83345
ኤል	-8.83509
ሳኦል	-8.83954
ኖ	-8.84773
ለመ	-8.84797
ጡ	-8.84955
ሞተ	-8.8518
ቤተ	-8.85401
ይሆን	-8.85892
ይሁዳ	-8.86598
ቸዋል	-8.86874
መንግሥት	-8.87436
ለምን	-8.87534
ትም	-8.87624
የእስራኤልን	-8.8782
ተናገረ	-8.8792
አፍ	-8.87998
መልሶ	-8.88101
በእውነት	-8.88288
ቹ	-8.88405
በተ	-8.8851
ዋለሁ	-8.8909
ለን	-8.894
ቁ	-8.89443
ኢያሱ	-8.89583
አምላክህ	-8.89836
ሁለቱ	-8.90141
ሳይ	-8.90452
ስድስት	-8.91087
ርስት	-8.91152
ገቡ	-8.91701
ባለው	-8.91972
ሎ	-8.92113
አደረጉ	-8.92505
ነገሠ	-8.93152
ወንድ	-8.9325
ሰሎሞን	-8.9356
በሉ	-8.93633
ጉ	-8.9409
ያስ	-8.94205
ተስፋ	-8.94578
ሚስት	-8.95126
ሻ	-8.95342
ጫ	-8.9539
አድርጎ	-8.95724
ጽ	-8.95791
ሕዝቡን	-8.95802
ቸዋለሁ	-8.96621
ሆንሁ	-8.9708
አለኝ	-8.97093
ጎ	-8.97344
ድንጋይ	-8.97374
በእሳት	-8.97388
በሕይወት	-8.97565
ዘር	-8.97851
በፊቱ	-8.98063
ሚ	-8.98134
ልህ	-8.98249
ናል	-8.98417
አማልክት	-8.9846
ቴ	-8.98506
ለው	-8.98527
በቀር	-8.98983
ተነሣ	-8.99283
አንቺ	-8.99756
በእናንተ	-8.99831
መታ	-8.99866
በላ	-9.00023
ሠላሳ	-9.00528
የማይ	-9.00947
ነፍስ	-9.01028
ወርቅ	-9.01238
ጠጅ	-9.01593
አታ	-9.01732
ሌ	-9.01797
አባት	-9.01882
በል	-9.0211
እንኳ	-9.02181
ባሪያዎች	-9.02361
ተኛ	-9.02724
ዛፍ	-9.0278
ወንድሞች	-9.02819
ሰይፍ	-9.02822
ብርሃን	-9.03174
እርስ	-9.03183
እንድት	-9.03271
በግ	-9.04337
በጎች	-9.04943
የወይን	-9.05283
ዳርቻ	-9.0553
ነት	-9.05724
በአንተ	-9.06241
መሠዊያ	-9.0628
ሆነው	-9.06475
ባሪያ	-9.06538
ቦ	-9.06659
ጐ	-9.06896
አምሳ	-9.06998
ቤቶች	-9.07006
ሳለ	-9.07273
ሂድ	-9.07305
ሕያው	-9.07307
ወንዶች	-9.07433
የይሁዳ	-9.07726
ያን	-9.07768
መጽሐፍ	-9.07867
ያዕቆብ	-9.08002
እንዳለ	-9.08683
በአንድ	-9.08782
እና	-9.08883
ሶ	-9.10108
ልን	-9.10112
ለአንተ	-9.1016
ሽማግሌዎች	-9.10403
ተናገረው	-9.10547
ፈራ	-9.10842
ጌ	-9.11357
እንጨት	-9.11559
ቍጣ	-9.11613
አልና	-9.11753
እያንዳንዱ	-9.11796
ይዞ	-9.11818
አብ	-9.12271
አምላኬ	-9.12731
ጥቂት	-9.1283
አሥር	-9.12907
ልፎ	-9.1317
ሴ	-9.13474
ችኋል	-9.13579
ሐ	-9.13636
ካህናቱ	-9.13836
ታችሁ	-9.13886
ይሆናሉ	-9.13918
ችኋለሁ	-9.13959
ሌሊት	-9.14313
ጠፋ	-9.14428
ጠራ	-9.1448
ሁልጊዜ	-9.14518
እንዲሆን	-9.14563
ጌታዬ	-9.14888
መዛሙርቱ	-9.15354
ብን	-9.15412
ካህናት	-9.15677
አርባ	-9.15758
ሰጣቸው	-9.16138
አድርግ	-9.16336
በመ	-9.16513
ላከ	-9.16574
መከራ	-9.1713
በሰይፍ	-9.17254
አን	-9.17638
ብላ	-9.18125
ችን	-9.18464
ችው	-9.1854
ዮሴፍ	-9.18964
መቅደስ	-9.1927
ሜ	-9.19307
ምርኮ	-9.19443
ዙሪያ	-9.19456
ይመጣል	-9.19498
እንድ	-9.19693
ናችሁ	-9.19737
እርሱን	-9.2022
ቸውን	-9.2027
በፊትህ	-9.20287
ለእኔ	-9.20555
ሥርዓት	-9.20664
በትን	-9.20703
ወዲህ	-9.20711
ጻድቅ	-9.20711
ንጹሕ	-9.21352
ልጄ	-9.21466
ሕይወት	-9.21633
ቈ	-9.21874
ከንቱ	-9.21886
እጁን	-9.21895
ሠራዊት	-9.21908
ተቀመጠ	-9.21922
ምልክት	-9.22008
ገዛ	-9.2209
ቸውም	-9.22205
መለሰ	-9.22384
ድል	-9.22432
ዩ	-9.22456
ዋጋ	-9.22497
ከሰማይ	-9.22513
ዓለም	-9.22553
አሮን	-9.22561
ነበረች	-9.22608
ወራት	-9.22828
ያደርግ	-9.22847
ነፋስ	-9.22908
መልአክ	-9.233
እንዳት	-9.23749
ዓይን	-9.2383
ናገር	-9.23992
መጠን	-9.24166
ለእርሱ	-9.24177
አይሁድ	-9.24179
ሰላም	-9.24467
ፋንታ	-9.24618
ኃይል	-9.24817
በንጉሡ	-9.24854
ቻቸው	-9.25305
ሰብ	-9.25466
ሰማይ	-9.25519
አየሁ	-9.25552
ዝም	-9.26186
ሆን	-9.26194
ትንቢት	-9.26214
ቤ	-9.26262
ከምድር	-9.26285
ሰባ	-9.26464
ጸ	-9.26733
ሰጠ	-9.27302
ቱን	-9.27308
ታቦት	-9.27314
ተቀመጡ	-9.27319
ዕ	-9.27719
ዘይት	-9.27884
አምላካችን	-9.28205
መጥቶ	-9.28248
መር	-9.28252
ብዛት	-9.28689
እስራኤልን	-9.28721
በእነርሱ	-9.28917
ቶች	-9.28941
መሰ	-9.29024
ጠጣ	-9.29158
ኩ	-9.29303
ርኩስ	-9.29422
ወረደ	-9.29551
ክፋት	-9.29611
እንዳል	-9.29823
ኸው	-9.30058
ሽም	-9.30624
ቼ	-9.31382
ፈጽሞ	-9.31496
ነገ	-9.31774
ቀኝ	-9.32084
አንዳች	-9.32331
ለእናንተ	-9.32425
ስማ	-9.32787
ሰጠው	-9.32849
ከእኛ	-9.32946
የምድር	-9.33403
ጴጥሮስ	-9.33506
ፊ	-9.33638
ትውልድ	-9.33654
አስቀድሞ	-9.33673
ራሱን	-9.33732
ቅን	-9.33791
ብዬ	-9.33791
በሰማይ	-9.33995
ከእንግዲህ	-9.34232
ማር	-9.34285
ያህል	-9.34301
ወስዶ	-9.34386
ፈሩ	-9.3449
በጎ	-9.34497
ፀሐይ	-9.34632
ኛ	-9.34663
ምንም	-9.3496
እላችኋለሁ	-9.35155
ታቸው	-9.35233
ዶ	-9.35692
ልት	-9.35755
ጦ	-9.35856
ሰቅል	-9.35883
ሻል	-9.35965
አብርሃም	-9.36043
ሕ	-9.36198
ሰሙ	-9.36317
ብለህ	-9.36431
በአሕዛብ	-9.36492
ዘረጋ	-9.36625
ሰጥ	-9.36964
እያ	-9.37058
እኔን	-9.3747
በግብፅ	-9.3772
ጥበብ	-9.37755
ምሳሌ	-9.37976
ምስክር	-9.38071
ሕዝቅያስ	-9.38116
ከተ	-9.38789
በታላቅ	-9.3879
እንደዚህ	-9.38879
ባችሁ	-9.38906
ወዴት	-9.39162
ጳውሎስ	-9.39171
ጽድቅ	-9.39213
ተመለሱ	-9.3924
ንኳ	-9.39286
ጆሮ	-9.39426
በደል	-9.39519
ሃ	-9.39736
አባቱ	-9.39782
በእጁ	-9.40008
በላይ	-9.40326
ዳር	-9.40355
አደባባይ	-9.40413
ኒ	-9.4042
ጸጋ	-9.40497
የወርቅ	-9.40794
አልሁ	-9.41088
አልነበረም	-9.41238
እነዚህን	-9.41267
ያደርጋል	-9.4127
ይህች	-9.41411
የነበረውን	-9.41417
ሄድ	-9.41953
ምክንያት	-9.41992
እንስሳ	-9.41996
ስት	-9.42043
አለች	-9.42069
ኮ	-9.42111
ኤርምያስ	-9.42255
ታለሁ	-9.42272
ኋቸው	-9.42393
እርሻ	-9.42435
ሰልፍ	-9.42438
ለማ	-9.42577
ስላ	-9.42634
ኢዮአብ	-9.43467
ወንዝ	-9.43578
መጥተው	-9.43592
ከቶ	-9.43633
ነፍሴ	-9.43905
ወጥቶ	-9.43987
ዮ	-9.44095
ባሪያህ	-9.44375
ክፍል	-9.44393
ዮናታን	-9.44408
አምላካችሁ	-9.44555
ኖር	-9.44559
ጉባኤ	-9.44819
ወሰደ	-9.44916
ቀር	-9.45031
ልጆቹ	-9.45032
ሸለቆ	-9.45067
በታል	-9.45615
ነሣ	-9.45756
ሳሙኤል	-9.45758
ነበረው	-9.46013
መለከት	-9.46055
ሠሩ	-9.46174
ኸኝ	-9.46188
ዋለህ	-9.46619
ውጭ	-9.46648
ኤ	-9.46967
አየ	-9.47004
ሣ	-9.47247
ነቢያት	-9.4757
ቍጥር	-9.47687
በእርስዋ	-9.47718
ይቅር	-9.47901
ከግብፅ	-9.47926
ባድማ	-9.48525
ይኖራል	-9.48525
ዲ	-9.48526
አደርጋለሁ	-9.48533
ደስታ	-9.48538
ሁለተኛው	-9.48652
በትም	-9.48965
ይዘው	-9.49111
አንዲት	-9.49372
በማ	-9.49378
በመንገድ	-9.49387
የሆነውን	-9.49475
አያ	-9.49646
ላል	-9.49919
ወገኖች	-9.50229
ብህ	-9.50521
ያደርጉ	-9.50815
ተነሥቶ	-9.50918
ተናገር	-9.51361
ሰፈሩ	-9.51657
አንበሳ	-9.5196
ጥፋት	-9.51969
ቆሙ	-9.52206
ምስጋና	-9.523
በየ	-9.52497
ሥ	-9.52547
ቅዱሳን	-9.5255
በክርስቶስ	-9.52759
ጕድጓድ	-9.52836
አሳብ	-9.53067
ጨለማ	-9.53384
በዛ	-9.53559
በድ	-9.53605
መስፈሪያ	-9.5372
ቆሞ	-9.53762
ሞቱ	-9.53852
ፈርዖን	-9.5401
በሌሊት	-9.54023
በመሠዊያው	-9.54036
መብል	-9.54544
ተብሎ	-9.54585
በአንድነት	-9.54634
ሹ	-9.54871
ዮሐንስ	-9.54984
ቱም	-9.55095
ዎቹ	-9.55203
ፈር	-9.55231
ልዩ	-9.55324
ገንዘብ	-9.55515
እናቱ	-9.5573
ጠብቅ	-9.55888
በቤቱ	-9.5594
ረዳ	-9.55958
ስብ	-9.56028
በሰው	-9.56229
አቤሴሎም	-9.56424
በፊቴ	-9.56424
ነን	-9.56569
ማዶ	-9.56864
ሁሉን	-9.57489
ነውር	-9.57734
ሁት	-9.57741
ሾ	-9.57857
ቅጥር	-9.58127
ሁላችሁ	-9.58209
ዳዊትን	-9.58231
ያሉ	-9.58316
ሳል	-9.58815
በፊት	-9.58999
ኃያላን	-9.59202
ቆመው	-9.59349
ፍቅር	-9.59405
ሁለቱን	-9.59446
መካ	-9.59568
ልብሱን	-9.59852
ወድ	-9.59959
ሂዱ	-9.60147
አድርገው	-9.60258
ተራሮች	-9.60292
ወዮ	-9.60306
ያሉትን	-9.60308
ታላቁ	-9.60451
ምድርን	-9.60829
መቃብር	-9.61104
ኃጢአትን	-9.61156
ጠርቶ	-9.61304
ለንጉሡ	-9.6139
ፈቃድ	-9.6148
ጠብቁ	-9.61556
እር	-9.61736
ኔ	-9.61785
በትር	-9.6179
ወይን	-9.61962
ደረሰ	-9.62006
ቦታ	-9.6212
ኤልያስ	-9.62231
ረግ	-9.62339
ቀረ	-9.62409
በረታ	-9.62434
አወጣ	-9.62759
ሁም	-9.62927
የሚቃጠለውን	-9.6303
ወደዚህ	-9.63031
ዴ	-9.63134
እምነት	-9.63216
ተናገሩ	-9.63288
ተቀምጦ	-9.63708
መለስ	-9.63765
በባሕር	-9.63864
ጥላ	-9.63903
ሕዝቤ	-9.63933
ከይሁዳ	-9.64065
ወርዱ	-9.64101
ድን	-9.642
የነበሩትን	-9.64225
ጋሻ	-9.64299
ቆመ	-9.64475
ጃ	-9.64749
ፎ	-9.64763
አባቴ	-9.65041
ራሱ	-9.65265
ባይ	-9.65301
ካህን	-9.65416
ያዩ	-9.6548
ያዘ	-9.65564
አንተን	-9.65655
ታስ	-9.65655
ጕ	-9.65965
በመካከላቸው	-9.66
ፈቀቅ	-9.66012
መልስ	-9.66113
እያሉ	-9.66221
ቢያ	-9.66325
ሰጡ	-9.6636
ሴቲቱ	-9.66404
በሕዝቡ	-9.66411
እነዚያ	-9.66456
ፍልስጥኤማውያን	-9.66464
ጣል	-9.66961
ውሰድ	-9.67013
ያወጣ	-9.6743
አድርጉ	-9.67578
የሚል	-9.6771
አዘዘ	-9.67762
ደር	-9.678
ቃሉን	-9.67819
በውኃ	-9.67881
ርኵሰት	-9.68031
ልቅሶ	-9.68035
አባትህ	-9.6818
ፈው	-9.6818
ወዲያ	-9.68249
አሰ	-9.6844
ፍርድን	-9.68454
ለሕዝቡ	-9.68511
ረው	-9.68562
ሺ	-9.68693
ጥሩ	-9.68906
በዙሪያው	-9.69071
ኛው	-9.69141
ደጅ	-9.69165
መቼ	-9.69176
ብዙዎች	-9.6919
በጌታ	-9.69244
ስምዖን	-9.69317
ነቢዩ	-9.6937
አንዱን	-9.69391
ያሉት	-9.69413
ዬን	-9.6947
አለችው	-9.69533
በብዙ	-9.69554
በኢየሱስ	-9.69598
ፌ	-9.69784
ሆነች	-9.69787
ሳለሁ	-9.69859
ወዲያው	-9.69882
ባሉ	-9.70013
ታውቃላችሁ	-9.70104
ዙፋን	-9.70109
ሌሎች	-9.70157
ለዳዊት	-9.70245
ሳሉ	-9.70255
እንዲያ	-9.70391
ነበሩት	-9.70483
ራብ	-9.70672
ሞላ	-9.70869
ወደቀ	-9.70872
ዘው	-9.70988
ሰዓት	-9.71157
ነቢይ	-9.71161
ስምንት	-9.71175
ገደለ	-9.71299
ጮኸ	-9.71304
ልና	-9.71398
ምድሪቱ	-9.72035
ሌዋውያን	-9.7204
ውጣ	-9.72282
አመጣ	-9.72296
በዓል	-9.72398
ገድ	-9.72425
ወርድ	-9.72489
ቂ	-9.7265
ሠ	-9.72845
ምክር	-9.7291
ያሳ	-9.7322
ቋ	-9.73295
እግር	-9.73381
አችሁ	-9.73427
ወንድም	-9.7366
በላቸው	-9.73704
ዕጣ	-9.73764
በፍጹም	-9.73845
ልክ	-9.74229
እህል	-9.74363
ወፎች	-9.74382
ስጦታ	-9.74387
በርሳቸው	-9.74397
ወሬ	-9.74436
ይሁኑ	-9.74533
ሥልጣን	-9.7455
የነበሩ	-9.74643
ጽኑ	-9.74744
የተቀደሰ	-9.7493
ላቸውም	-9.75032
ጠፉ	-9.75091
በልቡ	-9.75194
ጠጡ	-9.75252
የነበሩት	-9.75383
አራዊት	-9.75481
አክዓብ	-9.75481
በአሥራ	-9.7556
ሃቸው	-9.75677
አር	-9.75776
በእጅህ	-9.75814
ንጉሡን	-9.75912
ምድሪቱን	-9.75938
ካል	-9.76132
ከእርስዋ	-9.764
ባቢሎን	-9.76402
ገኝ	-9.76542
በከንቱ	-9.76865
ይላሉ	-9.76866
ዙ	-9.76958
ነፍሴን	-9.77276
ማለሁ	-9.7736
ጢ	-9.77448
ለሰው	-9.77449
ሰማያት	-9.7768
ፍርሃት	-9.77718
ዕለት	-9.77784
በፊታቸው	-9.77872
ቆም	-9.77973
ጭፍራ	-9.77974
በእኛ	-9.78136
ሊያ	-9.78163
ማናቸው	-9.78181
ይህችን	-9.78207
ሰውን	-9.78264
ልቡ	-9.78319
አቸዋል	-9.78321
ቻ	-9.78469
ጠብ	-9.7858
ነውን	-9.78593
በራሱ	-9.78642
በዳዊት	-9.78801
ጀ	-9.7881
የዘላለም	-9.78819
ጮኹ	-9.78825
ወደዚያ	-9.78853
ልጁን	-9.78897
ራእይ	-9.78924
ግብጽ	-9.79068
ሮች	-9.79102
መሰምርያዋ	-9.79151
መስ	-9.79175
ጠው	-9.79285
ግንብ	-9.79316
ሄ	-9.79444
ለቅ	-9.79504
ብታ	-9.79513
ድሀ	-9.79596
ደግ	-9.79782
ኋችሁ	-9.7979
ታደርጉ	-9.79941
ሰፈር	-9.80234
ሜዳ	-9.80436
ይዘ	-9.80519
ያላ	-9.80586
ጋት	-9.80798
ካለው	-9.80824
ተወ	-9.80829
ኬ	-9.80992
አዲስ	-9.81166
በመንፈስ	-9.81178
ገረ	-9.8123
ልቤ	-9.81255
ቀመጥ	-9.81389
ተሰበሰቡ	-9.81444
ማድረግ	-9.81518
ተመለሰ	-9.81861
መለ	-9.81875
የብር	-9.82113
ልሃለሁ	-9.82118
ናቡከደነፆር	-9.82341
በኵር	-9.82507
በዮርዳኖስ	-9.8271
የዚያን	-9.82876
ራለሁ	-9.82898
አዳ	-9.8295
ራል	-9.83179
ባየ	-9.83386
ቄ	-9.83513
ይወጣል	-9.83549
ወለደች	-9.83563
የዳዊት	-9.83835
ተራ	-9.83933
ተጠ	-9.84051
አመጡ	-9.84086
ባሪያዎችህ	-9.842
በሬ	-9.8447
ቢኖር	-9.84545
ግድ	-9.84587
ጅ	-9.84687
ዳንኤል	-9.84767
ተዋል	-9.85085
ዊው	-9.85225
የአ	-9.8538
መቅደሱ	-9.85523
አልዓዛር	-9.85528
ጥል	-9.8566
ዔ	-9.85827
አውቃለሁ	-9.85956
ፈረሶች	-9.85958
በስተ	-9.86001
ከማ	-9.86188
ተነሡ	-9.86287
ፈልጉ	-9.86412
ውጡ	-9.86461
ባትም	-9.87017
ወንድሙ	-9.87093
ጩ	-9.87188
ዘወትር	-9.8719
መግቢያ	-9.87193
ከሕዝቡ	-9.87251
መረ	-9.87356
ልጆቹን	-9.87415
መው	-9.8763
በሰባተኛው	-9.8766
ቀድሞ	-9.87866
ጠል	-9.87879
ኝም	-9.87905
ሚችል	-9.87916
ቻችሁ	-9.88069
ፍር	-9.88111
ጠላት	-9.88161
ቍ	-9.88278
ሻለሁ	-9.88311
የነበረው	-9.88336
ወዳለው	-9.8845
ማለ	-9.88455
ፈንታ	-9.88638
ማደሪያ	-9.8867
የባቢሎን	-9.88776
ኢየሱስን	-9.88859
ቀና	-9.88889
ኢዮርብዓም	-9.88891
ዳሩ	-9.88929
ፍጻሜ	-9.89008
ነጻ	-9.89113
የሚሆን	-9.89139
በሰማ	-9.8915
ያዝ	-9.89335
ሰደደ	-9.89433
ረገ	-9.89493
የሚያስ	-9.89689
ሦስቱ	-9.89706
ጠቦት	-9.89707
ዝናብ	-9.89828
መልክ	-9.89892
ካሉ	-9.89967
ቹን	-9.90004
አገባ	-9.90083
ይገባ	-9.9035
ቃሌን	-9.90692
ወንጌል	-9.90732
አይቶ	-9.90772
ጤ	-9.90985
ኢዮሣፍጥ	-9.90988
ሰነፍ	-9.91091
መሬት	-9.91474
ነግ	-9.915
ለታል	-9.91545
ከሰው	-9.917
ግፍ	-9.91791
ዞ	-9.91981
ነገሩ	-9.92104
ዎቹን	-9.92146
አሕዛብን	-9.92267
ምሕረቱ	-9.92287
ሰረገሎች	-9.92287
ሸሹ	-9.92318
ለእነርሱ	-9.92498
ሰለ	-9.92531
ኖች	-9.9268
ከግብጽ	-9.92839
ጠር	-9.92866
ጣት	-9.93036
በከተማይቱ	-9.9304
ሰዎቹ	-9.93112
ሙታን	-9.93122
በሆነ	-9.93191
ፈታ	-9.93248
ጸና	-9.93259
ስሙን	-9.93325
ችም	-9.9341
የምታ	-9.93603
ማኅበሩ	-9.93607
ወራ	-9.9361
ወንድምህ	-9.93686
አደርግ	-9.93756
አሮንን	-9.93818
ወቅ	-9.93904
እሰ	-9.94151
ነገርን	-9.94156
ተዋ	-9.94159
በመጣ	-9.94162
ወግ	-9.94169
ስሜ	-9.94299
ስን	-9.94376
ያጠፋ	-9.94407
ወረ	-9.94602
ራቸው	-9.94631
ይሆኑ	-9.94638
መንጋ	-9.94797
ኰ	-9.94901
ገል	-9.94903
ልሃል	-9.94929
ጠጕር	-9.94936
ጸሎት	-9.94936
ላችኋል	-9.94986
ገብቶ	-9.95008
ምሥራቅ	-9.9501
ቀድ	-9.95405
ወንድሞቹ	-9.95559
ህና	-9.95796
ኋላ	-9.95988
ሳን	-9.96038
ዘላለም	-9.96078
ዖ	-9.96248
ጣፋጭ	-9.96287
እባክ	-9.96303
ይሰጣል	-9.96352
ትሆናለች	-9.9643
ትሆን	-9.96498
ለኃጢአት	-9.96703
ጽድቅን	-9.96725
ኤፍሬም	-9.96949
አራተኛው	-9.96983
መጀመሪያ	-9.96992
አቸውም	-9.97069
ውያን	-9.97307
ቸ	-9.97329
ሠራው	-9.97556
በሁለተኛው	-9.97584
አድርጌ	-9.97635
መላእክት	-9.97657
ደጃፍ	-9.97657
ዳግመኛ	-9.97657
አሳልፌ	-9.97657
ስድሳ	-9.97658
ላሉ	-9.97816
ቀረቡ	-9.97837
ጣሉ	-9.97937
በረከት	-9.98114
አታል	-9.98176
አልተ	-9.98184
ዔሳው	-9.98261
በደቡብ	-9.98324
ጓ	-9.9834
ኵ	-9.98492
የያዕቆብ	-9.98518
ሚስቱ	-9.98522
ኖረ	-9.98757
በኣል	-9.99026
ዛፎች	-9.99046
ለኝ	-9.99057
አገልግሎት	-9.99098
ባቸውን	-9.99174
ከተማይቱ	-9.99238
ስጡ	-9.99251
ጠራው	-9.99261
ረዱ	-9.99395
ሆናችሁ	-9.99431
ዕጣን	-9.99496
አሜ	-9.99546
ተገለጠ	-9.99611
ጦር	-9.99774
ስላል	-9.99818
የይሁዳን	-9.99947
ሥራው	-9.99977
አለሁ	-10.0001
የጌታ	-10.0012
ጋድ	-10.0033
አጠፋ	-10.0043
ቅሬታ	-10.0046
ታውቁ	-10.0047
ሁኑ	-10.0055
እንዳዘዘው	-10.0065
በምት	-10.0066
የታመነ	-10.0076
ከሆነ	-10.0089
ሊቀ	-10.0091
ሽቱ	-10.0105
የበግ	-10.0113
ሠራዊቱ	-10.0115
ሦስተኛው	-10.0143
በግብጽ	-10.0146
ፍረ	-10.0148
ቸርነት	-10.0175
ማርያም	-10.0177
ማታ	-10.0187
ሲኦል	-10.0188
ማኅበር	-10.0189
ሠዋ	-10.019
በዙ	-10.0192
ኃጢአተኞች	-10.02
ኛለህ	-10.0215
ለፊት	-10.0223
ዘራ	-10.0238
ራሴ	-10.0241
ጻድቃን	-10.0254
ብል	-10.0255
ሰማሁ	-10.026
በምን	-10.0268
መለሱ	-10.0272
መጋረጃ	-10.0277
አፈር	-10.0278
ለሚቃጠል	-10.0296
በአ	-10.0301
በእምነት	-10.0307
በሙሴ	-10.0308
ሰረገላ	-10.0324
ባልዋ	-10.0325
ጀመር	-10.0334
ይስሐቅ	-10.0335
ዘጠኝ	-10.0336
ተነሥተው	-10.0341
ሸሸ	-10.0367
የንጉሡ	-10.0386
እንድን	-10.0396
በአንቺ	-10.0414
ሞዓብ	-10.0419
ፍየል	-10.042
ዳን	-10.0423
ደድ	-10.044
ዎ	-10.0444
ለዚህ	-10.0461
ሰባቱ	-10.0464
እውነተኛ	-10.048
ጩኸት	-10.048
ያውቃሉ	-10.0481
ምናልባት	-10.0481
ድንበር	-10.0483
ሆንህ	-10.0491
የሠራ	-10.0502
እጅህን	-10.0502
ምስል	-10.052
ሳቸው	-10.0542
አራቱ	-10.0559
ገደሉ	-10.0561
ቃሉ	-10.0578
ያዙ	-10.0594
ርቅ	-10.0612
ኃጢአቱ	-10.063
ዪ	-10.063
ታችን	-10.0632
በጽድቅ	-10.0636
ደረ	-10.0639
ገራቸው	-10.0645
ነፍሱን	-10.0648
ሉት	-10.0651
ጽዋ	-10.0653
የሚያደርግ	-10.0655
የተቈጠሩ	-10.0663
ኃጢአተኛ	-10.0669
ይቱ	-10.0683
ቀረበ	-10.0711
ገር	-10.0729
የሚኖሩ	-10.0732
ማለት	-10.0758
እንስሶች	-10.0781
ዱቄት	-10.0781
መሐላ	-10.0781
ጠቢብ	-10.0781
ኀዘን	-10.0781
ወጥተው	-10.0783
ተመ	-10.0788
ይጠ	-10.0793
ሰላምታ	-10.0804
ኢ	-10.0804
ድንቅ	-10.0806
ልባቸው	-10.081
ነገረው	-10.0821
ምንጭ	-10.0825
መልካሙን	-10.0832
ስምህ	-10.0837
የምን	-10.0839
አኖረ	-10.0845
በመገናኛው	-10.0849
ዳችሁ	-10.0854
ዳቸው	-10.0863
በሦስተኛው	-10.0868
ግራ	-10.0871
በምሥራቅ	-10.0873
ሌሎችን	-10.0876
ሳት	-10.0899
ታዩ	-10.0915
ቻለሁ	-10.0918
በሩ	-10.0921
አህያ	-10.0925
ፈት	-10.0927
ብረት	-10.0932
አንደኛው	-10.0935
ኪሩቤል	-10.0935
ወንድሞቻቸው	-10.0935
እሰጣለሁ	-10.0935
ተናገራቸው	-10.0935
አድርጋ	-10.0936
የሚሆነውን	-10.0936
አይሆንም	-10.0938
ኢዩ	-10.094
እላለሁ	-10.094
ደመና	-10.0954
ታለች	-10.0973
ወስደ	-10.0973
ከኢየሩሳሌም	-10.0974
ሆኖአል	-10.0977
ሰቡ	-10.0987
በረ	-10.1
ኤዶምያስ	-10.1009
ጽና	-10.1025
ፈሪሳውያን	-10.1042
በባቢሎን	-10.1047
የመ	-10.105
ቃቸው	-10.1066
የኢየሱስ	-10.1071
ራሳቸውን	-10.1085
ሌዋውያኑ	-10.1091
ርዝመቱ	-10.1091
አእምሮ	-10.1091
ወጥመድ	-10.1091
ወይፈን	-10.1092
አብራም	-10.1093
ላባ	-10.1101
ሣር	-10.1103
እስክ	-10.1119
እውቀት	-10.1125
ነቱ	-10.1139
ታመን	-10.1142
በሰሜን	-10.1153
በሰንበት	-10.1155
ስማቸው	-10.1162
ፍጹም	-10.1169
ያደረገውን	-10.1171
ተባት	-10.1172
ጡት	-10.1189
ልኮ	-10.119
ወሰዱ	-10.1195
ምሕረት	-10.1196
ሰማርያ	-10.1202
ስድብ	-10.1214
ክፉዎች	-10.1217
በደስታ	-10.1229
ቅርብ	-10.123
ነቀ	-10.1235
እሄዳለሁ	-10.125
እንግዶች	-10.125
አበኔር	-10.125
እንግዳ	-10.1253
ጻፍ	-10.1253
ምናሴ	-10.1256
ያም	-10.126
ይለዋል	-10.1271
በመጀመሪያው	-10.1292
ታም	-10.1297
ቴን	-10.1299
ደርስ	-10.1304
ተቀ	-10.131
ጥበብን	-10.1317
አድ	-10.132
በፍታ	-10.1332
የንጉሡን	-10.1336
ነፍ	-10.1344
ተረ	-10.136
በሜዳ	-10.1362
ወጥ	-10.1369
ባዩ	-10.1378
ችንን	-10.1383
ዚ	-10.1394
ብርቱ	-10.1395
ደዌ	-10.1398
ትዕቢት	-10.1411
ክርስቲያን	-10.1411
ግብፃውያን	-10.1411
ጠቦቶች	-10.1411
መክሊት	-10.1411
ጠላቶቼ	-10.1411
ግምጃ	-10.1412
ንስሐ	-10.1414
ቀርበው	-10.1415
ቸር	-10.1415
ይቀ	-10.1415
ሽታ	-10.1415
በሰሙ	-10.1434
በላዩ	-10.1434
ሙት	-10.1438
እለምን	-10.1448
ርጉ	-10.1456
ሸሽ	-10.1463
ተመልሶ	-10.1466
የሆነው	-10.1479
አነሣ	-10.1506
በራ	-10.1509
በልባቸው	-10.1517
መድኃኒት	-10.1523
በቀል	-10.1533
ቀርብ	-10.1536
አባቶቻችን	-10.154
ይበላ	-10.1541
እንዳዘዘ	-10.1553
በሥጋ	-10.1558
ታይ	-10.156
በደ	-10.1563
በየወገናቸው	-10.1575
ውኆች	-10.1575
ኢዮብ	-10.1575
አመስግኑ	-10.1576
ኖኅ	-10.1576
አይተው	-10.16
የሚቃጠል	-10.16
ሕዝቤን	-10.1617
ወፍ	-10.1624
ቸዋለህ	-10.1646
ደቡብ	-10.1661
ከእነዚህ	-10.1674
ግብፅ	-10.1703
አባቶቻችሁ	-10.1707
ዘሩ	-10.172
ጊ	-10.1741
ዓመፅ	-10.1742
በላያቸው	-10.1743
መቅሠፍት	-10.1746
በእርግጥ	-10.1748
ሙሉ	-10.1748
ንስ	-10.1749
ወደቁ	-10.175
ተጽፎአል	-10.1753
ዕረፍት	-10.1756
ቀኑ	-10.1758
ችሁን	-10.1771
አባቶች	-10.1773
ግቡ	-10.1774
ራችሁ	-10.1774
አሦር	-10.1784
ተጻፈ	-10.1789
ደሙ	-10.1791
ማቸው	-10.1793
ሕዝብህ	-10.1798
ወዳ	-10.18
በዚያች	-10.1808
እስ	-10.1813
ለእኛ	-10.1818
የአሦር	-10.1819
ብላችሁ	-10.1822
ተዉ	-10.1824
አገኘ	-10.1833
አቀረበ	-10.1836
ነቅ	-10.1841
በሬዎች	-10.1843
ዳል	-10.1848
ታው	-10.1856
አስነሣ	-10.1885
በመልካም	-10.1899
ትቢያ	-10.1902
ተኞች	-10.1905
አምባ	-10.1909
መርዶክዮስ	-10.1911
ተአምራት	-10.1911
ትምህርት	-10.1911
ታሪክ	-10.1911
ዓይኔ	-10.1911
ጸልይ	-10.1911
ወድቅ	-10.1915
ወስደው	-10.1916
ዘወር	-10.1929
ሐዋርያት	-10.1943
የአሮን	-10.195
ቈር	-10.1962
ኖሩ	-10.1977
አበዛ	-10.1989
እጁ	-10.199
ትልቅ	-10.1991
ወደሚ	-10.2001
በወርቅ	-10.2002
ሁለተኛ	-10.2005
ኖሮ	-10.2024
ባላ	-10.2035
የተሠራ	-10.2047
ልጆቻቸው	-10.2049
ፊቱን	-10.205
ባሪያዎቹ	-10.205
ያልፍ	-10.205
ቀው	-10.2066
ችሁም	-10.2068
ሔ	-10.2081
ድር	-10.2083
ታደርግ	-10.2084
a	-10.2084
ጻፎች	-10.2084
በቀ	-10.2084
መልእክተኞች	-10.2084
ይችላል	-10.2084
ሶርያውያን	-10.2088
ይመጣሉ	-10.2089
ሳይሆን	-10.2104
የእሳት	-10.2108
አጥ	-10.2109
በእጃቸው	-10.2114
ልብህ	-10.2115
ታላችሁ	-10.2126
መልሰው	-10.2126
ሰዎችን	-10.2129
ከተማይቱን	-10.2136
ባዶ	-10.2141
ግባ	-10.2153
ለልጆቹ	-10.2158
የሆኑ	-10.2161
ብረ	-10.2166
ሰጠኝ	-10.2168
የቀረው	-10.2168
ባቸዋል	-10.217
ተቀመጥ	-10.2172
በሰማርያ	-10.2177
ሚዛን	-10.2177
ፊተኛው	-10.218
ከለዳውያን	-10.218
ብላቴና	-10.2183
መጨረሻ	-10.2185
ላሉት	-10.2186
አስብ	-10.2186
ጨው	-10.2188
ላቸዋል	-10.2213
ቤትህ	-10.2214
ደርግ	-10.2218
ይፈ	-10.2227
ብሃል	-10.2229
ደው	-10.2232
በጨለማ	-10.2243
ኤልሳዕ	-10.2259
ዐውሎ	-10.2259
ይወድቃሉ	-10.2259
ይልቁን	-10.2259
ጢሮስ	-10.2259
ይጠፋል	-10.226
ሄዶ	-10.226
ሄደው	-10.2261
ዓሣ	-10.2263
ቃችሁ	-10.2278
ጥር	-10.2286
ኪ	-10.2286
በገባ	-10.2286
ያመጡ	-10.2303
በጉ	-10.232
ሶች	-10.2328
ተናገርሁ	-10.2341
ስለሚ	-10.2351
ቶአል	-10.2357
ሪያ	-10.2361
በለው	-10.2364
ባር	-10.2369
ወጋ	-10.2385
ላለች	-10.2391
ራት	-10.2394
ክብሩ	-10.2395
ዘጋ	-10.2406
ገለጥ	-10.2435
ኢዮስያስ	-10.2438
ይናገራል	-10.2438
ጲላጦስ	-10.2438
መምህር	-10.2438
ሰይጣን	-10.2438
አስቴር	-10.2438
እግሮች	-10.2438
ስንፍና	-10.2438
ማዕዘን	-10.2438
ታናሽ	-10.244
አጠፋለሁ	-10.2441
ተቀምጠው	-10.2444
ልጆቻችሁ	-10.2458
ኋት	-10.2464
ያመጣ	-10.2466
አጸና	-10.2472
ከመ	-10.2475
እንቢ	-10.2509
ጠቅ	-10.2535
መገናኛው	-10.254
የሰማይ	-10.2542
ሰጡት	-10.2551
ሰምቶ	-10.2559
ጫማ	-10.256
ኖረው	-10.2562
ከአሕዛብ	-10.2567
በሰ	-10.2581
በቅ	-10.2585
ከክፉ	-10.2599
አለን	-10.26
በፍርድ	-10.2602
ኦ	-10.2619
መዝሙር	-10.262
አይደለሁም	-10.262
ድንጋጤ	-10.262
ሳዶቅ	-10.262
ታውቃለህ	-10.262
መንግሥታት	-10.262
ታመኑ	-10.262
ታደርጋለህ	-10.262
ኃያል	-10.2621
መስገጃዎች	-10.2621
በርሳችሁ	-10.2621
ፍራ	-10.2623
ቂጣ	-10.2624
ደጆች	-10.2624
አትፍራ	-10.2629
የለውም	-10.2632
ባሪያዬ	-10.2633
ይሻ	-10.2634
ወንድሙን	-10.264
በሉት	-10.2652
ያውቁ	-10.2658
የአሞን	-10.266
ለአሕዛብ	-10.2662
በቤት	-10.2675
ይሠራ	-10.2685
ከሙታን	-10.2687
ተደረገ	-10.2689
ያደ	-10.2695
ዊ	-10.2704
ጠላ	-10.2705
ጹ	-10.2707
አቸውን	-10.2709
ከር	-10.2711
ሌላው	-10.2711
ለካ	-10.2716
በዚህች	-10.2727
ለያዕቆብ	-10.2733
ክር	-10.2751
ቁም	-10.2757
ምሕረትህ	-10.2759
ዜ	-10.276
ውኃው	-10.277
መባ	-10.2771
የአንድ	-10.2774
አቤሜሌክ	-10.2805
ከዋክብት	-10.2805
ይሄዳል	-10.2805
ፈሳሽ	-10.2805
አይችልም	-10.2805
አባታቸው	-10.2805
ፊቴን	-10.2806
ዎቻቸው	-10.2811
ሬሳ	-10.2813
ቻቸውን	-10.2843
የአሕዛብ	-10.2855
የካህናት	-10.2857
በእነዚህ	-10.2863
ለራሱ	-10.287
ለሽ	-10.287
ስምህን	-10.2872
የክርስቶስ	-10.288
ሰጠን	-10.2883
ብሎአል	-10.2896
ኮረብታ	-10.2897
እውነትን	-10.29
ፈረ	-10.2903
ፋቸው	-10.2913
የተጻፈ	-10.2915
ፈልግ	-10.2927
ዱር	-10.2943
ታቸውን	-10.2945
ዮርዳኖስን	-10.2957
እስክት	-10.2963
እንዳደረገ	-10.2964
ሁህ	-10.2966
ተሰ	-10.2974
ከአንቺ	-10.2981
ሞገስ	-10.2983
አለቆቹ	-10.2992
መኖሪያ	-10.2993
ወንድሞቼ	-10.2993
መጻተኛ	-10.2993
መሰክር	-10.2994
ጠማማ	-10.2995
ድንጋዮች	-10.2995
ያውቃል	-10.3001
ታውቅ	-10.3006
ጠጋ	-10.3007
ሳለች	-10.3021
ናታን	-10.3034
መልከ	-10.3044
ይገባል	-10.3046
ባትን	-10.3059
አዩ	-10.3061
ይወ	-10.3076
የከበረ	-10.3083
ገኛ	-10.3101
ጌታችን	-10.3144
ሰጣችሁ	-10.3144
እነርሱን	-10.3159
ነፍሱ	-10.3164
አባቱን	-10.3169
ብንያም	-10.3175
እጄን	-10.3177
ጣለ	-10.3177
መሠረት	-10.3186
ኢሳይያስ	-10.3186
አንዲቱ	-10.3186
አትፍሩ	-10.319
በአባቱ	-10.3193
ሰምተው	-10.3203
ሳችሁ	-10.3204
ሆድ	-10.3211
ገለዓድ	-10.3219
ነጭ	-10.3222
የሚኖሩት	-10.3229
እናት	-10.3248
ያዕቆብን	-10.3284
ዓመፃ	-10.3292
ባቸውም	-10.3293
አለፈ	-10.3298
ለእያንዳንዱ	-10.3302
ማለዳ	-10.331
ወደደ	-10.3315
ጮኽ	-10.3325
አለቃው	-10.3333
ቲ	-10.3349
ማቅ	-10.3353
ሥራቸው	-10.3357
ያይ	-10.3359
ብሉ	-10.3365
ተገኘ	-10.3367
ያውቅ	-10.3378
ላችኋለሁ	-10.3381
ሮብዓም	-10.3382
አንሥቶ	-10.3382
ወንዞች	-10.3382
ይናገራሉ	-10.3382
ጕልማሳ	-10.3382
አትክልት	-10.3382
ገመድ	-10.3382
እሾህ	-10.3382
ክርክር	-10.3382
ፍየሎች	-10.3382
ሸክም	-10.3382
ጠይቅ	-10.3384
ደሙን	-10.3387
ይናገሩ	-10.3388
ፈጽመው	-10.3389
መንገዱን	-10.3402
ከአባቶቹ	-10.3403
ቃልህ	-10.341
ናገሩ	-10.3412
ጥፋ	-10.342
አምጡ	-10.3422
ብቻውን	-10.3422
ጪ	-10.3433
የአገሩ	-10.3457
ነገሩት	-10.3459
ዓይኖች	-10.3466
ተቈጣ	-10.3468
ሰንበት	-10.3491
ኢየሩሳሌምን	-10.3492
ይበሉ	-10.3501
ምዕራብ	-10.3501
ዝግባ	-10.3505
ብራ	-10.3508
ጥፍ	-10.3513
ከብዙ	-10.3516
ጁ	-10.3523
ተባለ	-10.3523
ያደረገ	-10.3524
አባቶቻቸው	-10.3537
ተነ	-10.3571
ምኞት	-10.3582
ታላላቆች	-10.3582
እግሮቹ	-10.3582
ዘካርያስ	-10.3582
ፈረሰኞች	-10.3582
ፍላጻ	-10.3582
ልዑል	-10.3582
ይሞታል	-10.3582
አይደሉም	-10.3582
ዐ	-10.3582
ታናሹ	-10.3582
መዛሙርት	-10.3592
በሐሰት	-10.3611
ሚሆን	-10.3619
ከንጉሡ	-10.3627
የናስ	-10.3643
ጥራ	-10.3646
በጽዮን	-10.3651
ሰሜን	-10.3657
ጥን	-10.37
ይመልስ	-10.3702
ቀሩ	-10.3716
ሠር	-10.3746
ራራ	-10.3748
ክፉን	-10.3763
ፈስ	-10.3772
ኢዮራም	-10.3786
እያንዳንዳቸው	-10.3786
መፍራት	-10.3786
መዝገብ	-10.3786
ሰዶም	-10.3787
ቀይ	-10.3799
ፈረሰ	-10.3799
ዕቃውን	-10.3816
ይሄዱ	-10.3822
ተከተለ	-10.3825
በውጭ	-10.3848
ያቸው	-10.3849
ታድ	-10.386
ራቅ	-10.3864
በኃይል	-10.3864
ሚስቱን	-10.3875
ለአብርሃም	-10.3882
ከጥሩ	-10.3883
ብሩን	-10.3899
ማሉ	-10.3905
ምሕረትን	-10.3907
ሴኬም	-10.3912
ሰጥቶ	-10.3932
ጻ	-10.3948
ቀመጡ	-10.3957
ቋንቋ	-10.3962
ፈርድ	-10.3962
ትተው	-10.3963
ቈላ	-10.3966
ነጋ	-10.3971
ደመናው	-10.3973
ባታል	-10.3975
ወረዱ	-10.3976
ሥር	-10.3984
ገድል	-10.3986
የነበረ	-10.3988
ሐሰተኛ	-10.3994
ከነዓናውያን	-10.3994
አንጻር	-10.3994
እፍረት	-10.3994
ልሔም	-10.3995
ትሆናለ	-10.3996
ቅል	-10.3997
አበባ	-10.3998
ዝን	-10.4004
በላችሁ	-10.4005
ለልጅ	-10.4008
ገዙ	-10.4009
ይጠብቁ	-10.4022
ባላቅ	-10.4024
ላኩ	-10.403
ብኛል	-10.403
ድኑ	-10.4037
በሰላም	-10.4041
ጠሩ	-10.4084
ነፍስህ	-10.4087
እጃቸውን	-10.4102
መንገዱ	-10.4105
መዝ	-10.4108
ሁን	-10.4113
ኬብሮን	-10.4125
ሰባተኛው	-10.4126
ጀመረ	-10.4127
ሴዴቅያስ	-10.4127
የሚገባ	-10.4135
መታው	-10.4135
ድም	-10.4145
የእህል	-10.4145
ክፋትን	-10.4149
ሕጉ	-10.4181
ሐማ	-10.4181
ሁትን	-10.4183
ያቀርቡ	-10.4191
ፈቱ	-10.4193
ታደ	-10.4193
ኛላችሁ	-10.4203
ራሔል	-10.4207
ተመልከት	-10.4207
ገለባ	-10.4207
አዎን	-10.4207
ሞልቶ	-10.4207
ጸልዩ	-10.4209
የሚመስል	-10.4214
ነገራቸው	-10.4214
ጌት	-10.4216
አድርገህ	-10.4223
እባብ	-10.4223
ጥልቅ	-10.4227
ይበላል	-10.424
ከወሩ	-10.4242
አቀረቡ	-10.4243
ፈረስ	-10.4244
ልጆችህ	-10.4255
ብሽ	-10.4256
እውቀትን	-10.4264
በመቅደስ	-10.4267
በእጄ	-10.4268
እናንተን	-10.4274
ጸኑ	-10.4278
ወስድ	-10.428
ወድድ	-10.4285
ተመለከተ	-10.4299
የሰውን	-10.43
ቈጣ	-10.4325
እያለ	-10.4338
ሰላምን	-10.4342
ከወዴት	-10.4344
ይመለስ	-10.4353
እይ	-10.4353
ማስ	-10.4361
ጋይ	-10.4374
መታሰቢያ	-10.4389
በፈርዖን	-10.4403
በሮች	-10.4409
ጐበ	-10.4414
ዘን	-10.4414
ፅ	-10.4424
ሄሮድስ	-10.4424
ኢትዮጵያ	-10.4424
እኵሌታ	-10.4424
ጠቢባን	-10.4424
ምጽጳ	-10.4424
ሰበሰበ	-10.4425
ሚስቶች	-10.4425
ነገዶች	-10.4425
ገዥ	-10.4425
ቁርበት	-10.4429
አዝ	-10.4434
ዓይነት	-10.4439
ተመልሰው	-10.4444
በቀን	-10.4449
እርስዋን	-10.4452
ተጕ	-10.4459
ግብር	-10.446
ዝና	-10.4462
ልጆቻቸውን	-10.4468
ጌታው	-10.4475
በለስ	-10.4491
ይፈሩ	-10.4494
ያጸና	-10.4497
ዕድሜ	-10.4516
ለሰልፍ	-10.4521
ማት	-10.4524
የአብርሃም	-10.4525
ይሉ	-10.4526
በበሩ	-10.4544
ርግብ	-10.4548
መጥ	-10.455
ልያ	-10.4552
መልሳ	-10.4552
በድንጋይ	-10.4555
ሥጋዬ	-10.4566
ይደረግ	-10.4567
የቀሩት	-10.4567
ቶቻቸው	-10.4576
ብሩ	-10.4578
ቀርቦ	-10.4582
ጥቅ	-10.4584
ለይሁዳ	-10.4593
ወለ	-10.4611
ነቃ	-10.4612
ወይራ	-10.4613
ታችሁን	-10.4633
ችውን	-10.4637
ስንዴ	-10.4639
ገበታ	-10.464
ሕፃን	-10.4643
ከዳዊት	-10.4644
ሑ	-10.4646
መናፍስት	-10.4647
መንገሥ	-10.4647
እኩሌታ	-10.4647
ጨረቃ	-10.4647
እስማኤል	-10.4647
ውሰዱ	-10.4647
ይጠፋሉ	-10.4647
ይባላል	-10.4647
ሁላችን	-10.4647
ርስታቸው	-10.4647
ወተት	-10.4647
ይሻላል	-10.4648
መቱ	-10.465
ኢዮአስ	-10.4651
ሆኜ	-10.4655
ጭቃ	-10.4656
ጣችሁ	-10.4657
ሱት	-10.466
በኵራት	-10.4664
አዘዛቸው	-10.4667
ይቀመጡ	-10.468
የሚናገር	-10.4681
በዘይት	-10.4686
ኪያ	-10.4691
በዓለም	-10.4699
ዘዝ	-10.4714
ያነሣ	-10.4714
መከር	-10.4722
ጠራቸው	-10.473
ልመና	-10.4737
አደረግሁ	-10.4738
ጭን	-10.474
አው	-10.4764
መሆን	-10.4768
ወልድ	-10.4812
አምስተኛው	-10.4814
ቤቴል	-10.4819
ባችኋል	-10.4823
ማኅፀን	-10.4824
ይሰማ	-10.484
ከበረ	-10.4856
ወገ	-10.4867
ሖ	-10.4867
የኢየሩሳሌም	-10.4869
ከፈ	-10.4871
በገና	-10.4872
አካዝ	-10.4873
ያለሁ	-10.4873
ሰነፎች	-10.4874
ቤርሳቤህ	-10.4874
እናውቃለን	-10.4874
እናገራለሁ	-10.4874
ዓመፀኞች	-10.4874
ልጆቼ	-10.4874
በስውር	-10.4874
ጽኑዓን	-10.4874
ጣዖት	-10.4874
ቅንዓት	-10.4874
ራሉ	-10.4874
ተጠንቀቁ	-10.4875
ታቀርባ	-10.4876
መስማት	-10.4877
ጠበቁ	-10.4879
አውሬ	-10.4905
ከሩቅ	-10.4909
ብለ	-10.4913
ብላቴናው	-10.4916
ነበርሁ	-10.4922
የሕዝቡን	-10.4928
ዞረ	-10.4931
ርስቱ	-10.4932
ደብዳቤ	-10.4937
መሠዊያው	-10.4944
ሞን	-10.4944
ተጋ	-10.4949
ቻለ	-10.4949
ትቶ	-10.4965
ዘመ	-10.4975
የግብፅ	-10.4982
ከፍልስጥኤማውያን	-10.4984
▁	-10.4988
ፈጥ	-10.4989
ደረሱ	-10.4995
ማየት	-10.4996
ቤቱን	-10.4999
በሞዓብ	-10.5001
እንደምት	-10.5004
ዓይኖችህ	-10.5007
ፈጸመ	-10.5008
ወቁ	-10.5018
በክፉ	-10.5022
ፊትህን	-10.5034
ተቀበለ	-10.5044
ነሡ	-10.5047
ትሆኑ	-10.505
ከፋ	-10.5057
አምላካቸው	-10.5065
ክራ	-10.5066
ያጥ	-10.5067
ለጌታ	-10.5069
እንድታ	-10.508
ሐሤት	-10.5092
ጠባቂ	-10.5103
ምሥጢር	-10.5106
ሸክላ	-10.5106
እረኞች	-10.5106
ዓመፀኛ	-10.5106
ጌልገላ	-10.5106
ጥበበኞች	-10.5106
ቀለበቶች	-10.5106
ተመልከቱ	-10.5106
እረኛ	-10.5107
ወዳጅ	-10.5107
ይኖር	-10.5107
እሆናለሁ	-10.5108
በናያስ	-10.511
አድነኝ	-10.5111
በገዛ	-10.5112
እሳቱ	-10.5112
አንቀላፋ	-10.5114
ቆሬ	-10.5116
ይጠብቃ	-10.513
ፋሲካ	-10.5134
ያው	-10.5136
መራራ	-10.5139
ላችሁን	-10.5139
ሰፋ	-10.5145
ጣለሁ	-10.5147
ተከተሉት	-10.5153
ራቁ	-10.5163
ከብንያም	-10.5165
ሥራውን	-10.517
የዚህ	-10.5182
አካል	-10.5185
አልፎ	-10.5192
ጽዮን	-10.5195
የብንያም	-10.5202
ጠበቅ	-10.5208
ሰጣት	-10.5218
አዘነ	-10.522
የምናሴ	-10.5221
ቍጣው	-10.5226
ደኅንነት	-10.523
ተቀበሉ	-10.5241
ኃጢአታቸውን	-10.5254
ሲያ	-10.5254
ወስዳ	-10.5261
አምላኩ	-10.5262
ዋይ	-10.5266
በሁለቱ	-10.5272
መጣሁ	-10.5277
መቃ	-10.5284
ናትና	-10.5285
ጠላቶች	-10.5292
አድርገ	-10.5293
የተባለው	-10.5327
ሚዛኑ	-10.5344
ተንኰል	-10.5344
አክሊል	-10.5344
ዕንቍ	-10.5345
ቀበሩት	-10.5345
ወዳጆች	-10.5345
ክንፍ	-10.5345
እሰጥሃለሁ	-10.5345
ሳር	-10.5345
በነጋው	-10.5345
ይወጣሉ	-10.5345
ግርማ	-10.5346
ቀል	-10.5346
በሰልፍ	-10.5349
ወድቆ	-10.5349
ቀንዶች	-10.5351
ነገረ	-10.5351
ሌላውን	-10.5358
መለሰለት	-10.5361
ሊሆን	-10.5365
ገደለው	-10.538
ላከኝ	-10.5384
ቦች	-10.5394
ሮአል	-10.5399
ጢስ	-10.5401
ከብት	-10.5422
ከሰ	-10.5424
ጉባኤው	-10.5459
ልጅህ	-10.546
በልብህ	-10.5464
በኤፍሬም	-10.5488
መናገር	-10.5501
ኸውን	-10.5501
ማስተዋል	-10.5501
በመቅደሱ	-10.5505
ታዘዙ	-10.5509
የከተማይቱ	-10.551
ባሉት	-10.5511
በመጡ	-10.5521
ድያ	-10.5532
ስጥ	-10.5547
ወርዳ	-10.5548
በጥ	-10.5548
ልኛል	-10.5548
ዓይንህ	-10.5558
ሕግን	-10.5569
ንጻ	-10.5571
እልል	-10.5573
ለቀ	-10.5574
ይዝ	-10.5585
መንፈሱ	-10.5588
መጋረጆች	-10.5588
የተለወሰ	-10.5588
ጌዴዎን	-10.5588
ይወድቃል	-10.5588
ይነሣል	-10.5589
አባታችሁ	-10.5589
ተቀበረ	-10.5589
ሰውዮው	-10.559
አጥንት	-10.559
ፈጥኖ	-10.559
ቁመቱ	-10.559
ነገሮች	-10.559
ያድርግ	-10.5591
አብረው	-10.5591
ወንድሜ	-10.5594
በላዬ	-10.5598
ተነሥተህ	-10.5598
የሌለበት	-10.561
ጠባ	-10.5613
ዝቅ	-10.562
አጋንንት	-10.5629
ወይኑ	-10.5633
ነካ	-10.5642
ይሰጡ	-10.566
ምጥ	-10.568
ኃጢአታቸው	-10.5682
በጀመረ	-10.5683
የተናገረውን	-10.5683
አችኋል	-10.5685
የአይሁድ	-10.5686
በረዶ	-10.5688
በለዓም	-10.5694
ዋሻ	-10.5698
ሰን	-10.5705
መጣው	-10.5715
ለአሮን	-10.5721
አስተ	-10.5724
ነታቸው	-10.5724
ከፍታ	-10.5737
መከራን	-10.5743
መጥቶአል	-10.5749
በመከራ	-10.5755
ለትም	-10.5756
ሕያዋን	-10.5756
ድካም	-10.5758
የዮሴፍ	-10.5768
የሳኦል	-10.5769
ባሪያዎቹን	-10.5774
ቆሙት	-10.578
ሠርቶ	-10.5783
ራለች	-10.5788
ያደረገው	-10.5792
ቀባ	-10.5793
ይገደል	-10.5806
ራቀ	-10.5809
አዳም	-10.5822
አይታ	-10.5822
ዘዛቸው	-10.5822
በብር	-10.583
መልአኩ	-10.5838
አሜስያስ	-10.5838
አታድርጉ	-10.5838
ዓይኖቼ	-10.5838
ኚ	-10.5838
ይሄዳሉ	-10.5838
አገሮች	-10.5838
ቃዴስ	-10.5838
አህዮች	-10.5838
ፈለጉ	-10.5839
ተሰወረ	-10.5839
አካዝያስ	-10.584
ዓረባ	-10.584
ነደደ	-10.5841
እናቱን	-10.5846
ራእዩ	-10.5846
መልሱ	-10.5855
በመካከላችሁ	-10.5859
እንዳይሆን	-10.5865
ሞትን	-10.5866
ደርሶአል	-10.5866
እዩ	-10.5868
ኙ	-10.587
ለፍ	-10.5871
ርፍ	-10.5893
በየአባቶቻቸው	-10.5894
ድንኳኑ	-10.5897
ለይ	-10.5905
መውጫ	-10.5907
ኸን	-10.5912
ቀንበር	-10.5917
ወዳሉ	-10.5926
መሠዊያውን	-10.5929
ነፋ	-10.5929
በማለዳ	-10.5943
ሹም	-10.5947
ለባሪያህ	-10.5948
ቀላ	-10.5949
ራስህን	-10.5955
ነገሩን	-10.596
ገሊላ	-10.5963
እመ	-10.5979
ዮች	-10.5983
የገዛ	-10.5986
እየተ	-10.6007
ከፀሐይ	-10.6007
ዮርዳኖስ	-10.6014
ለፈ	-10.6027
ሳኦልን	-10.6028
ታች	-10.6042
በቤተ	-10.6042
ለምኑ	-10.6069
ልሽ	-10.6082
ሕልም	-10.6084
ወሰደው	-10.6086
ሡ	-10.6088
አልጋ	-10.6094
ተህ	-10.6094
ሐሴቦን	-10.6095
ሶምሶን	-10.6095
ታላቂቱ	-10.6095
ትንሣኤ	-10.6095
አልቻሉም	-10.6095
አቢሜሌክ	-10.6095
አንዳንዶች	-10.6095
ዓዛርያስ	-10.6095
መያዣ	-10.6095
ነበልባል	-10.6095
ይመለሳል	-10.6095
ዓመታት	-10.6095
መርገም	-10.6096
ሀብት	-10.6096
ቃሎች	-10.6096
ተሰብስበው	-10.6099
ዘምሩ	-10.6103
ገልጥ	-10.6104
አስተዋይ	-10.6109
ይበላሉ	-10.6109
ዕዳ	-10.6114
በሕግ	-10.6118
እናቴ	-10.6119
ይበል	-10.6123
ያጠፉ	-10.6125
እንዲሆኑ	-10.613
ከፈተ	-10.6151
ረሱ	-10.6153
የሚሄድ	-10.6154
ይላቸዋል	-10.6165
የሌዊ	-10.617
በከነዓን	-10.6171
ማታም	-10.6179
ገደል	-10.618
ወሰዱት	-10.6185
ውረድ	-10.6185
በእርሻ	-10.6188
መከተል	-10.619
ይሄድ	-10.619
ተመለስ	-10.6191
ክፉውን	-10.6199
ገደሉት	-10.6209
የሚኖር	-10.621
ቀስት	-10.6213
ሊባኖስ	-10.6228
ትእዛዙን	-10.6238
ሩት	-10.6243
ጸሐፊው	-10.6243
መንግሥቱ	-10.626
መርከብ	-10.6276
ደማስቆ	-10.6276
ኃይሉ	-10.6276
በልቤ	-10.6281
ሃት	-10.6282
መና	-10.6282
መልሰ	-10.6284
በቀኝ	-10.6285
አባትዋ	-10.6291
ልጆችዋ	-10.6297
ያችሁ	-10.6297
ረሳ	-10.6303
በራብ	-10.6309
አባታችን	-10.6309
ተከተሉ	-10.6311
በደረሰ	-10.6314
ለዋል	-10.6322
የሰማ	-10.6352
ሕይወቱ	-10.6358
ሕፃናት	-10.6358
መጐናጸፊያ	-10.6358
ሰልፈኞች	-10.6358
አይደለችም	-10.6358
ግብዣ	-10.6358
ፊልጶስ	-10.6358
ፈቃዱ	-10.6358
አለቀሰ	-10.6358
ቍስል	-10.6358
መብራት	-10.6358
ፈለገ	-10.6359
ባለጠግነት	-10.6359
እመልሳለሁ	-10.6359
የእህሉን	-10.636
አውቆ	-10.636
አርነት	-10.6363
ምስክሮች	-10.6363
ባርክ	-10.6363
ድንበሩ	-10.6363
ሸማያ	-10.6364
ሣራ	-10.6365
ያደርጋሉ	-10.6365
ጠሉ	-10.6368
እንባ	-10.6376
ጌጥ	-10.6378
ጠሩት	-10.6379
የተቀደሰውን	-10.638
ጫፍ	-10.6381
አንገት	-10.6382
አሰበ	-10.6396
ኢያሱን	-10.6398
ድብ	-10.64
ጥርስ	-10.6402
ፀ	-10.6406
ይቀመጥ	-10.6411
በተራራማው	-10.6412
ቀስ	-10.6418
በዙፋኑ	-10.6429
ሐማት	-10.6432
ችኋቸው	-10.6432
ባልንጀራውን	-10.6435
ካለ	-10.6438
ሎጥ	-10.6441
ረድ	-10.6453
ደፍ	-10.6455
ሶርያ	-10.6466
በምዕራብ	-10.6466
አቃ	-10.6466
ዱን	-10.6468
ኝን	-10.6475
በመጀመሪያ	-10.6476
መላለስ	-10.6483
ከነበሩት	-10.6485
ላለሁ	-10.649
ራሳችሁ	-10.6494
ቸዋለ	-10.6499
መጣች	-10.6506
ሳም	-10.6511
መቀ	-10.6516
ቅር	-10.6518
በስሜ	-10.6521
ራሳቸው	-10.653
ነቴ	-10.6531
በሰማያት	-10.6549
ሌዊ	-10.6551
ገደ	-10.6554
ተቀደሱ	-10.6554
መንግሥ	-10.656
መረጠው	-10.6564
ወስ	-10.6567
እኅት	-10.6584
ክርስቶስን	-10.6586
ጣለች	-10.6589
በፍቅር	-10.6589
ለሞት	-10.6599
ጋለሞታ	-10.6617
ሰገዱ	-10.6624
እናትህ	-10.6626
ጳ	-10.6628
ቅዱሳኑ	-10.6628
ኢዮአቄም	-10.6628
በፊታችሁ	-10.6628
ዕውር	-10.6628
ካሌብ	-10.6628
ሴዎን	-10.6628
ስጠኝ	-10.6628
አይሁን	-10.6629
ጸለየ	-10.6629
ዓምድ	-10.663
አታውቁም	-10.6631
ክምር	-10.6631
የሚበልጥ	-10.6634
የሚሰማ	-10.6639
ዔሊ	-10.664
ከሁሉ	-10.6641
ሞገስን	-10.6643
ሐናንያ	-10.6643
አኖሩ	-10.6649
አጋ	-10.6652
ባለችው	-10.6653
ላቸውን	-10.6659
ለራሳቸው	-10.6663
ዓለት	-10.6665
ቀጥ	-10.6669
የጌታን	-10.6673
ይነ	-10.6674
አሉአቸው	-10.6678
ሎች	-10.6679
በደኅና	-10.6697
ነፉ	-10.6698
እስካ	-10.6702
የሮቤል	-10.6703
ነቱን	-10.671
ሰል	-10.671
ቀቅ	-10.6718
ታጠፋ	-10.6721
ቀበል	-10.6727
ኪዳኔን	-10.6738
ጥሉ	-10.6743
ከነዓን	-10.6745
ቃሌ	-10.675
የሕይወት	-10.6752
የኢ	-10.6755
ፈጽም	-10.6758
ይኸው	-10.6763
እባ	-10.6763
ልባችሁ	-10.6771
ፍርዴን	-10.6784
ቻችን	-10.6787
ቅድስ	-10.6788
የሚበላ	-10.6791
ይሰጥ	-10.6811
ዘመኑ	-10.6828
ቅረብ	-10.6834
ራውያን	-10.6848
ሰማያዊ	-10.6849
የቀረውን	-10.6852
በሕዝቤ	-10.6857
በሁለት	-10.686
ኃ	-10.6861
ገኙ	-10.6869
ልጦ	-10.6871
ባችኋለሁ	-10.6878
ተቀበል	-10.688
በቃ	-10.6884
የመቶ	-10.6896
ለዚያ	-10.6902
አደርጋ	-10.6903
ደሰ	-10.6906
መሣሪያ	-10.6906
አንዳንዶቹ	-10.6906
ዒ	-10.6906
አደራ	-10.6906
አይገኝም	-10.6906
ምስሎች	-10.6907
ረጅም	-10.6907
ይለኛል	-10.6907
አይሁዳዊ	-10.6907
አመድ	-10.6908
በሦስት	-10.6908
ከተሞቻቸው	-10.691
እጆች	-10.6911
መግባት	-10.6913
ላሞች	-10.6916
ይናገር	-10.6916
እወቁ	-10.6918
ያለችው	-10.6926
ገብተው	-10.6926
ከበቡ	-10.6928
ደዌው	-10.6933
ፈሰሰ	-10.6933
ይውጣ	-10.6943
አጽና	-10.6948
አገሩ	-10.6966
እግርህ	-10.6986
ከጌታ	-10.6992
የሚሠራ	-10.6994
ከዘላለም	-10.6999
ወቀ	-10.7
ይመጡ	-10.7004
ያወጣል	-10.7007
አድርጎአል	-10.7026
ጻፈ	-10.7028
የእኔ	-10.703
በወጣ	-10.7047
መረጠ	-10.7059
ሮቤል	-10.7065
እጄ	-10.7082
ላለው	-10.7089
እጅህ	-10.7105
ለሰሎሞን	-10.7109
ቸነፈር	-10.7109
ኮረብቶች	-10.7109
ግልሙትና	-10.711
አደባባዩ	-10.711
መኝ	-10.7117
ያደረግ	-10.7131
ያገለግሉ	-10.7135
መዳን	-10.7136
ፈጸም	-10.7142
ምድራቸው	-10.7165
ሚሆነው	-10.7168
ሞች	-10.718
ይመጣ	-10.7185
ኸኛል	-10.719
መዝጊያ	-10.7192
ኃጢአታችሁ	-10.7192
አደርገዋለሁ	-10.7192
አሞጽ	-10.7192
ይወስዳል	-10.7192
ትላለህ	-10.7192
ኃፍረ	-10.7192
ያገባ	-10.7195
አንበጣ	-10.7197
እናደርጋ	-10.7202
አዘጋጀ	-10.7206
ሰብክ	-10.7207
ወልደ	-10.7207
ምግብ	-10.7207
ፈልገው	-10.7208
ለዩ	-10.7214
አሳልፈው	-10.7215
ትሁን	-10.722
ፈረሱ	-10.722
ላቸዋለሁ	-10.7223
ደል	-10.7227
ይጠራ	-10.7238
በአምላካችን	-10.7241
ወደዱ	-10.7245
ዝር	-10.7245
ሠራተኛ	-10.7247
ሠሩት	-10.7249
ስርየ	-10.7249
ነበረበት	-10.725
ኮረብታው	-10.7259
ኃይልህ	-10.7266
ለወንድሞቹ	-10.7266
መልኩ	-10.7266
ረፈ	-10.727
ቀበለው	-10.7285
ዳስ	-10.7285
ተሰማ	-10.7287
በተራራው	-10.7294
ከኤፍሬም	-10.7295
አማ	-10.7296
ኤሊ	-10.7314
ዮስ	-10.7314
ደረግ	-10.735
ወንዙ	-10.7354
በከተማ	-10.7359
በሌላ	-10.7362
በደለኛ	-10.7363
ቀማ	-10.7363
በግራ	-10.7366
ያድን	-10.7371
ይፈልጉ	-10.7376
ቤቴ	-10.7383
ንፍታሌም	-10.7407
በአምላክህ	-10.741
ሰበሰቡ	-10.7424
አቆመ	-10.7425
ያገኙ	-10.743
አሳፍ	-10.7433
እንደሆነ	-10.7447
ውዴ	-10.7449
ገራ	-10.7451
ዛብሎን	-10.7455
ቃት	-10.7466
ፈቀደ	-10.7485
ብዝበዛ	-10.7486
ብፁዓን	-10.7486
𐋇	-10.7486
እንቅልፍ	-10.7486
ትበላላችሁ	-10.7486
ያስተምር	-10.7486
ኪራም	-10.7486
መልእክተኛ	-10.7486
አሸዋ	-10.7486
ሄዳችሁ	-10.7491
ይሠራል	-10.7492
አብያተ	-10.75
ጫኑ	-10.7508
ብትሆን	-10.7509
መንግሥቱን	-10.7518
አጠ	-10.7525
ተፈጸመ	-10.7528
ቸል	-10.7531
ወሩ	-10.7531
አሳየ	-10.7534
ያደርገው	-10.7535
አምስቱ	-10.754
መልካምን	-10.7541
ደረቀ	-10.7544
ታጥ	-10.7545
ወንጌልን	-10.7545
ያልተ	-10.7545
ያጠፋል	-10.7546
ወጣች	-10.7551
ብላቴናውን	-10.7554
ከሰሜን	-10.7557
በቀለ	-10.7563
ታችኋል	-10.7564
ያያል	-10.7566
የሶርያ	-10.7568
ቀርቦአል	-10.7577
ለእህል	-10.7581
የደኅንነት	-10.7585
ከኢየሱስ	-10.7585
ነዋል	-10.7585
ለሌሎች	-10.7585
ጠላቶችህ	-10.7586
ከከተማይቱ	-10.759
ልቡን	-10.7595
የሐ	-10.7596
ያለበትን	-10.76
ለፈርዖን	-10.7603
ኪዳኑን	-10.7604
ለአሥራ	-10.7608
በመሸ	-10.7609
አሞራውያን	-10.7626
ምድሩ	-10.7634
የኃጢአት	-10.7635
ነሽ	-10.7637
ካህናቱን	-10.7652
ባስ	-10.7653
የኤፍሬም	-10.7658
መግ	-10.7683
የዚህን	-10.7692
ትሰማ	-10.7705
ኢያሪኮ	-10.7707
ዙፋኑ	-10.7708
ዮዳሄ	-10.7709
ከበሩ	-10.771
የሚነካ	-10.7715
ጮ	-10.7725
እንዳላ	-10.7726
ጠየቀ	-10.7741
በተራሮች	-10.7743
ሕፃኑ	-10.7744
የኤ	-10.7745
ተላ	-10.7746
ሁላቸው	-10.7749
ያየ	-10.7749
ያወጡ	-10.7759
አሳልፈ	-10.7765
ወንድሞቹን	-10.7765
ኜ	-10.7777
ችግረኛ	-10.778
ሥሩ	-10.7783
ልከው	-10.7783
እንዳስ	-10.7787
ሼ	-10.7789
ሕይወቴ	-10.7789
ርዝመት	-10.7789
ኢይዝራኤል	-10.7789
ኦርዮ	-10.7789
ያመሰግኑ	-10.7789
ጣዖታት	-10.7789
ዕውሮች	-10.7789
ቅርንጫፎች	-10.7789
ቅዱሱ	-10.7789
ይኖራሉ	-10.7789
ልብሳቸውን	-10.7789
የምድርን	-10.7789
ፋርስ	-10.7789
ጭንቀት	-10.779
መሆኑን	-10.779
ሽንገላ	-10.779
ሰማንያ	-10.7792
ሰጥቼ	-10.7792
ምስጉ	-10.7793
የተባረከ	-10.7793
ጠላቶቹ	-10.7796
ብርታት	-10.7796
የማምለ	-10.7797
ገድለው	-10.7798
ወለደችለት	-10.7799
ምላስ	-10.7803
ጸጥ	-10.7809
ይቱን	-10.7809
ፍጥረት	-10.7815
ተከለ	-10.783
ራለህ	-10.783
እንሂድ	-10.7835
ይሠሩ	-10.7837
እናገር	-10.7837
ያስፈልገ	-10.7842
ስሜን	-10.7843
የአባቶች	-10.7853
በደሉ	-10.7855
ፈተና	-10.7868
ነትን	-10.7868
ያደርጋ	-10.7869
ይሰሙ	-10.7871
ከሀያ	-10.7872
ቀንድ	-10.7873
በስፍራው	-10.7875
ንገሩ	-10.7897
ማሰማርያ	-10.7897
የሌለው	-10.7908
በክብር	-10.7912
ተራራው	-10.7919
ይገዙ	-10.7922
በጌታችን	-10.7924
መናችሁ	-10.7926
ዮን	-10.7926
የሚባል	-10.7927
ከልክ	-10.7929
አውጣ	-10.7942
ኅ	-10.7944
ለሰማይ	-10.795
ከሁለት	-10.7954
ህበት	-10.7957
ተዘጋጀ	-10.7958
የጋድ	-10.796
ሙሽራ	-10.7969
ነቢያትን	-10.7972
ጳውሎስን	-10.7981
ርሱ	-10.7988
ጋል	-10.7993
በነገሠ	-10.7996
ወንድሞችህ	-10.7996
ምንስ	-10.7997
መጠ	-10.8
ሎአል	-10.8006
ወሰድ	-10.8021
መጠጥ	-10.8028
ማዕ	-10.8029
በነቢዩ	-10.8031
ሚካ	-10.8043
አምላክህን	-10.8043
ከአሥር	-10.8046
ግዛት	-10.8054
ጕን	-10.8055
ያስነሣ	-10.8058
ይጨምር	-10.8066
ተወለዱ	-10.807
ለምድር	-10.8082
ገባቸው	-10.8091
ይመለሱ	-10.8091
አገኙ	-10.8094
ሲዶና	-10.8101
ሒ	-10.8101
መቅረዙ	-10.8101
መንደሮቻቸው	-10.8101
ተለይቶ	-10.8101
ኃጢአቴ	-10.8101
አዕማድ	-10.8101
አዘጋጁ	-10.8101
እርግማን	-10.8101
ክርስቲያናት	-10.8101
ድምፁን	-10.8101
ጎዶልያስ	-10.8101
ፈጽመህ	-10.8101
መርከቦች	-10.8101
ኤፉዱ	-10.8101
ድዳለሁ	-10.8101
ከጥንት	-10.8102
አቢሳ	-10.8103
ባለጠጋ	-10.8105
የሚቀ	-10.8105
የኢፍ	-10.8106
ያስተውሉ	-10.8107
ብላቴናይቱ	-10.8108
ዘመናት	-10.8109
ያንን	-10.811
ተጠራ	-10.8113
ሻገር	-10.8115
ንቁ	-10.8116
ፍረድ	-10.8119
አቃጠለ	-10.8122
በጥበብ	-10.8123
ቤታቸው	-10.8124
ለመለመ	-10.8124
ተባባ	-10.8127
ብሻል	-10.8131
ታለህ	-10.8136
የዓ	-10.8138
ቲቱ	-10.8139
ኤላም	-10.8146
ክፈ	-10.8146
ሴቶችን	-10.8149
ጎዳና	-10.8153
ቢሆኑ	-10.8159
ያዘዘውን	-10.8168
ገነት	-10.8179
ሥጋውን	-10.8184
በሩቅ	-10.8185
ያገኝ	-10.8192
ጮኽሁ	-10.8194
መንደሮችዋ	-10.8195
በደም	-10.8198
የሚለውን	-10.8207
ሁለተኛውን	-10.8208
ባለሁ	-10.8221
ተግሣጽ	-10.8227
በገለዓድ	-10.8234
በደመና	-10.8249
ሆነህ	-10.8253
ዮሴፍን	-10.8255
እንዳሉ	-10.8262
ሳባ	-10.828
አቅርቡ	-10.8296
የጽዮን	-10.8305
ችል	-10.8319
ታላቁን	-10.8319
ተክ	-10.8327
ያለበት	-10.833
ድንገት	-10.8341
ደኅና	-10.8343
ወለድ	-10.8348
ጆ	-10.8349
ረዋል	-10.8351
ይሳኮር	-10.8374
በላው	-10.8381
አላችሁ	-10.8389
የሚመጣው	-10.8396
በሚያ	-10.8397
ለምጽ	-10.8406
ከተል	-10.8407
የሚለው	-10.8408
መንጎች	-10.8424
መንፈሴ	-10.8424
በእጃችሁ	-10.8424
ትእዛዜን	-10.8424
ኃጢአታችን	-10.8424
እንግዲያ	-10.8424
ኬልቅያስ	-10.8424
ውስጠኛው	-10.8424
ዝማሬ	-10.8424
ጭፍሮች	-10.8424
ጽድቁ	-10.8424
ይቀበላል	-10.8424
ርብቃ	-10.8424
ግመሎች	-10.8424
አዋጅ	-10.8424
አመሰግን	-10.8424
በየወገኖቻቸው	-10.8424
ፈራጆች	-10.8425
ነፍሳችሁ	-10.8425
አዝዞ	-10.8425
ያለቅሱ	-10.8425
አድርጌአለሁ	-10.8425
ይቀመጣ	-10.8425
ከንፈር	-10.8425
ለብሰው	-10.8426
በሸለቆው	-10.8426
ተዋጉ	-10.8428
አለቀሱ	-10.8428
የተቀመጡ	-10.8428
ማሩ	-10.8429
ይገባዋል	-10.8431
ታንኳይቱ	-10.8432
ያማረ	-10.8434
ኖራቸው	-10.8435
ይገድሉ	-10.8436
ወርዶ	-10.8436
ሥጋቸው	-10.8439
ያልፋል	-10.844
ማዳን	-10.8444
ቍጣዬ	-10.8445
በጎነት	-10.8445
በግዞት	-10.8447
ተሻገሩ	-10.8449
አነ	-10.845
ቅጣት	-10.8452
መዛግብት	-10.8452
ዕቃዎች	-10.8455
የአሕዛብን	-10.8457
ይሁዳን	-10.8459
የሚጠብቅ	-10.8461
እመልስ	-10.8462
ይመታ	-10.8464
በሀያ	-10.8468
ተቀመጡት	-10.8471
የክብር	-10.8486
ካለችው	-10.8491
በማደሪያው	-10.8496
ሰፊ	-10.8501
ታያለህ	-10.8503
የሚሄዱ	-10.8515
ቅድስና	-10.8525
በልባችሁ	-10.8526
ሁበት	-10.8533
ተናገሩት	-10.8539
ስፍራው	-10.8543
ጀምረ	-10.8545
ደሴቶች	-10.8545
ኤላ	-10.8554
ክሩ	-10.8557
ያመልኩ	-10.8565
የኢየሩሳሌምን	-10.8569
የተስፋ	-10.8578
ራሳችሁን	-10.8578
ሰጡአቸው	-10.858
ተገዙ	-10.8584
ከበር	-10.859
ይል	-10.859
ሐር	-10.8592
ወደደው	-10.8592
የሞዓብ	-10.8597
ሰግድ	-10.8599
ደረቅ	-10.86
መሄድ	-10.8602
ታጠብ	-10.8624
እንደሌለ	-10.863
መስል	-10.8647
ዞሩ	-10.8655
አብያ	-10.8659
ችንም	-10.866
ስለት	-10.8663
ጊብዓ	-10.8675
መዓት	-10.8676
ዳሉ	-10.8676
ገፋ	-10.8677
እግሩን	-10.8678
የሴ	-10.8696
አጠጣ	-10.8712
ባሳ	-10.8741
ኩል	-10.8746
መቀመጫ	-10.8754
የተናገረው	-10.8755
መጠጊያ	-10.8755
ኀጥኣን	-10.8757
አማሌቅ	-10.8757
ኬጢያዊ	-10.8757
አኖራለሁ	-10.8757
ቡቃያ	-10.8757
ሸንጎ	-10.8757
ትላላችሁ	-10.8758
ረክስ	-10.8758
ያድርጉ	-10.8758
አልሰሙም	-10.8759
ሳፋን	-10.8759
አያውቅም	-10.8759
በረሀ	-10.8759
እርሾ	-10.876
ኵሬ	-10.8761
ወገኑ	-10.8761
ለአንዱ	-10.8761
ዝሙት	-10.8762
እያንዳንዳችሁ	-10.8763
አደረግህ	-10.8766
ባለች	-10.8767
መቃብሩ	-10.877
አዘጋጅ	-10.8773
ወጭ	-10.8774
እልልታ	-10.8781
ልባችሁን	-10.8781
አፈሰሰ	-10.8785
ጌታን	-10.8787
እንደማይ	-10.8787
ሰምተ	-10.8792
በቱ	-10.8799
ያያሉ	-10.8799
አሥራት	-10.8801
ይቆማ	-10.8813
እኛን	-10.8817
ግዛ	-10.8819
ቃልህን	-10.8829
ማደሪያውን	-10.883
ንስር	-10.8844
በኢያሪኮ	-10.8848
ሥርዓቴን	-10.885
መላ	-10.885
በራሳቸው	-10.886
ሙላ	-10.8862
ለሌዋውያን	-10.8868
ዓይኖቹ	-10.8869
ደርሱ	-10.8873
ከምሥራቅ	-10.8881
ሠዉ	-10.8888
ትሄድ	-10.8888
ሩአቸው	-10.889
የገለዓድ	-10.8894
ራሴን	-10.8899
ሰማችሁ	-10.8906
ተዋጋ	-10.8924
አባቶችህ	-10.8928
ተልባ	-10.8931
ወጥቶአል	-10.8933
ወጣሁ	-10.8937
የዚያ	-10.8947
ዘርህ	-10.8952
ሰጠሁ	-10.8959
የሞት	-10.8959
ባሪያውን	-10.8963
ቍጣህ	-10.8974
ፋችሁ	-10.8977
ሲሉ	-10.9004
ሩቅ	-10.9011
ኃጢአተኛው	-10.9012
መለከቱን	-10.9014
የላቸውም	-10.9031
ምድሩን	-10.9031
አጥብ	-10.9034
ሞላበት	-10.9036
ከብር	-10.9038
በሕዝብ	-10.9044
ስእለት	-10.9047
ወለዱ	-10.9048
ሳደድ	-10.9062
በልዩ	-10.9074
በዚያው	-10.9076
አረ	-10.9079
ጣቱ	-10.9084
ከረ	-10.9091
መንደሮች	-10.9092
ጠይቁ	-10.9093
መስገጃ	-10.9099
ይፈጸም	-10.9099
የተጻፈው	-10.9101
ርኵስ	-10.9101
ዑ	-10.9102
ኀ	-10.9102
መታጠቂያ	-10.9102
ቍጥራቸው	-10.9102
ጥቂቶች	-10.9102
ብድራት	-10.9102
አሚናዳብ	-10.9102
አብያታር	-10.9102
አይደላችሁም	-10.9102
ዮፍታሔ	-10.9102
ከተሞቹ	-10.9102
ማኅተ	-10.9102
መገረዝ	-10.9102
በርናባስ	-10.9102
እንደዚሁ	-10.9102
ዘርግቶ	-10.9102
ተናግሬአለሁ	-10.9102
ክህነት	-10.9102
ምድራችሁ	-10.9102
ዮናስ	-10.9104
ከንፈሩ	-10.9104
ሰልፉ	-10.9104
ይሸከማ	-10.9106
ሬአለሁ	-10.9106
መስሎ	-10.9106
መለከቱ	-10.9107
ጦርነት	-10.911
ሕዝብህን	-10.911
ከፊትህ	-10.9111
በረሃ	-10.9113
ተጠንቀ	-10.9115
እንኪያ	-10.9116
ኤልያብ	-10.9117
ጠየቁት	-10.912
ፈረደ	-10.9124
ሾመ	-10.9125
ቅረቡ	-10.9127
መጣህ	-10.9132
ተማሩ	-10.9142
ጠራች	-10.9155
በስምንተኛው	-10.9161
ማመን	-10.9162
ናገረው	-10.9162
በረቱ	-10.9162
ገብ	-10.9167
የተለየ	-10.9173
አስቡ	-10.9176
አደረጋቸ	-10.9176
መንገዳቸው	-10.9177
ሰገደ	-10.9178
ኪስ	-10.9181
ይረ	-10.9187
ሸከም	-10.919
የመጠጥ	-10.919
ናለህ	-10.919
ሰባቱን	-10.919
በአገሩ	-10.9203
ልቅ	-10.9203
ለድሀ	-10.9209
ሚናገሩ	-10.9209
በጎቹ	-10.9212
ሆነዋል	-10.9215
መከሩ	-10.9218
ከሩ	-10.9219
በአንዱ	-10.9222
የቀሩትን	-10.9228
ባሕሩ	-10.923
የሚመጣ	-10.9244
ሲመጣ	-10.9247
በብንያም	-10.925
ረፉ	-10.9253
በቤቴል	-10.9253
ጸሐፊ	-10.9256
ከባቢሎን	-10.9256
ቡት	-10.9266
የፈርዖን	-10.9286
ከአንድ	-10.9289
አሞን	-10.9289
የጦር	-10.9295
ቃጠለ	-10.9295
በዕጣ	-10.9299
ናወጥ	-10.9303
ግንድ	-10.9307
በአራተኛው	-10.9313
የሠራው	-10.9318
ሮጠ	-10.9319
ኑር	-10.9319
ተሰጠ	-10.9324
አልሰማ	-10.9325
ሐሰትን	-10.9327
ርቁ	-10.9331
ርቀው	-10.9331
ጋቸው	-10.9331
በጥሩ	-10.9335
ጄ	-10.9345
ነግረ	-10.9345
ወርቁን	-10.9346
በረከ	-10.9348
ገላ	-10.9351
ቢል	-10.9363
ሦስተኛ	-10.9369
ያፈራ	-10.937
ጥዋት	-10.9377
ዋለች	-10.9377
ክብርን	-10.9383
ገደላቸው	-10.9393
ቅንነት	-10.9404
የቃል	-10.9412
ረጉ	-10.9415
ተሰብ	-10.9416
መክ	-10.9418
ላለ	-10.942
ይሠዋ	-10.942
ተቈጠሩ	-10.9422
ታመነ	-10.9427
ለመነ	-10.9428
ደርገው	-10.943
ነዳ	-10.9441
ቶቻችሁ	-10.9443
እልፍ	-10.9449
ድሆች	-10.9451
ዛል	-10.9454
ድንግል	-10.9459
መሳፍንት	-10.9459
መድኃኒቴ	-10.9459
ሜሱላም	-10.9459
ንጹሐን	-10.9459
እስትንፋስ	-10.9459
ዲያብሎስ	-10.9459
ገንዘቡ	-10.9459
ቦዔዝ	-10.9459
ኢያቢስ	-10.9459
ከፊቴ	-10.9459
ያቀርባል	-10.9459
ይሰጠዋል	-10.9459
ሰደዱ	-10.9459
ዘለፋ	-10.9459
አምኖን	-10.9459
ቁርበቱ	-10.9459
ልማድ	-10.9459
አላውቅም	-10.9459
ተደፋ	-10.946
ተከትለው	-10.946
ቃጥለዋል	-10.946
በላያችን	-10.946
ወገኔ	-10.946
መሰከረ	-10.9461
አድርገሃል	-10.9463
በወንዝ	-10.9463
ሃሌ	-10.9465
ይቀመጣሉ	-10.9469
መምጣት	-10.947
ሮሜ	-10.9472
ላክ	-10.9473
አልቀረ	-10.9479
ፊቱ	-10.9479
አመጣለሁ	-10.948
ጥና	-10.9482
እንጀራን	-10.9484
ኃይልን	-10.9485
ሳለህ	-10.9485
ክሳ	-10.9486
ካደ	-10.9492
የራሱን	-10.9494
ገብስ	-10.9494
ሥራችሁ	-10.9498
አወቀ	-10.9505
አትበል	-10.9514
ለመነው	-10.9515
የሚያስፈራ	-10.9515
እሆን	-10.9517
ተኝቶ	-10.9518
መድረ	-10.9524
አምላካቸውን	-10.9524
ያለች	-10.953
ዋረድ	-10.9532
ጠረ	-10.9534
ቅኖች	-10.9535
በአይሁድ	-10.9537
መባቻ	-10.9539
ታት	-10.955
ከሕግ	-10.9555
ጠበቀ	-10.9561
ተሸ	-10.9564
ፈጠረ	-10.9565
ኋላው	-10.9569
ከምናሴ	-10.957
በድንኳኑ	-10.9576
ቆይ	-10.9583
ትቀበሉ	-10.9591
ባረከ	-10.9615
የሚሰጥ	-10.9617
የአባቱን	-10.9618
ወገብ	-10.962
ትንሽ	-10.963
ግቢ	-10.9632
ፈጠ	-10.964
ኑሮ	-10.9644
ፈውስ	-10.9659
አውቀ	-10.9662
ካችሁ	-10.9665
አፉን	-10.9669
የቤቱን	-10.9672
ዲና	-10.9673
ራይ	-10.9695
ለብሳ	-10.9705
ተጻፉ	-10.9708
ቈጠር	-10.9722
ከለከ	-10.9726
ቀላል	-10.9734
ዳድ	-10.9736
ሌዋውያንን	-10.9739
ይስማ	-10.9747
እሴይ	-10.975
ይሸሻ	-10.9756
በአባቴ	-10.9757
ሐዋርያ	-10.976
ነድ	-10.9762
በሳኦል	-10.9763
ሰበረ	-10.977
አውሬው	-10.9782
ጣቸው	-10.9792
ላከው	-10.9797
መለከትም	-10.9799
በነቢያት	-10.9816
ይገዛ	-10.9816
ሰጠህ	-10.9819
ለአንድ	-10.982
ሰግዱ	-10.9822
ተመሸጉ	-10.983
ልጆቻችን	-10.983
መቄዶንያ	-10.983
መጻሕፍት	-10.983
ምርኮኞች	-10.983
ኤርትራ	-10.983
ኪሩብ	-10.983
ዕዝራ	-10.983
ጕድጓዱ	-10.983
ፈሳሾች	-10.983
ፍልስጥኤም	-10.983
ተርሴስ	-10.983
ይመለሳሉ	-10.983
ባኦስ	-10.983
አዴር	-10.983
ንግሥቲቱ	-10.983
አቁማዳ	-10.983
አወቅሁ	-10.983
ገለጡ	-10.983
ፈጽሜ	-10.983
ሚክያስ	-10.983
እምነታችሁ	-10.983
ወዳጄ	-10.983
ከመስፈሪያው	-10.983
ኛቸው	-10.983
በየዓመቱ	-10.9831
ተቀበላችሁ	-10.9831
ያስተውል	-10.9832
ሠራተኞች	-10.9839
ለካህኑ	-10.984
ነህን	-10.9842
ወደድሁ	-10.9843
ጭንቅ	-10.9844
ፈጠር	-10.9846
ወዳለበ	-10.985
የንጉሥ	-10.9851
በግልጥ	-10.9856
ያልፉ	-10.9857
ማደሪያው	-10.9874
እንድትሆ	-10.9876
ሕጉን	-10.9883
የሚያህል	-10.9883
ከሞት	-10.9883
ለደኅንነት	-10.9885
ንፉ	-10.9886
ያየው	-10.989
የአባቶቻቸው	-10.989
ከእጄ	-10.9894
ጠየቀው	-10.9895
ታምኑ	-10.9895
አፌ	-10.9897
ቈረጠ	-10.9899
የፍልስጥኤማውያን	-10.9902
በቤቴ	-10.9907
ሞሉ	-10.9912
ተናግሮአል	-10.9926
ታወቅ	-10.9927
የሚቀመጥ	-10.9928
አደረ	-10.9935
ዶች	-10.9938
ውበት	-10.9941
የሚሠሩ	-10.9944
ለማንም	-10.9944
ኑሩ	-10.9944
የአምላክህን	-10.9946
ቀኑን	-10.9948
ጣሉት	-10.995
በሬው	-10.9956
ሐናን	-10.9957
ሾመው	-10.9959
ይወጡ	-10.9965
ያለሽ	-10.997
ሩን	-10.9981
ተነሥ	-10.9982
ቂስ	-10.9983
ቀዋል	-10.9984
ማላችሁ	-10.9988
ይስጥ	-10.999
ባሪያው	-10.9999
ለአባቱ	-11
በብርቱ	-11.0006
ነጣ	-11.0008
ዕድሜው	-11.0012
ከአባቴ	-11.0015
በሙሉ	-11.0015
መኝታ	-11.0015
ያላችሁ	-11.0022
በሥራ	-11.0023
የሥጋ	-11.0024
አሳድ	-11.0026
በአራቱ	-11.0038
የዔሳው	-11.0045
ብልህ	-11.0061
አውድማ	-11.0065
ያሳድ	-11.0065
ታችንን	-11.0069
የሚሻ	-11.0073
በሕዝብህ	-11.0076
ሥጋው	-11.0076
ቆማ	-11.009
ማወቅ	-11.0098
ትርፍ	-11.0105
ሄደህ	-11.0106
እንዳን	-11.0112
በጽኑ	-11.0114
አድን	-11.0132
ገባዖን	-11.0132
በፍልስጥኤማውያን	-11.0137
ከሦስት	-11.0143
ጾም	-11.0149
ገዝ	-11.0161
ጐድ	-11.0167
ሴሎ	-11.0168
አፋቸው	-11.0182
እመለ	-11.0184
ትማል	-11.0189
አፍህ	-11.019
ራቱ	-11.0194
ጫነ	-11.0197
ችሁትን	-11.0205
ገረዙ	-11.0209
ምናምንቴ	-11.0211
አሥረኛ	-11.0214
ቀርሜሎስ	-11.0214
ቈነጃጅት	-11.0214
አይደለህም	-11.0214
አገልጋይ	-11.0214
ይሞታሉ	-11.0214
ፀነሰች	-11.0214
ሌሎቹ	-11.0214
ሳንቆች	-11.0214
አዶንያስ	-11.0214
ወይፈኖች	-11.0214
ባሮክ	-11.0214
አንበሶች	-11.0214
ጠጎች	-11.0214
እግራቸው	-11.0214
አድምጡ	-11.0214
አማካሪ	-11.0214
ዓላማ	-11.0214
ተድላ	-11.0215
ልባችን	-11.0215
ነጋዴዎች	-11.0215
ቄሣር	-11.0216
ክንዱ	-11.0216
ዮሐናን	-11.0216
መንሻ	-11.0216
ደረጃ	-11.0216
ሰሎም	-11.0216
ቀደደ	-11.0218
ጨነቅ	-11.0219
ሳንቃ	-11.0219
ዘንግ	-11.0221
ባርኩ	-11.0221
ቁሙ	-11.0224
ቤዛ	-11.0224
ማልዶ	-11.0224
ዳሰሰ	-11.0227
ግለ	-11.0231
ጣብ	-11.0232
ቀርባ	-11.0233
መሳ	-11.0234
ቅጠል	-11.0234
አንገ	-11.0234
የዘበኞቹ	-11.0238
ቡሩ	-11.0238
ከአፉ	-11.0253
ድርሻ	-11.0258
ሌባ	-11.0258
ሄዳ	-11.0265
ዮአስ	-11.027
ዖዝያን	-11.0274
ይፈራ	-11.0274
ሲሄዱ	-11.0281
ካህኑን	-11.0281
ዘኑ	-11.0286
ያነ	-11.0288
ገባች	-11.0291
የተነገረ	-11.0296
ኛለሁ	-11.0298
ፍሩ	-11.03
ስትል	-11.0305
ተናገረኝ	-11.0306
ከቀይ	-11.0312
ተኝ	-11.0312
አወ	-11.0313
ሰር	-11.0313
አመጡት	-11.0323
ለሌላ	-11.0325
ረባ	-11.0333
ማረኝ	-11.0338
መንገዴን	-11.034
ናውያን	-11.0341
መተ	-11.0347
ገረኝ	-11.0352
ሞተች	-11.0354
ከወንድሞቹ	-11.0356
በንጉሥ	-11.0356
ጋችሁ	-11.0371
ለሚያ	-11.0373
ያዘው	-11.0379
ከሌዋውያን	-11.0395
ልቤን	-11.0403
ከፈርዖን	-11.0431
የድንጋይ	-11.0431
እነዚያን	-11.0431
ታየው	-11.0432
አምላካችሁን	-11.0441
ሚያ	-11.0441
ብራቸው	-11.0444
ዘብ	-11.0452
አይዞ	-11.0453
ሰበስብ	-11.046
ድሩ	-11.0467
የማት	-11.047
የሚሉ	-11.047
ገለጠ	-11.047
ብለዋል	-11.0471
ላታል	-11.0476
የዮ	-11.0479
የቀረ	-11.0484
ያጽናና	-11.049
ልብሱ	-11.0503
ሰድድ	-11.0505
እርሻውን	-11.0505
የግብጽ	-11.0509
ሸጥ	-11.0512
ለአምላክህ	-11.0514
ማሳ	-11.0522
ለሳኦል	-11.0528
አርጤክስስ	-11.0532
ሴይር	-11.0533
ተራራማው	-11.0534
ግሪክ	-11.0535
ባልንጀራ	-11.054
ጠላቶችህን	-11.057
ከማቹ	-11.0574
ሀ	-11.0585
ሕሊና	-11.0594
መጥመቂያ	-11.0614
ሰሜኢ	-11.0614
አንዳንድ	-11.0614
አገልጋዮች	-11.0614
ኢዮአታም	-11.0614
ዘሩባቤል	-11.0614
ጌድሶን	-11.0614
ጽላቶች	-11.0614
ጽሕፈት	-11.0614
ተጓዙ	-11.0614
አዛዥ	-11.0614
እሰጣቸዋለሁ	-11.0614
ፊንሐስ	-11.0614
ጭልፋ	-11.0614
ልጃችሁ	-11.0614
ራፋይም	-11.0614
እሰበስባ	-11.0614
ዕብራውያን	-11.0614
አውጥቶ	-11.0614
በዙሪያዋ	-11.0615
ጠላቶቻችሁ	-11.0615
ባሪያዎቼ	-11.0615
እለምና	-11.0615
መልክተኞች	-11.0615
ዳርዮስ	-11.0616
ወርሱ	-11.0616
ናባጥ	-11.0616
ሳውል	-11.0616
ያሳድዱ	-11.0616
በውስጥዋ	-11.0617
ትሰጣ	-11.0617
ቼአለሁ	-11.0619
እዘም	-11.0619
በውስጡ	-11.062
ይበሉታል	-11.062
መንፈሳዊ	-11.0623
የለኝም	-11.0623
አትሥሩ	-11.0624
ሸሸግ	-11.0625
ከሁለቱ	-11.0625
የዘንባባ	-11.0632
እስኪሞት	-11.0632
የምትኖሩ	-11.0633
ራስዋን	-11.0639
ቍረ	-11.0641
አላገኘሁ	-11.0644
ዲዳ	-11.0646
መበለት	-11.0647
ቀባው	-11.0648
ከከተማ	-11.0654
ከሞተ	-11.0655
ልጄን	-11.0659
ቀድሱ	-11.066
ባይሆን	-11.0673
ማለላቸው	-11.0675
ጠላቶቻቸው	-11.0682
ለአባቶቻቸው	-11.0686
የተባለች	-11.0693
ልባቸውን	-11.0703
መሩ	-11.0704
የተወደደ	-11.0705
ከኃጢአት	-11.0707
በቅንነት	-11.0708
ማረ	-11.071
ከሚኖሩ	-11.0728
ከእጁ	-11.0731
በዘመኑ	-11.0734
ቆሮ	-11.0736
ለማን	-11.0743
ነፍሳቸው	-11.0747
ሌሊቱን	-11.0748
ሄደች	-11.0752
ሰምቶአል	-11.0765
አልወደደ	-11.0767
ሌላቸው	-11.0767
በደልን	-11.0768
በመንገዱ	-11.077
ቃወሙ	-11.0771
በኬብሮን	-11.0771
ኖራ	-11.0772
የዓለም	-11.0774
የዝግባ	-11.0775
ይሸ	-11.0776
እንደሚገባ	-11.0778
ያጣ	-11.0781
እርሻው	-11.0782
አፍስ	-11.0789
ጽናት	-11.0796
ማለህ	-11.0797
በሕያው	-11.08
ተመለሰች	-11.0802
ይመስል	-11.0806
ዓዳ	-11.0815
ታለል	-11.0818
ሎን	-11.0819
ቶቹ	-11.0823
ተማረኩ	-11.0825
ሎሌው	-11.083
የጌታችን	-11.0832
ይጠጡ	-11.0842
ባልንጀራህ	-11.0844
ታችኛው	-11.0852
ተቀመጠች	-11.0853
ሳቱ	-11.0859
የተጠራ	-11.0872
ላደርግ	-11.088
ትጉ	-11.0887
ይኑር	-11.0926
መከራቸው	-11.0945
ሥርዓቱን	-11.0952
መረጥ	-11.0958
እሳትን	-11.0962
ከያዕቆብ	-11.0973
ይገቡ	-11.0976
ጀም	-11.0978
እህሉ	-11.098
የሰማይን	-11.0984
ተማመ	-11.1007
ቃጠል	-11.1008
በቅን	-11.1011
ይለው	-11.1017
ያልሆነ	-11.1019
ነሣው	-11.1024
ትእዛዛት	-11.1026
አያሌ	-11.103
ደንግ	-11.1031
ጠግብ	-11.1031
ሤ	-11.1031
መኳንንት	-11.1031
በሌለበት	-11.1031
በረኞች	-11.1031
በግምባሩ	-11.1031
ብላቴኖች	-11.1031
ታላላቅ	-11.1031
ትዕቢተኞች	-11.1031
አዛሄል	-11.1031
እሰጣችኋለሁ	-11.1031
ጢሞቴዎስ	-11.1031
ጣዖቶቻቸው	-11.1031
ለኪሶ	-11.1031
ሊገናኘ	-11.1031
አንዳንዱ	-11.1031
ይፈርዳል	-11.1031
ጨረሰ	-11.1031
ገሞራ	-11.1031
ደንቆሮ	-11.1031
ከግራር	-11.1031
ማድጋ	-11.1031
መግደል	-11.1031
ሰምቻለሁ	-11.1031
ተለይተ	-11.1033
ፈጥነህ	-11.1034
ታደርጋላችሁ	-11.1034
ማስተስረያ	-11.1034
ጸንቶ	-11.1034
ቀትር	-11.1035
ይሆንላችኋል	-11.1036
አደርግሃለሁ	-11.1037
ይመስላል	-11.1039
ወዳለች	-11.104
ሳያውቅ	-11.104
መቅ	-11.1048
አልተገኘ	-11.105
የከተማው	-11.1054
ችግረኞች	-11.1057
አቤል	-11.1058
ጠንቅ	-11.1058
በጣም	-11.1063
ጠራሁ	-11.1067
ያፍራ	-11.1068
ለመኑት	-11.1069
ደጁ	-11.1069
ታወቀ	-11.1073
ከሳኦል	-11.1073
ጥለው	-11.1076
ሳሚ	-11.1077
የሚጠብቁ	-11.1077
ገሣ	-11.1077
ተለየ	-11.1081
ጋዛ	-11.1083
አየች	-11.1084
ስማኝ	-11.1084
የሰጠው	-11.1085
በውኃው	-11.1088
መናወጥ	-11.109
አያለሁ	-11.109
ውጥ	-11.109
አቅርብ	-11.1094
ቃለች	-11.1096
ጣለው	-11.1101
ፈሩት	-11.1101
ይጠብቅ	-11.1105
በተቀደሰው	-11.1109
ተደነቁ	-11.1114
ለአባቶቻችሁ	-11.112
በባሕሩ	-11.1129
ባረከው	-11.113
ዜማ	-11.1133
ቀኙ	-11.1139
ወርቁ	-11.1148
ድህ	-11.1151
በደማስቆ	-11.1163
ወጣችሁ	-11.1168
ፍልስጥኤማዊው	-11.1168
ሰማያትን	-11.117
በጋ	-11.1176
ጻድቁን	-11.1182
በኃጢአት	-11.1183
ቀደሱ	-11.1195
መጋረጃው	-11.1197
የዳዊትን	-11.1198
ድምፃቸውን	-11.1206
ለታለሁ	-11.1219
ራላችሁ	-11.1219
ዓይኑን	-11.122
አምጣ	-11.1231
ረስ	-11.1233
ሉአቸው	-11.1235
ዛራ	-11.1236
ያገኘ	-11.1246
ለአምላካችን	-11.1249
ጨነቁ	-11.1252
ተዋቸው	-11.1253
በወጡ	-11.1256
በስምህ	-11.1264
የጻድቃን	-11.1265
የሠራዊቱ	-11.1267
ደዋል	-11.1268
ልብህን	-11.1271
ቃላ	-11.1273
ከሰፈሩ	-11.1275
ገረው	-11.1279
ተግሣጽን	-11.1292
የይስሐቅ	-11.1294
ሽማግሌ	-11.1294
ያቀርብ	-11.13
ጀምራ	-11.1305
ለሙሴ	-11.1317
ኤርምያስን	-11.1319
ነፍሳቸውን	-11.1324
በጎቹን	-11.134
ለበጠ	-11.1345
የምድረ	-11.1351
ተናግሮ	-11.1354
የጽድቅ	-11.1354
የስምዖን	-11.1357
ክደ	-11.1358
ፈጥና	-11.1359
እንዳታ	-11.1371
ምኵራብ	-11.1383
መሰንቆ	-11.1384
በቤትህ	-11.1387
ይከብ	-11.1389
የሚወድ	-11.1391
ይሹ	-11.1395
ሰላ	-11.1403
ስድስተኛው	-11.1406
ሥራቸውን	-11.1407
ሸጡ	-11.1412
አባቶቹ	-11.1418
በጎችን	-11.1418
ግዳ	-11.1426
ትኖራለ	-11.1427
መስክ	-11.1429
ተከፈተ	-11.1432
ሚገኝ	-11.1433
ሕይወትን	-11.1435
ከምት	-11.144
የሰላም	-11.1442
አዳነ	-11.1454
ሦ	-11.1458
ፃ	-11.1465
መዕሤያ	-11.1466
ትችላለህ	-11.1466
ኑኃሚን	-11.1466
አግኝቶ	-11.1466
ኤልዛቤል	-11.1466
ኤፍራጥስ	-11.1466
ጕልማሶች	-11.1466
ጺ	-11.1466
መታጠቢያ	-11.1466
ትሆናላችሁ	-11.1466
እወዳለሁ	-11.1466
ያቃጥላ	-11.1466
ትዕማር	-11.1466
ይሸከሙ	-11.1466
መስጠት	-11.1466
መዓካ	-11.1466
ለብሶ	-11.1466
አላወቁም	-11.1466
ይወርዳል	-11.1466
አርኖን	-11.1466
መስገን	-11.1466
ፋሬስ	-11.1466
አንሥተ	-11.1466
ቂሮስ	-11.1466
በዙሪያቸው	-11.1467
ይበልጣል	-11.1467
አያውቁም	-11.1468
ነግሥ	-11.1468
ላደረገ	-11.1468
ጸድቅ	-11.1469
ያከብሩ	-11.1469
ናዳብ	-11.1469
ሎሌዎች	-11.1469
የተባለ	-11.1469
ደመወዝ	-11.1469
ገዳይ	-11.147
አታድርግ	-11.147
በተስፋ	-11.1471
ሰጠኸኝ	-11.1471
በአገርህ	-11.1472
ውሸት	-11.1472
ጠባቂዎች	-11.1472
ሁለተኛይቱ	-11.1476
አመሰግና	-11.1476
ኛለች	-11.1477
ለማገልገል	-11.1481
በአደባባይ	-11.1486
አዘንብ	-11.1488
ዔር	-11.1489
የሚያውቅ	-11.1489
ደማቸው	-11.1492
ቶቼ	-11.1493
በለጠ	-11.1495
በታቦቱ	-11.1502
እሺ	-11.1508
ጥማ	-11.151
ፈጥነው	-11.1515
ሬማት	-11.1516
አልኋቸው	-11.1516
መቀመጥ	-11.1516
ሰበር	-11.1521
ጾ	-11.1523
ሮጥ	-11.1524
ዘጠ	-11.1525
አኪ	-11.1525
መረብ	-11.1526
ከፊቱ	-11.1526
ቀደሰ	-11.153
ትወስዳ	-11.1531
ማለች	-11.1531
ይጠጣ	-11.1531
አቆማ	-11.1534
ሰውነትህ	-11.1545
በጠላቶቻቸው	-11.1553
ፈላ	-11.1559
አኪያ	-11.156
በአፋቸው	-11.156
ይባረክ	-11.1562
ማራ	-11.1566
የአምላካችሁን	-11.1568
በተራራ	-11.1568
ስላላ	-11.1573
የሚያምን	-11.1576
ዘዙ	-11.1577
በአሮን	-11.1577
ከሱ	-11.1583
ገናኝ	-11.159
በወንዙ	-11.159
ጠብቀ	-11.1591
ያድር	-11.1592
ይፈርድ	-11.1593
ከሚያ	-11.1598
ሰይፉን	-11.1601
ተናገርህ	-11.1601
ርቃ	-11.1603
የሚገባውን	-11.1618
ከዳን	-11.1624
እስኪመጣ	-11.1629
ቍርባናቸውን	-11.1636
አቁ	-11.1642
ተቃጠለ	-11.1643
ምስክሩን	-11.1645
አያስ	-11.1646
ቀድሞው	-11.1663
ጽዮንን	-11.1666
ትተኛ	-11.1678
ሎሌ	-11.1678
ያዙት	-11.168
ካፈሉ	-11.1682
ይሰጣ	-11.1695
በኤዶምያስ	-11.1701
ወንድሞቻችሁ	-11.1708
ነዶ	-11.1721
ቀጣ	-11.1722
ንገር	-11.1724
ለጌታዬ	-11.1729
የዘላለምን	-11.1736
በሩን	-11.1741
በእግር	-11.1753
ስር	-11.1753
በኢዮርብዓም	-11.1755
መዳ	-11.1755
የሕዝቡ	-11.1761
በሌላው	-11.1762
ከሳ	-11.1762
ሰማይን	-11.1766
የዳን	-11.1771
አትበሉ	-11.1779
የተወለደ	-11.1783
ሚሰጥህ	-11.1786
የሚቀመጡ	-11.1792
የተመረጠ	-11.1795
ከዓለም	-11.1803
ነፍስህን	-11.1808
በምድሪቱ	-11.181
ኖርበት	-11.182
ኖሩት	-11.182
ሐና	-11.182
መንገዳቸውን	-11.1822
ሜራሪ	-11.1841
ፍሬውን	-11.1844
ማዊ	-11.1846
ይጠሩ	-11.1847
የቤተ	-11.1878
ከወርቅ	-11.1887
ስለምን	-11.1889
ሰማኝ	-11.1894
በሰፈሩ	-11.1899
ሄዳለ	-11.191
ነዚህ	-11.1911
ኣ	-11.1919
ጬ	-11.192
መላእክቱ	-11.192
መንገዳችሁ	-11.192
በአጠገባቸው	-11.192
ብልጥግና	-11.192
አማልክቶቻቸው	-11.192
ከነዓናዊ	-11.192
ከንፈሮች	-11.192
የጽሩያ	-11.192
መጽናናት	-11.192
እናድርግ	-11.192
እጃችን	-11.192
ይቃጠላ	-11.192
ደነገጠ	-11.192
ይጮኻሉ	-11.192
ተሰለፉ	-11.192
ኀጥእ	-11.192
እግራችሁ	-11.192
ደካማ	-11.192
ፈቅድ	-11.192
በኵሩ	-11.192
አፍንጫ	-11.192
ያገኛል	-11.192
ይድናል	-11.192
ሰናከሉ	-11.192
ማኪር	-11.192
መልሼ	-11.1921
በአጠገቡ	-11.1921
አመኑ	-11.1921
አላደረገም	-11.1921
እስራት	-11.1921
ዘፈን	-11.1921
ናቡቴ	-11.1921
ለብቻው	-11.1922
ነፍሳት	-11.1922
ፈጣሪ	-11.1922
እቶን	-11.1922
ሂጂ	-11.1922
መጋቢ	-11.1923
ወንበር	-11.1924
ፈራጅ	-11.1925
ቀኝህ	-11.1925
ምሰሶች	-11.1927
ብቻዬን	-11.1928
ወርደው	-11.1928
የአምላካችንን	-11.1931
ምንጮች	-11.1932
በወይን	-11.1933
ሖር	-11.1933
ቀኖች	-11.1933
መለሱለት	-11.1935
ቶሎ	-11.1937
ባሪያህን	-11.1939
ርኩ	-11.194
አወጣቸው	-11.1943
የሚያውቁ	-11.1946
ፍሬዋን	-11.1947
ለመሥራት	-11.1947
አስቀድመው	-11.1951
በምሳሌ	-11.1952
ማስተዋልን	-11.1953
ያበራ	-11.1959
ተማከሩ	-11.1961
ስቡን	-11.1966
አወሩ	-11.1967
ከሆነው	-11.1969
ሄድሁ	-11.1973
በማዕድ	-11.198
ዘጋጀ	-11.1984
ይሰማል	-11.1984
የተደረገው	-11.1986
በአፉ	-11.2003
በስሙ	-11.2006
ጴጥሮስን	-11.2015
የማያ	-11.2018
በቍጣ	-11.2021
ለምናሴ	-11.2022
በቅሎ	-11.2024
እጃቸው	-11.2025
ለይስሐቅ	-11.2033
ዋላ	-11.2044
በምድሩ	-11.2049
ርዶ	-11.2055
ካላ	-11.2055
ቃለሁ	-11.2055
ሮጡ	-11.2055
ሻው	-11.2065
በመንግሥቱ	-11.2065
ፍልስጥኤማውያንን	-11.2066
ከፈሪሳውያን	-11.2067
የሰሎሞን	-11.207
መዓቴ	-11.2071
ሰሎሞንን	-11.2072
በዓይንህ	-11.2076
አይሁድን	-11.2077
ፈርስ	-11.2079
ተነሥታ	-11.2093
ለሚኖሩ	-11.2098
ያችን	-11.21
ሲወጣ	-11.2104
መሎጊያዎቹን	-11.2117
ነታችሁ	-11.2127
ድንኳኑን	-11.2133
ሮስ	-11.2133
ይኖሩ	-11.2134
ዓመፃን	-11.2135
በሚዛን	-11.214
ጓዳ	-11.2146
ከማቻ	-11.2161
ለራስህ	-11.2165
የፍየል	-11.2173
በሞት	-11.2175
ለዮሴፍ	-11.2183
መረገ	-11.2188
ትእዛዝህን	-11.2189
በለዓምን	-11.2191
ይበቃ	-11.2192
የፈጠረ	-11.2197
ዮሐንስን	-11.2198
ቻት	-11.2198
ከወይን	-11.2213
ተሰጠው	-11.2213
ይዘጋ	-11.2214
ማረኩ	-11.2231
ደምን	-11.2239
መጥቼ	-11.224
ፈለግ	-11.2247
ቀዳ	-11.2262
ቆር	-11.2262
የዕጣ	-11.2267
ቼን	-11.2273
ለወጠ	-11.2287
ቀለበት	-11.2302
ስምንተኛው	-11.2315
ለልጁ	-11.2318
ቀዓት	-11.2318
የማይገባ	-11.232
ፋሲካን	-11.2322
መከራዬ	-11.2334
ገፉ	-11.2361
ጥሎ	-11.2364
የሆኑት	-11.2371
ኛይቱ	-11.239
ይገለጥ	-11.2392
ኡ	-11.2394
ያደረጉ	-11.2394
መስለው	-11.2394
ደከመ	-11.2396
መልካሚቱ	-11.2396
መቅደሴ	-11.2396
መጻተኞች	-11.2396
ስሕተት	-11.2396
ስድስቱ	-11.2396
ቀጠቀጠ	-11.2396
ቍርባኑ	-11.2396
ኅጥኣን	-11.2396
አመንዝራ	-11.2396
አስጸያፊ	-11.2396
አእላፋት	-11.2396
አድርአዛር	-11.2396
ኢዮቤልዩ	-11.2396
እኅቴ	-11.2396
ክንፎቻቸው	-11.2396
ክንፎች	-11.2396
ዘበኞች	-11.2396
መዘምራኑ	-11.2396
አኪጦፌል	-11.2396
ክቡር	-11.2396
አግኝቼ	-11.2396
ያመልጥ	-11.2396
አልቅሱ	-11.2396
ነቢያቱ	-11.2396
አንኩስ	-11.2396
ይጮኻል	-11.2396
አይገባውም	-11.2396
ትምክህ	-11.2397
ነበራችሁ	-11.2397
ነበራቸው	-11.2397
ኦርና	-11.2397
ጕልበት	-11.2397
ይነሣሉ	-11.2397
ውሾች	-11.2397
አትችሉም	-11.2397
ለብቻቸው	-11.2397
አልቻለም	-11.2397
መጥተህ	-11.2397
ያስተምሩ	-11.2397
ታመመ	-11.2397
በዓሉ	-11.2397
አይቀርም	-11.2397
በየትውልዳቸው	-11.2397
የሌለባቸውን	-11.2397
ታሰረ	-11.2398
ይወስድ	-11.2398
አይጠፋም	-11.2398
አድምጥ	-11.2398
በፋንታው	-11.2399
ፈጽማችሁ	-11.2399
ናትናኤል	-11.24
ጓዳዎች	-11.24
በባሳን	-11.24
አድኖ	-11.2401
የሚሉት	-11.2402
ፍቺውን	-11.2402
ይሆንልሃል	-11.2402
አድርገዋል	-11.2402
በነገው	-11.2402
ሰጠኋቸው	-11.2402
የተቀመጡትን	-11.2404
ጨመረ	-11.2405
ተገረዙት	-11.2405
ላቸዋለህ	-11.2406
ይወድዳል	-11.2406
ሲሣራ	-11.2408
ሁከት	-11.241
ደርብ	-11.2419
ያስባል	-11.2419
ገደሉአቸው	-11.2423
ስጣቸው	-11.2423
ጥጃ	-11.2423
መተላለፍ	-11.2425
እንዲኖር	-11.2426
ድስት	-11.2427
ዘረጉ	-11.2432
ሊያደርግ	-11.2438
ቅኔ	-11.2439
ጠብቀው	-11.244
ነጥ	-11.2443
ለድሆች	-11.2444
ሰማው	-11.2444
ሜር	-11.2446
ተያዘ	-11.2447
ጨምራ	-11.2448
ብሆን	-11.2449
ጫንቃ	-11.2449
የሚያደርጉ	-11.2451
በብልሃት	-11.2451
ለማዳን	-11.2452
እጠ	-11.2457
ከባሕር	-11.2457
ደቦ	-11.2465
ቸኵ	-11.2466
ልኬ	-11.2468
ሕፃኑን	-11.2468
ነገርኋችሁ	-11.2468
የያዕቆብን	-11.2475
ቢሞት	-11.2479
የታወቀ	-11.2487
አብን	-11.2487
እስኪፈጸ	-11.249
ከገሊላ	-11.249
በአልጋ	-11.2492
ሰንበትን	-11.2493
ቈጥራ	-11.2494
በአፍህ	-11.2497
እሠራ	-11.2506
ጣላ	-11.2507
የወርቁን	-11.2508
ካፍ	-11.2509
መንገድህን	-11.2511
ታስቡ	-11.2514
ታወጣ	-11.2515
ዓይነ	-11.2515
የወጡ	-11.2516
ባለቤቱ	-11.2523
ተሰበረ	-11.2528
ነጹ	-11.2533
ወድደው	-11.2534
ከአሦር	-11.2539
ትጠብቅ	-11.2547
በኃይሉ	-11.2549
ያስተሰርይ	-11.2555
በሕያዋን	-11.2557
ሳሙኤልን	-11.2559
በማታ	-11.2582
ረጨ	-11.2586
ጦች	-11.2598
ላጭ	-11.2612
ራስህ	-11.2612
ንገረ	-11.2612
ዋይታ	-11.2615
በቍጣው	-11.2622
በባሪያዎቹ	-11.2629
የሞተ	-11.2629
ሰዎቹን	-11.2642
ያገኘው	-11.2643
አባቴን	-11.2645
የሠራውን	-11.2648
ዶን	-11.265
ልጅዋን	-11.2652
ለዓለም	-11.2662
ዘይቱን	-11.2666
ታላቅነት	-11.2687
በልጥ	-11.2693
ሴቲቱን	-11.2696
አዶ	-11.2702
ሐት	-11.2703
የተጠላ	-11.2706
የሌዋውያን	-11.2707
በመሬት	-11.2707
ባቸዋለሁ	-11.2707
የጸና	-11.2707
ሠሪ	-11.2708
ረፋ	-11.2716
ሚፈሩት	-11.2717
ሠራሁ	-11.2725
ርድ	-11.2734
ዓል	-11.2742
ከለከለ	-11.2743
ቦቹ	-11.2745
ከአይሁድ	-11.2761
አሴር	-11.2766
የሚወጣ	-11.2767
ራሳችን	-11.2768
ከካህናት	-11.2796
ያዘዘው	-11.28
አብርሃምን	-11.2812
አጋንንትን	-11.2812
አስመጣ	-11.2836
ተሽ	-11.2838
አደረገች	-11.2842
ሐምራዊ	-11.2847
ፋል	-11.2848
የጥፋት	-11.2849
በተቀደሰ	-11.2852
ሚስትህ	-11.2854
ኋላቸው	-11.2857
ትዕግሥት	-11.2861
ነጋገር	-11.2863
የግብጽን	-11.287
የሚጠሉ	-11.2878
ተወለደ	-11.2878
ዘጋጅ	-11.2879
አድና	-11.288
ያደር	-11.2887
ጫን	-11.2889
አፉ	-11.2896
ሕልቃና	-11.2896
መማፀኛ	-11.2896
መሸፈኛ	-11.2896
መድኃኒታችን	-11.2896
ማግኘ	-11.2896
ትክክል	-11.2896
ኃያላኑ	-11.2896
ኃይለኛ	-11.2896
ነጐድጓድ	-11.2896
አዛጦን	-11.2896
ኢታምር	-11.2896
ኤፌሶን	-11.2896
እኵሌቶቹ	-11.2896
ወንድማማች	-11.2896
ዓይኖቻቸው	-11.2896
ዕንቅፋት	-11.2896
ያደርገዋል	-11.2896
ግልገሎች	-11.2896
ጼ	-11.2896
ኃይሌ	-11.2896
እሰጠዋለሁ	-11.2896
ተገረሙ	-11.2896
ጠነከረ	-11.2896
ጥምቀት	-11.2896
ብርሃኑ	-11.2896
መብረቅ	-11.2896
ሚዳቋ	-11.2896
ቤትሳሚስ	-11.2896
አኪቃም	-11.2896
ቀርበዋል	-11.2897
አደጉ	-11.2897
አላወቀም	-11.2897
በዚች	-11.2897
ይጸናል	-11.2897
በአሥረኛው	-11.2897
ትሄዳለህ	-11.2897
አዳራሾች	-11.2897
ደክሙ	-11.2897
ታገሥ	-11.2897
እንደዚያ	-11.2897
ጠመቁ	-11.2898
ነነዌ	-11.2898
ተከትሎ	-11.2899
ብልቶች	-11.29
ደከሙ	-11.29
የተቀረጸውን	-11.2901
የተሠሩትን	-11.2901
ተማረ	-11.2901
ወድዶ	-11.2901
ሦራ	-11.2901
በመካከልሽ	-11.2901
ቍጣውን	-11.2902
ቀበሮ	-11.2903
የመገናኛውን	-11.2904
የሚገዛ	-11.2904
ምሰሶቹ	-11.2904
የአባትህን	-11.2904
ቀልጦ	-11.2905
ክፋታቸው	-11.2905
ወድቁ	-11.2905
የምድያም	-11.2907
አደን	-11.2909
ማልደው	-11.291
መቱአቸው	-11.2911
ዓመቱ	-11.2911
አብሮ	-11.2916
ብታደርግ	-11.2918
የሚፈርድ	-11.2922
ቢገኝ	-11.2926
እግሩ	-11.2926
ተቀብሎ	-11.293
ባርያ	-11.2935
የነዌ	-11.2935
መልእክት	-11.2937
ከፊታቸው	-11.294
ታገኙ	-11.294
ዘለላ	-11.2943
ዘውድ	-11.2944
ጸንተ	-11.2945
ከሐምራዊ	-11.2946
አገኙት	-11.295
ሰኙ	-11.2956
ከእህሉ	-11.2956
ቸርነትህ	-11.2957
ወረሱ	-11.2958
ሕግህን	-11.296
ማልሁ	-11.2961
ለራሳችሁ	-11.2963
በእግሩ	-11.2978
የአባቴ	-11.298
ተቀመጠው	-11.2985
መካን	-11.2985
ከአባታችን	-11.2992
በመሰንቆ	-11.2992
ከእጅህ	-11.2993
ቃላችሁ	-11.2993
ይዋጋ	-11.2997
በአርጤክስስ	-11.3001
መክደኛው	-11.3001
ደረቱ	-11.3007
ለቀቀ	-11.3009
ወንዶችን	-11.3011
ተለወጠ	-11.3016
ረዳቸው	-11.3017
ሸሽቶ	-11.3019
ርቆ	-11.3019
የዮዳሄ	-11.303
መታቸው	-11.3033
የሆኑትን	-11.3035
ማቅረብ	-11.3041
ካልሆነ	-11.3043
የከነዓን	-11.3044
በቀረበ	-11.3045
አዘዘው	-11.3049
ጠራት	-11.3055
ተዋት	-11.3056
ጋጠ	-11.3058
ሰጥቶአል	-11.306
እያዩ	-11.3061
በገሊላ	-11.3062
በሚኖሩ	-11.3066
አገኘሁ	-11.3069
ግንቡ	-11.3073
በአምላኩ	-11.3074
እቀጣ	-11.3076
ዛለሁ	-11.3078
በአምስተኛው	-11.3082
ሽማግሌው	-11.3083
ነካው	-11.3087
በሴኬም	-11.31
የነበረች	-11.3104
ባሕሩን	-11.3109
ሳቅ	-11.3112
ወደቀች	-11.3113
በያዕቆብ	-11.3126
ኑትን	-11.3127
የከለዳውያን	-11.3129
በመጽሐፍ	-11.3129
ተወው	-11.3137
አሥሩን	-11.3139
ዘርጋ	-11.315
ከራሱ	-11.3152
አገቡ	-11.3155
ቶቹን	-11.3159
ምስጋናን	-11.3159
ይብላ	-11.3163
የብረት	-11.3163
ሰንበ	-11.3175
ልናል	-11.3179
ደመናት	-11.3182
ሳላችሁ	-11.3191
በቃሉ	-11.3192
ኃጢአተኞችን	-11.3196
ከራከር	-11.32
ፈቃድህ	-11.321
ያስፈራ	-11.321
የተመረጡ	-11.3213
ያላቸው	-11.3214
ስላለ	-11.322
ይመለከቱ	-11.3227
ጌታዬን	-11.3241
የአባቶቻቸውን	-11.3245
ያስተሰርይለ	-11.3251
በሆነው	-11.3279
ሌለው	-11.3283
ያስብ	-11.3288
አፌን	-11.3293
የተሞላ	-11.3302
በማናቸው	-11.331
ጠየቃ	-11.3317
ጥላው	-11.3322
ይመራ	-11.333
ሥራህ	-11.3339
እሆና	-11.3343
ሞላው	-11.3345
ዶር	-11.3349
ሲባ	-11.3374
በቅዱሳን	-11.3382
ውድማ	-11.3383
ተቀብለ	-11.3389
ቍር	-11.339
መላለሱ	-11.3392
ቃጠሉ	-11.3403
ባሪያዬን	-11.3409
ንግሥት	-11.3418
ፈጸሙ	-11.3419
ጸጸት	-11.3423
ሃይማኖት	-11.3423
መስኮቶች	-11.3423
ቂርያትይዓሪም	-11.3423
ቅርንጫፍ	-11.3423
በግምባራቸው	-11.3423
ኅብስት	-11.3423
አስቀሎና	-11.3423
አስቀድሜ	-11.3423
አንጾኪያ	-11.3423
አግብቶ	-11.3423
ኢያቡሳውያን	-11.3423
እግሮቼ	-11.3423
ጃንደረቦች	-11.3423
ጃግሬው	-11.3423
ግብዞች	-11.3423
ግብጻውያን	-11.3423
ጠላቶቻችን	-11.3423
ባገኘ	-11.3423
ብላቴኖቹ	-11.3423
ጠጕሩ	-11.3423
ሰብስቦ	-11.3423
ያቃጥሉ	-11.3423
ገዳዩ	-11.3423
ኤፉድ	-11.3423
እንዳደረግሁ	-11.3423
ከፊታችሁ	-11.3423
ዘንበሪ	-11.3423
ጨካኝ	-11.3423
ይወስዳሉ	-11.3423
ተሻግ	-11.3423
ወንድማችሁ	-11.3423
ፈጽሙ	-11.3423
ኮከብ	-11.3423
ቤዥ	-11.3423
ታካች	-11.3423
ወስጄ	-11.3423
ሱኮት	-11.3423
አናውቅም	-11.3423
ሰናከል	-11.3423
ፍለጋ	-11.3424
ከባድ	-11.3424
ይነግሩ	-11.3424
የኋለኛው	-11.3425
ባረካቸው	-11.3425
አታውቅም	-11.3426
ቈረጥ	-11.3427
ታዊው	-11.343
አይገባም	-11.343
ዘገለዓድ	-11.343
ለማስ	-11.3433
ዳለህ	-11.3434
ታያላችሁ	-11.3434
እንደምታ	-11.3437
ጠየቅ	-11.3438
ቀረጸ	-11.3441
ጠባበቅ	-11.3442
ታጠቡ	-11.3445
ፍረዱ	-11.3446
አቃጠሉ	-11.3447
ላመኑ	-11.345
ተቀመጥሁ	-11.3452
መንግሥትህ	-11.3453
ክፈል	-11.3453
አስቦ	-11.3455
ዓር	-11.3456
ይይዛ	-11.3457
ብላችኋል	-11.3457
ይነጋገር	-11.346
ጠበቅሁ	-11.3463
በሬዎቹ	-11.3474
ያነጻ	-11.3474
መባው	-11.3475
ሚኖሩት	-11.3475
በጎቼ	-11.3477
ከእጃቸው	-11.3479
ጨምር	-11.3481
በዓይኑ	-11.3485
በሴሎ	-11.3492
ሥጋን	-11.3501
መቆም	-11.3501
ኢዮአብን	-11.3503
ናኮር	-11.3507
ቂያ	-11.351
ሽባ	-11.3516
ብሻለሁ	-11.3517
ከሰማያዊ	-11.3518
የሚፈራ	-11.3519
ብብት	-11.3519
ፈረድ	-11.3527
ሰጠሁት	-11.3531
መጣችሁ	-11.3532
የተቀመጠው	-11.3536
የእሴይ	-11.3538
ስፍራዎች	-11.3538
ሰደደው	-11.354
የተሠሩ	-11.3543
ያኖራ	-11.3549
በጊብዓ	-11.3556
የወጣው	-11.3557
ሰይፍን	-11.356
የአሞራውያን	-11.3565
የንፍታሌም	-11.3568
ይምጣ	-11.3569
ዓናቶ	-11.3573
በኮረብቶች	-11.3578
ዓሚ	-11.3578
እቀ	-11.3586
ያደረ	-11.3591
በርታ	-11.3591
ሻቸው	-11.3592
ያበዛ	-11.3594
ለባቢሎን	-11.3595
የራቀ	-11.3596
አውጡ	-11.3603
ጻፉ	-11.3604
ያምኑ	-11.3605
ይወስዱ	-11.3611
ሐሰት	-11.3615
ታውቀው	-11.3651
በሥጋው	-11.3655
የሆድ	-11.3658
ታስሮ	-11.3668
ብራችሁ	-11.3688
ድንጋዩ	-11.369
ባየች	-11.3692
አሮጌው	-11.3702
በቅጥር	-11.371
በብረት	-11.3714
ውጭው	-11.3714
ገብተ	-11.3721
ቁጣ	-11.373
ሉትን	-11.3732
ያላቸውን	-11.3735
ስምዋ	-11.3741
ይሰጠው	-11.3742
ለካህናቱ	-11.3745
ስቡ	-11.3745
ቈረ	-11.3754
ውጪ	-11.3756
መዛሙርቱን	-11.3764
ትንቢትን	-11.3765
ጅራ	-11.3775
ስለምት	-11.3776
ከፈት	-11.379
መዓቴን	-11.3796
ጋባ	-11.3797
በሉአቸው	-11.3811
አስረ	-11.3816
ታዝ	-11.3849
ኋ	-11.3852
የጭፍራ	-11.3854
መጥታ	-11.3855
ተቈጥ	-11.3856
ባረክ	-11.3857
ወዝ	-11.3872
ፈርዖንን	-11.3875
ከጥቂት	-11.3883
ዞር	-11.3892
ይቻል	-11.3895
የሐሰት	-11.3902
ያድነ	-11.3906
አጭ	-11.3922
ደርሶ	-11.3922
ከሰይፍ	-11.3928
ኮር	-11.3936
ድሆችን	-11.3937
አስቀድመ	-11.3941
የረከሰ	-11.3949
ኸዋል	-11.3953
ያፍር	-11.3964
ያመጣል	-11.3967
ምሽግ	-11.3968
ወዮል	-11.3971
ችኋለ	-11.3974
ጠግነት	-11.3976
𐊣	-11.3978
𐊼	-11.3978
kw	-11.3978
መንኰራኵር	-11.3978
መዘምራን	-11.3978
ሞዓባውያን	-11.3978
ቅዒላ	-11.3978
ብልጣሶር	-11.3978
ተንቀሳቃሾች	-11.3978
አሣሄል	-11.3978
አስተማሪ	-11.3978
አቅራቢያ	-11.3978
አብድዩ	-11.3978
እፈልጋለሁ	-11.3978
ይነግሣል	-11.3978
ጃንደረባ	-11.3978
ጽድቄ	-11.3978
ሐሰተኞች	-11.3978
ትሞታለህ	-11.3978
አይችሉም	-11.3978
አጥንቶቼ	-11.3978
ኢዮኤል	-11.3978
መበለቲቱ	-11.3978
ተገናኘ	-11.3978
ተሻገረ	-11.3978
ናታኒም	-11.3978
አንካሳ	-11.3978
ጵ	-11.3978
ፍጹማን	-11.3978
ማኑሄ	-11.3978
ሥቃይ	-11.3978
አባቶቼ	-11.3978
ይወርሳሉ	-11.3978
አለቆቻቸው	-11.3978
ስላደረገው	-11.3978
እኅቱ	-11.3978
ኃይላቸው	-11.3978
አቃሮን	-11.3978
ቀሚስ	-11.3978
ጦብያ	-11.3978
ስገዱ	-11.3978
ምልክቶች	-11.3978
ፈሰሱ	-11.3978
በኋለኛው	-11.3979
ቍጥቋጦ	-11.3979
ስካር	-11.3979
ድፍረት	-11.3979
ተመለከትሁ	-11.3979
እልካ	-11.3979
አልችልም	-11.3979
አሰብሁ	-11.3979
ትበላለች	-11.3979
ነፋሳት	-11.3979
ተግባር	-11.3979
የባሳን	-11.3981
አይኖርም	-11.3981
ፊተኞች	-11.3981
ምሥራቁ	-11.3982
ዔድን	-11.3982
የወይኑን	-11.3983
ደክም	-11.3983
የተመረጡትን	-11.3984
የተሞሉ	-11.3985
ሰደዳቸው	-11.3985
ዖዛ	-11.3985
ቀጥሎ	-11.3986
መሥዋዕታችሁ	-11.3986
ከበሮ	-11.3986
ፈጥናችሁ	-11.3988
ጠጁ	-11.3989
ሽማግሌዎቹ	-11.3989
አያይም	-11.3989
አትግለ	-11.399
ጽዋዎች	-11.3992
ዚፍ	-11.3994
ዶሮ	-11.3995
የተገኘው	-11.3995
ሩትን	-11.3996
ትወዱ	-11.3996
ገላውን	-11.3996
አይቻለሁ	-11.3999
ማውያን	-11.3999
የመጡት	-11.3999
አትብሉ	-11.4001
የሚቀበል	-11.4002
ይጭና	-11.4002
ጠፍቶአል	-11.4003
በአፌ	-11.4005
አትሁኑ	-11.4007
ታጠቁ	-11.4009
ጽዋውን	-11.4011
ጠራችሁ	-11.4012
የሚያድን	-11.4012
ሐሤትን	-11.4014
መንጋውን	-11.4014
ነግረው	-11.4015
መውጣት	-11.4017
ሥርዓትህን	-11.402
አኑሩ	-11.4022
ድሀውን	-11.4022
ሲሄድ	-11.4023
ቀርቶአል	-11.4024
ብርቱዎች	-11.4026
ኖርሁ	-11.403
መታዘዝ	-11.4031
ኩር	-11.4031
ምድራቸውን	-11.4031
ከሌለ	-11.4032
ከእግሩ	-11.4033
ጉድ	-11.4033
ጋጠሙ	-11.4034
በጊዜው	-11.4034
ኵር	-11.4035
በወኅኒ	-11.4043
መቅደሱን	-11.4043
ጐዳና	-11.4044
በባልንጀራው	-11.4044
በዕድሜ	-11.4045
ደስታን	-11.4047
ታለን	-11.4052
ሰበከ	-11.4053
ይስሐቅን	-11.4057
ረቡ	-11.4059
ሽሽ	-11.4063
ይቀበል	-11.4065
በኋላቸው	-11.4066
ማይጠፋ	-11.4069
ይግባ	-11.4071
የቀዓት	-11.4073
ከተራራው	-11.4075
ታጠቅ	-11.4076
ከአገሩ	-11.4078
ሰናዳ	-11.408
እጆቼን	-11.4081
አመነ	-11.4087
በምኵራብ	-11.4087
የግሪክ	-11.4091
የሌላቸው	-11.4096
መስቀ	-11.4106
አወጣው	-11.4106
በመዓት	-11.4119
በድንገት	-11.4124
ተዋረደ	-11.4127
አልመለስ	-11.4129
የተወለዱ	-11.4129
እበትና	-11.4131
እጆቹ	-11.4131
በተፈጸመ	-11.414
በቸነፈር	-11.4143
ሠራያ	-11.4144
የምታስ	-11.4146
ፊታቸው	-11.4151
የሊባኖስ	-11.4152
በመርከብ	-11.4157
ኳ	-11.4166
ዘራቸው	-11.4171
የሳኦልን	-11.4177
አልዓዛርን	-11.418
ነቀፋ	-11.4185
ገዛው	-11.4195
ፋለሁ	-11.4196
ዛፉ	-11.4203
ቤል	-11.4203
መጽሐፉን	-11.4215
ራማ	-11.4234
አድርጉት	-11.4236
ብዙዎችን	-11.4237
መትቶ	-11.4242
ልጅህን	-11.4258
ረዳት	-11.4262
ለመው	-11.4273
በእውቀት	-11.4279
ደሉ	-11.4295
እፈጽ	-11.43
ውኃውን	-11.4302
ጠይቃ	-11.4307
ገባሁ	-11.431
ከነቢያት	-11.4318
ፍሬው	-11.433
ላውያን	-11.4335
ቅጥሩን	-11.4347
ማረከ	-11.435
ዓይኖቹን	-11.437
በረዶው	-11.4374
ሰማሩ	-11.4382
ተሠራ	-11.4382
በማድረግ	-11.4386
ያገለግሉት	-11.4388
ደብዳቤው	-11.4402
ሕልምን	-11.4405
እጆቹን	-11.4407
ዳነ	-11.4414
ውሻ	-11.4418
ፈፋ	-11.4419
ያኖር	-11.4419
አምስቱን	-11.4457
ይገዛል	-11.4486
ልጆቻችሁን	-11.4497
ተቈረጠ	-11.4516
ነቢዩን	-11.4521
ከተለኝ	-11.4522
መሥራት	-11.4535
የአገሩን	-11.4535
ሆናለች	-11.4535
ባደረገ	-11.4536
መልስለት	-11.4542
ይሞላ	-11.4543
ያስፈልጋ	-11.4549
ጣልሁ	-11.4557
በመካከላች	-11.4559
ተቀባ	-11.4561
ያስተምራ	-11.4562
አዋቂ	-11.4563
ተበተኑ	-11.4565
ስጠን	-11.4565
ሚቃጠል	-11.4565
በደለኞች	-11.4567
ተኣምራት	-11.4567
ኃጢያ	-11.4567
እንናገራለን	-11.4567
ኮሬብ	-11.4567
ገሥጽ	-11.4567
ጨካኞች	-11.4567
ራፋስቂስ	-11.4567
ባዕድ	-11.4567
ታገሡ	-11.4567
ትኵሳት	-11.4567
አቢግያ	-11.4567
እሰብራለሁ	-11.4567
እኖራለሁ	-11.4567
ከረጢት	-11.4567
ኵላሊቶ	-11.4567
ይፈጸማል	-11.4567
ገሠጸ	-11.4567
ጲ	-11.4567
ከሚቃጠለው	-11.4567
መስኮት	-11.4567
በርሳችን	-11.4567
በደላችን	-11.4567
ዜቡል	-11.4567
ጸናጽል	-11.4567
ብዔል	-11.4567
ከራከሩ	-11.4567
እጆቻቸው	-11.4567
መርከቡ	-11.4567
ታጠባል	-11.4567
ጋኔን	-11.4567
ችግር	-11.4567
ይዛችሁ	-11.4567
ሚስቶቹ	-11.4567
ሕጌን	-11.4567
አውቄአለሁ	-11.4567
ማዕዘኑ	-11.4567
ረዓብ	-11.4567
ቁመት	-11.4567
የናሱን	-11.4567
ከብበው	-11.4567
ያዛት	-11.4567
በሱሳ	-11.4567
ይገኛል	-11.4567
ወፍጮ	-11.4567
መረምር	-11.4568
የሚወጡት	-11.4568
ሚስቶቻቸው	-11.4568
ዔናቅ	-11.4568
አልሰማችሁም	-11.4568
ሠርተዋል	-11.4568
ሜዶን	-11.4568
ዘምሪ	-11.4568
መዓቱ	-11.4569
ተንቀጠቀጡ	-11.4569
ትወርሱአት	-11.4569
ከናወን	-11.4569
የምታደርገው	-11.457
በላያችሁ	-11.457
ይጠግባ	-11.457
ሰጠኋት	-11.457
ከርቤ	-11.457
የሚያደርጉትን	-11.4571
በሚመጣው	-11.4572
አውሩ	-11.4572
አለቆቹን	-11.4572
አገልግሎታቸው	-11.4573
ያስተምረ	-11.4575
አውራጃ	-11.4576
ወቃችሁ	-11.4576
መዋጋት	-11.4577
አውቅ	-11.4579
ጆች	-11.4582
ልበሱ	-11.4586
ተከት	-11.4586
ሸፈነ	-11.4586
ግዙ	-11.4587
ተሳለ	-11.4589
ፈጽማ	-11.4596
ግምቱ	-11.4596
ተቈጥቶ	-11.4598
አላጠፋ	-11.4599
እንዲያደርጉ	-11.4601
አህያውን	-11.4602
ሰፈረ	-11.4603
መሠዊያዎች	-11.4606
ተቀምጣ	-11.4606
የማንሣት	-11.4608
ይወርሱ	-11.4612
የተሸከሙ	-11.4618
የሚጠላ	-11.4621
ይነድ	-11.463
ታመንሁ	-11.4632
ያደረግሁት	-11.4632
የሚሹ	-11.4636
አትሁን	-11.464
የኔር	-11.4642
ልመናዬ	-11.4644
ሞላባቸው	-11.4657
ፊያ	-11.466
ያሰኛ	-11.4662
የለንም	-11.4668
የሜራሪ	-11.4671
ብረቱ	-11.4679
ጆሮዬ	-11.4682
ከዮርዳኖስ	-11.4683
የባሪያህን	-11.4684
ዲን	-11.469
ከጽዮን	-11.4693
በገባዖን	-11.4695
ርቆአል	-11.4695
ለአባቶቻችን	-11.4698
ከመሠዊያው	-11.4699
መረጥሁ	-11.47
ያዩት	-11.47
የሚባለው	-11.4706
ጕልላ	-11.4708
ቴማን	-11.4709
ያልፋ	-11.4712
ተቈጠረ	-11.4713
የምድሩን	-11.4713
በአሞራውያን	-11.4733
ቅጥሩ	-11.4734
ከመጀመሪያ	-11.4736
ያገለግል	-11.4737
ላክሁ	-11.474
ሰውነት	-11.4753
ልሂድ	-11.4754
ተቀምጦአል	-11.4755
ኢያ	-11.4756
ከፍቶ	-11.4757
ታመልኩ	-11.476
በሕልም	-11.476
መድኃኒትን	-11.4761
ከሞዓብ	-11.4771
ዋጠ	-11.4776
ለነበሩት	-11.4777
ዘርህን	-11.4778
ታደርጋ	-11.4784
ረውን	-11.4785
ወለድሁ	-11.479
ሴዴቅያስን	-11.4796
አሳደዱ	-11.48
ወሰደች	-11.4805
ጠቁ	-11.481
ከመቅደሱ	-11.4813
የመጣው	-11.4817
ታቦቱን	-11.4817
ሳያቸው	-11.482
ዳለች	-11.4821
መቱት	-11.4824
ሙሽራው	-11.4825
ነቴን	-11.4827
የባቢሎንን	-11.4831
በዱር	-11.4834
በደልሁ	-11.4842
ግደሉ	-11.4849
ታራ	-11.486
የበፍታ	-11.487
ፊታቸውን	-11.4871
አለቻ	-11.4873
እግሬ	-11.4874
የፈርዖንን	-11.4875
የተቀባ	-11.4876
ያገኙት	-11.4882
ድንጋዩን	-11.4882
ዋለን	-11.4884
ጣላቸው	-11.4884
በደላቸውን	-11.4893
ፍርዱን	-11.4896
ከጨለማ	-11.491
ጣራ	-11.491
ሠራሁት	-11.4913
ጠማ	-11.492
መልካቸው	-11.4929
ከልጆቹ	-11.4941
ነበሩአቸው	-11.4941
ሥራህን	-11.4953
ቃወም	-11.4954
ሸጠ	-11.4956
የሚያገለግሉ	-11.4959
ማያምኑ	-11.4968
ታስረ	-11.4977
ዳርቻው	-11.499
ወላ	-11.5006
ቈጠረ	-11.5008
ገባበት	-11.5009
መንደሮችዋን	-11.5022
አሳባቸው	-11.5025
ፈወሰ	-11.5028
የፊተኛው	-11.5041
በረከትን	-11.505
ረከሱ	-11.5063
ሉአችሁ	-11.509
ልጆችህን	-11.5096
ሰምቼ	-11.5102
ደምዋ	-11.5102
ትኖሩ	-11.5121
ጀርባ	-11.5121
አራተኛ	-11.5125
ግፍን	-11.5131
የሚያመጣ	-11.5139
ዕቃው	-11.5139
አላገኘ	-11.5144
ማዕድ	-11.5149
ይመልሱ	-11.5151
ጸጋው	-11.5152
ኔር	-11.5155
ንኛ	-11.5165
ተጣለ	-11.5177
ያኖሩ	-11.5179
ይሰድ	-11.5181
ዕድሜህ	-11.5185
ሻገሩ	-11.5187
መወርወሪያ	-11.5187
ቀደመው	-11.5189
ትውልዳቸው	-11.519
ላካቸው	-11.5191
ኻ	-11.5191
መሸሸጊያ	-11.5192
ብፁዕ	-11.5192
ኃጥኣን	-11.5192
አስታሮት	-11.5192
ኢዮአካዝ	-11.5192
ኤልያሴብ	-11.5192
እጠብቃለሁ	-11.5192
ዐመፁ	-11.5192
ዐፀድ	-11.5192
ዘጠነኛው	-11.5192
ያመስግኑ	-11.5192
g	-11.5192
መደነቂያ	-11.5192
ርኵሳን	-11.5192
ሻለቆች	-11.5192
ቅርንጫፎቹ	-11.5192
ቅፍርናሆም	-11.5192
በረኞቹ	-11.5192
አመለኩ	-11.5192
አማሌቃውያን	-11.5192
አርማቴም	-11.5192
እንግድነት	-11.5192
ኬጢያውያን	-11.5192
ወይፈኑን	-11.5192
ወዳጆቹ	-11.5192
ያስጨንቅ	-11.5192
ይገለጣል	-11.5192
ድምፄን	-11.5192
ጕስቍልና	-11.5192
ጕድፍ	-11.5192
ፈቃዳቸው	-11.5192
ሐውልት	-11.5192
ሜልኮል	-11.5192
በውስጤ	-11.5192
ትኖራላችሁ	-11.5192
አምጥቶ	-11.5192
ተመልክቶ	-11.5192
ተላለፉ	-11.5192
እገባለሁ	-11.5192
ተሾሙት	-11.5192
ተመሰገነ	-11.5192
አንደበት	-11.5192
ወንድማችን	-11.5192
ተመልሰህ	-11.5192
ግማሽ	-11.5192
ቃርሚያ	-11.5192
አላገኙም	-11.5192
ይፈርዱ	-11.5192
ትወርሳት	-11.5192
በወገቡ	-11.5192
ይመልሳል	-11.5192
ታቀርቡ	-11.5192
ከብቶች	-11.5192
እርምጃ	-11.5192
ኋለኛ	-11.5192
መንደር	-11.5192
ተዘልለው	-11.5192
እጠራለሁ	-11.5192
ነጠቀ	-11.5192
ትናንት	-11.5192
ምድጃ	-11.5193
ጨምሩ	-11.5193
ለቀሩት	-11.5193
የሚመስሉ	-11.5193
የሚያህሉ	-11.5193
ኢያቡስቴ	-11.5193
ዘመኔ	-11.5193
ፈተኑ	-11.5194
ዓለቱ	-11.5194
ተከፈቱ	-11.5194
ቍጠር	-11.5194
ወድቀው	-11.5194
ዘዝኋቸው	-11.5194
ኡሪ	-11.5194
የማደርገው	-11.5194
ስብራት	-11.5194
መንግሥቴ	-11.5195
ውደቅ	-11.5195
አልበላም	-11.5195
መጠጊያዬ	-11.5195
ስወግድ	-11.5195
ያከብረ	-11.5196
ዘበኛ	-11.5196
ሜአለሁ	-11.5196
እስኪነጋ	-11.5197
ሸፍን	-11.5198
ለማጥፋት	-11.5198
ገበያ	-11.5198
አሜሳይ	-11.5198
አሰናብ	-11.52
አድርጌሃለሁ	-11.52
መርጦ	-11.52
ሰጠሃቸው	-11.5201
ይከተሉ	-11.5201
ቤታችሁ	-11.5202
ጌቶች	-11.5202
አነበበ	-11.5203
አምጥተው	-11.5205
ሎሌዎቹ	-11.5205
ይጠራል	-11.5205
ዘገየ	-11.5206
ክፋቱ	-11.5211
ኢያቡሳዊው	-11.5211
ጥፋታቸው	-11.5211
ቲር	-11.5213
ሰልሉ	-11.5213
በየዕለቱ	-11.5216
የለበሰ	-11.5217
ኤሊሳማ	-11.5219
በደላችሁ	-11.522
ዘመድ	-11.5221
ረከሰች	-11.523
ዱሮ	-11.523
ዘጉ	-11.5233
ጸድ	-11.5233
በሰንሰለት	-11.5237
በምስክሩ	-11.5239
ያስቡ	-11.5243
ቃየን	-11.5244
ትርጓሜው	-11.5244
አመጣኝ	-11.5245
አብዝቶ	-11.5245
ረብ	-11.5246
ስንቅ	-11.5253
ለማደሪያው	-11.5254
በሰገነት	-11.5254
አምላክሽ	-11.5257
ጆሮውን	-11.5262
የሚያጠፋ	-11.5263
አፈረሰ	-11.5265
ምሳሌውን	-11.5267
አትብላ	-11.5268
እናትዋ	-11.5273
አጥፍ	-11.528
ጠጪ	-11.5281
ትእዛዝህ	-11.5281
የሚሰሙ	-11.5284
ቅድስት	-11.5285
ለሚያደርጉ	-11.5287
ይቀጣ	-11.5293
የአሴር	-11.5294
ጦሩን	-11.5299
ጎግ	-11.5302
አማት	-11.5311
ከሊባኖስ	-11.5313
ተሰቀለ	-11.5314
በቀኙ	-11.5316
የወጡት	-11.5317
ባየሁ	-11.5318
ከወይኑ	-11.5323
ያድነው	-11.533
የሞተውን	-11.5332
ገረድ	-11.5333
ከናስ	-11.5338
አዲሱን	-11.534
የተሰጠው	-11.5347
ራሳችንን	-11.5356
ክብሩን	-11.5365
ሬሳው	-11.5379
መጨረሻው	-11.5382
ባዩት	-11.5382
በሶርያ	-11.5386
ጠገቡ	-11.539
ሰጠችው	-11.5397
የሚጠራ	-11.5399
በድካም	-11.5406
ሁድ	-11.5409
በማስተዋል	-11.5411
አስተዋ	-11.5411
ከኃጢአተኞች	-11.5415
ሚመለከተው	-11.5418
ትወልድ	-11.5423
ምናምን	-11.5437
አለቆችዋ	-11.5445
ነገረኝ	-11.5448
ለቅዱሳን	-11.5454
ለጥፋት	-11.5457
ይነሡ	-11.5461
ለበሰ	-11.5466
ኃጢአትህ	-11.5469
ከበበ	-11.5474
ሕልሙን	-11.549
አውድማው	-11.5491
ወንድሞቻችሁን	-11.5494
የሰሎሞንን	-11.5494
ቃር	-11.5508
ተደረገው	-11.551
መጣለት	-11.5523
አማርያ	-11.5527
ክብሬን	-11.5568
ረጋ	-11.5577
መጽሐፉ	-11.5579
መብላት	-11.558
ሌዋዊው	-11.5584
ተመለከቱ	-11.5589
ሠሪው	-11.5622
ተገኙ	-11.5625
ከተማዎች	-11.5632
ኤልያ	-11.5689
ነፋስን	-11.5689
አደረግ	-11.5696
ሊያጠፋ	-11.5704
ሰራ	-11.5708
ደነቁ	-11.5725
አይቼ	-11.5737
እርዳ	-11.5761
ጠላሁ	-11.5765
አግባ	-11.5765
የሚገባው	-11.5783
መለሰልኝ	-11.5794
ሠራዊ	-11.5795
ጉቦ	-11.5802
ይወቅ	-11.5811
የሕይወትን	-11.5818
ተላለፍ	-11.5819
ባርነት	-11.582
አብዝተ	-11.582
ቀርቶ	-11.5821
ተጽፎ	-11.5823
ለበጣ	-11.5834
ንቀላፋ	-11.5835
በታንኳ	-11.5842
ምድያምን	-11.5845
ያለህን	-11.5851
ሰበሰባ	-11.5854
ያሰኘው	-11.5858
መስዋዕት	-11.5858
መንቀጥቀጥ	-11.5858
መንኰራኵሮቹ	-11.5858
መጠምጠሚያ	-11.5858
ማሰናከያ	-11.5858
ሜምፊቦስቴ	-11.5858
ርኅራኄ	-11.5858
ሽማግሎች	-11.5858
ቀራጮች	-11.5858
በዓይናቸው	-11.5858
ናቡዘረዳን	-11.5858
አዕማዱ	-11.5858
ኢዮናዳብ	-11.5858
እንሞታለን	-11.5858
እንዳደረጉ	-11.5858
እግሮቻቸው	-11.5858
ከተፈተለ	-11.5858
ወንድሞቻችን	-11.5858
ዑዝኤል	-11.5858
ይሰግዳሉ	-11.5858
ዮዛባት	-11.5858
ደካሞች	-11.5858
ጕልበቱ	-11.5858
ጕልበቴ	-11.5858
ላድርግ	-11.5858
መደረቢያ	-11.5858
ሸመገለ	-11.5858
ተናገራችሁ	-11.5858
ትመስላለች	-11.5858
አብደናጎ	-11.5858
አኪጦብ	-11.5858
አገልጋዮቹ	-11.5858
አግኝተ	-11.5858
የተቀረጹ	-11.5858
ጠንቋዮች	-11.5858
ጺቅላግ	-11.5858
ፈቃዴ	-11.5858
ፌጎር	-11.5858
አስቀድማ	-11.5858
አስገባሪ	-11.5858
ኤስሮም	-11.5858
እንጎቻ	-11.5858
ኵርንችት	-11.5858
ደነገጡ	-11.5858
ጠፍተዋል	-11.5858
ሲድራቅ	-11.5858
አስወገደ	-11.5858
ኤልያቄም	-11.5858
ዘግቶ	-11.5858
ምዋገት	-11.5858
ተመልሳችሁ	-11.5858
ኤልፋዝ	-11.5858
እዘረጋለሁ	-11.5858
ትወዳለህ	-11.5858
ደቡቡ	-11.5858
ድንበራቸው	-11.5858
ንጥቂያ	-11.5858
ከለክል	-11.5858
ፍሬያማ	-11.5858
ሰገነቱ	-11.5858
ተባበሩ	-11.5858
ፍሪዳ	-11.5858
መጥምቁ	-11.5858
እንላለን	-11.5858
ቤዣ	-11.5858
ጭኖ	-11.5858
አሠራር	-11.5859
ያቃጥል	-11.5859
ተሰነጠቀ	-11.5859
የሚያደርገውን	-11.5859
ምታፈስሰው	-11.5859
ሰውነታቸውን	-11.5859
አደገ	-11.5859
ዐረፈ	-11.5859
ታወከ	-11.5859
መታመኛ	-11.5859
ቀልጠ	-11.586
ሃዳድ	-11.586
ተነሥቼ	-11.586
ማሰሮ	-11.586
ጌዝር	-11.5861
የሚወድዱ	-11.5861
ተዋረዱ	-11.5861
ሰምተናል	-11.5861
አንሡ	-11.5862
አትደንግጡ	-11.5862
ጸለይ	-11.5862
እሠራለሁ	-11.5862
ደረስን	-11.5862
ዝንጉ	-11.5863
ነፋሱ	-11.5863
ሰጥተዋል	-11.5863
ጠሙ	-11.5863
መረመር	-11.5864
ሚካኤል	-11.5864
ሰጠኋችሁ	-11.5864
የሞዓብን	-11.5865
እስከዚህ	-11.5866
የሰሙት	-11.5867
ጥለዋል	-11.5867
አቅና	-11.5867
የሞቱት	-11.5869
ሰፍሩ	-11.5869
ግመል	-11.5869
ክፋ	-11.5871
ፈርተው	-11.5872
ስፋት	-11.5872
ረክሰ	-11.5873
ያጥኑ	-11.5876
ሰቀል	-11.5877
አማትዋ	-11.5884
በልተው	-11.5885
ጠፈር	-11.5886
እመልሳ	-11.5887
ዳጎን	-11.5887
አህያይቱ	-11.5887
ደክመ	-11.5891
ይሠራሉ	-11.5891
ስበክ	-11.5893
ፈተን	-11.5894
ፈትል	-11.5895
አይልም	-11.5896
ሌለባቸው	-11.5897
ገዙአቸው	-11.5899
ለብስ	-11.5899
የሚወድድ	-11.5899
ፈርቶ	-11.59
እንዲሄድ	-11.59
የተዘጋጁ	-11.59
ዳኛ	-11.5902
መላለሳ	-11.5907
ታዘዝ	-11.591
ግዛቱ	-11.5913
እንውጣ	-11.5914
አፈረሱ	-11.5915
ሰበክ	-11.5922
ሚሉት	-11.5922
ያኖረ	-11.5925
አነሡ	-11.5928
ሞቶአል	-11.5929
ለአባቶችህ	-11.593
ለዘርህ	-11.5931
ቀድሰው	-11.5935
ትኖራለህ	-11.5942
አገኘው	-11.5945
በመጨረሻው	-11.5947
ጠላቱ	-11.5948
ወደድህ	-11.5949
አልጠጣ	-11.5949
ይጣላ	-11.595
ተነሥተ	-11.595
ዛለች	-11.5952
ባሮቹ	-11.5953
በቅጥሩ	-11.5954
ከአሞን	-11.5955
ቍጣዬን	-11.5957
ናውቅ	-11.596
ባርቅ	-11.5961
እንዳደረገው	-11.5965
ይሰበ	-11.5965
የውኃውን	-11.5968
በትዕግሥት	-11.5971
ሸለቆች	-11.5972
በግንቡ	-11.5972
ብናል	-11.5973
መልክያ	-11.5975
ማደሪያህ	-11.5977
በጫንቃ	-11.5979
በራስህ	-11.5979
ሕማ	-11.5981
የመቅደሱን	-11.5983
በስድስተኛው	-11.5988
እጅዋን	-11.5991
ታደርገው	-11.5993
ብትሉ	-11.5993
ጥሩር	-11.5993
ላዩ	-11.5994
ማይቻል	-11.5997
ሲወጡ	-11.5998
በሴይር	-11.6
በከተማው	-11.6001
ጸሎቴን	-11.6003
ለዘሩ	-11.6005
ከማኅፀን	-11.6009
ሚሳቅ	-11.6011
ቀረበች	-11.6013
በጥዋት	-11.6018
በአሞን	-11.6021
ሲገባ	-11.6031
ወሰድሁ	-11.6035
በአደባባዩ	-11.6055
የሚሆኑ	-11.6056
ሳብ	-11.6064
ተኙ	-11.6064
የሚሉትን	-11.6067
ይፈታ	-11.6073
እንዲመጣ	-11.6082
ተከተል	-11.6092
መራቸው	-11.6094
ማይታዘዙ	-11.6095
ፈጣ	-11.6098
ተጠማ	-11.6101
መጀመሪያው	-11.6101
ከዚህች	-11.6112
የሚያሳ	-11.6118
አጠፋቸው	-11.6136
በሬዎችን	-11.6137
ሌዋዊ	-11.614
አዳር	-11.6142
ያረክሱ	-11.6155
ፍርዴ	-11.6168
ዓይኑ	-11.6169
ደሱ	-11.6187
መሥዋዕቱን	-11.6196
እግሬን	-11.6209
ቢኖሩ	-11.6214
ጐድል	-11.6231
ባልንጀራህን	-11.6232
ረገጠ	-11.6247
አትግደ	-11.6257
ጣር	-11.6261
እጽፍ	-11.6271
ይበትና	-11.6281
ተቀበሉት	-11.6283
ባልንጀራው	-11.631
ተጣሉ	-11.631
ጻድቁ	-11.6315
ዝዝ	-11.6324
ወስዱ	-11.6325
ተተከለ	-11.6326
ሳላ	-11.6329
መሰምርያ	-11.6349
ታስተውሉ	-11.6365
ተጠሩ	-11.6368
መውጫው	-11.6381
ርስቱን	-11.6392
የፍልስጥኤማውያንን	-11.6394
ነግርህ	-11.6429
ያድኑ	-11.6431
የተወለደው	-11.6443
ቃለህ	-11.6443
መከራዬን	-11.6448
ዘዘው	-11.6448
ስእለ	-11.6472
ጠበቃ	-11.6481
ወኅኒ	-11.6488
ብልሃት	-11.6492
ቀሙ	-11.6496
የሚወጣው	-11.6537
ተቀምጠ	-11.6545
ያመጡት	-11.6552
ዐመፀ	-11.6572
ሁለንተና	-11.6572
መሃናይም	-11.6572
መንገዶች	-11.6572
ማገልገያ	-11.6572
ሮማኖች	-11.6572
ሰዱቃውያን	-11.6572
ቂሣርያ	-11.6572
ቢታንያ	-11.6572
ባልንጀሮቹ	-11.6572
ብልሃተኛ	-11.6572
ተደርጎ	-11.6572
ታናሺቱ	-11.6572
ኋለኞች	-11.6572
ነገሥታቶቻቸው	-11.6572
ንግግር	-11.6572
አርሞንዔም	-11.6572
አቆስጣ	-11.6572
አኪማአስ	-11.6572
አይደለንም	-11.6572
ኢዮጴ	-11.6572
እፉኝት	-11.6572
ከመካከላቸው	-11.6572
የምስራች	-11.6572
ያልተገረዘ	-11.6572
ይሰናከላ	-11.6572
ድንኳኖቻ	-11.6572
ገዦች	-11.6572
ጕሮሮ	-11.6572
ጥበበኛ	-11.6572
ጥንቃቄ	-11.6572
ፌዘኛ	-11.6572
ነፍሳችን	-11.6572
ውርንጫ	-11.6572
ዓይናችን	-11.6572
ገሃነ	-11.6572
ሆሴዕ	-11.6573
ውርደት	-11.6573
የተረገመ	-11.6573
ይደርሳል	-11.6573
ኤሞር	-11.6573
እነሣለሁ	-11.6573
ጠራቢዎች	-11.6573
በፊታችን	-11.6573
ትበላለህ	-11.6573
አንችልም	-11.6573
እንዳዘዝሁ	-11.6573
አዝዣ	-11.6573
ተኵላ	-11.6573
ዘንዶው	-11.6573
ስደተኛ	-11.6573
ትወዳላችሁ	-11.6573
ሰይፌ	-11.6573
ታማኝ	-11.6573
ይደነቃ	-11.6573
ዳቤር	-11.6573
አሶር	-11.6573
ዘገይ	-11.6573
አደጋ	-11.6573
ይታያል	-11.6573
ምላሳቸው	-11.6573
እሸት	-11.6573
ሰፈራቸው	-11.6573
ዘዛችሁ	-11.6573
ውደዱ	-11.6573
አይጸናም	-11.6573
ሲዶናውያን	-11.6574
ስወግዱ	-11.6574
ሄጄ	-11.6574
ሰብስቡ	-11.6574
በዙሪያሽ	-11.6574
ኤዶም	-11.6574
መጥተዋል	-11.6574
ኤፍራታ	-11.6574
ለባሽ	-11.6575
ዘዝኋችሁ	-11.6575
ተነሺ	-11.6575
ምልክቱ	-11.6575
ከመጠጡ	-11.6575
ንዕማን	-11.6576
ነገራችሁ	-11.6577
አይመለስም	-11.6577
ሸቀጥ	-11.6577
ዘርግተ	-11.6577
ያደረጉትን	-11.6579
ሔሬ	-11.6579
ታውቂ	-11.6579
ፋረድ	-11.6579
ራሾች	-11.658
ስደት	-11.658
ደንዳ	-11.6581
ለመኑ	-11.6581
አላደረግ	-11.6581
ምረጥ	-11.6583
ምጽዋት	-11.6583
ታበዩ	-11.6584
እስኪጠፉ	-11.6584
የበኣልን	-11.6584
መምሰል	-11.6585
ይሆንበታል	-11.6586
ለመንሁ	-11.6586
ሚበርር	-11.6587
አልመጣም	-11.6587
ቈረጡ	-11.6587
ይሰግዱ	-11.6588
ጠለቀ	-11.6588
የሚመስለው	-11.6588
ይጠጣሉ	-11.659
እየጮኹ	-11.659
ይራራል	-11.6591
ይፈርሳ	-11.6592
ፈትኑ	-11.6592
እልፍኝ	-11.6593
የደኅንነቱን	-11.6594
ተገለጠለት	-11.6594
የሚናገረው	-11.6594
ባትሰሙ	-11.6595
እነማ	-11.6596
የተፈታ	-11.6596
የናዝሬቱ	-11.66
ይሰማሉ	-11.6602
ንቀት	-11.6606
ባደረገው	-11.6609
የተሠራውን	-11.661
ቅሚያ	-11.661
ይሰበሰባ	-11.6612
ውቀውም	-11.6612
ተክሎ	-11.6614
ሰውዬው	-11.6614
እራት	-11.6615
ጆሮህን	-11.6617
ሥጋዋን	-11.6618
ሰረገላውን	-11.6619
ከባርነት	-11.6626
የሚወዱ	-11.6629
ሴቶቹ	-11.6629
ቆረ	-11.6635
ተወኝ	-11.6636
ቍጠሩ	-11.6637
የሚያምኑ	-11.6637
ለበጡ	-11.6639
የለበሰው	-11.664
ሸፍና	-11.6645
ከአሴር	-11.6645
ምስጋናውን	-11.665
ዘመሩ	-11.665
ያውያን	-11.6652
ጠራሁህ	-11.6653
እንዳልሆነ	-11.6658
ካፈል	-11.666
ነግራቸው	-11.6668
ከከተማው	-11.6668
ከአፌ	-11.6671
ተስፋዬ	-11.6673
ጐመ	-11.6681
የሚሰጠው	-11.6684
የሚጠጣ	-11.6684
ፈጠረው	-11.6684
ትሠራለ	-11.6688
ኤሎን	-11.6689
እኅትዋ	-11.6692
ለመታሰቢያ	-11.6694
ተስፋው	-11.6695
ከስፍራው	-11.6696
ከዛብሎን	-11.6696
ከወንዙ	-11.6698
ከሮቤል	-11.6701
ረኩ	-11.671
ተቀመጠበት	-11.672
ተነሥቶአል	-11.6724
አውራውን	-11.6731
ሚደረግ	-11.6737
እንዳላችሁ	-11.6745
ድሪ	-11.6746
አምሳያ	-11.675
ብጥ	-11.6751
የተሳለ	-11.6757
ተነገረ	-11.6769
አይደር	-11.6769
ዓለሙን	-11.6776
በኮረብታው	-11.6779
ጉልበ	-11.6788
ይፈልግ	-11.6793
ባየው	-11.6835
ይሰማራ	-11.6838
የምትኖር	-11.684
ቤላ	-11.6847
ነግራችሁ	-11.6847
ተራራዬ	-11.6851
ቦካ	-11.6859
አዞ	-11.6864
ኖቹ	-11.6866
ኅብረ	-11.6868
ሰረገሎቹን	-11.6915
ጽድቅህን	-11.6915
በዘበዙ	-11.6916
ታገኛለ	-11.6927
ወጥታ	-11.6932
ፍርዱ	-11.6936
ዘይቱ	-11.6939
ይሰበራ	-11.6939
ተዉት	-11.6955
በደላቸው	-11.6981
ተጻፈው	-11.6984
ፍጻሜው	-11.6988
ያመነ	-11.699
ወደደችውን	-11.7
ሰበሩ	-11.7017
ነበረችው	-11.7018
ኸ	-11.7027
ኪዳኑ	-11.7031
ያውቀው	-11.7033
ይሠዉ	-11.7041
አሥሩ	-11.7046
ጠላቶቻቸውን	-11.7059
ስገድ	-11.7068
ቅጥርዋ	-11.7074
ኖረበት	-11.7074
መልካሙ	-11.7079
ተመታ	-11.708
ንቀሳቀስ	-11.7089
ፈራችሁ	-11.709
ተሰጠኝ	-11.7091
የፊተኛውን	-11.7094
አስታውቀ	-11.712
ከማቸ	-11.7123
ሰባብራ	-11.7145
ያወጣው	-11.7157
የሚነሣ	-11.7161
ጐዳ	-11.7171
ዋሻው	-11.7192
ትረሳ	-11.7208
ሥልጣ	-11.722
ገሩት	-11.7224
ጦሩ	-11.7231
እጀ	-11.7235
እንደሚሠራ	-11.7258
ታጥቀ	-11.7263
በዓና	-11.7288
ሥጋችሁ	-11.729
ጠቡ	-11.7294
ቀናች	-11.7303
ሰቀሉ	-11.7304
ዌ	-11.7329
ዐግ	-11.7334
ሚሉአት	-11.7336
ተከናወ	-11.7337
ላደረጉ	-11.7342
መሠረቱ	-11.7342
መንኰራኵሮች	-11.7342
መኳንንቶ	-11.7342
መዛነቢያዎቹ	-11.7342
ምዕራቡ	-11.7342
ሰናክሬም	-11.7342
ሹማምቶች	-11.7342
በማግሥቱ	-11.7342
በዕብራይስጥ	-11.7342
ተሞልታለች	-11.7342
ተቃዋሚ	-11.7342
ተአምራቱ	-11.7342
ነአሶን	-11.7342
ንጹሑን	-11.7342
አንደበቴ	-11.7342
አንጥረኛ	-11.7342
ኢያዕር	-11.7342
ኢያዜር	-11.7342
ኤዊያውያን	-11.7342
እምቦሳ	-11.7342
እንስሶቻቸው	-11.7342
ከንፈሮቼ	-11.7342
ዓይኖቻችሁ	-11.7342
ዝንጕርጕር	-11.7342
የቃሬያ	-11.7342
ጐበዛዝት	-11.7342
ጩኸታቸው	-11.7342
ጼዴቅ	-11.7342
ጾርዓ	-11.7342
ፈሪሳዊ	-11.7342
ፌርዛውያን	-11.7342
ስልማና	-11.7342
ታዳጊ	-11.7342
አገሪቱ	-11.7342
ኤዶታም	-11.7342
ተወግተው	-11.7342
ተገናኙ	-11.7342
እንድርያስ	-11.7342
የተረፈውን	-11.7342
ይሒኤል	-11.7342
ይደነግጣ	-11.7342
ዮፎኒ	-11.7342
ጠቦቶቹ	-11.7342
ሞኝነት	-11.7342
ሰላትያል	-11.7342
ታረደው	-11.7342
እጥላለሁ	-11.7342
ገለገለ	-11.7342
ይነግዱ	-11.7342
ቀንዶቹ	-11.7342
ውሰደው	-11.7342
አላስቀረ	-11.7342
ጩኹ	-11.7342
መዓዛ	-11.7342
በዝቶአል	-11.7342
ዙፋኔ	-11.7342
አትፍሪ	-11.7342
ይወርሳል	-11.7342
ሬካብ	-11.7342
ሳደቡ	-11.7342
ቴርሳ	-11.7342
ተጨነቀ	-11.7342
ወደምትባል	-11.7342
ለምጻም	-11.7342
ገለግለው	-11.7342
መርዳት	-11.7342
ጉዳይ	-11.7342
ትሕትና	-11.7342
ነውረኛ	-11.7342
ይጓዙ	-11.7342
የሚያሰኘውን	-11.7342
ማጭድ	-11.7342
ወገኖቹ	-11.7342
ያደረጋችሁ	-11.7342
ነበራት	-11.7342
ተዘጋጅቶ	-11.7342
አስታውቃ	-11.7342
ቀደሙት	-11.7342
ዘመዶች	-11.7342
ሰውነታችሁን	-11.7342
አጥንቴ	-11.7343
የባዶስ	-11.7343
ተሸሸገ	-11.7343
ተባበር	-11.7343
ይዘረጋል	-11.7343
የተናገርኸው	-11.7343
ርስቴ	-11.7343
ማርከው	-11.7343
ፍርምባ	-11.7343
የናታንያ	-11.7343
ሲላስ	-11.7343
ጀመሩ	-11.7343
ጥፍጥፍ	-11.7343
ከመንጋው	-11.7343
ታጠቀ	-11.7343
ቍራጭ	-11.7343
እንበረም	-11.7343
ይሰጣችኋል	-11.7344
ታደርጋለች	-11.7344
ቤቶቻቸው	-11.7344
ይለናል	-11.7344
አቅርበ	-11.7344
ሚስቴ	-11.7344
ሕመም	-11.7344
አድራጊዎች	-11.7344
መለየት	-11.7345
አወጡት	-11.7345
በድያለሁ	-11.7345
ጨምሮ	-11.7345
ተቀምጠዋል	-11.7345
ይቤዠው	-11.7345
ካራን	-11.7345
እኅቶ	-11.7345
አስተምረኝ	-11.7346
መወርወሪያዎች	-11.7346
ማዕበል	-11.7346
ጆሮአቸውን	-11.7347
አድርገናል	-11.7347
ተከፈለ	-11.7347
በለሱ	-11.7348
ሚፈስስ	-11.7348
የሚቀመጡትን	-11.7349
ሠርተው	-11.7349
ቲቶ	-11.7349
ይገረዝ	-11.7349
ያስተምራቸው	-11.7349
ነገሥ	-11.735
ይገልጣ	-11.735
ካሪም	-11.7351
ሸሽተው	-11.7351
ልኮኛል	-11.7351
የሚያቀርበው	-11.7351
አመጣቸዋለሁ	-11.7352
አያደርግም	-11.7352
ጨርቅ	-11.7353
ጠጥተ	-11.7353
ወሰነ	-11.7353
ያፈርሳ	-11.7354
ሰገዱለት	-11.7354
መሥዋዕታቸው	-11.7354
አስቀመጡ	-11.7354
ጓዳዎቹ	-11.7354
ሙሾ	-11.7355
ታምሞ	-11.7356
መስክር	-11.7356
ቾች	-11.7356
የገቡት	-11.7359
መካከለኛው	-11.7361
ራሶች	-11.7361
ሊገድሉት	-11.7361
ያለቅስ	-11.7362
የምትቀመጥ	-11.7362
ሊያድን	-11.7362
ማልሁላቸው	-11.7363
ጃለሁ	-11.7363
ችግረኛውን	-11.7365
ጠላቴ	-11.7366
አወጣለሁ	-11.7367
ሲናገሩ	-11.7367
ያየሁት	-11.7368
በመካከልህ	-11.7368
ሰኮና	-11.7369
የሻለቃው	-11.7371
ይዤ	-11.7371
ፋሲካውን	-11.7371
አኑረ	-11.7372
አማች	-11.7372
በሕይወታቸው	-11.7372
እንዳይኖር	-11.7374
ጥልቁ	-11.7375
ገበታውን	-11.7375
እወስዳ	-11.7376
ያበዛል	-11.7377
አይተዋል	-11.7378
ፍቺ	-11.7378
ጎደለ	-11.7382
ለባልንጀራው	-11.7382
መንጋጋ	-11.7385
እንዳይሞት	-11.7386
የሚፈልግ	-11.7386
ከተቀደሰው	-11.7387
ብታደርጉ	-11.7388
አውቀው	-11.7389
መሆናችሁ	-11.739
ምስክርህን	-11.7392
ደፍር	-11.7397
ናባው	-11.7399
አይግባ	-11.7401
ንቀሳቀሱ	-11.7402
ትከተሉ	-11.7409
ሲሰሙ	-11.7412
ኩሲ	-11.7415
ግንቦች	-11.7416
ዕብ	-11.742
ሬሞን	-11.7427
ሳይመጣ	-11.7428
አወረዱ	-11.7434
ጠግባለ	-11.7437
አልፎአል	-11.7439
በአልጋው	-11.744
ወድቃ	-11.7441
በላይዋ	-11.7444
ታሰር	-11.7448
አይብላ	-11.7451
ትመስሉ	-11.7452
ይስዓ	-11.7453
ከይሳኮር	-11.7464
ሆንሽ	-11.7464
ከመጀመሪያው	-11.7466
ሰጠኸው	-11.7469
እሰጥ	-11.747
ማርታ	-11.7472
ፈርሱ	-11.7481
ጻፈው	-11.7487
ክፈት	-11.7489
ሥርዓቱ	-11.7491
በተሠራ	-11.7495
ደስታዬ	-11.7499
በላች	-11.7501
አማቱ	-11.7506
መጣለሁ	-11.751
ቀለጠ	-11.7519
መልስልኝ	-11.7527
ሠርቶአል	-11.7527
ያቆማ	-11.7544
አጋባ	-11.7547
መኖር	-11.7553
ዛላችሁ	-11.7557
ያዘጋጀ	-11.7562
ተፈወሰ	-11.757
ሚያልፍ	-11.7579
ለሚጠብቁ	-11.7582
ያስታ	-11.7598
ገድሎ	-11.7598
እርዳታ	-11.7607
ቀዱ	-11.7614
ፈራሁ	-11.7615
ቀድደ	-11.7618
ሚበላው	-11.7636
በሮችዋ	-11.765
ክብሬ	-11.769
ሚሄድ	-11.7696
ጠላትህ	-11.7706
ተለዩ	-11.771
ረጨዋ	-11.7718
እያሰ	-11.7727
ጭኑ	-11.7731
ኤማን	-11.7734
ተጨነቁ	-11.7737
ገዛለት	-11.7741
እቆ	-11.776
መሥዋዕቱ	-11.777
ዘነበ	-11.7785
አልፈራ	-11.7786
ሕልሙ	-11.7787
ሰረገሎቹ	-11.7788
የሌለ	-11.78
አሰረ	-11.7803
ረክሱ	-11.7813
ሰክሩ	-11.7817
ሚባል	-11.7823
ስቈጡት	-11.7824
ያስጨንቁ	-11.7838
ዓድ	-11.7871
ሞቶ	-11.7887
ስለሌለ	-11.789
መንገዴ	-11.7901
ቍራ	-11.7922
ቀስታ	-11.7928
ዓለሙ	-11.7941
ጕልላቶ	-11.798
ጸሎቴ	-11.7996
ቀሱ	-11.8004
ተሰጣቸው	-11.8036
ገዢ	-11.8038
ሌለባት	-11.8049
ያገለግሉኝ	-11.8053
ወዮላ	-11.8061
ራፊ	-11.8063
ሰብረ	-11.8064
ሠራቸው	-11.8075
መዛግብ	-11.8101
ሰገነት	-11.8109
ወጣለች	-11.8113
አውጥተ	-11.812
ሰድደ	-11.8131
መመለስ	-11.8131
እመታ	-11.8134
ኤሊሳ	-11.8152
ተሸክመ	-11.8153
ምሰሶ	-11.8154
እያንዳንዳች	-11.8161
ሂ	-11.8164
ታገኛ	-11.817
ሢ	-11.8174
k	-11.8175
ቧ	-11.8175
ኤዊያዊ	-11.8175
ሓ	-11.8175
መቅረዝ	-11.8175
መግደላዊት	-11.8175
ምርኮኞቹ	-11.8175
ምድራችን	-11.8175
ሞሖሊ	-11.8175
ሞግዚ	-11.8175
ሰንበታቴን	-11.8175
ሰንፔር	-11.8175
ሽምግልና	-11.8175
ቄድሮን	-11.8175
ቋቁቻ	-11.8175
በኣሊምን	-11.8175
በዓይናችሁ	-11.8175
ቤርዜሊ	-11.8175
ቤትሖሮን	-11.8175
ብልሃተኞች	-11.8175
ተመሸገ	-11.8175
ተናወጠች	-11.8175
ተንቀሳቃሽ	-11.8175
ትዕቢተኛ	-11.8175
ናዝራዊ	-11.8175
ንጉሣቸው	-11.8175
ንጽሕና	-11.8175
አንካሶች	-11.8175
አግሪጳ	-11.8175
አፍርሰዋል	-11.8175
ኢኮንያን	-11.8175
ኢዮሴዴቅ	-11.8175
ኤፍሮን	-11.8175
እንኖራለን	-11.8175
እንዳገኘ	-11.8175
ኦፊር	-11.8175
ወታደሮች	-11.8175
ዛብሄል	-11.8175
የሚሸፍነውን	-11.8175
ያዋርዳ	-11.8175
ያዘጋጃ	-11.8175
ይፈልጋል	-11.8175
ደነደነ	-11.8175
ድንግሊቱ	-11.8175
ገሥጸው	-11.8175
ጣፋጩ	-11.8175
ጩኸቴ	-11.8175
ጭፍሮቹ	-11.8175
ጽሕፈቱ	-11.8175
ፊተኛይቱ	-11.8175
ፕ	-11.8175
መበለቶች	-11.8175
ሸክሙ	-11.8175
አትደንግጥ	-11.8175
እንጐቻ	-11.8175
ሕዝባቸው	-11.8175
መኰንን	-11.8175
ረድኤት	-11.8175
ቆንጆ	-11.8175
ተሸክሞ	-11.8175
እኅታቸው	-11.8175
እንጨቱን	-11.8175
ጠጉር	-11.8175
አጥንቶች	-11.8175
ጸያፍ	-11.8175
በድለናል	-11.8175
ተጣጣሉ	-11.8175
ዕብራዊ	-11.8175
ይሩበኣል	-11.8175
ሊዋጉ	-11.8175
ምስኪን	-11.8175
ታቦር	-11.8175
ያዛቸው	-11.8175
እንቢልታ	-11.8175
ያይደለ	-11.8175
ዮአኪን	-11.8175
መጊዶ	-11.8175
ከብቶቻቸው	-11.8175
ጮኻ	-11.8175
ምዋርት	-11.8175
አስቀመጠ	-11.8175
ትውልዶ	-11.8175
ይቀርባል	-11.8175
አይተሃል	-11.8175
በዓላት	-11.8175
ርፋሉ	-11.8175
በሪዓ	-11.8175
አገዳ	-11.8176
ተደነቀ	-11.8176
ሚነድድ	-11.8176
ትካዜ	-11.8176
ያመለጠ	-11.8176
ቀሠፈ	-11.8176
አትችልም	-11.8176
በእስያ	-11.8176
ፊስጦስ	-11.8176
ሰደድሁ	-11.8176
ይመስላችኋል	-11.8176
ይይዙ	-11.8176
ተቀመጣችሁ	-11.8176
ቀደዱ	-11.8176
ቀስተኞች	-11.8176
ጠንካ	-11.8176
አላየውም	-11.8177
መርበብ	-11.8177
በልብዋ	-11.8177
ያሰኝ	-11.8177
ይቀበሉ	-11.8177
ይሰበስባ	-11.8178
ውካታ	-11.8178
ይቀራል	-11.8178
ጊደር	-11.8178
የሞተው	-11.8179
ታሰሩ	-11.8179
ጥበቡ	-11.8179
በየወገኑ	-11.8179
በየስፍራው	-11.8179
እየሰበከ	-11.8179
መረግድ	-11.8179
የላከኝን	-11.8179
ቅርጽ	-11.8179
እናንት	-11.818
አድናለሁ	-11.818
አዋቂዎች	-11.818
ጭንጫ	-11.818
ታስብ	-11.818
ቄዳር	-11.8181
መቅሠፍቱ	-11.8182
የበደሉን	-11.8182
ጆሮአችሁ	-11.8182
በየቀኑ	-11.8182
ደነግጥ	-11.8183
ሻለሽ	-11.8183
ሰብስብ	-11.8185
አይተን	-11.8185
ማርኮ	-11.8185
ስተዋልሁ	-11.8185
ብለሃል	-11.8185
ገለበጠ	-11.8185
ፋራን	-11.8186
ይበዛል	-11.8187
ረዳቴ	-11.8188
ጠርተው	-11.8188
ሕፃንነት	-11.8188
ፀነ	-11.8188
ጀምር	-11.819
ዲኤል	-11.8191
ቀጡ	-11.8191
ተረፉት	-11.8191
ወላድ	-11.8192
በገባችሁ	-11.8193
ያልሆነውን	-11.8193
ኖራችሁ	-11.8194
በሚኖሩበት	-11.8194
አይታችኋል	-11.8195
እንዳይሞቱ	-11.8196
ዓረብ	-11.8197
ወዶ	-11.82
እስኪሆን	-11.8201
ግያዝ	-11.8202
ያፍሩ	-11.8203
ፍቀድ	-11.8203
ብትጠብቅ	-11.8204
ተዉአቸው	-11.8204
ተቀመ	-11.8206
እንዳይጠፋ	-11.8206
አረከሱ	-11.8209
ሳመው	-11.8209
ስንዴውን	-11.821
ልብሶች	-11.8213
ፈርጥ	-11.8213
ይዋጋል	-11.8216
አፍዋን	-11.8218
የሚመዝ	-11.8219
ተነጋገሩ	-11.8222
ልካቸው	-11.8222
ተመላለሱ	-11.8225
ይረዝ	-11.8228
አሳቡ	-11.8232
ልበስ	-11.8232
ሰቀሉት	-11.8233
የሚበሉት	-11.8238
ሸማ	-11.8239
ሚያቀርቡት	-11.8242
ምስሉ	-11.8244
ማንኛው	-11.8248
ሚጠሉኝ	-11.8248
ሙግ	-11.8253
መከታ	-11.8257
ተከማቹ	-11.8272
ያዳነ	-11.8278
አረደ	-11.8281
ተከማቸ	-11.8283
ባለፈ	-11.8292
ብዙዎቹ	-11.8294
የላም	-11.8298
ሚገባው	-11.8305
ይሸከም	-11.8306
ገዢው	-11.8315
ሃለን	-11.8316
ቅቤ	-11.8323
ረዘመ	-11.8327
ራቅሁ	-11.8332
ቁር	-11.8333
ስለማይ	-11.8335
ጎድ	-11.835
ቀምስ	-11.8353
ተመለስሁ	-11.8357
ቀቡ	-11.8386
መቃጠል	-11.8391
ለምጹ	-11.8391
አልተወ	-11.8397
የሚያነሣ	-11.8405
ማርካ	-11.8412
ሚልካ	-11.8421
ተቀደሰው	-11.8443
ያሳፍር	-11.8444
ትመጣለ	-11.8466
ከፍታው	-11.849
መለሳ	-11.8498
አቅርቡል	-11.8521
ለመብላት	-11.8539
ሸጠው	-11.8541
ወደደች	-11.8547
ያበራል	-11.8555
ሚኖረው	-11.8556
በሰማች	-11.8602
ያስነሣው	-11.8604
አሮጌ	-11.8611
መወዝ	-11.8647
ገዳደር	-11.8652
ሐሞት	-11.8674
ድምፃቸው	-11.8704
ተመቱ	-11.8716
ወንበ	-11.8723
ሳደዱአቸው	-11.8727
ቍርባናቸው	-11.873
ቈጠሩ	-11.8764
ይወድድ	-11.8765
ባደረግ	-11.8767
ሠራዊታቸው	-11.8782
ተቀበልሁ	-11.88
ደርጋት	-11.8804
አዲሱ	-11.8868
ፈልገ	-11.8879
ሙኤል	-11.8895
ግባቸው	-11.8897
ድርብ	-11.8951
አስቸ	-11.8954
ስራሽ	-11.8981
ገብታ	-11.8984
አምስተኛ	-11.8991
ፈርሰዋ	-11.9002
ማሰብ	-11.9003
ተሸከሙ	-11.9005
መልእክ	-11.9008
ኤሎ	-11.9011
ጠየቁ	-11.9037
ዎቻችሁን	-11.9046
ዤ	-11.9049
ትወል	-11.9057
ሰብስበው	-11.9068
መቀበል	-11.9074
ዢ	-11.9079
ጽፎ	-11.9081
አቸዋ	-11.9083
w	-11.9084
መጥረቢያ	-11.9084
ተላላፊ	-11.9084
ተንኰለኛ	-11.9084
ላሜሕ	-11.9084
ሔቤር	-11.9084
ሕፃናቶቻቸው	-11.9084
መርከቢቱ	-11.9084
መሰደቢያ	-11.9084
መቅረዞች	-11.9084
መቅሰፍ	-11.9084
ሞዓባዊ	-11.9084
ሠርተናል	-11.9084
ርኵሰታቸው	-11.9084
ሰሎሚት	-11.9084
ሴሰኝነት	-11.9084
ሹማምት	-11.9084
ቄኔዝ	-11.9084
በበታቹ	-11.9084
ባልንጀሮች	-11.9084
ታላላቆቹ	-11.9084
ታቃጥላለ	-11.9084
ትናገራለህ	-11.9084
ትፈልጋላችሁ	-11.9084
ኃይለኞች	-11.9084
አላስተዋሉም	-11.9084
አመንዝሮች	-11.9084
አስቆሮቱ	-11.9084
አሽክላ	-11.9084
አቤሮን	-11.9084
እልከኛ	-11.9084
እድናለሁ	-11.9084
እጃችሁን	-11.9084
ከየነገዱ	-11.9084
ወሰዳት	-11.9084
ወሰዳቸው	-11.9084
ዓሦች	-11.9084
ዘመዶቼ	-11.9084
የማዝዝህን	-11.9084
ያመሰግና	-11.9084
ያዘዝሁህን	-11.9084
ይመለከታሉ	-11.9084
ይንቀጠቀጣ	-11.9084
ይዋረዳል	-11.9084
ይፈልጋሉ	-11.9084
ደናግል	-11.9084
ድንኳኖች	-11.9084
ገለገሉ	-11.9084
ግብዝነት	-11.9084
ግብፃዊ	-11.9084
ጶ	-11.9084
ፈረሶቻቸው	-11.9084
ፋቁሔ	-11.9084
መበስበስ	-11.9084
ቅርጫት	-11.9084
ተደፍቶ	-11.9084
አድርጊ	-11.9084
ዔቦር	-11.9084
ዝክሪ	-11.9084
የዋህነት	-11.9084
ይዒኤል	-11.9084
ቍስሌ	-11.9084
አመሰገነ	-11.9084
ያለቅሳሉ	-11.9084
ጫፎቹ	-11.9084
ቀጠቀጥ	-11.9084
ተለውጦ	-11.9084
ትሞታላችሁ	-11.9084
አብዩድ	-11.9084
አይጠቅምም	-11.9084
አግብተ	-11.9084
ይቀበላሉ	-11.9084
ዖቤድኤዶም	-11.9084
ፈወሱ	-11.9084
ሀብቱ	-11.9084
በአንገቱ	-11.9084
ተሰረየ	-11.9084
መሠውያ	-11.9084
ማክማስ	-11.9084
የቀደሰውን	-11.9084
ዛባድ	-11.9084
ይታመና	-11.9084
ጠነቀቅ	-11.9084
ተካፋ	-11.9084
ጐደለ	-11.9084
ተቈጡ	-11.9084
ይባርክህ	-11.9084
መዶሻ	-11.9084
ሹመት	-11.9084
ዕውሩ	-11.9084
ትሸከማ	-11.9084
ተስማሙ	-11.9084
እያለቀሱ	-11.9084
ሰውነታችን	-11.9085
አስተዋዮች	-11.9085
አደረጋችሁ	-11.9085
ሙቀት	-11.9085
ያፈስሱ	-11.9085
አገሬ	-11.9085
ጉዳት	-11.9085
ሐኖን	-11.9085
ሰቅሉ	-11.9085
ያፌት	-11.9085
ወጉት	-11.9085
ማለፊያ	-11.9085
አልፈቀደም	-11.9085
አንገታቸውን	-11.9085
እነግራችኋለሁ	-11.9085
ስደዱ	-11.9085
ሢሶ	-11.9085
ግድግዳ	-11.9085
ተፈተነ	-11.9085
ሰልሞን	-11.9086
ያድግ	-11.9086
መደቡ	-11.9086
ሰረቀ	-11.9086
ሽመል	-11.9086
ኦሖ	-11.9086
አልተፈቀደ	-11.9086
አረጀ	-11.9086
ወጥተህ	-11.9086
ላችኋለ	-11.9086
ተራፊም	-11.9086
መገዛት	-11.9086
መጥቻለሁ	-11.9086
ኦዚ	-11.9086
አውቄ	-11.9086
አጥንቱ	-11.9086
ቢበድል	-11.9087
ሳደዳቸው	-11.9087
አድባር	-11.9087
ኢያሪ	-11.9087
እሬት	-11.9087
አልደረሰም	-11.9087
ታፈስስ	-11.9087
አልሰማቸውም	-11.9087
ይሰጣቸዋል	-11.9087
አፈለሰ	-11.9087
ታጠበ	-11.9087
ቈርጠው	-11.9087
ኰብል	-11.9088
አብረን	-11.9088
ይማረካ	-11.9088
ራቁቱን	-11.9088
አይሞትም	-11.9088
ተርታ	-11.9089
ጐርፍ	-11.9089
ሴቶቻቸው	-11.9089
ትሰጣለህ	-11.9089
በመካከልዋ	-11.9089
አድነን	-11.9089
ሐራን	-11.9089
ደከምሁ	-11.909
ትልቁ	-11.909
ተዘጋጅታ	-11.909
ተወሰነው	-11.909
ያሰማራ	-11.909
ዕርቅ	-11.9091
አብዝ	-11.9092
ሰጥቶኛል	-11.9092
አልሄዱም	-11.9092
ቶማስ	-11.9092
አስታወቅ	-11.9093
ምትሄድበት	-11.9093
መምታት	-11.9093
ምናምንቴዎች	-11.9093
ቀናተኛ	-11.9094
ቀረባችሁ	-11.9094
ጫለሽ	-11.9094
ሰርግ	-11.9094
አልገባም	-11.9094
ያጠፋቸዋል	-11.9095
ትእዛዛትህን	-11.9095
ይቀልጣ	-11.9095
እንሆና	-11.9096
ጠገበ	-11.9097
አይመጣም	-11.9097
ይገባኛል	-11.9098
እመኑ	-11.9098
አይሆንል	-11.9099
ምንደኛ	-11.9099
አንሣ	-11.9099
አመሰገኑ	-11.9099
ኮቴ	-11.91
ዎቼ	-11.91
ጠብቆ	-11.9101
ነገረችው	-11.9102
መቅሠፍቴ	-11.9102
ሰገደለት	-11.9104
እንዳይደለ	-11.9106
እሸቶ	-11.9106
ካስማዎ	-11.9106
ተሸክመው	-11.9108
የባሪያዎችህን	-11.911
ልባሞ	-11.9111
ገበሬዎች	-11.9113
ሰማያዊውን	-11.9114
ቀጠረ	-11.9114
በትሩን	-11.9115
ራራለት	-11.9115
የሚቃወ	-11.9118
ደፈረ	-11.9118
ሊቀበል	-11.912
ዝሆን	-11.912
ሲያልፍ	-11.912
ሰማዮች	-11.9123
ለመገና	-11.9123
ጮች	-11.9123
ያለዚያ	-11.9124
አትግባ	-11.9125
ያደረግኸው	-11.9127
አላፊ	-11.9127
ወጣህበት	-11.9128
ጨለመ	-11.9128
በሚባለው	-11.9128
የሚበቃ	-11.913
ባደረግሁ	-11.9131
መሰላቸው	-11.9131
የከበረውን	-11.9132
ጠልቅ	-11.9132
ይሞላል	-11.9133
ያገቡት	-11.9134
ከታናሽነ	-11.9135
ሱሪ	-11.9138
የባሰ	-11.9141
ሐጌ	-11.9143
አውጥተው	-11.9145
ጣጣ	-11.9153
ጠባብ	-11.9154
በባችሁም	-11.9155
ይገባችሁ	-11.9168
ሳልፍ	-11.917
ኅዘ	-11.9173
ድዳን	-11.9178
የሚያስጨንቁ	-11.9179
ሰወሩ	-11.9186
ሚከተሉ	-11.9189
ጀርባቸው	-11.919
ጃቸው	-11.9204
ያስቈጡኝ	-11.9213
ሌጥ	-11.9216
ጥሎአል	-11.923
ቋንቋቸው	-11.9233
በረከቱ	-11.9234
ለውዝ	-11.9234
መዘን	-11.9236
ጻፋ	-11.924
ጎዳ	-11.9255
ተመሠረተ	-11.9262
የምትለም	-11.9279
ዳታን	-11.9292
ወጀ	-11.9322
አጥፊው	-11.9333
መግዛት	-11.9333
ተቤዠ	-11.934
ታናናሾች	-11.9342
ግልሙትናዋ	-11.9358
ያሳድዳ	-11.9369
ባይኖር	-11.9371
ደሜ	-11.9372
ያጠፋቸው	-11.9373
መለስሁ	-11.9376
የምትቀመ	-11.9389
ፈለግሁ	-11.9407
ሊቀበሉ	-11.9409
ሚነጻው	-11.9439
ብትሰማ	-11.9474
ዙር	-11.95
ጎተራ	-11.9506
ትእዛዙ	-11.9523
ስማማ	-11.9531
ያነሡ	-11.9561
ያከብር	-11.9568
አላለም	-11.9575
ታቦቱ	-11.9582
ገድላቸው	-11.9591
የሆነችው	-11.9598
ተመላለስ	-11.9607
ቀደሳ	-11.9609
ያምጣ	-11.9653
ኪዳኔ	-11.9675
ትጠብቃ	-11.9685
ሌሊቱ	-11.9747
ቀርባለች	-11.9759
ይነግራ	-11.9765
ማያውቁ	-11.9829
ይጐዳ	-11.9843
ፀዳ	-11.9861
እንዲቀበሉ	-11.9891
መሠረተ	-11.9891
ዕረፍ	-11.9998
ኵራት	-12.0006
ነዌ	-12.0006
ግሩም	-12.0007
ሚወዱ	-12.0012
ግረኞች	-12.002
ነጋገሩ	-12.0034
አገልግሎ	-12.0035
ጠፍቶ	-12.004
አደባባ	-12.0049
ማገልገል	-12.0049
መያዝ	-12.0072
አስጨናቂ	-12.008
አድራጊ	-12.008
ቀጠቀጡ	-12.0081
ሰደዳ	-12.0083
የተቀረጸ	-12.0083
ዐፀዶ	-12.0084
የሚሸከሙ	-12.0084
ሄኖክ	-12.0084
ሐሸብያ	-12.0084
ሕፃናቶች	-12.0084
መማለጃ	-12.0084
መሠረቶች	-12.0084
መሳፍንቱ	-12.0084
መኳንንቱ	-12.0084
ሥርዓታቸው	-12.0084
ረአሶን	-12.0084
ሰለጰዓድ	-12.0084
ሰንባላጥ	-12.0084
ሴኬንያ	-12.0084
ሶፎንያስ	-12.0084
ሻኵራ	-12.0084
ቈረቈሩ	-12.0084
በመካከሉ	-12.0084
በግምባሬ	-12.0084
ተመላለሰ	-12.0084
ተርጓሚ	-12.0084
ተገልጦአል	-12.0084
ታለቅሳለች	-12.0084
ቴቁሔ	-12.0084
ትእዛዛቱ	-12.0084
ናዝሬት	-12.0084
አህዮቻቸው	-12.0084
አላወቅሁም	-12.0084
አመንዝረ	-12.0084
አሦራውያን	-12.0084
አርፋክስድ	-12.0084
አንጀቴ	-12.0084
አንጐራጐሩ	-12.0084
አደጎች	-12.0084
አድምጠኝ	-12.0084
አጵሎስ	-12.0084
አጽንቶ	-12.0084
ኤልሳቤጥ	-12.0084
እስጢፋኖስ	-12.0084
እንዲሠለጥ	-12.0084
እጮኻለሁ	-12.0084
ከሊታውያን	-12.0084
ኩብኩባ	-12.0084
ይመለከታል	-12.0084
ይሸፍኑ	-12.0084
ድቅድቅ	-12.0084
ጃንደረቦቹ	-12.0084
ጌድሶናውያን	-12.0084
ጎቶልያ	-12.0084
ጕብጕብ	-12.0084
ጣዖቶቻችሁ	-12.0084
ፍላጾች	-12.0084
ሆምጣጤ	-12.0084
መጎናጸፊያ	-12.0084
ረጃጅ	-12.0084
ሱባዔ	-12.0084
ተበቃዩ	-12.0084
ኰበለሉ	-12.0084
ዲቦራ	-12.0084
ግብጻዊ	-12.0084
ጸሎታቸው	-12.0084
ፈረሶቹ	-12.0084
ሰሌምያ	-12.0084
ሸምበቆ	-12.0084
ቅብዓት	-12.0084
ብዛታቸው	-12.0084
ተጸየፉ	-12.0084
ትመለከታለ	-12.0084
ነገሥታቱ	-12.0084
አሳላፊ	-12.0084
እንዳደረግህ	-12.0084
እግዚአብ	-12.0084
ይገለብጣ	-12.0084
ዮዳኤ	-12.0084
ፍቅራችሁ	-12.0084
ሀብታቸው	-12.0084
መሐሪ	-12.0084
ቈራረ	-12.0084
ተቀምጬ	-12.0084
እባርካ	-12.0084
እችላለሁ	-12.0084
ዘንጎች	-12.0084
ይበቅላል	-12.0084
ጭጋግ	-12.0084
መለያየት	-12.0084
ሞሎክ	-12.0084
ረጅሙ	-12.0084
በየሰሞና	-12.0084
ባቱኤል	-12.0084
ያቀርባሉ	-12.0084
ማሰሪያ	-12.0084
የተዋበች	-12.0084
ዮቶር	-12.0084
ቁርባን	-12.0084
ታስባላችሁ	-12.0084
ያድራል	-12.0084
ፈርሶአል	-12.0084
አሞናዊ	-12.0084
ስደተኞች	-12.0084
ውሸተኛ	-12.0084
ተነጋገረ	-12.0084
እውነቱን	-12.0084
ግፈኛ	-12.0084
መሶብ	-12.0084
የተመሸጉትን	-12.0084
ያመነዝራ	-12.0084
ትገዛለህ	-12.0084
ጥቂቱ	-12.0084
ደበደቡ	-12.0084
አካሄድ	-12.0084
ሸንፈው	-12.0084
አይገባህም	-12.0084
መፈወስ	-12.0084
አቅንቶ	-12.0084
አጽንተ	-12.0084
የተጠቃ	-12.0084
ዓምዶች	-12.0084
ማምለክ	-12.0084
አቢዔ	-12.0084
የሚቀርቡ	-12.0084
በጸጥታ	-12.0084
ይመረምራ	-12.0084
ትቀበላ	-12.0084
አረከስ	-12.0084
ይደርቃል	-12.0084
ዲቦን	-12.0084
ሚደረገው	-12.0084
የሚይዙ	-12.0084
ይበዛሉ	-12.0084
ወደዚች	-12.0084
ባልቴት	-12.0085
የቂጣውን	-12.0085
ፍሰስ	-12.0085
ዝዘውን	-12.0085
እብቅ	-12.0085
ውደቁ	-12.0085
ሰላዮች	-12.0085
ሰምታችኋል	-12.0085
ምትገቡባት	-12.0085
አስጢን	-12.0085
ሰበኩ	-12.0085
ፈጣኖች	-12.0085
መስቀሉን	-12.0085
ሸማኔ	-12.0085
ለማፍሰስ	-12.0085
ወዳዘጋጀ	-12.0085
ነገሬን	-12.0085
መወርወሪያዎቹን	-12.0085
አላደረጉም	-12.0085
ሸፈኑ	-12.0085
በጆሮአቸው	-12.0085
በዙሪያችሁ	-12.0085
የጠፋውን	-12.0085
እነግርሃለሁ	-12.0085
ዝገት	-12.0085
አልመጣሁም	-12.0085
ናዖድ	-12.0085
አመጣባቸዋለሁ	-12.0085
በቀኜ	-12.0086
ሆናችኋል	-12.0086
ይጥላል	-12.0086
ወዳጁ	-12.0086
የልመናዬን	-12.0086
መቃኖች	-12.0086
ምረጡ	-12.0086
ቃይንም	-12.0087
ምክሬ	-12.0087
ገድለዋል	-12.0087
አንገቱን	-12.0087
ጥርሳቸው	-12.0087
ፈቃዳች	-12.0087
ምላሱ	-12.0087
ወጥተዋል	-12.0087
ምድሬ	-12.0088
የቀደመውን	-12.0088
አላዘነበ	-12.0088
ቀስቱን	-12.0088
ርኩሱ	-12.0088
ዘልፍ	-12.0089
በጥፊ	-12.0089
ገዢዎች	-12.0089
ምሽጉ	-12.0089
ጃለሽ	-12.0089
ይባረካሉ	-12.0089
አታመንዝ	-12.0089
ጕዞ	-12.009
ተኝተው	-12.009
ጌራራ	-12.009
ሰጥቻለሁ	-12.009
በስፍራቸው	-12.0091
ሚስቶቻችሁ	-12.0091
አሞራዊውን	-12.0091
አምልኮ	-12.0092
የሚያሰኝ	-12.0092
አታግባ	-12.0092
አያዩም	-12.0092
አስታወቀ	-12.0092
በልቶአል	-12.0093
ጥቁር	-12.0093
እገድላ	-12.0094
ይጠግቡ	-12.0095
ሳይደርስ	-12.0095
አውናን	-12.0095
መቀመጫዎች	-12.0096
አልሰማህም	-12.0096
ያፈል	-12.0096
አይወጣም	-12.0097
መውጊያ	-12.0097
ይነድድ	-12.0098
ይፈስሳ	-12.0098
ማዳንህን	-12.01
የተናገርሁት	-12.01
ይሰብራ	-12.0101
ቍራሽ	-12.0101
ሞገድ	-12.0102
የምታደርግ	-12.0103
እንዲቀበል	-12.0103
ልብሶ	-12.0105
አቅንተ	-12.0105
ዓሣዎች	-12.0106
ያርዳ	-12.0106
በርኔ	-12.0106
ይጠቅማል	-12.0107
ገባሮች	-12.0107
ናዕማ	-12.0109
ቈርጥ	-12.0109
ትቆማለ	-12.011
ብትሰሙ	-12.0111
ሰቦች	-12.0111
ተገኝቶአል	-12.0112
ቸውማለሁ	-12.0114
ከፈላቸው	-12.0114
ጠፍር	-12.0115
ያስፈልጋችሁ	-12.0115
ለመሻ	-12.0117
ታወቁ	-12.0119
ተማርሁ	-12.0119
ትበልጣ	-12.0119
ለሚያምኑ	-12.0126
ጋለሞታይቱ	-12.0127
ወገባቸው	-12.0127
መሰምርያቸው	-12.013
ቤቶቹ	-12.0132
አሳለፈ	-12.0133
ላካችሁ	-12.0139
ሚቻለው	-12.0151
ወገሩ	-12.0156
ዘራችሁ	-12.0165
መምሬ	-12.0165
ትገኛለ	-12.0168
ሌላይቱ	-12.0176
ትጠፋለ	-12.0177
ደከመች	-12.0184
ስጦስ	-12.0186
ትባላለ	-12.0204
ታገለ	-12.022
መለወ	-12.0231
ያሳዩ	-12.0232
ዳውያን	-12.0234
ድነናል	-12.0235
ይከፍላ	-12.0238
ያብባ	-12.0241
ይከተላ	-12.0257
አፌቅ	-12.0284
መረቀ	-12.0302
ደረግኸው	-12.0303
ታደርገ	-12.0313
ሚወስደው	-12.0314
ሎናዊው	-12.0331
ስእለትዋ	-12.0342
ይሰድዳ	-12.0342
ሸነፉ	-12.0373
ጸንታ	-12.0396
ረስተ	-12.0404
ርስታች	-12.0406
ታቀርባለ	-12.0437
ያርደ	-12.0476
ታዘዘ	-12.0477
ማረክ	-12.0489
ናፍቃ	-12.0538
ቀባሁ	-12.0542
መከራችን	-12.0552
ዳናችሁ	-12.0584
ጦሙ	-12.0599
ምስክሩ	-12.0655
መረጣችሁ	-12.0669
ተቅበዘበ	-12.0674
ተከሉ	-12.0776
እነግራ	-12.0785
ቤዠ	-12.0883
ዋረደ	-12.0898
አጥፊ	-12.0903
ትችሉ	-12.0914
መስኖ	-12.0944
መክደኛ	-12.096
ቀብሩ	-12.0961
ያፈስሰ	-12.0987
መለሳችሁ	-12.1013
ጽፍላችሁ	-12.1034
ተኝታ	-12.1093
ይመስላ	-12.1105
መሥዋዕ	-12.1106
ሰንሰለት	-12.1112
ግዞት	-12.1114
ግልጥ	-12.1114
መካከላችሁ	-12.1114
ማንሣት	-12.1117
ንግሥ	-12.1119
ያፈርስ	-12.1123
ቺ	-12.1128
ረካቸው	-12.116
ቾ	-12.1174
ሳድድ	-12.1176
ይወድዳ	-12.118
ሜሌክ	-12.1195
ከአጐዛ	-12.1195
r	-12.1195
መሓሪ	-12.1195
አሸነፈ	-12.1195
ለዘላለሙ	-12.1195
መልካሞቹ	-12.1195
መተላለፊያ	-12.1195
ቂርያትአርባቅ	-12.1195
ባልቴቶች	-12.1195
ተመልከቺ	-12.1195
ተሰሎንቄ	-12.1195
ተጸጸተ	-12.1195
ተፈቅዶአል	-12.1195
ትችላላችሁ	-12.1195
ንጸባረ	-12.1195
አናጢዎች	-12.1195
አጥማጆች	-12.1195
ኢይዝራኤላዊው	-12.1195
ኢዮሳፍጥ	-12.1195
እጸልያለሁ	-12.1195
ኦፌር	-12.1195
ከንፈሬ	-12.1195
ኪልቅያ	-12.1195
ወንዶቹ	-12.1195
ወዳጆቼ	-12.1195
ዐርፎ	-12.1195
የሚበልጠው	-12.1195
የቢዖር	-12.1195
ይቃወማ	-12.1195
ይታወቃል	-12.1195
ገሠጹ	-12.1195
ግመሎቻቸው	-12.1195
ጱ	-12.1195
ጳስኮር	-12.1195
መልእክተኞቹ	-12.1195
ሞሳሕ	-12.1195
ሰልፈኞቹ	-12.1195
ሰይፋቸውን	-12.1195
ቁባቶች	-12.1195
በትእዛዜ	-12.1195
ባስልኤል	-12.1195
ታሳድዳ	-12.1195
እንስሶቹ	-12.1195
ኰበለለ	-12.1195
ያድናቸዋል	-12.1195
ይረግፋል	-12.1195
ገሠጽ	-12.1195
ጌሹር	-12.1195
ፈወሳቸው	-12.1195
ሔርማ	-12.1195
ተጸየፈ	-12.1195
ትሑታን	-12.1195
አሞናውያን	-12.1195
ዓይበታቸው	-12.1195
ያርፋል	-12.1195
ዬቴር	-12.1195
ክረምት	-12.1195
ያነግሡ	-12.1195
ይሰረይለ	-12.1195
ደጆቹ	-12.1195
ፊልክስ	-12.1195
wd	-12.1195
በእርሳቸው	-12.1195
ዋነኛው	-12.1195
ባሶራ	-12.1195
ታገሠ	-12.1195
ይሮጣሉ	-12.1195
ይደክማ	-12.1195
ፍቅሩ	-12.1195
መምህሩ	-12.1195
እፈራለሁ	-12.1195
ይዘምራሉ	-12.1195
ልዑሉ	-12.1195
ማርቆስ	-12.1195
ከብቶቻችሁ	-12.1195
ስላደረጉት	-12.1195
ዓዝሞት	-12.1195
ይቀጠቅጣ	-12.1195
ይያዛል	-12.1195
ማጽናናት	-12.1195
ሰደቡ	-12.1195
የሚናገሩትን	-12.1195
ያድናል	-12.1195
ነጋዴ	-12.1195
አዜብ	-12.1195
የለበሱ	-12.1195
ጠይቀው	-12.1195
ስቀለው	-12.1195
ላሞቻቸው	-12.1195
መቄዳ	-12.1195
ወላጆች	-12.1195
ባሎቻቸው	-12.1196
አይዘገይም	-12.1196
በዙሪያዬ	-12.1196
ታስተምር	-12.1196
ማረፊያ	-12.1196
ቀለጡ	-12.1196
ድካሙ	-12.1196
በዙሪያችን	-12.1196
ይጥፉ	-12.1196
ክፍላቸው	-12.1196
ብዛቱ	-12.1196
ዋርሳ	-12.1196
አውቃችኋ	-12.1196
መቤዠት	-12.1196
ቀያፋ	-12.1196
ይቈጣል	-12.1196
አቅኑ	-12.1196
ተማማለ	-12.1196
አመነዘሩ	-12.1196
ነቢያቶቻ	-12.1196
ታደርገዋለህ	-12.1196
ቶፌት	-12.1196
ወረድሁ	-12.1196
ምንቸት	-12.1196
ይበረታል	-12.1196
ናፍቆ	-12.1196
ተናግረሃል	-12.1197
ተዘልሎ	-12.1197
ቀለብ	-12.1197
ሠርተህ	-12.1197
መንጻት	-12.1197
ኑሮአችሁ	-12.1197
ያዋርድ	-12.1198
ሳምናስ	-12.1198
ሚያሳድዱኝ	-12.1198
ይመስሉ	-12.1198
ጠመዱ	-12.1198
ኸናል	-12.1198
ወንበዴዎች	-12.1198
መረምሩ	-12.1198
አጣሁ	-12.1198
ጅማት	-12.1198
ይተኛል	-12.1198
የሚከፍት	-12.1198
ቁመታቸው	-12.1199
አቢዳራ	-12.1199
መሰከሩ	-12.1199
ባይሰፋ	-12.1199
ቀዩን	-12.1199
ከብቶቹ	-12.1199
ትፈርዱ	-12.1199
አስጨናቂዎች	-12.1199
ርኵስነት	-12.1199
ሰላሙ	-12.1199
ያርፉ	-12.12
ሰጥቼአለሁ	-12.12
ላክኋቸው	-12.12
እሰድድባ	-12.12
አልነበረውም	-12.12
አናኒ	-12.12
አላልሁ	-12.12
አያልፍም	-12.12
የማይችሉ	-12.1201
ጕበቱ	-12.1201
ዐቀበ	-12.1201
የሚያሰኝህን	-12.1201
ያድነዋል	-12.1201
ያስተማረ	-12.1201
ድሪዎች	-12.1201
ሣጥን	-12.1201
በእጅዋ	-12.1201
ሦባል	-12.1201
ኤሊኤል	-12.1201
ሌቦች	-12.1202
የአምላኩን	-12.1202
ተመልክተ	-12.1202
ታረቅ	-12.1202
እባጭ	-12.1202
ይጠላል	-12.1202
በተገደሉት	-12.1202
የሚሆኑትን	-12.1202
ሲነጋገሩ	-12.1203
አታዩም	-12.1203
ቀድዶ	-12.1203
ያፈስሳ	-12.1203
የሠሩትን	-12.1204
ጠርቼ	-12.1204
ሰባበረ	-12.1204
የተናቀ	-12.1204
እንድታውቁ	-12.1204
ይባርካ	-12.1204
ዝናቡ	-12.1205
አጎቱ	-12.1205
አይበላም	-12.1205
መውለድ	-12.1205
አስጨንቃ	-12.1205
ይቈርጣ	-12.1206
ለሚቀመጡ	-12.1206
አምላኮቻቸው	-12.1208
ገዓል	-12.1208
ረገጡ	-12.1209
ያስባሉ	-12.1211
ይወጉ	-12.1211
ይገባናል	-12.1212
አትወጣም	-12.1212
መንፈሳችሁ	-12.1212
የምታየው	-12.1214
ያገኛቸው	-12.1214
ተማራችሁ	-12.1215
እምነቱ	-12.1215
ሰምተዋል	-12.1216
ቀላዩ	-12.1216
አያሌዎቹ	-12.1216
አላየሁ	-12.1217
ደረቁ	-12.1217
ምራኝ	-12.1218
ትቀድሳ	-12.1222
ተሰውሮ	-12.1226
የብስ	-12.123
እቀበላ	-12.1235
ይበራል	-12.1237
ኤሊፋ	-12.124
ብልቶቻች	-12.1253
ሕሊናቸው	-12.1255
ተሰጥታ	-12.1262
የምወደው	-12.1264
ሚችለው	-12.1277
ቍረጡ	-12.1281
ላውቅ	-12.1286
የሰማሁት	-12.1286
ባወጣኋ	-12.1296
ከብዳ	-12.1303
ተዘል	-12.133
ረድቶ	-12.1392
ሸሸጉት	-12.1446
አጥብቃ	-12.1473
ነቅቶ	-12.1497
ጠመቅ	-12.1504
ብሃለ	-12.1507
ያስፈሩ	-12.156
ይልካ	-12.158
ተማከ	-12.1591
በየሠራዊ	-12.1594
ተመረጡት	-12.1655
ተካፈ	-12.1825
መሎጊያዎቹ	-12.1902
ታጠፋቸዋለ	-12.1963
ፍልስጥኤማዊ	-12.2027
ሰይፉ	-12.2054
ይስታ	-12.2065
ወጥቼ	-12.2073
ተሞላች	-12.208
አደረግኸ	-12.2317
ትዕግሥ	-12.2323
ተዘጋጁ	-12.2365
ዘበኞቹ	-12.2366
መዛሙር	-12.2369
ሚኖሩባት	-12.2421
ምስክሮ	-12.2422
ሚወጣው	-12.243
አሞራዊ	-12.2436
ማኅበ	-12.2439
ደንግጡ	-12.2443
መሠረታ	-12.2445
ያገለግላ	-12.2445
1	-12.2445
ለሚወድዱ	-12.2445
መሳለቂያ	-12.2445
መክፈቻ	-12.2445
ማስተዋሉ	-12.2445
ሜምፎስ	-12.2445
ሰናዖር	-12.2445
ሳቤዔ	-12.2445
ሹማምቱ	-12.2445
ቂርያት	-12.2445
ቆርኔሌዎስ	-12.2445
ቋረጠ	-12.2445
በእንጨቱ	-12.2445
በኮረብቶቹ	-12.2445
ብንያማዊ	-12.2445
ተደባለቀ	-12.2445
ነጦፋዊው	-12.2445
አህሊባማ	-12.2445
አሳዳጆ	-12.2445
አሻቅቦ	-12.2445
አይቻለኝም	-12.2445
ኤሽታኦ	-12.2445
እስረኞች	-12.2445
እበቀላለሁ	-12.2445
እንቈቅል	-12.2445
ከአሮዔር	-12.2445
ከእጃችሁ	-12.2445
ኮረጆ	-12.2445
ወይፈኖቹ	-12.2445
ዓብዶን	-12.2445
ዓይኖቻችን	-12.2445
ዓዶላም	-12.2445
ዘመዶቹ	-12.2445
የቢክሪ	-12.2445
የከበሬታ	-12.2445
ያሰረችበት	-12.2445
ያገልግሉ	-12.2445
ይመሰክራል	-12.2445
ይረሕምኤል	-12.2445
ይበዘብዛ	-12.2445
ይታገሣል	-12.2445
ይወሰዳል	-12.2445
ይጠቅመዋል	-12.2445
ደመወዙ	-12.2445
ጋለሞቶች	-12.2445
ጠብቄአለሁ	-12.2445
ጫጩቶች	-12.2445
ፆ	-12.2445
ፌርዛዊው	-12.2445
ልምላሜ	-12.2445
ምዋርተኞች	-12.2445
ተሸሽጎ	-12.2445
ኒካዑ	-12.2445
አልረሳሁም	-12.2445
አጫጆች	-12.2445
ኢዮቤድ	-12.2445
ኤዶማውያን	-12.2445
ከእንቅልፉ	-12.2445
ኩላቦች	-12.2445
ወላጆቹ	-12.2445
ዓይናችሁን	-12.2445
ዝባድያ	-12.2445
የቅብዓቱን	-12.2445
ያዘጋጁ	-12.2445
ይበተናሉ	-12.2445
ይደረጋል	-12.2445
ገለዓዳዊው	-12.2445
ገዳዮች	-12.2445
ጐበዛዝቱ	-12.2445
ሸምግሎ	-12.2445
ትወርሳላችሁ	-12.2445
ትውልዱ	-12.2445
አምልኩ	-12.2445
እስራቴ	-12.2445
እያለቀሰ	-12.2445
ያመነዝሩ	-12.2445
ድስቶቹን	-12.2445
ጋኔኑ	-12.2445
ምድያማውያን	-12.2445
አንጀቱ	-12.2445
አዋርደ	-12.2445
አውታር	-12.2445
መፍታት	-12.2445
በርባንን	-12.2445
ተደበቁ	-12.2445
አባረሩ	-12.2445
ለማነጽ	-12.2445
ሞገዱ	-12.2445
ሰድዶ	-12.2445
ዐምፀ	-12.2445
ይመሰክሩ	-12.2445
ጠባቆች	-12.2445
መላልኤል	-12.2445
ያሸንፍ	-12.2445
በራክያ	-12.2445
በአርያም	-12.2445
ሄኖስ	-12.2445
ተራቈተ	-12.2445
አመለጠ	-12.2445
አገኛቸው	-12.2445
መለከቶች	-12.2445
ወረቀት	-12.2445
የምነግርህን	-12.2445
ፋሌቅ	-12.2445
ብኵርና	-12.2445
ያመሰኳ	-12.2445
መሣርያ	-12.2445
ወልዱ	-12.2445
ትወልዳለች	-12.2445
ተከማች	-12.2445
እኩሉ	-12.2445
ጫወት	-12.2445
ፈሳሹ	-12.2445
ጭከናው	-12.2445
ይሰፍራ	-12.2445
በተዘረጋች	-12.2445
አለቅነት	-12.2445
የተሰበረውን	-12.2445
ዓቁብ	-12.2445
ቂሶን	-12.2445
ካህናቶቻ	-12.2445
ጊንጥ	-12.2446
ሰራብያ	-12.2446
ታሰናክ	-12.2446
አደባባዮች	-12.2446
የመጠጡን	-12.2446
ድንጋዮቹን	-12.2446
ክንዴ	-12.2446
ዮባብ	-12.2446
ቁባቱ	-12.2446
ጩኽ	-12.2446
መብራቶቹን	-12.2446
ተማማሉ	-12.2446
መብራቱ	-12.2446
የምሥራች	-12.2446
ቀድምኤል	-12.2446
ስተስርይ	-12.2446
ዔግላ	-12.2446
አመዳይ	-12.2446
ተንበርክኮ	-12.2446
ንቀላፉ	-12.2446
ፈዳያ	-12.2446
ያመልጡ	-12.2446
ሕይወታች	-12.2446
አይቈጠርም	-12.2446
አይበልጥም	-12.2446
ጨንቆ	-12.2446
ያከብራ	-12.2446
ምናሔም	-12.2446
ሐጸር	-12.2446
ፍዳቸውን	-12.2446
ዕራቁትነት	-12.2446
እያመሰገኑ	-12.2446
ማዳኑ	-12.2446
አትስረ	-12.2446
በጸናች	-12.2446
እልፍኙ	-12.2446
አራጣ	-12.2446
እለፉ	-12.2446
ነፈሰ	-12.2446
የዑስ	-12.2447
መዳራት	-12.2447
ሚሳኤል	-12.2447
ትሰጣቸዋለህ	-12.2447
አያታልል	-12.2447
አልወደዱም	-12.2447
ነግሦ	-12.2447
ስጠነቅ	-12.2447
ተናግረዋል	-12.2447
ሰጥቶአችኋል	-12.2447
ተማምለ	-12.2447
ተሸከመ	-12.2447
አልራራም	-12.2447
ከብዶ	-12.2447
ቄናውያን	-12.2447
ሳንቃዎቹን	-12.2447
ገረዶች	-12.2447
ራቁታቸውን	-12.2447
የምቀድሳ	-12.2447
አሳደደ	-12.2447
ይረጩ	-12.2447
ናዖስ	-12.2448
መሪሳ	-12.2448
ወድቀዋል	-12.2448
ያስተውላ	-12.2448
ትጠብቃለህ	-12.2448
አላዋቂዎች	-12.2448
አልተቻለ	-12.2448
መራኝ	-12.2448
ቀርጤስ	-12.2448
ስንዝር	-12.2448
መነሣት	-12.2448
ኃያሉ	-12.2449
አልተመለሰም	-12.2449
አፍስሶ	-12.2449
ኢታይ	-12.2449
ይነግር	-12.2449
ድህነት	-12.2449
አትሰጥም	-12.245
ከተገደሉት	-12.245
አትፈራም	-12.2451
ትወድዱ	-12.2451
የተገኙት	-12.2451
የቀድሞውን	-12.2451
ረዘሙ	-12.2451
ለመሸከም	-12.2451
መረባቸውን	-12.2451
ተደፍተ	-12.2451
ክፈለው	-12.2451
ዘበዘ	-12.2452
መረመረ	-12.2452
ጨመሩ	-12.2452
እመክራ	-12.2452
ገብሱ	-12.2452
በቀረው	-12.2453
ሌማት	-12.2453
ኤሊሱ	-12.2454
ጕበኛ	-12.2455
ተጠረበ	-12.2455
ትተክላ	-12.2456
አጥፍቶ	-12.2456
ትጠግቡ	-12.2457
ተንኮ	-12.2457
ሰገባው	-12.2457
ተለይታ	-12.2461
ሚዋጉ	-12.2466
ሸምቅ	-12.2466
ካሳተ	-12.2468
መንታ	-12.248
ይነጥቃ	-12.2481
ይጠይቁት	-12.2481
ትኩሳ	-12.2485
የወደቀው	-12.2491
አስቀራ	-12.2492
መርምረ	-12.2494
በእኩ	-12.2495
ጾሙ	-12.2497
ጎጆ	-12.2508
ስእለቴ	-12.2528
ለብጠ	-12.2529
አስተምራ	-12.2543
ስተሰር	-12.2551
ራመድ	-12.2581
ረፍሁ	-12.2582
ሚያጠቡ	-12.2718
ሰጠሃ	-12.2719
ጨምረ	-12.2742
መሬታ	-12.2747
መለከተው	-12.2756
ማይችል	-12.2796
ያርስ	-12.2804
ያቀናል	-12.2822
ሹሞ	-12.2863
ላክኸ	-12.2888
የበደለ	-12.305
ሚያስፈራ	-12.3233
ሚሰጣችሁ	-12.3337
ሥርዓቴ	-12.3463
ካዘዘ	-12.354
ተሸሸጉ	-12.3556
ይደርስባ	-12.3678
ጥረት	-12.3748
ደክማለ	-12.378
መንፈሳ	-12.382
ቈጥረ	-12.3836
መሰግናለ	-12.3837
መልካለ	-12.3841
መሰገኑ	-12.3849
ውጊያ	-12.3856
ከተሞቻ	-12.3858
ግደላቸው	-12.3864
ቋርጥ	-12.387
አመስግ	-12.387
ወንበዴ	-12.3871
ቍጥቋ	-12.3873
ተናግሬ	-12.3873
ኆ	-12.3874
ሐውልቶች	-12.3874
መልካሞች	-12.3874
መራዮት	-12.3874
መቲትያ	-12.3874
መደምደሚያ	-12.3874
ሰረገሎቻቸው	-12.3874
ሴፈርዋይም	-12.3874
ቀለበቶቹ	-12.3874
ኤውላጥ	-12.3874
እምቢልታ	-12.3874
እውነተኞች	-12.3874
እግዚአሔር	-12.3874
የይሮሐም	-12.3874
ያገለግለኝ	-12.3874
ይቈጠራል	-12.3874
ደነግጡ	-12.3874
ጣፍናስ	-12.3874
ፊተኞቹ	-12.3874
ሂሶጵ	-12.3874
ሊይዙት	-12.3874
ሊገናኙ	-12.3874
ሐጾር	-12.3874
መቆሚያ	-12.3874
መንጎቻቸው	-12.3874
ማፍዋጫ	-12.3874
ምሕረቴ	-12.3874
ሺሻቅ	-12.3874
ቀርሜሎሳዊ	-12.3874
ቂርያታይም	-12.3874
ቆጵሮስ	-12.3874
በፍጥነት	-12.3874
ቤትአዌን	-12.3874
ብንያማውያን	-12.3874
ተረድቼአለሁ	-12.3874
ተዘርግታ	-12.3874
ታዕናክ	-12.3874
ትምክሕት	-12.3874
ትፈርዳለህ	-12.3874
ንጉሣችሁ	-12.3874
ንጉሣችን	-12.3874
ንግግሬን	-12.3874
አርዮክ	-12.3874
አትዘግይ	-12.3874
አኪናሆም	-12.3874
አካሄዳቸው	-12.3874
አዛርያ	-12.3874
አገልግሉ	-12.3874
አፈስሳለሁ	-12.3874
ኢዮአክ	-12.3874
እልከኝነት	-12.3874
እስራኤላዊ	-12.3874
እስራኤላውያን	-12.3874
እደክማለሁ	-12.3874
እፍረታቸውን	-12.3874
ከበርቴዎች	-12.3874
ውሽሞችሽ	-12.3874
ዓክቦር	-12.3874
ዓዜቃ	-12.3874
ዔጽዮንጋብር	-12.3874
ያመለጡት	-12.3874
ያብረቀርቅ	-12.3874
ይመስለኛል	-12.3874
ደኅነኛው	-12.3874
ጎቶሊያ	-12.3874
ጎቶንያል	-12.3874
ጓጕንቸሮች	-12.3874
ጕብጕቦቹ	-12.3874
ጫወቱ	-12.3874
ፈሊታውያን	-12.3874
መርጫለሁ	-12.3874
መስኮቶቹ	-12.3874
መጫሪያዎቹን	-12.3874
ማቱሳላ	-12.3874
ማንደጃዎቹን	-12.3874
ታርፋለ	-12.3874
አለቆቻችን	-12.3874
አቅርቦ	-12.3874
አዛውንት	-12.3874
እባርክሃለሁ	-12.3874
ከወይፈኑ	-12.3874
የሚያሰክር	-12.3874
ያሀጽ	-12.3874
ግርፋት	-12.3874
ጕብዝና	-12.3874
ታሳድደ	-12.3874
ትወሰዳ	-12.3874
ይደርቃሉ	-12.3874
ምስሎቻቸው	-12.3874
ሰባኪው	-12.3874
ቈንጆ	-12.3874
አዳራሽ	-12.3874
▁*	-12.3874
ሳንቆቹ	-12.3874
ንጉሤ	-12.3874
አስማተኞች	-12.3874
ከፋፈሉ	-12.3874
ጠሪዎች	-12.3874
ትመልሳለህ	-12.3874
የማያውቁትን	-12.3874
ያያችሁትን	-12.3874
ደክሞ	-12.3874
ድንኳኔ	-12.3874
ግልገል	-12.3874
ብኤር	-12.3874
የምታቀርቡት	-12.3874
ጸሎቱ	-12.3874
ቅጥሮች	-12.3874
ይለምናል	-12.3874
መሪዎች	-12.3874
ረገዘች	-12.3874
ይሆሐናን	-12.3874
ፈልጌ	-12.3874
ትሸሻ	-12.3874
ፈልጎ	-12.3874
አጥንቶቹ	-12.3874
የሚመጡትን	-12.3874
ጩኺ	-12.3874
የታመመውን	-12.3874
እሆነዋለሁ	-12.3874
እቀመጣለሁ	-12.3874
ጐናጸ	-12.3874
ደሊላ	-12.3874
ዘቢብ	-12.3874
ልማዱ	-12.3874
አመለጥ	-12.3874
ምክራቸውን	-12.3874
ትሸከሙ	-12.3874
የገጹ	-12.3874
ተማረከች	-12.3874
ከወገቡ	-12.3874
ድንኳናቸው	-12.3874
መለከታችሁ	-12.3874
ጕዳት	-12.3874
አልታየም	-12.3874
አስወግደ	-12.3874
አምናለሁ	-12.3874
ጎሞር	-12.3874
ያዘዛችሁን	-12.3874
ቃይናን	-12.3874
በወለሉ	-12.3874
አትመኑ	-12.3874
ከአፋችሁ	-12.3874
ተጓዘ	-12.3874
አታገኝም	-12.3874
የርሙት	-12.3874
አትርሳ	-12.3874
ዲሶን	-12.3874
ፋንድያ	-12.3874
ያቦቅ	-12.3874
ጎልያድ	-12.3874
አይጠግብም	-12.3874
ጠጕራ	-12.3875
ሰዓቱ	-12.3875
ታድነኛለ	-12.3875
እብድ	-12.3875
ተባዙ	-12.3875
ማዕዘኖ	-12.3875
ሸፍኖ	-12.3875
ጠማምነት	-12.3875
በቅድስናው	-12.3875
ሊወጉ	-12.3875
ትሑት	-12.3875
ዐፀዶቹን	-12.3875
ያሬድ	-12.3875
ዘጠኙ	-12.3875
ትንፋሽ	-12.3875
ይሁዲ	-12.3875
አዘዝሁ	-12.3875
ያልተፈቀደ	-12.3875
አቢሱ	-12.3875
ያሰበው	-12.3875
አታርክሱ	-12.3875
አወለቀ	-12.3875
በማዳንህ	-12.3875
አላዝንም	-12.3875
ሰጣጡ	-12.3875
ደንገል	-12.3875
ነጥቀው	-12.3875
ካሞሽ	-12.3875
ልብሴን	-12.3876
ተዘጋጅተ	-12.3876
ተወገዱ	-12.3876
ከቀሩት	-12.3876
ድጓድ	-12.3876
የመረጥሁት	-12.3876
ትለዋለህ	-12.3876
አስወግዳ	-12.3876
ይቈጥር	-12.3876
ድንግልናዋ	-12.3877
ያዘዝኸ	-12.3877
የዳኑት	-12.3877
አጎት	-12.3877
የሻያ	-12.3877
ተለያየ	-12.3878
ዕጣኑን	-12.3878
አዘጋጃ	-12.3878
አላዩም	-12.3878
የዐግን	-12.3878
የሚኖረውን	-12.3878
ሳምንት	-12.3878
ቢቻል	-12.3879
ያድናችሁ	-12.3879
አንሥታ	-12.3879
የተበተኑት	-12.388
አድነዋ	-12.388
ክፍሎ	-12.388
ግምባር	-12.3881
የግንቡን	-12.3881
ይጐበኛ	-12.3882
መርምሩ	-12.3883
ይተክላ	-12.3883
ማውጣት	-12.3884
ቅኑን	-12.3884
ያከማች	-12.3886
ይዋጉ	-12.3886
እፈርድባ	-12.3886
ተናዘዙ	-12.3887
ያርዱ	-12.3888
ተፈጠሩ	-12.3889
የሚሞተው	-12.389
ወሰኑ	-12.389
ማዖን	-12.3892
አቢዳ	-12.3894
ንጠባጠ	-12.3896
ንሸምት	-12.3896
ይረግጣ	-12.3898
ትፈታተ	-12.39
አውጥታ	-12.39
እፈውሳ	-12.3902
ይቀድማ	-12.3905
አይቻላ	-12.3905
ወጉአ	-12.3905
ሰብከው	-12.3907
አቢብ	-12.3908
ለብጣቸ	-12.3922
ጠባበቁት	-12.3923
ሰናበተ	-12.3926
ይፈውሳ	-12.3927
ያድናቸው	-12.3936
ኤታን	-12.394
እንዳየሁ	-12.3953
እቀኛ	-12.3971
ሸፈተ	-12.4001
ተሻለ	-12.4045
ቍርስራ	-12.4047
ትፀን	-12.4052
ሚያቀርብ	-12.4064
በጌባ	-12.4088
ልተመለሳችሁ	-12.4129
መዋደ	-12.4169
እነግር	-12.4177
ያታልላ	-12.433
ዘገያ	-12.4376
የቈጠ	-12.4454
ሳድዳቸው	-12.4461
ስጨንቁአቸው	-12.4478
አስጥለ	-12.4489
ያስቈጡ	-12.4516
የመረጣ	-12.4611
ሚሰበስብ	-12.4748
ልጽፍ	-12.4778
ተንቀጠቀጠች	-12.4911
ስተዋላችሁ	-12.5206
እጆቼ	-12.522
ሚቀመጥበት	-12.5234
ፀንሳ	-12.5365
ትርጓሜ	-12.5393
የሚሰድ	-12.5416
ገሩኝ	-12.5419
ስድስተኛ	-12.5444
ዘንባባ	-12.5461
ተገኝቶ	-12.5492
ዉ	-12.5495
ሊገድሉ	-12.5497
አምጥተ	-12.5509
ይጠቅማ	-12.5519
አምላኮ	-12.5521
ይባረካ	-12.5532
ዥ	-12.5535
ኢያቡስ	-12.5536
አላዋቂ	-12.5537
ወገኖቻቸው	-12.5539
ዠ	-12.5539
ኽ	-12.554
አጕረመረ	-12.554
l	-12.554
ተቆጠረ	-12.554
የተከደነ	-12.554
"	-12.554
ሄሮድያዳ	-12.554
ለምጻሞች	-12.554
ሐጼሮት	-12.554
ሕዝባችን	-12.554
ሕፃናቱ	-12.554
መሰዊያው	-12.554
መስጴጦምያ	-12.554
መተላለፋቸው	-12.554
መደገፊያ	-12.554
መድኃኒቶች	-12.554
ማላገጫ	-12.554
ማናቸይቱ	-12.554
ማዕርግ	-12.554
ምንቸቶቹን	-12.554
ርኵሰታችሁ	-12.554
ቀዓታውያን	-12.554
ቅምጥልነት	-12.554
ቆነጃጅት	-12.554
ቍርባናችሁ	-12.554
በሰሜኑ	-12.554
በእንቢተኝነት	-12.554
በኮቦር	-12.554
በወህኒ	-12.554
በወይፈኑ	-12.554
ባልንጀሮቻቸው	-12.554
ብኤሮት	-12.554
ተቀርጾ	-12.554
ተአምራቴ	-12.554
ተጨንቄአለሁ	-12.554
ቴልጌልቴልፌልሶር	-12.554
ቴማናዊው	-12.554
ትምህርቴ	-12.554
ትቀመጣላችሁ	-12.554
ነዋትዘራማ	-12.554
ነገዶቻችሁ	-12.554
ነግሬአችኋለሁ	-12.554
አልታወክ	-12.554
አርክሰዋል	-12.554
አስቤአለሁ	-12.554
አቢካኢል	-12.554
አክራትዮስ	-12.554
አዋላጆች	-12.554
ኢቆንዮን	-12.554
ኢያዔል	-12.554
ኢይዝራኤላዊቱ	-12.554
ኢዮሄል	-12.554
ኤልዮዔናይ	-12.554
እስማኤላውያን	-12.554
እንስራዋን	-12.554
እንግዶቹን	-12.554
እጆቻችሁ	-12.554
ኦዶላም	-12.554
ከለዳውያኑ	-12.554
ኪኔሬት	-12.554
ኮርማዎች	-12.554
ኰርቶአል	-12.554
ውሽሞችዋ	-12.554
ዓዝሪቃም	-12.554
የምታደርጊ	-12.554
የፍችዋን	-12.554
የፍየሉን	-12.554
ያመልጣል	-12.554
ያሰኘዋል	-12.554
ያስተሰርያል	-12.554
ያእዛንያ	-12.554
ያዘዝሁትን	-12.554
ይጐስቍሉ	-12.554
ዮቅጣን	-12.554
ደነደኑ	-12.554
ደጎብያ	-12.554
ዲያቢሎስ	-12.554
ድካማችን	-12.554
ገንዘቤ	-12.554
ጊልቦዓ	-12.554
ጊደሪቱ	-12.554
ጌርሳም	-12.554
ጌሹራውያን	-12.554
ግመሎቹ	-12.554
ጕድጓዶች	-12.554
ጴ	-12.554
ፓ	-12.554
ፐ	-12.5541
ዣ	-12.7539
2	-12.754
d	-13.004
v	-13.0041
ኺ	-13.3373
ፄ	-13.3374
3	-13.3374
[	-13.3374
]	-13.3374
ፑ	-13.3374
ፒ	-13.3374
o	-13.3374
ጰ	-13.3374
ኹ	-13.8373
፤	-13.8374
s	-13.8374
ፂ	-13.8374
(	-13.8374
)	-13.8374
-	-13.8374
5	-13.8374
ዷ	-13.8374
ቊ	-13.8374
e	-14.836
ሷ	-14.8361
t	-14.8362
ፔ	-14.8363
ኾ	-14.8364
ኄ	-14.8365
ዡ	-14.8366
ዦ	-14.8367
ፁ	-14.8368
!	-14.8369
ኘ	-14.837
ኞ	-14.8371
?	-14.8372
፥	-14.8373
*	-14.8374
b	-14.8374
u	-14.8374
ጧ	-14.8374
0	-14.8374
4	-14.8374
@	-14.8374
m	-14.8374
ቷ	-14.8374
ቿ	-14.8374
ኗ	-14.8374
ኲ	-14.8374
ኼ	-14.8374
ጒ	-14.8374
ፏ	-14.8374
ሏ	-14.8374
ኟ	-14.8374
።	-14.8374
