<pad>	0
</s>	0
<unk>	0
¦	-1.15142
▁¦	-1.5049
▁	-3.05658
𐋇	-3.50932
▁,	-3.85187
o	-4.06957
ch	-4.17964
s	-4.34998
▁.	-4.63103
i	-4.87566
en	-5.04652
de	-5.10426
som	-5.1622
till	-5.1855
han	-5.19362
så	-5.48249
om	-5.5118
att	-5.51306
t	-5.57412
▁;	-5.64838
för	-5.68747
jag	-5.70869
det	-5.75203
▁:	-5.79445
på	-5.84364
skall	-5.8449
den	-5.8765
icke	-5.91883
herren	-5.92508
av	-5.94412
är	-5.95469
hon	-5.9569
med	-5.98037
𐊼	-5.99432
𐊣	-5.99432
du	-6.04916
a	-6.0775
har	-6.08589
▁»	-6.11639
dem	-6.12857
då	-6.19954
var	-6.2757
men	-6.29601
er	-6.32773
mig	-6.41298
dig	-6.47295
sig	-6.4777
r	-6.49166
från	-6.5004
sade	-6.51377
där	-6.53159
▁.»	-6.5663
eder	-6.5734
hade	-6.58797
ty	-6.64263
nu	-6.7103
när	-6.72989
efter	-6.73477
alla	-6.75597
sin	-6.80165
gud	-6.80278
it	-6.80789
upp	-6.80808
ett	-6.81949
över	-6.82759
åt	-6.85702
min	-6.89752
din	-6.91948
vad	-6.93815
ock	-6.94677
man	-6.98661
israel	-6.98702
vid	-7.0306
ut	-7.05602
allt	-7.07528
na	-7.10749
vi	-7.16414
hava	-7.16726
son	-7.20992
mot	-7.2355
kola	-7.2411
eller	-7.26089
sina	-7.27681
komm	-7.27941
se	-7.28492
dera	-7.30403
tta	-7.31972
n	-7.34705
barn	-7.34905
▁?	-7.35826
än	-7.38462
oss	-7.42129
e	-7.42654
hus	-7.43913
ja	-7.47181
genom	-7.48742
vara	-7.50392
edan	-7.51936
in	-7.52104
mitt	-7.52201
konungen	-7.52592
må	-7.52642
fram	-7.52988
äger	-7.53749
bliv	-7.55005
folk	-7.56164
göra	-7.57141
skulle	-7.57237
sitt	-7.5735
dina	-7.58011
vill	-7.5991
land	-7.62295
komma	-7.63118
bliva	-7.63396
utan	-7.63404
skol	-7.64525
någon	-7.65189
blev	-7.65358
kom	-7.65697
vor	-7.66079
▁'	-7.6687
et	-7.6701
äro	-7.67924
gå	-7.68507
ned	-7.68812
under	-7.7415
henne	-7.74192
bort	-7.74875
dess	-7.75112
dessa	-7.76753
ur	-7.78005
låt	-7.79768
få	-7.79968
bland	-7.81383
folket	-7.81446
herre	-7.8164
därför	-7.82464
hela	-7.8317
hand	-7.83272
ingen	-7.83366
konung	-7.83998
ditt	-7.8443
mina	-7.86104
själv	-7.86251
ord	-7.86529
inför	-7.88098
andra	-7.88947
mer	-7.89592
guds	-7.89764
svarade	-7.9355
giva	-7.94201
h	-7.94664
jorden	-7.95033
jesu	-7.95087
väl	-7.95373
fader	-7.96047
söner	-7.96348
dag	-7.96407
tid	-7.97328
tjänare	-7.98823
gick	-8.00359
ande	-8.01425
david	-8.02534
kan	-8.02577
stor	-8.03043
någo	-8.0409
juda	-8.05072
gjorde	-8.05398
▁--	-8.07385
mose	-8.07866
▁?»	-8.10861
d	-8.10926
huru	-8.11598
ju	-8.12271
jerusalem	-8.1246
två	-8.13377
vår	-8.13525
namn	-8.13913
män	-8.14685
-	-8.15223
hör	-8.16405
stå	-8.1745
edra	-8.17772
ej	-8.18162
säga	-8.18634
här	-8.18862
gör	-8.2057
gjort	-8.22166
gav	-8.2627
denna	-8.26884
denne	-8.28461
landet	-8.29675
ögon	-8.30722
▁!	-8.3079
hos	-8.30817
får	-8.31045
år	-8.32161
f	-8.35976
tillbaka	-8.36306
dagen	-8.36373
lät	-8.36632
låta	-8.36726
tog	-8.36848
haven	-8.37559
åter	-8.38338
himmelen	-8.39063
taga	-8.3967
ända	-8.41521
egypten	-8.42121
hundra	-8.43296
intet	-8.43465
are	-8.45874
re	-8.46834
höra	-8.47283
skull	-8.47934
emot	-8.48452
talade	-8.51507
stod	-8.51913
all	-8.52286
dit	-8.52576
kring	-8.54015
ansikte	-8.54977
tusen	-8.54986
fråga	-8.55892
hjärta	-8.55978
ar	-8.56216
kunna	-8.56729
bröder	-8.56835
åstad	-8.57219
sådan	-8.57233
lika	-8.58006
många	-8.58198
staden	-8.58575
tala	-8.59491
tag	-8.60587
allena	-8.60784
äta	-8.61161
ick	-8.62154
finne	-8.62172
us	-8.62869
hålla	-8.63735
väg	-8.63777
givit	-8.64054
ta	-8.64114
liv	-8.65402
st	-8.66086
går	-8.66868
samma	-8.67056
såg	-8.68107
tre	-8.68361
rätt	-8.69067
vilken	-8.69153
dagar	-8.70195
vem	-8.70253
es	-8.70515
bo	-8.72461
mycke	-8.72688
ra	-8.72779
sammans	-8.73096
kvar	-8.73594
sju	-8.73694
agt	-8.74156
måste	-8.75259
sände	-8.76253
saul	-8.7643
människor	-8.77747
hörde	-8.78177
an	-8.78437
jakob	-8.78782
vatten	-8.7901
hustru	-8.79199
förde	-8.80544
blod	-8.80872
tro	-8.81867
vare	-8.82249
händer	-8.83323
fäder	-8.83582
däri	-8.84192
säg	-8.84472
guld	-8.85483
be	-8.85792
våra	-8.87546
satte	-8.87896
städer	-8.88042
döda	-8.88495
föra	-8.8896
nåd	-8.89487
lik	-8.90802
vilka	-8.91331
vet	-8.92136
både	-8.92484
jämt	-8.92583
vilja	-8.92801
prästen	-8.93103
födde	-8.93662
aron	-8.93838
tt	-8.94028
eld	-8.94436
bjud	-8.95886
stad	-8.95987
ville	-8.96205
gott	-8.98104
sätt	-8.98278
▁.'	-8.9928
kunde	-8.99305
håll	-8.99306
först	-8.99637
mannen	-9.00227
svärd	-9.00766
bud	-9.00879
nnerlig	-9.01117
gingo	-9.01608
broder	-9.01891
röst	-9.02269
het	-9.02318
da	-9.02647
tiden	-9.02952
vände	-9.04308
frukt	-9.04393
kristus	-9.0444
heliga	-9.04769
strid	-9.04834
nämlig	-9.04842
plats	-9.05776
huvud	-9.0582
havet	-9.06526
giver	-9.06877
drag	-9.07677
fyra	-9.07913
lade	-9.07966
framför	-9.082
nde	-9.08937
slag	-9.09265
veta	-9.09834
idan	-9.10096
annan	-9.1046
mun	-9.10527
vända	-9.1059
finna	-9.10671
draga	-9.10738
bära	-9.11394
salomo	-9.1152
dotter	-9.12777
fem	-9.12954
gått	-9.1361
fast	-9.14104
dö	-9.14181
ont	-9.14949
moder	-9.15681
båda	-9.16424
gärningar	-9.16609
sätta	-9.16807
ske	-9.17057
kläder	-9.17068
ställe	-9.17218
huset	-9.17265
as	-9.17295
själ	-9.17658
lag	-9.18194
kraft	-9.18832
nej	-9.19011
drog	-9.19119
leva	-9.19493
föll	-9.19635
makt	-9.19827
farao	-9.19855
tron	-9.2007
vrede	-9.20616
onda	-9.21009
fall	-9.22299
sebaot	-9.22828
bröd	-9.23072
bet	-9.23256
talat	-9.23387
vägen	-9.23466
medan	-9.23612
varandra	-9.23917
stam	-9.23925
▁»,	-9.2395
undan	-9.24247
männen	-9.24608
hit	-9.25114
gång	-9.25232
del	-9.25524
människa	-9.2576
silver	-9.2597
mellan	-9.27408
öknen	-9.27409
tjugu	-9.27845
offra	-9.28531
lägga	-9.28838
rättfärdighet	-9.28934
konungar	-9.28961
altaret	-9.28963
arvedel	-9.29246
prästerna	-9.30065
igen	-9.3028
josef	-9.3059
filistéerna	-9.30593
or	-9.31643
någ	-9.31735
abraham	-9.31809
hem	-9.3229
helig	-9.3264
verk	-9.32885
frukta	-9.33169
fann	-9.33444
marken	-9.33566
lig	-9.337
ära	-9.33786
döttrar	-9.33875
fåt	-9.33926
kallade	-9.34797
for	-9.35296
runt	-9.35575
hjärtan	-9.35742
davids	-9.35752
rus	-9.36115
fiender	-9.36343
babel	-9.36413
döden	-9.36937
lång	-9.37036
alnar	-9.3728
evig	-9.37785
länge	-9.38268
tio	-9.38384
kött	-9.39097
rike	-9.39408
folken	-9.39509
bodde	-9.39902
barns	-9.40312
förbund	-9.40355
berg	-9.41462
säd	-9.42544
falla	-9.42698
världen	-9.43025
josua	-9.43052
leviterna	-9.43062
ropade	-9.43126
liga	-9.43145
kvinna	-9.43889
död	-9.43964
gudar	-9.44269
synd	-9.44343
hög	-9.44548
natten	-9.44776
tjänst	-9.44794
vin	-9.44834
äldste	-9.4537
fing	-9.45837
dricka	-9.4682
förut	-9.47126
härlighet	-9.47178
tagit	-9.47559
fötter	-9.4824
mån	-9.48978
släkte	-9.49088
djur	-9.49449
skaffa	-9.49536
▁!»	-9.49711
vart	-9.51105
glädje	-9.51936
sex	-9.52761
månaden	-9.53668
goda	-9.53824
ve	-9.55088
ena	-9.55227
råd	-9.55599
offer	-9.55857
släkt	-9.5589
given	-9.56053
ären	-9.56054
följde	-9.56108
jordan	-9.56112
kalla	-9.56174
tal	-9.56285
sönder	-9.56446
brännoffer	-9.56503
besittning	-9.56776
bor	-9.5689
visa	-9.57055
före	-9.57076
slog	-9.57804
togo	-9.57954
välsigna	-9.5809
tänk	-9.58474
hop	-9.58703
olv	-9.58893
berget	-9.58931
inne	-9.59679
talar	-9.5984
lagen	-9.59882
änt	-9.60213
frid	-9.60638
vandra	-9.61153
skam	-9.61468
vägar	-9.61477
känna	-9.61724
kropp	-9.61808
gammal	-9.62157
annat	-9.62673
olja	-9.62714
edert	-9.62983
evi	-9.63113
morgon	-9.63519
låg	-9.64387
sak	-9.65337
hjälp	-9.65425
porten	-9.65834
söka	-9.65868
levande	-9.65953
missgärning	-9.66671
moab	-9.66686
judarna	-9.66754
träd	-9.66831
fara	-9.66943
slut	-9.6712
hämta	-9.67464
giv	-9.67603
kvinnor	-9.67774
ene	-9.679
andre	-9.68449
stadgar	-9.68511
sett	-9.68512
ser	-9.68533
pet	-9.69079
begynte	-9.69342
ldrig	-9.69629
rän	-9.69642
tjäna	-9.69934
ligga	-9.70014
bar	-9.70237
sådana	-9.70429
anden	-9.70619
bygga	-9.70624
högr	-9.70914
vän	-9.7117
lova	-9.71175
steg	-9.7132
tecken	-9.71409
drogo	-9.71425
slå	-9.71969
lever	-9.72262
ropa	-9.72975
ed	-9.73414
livet	-9.73488
släkter	-9.7353
vattnet	-9.73576
fyrtio	-9.73906
övriga	-9.73928
vila	-9.73998
femtio	-9.74342
hedningarna	-9.74548
fört	-9.74573
k	-9.74611
förkunna	-9.74736
ben	-9.74877
rädda	-9.75523
tredje	-9.75679
lärjungar	-9.75701
förstånd	-9.75883
uppstå	-9.76314
krist	-9.76385
hel	-9.76483
profeten	-9.76742
bad	-9.77032
ting	-9.77304
arbete	-9.77452
olycka	-9.77696
p	-9.78163
kärlek	-9.78525
tänkte	-9.78907
sår	-9.78939
manasse	-9.79014
funno	-9.7911
kvinnan	-9.79139
trädde	-9.79527
ax	-9.79594
intill	-9.79801
trettio	-9.8007
full	-9.80198
sång	-9.80468
kasta	-9.80635
ljus	-9.80729
boning	-9.8079
vänd	-9.80808
bär	-9.80981
förnimma	-9.81015
g	-9.81412
höll	-9.81574
jeremia	-9.81672
sta	-9.82291
sten	-9.82698
våld	-9.82841
furstar	-9.82925
vishet	-9.83066
uppenbarelsetält	-9.83565
ras	-9.83899
ängel	-9.84295
dom	-9.84321
ant	-9.84366
spisoff	-9.84794
förstå	-9.84827
sa	-9.85016
lämna	-9.85035
samuel	-9.85097
sända	-9.85113
frälsning	-9.85136
joab	-9.858
lov	-9.867
synder	-9.8683
sons	-9.87023
befallning	-9.87209
vore	-9.87398
bön	-9.8741
um	-9.88156
boskap	-9.88715
solen	-9.88766
helgedomen	-9.88899
människorna	-9.88946
snar	-9.89022
mat	-9.89384
ytter	-9.8947
stenar	-9.89841
koppar	-9.90043
lägra	-9.9005
johann	-9.90101
föda	-9.90128
isak	-9.90349
område	-9.90485
ken	-9.90827
▁',	-9.90835
'»	-9.90862
gräns	-9.91294
b	-9.91386
fly	-9.91637
gilead	-9.91966
lamm	-9.92013
kärl	-9.92233
penningar	-9.93154
enda	-9.93267
fadern	-9.93622
vittnesbörd	-9.93745
byggde	-9.93753
hata	-9.93955
far	-9.9398
gån	-9.94468
hiskia	-9.94595
bjöd	-9.94953
god	-9.95261
rättfärdiga	-9.95447
stammar	-9.95599
förgå	-9.95732
församlade	-9.95897
lagt	-9.95924
nära	-9.95949
fött	-9.95965
kastade	-9.9597
ställde	-9.96037
dog	-9.96136
egen	-9.96139
jäm	-9.96385
namnet	-9.96431
stannade	-9.96502
oren	-9.96528
regering	-9.96919
str	-9.97124
gåvo	-9.97461
profeterna	-9.97787
hustrur	-9.97963
bred	-9.98311
lott	-9.98918
lära	-10.0001
stort	-10.0003
jonatan	-10.0011
förgöra	-10.0011
bättre	-10.0019
utgjorde	-10.0071
länder	-10.0088
sågo	-10.01
utrota	-10.011
pa	-10.0125
rätta	-10.0129
ren	-10.0145
helga	-10.0161
lägre	-10.0175
stycke	-10.0196
mått	-10.0221
sida	-10.0238
hopa	-10.0269
träda	-10.029
ning	-10.0291
sion	-10.0294
les	-10.0294
stör	-10.0295
rent	-10.0305
sitta	-10.033
helige	-10.0365
ligge	-10.0418
döma	-10.0446
rop	-10.0454
räkna	-10.0479
el	-10.0488
ark	-10.05
skrive	-10.053
funnit	-10.0535
öster	-10.0537
lägg	-10.0562
gånger	-10.0572
byte	-10.0586
fruktan	-10.0607
ran	-10.0633
öppna	-10.0671
lär	-10.0679
regera	-10.0683
else	-10.0686
bergen	-10.0709
svara	-10.0712
profeter	-10.0727
hopp	-10.0732
stark	-10.0765
fördärva	-10.0768
ette	-10.0792
gäll	-10.0827
akta	-10.0851
vilket	-10.0855
just	-10.0871
fasta	-10.0883
skriv	-10.0886
gamla	-10.0901
evangeli	-10.0914
egna	-10.0935
tunga	-10.094
ege	-10.0944
floden	-10.0952
altare	-10.0978
rättfärdig	-10.0989
innan	-10.0996
högt	-10.1016
tillhör	-10.1023
stanna	-10.1027
platsen	-10.1031
främmande	-10.1033
iterna	-10.1044
sök	-10.1044
nästa	-10.1045
sjun	-10.1062
året	-10.1081
rättfärdige	-10.1088
levde	-10.11
flydde	-10.1124
nöd	-10.1128
skåda	-10.1181
ste	-10.1192
öken	-10.1195
hästar	-10.1204
behag	-10.1241
syster	-10.1265
nog	-10.13
utmarker	-10.1306
prisa	-10.1307
läger	-10.1308
hår	-10.1381
läppar	-10.1385
bringa	-10.1391
absalom	-10.1398
invånare	-10.1401
slagna	-10.1411
allde	-10.1423
ammon	-10.1458
inom	-10.1465
natt	-10.1473
lön	-10.1483
ogudaktiga	-10.1495
följande	-10.1506
vagnar	-10.152
sinne	-10.1522
siklar	-10.1526
undervisa	-10.1553
älska	-10.1565
morgonen	-10.16
bevara	-10.1627
fri	-10.1632
köttet	-10.1651
nen	-10.1653
sökte	-10.1677
fåglar	-10.1681
människobarn	-10.1688
älskade	-10.1709
förviss	-10.1713
bröto	-10.1737
jo	-10.1752
fot	-10.1756
ställa	-10.1761
höllo	-10.1818
barmhärtighet	-10.1875
samla	-10.1884
familjer	-10.1884
bryta	-10.1892
rätter	-10.1893
portar	-10.1965
jerobeam	-10.1972
ahas	-10.198
lejon	-10.1997
stycken	-10.2001
elia	-10.2047
jord	-10.2066
stund	-10.2071
esau	-10.2072
sk	-10.2098
frälst	-10.2113
församlingen	-10.2119
utom	-10.2139
ma	-10.2159
ovan	-10.2168
främling	-10.2169
lite	-10.2178
skynda	-10.2286
red	-10.2302
aftonen	-10.2306
fjär	-10.2315
norr	-10.235
syn	-10.2352
öga	-10.2363
ljest	-10.2375
egyptierna	-10.238
fullborda	-10.2389
likna	-10.2395
tempel	-10.2423
tält	-10.2432
döds	-10.2437
styggelse	-10.2443
bevisa	-10.2448
ahab	-10.2461
profetera	-10.2473
sjuttio	-10.2478
ute	-10.2478
orätt	-10.2482
sela	-10.2517
räckte	-10.2523
väx	-10.2552
lös	-10.2558
ack	-10.2572
slakta	-10.2593
syndat	-10.2627
präster	-10.2628
läng	-10.2628
förlåt	-10.2697
beg	-10.2699
l	-10.2741
försoning	-10.2764
samaria	-10.2794
lust	-10.2805
ingången	-10.2826
lämnade	-10.2832
känn	-10.2839
vilj	-10.2848
unga	-10.2858
gad	-10.2871
öron	-10.2901
kanaan	-10.2901
skuld	-10.2903
sanning	-10.2945
bröt	-10.2946
akt	-10.2951
ny	-10.2953
varen	-10.2971
efraim	-10.299
järn	-10.3004
stoft	-10.301
tabernaklet	-10.301
horn	-10.3023
efraims	-10.303
antal	-10.3034
kunn	-10.3041
tacka	-10.306
rena	-10.3067
ika	-10.3116
elden	-10.3185
inbyggare	-10.3231
hälft	-10.3231
bedja	-10.3282
bör	-10.3284
ul	-10.3301
konungs	-10.3319
lyfte	-10.333
slogo	-10.3371
lyssna	-10.3375
aul	-10.339
kunskap	-10.3391
läto	-10.344
sjuk	-10.345
komme	-10.345
mantel	-10.3451
rikedom	-10.3453
josafat	-10.3457
ogudaktige	-10.3461
ände	-10.3496
tionde	-10.3501
seba	-10.3508
sked	-10.3511
ro	-10.3512
städerna	-10.357
druck	-10.3572
stilla	-10.3573
följ	-10.3574
dräpa	-10.3579
striden	-10.358
domare	-10.3588
angå	-10.36
pris	-10.3601
mätta	-10.3631
arna	-10.3689
älskar	-10.3695
djup	-10.3729
visste	-10.3731
menigheten	-10.3732
slår	-10.3748
starka	-10.3749
fin	-10.3754
give	-10.3771
följa	-10.3783
hell	-10.3787
orena	-10.379
inmönstrade	-10.3811
förgården	-10.3819
vingar	-10.3824
vari	-10.3843
öde	-10.3856
aft	-10.387
otukt	-10.39
gråt	-10.3903
led	-10.3916
illa	-10.3921
fördärv	-10.3929
församla	-10.3932
grund	-10.3944
baal	-10.3991
arken	-10.3992
benjamin	-10.3998
fulla	-10.4
orda	-10.4003
bygg	-10.4018
assyrien	-10.4045
mörker	-10.405
välbehaglig	-10.4053
beslut	-10.4074
arm	-10.4075
ge	-10.412
dörr	-10.4145
daniel	-10.4167
benjamins	-10.4176
lida	-10.4183
joa	-10.4184
trä	-10.4193
stiga	-10.421
inga	-10.4217
lärjungarna	-10.4227
ordet	-10.425
fatta	-10.4255
aram	-10.4262
unda	-10.4263
gåvor	-10.4285
m	-10.429
amoréerna	-10.429
mörkret	-10.429
brev	-10.4291
sidor	-10.4293
människosonen	-10.4301
me	-10.4324
dalen	-10.4348
port	-10.4352
avgudar	-10.4354
kön	-10.4385
tankar	-10.4418
plantera	-10.4424
församling	-10.4443
stig	-10.449
krig	-10.4509
syndoffer	-10.4544
därom	-10.4558
tåga	-10.4569
människan	-10.4574
begär	-10.4595
svärdet	-10.4598
åtta	-10.4598
mod	-10.4602
krossa	-10.4618
sanningen	-10.4618
gal	-10.4622
utval	-10.463
dräpte	-10.4635
buro	-10.464
arbeta	-10.4651
pläga	-10.467
beständig	-10.4671
vittna	-10.4685
blygd	-10.4686
åker	-10.47
graven	-10.4711
fångenskap	-10.4734
offrade	-10.474
fjärde	-10.4741
lede	-10.475
fursten	-10.4751
profet	-10.4753
sluta	-10.476
heter	-10.4799
bäst	-10.48
simon	-10.48
förstfödde	-10.4809
bränna	-10.4817
varder	-10.4851
fruktade	-10.4853
bäcken	-10.4865
fäkreatur	-10.4866
resa	-10.4878
äter	-10.4891
ljuset	-10.4893
levi	-10.4909
fröjda	-10.4924
berättade	-10.4927
gyll	-10.4932
tillbedja	-10.4938
bestå	-10.4948
evärdlig	-10.5065
dödsriket	-10.5065
slaktoffer	-10.5067
mika	-10.5083
mycken	-10.5118
frälsa	-10.5127
smälek	-10.5127
lögn	-10.5129
mark	-10.5146
öppnade	-10.5161
vandrade	-10.5192
mjöl	-10.5197
eleasar	-10.5201
ruben	-10.5202
havande	-10.5234
drabba	-10.5235
förtära	-10.5244
förtrösta	-10.5244
varar	-10.5262
ofta	-10.5284
änka	-10.53
höjden	-10.5301
ondska	-10.532
edom	-10.5331
betel	-10.534
ringa	-10.5352
ödmjuka	-10.5384
trodde	-10.5384
skara	-10.5386
stånd	-10.5397
vredes	-10.5411
bok	-10.5412
la	-10.5414
söder	-10.546
gensträvig	-10.5476
förgät	-10.5481
öra	-10.5483
elisa	-10.5494
vikt	-10.5497
tillflykt	-10.5506
ida	-10.5531
förmå	-10.5532
undfå	-10.5537
gången	-10.554
förra	-10.5541
dal	-10.5547
ligg	-10.5597
visade	-10.5611
förtörnelse	-10.5617
träffade	-10.5617
ovänner	-10.5625
utföra	-10.564
styggelser	-10.5645
job	-10.5677
huvuden	-10.5692
seger	-10.5718
hebron	-10.5759
myckenhet	-10.5761
förkasta	-10.5762
ihåg	-10.5765
lat	-10.5805
präst	-10.5821
efa	-10.5841
driva	-10.5889
främlingar	-10.5895
välsignelse	-10.5896
sextio	-10.5902
född	-10.5904
smorde	-10.5929
herde	-10.5935
tillhöra	-10.5945
bord	-10.5957
hjälpa	-10.5988
bak	-10.5993
rycka	-10.5996
grav	-10.5997
stadga	-10.6019
förbanna	-10.602
upprätta	-10.6032
fäste	-10.604
hövdingar	-10.6044
klippa	-10.6048
sorg	-10.6051
hjärtat	-10.6051
sikem	-10.6052
kaldéerna	-10.6053
skada	-10.6059
sutt	-10.6076
ödemark	-10.6085
regn	-10.6091
tus	-10.6114
vika	-10.6119
förskräckt	-10.6137
bes	-10.6139
fån	-10.6148
hugg	-10.6201
skänker	-10.6209
väster	-10.6211
plåga	-10.6224
åkalla	-10.6243
konungarna	-10.6246
dan	-10.6247
skatter	-10.6249
likt	-10.6262
lycka	-10.6333
abimelek	-10.6352
åsyn	-10.6354
drickoffer	-10.6354
brutit	-10.6354
skriftlärde	-10.6354
glädja	-10.6356
sändebud	-10.6361
råda	-10.6361
förbi	-10.6379
glada	-10.6401
rökelse	-10.6422
känne	-10.6436
hov	-10.6452
lyd	-10.6463
hast	-10.6478
bäva	-10.6478
araméerna	-10.6507
drick	-10.6508
ha	-10.6509
fariséerna	-10.6509
gåva	-10.6514
svår	-10.6518
byar	-10.6529
murar	-10.6539
göm	-10.6539
frambära	-10.6542
bestäm	-10.656
vandrar	-10.6564
kände	-10.6576
samt	-10.6618
fängelse	-10.6624
vänt	-10.6631
bitt	-10.6644
ber	-10.6649
im	-10.6654
furste	-10.6656
galileen	-10.6663
tungomål	-10.6663
eldsoffer	-10.6663
jeriko	-10.6663
frimodig	-10.6664
hud	-10.6671
muren	-10.6672
hände	-10.6682
te	-10.6697
stött	-10.6716
förskräckelse	-10.6723
fröjd	-10.6756
mål	-10.6769
moders	-10.6776
hals	-10.6784
drev	-10.6787
mästaren	-10.6809
förbannelse	-10.6811
strömmar	-10.6813
vädurar	-10.6876
begrav	-10.6882
särskild	-10.6887
å	-10.6896
bergsbygd	-10.6917
vilse	-10.6922
vagn	-10.6935
fett	-10.6945
psalm	-10.6982
möda	-10.6983
glöd	-10.6983
sidkia	-10.6983
abner	-10.6983
vänner	-10.6983
brännoffre	-10.6987
gent	-10.6998
ogudaktigas	-10.7003
avkomlingar	-10.7004
översteprästen	-10.7009
kroppen	-10.7011
stav	-10.7025
utgjut	-10.7036
hälsa	-10.7058
tider	-10.7071
rik	-10.7079
förbarma	-10.7104
vis	-10.7107
klädd	-10.7126
änglar	-10.7138
lukt	-10.7143
bileam	-10.7147
ångest	-10.7147
damask	-10.7147
översteprästerna	-10.7148
honung	-10.715
vittnesbördet	-10.7165
judar	-10.7196
dödade	-10.7205
viss	-10.7213
leda	-10.7221
himmel	-10.7248
domar	-10.7258
intog	-10.7265
noa	-10.7271
dräpt	-10.7271
vakt	-10.7285
predika	-10.7294
smäda	-10.7298
abram	-10.7313
▁»;	-10.7315
gossen	-10.7315
garn	-10.7316
babyloni	-10.7323
hörn	-10.7329
ängeln	-10.7332
jehu	-10.7342
je	-10.7351
träl	-10.7366
spjut	-10.7381
ställ	-10.7468
van	-10.7471
hoppa	-10.7479
hållit	-10.7481
mordokai	-10.7483
trofasthet	-10.7483
befästa	-10.7495
nytt	-10.7505
gudsmannen	-10.7505
tjurar	-10.7514
människo	-10.7517
böj	-10.7539
fattade	-10.7544
berömm	-10.7562
handla	-10.757
erna	-10.7587
menighet	-10.7592
uppteckna	-10.7593
ok	-10.7596
lovade	-10.7597
träden	-10.7599
vedergäll	-10.7605
stån	-10.7616
ret	-10.7623
förbliv	-10.7641
behaga	-10.7641
mästare	-10.7648
tackoffer	-10.7651
östra	-10.7655
nådig	-10.7671
frisk	-10.7674
elst	-10.77
höga	-10.7703
osyra	-10.7737
gat	-10.776
hövding	-10.7762
löfte	-10.7763
fattiga	-10.7763
lit	-10.7771
folks	-10.7784
vik	-10.7785
rör	-10.7792
synden	-10.7808
mätte	-10.7811
jojada	-10.7831
nebukadnessar	-10.7831
högste	-10.7841
hjord	-10.7842
dör	-10.7852
sabbaten	-10.7882
nio	-10.7905
mur	-10.7918
dörrar	-10.7922
lidande	-10.7928
inre	-10.7985
fåfänglighet	-10.799
lågo	-10.7998
försmäkta	-10.8009
allsmäktige	-10.8009
ester	-10.8011
pass	-10.8011
mjölk	-10.8014
månader	-10.8024
bestämd	-10.8028
spillo	-10.8033
lösa	-10.8052
vänta	-10.8053
get	-10.8071
orter	-10.8076
helgedom	-10.812
sköt	-10.8133
gil	-10.8143
stra	-10.8155
hunger	-10.8166
pila	-10.8168
huvudet	-10.8183
maria	-10.819
sadok	-10.8191
laban	-10.8191
josia	-10.8191
småboskap	-10.8192
hat	-10.8197
straffa	-10.8203
ne	-10.8226
belägra	-10.8229
vitt	-10.8241
förbliva	-10.8257
jubel	-10.8272
vittne	-10.8284
upptände	-10.8286
verklig	-10.8299
bara	-10.8323
förtär	-10.8327
hörande	-10.8334
bed	-10.8355
näst	-10.8359
skatt	-10.8368
drottning	-10.8376
kananéerna	-10.8378
vakna	-10.838
reste	-10.8383
vackla	-10.8383
hemlighet	-10.8384
vinträd	-10.8401
samlade	-10.8415
bota	-10.8421
basan	-10.8425
spetälska	-10.8427
träffa	-10.8446
band	-10.8448
upphöj	-10.8458
högtid	-10.8475
fullt	-10.8484
öva	-10.8494
vise	-10.8498
samman	-10.8503
ansikten	-10.8503
åsnor	-10.8514
furstarna	-10.8522
fiende	-10.854
förlossa	-10.8544
livs	-10.8548
vinna	-10.8554
asa	-10.8556
förkunnade	-10.8562
▁?'	-10.8564
ålder	-10.8564
prov	-10.8566
vinning	-10.8569
dans	-10.8574
främst	-10.8574
hemsöka	-10.8575
felfri	-10.8575
haman	-10.8582
brist	-10.8583
uppe	-10.8612
tåg	-10.8616
bröderna	-10.865
skapa	-10.8686
rot	-10.8699
bedrövelse	-10.8713
helgade	-10.8716
lot	-10.8717
bund	-10.8728
vinden	-10.8728
klädnad	-10.8746
skyldig	-10.8751
kroppar	-10.8753
grät	-10.8756
tjänade	-10.8757
par	-10.8769
iakttag	-10.877
fånga	-10.8774
ismael	-10.8844
halv	-10.8844
föröka	-10.8854
förråd	-10.8879
afton	-10.8888
kommande	-10.8898
gods	-10.8898
rov	-10.8907
skilja	-10.8934
ryttare	-10.8942
naftali	-10.8953
rehabeam	-10.8953
joram	-10.8953
nät	-10.8954
rykte	-10.8957
räddade	-10.8957
gripa	-10.8963
dött	-10.8963
tjänstgöring	-10.8968
rörde	-10.898
skaffade	-10.898
sköld	-10.8982
skjuta	-10.8998
tack	-10.9003
möte	-10.9009
kär	-10.9013
libanon	-10.9018
vädur	-10.9019
stöt	-10.9031
mäktig	-10.9072
höjderna	-10.908
överlämna	-10.9095
ns	-10.9103
fler	-10.9103
farit	-10.913
nödga	-10.9136
iten	-10.9142
andar	-10.9153
simeon	-10.9153
budskap	-10.9153
eländig	-10.9153
åsna	-10.9153
begrov	-10.9154
föremål	-10.9154
blyg	-10.9155
munnen	-10.9156
offereld	-10.9158
därut	-10.9159
nya	-10.916
missgärningar	-10.916
trälar	-10.9163
tjänarinna	-10.9165
syndare	-10.9167
fattige	-10.9168
pröva	-10.92
korn	-10.922
nalka	-10.9231
ler	-10.9237
begå	-10.9242
sänd	-10.9267
fria	-10.927
ga	-10.9309
ringar	-10.9315
sken	-10.9324
bedj	-10.9328
blotta	-10.9348
jisreel	-10.9357
fjorton	-10.9357
asarja	-10.9357
mörkblå	-10.9357
fotstycken	-10.9358
bestånd	-10.9359
vingård	-10.9361
fångar	-10.9366
enlighet	-10.9373
ljud	-10.9384
asaf	-10.9401
altaren	-10.9404
förundra	-10.9411
fåren	-10.944
aser	-10.945
femte	-10.9455
båt	-10.9458
ung	-10.9467
uppfyllde	-10.9468
kis	-10.9476
fiskar	-10.9482
befall	-10.9482
bruka	-10.9499
ris	-10.9506
särskil	-10.9514
räck	-10.9524
ssia	-10.9525
häri	-10.953
dröm	-10.9532
eli	-10.9552
tjänaren	-10.9564
natan	-10.9565
gibea	-10.9566
sörj	-10.9566
offergåva	-10.9567
vällukt	-10.957
bereda	-10.9576
klagan	-10.9577
hämtade	-10.9577
kvinnorna	-10.9578
överträdelser	-10.9579
sebulon	-10.9579
kameler	-10.9588
övermått	-10.9594
förrätta	-10.9595
rök	-10.9603
uppenbara	-10.9604
skickade	-10.9604
bur	-10.9617
orenhet	-10.9644
tit	-10.9659
förstod	-10.9688
pest	-10.971
sker	-10.9727
rakel	-10.9749
barnet	-10.9759
överste	-10.9764
trolös	-10.9764
synda	-10.9764
kärleken	-10.9777
sjön	-10.9778
sjätte	-10.9778
förlåta	-10.9779
bröst	-10.9784
utvalda	-10.9784
kort	-10.979
brödet	-10.9798
blick	-10.9799
härom	-10.9799
fastmer	-10.9804
gärn	-10.9806
kunnig	-10.9808
ordning	-10.981
aktade	-10.9811
likaså	-10.9811
förbundet	-10.9816
utgjuta	-10.9822
förakta	-10.9826
gator	-10.9829
evigheter	-10.9842
kalk	-10.9851
barnen	-10.9862
varna	-10.9873
häpnad	-10.9875
vek	-10.9879
beer	-10.992
rum	-10.9924
blott	-10.9937
aln	-10.9945
visar	-10.9955
riket	-10.9974
palats	-10.9987
templet	-10.9996
ljusstaken	-10.9997
klippan	-11.0006
israeliterna	-11.0023
larm	-11.0024
vederfar	-11.0026
gift	-11.0032
egg	-11.0041
am	-11.0062
förbannad	-11.0071
gästabud	-11.008
sabbat	-11.008
närmast	-11.0092
städe	-11.0107
vittnen	-11.011
sions	-11.0119
värde	-11.013
strand	-11.0141
bättring	-11.0147
störta	-11.015
hungersnöd	-11.0152
ostrafflig	-11.0166
väsende	-11.017
rättfärdigheten	-11.017
stolt	-11.0178
köpa	-11.0189
herod	-11.0211
hydda	-11.0218
gideon	-11.0218
gibeon	-11.0218
simei	-11.0218
menar	-11.022
högg	-11.0221
begynnelsen	-11.0221
elig	-11.0223
styrka	-11.0225
tuktan	-11.0226
krönika	-11.0228
föreskriv	-11.0234
ljuvlig	-11.0238
förnämst	-11.0248
seende	-11.0269
överflöd	-11.027
förvärva	-11.0272
rätten	-11.0277
utför	-11.0278
bitter	-11.0284
riken	-11.0287
dre	-11.0288
sara	-11.0288
täcke	-11.0307
fat	-11.0316
pilar	-11.0317
jubla	-11.0338
tänder	-11.034
skön	-11.0342
hän	-11.0349
små	-11.0353
krossade	-11.0359
silo	-11.0363
ad	-11.0364
ista	-11.0392
färd	-11.0425
skepp	-11.0432
balak	-11.0445
isaskar	-11.0445
konungshuset	-11.0448
förbundsark	-11.0448
keruberna	-11.045
isai	-11.0464
lammet	-11.0467
slöt	-11.0468
tukta	-11.0474
éerna	-11.0491
tältet	-11.0507
eus	-11.0514
ab	-11.0515
gjorda	-11.0556
välsignad	-11.0579
trösta	-11.0587
v	-11.061
änden	-11.0617
utvälj	-11.0622
leder	-11.0638
torr	-11.0656
visst	-11.0665
hjältar	-11.0668
gräs	-11.0672
amen	-11.0677
åminnelse	-11.0677
begynn	-11.0677
underdånig	-11.0678
vapen	-11.0678
judisk	-11.0678
lfte	-11.0678
tillfälle	-11.0678
sakarja	-11.068
fältet	-11.0682
lovad	-11.0685
djupet	-11.069
berätta	-11.069
judeen	-11.07
vinet	-11.0711
br	-11.0719
stänger	-11.0725
iga	-11.0739
övergiv	-11.0778
krona	-11.0783
ytterst	-11.0803
häpna	-11.0811
förbränna	-11.0821
huvudmän	-11.0847
köp	-11.0858
skörda	-11.0859
uppfylld	-11.0863
lotten	-11.0869
förfölj	-11.0874
ond	-11.0879
lehem	-11.0915
kirjat	-11.0916
benaja	-11.0916
mispa	-11.0917
linne	-11.0917
gläd	-11.0924
skona	-11.0932
behör	-11.0942
ofärd	-11.0959
välde	-11.0962
röda	-11.0971
sammal	-11.1
upphör	-11.1004
sträcka	-11.1004
båd	-11.1011
skriften	-11.1022
vakta	-11.1023
arbetet	-11.1035
enlig	-11.1045
säll	-11.1048
lysa	-11.1069
märk	-11.1077
hyddor	-11.1081
erlig	-11.109
salt	-11.1091
moln	-11.1091
rama	-11.1101
trampa	-11.1107
domen	-11.1112
rev	-11.112
stena	-11.1138
invånar	-11.1151
enskap	-11.1152
båge	-11.1154
filipp	-11.116
amasja	-11.116
uppståndelse	-11.116
undervisning	-11.116
jojakim	-11.116
hadad	-11.116
semaja	-11.1161
lovsjung	-11.1161
utskifta	-11.1162
behöv	-11.1162
vind	-11.1177
uppenbarat	-11.1205
bredd	-11.1217
offerhöjder	-11.1227
guden	-11.1236
ingång	-11.1239
hugga	-11.1257
skräck	-11.1267
röra	-11.1268
brunn	-11.1274
tjugufem	-11.1284
höj	-11.1288
väldiga	-11.1295
skaror	-11.1295
kore	-11.1304
brände	-11.1333
inner	-11.1343
rika	-11.1379
väst	-11.1392
midjan	-11.1394
edoms	-11.1403
fält	-11.1405
drabanterna	-11.141
myndighet	-11.141
seir	-11.1422
tappra	-11.1425
grenar	-11.1432
kallat	-11.1434
uppstod	-11.1434
släppa	-11.1434
tjuren	-11.1444
uria	-11.1451
anförare	-11.149
märkt	-11.1491
tage	-11.1512
delade	-11.1518
saliga	-11.1532
själar	-11.1535
sodom	-11.1538
tänkt	-11.1544
gälla	-11.1557
svek	-11.1563
behålla	-11.1568
lippa	-11.1586
kläd	-11.1591
evighet	-11.1601
samme	-11.1611
värdig	-11.1612
tronen	-11.1614
behöva	-11.162
net	-11.1622
falsk	-11.1623
väpna	-11.1632
begiv	-11.1634
dröj	-11.1642
armar	-11.1645
herrar	-11.1648
merari	-11.1658
vingårdar	-11.1659
måst	-11.1663
jesaja	-11.1666
sömn	-11.1666
simson	-11.1666
offergärd	-11.1667
alt	-11.1669
hamat	-11.1671
talenter	-11.1676
nitälskan	-11.1679
allting	-11.1682
bockar	-11.1692
kän	-11.1696
ätter	-11.1699
förfölja	-11.1702
tiondedel	-11.1705
lämnat	-11.1705
brinn	-11.1705
åttio	-11.1718
snara	-11.1723
härskara	-11.1724
brunnen	-11.1735
drivit	-11.1736
flykt	-11.1737
tända	-11.1738
ädla	-11.1739
fattig	-11.1742
pelar	-11.1754
uppenbarade	-11.1754
börda	-11.1758
bergsbygden	-11.1771
löften	-11.1774
även	-11.1784
sjung	-11.1814
ka	-11.1819
höjd	-11.1832
underbar	-11.1839
buk	-11.1843
härlig	-11.1891
krigs	-11.1895
ohelga	-11.1904
aktar	-11.1916
förgjorde	-11.1922
tjänar	-11.1922
döm	-11.1923
mätt	-11.1926
plötslig	-11.1929
hesbon	-11.193
femton	-11.193
gärd	-11.193
begjut	-11.1932
apostlarna	-11.1934
skinn	-11.194
sonen	-11.1941
åkern	-11.1944
djuren	-11.1947
höjder	-11.1949
gudstjänst	-11.1952
efoden	-11.1953
basun	-11.1959
tredjedel	-11.1975
förståndig	-11.1982
kungör	-11.1991
uppfylla	-11.1992
offret	-11.1993
stenen	-11.2028
borde	-11.2031
sörja	-11.2033
slaktade	-11.2041
al	-11.2071
frälsare	-11.2074
grip	-11.2081
plundra	-11.2096
ham	-11.212
ungtjur	-11.2135
väldig	-11.2139
längd	-11.2145
husfolk	-11.215
jungfru	-11.216
höre	-11.2171
hedningar	-11.219
oxar	-11.219
assur	-11.2195
dryck	-11.2198
äktenskapsbrott	-11.22
kaleb	-11.22
satan	-11.22
adoni	-11.22
betyga	-11.22
yngre	-11.22
trygghet	-11.22
anslag	-11.2214
ahasja	-11.2216
lovsång	-11.2228
väduren	-11.2265
böner	-11.2266
ved	-11.2272
begärde	-11.2278
kor	-11.2304
ryckte	-11.2307
krets	-11.2313
lyft	-11.2315
sjunk	-11.2325
skriva	-11.2337
hedmark	-11.2338
ort	-11.2429
kalv	-11.244
bild	-11.2442
märke	-11.2448
svarar	-11.2452
skugga	-11.2459
blinda	-11.2472
topp	-11.2475
ugn	-11.2477
trång	-11.2477
lemmar	-11.2477
sydlandet	-11.2478
andlig	-11.2478
buga	-11.2479
mängd	-11.2479
stjärnorna	-11.2479
flickan	-11.2481
yttr	-11.2481
fordom	-11.2481
egendom	-11.2483
förskräcka	-11.2484
förklara	-11.249
sel	-11.2493
följd	-11.2501
fienden	-11.2505
mäktiga	-11.2508
riklig	-11.2527
fråg	-11.259
uppfyll	-11.2594
purpurrö	-11.2602
glad	-11.2611
betyde	-11.2619
uppenbar	-11.2623
herdar	-11.2628
arv	-11.264
alls	-11.2699
ihjäl	-11.27
förblive	-11.2717
angrip	-11.272
raka	-11.2734
person	-11.2741
lätt	-11.2751
ull	-11.2752
barmhärtig	-11.2762
kehat	-11.2763
tabernakel	-11.2763
fromma	-11.2763
sabbatsdag	-11.2768
vilddjuret	-11.2769
at	-11.2775
förhäv	-11.2776
andarna	-11.2777
skrev	-11.2785
falska	-11.2786
cederträ	-11.2791
överst	-11.2792
anda	-11.2796
drive	-11.2802
sov	-11.2804
trolösa	-11.2807
ändar	-11.2811
fötterna	-11.2816
dagarna	-11.2827
c	-11.2828
månad	-11.2832
utgöra	-11.2841
måltid	-11.2843
ba	-11.2857
svärds	-11.2862
behåll	-11.2863
grepo	-11.2865
förneka	-11.2868
hämnd	-11.2873
fåfänglig	-11.2878
portarna	-11.2881
onde	-11.2907
pin	-11.2929
borg	-11.2949
kära	-11.295
sihon	-11.2968
stigar	-11.2982
fräls	-11.3033
lopp	-11.3044
förmana	-11.3047
mal	-11.3052
svur	-11.3055
ständig	-11.3056
vänster	-11.3057
hilkia	-11.3057
ägodelar	-11.3057
rosenrö	-11.3057
tårar	-11.3058
molnskyn	-11.3059
möta	-11.306
trakt	-11.3063
uttydning	-11.3064
fästa	-11.3066
begära	-11.3067
bräder	-11.3071
dalja	-11.3071
baner	-11.3073
sköldar	-11.3084
böjde	-11.3089
olyckan	-11.3112
ing	-11.3121
synt	-11.3124
dyrbar	-11.3127
önska	-11.313
tränga	-11.3141
nas	-11.3146
lyssnade	-11.3147
oomskurna	-11.3174
förden	-11.3174
utvalde	-11.3179
syner	-11.3181
åtto	-11.3198
tjän	-11.321
hin	-11.3212
ves	-11.3222
säng	-11.3225
skor	-11.3235
elam	-11.3244
besatt	-11.3255
vred	-11.3269
begrava	-11.3281
dyrbara	-11.3289
värn	-11.3292
blind	-11.331
gråta	-11.3326
överträdelse	-11.3329
visheten	-11.3347
ensam	-11.3347
äkta	-11.3352
hövitsmän	-11.3353
oxe	-11.3353
ödra	-11.3353
famn	-11.3358
släpp	-11.3359
ägde	-11.336
)	-11.336
grotta	-11.336
gräshoppor	-11.336
lampor	-11.336
nebukadressar	-11.336
skaffen	-11.336
aderton	-11.336
föräldrar	-11.336
johanan	-11.3361
gröda	-11.3361
syndar	-11.3362
bryter	-11.3372
frivillig	-11.3374
efterkommande	-11.3379
talrik	-11.3381
tillslut	-11.3411
förhärliga	-11.3412
befallde	-11.3432
ådrag	-11.3442
uk	-11.3466
vida	-11.3476
upptecknade	-11.3478
månen	-11.3488
talen	-11.3494
fläck	-11.3496
skål	-11.3501
betänk	-11.3515
förstling	-11.3535
räddat	-11.355
skria	-11.355
länd	-11.355
tröstar	-11.3565
nöden	-11.3566
synagoga	-11.3573
bada	-11.3597
utplåna	-11.3601
baals	-11.3621
slätt	-11.3622
unna	-11.3628
änkor	-11.363
vålla	-11.3636
hålle	-11.3638
vita	-11.3639
tröst	-11.3641
upphöjd	-11.3644
släppt	-11.3645
sålde	-11.3647
flytt	-11.3649
dårar	-11.366
rebecka	-11.3673
darra	-11.3673
sorgdräkt	-11.3673
himmelriket	-11.3673
safan	-11.3673
hövitsmannen	-11.3674
motståndare	-11.3675
sidon	-11.3675
djävulen	-11.3676
fränder	-11.3679
klädde	-11.3685
binda	-11.3686
änglarna	-11.3691
fylla	-11.3695
utbred	-11.3703
förtryck	-11.3709
knän	-11.3726
förgäta	-11.3735
häls	-11.3762
stöta	-11.3767
förbida	-11.3773
glädjen	-11.3781
ungdom	-11.3789
ögonen	-11.3796
abia	-11.3798
boken	-11.3822
kall	-11.3826
aktat	-11.3837
fred	-11.384
avstånd	-11.3848
visdom	-11.3859
rygg	-11.3862
flytta	-11.3875
förståndiga	-11.3881
härliga	-11.3887
löv	-11.3891
beläten	-11.3906
äten	-11.3929
gravar	-11.3929
flyt	-11.3936
tyg	-11.394
vero	-11.3944
arter	-11.3949
uträckt	-11.3961
mar	-11.397
hörsamma	-11.3972
muns	-11.3975
betala	-11.3976
färdig	-11.3978
hemsökelse	-11.3986
säker	-11.3995
tillsyningsmän	-11.3995
brud	-11.3995
dubbel	-11.3995
stötesten	-11.3995
avfällighet	-11.3996
högmod	-11.3997
sälja	-11.4001
gräset	-11.4003
länderna	-11.4005
spets	-11.4006
förtälja	-11.4014
bat	-11.402
jämra	-11.4029
eln	-11.403
helg	-11.4034
saret	-11.4051
broders	-11.4052
höghelig	-11.4052
gagn	-11.4063
tillbåd	-11.4069
strå	-11.4089
begåv	-11.4092
sabbater	-11.4097
högre	-11.4099
dåren	-11.4109
ledde	-11.4128
vete	-11.4131
vanlig	-11.4139
hänga	-11.4144
växte	-11.4145
orättfärdighet	-11.4164
förstöra	-11.4166
uppehåll	-11.4172
löst	-11.419
sam	-11.419
redlig	-11.4192
platser	-11.4197
aska	-11.4214
bekym	-11.4221
unnit	-11.4227
dåre	-11.4233
döpa	-11.4248
gjut	-11.4249
förgä	-11.4253
löpa	-11.4255
ogudaktighet	-11.4262
träng	-11.4262
bock	-11.4264
nämn	-11.4271
gap	-11.428
konst	-11.4282
öppe	-11.4282
res	-11.4286
vrång	-11.4288
skicka	-11.4303
tjänstekvinna	-11.4315
sjukdom	-11.4316
finge	-11.4322
göt	-11.4323
boa	-11.4326
upplyft	-11.4328
smörj	-11.4328
hungrig	-11.4329
jefta	-11.4329
vattnen	-11.4329
dåraktig	-11.4329
karmel	-11.4329
ebjatar	-11.4329
vattna	-11.4329
berömmelse	-11.433
sångarna	-11.433
orenlighet	-11.4331
insikt	-11.4331
samvete	-11.4332
tillstadde	-11.4333
förkunnar	-11.4335
vaka	-11.4336
abas	-11.4339
villig	-11.4351
hustrun	-11.4359
vall	-11.4359
sål	-11.436
jungfrur	-11.4367
vär	-11.4381
lea	-11.4398
svär	-11.4403
norra	-11.4407
bi	-11.441
väggen	-11.4432
skapade	-11.4442
finger	-11.4473
skålar	-11.4487
förste	-11.453
betyda	-11.4541
förtörna	-11.4552
jona	-11.4575
förvara	-11.4587
obed	-11.4598
tamar	-11.4598
ias	-11.462
känd	-11.4627
ångra	-11.4644
räddar	-11.4652
verka	-11.4652
torn	-11.4655
silv	-11.4657
storm	-11.4668
källa	-11.4672
räkning	-11.4672
brokig	-11.4674
tacksägelse	-11.4674
kedjor	-11.4674
hallel	-11.4674
dårskap	-11.4674
▁----	-11.4674
räddning	-11.4674
kryddor	-11.4676
lyckosam	-11.4676
hananja	-11.4678
godhet	-11.468
vård	-11.4684
värd	-11.4686
lustgård	-11.469
gjuta	-11.4692
breda	-11.4695
njuta	-11.4714
psaltar	-11.4718
sem	-11.4719
käre	-11.4727
gräv	-11.4736
blive	-11.4743
åstunda	-11.4747
hetta	-11.4751
di	-11.4762
esra	-11.4767
behöve	-11.4769
tung	-11.4778
ört	-11.4783
sist	-11.4785
gl	-11.4787
högtiden	-11.4803
predikade	-11.4803
kades	-11.4808
kull	-11.4812
utgå	-11.4813
eden	-11.4816
gärning	-11.4843
förakt	-11.4848
pund	-11.4857
djuret	-11.4861
ke	-11.4879
hjordar	-11.488
nå	-11.4882
le	-11.4892
upptag	-11.4919
stridsmän	-11.4922
hindra	-11.4929
bleve	-11.4942
utrotade	-11.4947
korsfäst	-11.4959
hednafolk	-11.4965
akten	-11.4967
daglig	-11.4975
dagg	-11.4981
mans	-11.4983
liknelse	-11.4991
avfall	-11.4995
abel	-11.5015
unge	-11.5015
våga	-11.5016
dels	-11.5022
vilddjur	-11.5025
assyrisk	-11.5031
gamle	-11.5031
baesa	-11.5031
jebuséerna	-11.5031
fruktansvärd	-11.5031
faderlöse	-11.5032
akacieträ	-11.5032
sekreteraren	-11.5033
skyn	-11.5033
uja	-11.5034
bedrev	-11.5034
kejsaren	-11.5034
druvor	-11.5034
elände	-11.5035
plågor	-11.5035
delaktig	-11.5036
hemsökelsen	-11.5041
avdelningar	-11.5042
allra	-11.5048
trumpeter	-11.5049
vredga	-11.505
lärare	-11.5051
ussia	-11.5051
bespeja	-11.5051
bosatt	-11.5062
drömmen	-11.5063
personer	-11.5064
förtäljde	-11.5068
fängelset	-11.5121
vandr	-11.5142
fas	-11.5154
intaga	-11.5172
kant	-11.5172
törnen	-11.5175
spis	-11.5183
salig	-11.5236
fördärvlig	-11.5248
hölj	-11.5251
köpt	-11.5256
pil	-11.5259
avkomma	-11.529
högtider	-11.5294
svag	-11.5303
sakna	-11.5317
omma	-11.532
anska	-11.5327
överdrog	-11.535
kastar	-11.5353
syssl	-11.5359
tak	-11.5362
ets	-11.539
folkslag	-11.5399
dräkt	-11.5401
krans	-11.5401
amnon	-11.5401
inälvor	-11.5401
sallum	-11.5401
drömmar	-11.5401
glans	-11.5401
fyrfotadjur	-11.5401
förstocka	-11.5402
övermod	-11.5402
skrift	-11.5407
förföljare	-11.5409
fångna	-11.5409
mos	-11.5409
skändlighet	-11.5411
befallningar	-11.5412
saken	-11.5414
hjältarna	-11.5416
andan	-11.5423
syne	-11.5454
talrika	-11.5463
upphöja	-11.5468
ömka	-11.5473
uppenbarelse	-11.5473
svaga	-11.5478
like	-11.5539
bedrövad	-11.5541
bävan	-11.5541
älsk	-11.5572
röd	-11.5592
vinner	-11.5594
profeterade	-11.5606
kammare	-11.5647
bedröva	-11.565
frälsar	-11.5656
ehas	-11.5665
övr	-11.5693
förvandla	-11.5696
sol	-11.57
junga	-11.5722
grop	-11.5726
överdrag	-11.573
ningen	-11.5748
ryck	-11.5754
locka	-11.5758
strömma	-11.5765
begärelse	-11.5767
avdelning	-11.5767
amalek	-11.5772
meddela	-11.5775
förtörnade	-11.5785
bojor	-11.5785
lyste	-11.5785
kvarleva	-11.5785
bälte	-11.5786
hjälte	-11.5786
smädelse	-11.5786
njurar	-11.5786
maaka	-11.5786
tarsis	-11.5786
besvär	-11.5786
spel	-11.5786
seruja	-11.5787
ordspråk	-11.5787
legat	-11.5788
sucka	-11.5789
nådastolen	-11.579
svärfader	-11.579
församlingarna	-11.5792
stormvind	-11.5795
utkräva	-11.5798
herdarna	-11.5799
filistéen	-11.58
bedriva	-11.5806
mild	-11.5822
förordna	-11.5823
skogen	-11.5827
övergåvo	-11.5841
ring	-11.585
förskingra	-11.5854
utstå	-11.5855
räknade	-11.5856
gården	-11.5867
kain	-11.5874
fatt	-11.5901
lagd	-11.5909
hjorden	-11.5922
fullbordat	-11.5935
försåt	-11.5939
släkten	-11.5961
vistade	-11.5972
höjde	-11.5993
ormen	-11.5994
ekron	-11.6008
il	-11.6008
grep	-11.6024
betjäna	-11.6027
ahia	-11.6028
basuner	-11.6039
skjut	-11.6048
sera	-11.6063
oskyldig	-11.6069
fördärvade	-11.6072
ljuda	-11.6088
häst	-11.6115
stann	-11.612
heta	-11.6123
sälj	-11.613
sed	-11.6131
skrivelse	-11.6146
j	-11.6149
blicka	-11.6149
sökt	-11.6151
hövdingdöme	-11.6151
fästen	-11.6159
behövde	-11.6167
stjäl	-11.6168
dana	-11.617
fikonträd	-11.6183
ämbete	-11.6185
arnon	-11.6186
förgrymmelse	-11.6186
mesullam	-11.6186
misskund	-11.6186
rimmon	-11.6186
samarien	-11.6186
plundring	-11.6186
äventyr	-11.6186
berättelse	-11.6186
nebat	-11.6186
åkrar	-11.6186
skipa	-11.6186
▁';	-11.6186
betalning	-11.6187
förmådde	-11.6188
tackoffret	-11.619
hetiterna	-11.6191
harpor	-11.6192
seraja	-11.6192
svärja	-11.6196
oförnuft	-11.6196
uträcka	-11.6199
väsendena	-11.621
korg	-11.6221
ynglingar	-11.6222
esai	-11.6225
kakor	-11.6226
jesua	-11.6232
aim	-11.6236
bon	-11.6237
laki	-11.6241
fånge	-11.6259
utropa	-11.626
hednafolken	-11.626
längta	-11.6264
darej	-11.6283
hänt	-11.6284
anklaga	-11.6285
em	-11.6291
dela	-11.6292
lund	-11.6294
vunn	-11.6307
abi	-11.6314
nam	-11.6336
kvarlevan	-11.6338
tillstäd	-11.6357
överstepräst	-11.6362
överlämnade	-11.6378
dråpare	-11.638
förhus	-11.6396
hor	-11.6399
befäst	-11.64
aste	-11.6402
äran	-11.641
långa	-11.6413
skrifter	-11.6427
avund	-11.6434
skapare	-11.6452
sköna	-11.6455
straff	-11.6482
has	-11.6492
lju	-11.6502
redliga	-11.6505
fira	-11.6514
förströ	-11.6516
fäll	-11.6524
klaga	-11.6526
terebint	-11.653
by	-11.6531
bese	-11.6537
stränga	-11.6547
bords	-11.6557
teckne	-11.658
upphäv	-11.6581
israeliter	-11.6595
tanke	-11.6599
mörk	-11.6601
asdod	-11.6602
härbärge	-11.6602
drack	-11.6602
bommar	-11.6602
tretton	-11.6602
sexton	-11.6602
jotam	-11.6602
himmelska	-11.6602
klagorop	-11.6603
nittio	-11.6603
feta	-11.6605
torka	-11.6608
uppsikt	-11.6608
underhövitsmän	-11.6608
rådslag	-11.6612
tröskel	-11.6614
uppväckt	-11.6614
skörd	-11.6619
når	-11.6629
upphäva	-11.663
synagogor	-11.6631
don	-11.6631
fördärvet	-11.6633
noga	-11.6634
arma	-11.6636
skaka	-11.6637
arme	-11.6668
samlat	-11.6675
altar	-11.6676
störtade	-11.6678
sträng	-11.668
slöto	-11.6689
vilda	-11.6692
aseror	-11.6694
ans	-11.6737
föder	-11.6738
kors	-11.674
förlita	-11.6758
hövdingen	-11.6762
hängde	-11.6763
siare	-11.6766
brännoffers	-11.6769
fisk	-11.6771
kal	-11.6774
dräp	-11.68
förblev	-11.6803
fälla	-11.6803
fäkreaturen	-11.6817
friden	-11.6821
häng	-11.6842
efterfölj	-11.6847
flöda	-11.6859
evad	-11.6869
gen	-11.6876
helgedomssik	-11.6876
dömen	-11.6877
hu	-11.6884
panna	-11.6885
lys	-11.6913
törst	-11.6916
spår	-11.6928
lagar	-11.6928
sua	-11.6934
nar	-11.6945
skicklig	-11.6957
lid	-11.6958
påskhögtid	-11.6968
hål	-11.6977
fördrag	-11.6978
pant	-11.6985
ström	-11.7
måtte	-11.7022
tål	-11.7029
begynnelse	-11.7031
ionde	-11.7031
dyrka	-11.7034
dörrvaktarna	-11.7037
egyptisk	-11.7037
fönstre	-11.7037
gomorra	-11.7037
hebreisk	-11.7037
maaseja	-11.7037
skägg	-11.7037
makir	-11.7037
susan	-11.7039
hasael	-11.704
rådslut	-11.7043
fågeln	-11.7044
hiram	-11.7045
bedrivit	-11.7048
utseende	-11.706
uppväckte	-11.7066
övermäktiga	-11.707
nere	-11.707
bida	-11.708
torra	-11.7084
naken	-11.7086
sysslor	-11.7087
mattan	-11.7092
döp	-11.7093
emma	-11.7095
skap	-11.7116
förstån	-11.7117
sommar	-11.7119
besinna	-11.7124
förvandlade	-11.7125
store	-11.7132
fattat	-11.7137
hårda	-11.7139
anställ	-11.7145
väntade	-11.7153
fördold	-11.7171
våder	-11.719
fång	-11.719
oro	-11.7195
trädet	-11.7201
gränser	-11.7206
grunden	-11.7208
saba	-11.7208
församlat	-11.722
fäderna	-11.7232
kora	-11.7238
fångenskapen	-11.7265
högtids	-11.7267
hemsökt	-11.727
rad	-11.7272
höljd	-11.7275
förlora	-11.7304
tillbörlig	-11.7312
regna	-11.7312
kysst	-11.7314
ikläd	-11.7323
ött	-11.7324
vit	-11.733
synen	-11.7335
bägare	-11.7342
omskurna	-11.7347
tiga	-11.7348
änkan	-11.7352
avföll	-11.7372
kar	-11.7401
utbr	-11.7402
tjur	-11.7426
eser	-11.7427
flyga	-11.7428
dölj	-11.7438
hjälpare	-11.7455
livklädnad	-11.7459
likadan	-11.7461
kast	-11.7463
företag	-11.7474
förödelse	-11.7474
framsida	-11.7479
brinna	-11.748
hur	-11.7481
budbärare	-11.7486
bönhör	-11.7487
ståndaktig	-11.749
ståthållare	-11.7491
keruber	-11.7491
olje	-11.7491
befäl	-11.7492
förvirring	-11.7492
näsa	-11.7492
serubbabel	-11.7492
hungra	-11.7492
ersättning	-11.7492
tjänarinnor	-11.7492
perisséerna	-11.7492
elva	-11.7492
redskap	-11.7492
skära	-11.7492
amalekiterna	-11.7492
smörjelseolja	-11.7492
peres	-11.7492
bokrulle	-11.7492
begrunda	-11.7493
lydnad	-11.7493
nabal	-11.7493
macedonien	-11.7493
konungslig	-11.7495
väga	-11.7495
mötte	-11.7496
bakhåll	-11.7496
adam	-11.7496
nabot	-11.7497
blodskuld	-11.7498
spärra	-11.7501
skeppet	-11.7502
hövdingarna	-11.7504
gasa	-11.7507
antända	-11.751
grundvalar	-11.7511
väldige	-11.7513
hären	-11.7514
köpte	-11.7514
leviten	-11.7515
begärelser	-11.7515
klag	-11.7517
konungadömet	-11.7518
hasta	-11.7518
stadsporten	-11.7522
lejonet	-11.7526
bott	-11.7527
mäns	-11.7535
dol	-11.7542
åkallan	-11.7544
märka	-11.7549
anskaffa	-11.7559
sinai	-11.756
tycke	-11.7563
övertäck	-11.7588
tvinna	-11.7588
minst	-11.7592
bero	-11.7593
fördrev	-11.7593
lin	-11.7594
bredde	-11.7615
ätt	-11.7619
svart	-11.762
förstör	-11.7645
uppdrag	-11.7658
ödelagd	-11.769
omgjorda	-11.769
sinnes	-11.7692
församlings	-11.7696
vänlig	-11.7705
dödat	-11.7714
årsgam	-11.7719
dölja	-11.772
förgör	-11.7724
strids	-11.7739
hemfall	-11.776
smor	-11.777
blås	-11.7776
li	-11.7776
koras	-11.7803
mo	-11.7811
lärde	-11.7815
änker	-11.7821
frambär	-11.7851
strömmen	-11.7856
påskalamme	-11.7875
kost	-11.7877
makten	-11.7877
säck	-11.7877
skörden	-11.7887
summa	-11.7888
trädgård	-11.7889
sorge	-11.79
doms	-11.7906
fest	-11.7909
log	-11.7911
bortförd	-11.7913
försvinna	-11.7918
bihustru	-11.7938
dödad	-11.7941
frälsningen	-11.7941
riva	-11.7945
majestät	-11.7956
eber	-11.7957
sköte	-11.7959
hövitsman	-11.796
arbetare	-11.7965
leviter	-11.7965
tvist	-11.7966
läst	-11.7967
nadab	-11.7967
vux	-11.7967
äldr	-11.7968
vånda	-11.7968
apostel	-11.7968
häftig	-11.7968
knapp	-11.7968
persien	-11.7968
ypperst	-11.7968
isebel	-11.7968
äktenskapsbryt	-11.7968
orättrådig	-11.7968
elkana	-11.7968
vifta	-11.7968
kruka	-11.7968
sammankomst	-11.7968
vapendragare	-11.7968
yngste	-11.7968
arbets	-11.7968
vaken	-11.7968
årsgammal	-11.7968
ouppsåtlig	-11.7968
noomi	-11.7968
kunglig	-11.7969
genomborra	-11.7969
sisera	-11.7969
hasor	-11.7969
nilfloden	-11.797
skott	-11.797
tungor	-11.797
eliab	-11.7971
ostrafflighet	-11.7972
kvist	-11.7972
uppbygg	-11.7975
semes	-11.7975
timna	-11.7976
joel	-11.7976
starkhet	-11.7978
påbud	-11.7979
klar	-11.7982
stänk	-11.7984
härskarorna	-11.7985
övertäckte	-11.7985
uppväcka	-11.7989
kriget	-11.7989
kämpar	-11.7993
omsorg	-11.7996
pelare	-11.7999
förr	-11.8
hövdingdömen	-11.801
bl	-11.8011
framställde	-11.802
förskjut	-11.8024
drycker	-11.8024
hjulen	-11.8028
angripn	-11.803
amon	-11.8044
förfärade	-11.8045
ningar	-11.8046
tillb	-11.8058
fyll	-11.8063
fullkomlig	-11.8066
gifta	-11.8073
itamar	-11.8078
rämna	-11.8086
orna	-11.8109
brodern	-11.811
trofast	-11.8118
bedraga	-11.8131
delar	-11.8141
bygger	-11.8143
horon	-11.8173
dömd	-11.8185
murpelar	-11.8203
bespottar	-11.8227
lyfta	-11.8231
take	-11.8241
borgen	-11.8253
kunskapen	-11.8255
ivrig	-11.8273
un	-11.8284
kus	-11.8286
möjlig	-11.8288
grönska	-11.8291
libanons	-11.8303
hanan	-11.8304
utförde	-11.8308
vissna	-11.831
färda	-11.8311
rikt	-11.8314
säge	-11.8316
tig	-11.832
skuldoffer	-11.8327
mes	-11.8347
iska	-11.8375
pen	-11.8376
törne	-11.8382
öppning	-11.8396
ståndaktighet	-11.8397
rumme	-11.8402
mus	-11.8403
förmörka	-11.8406
rusta	-11.8412
upplåt	-11.8423
meller	-11.8424
talet	-11.8439
förvilla	-11.8445
stolpar	-11.8455
skändlig	-11.8457
kallad	-11.8462
hurudan	-11.8462
fariséer	-11.8465
tjänarna	-11.8467
ahitofel	-11.8468
bröstskölden	-11.8468
fönster	-11.8468
netanja	-11.8468
sammansvärjning	-11.8468
stappla	-11.8468
ninev	-11.8468
ahikam	-11.8468
surdeg	-11.8468
sannfärdig	-11.8468
tillkommelse	-11.8468
mutor	-11.8468
hesron	-11.8469
omgjordade	-11.8469
hivéerna	-11.8469
anatot	-11.847
varelser	-11.8472
hundarna	-11.8472
tröskplats	-11.8472
gerson	-11.8473
livsdagar	-11.8473
skyarna	-11.8474
källor	-11.8476
simri	-11.8478
himlarna	-11.8478
frat	-11.8481
fyrfat	-11.8483
levitisk	-11.8488
sal	-11.8489
ljungeldar	-11.8489
lider	-11.8489
plocka	-11.8489
tim	-11.849
rökelsen	-11.8493
jämmer	-11.8493
beläte	-11.8498
härskri	-11.8505
vedermöda	-11.8507
list	-11.8508
förlid	-11.851
krigsmän	-11.8511
låde	-11.8521
bedrag	-11.8522
omskära	-11.853
återstod	-11.8534
skilde	-11.8537
salen	-11.8538
ö	-11.8539
ungar	-11.8539
obadja	-11.8545
längs	-11.8548
anställde	-11.8553
köttslig	-11.8553
förskingrade	-11.8553
halm	-11.8577
kalvar	-11.8583
kol	-11.8591
övar	-11.8595
sake	-11.8604
ungdoms	-11.8605
molnen	-11.8607
hungersnöden	-11.862
förjaga	-11.8631
maha	-11.8636
lärjunge	-11.8649
hölja	-11.8651
föraktar	-11.8657
väv	-11.8658
trygg	-11.8661
lydig	-11.8666
sådde	-11.8687
asas	-11.8687
kuva	-11.8697
funne	-11.8697
vaktar	-11.8732
offr	-11.8737
färde	-11.875
smord	-11.8771
övat	-11.8773
fåfäng	-11.8781
lyda	-11.8784
lej	-11.8798
rna	-11.8801
vett	-11.8801
skilt	-11.8802
arbeten	-11.8804
följe	-11.8819
våd	-11.8819
trätt	-11.882
mist	-11.8824
sif	-11.884
baka	-11.8843
löftes	-11.8859
yngling	-11.8878
slagen	-11.8891
blods	-11.8907
övermodig	-11.8918
håg	-11.8927
hjul	-11.8928
utfärda	-11.8934
ko	-11.894
iel	-11.8944
nasir	-11.8945
handfyllning	-11.895
trog	-11.8951
täckelse	-11.8955
befäste	-11.8974
härskaror	-11.8983
rådet	-11.8983
offerhöjd	-11.8983
form	-11.8986
föreståndare	-11.8989
jearim	-11.8994
jordbävning	-11.8994
libna	-11.8994
systrar	-11.8994
blommor	-11.8994
cedrar	-11.8994
nordlandet	-11.8994
suckot	-11.8994
lampa	-11.8994
utsaga	-11.8994
smörjelse	-11.8994
ogärningsmän	-11.8995
skördetiden	-11.8995
geba	-11.8995
hårdhet	-11.8995
sjö	-11.8995
åklagare	-11.8995
syndoffret	-11.8996
förlåtelse	-11.8997
gläns	-11.8997
orygglig	-11.8997
landsmän	-11.8997
moabiterna	-11.8998
rådsherrar	-11.8998
förfäran	-11.8999
skönhet	-11.9
smaka	-11.9
mak	-11.9001
morgonrodnaden	-11.9003
asien	-11.9004
manskap	-11.9006
fröjde	-11.9007
utgöt	-11.9008
abisai	-11.9009
havs	-11.901
kiv	-11.9014
våg	-11.9015
kia	-11.9015
fördrivna	-11.9016
u	-11.9019
koka	-11.9024
palmer	-11.9029
hästarna	-11.903
teman	-11.9032
uppmana	-11.9033
angrep	-11.904
förlorat	-11.9041
duvor	-11.9053
räcka	-11.9054
rötter	-11.9056
därovan	-11.9076
omtala	-11.9079
törsta	-11.9086
haran	-11.9087
amod	-11.9095
hämna	-11.9099
inbjud	-11.9102
otrogna	-11.9107
vårda	-11.9109
löftet	-11.911
gladde	-11.9113
bered	-11.9117
tempelkamrar	-11.9119
hetit	-11.9126
överens	-11.913
dde	-11.9161
bespotta	-11.9193
bete	-11.9194
bereder	-11.9223
der	-11.9225
förväg	-11.9241
bevis	-11.9244
tornet	-11.9264
x	-11.9278
undkomm	-11.9286
stadig	-11.9306
skar	-11.9316
kloka	-11.932
flyta	-11.9322
lasta	-11.9324
mir	-11.9329
teg	-11.9367
ce	-11.9373
lt	-11.9374
myck	-11.9379
fördärvar	-11.9399
trött	-11.9406
uttala	-11.9409
skild	-11.9409
lar	-11.9411
borgare	-11.9428
fördol	-11.9445
ahi	-11.9455
kare	-11.9456
manna	-11.9476
teckna	-11.9476
vedergällning	-11.9477
frihet	-11.9483
förlossare	-11.9484
ovän	-11.9487
förtorka	-11.9487
sky	-11.9498
efes	-11.9512
förtrycka	-11.9514
ceder	-11.9523
övrig	-11.9526
rinna	-11.9526
fågel	-11.9541
klokhet	-11.9541
apostlar	-11.9542
sköka	-11.9542
tillräkna	-11.9548
avfällig	-11.9549
hagel	-11.9549
förnumm	-11.955
instrument	-11.955
kegila	-11.955
kräldjur	-11.955
skillnad	-11.955
späd	-11.955
tillrättavisning	-11.955
▁'?»	-11.955
asael	-11.955
ruiner	-11.955
tobia	-11.955
försagd	-11.955
irsa	-11.9551
svärmoder	-11.9554
förhänge	-11.9555
förödd	-11.9556
doppa	-11.9559
nahor	-11.9561
landshövdingen	-11.9563
infria	-11.9566
svaghet	-11.9566
misshaga	-11.9567
gröna	-11.957
avkastning	-11.9575
låglandet	-11.9576
ostraffad	-11.9579
murarna	-11.9586
medel	-11.9589
liknelser	-11.9591
nätter	-11.9592
stång	-11.9593
himlar	-11.9596
tecknade	-11.9603
orsak	-11.9608
helgad	-11.9608
stängd	-11.9609
fyllde	-11.9619
älskare	-11.9622
getter	-11.9633
jok	-11.9636
manoa	-11.9644
gata	-11.9651
nedan	-11.9658
återstå	-11.9659
svåra	-11.9666
träffat	-11.9669
vägra	-11.9671
löp	-11.9676
otrohet	-11.9678
orten	-11.9689
skända	-11.969
döpt	-11.9693
fördriva	-11.9705
tände	-11.9722
söt	-11.9723
låna	-11.9725
ordningen	-11.9733
stöd	-11.9748
sarai	-11.975
rid	-11.9755
förtörnad	-11.9756
förtärde	-11.9756
låte	-11.9761
gest	-11.9764
träde	-11.9772
upptänd	-11.9772
försyn	-11.978
begynt	-11.9832
ska	-11.9835
fart	-11.9836
len	-11.9836
jubelår	-11.9875
blåsa	-11.9887
had	-11.9903
jam	-11.9908
sova	-11.9909
brand	-11.9915
stoder	-11.994
hemlig	-11.9957
stadd	-11.9967
hagar	-11.9972
ällning	-11.9977
kam	-11.9977
tyckte	-11.998
förkunn	-11.9982
äga	-12.0006
åren	-12.0011
bryt	-12.0015
ex	-12.0019
träldom	-12.0021
klagosång	-12.0022
snö	-12.0028
knä	-12.0028
soba	-12.0037
skilje	-12.0042
förtälj	-12.005
förståndige	-12.0062
ger	-12.0067
betyd	-12.0068
jämn	-12.0069
lyst	-12.0084
maten	-12.0086
empel	-12.0098
marja	-12.01
viftoffer	-12.0101
rab	-12.011
kastning	-12.0112
kastad	-12.0117
ki	-12.0121
gårdarna	-12.0126
löje	-12.0134
ungt	-12.0137
jakim	-12.0138
väder	-12.0138
cymbal	-12.0138
vävnad	-12.0138
0	-12.0138
böljor	-12.0138
eljasib	-12.0138
etiopien	-12.0138
oavlåtlig	-12.0138
skonsamhet	-12.0138
tordön	-12.0138
ahimelek	-12.0138
endräktig	-12.0138
atalja	-12.0138
tempelsalen	-12.0138
försvunn	-12.0139
▁?»,	-12.0139
rytande	-12.0139
baalerna	-12.0139
horeb	-12.0139
lasar	-12.014
förhuset	-12.0141
havsländerna	-12.0142
gryta	-12.0142
mönstrade	-12.0142
elisama	-12.0142
bekant	-12.0142
uthärda	-12.0143
ussiel	-12.0143
krigsfolk	-12.0144
naaman	-12.0145
fåkunnig	-12.0147
grannar	-12.0148
läsa	-12.0148
törstig	-12.0149
rättvisa	-12.0151
riktig	-12.0152
oxen	-12.0155
rekab	-12.0157
förfärdiga	-12.0158
mäta	-12.0164
greker	-12.0166
näpst	-12.0174
ägare	-12.0175
bihustrur	-12.0179
bras	-12.0181
nyttig	-12.0181
sjukdomar	-12.0182
omstörta	-12.0187
betesmarker	-12.019
tvärt	-12.019
sädes	-12.0192
tillreda	-12.0195
heman	-12.0197
hopar	-12.0199
hårdnacka	-12.0199
vanära	-12.0207
undergång	-12.0209
färdade	-12.0209
uträtta	-12.021
vältra	-12.0213
höja	-12.0218
läste	-12.0221
spela	-12.0221
axel	-12.0226
korsfästa	-12.0237
kungjor	-12.0238
ru	-12.0242
förståndet	-12.0244
folkslagen	-12.0255
barak	-12.0255
höljde	-12.0257
värte	-12.0257
trona	-12.0268
ofruktsam	-12.0271
pryd	-12.0271
förmaning	-12.0291
gudarna	-12.0308
harpa	-12.0308
uppbygga	-12.0314
befinn	-12.0318
timm	-12.0327
flöde	-12.033
vingården	-12.0336
halta	-12.0344
klok	-12.0347
hanok	-12.035
fikon	-12.0366
varande	-12.0379
lydde	-12.0382
gjord	-12.0384
doft	-12.0386
saml	-12.0403
und	-12.0406
arvs	-12.0419
barm	-12.0422
växt	-12.0423
barnlös	-12.0437
lögnen	-12.044
josa	-12.045
torg	-12.0458
skog	-12.0459
våldsam	-12.0469
vingårds	-12.0478
nad	-12.0478
nåden	-12.0489
vann	-12.0503
renar	-12.0504
göre	-12.0509
skådade	-12.052
ahima	-12.0524
regnet	-12.0537
lärjung	-12.054
bevarade	-12.0545
hån	-12.0546
besök	-12.0573
rabbi	-12.0583
orenade	-12.0593
reda	-12.0594
tillbedj	-12.0595
rövare	-12.0601
rett	-12.0606
kaka	-12.0612
vagns	-12.0615
gömd	-12.0615
bringan	-12.0618
nit	-12.0626
rättfärdighets	-12.0633
one	-12.0643
iver	-12.0644
syra	-12.0645
örnen	-12.0651
värt	-12.0655
amasa	-12.0679
avkomling	-12.068
båg	-12.0684
ram	-12.0693
bäck	-12.0695
uppsluka	-12.0699
he	-12.0702
gasell	-12.0703
familj	-12.0703
skurna	-12.0724
betryckt	-12.0728
kämpa	-12.073
els	-12.0742
uppenbarad	-12.0743
mor	-12.0745
röva	-12.0745
inseg	-12.0745
skrymt	-12.0746
inbärga	-12.0754
stjärnor	-12.0754
olivträd	-12.0755
idel	-12.0758
väktare	-12.076
lyte	-12.0761
nebusa	-12.0763
myrra	-12.0763
pansar	-12.0763
styggelig	-12.0763
åsninnor	-12.0763
vräng	-12.0763
lystnad	-12.0763
tillförsikt	-12.0763
jefunne	-12.0763
huvudbindel	-12.0763
hasab	-12.0763
betrakta	-12.0764
förföljelse	-12.0764
läglar	-12.0764
skorv	-12.0765
rubeniterna	-12.0765
boskapsdjur	-12.0765
gömma	-12.0766
nätverk	-12.0766
fikonträdet	-12.0771
pärl	-12.0773
korset	-12.0773
aroer	-12.0774
uppehöll	-12.0775
trälinna	-12.0775
malkia	-12.0777
vilo	-12.0778
granatäpplen	-12.078
störste	-12.078
ussa	-12.0781
utgjuter	-12.0787
publikaner	-12.0788
siba	-12.0792
fångarna	-12.0792
härav	-12.0795
spänna	-12.0797
gudsman	-12.0797
farbroder	-12.0802
profetisk	-12.0802
avgrunden	-12.0803
betryckta	-12.0805
skuggan	-12.0806
rest	-12.0809
stänga	-12.0809
förskräcke	-12.0818
främlingarna	-12.0819
renas	-12.0824
gode	-12.0825
ebed	-12.0826
intag	-12.0835
avgudarna	-12.0842
tvag	-12.0851
översta	-12.0857
fängsla	-12.0866
tomt	-12.087
töck	-12.0877
bedriv	-12.0884
flyttade	-12.0889
kula	-12.0897
oomskuren	-12.0899
sängen	-12.0905
gårdar	-12.0918
pi	-12.0923
kränkt	-12.0927
nne	-12.0934
fel	-12.0942
härskare	-12.0945
skri	-12.0954
renade	-12.0958
beröva	-12.0991
orolig	-12.1011
hälsade	-12.1023
hala	-12.1033
fordra	-12.1036
fina	-12.1053
miste	-12.1069
avstod	-12.1072
härja	-12.1077
ges	-12.1108
driv	-12.1109
uppbyggd	-12.1112
dråpar	-12.1124
förstörd	-12.1127
natur	-12.1144
lyssn	-12.1144
rygga	-12.116
beta	-12.1164
upptaga	-12.1182
omri	-12.1183
trygga	-12.1202
vägg	-12.1217
lån	-12.1217
miss	-12.1229
ång	-12.1229
anak	-12.1236
närmar	-12.1247
abiga	-12.1256
försvara	-12.1276
beskärm	-12.1277
församl	-12.1283
flod	-12.1302
styra	-12.1306
kind	-12.131
cypress	-12.1318
gos	-12.1328
elifa	-12.1348
penning	-12.135
annar	-12.1353
tjuv	-12.136
lagbok	-12.1363
kyss	-12.1369
ban	-12.1375
killing	-12.1379
betryck	-12.1381
syna	-12.1381
bekänn	-12.1381
utlova	-12.1392
lugn	-12.1394
grön	-12.1399
saktmod	-12.1403
troende	-12.1404
överlämnad	-12.1405
konungadöme	-12.141
frände	-12.1414
fogdar	-12.1417
ljas	-12.1419
skyl	-12.1423
förrådshus	-12.1424
pall	-12.1427
girig	-12.1427
öpp	-12.1427
ahitub	-12.143
artasasta	-12.143
hermon	-12.143
jedutun	-12.143
mefiboset	-12.143
peor	-12.143
planer	-12.143
sanherib	-12.143
tvärstänger	-12.143
förlossning	-12.143
landsbygden	-12.143
sadrak	-12.143
sjutton	-12.143
melek	-12.143
slockna	-12.143
rannsakning	-12.143
trävirke	-12.143
befria	-12.143
elieser	-12.143
återhållsamhet	-12.143
krigshövitsmän	-12.143
sammansvur	-12.143
jonadab	-12.143
ogärningsmännen	-12.143
uppegga	-12.1431
döparen	-12.1431
hosea	-12.1431
tillrättavisa	-12.1431
rafaéerna	-12.1431
klätt	-12.1431
omhängen	-12.1431
fingrar	-12.1432
östanvind	-12.1432
drista	-12.1432
nego	-12.1432
hebréerna	-12.1433
härhövitsman	-12.1433
mesak	-12.1434
bestämma	-12.1434
mikael	-12.1437
församlingar	-12.1437
spåmännen	-12.1437
utrannsaka	-12.1438
betäcka	-12.1441
bela	-12.1441
klövar	-12.1442
romersk	-12.1443
stul	-12.1444
brudgummen	-12.1446
hy	-12.1453
ädlingar	-12.1453
befann	-12.1453
tera	-12.1454
hjälpte	-12.1454
peka	-12.1454
räddad	-12.1455
reser	-12.1458
liggande	-12.1459
tjugutre	-12.146
gudsfruktan	-12.1462
betryckte	-12.1469
behandla	-12.1477
keruben	-12.1479
dammen	-12.148
ng	-12.1483
förvaltare	-12.1485
syndade	-12.1485
late	-12.1486
avstå	-12.1487
pelet	-12.1487
sträcke	-12.1488
avsomna	-12.149
skattkamrar	-12.1493
gemensam	-12.1499
snöre	-12.1502
suckan	-12.1502
sanna	-12.1503
fastställ	-12.1507
bani	-12.1511
gissla	-12.1514
vass	-12.1516
beredde	-12.1523
värdighet	-12.1526
storhet	-12.1527
fräcka	-12.153
starke	-12.1543
rabba	-12.1549
botad	-12.156
synderna	-12.157
tröska	-12.1572
förbrände	-12.1582
sakar	-12.1602
basunen	-12.1603
väggar	-12.1603
beskärma	-12.1605
lusta	-12.1611
fresta	-12.1618
trängta	-12.1622
gjutn	-12.1639
förbarmar	-12.1641
slipp	-12.1644
förökade	-12.1653
fostra	-12.1657
förtrampa	-12.1659
va	-12.1669
ims	-12.1671
medien	-12.1674
lem	-12.1683
rening	-12.1687
ställen	-12.1688
staven	-12.1694
dor	-12.1697
härligheten	-12.1709
tahas	-12.1716
ormar	-12.174
snår	-12.1741
förvissna	-12.1741
förbjöd	-12.1749
hitin	-12.1751
stäng	-12.1752
strö	-12.1767
åkerstycke	-12.1767
hämtat	-12.1779
hemsök	-12.1781
täcka	-12.1786
vävd	-12.1789
enträ	-12.1809
tänt	-12.1814
heligas	-12.1832
tillföll	-12.1853
jair	-12.1853
bäckenställe	-12.1857
vindar	-12.1863
fullbordade	-12.187
vägde	-12.1875
seglade	-12.1905
lejonen	-12.1906
ppa	-12.1928
kos	-12.1929
bägar	-12.1931
örn	-12.1932
spänn	-12.1934
fylles	-12.1938
fru	-12.1942
kul	-12.1943
räk	-12.1946
härlighets	-12.1981
ogudaktig	-12.1993
påsk	-12.1998
kenas	-12.1998
upplåta	-12.201
pu	-12.2019
gripit	-12.202
hämt	-12.2025
knorrade	-12.2031
ljug	-12.2039
slet	-12.2049
erskor	-12.205
stormen	-12.2063
ståthållar	-12.2063
ebråd	-12.2069
gagna	-12.2071
läs	-12.2075
efod	-12.2079
rycker	-12.2084
spr	-12.2092
lögnaktig	-12.2111
låga	-12.2115
sköko	-12.2115
blottad	-12.2125
trötta	-12.2129
förstfödd	-12.2131
skäl	-12.2134
skyar	-12.2138
spra	-12.2138
skydd	-12.2139
prydnad	-12.2142
bistå	-12.2143
amram	-12.2144
paddor	-12.2144
skrämm	-12.2144
dryp	-12.2144
efron	-12.2144
flöt	-12.2144
jerubbaal	-12.2144
skrud	-12.2144
svavel	-12.2144
ledsaga	-12.2144
luttra	-12.2144
tärnor	-12.2144
eglon	-12.2144
netanel	-12.2144
skådebröd	-12.2144
debir	-12.2144
slunga	-12.2144
nederlag	-12.2144
dörrvaktare	-12.2145
tegel	-12.2145
midjaniterna	-12.2145
basunljud	-12.2145
mantlar	-12.2146
hund	-12.2146
draken	-12.2147
dalar	-12.2147
gaditerna	-12.2147
sväng	-12.2148
maheli	-12.2149
främja	-12.2149
hädan	-12.215
nebo	-12.2151
aseran	-12.2152
flytning	-12.2153
pliktig	-12.2153
guldsmed	-12.2154
djupa	-12.2156
faderlösa	-12.2159
dagon	-12.216
stolparna	-12.2163
krigsfolket	-12.2163
stum	-12.2164
spåmän	-12.2166
höghet	-12.2167
rema	-12.2168
verkar	-12.2168
dagsres	-12.2168
aja	-12.2169
förhud	-12.2171
skökor	-12.2173
gropen	-12.2178
rannsaka	-12.2181
fjärdedel	-12.2184
använde	-12.2184
silverpenningar	-12.2184
underrätta	-12.2185
safir	-12.2188
faror	-12.2195
konstförfar	-12.2197
korgar	-12.2197
innehåll	-12.2197
timmermän	-12.2198
gördel	-12.2199
livklädnader	-12.2203
rådgiv	-12.2205
etam	-12.2209
samlad	-12.2213
hoppet	-12.2214
husai	-12.2221
gersom	-12.2225
vandring	-12.2227
kläde	-12.2231
ania	-12.2235
vållat	-12.2237
stängde	-12.2242
bördiga	-12.2248
förströdd	-12.2258
räknar	-12.226
glöm	-12.2262
fången	-12.2267
nämna	-12.2278
stavar	-12.2284
hovman	-12.2287
rankor	-12.2298
häv	-12.231
träldoms	-12.231
avsked	-12.2321
rättstjänar	-12.2326
fota	-12.2332
träta	-12.2342
mening	-12.2371
sib	-12.2373
klappa	-12.2377
ig	-12.2382
bördeman	-12.2383
erska	-12.239
stol	-12.2392
källan	-12.2394
timme	-12.2398
försvar	-12.2401
rak	-12.2413
snärja	-12.2459
snabba	-12.2464
bestämde	-12.2464
grunda	-12.2473
stråla	-12.2482
omvänd	-12.2483
drabbade	-12.2491
ingå	-12.2498
konunga	-12.25
alle	-12.2519
räknad	-12.2535
sänka	-12.2542
hovmän	-12.2544
maktlös	-12.2555
bevisade	-12.2565
styr	-12.2567
last	-12.2583
lita	-12.2585
prydd	-12.259
lek	-12.2607
barnbarn	-12.2611
hasar	-12.262
tjock	-12.2621
esare	-12.2626
tavlorna	-12.2634
fortf	-12.2635
lev	-12.2646
föraktad	-12.2666
lus	-12.2697
inföding	-12.2702
spän	-12.2706
naim	-12.2735
ropen	-12.2745
föd	-12.275
renhet	-12.2759
orden	-12.2771
mättad	-12.2775
tryckte	-12.278
pann	-12.2783
resan	-12.2784
leta	-12.2789
fåle	-12.279
korna	-12.2798
orm	-12.2798
trohet	-12.2806
skänk	-12.2806
byggnad	-12.2824
falskhet	-12.2843
släktet	-12.2846
abbas	-12.2846
aga	-12.2851
vack	-12.2864
sebul	-12.2867
gosse	-12.2876
spira	-12.2879
människoson	-12.2884
krok	-12.2888
brudgum	-12.2894
sikt	-12.2897
förtal	-12.2902
tidsålder	-12.2902
sikel	-12.2903
flicka	-12.2904
offergåvor	-12.2905
klagar	-12.2907
ssång	-12.2909
understöd	-12.291
höve	-12.2912
trogn	-12.2912
jehiel	-12.2913
ägo	-12.2913
gräm	-12.2913
satraper	-12.2913
barnaföderska	-12.2913
gemenskap	-12.2913
hinnoms	-12.2913
härstamma	-12.2913
jedaja	-12.2913
josadak	-12.2913
liljor	-12.2913
schakaler	-12.2913
ynnest	-12.2913
öglor	-12.2913
askelon	-12.2913
sefatja	-12.2913
mätsnöre	-12.2913
amminadab	-12.2913
byggningsmän	-12.2913
nagel	-12.2913
arameisk	-12.2913
ofir	-12.2913
förläna	-12.2913
pashur	-12.2913
▁!'	-12.2913
abinadab	-12.2913
säcktyg	-12.2913
▁!»,	-12.2913
offergärdsområde	-12.2913
agag	-12.2914
frö	-12.2914
yppa	-12.2914
kehatiterna	-12.2914
ödmjukhet	-12.2914
föröda	-12.2915
begabba	-12.2916
vattenkällor	-12.2916
sidonierna	-12.2916
tempelträlarna	-12.2916
fettstycken	-12.2916
fager	-12.2916
ålderdom	-12.2917
allmos	-12.2918
gog	-12.2918
ansedd	-12.2919
hamor	-12.2919
ödelägga	-12.292
bördes	-12.292
fe	-12.2923
feber	-12.2923
jaeser	-12.2924
skökan	-12.2924
konungatron	-12.2925
framtid	-12.2926
musi	-12.2929
utsäde	-12.2931
skänkt	-12.2932
skrymtar	-12.2933
harm	-12.2936
rösten	-12.2936
oxarna	-12.2937
våningen	-12.2938
vinträdet	-12.2938
hasi	-12.2939
jämr	-12.294
lögnaktiga	-12.2947
betog	-12.2948
dårarna	-12.2949
anbefall	-12.2949
förlåte	-12.2951
sedd	-12.2955
förborga	-12.2961
midjanitisk	-12.2963
förbannelsen	-12.2965
sarga	-12.2965
uppkallat	-12.2966
silverskål	-12.297
ångrade	-12.2983
fäst	-12.2984
lösaktig	-12.2985
vattenbäckar	-12.2987
bjälkar	-12.2994
iddo	-12.2999
sila	-12.3
smädar	-12.3003
signetring	-12.3006
värdet	-12.3014
predikan	-12.3017
femtedel	-12.3022
abihu	-12.3026
rahab	-12.3039
övermäktig	-12.3043
mikm	-12.3055
fäderne	-12.3065
besvärjare	-12.3069
fruktsam	-12.3077
hämnden	-12.3103
ajot	-12.3122
brän	-12.3137
ppe	-12.3147
drabbat	-12.3147
förrättade	-12.3157
tillade	-12.3178
spådom	-12.3181
val	-12.3192
företog	-12.3197
stormän	-12.3204
y	-12.3212
klago	-12.3217
flyg	-12.3234
oskära	-12.3234
terna	-12.3237
tar	-12.3247
upprättade	-12.3264
edar	-12.327
uppskriv	-12.3277
öppnat	-12.3285
lur	-12.331
mottaga	-12.3321
nitälska	-12.3328
skin	-12.3361
purpur	-12.3371
stick	-12.3386
hörnsten	-12.3388
lighet	-12.341
skyla	-12.3413
häda	-12.3413
bespottare	-12.3423
kärvar	-12.3431
fördölj	-12.3434
jamin	-12.3439
ödelag	-12.3444
dia	-12.3445
vreden	-12.3458
uttorka	-12.3462
spetälsk	-12.3466
tand	-12.3468
luta	-12.3494
synders	-12.3494
välsigne	-12.351
mas	-12.3516
ek	-12.3516
hugger	-12.3526
lämn	-12.3532
upprätt	-12.3532
kammaren	-12.3544
betrodd	-12.3546
kniv	-12.3547
förfärad	-12.355
blåst	-12.3561
pelarhuvuden	-12.3564
dold	-12.3565
frambur	-12.3583
härska	-12.3594
blomster	-12.3598
brott	-12.3599
hys	-12.3607
fruktsamma	-12.3613
omskuren	-12.3615
sonhustru	-12.3622
måg	-12.3634
fl	-12.3636
visas	-12.3638
telning	-12.3653
släktregist	-12.3657
mäktige	-12.3657
kamel	-12.3657
olycks	-12.366
försmå	-12.3668
arvslott	-12.3668
förfära	-12.3674
bruk	-12.3689
tvista	-12.369
rått	-12.3695
stödja	-12.37
spar	-12.37
högmodig	-12.37
förbunds	-12.3702
bergs	-12.3709
gudabild	-12.3718
upplyfta	-12.3721
halt	-12.3725
frestelse	-12.3731
trogna	-12.3736
tavlor	-12.3737
efterfölja	-12.3737
släcka	-12.3737
beria	-12.374
språk	-12.3743
långmodig	-12.3745
sången	-12.3746
rehob	-12.3746
lup	-12.3746
kämpe	-12.3746
ljusstakar	-12.3746
barsillai	-12.3746
berekja	-12.3746
blodshämnaren	-12.3746
fjättra	-12.3746
gehenna	-12.3746
hjärte	-12.3746
jordagods	-12.3746
kidron	-12.3746
megiddo	-12.3746
selofhad	-12.3746
säkra	-12.3746
umgängelse	-12.3746
våldsverkare	-12.3746
▁),	-12.3746
▁).	-12.3746
skyndsam	-12.3747
bohag	-12.3747
avgudadyrka	-12.3747
konstvävnad	-12.3747
hadadeser	-12.3747
offrat	-12.3747
ragla	-12.3747
trappsteg	-12.3747
förskräcklig	-12.3747
bestryk	-12.3748
baana	-12.3748
magdal	-12.3748
isop	-12.3748
kedar	-12.3749
sannskyldig	-12.3749
kamp	-12.3749
törnbusk	-12.3749
hefer	-12.375
neko	-12.375
pukor	-12.3752
misshandla	-12.3752
sjönk	-12.3753
molnstod	-12.3754
tjuvar	-12.3754
arbetarna	-12.3755
härhövitsmannen	-12.3755
beblanda	-12.3755
gomer	-12.3756
heber	-12.3756
hota	-12.3758
huvudhår	-12.3759
samtalade	-12.3759
ais	-12.3759
linnekläder	-12.376
dalarna	-12.376
fruktansvär	-12.3761
gård	-12.3766
middagen	-12.3767
duva	-12.3768
ornan	-12.3768
närma	-12.377
lögnare	-12.3772
åvor	-12.3772
hakar	-12.3773
oförnuftiga	-12.3776
javan	-12.3776
tillstädja	-12.3777
ängsla	-12.3781
vilostad	-12.3781
tabor	-12.3786
gossebarn	-12.3788
dröja	-12.3791
israelitisk	-12.3792
inrista	-12.3794
sångare	-12.3798
olyck	-12.3806
blinde	-12.3809
täckelset	-12.3811
mi	-12.3811
tillredde	-12.3814
salm	-12.3817
föreståndaren	-12.3822
beslöt	-12.3823
fter	-12.3824
väktaren	-12.3824
väktar	-12.3824
bärare	-12.3832
lösning	-12.3837
trettiosju	-12.384
komna	-12.3853
ondskan	-12.3855
ynglingen	-12.3857
strödd	-12.3857
trakter	-12.3863
lera	-12.3867
aperna	-12.387
sjuke	-12.3877
spotta	-12.3878
bekänna	-12.3878
nymånader	-12.388
sväva	-12.3882
jeri	-12.3891
dundra	-12.3891
mång	-12.3894
lärdom	-12.3913
bedräglig	-12.3915
ner	-12.3929
ryckt	-12.393
släpa	-12.393
bot	-12.3933
omringa	-12.3951
öring	-12.396
jagade	-12.3962
invig	-12.3963
synagog	-12.3966
hemliga	-12.4011
kropps	-12.4028
tyst	-12.404
omöjlig	-12.4059
faran	-12.4061
stentavlor	-12.4069
tillspillogivn	-12.4073
äckar	-12.4074
skarp	-12.4076
stamfurstar	-12.4077
vist	-12.4078
otillbörlig	-12.4092
vakten	-12.4101
avla	-12.4109
knorra	-12.4116
ners	-12.4129
itu	-12.4135
skamlig	-12.4165
otuktig	-12.4166
uttyd	-12.4167
orättfärdig	-12.4172
ker	-12.4179
rand	-12.4185
kamrarna	-12.4198
anani	-12.4205
uttyda	-12.4212
sammankalla	-12.4213
brunnar	-12.4249
veder	-12.425
rida	-12.4283
värdiga	-12.4292
tekoa	-12.4294
jämna	-12.4294
urim	-12.4301
pluggar	-12.4303
damm	-12.4332
ael	-12.4333
avunda	-12.4337
vinpress	-12.4351
sef	-12.4354
insatt	-12.436
skifte	-12.4363
kraftig	-12.4368
uel	-12.4384
sema	-12.4386
förgång	-12.4387
vinge	-12.4389
dda	-12.4391
og	-12.4395
rota	-12.4395
avsi	-12.4402
nekade	-12.4403
syndoffersbock	-12.4421
fots	-12.4423
bilder	-12.4444
agri	-12.4447
bådade	-12.4448
svans	-12.4451
hård	-12.4451
försynda	-12.4457
utgör	-12.4462
förgänglig	-12.4465
uppenbarar	-12.4479
seb	-12.4495
agnar	-12.4499
jubl	-12.4504
bröllop	-12.452
nedbrut	-12.4522
överträdar	-12.4534
ryckes	-12.4541
ägg	-12.4548
uppväck	-12.4552
sånger	-12.4552
bågen	-12.456
makter	-12.4562
smälta	-12.4566
folkhop	-12.4568
palm	-12.4568
kerub	-12.4571
oförnuftig	-12.4577
bildstod	-12.4589
höje	-12.459
gråter	-12.4599
grå	-12.4606
etiopiern	-12.4611
landsflykt	-12.4611
heten	-12.4613
egyptiern	-12.4623
klipp	-12.4626
straffe	-12.4626
minne	-12.463
skåd	-12.4633
välbehag	-12.4634
egyptier	-12.4634
gar	-12.4638
kai	-12.4645
bilha	-12.4646
bäckar	-12.4647
ussi	-12.465
syndig	-12.4652
ibla	-12.4652
elfenben	-12.4653
bedri	-12.4654
grym	-12.4654
förtryckare	-12.4655
veckor	-12.4656
paddan	-12.4656
mödrar	-12.4656
sunem	-12.4656
adullam	-12.4656
hädelse	-12.4656
hätsk	-12.4656
idissla	-12.4656
iskariot	-12.4656
jordkretsen	-12.4656
ödeläggelse	-12.4656
hjort	-12.4656
yxa	-12.4656
pipor	-12.4656
tapper	-12.4656
väderstreck	-12.4656
gissel	-12.4656
▁?',	-12.4656
tydlig	-12.4656
lemek	-12.4656
abiram	-12.4656
månadsrening	-12.4656
blomstra	-12.4656
medlare	-12.4656
stryk	-12.4656
jafet	-12.4656
dibon	-12.4656
milka	-12.4656
haggai	-12.4656
kval	-12.4656
skoning	-12.4656
jordiska	-12.4656
skördemännen	-12.4656
apollo	-12.4657
ljunga	-12.4657
from	-12.4657
husbonden	-12.4658
reguel	-12.4658
nämnda	-12.4659
leverfett	-12.4659
huvudgärd	-12.466
avbild	-12.4661
klipporna	-12.4661
boset	-12.4661
utslit	-12.4662
åsninnan	-12.4662
eldslågor	-12.4663
rövar	-12.4665
klenoder	-12.4666
välbehåll	-12.4668
homer	-12.4669
tecknen	-12.4671
benjaminit	-12.4672
söderlandet	-12.4673
profetian	-12.4674
fattigdom	-12.4674
uppriktig	-12.4674
skydda	-12.4677
häravdelningar	-12.468
istel	-12.4682
inoam	-12.4682
rättsinniga	-12.4684
förhärda	-12.4684
cke	-12.4685
akna	-12.4688
oliver	-12.4689
fotst	-12.4694
bebodd	-12.4697
förfall	-12.4698
sticka	-12.4701
järnet	-12.4705
drage	-12.4707
måga	-12.4708
högmodiga	-12.4709
dån	-12.471
förestå	-12.471
lans	-12.4714
amma	-12.4728
itiska	-12.4732
understödde	-12.4735
hjässa	-12.4738
uppsåt	-12.4743
stamfader	-12.4748
vilje	-12.4748
tjuven	-12.475
insåg	-12.475
uppslukade	-12.4753
förmanar	-12.4759
gångar	-12.4764
fullkomna	-12.4767
slita	-12.4768
sjöngo	-12.4771
kas	-12.4771
förblinda	-12.4777
välj	-12.4779
vista	-12.4779
färdiga	-12.4783
skilj	-12.4788
tull	-12.4789
redde	-12.4798
foga	-12.4799
förtorkade	-12.4812
ebja	-12.4813
hanani	-12.483
överhet	-12.4845
fotsid	-12.4847
fördriv	-12.4848
bocken	-12.4849
ledning	-12.4849
omstörtade	-12.4852
anfall	-12.4856
ogudaktigheten	-12.4858
upptända	-12.4871
skär	-12.4874
förlossar	-12.4891
uppbränd	-12.4891
oskyldige	-12.4897
eg	-12.4901
närvar	-12.4903
hängive	-12.4912
besitt	-12.4923
gill	-12.4927
dop	-12.4935
rut	-12.4942
gödd	-12.4942
lår	-12.4943
hedra	-12.4944
skärp	-12.4946
överföll	-12.4959
blottade	-12.4987
tjugusju	-12.4989
arvedels	-12.4993
tillkomme	-12.5008
ugnad	-12.5057
björn	-12.5061
förskräckte	-12.5079
säte	-12.5085
sad	-12.5095
dålig	-12.5095
torkade	-12.5099
kosta	-12.5103
ärar	-12.5111
skapar	-12.5159
lända	-12.5166
lo	-12.5181
ela	-12.5185
läkt	-12.5189
brusa	-12.5191
varth	-12.5198
jojaki	-12.5206
sko	-12.5206
förtjäna	-12.5206
titen	-12.5212
funn	-12.5214
utsänd	-12.5215
frukter	-12.5225
läran	-12.5236
försvinn	-12.5244
stadsport	-12.5267
fog	-12.5274
fra	-12.5277
utslag	-12.528
båtar	-12.529
jeter	-12.5303
lätta	-12.5323
ertappa	-12.5326
svik	-12.5328
skick	-12.5335
ada	-12.5347
resin	-12.5349
dyr	-12.5349
verksam	-12.535
ors	-12.537
högst	-12.5374
knorr	-12.5389
sorter	-12.539
läke	-12.5399
färg	-12.54
förbjud	-12.5428
förvärv	-12.543
inna	-12.5442
etan	-12.5447
kränk	-12.5455
rustning	-12.5467
häl	-12.5473
berömme	-12.5485
gren	-12.5496
skyldige	-12.5507
tillhåll	-12.551
spejar	-12.5539
trampar	-12.5554
själen	-12.5557
jude	-12.5562
mord	-12.5563
ön	-12.5569
lud	-12.5571
föreståndar	-12.5575
gul	-12.5585
varm	-12.5588
lägerplats	-12.5594
axen	-12.5604
skyldiga	-12.5604
förhärligad	-12.5607
bräde	-12.5608
näps	-12.5616
trots	-12.5617
simea	-12.5618
hopfogad	-12.5623
fyrkant	-12.5626
undfly	-12.5628
krossad	-12.5633
prat	-12.5639
gerar	-12.5639
aktad	-12.5641
landshövdingar	-12.5643
omskärelse	-12.5644
häravdelning	-12.5645
sikri	-12.5649
hundar	-12.565
profetia	-12.5652
stämma	-12.5654
rymma	-12.5655
jishar	-12.5655
selemja	-12.5655
cyper	-12.5656
mygg	-12.5656
foster	-12.5656
haglet	-12.5656
häktor	-12.5656
hövisk	-12.5656
illfundig	-12.5656
inbyggarna	-12.5656
jeroham	-12.5656
mamre	-12.5656
molok	-12.5656
rymlig	-12.5656
scharlakan	-12.5656
sealtiel	-12.5656
sefanja	-12.5656
sippor	-12.5656
turturduvor	-12.5656
virke	-12.5656
väss	-12.5656
förstfödslorätt	-12.5656
naheson	-12.5656
vanartig	-12.5656
fjäll	-12.5656
tubal	-12.5656
keretéerna	-12.5656
millo	-12.5656
stift	-12.5656
ajalon	-12.5656
virka	-12.5656
akaja	-12.5656
arbetspliktig	-12.5656
anklagelse	-12.5656
stupa	-12.5656
läglig	-12.5656
abberi	-12.5656
förskyll	-12.5656
kansler	-12.5656
utforska	-12.5656
mönsterbild	-12.5656
tillfriskna	-12.5656
malört	-12.5656
sekanja	-12.5656
datan	-12.5656
huram	-12.5656
prakt	-12.5656
vasti	-12.5656
förbindelse	-12.5656
giel	-12.5657
jebusé	-12.5657
betuel	-12.5657
rista	-12.5657
sjufal	-12.5657
gudfruktig	-12.5657
ankomst	-12.5657
edoméerna	-12.5657
hälsning	-12.5657
dropp	-12.5657
maskar	-12.5657
stefan	-12.5658
förhatlig	-12.5658
fortfara	-12.5658
hastig	-12.5658
högljudd	-12.5659
eliel	-12.5659
lägel	-12.5659
fortsatte	-12.5659
hulp	-12.5659
debora	-12.5659
bevaka	-12.566
tvång	-12.566
sadducéerna	-12.566
vintern	-12.5661
späk	-12.5663
ikris	-12.5663
bragt	-12.5663
lövhyddohögtid	-12.5665
neria	-12.5667
stenhop	-12.5667
frestade	-12.5672
sänkte	-12.5673
vredesdomen	-12.5675
beel	-12.5676
förbittrade	-12.5679
värm	-12.5679
utgång	-12.568
anb	-12.5683
stridsman	-12.5684
fullhet	-12.5685
utrotad	-12.5686
ovännen	-12.5686
hammare	-12.5686
kir	-12.5686
tola	-12.569
palatset	-12.5691
armod	-12.5692
spiran	-12.5694
kista	-12.5695
riven	-12.5696
ehud	-12.5698
vingårdarna	-12.5698
meriba	-12.5701
uttåg	-12.5705
oförnuftige	-12.5708
plundrare	-12.5709
kenan	-12.5714
döpte	-12.5716
förgått	-12.5717
smälte	-12.5718
stycka	-12.5719
tjurarna	-12.5722
påbjud	-12.5728
lame	-12.5731
sönderriv	-12.5733
inbjöd	-12.5734
ansatte	-12.5742
förändra	-12.5746
kem	-12.5748
ebal	-12.575
uppgång	-12.5753
vederkvick	-12.5754
leka	-12.5758
länges	-12.5758
förledde	-12.5771
döme	-12.5772
beskydda	-12.5774
överträda	-12.578
utlämna	-12.5782
fädernes	-12.5784
rigla	-12.5796
sadla	-12.5796
väpnad	-12.5803
huvudman	-12.5805
bergfäste	-12.5805
belt	-12.5806
störst	-12.5807
bröllops	-12.5808
avskilja	-12.581
brute	-12.581
oförfärad	-12.5811
betro	-12.5818
skuren	-12.5822
mp	-12.5823
skakade	-12.5823
rättvis	-12.5825
dörrposter	-12.5826
sorga	-12.5831
förstörde	-12.5841
abad	-12.5853
årlig	-12.5857
oförgänglig	-12.5858
förordnade	-12.5861
ljuga	-12.5868
hamra	-12.5884
handlade	-12.5896
skälv	-12.5941
tlig	-12.5951
oskyldiga	-12.5953
underlåt	-12.5964
jer	-12.5978
sönderslå	-12.5983
förfar	-12.5985
efer	-12.5986
utspän	-12.5989
bran	-12.5989
rund	-12.599
gol	-12.5995
pesten	-12.5995
efterskörd	-12.6001
avskil	-12.6015
agar	-12.6026
motsvara	-12.6026
handels	-12.6029
förhärja	-12.605
brukar	-12.6051
lägge	-12.6058
förelägg	-12.6066
skovlar	-12.6072
läte	-12.6077
styrk	-12.6083
hoppade	-12.6085
ask	-12.6098
förbrän	-12.6117
rött	-12.6119
jakin	-12.6126
täckt	-12.613
fröjden	-12.6131
föredöme	-12.6135
ats	-12.6137
sälla	-12.6145
förehåll	-12.6148
förlorad	-12.6148
drar	-12.6151
elon	-12.6157
gileadit	-12.6158
utbyte	-12.6166
adar	-12.6172
pina	-12.6182
arvinge	-12.6193
rökelsealtare	-12.6195
drivna	-12.6196
storma	-12.6197
uttalade	-12.62
tyget	-12.621
fogade	-12.6222
driven	-12.6229
sodoms	-12.6232
kyssa	-12.6244
uppförde	-12.6247
hets	-12.6259
matti	-12.6263
ljuv	-12.6264
hölje	-12.6264
sträckt	-12.6276
lagklok	-12.6278
rull	-12.6295
fle	-12.6307
träto	-12.6343
eliu	-12.6345
blyge	-12.6349
rost	-12.6351
lais	-12.6379
hjälpt	-12.6385
läggning	-12.6386
harim	-12.6388
förfara	-12.639
öv	-12.6402
föreläst	-12.6408
bönfalla	-12.6411
äck	-12.6416
intage	-12.6419
manade	-12.6421
golv	-12.6425
trolova	-12.645
bil	-12.6453
nal	-12.6454
mulåsn	-12.6461
undgå	-12.6467
lycklig	-12.6468
lå	-12.6475
kärleks	-12.6481
para	-12.6482
saf	-12.6503
framt	-12.6514
ödmjuk	-12.6532
éer	-12.6547
girighet	-12.6568
akan	-12.659
ak	-12.6594
bly	-12.6596
tålig	-12.6596
alel	-12.6597
jar	-12.6602
kötts	-12.6612
tiderna	-12.6619
trolldom	-12.6625
medborgare	-12.6629
dy	-12.6635
ävla	-12.6639
mera	-12.6647
assar	-12.6664
rivit	-12.6668
gera	-12.6678
aksa	-12.6683
frågan	-12.6687
skorpion	-12.6691
fångad	-12.6694
begagna	-12.67
kap	-12.6702
trettiofem	-12.6703
rensa	-12.6708
troner	-12.6709
jon	-12.6714
grädd	-12.6718
skölj	-12.672
ordnade	-12.6722
mottag	-12.6724
falle	-12.6724
avguda	-12.6728
spring	-12.6733
lykta	-12.6735
ked	-12.6737
dare	-12.6744
slöja	-12.6747
etiopier	-12.6748
sätte	-12.6749
plöj	-12.6749
manar	-12.6749
förförelse	-12.675
stads	-12.6752
förnimm	-12.6752
badja	-12.6754
bittra	-12.6754
väckte	-12.6755
åsninna	-12.6758
sekreterare	-12.676
hägnad	-12.6761
ymnig	-12.6762
guel	-12.6765
tjug	-12.6766
streck	-12.6767
2	-12.6767
blodsförvant	-12.6767
anstiftade	-12.6767
asmavet	-12.6767
eljoenai	-12.6767
fagra	-12.6767
följeslagare	-12.6767
förbittring	-12.6767
granatträd	-12.6767
krukor	-12.6767
smältugn	-12.6767
spräcklig	-12.6767
söndring	-12.6767
kräla	-12.6767
olivplanteringar	-12.6767
afek	-12.6767
fetma	-12.6767
jib	-12.6767
hadareser	-12.6767
genstridig	-12.6767
mätstång	-12.6767
liksidig	-12.6767
märg	-12.6767
eldsglöd	-12.6767
ammihud	-12.6767
midnattstid	-12.6767
kviga	-12.6767
mesek	-12.6767
persisk	-12.6767
dubbla	-12.6767
flätverk	-12.6767
sackur	-12.6767
hinder	-12.6767
avgudaoffer	-12.6767
gersoniterna	-12.6768
infattning	-12.6768
hunno	-12.6768
stridsvagnar	-12.6768
maon	-12.6768
skuldoffret	-12.6768
sobal	-12.6769
hundrafal	-12.6769
överhovmästaren	-12.6769
händelse	-12.6769
moderssköte	-12.6769
jubelrop	-12.677
gäster	-12.677
kvarter	-12.677
utpost	-12.677
konungamakt	-12.6771
glädjebudskap	-12.6771
pung	-12.6771
astarte	-12.6772
kedja	-12.6773
kåpan	-12.6773
bördig	-12.6773
adaja	-12.6774
syrien	-12.6775
nof	-12.6775
begrät	-12.6776
fräck	-12.6776
bördor	-12.6778
visshet	-12.6778
styrkte	-12.6778
utsläcka	-12.6779
betäckte	-12.6781
läror	-12.6781
köpmän	-12.6781
stumma	-12.6781
nymånadsdag	-12.6782
forntiden	-12.6787
svinen	-12.679
rådslå	-12.6791
arba	-12.6794
skänkte	-12.6798
irra	-12.68
insegle	-12.68
vissla	-12.6803
edomé	-12.6803
krigshär	-12.6806
förödelsen	-12.6811
föreskrifter	-12.6811
överträd	-12.6811
konungason	-12.6818
parti	-12.6819
krukmakaren	-12.6823
använda	-12.6825
tiotusen	-12.6825
allmänn	-12.6828
härda	-12.6829
arbetar	-12.683
axlar	-12.6832
utkräv	-12.6836
nymånad	-12.6836
läkare	-12.6838
stormade	-12.6838
försmådd	-12.684
salmon	-12.6843
gudlösa	-12.6843
skörde	-12.6846
rakt	-12.685
skifta	-12.685
barne	-12.6851
lönn	-12.6851
omringade	-12.6854
andevärlden	-12.6857
minnes	-12.6858
tvagning	-12.686
mull	-12.6863
boskaps	-12.6865
gran	-12.6869
arvslotter	-12.6875
tumm	-12.6887
stocken	-12.6891
dedan	-12.6892
talent	-12.6894
nästan	-12.6896
ståthållaren	-12.6898
ogs	-12.6902
smaklig	-12.6902
oniten	-12.6923
uppgiva	-12.6923
brant	-12.6924
dragare	-12.6926
slösa	-12.6933
arpa	-12.6943
våldet	-12.6944
hopsamla	-12.6946
närhet	-12.6946
firade	-12.6947
vanmäktig	-12.6953
dödlig	-12.6956
underordna	-12.6959
förjagade	-12.6962
hästen	-12.6966
besinning	-12.6971
rosta	-12.6972
ordna	-12.6992
försona	-12.6993
åligganden	-12.7002
ofruktsamma	-12.702
omslute	-12.7021
besinn	-12.7049
befatta	-12.7052
obetänksam	-12.7066
fienderna	-12.7075
öka	-12.7077
rim	-12.7078
mut	-12.7079
kemo	-12.7089
tanken	-12.7098
dyn	-12.7117
moabitiska	-12.7121
borgar	-12.7123
komst	-12.7126
därin	-12.713
lix	-12.7131
gande	-12.7137
bekän	-12.7153
ades	-12.716
bom	-12.7177
svall	-12.7189
beskärd	-12.7194
hädar	-12.7226
såld	-12.7227
leve	-12.7237
slakt	-12.7239
kringspri	-12.724
beredd	-12.7243
rikta	-12.7245
strött	-12.7263
löse	-12.727
freds	-12.7275
bränne	-12.7278
naturlig	-12.7278
plågare	-12.7292
beställ	-12.7298
tref	-12.73
asel	-12.7302
bräck	-12.7304
fläk	-12.7309
plågade	-12.731
borttag	-12.7326
lvis	-12.733
lon	-12.7332
förvänt	-12.7368
hal	-12.7372
gåv	-12.7384
tu	-12.7385
spridde	-12.7396
bus	-12.7401
stånga	-12.7406
förskräckelser	-12.7414
stams	-12.7415
bind	-12.7421
beskär	-12.7434
örelse	-12.7444
bruse	-12.7445
ägna	-12.7452
sebe	-12.7467
djupen	-12.7469
spjute	-12.7492
tillfoga	-12.7505
tam	-12.7535
förhöll	-12.7551
profetlärjungar	-12.756
ana	-12.759
brödstycke	-12.759
levern	-12.7604
elis	-12.7605
fristad	-12.7633
förhärjare	-12.7638
kr	-12.7644
beerot	-12.7648
tukt	-12.7665
upprörd	-12.7668
görelse	-12.7705
rå	-12.7707
ehum	-12.7729
bäre	-12.7736
älskad	-12.7739
ihjälrive	-12.7742
mil	-12.7763
mul	-12.7763
vederkvicka	-12.7765
karmi	-12.7783
strål	-12.7785
ryta	-12.7786
gåta	-12.7787
misstanke	-12.7798
lock	-12.78
avskild	-12.78
sered	-12.7815
näste	-12.7816
stäm	-12.7821
rädd	-12.7824
tuktig	-12.7831
vänskap	-12.7833
spill	-12.7835
edre	-12.7836
atiten	-12.7838
bränn	-12.7839
påminn	-12.7863
misa	-12.7867
ansenlig	-12.7874
tvinga	-12.7874
bytt	-12.7877
safat	-12.7885
gas	-12.7886
väsen	-12.7888
vingårdsmän	-12.7892
förlit	-12.7898
uppror	-12.79
betesmark	-12.7904
larna	-12.7911
ittai	-12.7914
farisé	-12.7927
kopparen	-12.7932
födelse	-12.7937
babylon	-12.7939
bädd	-12.7944
invigning	-12.7946
grundval	-12.7962
plåt	-12.7968
pressa	-12.7973
tofet	-12.7974
rättsinnig	-12.7977
nöj	-12.798
sido	-12.7981
fyrfa	-12.7981
mogen	-12.7984
dråp	-12.7987
lapp	-12.7988
elif	-12.7989
fläckar	-12.7989
ryk	-12.7989
run	-12.7992
nykt	-12.7996
fjä	-12.8001
ämre	-12.8002
fåll	-12.8002
väcka	-12.8005
spenabarn	-12.8005
kaldéer	-12.8007
äldst	-12.8007
naama	-12.8009
tjocka	-12.8009
tvivla	-12.801
kananéer	-12.8012
gnat	-12.8014
belägrings	-12.8015
lada	-12.8016
jerameel	-12.8016
ryter	-12.8016
gib	-12.8017
arauna	-12.8017
cilicien	-12.8017
estaol	-12.8017
flugsvärmar	-12.8017
förteckning	-12.8017
gnissla	-12.8017
herradöme	-12.8017
högtidsdräkter	-12.8017
kadmiel	-12.8017
melkisedek	-12.8017
misshandling	-12.8017
nehemja	-12.8017
refaims	-12.8017
sibeon	-12.8017
sidolister	-12.8017
slumra	-12.8017
tappua	-12.8017
trollkarl	-12.8017
umgänge	-12.8017
örsnibb	-12.8017
bjällr	-12.8017
flög	-12.8017
ingivelse	-12.8017
slicka	-12.8017
belsassar	-12.8017
krysolit	-12.8017
profetissa	-12.8017
pisga	-12.8017
störtskur	-12.8017
skördeskri	-12.8017
avsöndrade	-12.8017
mispe	-12.8017
korint	-12.8017
ackub	-12.8017
nådegåva	-12.8017
gräsmaskar	-12.8017
asarel	-12.8017
klu	-12.8017
linneduk	-12.8017
solstoder	-12.8017
nödvändig	-12.8017
sinear	-12.8017
oholibama	-12.8017
heres	-12.8017
skygd	-12.8018
betydelse	-12.8018
menahem	-12.8018
filistéer	-12.8018
massa	-12.8018
onan	-12.8018
gitt	-12.8019
armband	-12.8019
esjon	-12.8019
kebar	-12.8019
skuggorna	-12.8019
rovfåglar	-12.8019
gräva	-12.802
linda	-12.802
maresa	-12.802
sidokamrarna	-12.8021
pedaja	-12.8021
jabin	-12.8021
ariel	-12.8022
uthållig	-12.8022
betlehem	-12.8022
salthavet	-12.8023
utspy	-12.8024
bosra	-12.8024
gesur	-12.8026
omvärv	-12.8026
sopa	-12.8026
förtryckta	-12.8027
uppät	-12.8028
netofatite	-12.8028
återbörda	-12.8029
dödsskuggan	-12.803
ursäkt	-12.803
tema	-12.8032
förtvina	-12.8032
flut	-12.8032
krankhet	-12.8035
landshövdingarna	-12.8035
grekisk	-12.8035
prästadömet	-12.8036
jahas	-12.8036
krus	-12.8038
skäppa	-12.8038
stortalig	-12.8039
förtryckaren	-12.8042
stämpla	-12.8044
usel	-12.8047
stamhövdingar	-12.8048
uppfostra	-12.8049
larmet	-12.8053
ogunst	-12.8054
beskärt	-12.806
jungfrun	-12.806
krokig	-12.8061
töm	-12.8064
korsfäste	-12.8066
knivar	-12.8067
aramé	-12.8068
krigare	-12.8068
saktmodig	-12.8069
skölja	-12.807
förbinde	-12.8071
flyktingar	-12.8078
ilja	-12.8079
sabdi	-12.8082
soko	-12.8082
middags	-12.8082
vas	-12.8086
kropparna	-12.8092
välsignelsen	-12.8098
övervinna	-12.8098
upplösa	-12.8104
rövat	-12.8107
barnsnöd	-12.8108
vinnlägg	-12.8112
skrapa	-12.8113
smak	-12.8114
elet	-12.8114
täckte	-12.8115
killingar	-12.8115
uppträd	-12.812
per	-12.8121
räkn	-12.8123
sisa	-12.8127
befunno	-12.8142
korta	-12.8145
trög	-12.8147
salva	-12.8148
sträva	-12.8153
baksida	-12.8153
förebrå	-12.8155
släktregistre	-12.8156
oket	-12.816
stödde	-12.8162
förunderlig	-12.8166
telningar	-12.8174
kalde	-12.8176
springa	-12.8179
geras	-12.8188
villkor	-12.8189
ium	-12.8197
sab	-12.8199
stall	-12.8208
prövning	-12.8209
lovet	-12.8212
avog	-12.8217
ila	-12.822
omsi	-12.822
uppstånd	-12.8224
vaktkamrar	-12.8224
påskhögtiden	-12.8226
bitar	-12.8233
anklagade	-12.8243
sönderkrossa	-12.8244
trängt	-12.8262
grus	-12.8266
elda	-12.8274
upplyfte	-12.828
degen	-12.8282
daggen	-12.8285
föreskrift	-12.8289
gruvliga	-12.8289
eel	-12.8289
välsign	-12.829
ebes	-12.8292
mät	-12.8292
spara	-12.8295
väsendet	-12.8296
jael	-12.8312
matte	-12.8312
bekymra	-12.8321
aktig	-12.8322
taken	-12.8329
levit	-12.8339
fela	-12.835
pare	-12.8351
färgad	-12.8352
förstlings	-12.8354
brännoffersdjure	-12.8355
lytt	-12.8364
syndaren	-12.8382
kumm	-12.8385
slu	-12.8386
kullar	-12.8393
gästa	-12.8397
bilda	-12.8412
överskyl	-12.8417
vetet	-12.8423
rulle	-12.8431
delad	-12.8431
avvan	-12.8437
lie	-12.8443
nödgade	-12.8453
hållning	-12.8471
befläcka	-12.8476
förelag	-12.8477
slagg	-12.848
jes	-12.8497
avhålla	-12.8503
grönskan	-12.8504
gärningarna	-12.8507
börd	-12.8512
skogs	-12.852
sand	-12.8528
fyller	-12.8539
ivriga	-12.8542
tråd	-12.8543
gåve	-12.8548
trösten	-12.8561
stung	-12.8563
riv	-12.8564
leas	-12.8569
ogärning	-12.8577
kalkar	-12.8581
förbränd	-12.8593
tidig	-12.8605
let	-12.8606
visare	-12.861
sassar	-12.8621
juden	-12.8624
fullgör	-12.8626
handel	-12.8627
frossa	-12.8647
månads	-12.8656
stortå	-12.8673
döde	-12.8683
systers	-12.8688
ärende	-12.8706
synlig	-12.8723
torge	-12.8742
inställ	-12.8742
överskrift	-12.8745
trät	-12.8752
gästabuds	-12.8767
pröv	-12.877
lura	-12.8785
vinn	-12.8786
blomma	-12.879
lam	-12.8813
ofärds	-12.8817
hugna	-12.8831
stode	-12.8839
kastskov	-12.8873
bebygg	-12.8894
skarpa	-12.891
druv	-12.8912
välja	-12.8917
ku	-12.8931
juble	-12.8936
betal	-12.8944
laga	-12.8976
erövra	-12.8997
göd	-12.8999
plöja	-12.9001
ingar	-12.9005
förtärd	-12.9015
gliga	-12.9031
arab	-12.9051
toppar	-12.9057
hamme	-12.9064
tel	-12.9077
fullkomliga	-12.9133
avsegla	-12.9141
överflöda	-12.9144
elea	-12.9184
kon	-12.9194
penningpung	-12.9201
dörrpost	-12.9202
slit	-12.9212
spott	-12.9213
väva	-12.9216
domstol	-12.9226
förfor	-12.9231
fördärvare	-12.9235
ljungeld	-12.924
brut	-12.9262
sjöng	-12.9269
fullkomnad	-12.927
brus	-12.9273
vette	-12.9274
tänke	-12.9279
utse	-12.9287
ful	-12.9293
bekläd	-12.9305
loge	-12.9322
bäckarna	-12.9325
stamfamilj	-12.9325
egla	-12.9329
törn	-12.9331
räde	-12.9335
yng	-12.9337
fiend	-12.9349
häp	-12.9349
ömma	-12.9349
ling	-12.935
röj	-12.9356
uppkallad	-12.9362
krukmakar	-12.937
bygd	-12.9372
förfarna	-12.9374
levnads	-12.9382
förbränn	-12.9384
inmönstra	-12.9386
gry	-12.9388
straffdom	-12.9389
käll	-12.939
lärd	-12.9393
väldighet	-12.9394
leh	-12.9401
vissa	-12.9401
granatäpple	-12.9404
ägaren	-12.9405
trapp	-12.9411
nim	-12.9411
avhålle	-12.9414
grann	-12.9415
tillspillogiv	-12.9416
klen	-12.942
klöv	-12.942
smärt	-12.9422
torie	-12.9423
höft	-12.9424
bordsgäster	-12.9428
utsago	-12.9429
lejoninna	-12.9432
läcker	-12.9432
jim	-12.9435
väcke	-12.9436
kamrar	-12.9436
havsländer	-12.9438
ljusstake	-12.9438
molnsky	-12.9438
nacken	-12.9439
hovmästare	-12.9439
vinter	-12.9439
plågad	-12.9442
jebus	-12.9443
röse	-12.9445
drabant	-12.9445
uppehälle	-12.9445
bucki	-12.9445
böcker	-12.9445
cyren	-12.9445
girgaséerna	-12.9445
hädisk	-12.9445
jabbok	-12.9445
kittéerna	-12.9445
kronor	-12.9445
köpebrev	-12.9445
ljöd	-12.9445
mahalalel	-12.9445
malluk	-12.9445
mönstring	-12.9445
skymning	-12.9445
tillsyningsman	-12.9445
uppsyningsmän	-12.9445
veckodagen	-12.9445
villfarelse	-12.9445
vädret	-12.9445
översvinnlig	-12.9445
▁'.»	-12.9445
famla	-12.9445
simron	-12.9445
uppvigla	-12.9445
avsatser	-12.9445
konungasönerna	-12.9445
silpa	-12.9445
strimmig	-12.9445
strupe	-12.9445
syndoffersdjuret	-12.9445
trösklarna	-12.9445
bål	-12.9445
balsam	-12.9445
lösepenning	-12.9445
seboim	-12.9445
binnui	-12.9445
enfaldig	-12.9445
jahasiel	-12.9445
krubba	-12.9445
gödsel	-12.9445
libni	-12.9445
jojarib	-12.9445
sabbatsvila	-12.9445
boskapshjordar	-12.9445
nitton	-12.9445
gesuréerna	-12.9445
utkorade	-12.9445
mänsklig	-12.9445
otniel	-12.9445
okunnighet	-12.9446
murbruk	-12.9446
patros	-12.9446
råmärke	-12.9446
stadsmuren	-12.9446
hogla	-12.9446
domarsäte	-12.9446
kainéerna	-12.9446
astarot	-12.9446
österlänningarna	-12.9446
akbor	-12.9446
flotta	-12.9446
korpar	-12.9446
koraiterna	-12.9447
jekonja	-12.9447
huggormar	-12.9447
fromme	-12.9447
sönderbrut	-12.9447
gathörn	-12.9447
asriel	-12.9447
bagaren	-12.9447
kustlandet	-12.9447
vinbärgning	-12.9448
älskog	-12.9448
anakiterna	-12.9449
elnatan	-12.9449
magra	-12.9449
utrymme	-12.9449
jered	-12.945
utvidga	-12.945
elim	-12.9451
samaritisk	-12.9451
jordstycke	-12.9453
ammoniterna	-12.9453
förgängelsen	-12.9453
vrida	-12.9454
pre	-12.9456
bränsle	-12.9457
gästerna	-12.9457
por	-12.9457
feja	-12.9459
härhövitsmän	-12.946
bita	-12.9461
stlingsfrukter	-12.9461
utsagor	-12.9462
omskärelsen	-12.9462
kvarnsten	-12.9463
såningsman	-12.9463
fia	-12.9464
biten	-12.9464
partisk	-12.9466
röja	-12.9467
tidsåldern	-12.9467
husgudarna	-12.9468
uppblåst	-12.9469
dikta	-12.947
jaspis	-12.9471
delaja	-12.9471
syndofferstjuren	-12.9472
marks	-12.9472
harpan	-12.9475
bulnader	-12.9477
bjälk	-12.9477
dryckes	-12.9478
upphängda	-12.9479
längtan	-12.948
seka	-12.9481
ref	-12.9484
kret	-12.9484
vitmena	-12.9484
förena	-12.9485
vitna	-12.9486
betunga	-12.9486
brust	-12.9488
torde	-12.949
palmträd	-12.949
övertyga	-12.949
hälle	-12.9494
lotan	-12.9494
sofa	-12.9495
skeppare	-12.9504
sag	-12.9504
konstnär	-12.9504
väldigheter	-12.9506
ummim	-12.9507
tjänstekvinnan	-12.9509
syndarna	-12.9511
laedan	-12.9512
lekamlig	-12.9513
predikaren	-12.9513
byggnaden	-12.9517
dison	-12.952
hämtad	-12.9522
förgårds	-12.9522
förtrötta	-12.9525
spetälske	-12.9528
beskära	-12.9529
bärgning	-12.9529
lossa	-12.9533
orättfärdigheten	-12.9534
mullbärsfikonträ	-12.9538
viftoffers	-12.9539
herrarna	-12.954
tjänste	-12.9542
utrusta	-12.9542
tvilling	-12.9542
etiopierna	-12.9543
mis	-12.9543
pel	-12.9546
förebild	-12.9548
simma	-12.9554
beton	-12.9555
årig	-12.9562
försumma	-12.9562
ämne	-12.9564
översvämma	-12.9564
speja	-12.9569
haser	-12.9573
orene	-12.958
abisu	-12.96
mara	-12.9602
nedböjd	-12.9604
lågor	-12.9609
varv	-12.9619
uppsyn	-12.9626
nob	-12.9629
araber	-12.9636
larma	-12.9637
gan	-12.9642
fallgrop	-12.9643
uttömm	-12.9648
prövat	-12.9651
beräkna	-12.9652
belätena	-12.9655
beka	-12.9656
samtal	-12.9657
klot	-12.9658
ovänskap	-12.9664
oroa	-12.9665
uppsatt	-12.9666
duvan	-12.9685
övlig	-12.9685
enai	-12.9687
sva	-12.9695
mura	-12.9702
käppar	-12.9708
täck	-12.9715
trälinn	-12.9723
tappar	-12.9728
böne	-12.9729
orma	-12.9732
undra	-12.9737
mik	-12.9738
östern	-12.9738
ärad	-12.9742
försök	-12.9748
kinder	-12.9759
träck	-12.9766
kärt	-12.9768
förgingo	-12.9768
redligas	-12.9786
övergå	-12.9787
ängar	-12.9794
frodiga	-12.9807
växter	-12.9825
bestyr	-12.9834
vil	-12.9845
upphöjning	-12.9854
framburo	-12.9854
jordans	-12.986
läka	-12.9872
vändig	-12.9879
part	-12.9891
ofel	-12.9892
förhållande	-12.9899
förgick	-12.9933
lövhyddo	-12.9934
förlust	-12.9943
övertäckt	-12.9948
bönfall	-12.9974
ammonit	-12.999
sorglös	-12.9991
ändra	-12.9993
almai	-12.9999
soan	-13.0032
innor	-13.004
vederstygglig	-13.0053
tillfall	-13.007
vårregn	-13.0075
mit	-13.0093
förtrog	-13.0108
landsfurste	-13.0136
oram	-13.0136
dyg	-13.0141
raim	-13.0142
reslig	-13.016
bu	-13.017
fastna	-13.0174
förbjude	-13.0215
pun	-13.0218
inhysesman	-13.0232
hedmarks	-13.0243
överstepräster	-13.0249
pele	-13.0249
stinga	-13.0259
flykting	-13.0275
sprid	-13.0294
blom	-13.0296
mulåsna	-13.0296
hum	-13.0313
bene	-13.0326
tillstädj	-13.0345
skorn	-13.0355
eam	-13.0386
sebu	-13.0395
döva	-13.041
löshet	-13.0413
omslöt	-13.0432
budord	-13.0444
predikar	-13.0462
udd	-13.0495
hörd	-13.0502
ll	-13.0504
grymma	-13.0528
råds	-13.0534
förnämliga	-13.0553
döv	-13.0556
tor	-13.0557
ighet	-13.0575
fädernestam	-13.058
utsåg	-13.0586
gäst	-13.0596
mogna	-13.0621
bärga	-13.0641
förseglad	-13.0648
basans	-13.0651
föres	-13.0651
förhåll	-13.0654
upphängd	-13.0654
vild	-13.0689
stank	-13.069
ryggar	-13.0702
ekar	-13.0704
fördöm	-13.0713
press	-13.0718
disputera	-13.0725
bekräft	-13.0746
anat	-13.0761
åliggande	-13.0763
ögtidsförsamling	-13.0769
käpp	-13.0782
åkall	-13.0786
påle	-13.0789
floder	-13.0796
släp	-13.0842
uträck	-13.0863
brännoffersdjur	-13.0866
husvill	-13.0879
dlar	-13.0881
gäck	-13.0893
rnas	-13.0912
abba	-13.092
grek	-13.0927
lingar	-13.0943
högfärd	-13.0945
lågan	-13.0955
underordn	-13.0957
bit	-13.0993
hjälm	-13.1004
stärk	-13.1013
pelat	-13.1021
filisté	-13.1027
byta	-13.1029
överfall	-13.1032
akte	-13.1035
tramp	-13.1043
publikan	-13.1044
krydd	-13.1045
budbäraren	-13.1045
munskänk	-13.1047
flik	-13.1049
förvandlad	-13.1058
skärv	-13.106
störtning	-13.1064
trakta	-13.1068
kungjord	-13.1069
malki	-13.1072
näpste	-13.1072
bulnad	-13.1077
tis	-13.108
vedermöd	-13.1082
bönen	-13.109
råka	-13.1094
eleasa	-13.1097
dödsskugga	-13.1098
skriftlärd	-13.1098
svämma	-13.11
ålägge	-13.1101
skapelse	-13.1102
buske	-13.1103
spy	-13.1103
klippor	-13.1104
peda	-13.1106
sanne	-13.1109
plantering	-13.1109
utlänning	-13.111
kåpa	-13.111
styresm	-13.1111
oholiba	-13.1111
onyx	-13.1111
tessalonik	-13.1112
niko	-13.1112
rymde	-13.1112
sslor	-13.1112
förkovra	-13.1112
kaftor	-13.1112
abihail	-13.1112
alexander	-13.1112
avsatsen	-13.1112
bigvai	-13.1112
eljasaf	-13.1112
gafflar	-13.1112
galileisk	-13.1112
hednisk	-13.1112
helbrägda	-13.1112
jediael	-13.1112
jissia	-13.1112
krymp	-13.1112
laodicea	-13.1112
leviatan	-13.1112
misslynt	-13.1112
myrten	-13.1112
näsring	-13.1112
outrannsaklig	-13.1112
sefarvaim	-13.1112
skepnad	-13.1112
skjort	-13.1112
skämm	-13.1112
sänklod	-13.1112
triumfera	-13.1112
tveegga	-13.1112
vädja	-13.1112
ó	-13.1112
överskygg	-13.1112
▁);	-13.1112
assyrierna	-13.1112
förvirra	-13.1112
sunnanvind	-13.1112
virvla	-13.1112
kärleksäpplen	-13.1112
nöta	-13.1112
serug	-13.1112
tålmodig	-13.1112
stubbe	-13.1112
bebai	-13.1112
metusela	-13.1112
goljat	-13.1112
gästvänlig	-13.1112
seeb	-13.1112
hodia	-13.1112
joktan	-13.1112
allvarlig	-13.1112
ruttna	-13.1112
ahieser	-13.1112
hörntofs	-13.1112
smulor	-13.1112
selomit	-13.1112
böl	-13.1112
nattväkt	-13.1112
vecka	-13.1112
tvistefråg	-13.1112
abieser	-13.1112
disan	-13.1112
onyxstenar	-13.1112
rövarskara	-13.1112
sällskap	-13.1113
arabien	-13.1113
meon	-13.1113
gidd	-13.1113
horéerna	-13.1113
vederkvickelse	-13.1113
gedor	-13.1113
oroligheter	-13.1113
argo	-13.1113
tillförlitlig	-13.1113
offerkist	-13.1113
grushög	-13.1113
stengolv	-13.1113
avlägsna	-13.1113
tigga	-13.1113
sual	-13.1114
brak	-13.1114
rogel	-13.1114
hagelstenar	-13.1114
förkunnelse	-13.1114
nyckel	-13.1114
seraiterna	-13.1114
konungavälde	-13.1114
bekännelse	-13.1114
galati	-13.1114
gedi	-13.1114
plog	-13.1114
förgriplig	-13.1115
beker	-13.1115
ammiel	-13.1115
vattenledning	-13.1115
gnaga	-13.1115
vildåsnor	-13.1116
spränga	-13.1116
fni	-13.1116
offermåltid	-13.1117
arpad	-13.1117
mångfaldig	-13.1117
påminnelse	-13.1117
hebroniterna	-13.1117
gihon	-13.1118
ilbud	-13.1118
absa	-13.1119
förfärdigande	-13.1119
kannor	-13.1119
pålitlig	-13.1119
dansa	-13.112
timra	-13.112
ålägga	-13.112
hämnare	-13.1121
stadier	-13.1121
belopp	-13.1121
bemäktiga	-13.1122
vanvettig	-13.1122
skumma	-13.1122
vallar	-13.1123
adma	-13.1123
utsir	-13.1123
livskraft	-13.1124
eftersinna	-13.1125
jimna	-13.1125
sorgsen	-13.1126
lossna	-13.1126
gossar	-13.1126
ljuvlighet	-13.1126
kostnad	-13.1127
utsläcke	-13.1128
svep	-13.1128
härlige	-13.113
gudlöse	-13.1131
fänaden	-13.1131
ddai	-13.1132
fållor	-13.1136
konungariken	-13.1137
setar	-13.1139
landsman	-13.1143
planta	-13.1143
pont	-13.1144
luften	-13.1144
pilträd	-13.1144
knoppar	-13.1145
ungarna	-13.1148
lönar	-13.1153
hungerår	-13.1155
önskan	-13.1156
efrata	-13.1159
uppenbarelsen	-13.1159
förtvivla	-13.1162
kison	-13.1163
övervunn	-13.1165
skönast	-13.1168
oförgänglighet	-13.1168
veteskörd	-13.1172
avgudabeläte	-13.1172
kristall	-13.1174
försökt	-13.1174
tillredelsedag	-13.1174
pallu	-13.1177
vällust	-13.1177
sluttningar	-13.1177
fårhjordar	-13.1179
fortsätt	-13.1182
munskänken	-13.1183
prisgiva	-13.1185
folkskara	-13.1188
bågskyttar	-13.1193
flyktig	-13.1194
inviga	-13.1194
näring	-13.1196
obesmitta	-13.1199
mag	-13.12
flöd	-13.1201
förtrogna	-13.1202
vagnshästar	-13.1202
berus	-13.1205
flit	-13.1208
ammisa	-13.1208
kaldeen	-13.1208
undantag	-13.1208
förtroende	-13.121
skinnsak	-13.121
ikon	-13.1211
asri	-13.1214
omskär	-13.1215
förvillar	-13.1218
ringe	-13.1223
utstött	-13.1223
uppvakna	-13.123
mask	-13.1231
segern	-13.1236
bäv	-13.1239
förtorkat	-13.1246
förlusta	-13.1246
unt	-13.1247
inrätta	-13.125
eldstod	-13.1254
krafter	-13.1259
nedslå	-13.1262
bår	-13.1263
addai	-13.1263
fares	-13.1264
naara	-13.1264
hassu	-13.1276
hastar	-13.1282
kust	-13.1282
fostrade	-13.1283
bin	-13.1286
adad	-13.1286
trotsa	-13.1289
vederkvickt	-13.1291
haggi	-13.1292
ud	-13.1297
helgedoms	-13.1298
borttaga	-13.1299
försonings	-13.1303
vadställen	-13.1303
begrip	-13.1305
graver	-13.1309
stengrund	-13.1309
téer	-13.1312
mördar	-13.1313
inträffa	-13.1314
hungern	-13.1317
besökt	-13.132
sjöar	-13.1334
trolldoms	-13.1334
sovkammare	-13.1335
sårad	-13.1335
gäcka	-13.1337
förmörkade	-13.135
löste	-13.1358
elas	-13.136
hasum	-13.1363
ylle	-13.1363
anna	-13.1366
ua	-13.1372
utsatt	-13.1372
ddar	-13.1373
bevilja	-13.1376
fal	-13.1386
botten	-13.1388
kel	-13.1391
osynlig	-13.1393
iklädd	-13.1398
areser	-13.1408
kända	-13.1408
måne	-13.1408
hindrade	-13.1409
cypresser	-13.1411
bedrövelser	-13.1419
förhasta	-13.145
nja	-13.1463
förnya	-13.1466
förordning	-13.1474
lod	-13.1476
renings	-13.1478
reta	-13.1493
saft	-13.1496
förökat	-13.1503
eu	-13.1507
mandel	-13.1523
oreb	-13.1523
ostrafflige	-13.1529
varelse	-13.1534
ockrar	-13.1538
segerrik	-13.1541
rinnan	-13.1554
bedrog	-13.1562
ajo	-13.1568
rätte	-13.1573
mottog	-13.1573
betäckt	-13.1575
förbud	-13.158
levnadså	-13.1585
tysta	-13.159
eol	-13.1591
avsluta	-13.1595
banna	-13.1601
egat	-13.1602
avlägse	-13.1609
sprida	-13.1622
pelarhuvud	-13.1633
återställ	-13.1634
örjan	-13.1637
gäld	-13.1651
nis	-13.1659
obot	-13.1663
leb	-13.1671
helgedomar	-13.1673
benjaminiter	-13.1674
fullmog	-13.1678
bränning	-13.1683
vårdar	-13.1694
förrådd	-13.1697
neka	-13.1702
bättringen	-13.1704
överlåt	-13.1716
fristäder	-13.1748
avel	-13.1777
anas	-13.1778
utkante	-13.1779
framställ	-13.1826
aten	-13.1858
pur	-13.187
fredlig	-13.1894
köpen	-13.1913
oskicklig	-13.192
själisk	-13.1939
gripe	-13.1944
bö	-13.1951
annor	-13.1952
tillstädje	-13.1971
hyllning	-13.1974
andel	-13.1987
bana	-13.1991
offerdjur	-13.2009
reden	-13.2034
nitälskar	-13.2044
åligg	-13.2046
bespott	-13.2048
lut	-13.2057
fylld	-13.2058
salar	-13.2058
präktig	-13.206
präktiga	-13.2065
senor	-13.2066
prästerlig	-13.2067
ös	-13.212
rikena	-13.2123
förtröst	-13.2126
misrai	-13.2135
anropa	-13.2168
resliga	-13.2178
utdela	-13.2229
uppkalla	-13.223
mu	-13.2249
stjärnan	-13.2255
hedersam	-13.2257
gånge	-13.2258
ersta	-13.2296
arar	-13.2316
rättel	-13.2318
gom	-13.2341
haggit	-13.2354
beröm	-13.2359
naas	-13.236
undf	-13.2364
förtalar	-13.2369
högtidsdag	-13.2376
unnar	-13.2379
beså	-13.2385
sims	-13.2389
utgav	-13.2397
utebliv	-13.2404
esb	-13.2428
obab	-13.2459
besvärjar	-13.246
klapp	-13.2466
härskar	-13.2467
förskingrar	-13.2467
genomgå	-13.2488
karn	-13.2496
sinnad	-13.2497
förekomm	-13.2502
kpela	-13.2503
jose	-13.2512
förråds	-13.2526
betäck	-13.2537
broderlig	-13.2545
salma	-13.2551
bas	-13.2552
gjute	-13.2557
glas	-13.2566
tob	-13.2568
immers	-13.2571
stock	-13.2577
arad	-13.2592
samm	-13.2604
mattat	-13.2608
armas	-13.2613
önsk	-13.2622
förundr	-13.2624
njut	-13.2627
rig	-13.2645
stlar	-13.2648
elat	-13.2678
försegla	-13.2679
ankar	-13.268
drägliga	-13.2696
immer	-13.2703
puk	-13.2706
jit	-13.2708
tol	-13.272
töckn	-13.273
väkt	-13.2734
bane	-13.2739
ckning	-13.2745
miten	-13.2751
krön	-13.2751
trolovad	-13.2756
påskoff	-13.2757
undervisad	-13.2763
försonad	-13.2776
saker	-13.2804
efrat	-13.2833
fräta	-13.2857
insätt	-13.2866
ödmjukad	-13.2875
kla	-13.2876
abisa	-13.2876
rla	-13.2883
utvald	-13.2884
förlor	-13.2897
viska	-13.29
bull	-13.2904
skälig	-13.2921
agg	-13.2923
villiga	-13.2926
syrad	-13.2929
syr	-13.2932
våning	-13.2935
förvalta	-13.2941
belägring	-13.2948
skrevo	-13.2949
inbärg	-13.2962
föröke	-13.2972
senap	-13.2979
lejd	-13.2991
ammi	-13.2992
körde	-13.3006
sidovägg	-13.3009
främ	-13.3012
kräv	-13.3013
klara	-13.302
struts	-13.303
ohol	-13.3035
vildmark	-13.3035
jet	-13.3044
besvärja	-13.3044
gurk	-13.305
nåde	-13.3052
plant	-13.3054
åsne	-13.3056
svärj	-13.3062
unni	-13.3074
brot	-13.3076
efterforsk	-13.3083
bildad	-13.3084
härjare	-13.3084
åtföljd	-13.3086
bryte	-13.3088
assir	-13.3092
daniterna	-13.3092
hebré	-13.3092
flöjt	-13.3093
gudinna	-13.3093
mmer	-13.3094
fyl	-13.3099
angripe	-13.31
tillredd	-13.31
förgängelse	-13.31
ron	-13.3101
tjänstekvinnor	-13.3102
stjärna	-13.3102
anställd	-13.3103
blek	-13.3103
drake	-13.3104
vågor	-13.3105
ispa	-13.3106
anklagad	-13.3106
yta	-13.3106
alstra	-13.3108
suf	-13.3108
förtröt	-13.3109
lustgårdar	-13.3109
regu	-13.311
agd	-13.311
hövde	-13.3111
knåda	-13.3111
älta	-13.3112
amoré	-13.3112
gäng	-13.3112
kvä	-13.3112
äktenskap	-13.3112
kräslig	-13.3112
mäs	-13.3112
1	-13.3112
ahoait	-13.3112
basilisk	-13.3112
dämpa	-13.3112
fabler	-13.3112
förvaringsrum	-13.3112
gamliel	-13.3112
ivrar	-13.3112
jisei	-13.3112
kainéen	-13.3112
lamptänger	-13.3112
maakatéerna	-13.3112
mehola	-13.3112
nebajot	-13.3112
perasim	-13.3112
rehabja	-13.3112
räddhåga	-13.3112
selumiel	-13.3112
snidverk	-13.3112
stäv	-13.3112
syfta	-13.3112
turturduva	-13.3112
veckohögtid	-13.3112
väska	-13.3112
våldsverkarna	-13.3112
öknar	-13.3112
dränkt	-13.3112
förmätenhet	-13.3112
räfst	-13.3112
teckentyder	-13.3112
beskrivning	-13.3112
dunkel	-13.3112
lummig	-13.3112
bevingad	-13.3112
daglönare	-13.3112
förvaltning	-13.3112
pelikan	-13.3112
slungsten	-13.3112
undersökning	-13.3112
druvsaft	-13.3112
jessai	-13.3112
spillror	-13.3112
jasub	-13.3112
snöpt	-13.3112
epafr	-13.3112
neft	-13.3112
skuldror	-13.3112
blomstre	-13.3112
dristig	-13.3112
ondskefull	-13.3112
beflita	-13.3112
dränka	-13.3112
kenaana	-13.3112
svägerska	-13.3112
vapne	-13.3112
örtagård	-13.3112
grannskap	-13.3112
antikrist	-13.3112
medeba	-13.3112
utländsk	-13.3112
semira	-13.3112
maher	-13.3112
försumlig	-13.3112
raema	-13.3112
poti	-13.3112
refaja	-13.3112
sefon	-13.3112
livsuppehälle	-13.3112
offerhöjdshus	-13.3112
sorgefest	-13.3112
stämmelse	-13.3112
försyndelse	-13.3112
mibsa	-13.3113
tillhörighet	-13.3113
elimelek	-13.3113
flaska	-13.3113
stenröse	-13.3113
aloe	-13.3113
knyt	-13.3113
jekam	-13.3113
pagiel	-13.3113
oläklig	-13.3113
selomot	-13.3113
olycklige	-13.3113
hägern	-13.3113
nödig	-13.3113
prästämbete	-13.3113
gemarja	-13.3113
segerkrans	-13.3114
livrock	-13.3114
nimsi	-13.3114
benåda	-13.3114
magog	-13.3114
nardus	-13.3114
barfota	-13.3114
sviklig	-13.3114
bakbuk	-13.3114
eljada	-13.3114
harpospelare	-13.3114
underrättelse	-13.3114
sutela	-13.3115
väta	-13.3115
skogsbygd	-13.3115
utsläckt	-13.3115
flamman	-13.3115
våldsgärningar	-13.3115
ulam	-13.3116
purim	-13.3116
lönnlig	-13.3116
stenhuggar	-13.3116
mognad	-13.3116
guni	-13.3116
pirgatonit	-13.3117
långmodighet	-13.3117
oomskure	-13.3117
vämj	-13.3117
estemoa	-13.3117
gemål	-13.3117
blixtra	-13.3117
sihor	-13.3118
begravning	-13.3118
bevåg	-13.3118
asanja	-13.3118
busken	-13.3119
återfunn	-13.3119
sibma	-13.3119
stamfränder	-13.3119
skogarna	-13.3119
skaft	-13.312
anmälde	-13.312
olis	-13.3121
nakenhet	-13.3121
köpmännen	-13.3123
gosan	-13.3123
inkomst	-13.3123
upprorisk	-13.3123
tjänstekvinnorna	-13.3123
keln	-13.3124
tunnkakor	-13.3124
sanoa	-13.3125
elisur	-13.3126
köparen	-13.3126
gömme	-13.3126
sammanfoga	-13.3126
glupsk	-13.3126
bakverk	-13.3127
sikeln	-13.3128
bevek	-13.3128
kopparkärl	-13.3128
ahisa	-13.3129
ombesörj	-13.313
behaglig	-13.3132
kusan	-13.3132
helon	-13.3133
brännsår	-13.3133
sesan	-13.3134
talmon	-13.3136
skövla	-13.3136
dagakarlen	-13.3136
villighet	-13.3136
bundet	-13.3137
bindlar	-13.3137
mager	-13.3137
bestraffa	-13.3137
galli	-13.3138
galiléer	-13.3138
grundlig	-13.314
gudsdyrka	-13.314
dalbygd	-13.314
passar	-13.314
uriel	-13.3141
förminsk	-13.3144
missbruka	-13.3144
ösa	-13.3144
abidan	-13.3144
norden	-13.3145
ansätt	-13.3148
imma	-13.3151
fullbordad	-13.3151
byggnader	-13.3152
benkläder	-13.3153
diana	-13.3153
modig	-13.3154
jeser	-13.3156
stödjepelar	-13.3159
snön	-13.3163
besai	-13.3164
vacker	-13.3166
ahira	-13.3168
svedd	-13.3168
olivträdet	-13.317
fyrkantig	-13.3175
styrkt	-13.3175
förspill	-13.3176
ståtlig	-13.3179
österlandet	-13.3184
hacka	-13.3184
skänka	-13.3187
konstarbet	-13.3189
underlag	-13.3189
försmält	-13.3191
världs	-13.3193
vna	-13.3194
stekt	-13.3196
dyrkar	-13.3197
oholi	-13.3197
strutsar	-13.3198
valt	-13.3199
sluka	-13.3199
förändrat	-13.3201
retade	-13.3201
upplopp	-13.3203
kvinno	-13.3205
herodia	-13.3206
slaktdjur	-13.3208
panter	-13.3209
tröskvagnar	-13.321
fördärvad	-13.3211
bädda	-13.3213
landsflyktig	-13.3217
mikaja	-13.3217
domstolen	-13.3218
borra	-13.322
nahat	-13.3221
tinning	-13.3224
stämde	-13.3225
inspärrad	-13.3227
utlämnade	-13.3228
skarorna	-13.3229
tillskifta	-13.3231
fariséen	-13.3232
invigningen	-13.3232
mala	-13.3236
straffdomar	-13.3236
bindel	-13.3242
födelsedag	-13.3248
mättar	-13.3249
överklädnad	-13.325
uthugg	-13.3254
ättik	-13.3254
ropande	-13.3255
fferhöjdspräster	-13.3256
skorpioner	-13.3257
skon	-13.3259
stärkt	-13.3261
asan	-13.3265
rotade	-13.3267
avbärga	-13.3268
förhindra	-13.3272
merib	-13.3275
lägerplatser	-13.3276
valde	-13.3276
skattkammare	-13.3279
asmon	-13.3285
bildade	-13.3288
bakat	-13.3291
dfyllningsvädur	-13.3291
ludéer	-13.3293
otalig	-13.3295
tystna	-13.3298
upprors	-13.3299
tross	-13.3301
glädjebudbärare	-13.3302
smakar	-13.3302
oskälig	-13.3309
hantera	-13.3311
begång	-13.3315
anförde	-13.3315
budbärar	-13.3318
jehud	-13.3319
arbetaren	-13.3321
uppresa	-13.3321
huggorms	-13.3323
ljungelds	-13.3324
ättling	-13.3325
förkorta	-13.3326
kroppslig	-13.3331
otros	-13.3332
straffar	-13.3333
föregiva	-13.3335
hinden	-13.3339
ill	-13.3347
ogärnings	-13.3349
förl	-13.3352
tapa	-13.3353
lagboken	-13.3354
förvandlat	-13.3356
letus	-13.3358
avbilder	-13.3361
dövstumm	-13.3366
bal	-13.337
fasthet	-13.337
alab	-13.3376
säljare	-13.3378
suri	-13.3383
guldring	-13.3388
farna	-13.3393
tagg	-13.3395
överväldiga	-13.3396
kokt	-13.3407
pelarhuvude	-13.3409
amasai	-13.341
lan	-13.341
husgudar	-13.342
lockar	-13.3421
sy	-13.3422
ståndaktigheten	-13.3428
öppningen	-13.343
läpparna	-13.3438
eva	-13.3441
nedbrute	-13.3448
haba	-13.3458
ansatt	-13.3483
fester	-13.3484
fisken	-13.3485
otålig	-13.3486
suba	-13.3497
terebinter	-13.3497
blomsters	-13.35
reningen	-13.3502
kedo	-13.3503
hämndgirig	-13.3505
tänden	-13.3525
ala	-13.3527
avhugg	-13.3534
skällan	-13.3536
krönt	-13.3537
medborgar	-13.3539
befriar	-13.3549
dvälj	-13.3552
baala	-13.3555
lata	-13.3556
undfing	-13.3557
förfarit	-13.3563
slem	-13.3569
skuldoffers	-13.357
anan	-13.3571
modern	-13.3575
lovsäg	-13.3576
bekräfta	-13.3577
hörsammade	-13.3581
trettioått	-13.3596
utplånade	-13.3618
skur	-13.3637
trälarbete	-13.3671
erlägga	-13.3673
angripa	-13.369
omfång	-13.37
hagg	-13.3703
sala	-13.3712
röv	-13.372
dammar	-13.3736
avhugge	-13.3754
utplundrad	-13.3758
släkterna	-13.3758
tap	-13.3763
gatite	-13.3769
naharai	-13.3802
eseki	-13.3822
maas	-13.384
oförståndige	-13.3845
pul	-13.3848
nimr	-13.3871
bel	-13.3873
upplåte	-13.3877
tempelkammar	-13.3889
valv	-13.3906
druvkak	-13.3909
gruva	-13.3921
otrog	-13.3927
ckos	-13.3934
ostadig	-13.3954
fårhjord	-13.3955
förlikna	-13.3971
nkare	-13.3977
påträffa	-13.3992
adja	-13.3997
deltag	-13.3999
sorgen	-13.4002
méerna	-13.4002
orka	-13.4008
förhärjar	-13.401
håna	-13.4035
obebo	-13.4042
listiga	-13.4071
ame	-13.4072
smar	-13.4121
ly	-13.4134
visdoms	-13.4148
svallkött	-13.4151
tyda	-13.4207
flyttar	-13.4239
kloke	-13.4251
jesi	-13.4255
upplys	-13.4278
nefe	-13.4279
svält	-13.4288
fikonkak	-13.4292
nanja	-13.4294
utfråga	-13.4297
summ	-13.4321
byggd	-13.4358
smäleken	-13.438
forma	-13.4387
hyllnings	-13.4395
upprör	-13.4415
frossar	-13.4416
ismaeliter	-13.4426
anvisa	-13.4438
ters	-13.4468
snabb	-13.4471
räckt	-13.4485
förkläd	-13.4504
människob	-13.4516
troge	-13.4532
stänkelsevatt	-13.4535
svalla	-13.4547
itali	-13.4554
fros	-13.4573
vederstyggliga	-13.4576
hitta	-13.4593
kok	-13.4611
ammonitiska	-13.4621
frestad	-13.4644
tillspillogive	-13.4666
gai	-13.4711
app	-13.4729
formar	-13.4759
befunn	-13.4772
fälld	-13.4774
möt	-13.4785
vattenbrunn	-13.4792
kärve	-13.4798
fullgjor	-13.4805
framkalla	-13.4807
spikar	-13.481
ädl	-13.4849
behöll	-13.4856
företräd	-13.4898
kela	-13.492
armen	-13.4927
beklädd	-13.4928
ub	-13.4932
omgjordad	-13.4939
sjömän	-13.4948
inred	-13.496
stränge	-13.4966
förkrossad	-13.4975
frodig	-13.4976
matta	-13.4979
ordnad	-13.5014
levnad	-13.5022
'	-13.5029
skuro	-13.5039
gruvlig	-13.5055
gn	-13.5062
lägrad	-13.5063
framvägg	-13.5065
styck	-13.5076
vistat	-13.5076
öm	-13.5085
belägrad	-13.5088
,	-13.5099
sådd	-13.5101
;	-13.5104
tappa	-13.5106
avskure	-13.513
dundr	-13.5171
kvarnen	-13.5177
fängslad	-13.5177
loss	-13.5186
top	-13.5217
fordr	-13.522
orenad	-13.5221
förnäm	-13.5238
tillskynd	-13.5239
bergfästen	-13.5241
pry	-13.526
utströ	-13.5262
jisvi	-13.5264
hemfödd	-13.527
mast	-13.5275
fiska	-13.5286
anordning	-13.5297
bättr	-13.5302
bebo	-13.5306
himla	-13.5307
osyrad	-13.5308
kross	-13.5342
beskydd	-13.5342
huggorm	-13.5347
befälhavare	-13.5347
tacke	-13.535
förvissnad	-13.5353
haka	-13.5354
danad	-13.5364
friår	-13.537
yster	-13.5381
vakn	-13.5382
krämare	-13.5383
vanärad	-13.539
smädad	-13.5402
förgård	-13.5404
middag	-13.5406
fostrar	-13.5408
tystnad	-13.5409
köld	-13.5409
mörda	-13.541
ket	-13.5427
banad	-13.5437
skatte	-13.5438
fund	-13.5438
planter	-13.5443
slöj	-13.546
tycka	-13.5462
maka	-13.5469
trumpet	-13.5469
abdi	-13.5478
likhet	-13.5478
rodd	-13.5481
hul	-13.5487
sparad	-13.5493
krönik	-13.5496
silverpenning	-13.55
skingra	-13.5505
mördare	-13.5506
familje	-13.5507
gissl	-13.5517
umgå	-13.5518
snärjd	-13.5521
friköpt	-13.5524
regnskur	-13.5531
tusental	-13.5532
landshövding	-13.5545
drin	-13.5545
kabs	-13.5555
röt	-13.5557
förpliktelse	-13.5558
sänkt	-13.556
förkväv	-13.5562
skövl	-13.5568
alem	-13.5571
prästadöme	-13.5571
åtrå	-13.5572
olivträ	-13.5574
högtlovad	-13.5574
plugg	-13.5575
höst	-13.5577
tälja	-13.5578
förtorkad	-13.5586
skyttarna	-13.5587
tänd	-13.5588
syd	-13.5588
plikta	-13.5592
jägare	-13.5593
my	-13.5593
glup	-13.5595
profetsyner	-13.5598
sadducéer	-13.5599
▁'!	-13.5601
ämja	-13.5605
sinnig	-13.5605
ängd	-13.5606
förvissad	-13.5606
tempelträlar	-13.5608
yrke	-13.5609
post	-13.5609
underhövitsman	-13.561
örhänge	-13.561
råg	-13.5611
snodder	-13.5611
bergsklyft	-13.5612
klang	-13.5612
förruttnelse	-13.5612
förrädare	-13.5612
klaudi	-13.5612
säv	-13.5612
ägring	-13.5612
alexandri	-13.5612
9	-13.5612
anstiftat	-13.5612
arglistig	-13.5612
bröllopssven	-13.5612
facklor	-13.5612
fenici	-13.5612
flämta	-13.5612
grottor	-13.5612
hodauja	-13.5612
jordråttor	-13.5612
karbunkel	-13.5612
kimham	-13.5612
kinneret	-13.5612
käft	-13.5612
legion	-13.5612
lämplig	-13.5612
plank	-13.5612
proselyt	-13.5612
risataim	-13.5612
siddim	-13.5612
smädlig	-13.5612
spegel	-13.5612
stjärntydar	-13.5612
tempeltärna	-13.5612
uppsyningsman	-13.5612
utkorelse	-13.5612
utskämd	-13.5612
yppig	-13.5612
ämbets	-13.5612
í	-13.5612
▁):	-13.5612
abiesrit	-13.5612
jordbeck	-13.5612
melki	-13.5612
saalb	-13.5612
smekt	-13.5612
spjärna	-13.5612
tyatira	-13.5612
ämbar	-13.5612
åberopa	-13.5612
förbrytelse	-13.5612
himlarymde	-13.5612
keriot	-13.5612
nordlands	-13.5612
utstaka	-13.5612
klingan	-13.5612
oordentlig	-13.5612
blånad	-13.5612
fukta	-13.5612
ketura	-13.5612
merodak	-13.5612
oförvitlig	-13.5612
söndra	-13.5612
konungamodern	-13.5612
gudaväsen	-13.5612
jaflet	-13.5612
vederpart	-13.5612
nimrod	-13.5612
purpurfärgad	-13.5612
ginst	-13.5612
baladan	-13.5612
etiopisk	-13.5612
förnedring	-13.5612
gödkalvar	-13.5612
jotba	-13.5612
presskar	-13.5612
nemuel	-13.5612
koppargall	-13.5612
dagspenning	-13.5612
dodo	-13.5612
joksan	-13.5612
metall	-13.5612
förhärjelse	-13.5612
knot	-13.5612
vämjelig	-13.5612
maakatiten	-13.5612
outsäglig	-13.5612
fotblad	-13.5612
oskadd	-13.5612
vedersakare	-13.5612
nordan	-13.5612
cedon	-13.5612
eftertänksamhet	-13.5612
mahelon	-13.5612
murbräck	-13.5612
hagab	-13.5612
betlehemiten	-13.5612
alims	-13.5613
hindar	-13.5613
brodd	-13.5613
vågskål	-13.5613
kroppshydda	-13.5613
grytor	-13.5613
efesiern	-13.5613
malkiel	-13.5613
yrierna	-13.5613
palti	-13.5613
falken	-13.5613
villolärare	-13.5613
meselemja	-13.5613
mjuk	-13.5613
drakar	-13.5613
fördömelse	-13.5613
manahat	-13.5613
skudd	-13.5613
undvik	-13.5613
sädesskyl	-13.5613
jishariterna	-13.5613
bakaträden	-13.5613
nergal	-13.5613
rys	-13.5613
tempelvakten	-13.5613
lador	-13.5613
hulda	-13.5613
jubelbasuner	-13.5614
stjärt	-13.5614
armstöd	-13.5614
bilga	-13.5614
elisafan	-13.5614
asbel	-13.5614
flint	-13.5614
ricinbusken	-13.5614
gagnelig	-13.5614
klasar	-13.5614
mamon	-13.5614
spillsäd	-13.5614
kassia	-13.5614
tidsåldrarna	-13.5614
pasea	-13.5614
rehobot	-13.5614
gabr	-13.5614
stelna	-13.5614
semida	-13.5614
sedek	-13.5614
adram	-13.5615
sillem	-13.5615
kabb	-13.5615
misma	-13.5615
smida	-13.5615
svinhjord	-13.5615
uppskatta	-13.5615
fullvux	-13.5616
frod	-13.5616
fångvaktare	-13.5616
beläggning	-13.5616
gebal	-13.5616
betesplats	-13.5616
hatad	-13.5616
rökelsekar	-13.5616
hamul	-13.5616
oskrymtad	-13.5617
oländig	-13.5618
rättssak	-13.5618
amel	-13.5618
styresman	-13.5618
simeoniterna	-13.5618
nagla	-13.5619
offerskålar	-13.5619
libyer	-13.5619
druvklase	-13.5619
bärarmar	-13.5619
jisma	-13.5619
skröplighet	-13.5619
ajiter	-13.562
elaka	-13.562
vax	-13.562
brottslig	-13.5621
kringstråla	-13.5621
anlete	-13.5621
kefira	-13.5621
givmild	-13.5621
vrå	-13.5621
soppa	-13.5621
segerbyte	-13.5622
dödssjuk	-13.5622
beströk	-13.5622
ödelägge	-13.5623
▁»:	-13.5623
hebréer	-13.5623
befrynda	-13.5623
ymnighet	-13.5624
reaja	-13.5624
vildoxar	-13.5624
hararit	-13.5624
vörd	-13.5625
eldslåg	-13.5626
bespis	-13.5626
skning	-13.5626
fåkunnighet	-13.5626
högtidlig	-13.5627
utsuga	-13.5627
snodderna	-13.5627
macedonier	-13.5627
kornbröd	-13.5627
ndring	-13.5628
konungapalatse	-13.5628
vågorna	-13.5628
urtids	-13.5628
vanvetting	-13.5628
klagolåt	-13.5629
avliva	-13.563
fullkomlighet	-13.563
plogbillar	-13.563
frambringe	-13.563
skapelsen	-13.563
tempelbolare	-13.5631
skapad	-13.5631
bistod	-13.5631
gömsle	-13.5632
famnar	-13.5632
skickad	-13.5632
dödsslagna	-13.5633
spruta	-13.5633
salvo	-13.5634
fårklipp	-13.5634
onesi	-13.5635
prästkläder	-13.5635
hämndedag	-13.5635
korall	-13.5636
mött	-13.5636
tempeltjänst	-13.5637
meses	-13.5637
underkuva	-13.5639
idoga	-13.5639
bäddar	-13.5639
trettionio	-13.564
morbroder	-13.564
nasirlöfte	-13.564
råkar	-13.564
utblottade	-13.5641
instängd	-13.5644
nasaréen	-13.5644
silversiklar	-13.5645
biter	-13.5645
förrådshuset	-13.5645
panel	-13.5645
fullsatt	-13.5645
upprista	-13.5646
rörd	-13.5646
huvor	-13.5647
förbittra	-13.5647
jakt	-13.5647
höstregn	-13.5648
lägerställe	-13.5649
utgrunda	-13.565
uttrötta	-13.565
förplikta	-13.5651
gnistra	-13.5652
uppbrott	-13.5653
ströva	-13.5654
slaktfår	-13.5654
uppryckt	-13.5655
tarot	-13.5655
asgad	-13.5655
namnkunnig	-13.5656
efterforska	-13.5659
ändamål	-13.566
folkräkning	-13.566
noba	-13.5661
skiljemur	-13.5663
högtlovade	-13.5663
frestelsen	-13.5664
upptänt	-13.5665
have	-13.5666
jir	-13.5667
baalat	-13.5671
uppläsa	-13.5671
sallu	-13.5674
ränder	-13.5674
pipa	-13.5675
fällda	-13.5676
förbundsbok	-13.5676
alka	-13.5678
överskri	-13.5678
alja	-13.5678
ibsa	-13.5681
skiva	-13.5683
avslöja	-13.5685
tiberi	-13.5689
utröna	-13.569
dyra	-13.5691
bamot	-13.5694
förnöj	-13.5695
förbytt	-13.5696
llret	-13.5697
tågande	-13.5698
utbetala	-13.5698
ohörsamhet	-13.5698
skymfa	-13.57
bygden	-13.5709
upphetta	-13.5714
sextiof	-13.5715
överträdelsen	-13.572
regnskurar	-13.5722
röjd	-13.5724
rättvisan	-13.5728
inympa	-13.573
rådfråga	-13.5732
väsenden	-13.5736
förkastad	-13.5736
strävan	-13.5737
knöt	-13.5737
lama	-13.5738
svala	-13.5741
fördröja	-13.5742
avgudabild	-13.5743
gnist	-13.5745
uttänkt	-13.5748
sidoväggar	-13.5753
våningar	-13.5754
andebesvärj	-13.5755
återkalla	-13.5756
fotsteg	-13.5757
slöjd	-13.5758
piska	-13.5759
salem	-13.5764
lugna	-13.5765
mäten	-13.5766
smädare	-13.5772
mesa	-13.5773
togarma	-13.5775
viloplats	-13.5777
begagnade	-13.5781
mångtusen	-13.5783
hjälmar	-13.5783
bedrövelsen	-13.5783
förklar	-13.5786
gjuter	-13.5792
ihågkomma	-13.5793
straffet	-13.5794
samariter	-13.5794
omåttlig	-13.5795
utmark	-13.58
belasta	-13.5804
nejd	-13.5805
bilhan	-13.5806
ryttaren	-13.5812
anförd	-13.5813
fasor	-13.5818
öländer	-13.582
falske	-13.5822
tygla	-13.5826
rod	-13.5832
leam	-13.5833
bildstoden	-13.5835
save	-13.5844
frestar	-13.5844
genljud	-13.5845
vildåsna	-13.5846
krämar	-13.5846
pinna	-13.5847
panta	-13.585
hama	-13.5851
nasirteck	-13.5855
sönderslit	-13.5858
förfäderna	-13.5863
falskheten	-13.5879
genast	-13.5883
befälhavar	-13.5884
spåman	-13.5885
mate	-13.5886
hängiv	-13.589
rep	-13.5895
oduglig	-13.5899
viktig	-13.5908
avraka	-13.5912
skrivelser	-13.5912
prick	-13.5917
nedtrampa	-13.5927
asena	-13.5927
eben	-13.5928
besvärjelse	-13.5933
fåfängligheter	-13.5934
adiel	-13.5941
genomvandra	-13.5949
modiga	-13.595
fikonen	-13.5954
innehöll	-13.5956
vilan	-13.5958
vrånge	-13.5962
stormodig	-13.597
frukte	-13.5973
abarimberge	-13.5973
trettiof	-13.5975
rådlös	-13.5978
växlar	-13.5981
ättes	-13.5987
friheten	-13.5988
vedergällningen	-13.5989
enskild	-13.5989
manlig	-13.5989
örnar	-13.6
ving	-13.6
åtelse	-13.6013
bullr	-13.6022
nådes	-13.6027
utfärdade	-13.6033
fostr	-13.6039
tillaga	-13.6045
motsatt	-13.6058
dyrkade	-13.6072
rulla	-13.6086
klagade	-13.6089
björninna	-13.6113
smide	-13.6116
anel	-13.6126
flät	-13.6145
undandrag	-13.6145
sbrott	-13.6149
fördömd	-13.6154
pelargång	-13.6159
utsträck	-13.6164
skrin	-13.6171
lien	-13.618
vingårdskniv	-13.618
underhandla	-13.619
karm	-13.6192
vakttorn	-13.6211
förelagd	-13.6212
bistån	-13.6213
juta	-13.6229
fik	-13.6234
samtyck	-13.6239
livsf	-13.6247
idka	-13.6251
hölle	-13.6253
ihjälriv	-13.6266
araba	-13.6274
svansar	-13.6278
redlige	-13.6286
inhämta	-13.6287
ungdomen	-13.6289
spanar	-13.6301
förvarade	-13.6306
tist	-13.6317
värnlös	-13.632
lägrar	-13.6332
lidandet	-13.6334
snidar	-13.6343
jitra	-13.6344
sondotter	-13.6352
bistra	-13.6354
åkerjord	-13.636
star	-13.6363
giftig	-13.6367
pressar	-13.6368
pela	-13.6374
frambäre	-13.638
travar	-13.6384
infödingar	-13.6402
angeläge	-13.6407
vattenflod	-13.6408
kila	-13.6422
utsprid	-13.6425
kenasée	-13.6426
förtyng	-13.6462
hamma	-13.6467
underst	-13.6492
strövskara	-13.6521
bepröva	-13.6534
haese	-13.6538
kesi	-13.6541
kraftiga	-13.6543
laha	-13.6554
uppläst	-13.656
tillstoppa	-13.6564
vedergälle	-13.6572
grymmast	-13.6606
halshugg	-13.6611
bul	-13.6614
farlig	-13.6619
omvälv	-13.6624
ambu	-13.6627
yl	-13.6627
jeterite	-13.6665
födslovånda	-13.6667
nåderik	-13.6687
gifte	-13.6704
kringrän	-13.6722
ammonitisk	-13.6736
samtyckt	-13.6742
dagsljus	-13.6744
alai	-13.6748
hägn	-13.6755
tältplugg	-13.6786
stek	-13.6805
utöva	-13.6814
förtäre	-13.6821
stänkelse	-13.6824
morgonstjärna	-13.6845
fläckad	-13.6854
skallig	-13.6876
vattenströmm	-13.6885
etai	-13.6897
kala	-13.6912
sammanräkna	-13.6912
modlös	-13.6913
starkast	-13.6924
bern	-13.6938
vakter	-13.6938
ör	-13.695
skina	-13.6964
befästning	-13.7014
härligast	-13.705
upptage	-13.7132
vattenkälla	-13.7147
stampa	-13.7238
lämnad	-13.7246
skärm	-13.7249
fridsam	-13.7328
vederf	-13.733
styrke	-13.7348
mpare	-13.7382
beträd	-13.742
listig	-13.7439
parvar	-13.7444
ströv	-13.7485
hantverkar	-13.7496
utbredd	-13.7517
oärlig	-13.7533
sele	-13.7568
nuel	-13.7573
rebs	-13.7588
muel	-13.7597
födslovånd	-13.7639
vägvisar	-13.7697
forsk	-13.7714
kretsar	-13.7724
ulv	-13.7735
edlig	-13.7736
snärj	-13.7757
perser	-13.7793
umgäll	-13.7834
trängd	-13.7846
bestänkt	-13.7846
gälda	-13.7852
angeläg	-13.7933
ginge	-13.7936
skälva	-13.7948
bräckt	-13.7963
högtidsoff	-13.7976
ämnar	-13.8001
snida	-13.8012
trösk	-13.8028
skåde	-13.8043
överhölj	-13.8044
ansvar	-13.8047
hak	-13.8057
beprövad	-13.8058
spana	-13.8066
kananeisk	-13.8099
bedragare	-13.8107
läk	-13.8164
åstund	-13.8166
uttöm	-13.8174
»	-13.8181
nledning	-13.8183
endast	-13.8205
alam	-13.8232
befri	-13.8297
kölden	-13.8308
välva	-13.8333
vål	-13.8352
grundsten	-13.8358
kne	-13.8371
äte	-13.8378
hamn	-13.8423
missa	-13.8426
abarim	-13.8463
bevare	-13.8485
suck	-13.8508
nyfödd	-13.8509
förbann	-13.8535
dövstum	-13.8543
föreläs	-13.8546
jid	-13.8559
beviljad	-13.86
förändrad	-13.865
nedböj	-13.8669
samarit	-13.8684
stenad	-13.8684
läder	-13.8699
mmel	-13.8701
nahal	-13.8702
lekam	-13.8708
handelsvän	-13.8711
synner	-13.8722
kvinn	-13.8723
öd	-13.8731
kilj	-13.8733
värld	-13.8737
uppmuntr	-13.874
avbärgad	-13.8741
atiterna	-13.8741
krävde	-13.8746
mörka	-13.8757
besmitta	-13.8762
almon	-13.8767
tröskvagn	-13.8773
städ	-13.8777
signet	-13.878
legodräng	-13.8793
luka	-13.8803
bågskytt	-13.8805
sluttning	-13.8805
ädling	-13.8811
tillredelse	-13.8811
bekymrad	-13.8825
prisad	-13.8829
röna	-13.883
roff	-13.8831
rappa	-13.8833
yttarna	-13.8837
vältr	-13.8837
tuktad	-13.8848
utrön	-13.8848
geln	-13.8851
valkar	-13.8854
tviv	-13.8858
ntlig	-13.886
ög	-13.8861
ereb	-13.8862
furst	-13.8865
gryning	-13.887
knopp	-13.8874
löjt	-13.8875
luft	-13.8875
syndofferstjur	-13.8876
bokstav	-13.8876
mönstra	-13.8877
forntid	-13.8878
åkermän	-13.8879
morgonrodnad	-13.8879
plikt	-13.8886
vinst	-13.8893
tjänstgör	-13.8894
blin	-13.8895
vredesdom	-13.8897
jaba	-13.89
ckna	-13.8904
bedröv	-13.8914
skändad	-13.8914
oomskurn	-13.8918
split	-13.8918
öste	-13.8918
väpn	-13.8921
tackoffre	-13.8923
tunnkak	-13.8924
hårdnack	-13.8924
snodd	-13.8926
kanané	-13.8927
apostla	-13.8929
fage	-13.8929
ängla	-13.893
offe	-13.893
förkvävd	-13.8931
föl	-13.8932
skeppsb	-13.8932
motståndar	-13.8932
sidokamrar	-13.8933
sidonier	-13.8935
rymme	-13.8935
suga	-13.8935
stridslarm	-13.8936
räden	-13.8937
tydning	-13.8937
stumme	-13.8937
husbonde	-13.8938
hedna	-13.8938
ryg	-13.8938
myn	-13.8939
brädd	-13.8939
täppt	-13.8939
trötte	-13.8939
bulon	-13.8939
uppförd	-13.894
ödslig	-13.8941
förstörelse	-13.8941
fyrfota	-13.8941
kök	-13.8942
spegla	-13.8943
höglju	-13.8943
jarib	-13.8945
ibni	-13.8945
födslo	-13.8945
äpplen	-13.8945
jifta	-13.8945
ginneto	-13.8945
uggla	-13.8945
åsnekäke	-13.8945
5	-13.8945
algumträ	-13.8945
almugträ	-13.8945
areopagen	-13.8945
balaam	-13.8945
barnaskapet	-13.8945
diblataim	-13.8945
drabbningen	-13.8945
duvomånglarna	-13.8945
elpaal	-13.8945
filisteen	-13.8945
filisteisk	-13.8945
gensägelse	-13.8945
hingstar	-13.8945
hjärtlig	-13.8945
hudfläng	-13.8945
ihålig	-13.8945
illgärningsm	-13.8945
jabne	-13.8945
jaleel	-13.8945
kinarot	-13.8945
klor	-13.8945
klyv	-13.8945
lyckönska	-13.8945
lägenhet	-13.8945
läppja	-13.8945
pingst	-13.8945
rämnor	-13.8945
ränkfull	-13.8945
söndersmula	-13.8945
tyranner	-13.8945
uppstudsig	-13.8945
vecklad	-13.8945
yxor	-13.8945
ätbar	-13.8945
bröstspänne	-13.8945
pöl	-13.8945
rådplägning	-13.8945
spält	-13.8945
stympa	-13.8945
äppelträd	-13.8945
ögonbryn	-13.8945
huvudskalleplats	-13.8945
kantklippt	-13.8945
nitisk	-13.8945
tävlings	-13.8945
frikostig	-13.8945
paradis	-13.8945
suham	-13.8945
vinningslystnad	-13.8945
jaddua	-13.8945
laglösheten	-13.8945
oräknelig	-13.8945
tvedräkt	-13.8945
vinmust	-13.8945
▁¦23	-13.8945
▁¦27	-13.8945
jisraja	-13.8945
kelub	-13.8945
krigsöverstar	-13.8945
helkat	-13.8945
soffor	-13.8945
flickor	-13.8945
gråhårsm	-13.8945
hylla	-13.8945
pergam	-13.8945
undslupp	-13.8945
byggnadsverk	-13.8945
nedtryckt	-13.8945
svalka	-13.8945
överhetsperson	-13.8945
tillräcklig	-13.8945
blidka	-13.8945
gederot	-13.8945
balsamera	-13.8945
silhi	-13.8945
mesesabel	-13.8945
hadid	-13.8945
kittel	-13.8945
oljeflaska	-13.8945
sensträngar	-13.8945
bergsklyftorna	-13.8945
skådebrödsborde	-13.8945
bestraffning	-13.8945
diamant	-13.8945
vilobädd	-13.8945
hirom	-13.8945
mortel	-13.8945
basunklang	-13.8945
orion	-13.8945
golgata	-13.8946
kemuel	-13.8946
smyg	-13.8946
krigsduglig	-13.8946
linnebindlar	-13.8946
dimon	-13.8946
hivéer	-13.8946
herodianer	-13.8946
utgrena	-13.8946
avbildningar	-13.8946
outgrundlig	-13.8946
lerskärv	-13.8946
jaseel	-13.8946
hagla	-13.8946
sbefolkningen	-13.8946
tassla	-13.8946
obeam	-13.8946
återhållsam	-13.8946
bågskott	-13.8946
samgar	-13.8946
bottenram	-13.8946
murbyggnaden	-13.8946
tessalonikerna	-13.8946
nådegåvor	-13.8946
uppfrätt	-13.8946
kanaler	-13.8946
kedje	-13.8946
nilen	-13.8946
rafa	-13.8946
besläktad	-13.8946
anförtro	-13.8946
lejoninnor	-13.8946
trolösheten	-13.8946
bänk	-13.8946
eltek	-13.8946
blad	-13.8946
begravningsplats	-13.8946
rovgirig	-13.8946
korpen	-13.8947
sofer	-13.8947
förvillelse	-13.8947
göromål	-13.8947
halsprydnad	-13.8947
hopknåda	-13.8947
pantrar	-13.8947
lockelse	-13.8947
förebråelse	-13.8947
belägringsvall	-13.8947
edsförbund	-13.8947
giltig	-13.8947
segling	-13.8947
penningbegär	-13.8947
tamarisk	-13.8947
farsote	-13.8947
domssköld	-13.8947
mahalat	-13.8948
sporde	-13.8948
fnys	-13.8948
kopparbågen	-13.8948
avfälling	-13.8948
gemak	-13.8948
återspegla	-13.8948
gensvar	-13.8948
högtidsskara	-13.8948
jätt	-13.8948
uråldrig	-13.8948
besättning	-13.8948
jisba	-13.8948
rännor	-13.8948
mehu	-13.8949
helek	-13.8949
troll	-13.8949
släktledning	-13.8949
apol	-13.8949
skogar	-13.8949
svartsjuk	-13.8949
subael	-13.8949
netofatiterna	-13.8949
köpmans	-13.895
rättighet	-13.895
fotbojor	-13.895
nearja	-13.895
störtflod	-13.895
söndertröska	-13.895
betvinga	-13.895
utlänningar	-13.895
pilne	-13.895
obegriplig	-13.895
minadab	-13.8951
trycklig	-13.8951
konstarbetare	-13.8951
missunnsam	-13.8951
jaasiel	-13.8951
lågorna	-13.8951
gareb	-13.8951
vitmening	-13.8951
teckentydar	-13.8951
skämta	-13.8951
ödslighet	-13.8951
färj	-13.8952
konungadöttrar	-13.8952
krukmakare	-13.8952
härskarstav	-13.8952
knut	-13.8952
stammande	-13.8952
psalmerna	-13.8952
tåre	-13.8953
gäldenäre	-13.8953
borttappa	-13.8953
nedsänkt	-13.8953
lägerhyddor	-13.8953
undangömd	-13.8953
konungadotter	-13.8953
luc	-13.8953
vildoxen	-13.8954
flugor	-13.8954
vindri	-13.8954
kedemot	-13.8954
stirra	-13.8954
långvarig	-13.8955
fulltalig	-13.8955
tackoffersdjuret	-13.8955
utplånad	-13.8955
tiostränga	-13.8955
uppfyllelse	-13.8956
uppställd	-13.8956
kringströdd	-13.8956
skum	-13.8956
framalstra	-13.8957
föraktlig	-13.8957
örontasslaren	-13.8957
krigarna	-13.8957
aftnar	-13.8958
uppliva	-13.8958
revben	-13.8958
segerlön	-13.8958
rtad	-13.8958
myndig	-13.8958
lögnaktighet	-13.8958
förstörelsen	-13.8959
mores	-13.8959
vang	-13.896
timmar	-13.8961
betsemesite	-13.8961
fågelfängaren	-13.8962
blekna	-13.8963
huvudskål	-13.8963
stinka	-13.8963
konja	-13.8963
trapphus	-13.8963
beräkning	-13.8964
kokning	-13.8964
hosaja	-13.8965
bortrensa	-13.8965
mehi	-13.8966
framhärda	-13.8967
fläderm	-13.8967
fera	-13.8967
förbundsblod	-13.8968
beraka	-13.8968
hejd	-13.8968
hetitisk	-13.8969
innesluta	-13.897
sydsida	-13.897
byggnaderna	-13.8971
ladan	-13.8972
jägaren	-13.8973
sjustjärnorna	-13.8973
redbar	-13.8974
eftertr	-13.8974
uteslut	-13.8974
inbrott	-13.8975
skuldoffersvädur	-13.8975
vredg	-13.8975
misshaglig	-13.8977
klenod	-13.8978
dagsverke	-13.8979
sönderbryta	-13.8979
frad	-13.8979
ohelbar	-13.8979
ängarna	-13.898
juli	-13.8981
vattenflöde	-13.8982
sigill	-13.8982
flöjter	-13.8982
antände	-13.8982
vägskäle	-13.8983
reka	-13.8984
tirha	-13.8985
skattskriva	-13.8985
klädkammar	-13.8986
blinka	-13.8986
smö	-13.8986
kräva	-13.8987
nikola	-13.899
bordsgästerna	-13.8991
slaktoffre	-13.8993
tempelhuset	-13.8993
borttorka	-13.8993
jek	-13.8994
hassi	-13.8994
tyngd	-13.8995
betrycket	-13.8995
niel	-13.8998
örsv	-13.8998
sifja	-13.8998
asasja	-13.8999
höfter	-13.8999
familjehövdingar	-13.8999
meron	-13.8999
knäböj	-13.9
lejoninnan	-13.9
tjär	-13.9001
omsnärj	-13.9002
spunn	-13.9003
grumla	-13.9004
nykter	-13.9007
lydaktig	-13.9007
smärtor	-13.9007
förförelser	-13.9008
uppbådade	-13.901
skingrade	-13.9012
förorätta	-13.9013
förgrymmade	-13.9013
föreläsa	-13.9014
etri	-13.9016
köpare	-13.9018
sammanhålla	-13.9018
överfogdar	-13.902
förpliktelser	-13.9021
upptecknad	-13.9022
unno	-13.9023
rådklok	-13.9024
bokstaven	-13.9024
gryningen	-13.9025
ribai	-13.9026
upprättad	-13.9026
förkväva	-13.9029
lappa	-13.9029
förarg	-13.903
förrådskamrar	-13.903
lastar	-13.9037
stenbock	-13.9039
eglat	-13.904
majestätet	-13.9042
rundlar	-13.9046
tabba	-13.9047
brunne	-13.905
fortgå	-13.9051
omstörtning	-13.9051
testamente	-13.9058
torftig	-13.9058
salman	-13.906
inbärgar	-13.9063
aksi	-13.9065
konungagrav	-13.9067
verkning	-13.9068
vistelse	-13.9069
krydda	-13.9069
våldsamma	-13.907
veke	-13.9075
öppnad	-13.9082
amalekit	-13.9083
begån	-13.9084
vildmarken	-13.9086
rörstav	-13.9094
liknelsen	-13.9095
fridsamma	-13.9096
slupp	-13.9097
rådsförsamling	-13.9098
mandelträd	-13.9099
pua	-13.9099
karta	-13.91
legodrängar	-13.91
asga	-13.9104
pust	-13.9106
ytterbyggnad	-13.9108
öppn	-13.9109
koleld	-13.911
simra	-13.9116
greken	-13.9117
simeat	-13.9118
ihågkomm	-13.9119
plundrar	-13.9131
vaktkammare	-13.9134
bebåda	-13.9135
honungskaka	-13.9137
iglat	-13.9138
dörröppningar	-13.9139
bergstoppar	-13.9139
trappor	-13.9139
joadda	-13.9143
handl	-13.9148
uppmuntran	-13.9155
tillägna	-13.9159
förhindrade	-13.9163
frust	-13.9171
sinéerna	-13.9178
uppfylle	-13.918
jär	-13.9197
ickor	-13.9218
mittel	-13.9225
undr	-13.9232
äkte	-13.9235
förstlingsgåv	-13.9235
läge	-13.9245
emarja	-13.9276
:	-14.3445
!	-14.3466
6	-14.3945
3	-14.3945
]	-14.3945
7	-14.3945
é	-15.3926
á	-15.3945
8	-16.3964
4	-16.3965
(	-16.3966
?	-16.3967
.	-16.3968
ä	-16.3969
