<pad>	0
</s>	0
<unk>	0
▁¦	-0
ို	-1
▁်	-2
ော	-3
င်	-4
ား	-5
ည်	-6
ကို	-7
တို	-8
သော	-9
ကြ	-10
က်	-11
ရှ	-12
တော	-13
င်း	-14
▁အ	-15
ပြ	-16
သည်	-17
▁့	-18
▁သ	-19
န်	-20
တို့	-21
၏။	-22
▁မ	-23
နှ	-24
င့်	-25
တော်	-26
ုရ	-27
မျ	-28
မှ	-29
တ်	-30
ို့	-31
မူ	-32
ဘုရ	-33
ိမ	-34
ငါ	-35
▁့်	-36
ဖြ	-37
သူ	-38
▁ထ	-39
ခြ	-40
စ်	-41
ီး	-42
သည	-43
ိုး	-44
ေး	-45
ဘုရား	-46
မြ	-47
လျ	-48
ကျ	-49
ယ်	-50
ရှိ	-51
ပ်	-52
ုံ	-53
▁၊	-54
ည်း	-55
ောက်	-56
ရာ	-57
ဟု	-58
ပါ	-59
ချ	-60
▁လ	-61
▁ငါ	-62
ေါ	-63
သား	-64
စေ	-65
နှင့်	-66
မည်	-67
ကြော	-68
ကား	-69
သို့	-70
▁တ	-71
တော်မူ	-72
၍၊	-73
တို့သည်	-74
ာဝ	-75
နေ	-76
ာဝရ	-77
ခြင်း	-78
မျိုး	-79
▁ထို	-80
▁ယ	-81
▁သူ	-82
▁၏။	-83
ိမ်	-84
ာဝရဘုရား	-85
လျှ	-86
ပေါ	-87
??	-88
▁သင်	-89
လော	-90
▁စ	-91
အား	-92
သောသူ	-93
ုံး	-94
တို့ကို	-95
ွန်	-96
ွား	-97
ပြု	-98
▁ပ	-99
ောင်	-100
ဖြစ်	-101
ခါ	-102
သောအ	-103
ရေ	-104
တွ	-105
မည်။	-106
ုပ်	-107
အမျိုး	-108
သခ	-109
ောက	-110
မှာ	-111
သို	-112
မည	-113
ောင	-114
ဆို	-115
်း	-116
ခံ	-117
သင	-118
များ	-119
နှင	-120
လည်း	-121
▁်၊	-122
လူ	-123
ိန်	-124
▁ကို	-125
ကြီး	-126
ငှ	-127
▁ရ	-128
ထို	-129
▁က	-130
ဘုရားသခ	-131
လေ	-132
▁န	-133
▁။	-134
ကြ၏။	-135
▁ထာဝရဘုရား	-136
ခြင	-137
မျှ	-138
ရှေ	-139
▁မြ	-140
ငှါ	-141
▁ပြ	-142
င်း၊	-143
မ်း	-144
▁ဆ	-145
ကျွန်	-146
င်၊	-147
ိမ့်	-148
ုန်	-149
ိတ်	-150
သွား	-151
ွှ	-152
မြို့	-153
ပြီ	-154
ူး	-155
ဲ့	-156
လျက်	-157
မှု	-158
အဘ	-159
ထား	-160
သရေ	-161
▁ကိုယ်	-162
ဖြင့်	-163
လာ	-164
▁်။	-165
????	-166
မိ	-167
အပေါ	-168
ိမိ	-169
လိမ့်	-170
လို	-171
ွာ	-172
ထာဝရဘုရား	-173
▁၍	-174
ွန	-175
▁္	-176
ကား၊	-177
ွေ	-178
ဣသရေ	-179
ဣသရေလ	-180
ောင်း	-181
▁ရှ	-182
ဖြစ	-183
▁ခ	-184
လည	-185
ုပ	-186
▁လူ	-187
▁ကြ	-188
ရား	-189
▁၏	-190
ပေး	-191
ုတ်	-192
▁အဘ	-193
လုံး	-194
ိတ	-195
ုတ	-196
ကြောင	-197
ဘုရားသခင်	-198
အသ	-199
ော်	-200
နာ	-201
▁ငါ့	-202
ွေး	-203
ပြည်	-204
ကြောင့်	-205
ုန	-206
၎င်း၊	-207
သာ	-208
လော့	-209
ပါး	-210
တော်မူ၏။	-211
ိုင်	-212
ဉ်	-213
ပြီး	-214
ဝိ	-215
ေရ	-216
လျှင်၊	-217
▁ကျ	-218
စာ	-219
အရ	-220
ကျွန်ုပ်	-221
သန	-222
လိမ့်မည်။	-223
ကြောင်း	-224
▁်၌	-225
ိန့်	-226
သောအခါ	-227
သူတို	-228
မြို	-229
အမျိုးသား	-230
ရှု	-231
ကာ	-232
ပြော	-233
သေ	-234
သမျှ	-235
သတ	-236
ည်း။	-237
ထဲ	-238
စွာ	-239
ကိုယ	-240
ဟူ	-241
ခြင်းငှါ	-242
စား	-243
▁ဘုရားသခင်	-244
နှစ်	-245
တော်ကို	-246
▁အဘယ်	-247
▁၌	-248
ပျ	-249
▁အကျွန်ုပ်	-250
ွဲ	-251
▁သင်တို့	-252
ည့်	-253
▁ဗ	-254
▁ချ	-255
ရှင	-256
လော့။	-257
ခံရ	-258
ရှိသော	-259
ရှင်	-260
လည်း၊	-261
စကား	-262
အတို	-263
တရား	-264
လေ၏။	-265
▁အသ	-266
သက	-267
္တ	-268
▁မိမိ	-269
▁်၏	-270
းကို	-271
ွက်	-272
းမ	-273
ညာ	-274
▁သူတို့	-275
▁အာ	-276
ကျွန	-277
တတ်	-278
စုံ	-279
▁ဝ	-280
လျှင	-281
▁ဣသရေလ	-282
သိ	-283
▁ဒ	-284
▁်၍	-285
လိမ	-286
လွှ	-287
▁နေ	-288
ဇ်	-289
ပြည	-290
▁ဘ	-291
လှ	-292
ထံ	-293
ိုင	-294
အမှု	-295
နား	-296
လျက	-297
သော်	-298
ဖြင	-299
▁ဤ	-300
ပြီ။	-301
ုဒ	-302
ပြစ်	-303
မိန	-304
ရှေ့	-305
တွင်	-306
ဲ့သို့	-307
ဘဲ	-308
မီး	-309
တူ	-310
န်း	-311
အရာ	-312
ိုက်	-313
ယူ	-314
ရဲ	-315
ောင့်	-316
ံ့	-317
န့်	-318
▁၍၊	-319
ဘုရင်	-320
တိုင်	-321
▁မိန့်	-322
အာ	-323
▁ဟ	-324
ပေါ်	-325
အခါ	-326
ီရ	-327
▁ကိုယ်တော်	-328
ရိ	-329
လင်	-330
ကွ	-331
နိုင်	-332
ဘုရားသခင	-333
မူကား၊	-334
လက	-335
အပေါင်း	-336
ခု	-337
▁ဖ	-338
အစ	-339
▁သို့	-340
ယောက်	-341
သဖြင့်	-342
လက်	-343
ညီ	-344
ျက်	-345
▁ကောင်း	-346
များကို	-347
တွင	-348
ခြင်းကို	-349
ောဟ	-350
ကောင	-351
တပါး	-352
လျက်၊	-353
မရှိ	-354
▁သည်	-355
ဦး	-356
တည	-357
ရော	-358
????????	-359
ခေါ	-360
▁ဖြစ်	-361
တိ	-362
▁နှ	-363
ရှိသမျှ	-364
ဖန်	-365
▁မှ	-366
▁သား	-367
▁ပြု	-368
ူဇ	-369
▁ငါသည်	-370
▁ဧ	-371
▁ထိုသူ	-372
က၊	-373
ကြား	-374
နေ့	-375
မည်ဟု	-376
ဒ်	-377
▁်၍၊	-378
▁ယဇ်	-379
▁့။	-380
ေရှု	-381
မာ	-382
▁့်၊	-383
တံ	-384
ျား	-385
▁သော	-386
စ္	-387
ါဝိ	-388
ဘက်	-389
လု	-390
မင	-391
ပြီးမှ	-392
▁သင့်	-393
မင်း	-394
ရကြ	-395
အဘယ	-396
ခွ	-397
ေလ	-398
ေရု	-399
းတို	-400
ရှင်း	-401
အချ	-402
▁သင်သည်	-403
စေခြင်းငှါ	-404
လျှင်	-405
▁သင်၏	-406
▁်၏။	-407
ရှိ၏။	-408
ထောင်	-409
လင	-410
စရာ	-411
အကြောင	-412
▁၎	-413
မဟု	-414
ပုရ	-415
▁တော	-416
▁င	-417
အကျွန	-418
▁သင်တို့သည်	-419
အောင်	-420
တတ	-421
မိမိ	-422
▁မြေ	-423
ဝေး	-424
းငှါ	-425
စကားကို	-426
▁သူတို့သည်	-427
ကာလ	-428
▁	-429
¦	-430
်	-431
ာ	-432
ု	-433
ိ	-434
ေ	-435
း	-436
သ	-437
က	-438
င	-439
မ	-440
တ	-441
့	-442
ရ	-443
ြ	-444
အ	-445
ှ	-446
ည	-447
န	-448
လ	-449
ပ	-450
စ	-451
၊	-452
ျ	-453
ူ	-454
ခ	-455
။	-456
ါ	-457
ွ	-458
၏	-459
ထ	-460
ယ	-461
ဘ	-462
ံ	-463
ီ	-464
ဖ	-465
၍	-466
ဆ	-467
ဝ	-468
ဟ	-469
ဲ	-470
၌	-471
?	-472
္	-473
ဒ	-474
ဇ	-475
ဗ	-476
၎	-477
ဉ	-478
ဂ	-479
ဣ	-480
ဤ	-481
ဏ	-482
ဧ	-483
ဥ	-484
ဦ	-485
ဃ	-486
ဌ	-487
ဩ	-488
ဓ	-489
ဋ	-490
ဿ	-491
-	-492
ဍ	-493
ဈ	-494
ဠ	-495
ဪ	-496
