<pad>	0
</s>	0
<unk>	0
▁¦	-0
▁𐋇	-1
ti	-2
▁,	-3
ai	-4
in	-5
os	-6
ri	-7
pa	-8
au	-9
▁.	-10
si	-11
ir	-12
al	-13
ar	-14
an	-15
en	-16
as	-17
ei	-18
am	-19
im	-20
to	-21
su	-22
ro	-23
es	-24
ko	-25
tu	-26
ki	-27
ka	-28
ra	-29
st	-30
ku	-31
li	-32
vi	-33
mo	-34
ne	-35
ės	-36
či	-37
tai	-38
tin	-39
er	-40
at	-41
dė	-42
kad	-43
ij	-44
us	-45
pri	-46
mi	-47
tų	-48
yb	-49
ši	-50
me	-51
po	-52
tik	-53
ta	-54
ek	-55
kai	-56
iš	-57
pr	-58
uo	-59
gal	-60
eu	-61
je	-62
euro	-63
kuri	-64
ių	-65
eik	-66
dėl	-67
dar	-68
sa	-69
bū	-70
cij	-71
di	-72
re	-73
gi	-74
min	-75
europ	-76
vo	-77
ms	-78
no	-79
▁𐊣	-80
ant	-81
rin	-82
te	-83
ju	-84
europos	-85
ma	-86
ži	-87
jo	-88
par	-89
end	-90
ap	-91
kl	-92
tar	-93
ausi	-94
rė	-95
imo	-96
tei	-97
ab	-98
var	-99
jos	-100
ke	-101
pro	-102
aug	-103
už	-104
do	-105
val	-106
prie	-107
yra	-108
pat	-109
ais	-110
jų	-111
yv	-112
pir	-113
vy	-114
tas	-115
ly	-116
▁-	-117
yti	-118
de	-119
mon	-120
bu	-121
pasi	-122
ie	-123
komi	-124
ini	-125
są	-126
ja	-127
nu	-128
mu	-129
čiau	-130
turi	-131
mą	-132
aus	-133
susi	-134
dži	-135
ama	-136
mas	-137
man	-138
lai	-139
be	-140
nau	-141
bi	-142
ci	-143
teis	-144
sti	-145
sų	-146
is	-147
imą	-148
on	-149
ame	-150
taip	-151
men	-152
veik	-153
šal	-154
mis	-155
na	-156
rei	-157
tr	-158
lam	-159
tą	-160
pas	-161
svar	-162
styb	-163
valstyb	-164
inti	-165
ing	-166
kaip	-167
ng	-168
tos	-169
komisi	-170
av	-171
▁(	-172
imas	-173
pirmin	-174
bend	-175
cijos	-176
lamen	-177
jung	-178
du	-179
eš	-180
pirminin	-181
kos	-182
čių	-183
▁)	-184
tis	-185
ve	-186
pran	-187
per	-188
mų	-189
vien	-190
le	-191
lab	-192
ky	-193
gali	-194
ty	-195
kia	-196
lo	-197
ni	-198
ams	-199
klausi	-200
mes	-201
vai	-202
gr	-203
darb	-204
poli	-205
vis	-206
nuo	-207
parlamen	-208
or	-209
kur	-210
gyv	-211
ver	-212
galim	-213
kon	-214
pra	-215
praneš	-216
turė	-217
sąjung	-218
uos	-219
pi	-220
oje	-221
būtų	-222
ūsų	-223
kal	-224
▁¦2	-225
reik	-226
žin	-227
buvo	-228
va	-229
▁"	-230
ger	-231
mok	-232
būti	-233
labai	-234
nes	-235
nar	-236
kar	-237
ys	-238
ui	-239
tari	-240
savo	-241
ūr	-242
saug	-243
dal	-244
pl	-245
sk	-246
sie	-247
ijos	-248
daug	-249
bal	-250
bus	-251
pirmininke	-252
ami	-253
ge	-254
tus	-255
lin	-256
norė	-257
ėj	-258
amas	-259
anči	-260
mūsų	-261
eng	-262
spr	-263
apie	-264
kas	-265
todėl	-266
lyg	-267
eko	-268
že	-269
oj	-270
pag	-271
ką	-272
din	-273
ybos	-274
▁¦20	-275
atsi	-276
ste	-277
toj	-278
priemon	-279
padė	-280
tačiau	-281
eig	-282
tarp	-283
ekono	-284
komisijos	-285
nari	-286
vyk	-287
inan	-288
ties	-289
mos	-290
norėčiau	-291
bet	-292
tais	-293
ose	-294
vir	-295
tikrin	-296
dy	-297
kin	-298
da	-299
ėms	-300
ter	-301
skir	-302
jau	-303
kyti	-304
so	-305
amos	-306
mus	-307
kalb	-308
auk	-309
veiks	-310
reikal	-311
keli	-312
stat	-313
tini	-314
pasiū	-315
lie	-316
finan	-317
umo	-318
0¦	-319
usi	-320
ak	-321
aiš	-322
augi	-323
for	-324
cial	-325
ją	-326
paž	-327
turime	-328
pasiūly	-329
pak	-330
mano	-331
inių	-332
omis	-333
užtikrin	-334
vie	-335
▁¦1	-336
esn	-337
sav	-338
darbo	-339
dir	-340
der	-341
kri	-342
sku	-343
proc	-344
sprend	-345
tori	-346
turėtų	-347
reikia	-348
šiuo	-349
sri	-350
prieš	-351
iz	-352
lei	-353
žmon	-354
mė	-355
mės	-356
kurie	-357
ang	-358
naudo	-359
tiks	-360
sieki	-361
ji	-362
skai	-363
pagrin	-364
manau	-365
dien	-366
valstybės	-367
oms	-368
suo	-369
nai	-370
politik	-371
sąjungos	-372
dab	-373
ch	-374
gin	-375
dabar	-376
tikr	-377
aš	-378
ry	-379
tau	-380
maž	-381
cija	-382
ekt	-383
ank	-384
pagal	-385
ba	-386
duo	-387
¦	-388
▁	-389
i	-390
a	-391
s	-392
t	-393
r	-394
o	-395
e	-396
n	-397
u	-398
k	-399
m	-400
p	-401
l	-402
d	-403
v	-404
j	-405
𐋇	-406
g	-407
,	-408
b	-409
ų	-410
y	-411
ė	-412
š	-413
.	-414
ą	-415
ž	-416
į	-417
ū	-418
c	-419
č	-420
f	-421
z	-422
𐊣	-423
𐊼	-424
ę	-425
0	-426
-	-427
2	-428
(	-429
)	-430
h	-431
1	-432
"	-433
:	-434
5	-435
9	-436
?	-437
3	-438
7	-439
4	-440
8	-441
;	-442
6	-443
/	-444
w	-445
!	-446
x	-447
q	-448
é	-449
%	-450
á	-451
'	-452
ö	-453
è	-454
í	-455
ó	-456
ü	-457
+	-458
ş	-459
ä	-460
ă	-461
&	-462
[	-463
]	-464
ń	-465
ß	-466
ć	-467
°	-468
ø	-469
ú	-470
ţ	-471
à	-472
ê	-473
ï	-474
ķ	-475
ł	-476
ň	-477
ő	-478
·	-479
ç	-480
ñ	-481
ý	-482
ż	-483
_	-484
ò	-485
ī	-486
ľ	-487
ř	-488
ś	-489
̨	-490
έ	-491
π	-492
ρ	-493
υ	-494
”	-495
•	-496
