<pad>	0
</s>	0
<unk>	0
ܐ	-2.80244
ܘ	-3.60433
ܝ	-3.68088
▁	-3.88085
ܢ	-3.88237
ܬ	-3.90923
ܗ	-3.97249
▁ܕ	-3.99326
ܝܢ	-4.00419
▁ܒ	-4.17881
ܡ	-4.2328
ܠ	-4.38399
ܟ	-4.39408
ܪ	-4.46088
ܫ	-4.47273
▁ܡܢ	-4.48335
ܕ	-4.4995
ܒ	-4.52672
▁ܐ	-4.55787
ܩ	-4.56004
ܦ	-4.61654
ܤ	-4.62427
ܬܐ	-4.6277
▁ܡ	-4.63223
▁ܠ	-4.64966
▁ܠܐ	-4.69234
ܚ	-4.72687
▁ܗܘ	-4.7339
▁ܘ	-4.73534
ܘܢ	-4.8094
ܥ	-4.8172
▁ܕܝܢ	-4.85796
▁ܠܗ	-4.8645
ܛ	-4.87562
ܢܐ	-4.90848
▁ܗܘܐ	-5.12705
▁ܥܠ	-5.14697
▁ܢ	-5.15544
ܙ	-5.19233
▁ܐܢܐ	-5.20216
ܓ	-5.2314
ܘܗܝ	-5.33816
ܘܬܐ	-5.36122
▁ܓܝܪ	-5.38373
ܡܐ	-5.39664
▁ܐܡܪ	-5.40433
▁ܕܢ	-5.40508
▁ܕܡ	-5.41544
ܝܬ	-5.44058
ܝܐ	-5.44557
▁ܠܡ	-5.44771
▁ܬ	-5.45839
ܠܐ	-5.51964
ܨ	-5.533
▁ܫ	-5.5811
▁ܐܝܟ	-5.59086
▁ܚ	-5.63179
▁ܝܫܘܥ	-5.63599
▁ܘܠܐ	-5.67385
▁ܠܗܘܢ	-5.68101
▁ܘܡ	-5.68828
▁ܐܠ	-5.70704
▁ܘܐ	-5.71051
▁ܐܢܬܘܢ	-5.72538
▁ܐܬ	-5.7343
▁ܘܐܡܪ	-5.73834
▁ܐܦ	-5.74298
▁ܗܘܘ	-5.74668
ܪܐ	-5.74713
▁ܟܕ	-5.75405
▁ܕܐ	-5.75862
▁ܕܠܐ	-5.79779
▁ܕܒ	-5.80016
▁ܘܒ	-5.81562
ܟܘܢ	-5.83739
▁ܡܛܠ	-5.85406
ܒܪ	-5.86647
ܟܠ	-5.86854
▁ܚܕ	-5.87368
▁ܠܟܘܢ	-5.87698
▁ܥܡ	-5.90314
ܫܐ	-5.95471
ܝܠܝܢ	-5.96474
▁ܘܠ	-5.97832
▁ܕܐܠܗܐ	-6.00412
▁ܗܝ	-6.00603
▁ܥ	-6.03866
▁ܗ	-6.04043
▁ܐܢܬ	-6.07194
ܒܝ	-6.07942
ܬܗ	-6.09113
ܘܪ	-6.11149
ܒܐ	-6.13102
▁ܐܢ	-6.13312
ܪܝ	-6.14208
ܠܝ	-6.16016
▁ܘܢ	-6.16058
▁ܒܗ	-6.16811
▁ܠܝ	-6.16941
▁ܐܠܗܐ	-6.1709
▁ܛ	-6.18531
ܡܪ	-6.18614
▁ܥܒܕ	-6.18683
▁ܕܚ	-6.20868
▁ܗܢܐ	-6.21159
▁ܦ	-6.24862
▁ܐܢܘܢ	-6.25312
▁ܗܠܝܢ	-6.26833
ܕܝܢ	-6.27779
ܢܝ	-6.28905
ܝܗܘܢ	-6.31081
▁ܘܟܕ	-6.31465
ܗܘܢ	-6.32045
ܘܤ	-6.3333
▁ܤ	-6.33374
▁ܠܟ	-6.34085
ܥܒܕ	-6.3516
▁ܡܬ	-6.35528
▁ܐܝܬ	-6.35631
ܕܐ	-6.36347
▁ܟܠ	-6.36787
▁ܘܕ	-6.37218
▁ܡܫܝܚܐ	-6.38059
▁ܡܕܡ	-6.39114
ܝܪ	-6.39976
ܝܠ	-6.41014
ܚܐ	-6.41085
ܠܟ	-6.42402
ܫܠܡ	-6.42659
▁ܙ	-6.43049
▁ܕܬ	-6.4341
ܝܘ	-6.46848
▁ܩܕܡ	-6.47027
▁ܘܐܬ	-6.47126
ܬܘܢ	-6.47573
▁ܐܢܫ	-6.47845
ܟܝܠ	-6.48612
ܝܟ	-6.49234
ܩܘ	-6.49418
ܕܡ	-6.4945
▁ܘܫ	-6.50622
▁ܪܒ	-6.51122
ܠܦ	-6.52441
ܦܪ	-6.53197
ܟܪ	-6.54955
ܘܒ	-6.54992
▁ܠܘܬ	-6.57555
▁ܐܘ	-6.58019
▁ܒܪ	-6.59284
▁ܘܡܢ	-6.59398
▁ܗܕܐ	-6.59915
ܝܬܐ	-6.60322
▁ܕܠ	-6.60663
▁ܓ	-6.61688
▁ܥܕ	-6.61737
▁ܠܢ	-6.61762
▁ܘܐܢ	-6.62767
ܬܪ	-6.63003
ܝܗ	-6.63758
▁ܕܐܝܬ	-6.64046
▁ܗܢܘܢ	-6.64197
ܪܥ	-6.64673
ܪܘ	-6.68302
▁ܘܩ	-6.68422
ܕܥ	-6.69277
▁ܕܡܢ	-6.71226
ܡܢ	-6.71271
▁ܘܚ	-6.72535
ܘܬܗ	-6.72807
▁ܚܙ	-6.7393
ܘܡ	-6.74534
ܘܬ	-6.74715
ܠܝܢ	-6.75868
ܚܪ	-6.76208
▁ܝܕܥ	-6.78156
ܩܪ	-6.79098
ܚܕ	-6.79669
ܥܠ	-6.80327
▁ܚܝ	-6.81688
ܒܗ	-6.8176
ܒܠ	-6.82024
ܝܟܘܢ	-6.82437
ܩܕ	-6.83232
▁ܕܐܬ	-6.84325
▁ܟܠܗ	-6.84377
ܙܒܢ	-6.8449
ܚܝ	-6.85716
ܒܘ	-6.85805
ܛܪ	-6.86669
ܤܪ	-6.87867
▁ܡܪܝ	-6.87885
ܒܥ	-6.89119
ܡܠܠ	-6.89984
▁ܘܬ	-6.91093
ܚܘ	-6.9146
▁ܘܗܘ	-6.91781
▁ܒܝܬ	-6.91843
ܪܡ	-6.92322
ܝܗܝ	-6.94003
▁ܤܓܝܐܐ	-6.94072
▁ܕܐܢ	-6.94505
▁ܒܡ	-6.94611
ܪܝܢ	-6.95306
ܪܟ	-6.95546
ܕܝ	-6.95842
ܩܠ	-6.98424
▁ܗܟܢܐ	-6.98553
▁ܕܗܘ	-6.9922
▁ܒܬܪ	-6.99612
▁ܘܤ	-7.01831
ܝܢܢ	-7.04631
▁ܟܠܗܘܢ	-7.05143
▁ܓܒܪܐ	-7.05147
▁ܗܘܬ	-7.05223
ܠܝܐ	-7.05594
▁ܫܡܥ	-7.06616
ܓܪ	-7.06769
▁ܢܬ	-7.06964
▁ܡܫܟܚ	-7.07091
▁ܘܗ	-7.07731
▁ܚܢܢ	-7.0832
▁ܢܗܘܐ	-7.09105
▁ܘܥ	-7.09874
ܝܩ	-7.10045
ܘܪܐ	-7.10051
ܬܟܘܢ	-7.1034
▁ܪܘܚܐ	-7.11435
▁ܐܚܝ	-7.11833
▁ܕܐܡܪ	-7.11908
ܫܝ	-7.12129
▁ܐܬܐ	-7.12635
▁ܝܘ	-7.12736
ܟܝ	-7.13275
ܒܥܐ	-7.14822
▁ܒܢܝ	-7.16353
▁ܩܪ	-7.16887
▁ܠܐܠܗܐ	-7.17548
▁ܘܐܡܪܝܢ	-7.17711
ܩܐ	-7.18903
▁ܒܫ	-7.19579
ܚܡ	-7.20502
ܘܕܝ	-7.2109
ܫܡܫ	-7.21386
▁ܬܡܢ	-7.21908
ܪܬܐ	-7.22708
ܚܙܐ	-7.22737
ܤܓܝ	-7.2371
▁ܢܦܫ	-7.23775
▁ܘܟܠ	-7.2532
ܫܪ	-7.25722
▁ܕܤ	-7.25939
ܝܡܐ	-7.26075
ܨܒ	-7.26786
▁ܘܥܠ	-7.27555
▁ܐܙܠ	-7.27588
ܛܝܒ	-7.31162
▁ܐܡܪܝܢ	-7.3129
▁ܨ	-7.31362
ܐܝܬ	-7.31578
▁ܗܘܝܬ	-7.3213
▁ܐܤ	-7.33009
▁ܐܡܝܢ	-7.34113
▁ܕܐܦ	-7.34444
ܐܪܥܐ	-7.34466
▁ܘܐܝܬ	-7.34577
▁ܠܒܪ	-7.34584
▁ܝܕܥܝܢ	-7.34769
▁ܠܒ	-7.35658
▁ܗܝܡܢܘ	-7.35787
ܬܗܘܢ	-7.35929
ܩܪܒ	-7.38623
▁ܐܫܬ	-7.39396
▁ܢܦܩ	-7.39867
▁ܒܚ	-7.40199
ܝܬܘܢ	-7.40497
▁ܥܠܘܗܝ	-7.40807
ܟܢܫ	-7.40875
▁ܬܘܒ	-7.41016
▁ܝܬܝܪ	-7.41062
▁ܡܠܬܐ	-7.43234
▁ܐܝܟܢ	-7.43581
▁ܘܪ	-7.43879
ܓܕ	-7.4441
ܕܚܠ	-7.45412
ܠܚ	-7.45526
ܩܢ	-7.46121
ܗܢܘܢ	-7.46484
▁ܒܪܗ	-7.46541
▁ܕܥܡ	-7.46711
▁ܡܫ	-7.46738
ܫܡܥ	-7.47345
▁ܡܢܗ	-7.48055
▁ܡܗܝܡܢ	-7.48248
▁ܕܥܒܕ	-7.51079
▁ܘܐܦ	-7.51214
▁ܡܐ	-7.51455
▁ܒܠܚܘܕ	-7.53638
▁ܗܫܐ	-7.5378
▁ܕܦ	-7.5395
▁ܢܤܒ	-7.54897
▁ܐܢܫܐ	-7.56035
▁ܝܗܘܕܝܐ	-7.56244
▁ܕܝܫܘܥ	-7.57107
▁ܫܘ	-7.57122
▁ܕܟܠ	-7.57657
▁ܡܢܗܘܢ	-7.58172
▁ܠܘܬܗ	-7.58371
▁ܫܪܝ	-7.58735
▁ܗܘܝܬܘܢ	-7.59197
▁ܐܚܪܢܐ	-7.59349
▁ܢܦܫܗ	-7.5961
▁ܡܫܬ	-7.59751
▁ܫܡܝܐ	-7.60233
ܪܒܐ	-7.60537
▁ܝܗܒ	-7.61131
▁ܡܚ	-7.61345
ܥܒܪ	-7.61803
▁ܥܡܗ	-7.62116
▁ܤܒܪ	-7.6233
▁ܠܝܬ	-7.63049
▁ܕܕ	-7.63916
▁ܡܡܠܠ	-7.63959
▁ܢܡܘܤܐ	-7.64478
ܢܗܘܘܢ	-7.64735
ܓܠܐ	-7.66463
▁ܕܫܡܥ	-7.66714
▁ܨܒܝܢ	-7.68187
▁ܟܢܫܐ	-7.68232
▁ܫܡܥܘܢ	-7.6881
▁ܟܗܢܐ	-7.6899
▁ܦܘܠܘܤ	-7.69216
▁ܡܝܬܐ	-7.69484
▁ܥܢܐ	-7.69989
▁ܬܠܡܝܕܘܗܝ	-7.70144
▁ܡܢܟܘܢ	-7.70943
▁ܠܥܠܡ	-7.71916
▁ܐܪܥܐ	-7.72159
ܢܝܐ	-7.72184
▁ܚܠܦ	-7.72204
▁ܡܪܢ	-7.72508
▁ܦܓܪ	-7.74245
▁ܦܪ	-7.74878
▁ܕܥܠ	-7.74941
▁ܤܡ	-7.75315
▁ܕܡܪܢ	-7.76096
▁ܩܕܝܫ	-7.76647
▁ܟܐܦܐ	-7.76686
▁ܨܒܐ	-7.77339
▁ܟܬܒ	-7.77651
▁ܘܐܙܠ	-7.78723
▁ܒܪܘܚ	-7.79069
▁ܡܠܐ	-7.79734
▁ܤܗܕ	-7.79949
▁ܥܡܗܘܢ	-7.80017
▁ܠܒܝܬ	-7.80239
▁ܡܕܝܢܬܐ	-7.81761
ܟܬܒ	-7.81915
ܡܕܝܢܬܐ	-7.8229
▁ܕܡܫܝܚܐ	-7.82292
▁ܫܐܠ	-7.82675
▁ܩܪܒ	-7.82707
▁ܐܝܬܘܗܝ	-7.82862
▁ܐܢܬܬܐ	-7.82963
▁ܡܠܐܟܐ	-7.83764
ܬܝܗܒ	-7.84142
▁ܕܐܢܫܐ	-7.84753
ܟܠܢܫ	-7.84837
▁ܘܢܦܩ	-7.85101
▁ܪܘܚ	-7.85497
▁ܢܒܝܐ	-7.86352
▁ܕܐܝܬܘܗܝ	-7.86598
▁ܠܘܬܟܘܢ	-7.87177
▁ܩܡ	-7.87932
ܥܘܠ	-7.88193
ܡܠܬܐ	-7.89774
ܤܝܒܪ	-7.90171
▁ܕܩܘܕܫܐ	-7.90492
▁ܕܡܪܝܐ	-7.93125
▁ܢܦܠ	-7.93132
ܥܤܪ	-7.93286
▁ܠܚܕ	-7.95007
▁ܫܦܝܪ	-7.95201
▁ܐܝܕܐ	-7.95365
▁ܡܠܟܐ	-7.95474
▁ܐܫܟܚ	-7.96385
ܡܫܝܚܐ	-7.9746
▁ܕܠܡܐ	-7.97687
▁ܙܒܢܐ	-7.98032
▁ܒܝܕ	-8.00183
ܟܠܡܕܡ	-8.00497
▁ܒܝܘܡ	-8.00836
▁ܬܗܘܐ	-8.01413
ܗܦܟ	-8.0145
▁ܪܓܠ	-8.02677
▁ܪܚܡ	-8.02707
▁ܫܒܩ	-8.02941
ܦܬܚ	-8.0377
▁ܫܕܪ	-8.05457
▁ܬܪܝܢ	-8.05924
▁ܝܘܡܬܐ	-8.06621
▁ܟܐ	-8.07386
▁ܢܫܬ	-8.07441
▁ܠܝܫܘܥ	-8.07522
▁ܒܗܝܡܢܘܬܐ	-8.07927
▁ܐܝܬܝܗ	-8.08495
ܥܡܕ	-8.09419
▁ܘܫܡܥ	-8.09731
▁ܕܥܠܡܐ	-8.10113
▁ܘܝܗܒ	-8.10793
ܝܫܘܥ	-8.11441
ܦܠܓ	-8.11457
ܝܤܪܝܠ	-8.13545
▁ܬܠܬ	-8.14101
ܝܥܩܘܒ	-8.14978
▁ܕܡܬܩܪ	-8.1807
ܥܕܬܐ	-8.18603
▁ܬܠܡܝܕܐ	-8.1945
▁ܕܟܬܝܒ	-8.19451
▁ܕܠܥܠܡ	-8.1946
▁ܒܝܫܬܐ	-8.1947
▁ܠܚܡܐ	-8.21354
▁ܚܒܝܒ	-8.22779
▁ܕܪܘܚ	-8.22885
▁ܕܝܠܝ	-8.23292
▁ܛܝܒܘܬܐ	-8.24167
▁ܒܢܝܢܫܐ	-8.24167
▁ܘܐܫܬ	-8.24488
▁ܢܚܬ	-8.25122
▁ܪܥܝ	-8.25209
▁ܒܥܝܢ	-8.25449
ܦܘܩ	-8.25529
▁ܝܘܚܢܢ	-8.25753
ܬܠܡܝܕܘܗܝ	-8.26971
ܦܘܠܘܤ	-8.26976
▁ܠܥܡ	-8.27179
▁ܒܫܡܝܐ	-8.27422
▁ܒܪܢܫܐ	-8.27435
▁ܕܝܕܥ	-8.27643
▁ܟܤ	-8.2837
▁ܕܢܗܘܐ	-8.29117
ܫܘܒܚܐ	-8.29387
▁ܤܝܡ	-8.30068
▁ܠܐܘܪܫܠܡ	-8.30769
▁ܡܠܟܘܬܐ	-8.30789
▁ܕܝܗܒ	-8.3093
▁ܗܢܘ	-8.31034
▁ܟܡܐ	-8.31316
▁ܩܠܐ	-8.31649
▁ܕܫܡܝܐ	-8.32484
ܬܪܬܝܢ	-8.33258
▁ܕܥܬܝܕ	-8.34232
▁ܫܘܠܛܢ	-8.34234
▁ܬܪܥܐ	-8.34405
▁ܕܝܠܗ	-8.3738
▁ܠܓܒܪܐ	-8.3784
▁ܥܬܝܕ	-8.37852
▁ܦܪܝܫܐ	-8.37859
▁ܕܫܡܗ	-8.3786
▁ܐܤܝܪܐ	-8.37903
▁ܦܐܪܐ	-8.38054
▁ܟܪܝ	-8.39504
▁ܠܘܩܕܡ	-8.3969
▁ܘܫܕܪ	-8.39871
▁ܩܘܪ	-8.403
▁ܘܚܙܝ	-8.41473
▁ܦܝܠܛܘܤ	-8.41573
ܢܘܗܪܐ	-8.41794
▁ܡܘܫܐ	-8.41981
ܐܟܘܠ	-8.42279
▁ܤܓܝܐܬܐ	-8.43501
▁ܚܛܝܬܐ	-8.43522
▁ܙܥܘܪ	-8.43563
▁ܩܠܝܠ	-8.45482
▁ܫܪܒܬ	-8.4551
▁ܪܫܐ	-8.45825
ܫܒܩ	-8.46369
▁ܐܝܕܝ	-8.4698
▁ܟܬܝܒ	-8.47458
▁ܘܡܛܠ	-8.47634
▁ܐܪܒܥ	-8.47709
▁ܚܡܫ	-8.48609
▁ܦܘܩܕܢܐ	-8.49499
▁ܕܡܗܝܡܢ	-8.495
▁ܫܠܝܚܐ	-8.49509
▁ܝܘܡܝܢ	-8.49617
▁ܤܠܩ	-8.49783
▁ܪܫܝ	-8.50186
ܒܛܠ	-8.50199
ܡܚܕܐ	-8.50942
▁ܫܠܝܛ	-8.51619
V	-8.70023
1	-11.9538
)	-12.9538
4	-12.9538
5	-12.9538
9	-12.9538
:	-12.9538
