<pad>	0
</s>	0
<unk>	0
なた	-0
あなた	-1
って	-2
たし	-3
わたし	-4
その	-5
った	-6
であ	-7
ない	-8
して	-9
から	-10
こと	-11
われ	-12
である	-13
彼ら	-14
あなたが	-15
たち	-16
よう	-17
あなたがた	-18
また	-19
した	-20
られ	-21
、「	-22
」。	-23
なら	-24
わたしは	-25
エル	-26
これ	-27
いる	-28
あなたの	-29
それ	-30
ように	-31
さい	-32
言った	-33
ため	-34
この	-35
の子	-36
いた	-37
する	-38
され	-39
べて	-40
ので	-41
わたしの	-42
いて	-43
ならない	-44
ろう	-45
すべて	-46
なる	-47
イス	-48
ラエル	-49
イスラエル	-50
ある	-51
ために	-52
れば	-53
主は	-54
かし	-55
人々	-56
びと	-57
あなたは	-58
には	-59
彼らは	-60
であろう	-61
主の	-62
もの	-63
言われ	-64
ことを	-65
者は	-66
すべての	-67
▁そ	-68
なさい	-69
エス	-70
イスラエルの	-71
をも	-72
によ	-73
イエス	-74
彼は	-75
うち	-76
られた	-77
ければ	-78
なければ	-79
こう	-80
自分	-81
しかし	-82
られる	-83
ます	-84
かった	-85
これを	-86
くだ	-87
あなたがたの	-88
もろ	-89
しい	-90
なければならない	-91
ことが	-92
んで	-93
▁その	-94
あなたがたは	-95
われわれ	-96
なわ	-97
えて	-98
れる	-99
なかった	-100
んだ	-101
れた	-102
わが	-103
のために	-104
わたしを	-105
わたしが	-106
わたしたち	-107
れて	-108
によって	-109
すなわ	-110
すなわち	-111
どう	-112
させ	-113
人の	-114
をもって	-115
ンの	-116
からである	-117
わたしに	-118
こで	-119
きて	-120
ょう	-121
およ	-122
ください	-123
言葉	-124
を見	-125
える	-126
ユダ	-127
された	-128
とり	-129
のうち	-130
言われた	-131
および	-132
でき	-133
では	-134
につ	-135
▁また	-136
もし	-137
神の	-138
ころ	-139
なく	-140
のように	-141
っている	-142
前に	-143
に言った	-144
共に	-145
のか	-146
ダビ	-147
ダビデ	-148
それを	-149
彼らの	-150
はならない	-151
えた	-152
まで	-153
らせ	-154
とを	-155
▁わたしは	-156
とな	-157
きた	-158
彼らを	-159
ました	-160
であった	-161
とき	-162
主が	-163
のである	-164
とに	-165
自分の	-166
▁しかし	-167
▁そこで	-168
ささ	-169
祭司	-170
これは	-171
人を	-172
あなたを	-173
神は	-174
ひとり	-175
つか	-176
ことは	-177
▁それ	-178
しょう	-179
ゆえ	-180
人は	-181
たちは	-182
リヤ	-183
ところ	-184
主に	-185
アブ	-186
上に	-187
あなたに	-188
ことができ	-189
です	-190
があ	-191
べき	-192
として	-193
おの	-194
、『	-195
ささげ	-196
らの	-197
モー	-198
モーセ	-199
そう	-200
ませ	-201
される	-202
者の	-203
と共に	-204
にな	-205
物を	-206
だれ	-207
▁主は	-208
の中	-209
そして	-210
おり	-211
レム	-212
▁そして	-213
サレム	-214
事を	-215
エルサレム	-216
兄弟	-217
者を	-218
みな	-219
かって	-220
行って	-221
こに	-222
もろの	-223
シャ	-224
と言	-225
彼を	-226
彼らに	-227
のです	-228
もろもろの	-229
める	-230
はその	-231
受け	-232
エジ	-233
地に	-234
言われる	-235
出て	-236
プト	-237
エジプト	-238
人々は	-239
めた	-240
つの	-241
ならば	-242
めて	-243
のは	-244
とい	-245
の王	-246
かに	-247
人が	-248
彼女	-249
彼に	-250
イエスは	-251
者が	-252
取り	-253
命じ	-254
見よ	-255
預言	-256
▁彼らは	-257
キリ	-258
滅ぼ	-259
とその	-260
彼の	-261
ロン	-262
行った	-263
にある	-264
しも	-265
▁あなたは	-266
の家	-267
にも	-268
スト	-269
多く	-270
らは	-271
あなたがたに	-272
の子孫	-273
であって	-274
しく	-275
▁彼は	-276
けて	-277
▁「	-278
ごと	-279
しもべ	-280
キリスト	-281
ただ	-282
にあ	-283
わせ	-284
について	-285
こうして	-286
ている	-287
でしょう	-288
しみ	-289
所に	-290
たちの	-291
与え	-292
サウ	-293
王の	-294
地の	-295
ません	-296
ごとく	-297
りを	-298
主よ	-299
言葉を	-300
ける	-301
びとの	-302
それは	-303
行き	-304
るであろう	-305
▁この	-306
りの	-307
いに	-308
ルの	-309
ムの	-310
わざ	-311
食べ	-312
をあ	-313
いつ	-314
したが	-315
彼らが	-316
言う	-317
にお	-318
告げ	-319
とし	-320
とは	-321
あなたがたが	-322
ことごとく	-323
とおり	-324
ような	-325
の間	-326
これらの	-327
かの	-328
います	-329
人に	-330
民は	-331
立って	-332
王は	-333
いを	-334
さば	-335
罪を	-336
かな	-337
行く	-338
主を	-339
モン	-340
イスラエルの人々	-341
もとに	-342
来る	-343
シュ	-344
ヤコ	-345
者に	-346
ヤコブ	-347
よい	-348
われわれの	-349
かた	-350
彼が	-351
捨て	-352
祭壇	-353
けた	-354
のうちに	-355
名を	-356
を受け	-357
手に	-358
聞き	-359
われわれは	-360
すると	-361
民を	-362
より	-363
ではない	-364
らない	-365
手を	-366
たちを	-367
あなたがたを	-368
わたしたちは	-369
を得	-370
エリ	-371
るぎ	-372
でも	-373
立ち	-374
たちが	-375
となる	-376
多くの	-377
日に	-378
主なる	-379
のだ	-380
▁ア	-381
律法	-382
とする	-383
の上に	-384
あり	-385
いなる	-386
つかわ	-387
▁あなたの	-388
している	-389
っていた	-390
いだ	-391
かつ	-392
身を	-393
地を	-394
とが	-395
先祖	-396
心を	-397
しる	-398
ニヤ	-399
ルは	-400
立て	-401
むかって	-402
たちに	-403
あが	-404
つるぎ	-405
▁さ	-406
民の	-407
そこに	-408
いの	-409
と言った	-410
レビ	-411
一緒	-412
すれば	-413
その子	-414
いなさい	-415
聖なる	-416
まえ	-417
なが	-418
聞いて	-419
大いなる	-420
しき	-421
定め	-422
▁もし	-423
しま	-424
正しい	-425
をお	-426
を行	-427
つかさ	-428
▁あなたがたは	-429
かせ	-430
神に	-431
という	-432
となり	-433
ぶどう	-434
ふた	-435
パン	-436
部族	-437
んな	-438
ものは	-439
かわ	-440
のに	-441
がある	-442
建て	-443
対して	-444
に住	-445
▁こうして	-446
ラム	-447
ユダヤ	-448
なお	-449
呼ば	-450
ゆる	-451
ものを	-452
は言った	-453
時に	-454
知恵	-455
にはい	-456
どうして	-457
ども	-458
一緒に	-459
る者は	-460
リシ	-461
のを	-462
いは	-463
のですか	-464
わたしたちの	-465
ると	-466
引き	-467
預言者	-468
はい	-469
にしたが	-470
になった	-471
弟子	-472
のを見	-473
ソロ	-474
であり	-475
を守	-476
のない	-477
らに	-478
契約	-479
よりも	-480
軍の	-481
生き	-482
ダビデは	-483
喜び	-484
ためである	-485
町々	-486
神を	-487
▁さて	-488
る者	-489
幕屋	-490
▁それゆえ	-491
に従	-492
追い	-493
▁すなわち	-494
』。	-495
恵み	-496
るように	-497
とど	-498
打ち	-499
氏族	-500
ないで	-501
ユダの	-502
おのおの	-503
いで	-504
ビト	-505
栄光	-506
キュ	-507
キュビト	-508
の中に	-509
神が	-510
取って	-511
▁ヨ	-512
バビ	-513
なり	-514
からだ	-515
連れて	-516
ものである	-517
げて	-518
キヤ	-519
パロ	-520
セフ	-521
信じ	-522
恐れ	-523
ひとりの	-524
▁イエスは	-525
これに	-526
ペリシ	-527
ペリシテ	-528
なぜ	-529
燔祭	-530
荒野	-531
となった	-532
ることができ	-533
同じ	-534
祝福	-535
があり	-536
ンは	-537
一つ	-538
なった	-539
ること	-540
りに	-541
ゆえに	-542
いと	-543
レア	-544
他の	-545
シュア	-546
にしたがって	-547
らを	-548
ラハ	-549
信仰	-550
とした	-551
一つの	-552
ことはない	-553
との	-554
大き	-555
万軍の	-556
向かって	-557
エジプトの	-558
道を	-559
こう言われる	-560
てください	-561
に言われた	-562
アロン	-563
人の子	-564
よく	-565
を造	-566
心に	-567
おまえ	-568
ほかの	-569
スリヤ	-570
まず	-571
ライ	-572
ロンの	-573
帰って	-574
しえ	-575
もまた	-576
▁すると	-577
と言う	-578
罪を犯	-579
さばき	-580
ではないか	-581
エフ	-582
日の	-583
前で	-584
良い	-585
をささげ	-586
十二	-587
うちに	-588
そこ	-589
だけ	-590
入れ	-591
思い	-592
われた	-593
われる	-594
があった	-595
ましょう	-596
ケル	-597
宮の	-598
家に	-599
アブラハ	-600
られて	-601
とも	-602
尋ね	-603
ことを知	-604
をつ	-605
ソロモン	-606
供え	-607
ってはならない	-608
だから	-609
しなさい	-610
びとは	-611
と一緒に	-612
主なる神は	-613
▁その時	-614
主の前に	-615
の木	-616
子を	-617
悪しき	-618
の前に	-619
かり	-620
のが	-621
民に	-622
そこで	-623
出して	-624
んでいる	-625
のある	-626
上って	-627
かえ	-628
アル	-629
ながら	-630
むべき	-631
アビ	-632
二十	-633
かれた	-634
どうぞ	-635
あなたの神	-636
の上	-637
死んだ	-638
聞いた	-639
サム	-640
きょう	-641
滅び	-642
ところに	-643
マリヤ	-644
ところが	-645
そうすれば	-646
所で	-647
▁これは	-648
だれが	-649
どうか	-650
答えて	-651
たちよ	-652
なん	-653
嗣業	-654
を取り	-655
とおりである	-656
せよ	-657
がよい	-658
されて	-659
ムは	-660
しない	-661
ヨセフ	-662
モーセは	-663
ここに	-664
人々が	-665
出た	-666
るべき	-667
殺した	-668
イエスの	-669
とこ	-670
仰せ	-671
助け	-672
とこしえ	-673
者である	-674
ってお	-675
まだ	-676
▁わたしの	-677
町の	-678
オン	-679
のでは	-680
国の	-681
または	-682
下さ	-683
パウ	-684
常に	-685
パウロ	-686
与える	-687
はや	-688
投げ	-689
にいる	-690
愛する	-691
してはならない	-692
と思	-693
のよう	-694
ルダ	-695
必ず	-696
ろうか	-697
あわれ	-698
ベア	-699
次の	-700
犠牲	-701
持って	-702
の方	-703
撃ち	-704
者も	-705
いつく	-706
あら	-707
満ち	-708
▁見よ	-709
えられた	-710
ことがない	-711
ことに	-712
になって	-713
▁エ	-714
悪い	-715
とどま	-716
あかし	-717
あった	-718
そむ	-719
国々	-720
導き	-721
集ま	-722
おお	-723
に至	-724
の長	-725
を知	-726
攻め	-727
▁主よ	-728
してください	-729
の一	-730
アハ	-731
会衆	-732
▁わたしが	-733
りは	-734
アン	-735
呼び	-736
小羊	-737
水を	-738
ようか	-739
サウル	-740
モアブ	-741
生きて	-742
あるいは	-743
主は言われる	-744
あの	-745
らず	-746
死ぬ	-747
アシ	-748
安息	-749
を建て	-750
イエスを	-751
再び	-752
周囲	-753
救い	-754
ずから	-755
それに	-756
とって	-757
テロ	-758
彼女は	-759
すぐ	-760
▁わが	-761
のうちから	-762
のろ	-763
ベテ	-764
地は	-765
させた	-766
携えて	-767
近づ	-768
をする	-769
ダビデの	-770
をか	-771
なし	-772
戒め	-773
父の	-774
からです	-775
名は	-776
群れ	-777
いない	-778
させる	-779
与えた	-780
カル	-781
▁神は	-782
わなければならない	-783
カナ	-784
目に	-785
びとを	-786
もない	-787
いつくしみ	-788
のすべての	-789
タン	-790
感謝	-791
ヨルダ	-792
手から	-793
いや	-794
など	-795
れている	-796
群衆	-797
金の	-798
▁主の	-799
わせて	-800
ありません	-801
命じられた	-802
エルサレムに	-803
かれ	-804
つく	-805
をし	-806
神よ	-807
わった	-808
まさ	-809
ザル	-810
ミヤ	-811
来て	-812
油を	-813
』」。	-814
ニヤミ	-815
下って	-816
恐れる	-817
これらは	-818
エフライ	-819
らなければならない	-820
わず	-821
宿営	-822
らせた	-823
すで	-824
互に	-825
出し	-826
言い	-827
ユダの王	-828
神々	-829
かれる	-830
ついに	-831
を見て	-832
の子らは	-833
ベニヤミ	-834
主である	-835
▁ところが	-836
あげ	-837
異邦	-838
はず	-839
がその	-840
できない	-841
ヨシュア	-842
いま	-843
命を	-844
自身	-845
血を	-846
高き	-847
おきて	-848
ペテロ	-849
与えて	-850
ではなく	-851
にあって	-852
捕え	-853
聞く	-854
求める	-855
きなさい	-856
ないように	-857
マナ	-858
中に	-859
住む	-860
求め	-861
滅ぼす	-862
しろ	-863
の下	-864
者と	-865
を行う	-866
またその	-867
ることを	-868
王に	-869
聖所	-870
逃げ	-871
みが	-872
人々に	-873
あなたと	-874
語り	-875
答えた	-876
しめ	-877
レク	-878
ほめた	-879
おられる	-880
みを	-881
すでに	-882
とこしえに	-883
バビロンの	-884
おう	-885
時は	-886
言葉が	-887
▁それで	-888
イエスが	-889
エルサレムの	-890
わた	-891
目を	-892
していた	-893
ほめたた	-894
わたしはあなたの	-895
ほど	-896
長老	-897
になる	-898
みずから	-899
言いなさい	-900
じて	-901
切り	-902
せて	-903
まま	-904
天幕	-905
しるし	-906
られます	-907
このように	-908
ヨハ	-909
祭の	-910
どんな	-911
二つの	-912
りなさい	-913
イスラエルの人々は	-914
とめ	-915
サイ	-916
不義	-917
離れ	-918
レミヤ	-919
であろうか	-920
すみ	-921
モンの	-922
から出て	-923
されている	-924
カイ	-925
仕え	-926
真実	-927
雄羊	-928
を見た	-929
怒り	-930
たちと	-931
臨んだ	-932
▁それから	-933
を結	-934
永遠	-935
あなたがたの神	-936
三十	-937
を与え	-938
命じて	-939
レビびと	-940
ことができる	-941
バル	-942
貧しい	-943
るために	-944
アブラハム	-945
がない	-946
しよう	-947
にか	-948
物は	-949
による	-950
おこ	-951
もう	-952
やぎ	-953
一頭	-954
初め	-955
奴隷	-956
子供	-957
に従って	-958
らなかった	-959
キリストの	-960
のぼ	-961
テの	-962
デヤ	-963
入口	-964
国を	-965
家の	-966
ったので	-967
出す	-968
道に	-969
もはや	-970
マナセ	-971
と言って	-972
サムエル	-973
きを	-974
たく	-975
呼ばわ	-976
サウルは	-977
主にささげ	-978
焼き	-979
ゼル	-980
の幕屋	-981
こう仰せ	-982
ろば	-983
ヨナ	-984
心は	-985
約束	-986
われらの	-987
ッパ	-988
雄牛	-989
青銅	-990
出した	-991
いている	-992
イサ	-993
偶像	-994
これが	-995
ったが	-996
愚かな	-997
のほ	-998
むす	-999
めぐ	-1000
わし	-1001
ジヤ	-1002
強く	-1003
殺し	-1004
の中で	-1005
イサク	-1006
レアデ	-1007
仕える	-1008
大きな	-1009
があって	-1010
ッスリヤ	-1011
ユダヤ人	-1012
と言われた	-1013
にむかって	-1014
かが	-1015
エド	-1016
声を	-1017
御使	-1018
軍勢	-1019
顔を	-1020
勇士	-1021
喜ば	-1022
持ち	-1023
苦しみ	-1024
にはいって	-1025
を生	-1026
会見	-1027
悩み	-1028
落ち	-1029
主の宮	-1030
前から	-1031
かい	-1032
アヒ	-1033
五十	-1034
▁ただ	-1035
命じた	-1036
自分を	-1037
ギレアデ	-1038
モーセに言われた	-1039
アマ	-1040
セラ	-1041
者よ	-1042
と言い	-1043
パンを	-1044
汚れた	-1045
イスラエルの王	-1046
の門	-1047
ごとに	-1048
により	-1049
るまで	-1050
わない	-1051
滅ぼし	-1052
につかわ	-1053
われわれを	-1054
知っている	-1055
らい	-1056
シメ	-1057
国に	-1058
女は	-1059
離れて	-1060
わい	-1061
もなく	-1062
人々の	-1063
人々を	-1064
地から	-1065
わたしたちが	-1066
彼らに言った	-1067
えを	-1068
きに	-1069
さない	-1070
に住む	-1071
産んだ	-1072
▁それは	-1073
イスラエルを	-1074
くる	-1075
若い	-1076
それで	-1077
およびその	-1078
彼に言った	-1079
よろ	-1080
城壁	-1081
悪を	-1082
王が	-1083
その時	-1084
らかに	-1085
属する	-1086
つかわして	-1087
ヒゼ	-1088
割礼	-1089
家畜	-1090
心の	-1091
集め	-1092
はまた	-1093
生れた	-1094
ヒゼキヤ	-1095
▁ダビデは	-1096
のではない	-1097
衣服	-1098
あって	-1099
たちも	-1100
たとい	-1101
だれも	-1102
その人は	-1103
のような	-1104
サマリヤ	-1105
合わせて	-1106
▁あなたが	-1107
次のとおりである	-1108
ああ	-1109
えよ	-1110
すわ	-1111
事は	-1112
来た	-1113
見て	-1114
のかた	-1115
かす	-1116
しし	-1117
書き	-1118
してお	-1119
ヨハネ	-1120
ルの子	-1121
分の一	-1122
したので	-1123
のゆえに	-1124
って言った	-1125
会見の幕屋	-1126
ことはできない	-1127
行う	-1128
ようと	-1129
ヨアブ	-1130
知らせ	-1131
食べて	-1132
られない	-1133
エレミヤ	-1134
▁あなたがたの	-1135
イスラエルの神	-1136
と戦	-1137
リブ	-1138
出る	-1139
▁時に	-1140
にいた	-1141
▁その日	-1142
のを見て	-1143
われわれに	-1144
アッスリヤ	-1145
だからである	-1146
世の	-1147
知識	-1148
いった	-1149
へ行って	-1150
バビロン	-1151
に帰	-1152
人と	-1153
天の	-1154
女の	-1155
荒れ	-1156
見た	-1157
いのち	-1158
ことである	-1159
もと	-1160
カデ	-1161
叫び	-1162
んでいた	-1163
さま	-1164
の日	-1165
の時	-1166
ヘブ	-1167
四十	-1168
強い	-1169
所を	-1170
をあげて	-1171
エリシャ	-1172
ないでください	-1173
サロ	-1174
天に	-1175
死に	-1176
語る	-1177
身に	-1178
高ぶ	-1179
の前で	-1180
ほかに	-1181
非常に	-1182
のうちの	-1183
知らない	-1184
答えて言った	-1185
堅く	-1186
供え物	-1187
取った	-1188
言葉は	-1189
あがない	-1190
むな	-1191
上の	-1192
山に	-1193
望み	-1194
町を	-1195
すべき	-1196
大いに	-1197
それゆえ	-1198
ふたりの	-1199
こう仰せられる	-1200
▁第	-1201
ナイ	-1202
手の	-1203
行い	-1204
かない	-1205
その日	-1206
怒りを	-1207
ことのない	-1208
年の	-1209
ラッパ	-1210
聞き従	-1211
はずかし	-1212
わたしと	-1213
ことができない	-1214
されるであろう	-1215
かも	-1216
福音	-1217
耳を	-1218
▁祭司	-1219
びとが	-1220
新しい	-1221
▁すべて	-1222
のもとに	-1223
わたしたちを	-1224
さは	-1225
しば	-1226
たび	-1227
に乗	-1228
ベル	-1229
何を	-1230
分け	-1231
れない	-1232
エホ	-1233
平安	-1234
素祭	-1235
遠く	-1236
かつて	-1237
なって	-1238
シケル	-1239
かなければならない	-1240
まわ	-1241
めと	-1242
アサ	-1243
ラン	-1244
過ぎ	-1245
食い	-1246
あいだ	-1247
くださ	-1248
たので	-1249
わざを	-1250
をその	-1251
天から	-1252
立てて	-1253
において	-1254
ぶどう酒	-1255
憎むべき	-1256
いう	-1257
さん	-1258
と同じ	-1259
去って	-1260
悲しみ	-1261
えている	-1262
のかたわ	-1263
に向かって	-1264
いな	-1265
らん	-1266
宣べ	-1267
教会	-1268
しえた	-1269
オンの	-1270
を取って	-1271
▁モーセは	-1272
の子である	-1273
シマ	-1274
ラバ	-1275
事が	-1276
命令	-1277
国民	-1278
戦車	-1279
所有	-1280
なんの	-1281
えられる	-1282
アブサロ	-1283
うた	-1284
ひと	-1285
びる	-1286
れを	-1287
マル	-1288
全く	-1289
地で	-1290
散ら	-1291
飲み	-1292
になり	-1293
去った	-1294
対する	-1295
められる	-1296
あなたの子	-1297
ペリシテびとの	-1298
高く	-1299
それが	-1300
むすこ	-1301
となって	-1302
このような	-1303
人であった	-1304
おのおのその	-1305
わたしたちに	-1306
くじ	-1307
の娘	-1308
立つ	-1309
聞け	-1310
進み	-1311
の間に	-1312
手に渡	-1313
▁だから	-1314
イスラエルは	-1315
――	-1316
ほふ	-1317
までも	-1318
恐れて	-1319
かえって	-1320
れるであろう	-1321
となるであろう	-1322
せず	-1323
ねて	-1324
救う	-1325
町に	-1326
絶え	-1327
どこに	-1328
の子孫は	-1329
でしょうか	-1330
イスラエルの人々の	-1331
をた	-1332
パテ	-1333
国は	-1334
目は	-1335
霊が	-1336
の入口	-1337
バアル	-1338
あわれみ	-1339
の中から	-1340
イスラエルに	-1341
かけ	-1342
ヤラ	-1343
去り	-1344
待ち	-1345
放牧	-1346
物の	-1347
言え	-1348
かしら	-1349
代って	-1350
宣べ伝	-1351
くち	-1352
のち	-1353
れの	-1354
書に	-1355
に告げ	-1356
とその子	-1357
主なる神はこう言われる	-1358
どこ	-1359
シバ	-1360
スマ	-1361
ネブ	-1362
ンを	-1363
女を	-1364
最も	-1365
月の	-1366
ふたり	-1367
エリヤ	-1368
造った	-1369
▁彼らが	-1370
人たちは	-1371
としている	-1372
▁このように	-1373
しむ	-1374
せた	-1375
プテ	-1376
後に	-1377
聖別	-1378
高い	-1379
だれか	-1380
激しい	-1381
モーセと	-1382
▁そのとき	-1383
兄弟たちよ	-1384
しなければならない	-1385
きき	-1386
さえ	-1387
を治	-1388
を着	-1389
父は	-1390
▁彼が	-1391
にして	-1392
ほしい	-1393
メレク	-1394
しえたげ	-1395
ヤラベア	-1396
られている	-1397
彼らはその	-1398
ることができる	-1399
あざ	-1400
かる	-1401
所へ	-1402
羊の	-1403
▁王は	-1404
いたが	-1405
わせた	-1406
ひとりも	-1407
イエスに	-1408
人である	-1409
兄弟たち	-1410
と名	-1411
を開	-1412
シケ	-1413
家来	-1414
殺す	-1415
注ぎ	-1416
間に	-1417
えさせ	-1418
ごらん	-1419
書いて	-1420
彼はその	-1421
とをもって	-1422
わたしのために	-1423
シヤ	-1424
右の	-1425
年に	-1426
願い	-1427
けない	-1428
のでき	-1429
の子を	-1430
▁彼らの	-1431
者たちは	-1432
生きている	-1433
さし	-1434
らく	-1435
ハマ	-1436
七日	-1437
ニエル	-1438
向こう	-1439
王となった	-1440
ても	-1441
どり	-1442
やみ	-1443
上げ	-1444
置き	-1445
金を	-1446
と名づ	-1447
のため	-1448
の子ら	-1449
の家に	-1450
リサイ	-1451
あだ	-1452
つけ	-1453
バラ	-1454
何も	-1455
子は	-1456
答え	-1457
します	-1458
を得る	-1459
食物を	-1460
さいわい	-1461
とおりに	-1462
パリサイ	-1463
出された	-1464
して言った	-1465
られました	-1466
ヨルダンの	-1467
わたしはあなたを	-1468
▁『	-1469
とお	-1470
アモ	-1471
立た	-1472
バプテ	-1473
くちびる	-1474
この事を	-1475
だろうか	-1476
なぜなら	-1477
のうちで	-1478
言ってお	-1479
びとの氏族	-1480
バプテスマ	-1481
なかったので	-1482
いっ	-1483
せる	-1484
の者	-1485
ふさ	-1486
れ伏	-1487
わる	-1488
をま	-1489
ノア	-1490
ルベ	-1491
吹き	-1492
正義	-1493
からは	-1494
と呼ば	-1495
をあげ	-1496
を行い	-1497
契約を	-1498
捨てて	-1499
から出た	-1500
にはいる	-1501
殺された	-1502
名によって	-1503
に及	-1504
使徒	-1505
民が	-1506
さばく	-1507
ものが	-1508
小さい	-1509
放牧地	-1510
永遠の	-1511
のを見た	-1512
ヤコブは	-1513
きの	-1514
びに	-1515
を持	-1516
アナ	-1517
ラヤ	-1518
寄留	-1519
踏み	-1520
食物	-1521
を見る	-1522
年の間	-1523
▁主は言われる	-1524
けれ	-1525
ねた	-1526
ムに	-1527
憎む	-1528
日が	-1529
ままに	-1530
をした	-1531
求めて	-1532
けれども	-1533
のだから	-1534
カルデヤ	-1535
下さった	-1536
人の子よ	-1537
そば	-1538
ダン	-1539
ミカ	-1540
三日	-1541
罪祭	-1542
肉を	-1543
の部族	-1544
進んで	-1545
食べる	-1546
その上に	-1547
まことに	-1548
そのように	-1549
ようとする	-1550
行きなさい	-1551
そのすべての	-1552
いてはならない	-1553
としなければならない	-1554
のみ	-1555
入り	-1556
死体	-1557
海の	-1558
臨む	-1559
彼女を	-1560
死んで	-1561
置いた	-1562
に対して	-1563
彼と共に	-1564
▁これらの	-1565
いち	-1566
モテ	-1567
妻を	-1568
満た	-1569
真理	-1570
連れ	-1571
その中	-1572
もので	-1573
を造り	-1574
ンびと	-1575
しまった	-1576
ネブカデ	-1577
集まって	-1578
あなたの前に	-1579
をことごとく	-1580
彼らに言われた	-1581
さなければならない	-1582
めの	-1583
上が	-1584
女が	-1585
家族	-1586
平和	-1587
災を	-1588
聖徒	-1589
霊を	-1590
安息日	-1591
耳を傾	-1592
するであろう	-1593
ってください	-1594
エルサレムで	-1595
ベニヤミンの	-1596
イスラエルの人々に	-1597
こそ	-1598
テル	-1599
今日	-1600
外に	-1601
歩み	-1602
深い	-1603
言を	-1604
▁主が	-1605
おのの	-1606
がなく	-1607
ですか	-1608
ひれ伏	-1609
シオン	-1610
所から	-1611
正しく	-1612
決して	-1613
のひとり	-1614
賜わった	-1615
犠牲をささげ	-1616
イスラエルのすべての	-1617
きよ	-1618
なす	-1619
らが	-1620
を通	-1621
ハテ	-1622
断ち	-1623
の上で	-1624
ラムは	-1625
モアブの	-1626
わたしはあなたに	-1627
さあ	-1628
マア	-1629
だろう	-1630
ていた	-1631
まれる	-1632
よみが	-1633
ことなく	-1634
はこれを	-1635
たちと共に	-1636
と主は言われる	-1637
いく	-1638
に当	-1639
はな	-1640
をう	-1641
報い	-1642
飲む	-1643
らせる	-1644
偽りを	-1645
契約の	-1646
急いで	-1647
ささげる	-1648
シャパテ	-1649
造られた	-1650
しなかった	-1651
言っておく	-1652
とその放牧地	-1653
われわれの神	-1654
くな	-1655
たが	-1656
を築	-1657
人も	-1658
奪い	-1659
村々	-1660
見る	-1661
造り	-1662
選ば	-1663
野の	-1664
にあり	-1665
飲ませ	-1666
ヤコブの	-1667
弟子たちは	-1668
いれ	-1669
かを	-1670
ぶん	-1671
ゅう	-1672
十字	-1673
同様	-1674
流れ	-1675
物に	-1676
しても	-1677
におる	-1678
むしろ	-1679
をおお	-1680
呼んで	-1681
国から	-1682
語った	-1683
あらゆる	-1684
だれでも	-1685
つるぎを	-1686
にあった	-1687
主の宮の	-1688
を出	-1689
んじ	-1690
ガリ	-1691
ブは	-1692
何か	-1693
場合	-1694
教え	-1695
水の	-1696
泣き	-1697
父が	-1698
銀の	-1699
ききん	-1700
までは	-1701
みんな	-1702
らせて	-1703
エサウ	-1704
エレア	-1705
そこから	-1706
ならびに	-1707
のほとり	-1708
については	-1709
主なる神は言われる	-1710
ふる	-1711
ほめ	-1712
ムと	-1713
力を	-1714
寄り	-1715
尊い	-1716
ことも	-1717
エホヤ	-1718
全会衆	-1719
満たし	-1720
行かせ	-1721
カナンの	-1722
モーセに	-1723
▁ソロモン	-1724
にはいった	-1725
与えられた	-1726
▁わたしたちは	-1727
たる	-1728
ねば	-1729
スコ	-1730
さらに	-1731
ついて	-1732
に投げ	-1733
やかに	-1734
わざわ	-1735
追い払	-1736
しました	-1737
のことを	-1738
へ行った	-1739
ダニエル	-1740
主イエス	-1741
万軍の主は	-1742
ではありません	-1743
イスラエルの家	-1744
に座	-1745
まい	-1746
をは	-1747
ゼデ	-1748
タル	-1749
アモリ	-1750
入れた	-1751
大祭司	-1752
ぶどう畑	-1753
を受ける	-1754
▁主はまた	-1755
なのである	-1756
われわれが	-1757
書いてある	-1758
あなたがたも	-1759
しるされている	-1760
さず	-1761
つえ	-1762
とう	-1763
エヒ	-1764
キシ	-1765
バア	-1766
ペル	-1767
ヤは	-1768
事の	-1769
全き	-1770
手は	-1771
▁そう	-1772
につけ	-1773
の小羊	-1774
七つの	-1775
入れて	-1776
激しく	-1777
者ども	-1778
集めて	-1779
わたしも	-1780
ダビデに	-1781
供え物を	-1782
立ちあが	-1783
生きながら	-1784
エフライムの	-1785
▁シ	-1786
おも	-1787
やめ	-1788
らわ	-1789
ガド	-1790
ルデ	-1791
口に	-1792
地と	-1793
権威	-1794
水は	-1795
王を	-1796
送り	-1797
過越	-1798
それぞ	-1799
っても	-1800
はみな	-1801
ばかり	-1802
サムソ	-1803
ヤの子	-1804
手を伸	-1805
着物を	-1806
きたので	-1807
ささげた	-1808
ガリラヤ	-1809
▁彼はまた	-1810
はずかしめ	-1811
るようになる	-1812
わたしの前に	-1813
わたしはこの	-1814
あなたのために	-1815
させてください	-1816
くび	-1817
ダデ	-1818
ピラ	-1819
ブの	-1820
レバ	-1821
二百	-1822
人間	-1823
先に	-1824
喜ぶ	-1825
器を	-1826
地方	-1827
こころ	-1828
パロの	-1829
主のみ	-1830
帰った	-1831
青銅の	-1832
モーセが	-1833
もろもろの国	-1834
わたしはその	-1835
られるであろう	-1836
あなたがたのために	-1837
ここ	-1838
の声	-1839
メル	-1840
七十	-1841
授け	-1842
日は	-1843
注が	-1844
解き	-1845
さして	-1846
つまず	-1847
の家の	-1848
テびと	-1849
時には	-1850
神のみ	-1851
▁人々は	-1852
その子は	-1853
すであろう	-1854
わなかった	-1855
ユダヤ人の	-1856
数えられた	-1857
あなたのしもべ	-1858
アッスリヤの王	-1859
▁今	-1860
おく	-1861
らし	-1862
わけ	-1863
一同	-1864
家を	-1865
水が	-1866
の下に	-1867
エドム	-1868
四つの	-1869
引いて	-1870
祭壇の	-1871
立てた	-1872
ませんで	-1873
モーセの	-1874
ほか	-1875
らう	-1876
わな	-1877
を作	-1878
を負	-1879
アム	-1880
ベツ	-1881
二千	-1882
働き	-1883
思う	-1884
敵の	-1885
深く	-1886
火で	-1887
聖霊	-1888
設け	-1889
起き	-1890
足を	-1891
隣り	-1892
世を治	-1893
人たち	-1894
倒れる	-1895
彼女の	-1896
従って	-1897
死人の	-1898
殺そう	-1899
見ると	-1900
起きて	-1901
サウルの	-1902
ようになる	-1903
あなたと共に	-1904
あなたはわたしの	-1905
ことができようか	-1906
じく	-1907
ハナ	-1908
偽り	-1909
多い	-1910
帰り	-1911
所の	-1912
手で	-1913
酒を	-1914
長く	-1915
いって	-1916
うしろ	-1917
すぐに	-1918
ときは	-1919
ともに	-1920
ザリヤ	-1921
ンの子	-1922
者には	-1923
聞かせ	-1924
行こう	-1925
▁どうか	-1926
いたので	-1927
に聞き従	-1928
るならば	-1929
されたので	-1930
されました	-1931
▁あなたがたが	-1932
ラテ	-1933
宮に	-1934
御霊	-1935
愛し	-1936
携え	-1937
物と	-1938
石を	-1939
罪の	-1940
足の	-1941
いつも	-1942
ピラト	-1943
中から	-1944
楽しみ	-1945
残りの	-1946
その兄弟	-1947
その所で	-1948
はいって	-1949
ダビデが	-1950
安らかに	-1951
じめ	-1952
の神	-1953
歩む	-1954
清い	-1955
礼拝	-1956
さきに	-1957
国々の	-1958
実を結	-1959
求めた	-1960
を造った	-1961
語られた	-1962
ことがある	-1963
のではなく	-1964
ソロモンの	-1965
ませんでした	-1966
自分のために	-1967
あなたがたのうちに	-1968
エズ	-1969
ンに	-1970
去る	-1971
民と	-1972
義と	-1973
閉じ	-1974
いても	-1975
ラント	-1976
レバノ	-1977
偽りの	-1978
者たち	-1979
血を流	-1980
雄やぎ	-1981
それから	-1982
っています	-1983
つかわされた	-1984
主をほめたた	-1985
わたしに言われた	-1986
そし	-1987
まち	-1988
ルに	-1989
悲し	-1990
かけて	-1991
かれて	-1992
しまう	-1993
ユダと	-1994
喜んで	-1995
律法学	-1996
その名を	-1997
立っている	-1998
人をつかわして	-1999
二つ	-2000
勝利	-2001
実を	-2002
断食	-2003
町は	-2004
そのみ	-2005
ともし	-2006
オリブ	-2007
生ける	-2008
荒野で	-2009
重ねて	-2010
食事を	-2011
▁ただし	-2012
おこない	-2013
その氏族	-2014
よみがえ	-2015
ゼデキヤ	-2016
タラント	-2017
出てきた	-2018
主の言葉が	-2019
モーセとアロン	-2020
すぎ	-2021
そそ	-2022
ひき	-2023
まり	-2024
ギデ	-2025
ゼブ	-2026
一万	-2027
他国	-2028
大声	-2029
恥じ	-2030
病気	-2031
頭に	-2032
したら	-2033
その父	-2034
の日に	-2035
ケルビ	-2036
シャン	-2037
力ある	-2038
彼らと	-2039
誓いを	-2040
する者は	-2041
むなしい	-2042
目の前に	-2043
はいけない	-2044
ようとして	-2045
定められた	-2046
自分たちの	-2047
さいわいである	-2048
▁ハ	-2049
ごろ	-2050
ラの	-2051
下の	-2052
嘆き	-2053
火を	-2054
生れ	-2055
者で	-2056
見え	-2057
計り	-2058
近く	-2059
▁神よ	-2060
らい病	-2061
カリヤ	-2062
人には	-2063
命じる	-2064
絶える	-2065
荒野に	-2066
ヘブロン	-2067
なりません	-2068
悪しき者の	-2069
てはならない	-2070
と言ったので	-2071
あなたがたのうち	-2072
▁主はモーセに言われた	-2073
々の	-2074
いご	-2075
かさ	-2076
に着	-2077
わき	-2078
を張	-2079
アズ	-2080
ダマ	-2081
ビヤ	-2082
二万	-2083
四方	-2084
女に	-2085
慰め	-2086
死な	-2087
清く	-2088
頭を	-2089
▁神の	-2090
この世	-2091
まさる	-2092
ります	-2093
をつく	-2094
捕えて	-2095
立った	-2096
▁正しい	-2097
いちじく	-2098
いったい	-2099
せられる	-2100
パウロは	-2101
ヨナタン	-2102
ましょうか	-2103
主の言葉を	-2104
彼のために	-2105
のかたわらに	-2106
はだ	-2107
むち	-2108
めい	-2109
ツロ	-2110
使う	-2111
六十	-2112
母の	-2113
獲た	-2114
買い	-2115
身の	-2116
おおい	-2117
くれた	-2118
のがれ	-2119
はない	-2120
エヒウ	-2121
周囲に	-2122
律法の	-2123
残った	-2124
集める	-2125
▁たとい	-2126
つかわし	-2127
に臨んだ	-2128
のようだ	-2129
ましたが	-2130
ますます	-2131
ラッパを	-2132
と名づけた	-2133
はあなたの	-2134
ベニヤミン	-2135
聞きなさい	-2136
▁わたしはまた	-2137
つるぎをもって	-2138
が起	-2139
っと	-2140
に向	-2141
の柱	-2142
りと	-2143
んの	-2144
ミデ	-2145
メン	-2146
レハ	-2147
ロデ	-2148
取る	-2149
心が	-2150
消え	-2151
近寄	-2152
頼み	-2153
ゆるし	-2154
をして	-2155
アブネ	-2156
エリコ	-2157
タンは	-2158
バラク	-2159
ヨアシ	-2160
人の長	-2161
仕えた	-2162
▁ヨセフ	-2163
しばらく	-2164
ところへ	-2165
十分の一	-2166
家を建て	-2167
者たちを	-2168
▁これらは	-2169
エフライム	-2170
あなたがたと	-2171
びとの氏族が	-2172
バビロンの王	-2173
主にささげる	-2174
代って王となった	-2175
ささげなければならない	-2176
▁イ	-2177
おる	-2178
くつ	-2179
ひろ	-2180
ベデ	-2181
メラ	-2182
山の	-2183
知り	-2184
臨み	-2185
選び	-2186
ういご	-2187
おいて	-2188
ときに	-2189
ばしい	-2190
ものと	-2191
らくだ	-2192
モルデ	-2193
告げた	-2194
告げて	-2195
周囲の	-2196
彼女に	-2197
恵みを	-2198
攻めて	-2199
神から	-2200
衣服を	-2201
いと高き	-2202
があれば	-2203
ってきて	-2204
ダマスコ	-2205
▁またその	-2206
サムエルは	-2207
モルデカイ	-2208
エジプトから	-2209
ペリシテびと	-2210
ったからである	-2211
あなたがたの先祖	-2212
。「	-2213
まれ	-2214
エパ	-2215
忘れ	-2216
戦い	-2217
望む	-2218
頭の	-2219
あがな	-2220
こさせ	-2221
にまで	-2222
の子は	-2223
アハズ	-2224
パロは	-2225
受ける	-2226
見える	-2227
エレアザル	-2228
世を治めた	-2229
罪を犯した	-2230
▁われわれは	-2231
彼に言われた	-2232
ことのないように	-2233
わたしが主である	-2234
主はこう仰せられる	-2235
あす	-2236
う者	-2237
おろ	-2238
なさ	-2239
に下	-2240
の父	-2241
ロテ	-2242
一千	-2243
主君	-2244
先生	-2245
敵を	-2246
置く	-2247
にした	-2248
まれた	-2249
下さい	-2250
犯した	-2251
祭司長	-2252
過越の	-2253
かたくな	-2254
それぞれ	-2255
ペテロは	-2256
主はその	-2257
わたしをお	-2258
残っている	-2259
滅ぼされる	-2260
▁あなたの神	-2261
ことによって	-2262
ねばならない	-2263
彼らのために	-2264
ではありませんか	-2265
いろ	-2266
めを	-2267
アテ	-2268
イル	-2269
バテ	-2270
今は	-2271
公平	-2272
六百	-2273
大ぜ	-2274
得た	-2275
手が	-2276
歳の	-2277
火祭	-2278
示す	-2279
空の	-2280
終り	-2281
おもて	-2282
さんび	-2283
の家来	-2284
の言葉	-2285
まった	-2286
をあが	-2287
をつけ	-2288
信じる	-2289
去らせ	-2290
大きい	-2291
聖所の	-2292
▁彼女は	-2293
あなたも	-2294
おまえは	-2295
ダビデを	-2296
恐るべき	-2297
▁なぜなら	-2298
さなかった	-2299
のうちでは	-2300
ヨシャパテ	-2301
立っていた	-2302
言うことを	-2303
アブラハムは	-2304
答えて言われた	-2305
かず	-2306
くず	-2307
なき	-2308
な子	-2309
のし	-2310
もど	-2311
ロス	-2312
不思	-2313
会う	-2314
前の	-2315
清め	-2316
石が	-2317
示し	-2318
金で	-2319
たれた	-2320
でない	-2321
る者の	-2322
んでも	-2323
アハブ	-2324
不思議	-2325
倒れた	-2326
祭司の	-2327
選んだ	-2328
いっさい	-2329
われらは	-2330
を生んだ	-2331
シマエル	-2332
ヨセフは	-2333
契約を結	-2334
異邦人の	-2335
目の前で	-2336
神である	-2337
見ている	-2338
ネブカデネ	-2339
持っている	-2340
▁もろもろの	-2341
わたしに臨んだ	-2342
あと	-2343
いば	-2344
な者	-2345
にし	-2346
へや	-2347
一度	-2348
何事	-2349
名の	-2350
守り	-2351
宮殿	-2352
川の	-2353
悪霊	-2354
時が	-2355
王よ	-2356
自ら	-2357
裂き	-2358
こない	-2359
させて	-2360
と思う	-2361
ものの	-2362
ゼブル	-2363
十二人	-2364
恐れた	-2365
教えて	-2366
殺され	-2367
生きる	-2368
絶えず	-2369
賜わる	-2370
願いを	-2371
つかさど	-2372
とすれば	-2373
人たちが	-2374
られたので	-2375
アンモンの	-2376
いつくしみは	-2377
イエスに言った	-2378
食べてはならない	-2379
たず	-2380
シロ	-2381
ラは	-2382
内に	-2383
加え	-2384
場に	-2385
娘を	-2386
子よ	-2387
所は	-2388
栄え	-2389
王と	-2390
道は	-2391
魂は	-2392
あとに	-2393
ただし	-2394
ための	-2395
につき	-2396
へ行く	-2397
まこと	-2398
まない	-2399
らって	-2400
を生み	-2401
ドニヤ	-2402
大きく	-2403
置いて	-2404
その他の	-2405
を受けた	-2406
レハベア	-2407
者がある	-2408
▁すべての	-2409
いつまでも	-2410
わたしの父	-2411
ヨシュアは	-2412
日のあいだ	-2413
▁イスラエルの	-2414
モーセに命じられた	-2415
すが	-2416
カレ	-2417
シボ	-2418
タリ	-2419
ダブ	-2420
ッタ	-2421
ドク	-2422
ネハ	-2423
ポデ	-2424
半ば	-2425
声が	-2426
少し	-2427
数え	-2428
日を	-2429
歌を	-2430
民衆	-2431
神と	-2432
過ご	-2433
除き	-2434
くれる	-2435
にそむ	-2436
入れる	-2437
戦いに	-2438
渡って	-2439
誓った	-2440
いつまで	-2441
されない	-2442
万軍の主	-2443
地に住む	-2444
民はみな	-2445
▁サウルは	-2446
あなたの父	-2447
出て行って	-2448
名のために	-2449
書にしるされている	-2450
々に	-2451
づけ	-2452
ひざ	-2453
ひそ	-2454
わり	-2455
ッサ	-2456
ナフ	-2457
ペレ	-2458
ルガ	-2459
レヘ	-2460
三百	-2461
信頼	-2462
四百	-2463
必要	-2464
憤り	-2465
汚れ	-2466
石で	-2467
苦し	-2468
部隊	-2469
驚き	-2470
しかも	-2471
ちまた	-2472
はした	-2473
ほどの	-2474
われて	-2475
を捨て	-2476
助ける	-2477
時から	-2478
はなはだ	-2479
シオンの	-2480
悪を行う	-2481
しましょう	-2482
ようとした	-2483
られるように	-2484
のと	-2485
まっ	-2486
やも	-2487
ギベ	-2488
火の	-2489
知る	-2490
罪は	-2491
覚え	-2492
あとを	-2493
いれる	-2494
うちの	-2495
おとめ	-2496
かおり	-2497
もその	-2498
り物を	-2499
エポデ	-2500
ザドク	-2501
口から	-2502
子を産	-2503
尋ねた	-2504
滅びる	-2505
神々に	-2506
福音を	-2507
終った	-2508
香をた	-2509
それらの	-2510
といった	-2511
のがれる	-2512
ベツレヘ	-2513
手にわた	-2514
行かれた	-2515
行われた	-2516
▁ヨシュア	-2517
いなかった	-2518
であったが	-2519
ぶどうの木	-2520
同じように	-2521
彼らの上に	-2522
者のために	-2523
あれ	-2524
がて	-2525
さを	-2526
らす	-2527
アダ	-2528
中で	-2529
事に	-2530
人で	-2531
国で	-2532
牛の	-2533
血の	-2534
迎え	-2535
▁彼の	-2536
およそ	-2537
これら	-2538
たれる	-2539
やがて	-2540
アビヤ	-2541
ルびと	-2542
上った	-2543
使者を	-2544
宿営の	-2545
東の方	-2546
祭司は	-2547
自分が	-2548
があるか	-2549
と答えた	-2550
なされた	-2551
の言葉を	-2552
ナフタリ	-2553
今日まで	-2554
知恵ある	-2555
ことを知る	-2556
すみやかに	-2557
するように	-2558
アビメレク	-2559
キリストは	-2560
ギレアデの	-2561
人のために	-2562
これを聞いて	-2563
わたしのしもべ	-2564
恐れてはならない	-2565
イスラエルの人々が	-2566
えば	-2567
へび	-2568
べた	-2569
やぐ	-2570
やり	-2571
ゆだ	-2572
をこ	-2573
イム	-2574
シド	-2575
十四	-2576
戦争	-2577
族長	-2578
牛を	-2579
物が	-2580
箱を	-2581
近い	-2582
銀を	-2583
長子	-2584
いたく	-2585
いただ	-2586
そんな	-2587
たくわ	-2588
ちょう	-2589
にあず	-2590
にきた	-2591
に使う	-2592
はいる	-2593
シャル	-2594
一歳の	-2595
守って	-2596
律法を	-2597
神の子	-2598
立して	-2599
群衆が	-2600
自分で	-2601
言って	-2602
あります	-2603
その人を	-2604
つるぎに	-2605
であるか	-2606
ひとりは	-2607
ふたりは	-2608
をあらわ	-2609
アザリヤ	-2610
救われる	-2611
したように	-2612
わたしには	-2613
イシマエル	-2614
悪しき者は	-2615
者のように	-2616
▁兄弟たちよ	-2617
いつくしみを	-2618
らせてください	-2619
か月	-2620
どの	-2621
の妻	-2622
わら	-2623
イザ	-2624
エブ	-2625
五百	-2626
倒れ	-2627
分を	-2628
動か	-2629
召し	-2630
境は	-2631
起る	-2632
▁アハ	-2633
▁人は	-2634
いなご	-2635
う者は	-2636
かけた	-2637
に住み	-2638
ましい	-2639
りなく	-2640
ユダは	-2641
信じた	-2642
入れぬ	-2643
捕え移	-2644
栄光を	-2645
燃える	-2646
自分に	-2647
送った	-2648
食べた	-2649
▁ダビデ	-2650
この人は	-2651
しもべは	-2652
アンモン	-2653
ゼカリヤ	-2654
明らかに	-2655
者たちが	-2656
耳を傾け	-2657
近づいて	-2658
香ばしい	-2659
おられます	-2660
ことのでき	-2661
べきである	-2662
わたしの子	-2663
手から救い	-2664
祭司たちは	-2665
ごらんなさい	-2666
ためであった	-2667
地のすべての	-2668
わたしはこれを	-2669
主をほめたたえよ	-2670
あふ	-2671
ぎを	-2672
ずつ	-2673
はて	-2674
ゲル	-2675
ソド	-2676
上着	-2677
不信	-2678
世々	-2679
全体	-2680
水に	-2681
洗い	-2682
用意	-2683
神殿	-2684
見つ	-2685
降り	-2686
香を	-2687
かなう	-2688
こうべ	-2689
ここで	-2690
に行き	-2691
らして	-2692
を守り	-2693
シモン	-2694
ヘロデ	-2695
三つの	-2696
治める	-2697
町々を	-2698
部族の	-2699
その人の	-2700
ないのか	-2701
にはいり	-2702
ぶんどり	-2703
ほむべき	-2704
られると	-2705
われらを	-2706
を受けて	-2707
アマレク	-2708
種入れぬ	-2709
預言者の	-2710
かなかった	-2711
ことがなく	-2712
つかわした	-2713
わたしから	-2714
なるであろう	-2715
いさ	-2716
くれ	-2717
たき	-2718
の毛	-2719
ヅパ	-2720
上り	-2721
害を	-2722
家は	-2723
数は	-2724
木の	-2725
砕き	-2726
祭を	-2727
行け	-2728
陣営	-2729
そうと	-2730
とがを	-2731
にする	-2732
わが民	-2733
を打ち	-2734
ギベア	-2735
下さる	-2736
以上の	-2737
作った	-2738
汚した	-2739
注いで	-2740
目には	-2741
解き明	-2742
進んだ	-2743
集めた	-2744
からきた	-2745
に属する	-2746
まさって	-2747
▁そのころ	-2748
きて言った	-2749
つかさたち	-2750
ヨルダンを	-2751
事について	-2752
このすべての	-2753
と書いてある	-2754
知らなかった	-2755
ペリシテびとは	-2756
ることができない	-2757
主はこう言われる	-2758
ことができなかった	-2759
主がモーセに命じられた	-2760
うる	-2761
さき	-2762
ちら	-2763
やす	-2764
よこ	-2765
アラ	-2766
ンが	-2767
住民	-2768
光を	-2769
刈り	-2770
務を	-2771
妻に	-2772
恐ろ	-2773
敵は	-2774
目の	-2775
肉の	-2776
荒布	-2777
足り	-2778
いたし	-2779
ことで	-2780
その後	-2781
に至る	-2782
は主の	-2783
ふさわ	-2784
シャイ	-2785
タマル	-2786
御使が	-2787
怒りの	-2788
追いや	-2789
かわいた	-2790
主の宮に	-2791
安息日に	-2792
心をつく	-2793
バビロンに	-2794
彼は言った	-2795
たちに言った	-2796
のようになる	-2797
主にむかって	-2798
信仰によって	-2799
いたからである	-2800
わたしと一緒に	-2801
んではならない	-2802
かく	-2803
かま	-2804
けに	-2805
ごも	-2806
しと	-2807
すえ	-2808
つぶ	-2809
まし	-2810
わす	-2811
アカ	-2812
シホ	-2813
ピリ	-2814
ベナ	-2815
ムが	-2816
住み	-2817
四千	-2818
山で	-2819
庭に	-2820
母は	-2821
獣の	-2822
生か	-2823
目が	-2824
第一	-2825
羊を	-2826
▁ある	-2827
▁こう	-2828
いた時	-2829
の中の	-2830
まって	-2831
ものも	-2832
コハテ	-2833
シメイ	-2834
ッサイ	-2835
主人は	-2836
叫んで	-2837
定めた	-2838
彼女が	-2839
撃って	-2840
攻める	-2841
教える	-2842
知恵を	-2843
おおよそ	-2844
ことがあ	-2845
と言われ	-2846
に住んだ	-2847
みんなの	-2848
められた	-2849
シャンの	-2850
罪を犯し	-2851
行ったが	-2852
▁わたしを	-2853
▁イエスが	-2854
に至るまで	-2855
の子たちの	-2856
アモリびと	-2857
これによって	-2858
これらの事を	-2859
っておられる	-2860
られなかった	-2861
エルサレムを	-2862
▁あなたはまた	-2863
アロンとその子	-2864
イエスは言われた	-2865
絶えることがない	-2866
▁イスラエルの人々は	-2867
▁主はまたモーセに言われた	-2868
きら	-2869
ひじ	-2870
を歩	-2871
ザレ	-2872
ナバ	-2873
ンナ	-2874
以上	-2875
彼と	-2876
木を	-2877
枝を	-2878
死を	-2879
第二	-2880
罪に	-2881
義を	-2882
頼む	-2883
あげて	-2884
しゅう	-2885
その神	-2886
ばない	-2887
ものに	-2888
をなし	-2889
エズレ	-2890
ギルガ	-2891
ムの子	-2892
リエル	-2893
定めと	-2894
焼いた	-2895
知って	-2896
自身を	-2897
起った	-2898
選んで	-2899
離れる	-2900
ってきた	-2901
の供え物	-2902
わが主よ	-2903
マナセの	-2904
出てきて	-2905
大ぜいの	-2906
殺される	-2907
選ばれた	-2908
あなたのみ	-2909
おこなった	-2910
この言葉を	-2911
を出立して	-2912
五キュビト	-2913
ことをしない	-2914
であることを	-2915
ほむべきかな	-2916
もしあなたが	-2917
イスラエルよ	-2918
死人の中から	-2919
おそ	-2920
さら	-2921
みの	-2922
ンと	-2923
下に	-2924
主人	-2925
外の	-2926
弱い	-2927
訴え	-2928
誓い	-2929
間は	-2930
ごとを	-2931
の子供	-2932
エブス	-2933
ゲルシ	-2934
ナダブ	-2935
ミヅパ	-2936
ヨシヤ	-2937
叫んだ	-2938
同様に	-2939
宿営し	-2940
尋ねて	-2941
幕屋の	-2942
用いる	-2943
空の鳥	-2944
言葉の	-2945
逃げて	-2946
おのれを	-2947
このかた	-2948
であれば	-2949
のがれて	-2950
ひそかに	-2951
みこころ	-2952
をつけて	-2953
一歳の雄	-2954
人たちを	-2955
出される	-2956
滅ぼした	-2957
誓われた	-2958
というのは	-2959
弟子たちに	-2960
の子孫である	-2961
わたしはわが	-2962
あた	-2963
あや	-2964
かで	-2965
くら	-2966
さお	-2967
じた	-2968
すま	-2969
なに	-2970
の音	-2971
る時	-2972
ヤの	-2973
世に	-2974
備え	-2975
像を	-2976
呼ぶ	-2977
問う	-2978
寄せ	-2979
御座	-2980
暗く	-2981
死の	-2982
淫行	-2983
現れ	-2984
誓願	-2985
く者は	-2986
ずかし	-2987
そばに	-2988
つかえ	-2989
導いて	-2990
捕われ	-2991
救われ	-2992
暗やみ	-2993
永遠に	-2994
燔祭の	-2995
男の子	-2996
町々と	-2997
答える	-2998
設けた	-2999
送って	-3000
▁アロン	-3001
いました	-3002
おきてを	-3003
だれにも	-3004
ともしび	-3005
示された	-3006
立ち上が	-3007
者たちよ	-3008
聖なる物	-3009
かっている	-3010
のかたわら	-3011
レビびとは	-3012
主のために	-3013
地のおもて	-3014
声に聞き従	-3015
帰ってきて	-3016
約束された	-3017
言いました	-3018
▁主の言葉が	-3019
あなたの子孫	-3020
命じて言った	-3021
ことができるか	-3022
会見の幕屋の入口	-3023
わたしたちの主イエス	-3024
くす	-3025
とび	-3026
はげ	-3027
ふり	-3028
めき	-3029
を打	-3030
シの	-3031
ムリ	-3032
三度	-3033
五千	-3034
伝え	-3035
墓に	-3036
書記	-3037
次に	-3038
汚す	-3039
父よ	-3040
男子	-3041
第三	-3042
起し	-3043
長さ	-3044
▁エホ	-3045
あざけ	-3046
あだを	-3047
いらせ	-3048
へ行き	-3049
まえに	-3050
ょうに	-3051
る者を	-3052
わから	-3053
を呼び	-3054
を得た	-3055
エゼル	-3056
国民を	-3057
報いを	-3058
心から	-3059
怒りは	-3060
殺して	-3061
民は皆	-3062
燔祭と	-3063
確かに	-3064
祭壇に	-3065
▁言った	-3066
りました	-3067
人たちの	-3068
あなたの民	-3069
わざわいだ	-3070
アブサロム	-3071
与えられる	-3072
声をあげて	-3073
王に言った	-3074
と同じように	-3075
アブラハムの	-3076
あなたがたと共に	-3077
▁わたしはあなたの	-3078
▁主はこう言われる	-3079
あわ	-3080
おび	-3081
くろ	-3082
つづ	-3083
みて	-3084
アイ	-3085
スの	-3086
ヘル	-3087
ホル	-3088
ラマ	-3089
上で	-3090
全部	-3091
力と	-3092
実な	-3093
救の	-3094
施し	-3095
雨を	-3096
▁ああ	-3097
いくさ	-3098
おのが	-3099
かたわ	-3100
くべき	-3101
であれ	-3102
ならず	-3103
ののし	-3104
められ	-3105
ろうと	-3106
を撃ち	-3107
オンは	-3108
タンの	-3109
ベテル	-3110
ンから	-3111
主から	-3112
切り倒	-3113
嗣業を	-3114
場所に	-3115
戦いの	-3116
日から	-3117
父なる	-3118
現れて	-3119
群れを	-3120
うちから	-3121
この地に	-3122
その人に	-3123
に与えた	-3124
に乗って	-3125
ものです	-3126
よこしま	-3127
をとって	-3128
エホヤダ	-3129
ヘテびと	-3130
七日の間	-3131
神の前に	-3132
祭の犠牲	-3133
祭壇を築	-3134
あるように	-3135
主なる神よ	-3136
名をもって	-3137
わたしと共に	-3138
わたしは彼らを	-3139
カルデヤびとの	-3140
生きておられる	-3141
万軍の主は言われる	-3142
▁マ	-3143
くと	-3144
ぜた	-3145
てて	-3146
ねく	-3147
オピ	-3148
テラ	-3149
ロト	-3150
一生	-3151
下り	-3152
五頭	-3153
会い	-3154
及び	-3155
口は	-3156
救を	-3157
柱の	-3158
渡し	-3159
用い	-3160
聖書	-3161
良き	-3162
魂を	-3163
▁人が	-3164
こんな	-3165
つけた	-3166
でなく	-3167
の方に	-3168
の王は	-3169
びとに	-3170
むかい	-3171
わが神	-3172
わせる	-3173
アサフ	-3174
ナタン	-3175
ベエル	-3176
メラリ	-3177
ルベン	-3178
口を開	-3179
怒って	-3180
罰する	-3181
葬った	-3182
▁ヤコブ	-3183
おまえの	-3184
おられた	-3185
きました	-3186
ところで	-3187
めとった	-3188
を持って	-3189
を造って	-3190
エホヤキ	-3191
シメオン	-3192
初めから	-3193
男の子を	-3194
神の宮の	-3195
罪を犯す	-3196
集まった	-3197
▁ヨセフは	-3198
であるから	-3199
どこにいる	-3200
ソロモンは	-3201
レビびとの	-3202
主を恐れる	-3203
貧しい者を	-3204
▁そうすれば	-3205
あなたの兄弟	-3206
それによって	-3207
はなりません	-3208
びとの氏族が出	-3209
わたしの言葉を	-3210
わたしは彼らの	-3211
そのいつくしみは	-3212
行わなければならない	-3213
いえ	-3214
きび	-3215
ざま	-3216
たい	-3217
ひも	-3218
めよ	-3219
エデ	-3220
ネゲ	-3221
ベカ	-3222
二度	-3223
分の	-3224
命の	-3225
場所	-3226
後の	-3227
火に	-3228
燃え	-3229
石の	-3230
舌は	-3231
苦難	-3232
通り	-3233
遠い	-3234
▁主に	-3235
いやし	-3236
がれた	-3237
くじを	-3238
ながく	-3239
にその	-3240
やもめ	-3241
ゆだね	-3242
を守る	-3243
ウリヤ	-3244
エルは	-3245
ルキヤ	-3246
主の使	-3247
工事を	-3248
日には	-3249
現れた	-3250
町々は	-3251
▁自分の	-3252
おのれの	-3253
その中に	-3254
その家族	-3255
ちょうど	-3256
の子孫の	-3257
みもとに	-3258
むなしく	-3259
ミデアン	-3260
王の前に	-3261
者たちに	-3262
▁ヒゼキヤ	-3263
▁ユダの王	-3264
っていたが	-3265
はわたしの	-3266
ひじょうに	-3267
わたしの民	-3268
バシャンの	-3269
人を殺した	-3270
祭司はその	-3271
見ていると	-3272
解き明かし	-3273
連れてきて	-3274
ならなかった	-3275
またあなたの	-3276
ることのでき	-3277
部族のうちから	-3278
わたしがあなたに	-3279
は次のとおりである	-3280
▁主なる神はこう言われる	-3281
とこしえに絶えることがない	-3282
ちり	-3283
もす	-3284
ら穴	-3285
ホリ	-3286
七百	-3287
側に	-3288
力は	-3289
十五	-3290
叫ぶ	-3291
天を	-3292
娘よ	-3293
御子	-3294
手と	-3295
数を	-3296
時の	-3297
歩き	-3298
父に	-3299
長い	-3300
がきて	-3301
する者	-3302
つえを	-3303
どもを	-3304
ならぬ	-3305
に従い	-3306
の名は	-3307
の家を	-3308
まねく	-3309
ままで	-3310
るのは	-3311
ギリシ	-3312
ピリポ	-3313
ベルの	-3314
ラムの	-3315
呼んだ	-3316
建てた	-3317
知恵と	-3318
起して	-3319
▁これを	-3320
うために	-3321
くすしき	-3322
その先祖	-3323
のぼって	-3324
よろしく	-3325
を守って	-3326
主がその	-3327
者はみな	-3328
聞きいれ	-3329
食べさせ	-3330
うであろう	-3331
ることなく	-3332
エリシャは	-3333
レバノンの	-3334
住んでいる	-3335
の	-3336
、	-3337
た	-3338
に	-3339
は	-3340
な	-3341
を	-3342
し	-3343
。	-3344
て	-3345
い	-3346
と	-3347
る	-3348
あ	-3349
れ	-3350
ら	-3351
▁	-3352
が	-3353
わ	-3354
で	-3355
っ	-3356
か	-3357
そ	-3358
こ	-3359
う	-3360
も	-3361
ま	-3362
す	-3363
よ	-3364
さ	-3365
き	-3366
り	-3367
彼	-3368
ち	-3369
く	-3370
え	-3371
言	-3372
エ	-3373
め	-3374
人	-3375
ル	-3376
主	-3377
者	-3378
お	-3379
だ	-3380
つ	-3381
ろ	-3382
け	-3383
イ	-3384
ス	-3385
ア	-3386
せ	-3387
び	-3388
み	-3389
「	-3390
」	-3391
ラ	-3392
べ	-3393
ば	-3394
子	-3395
ン	-3396
神	-3397
ん	-3398
ヤ	-3399
行	-3400
シ	-3401
ム	-3402
リ	-3403
ど	-3404
々	-3405
ダ	-3406
王	-3407
見	-3408
地	-3409
む	-3410
げ	-3411
サ	-3412
レ	-3413
ロ	-3414
ビ	-3415
出	-3416
デ	-3417
ず	-3418
民	-3419
ブ	-3420
じ	-3421
テ	-3422
一	-3423
祭	-3424
分	-3425
や	-3426
日	-3427
上	-3428
時	-3429
ト	-3430
自	-3431
物	-3432
モ	-3433
知	-3434
家	-3435
所	-3436
手	-3437
ヨ	-3438
セ	-3439
前	-3440
事	-3441
ひ	-3442
マ	-3443
ハ	-3444
立	-3445
バ	-3446
十	-3447
国	-3448
パ	-3449
女	-3450
ナ	-3451
聞	-3452
キ	-3453
ご	-3454
ほ	-3455
心	-3456
ベ	-3457
大	-3458
中	-3459
取	-3460
ゆ	-3461
生	-3462
食	-3463
二	-3464
葉	-3465
ぎ	-3466
町	-3467
ょ	-3468
ユ	-3469
『	-3470
』	-3471
カ	-3472
悪	-3473
命	-3474
父	-3475
ぶ	-3476
死	-3477
名	-3478
弟	-3479
罪	-3480
与	-3481
ウ	-3482
下	-3483
共	-3484
ジ	-3485
聖	-3486
来	-3487
タ	-3488
へ	-3489
長	-3490
目	-3491
ふ	-3492
ク	-3493
間	-3494
ぼ	-3495
司	-3496
族	-3497
ざ	-3498
殺	-3499
身	-3500
ね	-3501
全	-3502
滅	-3503
天	-3504
プ	-3505
オ	-3506
ミ	-3507
ー	-3508
三	-3509
会	-3510
住	-3511
兄	-3512
コ	-3513
思	-3514
帰	-3515
フ	-3516
ペ	-3517
ネ	-3518
入	-3519
信	-3520
道	-3521
恐	-3522
ザ	-3523
従	-3524
ャ	-3525
語	-3526
受	-3527
宮	-3528
孫	-3529
メ	-3530
年	-3531
水	-3532
ュ	-3533
多	-3534
救	-3535
今	-3536
呼	-3537
ニ	-3538
羊	-3539
ゼ	-3540
先	-3541
喜	-3542
造	-3543
ケ	-3544
高	-3545
口	-3546
恵	-3547
去	-3548
万	-3549
山	-3550
七	-3551
四	-3552
得	-3553
ド	-3554
正	-3555
預	-3556
守	-3557
愛	-3558
答	-3559
頭	-3560
使	-3561
義	-3562
霊	-3563
力	-3564
戦	-3565
起	-3566
書	-3567
荒	-3568
ぐ	-3569
何	-3570
声	-3571
方	-3572
向	-3573
告	-3574
金	-3575
実	-3576
部	-3577
五	-3578
持	-3579
光	-3580
軍	-3581
火	-3582
ヒ	-3583
同	-3584
世	-3585
後	-3586
百	-3587
野	-3588
ッ	-3589
集	-3590
幕	-3591
・	-3592
木	-3593
ヘ	-3594
御	-3595
ホ	-3596
仰	-3597
仕	-3598
定	-3599
怒	-3600
教	-3601
着	-3602
求	-3603
供	-3604
娘	-3605
ソ	-3606
不	-3607
妻	-3608
足	-3609
法	-3610
栄	-3611
対	-3612
安	-3613
石	-3614
数	-3615
残	-3616
汚	-3617
ガ	-3618
づ	-3619
皆	-3620
約	-3621
追	-3622
牛	-3623
雄	-3624
門	-3625
引	-3626
打	-3627
敵	-3628
歩	-3629
祖	-3630
離	-3631
ギ	-3632
衆	-3633
海	-3634
福	-3635
血	-3636
渡	-3637
ぜ	-3638
小	-3639
壇	-3640
捨	-3641
連	-3642
他	-3643
近	-3644
ぬ	-3645
良	-3646
合	-3647
置	-3648
撃	-3649
産	-3650
ぞ	-3651
場	-3652
捕	-3653
満	-3654
屋	-3655
臨	-3656
千	-3657
律	-3658
苦	-3659
代	-3660
群	-3661
飲	-3662
第	-3663
犯	-3664
肉	-3665
男	-3666
緒	-3667
建	-3668
寄	-3669
誓	-3670
夜	-3671
強	-3672
香	-3673
望	-3674
次	-3675
銀	-3676
助	-3677
焼	-3678
倒	-3679
願	-3680
遠	-3681
顔	-3682
平	-3683
座	-3684
月	-3685
油	-3686
切	-3687
真	-3688
祈	-3689
ズ	-3690
若	-3691
酒	-3692
六	-3693
導	-3694
ノ	-3695
器	-3696
攻	-3697
祝	-3698
母	-3699
憎	-3700
契	-3701
囲	-3702
流	-3703
示	-3704
進	-3705
息	-3706
氏	-3707
偽	-3708
終	-3709
結	-3710
ピ	-3711
注	-3712
報	-3713
川	-3714
内	-3715
外	-3716
像	-3717
君	-3718
悩	-3719
老	-3720
獣	-3721
宿	-3722
燔	-3723
断	-3724
叫	-3725
耳	-3726
病	-3727
至	-3728
畑	-3729
過	-3730
重	-3731
ゲ	-3732
伏	-3733
常	-3734
清	-3735
治	-3736
携	-3737
気	-3738
選	-3739
歌	-3740
必	-3741
明	-3742
衣	-3743
伝	-3744
拝	-3745
種	-3746
異	-3747
ボ	-3748
服	-3749
放	-3750
尋	-3751
災	-3752
箱	-3753
青	-3754
当	-3755
業	-3756
落	-3757
営	-3758
戒	-3759
破	-3760
初	-3761
賜	-3762
送	-3763
絶	-3764
悲	-3765
及	-3766
投	-3767
牧	-3768
柱	-3769
通	-3770
開	-3771
嗣	-3772
現	-3773
礼	-3774
隠	-3775
負	-3776
感	-3777
用	-3778
歳	-3779
互	-3780
悟	-3781
愚	-3782
逃	-3783
楽	-3784
意	-3785
争	-3786
作	-3787
永	-3788
恥	-3789
返	-3790
理	-3791
―	-3792
働	-3793
別	-3794
風	-3795
土	-3796
勇	-3797
体	-3798
夫	-3799
車	-3800
牲	-3801
犠	-3802
ツ	-3803
解	-3804
再	-3805
右	-3806
徒	-3807
話	-3808
以	-3809
度	-3810
東	-3811
奪	-3812
待	-3813
馬	-3814
朝	-3815
罰	-3816
備	-3817
証	-3818
音	-3819
グ	-3820
堅	-3821
周	-3822
最	-3823
激	-3824
貧	-3825
富	-3826
士	-3827
加	-3828
壁	-3829
深	-3830
頼	-3831
麦	-3832
八	-3833
謝	-3834
害	-3835
泣	-3836
無	-3837
獲	-3838
諸	-3839
谷	-3840
勢	-3841
城	-3842
宣	-3843
新	-3844
動	-3845
工	-3846
束	-3847
邦	-3848
成	-3849
兵	-3850
庭	-3851
ポ	-3852
利	-3853
穴	-3854
乗	-3855
台	-3856
伸	-3857
砕	-3858
北	-3859
糸	-3860
雲	-3861
権	-3862
除	-3863
属	-3864
寝	-3865
布	-3866
淫	-3867
魂	-3868
境	-3869
暗	-3870
乳	-3871
親	-3872
少	-3873
広	-3874
戸	-3875
洗	-3876
非	-3877
側	-3878
嘆	-3879
畜	-3880
和	-3881
務	-3882
勝	-3883
吹	-3884
払	-3885
空	-3886
変	-3887
夕	-3888
殿	-3889
移	-3890
隷	-3891
岩	-3892
様	-3893
奴	-3894
銅	-3895
裂	-3896
僕	-3897
官	-3898
決	-3899
留	-3900
偶	-3901
割	-3902
皮	-3903
買	-3904
ヅ	-3905
墓	-3906
宝	-3907
散	-3908
有	-3909
誇	-3910
燃	-3911
葬	-3912
議	-3913
召	-3914
驚	-3915
売	-3916
計	-3917
設	-3918
半	-3919
学	-3920
訴	-3921
善	-3922
果	-3923
降	-3924
令	-3925
消	-3926
隣	-3927
張	-3928
憤	-3929
授	-3930
位	-3931
尊	-3932
隊	-3933
確	-3934
労	-3935
角	-3936
踏	-3937
ゴ	-3938
傾	-3939
役	-3940
眠	-3941
築	-3942
素	-3943
相	-3944
鳥	-3945
傷	-3946
枝	-3947
花	-3948
識	-3949
公	-3950
南	-3951
好	-3952
難	-3953
復	-3954
指	-3955
納	-3956
領	-3957
骨	-3958
村	-3959
迎	-3960
妹	-3961
首	-3962
問	-3963
舟	-3964
越	-3965
込	-3966
保	-3967
忘	-3968
ゅ	-3969
威	-3970
毛	-3971
弱	-3972
施	-3973
昼	-3974
友	-3975
失	-3976
陣	-3977
熱	-3978
草	-3979
逆	-3980
配	-3981
刈	-3982
招	-3983
覚	-3984
陰	-3985
急	-3986
舌	-3987
白	-3988
続	-3989
要	-3990
字	-3991
記	-3992
閉	-3993
雨	-3994
両	-3995
慰	-3996
