<pad>	0
</s>	0
<unk>	0
¦	-1.26051
▁¦	-1.69228
▁	-2.99557
𐋇	-3.34211
▁,	-3.44337
a	-3.72044
i	-4.23769
▁.	-4.42131
u	-4.73252
s	-4.78714
v	-4.85954
k	-5.18051
z	-5.1907
se	-5.21919
na	-5.27591
m	-5.3377
o	-5.35392
ne	-5.53644
y	-5.56933
po	-5.57781
e	-5.69064
▁:	-5.71971
ch	-5.72663
ho	-5.78299
za	-5.95622
l	-5.9751
ti	-5.99965
í	-6.00363
do	-6.08157
to	-6.10081
te	-6.14904
ě	-6.15424
jest	-6.16404
od	-6.16689
ž	-6.17749
že	-6.18462
hospodin	-6.18681
jeho	-6.20356
▁;	-6.20991
li	-6.21809
vy	-6.25918
ť	-6.31045
š	-6.31101
pak	-6.36602
ní	-6.37441
t	-6.38409
je	-6.42362
nebo	-6.44819
é	-6.48772
á	-6.51662
syn	-6.52001
ce	-6.52491
em	-6.56513
b	-6.56934
při	-6.58636
jsem	-6.5898
d	-6.60423
mi	-6.62944
by	-6.65575
ů	-6.6862
r	-6.69526
▁?	-6.69904
aby	-6.70573
řekl	-6.70867
jí	-6.72977
ové	-6.75106
mu	-6.7841
ale	-6.78572
když	-6.81221
tak	-6.83833
bude	-6.86513
pro	-6.88822
lid	-6.89796
byl	-6.90016
ně	-6.9076
h	-6.94093
kterýž	-6.95623
ou	-6.96053
před	-6.97341
le	-6.99293
p	-6.99743
jejich	-7.02278
il	-7.02507
své	-7.03245
kteříž	-7.05095
n	-7.05707
jako	-7.06681
lo	-7.08444
no	-7.13008
tě	-7.1405
ty	-7.14101
ni	-7.143
ý	-7.14905
j	-7.16016
tedy	-7.16295
me	-7.16468
jsou	-7.18141
ob	-7.18217
já	-7.19562
ra	-7.21298
la	-7.22321
ého	-7.22689
né	-7.23136
en	-7.23664
král	-7.24356
on	-7.26875
dí	-7.2727
mne	-7.27937
svého	-7.28074
ma	-7.2975
toho	-7.30647
ku	-7.32633
vých	-7.33119
má	-7.33769
roz	-7.33925
nad	-7.35893
proti	-7.36266
ve	-7.37017
vou	-7.39334
č	-7.40926
ji	-7.4129
tvé	-7.41405
jim	-7.41598
kteréž	-7.43021
až	-7.43163
c	-7.43179
ze	-7.43458
jsi	-7.44025
ví	-7.45429
ten	-7.46378
bůh	-7.46409
země	-7.46829
měst	-7.47802
ná	-7.48241
jemu	-7.49126
také	-7.50391
budou	-7.50518
protož	-7.51613
ovi	-7.51949
dom	-7.52469
zemi	-7.53284
ře	-7.55279
el	-7.56174
ný	-7.56224
ta	-7.56901
tr	-7.5769
což	-7.58318
tobě	-7.60206
da	-7.60807
mé	-7.62202
jej	-7.63061
pa	-7.63249
byli	-7.63343
synů	-7.6367
ky	-7.63788
dá	-7.6425
aj	-7.64491
věc	-7.65331
ru	-7.65397
vám	-7.65627
té	-7.6792
še	-7.69349
-	-7.69485
st	-7.71039
rá	-7.72453
če	-7.72799
ých	-7.72925
obě	-7.73694
pl	-7.74138
dal	-7.75177
obět	-7.756
uje	-7.75711
kdo	-7.76549
vá	-7.76794
ním	-7.77031
f	-7.77153
lé	-7.77391
pře	-7.78219
ští	-7.79738
jmén	-7.80966
boží	-7.81545
ci	-7.81992
tu	-7.82897
vod	-7.83125
cí	-7.83704
svým	-7.84101
ské	-7.8423
ani	-7.84647
vše	-7.84866
vás	-7.85008
boha	-7.85796
ův	-7.85849
nu	-7.87736
mluvil	-7.88073
dne	-7.88124
pod	-7.88887
lí	-7.89265
den	-7.91143
an	-7.91594
všeck	-7.9194
co	-7.91941
bylo	-7.91964
ech	-7.92174
pí	-7.93206
mezi	-7.94573
ř	-7.95318
pán	-7.95538
míst	-7.95758
praví	-7.96063
ruk	-7.96292
moc	-7.96728
ům	-7.97506
jste	-7.9856
řk	-7.99053
mě	-8.01156
iti	-8.01446
všecky	-8.0148
de	-8.01602
sti	-8.02289
ří	-8.0297
učinil	-8.02984
těch	-8.0327
můj	-8.0417
ský	-8.04601
svém	-8.04703
iáš	-8.04883
tí	-8.04916
jeruzalém	-8.05269
všickni	-8.05762
hospodinov	-8.07068
měl	-8.0717
živ	-8.08049
nou	-8.08257
ha	-8.08372
david	-8.08481
všech	-8.09682
ň	-8.10062
žen	-8.10265
aniž	-8.10404
ím	-8.10544
ží	-8.10604
mně	-8.10972
ích	-8.11153
ší	-8.11278
kteráž	-8.11351
oval	-8.11352
izrael	-8.12377
al	-8.13118
oči	-8.13204
kr	-8.14002
jeden	-8.14071
ost	-8.14345
slov	-8.1507
kdož	-8.15936
všecko	-8.16224
soud	-8.16417
abys	-8.16764
krále	-8.17061
její	-8.17277
jsme	-8.17435
izraelský	-8.1753
ď	-8.17533
hl	-8.17863
skrz	-8.17983
sta	-8.18398
ro	-8.18556
děl	-8.18957
nám	-8.19113
čas	-8.19393
koli	-8.19961
ova	-8.20229
g	-8.20238
potom	-8.20403
srdce	-8.20413
dě	-8.20876
jisté	-8.21086
pe	-8.21746
tam	-8.22438
služebník	-8.23066
není	-8.24236
cest	-8.24572
byla	-8.25124
budu	-8.25814
vz	-8.26039
ježíš	-8.26323
prav	-8.27413
ej	-8.27455
ny	-8.2804
nás	-8.28272
(	-8.28556
ar	-8.28774
sil	-8.28776
vedl	-8.28883
sedm	-8.28918
však	-8.29179
ry	-8.29913
ke	-8.30139
jakž	-8.3023
tvůj	-8.30862
více	-8.3165
ách	-8.32425
sto	-8.3454
činí	-8.34761
pokoj	-8.34971
ovati	-8.35063
národ	-8.35258
vol	-8.35308
šel	-8.35367
ó	-8.35961
stalo	-8.36045
jich	-8.36152
ři	-8.36718
tebe	-8.37022
každý	-8.37137
nich	-8.38128
nic	-8.38258
hor	-8.38404
muž	-8.39841
nost	-8.40325
kterouž	-8.40402
bo	-8.40569
nyní	-8.4059
již	-8.40795
tom	-8.40869
vý	-8.41025
otce	-8.41271
ení	-8.41607
ým	-8.41767
let	-8.42317
prorok	-8.42373
naše	-8.43125
ám	-8.43283
kou	-8.43702
odpověděl	-8.43829
pří	-8.4455
viděl	-8.44597
my	-8.44958
bratří	-8.45234
prostřed	-8.45417
nej	-8.45506
hu	-8.45974
budete	-8.46029
hlas	-8.46195
hle	-8.46404
tá	-8.46674
pr	-8.47176
hřích	-8.47271
něm	-8.47327
život	-8.4733
ať	-8.47387
kon	-8.47572
ot	-8.47629
re	-8.4773
val	-8.4783
dcer	-8.48442
pá	-8.4871
budeš	-8.49302
ují	-8.49428
vaše	-8.49776
díl	-8.49986
mojžíš	-8.50275
čí	-8.5046
ja	-8.51133
proto	-8.51584
osti	-8.51589
něho	-8.51628
pokolení	-8.52849
zákon	-8.52879
jakož	-8.52948
zlat	-8.53009
přišel	-8.53015
jestliže	-8.53449
tomu	-8.53992
každé	-8.54244
bohu	-8.54447
aneb	-8.54818
muži	-8.54891
br	-8.55003
oni	-8.55086
dl	-8.55448
jenž	-8.55863
toto	-8.56047
íti	-8.56933
di	-8.57517
neb	-8.57577
kněz	-8.58272
rad	-8.58345
ú	-8.58399
ještě	-8.58647
dr	-8.58718
činil	-8.5893
abych	-8.59123
oh	-8.5951
bý	-8.59708
poslal	-8.60076
člověk	-8.60153
dům	-8.60393
ání	-8.60737
podl	-8.6075
zlé	-8.60774
takto	-8.6135
vel	-8.61705
ba	-8.61875
slovo	-8.62462
hlav	-8.62748
boj	-8.62935
slyšel	-8.63205
němu	-8.63396
stup	-8.63487
mou	-8.63641
ovali	-8.63992
dn	-8.64106
duch	-8.64232
pil	-8.6435
stran	-8.64544
du	-8.64565
bez	-8.64865
str	-8.64973
tvář	-8.65386
nes	-8.65829
nebude	-8.65989
tři	-8.66128
hospodine	-8.66217
vaši	-8.66389
dej	-8.66959
lu	-8.67167
žádné	-8.67296
zá	-8.68489
dva	-8.68589
knížat	-8.68677
sam	-8.69167
šli	-8.6948
ků	-8.69911
tebou	-8.70009
jedn	-8.71325
ování	-8.71703
vzal	-8.71996
noh	-8.71998
vůj	-8.72053
úst	-8.72114
či	-8.72341
mnou	-8.7288
věd	-8.73037
království	-8.73187
tvá	-8.73325
et	-8.74161
tisíc	-8.74371
bí	-8.74736
pravím	-8.74742
nimi	-8.74936
svá	-8.75206
řeč	-8.75624
zdaliž	-8.75762
hr	-8.76111
vší	-8.76541
pět	-8.76617
druhé	-8.76845
bratr	-8.76886
ejte	-8.76899
svět	-8.77043
čist	-8.77298
tý	-8.77428
řekli	-8.77543
čeled	-8.78165
izraelské	-8.78836
tím	-8.79009
veliké	-8.79175
než	-8.79494
kal	-8.79519
ská	-8.79583
všem	-8.81484
dobré	-8.81539
otc	-8.81762
kněží	-8.82048
těm	-8.83394
uj	-8.83518
stá	-8.83694
íš	-8.83958
jedno	-8.84033
stí	-8.84715
nepravost	-8.85008
náš	-8.85024
jde	-8.85046
er	-8.85412
měsíc	-8.86379
ly	-8.87224
klad	-8.87338
egypt	-8.87396
sláv	-8.87493
eli	-8.87712
vin	-8.87782
loži	-8.87955
▁)	-8.88198
rod	-8.88746
hněv	-8.88767
věky	-8.89048
bys	-8.89101
sám	-8.89122
há	-8.89138
člověka	-8.89295
zase	-8.89394
ek	-8.89726
prv	-8.90101
muže	-8.90185
spravedlnost	-8.90327
brán	-8.90445
rou	-8.90497
síl	-8.91071
vojsk	-8.9149
veliký	-8.91777
tento	-8.91873
ode	-8.92271
dar	-8.92347
bývá	-8.92722
přikázal	-8.93288
ným	-8.93331
duše	-8.93527
jak	-8.9372
davidov	-8.94245
přes	-8.9496
ství	-8.95353
slyš	-8.9549
sebe	-8.95825
pustil	-8.9635
stříbr	-8.96868
padl	-8.96986
boh	-8.97037
hlad	-8.97044
táhl	-8.9743
jednoho	-8.97838
eň	-8.98391
milost	-8.98463
bou	-8.98471
mužů	-8.98758
buď	-8.99012
vůkol	-8.99042
otec	-8.99378
bu	-8.99497
ových	-8.99877
dvě	-8.9991
poněvadž	-8.99988
nebe	-9.00285
smlouv	-9.00305
posl	-9.00611
mojžíšov	-9.00681
joz	-9.00681
mých	-9.00837
tří	-9.00871
saul	-9.00873
dědictví	-9.01264
přišli	-9.01779
volal	-9.02061
vati	-9.02514
kdež	-9.02562
ber	-9.02687
čil	-9.03088
mají	-9.03179
anděl	-9.03298
věř	-9.03393
noc	-9.0342
nechť	-9.03557
jdou	-9.03584
nepřátel	-9.03602
nim	-9.03808
pročež	-9.03867
mysl	-9.04178
zástupů	-9.0477
mohl	-9.05176
pole	-9.05319
řkouc	-9.05485
vrch	-9.05554
fa	-9.05787
dělá	-9.05788
dám	-9.05796
nepo	-9.05958
án	-9.06081
mluv	-9.06151
svatý	-9.06375
um	-9.06631
chom	-9.06659
ec	-9.06738
vesel	-9.06818
umřel	-9.0692
měli	-9.07036
něj	-9.07688
ému	-9.07767
klá	-9.08109
bit	-9.08146
podobn	-9.08352
chází	-9.08588
proč	-9.0863
ště	-9.09125
žádný	-9.09281
nádob	-9.09435
jud	-9.09693
bych	-9.09985
egyptské	-9.10029
ající	-9.10143
mluví	-9.10446
zná	-9.10561
panovník	-9.10682
ským	-9.10685
množství	-9.11036
kudž	-9.11392
rozum	-9.11544
oltář	-9.11789
izraele	-9.12409
činit	-9.12487
obyvatel	-9.13182
bil	-9.13214
pravil	-9.13596
tře	-9.13799
milosrdenství	-9.14273
jiné	-9.14364
desát	-9.1459
zem	-9.15357
hned	-9.15381
vali	-9.15812
pane	-9.15827
šest	-9.15926
stál	-9.16517
dnů	-9.1678
zdrav	-9.16868
vámi	-9.169
mám	-9.16951
ujte	-9.17017
nesl	-9.17036
opět	-9.1758
mor	-9.17597
lok	-9.17648
první	-9.17846
stan	-9.18387
tež	-9.18517
znám	-9.18757
vezm	-9.18785
poušt	-9.19199
šla	-9.19369
otců	-9.19395
tiž	-9.19928
svaté	-9.20042
ován	-9.20199
jedl	-9.20614
žid	-9.20976
léta	-9.2126
moře	-9.21485
kníže	-9.21493
stane	-9.21911
kteréhož	-9.22263
bydlil	-9.22263
jehož	-9.22527
liž	-9.22527
bože	-9.22739
modl	-9.23121
dní	-9.23184
miluj	-9.23195
chleb	-9.23212
pakli	-9.24201
přijde	-9.24223
zdali	-9.24676
králov	-9.24782
které	-9.24867
jiný	-9.25124
hospodinovo	-9.25818
kol	-9.25884
mnoho	-9.2591
izraelským	-9.26077
naši	-9.26445
zůstal	-9.2671
bral	-9.26759
patř	-9.26818
byly	-9.27122
syr	-9.27186
nežli	-9.27477
set	-9.27603
všeliké	-9.27652
dali	-9.27803
toliko	-9.28202
kor	-9.28257
řek	-9.28408
kristu	-9.28587
srdc	-9.28672
dělal	-9.2873
tvoji	-9.2881
bál	-9.29065
hoře	-9.29422
vede	-9.29464
dnes	-9.29635
meč	-9.29828
pravd	-9.29989
vidí	-9.30524
tel	-9.3068
jákob	-9.31048
manželk	-9.31333
může	-9.31392
tělo	-9.31464
matk	-9.31842
způsob	-9.31858
amen	-9.31858
národů	-9.32002
nebylo	-9.32137
hod	-9.32183
přední	-9.32379
ící	-9.32428
mar	-9.32712
jdi	-9.3276
aron	-9.33025
slyší	-9.33333
zplodil	-9.33572
moudrost	-9.33572
necha	-9.33706
služebníc	-9.34016
spolu	-9.34023
této	-9.34322
stánk	-9.34478
ducha	-9.3454
plat	-9.34548
duš	-9.34646
chtěl	-9.34667
silný	-9.35436
shromáždění	-9.35464
tud	-9.35802
bal	-9.3599
div	-9.36268
postavil	-9.36553
prchlivost	-9.36725
všechněm	-9.36804
váš	-9.37003
achi	-9.3701
ješto	-9.37191
všelik	-9.372
postav	-9.37317
svědectví	-9.37644
tého	-9.37735
žena	-9.37771
mat	-9.38438
ující	-9.38848
prosím	-9.39043
krát	-9.39084
chvál	-9.3914
voz	-9.3926
osl	-9.39385
nebyl	-9.39689
vají	-9.40013
věz	-9.40127
chrám	-9.40151
dává	-9.40188
jal	-9.40445
mluvit	-9.40709
nější	-9.40726
tato	-9.41029
stal	-9.41229
stře	-9.41239
judské	-9.41465
nalezl	-9.41893
dobře	-9.41893
těla	-9.42205
tvým	-9.42375
pust	-9.42715
rán	-9.42745
truhl	-9.42878
zůsta	-9.43225
meče	-9.43279
kterak	-9.43363
slou	-9.43396
judský	-9.43427
rci	-9.43747
chodil	-9.43853
js	-9.43883
pozdvih	-9.44177
smrti	-9.44242
ustanovení	-9.44336
příčin	-9.44337
ben	-9.44491
kraloval	-9.44825
moáb	-9.44825
starší	-9.44825
čtyři	-9.45193
šalomoun	-9.45238
iášov	-9.45533
babylon	-9.45793
ohně	-9.4617
ruko	-9.463
jordán	-9.46325
obětoval	-9.46419
svatyn	-9.46947
poškvrn	-9.47337
počal	-9.47341
lež	-9.4746
navrátil	-9.47531
práv	-9.47672
učiním	-9.47936
přítel	-9.48971
mas	-9.49137
přede	-9.49436
dobyt	-9.49545
chodí	-9.49568
levít	-9.50133
vyšel	-9.50534
ježíše	-9.50901
oznámil	-9.50966
otevř	-9.50972
učiněn	-9.51014
krajin	-9.51496
bet	-9.51577
deset	-9.51595
třetí	-9.51764
kost	-9.51861
udělal	-9.52074
zápal	-9.52523
přikázaní	-9.5256
nichž	-9.52683
vedu	-9.52723
uši	-9.52971
krev	-9.53121
slyše	-9.53297
vír	-9.53616
mým	-9.53733
smrt	-9.53744
kam	-9.5389
hovad	-9.54067
vnitř	-9.54182
lás	-9.54381
budi	-9.5483
efraim	-9.55278
svat	-9.55428
zástup	-9.55469
vad	-9.55877
ge	-9.55894
vyvedl	-9.55965
lot	-9.55979
pohan	-9.56044
psáno	-9.56051
vydal	-9.56237
dan	-9.56255
stojí	-9.56367
jazyk	-9.56386
cizí	-9.5649
plnil	-9.5698
roze	-9.57192
nebes	-9.57195
ga	-9.57329
vím	-9.57885
skutk	-9.58436
vstav	-9.58444
vstal	-9.58531
pál	-9.58641
němž	-9.58717
mnohý	-9.58721
osm	-9.58777
ačkoli	-9.59227
nejvyšší	-9.59786
psal	-9.59793
báz	-9.59832
řkoucí	-9.60118
itsk	-9.60338
tvrd	-9.60366
služebníků	-9.60579
hojn	-9.60612
pustí	-9.60933
položil	-9.61005
chová	-9.61324
hnu	-9.61434
slunce	-9.6153
moj	-9.618
pouště	-9.62053
filistin	-9.62308
padesát	-9.62792
poledn	-9.63122
přivedl	-9.63236
věr	-9.63407
hn	-9.63731
kop	-9.63838
krist	-9.63904
nebudeš	-9.64438
vždy	-9.64506
poznal	-9.64535
sion	-9.64714
petr	-9.64728
vydá	-9.64783
obrátil	-9.65112
pokrm	-9.65188
věděl	-9.65907
hrob	-9.66212
dříví	-9.66337
služb	-9.66337
abraham	-9.66645
stráž	-9.67001
královské	-9.67012
nemohl	-9.67065
spasení	-9.67104
nství	-9.67238
lože	-9.67844
kamení	-9.67882
potok	-9.68112
hejtman	-9.68199
ohavnost	-9.68199
zpěv	-9.68201
tisíců	-9.68285
zabil	-9.68689
navrátí	-9.68828
veliko	-9.6905
spravedlivý	-9.69071
▁.)	-9.69184
jozef	-9.69976
údolí	-9.70098
vzav	-9.70206
ovu	-9.70333
ukázal	-9.70663
ovoce	-9.70739
beránk	-9.7074
večer	-9.70753
oko	-9.70915
žádost	-9.71384
uzří	-9.71411
hrad	-9.71647
chlé	-9.71665
stavěl	-9.71771
kteří	-9.71833
jistě	-9.72041
očí	-9.72066
říká	-9.72555
druhý	-9.72721
troub	-9.72885
tuto	-9.73607
věří	-9.73972
ostříha	-9.74559
mrtv	-9.74561
níci	-9.74579
roucho	-9.74679
umře	-9.74731
jděte	-9.74946
cestou	-9.75132
oltáře	-9.75265
sobot	-9.75352
roucha	-9.75364
hledě	-9.75691
upřím	-9.75698
povol	-9.7571
uzřel	-9.76022
vejd	-9.76145
káz	-9.76538
aronov	-9.76553
vyšl	-9.76609
úmluv	-9.76739
hledá	-9.76746
dával	-9.76783
nebeské	-9.7683
cím	-9.76935
vycháze	-9.77348
posloucha	-9.77386
samuel	-9.77388
faraonov	-9.77395
joáb	-9.78075
kamen	-9.78175
mrtvý	-9.7854
ustavičn	-9.7877
věčn	-9.79349
jákobov	-9.80011
odšel	-9.80116
půjde	-9.80174
znamení	-9.80174
hřeš	-9.80199
mordova	-9.80221
příbytk	-9.80466
býval	-9.8049
ější	-9.80556
čten	-9.80571
hledal	-9.80787
budeme	-9.80837
dědičn	-9.80883
blázn	-9.80883
čím	-9.80962
zdá	-9.81069
páně	-9.81198
měř	-9.81395
galád	-9.81597
větší	-9.81597
moři	-9.81608
oblak	-9.81637
stolic	-9.8171
obětova	-9.82288
čtyřidceti	-9.82316
mnozí	-9.83041
bližní	-9.83044
slavn	-9.83103
dalek	-9.83226
sloup	-9.83251
pověděl	-9.84116
rok	-9.84214
tváří	-9.84301
pravé	-9.84367
mnohé	-9.84527
držel	-9.8456
kup	-9.84896
ejský	-9.84986
strach	-9.85277
staven	-9.85376
ezechiáš	-9.85993
bydlí	-9.86016
bar	-9.86042
stád	-9.86092
křik	-9.86793
klaně	-9.86831
vůl	-9.86845
vaší	-9.86862
krv	-9.87079
střel	-9.87084
ramen	-9.87153
izák	-9.87533
azar	-9.87772
kananejsk	-9.88266
výsost	-9.88288
rozkázal	-9.88316
skopc	-9.8852
věk	-9.88549
vidě	-9.88713
bohů	-9.88874
)	-9.88969
modlitb	-9.89036
farao	-9.89809
pomezí	-9.89811
porodil	-9.89812
něhož	-9.8987
sloužil	-9.90058
voj	-9.90128
líbi	-9.9032
oleje	-9.90406
ammon	-9.90596
spravedliv	-9.90801
kterýchž	-9.9138
obrátí	-9.92181
mecítm	-9.92973
kdyby	-9.92973
přišed	-9.92974
jonat	-9.92976
sadil	-9.92977
judov	-9.93006
strom	-9.93027
počt	-9.93034
koho	-9.93178
mír	-9.93212
pálil	-9.93248
jaký	-9.9341
filistinský	-9.93519
posvěcen	-9.9378
vinic	-9.93986
radost	-9.94004
vid	-9.94035
světlo	-9.941
silné	-9.94257
ran	-9.94475
vezme	-9.94573
dobrý	-9.94628
říkají	-9.94651
ovým	-9.94684
tehdáž	-9.95412
třidcet	-9.95412
dokonal	-9.95431
žalm	-9.95455
knih	-9.95506
dveří	-9.95673
učedlníc	-9.96238
zhřešil	-9.96239
samař	-9.9624
přísah	-9.9624
hanb	-9.96354
zemí	-9.96422
čtyř	-9.96455
přijal	-9.96529
vrz	-9.96622
hrozn	-9.96707
dvadcet	-9.97072
čehož	-9.97078
buďte	-9.97239
zdvih	-9.9733
učení	-9.97477
pouš	-9.97497
jan	-9.97798
saulov	-9.98287
tolik	-9.98338
běh	-9.98346
vcháze	-9.98784
bran	-9.9897
nikoli	-9.99231
izraelov	-9.99363
který	-9.99407
proroc	-9.99624
pomst	-9.99875
kterémž	-10.0048
ustanovil	-10.0054
věčné	-10.0064
pevn	-10.0071
roh	-10.0106
udy	-10.0119
bezbožný	-10.0135
bydliti	-10.0135
udatn	-10.0136
všelijak	-10.0137
dvanácte	-10.0165
jaké	-10.0219
běd	-10.0219
bezbožní	-10.0222
vidění	-10.0251
studnic	-10.0311
vyvolil	-10.0311
shromáždil	-10.0312
káže	-10.0315
čině	-10.0341
beniamin	-10.0387
okol	-10.0417
zlořečen	-10.0453
odpovídaj	-10.0492
umění	-10.051
sín	-10.0515
hospodinovým	-10.0531
tehdy	-10.0581
nazval	-10.0587
potřeb	-10.0587
prác	-10.0592
pravic	-10.0618
absolon	-10.0673
nešlechetnost	-10.0673
dřev	-10.0674
miloval	-10.0678
volá	-10.0703
:	-10.0726
gaba	-10.0769
přitáh	-10.0799
vstoupil	-10.0807
odešl	-10.081
přijd	-10.0852
podobenství	-10.0859
loupež	-10.0859
západ	-10.086
romě	-10.0866
zápaln	-10.0866
trpě	-10.0918
křt	-10.0947
prach	-10.0949
ovce	-10.0974
ptá	-10.1005
pastýř	-10.1048
bolest	-10.105
úrod	-10.1055
modlil	-10.1081
přebýva	-10.1086
ičk	-10.1094
olej	-10.1097
slouži	-10.1129
mládenc	-10.1145
ohniv	-10.1161
drží	-10.1162
spravedlivé	-10.1178
požehnání	-10.1187
eliáš	-10.1214
jezukrist	-10.1242
náramn	-10.1255
dobro	-10.1269
bojoval	-10.1286
utíka	-10.1288
přicháze	-10.1337
babylonské	-10.1348
šlechetn	-10.1439
kadidl	-10.1439
jeroboám	-10.1447
skutků	-10.1475
hodin	-10.1507
skál	-10.1533
evangeli	-10.1539
kázal	-10.1547
ostříhal	-10.1556
želez	-10.1557
člověčí	-10.164
lepší	-10.164
házel	-10.1643
stavě	-10.1659
ezau	-10.1661
levítů	-10.1706
farize	-10.1742
nalezen	-10.1742
končin	-10.1742
houf	-10.1745
hrdl	-10.1756
šalomounov	-10.1759
slep	-10.1761
oblíčeje	-10.1824
rovn	-10.1871
patrn	-10.188
učedlníků	-10.1908
blahoslaven	-10.1949
vstaň	-10.1949
rychle	-10.1949
bývají	-10.1984
nenávist	-10.2054
čtvrt	-10.2054
výborn	-10.2054
čiňte	-10.2054
edle	-10.206
chanan	-10.2064
dvé	-10.2072
egyptský	-10.2075
nečistý	-10.2163
izraelském	-10.2227
dvanáct	-10.2231
vrže	-10.2245
porazil	-10.2268
předměstí	-10.2272
hubil	-10.2275
rovin	-10.231
[	-10.2377
přisáhl	-10.2377
hříš	-10.2377
polovic	-10.2377
zlý	-10.2378
rostl	-10.2389
prac	-10.2412
vyšed	-10.2487
moudrý	-10.2487
navštív	-10.2487
plakal	-10.2487
marnost	-10.2493
vešl	-10.2508
jeremiáš	-10.2596
peníze	-10.2598
dlouho	-10.2598
dobrořeč	-10.26
sucho	-10.2606
ulic	-10.269
obraz	-10.2712
gád	-10.2713
trůn	-10.2715
panova	-10.2737
komu	-10.2801
cherubín	-10.2824
jozafat	-10.2824
zahanben	-10.2825
drah	-10.2841
veleb	-10.2842
prut	-10.2855
děvk	-10.2882
apoštol	-10.2939
vykoná	-10.2943
přistoupil	-10.3055
sstoupil	-10.3055
pořád	-10.3055
daniel	-10.3056
červ	-10.3067
jozefov	-10.3078
vyuč	-10.3099
musí	-10.3123
půlno	-10.3173
nabuchodonozor	-10.3173
odpověděv	-10.3173
převrácen	-10.3173
pusť	-10.3173
naplněn	-10.3173
křídl	-10.3173
ozdob	-10.3174
počet	-10.3175
mlč	-10.3188
psán	-10.3282
odpočinutí	-10.3292
roztrh	-10.3297
manassesov	-10.3303
abrahamov	-10.3352
kralovati	-10.3412
naději	-10.3413
zvuk	-10.3414
polní	-10.3433
ostříhá	-10.3534
přestoupení	-10.3534
poslední	-10.3534
půlnoční	-10.3534
idumej	-10.3534
křič	-10.3557
prvorozené	-10.3658
vysvobodil	-10.3658
vyhlazen	-10.3658
nevěst	-10.3658
nenávidí	-10.3658
doufá	-10.3658
kozl	-10.3659
galile	-10.3662
oznam	-10.3699
pustin	-10.3705
obrácen	-10.3783
vidouc	-10.3789
chlub	-10.3789
zlořeč	-10.3835
slib	-10.3837
příchozí	-10.3909
judstv	-10.3909
uzřev	-10.3911
séla	-10.3913
mzd	-10.3924
hůr	-10.393
slavi	-10.3949
žalář	-10.4038
šimon	-10.4038
chudý	-10.4038
zjeven	-10.4039
nechá	-10.4125
eliká	-10.4158
hebron	-10.4167
obyčej	-10.4168
béře	-10.4169
kořen	-10.4169
takový	-10.4171
korun	-10.4201
kristov	-10.4249
1	-10.4299
kterýmž	-10.4299
hvězd	-10.43
pyt	-10.4398
shromažď	-10.4432
požehnaný	-10.4432
uposlechl	-10.4432
vysvobodí	-10.4432
podstavk	-10.4432
bedr	-10.4433
svědk	-10.4452
příbyt	-10.4517
ostříhej	-10.4567
zvlášt	-10.4567
přikázání	-10.4567
ratolest	-10.4567
eleazar	-10.4568
rozkoš	-10.4568
chudé	-10.4569
očištěn	-10.4573
vázal	-10.4584
druh	-10.4624
bezpečn	-10.4704
smilstv	-10.4705
vytrhn	-10.4705
skryt	-10.4706
pamět	-10.4707
větr	-10.4708
ptactv	-10.4843
pohostin	-10.4843
malomoc	-10.4843
palác	-10.4843
krásn	-10.4847
fík	-10.4866
myšlení	-10.4984
libán	-10.4984
židovsk	-10.4985
odpoví	-10.4986
doufa	-10.5003
pann	-10.5036
odejd	-10.5046
prázdn	-10.5127
církv	-10.5127
velice	-10.513
zlost	-10.5158
stavil	-10.5163
šetř	-10.5223
jednostejn	-10.5272
madian	-10.5272
vůdc	-10.5273
oznámí	-10.5278
těžk	-10.5312
tajn	-10.5343
rodin	-10.5377
shromáždí	-10.5419
zahynul	-10.5419
úzkost	-10.5419
osvědč	-10.5419
rozkaz	-10.5419
vážil	-10.542
potup	-10.543
bethel	-10.5568
zapomen	-10.5569
slíbil	-10.557
zemřel	-10.5572
bát	-10.5576
pláč	-10.5579
abimelech	-10.572
x	-10.572
joas	-10.572
souzen	-10.5721
naděje	-10.5722
učit	-10.5738
sbír	-10.5748
učedlník	-10.578
maličko	-10.5874
počátk	-10.5874
zůstává	-10.5874
odšed	-10.5874
bořil	-10.5876
zabije	-10.5972
oděn	-10.6002
vysvobozen	-10.603
vyvýšen	-10.603
jediné	-10.603
dnešní	-10.603
obrace	-10.6031
bij	-10.6052
celý	-10.607
zpíva	-10.6089
požehnal	-10.6189
sedechiáš	-10.6189
opuštěn	-10.6189
roční	-10.6189
sichem	-10.6189
abner	-10.6189
cházející	-10.6204
správc	-10.6256
pohanění	-10.635
pověst	-10.635
stezk	-10.6354
beniaminov	-10.6374
vůn	-10.645
assyrské	-10.6514
blízko	-10.6514
rozhněval	-10.6514
bohatství	-10.6514
vztáhn	-10.6514
hynou	-10.6514
jeremiášov	-10.6517
sluší	-10.6523
dvadcíti	-10.668
velbloud	-10.668
pahrbk	-10.668
vlastní	-10.668
padnou	-10.6681
peněz	-10.6681
abram	-10.6681
slušn	-10.6705
přináše	-10.6748
ježíšov	-10.6796
děvečk	-10.685
lučiště	-10.685
mardoche	-10.685
očekáva	-10.685
sedmdesáte	-10.685
nečistot	-10.685
pij	-10.6956
dáva	-10.6999
nasycen	-10.7022
nikdy	-10.7022
všemohoucí	-10.7022
svobodn	-10.7022
jistot	-10.7024
starc	-10.7108
bezbožné	-10.7198
odpuštěn	-10.7198
širokost	-10.7198
joiad	-10.7198
jerich	-10.7198
suché	-10.7198
síňc	-10.7199
posvětil	-10.7199
plésa	-10.7312
obličejem	-10.7376
zvěstuj	-10.7376
zpuštěn	-10.7376
izmael	-10.7376
kořist	-10.7376
pohleď	-10.7376
skryl	-10.7377
poklon	-10.7377
proměn	-10.7409
oblíčej	-10.7413
lában	-10.7558
sádoch	-10.7558
pilát	-10.756
moudré	-10.756
popouze	-10.7569
prvorozený	-10.7743
zachariáš	-10.7743
zpurn	-10.7743
zůstáva	-10.7744
satan	-10.788
neftalím	-10.7932
mořské	-10.7932
ďábl	-10.7932
zázrak	-10.7932
hrazen	-10.7933
3	-10.852
.	-10.9297
2	-10.9363
4	-11.0777
5	-11.4041
8	-11.597
0	-11.6404
9	-11.7335
6	-11.7835
7	-11.9505
𐊼	-13.2479
𐊣	-13.2479
]	-13.8309
!	-13.831
?	-13.8311
;	-13.8312
#	-13.8313
,	-13.8313
