<pad>	0
</s>	0
<unk>	0
▁¦	-0
▁ܕ	-1
ܝܢ	-2
ܘܢ	-3
▁ܐ	-4
▁ܘ	-5
▁ܠ	-6
▁ܡ	-7
ܗܘ	-8
ܬܐ	-9
ܢܐ	-10
ܠܐ	-11
▁ܒ	-12
ܝܬ	-13
ܡܪ	-14
ܝܐ	-15
ܠܗ	-16
ܗܝ	-17
▁ܗܘ	-18
▁ܥ	-19
ܡܢ	-20
ܡܐ	-21
ܕܐ	-22
ܪܐ	-23
ܫܐ	-24
ܟܘܢ	-25
▁ܘܐ	-26
ܢܬ	-27
▁ܕܐ	-28
▁ܡܢ	-29
▁ܟ	-30
ܗܘܢ	-31
ܫܘ	-32
▁ܚ	-33
▁ܗ	-34
ܝܠ	-35
▁ܠܐ	-36
▁ܢ	-37
ܕܡ	-38
ܚܐ	-39
ܝܪ	-40
ܝܘ	-41
ܒܐ	-42
ܕܝܢ	-43
ܝܟ	-44
ܘܬ	-45
ܫܡ	-46
ܘܗܝ	-47
ܝܕ	-48
ܠܡ	-49
ܒܪ	-50
▁ܬ	-51
ܠܗܐ	-52
ܘܬܐ	-53
▁ܕܝܢ	-54
ܘܐ	-55
▁ܠܗ	-56
ܥܠ	-57
ܝܫܘ	-58
▁ܩ	-59
ܝܫܘܥ	-60
▁ܓ	-61
ܗܘܐ	-62
ܛܠ	-63
▁ܗܘܐ	-64
ܘܪ	-65
▁ܥܠ	-66
▁ܐܢ	-67
ܪܝ	-68
▁ܐܢܬ	-69
ܠܝܢ	-70
▁ܪ	-71
▁ܫ	-72
ܘܤ	-73
ܒܕ	-74
▁ܐܢܐ	-75
ܥܐ	-76
ܫܝ	-77
ܡܠ	-78
▁ܤ	-79
ܟܠ	-80
▁ܐܡܪ	-81
ܟܐ	-82
▁ܕܡ	-83
ܒܝ	-84
ܘܠ	-85
ܟܕ	-86
▁ܦ	-87
ܬܪ	-88
ܒܢ	-89
▁ܕܢ	-90
▁ܓܝܪ	-91
ܝܗ	-92
ܝܡ	-93
ܘܒ	-94
ܥܝܢ	-95
▁ܐܝܟ	-96
ܫܬ	-97
ܠܗܘܢ	-98
ܠܝ	-99
ܘܕ	-100
ܢܘܢ	-101
ܝܠܝܢ	-102
▁ܘܐܡܪ	-103
ܚܙ	-104
ܝܬܐ	-105
ܫܝܚܐ	-106
▁ܘܠܐ	-107
ܥܡ	-108
ܚܕ	-109
ܘܡ	-110
ܫܡܥ	-111
▁ܝܫܘܥ	-112
ܪܘ	-113
▁ܠܗܘܢ	-114
ܗܝܡܢ	-115
▁ܗܘܘ	-116
ܥܒܕ	-117
ܦܩ	-118
▁ܠܡ	-119
ܚܪ	-120
▁ܐܠܐ	-121
ܬܗ	-122
▁ܐܢܬܘܢ	-123
ܒܘ	-124
ܦܐ	-125
ܒܗ	-126
▁ܘܡ	-127
▁ܕܠܐ	-128
ܕܢ	-129
▁ܟܕ	-130
▁ܐܦ	-131
ܫܟ	-132
▁ܐܬ	-133
▁ܥܡ	-134
ܒܪܐ	-135
ܐܢܐ	-136
ܐܢܬ	-137
ܠܘ	-138
▁ܘܢ	-139
ܢܝ	-140
▁ܠܟܘܢ	-141
▁ܡܛܠ	-142
ܪܒ	-143
ܚܝ	-144
ܢܢ	-145
ܢܫܐ	-146
ܐܡܪ	-147
ܘܩ	-148
ܬܝ	-149
▁ܙ	-150
ܝܢܐ	-151
ܠܟ	-152
ܠܦ	-153
ܢܫ	-154
▁ܐܝܬ	-155
▁ܕܐܠܗܐ	-156
ܕܪ	-157
▁ܛ	-158
ܒܠ	-159
▁ܗܝ	-160
ܕܝ	-161
ܫܟܚ	-162
ܓܝܪ	-163
ܓܝܐ	-164
ܝܕܥ	-165
ܘܬܗ	-166
ܘܠܐ	-167
ܫܒ	-168
▁ܚܕ	-169
ܗܢܐ	-170
▁ܒܪ	-171
▁ܘܒ	-172
ܤܪ	-173
ܟܝܠ	-174
ܟܢܐ	-175
▁ܕܒ	-176
ܐܝܟ	-177
ܝܗܘܢ	-178
ܪܥܐ	-179
ܩܐ	-180
▁ܐܠܗܐ	-181
ܦܫ	-182
ܒܝܢ	-183
▁ܠܝ	-184
▁ܒܐ	-185
ܕܠܐ	-186
▁ܠܟ	-187
▁ܗܢܐ	-188
ܫܠܡ	-189
ܘܐܡܪ	-190
ܝܪܐ	-191
ܫܬܐ	-192
▁ܒܗ	-193
ܕܡܐ	-194
ܫܡܝܐ	-195
▁ܐܢܘܢ	-196
ܠܡܐ	-197
▁ܕܬ	-198
▁ܗܠܝܢ	-199
ܗܘܘ	-200
ܬܘܢ	-201
▁ܡܬ	-202
ܝܬܘܢ	-203
▁ܠܘܬ	-204
▁ܟܠ	-205
ܟܪ	-206
ܓܝܐܐ	-207
▁ܘܟܕ	-208
ܙܠ	-209
ܝܗܒ	-210
ܦܪ	-211
▁ܕܩ	-212
▁ܨ	-213
ܠܬܐ	-214
ܡܝܢ	-215
ܠܚ	-216
▁ܕܐܝܬ	-217
ܕܒ	-218
ܢܘ	-219
▁ܡܫܝܚܐ	-220
▁ܡܕܡ	-221
ܐܬ	-222
ܐܠܐ	-223
ܐܢܬܘܢ	-224
ܕܩ	-225
▁ܘܩ	-226
ܗܐ	-227
ܚܢܢ	-228
ܐܦ	-229
ܤܐ	-230
ܡܪܢ	-231
ܗܘܕ	-232
ܡܬ	-233
ܠܟܘܢ	-234
▁ܝܘ	-235
ܛܪ	-236
▁ܘܠ	-237
▁ܩܕܡ	-238
▁ܝ	-239
▁ܕܚ	-240
ܕܥ	-241
ܘܪܐ	-242
▁ܠܢ	-243
▁ܐܢܫ	-244
▁ܐܘ	-245
ܕܚ	-246
ܡܘܤ	-247
ܝܒ	-248
ܒܪܗ	-249
ܩܪ	-250
ܡܛܠ	-251
ܢܝܢ	-252
▁ܪܘ	-253
ܒܝܐ	-254
▁ܘܡܢ	-255
ܒܝܬ	-256
ܡܠܠ	-257
ܝܕܐ	-258
ܟܠܗ	-259
ܝܟܘܢ	-260
ܚܘ	-261
▁ܗܕܐ	-262
ܦܠ	-263
ܡܢܐ	-264
ܐܝܬ	-265
ܫܪ	-266
ܗܠܝܢ	-267
▁ܘܐܬ	-268
▁ܐܝܠܝܢ	-269
ܓܪ	-270
▁ܕܠ	-271
▁ܗܢܘܢ	-272
ܘܗ	-273
▁ܕܡܢ	-274
ܒܕܐ	-275
ܡܘܤܐ	-276
▁ܚܙ	-277
▁ܥܒܕ	-278
ܗܘܕܝܐ	-279
ܕܐܠܗܐ	-280
▁ܘܬ	-281
ܕܬ	-282
▁ܡܪ	-283
ܝܢܢ	-284
ܚܪܢܐ	-285
ܚܡ	-286
ܚܙܐ	-287
ܝܕܥܝܢ	-288
ܥܠܡܐ	-289
ܕܘ	-290
ܕܝܢܬܐ	-291
ܝܕܘܗܝ	-292
ܗܘܘܢ	-293
ܫܡܥܘܢ	-294
▁ܕܟ	-295
ܪܘܚܐ	-296
ܡܫܝܚܐ	-297
▁ܘܤ	-298
ܒܥ	-299
ܒܬܐ	-300
ܗܝܡܢܘܬܐ	-301
▁ܕܥ	-302
▁ܐܬܐ	-303
ܡܬܐ	-304
▁ܘܫ	-305
ܠܘܬ	-306
ܤܝ	-307
ܗܢܘܢ	-308
ܩܪܐ	-309
▁ܐܝܟܢܐ	-310
ܒܢܐ	-311
▁ܒܝ	-312
▁ܫܘ	-313
ܚܕܐ	-314
▁ܟܠܗ	-315
ܘܠܘܤ	-316
ܡܪܝܐ	-317
ܩܘ	-318
▁ܒܢ	-319
▁ܡܢܐ	-320
ܐܢ	-321
ܕܢܐ	-322
ܩܕܡ	-323
ܓܠ	-324
ܠܡܝܕܘܗܝ	-325
ܬܚ	-326
ܗܕ	-327
▁ܝܕܥ	-328
ܟܬ	-329
ܗܕܐ	-330
ܝܘܗܝ	-331
ܘܢܐ	-332
ܪܝܢ	-333
▁ܗܟܝܠ	-334
ܐܠܗܐ	-335
▁ܗܘܬ	-336
ܛܐ	-337
ܝܗܝ	-338
ܓܒܪܐ	-339
ܝܘܬܐ	-340
ܒܢܝܢ	-341
▁ܡܐ	-342
▁ܢܬ	-343
ܤܒ	-344
ܠܬ	-345
▁ܐܤ	-346
ܠܝܐ	-347
ܦܫܗ	-348
▁ܕܤ	-349
ܡܪܐ	-350
ܐܢܘܢ	-351
ܡܕܡ	-352
ܩܝܡ	-353
ܪܥ	-354
▁ܤܓܝܐܐ	-355
▁ܒܝܬ	-356
ܠܢ	-357
ܚܬܐ	-358
ܛܢܐ	-359
ܕܐܝܬ	-360
ܟܝ	-361
▁ܗܟܢܐ	-362
ܝܘܡܐ	-363
ܟܠܐ	-364
▁ܕܝ	-365
ܘܟܕ	-366
ܫܡܗ	-367
ܥܪ	-368
ܘܪܫܠܡ	-369
▁ܘܐܢ	-370
▁ܕܫ	-371
▁ܡܠ	-372
ܚܬ	-373
▁ܟܠܗܘܢ	-374
ܘܫ	-375
ܥܠܡ	-376
ܡܠܐ	-377
ܟܠܗܘܢ	-378
▁ܕܐܬ	-379
▁ܓܒܪܐ	-380
ܒܩ	-381
▁ܡܠܐ	-382
▁ܘܕ	-383
▁ܠܚ	-384
▁ܪܘܚܐ	-385
ܡܗ	-386
▁ܚܢܢ	-387
▁ܢܗܘܐ	-388
▁ܥܕܡܐ	-389
▁ܘܐܡܪܝܢ	-390
ܓܝ	-391
ܤܦ	-392
▁ܒܬܪ	-393
ܡܠܟ	-394
ܡܠܬܐ	-395
▁ܒܡ	-396
ܤܒܪ	-397
▁ܝܬ	-398
ܓܠܝ	-399
ܩܠ	-400
▁ܒܥ	-401
ܤܪܐ	-402
ܗܟܢܐ	-403
ܕܦ	-404
▁ܡܢܗ	-405
ܘܟ	-406
ܘܦ	-407
ܕܬܐ	-408
ܝܡܝܢ	-409
▁ܠܐܠܗܐ	-410
ܪܡ	-411
ܝܠܝ	-412
ܓܠܐ	-413
ܗܘܬ	-414
ܕܟ	-415
ܘܡܢ	-416
ܫܒܘ	-417
ܩܕ	-418
▁ܠܡܐ	-419
ܚܝܢ	-420
▁ܚܛ	-421
ܩܒܠ	-422
▁ܐܡܪܝܢ	-423
ܐܢܫ	-424
▁ܬܡܢ	-425
▁ܕܐܡܪ	-426
ܗܪ	-427
ܛܝܒ	-428
ܢܝܐ	-429
▁ܗܐ	-430
▁ܫܡܥ	-431
▁ܡܫܟܚ	-432
ܠܩ	-433
ܛܘܤ	-434
▁ܘܥ	-435
ܤܬ	-436
ܬܝܒ	-437
▁ܢܐ	-438
▁ܗܘܝܬ	-439
ܓܪܐ	-440
ܫܐܠ	-441
ܐܘ	-442
ܙܒܢ	-443
ܕܝܫܐ	-444
ܝܤ	-445
ܕܡܢ	-446
▁ܝܕܥܝܢ	-447
▁ܘܥܠ	-448
ܐܝܠܝܢ	-449
ܒܬ	-450
▁ܕܐܦ	-451
ܪܝܫܐ	-452
ܚܛ	-453
▁ܘܐܝܬ	-454
ܫܥ	-455
▁ܕܦ	-456
ܓܐ	-457
ܡܘ	-458
ܓܙ	-459
▁ܕܡܬ	-460
▁ܢܦ	-461
ܢܘܬܐ	-462
▁ܥܠܘܗܝ	-463
ܨܐ	-464
ܫܝܢ	-465
ܘܐܬ	-466
ܝܕܗ	-467
ܘܬܟܘܢ	-468
ܥܩ	-469
ܒܢܝ	-470
▁ܘܪ	-471
▁ܡܪܝ	-472
▁ܐܢܫܐ	-473
ܤܓܝܐܐ	-474
ܦܪܐ	-475
ܒܕܝܢ	-476
▁ܢܦܩ	-477
ܘܕܫܐ	-478
ܒܥܐ	-479
ܨܒܐ	-480
ܐܬܐ	-481
▁ܐܡܝܢ	-482
ܝܘܚܢܢ	-483
ܚܗ	-484
▁ܬܘܒ	-485
▁ܡܠܬܐ	-486
ܟܪܙ	-487
▁ܒܪܗ	-488
ܤܗܕ	-489
ܕܗ	-490
ܟܝܢ	-491
ܒܝܬܐ	-492
ܬܗܘܢ	-493
ܬܢ	-494
ܩܪܒ	-495
▁ܘܚ	-496
▁ܬܐ	-497
▁ܠܝܬ	-498
ܥܡܡܐ	-499
▁ܐܚܝ	-500
▁ܕܗܘ	-501
ܕܠ	-502
▁ܠܥ	-503
▁ܩܪ	-504
▁ܘܗܘ	-505
ܒܢܝܢܫܐ	-506
ܤܝܐ	-507
ܬܟ	-508
▁ܐܫܬ	-509
ܠܡܝܕܐ	-510
ܢܦ	-511
ܤܝܡ	-512
ܬܝܢ	-513
▁ܕܪ	-514
▁ܠܐܝܠܝܢ	-515
ܫܢܐ	-516
▁ܕܙ	-517
▁ܥܒܕܐ	-518
▁ܗܝܕܝܢ	-519
ܒܪܘ	-520
▁ܕܢܐ	-521
ܟܢ	-522
ܐܝܟܢܐ	-523
▁ܠܬ	-524
ܝܪܐܝܬ	-525
▁ܒܠܚ	-526
▁ܗܫܐ	-527
▁ܡܠܟ	-528
▁ܥܡܗ	-529
▁ܡܢܗܘܢ	-530
ܬܝܕ	-531
ܝܬܗ	-532
ܦܝܪ	-533
▁ܟܐ	-534
▁ܚܝ	-535
▁ܟܬ	-536
ܗܟܝܠ	-537
▁ܡܫܬ	-538
▁ܒܠܚܘܕ	-539
▁ܕܝܫܘܥ	-540
▁ܝܗܘܕܝܐ	-541
ܡܝܐ	-542
ܠܡܕܡ	-543
▁ܗܘܝܬܘܢ	-544
ܟܐܦܐ	-545
ܠܝܚܐ	-546
▁ܒܟ	-547
▁ܫܪ	-548
ܘܫܐ	-549
ܘܪܚܐ	-550
ܠܒ	-551
ܕܡܪ	-552
ܫܕܪ	-553
ܚܝܠܐ	-554
▁ܐܚܪ	-555
▁ܕܢܬ	-556
▁ܚܕܐ	-557
▁ܐܚܪܢܐ	-558
ܚܒ	-559
ܪܝܬܐ	-560
▁ܠܒܪ	-561
▁ܫܡܝܐ	-562
ܥܡܗ	-563
▁ܫܐ	-564
▁ܚܙܐ	-565
ܗܝܟܠܐ	-566
▁ܕܐܬܐ	-567
ܟܘ	-568
ܩܝ	-569
ܨܒܝܢ	-570
▁ܘܐܦ	-571
▁ܗܝܡܢ	-572
ܘܕܐ	-573
ܥܘ	-574
ܚܘܗܝ	-575
ܪܝܪܐ	-576
ܘܢܝܗܝ	-577
▁ܒܟܠ	-578
▁ܒܢܝ	-579
▁ܡܢܟܘܢ	-580
ܛܝ	-581
ܒܘܗܝ	-582
▁ܢܡܘܤܐ	-583
▁ܐܙ	-584
▁ܫܡ	-585
▁ܥܢܐ	-586
▁ܡܝܬܐ	-587
▁ܕܥܒܕ	-588
▁ܘܦ	-589
ܫܝܫܐ	-590
▁ܫܡܥܘܢ	-591
ܘܡܐ	-592
ܗܠܟ	-593
▁ܟܢܫܐ	-594
▁ܦܘܠܘܤ	-595
ܬܟܘܢ	-596
▁ܡܢܘ	-597
▁ܐܪܥܐ	-598
▁ܟܗܢܐ	-599
▁ܬܠܡܝܕܘܗܝ	-600
ܩܝܢ	-601
▁ܚܝܐ	-602
▁ܪܒܐ	-603
▁ܠܘܬܗ	-604
ܩܢ	-605
ܥܕܡܐ	-606
ܕܝܢܐ	-607
▁ܐܙܠ	-608
▁ܕܝܠ	-609
▁ܕܥܠ	-610
▁ܚܠܦ	-611
ܓܢ	-612
ܩܦ	-613
ܫܗ	-614
ܗܫܐ	-615
▁ܡܪܢ	-616
▁ܐܝܢܐ	-617
ܕܒܪ	-618
ܘܐܢ	-619
ܗܘܝܢ	-620
ܗܝܕܝܢ	-621
ܦܩܕ	-622
ܤܪܝܠ	-623
▁ܢܦܫܗ	-624
ܝܕܝ	-625
ܒܪܗܡ	-626
ܠܛܢܐ	-627
ܠܦܢܐ	-628
ܥܩܘܒ	-629
▁ܘܟܠ	-630
ܝܤܪܝܠ	-631
ܡܟ	-632
ܬܪܝܢ	-633
▁ܠܘܩ	-634
▁ܕܡܪܢ	-635
ܠܥ	-636
ܩܘܡ	-637
▁ܠܒ	-638
▁ܕܟܠ	-639
▁ܨܒܐ	-640
▁ܟܐܦܐ	-641
▁ܡܪܝܐ	-642
▁ܐܢܬܬܐ	-643
ܡܠܦ	-644
▁ܥܡܗܘܢ	-645
ܝܡܬܐ	-646
ܤܝܒܪ	-647
ܝܡܐ	-648
ܫܘܒ	-649
ܢܗܘܐ	-650
ܫܒܩ	-651
ܛܦ	-652
ܩܠܐ	-653
ܘܐܡܪܝܢ	-654
▁ܡܕܝܢܬܐ	-655
ܐܡ	-656
ܘܚ	-657
ܟܤ	-658
ܢܬܘܢ	-659
ܒܬܪ	-660
ܘܒܐ	-661
▁ܥܡܐ	-662
▁ܐܝܬܘܗܝ	-663
▁ܕܡܫܝܚܐ	-664
ܓܕ	-665
ܨܪ	-666
ܚܘܕ	-667
▁ܬܬ	-668
▁ܛܝܒ	-669
▁ܝܗܒ	-670
▁ܒܟܘܢ	-671
▁ܘܐܬܐ	-672
ܫܒܘܚܬܐ	-673
ܘܥ	-674
ܦܘܠܘܤ	-675
ܩܛܠ	-676
▁ܒܬ	-677
▁ܡܠܐܟܐ	-678
ܪܒܐ	-679
ܝܗܝܢ	-680
ܪܒܬܐ	-681
ܗܝܡܢܐ	-682
ܦܤ	-683
ܕܐܬ	-684
ܙܒܢܐ	-685
▁ܐܒܐ	-686
▁ܕܐܢܫܐ	-687
ܫܢ	-688
ܠܦܐ	-689
ܝܬܒ	-690
ܫܪܪܐ	-691
▁ܘܠܡ	-692
ܘܩܕܢܐ	-693
▁ܘܢܦܩ	-694
▁ܕܐܝܬܘܗܝ	-695
ܘܠܨ	-696
ܥܬܐ	-697
ܚܙܝܢ	-698
▁ܢܒܝܐ	-699
▁ܠܘܬܟܘܢ	-700
ܠܘܢ	-701
ܡܢܗ	-702
ܛܠܝܐ	-703
ܫܒܬܐ	-704
▁ܡܚ	-705
ܒܝܬܗ	-706
ܠܐܠܗܐ	-707
▁ܕܐܢܐ	-708
ܝܟܐ	-709
ܚܙܝܬ	-710
ܫܠܡܐ	-711
▁ܗܘܝ	-712
▁ܡܝܬ	-713
▁	-714
¦	-715
ܐ	-716
ܘ	-717
ܢ	-718
ܝ	-719
ܠ	-720
ܕ	-721
ܡ	-722
ܗ	-723
ܬ	-724
ܪ	-725
ܒ	-726
ܟ	-727
ܫ	-728
ܥ	-729
ܚ	-730
ܩ	-731
ܦ	-732
ܤ	-733
ܓ	-734
ܛ	-735
ܙ	-736
ܨ	-737
V	-738
v	-739
𐋇	-740
1	-741
)	-742
4	-743
5	-744
9	-745
:	-746
