<pad>	0
</s>	0
<unk>	0
s	-3.32786
▁	-3.43087
▁the	-3.59179
.	-3.59829
,	-3.60656
▁to	-4.05833
▁and	-4.07072
▁of	-4.09206
ing	-4.35262
▁a	-4.37614
ed	-4.45453
e	-4.46892
▁in	-4.4722
-	-4.86778
d	-4.88782
t	-4.91953
y	-4.98008
p	-5.04618
▁for	-5.06532
▁you	-5.06759
a	-5.08367
n	-5.18796
▁with	-5.19412
▁your	-5.23197
f	-5.26127
m	-5.26195
▁covid	-5.28624
▁is	-5.29782
▁or	-5.33513
ly	-5.35864
-19	-5.36337
▁The	-5.37748
o	-5.40033
c	-5.41344
▁be	-5.41746
al	-5.44103
▁that	-5.46619
▁are	-5.47
u	-5.47844
▁on	-5.47912
▁s	-5.49805
▁as	-5.51947
er	-5.54293
▁have	-5.55402
in	-5.58758
▁cases	-5.59671
r	-5.59907
▁from	-5.64904
ar	-5.72616
g	-5.72656
▁(	-5.72989
i	-5.73216
▁not	-5.74676
b	-5.76822
▁were	-5.77352
or	-5.85259
h	-5.89705
ir	-5.9086
re	-5.97589
▁will	-6.02696
▁A	-6.03459
l	-6.05007
▁by	-6.05028
k	-6.05255
)	-6.06062
▁people	-6.06535
w	-6.0712
it	-6.07738
▁f	-6.07974
▁can	-6.09873
es	-6.09916
▁at	-6.12826
an	-6.13413
le	-6.14083
is	-6.15924
'	-6.15986
cov	-6.16077
en	-6.16664
▁I	-6.17005
▁virus	-6.1747
▁it	-6.19292
▁who	-6.21891
▁if	-6.22559
1	-6.23012
on	-6.23751
▁was	-6.23897
▁re	-6.23965
▁has	-6.25299
st	-6.26665
▁c	-6.27579
0	-6.28706
▁an	-6.2917
▁m	-6.29559
▁health	-6.3016
▁been	-6.31376
ent	-6.31745
▁w	-6.32597
▁deaths	-6.32711
▁reported	-6.34124
▁de	-6.34144
▁may	-6.35191
ation	-6.3575
5	-6.36966
ic	-6.3902
▁do	-6.41155
ro	-6.4162
ur	-6.41907
2	-6.42351
v	-6.42531
:	-6.42796
▁symptoms	-6.45587
▁test	-6.46182
at	-6.46742
se	-6.47509
▁other	-6.4866
▁You	-6.49806
▁b	-6.50459
▁S	-6.5125
3	-6.51575
▁contact	-6.51969
6	-6.53076
▁sars	-6.53861
ri	-6.54997
9	-6.56196
▁p	-6.58041
ce	-6.58255
▁disease	-6.58659
th	-6.59086
8	-6.61266
▁more	-6.6169
4	-6.62294
▁number	-6.62706
7	-6.63005
▁coronavirus	-6.64078
▁4	-6.64464
ad	-6.6586
▁should	-6.66235
▁2020	-6.66925
▁this	-6.67293
te	-6.68419
▁march	-6.6984
lo	-6.69869
il	-6.69887
▁C	-6.74747
la	-6.75166
▁g	-6.75649
▁also	-6.76337
id	-6.76546
us	-6.7892
▁vaccine	-6.79234
et	-6.79368
ion	-6.79719
ol	-6.81355
▁P	-6.81595
▁5	-6.81812
▁In	-6.81986
▁On	-6.82011
ter	-6.82131
notified	-6.83447
ive	-6.83517
ve	-6.83656
tion	-6.83696
▁It	-6.85154
▁com	-6.85461
▁outbreak	-6.85842
▁than	-6.85886
had	-6.86034
▁countries	-6.87152
▁about	-6.87155
▁further	-6.88035
▁time	-6.88037
▁app	-6.88081
▁spread	-6.88479
▁all	-6.89599
ment	-6.89731
▁need	-6.91688
▁This	-6.91707
▁2	-6.91879
ers	-6.92527
▁3	-6.94358
▁face	-6.94458
el	-6.9477
▁home	-6.95398
▁"	-6.95605
▁no	-6.95757
▁which	-6.95873
▁total	-6.95935
▁when	-6.95999
▁t	-6.96322
ct	-6.9695
im	-6.97082
"	-6.97108
ight	-6.97264
ate	-6.97987
-2	-6.98162
uch	-7.00224
x	-7.00416
▁over	-7.00837
ch	-7.01411
▁one	-7.01601
▁new	-7.01809
▁pandemic	-7.02311
am	-7.02433
▁1	-7.02813
▁after	-7.02831
▁they	-7.02951
▁B	-7.03336
▁use	-7.03476
▁risk	-7.05388
▁con	-7.05537
▁patients	-7.06439
ia	-7.06547
ity	-7.07573
um	-7.08004
un	-7.08184
▁public	-7.0841
ng	-7.08817
mo	-7.08898
as	-7.08904
ver	-7.09936
▁get	-7.0994
▁first	-7.10851
ac	-7.10882
▁confirmed	-7.10986
▁un	-7.11003
tic	-7.11029
ul	-7.11503
▁infection	-7.12384
▁high	-7.14253
▁some	-7.14256
ies	-7.14556
▁n	-7.15178
▁data	-7.15409
▁any	-7.15414
li	-7.1563
▁work	-7.16464
ry	-7.16507
▁china	-7.16591
ne	-7.16791
▁under	-7.17772
▁v	-7.17872
▁st	-7.1801
▁person	-7.18534
▁hands	-7.20019
▁bring	-7.21301
▁government	-7.21416
▁care	-7.21605
est	-7.21691
▁including	-7.2229
▁but	-7.22669
▁ex	-7.23469
ig	-7.23777
▁go	-7.2425
z	-7.24458
▁travel	-7.24561
▁cover	-7.24703
ck	-7.25338
▁case	-7.26422
ine	-7.26588
qu	-7.27197
due	-7.28075
▁child	-7.28473
▁we	-7.29046
▁february	-7.29137
age	-7.29614
▁T	-7.30265
▁di	-7.3035
▁close	-7.30414
▁stay	-7.30489
▁up	-7.30908
▁ma	-7.31013
▁hospital	-7.31164
▁tr	-7.31599
rt	-7.32076
▁us	-7.32542
▁days	-7.32935
ra	-7.33327
j	-7.33818
▁e	-7.34369
▁help	-7.34638
▁cause	-7.34724
▁unit	-7.34939
▁two	-7.35348
▁6	-7.35861
▁others	-7.35965
▁10	-7.36142
▁l	-7.36428
▁co	-7.36747
▁Do	-7.37504
;	-7.38234
▁/	-7.38234
▁pro	-7.38655
▁dis	-7.38841
▁these	-7.39341
▁those	-7.39712
▁them	-7.39891
▁january	-7.40456
all	-7.40891
▁respirator	-7.41208
▁positive	-7.41208
out	-7.41451
▁call	-7.4222
▁k	-7.43105
ary	-7.43165
▁school	-7.43341
ance	-7.43656
end	-7.44218
▁most	-7.44287
▁previously	-7.44328
▁ac	-7.44365
▁sh	-7.44406
▁h	-7.44469
om	-7.44523
▁available	-7.45055
▁dur	-7.45241
▁day	-7.45542
▁gp	-7.45673
▁F	-7.46353
▁so	-7.4722
▁me	-7.47928
vi	-7.48729
▁protect	-7.48941
▁M	-7.49008
▁medical	-7.49057
▁infected	-7.49275
▁include	-7.49875
▁hcov	-7.50959
ould	-7.51286
▁system	-7.51535
▁H	-7.51549
ide	-7.52084
▁tested	-7.5239
ting	-7.5343
▁7	-7.53956
▁transmission	-7.54077
▁between	-7.54939
▁illness	-7.54957
po	-7.55068
▁host	-7.55086
▁take	-7.55861
▁possible	-7.55902
iv	-7.56251
act	-7.56319
▁ca	-7.56369
ian	-7.56374
▁advice	-7.56686
ated	-7.56914
▁po	-7.58152
▁–	-7.58464
▁april	-7.58464
▁20	-7.58837
▁9	-7.58887
to	-7.59795
▁million	-7.60274
▁children	-7.60318
able	-7.60623
▁wear	-7.60736
ip	-7.61034
▁We	-7.61191
▁place	-7.61193
▁provide	-7.62118
▁visit	-7.62118
ence	-7.62768
).	-7.63274
ge	-7.63374
▁its	-7.63653
ther	-7.63719
▁8	-7.64011
▁could	-7.64225
▁states	-7.64562
na	-7.64594
ab	-7.6473
▁restrictions	-7.64976
▁treatment	-7.64983
▁out	-7.65085
▁14	-7.65219
▁there	-7.65285
ll	-7.65318
ts	-7.65852
ph	-7.65869
-19.	-7.66325
▁severe	-7.66333
▁pa	-7.66605
▁relat	-7.66858
▁country	-7.66881
ness	-7.67377
▁age	-7.6786
▁response	-7.6786
▁social	-7.67994
▁only	-7.68309
▁world	-7.68851
▁ireland	-7.68851
ma	-7.69
▁Re	-7.69716
▁announced	-7.6985
▁long	-7.69859
many	-7.70219
▁r	-7.70606
and	-7.70709
▁into	-7.71282
▁result	-7.71366
▁ra	-7.71661
▁through	-7.71881
ous	-7.72224
tra	-7.72387
▁human	-7.72434
sure	-7.72511
▁he	-7.7287
),	-7.73037
if	-7.73933
▁measures	-7.73954
▁while	-7.73954
▁level	-7.73958
▁well	-7.74168
▁death	-7.74606
▁centre	-7.76072
▁sign	-7.76075
ok	-7.76211
ru	-7.76457
▁part	-7.76952
▁control	-7.77053
▁show	-7.77147
00	-7.77338
▁how	-7.78407
▁-	-7.79424
our	-7.79549
▁per	-7.79841
▁o	-7.80132
▁away	-7.8016
▁before	-7.80509
ice	-7.81115
▁car	-7.81391
▁food	-7.81651
▁make	-7.81761
▁19	-7.81904
▁mask	-7.82564
co	-7.82593
▁testing	-7.83169
▁group	-7.83852
▁someone	-7.83857
▁cough	-7.83885
▁information	-7.83887
▁Co	-7.84069
▁same	-7.85029
ial	-7.85142
up	-7.85154
line	-7.85468
the	-7.85594
▁where	-7.86732
▁d	-7.86815
▁u	-7.87324
▁community	-7.87381
▁national	-7.87386
▁being	-7.8811
▁vaccines	-7.88276
▁pre	-7.88873
▁restrict	-7.8977
▁against	-7.89879
▁As	-7.90436
nt	-7.90565
▁quarantine	-7.90993
▁emergency	-7.9104
de	-7.9136
ally	-7.91403
▁used	-7.9146
▁inter	-7.91923
ute	-7.92218
▁immun	-7.9229
▁wuhan	-7.92291
▁There	-7.92513
▁ro	-7.93307
ib	-7.93605
ie	-7.94004
▁cha	-7.94206
▁education	-7.94838
▁large	-7.94839
▁protein	-7.94839
▁early	-7.94843
▁fever	-7.94845
▁even	-7.94873
io	-7.95001
▁share	-7.95037
▁11	-7.95378
▁schools	-7.95673
▁24	-7.95691
▁When	-7.96137
▁contain	-7.96137
▁follow	-7.96143
▁hand	-7.96261
▁students	-7.96747
▁services	-7.96846
▁eas	-7.96916
▁flu	-7.9746
▁non	-7.97946
▁report	-7.97955
▁order	-7.98882
▁rate	-7.99187
▁nose	-7.99428
▁conditions	-7.99613
ach	-7.99783
▁live	-7.99947
▁support	-8.00137
▁phone	-8.00138
▁italy	-8.00175
▁found	-8.01507
▁doctor	-8.01509
▁limit	-8.01509
▁clean	-8.01515
▁june	-8.01549
▁state	-8.01568
▁effective	-8.01609
che	-8.01932
▁12	-8.01984
▁15	-8.02007
ci	-8.02666
▁breath	-8.02896
▁reduce	-8.02896
▁issued	-8.02899
▁what	-8.02906
ase	-8.03395
▁service	-8.03541
▁humans	-8.03547
▁mers	-8.03668
cal	-8.0405
▁areas	-8.04199
▁least	-8.04305
▁important	-8.05733
▁known	-8.06054
▁give	-8.06239
ions	-8.06431
▁week	-8.06504
▁bo	-8.07068
ell	-8.07121
▁surveillance	-8.07182
▁south	-8.07188
▁short	-8.07195
▁keep	-8.07228
▁clinical	-8.07371
ities	-8.07572
▁hse	-8.07631
oc	-8.07806
▁ho	-8.08031
less	-8.08054
put	-8.08107
ating	-8.08165
▁effect	-8.08544
land	-8.08606
▁movements	-8.08653
▁down	-8.0866
▁self	-8.08662
▁chest	-8.08669
com	-8.08786
based	-8.08804
▁i	-8.0927
▁see	-8.09447
for	-8.09819
han	-8.09914
▁prevent	-8.10032
▁population	-8.10146
▁healthcare	-8.10146
▁chinese	-8.10146
▁2019	-8.10146
▁attend	-8.10149
▁infections	-8.10597
ex	-8.10815
▁don	-8.11142
?	-8.11661
▁open	-8.11663
▁pain	-8.12263
▁around	-8.12293
▁al	-8.12591
▁plan	-8.13045
▁No	-8.13199
▁appointment	-8.13199
▁avoid	-8.13199
essential	-8.13199
▁until	-8.13202
▁animal	-8.13202
▁workers	-8.13511
ish	-8.13645
▁much	-8.13846
▁23	-8.14228
ill	-8.14627
ical	-8.14663
▁center	-8.1478
,000	-8.14927
▁For	-8.1532
▁years	-8.15386
▁affected	-8.15397
ccording	-8.16349
▁closures	-8.16349
▁drug	-8.16349
▁remain	-8.1635
▁start	-8.16366
gra	-8.1647
▁cell	-8.16581
very	-8.17029
▁An	-8.17114
▁Mo	-8.1735
0%	-8.17962
▁collect	-8.17962
▁common	-8.17967
▁allow	-8.17996
▁every	-8.18067
not	-8.18277
▁li	-8.1864
▁able	-8.18727
▁bats	-8.19409
▁following	-8.19594
▁global	-8.19601
though	-8.19602
▁viruses	-8.19885
ful	-8.20181
▁13	-8.20524
▁safe	-8.21266
▁However	-8.21268
▁feel	-8.21278
▁closed	-8.21445
▁masks	-8.21494
ose	-8.2188
▁br	-8.22036
▁receive	-8.22209
vel	-8.22646
▁Th	-8.22729
▁produc	-8.22963
▁origin	-8.22968
viral	-8.23079
ized	-8.23632
way	-8.23726
▁dublin	-8.24687
▁international	-8.24687
▁study	-8.24687
▁mouth	-8.24688
▁hours	-8.24698
▁usual	-8.24742
con	-8.25086
ha	-8.25091
▁18	-8.25183
▁par	-8.25316
▁december	-8.26441
▁practice	-8.26474
▁change	-8.26479
gu	-8.27529
▁because	-8.28227
▁among	-8.28231
▁recover	-8.28238
▁sub	-8.28254
▁tracking	-8.28623
ven	-8.29237
old	-8.29277
▁recommended	-8.29282
▁current	-8.30045
▁major	-8.30046
▁alert	-8.30061
▁last	-8.30083
▁often	-8.30201
▁200	-8.30579
▁results	-8.30974
▁our	-8.31867
▁epidemic	-8.31897
▁example	-8.31897
mission	-8.31901
cross	-8.31945
▁both	-8.32084
▁meter	-8.32239
▁anti	-8.32351
▁weeks	-8.32781
▁like	-8.33284
▁way	-8.3349
▁direct	-8.33502
▁form	-8.33628
use	-8.33691
▁official	-8.33784
▁blood	-8.33784
▁another	-8.33786
▁22	-8.33788
▁body	-8.33791
▁16	-8.34373
table	-8.34555
▁ser	-8.35075
▁bat	-8.35222
▁transport	-8.35707
▁negative	-8.35707
▁general	-8.35707
▁Some	-8.35711
▁great	-8.35712
▁must	-8.35722
▁find	-8.35736
count	-8.35985
▁30	-8.37574
▁continue	-8.37668
▁declar	-8.37668
▁different	-8.37668
▁especially	-8.37668
▁three	-8.37668
▁become	-8.37688
▁made	-8.37819
▁cold	-8.37963
▁higher	-8.39053
▁second	-8.39604
▁end	-8.3964
▁family	-8.39668
ability	-8.39668
▁month	-8.3967
▁local	-8.39676
▁events	-8.39786
▁develop	-8.4031
▁recommend	-8.40515
▁hu	-8.41145
ize	-8.41238
resident	-8.41547
▁difficult	-8.41709
▁surface	-8.41709
▁department	-8.41709
▁Covid	-8.4171
▁leav	-8.41721
▁addition	-8.41722
▁impact	-8.41751
▁enter	-8.4194
▁less	-8.4208
▁lockdown	-8.42486
ake	-8.42517
▁similar	-8.43792
▁european	-8.43914
▁cho	-8.44112
▁four	-8.44266
▁26	-8.44501
▁touch	-8.44938
▁To	-8.4562
▁does	-8.45751
▁organization	-8.4592
▁yourself	-8.4592
▁advis	-8.45922
▁safety	-8.45926
▁But	-8.45932
▁since	-8.45933
▁water	-8.4594
▁vari	-8.45979
tory	-8.46014
▁rna	-8.4607
▁increase	-8.47338
▁research	-8.48093
▁infectious	-8.48094
▁staff	-8.48094
▁korea	-8.48095
▁phase	-8.48106
isolation	-8.48159
▁still	-8.48217
cle	-8.48517
▁25	-8.48964
ld	-8.4988
tric	-8.49986
0,000	-8.50253
▁De	-8.50316
▁having	-8.50316
▁return	-8.50316
▁consider	-8.50316
▁normal	-8.50316
▁worldwide	-8.50316
▁fines	-8.5036
▁eu	-8.50442
▁each	-8.5049
▁low	-8.50515
▁Al	-8.51278
▁covs	-8.51523
eep	-8.52129
ugh	-8.52562
ology	-8.52567
▁pneumonia	-8.52588
▁period	-8.52589
▁back	-8.52594
▁team	-8.52615
▁come	-8.52686
▁Rea	-8.52895
▁required	-8.53174
▁detected	-8.53408
▁21	-8.53641
43	-8.54506
species	-8.54914
▁identified	-8.54914
▁concern	-8.54914
▁record	-8.54914
▁outside	-8.54919
▁indicat	-8.54925
▁region	-8.54932
ymptomatic	-8.54936
▁near	-8.54972
▁tracker	-8.55153
▁right	-8.5521
▁meet	-8.55323
▁specific	-8.55416
▁likely	-8.55525
▁17	-8.55576
▁city	-8.5582
▁washing	-8.56224
▁individuals	-8.56375
▁laboratory	-8.57295
▁africa	-8.57295
▁reopen	-8.57295
▁rapid	-8.57297
▁however	-8.57297
▁said	-8.57315
▁county	-8.57322
▁house	-8.57345
▁nurs	-8.57355
▁list	-8.5766
▁lower	-8.57739
▁28	-8.58045
▁received	-8.58369
▁wash	-8.58755
ition	-8.59483
▁equipment	-8.59734
▁genome	-8.59734
▁Stay	-8.59734
▁2021	-8.59735
▁suspect	-8.59735
▁remove	-8.59736
member	-8.59737
▁mild	-8.59745
▁stop	-8.59768
isolate	-8.59775
▁trials	-8.59803
▁late	-8.59876
ttle	-8.60133
▁uk	-8.60418
▁developed	-8.6119
▁personal	-8.61553
▁healthy	-8.61594
▁know	-8.61672
inister	-8.6203
▁economi	-8.62234
▁suggest	-8.62234
▁screen	-8.62234
▁corona	-8.62241
▁wait	-8.62249
▁sick	-8.62252
▁done	-8.62338
▁samples	-8.62492
▁date	-8.62588
▁ill	-8.62653
low	-8.62838
▁increased	-8.63112
▁online	-8.63144
▁sever	-8.63628
▁year	-8.6401
▁Wash	-8.64798
▁america	-8.64798
▁associated	-8.64798
▁daily	-8.64798
▁influenza	-8.64798
▁syndrome	-8.64798
▁vaccinated	-8.64798
▁How	-8.648
▁baby	-8.64801
▁iran	-8.64908
▁manag	-8.64949
▁pass	-8.65196
▁imp	-8.65244
▁main	-8.66213
▁Man	-8.67221
day	-8.67236
▁adapt	-8.6743
▁learning	-8.6743
▁market	-8.6743
▁monitor	-8.6743
▁properly	-8.6743
▁vaccination	-8.6743
▁development	-8.6769
▁later	-8.67873
▁eat	-8.68686
▁five	-8.69006
ological	-8.70131
▁Open	-8.70132
▁cyberattack	-8.70132
▁distancing	-8.70132
▁evidence	-8.70132
▁involv	-8.70133
tensive	-8.70133
▁own	-8.70137
▁recent	-8.70143
▁small	-8.70143
▁worse	-8.70147
▁ju	-8.70261
▁identi	-8.70349
covid	-8.71261
ative	-8.71265
▁arriv	-8.7129
▁stated	-8.71925
▁far	-8.72173
ontact	-8.72778
▁cluster	-8.7291
▁happen	-8.7291
▁separation	-8.7291
▁sneezing	-8.7291
▁mobil	-8.7291
▁perform	-8.72911
▁access	-8.72911
▁women	-8.72912
▁release	-8.72913
▁prepar	-8.72915
▁treat	-8.7293
▁few	-8.72949
▁astrazeneca	-8.73115
▁prevention	-8.73125
organ	-8.73449
▁code	-8.73569
mental	-8.74117
came	-8.74462
efore	-8.75468
eople	-8.75607
▁occur	-8.75761
▁exercise	-8.75767
▁intermedia	-8.75767
▁potential	-8.75767
▁type	-8.75769
▁extend	-8.75769
▁variant	-8.7577
▁source	-8.75771
▁present	-8.75784
▁name	-8.76185
▁And	-8.77199
▁affect	-8.77516
▁full	-8.7793
▁require	-8.77953
▁immediate	-8.78224
▁already	-8.78708
▁antibodies	-8.78708
▁experienc	-8.78708
▁particular	-8.78709
▁distance	-8.78711
▁lung	-8.78712
▁outdoor	-8.78726
▁history	-8.7873
▁add	-8.79374
▁his	-8.79673
▁31	-8.80045
▁now	-8.80164
▁estimate	-8.80981
▁refer	-8.81011
▁establish	-8.81739
▁authorities	-8.81739
▁natural	-8.81739
▁significant	-8.81739
▁temperature	-8.81739
▁exposure	-8.81739
▁primary	-8.81773
▁free	-8.81787
▁estimated	-8.82502
▁her	-8.82518
round	-8.8357
▁whe	-8.83821
37	-8.83874
▁chi	-8.8414
▁critical	-8.84864
▁details	-8.84864
▁effort	-8.84864
▁medication	-8.84864
▁pangolin	-8.84864
▁pregnant	-8.84864
▁arrange	-8.84864
▁indoor	-8.84865
▁process	-8.84865
▁initial	-8.84873
like	-8.849
.30	-8.84916
part	-8.85175
▁creat	-8.85229
▁protection	-8.85311
▁em	-8.85673
▁27	-8.8584
▁29	-8.8591
▁mid	-8.86593
▁side	-8.86956
tant	-8.87005
▁sample	-8.87757
▁hygiene	-8.8809
▁shopping	-8.8809
▁workplace	-8.8809
▁implement	-8.8809
▁serious	-8.8809
▁emerg	-8.88094
▁prior	-8.88094
▁alone	-8.88107
▁means	-8.88123
ward	-8.88162
coronavirus	-8.88225
▁just	-8.88369
▁stage	-8.88521
ood	-8.88572
▁immediately	-8.88624
▁minister	-8.88667
▁slow	-8.8879
48	-8.89276
▁detect	-8.9023
▁medicine	-8.91423
▁special	-8.91423
▁Follow	-8.91423
▁household	-8.91423
▁cancelled	-8.91426
▁secondary	-8.9153
▁onset	-8.91593
risk	-8.91783
229	-8.92879
▁sea	-8.93825
▁adults	-8.94871
▁executive	-8.94871
▁gathering	-8.94871
▁pregnancy	-8.94871
▁tempora	-8.94871
▁crowd	-8.94871
▁method	-8.94871
▁hotel	-8.94874
▁season	-8.94879
▁link	-8.94879
▁rsc	-8.94944
▁trial	-8.94987
▁good	-8.95029
▁president	-8.9515
▁post	-8.95916
▁ten	-8.95995
▁india	-8.96638
▁again	-8.98227
▁Other	-8.98443
▁brazil	-8.98443
▁drink	-8.98443
▁necessary	-8.98443
▁programme	-8.98443
▁published	-8.98443
▁attack	-8.98443
▁business	-8.98443
▁crisis	-8.98443
▁location	-8.98443
▁monday	-8.98443
rcgp	-8.98444
▁cloth	-8.98447
▁depend	-8.98448
▁talk	-8.98452
▁gardaí	-8.98502
▁update	-8.98554
▁room	-8.98658
▁tell	-8.98762
▁officer	-8.98802
▁director	-8.98985
relat	-8.99759
pathogenic	-9.005
ified	-9.00623
▁europe	-9.01928
▁analysis	-9.02146
▁hubei	-9.02146
▁mortality	-9.02146
▁observ	-9.02146
▁suspend	-9.02146
▁zoono	-9.02146
▁third	-9.02147
▁breach	-9.02148
▁left	-9.02151
▁check	-9.02153
▁delay	-9.02158
▁appear	-9.02177
▁north	-9.02379
ept	-9.02926
38	-9.03075
▁los	-9.04981
ocial	-9.05596
▁office	-9.05641
▁What	-9.05992
▁activity	-9.05992
▁citizens	-9.05992
▁figures	-9.05992
▁reservoir	-9.05992
▁taking	-9.05993
▁guidelines	-9.05994
▁pressure	-9.05998
▁everyone	-9.05999
▁paper	-9.06012
▁soap	-9.06013
▁seven	-9.06017
▁began	-9.0602
▁life	-9.0602
▁drive	-9.06023
▁deliver	-9.06025
▁lead	-9.06077
▁severity	-9.06127
▁mich	-9.06167
▁beta	-9.06175
▁tract	-9.0631
▁patient	-9.06355
▁That	-9.06373
▁dry	-9.06454
▁handl	-9.07027
▁ye	-9.09295
▁approximate	-9.09992
▁Health	-9.09992
▁certificate	-9.09992
▁complete	-9.09992
▁increasing	-9.09992
▁mandatory	-9.09992
▁physical	-9.09992
▁receptor	-9.09992
▁restaurant	-9.09992
▁sequence	-9.09992
▁studies	-9.09992
▁technology	-9.09992
▁university	-9.09992
▁enough	-9.09993
▁design	-9.09993
▁billion	-9.09993
▁multiple	-9.09993
spect	-9.09998
nique	-9.10018
▁feet	-9.10021
▁older	-9.10022
▁range	-9.10073
hku	-9.10079
▁step	-9.10088
▁phe	-9.10441
▁cities	-9.10564
▁clinic	-9.1361
▁diagnosis	-9.14159
▁future	-9.14159
▁throat	-9.14159
▁middle	-9.14161
▁protest	-9.14164
▁strain	-9.14169
▁heart	-9.14171
▁toilet	-9.14184
▁isolated	-9.14203
▁single	-9.14297
ffic	-9.14337
▁offer	-9.14683
▁infect	-9.17172
▁serve	-9.17799
hildren	-9.18305
▁disinfect	-9.18504
pharmac	-9.18507
▁certain	-9.18507
▁fatality	-9.18507
▁maintain	-9.18507
▁progress	-9.18507
▁unknown	-9.18507
▁Coronavirus	-9.18507
▁childcare	-9.18507
▁situation	-9.18507
▁foot	-9.18507
▁virology	-9.18507
▁camels	-9.18507
▁address	-9.18508
▁course	-9.18512
▁france	-9.18512
▁outcome	-9.18514
▁walk	-9.18526
▁ensure	-9.18538
generat	-9.18591
▁assessment	-9.18607
▁Sars	-9.18677
▁fast	-9.18798
▁arr	-9.18964
high	-9.1985
▁assess	-9.22972
▁province	-9.23052
▁efficacy	-9.23052
▁elderly	-9.23052
▁function	-9.23052
▁genetic	-9.23052
▁tissue	-9.23052
▁describ	-9.23053
▁minutes	-9.23053
▁supply	-9.23053
pfizer	-9.23053
▁droplets	-9.23053
▁foreign	-9.23053
▁think	-9.23053
▁text	-9.23056
▁demand	-9.23057
▁swab	-9.23059
▁guide	-9.2306
▁warn	-9.23089
▁want	-9.23091
▁antiviral	-9.2312
▁symptom	-9.24133
ports	-9.26622
▁confirm	-9.26628
▁swi	-9.27448
hydration	-9.27814
▁college	-9.27814
▁diarrhea	-9.27814
▁japan	-9.27814
▁nationwide	-9.27814
▁saturday	-9.27814
▁supplies	-9.27814
▁express	-9.27814
▁sunday	-9.27815
▁reason	-9.27819
▁Clean	-9.2782
▁occurred	-9.27825
▁play	-9.27828
▁parents	-9.27834
prevalen	-9.27836
▁things	-9.27838
▁clear	-9.27854
▁homolog	-9.2786
▁begin	-9.27873
▁else	-9.27883
▁store	-9.28315
sense	-9.28435
q	-9.32402
▁approved	-9.32814
▁crown	-9.32814
▁diabetes	-9.32814
▁families	-9.32814
▁november	-9.32814
▁sneeze	-9.32814
▁vulnerable	-9.32814
▁amount	-9.32814
▁passenger	-9.32814
▁recogni	-9.32815
▁regard	-9.32815
▁expert	-9.32815
▁friday	-9.32815
▁message	-9.32815
▁stephen	-9.32815
central	-9.32817
ometimes	-9.32817
▁straight	-9.32817
▁percent	-9.32818
▁trump	-9.32818
▁birth	-9.32821
▁model	-9.32827
▁half	-9.32832
▁smoke	-9.3285
▁better	-9.32856
▁entry	-9.32868
▁4,9	-9.32873
▁Spe	-9.33955
ference	-9.34148
▁Mak	-9.34959
aoiseach	-9.38077
expected	-9.38077
▁activities	-9.38077
▁california	-9.38077
▁decrease	-9.38077
▁encourag	-9.38077
▁evacuat	-9.38077
▁feature	-9.38077
▁kingdom	-9.38077
▁protocol	-9.38077
▁review	-9.38077
▁schedule	-9.38077
▁standard	-9.38077
▁universities	-9.38077
▁determine	-9.38078
▁mutation	-9.38078
▁retail	-9.38078
▁vector	-9.38078
▁training	-9.38078
▁closing	-9.38079
▁entire	-9.3808
▁shut	-9.38099
▁chance	-9.38107
▁eea	-9.38161
▁cancel	-9.39314
cular	-9.40427
public	-9.40444
who	-9.40481
▁inform	-9.43495
▁prim	-9.43619
▁distribut	-9.43633
diagnosed	-9.43633
▁With	-9.43633
▁australia	-9.43633
▁biontech	-9.43633
▁conduct	-9.43633
▁facilities	-9.43633
▁failure	-9.43633
▁institute	-9.43633
▁johnson	-9.43633
▁problem	-9.43633
▁quickly	-9.43633
▁receiving	-9.43633
▁teachers	-9.43633
▁themselves	-9.43633
▁ventilation	-9.43633
dministrati	-9.43633
▁breast	-9.43633
▁discuss	-9.43633
▁above	-9.43633
▁job	-9.43633
▁contract	-9.43634
▁regula	-9.43634
▁chron	-9.43634
acetam	-9.43634
▁except	-9.43635
▁russia	-9.43635
▁germany	-9.43636
▁disinfectant	-9.43636
▁regulations	-9.43637
▁internet	-9.43639
cumulati	-9.43641
▁dispos	-9.43661
▁inciden	-9.43663
▁exist	-9.43698
planned	-9.44255
▁individual	-9.45848
▁condition	-9.45866
▁track	-9.47613
▁alcohol	-9.49515
▁Avoid	-9.49515
▁appropriate	-9.49515
▁employer	-9.49515
▁moderna	-9.49515
▁subject	-9.49515
▁widespread	-9.49515
▁candidate	-9.49515
▁gloves	-9.49515
▁worried	-9.49515
knowledge	-9.49516
▁damage	-9.49516
▁difference	-9.49516
▁improve	-9.49516
▁spain	-9.49516
▁understand	-9.49516
▁either	-9.49518
▁privacy	-9.49518
▁together	-9.49522
▁transmitted	-9.49523
▁reaction	-9.49523
▁decide	-9.49524
▁drop	-9.49524
▁fund	-9.49537
▁Comm	-9.49538
▁active	-9.49565
ntigen	-9.49695
▁Tak	-9.50845
inflammat	-9.54781
▁anonymous	-9.55765
▁building	-9.55765
▁combination	-9.55765
▁envelope	-9.55765
▁mitigation	-9.55765
▁september	-9.55765
▁statistic	-9.55765
▁thousand	-9.55765
▁Visit	-9.55765
▁introduced	-9.55766
▁Restrict	-9.55766
▁material	-9.55766
▁federal	-9.55766
▁approach	-9.55766
▁instead	-9.55767
▁consist	-9.55767
▁focus	-9.55767
▁secret	-9.55768
▁priva	-9.55769
▁basis	-9.5577
▁From	-9.55774
▁minim	-9.55776
spite	-9.55781
acquir	-9.55783
▁spend	-9.55794
▁previous	-9.61954
gov	-9.62341
▁Protect	-9.62432
▁capacity	-9.62432
▁claimed	-9.62432
▁danger	-9.62432
▁exclud	-9.62432
▁institutions	-9.62432
▁investigation	-9.62432
▁network	-9.62432
▁procedures	-9.62432
▁spike	-9.62432
dependent	-9.62432
▁challeng	-9.62432
▁cultur	-9.62432
▁environment	-9.62432
▁policy	-9.62432
▁muscle	-9.62433
▁border	-9.62433
▁imposed	-9.62433
▁therapy	-9.62433
▁space	-9.62434
▁travellers	-9.62435
▁option	-9.62438
school	-9.66371
▁minist	-9.68889
▁transmit	-9.69565
transcript	-9.69575
▁connection	-9.69575
▁precaution	-9.69575
▁prescription	-9.69575
▁typical	-9.69575
▁School	-9.69575
▁Where	-9.69575
▁application	-9.69575
▁gradually	-9.69575
▁questions	-9.69575
▁respond	-9.69575
▁target	-9.69575
▁discovered	-9.69575
▁holiday	-9.69575
▁pharmacist	-9.69575
▁separate	-9.69575
▁Infect	-9.69575
▁decision	-9.69575
▁random	-9.69575
▁accept	-9.69576
▁shops	-9.69576
▁reliable	-9.69576
▁request	-9.69577
▁york	-9.69577
▁regularly	-9.69577
▁letter	-9.69577
▁alpha	-9.69579
▁video	-9.69579
▁basic	-9.6958
▁version	-9.69582
▁pathogen	-9.72887
▁student	-9.73616
including	-9.74077
ardaí	-9.77136
hylogenetic	-9.77267
tructural	-9.77267
▁Symptoms	-9.77267
▁agencies	-9.77267
▁authority	-9.77267
▁classes	-9.77267
▁complications	-9.77267
▁cruise	-9.77267
▁domestic	-9.77267
▁explain	-9.77267
▁facility	-9.77267
▁hazard	-9.77267
▁hundred	-9.77267
▁recombination	-9.77267
▁resources	-9.77267
▁scientific	-9.77267
▁wednesday	-9.77267
▁break	-9.77267
▁routine	-9.77268
▁cancellation	-9.77268
▁multi	-9.77268
▁okay	-9.77268
▁contrast	-9.77269
▁interaction	-9.77269
▁strong	-9.77269
▁earlie	-9.77271
▁issues	-9.77271
exposed	-9.77278
▁surgi	-9.77367
▁inflamma	-9.78501
lockdown	-9.82389
where	-9.82408
▁construct	-9.856
irborne	-9.85601
▁Everyone	-9.85601
▁Patients	-9.85601
▁accurate	-9.85601
▁committee	-9.85601
▁demonstrate	-9.85601
▁electron	-9.85601
▁funeral	-9.85601
▁obtain	-9.85601
▁oxygen	-9.85601
▁specimen	-9.85601
▁ventilator	-9.85601
▁Short	-9.85601
▁contaminat	-9.85601
▁coordinat	-9.85601
▁launch	-9.85601
▁agency	-9.85601
í	-10.158
C	-10.7603
A	-11.8444
I	-11.8445
’	-12.8437
V	-12.8438
U	-12.8439
G	-12.844
–	-12.8441
N	-12.8442
L	-12.8443
/	-12.8444
E	-12.8445
R	-12.8446
F	-12.8447
B	-12.8448
%	-12.8449
M	-12.845
P	-12.8451
D	-12.8452
Y	-12.8453
W	-12.8454
O	-12.8455
S	-12.8456
(	-12.8457
H	-12.8458
T	-12.8458
