<pad>	0
</s>	0
<unk>	0
▁s	-0
▁p	-1
▁j	-2
▁v	-3
▁n	-4
▁a	-5
st	-6
▁t	-7
▁k	-8
ch	-9
li	-10
▁m	-11
▁z	-12
ho	-13
▁je	-14
▁b	-15
ov	-16
▁d	-17
od	-18
ou	-19
te	-20
en	-21
ra	-22
ro	-23
ak	-24
em	-25
▁o	-26
in	-27
▁ne	-28
▁se	-29
▁po	-30
ře	-31
▁na	-32
al	-33
ti	-34
▁A	-35
le	-36
▁sv	-37
še	-38
ní	-39
il	-40
ud	-41
▁by	-42
la	-43
ce	-44
ři	-45
▁u	-46
rá	-47
ří	-48
to	-49
že	-50
▁J	-51
os	-52
▁H	-53
▁kte	-54
ého	-55
▁js	-56
▁I	-57
▁do	-58
▁to	-59
sk	-60
pod	-61
▁Hos	-62
podin	-63
▁Hospodin	-64
by	-65
▁B	-66
mu	-67
▁i	-68
ně	-69
▁P	-70
ni	-71
ne	-72
▁za	-73
no	-74
dy	-75
ko	-76
▁vy	-77
ých	-78
ví	-79
▁pro	-80
bo	-81
▁od	-82
▁bud	-83
▁jest	-84
lo	-85
▁při	-86
▁jeho	-87
na	-88
jí	-89
lu	-90
▁N	-91
▁S	-92
ám	-93
▁h	-94
ru	-95
▁kter	-96
▁č	-97
▁st	-98
ím	-99
el	-100
▁pak	-101
yn	-102
▁T	-103
▁vše	-104
ji	-105
dě	-106
▁tv	-107
▁aby	-108
ým	-109
bě	-110
ka	-111
va	-112
ci	-113
▁pře	-114
ení	-115
▁ře	-116
▁že	-117
▁tak	-118
lov	-119
ží	-120
sta	-121
▁K	-122
ed	-123
im	-124
▁syn	-125
▁bude	-126
▁řek	-127
▁jsem	-128
▁M	-129
▁krá	-130
do	-131
▁jak	-132
ky	-133
vi	-134
at	-135
je	-136
▁Ne	-137
▁zem	-138
▁ž	-139
▁ho	-140
ku	-141
ova	-142
sti	-143
▁Je	-144
▁své	-145
an	-146
tí	-147
▁ně	-148
ze	-149
▁Iz	-150
de	-151
oh	-152
da	-153
▁ve	-154
cí	-155
▁li	-156
▁tě	-157
dyž	-158
roz	-159
▁mě	-160
am	-161
vo	-162
lé	-163
▁vě	-164
ové	-165
▁D	-166
▁řekl	-167
▁Izra	-168
áš	-169
ovi	-170
▁lid	-171
▁byl	-172
ýž	-173
▁před	-174
vě	-175
▁V	-176
tě	-177
▁jako	-178
ší	-179
áz	-180
▁všec	-181
▁E	-182
ši	-183
▁ch	-184
▁pra	-185
▁když	-186
jich	-187
▁jejich	-188
ar	-189
▁Z	-190
ly	-191
▁ná	-192
říž	-193
▁Izrael	-194
ez	-195
▁ob	-196
▁O	-197
▁jed	-198
ili	-199
▁roz	-200
ůj	-201
▁te	-202
▁mu	-203
né	-204
ům	-205
čin	-206
▁nebo	-207
▁kterýž	-208
éž	-209
▁ji	-210
▁kteříž	-211
lí	-212
▁sp	-213
ste	-214
rd	-215
vá	-216
▁ko	-217
▁nep	-218
ta	-219
ná	-220
▁neb	-221
▁c	-222
▁pod	-223
▁jsou	-224
mě	-225
ej	-226
lá	-227
lou	-228
▁mne	-229
▁Nebo	-230
oj	-231
ské	-232
▁svého	-233
ství	-234
▁Pro	-235
ad	-236
rod	-237
ved	-238
as	-239
▁toho	-240
nu	-241
ož	-242
▁ale	-243
▁pos	-244
kr	-245
▁ani	-246
me	-247
šel	-248
děl	-249
▁ru	-250
▁Jo	-251
če	-252
▁ten	-253
lik	-254
▁obě	-255
▁Boh	-256
stu	-257
▁slu	-258
▁jim	-259
nou	-260
▁zá	-261
ný	-262
▁vz	-263
či	-264
ůh	-265
▁jsi	-266
žíš	-267
▁Bůh	-268
▁proti	-269
▁ni	-270
▁kteréž	-271
es	-272
▁země	-273
vil	-274
ma	-275
▁já	-276
mi	-277
▁Te	-278
▁učin	-279
▁mo	-280
▁vám	-281
▁jemu	-282
žd	-283
▁ř	-284
ově	-285
▁zemi	-286
▁ty	-287
▁ú	-288
▁mlu	-289
alo	-290
tož	-291
▁až	-292
▁pr	-293
▁také	-294
▁r	-295
ád	-296
▁C	-297
ob	-298
▁pří	-299
et	-300
▁dí	-301
▁kdo	-302
tá	-303
▁tobě	-304
▁mí	-305
▁budou	-306
ník	-307
▁vá	-308
ště	-309
di	-310
sí	-311
▁ti	-312
cha	-313
▁Da	-314
▁nad	-315
▁Po	-316
▁praví	-317
▁ot	-318
▁ví	-319
▁jej	-320
uje	-321
ští	-322
▁Izraelsk	-323
▁Tedy	-324
án	-325
be	-326
▁byli	-327
▁bra	-328
▁ka	-329
▁tvé	-330
ži	-331
▁mi	-332
▁dě	-333
▁so	-334
po	-335
vy	-336
▁Ale	-337
žeb	-338
▁Bo	-339
ání	-340
▁va	-341
▁král	-342
oval	-343
▁Davi	-344
kou	-345
pu	-346
▁vš	-347
▁mé	-348
▁svou	-349
▁čin	-350
mé	-351
▁slov	-352
▁domu	-353
mo	-354
▁ži	-355
▁služeb	-356
▁le	-357
▁vi	-358
▁každ	-359
av	-360
▁což	-361
▁dne	-362
▁poko	-363
ými	-364
▁ce	-365
▁svých	-366
▁hla	-367
ali	-368
oud	-369
▁nem	-370
vu	-371
ův	-372
eni	-373
▁má	-374
ny	-375
▁L	-376
▁mno	-377
káz	-378
▁vás	-379
▁mil	-380
▁sm	-381
▁G	-382
br	-383
▁jmé	-384
▁obět	-385
▁tvá	-386
iáš	-387
ného	-388
▁David	-389
stí	-390
▁všech	-391
ele	-392
▁du	-393
ět	-394
šli	-395
lově	-396
▁sobě	-397
sto	-398
ráž	-399
tr	-400
dí	-401
zal	-402
cho	-403
stou	-404
▁jí	-405
▁srd	-406
▁bylo	-407
▁R	-408
▁kně	-409
▁Protož	-410
ezi	-411
▁skr	-412
▁Jud	-413
se	-414
val	-415
▁zp	-416
▁tu	-417
▁králov	-418
▁člově	-419
▁velik	-420
ck	-421
▁lidu	-422
▁Boha	-423
ry	-424
dali	-425
lal	-426
▁mezi	-427
ovo	-428
ri	-429
zd	-430
▁Boží	-431
▁F	-432
▁oh	-433
ude	-434
▁jste	-435
▁synů	-436
ty	-437
áte	-438
▁Ab	-439
yna	-440
▁Moj	-441
vedl	-442
yp	-443
ruh	-444
▁těch	-445
zalé	-446
▁Jeru	-447
▁os	-448
▁můj	-449
▁všecky	-450
▁Jeruzalé	-451
sté	-452
ckni	-453
šickni	-454
men	-455
ovati	-456
ve	-457
▁dal	-458
ct	-459
▁vo	-460
▁svat	-461
řed	-462
▁Ž	-463
▁Já	-464
▁Hospodinu	-465
za	-466
čí	-467
▁té	-468
vé	-469
▁bý	-470
▁národ	-471
ských	-472
bu	-473
ouž	-474
lož	-475
▁žen	-476
stě	-477
▁Kte	-478
▁synové	-479
dá	-480
▁tedy	-481
▁den	-482
tom	-483
▁Tak	-484
▁nej	-485
▁brat	-486
▁spra	-487
pově	-488
▁Eg	-489
▁on	-490
▁ra	-491
jící	-492
hl	-493
▁dá	-494
▁bez	-495
▁dva	-496
▁nich	-497
▁ním	-498
ského	-499
stup	-500
▁jeden	-501
vr	-502
nost	-503
▁mně	-504
▁Mojžíš	-505
▁Egyp	-506
▁syna	-507
▁nás	-508
stoup	-509
koli	-510
▁poh	-511
▁její	-512
▁všickni	-513
▁kteráž	-514
▁sed	-515
du	-516
▁muž	-517
▁žád	-518
iti	-519
nosti	-520
bou	-521
lení	-522
ovali	-523
▁jsme	-524
ba	-525
▁nim	-526
mí	-527
▁řka	-528
▁Sa	-529
▁vod	-530
lil	-531
▁l	-532
▁mluvil	-533
tu	-534
má	-535
▁skrze	-536
▁jin	-537
▁byla	-538
▁všecko	-539
ných	-540
▁něm	-541
▁Hospodina	-542
sa	-543
▁jedno	-544
jisté	-545
▁vys	-546
ráti	-547
▁tr	-548
▁aniž	-549
zu	-550
▁svým	-551
jte	-552
▁U	-553
▁zajisté	-554
▁Ježíš	-555
ká	-556
▁nap	-557
▁krále	-558
▁něho	-559
on	-560
▁nám	-561
▁(	-562
▁kní	-563
▁kra	-564
▁ta	-565
▁hří	-566
nám	-567
▁tvůj	-568
▁Aj	-569
▁To	-570
▁srdce	-571
kázal	-572
▁učinil	-573
ský	-574
▁čas	-575
▁proro	-576
▁než	-577
pra	-578
▁sh	-579
▁vů	-580
át	-581
▁služební	-582
▁není	-583
▁sedm	-584
▁věci	-585
▁jich	-586
yní	-587
▁Syn	-588
▁tebe	-589
jíce	-590
▁co	-591
▁Od	-592
▁nav	-593
▁budu	-594
▁svému	-595
ena	-596
▁stra	-597
hu	-598
ila	-599
▁um	-600
ctví	-601
▁kdož	-602
áb	-603
chá	-604
ků	-605
▁pa	-606
▁tam	-607
řel	-608
▁sly	-609
▁tisí	-610
enství	-611
▁jakž	-612
▁nebude	-613
▁sto	-614
▁přij	-615
▁města	-616
▁ke	-617
▁svě	-618
ců	-619
bí	-620
nov	-621
▁aj	-622
▁druh	-623
▁usta	-624
ha	-625
▁kterouž	-626
▁prost	-627
▁jen	-628
▁živo	-629
▁jméno	-630
▁me	-631
▁ní	-632
bylo	-633
▁ať	-634
▁králi	-635
▁dobr	-636
▁více	-637
▁soud	-638
▁ro	-639
▁dce	-640
chu	-641
er	-642
id	-643
▁stá	-644
▁š	-645
▁tři	-646
tek	-647
odí	-648
zí	-649
▁byd	-650
▁každý	-651
▁Na	-652
▁Zdali	-653
▁bratří	-654
bil	-655
▁tom	-656
▁prostřed	-657
▁již	-658
▁Když	-659
▁budeš	-660
▁však	-661
neb	-662
▁op	-663
eno	-664
lad	-665
liže	-666
▁zla	-667
▁ku	-668
▁Egypt	-669
lav	-670
vedli	-671
▁kr	-672
▁hle	-673
▁mod	-674
▁sí	-675
▁tomu	-676
▁př	-677
▁hlas	-678
ek	-679
▁Kter	-680
mou	-681
vad	-682
stří	-683
▁Bohu	-684
▁neu	-685
▁shro	-686
ému	-687
stá	-688
▁poz	-689
▁pokolení	-690
dou	-691
▁nes	-692
▁sta	-693
▁lo	-694
vše	-695
▁naše	-696
▁Kri	-697
▁dědi	-698
▁slou	-699
tel	-700
ev	-701
▁Pá	-702
dal	-703
▁bo	-704
▁Kdo	-705
▁němu	-706
▁pl	-707
▁nyní	-708
▁sil	-709
▁řkou	-710
▁Hospodinov	-711
▁Š	-712
eme	-713
▁jenž	-714
sá	-715
ata	-716
▁Vy	-717
▁my	-718
▁poč	-719
▁vaše	-720
▁budete	-721
vý	-722
▁ma	-723
odil	-724
▁čty	-725
cháze	-726
stin	-727
▁abych	-728
pověděl	-729
nal	-730
cház	-731
▁us	-732
▁vý	-733
▁hřích	-734
▁ud	-735
vili	-736
▁nech	-737
ém	-738
▁zástup	-739
▁dům	-740
▁nebe	-741
▁služebník	-742
dění	-743
▁shromá	-744
▁aneb	-745
▁stalo	-746
dce	-747
uď	-748
▁še	-749
▁rou	-750
▁posta	-751
▁přišel	-752
ltá	-753
▁oči	-754
▁Sau	-755
▁proto	-756
ima	-757
nil	-758
▁podlé	-759
▁an	-760
▁zah	-761
▁mého	-762
lech	-763
▁tebou	-764
▁býti	-765
▁otce	-766
▁protož	-767
▁všem	-768
▁nepra	-769
vali	-770
▁oz	-771
▁nez	-772
▁voj	-773
▁muži	-774
ken	-775
▁Ma	-776
▁kníž	-777
▁ruku	-778
▁Potom	-779
vati	-780
▁uč	-781
▁oltá	-782
▁Ř	-783
▁svůj	-784
▁mnou	-785
▁Hospodinova	-786
bi	-787
▁všelik	-788
▁měl	-789
▁nimi	-790
stal	-791
edl	-792
▁pou	-793
▁všecken	-794
▁Ba	-795
▁záp	-796
▁ještě	-797
▁řekli	-798
▁slovo	-799
liž	-800
▁pot	-801
▁království	-802
rt	-803
jší	-804
lez	-805
ron	-806
▁Jak	-807
ená	-808
▁ze	-809
▁Ch	-810
▁svém	-811
▁syny	-812
▁Hospodine	-813
ování	-814
▁dn	-815
▁jakož	-816
žel	-817
děli	-818
pí	-819
▁ote	-820
▁místo	-821
pe	-822
bož	-823
▁boh	-824
▁čele	-825
▁vel	-826
áše	-827
vost	-828
cích	-829
▁slova	-830
▁pov	-831
▁ruce	-832
ových	-833
▁oni	-834
▁pá	-835
▁vyh	-836
pě	-837
▁zase	-838
▁něk	-839
▁pravím	-840
▁ode	-841
kol	-842
▁Jáko	-843
led	-844
▁Za	-845
▁oby	-846
▁dob	-847
▁Izraelský	-848
▁zů	-849
▁ó	-850
▁vaši	-851
▁poslal	-852
▁kněz	-853
zy	-854
▁Le	-855
dceti	-856
skému	-857
▁abyste	-858
▁Ka	-859
zo	-860
ené	-861
▁kam	-862
ová	-863
▁podob	-864
▁tvého	-865
▁no	-866
▁spo	-867
kem	-868
▁Při	-869
ním	-870
▁abys	-871
▁mnoh	-872
kud	-873
níci	-874
▁člověka	-875
▁moud	-876
▁ved	-877
▁ostří	-878
▁tvých	-879
▁vyp	-880
▁star	-881
▁věky	-882
čně	-883
▁Am	-884
▁zl	-885
▁pros	-886
▁Eli	-887
▁nic	-888
▁slá	-889
▁všecka	-890
ejte	-891
▁spravedli	-892
um	-893
šk	-894
něm	-895
▁něj	-896
ený	-897
▁pom	-898
eli	-899
éhož	-900
▁oběti	-901
▁Kterýž	-902
hou	-903
ách	-904
▁ci	-905
sy	-906
des	-907
▁svými	-908
▁vojsk	-909
rah	-910
vadž	-911
žeh	-912
▁buď	-913
▁Fili	-914
▁rá	-915
▁synům	-916
iv	-917
▁uz	-918
▁noh	-919
▁sám	-920
rát	-921
sty	-922
▁stří	-923
▁toto	-924
řil	-925
vají	-926
▁čtyři	-927
iž	-928
▁pok	-929
▁pí	-930
▁sku	-931
▁Izraelských	-932
anov	-933
▁Jest	-934
▁muže	-935
▁prav	-936
▁Zdaliž	-937
▁spravedl	-938
ským	-939
viti	-940
▁měsí	-941
▁Si	-942
▁des	-943
▁lé	-944
▁sam	-945
vosti	-946
▁bezbož	-947
bra	-948
ůl	-949
▁Du	-950
▁člověk	-951
▁Ty	-952
zdvi	-953
▁či	-954
▁velmi	-955
▁oč	-956
▁činí	-957
▁brá	-958
táh	-959
▁pad	-960
chi	-961
▁rukou	-962
my	-963
tů	-964
čež	-965
▁ří	-966
stav	-967
▁sebe	-968
▁živ	-969
▁jednoho	-970
ala	-971
▁nepř	-972
něvadž	-973
▁ustanov	-974
▁man	-975
ního	-976
▁Jákob	-977
liti	-978
▁nalez	-979
▁přikázal	-980
▁let	-981
▁duše	-982
dež	-983
▁smlou	-984
▁kralov	-985
▁vůkol	-986
ným	-987
▁ry	-988
▁Izraelští	-989
što	-990
▁mých	-991
▁dědictví	-992
ská	-993
▁šel	-994
žství	-995
šed	-996
pust	-997
▁mou	-998
▁odp	-999
▁vin	-1000
ara	-1001
ari	-1002
▁záko	-1003
ložil	-1004
▁Babylo	-1005
nit	-1006
sob	-1007
stech	-1008
▁očima	-1009
▁tohoto	-1010
▁nepřáte	-1011
dr	-1012
▁pouš	-1013
▁Takto	-1014
▁up	-1015
osrd	-1016
▁Šalo	-1017
▁Šalomou	-1018
byt	-1019
▁Se	-1020
▁dvě	-1021
▁ruky	-1022
ama	-1023
▁též	-1024
▁domě	-1025
▁neby	-1026
▁Panov	-1027
vou	-1028
▁skut	-1029
▁meč	-1030
▁Filistin	-1031
lit	-1032
chom	-1033
▁otc	-1034
▁hně	-1035
▁žádného	-1036
▁pokoj	-1037
liko	-1038
▁Řek	-1039
▁Leví	-1040
▁jísti	-1041
▁zástupů	-1042
▁nepo	-1043
▁přišli	-1044
▁udě	-1045
▁vody	-1046
▁zápal	-1047
▁Mojžíšovi	-1048
žen	-1049
ních	-1050
▁svá	-1051
▁milo	-1052
▁vámi	-1053
▁kněží	-1054
rátil	-1055
▁neči	-1056
▁vysvo	-1057
su	-1058
▁nádo	-1059
so	-1060
▁mrt	-1061
▁tento	-1062
▁řkouce	-1063
kudž	-1064
▁milosrd	-1065
ned	-1066
▁svět	-1067
▁množství	-1068
oví	-1069
▁Žid	-1070
▁potom	-1071
▁oznám	-1072
▁lok	-1073
▁tím	-1074
▁napl	-1075
▁učedl	-1076
stý	-1077
▁smr	-1078
▁vší	-1079
▁Fara	-1080
▁boj	-1081
▁prá	-1082
▁vez	-1083
brž	-1084
▁set	-1085
▁činil	-1086
lád	-1087
▁As	-1088
▁pět	-1089
chází	-1090
▁pově	-1091
▁přikáz	-1092
pá	-1093
tiž	-1094
žíše	-1095
▁obyva	-1096
ub	-1097
ují	-1098
▁mat	-1099
▁synu	-1100
▁veliké	-1101
▁Hospodinem	-1102
cen	-1103
íme	-1104
ůsob	-1105
▁zvě	-1106
▁He	-1107
rost	-1108
▁zlé	-1109
▁bych	-1110
▁Jestliže	-1111
mlu	-1112
▁tře	-1113
tež	-1114
tý	-1115
nác	-1116
šla	-1117
▁nevy	-1118
▁usly	-1119
▁f	-1120
rou	-1121
▁Mo	-1122
lili	-1123
▁Aron	-1124
▁ženy	-1125
▁tisíc	-1126
ati	-1127
▁těm	-1128
▁vedlé	-1129
▁manžel	-1130
iny	-1131
▁prv	-1132
▁milosrdenství	-1133
raz	-1134
▁su	-1135
▁mužů	-1136
jde	-1137
ůže	-1138
děla	-1139
bý	-1140
▁lí	-1141
prav	-1142
▁sem	-1143
▁město	-1144
ovy	-1145
ram	-1146
▁mluví	-1147
▁viděl	-1148
▁míti	-1149
▁naz	-1150
nější	-1151
▁shromáž	-1152
▁Panovník	-1153
▁věč	-1154
▁posvě	-1155
▁Zá	-1156
▁přin	-1157
▁Jeruzaléma	-1158
škvr	-1159
▁někte	-1160
▁požeh	-1161
▁knížata	-1162
▁Ef	-1163
▁Aby	-1164
▁spas	-1165
nam	-1166
▁Joze	-1167
rak	-1168
lej	-1169
nce	-1170
▁Bože	-1171
▁koli	-1172
▁Abrah	-1173
▁bl	-1174
▁ves	-1175
▁vzal	-1176
▁Jeruzalém	-1177
řeč	-1178
čej	-1179
▁tvo	-1180
▁Saul	-1181
▁každého	-1182
ovu	-1183
▁Ro	-1184
vání	-1185
▁Což	-1186
▁měli	-1187
▁Jozef	-1188
▁života	-1189
▁Ti	-1190
▁moh	-1191
▁pan	-1192
▁věc	-1193
▁zlo	-1194
▁Jeruzalémě	-1195
▁dnů	-1196
▁hro	-1197
▁byly	-1198
▁nevě	-1199
▁jehož	-1200
▁ja	-1201
▁nev	-1202
▁sko	-1203
▁nepři	-1204
▁Kristu	-1205
áme	-1206
chem	-1207
▁Neb	-1208
▁Šalomoun	-1209
▁kdež	-1210
▁Pa	-1211
▁pu	-1212
▁moc	-1213
▁nežli	-1214
▁tvoji	-1215
▁všeho	-1216
chli	-1217
rátí	-1218
▁chle	-1219
▁Egyptské	-1220
kové	-1221
▁Pán	-1222
stoupil	-1223
sl	-1224
emu	-1225
trh	-1226
▁Vše	-1227
til	-1228
▁svěde	-1229
▁jestliže	-1230
▁Hospodinovo	-1231
moc	-1232
▁povo	-1233
▁času	-1234
kry	-1235
▁Bet	-1236
▁našeho	-1237
šil	-1238
▁moře	-1239
▁rod	-1240
▁hned	-1241
▁stán	-1242
▁této	-1243
▁umřel	-1244
▁če	-1245
▁kteréhož	-1246
▁By	-1247
▁St	-1248
zdra	-1249
▁hoře	-1250
▁zach	-1251
▁kníže	-1252
šení	-1253
▁tělo	-1254
▁mnoho	-1255
▁tváři	-1256
▁vašich	-1257
us	-1258
▁bys	-1259
▁moci	-1260
▁Řekl	-1261
ším	-1262
▁be	-1263
zue	-1264
▁vr	-1265
nice	-1266
tele	-1267
▁zpl	-1268
▁Jozue	-1269
▁dobré	-1270
▁podle	-1271
▁shromáždění	-1272
▁nebylo	-1273
▁hod	-1274
▁Izraele	-1275
nem	-1276
žil	-1277
▁ov	-1278
▁chrá	-1279
▁dnes	-1280
▁prchli	-1281
ina	-1282
ádo	-1283
▁dar	-1284
▁vol	-1285
▁nená	-1286
▁odpo	-1287
desáte	-1288
▁měsíce	-1289
vyš	-1290
▁Ot	-1291
▁řeč	-1292
aní	-1293
dej	-1294
▁On	-1295
ením	-1296
▁ostříh	-1297
▁způsob	-1298
eň	-1299
▁díl	-1300
ýchod	-1301
▁věcí	-1302
▁spolu	-1303
▁východ	-1304
▁Odpověděl	-1305
uj	-1306
▁Co	-1307
▁pop	-1308
▁přes	-1309
▁poškvr	-1310
kla	-1311
ďte	-1312
▁dom	-1313
lechet	-1314
▁přijde	-1315
lovi	-1316
▁kni	-1317
▁sou	-1318
▁chvá	-1319
▁totiž	-1320
▁Abraham	-1321
▁svědectví	-1322
nej	-1323
tem	-1324
▁kraj	-1325
▁otec	-1326
▁Hospodinův	-1327
or	-1328
nání	-1329
▁neod	-1330
▁půl	-1331
▁léta	-1332
▁tvou	-1333
▁tvář	-1334
inu	-1335
▁Pane	-1336
▁poch	-1337
▁nenávi	-1338
▁Babylon	-1339
▁Davidovi	-1340
▁bá	-1341
vého	-1342
▁žádný	-1343
▁mluviti	-1344
▁Izraelského	-1345
zar	-1346
▁Mi	-1347
▁Záko	-1348
▁těla	-1349
▁místě	-1350
▁zlého	-1351
▁pozdvi	-1352
),	-1353
zení	-1354
▁rozp	-1355
pustil	-1356
▁dcery	-1357
rem	-1358
vých	-1359
▁Ten	-1360
▁odpově	-1361
alá	-1362
▁bě	-1363
▁neboť	-1364
▁přebý	-1365
▁smrti	-1366
▁poušti	-1367
▁příčin	-1368
▁Č	-1369
ede	-1370
lek	-1371
▁trá	-1372
chiáš	-1373
▁bláz	-1374
▁měst	-1375
▁truh	-1376
▁zplodil	-1377
▁všechněm	-1378
tra	-1379
▁neš	-1380
▁půj	-1381
▁Efra	-1382
▁poněvadž	-1383
▁Izraelským	-1384
▁služebníci	-1385
re	-1386
jíti	-1387
roti	-1388
▁jménu	-1389
▁sebou	-1390
▁Pročež	-1391
▁odpověděl	-1392
▁pla	-1393
stane	-1394
▁Proč	-1395
▁Synové	-1396
▁národy	-1397
cím	-1398
▁neo	-1399
▁Jord	-1400
▁Moáb	-1401
▁nechť	-1402
▁nepravost	-1403
táhl	-1404
▁Pána	-1405
▁řekla	-1406
sou	-1407
▁zh	-1408
nili	-1409
▁Gal	-1410
▁oheň	-1411
▁žena	-1412
▁přede	-1413
▁srdci	-1414
žto	-1415
akli	-1416
ření	-1417
▁kla	-1418
▁učině	-1419
▁nešlechet	-1420
niž	-1421
▁kři	-1422
▁bývá	-1423
▁prorok	-1424
▁obětovati	-1425
bro	-1426
lali	-1427
šeli	-1428
▁ano	-1429
kaz	-1430
děti	-1431
▁duši	-1432
▁otci	-1433
▁prvo	-1434
▁lidem	-1435
▁stánku	-1436
▁smil	-1437
▁tvým	-1438
zi	-1439
sal	-1440
▁ač	-1441
▁sk	-1442
▁nade	-1443
▁otců	-1444
▁služ	-1445
▁šest	-1446
▁Pakli	-1447
▁život	-1448
▁abychom	-1449
nali	-1450
nému	-1451
▁poled	-1452
▁svaty	-1453
▁Ježíše	-1454
▁shromážd	-1455
lak	-1456
▁zd	-1457
nitř	-1458
▁dám	-1459
▁nen	-1460
▁poto	-1461
si	-1462
odo	-1463
sáno	-1464
▁noci	-1465
▁dokudž	-1466
áh	-1467
▁bí	-1468
▁Že	-1469
▁Eze	-1470
▁hor	-1471
▁jsa	-1472
eného	-1473
▁doko	-1474
▁naši	-1475
▁deset	-1476
▁pohan	-1477
▁veliký	-1478
šť	-1479
hož	-1480
▁opět	-1481
▁stan	-1482
▁hlasu	-1483
cem	-1484
vím	-1485
▁váš	-1486
▁zje	-1487
puště	-1488
▁chod	-1489
▁krev	-1490
▁dří	-1491
▁poj	-1492
tud	-1493
řím	-1494
níků	-1495
▁zap	-1496
nácte	-1497
▁jazy	-1498
▁otev	-1499
▁kraloval	-1500
fa	-1501
▁chud	-1502
▁veče	-1503
▁nemoh	-1504
pomí	-1505
▁oko	-1506
▁hory	-1507
▁vyšel	-1508
▁Kteříž	-1509
▁přikázaní	-1510
té	-1511
ale	-1512
▁Sy	-1513
vedu	-1514
žení	-1515
▁dve	-1516
dělal	-1517
eniam	-1518
▁duch	-1519
▁nedo	-1520
▁silný	-1521
▁Beniam	-1522
rán	-1523
sky	-1524
řili	-1525
▁Pav	-1526
▁moji	-1527
▁loket	-1528
▁Božího	-1529
dl	-1530
ždy	-1531
▁ohav	-1532
▁ješto	-1533
lon	-1534
těl	-1535
ýbrž	-1536
▁náš	-1537
▁osm	-1538
▁obra	-1539
▁vyvo	-1540
▁brány	-1541
▁dobře	-1542
▁nichž	-1543
▁toliko	-1544
ami	-1545
lati	-1546
▁Pet	-1547
▁oblí	-1548
▁takto	-1549
▁vysvob	-1550
douce	-1551
▁hlavu	-1552
▁nebud	-1553
▁třetí	-1554
▁národů	-1555
níky	-1556
▁námi	-1557
▁říka	-1558
▁městě	-1559
▁straně	-1560
ot	-1561
ato	-1562
man	-1563
ňte	-1564
▁pe	-1565
dati	-1566
dech	-1567
▁dny	-1568
▁vla	-1569
▁zas	-1570
▁řkoucí	-1571
▁ustanovení	-1572
ynu	-1573
▁Ja	-1574
▁šli	-1575
▁Toto	-1576
▁poma	-1577
▁rozm	-1578
▁stro	-1579
▁znam	-1580
▁cesty	-1581
▁nebes	-1582
▁pohle	-1583
▁půlno	-1584
▁smlouvu	-1585
ejt	-1586
sil	-1587
▁Be	-1588
▁de	-1589
šího	-1590
▁pán	-1591
ností	-1592
▁Levít	-1593
▁Egypta	-1594
▁bratra	-1595
ční	-1596
mord	-1597
tech	-1598
▁úst	-1599
▁anděl	-1600
▁Faraon	-1601
níka	-1602
▁nemo	-1603
▁pole	-1604
▁ústa	-1605
▁oltář	-1606
▁Efraim	-1607
▁příbyt	-1608
hy	-1609
uč	-1610
▁lou	-1611
▁údo	-1612
▁pokr	-1613
▁vyso	-1614
▁porod	-1615
▁spravedlnosti	-1616
zko	-1617
šlo	-1618
▁Abi	-1619
pomen	-1620
▁umře	-1621
.)	-1622
láš	-1623
čte	-1624
▁umě	-1625
▁Mana	-1626
▁knížat	-1627
▁činiti	-1628
▁služebníka	-1629
▁spravedlnost	-1630
ene	-1631
▁kad	-1632
▁zav	-1633
▁Nech	-1634
▁hejt	-1635
▁mají	-1636
▁němž	-1637
▁odtud	-1638
▁druhého	-1639
▁Beniamin	-1640
▁Izraelské	-1641
lice	-1642
▁zabi	-1643
▁Bohem	-1644
▁chodí	-1645
▁tisíců	-1646
▁e	-1647
▁cí	-1648
▁dou	-1649
▁hoj	-1650
▁mám	-1651
▁ovo	-1652
▁vra	-1653
▁Kdož	-1654
▁vzav	-1655
▁Jerem	-1656
▁bratr	-1657
▁mým	-1658
▁prod	-1659
▁vždy	-1660
▁jména	-1661
▁Izraeli	-1662
▁postavil	-1663
děv	-1664
▁Ach	-1665
▁znám	-1666
▁Mlu	-1667
▁dní	-1668
▁osta	-1669
▁tato	-1670
▁cestě	-1671
▁prosím	-1672
▁učinili	-1673
tvr	-1674
▁Bá	-1675
boám	-1676
▁tuto	-1677
▁vyko	-1678
▁spasení	-1679
íš	-1680
▁Lé	-1681
bili	-1682
hati	-1683
▁Syr	-1684
▁Kana	-1685
▁Manas	-1686
▁všemu	-1687
dají	-1688
▁kro	-1689
ději	-1690
▁prvé	-1691
▁such	-1692
▁dnech	-1693
▁údolí	-1694
▁hejtman	-1695
▁Hospodinovy	-1696
▁hr	-1697
nebo	-1698
uješ	-1699
čejem	-1700
▁dříví	-1701
▁místa	-1702
▁polož	-1703
▁vesel	-1704
▁učiním	-1705
▁vyvedl	-1706
bá	-1707
léb	-1708
náš	-1709
▁odv	-1710
mluvy	-1711
▁Amen	-1712
▁roucho	-1713
▁nepravosti	-1714
ai	-1715
cky	-1716
hně	-1717
rác	-1718
zaf	-1719
▁vět	-1720
▁neob	-1721
▁slav	-1722
rátili	-1723
▁nebyl	-1724
▁zlata	-1725
▁úmluvy	-1726
rad	-1727
ses	-1728
ázal	-1729
▁rci	-1730
pusti	-1731
▁Samu	-1732
▁nohy	-1733
▁roucha	-1734
pa	-1735
kři	-1736
lyš	-1737
věl	-1738
ích	-1739
ován	-1740
▁žeť	-1741
▁Petr	-1742
▁ruka	-1743
▁vidí	-1744
▁vydá	-1745
▁řeči	-1746
▁druhé	-1747
▁ovoce	-1748
▁strany	-1749
▁nepřátel	-1750
▁dr	-1751
skou	-1752
▁rov	-1753
skými	-1754
stupu	-1755
▁Páně	-1756
▁bliž	-1757
▁sobo	-1758
jícího	-1759
▁kterak	-1760
▁starší	-1761
▁národové	-1762
▁Ó	-1763
▁pol	-1764
▁sví	-1765
▁nemě	-1766
▁Davida	-1767
▁cestou	-1768
▁přines	-1769
▁prvoroz	-1770
adu	-1771
▁kdy	-1772
▁stě	-1773
▁zbo	-1774
▁sami	-1775
▁Kananej	-1776
jak	-1777
mor	-1778
▁Jona	-1779
▁žádo	-1780
▁odpoví	-1781
▁ustavi	-1782
▁vojska	-1783
pil	-1784
čil	-1785
▁Pos	-1786
▁Roz	-1787
▁naš	-1788
▁cestu	-1789
▁chléb	-1790
▁Hospodinovu	-1791
rý	-1792
ině	-1793
▁Vi	-1794
děte	-1795
nými	-1796
▁ohni	-1797
▁Galád	-1798
▁pam	-1799
nouti	-1800
▁cizo	-1801
▁nejvyš	-1802
udy	-1803
▁Do	-1804
lých	-1805
jících	-1806
▁Proto	-1807
▁byste	-1808
▁mečem	-1809
▁oblak	-1810
▁první	-1811
▁tváří	-1812
▁milost	-1813
▁čtyřidceti	-1814
imo	-1815
cího	-1816
daje	-1817
tých	-1818
ziáš	-1819
▁ská	-1820
▁uči	-1821
▁skry	-1822
▁zjev	-1823
▁Neboť	-1824
▁Stalo	-1825
▁stane	-1826
▁slyšel	-1827
lý	-1828
▁jde	-1829
▁sna	-1830
▁mlád	-1831
▁trou	-1832
▁rozum	-1833
▁poslou	-1834
stoupili	-1835
vod	-1836
▁lá	-1837
cíti	-1838
pení	-1839
žiti	-1840
▁Ano	-1841
▁oltáře	-1842
▁služebníky	-1843
slu	-1844
niáš	-1845
žili	-1846
▁Izá	-1847
▁mar	-1848
▁mohl	-1849
▁stře	-1850
▁těmi	-1851
▁uzdra	-1852
▁Kristus	-1853
▁Manasses	-1854
lů	-1855
ré	-1856
nes	-1857
ímě	-1858
žím	-1859
tého	-1860
▁Assy	-1861
▁neza	-1862
▁všel	-1863
▁berán	-1864
▁dobyt	-1865
▁vydal	-1866
ach	-1867
říd	-1868
▁hlu	-1869
▁kon	-1870
▁mys	-1871
▁odě	-1872
▁Joáb	-1873
▁jiné	-1874
▁moři	-1875
▁výso	-1876
▁odšel	-1877
▁zdali	-1878
kl	-1879
bor	-1880
cít	-1881
tec	-1882
šak	-1883
▁hou	-1884
▁kou	-1885
▁pozů	-1886
▁skop	-1887
▁slunce	-1888
lici	-1889
▁Ammo	-1890
▁Jero	-1891
▁Pánu	-1892
▁dílo	-1893
pomenu	-1894
▁ačkoli	-1895
▁kamení	-1896
▁přední	-1897
▁milosti	-1898
ké	-1899
pr	-1900
▁hova	-1901
cházel	-1902
▁jsouce	-1903
vej	-1904
▁Mu	-1905
krát	-1906
ovým	-1907
rozu	-1908
▁lidé	-1909
▁vším	-1910
▁odpla	-1911
▁počal	-1912
▁vnitř	-1913
▁budeme	-1914
▁králem	-1915
▁kterém	-1916
▁zlořeč	-1917
▁naproti	-1918
▁znamení	-1919
▁Jeremiáš	-1920
neš	-1921
▁pě	-1922
kost	-1923
nění	-1924
mecít	-1925
▁stud	-1926
▁něhož	-1927
▁pomez	-1928
▁Krista	-1929
▁chleba	-1930
▁někteří	-1931
py	-1932
▁la	-1933
ýchž	-1934
řeli	-1935
▁nak	-1936
▁očí	-1937
▁pil	-1938
▁Sama	-1939
▁boji	-1940
▁odej	-1941
▁poli	-1942
▁tyto	-1943
▁Nebude	-1944
▁Samuel	-1945
▁stříbr	-1946
▁svr	-1947
▁olej	-1948
▁símě	-1949
▁Ducha	-1950
▁klaně	-1951
▁bydlil	-1952
▁modlit	-1953
▁všeliké	-1954
aba	-1955
dáž	-1956
tří	-1957
▁ss	-1958
hdáž	-1959
▁Jed	-1960
▁Nad	-1961
▁utí	-1962
vejte	-1963
▁douf	-1964
▁ráno	-1965
▁ohněm	-1966
▁činili	-1967
▁svatyně	-1968
▁velikým	-1969
▁Izraelskému	-1970
há	-1971
biti	-1972
▁med	-1973
▁potě	-1974
▁rado	-1975
▁porodila	-1976
jím	-1977
vám	-1978
zte	-1979
▁Me	-1980
telé	-1981
dcíti	-1982
▁krve	-1983
▁mému	-1984
▁vini	-1985
▁přísa	-1986
▁stráž	-1987
▁všemi	-1988
▁ukázal	-1989
pou	-1990
▁ží	-1991
nímu	-1992
▁níž	-1993
▁lidí	-1994
▁sest	-1995
▁slyš	-1996
▁vsta	-1997
oslech	-1998
▁Assyr	-1999
▁pravi	-2000
▁mluvili	-2001
▁třidceti	-2002
sem	-2003
vět	-2004
zej	-2005
sáti	-2006
▁spá	-2007
rosti	-2008
▁hroz	-2009
▁vyhla	-2010
▁rozmno	-2011
▁odpočin	-2012
yš	-2013
▁ď	-2014
tně	-2015
klad	-2016
ujte	-2017
▁hře	-2018
▁ďáb	-2019
▁přev	-2020
▁utek	-2021
oužení	-2022
▁oltáři	-2023
▁dědičně	-2024
▁mrtvých	-2025
▁rozkázal	-2026
▁prostředku	-2027
ilo	-2028
jem	-2029
▁Ko	-2030
šili	-2031
▁zaj	-2032
▁Před	-2033
▁mnozí	-2034
▁všeli	-2035
▁Jordán	-2036
▁všecku	-2037
▁nebudeš	-2038
▁učedlníci	-2039
ada	-2040
lem	-2041
éře	-2042
šem	-2043
čeká	-2044
▁ona	-2045
▁slit	-2046
▁jedna	-2047
▁uvedl	-2048
▁vysvobo	-2049
▁obětoval	-2050
vrd	-2051
čet	-2052
▁plé	-2053
▁nebi	-2054
▁píti	-2055
▁zemí	-2056
▁matky	-2057
▁tvému	-2058
▁vyprav	-2059
▁bydliti	-2060
▁Poněvadž	-2061
řen	-2062
▁Ar	-2063
▁mas	-2064
▁pat	-2065
▁žal	-2066
▁jíti	-2067
▁poru	-2068
▁bohat	-2069
▁dnové	-2070
▁nepří	-2071
▁soudu	-2072
▁Ezechiáš	-2073
zen	-2074
řev	-2075
▁ok	-2076
cení	-2077
nách	-2078
slav	-2079
▁Hle	-2080
▁Krá	-2081
▁ost	-2082
▁čer	-2083
▁mlad	-2084
▁oble	-2085
▁ducha	-2086
▁psáno	-2087
▁otcové	-2088
▁viděli	-2089
▁Izraelem	-2090
ng	-2091
nů	-2092
pět	-2093
tku	-2094
rách	-2095
átku	-2096
▁zví	-2097
▁Duch	-2098
▁hlad	-2099
▁hněv	-2100
▁rych	-2101
▁stál	-2102
▁Krist	-2103
▁Nechť	-2104
▁mnohé	-2105
▁učiní	-2106
▁letech	-2107
▁mláden	-2108
▁všelijak	-2109
hdy	-2110
hod	-2111
kri	-2112
▁di	-2113
nici	-2114
náct	-2115
▁Bož	-2116
▁Jdi	-2117
▁blí	-2118
likéž	-2119
ového	-2120
▁Synu	-2121
▁přiv	-2122
▁zabil	-2123
mecítma	-2124
▁přišed	-2125
▁smlouvy	-2126
▁prchlivost	-2127
pi	-2128
hel	-2129
tím	-2130
▁jím	-2131
▁koz	-2132
čiště	-2133
▁Abso	-2134
▁Otec	-2135
▁dává	-2136
▁udat	-2137
▁potře	-2138
▁počtu	-2139
▁svaté	-2140
▁světa	-2141
▁tomto	-2142
▁vysta	-2143
▁čeled	-2144
▁pomezí	-2145
▁svatých	-2146
▁dvanácte	-2147
▁čeledech	-2148
liv	-2149
▁bi	-2150
bytek	-2151
▁Acha	-2152
▁Juda	-2153
▁chce	-2154
▁bydlili	-2155
▁velikou	-2156
▁dvadceti	-2157
▁odpočinu	-2158
▁Hospodinovým	-2159
tal	-2160
▁Ni	-2161
kazu	-2162
▁Aro	-2163
níkům	-2164
▁dítě	-2165
▁tvém	-2166
▁vaší	-2167
▁dcera	-2168
▁kněze	-2169
▁loupe	-2170
▁zůstá	-2171
▁postav	-2172
▁služebníků	-2173
ab	-2174
fi	-2175
anb	-2176
hli	-2177
▁sli	-2178
▁Otce	-2179
▁dlou	-2180
▁horu	-2181
▁opat	-2182
▁pravé	-2183
▁udělal	-2184
▁oznámil	-2185
chy	-2186
diti	-2187
▁cizí	-2188
▁plak	-2189
▁pána	-2190
▁Farao	-2191
▁pročež	-2192
▁rozhně	-2193
▁skutky	-2194
▁světlo	-2195
▁tisíce	-2196
▁městech	-2197
▁stříbra	-2198
▁kterýchž	-2199
,)	-2200
tej	-2201
▁Ji	-2202
▁Li	-2203
▁Ná	-2204
▁Re	-2205
alič	-2206
trhl	-2207
vala	-2208
▁zvu	-2209
▁Gaba	-2210
▁Jezu	-2211
▁Nyní	-2212
▁dvou	-2213
▁necha	-2214
▁nepos	-2215
▁zaslí	-2216
▁Aronovi	-2217
▁proroka	-2218
che	-2219
pla	-2220
rať	-2221
laho	-2222
▁Též	-2223
stali	-2224
▁meče	-2225
desáti	-2226
▁Pavel	-2227
▁pokrm	-2228
▁vstav	-2229
▁jiných	-2230
▁vidění	-2231
▁Jezukri	-2232
▁Judského	-2233
▁manželku	-2234
▁navrátil	-2235
ále	-2236
řem	-2237
▁No	-2238
cech	-2239
▁Bal	-2240
▁kví	-2241
▁dali	-2242
▁obětí	-2243
▁přikry	-2244
▁navrátí	-2245
rmou	-2246
uben	-2247
▁vaš	-2248
▁bole	-2249
▁nevi	-2250
▁uzří	-2251
▁úrod	-2252
▁Božím	-2253
▁každé	-2254
▁pastý	-2255
▁sláva	-2256
▁nebudou	-2257
sť	-2258
eru	-2259
klá	-2260
řez	-2261
▁Mě	-2262
vang	-2263
▁Sem	-2264
▁zpí	-2265
stého	-2266
átého	-2267
▁Achi	-2268
▁lodí	-2269
▁může	-2270
▁poho	-2271
▁svěd	-2272
▁trpě	-2273
▁evang	-2274
▁hlavy	-2275
▁pomaz	-2276
▁poušť	-2277
▁uzřel	-2278
▁přivedl	-2279
▁Jeroboám	-2280
▁evangeli	-2281
▁podobenství	-2282
ast	-2283
liť	-2284
zau	-2285
▁Ob	-2286
▁Nep	-2287
▁lidi	-2288
▁očeká	-2289
▁slyše	-2290
▁vyplé	-2291
▁pokoje	-2292
▁zákona	-2293
▁dobrého	-2294
▁kterémž	-2295
▁Judských	-2296
▁příbytku	-2297
▁Hospodinově	-2298
rk	-2299
dan	-2300
uji	-2301
▁ši	-2302
aiáš	-2303
▁Mar	-2304
▁Vez	-2305
▁tre	-2306
▁ven	-2307
pustí	-2308
▁Ezau	-2309
▁Sion	-2310
▁Synů	-2311
▁pení	-2312
▁náram	-2313
▁čehož	-2314
▁končin	-2315
▁truhlu	-2316
▁cožkoli	-2317
▁východu	-2318
▁člověčí	-2319
▁moudrost	-2320
▁Izraelovi	-2321
▁evangelium	-2322
co	-2323
lep	-2324
rný	-2325
▁Jan	-2326
▁Nej	-2327
▁los	-2328
▁Izák	-2329
▁budeť	-2330
▁jedli	-2331
▁vzali	-2332
▁zlato	-2333
▁přislu	-2334
▁vojsko	-2335
bud	-2336
pad	-2337
ůst	-2338
▁Dí	-2339
tvrd	-2340
▁mém	-2341
▁trů	-2342
ujete	-2343
▁houf	-2344
▁kříd	-2345
▁zhře	-2346
▁poraz	-2347
▁půjde	-2348
▁slyší	-2349
▁slávu	-2350
cházeti	-2351
▁národu	-2352
▁připra	-2353
lahoslav	-2354
▁vždycky	-2355
ol	-2356
hlé	-2357
zor	-2358
blou	-2359
leje	-2360
niti	-2361
tali	-2362
▁děv	-2363
▁dře	-2364
▁zpě	-2365
▁nemá	-2366
▁obil	-2367
▁proč	-2368
▁vína	-2369
▁Židé	-2370
▁hněvu	-2371
▁jedné	-2372
▁strom	-2373
▁svatý	-2374
▁vašeho	-2375
▁Kterýžto	-2376
▁Jezukrista	-2377
nul	-2378
ral	-2379
ývá	-2380
vede	-2381
▁Dob	-2382
▁uvr	-2383
▁ští	-2384
stinu	-2385
▁něco	-2386
▁prov	-2387
▁spat	-2388
▁ženu	-2389
▁Jakož	-2390
▁bydlí	-2391
▁vrchu	-2392
▁nádoby	-2393
▁čeledi	-2394
▁Davidův	-2395
▁proroku	-2396
▁vyvolil	-2397
▁Levítové	-2398
eny	-2399
sku	-2400
loží	-2401
nech	-2402
▁dni	-2403
▁máš	-2404
rátím	-2405
▁Slyš	-2406
▁Syna	-2407
▁nasy	-2408
▁roze	-2409
▁vrch	-2410
▁dobro	-2411
▁knize	-2412
▁kromě	-2413
▁vezme	-2414
▁vyšli	-2415
▁chodil	-2416
▁našich	-2417
▁předmě	-2418
▁stolici	-2419
▁ustavičně	-2420
▁[	-2421
▁]	-2422
ráv	-2423
íti	-2424
emuž	-2425
▁Kal	-2426
▁bed	-2427
▁pru	-2428
▁stí	-2429
▁bohy	-2430
▁maje	-2431
▁druhý	-2432
▁dveří	-2433
▁malič	-2434
▁nebesa	-2435
▁rychle	-2436
▁těchto	-2437
▁dokonal	-2438
▁příčiny	-2439
éla	-2440
▁si	-2441
▁zv	-2442
šeni	-2443
▁dvé	-2444
▁uži	-2445
▁Vsta	-2446
▁fari	-2447
▁přem	-2448
▁víry	-2449
▁chtěl	-2450
▁okolo	-2451
▁umění	-2452
▁skutků	-2453
▁sloužiti	-2454
▁nepřátely	-2455
▁služebníku	-2456
kli	-2457
nek	-2458
čné	-2459
▁Ta	-2460
▁nu	-2461
nati	-2462
ších	-2463
▁Pod	-2464
▁Sal	-2465
▁dos	-2466
▁uvě	-2467
▁vej	-2468
chodo	-2469
▁Není	-2470
▁ovce	-2471
▁tito	-2472
▁čině	-2473
▁čtvr	-2474
▁Samaří	-2475
▁bychom	-2476
▁polovi	-2477
▁věcech	-2478
▁položili	-2479
▁oblíčejem	-2480
ec	-2481
ech	-2482
mej	-2483
tky	-2484
▁Sá	-2485
cové	-2486
▁Báz	-2487
▁noc	-2488
▁smě	-2489
▁Každ	-2490
▁Nabu	-2491
▁círk	-2492
▁sedí	-2493
chodono	-2494
▁chrámu	-2495
▁nebudete	-2496
▁spravedlivý	-2497
nec	-2498
rov	-2499
▁há	-2500
stře	-2501
erubí	-2502
▁stvo	-2503
▁Eliáš	-2504
▁Ruben	-2505
▁bráně	-2506
▁nýbrž	-2507
▁někdo	-2508
▁Židov	-2509
▁Kaldej	-2510
▁peníze	-2511
▁Mojžíše	-2512
▁králové	-2513
▁prchlivosti	-2514
▁spravedlivého	-2515
kal	-2516
stro	-2517
▁Bud	-2518
▁Cha	-2519
▁Sim	-2520
▁div	-2521
▁táh	-2522
▁zle	-2523
pošto	-2524
ující	-2525
▁Aniž	-2526
▁Opět	-2527
vající	-2528
▁kadid	-2529
▁konce	-2530
▁stojí	-2531
▁navští	-2532
▁zahanb	-2533
▁Všickni	-2534
▁svatého	-2535
▁zachová	-2536
▁přestoup	-2537
▁královské	-2538
▁Nabuchodono	-2539
ga	-2540
hr	-2541
řů	-2542
byl	-2543
šen	-2544
▁tř	-2545
adil	-2546
lích	-2547
ámen	-2548
▁Gád	-2549
▁Sam	-2550
▁těž	-2551
nácti	-2552
▁Jako	-2553
▁lotů	-2554
▁těle	-2555
▁Achab	-2556
▁Jozaf	-2557
▁knězi	-2558
▁Zákona	-2559
▁apošto	-2560
▁jménem	-2561
▁nalezl	-2562
▁přišla	-2563
▁bratřím	-2564
▁cherubí	-2565
▁nebeské	-2566
▁padesáte	-2567
▁požehnání	-2568
rob	-2569
áno	-2570
▁Bě	-2571
lové	-2572
▁Idu	-2573
▁naří	-2574
▁ohně	-2575
▁věří	-2576
▁věčné	-2577
▁zmord	-2578
▁žádné	-2579
cházejí	-2580
▁posled	-2581
▁rozptý	-2582
▁půlnoci	-2583
▁slyšeli	-2584
▁obyvatele	-2585
tou	-2586
čka	-2587
mích	-2588
vaje	-2589
▁mal	-2590
▁vzk	-2591
ovala	-2592
▁Však	-2593
▁jiní	-2594
▁nema	-2595
▁Nadto	-2596
▁Požeh	-2597
▁otcům	-2598
▁větší	-2599
cházeli	-2600
▁hříchy	-2601
▁pokoji	-2602
▁ssoužení	-2603
ký	-2604
iné	-2605
odě	-2606
zím	-2607
ýmž	-2608
alez	-2609
▁Nem	-2610
▁rad	-2611
▁zku	-2612
dejte	-2613
imele	-2614
inách	-2615
▁Dani	-2616
▁neví	-2617
▁prve	-2618
▁víno	-2619
▁zavr	-2620
▁řeky	-2621
▁Nýbrž	-2622
▁kdyby	-2623
▁vodou	-2624
▁sedmého	-2625
▁Jákobovi	-2626
▁obyvatelé	-2627
▁obětovali	-2628
ový	-2629
san	-2630
sím	-2631
zem	-2632
rého	-2633
teli	-2634
▁mla	-2635
▁plá	-2636
▁ste	-2637
▁síň	-2638
ázali	-2639
▁drah	-2640
▁vyvý	-2641
stoupí	-2642
▁nějak	-2643
▁vstal	-2644
▁Idumej	-2645
▁farize	-2646
▁naplně	-2647
▁náramně	-2648
▁stříbro	-2649
▁třetího	-2650
▁uslyšel	-2651
▁přisluho	-2652
▁kralovati	-2653
▁Filistinští	-2654
zů	-2655
adi	-2656
▁Vz	-2657
káže	-2658
sáhl	-2659
tili	-2660
▁pta	-2661
▁čím	-2662
lyšel	-2663
morej	-2664
▁Gali	-2665
▁jedl	-2666
▁krví	-2667
▁svob	-2668
▁živi	-2669
rozumě	-2670
▁Amorej	-2671
▁naději	-2672
▁zahynu	-2673
▁prvního	-2674
▁učiniti	-2675
▁člověku	-2676
▁moudrosti	-2677
▁ustanovil	-2678
▁odpovídaje	-2679
▁služebníkům	-2680
dám	-2681
jal	-2682
kům	-2683
nan	-2684
věd	-2685
▁Pí	-2686
▁hu	-2687
▁pi	-2688
▁vd	-2689
kati	-2690
želi	-2691
▁Ada	-2692
▁Byl	-2693
▁Ele	-2694
▁han	-2695
▁tou	-2696
▁toť	-2697
▁Živ	-2698
▁čtyř	-2699
▁kámen	-2700
▁výbor	-2701
▁hovada	-2702
▁protiv	-2703
▁svobod	-2704
▁tehdáž	-2705
▁uzdrav	-2706
▁Absolon	-2707
▁Ammonit	-2708
▁mnohých	-2709
▁obrátil	-2710
▁povolal	-2711
▁nejvyšší	-2712
▁přichází	-2713
▁ostříhati	-2714
▁odpočinutí	-2715
yt	-2716
eka	-2717
koj	-2718
lím	-2719
ter	-2720
lého	-2721
žeti	-2722
▁Jez	-2723
▁moř	-2724
▁onť	-2725
▁zdi	-2726
▁Běda	-2727
▁dáno	-2728
▁pahr	-2729
▁smrt	-2730
▁snad	-2731
▁Jordá	-2732
▁Judst	-2733
▁bohům	-2734
▁počet	-2735
▁stáda	-2736
▁vyšed	-2737
▁Mluvil	-2738
▁pravdě	-2739
▁přitáh	-2740
▁tomuto	-2741
▁podstav	-2742
▁přijíti	-2743
▁bližního	-2744
ác	-2745
hle	-2746
lám	-2747
avše	-2748
nají	-2749
čení	-2750
žíši	-2751
▁uši	-2752
▁vně	-2753
▁vyj	-2754
▁zka	-2755
▁Séla	-2756
▁Také	-2757
▁Všec	-2758
▁padl	-2759
▁vese	-2760
▁vítr	-2761
▁stavě	-2762
▁pozdvih	-2763
chý	-2764
len	-2765
maž	-2766
▁Su	-2767
▁Vě	-2768
▁lu	-2769
▁uk	-2770
cuje	-2771
hají	-2772
ovou	-2773
▁Dan	-2774
▁Noé	-2775
▁Pře	-2776
▁stu	-2777
▁ozdo	-2778
▁radu	-2779
▁síně	-2780
▁zavo	-2781
▁širo	-2782
▁žalá	-2783
▁jistě	-2784
▁nečin	-2785
▁opatr	-2786
▁svato	-2787
▁vzkří	-2788
▁zajat	-2789
▁známo	-2790
▁želez	-2791
▁nenávisti	-2792
▁posloucha	-2793
▁přestoupení	-2794
mon	-2795
▁ší	-2796
naný	-2797
sili	-2798
átek	-2799
▁hrd	-2800
▁hvě	-2801
▁sla	-2802
▁zná	-2803
chozí	-2804
desát	-2805
řství	-2806
▁Bude	-2807
▁Takž	-2808
▁chlu	-2809
▁chtě	-2810
▁jiný	-2811
▁osla	-2812
▁přib	-2813
▁vlád	-2814
▁seděl	-2815
▁vytrh	-2816
▁zákon	-2817
▁hlasem	-2818
▁nebyli	-2819
▁přijdou	-2820
▁trápení	-2821
▁přísahou	-2822
▁sloužili	-2823
▁Faraonovi	-2824
zer	-2825
▁mluv	-2826
▁obdr	-2827
▁vola	-2828
▁buďte	-2829
▁matka	-2830
▁posil	-2831
▁slávy	-2832
▁svýma	-2833
▁téhož	-2834
▁kněžím	-2835
▁modlil	-2836
▁nemůže	-2837
▁viděti	-2838
▁čeledí	-2839
▁Jozafat	-2840
▁pravili	-2841
▁příčinou	-2842
hů	-2843
hat	-2844
tin	-2845
tné	-2846
ynou	-2847
▁uží	-2848
▁zal	-2849
▁Elea	-2850
▁Léví	-2851
▁kmen	-2852
▁obli	-2853
▁rato	-2854
▁vyuč	-2855
▁Jistě	-2856
▁králů	-2857
▁uvedu	-2858
▁večer	-2859
▁vyjde	-2860
▁horách	-2861
▁jiného	-2862
▁nejsou	-2863
▁očiště	-2864
▁suchou	-2865
▁učiněn	-2866
ůž	-2867
eně	-2868
ran	-2869
řád	-2870
▁mr	-2871
nila	-2872
tisk	-2873
valo	-2874
▁Ama	-2875
▁dcer	-2876
▁děve	-2877
▁hříš	-2878
▁koru	-2879
▁máme	-2880
▁mědě	-2881
▁kamen	-2882
▁nemlu	-2883
▁pohrd	-2884
▁pošli	-2885
▁Ježíši	-2886
▁ratole	-2887
▁semene	-2888
▁nečistý	-2889
▁zápalné	-2890
▁obyvatel	-2891
son	-2892
váš	-2893
kali	-2894
stej	-2895
▁Nav	-2896
▁nos	-2897
ováni	-2898
▁andě	-2899
▁palá	-2900
▁síla	-2901
▁síly	-2902
alomoc	-2903
▁cizím	-2904
▁pahrb	-2905
▁polní	-2906
▁ptact	-2907
▁upřím	-2908
pravedl	-2909
▁dlouho	-2910
▁olejem	-2911
▁zdaliž	-2912
pat	-2913
šle	-2914
▁Ve	-2915
▁zí	-2916
bral	-2917
nese	-2918
pusť	-2919
▁Jáť	-2920
▁lži	-2921
▁pev	-2922
▁nauč	-2923
▁rána	-2924
▁chleb	-2925
▁hrobu	-2926
▁medle	-2927
▁rozko	-2928
▁sečte	-2929
▁zůstal	-2930
▁půlnoční	-2931
▁velikého	-2932
▁zápalnou	-2933
▁přikázání	-2934
▁Filistinských	-2935
buz	-2936
hla	-2937
zdy	-2938
▁dé	-2939
▁fí	-2940
▁ml	-2941
jíma	-2942
láda	-2943
▁myš	-2944
▁tří	-2945
▁umy	-2946
▁zed	-2947
▁Mari	-2948
▁jdou	-2949
▁přís	-2950
▁věků	-2951
pouště	-2952
▁Sélah	-2953
▁Tehdy	-2954
▁budiž	-2955
▁kosti	-2956
▁měsíc	-2957
▁sloup	-2958
▁nazval	-2959
▁neučin	-2960
▁vyzdvi	-2961
▁Jordánu	-2962
▁navráti	-2963
▁nemohli	-2964
▁národům	-2965
▁odpověděv	-2966
ješ	-2967
rot	-2968
▁Sí	-2969
kání	-2970
▁Mas	-2971
▁jdi	-2972
▁jám	-2973
▁vyz	-2974
ariáš	-2975
odili	-2976
rácen	-2977
▁Madi	-2978
▁maso	-2979
▁mocí	-2980
▁úzko	-2981
▁bezpe	-2982
▁nádob	-2983
▁oleje	-2984
▁utekl	-2985
▁Jonata	-2986
▁malomoc	-2987
▁pravici	-2988
▁přistoup	-2989
▁studnice	-2990
esl	-2991
hal	-2992
hře	-2993
tní	-2994
íte	-2995
▁So	-2996
bení	-2997
dělá	-2998
mysl	-2999
zeni	-3000
říti	-3001
▁Pil	-3002
▁teď	-3003
▁von	-3004
▁Král	-3005
▁Sede	-3006
▁komu	-3007
▁máte	-3008
▁nadě	-3009
▁proz	-3010
▁Ještě	-3011
▁pomoc	-3012
▁stáli	-3013
▁domích	-3014
▁nádobí	-3015
▁choditi	-3016
▁každému	-3017
▁poledne	-3018
▁silného	-3019
▁tolikéž	-3020
▁žádosti	-3021
▁Babylona	-3022
▁příchozí	-3023
▁všelikou	-3024
▁ohavnosti	-3025
poj	-3026
čky	-3027
řte	-3028
stil	-3029
ženi	-3030
▁Slu	-3031
▁dra	-3032
▁kde	-3033
▁kup	-3034
▁svo	-3035
▁taj	-3036
anění	-3037
▁Aneb	-3038
▁Zach	-3039
▁meze	-3040
▁počí	-3041
▁vida	-3042
▁vodu	-3043
vajíce	-3044
▁dceru	-3045
▁jazyk	-3046
▁jednu	-3047
▁nepro	-3048
▁vztáh	-3049
▁Bethel	-3050
▁Judské	-3051
▁Madian	-3052
▁hříchu	-3053
▁obrátí	-3054
▁opusti	-3055
▁veliká	-3056
▁naplnil	-3057
▁položil	-3058
▁proroky	-3059
▁Davidova	-3060
▁pohostinu	-3061
ir	-3062
ms	-3063
mil	-3064
ona	-3065
▁An	-3066
Psal	-3067
jetí	-3068
luje	-3069
▁Joi	-3070
▁nuz	-3071
▁změ	-3072
▁čem	-3073
▁Žád	-3074
kosti	-3075
polek	-3076
ujíce	-3077
▁Joas	-3078
▁bojí	-3079
▁bral	-3080
▁potu	-3081
▁pánu	-3082
▁upří	-3083
Psalms	-3084
▁nemoc	-3085
▁pilně	-3086
▁vešli	-3087
▁vyhle	-3088
▁Saulov	-3089
▁posvěc	-3090
▁samého	-3091
▁skopce	-3092
▁Abimele	-3093
▁polední	-3094
▁vespolek	-3095
▁Blahoslav	-3096
pl	-3097
éhu	-3098
▁Pr	-3099
hové	-3100
iáše	-3101
▁dot	-3102
▁zač	-3103
▁Mluv	-3104
▁Tito	-3105
▁dáti	-3106
▁poní	-3107
▁Zákon	-3108
▁desát	-3109
▁jitra	-3110
▁oslav	-3111
▁vejde	-3112
▁volka	-3113
▁ďábel	-3114
▁bratru	-3115
▁vstoupil	-3116
▁nepřátelé	-3117
▁všelikého	-3118
avé	-3119
dím	-3120
vak	-3121
▁ká	-3122
ivše	-3123
nete	-3124
ster	-3125
▁Pra	-3126
▁dej	-3127
▁ono	-3128
▁zvo	-3129
chali	-3130
elovi	-3131
stách	-3132
▁Jeri	-3133
▁Kdež	-3134
▁Sime	-3135
▁dneš	-3136
▁měla	-3137
▁sklá	-3138
▁stez	-3139
▁Balám	-3140
▁domem	-3141
▁mohli	-3142
▁promě	-3143
▁ramen	-3144
▁správ	-3145
▁Judský	-3146
▁miluje	-3147
▁nikoli	-3148
▁obráti	-3149
▁pravil	-3150
▁strach	-3151
▁chodili	-3152
▁východní	-3153
stím	-3154
tové	-3155
vodí	-3156
▁Aza	-3157
▁Chu	-3158
▁bar	-3159
▁umí	-3160
▁vál	-3161
▁řem	-3162
▁Abne	-3163
▁Slov	-3164
▁díla	-3165
▁červ	-3166
▁místu	-3167
▁neroz	-3168
▁vlast	-3169
▁vláda	-3170
▁volal	-3171
▁vykou	-3172
▁Sichem	-3173
▁večera	-3174
▁vytáhl	-3175
▁zajetí	-3176
▁Saulovi	-3177
▁cestách	-3178
▁myšlení	-3179
▁některé	-3180
▁pověděl	-3181
▁poznali	-3182
▁souditi	-3183
▁zůstane	-3184
▁kterýžto	-3185
▁předměstí	-3186
ep	-3187
ska	-3188
trž	-3189
▁zr	-3190
náše	-3191
něte	-3192
ýval	-3193
řiti	-3194
▁Nef	-3195
▁kru	-3196
▁sen	-3197
▁sní	-3198
▁zbi	-3199
▁zží	-3200
▁Dama	-3201
▁bohů	-3202
▁krás	-3203
▁mimo	-3204
▁vzdá	-3205
▁zkaz	-3206
▁úřed	-3207
▁Tento	-3208
▁pokla	-3209
▁vypra	-3210
▁vytáh	-3211
▁vzbud	-3212
▁zlaté	-3213
▁zvěst	-3214
▁odešli	-3215
▁raději	-3216
▁kterýmž	-3217
▁přisáhl	-3218
▁svatyni	-3219
▁nenávidí	-3220
▁požehnal	-3221
▁sstoupil	-3222
▁jednostej	-3223
▁Izraelskými	-3224
▁královského	-3225
▁Hospodinovýma	-3226
mý	-3227
víš	-3228
čem	-3229
▁Go	-3230
deme	-3231
stem	-3232
▁Ela	-3233
▁Již	-3234
▁Oni	-3235
▁Rám	-3236
▁dvo	-3237
▁vze	-3238
▁zdá	-3239
vostí	-3240
▁Učin	-3241
pustím	-3242
▁loktů	-3243
▁pakli	-3244
▁rozdě	-3245
▁vývod	-3246
▁Levítů	-3247
▁Odpově	-3248
▁bývají	-3249
▁nemohl	-3250
▁poznal	-3251
▁přišlo	-3252
▁radost	-3253
▁trouby	-3254
▁zamord	-3255
▁marnost	-3256
▁Kananejské	-3257
▁bezbožných	-3258
▁Nabuchodonozor	-3259
don	-3260
kdy	-3261
pší	-3262
▁Az	-3263
▁Ač	-3264
▁Ha	-3265
hali	-3266
rali	-3267
ňuje	-3268
▁Dej	-3269
▁okr	-3270
▁pís	-3271
▁tem	-3272
▁věz	-3273
▁zpo	-3274
ladil	-3275
rostí	-3276
▁Jakž	-3277
▁Jéhu	-3278
▁Tato	-3279
▁ulož	-3280
▁vůle	-3281
▁Bázan	-3282
▁chrám	-3283
▁dílem	-3284
▁posly	-3285
▁učení	-3286
puštění	-3287
▁srdcem	-3288
▁takové	-3289
▁veselí	-3290
▁vzdělá	-3291
▁nechtěl	-3292
▁nenalez	-3293
▁počátku	-3294
▁dvadcíti	-3295
▁neposlou	-3296
▁pohanění	-3297
dné	-3298
ebo	-3299
ném	-3300
tře	-3301
zeň	-3302
▁tá	-3303
bilo	-3304
chvá	-3305
jímá	-3306
ohou	-3307
zuje	-3308
▁zna	-3309
▁záz	-3310
▁ško	-3311
anovi	-3312
doche	-3313
▁Toho	-3314
▁cedr	-3315
▁cest	-3316
▁musí	-3317
▁slep	-3318
▁všed	-3319
stanou	-3320
▁mysli	-3321
▁naklo	-3322
▁neměl	-3323
▁poslu	-3324
▁prach	-3325
▁zboží	-3326
▁zpěvá	-3327
náctého	-3328
▁anobrž	-3329
▁chrámě	-3330
▁naděje	-3331
▁zlatem	-3332
▁cizozem	-3333
▁Mardoche	-3334
▁dvanácti	-3335
▁svatosti	-3336
▁vystavěl	-3337
▁bohatství	-3338
▁Jeruzalému	-3339
▁vysvobodil	-3340
lné	-3341
▁Ze	-3342
▁vl	-3343
▁šť	-3344
nutí	-3345
stra	-3346
▁Poh	-3347
▁bit	-3348
▁bře	-3349
▁jáť	-3350
▁ned	-3351
▁zdr	-3352
brali	-3353
chovi	-3354
▁Izai	-3355
▁Izma	-3356
▁dary	-3357
▁dvak	-3358
▁dílu	-3359
▁peně	-3360
▁skrý	-3361
▁vypl	-3362
▁ženě	-3363
▁živé	-3364
▁Elize	-3365
▁Jemuž	-3366
▁nejpr	-3367
▁osvěd	-3368
▁šťast	-3369
▁hříchů	-3370
▁službu	-3371
▁velice	-3372
▁vinice	-3373
▁Eleazar	-3374
▁bojoval	-3375
▁krajině	-3376
▁nečisto	-3377
▁Šalomounovi	-3378
▁Babylonského	-3379
hro	-3380
říz	-3381
▁La	-3382
rají	-3383
▁Muž	-3384
▁Tam	-3385
▁hoř	-3386
▁kol	-3387
▁osí	-3388
▁ptá	-3389
▁sbí	-3390
▁šla	-3391
stalo	-3392
▁mokr	-3393
▁prac	-3394
▁čili	-3395
▁bojov	-3396
▁dvěma	-3397
▁hovad	-3398
▁konec	-3399
▁narod	-3400
▁ostat	-3401
▁otcov	-3402
▁sedmi	-3403
▁slávě	-3404
▁západ	-3405
▁Kteréž	-3406
▁blízko	-3407
▁pohany	-3408
▁prozpě	-3409
▁dvakrát	-3410
▁hledají	-3411
▁hledali	-3412
▁pokojné	-3413
▁porazil	-3414
▁přivedu	-3415
▁velblou	-3416
▁sedmdesáte	-3417
▁nešlechetnost	-3418
ase	-3419
pen	-3420
ser	-3421
▁čí	-3422
▁Ži	-3423
novi	-3424
sání	-3425
▁Mil	-3426
▁cho	-3427
▁kan	-3428
▁oba	-3429
▁tru	-3430
▁tuk	-3431
▁zev	-3432
stání	-3433
▁koři	-3434
▁pora	-3435
▁pěti	-3436
▁rozu	-3437
▁vozy	-3438
▁zmoc	-3439
▁Živť	-3440
▁Damaš	-3441
▁Saule	-3442
▁dvéře	-3443
▁mouky	-3444
▁navra	-3445
▁oprav	-3446
▁pacho	-3447
▁vašim	-3448
▁Egyptě	-3449
▁Kterak	-3450
▁dělati	-3451
▁nechať	-3452
▁svatým	-3453
▁beránka	-3454
▁lučiště	-3455
▁přináše	-3456
▁připrav	-3457
▁poškvrny	-3458
▁navrátili	-3459
▁obličejem	-3460
▁Abrahamovi	-3461
něn	-3462
rně	-3463
▁Až	-3464
▁El	-3465
▁Fá	-3466
▁My	-3467
▁kř	-3468
novu	-3469
nové	-3470
rati	-3471
čeje	-3472
četi	-3473
řela	-3474
▁Ger	-3475
▁Ned	-3476
▁Onť	-3477
▁cen	-3478
▁spu	-3479
▁vsi	-3480
▁řík	-3481
stati	-3482
▁Sádo	-3483
▁posí	-3484
▁učiň	-3485
▁volů	-3486
▁Proro	-3487
▁jemuž	-3488
▁jichž	-3489
▁městu	-3490
▁našim	-3491
▁padli	-3492
▁posmě	-3493
▁soudy	-3494
▁utvrd	-3495
▁vraže	-3496
poslech	-3497
▁Všecko	-3498
▁anděla	-3499
▁našemu	-3500
▁pokání	-3501
▁pouště	-3502
▁pravdu	-3503
▁jakožto	-3504
▁miloval	-3505
▁proroků	-3506
▁vzdělal	-3507
▁výsosti	-3508
▁zevnitř	-3509
▁dobrořeč	-3510
▁pozůstal	-3511
ňů	-3512
ere	-3513
klí	-3514
seň	-3515
yne	-3516
▁ků	-3517
níku	-3518
něni	-3519
ouce	-3520
▁Sva	-3521
▁hůl	-3522
▁sch	-3523
▁zde	-3524
▁šar	-3525
▁ště	-3526
ených	-3527
▁Muži	-3528
▁béře	-3529
▁jezd	-3530
▁jámy	-3531
▁kamž	-3532
▁málo	-3533
▁plod	-3534
▁vedl	-3535
▁Gabaa	-3536
▁buďto	-3537
▁cesta	-3538
▁které	-3539
▁mužům	-3540
▁obrác	-3541
▁odšed	-3542
▁očišť	-3543
▁popou	-3544
▁pozná	-3545
▁suché	-3546
▁uzřev	-3547
▁vstup	-3548
▁Nikoli	-3549
▁jednom	-3550
▁jejího	-3551
▁pravdy	-3552
▁hledati	-3553
▁Přednímu	-3554
bé	-3555
ál	-3556
bon	-3557
daž	-3558
kaž	-3559
▁Zi	-3560
ceni	-3561
křiž	-3562
mažď	-3563
poví	-3564
titi	-3565
▁Ana	-3566
vujte	-3567
▁pláš	-3568
▁zvuk	-3569
kazuji	-3570
▁Betlé	-3571
▁Vezmi	-3572
▁Vstaň	-3573
▁jedni	-3574
▁kázal	-3575
▁nepoh	-3576
▁poklo	-3577
▁prova	-3578
▁práce	-3579
▁práci	-3580
▁rozpá	-3581
▁Neftal	-3582
▁desíti	-3583
▁majíce	-3584
▁předce	-3585
▁zvěstu	-3586
▁říkají	-3587
▁Nebudeš	-3588
▁dobytek	-3589
▁druhému	-3590
▁krajiny	-3591
▁maličko	-3592
▁slyšeti	-3593
▁vyhledá	-3594
▁zhřešil	-3595
▁zůstává	-3596
▁posvěcen	-3597
▁Babylonský	-3598
▁odpověděli	-3599
uť	-3600
áv	-3601
ané	-3602
asi	-3603
měř	-3604
▁čá	-3605
nesl	-3606
ském	-3607
▁Bar	-3608
▁Job	-3609
▁Mno	-3610
▁pal	-3611
děláš	-3612
oldné	-3613
▁domů	-3614
▁dělá	-3615
▁pomo	-3616
▁slib	-3617
▁vidě	-3618
▁víře	-3619
▁zhou	-3620
▁žalm	-3621
▁dobrý	-3622
▁hlubo	-3623
▁násil	-3624
▁svrch	-3625
▁uslyš	-3626
▁šarla	-3627
▁Roboám	-3628
▁pustin	-3629
▁protože	-3630
▁vidouce	-3631
▁Neftalím	-3632
▁manželka	-3633
▁manželky	-3634
▁ostříhal	-3635
▁zaslíbil	-3636
▁Požehnaný	-3637
▁učedlníkům	-3638
las	-3639
pal	-3640
sla	-3641
ček	-3642
tiny	-3643
čeho	-3644
čiti	-3645
▁hnu	-3646
▁ude	-3647
▁zpu	-3648
ovary	-3649
tosti	-3650
zdrav	-3651
▁Zabu	-3652
▁déšť	-3653
▁kudy	-3654
▁lsti	-3655
▁mord	-3656
▁výše	-3657
▁vůli	-3658
▁říká	-3659
▁Abram	-3660
▁Amale	-3661
▁Arona	-3662
▁Herod	-3663
▁jejím	-3664
▁pamět	-3665
▁pokou	-3666
▁přepá	-3667
▁přáte	-3668
▁vezmi	-3669
▁vysok	-3670
▁všudy	-3671
▁zahra	-3672
▁Mistře	-3673
▁každém	-3674
▁loupež	-3675
▁násled	-3676
▁poklad	-3677
▁povolá	-3678
▁přiblí	-3679
▁příbuz	-3680
▁přítel	-3681
▁službě	-3682
▁stánek	-3683
▁žaláře	-3684
▁jednomu	-3685
▁přitáhl	-3686
▁všeliký	-3687
▁Ježíšovi	-3688
▁bratřími	-3689
▁říkajíce	-3690
▁připravil	-3691
dab	-3692
tam	-3693
ves	-3694
šly	-3695
živ	-3696
▁hř	-3697
▁uh	-3698
aleš	-3699
chod	-3700
měte	-3701
ovol	-3702
▁Jef	-3703
▁Lid	-3704
▁hot	-3705
▁káz	-3706
▁obo	-3707
▁suk	-3708
▁žíz	-3709
▁Azar	-3710
▁Léta	-3711
▁drží	-3712
▁duší	-3713
▁děje	-3714
▁jmen	-3715
▁obou	-3716
▁osob	-3717
▁poku	-3718
▁polí	-3719
▁přen	-3720
▁rady	-3721
daleka	-3722
▁Pilát	-3723
▁dával	-3724
▁faleš	-3725
▁mlado	-3726
▁nepoz	-3727
▁nikdy	-3728
▁peněz	-3729
▁posti	-3730
▁přikr	-3731
▁slých	-3732
▁smrtí	-3733
▁stany	-3734
▁zlost	-3735
▁čiňte	-3736
▁Galile	-3737
▁jediné	-3738
▁křídla	-3739
▁trpěli	-3740
▁zanech	-3741
▁západu	-3742
▁žoldné	-3743
▁poslali	-3744
▁proroci	-3745
▁přestal	-3746
▁převrác	-3747
▁vražedl	-3748
▁přivedli	-3749
▁příbytek	-3750
▁uposlech	-3751
▁vysvobod	-3752
▁širokost	-3753
▁ospravedl	-3754
▁vysvobodí	-3755
▁Jeremiášovi	-3756
dc	-3757
mr	-3758
anu	-3759
sly	-3760
▁Ag	-3761
▁da	-3762
cete	-3763
chal	-3764
šíří	-3765
▁Kar	-3766
▁díš	-3767
▁peč	-3768
▁úto	-3769
stříc	-3770
ůstoj	-3771
▁Gede	-3772
▁Mera	-3773
▁Sodo	-3774
▁kopí	-3775
▁pane	-3776
▁strá	-3777
▁stup	-3778
▁zámu	-3779
stotně	-3780
▁Budiž	-3781
▁Jezre	-3782
▁Nebud	-3783
▁anebo	-3784
▁nepře	-3785
▁pojal	-3786
▁předě	-3787
▁slove	-3788
pomenul	-3789
▁jednou	-3790
▁nebyla	-3791
▁nejsem	-3792
▁promlu	-3793
▁přijal	-3794
▁svrchu	-3795
▁uslyší	-3796
▁vstříc	-3797
▁místech	-3798
▁ostatek	-3799
▁podobné	-3800
▁zdaleka	-3801
▁dnešního	-3802
▁pochovali	-3803
▁přikazuji	-3804
hé	-3805
běh	-3806
non	-3807
ány	-3808
řiv	-3809
▁šk	-3810
Nebo	-3811
kiáš	-3812
znám	-3813
římě	-3814
říte	-3815
▁Sar	-3816
▁kle	-3817
▁kva	-3818
▁leh	-3819
▁mrá	-3820
▁niž	-3821
▁ods	-3822
▁pek	-3823
▁pyš	-3824
▁rok	-3825
▁vím	-3826
▁zru	-3827
▁báli	-3828
▁hrob	-3829
▁kněž	-3830
ováním	-3831
stavil	-3832
▁Chana	-3833
▁pobil	-3834
▁sprav	-3835
▁stanů	-3836
▁státi	-3837
▁Člově	-3838
▁Simeon	-3839
▁Slyšte	-3840
▁duchem	-3841
▁důstoj	-3842
▁plakal	-3843
▁vytrhl	-3844
▁řemesl	-3845
▁Judstvu	-3846
▁Kteřížto	-3847
▁oznámili	-3848
▁očištění	-3849
▁postavili	-3850
▁otcovských	-3851
▁poslouchati	-3852
▁shromáždili	-3853
bot	-3854
dar	-3855
dlí	-3856
iní	-3857
meš	-3858
nad	-3859
rám	-3860
vem	-3861
ádu	-3862
▁Mí	-3863
▁vs	-3864
▁žá	-3865
imon	-3866
tání	-3867
títi	-3868
▁Ara	-3869
▁Buď	-3870
▁Kní	-3871
▁bou	-3872
▁báz	-3873
▁dáš	-3874
▁ple	-3875
▁uli	-3876
▁čtr	-3877
▁dána	-3878
▁pavé	-3879
▁víru	-3880
dělali	-3881
nových	-3882
▁Jděte	-3883
▁Kahat	-3884
▁Každý	-3885
▁Viděl	-3886
▁dítky	-3887
▁horli	-3888
▁pohla	-3889
▁potra	-3890
▁přídr	-3891
▁trůnu	-3892
▁vezma	-3893
▁vjíti	-3894
▁Judští	-3895
▁Všelik	-3896
▁jejích	-3897
▁očistí	-3898
▁příjem	-3899
▁přítom	-3900
▁uslyše	-3901
▁živého	-3902
▁Jezreel	-3903
▁kterému	-3904
▁otevřel	-3905
▁vojskem	-3906
▁Jozefovi	-3907
▁mladosti	-3908
▁farizeové	-3909
▁zaslíbení	-3910
▁Jeruzalémské	-3911
eg	-3912
jž	-3913
rů	-3914
vů	-3915
oru	-3916
sur	-3917
vým	-3918
▁Lí	-3919
▁Nu	-3920
▁sr	-3921
rání	-3922
sabé	-3923
▁str	-3924
▁zvý	-3925
▁řku	-3926
ouště	-3927
▁dale	-3928
▁domy	-3929
▁hraz	-3930
▁jaká	-3931
▁leží	-3932
▁list	-3933
▁okrš	-3934
▁ukru	-3935
dajíce	-3936
▁Abner	-3937
▁knihy	-3938
▁měste	-3939
▁nedal	-3940
▁posmí	-3941
▁takže	-3942
▁činím	-3943
novství	-3944
▁Judovi	-3945
▁hledal	-3946
▁napomí	-3947
▁navrať	-3948
▁nemají	-3949
▁nevěst	-3950
▁pověst	-3951
▁rozděl	-3952
▁sobotu	-3953
▁veliko	-3954
▁vstoup	-3955
▁vykoná	-3956
▁Moábské	-3957
▁nalezli	-3958
▁nedosta	-3959
▁obrátím	-3960
▁ostříhá	-3961
▁podobný	-3962
▁čistého	-3963
▁nepřítel	-3964
▁ohavnost	-3965
▁polovice	-3966
▁Sedechiáš	-3967
▁rozhněval	-3968
▁neuposlech	-3969
adí	-3970
lič	-3971
řům	-3972
▁Ká	-3973
▁sy	-3974
káži	-3975
riáš	-3976
čili	-3977
▁Hel	-3978
▁Láb	-3979
▁Per	-3980
▁Sef	-3981
▁Sio	-3982
▁Toť	-3983
▁bři	-3984
▁mlé	-3985
▁smy	-3986
▁uky	-3987
achar	-3988
▁Jebu	-3989
▁Rách	-3990
▁Sara	-3991
▁boje	-3992
▁báti	-3993
▁nena	-3994
▁roku	-3995
▁vele	-3996
▁veře	-3997
▁zdvi	-3998
chiáše	-3999
▁Asser	-4000
▁chceš	-4001
▁nazvá	-4002
▁nevin	-4003
▁pošla	-4004
▁slovy	-4005
▁ukřiž	-4006
▁zvědí	-4007
▁Šimon	-4008
▁Prosím	-4009
▁moudrý	-4010
▁pohanů	-4011
▁poslav	-4012
▁pravda	-4013
▁složil	-4014
▁vězení	-4015
▁znamen	-4016
▁pohlaví	-4017
▁přijali	-4018
▁šťastně	-4019
▁Egyptští	-4020
▁pozdvihl	-4021
▁shromažď	-4022
▁smilství	-4023
▁nepřítele	-4024
▁učedlníků	-4025
▁vládařství	-4026
▁Manassesova	-4027
:1	-4028
ady	-4029
bán	-4030
nic	-4031
▁Tě	-4032
edbá	-4033
kryt	-4034
lila	-4035
nami	-4036
tekl	-4037
však	-4038
▁Mes	-4039
▁Zat	-4040
▁byť	-4041
▁hrů	-4042
▁jab	-4043
▁lev	-4044
▁ryb	-4045
stává	-4046
▁Pově	-4047
▁barv	-4048
▁dále	-4049
▁jaké	-4050
▁jímž	-4051
▁napo	-4052
▁neum	-4053
▁nevz	-4054
▁plná	-4055
▁plné	-4056
▁rozs	-4057
▁spal	-4058
▁volá	-4059
▁vále	-4060
▁zabí	-4061
▁zplo	-4062
▁Ammon	-4063
▁Maria	-4064
▁dřevo	-4065
▁hedbá	-4066
▁lidmi	-4067
▁mráko	-4068
▁obřez	-4069
▁stanu	-4070
▁usnul	-4071
▁věrný	-4072
▁úrody	-4073
▁Izaiáš	-4074
▁Jákoba	-4075
▁Levíty	-4076
▁centné	-4077
▁soudce	-4078
▁tovary	-4079
▁vodách	-4080
▁žádost	-4081
▁Herodes	-4082
▁nečisté	-4083
▁starším	-4084
▁uvěřili	-4085
▁kteréžto	-4086
▁nebesích	-4087
▁shromáždil	-4088
ah	-4089
is	-4090
kam	-4091
léd	-4092
udí	-4093
átý	-4094
edli	-4095
kají	-4096
oděj	-4097
zích	-4098
žuje	-4099
▁Bra	-4100
▁Cho	-4101
▁Mat	-4102
▁Mel	-4103
▁lež	-4104
▁zak	-4105
coval	-4106
ladím	-4107
stojí	-4108
▁koně	-4109
▁nové	-4110
▁prst	-4111
▁vlož	-4112
▁vyvr	-4113
▁vzta	-4114
▁zapá	-4115
▁Ester	-4116
▁Hetej	-4117
▁Masfa	-4118
▁bělné	-4119
▁děvky	-4120
▁jiným	-4121
▁prodá	-4122
▁prázd	-4123
▁rozdí	-4124
▁rozsí	-4125
▁soudů	-4126
▁spatř	-4127
▁stádo	-4128
▁zvláš	-4129
▁zšíří	-4130
▁Božímu	-4131
▁Ráchel	-4132
▁Udělal	-4133
▁osvědč	-4134
▁pokrmu	-4135
▁potoku	-4136
▁připad	-4137
▁rozkoš	-4138
▁uložil	-4139
▁vložil	-4140
▁Izachar	-4141
▁Levítům	-4142
▁beránků	-4143
▁králích	-4144
▁postaví	-4145
▁prosili	-4146
▁učiněni	-4147
▁mládenci	-4148
▁Zachariáš	-4149
▁pohledění	-4150
▁bláznovství	-4151
▁služebníkem	-4152
▁Hospodinových	-4153
▁malomocenství	-4154
om	-4155
adl	-4156
str	-4157
▁Ce	-4158
▁Ru	-4159
címu	-4160
jtež	-4161
kách	-4162
váme	-4163
ábel	-4164
▁Ado	-4165
▁Ber	-4166
▁Kdy	-4167
▁Mag	-4168
▁har	-4169
▁odj	-4170
▁pas	-4171
▁šet	-4172
lořeč	-4173
ložíš	-4174
▁Azaf	-4175
▁Kari	-4176
▁břem	-4177
▁děti	-4178
▁hrom	-4179
▁oddě	-4180
▁pých	-4181
▁slož	-4182
▁slun	-4183
▁stav	-4184
▁takť	-4185
▁trní	-4186
▁upev	-4187
▁vich	-4188
▁vozů	-4189
▁plésa	-4190
▁světě	-4191
▁věcmi	-4192
▁zázra	-4193
▁Daniel	-4194
▁Služeb	-4195
▁bohové	-4196
▁nechtě	-4197
▁přemyš	-4198
▁přived	-4199
▁sestry	-4200
▁soudil	-4201
▁sstupu	-4202
▁ukydan	-4203
▁ústech	-4204
▁podobně	-4205
▁prozpěv	-4206
▁dobrovol	-4207
▁mužského	-4208
▁poslední	-4209
▁třidcíti	-4210
▁způsobím	-4211
▁šedesáte	-4212
▁propustil	-4213
▁nejvyššího	-4214
▁prvorozeného	-4215
▁přisluhování	-4216
iť	-4217
flí	-4218
líš	-4219
mat	-4220
sua	-4221
zdu	-4222
čku	-4223
acha	-4224
chit	-4225
hují	-4226
jeme	-4227
kami	-4228
rouh	-4229
váte	-4230
škli	-4231
▁Ani	-4232
▁Jmé	-4233
▁Poj	-4234
▁rep	-4235
▁sež	-4236
▁sti	-4237
▁sty	-4238
adili	-4239
darmo	-4240
lejší	-4241
▁Balá	-4242
▁Galg	-4243
▁Seir	-4244
▁chví	-4245
▁koho	-4246
▁kůži	-4247
▁milý	-4248
▁mělo	-4249
▁nále	-4250
▁obec	-4251
▁okra	-4252
▁past	-4253
▁rodi	-4254
▁stat	-4255
▁sváz	-4256
▁tenť	-4257
▁ukáz	-4258
▁větr	-4259
▁zast	-4260
▁zdra	-4261
kormou	-4262
▁Achas	-4263
▁Hebro	-4264
▁Kdyby	-4265
▁Libán	-4266
▁Necha	-4267
▁břehu	-4268
▁jimiž	-4269
▁nesly	-4270
▁obilé	-4271
▁právě	-4272
▁pšeni	-4273
▁vyvýš	-4274
▁zítra	-4275
▁řkuci	-4276
▁Anobrž	-4277
▁Gedeon	-4278
▁Kteráž	-4279
▁Tehdáž	-4280
▁kdežto	-4281
▁mluvím	-4282
▁mnohem	-4283
▁nejmen	-4284
▁padnou	-4285
▁potoka	-4286
▁pozoru	-4287
▁uděláš	-4288
pravedli	-4289
▁Damašku	-4290
▁Tolikéž	-4291
▁hedbáví	-4292
▁klaněti	-4293
▁oblíčej	-4294
▁popouze	-4295
▁pravého	-4296
▁kralování	-4297
▁všelijaké	-4298
▁Filistinské	-4299
čt	-4300
ber	-4301
hoj	-4302
lam	-4303
čen	-4304
▁uj	-4305
▁čt	-4306
chot	-4307
inai	-4308
ledu	-4309
vláš	-4310
čast	-4311
▁Kde	-4312
▁Neu	-4313
▁Sob	-4314
▁děl	-4315
▁hos	-4316
▁vyv	-4317
▁věr	-4318
národ	-4319
ováno	-4320
stroj	-4321
▁hada	-4322
▁jiná	-4323
▁líbo	-4324
▁nalé	-4325
▁naší	-4326
▁nocí	-4327
▁oděv	-4328
▁posk	-4329
▁písa	-4330
▁sílu	-4331
letých	-4332
rozumí	-4333
zejtří	-4334
▁Ješto	-4335
▁jesky	-4336
▁koflí	-4337
▁kořen	-4338
▁lepší	-4339
▁moudr	-4340
▁polám	-4341
▁potří	-4342
▁přisa	-4343
▁tehdy	-4344
▁ukáže	-4345
▁Židům	-4346
▁Judova	-4347
▁Merari	-4348
▁blázni	-4349
▁chlebů	-4350
▁jdouce	-4351
▁jestiť	-4352
▁mající	-4353
▁prachu	-4354
▁utekli	-4355
▁základ	-4356
▁životu	-4357
▁Zabulon	-4358
▁chudého	-4359
▁knížaty	-4360
▁radostí	-4361
▁zavolal	-4362
▁znameni	-4363
▁Jordánem	-4364
▁bojovali	-4365
▁knížatům	-4366
▁pronárod	-4367
▁vyslyšel	-4368
▁Egyptských	-4369
).	-4370
az	-4371
hý	-4372
ul	-4373
ine	-4374
lis	-4375
lům	-4376
suž	-4377
čel	-4378
čer	-4379
▁or	-4380
hůru	-4381
inou	-4382
itel	-4383
loví	-4384
piti	-4385
vují	-4386
▁Poď	-4387
▁ber	-4388
▁dru	-4389
▁jit	-4390
▁učí	-4391
▁zub	-4392
stěho	-4393
▁Bena	-4394
▁Ocho	-4395
▁Otci	-4396
▁nezů	-4397
▁siro	-4398
▁spoj	-4399
▁ucha	-4400
▁ucho	-4401
▁utvr	-4402
▁voly	-4403
▁zvěř	-4404
▁řečí	-4405
▁žalo	-4406
▁Neboj	-4407
▁Sinai	-4408
▁Slovo	-4409
▁dcero	-4410
▁nenav	-4411
▁stala	-4412
▁táhli	-4413
▁zvele	-4414
▁Ačkoli	-4415
▁Joziáš	-4416
▁Pakliť	-4417
▁hospod	-4418
▁obyčej	-4419
▁odpočí	-4420
▁rozkáz	-4421
▁roztrh	-4422
▁slouží	-4423
▁služby	-4424
▁vzhůru	-4425
▁cizolož	-4426
▁hojnost	-4427
▁jejichž	-4428
▁modrého	-4429
▁neobřez	-4430
▁poklady	-4431
▁pomazan	-4432
▁ulicích	-4433
▁vyslých	-4434
▁Judskému	-4435
▁bezbožní	-4436
▁bezpečně	-4437
▁jistotně	-4438
▁modlitbu	-4439
▁přišedše	-4440
▁pětmecítma	-4441
▁stříbrných	-4442
▁vypravoval	-4443
▁spravedlivých	-4444
it	-4445
žť	-4446
cům	-4447
dad	-4448
dlo	-4449
luj	-4450
níš	-4451
ohl	-4452
tan	-4453
zda	-4454
žas	-4455
žeš	-4456
▁Ra	-4457
▁Vo	-4458
▁úř	-4459
akim	-4460
buje	-4461
ejde	-4462
jeli	-4463
jích	-4464
něna	-4465
odáv	-4466
stým	-4467
vírá	-4468
žena	-4469
žené	-4470
▁Pís	-4471
▁Rab	-4472
▁Saf	-4473
▁jdu	-4474
▁led	-4475
▁lož	-4476
stříh	-4477
ziáše	-4478
zvláš	-4479
čních	-4480
▁Char	-4481
▁Emat	-4482
▁Mace	-4483
▁Seme	-4484
▁Shro	-4485
▁Všem	-4486
▁bera	-4487
▁blíz	-4488
▁kali	-4489
▁síle	-4490
▁učil	-4491
▁vrát	-4492
▁vymí	-4493
▁vzác	-4494
▁Sionu	-4495
▁býval	-4496
▁dělal	-4497
▁hlava	-4498
▁matku	-4499
▁nebem	-4500
▁obilí	-4501
▁obraz	-4502
▁oznam	-4503
▁propa	-4504
▁působ	-4505
▁sešli	-4506
▁socho	-4507
▁sstup	-4508
▁tímto	-4509
▁vyzná	-4510
dcátého	-4511
▁Ezebon	-4512
▁Navrať	-4513
▁Přišel	-4514
▁dotekl	-4515
▁hodinu	-4516
▁nebudu	-4517
▁pohané	-4518
▁prosil	-4519
▁připoj	-4520
▁rukama	-4521
▁světla	-4522
▁vchází	-4523
▁volali	-4524
▁volati	-4525
▁zabili	-4526
▁zachvá	-4527
▁Hebronu	-4528
▁dobroti	-4529
▁jazykem	-4530
▁požehná	-4531
▁přebývá	-4532
▁rouchem	-4533
▁stavěti	-4534
▁zemřeli	-4535
▁Všemohou	-4536
▁mládence	-4537
▁obrátili	-4538
▁padesáti	-4539
▁posvětil	-4540
▁propusti	-4541
▁rovinách	-4542
▁starodáv	-4543
▁přistoupili	-4544
▁spravedliví	-4545
▁nešlechetnosti	-4546
ur	-4547
até	-4548
ini	-4549
lým	-4550
obi	-4551
pím	-4552
tíš	-4553
těz	-4554
veď	-4555
váz	-4556
▁zu	-4557
alou	-4558
bila	-4559
bron	-4560
mlou	-4561
ovej	-4562
tila	-4563
šiti	-4564
ženo	-4565
▁Dal	-4566
▁Hai	-4567
▁Jim	-4568
▁Mou	-4569
▁dov	-4570
▁hli	-4571
▁leč	-4572
▁pyt	-4573
▁smu	-4574
▁Chas	-4575
▁Kále	-4576
▁harf	-4577
▁hody	-4578
▁jaký	-4579
▁jeze	-4580
▁krup	-4581
▁modl	-4582
▁okla	-4583
▁pili	-4584
▁pový	-4585
▁stal	-4586
▁uchý	-4587
▁vylé	-4588
▁víra	-4589
▁vůni	-4590
▁závi	-4591
▁čemž	-4592
▁Balák	-4593
▁Jméno	-4594
▁Nazar	-4595
▁devět	-4596
▁duchu	-4597
▁jinak	-4598
▁popat	-4599
▁potěš	-4600
▁slovu	-4601
▁založ	-4602
▁činíš	-4603
▁čistý	-4604
nostech	-4605
▁Nejvyš	-4606
▁Zlořeč	-4607
▁bolest	-4608
▁chválu	-4609
▁hvězdy	-4610
▁lidské	-4611
▁milují	-4612
▁nemoud	-4613
▁opuště	-4614
▁pominu	-4615
▁truhla	-4616
▁řeknou	-4617
▁Galgala	-4618
▁bolesti	-4619
▁dobytka	-4620
▁nadělal	-4621
▁obzvláš	-4622
▁ohnivou	-4623
▁poledni	-4624
▁přivodí	-4625
▁sloužil	-4626
▁zástupu	-4627
▁odvrátil	-4628
▁opustili	-4629
▁přicháze	-4630
▁starších	-4631
▁veseliti	-4632
▁vycházel	-4633
▁způsobil	-4634
▁zákoníci	-4635
▁zlořečení	-4636
sů	-4637
řá	-4638
ben	-4639
hne	-4640
hra	-4641
óre	-4642
ýru	-4643
▁Sp	-4644
▁Zo	-4645
▁úh	-4646
hynu	-4647
lají	-4648
race	-4649
stva	-4650
řech	-4651
▁Sed	-4652
▁nov	-4653
▁opo	-4654
▁voz	-4655
▁zel	-4656
ilost	-4657
ovaly	-4658
ovice	-4659
▁Hlas	-4660
▁Jana	-4661
▁Otče	-4662
▁Takť	-4663
▁Zdaž	-4664
▁něko	-4665
▁stůl	-4666
▁užas	-4667
▁zbro	-4668
chejte	-4669
kazuje	-4670
▁bitvě	-4671
▁chudý	-4672
▁dosáh	-4673
▁hledí	-4674
▁hojně	-4675
▁kanto	-4676
▁mrtvé	-4677
▁nesli	-4678
▁přidá	-4679
▁stínu	-4680
▁synem	-4681
▁věděl	-4682
▁Žádný	-4683
▁Hebron	-4684
▁Všecky	-4685
▁obrace	-4686
▁pomsty	-4687
▁počala	-4688
▁vezmou	-4689
▁vinici	-4690
▁zaděla	-4691
▁Člověk	-4692
▁nadarmo	-4693
▁přinesl	-4694
▁správce	-4695
▁vycháze	-4696
▁vychází	-4697
▁známost	-4698
▁západní	-4699
▁Abrahama	-4700
▁bližnímu	-4701
▁lidských	-4702
▁žoldnéři	-4703
▁Abimelech	-4704
▁nečistého	-4705
▁Assyrského	-4706
▁g	-4707
ily	-4708
rce	-4709
tim	-4710
ána	-4711
élí	-4712
říš	-4713
▁En	-4714
▁zi	-4715
chis	-4716
ezpe	-4717
náší	-4718
pili	-4719
zena	-4720
čeli	-4721
řené	-4722
▁Hor	-4723
▁Pří	-4724
▁efi	-4725
▁jez	-4726
▁mak	-4727
▁něž	-4728
▁ony	-4729
▁vzý	-4730
nesli	-4731
▁Aman	-4732
▁dnem	-4733
▁drob	-4734
▁dsky	-4735
▁jimž	-4736
▁nedá	-4737
▁neto	-4738
▁ovcí	-4739
▁ssuž	-4740
▁uved	-4741
▁víte	-4742
▁zkuš	-4743
▁zvíř	-4744
▁ústy	-4745
▁časy	-4746
▁čeho	-4747
▁část	-4748
hřešil	-4749
▁Chóre	-4750
▁Jocha	-4751
▁Kádes	-4752
▁dávám	-4753
▁každá	-4754
▁komor	-4755
▁který	-4756
▁ničem	-4757
▁odpor	-4758
▁pokro	-4759
▁posel	-4760
▁pospí	-4761
▁počte	-4762
▁skryl	-4763
▁udělá	-4764
▁věčný	-4765
▁zdélí	-4766
▁řekne	-4767
▁šesti	-4768
▁Achito	-4769
▁Gabaon	-4770
▁Sádoch	-4771
▁chvály	-4772
▁daleko	-4773
▁divili	-4774
▁domlou	-4775
▁druhým	-4776
▁dávati	-4777
▁paláce	-4778
▁pokryt	-4779
▁pomoci	-4780
▁posluš	-4781
▁povědí	-4782
▁přijda	-4783
▁skopců	-4784
▁svatém	-4785
▁takový	-4786
▁učiníš	-4787
▁vztáhl	-4788
▁zavrhl	-4789
▁říkáte	-4790
▁živoči	-4791
▁Elizeus	-4792
▁Jákobův	-4793
▁Mouření	-4794
▁desátky	-4795
▁klaněli	-4796
▁kvílení	-4797
▁následu	-4798
▁pomazal	-4799
▁poručil	-4800
▁rozkazu	-4801
▁ustavič	-4802
▁zapsáno	-4803
▁pochován	-4804
▁polovici	-4805
▁přinesli	-4806
▁slavnost	-4807
▁takového	-4808
▁čtvrtého	-4809
▁nebeskému	-4810
▁Blahoslavený	-4811
dom	-4812
kám	-4813
niv	-4814
spo	-4815
teč	-4816
viv	-4817
▁Di	-4818
cela	-4819
elův	-4820
mluv	-4821
něné	-4822
rama	-4823
▁Elí	-4824
▁Gát	-4825
▁Lot	-4826
▁Obě	-4827
▁Rci	-4828
▁bál	-4829
▁hrn	-4830
▁ječ	-4831
▁naň	-4832
▁pož	-4833
▁viz	-4834
▁zlý	-4835
▁Žal	-4836
lejte	-4837
nesou	-4838
▁blou	-4839
▁boha	-4840
▁devá	-4841
▁divy	-4842
▁křik	-4843
▁masa	-4844
▁míry	-4845
▁psal	-4846
▁rada	-4847
▁snaž	-4848
▁veli	-4849
▁věže	-4850
▁zahu	-4851
▁zane	-4852
▁čtve	-4853
▁Židy	-4854
rození	-4855
▁Semei	-4856
▁Totoť	-4857
▁Zatím	-4858
▁dalek	-4859
▁domní	-4860
▁hněvě	-4861
▁jakou	-4862
▁knihu	-4863
▁modly	-4864
▁nepod	-4865
▁otcem	-4866
▁padne	-4867
▁povin	-4868
▁půjdu	-4869
▁skála	-4870
▁vypla	-4871
▁vůdce	-4872
jemství	-4873
▁Nechať	-4874
▁Toliko	-4875
▁mořské	-4876
▁někter	-4877
▁prospě	-4878
▁slouti	-4879
▁spálil	-4880
▁užitek	-4881
▁zabije	-4882
▁Bersabé	-4883
▁Pozdrav	-4884
▁Semaiáš	-4885
▁branách	-4886
▁kořisti	-4887
▁obrátiv	-4888
▁padesát	-4889
▁ptactvo	-4890
▁přivede	-4891
▁zlatých	-4892
▁zpívati	-4893
▁zůstali	-4894
▁čtyřech	-4895
▁Assyrský	-4896
▁panovati	-4897
▁postavce	-4898
▁silnější	-4899
▁ustanovi	-4900
▁vyhlazen	-4901
▁ohavností	-4902
▁učedlníky	-4903
▁pozdvižení	-4904
▁přistoupil	-4905
eš	-4906
bad	-4907
fra	-4908
kro	-4909
luv	-4910
mer	-4911
svo	-4912
vet	-4913
▁lů	-4914
▁sl	-4915
atan	-4916
domí	-4917
lesk	-4918
lách	-4919
síce	-4920
ďtež	-4921
▁Chí	-4922
▁Nát	-4923
▁jda	-4924
▁odí	-4925
▁utr	-4926
▁vyd	-4927
▁víš	-4928
atana	-4929
ejští	-4930
loval	-4931
stili	-4932
vésti	-4933
▁Rebe	-4934
▁Ráma	-4935
▁Sílo	-4936
▁celý	-4937
▁císa	-4938
▁deva	-4939
▁dome	-4940
▁dosa	-4941
▁hled	-4942
▁líbí	-4943
▁mědi	-4944
▁rolí	-4945
▁síni	-4946
▁trvá	-4947
▁táhl	-4948
▁věku	-4949
▁zálo	-4950
▁škod	-4951
▁Dobře	-4952
▁Jeden	-4953
▁Lában	-4954
▁dosti	-4955
▁hledá	-4956
▁kohož	-4957
▁myslí	-4958
▁nadto	-4959
▁někdy	-4960
▁odsou	-4961
▁píseň	-4962
▁skále	-4963
▁uvodí	-4964
▁vlada	-4965
▁vylil	-4966
▁zlému	-4967
▁žalmy	-4968
▁Milost	-4969
▁hladem	-4970
▁hnuvše	-4971
▁otázal	-4972
▁pomstu	-4973
▁povede	-4974
▁prokla	-4975
▁přijdu	-4976
▁slitov	-4977
▁slyšte	-4978
▁vzavše	-4979
▁zajaté	-4980
▁zákoně	-4981
▁činíte	-4982
▁Amaziáš	-4983
▁Azariáš	-4984
▁Izákovi	-4985
▁Judským	-4986
▁kamením	-4987
▁lítosti	-4988
▁mrtvého	-4989
▁nalezen	-4990
▁podobná	-4991
▁posadil	-4992
▁povolav	-4993
▁povstal	-4994
▁sluncem	-4995
▁strachu	-4996
▁stvořil	-4997
▁vlastní	-4998
▁všeliká	-4999
▁Ochoziáš	-5000
▁bezbožný	-5001
▁naříkání	-5002
▁přísloví	-5003
▁skutkové	-5004
▁zahynutí	-5005
▁zapomenu	-5006
▁útočiště	-5007
▁vzkříšení	-5008
▁nepřátelům	-5009
▁obyvatelům	-5010
▁Amorejského	-5011
laš	-5012
sce	-5013
zai	-5014
čím	-5015
ťte	-5016
▁Ez	-5017
▁Gá	-5018
▁Ho	-5019
▁Tá	-5020
▁uš	-5021
hání	-5022
meni	-5023
vici	-5024
zují	-5025
řící	-5026
▁Měl	-5027
▁jho	-5028
▁mud	-5029
enost	-5030
nejte	-5031
ramen	-5032
valte	-5033
▁Mezi	-5034
▁hrad	-5035
▁jimi	-5036
▁klad	-5037
▁korá	-5038
▁neuz	-5039
▁peci	-5040
▁pomá	-5041
▁prud	-5042
▁zlou	-5043
▁zpro	-5044
▁zpur	-5045
▁zrna	-5046
▁Šimo	-5047
▁Židů	-5048
▁žele	-5049
ariáše	-5050
▁Abych	-5051
▁Kálef	-5052
▁Pohle	-5053
▁Samař	-5054
▁Všech	-5055
▁divné	-5056
▁hoden	-5057
▁lokte	-5058
▁lásce	-5059
▁nemůž	-5060
▁obklí	-5061
▁ozdob	-5062
▁padlo	-5063
▁pamat	-5064
▁pochy	-5065
▁poslá	-5066
▁pásti	-5067
▁rcete	-5068
▁soudí	-5069
▁stran	-5070
▁tvýma	-5071
▁ukrut	-5072
▁vyhlá	-5073
▁vysly	-5074
▁čisté	-5075
▁Dokudž	-5076
▁Syrské	-5077
▁Uděláš	-5078
▁blázen	-5079
▁chleby	-5080
▁chtěli	-5081
▁docela	-5082
▁druhou	-5083
▁hlavou	-5084
▁jinému	-5085
▁neměli	-5086
▁půjdeš	-5087
▁semeni	-5088
▁střely	-5089
▁svátek	-5090
▁vojště	-5091
▁vysoké	-5092
▁Saulova	-5093
▁krupobi	-5094
▁kterými	-5095
▁loupeže	-5096
▁nebudeť	-5097
▁náramen	-5098
▁odpuště	-5099
▁opustil	-5100
▁pastýři	-5101
▁přijímá	-5102
▁slaviti	-5103
▁třikrát	-5104
▁učinila	-5105
▁zkormou	-5106
▁centnéřů	-5107
▁kdožkoli	-5108
▁kteřížto	-5109
▁nasyceni	-5110
▁netoliko	-5111
▁potěšení	-5112
▁Izraelská	-5113
▁ostříhali	-5114
▁posvěcení	-5115
▁zástupové	-5116
▁Odpověděli	-5117
▁prvorozené	-5118
▁spravedlivé	-5119
▁vysvobození	-5120
▁neposlouchali	-5121
are	-5122
aty	-5123
báš	-5124
diž	-5125
for	-5126
hor	-5127
jdu	-5128
kne	-5129
těž	-5130
áni	-5131
áší	-5132
▁Mé	-5133
▁Oz	-5134
▁zt	-5135
eným	-5136
kter	-5137
rach	-5138
tinu	-5139
vejž	-5140
▁Ges	-5141
▁Pov	-5142
▁Vyp	-5143
▁jal	-5144
▁jas	-5145
▁kom	-5146
▁lam	-5147
▁mož	-5148
▁pěk	-5149
▁tma	-5150
▁vým	-5151
násob	-5152
▁Asve	-5153
▁Nepo	-5154
▁dolů	-5155
▁doma	-5156
▁kadí	-5157
▁mzdu	-5158
▁oblé	-5159
▁opan	-5160
▁podv	-5161
▁pokř	-5162
▁povr	-5163
▁shle	-5164
▁uhlí	-5165
▁zkři	-5166
▁živa	-5167
pouští	-5168
▁Duchu	-5169
▁Neníť	-5170
▁Sallu	-5171
▁hlavě	-5172
▁kraji	-5173
▁ležel	-5174
▁láska	-5175
▁mnohý	-5176
▁neníť	-5177
▁nezná	-5178
▁odkry	-5179
▁odkud	-5180
▁potok	-5181
▁sedmý	-5182
▁silné	-5183
▁silou	-5184
▁svatí	-5185
▁uvede	-5186
▁vydám	-5187
▁vyšlo	-5188
▁zlých	-5189
▁čemuž	-5190
cházení	-5191
▁Duchem	-5192
▁Izmael	-5193
▁Poslal	-5194
▁Samson	-5195
▁bílého	-5196
▁dveřím	-5197
▁dávali	-5198
▁honili	-5199
▁korouh	-5200
▁korunu	-5201
▁nástro	-5202
▁nějaký	-5203
▁obrazu	-5204
▁ponese	-5205
▁rozumě	-5206
▁seděti	-5207
▁sestra	-5208
▁tisíci	-5209
▁udeřil	-5210
▁veselé	-5211
▁vojsku	-5212
▁Galilee	-5213
▁Galilej	-5214
▁doufání	-5215
▁nazváno	-5216
▁obyčeje	-5217
▁pachole	-5218
▁potřebí	-5219
▁přistup	-5220
▁roztrhl	-5221
▁soužení	-5222
▁utíkali	-5223
▁úzkosti	-5224
▁dlouhost	-5225
▁hejtmané	-5226
▁uslyšeli	-5227
▁vykoupil	-5228
▁zadělané	-5229
▁neobřezan	-5230
▁shromáždě	-5231
▁Mardocheus	-5232
▁bezbožného	-5233
▁obzvláštně	-5234
▁Jeruzalémských	-5235
hi	-5236
čů	-5237
bce	-5238
díš	-5239
ejž	-5240
jme	-5241
lat	-5242
sko	-5243
ába	-5244
áct	-5245
šně	-5246
▁Ge	-5247
asto	-5248
bánu	-5249
cemi	-5250
leji	-5251
leni	-5252
lubi	-5253
nalo	-5254
neme	-5255
níče	-5256
spoň	-5257
zara	-5258
átka	-5259
▁Azi	-5260
▁Byť	-5261
▁Mal	-5262
▁Med	-5263
▁Nev	-5264
▁Nun	-5265
▁had	-5266
▁hra	-5267
▁hum	-5268
▁mez	-5269
▁mor	-5270
▁nas	-5271
▁poc	-5272
▁sši	-5273
▁třá	-5274
▁Godo	-5275
▁Jimž	-5276
▁nedu	-5277
▁obtí	-5278
▁oplý	-5279
▁opoj	-5280
▁ovec	-5281
▁pohr	-5282
▁stín	-5283
▁zalí	-5284
▁šíji	-5285
▁Filip	-5286
▁Jefte	-5287
▁Jesua	-5288
▁Podlé	-5289
▁Sidon	-5290
▁aspoň	-5291
▁bedra	-5292
▁bázeň	-5293
▁dobyl	-5294
▁kobyl	-5295
▁kraje	-5296
▁matce	-5297
▁odjal	-5298
▁poplé	-5299
▁svatá	-5300
▁síňce	-5301
▁tajně	-5302
▁třech	-5303
▁zahla	-5304
▁zžíře	-5305
▁účast	-5306
▁Chíram	-5307
▁církve	-5308
▁ječmen	-5309
▁králům	-5310
▁nového	-5311
▁nátisk	-5312
▁povsta	-5313
▁pravíš	-5314
▁rozhoj	-5315
▁skutku	-5316
▁slovem	-5317
▁sstoup	-5318
▁umříti	-5319
▁uzřeli	-5320
▁vašemu	-5321
▁zahyne	-5322
▁zápaly	-5323
▁živých	-5324
zejského	-5325
▁Helkiáš	-5326
▁hřešili	-5327
▁naučení	-5328
▁neviděl	-5329
▁sobotní	-5330
▁svrchku	-5331
▁vonných	-5332
▁výsostí	-5333
▁zeměpla	-5334
▁žádnému	-5335
▁kterýmiž	-5336
▁nepoškvr	-5337
▁pomazání	-5338
▁přestěho	-5339
▁udatných	-5340
▁zlořečil	-5341
▁Kaldejské	-5342
▁blahoslav	-5343
▁převrácen	-5344
▁zahanbeni	-5345
▁ďábelství	-5346
▁Egyptského	-5347
▁prvorozený	-5348
▁předměstím	-5349
▁shromáždím	-5350
▁ustanoveních	-5351
uš	-5352
št	-5353
ban	-5354
ino	-5355
rdí	-5356
res	-5357
sai	-5358
ten	-5359
važ	-5360
▁Dá	-5361
▁Os	-5362
▁oc	-5363
▁zb	-5364
hléd	-5365
hnal	-5366
kova	-5367
lené	-5368
mážd	-5369
sech	-5370
čeni	-5371
ňují	-5372
▁Bez	-5373
▁byv	-5374
▁cti	-5375
▁dým	-5376
▁kot	-5377
▁lak	-5378
▁rtů	-5379
▁sle	-5380
▁sně	-5381
▁utě	-5382
▁váž	-5383
▁zmu	-5384
▁úpě	-5385
náctý	-5386
ouští	-5387
stých	-5388
▁Adam	-5389
▁Bana	-5390
▁Jeho	-5391
▁Judu	-5392
▁amen	-5393
▁bran	-5394
▁běda	-5395
▁hřmo	-5396
▁koni	-5397
▁krvi	-5398
▁mysl	-5399
▁nese	-5400
▁podí	-5401
▁rámě	-5402
▁rány	-5403
▁sehl	-5404
▁usil	-5405
▁voda	-5406
▁ztra	-5407
▁čest	-5408
▁Barna	-5409
▁jděte	-5410
▁kozla	-5411
▁kozlů	-5412
▁mnohá	-5413
▁mrtví	-5414
▁nezem	-5415
▁ohlaš	-5416
▁pojav	-5417
▁pořád	-5418
▁pánem	-5419
▁sluší	-5420
▁zkazí	-5421
▁zlatý	-5422
▁zpéře	-5423
▁zvíte	-5424
▁Absolo	-5425
▁Godoli	-5426
▁Kariat	-5427
▁Libánu	-5428
▁Syrští	-5429
▁bývali	-5430
▁dokoná	-5431
▁duchov	-5432
▁hovado	-5433
▁kormou	-5434
▁krajin	-5435
▁měděné	-5436
▁napsal	-5437
▁ničeho	-5438
▁plamen	-5439
▁poskvr	-5440
▁povstá	-5441
▁počali	-5442
▁přikrý	-5443
▁příhod	-5444
▁stezky	-5445
▁stupňů	-5446
▁těmito	-5447
▁uprost	-5448
▁vydali	-5449
▁věděli	-5450
▁zápalu	-5451
▁mnohými	-5452
▁modliti	-5453
▁obložil	-5454
▁odplatu	-5455
▁pravice	-5456
▁staních	-5457
▁stolice	-5458
▁udělali	-5459
▁uslyšev	-5460
▁kterážto	-5461
▁nepřišel	-5462
▁oznámeno	-5463
▁stranách	-5464
▁uzdravil	-5465
▁vcházeti	-5466
▁vyhladil	-5467
▁vyplénil	-5468
▁vzkřísil	-5469
▁všelikém	-5470
▁Egyptskou	-5471
▁Idumejské	-5472
▁Jeroboáma	-5473
▁obyvateli	-5474
▁ostříhají	-5475
▁tajemství	-5476
▁poškvrnili	-5477
far	-5478
hem	-5479
mit	-5480
prv	-5481
ráš	-5482
týž	-5483
zel	-5484
▁Al	-5485
▁rů	-5486
boze	-5487
cími	-5488
dala	-5489
elem	-5490
enem	-5491
form	-5492
hned	-5493
huje	-5494
nevě	-5495
nilo	-5496
něno	-5497
ohla	-5498
rala	-5499
rázd	-5500
valy	-5501
votí	-5502
věti	-5503
zeno	-5504
ženu	-5505
žená	-5506
▁Jáb	-5507
▁Leb	-5508
▁Nes	-5509
▁Skr	-5510
▁Sta	-5511
▁Tiť	-5512
▁klá	-5513
▁klí	-5514
▁obu	-5515
▁oce	-5516
▁rty	-5517
▁sží	-5518
▁tvr	-5519
▁zmí	-5520
▁zra	-5521
měřil	-5522
stavě	-5523
šitel	-5524
▁Byla	-5525
▁Timo	-5526
▁hora	-5527
▁hřiv	-5528
▁kůže	-5529
▁létě	-5530
▁mzdy	-5531
▁oliv	-5532
▁plat	-5533
▁sprá	-5534
▁svíc	-5535
▁tele	-5536
▁trpí	-5537
▁trůn	-5538
▁vinu	-5539
▁vůně	-5540
▁zbil	-5541
▁zpod	-5542
▁zrod	-5543
▁řece	-5544
ladili	-5545
rozený	-5546
životí	-5547
▁Izáka	-5548
▁Kníže	-5549
▁Pavla	-5550
▁Uriáš	-5551
▁avšak	-5552
▁hladu	-5553
▁hrobě	-5554
▁obves	-5555
▁ovšem	-5556
▁pojed	-5557
▁rtové	-5558
▁shléd	-5559
▁silní	-5560
▁skály	-5561
▁ssouž	-5562
▁těles	-5563
▁vyšla	-5564
▁větru	-5565
▁zvýší	-5566
▁zůsta	-5567
▁Bratří	-5568
▁ležení	-5569
▁měsíců	-5570
▁ohnivé	-5571
▁oznámí	-5572
▁páliti	-5573
▁rozlič	-5574
▁spokoj	-5575
▁stranu	-5576
▁vysoko	-5577
▁zarmou	-5578
▁zatvrd	-5579
▁Judstva	-5580
▁dobrému	-5581
▁kvíliti	-5582
▁narodil	-5583
▁přinese	-5584
▁ročních	-5585
▁svědomí	-5586
▁truhlou	-5587
▁vyvedli	-5588
▁Davidově	-5589
▁bojovati	-5590
▁nemluvil	-5591
▁studnici	-5592
▁zachoval	-5593
▁zhřešili	-5594
▁zpuštění	-5595
▁Spravedli	-5596
▁Zlořečený	-5597
▁bezživotí	-5598
▁obyvatelů	-5599
▁přebývají	-5600
▁přiblížil	-5601
▁ratolesti	-5602
▁shromáždí	-5603
▁vládnouti	-5604
▁Šalomouna	-5605
▁kteřížkoli	-5606
▁přistoupiv	-5607
▁rozhněvání	-5608
▁ustanovili	-5609
▁královských	-5610
óz	-5611
▁Ú	-5612
buď	-5613
dla	-5614
enž	-5615
hav	-5616
rim	-5617
sli	-5618
▁Fí	-5619
▁Um	-5620
▁Ví	-5621
▁br	-5622
arim	-5623
dlem	-5624
jším	-5625
lost	-5626
namu	-5627
nuli	-5628
peče	-5629
rací	-5630
tana	-5631
čila	-5632
řích	-5633
▁Ced	-5634
▁Her	-5635
▁Mod	-5636
▁Oči	-5637
▁Pam	-5638
▁Uzi	-5639
▁chy	-5640
▁fík	-5641
▁obc	-5642
▁vůd	-5643
▁zat	-5644
berou	-5645
elova	-5646
kládá	-5647
níkem	-5648
razil	-5649
ránek	-5650
státi	-5651
tější	-5652
ujeme	-5653
šedše	-5654
▁Byli	-5655
▁Hale	-5656
▁Hebr	-5657
▁Jiné	-5658
▁Přij	-5659
▁Sedm	-5660
▁Týru	-5661
▁mate	-5662
▁nebý	-5663
▁nejp	-5664
▁rohů	-5665
▁ránu	-5666
▁svár	-5667
▁tudy	-5668
▁zlat	-5669
▁zpět	-5670
▁závo	-5671
▁úřad	-5672
▁čemu	-5673
▁říci	-5674
jímali	-5675
pomíná	-5676
▁Berán	-5677
▁Maase	-5678
▁Nátan	-5679
▁Poďte	-5680
▁Svatý	-5681
▁bráti	-5682
▁celým	-5683
▁doufa	-5684
▁dřevě	-5685
▁hubil	-5686
▁lásku	-5687
▁nehle	-5688
▁pokor	-5689
▁rozrá	-5690
▁setim	-5691
▁skotů	-5692
▁vizte	-5693
▁zabit	-5694
▁často	-5695
▁žádal	-5696
▁Timote	-5697
▁andělé	-5698
▁holubi	-5699
▁kadidl	-5700
▁knězem	-5701
▁městům	-5702
▁napřed	-5703
▁nemoci	-5704
▁obětmi	-5705
▁odešla	-5706
▁odkudž	-5707
▁osmého	-5708
▁ostrov	-5709
▁otevří	-5710
▁pláště	-5711
▁potřeb	-5712
▁prokři	-5713
▁pátého	-5714
▁přišly	-5715
▁seděli	-5716
▁skláně	-5717
▁trpěti	-5718
▁udatní	-5719
▁vydává	-5720
▁věčným	-5721
▁zjevně	-5722
rozuměli	-5723
▁Faraona	-5724
▁apoštol	-5725
▁děvečka	-5726
▁hřešení	-5727
▁kantorů	-5728
▁nazvala	-5729
▁nemocen	-5730
▁nemohou	-5731
▁posměva	-5732
▁pustinu	-5733
▁takovou	-5734
▁utvrdil	-5735
▁učiněno	-5736
▁vytáhli	-5737
▁vyšedše	-5738
▁Jochanan	-5739
▁milovati	-5740
▁nečinili	-5741
▁porazili	-5742
▁prorokuj	-5743
▁sedmkrát	-5744
▁stříbrné	-5745
▁velikých	-5746
▁Chananiáš	-5747
▁cherubíny	-5748
▁pozůstali	-5749
▁pronárodu	-5750
▁proroctví	-5751
▁Absolonovi	-5752
▁dobrovolně	-5753
▁očišťování	-5754
▁prorokoval	-5755
▁upřímnosti	-5756
ia	-5757
alé	-5758
dlé	-5759
est	-5760
kle	-5761
oby	-5762
sev	-5763
tev	-5764
ámť	-5765
žte	-5766
▁Ad	-5767
▁Ať	-5768
▁Bi	-5769
▁Eu	-5770
▁Má	-5771
ezer	-5772
hách	-5773
lejí	-5774
němi	-5775
pali	-5776
sali	-5777
tají	-5778
zetí	-5779
ádný	-5780
▁Azo	-5781
▁Dne	-5782
▁Kam	-5783
▁Kor	-5784
▁Nez	-5785
▁Sly	-5786
▁Vyj	-5787
▁bod	-5788
▁hád	-5789
▁kul	-5790
▁lně	-5791
▁men	-5792
▁ran	-5793
▁roh	-5794
▁smí	-5795
▁tro	-5796
▁ute	-5797
▁vyt	-5798
▁vůz	-5799
▁šed	-5800
atova	-5801
dětež	-5802
klady	-5803
niáše	-5804
ována	-5805
podob	-5806
skání	-5807
tečně	-5808
veďte	-5809
ášovi	-5810
▁Báru	-5811
▁Dari	-5812
▁Neza	-5813
▁Sára	-5814
▁jdeš	-5815
▁jižť	-5816
▁květ	-5817
▁lépe	-5818
▁nepl	-5819
▁neře	-5820
▁ohra	-5821
▁pomí	-5822
▁stád	-5823
▁tvrd	-5824
▁zrad	-5825
lování	-5826
▁Mesul	-5827
▁Podob	-5828
▁Rámot	-5829
▁Sarvi	-5830
▁celou	-5831
▁dokud	-5832
▁hvězd	-5833
▁ihned	-5834
▁lásky	-5835
▁mužem	-5836
▁neboj	-5837
▁nemám	-5838
▁odsud	-5839
▁odění	-5840
▁onoho	-5841
▁poniž	-5842
▁pravo	-5843
▁sform	-5844
▁ukáži	-5845
▁umřeš	-5846
▁vaším	-5847
▁volám	-5848
▁vzíti	-5849
▁zatra	-5850
▁zbili	-5851
▁zbiti	-5852
▁Řekli	-5853
▁školy	-5854
nějších	-5855
nějšího	-5856
sevzetí	-5857
▁Gerson	-5858
▁Jozefa	-5859
▁Odstup	-5860
▁Pozdvi	-5861
▁blázna	-5862
▁celého	-5863
▁mladší	-5864
▁mnohým	-5865
▁nebývá	-5866
▁nesnad	-5867
▁nevíte	-5868
▁oblaku	-5869
▁pramen	-5870
▁přenes	-5871
▁půjdou	-5872
▁působí	-5873
▁rozdíl	-5874
▁sloupy	-5875
▁vezmeš	-5876
▁výmluv	-5877
▁věčnou	-5878
▁bydlení	-5879
▁dobrých	-5880
▁dobytče	-5881
▁kadidla	-5882
▁napořád	-5883
▁nebezpe	-5884
▁ostříha	-5885
▁otázali	-5886
▁pahrbku	-5887
▁sochory	-5888
▁stavení	-5889
▁vnitřní	-5890
▁výborné	-5891
▁věčného	-5892
▁zázraky	-5893
▁Jákobova	-5894
▁dopustil	-5895
▁kterémuž	-5896
▁městečka	-5897
▁navrátím	-5898
▁ostříhej	-5899
▁pohleděv	-5900
▁prorokům	-5901
▁předních	-5902
▁zastření	-5903
▁zpronevě	-5904
▁Amalechit	-5905
▁Jestližeť	-5906
▁krupobití	-5907
▁nebeského	-5908
▁podobného	-5909
▁slavnosti	-5910
▁uprostřed	-5911
▁zevnitřní	-5912
▁zmordoval	-5913
▁rozumnosti	-5914
▁sedmdesáti	-5915
▁Ezechiášovi	-5916
▁předsevzetí	-5917
▁vypravovali	-5918
▁Babylonskému	-5919
▁Blahoslavení	-5920
▁protivenství	-5921
▁Nabuchodonozo	-5922
bod	-5923
lač	-5924
lku	-5925
lát	-5926
sek	-5927
sán	-5928
tai	-5929
zek	-5930
▁Dě	-5931
▁zo	-5932
alon	-5933
byli	-5934
běhl	-5935
dadí	-5936
enou	-5937
jití	-5938
livé	-5939
líky	-5940
něch	-5941
peni	-5942
rova	-5943
tuji	-5944
ámar	-5945
▁Ezd	-5946
▁Nic	-5947
▁Rud	-5948
▁Vej	-5949
▁dáv	-5950
▁oho	-5951
▁sek	-5952
▁sev	-5953
▁sná	-5954
▁spí	-5955
▁vyš	-5956
▁Řka	-5957
inění	-5958
řevše	-5959
▁Lépe	-5960
▁Nevy	-5961
▁Znám	-5962
▁blud	-5963
▁bíti	-5964
▁dáte	-5965
▁hlub	-5966
▁hubí	-5967
▁levo	-5968
▁lotu	-5969
▁meči	-5970
▁naho	-5971
▁nejs	-5972
▁noha	-5973
▁samo	-5974
▁sklo	-5975
▁slad	-5976
▁svad	-5977
▁utrh	-5978
▁viny	-5979
▁vyli	-5980
▁zbož	-5981
▁zlým	-5982
▁útrž	-5983
▁Žalm	-5984
▁Arnon	-5985
▁Budou	-5986
▁Jakub	-5987
▁Pokoj	-5988
▁Skrze	-5989
▁Totiž	-5990
▁Támar	-5991
▁dceři	-5992
▁druhá	-5993
▁hřeší	-5994
▁kupci	-5995
▁mladi	-5996
▁modlí	-5997
▁nohám	-5998
▁pohor	-5999
▁stolu	-6000
▁vdovy	-6001
▁vidím	-6002
▁vinný	-6003
▁vlasy	-6004
▁zamil	-6005
▁časem	-6006
▁řekou	-6007
▁Abizai	-6008
▁Joakim	-6009
▁Sarvie	-6010
▁anděly	-6011
▁chcete	-6012
▁chtěje	-6013
▁hodina	-6014
▁jedním	-6015
▁kolena	-6016
▁koních	-6017
▁líbilo	-6018
▁nejprv	-6019
▁nohách	-6020
▁poblou	-6021
▁pokřtě	-6022
▁rodiny	-6023
▁sloupů	-6024
▁spasen	-6025
▁statek	-6026
▁truhly	-6027
▁uvěřil	-6028
▁uzříte	-6029
▁vichři	-6030
▁vyslyš	-6031
▁výklad	-6032
▁činíce	-6033
▁čtvrtý	-6034
▁životě	-6035
vajících	-6036
▁houfích	-6037
▁králova	-6038
▁kterakž	-6039
▁mluvila	-6040
▁neostří	-6041
▁okršlek	-6042
▁památku	-6043
▁pastýře	-6044
▁plakali	-6045
▁plésati	-6046
▁plésání	-6047
▁potravy	-6048
▁předlož	-6049
▁přestup	-6050
▁železné	-6051
▁Kteréhož	-6052
▁knížetem	-6053
▁naplnila	-6054
▁naplněni	-6055
▁nazejtří	-6056
▁neučinil	-6057
▁propasti	-6058
▁přestane	-6059
▁takových	-6060
▁trestati	-6061
▁velbloud	-6062
▁vypléním	-6063
▁zahanben	-6064
▁Egyptským	-6065
▁Jeremiáše	-6066
▁Moábských	-6067
▁Panovníče	-6068
▁krajinách	-6069
▁navštívím	-6070
▁opravoval	-6071
▁promluvil	-6072
▁přebývání	-6073
▁bezbožnost	-6074
▁propustiti	-6075
▁ustanovením	-6076
▁čtyřmecítma	-6077
fe	-6078
nt	-6079
yč	-6080
zá	-6081
ůr	-6082
dek	-6083
jed	-6084
kej	-6085
lai	-6086
lys	-6087
pec	-6088
pis	-6089
prs	-6090
rac	-6091
ujž	-6092
číš	-6093
šti	-6094
▁Pe	-6095
▁Uz	-6096
▁úd	-6097
jali	-6098
lata	-6099
pome	-6100
stmi	-6101
žile	-6102
▁Uri	-6103
▁blá	-6104
▁les	-6105
▁lví	-6106
▁lám	-6107
▁nek	-6108
▁smý	-6109
▁spl	-6110
▁tmy	-6111
▁tok	-6112
kladu	-6113
ovalo	-6114
tečné	-6115
čního	-6116
čteno	-6117
▁Edom	-6118
▁Hada	-6119
▁Odej	-6120
▁Vzal	-6121
▁celé	-6122
▁léka	-6123
▁nesl	-6124
▁nápo	-6125
▁opil	-6126
▁pohř	-6127
▁pryč	-6128
▁přil	-6129
▁rohy	-6130
▁rost	-6131
▁skal	-6132
▁síti	-6133
▁tres	-6134
▁ušel	-6135
▁žíti	-6136
hodilo	-6137
kavadž	-6138
pravil	-6139
▁Nepři	-6140
▁blesk	-6141
▁brali	-6142
▁bravů	-6143
▁byvše	-6144
▁břímě	-6145
▁deště	-6146
▁hanbu	-6147
▁jedin	-6148
▁kostí	-6149
▁mluvě	-6150
▁mohou	-6151
▁neodv	-6152
▁nepov	-6153
▁náprs	-6154
▁odděl	-6155
▁pravě	-6156
▁práva	-6157
▁právo	-6158
▁ranil	-6159
▁skálu	-6160
▁sloul	-6161
▁stoje	-6162
▁sukni	-6163
▁tukem	-6164
▁utisk	-6165
▁učiti	-6166
▁vedli	-6167
▁vojnu	-6168
▁vyvyš	-6169
▁vzala	-6170
▁čalou	-6171
ejských	-6172
▁Joacha	-6173
▁Lachis	-6174
▁Odkudž	-6175
▁daleké	-6176
▁každým	-6177
▁korábu	-6178
▁městem	-6179
▁nechal	-6180
▁nejlep	-6181
▁nečiní	-6182
▁pobral	-6183
▁přičin	-6184
▁smrtel	-6185
▁zavřel	-6186
▁zjevil	-6187
▁červce	-6188
▁říkaje	-6189
▁Adoniáš	-6190
▁Benadad	-6191
▁Vezměte	-6192
▁bolestí	-6193
▁ječmene	-6194
▁kobylky	-6195
▁neoznám	-6196
▁obrácen	-6197
▁pohledí	-6198
▁přibliž	-6199
▁příčinu	-6200
▁silných	-6201
▁vzbudil	-6202
▁zahynou	-6203
▁šarlatu	-6204
▁Egyptský	-6205
▁korouhev	-6206
▁milování	-6207
▁pohleděl	-6208
▁stříbrná	-6209
▁trestání	-6210
▁známosti	-6211
▁Židovský	-6212
▁barveného	-6213
▁navštívil	-6214
▁prorokují	-6215
▁provinění	-6216
▁přebývati	-6217
▁přicházel	-6218
▁výsostech	-6219
▁prorokovali	-6220
▁Nabuchodonozora	-6221
af	-6222
éb	-6223
bím	-6224
hni	-6225
láz	-6226
nav	-6227
noc	-6228
spě	-6229
tiv	-6230
čtl	-6231
šiž	-6232
šte	-6233
▁Pu	-6234
▁hý	-6235
atar	-6236
cken	-6237
dích	-6238
enec	-6239
holi	-6240
novy	-6241
vení	-6242
zuji	-6243
ůjde	-6244
želo	-6245
ženy	-6246
žený	-6247
▁Aka	-6248
▁Ami	-6249
▁Dva	-6250
▁Tem	-6251
▁Tyr	-6252
▁Zem	-6253
▁oku	-6254
▁poš	-6255
▁růz	-6256
▁Řím	-6257
kamen	-6258
lením	-6259
lujah	-6260
nouce	-6261
řídil	-6262
▁Efez	-6263
▁Fere	-6264
▁Haza	-6265
▁Jach	-6266
▁Jiní	-6267
▁Moud	-6268
▁Obět	-6269
▁Seon	-6270
▁dětí	-6271
▁nebť	-6272
▁pije	-6273
▁plný	-6274
▁prut	-6275
▁pátý	-6276
▁takž	-6277
▁trub	-6278
▁třin	-6279
▁vina	-6280
▁vypá	-6281
▁zleh	-6282
▁znáš	-6283
▁zůři	-6284
▁ženi	-6285
▁Jonáš	-6286
▁Jábes	-6287
▁Machi	-6288
▁Noémi	-6289
▁Písmo	-6290
▁Spasi	-6291
▁brána	-6292
▁darem	-6293
▁drahé	-6294
▁dveře	-6295
▁dědič	-6296
▁hrdlo	-6297
▁hrnčí	-6298
▁hroma	-6299
▁hynou	-6300
▁jinou	-6301
▁kudyž	-6302
▁mrzko	-6303
▁mějte	-6304
▁neslu	-6305
▁panny	-6306
▁patří	-6307
▁plášť	-6308
▁posad	-6309
▁rozpl	-6310
▁sobot	-6311
▁spole	-6312
▁ulice	-6313
▁ušima	-6314
▁válka	-6315
▁zavří	-6316
▁zhynu	-6317
▁znáti	-6318
▁zrost	-6319
▁ženou	-6320
milejší	-6321
▁Aronem	-6322
▁Betsem	-6323
▁Božích	-6324
▁Ezdráš	-6325
▁Joiada	-6326
▁Syrský	-6327
▁andělů	-6328
▁chválí	-6329
▁dobrým	-6330
▁hněvem	-6331
▁hodiny	-6332
▁kameni	-6333
▁klásti	-6334
▁metali	-6335
▁miluji	-6336
▁modlám	-6337
▁největ	-6338
▁nohama	-6339
▁nádobu	-6340
▁obdrží	-6341
▁orlice	-6342
▁potupu	-6343
▁prodal	-6344
▁taková	-6345
▁vyhnal	-6346
▁vystav	-6347
▁zapeče	-6348
▁zkazil	-6349
▁zloděj	-6350
▁změřil	-6351
▁zvolal	-6352
▁Šimona	-6353
▁železo	-6354
▁Betléma	-6355
▁Jericha	-6356
▁Jerichu	-6357
▁Joábovi	-6358
▁chlebem	-6359
▁líbosti	-6360
▁mladého	-6361
▁nevejde	-6362
▁příchod	-6363
▁sebrali	-6364
▁sstoupí	-6365
▁svatému	-6366
▁učiníme	-6367
▁zmužile	-6368
▁Barnabáš	-6369
▁Kterážto	-6370
▁chváliti	-6371
▁hejtmany	-6372
▁hříchové	-6373
▁kněžství	-6374
▁moudrého	-6375
▁naplněna	-6376
▁nebezpeč	-6377
▁nenalezl	-6378
▁nepoznal	-6379
▁obráceni	-6380
▁pojednou	-6381
▁povstane	-6382
▁povědíno	-6383
▁připodob	-6384
▁vysvoboz	-6385
▁zanechal	-6386
▁živočich	-6387
▁Halelujah	-6388
▁cizozemců	-6389
▁jednomysl	-6390
▁jestližeť	-6391
▁končinách	-6392
▁obětování	-6393
▁odpuštění	-6394
▁podstavky	-6395
▁podstavků	-6396
▁přinášeli	-6397
▁vstoupili	-6398
▁vycházejí	-6399
▁dvamecítma	-6400
▁odpověděla	-6401
▁oslavovati	-6402
▁pokoleních	-6403
▁Hospodinovou	-6404
▁Jeruzalémští	-6405
any	-6406
bar	-6407
kte	-6408
neť	-6409
něl	-6410
sed	-6411
tes	-6412
viž	-6413
áři	-6414
čiň	-6415
řiž	-6416
▁Ed	-6417
▁Va	-6418
▁Ře	-6419
▁Ří	-6420
díte	-6421
hony	-6422
kyně	-6423
ovím	-6424
rdce	-6425
sané	-6426
saní	-6427
tovi	-6428
uďte	-6429
vové	-6430
více	-6431
éhod	-6432
ésti	-6433
řelo	-6434
šené	-6435
šímu	-6436
žela	-6437
▁Ari	-6438
▁Bóz	-6439
▁Gáz	-6440
▁Kad	-6441
▁Kně	-6442
▁Náb	-6443
▁Ses	-6444
▁Sus	-6445
▁bil	-6446
▁chu	-6447
▁dlu	-6448
▁dsk	-6449
▁dán	-6450
▁dím	-6451
▁koš	-6452
▁neh	-6453
▁ohy	-6454
▁sno	-6455
▁vůl	-6456
▁ztí	-6457
▁Čím	-6458
chají	-6459
ejtež	-6460
ládám	-6461
oudil	-6462
pomeň	-6463
ývati	-6464
▁Abdi	-6465
▁Miza	-6466
▁bílé	-6467
▁chci	-6468
▁dala	-6469
▁háje	-6470
▁jedí	-6471
▁jitř	-6472
▁křiv	-6473
▁lest	-6474
▁levé	-6475
▁lout	-6476
▁malé	-6477
▁míst	-6478
▁mýma	-6479
▁ryby	-6480
▁svla	-6481
▁vodě	-6482
▁věži	-6483
▁zlám	-6484
▁Řkou	-6485
▁Žena	-6486
iášova	-6487
mažďte	-6488
▁Achis	-6489
▁Anato	-6490
▁Eufra	-6491
▁Fáres	-6492
▁Joiad	-6493
▁Judou	-6494
▁Miche	-6495
▁Recha	-6496
▁Srdce	-6497
▁chodě	-6498
▁musil	-6499
▁nesou	-6500
▁neuži	-6501
▁obříz	-6502
▁oškli	-6503
▁poddá	-6504
▁potvr	-6505
▁písni	-6506
▁rovně	-6507
▁rozep	-6508
▁satan	-6509
▁slepý	-6510
▁směle	-6511
▁starý	-6512
▁téhod	-6513
▁ulici	-6514
▁ustal	-6515
▁uvrhl	-6516
▁vidíš	-6517
▁vinen	-6518
▁známé	-6519
▁zpust	-6520
▁úpění	-6521
▁žízni	-6522
kazoval	-6523
▁Ostříh	-6524
▁Všecka	-6525
▁bohatý	-6526
▁dobrou	-6527
▁domové	-6528
▁draban	-6529
▁druhém	-6530
▁kalich	-6531
▁koupil	-6532
▁kterou	-6533
▁mateři	-6534
▁myslil	-6535
▁nazpět	-6536
▁našimi	-6537
▁obrací	-6538
▁odejme	-6539
▁oznamu	-6540
▁pokojí	-6541
▁právem	-6542
▁předeš	-6543
▁rodech	-6544
▁rozkaz	-6545
▁rozvod	-6546
▁skutek	-6547
▁soboty	-6548
▁tentýž	-6549
▁vcháze	-6550
▁vidělo	-6551
▁volové	-6552
▁volání	-6553
▁vyjdou	-6554
▁větrem	-6555
▁zpuště	-6556
▁činění	-6557
▁řečeno	-6558
▁Abiatar	-6559
▁Davidem	-6560
▁Jezábel	-6561
▁Nebudeť	-6562
▁Všecken	-6563
▁kadidlo	-6564
▁knížeti	-6565
▁končiny	-6566
▁nečistá	-6567
▁oltářem	-6568
▁plavili	-6569
▁poslech	-6570
▁poškvrň	-6571
▁provazy	-6572
▁pšenice	-6573
▁rozchvá	-6574
▁sečteni	-6575
▁soudové	-6576
▁vstavše	-6577
▁vyhlásí	-6578
▁zvláště	-6579
▁zámutek	-6580
louchejte	-6581
▁Mouřenín	-6582
▁nalezena	-6583
▁nalezeno	-6584
▁neviděli	-6585
▁pokušení	-6586
▁pověděli	-6587
▁prvotiny	-6588
▁rozdělil	-6589
▁skutcích	-6590
▁velikono	-6591
▁Samuelovi	-6592
▁královský	-6593
▁nezemřeli	-6594
▁rozkázaní	-6595
▁rozmnožil	-6596
▁slitování	-6597
▁uslyšavše	-6598
▁Egyptskému	-6599
▁královském	-6600
▁ostříhejte	-6601
▁posledních	-6602
▁Filistinská	-6603
▁přítomnosti	-6604
▁spokojující	-6605
▁spravedlivě	-6606
▁vyhledávati	-6607
▁vypravovati	-6608
▁zamordovali	-6609
▁Filistinskými	-6610
▁dvadcítiletých	-6611
▁nebezpečenství	-6612
ge	-6613
bit	-6614
dře	-6615
fat	-6616
liš	-6617
mel	-6618
rci	-6619
tná	-6620
uba	-6621
ven	-6622
zil	-6623
ďme	-6624
ška	-6625
ůru	-6626
▁Jí	-6627
▁al	-6628
▁ha	-6629
▁pé	-6630
adla	-6631
bova	-6632
bují	-6633
bích	-6634
jenž	-6635
ledy	-6636
pích	-6637
tati	-6638
trou	-6639
vila	-6640
čích	-6641
▁Che	-6642
▁Dce	-6643
▁Des	-6644
▁Hev	-6645
▁Jin	-6646
▁Méd	-6647
▁Ona	-6648
▁Pas	-6649
▁Tar	-6650
▁Tob	-6651
▁Vím	-6652
▁blý	-6653
▁hin	-6654
▁hní	-6655
▁jel	-6656
▁jsu	-6657
▁kří	-6658
▁lov	-6659
▁lva	-6660
▁oli	-6661
▁rád	-6662
▁sic	-6663
▁uti	-6664
▁zbě	-6665
▁zes	-6666
▁zim	-6667
▁šlo	-6668
aných	-6669
hoval	-6670
táhli	-6671
vážil	-6672
▁Amos	-6673
▁Anti	-6674
▁Chus	-6675
▁Itam	-6676
▁Joza	-6677
▁Kain	-6678
▁Neta	-6679
▁Svět	-6680
▁Usta	-6681
▁Vida	-6682
▁chyt	-6683
▁díle	-6684
▁díti	-6685
▁lide	-6686
▁malý	-6687
▁milí	-6688
▁mými	-6689
▁obna	-6690
▁ocho	-6691
▁okol	-6692
▁osvě	-6693
▁prsy	-6694
▁těho	-6695
▁vyhu	-6696
▁vyku	-6697
▁vyči	-6698
▁vzat	-6699
▁víme	-6700
▁zavě	-6701
▁záva	-6702
▁řetě	-6703
jícímu	-6704
osledy	-6705
ženého	-6706
▁Assur	-6707
▁Joach	-6708
▁Nalez	-6709
▁Petra	-6710
▁Píseň	-6711
▁Siona	-6712
▁Susan	-6713
▁Vstup	-6714
▁bázni	-6715
▁dejte	-6716
▁dotkl	-6717
▁horší	-6718
▁lampy	-6719
▁mokré	-6720
▁mrtvá	-6721
▁našem	-6722
▁nesty	-6723
▁nevím	-6724
▁nimiž	-6725
▁náhle	-6726
▁němuž	-6727
▁obživ	-6728
▁oklam	-6729
▁pláče	-6730
▁roční	-6731
▁snách	-6732
▁strdí	-6733
▁sváte	-6734
▁svíce	-6735
▁totoť	-6736
▁tvými	-6737
▁tázal	-6738
▁umyje	-6739
▁veleb	-6740
▁vloží	-6741
▁volků	-6742
▁vzděl	-6743
▁váleč	-6744
▁výpla	-6745
▁zbroj	-6746
▁zloře	-6747
▁úhony	-6748
pouštěj	-6749
▁Akaron	-6750
▁Bálovi	-6751
▁Judská	-6752
▁Karmel	-6753
▁Sallum	-6754
▁Zákoně	-6755
▁břicho	-6756
▁chvíle	-6757
▁cizích	-6758
▁držeti	-6759
▁dělali	-6760
▁mlékem	-6761
▁naplní	-6762
▁nemluv	-6763
▁nemělo	-6764
▁nevidí	-6765
▁neznám	-6766
▁někoho	-6767
▁odejde	-6768
▁odpusť	-6769
▁statku	-6770
▁stavěl	-6771
▁střeva	-6772
▁svolav	-6773
▁svícen	-6774
▁svědek	-6775
▁veřeje	-6776
▁vzýval	-6777
▁výpově	-6778
▁zabití	-6779
▁zbořen	-6780
▁zdraví	-6781
▁zemské	-6782
▁Banaiáš	-6783
▁Přistup	-6784
▁doufají	-6785
▁druhých	-6786
▁jehožto	-6787
▁jeskyně	-6788
▁kterého	-6789
▁milostí	-6790
▁neobříz	-6791
▁neznají	-6792
▁obětova	-6793
▁obětuje	-6794
▁pohanům	-6795
▁ptactva	-6796
▁předním	-6797
▁přinále	-6798
▁přísahu	-6799
▁přívěti	-6800
▁rouhání	-6801
▁rozmlou	-6802
▁rozpomí	-6803
▁rozumný	-6804
▁skonání	-6805
▁srdcích	-6806
▁srozumě	-6807
▁zjevení	-6808
▁zpěváku	-6809
▁Kteréžto	-6810
▁Mesullam	-6811
▁mládenec	-6812
▁modlitby	-6813
▁nařízení	-6814
▁nechtěli	-6815
▁oblíčeje	-6816
▁slýchali	-6817
▁stvoření	-6818
▁svědkové	-6819
▁vyzdvihl	-6820
▁zabitého	-6821
▁Ezechiáše	-6822
▁kterékoli	-6823
▁moudrostí	-6824
▁osmdesáte	-6825
▁pokojných	-6826
▁požehnaný	-6827
▁všelikému	-6828
▁nedostatku	-6829
▁nepravostí	-6830
▁služebnice	-6831
▁zmordovali	-6832
▁neuposlechl	-6833
▁prozpěvovati	-6834
▁zlořečenství	-6835
up	-6836
ym	-6837
fel	-6838
fer	-6839
fir	-6840
klo	-6841
lův	-6842
muž	-6843
ouf	-6844
try	-6845
vec	-6846
zuj	-6847
řež	-6848
▁Né	-6849
▁Us	-6850
▁ou	-6851
boru	-6852
cena	-6853
dili	-6854
eded	-6855
kých	-6856
leno	-6857
líte	-6858
něli	-6859
rami	-6860
skal	-6861
stvo	-6862
tými	-6863
udíž	-6864
vými	-6865
zejí	-6866
řena	-6867
řete	-6868
▁Bel	-6869
▁Dar	-6870
▁Eno	-6871
▁Ner	-6872
▁Než	-6873
▁Nám	-6874
▁Ode	-6875
▁Pat	-6876
▁Sil	-6877
▁Ter	-6878
▁Tři	-6879
▁gru	-6880
▁lys	-6881
▁měj	-6882
▁měr	-6883
▁spi	-6884
▁tlu	-6885
▁vnu	-6886
▁zad	-6887
▁čiň	-6888
akima	-6889
ejský	-6890
roste	-6891
vadlo	-6892
vivše	-6893
řetel	-6894
▁Agar	-6895
▁Azor	-6896
▁Fáze	-6897
▁Nebu	-6898
▁Neod	-6899
▁Nini	-6900
▁Osla	-6901
▁Refa	-6902
▁Smil	-6903
▁Usly	-6904
▁bedr	-6905
▁chří	-6906
▁dotý	-6907
▁dálo	-6908
▁hluk	-6909
▁kanc	-6910
▁kopy	-6911
▁kupe	-6912
▁kusy	-6913
▁káže	-6914
▁lože	-6915
▁lůže	-6916
▁míra	-6917
▁míru	-6918
▁osly	-6919
▁pláč	-6920
▁post	-6921
▁pres	-6922
▁pádu	-6923
▁rodu	-6924
▁spom	-6925
▁strý	-6926
▁sšik	-6927
▁třes	-6928
▁ulek	-6929
▁vrat	-6930
inadab	-6931
jnásob	-6932
ůstalo	-6933
▁Joram	-6934
▁Medle	-6935
▁Nácho	-6936
▁Pověz	-6937
▁Proti	-6938
▁Slova	-6939
▁Synům	-6940
▁Velik	-6941
▁Zorob	-6942
▁běžel	-6943
▁ctíti	-6944
▁dávno	-6945
▁děvku	-6946
▁honil	-6947
▁konci	-6948
▁která	-6949
▁lakom	-6950
▁mocný	-6951
▁mrtvý	-6952
▁nejsi	-6953
▁nepom	-6954
▁neuvě	-6955
▁novou	-6956
▁obrať	-6957
▁odtrh	-6958
▁osoby	-6959
▁pohnu	-6960
▁popel	-6961
▁pošle	-6962
▁pustá	-6963
▁pusté	-6964
▁sžíře	-6965
▁teprv	-6966
▁uzříš	-6967
▁vítěz	-6968
▁zhůru	-6969
▁šestý	-6970
stavili	-6971
ujících	-6972
▁Anatot	-6973
▁Betlém	-6974
▁Kdežto	-6975
▁Natana	-6976
▁Obeded	-6977
▁Odpoví	-6978
▁bezpeč	-6979
▁bloudí	-6980
▁bylinu	-6981
▁chudým	-6982
▁církev	-6983
▁hotovi	-6984
▁hrozný	-6985
▁jejími	-6986
▁jezdci	-6987
▁nenalé	-6988
▁obvese	-6989
▁otvírá	-6990
▁pastýř	-6991
▁pláčem	-6992
▁prokle	-6993
▁příliš	-6994
▁rytiny	-6995
▁světle	-6996
▁udatný	-6997
▁ukamen	-6998
▁umřela	-6999
▁upřímé	-7000
▁uvedli	-7001
▁vstana	-7002
▁vyjití	-7003
▁vyvedu	-7004
▁věřili	-7005
▁čister	-7006
▁částky	-7007
▁šarlat	-7008
▁Chvalte	-7009
▁Cožkoli	-7010
▁Nebudou	-7011
▁Petrovi	-7012
▁bedrách	-7013
▁dobytky	-7014
▁kněžími	-7015
▁modlili	-7016
▁nejprve	-7017
▁oslaven	-7018
▁oznámím	-7019
▁posílám	-7020
▁potření	-7021
▁pravíte	-7022
▁páchali	-7023
▁přijíma	-7024
▁přikryl	-7025
▁půjdeme	-7026
▁radosti	-7027
▁slyšíce	-7028
▁smlouva	-7029
▁spaseni	-7030
▁stavěli	-7031
▁uslyšav	-7032
▁utíkati	-7033
▁vyprázd	-7034
▁vyzdvih	-7035
▁zahynul	-7036
▁Kristova	-7037
▁desátého	-7038
▁dokavadž	-7039
▁hejtmanu	-7040
▁hořkosti	-7041
▁moudrých	-7042
▁naplnilo	-7043
▁nevěděli	-7044
▁obracení	-7045
▁ostrostí	-7046
▁sstupují	-7047
▁vysokost	-7048
▁vysokých	-7049
▁všemohou	-7050
▁úředníci	-7051
▁Mojžíšova	-7052
▁kteroužto	-7053
▁manželkou	-7054
▁nečistoty	-7055
▁odsouzení	-7056
▁odvrátili	-7057
▁poškvrnil	-7058
▁přednější	-7059
▁vycházeli	-7060
▁bezbožníka	-7061
▁dobrořečil	-7062
▁dvadcátého	-7063
▁příchozímu	-7064
▁Kaldejských	-7065
▁přisluhovali	-7066
▁přistupovati	-7067
blí	-7068
brá	-7069
ceš	-7070
dle	-7071
etl	-7072
hna	-7073
kým	-7074
mno	-7075
pom	-7076
rch	-7077
rej	-7078
ros	-7079
tip	-7080
vna	-7081
ěti	-7082
ůry	-7083
▁Kř	-7084
▁zk	-7085
doni	-7086
duci	-7087
jdeš	-7088
jili	-7089
jiti	-7090
lilo	-7091
naim	-7092
rávě	-7093
salo	-7094
sejí	-7095
stiť	-7096
tost	-7097
vuji	-7098
vách	-7099
víme	-7100
víte	-7101
zeli	-7102
ácte	-7103
▁Cis	-7104
▁Jas	-7105
▁Jid	-7106
▁Nap	-7107
▁Ram	-7108
▁Rem	-7109
▁Set	-7110
▁Ved	-7111
▁Zpí	-7112
▁bíd	-7113
▁kře	-7114
▁met	-7115
▁pec	-7116
▁slo	-7117
▁slí	-7118
▁tla	-7119
▁zdě	-7120
▁zří	-7121
▁čar	-7122
harim	-7123
hlédl	-7124
hněte	-7125
kejte	-7126
ložím	-7127
látko	-7128
mýšle	-7129
novým	-7130
ovými	-7131
▁Beri	-7132
▁Beto	-7133
▁Bylo	-7134
▁Dnes	-7135
▁Duše	-7136
▁Eden	-7137
▁Manu	-7138
▁Obra	-7139
▁Osta	-7140
▁Sido	-7141
▁cele	-7142
▁darů	-7143
▁díky	-7144
▁díte	-7145
▁jabl	-7146
▁kola	-7147
▁kolá	-7148
▁kruh	-7149
▁nejz	-7150
▁neve	-7151
▁podá	-7152
▁poží	-7153
▁roce	-7154
▁spod	-7155
▁stůj	-7156
▁tělu	-7157
▁ujal	-7158
▁vede	-7159
▁zadu	-7160
▁zdrž	-7161
▁zuby	-7162
▁časů	-7163
▁čímž	-7164
▁šaty	-7165
▁štěp	-7166
cházej	-7167
domluv	-7168
měsíce	-7169
áctého	-7170
ýchání	-7171
▁Abiáš	-7172
▁Amnon	-7173
▁Antio	-7174
▁Břímě	-7175
▁Fínes	-7176
▁Heber	-7177
▁Lepší	-7178
▁Nádab	-7179
▁Posil	-7180
▁Safan	-7181
▁Sodom	-7182
▁Tamna	-7183
▁Uziáš	-7184
▁bodlá	-7185
▁darmo	-7186
▁komuž	-7187
▁komůr	-7188
▁kozel	-7189
▁kvílí	-7190
▁losem	-7191
▁mohlo	-7192
▁našel	-7193
▁nemil	-7194
▁nápoj	-7195
▁pavéz	-7196
▁plodu	-7197
▁podol	-7198
▁popud	-7199
▁poráž	-7200
▁pověz	-7201
▁pravý	-7202
▁robot	-7203
▁rozez	-7204
▁rozta	-7205
▁toběť	-7206
▁vydán	-7207
▁vězně	-7208
▁zsili	-7209
▁živou	-7210
▁Janovi	-7211
▁chlubí	-7212
▁chtíti	-7213
▁cizími	-7214
▁církvi	-7215
▁hrozné	-7216
▁jinými	-7217
▁každou	-7218
▁levici	-7219
▁ležící	-7220
▁lidská	-7221
▁milého	-7222
▁moudří	-7223
▁musejí	-7224
▁nejste	-7225
▁neplod	-7226
▁neslou	-7227
▁náleží	-7228
▁nápoje	-7229
▁němžto	-7230
▁obydlí	-7231
▁obětem	-7232
▁opustí	-7233
▁podruh	-7234
▁porodu	-7235
▁potkal	-7236
▁probod	-7237
▁rouchu	-7238
▁roviny	-7239
▁rozves	-7240
▁samému	-7241
▁sestru	-7242
▁skopci	-7243
▁slyšán	-7244
▁smiluj	-7245
▁sprost	-7246
▁starců	-7247
▁stromu	-7248
▁učiňte	-7249
▁vejdou	-7250
▁vidíte	-7251
▁vystup	-7252
▁zálohy	-7253
▁Achikam	-7254
▁Efraima	-7255
▁Kterouž	-7256
▁Pavlovi	-7257
▁Sionské	-7258
▁drahého	-7259
▁jeskyni	-7260
▁knihách	-7261
▁knížete	-7262
▁kterých	-7263
▁lidským	-7264
▁naplněn	-7265
▁napsáno	-7266
▁nastroj	-7267
▁nevěděl	-7268
▁obdržel	-7269
▁odvrátí	-7270
▁okršlku	-7271
▁plakati	-7272
▁ponížil	-7273
▁poslové	-7274
▁pověděv	-7275
▁pošlapá	-7276
▁prvotin	-7277
▁příklad	-7278
▁rozkáže	-7279
▁rozsívá	-7280
▁silnému	-7281
▁ustavěl	-7282
▁vejdete	-7283
▁veselil	-7284
▁veselím	-7285
▁vystavě	-7286
▁vzbudím	-7287
▁zahrady	-7288
▁zpěváci	-7289
▁způsobu	-7290
▁zůstala	-7291
▁školách	-7292
▁Macedoni	-7293
▁apoštolů	-7294
▁devátého	-7295
▁dokonání	-7296
▁hříšníci	-7297
▁marnosti	-7298
▁milovali	-7299
▁modlitba	-7300
▁modlitbě	-7301
▁naplnili	-7302
▁nepřijde	-7303
▁nezahynu	-7304
▁otevřené	-7305
▁oznámiti	-7306
▁poklonil	-7307
▁povstali	-7308
▁přebýval	-7309
▁přitáhne	-7310
▁sloupové	-7311
▁stromoví	-7312
▁troubiti	-7313
▁zalíbilo	-7314
▁řkoucího	-7315
▁Danielovi	-7316
▁Faraonova	-7317
▁Pozdravte	-7318
▁cherubínů	-7319
▁dvojnásob	-7320
▁královští	-7321
▁navrátiti	-7322
▁popouzeli	-7323
▁příbytkem	-7324
▁rozptýlím	-7325
▁zamiloval	-7326
▁Služebníci	-7327
▁nedostatek	-7328
▁přicházeli	-7329
▁slitovnici	-7330
▁ustavičnou	-7331
▁vražedlník	-7332
▁Filistinským	-7333
:2	-7334
uk	-7335
▁3	-7336
ají	-7337
aly	-7338
bai	-7339
fod	-7340
idl	-7341
kov	-7342
krá	-7343
lub	-7344
mai	-7345
mež	-7346
red	-7347
řmi	-7348
šiv	-7349
šky	-7350
ťal	-7351
▁Ci	-7352
▁Lo	-7353
▁Ly	-7354
▁Ov	-7355
▁Př	-7356
▁Ri	-7357
▁Zd	-7358
▁ré	-7359
▁ús	-7360
adlo	-7361
bití	-7362
bliž	-7363
chri	-7364
emec	-7365
mana	-7366
sána	-7367
vice	-7368
ádal	-7369
čuje	-7370
číce	-7371
čísl	-7372
řená	-7373
šena	-7374
▁Jem	-7375
▁Sid	-7376
▁Tes	-7377
▁ctí	-7378
▁cvi	-7379
▁lhá	-7380
▁lit	-7381
▁mlá	-7382
▁pás	-7383
▁svi	-7384
▁tuč	-7385
▁tuť	-7386
▁vlo	-7387
▁řez	-7388
▁řeř	-7389
▁řád	-7390
bozet	-7391
táhni	-7392
zemec	-7393
ženou	-7394
▁Abys	-7395
▁Amri	-7396
▁Beta	-7397
▁Maha	-7398
▁Mích	-7399
▁Nebý	-7400
▁Star	-7401
▁aťby	-7402
▁beze	-7403
▁bili	-7404
▁boku	-7405
▁běží	-7406
▁dopl	-7407
▁díly	-7408
▁efod	-7409
▁hlou	-7410
▁koží	-7411
▁mzda	-7412
▁nelí	-7413
▁oblo	-7414
▁obži	-7415
▁ocas	-7416
▁okna	-7417
▁onen	-7418
▁ostr	-7419
▁osví	-7420
▁otví	-7421
▁plní	-7422
▁pode	-7423
▁rosa	-7424
▁sluš	-7425
▁sníh	-7426
▁touž	-7427
▁vtip	-7428
▁vych	-7429
▁vzdy	-7430
▁zisk	-7431
▁četl	-7432
▁Šest	-7433
▁šelm	-7434
▁škři	-7435
▁štít	-7436
▁šíje	-7437
dělili	-7438
kládal	-7439
mluvil	-7440
nějším	-7441
▁Bálov	-7442
▁Jedno	-7443
▁Manue	-7444
▁Mnozí	-7445
▁Míkol	-7446
▁Netin	-7447
▁Nábal	-7448
▁Sarai	-7449
▁Věrou	-7450
▁chlou	-7451
▁dobrá	-7452
▁děvka	-7453
▁hodné	-7454
▁jezte	-7455
▁jistý	-7456
▁ledví	-7457
▁ložci	-7458
▁mladý	-7459
▁morem	-7460
▁naklá	-7461
▁naším	-7462
▁nekla	-7463
▁padla	-7464
▁padna	-7465
▁pancí	-7466
▁podmě	-7467
▁pohub	-7468
▁potáh	-7469
▁pozor	-7470
▁prahu	-7471
▁pravá	-7472
▁provo	-7473
▁ptáci	-7474
▁pýchu	-7475
▁rozse	-7476
▁sirot	-7477
▁srdcí	-7478
▁střel	-7479
▁tekou	-7480
▁tráva	-7481
▁táhne	-7482
▁uděla	-7483
▁učili	-7484
▁vezmu	-7485
▁vybra	-7486
▁vyměř	-7487
▁vínem	-7488
▁čtver	-7489
▁šelmy	-7490
ejského	-7491
jeharim	-7492
stupují	-7493
stávají	-7494
ujícího	-7495
▁Abyste	-7496
▁Achima	-7497
▁Sochot	-7498
▁andělu	-7499
▁bláznů	-7500
▁chvíli	-7501
▁dobrod	-7502
▁drželi	-7503
▁jazyka	-7504
▁jazyky	-7505
▁jitřní	-7506
▁kamene	-7507
▁koflík	-7508
▁konali	-7509
▁krásné	-7510
▁mokrou	-7511
▁obrazy	-7512
▁oslice	-7513
▁plodil	-7514
▁pohrdá	-7515
▁položí	-7516
▁posilň	-7517
▁poslán	-7518
▁potřel	-7519
▁prvním	-7520
▁přešli	-7521
▁přivez	-7522
▁přátel	-7523
▁příval	-7524
▁rameni	-7525
▁služte	-7526
▁starci	-7527
▁stolem	-7528
▁synech	-7529
▁vozové	-7530
▁vynesl	-7531
▁vynáše	-7532
▁vzavši	-7533
▁výsost	-7534
▁vývoda	-7535
▁zproti	-7536
▁zvěděl	-7537
▁Aronova	-7538
▁Nazaret	-7539
▁Samuele	-7540
▁Syrským	-7541
▁dosavad	-7542
▁hledáte	-7543
▁hleděti	-7544
▁hříších	-7545
▁kněžský	-7546
▁mrákota	-7547
▁nemocné	-7548
▁nesčísl	-7549
▁neumřel	-7550
▁nuzného	-7551
▁ochotně	-7552
▁oddělil	-7553
▁ostatky	-7554
▁podobni	-7555
▁ponesou	-7556
▁poznáte	-7557
▁pozoruj	-7558
▁přenesl	-7559
▁přítele	-7560
▁slyšení	-7561
▁spatřil	-7562
▁styděti	-7563
▁stánkem	-7564
▁učiníte	-7565
▁velikém	-7566
▁vnitřku	-7567
▁vykonal	-7568
▁vyvýšen	-7569
▁vzdělám	-7570
▁zmocnil	-7571
▁čaroděj	-7572
▁žádostí	-7573
▁Antiochi	-7574
▁Nebudete	-7575
▁Syrského	-7576
▁blýskání	-7577
▁chlubiti	-7578
▁cizoloží	-7579
▁královna	-7580
▁makovice	-7581
▁manželce	-7582
▁nezapomí	-7583
▁obdrželi	-7584
▁odpovědí	-7585
▁pevnosti	-7586
▁porušení	-7587
▁postavím	-7588
▁propustí	-7589
▁radovati	-7590
▁učedlník	-7591
▁vstupuje	-7592
▁šedesáti	-7593
▁Izraelova	-7594
▁Panovníka	-7595
▁hledajíce	-7596
▁lakomství	-7597
▁ostatkové	-7598
▁rozmnožím	-7599
▁rozumnost	-7600
▁uposlechl	-7601
▁zvěstoval	-7602
▁Ammonitští	-7603
▁královskou	-7604
▁královským	-7605
▁nedopustil	-7606
▁pravdomluv	-7607
▁rozpomenul	-7608
▁vnitřnosti	-7609
▁zvěstovati	-7610
▁čtyřidcíti	-7611
▁Spravedlivý	-7612
▁prostředkem	-7613
▁přistoupivše	-7614
▁Kariatjeharim	-7615
iš	-7616
ana	-7617
bed	-7618
cké	-7619
hnu	-7620
jel	-7621
odi	-7622
píš	-7623
rab	-7624
rat	-7625
rub	-7626
utu	-7627
ván	-7628
zim	-7629
ňal	-7630
šev	-7631
▁Ak	-7632
▁Or	-7633
▁Vý	-7634
▁re	-7635
adne	-7636
beni	-7637
ceno	-7638
dách	-7639
egru	-7640
gail	-7641
lena	-7642
livě	-7643
lují	-7644
meli	-7645
nicí	-7646
pívá	-7647
rana	-7648
razí	-7649
svob	-7650
ztež	-7651
áním	-7652
řeno	-7653
žata	-7654
▁Ces	-7655
▁Hod	-7656
▁Kan	-7657
▁Kra	-7658
▁Oré	-7659
▁Pom	-7660
▁Sab	-7661
▁Stá	-7662
▁Svě	-7663
▁Teď	-7664
▁Zah	-7665
▁ced	-7666
▁hub	-7667
▁měď	-7668
▁nou	-7669
▁pav	-7670
▁sep	-7671
▁sho	-7672
▁trp	-7673
▁uče	-7674
▁vdá	-7675
▁špe	-7676
▁šíř	-7677
▁žeh	-7678
dělej	-7679
louho	-7680
neseš	-7681
nésti	-7682
rosto	-7683
ublik	-7684
šením	-7685
ženým	-7686
▁Abel	-7687
▁Amon	-7688
▁Arab	-7689
▁Bláz	-7690
▁Druh	-7691
▁Elis	-7692
▁Jdiž	-7693
▁Oliv	-7694
▁Otev	-7695
▁Pojď	-7696
▁Prvo	-7697
▁Sena	-7698
▁Snad	-7699
▁Syri	-7700
▁Tobě	-7701
▁Země	-7702
▁báně	-7703
▁bída	-7704
▁cožť	-7705
▁daru	-7706
▁desk	-7707
▁drak	-7708
▁díme	-7709
▁grun	-7710
▁koní	-7711
▁ledv	-7712
▁lich	-7713
▁odmě	-7714
▁pobo	-7715
▁potr	-7716
▁prsí	-7717
▁radě	-7718
▁rodí	-7719
▁rozd	-7720
▁snáš	-7721
▁uměl	-7722
▁usch	-7723
▁usmr	-7724
▁vozu	-7725
▁zdaž	-7726
▁řady	-7727
▁živý	-7728
melech	-7729
ovníci	-7730
vujíce	-7731
▁Aroer	-7732
▁Atali	-7733
▁Dobré	-7734
▁Joasa	-7735
▁Jotam	-7736
▁Mícha	-7737
▁Teman	-7738
▁Tersa	-7739
▁Vedlé	-7740
▁Vstav	-7741
▁bránu	-7742
▁děláš	-7743
▁hněvi	-7744
▁hrůza	-7745
▁lačně	-7746
▁napra	-7747
▁obnov	-7748
▁ohyzd	-7749
▁pekla	-7750
▁plevy	-7751
▁pocti	-7752
▁prutu	-7753
▁předu	-7754
▁přímé	-7755
▁rozmá	-7756
▁slepí	-7757
▁snáše	-7758
▁spust	-7759
▁staré	-7760
▁stoli	-7761
▁svlak	-7762
▁tebeť	-7763
▁ustav	-7764
▁usvad	-7765
▁uteče	-7766
▁utíka	-7767
▁vejdu	-7768
▁vešla	-7769
▁vidou	-7770
▁vonné	-7771
▁věcem	-7772
▁zahan	-7773
▁zaváz	-7774
▁ztíží	-7775
▁ústům	-7776
▁čisto	-7777
pustili	-7778
▁Achiáš	-7779
▁Jakuba	-7780
▁Jedutu	-7781
▁Saulem	-7782
▁Světlo	-7783
▁Tentoť	-7784
▁cizího	-7785
▁dostal	-7786
▁hřiven	-7787
▁hřícha	-7788
▁jazyku	-7789
▁kadění	-7790
▁klaněl	-7791
▁lstivě	-7792
▁nejedl	-7793
▁nejsil	-7794
▁nepozů	-7795
▁neznal	-7796
▁ničemž	-7797
▁nádoba	-7798
▁obětuj	-7799
▁padati	-7800
▁paměti	-7801
▁pohleď	-7802
▁pozdra	-7803
▁pustil	-7804
▁přijím	-7805
▁přilož	-7806
▁přiodě	-7807
▁ramena	-7808
▁slovou	-7809
▁slovům	-7810
▁spatří	-7811
▁stráže	-7812
▁svegru	-7813
▁vládli	-7814
▁vykupi	-7815
▁vyvodí	-7816
▁zastav	-7817
▁zatrou	-7818
▁zbohat	-7819
▁zdělal	-7820
▁zvířat	-7821
▁zázrak	-7822
▁říkati	-7823
▁žalost	-7824
▁Abigail	-7825
▁Ježíšem	-7826
▁Každého	-7827
▁Knížata	-7828
▁Kristův	-7829
▁Kterakž	-7830
▁Ustanov	-7831
▁Vstaňte	-7832
▁Zhřešil	-7833
▁beránky	-7834
▁cedrové	-7835
▁chodíce	-7836
▁dobroře	-7837
▁doufati	-7838
▁děvečky	-7839
▁farizeů	-7840
▁hromadu	-7841
▁křičeti	-7842
▁nasycen	-7843
▁nebeský	-7844
▁nebojte	-7845
▁nemohla	-7846
▁neodkry	-7847
▁nepohnu	-7848
▁nichžto	-7849
▁odvráti	-7850
▁ostatků	-7851
▁panství	-7852
▁pokojně	-7853
▁pokouší	-7854
▁poražen	-7855
▁prokřik	-7856
▁provodí	-7857
▁rozmnož	-7858
▁strážný	-7859
▁tovaryš	-7860
▁učiněna	-7861
▁vezmete	-7862
▁vezměte	-7863
▁večerou	-7864
▁vstoupí	-7865
▁vykonám	-7866
▁vědouce	-7867
▁založil	-7868
▁zanechá	-7869
▁zhoubce	-7870
▁zástupy	-7871
▁zůstalo	-7872
▁Achimele	-7873
▁Balámovi	-7874
▁Betsemes	-7875
▁Faraonem	-7876
▁Nebatova	-7877
▁Netaniáš	-7878
▁desetiny	-7879
▁narození	-7880
▁nevěstky	-7881
▁oblakové	-7882
▁pokrytci	-7883
▁poslouch	-7884
▁připojen	-7885
▁smilstva	-7886
▁starosti	-7887
▁strachem	-7888
▁troubili	-7889
▁vezmouce	-7890
▁vysvoboď	-7891
▁zahladil	-7892
▁zplození	-7893
▁zpívejte	-7894
▁úředníky	-7895
▁čtrnácte	-7896
▁Madianské	-7897
▁Oslavujte	-7898
▁cizozemec	-7899
▁kterémžto	-7900
▁navrátila	-7901
▁novměsíce	-7902
▁odpuštěno	-7903
▁	-7904
o	-7905
e	-7906
a	-7907
i	-7908
n	-7909
t	-7910
s	-7911
l	-7912
v	-7913
d	-7914
m	-7915
k	-7916
u	-7917
,	-7918
p	-7919
r	-7920
h	-7921
j	-7922
í	-7923
b	-7924
c	-7925
y	-7926
á	-7927
z	-7928
ž	-7929
ě	-7930
ř	-7931
é	-7932
š	-7933
.	-7934
ý	-7935
č	-7936
ů	-7937
A	-7938
:	-7939
J	-7940
H	-7941
I	-7942
B	-7943
P	-7944
ť	-7945
;	-7946
N	-7947
S	-7948
T	-7949
K	-7950
M	-7951
?	-7952
D	-7953
V	-7954
E	-7955
Z	-7956
f	-7957
O	-7958
g	-7959
ň	-7960
ú	-7961
ď	-7962
C	-7963
-	-7964
L	-7965
G	-7966
R	-7967
F	-7968
Ž	-7969
U	-7970
(	-7971
)	-7972
Š	-7973
ó	-7974
Ř	-7975
Č	-7976
Ó	-7977
!	-7978
[	-7979
]	-7980
1	-7981
x	-7982
3	-7983
2	-7984
4	-7985
5	-7986
Ú	-7987
8	-7988
0	-7989
9	-7990
6	-7991
7	-7992
Ď	-7993
#	-7994
Í	-7995
Ý	-7996
