<pad>	0
</s>	0
<unk>	0
▁¦	-0
ال	-1
▁ال	-2
▁و	-3
▁ا	-4
ان	-5
▁م	-6
▁ف	-7
▁ل	-8
▁ي	-9
وا	-10
▁.	-11
▁ب	-12
ين	-13
ون	-14
لا	-15
ما	-16
▁ع	-17
رب	-18
را	-19
ها	-20
هم	-21
كل	-22
نا	-23
▁في	-24
لك	-25
▁ت	-26
▁من	-27
ار	-28
يا	-29
ذا	-30
▁ق	-31
لي	-32
من	-33
▁ه	-34
▁ان	-35
في	-36
▁ك	-37
اب	-38
عل	-39
▁وا	-40
كم	-41
▁الم	-42
بي	-43
ول	-44
يل	-45
ام	-46
▁ح	-47
▁س	-48
رج	-49
▁الى	-50
ني	-51
ري	-52
▁الرب	-53
دا	-54
تي	-55
▁ج	-56
له	-57
مع	-58
مي	-59
قال	-60
▁وال	-61
ور	-62
ير	-63
قد	-64
▁ن	-65
وت	-66
ائ	-67
وم	-68
ذي	-69
اس	-70
▁كل	-71
هو	-72
▁عل	-73
▁اس	-74
ئيل	-75
▁لا	-76
يت	-77
يد	-78
الم	-79
وب	-80
وس	-81
يم	-82
▁ش	-83
عد	-84
▁على	-85
اء	-86
كان	-87
▁لان	-88
عب	-89
لم	-90
ذه	-91
رائيل	-92
ود	-93
▁خ	-94
وع	-95
مل	-96
حد	-97
يس	-98
ارض	-99
ته	-100
الى	-101
كون	-102
▁ص	-103
بن	-104
▁الس	-105
ية	-106
تم	-107
الرب	-108
▁ر	-109
▁قد	-110
ضا	-111
كن	-112
با	-113
▁عن	-114
ميع	-115
شر	-116
▁الذي	-117
على	-118
▁الي	-119
وال	-120
مة	-121
لب	-122
▁الا	-123
فس	-124
بر	-125
▁مع	-126
سب	-127
مر	-128
▁وي	-129
عة	-130
▁بن	-131
▁الش	-132
▁اسرائيل	-133
▁ث	-134
عا	-135
وح	-136
فا	-137
دي	-138
بل	-139
قول	-140
جل	-141
ذين	-142
عط	-143
يضا	-144
لان	-145
كر	-146
صر	-147
وق	-148
جد	-149
وه	-150
فر	-151
▁ار	-152
وي	-153
مس	-154
نة	-155
ذلك	-156
▁وت	-157
فت	-158
▁لل	-159
خل	-160
سي	-161
▁لي	-162
▁ولا	-163
▁الله	-164
▁اخ	-165
▁الج	-166
▁يس	-167
لام	-168
تى	-169
▁هو	-170
▁يا	-171
سل	-172
عن	-173
▁ما	-174
▁كان	-175
▁آ	-176
بح	-177
الا	-178
هر	-179
▁علي	-180
ذهب	-181
▁هذا	-182
مام	-183
▁له	-184
خذ	-185
ولا	-186
به	-187
▁أ	-188
ليم	-189
▁لم	-190
كلم	-191
▁الح	-192
رف	-193
نع	-194
انا	-195
قت	-196
الي	-197
دين	-198
قل	-199
▁فقال	-200
▁فا	-201
▁الارض	-202
الس	-203
▁التي	-204
▁اب	-205
وج	-206
ست	-207
يام	-208
بيت	-209
رة	-210
▁بال	-211
▁اله	-212
داود	-213
اد	-214
▁د	-215
▁ول	-216
كذا	-217
▁بيت	-218
بع	-219
▁الك	-220
اه	-221
هوذا	-222
اني	-223
خر	-224
▁ط	-225
▁وج	-226
▁غ	-227
سان	-228
قط	-229
ماء	-230
ضع	-231
الذي	-232
▁الع	-233
تك	-234
رجل	-235
▁وس	-236
▁ايضا	-237
▁ملك	-238
▁وقال	-239
▁انا	-240
الح	-241
يني	-242
خرج	-243
وك	-244
رق	-245
▁قائ	-246
عمل	-247
ملك	-248
▁الملك	-249
مه	-250
▁جميع	-251
▁وب	-252
الك	-253
▁لك	-254
لل	-255
ات	-256
▁الذين	-257
اله	-258
مت	-259
اسرائيل	-260
ظر	-261
آب	-262
ده	-263
ناك	-264
هذا	-265
وسى	-266
▁وكان	-267
الش	-268
حا	-269
ورش	-270
▁قال	-271
حت	-272
لكن	-273
دينة	-274
رع	-275
رك	-276
ورشليم	-277
رأ	-278
حم	-279
▁وان	-280
فل	-281
علم	-282
▁لانه	-283
بال	-284
كث	-285
سا	-286
وص	-287
▁بني	-288
بت	-289
▁ثم	-290
دم	-291
عم	-292
الج	-293
ساء	-294
فعل	-295
▁الخ	-296
▁ابن	-297
علي	-298
يق	-299
▁الب	-300
شي	-301
شا	-302
▁بل	-303
الله	-304
آن	-305
▁امام	-306
كت	-307
فع	-308
ثم	-309
هي	-310
▁فت	-311
زل	-312
▁عند	-313
رت	-314
دن	-315
يب	-316
لاث	-317
▁واحد	-318
▁به	-319
ليس	-320
طر	-321
ضرب	-322
▁يد	-323
▁الق	-324
ئة	-325
▁اليوم	-326
بني	-327
ينا	-328
▁وع	-329
▁هكذا	-330
جميع	-331
▁ارض	-332
▁ومن	-333
حب	-334
▁الن	-335
صعد	-336
حي	-337
يرة	-338
ريق	-339
حل	-340
ذبح	-341
▁لهم	-342
▁داود	-343
صنع	-344
يف	-345
▁الشعب	-346
▁وم	-347
خط	-348
▁انت	-349
▁ون	-350
وف	-351
لت	-352
اف	-353
ماذا	-354
▁يسوع	-355
سيح	-356
▁كما	-357
▁رب	-358
فقال	-359
راء	-360
وان	-361
▁وكل	-362
الارض	-363
قائ	-364
نت	-365
▁هذه	-366
يع	-367
يها	-368
قر	-369
التي	-370
▁رج	-371
▁ز	-372
وات	-373
▁قائلا	-374
جعل	-375
▁او	-376
▁الام	-377
هما	-378
قدس	-379
▁بعد	-380
▁الص	-381
واحد	-382
▁يع	-383
▁حتى	-384
طل	-385
يمة	-386
▁ليس	-387
يدي	-388
حة	-389
▁ذ	-390
اخ	-391
انسان	-392
نفس	-393
يش	-394
▁ذلك	-395
▁الف	-396
وش	-397
اع	-398
ثل	-399
▁يت	-400
▁يكون	-401
انه	-402
▁اذ	-403
جت	-404
▁كث	-405
▁الر	-406
وة	-407
▁اع	-408
▁يهوذا	-409
قام	-410
دخل	-411
ضة	-412
▁وفي	-413
▁نفس	-414
رون	-415
▁يقول	-416
حن	-417
قا	-418
عون	-419
راس	-420
ياء	-421
▁موسى	-422
▁اورشليم	-423
▁واما	-424
قي	-425
▁ام	-426
▁الت	-427
▁هناك	-428
▁	-429
ا	-430
¦	-431
ل	-432
ي	-433
و	-434
م	-435
ن	-436
ر	-437
ب	-438
ه	-439
ع	-440
ت	-441
ك	-442
ف	-443
س	-444
د	-445
.	-446
ق	-447
ح	-448
ج	-449
ة	-450
ذ	-451
ش	-452
خ	-453
ى	-454
ص	-455
ط	-456
ض	-457
ئ	-458
ث	-459
ّ	-460
ز	-461
أ	-462
ء	-463
غ	-464
آ	-465
ظ	-466
ؤ	-467
إ	-468
*	-469
ـ	-470
-	-471
ً	-472
(	-473
)	-474
:	-475
I	-476
i	-477
1	-478
2	-479
[	-480
]	-481
h	-482
o	-483
t	-484
5	-485
6	-486
m	-487
n	-488
y	-489
ٍ	-490
𐋇	-491
J	-492
T	-493
j	-494
𐊣	-495
𐊼	-496
