<pad>	0
</s>	0
<unk>	0
¦	-1.51156
▁¦	-1.52502
ᓐ	-3.31878
ᒡ	-3.63683
ᒃ	-3.7579
▁᙮	-3.87505
▁,	-3.97698
ᑕᔥ	-4.38017
ᓂ	-4.49241
ᕽ	-4.49645
ᑳ	-4.65091
ᒋ	-4.81558
ᒦ	-4.92794
ᐙ	-4.95436
ᑲᔦ	-4.97676
ᐁ	-5.12085
ᑮ	-5.14548
ᐃ	-5.17954
ᐞ	-5.19215
ᑭ	-5.35544
ᔥ	-5.40634
ᑫ	-5.43647
ᐗ	-5.49354
ᑭᔐᒪᓂᑑ	-5.52581
ᑕ	-5.54732
ᓇ	-5.56914
ᓴ	-5.57515
▁:	-5.63249
ᔅ	-5.65688
ᐅ	-5.66907
ᑳᐐ	-5.67295
ᐃᐃ	-5.69463
ᒫ	-5.70862
ᑯ	-5.72797
ᐁᑮ	-5.75139
ᒻ	-5.77137
ᑳᑮ	-5.8164
ᑖ	-5.96242
ᐋᓃ	-5.97902
ᒋᓴ	-5.98137
ᐐᓐ	-5.99136
ᐅᑮ	-5.99228
ᐃᐃᒫ	-5.99483
ᐃᓂ	-6.01887
ᒥ	-6.04388
ᓰ	-6.10617
ᔭ	-6.11382
ᐊᐎᔭ	-6.12093
ᔮ	-6.16731
ᓯ	-6.17596
ᐊᐲ	-6.21147
ᐸ	-6.22076
ᑲᑭᓇ	-6.22331
ᑳᐃᔑ	-6.2311
ᓃ	-6.23376
ᔦ	-6.24019
ᐊᐊ	-6.25912
ᐅᐅ	-6.34706
ᐊ	-6.35094
ᑲ	-6.3575
ᑎ	-6.36203
ᐃᑭ	-6.3776
ᓈ	-6.39822
ᐐ	-6.48076
ᐎ	-6.50288
ᔑ	-6.51466
ᒪ	-6.51889
▁	-6.52165
ᐱ	-6.55561
ᐎᓐ	-6.58503
▁?	-6.60782
ᐁᔑ	-6.61084
ᐋ	-6.63902
ᑫᑰ	-6.64501
ᐌ	-6.67085
ᐃᑯ	-6.67309
ᓀ	-6.69568
ᓅ	-6.71545
ᐃᔑ	-6.74158
ᑭᒋ	-6.74738
ᑭᑲ	-6.78135
ᐲ	-6.81494
ᑰ	-6.82344
▁!	-6.83769
ᒥᓐ	-6.86798
ᑌ	-6.88768
ᐅᒋ	-6.92181
ᔥᐱ	-6.92384
ᒥᓂ	-6.93586
ᒀ	-6.94133
ᑮᓇᐙ	-6.96322
ᐅᑮᐃᓈ	-6.97169
x	-6.98599
𐋇	-6.98766
ᐃᐌ	-6.9896
ᐊᑮ	-7.00259
ᓄ	-7.01238
ᑦ	-7.01814
ᒣ	-7.024
ᓲ	-7.08022
ᑾ	-7.09638
ᑐ	-7.10137
ᐹ	-7.10329
ᓂᓂ	-7.10918
ᑴ	-7.11716
ᐱᔥᑰ	-7.13476
ᐁᐐ	-7.13891
ᐃᓇ	-7.14077
ᐯᔑ	-7.14678
ᑑ	-7.15796
ᐁᑕ	-7.1653
ᐅᑲ	-7.17257
ᐎᓂ	-7.17686
ᓭ	-7.21402
ᓈᓐ	-7.21535
ᐋᔕ	-7.22628
ᐌᑎ	-7.2437
ᑣ	-7.26021
ᓂᑮ	-7.26585
ᐯ	-7.27133
ᑳᑎᐯᒋᑫ	-7.29933
ᒦᓇᐙ	-7.30755
ᑌᐺ	-7.32077
ᑭᐸ	-7.32388
ᓱ	-7.33079
ᐃᓂᓂ	-7.36544
ᑳᑮᐃᔑ	-7.36694
ᑮᐃᑭᑐ	-7.38902
ᐃᒫ	-7.40085
ᐊᔮ	-7.42731
ᒧ	-7.42753
ᑭᑮ	-7.45082
ᑳᔑ	-7.46984
ᐄ	-7.47281
ᑳᐅᒋ	-7.47551
ᐊᐌ	-7.49581
ᓂᑲ	-7.51397
ᒨ	-7.5241
ᑫᑯ	-7.52493
ᐃᔑᒋᑫ	-7.52653
ᐃᐃᐌ	-7.52805
ᓵ	-7.52885
ᐯᔑᑾ	-7.5541
ᒌ	-7.55989
ᑕᔑ	-7.57066
ᓈᐙ	-7.58319
ᑯᑕ	-7.59073
ᐅᔕ	-7.60053
ᑲᑴ	-7.61393
ᒫᐗ	-7.64481
ᐃᓂᓂᐗ	-7.64809
ᐁᑳ	-7.66437
ᒧᐙ	-7.66614
ᐅᐌ	-7.66876
ᔑᑾ	-7.67523
ᐱᑯ	-7.69007
ᐋᐱᒋ	-7.697
ᒪᒋ	-7.70036
ᑮᐃᔑ	-7.70568
ᐃᑭᑐ	-7.71171
ᓂᓂᒻ	-7.71769
ᒥᓯᐌ	-7.75544
ᒥᓄ	-7.75547
ᐱᒫᑎᓯ	-7.75639
ᐆᑌᓈ	-7.75794
ᑾᔭ	-7.76927
ᑲᓇ	-7.7727
ᒎᐗ	-7.78799
ᒪᑲ	-7.82189
ᐎᓇ	-7.84058
ᐐᑫ	-7.84152
ᐅᑮᐃᑰ	-7.84546
ᓂᑯ	-7.84926
ᒣᒀ	-7.8506
ᐋᓂ	-7.85601
ᓇᑰ	-7.85752
ᐊᐌᓀ	-7.85823
ᒫᒑ	-7.85836
ᑯᐙ	-7.86275
ᐌᒋ	-7.87093
ᐊᔮᓂ	-7.87407
ᐤ	-7.89275
ᓈᓂ	-7.9011
ᓅᑕ	-7.90376
ᐌᑯᓀ	-7.90521
ᑮᐊᓂ	-7.91142
ᓯᓅ	-7.91392
ᐊᐊᐌ	-7.92744
ᑕᑲ	-7.92811
ᐃᓈ	-7.94074
ᑮᐌ	-7.94076
ᐃᔖ	-7.94835
ᐅᓇᔓᐌᐎ	-7.9485
ᕒ	-7.94938
ᑳᑮᐅᒋ	-7.95141
ᓯᒀ	-7.95502
ᐅᐅᐌ	-7.96068
ᒨᔕ	-7.96149
ᓇᐗ	-7.9678
ᒋᐅᒋ	-7.96949
ᔐ	-7.97717
ᑫᐅᒋ	-7.97771
ᒪᓐ	-7.9785
ᑕᑯ	-7.97923
ᐅᑯ	-7.9824
ᑮᔑ	-8.00448
ᑭᑖ	-8.00707
ᐅᑖ	-8.01429
ᑫᔮᐱ	-8.01548
ᓯᐙ	-8.01736
ᑮᐅᒋ	-8.01869
ᑭᑎ	-8.02685
ᑫᔑ	-8.02854
ᐗᐊ	-8.03287
ᐅᑌᐺᑕᒨ	-8.03675
ᐅᑭᑭᓄᐊᒪᐙᑲᓇ	-8.04061
ᑲᓅᓈ	-8.04124
ᔖ	-8.0452
ᐅᒌ	-8.04746
ᐅᑯᓯᓴ	-8.05832
ᓃᐱᐗ	-8.05834
ᓂᑖ	-8.06749
ᔕ	-8.07182
ᓂᑕ	-8.07347
ᓯᓂ	-8.07825
ᐅᑎ	-8.08025
ᐙᐸ	-8.09811
ᒫᒌ	-8.10057
ᐯᒫᑎᓯᓂ	-8.10366
ᐃᓇᔥᑫ	-8.10825
ᓂᐳ	-8.10913
ᑖᑯᓯ	-8.11533
ᐃᓀᑖᑯᓯ	-8.11686
ᐎᓂᐙ	-8.13249
ᒞ	-8.1341
ᐊᐗᔑᒣ	-8.1341
ᐱᒥ	-8.13735
ᒦᐗ	-8.13904
ᐐᓇᐙ	-8.13951
ᑲᔥᑭᑑ	-8.14145
ᑌᐺᑕ	-8.14502
ᑎᓄ	-8.15536
ᓰᐗ	-8.15558
ᐁᑮᐃᔑ	-8.15695
ᐋᓇ	-8.16182
ᐊᑕ	-8.16685
ᑭᑭ	-8.16693
ᓯᐌ	-8.16886
ᑰᔦ	-8.17322
ᐲᑎᑫ	-8.17474
ᐐᒋ	-8.17478
ᑳᐃᓈ	-8.17667
ᐲᑕᕒ	-8.17707
ᓂᓯ	-8.1845
ᐌᓂᐗ	-8.1871
ᒪᔮ	-8.18806
ᐁᐃᔑ	-8.19283
ᐲᓂ	-8.19285
ᑉ	-8.19358
ᒥᒋ	-8.19639
ᐅᓄ	-8.21027
ᐃᔑᓭ	-8.2178
ᑑᑕ	-8.21929
ᑭᒋᑮᔑᑯ	-8.22786
ᑭᑌ	-8.22871
ᐃᑴ	-8.22891
ᑌᓂ	-8.22951
ᓯᓂᓂ	-8.23238
ᐯᒫᑎᓯᐙ	-8.24542
ᒦᓈ	-8.25171
ᔔᓂᔮ	-8.25297
ᐊᓂ	-8.25397
ᔒ	-8.25678
ᑖᑾ	-8.25735
ᑮᐃᑭᑐᐗ	-8.2608
ᑲᒥ	-8.26323
ᒋᑫ	-8.2682
ᑳᓂ	-8.28127
ᑭᑕ	-8.28655
ᑳᑕᔑ	-8.2938
ᒋᑳᑌ	-8.30553
ᐃᓀᑕ	-8.3066
ᓯᓄ	-8.31123
ᐊᓄᑮ	-8.3117
ᐎᓂᓂ	-8.31293
ᐊᓇᒥᐋ	-8.32433
ᐴ	-8.32565
ᐁᐊᓂ	-8.32912
ᐙᐸᑕ	-8.33243
ᑭᒋᐅᑭᒫ	-8.33813
ᑮᔑᑲ	-8.35208
ᓃᔑ	-8.35528
ᓯᐗ	-8.36259
ᐸᑳ	-8.36323
ᒥᑯ	-8.36788
ᒉᕒᐆᓴᓬᐊ	-8.36979
ᓈᑯᓯ	-8.37089
ᑆᓬ	-8.3748
ᓂᑖᐎᑭ	-8.37746
ᑕᐌ	-8.38081
ᑳᐱ	-8.38718
ᓈᑯ	-8.39086
ᐙᐱ	-8.39124
ᑫᑰᓂᓂ	-8.39546
ᔖᑰ	-8.39827
ᐸᐹ	-8.40156
ᐅᑕᒑᑾ	-8.40358
ᐆ	-8.41044
ᑌᐱ	-8.41095
ᐐᒌᐎ	-8.41201
ᑕᒪᐙ	-8.41221
ᑮᔑᑲᓂᓂ	-8.41256
ᑫᓂ	-8.41559
ᒪᒋᑑᑕᒧᐎ	-8.41769
ᑭᑫᓂᒫ	-8.42456
ᑕᒪᐎ	-8.42504
ᑭᒋᐊᓇᒥᐁᐎᑭᒫ	-8.42532
ᐐᒌᐎᑯ	-8.43003
ᔭᐄ	-8.43109
ᐁᑮᐃᓈ	-8.43823
ᔥᑲ	-8.44698
ᒑ	-8.45166
ᑎᓄᐎ	-8.45325
ᐃᓇᑫ	-8.46556
ᓈᑾ	-8.46559
ᐋᑎ	-8.46916
ᒋᑑ	-8.47763
ᐃᓂᐌᓂᐗ	-8.47814
ᐃᑴᐗ	-8.48017
ᑭᑑ	-8.4821
ᑯᐸᓀ	-8.4823
ᑕᑯᔑ	-8.48415
ᑳᐃᑭᑐ	-8.48873
ᐊᒦ	-8.4962
ᒥᓍᒋᒧᐎ	-8.49717
ᑯᒫ	-8.50425
ᓀᒀ	-8.50472
ᑭᑭᓄᐊᒫᑫ	-8.50911
ᐃᓴ	-8.5115
ᐐᒌᐙ	-8.51511
ᐁᐱ	-8.51645
ᑕᒫ	-8.52569
ᑮᐊᔮ	-8.5315
ᐌᐌᓂ	-8.54466
ᑮᐱ	-8.55138
ᒋᐃᔑ	-8.55434
ᐙᐸᒫ	-8.55558
ᓃᓇ	-8.57127
ᐱᒫᑎᓯᐎ	-8.57215
ᒪᐎ	-8.58449
ᒋᑲᓂᐎ	-8.58775
ᑕᐎ	-8.58894
ᐃᔑᐲᐃᑳᑌ	-8.59212
ᒦᒋ	-8.59245
ᐅᔑ	-8.5949
ᐅᑮᐃᔑ	-8.59758
ᐹᓂᒫ	-8.6006
ᐊᔮᐙ	-8.60264
ᐃᐃᐌᓂ	-8.60281
ᐊᑭ	-8.6079
ᐯᐸᑳ	-8.60982
ᓈᐱ	-8.61083
ᒨᓯ	-8.61502
ᑎᐹᑯᓂ	-8.61734
ᑕᒧᐙ	-8.62744
ᐐᓯᓂ	-8.63359
ᒪᑲᓂᓂ	-8.63403
ᑕᒧ	-8.63866
ᓍ	-8.64317
ᒪᒋᐊᒑᑾ	-8.64331
ᐃᑯᐙ	-8.64435
ᐁᑮᐃᑭᑐ	-8.64645
ᔂ	-8.64712
ᐗᓂᓂ	-8.65473
ᑭᑫᑖ	-8.65493
ᐐᑕᒪᐎ	-8.65538
ᐅᑕ	-8.65639
ᑫᒋᓈ	-8.66125
ᑮᐌᐱᒫᑎᓯ	-8.66244
ᒋᐋ	-8.66303
ᐊᓇᒥᐁ	-8.66435
ᐐᑕᒪᐙ	-8.66829
ᑳᑮᐱ	-8.67007
ᐅᑑ	-8.67332
ᐅᑖᐱᓇ	-8.67357
ᓵᑭ	-8.67394
ᑖᑯ	-8.67559
ᒫᐗᒋᐃᑎ	-8.67877
ᐱᒫᒋᐃ	-8.67883
ᐲᔖ	-8.68079
ᑰᔭ	-8.68452
ᐃᔑᓈᑯᓯ	-8.6876
ᐋᐸᒋᑑ	-8.68797
ᒪᒋᑑᑕ	-8.69073
ᑲᓅ	-8.70513
ᒥᓉᑕ	-8.70753
ᒥᓇ	-8.71193
ᐙᐸᒥ	-8.71227
ᓈᑲ	-8.71282
ᓬ	-8.71375
ᑳᐸᐎ	-8.71674
ᒥᑰ	-8.71701
ᑕᐙ	-8.71874
ᑎᐸ	-8.7192
ᓬᐃ	-8.71977
ᑕᒫᑯ	-8.72711
ᐆᑌᓇ	-8.73331
ᑯᓯ	-8.73419
ᐌᓂ	-8.73502
ᒫᐙ	-8.7357
ᐁᒐᓬᐊ	-8.73582
ᑮᑭᒋ	-8.73689
ᐃᓈᑯᓂᑫᐎ	-8.73797
ᑳᑌ	-8.74164
ᐊᔨ	-8.74581
ᓂᑎ	-8.74731
ᐁᐸᕒᐊᐋ	-8.75389
ᑲᓂᐎ	-8.75569
ᑭᑫᓂᒥ	-8.75704
ᑲᓇᐌᑕ	-8.7599
ᒦᓴ	-8.76003
ᑭᓯ	-8.76612
ᑳᒎᐎᐎᓯ	-8.76725
ᐊᐱ	-8.77721
ᑮᓇᐎ	-8.77931
ᓇᑭ	-8.78143
ᐯᕒᐊᓰ	-8.78359
ᐁᑮᐊᓂ	-8.7838
ᐹᑏᓄ	-8.78398
ᐴᓂ	-8.7923
ᑕᓱ	-8.79619
ᐊᔮᔦ	-8.79657
ᐃᔥᒀ	-8.79802
ᑳᐊᔮᐙ	-8.80231
ᑑᑕᐎ	-8.80296
ᐃᑰ	-8.80368
ᒋᐱ	-8.8047
ᒦᓂᑰ	-8.80517
ᒥᓂᑴ	-8.80933
ᐊᐎ	-8.81689
ᑭᒋᐊᓇᒥᐁᐎᑲᒥᑯ	-8.8175
ᑭᑭᓄᐊᒪᐙᑲᓇ	-8.82143
ᐸᑭᑎᓂ	-8.82147
ᑭᑎᑫ	-8.82404
ᓂᑌᑌ	-8.8247
ᓂᔕᐙ	-8.82503
ᑳᐊᔮ	-8.82621
ᒦᐃ	-8.82861
ᐃᓀᑖᑾ	-8.82868
ᑮᑭᑐ	-8.82923
ᓃᐸᐎ	-8.83557
ᒦᓂᑯ	-8.83723
ᕒᐊ	-8.84196
ᑎᐱ	-8.842
ᔥᑳᑯ	-8.84221
ᓂᓂᑭ	-8.84375
ᓂᓯᑐᑕ	-8.84611
ᒥᑖ	-8.8492
ᒋᑮ	-8.84988
ᑌᐯᒋᑫ	-8.85654
ᑌᐺᐎ	-8.86407
ᑭᐱ	-8.87146
ᐐᑕᒫᑫ	-8.8755
ᑮᐃᔖ	-8.8771
ᐸᑭᑎᓈ	-8.8779
ᒫᔑ	-8.88013
ᒋᑆ	-8.88199
ᐃᔑᓭᓂ	-8.88233
ᑭᑎᔑ	-8.88291
ᒥᓄᐊᔮ	-8.8863
ᐅᑌᑌ	-8.888
ᐱᓵ	-8.88853
ᐯᔓ	-8.88988
ᒦᑭᐌ	-8.89007
ᓭᓂ	-8.89087
ᐲᐎ	-8.89286
ᑲᒀᑕᑭᑑ	-8.90115
ᔥᑲᐙ	-8.90308
ᐅᑕᒑᑯᓂ	-8.9033
ᒪᔑ	-8.90545
ᐯᔑᑯ	-8.90665
ᐐᒋᐃ	-8.91172
ᐱᒫᑎᓯᐙ	-8.91229
ᐐᑎᑫ	-8.91432
ᐃᑎᓱ	-8.91451
ᐅᒫ	-8.92339
ᐊᑕᐌᑕ	-8.92425
ᑭᐐ	-8.92745
ᐁᑮᐅᒋ	-8.92873
ᒋᑳᑌᓂ	-8.93004
ᒫᒪᐎ	-8.93099
ᐃᔑᓈᑾ	-8.93146
ᐅᑎᐯᒋᑫᐎ	-8.93547
ᐊᑲ	-8.94788
ᑫᐃᔑ	-8.95024
ᐁᑕᔑ	-8.95286
ᓰᒥ	-8.95331
ᓈᑾᓂᓂ	-8.95382
ᐋᓇᐐ	-8.95396
ᑭᑭᔥᑲ	-8.95645
ᐱᒧᓭ	-8.95907
ᐅᔥᑭ	-8.96031
ᓃᑳᓂ	-8.96299
ᑫᓃ	-8.96349
ᐋᐙ	-8.96454
ᒋᑲ	-8.96465
ᑳᑭᒋ	-8.97618
ᐅᑯᓯᓯ	-8.9796
ᐅᓵ	-8.97967
ᐁᐃᑭᑐ	-8.98089
ᑑᑖ	-8.982
ᑖᓈᐙ	-8.98417
ᓰᓈᐙ	-8.9863
ᓇᐎ	-8.99125
ᑮᐅᑌᑌ	-8.99726
ᐁᔮ	-8.99763
ᐱᓯ	-9.00581
ᑳᐅᒌ	-9.00607
ᔑᒫᑲᓂᔕ	-9.00799
ᑭᒋᒪᓯᓇᐃᑲ	-9.009
ᐱᒫᑎᓰ	-9.01703
ᒋᐊ	-9.01895
ᐯᑭ	-9.02063
ᒥᓴᐌᑕ	-9.0207
ᐅᑭᒫ	-9.02127
ᐊᓯᓃ	-9.02145
ᐌᑖᑯᓯ	-9.02375
ᐁᑮᐱ	-9.02528
ᐃᔑᐌᐸ	-9.02669
ᑮᐃᓀᑕ	-9.02832
ᓇᑫ	-9.03193
ᓈᓂᐗ	-9.03388
ᑳᐊᔮᓂ	-9.03974
ᐃᔑᐌᐱᓯ	-9.03975
ᐁᑕᓱ	-9.04541
ᓈᐸ	-9.04572
ᐅᔑᑑ	-9.04771
ᑯᓰ	-9.05093
ᒥᐙ	-9.05123
ᐃᔑᒋᑫᐙ	-9.05357
ᐐᔭᐎ	-9.05383
ᐅᓇ	-9.05513
ᐁᐅᒋ	-9.05561
ᐗᑭ	-9.05775
ᐁᒐᓬ	-9.05788
ᔫ	-9.05961
ᑳᓬᐊᓬᐄ	-9.05962
ᓯᐙᐙ	-9.06742
ᑳᐃᔥᒀ	-9.0681
2	-9.07294
ᑏ	-9.07295
ᐌᓅᑎᓯ	-9.07296
ᓵᐃᒪ	-9.07319
ᑲᓅᑕᒪᐙ	-9.07328
ᐄᓴ	-9.07481
ᓈᓯᑲᐙ	-9.07646
ᐅᑭᒋ	-9.07909
ᐃᔑᓂᑳᓱ	-9.08265
3	-9.08646
ᐱᒥᓂᔕᐅ	-9.08646
ᐴᔔ	-9.08654
ᑫᑌ	-9.09474
ᒫᒪ	-9.09623
ᐱᓀ	-9.09708
ᐃᔑᓂᔕᐅ	-9.1002
ᐙᓭᔮ	-9.10026
ᔑᓈ	-9.10049
ᓭᑭᓯ	-9.10204
ᒧᐗ	-9.10735
ᒪᔥᑲᐎ	-9.11083
ᔖᑯᐌ	-9.11409
ᐊᐱᓅᒌᔕ	-9.11418
ᑳᐃᔑᒋᑫ	-9.1169
ᐊᔮᐗ	-9.12018
ᒧᐎ	-9.12206
ᐁᑭᒋ	-9.12412
ᐃᔥᑯᑌ	-9.12814
ᐊᔕ	-9.12842
ᑭᑭᑫᑖ	-9.12971
ᐊᐸ	-9.13249
ᐋᐸ	-9.13529
ᐹᐃᓬᐊ	-9.14242
ᐅᒌᒪᑲ	-9.14266
ᐐᑕᒪᐎᓇᑰ	-9.14316
ᐃᔑᐊᔮ	-9.14649
ᐅᒫᒫ	-9.14878
ᐙᐸᑖ	-9.1546
ᐁᐊᔮ	-9.15683
ᐋᐱ	-9.15857
ᒎᑕ	-9.15992
ᐅᑭᑭᓄᐊᒫᑫ	-9.16359
ᐸᑮ	-9.16537
ᐌᐱᓈ	-9.16643
ᒥᑲ	-9.16997
ᒪᔥᑲᐎᓰ	-9.17078
ᐃᔑᓂᔕᐙ	-9.17124
ᓅᒋᑯ	-9.17193
ᐱᒫᒋᐃᑰᐎ	-9.17218
ᓈᑯᓂ	-9.17266
ᓂᑳᑌ	-9.17788
ᐁᕒᐊ	-9.18043
ᑎᓱ	-9.18585
ᓵᑭᒋ	-9.18618
ᓉ	-9.18652
ᑎᐯᓂᒥᑯ	-9.18937
ᑭᓱ	-9.18964
ᐃᔑᐱᒫᑎᓯ	-9.19037
ᐃᓀ	-9.19131
ᐅᑮᐅᒋ	-9.19326
ᑲᓅᓂ	-9.19565
ᑎᐯᓂᒥ	-9.19669
ᑲᑴᒋᒫ	-9.19749
ᒪᓯᓇᐃᑲ	-9.20047
ᑲᔥᑭᑑᓰ	-9.20183
ᑲᑴᒋᒥ	-9.20249
ᐊᑐᒥ	-9.2026
ᐊᓉ	-9.20949
ᓂᑎᓱ	-9.21139
ᐅᑎᓯ	-9.21544
ᑮᒫᒌ	-9.21626
ᐸᑫ	-9.21645
ᑎᐯᓂᒫ	-9.21709
ᐁᑭᑐ	-9.21731
ᔕᐌᑖᑯᓯ	-9.21746
ᓯᐎᓐ	-9.21883
ᐅᐙᑳᐃᑲᓂ	-9.22008
ᐅᑎᔑ	-9.22174
ᐃᔥᐱ	-9.22265
ᐌᒌ	-9.22381
ᓵᑭᐋ	-9.22994
ᐸᑭᑎᓇ	-9.23261
ᐸᓯᑸ	-9.23271
ᓇᐃᑕ	-9.23665
ᐁᔑᒋᑫ	-9.23712
ᐌᐱᓂ	-9.23763
ᐅᒋᒋᓭ	-9.23844
ᑳᓂᑖ	-9.23939
ᑕᒣ	-9.24495
ᑕᐙᐙ	-9.24692
ᐌᔫᓯᒥ	-9.24858
ᐊᑐᒫ	-9.24871
ᐃᔑᒋᑫᔮ	-9.24967
ᓃᑳ	-9.25048
ᑭᑫᑕᓰ	-9.25076
ᒪᒋᐊᔭᐋ	-9.25078
ᐙᐸᒫᐙ	-9.25284
ᑰᔮ	-9.25523
ᓇᑴᑕ	-9.2584
ᐃᔑᒋᑫᔦ	-9.26292
ᐱᐅᒋ	-9.26449
ᐁᓈᓴᒦ	-9.26471
ᓇᒪᑕᐱ	-9.26471
ᒫᒥᑲᐎ	-9.26473
ᑭᑭᓄᐊᒪᐙ	-9.26593
ᐁᔑᓈᑾ	-9.26603
ᐱᐴ	-9.26833
ᑳᑭᑭᓄᐊᒫᑫ	-9.26898
ᐅᑖᐱᓂ	-9.27136
ᑌᐱᓇ	-9.27805
ᒨᔥᑭᓀ	-9.28095
ᑭᑎᑳᓀ	-9.28114
ᐃᑭᑑᒪᑲ	-9.28178
ᒥᓴᐙ	-9.28179
ᐱᓈ	-9.2865
ᑲᐎ	-9.28674
ᑎᐙ	-9.29037
ᐱᓯᑕ	-9.29124
ᑫᑮ	-9.29186
ᑳᐃᑯ	-9.29198
ᐁᐲᒋ	-9.29835
ᐃᔅᕒᐃᔭᓬᐊ	-9.29884
ᓅᑌᓭ	-9.29908
ᐅᐱᒫᑎᓯᐎ	-9.3041
ᐎᓈ	-9.30526
ᓬᐊ	-9.30615
ᑸ	-9.3147
ᐅᑕᓄᑮᐋᑲᓇ	-9.31472
ᐊᔓᑕᒫᑫ	-9.31472
ᒣᕒᐃ	-9.31473
ᑳᑮᐃᑭᑐ	-9.31474
ᔕᐌᓂᒥ	-9.31475
ᐃᔑᓂᔕᐙᑲᓇ	-9.31521
ᑌᐺᔦᑕ	-9.31579
ᓈᑯᑑ	-9.31677
ᐁᔑᓈᑯᓯ	-9.31828
ᐁᐊ	-9.3194
ᑭᐐᑕᒪᐎ	-9.32429
ᒪᓂᑑ	-9.33206
ᐅᓄᐌᓂᐗ	-9.33283
ᐙᐸᑕᒧᐙ	-9.33392
ᐐᐸ	-9.34111
ᐲᑎ	-9.3423
ᓂᐐ	-9.34501
ᑳᐊᓂ	-9.34518
ᓃᐎ	-9.34591
ᓵᑭᐃ	-9.3474
ᒉ	-9.34774
ᑕᐱ	-9.34869
ᑰᐎ	-9.34909
ᒣᐎᔕ	-9.34951
ᓵᑲᐊ	-9.34959
ᐌᑕ	-9.34986
ᓂᑳᑌᓂ	-9.35038
ᐱᒫᑎᓯᐎᓂ	-9.35054
ᐸᑴᔑᑲᓇ	-9.35237
ᓂᑎᔑ	-9.35503
ᐅᓂᔑᔑ	-9.35636
ᑎᐯᒋᑫ	-9.35747
ᑲᑴᒋ	-9.3585
ᐱᒫᑎᓯᓂ	-9.35915
ᑎᐯᑖᑯᓯ	-9.35987
ᒋᐃᔖ	-9.36525
ᑭᑭᓄᐃᑫ	-9.36736
ᔪ	-9.36736
ᐅᑭᔐᐙᑎᓯᐎ	-9.36746
ᐐᑾᑎ	-9.36767
ᐐᓱᐎ	-9.36983
ᓅᑕᒧᐙ	-9.37206
ᑆᓬᐊ	-9.37214
ᒥᑲᐙ	-9.37746
ᔮᐹ	-9.37999
ᐙᑳᐃᑲᓂ	-9.38139
ᐅᑮᐱ	-9.38367
ᓯᑑ	-9.38454
ᐊᐌᓀᓇ	-9.38494
ᐊᒀ	-9.38543
4	-9.38554
ᒦᓂᑰᐎᓯ	-9.38559
ᐱᔑᔑ	-9.38572
ᑲᑭᑐ	-9.38605
ᐅᑯᓯᓯᒫ	-9.39057
ᒥᓈ	-9.39231
ᒋᑫᐎ	-9.39354
ᒋᐅᑌᐺᑕᒨ	-9.39433
ᐱᑕᑯᔑ	-9.39966
ᐅᑖᐱᓈ	-9.40198
ᑎᐱᓇᐌ	-9.40404
ᓃᔣᓱ	-9.40449
ᑭᑭᔥᑳᑯ	-9.40468
ᑮᒨᒋ	-9.4084
ᐋᑯᓯ	-9.4094
ᐁᑮᐃᔖ	-9.40955
ᑳᓵᑭᐃ	-9.41101
ᔨ	-9.41973
ᑭᑑᒋ	-9.42197
ᒎ	-9.42272
ᐋᔑᑌᔮᑎ	-9.42293
ᐗᔦᔑ	-9.42307
ᐃᔥᒀᑌ	-9.42486
ᒎᓴ	-9.42676
ᑳᑎᐯᑕ	-9.42815
ᐃᔥᒀᓭ	-9.43001
ᒋᐐᒋ	-9.43032
ᑭᑭᓄᐊᒫ	-9.43651
ᑑᑕᐙ	-9.43699
ᐅᑎᑭᑐᐎ	-9.44059
ᐅᑕᑳᓀᓯ	-9.44216
ᔔᒥᓈᐳ	-9.44216
ᐊᐯᓂᒧ	-9.44216
ᐙᑳᐃᑲ	-9.44287
ᓂᐳᐎᓂ	-9.44361
ᓂᓯᓐ	-9.4453
ᐃᓀᓂᒥ	-9.44629
ᐳ	-9.44814
ᐅᑮᐃᓈᐙ	-9.44879
ᓇᑲᓂ	-9.45193
ᓀᑖ	-9.45297
ᐊᒑ	-9.45578
ᑭᒋᑲ	-9.45882
ᒥᓀ	-9.45967
ᐅᐅᐌᓂ	-9.46083
ᐅᑎᓀᑕᒧᐎ	-9.46177
ᑌᐺᔦᓂᒥ	-9.46177
ᑕᑶᔑ	-9.46177
ᓂᐳᓂ	-9.46563
ᐅᑕᔮ	-9.46687
ᒋᑕᔑ	-9.4675
ᐅᔑᒋᑳᑌ	-9.47028
ᑎᐹᒋᒧᐎ	-9.4708
ᑕᐅᒋ	-9.47402
ᐱᒫᑎᓰᒪ	-9.47596
ᐱᓵᓂ	-9.47697
ᐅᑕᓄᑮ	-9.48178
ᒪᑗ	-9.48217
ᐁᑮᐃᑯ	-9.48598
ᐱᓬᐊ	-9.48723
ᓇᑴᑕᐙ	-9.4882
ᑭᑫᑕᒧ	-9.49371
ᓵᑭᐃᑎ	-9.49399
ᓀᓂᒫ	-9.4985
ᓰᑲᐊᑖ	-9.50151
ᑌᐺᑕᐙ	-9.50208
ᐁᔮᓂ	-9.50215
7	-9.50217
ᓵᑭᐃᐌᐎ	-9.5029
ᑑᑕᒧᐙ	-9.5038
ᑳᐊᐲᒋ	-9.50427
ᑳᑮᐃᔑᒋᑫ	-9.5052
ᓇᑲᓈ	-9.50545
ᓅᑖᑯ	-9.5072
ᐊᔮᔮ	-9.50834
ᑭᓉ	-9.50871
ᑮᐃᔥᒀ	-9.51214
ᑮᐃᔑᒋᑫ	-9.51952
ᒬ	-9.52301
ᔑᒫᑲᓂᔒᐎᑭᒫ	-9.52302
ᒫᑭᔖ	-9.52308
ᐅᐐᓱᐎᓂ	-9.52318
ᑎᐹᒋᒥ	-9.52319
ᑭᑎᒫᑭ	-9.52349
ᓈᓂᐗᓂᓂ	-9.5256
ᒥᓄᒋᑫ	-9.52682
ᐐᒌᐗ	-9.52689
ᑭᑫᑕ	-9.52819
ᐸᑭᑎᓂᑫ	-9.53189
ᐁᓀᑕ	-9.5366
ᑲᒀᑕᑭᐃ	-9.53779
ᑾᔭᒀᑎᓯ	-9.53826
ᐱᓱ	-9.54084
ᐁᑎᓄᐎ	-9.54086
ᐊᓄᑮᐋᑲ	-9.54128
ᔓ	-9.54136
ᒫᓇᒑᓂᔐ	-9.54428
ᐊᔓᑕᒪ	-9.54439
ᒐᔭᐄ	-9.54444
ᐸᑯᓭᓂᒥ	-9.54468
ᑕᓄ	-9.54507
ᑲᒀᑕᑭ	-9.54727
ᑕᒫᓱ	-9.5479
ᓂᐳᐎ	-9.54847
ᐁᑮᐊᐎ	-9.55116
ᐊᔮᔭ	-9.55122
ᒥᓄᓭ	-9.55177
ᐱᑑ	-9.55208
ᑾᔭᑯ	-9.55446
ᐸᑴᔑᑲᓂ	-9.55456
ᐙᐸᒥᑯ	-9.55772
ᐊᓇᒥᐁᐎᑲᒥᑯ	-9.56206
ᐁᔑᓂᑳᓱ	-9.56602
ᐅᑑᓇᔓᐌᐎ	-9.56606
ᑲᑴᑗ	-9.56617
ᑲᓂᓂ	-9.56894
ᑳᑑᑕ	-9.569
ᓂᔑᐗᓈᑕ	-9.57007
ᐅᑮᐙᐸᒫ	-9.57178
ᐐᒋᐋ	-9.57229
ᐅᑎᓯᑯ	-9.57265
ᐙᐸᑕᐃ	-9.57274
ᕒᐄ	-9.57301
ᐁᐃᓈ	-9.57599
ᑕᒫᑫ	-9.5769
ᐲᑑ	-9.57829
ᑎᔦ	-9.58013
ᒥᑣ	-9.5852
ᑮᐊᔮᐗ	-9.58733
ᐱᒌᓇ	-9.58829
ᐅᑌᐺᑕᒧᐎᓂ	-9.58833
ᑌᐺᑕᒧᐎ	-9.58888
ᒪᓈ	-9.58924
ᐹᐱ	-9.58926
ᐅᑎᑭᑐᐎᓂ	-9.59007
ᐅᓵᐎ	-9.59107
ᐱᓯᑕᐎ	-9.59182
ᐃᓀᓂᒫ	-9.59465
ᒣᑴ	-9.59891
ᐊᔮᒪᑲ	-9.60003
ᓭᑕ	-9.60247
ᐊᓇᒥᐁᐎᑭᒫ	-9.60809
ᐃᓇᓄᑮ	-9.61104
ᒥᑖᔑᓃᔑ	-9.61114
ᑕᑯᔑᓅ	-9.61208
ᐃᑣ	-9.61359
ᒫᒪᑳᒋᒋᑫᐎ	-9.61381
ᐅᑮᓇᑴᑕᐙ	-9.61388
ᒎᐎ	-9.61985
ᐃᓂᓃ	-9.62038
ᑎᐯᑕ	-9.62473
ᓂᔑᐗᓈ	-9.62619
ᐎᑲᒥᑯ	-9.63149
ᐅᔑᐲᐃᑳᑌ	-9.63423
ᐅᑕᓇᒥᐋ	-9.63423
ᒥᑯᔥᑳᑌᑕ	-9.63423
ᒪᔥᑲᐌᑕ	-9.63423
ᐅᓈᐸᒫ	-9.63426
ᐱᔑᒀᑎᓯ	-9.63426
ᓂᔑᐗᓈᑎᓯ	-9.63427
ᒋᐱᒫᒋᐃᐌ	-9.63443
ᓂᑑᒋ	-9.63576
ᐸᑴᔑᑲ	-9.64279
ᐃᔑᓈᑾᓂᓂ	-9.64557
ᐐᒋᐃᑯ	-9.64622
ᐃᓀᑖᑯᓯᐎ	-9.64864
ᐴᓯ	-9.65075
ᓇᑲᑕ	-9.65151
ᑳᐅᓂᔑᔑ	-9.65215
ᐐᑕᒫᑰ	-9.6523
ᒣᔥᑾ	-9.65809
ᑎᐸᐃᑫ	-9.65811
ᑌᐺᔦᑕᒧᐎ	-9.6582
ᑳᑎᐯᓂᒥᓇ	-9.65822
ᓇᓈᑯᒫ	-9.65829
ᑳᓃᑳᓂᓯ	-9.65875
ᓈᓈᑲᑕᐌᑕ	-9.65897
ᐊᐸᓀ	-9.66023
ᒪᔥᑲᐎᓰᐎ	-9.66192
ᐙᐸᑕᒣ	-9.66194
ᐅᓃᒑᓂᓯ	-9.66337
ᒪᒋᒋᑫ	-9.66452
ᓃᔣᒋ	-9.66493
ᐸᑭᑌ	-9.66688
ᑲᔥᑭᐁᐎᓯᐎ	-9.67031
ᐅᑭᒫᐎ	-9.67045
ᐅᔑᐲᐊ	-9.68224
ᐊᑖᐌ	-9.68267
ᐗᐐᑫ	-9.68442
ᓂᓵᐙ	-9.68443
ᐊᑾ	-9.68511
ᐌᐱᓇ	-9.68778
ᑎᐹᒋᒧ	-9.6901
ᑲᓅᓂᑰ	-9.69118
ᑮᔑᑯ	-9.69736
ᐃᓂᓇᑰ	-9.6984
ᑆ	-9.6988
ᑎᐯᓂᒥᑯᐙ	-9.69994
ᐊᓯᓐ	-9.70248
ᐅᓂᔑᔑᓂᓂ	-9.70387
ᔩ	-9.70404
ᒦᓂᓐ	-9.70552
ᐐᒌᐙᐙ	-9.70607
ᑳᐹᑏᓄ	-9.7064
ᒋᐊᓂ	-9.70646
ᑭᑮᐃᔑ	-9.70688
ᓃᑳᓀᑖᑯᓯ	-9.70743
ᔕᔒᐯᑕ	-9.70743
ᒫᒪᑳᑌᑕ	-9.70744
ᑭᑫᑕᒣ	-9.70854
ᓬᐄ	-9.70897
ᒌᒫᓂ	-9.71341
ᐅᑎᐹᒋᒧᐎ	-9.71356
ᑎᐹ	-9.71712
ᔥᑲᐎ	-9.71957
ᓅᑌ	-9.72634
ᐱᓯᑲ	-9.73076
ᐅᑎᓈᑯᓂᑫᐎ	-9.73307
ᐅᓃᑳᓂᓰ	-9.73309
ᐌᒀ	-9.73513
ᐊᔮᒀᒥᓯ	-9.73696
ᐅᒪᔥᑲᐎᓰᐎ	-9.73788
ᐋᐸᑕ	-9.74059
ᐅᑎᓈ	-9.7422
ᑭᒋᐅᑭᒫᐎ	-9.74504
ᓂᑕᔮ	-9.74597
ᑑᑕᒫ	-9.75272
ᑶ	-9.75937
ᑎᐸᐊᒪᐙ	-9.75938
ᔕᔒᐱᑕ	-9.75939
ᑎᐸᐃᑲ	-9.75941
ᑭᔒᐌ	-9.75945
ᒪᒥᔑ	-9.75948
ᑯᓇᔦ	-9.75981
ᑭᑫᒋᑳᑌ	-9.76003
ᐃᔑᐎᓂ	-9.76359
ᐃᑭᑐᔭ	-9.764
ᐁᔑᓈᑾᓂᓂ	-9.76534
ᒑᑭ	-9.76893
ᐅᒋᒋᓭᓂ	-9.77906
ᓈᓯᑲ	-9.7796
ᓂᑯᓯ	-9.7823
ᐃᔅᕒᐃᔭᓬ	-9.78466
ᐃᑭᑐᔮ	-9.78513
1	-9.78639
ᒎᑏᔭ	-9.78641
ᐗᓂᔥᑳ	-9.78646
ᐸᑭᔑ	-9.78666
ᐅᓈᐸᒥ	-9.78673
ᒪᒀ	-9.78941
ᐱᓇᒫ	-9.79568
ᑑᑕᒣ	-9.80595
ᐅᐐᔭᐎ	-9.80772
ᒥᓉᑕᒧ	-9.81046
ᒥᓍᐸᒥ	-9.81243
ᐅᑎᐹᒋᒧᐎᓂᓃᒪ	-9.81419
ᐙᓴᑯᓀᒋᑲ	-9.81419
ᐋᒋᑯ	-9.81483
ᐃᓇᑭᒥ	-9.81828
ᑭᑎᑳᓇ	-9.82017
ᑭᑫᑕᒫ	-9.82046
ᐃᓈᑎᓯ	-9.82108
ᑎᐱᑲ	-9.82306
ᑲᓅᓂᑯ	-9.82529
ᑲᑴᒋᒫᐙ	-9.82783
ᓀᑖᑾᓂᓂ	-9.82875
ᓯᑌ	-9.83118
ᓃᔣ	-9.83487
ᐸᑭᑎᓈᓱᐎ	-9.84173
ᐊᐴᔥᑫ	-9.84276
ᐱᒫᒋᐋ	-9.84293
ᐅᓂᒌ	-9.84314
ᓂᔑᐗᓈᒋᐃ	-9.84733
ᐐᓯᓂᐙ	-9.84828
ᐊᓄᑮᐎ	-9.84978
ᐃᔑᐎᓈ	-9.85025
ᐱᑮᐌ	-9.8553
ᒥᓍᐸᑕ	-9.85884
ᐸᐹᒥ	-9.86104
ᔔᓂᔮᓴ	-9.8618
ᐐᒋᑭᐌ	-9.86308
ᒌᑫᑕ	-9.86511
ᐃᔑᒋᑫᔭ	-9.86642
ᐊᔮᒀᒥ	-9.8679
ᑌᐺᒪᑲ	-9.87093
ᒐ	-9.87193
ᐃᑭᑐᐎᓐ	-9.87212
ᐹᕒᓇᐸ	-9.87217
ᐱᑾᑕᑲᒥ	-9.87217
ᑌᐺᔦᓂᒫ	-9.87217
ᔒᑫᓂᒥ	-9.8722
ᐐᒌᑎ	-9.87224
ᐅᔥᑭᓃᑭᑴ	-9.8725
ᔖᐳ	-9.87267
ᐊᓂᔖ	-9.87395
ᐙᐸᒪ	-9.87555
ᒧᔐ	-9.88323
ᐸᑭᓯ	-9.89308
ᑭᑫᑕᒧᐙ	-9.89475
ᑯᓰᐙ	-9.89478
ᑎᐯᑖᑯᓯᐙ	-9.89513
ᑭᑫᑖᓈᐙ	-9.89537
ᒦᓂᓇ	-9.89756
ᑸᐎᓭ	-9.90248
ᑎᐱᓇᐌᐎᓯ	-9.90252
ᐅᑎᔑᒋᑫᐎ	-9.90261
ᑳᐅᔫᓯᒥ	-9.90265
ᒥᓂᒀᑲ	-9.90266
ᒨᔥᑭᓀᔥᑳᑯ	-9.90275
ᓀᐱᒋ	-9.90283
ᑭᑫᑕᒨ	-9.90327
ᓀᓂᒥ	-9.90328
ᐊᒑᑾ	-9.90333
ᓃᔓ	-9.90534
ᑭᑫᑖᑾ	-9.90549
ᐅᒥᔅᑸ	-9.90578
ᐃᓀᑕᒧᐙ	-9.90596
ᐐᔭᐎᒫ	-9.9112
ᒦᓂᓀ	-9.91239
ᐃᓂᓃᐎ	-9.92027
ᑲᓇᐙᐸᒫ	-9.92469
ᐃᑳᑌ	-9.9283
ᓇᔓᐌ	-9.92912
ᑭᓇᑕᐌᓂᒥ	-9.93373
ᑎᐸᐊᒫ	-9.93375
ᑲᔥᑮᑎᐱᑲ	-9.93376
ᑮᐹᑏᓄᐗ	-9.9338
ᑲᓇᐌᓂᒥ	-9.93383
ᐐᒋᐃᐌ	-9.93384
ᐸᑭᑎᓂᑎᓱ	-9.93405
ᒥᑕᑎ	-9.93406
ᒦᑲᓈ	-9.93504
ᓂᔑᐌ	-9.93532
ᐐᒋᑭᐌᔭ	-9.93613
ᐅᑭᑭᔥᑭᑲ	-9.9368
ᓂᑮᐙᐸᒫ	-9.93684
ᐅᑮᐅᑖᐱᓈ	-9.93809
ᐊᓄᑮᐋᑲᓇ	-9.93948
ᑲᑴᒋᒥᑯ	-9.94425
ᐅᑖᐎᓂ	-9.94475
ᓵᑭᐃᐌ	-9.94818
ᑫᑮᓇᐎ	-9.94853
ᐋᐱᑕ	-9.94942
ᒥᑖᔑ	-9.95508
ᓂᑲᒧ	-9.95947
ᓀᑕᒣ	-9.96212
ᒥᔅᑸ	-9.96249
ᐴᓀᑕᒪᐎ	-9.96599
ᓂᑎᓀᑕ	-9.9661
ᐅᑭᒋᓂᑭ	-9.96612
ᑭᒨᑎ	-9.96617
ᐸᑭᒌ	-9.96633
ᐅᑌᐃ	-9.96731
ᐗᓂᔑ	-9.96745
ᐃᓇᑭᒫ	-9.96806
ᑲᕒᐄ	-9.9686
ᑭᑭᓄᐊᒪᐎ	-9.96911
ᒉᑲ	-9.96925
ᑳᐃᒋᑳᑌ	-9.96979
ᐊᓇᒥᐁᑕᐙ	-9.98446
ᐃᓇᑌ	-9.98974
ᑭᒋᐊᓇᒥᐁᐎᑲᒥ	-9.99493
ᑕᒪᐗ	-9.99525
ᐊᐱᓅᒌ	-9.999
0	-9.99922
,000	-9.99932
ᐅᓈᐯᒥ	-9.99932
ᑴᑳᑎᓯ	-9.99932
ᐊᑕᐌᓂᒥ	-9.99936
ᔕᐌᓂᒫ	-9.99951
ᑭᒋᐊᐱᐎᓂ	-9.99977
ᐲᒋᓂᔕᐅ	-9.99979
ᐊᒸ	-10.0006
ᓵᒥᓈ	-10.0009
ᑕᔑᑕᒫ	-10.0023
ᐆᑌᓇᐌ	-10.0039
ᑮᔑᑑ	-10.0059
ᓂᓯᒥᓐ	-10.0079
ᑲᔥᑭᐋ	-10.0116
ᓬᐋ	-10.0116
ᐊᒑᑯ	-10.0184
ᐙᐸᒥᑰ	-10.022
ᓇᒪᐙ	-10.0249
ᑭᑫᑕᓯ	-10.0321
ᐃᓬᐋᐃᒐ	-10.0338
ᓈᓴᕒᐃ	-10.0338
ᒫᓇᒑᓂᔑ	-10.0338
ᐅᑑᑭᒫᒪ	-10.0338
ᐁᔑᐲᐃᑳᑌ	-10.0338
ᑲᑮᑖᐎ	-10.0338
ᑎᐹᒋᒫ	-10.0339
ᐗᑎᑾ	-10.0339
ᐁᑎᐱᑲᓂ	-10.0345
ᑮᐗᓂᒧ	-10.0347
ᐅᕒᐆᒥ	-10.0363
ᐸᑭᑎᓈᓱ	-10.0372
ᓈᓯᑲᐎ	-10.0379
ᒦᑳᑎ	-10.0406
ᔂᓬ	-10.0533
ᐙᐸᑕᒪ	-10.0544
ᐯᐯᔑ	-10.0647
ᑭᑭᔥᑭᑲ	-10.0661
ᑎᐸᐊᒪᐎ	-10.0695
ᓲᑭᑌᐁ	-10.0696
ᐙᐹᐱᑯ	-10.0696
ᑭᑌᐃᐙ	-10.0698
ᐃᓀᓂᑎᓱ	-10.0698
ᑲᔥᑭᑕᒫᓱ	-10.07
ᐸᑯᓭ	-10.0701
ᑲᑮᑴ	-10.0706
ᓵᑲᐃᑲᓃ	-10.0706
ᓰᑲᐊᑖᓱ	-10.0707
ᐊᓉᐱ	-10.0729
ᓂᓱᑮᔑ	-10.0735
ᐌᔩ	-10.0743
ᒌᑫᑕᒧ	-10.0798
ᐸᓂᓂ	-10.0851
ᑎᐯᓂᒥᓀ	-10.0854
ᐃᓈᑯᓂᑫ	-10.0935
ᐅᒋᑎᐯᑖᑯᓯ	-10.0937
ᓂᔥᑳᑎᓯ	-10.1055
ᓶ	-10.1066
ᐅᔑᐲᐃᑲ	-10.1066
ᐄᒋᐸᑮ	-10.1066
ᑲᓇᐌᓂᒫ	-10.1066
▁¦12	-10.1066
ᐋᔩᒋ	-10.1066
ᐱᔑᒀ	-10.1067
ᐅᑎᒀᓂ	-10.1067
ᑳᐃᓇᑌᓂ	-10.1067
ᐸᒥᐃ	-10.109
ᐅᓇᐱ	-10.1123
ᔥᑳᑰ	-10.1178
ᐸᑲᒥ	-10.1182
ᐊᔓᑕᒫᑎᐎ	-10.1334
ᐊᓈᒥᒥ	-10.1337
ᑭᑫᓂᒥᑰ	-10.1348
ᐅᔫᓯ	-10.1448
ᒫᓇᒑᓂᔕ	-10.145
ᐅᒑᓂᒥᓯ	-10.145
ᐐᑑᑳᓱ	-10.145
ᐱᓈᓯᑳᑰ	-10.145
ᓂᐴᒪᑲ	-10.1451
ᐅᐱᒣ	-10.1451
ᒥᒋᐯᔑᑯ	-10.1461
ᐎᑭᒫ	-10.1461
ᐅᔑᐲᐊᒪᐎ	-10.1465
ᑾᔭᑯᒋᑫ	-10.1466
ᑭᑎᔑᒋᑫ	-10.1473
ᐐᒌᐎᑰ	-10.1493
ᑭᑌᓂᒥ	-10.1494
ᐱᓵᓂᓯᐎ	-10.1505
ᑳᐙᐱᓯ	-10.1534
ᑮᐃᔑᓂᑳᓱ	-10.1563
ᐅᐐᔭ	-10.1636
ᐅᓀᑕ	-10.1664
ᑲᑮᑖᐌᑕ	-10.1849
ᐅᓇᔓᐙ	-10.185
ᐸᒦᑖᑫ	-10.185
ᐱᑾᑎᓈ	-10.185
ᐌᓂᔑᔑ	-10.185
ᐸᑭᑎᓇᒪᐙ	-10.185
ᑭᑑᔑᐲᐊᒪᐎ	-10.1851
ᒦᑴᒋᐌᓂᒫ	-10.1852
ᒥᓋ	-10.1853
ᐃᔑᐲᐃᑫ	-10.1854
ᓇᐃᓂᑏᐎᑲᒥᑯ	-10.1858
ᑳᐃᔑᓂᑳᑌ	-10.1921
ᑲᑳᓱ	-10.1938
ᐊᓈᒥ	-10.1972
ᐅᑎᔑᓂᔕᐙᑲᓇ	-10.2267
ᐋᐃᓭᔭ	-10.2267
ᐸᒀᓀᑲᒥ	-10.2267
ᐹᑏᓇᑎ	-10.2267
ᑭᑭᓇᐙᑕᔕᑫᔓ	-10.2267
ᔛ	-10.2267
ᐴᓀᑕᒪᐙ	-10.2267
ᓰᑲᐊᑖᑫᐎᓂᓂ	-10.2267
ᑎᐸᐃᑲᓀᔮ	-10.2267
ᑌᐺᔦᑖᑯᓯ	-10.2267
ᐊᑖᐙᑫ	-10.2267
ᕒᐃᔭ	-10.2268
ᑲᒥᑲᓂᓂ	-10.2274
ᐐᓀᑕ	-10.2274
ᐃᑎᐗ	-10.2277
ᒥᑖᓱ	-10.2294
ᑲᒀᑕᑭᐃᑰ	-10.2322
ᓇᓈᑕ	-10.2377
ᓃᒋᑭᐌ	-10.2555
ᑲᓇᐙᐸᒥ	-10.2601
ᐐᑕᒪ	-10.2672
ᓈᑲᑕᐌᑕ	-10.2687
ᐅᑌᒐᓬᐃᒪ	-10.2702
ᐗᓇᑯᔕ	-10.2702
ᑲᑮᐹᑎᓯ	-10.2702
ᐊᑯᓴᑲᐅ	-10.2702
ᓃᒥᑕᓇ	-10.2702
ᐅᒪᒋᑑᑕᒧᐎᓂᐙ	-10.2702
ᑭᐴᔔᐃᑯᐙ	-10.2702
ᐅᓵᐙᐱᑯ	-10.2702
ᑰᐹᓯᓈ	-10.2702
ᑳᑕᓶᐙᓇᑭᓯ	-10.2702
ᑭᒋᐅᔑᐲᐃᑫᐎ	-10.2702
ᑮᐗᔥᑴ	-10.2702
ᐋᓇᐌᓂᒥ	-10.2702
ᐗᐙᓀᑕ	-10.2702
ᐁᓀᑖᑯᓯ	-10.2702
ᑲᔥᑭᒋᑫ	-10.2703
ᑲᑮᑖᐌᑕᒧᐎ	-10.2703
ᐱᑾᒋᐊᔭᐋᐎᔕ	-10.2704
ᐲᑎᑲᓂ	-10.2705
ᒥᑕᑲᒥ	-10.2706
ᐋᐃᓯ	-10.2706
ᐅᑯᓯᓯᒥᑯ	-10.2711
ᑎᐹᑐᑕ	-10.2719
ᑳᓇᑲ	-10.2723
ᐐᒌᐌ	-10.2767
ᑭᑫᑕᒪ	-10.2791
ᑾᔭᒀᑎᓯᐎ	-10.2827
ᐌᓅᒋ	-10.3013
ᒋᑲᔥᑭ	-10.302
ᒫᒪᑳᒋᒋᑫ	-10.3099
ᔔ	-10.3141
ᐊᓇᒥᑑ	-10.3156
ᔔᒥᓈᑎ	-10.3156
ᒪᔥᑲᐌᑖᑯᓯ	-10.3156
ᐅᔕᐌᒋᑫᐎ	-10.3156
ᑳᐐᒋᐅᑌᐺᑕᒨᒥ	-10.3156
ᐅᔥᑮᔑᑯ	-10.3156
ᐴᓀᑕᒫ	-10.3157
ᑮᐊᓅᑮ	-10.3157
ᑎᐹᑯᓈ	-10.3157
ᑭᐱᒫᑎᓯᐎᓂᐙ	-10.3157
ᐅᑎᔑᒋᑫᐎᓂᐙ	-10.3157
ᐲᑯᓇ	-10.3162
ᐸᑭᑎᓇᒪᐎ	-10.3162
ᔔᒥᓂ	-10.3166
ᑌᓴᐱ	-10.3171
ᑭᑎᑳᑕ	-10.3176
ᒫᒋᓭ	-10.319
ᑭᔥᑮᔑ	-10.3199
ᑯᑖᓀᑖᑾ	-10.3212
ᐁᐋᐎ	-10.322
ᐱᓯᑕᒧ	-10.3252
ᐸᓂᐅ	-10.3416
ᐅᑭᔐᒪᓂᑑᒥ	-10.349
ᑭᔐᐙᑎᓯ	-10.363
ᑭᐸᐅᑏᐎᑲᒥ	-10.3632
ᓃᑕᓇᒥᐋ	-10.3632
ᐅᑕᓇᒥᐁᐎᑲᒥᑯ	-10.3632
ᐴᑖᒋᑲ	-10.3632
ᓵᐃᓬᐊ	-10.3632
ᒪᒫᔒ	-10.3633
ᐸᑯᐲ	-10.3635
ᑲᑲᓅᓂᑎ	-10.3635
ᐊᓄᑮᑕᐗ	-10.3635
ᐙᐱᔥᑭ	-10.3639
ᐁᑎᔮ	-10.3639
ᑲᔥᑮᑮᐎ	-10.3686
ᑎᐯᑕᒥᓂ	-10.3714
ᒥᓍᐸ	-10.3886
ᑳᒎᐎᐎ	-10.3951
ᐊᓄᑮᑕᐙ	-10.3993
ᑮᒋᑭᐌ	-10.4003
ᐊᑕᐙᐸᒥ	-10.402
ᐅᓃᒑᓂ	-10.402
5	-10.4132
ᐅᑌᒐᓬᐃᒥ	-10.4132
ᐅᑕᔓᑕᒫᑫᐎ	-10.4132
ᑭᑌᐺᑕᒧᐎᓂᐙ	-10.4132
ᐅᑑᑭᒫᒥ	-10.4132
ᓃᑳᓇᔭᐄ	-10.4132
ᓂᑑᑭᒫ	-10.4133
ᒪᓂᑑᑳᓇ	-10.4133
ᐊᔭᐋᐎᔕ	-10.4135
ᑫᑌᐃᓈᑎᓯᐎ	-10.4135
ᐋᓉᑕ	-10.4144
ᑳᓂᐳᐙ	-10.4147
ᐊᓇᒥᐁᑕᐎ	-10.4148
ᐌᑖᑾᓂᓂ	-10.4155
ᑲᔥᑮ	-10.4184
ᓇᓇᐊ	-10.4294
ᑮᐱᐅᒌ	-10.4304
ᒋᒥᓄᐐᒌ	-10.4474
ᐃᓀᑖᑯ	-10.4519
ᐅᑕᒑᑯ	-10.4538
ᑭᑫᑌᔭᐋᒥᓈᐸᓃ	-10.4659
ᐃᔥᐯᑖᑯᓯ	-10.4659
ᐱᓵᓀᑕᒧᐎ	-10.4659
ᓬᐋᓴᕒᐊ	-10.4659
ᐊᓇᒥᐁᐙᑎᓯ	-10.4659
ᐙᐱᔥᑮᑭ	-10.4659
ᓂᑎᑭᑐᐎ	-10.4659
ᐃᓍᓂᑎᓱ	-10.4659
ᐅᒻᐺ	-10.4659
ᔒᑫᓂᒫ	-10.4659
ᐲᑎᑲᓈ	-10.466
ᐐᓴᑫᑕ	-10.466
ᓂᓯᑕᐎᓇ	-10.4664
ᐁᑕᓱᐯᔑᑯ	-10.4665
ᐊᔭᔮ	-10.4666
ᐃᑰᐎᓯ	-10.4667
ᒥᓉᑖ	-10.4681
ᔣ	-10.5194
ᐱᑾᒋᐊᔭᐋᐎ	-10.5211
ᐃᔑᑮᔗᐎ	-10.5214
ᐱᓀᔒᔕ	-10.5214
ᐸᔑᐸᐃᑫᐎᑯᒫ	-10.5214
–	-10.5214
ᑲᐸᕒᓂᔭ	-10.5214
ᒪᒦᒀᓂᑎᓱ	-10.5214
ᓭᓴᕒᐄᔭ	-10.5214
ᒎᑏᔮ	-10.5214
ᒥᓴᐌᒋᑫ	-10.5214
ᑲᑮᓇᐎᔥᑭ	-10.5214
ᐊᑕᐌᓂᒫ	-10.5214
ᐱᒥᐎᑑ	-10.5214
ᐱᒥᔑᓂᓂ	-10.5214
ᐲᒋᓂᔕᐙ	-10.5215
00	-10.5215
ᑕᑯᔑᓄᐙ	-10.5215
ᐋᐸᑎᓯ	-10.5215
ᐅᑌᐺᔦᑕᒧᐎᓂ	-10.5215
ᑭᑭᔐᒪᓂᑑᒥᓈ	-10.5215
ᒪᔥᑯᓰ	-10.5215
ᓇᓈᑯᒧ	-10.5216
ᐅᓂᔥᑳᑎᓯᐎ	-10.523
ᐗᓂᑑᑕ	-10.5424
ᐃᔑᐌᐱ	-10.5769
ᑮᒋᐱᒫᑎ	-10.5802
ᔑᒫᑲᓂᔒ	-10.5802
ᐅᓃᑭᐃᑰ	-10.5802
ᑲᓅᒋᑫᑕᒪᐙ	-10.5802
ᒦᒋᓈᑳᑌ	-10.5802
ᐅᐐᑎᑫᒫᑲ	-10.5802
ᐅᒋᒌᑾᓃᑕ	-10.5802
ᐅᑖᐱᓇᒪᐙ	-10.5803
ᑮᐙᒋᑴ	-10.5803
ᑭᐐᔭᐎᐙ	-10.5804
ᔔᒥᓇ	-10.5805
ᐅᓯᑎ	-10.5807
ᐅᑕᐗᑳ	-10.5809
ᓂᓯᑐᑖ	-10.5812
ᒫᓀᑕᒧ	-10.5813
ᐋᐌᒋᑲ	-10.5818
ᐁᑭᑑᒪᑲ	-10.5831
ᑳᑌᐺᑕᓯ	-10.6024
ᓵᑲᐃᑲ	-10.6407
ᒣᓬᑭᓯᑌ	-10.6427
8	-10.6427
ᐊᑯᓴᑲᐙ	-10.6427
ᐱᒥᓂᔕᐊ	-10.6427
ᑳᒫᒪᐌᓄ	-10.6427
ᐐᓯᓃᒫ	-10.6427
ᐸᐸᔕᔐᐅ	-10.6427
ᐸᑭᓈᑫ	-10.6427
ᐅᑾᔭᒀᑎᓰᒪ	-10.6427
ᑰᑰᔕ	-10.6428
ᓵᒐᓰ	-10.6428
ᓇᑴᑖᑯ	-10.6428
ᓇᑭᒋᑳᓱ	-10.6428
ᐅᑎᔑᓂᑳᓱᐎᓂ	-10.6428
ᒫᒌᔮᔑ	-10.6428
ᔖᑰᒋᑣ	-10.6428
ᐴᓀᒋᑳᑌ	-10.6428
ᑭᓅᔐ	-10.6428
ᐅᔒᑖ	-10.6428
ᐅᑕᔭᐄᒥ	-10.6429
ᒥᓈᑾᐅ	-10.6429
ᒫᕒᑕ	-10.6429
ᑭᑫᓂᒪ	-10.643
ᑮᐋᐸᒋᐋ	-10.6432
ᐐᒋᐊᔮᒥ	-10.6437
ᐊᓅᓈ	-10.6438
ᒥᔕᑳ	-10.6448
ᐃᔑᓂᑳᓈ	-10.6465
ᐊᔭᐋᐎ	-10.6996
ᑭᓀᐱᑰ	-10.7094
ᓅᑌᔅᑲᑌ	-10.7094
ᓭᑲᕒᐋᔭ	-10.7094
ᐃᔑᓂᔕᐊᒪ	-10.7094
ᒫᓯᑑᓂᔮ	-10.7094
ᐴᓂᓭᓯᓂᓂ	-10.7094
ᑎᒫᔅᑲ	-10.7094
ᒥᒋᓇᐌᓯ	-10.7094
ᑫᐃᔥᒀᓭᓯᓄ	-10.7094
ᒪᓂᔑᑫ	-10.7094
ᐸᑴᐱᓈ	-10.7094
ᑭᐸᐅᑰᔮ	-10.7094
ᐯᑳᑎᓯ	-10.7094
ᐌᓅᑕᓂᓂ	-10.7094
ᒞᕒᑕ	-10.7094
ᐊᐲᑌᑖᑾ	-10.7094
ᓈᓈᑲᒋᐃ	-10.7094
ᐅᑕᓄᑮᐋᑲᓂ	-10.7094
ᑫᓅᑕᒪᐙ	-10.7095
ᓂᑮᓅᑕᐙ	-10.7095
ᑭᑫᓂᑎᓱ	-10.7095
ᓂᑮᓅᑖ	-10.7095
ᐐᒋᐊᔮᒫ	-10.7095
ᐅᓀᓂᒥᑯ	-10.7096
ᐸᑯᓭᓂᒫ	-10.7096
ᑮᐲᔖᐗ	-10.7096
ᐐᓈᑎᓯ	-10.7098
ᐃᓉᐎ	-10.7104
ᐅᑎᑎᓈ	-10.7106
ᑳᓵᑭᐊ	-10.711
ᐅᓇᑭᒥ	-10.7113
ᑲᓇᐌᑖ	-10.7392
ᐅᕒᐆ	-10.7755
ᑗ	-10.7788
ᐅᔥᑭᓃᑭ	-10.7801
ᑎᔑᓂᑳᓱᐎ	-10.7808
ᐐᑕᓄᑮᒫᑲ	-10.7808
ᑲᒀᑕᑫᑕ	-10.7808
ᐄᐸᕒᐆ	-10.7808
ᑫᑎᒫᑭᓯ	-10.7808
ᑭᑭᓇᐙᑕᔕᑫᔑᑲᓂᐎ	-10.7808
ᑭᑭᓇᐙᑕᔕᑫᔣ	-10.7808
ᔾ	-10.7808
ᒫᔑᒥᑕᑎᒨ	-10.7808
ᔀ	-10.7808
ᑳᒫᐗᑑᓈ	-10.7808
ᑮᒫᒪᑳᑌᑕᒨ	-10.7808
ᓂᔣᓱ	-10.7808
ᐅᒪᒋᑑᑕᒨ	-10.7809
ᐅᐱᔥᑳ	-10.7809
ᐅᑭᑭᓄᐊᒪᐙᑲᓂ	-10.7809
ᑭᑎᑭᑐ	-10.7809
ᓈᑐᓀ	-10.7809
ᐐᑕᐱᒫ	-10.7811
ᓇᓈᑯᒥ	-10.7818
ᑲᐋᒀ	-10.7819
ᑳᑾᔭᑯᓈᑾ	-10.7828
ᑲᔥᑭᐁᐎᓯ	-10.8181
ᑎᓇᐌᒫᑲᓇ	-10.8578
ᐸᑾᒋᐱᑑ	-10.8578
ᓵᑭᒋᓂᔕᐊᒪ	-10.8578
ᐊᔦᒀᒥ	-10.8578
ᐐᑕᓇᒥᐋ	-10.8578
ᒶ	-11.032
6	-11.132
9	-11.3681
ᐺ	-11.5071
ᒍ	-11.511
ᒸ	-11.6707
ᓋ	-12.4586
(	-12.461
)	-12.461
.	-13.9601
ᔡ	-13.9602
ᐾ	-13.9603
;	-13.9604
ᔗ	-13.9605
!	-13.9606
?	-13.9607
:	-13.9608
,	-13.9609
"	-13.961
/	-13.961
[	-13.961
]	-13.961
a	-13.961
z	-13.961
~	-13.961
ᐼ	-13.961
ᑡ	-13.961
u	-13.961
ᒒ	-13.961
ᐧ	-13.961
᙮	-13.961
