<pad>	0
</s>	0
<unk>	0
▁a	-3.38582
.	-3.51986
,	-3.59367
▁an	-3.67534
▁agus	-3.84524
▁ar	-3.93228
▁	-4.10864
▁na	-4.32292
▁le	-4.32696
▁go	-4.32994
▁i	-4.51517
▁do	-4.60886
-	-4.68101
▁ag	-4.88824
s	-5.02791
▁covid	-5.1118
í	-5.17926
dh	-5.19649
▁nó	-5.22117
▁’	-5.22804
r	-5.23479
▁de	-5.32742
e	-5.34163
▁d	-5.34311
-19	-5.37118
▁seo	-5.3871
▁tú	-5.49346
▁mar	-5.49512
▁chun	-5.50092
▁eile	-5.51361
a	-5.52543
▁bhfuil	-5.58146
▁n	-5.58437
igh	-5.59452
▁is	-5.67811
▁(	-5.69375
▁sa	-5.70065
▁sé	-5.71059
▁atá	-5.75147
▁ó	-5.7638
▁in	-5.77819
▁tá	-5.79855
▁nío	-5.83195
n	-5.88138
▁Tá	-5.88351
▁féidir	-5.94414
▁cás	-6.00307
▁daoine	-6.01605
▁t	-6.02129
▁faoi	-6.05398
▁é	-6.07503
)	-6.07981
▁sláinte	-6.09202
▁duine	-6.0959
▁leis	-6.10029
▁Is	-6.11676
d	-6.11709
ú	-6.12081
▁D	-6.1275
íonn	-6.14853
▁sin	-6.16533
▁mó	-6.19692
eann	-6.23324
cov	-6.23413
na	-6.23819
▁raibh	-6.24143
▁ná	-6.24884
:	-6.29056
▁aon	-6.32756
▁Má	-6.33708
▁ort	-6.35128
▁sars	-6.35213
▁víreas	-6.35238
▁má	-6.35786
▁bheith	-6.38436
ann	-6.39814
ch	-6.39897
▁dhéanamh	-6.40615
▁bás	-6.41488
is	-6.42986
ir	-6.43778
il	-6.45023
▁ach	-6.45329
▁iad	-6.46599
adh	-6.47339
▁c	-6.48133
gach	-6.48175
▁éis	-6.48735
▁féin	-6.5291
ach	-6.5328
▁fhéadfa	-6.53323
▁chur	-6.53711
▁b	-6.5381
▁An	-6.54141
▁gur	-6.54443
▁Ní	-6.55306
▁bhí	-6.55998
ithe	-6.56108
▁rud	-6.56473
▁úsáid	-6.57107
▁duit	-6.57684
▁lá	-6.5814
▁comharthaí	-6.58471
in	-6.58579
▁dhaoine	-6.58809
▁tar	-6.59255
▁roinnt	-6.59286
▁siad	-6.60327
▁ina	-6.61559
▁den	-6.62559
▁ón	-6.62815
▁orthu	-6.64623
▁ann	-6.65147
▁ní	-6.65394
▁san	-6.66961
idh	-6.67522
▁don	-6.67624
l	-6.70158
▁thug	-6.71217
▁chóir	-6.72103
▁g	-6.7234
▁vacsaín	-6.73046
▁márta	-6.74696
▁tástáil	-6.76051
▁líon	-6.76764
▁2020	-6.78521
▁roimh	-6.7968
▁trí	-6.80918
▁amach	-6.83118
▁mór	-6.84091
▁as	-6.85184
▁freisin	-6.85895
▁isteach	-6.85958
aí	-6.86229
▁dóibh	-6.8691
▁leat	-6.88694
t	-6.89196
▁amháin	-6.89928
▁fáil	-6.90456
▁nuair	-6.91181
aíonn	-6.92473
▁ionfhabhtaithe	-6.94155
▁gan	-6.94274
▁gheall	-6.94664
▁I	-6.94798
▁chuig	-6.95211
-2	-6.96229
▁/	-6.96294
▁T	-6.96921
nn	-6.97313
▁sonraí	-6.97959
▁bhíonn	-6.98732
▁2	-7.00014
▁idir	-7.00238
▁Tuairiscíodh	-7.01351
▁ráig	-7.02569
▁linn	-7.03104
▁leor	-7.04162
▁nua	-7.05301
nach	-7.054
▁fanacht	-7.05538
▁Mar	-7.05539
tear	-7.05882
réir	-7.06389
▁fu	-7.06542
▁fháil	-7.07309
▁C	-7.07634
▁aghaidh	-7.07879
▁ba	-7.0792
▁lámha	-7.0799
▁5	-7.08081
áirítear	-7.08522
▁h	-7.09234
▁chuid	-7.10449
▁acu	-7.10565
▁maidi	-7.11931
▁dul	-7.12341
▁cásanna	-7.12516
▁measc	-7.12954
▁aontaithe	-7.12979
▁chomh	-7.13155
▁Ag	-7.13751
▁feabhra	-7.14255
▁scaipeadh	-7.14258
▁dtí	-7.15079
▁teaghlaigh	-7.15573
▁chás	-7.16843
▁aghaidhe	-7.17102
▁air	-7.17224
▁haghaidh	-7.17591
▁tástála	-7.18295
▁B	-7.18405
▁chéad	-7.18954
▁coronavirus	-7.19695
▁Ba	-7.20404
▁sna	-7.20537
▁mí	-7.20866
▁víris	-7.21746
▁1	-7.23811
▁tugadh	-7.23897
▁eanáir	-7.24607
▁bhaile	-7.2464
▁bh	-7.25279
▁4	-7.25284
▁ch	-7.2554
▁hiomláin	-7.26072
▁fógra	-7.26768
ar	-7.27732
▁dá	-7.27794
▁riospráide	-7.28311
▁tsín	-7.29068
▁tuairiscíodh	-7.29077
▁poiblí	-7.29832
▁thabhairt	-7.29843
▁3	-7.29975
;	-7.3008
▁aip	-7.31276
▁-	-7.31349
▁mbeadh	-7.31434
▁bhfeidhm	-7.32158
anna	-7.32354
aigh	-7.33057
te	-7.33265
▁maith	-7.33739
-19.	-7.34796
ta	-7.35002
▁bearta	-7.36492
▁agat	-7.36519
▁“	-7.37306
▁mb	-7.37832
▁faoin	-7.38206
▁galar	-7.39655
▁aois	-7.39893
▁leo	-7.40071
▁uair	-7.41039
▁pháiste	-7.4118
▁leighis	-7.42062
▁bhaineann	-7.42072
▁feadh	-7.42184
▁s	-7.42667
▁stáit	-7.42949
▁A	-7.43046
▁shampla	-7.43789
▁leanaí	-7.43805
▁síne	-7.43919
▁chuir	-7.44149
▁cur	-7.44651
▁dhochtúir	-7.4557
▁gcásanna	-7.45596
▁ionfhabhtú	-7.45892
▁Déan	-7.46521
▁tír	-7.47066
▁á	-7.47066
▁tíortha	-7.47378
▁fh	-7.48153
▁othair	-7.48303
▁S	-7.48809
▁chaitheamh	-7.49231
▁clúdach	-7.50197
▁scoileanna	-7.50205
íodh	-7.50682
▁cúram	-7.50972
▁srianta	-7.51156
▁10	-7.51379
▁ard	-7.51964
teagmháil	-7.5266
▁dhá	-7.52696
▁ionad	-7.53057
▁dearfach	-7.54009
▁gá	-7.54053
ógraíodh	-7.54148
▁am	-7.54781
i	-7.54869
la	-7.54962
▁Ná	-7.55066
▁th	-7.5585
▁chéile	-7.55973
▁iomlán	-7.56552
▁f	-7.56807
▁aibreán	-7.56973
▁siú	-7.58629
▁14	-7.58742
uithe	-7.58859
▁domhain	-7.58993
▁"	-7.59135
▁rialtas	-7.59156
▁Ar	-7.59691
eanna	-7.59971
▁toradh	-7.61143
▁”	-7.61535
1	-7.61627
▁Dífh	-7.62109
▁who	-7.62352
'	-7.63627
íos	-7.65252
▁sóisialta	-7.65364
▁m	-7.65457
▁luath	-7.65483
▁mbei	-7.65518
▁ospidéal	-7.65548
▁hcov	-7.65613
aithe	-7.66365
▁déanaí	-7.66525
▁fhógair	-7.66714
▁–	-7.67545
▁thástáil	-7.67556
▁mura	-7.67597
▁comhairle	-7.68943
▁bhféadfa	-7.69158
▁fuair	-7.69877
acha	-7.70828
▁bhás	-7.71182
eadh	-7.71594
nig	-7.7187
▁thart	-7.72164
▁náisiúnta	-7.73321
▁neamh	-7.73345
▁wuhan	-7.74484
▁milliún	-7.7449
▁chosaint	-7.74497
▁cosúil	-7.74503
▁tioncha	-7.74531
▁9	-7.74611
▁bia	-7.74695
▁cé	-7.74782
▁srian	-7.75454
▁mbaol	-7.75694
▁teagmhála	-7.75704
▁glao	-7.75714
▁mhí	-7.75959
-19,	-7.76093
▁Bhí	-7.76306
▁léinn	-7.76927
▁oibre	-7.7722
▁cinn	-7.77818
▁cheart	-7.7819
▁fhaigh	-7.78256
▁riosca	-7.78505
▁háirithe	-7.79394
▁20	-7.80184
▁dó	-7.80231
▁gc	-7.80612
▁lasmuigh	-7.80659
▁vacsaíní	-7.80943
úirt	-7.81222
▁6	-7.81573
).	-7.81814
▁7	-7.81926
▁ghnáth	-7.81972
▁mers	-7.82132
iú	-7.82535
▁De	-7.83657
▁theas	-7.84368
),	-7.8445
▁láthair	-7.84556
▁suas	-7.84593
▁céanna	-7.84633
▁óstach	-7.84999
▁Go	-7.85213
m	-7.85641
▁fhéidir	-7.85888
▁laghdú	-7.85906
▁obair	-7.85906
▁ghalair	-7.85923
▁déan	-7.86515
▁Cuir	-7.86806
▁os	-7.869
mh	-7.86954
▁leibhéal	-7.87247
▁Chuir	-7.87314
▁dúnadh	-7.87323
tar	-7.87346
▁iarracht	-7.87418
▁19	-7.87421
▁minic	-7.88123
▁áit	-7.88258
▁tinnis	-7.88758
▁paindéim	-7.89494
▁Cé	-7.89537
▁casacht	-7.89544
▁beag	-7.89546
▁taistil	-7.90008
▁choinneáil	-7.90023
▁bealtaine	-7.90045
▁cuairt	-7.90188
▁rinne	-7.90299
▁airde	-7.9042
▁éagsúla	-7.90782
▁laghad	-7.91407
▁cuireadh	-7.91438
▁um	-7.91527
▁léir	-7.91821
▁roinn	-7.92313
▁torthaí	-7.92846
onn	-7.93126
▁ceann	-7.93764
▁gcuid	-7.9428
▁masc	-7.94295
▁bliain	-7.94299
▁dearbhaithe	-7.94313
▁bharr	-7.95757
▁tarchur	-7.95794
▁15	-7.95868
▁tinn	-7.9724
▁fós	-7.97313
▁imní	-7.97537
átha	-7.98353
▁8	-7.98467
▁Mura	-7.98774
▁leith	-7.98814
án	-7.98889
▁othar	-7.99503
c	-7.99829
▁cheann	-8.00794
each	-8.01119
▁thor	-8.01243
▁11	-8.01434
as	-8.01644
▁Bei	-8.02006
▁eolas	-8.02299
g	-8.02995
▁coraintín	-8.03231
eidh	-8.03342
?	-8.03451
▁cliath	-8.03451
▁cosc	-8.03461
▁rialtais	-8.03522
▁iompar	-8.03595
▁síos	-8.03623
▁éigeandála	-8.04475
▁líne	-8.04492
▁scoil	-8.04601
▁taisteal	-8.04954
▁meitheamh	-8.05065
▁iodáil	-8.05066
▁láithreach	-8.05085
▁más	-8.05194
▁fiabhras	-8.06752
tha	-8.06825
▁Cuirea	-8.0722
onas	-8.07319
▁sh	-8.07741
artha	-8.0797
▁mhéada	-8.0822
an	-8.08227
▁G	-8.0843
onaid	-8.09741
▁2019	-8.09774
▁ndaoine	-8.10066
▁laistigh	-8.10067
▁fliú	-8.10068
▁gcoinne	-8.10078
▁dáileog	-8.1008
imh	-8.10149
▁fss	-8.10496
▁dteagmháil	-8.10929
▁rianú	-8.1179
▁cionn	-8.11814
▁thái	-8.12652
▁F	-8.1286
mhail	-8.12908
▁13	-8.12969
unaithe	-8.13114
▁24	-8.13185
▁fad	-8.13268
▁dhiaidh	-8.13549
▁idirnáisiúnta	-8.13562
cha	-8.13582
▁sula	-8.13584
▁chomharthaí	-8.13912
▁measa	-8.15026
▁baint	-8.15122
▁cúraim	-8.15329
▁chloig	-8.1533
▁tapa	-8.1533
▁ainmhithe	-8.15437
áil	-8.15682
▁lú	-8.15719
▁ceart	-8.15724
▁Lé	-8.16662
▁chosc	-8.17186
▁áirithe	-8.17199
▁teacht	-8.17255
▁díreach	-8.17266
▁oibrithe	-8.17421
thas	-8.17467
▁N	-8.18465
aíodh	-8.1863
▁ceal	-8.18719
▁imeachta	-8.18733
▁daonna	-8.19
▁galair	-8.19
▁dhuine	-8.19005
▁freastal	-8.19005
▁éifeachtach	-8.19049
▁Faoi	-8.19059
▁seirbhísí	-8.19511
▁nós	-8.19617
▁23	-8.20226
▁deireadh	-8.20888
▁chomhairle	-8.20896
2	-8.21106
▁Nua	-8.21585
▁2020.	-8.21796
▁12	-8.22287
▁staidéar	-8.22812
▁stát	-8.22825
▁riocht	-8.22853
▁fiú	-8.22923
▁bhaint	-8.23148
▁eipidéim	-8.2366
▁Ach	-8.23688
▁tíre	-8.23949
y	-8.24227
▁próitéin	-8.24429
▁cuid	-8.24756
▁coitianta	-8.2477
▁pearsanta	-8.24773
▁thuairisc	-8.248
▁imdhíonachta	-8.24943
▁áiteanna	-8.25082
▁méad	-8.25849
▁foláireamh	-8.26777
▁eagraíocht	-8.26844
▁rialú	-8.26898
▁bunúsacha	-8.26908
▁dara	-8.26937
▁16	-8.26978
▁Nío	-8.27267
áin	-8.27325
▁ár	-8.27853
im	-8.28286
▁mac	-8.28591
▁seirbhís	-8.28647
▁cuir	-8.28756
▁fíneá	-8.28813
▁méid	-8.28837
▁déine	-8.28861
▁pian	-8.28915
▁fearr	-8.29034
▁ialtóga	-8.29101
▁tábhachtach	-8.29295
▁Fan	-8.29391
▁dochtúir	-8.30326
us	-8.30704
▁mheas	-8.30901
▁mbaile	-8.30922
▁mbásanna	-8.3094
▁chúis	-8.3108
▁rna	-8.31122
▁lár	-8.31145
0	-8.31211
eacha	-8.31236
aonrú	-8.31303
"	-8.31747
▁gcás	-8.32999
▁cúis	-8.33022
▁mhárta	-8.33023
▁hairíonna	-8.33039
▁Ina	-8.33999
imid	-8.34667
▁p	-8.348
▁eis	-8.34953
▁domhanda	-8.352
▁uait	-8.352
▁daonra	-8.35208
▁choinne	-8.3524
▁mhór	-8.35472
▁ansin	-8.35484
▁ráta	-8.35652
▁víreasach	-8.35972
▁the	-8.36674
▁bhrí	-8.36871
▁héireann	-8.37418
▁míochaine	-8.37424
▁leanbh	-8.37424
▁sraothartach	-8.37427
▁ghluaiseachtaí	-8.37488
▁mh	-8.37682
faidh	-8.37698
▁arís	-8.37715
▁30	-8.37935
▁aire	-8.3883
óidh	-8.39181
oisc	-8.39276
▁ndearna	-8.39691
▁géarmhíochaine	-8.39693
▁bpaindéim	-8.39693
▁cosanta	-8.39696
▁treala	-8.39742
▁pobail	-8.39749
▁tharla	-8.39801
▁rianair	-8.39823
▁chásanna	-8.3995
▁ionfhabhtuithe	-8.40119
▁covanna	-8.4083
▁18	-8.4167
▁Úsáid	-8.41951
▁nollaig	-8.42016
▁dhéanann	-8.42027
▁baol	-8.42061
▁taighde	-8.42166
▁drugaí	-8.42217
lacha	-8.42497
ad	-8.42789
f	-8.42904
▁Lean	-8.42912
th	-8.43287
▁súil	-8.43932
▁cófra	-8.44397
▁sheachaint	-8.44397
▁fola	-8.44406
▁ospidéil	-8.4446
▁tréimhs	-8.44544
8	-8.44872
▁sí	-8.45578
4	-8.46159
▁timpeall	-8.46327
▁déanta	-8.46344
the	-8.46399
▁cheana	-8.46836
▁dtús	-8.46837
▁gcéad	-8.4684
▁choróinvíris	-8.46842
▁dtugtar	-8.46878
▁céim	-8.47047
▁chéim	-8.47499
b	-8.47743
nna	-8.47805
9	-8.48281
▁22	-8.48437
▁leagan	-8.48805
▁ama	-8.48836
▁28	-8.49175
▁sábháilte	-8.49312
▁eorpach	-8.49336
▁gceart	-8.49372
▁againn	-8.49396
▁breise	-8.49452
▁niúmóine	-8.49489
acht	-8.49895
fear	-8.50284
▁26	-8.50308
7	-8.50339
á	-8.50499
▁Tar	-8.50535
h	-8.51199
▁reatha	-8.519
▁chibear	-8.51902
▁glan	-8.51917
▁fhorbairt	-8.51943
▁áireamh	-8.51969
▁suntasach	-8.52023
▁láimhe	-8.52136
ra	-8.52181
▁theast	-8.52366
▁aige	-8.5245
▁thar	-8.52675
▁córas	-8.52682
▁rudaí	-8.52763
▁deara	-8.5314
seachas	-8.5316
▁diúltach	-8.54207
▁fios	-8.54359
3	-8.54381
▁bliana	-8.54532
▁oiread	-8.54532
▁chinntiú	-8.54535
▁dúnta	-8.54536
▁bhéal	-8.5455
▁oideachais	-8.54558
▁bhei	-8.54558
▁dhomhanda	-8.54564
▁cosaint	-8.54694
▁athrú	-8.55045
▁fada	-8.55152
,000	-8.56946
hlat	-8.57238
▁shrón	-8.5724
▁maisc	-8.5725
eithre	-8.57265
▁seachtaine	-8.57439
▁taobh	-8.57497
▁paindéime	-8.57983
▁vacsaínithe	-8.58311
▁17	-8.58677
▁príomh	-8.58758
▁lámh	-8.59902
▁sholáthar	-8.60013
▁dtíortha	-8.60013
▁grúpa	-8.60025
▁liosta	-8.60065
▁uisce	-8.60087
▁lae	-8.60096
▁cóireáil	-8.60112
▁tástálacha	-8.60173
▁oscailte	-8.60176
▁astrazeneca	-8.60287
▁aonair	-8.60657
▁Oscailt	-8.60767
íocht	-8.60772
▁coróinvíreas	-8.6096
▁Fua	-8.61117
▁scar	-8.61395
le	-8.61736
am	-8.62228
▁dé	-8.62372
▁ialtóg	-8.6249
▁bhfaigh	-8.62672
▁fuar	-8.62743
ítear	-8.62747
▁staidéir	-8.6287
▁cliniciúla	-8.62889
▁phobal	-8.62898
▁gardaí	-8.62992
▁rianaithe	-8.63007
▁uimh	-8.6313
▁vacsaíniú	-8.63136
▁hcovanna	-8.63192
▁Chu	-8.63302
▁bun	-8.63374
▁meán	-8.64142
▁bith	-8.6449
▁bu	-8.64708
▁cov	-8.65415
▁gnáth	-8.65709
▁frith	-8.65807
▁fionraí	-8.65812
▁bhfad	-8.65831
▁saor	-8.65854
▁dócha	-8.65878
▁samplaí	-8.66257
▁ríocht	-8.66328
▁fhág	-8.66437
▁fo	-8.67109
taire	-8.67235
▁caith	-8.67277
▁cona	-8.67804
▁tógálach	-8.68657
▁21	-8.68718
uiscint	-8.68765
▁teastáil	-8.68841
▁uirthi	-8.68844
▁monatóireacht	-8.68847
▁antasubstaintí	-8.68851
▁thógáil	-8.68851
▁diagnóis	-8.68856
▁idirmheánach	-8.6889
▁gcónaí	-8.68936
▁tinneas	-8.68939
▁aitheanta	-8.69094
▁í	-8.69356
▁tí	-8.7007
▁comh	-8.70105
▁mui	-8.70299
▁'	-8.7063
irí	-8.70666
▁nár	-8.7083
▁r	-8.70969
▁ph	-8.71323
sanna	-8.71736
▁domhan	-8.71963
▁hiodáile	-8.71966
▁éirinn	-8.71966
▁nádúrtha	-8.71971
▁coronaviruses	-8.7198
▁rogha	-8.71999
▁tosú	-8.72
▁ghalar	-8.72001
▁2021	-8.72019
▁fhreagairt	-8.72037
▁thosa	-8.7242
▁stair	-8.72577
▁fhoir	-8.73864
▁leanúnach	-8.74182
annta	-8.74226
id	-8.74357
cht	-8.74537
ó	-8.74914
▁shóisialta	-8.75192
▁íseal	-8.75192
▁choróinvíreas	-8.75193
▁éigin	-8.75196
▁anois	-8.75197
▁iaráin	-8.75221
▁ísle	-8.75263
▁cineál	-8.75282
▁srón	-8.75292
▁dlí	-8.75307
▁tosaigh	-8.75363
▁gartheagmhálaí	-8.75379
▁cinnte	-8.75419
▁leibhé	-8.75493
▁fhio	-8.75528
▁teach	-8.7572
▁chos	-8.76097
aoi	-8.7639
▁L	-8.76672
▁tríd	-8.76711
ill	-8.77001
▁l	-8.77043
covid	-8.77093
al	-8.77806
▁Thái	-8.77844
5	-8.78146
▁chomhartha	-8.78218
▁rial	-8.78424
▁phaindéim	-8.78488
▁saotharlainne	-8.78525
▁tharchur	-8.78525
▁anseo	-8.78525
▁iarraidh	-8.78526
▁hiomlán	-8.78533
▁iúl	-8.78549
▁siondróm	-8.7855
▁speisialta	-8.78572
▁clár	-8.78679
48	-8.78691
▁básmhaireachta	-8.78811
▁úsáide	-8.78874
▁dáta	-8.7911
éigh	-8.79213
▁gceist	-8.7947
▁ró	-8.79513
▁anála	-8.79526
▁údará	-8.79807
▁mic	-8.79996
illeadh	-8.80259
▁Coinn	-8.80287
▁27	-8.80449
▁50	-8.80502
▁ligean	-8.80554
▁shláinte	-8.80593
far	-8.80683
▁clúda	-8.80731
▁freagra	-8.80941
othar	-8.80953
bh	-8.81011
▁ráige	-8.81264
▁anailís	-8.81529
▁ndéanfa	-8.81611
hug	-8.81734
▁fhad	-8.81755
▁31	-8.81812
▁Sa	-8.81882
▁mbás	-8.81908
▁dhearfach	-8.81974
▁forleathan	-8.81979
▁beo	-8.81984
▁caitheamh	-8.81988
rthóir	-8.81995
▁fásta	-8.81997
▁deimhnithe	-8.82021
▁cúnamh	-8.82024
▁éigeantach	-8.82066
▁chineál	-8.82082
▁teorainn	-8.82125
eas	-8.82432
▁Déanta	-8.82511
p	-8.82565
onad	-8.82879
▁aer	-8.83041
▁Léir	-8.83187
▁mo	-8.83258
▁níl	-8.8328
▁rá	-8.83457
oidh	-8.8416
▁Amha	-8.84379
▁ithe	-8.84534
covanna	-8.84646
▁díobh	-8.84785
▁gh	-8.85198
▁riachtanach	-8.85309
▁25	-8.85439
▁amhras	-8.85493
▁gnách	-8.85545
▁géanóm	-8.85545
▁tobac	-8.85545
▁hubei	-8.85547
▁anuas	-8.85548
▁dheireadh	-8.85549
▁rsc	-8.8555
▁Le	-8.85599
▁dhearbha	-8.85646
▁dlúth	-8.85824
▁faireachas	-8.85826
▁cdc	-8.86023
▁cúig	-8.86171
▁athoscailt	-8.86207
▁básanna	-8.86351
oc	-8.86387
▁M	-8.86738
▁cóir	-8.86859
neamhriachtanach	-8.87078
os	-8.87082
▁29	-8.87334
o	-8.87381
▁Co	-8.87954
abhrú	-8.88414
▁rialta	-8.88534
▁bhailiú	-8.8856
▁sampla	-8.88789
▁éadrom	-8.89062
00	-8.89165
▁ollscoil	-8.89199
▁eoraip	-8.89249
▁afraic	-8.89249
▁nóiméad	-8.89251
▁aice	-8.89263
▁mhaolú	-8.89268
▁leanas	-8.89276
▁chóiré	-8.89297
▁tuilleadh	-8.89343
▁P	-8.89363
▁shár	-8.89639
▁siúl	-8.90187
iríonn	-8.90745
▁cóireála	-8.90831
eamh	-8.91783
▁riachtana	-8.92324
▁slán	-8.92371
▁dí	-8.92526
▁tacaíocht	-8.92539
▁cabhr	-8.92656
▁eacnamaíoch	-8.92671
ie	-8.92741
▁anaithnid	-8.92746
▁bhun	-8.92861
▁phoiblí	-8.93095
▁altranais	-8.93095
▁chorp	-8.93097
▁figiú	-8.93097
▁tseachtain	-8.931
▁chóireáil	-8.93108
▁athr	-8.93141
▁aithint	-8.93143
▁treoirlín	-8.93174
▁baile	-8.9325
▁Dá	-8.93445
▁co	-8.9393
▁seacht	-8.93952
ce	-8.94013
▁faisnéis	-8.95696
▁dhí	-8.95816
0%	-8.96283
v	-8.96359
▁cógais	-8.97063
▁fómhair	-8.97095
▁tirim	-8.97096
▁brath	-8.97098
▁áfach	-8.971
▁áitiúil	-8.971
▁fachtóir	-8.97104
▁tarchuir	-8.97104
▁áitiúla	-8.97106
▁buinneach	-8.97134
▁faide	-8.97164
▁brú	-8.972
▁rcgp	-8.97202
▁deacrachtaí	-8.97225
▁dhúnadh	-8.97235
▁croí	-8.97269
▁ghrúpa	-8.97343
▁oideachas	-8.97412
▁vacsaíne	-8.9749
229	-8.97626
▁gartheagmháil	-8.98036
▁im	-8.98437
▁ra	-8.98448
aire	-8.9873
."	-8.98808
▁ath	-8.98898
▁straitéis	-8.99061
“	-8.99581
abhairt	-8.99587
óirí	-8.99937
▁oibrí	-9.00003
▁u	-9.00433
▁folláin	-9.00728
▁Tug	-9.00776
▁tabhair	-9.00948
▁di	-9.01008
▁sine	-9.01009
6	-9.01087
▁spreag	-9.01102
▁díot	-9.01237
▁fhrainc	-9.01262
▁ginearálta	-9.01262
▁leanúint	-9.01262
▁sealadach	-9.01262
▁teoranta	-9.01262
▁Glao	-9.01262
▁gallúnach	-9.01265
▁billiún	-9.01271
▁mhilliún	-9.01311
▁fóin	-9.01356
▁siopaí	-9.01399
ineacht	-9.01518
▁fianaise	-9.01594
bhealach	-9.01743
▁stiú	-9.01834
▁Caith	-9.01894
▁Rinne	-9.01925
▁to	-9.02025
▁moill	-9.02151
▁meastachá	-9.02771
▁meiriceá	-9.0348
it	-9.03696
▁cód	-9.03805
ne	-9.03918
▁aonrú	-9.04357
reacha	-9.04661
-19)	-9.04792
▁tús	-9.05179
rátaí	-9.05537
▁dhearbhú	-9.05609
▁giorra	-9.05609
▁faireachais	-9.0561
▁contae	-9.0561
▁abhaile	-9.0561
▁uathu	-9.05611
▁hothair	-9.05612
▁leanacht	-9.05629
▁institiúid	-9.05638
▁for	-9.05654
▁níochán	-9.05705
▁chóras	-9.05802
▁shonraí	-9.05821
▁éileamh	-9.06044
▁ráigeanna	-9.0612
úsáid	-9.06134
▁Dhe	-9.06182
▁In	-9.06308
gh	-9.06579
on	-9.06708
▁chaith	-9.0679
▁teocht	-9.0713
▁luan	-9.0731
imhnigh	-9.07434
ic	-9.07743
aladh	-9.07791
▁coinne	-9.08184
▁fan	-9.08295
ionfhabhtú	-9.08482
▁thaga	-9.08892
▁mol	-9.09031
▁féideartha	-9.09431
lacht	-9.09437
▁mhéad	-9.09896
▁gar	-9.09915
▁scaipthe	-9.09943
▁seicheamh	-9.09949
cónaí	-9.10042
▁foirne	-9.10155
▁frithdhúnadh	-9.10155
▁shocrú	-9.10155
▁amuigh	-9.10155
▁sláintiúil	-9.10155
▁chéanna	-9.10155
▁thaobh	-9.10157
▁spóirt	-9.10157
▁pháistí	-9.1016
▁siar	-9.10168
▁huaire	-9.10176
▁báis	-9.10177
▁chathair	-9.10208
▁uaireanta	-9.10209
▁sheoladh	-9.10263
▁leathadh	-9.10312
▁ghlanadh	-9.10326
▁náisiún	-9.10336
▁mhéadú	-9.10437
▁theach	-9.10575
▁ceanta	-9.10603
▁aisce	-9.10758
▁Seacha	-9.10905
ly	-9.11045
ordú	-9.1108
caoi	-9.11232
▁phe	-9.11897
rochtain	-9.12566
▁ea	-9.1298
▁thag	-9.13344
▁leath	-9.13388
ine	-9.13396
óstach	-9.14244
▁Rinnea	-9.14357
▁cad	-9.14458
▁Th	-9.14531
▁básmhaireacht	-9.14558
▁géar	-9.14669
▁stop	-9.14757
▁dhún	-9.1482
▁eagla	-9.1482
▁bunús	-9.14834
▁fáth	-9.14917
▁póca	-9.14917
▁bhrollach	-9.14921
▁téacs	-9.14924
▁bhia	-9.14927
▁mbliana	-9.14928
▁bhfuair	-9.14929
▁mná	-9.14929
▁shrian	-9.14938
▁dhéantar	-9.14953
▁fhliú	-9.14964
▁trump	-9.14964
▁chlúdach	-9.15004
▁luaithe	-9.15041
▁láimhseáil	-9.15058
▁pfizer	-9.15129
%	-9.15149
▁chumas	-9.15252
bhai	-9.15423
▁dh	-9.15554
▁laghdaithe	-9.15784
▁léirigh	-9.16148
▁scoile	-9.16372
▁ais	-9.16373
ineadh	-9.16495
▁te	-9.16571
lann	-9.16805
u	-9.17287
▁fear	-9.17325
idí	-9.17398
tin	-9.17476
▁éifeachta	-9.17847
▁Do	-9.17973
coróinvíreas	-9.18084
▁roghn	-9.18116
▁aimsío	-9.18445
▁R	-9.18693
▁dromchla	-9.19392
▁eolai	-9.19804
▁nasc	-9.19869
▁scothaosta	-9.19917
▁thíortha	-9.19919
▁scornach	-9.19924
▁thuaidh	-9.1993
▁óstáin	-9.19942
▁suíomhanna	-9.19961
▁labhairt	-9.19979
▁bhfoireann	-9.20001
▁céad	-9.20069
▁húsáid	-9.20142
▁déanamh	-9.20166
▁modh	-9.20175
▁athbhreithni	-9.20228
▁cá	-9.20285
▁siopadóireachta	-9.2029
▁sábháilteachta	-9.20319
▁seans	-9.20346
▁molta	-9.20384
▁mhol	-9.20498
▁sheirbhís	-9.20498
▁coinn	-9.20548
earraí	-9.20823
▁ste	-9.20881
▁trialacha	-9.21123
idir	-9.21185
▁ord	-9.21434
▁bhf	-9.21603
▁víreasacha	-9.21669
mid	-9.22029
eál	-9.22109
▁gníomhach	-9.22274
▁eisío	-9.22446
om	-9.2278
ing	-9.23174
eoirí	-9.23219
fhógra	-9.23269
comparáid	-9.2345
▁agóid	-9.23496
sars	-9.23539
▁réamh	-9.23545
sat	-9.23671
▁oifig	-9.23755
▁me	-9.23886
▁60	-9.23961
▁”.	-9.24458
▁éil	-9.24475
▁rialachá	-9.24484
▁zónóiseach	-9.24745
aid	-9.24809
▁sábháilteacht	-9.24811
▁bhain	-9.24862
huairisc	-9.24936
▁Na	-9.2495
▁rith	-9.25084
▁oiriún	-9.25175
▁nollag	-9.2518
▁taoiseach	-9.2518
▁cliniciúil	-9.2518
▁coinníoll	-9.2518
▁dianchúraim	-9.25182
▁ndéant	-9.25182
▁phobail	-9.25182
▁johnson	-9.25183
▁tseapáin	-9.25214
▁taiscumar	-9.25232
▁leigheas	-9.2524
▁diaibéiteas	-9.25247
▁fhón	-9.25264
▁tarlú	-9.25301
▁éigeandáil	-9.25323
▁swab	-9.25325
▁amhrasta	-9.2533
▁cleachtais	-9.25338
phen	-9.25407
▁Faigh	-9.25426
▁easp	-9.25441
▁sciathá	-9.25485
▁tromchúiseacha	-9.25505
▁óga	-9.25596
héann	-9.25613
▁uachtarán	-9.26258
43	-9.26448
▁ardú	-9.26657
▁thú	-9.26988
▁fón	-9.2699
▁íomhá	-9.27075
▁200	-9.27605
▁imeacht	-9.27683
▁braisl	-9.27861
▁scamhóg	-9.27866
▁scaip	-9.27903
▁ma	-9.27946
▁ghlaca	-9.28096
eachtaí	-9.28373
▁100	-9.28436
▁Tuga	-9.29011
córas	-9.29075
ard	-9.2953
itis	-9.29652
oibríonn	-9.29711
▁éirí	-9.29773
éard	-9.29965
▁gceanta	-9.30178
▁spáinn	-9.30207
▁siopadóireacht	-9.30378
▁trom	-9.3041
▁víreolaíoch	-9.30533
▁Molta	-9.30538
▁india	-9.30568
▁gcomh	-9.30717
▁mhic	-9.30727
▁bhliain	-9.30735
▁chórais	-9.30735
▁ghearmáin	-9.30735
▁leithlisiú	-9.30735
▁ngluaiseachtaí	-9.30735
▁réigiúin	-9.30735
▁toirchis	-9.30735
▁fhéadfá	-9.30735
▁núíosach	-9.30736
aicéit	-9.30736
▁difríocht	-9.30737
▁plódaithe	-9.30737
▁Chomh	-9.30739
▁fhreagra	-9.30742
▁bpobal	-9.30742
▁buailte	-9.30753
▁éasca	-9.30755
▁dhíon	-9.30758
▁gcéim	-9.3078
▁chruthú	-9.30791
▁teaghlach	-9.30791
▁theaghlach	-9.30791
▁dtagann	-9.30797
▁béite	-9.30801
▁domhnach	-9.30818
▁dtiocfa	-9.3082
tábla	-9.3083
▁méadaithe	-9.30867
▁mich	-9.3088
oire	-9.30883
▁láidir	-9.30902
▁Su	-9.30921
".	-9.30922
▁stopadh	-9.30924
eamó	-9.30931
▁cónaitheoir	-9.30956
iste	-9.31075
páistí	-9.31116
▁deacair	-9.3125
▁faigh	-9.31298
▁éadroma	-9.31366
▁análaithe	-9.314
▁thír	-9.31804
▁leathair	-9.31908
agann	-9.32118
impl	-9.32289
▁dochtúirí	-9.3235
0,000	-9.32447
éid	-9.32691
ip	-9.33013
▁ion	-9.33042
mar	-9.33338
▁so	-9.33454
▁gníomhaíochta	-9.33523
tá	-9.33638
▁Tóg	-9.33659
at	-9.34254
nnel	-9.34312
go	-9.34835
speicis	-9.34872
fi	-9.34935
údará	-9.34965
▁gcaithf	-9.35199
othú	-9.35296
oirí	-9.35329
ac	-9.36026
▁iarr	-9.36315
▁mall	-9.36382
▁tacú	-9.36503
▁treoir	-9.36535
▁phlean	-9.36588
▁theorannú	-9.36618
▁fhoils	-9.36618
▁forbairt	-9.36619
▁margadh	-9.36621
▁análú	-9.36626
▁moderna	-9.36632
iv	-9.36633
▁istigh	-9.36634
feá	-9.36636
▁beirt	-9.36637
▁braoiníní	-9.3665
▁mholtar	-9.36669
▁gcuirf	-9.36688
▁clainne	-9.36691
▁haoine	-9.36699
▁Taispeána	-9.36704
▁cruinnithe	-9.36744
▁tuismitheoirí	-9.36751
▁phróitéin	-9.36779
▁par	-9.36834
▁saotharlann	-9.36884
ntanas	-9.3692
▁v	-9.36922
agtha	-9.37006
▁réimsí	-9.37145
▁chu	-9.37165
▁riachtanacha	-9.3736
▁raon	-9.37644
▁fíor	-9.37872
▁eol	-9.37924
iompair	-9.37927
.30	-9.37987
olog	-9.38026
▁nochta	-9.38044
▁breith	-9.3816
lte	-9.39061
▁limisté	-9.39063
63	-9.39127
▁réigiún	-9.39373
eolas	-9.39511
▁bain	-9.39552
nl	-9.3956
osca	-9.3965
shiomptómacha	-9.39815
▁lean	-9.40185
▁ól	-9.40277
▁Ma	-9.40397
eachta	-9.40467
▁teicneolaíocht	-9.4051
▁ré	-9.40621
irt	-9.4063
namh	-9.40684
▁w	-9.41289
▁lán	-9.41345
anann	-9.41478
ianaise	-9.41508
▁freag	-9.41608
▁seachtain	-9.41874
▁scoi	-9.42032
thar	-9.4226
ialla	-9.42277
aoine	-9.42305
urtha	-9.42321
▁sonrach	-9.424
▁fhorbair	-9.42769
tair	-9.42786
▁thit	-9.42856
ntaibheathaigh	-9.42868
▁bhrasaíl	-9.42868
▁cocúnú	-9.42868
▁laethúla	-9.42868
▁ndéanann	-9.42868
▁linbh	-9.42868
▁ngrúpa	-9.42869
▁satharn	-9.42869
▁chliniciúil	-9.42869
▁shúile	-9.42871
▁slaghdán	-9.42871
▁scriosadh	-9.42874
▁paisinéir	-9.42874
▁fadtéarmach	-9.42878
▁leithead	-9.42879
▁dochtúra	-9.42883
▁nuashonrú	-9.42891
▁dteast	-9.42898
▁díol	-9.429
▁chinneadh	-9.429
▁Tabharfa	-9.42905
▁leithris	-9.42921
▁bhrú	-9.42932
▁mrna	-9.42943
▁soláthair	-9.42965
▁gcoróinvíreas	-9.43036
▁moladh	-9.43103
▁ollscoileanna	-9.43126
▁meá	-9.43134
▁ailse	-9.43153
▁saoráid	-9.43162
▁dtithe	-9.43212
▁leochaileach	-9.43233
▁tuarascá	-9.43238
▁Deimhnío	-9.43392
▁ainm	-9.43523
▁chlé	-9.43716
▁éire	-9.43742
oradh	-9.43763
95	-9.43815
▁cead	-9.43843
▁ábhar	-9.43862
▁saineola	-9.43929
▁pcr	-9.44057
▁gcuirfea	-9.44194
▁iar	-9.44248
▁dar	-9.45091
▁té	-9.45352
▁long	-9.45382
▁Measta	-9.45547
▁lua	-9.45726
▁Clúda	-9.45947
-2.	-9.46088
han	-9.46146
▁féach	-9.46414
agairt	-9.46465
▁freagair	-9.46528
▁eas	-9.46709
ocht	-9.46917
raitheann	-9.47252
▁”,	-9.47338
ormhór	-9.474
hku	-9.47721
fíor	-9.47725
▁Cleachta	-9.47765
fss	-9.47859
▁gurb	-9.48626
athair	-9.48758
abhadh	-9.48826
▁tromchúiseach	-9.49121
pla	-9.49178
99	-9.49261
▁caithf	-9.49299
▁bunúsach	-9.4936
▁sheol	-9.49422
▁plean	-9.49427
▁deacracht	-9.4945
▁70	-9.49454
oireann	-9.49492
▁gné	-9.49499
▁astráil	-9.49534
▁chugat	-9.49534
▁civet	-9.49534
▁córais	-9.49536
▁éadach	-9.49536
▁bhfón	-9.49538
▁forbartha	-9.49547
osaigh	-9.49551
▁soláthairtí	-9.4956
▁mbeal	-9.49569
▁Glan	-9.49583
▁dhaonra	-9.496
▁fhágáil	-9.49601
theagmháil	-9.49602
▁scagadh	-9.49602
▁gasta	-9.4962
▁glacadh	-9.49629
et	-9.49631
▁rialaithe	-9.49638
▁braith	-9.49661
▁chill	-9.49695
▁iontráil	-9.49718
▁torracha	-9.4976
▁40	-9.49785
▁cáis	-9.49794
▁seachain	-9.49805
sh	-9.49827
▁biontech	-9.49844
▁chiall	-9.49871
▁chúram	-9.49889
▁ghníomhaíocht	-9.49892
▁óige	-9.49976
▁thuairisciú	-9.4998
▁oifigigh	-9.50007
▁eitiltí	-9.50032
▁pangolin	-9.50347
▁tacaíochta	-9.50618
▁4,8	-9.50667
▁gcu	-9.50782
ian	-9.51065
▁iúil	-9.51107
éann	-9.51143
▁mhaithe	-9.51281
18	-9.51584
cháin	-9.51669
▁comparáid	-9.51788
▁o	-9.51851
nacht	-9.51859
ais	-9.51872
13	-9.52137
ithníodh	-9.52269
fheidhmeannach	-9.52646
▁bei	-9.527
▁lit	-9.52729
▁tr	-9.53173
ugtar	-9.5343
▁Féadfai	-9.53456
gartheagmháil	-9.53794
▁ja	-9.54032
▁cruinn	-9.54422
▁séasúr	-9.54783
úil	-9.54802
▁éifeachtúlacht	-9.54838
who	-9.54996
▁scamhóga	-9.55567
▁Déanfa	-9.55593
uine	-9.55967
▁measún	-9.56047
haigh	-9.56079
acsaín	-9.56091
stáil	-9.56107
▁bean	-9.56124
▁foghlaim	-9.56128
▁druga	-9.56189
▁ainsealach	-9.56217
ire	-9.56582
amh	-9.56637
▁california	-9.56675
▁aibreáin	-9.56677
▁cónaidhme	-9.56677
▁hiaráine	-9.56677
▁páipéir	-9.56677
▁scrúduithe	-9.56677
▁gcontae	-9.56677
▁samhain	-9.56678
▁leithreas	-9.56678
▁criticiúla	-9.56678
▁leathnú	-9.56678
▁fág	-9.56681
▁uile	-9.56681
▁tusa	-9.56683
▁matáin	-9.56686
▁atosú	-9.56696
▁tháirgeadh	-9.5671
▁neart	-9.56716
▁earná	-9.56717
▁maireachtáil	-9.56722
ny	-9.56723
uair	-9.56724
▁damáiste	-9.56734
▁hionfhabhtuithe	-9.56746
▁ciarsú	-9.5675
▁iontaofa	-9.5675
▁alfa	-9.5675
▁chealú	-9.56754
▁dtosach	-9.56757
▁meánscoile	-9.56768
▁spíce	-9.56772
▁géiniteach	-9.56783
iarmhairtí	-9.56784
▁béal	-9.56793
▁cealla	-9.5686
▁ghartheagmhála	-9.56874
▁cille	-9.56948
▁spreagadh	-9.56959
▁cinneadh	-9.5698
▁níocháin	-9.57055
ról	-9.572
▁acmhainní	-9.57225
eisiúint	-9.57242
▁phríomh	-9.57248
tarchurtha	-9.57337
▁cathracha	-9.57386
▁thaisteal	-9.5746
ála	-9.57471
órt	-9.57752
rian	-9.57872
▁siúil	-9.57904
ius	-9.5796
▁cúramach	-9.57977
▁ndeac	-9.58
▁Ch	-9.58282
▁mé	-9.58818
▁Mol	-9.58868
▁gníomh	-9.59188
▁minice	-9.59333
▁Bain	-9.59359
▁faisnéise	-9.59712
▁pháirt	-9.59939
eamhshiomptómach	-9.60309
▁Bainea	-9.60386
úlacht	-9.60499
ge	-9.60796
▁sá	-9.61268
▁bailiú	-9.61498
▁bhféadf	-9.61598
▁rúis	-9.61743
onraí	-9.6196
▁léi	-9.62369
haon	-9.62394
▁príomha	-9.62703
eisteanna	-9.62817
▁iomarca	-9.6306
▁dír	-9.63077
▁eitilt	-9.6326
▁aidhm	-9.63279
▁gnó	-9.63433
cloí	-9.63445
▁foils	-9.6359
▁ta	-9.63754
▁tuarascála	-9.63913
▁seomra	-9.63995
ath	-9.6402
▁frithvíreas	-9.64125
danna	-9.64144
▁feidhmeanna	-9.64169
▁suíomh	-9.64302
inneoi	-9.64314
ileog	-9.64316
coraintín	-9.64336
▁ghlas	-9.64345
hong	-9.6436
▁Comharthaí	-9.6437
▁bhainistiú	-9.6437
▁hafraice	-9.6437
▁laethanta	-9.6437
▁núicléitíde	-9.6437
▁speiceas	-9.6437
▁máinliachta	-9.6437
▁Fliú	-9.6437
▁sheachtain	-9.6437
▁smacht	-9.6437
▁dtreo	-9.64371
▁léana	-9.64371
▁sláintiúla	-9.64371
▁fhaireacha	-9.64371
▁dúinn	-9.64372
▁haipe	-9.64372
▁Scar	-9.64374
▁fhaisnéis	-9.64378
▁bhrath	-9.64378
▁orm	-9.64381
▁thógálacha	-9.6439
▁deich	-9.64392
▁thiocfa	-9.64397
▁scaoileadh	-9.64397
▁Roghna	-9.64398
▁Casacht	-9.64408
▁príomhoifig	-9.64416
▁shin	-9.64426
▁thuas	-9.64435
▁bhformhór	-9.64437
▁mian	-9.64439
▁múinteoirí	-9.6444
▁maolú	-9.6445
▁pleananna	-9.6445
▁orf	-9.64456
▁scála	-9.64457
▁ainmnithe	-9.64458
▁Cuirfi	-9.6447
▁taifeadadh	-9.6448
héile	-9.64516
▁hom	-9.64543
▁láimh	-9.64555
▁nochtaithe	-9.64582
▁shuí	-9.64746
▁Gan	-9.6492
▁imscrúdú	-9.64963
▁soiléir	-9.64974
▁aeráil	-9.6519
▁dromchlaí	-9.65272
▁uathú	-9.65356
ase	-9.6547
▁bunscoile	-9.65633
▁bhearta	-9.65849
▁ardriosca	-9.66009
bhunaithe	-9.66046
tóirí	-9.66063
íochta	-9.66249
▁agam	-9.66583
▁fhan	-9.66636
▁San	-9.6664
▁speicis	-9.66721
▁beaga	-9.66802
▁teachtaireacht	-9.67014
▁chlinic	-9.67546
ag	-9.67783
▁héifeacht	-9.6807
▁gcoda	-9.6822
66	-9.68308
▁ball	-9.6858
oir	-9.68654
▁spás	-9.68656
lucht	-9.68799
50	-9.6883
▁tóg	-9.6883
éirigh	-9.69184
▁beala	-9.6926
all	-9.69369
▁char	-9.69532
▁sc	-9.69614
▁áise	-9.69635
eipidéimeolaíoch	-9.69788
▁nigh	-9.70087
36	-9.70118
▁tug	-9.70257
tor	-9.70357
nasctha	-9.70705
reagairt	-9.70887
ardriosca	-9.70961
ospidéal	-9.71021
fen	-9.71134
▁Féadfa	-9.71263
óir	-9.71416
94	-9.71479
▁ga	-9.71482
▁dearbha	-9.71548
alar	-9.71552
▁Seo	-9.71659
galar	-9.72019
to	-9.72082
▁oscailt	-9.72267
▁trialach	-9.7229
▁marfach	-9.72301
▁tógála	-9.72522
▁chlúda	-9.72549
óthar	-9.72552
▁riarachá	-9.72559
int	-9.72567
▁chónaí	-9.72596
▁ghearr	-9.72622
▁páipéar	-9.72699
▁phylogenetic	-9.72703
▁Spreag	-9.72703
▁fhoghlaim	-9.72703
▁héirinn	-9.72703
▁laethúil	-9.72703
▁mheiriceá	-9.72703
▁mheánoirthir	-9.72703
▁miondíol	-9.72703
▁slaghdáin	-9.72703
▁theaghlaigh	-9.72703
▁unesco	-9.72703
▁eabhrac	-9.72703
▁titim	-9.72703
▁céatadá	-9.72703
▁biseach	-9.72704
▁céadaoin	-9.72704
▁ceanada	-9.72705
▁orainn	-9.72705
▁mheithimh	-9.72706
ibé	-9.72706
▁oifigiúla	-9.72709
▁bluetooth	-9.7271
▁páirteach	-9.72732
▁cong	-9.72734
▁coimeádta	-9.72735
▁Caithfi	-9.72739
▁smaoin	-9.72742
▁dhó	-9.72763
19	-9.72784
▁úrscéal	-9.72791
▁ceadaithe	-9.72793
▁bialanna	-9.72812
▁gheo	-9.72816
▁cel	-9.72838
▁cuairteoirí	-9.72846
▁comhaireamh	-9.72867
▁oíche	-9.72878
▁réidh	-9.72896
▁coicíse	-9.72896
▁bhfuar	-9.72905
seirbhís	-9.72935
▁gearr	-9.72958
▁oiriúnach	-9.73017
▁thorthaí	-9.7302
▁li	-9.73022
▁chleachtadh	-9.7305
▁coisctheach	-9.73053
▁seiceáil	-9.73154
▁séireolaíoch	-9.73187
▁treocht	-9.7322
▁cóiré	-9.73253
▁mhair	-9.73277
▁cumas	-9.73326
▁socr	-9.73409
▁fheic	-9.73415
▁tuairiscí	-9.73421
▁pataigineach	-9.73808
rú	-9.74122
▁icu	-9.74165
abhair	-9.74186
▁hi	-9.7435
▁aclaíocht	-9.7435
▁dian	-9.74359
▁aireacht	-9.74411
nó	-9.7447
lach	-9.74855
▁éifeachtúlachta	-9.74909
▁caint	-9.74972
▁féadfa	-9.74983
▁bí	-9.75246
▁macasamhl	-9.75422
▁úsáideoir	-9.75576
eiceáil	-9.75645
ur	-9.75926
▁Iarrfa	-9.75957
▁oibríochta	-9.76055
▁Cabhró	-9.76076
▁nuacht	-9.76241
ord	-9.76281
▁ct	-9.76537
▁éagsúlacht	-9.76653
▁guaise	-9.76657
bhealaí	-9.76875
éim	-9.76939
acair	-9.77067
▁orda	-9.7712
▁Labhair	-9.77214
ionad	-9.77575
fh	-9.77582
▁héifeachtach	-9.77586
▁deis	-9.78255
rán	-9.78446
▁re	-9.78496
▁táirg	-9.78516
▁beal	-9.78678
iúr	-9.78882
▁sár	-9.79094
▁38	-9.7918
▁staid	-9.79314
chúrsa	-9.79447
ear	-9.79467
▁aipe	-9.79633
▁holo	-9.79635
84	-9.79819
▁gcuir	-9.79975
ionfhabhtuithe	-9.80017
pcr	-9.80066
thír	-9.80083
uachtarán	-9.80207
▁cheada	-9.80264
▁chuims	-9.8032
dirghníomhaíocht	-9.80531
▁100,000	-9.80549
nár	-9.80598
▁íoc	-9.80803
hol	-9.80816
▁cuma	-9.80951
▁Cá	-9.80973
▁il	-9.80989
▁leag	-9.81073
tóga	-9.81182
athain	-9.81271
▁náisiú	-9.81355
▁chonai	-9.8141
alamh	-9.81495
▁tuairisciú	-9.81597
▁comhair	-9.81648
▁margaí	-9.81788
▁cumarsáid	-9.81794
▁cytokine	-9.81794
▁cúrsála	-9.81794
▁iontrála	-9.81794
▁laidineach	-9.81794
▁lorg	-9.81794
▁thairg	-9.81794
▁físe	-9.81794
▁gclúd	-9.81794
▁gcéanna	-9.81794
▁camel	-9.81794
▁idirlín	-9.81794
▁céimnithe	-9.81795
▁rté	-9.81796
▁gcúis	-9.81797
▁droch	-9.81797
▁oifigiúil	-9.81797
▁nuabheirthe	-9.81799
▁ceathrar	-9.81804
▁sainaithníodh	-9.81806
▁saoránach	-9.81807
▁toirmeasc	-9.81807
▁fliuch	-9.81809
▁ranganna	-9.8183
▁bhuail	-9.81855
▁boladh	-9.81866
▁80%	-9.81884
▁feidhmiú	-9.81888
▁tcm	-9.81888
▁innéacs	-9.81889
▁dalta	-9.81889
▁riamh	-9.8189
▁dhiúltach	-9.81892
▁ullmhú	-9.819
▁meáchan	-9.81901
▁measartha	-9.81913
▁foinse	-9.81928
▁randamacha	-9.81938
▁sainch	-9.81946
▁fhiabhras	-9.8195
▁ceisteanna	-9.8202
▁ndúnfa	-9.82033
▁trácht	-9.82044
▁4,9	-9.82045
▁ábalta	-9.82051
▁teiripe	-9.82148
▁ghá	-9.82162
▁leaba	-9.82176
▁óstáil	-9.82218
▁dtéa	-9.82231
▁lig	-9.82276
▁lárnach	-9.82284
▁bó	-9.82333
ck	-9.82369
▁post	-9.82385
▁cathai	-9.82393
▁Roinn	-9.82714
▁nochtadh	-9.82732
▁cheannach	-9.82822
▁eolaíochta	-9.82845
▁leas	-9.82864
▁mama	-9.83146
▁sinsear	-9.83378
achas	-9.83772
▁súile	-9.83774
▁salach	-9.83804
▁gartheagmhála	-9.84021
aireachta	-9.84097
▁oifige	-9.84193
▁próitéine	-9.84195
▁tras	-9.84204
gus	-9.84242
ofa	-9.84253
6%	-9.84433
teistiméireachta	-9.84648
é	-9.84935
airí	-9.8498
▁dtabharfa	-9.85096
▁coraintíní	-9.85159
▁cú	-9.8555
▁Tabha	-9.85579
▁seach	-9.85761
▁stoc	-9.86281
heo	-9.87001
▁cothaith	-9.87144
74	-9.87164
▁Dún	-9.87236
ka	-9.87594
sócháin	-9.88027
ite	-9.88181
uartha	-9.88244
x	-9.88263
z	-9.88497
88	-9.88509
k	-9.8881
neamh	-9.89073
▁(6	-9.89335
▁dtír	-9.89813
ig	-9.8984
airíonna	-9.90188
ireacht	-9.90252
▁dt	-9.90285
bhaint	-9.90461
ras	-9.90543
▁saol	-9.90608
▁comhartha	-9.90716
ba	-9.90909
agus	-9.90972
or	-9.90993
▁údar	-9.91113
▁príobháideacha	-9.91155
▁fhostóir	-9.91167
▁cheanta	-9.91178
1%	-9.9124
▁breis	-9.91345
▁páirt	-9.91382
phataigineach	-9.91402
trialacha	-9.91476
uilleadh	-9.9153
inn	-9.91565
▁tiomána	-9.91607
thain	-9.91623
▁solátha	-9.91635
coimisiún	-9.91657
▁cho	-9.91664
iondróm	-9.91716
▁mio	-9.91728
▁Scaip	-9.9174
▁líonra	-9.91751
▁tháirg	-9.9176
▁cógas	-9.91775
haispeáin	-9.91794
▁Oibr	-9.91794
▁atruacha	-9.91794
▁brasaíle	-9.91794
▁choirp	-9.91794
▁cluich	-9.91794
▁dhiagnóisiú	-9.91794
▁dromlaigh	-9.91794
▁inniu	-9.91794
▁membrane	-9.91794
▁smaoiseach	-9.91794
▁thairiscint	-9.91794
▁ísiltír	-9.91794
▁coróinvíris	-9.91794
▁díhiodráitiú	-9.91794
▁foghlam	-9.91794
▁teorann	-9.91794
▁hoifigiúil	-9.91794
▁Teast	-9.91795
▁gloin	-9.91795
▁cultúrtha	-9.91796
▁cholainn	-9.91796
▁háise	-9.91796
▁shroich	-9.91799
▁foinsí	-9.91799
▁chabhr	-9.91801
▁réamhchúraim	-9.91803
▁imdhíon	-9.91806
▁soghluaiste	-9.91807
▁huisce	-9.91809
▁traidisiúnta	-9.91809
▁codlata	-9.91815
▁cheangal	-9.91815
▁bhreise	-9.91823
▁ngall	-9.91823
▁dtástáil	-9.91826
▁mbaineann	-9.91826
ábhair	-9.91826
▁Cuid	-9.91829
▁dháileadh	-9.91829
▁mhoilliú	-9.91832
▁sheiceáil	-9.91833
▁km	-9.91834
▁teagla	-9.91835
▁bog	-9.91836
▁Ansin	-9.91837
▁téarnamh	-9.91845
▁tuairiscithe	-9.9185
▁thuilleadh	-9.91864
▁measta	-9.91885
▁muc	-9.91893
▁thuairiscítear	-9.91897
▁aerasóil	-9.91899
▁polaiméaráise	-9.91899
▁dóchúil	-9.91899
▁fheabhsú	-9.91899
▁poist	-9.919
▁rbd	-9.91902
▁tasc	-9.9193
▁athmholadh	-9.91942
▁dheas	-9.91968
raib	-9.91976
▁víreolaíochta	-9.91986
▁bord	-9.92021
▁scéim	-9.92071
▁seachadta	-9.92078
▁rat	-9.92086
▁cumann	-9.92111
▁mholadh	-9.92136
▁treorach	-9.92137
▁laghda	-9.9218
▁dhíre	-9.92208
▁eachtracha	-9.92234
▁sín	-9.92293
▁alcól	-9.92303
▁racha	-9.92311
▁chlár	-9.92313
▁fás	-9.92387
▁uachtarach	-9.92407
▁bhunús	-9.9251
▁ghartheagmhálaí	-9.92617
▁bhail	-9.92664
▁aigéad	-9.9283
▁aistriú	-9.92847
▁leathna	-9.92915
▁eacnamaíocha	-9.9294
▁hard	-9.92984
randa	-9.93023
20	-9.93332
▁soláthr	-9.93489
▁acmhainn	-9.93595
▁maoini	-9.93602
▁Mola	-9.93606
25	-9.93625
▁k	-9.9367
rialacha	-9.93717
▁Braithea	-9.93776
rabhadh	-9.93983
▁airíonna	-9.93984
re	-9.94119
▁síneach	-9.94336
ábhar	-9.94375
▁chosa	-9.94405
▁hathr	-9.94544
▁airgeada	-9.94897
▁láriona	-9.94986
▁fisic	-9.95529
éin	-9.95591
▁sain	-9.95685
10	-9.95689
inneas	-9.95977
14	-9.96074
ionann	-9.96284
▁dhíol	-9.96435
35	-9.96589
lú	-9.97441
eálacha	-9.97503
▁imoibri	-9.97643
▁pas	-9.97879
▁gov	-9.98036
formhór	-9.98095
éal	-9.98236
▁déanach	-9.9848
▁Cabhr	-9.98526
▁rún	-9.98647
ráid	-9.98648
▁breathn	-9.99079
▁tro	-9.99088
▁uaire	-9.9914
ol	-9.99499
▁ionsaí	-9.99678
tais	-9.99801
éadaí	-9.99996
eart	-10.0006
▁phríobháideach	-10.0019
▁mhaith	-10.0052
▁37	-10.0067
ainm	-10.0106
cás	-10.011
oileáin	-10.0112
réitigh	-10.0118
fan	-10.0125
mers	-10.0128
be	-10.0136
▁85	-10.0138
ama	-10.0144
▁cuar	-10.0146
ma	-10.0151
tas	-10.0159
éil	-10.0186
▁foirm	-10.0198
▁soláthra	-10.0201
▁feabh	-10.0205
air	-10.0246
en	-10.025
▁taifead	-10.0274
▁glac	-10.0274
aireanta	-10.0275
ata	-10.0279
▁plé	-10.0279
▁bhunú	-10.0279
óimheas	-10.0281
ocha	-10.0282
▁ghéanó	-10.0285
75	-10.0286
▁mhoill	-10.0286
▁téarna	-10.0286
▁dtug	-10.0287
▁phlé	-10.029
▁Giorra	-10.029
▁Taisteal	-10.029
▁difriúil	-10.029
▁ghéiniteach	-10.029
▁heorpa	-10.029
▁héasca	-10.029
▁réasúnta	-10.029
▁scagthástáil	-10.029
▁sheomra	-10.029
▁singeapór	-10.029
▁stéaróidigh	-10.029
▁tábhairne	-10.029
▁íoslaghdú	-10.029
▁ríthábhachtach	-10.0291
▁óstán	-10.0291
▁oiliúna	-10.0291
▁éascú	-10.0291
▁Scaoil	-10.0291
▁fnass	-10.0291
▁shádach	-10.0291
▁dtarló	-10.0291
▁aslonnú	-10.0291
▁prognóis	-10.0291
▁dtorthaí	-10.0291
▁ndia	-10.0291
▁Ráig	-10.0291
▁soicind	-10.0291
▁ghéarchéim	-10.0291
▁práinneach	-10.0291
▁leataobh	-10.0292
▁throid	-10.0292
▁thiar	-10.0292
▁glasáil	-10.0292
▁taiwan	-10.0292
▁dóichí	-10.0292
▁eitleán	-10.0292
▁sreabhán	-10.0293
▁míleata	-10.0293
▁shaoránaigh	-10.0293
▁thaispeáint	-10.0293
▁aisghabháil	-10.0294
▁2012	-10.0294
▁ghloiní	-10.0294
▁ghníomhaireacht	-10.0295
▁cíche	-10.0295
▁fadhbanna	-10.0295
▁ghabh	-10.0295
▁bruscair	-10.0295
▁nasal	-10.0296
▁prótacal	-10.0296
▁huimh	-10.0296
▁reiligiúnacha	-10.0298
▁dhaonna	-10.0299
▁thaistealaithe	-10.0299
▁feiceáil	-10.0299
omharc	-10.0299
▁tráth	-10.0302
▁Féach	-10.0302
▁antaiginí	-10.0302
▁Cuims	-10.0302
brid	-10.0302
▁éillithe	-10.0302
▁fhear	-10.0302
▁léitheoir	-10.0303
▁dearbhú	-10.0305
▁frithvíreasacha	-10.0305
▁cóid	-10.0307
▁leathnaithe	-10.0307
▁gabhdóir	-10.0312
▁sláinteachais	-10.0312
▁deireanach	-10.0319
sta	-10.0321
▁oiliúint	-10.0323
▁ndochtúirí	-10.0324
▁theacht	-10.033
▁ham	-10.0334
▁chontae	-10.0344
▁cleachtadh	-10.0345
▁iarrthóir	-10.0346
▁us	-10.0347
▁aclaíochta	-10.0349
▁cleachtas	-10.0351
faí	-10.0352
ation	-10.0353
9%	-10.0359
▁póilín	-10.0361
aitheann	-10.0376
de	-10.0377
▁troma	-10.0379
▁eisithe	-10.0382
▁seachtainí	-10.0398
io	-10.0402
▁choraintín	-10.0408
da	-10.0409
▁bhrón	-10.0413
▁ardaithe	-10.0424
65	-10.0429
▁cos	-10.0434
▁uala	-10.0437
▁cúige	-10.0442
▁gníomhaireachta	-10.0442
▁gnótha	-10.0444
▁chleachta	-10.0452
2%	-10.0469
das	-10.0477
▁ha	-10.0482
▁cuims	-10.0483
chosúil	-10.05
oibrithe	-10.0501
▁sraith	-10.0505
▁clis	-10.0543
▁aird	-10.0567
déileáil	-10.0567
▁fhill	-10.0574
▁deimhn	-10.0582
▁cáithnín	-10.0594
▁sam	-10.0599
▁séasúrach	-10.0614
▁mha	-10.062
▁33	-10.062
aisc	-10.0641
▁lu	-10.0657
acháin	-10.0668
▁leanúnacha	-10.068
láir	-10.0681
fort	-10.0743
78	-10.0748
27	-10.0749
▁críoch	-10.0749
▁sóchá	-10.0778
pháirtí	-10.0789
áit	-10.0798
▁cleachta	-10.0819
▁shocra	-10.0824
athrú	-10.083
táirgeadh	-10.0835
▁be	-10.0842
▁Bí	-10.0843
▁ghlac	-10.0858
23	-10.0897
cu	-10.0899
43,	-10.0928
▁pe	-10.0939
únamh	-10.0939
▁mhuin	-10.0964
2,000	-10.0964
▁réigiúnach	-10.0973
▁lee	-10.0974
21	-10.0982
▁Ith	-10.0983
chtaí	-10.0999
heabhairshláinte	-10.1
▁gníomhaíocht	-10.1031
ap	-10.1033
ed	-10.1046
aonad	-10.1048
▁scaoil	-10.1078
▁mhéadaithe	-10.1087
dlúthpháirtíocht	-10.1093
ígh	-10.1105
léiriú	-10.1134
▁théa	-10.1144
▁fhoins	-10.1165
mp	-10.117
▁bail	-10.1177
▁altra	-10.1185
▁ng	-10.1196
óid	-10.1246
▁caill	-10.1258
líne	-10.1263
foireann	-10.1276
aíochtaí	-10.1302
cdc	-10.1308
ínigh	-10.1311
▁meas	-10.1313
comhghleacaithe	-10.1315
athlastach	-10.1316
▁65	-10.1328
ceart	-10.1328
cam	-10.1337
91	-10.1338
▁mbun	-10.134
.5	-10.135
▁luch	-10.1352
▁sláinteacha	-10.1355
▁choinn	-10.1361
roinn	-10.1365
tábhachtach	-10.1372
▁thaca	-10.1374
tion	-10.1375
nntanas	-10.1378
gas	-10.1378
▁Forbr	-10.1384
stiú	-10.1397
ghabhálach	-10.1403
isteach	-10.1407
▁arda	-10.1424
harla	-10.1434
▁léirithe	-10.1436
▁cheadú	-10.1446
▁fhor	-10.1452
▁caite	-10.1453
▁séireolaíocht	-10.1473
ora	-10.1479
▁bpob	-10.148
▁chua	-10.1482
▁réims	-10.1484
▁garda	-10.1486
ní	-10.1497
cep	-10.1497
▁breoiteacht	-10.1499
▁torrach	-10.1499
47	-10.1507
▁bronch	-10.1513
uismitheoirí	-10.1515
▁2021.	-10.1523
▁eiseama	-10.1527
▁gnéas	-10.1528
▁cuirfi	-10.1531
aighdeáin	-10.1531
▁chinn	-10.1532
▁stá	-10.1533
▁labhair	-10.1533
shonrach	-10.1535
eineafóibe	-10.1537
▁deacra	-10.1538
íreas	-10.1539
▁breoite	-10.1539
mhíochaine	-10.1539
ostaithe	-10.154
oirthear	-10.154
▁Oscl	-10.154
frídíní	-10.154
shéalainn	-10.154
▁Fiabhras	-10.154
▁alcóil	-10.154
▁bpáiste	-10.154
▁cathaoir	-10.154
▁comhsheasmhach	-10.154
▁déardaoin	-10.154
▁dúshlán	-10.154
▁fadthéarmach	-10.154
▁geografach	-10.154
▁google	-10.154
▁gréasáin	-10.154
▁hindia	-10.154
▁muinteartha	-10.154
▁nasopharyngeal	-10.154
▁oilithr	-10.154
▁scaoll	-10.154
▁tairseach	-10.154
▁todhchaí	-10.154
▁washington	-10.154
▁Príobháideach	-10.1541
▁throigh	-10.1541
▁buaic	-10.1541
▁corónach	-10.1541
▁ireland	-10.1541
▁naíonáin	-10.1541
▁naíonán	-10.1541
▁staitisti	-10.1541
▁coróivír	-10.1541
▁scanadh	-10.1541
▁strus	-10.1541
▁róthrom	-10.1541
iobr	-10.1541
▁ghiniúint	-10.1541
▁cheap	-10.1541
▁seachtainiúil	-10.1541
▁léar	-10.1541
▁eagraithe	-10.1542
▁maolaithe	-10.1542
▁bliantúil	-10.1542
▁pobal	-10.1542
▁míonna	-10.1542
▁deiridh	-10.1543
▁Lig	-10.1543
hael	-10.1543
▁dhéanfar	-10.1544
▁éabhlóideach	-10.1544
▁spéise	-10.1544
▁Féin	-10.1544
apple	-10.1545
eachadadh	-10.1545
05	-10.1545
shnáithe	-10.1546
▁2003	-10.1547
▁gcionn	-10.1547
▁Bia	-10.1548
▁su	-10.1549
▁iniúchadh	-10.1549
▁fda	-10.1549
▁mbeart	-10.155
▁thuar	-10.1551
53	-10.1551
▁duitse	-10.1552
▁eo	-10.1552
▁creid	-10.1553
▁aeriompartha	-10.1554
▁teoiric	-10.1554
▁dianchúram	-10.1554
62	-10.1558
▁díolúine	-10.1558
▁béilí	-10.156
▁iolracha	-10.1561
▁delta	-10.1561
imín	-10.1563
▁patrú	-10.1565
▁athraitheach	-10.1567
▁pangóilí	-10.1568
▁phian	-10.157
▁sceideal	-10.157
▁ticé	-10.157
▁ocsaigine	-10.1571
▁saoil	-10.1573
▁éabhlóid	-10.1574
▁112	-10.1576
▁amhlaidh	-10.1577
▁moil	-10.158
▁ghlasáil	-10.1582
▁Mhéad	-10.1582
▁feidhmeannach	-10.1587
▁dtuai	-10.1594
▁uaidh	-10.1595
▁oideas	-10.1602
▁95%	-10.1603
4)	-10.1605
▁tréith	-10.1607
▁aeir	-10.1608
▁ciall	-10.1612
▁polaitiú	-10.1622
▁chógais	-10.1625
▁(1	-10.1629
▁beatha	-10.1632
aol	-10.1639
▁seomraí	-10.1639
acsaíní	-10.1646
▁bhfanfa	-10.1647
▁tcp	-10.1648
▁árann	-10.1656
▁chuairteoir	-10.1658
mhar	-10.1669
ald	-10.1674
hálaí	-10.1675
▁ainmn	-10.1689
bair	-10.1696
▁idirghabhála	-10.1697
▁tf	-10.1699
héid	-10.1703
▁Sea	-10.1713
▁marbh	-10.1716
iam	-10.1748
▁oileáin	-10.1756
ánach	-10.1757
baill	-10.176
dro	-10.1768
tithe	-10.1779
óg	-10.1799
▁1,0	-10.1815
▁rabha	-10.1816
hná	-10.1837
▁(2	-10.1841
comhairle	-10.1845
▁cam	-10.1851
▁fen	-10.1856
▁35	-10.1856
ning	-10.1859
▁comhla	-10.1865
iúla	-10.1877
2)	-10.188
lainne	-10.1881
▁luach	-10.1881
▁po	-10.1889
bhreith	-10.1894
38	-10.1897
▁díobhálach	-10.1907
▁cruthaío	-10.1909
▁staidr	-10.1911
▁airíonn	-10.1918
▁costa	-10.1925
háin	-10.1943
▁roghna	-10.1952
▁dona	-10.1959
j	-10.197
wm	-10.1978
▁(3	-10.1986
isté	-10.1992
▁bheag	-10.1993
▁rúise	-10.1996
60	-10.2017
óis	-10.202
únadh	-10.203
▁tonn	-10.2033
69	-10.2048
rt	-10.2093
▁80	-10.2116
▁pa	-10.2119
▁teicneolaíochta	-10.2136
ilt	-10.2139
ng	-10.2199
3)	-10.22
▁gclá	-10.2211
▁dtosa	-10.2216
▁scaipf	-10.2217
áileadh	-10.2232
▁cois	-10.2238
▁dheimhn	-10.225
▁fhorb	-10.2278
▁Aon	-10.2296
ia	-10.2308
ib	-10.2314
▁Déanfai	-10.2316
▁Athr	-10.2328
▁aims	-10.2334
▁sp	-10.2336
chán	-10.2357
com	-10.2357
▁críocha	-10.2362
iarr	-10.237
▁Iona	-10.2377
▁leictreon	-10.2389
▁fó	-10.2414
▁chú	-10.2429
▁Iarr	-10.2429
▁chúrsa	-10.2458
▁55	-10.2461
15	-10.2467
70	-10.2491
▁dhear	-10.2493
▁Tógfai	-10.2497
ín	-10.2502
llmha	-10.2512
▁oibriú	-10.2556
31	-10.2556
37	-10.2558
▁neamhghnácha	-10.256
▁tánaiste	-10.2585
claíocht	-10.2611
▁mara	-10.2623
chta	-10.2631
12	-10.2663
éireo	-10.2669
▁mor	-10.2674
char	-10.2694
med	-10.2719
▁fheidhm	-10.2731
30	-10.2732
hse	-10.2774
ley	-10.2774
▁oiriúnaithe	-10.2787
▁se	-10.2792
tarchur	-10.2798
ealú	-10.2803
fanacht	-10.2804
67	-10.2812
▁crua	-10.2813
▁gco	-10.2816
áistí	-10.283
▁pataigin	-10.283
triail	-10.2833
▁ceannach	-10.2835
duine	-10.2849
▁gha	-10.2851
▁cúrsa	-10.2853
50%	-10.2871
raigh	-10.2873
chair	-10.2892
cun	-10.2897
▁feidhm	-10.2899
rón	-10.29
16	-10.2903
áiteanna	-10.2912
▁ceadú	-10.2915
mheastachá	-10.2917
▁slabhr	-10.2922
▁sochraid	-10.2923
aonta	-10.2925
iúint	-10.2925
▁tosaíocht	-10.2931
▁ullmhacht	-10.2942
▁eachtrach	-10.2943
▁ghlan	-10.2947
liom	-10.2952
▁eachtra	-10.2952
▁dhiúlta	-10.2953
dhíola	-10.2957
ampas	-10.2959
▁atáirg	-10.2964
réige	-10.2965
▁teasta	-10.2968
▁Ord	-10.2969
▁Soláthraí	-10.2969
▁aisghafa	-10.2969
▁cardashoithíoch	-10.2969
▁dhíghalrú	-10.2969
▁fhilipíneacha	-10.2969
▁fraince	-10.2969
▁fúthu	-10.2969
▁gcoitinne	-10.2969
▁ghnólachtaí	-10.2969
▁iosrael	-10.2969
▁mhéara	-10.2969
▁pádraig	-10.2969
▁remdesivir	-10.2969
▁tapúla	-10.2969
▁thaifead	-10.2969
▁threorú	-10.2969
▁uillinn	-10.2969
▁fráma	-10.2969
▁uilig	-10.2969
einsím	-10.2969
▁Fág	-10.2969
▁sruth	-10.2969
▁ríofa	-10.2969
▁chriticiúil	-10.2969
▁lúnasa	-10.2969
▁compord	-10.2969
▁oxford	-10.2969
▁tubaiste	-10.2969
▁Bhuel	-10.2969
▁lámhainní	-10.2969
▁coláiste	-10.2969
▁téalainn	-10.2969
▁criticiúil	-10.2969
▁súg	-10.2969
▁stoirm	-10.2969
▁samhalt	-10.2969
▁ngéarchéim	-10.2969
▁pointe	-10.2969
▁dtreoirlín	-10.2969
▁ghnáthuaireanta	-10.2969
▁leithligh	-10.297
▁gharda	-10.297
▁ardoideachais	-10.297
▁fíocháin	-10.297
▁fíochán	-10.297
▁Cúis	-10.297
▁saoránaigh	-10.297
▁mharú	-10.2971
▁meabhrach	-10.2971
▁norm	-10.2971
▁blas	-10.2971
▁lag	-10.2971
▁leantach	-10.2971
▁Sláinteachas	-10.2971
▁rolla	-10.2971
▁tharraing	-10.2972
▁iomadú	-10.2972
▁Cógais	-10.2973
▁turais	-10.2973
▁fhailí	-10.2974
▁toirmisc	-10.2975
▁Rá	-10.2975
▁foirmiúil	-10.2976
▁comhdhúil	-10.2976
▁fisiciúil	-10.2977
land	-10.2978
▁scagthástála	-10.2981
▁caillte	-10.2981
íteas	-10.2981
▁cumhachta	-10.2982
▁bainistíocht	-10.2982
▁mbialann	-10.2983
▁chrutha	-10.2983
▁leithne	-10.2983
▁gnólachtaí	-10.2985
labhra	-10.2985
▁buidéil	-10.2985
▁sluaite	-10.2985
▁láithreán	-10.2985
▁aonta	-10.2986
▁ghéanóma	-10.2986
39	-10.2987
▁4.30	-10.2988
▁rialála	-10.2988
▁ócáid	-10.2988
er	-10.2991
▁phost	-10.2991
insint	-10.2992
ul	-10.2993
▁aslonna	-10.2994
▁chúige	-10.2994
▁chreid	-10.2994
▁ghearradh	-10.2999
▁dtréimhs	-10.2999
▁cill	-10.3
▁cógaslanna	-10.3
▁4,4	-10.3002
órsa	-10.3003
▁aerlíne	-10.3006
▁bainis	-10.3012
▁uirlis	-10.3012
▁ghabhdóir	-10.3012
▁gly	-10.3012
▁ullmhachta	-10.3013
stu	-10.3013
▁iii	-10.3013
▁goir	-10.3016
▁éireann	-10.3016
▁atreorú	-10.3017
▁pailin	-10.3018
bhanna	-10.3019
▁beagán	-10.3019
▁30%	-10.3019
▁antashubstaintí	-10.302
▁news	-10.302
achta	-10.302
▁rannpháirteach	-10.3021
▁aerálaí	-10.3021
▁feidhmchlá	-10.3026
▁príobháideacht	-10.3028
▁fi	-10.3031
▁rathú	-10.3033
▁39	-10.3034
cp	-10.3035
▁fhachtóir	-10.3043
▁lasta	-10.3048
58	-10.3048
athróg	-10.305
▁luain	-10.3054
▁veicteorach	-10.3055
opin	-10.3057
▁géarchéim	-10.3062
▁shárú	-10.3063
▁zhan	-10.3067
▁charr	-10.3072
pp	-10.3072
eamhstruchtúrtha	-10.3072
▁chónaitheoir	-10.3078
▁aipeanna	-10.3086
▁vir	-10.3087
▁ca	-10.3091
▁naisc	-10.3094
▁thóg	-10.3094
irítear	-10.3097
pe	-10.3098
92	-10.3099
ca	-10.31
▁mbe	-10.3102
▁bhfaighea	-10.3119
▁athlastach	-10.3127
▁500	-10.3153
▁Imeacht	-10.3156
▁triail	-10.3163
ti	-10.3169
▁scoir	-10.3183
▁foghlaimeoir	-10.3184
▁fógraíodh	-10.3194
asta	-10.3207
▁ciníocha	-10.3209
87	-10.3214
▁cúigí	-10.322
der	-10.323
ud	-10.3235
víreas	-10.325
iomad	-10.3255
▁34	-10.327
oifige	-10.3293
aireachtáil	-10.3298
uibh	-10.3303
feadh	-10.3305
▁uaslódála	-10.3306
iall	-10.331
óidí	-10.3337
agartha	-10.3361
▁phróise	-10.3372
sia	-10.338
éidearthacht	-10.3382
▁hku	-10.3386
▁fiche	-10.3398
géine	-10.3412
▁ráit	-10.3425
ema	-10.3428
▁var	-10.3436
▁comhpháirt	-10.3449
▁dom	-10.3454
1,	-10.3457
56	-10.3487
▁2,3	-10.3493
cí	-10.3514
▁sínt	-10.3525
▁has	-10.3544
▁dteann	-10.356
ik	-10.3571
▁nd	-10.3574
▁Ro	-10.3616
▁féa	-10.3636
álacha	-10.3643
▁oc	-10.3666
▁gairi	-10.3668
▁anáil	-10.3672
08	-10.3676
96	-10.3692
▁seas	-10.3719
use	-10.3719
ige	-10.3726
ionn	-10.3742
ry	-10.3744
▁rochta	-10.3763
▁mothú	-10.3773
▁43	-10.3795
▁gaire	-10.3813
29	-10.382
▁4,3	-10.3839
dars	-10.3841
▁gceann	-10.3862
osclófa	-10.3901
%)	-10.3904
che	-10.3908
odh	-10.3922
▁Meas	-10.3925
▁shín	-10.393
100	-10.3931
▁dtaca	-10.3938
▁wi	-10.3939
▁lín	-10.3948
▁Féad	-10.3952
300	-10.3963
chealla	-10.4001
▁ip	-10.4009
▁Tástála	-10.4034
▁300	-10.4037
▁Rian	-10.4069
gan	-10.4081
ll	-10.4124
íochtaí	-10.4145
▁chuairt	-10.4147
▁cua	-10.4162
▁sea	-10.4176
ogadh	-10.4177
▁deimhni	-10.418
▁leanfa	-10.4187
▁breithe	-10.4192
▁ocra	-10.4204
▁br	-10.4247
▁theiripe	-10.4251
▁Laghda	-10.4255
▁aerála	-10.431
onair	-10.4361
▁st	-10.4364
reatain	-10.4377
maoin	-10.4391
lo	-10.4392
▁4,6	-10.4401
64	-10.4421
3%	-10.4439
ct	-10.4446
▁neamhspleách	-10.445
aghaidh	-10.4454
aigéad	-10.446
aistriú	-10.446
bhrón	-10.4461
choraintín	-10.4461
gov	-10.4465
leibhé	-10.4466
oireachta	-10.4466
athlastacha	-10.4467
éileamh	-10.4467
seas	-10.4469
▁59	-10.4476
taobh	-10.4477
úradh	-10.4479
ow	-10.4482
▁cothrom	-10.4483
44	-10.4485
lí	-10.4486
airde	-10.45
▁háit	-10.4509
▁Comhairl	-10.4513
▁bailío	-10.4529
ifr	-10.4532
▁ráite	-10.4532
▁sciath	-10.4538
scrúdú	-10.4545
riú	-10.4547
itheoir	-10.4551
ola	-10.4556
rcaí	-10.4575
▁tu	-10.4576
▁antashubstaint	-10.4576
▁fho	-10.4577
▁éiginnte	-10.4578
▁siopa	-10.4579
▁foriomlán	-10.4583
phacáist	-10.4586
hearbha	-10.4587
▁ainmnío	-10.4589
▁cl	-10.4589
▁samplá	-10.4601
▁chóna	-10.4603
▁Ghla	-10.4604
▁rc	-10.461
oimeád	-10.4613
▁imscrúd	-10.4614
▁chúl	-10.4616
▁Tarchu	-10.4619
▁siomptóm	-10.462
▁fadhb	-10.4629
▁imdhíonta	-10.4629
chúraim	-10.4634
24	-10.4635
▁insteall	-10.4636
▁ndeimhn	-10.4636
mhúinteoirí	-10.4636
▁Paindéim	-10.4636
▁bprói	-10.4636
▁bronchiolitis	-10.4636
▁dteaghlaigh	-10.4636
▁dtuarascá	-10.4636
▁fecal	-10.4636
▁forleithne	-10.4636
▁gclinic	-10.4636
▁ghinearálta	-10.4636
▁grósaera	-10.4636
▁hastráile	-10.4636
▁hopkins	-10.4636
▁infhaighteacht	-10.4636
▁iobúpróifein	-10.4636
▁luimneach	-10.4636
▁mhantáin	-10.4636
▁mhuinchille	-10.4636
▁míchumais	-10.4636
▁phacastáin	-10.4636
▁shasana	-10.4636
▁theoranta	-10.4636
▁uilíoch	-10.4636
▁woolworths	-10.4636
eardchuma	-10.4636
▁Braithf	-10.4636
▁talún	-10.4636
▁thaispeán	-10.4636
▁tuirc	-10.4636
▁bhforbairt	-10.4636
▁chothabháil	-10.4636
▁chosanta	-10.4636
▁comhcheilge	-10.4636
▁veicteoir	-10.4636
▁choláiste	-10.4636
▁braite	-10.4636
▁trádá	-10.4636
▁Anois	-10.4636
▁urlár	-10.4636
▁dtuig	-10.4636
aistigh	-10.4636
▁urlabhra	-10.4636
calraí	-10.4636
▁fóillíochta	-10.4636
▁iontu	-10.4636
▁californians	-10.4636
avir	-10.4636
▁mhíchumas	-10.4636
▁bunaidh	-10.4636
▁paul	-10.4636
▁glasála	-10.4636
▁dhéag	-10.4636
▁ghéar	-10.4636
▁chógaiseoir	-10.4637
▁míchumas	-10.4637
▁samhna	-10.4637
▁pob	-10.4637
▁peataí	-10.4637
▁euro	-10.4637
▁thurasóirí	-10.4637
▁gcúig	-10.4637
▁Teagmháil	-10.4637
▁aosta	-10.4638
▁duánach	-10.4638
▁tearc	-10.4638
▁lanc	-10.4638
▁stóráil	-10.4639
▁nhs	-10.4639
▁leachtanna	-10.4639
▁taom	-10.4639
▁Cosain	-10.4639
▁suímh	-10.4639
niac	-10.4639
▁ndaonra	-10.464
▁tholg	-10.464
▁gcineál	-10.464
▁comhlachtaí	-10.464
▁fhuil	-10.464
▁díghalraithe	-10.464
▁thoil	-10.4641
▁gaolmhar	-10.4641
▁haer	-10.4641
▁réamhscoile	-10.4641
▁hainmhithe	-10.4642
▁lagaithe	-10.4642
▁glúine	-10.4642
▁Tagraí	-10.4642
▁rang	-10.4643
▁athraithe	-10.4643
▁sholáthraithe	-10.4643
▁riaradh	-10.4644
▁scáileán	-10.4644
▁tráchtála	-10.4644
▁ábhartha	-10.4645
▁chógaslannaí	-10.4646
▁Trí	-10.4646
▁bolg	-10.4646
▁coimeád	-10.4647
▁thuras	-10.4647
▁fiáine	-10.4647
▁mbéal	-10.4647
▁luaite	-10.4649
▁deonach	-10.4649
▁eisiata	-10.465
▁throm	-10.4652
▁eiseamal	-10.4654
▁feithic	-10.4654
▁dyspnea	-10.4654
▁gheilleaga	-10.4654
▁polapróitéin	-10.4654
▁teicníc	-10.4654
▁mbraisl	-10.4655
▁conte	-10.4655
▁chabhair	-10.4655
▁plasma	-10.4655
▁toircheas	-10.4657
▁leabharlanna	-10.4657
igg	-10.4657
▁feist	-10.4658
▁chódú	-10.4658
▁suíochá	-10.4659
▁chothú	-10.466
http	-10.4662
nte	-10.4662
▁cuí	-10.4662
▁dhromchlaí	-10.4663
▁earraigh	-10.4666
▁cuirfiú	-10.4667
▁riaracháin	-10.4667
eolaíocht	-10.467
▁ibu	-10.467
▁cáilíocht	-10.467
▁(5	-10.467
▁cionta	-10.467
▁cúigear	-10.4672
ions	-10.4674
▁phaindéimeach	-10.4674
uaire	-10.4676
▁he	-10.4677
▁mu	-10.4679
airíonn	-10.4684
▁cirt	-10.4689
▁aontais	-10.469
▁bheaga	-10.4692
▁neartú	-10.4692
▁breoiteachta	-10.4696
▁shábháilteacht	-10.4699
▁slabhraí	-10.4699
oise	-10.47
▁himeacht	-10.4707
▁Inis	-10.4708
▁giniú	-10.471
▁ghin	-10.4711
meabhairshláinte	-10.4716
▁nba	-10.4717
▁nascadh	-10.4718
ruinniú	-10.472
▁ealaíon	-10.472
▁róimh	-10.4723
áille	-10.4732
▁seolfa	-10.4739
cóip	-10.4749
▁oird	-10.4754
▁amharclanna	-10.4755
▁thioncha	-10.4756
▁tiomáint	-10.476
▁4,5	-10.4764
reid	-10.4766
rúin	-10.4774
▁dochar	-10.4775
▁dath	-10.4776
thuaisc	-10.4785
▁zónóiseacha	-10.4786
aen	-10.4806
aois	-10.4809
ha	-10.481
▁chúins	-10.4811
ainistíocht	-10.4813
▁oiriú	-10.4815
▁gceantar	-10.4816
▁luas	-10.4821
▁ifr	-10.4824
▁thria	-10.4839
bharnó	-10.484
▁Seol	-10.4861
▁4,7	-10.4869
▁oiriúnaitheach	-10.4873
oinneáil	-10.4876
líon	-10.4885
▁dearbh	-10.4892
57	-10.4901
breatain	-10.4901
uashonruithe	-10.4908
▁abc	-10.4919
.8%)	-10.4919
▁bán	-10.4923
asacht	-10.4926
tinn	-10.4931
▁iomarcach	-10.4939
aint	-10.4948
éilliú	-10.4964
.3%	-10.4968
eacht	-10.4983
há	-10.4991
itheach	-10.4994
iocfa	-10.4998
ibh	-10.5016
▁oibr	-10.5017
▁thábhachtach	-10.5019
▁Tre	-10.5027
eolaíochta	-10.5032
áilte	-10.5037
▁20,	-10.5045
▁90	-10.5052
▁3,9	-10.5057
▁Seirbhís	-10.5061
▁tos	-10.5076
rofen	-10.508
▁rialacha	-10.5083
79	-10.5088
22	-10.5094
▁téarma	-10.5098
▁con	-10.5104
▁tais	-10.5105
est	-10.5106
▁roinnte	-10.5111
▁tánaisteach	-10.5112
lár	-10.515
leach	-10.5152
▁45	-10.5162
innealtóireachta	-10.5167
▁Lua	-10.5168
taidhleoireachta	-10.5168
aisleá	-10.5177
ci	-10.5201
ith	-10.5214
nce	-10.5217
45	-10.523
omh	-10.5235
▁cabhrach	-10.5239
tú	-10.5254
▁scaoilte	-10.5272
itheoirí	-10.5289
he	-10.5292
▁díghalr	-10.5352
▁chlo	-10.5354
mo	-10.5355
aill	-10.5358
▁thaist	-10.5363
▁leictreonach	-10.5367
▁dtógfa	-10.5392
san	-10.5394
▁uí	-10.5409
▁mhodh	-10.5416
▁1,3	-10.5429
ond	-10.5438
end	-10.5452
her	-10.546
tosó	-10.5466
▁gas	-10.5471
▁iomlána	-10.5473
▁theagmhála	-10.5476
taithe	-10.5482
▁éifeacht	-10.5482
▁00	-10.5491
ual	-10.552
▁ser	-10.5526
▁caillea	-10.5576
▁Dé	-10.5581
eal	-10.5581
▁fhreastal	-10.5596
▁táirge	-10.5597
▁laghdó	-10.56
eocht	-10.5607
ladh	-10.5612
▁2019-20	-10.5645
▁neamhdh	-10.5646
▁Clúd	-10.5646
eolaithe	-10.5648
▁laghd	-10.5651
▁moo	-10.5672
uimh	-10.5676
▁1,000	-10.5678
habh	-10.5694
▁Mh	-10.5704
me	-10.571
▁áis	-10.5726
leann	-10.5741
uimhnigh	-10.5743
oifig	-10.5747
▁69	-10.5758
▁thinn	-10.5762
ke	-10.5778
▁beart	-10.5798
do	-10.583
prote	-10.5847
▁spleách	-10.5897
▁Nu	-10.5915
▁sainmhíni	-10.5946
▁úr	-10.5975
▁ríomh	-10.598
52	-10.5987
▁0	-10.5997
if	-10.6004
▁tábhacht	-10.6008
▁atreor	-10.6017
ens	-10.6018
▁boga	-10.603
radh	-10.6034
▁nocht	-10.6039
▁2020)	-10.6047
77	-10.607
úsáidf	-10.6077
ab	-10.6078
.2%	-10.6099
íniú	-10.6103
óin	-10.6124
▁cónaithe	-10.6148
▁earra	-10.6181
iarracht	-10.6208
reamh	-10.6216
▁téarmaí	-10.6237
▁dtóg	-10.6238
▁57	-10.6243
▁36	-10.6244
eachas	-10.6259
▁Buna	-10.6262
▁Iompa	-10.6288
▁1)	-10.6304
aon	-10.6304
▁aoise	-10.6307
▁42	-10.6311
oga	-10.6313
61	-10.6339
dhéanta	-10.6349
▁4,90	-10.6394
▁uachtar	-10.6403
▁bheart	-10.6409
shaoil	-10.6411
▁cúl	-10.6434
54	-10.6437
próitéin	-10.6448
luí	-10.6449
▁soiléire	-10.6461
scríobh	-10.6463
phríomh	-10.6464
sraith	-10.6466
oideachas	-10.6466
iompar	-10.6467
faireachas	-10.6468
chuid	-10.6468
chúis	-10.6469
tógálach	-10.647
coronavirus	-10.6471
astrazeneca	-10.6472
imdhíonachta	-10.6473
od	-10.6484
▁gníomhaireacht	-10.6486
▁sean	-10.6487
iclo	-10.6489
vac	-10.6497
▁suí	-10.65
▁neamhfh	-10.6504
uairteanna	-10.6511
▁veicteora	-10.6514
um	-10.6519
▁chuma	-10.6528
comharthaí	-10.6532
nío	-10.6542
▁athoscl	-10.6546
▁new	-10.6569
ré	-10.6569
▁Tos	-10.6572
▁iarrata	-10.6574
▁nigéir	-10.6574
▁ndochtúir	-10.6577
aird	-10.658
▁meánscoil	-10.6582
▁Cinnt	-10.6584
íobhálach	-10.6584
roim	-10.6585
▁aerlín	-10.6585
▁ocsaigin	-10.6586
itheann	-10.6586
▁digiteach	-10.6588
▁chúramóir	-10.6588
▁cathrach	-10.6594
▁threoir	-10.6599
▁coicís	-10.66
▁ro	-10.6606
▁eolaíoch	-10.6612
▁chód	-10.6613
▁thre	-10.6614
▁ndí	-10.6619
▁oscail	-10.662
uacht	-10.662
éarchéim	-10.662
▁ísl	-10.662
20,000	-10.6622
▁chógas	-10.6622
▁oileá	-10.6622
▁gluaiseacht	-10.6623
▁ghlao	-10.6623
▁fhreagair	-10.6625
oláthairtí	-10.6628
▁bhfoir	-10.6628
éasúr	-10.6628
oláireamh	-10.663
▁ceist	-10.6631
▁claon	-10.6632
▁nádúr	-10.6633
nuair	-10.6633
▁alpaca	-10.6633
▁ghnó	-10.6633
▁Cúram	-10.6634
ipidéim	-10.6635
▁slua	-10.6635
▁shiúl	-10.6635
▁coróin	-10.6635
▁dhlúth	-10.6636
▁gairm	-10.6636
foirt	-10.6636
gastrointestinal	-10.6636
▁Gnáth	-10.6636
▁Sraothartach	-10.6636
▁adhanom	-10.6636
▁antaigín	-10.6636
▁bhfreastalaí	-10.6636
▁bolsonaro	-10.6636
▁choimisiún	-10.6636
▁cispheil	-10.6636
▁dhíspreagadh	-10.6636
▁ghualainn	-10.6636
▁hipirtheannas	-10.6636
▁iarrthóra	-10.6636
▁idirghabháil	-10.6636
▁indéanta	-10.6636
▁infheidhm	-10.6636
▁intleachtúil	-10.6636
▁leithlise	-10.6636
▁lymphocyt	-10.6636
▁lóistín	-10.6636
▁meastóireacht	-10.6636
▁mheasúnaithe	-10.6636
▁mheasúnú	-10.6636
▁mhíbhuntáiste	-10.6636
▁phearsan	-10.6636
▁phríosú	-10.6636
▁pionós	-10.6636
▁rouhani	-10.6636
▁seroprevalence	-10.6636
▁sprioc	-10.6636
▁thiomáint	-10.6636
peptid	-10.6636
▁chraiceann	-10.6636
▁gceanglaí	-10.6636
▁gearrthéarmach	-10.6636
▁ionanál	-10.6636
▁láidriú	-10.6636
▁snámha	-10.6636
▁tamaill	-10.6636
▁tobann	-10.6636
áireofa	-10.6636
▁cupáin	-10.6636
▁éanúil	-10.6636
▁Napro	-10.6636
▁bhainisteoir	-10.6636
▁phóca	-10.6636
▁bhearna	-10.6636
▁léamh	-10.6636
▁Feic	-10.6636
▁bhéilí	-10.6636
▁sathairn	-10.6636
▁ebola	-10.6636
▁Gearr	-10.6636
▁reachtaíocht	-10.6636
▁ghorta	-10.6636
▁cúlchist	-10.6636
írinne	-10.6636
▁hanaithnid	-10.6636
▁simplí	-10.6636
▁chomhrac	-10.6636
ww	-10.6636
▁coláistí	-10.6636
▁músaeim	-10.6636
▁coles	-10.6636
ector	-10.6636
▁fasach	-10.6636
▁logáil	-10.6636
▁Glac	-10.6636
▁laige	-10.6636
22,6	-10.6636
▁clóis	-10.6636
▁cúlpháirtí	-10.6636
▁réiteach	-10.6636
▁ballstáit	-10.6636
mhinic	-10.6636
▁mionsonra	-10.6637
▁feline	-10.6637
▁shuíomh	-10.6637
▁mheicniúil	-10.6637
▁tharchuir	-10.6637
▁éiceolaíoch	-10.6637
▁theicneolaíocht	-10.6637
▁blúir	-10.6637
▁bhfreagra	-10.6637
iúsca	-10.6637
▁symptom	-10.6637
▁ceangailte	-10.6637
imoibríoch	-10.6637
▁aici	-10.6637
▁Méadaío	-10.6637
▁shoiléiriú	-10.6637
▁chógaslann	-10.6637
▁parlaimint	-10.6638
▁siarghabhálach	-10.6638
▁foláir	-10.6638
▁bhrisea	-10.6638
irmheánach	-10.6638
reast	-10.6638
▁Baile	-10.6638
▁comhionann	-10.6639
▁struchtúracha	-10.6639
▁sputum	-10.6639
putin	-10.6639
▁chaomhnú	-10.6639
▁páiste	-10.6639
mall	-10.6639
▁hospidéil	-10.6639
▁páirc	-10.6639
▁shábháilte	-10.6639
▁Rud	-10.664
▁ísliú	-10.664
saíocht	-10.664
▁clg	-10.6641
▁oll	-10.6641
▁fulaing	-10.6641
éigean	-10.6641
▁páirceanna	-10.6641
▁cheanada	-10.6641
▁ollmhóra	-10.6641
▁thapa	-10.6641
▁mille	-10.6641
▁polar	-10.6642
▁sheachadadh	-10.6642
ocal	-10.6642
▁gcorcaigh	-10.6642
▁ceirde	-10.6642
▁advi	-10.6642
▁cogaidh	-10.6642
pims	-10.6642
▁shaotharlann	-10.6642
▁príomhúil	-10.6642
▁doiciméadaithe	-10.6642
▁dífhabhtán	-10.6642
▁modheolaíocht	-10.6642
▁barda	-10.6643
w	-10.6643
▁chonradh	-10.6643
▁johns	-10.6643
▁fhual	-10.6643
▁ceolchoirmeacha	-10.6643
▁of	-10.6643
▁thrí	-10.6645
▁chomhpháirt	-10.6645
▁treasach	-10.6645
▁teileafóin	-10.6645
▁heagrán	-10.6645
▁shíniú	-10.6645
▁mheabhrach	-10.6645
▁gcéin	-10.6645
▁Stop	-10.6646
sa	-10.6646
géire	-10.6646
▁fhostaithe	-10.6646
▁Srian	-10.6646
▁cárta	-10.6647
▁dteach	-10.6648
▁phleanáil	-10.6648
▁buail	-10.6648
▁feirme	-10.6648
▁rúnda	-10.6648
▁1,2	-10.6648
▁glas	-10.6649
▁leithéid	-10.6649
omhaireamh	-10.6649
▁8.30	-10.6649
▁cianfhoghlama	-10.665
▁2018	-10.665
▁aeráid	-10.665
▁ostair	-10.665
▁solúbthachta	-10.6651
▁cothromaíochta	-10.6651
▁gcorróg	-10.6651
▁tionscail	-10.6651
▁slabhra	-10.6652
▁Cuairteanna	-10.6653
▁gaillimhe	-10.6653
▁leathanach	-10.6654
▁hiondú	-10.6655
▁cuideachtaí	-10.6655
▁att	-10.6655
▁fhoirm	-10.6655
▁tuáillí	-10.6656
▁Shá	-10.6656
amach	-10.6657
▁siomptómach	-10.6658
▁éagsúil	-10.6659
▁enteritis	-10.6659
▁Coróinvíreas	-10.6659
▁stróc	-10.666
chruinnithe	-10.666
báin	-10.6661
▁aigéin	-10.6662
▁bhfíor	-10.6662
▁diagnóiseach	-10.6663
▁bhalla	-10.6663
▁meánscoileanna	-10.6664
▁intern	-10.6664
▁ceoil	-10.6666
▁dífhostaíochta	-10.6667
ity	-10.6668
▁fionnachta	-10.6668
▁glantacháin	-10.6668
▁cairt	-10.6669
▁déantúsaíocht	-10.667
▁leathan	-10.6674
teachtaireachtaí	-10.6674
▁folamh	-10.6675
▁ionsaithe	-10.6675
nsaid	-10.6678
▁chomhordú	-10.6681
riseoirí	-10.6682
▁roghnaithe	-10.6682
▁díghalrú	-10.6684
eagrán	-10.6685
seilf	-10.6685
cas	-10.6685
▁ghluaiseacht	-10.6688
▁fuinneog	-10.6691
▁chomhlíonadh	-10.6691
▁bagairt	-10.6694
▁ecdc	-10.6699
▁orgáin	-10.6699
▁taibhithe	-10.6699
▁corp	-10.67
▁ifn	-10.67
▁indiach	-10.6701
cainní	-10.6705
▁shaol	-10.6705
▁máirt	-10.6707
▁10%	-10.6707
▁Mair	-10.6708
▁4)	-10.6711
▁idirlíon	-10.6711
▁chláir	-10.6715
lex	-10.6719
86	-10.672
▁aimsithe	-10.6724
▁la	-10.6725
▁imithe	-10.6726
▁bce	-10.6728
▁múnla	-10.6731
ex	-10.6732
inte	-10.674
▁orgán	-10.6741
▁thos	-10.6743
ipe	-10.6744
phataigineacha	-10.6749
▁féar	-10.6754
▁nuachta	-10.6758
lt	-10.6767
éine	-10.6773
▁Ionaid	-10.6775
omhairliúch	-10.6778
▁líonraí	-10.6782
▁mífhaisnéis	-10.6782
▁socrúchá	-10.6782
ov	-10.6795
▁asma	-10.6809
▁ili	-10.6814
▁thionsca	-10.6814
▁fhreastala	-10.6817
▁bhfill	-10.6822
▁Leanfai	-10.6823
icu	-10.6823
▁aithne	-10.6828
▁amanna	-10.6832
▁bhan	-10.6832
7,1	-10.6833
▁abair	-10.6834
▁bac	-10.6836
▁thíos	-10.6838
▁alára	-10.684
leamhna	-10.6843
taí	-10.6844
heol	-10.6863
▁choinní	-10.6868
▁cosúlachta	-10.6877
áthair	-10.688
▁fl	-10.6883
▁modhn	-10.6885
ve	-10.6901
▁réad	-10.691
▁féil	-10.6921
eoil	-10.6927
tosaithe	-10.6931
▁mel	-10.6933
fianaise	-10.6937
▁3,1	-10.6939
▁Siopa	-10.6941
▁sola	-10.6956
▁srianadh	-10.6959
onan	-10.6962
▁52	-10.6971
▁húsáideoir	-10.6978
tir	-10.6984
crích	-10.6998
daigh	-10.6998
ide	-10.7003
▁cónaitheach	-10.7005
▁gcóireá	-10.7017
liocht	-10.7018
▁diúltacha	-10.7019
xia	-10.702
▁fuinne	-10.702
iabh	-10.7022
▁riachtanas	-10.7034
▁slándá	-10.7056
lanna	-10.706
iúradh	-10.7065
hraitheann	-10.7067
,600	-10.707
▁Cl	-10.7074
▁gceall	-10.7075
onradh	-10.7119
▁fhó	-10.7127
ófa	-10.7128
ers	-10.7139
▁chaill	-10.7151
▁che	-10.7161
▁casachta	-10.7176
illiú	-10.7193
man	-10.72
arm	-10.7201
bheag	-10.7206
▁rt	-10.7233
bc	-10.7252
ncov	-10.7258
▁scagth	-10.7262
nas	-10.7285
▁hoibr	-10.7294
ort	-10.7297
▁mhó	-10.7302
▁saille	-10.7306
earbha	-10.7329
▁ji	-10.7335
▁3,5	-10.7336
cathracha	-10.7336
co	-10.7382
úlra	-10.7388
▁ligf	-10.7418
aimid	-10.7419
▁77	-10.742
▁spleácha	-10.7433
sl	-10.744
rs	-10.7455
▁fhógra	-10.7464
▁óg	-10.7469
ho	-10.7473
op	-10.7476
▁mban	-10.7477
▁radagrafaíochta	-10.751
500	-10.7512
▁aonar	-10.7518
▁líonadh	-10.7536
cabhair	-10.7538
uil	-10.7542
ace	-10.7543
rdáin	-10.7545
▁41	-10.7547
taith	-10.7549
▁sainord	-10.756
26	-10.7562
▁ionsa	-10.7573
80	-10.7574
aispeáint	-10.7583
▁stai	-10.7591
▁51	-10.7595
▁Aims	-10.7629
▁Athraío	-10.7642
▁car	-10.7655
gen	-10.7663
▁bo	-10.7665
íosa	-10.7668
▁Cás	-10.7672
▁44	-10.7674
eagán	-10.7677
▁idirghníomh	-10.7684
▁Foir	-10.7688
▁tionsca	-10.7689
▁dr	-10.7692
ilín	-10.771
63,	-10.7718
▁bho	-10.7732
lc	-10.7735
óireáil	-10.7747
lon	-10.7753
conclúid	-10.7754
▁Bhío	-10.7785
éinte	-10.7786
íní	-10.7807
aba	-10.7818
▁carn	-10.7829
eil	-10.7855
▁chon	-10.7866
82	-10.7868
▁Bh	-10.7901
▁2,4	-10.7961
dach	-10.7999
bhreithe	-10.7999
iniú	-10.8006
ara	-10.8014
thoscailt	-10.803
uail	-10.8056
mhábhar	-10.8058
imint	-10.8063
liniciúla	-10.8066
▁meácha	-10.807
▁triom	-10.8076
00,000	-10.8096
▁bhfeic	-10.8137
▁aithnío	-10.814
▁próis	-10.8165
gaidh	-10.8167
▁bi	-10.8167
.5%	-10.8184
▁ngartheagmhála	-10.8186
cm	-10.8193
iche	-10.8196
sp	-10.8203
chéime	-10.8206
mhór	-10.8217
▁tarl	-10.8225
téama	-10.823
▁2,2	-10.8237
▁1,	-10.8241
▁Leanfa	-10.8247
ins	-10.8256
-19;	-10.8257
éanaimid	-10.826
▁carna	-10.8296
chas	-10.8309
▁gcinn	-10.8311
▁ola	-10.8315
ithí	-10.832
▁mhao	-10.8339
33	-10.8344
▁46	-10.835
úigiú	-10.8365
▁gcamá	-10.8378
▁cd	-10.8412
▁airgead	-10.8417
▁mhíle	-10.8417
8%)	-10.8425
raí	-10.843
▁teochta	-10.8437
▁lio	-10.8457
imseo	-10.8527
▁aosaigh	-10.857
▁sreabh	-10.8575
▁costas	-10.86
éir	-10.8617
ná	-10.8625
▁ghairm	-10.8625
▁Sh	-10.8629
éamhchúram	-10.8648
▁mc	-10.8658
aireacht	-10.8662
vi	-10.8665
▁dú	-10.8672
sach	-10.8673
▁col	-10.8702
leic	-10.8709
▁ciníoch	-10.8714
airt	-10.8716
▁achainí	-10.8732
▁thábhacht	-10.8738
▁Roi	-10.8765
óide	-10.8765
17	-10.8801
bi	-10.8804
▁geal	-10.8808
ón	-10.8808
gm	-10.8824
tra	-10.8831
▁ngníomh	-10.8833
▁400	-10.8852
▁tionscna	-10.8875
▁tuairisc	-10.8878
osúil	-10.8893
▁y	-10.8912
tréimhs	-10.8914
aithne	-10.8917
▁4,1	-10.8929
reathnaío	-10.893
▁luí	-10.894
béil	-10.8941
scéal	-10.8945
2019-	-10.8949
itéir	-10.8949
téarmaí	-10.8953
thábhachtach	-10.8954
thioncha	-10.8955
▁pacáist	-10.8955
áir	-10.8955
foghlaimeoir	-10.8956
aonar	-10.8956
chógais	-10.8958
ainmhithe	-10.8958
teicneolaíochta	-10.896
ghrúpa	-10.896
post	-10.8962
réamh	-10.8963
dlúth	-10.8963
cóiré	-10.8963
aitheanta	-10.8964
athbhreithni	-10.8965
éadrom	-10.8966
▁Mhea	-10.8966
vacsaínithe	-10.8967
niúmóine	-10.8967
tíre	-10.8968
luath	-10.8968
réada	-10.8977
tcp	-10.8979
▁sca	-10.8984
oirse	-10.8985
▁clinic	-10.8989
▁Socr	-10.8992
40	-10.8994
chen	-10.8998
▁dha	-10.9
cosaint	-10.9008
eacrachtaí	-10.9014
taighde	-10.9015
▁scrí	-10.9022
tach	-10.9031
▁sláint	-10.9033
▁97	-10.9034
phe	-10.9038
▁rannpháirt	-10.9041
.4%	-10.9047
oird	-10.905
▁ferret	-10.9054
▁chois	-10.9056
críobh	-10.9058
fás	-10.9059
óibh	-10.9063
amáin	-10.907
adóir	-10.9072
▁shl	-10.9078
ment	-10.9079
▁teirip	-10.9079
geilleaga	-10.9083
iagnóis	-10.9087
▁mhiondíol	-10.9088
nda	-10.909
▁thromchúiseach	-10.909
▁iolrach	-10.9093
mes	-10.9094
▁randamach	-10.9097
ope	-10.9099
thráth	-10.91
imscrúdú	-10.9103
▁láithreá	-10.9106
▁pangóil	-10.9109
nia	-10.9111
▁patr	-10.9113
oronavirus	-10.9116
raoiníní	-10.9116
ianfhoghlama	-10.9118
oicís	-10.9118
osúla	-10.9119
▁prótaca	-10.9123
▁tuirse	-10.9125
▁ko	-10.9127
▁faid	-10.9127
▁shábháil	-10.9129
ulaing	-10.9129
▁Cuairt	-10.9129
ochtaineacht	-10.9129
iceo	-10.913
eall	-10.9132
▁pholai	-10.9133
▁mífheidhm	-10.9133
arlaimint	-10.9134
▁chait	-10.9134
▁cata	-10.9134
bhearta	-10.9134
ichí	-10.9134
▁gníomhaire	-10.9135
uirb	-10.9135
▁pá	-10.9135
▁franc	-10.9136
▁fiafr	-10.9136
astroenteritis	-10.9136
chomhghleacaithe	-10.9136
coibhneas	-10.9136
ghrúpáil	-10.9136
neamhphleanáilte	-10.9136
neamhshiméadrach	-10.9136
▁Chrutha	-10.9136
▁Fiafr	-10.9136
▁Ionfhabhtú	-10.9136
▁Liosta	-10.9136
▁Scornach	-10.9136
▁bhréagach	-10.9136
▁blianta	-10.9136
▁cairdiach	-10.9136
▁carrsheirbhíse	-10.9136
▁cheansú	-10.9136
▁chumhacht	-10.9136
▁chófra	-10.9136
▁daegu	-10.9136
▁danmhairg	-10.9136
▁difriúla	-10.9136
▁dioplóma	-10.9136
▁déthaobhach	-10.9136
▁dífhostú	-10.9136
▁eilvéis	-10.9136
▁enteric	-10.9136
▁eorpaigh	-10.9136
▁exoribonuclease	-10.9136
▁facebook	-10.9136
▁feithimh	-10.9136
▁gcoláistí	-10.9136
▁ghné	-10.9136
▁grianghraf	-10.9136
▁guangzhou	-10.9136
▁hathbhliana	-10.9136
▁ilmheáin	-10.9136
▁interferon	-10.9136
▁ionchur	-10.9136
▁janssen	-10.9136
▁leordhóthanach	-10.9136
▁londain	-10.9136
▁lánfhada	-10.9136
▁mbrasaíl	-10.9136
▁mearbhall	-10.9136
▁mellitus	-10.9136
▁mhacasamhlú	-10.9136
▁mheánscoil	-10.9136
▁montainéagró	-10.9136
▁oilimpeach	-10.9136
▁raidió	-10.9136
▁ransomware	-10.9136
▁ritonavir	-10.9136
▁romhainn	-10.9136
▁seipteach	-10.9136
▁seisear	-10.9136
▁shenzhen	-10.9136
▁shincheonji	-10.9136
▁siamsaíochta	-10.9136
▁thabharfa	-10.9136
▁triage	-10.9136
▁uaigneas	-10.9136
▁uefa	-10.9136
▁vomiting	-10.9136
▁áirithint	-10.9136
▁éigipt	-10.9136
choimpléasc	-10.9136
scríbhinn	-10.9136
▁Sainmhín	-10.9136
▁bhreoiteacht	-10.9136
▁bricfe	-10.9136
▁cnáimhseacha	-10.9136
▁creat	-10.9136
▁ealaíne	-10.9136
▁foirgn	-10.9136
▁uasdát	-10.9136
▁athló	-10.9136
▁dtarchuir	-10.9136
▁forfheidhmi	-10.9136
▁láidre	-10.9136
▁mídhleathach	-10.9136
▁scanrú	-10.9136
▁sceidil	-10.9136
▁taispeán	-10.9136
eipitít	-10.9136
▁bhfliú	-10.9136
▁thrasnú	-10.9136
▁murtall	-10.9136
▁turgnamhach	-10.9136
▁bheilg	-10.9136
▁feola	-10.9136
▁bonneaga	-10.9136
▁gafa	-10.9136
▁princess	-10.9136
▁Scan	-10.9136
▁mhodhnú	-10.9136
▁sainaithint	-10.9136
rdrp	-10.9136
▁cianda	-10.9136
▁núicléasach	-10.9136
▁mhapáil	-10.9136
▁éadan	-10.9136
▁chách	-10.9136
▁ghaolta	-10.9136
▁pub	-10.9136
▁Cnap	-10.9136
ruaige	-10.9136
trans	-10.9136
▁betacoronavirus	-10.9136
▁allais	-10.9136
▁aisiompú	-10.9136
▁reáchtáil	-10.9136
creimirí	-10.9136
▁serum	-10.9136
▁mhalairt	-10.9136
▁trilliún	-10.9136
▁ndoirse	-10.9136
▁sasana	-10.9136
▁osclaí	-10.9136
▁inné	-10.9136
▁raideolaíoch	-10.9136
éarscáil	-10.9136
▁bhronn	-10.9136
▁comhráite	-10.9136
▁malartacha	-10.9137
▁fheist	-10.9137
▁trascríobh	-10.9137
▁meaisín	-10.9137
▁peile	-10.9137
▁garman	-10.9137
▁plaicint	-10.9137
▁dhruga	-10.9137
▁maipín	-10.9137
▁bpail	-10.9137
▁bhanglaidéis	-10.9137
▁tabharfa	-10.9137
▁chliabhrach	-10.9137
▁díhiodráitithe	-10.9137
▁vótáil	-10.9137
fíric	-10.9138
▁Cúramóirí	-10.9138
▁Bog	-10.9138
▁1890	-10.9138
ogra	-10.9138
jiang	-10.9138
▁sláintíocht	-10.9138
▁Inse	-10.9138
▁iarmhar	-10.9138
▁baictéarach	-10.9138
▁lón	-10.9138
▁tharlóidh	-10.9138
▁Braisl	-10.9138
▁ionchas	-10.9138
▁mhothúcháin	-10.9138
▁fhéach	-10.9138
bhé	-10.9138
▁bpoint	-10.9138
▁bpríomh	-10.9138
▁shuíochá	-10.9138
▁3.8	-10.9138
▁déimeagrafach	-10.9138
▁chathracha	-10.9139
▁ceachtanna	-10.9139
léa	-10.9139
▁alpacanna	-10.9139
▁mballa	-10.9139
▁phríomhúil	-10.9139
▁chreidmheasa	-10.9139
▁Measún	-10.9139
▁critic	-10.914
▁gcúl	-10.914
▁mbunscoileanna	-10.914
▁shean	-10.914
▁dhifriúla	-10.914
▁turraing	-10.914
▁tsamhraidh	-10.914
▁Covid	-10.914
▁frithghníomh	-10.9141
▁teiripeach	-10.9141
▁theagasc	-10.9141
▁you	-10.9141
▁taif	-10.9142
▁sub	-10.9142
▁saothair	-10.9142
▁Pian	-10.9142
▁tráthúil	-10.9142
▁bhfoirm	-10.9143
▁ndáiríre	-10.9143
▁síochána	-10.9143
▁caighdeánacha	-10.9143
▁chainn	-10.9143
▁íochtarach	-10.9144
▁fhorchur	-10.9144
▁máithreachais	-10.9144
▁bháis	-10.9144
▁míneo	-10.9144
▁madra	-10.9144
▁gnóthacha	-10.9144
▁iomláine	-10.9144
▁aimsiú	-10.9145
▁2015	-10.9145
▁riospr	-10.9145
▁chamáin	-10.9145
hino	-10.9145
ndálaí	-10.9145
▁maireann	-10.9145
▁fairsinge	-10.9145
▁bholgach	-10.9146
▁haitheanta	-10.9146
▁glóthach	-10.9146
▁cuimhne	-10.9146
▁ceangla	-10.9146
rróga	-10.9147
▁dtimpeallacht	-10.9148
▁bru	-10.9148
▁infheistíocht	-10.9148
áiste	-10.9148
chuntas	-10.9148
reim	-10.9149
▁tionscadail	-10.9149
▁Páirc	-10.9149
angio	-10.915
laithe	-10.915
▁seasta	-10.915
▁Creid	-10.915
▁ceo	-10.915
▁stra	-10.9151
▁phianta	-10.9151
▁gáma	-10.9151
▁soiléiriú	-10.9152
▁fhéin	-10.9152
riarthóir	-10.9153
▁Cóir	-10.9153
▁caillteana	-10.9153
▁cruthú	-10.9153
▁ionfhabhta	-10.9154
aisinéir	-10.9154
▁brisea	-10.9155
▁49	-10.9156
▁croith	-10.9156
▁ibuprofen	-10.9156
▁mhonaróir	-10.9157
▁2002	-10.9157
▁sráid	-10.9158
▁scíthe	-10.9159
▁beta	-10.916
▁stoi	-10.916
▁déantús	-10.916
▁nideo	-10.9161
▁Beart	-10.9162
▁tuairimí	-10.9162
mit	-10.9163
▁Tarchuir	-10.9165
▁bainne	-10.9165
▁aldi	-10.9166
▁bhuaic	-10.9166
▁lrti	-10.9166
▁Clo	-10.9168
▁Brú	-10.9168
▁nochtú	-10.9169
▁dhigiteacha	-10.9169
▁choinníoll	-10.9169
▁teastais	-10.9169
▁scagair	-10.917
▁dru	-10.9171
▁píolótach	-10.9171
ney	-10.9174
▁teilifíse	-10.9174
▁gcoimisiún	-10.9175
▁béile	-10.9175
▁eagrú	-10.9177
cáilte	-10.9177
ainmhí	-10.918
▁stáisiú	-10.9181
▁cinntí	-10.9181
▁ollmhargaí	-10.9181
▁las	-10.9181
▁ioslam	-10.9182
▁thromchúiseacha	-10.9182
▁1,7	-10.9182
▁dearca	-10.9184
▁cásca	-10.9184
▁díghalráin	-10.9185
▁síc	-10.9186
▁Ghlan	-10.9186
isín	-10.9187
▁ceallacha	-10.9187
▁cúiseach	-10.9187
▁shraith	-10.9188
▁chac	-10.9188
▁claontacht	-10.9189
▁nsp	-10.9189
paráid	-10.9193
▁muinín	-10.9193
▁chroí	-10.9194
▁290	-10.9198
▁3,4	-10.92
▁coinní	-10.9201
▁eascair	-10.9205
▁catar	-10.9205
▁forlíontach	-10.9206
fe	-10.9209
▁chi	-10.9215
▁mear	-10.9217
▁amino	-10.922
▁tosaíochta	-10.9221
▁spi	-10.9223
▁iarratas	-10.9227
▁osha	-10.9227
▁núicléach	-10.9232
▁fhilleadh	-10.9234
▁iasc	-10.9235
▁bhfear	-10.9235
▁iompróir	-10.9236
▁teip	-10.9239
▁banc	-10.9246
▁machna	-10.9249
ionc	-10.925
rúpa	-10.925
▁scríb	-10.9252
▁aistr	-10.9254
éan	-10.9257
▁séala	-10.9259
▁sta	-10.926
▁admh	-10.9265
▁mais	-10.9267
oil	-10.927
▁choitianta	-10.9275
▁ionrach	-10.9275
▁gorta	-10.9276
▁cúirte	-10.9284
▁2009.	-10.9288
sell	-10.9291
▁comhch	-10.9292
cmr	-10.9292
rrt	-10.9301
▁(0.	-10.9302
ream	-10.9302
leog	-10.9303
▁iartha	-10.9304
▁ranna	-10.9307
▁fhostóirí	-10.9308
▁ainsealacha	-10.9314
nsí	-10.9319
▁47	-10.9324
▁eitilte	-10.933
▁príobháideachas	-10.9331
▁scéal	-10.9332
reacht	-10.9338
▁ceadúnai	-10.9338
▁bhfo	-10.9339
ltaí	-10.9346
pheic	-10.9352
▁chol	-10.9354
▁taistealaí	-10.9359
faisnéis	-10.936
▁Lú	-10.9361
sc	-10.9362
ks	-10.9365
▁íogaire	-10.9365
aidri	-10.9366
▁dow	-10.9375
▁ceannasach	-10.9376
▁príosúnach	-10.9381
▁caiteacha	-10.9393
▁paiteolaíoch	-10.9394
yw	-10.9399
live	-10.9399
eipidéimeolaithe	-10.9399
íon	-10.9404
▁crit	-10.9405
▁spáinne	-10.9407
choim	-10.9413
▁foilsithe	-10.9414
ionta	-10.9428
▁neamhspleácha	-10.9434
▁ndéanf	-10.9434
5%	-10.944
▁cruach	-10.9441
íoctha	-10.9443
07.	-10.9445
táin	-10.9447
teachas	-10.9447
▁rann	-10.9448
▁araon	-10.9451
batcov	-10.9454
▁bat	-10.9461
▁stad	-10.9467
rbh	-10.9467
▁2008	-10.9467
wel	-10.9468
chúram	-10.9477
▁vs	-10.9483
mhargaí	-10.9485
▁folláine	-10.9502
vel	-10.9503
▁mhara	-10.9503
ramh	-10.9504
▁hse	-10.9518
▁fhada	-10.9519
ist	-10.9539
ruitíneach	-10.9542
diam	-10.9544
armana	-10.9555
▁Deir	-10.956
olg	-10.9563
▁gceadó	-10.9568
mála	-10.9569
▁anailíse	-10.958
fer	-10.9584
gel	-10.9592
▁chuimsithe	-10.9594
▁bhreith	-10.9599
pí	-10.96
ings	-10.9621
07	-10.9622
▁dhro	-10.9631
▁shocha	-10.9634
▁pro	-10.9641
no	-10.9642
▁she	-10.9644
▁neamhch	-10.9644
ainn	-10.9647
▁x	-10.9662
▁1.1	-10.9665
▁bhfe	-10.9668
3.0	-10.9674
▁tábhachta	-10.9679
ial	-10.9685
▁fhíorú	-10.9685
▁phrótaca	-10.97
▁dhaon	-10.97
▁ke	-10.9727
▁timpeallacht	-10.974
▁thástála	-10.9746
▁Thá	-10.9778
ríoch	-10.9781
▁4,92	-10.9786
▁buí	-10.9808
▁clo	-10.9839
oladh	-10.9839
ain	-10.9842
phríobháideachas	-10.9847
imhe	-10.9856
éar	-10.9857
▁shá	-10.987
▁dife	-10.9886
▁(7	-10.9889
ova	-10.989
teocht	-10.9892
iog	-10.9902
inig	-10.9918
▁eipidéime	-10.9929
▁Fu	-10.9958
▁2,1	-10.9961
▁chro	-10.9988
altraí	-10.9996
▁có	-11.0014
▁dhír	-11.0015
▁próise	-11.0026
oltar	-11.003
▁79	-11.003
▁freagracht	-11.0032
4%	-11.0033
ionsaí	-11.0042
▁Tacaío	-11.0043
bhuana	-11.0045
▁Scrúda	-11.0054
▁amú	-11.0066
▁mao	-11.0069
eán	-11.0078
▁Scrios	-11.0103
únaí	-11.0109
▁ci	-11.0121
▁iarrfa	-11.0124
▁foirml	-11.0126
▁suaimhn	-11.0157
▁ribo	-11.0166
▁ith	-11.0171
▁ur	-11.0188
isce	-11.0196
▁shí	-11.0226
▁bró	-11.023
▁áite	-11.0234
73	-11.0234
▁taca	-11.0239
93	-11.0252
▁ceap	-11.0266
▁chod	-11.0281
▁fhoinsí	-11.0297
▁1201	-11.0301
▁éigeandálaí	-11.0306
íocaíochta	-11.0307
34	-11.0319
ros	-11.0329
▁cumhdai	-11.0353
▁179	-11.0354
1.	-11.0357
isean	-11.0365
tic	-11.0365
▁cheadaí	-11.0372
tiú	-11.038
9)	-11.0391
▁2)	-11.0396
arbh	-11.04
▁críosta	-11.0401
treacha	-11.0456
ríonn	-11.047
éadú	-11.0481
tal	-11.0485
▁mhéadaitheach	-11.0488
eannas	-11.0503
▁cothaithe	-11.051
▁lia	-11.0516
11	-11.0548
▁ríomhaire	-11.0591
zoo	-11.0594
bhailí	-11.0598
íne	-11.0607
▁meiriceána	-11.0614
▁or	-11.0616
li	-11.0617
onta	-11.0617
▁cast	-11.0624
iúil	-11.0629
▁tra	-11.0645
▁ionchód	-11.0649
▁ua	-11.0684
easa	-11.0685
▁229	-11.0692
▁chói	-11.0728
clúidí	-11.0738
▁86	-11.0744
▁tag	-11.0745
▁áracha	-11.0763
63.	-11.0766
lta	-11.0775
ásanna	-11.0827
píní	-11.0841
níl	-11.0853
108	-11.0856
rdach	-11.0864
▁2,5	-11.0868
▁bio	-11.0874
eadófa	-11.0875
▁sholáthra	-11.0899
▁bhu	-11.0901
▁cro	-11.0928
isceacht	-11.0934
aradh	-11.0937
ógadh	-11.0946
ainne	-11.0948
▁Laghdaío	-11.0968
03	-11.0991
eamhriachtanacha	-11.0992
▁díghalrá	-11.0996
-2)	-11.0998
áis	-11.1004
dáil	-11.1018
allaí	-11.1028
▁deas	-11.1028
erálaithe	-11.1048
orthaí	-11.1058
3.5	-11.1067
ga	-11.1076
fp	-11.108
▁5,000	-11.1086
2,5	-11.109
thriú	-11.1113
ua	-11.1119
▁tionsc	-11.112
▁mbail	-11.1126
▁láir	-11.1134
90	-11.1139
▁ast	-11.1147
▁gcógaslann	-11.116
▁250	-11.116
thú	-11.1166
▁32	-11.1167
cti	-11.118
íomháú	-11.1182
98	-11.1194
09	-11.1206
scr	-11.1208
▁em	-11.122
éis	-11.122
55	-11.1223
ondú	-11.126
impí	-11.1274
mhair	-11.1285
ileadh	-11.1287
▁tac	-11.1298
▁Scrúd	-11.1316
▁choróivír	-11.1332
oirf	-11.1343
den	-11.1359
dteistiméireacht	-11.1364
ghníomhaíocht	-11.1369
▁socró	-11.1372
▁10,000	-11.1373
tóir	-11.1419
▁fisiciú	-11.1419
▁cruth	-11.142
▁cor	-11.1429
nóirí	-11.1429
tho	-11.1429
ól	-11.1448
leachtais	-11.1457
himpl	-11.1467
▁brón	-11.1475
haill	-11.1481
olaiteoirí	-11.1491
dáin	-11.1501
áithníní	-11.151
▁cuairte	-11.1515
có	-11.1517
oin	-11.1536
óga	-11.1543
álaithe	-11.1547
ofen	-11.1557
íoch	-11.1559
dán	-11.156
41	-11.1566
eora	-11.1569
▁pragh	-11.1571
▁éin	-11.1578
▁féad	-11.1591
▁hel	-11.1595
riail	-11.1601
▁ios	-11.1608
árta	-11.1625
▁ionadaíoch	-11.1634
eolaíoch	-11.1637
ty	-11.1638
▁ceadaío	-11.1648
iliú	-11.1653
tiocfa	-11.167
cheangla	-11.1682
achais	-11.1693
pa	-11.1695
tura	-11.1702
▁chuirf	-11.1728
▁hóst	-11.175
cheall	-11.1771
▁Gartheagmhá	-11.1786
▁leaist	-11.1795
mheasta	-11.1796
▁hu	-11.1821
onadh	-11.1833
iocht	-11.1848
ro	-11.1862
thshlán	-11.1863
ria	-11.1864
▁saill	-11.1866
▁en	-11.1872
íbh	-11.1882
▁Chead	-11.1909
▁bunscoil	-11.1914
ainiú	-11.1929
▁z	-11.1931
úsáide	-11.194
eagra	-11.1944
anda	-11.1947
▁ri	-11.1988
▁dhéan	-11.1997
▁uath	-11.2005
lá	-11.2013
▁cheist	-11.2017
ámha	-11.2045
óta	-11.2045
eam	-11.2046
866	-11.205
▁dea	-11.2057
sk	-11.2061
uáin	-11.2063
▁eatramh	-11.2087
▁fheicf	-11.2092
▁meicn	-11.2097
81	-11.2105
▁fa	-11.2112
▁Roinnt	-11.2116
▁72	-11.2125
▁tástálaí	-11.2137
▁gcos	-11.2147
▁cear	-11.2155
▁príosún	-11.2171
▁struchtúr	-11.2181
nsin	-11.2182
lin	-11.2183
agu	-11.2189
theagmhála	-11.2201
▁bhean	-11.2202
▁pé	-11.2213
tes	-11.2232
ómacha	-11.2234
▁comhpháirtí	-11.2237
▁dicl	-11.2243
pholaitiú	-11.2246
homalógach	-11.2248
bhreathn	-11.2249
fhreasta	-11.2249
ocsaineacht	-11.2256
insí	-11.2261
hsa	-11.2263
indíreach	-11.227
ungáir	-11.227
pain	-11.2271
▁shan	-11.2276
▁móilín	-11.2278
▁4,0	-11.2278
choitianta	-11.2279
ionrach	-11.2281
▁lúb	-11.2284
orgán	-11.2284
pragh	-11.2287
▁leochail	-11.2288
ealaíon	-11.2288
▁suntasa	-11.2289
iomlán	-11.2289
teiripe	-11.229
fhachtóir	-11.229
oideas	-11.2292
chontae	-11.2293
ráta	-11.2293
óige	-11.2295
chlár	-11.2295
shuí	-11.2296
thuairisciú	-11.2297
biontech	-11.2298
saotharlann	-11.2298
fad	-11.2299
pfizer	-11.2299
ailse	-11.2299
teorainn	-11.23
diúltach	-11.2302
D	-11.2303
shonraí	-11.2303
▁aistrí	-11.2305
ionfhabhtaithe	-11.2307
chóras	-11.2309
réimsí	-11.2311
fhad	-11.2311
cúram	-11.2311
pian	-11.2317
síneach	-11.2322
oph	-11.2324
stáit	-11.2326
iontach	-11.234
chomharthaí	-11.2342
95%	-11.2343
fá	-11.2351
déanamh	-11.2356
▁chónaithe	-11.2357
▁my	-11.2357
▁iompa	-11.236
▁allmhair	-11.2362
42	-11.2362
thóir	-11.2367
▁gcleachta	-11.237
▁him	-11.2372
iarrthóir	-11.2377
imir	-11.238
chóir	-11.2388
aspa	-11.2403
▁fhiabhra	-11.2404
hún	-11.2406
▁ollmharga	-11.2406
▁dhromchla	-11.2409
▁pail	-11.2409
hírigh	-11.2412
iarmhairt	-11.2412
isghabh	-11.2412
▁Taispeá	-11.2413
▁phataigin	-11.2415
▁cait	-11.2415
▁teilifís	-11.2416
iaibéiteas	-11.242
▁gníomhaí	-11.2421
▁spíc	-11.2422
chreidte	-11.2422
▁dhigiteach	-11.2423
▁dífhostaíocht	-11.2425
eachtaireachtaí	-11.2426
▁leabharlann	-11.2426
éantús	-11.2427
intín	-11.2427
▁dheireanach	-11.2428
cca	-11.2429
aoire	-11.2431
▁Fo	-11.2433
▁dóchúla	-11.2433
eangal	-11.2436
rean	-11.2436
28	-11.2437
▁cosúla	-11.2437
untas	-11.2438
▁chomhlíona	-11.244
ead	-11.2441
▁ghéanóm	-11.2441
▁xi	-11.2442
▁bainisteoir	-11.2442
asti	-11.2442
▁gcait	-11.2445
seapáin	-11.2445
idéal	-11.2449
con	-11.2449
▁neodra	-11.2449
othromaíocht	-11.245
onsalacht	-11.245
íolúine	-11.2453
▁brusca	-11.2453
▁athmhol	-11.2453
▁sraotharta	-11.2454
▁mheabhra	-11.2455
lóthach	-11.2455
▁ngnáth	-11.2455
▁tionscada	-11.2458
▁aithin	-11.246
lúine	-11.246
oigeart	-11.2461
▁diúlt	-11.2461
angóil	-11.2461
▁seice	-11.2462
ilíneachta	-11.2462
rithghníomh	-11.2462
obail	-11.2462
▁phor	-11.2463
▁zónóis	-11.2463
adtéarmach	-11.2463
orleathan	-11.2463
▁dhifriú	-11.2463
▁2,6	-11.2463
onatóireacht	-11.2464
bailt	-11.2465
▁siomptó	-11.2465
▁mbunscoil	-11.2465
▁tiom	-11.2466
▁bhall	-11.2466
liuch	-11.2466
leanáil	-11.2466
▁imeall	-11.2466
▁6.	-11.2466
úshláin	-11.2467
▁riar	-11.2467
▁coronaviri	-11.2467
▁chor	-11.2467
hiodráitithe	-11.2467
leve	-11.2468
▁Tuairiscí	-11.2469
▁bialann	-11.2469
ríoga	-11.2469
▁fheabh	-11.2469
adanaivíreas	-11.2469
aireofá	-11.2469
cóngarach	-11.2469
fhillte	-11.2469
flam	-11.2469
hormónach	-11.2469
nbhraite	-11.2469
rioblóid	-11.2469
▁Gníomhaíochta	-11.2469
▁Iobúpróifein	-11.2469
▁Niúmóine	-11.2469
▁Oid	-11.2469
▁Ospidéal	-11.2469
▁Pictiúrlanna	-11.2469
▁abbott	-11.2469
▁allamuigh	-11.2469
▁antartaice	-11.2469
▁associat	-11.2469
▁athbheochan	-11.2469
▁bheatha	-11.2469
▁bhfabhar	-11.2469
▁bhíobla	-11.2469
▁capsúil	-11.2469
▁chairtchlár	-11.2469
▁chugainn	-11.2469
▁chustaiméirí	-11.2469
▁colaistéaró	-11.2469
▁coronavac	-11.2469
▁dhiúltú	-11.2469
▁dhosmálta	-11.2469
▁doorknob	-11.2469
▁dtaispeánta	-11.2469
▁fallaingeacha	-11.2469
▁fhorfheidhmiú	-11.2469
▁fostaíochta	-11.2469
▁féintuairisci	-11.2469
▁ghairdín	-11.2469
▁giomnáis	-11.2469
▁gruagairí	-11.2469
▁henry	-11.2469
▁huathoibríoch	-11.2469
▁hypox	-11.2469
▁infhéitheach	-11.2469
▁iobúproifein	-11.2469
▁iomchuí	-11.2469
▁limficítí	-11.2469
▁lombaird	-11.2469
▁lombardia	-11.2469
▁lucia	-11.2469
▁luimnigh	-11.2469
▁líomhna	-11.2469
▁lóistíocht	-11.2469
▁medina	-11.2469
▁melbourne	-11.2469
▁mhalaeisia	-11.2469
▁mhongóil	-11.2469
▁máguaird	-11.2469
▁neamhchinnte	-11.2469
▁neamhchinntithe	-11.2469
▁neamhshlándá	-11.2469
▁peirse	-11.2469
▁phláinéid	-11.2469
▁phláta	-11.2469
▁phoibliú	-11.2469
▁phutóige	-11.2469
▁péidiatraice	-11.2469
▁póilió	-11.2469
▁romhat	-11.2469
▁runny	-11.2469
▁saighdiúirí	-11.2469
▁sentinel	-11.2469
▁shlándáil	-11.2469
▁shíceolaíoch	-11.2469
▁siomtóm	-11.2469
▁spriocdhírithe	-11.2469
▁sraoth	-11.2469
▁sreang	-11.2469
▁sróine	-11.2469
▁tairiscint	-11.2469
▁talmhaíochta	-11.2469
▁thimpiste	-11.2469
▁thoirchis	-11.2469
▁thriomú	-11.2469
▁tochasacha	-11.2469
▁trenton	-11.2469
▁tslaghdáin	-11.2469
▁tsualainn	-11.2469
▁urlacan	-11.2469
▁vivo	-11.2469
▁zhou	-11.2469
▁zimmerman	-11.2469
ocsaíd	-11.2469
▁Gníomhair	-11.2469
▁capita	-11.2469
▁shaoráid	-11.2469
▁Tairg	-11.2469
▁círéib	-11.2469
▁fiaclóireachta	-11.2469
▁fuinnimh	-11.2469
▁gcaitheamh	-11.2469
▁idirbhirt	-11.2469
▁panama	-11.2469
▁plu	-11.2469
▁riníteas	-11.2469
▁sholáthró	-11.2469
▁teampa	-11.2469
▁tromchúisí	-11.2469
▁vaicsaín	-11.2469
fheicthe	-11.2469
áipéis	-11.2469
▁club	-11.2469
▁comhdhálacha	-11.2469
▁dubai	-11.2469
▁dídean	-11.2469
▁ghartheagmháil	-11.2469
▁gnímh	-11.2469
▁maidrid	-11.2469
▁Dáileoga	-11.2469
▁bplá	-11.2469
▁damhsa	-11.2469
▁dúlaga	-11.2469
▁fabhrach	-11.2469
▁gailf	-11.2469
▁health	-11.2469
▁iorua	-11.2469
▁lonnaithe	-11.2469
▁luasghéa	-11.2469
▁sprae	-11.2469
▁téachtadh	-11.2469
▁ultra	-11.2469
▁Gné	-11.2469
▁eachtrannaigh	-11.2469
vision	-11.2469
▁substaintiúil	-11.2469
▁tharscaoileadh	-11.2469
▁Tionól	-11.2469
▁chónaidhm	-11.2469
▁dhiagnóiseach	-11.2469
▁ambasáid	-11.2469
▁mháinliacht	-11.2469
▁thréigean	-11.2469
inflamma	-11.2469
▁onnmhair	-11.2469
▁ngréasán	-11.2469
▁athmhúnl	-11.2469
▁iompraíochta	-11.2469
▁féinmharú	-11.2469
▁gréine	-11.2469
▁cornell	-11.2469
bhfostú	-11.2469
▁comhlántach	-11.2469
▁fhadhb	-11.2469
▁sólá	-11.2469
▁acadúil	-11.2469
▁bonaire	-11.2469
▁bruitíní	-11.2469
▁thirim	-11.2469
▁athlas	-11.2469
▁ambas	-11.2469
▁fast	-11.2469
▁siúcra	-11.2469
▁ullamh	-11.2469
▁oirdheisc	-11.2469
▁gairmiúil	-11.2469
▁chiúin	-11.2469
▁hannamh	-11.2469
▁háitiúil	-11.247
▁politico	-11.247
▁bearna	-11.247
▁heagraíochta	-11.247
▁chónaitheora	-11.247
▁mheánoirthear	-11.247
▁cuáit	-11.247
▁daonnú	-11.247
▁gcontúirt	-11.247
▁ndeir	-11.247
oradán	-11.247
▁mhicreascóp	-11.247
▁tsráid	-11.247
▁android	-11.247
▁tithíocht	-11.247
▁coirp	-11.247
▁seiceálacha	-11.247
▁ríomhphost	-11.247
▁league	-11.247
neamhéifeachtach	-11.247
▁folctha	-11.247
▁Teip	-11.247
▁times	-11.247
▁mbraithfe	-11.247
▁albáin	-11.247
▁péire	-11.247
hráma	-11.247
upro	-11.247
▁comhrá	-11.247
▁eisiamh	-11.247
▁phlúchta	-11.247
▁láirge	-11.247
ghníomhach	-11.247
▁marbhlainne	-11.247
▁fáisc	-11.247
▁buntáist	-11.247
▁múchadh	-11.247
ghlactha	-11.2471
▁Sábháilteacht	-11.2471
cryo	-11.2471
▁forásach	-11.2471
▁shuiteáil	-11.2471
▁Cuairteoirí	-11.2471
▁priontá	-11.2471
▁thoircheas	-11.2471
▁súl	-11.2471
▁naíolann	-11.2471
agrach	-11.2471
▁223,	-11.2471
▁saorghlao	-11.2471
▁suimiúil	-11.2471
▁hearnála	-11.2471
abháil	-11.2471
coronavirinae	-11.2471
▁hidéalach	-11.2471
aitéis	-11.2471
▁staidiam	-11.2471
▁veid	-11.2471
nged	-11.2471
▁Díghalrán	-11.2471
lantacháin	-11.2472
▁díréireach	-11.2472
▁sheasamh	-11.2472
▁chluas	-11.2472
▁plaisteach	-11.2472
▁cúramóir	-11.2472
▁caoineadh	-11.2472
▁247,	-11.2472
▁Freag	-11.2473
▁tréimhsiúil	-11.2473
▁úcráin	-11.2473
▁eitleáin	-11.2473
▁chothaith	-11.2473
▁fein	-11.2473
▁glasraí	-11.2473
▁corovirus	-11.2473
▁dhéanaimid	-11.2473
syn	-11.2473
-7.2	-11.2473
▁1968	-11.2473
▁cianfhoghlaim	-11.2473
▁louis	-11.2473
▁242,	-11.2473
▁fóill	-11.2473
07.2	-11.2474
▁glantach	-11.2474
▁seasmhachta	-11.2474
▁5.7	-11.2474
▁consalacht	-11.2474
▁dóchasach	-11.2474
phragh	-11.2474
alóg	-11.2474
toirte	-11.2474
▁thaighde	-11.2474
▁víosa	-11.2474
▁sneaiceanna	-11.2475
▁bharda	-11.2475
▁fostóir	-11.2475
▁gcíoch	-11.2475
▁foilseachá	-11.2475
▁6,1	-11.2475
▁mhíniú	-11.2475
▁dhúshláin	-11.2475
shamhla	-11.2475
▁thrá	-11.2475
antas	-11.2476
▁inter	-11.2476
▁dhlí	-11.2476
▁margaíocht	-11.2476
profen	-11.2477
▁hacmhainn	-11.2477
▁spórt	-11.2477
▁mbreathn	-11.2477
impeach	-11.2477
▁cheilt	-11.2477
▁domhna	-11.2478
▁choigeart	-11.2478
▁tharlú	-11.2478
ather	-11.2479
▁iom	-11.2479
▁Córa	-11.2479
▁Sars	-11.2479
▁3,2	-11.2479
▁oid	-11.248
istan	-11.248
▁pictiúrlanna	-11.248
▁dánlanna	-11.248
▁mheán	-11.248
▁clóirín	-11.2481
▁comórta	-11.2481
▁251,	-11.2481
▁cháis	-11.2481
▁1960	-11.2481
▁subgen	-11.2481
▁Cosnaí	-11.2481
▁sualainne	-11.2482
▁Braoiníní	-11.2482
▁daingean	-11.2482
▁ghabháil	-11.2482
▁0.1%	-11.2482
nshan	-11.2483
▁ainmniú	-11.2483
▁inathraithe	-11.2483
▁sicíní	-11.2484
▁Dromchlaí	-11.2484
▁corticosteroidí	-11.2484
thosca	-11.2484
▁chríochnú	-11.2484
aer	-11.2484
thoitín	-11.2485
▁Coinneoi	-11.2485
▁sliocht	-11.2485
▁ngá	-11.2485
laisteach	-11.2485
▁shaineola	-11.2485
▁fheidhmiú	-11.2486
iúdachas	-11.2486
▁canadh	-11.2486
▁míchompordach	-11.2486
▁stóra	-11.2487
▁lom	-11.2487
▁2004	-11.2488
▁amnes	-11.2488
▁monarchan	-11.2488
▁fíorúil	-11.2488
▁foll	-11.2488
uel	-11.2489
▁Scaipeadh	-11.2489
▁Ceadaí	-11.249
buíochas	-11.249
,800	-11.249
ivíreas	-11.249
▁1,4	-11.2491
▁cíoch	-11.2491
▁sceidealta	-11.2492
▁Nocht	-11.2492
▁sáraithe	-11.2492
▁hum	-11.2492
▁gluaiseachtaí	-11.2493
▁457	-11.2493
way	-11.2493
▁brúnna	-11.2494
raenach	-11.2494
▁1918	-11.2495
▁gcuideachta	-11.2495
▁dheir	-11.2497
▁aonúsáide	-11.2497
▁ju	-11.2498
▁iarthair	-11.2498
▁néareolaíocha	-11.2498
▁indiúscartha	-11.2498
aíochta	-11.2499
▁teasa	-11.2499
▁gcleachtais	-11.25
▁measúnaithe	-11.25
▁6.30	-11.25
▁fhánach	-11.2501
ócaireacht	-11.2501
▁01	-11.2501
▁heaglaise	-11.2503
▁heipidéime	-11.2503
▁mórimeacht	-11.2504
roid	-11.2504
itíní	-11.2504
▁Béal	-11.2505
▁dóchúlacht	-11.2505
▁laoise	-11.2506
▁243,	-11.2507
corv	-11.2507
eagasc	-11.2509
▁dhos	-11.2509
▁thrasna	-11.251
▁toitíní	-11.2511
▁capa	-11.2512
▁iris	-11.2512
▁Rialacha	-11.2513
mia	-11.2513
▁aclaí	-11.2513
cing	-11.2514
▁athsholáthar	-11.2514
▁ráflaí	-11.2514
▁theorainn	-11.2514
▁tomagrafaíocht	-11.2514
▁tuaslag	-11.2514
▁chaighdeán	-11.2514
▁loings	-11.2514
▁scam	-11.2515
▁báistí	-11.2515
chobhsaí	-11.2515
media	-11.2515
▁dia	-11.2515
▁scuain	-11.2516
▁mcen	-11.2516
▁aerbhealaí	-11.2517
▁dúis	-11.2517
▁téachtá	-11.2517
liachta	-11.2518
ive	-11.2518
▁gcomhar	-11.2518
glais	-11.2519
▁déag	-11.252
son	-11.252
éasadh	-11.252
▁0.2	-11.252
▁buan	-11.2521
▁(27	-11.2523
ógart	-11.2525
▁hoifig	-11.2525
▁gaothaire	-11.2526
▁threocht	-11.2529
aonchineálach	-11.253
igeach	-11.2531
▁fema	-11.2532
liceáil	-11.2532
▁fhac	-11.2533
▁eaglaisí	-11.2535
▁athchui	-11.2536
▁easc	-11.2536
▁mhiondíola	-11.2536
▁1.7	-11.2539
▁faire	-11.2539
▁chomparáid	-11.2539
▁geall	-11.254
▁dún	-11.2541
▁tuirseach	-11.2541
▁fuinneo	-11.2544
corp	-11.2545
▁samplála	-11.2545
▁imdhíonacht	-11.2546
▁massa	-11.2546
▁urra	-11.2547
▁Masc	-11.2548
▁Cuar	-11.2548
▁1.4	-11.2548
▁doirse	-11.255
▁bhuí	-11.2551
▁cór	-11.2552
lia	-11.2552
▁siona	-11.2553
▁saibh	-11.2554
▁kat	-11.2555
▁dheimhnithe	-11.2556
▁bha	-11.2556
▁digiteacha	-11.2556
eataí	-11.2557
▁mul	-11.2558
▁breathnóireacht	-11.2559
óra	-11.2559
▁gear	-11.2561
▁eaglais	-11.2561
▁leithdháil	-11.2561
▁ióga	-11.2563
▁fhá	-11.2564
▁cónaitheacha	-11.2566
▁bóthar	-11.2567
▁thuiscint	-11.2567
▁Clár	-11.2569
raoin	-11.257
▁Cv	-11.257
ardaithe	-11.2571
▁Cinnte	-11.2576
▁iarch	-11.258
un	-11.258
▁pun	-11.2581
scaill	-11.2581
▁mhóilíneach	-11.2582
ongó	-11.2583
1,8	-11.2586
▁réamhph	-11.2586
▁Baint	-11.2586
▁roghnach	-11.259
▁críochna	-11.259
▁talamh	-11.259
▁droim	-11.2591
▁iargúlta	-11.2592
▁copd	-11.2592
▁dhírigh	-11.2592
▁toghchá	-11.2593
▁pó	-11.2594
▁ceimiceach	-11.2594
▁inse	-11.2595
▁uachtará	-11.2596
▁seoul	-11.26
▁broncho	-11.2602
▁aoisghrúpa	-11.2602
▁oidhreachta	-11.2603
▁Plé	-11.2604
▁freagrach	-11.2604
▁186	-11.2608
▁contr	-11.2608
lainn	-11.2617
aillí	-11.2628
ille	-11.2629
athróid	-11.2629
▁sochaí	-11.2638
▁fhionn	-11.2641
aim	-11.265
alt	-11.2651
▁rathúla	-11.2655
▁ráithe	-11.266
bp	-11.2661
róis	-11.2662
▁Sampla	-11.2668
remi	-11.2669
▁ungáir	-11.2673
▁indíreach	-11.2673
▁sínigh	-11.2674
▁cliniceoir	-11.2676
▁riana	-11.268
▁bréagach	-11.268
▁aimsir	-11.2683
lúbtha	-11.269
oirmiúil	-11.2692
▁marfacha	-11.2692
▁Tacaíocht	-11.2696
204	-11.2708
dae	-11.2708
▁próiseáil	-11.271
▁béil	-11.271
▁móilíneach	-11.2712
clóiríd	-11.2716
▁hsa	-11.2717
achtaí	-11.2718
▁Coinní	-11.272
▁páirtí	-11.272
rbe	-11.2721
tómacha	-11.2721
▁cou	-11.2721
icme	-11.2722
▁saint	-11.2722
▁4.8	-11.2724
▁airg	-11.2724
▁2,8	-11.2727
▁(13	-11.273
▁leanúna	-11.273
rtú	-11.2736
▁méar	-11.2737
▁amh	-11.2737
▁ordaithe	-11.274
▁tine	-11.2742
face	-11.2743
▁ailléirgeach	-11.2744
▁pain	-11.275
bunlíne	-11.275
▁cruinne	-11.2773
▁úsáidte	-11.2774
▁sheachai	-11.2777
7.4%	-11.2777
substaintí	-11.278
▁anatamaíocht	-11.2781
▁rl	-11.2782
▁gal	-11.2786
ronntanas	-11.279
▁stua	-11.2793
▁ghu	-11.2793
rua	-11.2795
75%	-11.2796
▁4%	-11.2801
▁mosc	-11.2806
▁comharthaíocht	-11.281
ards	-11.2812
▁dlú	-11.2816
▁marthan	-11.2819
pholaiteoirí	-11.2823
allach	-11.2823
▁cheantar	-11.283
omhdhúil	-11.2846
▁mairf	-11.2853
▁dhéanf	-11.2855
cmo	-11.2855
íosta	-11.2862
▁4,78	-11.2863
▁Slaghdá	-11.2883
.7%	-11.2888
▁phróiseáil	-11.2891
healú	-11.2897
▁aonáin	-11.2908
▁eatramhach	-11.2912
▁paindéimeach	-11.2915
íochtú	-11.2916
uimilt	-11.2918
▁socraío	-11.292
geallta	-11.2923
eabharlanna	-11.2923
mad	-11.2927
,534	-11.2934
▁bhfoins	-11.2939
▁son	-11.294
-4	-11.2946
1.61	-11.2948
▁com	-11.2953
asc	-11.2962
▁Forbrói	-11.2962
▁casachtaí	-11.2969
▁malls	-11.2971
▁uaslódá	-11.2982
pho	-11.2982
rus	-11.2996
rithghiniúint	-11.2998
▁ru	-11.3004
▁ce	-11.301
▁loch	-11.301
bheirt	-11.3011
▁pol	-11.3013
reach	-11.3015
ástacht	-11.3022
▁3,7	-11.3022
▁73	-11.3024
▁mheastachá	-11.3028
▁nóimé	-11.3034
▁kin	-11.304
idhmeanna	-11.304
lgi	-11.3046
haidh	-11.3048
▁éisteachta	-11.3052
▁anaithnide	-11.3053
huail	-11.3057
▁mbia	-11.3057
▁cealú	-11.3061
▁inch	-11.3061
mhv	-11.3063
olann	-11.3068
▁can	-11.3069
beáir	-11.307
▁100,000)	-11.3071
▁guth	-11.3075
seoladh	-11.3085
▁da	-11.3104
▁féidearthachta	-11.3109
athúsáidte	-11.311
hi	-11.311
▁254,	-11.3129
maí	-11.3132
▁tógálacha	-11.3135
jin	-11.3138
ordaithe	-11.3167
68	-11.3172
heiscea	-11.3202
▁docht	-11.3214
yl	-11.3227
▁bhailiúchá	-11.3236
úla	-11.3236
lee	-11.3252
ró	-11.3253
▁suite	-11.3253
9,32	-11.3255
▁bhféad	-11.3261
bán	-11.3271
ileanna	-11.3278
▁Cruthaío	-11.3285
▁chomhlacht	-11.3294
5,	-11.3305
▁ve	-11.3307
▁har	-11.3307
▁hiarr	-11.3316
▁alt	-11.3344
heir	-11.3348
▁meal	-11.335
▁galra	-11.3352
sis	-11.3353
lab	-11.3362
98%	-11.3371
traí	-11.342
▁éi	-11.3423
▁231,	-11.3424
▁wh	-11.3425
▁theiripeach	-11.3426
▁lí	-11.3435
▁mhama	-11.3437
hio	-11.3447
arra	-11.3447
▁tarraing	-11.3448
athoscailt	-11.3452
▁mas	-11.3458
▁gcaithfea	-11.3464
▁66	-11.3502
67,	-11.3511
▁sail	-11.3527
▁dear	-11.3529
cs	-11.3542
▁cai	-11.3554
▁dháta	-11.3561
olaí	-11.3566
▁fis	-11.3581
▁pp	-11.3586
▁rothaí	-11.3591
▁269,	-11.3596
seir	-11.3619
9,33	-11.362
leata	-11.3637
dóra	-11.3665
▁gaol	-11.3668
9%)	-11.3688
▁2020).	-11.3728
▁95	-11.3748
ome	-11.3753
▁oibriúchá	-11.3763
naigh	-11.378
éifeacht	-11.3785
lad	-11.3787
19.	-11.3791
fhoins	-11.3792
mb	-11.3806
tugtar	-11.3822
▁ghnótha	-11.3839
▁min	-11.3843
6,8	-11.3844
bo	-11.3861
▁mhaol	-11.3874
▁atáirgeadh	-11.3882
▁speisial	-11.3883
▁Mí	-11.3887
▁96	-11.3899
óil	-11.3899
▁6,5	-11.39
ruga	-11.3904
▁dhia	-11.3908
lúthpháirtíocht	-11.3926
oirfe	-11.3928
0)	-11.393
▁Deara	-11.3966
▁iona	-11.3974
omhain	-11.3996
8%	-11.4002
▁cra	-11.4008
▁bhú	-11.4011
laigh	-11.4012
▁bhfan	-11.4025
spe	-11.4029
▁ilch	-11.4032
arb	-11.4059
▁bea	-11.4065
▁3,3	-11.4072
▁prot	-11.4088
▁Laghdó	-11.409
▁Lo	-11.4094
▁bailiúchá	-11.4098
1,6	-11.4104
▁chuairte	-11.4105
vin	-11.4113
nio	-11.4128
eabhra	-11.4145
▁Sín	-11.418
dúil	-11.4181
▁68	-11.4186
éad	-11.419
▁Nó	-11.4192
omhthéacs	-11.4199
isc	-11.4209
thorthaí	-11.4209
ut	-11.4222
▁beann	-11.4234
▁Coinnig	-11.4289
1.5	-11.4311
▁scia	-11.4348
▁sholáthraí	-11.4356
rainn	-11.4357
eirbhísí	-11.4362
2,7	-11.4366
5,3	-11.4372
inne	-11.4377
thadh	-11.4381
úra	-11.4401
aig	-11.4421
som	-11.4428
▁dtitfe	-11.4437
▁hionsa	-11.4447
▁3,6	-11.4453
exa	-11.4462
▁mise	-11.4465
▁sceit	-11.4467
athoscló	-11.4476
▁Tú	-11.4484
▁Cleacht	-11.4496
tóireachta	-11.4522
orbartha	-11.4534
opaí	-11.4538
lic	-11.4556
rá	-11.456
▁gcód	-11.4568
hal	-11.4569
aoise	-11.4574
laise	-11.4582
▁18-	-11.4584
wi	-11.4598
och	-11.4621
fip	-11.4623
▁beanna	-11.4658
we	-11.4662
ern	-11.4668
cair	-11.4683
▁(8	-11.4685
▁Laghd	-11.4694
▁bro	-11.4719
iar	-11.472
céim	-11.472
ósta	-11.4724
acmhainneacht	-11.4736
shábháilteacht	-11.4736
zar	-11.4752
braislí	-11.4763
▁Brisea	-11.4763
gi	-11.4777
▁rem	-11.4794
▁ionchóda	-11.4798
hy	-11.4811
▁straitéise	-11.4826
8.	-11.4836
antóir	-11.4856
éag	-11.4873
▁trédhearcach	-11.4882
▁dtitf	-11.49
▁cleacht	-11.4914
▁bunaíochta	-11.4929
▁chríostaí	-11.4951
▁ei	-11.4965
asctha	-11.4972
▁roth	-11.4974
bup	-11.499
▁réamhth	-11.5005
▁mboga	-11.5015
ógra	-11.5039
raiththástálacha	-11.5051
ao	-11.5057
▁pai	-11.5072
8,7	-11.5088
rcha	-11.509
▁bholg	-11.5105
▁mad	-11.5111
7,6	-11.5112
▁taispeáin	-11.5113
chúrsaí	-11.5122
▁Gl	-11.5144
comhthéacs	-11.5155
tó	-11.5164
ógáil	-11.5167
iad	-11.5172
▁nuachtá	-11.5173
cv	-11.5179
▁spá	-11.5198
▁ndún	-11.5208
▁aimsí	-11.5214
aistil	-11.5222
▁Ceann	-11.5228
airis	-11.5251
éifeachta	-11.5253
▁radagrafaíocht	-11.5285
▁ceapt	-11.5291
▁thu	-11.5298
ongfort	-11.5298
chineál	-11.5304
▁866	-11.5321
32	-11.5336
ick	-11.5338
tu	-11.5341
▁60,	-11.5359
don	-11.5369
▁seoil	-11.5391
íche	-11.5406
banc	-11.5413
aíocht	-11.542
dam	-11.5424
▁uas	-11.5427
▁78,	-11.5453
.7%)	-11.5461
▁rib	-11.5469
ram	-11.5475
▁dtabharf	-11.5475
gairt	-11.5483
▁scamhógach	-11.5486
2.	-11.5511
▁sraiththástá	-11.5552
▁402	-11.5554
▁oibríocht	-11.5567
criosann	-11.5568
▁Siúl	-11.5574
luain	-11.5585
▁mheabhrú	-11.5612
▁mi	-11.5614
▁bunaíocht	-11.5619
83	-11.5625
▁uast	-11.563
samhail	-11.5633
▁Mha	-11.5641
ealtaine	-11.5647
easamh	-11.5649
▁Cinn	-11.565
▁macasamhla	-11.5651
ostas	-11.5666
▁gcomhair	-11.5693
▁235,	-11.5702
aisle	-11.5713
▁dhíri	-11.5725
fheidhmeanna	-11.5745
póna	-11.5749
dis	-11.5757
achair	-11.5769
éirí	-11.5776
ric	-11.5777
▁balla	-11.579
▁chomha	-11.5797
▁bpacáist	-11.58
ovira	-11.5806
▁leachta	-11.581
▁misin	-11.5815
up	-11.5823
úinse	-11.5826
▁íocaíocht	-11.5858
▁2019-	-11.5866
▁coinneála	-11.5873
▁Oscail	-11.5878
ion	-11.5887
ni	-11.5905
rioscaí	-11.5938
▁hai	-11.5946
▁meánach	-11.595
illeann	-11.5973
rg	-11.5975
▁cainte	-11.5977
0,7	-11.6001
za	-11.6023
▁4,58	-11.6031
▁cumh	-11.6032
▁bhla	-11.6033
ease	-11.6051
▁tarraingt	-11.6061
▁Fógra	-11.6068
fach	-11.6077
rew	-11.6084
▁ban	-11.6092
uard	-11.6103
orcaigh	-11.6119
ioncha	-11.6128
má	-11.6143
artheagmhálaithe	-11.6146
tate	-11.6147
▁fhágfa	-11.6152
▁comhairleoir	-11.6217
▁cala	-11.6225
59	-11.6239
trasna	-11.6262
rótacal	-11.6291
bri	-11.6324
sma	-11.6366
▁fhormh	-11.6371
▁rabh	-11.6379
úsáideach	-11.6386
▁scei	-11.6411
▁gceal	-11.6423
ton	-11.6429
spot	-11.6434
▁tim	-11.6434
ása	-11.6446
teoir	-11.6466
neo	-11.6502
1,1	-11.6505
▁nuashonr	-11.6521
▁iasacht	-11.6528
bor	-11.6535
paí	-11.6553
níoch	-11.6569
ocyto	-11.6579
umas	-11.66
unús	-11.6614
aisnéis	-11.6616
oibriú	-11.6632
aghaidheanna	-11.6651
po	-11.6654
▁frithghiniú	-11.6655
chuir	-11.6659
▁sásta	-11.6663
▁éisteacht	-11.6665
óim	-11.6684
▁natur	-11.6697
▁Bu	-11.6704
▁mharg	-11.6717
▁tacht	-11.6719
▁cean	-11.6747
▁gabha	-11.676
▁imirce	-11.6764
iz	-11.6768
▁thaistealaí	-11.6771
▁cuim	-11.6781
▁gut	-11.6788
▁ards	-11.6791
▁Arda	-11.6827
héan	-11.6838
olas	-11.6849
▁dhea	-11.6888
iúna	-11.6908
isinéir	-11.6918
▁120	-11.6922
láithr	-11.6924
rave	-11.6955
▁Deimhní	-11.696
▁treo	-11.6962
▁mhi	-11.6963
▁cost	-11.6965
▁íogair	-11.6967
gó	-11.6986
▁hais	-11.7005
▁1,00	-11.7006
▁rath	-11.7008
fhoirmiú	-11.7014
▁soláthraí	-11.7017
▁61	-11.7024
ru	-11.7028
▁ailléirge	-11.7036
▁teirm	-11.7053
▁dinimic	-11.706
roith	-11.7067
gáil	-11.7067
mharclanna	-11.7099
shaol	-11.7102
roinnte	-11.7111
naithnid	-11.7123
▁520	-11.7123
app	-11.7125
ódú	-11.7128
oibrí	-11.7131
phre	-11.7146
▁Pla	-11.7153
feabhsa	-11.7157
ánta	-11.7159
▁8,0	-11.7171
▁2009	-11.7172
raic	-11.7178
▁príobháideach	-11.7178
óst	-11.718
onal	-11.7193
46	-11.7194
rem	-11.7195
▁fhíor	-11.7196
▁gcarr	-11.72
▁coim	-11.7213
▁121	-11.7214
▁fisici	-11.7218
▁tiomáin	-11.7221
▁per	-11.7232
uaidh	-11.7233
chomhartha	-11.7236
riosca	-11.7238
suite	-11.7239
▁Im	-11.7239
▁beath	-11.7244
údar	-11.7249
gníomh	-11.725
gaillimh	-11.7251
cfr	-11.7252
epi	-11.7252
taiscuma	-11.7252
gairdín	-11.7253
▁socrú	-11.7254
▁núicléa	-11.7254
bu	-11.7255
isiún	-11.7258
189	-11.7258
▁Pléi	-11.7263
▁215	-11.7268
402	-11.7268
▁pre	-11.7269
▁rát	-11.7271
iargúlta	-11.7272
sochaí	-11.7272
ceimiceach	-11.7272
copd	-11.7272
ghluaiseacht	-11.7272
cheantar	-11.7272
oidhreachta	-11.7272
toghchá	-11.7272
▁bhfé	-11.7272
aoisghrúpa	-11.7273
mbia	-11.7274
riachtana	-11.7274
5,000	-11.7278
thástála	-11.7282
chláir	-11.7285
comhpháirt	-11.7285
orgáin	-11.7286
taibhithe	-11.7286
aimsithe	-11.7286
teo	-11.7288
bio	-11.7288
tiomáint	-11.729
▁sáraí	-11.729
airgead	-11.729
idirlíon	-11.7291
ghabhdóir	-11.7292
osha	-11.7292
iii	-11.7292
ospidéil	-11.7293
éabhlóid	-11.7293
ghlasáil	-11.7293
amhlaidh	-11.7294
teachtaireacht	-11.7294
sinsear	-11.7295
oiliúint	-11.7296
uisce	-11.7296
trácht	-11.7297
páirt	-11.7297
ábalta	-11.7297
seomra	-11.7298
▁62	-11.7298
mur	-11.7299
iontráil	-11.7299
ollscoileanna	-11.7299
phróitéin	-11.7299
stoc	-11.73
láimhseáil	-11.73
éigeandáil	-11.7301
ghlanadh	-11.7301
rcgp	-11.7301
sampla	-11.7301
anailís	-11.7301
láimhe	-11.7303
leagan	-11.7303
éigeandála	-11.7303
fiabhras	-11.7303
ghalair	-11.7303
sóisialta	-11.7303
dearfach	-11.7304
▁tuairim	-11.7304
dhéanamh	-11.7304
’	-11.7304
fhéadfa	-11.7304
áireamh	-11.7305
suas	-11.7305
éigeantach	-11.7305
phian	-11.7309
8,9	-11.7311
iméada	-11.7313
▁chas	-11.7313
mber	-11.7314
rudaí	-11.7316
ghluaiseachtaí	-11.7317
1.8	-11.7319
vid	-11.732
sceideal	-11.7323
▁deor	-11.7324
▁3,0	-11.7325
imní	-11.7326
casacht	-11.7327
617	-11.7328
onchóda	-11.7329
▁bhur	-11.733
eagla	-11.733
sláinte	-11.7331
deacair	-11.7331
áirithe	-11.7334
▁4,71	-11.7336
irmeacha	-11.7339
swab	-11.7342
croí	-11.7344
wall	-11.7344
ompróir	-11.7346
ghnáth	-11.7347
head	-11.7354
179	-11.7356
uirlis	-11.7356
ghai	-11.7356
buí	-11.7356
nochta	-11.7358
▁bhog	-11.736
▁cairde	-11.7362
dóibh	-11.7366
▁idirmheána	-11.7367
mhainneachta	-11.7368
ingne	-11.7368
faoi	-11.7368
▁tionó	-11.737
lean	-11.7372
chruth	-11.7373
▁claonta	-11.7374
hcovanna	-11.7376
idirghabhála	-11.7379
ttp	-11.738
achtarán	-11.7382
▁géinit	-11.7383
aontaithe	-11.7384
chiall	-11.7391
▁bhfaighf	-11.7393
aighde	-11.7394
▁2.4	-11.7395
▁loing	-11.7396
▁víreola	-11.7396
▁ngl	-11.7397
aglaisí	-11.7399
▁Rial	-11.7401
▁heipidéim	-11.7401
irmiú	-11.7403
phob	-11.7403
▁aerbheala	-11.7404
▁toitín	-11.7404
▁foirc	-11.7408
dul	-11.741
▁Cuim	-11.741
▁teag	-11.741
shruth	-11.7411
bail	-11.7412
▁bhfac	-11.7412
▁dtu	-11.7412
▁réamhscoil	-11.7412
▁múinteoir	-11.7413
▁cuairteoir	-11.7414
▁cion	-11.7414
cheart	-11.7415
▁scíth	-11.7416
▁seic	-11.7416
▁turasóireacht	-11.7417
▁néareolaíoch	-11.7422
▁lochtach	-11.7424
amáiste	-11.7425
▁blo	-11.7425
▁solúbthacht	-11.7426
▁aicmi	-11.7426
▁240,	-11.7426
▁mbraislí	-11.7427
▁reiligiúnach	-11.7427
▁amharclann	-11.7427
▁114	-11.7428
▁gcoinn	-11.7429
teanas	-11.7432
dwa	-11.7433
▁bhialann	-11.7435
uba	-11.7435
éadrach	-11.7438
▁gao	-11.7439
▁scáileá	-11.7439
cent	-11.7439
ógálach	-11.744
uit	-11.744
dlú	-11.7442
eileafóin	-11.7443
ráchtála	-11.7443
oirmisc	-11.7443
▁2,0	-11.7445
conspóid	-11.7446
ork	-11.7446
▁dhochtú	-11.7447
alcól	-11.7448
▁thomha	-11.7449
▁réasúna	-11.745
▁homalóg	-11.745
▁iarái	-11.745
▁míchompord	-11.745
omórta	-11.7451
▁laois	-11.7451
▁ceannas	-11.7451
eagai	-11.7451
eolchoirmeacha	-11.7452
ronch	-11.7452
▁choróinvír	-11.7452
reathnóireacht	-11.7452
▁meic	-11.7453
▁máithreacha	-11.7454
▁láimhseá	-11.7454
asacha	-11.7454
reabh	-11.7455
hfuil	-11.7455
▁wor	-11.7456
▁maireachtá	-11.7456
heith	-11.7457
▁thras	-11.7457
▁béa	-11.7457
▁freasta	-11.7458
eirde	-11.7459
eisiúin	-11.7459
▁pearsan	-11.7459
▁Idir	-11.7459
▁cothromaíocht	-11.746
▁milliú	-11.746
▁chlu	-11.746
neaiceanna	-11.746
chomhairleoir	-11.746
chompordach	-11.746
▁caifé	-11.746
reidmheasa	-11.7461
airmheán	-11.7461
oghluaiste	-11.7461
ainaithníodh	-11.7461
taidéar	-11.7461
▁seasmhach	-11.7462
▁fóirdheon	-11.7463
▁sóisial	-11.7463
eideal	-11.7463
éireolaíocht	-11.7463
seoir	-11.7463
eadaithe	-11.7463
▁uirth	-11.7464
baictéar	-11.7464
▁gheimhr	-11.7464
▁íochtar	-11.7464
▁ceolchoirme	-11.7464
▁freas	-11.7464
ghnách	-11.7465
▁fhéad	-11.7465
▁sícea	-11.7465
sput	-11.7465
gníomhaireacht	-11.7465
▁barr	-11.7465
▁Díghalr	-11.7465
▁práinn	-11.7466
intéis	-11.7466
▁stró	-11.7466
laicint	-11.7467
▁Sábháilte	-11.7467
áipéar	-11.7467
▁codla	-11.7467
eithdháil	-11.7467
shampl	-11.7467
vax	-11.7467
eitril	-11.7467
▁sheic	-11.7467
uineachán	-11.7468
▁seil	-11.7468
▁leabhar	-11.7468
▁gcógas	-11.7468
thiom	-11.7468
ótáil	-11.7468
▁shoiléir	-11.7469
▁diagn	-11.7469
▁mheicn	-11.7469
taigine	-11.7469
▁comhlán	-11.7469
rscaoileadh	-11.7469
eacnamaí	-11.7469
▁Os	-11.7469
leathach	-11.7469
fiaclóir	-11.7469
íbhuntáist	-11.7469
▁Contagio	-11.7469
.1.1.7	-11.7469
aimseartha	-11.7469
ainmneoir	-11.7469
bhliana	-11.7469
caifitéire	-11.7469
chomhbhrúite	-11.7469
comirnaty	-11.7469
covzx	-11.7469
crophage	-11.7469
dublin	-11.7469
híodráitiú	-11.7469
ifiolachtach	-11.7469
iodrocsaicloróic	-11.7469
ioncrónaí	-11.7469
ithub	-11.7469
luaiste	-11.7469
núicléatíd	-11.7469
ockdown	-11.7469
ognaíoch	-11.7469
phróifíl	-11.7469
shíneacha	-11.7469
shíomptómach	-11.7469
sopropanol	-11.7469
uangdong	-11.7469
íteaplasma	-11.7469
▁2002-2004	-11.7469
▁Ceadúnas	-11.7469
▁Cocúnú	-11.7469
▁Díhiodráitiú	-11.7469
▁Gaillimh	-11.7469
▁Gluaiseacht	-11.7469
▁Iobúproifein	-11.7469
▁Ionfhabhtaío	-11.7469
▁Liatro	-11.7469
▁Músaeim	-11.7469
▁Príomh	-11.7469
▁Scoileanna	-11.7469
▁Speicis	-11.7469
▁Sábhál	-11.7469
▁Tuarascá	-11.7469
▁Tuirse	-11.7469
▁afganastáin	-11.7469
▁ainéistéise	-11.7469
▁amazon	-11.7469
▁auckland	-11.7469
▁bearbóirí	-11.7469
▁bhfuinneog	-11.7469
▁bhlainséir	-11.7469
▁bhliantúil	-11.7469
▁bhuinneach	-11.7469
▁bpríosú	-11.7469
▁bputóg	-11.7469
▁cabhán	-11.7469
▁cadhnra	-11.7469
▁carbóin	-11.7469
▁chaipitl	-11.7469
▁chanáracha	-11.7469
▁chathaoir	-11.7469
▁choincheap	-11.7469
▁cianrialtá	-11.7469
▁cluaise	-11.7469
▁cluas	-11.7469
▁cnuasa	-11.7469
▁coimhlint	-11.7469
▁columbia	-11.7469
▁comharsanach	-11.7469
▁comhfhreagracha	-11.7469
▁comhghaol	-11.7469
▁crispr	-11.7469
▁croineolaíoch	-11.7469
▁cuirfews	-11.7469
▁cultúir	-11.7469
▁cíbear	-11.7469
▁dhromhchla	-11.7469
▁dhéimeagrafa	-11.7469
▁dhíchriptiú	-11.7469
▁dhíhiodráiti	-11.7469
▁dromhchla	-11.7469
▁díbirt	-11.7469
▁díhiodraítithe	-11.7469
▁díláraithe	-11.7469
▁eatánól	-11.7469
▁epitheli	-11.7469
▁eustatius	-11.7469
▁fhuinneog	-11.7469
▁forimeallach	-11.7469
▁gceanada	-11.7469
▁gcruthó	-11.7469
▁georg	-11.7469
▁ghebreyesus	-11.7469
▁gheografach	-11.7469
▁gruagaire	-11.7469
▁hantai	-11.7469
▁hidrigine	-11.7469
▁hollscoil	-11.7469
▁híseal	-11.7469
▁ildisciplíneach	-11.7469
▁information	-11.7469
▁insamhalta	-11.7469
▁iobúproiféin	-11.7469
▁iveagh	-11.7469
▁journal	-11.7469
▁kolkata	-11.7469
▁labcorp	-11.7469
▁london	-11.7469
▁luathfhoghlama	-11.7469
▁lucsamburg	-11.7469
▁lymphopenia	-11.7469
▁meerjady	-11.7469
▁meiteashonr	-11.7469
▁mhaláiv	-11.7469
▁mholdóiv	-11.7469
▁mhuilinn	-11.7469
▁monocl	-11.7469
▁monoclónacha	-11.7469
▁mountjoy	-11.7469
▁neodrú	-11.7469
▁núicléasíd	-11.7469
▁oibleagáid	-11.7469
▁oklahoma	-11.7469
▁phalaistín	-11.7469
▁pictiúir	-11.7469
▁próifíl	-11.7469
▁putóige	-11.7469
▁racún	-11.7469
▁reiligiúin	-11.7469
▁richard	-11.7469
▁sanitizer	-11.7469
▁scríbhneoir	-11.7469
▁seattle	-11.7469
▁shainaithní	-11.7469
▁shealadacha	-11.7469
▁shedding	-11.7469
▁shraothartach	-11.7469
▁socheacnamaíoch	-11.7469
▁sráidbhaile	-11.7469
▁timthriall	-11.7469
▁tipiciúil	-11.7469
▁tobága	-11.7469
▁toinníteas	-11.7469
▁trópaiceach	-11.7469
▁tseirbia	-11.7469
▁tuircméanastáin	-11.7469
▁uisciúil	-11.7469
▁vatacáin	-11.7469
▁veiniséala	-11.7469
▁vítneam	-11.7469
▁wenliang	-11.7469
▁wikipedia	-11.7469
▁Údar	-11.7469
eibhéal	-11.7469
ghlantóir	-11.7469
haemaróidí	-11.7469
▁thorthúlacht	-11.7469
ionstraimí	-11.7469
siombáib	-11.7469
▁5,143	-11.7469
▁Anseo	-11.7469
▁Taifead	-11.7469
▁aeróba	-11.7469
▁aetóip	-11.7469
▁atlanta	-11.7469
▁chabháin	-11.7469
▁gangelt	-11.7469
▁gcoinníoll	-11.7469
▁gluco	-11.7469
▁iarbhír	-11.7469
▁josep	-11.7469
▁lipid	-11.7469
▁mhuineacháin	-11.7469
▁preasagalla	-11.7469
▁réamhlíneach	-11.7469
▁réamhthuairisc	-11.7469
▁suaite	-11.7469
▁teimhneacht	-11.7469
ghabhálta	-11.7469
príomhinstitiúid	-11.7469
▁bhoilg	-11.7469
▁boilg	-11.7469
▁chultúr	-11.7469
▁folúsghlan	-11.7469
▁gaeltachta	-11.7469
▁gcuairteoir	-11.7469
▁liúnta	-11.7469
▁smig	-11.7469
▁sporad	-11.7469
▁timpist	-11.7469
chorpr	-11.7469
íciatra	-11.7469
▁Glaineacht	-11.7469
▁ceansaithe	-11.7469
▁chomhleá	-11.7469
▁cnónna	-11.7469
▁colleg	-11.7469
▁fontana	-11.7469
▁futuna	-11.7469
▁lava	-11.7469
▁philip	-11.7469
▁maláire	-11.7469
iedcr	-11.7469
isolate	-11.7469
▁bairille	-11.7469
▁bhforbr	-11.7469
▁chuisle	-11.7469
▁dtuairisc	-11.7469
▁endemic	-11.7469
▁hiodrocsai	-11.7469
▁leadóige	-11.7469
▁macasamhail	-11.7469
▁milse	-11.7469
▁shéideadh	-11.7469
▁spraoi	-11.7469
íobairt	-11.7469
▁Leathna	-11.7469
▁acadúla	-11.7469
▁cheachtanna	-11.7469
▁borrell	-11.7469
▁coiteann	-11.7469
▁craobh	-11.7469
▁scolaíocht	-11.7469
▁soithíoch	-11.7469
▁Feidhm	-11.7469
▁Rub	-11.7469
▁cácaí	-11.7469
▁neamhrialta	-11.7469
▁samhradh	-11.7469
brollach	-11.7469
dhúlag	-11.7469
▁87%	-11.7469
▁Lorg	-11.7469
▁airways	-11.7469
▁crios	-11.7469
▁delhi	-11.7469
▁flybe	-11.7469
▁scamhóige	-11.7469
eastósc	-11.7469
tiogma	-11.7469
▁gceap	-11.7469
déifeachtúlachta	-11.7469
ghlacad	-11.7469
▁dramhaí	-11.7469
▁stampa	-11.7469
aistre	-11.7469
inmheánach	-11.7469
▁30-65	-11.7469
▁broghais	-11.7469
▁faisin	-11.7469
▁mhuirís	-11.7469
▁utc	-11.7469
▁ithaca	-11.7469
▁scór	-11.7469
athnuachan	-11.7469
caighdeán	-11.7469
▁cileavata	-11.7469
dhiagnóisithe	-11.7469
▁tadhaill	-11.7469
▁íoslainn	-11.7469
▁50-60	-11.7469
▁fhisiciúil	-11.7469
▁toilteana	-11.7469
▁Foils	-11.7469
▁droma	-11.7469
▁hinstitiúid	-11.7469
▁earráid	-11.7469
▁ríce	-11.7469
▁Ceap	-11.7469
▁Otha	-11.7469
▁torthúlachta	-11.7469
▁0.3	-11.7469
▁221,64	-11.7469
▁díshealbha	-11.7469
▁eatarthu	-11.7469
▁saghas	-11.7469
▁wiki	-11.7469
▁ngealltana	-11.7469
laith	-11.7469
iticiúil	-11.7469
▁services	-11.747
▁vitimín	-11.747
▁press	-11.747
▁coinneálachta	-11.747
théarma	-11.747
▁arabacha	-11.747
▁borradh	-11.747
regula	-11.747
▁2-44	-11.747
▁bhuairt	-11.747
ghníomhachtaithe	-11.747
rabhsá	-11.747
▁slóga	-11.747
37.6%)	-11.747
ntúil	-11.747
▁gearmá	-11.747
▁Múin	-11.747
▁hot	-11.747
▁ghnóthú	-11.747
▁ribín	-11.747
▁gcolainn	-11.747
▁phortaingéil	-11.747
▁meánioncaim	-11.747
uasghr	-11.747
▁lunar	-11.747
▁0.5%	-11.747
8,251	-11.747
2,64	-11.747
▁gael	-11.747
▁dheirfiúr	-11.747
▁107,9	-11.747
▁Sár	-11.747
▁gcuimhn	-11.747
▁Tráth	-11.747
▁Ceo	-11.747
▁díospói	-11.747
▁94.5%	-11.747
▁mheáchan	-11.747
▁mhórscála	-11.747
▁siopadóir	-11.747
6,54	-11.747
▁phléasc	-11.747
▁nglac	-11.747
ádú	-11.747
▁hepa	-11.7471
indic	-11.7471
▁ciúin	-11.7471
▁Bialanna	-11.7471
9,43	-11.7471
▁dubh	-11.7471
▁Luimneach	-11.7471
▁páirtíneach	-11.7471
▁díbrí	-11.7471
▁Muineachán	-11.7471
llance	-11.7471
▁scát	-11.7471
eaitseáil	-11.7471
íosparta	-11.7471
▁sync	-11.7471
sparta	-11.7471
▁fallo	-11.7471
▁mbronn	-11.7471
▁gcatagóir	-11.7471
▁covax	-11.7471
▁226,	-11.7471
▁246,	-11.7471
árasán	-11.7471
▁gnóthú	-11.7471
▁pheitril	-11.7471
▁1,037	-11.7471
▁shíor	-11.7471
▁shiúlóid	-11.7471
,541	-11.7471
▁coirmeacha	-11.7471
▁aitíopúla	-11.7472
▁tairbh	-11.7472
▁meitibileach	-11.7472
▁meadhrán	-11.7472
▁mbuidéil	-11.7472
▁fauci	-11.7472
▁tnf	-11.7472
▁ghoile	-11.7472
▁fhíochán	-11.7472
▁foréigneach	-11.7472
under	-11.7472
▁ceimic	-11.7472
▁phataigineacht	-11.7472
▁seich	-11.7472
▁mhúnla	-11.7472
tiarna	-11.7472
ffin	-11.7472
▁ancaire	-11.7472
▁brúsca	-11.7472
▁lasca	-11.7472
outh	-11.7472
▁gastr	-11.7472
▁afra	-11.7472
▁íoslódáil	-11.7472
▁sroich	-11.7472
▁shuaimhneas	-11.7472
▁Tréi	-11.7472
▁Mór	-11.7473
▁Breoite	-11.7473
▁Aeráil	-11.7473
▁ionsú	-11.7473
▁chopar	-11.7473
▁bhraitear	-11.7473
▁dtuismitheoirí	-11.7473
▁macao	-11.7473
úinéir	-11.7473
▁eachtrannach	-11.7473
oglob	-11.7473
▁Phl	-11.7473
▁244,	-11.7473
▁théacs	-11.7473
hlegm	-11.7473
▁Glantach	-11.7473
úchais	-11.7473
oslódáil	-11.7473
▁220,	-11.7473
▁huanan	-11.7474
▁7,8	-11.7474
▁hoiriún	-11.7474
▁1.44%	-11.7474
▁éalú	-11.7474
▁dtinneas	-11.7474
chothrom	-11.7474
▁gcúrsa	-11.7474
▁críochnú	-11.7474
▁wipe	-11.7474
ororda	-11.7474
riontá	-11.7474
npianna	-11.7474
▁Aer	-11.7474
▁toiliú	-11.7474
▁Mers	-11.7474
▁páipéarachas	-11.7474
▁craiceann	-11.7475
▁comáin	-11.7475
▁06	-11.7475
▁newsom	-11.7475
▁gheimhreadh	-11.7475
8.3	-11.7475
▁céile	-11.7475
▁gréasán	-11.7475
9,5	-11.7475
▁15,8	-11.7475
▁fóirdheonaithe	-11.7475
▁comhchruinnithe	-11.7475
▁daingnithe	-11.7475
iteiripe	-11.7475
▁Frithghiniúint	-11.7475
▁neamhsh	-11.7475
tter	-11.7476
▁gcosnó	-11.7476
▁shainaithin	-11.7476
▁baitsilé	-11.7476
▁Spórt	-11.7476
cheangailte	-11.7476
▁hidirghabhá	-11.7476
▁mhasc	-11.7476
▁225,	-11.7476
eilge	-11.7476
▁gcuspóir	-11.7477
▁réitithe	-11.7477
▁praiticiúil	-11.7477
▁foirmiú	-11.7477
▁héifeachtúil	-11.7477
▁chríochn	-11.7477
▁srl	-11.7477
ound	-11.7477
▁dheonach	-11.7477
▁gri	-11.7477
phy	-11.7477
▁Cóga	-11.7477
ness	-11.7477
▁athchúrsáil	-11.7477
colpaí	-11.7477
ghuaillí	-11.7478
oby	-11.7478
llmhacht	-11.7478
▁mbain	-11.7478
mun	-11.7478
▁2,97	-11.7478
▁foirmiúla	-11.7478
chairr	-11.7478
▁dtaisteala	-11.7479
▁mionla	-11.7479
▁dearg	-11.7479
▁sintéis	-11.7479
7,4	-11.7479
▁imeallaithe	-11.7479
▁tomhalt	-11.7479
▁crith	-11.748
▁comhaont	-11.748
▁shamha	-11.748
▁cruthaithe	-11.748
▁grád	-11.748
▁tsai	-11.748
▁Maisc	-11.748
▁port	-11.7481
▁2.0	-11.7481
▁easaont	-11.7481
▁1.0	-11.7481
▁pleanáilte	-11.7481
conraitheoir	-11.7481
▁scáth	-11.7481
▁2017	-11.7482
▁2,39	-11.7482
rfacha	-11.7482
3,532	-11.7482
oibreo	-11.7482
láid	-11.7482
tial	-11.7483
store	-11.7483
▁tsea	-11.7483
▁rís	-11.7484
▁Nuashonruithe	-11.7484
bsta	-11.7484
▁inscoile	-11.7484
bmi	-11.7484
▁comhfh	-11.7485
iúnaithe	-11.7485
▁eachtar	-11.7485
▁canta	-11.7485
39,7	-11.7485
putum	-11.7485
feces	-11.7485
▁scagthástálacha	-11.7485
▁vit	-11.7486
▁muint	-11.7486
▁dheirean	-11.7486
reasach	-11.7487
▁fhaig	-11.7487
roichead	-11.7487
▁truailleá	-11.7487
▁ngnáthshaol	-11.7488
▁seó	-11.7488
▁seac	-11.7488
▁shíom	-11.7488
▁bpáras	-11.7488
▁thiont	-11.7488
cho	-11.7488
▁réasúnach	-11.7489
▁gcoimeád	-11.7489
▁sheineafóibe	-11.7489
▁ardghrá	-11.749
▁caiféanna	-11.749
▁feoil	-11.749
▁cosnó	-11.749
▁1957	-11.749
2,692	-11.749
814	-11.749
▁will	-11.749
▁mhac	-11.749
eighilt	-11.749
▁bhfágfa	-11.7491
▁chomhthá	-11.7491
▁máthair	-11.7491
▁cholpa	-11.7491
▁focal	-11.7492
▁thomhais	-11.7492
mhse	-11.7492
áchtáil	-11.7492
▁253,	-11.7492
▁míosúil	-11.7492
elf	-11.7492
▁tuill	-11.7492
▁44%	-11.7492
▁heaglais	-11.7492
▁fhisic	-11.7492
▁conspóide	-11.7493
▁consalachtaí	-11.7493
▁mothúchán	-11.7493
▁duga	-11.7493
▁phá	-11.7493
▁séasú	-11.7493
▁Srianta	-11.7493
aolaithe	-11.7494
shruthaithe	-11.7494
agram	-11.7494
▁galraithe	-11.7494
▁próiseáladh	-11.7494
▁bhag	-11.7495
▁dtrí	-11.7495
▁shé	-11.7495
bia	-11.7496
▁fionn	-11.7496
▁contúirtí	-11.7496
dimer	-11.7497
▁proto	-11.7497
boni	-11.7497
▁chomhairliúch	-11.7497
▁Sto	-11.7497
▁Tuil	-11.7497
▁marbhán	-11.7497
▁473	-11.7497
chór	-11.7497
páras	-11.7497
▁seanadóir	-11.7498
▁Neart	-11.7498
▁ngéanóm	-11.7498
▁faecas	-11.7499
▁medicals	-11.7499
▁céadfach	-11.7499
▁éilítear	-11.75
▁reachtach	-11.75
ilead	-11.75
▁pleanáil	-11.75
▁4,600	-11.75
▁deochanna	-11.7501
náithe	-11.7501
▁heitilt	-11.7501
▁86%	-11.7501
▁bpain	-11.7501
▁neodrach	-11.7501
inéis	-11.7501
inrochtaineacht	-11.7502
▁dheis	-11.7502
intinne	-11.7502
▁imill	-11.7503
shrutha	-11.7503
▁lúbadh	-11.7503
fb	-11.7503
▁costasaí	-11.7504
▁furast	-11.7505
idine	-11.7505
omhal	-11.7506
▁Bhu	-11.7506
▁réamhscoileanna	-11.7507
▁fhóg	-11.7507
▁conc	-11.7508
▁pháirc	-11.7508
▁díls	-11.7509
virus	-11.7509
igi	-11.751
adóireachta	-11.751
▁huan	-11.7511
▁champas	-11.7511
▁páirceá	-11.7511
4,27	-11.7511
▁fuail	-11.7512
ffs	-11.7512
▁méadrach	-11.7513
▁1950	-11.7513
▁imreo	-11.7513
▁tru	-11.7514
sult	-11.7514
▁choinneála	-11.7514
9,83	-11.7515
iceola	-11.7515
▁245,	-11.7515
▁teagmhas	-11.7516
▁bainc	-11.7516
atama	-11.7516
▁chaighdeáin	-11.7517
▁cúntó	-11.7517
▁abhcóideacht	-11.7517
▁doirteadh	-11.7518
pórt	-11.7519
▁4.5	-11.7519
▁Teacht	-11.7519
240,19	-11.7521
▁céadfacha	-11.7521
▁iarmhí	-11.7522
▁ionghabháil	-11.7522
▁turasóireachta	-11.7522
oiléir	-11.7522
▁cuimhnigh	-11.7522
léid	-11.7522
▁ionscópacht	-11.7522
▁lochtacha	-11.7523
cainníochta	-11.7523
cumhacht	-11.7523
▁chóimheas	-11.7523
mhall	-11.7524
▁comhiomlánóir	-11.7524
mhara	-11.7524
▁chaomhnóir	-11.7524
▁castil	-11.7524
▁6-9	-11.7524
work	-11.7524
▁galú	-11.7524
▁25%	-11.7525
▁fáilte	-11.7525
▁Caill	-11.7525
▁bhialanna	-11.7525
▁bpróitéin	-11.7526
▁ghlaoch	-11.7527
monarcha	-11.7527
ippo	-11.7528
▁fearg	-11.7528
▁jo	-11.7528
isco	-11.7528
achtain	-11.7529
ener	-11.753
▁hainm	-11.753
ílim	-11.7531
▁Cov	-11.7533
amhá	-11.7534
▁thinnis	-11.7535
íonach	-11.7535
illiún	-11.7536
▁los	-11.7536
iarraí	-11.7537
epsis	-11.7537
▁Fig	-11.7537
▁imdhíontaithe	-11.7538
▁teo	-11.7538
rp	-11.7539
▁víreolaí	-11.754
gy	-11.754
▁sainiúla	-11.7542
gear	-11.7543
cóirí	-11.7543
▁séipé	-11.7544
icín	-11.7544
▁scaoill	-11.7545
▁tuis	-11.7546
▁aisghabhá	-11.7546
▁thagartha	-11.7546
▁coimpléasc	-11.7547
▁2,70	-11.7548
▁ryan	-11.755
▁coincheap	-11.755
▁custaiméirí	-11.755
▁ghníomhachtú	-11.755
▁pleura	-11.755
▁cheimice	-11.755
▁alveolar	-11.755
▁bhrost	-11.755
aillte	-11.755
▁fhigiú	-11.755
▁gnáthuaireanta	-11.755
▁dualga	-11.7551
ontú	-11.7551
▁2,94	-11.7551
▁hipir	-11.7551
▁scríofa	-11.7552
▁cheil	-11.7552
reoirlín	-11.7553
▁thréimhs	-11.7554
▁child	-11.7554
▁feasach	-11.7554
▁huas	-11.7555
racht	-11.7555
▁Pas	-11.7557
▁mísh	-11.7557
▁374	-11.7558
sé	-11.7558
▁Ceisteanna	-11.756
▁dtre	-11.756
▁dheireanacha	-11.7561
▁duáin	-11.7562
ilio	-11.7562
▁rómh	-11.7565
▁chinnt	-11.7565
▁thromb	-11.7565
omhdháil	-11.7565
33))	-11.7566
▁muire	-11.7567
nghr	-11.7567
▁siv	-11.7568
▁mcc	-11.7569
▁ghair	-11.7569
▁xin	-11.757
nec	-11.757
▁gnéasach	-11.7571
▁chumarsáide	-11.7573
ragua	-11.7573
▁alan	-11.7574
ghais	-11.7575
▁tuairimíocht	-11.7576
▁3,8	-11.7578
▁nios	-11.7578
▁profa	-11.7579
seacht	-11.7581
imeo	-11.7581
thán	-11.7581
▁thuairi	-11.7581
▁choin	-11.7583
▁tiománaithe	-11.7584
▁píosa	-11.7584
▁víreolaíocht	-11.7585
▁caoin	-11.7585
ifn	-11.7586
url	-11.7586
asca	-11.7587
mú	-11.7588
▁bainisteoirí	-11.7588
▁ngeilleaga	-11.7589
▁bhogearra	-11.759
ecdc	-11.759
▁mheasartha	-11.7591
haz	-11.7593
▁deoch	-11.7594
▁frithvíreasach	-11.7597
▁insc	-11.7597
nned	-11.7597
▁124	-11.7598
yd	-11.7599
pobail	-11.76
▁pap	-11.76
▁gcleachtas	-11.7601
exam	-11.7602
▁pia	-11.7603
stáin	-11.7604
iteanna	-11.7607
▁sinoph	-11.7607
nex	-11.761
-25%)	-11.7611
▁dúlra	-11.7612
▁210	-11.7612
imer	-11.7613
▁tuairisciúil	-11.7613
adóirí	-11.7614
rc	-11.7617
eachtais	-11.7618
▁vacsaíníthe	-11.762
4,3	-11.762
▁contúirteach	-11.7621
▁crs	-11.7621
iars	-11.7621
eagraíocht	-11.7624
▁haire	-11.7626
méadai	-11.7626
olóim	-11.7629
-100	-11.7634
▁Sean	-11.7634
▁bhfor	-11.7635
▁teiripeacha	-11.7637
▁ortsa	-11.7638
▁140	-11.7638
▁chúlra	-11.7639
▁taiscuma	-11.7639
▁mhala	-11.7639
▁gaillimh	-11.764
▁parai	-11.7641
mhal	-11.7641
artú	-11.7642
▁bróg	-11.7642
ardú	-11.7642
▁amharc	-11.7643
▁267,	-11.7644
oombe	-11.7646
acadói	-11.7646
srón	-11.7646
▁gi	-11.7649
▁éig	-11.7649
▁cúna	-11.7651
▁chiníocha	-11.7651
▁nigéire	-11.7651
▁ordlatha	-11.7652
▁heas	-11.7653
ake	-11.7653
ránaigh	-11.7653
,576	-11.7653
▁tionól	-11.7654
▁ferrets	-11.7657
▁foriomlána	-11.766
▁dírí	-11.7662
▁99.4	-11.7662
▁gcá	-11.7665
▁spéisiú	-11.7665
▁2013	-11.7669
1,000	-11.7673
▁gcabhr	-11.7673
▁hothar	-11.7674
stic	-11.7674
ghar	-11.7677
slí	-11.7679
191	-11.7679
imhde	-11.7679
▁neamhshonrach	-11.768
▁fee	-11.7681
tics	-11.7683
oda	-11.7684
mera	-11.7686
▁bpáistí	-11.7688
▁tuáill	-11.7689
fhe	-11.7691
▁2000	-11.7691
▁epi	-11.7691
▁gairdín	-11.7692
ops	-11.7693
▁chairr	-11.7694
▁cfr	-11.7695
▁chúramóirí	-11.7699
éilliúil	-11.7699
▁1.8	-11.77
▁comhroinnt	-11.7701
inmh	-11.7705
ym	-11.7707
▁Céim	-11.7708
aisté	-11.7708
▁máthar	-11.7708
▁míle	-11.771
erre	-11.7712
▁tacúil	-11.7713
▁fhoirmiú	-11.7717
allmhairiú	-11.7724
▁Deacracht	-11.7728
▁sochraide	-11.7733
istí	-11.7733
▁fuai	-11.7741
ainmnío	-11.7742
ery	-11.7742
▁tge	-11.7743
▁fhreasta	-11.7748
arraig	-11.7749
éime	-11.775
▁fíorú	-11.775
▁asraon	-11.775
rogen	-11.7751
archéime	-11.7751
▁bhailigh	-11.7752
▁eu	-11.7754
▁shreabhá	-11.7755
ili	-11.7756
▁forb	-11.7756
▁áisiú	-11.776
▁mair	-11.7765
▁seicheamhach	-11.7765
▁éiginnteacht	-11.7767
itil	-11.7768
léinte	-11.7769
cine	-11.7771
rmic	-11.7775
thástálacha	-11.7776
plan	-11.7784
▁fabr	-11.7786
▁71	-11.7787
▁chonaic	-11.779
▁53	-11.7791
scaiptheoir	-11.7794
3,89	-11.7794
padh	-11.7795
▁mur	-11.7797
▁sim	-11.7799
aigí	-11.78
▁thaiscuma	-11.7803
róid	-11.7806
38,90	-11.7806
▁jak	-11.7807
ánaigh	-11.7809
▁spái	-11.7812
athraío	-11.7813
ltacha	-11.7817
▁Laois	-11.7819
▁ndíola	-11.782
71%)	-11.7833
▁adeno	-11.7841
▁mheasca	-11.7843
▁bill	-11.7846
eacair	-11.7847
▁eiti	-11.7847
▁gclo	-11.7851
tioncha	-11.7852
▁tai	-11.7852
▁83	-11.7854
▁hion	-11.7857
▁215,	-11.7857
mhatán	-11.7861
▁2.4%	-11.7862
▁homalógach	-11.7862
▁bhreathn	-11.7865
cac	-11.7866
alla	-11.7868
seiceáil	-11.7873
▁cáiliú	-11.7875
▁shiopa	-11.7875
▁éiteolaíocht	-11.7876
▁bháin	-11.788
hl	-11.788
▁méadracht	-11.7882
our	-11.7882
▁545	-11.7883
▁Am	-11.7883
yel	-11.7885
▁iontach	-11.7889
thocsaineacht	-11.7893
▁Mio	-11.7894
irgeoir	-11.7898
scartha	-11.7898
▁4,87	-11.7899
1.3	-11.7904
▁fiosrúchá	-11.7911
2.4%	-11.7913
lasma	-11.7915
▁seachn	-11.7916
.2%)	-11.7928
▁spé	-11.7934
▁déanfa	-11.7935
ps	-11.7938
mat	-11.7947
▁3.5	-11.7951
jav	-11.7955
▁cheadúna	-11.7957
faighea	-11.7961
▁tionscn	-11.7962
iter	-11.7962
ocd	-11.7963
▁mona	-11.7965
cúrsaí	-11.7967
▁vót	-11.7967
ada	-11.7971
▁stó	-11.7971
agraíocht	-11.7972
laíochta	-11.7979
▁phaiteolaíoch	-11.7979
1.35	-11.798
▁measúnacht	-11.7982
▁eagr	-11.7984
▁Tosaío	-11.7989
▁emm	-11.7995
▁54	-11.7996
▁dinimiciú	-11.8002
▁bol	-11.8002
▁4,13	-11.8003
▁airm	-11.8005
▁ku	-11.8006
rizon	-11.8009
▁bor	-11.8015
aighne	-11.8015
aoin	-11.8015
▁56	-11.8017
▁hua	-11.802
▁sonracha	-11.8023
▁beir	-11.8023
▁socrófa	-11.8026
cothromas	-11.8031
▁shine	-11.8047
mhaoirs	-11.8052
▁res	-11.8058
úile	-11.8059
▁pholaitiú	-11.8063
▁díd	-11.8067
ovi	-11.807
uee	-11.8071
▁mbrai	-11.8072
▁aut	-11.8074
▁ngníomhaíocht	-11.8078
px	-11.808
▁bunú	-11.8086
▁só	-11.8094
rud	-11.8098
fbc	-11.8101
llaí	-11.8103
▁seachtrach	-11.8107
dac	-11.8112
▁ex	-11.8115
▁cáil	-11.8116
bholadh	-11.8126
iceáilte	-11.8133
naistritheacht	-11.8135
▁chom	-11.8135
eicniúla	-11.8143
▁250,	-11.8147
▁shaoil	-11.8153
mei	-11.816
deach	-11.8171
▁scríobh	-11.8176
crp	-11.8198
fhua	-11.8209
▁fororda	-11.8216
chúpl	-11.8221
héad	-11.8221
▁imirceach	-11.8226
2,30	-11.8228
únna	-11.8229
▁14.5	-11.8234
ati	-11.8245
elica	-11.8247
▁rithf	-11.8248
▁St	-11.826
cach	-11.8274
slonn	-11.8274
▁feabhs	-11.8277
chairt	-11.8283
▁póg	-11.8286
13)	-11.8297
▁ol	-11.8299
cre	-11.8301
win	-11.8301
▁tinr	-11.8304
▁bhío	-11.8304
7,55	-11.8308
ité	-11.8313
bhitheolaí	-11.8318
▁gníomhair	-11.8323
▁dhíl	-11.8329
ily	-11.8331
chomhthreomha	-11.8332
6%)	-11.8332
▁intu	-11.8342
acainn	-11.8342
▁leacht	-11.8344
ki	-11.8352
▁tó	-11.8353
▁béi	-11.8358
▁casa	-11.8359
▁dtá	-11.8385
▁núicl	-11.8403
▁athraío	-11.8405
1,9	-11.8408
▁oifigí	-11.8409
iníocha	-11.842
eachtas	-11.8427
lúchta	-11.8433
▁(9	-11.8436
ix	-11.8442
▁féinmh	-11.8455
pháirteach	-11.8457
▁08	-11.8458
▁endo	-11.8458
▁ceacht	-11.8462
▁seachrá	-11.8469
▁Cuma	-11.8472
gard	-11.8479
▁dhéanta	-11.8483
2,16	-11.8514
▁sanit	-11.8518
iarrfa	-11.8526
reac	-11.8528
mhuin	-11.854
▁ceathr	-11.8545
▁athlastacha	-11.8574
omhordú	-11.8595
chruinniú	-11.8601
imeachta	-11.8602
ovirus	-11.8602
geann	-11.8626
ism	-11.8635
▁comhghleacaithe	-11.8637
▁míos	-11.8672
5,2	-11.8682
-10	-11.8697
bairt	-11.8698
▁cadá	-11.871
▁chomhar	-11.8721
▁ghairmiú	-11.874
▁we	-11.8748
riton	-11.8753
idiú	-11.8762
alls	-11.8769
950	-11.8773
▁polait	-11.878
▁moth	-11.8786
▁ngéin	-11.8787
bal	-11.8805
▁Cu	-11.8816
▁físchomhdhá	-11.8824
thr	-11.8845
sreabhadh	-11.8871
▁clor	-11.8871
▁1-3	-11.8888
▁deireana	-11.8898
▁socha	-11.8905
7.8	-11.8944
▁Chaith	-11.8977
oíche	-11.8998
▁nasa	-11.9015
corcaigh	-11.9021
▁thacú	-11.9025
▁nid	-11.9057
▁iasachta	-11.9063
▁coireacht	-11.9118
▁12014	-11.9156
pead	-11.9162
toradh	-11.9172
chathrach	-11.9173
▁costasach	-11.9181
▁agu	-11.9191
reithniú	-11.9194
otic	-11.9199
mdhíonacht	-11.9218
▁cóiríocht	-11.9225
▁ártha	-11.9226
nchs	-11.9229
55%	-11.9243
▁aiseola	-11.9246
ovid	-11.9285
4%)	-11.9285
▁comhréit	-11.9293
hain	-11.9303
▁va	-11.9367
▁Buai	-11.9376
olta	-11.939
▁neamhghnách	-11.9395
áine	-11.9402
bealtaine	-11.9437
▁halla	-11.9441
▁phr	-11.9454
▁sl	-11.946
etic	-11.9465
▁bre	-11.9487
scéim	-11.949
▁pragha	-11.9491
time	-11.9518
▁thua	-11.9615
35,8	-11.9618
ocrais	-11.9623
llmh	-11.9634
uala	-11.9652
láinteachas	-11.9654
▁áir	-11.9656
▁gclua	-11.9696
▁clúd	-11.9697
xe	-11.9706
taibléid	-11.9725
▁chorói	-11.9737
aff	-11.9743
▁ki	-11.9747
0.00	-11.9751
▁si	-11.9764
ple	-11.9768
4,4	-11.9781
7,7	-11.9796
cóireáil	-11.9798
▁gcaifé	-11.9873
3,32	-11.9883
stálacha	-11.9894
▁14,7	-11.993
sainmhíniú	-11.9933
▁2,25	-11.9933
áideach	-11.9948
1,87	-11.9951
tori	-11.9975
▁coir	-11.9976
pléif	-11.9989
heatharlach	-11.9999
1,18	-11.9999
sto	-12.0014
super	-12.0015
pacáistiú	-12.0029
dhearca	-12.0035
nairí	-12.0047
▁gcógaslanna	-12.0049
▁tion	-12.0058
▁sci	-12.0067
125	-12.0127
rom	-12.014
ture	-12.0142
▁Fin	-12.0157
ogaidh	-12.0179
agraío	-12.0228
athracha	-12.0232
eabhairshláinte	-12.0242
eabhrúcháin	-12.0249
76	-12.0252
terte	-12.0272
▁ghiorr	-12.028
▁thru	-12.0296
2.5	-12.0344
nell	-12.0348
feicfi	-12.0355
eáchain	-12.0356
dófa	-12.0372
▁ionadaíocht	-12.0381
▁(47	-12.0383
▁gabhál	-12.0385
dúnadh	-12.0432
urais	-12.0436
iminte	-12.0468
▁Lá	-12.0474
ngal	-12.0475
fógra	-12.0477
▁sheich	-12.0487
▁238,	-12.0519
▁bholgá	-12.0536
páil	-12.0537
inneadh	-12.0634
▁coinnig	-12.0653
▁mort	-12.0684
▁spo	-12.0697
moibrí	-12.07
mai	-12.0728
oth	-12.0738
iúch	-12.0755
▁chríosta	-12.0809
013	-12.0835
980	-12.0922
óideach	-12.0924
rédhearcacht	-12.0932
▁1,37	-12.0953
,97	-12.0969
▁bheala	-12.0976
óite	-12.0991
900	-12.0998
▁3,68	-12.1
era	-12.1039
280	-12.1041
▁atos	-12.1042
-2020	-12.1061
chl	-12.1061
ried	-12.1095
etamin	-12.1103
▁4,65	-12.1128
▁248,	-12.1139
▁2,46	-12.1154
▁Bris	-12.1166
hath	-12.117
▁12013	-12.1182
uter	-12.1184
▁bra	-12.1188
▁thac	-12.1224
iopaí	-12.1311
▁cu	-12.1333
clár	-12.1361
▁mothúchá	-12.1387
▁du	-12.1401
▁ghéin	-12.1413
cmhainneacht	-12.1424
▁uai	-12.1432
▁228,	-12.1436
100%	-12.1445
940	-12.145
▁gcomhcheang	-12.1475
▁4,63	-12.1486
▁2.2	-12.1493
▁27%	-12.1519
▁coisc	-12.1526
▁Bol	-12.157
8,3	-12.1575
zo	-12.1578
242	-12.1588
184	-12.1595
▁Moth	-12.1626
27%)	-12.1627
scadh	-12.1628
▁ngartheagmhá	-12.1652
ped	-12.1658
omo	-12.1663
tacht	-12.1737
▁6.0	-12.1744
ugadh	-12.175
▁eipidéimeolaí	-12.1772
árú	-12.1773
▁troi	-12.181
bhá	-12.1818
▁guaiseach	-12.1857
▁Aerála	-12.1867
000	-12.1878
ibléad	-12.1917
8,4	-12.1952
▁4,68	-12.2114
▁críost	-12.212
owe	-12.2128
▁cont	-12.2155
odheolaíocht	-12.2183
▁muiní	-12.2227
eicheamh	-12.225
▁thura	-12.2262
ibo	-12.2279
mino	-12.2303
limistéir	-12.2324
▁gabhála	-12.2374
loch	-12.238
áid	-12.2381
▁bithsh	-12.2445
theagmhálaí	-12.2488
hiorrú	-12.25
▁imoibr	-12.2538
haireachta	-12.2569
0,000,000	-12.2609
69,7	-12.2646
▁phróis	-12.2715
▁heit	-12.2744
fual	-12.2758
47.7%	-12.2771
▁ceannachá	-12.2802
erior	-12.2837
eatharlach	-12.2858
▁Tacaí	-12.2888
uaimhneas	-12.2917
▁bplé	-12.2982
aiféanna	-12.3004
33,3	-12.302
orb	-12.3043
iceach	-12.3044
chaint	-12.3046
hat	-12.3109
▁ríomhair	-12.3119
comhlíona	-12.3134
▁1,5	-12.3144
ghnóthach	-12.3145
▁216,	-12.3272
féar	-12.3311
bhuan	-12.3324
omhcheangla	-12.333
0,5	-12.3331
▁Teachtaireacht	-12.3393
▁gcion	-12.3426
▁taidhleoireacht	-12.355
▁innealtóireacht	-12.3557
▁thástál	-12.3584
iáine	-12.3589
▁Lu	-12.3602
▁chont	-12.3663
▁hacho	-12.3733
▁237,	-12.375
0.7%	-12.3761
▁Imdhíon	-12.3773
▁laghdaío	-12.3783
ichead	-12.3786
▁fhéideartha	-12.3804
1,68	-12.3811
▁chead	-12.385
▁Laghdói	-12.3876
cadh	-12.3889
fhógairt	-12.3949
ciall	-12.4023
▁Feabh	-12.4043
▁mbreithn	-12.4063
adór	-12.4078
yo	-12.4094
8.8	-12.419
acmhainne	-12.42
host	-12.4288
▁deirean	-12.4292
ealaí	-12.43
shláinte	-12.4347
rthach	-12.4367
comhpháirtíochta	-12.4406
éileáil	-12.4497
▁chúig	-12.4546
▁4,73	-12.4549
400	-12.4586
▁Cruthaí	-12.4606
íschomhdháil	-12.4628
oraintín	-12.4633
▁Treo	-12.4652
val	-12.4684
▁tréi	-12.4707
olla	-12.4711
▁3,30	-12.4801
cumhda	-12.4846
omhlachtaí	-12.4859
▁fre	-12.4872
aipín	-12.4893
▁sraiththástála	-12.49
siltí	-12.4904
▁uaslódál	-12.4917
▁mothaí	-12.4928
raitheach	-12.4965
▁4,83	-12.499
acúil	-12.4993
teirmeach	-12.5003
▁shoch	-12.5014
ogaid	-12.5039
,000,000	-12.5065
aiteolaíocht	-12.5126
▁sorc	-12.5137
▁252,	-12.5142
▁uaslód	-12.5155
uiteáil	-12.5178
arraing	-12.5179
▁chuirea	-12.5198
▁sói	-12.5201
27,6	-12.5209
chomhair	-12.522
▁227,	-12.5236
1.7	-12.5261
íorúil	-12.5298
▁gcuims	-12.5313
eagmháil	-12.5348
itéar	-12.5363
hruitíneach	-12.5371
caigh	-12.5375
▁plú	-12.5387
▁4.7	-12.5448
insearach	-12.545
▁chist	-12.549
omhthreomhar	-12.5535
éadaigh	-12.5538
hionann	-12.559
▁féi	-12.5601
ios	-12.564
uspóir	-12.5667
ochtaí	-12.5676
foinse	-12.5702
pangolins	-12.5703
6,60	-12.5743
íocaíocht	-12.5746
▁Leabhar	-12.5751
obharnó	-12.5771
▁mbainist	-12.5851
2008.	-12.5858
▁204,	-12.5882
laghdán	-12.5888
ltacht	-12.5898
éata	-12.5901
▁réit	-12.5919
▁Inaistrithe	-12.5935
eachtracha	-12.596
phet	-12.5978
ko	-12.5989
▁cosúlacht	-12.6053
imre	-12.6066
oibre	-12.6081
inmnío	-12.6104
hleamhn	-12.6119
mhaith	-12.6124
▁malai	-12.6132
▁insío	-12.6198
7,5	-12.6227
▁substaint	-12.6261
▁anatamaíoch	-12.6264
▁thionsc	-12.6265
▁pholaiteoir	-12.627
chlóirí	-12.6277
ionsclaíoch	-12.6304
brains	-12.6314
▁Cai	-12.6358
idirghníomhaío	-12.636
uaireanta	-12.6365
▁211,	-12.6366
▁rinn	-12.6368
▁thait	-12.637
bheart	-12.6385
hosain	-12.6394
heachain	-12.6405
óip	-12.6409
ogáil	-12.6415
▁mbeag	-12.6437
fhaisnéise	-12.6437
pra	-12.6443
▁zha	-12.6476
▁clóirí	-12.6486
3,8	-12.649
▁éiteolaíoch	-12.6498
▁gabhd	-12.6538
▁241,	-12.6548
▁peri	-12.6551
▁Réamh	-12.6575
5,9	-12.658
ásta	-12.6586
hic	-12.6586
íortha	-12.6595
▁aicm	-12.6596
▁soc	-12.6599
▁meabhrú	-12.6613
▁bréag	-12.6632
lling	-12.6633
aiscumar	-12.6636
▁Sampl	-12.6677
cript	-12.6706
▁71%	-12.6734
déileála	-12.6741
bra	-12.6749
eisi	-12.675
lcól	-12.6753
mic	-12.6762
phost	-12.6766
eangail	-12.6772
▁neur	-12.6774
éi	-12.6777
▁phai	-12.6778
reabhán	-12.6779
únlaithe	-12.6783
▁chleacht	-12.6792
567	-12.6802
hai	-12.6831
▁coiscthe	-12.6832
airle	-12.6844
húlra	-12.6849
▁díobhála	-12.687
16,8	-12.6876
▁10.3	-12.6883
ataigineacht	-12.69
▁Ríomh	-12.6931
▁grá	-12.6937
mbíc	-12.6949
díleá	-12.6954
abhróid	-12.6968
hoc	-12.6976
méadrachta	-12.6977
airteanna	-12.6999
éanacha	-12.7
▁spéis	-12.7001
▁úrsc	-12.7004
dav	-12.7012
▁mhóilín	-12.7014
thástáil	-12.7017
lathach	-12.7024
hóir	-12.7028
ghalrai	-12.7034
3,93	-12.7045
▁chiníoch	-12.7045
▁contúirt	-12.7046
brand	-12.7053
▁pholait	-12.706
admha	-12.7071
▁forlíonta	-12.7072
▁micrea	-12.7076
▁treora	-12.7084
▁Géill	-12.7084
punann	-12.7095
▁neamhshonra	-12.7098
strazeneca	-12.7104
cmhainní	-12.7107
▁tabha	-12.7109
thiúla	-12.7112
riachtanach	-12.7125
▁Thai	-12.7126
▁Clu	-12.7128
25%)	-12.7128
▁dhífho	-12.7131
scoileanna	-12.7131
oro	-12.714
▁Aithní	-12.7141
▁feic	-12.7145
ibreán	-12.7149
clo	-12.7149
mharc	-12.715
▁sion	-12.7153
iceáil	-12.7154
▁teagmh	-12.7159
treala	-12.7167
glaonn	-12.7172
▁cógaslann	-12.7176
63,0	-12.7178
chomparáide	-12.7182
▁Tion	-12.7183
▁Déanaim	-12.7185
itheanta	-12.7187
ainmhíniú	-12.7191
teagmhála	-12.7202
oslamach	-12.7208
▁4.2	-12.7212
310	-12.7214
▁iompró	-12.7216
oircheas	-12.7226
▁theirip	-12.7228
▁dlúthbhai	-12.7236
cott	-12.7238
athraitheach	-12.7246
ábla	-12.7247
inimic	-12.7252
scoile	-12.7255
onarcha	-12.7255
ruinnithe	-12.7257
íocháin	-12.7258
eachadtaí	-12.726
thacú	-12.726
éiginnteacht	-12.7265
bhrost	-12.7265
alveolar	-12.7265
chumarsáide	-12.7265
thréimhs	-12.7265
▁píolóta	-12.7265
scríofa	-12.7265
cheimice	-12.7265
dualga	-12.7266
custaiméirí	-12.7266
coincheap	-12.7266
fhigiú	-12.7266
imdhíonacht	-12.7266
séasú	-12.7266
céadfach	-12.7266
▁múc	-12.7267
ghníomhachtú	-12.7268
pleura	-12.7268
thromb	-12.727
othair	-12.727
dochtúirí	-12.727
▁eit	-12.7274
4,58	-12.7277
▁gcoimplé	-12.7278
ionfhabhta	-12.7279
uaslódá	-12.7279
éisteachta	-12.7281
feidhmchlá	-12.7282
chaighdeán	-12.7283
soláthraí	-12.7283
tuirseach	-12.7284
téachtá	-12.7284
athsholáthar	-12.7284
ráflaí	-12.7284
tomagrafaíocht	-12.7284
gaothaire	-12.7284
theorainn	-12.7284
dheimhnithe	-12.7284
aclaí	-12.7284
throm	-12.7285
eatramh	-12.7285
tuaslag	-12.7285
allmhair	-12.7288
paindéimeach	-12.7288
taisteal	-12.7289
▁polai	-12.729
4.8	-12.7292
seachtain	-12.7292
bhuaic	-12.7293
choinníoll	-12.7293
díghalráin	-12.7293
atreor	-12.7293
scagair	-12.7293
aithint	-12.7293
paindéim	-12.7294
child	-12.7294
lrti	-12.7294
eagrú	-12.7294
ient	-12.7294
príomh	-12.7295
buidéil	-12.7296
bainisteoir	-12.7297
Coróinvíreas	-12.7297
enteritis	-12.7297
stróc	-12.7297
ithre	-12.7298
díghalrú	-12.7298
fionnachta	-12.7298
páirc	-12.73
tástáil	-12.73
cúigear	-12.73
phaindéimeach	-12.73
dyspnea	-12.7301
gheilleaga	-12.7301
teicníc	-12.7301
polapróitéin	-12.7301
seolfa	-12.7301
foirm	-12.7301
feithic	-12.7301
altra	-12.7301
6,0	-12.7302
chónaitheoir	-12.7302
imdhíon	-12.7302
sochraid	-12.7303
gnólachtaí	-12.7303
scagthástála	-12.7303
rialála	-12.7303
víris	-12.7303
sluaite	-12.7303
náisiúnta	-12.7303
chúramóir	-12.7303
leanúnacha	-12.7304
féadfa	-12.7304
tréith	-12.7304
déantúsaíocht	-12.7304
aeriompartha	-12.7304
uga	-12.7304
patrú	-12.7304
píosa	-12.7304
freagra	-12.7305
tráth	-12.7305
ócáid	-12.7305
póilín	-12.7305
Féach	-12.7305
antaiginí	-12.7305
léitheoir	-12.7306
éillithe	-12.7306
seachadta	-12.7306
dóchúil	-12.7306
fheabhsú	-12.7306
polaiméaráise	-12.7306
athmholadh	-12.7306
oideachais	-12.7306
éagsúil	-12.7307
bloc	-12.7307
dianchúram	-12.7307
measartha	-12.7307
ullmhacht	-12.7307
aerasóil	-12.7307
ghearr	-12.7308
innéacs	-12.7308
poist	-12.7308
sholáthraí	-12.7308
maolú	-12.7309
ullmhú	-12.7309
▁chaomhn	-12.7309
úrscéal	-12.7309
réigiún	-12.7309
leochaileach	-12.7309
scagadh	-12.7309
2000	-12.7309
teoiric	-12.7309
alfa	-12.731
bás	-12.731
theaghlach	-12.731
siopadóireacht	-12.731
teaghlach	-12.731
sonrach	-12.731
amhrasta	-12.731
dromchla	-12.731
saoráid	-12.7311
trump	-12.7311
straitéis	-12.7311
fhliú	-12.7311
leigheas	-12.7311
ráigeanna	-12.7311
dtagann	-12.7311
buinneach	-12.7311
domhnach	-12.7311
luan	-12.7312
rogha	-12.7312
plasma	-12.7312
545	-12.7312
cinnte	-12.7312
ialtóg	-12.7312
liosta	-12.7313
dhomhanda	-12.7313
tuairiscíodh	-12.7314
pangóil	-12.7314
chaitheamh	-12.7314
básmhaireacht	-12.7314
scála	-12.7315
idirnáisiúnta	-12.7315
chosaint	-12.7315
T	-12.7316
drugaí	-12.7316
iontaofa	-12.7317
▁tocsain	-12.7317
béite	-12.7317
saoil	-12.7319
rbd	-12.7319
leighis	-12.732
phobal	-12.732
glantacháin	-12.7322
▁príosú	-12.7322
irlis	-12.7324
gnáthuaireanta	-12.7324
mhilliún	-12.7328
ku	-12.7329
▁90,0	-12.7331
mrna	-12.7331
fema	-12.7334
▁Cro	-12.7334
fhreagairt	-12.7334
onghabháil	-12.7336
aobh	-12.7336
Ú	-14.1103
P	-14.1104
O	-14.1105
–	-14.1106
”	-14.1107
R	-14.1108
/	-14.1109
G	-14.111
L	-14.1111
F	-14.1112
S	-14.1113
B	-14.1114
N	-14.1115
(	-14.1116
M	-14.1117
I	-14.1118
A	-14.1119
C	-14.112
