<pad>	0
</s>	0
<unk>	0
▁a	-3.39781
.	-3.53318
,	-3.60596
▁an	-3.69691
▁agus	-3.86702
▁ar	-3.95538
▁	-4.02658
▁na	-4.3319
▁le	-4.34364
▁go	-4.35148
▁i	-4.52218
▁do	-4.62709
-	-4.69632
s	-4.86596
▁ag	-4.91143
r	-5.06708
í	-5.06833
▁covid	-5.1337
e	-5.15967
dh	-5.21315
▁nó	-5.2419
▁’	-5.24992
a	-5.30363
▁d	-5.31322
▁de	-5.32914
-19	-5.38771
▁seo	-5.40501
▁tú	-5.51449
▁mar	-5.51638
▁chun	-5.5228
▁eile	-5.53548
igh	-5.58552
▁bhfuil	-5.60333
▁n	-5.68838
▁(	-5.69137
▁is	-5.70255
▁sa	-5.70754
▁sé	-5.73244
▁nío	-5.7599
n	-5.77039
▁atá	-5.77359
▁ó	-5.78522
▁in	-5.78817
▁tá	-5.82195
▁Tá	-5.90532
ú	-5.93123
▁féidir	-5.96601
d	-5.97858
▁t	-5.9887
▁cás	-6.02499
▁daoine	-6.03793
▁é	-6.06885
▁faoi	-6.07591
)	-6.08516
ch	-6.0933
▁sláinte	-6.11498
▁duine	-6.11779
▁leis	-6.12385
íonn	-6.12713
▁Is	-6.13939
▁D	-6.14871
▁sin	-6.18137
na	-6.19662
eann	-6.20269
▁mó	-6.21544
cov	-6.24308
▁raibh	-6.26331
il	-6.26753
▁ná	-6.27108
is	-6.27775
ir	-6.29583
:	-6.31243
▁aon	-6.34144
▁Má	-6.35889
▁má	-6.36664
▁ort	-6.36738
▁sars	-6.37405
▁víreas	-6.37421
adh	-6.38202
l	-6.39368
in	-6.39766
▁bheith	-6.40625
▁dhéanamh	-6.42803
▁bás	-6.4367
▁b	-6.44007
ann	-6.47023
▁ach	-6.47854
▁iad	-6.4885
gach	-6.49186
ithe	-6.494
▁éis	-6.50916
▁c	-6.52938
▁féin	-6.54438
▁fhéadfa	-6.55509
▁chur	-6.55922
▁An	-6.56352
▁gur	-6.56583
▁Ní	-6.5673
ach	-6.57583
t	-6.57598
▁úsáid	-6.57644
▁bhí	-6.57667
▁rud	-6.58633
▁lá	-6.59247
▁duit	-6.59867
▁comharthaí	-6.59904
▁dhaoine	-6.60996
▁roinnt	-6.61325
▁tar	-6.61367
▁siad	-6.62513
▁ina	-6.64066
▁ón	-6.64769
▁den	-6.6489
▁orthu	-6.6681
▁ann	-6.67487
▁san	-6.68493
▁ní	-6.68647
▁don	-6.70208
aí	-6.70659
idh	-6.71476
▁g	-6.72289
▁thug	-6.7333
▁chóir	-6.74259
▁vacsaín	-6.75023
▁márta	-6.76883
▁tástáil	-6.78236
▁líon	-6.78928
▁2020	-6.80394
▁roimh	-6.81861
▁trí	-6.83062
▁amach	-6.8533
▁mór	-6.86819
▁freisin	-6.88082
▁isteach	-6.88166
▁dóibh	-6.8909
▁as	-6.90466
▁leat	-6.90979
▁2	-6.91498
▁fáil	-6.91677
▁amháin	-6.92115
▁I	-6.92231
▁nuair	-6.93365
▁gan	-6.95706
▁ionfhabhtaithe	-6.96344
▁gheall	-6.96851
aíonn	-6.9687
▁chuig	-6.97401
▁h	-6.97796
-2	-6.97897
▁T	-6.98026
▁/	-6.98481
nn	-6.99006
▁C	-6.99217
▁sonraí	-7.00145
▁bhíonn	-7.00962
▁idir	-7.02439
▁Tuairiscíodh	-7.03538
ar	-7.04115
▁bh	-7.04462
▁ráig	-7.04644
i	-7.05008
▁linn	-7.05292
▁fu	-7.0551
▁ba	-7.06022
▁leor	-7.06597
ta	-7.06957
▁nua	-7.07447
▁fanacht	-7.07731
▁Mar	-7.07746
▁5	-7.08099
tear	-7.08265
réir	-7.08769
▁fháil	-7.09515
▁aghaidh	-7.09928
▁lámha	-7.10198
áirítear	-7.1071
▁Ag	-7.10752
te	-7.11445
▁4	-7.11859
▁chuid	-7.12636
▁chomh	-7.12686
▁acu	-7.12838
▁ch	-7.13897
▁maidi	-7.14122
▁dul	-7.14531
▁cásanna	-7.14712
▁measc	-7.1514
▁aontaithe	-7.15149
▁B	-7.16333
▁feabhra	-7.16443
▁scaipeadh	-7.16445
▁dtí	-7.17162
▁air	-7.17257
▁teaghlaigh	-7.1776
nach	-7.17798
▁tástála	-7.18389
▁chás	-7.19028
▁mí	-7.19094
▁aghaidhe	-7.19376
la	-7.19641
▁haghaidh	-7.19778
▁chéad	-7.21144
▁1	-7.21176
c	-7.21695
▁coronavirus	-7.21884
▁Ba	-7.22424
▁sna	-7.22745
▁víris	-7.23926
▁tugadh	-7.26084
aigh	-7.26528
▁eanáir	-7.26794
▁bhaile	-7.26845
▁hiomláin	-7.28259
▁fógra	-7.28959
;	-7.29
anna	-7.29652
▁dá	-7.30078
▁3	-7.30353
▁riospráide	-7.30498
▁tsín	-7.31256
▁tuairiscíodh	-7.31265
m	-7.31768
▁poiblí	-7.32019
▁thabhairt	-7.32028
▁mb	-7.32565
▁aip	-7.33567
▁mbeadh	-7.33612
▁-	-7.34205
▁bhfeidhm	-7.34346
▁cur	-7.34386
▁s	-7.35671
▁maith	-7.35927
-19.	-7.37098
▁bearta	-7.38692
▁agat	-7.38772
▁f	-7.38955
▁“	-7.39516
▁faoin	-7.40352
▁galar	-7.41857
▁aois	-7.41948
▁chuir	-7.42591
▁leo	-7.42789
▁uair	-7.4292
▁pháiste	-7.43367
▁leighis	-7.44245
▁bhaineann	-7.44265
▁feadh	-7.44399
▁á	-7.44822
▁A	-7.45028
▁stáit	-7.45141
▁fh	-7.45282
eanna	-7.45656
▁shampla	-7.45976
▁leanaí	-7.45997
▁síne	-7.46138
g	-7.46359
▁m	-7.46721
íodh	-7.4725
▁dhochtúir	-7.47757
▁gcásanna	-7.47785
1	-7.47899
▁ionfhabhtú	-7.48104
iú	-7.48204
▁tír	-7.49185
▁Déan	-7.49496
▁tíortha	-7.49563
▁othair	-7.50481
▁ard	-7.5072
▁S	-7.50912
o	-7.51132
▁am	-7.51139
▁10	-7.51145
▁chaitheamh	-7.5141
▁dhá	-7.52246
▁scoileanna	-7.52388
acha	-7.52391
▁clúdach	-7.52401
▁cúram	-7.53153
▁srianta	-7.53357
aithe	-7.53374
mh	-7.53912
teagmháil	-7.54789
▁ionad	-7.55412
án	-7.55871
▁dearfach	-7.56197
▁gá	-7.56297
ógraíodh	-7.56342
▁Ná	-7.5717
▁14	-7.57723
▁chéile	-7.58159
u	-7.58619
▁iomlán	-7.58666
tha	-7.5877
▁aibreán	-7.5914
▁Ar	-7.59867
▁mbei	-7.5998
▁siú	-7.60773
▁domhain	-7.61184
uithe	-7.61195
▁rialtas	-7.6138
▁"	-7.61407
▁toradh	-7.63244
▁”	-7.63736
eadh	-7.64208
▁Dífh	-7.64296
▁who	-7.64557
▁th	-7.65171
'	-7.65708
▁luath	-7.66619
▁sóisialta	-7.67554
▁ospidéal	-7.6775
▁hcov	-7.67847
▁déanaí	-7.68726
▁comhairle	-7.68782
▁fhógair	-7.68848
▁bhféadfa	-7.68902
▁thástáil	-7.69732
▁–	-7.69732
▁mura	-7.69735
▁gc	-7.70973
as	-7.71319
▁fuair	-7.72058
nig	-7.72105
▁bhás	-7.73485
▁7	-7.74196
▁thart	-7.74368
y	-7.74725
ra	-7.75219
0	-7.75397
▁náisiúnta	-7.75535
▁neamh	-7.75825
▁6	-7.76077
▁cé	-7.7657
▁wuhan	-7.76671
▁tioncha	-7.76672
▁milliún	-7.76673
▁chosaint	-7.76674
▁9	-7.76681
▁cosúil	-7.76685
▁bia	-7.76933
▁20	-7.77066
im	-7.77379
▁srian	-7.77607
an	-7.7785
▁glao	-7.77876
▁mbaol	-7.77885
▁teagmhála	-7.77897
▁mhí	-7.78295
-19,	-7.78673
▁léinn	-7.79111
▁oibre	-7.7942
).	-7.79469
▁Bhí	-7.79647
▁cheart	-7.80346
▁riosca	-7.80409
▁fhaigh	-7.80445
▁De	-7.80584
▁vacsaíní	-7.80862
▁cinn	-7.81398
each	-7.81475
▁háirithe	-7.8158
▁dó	-7.81943
▁lasmuigh	-7.82846
▁sh	-7.83007
b	-7.83014
▁19	-7.83591
),	-7.83645
p	-7.8375
▁ghnáth	-7.84163
úirt	-7.84176
▁mers	-7.84332
á	-7.84585
▁thor	-7.85474
▁áit	-7.85785
▁cuairt	-7.86079
▁theas	-7.86482
▁déan	-7.86723
▁láthair	-7.86744
▁suas	-7.86784
▁céanna	-7.86823
▁Cuir	-7.87117
▁óstach	-7.87286
▁Go	-7.87695
ic	-7.87955
▁fhéidir	-7.88076
▁obair	-7.88077
▁laghdú	-7.88092
▁ghalair	-7.88113
▁casacht	-7.88762
▁os	-7.89134
▁leibhéal	-7.8944
▁dúnadh	-7.89484
▁Chuir	-7.89516
▁iarracht	-7.89583
▁Cé	-7.8976
tar	-7.90123
▁minic	-7.90202
▁paindéim	-7.90214
áil	-7.90438
▁tinnis	-7.90971
▁beag	-7.91618
▁taistil	-7.92186
▁rinne	-7.92189
▁bealtaine	-7.92194
▁choinneáil	-7.92216
▁airde	-7.92458
cha	-7.92859
▁ceann	-7.92983
▁éagsúla	-7.93023
▁léir	-7.93213
▁laghad	-7.93594
▁cuireadh	-7.93628
▁um	-7.93749
imh	-7.94008
f	-7.94467
2	-7.94517
▁roinn	-7.94668
▁torthaí	-7.95032
▁8	-7.95992
onn	-7.96095
th	-7.96372
▁gcuid	-7.96465
▁bliain	-7.96472
▁masc	-7.96472
▁dearbhaithe	-7.96504
áin	-7.9714
▁15	-7.97637
▁p	-7.97785
▁tarchur	-7.97931
▁bharr	-7.97945
eidh	-7.98572
▁tinn	-7.99432
▁fós	-7.99514
▁imní	-7.99591
artha	-8.00113
▁11	-8.00893
▁Mura	-8.0095
▁éigeandála	-8.00993
▁leith	-8.01226
▁Bei	-8.01628
▁othar	-8.01828
átha	-8.02526
us	-8.02821
▁cheann	-8.03134
▁24	-8.03372
ó	-8.03656
▁G	-8.0445
▁eolas	-8.04517
7	-8.0454
▁coraintín	-8.05362
ad	-8.05589
?	-8.05639
▁cliath	-8.05639
▁cosc	-8.05656
▁rialtais	-8.05722
▁síos	-8.05728
▁iompar	-8.05798
▁líne	-8.0669
▁scoil	-8.067
▁taisteal	-8.07109
▁meitheamh	-8.07251
▁iodáil	-8.07252
▁láithreach	-8.07278
▁mhéada	-8.074
mhail	-8.07486
▁más	-8.0817
▁2019	-8.08679
▁fiabhras	-8.08937
it	-8.0994
onas	-8.10887
onaid	-8.10968
▁23	-8.11737
▁Cuirea	-8.11739
al	-8.11836
▁F	-8.11965
▁ndaoine	-8.12253
▁gcoinne	-8.12253
▁laistigh	-8.12254
▁fliú	-8.12257
▁dáileog	-8.12267
unaithe	-8.12391
9	-8.12498
▁fss	-8.12717
bh	-8.1307
▁dteagmháil	-8.13146
8	-8.13666
▁rianú	-8.13978
▁cionn	-8.14005
▁thái	-8.14011
▁12	-8.14506
aíodh	-8.14699
▁Nua	-8.15095
▁fad	-8.15383
▁idirnáisiúnta	-8.15733
▁dhiaidh	-8.15736
▁sula	-8.15744
▁13	-8.15838
▁chomharthaí	-8.16063
▁ceal	-8.16129
thas	-8.16621
▁measa	-8.1723
▁baint	-8.17301
▁cúraim	-8.17517
▁tapa	-8.17517
▁chloig	-8.17518
▁ainmhithe	-8.17632
▁méad	-8.17659
▁ceart	-8.17961
▁Lé	-8.18089
▁lú	-8.18222
▁eipidéim	-8.18387
eacha	-8.18512
▁áirithe	-8.19336
▁chosc	-8.19375
▁díreach	-8.19468
▁teacht	-8.19509
▁oibrithe	-8.19623
▁imeachta	-8.20565
h	-8.20762
ill	-8.21031
▁éifeachtach	-8.21113
▁freastal	-8.21187
▁galair	-8.21187
▁daonna	-8.21187
▁dhuine	-8.21192
▁Faoi	-8.21208
▁seirbhísí	-8.21766
▁cabhr	-8.21925
le	-8.22046
▁deireadh	-8.23075
▁chomhairle	-8.23079
▁2020.	-8.23957
▁nós	-8.24099
acht	-8.24531
▁cuid	-8.24987
▁staidéar	-8.24999
▁riocht	-8.25
▁stát	-8.25017
▁mheas	-8.25089
▁fiú	-8.25187
▁bhaint	-8.25403
4	-8.25783
▁Ach	-8.25818
▁ár	-8.26047
▁tíre	-8.26375
▁próitéin	-8.26588
▁mh	-8.26598
▁coitianta	-8.26957
▁pearsanta	-8.26961
▁thuairisc	-8.26973
▁imdhíonachta	-8.27122
▁áiteanna	-8.27269
▁the	-8.2799
▁16	-8.28764
▁mac	-8.28832
▁foláireamh	-8.28964
▁eagraíocht	-8.28968
▁rialú	-8.29118
▁bunúsacha	-8.29127
▁dara	-8.29131
imid	-8.29793
▁N	-8.29852
▁seirbhís	-8.3079
▁cuir	-8.30921
▁fíneá	-8.31
▁méid	-8.31032
the	-8.31062
▁déine	-8.31065
▁pian	-8.31105
on	-8.31137
▁fearr	-8.31294
▁ialtóga	-8.31356
▁tábhachtach	-8.31502
▁Fan	-8.31614
▁Nío	-8.3175
▁dochtúir	-8.32438
▁ráta	-8.32566
▁18	-8.32855
▁choinne	-8.33091
▁mbaile	-8.33119
▁mbásanna	-8.33131
▁chúis	-8.33289
▁eis	-8.33305
▁rna	-8.33357
aonrú	-8.33383
"	-8.33853
▁lár	-8.34744
▁gcás	-8.35163
▁mhárta	-8.35211
▁cúis	-8.35214
▁hairíonna	-8.35229
oisc	-8.3624
▁Ina	-8.36332
▁daonra	-8.37383
▁uait	-8.37388
▁domhanda	-8.37389
▁ansin	-8.37713
▁mhór	-8.3775
▁víreasach	-8.37968
faidh	-8.3811
íocht	-8.38194
,000	-8.39037
▁30	-8.39214
▁bhrí	-8.39592
▁héireann	-8.39605
▁míochaine	-8.39605
▁sraothartach	-8.39617
▁leanbh	-8.39618
▁ghluaiseachtaí	-8.39618
6	-8.39698
▁arís	-8.40015
eas	-8.41031
óidh	-8.41211
▁aire	-8.41776
▁cosanta	-8.41878
▁Úsáid	-8.41878
▁ndearna	-8.41878
▁géarmhíochaine	-8.4188
▁bpaindéim	-8.41884
▁pobail	-8.41942
▁treala	-8.41944
▁rianair	-8.41994
▁tharla	-8.42021
▁chásanna	-8.42128
▁ionfhabhtuithe	-8.42335
▁22	-8.4246
▁covanna	-8.43176
é	-8.43866
ce	-8.44083
▁nollaig	-8.44204
▁dhéanann	-8.44213
▁baol	-8.44291
▁taighde	-8.44355
▁drugaí	-8.44406
nna	-8.44471
id	-8.44873
ac	-8.45043
▁Lean	-8.45267
lacha	-8.45448
3	-8.45653
▁súil	-8.46033
am	-8.46359
▁cófra	-8.46585
▁sheachaint	-8.46585
▁fola	-8.46616
▁ospidéil	-8.46652
▁tréimhs	-8.4674
▁sí	-8.46986
▁26	-8.4778
▁déanta	-8.47921
▁timpeall	-8.48203
▁Fua	-8.48785
▁comh	-8.48874
▁cheana	-8.49024
▁dtús	-8.49025
▁choróinvíris	-8.49031
▁gcéad	-8.49031
▁dtugtar	-8.49059
▁céim	-8.49326
▁chéim	-8.49826
5	-8.50066
▁ph	-8.50916
▁28	-8.5104
fear	-8.51053
or	-8.5118
▁leagan	-8.51381
▁sábháilte	-8.51488
▁21	-8.5151
▁eorpach	-8.51523
▁againn	-8.51526
om	-8.51548
▁gceart	-8.51565
▁breise	-8.51664
▁niúmóine	-8.51686
▁Tar	-8.51947
▁ama	-8.52301
▁thar	-8.52408
v	-8.52658
oc	-8.52961
▁bu	-8.53375
▁chibear	-8.54087
▁reatha	-8.54088
▁glan	-8.54091
▁fhorbairt	-8.54143
▁áireamh	-8.5416
ne	-8.54176
▁deara	-8.54201
▁suntasach	-8.54215
▁láimhe	-8.5435
▁bhfaigh	-8.5441
▁cona	-8.54498
▁bhei	-8.54659
▁theast	-8.54735
▁aige	-8.54756
▁córas	-8.54922
▁rudaí	-8.54986
▁thaga	-8.55026
seachas	-8.55071
▁paindéime	-8.55266
▁mui	-8.56127
▁M	-8.56295
▁diúltach	-8.56302
íos	-8.56326
ítear	-8.5654
▁bliana	-8.56719
▁dhomhanda	-8.56719
▁oiread	-8.56719
▁chinntiú	-8.56723
▁fios	-8.56724
▁dúnta	-8.56725
▁bhéal	-8.56741
▁oideachais	-8.56747
▁cosaint	-8.56892
▁athrú	-8.57304
▁príomh	-8.57422
▁fada	-8.5748
aoi	-8.57539
eithre	-8.59422
▁shrón	-8.59431
hlat	-8.59431
▁maisc	-8.59448
ig	-8.59508
▁seachtaine	-8.59672
▁taobh	-8.59698
▁17	-8.59858
▁vacsaínithe	-8.60571
▁meán	-8.61177
cht	-8.61237
▁scar	-8.61497
▁lámh	-8.62111
▁dtíortha	-8.622
▁sholáthar	-8.622
▁grúpa	-8.62212
▁cóireáil	-8.62222
▁liosta	-8.62224
▁lae	-8.62246
▁uisce	-8.62278
▁tástálacha	-8.62376
▁oscailte	-8.624
▁astrazeneca	-8.62488
▁l	-8.62544
onad	-8.62668
▁tógálach	-8.62738
▁aonair	-8.62817
▁Oscailt	-8.62899
irí	-8.63034
▁coróinvíreas	-8.63212
▁bun	-8.63955
▁r	-8.64271
▁dé	-8.64311
▁ialtóg	-8.64586
▁thosa	-8.64787
▁Chu	-8.6489
▁Coinn	-8.65032
▁gnáth	-8.65038
▁phobal	-8.65057
▁staidéir	-8.65058
▁cliniciúla	-8.65074
▁rianaithe	-8.65127
▁bith	-8.65147
▁gardaí	-8.65196
▁hcovanna	-8.65325
▁uimh	-8.65347
▁vacsaíniú	-8.65434
▁fhoir	-8.6549
▁fuar	-8.65819
taire	-8.65842
ur	-8.65955
00	-8.66126
▁fo	-8.6625
os	-8.67081
▁frith	-8.67995
▁mo	-8.67997
▁fionraí	-8.68
▁bhfad	-8.68025
▁dócha	-8.68086
▁cov	-8.68185
▁saor	-8.68369
▁samplaí	-8.68503
▁caith	-8.68591
▁fhág	-8.68599
▁ríocht	-8.6868
▁fhio	-8.69273
▁rá	-8.70443
▁Co	-8.70813
uiscint	-8.70967
▁teastáil	-8.71028
▁uirthi	-8.71032
▁monatóireacht	-8.71033
▁diagnóis	-8.71038
▁thógáil	-8.71039
▁antasubstaintí	-8.7104
▁idirmheánach	-8.71081
▁gcónaí	-8.71111
▁anailís	-8.71115
▁tinneas	-8.71145
▁aitheanta	-8.71233
othar	-8.72636
▁nár	-8.72745
▁ró	-8.72758
▁'	-8.73126
▁freagra	-8.73331
▁L	-8.7356
▁tí	-8.73827
▁P	-8.7414
▁domhan	-8.74148
▁hiodáile	-8.74153
▁éirinn	-8.74154
▁nádúrtha	-8.74161
▁ghalar	-8.74162
▁coronaviruses	-8.74173
▁Thái	-8.74185
▁rogha	-8.74189
▁fhreagairt	-8.74196
▁tosú	-8.74201
▁2021	-8.74224
ine	-8.74246
▁Sa	-8.74522
ard	-8.74649
▁stair	-8.74731
▁co	-8.7502
▁leanúnach	-8.76293
annta	-8.76619
ing	-8.77169
▁éigin	-8.77376
▁shóisialta	-8.77379
▁íseal	-8.77379
▁choróinvíreas	-8.7738
▁anois	-8.77395
▁srón	-8.77401
▁iaráin	-8.77423
▁cineál	-8.77462
▁ísle	-8.77466
▁mic	-8.77481
▁tosaigh	-8.77535
▁dlí	-8.77566
▁gartheagmhálaí	-8.77594
▁cinnte	-8.77613
▁leibhé	-8.7769
▁teach	-8.78013
sanna	-8.785
illeadh	-8.78564
▁25	-8.78878
▁chos	-8.78994
▁27	-8.79105
▁tríd	-8.79191
covid	-8.79207
covanna	-8.79713
óirí	-8.79887
48	-8.79959
▁gh	-8.80057
ocht	-8.80196
▁aer	-8.80287
▁í	-8.80397
▁50	-8.80476
▁clúda	-8.80499
▁chomhartha	-8.80538
▁phaindéim	-8.80668
▁Déanta	-8.80686
▁saotharlainne	-8.80712
▁tharchur	-8.80713
▁anseo	-8.80713
▁iarraidh	-8.80713
▁speisialta	-8.80721
▁hiomlán	-8.80724
▁siondróm	-8.80738
▁clár	-8.80756
▁iúl	-8.80756
▁shláinte	-8.80807
▁rial	-8.80978
▁básmhaireachta	-8.81064
▁dáta	-8.81121
▁gceist	-8.8166
▁údará	-8.82331
oidh	-8.82596
▁w	-8.82643
▁ligean	-8.82686
▁ndéanfa	-8.82753
▁anála	-8.82838
lann	-8.83097
▁dhí	-8.83165
▁díobh	-8.83515
▁cóir	-8.83604
▁fhad	-8.83893
hug	-8.83933
▁ráige	-8.84082
▁mbás	-8.84092
▁dhearfach	-8.84161
▁forleathan	-8.84166
▁caitheamh	-8.84176
▁fásta	-8.8419
rthóir	-8.84199
▁cúnamh	-8.84208
▁deimhnithe	-8.8421
▁beo	-8.84246
▁éigeantach	-8.84259
▁Le	-8.84287
▁chineál	-8.84322
▁teorainn	-8.84322
▁anaithnid	-8.8435
▁dlúth	-8.84387
▁úsáide	-8.84818
▁u	-8.85224
▁Léir	-8.85257
▁31	-8.85357
ia	-8.85775
far	-8.85878
▁níl	-8.85951
re	-8.86624
▁dí	-8.86698
▁ithe	-8.8682
▁cúig	-8.86853
229	-8.86929
▁riachtanach	-8.87424
▁athr	-8.87622
▁amhras	-8.87646
▁gnách	-8.87732
▁hubei	-8.87732
▁tobac	-8.87732
▁dheireadh	-8.87732
▁géanóm	-8.87732
▁rsc	-8.87733
▁anuas	-8.87736
▁folláin	-8.87769
▁dhearbha	-8.8784
▁faireachas	-8.88034
úsáid	-8.88318
▁cdc	-8.88368
▁athoscailt	-8.88375
▁básanna	-8.88577
reacha	-8.88632
éigh	-8.88646
neamhriachtanach	-8.88653
▁for	-8.88786
ála	-8.89522
▁29	-8.89831
ie	-8.89916
▁ra	-8.89959
▁bhailiú	-8.90461
▁rialta	-8.90581
▁sampla	-8.90909
▁Tug	-8.91008
▁éadrom	-8.91169
▁ollscoil	-8.91378
▁afraic	-8.91436
▁eoraip	-8.91436
▁meiriceá	-8.91436
▁nóiméad	-8.91439
▁mhaolú	-8.91459
▁leanas	-8.91471
▁straitéis	-8.91475
▁aice	-8.91495
▁tuilleadh	-8.91535
▁chóiré	-8.91625
▁teocht	-8.91692
iríonn	-8.91746
▁shár	-8.91973
▁cóireála	-8.92134
▁siúl	-8.92506
▁v	-8.92772
óg	-8.93029
▁200	-8.9347
úil	-8.93726
▁Amha	-8.93964
▁ma	-8.94118
0%	-8.94258
▁riachtana	-8.94367
%	-8.94484
▁tacaíocht	-8.94686
▁eacnamaíoch	-8.94761
▁bhun	-8.94811
▁slán	-8.95231
▁phoiblí	-8.95282
▁tseachtain	-8.95282
▁altranais	-8.95282
▁figiú	-8.95282
▁chorp	-8.9529
▁aithint	-8.95296
▁chóireáil	-8.95301
▁treoirlín	-8.95349
▁baile	-8.9546
eamh	-8.95596
ip	-8.95624
gh	-8.95828
▁ea	-8.95856
▁Dá	-8.95938
▁seacht	-8.96164
▁di	-8.96217
▁coinn	-8.96366
▁oibrí	-8.96594
▁coinne	-8.96736
▁chu	-8.97276
▁eagla	-8.97288
▁im	-8.97537
▁faisnéis	-8.97555
▁tabhair	-8.98864
▁cógais	-8.99206
▁áfach	-8.99282
▁áitiúil	-8.99282
▁fómhair	-8.99282
▁tirim	-8.99284
▁brath	-8.99289
▁fachtóir	-8.99291
▁tarchuir	-8.99296
▁áitiúla	-8.99302
▁réamh	-8.9932
▁buinneach	-8.99324
▁faide	-8.99366
▁rcgp	-8.99397
▁dhúnadh	-8.99435
▁bhia	-8.99451
▁deacrachtaí	-8.99453
▁croí	-8.99486
▁brú	-8.99514
▁ghrúpa	-8.99565
▁oideachas	-8.99621
io	-9.00115
fh	-9.00182
▁Th	-9.0019
▁gartheagmháil	-9.00383
▁vacsaíne	-9.00685
."	-9.00957
▁to	-9.01043
“	-9.01653
irt	-9.02411
bhai	-9.02502
▁aonrú	-9.02964
ordú	-9.03181
ais	-9.03228
▁spreag	-9.03271
ineacht	-9.03329
▁díot	-9.03425
fhógra	-9.03448
▁fhrainc	-9.03449
▁gallúnach	-9.03449
▁ginearálta	-9.03449
▁leanúint	-9.03449
▁sealadach	-9.03449
▁teoranta	-9.03449
bhealach	-9.03449
▁Glao	-9.03449
▁mhilliún	-9.03452
▁seicheamh	-9.03455
▁cód	-9.03456
▁billiún	-9.03466
▁beala	-9.03467
iv	-9.03516
▁fóin	-9.03527
at	-9.03555
▁siopaí	-9.03599
aire	-9.03707
héann	-9.03851
▁fianaise	-9.03857
▁iar	-9.03884
▁Caith	-9.04018
▁stiú	-9.04137
▁In	-9.04138
eachta	-9.04378
▁so	-9.04414
▁moill	-9.04516
▁ath	-9.04575
▁meastachá	-9.05013
▁sine	-9.05106
agann	-9.05498
13	-9.05718
óstach	-9.06019
abhairt	-9.06365
ear	-9.067
oir	-9.06995
-19)	-9.07187
▁dhearbhú	-9.07796
▁faireachais	-9.07796
▁giorra	-9.07796
▁hothair	-9.07796
▁contae	-9.07797
▁abhaile	-9.07798
▁uathu	-9.07802
▁chaith	-9.07807
▁leanacht	-9.07824
▁institiúid	-9.07825
▁Dhe	-9.07875
▁níochán	-9.07923
▁chóras	-9.08003
▁Seacha	-9.08016
▁shonraí	-9.08027
43	-9.08167
▁éileamh	-9.08262
▁cad	-9.08387
▁ráigeanna	-9.08387
all	-9.08453
▁me	-9.09275
▁luan	-9.0938
▁Rinne	-9.09715
▁gar	-9.098
lacht	-9.10087
aid	-9.10098
▁Rinnea	-9.10373
▁fear	-9.10497
ionfhabhtú	-9.10546
ly	-9.10566
▁fan	-9.10768
x	-9.10801
▁oifig	-9.10967
inn	-9.11197
aladh	-9.11416
tá	-9.11514
▁féideartha	-9.11735
▁scaipthe	-9.11967
cónaí	-9.12222
imhnigh	-9.12246
▁tús	-9.12278
▁huaire	-9.12316
▁frithdhúnadh	-9.12342
▁shocrú	-9.12342
▁sláintiúil	-9.12342
▁spóirt	-9.12342
▁thaobh	-9.12342
▁foirne	-9.12342
▁siar	-9.12342
▁amuigh	-9.12343
▁chéanna	-9.12343
▁pháistí	-9.12348
▁uaireanta	-9.1235
▁aisce	-9.12381
▁chathair	-9.12398
▁báis	-9.12399
▁sheoladh	-9.1246
▁náisiún	-9.12471
ol	-9.12477
▁leathadh	-9.12515
▁ghlanadh	-9.12526
▁mol	-9.12528
▁mhéadú	-9.12596
▁ceanta	-9.12709
▁theach	-9.12748
raitheann	-9.1305
63	-9.13066
▁60	-9.13506
ma	-9.13606
▁Na	-9.13613
éid	-9.13967
ineadh	-9.14172
tin	-9.14309
▁phe	-9.14588
fi	-9.14726
rochtain	-9.15057
▁cá	-9.15197
eál	-9.15259
▁agóid	-9.15453
sh	-9.15775
▁leath	-9.15839
▁básmhaireacht	-9.16612
▁géar	-9.16787
▁bhain	-9.16881
caoi	-9.16905
▁bunús	-9.1692
▁stop	-9.16932
▁dhún	-9.1702
▁mbliana	-9.17104
▁póca	-9.17104
▁fáth	-9.17104
▁téacs	-9.17104
▁braisl	-9.17104
▁fhliú	-9.17104
▁mná	-9.17105
▁bhfuair	-9.17109
▁bhrollach	-9.1711
▁dhéantar	-9.17113
▁shrian	-9.17134
▁trump	-9.17155
▁chlúdach	-9.17227
▁luaithe	-9.17246
▁láimhseáil	-9.17256
ite	-9.17282
▁chumas	-9.17286
▁pfizer	-9.17331
oire	-9.17423
▁rith	-9.17543
▁éil	-9.17674
▁bhf	-9.17845
▁laghdaithe	-9.1787
▁éifeachta	-9.18358
ath	-9.1837
▁léirigh	-9.18444
idir	-9.18608
rátaí	-9.18705
▁scoile	-9.19155
▁nasc	-9.19225
amh	-9.19285
coróinvíreas	-9.20162
mid	-9.20398
idí	-9.20701
thar	-9.20811
óir	-9.20978
▁mhéad	-9.21063
ith	-9.21253
▁dromchla	-9.21506
▁molta	-9.21523
▁húsáid	-9.21611
▁aimsío	-9.21676
▁Do	-9.21707
▁mhol	-9.21977
▁scornach	-9.22104
▁scothaosta	-9.22104
▁thíortha	-9.22104
▁óstáin	-9.22105
▁Clúda	-9.22106
▁thuaidh	-9.22108
▁suíomhanna	-9.22149
▁eolai	-9.22167
▁labhairt	-9.22184
▁bhfoireann	-9.22195
▁céad	-9.223
▁víreolaíoch	-9.22324
▁déanamh	-9.22384
▁athbhreithni	-9.22438
▁modh	-9.22456
▁seans	-9.22543
▁siopadóireachta	-9.22563
▁mall	-9.22603
▁sábháilteachta	-9.22604
▁sheirbhís	-9.22637
páistí	-9.22723
95	-9.23078
▁trialacha	-9.23423
▁scamhóg	-9.23675
▁ste	-9.23685
1,	-9.23755
earraí	-9.24024
▁ga	-9.24101
▁víreasacha	-9.24262
op	-9.24315
▁gníomhach	-9.24528
comparáid	-9.2552
sars	-9.25635
z	-9.25905
▁rialachá	-9.25946
▁eisío	-9.25994
▁”.	-9.26592
▁ghlaca	-9.26715
▁zónóiseach	-9.26833
▁sábháilteacht	-9.26918
huairisc	-9.27112
▁íomhá	-9.27189
▁sc	-9.27286
▁Tabha	-9.27294
▁oiriún	-9.27296
▁ndéant	-9.27364
▁coinníoll	-9.27367
▁cliniciúil	-9.27367
▁nollag	-9.27367
▁swab	-9.27367
▁taoiseach	-9.27367
▁dianchúraim	-9.27369
▁phobail	-9.2737
▁johnson	-9.27373
▁tacú	-9.27373
▁taiscumar	-9.27378
sat	-9.27378
▁leigheas	-9.27379
▁easp	-9.27402
▁tseapáin	-9.27402
▁diaibéiteas	-9.27437
▁cleachtais	-9.27454
▁fhón	-9.27467
▁mhic	-9.27474
▁amhrasta	-9.27497
▁óga	-9.27501
▁éigeandáil	-9.2752
▁tarlú	-9.27559
▁Faigh	-9.27609
phen	-9.27629
▁tromchúiseacha	-9.27768
▁ais	-9.28102
▁sciathá	-9.2828
▁uachtarán	-9.28501
▁plean	-9.28706
▁fón	-9.28814
▁fíor	-9.28822
▁thú	-9.28858
lú	-9.28906
▁ardú	-9.29133
▁bain	-9.29833
▁te	-9.29882
eachtaí	-9.29993
ntanas	-9.30065
▁scaip	-9.30065
▁gcomh	-9.30069
▁dh	-9.30124
▁100	-9.30125
de	-9.3031
ire	-9.30399
ola	-9.30524
▁imeacht	-9.30854
ge	-9.31046
córas	-9.31126
▁lean	-9.31499
alar	-9.3153
▁té	-9.31892
w	-9.31947
oibríonn	-9.32028
▁gceanta	-9.32236
▁spáinn	-9.32281
▁Molta	-9.32381
▁trom	-9.32456
eoirí	-9.32459
▁siopadóireacht	-9.32474
▁india	-9.32687
itis	-9.32715
▁o	-9.32787
othú	-9.329
".	-9.32912
aicéit	-9.32923
▁bhliain	-9.32923
▁chórais	-9.32923
▁fhéadfá	-9.32923
▁ghearmáin	-9.32923
▁leithlisiú	-9.32923
▁ngluaiseachtaí	-9.32923
▁réigiúin	-9.32923
▁toirchis	-9.32923
▁núíosach	-9.32923
▁chruthú	-9.32923
▁plódaithe	-9.32924
▁sonrach	-9.32924
▁difríocht	-9.32925
▁Chomh	-9.32928
▁fhreagra	-9.3293
▁béite	-9.32931
tábla	-9.32932
▁dtagann	-9.32933
▁bpobal	-9.32936
eamó	-9.32938
▁buailte	-9.32944
íochta	-9.32945
▁roghn	-9.32951
▁éasca	-9.32957
▁domhnach	-9.32959
▁dhíon	-9.32962
▁teaghlach	-9.32982
▁theaghlach	-9.32982
▁gcéim	-9.32988
nnel	-9.32993
▁dtiocfa	-9.33002
lte	-9.3301
▁mich	-9.33012
ian	-9.33028
▁láidir	-9.33086
▁méadaithe	-9.33102
▁stopadh	-9.33129
▁cónaitheoir	-9.33131
▁Su	-9.3342
▁deacair	-9.33457
▁faigh	-9.33467
19	-9.33645
▁4,8	-9.3368
▁cruinn	-9.33693
▁éadroma	-9.33699
▁éirí	-9.33741
▁eol	-9.33822
▁análaithe	-9.33859
impl	-9.33892
▁leathair	-9.34019
▁thír	-9.34066
▁freagair	-9.34192
sta	-9.34395
ag	-9.34499
▁gníomhaíochta	-9.34516
▁gco	-9.34567
▁dochtúirí	-9.3475
▁Tóg	-9.34925
ialla	-9.34956
han	-9.35476
iste	-9.35568
▁ré	-9.35842
▁be	-9.35956
osca	-9.35981
tair	-9.3605
eacht	-9.36561
▁ion	-9.36671
speicis	-9.36945
oirí	-9.36964
údará	-9.37083
agtha	-9.37309
et	-9.38043
osaigh	-9.38093
18	-9.38121
go	-9.38126
▁ord	-9.38209
▁treoir	-9.38754
▁phlean	-9.38765
▁moderna	-9.38805
▁theorannú	-9.38805
▁fhoils	-9.38805
▁análú	-9.38806
▁forbairt	-9.38807
▁margadh	-9.3881
feá	-9.38818
▁beirt	-9.38819
▁istigh	-9.38827
▁braoiníní	-9.38841
▁mholtar	-9.38856
int	-9.38857
▁clainne	-9.38876
▁gcuirf	-9.3889
▁haoine	-9.38896
▁Taispeána	-9.38904
▁tuismitheoirí	-9.38925
▁cruinnithe	-9.38972
▁phróitéin	-9.38977
▁saotharlann	-9.3909
namh	-9.39191
▁gcaithf	-9.39225
nl	-9.39291
▁par	-9.39315
▁réimsí	-9.39384
▁re	-9.39521
▁riachtanacha	-9.3972
50	-9.39797
▁raon	-9.40011
▁breith	-9.4002
.30	-9.4009
cháin	-9.40169
▁nochta	-9.40199
pla	-9.4035
iompair	-9.40503
éard	-9.40525
olog	-9.40555
k	-9.40826
0,000	-9.40857
▁limisté	-9.4099
▁iarr	-9.41283
▁tr	-9.41301
▁réigiún	-9.4155
eolas	-9.41822
shiomptómacha	-9.42206
▁dar	-9.42245
lo	-9.42358
▁teicneolaíocht	-9.42616
▁ha	-9.43055
▁Ch	-9.43096
▁Ma	-9.43317
abhadh	-9.43449
da	-9.43469
36	-9.43698
▁40	-9.43715
óid	-9.43752
▁seachtain	-9.43813
▁scoi	-9.43995
▁ta	-9.44058
▁br	-9.44071
▁lán	-9.44181
anann	-9.44434
aoine	-9.44435
stáil	-9.44443
▁freag	-9.44892
▁fhorbair	-9.44927
▁measún	-9.44993
▁thaisteal	-9.44998
to	-9.4502
ntaibheathaigh	-9.45055
▁bhrasaíl	-9.45055
▁cocúnú	-9.45055
▁dochtúra	-9.45055
▁laethúla	-9.45055
▁ndéanann	-9.45055
▁chliniciúil	-9.45055
▁linbh	-9.45055
▁dteast	-9.45055
▁shúile	-9.45055
▁satharn	-9.45056
▁ngrúpa	-9.45057
▁slaghdán	-9.45058
▁leithris	-9.4506
▁scriosadh	-9.45061
▁paisinéir	-9.45064
▁leithead	-9.45065
▁fadtéarmach	-9.45066
▁mrna	-9.45073
▁nuashonrú	-9.45085
▁chinneadh	-9.45086
▁díol	-9.45089
▁thit	-9.45095
▁saoráid	-9.45123
▁Tabharfa	-9.45144
▁bhrú	-9.45145
mar	-9.45159
▁soláthair	-9.4517
▁gcoróinvíreas	-9.45217
▁Tuga	-9.45224
▁féach	-9.45285
▁cead	-9.45331
▁moladh	-9.45332
▁ollscoileanna	-9.45341
▁ailse	-9.45361
▁dtithe	-9.45441
▁leochaileach	-9.45461
▁meá	-9.45494
▁Deimhnío	-9.45584
▁gcu	-9.4566
▁ól	-9.45715
▁bailiú	-9.45764
en	-9.45778
▁chlé	-9.45936
▁éire	-9.4596
▁saineola	-9.45979
▁ábhar	-9.46084
▁ainm	-9.46187
▁dír	-9.4626
▁gcuirfea	-9.46273
▁pcr	-9.46327
ib	-9.46537
▁ball	-9.46745
ianaise	-9.47128
▁Measta	-9.47302
▁tuarascá	-9.47312
▁lua	-9.47402
▁long	-9.47564
ius	-9.47591
eart	-9.4782
▁Féadfai	-9.47928
▁Mol	-9.48021
▁hi	-9.48025
▁Cleachta	-9.48084
achta	-9.4849
20	-9.48538
-2.	-9.48751
▁”,	-9.49502
agairt	-9.49623
99	-9.4963
▁scamhóga	-9.49651
fíor	-9.4978
hku	-9.49793
▁Bain	-9.49844
gartheagmháil	-9.49902
fss	-9.49946
rán	-9.50193
haigh	-9.50307
eisteanna	-9.50414
▁ja	-9.50699
me	-9.50955
ormhór	-9.50982
▁tromchúiseach	-9.51213
▁bunúsach	-9.51434
▁sheol	-9.51572
▁eas	-9.51618
▁deacracht	-9.51658
▁70	-9.51667
▁frithvíreas	-9.51671
▁gné	-9.51672
▁mbeal	-9.51706
▁Glan	-9.51721
▁astráil	-9.51722
▁civet	-9.51722
▁córais	-9.51722
▁forbartha	-9.51722
▁chugat	-9.51722
▁éadach	-9.51725
▁bhfón	-9.51727
▁dearbha	-9.51729
▁pangolin	-9.51732
theagmháil	-9.51745
▁soláthairtí	-9.51748
▁socr	-9.51786
▁dhaonra	-9.51787
▁scagadh	-9.51794
▁fhágáil	-9.51808
▁glacadh	-9.51826
▁marfach	-9.51826
▁gurb	-9.51834
▁rialaithe	-9.51836
▁gasta	-9.5184
ase	-9.51843
▁iontráil	-9.51918
▁braith	-9.51932
▁chiall	-9.51933
▁torracha	-9.51988
▁chill	-9.52038
▁biontech	-9.52046
▁seachain	-9.52074
éim	-9.52082
▁cáis	-9.52083
▁ghníomhaíocht	-9.52168
▁thuairisciú	-9.52247
▁eitiltí	-9.52286
▁oifigigh	-9.52298
▁chúram	-9.52305
▁óige	-9.52342
fheidhmeannach	-9.52759
▁caithf	-9.528
▁tacaíochta	-9.52841
nacht	-9.53113
íoch	-9.53481
ord	-9.5366
▁iúil	-9.53805
▁mhaithe	-9.53914
▁bean	-9.54118
rian	-9.54127
▁comparáid	-9.54132
▁se	-9.5416
tóirí	-9.5421
▁héifeacht	-9.54353
▁shin	-9.54435
úlacht	-9.54448
▁ca	-9.54461
66	-9.54493
ithníodh	-9.54515
▁pe	-9.54594
▁orda	-9.54655
▁lit	-9.55068
ras	-9.55121
▁ng	-9.55254
10	-9.55576
▁sá	-9.55756
▁Cá	-9.55801
air	-9.55863
▁pháirt	-9.56363
chair	-9.56727
athair	-9.56757
6%	-9.56849
▁séasúr	-9.5692
▁éifeachtúlacht	-9.56941
47	-9.57037
who	-9.57072
ap	-9.57127
llmha	-9.57509
ráid	-9.57577
órt	-9.57987
acsaín	-9.58184
uine	-9.582
▁ainsealach	-9.583
▁druga	-9.58402
ck	-9.58417
▁foghlaim	-9.58425
onraí	-9.5867
airí	-9.58675
mhar	-9.58715
alamh	-9.58823
eiceáil	-9.5883
▁california	-9.58862
▁aibreáin	-9.58864
▁cónaidhme	-9.58864
▁hiaráine	-9.58864
▁páipéir	-9.58864
▁samhain	-9.58864
▁scrúduithe	-9.58864
▁alfa	-9.58865
▁atosú	-9.58865
▁gcontae	-9.58865
▁iontaofa	-9.58865
▁ciarsú	-9.58865
▁fág	-9.58865
▁leithreas	-9.58865
▁leathnú	-9.58866
▁criticiúla	-9.58866
▁earná	-9.58867
▁macasamhl	-9.58867
▁matáin	-9.58874
▁uile	-9.58874
▁tusa	-9.58879
▁tháirgeadh	-9.589
▁maireachtáil	-9.58915
▁damáiste	-9.58923
▁chealú	-9.58928
ugtar	-9.58937
▁hionfhabhtuithe	-9.58942
▁géiniteach	-9.58965
▁spíce	-9.58976
iarmhairtí	-9.58986
▁dtosach	-9.58988
▁neart	-9.58988
▁100,000	-9.58989
▁meánscoile	-9.58992
▁béal	-9.58997
▁caint	-9.5903
▁ghartheagmhála	-9.59037
▁ndeac	-9.5907
▁cealla	-9.5915
▁cille	-9.59155
▁cinneadh	-9.59161
▁spreagadh	-9.59174
▁níocháin	-9.59255
ny	-9.59264
eisiúint	-9.59409
▁acmhainní	-9.59464
▁phríomh	-9.59476
ocha	-9.59478
▁Déanfa	-9.59517
▁cho	-9.59608
▁cathracha	-9.59665
tor	-9.59821
tarchurtha	-9.59826
▁áise	-9.59958
▁cúramach	-9.60057
bair	-9.60289
▁siúil	-9.60307
94	-9.60734
▁mé	-9.60921
▁sár	-9.6116
▁gníomh	-9.61199
ti	-9.61452
ll	-9.6157
danna	-9.61847
▁minice	-9.62119
ba	-9.62135
eamhshiomptómach	-9.62254
ata	-9.62257
▁cos	-9.62545
▁faisnéise	-9.62568
achas	-9.63029
▁rúis	-9.63343
▁foirm	-9.63359
▁dt	-9.63604
acair	-9.63643
▁tuarascála	-9.63827
14	-9.64038
74	-9.64107
éil	-9.64235
ról	-9.64412
▁chonai	-9.64418
▁príomha	-9.64477
be	-9.64483
chúrsa	-9.64657
coraintín	-9.64755
ofa	-9.65037
▁iomarca	-9.6516
▁eitilt	-9.65252
▁léi	-9.65349
heo	-9.65516
com	-9.65549
▁aidhm	-9.65623
▁gnó	-9.65769
▁k	-9.65802
ion	-9.65978
▁foils	-9.66
▁seomra	-9.6612
▁il	-9.6621
iúla	-9.66243
inneoi	-9.66262
▁suíomh	-9.66488
▁thuas	-9.66496
ileog	-9.66514
▁ghlas	-9.66527
▁Ro	-9.66545
hong	-9.66549
▁Comharthaí	-9.66557
▁Roghna	-9.66557
▁bhainistiú	-9.66557
▁guaise	-9.66557
▁hafraice	-9.66557
▁laethanta	-9.66557
▁núicléitíde	-9.66557
▁speiceas	-9.66557
▁máinliachta	-9.66557
▁sheachtain	-9.66557
▁Fliú	-9.66557
▁fhaireacha	-9.66558
▁bhrath	-9.66558
▁Scar	-9.66558
▁léana	-9.66558
▁smacht	-9.66558
▁sláintiúla	-9.66559
▁thógálacha	-9.66559
▁dúinn	-9.66559
▁orf	-9.66559
▁maolú	-9.66559
▁orm	-9.66561
▁haipe	-9.66562
▁dtreo	-9.66563
▁fhaisnéis	-9.6657
▁tuairisciú	-9.66574
▁scála	-9.66577
▁thiocfa	-9.66579
▁deich	-9.66592
▁scaoileadh	-9.66597
▁príomhoifig	-9.66597
▁Casacht	-9.66626
▁bhformhór	-9.66634
▁múinteoirí	-9.66636
▁mian	-9.66644
▁ainmnithe	-9.6665
▁pleananna	-9.66662
▁taifeadadh	-9.66678
▁chlinic	-9.66706
▁Cuirfi	-9.66709
▁páirt	-9.66749
▁láimh	-9.66772
▁nochtaithe	-9.66784
▁hom	-9.66865
▁Gan	-9.66919
▁shuí	-9.6693
héile	-9.66935
▁imscrúdú	-9.67214
ainm	-9.67375
▁soiléir	-9.67442
▁tóg	-9.67544
▁dromchlaí	-9.6758
▁mha	-9.67619
▁aeráil	-9.67716
▁San	-9.67749
cloí	-9.67848
▁uathú	-9.67877
▁bunscoile	-9.6792
haon	-9.68133
▁bhearta	-9.68166
88	-9.68274
▁ardriosca	-9.68317
ul	-9.68344
▁spás	-9.68408
bhunaithe	-9.68545
mp	-9.68787
▁teachtaireacht	-9.68862
▁speicis	-9.69066
▁feidhmeanna	-9.6914
▁agam	-9.69196
▁seach	-9.69268
▁beaga	-9.6955
▁fhan	-9.69585
pe	-9.69627
ionann	-9.69976
eipidéimeolaíoch	-9.70075
▁cú	-9.70154
nó	-9.70293
▁bhail	-9.70508
▁char	-9.7078
nasctha	-9.71038
éin	-9.71095
%)	-9.71209
dirghníomhaíocht	-9.71304
.5	-9.71504
▁fhor	-9.71737
84	-9.71824
78	-9.71858
lucht	-9.71949
▁cathai	-9.71952
67	-9.71979
▁hu	-9.72157
éirigh	-9.72227
▁tug	-9.72229
4%	-9.72261
cu	-9.72555
▁soláthra	-9.72555
aisc	-9.72634
▁Bh	-9.72636
▁nuacht	-9.72696
rú	-9.72904
▁nigh	-9.7294
▁úsáideoir	-9.7295
ardriosca	-9.73036
ospidéal	-9.73093
aireachta	-9.73098
bhealaí	-9.73124
ex	-9.734
fen	-9.73521
ireacht	-9.73699
hse	-9.73939
▁38	-9.7397
▁tógála	-9.74086
ré	-9.74179
▁oscailt	-9.74363
▁trialach	-9.74382
▁tu	-9.74438
▁séireolaíoch	-9.74529
ed	-9.74532
▁fisic	-9.74551
seirbhís	-9.74592
▁Seo	-9.74626
▁chlúda	-9.74673
▁ghearr	-9.74707
▁riarachá	-9.74716
óthar	-9.74756
▁páipéar	-9.74886
▁fhoghlaim	-9.7489
▁miondíol	-9.7489
▁phylogenetic	-9.7489
▁Spreag	-9.7489
▁coisctheach	-9.7489
▁céatadá	-9.7489
▁héirinn	-9.7489
▁laethúil	-9.7489
▁mheiriceá	-9.7489
▁mheithimh	-9.7489
▁mheánoirthir	-9.7489
▁slaghdáin	-9.7489
▁theaghlaigh	-9.7489
▁unesco	-9.7489
▁céadaoin	-9.7489
▁eabhrac	-9.7489
▁orainn	-9.7489
▁titim	-9.74891
▁tiomána	-9.74891
▁ceanada	-9.74892
▁úrscéal	-9.74892
▁gearr	-9.74892
▁biseach	-9.74892
▁Athr	-9.74895
▁bluetooth	-9.74898
▁oifigiúla	-9.74902
▁cong	-9.74906
25	-9.74908
ibé	-9.74921
▁cel	-9.74927
▁smaoin	-9.7493
▁coimeádta	-9.74933
▁páirteach	-9.74937
▁Caithfi	-9.74943
▁comhaireamh	-9.74978
▁ceadaithe	-9.74987
▁dhó	-9.75006
▁bialanna	-9.75028
▁gheo	-9.75032
▁cuairteoirí	-9.75039
▁réidh	-9.7508
▁sainch	-9.75085
▁bhfuar	-9.75098
▁seiceáil	-9.75113
▁coicíse	-9.75126
▁oíche	-9.7514
▁oiriúnach	-9.75176
▁oibríochta	-9.75233
▁thorthaí	-9.75315
▁chleachtadh	-9.75412
▁cóiré	-9.75522
▁treocht	-9.75567
▁fheic	-9.75583
▁cumas	-9.75656
▁tuairiscí	-9.7566
▁mhair	-9.75697
91	-9.75837
▁dian	-9.75853
galar	-9.7593
ha	-9.75988
▁pataigineach	-9.7607
▁cheanta	-9.76135
▁Bainea	-9.76294
ry	-9.76391
▁aclaíocht	-9.76428
▁bó	-9.76526
▁icu	-9.76806
▁laghda	-9.76935
▁aireacht	-9.77086
▁éifeachtúlachta	-9.77199
▁féadfa	-9.77281
▁cheada	-9.77571
ca	-9.77815
▁Iarrfa	-9.77903
27	-9.77973
▁chónaí	-9.78079
iam	-9.78169
iúr	-9.7826
15	-9.78375
▁éagsúlacht	-9.78491
j	-9.78492
▁Labhair	-9.78517
▁li	-9.78606
láir	-9.78934
tais	-9.79222
aol	-9.79371
óis	-9.79399
óin	-9.79612
▁ct	-9.79657
9%	-9.797
▁Cabhró	-9.79796
▁4,6	-9.79828
hol	-9.80097
bhreith	-9.80149
▁Dún	-9.80158
táirgeadh	-9.80376
if	-9.80484
▁héifeachtach	-9.80505
▁staid	-9.81139
íochtaí	-9.81193
▁teiripe	-9.81259
▁táirg	-9.81261
▁holo	-9.81294
5,	-9.81613
▁chuims	-9.81755
sa	-9.81784
tú	-9.81863
reagairt	-9.81936
▁bí	-9.81946
ionfhabhtuithe	-9.82079
pcr	-9.82139
chúram	-9.82154
thír	-9.82169
omh	-9.82273
có	-9.82333
ionad	-9.82368
▁gcuir	-9.82371
uachtarán	-9.82403
▁bhféadf	-9.82491
▁íoc	-9.82509
▁sín	-9.82635
nár	-9.82732
▁deis	-9.82925
▁cois	-9.8298
▁cuma	-9.83003
▁Féadfa	-9.83171
tóga	-9.83262
▁chleachta	-9.83437
▁náisiú	-9.83594
éann	-9.83645
▁aipe	-9.83683
▁dtéa	-9.83755
▁comhair	-9.83802
▁leag	-9.83909
▁margaí	-9.83969
▁cógas	-9.83977
▁cumarsáid	-9.83981
▁cytokine	-9.83981
▁cúrsála	-9.83981
▁iontrála	-9.83981
▁laidineach	-9.83981
▁nuabheirthe	-9.83981
▁foinse	-9.83981
▁lorg	-9.83981
▁thairg	-9.83981
▁oifigiúil	-9.83981
▁físe	-9.83981
▁innéacs	-9.83981
▁gcéanna	-9.83981
▁idirlín	-9.83981
óimheas	-9.83982
▁camel	-9.83982
▁gclúd	-9.83982
▁céimnithe	-9.83983
▁droch	-9.83984
▁gcúis	-9.83985
▁riamh	-9.83986
▁rté	-9.8399
▁sainaithníodh	-9.83993
▁ceathrar	-9.83995
▁toirmeasc	-9.83995
▁saoránach	-9.83996
▁fliuch	-9.83997
▁measartha	-9.84008
▁ranganna	-9.84019
▁Laghda	-9.84021
▁feidhmiú	-9.84021
▁comhartha	-9.84034
▁dalta	-9.84055
▁bhuail	-9.84068
▁ullmhú	-9.84082
▁80%	-9.84084
aireanta	-9.84086
▁boladh	-9.84087
▁tcm	-9.84089
▁meáchan	-9.84108
▁dhiúltach	-9.8412
▁randamacha	-9.84155
▁fhiabhras	-9.84171
▁ndúnfa	-9.84224
▁ceisteanna	-9.84229
▁trácht	-9.84241
▁ábalta	-9.84256
▁cuar	-9.8428
randa	-9.84359
▁4,9	-9.84388
▁lárnach	-9.84404
oireann	-9.84429
▁óstáil	-9.84461
▁dhíre	-9.84486
▁post	-9.84627
▁lig	-9.84699
▁ghá	-9.84708
▁leaba	-9.84755
ín	-9.84803
▁cheannach	-9.84926
▁nochtadh	-9.84952
▁comhpháirt	-9.84962
1%	-9.85042
▁Roinn	-9.85062
▁eolaíochta	-9.85224
▁stoc	-9.85246
▁mama	-9.85373
▁sinsear	-9.85563
lt	-9.85632
▁gartheagmhála	-9.8582
▁salach	-9.85961
tion	-9.86056
▁tras	-9.86364
▁súile	-9.86392
▁dtabharfa	-9.86435
96	-9.86557
▁leas	-9.86668
hná	-9.86747
▁próitéine	-9.86923
mo	-9.86945
teistiméireachta	-9.87244
áilte	-9.87497
▁coraintíní	-9.87869
▁scaoil	-9.88077
▁saol	-9.88106
ve	-9.88348
aon	-9.88361
athain	-9.88436
▁cothaith	-9.88455
▁fi	-9.88631
pp	-9.88746
▁0	-9.88785
áit	-9.88911
▁pa	-9.89587
▁feabh	-9.89616
▁st	-9.9073
sócháin	-9.91071
60	-9.91214
▁gha	-9.91268
ní	-9.91288
44	-9.91362
neamh	-9.91456
▁rat	-9.91511
ng	-9.91517
ora	-9.91589
ealú	-9.91847
▁lu	-9.91965
thain	-9.92054
▁imdhíon	-9.92071
cdc	-9.92161
bhaint	-9.92204
roinn	-9.92208
airíonna	-9.92305
agus	-9.92485
▁údar	-9.92497
▁roghna	-9.92836
▁measta	-9.93086
▁príobháideacha	-9.93205
▁fhostóir	-9.93267
57	-9.93273
▁breis	-9.93402
phataigineach	-9.93493
trialacha	-9.93597
▁solátha	-9.93792
uilleadh	-9.93832
coimisiún	-9.93842
▁dtír	-9.93895
iondróm	-9.93901
uartha	-9.93901
▁Scaip	-9.93923
▁tháirg	-9.93933
isteach	-9.93954
▁mio	-9.93974
haispeáin	-9.93981
▁alcól	-9.93981
aighdeáin	-9.93981
comhghleacaithe	-9.93981
▁atruacha	-9.93981
▁bhreise	-9.93981
▁brasaíle	-9.93981
▁coróinvíris	-9.93981
▁dhiagnóisiú	-9.93981
▁dromlaigh	-9.93981
▁díhiodráitiú	-9.93981
▁foghlam	-9.93981
▁hoifigiúil	-9.93981
▁inniu	-9.93981
▁mbaineann	-9.93981
▁membrane	-9.93981
▁seachadta	-9.93981
▁smaoiseach	-9.93981
▁thairiscint	-9.93981
▁ísiltír	-9.93981
▁Oibr	-9.93981
▁dtástáil	-9.93981
▁cheadú	-9.93981
▁cluich	-9.93981
▁teorann	-9.93981
▁choirp	-9.93981
▁poist	-9.93981
▁Cuid	-9.93983
▁Teast	-9.93983
eineafóibe	-9.93984
▁cultúrtha	-9.93984
▁cholainn	-9.93984
▁gloin	-9.93985
▁chabhr	-9.93986
▁shroich	-9.93986
▁foinsí	-9.93987
▁tasc	-9.93988
▁háise	-9.93988
▁rbd	-9.93988
▁réamhchúraim	-9.93989
▁soghluaiste	-9.93994
▁codlata	-9.93995
▁treorach	-9.93996
▁traidisiúnta	-9.93997
▁huisce	-9.93997
▁dháileadh	-9.93998
▁ngall	-9.93999
▁cheangal	-9.94004
ábhair	-9.94027
▁scéim	-9.94028
▁téarnamh	-9.94031
▁mhoilliú	-9.94033
▁thuilleadh	-9.94035
▁Ansin	-9.94036
▁sheiceáil	-9.94041
▁ndia	-9.94041
▁tuairiscithe	-9.94041
ionn	-9.94042
▁teagla	-9.94048
▁gnéas	-9.94058
▁km	-9.94075
▁muc	-9.94087
▁thuairiscítear	-9.94089
▁aerasóil	-9.94093
▁polaiméaráise	-9.94093
▁dóchúil	-9.94093
▁fheabhsú	-9.94094
23	-9.94138
▁athmholadh	-9.94141
▁víreolaíochta	-9.94168
▁chinn	-9.94188
▁cumann	-9.94191
▁dheas	-9.94211
▁láriona	-9.94235
▁bord	-9.94244
▁Sea	-9.94271
▁mhuin	-9.94287
▁líonra	-9.9435
▁eachtracha	-9.94366
▁mholadh	-9.94371
▁(6	-9.94459
raib	-9.94481
▁leathna	-9.94534
▁chlár	-9.94561
▁uachtarach	-9.94602
▁fás	-9.94602
▁racha	-9.94698
▁breathn	-9.94704
▁bhunús	-9.94721
▁ghartheagmhálaí	-9.94916
31	-9.94994
▁aigéad	-9.95088
▁aistriú	-9.95108
▁1,0	-9.95295
35	-9.95363
▁acmhainn	-9.95379
lach	-9.95381
▁eacnamaíocha	-9.95392
▁hard	-9.95597
▁chosa	-9.95648
mheastachá	-9.95709
▁maoini	-9.95755
illiú	-9.95957
86	-9.95982
▁airíonna	-9.9637
▁síneach	-9.9638
21	-9.96401
62	-9.96425
38	-9.96454
▁hathr	-9.96455
▁airgeada	-9.9653
▁marbh	-9.96577
isté	-9.96943
▁bog	-9.97363
▁37	-9.97432
53	-9.97613
▁dhíol	-9.9769
chtaí	-9.9796
37	-9.97963
▁sp	-9.97984
▁tro	-9.98168
asacht	-9.98327
56	-9.98418
▁oifige	-9.98469
rabhadh	-9.98716
▁po	-9.98773
▁Cabhr	-9.9882
75	-9.9888
ik	-9.99016
08	-9.99053
ilt	-9.99077
79	-9.99417
▁chuairt	-9.99444
lí	-9.99504
táin	-9.99546
▁rún	-9.99673
▁cáithnín	-9.997
2)	-9.99911
raigh	-10.0024
ábhar	-10.0025
formhór	-10.0038
▁déanach	-10.0043
dro	-10.0063
éal	-10.0069
med	-10.0071
▁85	-10.0073
100	-10.0123
iarr	-10.0127
chán	-10.0128
▁imoibri	-10.0138
▁4,7	-10.0188
dars	-10.0188
réitigh	-10.0194
ama	-10.0195
▁mhaith	-10.0202
▁phríobháideach	-10.0213
73	-10.0218
ial	-10.0244
▁pas	-10.025
éadaí	-10.0263
▁uaire	-10.0288
▁sain	-10.0291
05	-10.0293
▁choinn	-10.0307
ka	-10.0315
cás	-10.0318
oileáin	-10.0318
▁gníomhaireachta	-10.033
mers	-10.0336
fan	-10.0349
▁ionsaí	-10.0365
eálacha	-10.0365
17	-10.0377
stiú	-10.038
adóir	-10.0408
aois	-10.0459
uil	-10.0464
rialacha	-10.0476
▁plé	-10.048
inneas	-10.0481
▁taifead	-10.0491
▁glac	-10.0492
▁ghéanó	-10.05
ánach	-10.0502
▁mhoill	-10.0503
▁téarna	-10.0504
▁dtug	-10.0505
▁sraith	-10.0508
▁phlé	-10.0509
▁Giorra	-10.0509
▁Taisteal	-10.0509
▁antaiginí	-10.0509
▁aslonnú	-10.0509
▁dearbhú	-10.0509
▁deireanach	-10.0509
▁difriúil	-10.0509
▁ghloiní	-10.0509
▁ghéiniteach	-10.0509
▁heorpa	-10.0509
▁héasca	-10.0509
▁oiliúna	-10.0509
▁réasúnta	-10.0509
▁scagthástáil	-10.0509
▁shaoránaigh	-10.0509
▁sheomra	-10.0509
▁singeapór	-10.0509
▁stéaróidigh	-10.0509
▁throid	-10.0509
▁éascú	-10.0509
▁íoslaghdú	-10.0509
▁óstán	-10.0509
▁ríthábhachtach	-10.0509
▁tábhairne	-10.0509
▁Féach	-10.0509
▁fnass	-10.0509
▁Scaoil	-10.0509
ampas	-10.0509
▁cúrsa	-10.0509
▁dtarló	-10.0509
▁cíche	-10.0509
▁shocra	-10.0509
▁shádach	-10.0509
▁thiar	-10.0509
▁ghníomhaireacht	-10.0509
▁dtorthaí	-10.0509
▁prognóis	-10.0509
▁éillithe	-10.051
▁leataobh	-10.051
▁soicind	-10.051
▁ghéarchéim	-10.051
▁práinneach	-10.051
▁léitheoir	-10.051
▁Ráig	-10.0511
▁dóichí	-10.0511
▁taiwan	-10.0511
▁glasáil	-10.0511
▁eitleán	-10.0511
▁sreabhán	-10.0512
omharc	-10.0512
▁míleata	-10.0512
▁thaispeáint	-10.0513
▁aisghabháil	-10.0513
▁2012	-10.0513
▁bhunú	-10.0514
▁fadhbanna	-10.0514
▁bruscair	-10.0515
▁nasal	-10.0517
▁fhorb	-10.0517
▁prótacal	-10.0517
▁dhaonna	-10.0518
▁ghabh	-10.0518
▁reiligiúnacha	-10.0519
▁frithvíreasacha	-10.0519
▁thaistealaithe	-10.052
▁feiceáil	-10.052
▁huimh	-10.052
▁tráth	-10.052
▁sochraid	-10.0522
▁gabhdóir	-10.0522
▁scagthástála	-10.0522
▁póilín	-10.0522
▁Cuims	-10.0524
▁cuims	-10.0525
▁fhear	-10.0525
brid	-10.0526
▁4,5	-10.0527
▁leathnaithe	-10.0527
▁sláinteachais	-10.053
rón	-10.0538
▁cóid	-10.0538
▁fhill	-10.0543
▁oiliúint	-10.0544
▁ndochtúirí	-10.0547
déileáil	-10.0549
ation	-10.0562
▁chontae	-10.0566
▁theacht	-10.0567
▁gov	-10.0567
▁cleachtadh	-10.0569
▁iarrthóir	-10.057
▁ham	-10.0576
agartha	-10.0579
▁uala	-10.0579
▁aclaíochta	-10.058
▁cleachtas	-10.0587
▁sláinteacha	-10.0593
▁gcoda	-10.0598
▁eisithe	-10.0598
ual	-10.0601
87	-10.0607
▁troma	-10.0619
aonta	-10.062
▁carna	-10.0623
▁seachtainí	-10.0632
▁choraintín	-10.0634
▁gnótha	-10.0641
▁bhrón	-10.0643
▁ardaithe	-10.0659
nío	-10.0678
▁cúige	-10.0697
úlra	-10.0709
▁deimhn	-10.071
acháin	-10.071
▁clis	-10.0728
he	-10.0728
▁33	-10.0741
ald	-10.0742
▁su	-10.0774
lár	-10.0778
aint	-10.0811
oibrithe	-10.0825
▁séasúrach	-10.0831
ígh	-10.0837
▁sóchá	-10.0859
das	-10.0868
chosúil	-10.0883
▁thaca	-10.0884
▁cleachta	-10.0886
eolaíocht	-10.0893
2,000	-10.0923
▁leanúnacha	-10.0931
fort	-10.0974
▁us	-10.0975
65	-10.0986
chta	-10.1011
asta	-10.1018
▁ro	-10.104
▁chú	-10.1062
foireann	-10.1064
éag	-10.1077
▁sam	-10.1077
shonrach	-10.1081
áis	-10.1081
▁aird	-10.1089
▁críoch	-10.1105
aitheann	-10.1111
faí	-10.1112
gas	-10.112
tra	-10.1129
od	-10.1133
ema	-10.1153
heabhairshláinte	-10.1153
ínigh	-10.1163
2%	-10.1164
iall	-10.1172
▁réigiúnach	-10.1194
co	-10.1206
athrú	-10.1212
▁mor	-10.1213
▁ser	-10.1221
▁Ith	-10.1222
45	-10.1229
únamh	-10.1238
▁altra	-10.1251
▁soláthr	-10.1258
43,	-10.127
▁fhoins	-10.1288
dlúthpháirtíocht	-10.1293
▁mhéadaithe	-10.1315
▁feidhmeannach	-10.1352
▁Bí	-10.1357
▁ceannach	-10.143
▁35	-10.1436
▁gníomhaíocht	-10.1444
harla	-10.1462
ófa	-10.1472
líne	-10.1481
▁luch	-10.1489
▁cam	-10.1503
ho	-10.1509
▁mbun	-10.1518
▁caill	-10.1522
athlastach	-10.1524
▁rabha	-10.1529
▁Mola	-10.153
▁sínt	-10.155
▁léirithe	-10.1551
aghaidh	-10.1572
tábhachtach	-10.1579
ceart	-10.1581
30	-10.1584
▁65	-10.159
▁Forbr	-10.1601
▁Braithea	-10.1611
▁(1	-10.1618
▁he	-10.1624
ghabhálach	-10.1628
▁meas	-10.1641
39	-10.1655
cep	-10.166
▁bheag	-10.1665
feadh	-10.1673
▁34	-10.1677
▁bpob	-10.1681
▁che	-10.1685
▁réims	-10.1695
▁bronch	-10.1696
▁garda	-10.1699
▁torrach	-10.1708
▁breoiteacht	-10.1708
uismitheoirí	-10.1732
▁2021.	-10.1735
▁dtosa	-10.174
▁comhla	-10.174
▁eiseama	-10.1741
oimeád	-10.1743
▁80	-10.1745
▁labhair	-10.1745
▁stá	-10.1748
▁dheimhn	-10.1749
▁cuirfi	-10.175
▁caite	-10.1751
▁breoite	-10.1756
íreas	-10.1757
▁deacra	-10.1757
▁eo	-10.1758
mhíochaine	-10.1758
oirthear	-10.1759
▁Oscl	-10.1759
▁dúshlán	-10.1759
▁oilithr	-10.1759
▁staitisti	-10.1759
frídíní	-10.1759
shéalainn	-10.1759
▁Fiabhras	-10.1759
▁Príobháideach	-10.1759
▁alcóil	-10.1759
▁bpáiste	-10.1759
▁cathaoir	-10.1759
▁comhsheasmhach	-10.1759
▁digiteach	-10.1759
▁déardaoin	-10.1759
▁fadthéarmach	-10.1759
▁geografach	-10.1759
▁google	-10.1759
▁gréasáin	-10.1759
▁hindia	-10.1759
▁iniúchadh	-10.1759
▁muinteartha	-10.1759
▁nasopharyngeal	-10.1759
▁naíonáin	-10.1759
▁naíonán	-10.1759
▁polaitiú	-10.1759
▁róthrom	-10.1759
▁scaoll	-10.1759
▁tairseach	-10.1759
▁teoiric	-10.1759
▁throigh	-10.1759
▁todhchaí	-10.1759
▁washington	-10.1759
▁maolaithe	-10.1759
▁seachtainiúil	-10.1759
▁corónach	-10.1759
▁ireland	-10.1759
▁strus	-10.1759
▁spéise	-10.1759
▁coróivír	-10.1759
▁thuar	-10.1759
▁scanadh	-10.1759
▁buaic	-10.1759
▁neamhghnácha	-10.1759
▁ghiniúint	-10.1759
▁dtuai	-10.176
pragh	-10.176
▁mbraisl	-10.176
▁léar	-10.176
▁foriomlán	-10.176
▁Mhéad	-10.176
▁dianchúram	-10.176
▁cheap	-10.176
iobr	-10.176
▁saoil	-10.176
▁eagraithe	-10.176
▁béilí	-10.176
▁bliantúil	-10.1761
▁míonna	-10.1761
▁delta	-10.1762
▁pobal	-10.1762
▁Cinnt	-10.1762
▁deiridh	-10.1762
ostaithe	-10.1763
▁dhéanfar	-10.1763
▁éabhlóideach	-10.1764
▁Féin	-10.1764
▁gcionn	-10.1765
shnáithe	-10.1766
apple	-10.1766
hael	-10.1767
▁2003	-10.1767
▁Lig	-10.1767
eachadadh	-10.1768
▁athraitheach	-10.1771
▁creid	-10.1771
▁aeriompartha	-10.1774
▁mbeart	-10.1774
▁fda	-10.1775
▁duitse	-10.1776
▁díolúine	-10.1777
▁tréith	-10.178
uimhnigh	-10.178
▁thinn	-10.1783
▁iolracha	-10.1784
▁patrú	-10.1787
▁Bia	-10.1787
▁sceideal	-10.1789
áir	-10.1789
lainne	-10.179
▁pangóilí	-10.1791
▁gclá	-10.1791
▁phian	-10.1794
▁éabhlóid	-10.1794
▁ocsaigine	-10.1796
▁amhlaidh	-10.1798
▁Déanfai	-10.1799
▁112	-10.18
▁ghlasáil	-10.1805
▁uaidh	-10.1811
▁moil	-10.1811
ions	-10.1815
▁sea	-10.1818
▁ciall	-10.1819
▁ticé	-10.1821
▁imdhíonta	-10.1821
▁séireolaíocht	-10.1822
áileadh	-10.1822
▁oideas	-10.1825
der	-10.1827
▁95%	-10.1828
imín	-10.1834
▁costas	-10.1844
▁chógais	-10.185
▁aeir	-10.1858
há	-10.1865
▁beatha	-10.1866
▁chuairteoir	-10.1867
pháirtí	-10.1869
▁1,3	-10.1871
▁seomraí	-10.1871
▁árann	-10.1873
▁tcp	-10.1875
4)	-10.1876
▁ainmn	-10.1876
acsaíní	-10.1879
▁arda	-10.1896
oireachta	-10.1902
▁bhfanfa	-10.191
▁idirghabhála	-10.1912
▁ghlac	-10.1923
uashonruithe	-10.1924
ide	-10.1934
airde	-10.1962
▁úr	-10.1968
hálaí	-10.1976
▁oileáin	-10.1991
▁tf	-10.2014
▁díobhálach	-10.2041
▁chúrsa	-10.2084
léiriú	-10.2084
▁bail	-10.2085
▁2,3	-10.2094
69	-10.2096
▁fen	-10.2099
▁aims	-10.2101
.2%	-10.2112
itheach	-10.2126
▁luach	-10.2136
éad	-10.214
92	-10.2149
éilliú	-10.215
luí	-10.2161
comhairle	-10.218
▁costa	-10.2183
▁staidr	-10.2188
▁clo	-10.2192
3)	-10.2201
24	-10.2225
▁cónaitheach	-10.2237
▁tonn	-10.224
tithe	-10.2253
únadh	-10.2257
80	-10.2267
▁réamhscoile	-10.2268
pain	-10.2274
ning	-10.2283
aonad	-10.2285
▁airíonn	-10.2291
12	-10.2312
▁rúise	-10.2319
▁(3	-10.2344
cam	-10.2348
▁ríomh	-10.2373
▁teicneolaíochta	-10.238
athlastacha	-10.239
▁críocha	-10.2423
ón	-10.244
▁scaipf	-10.244
▁Aon	-10.2454
ow	-10.2492
▁39	-10.2492
baill	-10.2507
che	-10.2518
tas	-10.2524
ov	-10.2544
61	-10.2581
▁55	-10.2592
▁thria	-10.2601
▁leictreon	-10.2602
arm	-10.2604
▁ráit	-10.2611
▁Tógfai	-10.2696
▁fó	-10.2737
29	-10.2746
▁aonta	-10.276
▁oibriú	-10.2766
▁athlastach	-10.2766
ke	-10.2773
▁2020)	-10.2779
uair	-10.2786
álacha	-10.2786
▁tánaiste	-10.2803
▁théa	-10.2812
▁(2	-10.2823
her	-10.2823
▁Iarr	-10.2828
claíocht	-10.283
70	-10.2833
16	-10.2864
íosa	-10.2894
bc	-10.291
ige	-10.2921
cp	-10.2923
éireo	-10.2934
ort	-10.2943
ruinniú	-10.2944
▁fheidhm	-10.2951
▁phróise	-10.2957
▁pataigin	-10.2983
áistí	-10.2983
▁dona	-10.2991
wm	-10.3
tarchur	-10.3003
próitéin	-10.3008
▁oiriúnaithe	-10.3009
chas	-10.3011
fanacht	-10.3012
rt	-10.3015
cí	-10.3016
heir	-10.3022
cun	-10.3033
▁crua	-10.3036
osúil	-10.3043
triail	-10.3043
líon	-10.3046
64	-10.3064
duine	-10.3065
ley	-10.3078
éir	-10.3087
▁dhear	-10.3111
▁rathú	-10.3119
▁slabhr	-10.3119
▁90	-10.3121
stu	-10.3125
▁tosaíocht	-10.3132
▁ullmhacht	-10.3135
oirse	-10.3136
▁ceadú	-10.3143
▁atáirg	-10.3149
▁feidhm	-10.3158
▁eachtrach	-10.3159
▁eachtra	-10.3161
▁dhiúlta	-10.3165
▁ghlan	-10.3166
▁teasta	-10.3169
eoil	-10.3169
dhíola	-10.3177
labhra	-10.3179
éinte	-10.318
réige	-10.3184
▁Rá	-10.3186
▁thaist	-10.3188
▁Ord	-10.3188
▁Cógais	-10.3188
▁Rian	-10.3188
▁Sláinteachas	-10.3188
▁aisghafa	-10.3188
▁cardashoithíoch	-10.3188
▁compord	-10.3188
▁dhíghalrú	-10.3188
▁fhilipíneacha	-10.3188
▁fraince	-10.3188
▁fráma	-10.3188
▁fíocháin	-10.3188
▁fúthu	-10.3188
▁gcoitinne	-10.3188
▁ghnáthuaireanta	-10.3188
▁ghnólachtaí	-10.3188
▁iosrael	-10.3188
▁mhéara	-10.3188
▁pádraig	-10.3188
▁remdesivir	-10.3188
▁sruth	-10.3188
▁tapúla	-10.3188
▁thaifead	-10.3188
▁threorú	-10.3188
▁chriticiúil	-10.3188
▁fhailí	-10.3188
▁fíochán	-10.3188
▁uillinn	-10.3188
▁Fág	-10.3188
▁Soláthraí	-10.3188
▁lúnasa	-10.3188
▁samhalt	-10.3188
▁saoránaigh	-10.3188
▁tubaiste	-10.3188
▁criticiúil	-10.3188
bharnó	-10.3188
einsím	-10.3188
▁ríofa	-10.3188
▁zhan	-10.3188
▁oxford	-10.3188
▁uilig	-10.3188
▁stoirm	-10.3188
▁téalainn	-10.3188
▁aslonna	-10.3188
▁coláiste	-10.3188
▁lámhainní	-10.3188
▁Bhuel	-10.3188
▁turais	-10.3188
▁rolla	-10.3188
▁dtreoirlín	-10.3188
▁pointe	-10.3188
▁súg	-10.3188
▁iomadú	-10.3188
▁ngéarchéim	-10.3188
▁ardoideachais	-10.3188
▁chúige	-10.3188
▁cógaslanna	-10.3188
▁dtaca	-10.3188
shaoil	-10.3188
▁leithligh	-10.3188
▁mbialann	-10.3189
cabhair	-10.3189
▁gharda	-10.3189
▁nigéir	-10.3189
▁tharraing	-10.3189
íteas	-10.3189
▁Cúis	-10.3189
▁foirmiúil	-10.319
▁lag	-10.3191
▁mharú	-10.3191
▁leantach	-10.3191
▁blas	-10.3191
▁meabhrach	-10.3191
▁norm	-10.3192
▁ghlao	-10.3194
▁comhdhúil	-10.3194
▁toirmisc	-10.3194
▁rialála	-10.3194
▁fiche	-10.3195
land	-10.3195
▁fisiciúil	-10.3196
▁cumhachta	-10.3197
▁caillte	-10.3198
▁Imeacht	-10.3201
50%	-10.3201
▁Srian	-10.3201
▁thóg	-10.3202
▁bainistíocht	-10.3203
▁gairi	-10.3204
▁ócáid	-10.3205
▁gnólachtaí	-10.3205
▁sluaite	-10.3205
▁láithreán	-10.3206
▁ghéanóma	-10.321
▁4.30	-10.321
▁leithne	-10.321
▁chrutha	-10.3211
end	-10.3212
órsa	-10.3216
▁dtréimhs	-10.3217
▁feidhmchlá	-10.3218
▁chreid	-10.3218
ocal	-10.3219
▁ghearradh	-10.322
insint	-10.3222
▁4,4	-10.3226
chruinnithe	-10.3227
▁30%	-10.3227
▁aerlíne	-10.3233
▁gly	-10.3233
▁uirlis	-10.3233
▁ghabhdóir	-10.3234
▁éireann	-10.3235
▁iii	-10.3236
▁rannpháirteach	-10.3237
▁Tre	-10.3237
▁bainis	-10.3238
▁ullmhachta	-10.3241
▁news	-10.3242
▁phost	-10.3242
▁atreorú	-10.3243
▁pailin	-10.3244
▁antashubstaintí	-10.3245
▁aerálaí	-10.3247
iúint	-10.325
▁príobháideacht	-10.3253
▁var	-10.3254
omhairliúch	-10.3257
▁beagán	-10.3259
▁cill	-10.326
▁buidéil	-10.3262
▁naisc	-10.3264
itheoir	-10.3264
dhéanta	-10.3265
▁fhachtóir	-10.3266
▁lasta	-10.3271
oladh	-10.3276
oise	-10.3279
▁veicteorach	-10.3279
bhanna	-10.3283
▁luain	-10.3287
eamhstruchtúrtha	-10.329
▁chónaitheoir	-10.329
scríobh	-10.3294
▁géarchéim	-10.3296
▁shárú	-10.3305
▁uaslódála	-10.331
▁charr	-10.3315
▁aipeanna	-10.3325
irítear	-10.3343
▁claon	-10.3354
▁chúramóir	-10.3356
▁500	-10.3375
▁chúl	-10.3377
liom	-10.3381
▁vir	-10.3385
▁foghlaimeoir	-10.3386
áille	-10.3394
▁triail	-10.3395
ramh	-10.341
habh	-10.3411
▁ciníocha	-10.3419
▁4,3	-10.3419
rofen	-10.342
▁fógraíodh	-10.3423
rcaí	-10.3429
▁cruthaío	-10.3435
tach	-10.3445
athróg	-10.3459
iarracht	-10.3473
▁cúigí	-10.3475
éidearthacht	-10.348
▁éiginnte	-10.3487
▁scoir	-10.3487
iomad	-10.3488
leach	-10.35
33	-10.3504
eolaíochta	-10.3507
▁uí	-10.351
▁mara	-10.3524
ibh	-10.3536
58	-10.3544
5%	-10.3548
uibh	-10.3554
▁seas	-10.3571
aireachtáil	-10.3585
▁Tos	-10.3589
háin	-10.3591
gan	-10.3592
opin	-10.3594
▁cl	-10.3631
▁hku	-10.3631
áthair	-10.3642
lanna	-10.365
▁gceann	-10.3663
54	-10.368
▁bhfo	-10.368
▁tais	-10.3685
héid	-10.3695
géine	-10.3721
oifige	-10.3738
▁dom	-10.3738
▁gaire	-10.3744
dach	-10.3761
est	-10.3776
▁bailío	-10.3796
tóir	-10.3809
aba	-10.3829
▁dteann	-10.3833
▁rochta	-10.3861
chealla	-10.3868
▁háit	-10.3904
▁20,	-10.3904
áiteanna	-10.3905
prote	-10.3974
íní	-10.3984
▁lín	-10.3994
nntanas	-10.4001
béil	-10.4085
osclófa	-10.4085
nte	-10.4095
▁300	-10.4104
bo	-10.4104
▁oibr	-10.4111
óidí	-10.4117
ct	-10.413
cas	-10.4145
ordaithe	-10.4159
seas	-10.4163
▁chóna	-10.4169
▁shín	-10.4188
daigh	-10.4198
chéime	-10.4204
▁(5	-10.4221
3%	-10.4225
,600	-10.4228
▁Féad	-10.4236
sia	-10.4241
ipe	-10.4254
▁Dé	-10.4258
▁fhreastala	-10.4259
▁Meas	-10.4261
alt	-10.4297
mb	-10.4314
▁oc	-10.4332
uail	-10.4333
▁goir	-10.4335
▁has	-10.4369
▁Tástála	-10.4378
▁ocra	-10.4387
▁52	-10.4426
▁mothú	-10.4436
▁theiripe	-10.4459
oga	-10.4475
300	-10.4475
ens	-10.4486
▁bo	-10.4495
20,000	-10.4498
▁breithe	-10.45
▁leanfa	-10.4502
▁deimhni	-10.453
▁Cl	-10.4531
▁aerála	-10.4541
▁cruth	-10.4544
▁sciath	-10.4556
ionta	-10.4559
▁anáil	-10.458
maoin	-10.4595
▁neamhspleách	-10.4631
choraintín	-10.4665
víreas	-10.4665
aistriú	-10.4666
aigéad	-10.4666
bhrón	-10.467
taobh	-10.4673
leibhé	-10.4673
éileamh	-10.4675
▁cothrom	-10.4681
gov	-10.4685
▁throm	-10.4686
▁féa	-10.4691
tosó	-10.4705
amach	-10.4721
hearbha	-10.4723
reamh	-10.4728
phacáist	-10.476
reatain	-10.4767
▁ainmnío	-10.4769
scr	-10.477
▁Comhairl	-10.4773
uaire	-10.4784
▁antashubstaint	-10.4787
▁siopa	-10.479
▁mhodh	-10.4796
óibh	-10.4809
▁Ghla	-10.4819
ogadh	-10.4822
▁imscrúd	-10.4827
ásanna	-10.4827
ainistíocht	-10.4837
▁Tarchu	-10.4838
▁siomptóm	-10.4842
▁pholai	-10.4843
▁samplá	-10.4843
▁atreor	-10.4846
▁fadhb	-10.4847
▁díghalr	-10.4847
scrúdú	-10.4848
aispeáint	-10.4849
▁rang	-10.485
chúraim	-10.4853
aistigh	-10.4853
▁bprói	-10.4854
▁ferret	-10.4854
▁ndeimhn	-10.4854
geilleaga	-10.4854
indíreach	-10.4854
mhúinteoirí	-10.4854
▁Braithf	-10.4854
▁Paindéim	-10.4854
▁bhforbairt	-10.4854
▁bronchiolitis	-10.4854
▁chabhair	-10.4854
▁dteaghlaigh	-10.4854
▁dtuarascá	-10.4854
▁fecal	-10.4854
▁forleithne	-10.4854
▁gclinic	-10.4854
▁ghinearálta	-10.4854
▁grósaera	-10.4854
▁hastráile	-10.4854
▁hopkins	-10.4854
▁infhaighteacht	-10.4854
▁iobúpróifein	-10.4854
▁luimneach	-10.4854
▁mhuinchille	-10.4854
▁mhíchumas	-10.4854
▁míchumais	-10.4854
▁phacastáin	-10.4854
▁shasana	-10.4854
▁thaispeán	-10.4854
▁theoranta	-10.4854
▁veicteoir	-10.4854
▁woolworths	-10.4854
▁Iompa	-10.4854
▁dtuig	-10.4854
▁ghéar	-10.4854
▁insteall	-10.4854
▁mhantáin	-10.4854
▁míchumas	-10.4854
▁talún	-10.4854
eardchuma	-10.4854
shruth	-10.4854
ungáir	-10.4854
▁iontu	-10.4854
▁tuirc	-10.4854
▁uilíoch	-10.4854
▁braite	-10.4854
▁chothabháil	-10.4854
▁duánach	-10.4854
▁fiáine	-10.4854
▁comhcheilge	-10.4854
fhreasta	-10.4855
▁urlabhra	-10.4855
▁urlár	-10.4855
▁chosanta	-10.4855
▁choláiste	-10.4855
▁sainmhíni	-10.4855
▁eisiata	-10.4855
▁trádá	-10.4855
calraí	-10.4855
▁euro	-10.4855
▁gaolmhar	-10.4855
▁suíochá	-10.4855
▁fóillíochta	-10.4855
thuaisc	-10.4855
▁thoil	-10.4855
▁Anois	-10.4855
▁bunaidh	-10.4855
▁californians	-10.4855
▁comhlachtaí	-10.4855
▁ibu	-10.4855
▁chógaiseoir	-10.4855
▁leachtanna	-10.4855
▁glasála	-10.4856
▁Teagmháil	-10.4856
▁lanc	-10.4856
▁samhna	-10.4856
▁plasma	-10.4856
▁thurasóirí	-10.4856
▁ndaonra	-10.4856
▁peataí	-10.4856
▁paul	-10.4856
▁cáilíocht	-10.4856
▁gcúig	-10.4857
▁stóráil	-10.4857
▁conte	-10.4857
▁oll	-10.4857
▁aosta	-10.4857
aisleá	-10.4857
▁nhs	-10.4857
avir	-10.4857
▁dhéag	-10.4857
úradh	-10.4858
▁haer	-10.4858
cóip	-10.4858
▁pob	-10.4858
niac	-10.4858
▁himeacht	-10.4859
▁gcineál	-10.4859
▁tearc	-10.4859
▁3,9	-10.4859
▁cuí	-10.4859
▁suímh	-10.4859
▁tholg	-10.486
▁Lua	-10.486
▁díghalraithe	-10.486
▁Cosain	-10.486
▁glúine	-10.4861
▁hainmhithe	-10.4861
▁lagaithe	-10.4861
▁toircheas	-10.4862
▁taom	-10.4863
▁riaradh	-10.4863
bainisteoir	-10.4863
ci	-10.4863
▁scáileán	-10.4864
olg	-10.4864
▁fhuil	-10.4864
▁tráchtála	-10.4865
▁chógaslannaí	-10.4866
▁mbéal	-10.4866
▁sholáthraithe	-10.4868
▁coimeád	-10.4868
▁athraithe	-10.4869
▁Trí	-10.4869
▁ábhartha	-10.487
▁dochar	-10.4871
▁bolg	-10.4872
▁feist	-10.4873
▁Tagraí	-10.4874
▁teicníc	-10.4874
▁dyspnea	-10.4874
▁gheilleaga	-10.4874
▁polapróitéin	-10.4874
▁feithic	-10.4874
▁luaite	-10.4875
▁thuras	-10.4876
▁cúigear	-10.4876
▁róimh	-10.4877
▁chódú	-10.4878
▁chlo	-10.4879
imint	-10.4879
▁eiseamal	-10.4879
▁deonach	-10.488
ifr	-10.488
▁leabharlanna	-10.488
http	-10.4882
▁chothú	-10.4884
omhaireamh	-10.4885
▁dhromchlaí	-10.4886
▁earraigh	-10.489
▁riaracháin	-10.4893
▁cuirfiú	-10.4894
▁phaindéimeach	-10.4899
▁ghairm	-10.4899
▁giniú	-10.4914
gaidh	-10.4915
▁Seol	-10.4918
▁aontais	-10.4921
▁neartú	-10.4926
▁slabhraí	-10.4926
meabhairshláinte	-10.4927
▁bheaga	-10.4928
▁cirt	-10.4928
▁breoiteachta	-10.493
igg	-10.4935
breatain	-10.4943
▁Inis	-10.4944
▁ealaíon	-10.4945
▁shábháilteacht	-10.4947
airíonn	-10.495
iabh	-10.4951
▁nascadh	-10.4951
▁nba	-10.4954
▁ghin	-10.4959
▁mban	-10.4965
▁amharclanna	-10.4975
▁thioncha	-10.4981
▁oird	-10.4981
▁tiomáint	-10.4984
▁seolfa	-10.4989
▁chor	-10.499
▁ndí	-10.5011
rúin	-10.5011
▁theagmhála	-10.5015
▁chúins	-10.5024
7,1	-10.5039
▁zónóiseacha	-10.5039
▁Sh	-10.5048
▁dath	-10.5051
iocfa	-10.5062
▁ifr	-10.5063
▁crit	-10.5068
▁gceantar	-10.5076
rdáin	-10.5076
hírigh	-10.5087
▁oiriúnaitheach	-10.509
▁luas	-10.5094
reid	-10.51
.8%)	-10.5102
▁neamhfh	-10.5109
▁oiriú	-10.5131
▁choinní	-10.5138
▁Seirbhís	-10.5147
aen	-10.5161
▁1,000	-10.5167
▁iomarcach	-10.5178
▁cionta	-10.5184
odh	-10.5195
.3%	-10.5205
oirf	-10.5225
▁tos	-10.5229
onair	-10.5235
mdhíonacht	-10.5238
reacht	-10.5247
▁thábhachtach	-10.5248
▁neamhch	-10.5249
▁bán	-10.5251
▁59	-10.528
do	-10.529
▁rialacha	-10.5294
▁boga	-10.5295
innealtóireachta	-10.5296
taidhleoireachta	-10.5296
▁col	-10.5297
éine	-10.5297
▁abc	-10.5301
bi	-10.5315
.5%	-10.5323
▁tánaisteach	-10.5329
za	-10.5361
▁mc	-10.5366
▁rc	-10.5387
▁mhó	-10.5393
▁ip	-10.5403
ithí	-10.5406
nda	-10.5422
82	-10.5461
haill	-10.547
▁téarma	-10.5475
onta	-10.5494
ainmhí	-10.5501
tir	-10.5545
▁gas	-10.5552
▁leictreonach	-10.5593
óireáil	-10.5595
▁cast	-10.5597
ond	-10.5599
ionc	-10.5626
mhór	-10.565
▁bi	-10.5656
oifig	-10.5662
▁laghdó	-10.5663
52	-10.5664
iche	-10.5673
itheoirí	-10.569
▁teiripeach	-10.5727
▁2019-20	-10.5731
▁dtógfa	-10.5736
hsa	-10.5756
san	-10.5767
68	-10.5791
leann	-10.5813
▁casachta	-10.5817
gen	-10.5824
▁dhro	-10.583
▁45	-10.5832
ilín	-10.5847
▁ráite	-10.5869
▁Mh	-10.5872
▁iomlána	-10.5879
▁caillea	-10.5882
▁roinnte	-10.5893
▁250	-10.5905
▁neamhdh	-10.5912
▁scaoilte	-10.5952
nce	-10.5957
fianaise	-10.5978
▁69	-10.5978
▁táirge	-10.598
▁lio	-10.5982
▁gcóireá	-10.6009
▁beart	-10.6011
▁cabhrach	-10.602
▁earra	-10.6029
▁cónaithe	-10.6032
34	-10.6042
eolaithe	-10.6045
uimh	-10.605
uáin	-10.6069
866	-10.609
▁spleách	-10.6102
▁00	-10.6135
▁fho	-10.6155
40	-10.6166
63,	-10.6182
▁dtóg	-10.6208
aird	-10.6221
rua	-10.6235
vi	-10.6268
íniú	-10.6286
▁téarmaí	-10.6293
▁nocht	-10.6296
eagra	-10.6312
▁4,90	-10.6339
▁uachtar	-10.6359
saíocht	-10.6369
▁corp	-10.639
26	-10.6412
▁Nu	-10.6425
▁1)	-10.6428
ut	-10.6483
3.5	-10.6506
isean	-10.6512
cho	-10.6564
orb	-10.6571
▁chon	-10.6578
tó	-10.6583
▁tábhacht	-10.6584
▁77	-10.6586
eolaíoch	-10.659
▁éifeacht	-10.6593
▁bheart	-10.6594
▁Foir	-10.6594
▁soiléire	-10.6599
▁athoscl	-10.6606
agraío	-10.6607
um	-10.6611
▁bhfaighea	-10.6619
úsáidf	-10.6628
▁moo	-10.6651
scéal	-10.6652
aithne	-10.6656
▁dha	-10.6662
sraith	-10.6666
phríomh	-10.6669
cathracha	-10.6669
▁57	-10.667
▁Leanfai	-10.6672
teiripe	-10.6672
oideachas	-10.6672
faireachas	-10.6673
iompar	-10.6675
inne	-10.6675
imdhíonachta	-10.6675
chomhartha	-10.6675
chuid	-10.6676
chúis	-10.6679
▁lúb	-10.668
álaithe	-10.668
astrazeneca	-10.668
tógálach	-10.6681
coronavirus	-10.6683
theagmhála	-10.6684
lc	-10.669
teo	-10.6691
▁veicteora	-10.6724
níl	-10.6732
▁sean	-10.6737
▁fhoirm	-10.6737
nuair	-10.6747
▁gcinn	-10.6764
comharthaí	-10.6768
.7%	-10.6771
▁new	-10.6774
▁iarrata	-10.6781
▁ndochtúir	-10.6788
▁meánscoil	-10.6789
▁threoir	-10.6793
▁aerlín	-10.6793
▁ísl	-10.6793
▁ocsaigin	-10.6793
▁suí	-10.6795
▁aoise	-10.6798
ruga	-10.6801
íobhálach	-10.6801
▁cathrach	-10.6803
tinn	-10.6803
▁coicís	-10.6808
▁chuma	-10.6817
▁chód	-10.6826
eacrachtaí	-10.6827
▁páirc	-10.683
▁gcleachta	-10.6832
▁oscail	-10.6834
▁oileá	-10.6837
▁chógas	-10.6838
éarchéim	-10.6839
▁gluaiseacht	-10.684
reast	-10.684
▁fhreagair	-10.6841
phe	-10.6842
lainn	-10.6843
éasúr	-10.6846
oláthairtí	-10.6846
▁ceist	-10.6848
oláireamh	-10.6849
▁nádúr	-10.6849
▁ghnó	-10.685
▁sholáthra	-10.6851
▁alpaca	-10.6852
▁Cúram	-10.6853
ipidéim	-10.6853
▁slua	-10.6853
▁shiúl	-10.6854
▁coróin	-10.6854
▁dhlúth	-10.6854
▁bhfreastalaí	-10.6854
▁Napro	-10.6854
▁ceangailte	-10.6854
gastrointestinal	-10.6854
ruitíneach	-10.6854
▁Rud	-10.6854
▁Sraothartach	-10.6854
▁bolsonaro	-10.6854
▁choimisiún	-10.6854
▁chraiceann	-10.6854
▁cispheil	-10.6854
▁cupáin	-10.6854
▁dhíspreagadh	-10.6854
▁ebola	-10.6854
▁feirme	-10.6854
▁feline	-10.6854
▁ghualainn	-10.6854
▁hipirtheannas	-10.6854
▁iarrthóra	-10.6854
▁idirghabháil	-10.6854
▁indéanta	-10.6854
▁infheidhm	-10.6854
▁intleachtúil	-10.6854
▁ionanál	-10.6854
▁leithlise	-10.6854
▁lymphocyt	-10.6854
▁láidriú	-10.6854
▁lóistín	-10.6854
▁meastóireacht	-10.6854
▁mheasúnaithe	-10.6854
▁mheasúnú	-10.6854
▁mífhaisnéis	-10.6854
▁neodra	-10.6854
▁ollmhóra	-10.6854
▁phearsan	-10.6854
▁phríosú	-10.6854
▁phóca	-10.6854
▁pionós	-10.6854
▁rouhani	-10.6854
▁seroprevalence	-10.6854
▁shaotharlann	-10.6854
▁sprioc	-10.6854
▁thiomáint	-10.6854
▁triom	-10.6854
▁éagsúil	-10.6854
iargúlta	-10.6854
peptid	-10.6854
▁Gnáth	-10.6854
▁Siopa	-10.6854
▁adhanom	-10.6854
▁antaigín	-10.6854
▁bhfreagra	-10.6854
▁fionnachta	-10.6854
▁gearrthéarmach	-10.6854
▁logáil	-10.6854
▁mhíbhuntáiste	-10.6854
▁mífheidhm	-10.6854
▁múnla	-10.6854
▁réiteach	-10.6854
▁snámha	-10.6854
▁thionsca	-10.6854
▁tamaill	-10.6854
áireofa	-10.6854
▁bhainisteoir	-10.6854
▁tobann	-10.6854
▁gceanglaí	-10.6854
foirt	-10.6854
▁Stop	-10.6854
oidhreachta	-10.6855
▁reachtaíocht	-10.6855
▁sathairn	-10.6855
▁éanúil	-10.6855
▁cothromaíochta	-10.6855
▁léamh	-10.6855
▁thapa	-10.6855
▁bhearna	-10.6855
▁loing	-10.6855
▁Gearr	-10.6855
ceimiceach	-10.6855
▁Glac	-10.6855
iúsca	-10.6855
▁imeall	-10.6855
▁cúlchist	-10.6855
▁bhéilí	-10.6855
▁simplí	-10.6855
▁fasach	-10.6855
▁ghorta	-10.6855
▁achainí	-10.6855
▁laige	-10.6855
▁Feic	-10.6855
ector	-10.6855
▁hanaithnid	-10.6855
▁gairm	-10.6855
▁coláistí	-10.6855
▁cúlpháirtí	-10.6855
írinne	-10.6855
▁ballstáit	-10.6855
putin	-10.6855
▁músaeim	-10.6855
▁mille	-10.6855
▁chomhrac	-10.6855
▁theicneolaíocht	-10.6855
▁coles	-10.6855
22,6	-10.6855
▁mheicniúil	-10.6855
▁hiondú	-10.6855
▁mionsonra	-10.6855
▁gaillimhe	-10.6855
▁clóis	-10.6855
seilf	-10.6856
▁symptom	-10.6856
▁tharchuir	-10.6856
▁shuíomh	-10.6856
▁galra	-10.6856
▁blúir	-10.6856
▁Socr	-10.6856
▁siarghabhálach	-10.6856
▁shoiléiriú	-10.6857
leamhna	-10.6857
▁cogaidh	-10.6857
▁Plé	-10.6857
▁ecdc	-10.6857
▁chógaslann	-10.6857
▁éiceolaíoch	-10.6857
▁42	-10.6857
irmheánach	-10.6857
mhinic	-10.6857
▁Méadaío	-10.6857
▁sputum	-10.6857
▁parlaimint	-10.6857
▁socrúchá	-10.6858
▁foláir	-10.6858
▁struchtúracha	-10.6858
▁hospidéil	-10.6858
ww	-10.6858
▁chaomhnú	-10.6858
▁gcorcaigh	-10.6858
▁Baile	-10.6858
▁páiste	-10.6858
▁shábháilte	-10.6859
éigean	-10.6859
▁bhrisea	-10.6859
othromaíocht	-10.6859
▁bhfoir	-10.6859
onradh	-10.6859
géire	-10.686
▁fulaing	-10.686
▁gcógaslann	-10.686
▁ceirde	-10.686
▁aici	-10.686
▁comhionann	-10.686
uter	-10.6861
▁ísliú	-10.6861
▁páirceanna	-10.6861
imoibríoch	-10.6861
▁aeráid	-10.6861
▁doiciméadaithe	-10.6861
▁dífhabhtán	-10.6861
▁3,1	-10.6862
▁advi	-10.6862
▁ifn	-10.6862
▁sheachadadh	-10.6862
▁1,2	-10.6862
▁modheolaíocht	-10.6862
▁ceolchoirmeacha	-10.6862
▁johns	-10.6863
choim	-10.6863
copd	-10.6863
▁cheanada	-10.6863
ment	-10.6863
▁chomhpháirt	-10.6864
▁consalacht	-10.6864
▁chonradh	-10.6864
▁treasach	-10.6864
▁teileafóin	-10.6864
▁tarraing	-10.6864
▁thrí	-10.6864
▁clg	-10.6864
▁heagrán	-10.6865
▁cárta	-10.6865
▁polar	-10.6865
▁fhostaithe	-10.6865
toghchá	-10.6865
▁cuideachtaí	-10.6866
▁taca	-10.6867
▁príomhúil	-10.6867
▁fhual	-10.6867
▁glantacháin	-10.6867
▁shíniú	-10.6868
▁cianfhoghlama	-10.6868
▁mheabhrach	-10.6868
▁gcéin	-10.6868
▁Cuairteanna	-10.6868
▁bhfill	-10.6869
▁8.30	-10.6869
crích	-10.6869
77	-10.6869
▁buail	-10.687
▁phleanáil	-10.6871
▁ostair	-10.6871
▁leithéid	-10.6871
▁leathanach	-10.6871
▁ko	-10.6872
▁cairt	-10.6872
▁dteach	-10.6872
▁of	-10.6872
▁2018	-10.6872
pholaitiú	-10.6872
pims	-10.6872
▁glas	-10.6873
▁rúnda	-10.6873
▁solúbthachta	-10.6873
▁tionscail	-10.6873
▁thre	-10.6873
▁féil	-10.6875
▁siomptómach	-10.6875
sochaí	-10.6875
▁chláir	-10.6877
▁tuáillí	-10.6877
▁barda	-10.6878
▁slabhra	-10.6878
▁Coróinvíreas	-10.6879
▁enteritis	-10.6879
uacht	-10.6879
▁déantúsaíocht	-10.688
conclúid	-10.688
▁gcorróg	-10.688
▁stróc	-10.6882
iontach	-10.6883
▁slándá	-10.6884
▁meánscoileanna	-10.6884
▁bhalla	-10.6885
▁bhfíor	-10.6886
▁éisteacht	-10.6887
iog	-10.6887
▁diagnóiseach	-10.6887
▁cosúlachta	-10.6888
▁att	-10.6889
nsaid	-10.6889
▁intern	-10.6889
▁díghalrú	-10.6889
▁aigéin	-10.6891
▁chomhlíonadh	-10.6891
▁dífhostaíochta	-10.6892
▁ceoil	-10.6895
riseoirí	-10.6896
▁ngartheagmhála	-10.6897
▁fuinneog	-10.6897
cainní	-10.6898
▁Shá	-10.69
▁chomhordú	-10.6901
▁saille	-10.6901
▁leathan	-10.6903
▁pá	-10.6905
▁ili	-10.6908
▁folamh	-10.6909
▁roghnaithe	-10.6911
ity	-10.6917
▁bagairt	-10.6918
lex	-10.6918
báin	-10.6918
iúradh	-10.6918
earbha	-10.6918
▁stai	-10.6919
▁ionsaithe	-10.692
▁asma	-10.6921
eagrán	-10.6922
▁orgáin	-10.6922
▁taibhithe	-10.6922
▁toitín	-10.6923
93	-10.693
▁ionadaíoch	-10.6931
▁thíos	-10.6931
▁shaol	-10.6936
▁idirlíon	-10.6936
▁10%	-10.6939
▁sola	-10.694
▁Mair	-10.6941
▁féar	-10.6941
▁fl	-10.6942
éanaimid	-10.6943
▁eolaíoch	-10.6944
▁indiach	-10.6947
▁aimsithe	-10.6949
▁mel	-10.6951
▁ci	-10.6956
▁máirt	-10.6958
▁imithe	-10.696
▁orgán	-10.6967
homalógach	-10.6981
▁cua	-10.6984
ríoch	-10.6991
phataigineacha	-10.6991
▁ghluaiseacht	-10.6996
▁Ionaid	-10.6999
▁líonraí	-10.7007
mall	-10.7011
▁nuachta	-10.7014
▁bró	-10.7022
▁réad	-10.7029
▁bce	-10.7029
bhreathn	-10.7031
▁alára	-10.7035
▁dheireanach	-10.7036
▁cúl	-10.7036
róis	-10.7041
22	-10.705
aoisghrúpa	-10.705
▁shl	-10.7053
▁xi	-10.7056
▁aithne	-10.7057
isín	-10.7072
▁amanna	-10.7073
eam	-10.7083
teachtaireachtaí	-10.7091
▁bhan	-10.7108
▁modhn	-10.7114
pórt	-10.7118
lon	-10.7122
83	-10.7124
▁húsáideoir	-10.713
iclo	-10.7166
tosaithe	-10.7195
itheann	-10.7202
▁srianadh	-10.7208
heol	-10.7209
▁fuinne	-10.7219
▁4)	-10.7229
liocht	-10.7236
▁laghd	-10.7237
▁3,5	-10.7253
ope	-10.7262
▁mu	-10.7294
▁aerbheala	-10.7319
▁gníomhaireacht	-10.7319
▁bac	-10.7323
▁diúltacha	-10.7326
▁riachtanas	-10.7343
6,8	-10.7369
vac	-10.7374
▁gceall	-10.7375
▁hoibr	-10.7378
onan	-10.7393
▁rt	-10.7398
▁ionsa	-10.7418
mhábhar	-10.7436
inte	-10.7441
bheag	-10.7453
▁chaill	-10.7485
ondú	-10.7498
▁ji	-10.7502
▁scei	-10.7553
▁próise	-10.7568
man	-10.7571
▁Aims	-10.7591
▁radagrafaíochta	-10.7604
seoladh	-10.7623
▁fhreastal	-10.7634
▁ligf	-10.7647
▁spleácha	-10.7667
▁scagth	-10.7674
▁41	-10.7722
oinneáil	-10.7737
icu	-10.7743
xia	-10.7752
▁2,4	-10.7764
▁Buna	-10.7773
▁tionscna	-10.7775
▁sainord	-10.7795
▁meácha	-10.7799
▁51	-10.7803
bhreithe	-10.7806
▁líonadh	-10.7835
hal	-10.7848
▁aonar	-10.7849
▁ri	-10.7856
thoscailt	-10.7893
taithe	-10.7981
léa	-10.8013
hi	-10.8022
ers	-10.8051
▁fhó	-10.8051
cm	-10.8083
▁tionsca	-10.8119
▁ceap	-10.8138
▁gcamá	-10.8165
▁bhfeic	-10.8226
▁próis	-10.8244
▁chi	-10.8277
▁tuirse	-10.8291
fá	-10.8297
▁aithnío	-10.8326
▁Fo	-10.8373
use	-10.8445
▁mhíle	-10.8452
ró	-10.8455
2019-	-10.8466
▁mhao	-10.8473
▁Bhío	-10.8542
céim	-10.8593
42	-10.86
▁Mhea	-10.8601
cheangla	-10.8629
500	-10.8648
imseo	-10.8674
eora	-10.8677
nsí	-10.8689
téama	-10.8692
eagán	-10.87
00,000	-10.873
▁óg	-10.8745
▁Leanfa	-10.8755
▁sreabh	-10.8769
▁airgead	-10.8781
▁wi	-10.8784
▁lia	-10.8795
éan	-10.88
iceo	-10.8806
taith	-10.8808
▁Scrúda	-10.8889
▁2,2	-10.8901
ómacha	-10.8917
ghrúpa	-10.8922
▁suaimhn	-10.8926
reathnaío	-10.8939
▁ciníoch	-10.8941
▁thábhacht	-10.8955
▁400	-10.9036
ása	-10.9051
úigiú	-10.9051
lia	-10.9056
leic	-10.9059
hún	-10.9075
▁tuairisc	-10.9079
▁pacáist	-10.9108
aireacht	-10.9109
▁teirip	-10.911
tréimhs	-10.912
▁hel	-10.9122
téarmaí	-10.9155
thábhachtach	-10.916
thioncha	-10.916
ghluaiseacht	-10.916
críobh	-10.916
foghlaimeoir	-10.9162
aitheanta	-10.9163
iomlán	-10.9164
ainmhithe	-10.9164
chógais	-10.9164
réada	-10.9165
teicneolaíochta	-10.9166
scoile	-10.9167
post	-10.9168
bhearta	-10.9171
riosca	-10.9171
athbhreithni	-10.9172
éadrom	-10.9173
dlúth	-10.9173
cóiré	-10.9173
vacsaínithe	-10.9174
niúmóine	-10.9174
taighde	-10.9175
luath	-10.9175
réamh	-10.9175
tíre	-10.9176
imscrúdú	-10.9177
cosaint	-10.9177
óige	-10.9178
▁víreola	-10.9184
aonar	-10.9184
▁ngníomh	-10.9189
▁scrí	-10.9193
tcp	-10.9194
fhoirmiú	-10.9217
▁chois	-10.9221
▁tarl	-10.9233
ova	-10.9235
▁clinic	-10.9238
▁rannpháirt	-10.9265
fás	-10.9265
thráth	-10.9272
oph	-10.9274
liniciúla	-10.9286
▁sláint	-10.9291
▁pangóil	-10.9292
iniú	-10.9295
▁mhiondíol	-10.9295
▁thromchúiseach	-10.9298
▁iolrach	-10.9302
▁randamach	-10.9303
iagnóis	-10.9304
▁geal	-10.9309
olaiteoirí	-10.931
mes	-10.932
▁láithreá	-10.9322
rróga	-10.9322
▁Tacaío	-10.9327
suite	-10.9327
oronavirus	-10.9329
▁dhíri	-10.9329
▁patr	-10.9329
raoiníní	-10.9334
untas	-10.9337
▁prótaca	-10.9337
osúla	-10.9337
▁ceo	-10.9338
ianfhoghlama	-10.9338
oicís	-10.9339
▁faid	-10.9341
▁shábháil	-10.9345
ealtaine	-10.9346
rúpa	-10.9346
▁Cuairt	-10.9347
ochtaineacht	-10.9347
ulaing	-10.9348
▁las	-10.9348
arra	-10.9349
orcaigh	-10.935
angóil	-10.935
oird	-10.9351
uirb	-10.9351
arlaimint	-10.9352
inimic	-10.9352
▁ribo	-10.9353
taiscuma	-10.9353
gaillimh	-10.9353
▁Fiafr	-10.9354
▁forfheidhmi	-10.9354
▁aisiompú	-10.9354
▁fiafr	-10.9354
▁franc	-10.9354
astroenteritis	-10.9354
athsholáthar	-10.9354
choimpléasc	-10.9354
chomhghleacaithe	-10.9354
coibhneas	-10.9354
gaothaire	-10.9354
ghrúpáil	-10.9354
ndiúscartha	-10.9354
neamhphleanáilte	-10.9354
neamhshiméadrach	-10.9354
tomagrafaíocht	-10.9354
▁Chrutha	-10.9354
▁Ionfhabhtú	-10.9354
▁Liosta	-10.9354
▁Scornach	-10.9354
▁bhreoiteacht	-10.9354
▁bhréagach	-10.9354
▁blianta	-10.9354
▁bonneaga	-10.9354
▁bpoint	-10.9354
▁cairdiach	-10.9354
▁carrsheirbhíse	-10.9354
▁cheansú	-10.9354
▁chumhacht	-10.9354
▁chófra	-10.9354
▁cnáimhseacha	-10.9354
▁daegu	-10.9354
▁danmhairg	-10.9354
▁dioplóma	-10.9354
▁déthaobhach	-10.9354
▁dífhostú	-10.9354
▁ealaíne	-10.9354
▁eilvéis	-10.9354
▁enteric	-10.9354
▁eorpaigh	-10.9354
▁exoribonuclease	-10.9354
▁facebook	-10.9354
▁feithimh	-10.9354
▁forlíontach	-10.9354
▁fóirdheon	-10.9354
▁gcoláistí	-10.9354
▁gheimhr	-10.9354
▁guangzhou	-10.9354
▁hathbhliana	-10.9354
▁ilmheáin	-10.9354
▁interferon	-10.9354
▁iomláine	-10.9354
▁ioslam	-10.9354
▁janssen	-10.9354
▁leordhóthanach	-10.9354
▁londain	-10.9354
▁lánfhada	-10.9354
▁maipín	-10.9354
▁malartacha	-10.9354
▁mbrasaíl	-10.9354
▁mearbhall	-10.9354
▁mellitus	-10.9354
▁mhacasamhlú	-10.9354
▁mhalairt	-10.9354
▁mheánscoil	-10.9354
▁mhonaróir	-10.9354
▁montainéagró	-10.9354
▁murtall	-10.9354
▁oilimpeach	-10.9354
▁ransomware	-10.9354
▁ritonavir	-10.9354
▁sainaithint	-10.9354
▁saothair	-10.9354
▁seipteach	-10.9354
▁shenzhen	-10.9354
▁shincheonji	-10.9354
▁siamsaíochta	-10.9354
▁síochána	-10.9354
▁tabharfa	-10.9354
▁taispeán	-10.9354
▁thabharfa	-10.9354
▁thrasnú	-10.9354
▁triage	-10.9354
▁turraing	-10.9354
▁uaigneas	-10.9354
▁uasdát	-10.9354
▁uefa	-10.9354
▁vomiting	-10.9354
▁áirithint	-10.9354
▁éigipt	-10.9354
ráflaí	-10.9354
scríbhinn	-10.9354
scópacht	-10.9354
tuaslag	-10.9354
▁cianda	-10.9354
▁difriúla	-10.9354
▁dtarchuir	-10.9354
▁fhorchur	-10.9354
▁ghaolta	-10.9354
▁mhapáil	-10.9354
▁máithreachais	-10.9354
▁mídhleathach	-10.9354
▁raidió	-10.9354
▁romhainn	-10.9354
▁réasúna	-10.9354
▁seisear	-10.9354
▁Braisl	-10.9354
▁Sainmhín	-10.9354
▁grianghraf	-10.9354
▁ionchur	-10.9354
▁scanrú	-10.9354
▁you	-10.9354
▁meaisín	-10.9354
▁Páirc	-10.9354
▁creat	-10.9354
▁foirgn	-10.9354
▁athló	-10.9354
▁láidre	-10.9354
▁pub	-10.9354
▁píolótach	-10.9354
▁tharlóidh	-10.9354
rdrp	-10.9355
▁imirce	-10.9355
▁núicléasach	-10.9355
▁turgnamhach	-10.9355
bhuana	-10.9355
▁bhfliú	-10.9355
▁ghné	-10.9355
▁sceidil	-10.9355
▁caighdeánacha	-10.9355
▁ceachtanna	-10.9355
▁lrti	-10.9355
thshlán	-10.9355
theorainn	-10.9355
▁fhéach	-10.9355
▁gafa	-10.9355
▁princess	-10.9355
▁bheilg	-10.9355
▁fheist	-10.9355
eipitít	-10.9355
▁mhodhnú	-10.9355
▁paiteolaíoch	-10.9355
▁chríosta	-10.9355
▁muinín	-10.9355
▁bpail	-10.9355
▁claontacht	-10.9355
▁feola	-10.9355
éarscáil	-10.9355
▁ndoirse	-10.9355
▁Scan	-10.9355
▁bholgach	-10.9355
▁tionó	-10.9355
▁ibuprofen	-10.9355
▁madra	-10.9355
▁betacoronavirus	-10.9355
ndálaí	-10.9355
▁choróivír	-10.9355
creimirí	-10.9355
▁mballa	-10.9355
▁éadan	-10.9355
▁allais	-10.9355
jiang	-10.9355
▁chathracha	-10.9355
▁reáchtáil	-10.9355
▁maireann	-10.9355
intéis	-10.9355
▁aldi	-10.9355
fíric	-10.9355
▁chách	-10.9355
▁shuíochá	-10.9355
▁Cnap	-10.9355
ruaige	-10.9355
trans	-10.9355
▁shean	-10.9355
▁serum	-10.9355
▁49	-10.9355
▁sasana	-10.9355
▁chainn	-10.9355
▁raideolaíoch	-10.9355
▁trilliún	-10.9355
▁trascríobh	-10.9355
▁dtimpeallacht	-10.9355
▁bricfe	-10.9355
▁thomha	-10.9356
lantacháin	-10.9356
▁Laghdó	-10.9356
▁bhronn	-10.9356
▁osclaí	-10.9356
▁Covid	-10.9356
▁díhiodráitithe	-10.9356
▁banc	-10.9356
▁chliabhrach	-10.9356
▁bhanglaidéis	-10.9356
▁garman	-10.9356
▁comhráite	-10.9356
▁plaicint	-10.9356
sell	-10.9356
gairdín	-10.9357
▁Cúramóirí	-10.9357
▁ionchas	-10.9357
▁lochtach	-10.9357
▁vótáil	-10.9357
▁baictéarach	-10.9357
▁Bog	-10.9357
▁iasc	-10.9357
▁eascair	-10.9357
▁sláintíocht	-10.9357
▁siona	-10.9357
▁1890	-10.9357
▁inné	-10.9357
▁dhruga	-10.9357
▁bpríomh	-10.9357
▁mhothúcháin	-10.9357
▁ceannasach	-10.9358
▁alpacanna	-10.9358
▁Inse	-10.9358
ichí	-10.9358
▁3.8	-10.9358
▁Measún	-10.9358
▁taif	-10.9358
▁déimeagrafach	-10.9358
▁béile	-10.9358
▁theagasc	-10.9359
▁chreidmheasa	-10.9359
▁tsamhraidh	-10.9359
▁lón	-10.9359
▁mbunscoileanna	-10.9359
zoo	-10.9359
▁frithghníomh	-10.936
▁iarmhar	-10.936
ogra	-10.936
▁phríomhúil	-10.936
▁dhifriúla	-10.9361
▁cuimhne	-10.9361
▁1,7	-10.9361
▁nsp	-10.9361
▁ndáiríre	-10.9361
▁sub	-10.9361
▁íochtarach	-10.9362
▁riospr	-10.9362
▁gcúl	-10.9362
intín	-10.9362
▁tráthúil	-10.9363
▁chamáin	-10.9363
▁ceangla	-10.9364
▁Pian	-10.9364
▁míneo	-10.9364
riarthóir	-10.9364
▁bhfoirm	-10.9364
▁glóthach	-10.9364
▁gnóthacha	-10.9365
▁haitheanta	-10.9366
▁fairsinge	-10.9366
▁eagrú	-10.9366
▁leaist	-10.9367
▁aimsiú	-10.9367
wel	-10.9367
▁critic	-10.9368
▁chait	-10.9368
▁caillteana	-10.9368
armana	-10.937
▁2015	-10.937
▁tionscadail	-10.937
páras	-10.937
▁Creid	-10.9371
idéal	-10.9372
▁shocha	-10.9373
▁infheistíocht	-10.9374
▁ionfhabhta	-10.9375
▁phianta	-10.9375
▁dearca	-10.9375
▁bháis	-10.9376
▁seasta	-10.9376
▁soiléiriú	-10.9377
▁turasóireacht	-10.9377
▁fhéin	-10.9377
head	-10.9378
▁croith	-10.9378
batcov	-10.9378
chuntas	-10.9379
▁bainne	-10.938
teachas	-10.9381
▁(0.	-10.9381
▁gníomhaire	-10.9381
▁pro	-10.9382
áiste	-10.9383
▁scíthe	-10.9383
1.7	-10.9383
▁stoi	-10.9383
▁2002	-10.9383
▁freas	-10.9384
▁tuairimí	-10.9384
▁cata	-10.9385
live	-10.9385
▁choinníoll	-10.9387
▁bhuaic	-10.9387
▁scagair	-10.9387
▁admh	-10.9388
▁bhfe	-10.9389
▁bru	-10.9389
▁sráid	-10.9389
▁Tarchuir	-10.939
▁gáma	-10.939
▁2008	-10.9391
aisinéir	-10.9391
▁gcoimisiún	-10.9392
teocht	-10.9393
▁Brú	-10.9393
▁teastais	-10.9394
bhé	-10.9394
▁déantús	-10.9395
▁dhigiteacha	-10.9395
▁Cóir	-10.9396
▁cruthú	-10.9396
▁nochtú	-10.9397
reim	-10.9397
▁Beart	-10.9399
chen	-10.94
▁teilifíse	-10.9402
▁peile	-10.9402
▁stad	-10.9402
▁stra	-10.9402
▁290	-10.9403
▁tábhachta	-10.9403
▁beta	-10.9403
angio	-10.9405
▁stáisiú	-10.9405
▁ollmhargaí	-10.9406
▁cinntí	-10.9407
▁díghalráin	-10.9408
▁ceallacha	-10.9409
▁Ghlan	-10.941
▁shraith	-10.941
▁Clo	-10.9411
▁thromchúiseacha	-10.9411
▁brisea	-10.9412
cfr	-10.9416
▁cúiseach	-10.9416
thosca	-10.9423
cáilte	-10.9424
▁caiteacha	-10.9424
▁chroí	-10.9424
▁fhilleadh	-10.9425
ney	-10.9443
▁catar	-10.9443
▁machna	-10.9448
hino	-10.9448
▁cásca	-10.9449
▁iompróir	-10.9453
▁97	-10.9453
▁núicléach	-10.9455
▁osha	-10.9459
▁tosaíochta	-10.946
ainiú	-10.9465
▁iarratas	-10.9466
▁teip	-10.9469
▁dru	-10.9473
▁10,000	-10.9474
▁5,000	-10.9476
mit	-10.9479
▁séala	-10.9479
epi	-10.9488
▁bhfear	-10.9489
▁chac	-10.949
2,5	-10.9493
▁scríb	-10.9494
phob	-10.9498
▁choitianta	-10.9503
▁ionrach	-10.9503
▁gorta	-10.9509
▁uaslódá	-10.951
▁chro	-10.9511
▁cúirte	-10.9516
vel	-10.9525
98	-10.9525
▁fhíorú	-10.9539
téachtá	-10.9547
rrt	-10.9547
▁3,4	-10.9549
▁fhostóirí	-10.955
▁mais	-10.955
▁foilsithe	-10.9551
▁ranna	-10.9561
fer	-10.9563
▁ceadúnai	-10.9564
▁ainsealacha	-10.9574
▁comhch	-10.9589
▁nideo	-10.9592
▁eitilte	-10.9592
▁príobháideachas	-10.9593
póna	-10.9596
leog	-10.9596
▁taistealaí	-10.9607
cmr	-10.9609
eipidéimeolaithe	-10.961
▁scéal	-10.9622
aidri	-10.9623
▁Lú	-10.9631
55	-10.9641
bheirt	-10.9644
faisnéis	-10.9654
▁cruach	-10.9664
lúbtha	-10.9668
▁cro	-10.9669
▁rann	-10.9681
▁spáinne	-10.9687
▁son	-10.9702
idhmeanna	-10.9714
asti	-10.9714
▁neamhspleácha	-10.9715
itéir	-10.972
ream	-10.972
mhair	-10.9721
mhargaí	-10.9736
▁íogaire	-10.9739
▁príosúnach	-10.9741
▁pol	-10.9776
eachtais	-10.9781
402	-10.9799
erálaithe	-10.9799
204	-10.9813
paráid	-10.9824
▁fhada	-10.9824
▁mhara	-10.983
íoctha	-10.9838
32	-10.9848
1.8	-10.9875
▁phrótaca	-10.9876
▁1.1	-10.9889
▁gceadó	-10.99
ghai	-10.9908
,534	-10.9954
▁dhaon	-10.9968
▁thos	-10.9976
eadófa	-10.9994
pho	-10.9997
▁4,92	-11.0011
▁críosta	-11.0011
▁dow	-11.0017
▁phor	-11.0034
▁ríomhaire	-11.0036
pheic	-11.0038
éifeacht	-11.0038
▁thástála	-11.0044
▁chuimsithe	-11.0057
gel	-11.0068
▁mothúchá	-11.0099
▁chod	-11.0128
3.0	-11.0134
phríobháideachas	-11.0144
▁3,3	-11.0148
90	-11.0158
▁áracha	-11.0159
▁freagracht	-11.018
ríoga	-11.022
ltaí	-11.0233
▁2,1	-11.026
íocaíochta	-11.0263
cca	-11.0272
▁spi	-11.0292
thriú	-11.0303
insí	-11.0343
▁1.4	-11.0348
▁timpeallacht	-11.0349
▁chol	-11.0349
▁iarrfa	-11.0352
▁aistr	-11.0363
▁dife	-11.0364
▁179	-11.0372
▁Scrios	-11.0399
▁síc	-11.0409
leata	-11.0435
altraí	-11.0534
▁mear	-11.0536
tuirseach	-11.0543
▁mbail	-11.0549
▁ndéanf	-11.0572
▁2,5	-11.058
▁fhoinsí	-11.0595
oltar	-11.0603
▁ghu	-11.0627
▁sraiththástá	-11.0664
únaí	-11.0725
▁mhéadaitheach	-11.0732
ionsaí	-11.0741
28	-11.0764
▁mao	-11.0766
2.4%	-11.0824
▁foirml	-11.084
tura	-11.0844
▁4,1	-11.0851
píní	-11.0861
aglaisí	-11.0977
11	-11.1001
▁cothaithe	-11.1018
9)	-11.1057
isceacht	-11.106
amáin	-11.1071
▁1201	-11.1091
allaí	-11.1091
rean	-11.111
▁kin	-11.1121
bhailí	-11.1121
▁troi	-11.1165
cheall	-11.1191
▁bio	-11.1192
-2)	-11.1253
▁cosúla	-11.1282
▁ionchód	-11.1295
den	-11.1344
eachtaireachtaí	-11.1377
▁shá	-11.1382
tho	-11.1405
▁aistrí	-11.1428
dteistiméireacht	-11.1436
5,3	-11.1437
bup	-11.1462
seir	-11.1471
vid	-11.1473
▁idirghníomh	-11.1534
íocaíocht	-11.155
▁cheadaí	-11.1558
▁iompa	-11.1583
▁Chead	-11.1632
▁tra	-11.1636
ghníomhaíocht	-11.1653
▁loch	-11.1655
▁meal	-11.1659
leanáil	-11.171
▁cumhdai	-11.1718
108	-11.1737
eamhriachtanacha	-11.1739
cti	-11.1747
41	-11.1764
▁féad	-11.1784
yw	-11.1788
8%)	-11.1835
▁ceadaío	-11.1875
impí	-11.1885
mheasta	-11.1933
umas	-11.1971
▁dicl	-11.2032
aisnéis	-11.2038
▁meicn	-11.2044
▁bunscoil	-11.2046
himpl	-11.2063
▁cear	-11.2064
▁uath	-11.2069
árta	-11.207
ofen	-11.2096
roim	-11.2098
éadrach	-11.2106
agu	-11.2116
riail	-11.2138
cheantar	-11.2141
iocht	-11.2153
▁geall	-11.2177
ámha	-11.2184
▁príosún	-11.2192
con	-11.2204
▁struchtúr	-11.2204
1,8	-11.2224
tiocfa	-11.2229
▁dhéan	-11.2245
▁Roinnt	-11.2257
▁cheist	-11.226
▁fheicf	-11.23
uairteanna	-11.2327
ks	-11.2353
óim	-11.2357
oibrí	-11.2367
chuir	-11.2415
▁gcaithfea	-11.2425
bal	-11.243
nsin	-11.2437
choitianta	-11.2485
▁treo	-11.2485
▁leochail	-11.2486
orgán	-11.249
▁bhean	-11.2493
ealaíon	-11.2494
shábháilteacht	-11.2495
fhachtóir	-11.2496
aspa	-11.2498
fhoins	-11.2498
oideas	-11.2498
▁suntasa	-11.2499
ionrach	-11.2499
ráta	-11.2499
chontae	-11.25
buidéil	-11.25
shuí	-11.2503
biontech	-11.2504
thuairisciú	-11.2504
saotharlann	-11.2505
réimsí	-11.2505
riachtana	-11.2505
déanamh	-11.2506
pfizer	-11.2506
chóras	-11.2506
thorthaí	-11.2507
▁4,0	-11.2507
diúltach	-11.2508
ailse	-11.2509
D	-11.251
cúram	-11.2511
shonraí	-11.2513
ionfhabhtaithe	-11.2516
95%	-11.2519
asca	-11.252
chineál	-11.2524
▁móilín	-11.2525
pian	-11.2536
fhad	-11.2544
iarrthóir	-11.2544
stáit	-11.255
chlár	-11.2556
ocsaineacht	-11.2583
fad	-11.2584
▁shan	-11.2594
▁chónaithe	-11.2599
▁díghalrá	-11.26
isiún	-11.2601
teorainn	-11.2601
▁fhiabhra	-11.2609
isghabh	-11.261
▁ollmharga	-11.2617
▁dhromchla	-11.262
▁tionsc	-11.2621
▁teilifís	-11.2623
iarmhairt	-11.2623
▁Taispeá	-11.2624
thóir	-11.2625
ógart	-11.2626
▁phataigin	-11.2627
chruth	-11.2629
chreidte	-11.2629
▁seice	-11.263
▁spíc	-11.263
▁Gartheagmhá	-11.2631
▁dhigiteach	-11.2632
▁dífhostaíocht	-11.2633
remi	-11.2634
▁leabharlann	-11.2635
iaibéiteas	-11.2637
▁pail	-11.2638
omhain	-11.2639
▁cait	-11.2639
clúidí	-11.2643
▁pé	-11.2645
corp	-11.2645
▁ndún	-11.2649
ité	-11.2649
áithreacha	-11.265
▁dóchúla	-11.265
glais	-11.2653
eangal	-11.2656
éantús	-11.2657
orthaí	-11.266
▁ghéanóm	-11.2661
seapáin	-11.2662
▁chomhlíona	-11.2666
▁sraotharta	-11.2666
▁mheabhra	-11.2667
▁diúlt	-11.2667
▁brusca	-11.2669
▁ngnáth	-11.2669
▁athmhol	-11.267
onsalacht	-11.2671
ógálach	-11.2671
aíochtaí	-11.2673
lóthach	-11.2674
▁tionscada	-11.2677
obail	-11.2677
bailt	-11.2678
▁riar	-11.2678
reabh	-11.2678
▁gcait	-11.2678
▁speisial	-11.2678
▁aithin	-11.2679
▁dhifriú	-11.2679
▁domhna	-11.2679
oigeart	-11.268
▁zónóis	-11.2681
rithghníomh	-11.2681
▁siomptó	-11.2681
liuch	-11.2681
adtéarmach	-11.2681
orleathan	-11.2681
onatóireacht	-11.2682
▁mbunscoil	-11.2683
eagasc	-11.2684
▁tiom	-11.2684
▁coronaviri	-11.2685
úshláin	-11.2685
upro	-11.2686
lúine	-11.2686
hiodráitithe	-11.2686
▁comhrá	-11.2686
stoc	-11.2686
▁2,6	-11.2687
ghníomhach	-11.2687
▁thrá	-11.2687
▁Tuairiscí	-11.2687
onarcha	-11.2688
profen	-11.2688
▁fheabh	-11.2688
caighdeán	-11.2688
▁sraoth	-11.2688
▁neamhchinnte	-11.2688
07.2	-11.2688
adanaivíreas	-11.2688
aireofá	-11.2688
alveolar	-11.2688
coincheap	-11.2688
custaiméirí	-11.2688
cóngarach	-11.2688
eitibileach	-11.2688
fheicthe	-11.2688
hormónach	-11.2688
nbhraite	-11.2688
oréigneach	-11.2688
oslódá	-11.2688
rioblóid	-11.2688
áipéis	-11.2688
▁Gníomhair	-11.2688
▁Gníomhaíochta	-11.2688
▁Iobúpróifein	-11.2688
▁Niúmóine	-11.2688
▁Oid	-11.2688
▁Ospidéal	-11.2688
▁Pictiúrlanna	-11.2688
▁Réamh	-11.2688
▁Tionól	-11.2688
▁abbott	-11.2688
▁acadúil	-11.2688
▁allamuigh	-11.2688
▁antartaice	-11.2688
▁associat	-11.2688
▁athbheochan	-11.2688
▁athmhúnl	-11.2688
▁bhfabhar	-11.2688
▁bhíobla	-11.2688
▁capsúil	-11.2688
▁chairtchlár	-11.2688
▁chugainn	-11.2688
▁chustaiméirí	-11.2688
▁colaistéaró	-11.2688
▁cornell	-11.2688
▁coronavac	-11.2688
▁círéib	-11.2688
▁dhiúltú	-11.2688
▁dhosmálta	-11.2688
▁doorknob	-11.2688
▁dtaispeánta	-11.2688
▁dubai	-11.2688
▁dúlaga	-11.2688
▁eatramhach	-11.2688
▁fabhrach	-11.2688
▁fallaingeacha	-11.2688
▁fhorfheidhmiú	-11.2688
▁folctha	-11.2688
▁forásach	-11.2688
▁fostaíochta	-11.2688
▁féintuairisci	-11.2688
▁ghairdín	-11.2688
▁giomnáis	-11.2688
▁gruagairí	-11.2688
▁huathoibríoch	-11.2688
▁inathraithe	-11.2688
▁infhéitheach	-11.2688
▁iobúproifein	-11.2688
▁iomchuí	-11.2688
▁iompraíochta	-11.2688
▁limficítí	-11.2688
▁lombaird	-11.2688
▁lombardia	-11.2688
▁louis	-11.2688
▁luimnigh	-11.2688
▁lóistíocht	-11.2688
▁melbourne	-11.2688
▁mhalaeisia	-11.2688
▁máguaird	-11.2688
▁múchadh	-11.2688
▁neamhchinntithe	-11.2688
▁neamhshlándá	-11.2688
▁ngréasán	-11.2688
▁peirse	-11.2688
▁phláinéid	-11.2688
▁phláta	-11.2688
▁phoibliú	-11.2688
▁phutóige	-11.2688
▁péidiatraice	-11.2688
▁póilió	-11.2688
▁romhat	-11.2688
▁runny	-11.2688
▁saighdiúirí	-11.2688
▁sentinel	-11.2688
▁shaoráid	-11.2688
▁shlándáil	-11.2688
▁sholáthró	-11.2688
▁shíceolaíoch	-11.2688
▁siomtóm	-11.2688
▁spriocdhírithe	-11.2688
▁sróine	-11.2688
▁substaintiúil	-11.2688
▁sólá	-11.2688
▁tairiscint	-11.2688
▁talmhaíochta	-11.2688
▁thimpiste	-11.2688
▁thoirchis	-11.2688
▁thriomú	-11.2688
▁tochasacha	-11.2688
▁trenton	-11.2688
▁tslaghdáin	-11.2688
▁tsualainn	-11.2688
▁ullamh	-11.2688
▁urlacan	-11.2688
▁vaicsaín	-11.2688
▁zhou	-11.2688
▁zimmerman	-11.2688
liceáil	-11.2688
▁athchúrsá	-11.2688
▁club	-11.2688
▁dídean	-11.2688
▁fáisc	-11.2688
▁hypox	-11.2688
▁sreang	-11.2688
aitsilé	-11.2688
ocsaíd	-11.2688
onghabháil	-11.2688
▁bheatha	-11.2688
▁capita	-11.2688
▁clóirín	-11.2688
▁corovirus	-11.2688
▁fiaclóireachta	-11.2688
▁health	-11.2688
▁henry	-11.2688
▁lucia	-11.2688
▁líomhna	-11.2688
▁medina	-11.2688
▁mhongóil	-11.2688
▁ngéanó	-11.2688
▁scuain	-11.2688
▁shaineola	-11.2688
▁sualainne	-11.2688
▁tromchúisí	-11.2688
▁vivo	-11.2688
ghnách	-11.2688
▁gairmiúil	-11.2688
▁gcaitheamh	-11.2688
▁hidéalach	-11.2688
▁maidrid	-11.2688
▁panama	-11.2688
▁riníteas	-11.2688
▁Dáileoga	-11.2688
▁Sampla	-11.2688
▁bplá	-11.2688
▁comhdhálacha	-11.2688
▁eisiamh	-11.2688
▁faeca	-11.2688
▁fauc	-11.2688
▁fuinnimh	-11.2688
▁ghartheagmháil	-11.2688
▁hearnála	-11.2688
▁háitiúil	-11.2688
▁idirbhirt	-11.2688
▁lonnaithe	-11.2688
▁mhóilíneach	-11.2688
thréimhs	-11.2688
▁Tairg	-11.2688
▁ambasáid	-11.2688
▁eachtrannaigh	-11.2688
▁gnímh	-11.2688
▁luasghéa	-11.2688
▁teampa	-11.2688
fhillte	-11.2688
ocyto	-11.2688
▁dhiagnóiseach	-11.2688
flam	-11.2688
▁damhsa	-11.2688
▁gailf	-11.2688
▁sicíní	-11.2688
▁téachtadh	-11.2688
▁0.1%	-11.2688
▁tharscaoileadh	-11.2688
▁thréigean	-11.2688
iúdachas	-11.2688
oradán	-11.2688
▁cuáit	-11.2688
▁heagraíochta	-11.2688
▁mháinliacht	-11.2688
▁sprae	-11.2688
▁times	-11.2688
▁ultra	-11.2688
▁thrasna	-11.2688
▁onnmhair	-11.2688
▁stóra	-11.2688
buíochas	-11.2688
▁chónaidhm	-11.2688
cheimice	-11.2688
▁coirp	-11.2688
▁dánlanna	-11.2688
▁iorua	-11.2688
gnáthuaireanta	-11.2688
phragh	-11.2688
▁Gné	-11.2688
▁bruitíní	-11.2688
▁gréine	-11.2688
▁bréagach	-11.2688
▁glasraí	-11.2688
▁android	-11.2688
▁tréimhsiúil	-11.2688
▁pictiúrlanna	-11.2688
hráma	-11.2688
coimpléasc	-11.2688
inflamma	-11.2688
▁comhlántach	-11.2688
▁féinmharú	-11.2688
▁plu	-11.2688
▁ríomhphost	-11.2688
▁bonaire	-11.2688
▁mheán	-11.2688
▁siúcra	-11.2688
▁oirdheisc	-11.2688
▁láirge	-11.2688
▁athlas	-11.2688
▁veid	-11.2688
▁thirim	-11.2688
▁mbraithfe	-11.2688
▁fhadhb	-11.2688
▁fast	-11.2688
bhrost	-11.2688
▁seiceálacha	-11.2688
syn	-11.2688
pleura	-11.2688
▁daonnú	-11.2688
▁mheánoirthear	-11.2688
bhfostú	-11.2688
▁gcód	-11.2688
clóiríd	-11.2688
▁Siúl	-11.2688
▁laoise	-11.2688
eideal	-11.2688
omhand	-11.2688
▁bearna	-11.2688
▁praiticiú	-11.2688
▁thaighde	-11.2688
vision	-11.2688
▁ceimi	-11.2688
▁ndeir	-11.2688
▁chónaitheora	-11.2688
▁hannamh	-11.2688
céadfach	-11.2688
▁Teip	-11.2688
▁mhicreascóp	-11.2688
▁Masc	-11.2689
▁ambas	-11.2689
ghníomhachtú	-11.2689
▁chiúin	-11.2689
▁Cuar	-11.2689
shamhla	-11.2689
▁monarchan	-11.2689
neamhéifeachtach	-11.2689
▁league	-11.2689
▁tsráid	-11.2689
▁naíolann	-11.2689
▁péire	-11.2689
▁albáin	-11.2689
▁aonúsáide	-11.2689
▁politico	-11.2689
▁teag	-11.2689
▁phlúchta	-11.2689
▁Cuairteoirí	-11.2689
aitéis	-11.2689
▁buntáist	-11.2689
▁marbhlainne	-11.269
▁dóchasach	-11.269
▁cheilt	-11.269
▁Sábháilteacht	-11.269
cryo	-11.269
▁Córa	-11.269
▁canadh	-11.269
dóra	-11.269
▁guth	-11.269
▁saorghlao	-11.269
▁suimiúil	-11.269
▁pun	-11.269
ghlactha	-11.269
▁223,	-11.269
▁priontá	-11.269
▁glantach	-11.269
▁tithíocht	-11.269
coronavirinae	-11.269
▁díréireach	-11.269
▁teasa	-11.2691
▁shuiteáil	-11.2691
▁massa	-11.2691
▁staidiam	-11.2691
▁contr	-11.2691
▁gcontúirt	-11.2691
▁súl	-11.2691
▁sheasamh	-11.2691
tóireachta	-11.2691
▁threocht	-11.2691
▁242,	-11.2691
▁chluas	-11.2691
▁anatamaíocht	-11.2691
agrach	-11.2691
▁caoineadh	-11.2691
▁thoircheas	-11.2691
▁Díghalrán	-11.2691
▁sheic	-11.2692
athúsáidte	-11.2692
▁cianfhoghlaim	-11.2692
▁dhéanaimid	-11.2692
▁plaisteach	-11.2692
▁úcráin	-11.2692
▁eitleáin	-11.2692
nged	-11.2692
ócaireacht	-11.2692
corv	-11.2692
▁foirc	-11.2693
▁Ceadaí	-11.2693
8,9	-11.2693
▁fostóir	-11.2693
▁Freag	-11.2693
media	-11.2693
▁fein	-11.2693
ronntanas	-11.2693
▁sneaiceanna	-11.2693
▁bialann	-11.2693
▁247,	-11.2694
▁seasmhachta	-11.2694
abháil	-11.2694
▁ju	-11.2694
▁iarthair	-11.2694
▁Brisea	-11.2694
▁dhúshláin	-11.2695
leve	-11.2695
▁chothaith	-11.2695
▁víosa	-11.2695
-7.2	-11.2695
▁mhíniú	-11.2695
raoin	-11.2695
▁5.7	-11.2695
▁foilseachá	-11.2695
▁margaíocht	-11.2695
▁fóill	-11.2695
▁mbreathn	-11.2695
▁6,1	-11.2695
eangail	-11.2696
▁bharda	-11.2696
seoir	-11.2697
toirte	-11.2697
▁1968	-11.2697
▁choigeart	-11.2698
▁subgen	-11.2698
láithr	-11.2698
istan	-11.2698
▁dhlí	-11.2698
▁míchompordach	-11.2698
▁Sars	-11.2698
▁comórta	-11.2699
iars	-11.2699
▁2,8	-11.2699
▁fíorúil	-11.2699
▁breathnóireacht	-11.27
▁hacmhainn	-11.27
▁3,2	-11.27
▁Braoiníní	-11.2701
▁oid	-11.2701
▁daingean	-11.2701
rew	-11.2701
íolúine	-11.2702
▁mairf	-11.2702
ather	-11.2702
▁251,	-11.2703
▁sliocht	-11.2704
▁ghabháil	-11.2704
▁Dromchlaí	-11.2704
▁corticosteroidí	-11.2704
nshan	-11.2705
impeach	-11.2705
▁dún	-11.2705
▁tharlú	-11.2705
fhigiú	-11.2706
▁1960	-11.2706
▁Cosnaí	-11.2706
▁1,4	-11.2706
,800	-11.2706
▁urra	-11.2707
▁spórt	-11.2707
▁chríochnú	-11.2707
▁ainmniú	-11.2707
ongó	-11.2708
thoitín	-11.2708
▁rothaí	-11.2708
7.4%	-11.2708
dualga	-11.2709
▁Scaipeadh	-11.2709
▁dúis	-11.2711
▁fhánach	-11.2712
icín	-11.2712
▁samplála	-11.2712
▁bhfoins	-11.2712
▁fheidhmiú	-11.2712
▁fema	-11.2712
icme	-11.2713
thiom	-11.2713
face	-11.2713
▁foll	-11.2714
▁brúnna	-11.2714
▁gluaiseachtaí	-11.2714
ivíreas	-11.2715
▁brón	-11.2715
▁Coinneoi	-11.2715
1.61	-11.2716
▁sheachai	-11.2717
▁gcíoch	-11.2717
raenach	-11.2717
▁cháis	-11.2717
laisteach	-11.2718
▁sceidealta	-11.2718
▁2004	-11.2719
▁1918	-11.2719
▁Béal	-11.2721
▁6.30	-11.2721
▁sáraithe	-11.2722
alóg	-11.2722
▁amnes	-11.2723
way	-11.2723
▁Nocht	-11.2724
▁néareolaíocha	-11.2724
▁dhos	-11.2724
▁Clár	-11.2724
▁bhall	-11.2724
atama	-11.2726
▁dóchúlacht	-11.2726
▁gcuideachta	-11.2726
▁measúnaithe	-11.2728
▁gcleachtais	-11.2728
▁heaglaise	-11.2729
scríofa	-11.2729
▁heipidéime	-11.2729
▁mórimeacht	-11.273
▁243,	-11.273
gnáthshaol	-11.2732
▁inter	-11.2732
▁457	-11.2732
antas	-11.2733
▁Rialacha	-11.2733
9,33	-11.2734
▁lom	-11.2737
▁gcomhar	-11.2739
▁báistí	-11.2739
▁ngá	-11.274
▁scam	-11.2741
▁hoifig	-11.2743
chobhsaí	-11.2743
▁chomparáid	-11.2744
▁gníomhaí	-11.2746
pholaiteoirí	-11.275
▁mcen	-11.2751
▁capa	-11.2755
▁mosc	-11.2757
▁faire	-11.2758
spot	-11.2759
▁gaol	-11.2762
▁méar	-11.2762
▁hum	-11.2762
▁cou	-11.2764
▁buan	-11.2766
▁thuiscint	-11.2766
aonchineálach	-11.2766
▁athchui	-11.2767
▁Lo	-11.2768
▁Nó	-11.2768
omhdháil	-11.277
▁mhiondíola	-11.277
▁droim	-11.2775
▁0.2	-11.2775
liachta	-11.278
▁chomhlacht	-11.278
▁bóthar	-11.2781
eataí	-11.2786
▁saibh	-11.2787
bairt	-11.2788
▁cúramóir	-11.2788
▁cíoch	-11.2788
98%	-11.2788
▁dheimhnithe	-11.279
▁neamhsh	-11.2792
▁mul	-11.2792
isinéir	-11.2792
illiún	-11.2796
▁kat	-11.2796
igeach	-11.2804
▁leithdháil	-11.2805
2,94	-11.281
▁iris	-11.281
éasadh	-11.2811
▁inse	-11.2814
▁críochna	-11.2815
íomháú	-11.2819
▁fuinneo	-11.282
mia	-11.282
uel	-11.2821
▁fisiciú	-11.2822
laise	-11.283
séasú	-11.283
virus	-11.2832
▁fhac	-11.2833
▁01	-11.2834
.7%)	-11.284
heith	-11.2842
cing	-11.2845
▁Deara	-11.2848
▁cliniceoir	-11.2851
scaill	-11.286
▁Baint	-11.2867
beáir	-11.2871
▁rathúla	-11.2871
7,6	-11.2872
▁stua	-11.2879
▁leanúna	-11.2885
▁broncho	-11.2888
▁spái	-11.2894
▁Tacaíocht	-11.2899
fp	-11.2903
▁moth	-11.2905
▁réamhph	-11.2912
2,30	-11.2916
▁móilíneach	-11.2918
▁aimsir	-11.292
ilíneachta	-11.2921
▁dhéanf	-11.2925
bunlíne	-11.2934
▁spé	-11.2935
íosta	-11.2937
▁ghnótha	-11.2943
lasma	-11.2948
▁ailléirgeach	-11.2963
ionsclaíoch	-11.2981
ovirus	-11.2993
▁roghnach	-11.3004
athróid	-11.3013
taigine	-11.3016
substaintí	-11.3025
▁riana	-11.3042
▁3,7	-11.3052
▁easc	-11.3055
▁Slaghdá	-11.306
thromb	-11.3064
▁marthan	-11.3066
síneach	-11.309
lab	-11.3104
▁próiseáil	-11.3107
8,7	-11.3132
ardaithe	-11.3134
▁Forbrói	-11.3172
oirmiúil	-11.3197
uimilt	-11.3216
▁féidearthachta	-11.3221
75%	-11.3236
allach	-11.3241
▁254,	-11.325
▁bhféad	-11.3262
ástacht	-11.3281
onadh	-11.3283
geallta	-11.3296
9,32	-11.3302
▁phróiseáil	-11.3308
agraíocht	-11.3311
haidh	-11.3314
▁bhfan	-11.3326
▁uachtará	-11.3327
omhdhúil	-11.3335
eabharlanna	-11.3351
ria	-11.3358
▁Scrúd	-11.3374
rithghiniúint	-11.3374
unús	-11.3414
▁sca	-11.3433
chumarsáide	-11.3439
▁scia	-11.3462
aiféanna	-11.3486
▁teirm	-11.3487
▁269,	-11.3551
▁Cruthaío	-11.3557
ki	-11.3561
▁6,5	-11.3561
mhv	-11.3579
▁theiripeach	-11.3607
▁nóimé	-11.3669
▁mhama	-11.3678
cmo	-11.3693
heiscea	-11.3712
4,3	-11.3763
189	-11.3767
stálacha	-11.3784
▁bhailiúchá	-11.38
▁fuai	-11.3823
▁4,78	-11.3862
▁caifé	-11.3908
jin	-11.3943
omhthéacs	-11.3959
lgi	-11.3966
▁uast	-11.3974
▁oibriúchá	-11.4018
1.5	-11.4141
ósta	-11.4164
ostas	-11.4182
▁dhia	-11.4188
tori	-11.4211
lúthpháirtíocht	-11.4213
▁Sín	-11.4217
▁hionsa	-11.4235
athoscailt	-11.4304
▁bunaíochta	-11.4317
wall	-11.4379
▁ionchóda	-11.4401
ororda	-11.4415
feabhsa	-11.4499
▁dtitfe	-11.4517
▁3,6	-11.4592
huail	-11.4614
▁mhaol	-11.463
▁socraío	-11.4694
áithníní	-11.4745
▁socró	-11.4788
itíní	-11.4799
▁bhfé	-11.4892
▁tsea	-11.49
▁trédhearcach	-11.4903
▁Mha	-11.4915
▁mboga	-11.4954
▁neamhshonra	-11.5016
▁2.4	-11.5029
▁hais	-11.5043
acmhainneacht	-11.5103
athoscló	-11.5155
▁gcomhair	-11.5196
eirbhísí	-11.52
chomhair	-11.5215
▁dtitf	-11.5268
▁cumh	-11.5417
acadói	-11.5456
ongfort	-11.5469
▁chói	-11.5486
▁Cleacht	-11.5507
tugtar	-11.5518
▁ei	-11.5532
▁réamhscoil	-11.5532
artheagmhálaithe	-11.554
▁bpacáist	-11.5634
▁cleacht	-11.5655
criosann	-11.566
raiththástálacha	-11.5678
gairt	-11.5692
éifeachta	-11.5729
luain	-11.5757
▁mheabhrú	-11.5771
▁radagrafaíocht	-11.5774
▁tsai	-11.5809
comhthéacs	-11.5902
▁aimsí	-11.5953
▁bunaíocht	-11.5986
▁béi	-11.5996
eabhra	-11.6159
▁dtabharf	-11.6164
▁Oscail	-11.6204
▁Fógra	-11.6214
fip	-11.6298
▁fhágfa	-11.6398
phre	-11.6408
héad	-11.6412
ovira	-11.6426
▁gceal	-11.6433
éiginnteacht	-11.6526
rótacal	-11.659
ronch	-11.6593
trasna	-11.6622
▁frithghiniú	-11.6652
3,8	-11.667
▁imoibr	-11.6734
ógáil	-11.6772
▁sásta	-11.6799
▁cuim	-11.6815
0,7	-11.6835
▁dhea	-11.6841
▁íogair	-11.6864
▁mharg	-11.6871
▁nuashonr	-11.6895
▁natur	-11.6902
oibriú	-11.6955
▁cean	-11.7096
irmiú	-11.7143
▁Deimhní	-11.7174
▁dheirean	-11.7177
héan	-11.7185
▁beath	-11.7203
roith	-11.722
mat	-11.722
húinse	-11.7229
▁ailléirge	-11.7254
▁fhíor	-11.7281
thástála	-11.7298
riz	-11.7315
mharclanna	-11.7322
▁homalóg	-11.7328
naithnid	-11.7344
▁príobháideach	-11.7364
▁8,0	-11.7366
uaidh	-11.739
údar	-11.7415
shaol	-11.7426
▁misin	-11.7433
▁tiomáin	-11.7434
▁núicléa	-11.7463
gníomh	-11.7465
mhainneachta	-11.7485
airgead	-11.7487
iméada	-11.7491
aimsithe	-11.7492
orgáin	-11.7492
taibhithe	-11.7492
paindéim	-11.7494
tiomáint	-11.7496
idirlíon	-11.7498
phost	-11.7498
ghabhdóir	-11.7498
▁tuairim	-11.7498
uirlis	-11.7499
ospidéil	-11.7499
iii	-11.7499
uisce	-11.75
comhpháirt	-11.75
éabhlóid	-11.75
phian	-11.75
ghlasáil	-11.75
sceideal	-11.75
amhlaidh	-11.75
teachtaireacht	-11.7501
oiliúint	-11.7501
trácht	-11.7503
ábalta	-11.7503
sinsear	-11.7503
eagla	-11.7504
páirt	-11.7504
náisiúnta	-11.7504
seomra	-11.7505
iontráil	-11.7506
osha	-11.7506
ollscoileanna	-11.7506
phróitéin	-11.7506
éigeandáil	-11.7507
láimhseáil	-11.7507
ghlanadh	-11.7508
rcgp	-11.7508
sampla	-11.7509
anailís	-11.7509
leagan	-11.7509
láimhe	-11.7509
éigeandála	-11.751
shláinte	-11.751
fiabhras	-11.751
ghalair	-11.7511
mhuin	-11.7511
sóisialta	-11.7511
dearfach	-11.7511
fhéadfa	-11.7511
dhéanamh	-11.7511
’	-11.7512
sláinte	-11.7512
suas	-11.7513
éigeantach	-11.7514
áireamh	-11.7515
deacair	-11.7517
easamh	-11.7518
croí	-11.752
fógra	-11.7522
achtarán	-11.7523
▁3,0	-11.7531
ghnáth	-11.7535
ilead	-11.7543
▁uai	-11.7544
oíche	-11.7545
onchóda	-11.7554
acainn	-11.756
ompróir	-11.7565
idirghabhála	-11.7576
▁idirmheána	-11.7578
ttp	-11.7593
▁ghníomha	-11.76
▁géinit	-11.76
▁heipidéim	-11.7602
▁Cuim	-11.7609
▁Rial	-11.7614
▁thura	-11.7617
eacracht	-11.7624
▁scíth	-11.7624
▁múinteoir	-11.7624
▁cuairteoir	-11.7624
▁néareolaíoch	-11.763
▁solúbthacht	-11.7634
▁amharclann	-11.7635
▁reiligiúnach	-11.7636
angla	-11.764
dwa	-11.7642
amáiste	-11.7643
sholáthraí	-11.7651
gníomhaireacht	-11.7652
▁scáileá	-11.7655
oircheas	-11.7655
conspóid	-11.7655
▁chríochn	-11.7657
cent	-11.7657
▁Lagh	-11.7659
ork	-11.766
eileafóin	-11.766
náithe	-11.766
oirmisc	-11.7661
ráchtála	-11.7661
▁dhochtú	-11.7662
▁choróinvír	-11.7667
▁gcarr	-11.7668
reathnóireacht	-11.7669
▁meabhr	-11.7669
▁láimhseá	-11.7669
▁míchompord	-11.7671
oibreo	-11.7671
arraing	-11.7671
eolchoirmeacha	-11.7671
ásmhaireacht	-11.7671
▁gcógas	-11.7672
omórta	-11.7672
ritic	-11.7672
▁béa	-11.7674
hfuil	-11.7674
▁maireachtá	-11.7674
eisiúin	-11.7674
▁chlu	-11.7675
▁pearsan	-11.7676
chomhairleoir	-11.7677
▁seasmhach	-11.7678
reidmheasa	-11.7678
neaiceanna	-11.7679
▁uirth	-11.7679
▁sóisial	-11.7679
airmheán	-11.7679
oghluaiste	-11.768
taidéar	-11.768
▁codla	-11.768
ainaithníodh	-11.768
▁4,13	-11.768
rfacha	-11.7681
ghlacad	-11.7681
▁sícea	-11.7682
▁Díghalr	-11.7682
éireolaíocht	-11.7682
▁ceolchoirme	-11.7682
▁stró	-11.7682
eicheamh	-11.7682
baictéar	-11.7682
▁scát	-11.7683
▁Idir	-11.7683
▁práinn	-11.7684
laicint	-11.7684
áipéar	-11.7684
angolin	-11.7684
uspóir	-11.7685
▁Sábháilte	-11.7685
eadaithe	-11.7685
shampl	-11.7685
eithdháil	-11.7686
▁leabhar	-11.7686
vax	-11.7686
▁tuismitheo	-11.7686
uineachán	-11.7686
roichead	-11.7686
eitril	-11.7686
ótáil	-11.7687
▁seich	-11.7687
▁shoiléir	-11.7687
teanas	-11.7687
áchtáil	-11.7687
iticiúil	-11.7687
chathrach	-11.7687
eagai	-11.7687
▁diagn	-11.7687
uasghr	-11.7687
▁pictiúr	-11.7687
chothrom	-11.7688
láid	-11.7688
rscaoileadh	-11.7688
íolót	-11.7688
▁comhlán	-11.7688
eacnamaí	-11.7688
fiaclóir	-11.7688
ghlantóir	-11.7688
luaiste	-11.7688
shíomptómach	-11.7688
▁Údar	-11.7688
iodrocsaicloróic	-11.7688
íbhuntáist	-11.7688
▁Liatro	-11.7688
▁coimhlint	-11.7688
▁dhíhiodráiti	-11.7688
▁gluco	-11.7688
▁josep	-11.7688
▁mheicn	-11.7688
▁vatacáin	-11.7688
8,251	-11.7688
aimseartha	-11.7688
ainmneoir	-11.7688
caifitéire	-11.7688
chomhbhrúite	-11.7688
comirnaty	-11.7688
dublin	-11.7688
déifeachtúlachta	-11.7688
haemaróidí	-11.7688
híodráitiú	-11.7688
ioncrónaí	-11.7688
ionstraimí	-11.7688
ockdown	-11.7688
regula	-11.7688
shíneacha	-11.7688
sopropanol	-11.7688
uangdong	-11.7688
íteaplasma	-11.7688
▁2002-2004	-11.7688
▁221,64	-11.7688
▁Ceadúnas	-11.7688
▁Cocúnú	-11.7688
▁Contagio	-11.7688
▁Díhiodráitiú	-11.7688
▁Gaillimh	-11.7688
▁Gluaiseacht	-11.7688
▁Iobúproifein	-11.7688
▁Ionfhabhtaío	-11.7688
▁Músaeim	-11.7688
▁Príomh	-11.7688
▁Riospr	-11.7688
▁Rub	-11.7688
▁Ríomh	-11.7688
▁Scoileanna	-11.7688
▁Speicis	-11.7688
▁Sábhál	-11.7688
▁Taifead	-11.7688
▁Tráth	-11.7688
▁Tuirse	-11.7688
▁acadúla	-11.7688
▁aetóip	-11.7688
▁afganastáin	-11.7688
▁ainéistéise	-11.7688
▁atlanta	-11.7688
▁auckland	-11.7688
▁bearbóirí	-11.7688
▁bhfuinneog	-11.7688
▁bhfágfa	-11.7688
▁bhlainséir	-11.7688
▁bhliantúil	-11.7688
▁bhogearra	-11.7688
▁bhoilg	-11.7688
▁bhuinneach	-11.7688
▁borrell	-11.7688
▁bpríosú	-11.7688
▁bputóg	-11.7688
▁cadhnra	-11.7688
▁carbóin	-11.7688
▁chaipitl	-11.7688
▁chanáracha	-11.7688
▁chathaoir	-11.7688
▁choincheap	-11.7688
▁chultúr	-11.7688
▁cianrialtá	-11.7688
▁cluaise	-11.7688
▁cluas	-11.7688
▁coinneálachta	-11.7688
▁coirmeacha	-11.7688
▁comharsanach	-11.7688
▁comhfhreagracha	-11.7688
▁comhghaol	-11.7688
▁craobh	-11.7688
▁crispr	-11.7688
▁croineolaíoch	-11.7688
▁cuirfews	-11.7688
▁cultúir	-11.7688
▁cíbear	-11.7688
▁dhromhchla	-11.7688
▁dhéimeagrafa	-11.7688
▁dhíchriptiú	-11.7688
▁dromhchla	-11.7688
▁dtaisteala	-11.7688
▁díhiodraítithe	-11.7688
▁eatánól	-11.7688
▁endemic	-11.7688
▁epitheli	-11.7688
▁eustatius	-11.7688
▁fhuinneog	-11.7688
▁forimeallach	-11.7688
▁futuna	-11.7688
▁gceanada	-11.7688
▁gcruthó	-11.7688
▁gcuairteoir	-11.7688
▁ghebreyesus	-11.7688
▁gheografach	-11.7688
▁gruagaire	-11.7688
▁grád	-11.7688
▁hantai	-11.7688
▁heitilt	-11.7688
▁hidrigine	-11.7688
▁hollscoil	-11.7688
▁híseal	-11.7688
▁iarbhír	-11.7688
▁ildisciplíneach	-11.7688
▁insamhalta	-11.7688
▁iobúproiféin	-11.7688
▁iveagh	-11.7688
▁journal	-11.7688
▁kolkata	-11.7688
▁labcorp	-11.7688
▁london	-11.7688
▁luathfhoghlama	-11.7688
▁lucsamburg	-11.7688
▁lymphopenia	-11.7688
▁macasamhail	-11.7688
▁meerjady	-11.7688
▁meiteashonr	-11.7688
▁meánioncaim	-11.7688
▁mhaláiv	-11.7688
▁mholdóiv	-11.7688
▁mhuilinn	-11.7688
▁mhuirís	-11.7688
▁mhórscála	-11.7688
▁monoclónacha	-11.7688
▁mountjoy	-11.7688
▁neodrú	-11.7688
▁núicléasíd	-11.7688
▁oibleagáid	-11.7688
▁oklahoma	-11.7688
▁phalaistín	-11.7688
▁preasagalla	-11.7688
▁press	-11.7688
▁próifíl	-11.7688
▁putóige	-11.7688
▁racún	-11.7688
▁reiligiúin	-11.7688
▁ribín	-11.7688
▁sanitizer	-11.7688
▁scamhóige	-11.7688
▁scríbhneoir	-11.7688
▁seattle	-11.7688
▁shainaithin	-11.7688
▁shainaithní	-11.7688
▁shealadacha	-11.7688
▁shedding	-11.7688
▁shraothartach	-11.7688
▁socheacnamaíoch	-11.7688
▁soithíoch	-11.7688
▁sráidbhaile	-11.7688
▁timthriall	-11.7688
▁tipiciúil	-11.7688
▁tobága	-11.7688
▁toinníteas	-11.7688
▁truailleá	-11.7688
▁trópaiceach	-11.7688
▁tseirbia	-11.7688
▁tuircméanastáin	-11.7688
▁uisciúil	-11.7688
▁veiniséala	-11.7688
▁vitimín	-11.7688
▁vítneam	-11.7688
▁wenliang	-11.7688
▁wikipedia	-11.7688
sparta	-11.7688
▁bairille	-11.7688
▁thorthúlacht	-11.7688
leathach	-11.7688
núicléatíd	-11.7688
ognaíoch	-11.7688
phróifíl	-11.7688
▁5,143	-11.7688
▁Aeráil	-11.7688
▁Tuarascá	-11.7688
▁aeróba	-11.7688
▁amazon	-11.7688
▁bhforbr	-11.7688
▁borradh	-11.7688
▁broghais	-11.7688
▁cabhán	-11.7688
▁cnuasa	-11.7688
▁columbia	-11.7688
▁crios	-11.7688
▁dtuairisc	-11.7688
▁díbirt	-11.7688
▁díláraithe	-11.7688
▁fhisiciúil	-11.7688
▁flybe	-11.7688
▁gcoinníoll	-11.7688
▁gearmá	-11.7688
▁hiodrocsai	-11.7688
▁hoiriún	-11.7688
▁huanan	-11.7688
▁information	-11.7688
▁lipid	-11.7688
▁mhúnla	-11.7688
▁neamhrialta	-11.7688
▁phaiteolaíoch	-11.7688
▁richard	-11.7688
▁réamhlíneach	-11.7688
▁sporad	-11.7688
▁teagmhas	-11.7688
▁teimhneacht	-11.7688
▁timpist	-11.7688
▁íoslódáil	-11.7688
.1.1.7	-11.7688
aistre	-11.7688
bhliana	-11.7688
chorpr	-11.7688
dhúlag	-11.7688
ithub	-11.7688
▁chabháin	-11.7688
▁folúsghlan	-11.7688
▁gaeltachta	-11.7688
▁georg	-11.7688
▁liúnta	-11.7688
▁monocl	-11.7688
▁próiseáladh	-11.7688
▁réamhthuairisc	-11.7688
▁stampa	-11.7688
crophage	-11.7688
ghabhálta	-11.7688
siombáib	-11.7688
▁cnónna	-11.7688
▁fhíochán	-11.7688
▁ghnóthú	-11.7688
▁mhuineacháin	-11.7688
▁pháirc	-11.7688
brollach	-11.7688
▁suaite	-11.7688
covzx	-11.7688
inmheánach	-11.7688
príomhinstitiúid	-11.7688
▁Anseo	-11.7688
▁Glaineacht	-11.7688
▁boilg	-11.7688
▁gangelt	-11.7688
▁lava	-11.7688
▁pictiúir	-11.7688
▁samhradh	-11.7688
▁shiopa	-11.7688
▁shéideadh	-11.7688
▁94.5%	-11.7688
▁ceansaithe	-11.7688
▁fontana	-11.7688
▁maláire	-11.7688
▁meadhrán	-11.7688
▁réitithe	-11.7688
▁tadhaill	-11.7688
▁tomhalt	-11.7688
37.6%)	-11.7688
íosparta	-11.7688
▁comhiomlánóir	-11.7688
▁milse	-11.7688
▁philip	-11.7688
ghuaillí	-11.7688
hlegm	-11.7688
▁Leathna	-11.7688
▁spraoi	-11.7688
240,19	-11.7688
▁Phl	-11.7688
▁bhuairt	-11.7688
▁gnóthú	-11.7688
▁nglac	-11.7688
allmhairiú	-11.7688
▁Lorg	-11.7688
▁chuisle	-11.7688
íobairt	-11.7688
▁Feidhm	-11.7688
▁cheachtanna	-11.7688
▁colleg	-11.7688
▁contúirtí	-11.7688
▁scolaíocht	-11.7688
tiogma	-11.7688
▁airways	-11.7688
▁chomhleá	-11.7688
▁leadóige	-11.7688
eibhéal	-11.7688
íciatra	-11.7688
▁30-65	-11.7688
▁smig	-11.7688
iedcr	-11.7688
▁chopar	-11.7688
▁ngealltana	-11.7688
▁brúsca	-11.7688
isolate	-11.7688
▁87%	-11.7688
▁droma	-11.7688
▁coiteann	-11.7688
▁toilteana	-11.7688
▁íoslainn	-11.7688
▁faisin	-11.7688
▁cácaí	-11.7688
▁páirtíneach	-11.7688
dhiagnóisithe	-11.7688
▁toiliú	-11.7688
úinéir	-11.7688
▁slóga	-11.7688
eastósc	-11.7688
▁ghoile	-11.7688
athnuachan	-11.7688
T	-12.7523
Ú	-13.3773
P	-13.3774
O	-13.3775
–	-13.3776
”	-13.3777
R	-13.3778
/	-13.3779
G	-13.378
L	-13.3781
F	-13.3782
S	-13.3783
B	-13.3784
N	-13.3785
(	-13.3786
M	-13.3787
I	-13.3788
A	-13.3789
C	-13.379
